#version: 0.2
n g
i 4
a n
s h
z h
ng 1
j i
u 4
ng 2
Ġ Ġ
i 2
a o
x i
ng 4
an 2
i 3
i 1
d e
u 3
an 4
e 4
e n
c h
u o
u 2
ng 3
an 1
e 2
a i4
u 1
ĠĠ Ġ
o ng1
a 1
ã Ģ
sh i4
e i4
ao 4
i an2
a 4
y u
a ng1
y o
an 3
n 1
h u
a ng4
n ian2
en 2
l i
a ng3
e ng2
uo 4
uo 2
w ei4
m i
ao 3
z ai4
ãĢ ģ
b i
q i
a ng2
e 1
h e2
y i
e ng1
zh ong1
e r
b u4
o u4
a 3
e 3
n 4
sh i2
d i4
g uo2
a i2
u i4
r en2
ao 1
x u
y i1
n 2
o ng2
y u2
g u
l i4
zh i4
d i
w e
en 4
ch eng2
o ng4
y i4
g ong1
ji 2
e ng4
en 1
yu e4
yo u3
yu an2
d a4
a 2
l e
j i4
2 0
y i3
j u
a i1
p i
xi an4
o u1
ji a1
s i1
xi ng2
e i3
t i
y u3
ji 1
t a1
r i4
zh i1
h ou4
l i3
o u3
a i3
we i2
hu i4
d ao4
1 9
o ng3
q i2
u an2
zh eng4
mi ng2
xi 1
ao 2
ji an4
xu e2
ch u1
g e4
z uo4
uo 1
sh eng1
d ui4
yo u2
uo 3
q u1
sh ang4
en 3
de 2
b ei4
sh i3
zh u
zh an4
n 3
xi n1
ju n1
er 3
sh e4
r en4
f a1
w u4
bi ng4
k e4
er 2
l u4
d ai4
zh u3
y i2
sh u4
j u4
ji n4
z i4
yi n1
f u4
f ang1
ji ng1
n an2
hu a4
zh ou1
pi ng2
xi a4
l ai2
yo ng4
gu an1
t ong2
y u4
ãĢ ĭ
ãĢ Ĭ
f a3
zh u4
m ei3
Â ·
ji an1
b o
h uo4
b en3
xi ang1
zh i2
d ong4
xi ang4
mi n2
zh e4
ji ang1
q i1
f en1
sh ou3
q uan2
w en2
y an2
s uo3
ji ao4
q ian2
di an4
t e4
d uo1
z ui4
k ai1
ji e2
l ian2
zh i3
x i4
k e3
e ng3
e i1
d an4
m u4
y e4
d u4
f u2
sh u
m a3
y e3
d ong1
qi u2
b ei3
ãĢ Į
ãĢ į
g ao1
y a4
o u2
d u
ji e1
u n2
mi an4
h ai3
zh ang3
sh i1
ji n1
c i3
n ei4
s ai4
s an1
t ai2
g e2
xi ng4
g uo4
20 1
de ng3
y ao4
ch e1
c i4
s u
m o
r u4
w u3
g ai1
k u
di ng4
ch ang2
bi ao3
l a1
t i3
g ong4
ji e4
sh ou4
d ao3
sh an1
ch ang3
s i4
l v
z e2
t i2
k e1
d ang1
n eng2
er 4
w ai4
e i2
ch u
d an1
q i3
z i
k ou3
xi ao3
z u3
b a1
ju e2
li n2
li u2
n i
sh eng3
yi ng1
l an2
b i3
l uo2
t ong1
20 0
zh ong4
zh e3
sh u3
ti an1
zh en4
zh ong3
li e4
q i4
ch eng1
sh u1
yu an4
b ao3
t ai4
f u3
f eng1
m i3
qi ng1
sh en1
w ang2
yu n4
gu an3
f ei1
ji u4
g u3
li ang3
c eng2
m ei2
1 0
f en4
h ao4
y an3
we i3
z ong3
xu an3
xi ao4
d a2
n a4
li ang4
bo 1
z u2
ji ng4
b ao4
n i2
w u2
t ong3
hu a2
ji ao1
yu e1
yi ng3
bi an4
xi ng1
s u4
shu i3
y ang2
m en
b ao1
g e1
bo 2
c an1
c ong2
di an3
r u2
b an4
b i4
bi an1
w ang3
q u3
ch an3
s e4
z i1
q u
0 0
ch uan2
n v
sh eng4
r an2
t u2
zh ang1
x u4
p u3
g ai3
g ang3
nv 3
li ng4
l uo4
yo u4
t ou2
h u4
ch a2
c e4
ch i2
1 8
lv 4
qi an1
l i2
d ou1
1 2
zh eng1
k uo4
sh a1
l u
d ang3
f an3
g ou4
l ei4
x i2
ji ng3
t uan2
we i1
xi e1
li ng3
l ong2
gu i1
xi an1
r ong2
hu ang2
xi ang3
b an1
ji u3
yi ng4
m en2
sh ang1
sh en2
20 2
b an3
k a3
c u
m u3
ji n3
f u1
j u3
mo 2
gu ang3
c i2
sh uo1
qi ng2
zh an3
h ai2
zhu ang1
mo 4
c ai2
ji 3
d u2
1 1
pi n3
ti ng2
ch ao2
yi ng2
w o
ti ao2
p o
ji an3
t ang2
hu i2
du an4
ch en2
g en1
m i4
w an4
p ai2
w an1
z ao4
h ang2
w an2
bi ao1
l un2
19 9
xi e2
ji ang3
h an4
j u2
f an4
f ang2
h uo2
g u4
h an2
k ong1
ti e3
m eng2
bi e2
w u1
ji e3
zhu an1
yi n3
x u1
zh en1
ji a4
bi ng1
mi ng4
li ng2
h ong2
qi n1
z i3
lu n4
t u
o r
xi n4
ch u4
s u1
xi u1
ch u3
z ong1
1 5
h u2
qu e4
xi ao1
zh ao4
qi ang2
q u4
cu n1
ch ong2
pi an4
ji u1
f ang4
su i2
sh ou1
g eng4
â Ģ
gu ang1
j u1
ji a3
chu ang4
d i2
zhu an3
1 6
g uo3
xu n4
m an4
p ai4
f ei4
p ei4
19 8
d a3
t uo1
xu an1
ch u2
b ai2
l a
o n
zh u1
d u1
t u3
di ao4
xi a2
li u4
1 7
s ui4
hu i1
ti ng1
qi e3
t a3
qi ao2
h a1
g an3
z eng1
xi an3
m ai4
hu an2
x u3
w a3
tu i1
w en4
ch ao1
t ian2
b ai3
c ai3
li ang2
y a2
s a4
a r
b ai4
c un2
ji ao3
sh ao3
y an4
zhu ang4
d i3
h uo3
le i2
1 4
ji ang4
chu an1
yi n4
z ao3
yo ng3
s i3
de ng1
3 0
zhu n3
l e4
xu n2
n uo4
hu an4
s ong4
g ao4
l u3
1 3
19 4
b ang1
lv 3
y ang4
h en3
q un2
zh eng3
gu an4
po 4
g ang1
wo 3
19 7
hu a1
le i1
h ao3
t ao2
ku ang4
p i1
du n4
n ong2
g ei3
s ai1
shu ang1
li an4
ku ai4
i n
d i1
p an4
xi e3
19 5
k ao3
g ai4
h e4
h ei1
w ang4
li ao4
r e4
g e
z uo3
k ong4
19 6
y ang1
ch ang4
yi n2
r eng2
s en1
b ei1
l u2
pi ao4
y a1
k u4
2 5
bi n1
âĢ Ķ
r ang4
ch ong1
l ou2
b u3
l ao3
zh u2
ju n4
y ang3
r ui4
y ao1
xi an2
xi e4
ni an4
f or
yo u1
t an2
k ang1
p i2
h eng2
yu n2
k an4
ni ng2
li ao2
sh ao4
b u2
qi ng3
ch i3
2 4
m u
d ou4
mi an3
y ong1
t an3
w an3
h u1
r u
f an1
a l
t u1
g an1
su an4
di ng1
yu an3
w en1
t ui4
zh e
s t
2 1
xi u4
b a3
m an3
19 3
2 3
mu la
k ang4
for mula
2 8
t h
m ao2
r uo4
pi an1
m ao4
l ang3
qi n2
b a2
n a2
z an4
xi 3
gu i3
g ui4
r e
pi n2
wo 4
xi ong2
sh an4
2 2
xi ong1
m e
su i1
2 6
sh en3
qi ng4
mi ao2
f ang3
5 0
20 20
2 7
l ang2
o u
qi u1
s ong1
r i
d ang4
g eng1
qi ang1
f a2
z ao1
f eng4
zh ang4
ï ¼
h ao2
du n1
z ou3
h ai4
qi e4
2 9
t an4
z u
p ao4
p a4
shu n4
p eng2
xu an2
201 0
n i3
00 0
di ng3
ni u3
z ai3
zh ao1
zhu i1
lv e4
chu n1
20 19
hu n1
k ong3
ch e4
du an1
sh en4
xi ang2
du an3
g an4
r o
t e
k an1
l ao2
c ao3
201 6
s i
g u1
p ei2
de Ġ
Ġ deĠ
shi4 Ġ
Ġ shi4Ġ
Ġ nian2
Ġnian2 Ġ
wei4 Ġ
zai4 Ġ
Ġ wei4Ġ
Ġ zai4Ġ
he2 Ġ
Ġ he2Ġ
zhong1 Ġ
bu4 Ġ
di4 Ġ
shi2 Ġ
guo2 Ġ
yu2 Ġ
ren2 Ġ
Ġ bu4Ġ
yi1 Ġ
Ġ zhong1Ġ
li4 Ġ
zhi4 Ġ
gong1 Ġ
Ġ shi2Ġ
yue4 Ġ
ji2 Ġ
cheng2 Ġ
yi4 Ġ
you3 Ġ
Ġ di4Ġ
Ġ yue4Ġ
Ġ yu2Ġ
Ġ ren2Ġ
Ġ zhi4Ġ
da4 Ġ
Ġ ji2Ġ
yuan2 Ġ
Ġ you3Ġ
ji4 Ġ
Ġ guo2Ġ
Ġ li4Ġ
Ġ gong1Ġ
Ġ yi4Ġ
Ġ yi3
Ġ cheng2Ġ
jia1 Ġ
si1 Ġ
yu3 Ġ
Ġ xian4
Ġ ri4
Ġ yi1Ġ
Ġ xing2
Ġ ta1
li3 Ġ
ji1 Ġ
Ġ dao4
hou4 Ġ
wei2 Ġ
Ġ zhi1
Ġ da4Ġ
Ġ yuan2Ġ
xi1 Ġ
Ġri4 Ġ
Ġ ge4
Ġyi3 Ġ
Ġ le
xue2 Ġ
hui4 Ġ
Ġ yu3Ġ
zuo4 Ġ
Ġ ji4Ġ
ming2 Ġ
bei4 Ġ
Ġ qi2
Ġ chu1
Ġ jian4
Ġ si1Ġ
Ġ de2
Ġxing2 Ġ
sheng1 Ġ
Ġdao4 Ġ
Ġ ji1Ġ
Ġ hou4Ġ
zheng4 Ġ
Ġxian4 Ġ
dui4 Ġ
shang4 Ġ
qu1 Ġ
shi3 Ġ
Ġ jia1Ġ
Ġ er3
Ġ xi1Ġ
you2 Ġ
Ġta1 Ġ
Ġ li3Ġ
Ġ er2
Ġ jun1
zhan4 Ġ
Ġ bing4
Ġzhi1 Ġ
Ġge4 Ġ
zhu3 Ġ
Ġle Ġ
ren4 Ġ
zi4 Ġ
wu4 Ġ
fu4 Ġ
xin1 Ġ
dai4 Ġ
ju4 Ġ
ping2 Ġ
Ġ ke4
Ġ zhou1
xiang1 Ġ
Ġchu1 Ġ
Ġ hui4Ġ
nan2 Ġ
Ġ she4
Ġ bei4Ġ
shu4 Ġ
an1 Ġ
Ġ ming2Ġ
xia4 Ġ
guan1 Ġ
Ġer3 Ġ
Ġ yin1
Ġ yu4
jing1 Ġ
hua4 Ġ
yan2 Ġ
Ġjian4 Ġ
lu4 Ġ
fang1 Ġ
Ġde2 Ġ
kai1 Ġ
Ġ dan4
jian1 Ġ
Ġer2 Ġ
min2 Ġ
zhu4 Ġ
shou3 Ġ
zhe4 Ġ
fa1 Ġ
lai2 Ġ
Ġ wei2Ġ
xiang4 Ġ
wen2 Ġ
yong4 Ġ
Ġjun1 Ġ
xi4 Ġ
qian2 Ġ
ben3 Ġ
te4 Ġ
zhi2 Ġ
fa3 Ġ
qi1 Ġ
jie2 Ġ
lian2 Ġ
Ġbing4 Ġ
Ġ dong4
Ġqi2 Ġ
dian4 Ġ
Ġke4 Ġ
Ġ jin4
dong1 Ġ
Ġ dui4Ġ
Ġ huo4
mu4 Ġ
jiao4 Ġ
fen1 Ġ
tai2 Ġ
Ġ zhan4Ġ
zhang3 Ġ
du4 Ġ
Ġ qiu2
jiang1 Ġ
Ġ ping2Ġ
ye4 Ġ
gao1 Ġ
Ġzhou1 Ġ
bei3 Ġ
suo3 Ġ
shi1 Ġ
Ġyu4 Ġ
duo1 Ġ
jie1 Ġ
ge2 Ġ
Ġ shang4Ġ
jin1 Ġ
a1 Ġ
Ġ zuo4Ġ
fu2 Ġ
Ġ zheng4Ġ
an4 Ġ
kou3 Ġ
Ġ you2Ġ
zhi3 Ġ
guo4 Ġ
Ġ tong2
Ġ fu4Ġ
ma3 Ġ
tong1 Ġ
Ġ ren4Ġ
Ġ xue2Ġ
zui4 Ġ
hai3 Ġ
ci3 Ġ
quan2 Ġ
xing4 Ġ
ru4 Ġ
wai4 Ġ
nei4 Ġ
la1 Ġ
jue2 Ġ
ke3 Ġ
tian1 Ġ
deng3 Ġ
chang3 Ġ
chang2 Ġ
shan1 Ġ
wu3 Ġ
zhen4 Ġ
zi Ġ
yao4 Ġ
an3 Ġ
bi3 Ġ
qi3 Ġ
Ġyin1 Ġ
ye3 Ġ
gai1 Ġ
mi3 Ġ
ao4 Ġ
ya4 Ġ
mian4 Ġ
bao3 Ġ
ci4 Ġ
zhong4 Ġ
jie4 Ġ
shou4 Ġ
Ġshe4 Ġ
feng1 Ġ
Ġ ju4Ġ
zhong3 Ġ
che1 Ġ
Ġ zhe4Ġ
Ġ sheng1Ġ
ti3 Ġ
lin2 Ġ
1 Ġ
bao1 Ġ
sai4 Ġ
yi2 Ġge4Ġ
Ġ dai4Ġ
shen1 Ġ
ding4 Ġ
Ġdan4 Ġ
sheng3 Ġ
ai4 Ġ
luo2 Ġ
yi2 Ġ
Ġdong4 Ġ
mei3 Ġguo2Ġ
xiao3 Ġ
san1 Ġ
neng2 Ġ
qi4 Ġ
shu1 Ġ
ze2 Ġ
zhe3 Ġ
lie4 Ġ
xuan3 Ġ
liu2 Ġ
2 Ġ
si4 Ġ
Ġqiu2 Ġ
qing1 Ġ
yuan4 Ġ
jing4 Ġ
e2 Ġ
wang2 Ġ
ke1 Ġ
ba1 Ġ
tai4 Ġ
lan2 Ġ
Ġhuo4 Ġ
ying3 Ġ
bao4 Ġ
zong3 Ġ
bi4 Ġ
fu3 Ġ
dao3 Ġ
gu3 Ġ
1 Ġnian2Ġ
ying1 Ġ
Ġ xin1Ġ
fen4 Ġ
ge1 Ġ
5 Ġnian2Ġ
xiao4 Ġ
ni2 Ġ
yue1 Ġ
Ġ zi4Ġ
na4 Ġ
jiao1 Ġ
2 Ġnian2Ġ
ru2 Ġ
er4 Ġ
4 Ġnian2Ġ
zi1 Ġ
dan1 Ġ
Ġ zh
hao4 Ġ
8 Ġnian2Ġ
3 Ġnian2Ġ
liang4 Ġ
tou2 Ġ
pu3 Ġ
guan3 Ġ
biao3 Ġ
cheng1 Ġ
su4 Ġ
chuan2 Ġ
xing1 Ġ
wu2 Ġ
ti2 Ġ
Ġ mi3Ġ
nv3 Ġ
yan3 Ġ
chan3 Ġ
Ġjin4 Ġ
bo2 Ġ
fei1 Ġ
bo1 Ġ
Ġzhong1Ġ guo2Ġ
se4 Ġ
da2 Ġ
Ġ dang1
mei3 Ġ
ao3 Ġ
Ġ m
Ġwei4Ġ yu2Ġ
ceng2 Ġ
shui3 Ġ
Ġ zhu4Ġ
7 Ġnian2Ġ
wang3 Ġ
Ġ xia4Ġ
tu2 Ġ
Ġ xiang1Ġ
gui1 Ġ
bian4 Ġ
Ġ nan2Ġ
Ġ ran2
bian1 Ġ
yang2 Ġ
le Ġ
zhang1 Ġ
dian3 Ġ
Ġ t
cong2 Ġ
gai3 Ġ
jiu4 Ġ
bao1Ġ kuo4
hua2 Ġ
sheng4 Ġ
lv4 Ġ
gang3 Ġ
zu3 Ġ
Ġ c
Ġ ben3Ġ
sha1 Ġ
jing3 Ġ
jian3 Ġ
shu3 Ġ
qing2 Ġ
zu2 Ġ
liang3 Ġ
tong3 Ġ
ban4 Ġ
gong4 Ġ
shang1 Ġ
li2 Ġ
tong2 Ġ
long2 Ġ
0 Ġnian2Ġ
3 Ġ
xu4 Ġ
9 Ġnian2Ġ
luo4 Ġ
chi2 Ġ
5 Ġ
jin4 Ġ
mei2 Ġ
hu4 Ġ
ban1 Ġ
Ġ lu4Ġ
guang3 Ġ
ce4 Ġ
jin3 Ġ
Ġta1Ġ men
shen2 Ġ
zhi1 Ġ
mi4 Ġ
ai1 Ġ
zheng1 Ġ
wei1 Ġ
6 Ġnian2Ġ
you4 Ġ
a4 Ġ
Ġ gai1Ġ
fan3 Ġ
ting2 Ġ
xi2 Ġ
chu1 Ġ
ka3 Ġ
cai2 Ġ
cha2 Ġ
qu3 Ġ
shuo1 Ġ
Ġ zhu3Ġ
ci2 Ġ
xiang3 Ġ
yun4 Ġ
jiang3 Ġ
men2 Ġ
e4 Ġ
mu3 Ġ
wei3 Ġ
t Ġ
tuan2 Ġ
Ġgong1Ġ li3Ġ
ling3 Ġ
yan2Ġ jiu1
chao2 Ġ
Ġ 200
lei4 Ġ
ying4 Ġ
tang2 Ġ
pin3 Ġ
jian4 Ġ
4 Ġ
Ġyi3 Ġji2Ġ
jia4 Ġ
chen2 Ġ
xie1 Ġ
Ġ duo1Ġ
yin3 Ġ
hang2 Ġ
dong4 Ġ
Ġ you2
yi3 Ġ
jiu3 Ġ
pai2 Ġ
fu1 Ġ
gou4 Ġ
lun2 Ġ
rong2 Ġ
ling4 Ġ
jie3 Ġ
tai2Ġ wan1
qi2 Ġ
ang1 Ġ
dang3 Ġ
ĠdeĠ di4Ġ
ke3 Ġyi3Ġ
shi3Ġ yong4Ġ
xian1 Ġ
duan4 Ġ
xu1 Ġ
huang2 Ġ
ke4 Ġ
0 Ġ
ying2 Ġ
tiao2 Ġ
biao1 Ġ
ĠdeĠ yi1Ġ
qian1 Ġ
e ĠĠĠ
zhan3 Ġ
xian4 Ġ
mo2 Ġ
u2 Ġ
Ġcheng2Ġ wei2Ġ
ban3 Ġ
mei2 Ġyou3Ġ
ou1 Ġ
xiao1 Ġ
hong2 Ġ
s Ġ
han4 Ġ
wei3 Ġyuan2Ġ
ling2 Ġ
kai1Ġ shi3Ġ
su1 Ġ
zhuang1 Ġ
Ġtong2 Ġ
meng2 Ġ
ju2 Ġ
hui2 Ġ
cun1 Ġ
6 Ġ
kong1 Ġ
Ġqi2 Ġzhong1Ġ
ren2Ġ kou3Ġ
yu4 Ġ
bao1Ġkuo4 Ġ
fang2 Ġ
Ġgong1Ġ si1Ġ
dou1 Ġ
ang2 Ġ
ĠdeĠ shi4Ġ
ĠĠĠ zai4Ġ
yin1 Ġ
ao1 Ġ
n1 Ġ
qiang2 Ġ
huo4 Ġ
zhao4 Ġ
zheng4 Ġzhi4Ġ
yi2 Ġge4
du2 Ġ
mo4 Ġ
zi3 Ġ
fa3 Ġguo2Ġ
cai3 Ġ
bing1 Ġ
xin4 Ġ
Ġda4Ġ xue2Ġ
Ġshi4Ġ yi1Ġ
qin1 Ġ
Ġta1 ĠdeĠ
hai2 Ġ
chu4 Ġ
Ġ 201
lun4 Ġ
zhen1 Ġ
wan4 Ġ
hu2 Ġ
fan4 Ġ
xing2 Ġ
wen4 Ġ
ou4 Ġ
man4 Ġ
guang1 Ġ
ju1 Ġ
xun4 Ġ
biao3 Ġshi4Ġ
s ĠĠĠ
she4 Ġ
zhong1 ĠdeĠ
Ġ gao1Ġ
zhuan1 Ġ
wan2 Ġ
can1 Ġ
da3 Ġ
zong1 Ġ
bai2 Ġ
dian4 Ġshi4Ġ
yin4 Ġ
diao4 Ġ
ming4 Ġ
Ġshi4Ġ wei4Ġ
shi4 ĠdeĠ
8 Ġ
pian4 Ġ
fei4 Ġ
zhuan3 Ġ
en3 Ġ
tuo1 Ġ
ju3 Ġ
xiu1 Ġ
han2 Ġ
7 Ġ
xie2 Ġ
gu4 Ġ
Ġbu4Ġ fen4Ġ
Ġren2Ġ kou3Ġ
guo3 Ġ
ĠĠĠ 201
ta1 Ġ
Ġhe2Ġ guo2Ġ
zhong1Ġ guo2Ġ
dang1 Ġ
10 Ġyue4Ġ
Ġ ã
ou2 Ġ
e1 Ġ
zao4 Ġ
12 Ġyue4Ġ
7 Ġyue4Ġ
wu1 Ġ
9 Ġyue4Ġ
Ġ dong1Ġ
Ġ mu4Ġ
mian4 Ġji1Ġ
Ġren2Ġ min2Ġ
que4 Ġ
8 Ġyue4Ġ
Ġ zui4
di2 Ġ
Ġdi4Ġ qu1Ġ
huan2 Ġ
3 Ġyue4Ġ
Ġ hu
zhu1 Ġ
an2 Ġ
jia3 Ġ
Ġ 19
1 Ġyue4Ġ
du1 Ġ
Ġ ye3Ġ
di3 Ġ
Ġ jin1Ġ
shou1 Ġ
ou3 Ġ
ting1 Ġ
5 Ġyue4Ġ
gan3 Ġ
ying1 Ġguo2Ġ
e Ġ
dao4 Ġ
zhuang4 Ġ
ang3 Ġ
Ġ ci3Ġ
zheng4 Ġshi4Ġ
huo3 Ġ
zhou1 Ġ
chong2 Ġ
6 Ġyue4Ġ
xia2 Ġ
Ġ jiang1Ġ
geng4 Ġ
yan2Ġjiu1 Ġ
cheng2 Ġshi4Ġ
4 Ġyue4Ġ
Ġguo2Ġ jia1Ġ
yong3 Ġ
ĠĠĠ di4Ġ
fang4 Ġ
tian2 Ġ
jun1 Ġ
shu3 Ġyu2Ġ
Ġping2Ġ fang1
Ġ p
ji3 Ġ
bie2 Ġ
qun2 Ġ
Ġdi4Ġ yi1Ġ
jiang4 Ġ
a Ġ
gen1 Ġ
hui1 Ġ
n3 Ġ
11 Ġyue4Ġ
i4 Ġ
Ġ te4Ġ
Ġshi4Ġ ji4Ġ
Ġping2Ġfang1 Ġgong1Ġli3Ġ
nong2 Ġ
Ġtong2 Ġshi2Ġ
xun2 Ġ
tie3 Ġ
shuang1 Ġ
Ġ ru2Ġ
pai4 Ġ
qu4 Ġ
Ġ C
Ġ g
Ġ fen1Ġ
liang2 Ġ
dan1 Ġren4Ġ
u3 Ġ
tao2 Ġ
shao3 Ġ
ta3 Ġ
er3 Ġ
Ġ ye3
ang4 Ġ
dian4Ġ ying3Ġ
tai2Ġwan1 Ġ
jiao3 Ġ
9 Ġ
qiao2 Ġ
bai3 Ġ
en1 Ġ
chu3 Ġ
si3 Ġ
i2 Ġ
ĠdeĠ shi2Ġ
Ġ S
i1 Ġ
Ġ zhe4
gao4 Ġ
yun4 Ġdong4
gen1 Ġju4Ġ
li4Ġ shi3Ġ
pan4 Ġ
yin2 Ġ
Ġ l
Ġ 18
chao1 Ġ
yan4 Ġ
chuang4 Ġ
Ġshi4Ġ zhen4Ġ
can1 Ġjia1Ġ
ao2 Ġ
Ġyin1 Ġwei4Ġ
gang1 Ġ
ĠĠĠ S
bai4 Ġ
guo2 ĠdeĠ
che1 Ġzhan4Ġ
qi1Ġ jian1Ġ
Ġping2Ġ fang1Ġ
Ġ s
li4 ĠdeĠ
zheng4Ġ fu3Ġ
Ġri4Ġ ben3Ġ
Ġnian2 ĠdeĠ
gai4 Ġ
bing4 Ġ
wa3 Ġ
wo3 Ġ
zhun3 Ġ
huan4 Ġ
i3 Ġ
ya2 Ġ
gong4 Ġhe2Ġguo2Ġ
Ġxian4 ĠdeĠ
chuan1 Ġ
song4 Ġ
lei2 Ġ
ha1 Ġ
hei1 Ġ
formula Ġ
ai3 Ġ
qu1 ĠdeĠ
ti2 Ġgong1Ġ
qie3 Ġ
ng3 Ġ
hen3 Ġ
uo2 Ġ
2 Ġyue4Ġ
hua1 Ġ
sui2 Ġ
lei1 Ġ
deng1 Ġ
jing1 Ġji4Ġ
ĠĠĠ 200
huo2 Ġ
Ġ h
Ġzhong1Ġ yang1
kao3 Ġ
Ġguo2Ġ ji4Ġ
chu2 Ġ
n4 Ġ
shang4 ĠdeĠ
Ġ 199
tong1Ġ guo4Ġ
Ġ A
Ġyou2 Ġyu2Ġ
wei3Ġyuan2Ġ hui4Ġ
lian4 Ġ
Ġta1Ġmen Ġ
nuo4 Ġ
cheng1 Ġwei2Ġ
Ġ tian1Ġ
Ġshi4Ġ jie4Ġ
Ġ bei3Ġ
Ġyin1Ġ ci3Ġ
kuai4 Ġ
mai4 Ġ
zuo3 Ġ
d ĠĠĠ
ming2 Ġwei4Ġ
Ġ qian2Ġ
Ġshi4Ġ zai4Ġ
zhu3 Ġyi4Ġ
sa4 Ġ
tu3 Ġ
Ġzhi1 Ġhou4Ġ
Ġran2 Ġ
Ġ 3
xiang1Ġ gang3Ġ
1 Ġri4Ġ
piao4 Ġ
shi2 ĠdeĠ
a2 Ġ
chi3 Ġ
ĠĠĠ 202
xi4Ġ tong3Ġ
Ġ n
liao4 Ġ
chong1 Ġ
quan2 Ġguo2Ġ
00 Ġ
Ġ hai3Ġ
lu3 Ġ
Ġ jie2Ġ
uo4 Ġ
pei4 Ġ
po4 Ġ
xuan1 Ġ
xu3 Ġ
lu2 Ġ
ri4 Ġ
Ġxing2 ĠdeĠ
ren2 ĠdeĠ
suo3 Ġyou3Ġ
kuang4 Ġ
Ġdang1 Ġ
zeng1 Ġ
men Ġ
guan3 Ġli3Ġ
qiu2 Ġ
Ġzhi1 Ġyi1Ġ
heng2 Ġ
Ġ M
ai2 Ġ
pi1 Ġ
Ġgong1Ġ zuo4Ġ
sui4 Ġ
sen1 Ġ
yang4 Ġ
da4 ĠdeĠ
di1 Ġ
xuan1 Ġbu4Ġ
Ġzhong1Ġ xin1Ġ
liu4 Ġ
zao3 Ġ
Ġ ma3Ġ
Ġ jing1Ġ
de2 Ġ
wang4 Ġ
chang4 Ġ
bu4 ĠdeĠ
jin4 Ġxing2Ġ
uo1 Ġ
Ġ 4
he4 Ġ
fa1 Ġxian4Ġ
Ġta1 Ġzai4Ġ
qian1 Ġmi3Ġ
C Ġ
dun4 Ġ
ying3Ġ xiang3Ġ
bu3 Ġ
er2 Ġ
zu3 Ġzhi1Ġ
ĠĠĠ sheng1Ġ
yang3 Ġ
2020 Ġnian2Ġ
luo2 Ġsi1Ġ
sai1 Ġ
Ġ bao1Ġkuo4Ġ
Ġshi4Ġ jie4
cheng2 ĠdeĠ
t ĠĠĠ
xian2 Ġ
ke3Ġ neng2
pi2 Ġ
nian4 Ġ
Ġ shi3Ġ
Ġjin4 Ġxing2Ġ
bang1 Ġ
Ġ zui4Ġ
Ġcheng2Ġ li4Ġ
Ġ deng3Ġ
lao3 Ġ
bei1 Ġ
le4 Ġ
Ġ 198
Ġren4Ġ wei2Ġ
Ġ gai1
you1 Ġ
eng2 Ġ
jun4 Ġ
a ĠĠĠ
wen2Ġ hua4Ġ
hao3 Ġ
fa1Ġ zhan3Ġ
ke1 Ġxue2Ġ
Ġ k
liao2 Ġ
huo2 Ġdong4Ġ
Ġzuo4Ġ wei2Ġ
ku4 Ġ
Ġping2Ġfang1Ġ qian1Ġmi3Ġ
ge4 Ġ
qi2 Ġta1Ġ
Ġ f
hua2 Ġren2Ġmin2Ġ
tan2 Ġ
ri4 Ġben3Ġ
Ġ T
hui4 Ġyi4Ġ
miao2 Ġ
y ĠĠĠ
Ġ a1Ġ
jian1 ĠdeĠ
tie3 Ġlu4Ġ
Ġ shou3Ġ
ĠdeĠ ren2Ġ
bi3Ġ sai4Ġ
rui4 Ġ
ning2 Ġ
lou2 Ġ
yong4 Ġyu2Ġ
Ġ 202
zheng3 Ġ
2010 Ġnian2Ġ
ĠdeĠ gong1Ġ
Ġshi2Ġ jian1Ġ
xian3 Ġ
mian3 Ġ
ui4 Ġ
Ġ I
ran2 Ġ
re4 Ġ
mian4Ġ ji1
A Ġ
y a3
min2 Ġguo2Ġ
wu1 Ġke4Ġ
Ġ B
gong4 Ġyou3Ġ
ĠĠĠ li4Ġshi3Ġ
Ġ ch
yuan3 Ġ
zhu3Ġ yao4Ġ
dou4 Ġ
ge Ġ
wen4Ġ ti2Ġ
ĠĠĠsheng1Ġ ping2Ġ
hua2Ġren2Ġmin2Ġ gong4Ġhe2Ġguo2Ġ
fang1 Ġshi4Ġ
Ġ qing1Ġ
cun2 Ġ
Ġ 5
guan4 Ġjun1Ġ
Ġdi4Ġ er4Ġ
ke3Ġ neng2Ġ
di4 ĠdeĠ
10 Ġ
u1 Ġ
dao3 Ġzhi4Ġ
Ġ fu2Ġ
guan1Ġ xi4Ġ
y Ġ
Ġ mei3
Ġ P
fen1 Ġbu4Ġ
Ġgong1Ġ cheng2Ġ
wan2 Ġcheng2Ġ
dan1 Ġwei4Ġ
dai4Ġ biao3Ġ
ya1 Ġ
yi1 Ġwei4Ġ
Ġhuo4 Ġde2Ġ
tui1 Ġ
Ġbu4Ġ fen4
Ġ wu2Ġ
Ġ you4Ġ
ĠĠĠ C
Ġ 15
a m
zhi4 ĠdeĠ
Ġcheng2Ġ yuan2Ġ
2016 Ġnian2Ġ
d Ġ
ĠdeĠ cheng2Ġ
Ġ 194
zhang4 Ġ
gan1 Ġ
kai1Ġ shi3
2019 Ġnian2Ġ
lv3 Ġ
jiao4 Ġyu4Ġ
yuan2 ĠdeĠ
yong1 Ġyou3Ġ
cun2 Ġzai4Ġ
Ġ zhi2
er4 Ġshi2Ġ
ĠĠĠ M
Ġ 6
eng1 Ġ
bei3 Ġbu4Ġ
lian2 Ġhe2Ġ
bin1 Ġ
you2 Ġyu2Ġ
yun2 Ġ
hou4 ĠdeĠ
Ġ cong2Ġ
Ġjian4Ġ zhu4Ġ
Ġshi4Ġ zhong1Ġ
pian1 Ġ
xuan2 Ġ
guo2Ġ jia1Ġ
dui4 Ġyu2Ġ
niu3 Ġ
yi4 ĠdeĠ
Ġle Ġyi1Ġ
ju4 Ġyou3Ġ
xiu4 Ġ
shao4 Ġ
zheng4Ġ fu3
Ġ D
shen3 Ġ
xie4 Ġ
Ġbing4 Ġzai4Ġ
kang1 Ġ
xin1 ĠdeĠ
si1 ĠdeĠ
gui4 Ġ
gei3 Ġ
shi3Ġ yong4
e2Ġ luo2Ġsi1Ġ
yin4Ġ du4Ġ
fu2Ġ wu4Ġ
wan3 Ġ
tu1 Ġ
Ġdan4 Ġshi4Ġ
ren4 Ġhe2Ġ
sheng1 Ġyu2Ġ
ding1 Ġ
che4 Ġ
xu3 Ġduo1Ġ
rang4 Ġ
Ġ suo3
Ġ mian4Ġji1Ġ
xing2 Ġzheng4Ġ
liang3 Ġge4Ġ
qing3 Ġ
fa1Ġ sheng1Ġ
Ġzhong1Ġyang1 Ġ
Ġren2Ġkou3Ġ mi4Ġ
huo4 Ġde2Ġ
Ġ jin3Ġ
Ġ 16
zi4Ġ ji3
ĠdeĠ yi2Ġge4Ġ
nan2 Ġbu4Ġ
man3 Ġ
zhuan1 Ġji2Ġ
mian4Ġji1 Ġwei4Ġ
Ġ b
bao3Ġ hu4Ġ
Ġdao4 ĠleĠ
yun4 Ġdong4Ġ
Ġdang1 Ġshi2Ġ
Ġ mei3Ġguo2Ġ
Ġqi2 Ġta1Ġ
lai2 ĠdeĠ
Ġ ling4Ġ
Ġzheng4Ġ fu3Ġ
Ġ xiang4Ġ
Ġtong2 Ġnian2Ġ
xie3 Ġ
eng4 Ġ
ruo4 Ġ
wen1 Ġ
Ġchu1 ĠdeĠ
du2 Ġli4Ġ
jue2Ġ ding4Ġ
zhu3Ġ yao4
Ġshe4 Ġji4Ġ
fan1 Ġ
mao2 Ġ
Ġ shi3
Ġli4Ġ shi3Ġ
Ġ 195
suan4 Ġ
Ġ lian2Ġ
Ġ ying1Ġ
e l
ming2 ĠdeĠ
Ġ luo2Ġ
geng1 Ġ
Ġ zong3Ġ
qin2 Ġ
can1 Ġyu4Ġ
hai4 Ġ
tan4 Ġ
fa1 Ġxing2Ġ
Ġshi4Ġwei4Ġ yu2Ġ
jiu4 Ġshi4Ġ
fang1Ġ mian4Ġ
Ġyou3Ġ yi1Ġ
Ġyu2Ġ 201
Ġ zhi3
shu4Ġ ju4Ġ
Ġg tĠ
kan4 Ġ
zhi2Ġ wu4Ġ
Ġ 197
kan1 Ġ
a c
fang3 Ġ
ren4Ġ wei2Ġ
ti on
shan4 Ġ
Ġ ci3
pei2 Ġ
xiang1Ġ gang3
ĠĠĠ A
Ġ 7
Ġshi4Ġ di4Ġ
hu1 Ġ
tui4 Ġ
Ġl tĠ
yi4 Ġwei4Ġ
gu4 Ġshi4Ġ
Ġ ba1Ġ
Ġxian4 Ġzai4Ġ
fa1Ġ zhan3
she4 Ġhui4Ġ
Ġxing2Ġ zheng4Ġ
qu1 Ġwei4Ġ
feng4 Ġ
wan1 Ġ
qiang1 Ġ
lang3 Ġ
T Ġ
zhe Ġ
ju3 Ġxing2Ġ
Ġshi4Ġ shi4Ġ
duan3 Ġ
Ġli4Ġ ru2Ġ
lie4Ġ che1Ġ
er Ġ
Ġzui4 Ġzhong1Ġ
nei4 ĠdeĠ
shou4 Ġdao4Ġ
Ġ E
e3 Ġ
shu3 ĠdeĠ
xiao3 Ġshi2Ġ
su an1Ġ
zu2 Ġqiu2Ġ
lang2 Ġ
dian4Ġ ying3
Ġyu2Ġ 200
Ġbu4Ġ tong2
hua4 ĠdeĠ
su n1Ġ
xu1Ġ yao4Ġ
kong4 Ġ
song1 Ġ
ren2 Ġshi4Ġ
pao4 Ġ
lai2Ġ zi4Ġ
zuo4 ĠdeĠ
Ġ 8
zeng1 Ġjia1Ġ
Ġji4Ġ hua4Ġ
min2Ġ zhu3Ġ
tan3 Ġ
zuo4Ġ wei2Ġ
Ġshi2Ġ qi1Ġ
mao4 Ġ
dan4 Ġ
ĠĠĠ P
Ġ zhi3Ġ
kong4 Ġzhi4Ġ
xiang2 Ġ
Ġshi4Ġ jian4Ġ
Ġjian4 ĠdeĠ
xiong2 Ġ
Ġyin1 Ġyue4Ġ
Ġ sui1
Ġ tong1Ġ
Ġran2 Ġer2Ġ
o l
y ao2Ġ
Ġ H
zuo4Ġ pin3Ġ
Ġzai4Ġ di4Ġ
ren2Ġ min2Ġ
Ġren2Ġ yuan2Ġ
xue2Ġ yuan4Ġ
ta1 ĠdeĠ
ba3 Ġ
S Ġ
xi4Ġ tong3
zu3 Ġcheng2Ġ
Ġyi3Ġ jing1Ġ
Ġ ceng2Ġ
Ġ 17
yin1 Ġyue4Ġ
zai3 Ġ
r Ġ
a1 Ġer3Ġ
Ġhe2Ġ zuo4Ġ
chao1Ġ guo4Ġ
Ġ mei3Ġ
zong3Ġ tong3Ġ
ku an3Ġ
hui4 ĠdeĠ
Ġjian4 Ġyu2Ġ
ji4 ĠdeĠ
y e2Ġ
Ġ shu3Ġyu2Ġ
Ġhou4Ġ lai2Ġ
Ġ zhang1Ġ
Ġ san1Ġ
Ġ L
yu2 Ġshi4Ġ
qiu1 Ġ
Ġ 196
Ġli4Ġ ya4Ġ
Ġcheng2Ġ gong1Ġ
fa1 Ġbu4Ġ
yao1 Ġqiu2Ġ
da4Ġ li4Ġ
Ġ quan2Ġ
Ġzhe4Ġ xie1Ġ
Ġ 000
Ġyi4Ġ yuan2Ġ
Ġ R
Ġshe4 Ġyou3Ġ
r a
yun4Ġdong4 Ġyuan2Ġ
Ġyin1Ġ ci3
Ġ wu3Ġ
han2 Ġguo2Ġ
bu4 Ġzai4Ġ
you3 ĠdeĠ
Ġ 9
ni2Ġ ya4
un2 Ġ
zao4 Ġcheng2Ġ
ĠĠĠ B
dang1 Ġshi2Ġ
ou1 Ġzhou1Ġ
zhui1 Ġ
Ġgong1Ġ yuan2Ġ
jie2Ġ mu4Ġ
Ġ you4
jia1 ĠdeĠ
xing4 ĠdeĠ
sheng1 ĠdeĠ
ĠdeĠ yi2Ġge4
Ġri4 Ġzai4Ġ
xiao3 Ġxing2Ġ
D Ġ
ren2Ġ wu4Ġ
xi4Ġ lie4Ġ
Ġci3Ġ wai4Ġ
gong4Ġ chan3Ġ
m Ġ
chun1 Ġ
Ġzh Ġ
Ġ liu2Ġ
Ġã ĥ
ding3 Ġ
ĠĠĠ T
Ġ 1
20 Ġ
Ġ N
Ġshi4Ġ he2Ġ
Ġ jiang1
ĠĠĠ deĠ
ma3 Ġwei4Ġ
zan4 Ġ
lve4 Ġ
Ġ G
ĠdeĠ bu4Ġ
ye3 Ġshi4Ġ
ku an1Ġ
o f
xue2Ġ jia1Ġ
xu e4Ġ
san1 Ġnian2Ġ
Ġ jian3Ġ
ni3 Ġ
ĠĠĠ 199
fan4 Ġwei2Ġ
Ġ ceng2
ĠĠĠ 19
bi3Ġ sai4
qing4 Ġ
Ġbu4Ġ tong2Ġ
Ġ wo3Ġ
ĠdeĠ ji1Ġ
you2Ġ xi4Ġ
Ġ gen1Ġju4Ġ
dang4 Ġ
Ġ an1Ġ
Ġxing2 Ġcheng2Ġ
ĠĠĠdi4Ġ li3Ġ
Ġde2 Ġguo2Ġ
zi4 Ġzhi4Ġ
Ġ 0
Ġ sui2
she4 Ġji4Ġ
ĠdeĠ ji4Ġ
Ġ ling4
shu1 Ġji4Ġ
Ġ cong2
Ġ xiao3Ġ
jue2Ġ se4Ġ
Ġshe4 Ġhui4Ġ
ï¼ į
dou1 Ġshi4Ġ
ĠĠĠ shi4Ġ
dun1 Ġ
yi1 Ġnian2Ġ
Ġ 193
chong2 Ġxin1Ġ
Ġ F
z a2
li3 ĠdeĠ
bu2 Ġshi4Ġ
o 2Ġ
xiong1 Ġ
guan1 Ġyu2Ġ
Ġzhong1Ġ hua2Ġ
sai4 Ġshi4Ġ
ge1Ġ qu3Ġ
Ġsi1Ġ te4Ġ
jiao1Ġ tong1Ġ
zhong4Ġ yao4
Ġyou2Ġ xi4Ġ
da4Ġ xue2Ġ
kai1Ġ fa1Ġ
i l
ji2 ĠdeĠ
wo4 Ġ
ong3 Ġ
pin2 Ġ
duan1 Ġ
qian2Ġ wang3Ġ
Ġ jiu4Ġ
Ġda4Ġ xue2
ping2 Ġjun1Ġ
k Ġ
Ġ 1Ġ
xian3 Ġshi4Ġ
Ġ guan1Ġ
qu e1Ġ
er4 Ġnian2Ġ
Ġzhong1Ġ hua2Ġren2Ġmin2Ġgong4Ġhe2Ġguo2Ġ
cao3 Ġ
hou4 Ġzai4Ġ
Ġ yan2Ġ
zhi2Ġ ye4Ġ
pa4 Ġ
xia4 ĠdeĠ
yan3 Ġyuan2Ġ
dang1 Ġdi4Ġ
Ġke4 Ġsi1Ġ
zou3 Ġ
fa1 Ġxian4
12 Ġ
Ġjian4 Ġli4Ġ
qu1Ġ yu4Ġ
guan3Ġ xia2Ġ
xuan3Ġ ju3Ġ
wei2 Ġyi1Ġ
peng2 Ġ
guo2Ġ ji4Ġ
dui4 ĠdeĠ
z ai1Ġ
bo2Ġ wu4Ġ
Ġ 10
Ġdi4Ġ guo2Ġ
qi an3Ġ
po 1Ġ
30 Ġ
cai3Ġ yong4Ġ
qi1 ĠdeĠ
fan3 Ġdui4Ġ
Ġdai4Ġ biao3Ġ
wu4 ĠdeĠ
qie4 Ġ
kong3 Ġ
zu3 Ġzhi1
Ġxiang1Ġ gang3Ġ
qu4 Ġshi4Ġ
Ġwei4Ġ leĠ
ni u2Ġ
yi1 Ġbu4Ġfen4Ġ
chu2 ĠleĠ
Ġ 14
Ġã ģ
ba2 Ġgao1Ġ
p ai1
Ġ liang3
zhao1 Ġ
shi2 Ġnian2Ġ
xiang4Ġ mu4Ġ
yi1 Ġbu4Ġ
zui4 Ġzhong1Ġ
du4 Ġwei4Ġ
hun1 Ġ
Ġhuo4 Ġde2
ni2Ġ ya4Ġ
zheng4Ġzhi4Ġ ren2Ġwu4Ġ
Ġ J
mi ao4Ġ
ru an3Ġ
Ġã Ĥ
fa2 Ġ
yin1 Ġwei4Ġ
hai2 Ġyou3Ġ
ĠĠĠ ren2Ġkou3Ġ
jiao4Ġ shou4Ġ
ch a1Ġ
xi3 Ġ
ya3 Ġ
ĠĠĠ L
su n3Ġ
0Ġnian2Ġ dai4Ġ
Ġta1 Ġshi4Ġ
kuo4 Ġ
de2 Ġguo2Ġ
Ġzhi4Ġ zuo4Ġ
zhong4Ġ yao4Ġ
n Ġ
dai4Ġ biao3
ti3 Ġyu4Ġ
Ġdang1 Ġdi4Ġ
Ġxing2 Ġshi4Ġ
Ġbu4Ġ dui4Ġ
Ġye3 Ġshi4Ġ
ding4 ĠdeĠ
o w
kang4 Ġ
Ġ liang3Ġ
zu n1Ġ
jie1Ġ r
ba1 Ġshi4Ġ
jie1Ġ shou4Ġ
r an3Ġ
o Ġ
ĠdeĠ yuan2Ġ
Ġ ke3Ġ
Ġjun1 Ġshi4Ġ
Ġ suo3Ġ
diao4Ġ cha2Ġ
Ġzhi1Ġ jian1Ġ
jiao4 Ġyu4
bian1Ġ ma3Ġwei4Ġ
dai4 ĠdeĠ
jie2Ġ gou4Ġ
lian2Ġ meng2Ġ
guan4 Ġ
nv3Ġ zi3Ġ
Ġxue2Ġ ming2Ġ
zhu3Ġ xi2Ġ
c uo4Ġ
Ġ bi4Ġ
qu3 Ġde2Ġ
ni ao3Ġ
Ġyu2Ġ 202
ĠĠĠ R
Ġ shou4Ġ
Ġri4 Ġzhi4Ġ
gai3 Ġwei2Ġ
xue2Ġ xiao4Ġ
Ġ wang2Ġ
zhu3Ġ jiao4Ġ
Ġzai4Ġ 200
zi1Ġ liao4Ġ
Ġ ge2Ġ
w en3Ġ
f o2Ġ
fen1 Ġwei2Ġ
sheng1Ġ huo2Ġ
zhu an4Ġ
ti2 Ġchu1Ġ
zui4Ġ gao1Ġ
gong1 Ġshi4Ġ
Ġzheng4Ġ fu3
Ġren2Ġkou3Ġmi4Ġ du4Ġ
d uo2Ġ
ying3Ġ xiang3
chu3 Ġli3Ġ
fu4Ġ ze2Ġ
Ġ ma3
wu2Ġ fa3Ġ
Ġ bi3Ġ
ãĢ ī
hai3 Ġjun1Ġ
ãĢ Ī
Ġ 2Ġ
Ġri4Ġ ben3
Ġ si4Ġ
t a
shu4 ĠdeĠ
di e2Ġ
fang1Ġ fa3Ġ
wu1Ġke4Ġ lan2Ġ
Ġ gu3Ġ
ĠdeĠ da4Ġ
ĠdeĠ yi4Ġ
Ġ chang2Ġ
Ġyou3Ġ xian4
ĠĠĠ yu3Ġ
Ġge4 Ġren2Ġ
11 Ġ
ju1Ġ min2Ġ
fei1Ġ chang2Ġ
Ġ chen2Ġ
Ġji4Ġ shu4Ġ
lu4 ĠdeĠ
zi4Ġ you2Ġ
san1 Ġshi2Ġ
biao1Ġ zhun3Ġ
Ġ Ð
lian2Ġ sai4Ġ
ĠĠĠ G
Ġshi4Ġ you2Ġ
wen2Ġ hua4
wen2Ġ xue2Ġ
zhi2Ġ jie1Ġ
xie2 Ġhui4Ġ
Ġ jie2
shu4Ġ liang4
ke3 Ġyi3
yao1 Ġ
shen4 Ġzhi4Ġ
fen1Ġbu4Ġ yu2Ġ
an4 ĠdeĠ
bi3 Ġli4Ġ
ĠĠĠ D
i Ġ
p Ġ
tong3 Ġzhi4Ġ
Ġzhi1Ġ chi2Ġ
b ang3Ġ
zhu3Ġ ren4Ġ
Ġ qi1Ġ
chan3 Ġsheng1Ġ
ĠĠĠ ben3Ġ
dong1 Ġbu4Ġ
ĠdeĠyi2Ġge4 Ġshi4Ġzhen4Ġ
Ġzhong1Ġ xue2Ġ
Ġdi4Ġ san1Ġ
Ġ fu2
gu1 Ġ
gai1 Ġguo2Ġ
hui4 Ġzai4Ġ
Ġgong1Ġ si1
ch i4Ġ
fan3Ġ ying4Ġ
qi2 Ġzhong1Ġ
P Ġ
si4 Ġnian2Ġ
Ġfu4Ġ ze2Ġ
yue1Ġ han4Ġ
wen2Ġ wu4Ġ
Ġdi4Ġ shi2Ġ
ĠĠĠ xing2Ġzheng4Ġ
Ġbing4 Ġyu2Ġ
Ġ sh
e t
Ġbu4Ġ guo4Ġ
qing2Ġ kuang4Ġ
p u2Ġ
i c
Ġ 2
zhong1 Ġshi4Ġ
f an2Ġ
quan2 Ġli4Ġ
nan2Ġ ziĠ
an1Ġ quan2Ġ
Ġdao4 ĠdeĠ
Ġ sui2Ġ
z ang4Ġ
neng2 Ġli4Ġ
gong1 Ġbu4Ġ
nv3Ġ xing4Ġ
y an1Ġ
nei4Ġ rong2Ġ
Ġshi4Ġ yi2Ġge4Ġ
gui3 Ġ
xi1 Ġbu4Ġ
qing2Ġ kuang4
Ġ shi1Ġ
Ġchu1 Ġxian4Ġ
Ġ lai2Ġ
s ou1Ġ
cheng2Ġ li4Ġ
Ġ jie1Ġ
Ġ K
xue2Ġ sheng1Ġ
mian4 ĠdeĠ
Ġjin4Ġ ru4Ġ
bei3Ġ jing1Ġ
shu ai4Ġ
Ġzhu3Ġ yao4Ġ
ĠĠĠ formulaĠ
jin3Ġ biao1Ġ
yi4 Ġshi4Ġ
Ġer3 Ġsi1Ġ
lu4 Ġxian4Ġ
ni e4Ġ
th eĠĠĠ
you3 Ġshi2Ġ
huo2 Ġdong4
Ġyi4Ġ hui4Ġ
mei2Ġ ti3Ġ
guang3Ġ dong1Ġ
Ġ fa3Ġ
ĠĠĠ H
k en3Ġ
âĢ ĵ
tong1Ġ guo4
Ġ ao4Ġ
ĠĠĠ jia1Ġ
Ġxue2Ġ xiao4Ġ
d ong3
Ġ shen1Ġ
ya4 Ġzhou1Ġ
Ġ gai3Ġ
u4 Ġ
Ġ bao3Ġ
xu3Ġ duo1
Ġ shan1Ġ
Ġ pu3Ġ
dao3 ĠdeĠ
Ġguo2Ġ min2Ġ
lu an4Ġ
huo4 Ġde2
na2 Ġda4Ġ
tai4 Ġping2Ġ
mei3 Ġyuan2Ġ
p i3
fa1Ġ sheng1
Ġ ka3Ġ
ĠĠĠ 198
di4 Ġwei4Ġ
quan2 Ġbu4Ġ
shun4 Ġ
ba2Ġgao1Ġ du4Ġ
Ġ huang2Ġ
Ġzhe4 Ġshi4Ġ
li3 Ġshi4Ġ
Ġbing4Ġ qie3Ġ
zhi3 Ġyou3Ġ
a t
qing1 Ġnian2Ġ
Ġsuo3 Ġyi3Ġ
zhe3 ĠdeĠ
shou3Ġ ci4Ġ
ban3 Ġben3Ġ
Ġxi1Ġ ya4Ġ
zhu2 Ġjian4Ġ
bi ng3Ġ
ĠĠĠ I
ri4Ġ ben3
jian4 Ġzhu4Ġ
ch ou2Ġ
Ġbing4Ġ qie3
wu1Ġke4Ġ lan2
la1 Ġsi1Ġ
mi e4Ġ
yi1 Ġshi4Ġ
Ġqi2 Ġshi4Ġ
ĠĠĠ gen1Ġju4Ġ
Ġcheng2Ġ wei2
Ġ na4Ġ
dan1Ġ qu1Ġ
mo2 Ġshi4Ġ
zi4Ġji3 ĠdeĠ
ĠĠĠ F
b a4Ġ
jiang1 Ġjun1Ġ
hao2 Ġ
Ġta1Ġmen ĠdeĠ
xu e3Ġ
hang2Ġ kong1Ġ
ti ng3Ġ
Ġzhou1 ĠdeĠ
da2 Ġdao4Ġ
âĢ ¦
na2 Ġ
Ġ la1Ġ
wu3 Ġnian2Ġ
Ġzhe4Ġ geĠ
ĠĠĠ 18
Ġ lin2Ġ
deng3 Ġren2Ġ
zhe4 Ġyi1Ġ
o m
Ġqi2 Ġyu2Ġ
Ġ W
ze2 Ġshi4Ġ
Ġqiu2 Ġdui4Ġ
Ġyi4Ġ shu4Ġ
Ġ tai4Ġ
28 Ġri4Ġ
zhi3 Ġchu1Ġ
Ġ feng1Ġ
ren2Ġkou3Ġ pu3Ġ
tong2 Ġshi2Ġ
ge2Ġ lan2Ġ
yu n3Ġ
hu ai2Ġ
gai1 Ġdi4Ġ
min2Ġ zu2Ġ
Ġzai4Ġ 201
chuang4 Ġzuo4Ġ
xia4 Ġji4Ġ
Ġ zong3
ren4Ġ wei2
Ġ yu2Ġshi4Ġ
Ġzhi1Ġ jian1ĠdeĠ
me Ġ
Ġli4Ġ ya4
che1Ġ zhan4
U T
zhi2 Ġxing2Ġ
Ġ ba1
. .
ch ang1Ġ
le4 Ġbu4Ġ
Ġ ao4
Ġ Ã
Ġ ai4Ġ
Ġ hao4Ġ
Ġdang1 Ġzhong1Ġ
jing4Ġ nei4Ġ
Ġ ze2Ġ
ti3 ĠdeĠ
gong4 Ġtong2Ġ
e c
Ġzhu3Ġ yao4
zhan4Ġ zheng1Ġ
Ġ 13
yan3 Ġchu1Ġ
Ġshi4Ġ wu4Ġ
t ou4Ġ
I Ġ
huan2Ġ jing4Ġ
zhu2 Ġ
jin4Ġ ru4Ġ
Ġ zhang3Ġ
sai4 Ġji4Ġ
n ao3Ġ
Ġ xin1
Ġling4Ġ wai4Ġ
d uo2
Ġ kai1Ġ
dan1Ġ ren4
yuan2 Ġnian2Ġ
ĠĠĠ nian2
15 Ġri4Ġ
shang1Ġ ye4Ġ
fen1 Ġzhong1Ġ
qi3Ġ ye4Ġ
guan1 ĠdeĠ
Ġ 5Ġ
Ġxing2 ĠleĠ
ĠĠĠ zhe4Ġ
ĠĠĠ 194
ji1 ĠdeĠ
qian2 ĠdeĠ
Ġgong1Ġ kai1Ġ
liang4 ĠdeĠ
yin2Ġ hang2Ġ
Ġ su1Ġ
gao1 ĠdeĠ
bo2 Ġshi4Ġ
du4 ĠdeĠ
Ġchu1 ĠleĠ
4 0
Ġwei4Ġ ren2Ġ
bei3Ġ jing1
chuan2Ġ tong3Ġ
xiang1Ġ guan1Ġ
quan2 Ġqiu2Ġ
Ġji4Ġ lu4Ġ
wan2Ġ quan2Ġ
Ġji1Ġ gou4Ġ
Ġdi4Ġ er4
k ai3Ġ
jie1 Ġdao4Ġ
Ġ ke3Ġyi3Ġ
Ġwei4Ġ zhi4Ġ
Ġ sheng4Ġ
deng3 Ġdi4Ġ
can1 Ġyu4
tuan2Ġ ti3Ġ
fen1Ġ bie2
re4 Ġdai4Ġ
lin2Ġ pi3
Ġgong1Ġ lu4Ġ
cheng2 Ġzhong1Ġ
zui4 Ġhou4Ġ
ren2 Ġzai4Ġ
Ġshi2Ġ ji4Ġ
bao4Ġ gao4Ġ
xuan3Ġ ze2Ġ
Ġdan4 Ġzai4Ġ
Ġda4Ġ li4Ġ
on Ġ
zui4 Ġjia1Ġ
yun4Ġdong4 Ġhui4Ġ
zi4Ġ ji3Ġ
R Ġ
san1 Ġge4Ġ
Ġ bao1Ġkuo4
xue2 Ġwei4Ġ
ĠĠĠ ju4Ġ
Ġ hong2Ġ
jun1 Ġshi4Ġ
21 Ġ
tu3 Ġdi4Ġ
Ġshi4Ġyi1Ġ zhong3Ġ
xi4 ĠdeĠ
Ġyi1Ġ xie1Ġ
ong4 Ġ
25 Ġri4Ġ
Ġ200 1Ġnian2Ġ
E Ġ
mi n3Ġ
Ġwei4Ġ di4Ġ
ling3Ġ dao3Ġ
ming4 Ġming2Ġ
Ġdi4Ġ fang1Ġ
sh ui4Ġ
jing1 Ġli4Ġ
Ġjun1 ĠdeĠ
z ang4
sheng3 ĠdeĠyi2Ġge4Ġshi4Ġzhen4Ġ
Ġ jin1
ju an3Ġ
gui3 Ġdao4Ġ
Ġzhi1Ġ qian2Ġ
o ĠĠĠ
Ġshi4Ġwei4Ġyu2Ġ mei3Ġguo2Ġ
zong1Ġ jiao4Ġ
Ġzhong1Ġhua2Ġ min2Ġguo2Ġ
wei4 ĠdeĠ
Ġge4 Ġyue4Ġ
si3Ġ wang2Ġ
Ġzai4Ġ yi1Ġ
30 Ġri4Ġ
bo1 Ġchu1Ġ
Ġ er4Ġ
V Ġ
s an4Ġ
ĠdeĠ he2Ġ
lao2 Ġ
Ġhai3Ġ ba2Ġgao1Ġdu4Ġ
Ġmu4Ġ qian2Ġ
Ġ jian1Ġ
jie2Ġ shu4Ġ
Ġyou3Ġ guan1Ġ
20 Ġri4Ġ
Ġji4Ġ xu4Ġ
Ġ zhi2Ġ
Ġhou4Ġ lai2
Ġxing2Ġ dong4Ġ
t er
po 1
ĠĠĠ wei4Ġ
shang4 Ġwei4Ġ
ao4Ġ lin2Ġpi3
shui3 Ġyu4Ġ
Ġ 3Ġ
gan4 Ġ
t i4Ġ
bian4Ġ hua4Ġ
Ġ ke1Ġ
Ġ bo1Ġ
zhi1 Ġyi1Ġ
ji2 Ġzhong1Ġ
Ġshi2Ġ dai4Ġ
fa1Ġ biao3
UT CĠ
gong4 Ġhe2Ġ
ge2Ġ ming4Ġ
di ao1Ġ
zhi1Ġ chi2Ġ
ji1 Ġyu2Ġ
chu3 Ġyu2Ġ
Ġji2Ġ tuan2
an Ġ
guo4 Ġcheng2Ġ
Ġbu4Ġ zhang3Ġ
tai2Ġ bei3
ge1Ġ shou3Ġ
10 Ġri4Ġ
yong4 ĠdeĠ
z u1Ġ
xiao3Ġ shuo1Ġ
kong1Ġ jian1Ġ
wu4Ġ zhong3Ġ
Ġzi4Ġ ji3
a1Ġ la1Ġ
Ġyu2Ġ 199
Ġ hai2Ġ
bu2 Ġhui4Ġ
Ġji2Ġ tuan2Ġ
ĠĠĠ gai1Ġ
nei4 Ġbu4Ġ
xin1Ġ wen2Ġ
Ġer2 Ġzai4Ġ
Ġ sha1Ġ
gen1Ġ ju4
Ġyi4Ġ zhi2Ġ
jie3Ġ fang4
B Ġ
Ġzhou1 Ġshi4Ġ
Ġde2 Ġdao4Ġ
xi4Ġ lie4
reng2 Ġ
Ġ dian4Ġ
ye4 Ġyu2Ġ
di4Ġ qu1Ġ
ng Ġ
luo2Ġ ma3Ġ
l an3Ġ
zhe4Ġ xie1Ġ
Ġhe2Ġ nan2Ġ
a s
Ġyou3Ġxian4 Ġgong1Ġsi1Ġ
wan2 Ġjia1Ġ
jing1Ġ guo4Ġ
Ġyu3Ġ yan2Ġ
f ou3Ġ
Ġshi4Ġ shi2Ġ
cheng2Ġ wei2Ġ
26 Ġri4Ġ
ao4Ġlin2Ġpi3 Ġke4Ġ
li2Ġ kai1Ġ
Ġzhe4Ġ zhong3Ġ
Ġ O
zi1Ġ ge2Ġ
Ġda4Ġ hui4Ġ
Ġzhi2 Ġdao4Ġ
24 Ġri4Ġ
gui1Ġ ding4Ġ
duo1 ĠdeĠ
da4Ġ lu4Ġ
za2 Ġzhi4Ġ
zai4 ĠdeĠ
chuan2Ġ tong3
lu4 Ġdi4Ġ
hao2 Ġmi3Ġ
z a2Ġ
he2 ĠdeĠ
ying1 Ġyu3Ġ
fang1 ĠdeĠ
k ao4Ġ
Ġ 12
ku n1Ġ
hou4 Ġyi1Ġ
Ġ 6Ġ
Ġ nan2
di an1Ġ
p an2Ġ
fa3Ġ lv4Ġ
de ng4
jie2Ġ guo3Ġ
ĠĠĠ yi1Ġ
Ġcheng2Ġ qu1Ġ
se4 ĠdeĠ
Ġ han4Ġ
Ġ fei1Ġ
yi1 ĠdeĠ
m ou3Ġ
shang4Ġ hai3Ġ
Ġli3Ġ si1Ġ
Ġshi4Ġ fa3Ġguo2Ġ
Ġ tai2Ġwan1Ġ
ĠĠĠ c
xuan3Ġ ju3
18 Ġri4Ġ
Ġwei4Ġyu2Ġ gai1Ġguo2Ġ
Ġ yang2Ġ
ĠĠĠ W
zhan4 ĠdeĠ
wu4 Ġli3Ġ
6 0
shu4 Ġwei4Ġ
zhi3 Ġshi4Ġ
Ġbu4Ġtong2 ĠdeĠ
hu n4Ġ
e s
Ġ sui4
pi1 Ġping2Ġ
Ġ wu2
ta1Ġ men
ku i2Ġ
Ġshi4Ġjie4 Ġda4Ġ
Ġ jiao4Ġ
shi3 ĠdeĠ
Ġyi4Ġ ban1Ġ
sheng3 Ġji2Ġ
l a4Ġ
ch un2Ġ
guan1 Ġyuan2Ġ
ch ai1Ġ
z ou4Ġ
po4 Ġhu
fa3Ġ yuan4Ġ
bo2Ġwu4Ġ guan3Ġ
Ġ ying1Ġguo2Ġ
wen4Ġ ti2
Ġguo2Ġ jia1
Ġjia1Ġ ru4Ġ
Ġ gu4Ġ
Ġzhan4Ġ zheng1Ġ
qi2 Ġta1
zhi3Ġ hui1Ġ
ye3 Ġyou3Ġ
jie2Ġ shu4
ĠĠĠ E
Ġzhe4Ġ xie1
Ġm ei4
Ġ hu2Ġ
Ġgong1Ġ ji1Ġ
zheng4 Ġzai4Ġ
tong2 Ġnian2Ġ
jiang1 Ġqi2Ġ
ce4 Ġshi4Ġ
s uo1Ġ
t ao3Ġ
chang3 ĠdeĠ
xi1Ġ ban1Ġ
0Ġnian2Ġ dai4
Ġwei4Ġ zhong1Ġ
bu4 Ġhe2Ġ
fei1 Ġji1Ġ
Ġzui4 Ġhou4Ġ
i t
zheng1 Ġyi4Ġ
16 Ġri4Ġ
50 Ġ
27 Ġri4Ġ
Ġdi4Ġ qu1
Ġbei4Ġ cheng1Ġwei2Ġ
l ai4Ġ
Ġ da4
Ġ yin3Ġ
Ġsui2 Ġhou4Ġ
Ġ 4Ġ
21 Ġri4Ġ
zhuan1Ġ ye4Ġ
yi4 Ġshi2Ġ
xu n1Ġ
17 Ġri4Ġ
Ġ san1
12 Ġri4Ġ
dong1Ġ nan2Ġ
8 Ġri4Ġ
Ġ yi2Ġ
Ġzhong1Ġ xin1
ding4 Ġyi4Ġ
Ġda4Ġ qu1Ġ
liu4 Ġnian2Ġ
ju3Ġ ban4
biao3 Ġxian4Ġ
zong1 Ġhe2Ġ
Ġle i3Ġ
zui4Ġ da4ĠdeĠ
ji2 Ġwei4Ġ
Ġshi4Ġ yi4Ġ
xue2 ĠdeĠ
e2Ġ luo2Ġ
lian2Ġ bang1Ġ
Ġzhong1Ġ gong4
h eĠĠĠ
Ġqi2 Ġta1
h ou2Ġ
23 Ġri4Ġ
huang2 Ġdi4Ġ
20 Ġnian2Ġ
ou1 Ġzhou1
Ġshi4Ġ jian4
sheng1Ġ ya2Ġ
Ġbing4 Ġbu4Ġ
11 Ġri4Ġ
m i2Ġ
Ġ fen1Ġbu4Ġyu2Ġ
gui1Ġ mo2Ġ
fang1Ġ xiang4Ġ
tong1Ġ chang2Ġ
tui1 Ġchu1Ġ
Ġ wei1Ġ
yong1 Ġ
7 Ġri4Ġ
fen1 Ġxi1Ġ
22 Ġri4Ġ
qu an1Ġ
ĠĠĠ N
29 Ġri4Ġ
xiang4 ĠdeĠ
lian2Ġ meng2
ĠĠĠ yu2Ġ
ĠdeĠ zuo4Ġ
xu1Ġ yao4
Ġ ti3Ġ
hai2 Ġshi4Ġ
Ġsui1 Ġran2
9 Ġri4Ġ
n ai4Ġ
ling4 Ġyi1Ġ
Ġ liu2
ding4 Ġwei4Ġ
Ġli4Ġ yong4Ġ
l Ġ
ĠĠĠ ci3Ġ
wan4 Ġren2Ġ
Ġzai4Ġ zhe4Ġ
hu an1Ġ
duo1Ġ shu4Ġ
ĠĠĠ zheng4Ġzhi4Ġ
tong3 Ġji4Ġ
dong1Ġ bei3Ġ
xin4 Ġxi1Ġ
ru an3
yang4 ĠdeĠ
bao1Ġ han2Ġ
19 Ġri4Ġ
Ġ ai4
gong1 ĠdeĠ
cai3Ġ yong4
5 Ġri4Ġ
cha2 ĠdeĠ
14 Ġri4Ġ
qi ong2
chang2 Ġshi4Ġ
Ġxian4 Ġzhi4Ġ
Ġ nei4Ġ
kai1Ġ fa1
mei3Ġguo2Ġ ren2Ġkou3Ġpu3Ġ
3 Ġri4Ġ
zu3 Ġhe2Ġ
zao1 Ġdao4Ġ
Ġyu2Ġ 18
hai3Ġ ba2
30 Ġnian2Ġ
lin2 Ġshi2Ġ
niu3Ġ yue1
Ġxian4 Ġshi2Ġ
E E
wei4 Ġshi4Ġ
10 0
dong3 Ġshi4Ġ
ji1 Ġdi4Ġ
qiu2 Ġdui4Ġ
ĠdeĠshi4Ġ zhen4Ġ
6 Ġri4Ġ
Ġzhong1Ġ bu4Ġ
2 Ġri4Ġ
ĠdeĠ zhong1Ġ
Ġ ke3
Ġshe4 Ġli4Ġ
ĠĠĠ zhong1Ġ
Ġyu2Ġ 19
Ġyi4Ġ da4Ġli4Ġ
si4 Ġshi2Ġ
ge4 Ġren2Ġ
Ġ19 0
4 Ġri4Ġ
3 1Ġri4Ġ
she4 Ġyou3Ġ
neng2Ġ gou4Ġ
Ġm ou2Ġ
Ġxue2Ġ sheng1Ġ
tie3Ġ lu4
shen1Ġ fen4Ġ
r u3Ġ
yuan2 Ġhe2Ġ
Ġyi4Ġ ban1
sh ao1Ġ
suo3Ġ shu3ĠdeĠ
Ġdi4Ġ qu1ĠdeĠ
a u
guan1Ġ fang1Ġ
sheng1Ġ chan3Ġ
Ġ mei2Ġ
bang1 Ġzhu4Ġ
Ġren2Ġ kou3
Ġ ru2
Ġxue2Ġ yuan4Ġ
lie4Ġ che1
ĠĠĠ 197
chao2Ġ xian1Ġ
n an4Ġ
lian2Ġ sai4
zu2 Ġqiu2
Ġxi1Ġ ban1Ġ
zao3Ġ qi1Ġ
13 Ġri4Ġ
xiong1 Ġdi4Ġ
N S
Ġ yue1Ġ
mu4 Ġdi4Ġ
Ġshi4Ġ chang3Ġ
yuan2 Ġyu2Ġ
Ġ bai2Ġ
Ġ201 1Ġnian2Ġ
fan3Ġ ying4
ĠĠĠ 195
su1Ġ lian2Ġ
ĠĠĠ you2Ġyu2Ġ
Ġ wai4Ġ
Ġ du4Ġ
shen4 Ġ
eng3 Ġ
qing2Ġkuang4 Ġxia4Ġ
yi2 Ġbu4Ġ
xie2 Ġyi4Ġ
ge2Ġ ming4
jue2Ġ sai4
huang2 Ġjia1Ġ
ke1 Ġji4Ġ
Ġ tang2Ġ
bi4Ġ ye4Ġ
l o
r ao4Ġ
Ġgong1Ġ zuo4
Ġ lu2Ġ
ren2 Ġhe2Ġ
Ġyi3Ġ jing1
zheng3 Ġge4Ġ
g ou1Ġ
Ġ dao3Ġzhi4Ġ
mi ao4
Ġ ge1Ġ
8 0
chao1 Ġji2Ġ
mao4 Ġyi4Ġ
Ġzhe4 Ġyi1Ġ
Ġgong1Ġ chi3Ġ
wen2Ġwu4Ġ bao3Ġhu4Ġ
yue4 ĠdeĠ
s ang1Ġ
zhang3 ĠdeĠ
Ġxi1Ġ nan2Ġ
jue2Ġ sai4Ġ
Ġ zhu1Ġ
xi2 Ġji1Ġ
dong4Ġ hua4Ġ
i r
hang2Ġ kong1
Ġdi4Ġ li4Ġ
li4 Ġhe2Ġ
jie1Ġ duan4Ġ
tu2Ġ shu1Ġ
wu2 Ġxian4Ġ
Ġ bo2Ġ
xian1 Ġhou4Ġ
Ġfen1Ġ bie2
tong3 Ġyi1Ġ
qu1Ġ hua4Ġ
Ġxiang1Ġ gang3
Ġ wo3
jue2Ġ ding4
jie2 Ġhe2Ġ
xue2Ġ yuan4
yao1 Ġqiu2
Ġb rĠ
yan2Ġ zhong4Ġ
p ang2Ġ
Ġ quan2
ci4 Ġshi4Ġjie4Ġda4Ġ
Ġ jiu4
Ġ mo2Ġ
zhan4 Ġhou4Ġ
Ġ a1
shang4 Ġshi4Ġ
Ġru2Ġ guo3Ġ
Ġ shuang1Ġ
qi ang3Ġ
Ġer3Ġ sheng3Ġ
yu3 ĠdeĠ
guang3Ġ bo1Ġ
ren2Ġkou3Ġ shu4Ġliang4
xie2 Ġzhu4Ġ
xun4Ġ lian4Ġ
Ġhe2Ġ yi1Ġ
Ġ ha1
r ou4Ġ
Ġzai4Ġ ci4Ġ
gong4Ġchan3Ġ dang3Ġ
Ġ shui3Ġ
qi1 Ġnian2Ġ
shao4 Ġnian2Ġ
hua4Ġ xue2Ġ
Ġ nv3Ġ
Ġyi3Ġ lai2Ġ
M Ġ
ĠĠĠ 196
Ġta1Ġ ceng2
Ġ U
Ġ dan1Ġ
ju3Ġ ban4Ġ
hua4 Ġhe2Ġ
Ġbu4Ġ neng2Ġ
guo2 Ġhe2Ġ
Ġ gong4Ġ
shu ai1Ġ
hao4 Ġxian4Ġ
Ġyi3Ġ xia4Ġ
t eng2Ġ
te4 ĠdeĠ
yan3Ġ chang4
Ġ200 9Ġnian2Ġ
dao3Ġ yan3Ġ
zi4Ġ ran2Ġ
xia4Ġ xia2
xi4Ġ bao1Ġ
Ġ jing3Ġ
7 0
fa1Ġ biao3Ġ
w Ġ
Ġ mu3Ġ
Ġdai4Ġ biao3
Ġ 2010Ġnian2Ġ
ye4 ĠdeĠ
jiao1 Ġyi4Ġ
tiao2 Ġjian4Ġ
zi4 Ġxing2Ġ
b ang4
Ġzuo4Ġ pin3Ġ
an dĠĠĠ
zhu4 Ġzai4Ġ
Ġshi4Ġ zhong1Ġguo2Ġ
qi an4Ġ
Ġren2Ġkou3Ġmi4Ġ du4Ġwei4Ġ
chi2Ġ xu4Ġ
Ġshi4Ġ li4Ġ
Ġqi2 Ġhou4Ġ
qiu2 Ġyuan2Ġ
Ġsheng1Ġ huo2Ġ
ĠĠĠ bu4Ġ
zui4 Ġda4Ġ
wai4 ĠdeĠ
zi1 Ġyuan2Ġ
sai1 Ġer3Ġ
pin2 Ġdao4Ġ
Ġ mei2Ġyou3Ġ
you2Ġ zheng4Ġ
Ġ hei1Ġ
ke3Ġ da2Ġ
mo4 Ġxi1Ġ
gai3Ġ ge2Ġ
c ai4Ġ
ch ou2
Ġ qie3Ġ
chu1 Ġxian4Ġ
Ġbing4 Ġwei4Ġ
ch a4Ġ
Ġyi1Ġ yuan4Ġ
Ġjian4 Ġshe4Ġ
feng1Ġ ge2Ġ
n ao3
Ġ hua2Ġ
ĠĠĠ theĠĠĠ
qi4 Ġhou4Ġ
Ġle i3
su4Ġ du4Ġ
mi4Ġ shu1Ġ
zhuang4Ġ tai4Ġ
Ġwei4Ġyu2Ġ fa3Ġguo2Ġ
Ġyi1Ġ si1Ġ
3 5
Ġyi1Ġ ming2Ġ
miao2Ġ shu4Ġ
ĠĠĠ K
ku an3
ying4Ġ yong4Ġ
dian4Ġshi4Ġ ju4Ġ
zhu4 ĠdeĠ
fen4 Ġwei4Ġ
Ġgong1Ġ ye4Ġ
mu4Ġ biao1Ġ
bao4 Ġdao4Ġ
jie1Ġr ang3
ku a4Ġ
gong1Ġ si1Ġ
wang3 Ġzhan4Ġ
ĠdeĠdi4Ġ yi1Ġ
shang4Ġ hai3
tou2Ġ zi1Ġ
lu4 Ġjun1Ġ
Ġjian3Ġ cheng1Ġ
zhan4 Ġyi4Ġ
wen2Ġwu4Ġbao3Ġhu4Ġ dan1Ġwei4Ġ
ya4 Ġli4Ġ
hu2 Ġnan2Ġ
Ġwei4Ġ yi1Ġ
xiao3 Ġxue2Ġ
20 Ġshi4Ġji4Ġ
zuo3Ġ you4Ġ
15 Ġ
jian4 Ġli4Ġ
sheng4 Ġli4Ġ
ĠdeĠ fu4Ġ
Ġzhong1Ġ gong4Ġ
Ġ ben3
Ġ wen2Ġ
b ang4Ġ
zhen4Ġ qu1Ġ
zhe4Ġ geĠ
shou3Ġ ci4
sheng3Ġ fen4Ġ
yin4Ġ du4
Ġ yong4Ġ
Ġxi1Ġ bei3Ġ
Ġyi4Ġ qi3Ġ
yi2 Ġzhi4Ġ
Ġji1Ġ chang3Ġ
chan3Ġ pin3Ġ
wen2 Ġming2Ġ
hui1 Ġfu4Ġ
shi2Ġ qi1Ġ
te4Ġ zheng1Ġ
c ang2Ġ
Ġer2 Ġshi4Ġ
te4Ġ bie2Ġ
dong1Ġ jing1Ġ
gao1 Ġji2Ġ
jiao4 Ġhui4Ġ
qu3 Ġde2
y e2
jiao1Ġ tong1
Ġ fa3Ġguo2Ġ
ke1 ĠdeĠ
Ġren2Ġ wu4Ġ
guo4Ġ cheng2Ġzhong1Ġ
xuan3Ġ shou3Ġ
hao3 ĠdeĠ
dian4Ġ ziĠ
liu2 Ġxing2Ġ
zhong4Ġyao4 ĠdeĠ
bi4Ġ xu1Ġ
ye4Ġ wu4Ġ
gong4Ġyou3Ġ ren2Ġkou3Ġ
Ġxian4Ġ dai4Ġ
can1Ġ sai4Ġ
xiao3Ġxing2Ġ xing1Ġ
Ġcheng2Ġ ji4Ġ
x u2Ġ
h ong1
Ġhe2Ġ di4Ġ
m a
kai1Ġ fang4Ġ
zi ĠdeĠ
wang3Ġ luo4Ġ
Ġ ming2
n u3
u n
Ġ yao4Ġ
fa1Ġ dong4
bian4 Ġcheng2Ġ
i g
qiao2 Ġzhi4Ġ
d a1Ġ
Ġh an
i s
10 0Ġ
jie3 Ġshi4Ġ
guo2Ġ min2Ġ
shan1Ġ dong1Ġ
dian4Ġshi4Ġ tai2Ġ
ling3Ġ dao3
bao1Ġ han2
Ġdong4Ġ wu4Ġ
bi3Ġ jiao4Ġ
Ġzai4Ġ zhong1Ġ
lei4Ġ si4
zh a4Ġ
cu i1
ka3 Ġer3Ġ
hui2 Ġdao4Ġ
xing2 Ġshi4Ġ
dou1 Ġyou3Ġ
l ang4Ġ
Ġ qie3
Ġ ha1Ġ
Ġsi1Ġ ji1Ġ
zhi1 Ġhou4Ġ
zhan4 Ġshi4Ġ
duo1 Ġge4Ġ
Ġshi2Ġ jian1
pai1 Ġshe4Ġ
hui4 Ġhe2Ġ
mei3 Ġping2Ġfang1Ġgong1Ġli3Ġ
ĠĠĠ202 1Ġnian2Ġ
Ġshe4 Ġzhi4Ġ
a v
Ġ mo4Ġ
Ġgong1Ġ fen1Ġ
zhun3 Ġbei4Ġ
lai2Ġ zi4
f ei2
f ei3
Ġyi1Ġ yang4Ġ
jiu4 Ġshi4Ġzhen4Ġ
Ġ V
Ġxia4Ġ ling4
4 8
o o
zhen1 Ġdui4Ġ
Ġ shu3Ġ
yuan2 Ġshi4Ġ
Ġci3 Ġhou4Ġ
Ġ chu2Ġ
wang2 Ġguo2Ġ
wai4Ġ jiao1
zao3 Ġnian2Ġ
er4 Ġshi4Ġ
ĠĠĠ 2019Ġnian2Ġ
Ġ min2Ġ
Ġm i2Ġ
O Ġ
Ġ shen4Ġzhi4Ġ
lei4Ġ si4Ġ
Ġyi4Ġ zhi4Ġ
Ġran2 Ġhou4Ġ
X Ġ
Ġ bao4Ġ
3 6
Ġyi4Ġ zhi2
Ġli4Ġ shu3Ġyu2Ġ
Ġsui1 Ġran2Ġ
c ang1Ġ
ĠdeĠ ming2Ġ
yun2 Ġnan2Ġ
N Ġ
qu an4Ġ
xin1 Ġjia1Ġ
gao1 Ġzhong1Ġ
ma3Ġ lai2
ĠdeĠ zhu3Ġ
zhu4 Ġming2Ġ
hen3 Ġduo1Ġ
ĠĠĠ 2020Ġnian2Ġ
Ġc ang2Ġ
ĠĠĠ gong1Ġ
Ġjian4 Ġzhi4Ġ
en4 Ġ
fa1 Ġshe4Ġ
jin3Ġbiao1Ġ sai4Ġ
zong3Ġ tong3
Ġer3 ĠdeĠ
o c
zong3 Ġli3Ġ
lian2Ġ jie1Ġ
ĠĠĠ da4Ġ
ĠdeĠyi1Ġ zhong3Ġ
zhong4 ĠdeĠ
shan1 Ġxi1Ġ
ren2Ġkou3Ġshu4Ġliang4 Ġwei4Ġren2Ġ
mu4Ġ qian2Ġ
zh e2
Ġ qi3Ġ
ju4 Ġji2Ġ
fang1Ġ an4Ġ
jie3Ġ jue2Ġ
ji2 Ġhe2Ġ
jie1Ġrang3 ĠdeĠshi4Ġzhen4Ġ
ĠI NS
Ġ wu3
x Ġ
lv3 Ġyou2Ġ
gui1Ġ hua4Ġ
F Ġ
Ġ tai2Ġ
n e4Ġ
k ao4
Ġchu1Ġ ban3
ji2 Ġshi4Ġ
ĠĠĠ zhi4Ġ
lu4 Ġyi4Ġ
4 0Ġ
Ġxing2Ġ wei2Ġ
Ġshang4Ġ hai3Ġ
nv3 Ġer2Ġ
Ġzhe4Ġ ge
si1 Ġhe2Ġ
qu3 Ġdai4Ġ
wu4 Ġzhi4Ġ
ĠdeĠ li4Ġ
Ġxi1Ġ ya4
rui4 Ġshi4Ġ
l an3
b ang3
25 Ġ
ĠĠĠ201 8Ġnian2Ġ
nong2Ġ ye4Ġ
Ġ si4
ch a1
ru4 ĠleĠ
Ġ cai2Ġ
Ġda4Ġ liang4Ġ
Ġt ou4Ġ
Ġ200 8Ġnian2Ġ
Ġjin4 Ġshi4Ġ
Ġ ci4
dui4 Ġzai4Ġ
Ġ yi2Ġge4Ġ
jue2 ĠdeĠ
luo2Ġ ma3
ĠdeĠshi2Ġ hou4Ġ
Ġji4Ġ nian4Ġ
Ġ dong1
Ġt ao3Ġ
Ġ z
ju an1Ġ
ao4Ġlin2Ġpi3Ġke4Ġ yun4Ġdong4Ġhui4Ġ
wo 1Ġ
si1 Ġren2Ġ
Ġzhi4Ġ jin1Ġ
o p
zh e2Ġ
24 Ġ
ge2 ĠdeĠ
Ġzhi1Ġ wai4Ġ
Ġzhi4Ġ zao4Ġ
ru2Ġ xia4Ġ
ke3Ġneng2 Ġshi4Ġ
shi3Ġyong4 ĠdeĠ
Ġshe4Ġ shi1Ġ
Ġ fu4
hu n4
gan3Ġ ran3Ġ
jie1Ġ shou4
Ġ201 3Ġnian2Ġ
chu ang1Ġ
fei1 Ġxing2Ġ
Ġ ze2
xuan3 Ġwei4Ġ
yi2 Ġshi4Ġ
Ġ gu4
ti ao4Ġ
tu3 Ġer3
Ġzai4Ġ ci3Ġ
Ġli4Ġ si1Ġ
guang3Ġ chang3Ġ
chu i2Ġ
ĠdeĠ yi1Ġbu4Ġfen4Ġ
Ġzhi4Ġ 202
sh ang3Ġ
o v
chuang4 Ġli4Ġ
jia4Ġ zhi2Ġ
Ġ dui4Ġyu2Ġ
ĠĠĠ J
chu4 ĠdeĠ
bo2Ġ te4Ġ
k eng1Ġ
reng2 Ġran2Ġ
Ġzong3Ġ mian4Ġji1Ġ
sh e2Ġ
Ġgong1Ġ neng2Ġ
Ġ jia3Ġ
zhi4 Ġshi4Ġ
Ġde2 Ġli3Ġ
jiu3 Ġnian2Ġ
lian2 Ġhe2Ġguo2Ġ
ji2 Ġshi2Ġ
Ġyou3Ġ ren2Ġ
Ġer2Ġ qie3Ġ
geng1Ġ ming2Ġwei4Ġ
lian2Ġ bang1
xiao4 Ġli4Ġ
tong1Ġ chang2
biao3Ġ yan3Ġ
Ġ dan1Ġren4Ġ
fen1Ġ lei4Ġ
ĠINS EE
Ġgai1Ġ sheng3Ġ
qi4 ĠdeĠ
Ġzhi4Ġ zuo4
gai4Ġ nian4Ġ
2 Ġren2Ġ
Ġren2Ġkou3Ġmi4Ġdu4Ġ mei3Ġping2Ġfang1Ġgong1Ġli3Ġ
Ġren2Ġkou3Ġmi4Ġdu4Ġwei4Ġ mei3
Ġxia4Ġling4 Ġshi2Ġ
su n1
you2Ġzheng4Ġ bian1Ġma3Ġwei4Ġ
Ġzai4Ġ 199
ĠĠĠ O
shi2 Ġshi4Ġ
zu3 Ġfu4Ġ
cong2 Ġshi4Ġ
cha2ĠdeĠ shu4Ġju4Ġ
Ġshi4Ġzhen4Ġ bian1Ġma3Ġwei4Ġ
ĠINSEE Ġshi4Ġzhen4Ġbian1Ġma3Ġwei4Ġ
an3 Ġxi1Ġ
mo4 Ġsi1Ġ
ãĢ İ
ba1 Ġnian2Ġ
tian1Ġ wen2Ġ
jin4 ĠdeĠ
sheng1Ġ huo2
Ġguo2Ġ wang2Ġ
yi1Ġ zhong3Ġ
xuan3Ġ qu1Ġwei4Ġ
ãĢ ı
ĠĠĠ bei4Ġ
Ġshe4 ĠdeĠ
he2 Ġshi4Ġ
da4 Ġbu4Ġfen4
shi2ĠdeĠ ren2Ġkou3Ġshu4Ġliang4Ġwei4Ġren2Ġ
tion ĠĠĠ
Ġbu4Ġ guo4
ying1Ġ chi3Ġ
zhan3Ġ kai1Ġ
mei3Ġguo2Ġren2Ġkou3Ġpu3Ġ cha2ĠdeĠshu4Ġju4Ġ
ĠĠĠ 193
jia1 Ġli4Ġ
16 Ġ
yun4Ġ ying2Ġ
Ġ shen2Ġ
Ġer2 Ġren2Ġkou3Ġmi4Ġdu4Ġwei4Ġmei3
ĠĠĠ201 7Ġnian2Ġ
Ġdang1Ġdi4Ġ gong4Ġyou3Ġren2Ġkou3Ġ
pai2 Ġming2Ġ
xu e1Ġ
Ġ 2019Ġnian2Ġ
fu2 Ġjian4Ġ
zu2 ĠdeĠ
Ġjin3Ġ guan3Ġ
ge2Ġ lan2
Ġhuo4Ġ jiu4Ġshi4Ġzhen4Ġ
tiao2Ġ yue1Ġ
Ġ201 8Ġnian2Ġ
Ġzh a4
Ġjun1Ġ dui4Ġ
sheng3Ġji2Ġ xuan3Ġqu1Ġwei4Ġ
suo3Ġshu3ĠdeĠ sheng3Ġji2Ġxuan3Ġqu1Ġwei4Ġ
ĠĠĠ li4Ġ
ji1 Ġji2Ġ
Ġjun1 Ġzai4Ġ
che1Ġ liang4Ġ
jing3Ġ cha2Ġ
Ġte4Ġ bie2
xi1 ĠdeĠ
xuan3 Ġren2Ġ
xing1 ĠdeĠ
sheng3 Ġhe2Ġ
biao1Ġ zhun3
man4Ġ hua4Ġ
Ġ bian4Ġ
9 0
Ġbu4Ġ jiu3Ġ
fen4Ġwei4Ġ fa3Ġguo2Ġ
Ġgai1Ġsheng3Ġ fen4Ġwei4Ġfa3Ġguo2Ġ
ao4 Ġda4Ġli4Ġ
Ġ chu2ĠleĠ
Ġyu2Ġ 198
zui4Ġ hou4Ġyi1Ġ
mi3 Ġer3Ġ
Ġer3 Ġde2Ġ
hu i3Ġ
k ai3
ai4 Ġer3Ġ
Ġnian2Ġ jian1Ġ
qi3Ġ lai2Ġ
Ġ shu4Ġ
guang3 Ġzhou1Ġ
Ġzhi1 Ġxian4Ġ
h a
er2Ġ ziĠ
Ġwei4Ġ shi2Ġ
Ġyou2Ġ xi4
pai2Ġ ming2
Ġ duo1
qu1Ġ yu4
sh uo4
qun2Ġ dao3Ġ
ying2 Ġde2Ġ
dong4Ġ wu4Ġ
3 8
Ġ ye4Ġ
Ġ geng4Ġ
3 7
l a4
Ġ que4Ġ
Ġchu1Ġ sheng1Ġyu2Ġ
Ġ201 4Ġnian2Ġ
ben3 ĠdeĠ
ling3 Ġyu4Ġ
Ġdi4Ġ si4Ġ
1 Ġren2Ġ
lai2 Ġyuan2Ġ
Ġyi1Ġ xie1
Ġ 2016Ġnian2Ġ
zh ao3
Ġta1Ġ bei4Ġ
Ġdi4Ġ san1
Ġzi4Ġ ji3Ġ
ĠĠĠ 2016Ġnian2Ġ
ma3 Ġli4Ġ
ch un2
tie3 Ġdao4Ġ
di4Ġ yi1Ġ
Ġri4 ĠdeĠ
Ġji4Ġ hua4
she4 Ġli4Ġ
Ġjin4 ĠdeĠ
ao4 Ġsi1Ġ
Ġ cheng1Ġ
mei3 Ġzhou1Ġ
Ġ bian1Ġ
wei3 Ġhui4Ġ
Ġchu1Ġ ban3Ġ
zuo4Ġ pin3
Ġji1Ġ ben3Ġ
ĠĠĠ202 2Ġnian2Ġ
Ġhe2Ġ bing4
Ġ mai4
meng2Ġ gu3Ġ
Ġ 11
wu2 Ġren2Ġ
Ġ ya4Ġ
reng2 Ġran2
Ġzhi4Ġ yu2Ġ
Ġ201 2Ġnian2Ġ
mu3 Ġsi1Ġ
Ġchu1 Ġxian4
Ġren2Ġ gong1Ġ
pu2Ġ tao2Ġ
Ġ jiu3Ġ
Ġjian4 Ġyi4Ġ
sheng1Ġ wu4Ġ
u r
nan2 Ġji2Ġ
Ġwei2Ġ zhu3Ġ
Ġ201 5Ġnian2Ġ
gou4 Ġm
Ġ zhao4Ġ
Ġming2Ġ chao2Ġ
Ġ shu1Ġ
yan2Ġjiu1Ġ suo3Ġ
zao1 Ġ
li ao3Ġ
yi3 Ġji2Ġ
Ġhe2Ġ ping2Ġ
Ġzai4Ġ zhong1Ġguo2Ġ
bao4Ġ fa1Ġ
Ġshi4Ġ bu4Ġ
te4Ġ bie2
Ġzh ao3Ġ
c ao1Ġ
Ġbu4Ġ ming2Ġ
Ġxian4Ġ lu4Ġ
mi n3
guang3Ġ fan4Ġ
Ġc uo4Ġ
shuo1Ġ fa3Ġ
Ġju4Ġ le4Ġbu4Ġ
m eng4Ġ
wu3 Ġshi2Ġ
zhan4Ġ zheng1
yang1 Ġ
Ġzai4Ġ yi4Ġ
tou2Ġ piao4Ġ
Ġren4Ġ wei2
ĠdeĠ xin1Ġ
Ġ chong2Ġ
mi ao3Ġ
Ġyi1Ġ zhong3Ġ
xi1 Ġzai4Ġ
ĠdeĠdi4Ġ fang1Ġ
s e
Ġta1 Ġyu3Ġ
yun4 Ġxing2Ġ
Ġ yi4Ġwei4Ġ
yun4Ġ shu1Ġ
Ġke4 ĠdeĠ
tou4Ġ guo4Ġ
xu e3
xue2 Ġshi4Ġ
ren4Ġwei2 Ġshi4Ġ
L Ġ
k an3Ġ
sheng1Ġ chan3
mo2 Ġxing2Ġ
h u3Ġ
hai3 Ġjun1
Ġge4 Ġdi4Ġ
lie4 Ġwei4Ġ
ban4Ġ gong1Ġshi4Ġ
jie2Ġ gou4
Ġzh e2Ġ
n e
wai4 Ġguo2Ġ
po4Ġhu ai4Ġ
Ġ 10Ġyue4Ġ
yuan2 Ġwei4Ġ
shang4 Ġyou3Ġ
mei3 Ġnian2Ġ
Ġzong3 Ġren2Ġkou3Ġ
xi3 Ġhu
4 5
xuan1Ġ chuan2Ġ
Ġ200 7Ġnian2Ġ
3 Ġren2Ġ
c u4
tai4Ġ yang2Ġ
ni2 Ġsi1Ġ
lun2Ġ dun1
ch ang1
ĠdeĠ guan1Ġ
d ao1Ġ
Ġ chen2
13 Ġ
xue2Ġ xiao4
yang3Ġ hua4Ġ
4 Ġren2Ġ
Ġ zheng4Ġshi4Ġ
hua4 Ġshi2Ġ
cheng1 Ġwei4Ġ
xiao1 Ġxi1Ġ
ti e1Ġ
zhi4 Ġwei4Ġ
xuan3Ġ ze2
biao1 Ġzhi4Ġ
ao4Ġ yun4
Ġbu4Ġ men2Ġ
shu4Ġ liang4Ġ
m ei4
Ġ biao3Ġshi4Ġ
Ġxian4 Ġren2Ġ
chi2Ġ xu4
Ġju4Ġ li2Ġ
you2Ġ xi4
f en3Ġ
fu4Ġze2Ġ guan3Ġxia2Ġ
jin4 Ġxing2
jia1Ġ ru4Ġ
a3 Ġ
gong1Ġ zuo4Ġ
ĠĠĠ zh
Ġzai4Ġ mei3Ġguo2Ġ
Ġzhi1Ġ chi2
s u2Ġ
t ao4Ġ
tou2Ġ ru4Ġ
f ou3
jie4Ġ quan2Ġguo2Ġ
Ġ zhong4Ġ
shi1 ĠdeĠ
Ġ200 5Ġnian2Ġ
fen1 Ġzhi1Ġ
Ġzai4Ġ 19
jie2Ġ mu4
ta1Ġ menĠ
si4Ġ chuan1Ġ
Ġ yong3Ġ
tong2 Ġyi1Ġ
huan2Ġ jing4
Ġ Î
zai4 Ġshi4Ġ
zheng4 ĠdeĠ
dang3 ĠdeĠ
ĠĠĠ201 4Ġnian2Ġ
Ġ qing1
ku n4
bi3 Ġde2Ġ
ĠĠĠ201 5Ġnian2Ġ
Ġ201 7Ġnian2Ġ
Ġ202 1Ġnian2Ġ
zhu3Ġ jue2Ġ
u b
gou4 Ġcheng2Ġ
n i4Ġ
h i
fang1Ġ mian4
Ġ long2Ġ
Ġzai4Ġ bu4Ġ
bu4 Ġwei4Ġ
Ġ zhang1
Ġ zhen1Ġ
Ġdao4Ġ lu4Ġ
Ġshi4Ġ mei3Ġguo2Ġ
qi1Ġ jian1
Ġ han2Ġ
Ġwei2Ġ er3Ġ
ĠĠĠ yi3Ġ
peng2 Ġyou3Ġ
zh ai2Ġ
Ġbei4Ġ er3Ġ
fen1Ġ bie2Ġ
xue2Ġ xi2Ġ
ch i4
ji4Ġ shu4Ġ
Ġhuo4 Ġshi4Ġ
yin2Ġ hang2
m ou2Ġ
kang4 Ġyi4Ġ
yue1 Ġwei4Ġ
tai4 Ġguo2Ġ
Ġ jiang3Ġ
Ġzhan4Ġ zheng1
n i1Ġ
ĠĠĠ you3Ġ
jie1 Ġwei4Ġ
lie4 ĠdeĠ
ti ng3
hui4 Ġyou3Ġ
Ġ wan4Ġ
yi4 Ġhe2Ġ
xuan3Ġ qu1Ġ
jing1Ġ ying2Ġ
xiao4Ġ zhang3Ġ
ĠĠĠ201 3Ġnian2Ġ
wen2 Ġjian4Ġ
Ġgong1Ġ gong4Ġ
w a1Ġ
ian2 Ġ
cu i1Ġ
wu3Ġ qi4Ġ
t i4
U Ġ
rong2 Ġyi4Ġ
biao1 Ġwei4Ġ
Ġji2Ġ qi2Ġ
jiao4Ġ tang2Ġ
shou1Ġ ru4Ġ
gu a1Ġ
xiang1Ġ dui4Ġ
Ġ jing4Ġ
lai2Ġ shuo1Ġ
ĠĠĠ che1Ġzhan4Ġ
que4 Ġzh
jie1Ġr ang3Ġ
Ġ geng4
Ġ wu1Ġ
yan3 ĠdeĠ
bian1 Ġji2Ġ
nan2Ġ xing4Ġ
Ġ xian1Ġ
t an1Ġ
ao1 Ġzuo4Ġ
Ġ xiao1Ġ
ĠĠĠ shi2Ġ
si1 Ġdi4Ġ
Ġjin4 Ġxing2
g uo1Ġ
ti ao3
m eng4
jie3Ġfang4 Ġjun1Ġ
zhi2 ĠdeĠ
xing1 Ġjian4Ġ
zheng4Ġ ce4Ġ
Ġzhi4Ġ du4Ġ
a d
ge1Ġ qu3
f an2
shou4 Ġyu3Ġ
Ġzhong1Ġ you3Ġ
ku a4
Ġyuan2Ġ zhu4Ġ
bao3Ġ hu4
Ġ song4Ġ
Ġc ai4Ġ
a g
Ġ qi4Ġ
di e2
Ġjia1Ġ na2Ġda4Ġ
Ġ 2020Ġnian2Ġ
Ġyi3Ġ shang4Ġ
i ng
tong2 ĠdeĠ
Ġyou4Ġ cheng1Ġ
Ġshi4Ġ yi2Ġge4
ĠĠĠ ta1
Ġdi4Ġ xia4Ġ
pei4 Ġhe2Ġ
an4 Ġjian4Ġ
ĠĠĠ he2Ġ
en2 Ġ
jia1 Ġren2Ġ
Ġzai4Ġ da4Ġ
Ġ ren4
jun1 Ġdui4Ġ
di4 Ġshi4Ġ
a p
gao1 Ġyu2Ġ
hao4 Ġwei4Ġ
Ġ fei1
tian1Ġ zhu3Ġjiao4Ġ
Ġ rang4
xiang4Ġ mu4
jue2Ġ se4
Ġ fa1Ġ
Ġ di2Ġ
da2 Ġcheng2Ġ
wen3Ġ ding4Ġ
ji4 Ġzhong1Ġ
y ao2
yu3Ġ yan2Ġ
gan3 Ġdao4Ġ
jian3Ġ jie4Ġ
tiao3 Ġzhan4Ġ
quan2 ĠdeĠ
Ġer2Ġ qie3
Ġ hou4
wan4 Ġli4Ġ
shen1Ġ fen4
ĠĠĠ V
Ġxi1Ġ wang4Ġ
Ġren2Ġ lei4
Ġzhong1Ġguo2Ġ ren2Ġmin2Ġ
mei2Ġ ti3
duo2 ĠdeĠ
Ġji4Ġ cheng2Ġ
ĠĠĠ202 3Ġnian2Ġ
Â °
chong1Ġ tu1Ġ
Ġer2Ġren2Ġkou3Ġmi4Ġdu4Ġwei4Ġmei3 Ġping2Ġfang1Ġqian1Ġmi3Ġ
Ġ200 6Ġnian2Ġ
xiao3 ĠdeĠ
Ġwei4Ġ fu2
ban4Ġ dao3Ġ
zheng4 Ġshi2Ġ
ce4 ĠdeĠ
zao4 ĠdeĠ
22 Ġ
in d
Ġdi4Ġ tie3Ġ
hai3 Ġyu4Ġ
zui4Ġ zao3
zh an1Ġ
shi2 Ġzai4Ġ
ï ½
Ġ lin2
ying3Ġ pian4Ġ
ao4Ġ yun4Ġ
an1 ĠdeĠ
4 6
Ġping2Ġfang1Ġ mi3Ġ
ĠĠĠ yuan2Ġ
zhe4Ġ zhong3Ġ
lian2Ġ xu4Ġ
zi4Ġzhi4Ġ qu1Ġ
Ġ 8Ġyue4Ġ
ceng2 Ġzai4Ġ
in Ġ
biao3 Ġxian4
la1 Ġke4Ġ
Ġjian4Ġ zhu4
ting2Ġ zhi3Ġ
zh a1Ġ
Ġ guang1Ġ
ti2 Ġming2Ġ
ju3 Ġren2Ġ
ĠĠĠ zi4Ġ
xin1 Ġli3Ġ
12 Ġnian2Ġ
tuan2 Ġdui4Ġ
duo1Ġ ci4Ġ
Ġ ni2Ġ
qian2Ġ wang3
gao1Ġ su4
ke3Ġneng2 Ġhui4Ġ
ya1 Ġli4Ġ
jian3Ġ cha2Ġ
bi3Ġ ya4Ġ
ji4 Ġwei4Ġ
Ġer2 Ġbei4Ġ
fu2Ġ wu4
p ai1Ġ
14 Ġ
gong4 Ġtong2
Ġnian2Ġ du4Ġ
Ġle ng3Ġ
Ġji1Ġ bai4Ġ
xi1Ġban1Ġ ya2Ġ
Ġ yu3
Ġ hai2Ġyou3Ġ
tion Ġ
li4 Ġbu4Ġ
Ġchu1Ġ ren4Ġ
an1 Ġde2Ġ
da4 Ġbu4Ġfen4Ġ
Ġshi4Ġ tu2Ġ
Ġ er4
zhi3Ġ hui1
ĠdeĠ zhi4Ġ
chan3Ġ ye4Ġ
23 Ġ
k a1Ġ
fan1 Ġyi4Ġ
3 9
Ġ tai2Ġwan1
zhu3Ġ ti2Ġ
gai3Ġ bian4Ġ
fu2 Ġhe2Ġ
sh u2Ġ
am pĠ
202 2Ġnian2Ġ
5 Ġren2Ġ
ban4 Ġshi4Ġ
bi3Ġsai4 Ġzhong1Ġ
Ġ bei3
si1 Ġzai4Ġ
Ġji4Ġ xu4
ceng2Ġ jing1Ġ
xiang1Ġ tong2Ġ
Ġzi4Ġ you2Ġ
xiao3Ġ zu3Ġ
Ġ d
Y ou
xing2 Ġwei2Ġ
fa1 Ġxing2
c an2Ġ
shou3 ĠdeĠ
ku n4Ġ
ban4 Ġgong1Ġ
lun2Ġ dun1Ġ
g ao3Ġ
Ġ tu2Ġ
Ġ suo3Ġyou3Ġ
xia4Ġ wu3Ġ
00 Ġnian2Ġ
shao3Ġ shu4Ġ
ou1 Ġyuan2Ġ
Ġwei4Ġ neng2Ġ
Ġshi2Ġ fen1Ġ
Ġyi1Ġ ci4Ġ
K Ġ
p an1Ġ
zhong1 Ġzai4Ġ
A T
n u3Ġ
Ġhe2Ġ bei3Ġ
Ġc ang2
jian3Ġ shao3Ġ
sh ui4
kong1 Ġjun1Ġ
gong1Ġ yuan2Ġ
Ġ zi4
h an3Ġ
wei3Ġyuan2Ġ hui4
4 7
Ġ lan2Ġ
Ġyi4Ġ you3Ġ
xian4 Ġdai4Ġ
shen1 ĠdeĠ
Ġyi3Ġ se4Ġ
ai4 ĠdeĠ
gong4 Ġxian4Ġ
guo4Ġ qu4Ġ
chao2Ġ xian1
biao3 Ġming2Ġ
wei1 Ġer3Ġ
ji4Ġ hua4Ġ
ying4 ĠdeĠ
zhan3 Ġshi4Ġ
fen4Ġ zi3Ġ
f eng2Ġ
Ġ tong1Ġguo4Ġ
Ġsheng1Ġ wu4Ġ
n a
Ġshi2Ġ yan4
ming4Ġ ming2Ġwei4Ġ
ĠdeĠ shou3Ġ
Ġgong1Ġ si1ĠdeĠ
Ġshe4Ġ qu1Ġ
da3 Ġji1Ġ
ĠdeĠdi4Ġ qu1Ġ
Ġsi1Ġ ling4
Ġshi4Ġyi1Ġ ming2Ġ
jia1Ġ na2Ġda4Ġ
Ġ qian1Ġ
Ġshi4Ġ yi3Ġ
xun2Ġ hui2Ġ
Ġyou4 Ġming2Ġ
yong4Ġ lai2Ġ
shou3 Ġwei4Ġ
Ġli4Ġ ji2Ġ
wai4Ġ jiao1Ġ
jie1 Ġjin4Ġ
liang3 Ġge4
en Ġ
ren4Ġ wu4Ġ
lu4Ġdi4Ġ mian4Ġji1Ġwei4Ġ
Ġ18 9
bu4 Ġshi4Ġ
18 Ġ
shui3Ġyu4Ġ mian4Ġji1Ġwei4Ġ
xing2 Ġdong4Ġ
Ġguo2Ġ li4Ġ
ti3Ġ xi4Ġ
Ġshi2Ġ zi4Ġ
mu4 Ġsi1Ġ
ping2Ġ jia4Ġ
ying1Ġ ge2Ġlan2Ġ
Ġzai4Ġ yu2Ġ
Ġshe4 Ġbei4Ġ
gui1Ġ mo2
m a2Ġ
s an4
ju3 Ġxing2ĠdeĠ
Ġ mai4Ġ
Ġliang3 Ġren2Ġ
a k
fan3Ġ hui2Ġ
Ġ an4Ġ
chan3Ġ sheng1
jie2Ġshu4 Ġhou4Ġ
Ġti3Ġ zhang3Ġ
neng2Ġ gou4
fa3Ġ lv4
uo3 Ġ
Ġda4Ġ shi3Ġ
ï½ ŀ
zuo4Ġ jia1Ġ
guo2 Ġzai4Ġ
zhu4Ġ zuo4Ġ
dian4 Ġli4Ġ
Ġli4Ġ ru2
Ġshi3 ĠdeĠ
zhi4 Ġhe2Ġ
zhu4 Ġyi4Ġ
Ġ ampĠ
xiang4 Ġshi4Ġ
guan1Ġ zhong4Ġ
chang2Ġ qi1Ġ
xue2Ġ zhe3Ġ
Ġ kai1Ġshi3Ġ
Ġzhi1 Ġshi2Ġ
Ġdang1Ġzhong1Ġ lu4Ġdi4Ġmian4Ġji1Ġwei4Ġ
Ġsi1Ġ ling4Ġ
Ġer2Ġ shui3Ġyu4Ġmian4Ġji1Ġwei4Ġ
ling4Ġ wai4Ġ
Ġ dui4
Ġ fan4Ġ
chong2 Ġjian4Ġ
ĠĠĠ201 2Ġnian2Ġ
Ġji1Ġ du1Ġ
jia1 Ġhe2Ġ
zu3Ġ cheng2ĠdeĠ
jiao4Ġ qu1Ġ
Ġ 21Ġ
wei1Ġ lian2Ġ
Ġli4Ġ fa3Ġ
6 0Ġ
Ġ w
Ġcong2 Ġer2Ġ
z ou4
lei4 Ġxing2Ġ
Ġzhi3 Ġyou3Ġ
shui3 Ġping2Ġ
ji2 Ġzai4Ġ
ĠĠĠ xi1Ġ
kuai4Ġ su4Ġ
ĠT heĠĠĠ
bi4Ġ xu1
Ġcheng2Ġli4Ġ yu2Ġ
Ġ 9Ġyue4Ġ
feng1Ġ bao4Ġ
x u2
lv3 Ġke4Ġ
ou n
3 3
Ġ rang4Ġ
Ġp u2Ġ
Ġshi2Ġ shi1Ġ
Ġjun1 Ġwei4Ġ
ĠĠĠ of
Ġda4Ġ chen2Ġ
zong3Ġ du1Ġ
Ġ luo4Ġ
dong1 Ġxi1Ġ
qi3Ġ yong4Ġ
shou4Ġ shang1Ġ
ĠĠĠxing2Ġzheng4Ġ qu1Ġhua4Ġ
xin4Ġ hao4Ġ
jiao4 Ġwei2Ġ
dian4Ġ tai2Ġ
ai1 Ġji2Ġ
ji3 Ġyu3Ġ
yuan4Ġ zhang3Ġ
Ġ hua4Ġ
Ġyi3Ġ hou4Ġ
e v
Ġ dou1Ġ
dai4 Ġyou3Ġ
Ġyi4Ġ shu4
Ġji1Ġ gou4
ren4Ġ ming4
eng1 Ġli4Ġ
nei4Ġ rong2
wei3Ġ shu1Ġji4Ġ
Ġ deng3
dian3 ĠdeĠ
ru2 Ġhe2Ġ
xi1Ġ yang2Ġ
Ġ bei4
gu a4Ġ
Ġzh a4Ġ
min2 ĠdeĠ
r an
dao3 Ġyu3Ġ
Ġyi4Ġ ren2Ġ
Ġyuan2Ġ yin1Ġ
chu an4Ġ
sui2 Ġhou4Ġ
Ġwei4Ġfu2 Ġqi2Ġyu2Ġ
c eĠ
ĠĠĠ gai4Ġ
Ġjian4 Ġcheng2Ġ
Ġxue2Ġ xiao4
bao4Ġ fa1
Ġzhi2 Ġzhi4Ġ
Ġ 7Ġyue4Ġ
hao4 ĠdeĠ
Ġ bo1
Ġ shi3Ġyong4Ġ
Ġxin1Ġ wen2Ġ
ci4Ġshi4Ġjie4Ġda4Ġ zhan4Ġ
18 Ġnian2Ġ
can1Ġ jia1
xing4 Ġzhi4Ġ
Ġzhe4Ġ jiang1Ġ
yan3Ġchang4 Ġhui4Ġ
Ġ202 2Ġnian2Ġ
p i3Ġ
Ġshi4Ġ yi1Ġwei4Ġ
fo2Ġ jiao4Ġ
Ġ wang2
tui4 Ġyi4Ġ
hai2Ġ ziĠ
ch an2Ġ
ji1 Ġzhi4Ġ
bi4Ġ ye4Ġyu2Ġ
zhe4Ġ ge
wei4Ġ zhi4Ġ
ya4 ĠdeĠ
Ġshi4Ġ qu1Ġ
Ġ zhuan1Ġ
Ġming2Ġ cheng1Ġ
ã ĥ
Ġ gu3
10 Ġnian2Ġ
ru4Ġ kou3Ġ
ĠĠĠ yi4Ġ
Ġer3 Ġhe2Ġ
Ġ formulaĠ
Ġjia1Ġ shang4Ġ
qu3Ġ xiao1Ġ
Ġti3Ġzhang3Ġ ke3Ġda2Ġ
ju3 Ġxing2
zhuan1 Ġjia1Ġ
Ġke4 Ġli3Ġ
pu3Ġ tong1Ġ
hu n2
fu1 Ġren2Ġ
zhu4Ġ ming2ĠdeĠ
pi1Ġ zhun3Ġ
Ġjian4Ġ dui4Ġ
4 9
ĠdeĠyi1Ġ zuo4Ġ
qi4Ġ che1Ġ
Ġ ti2Ġ
hu an3Ġ
Ġru2Ġ guo3
Ġyu4 ĠdeĠ
Ġ fei4Ġ
Ġ 12Ġyue4Ġ
Ġm eng4Ġ
Ġ min2Ġguo2Ġ
zh a4
wen2Ġ zhang1Ġ
fa1Ġ dian4Ġ
bao3Ġ chi2Ġ
cun1Ġ zhuang1Ġ
Ġ tou2Ġ
zhi4 Ġzai4Ġ
Ġbu4Ġ li3Ġ
Ġyi3Ġ xia4
G Ġ
r ou4
yi2 Ġdong4Ġ
lian2Ġ xi4Ġ
di3Ġ da2Ġ
zhan4 Ġzhong1Ġ
ĠdeĠ qian2Ġ
Ġshang4Ġ hai3
Ġ 11Ġyue4Ġ
Ġfu4Ġ jin4Ġ
zh uo2Ġ
wang3Ġ lu4Ġ
yu3 Ġzhong1Ġ
xiang1Ġ dang1Ġ
ru4Ġ qin1Ġ
6 Ġren2Ġ
ye3 Ġzai4Ġ
Ġji1Ġ guan1Ġ
Ġ qu1Ġ
Ġzhi1 Ġzhong1Ġ
yan2Ġ ge2Ġ
shou4 Ġdao4
ĠĠĠ202 4Ġnian2Ġ
201 2Ġnian2Ġ
Ġde2 Ġyi3Ġ
Ġ ping2
yi4 Ġzai4Ġ
guang3Ġ bo1
wan4 Ġyuan2Ġ
Ġshi2Ġ ren4Ġ
Ġs uo1Ġ
25 Ġnian2Ġ
tong2 Ġyi4Ġ
si4 Ġge4Ġ
gu1 Ġji4Ġ
Ġzheng4Ġ ce4Ġ
gong4Ġchan3Ġ dang3
ha1 Ġer3Ġ
tai4Ġping2Ġ yang2Ġ
dao3 Ġshi4Ġ
zhe4Ġ xie1
ch i1Ġ
gu ai4Ġ
zhi2 Ġwei4Ġ
8 Ġren2Ġ
cheng2Ġ gong1Ġ
fa1Ġ dong4Ġ
Ġmu4Ġ qian2
ming2 Ġshi4Ġ
Ġping2Ġ tai2Ġ
xiao1Ġ shou4Ġ
geng4 Ġjia1Ġ
ming2Ġ cheng1Ġ
fa3 ĠdeĠ
ĠdeĠshi2Ġ qu1Ġwei4Ġ
28 Ġnian2Ġ
de2 Ġdao4Ġ
xing1Ġ qi1Ġ
cha1 Ġyi4Ġ
sheng1 Ġwei4Ġ
c o
e sĠ
fa1 Ġchu1Ġ
ĠĠĠ t
200 8Ġnian2Ġ
ind ow
yu3 Ġhe2Ġ
Ġjia1Ġ ru4
ju2Ġ zhang3Ġ
Ġyi1Ġ sheng1Ġ
xiao3Ġ shuo1
Ġshi4Ġ you3Ġ
qi1Ġ zi3Ġ
yue4Ġ tai2Ġ
Ġyu2Ġ 197
ĠdeĠshi2Ġ jian1Ġ
Ġer3Ġ te4Ġ
g Ġ
al Ġ
5 5
duo1 Ġnian2Ġ
chu1Ġ ban3
guang3 Ġxi1Ġ
Ġren2Ġ lei4Ġ
Ġxian4 Ġwei4Ġ
kuo4 Ġda4Ġ
Ġji1Ġ hu1Ġ
zhu4 Ġyu2Ġ
Ġhan sĠ
Ġ xi1
Ġ ruo4Ġ
yi4 Ġzhong1Ġ
Ġt wĠ
yue4 Ġshi2Ġ
b a4
ĠĠĠnian2 Ġ
zhi3 Ġzai4Ġ
zhong4 Ġda4Ġ
zhe4Ġ jiang1Ġ
ai1 Ġer3Ġ
deng1 Ġlu4Ġ
p ang2
Ġsi1Ġ tan3Ġ
lai2 Ġdao4Ġ
ye4 Ġhou4Ġ
Ġjin3Ġ guan3
Ġbing4Ġ mei2Ġyou3Ġ
Ġ hai2
Ġ yin4Ġdu4Ġ
Ġjin4Ġ ru4
shu4Ġ xue2Ġ
bi an3Ġ
ji4 Ġhe2Ġ
ba1Ġ li2Ġ
ĠĠĠdeĠ shi2Ġ
a b
rong2 Ġyu4Ġ
Ġhuo4Ġ zhe3Ġ
meng2Ġ gu3
che4Ġ xiao1Ġ
Ġ shang1Ġ
zui4 Ġchu1Ġ
ba1 Ġxi1Ġ
Ġshi4Ġ yan3Ġ
zh ou4Ġ
Ġzai4Ġ 18
jie2Ġ hun1Ġ
gai3Ġ bian1
mu3Ġ qin1Ġ
wan3 Ġshang4Ġ
ĠĠĠ 3
ya4Ġli4Ġ shan1
r an3
Ġguo2Ġ wu4Ġ
Ġgong1Ġ ye4
yuan4 ĠdeĠ
wen2Ġ zi4Ġ
Ġzhi1 Ġyuan2Ġ
Ġ yan3Ġ
Ġ chuang4Ġ
Ġjia1Ġ ting2Ġ
shu4Ġ zi4Ġ
17 Ġ
ï¼ ı
Ġzuo4Ġ yong4Ġ
Ġci3 Ġshi2Ġ
p an2
Ġ a1Ġer3Ġ
Ġhu i3Ġ
hun4 Ġhe2Ġ
xu1 Ġqiu2Ġ
Ġren2Ġ menĠ
Ġxue2Ġ xi2Ġ
Ġxi1Ġban1Ġ ya2
Ġ sa4Ġ
ni u2
xue2 Ġhe2Ġ
su1Ġ lian2
heng2Ġ xing1Ġ
ming2 Ġyi4Ġ
fu4 ĠdeĠ
ye3 Ġbei4Ġ
wu4Ġ zhong3
19 Ġnian2Ġ
202 1Ġnian2Ġ
Ġbing4 Ġyi3Ġ
24 Ġnian2Ġ
Ġ da3Ġ
Ġde2 ĠdeĠ
shi2 Ġwei4Ġ
zhan4 Ġdi4Ġ
xiong1Ġ ya2
201 8Ġnian2Ġ
hua2Ġ min2Ġguo2Ġ
ĠĠĠ suo3Ġshu3ĠdeĠsheng3Ġji2Ġxuan3Ġqu1Ġwei4Ġ
ru2Ġ ci3Ġ
ĠĠĠdeĠ you2Ġzheng4Ġbian1Ġma3Ġwei4Ġ
ĠĠĠyu3Ġ jie1Ġrang3ĠdeĠshi4Ġzhen4Ġ
ĠĠĠyu2Ġ shi2ĠdeĠren2Ġkou3Ġshu4Ġliang4Ġwei4Ġren2Ġ
ĠĠĠdeĠshi2Ġ qu1Ġwei4Ġ
chu ang2Ġ
zong3 Ġbu4Ġ
zhuang1 Ġzhi4Ġ
Ġsi1Ġ la1Ġ
tai2Ġ bei3Ġ
Ġ que4
Ġ 6Ġyue4Ġ
li u3Ġ
ji4Ġ nian4Ġ
que4Ġ ding4Ġ
shuo4 Ġshi4Ġ
7 Ġren2Ġ
Ġ Ñ
Ġshi2Ġ xian4Ġ
Ġ gai3
lin2 ĠdeĠ
Ġzh ao3
tu2 Ġzhong1Ġ
guan1Ġ zhu4Ġ
Ġ kuan1Ġ
min2Ġ zhong4Ġ
kai1Ġ fang4
Ġchu1 Ġxian4Ġzai4Ġ
xun4Ġ su4Ġ
ĠĠĠ 2010Ġnian2Ġ
Ġ ling2Ġ
Ġwei4Ġ le
Ġ xing4Ġ
Ġwei4Ġ sheng1Ġ
shi1Ġ fan4
guan3Ġ li3
can1Ġ kao3Ġ
Ġ pi2Ġ
Ġzhi1Ġ ming2Ġ
Ġceng2 Ġren4Ġ
liu2 Ġyu4Ġ
Ġji2Ġ qi2
Ġ qiang2Ġ
zi1Ġ xun4Ġ
Ġ fan3Ġ
ĠĠĠ ji1Ġ
Ġshi4Ġ zhang3Ġ
Ġyi1Ġ dai4Ġ
fu4Ġ qin1Ġ
wei2 ĠdeĠ
jin4 Ġshi4Ġ
xiong1Ġya2 Ġli4Ġ
sui1 Ġran2Ġ
jing1Ġ chang2Ġ
chang4Ġ pian4Ġ
chu1Ġ ban3Ġ
7 5
r u3
ti c
Ġge4Ġ zhong3Ġ
Ġdan4 Ġta1Ġ
jiang3Ġ xiang4Ġ
ĠĠĠ p
fei1 Ġjian4Ġzhi4Ġ
Ġbu4Ġ ke3Ġ
b er
tai2 ĠdeĠ
14 Ġnian2Ġ
Ġbing4 Ġli4Ġ
xu e4
lu4 Ġjun1
201 4Ġnian2Ġ
Ġh kĠ
xi4Ġ ju4Ġ
Ġxue2Ġ jia1Ġ
i v
niu3Ġ yue1Ġ
n ai3
Ġ 5Ġyue4Ġ
lu an4
Ġren2Ġ shu4Ġ
gao1Ġ du4Ġ
zhuang4Ġ kuang4Ġ
ti2 Ġchu1
Ġwei4Ġ he2Ġ
ĠĠĠ201 1Ġnian2Ġ
Ġdi4Ġ qiu2Ġ
Ġsi1Ġ te4
jing1Ġ shen2Ġ
hu ai2
kang4 Ġri4Ġ
Ġhe2Ġ bing4Ġ
wei1Ġ xie2Ġ
Ġhe2Ġ xin1Ġ
Ġ chu2
d u3Ġ
Ġzh an1Ġ
fa1Ġxian4 ĠleĠ
guo4Ġ qu4
27 Ġnian2Ġ
sh an3Ġ
jiao4 ĠdeĠ
Ġtong1Ġ chang2Ġ
Ġ che1Ġ
lan2 Ġke4Ġ
Ġnian2Ġ qing1
Ġyi4Ġ yuan4Ġ
y e1Ġ
wang2 ĠdeĠ
liang3 Ġren2Ġ
sa4 Ġke4Ġ
21 Ġnian2Ġ
s p
cai2 Ġzheng4Ġ
Ġwei2Ġ qi2Ġ
jin4Ġ ru4
Ġzhi1Ġ hou4
Ġshi4Ġ zhi3Ġ
qi3 Ġyi4Ġ
zhong4Ġ dian3Ġ
sh a4Ġ
u m
lv4 Ġwei4Ġ
Ġ huang2
Ġji4Ġ zai3Ġ
Ġye3 Ġyou3Ġ
Ġjing1Ġ guo4Ġ
de r
de ĠĠĠ
ĠĠĠ zhong1Ġguo2Ġ
Ġ ci2Ġ
li4 Ġshi4Ġ
tu2Ġshu1Ġ guan3Ġ
Ġ zu3Ġ
zhu3Ġ chi2Ġ
fei1Ġjian4Ġzhi4Ġ di4Ġqu1Ġ
Ġ gui1Ġ
shou3Ġ du1Ġ
jiang1 Ġxi1Ġ
diao4Ġ cha2
Ġ qian2
ao4 Ġdi4Ġli4Ġ
sh u2
dou1 Ġhui4Ġ
Ġyin1 Ġer2Ġ
Ġ jin3
qu an3Ġ
tai4Ġ yang2
Ġ zhu1
Ġ che1Ġzhan4Ġ
liang3 Ġnian2Ġ
xun4Ġ lian4
ĠĠĠ jie2
sui4 Ġdao4Ġ
Ġda4Ġ lou2Ġ
cu n4Ġ
shang4Ġ shu1Ġ
Ġzuo4Ġ pin3
15 Ġnian2Ġ
00Ġ wan4Ġ
Ġshi4Ġ ji2Ġ
Ġhe2Ġ zhong1Ġ
Ġbu4Ġ duan4Ġ
chan3Ġ pin3
z eng4Ġ
min2Ġ zu2
ling3Ġdao3 Ġren2Ġ
zhan4Ġ dou4
xi4Ġtong3 ĠdeĠ
xi4Ġ bao1
shan1Ġ mai4
Ġ e2Ġluo2Ġsi1Ġ
kan4 Ġdao4Ġ
Ġch i4Ġ
Ġyu2Ġ 194
Ġzhong1Ġguo2Ġ gong4Ġchan3Ġdang3Ġ
9 Ġren2Ġ
Ġ da2Ġ
ĠdeĠcheng2Ġ yuan2Ġ
Ġhe2Ġ cheng2Ġ
Ġji4Ġ suan4
Ġzai4Ġ jia1Ġ
A S
t ou
Ġda4Ġ duo1Ġ
ku ang2Ġ
guang3Ġ gao4Ġ
na4 Ġli3Ġ
Ġ 00Ġ
19 0
29 Ġnian2Ġ
Ġ 4Ġyue4Ġ
Ġ zao4Ġcheng2Ġ
hua4 Ġwei4Ġ
201 5Ġnian2Ġ
xiao4Ġ guo3Ġ
chang4Ġ pian4
Ġzheng4Ġ zhuang4Ġ
n uo2Ġ
hai3 Ġdao4Ġ
shen1 Ġwei4Ġ
yong4Ġ hu4Ġ
Ġli3Ġ lun4Ġ
jiao4Ġ lian4Ġ
Ġ200 4Ġnian2Ġ
ying2Ġ yun4Ġ
Ġzi4Ġji3 ĠdeĠ
Ġ hua1Ġ
zh ao3Ġ
sai4 ĠdeĠ
Ġ18 8
t or
Ġ chuan2Ġ
jiang1Ġ su1Ġ
chan3Ġ sheng1ĠdeĠ
shi2Ġ jian1Ġ
que4Ġzh en3
yue4 Ġzai4Ġ
22 Ġnian2Ġ
fu4Ġ jin4Ġ
ju4Ġ li2Ġ
Ġt eng2Ġ
xia4Ġji4Ġ ao4Ġlin2Ġpi3Ġke4Ġyun4Ġdong4Ġhui4Ġ
sui1 Ġran2
sun3Ġ shi1Ġ
ĠĠĠzh Ġ
3 4
wu3Ġ zhuang1Ġ
Ġ ruo4
Ġ quan2Ġguo2Ġ
Ġda4Ġ xing2Ġ
Ġzhi1Ġ xia4Ġ
shen1Ġ qing3Ġ
Ġ ke1
Ġ lv4Ġ
Ġ tuo1Ġ
ĠĠĠ U
zhi2 Ġdao4Ġ
ru n4Ġ
Ġshi4Ġ zhen4
Ġgong1Ġ ren2Ġ
ao4Ġyun4 Ġhui4Ġ
Ġ bian4
lan2 Ġqiu2Ġ
you1 Ġshi4Ġ
ĠĠĠjia1Ġ zu2Ġ
Ġshi4Ġ ren2Ġ
li2Ġ kai1
zhou1 ĠdeĠ
jiao4Ġ shi1Ġ
yin3Ġ qi3
Ġ ou1Ġ
ji4 Ġshi2Ġ
hua2 Ġren2Ġ
zhan4Ġ dou4Ġ
pin3Ġ pai2Ġ
11 Ġnian2Ġ
e dĠĠĠ
Ġmei4 Ġ
201 7Ġnian2Ġ
Ġ chang2
xian3 ĠdeĠ
ju4 ĠdeĠ
wang2Ġ chao2
Ġ wang3Ġ
han2Ġ shu4Ġ
ĠC Ġ
jie4 ĠdeĠ
Ġyue4Ġ nan2Ġ
t un2Ġ
Ġ you3Ġshi2Ġ
qi a4Ġ
jia1 Ġzhong1Ġ
su n3
6 5
bao4Ġ dao3Ġ
fang3Ġ wen4Ġ
201 1Ġnian2Ġ
ju1 Ġzhu4Ġ
gao1Ġ deng3Ġ
Ġdao4 Ġle
Ġji4Ġ zhe3Ġ
Ġdan4Ġ you2Ġyu2Ġ
tiao2Ġ zheng3Ġ
Ġ xiang3
sh an3Ġxi1Ġ
zeng1Ġ zhang3Ġ
ni ao3
ying1Ġ wen2Ġ
a i
Ġ xu3Ġduo1Ġ
jin1 ĠdeĠ
bao3Ġ chi2
Ġyue4Ġ tai2Ġ
Ġ 10Ġ
you3 Ġbu4Ġ
xi2 Ġwei4Ġ
Ġji2Ġ li4Ġ
Ġxi1Ġ wang4
ao4Ġ men2Ġ
su4 ĠdeĠ
Ġzhong1Ġ wen2Ġ
ch ai2
zhen1 Ġshi2Ġ
13 Ġnian2Ġ
Ġdi4Ġ wu3Ġ
mei3Ġ shu4Ġ
Ġhuo4Ġde2 ĠleĠ
yun3Ġ xu3Ġ
ch ou1Ġ
zhong1 Ġwei4Ġ
yin4 Ġdi4Ġ
fei1Ġ lv4Ġ
liang3Ġ zhong3Ġ
fa3Ġ an4Ġ
hui2Ġ ying4Ġ
sh e3Ġ
sheng1 Ġzai4Ġ
yi2Ġ min2Ġ
guan1Ġ xi4
2020Ġnian2Ġ mei3Ġguo2Ġren2Ġkou3Ġpu3Ġcha2ĠdeĠshu4Ġju4Ġ
jiao4Ġ xue2Ġ
wu3Ġ tai2Ġ
lei4 ĠdeĠ
Ġzhou1 Ġnian2Ġ
ma3 Ġsi1Ġ
lie4Ġ biao3Ġ
ming4Ġ ling4Ġ
bai2Ġ se4Ġ
ĠdeĠgong1Ġ zuo4Ġ
zhong1Ġ hua2Ġren2Ġmin2Ġgong4Ġhe2Ġguo2Ġ
Ġ sun1Ġ
23 Ġnian2Ġ
- -
Ġyu3Ġ yan2
Ġren4Ġ wu4Ġ
duo1 Ġren2Ġ
shen2Ġ jing1Ġ
yi2Ġ chan3Ġ
yao1Ġ qing3Ġ
hui4 Ġyuan2Ġ
wa3 Ġer3Ġ
Ġf eng2Ġ
deng3 Ġwei4Ġ
du1 Ġshi4Ġ
Ġjin4 Ġgong1Ġ
yi3Ġ lai2Ġ
1Ġyue4Ġ 1Ġri4Ġ
hua4 Ġjia1Ġ
quan2Ġ mian4Ġ
m ou3
Ġshi2Ġ yi1Ġ
Ġshi2Ġ qi1
Ġda4Ġ yue1Ġ
yi2Ġ zhi3Ġ
Ġri4Ġ jun1Ġ
ceng2Ġ jing1
h e
jie1 Ġji2Ġ
17 Ġnian2Ġ
Ġbu4Ġ men2
Ġ sheng4
ĠĠĠ zao3Ġnian2Ġ
dong1 Ġji4Ġ
shu1 ĠdeĠ
Ġhe2Ġ xi1Ġ
Ġshe4 Ġji2Ġ
ze2 Ġwei4Ġ
duan4 ĠdeĠ
jing1 Ġli3Ġ
hua1 Ġyuan2Ġ
qi4Ġ xiang4Ġ
d a
yue1 Ġyou3Ġ
mei3Ġ guo2ĠdeĠ
Ġzai4Ġ xi1Ġ
bi ng3
Ġzhi4Ġ shi2Ġ
Ġli4Ġ shi3
xia4 Ġyi1Ġ
ying2 ĠdeĠ
Ġji1Ġ che1Ġ
ling3Ġ tu3Ġ
zh ai4Ġ
ku n1
ke4 Ġli3Ġ
Ġwo3Ġ menĠ
yi4 Ġnian2Ġ
Ġzhi4Ġ li4Ġ
r ao3Ġ
Ġ zuo3Ġ
pi n4Ġ
mian4 Ġdui4Ġ
Ġmei3 Ġnian2Ġ
m ang2Ġ
yuan2 Ġji2Ġ
mi3 ĠdeĠ
Ġhe2Ġ lan2Ġ
Ġxing2Ġ zheng4
Ġsuo3 Ġyi3
wan2Ġ quan2
Ġyuan2Ġ yin1
Ġshi4Ġ da4Ġ
Ġgong1Ġ chang3Ġ
zi1Ġ jin1Ġ
fang2 Ġyu4Ġ
Ġ ai1Ġ
yuan2 Ġzai4Ġ
Ġ 3Ġyue4Ġ
jiu3Ġ dian4Ġ
Ġming2Ġchao2Ġ zheng4Ġzhi4Ġren2Ġwu4Ġ
Ġ202 3Ġnian2Ġ
cheng1 Ġzuo4Ġ
xue2Ġ shu4Ġ
Ġji4Ġ shu4
xia4Ġ ling4
Ġ qi1
Ġshi2Ġ er4Ġ
Ġren2Ġ min2
ĠĠĠ xin1Ġ
ti2 Ġsheng1Ġ
cai2Ġ liao4Ġ
s ou1
jin4 Ġgong1Ġ
Ġzhong1Ġ yu2Ġ
gui1Ġ ze2Ġ
c ui4Ġ
Ġ can1Ġjia1Ġ
da4 Ġdi4Ġ
200 9Ġnian2Ġ
26 Ġnian2Ġ
Ġ kang1
wen2 Ġxian4Ġ
e st
ĠĠĠ ta1Ġ
Ġyuan2Ġ ming2Ġ
z ong4Ġ
te4 Ġli3Ġ
Ġyi4Ġ yi4Ġ
zuo4Ġ yong4Ġ
sheng1 Ġji2Ġ
Ġhe2Ġ gong1Ġ
nei4Ġ lu4Ġ
shou1Ġ lu4
ĠĠĠ hou4Ġ
Ġguo2Ġ hui4Ġ
qi3Ġ ye4
Ġ200 2Ġnian2Ġ
e g
xi3Ġhu an1Ġ
Ġ xiao4Ġ
202 3Ġnian2Ġ
ji1Ġ chang3Ġ
k eng1
Ġgong1Ġ hui4Ġ
Ġyuan2Ġ gong1Ġ
biao3Ġ mian4Ġ
201 3Ġnian2Ġ
Ġzhi4Ġ liao2Ġ
wu2Ġ fa3
qi an3
jie2 Ġke4Ġ
can1 Ġmou2Ġ
Ġguo2Ġ fang2
Ġshi4Ġyi1Ġ zhong3
I N
ju an4Ġ
n ai3Ġ
yong4Ġ zuo4Ġ
l ai4
zhu3Ġ chi2
wei1 Ġji1Ġ
Ġdi4Ġyi1Ġ ci4Ġ
Ġnan2 Ġzhi4Ġ
ĠĠĠ you2Ġ
Ġyu2Ġ 196
jia1Ġ ru4
ĠĠĠ200 8Ġnian2Ġ
tai4 Ġren2Ġ
Ġyi4Ġ fang1Ġmian4Ġ
Ġ yang2
zhi1Ġ jian1Ġ
Ġ han2Ġguo2Ġ
19 Ġ
bei4 Ġshi4Ġwei4Ġ
wen2 Ġyi4Ġ
Ġshi4Ġ hou4Ġ
li3Ġ lun4Ġ
nv3Ġ zi3
6 8
a li
en t
Ġzai4Ġ 198
Ġxian4 Ġhe2Ġ
xiang1Ġ guan1
Ġnian2 Ġshi4Ġjie4Ġ
Ġcheng2Ġ xian4Ġ
Ġ xing1Ġ
dong1Ġ nan2Ġbu4Ġ
ge2 Ġwei4Ġ
ying2 Ġde2
da4 Ġwei4Ġ
kong1 Ġzhong1Ġ
hui1Ġ fu4
ke3Ġyi3 Ġzai4Ġ
zhu4 Ġli3Ġ
tian1 ĠdeĠ
kong3 Ġbu4Ġ
o s
dai4 Ġli3Ġ
liu2 Ġzai4Ġ
16 Ġnian2Ġ
zuo4 Ġwei4Ġ
ku i2
Ġ fan3
sh ang3
jian4 Ġshe4Ġ
shou3 Ġji1Ġ
qi2Ġzhong1Ġ yi1Ġzhong3Ġ
li4 Ġwei4Ġ
shu1 Ġji2Ġ
Ġer2 Ġcheng2Ġ
Ġxiang1Ġ guan1Ġ
Ġ zhong1ĠdeĠ
suo3 Ġzai4Ġ
gu4Ġ wen4Ġ
zi4Ġ dong4Ġ
Ġ man4Ġ
sh ao1
Ġjian4 ĠleĠ
3 1
yi3 Ġxia4Ġ
50 Ġnian2Ġ
Ġ xiao3
you3 Ġzai4Ġ
da4Ġ lu4ĠdeĠ
bo1Ġ lan2
cheng2 Ġnian2Ġ
ji1 Ġhe2Ġ
yan3 Ġyi4Ġ
hui4 Ġshi4Ġ
ku ang1Ġ
jin1Ġ shu3Ġ
4 4
t i1Ġ
tong1Ġ che1Ġ
te4Ġ shu1Ġ
Ġfu4Ġ ze2
Ġjie2 Ġzhi4Ġ
Ġ ru4Ġ
Ġzuo4Ġ wei2
c i
Ġ sĠĠĠ
fa1 ĠdeĠ
Ġ fang1Ġ
biao3Ġ da2
Ġyou3Ġ ji1Ġ
Ġjin4Ġ yi2Ġbu4Ġ
Ġ2001Ġnian2Ġ ren2Ġkou3Ġ
zhao1 Ġhe2Ġ
Ġta1Ġ ye3Ġ
ju1Ġ min2
a ng
tong1 Ġdao4Ġ
jing4 ĠdeĠ
men ĠdeĠ
shuo1 Ġming2Ġ
zhi2Ġ min2
Ġbei3Ġ qi3Ġ
Ġ 7Ġ
jiang1 Ġhui4Ġ
si3 Ġhou4Ġ
Ġdong4Ġ hua4Ġ
Ġ000 Ġ
si1 Ġli4Ġ
dao4 Ġlu4Ġ
zhu3 ĠdeĠ
wang2Ġ chao2Ġ
p er
Ġshi4Ġ wei1Ġ
ya4Ġli4Ġshan1 Ġda4Ġ
Ġ zheng4
Ġyi3Ġ bei4Ġ
Ġdao4Ġ da2Ġ
Ġzhi1Ġ jian1
Ġping2Ġ mian4Ġ
ying3Ġ pian4
a me
S TĠ
Ġzhong1Ġguo2Ġ da4Ġlu4Ġ
k ou4Ġ
Ġ ying1Ġyu3Ġ
zhu3 Ġli4Ġ
chang2 ĠdeĠ
ni2 Ġke4Ġ
Ġzai4Ġ wei4Ġ
di4Ġ er4Ġ
Ġ à
Ġyu2Ġ le4Ġ
Ġc ang1Ġ
yao4Ġ wu4Ġ
Ġxian4ĠdeĠ yi2Ġge4Ġ
202 4Ġnian2Ġ
Ġbu4Ġ bu4Ġ
Ġ200 0Ġnian2Ġ
nan2Ġ jing1Ġ
t eng2
ĠdeĠ zheng4Ġ
Ġxi1Ġ si1Ġ
Ġ jie4Ġ
ĠĠĠ202 5Ġnian2Ġ
Ġ guang3Ġ
Ġer2Ġ yan2Ġ
Ġc u4
miao2Ġ shu4
1 ĠĠĠ
Ġ hong2
jiao1 Ġhui4Ġ
bo1Ġ lan2Ġ
Ġxian4ĠdeĠ yi2Ġge4
Ġ lai2Ġzi4Ġ
shou3 Ġge4Ġ
Ġta1 Ġwei4Ġ
Ġxing2Ġ dong4
ci4Ġ shi3Ġ
lv4Ġ shi1Ġ
Ġke4 Ġcheng2Ġ
Ġyou3Ġ yi4Ġ
ye3 Ġhui4Ġ
jin1 Ġhui4Ġ
ji3 Ġge4Ġ
po 2Ġ
A R
e sĠĠĠ
m i2
Ġzhan4Ġ dou4Ġ
Ġ xuan1Ġbu4Ġ
fei1 Ġzhou1Ġ
lao2 Ġdong4Ġ
dong1Ġ bei3Ġbu4Ġ
jin1Ġ pai2Ġ
ĠĠĠ200 9Ġnian2Ġ
ya4 Ġzhou1
hai3Ġ an4Ġ
Ġ 0Ġ
ĠĠĠ xia4Ġ
Ġ200 3Ġnian2Ġ
an d
ĠdeĠ jia1Ġ
mu4Ġ biao1
Ġ bi3
fu2 Ġyi4Ġ
Ġt ang1Ġ
wo3Ġ menĠ
Ġshi4Ġ yu3Ġ
ti2 Ġdao4Ġ
Ġer2Ġshui3Ġyu4Ġmian4Ġji1Ġwei4Ġ 0
ãĥ »
g ong3Ġ
Ã Ĺ
ju4 Ġhe2Ġ
Ġguo2Ġ jia1ĠdeĠ
Ġzh a1Ġ
che1 ĠdeĠ
zi4Ġ you2
Ġfu4Ġ qin1Ġ
ben3 Ġdi4Ġ
tui1 Ġdong4Ġ
Ġzhi1 Ġwei4Ġ
kao3Ġ lv4
yun4 Ġzuo4Ġ
Ġjie2Ġ guo3Ġ
n eĠ
zhuang1Ġ jia3Ġ
shi1Ġ bai4Ġ
gou4Ġ zao4Ġ
f f
Ġ qiao2Ġ
Ġ 30Ġ
Ġbu4Ġ de2
Ġshi2Ġ yan4Ġ
ju4Ġ le4Ġbu4Ġ
dang1Ġ shi2ĠdeĠ
Ġ wu4Ġ
Ġ cheng1Ġwei2Ġ
sui4 Ġshi2Ġ
lv3 Ġxing2Ġ
Ġchu1Ġ lai2Ġ
bian1 Ġju4Ġ
tui4 Ġchu1Ġ
an1Ġ zhuang1
Ġbing4Ġ jiang1Ġ
Ġqiu2 Ġyuan2Ġ
Ġshi4Ġ jia1Ġ
t ang1Ġ
Ġhe2Ġ qi2Ġta1Ġ
ao4Ġda4Ġli4Ġ ya4Ġ
p ao3
qi e1Ġ
Ġcheng2Ġ xu4Ġ
f en3
chu ang2
zhuang1 Ġshi4Ġ
Ġyu2Ġ 195
fa3Ġ yuan4
t o
Ġ li2Ġ
Ġer2Ġ gai1Ġdi4Ġ
mu4Ġ qian2
ĠĠĠ cheng2Ġ
bian4 Ġde2Ġ
Ġbu4Ġ la1Ġ
bo1Ġ fang4Ġ
c ao1Ġzuo4Ġ
ji4Ġ lu4Ġ
fu4Ġ qin1
2 ĠĠĠ
d a1
p h
Ġ xiu1Ġ
Ġ lei2Ġ
Ġyi1Ġ ji2Ġ
jin4Ġ yi2Ġbu4Ġ
dian4Ġ nao3Ġ
Ġt ao4Ġ
mao2Ġ ze2Ġ
Ġwei4Ġ you3Ġ
Ġda4Ġ lu4Ġ
Ġbing4 Ġyu3Ġ
mo4Ġxi1Ġ ge1Ġ
t ou4
sa4 Ġsi1Ġ
jiao1Ġ liu2Ġ
yan3Ġ chang4Ġ
6 4
Ġ guan1Ġyu2Ġ
xiao4 ĠdeĠ
Ġjia1Ġ zu2Ġ
Ġ hen3Ġ
yi4Ġ da4Ġli4Ġ
gu3Ġ fen4
Ġzhong1Ġgong4 Ġzhong1Ġyang1Ġ
xian1 Ġsheng1Ġ
guan1Ġ bi4Ġ
Ġcheng2Ġwei2Ġ leĠ
tao3Ġ lun4Ġ
luo2 Ġdi4Ġ
jin3 Ġji2Ġ
qing3 Ġqiu2Ġ
Ġjin4 Ġxing2ĠleĠ
ĠĠĠ in
shou1 Ġshi4Ġ
Ġwei4Ġ lai2Ġ
Ġji1Ġ bai4
Ġ zhen4Ġ
ba1Ġ li2
Ġzhu3Ġ xi2Ġ
Ġ li3
sa4 Ġer3Ġ
ĠĠĠ s
200 7Ġnian2Ġ
bo2Ġwu4Ġ guan3
Ġfu4Ġ qin1
H Ġ
Ġ du2Ġ
Ġsi1Ġ ke4Ġ
jing3Ġ fang1Ġ
chang3 Ġhe2Ġ
hong2Ġ se4Ġ
ĠĠĠ cong2Ġ
zhi4Ġ zuo4Ġ
Ġ r
tan3 Ġke4Ġ
Ġyi4Ġ mei3Ġyuan2Ġ
jie2Ġ guo3
huo3Ġ shan1Ġ
3 5Ġ
k en3
sh e3
Ġchu1Ġ qi1Ġ
e a
chuang4Ġ ban4
Ġle Ġta1Ġ
guang3Ġ fan4
huo3 Ġjian4Ġ
bi3Ġli4Ġ shi2Ġ
tai4Ġping2Ġ yang2
ĠĠĠ b
te4Ġ se4Ġ
â Ķ
jue2 Ġdui4Ġ
Ġte4Ġbie2 Ġshi4Ġ
yu2 Ġzai4Ġ
ding4 ĠleĠ
bian1 ĠdeĠ
Ġchu1Ġ sheng1Ġ
Ġ liang2Ġ
Ġshi4Ġ ri4Ġben3Ġ
Ġyi3 Ġyou3Ġ
Ġ ci4Ġ
Ġ bai3Ġ
shang4Ġ wu3Ġ
Ġzhi4Ġ cheng2Ġ
Ġzhi1 ĠdeĠ
Ġbei4Ġ ren4Ġwei2Ġshi4Ġ
min2Ġ jian1Ġ
min2Ġzhu3Ġ dang3Ġ
nei4 Ġyou3Ġ
200 0Ġnian2Ġ
wan2 Ġgong1Ġ
Ġda4Ġ dao4Ġ
guang3Ġdong1Ġ sheng3Ġ
I n
S T
geng4 Ġduo1Ġ
shen1Ġ ti3Ġ
nan2 Ġyi3Ġ
ju4Ġ jue2Ġ
yong4Ġ tu2Ġ
zhong3Ġ zu2Ġ
zhe3 Ġzai4Ġ
tian1Ġ jin1
bao3Ġ liu2Ġ
hu2Ġ bei3Ġ
Ġqi1Ġ xi1Ġzai4Ġ
Ġ fei4
er4 Ġyue4Ġ
Ġzhi1Ġ ziĠ
mu3Ġ qin1
le Ġyi1Ġ
Ġda4Ġ duo1Ġshu4Ġ
Ġ guan1
xi2Ġ xing4
Ġ nv3Ġxing4Ġ
mei3 Ġge4Ġ
ĠdeĠ sheng1Ġ
Ġ chao2Ġ
jian4 Ġyi4Ġ
dai4Ġbiao3 Ġda4Ġhui4Ġ
Ġ shou4
Ġ meng2Ġ
wai4 Ġbu4Ġ
Ġxian4Ġ chang3Ġ
an1Ġ quan2
yan2Ġ shen1
wang3Ġ luo4
li4 Ġzai4Ġ
Ġshi4Ġ zheng4Ġ
sen1Ġ lin2Ġ
huo4Ġde2 ĠleĠ
ĠĠĠ zeng1Ġ
xiao4 Ġyuan2Ġ
Ġri4Ġ jun1
e2Ġluo2Ġ si1
Ġ yong1Ġyou3Ġ
ï¼ ħ
Ġyue4Ġ tuan2Ġ
an1Ġ na4Ġ
gao1Ġ su4Ġ
Ġ18 7
Ġyou3Ġ xian4Ġ
tian1Ġ jin1Ġ
zu i3Ġ
Ġyuan2Ġ su4Ġ
Ġshi4Ġ ye4Ġ
Ġbu4Ġ neng2
xing4Ġ qu4Ġ
Ġzh e2
Ġta1Ġmen Ġzai4Ġ
te Ġ
ma3Ġlai2 Ġxi1Ġya4Ġ
n ai4
Ġ wei3Ġ
an1Ġ pai2Ġ
tai2Ġ feng1Ġ
Ġ lao3Ġ
li2 Ġmi3Ġ
Ġ mo4
sui4 ĠdeĠ
Ġ deng4
ti2Ġ gao1Ġ
yin3Ġ qing2Ġ
5 8
Ġ gao1
ling3Ġ xiu4Ġ
zhang4Ġ ai4Ġ
âĶ Ģ
chang3 Ġdi4Ġ
Ġyi4Ġ yuan4
qian1 Ġzhi4Ġ
long2Ġ jiang1Ġ
yin3Ġ qi3Ġ
1 Ġli4Ġ
dao3 Ġdan4Ġ
zuo4Ġ zhan4Ġ
wu4 Ġyuan2Ġ
e w
v er
Ġji2Ġ bei3Ġ
suo3 ĠdeĠ
ban4 Ġli3Ġ
mi4Ġ mi4Ġ
wei4 ĠĠĠ
shang4 Ġdi4Ġ
ling3 Ġshi4Ġ
Ġbu4Ġ jiu3
Ġji4Ġ suan4Ġ
tu3Ġer3 Ġqi2Ġ
Ġ jiao1Ġ
shu a1Ġ
Ġzai4Ġ qi2Ġ
chuan2Ġ shuo1Ġ
nong2Ġ ye4
Ġqing1Ġ chao2Ġ
Ġ 8Ġ
li3 Ġgong1Ġ
chang2 Ġjian4ĠdeĠ
Ġbu4Ġ zu2Ġ
ge1Ġ lun2Ġ
3 Ġge4Ġ
Ġ jing1Ġji4Ġ
Ġhe2Ġ shi2Ġ
Ġcheng2Ġ ren4Ġ
fa3Ġ guan1Ġ
bi3Ġ ya4
Ġ zhong1Ġshi4Ġ
Ġcheng2Ġ du4Ġ
qing2Ġ bao4Ġ
ming2 Ġzhi4Ġ
shi1Ġ qu4
nu3 Ġli4Ġ
c eĠĠĠ
ren4 Ġshi2Ġ
Ġsi1Ġ tan3
hua2Ġ sheng4Ġ
gui4 Ġzhou1Ġ
xi3 Ġju4Ġ
Ġgong1Ġ zhu3Ġ
jing1Ġ yan4Ġ
dian4Ġ zi
Ġsheng1Ġ chan3Ġ
xi2Ġxing4 Ġbu4Ġming2Ġ
ren4Ġming4 Ġwei4Ġ
Ġ he4Ġ
Ġjie2Ġ mu4Ġ
c ao2Ġ
Ġ lu4
zh a1
200 6Ġnian2Ġ
zui4Ġ gao1
4 5Ġ
Ġ xiang4
zhu3 Ġshi4Ġ
zhi2Ġ dao3Ġ
Ġzai4Ġ ci3
ming2Ġ zi4Ġ
qiong2 Ġ
ji4Ġ xu4Ġ
quan2Ġ zhang3Ġ
ying4Ġ yong4
Ġ ge2
ĠĠĠ mei3Ġguo2Ġ
Ġ18 6
Ġwei4Ġ ji1Ġ
Ġta1Ġ hai2Ġ
tai2Ġbei3 Ġshi4Ġ
Ġsheng1Ġhuo2Ġ xi2Ġxing4Ġbu4Ġming2Ġ
ĠĠĠ xian4
kao3Ġ lv4Ġ
Ġhe2Ġ he2Ġ
Ġ ju4Ġyou3Ġ
di4 Ġzai4Ġ
she4 Ġzhi4Ġ
hai3Ġ wai4Ġ
zh ou4
zhi4 Ġzhong1Ġ
hen3 Ġda4Ġ
Ġhu ai2Ġ
xin1Ġjia1Ġ po1Ġ
sheng1 Ġcheng2Ġ
Ġzhi1 Ġdao4Ġ
zhi2Ġ jie1
sai4 Ġzhong1Ġ
Ġ gong4
ji4 Ġshi4Ġ
Ġshi2Ġ dai4
2 Ġge4Ġ
Ġ gang3Ġ
9 9
Ġ hui2Ġ
zhu an4
Ġqi2 Ġzai4Ġ
san1 Ġshi4Ġ
Ġer2Ġ bu2Ġshi4Ġ
hua4Ġhe2Ġ wu4Ġ
Ġbu4Ġ luo4Ġ
li an3Ġ
bao4 Ġli4Ġ
Ġwei4Ġ xing1Ġ
zhao4Ġ kai1Ġ
Ġci4 Ġnian2Ġ
Ġ gan1Ġ
Ġyi1Ġ xue2Ġ
shou4Ġ huan1Ġ
Ġtou4Ġ guo4Ġ
Ġ fang2Ġ
yu n3
shu1Ġ ru4Ġ
gai3Ġ bian4
o g
Ġ lie4Ġ
Ġ yue1Ġhan4Ġ
Ġyou3Ġ xie1Ġ
shang4Ġ ying4Ġ
fang4Ġ qi4Ġ
ĠĠĠ200 7Ġnian2Ġ
jia1Ġli4Ġ fu2Ġ
ma3 Ġli3Ġ
tui1 Ġjin4Ġ
Ġzai4Ġ nei4ĠdeĠ
Ġxian4Ġ xiang4Ġ
piao4Ġ fang2Ġ
Ġ jing1
Ġ chu3Ġyu2Ġ
ming2 Ġren2Ġ
Ġyou3Ġ yi2Ġge4Ġ
zi1Ġ chan3Ġ
tou2Ġ zi1
ĠĠĠI n
Ġ qi3
ĠĠĠ li3Ġ
h an3
fa3 Ġyu3Ġ
yuan4 Ġshi4Ġ
Ġdong1Ġ nan2Ġ
Ġye3Ġ jiu4Ġshi4Ġ
Ġ pei4
Ġshi4Ġ fou3Ġ
Ġguo2Ġ nei4Ġ
ĠĠĠci3Ġ wai4Ġ
o h
shun4 Ġli4Ġ
jia4Ġ ge2Ġ
Ġ bo2
Ġzhan4Ġ dou4
ban3Ġ ben3
mian3Ġ dian1Ġ
c ong1
lei2 Ġsi1Ġ
zhi4 Ġbu4Ġ
ze2 Ġren4Ġ
zhu3Ġ yi4ĠdeĠ
Ġyou2 Ġqi2Ġshi4Ġ
xun2Ġ yang2
Ġ gen1Ġju4
Ġzai4Ġ du4Ġ
zheng4Ġ dang3Ġ
wang3 Ġqiu2Ġ
ge4Ġ zhong3Ġ
ruan3 Ġjian4Ġ
Ġ rui4Ġ
hu ang1Ġ
ĠdeĠ fang1Ġshi4Ġ
a y
c ang1
Ġ ka3
ar i
Ġhe2Ġ bu4Ġ
fang1Ġ mian4ĠdeĠ
tai4Ġ ziĠ
u l
jiao4 Ġshi4Ġ
ying1 Ġli3Ġ
Ġde2 Ġer3Ġ
Ġjian4Ġ zao4Ġ
hai3Ġ xia2Ġ
pai2Ġming2 Ġdi4Ġ
8 0Ġ
yang2 Ġshi4Ġ
bu2 Ġ
Ġhou4Ġ xuan3Ġren2Ġ
que1Ġ fa2Ġ
c Ġ
da4 Ġzhi4Ġ
18 9
Ġyuan2Ġ ben3Ġ
bao4Ġ gao4
lun4Ġ wen2Ġ
Ġ 20
Ġ qu3Ġ
ren2Ġ da4Ġ
ying1Ġ gai1Ġ
Ġ zhuan3Ġ
yu2 ĠdeĠ
Ġli3Ġ lun4
A M
Ġ gong4Ġyou3Ġ
Ġta1 Ġhe2Ġ
Ġm ou3Ġ
Ġqi2Ġzhong1Ġ yi1Ġ
Ġyu2Ġ ren2Ġ
Ġda4Ġ fu2Ġ
c ui4
Ġda4Ġ xi1Ġyang2Ġ
jiu4Ġ du2
ĠC h
6 7
zhe4 Ġli3Ġ
shen2Ġ meĠ
ling3 Ġdi4Ġ
zhan4Ġ ling3Ġ
jie3Ġ san4Ġ
f en2
ping2Ġ lun4Ġ
Ġ sui4Ġ
xiang1 Ġshi4Ġdi4Ġ
Ġxi1Ġ la4Ġ
Ġc ao2Ġ
ĠA Ġ
ĠĠĠju4Ġ qing2Ġ
ĠĠĠ qian2Ġ
Ġshi4Ġ gu4Ġ
xing2 Ġcheng2Ġ
fa1 Ġxing2ĠdeĠ
jin4 Ġxing2ĠleĠ
Ġri4Ġ bao4Ġ
Ġshi3 Ġjian4Ġyu2Ġ
ĠĠĠ qi2Ġ
Ġ pei4Ġ
pai4 ĠdeĠ
Ġshi4Ġwei4Ġ leĠ
Ġf an2Ġ
a sĠĠĠ
e m
h ou2
Ġ can1Ġ
ĠĠĠ xian4Ġ
guan1Ġ dian3Ġ
bao4Ġ zha4Ġ
du2Ġ li4ĠdeĠ
feng1 Ġwei4Ġ
Ġhe2Ġ da4Ġ
Ġer2 Ġbu4Ġ
ac k
gao1Ġsu4 Ġgong1Ġlu4Ġ
he4 Ġer3Ġ
Ġ202 4Ġnian2Ġ
Ġ xia4
zheng4Ġ ming2Ġ
jing1Ġ chang2
ĠĠĠ a1Ġ
Ġzhong1Ġ bei4Ġ
xi1Ġban1Ġ ya2
zhe2 Ġxue2Ġ
Ġde2Ġ hua2Ġ
Ġ hua2
Ġ gang1Ġ
qu e1
Ġzhi4Ġ shao3Ġ
gu n3
ju4 Ġda4Ġ
ma3 Ġer3Ġ
jue2 Ġyi4Ġ
Ġyou3Ġ xiao4Ġ
Ġyi1Ġ xiao3Ġshi2Ġ
Ġzuo4Ġ jia1Ġ
pai2Ġ hang2Ġ
bin1 Ġhai3Ġ
pu3Ġ bian4Ġ
bian4 Ġwei4Ġ
an1Ġ hui1Ġ
nei4Ġ ge2Ġ
Ġxi1Ġban1Ġ ya2Ġ
e2 Ġguo2Ġ
que4 Ġren4Ġ
jing3Ġ cha2
c ang2
Ġ su1
dang3 Ġyuan2Ġ
zhi1Ġ chi2
fang3Ġ wen4
7 0Ġ
qu1 Ġyi4Ġhui4Ġ
Ġzh uo2Ġ
chuang4Ġ zuo4
wen1Ġ du4Ġ
lu4Ġyi4Ġ si1Ġ
Ġ ti2Ġgong1Ġ
huan4 Ġcheng2Ġ
fang1Ġ yan2Ġ
dang1Ġ xuan3Ġ
ã ģ
Ġ wo4
yu an1Ġ
xian4 Ġzhi4Ġ
qu1 Ġhe2Ġ
Ġdong1Ġ lin2Ġ
jie2 ĠdeĠ
chu1Ġ sheng1Ġyu2Ġ
ĠĠĠdi4Ġ fang1Ġ
Ġ xuan1Ġ
xiu1 Ġzheng4Ġ
Ġbing4 Ġbei4Ġ
yi2Ġ du4Ġ
tou2Ġ xiang2Ġ
Ġshi4Ġ yin1Ġwei4Ġ
ying1Ġ xiong2Ġ
yun3Ġ xu3
Ġ han4
ben3 Ġren2Ġ
ci4 ĠdeĠ
Ġde2 Ġyu3Ġ
ĠleĠ yi2Ġge4Ġ
xiang1Ġ dang1
Ġchu1Ġ zhan4Ġ
Ġbing4Ġ fei1Ġ
zhong4Ġ duo1Ġ
Ġzhong1Ġhua2Ġren2Ġmin2Ġgong4Ġhe2Ġguo2Ġ zheng4Ġzhi4Ġren2Ġwu4Ġ
4 8Ġ
Ġyi4Ġ qi3
zui4Ġ duo1Ġ
Ġling4 Ġyi1Ġ
e d
Ġ ta3Ġ
han2 Ġyou3Ġ
Ġzai4Ġ ci4
yi2Ġ ding4Ġ
ke1ĠdeĠ qi2Ġzhong1Ġyi1Ġzhong3Ġ
Ġ yin2Ġ
Ġgong1Ġ yi4Ġ
Ġ ban1Ġ
cheng2Ġ yuan2Ġ
dian3 Ġli3Ġ
dang4 Ġtian1Ġ
zhong3Ġ ziĠ
biao3Ġ yan3
f eng2
tui1 Ġchu1
Ġle Ġta1ĠdeĠ
Ġji4Ġ lu4
Ġji1Ġ jin1Ġ
jiu3Ġ long2Ġ
ya4 Ġjun1Ġ
dian4Ġ hua4Ġ
fan4Ġwei2Ġ nei4Ġ
cuo4Ġ shi1Ġ
Ġ 30
ĠĠĠ ming2Ġ
liang3 Ġming2Ġ
Ġxian4 Ġshi4Ġ
guo4Ġ du4Ġ
zhi1Ġ qian2Ġ
mi4Ġshu1Ġ zhang3Ġ
ĠĠĠ andĠĠĠ
kou3 Ġwei4Ġ
zu3 Ġjian4Ġ
wu2 Ġzheng4Ġzhuang4Ġ
tiao2 Ġli4Ġ
bao3Ġ liu2
W indow
zheng4 Ġbu4Ġ
shan1 Ġshi4Ġ
Ġyu3Ġ mao2
Ġxian4Ġ ren4Ġ
Ġbing4Ġ du2
c k
xi ng3Ġ
suo3Ġ chu4ĠdeĠ
Ġk ai3Ġ
Ġyi3Ġ ji2
xing1Ġ deng3Ġwei4Ġ
Ġgong1Ġ min2Ġ
fa1Ġ shou4Ġ
hei1Ġ se4Ġ
huang2 Ġhou4Ġ
xie3 Ġdao4Ġ
xiang1Ġ si4Ġ
Ġshi4Ġ yu2Ġ
tui4Ġ xiu1Ġ
Ġ sai1Ġ
zhang3 Ġyu2Ġ
tuan2 ĠdeĠ
Ġji1Ġ chang3
she4Ġ qu1Ġ
Ġbei3Ġ jing1Ġ
zao3Ġ qi1
w a2Ġ
Ġ zu3Ġfu4Ġ
lu3 Ġsi1Ġ
tiao2Ġ zheng3
Ġ hao4
jie1Ġ chu4Ġ
t uo4Ġ
chi2 Ġyou3Ġ
dou1 Ġzai4Ġ
or Ġ
la y
ji4Ġ cheng2Ġ
Ġyi1Ġ tong2Ġ
biao3Ġ da2Ġ
si3Ġ wang2
zheng3Ġ ti3Ġ
a st
zhu3Ġ jiao4
Ġtong2 Ġyi4Ġ
nv3Ġ xing4
kai1Ġshi3 Ġzai4Ġ
9 0Ġ
ni e4
Ġgong1Ġ ju4Ġ
feng1Ġ xian3Ġ
O S
zh ou2
deng1 Ġshang4Ġ
bao3Ġ shou3Ġ
jian3Ġ shao3
Ġg uo1Ġ
Ġ199 8Ġnian2Ġ
Ġ yong4Ġyu2Ġ
gong1Ġ cheng2Ġ
Ġming2Ġ dan1Ġ
xia4Ġxia2 ĠdeĠyi2Ġge4Ġ
p u4
duo1 Ġwei4Ġ
gu3 Ġdai4Ġ
sui2 Ġzhu4Ġ
zhen4Ġ qu1ĠdeĠ
pi1Ġ zhun3
4 3
t uo2Ġ
geng4 Ġwei2Ġ
gai3Ġ ming2Ġwei4Ġ
mou3Ġ xie1Ġ
que4Ġzhen3 Ġbing4Ġli4Ġ
Ġ sheng1Ġyu2Ġ
ch a4
lai2 Ġyue4Ġ
ni2 Ġer3Ġ
Ġzhi1Ġ fu4Ġ
tan2Ġ pan4Ġ
ĠdeĠcheng2Ġ ji4Ġ
Ġ194 9Ġnian2Ġ
i k
Ġ yan2
ĠĠĠ qi2Ġta1Ġ
zuo4 Ġshi4Ġ
ni ang2Ġ
jiao4Ġ tang2
neng2Ġ liang4Ġ
can1Ġjia1Ġ leĠ
Ġ zhuang1Ġ
Ġ ping2Ġjun1Ġ
Ġer2Ġ gai1Ġ
jiang4Ġ di1Ġ
bei3Ġjing1 Ġshi4Ġ
gou4Ġm ai3Ġ
Ġ zhao4
ĠĠĠ ji2Ġ
200 4Ġnian2Ġ
an1Ġ pai2
bo2Ġshi4Ġ xue2Ġwei4Ġ
yue4 Ġzhong1Ġ
200 1Ġnian2Ġ
ban3 ĠdeĠ
zu n1
i d
Ġji1Ġ hui4Ġ
Ġhou4Ġ zhe3Ġ
Ġqi2Ġ hou4
zhuang1 Ġbei4Ġ
Ġji1Ġ si1Ġ
nan2 ĠdeĠ
su an1
jie4Ġ shao4Ġ
Ġren2Ġmin2Ġ zheng4Ġfu3Ġ
Ġm eng4
en1Ġ sheng3Ġ
Ġs ang1Ġ
wu2Ġzheng4Ġzhuang4Ġ gan3Ġran3Ġ
n e4
Ġ hai3
shou4 ĠdeĠ
gui4Ġ zu2Ġ
Ġxiang3 Ġnian2Ġ
Ġhe2Ġ pan4Ġ
chang2Ġ wei3Ġ
she4Ġ shi1Ġ
Ġbi3Ġ ru2Ġ
s an3Ġ
huo2 Ġyue4Ġ
Ġyi1Ġ zuo4Ġ
chang2Ġ wu4Ġ
Ġ huo3Ġ
mi e4
qi ao3Ġ
ar Ġ
Ġxing2 Ġwei4Ġ
hu4Ġ lian2Ġ
zh en3Ġ
ling4 Ġren2Ġ
Ġbu4Ġ si1Ġ
an1Ġ na4
suo3Ġ you3ĠdeĠ
Ġh ong1
ke4 Ġcheng2Ġ
Ġsheng1Ġ huo2
Ġ qi1Ġjian1Ġ
shu4 Ġyu3Ġ
shou1 Ġji2Ġ
ding4Ġ ju1Ġ
long2 ĠdeĠ
Ġshi4Ġ xi1Ġ
Ġshi4Ġ min2Ġ
Ġbu4Ġ li4Ġ
lian2Ġ xu4
ru4Ġ xuan3Ġ
Ġmei3 Ġge4Ġ
5 Ġmi3Ġ
n u
ti2 Ġji2Ġ
Ġwei4Ġyu2Ġ zhong1Ġguo2Ġ
sai1Ġer3Ġ wei2Ġ
hui4 Ġzhong1Ġ
Ġli4Ġ fa3
fu4Ġ ze2
Ġbing4Ġ du2Ġ
yao1Ġ qing3
dan1 ĠdeĠ
Ġle Ġda4Ġ
ren4 Ġwei4Ġ
Ġji2Ġ ren2Ġ
Ġcheng2Ġ ren2Ġ
zu2Ġqiu2Ġ yun4Ġdong4Ġyuan2Ġ
Ġtong1Ġ chang2
kun4 Ġnan2Ġ
guan1Ġ cha2Ġ
ĠdeĠdi4Ġ er4Ġ
Ġ199 9Ġnian2Ġ
xie3 ĠdeĠ
xin4Ġ yang3Ġ
Ġtong2Ġshi2Ġ gai1Ġdi4Ġ
Ġzui4Ġ gao1Ġ
Ġer2Ġ ziĠ
bian1Ġ jie4Ġ
bei1 Ġsi1Ġ
zhui1Ġ su4
hui4 Ġzhi4Ġ
sheng3 ĠdeĠ
Ġzai4Ġ 197
Ġri4 Ġyu2Ġ
zui4Ġ gao1ĠdeĠ
Ġzhe4Ġ zhong3
yi2Ġ ding4
3 2Ġ
Ġ ban4Ġ
200 5Ġnian2Ġ
chu1Ġ shen1Ġ
shan1 Ġji1Ġ
jie3Ġ fang4Ġ
wan2Ġ zheng3
nei4Ġlu4Ġ sheng3Ġfen4Ġ
Ġdi4Ġ si4
Ġdong4 Ġli4Ġ
yi3Ġ jing1Ġ
qiang2Ġ lie4Ġ
ke1Ġxue2Ġ jia1Ġ
I I
z ong4
Ġxi1Ġ la4
fang1Ġ fa3
Ġde2Ġ zhu3Ġ
cai3Ġ qu3Ġ
zhu2 Ġbu4Ġ
al ĠĠĠ
m a1Ġ
Ġ tian1
tu2 Ġxing2Ġ
lu an3Ġ
Ġchu1Ġ kou3Ġ
ya4Ġ mei3Ġ
3 2
Ġ ju4
sui2 Ġji2Ġ
Ġyin1Ġ su4Ġ
s ang4Ġ
bei4 ĠdeĠ
shan1 ĠdeĠ
Ġke4 Ġxi1Ġ
Ġjian4Ġ zao4
Ġwei2Ġ er3
lian2Ġhe2Ġ hui4Ġ
xun1Ġ zhang1Ġ
5 7
chao1 Ġyue4Ġ
Ġzai4Ġ shi2Ġ
Ġji2Ġ di4Ġ
yin3Ġ fa1Ġ
liao2Ġ ning2Ġ
g h
Ġ Z
Ġ heng2Ġ
hai3 Ġping2Ġmian4Ġ
Ġxue2Ġ yuan4
wu3Ġ zhuang1
fan4Ġ zui4Ġ
gai4Ġ nian4
Ġ er4Ġshi2Ġ
Ġshi2Ġ qi1ĠdeĠ
Ġli4Ġ liang4Ġ
zi4Ġ ran2
zhu3Ġyao4 ĠdeĠ
xia4Ġling4 Ġshi2Ġjian1Ġ
h eng1Ġli4Ġ
san1Ġ jiao3
C O
guo4 ĠdeĠ
zhi3Ġ neng2Ġ
shu1 Ġzhong1Ġ
Ġhou4Ġ bei4Ġ
ĠĠĠ i
dang1 Ġnian2Ġ
xiang4Ġ zheng1Ġ
shan1Ġ qu1Ġ
6 6
ĠĠĠ 1Ġ
ti2 Ġyi4Ġ
dang1 Ġzhong1Ġ
xu4 Ġli4Ġya4Ġ
tai2Ġ nan2
jing4Ġnei4Ġ gong4Ġyou3Ġ
dong3Ġshi4Ġ zhang3Ġ
Ġ yao1Ġqiu2Ġ
ni2Ġya4 Ġzhou1Ġ
Ġ jiu4Ġshi4Ġ
ceng2 Ġwei4Ġ
Ġbu4Ġ shao3Ġ
duo1Ġ zhong3Ġ
ĠĠĠbei4Ġ jing3Ġ
Ġ xie2Ġ
Ġhe2Ġ yue1Ġ
Ġgong1Ġ zhong4Ġ
Ġyi1Ġ li4Ġ
zhi3Ġ dao3Ġ
zhang1Ġ zhuan1Ġji2Ġ
Ġyi3Ġ wei2Ġ
fei1Ġ chang2
ĠĠĠ200 6Ġnian2Ġ
Ġ na4
xian4 ĠdeĠ
Ġyi4Ġ qing2Ġ
Ġ jiu3
fu2 ĠdeĠ
qin1 Ġzi4Ġ
ying1Ġ ge2Ġlan2
Ġzui4 Ġchu1Ġ
shuang1Ġ fang1Ġ
g ou3Ġ
jia1 Ġyi4Ġ
bu2 Ġdao4Ġ
hui4Ġyi4Ġ yuan2Ġ
zi4 ĠdeĠ
Ġyuan2Ġ xing2Ġ
nan2Ġ bei3Ġ
guan1Ġ cha2
ĠĠĠdi4Ġfang1Ġ zi1Ġliao4Ġ
D TĠ
p en1Ġ
Ġ wan2Ġjia1Ġ
li3 Ġhe2Ġ
ping2 Ġwei4Ġ
shen1Ġ du4Ġ
Ġhu i3
Ġ ni3Ġ
lan2 ĠdeĠ
di1 Ġyu2Ġ
28 Ġ
A C
ĠĠĠ jian3Ġjie4Ġ
luo2 Ġli3Ġ
Ġta1Ġceng2 Ġdai4Ġbiao3Ġ
r ou2Ġ
er2 Ġtong2Ġ
Ġyu4 Ġji4Ġ
zhan3Ġ kai1
pai1 Ġshe4
shou1 Ġlu4Ġ
Ġcheng2Ġ zhen4Ġ
zhu4Ġ zhai2Ġ
dong4 Ġli4Ġ
shang1 Ġren2Ġ
di2 Ġshi4Ġ
Ġdi4Ġ li3Ġ
Ġyou3Ġ suo3Ġ
Ġxian4Ġ fa3Ġ
Ġdong1Ġ bei3Ġ
Ġ tian2Ġ
da4 Ġbu4Ġ
lai2 Ġyin1Ġ
tai2 Ġzhong1Ġ
Ġsi1Ġ ta3Ġ
Ġdong4 ĠdeĠ
Ġshi2Ġji4Ġ shang4Ġ
xue2Ġ hui4Ġ
di2 Ġren2Ġ
n u2
Ġyi3Ġ xi1Ġ
Ġ yue1
jiang1 Ġzai4Ġ
xuan3 Ġzhong1Ġ
Ġxi1Ġ jie1Ġ
Ġzhong1Ġguo2Ġren2Ġmin2Ġ jie3Ġfang4Ġjun1Ġ
ĠĠĠ 17
mei3 Ġzhou1
la1Ġ ding1
jia4Ġ shi3Ġ
Ġshi2Ġ xing2Ġ
suo3Ġ cai3Ġyong4
Ġyu4Ġ shi3Ġ
E R
Ġ shu3
ti2 Ġchu1ĠdeĠ
gan4 Ġbu4Ġ
shou1Ġ gou4Ġ
hai3Ġba2 Ġwei4Ġ
00 Ġmi3Ġ
al l
Ġdi4Ġ yi2Ġge4Ġ
tu1Ġ po4Ġ
Ġda4Ġxue2 ĠdeĠ
neng2 Ġyuan2Ġ
zhu3Ġ yan3Ġ
T V
biao1 Ġben3Ġ
Ġ liu4Ġ
la Ġ
zan4 Ġshi2Ġ
Ġdi4Ġ qi1Ġ
Ġli4Ġ yi4Ġ
yan2Ġ se4Ġ
ji1Ġ du1Ġ
ce4Ġ liang2Ġ
ĠdeĠshi4Ġ jie4Ġ
N B
deng3Ġ deng3Ġ
nong2Ġ min2Ġ
suo3 Ġzai4Ġdi4Ġ
que4 ĠdeĠ
Ġzhong1Ġ guo2ĠdeĠ
Ġsheng1Ġ ya2Ġ
zhu2 Ġjian4
Ġde2 Ġming2Ġ
shang1Ġ ye4
Ġh u3Ġ
Ġpu2Ġ tao2Ġ
d uo3
yi2 Ġdai4Ġ
shui3 Ġli4Ġ
gei3 ĠleĠ
chuan2Ġ bo1Ġ
a1Ġla1Ġ bo2
fa1Ġdong4 Ġji1Ġ
rong2 Ġhe2Ġ
Ġqi2 Ġwei4Ġ
tou2Ġ piao4
Ġ 25
Ġran2 Ġer2
wang2 Ġshi4Ġ
Ġm ou2
jiu4Ġ du2Ġ
5 3
zh uo2
shu ai4
jue2 Ġshi4Ġ
chang3Ġ suo3Ġ
tai4Ġ du4Ġ
Ġbei3Ġ jing1
7 8
Ġ xiang3Ġ
ĠdeĠ ying3Ġxiang3Ġ
jing1Ġ shen2
zi1Ġ ben3Ġ
zhuan3Ġ xiang4Ġ
mo4Ġxi1Ġ ge1
ban4Ġshi4Ġ chu4Ġ
kai1Ġ tong1Ġ
tao2Ġ tai4Ġ
jian1 Ġyu4Ġ
dian4 Ġji1Ġ
jiu4 Ġhui4Ġ
jing4 Ġji4Ġ
ping2Ġ tai2Ġ
xiao1Ġ fei4Ġ
shuai4Ġ ling3
ju3Ġban4 ĠdeĠ
Ġyi1Ġsi1Ġ lan2Ġ
5 6
zhong1Ġ yang1Ġ
Ġ xi4Ġ
ĠĠĠ qi2
pai4 Ġchu1Ġ
Ġyu3Ġ qi2Ġta1Ġ
ge2Ġ la1Ġ
qi1 Ġwei4Ġ
wen2 ĠdeĠ
gou4 ĠdeĠ
pei4 Ġzhi4Ġ
zhang3Ġ da2Ġ
jing4Ġ xuan3Ġ
Ġ shuo1Ġ
ch en4
qu1 Ġshi4Ġ
00 Ġren2Ġ
fu4Ġ zhu3Ġren4Ġ
diao4Ġ kuai4
hu i3
hua4 Ġzhong1Ġ
gong1Ġ gong4Ġ
Ġqi2Ġ xia4Ġ
shan1Ġ feng1Ġ
zu3Ġzhi1 ĠdeĠ
m an
Ġ ai1
cheng2 Ġhe2Ġ
26 Ġ
zhi2Ġye4Ġ sheng1Ġya2Ġ
Ġ wei1
ĠĠĠ w
shou3 Ġzhong1Ġ
Ġwei4Ġ UTCĠ
zi1Ġ liao4
Ġc nĠ
Ġqi2 Ġshi2Ġ
nan2Ġ jing1
zhe3 Ġshi4Ġ
Ġda4Ġ jiang3Ġ
bian1Ġ hao4Ġ
ti2Ġgong1Ġ leĠ
5 9
neng2 Ġzai4Ġ
liu4 Ġshi2Ġ
diao4Ġkuai4 Ġyi1Ġxiao3Ġshi2Ġ
Ġ dao3Ġ
jin1Ġ rong2Ġ
4 Ġge4Ġ
da2 Ġer3Ġ
Ġji2Ġ UTCĠ
gai3Ġ zao4Ġ
she4Ġyou3Ġ xia4Ġling4Ġshi2Ġjian1Ġ
ĠdeĠshi2Ġqu1Ġwei4Ġ UTCĠ
Ġer2Ġgai1Ġdi4Ġ suo3Ġcai3Ġyong4
Ġtong2Ġshi2Ġgai1Ġdi4Ġ she4Ġyou3Ġxia4Ġling4Ġshi2Ġjian1Ġ
Ġer2Ġgai1Ġdi4Ġsuo3Ġcai3Ġyong4 ĠdeĠshi2Ġqu1Ġwei4ĠUTCĠ
fa1Ġ qi3Ġ
zhi2Ġ min2Ġ
ta1Ġmen ĠdeĠ
qiu2 Ġji4Ġ
ba2 Ġ
fa1Ġ qi3
zhan3Ġ lan3Ġ
Ġ dian4Ġying3Ġ
you2 Ġji1Ġ
Ġgai1Ġ cun1Ġ
ke1Ġxue2Ġ yuan4Ġ
c an2
k u3Ġ
xia4 ĠleĠ
zuo4Ġ chu1Ġ
zhi1Ġ jian1ĠdeĠ
Ġ kong3Ġ
ma3 Ġke4Ġ
ti3 Ġzhi4Ġ
Ġbu4Ġ dui4
Ġzhong1Ġ shan1Ġ
Ġxi1Ġ lan2Ġ
Ġli4Ġshi3Ġ shang4Ġ
gao1Ġyu2Ġ hai3Ġping2Ġmian4Ġ
yuan2Ġ zhu4Ġ
Ġjian4 Ġshe4
Ġtong2Ġ yang4
ĠĠĠ jiao1Ġtong1Ġ
wu4 Ġshi4Ġ
hu4 Ġxiang1Ġ
Ġzh ai4Ġ
wan4Ġ mei3Ġyuan2Ġ
Ġling4 Ġyou3Ġ
u s
© Ġ
Ġ kang1Ġ
zh ou2Ġ
Ġgong1Ġ jue2Ġ
A N
ĠĠĠ gai1
bi4Ġ ye4Ġhou4Ġ
hai3Ġba2Ġwei4Ġ gao1Ġyu2Ġhai3Ġping2Ġmian4Ġ
ĠĠĠ dui4Ġ
lu4 Ġzhi4Ġ
Ġbu4Ġ ji2Ġ
Ġren2Ġ men
Ġxue2Ġ zhe3Ġ
suo3Ġchu4ĠdeĠ hai3Ġba2Ġwei4Ġgao1Ġyu2Ġhai3Ġping2Ġmian4Ġ
k u1Ġ
Ġ wa3Ġ
zhong4 Ġshi4Ġ
Ġm ang2Ġ
Ġc ui4Ġ
qiang2Ġ diao4Ġ
qi ao4Ġ
shi3 Ġjian4Ġyu2Ġ
wu4 Ġhe2Ġ
ping2 Ġyuan2Ġ
Ġshi2Ġ wu4Ġ
yun4Ġ shu1
cai3Ġ qu3
Ġjie2Ġ guo3
Ġer2Ġ tong2Ġ
dong1Ġ fang1Ġ
xing4Ġ bie2Ġ
Ġsheng1Ġ chan3
xiao4Ġ qu1Ġ
r en3Ġ
ren4 ĠdeĠ
zhu4 Ġyou3Ġ
xing4 Ġwei4Ġ
Ġxian4 Ġyu2Ġ
dian4Ġ che1Ġ
dian4Ġ qi4Ġ
fa1 Ġxian4ĠdeĠ
ke3 Ġzai4Ġ
Ġzhi1 Ġyi4Ġ
Ġyuan2Ġ ben3
Ġji1Ġ jin1Ġhui4Ġ
shou3Ġ xiang4Ġ
ĠĠĠ19 0
zhi2Ġmin2 Ġdi4Ġ
ge2 Ġshi4Ġ
er4 Ġji2Ġ
.. .
n d
w eng1Ġ
Ġ mei2
ĠĠĠ qing1Ġ
nei4 Ġdi4Ġ
luo4 Ġcheng2Ġ
Ġwei2Ġ chi2
b Ġ
k e2Ġ
deng3 Ġji2Ġ
shi2Ġ qu1Ġ
xiu1Ġ gai3Ġ
e p
z Ġ
ĠĠĠ 2Ġ
tu1 Ġran2Ġ
Ġyi1Ġ jia1Ġ
quan2 Ġqiu2
Ġli4Ġ ren4Ġ
te4Ġ ding4Ġ
Ġm i2
Ġwei4Ġyu2Ġ gai1Ġ
ĠĠĠ ran2
hou4 Ġwei4Ġ
Ġ tu3Ġ
Ġbu4Ġ jin3Ġ
Ġdi4Ġ qiu2
l an4Ġ
ĠĠĠ ben3
ĠĠĠ ma3Ġ
hun1 Ġyin1Ġ
ig h
bao1 Ġwei2Ġ
Ġ pa4
Ġzai4Ġ 196
wei2Ġ si1Ġ
Ġ199 7Ġnian2Ġ
Ġsui2 Ġzhu4Ġ
k ui4Ġ
xue2 Ġyuan2Ġ
zhen4Ġqu1ĠdeĠ mian4Ġji1Ġwei4Ġ
xia2Ġ qu1Ġ
Ġ ying2Ġ
ao4 Ġzhou1Ġ
shang4 Ġxian4Ġ
l an
Ġ ying1
Ġ zhuan3
ĠĠĠ f
ĠĠĠ yin1Ġ
fu1Ġ ka3Ġ
6 9
Ġzhi4Ġ liang4Ġ
Ġle ng3
fan3Ġ hui2
1 Ġge4Ġ
Ġ wan2Ġ
bo1 Ġsi1Ġ
Ġzhou1Ġ ci4Ġshi3Ġ
xin4Ġ yang3
jiao4Ġyu4 Ġbu4Ġ
d an3Ġ
i ch
er4 Ġren2Ġ
ju2 ĠdeĠ
yan2Ġ hai3Ġ
jing4Ġ zheng1Ġ
xuan1Ġ chuan2
Ġxing2Ġzheng4Ġ qu1Ġ
jin4 Ġbu4Ġ
ĠdeĠ xi1Ġ
Ġli3Ġ ya4Ġ
Ġdui4Ġ shou3Ġ
ru2Ġ guo3Ġ
Ġ mian4Ġ
Ġta1 Ġyi3Ġ
Ġyuan2Ġ zi4Ġ
Ġli3Ġ xi1Ġ
Ġ Y
jia1 Ġyi3Ġ
jian4 Ġcheng2Ġ
dui4 Ġqi2Ġ
liang3 Ġwei4Ġ
ping2Ġ lun4
ĠdeĠbu4Ġ fen4Ġ
zui4 Ġchu1
ci4 Ġyu2Ġ
bian1 Ġyuan2Ġ
liang3Ġ ci4Ġ
ling4Ġ yi2Ġge4Ġ
am Ġ
b aĠ
ji4 Ġyou3Ġ
mian4 Ġshang4Ġ
Ġwei2Ġ si1Ġ
cai2Ġ neng2Ġ
Ġ cha2
hai3Ġ yang2Ġ
chang2Ġ du4Ġ
zao4Ġ cheng2ĠdeĠ
ĠĠĠ 4
Ġyi1Ġ ju4Ġ
Ġzi4Ġ ran2Ġ
7 9
Ġ 9Ġ
Ġ pa4Ġ
re Ġ
Ġm ang2
tian2Ġ jing4Ġ
T ub
shi1 Ġgong1Ġ
chu i1Ġ
liang3 Ġguo2Ġ
suo3 Ġwei4Ġ
Ġwei4Ġ dui4Ġ
dang1Ġ di4ĠdeĠ
Ġ199 4Ġnian2Ġ
I S
qi3 Ġdong4Ġ
jun4 Ġgong1Ġ
fen4Ġ zi3
a1Ġla1Ġ bo2Ġ
xiao4Ġli4Ġ yu2Ġ
ĠdeĠ xing2Ġ
guo2Ġ jia1
Ġji2Ġ da4Ġ
A P
Ġ cha2Ġ
an1 Ġshi4Ġ
ka3Ġ luo2Ġ
zhan4 Ġshi2Ġ
pei4 Ġyin1Ġ
chong2Ġ qing4
Ġ199 2Ġnian2Ġ
wei3Ġyuan2Ġhui4Ġ wei3Ġyuan2Ġ
Ġ 12Ġ
na2 Ġxia4Ġ
xia4Ġ jiang4Ġ
Ġer3Ġ duo1Ġ
ti3Ġyu4Ġ chang3Ġ
r ao4
xin1 Ġcheng2Ġ
ban4 ĠdeĠ
Ġyu2Ġ le4
Ġyi4Ġ yu2Ġ
xiang1Ġ guan1ĠdeĠ
Ġjie2 Ġke4Ġ
3 1Ġ
m ian2Ġ
Ġ 2Ġyue4Ġ
xia4Ġ lai2Ġ
Ġdang1Ġ shi2ĠdeĠ
que1Ġ fa2
zai1Ġ pei2Ġ
ai4Ġer3Ġ lan2Ġ
gou4Ġm ai3
Ġwei4Ġ da4Ġ
Ġdi4Ġ liu4Ġ
Ġqi2 ĠdeĠ
jie1Ġ duan4
shu1Ġ yuan4Ġ
Ġ reng2
xi1 Ġhe2Ġ
jiao4 Ġda4Ġ
xun2 Ġzhao3Ġ
dian3 Ġshi4Ġ
Ġshi2Ġ duan4Ġ
yi4Ġ shu4Ġ
Ġsi1Ġ ke4
dong1Ġ bei3
gao1Ġ xiong2
Ġma3Ġ lai2
di ao1
zhe4 Ġshi4Ġ
s ang1
ping2 ĠdeĠ
Ġ luo2
san1 Ġming2Ġ
zhi2Ġ zheng4Ġ
jiang4Ġ ling3Ġ
ĠĠĠ200 5Ġnian2Ġ
ĠĠĠ nan2Ġ
ĠĠĠ sheng4Ġ
Ġzhi4Ġ zuo4ĠdeĠ
8 8
zhao4Ġ kai1
ĠĠĠ jin3Ġ
da4Ġ lu4
Ġnian2 ĠĠĠ
tian1Ġ ti3Ġ
Ġju4Ġ li2
Ġ199 6Ġnian2Ġ
fu4 Ġhe2Ġ
geng1 Ġxin1Ġ
Ġt i4Ġ
xi1 Ġdi4Ġ
fa1 Ġshe4
hui4Ġ zhang3Ġ
Ġji1Ġ chu3
zhu3Ġ zhang1Ġ
Ġk ai3
bo1 Ġshi4Ġ
27 Ġ
ti v
xing4 Ġhe2Ġ
zhen4 ĠdeĠ
Ġyi3Ġ wai4Ġ
qi4Ġ che1
ting2Ġ che1Ġ
chuan2Ġtong3 ĠdeĠ
p ao3Ġ
li3 Ġcheng2Ġ
c ai4
fu2 Ġli4Ġ
la1 Ġji1Ġ
te4Ġ xing4Ġ
Ġqi2Ġzhong1Ġ bao1Ġkuo4Ġ
fa1Ġsheng1 Ġzai4Ġ
zu2Ġqiu2 Ġju4Ġle4Ġbu4Ġ
Ġdi4Ġ dian3Ġ
Ġda4Ġ lou2
lian2Ġ jie1
cun1Ġ luo4Ġ
ĠĠĠdi4Ġ er4Ġ
Ġguo2Ġwu4Ġ yuan4Ġ
u Ġ
ch en4Ġ
shi1 Ġren2Ġ
tuan2Ġ ti3
Ġbu4Ġbu4Ġ zhang3Ġ
lian2 ĠdeĠ
bei4Ġ jing3Ġ
q u2Ġ
Ġ cheng1
bing4 Ġbu4Ġ
qi3 Ġyuan2Ġ
Ġzhi4Ġ zao4
Ġzhi4Ġ di4Ġ
Ġfu4Ġ jin4
Ġyou2 Ġji1Ġ
ju1Ġ zhu4Ġzai4Ġ
Ġ zheng4Ġzhi4Ġ
shu4 Ġshi2Ġ
kai1 Ġshe4Ġ
hao4 Ġxian4
zheng4Ġ ju4Ġ
dui4Ġ zhang3Ġ
dian4Ġshi4Ġ tai2
zhu an4ĠdeĠ
nei4 Ġzhan4Ġ
wei3 Ġfu4Ġ
Ġde2 Ġsi1Ġ
jie2Ġ du4Ġ
jiao1Ġ liu2
el l
Ġ yong4
Ġshi4Ġ de2Ġguo2Ġ
Ġbu4Ġ bing1Ġ
Ġyu2Ġ202 1Ġnian2Ġ
quan2 Ġxian4Ġ
jian1Ġ du1Ġ
Ġbing4Ġ you2Ġ
ao4Ġ men2
z ai1
dou1 Ġbei4Ġ
o t
Ġ rong2Ġ
Ġ feng4Ġ
chai1Ġ chu2Ġ
Ġ tao2Ġ
Ġ lu3Ġ
fu1 ĠdeĠ
lang2 Ġzhong1Ġ
Ġhe2Ġ dao4Ġ
Ġzhou1Ġ fu3Ġ
Ġyu2Ġ201 5Ġnian2Ġ
wu2Ġzheng4Ġzhuang4Ġgan3Ġran3Ġ zhe3Ġ
Ġ dan1
bai3 Ġnian2Ġ
dian4Ġ nao3
Ġzuo4Ġ chu1Ġ
luo4Ġ fa2
man3Ġ zu2Ġ
zhao3 Ġdao4Ġ
You Tub
Ġshi4Ġ gong1Ġ
Ġshi4Ġ yi1Ġbu4Ġ
wei2Ġ er3Ġ
Ġyu3Ġ yi1Ġ
Ġxing2Ġ mu4Ġ
zhuan1Ġ ye4
Ġ 11Ġ
Ġdi4Ġ dai4Ġ
Ġcheng2Ġ ke4Ġ
shi3Ġ shang4Ġ
zi4Ġ mu3Ġ
bo1Ġ li2Ġ
fei4Ġ chu2Ġ
Ġ199 3Ġnian2Ġ
si4 ĠdeĠ
Ġli3Ġ ke4Ġ
jiu4 Ġyuan2Ġ
Ġzai4Ġ he2Ġ
bang4 Ġqiu2Ġ
mu3 ĠdeĠ
Ġwei4Ġyu2Ġ mei3Ġguo2Ġ
mian3Ġ fei4Ġ
Ġ tang2
Ġyi1Ġ yuan4
Ġde2 Ġzhi1Ġ
ling2Ġ chen2Ġ
zong1Ġ jiao4
s a1Ġ
Ġ 24
Ġ nuo4Ġ
jia3 Ġdi4Ġ
dong1Ġ jing1
Ġyu2Ġ201 2Ġnian2Ġ
zong1 Ġyi4Ġ
qi1Ġ zi3
shan1Ġ mai4Ġ
hou4 Ġyi4Ġ
qi1 Ġshi2Ġ
Ġchu1 Ġdao4Ġ
ou3Ġ xiang4Ġ
ĠĠĠ ge4Ġren2Ġ
zong3 Ġren2Ġkou3Ġ
zuo4Ġ wei2
hen3Ġ kuai4Ġ
3 3Ġ
gu3 Ġli4Ġ
kao3 Ġshi4Ġ
yin4Ġ ni2Ġ
bi4Ġ mian3
su1Ġ ge2Ġlan2Ġ
zhu3Ġyi4Ġ zhe3Ġ
Ġsi1Ġling4 Ġbu4Ġ
f Ġ
Ġ an1
guan1 Ġjian4Ġ
liang4 Ġwei4Ġ
jian1Ġ ren4Ġ
Ġzuo4Ġ zhan4Ġ
Ġyu2Ġ201 8Ġnian2Ġ
ch ou3Ġ
wu3 Ġshi4Ġ
na4 ĠdeĠ
a te
Ġ 20Ġ
ch ai2Ġ
Ġji4Ġ nian4
Ġ194 5Ġnian2Ġ
chuang4Ġ zao4
c uo4
ti e1
du4 Ġhe2Ġ
Ġxian4 Ġyi3Ġ
7 7
guo2 Ġshi4Ġ
Ġzui4 Ġjia1Ġ
s eng1Ġ
Ġ yun2Ġ
yu2 Ġhe2Ġ
shi3 Ġren2Ġ
ze2 Ġzai4Ġ
tian1 Ġhou4Ġ
ar k
Ġwei4Ġfu2Ġqi2Ġyu2Ġ gang1Ġ
Ġ xian1
che1 Ġdui4Ġ
Ġdi4Ġ fang1
Ġ lv3Ġ
mai4 Ġke4Ġ
wa3 Ġer3Ġsheng3Ġ
Ġer3 Ġshi4Ġ
pai4Ġ qian3Ġ
C h
Ġ yi2
guan3Ġli3Ġ ju2Ġ
Ġming2 Ġzhi4Ġ
5 4
hu4 Ġbu4Ġ
hui2 Ġyi4Ġ
Ġgong1Ġ li3ĠdeĠ
Ġshi2Ġyan4 Ġshi4Ġ
zou3 Ġxiang4Ġ
Ġda4Ġ gong1Ġ
shao4Ġ nv3Ġ
ji1 Ġzai4Ġ
guo2Ġ wu4Ġ
guang3Ġ chang3
wang4Ġ yuan3Ġ
Ġyu2Ġ201 4Ġnian2Ġ
guan3 Ġzhi4Ġ
Ġdi4Ġ tie3
D ĠĠĠ
I C
Ġ lian2Ġhe2Ġ
Ġ za2Ġzhi4Ġ
di4 Ġhe2Ġ
xiu1 Ġdao4Ġ
xian3 Ġzhu4Ġ
Ġxian4 Ġcheng2Ġ
jing1Ġ dian3Ġ
Ġer2Ġ fei1Ġ
yun4Ġ yong4Ġ
gu a4
yan2 Ġren2Ġ
si Ġ
fu4Ġ jin4
guan1Ġ fang1
l uan2
z ei2
Ġwei4Ġ yuan2Ġ
Ġji2Ġ shi3Ġ
Ġju4Ġ jue2Ġ
Ġ e4Ġ
Ġ xu2Ġ
ao4 Ġer3Ġ
xie3 Ġzuo4Ġ
ji1Ġ gou4Ġ
che1Ġ xiang1Ġ
jiao3Ġ du4Ġ
il l
b i2Ġ
s u2
Ġ xie4
ĠĠĠ ren2Ġ
zhu a1Ġ
Ġdi4Ġ tu2Ġ
Ġ 23
Ġ zheng1Ġ
bi4 ĠdeĠ
202 5Ġnian2Ġ
zuo3 Ġyi4Ġ
i m
Ġ xie4Ġ
yan2 ĠdeĠ
Ġshi2Ġ xian4
Ġyu2Ġ 193
chao1Ġ guo4
bi an3
shang4 Ġbu4Ġ
Ġyi4Ġ jian4Ġ
Ġji1Ġ hu1
tai4Ġ kong1Ġ
yuan4 Ġyi4Ġ
Ġyue4Ġ dui4Ġ
Ġjun1Ġ qu1Ġ
Ġ yi2Ġge4
ĠĠĠ dang1Ġ
xiang1 Ġshi4Ġ
ge2Ġ li2Ġ
S ta
Ġ yi4Ġshi4Ġ
9 5
Ġ xian2Ġ
zu3 ĠdeĠ
fang4 Ġzai4Ġ
Ġcheng2Ġ ben3Ġ
Ġzheng4Ġ ming2Ġ
luo4Ġ shan1Ġji1Ġ
wai4Ġjiao1 Ġbu4Ġ
dao3 Ġshang4Ġ
shan1 Ġxian4Ġ
ti2 Ġchu1ĠleĠ
Ġke4 Ġer3Ġ
Ġc ao1Ġ
a tĠĠĠ
an4 Ġshi4Ġ
ci3 Ġtong2Ġshi2Ġ
ka3 Ġsi1Ġ
xin1Ġjia1Ġ po1
7 6
jiu3 ĠdeĠ
Ġyou3Ġ xie1
ci2Ġ zhi2Ġ
Ġwo3Ġ men
n i4
p u4Ġ
t oĠĠĠ
ĠĠĠ si1Ġ
ĠĠĠ zheng4Ġ
Ġzhi1 Ġshi4Ġ
gai3Ġ shan4Ġ
Ġ ge1
Ġ neng2Ġ
ceng2 ĠdeĠ
jing3Ġ gao4Ġ
Ġyu2Ġ201 7Ġnian2Ġ
yan2 Ġzhi4Ġ
Ġxi1Ġ er3Ġ
jin3 Ġyou3Ġ
th Ġ
cai3Ġ fang3
can1Ġ xuan3Ġ
Ġfu2 Ġjian4Ġ
e2Ġluo2Ġ si1ĠdeĠ
Ġ bao3
Ġ ba3
Ġ ku4Ġ
bei4Ġ cheng1Ġwei2Ġ
Ġde2Ġ la1Ġ
zheng4Ġfu3 ĠdeĠ
mo4Ġsi1Ġ ke1Ġ
Ġ xun2Ġ
Ġ zhao1Ġhe2Ġ
shou3Ġ du1
qin1Ġ wang2Ġ
huan4Ġ zhe3Ġ
Ġshan1Ġ dong1Ġ
g ao3
Ġ liu4
kou3 ĠdeĠ
Ġwei4Ġ zai4Ġ
Ġzai4Ġ 194
zhang3Ġ guan1Ġ
kong1Ġ jian1
mu4 ĠdeĠ
ti3 Ġyu4
zheng1 Ġyue4Ġ
chu4Ġ zhang3Ġ
shuang1Ġ da3Ġ
Ġ199 5Ġnian2Ġ
v i
qiang2 Ġzhi4Ġ
Ġyin1 Ġshi4Ġ
chuang4Ġ zuo4ĠdeĠ
Ġyu2Ġ202 2Ġnian2Ġ
Ġ sha1
Ġ jia3
ying3 Ġshi4Ġ
18 8
Ġ 29
xue2 Ġzhong1Ġ
fu4 Ġshi4Ġ
xiu1 Ġfu4Ġ
Ġge4 Ġguo2Ġ
a1Ġ gen1Ġ
chong1Ġ tu1
00Ġ mi3
Ġluo2Ġ ma3Ġ
shan1 Ġdi4Ġ
ci2 ĠdeĠ
Ġ ba3Ġ
si1 Ġshi4Ġ
Ġxian4 Ġji2Ġ
Ġying1Ġ wen2Ġ
9 8
zhao4Ġ pian1Ġ
ĠĠĠC h
ma3Ġlai2 Ġxi1Ġya4
she4 Ġbei4Ġ
ĠĠĠ gu4Ġshi4Ġ
kai1 Ġgong1Ġ
sheng4 Ġchu1Ġ
guan4 Ġjun1
Ġsi1Ġ ma3Ġ
bo2Ġ lin2Ġ
Ġ xu1Ġ
ĠĠĠ chu1Ġ
Ġcheng2Ġ xian4
fa1Ġ sheng1ĠdeĠ
Ġdan4Ġ bai2Ġ
pu3Ġ bian4
Ġyu2Ġ201 3Ġnian2Ġ
yong4 ĠleĠ
bu4ĠdeĠ cun1Ġzhuang1Ġ
Ġhe2Ġ liu2Ġ
jia1Ġ ting2Ġ
Ġ 00
xia4 Ġzai4Ġ
qian1Ġ shu3Ġ
Ġ198 5Ġnian2Ġ
Ġ kao3Ġ
dong4 Ġzuo4Ġ
Ġyu2Ġ 2019Ġnian2Ġ
li3Ġ lun4
Ġ tie3Ġ
su1 Ġwei2Ġ
jiang4 Ġyu3Ġ
Ġyue4Ġ lai2Ġyue4Ġ
gu3Ġ lao3
xiao3Ġxing2Ġ xing1
t i1
guan3 ĠdeĠ
Ġyu2Ġ 2020Ġnian2Ġ
Ġyu2Ġ 2016Ġnian2Ġ
Ġgong1Ġ ying4Ġ
qiang2Ġ du4Ġ
jia1 Ġzai4Ġ
Ġren2Ġ da4Ġ
Ġzhi1 Ġdi4Ġ
Ġzhi1 Ġjia1Ġ
yun3 Ġshi2Ġ
qiang2 ĠdeĠ
Ġshi2Ġ hou4Ġ
yue4Ġ nan2Ġ
Ġke4 Ġhe2Ġ
Ġjian4Ġ kang1Ġ
fei1 Ġxing2
ting2Ġ kao4Ġ
Ġ202 5Ġnian2Ġ
3 8Ġ
z eng4
tong1 Ġzhi1Ġ
chuang4 Ġjian4Ġ
Ġji4Ġ yi4Ġ
Ġ199 0Ġnian2Ġ
Ġlei3 Ġji4Ġ
ĠĠĠzeng1Ġ zu3Ġ
Ġ Q
shi4 ĠĠĠ
san1 Ġda4Ġ
Ġfu4Ġ jin4ĠdeĠ
ĠĠĠ ba1Ġ
zao3 Ġshang4Ġ
Ġbu4Ġ man3Ġ
wo3Ġ men
Ġfu4Ġze2Ġ guan3Ġxia2Ġ
po4Ġhu ai4
lie4Ġ ru4Ġ
xuan3Ġju3 Ġzhong1Ġ
ĠĠĠyi3Ġ xia4
Ġyi1Ġ zhi2Ġ
zhi3Ġ kong4Ġ
Ġp ai1
di1Ġ qi4Ġ
ĠĠĠ wei2Ġ
duo1 Ġming2Ġ
jing1Ġ guo4
Ġm a2Ġ
shen2Ġ me
Ġ lai2
Ġge4Ġ zhong3
zhu3Ġ ti2
sen1Ġ lin2
guang3 Ġzhou1
Ġjun1 Ġdi4Ġ
tong2Ġ xing4Ġ
qu3Ġ xiao1
yin2Ġ pai2Ġ
ĠB Ġ
shang4 ĠleĠ
la1 Ġde2Ġ
Ġ wan4Ġli4Ġ
la1 ĠdeĠ
bian1 Ġwei4Ġ
Ġwei4Ġ neng2
Ġji1Ġ chu3Ġ
gu3Ġ la1Ġ
Ġzhu3Ġ yan3Ġ
3 6Ġ
dun4 ĠdeĠ
ming2Ġ dan1Ġ
zhan4Ġ tai2Ġ
Ġer2Ġgai1Ġ di4ĠdeĠ
Ġ gen1Ġ
Ġ fa1Ġxian4Ġ
shu1 Ġchu1Ġ
bi4Ġ mian3Ġ
B S
Ġ shen2
qian2 Ġhou4Ġ
lan2 Ġxi1Ġ
mo4 Ġer3Ġ
zhi4Ġ 199
tian1Ġ ran2Ġ
hui2Ġ gui1Ġ
o ng
shi2 Ġhe2Ġ
bo2Ġ jue2Ġ
Ġ199 1Ġnian2Ġ
zao3Ġ qi1ĠdeĠ
Ġ chuan1Ġ
shou1 Ġdao4Ġ
Ġjia1Ġ la1Ġ
Ġdui4Ġ ci3Ġ
jing4Ġ nei4
mei3Ġ yuan2ĠdeĠ
kong1Ġ qi4Ġ
min2Ġzhu3Ġ dang3
n u4Ġ
san1 Ġren2Ġ
ban4 Ġnian2Ġ
Ġyi3Ġ qian2Ġ
Ġjia1Ġ ting2
Ġke4 Ġli4Ġ
Ġwei2Ġ zhi3Ġ
Ġt eng2
shan1Ġdong1Ġ sheng3Ġ
Ġyi3Ġse4Ġ lie4Ġ
dui4 Ġyuan2Ġ
200 2Ġnian2Ġ
bao3 ĠdeĠ
ma3Ġ la1Ġ
Ġ ding4Ġ
zhi1 Ġshi2Ġ
te4 Ġli4Ġ
duo1 Ġge4
san1 Ġge4
guo2Ġ wang2Ġ
xing1Ġ qi1
fang2Ġ wu1Ġ
5 ĠĠĠ
lian2Ġ ren4Ġ
s ao3Ġ
Ġhe2Ġ gu3Ġ
Ġxian4Ġ shang4Ġ
xiang1Ġ bi3Ġ
Ġchu1Ġ yan3Ġ
cai2Ġ liao4
huang2Ġ se4Ġ
p p
Ġ ì
qiu2 Ġhui4Ġ
Ġp an1Ġ
Ġ jue2Ġding4Ġ
zh a2Ġ
tu2 ĠdeĠ
sheng1Ġ ya2
ĠĠĠgai4Ġ yao4Ġ
200 3Ġnian2Ġ
liao3Ġ jie3Ġ
feng1 Ġfu4Ġ
zhan4Ġ ling3
Ġwei2Ġ rao4Ġ
7 4
ĠĠĠ fu4Ġ
fen1 ĠdeĠ
Ġji4Ġ zai3
bei3Ġ fang1Ġ
pu3Ġ cha2Ġ
Ġyu2Ġ202 3Ġnian2Ġ
fen1 Ġcheng2Ġ
ta3 Ġer3Ġ
ĠdeĠ ju4Ġ
Ġshi2Ġ bao4Ġ
shou4Ġ quan2Ġ
wan2Ġ zheng3Ġ
i sĠĠĠ
s s
pi ao1Ġ
Ġbei4Ġ er3
te4Ġ la1Ġ
qing1Ġ shao4Ġnian2Ġ
ling3Ġ dao3ĠdeĠ
Ġ195 0Ġnian2Ġ
Ġ bing1Ġ
wang3 Ġshang4Ġ
shou3Ġ bo1Ġ
qi4Ġ xuan2Ġ
Ġ198 8Ġnian2Ġ
b u
t un2
Ġ qin1Ġ
te4 Ġer3Ġ
wu1 Ġsi1Ġ
hao3 Ġping2Ġ
Ġzai4Ġ xin1Ġ
Ġgong1Ġ neng2
jie1Ġ ren4Ġ
chang3Ġ bi3Ġsai4Ġ
fang4Ġ qi4
Ġs ec
Ġ15 Ġ
zan4 Ġzhu4Ġ
Ġbu4Ġ shao3
Ġyu3Ġ qi2Ġ
Ġjin4Ġ zhi3Ġ
yan2Ġjiu1 Ġsheng1Ġ
Ġ tai4
xiang1Ġ tong2ĠdeĠ
te4Ġ zheng1
ya4Ġ mu4Ġ
Ġt i1Ġ
lv4Ġ se4Ġ
e ar
te4 Ġyou3Ġ
duo1Ġ ci4
ĠĠĠ 16
gu n3Ġ
Ġxing2 Ġbu4Ġ
fu4Ġ jin4ĠdeĠ
Ġping2Ġ lun4Ġ
Ġzhe4Ġ yang4Ġ
2Ġ mi3Ġ
qing1Ġ chao2Ġ
ĠĠĠ de
di an1
xin1 Ġshi4Ġ
wen2 Ġzhong1Ġ
da2 Ġzhou1Ġ
Ġyi1Ġ liao2Ġ
gai3Ġ zhi4Ġwei4Ġ
can1Ġ shu4Ġ
5 00Ġ
o d
Ġ jue2Ġ
shi1Ġ qu4Ġ
xing2Ġ tai4Ġ
ĠĠĠdi4Ġ yi1Ġ
9 6
o k
tong2 Ġming2Ġ
gang3 Ġyuan2Ġ
zhang3Ġ zi3Ġ
B C
Ġ shou3
he2 Ġzai4Ġ
la1 Ġhe2Ġ
an1Ġ zhuang1Ġ
she4Ġ hui4
fei4Ġ yan2Ġ
Ġzhong1Ġ jian1Ġ
bao3Ġ luo2Ġ
can1Ġ ting1Ġ
rui4Ġ dian3Ġ
Ġzai4Ġyi4Ġ qi3Ġ
Ġ fa3
ĠĠĠ 10
wu3 Ġge4Ġ
shen1 Ġshi4Ġ
fang1Ġ mi3Ġ
fen1Ġ pei4Ġ
shen1Ġ qing3
Ġ hu4Ġ
fu2 Ġli3Ġ
mi4 ĠdeĠ
cun2 ĠdeĠ
Ġsi1Ġ ke1Ġ
fei4Ġ yong4Ġ
zan4Ġ ting2Ġ
si4 Ġshi4Ġ
qing2 ĠdeĠ
da4Ġ qu1Ġ
xing4Ġ neng2Ġ
sheng3Ġ jie1Ġrang3Ġ
Ġ re
cong2 Ġwei4Ġ
xu4 Ġli4Ġya4
zhi2Ġ sheng1Ġ
Ġzh en3Ġ
qi ao3
san1 Ġji2Ġ
zhe3 Ġhe2Ġ
jian4Ġ zhu4
xiao1Ġ shi1Ġ
Ġshe4Ġhui4Ġ zhu3Ġyi4Ġ
Ġ xuan3Ġ
Ġ guang3Ġdong1Ġ
ying3Ġ xiang4Ġ
gu4Ġ ding4Ġ
wu2Ġxian4Ġ dian4Ġshi4Ġ
W Ġ
you2 Ġxing2Ġ
Ġxian4 Ġyou3Ġ
jing4Ġ zheng1
Ġt an1Ġ
xiao1Ġ liang4Ġ
7Ġyue4Ġ 1Ġri4Ġ
Ġfen1Ġ bie2Ġ
Ġgong1Ġ gong4
m a2
Ġ xian1Ġhou4Ġ
ma3 Ġke4Ġsi1Ġ
Ġquan2Ġ zhang3Ġ
deng3 ĠdeĠ
zhe3 Ġhui4Ġ
tai4 ĠdeĠ
hu1 Ġyu4Ġ
hai3Ġ an4
Ġwu2Ġ fa3Ġ
m ai3Ġ
hui2 Ġguo2Ġ
Ġshi4Ġyi1Ġ ke1Ġ
Ġmai4 Ġke4Ġ
t ong4
Ġ e2Ġ
Ġ po4Ġ
ĠĠĠ jin1Ġ
wang2 Ġwei4Ġ
Ġgong1Ġ qing3Ġ
xin1Ġ wen2
te4Ġ dian3Ġ
wu1Ġ ran3Ġ
tui1Ġ guang3Ġ
hong1 Ġzha4
e x
zhi3 ĠdeĠ
ying4 Ġji2Ġ
Ġshi4Ġ you2
Ġzhi4Ġ yi2Ġ
Ġji2Ġ hou4Ġ
ji4Ġ suan4
lian2Ġ jie2Ġ
suo3Ġ shu3
fu2Ġ luo2Ġli3Ġ
jiang1 Ġta1Ġ
Ġli4Ġ shi2Ġ
Ġbei4Ġ po4Ġ
Ġguo2Ġjia1Ġ dui4Ġ
Ġ18 5
Ġf ou3Ġ
tie3Ġlu4Ġ che1Ġzhan4Ġ
ch Ġ
li3 Ġbu4Ġ
luo4 Ġsi1Ġ
Ġjia1Ġ zu2
Ġn ai3
Ġ yao2Ġ
Ġzai4Ġ ta1ĠdeĠ
Ġshe4 Ġyu2Ġ
guan1Ġ ce4Ġ
zhuan3Ġ yi2
geng4Ġ duo1ĠdeĠ
w en3
w ar
Ġta1Ġ ceng2Ġ
gao1Ġ da2Ġ
Ġjiang1Ġ su1Ġ
8 5
Ġ Ï
Ġ bai2
Ġ shen3Ġ
ji2 Ġbu4Ġ
quan2 Ġshi4Ġ
lei4 Ġxing2ĠdeĠ
Ġdi4Ġ zhi4Ġ
che1Ġ liang4
yin3Ġ ru4Ġ
xie2Ġ ding4Ġ
nong2Ġ cun1Ġ
Ġk en3Ġ
Ġ xu3Ġduo1
ĠdeĠ zhu3Ġyao4Ġ
wei2Ġ zhu3Ġ
Ġshi4Ġzhong1Ġ hua2Ġren2Ġmin2Ġgong4Ġhe2Ġguo2Ġ
ying3Ġxiang3 Ġli4Ġ
3 7Ġ
an4 Ġzhong1Ġ
chong1 Ġji1Ġ
Ġnian2Ġ ling2Ġ
Ġzi4Ġ you2
Ġwei1Ġ lian2Ġ
Ġ 28
xi a1Ġ
zui4 Ġwei4Ġ
Ġchu1Ġ fa1Ġ
wen2Ġ hua4ĠdeĠ
Ġzui4 Ġda4Ġ
bang1Ġ zhu4
kuo4Ġ zhan3
Ġ li
Ġ yong3
si4 Ġda4Ġ
zi Ġhe2Ġ
zong3 Ġhui4Ġ
jing1Ġ ji4
fang1Ġ xiang4
Ġtong2Ġ yang4Ġ
Ġshi4Ġjie4Ġ bei1Ġ
Ġ198 9Ġnian2Ġ
ĠĠĠjia1Ġ ting2Ġ
g a1Ġ
n u2Ġ
p u1Ġ
Ġ X
Ġ song4
Ġyi1Ġ ren2Ġ
zhi2Ġ ye4
Ġnan2Ġ ziĠ
Ġzhi3 Ġzai4Ġ
n i1
na4 Ġde2Ġ
ĠdeĠ hua4Ġ
Ġdi4Ġ zhen4Ġ
mei3Ġguo2Ġ ren2Ġ
ĠdeĠzuo4Ġ biao1Ġwei4Ġ
m er
Ġbu4Ġ lai2Ġ
yan2Ġ zhong4ĠdeĠ
Ġsec tionĠĠĠ
h u3
y p
Ġ dang3Ġ
xue2 Ġbu4Ġ
mu4Ġ ni2Ġ
ying1Ġ gai1
ci3 Ġshi2Ġ
Ġshi4Ġ hui4Ġ
Ġji2Ġ bing4Ġ
h eng1Ġ
Ġ xing1
lie4 Ġchu1Ġ
hai2 Ġzai4Ġ
Ġshi2Ġ zhi4Ġ
jiang4Ġ di1
Ġ su4Ġ
lv4 ĠdeĠ
Ġshi4Ġ ji4ĠdeĠ
ye3Ġ ke3Ġyi3Ġ
3 00
Ġ zhong4
a1 Ġer3
Ġnian2Ġ qing1Ġ
Ġli4Ġ yong4
Ġdao4 Ġhe2Ġ
wu3Ġ qi4
gai3Ġ ge2
Ġ198 3Ġnian2Ġ
Ġceng2Ġ ren4
Ġ wai4
Ġ 50
fu4 Ġjia1Ġ
ban1 ĠdeĠ
Ġdao4 Ġyi1Ġ
Ġta1Ġ ren4Ġwei2Ġ
liu2Ġ xia4Ġ
Ġxin1Ġ zeng1Ġ
pi1Ġ ping2
Ġshuang1Ġ fang1Ġ
c a
Ġ hu2Ġnan2Ġ
hai3 Ġshang4Ġ
Ġshi4Ġ fou3
guo2Ġ hui4Ġ
se4Ġ fu1Ġ
jian3Ġ ce4Ġ
Ġtong2Ġ pai2Ġ
3 4Ġ
c ao2
Ġyou3Ġ da4Ġ
Ġyu2Ġ202 4Ġnian2Ġ
ĠĠĠgen1Ġju4Ġ 2020Ġnian2Ġmei3Ġguo2Ġren2Ġkou3Ġpu3Ġcha2ĠdeĠshu4Ġju4Ġ
can1Ġyu4 ĠleĠ
xi4Ġlie4 ĠdeĠ
yi4 Ġbu4Ġ
sheng1 Ġzhi4Ġ
guo2Ġ li4Ġ
Ġgong1Ġ kai1
â Ĩ
bing4 Ġwei4Ġ
mei3 Ġjun1Ġ
wu3 Ġyue4Ġ
Ġyi1Ġ zhi4Ġ
xi1Ġ nan2Ġ
ba1 Ġer3Ġ
hui2 Ġhe2Ġ
zheng4Ġ xie2Ġ
Ġta1Ġ dui4Ġ
ban1Ġ jiang3Ġ
qian1Ġ yue1Ġ
qun2Ġ dao3
you1Ġ xiu4
shang4Ġhai3 Ġshi4Ġ
chan3Ġsheng1 ĠleĠ
xin1 Ġren2Ġ
xiang1 Ġji4Ġ
dan1 Ġyuan2Ġ
liu2 ĠdeĠ
si3 Ġxing2Ġ
reng2 Ġzai4Ġ
qie4 Ġer3Ġ
Ġyi3 Ġzai4Ġ
tao3Ġ lun4
O N
xuan3 Ġchu1Ġ
Ġyu2Ġ lei4Ġ
tu3Ġer3 Ġqi2
a h
jia1 Ġgong1Ġ
Ġli4Ġ shu3Ġ
Ġda4Ġ liang4
sheng1Ġ ming2Ġ
shang4 Ġyi1Ġ
xing4 Ġshi4Ġ
guo4 Ġyu2Ġ
Ġda4Ġ qiao2Ġ
hai3Ġ ba2Ġgao1Ġ
Ġc an2Ġ
can1Ġmou2Ġ zhang3Ġ
sh uo4Ġ
ĠĠĠ shi3Ġyong4Ġ
fang2 Ġwei4Ġ
Ġbu4Ġ yi1Ġ
Ġli4Ġ ziĠ
deng1Ġ chang2Ġ
8 7
Ġ dai4
Ġ ke3Ġneng2Ġ
Ġzai4Ġ ta1Ġ
Ġyou3Ġ zhu4Ġ
ben3Ġ tu3Ġ
Ġyu2Ġ201 1Ġnian2Ġ
ĠdeĠji4Ġ lu4Ġ
s uo1
Ġ lei2
Ġdi4Ġ 1Ġ
Ġda4Ġ dao4
zhang4Ġ fu1Ġ
Ġ000 Ġren2Ġ
e2 Ġwei4Ġ
po 3
Ġji2Ġ xing2Ġzheng4Ġ
lu4Ġ zhan4Ġ
jiao1Ġ cha1Ġ
xun2Ġ huan2Ġ
lei4Ġsi4 ĠdeĠ
fei1 Ġzhou1
yang2 Ġxian4Ġ
Ġyi1Ġ ci2Ġ
dui4Ġ shou3Ġ
shi1Ġ bai4
Ġt un2
qian1Ġ shu3
ĠS Ġ
cun2Ġ zai4ĠdeĠ
e tĠ
ji3 Ġnian2Ġ
zhuang4 Ġji1Ġ
ou r
yi2Ġ chan3
zhuan1Ġ men2Ġ
nan2Ġji2Ġ zhou1ĠdeĠ
m eng3Ġ
Ġ li2
qing4 Ġzhu4Ġ
lao2 Ġgong1Ġ
d ao1
zh ai1Ġ
zhi2 Ġzhi4Ġ
Ġzai4Ġ gai1Ġ
Ġyu2Ġ di4Ġ
Ġgong1Ġ lu4
Ġshe4Ġ ji4ĠdeĠ
k an3
Ġ qin2Ġ
ĠĠĠ dan4
xi1 Ġshi4Ġ
sheng3 Ġdao4Ġ
Ġyou2Ġ ci3Ġ
Ġ198 4Ġnian2Ġ
Ġhan tĠ
ĠĠĠran2 Ġer2Ġ
chuan2 Ġzhi1Ġ
15 0
Ġzhi1Ġ zhan4Ġ
Ġwei2Ġ chi2Ġ
Ġbing4Ġ ru4Ġ
sh eng2Ġ
pi n1Ġ
Ġxian4 Ġzhi1Ġxian4Ġ
shu3ĠdeĠ zhi2Ġwu4Ġ
Ġsi4Ġ chuan1Ġ
Ġzai4Ġ yu3Ġ
Ġbu4Ġ er3Ġ
Ġyou3Ġ guan1
Ġyi3 Ġzhi4Ġ
shou3Ġ xi2Ġ
gu3Ġfen4 Ġyou3Ġxian4Ġgong1Ġsi1Ġ
l l
m ian2
Ġ luo4
Ġ chong1Ġ
po r
mi4 Ġsi1Ġ
Ġxi1Ġ an1Ġ
Ġzhi1Ġ liu2Ġ
Ġke4Ġ yun4Ġ
ĠĠĠ200 4Ġnian2Ġ
Ġn ai3Ġ
Ġ mi4Ġ
he2 Ġwei4Ġ
zuo4 ĠleĠ
jian1 Ġshi4Ġ
chuang4 Ġxin1Ġ
zong3Ġ cai2Ġ
4 6Ġ
dian4 ĠdeĠ
yao4 ĠdeĠ
Ġgong1Ġ chi3
Ġjian4 Ġshi4Ġ
Ġzuo4Ġ chu1
b eng1
ĠĠĠ 0
xu an4Ġ
tou2 Ġbu4Ġ
zheng3 Ġge4
xiao4Ġ ying4Ġ
om p
9 7
i st
n ang2Ġ
o b
hui4 Ġyi3Ġ
18 7
si3 Ġyu2Ġ
pan4Ġ luan4Ġ
Ġshi4Ġyi4Ġ da4Ġli4Ġ
Ġ mo2
Ġ huan2Ġ
hei1 Ġren2Ġ
Ġnian2 Ġnian2Ġ
bu4Ġ fen4Ġ
chu1Ġ qi1Ġ
yun4Ġdong4 ĠdeĠ
hui4 Ġshi4Ġdi4Ġ
yan2 Ġshi2Ġ
zhang3 Ġda4Ġ
chang2 Ġjian4Ġ
Ġda4Ġ sha4Ġ
zhu3Ġ xi2
jiao4Ġ shou4
zhi3Ġ ding4Ġ
jie4Ġ shao4
Ġ ku4
Ġ ni3
ling3 Ġyu4
huan2 Ġxing2Ġ
Ġling4Ġ wai4
na2Ġ po4Ġ
Ġ pu3
guo2Ġ nei4Ġ
xi1Ġ bei3Ġbu4Ġ
di3Ġ kang4Ġ
xia4Ġxia2 Ġyi3Ġxia4
e tĠĠĠ
Ġ han2
ĠĠĠ 3Ġyue4Ġ
Ġshi4Ġyi1Ġ zuo4Ġ
luo2 Ġde2Ġ
fa3Ġ ting2Ġ
Ġzhe4Ġ shou3Ġ
chuan2Ġ mei2Ġ
yin3Ġ yong4Ġ
Ġ ce4Ġ
Ġ xin4Ġ
zi4 Ġwei4Ġ
ge2 Ġer3Ġ
Ġji2Ġ lin2Ġ
ma3Ġ tou2Ġ
zhou1Ġ bian1Ġ
fen1Ġbie2 Ġwei4Ġ
5 00
yi1 Ġbu4Ġfen4
le ng3Ġ
zhu4 Ġdi4Ġ
pian4 ĠdeĠ
Ġhou4Ġ qi1Ġ
dui4Ġ wu3Ġ
jing4Ġ sai4Ġ
hang2Ġ tian1Ġ
Ġ huan4Ġ
er ĠĠĠ
Ġbu4Ġ di2Ġ
yan2Ġ zhong4
Ġqiu2 Ġhui4Ġ
ba1Ġ la1Ġ
zu3Ġ zhi3Ġ
Ġ sai4Ġ
ai4 Ġguo2Ġ
ta1 Ġzai4Ġ
zhan4 Ġwei4Ġyu2Ġ
zhi2 Ġli4Ġ
zhi2 Ġyuan2Ġ
Ġshi4Ġ bing1Ġ
xue2Ġ xi2
sheng1Ġ tai4Ġ
tong1Ġ xun4Ġ
shuai4Ġ ling3Ġ
mo4Ġsi1Ġ ke1
hai3Ġba2Ġgao1Ġ du4Ġwei4Ġ
Ġ ruan3Ġ
xi1Ġ nan2Ġbu4Ġ
qu3Ġ dai4
Ġg ou1Ġ
mu4Ġsi1Ġ lin2Ġ
d ong3Ġ
ĠĠĠ 3Ġ
tui1 Ġjian4Ġ
nuo4 Ġyi1Ġ
Ġzhong1Ġguo2Ġ guo2Ġmin2Ġ
a1 Ġli3Ġ
du i1Ġ
dan1 Ġyi1Ġ
luo4 ĠdeĠ
18 6
ri c
Ġdi4Ġ mian4Ġ
Ġxin1Ġ zeng1
jian3Ġ dan1Ġ
Ġa1Ġ la1Ġ
jie1Ġ shou1Ġ
Ġxiang1Ġ dang1
Ġc ao2
sha1Ġ si3Ġ
guang1Ġ xu4Ġ
ĠdeĠcheng2Ġ zhen4Ġ
ye3 Ġbu4Ġ
la1 Ġer3Ġ
shang1 ĠdeĠ
yi1Ġ xie1Ġ
Ġxian4Ġ jin1Ġ
Ġxi1Ġ xi1Ġ
Ġke4Ġ la1Ġ
yin3Ġ zhong3Ġ
Ġsui2Ġ zhe
g r
xun2 Ġqiu2Ġ
luo2Ġ bo2Ġte4Ġ
ĠI n
Ġwei4Ġfu2Ġqi2Ġyu2Ġ gang1
Ġ che1Ġzhan4
Ġhe2Ġ li3Ġ
Ġxing2Ġ xiang4Ġ
Ġshe4Ġ hui4
yin3Ġ fa1
ying2Ġ ye4Ġ
Ġhu ai4Ġ
ĠĠĠ 5Ġyue4Ġ
bie2 ĠdeĠ
wei3Ġfu4Ġ shu1Ġji4Ġ
ge1 Ġju4Ġ
Ġwei4Ġ ci3Ġ
Ġguo2Ġ min2
Ġer3 Ġde2
wu3 Ġdi4Ġ
Ġqiu2Ġ chang3Ġ
bian1Ġ hao4Ġwei4Ġ
li2Ġ ziĠ
Ġ chu3Ġ
ming2 ĠleĠ
you2 Ġqi2Ġ
you2Ġ tai4Ġren2Ġ
Ġqi2Ġzhong1Ġ nan2Ġxing4Ġ
kuai4Ġ su4
Ġyu2Ġ200 9Ġnian2Ġ
fa1Ġsheng1 ĠleĠ
yu3 Ġshi4Ġ
zhe3 Ġwei4Ġ
ceng2Ġ shui3Ġyu4Ġ
xun2Ġyang2 Ġjian4Ġ
zhuan4ĠdeĠ xiao3Ġxing2Ġxing1Ġ
Ġ xu4Ġ
Ġ wu1Ġke4Ġlan2Ġ
ĠĠĠ ping2Ġjia4Ġ
men2 ĠdeĠ
zuo4Ġ chu1
Ġchu1 Ġyi1Ġ
Ġxing2Ġ shi3Ġ
Ġshe4 Ġji1Ġ
Ġke4Ġ lai2Ġ
wei1Ġ xian3Ġ
liao3Ġ jie3
A O
a mi
Ġ dian4Ġshi4Ġ
yun4 Ġhe2Ġ
liang2 Ġshi2Ġ
bu2 Ġyao4Ġ
rong2Ġ na4Ġ
Ġ198 6Ġnian2Ġ
you2 Ġren2Ġgong1Ġ
Ġzai4Ġ bei3Ġ
gui1Ġ fan4Ġ
Ġ18 4
B CĠ
tui1 Ġchu1ĠdeĠ
Ġjin4 Ġnian2Ġ
bao3Ġ cun2Ġ
Ġsheng1Ġ zhang3Ġyu2Ġ
fu3Ġ zhu4Ġ
t erĠ
Ġzai4Ġ ri4Ġben3Ġ
xi1Ġ bei3Ġ
gang3Ġ kou3Ġ
4 2
ci4 Ġwei4Ġ
bian1 Ġcheng2Ġ
du1Ġ du1Ġ
cuo4Ġ wu4Ġ
6 3
g uo1
zhang3 Ġwei4Ġ
ci4 Ġda4Ġ
Ġji1Ġ yin1Ġ
tu2Ġ xiang4Ġ
fei3 Ġ
s ao1Ġ
Ġ can1Ġyu4Ġ
ben3 Ġxian4Ġ
xiu1 Ġjian4Ġ
shun4 Ġshi2Ġ
ru4Ġ qin1
shao4Ġ jiang4Ġ
Ġ chao2Ġxian1Ġ
zhi1 Ġyuan2Ġ
dui4 Ġhe2Ġ
nan2Ġ fang1Ġ
Ġdang1 Ġnian2Ġ
Ġdong1Ġ jing1Ġ
Ġren2Ġmin2Ġ bi4Ġ
Ġhu ai2
gan3Ġ lan3
ac e
4 2Ġ
s a1
Ġ niu2Ġ
ge4 Ġdi4Ġ
ĠdeĠ gu4Ġshi4Ġ
Ġyu2Ġ 2010Ġnian2Ġ
fu2Ġ hao4Ġ
Ġs u2Ġ
Ġdi4Ġer4Ġ ci4Ġ
Ġgong1Ġcheng2Ġ shi1Ġ
Ġ195 8Ġnian2Ġ
ĠĠĠ jing1Ġji4Ġ
Ġshi4Ġ nei4Ġ
Ġji2Ġ shi3
fa3Ġ lan2Ġ
zong3Ġ jian1Ġ
na4Ġ cui4
Ġtong1Ġ guo4
Ġzai4Ġdi4Ġ er4Ġ
ping2Ġjun1Ġ hai3Ġba2Ġgao1Ġdu4Ġwei4Ġ
Ġ ye4
Ġ bao1Ġhan2Ġ
lai2 ĠleĠ
Ġsi1Ġ xiang3Ġ
9 3
L E
l ang4
zu2 Ġqiu2Ġdui4Ġ
Ġhe2Ġ ji2Ġ
ĠdeĠdi4Ġ er4
lao3Ġ shi1Ġ
f a4Ġ
chu2 Ġle
Ġshi2Ġ xing4Ġ
ji4Ġ nian4
si1Ġ lan2Ġ
Ġzh uo2
jie3Ġ jue2
dang1Ġ ju2Ġ
Ġer2Ġgai1Ġdi4ĠdeĠ ping2Ġjun1Ġhai3Ġba2Ġgao1Ġdu4Ġwei4Ġ
wu4 Ġzhong1Ġ
fen1 Ġzhi1Ġyi1Ġ
ni2 Ġxi1Ġya4Ġ
meng2 Ġjun1Ġ
zhong1Ġ xin1Ġ
Ġyou3Ġ li4Ġ
Ġzhi1Ġ qian2
Ġchu1Ġ shen1Ġ
kai1Ġ zhan3Ġ
ru4Ġ xuan3
mian4Ġ lin2Ġ
na4Ġ xie1Ġ
Ġ e2
Ġ bao4
mi ao3
kong1 Ġjun1
Ġjian4 Ġwei4Ġ
2010Ġnian2Ġ mei3Ġguo2Ġren2Ġkou3Ġpu3Ġcha2ĠdeĠshu4Ġju4Ġ
han3Ġ mo4
a w
mi3Ġ ya4Ġ
sheng3Ġ wei3Ġ
fei1Ġ fa3Ġ
qun2Ġ ti3Ġ
Ġs an4Ġ
Ġ194 6Ġnian2Ġ
yin3Ġzhong3Ġ zai1Ġpei2Ġ
7 5Ġ
ĠĠĠ tian1Ġ
ji1 Ġshi4Ġ
Ġwei4Ġ ming2Ġ
Ġshi2Ġ yong4Ġ
qing2Ġ xu4Ġ
can1Ġ sai4
pin2Ġ lv4Ġ
5 Ġge4Ġ
ĠĠĠ 12
zhang1 ĠdeĠ
Ġzai4Ġ gong1Ġ
chuang4Ġ zao4Ġ
ka3Ġluo2Ġ lai2Ġ
yuan2 Ġdi4Ġ
ze2 Ġyou3Ġ
feng1 ĠdeĠ
shen1 Ġshang4Ġ
chang3Ġ jing3Ġ
jiao1Ġ huan4Ġ
Ġyi3Ġse4Ġ lie4
jiao4 Ġyu2Ġ
si4 Ġming2Ġ
zu2 Ġyi3Ġ
ying4 Ġdui4Ġ
ji1Ġ bai3Ġ
Ġde2 Ġdao4ĠleĠ
Ġf an2
you2Ġren2Ġgong1Ġ yin3Ġzhong3Ġzai1Ġpei2Ġ
Ġ liang3Ġge4Ġ
Ġ dian4Ġying3
Ġ yun2Ġnan2Ġ
li4 Ġzhong1Ġ
yan3 Ġchu1
ge1 ĠdeĠ
qu an1
Ġzhi4Ġ shao3
1Ġ hao4Ġ
ke1Ġ hui4Ġshi4Ġdi4Ġ
