{"!":0,"\"":1,"#":2,"$":3,"%":4,"&":5,"'":6,"(":7,")":8,"*":9,"+":10,",":11,"-":12,".":13,"/":14,"0":15,"1":16,"2":17,"3":18,"4":19,"5":20,"6":21,"7":22,"8":23,"9":24,":":25,";":26,"=":27,"?":28,"@":29,"A":30,"B":31,"C":32,"D":33,"E":34,"F":35,"G":36,"H":37,"I":38,"J":39,"K":40,"L":41,"M":42,"N":43,"O":44,"P":45,"Q":46,"R":47,"S":48,"T":49,"U":50,"V":51,"W":52,"X":53,"Y":54,"Z":55,"[":56,"\\":57,"]":58,"^":59,"_":60,"`":61,"a":62,"b":63,"c":64,"d":65,"e":66,"f":67,"g":68,"h":69,"i":70,"j":71,"k":72,"l":73,"m":74,"n":75,"o":76,"p":77,"q":78,"r":79,"s":80,"t":81,"u":82,"v":83,"w":84,"x":85,"y":86,"z":87,"|":88,"~":89,"¡":90,"¢":91,"£":92,"¤":93,"¥":94,"¦":95,"§":96,"¨":97,"©":98,"ª":99,"«":100,"¬":101,"®":102,"¯":103,"°":104,"±":105,"²":106,"³":107,"´":108,"µ":109,"¶":110,"·":111,"¸":112,"¹":113,"º":114,"»":115,"¼":116,"½":117,"¾":118,"¿":119,"Â":120,"Ã":121,"Ä":122,"Å":123,"Æ":124,"Ç":125,"È":126,"É":127,"Ê":128,"Ë":129,"Ì":130,"Í":131,"Î":132,"Ï":133,"Ð":134,"Ñ":135,"Ò":136,"Ó":137,"Ô":138,"Õ":139,"Ö":140,"×":141,"Ø":142,"Ù":143,"Ú":144,"Û":145,"Ü":146,"Þ":147,"ß":148,"à":149,"á":150,"â":151,"ã":152,"ä":153,"ê":154,"ë":155,"ì":156,"í":157,"î":158,"ï":159,"ð":160,"ñ":161,"Ċ":162,"Ġ":163,"ġ":164,"Ģ":165,"ģ":166,"Ĥ":167,"ĥ":168,"Ħ":169,"ħ":170,"Ĩ":171,"ĩ":172,"Ī":173,"ī":174,"Ĭ":175,"ĭ":176,"Į":177,"į":178,"İ":179,"ı":180,"Ĳ":181,"ĳ":182,"Ĵ":183,"ĵ":184,"Ķ":185,"ķ":186,"ĸ":187,"Ĺ":188,"ĺ":189,"Ļ":190,"ļ":191,"Ľ":192,"ľ":193,"Ŀ":194,"ŀ":195,"Ł":196,"ł":197,"Ń":198,"ng":199,"i4":200,"an":201,"sh":202,"zh":203,"ng1":204,"ji":205,"u4":206,"ng2":207,"ĠĠ":208,"i2":209,"ao":210,"xi":211,"ng4":212,"an2":213,"i3":214,"i1":215,"de":216,"u3":217,"an4":218,"e4":219,"en":220,"ch":221,"uo":222,"u2":223,"ng3":224,"an1":225,"e2":226,"ai4":227,"u1":228,"ĠĠĠ":229,"ong1":230,"a1":231,"ãĢ":232,"shi4":233,"ei4":234,"ao4":235,"ian2":236,"a4":237,"yu":238,"ang1":239,"yo":240,"an3":241,"n1":242,"hu":243,"ang4":244,"nian2":245,"en2":246,"li":247,"ang3":248,"eng2":249,"uo4":250,"uo2":251,"wei4":252,"mi":253,"ao3":254,"zai4":255,"ãĢģ":256,"bi":257,"qi":258,"ang2":259,"e1":260,"he2":261,"yi":262,"eng1":263,"zhong1":264,"er":265,"bu4":266,"ou4":267,"a3":268,"e3":269,"n4":270,"shi2":271,"di4":272,"guo2":273,"ai2":274,"ui4":275,"ren2":276,"ao1":277,"xu":278,"yi1":279,"n2":280,"ong2":281,"yu2":282,"gu":283,"li4":284,"zhi4":285,"di":286,"we":287,"en4":288,"cheng2":289,"ong4":290,"yi4":291,"gong1":292,"ji2":293,"eng4":294,"en1":295,"yue4":296,"you3":297,"yuan2":298,"da4":299,"a2":300,"le":301,"ji4":302,"20":303,"yi3":304,"ju":305,"ai1":306,"pi":307,"xian4":308,"ou1":309,"jia1":310,"si1":311,"xing2":312,"ei3":313,"ti":314,"yu3":315,"ji1":316,"ta1":317,"ri4":318,"zhi1":319,"hou4":320,"li3":321,"ou3":322,"ai3":323,"wei2":324,"hui4":325,"dao4":326,"19":327,"ong3":328,"qi2":329,"uan2":330,"zheng4":331,"ming2":332,"xi1":333,"ao2":334,"jian4":335,"xue2":336,"chu1":337,"ge4":338,"zuo4":339,"uo1":340,"sheng1":341,"dui4":342,"you2":343,"uo3":344,"qu1":345,"shang4":346,"en3":347,"de2":348,"bei4":349,"shi3":350,"zhu":351,"zhan4":352,"n3":353,"xin1":354,"jun1":355,"er3":356,"she4":357,"ren4":358,"fa1":359,"wu4":360,"bing4":361,"ke4":362,"er2":363,"lu4":364,"dai4":365,"zhu3":366,"yi2":367,"shu4":368,"ju4":369,"jin4":370,"zi4":371,"yin1":372,"fu4":373,"fang1":374,"jing1":375,"nan2":376,"hua4":377,"zhou1":378,"ping2":379,"xia4":380,"lai2":381,"yong4":382,"guan1":383,"tong2":384,"yu4":385,"ãĢĭ":386,"ãĢĬ":387,"fa3":388,"zhu4":389,"mei3":390,"Â·":391,"jian1":392,"bo":393,"huo4":394,"ben3":395,"xiang1":396,"zhi2":397,"dong4":398,"xiang4":399,"min2":400,"zhe4":401,"jiang1":402,"qi1":403,"fen1":404,"shou3":405,"quan2":406,"wen2":407,"yan2":408,"suo3":409,"jiao4":410,"qian2":411,"dian4":412,"te4":413,"duo1":414,"zui4":415,"kai1":416,"jie2":417,"lian2":418,"zhi3":419,"xi4":420,"ke3":421,"eng3":422,"ei1":423,"dan4":424,"mu4":425,"ye4":426,"du4":427,"fu2":428,"shu":429,"ma3":430,"ye3":431,"dong1":432,"qiu2":433,"bei3":434,"ãĢĮ":435,"ãĢį":436,"gao1":437,"ya4":438,"ou2":439,"du":440,"jie1":441,"un2":442,"mian4":443,"hai3":444,"zhang3":445,"shi1":446,"jin1":447,"ci3":448,"nei4":449,"sai4":450,"san1":451,"tai2":452,"ge2":453,"xing4":454,"guo4":455,"201":456,"deng3":457,"yao4":458,"che1":459,"ci4":460,"su":461,"mo":462,"ru4":463,"wu3":464,"gai1":465,"ku":466,"ding4":467,"chang2":468,"biao3":469,"la1":470,"ti3":471,"gong4":472,"jie4":473,"shou4":474,"dao3":475,"shan1":476,"chang3":477,"si4":478,"lv":479,"ze2":480,"ti2":481,"ke1":482,"dang1":483,"neng2":484,"er4":485,"wai4":486,"ei2":487,"chu":488,"dan1":489,"qi3":490,"zi":491,"kou3":492,"xiao3":493,"zu3":494,"ba1":495,"jue2":496,"lin2":497,"liu2":498,"ni":499,"sheng3":500,"ying1":501,"lan2":502,"bi3":503,"luo2":504,"tong1":505,"200":506,"zhong4":507,"zhe3":508,"shu3":509,"tian1":510,"zhen4":511,"zhong3":512,"lie4":513,"qi4":514,"cheng1":515,"shu1":516,"yuan4":517,"bao3":518,"tai4":519,"fu3":520,"feng1":521,"mi3":522,"qing1":523,"shen1":524,"wang2":525,"yun4":526,"guan3":527,"fei1":528,"jiu4":529,"gu3":530,"liang3":531,"ceng2":532,"mei2":533,"10":534,"fen4":535,"hao4":536,"yan3":537,"wei3":538,"zong3":539,"xuan3":540,"xiao4":541,"da2":542,"na4":543,"liang4":544,"bo1":545,"zu2":546,"jing4":547,"bao4":548,"ni2":549,"wu2":550,"tong3":551,"hua2":552,"jiao1":553,"yue1":554,"ying3":555,"bian4":556,"xing1":557,"su4":558,"shui3":559,"yang2":560,"men":561,"bao1":562,"ge1":563,"bo2":564,"can1":565,"cong2":566,"dian3":567,"ru2":568,"ban4":569,"bi4":570,"bian1":571,"wang3":572,"qu3":573,"chan3":574,"se4":575,"zi1":576,"qu":577,"00":578,"chuan2":579,"nv":580,"sheng4":581,"ran2":582,"tu2":583,"zhang1":584,"xu4":585,"pu3":586,"gai3":587,"gang3":588,"nv3":589,"ling4":590,"luo4":591,"you4":592,"tou2":593,"hu4":594,"cha2":595,"ce4":596,"chi2":597,"18":598,"lv4":599,"qian1":600,"li2":601,"dou1":602,"12":603,"zheng1":604,"kuo4":605,"sha1":606,"lu":607,"dang3":608,"fan3":609,"gou4":610,"lei4":611,"xi2":612,"jing3":613,"tuan2":614,"wei1":615,"xie1":616,"ling3":617,"long2":618,"gui1":619,"xian1":620,"rong2":621,"huang2":622,"xiang3":623,"ban1":624,"jiu3":625,"ying4":626,"men2":627,"shang1":628,"shen2":629,"202":630,"ban3":631,"ka3":632,"cu":633,"mu3":634,"jin3":635,"fu1":636,"ju3":637,"mo2":638,"guang3":639,"ci2":640,"shuo1":641,"qing2":642,"zhan3":643,"hai2":644,"zhuang1":645,"mo4":646,"cai2":647,"ji3":648,"du2":649,"11":650,"pin3":651,"ting2":652,"chao2":653,"ying2":654,"wo":655,"tiao2":656,"po":657,"jian3":658,"tang2":659,"hui2":660,"duan4":661,"chen2":662,"gen1":663,"mi4":664,"wan4":665,"pai2":666,"wan1":667,"zao4":668,"hang2":669,"wan2":670,"biao1":671,"lun2":672,"199":673,"xie2":674,"jiang3":675,"han4":676,"ju2":677,"fan4":678,"fang2":679,"huo2":680,"gu4":681,"han2":682,"kong1":683,"tie3":684,"meng2":685,"bie2":686,"wu1":687,"jie3":688,"zhuan1":689,"yin3":690,"xu1":691,"zhen1":692,"jia4":693,"bing1":694,"ming4":695,"ling2":696,"hong2":697,"qin1":698,"zi3":699,"lun4":700,"tu":701,"or":702,"xin4":703,"chu4":704,"su1":705,"xiu1":706,"chu3":707,"zong1":708,"15":709,"hu2":710,"que4":711,"xiao1":712,"zhao4":713,"qiang2":714,"qu4":715,"cun1":716,"chong2":717,"pian4":718,"jiu1":719,"fang4":720,"sui2":721,"shou1":722,"geng4":723,"âĢ":724,"guang1":725,"ju1":726,"jia3":727,"chuang4":728,"di2":729,"zhuan3":730,"16":731,"guo3":732,"xun4":733,"man4":734,"pai4":735,"fei4":736,"pei4":737,"198":738,"da3":739,"tuo1":740,"xuan1":741,"chu2":742,"bai2":743,"la":744,"on":745,"zhu1":746,"du1":747,"tu3":748,"diao4":749,"xia2":750,"liu4":751,"17":752,"sui4":753,"hui1":754,"ting1":755,"qie3":756,"ta3":757,"qiao2":758,"ha1":759,"gan3":760,"zeng1":761,"xian3":762,"mai4":763,"huan2":764,"xu3":765,"wa3":766,"tui1":767,"wen4":768,"chao1":769,"tian2":770,"bai3":771,"cai3":772,"liang2":773,"ya2":774,"sa4":775,"ar":776,"bai4":777,"cun2":778,"jiao3":779,"shao3":780,"yan4":781,"zhuang4":782,"di3":783,"huo3":784,"lei2":785,"14":786,"jiang4":787,"chuan1":788,"yin4":789,"zao3":790,"yong3":791,"si3":792,"deng1":793,"30":794,"zhun3":795,"le4":796,"xun2":797,"nuo4":798,"huan4":799,"song4":800,"gao4":801,"lu3":802,"13":803,"194":804,"bang1":805,"lv3":806,"yang4":807,"hen3":808,"qun2":809,"zheng3":810,"guan4":811,"po4":812,"gang1":813,"wo3":814,"197":815,"hua1":816,"lei1":817,"hao3":818,"tao2":819,"kuang4":820,"pi1":821,"dun4":822,"nong2":823,"gei3":824,"sai1":825,"shuang1":826,"lian4":827,"kuai4":828,"in":829,"di1":830,"pan4":831,"xie3":832,"195":833,"kao3":834,"gai4":835,"he4":836,"hei1":837,"wang4":838,"liao4":839,"re4":840,"ge":841,"zuo3":842,"kong4":843,"196":844,"yang1":845,"chang4":846,"yin2":847,"reng2":848,"sen1":849,"bei1":850,"lu2":851,"piao4":852,"ya1":853,"ku4":854,"25":855,"bin1":856,"âĢĶ":857,"rang4":858,"chong1":859,"lou2":860,"bu3":861,"lao3":862,"zhu2":863,"jun4":864,"yang3":865,"rui4":866,"yao1":867,"xian2":868,"xie4":869,"nian4":870,"for":871,"you1":872,"tan2":873,"kang1":874,"pi2":875,"heng2":876,"yun2":877,"kan4":878,"ning2":879,"liao2":880,"shao4":881,"bu2":882,"qing3":883,"chi3":884,"24":885,"mu":886,"dou4":887,"mian3":888,"yong1":889,"tan3":890,"wan3":891,"hu1":892,"ru":893,"fan1":894,"al":895,"tu1":896,"gan1":897,"suan4":898,"ding1":899,"yuan3":900,"wen1":901,"tui4":902,"zhe":903,"st":904,"21":905,"xiu4":906,"ba3":907,"man3":908,"193":909,"23":910,"mula":911,"kang4":912,"formula":913,"28":914,"th":915,"mao2":916,"ruo4":917,"pian1":918,"mao4":919,"lang3":920,"qin2":921,"ba2":922,"na2":923,"zan4":924,"xi3":925,"gui3":926,"gui4":927,"re":928,"pin2":929,"wo4":930,"xiong2":931,"shan4":932,"22":933,"xiong1":934,"me":935,"sui1":936,"26":937,"shen3":938,"qing4":939,"miao2":940,"fang3":941,"50":942,"2020":943,"27":944,"lang2":945,"ou":946,"qiu1":947,"song1":948,"ri":949,"dang4":950,"geng1":951,"qiang1":952,"fa2":953,"zao1":954,"feng4":955,"zhang4":956,"ï¼":957,"hao2":958,"dun1":959,"zou3":960,"hai4":961,"qie4":962,"29":963,"tan4":964,"zu":965,"pao4":966,"pa4":967,"shun4":968,"peng2":969,"xuan2":970,"2010":971,"ni3":972,"000":973,"ding3":974,"niu3":975,"zai3":976,"zhao1":977,"zhui1":978,"lve4":979,"chun1":980,"2019":981,"hun1":982,"kong3":983,"che4":984,"duan1":985,"shen4":986,"xiang2":987,"duan3":988,"gan4":989,"ro":990,"te":991,"kan1":992,"lao2":993,"cao3":994,"2016":995,"si":996,"gu1":997,"pei2":998,"deĠ":999,"ĠdeĠ":1000,"shi4Ġ":1001,"Ġshi4Ġ":1002,"Ġnian2":1003,"Ġnian2Ġ":1004,"wei4Ġ":1005,"zai4Ġ":1006,"Ġwei4Ġ":1007,"Ġzai4Ġ":1008,"he2Ġ":1009,"Ġhe2Ġ":1010,"zhong1Ġ":1011,"bu4Ġ":1012,"di4Ġ":1013,"shi2Ġ":1014,"guo2Ġ":1015,"yu2Ġ":1016,"ren2Ġ":1017,"Ġbu4Ġ":1018,"yi1Ġ":1019,"Ġzhong1Ġ":1020,"li4Ġ":1021,"zhi4Ġ":1022,"gong1Ġ":1023,"Ġshi2Ġ":1024,"yue4Ġ":1025,"ji2Ġ":1026,"cheng2Ġ":1027,"yi4Ġ":1028,"you3Ġ":1029,"Ġdi4Ġ":1030,"Ġyue4Ġ":1031,"Ġyu2Ġ":1032,"Ġren2Ġ":1033,"Ġzhi4Ġ":1034,"da4Ġ":1035,"Ġji2Ġ":1036,"yuan2Ġ":1037,"Ġyou3Ġ":1038,"ji4Ġ":1039,"Ġguo2Ġ":1040,"Ġli4Ġ":1041,"Ġgong1Ġ":1042,"Ġyi4Ġ":1043,"Ġyi3":1044,"Ġcheng2Ġ":1045,"jia1Ġ":1046,"si1Ġ":1047,"yu3Ġ":1048,"Ġxian4":1049,"Ġri4":1050,"Ġyi1Ġ":1051,"Ġxing2":1052,"Ġta1":1053,"li3Ġ":1054,"ji1Ġ":1055,"Ġdao4":1056,"hou4Ġ":1057,"wei2Ġ":1058,"Ġzhi1":1059,"Ġda4Ġ":1060,"Ġyuan2Ġ":1061,"xi1Ġ":1062,"Ġri4Ġ":1063,"Ġge4":1064,"Ġyi3Ġ":1065,"Ġle":1066,"xue2Ġ":1067,"hui4Ġ":1068,"Ġyu3Ġ":1069,"zuo4Ġ":1070,"Ġji4Ġ":1071,"ming2Ġ":1072,"bei4Ġ":1073,"Ġqi2":1074,"Ġchu1":1075,"Ġjian4":1076,"Ġsi1Ġ":1077,"Ġde2":1078,"Ġxing2Ġ":1079,"sheng1Ġ":1080,"Ġdao4Ġ":1081,"Ġji1Ġ":1082,"Ġhou4Ġ":1083,"zheng4Ġ":1084,"Ġxian4Ġ":1085,"dui4Ġ":1086,"shang4Ġ":1087,"qu1Ġ":1088,"shi3Ġ":1089,"Ġjia1Ġ":1090,"Ġer3":1091,"Ġxi1Ġ":1092,"you2Ġ":1093,"Ġta1Ġ":1094,"Ġli3Ġ":1095,"Ġer2":1096,"Ġjun1":1097,"zhan4Ġ":1098,"Ġbing4":1099,"Ġzhi1Ġ":1100,"Ġge4Ġ":1101,"zhu3Ġ":1102,"ĠleĠ":1103,"ren4Ġ":1104,"zi4Ġ":1105,"wu4Ġ":1106,"fu4Ġ":1107,"xin1Ġ":1108,"dai4Ġ":1109,"ju4Ġ":1110,"ping2Ġ":1111,"Ġke4":1112,"Ġzhou1":1113,"xiang1Ġ":1114,"Ġchu1Ġ":1115,"Ġhui4Ġ":1116,"nan2Ġ":1117,"Ġshe4":1118,"Ġbei4Ġ":1119,"shu4Ġ":1120,"an1Ġ":1121,"Ġming2Ġ":1122,"xia4Ġ":1123,"guan1Ġ":1124,"Ġer3Ġ":1125,"Ġyin1":1126,"Ġyu4":1127,"jing1Ġ":1128,"hua4Ġ":1129,"yan2Ġ":1130,"Ġjian4Ġ":1131,"lu4Ġ":1132,"fang1Ġ":1133,"Ġde2Ġ":1134,"kai1Ġ":1135,"Ġdan4":1136,"jian1Ġ":1137,"Ġer2Ġ":1138,"min2Ġ":1139,"zhu4Ġ":1140,"shou3Ġ":1141,"zhe4Ġ":1142,"fa1Ġ":1143,"lai2Ġ":1144,"Ġwei2Ġ":1145,"xiang4Ġ":1146,"wen2Ġ":1147,"yong4Ġ":1148,"Ġjun1Ġ":1149,"xi4Ġ":1150,"qian2Ġ":1151,"ben3Ġ":1152,"te4Ġ":1153,"zhi2Ġ":1154,"fa3Ġ":1155,"qi1Ġ":1156,"jie2Ġ":1157,"lian2Ġ":1158,"Ġbing4Ġ":1159,"Ġdong4":1160,"Ġqi2Ġ":1161,"dian4Ġ":1162,"Ġke4Ġ":1163,"Ġjin4":1164,"dong1Ġ":1165,"Ġdui4Ġ":1166,"Ġhuo4":1167,"mu4Ġ":1168,"jiao4Ġ":1169,"fen1Ġ":1170,"tai2Ġ":1171,"Ġzhan4Ġ":1172,"zhang3Ġ":1173,"du4Ġ":1174,"Ġqiu2":1175,"jiang1Ġ":1176,"Ġping2Ġ":1177,"ye4Ġ":1178,"gao1Ġ":1179,"Ġzhou1Ġ":1180,"bei3Ġ":1181,"suo3Ġ":1182,"shi1Ġ":1183,"Ġyu4Ġ":1184,"duo1Ġ":1185,"jie1Ġ":1186,"ge2Ġ":1187,"Ġshang4Ġ":1188,"jin1Ġ":1189,"a1Ġ":1190,"Ġzuo4Ġ":1191,"fu2Ġ":1192,"Ġzheng4Ġ":1193,"an4Ġ":1194,"kou3Ġ":1195,"Ġyou2Ġ":1196,"zhi3Ġ":1197,"guo4Ġ":1198,"Ġtong2":1199,"Ġfu4Ġ":1200,"ma3Ġ":1201,"tong1Ġ":1202,"Ġren4Ġ":1203,"Ġxue2Ġ":1204,"zui4Ġ":1205,"hai3Ġ":1206,"ci3Ġ":1207,"quan2Ġ":1208,"xing4Ġ":1209,"ru4Ġ":1210,"wai4Ġ":1211,"nei4Ġ":1212,"la1Ġ":1213,"jue2Ġ":1214,"ke3Ġ":1215,"tian1Ġ":1216,"deng3Ġ":1217,"chang3Ġ":1218,"chang2Ġ":1219,"shan1Ġ":1220,"wu3Ġ":1221,"zhen4Ġ":1222,"ziĠ":1223,"yao4Ġ":1224,"an3Ġ":1225,"bi3Ġ":1226,"qi3Ġ":1227,"Ġyin1Ġ":1228,"ye3Ġ":1229,"gai1Ġ":1230,"mi3Ġ":1231,"ao4Ġ":1232,"ya4Ġ":1233,"mian4Ġ":1234,"bao3Ġ":1235,"ci4Ġ":1236,"zhong4Ġ":1237,"jie4Ġ":1238,"shou4Ġ":1239,"Ġshe4Ġ":1240,"feng1Ġ":1241,"Ġju4Ġ":1242,"zhong3Ġ":1243,"che1Ġ":1244,"Ġzhe4Ġ":1245,"Ġsheng1Ġ":1246,"ti3Ġ":1247,"lin2Ġ":1248,"1Ġ":1249,"bao1Ġ":1250,"sai4Ġ":1251,"yi2Ġge4Ġ":1252,"Ġdai4Ġ":1253,"shen1Ġ":1254,"ding4Ġ":1255,"Ġdan4Ġ":1256,"sheng3Ġ":1257,"ai4Ġ":1258,"luo2Ġ":1259,"yi2Ġ":1260,"Ġdong4Ġ":1261,"mei3Ġguo2Ġ":1262,"xiao3Ġ":1263,"san1Ġ":1264,"neng2Ġ":1265,"qi4Ġ":1266,"shu1Ġ":1267,"ze2Ġ":1268,"zhe3Ġ":1269,"lie4Ġ":1270,"xuan3Ġ":1271,"liu2Ġ":1272,"2Ġ":1273,"si4Ġ":1274,"Ġqiu2Ġ":1275,"qing1Ġ":1276,"yuan4Ġ":1277,"jing4Ġ":1278,"e2Ġ":1279,"wang2Ġ":1280,"ke1Ġ":1281,"ba1Ġ":1282,"tai4Ġ":1283,"lan2Ġ":1284,"Ġhuo4Ġ":1285,"ying3Ġ":1286,"bao4Ġ":1287,"zong3Ġ":1288,"bi4Ġ":1289,"fu3Ġ":1290,"dao3Ġ":1291,"gu3Ġ":1292,"1Ġnian2Ġ":1293,"ying1Ġ":1294,"Ġxin1Ġ":1295,"fen4Ġ":1296,"ge1Ġ":1297,"5Ġnian2Ġ":1298,"xiao4Ġ":1299,"ni2Ġ":1300,"yue1Ġ":1301,"Ġzi4Ġ":1302,"na4Ġ":1303,"jiao1Ġ":1304,"2Ġnian2Ġ":1305,"ru2Ġ":1306,"er4Ġ":1307,"4Ġnian2Ġ":1308,"zi1Ġ":1309,"dan1Ġ":1310,"Ġzh":1311,"hao4Ġ":1312,"8Ġnian2Ġ":1313,"3Ġnian2Ġ":1314,"liang4Ġ":1315,"tou2Ġ":1316,"pu3Ġ":1317,"guan3Ġ":1318,"biao3Ġ":1319,"cheng1Ġ":1320,"su4Ġ":1321,"chuan2Ġ":1322,"xing1Ġ":1323,"wu2Ġ":1324,"ti2Ġ":1325,"Ġmi3Ġ":1326,"nv3Ġ":1327,"yan3Ġ":1328,"chan3Ġ":1329,"Ġjin4Ġ":1330,"bo2Ġ":1331,"fei1Ġ":1332,"bo1Ġ":1333,"Ġzhong1Ġguo2Ġ":1334,"se4Ġ":1335,"da2Ġ":1336,"Ġdang1":1337,"mei3Ġ":1338,"ao3Ġ":1339,"Ġm":1340,"Ġwei4Ġyu2Ġ":1341,"ceng2Ġ":1342,"shui3Ġ":1343,"Ġzhu4Ġ":1344,"7Ġnian2Ġ":1345,"wang3Ġ":1346,"Ġxia4Ġ":1347,"tu2Ġ":1348,"Ġxiang1Ġ":1349,"gui1Ġ":1350,"bian4Ġ":1351,"Ġnan2Ġ":1352,"Ġran2":1353,"bian1Ġ":1354,"yang2Ġ":1355,"leĠ":1356,"zhang1Ġ":1357,"dian3Ġ":1358,"Ġt":1359,"cong2Ġ":1360,"gai3Ġ":1361,"jiu4Ġ":1362,"bao1Ġkuo4":1363,"hua2Ġ":1364,"sheng4Ġ":1365,"lv4Ġ":1366,"gang3Ġ":1367,"zu3Ġ":1368,"Ġc":1369,"Ġben3Ġ":1370,"sha1Ġ":1371,"jing3Ġ":1372,"jian3Ġ":1373,"shu3Ġ":1374,"qing2Ġ":1375,"zu2Ġ":1376,"liang3Ġ":1377,"tong3Ġ":1378,"ban4Ġ":1379,"gong4Ġ":1380,"shang1Ġ":1381,"li2Ġ":1382,"tong2Ġ":1383,"long2Ġ":1384,"0Ġnian2Ġ":1385,"3Ġ":1386,"xu4Ġ":1387,"9Ġnian2Ġ":1388,"luo4Ġ":1389,"chi2Ġ":1390,"5Ġ":1391,"jin4Ġ":1392,"mei2Ġ":1393,"hu4Ġ":1394,"ban1Ġ":1395,"Ġlu4Ġ":1396,"guang3Ġ":1397,"ce4Ġ":1398,"jin3Ġ":1399,"Ġta1Ġmen":1400,"shen2Ġ":1401,"zhi1Ġ":1402,"mi4Ġ":1403,"ai1Ġ":1404,"zheng1Ġ":1405,"wei1Ġ":1406,"6Ġnian2Ġ":1407,"you4Ġ":1408,"a4Ġ":1409,"Ġgai1Ġ":1410,"fan3Ġ":1411,"ting2Ġ":1412,"xi2Ġ":1413,"chu1Ġ":1414,"ka3Ġ":1415,"cai2Ġ":1416,"cha2Ġ":1417,"qu3Ġ":1418,"shuo1Ġ":1419,"Ġzhu3Ġ":1420,"ci2Ġ":1421,"xiang3Ġ":1422,"yun4Ġ":1423,"jiang3Ġ":1424,"men2Ġ":1425,"e4Ġ":1426,"mu3Ġ":1427,"wei3Ġ":1428,"tĠ":1429,"tuan2Ġ":1430,"Ġgong1Ġli3Ġ":1431,"ling3Ġ":1432,"yan2Ġjiu1":1433,"chao2Ġ":1434,"Ġ200":1435,"lei4Ġ":1436,"ying4Ġ":1437,"tang2Ġ":1438,"pin3Ġ":1439,"jian4Ġ":1440,"4Ġ":1441,"Ġyi3Ġji2Ġ":1442,"jia4Ġ":1443,"chen2Ġ":1444,"xie1Ġ":1445,"Ġduo1Ġ":1446,"yin3Ġ":1447,"hang2Ġ":1448,"dong4Ġ":1449,"Ġyou2":1450,"yi3Ġ":1451,"jiu3Ġ":1452,"pai2Ġ":1453,"fu1Ġ":1454,"gou4Ġ":1455,"lun2Ġ":1456,"rong2Ġ":1457,"ling4Ġ":1458,"jie3Ġ":1459,"tai2Ġwan1":1460,"qi2Ġ":1461,"ang1Ġ":1462,"dang3Ġ":1463,"ĠdeĠdi4Ġ":1464,"ke3Ġyi3Ġ":1465,"shi3Ġyong4Ġ":1466,"xian1Ġ":1467,"duan4Ġ":1468,"xu1Ġ":1469,"huang2Ġ":1470,"ke4Ġ":1471,"0Ġ":1472,"ying2Ġ":1473,"tiao2Ġ":1474,"biao1Ġ":1475,"ĠdeĠyi1Ġ":1476,"qian1Ġ":1477,"eĠĠĠ":1478,"zhan3Ġ":1479,"xian4Ġ":1480,"mo2Ġ":1481,"u2Ġ":1482,"Ġcheng2Ġwei2Ġ":1483,"ban3Ġ":1484,"mei2Ġyou3Ġ":1485,"ou1Ġ":1486,"xiao1Ġ":1487,"hong2Ġ":1488,"sĠ":1489,"han4Ġ":1490,"wei3Ġyuan2Ġ":1491,"ling2Ġ":1492,"kai1Ġshi3Ġ":1493,"su1Ġ":1494,"zhuang1Ġ":1495,"Ġtong2Ġ":1496,"meng2Ġ":1497,"ju2Ġ":1498,"hui2Ġ":1499,"cun1Ġ":1500,"6Ġ":1501,"kong1Ġ":1502,"Ġqi2Ġzhong1Ġ":1503,"ren2Ġkou3Ġ":1504,"yu4Ġ":1505,"bao1Ġkuo4Ġ":1506,"fang2Ġ":1507,"Ġgong1Ġsi1Ġ":1508,"dou1Ġ":1509,"ang2Ġ":1510,"ĠdeĠshi4Ġ":1511,"ĠĠĠzai4Ġ":1512,"yin1Ġ":1513,"ao1Ġ":1514,"n1Ġ":1515,"qiang2Ġ":1516,"huo4Ġ":1517,"zhao4Ġ":1518,"zheng4Ġzhi4Ġ":1519,"yi2Ġge4":1520,"du2Ġ":1521,"mo4Ġ":1522,"zi3Ġ":1523,"fa3Ġguo2Ġ":1524,"cai3Ġ":1525,"bing1Ġ":1526,"xin4Ġ":1527,"Ġda4Ġxue2Ġ":1528,"Ġshi4Ġyi1Ġ":1529,"qin1Ġ":1530,"Ġta1ĠdeĠ":1531,"hai2Ġ":1532,"chu4Ġ":1533,"Ġ201":1534,"lun4Ġ":1535,"zhen1Ġ":1536,"wan4Ġ":1537,"hu2Ġ":1538,"fan4Ġ":1539,"xing2Ġ":1540,"wen4Ġ":1541,"ou4Ġ":1542,"man4Ġ":1543,"guang1Ġ":1544,"ju1Ġ":1545,"xun4Ġ":1546,"biao3Ġshi4Ġ":1547,"sĠĠĠ":1548,"she4Ġ":1549,"zhong1ĠdeĠ":1550,"Ġgao1Ġ":1551,"zhuan1Ġ":1552,"wan2Ġ":1553,"can1Ġ":1554,"da3Ġ":1555,"zong1Ġ":1556,"bai2Ġ":1557,"dian4Ġshi4Ġ":1558,"yin4Ġ":1559,"diao4Ġ":1560,"ming4Ġ":1561,"Ġshi4Ġwei4Ġ":1562,"shi4ĠdeĠ":1563,"8Ġ":1564,"pian4Ġ":1565,"fei4Ġ":1566,"zhuan3Ġ":1567,"en3Ġ":1568,"tuo1Ġ":1569,"ju3Ġ":1570,"xiu1Ġ":1571,"han2Ġ":1572,"7Ġ":1573,"xie2Ġ":1574,"gu4Ġ":1575,"Ġbu4Ġfen4Ġ":1576,"Ġren2Ġkou3Ġ":1577,"guo3Ġ":1578,"ĠĠĠ201":1579,"ta1Ġ":1580,"Ġhe2Ġguo2Ġ":1581,"zhong1Ġguo2Ġ":1582,"dang1Ġ":1583,"10Ġyue4Ġ":1584,"Ġã":1585,"ou2Ġ":1586,"e1Ġ":1587,"zao4Ġ":1588,"12Ġyue4Ġ":1589,"7Ġyue4Ġ":1590,"wu1Ġ":1591,"9Ġyue4Ġ":1592,"Ġdong1Ġ":1593,"Ġmu4Ġ":1594,"mian4Ġji1Ġ":1595,"Ġren2Ġmin2Ġ":1596,"que4Ġ":1597,"8Ġyue4Ġ":1598,"Ġzui4":1599,"di2Ġ":1600,"Ġdi4Ġqu1Ġ":1601,"huan2Ġ":1602,"3Ġyue4Ġ":1603,"Ġhu":1604,"zhu1Ġ":1605,"an2Ġ":1606,"jia3Ġ":1607,"Ġ19":1608,"1Ġyue4Ġ":1609,"du1Ġ":1610,"Ġye3Ġ":1611,"di3Ġ":1612,"Ġjin1Ġ":1613,"shou1Ġ":1614,"ou3Ġ":1615,"ting1Ġ":1616,"5Ġyue4Ġ":1617,"gan3Ġ":1618,"ying1Ġguo2Ġ":1619,"eĠ":1620,"dao4Ġ":1621,"zhuang4Ġ":1622,"ang3Ġ":1623,"Ġci3Ġ":1624,"zheng4Ġshi4Ġ":1625,"huo3Ġ":1626,"zhou1Ġ":1627,"chong2Ġ":1628,"6Ġyue4Ġ":1629,"xia2Ġ":1630,"Ġjiang1Ġ":1631,"geng4Ġ":1632,"yan2Ġjiu1Ġ":1633,"cheng2Ġshi4Ġ":1634,"4Ġyue4Ġ":1635,"Ġguo2Ġjia1Ġ":1636,"yong3Ġ":1637,"ĠĠĠdi4Ġ":1638,"fang4Ġ":1639,"tian2Ġ":1640,"jun1Ġ":1641,"shu3Ġyu2Ġ":1642,"Ġping2Ġfang1":1643,"Ġp":1644,"ji3Ġ":1645,"bie2Ġ":1646,"qun2Ġ":1647,"Ġdi4Ġyi1Ġ":1648,"jiang4Ġ":1649,"aĠ":1650,"gen1Ġ":1651,"hui1Ġ":1652,"n3Ġ":1653,"11Ġyue4Ġ":1654,"i4Ġ":1655,"Ġte4Ġ":1656,"Ġshi4Ġji4Ġ":1657,"Ġping2Ġfang1Ġgong1Ġli3Ġ":1658,"nong2Ġ":1659,"Ġtong2Ġshi2Ġ":1660,"xun2Ġ":1661,"tie3Ġ":1662,"shuang1Ġ":1663,"Ġru2Ġ":1664,"pai4Ġ":1665,"qu4Ġ":1666,"ĠC":1667,"Ġg":1668,"Ġfen1Ġ":1669,"liang2Ġ":1670,"dan1Ġren4Ġ":1671,"u3Ġ":1672,"tao2Ġ":1673,"shao3Ġ":1674,"ta3Ġ":1675,"er3Ġ":1676,"Ġye3":1677,"ang4Ġ":1678,"dian4Ġying3Ġ":1679,"tai2Ġwan1Ġ":1680,"jiao3Ġ":1681,"9Ġ":1682,"qiao2Ġ":1683,"bai3Ġ":1684,"en1Ġ":1685,"chu3Ġ":1686,"si3Ġ":1687,"i2Ġ":1688,"ĠdeĠshi2Ġ":1689,"ĠS":1690,"i1Ġ":1691,"Ġzhe4":1692,"gao4Ġ":1693,"yun4Ġdong4":1694,"gen1Ġju4Ġ":1695,"li4Ġshi3Ġ":1696,"pan4Ġ":1697,"yin2Ġ":1698,"Ġl":1699,"Ġ18":1700,"chao1Ġ":1701,"yan4Ġ":1702,"chuang4Ġ":1703,"Ġshi4Ġzhen4Ġ":1704,"can1Ġjia1Ġ":1705,"ao2Ġ":1706,"Ġyin1Ġwei4Ġ":1707,"gang1Ġ":1708,"ĠĠĠS":1709,"bai4Ġ":1710,"guo2ĠdeĠ":1711,"che1Ġzhan4Ġ":1712,"qi1Ġjian1Ġ":1713,"Ġping2Ġfang1Ġ":1714,"Ġs":1715,"li4ĠdeĠ":1716,"zheng4Ġfu3Ġ":1717,"Ġri4Ġben3Ġ":1718,"Ġnian2ĠdeĠ":1719,"gai4Ġ":1720,"bing4Ġ":1721,"wa3Ġ":1722,"wo3Ġ":1723,"zhun3Ġ":1724,"huan4Ġ":1725,"i3Ġ":1726,"ya2Ġ":1727,"gong4Ġhe2Ġguo2Ġ":1728,"Ġxian4ĠdeĠ":1729,"chuan1Ġ":1730,"song4Ġ":1731,"lei2Ġ":1732,"ha1Ġ":1733,"hei1Ġ":1734,"formulaĠ":1735,"ai3Ġ":1736,"qu1ĠdeĠ":1737,"ti2Ġgong1Ġ":1738,"qie3Ġ":1739,"ng3Ġ":1740,"hen3Ġ":1741,"uo2Ġ":1742,"2Ġyue4Ġ":1743,"hua1Ġ":1744,"sui2Ġ":1745,"lei1Ġ":1746,"deng1Ġ":1747,"jing1Ġji4Ġ":1748,"ĠĠĠ200":1749,"huo2Ġ":1750,"Ġh":1751,"Ġzhong1Ġyang1":1752,"kao3Ġ":1753,"Ġguo2Ġji4Ġ":1754,"chu2Ġ":1755,"n4Ġ":1756,"shang4ĠdeĠ":1757,"Ġ199":1758,"tong1Ġguo4Ġ":1759,"ĠA":1760,"Ġyou2Ġyu2Ġ":1761,"wei3Ġyuan2Ġhui4Ġ":1762,"lian4Ġ":1763,"Ġta1ĠmenĠ":1764,"nuo4Ġ":1765,"cheng1Ġwei2Ġ":1766,"Ġtian1Ġ":1767,"Ġshi4Ġjie4Ġ":1768,"Ġbei3Ġ":1769,"Ġyin1Ġci3Ġ":1770,"kuai4Ġ":1771,"mai4Ġ":1772,"zuo3Ġ":1773,"dĠĠĠ":1774,"ming2Ġwei4Ġ":1775,"Ġqian2Ġ":1776,"Ġshi4Ġzai4Ġ":1777,"zhu3Ġyi4Ġ":1778,"sa4Ġ":1779,"tu3Ġ":1780,"Ġzhi1Ġhou4Ġ":1781,"Ġran2Ġ":1782,"Ġ3":1783,"xiang1Ġgang3Ġ":1784,"1Ġri4Ġ":1785,"piao4Ġ":1786,"shi2ĠdeĠ":1787,"a2Ġ":1788,"chi3Ġ":1789,"ĠĠĠ202":1790,"xi4Ġtong3Ġ":1791,"Ġn":1792,"liao4Ġ":1793,"chong1Ġ":1794,"quan2Ġguo2Ġ":1795,"00Ġ":1796,"Ġhai3Ġ":1797,"lu3Ġ":1798,"Ġjie2Ġ":1799,"uo4Ġ":1800,"pei4Ġ":1801,"po4Ġ":1802,"xuan1Ġ":1803,"xu3Ġ":1804,"lu2Ġ":1805,"ri4Ġ":1806,"Ġxing2ĠdeĠ":1807,"ren2ĠdeĠ":1808,"suo3Ġyou3Ġ":1809,"kuang4Ġ":1810,"Ġdang1Ġ":1811,"zeng1Ġ":1812,"menĠ":1813,"guan3Ġli3Ġ":1814,"qiu2Ġ":1815,"Ġzhi1Ġyi1Ġ":1816,"heng2Ġ":1817,"ĠM":1818,"ai2Ġ":1819,"pi1Ġ":1820,"Ġgong1Ġzuo4Ġ":1821,"sui4Ġ":1822,"sen1Ġ":1823,"yang4Ġ":1824,"da4ĠdeĠ":1825,"di1Ġ":1826,"xuan1Ġbu4Ġ":1827,"Ġzhong1Ġxin1Ġ":1828,"liu4Ġ":1829,"zao3Ġ":1830,"Ġma3Ġ":1831,"Ġjing1Ġ":1832,"de2Ġ":1833,"wang4Ġ":1834,"chang4Ġ":1835,"bu4ĠdeĠ":1836,"jin4Ġxing2Ġ":1837,"uo1Ġ":1838,"Ġ4":1839,"he4Ġ":1840,"fa1Ġxian4Ġ":1841,"Ġta1Ġzai4Ġ":1842,"qian1Ġmi3Ġ":1843,"CĠ":1844,"dun4Ġ":1845,"ying3Ġxiang3Ġ":1846,"bu3Ġ":1847,"er2Ġ":1848,"zu3Ġzhi1Ġ":1849,"ĠĠĠsheng1Ġ":1850,"yang3Ġ":1851,"2020Ġnian2Ġ":1852,"luo2Ġsi1Ġ":1853,"sai1Ġ":1854,"Ġbao1Ġkuo4Ġ":1855,"Ġshi4Ġjie4":1856,"cheng2ĠdeĠ":1857,"tĠĠĠ":1858,"xian2Ġ":1859,"ke3Ġneng2":1860,"pi2Ġ":1861,"nian4Ġ":1862,"Ġshi3Ġ":1863,"Ġjin4Ġxing2Ġ":1864,"bang1Ġ":1865,"Ġzui4Ġ":1866,"Ġcheng2Ġli4Ġ":1867,"Ġdeng3Ġ":1868,"lao3Ġ":1869,"bei1Ġ":1870,"le4Ġ":1871,"Ġ198":1872,"Ġren4Ġwei2Ġ":1873,"Ġgai1":1874,"you1Ġ":1875,"eng2Ġ":1876,"jun4Ġ":1877,"aĠĠĠ":1878,"wen2Ġhua4Ġ":1879,"hao3Ġ":1880,"fa1Ġzhan3Ġ":1881,"ke1Ġxue2Ġ":1882,"Ġk":1883,"liao2Ġ":1884,"huo2Ġdong4Ġ":1885,"Ġzuo4Ġwei2Ġ":1886,"ku4Ġ":1887,"Ġping2Ġfang1Ġqian1Ġmi3Ġ":1888,"ge4Ġ":1889,"qi2Ġta1Ġ":1890,"Ġf":1891,"hua2Ġren2Ġmin2Ġ":1892,"tan2Ġ":1893,"ri4Ġben3Ġ":1894,"ĠT":1895,"hui4Ġyi4Ġ":1896,"miao2Ġ":1897,"yĠĠĠ":1898,"Ġa1Ġ":1899,"jian1ĠdeĠ":1900,"tie3Ġlu4Ġ":1901,"Ġshou3Ġ":1902,"ĠdeĠren2Ġ":1903,"bi3Ġsai4Ġ":1904,"rui4Ġ":1905,"ning2Ġ":1906,"lou2Ġ":1907,"yong4Ġyu2Ġ":1908,"Ġ202":1909,"zheng3Ġ":1910,"2010Ġnian2Ġ":1911,"ĠdeĠgong1Ġ":1912,"Ġshi2Ġjian1Ġ":1913,"xian3Ġ":1914,"mian3Ġ":1915,"ui4Ġ":1916,"ĠI":1917,"ran2Ġ":1918,"re4Ġ":1919,"mian4Ġji1":1920,"AĠ":1921,"ya3":1922,"min2Ġguo2Ġ":1923,"wu1Ġke4Ġ":1924,"ĠB":1925,"gong4Ġyou3Ġ":1926,"ĠĠĠli4Ġshi3Ġ":1927,"Ġch":1928,"yuan3Ġ":1929,"zhu3Ġyao4Ġ":1930,"dou4Ġ":1931,"geĠ":1932,"wen4Ġti2Ġ":1933,"ĠĠĠsheng1Ġping2Ġ":1934,"hua2Ġren2Ġmin2Ġgong4Ġhe2Ġguo2Ġ":1935,"fang1Ġshi4Ġ":1936,"Ġqing1Ġ":1937,"cun2Ġ":1938,"Ġ5":1939,"guan4Ġjun1Ġ":1940,"Ġdi4Ġer4Ġ":1941,"ke3Ġneng2Ġ":1942,"di4ĠdeĠ":1943,"10Ġ":1944,"u1Ġ":1945,"dao3Ġzhi4Ġ":1946,"Ġfu2Ġ":1947,"guan1Ġxi4Ġ":1948,"yĠ":1949,"Ġmei3":1950,"ĠP":1951,"fen1Ġbu4Ġ":1952,"Ġgong1Ġcheng2Ġ":1953,"wan2Ġcheng2Ġ":1954,"dan1Ġwei4Ġ":1955,"dai4Ġbiao3Ġ":1956,"ya1Ġ":1957,"yi1Ġwei4Ġ":1958,"Ġhuo4Ġde2Ġ":1959,"tui1Ġ":1960,"Ġbu4Ġfen4":1961,"Ġwu2Ġ":1962,"Ġyou4Ġ":1963,"ĠĠĠC":1964,"Ġ15":1965,"am":1966,"zhi4ĠdeĠ":1967,"Ġcheng2Ġyuan2Ġ":1968,"2016Ġnian2Ġ":1969,"dĠ":1970,"ĠdeĠcheng2Ġ":1971,"Ġ194":1972,"zhang4Ġ":1973,"gan1Ġ":1974,"kai1Ġshi3":1975,"2019Ġnian2Ġ":1976,"lv3Ġ":1977,"jiao4Ġyu4Ġ":1978,"yuan2ĠdeĠ":1979,"yong1Ġyou3Ġ":1980,"cun2Ġzai4Ġ":1981,"Ġzhi2":1982,"er4Ġshi2Ġ":1983,"ĠĠĠM":1984,"Ġ6":1985,"eng1Ġ":1986,"bei3Ġbu4Ġ":1987,"lian2Ġhe2Ġ":1988,"bin1Ġ":1989,"you2Ġyu2Ġ":1990,"yun2Ġ":1991,"hou4ĠdeĠ":1992,"Ġcong2Ġ":1993,"Ġjian4Ġzhu4Ġ":1994,"Ġshi4Ġzhong1Ġ":1995,"pian1Ġ":1996,"xuan2Ġ":1997,"guo2Ġjia1Ġ":1998,"dui4Ġyu2Ġ":1999,"niu3Ġ":2000,"yi4ĠdeĠ":2001,"ĠleĠyi1Ġ":2002,"ju4Ġyou3Ġ":2003,"xiu4Ġ":2004,"shao4Ġ":2005,"zheng4Ġfu3":2006,"ĠD":2007,"shen3Ġ":2008,"xie4Ġ":2009,"Ġbing4Ġzai4Ġ":2010,"kang1Ġ":2011,"xin1ĠdeĠ":2012,"si1ĠdeĠ":2013,"gui4Ġ":2014,"gei3Ġ":2015,"shi3Ġyong4":2016,"e2Ġluo2Ġsi1Ġ":2017,"yin4Ġdu4Ġ":2018,"fu2Ġwu4Ġ":2019,"wan3Ġ":2020,"tu1Ġ":2021,"Ġdan4Ġshi4Ġ":2022,"ren4Ġhe2Ġ":2023,"sheng1Ġyu2Ġ":2024,"ding1Ġ":2025,"che4Ġ":2026,"xu3Ġduo1Ġ":2027,"rang4Ġ":2028,"Ġsuo3":2029,"Ġmian4Ġji1Ġ":2030,"xing2Ġzheng4Ġ":2031,"liang3Ġge4Ġ":2032,"qing3Ġ":2033,"fa1Ġsheng1Ġ":2034,"Ġzhong1Ġyang1Ġ":2035,"Ġren2Ġkou3Ġmi4Ġ":2036,"huo4Ġde2Ġ":2037,"Ġjin3Ġ":2038,"Ġ16":2039,"zi4Ġji3":2040,"ĠdeĠyi2Ġge4Ġ":2041,"nan2Ġbu4Ġ":2042,"man3Ġ":2043,"zhuan1Ġji2Ġ":2044,"mian4Ġji1Ġwei4Ġ":2045,"Ġb":2046,"bao3Ġhu4Ġ":2047,"Ġdao4ĠleĠ":2048,"yun4Ġdong4Ġ":2049,"Ġdang1Ġshi2Ġ":2050,"Ġmei3Ġguo2Ġ":2051,"Ġqi2Ġta1Ġ":2052,"lai2ĠdeĠ":2053,"Ġling4Ġ":2054,"Ġzheng4Ġfu3Ġ":2055,"Ġxiang4Ġ":2056,"Ġtong2Ġnian2Ġ":2057,"xie3Ġ":2058,"eng4Ġ":2059,"ruo4Ġ":2060,"wen1Ġ":2061,"Ġchu1ĠdeĠ":2062,"du2Ġli4Ġ":2063,"jue2Ġding4Ġ":2064,"zhu3Ġyao4":2065,"Ġshe4Ġji4Ġ":2066,"fan1Ġ":2067,"mao2Ġ":2068,"Ġshi3":2069,"Ġli4Ġshi3Ġ":2070,"Ġ195":2071,"suan4Ġ":2072,"Ġlian2Ġ":2073,"Ġying1Ġ":2074,"el":2075,"ming2ĠdeĠ":2076,"Ġluo2Ġ":2077,"geng1Ġ":2078,"Ġzong3Ġ":2079,"qin2Ġ":2080,"can1Ġyu4Ġ":2081,"hai4Ġ":2082,"tan4Ġ":2083,"fa1Ġxing2Ġ":2084,"Ġshi4Ġwei4Ġyu2Ġ":2085,"jiu4Ġshi4Ġ":2086,"fang1Ġmian4Ġ":2087,"Ġyou3Ġyi1Ġ":2088,"Ġyu2Ġ201":2089,"Ġzhi3":2090,"shu4Ġju4Ġ":2091,"ĠgtĠ":2092,"kan4Ġ":2093,"zhi2Ġwu4Ġ":2094,"Ġ197":2095,"kan1Ġ":2096,"ac":2097,"fang3Ġ":2098,"ren4Ġwei2Ġ":2099,"tion":2100,"shan4Ġ":2101,"Ġci3":2102,"pei2Ġ":2103,"xiang1Ġgang3":2104,"ĠĠĠA":2105,"Ġ7":2106,"Ġshi4Ġdi4Ġ":2107,"hu1Ġ":2108,"tui4Ġ":2109,"ĠltĠ":2110,"yi4Ġwei4Ġ":2111,"gu4Ġshi4Ġ":2112,"Ġba1Ġ":2113,"Ġxian4Ġzai4Ġ":2114,"fa1Ġzhan3":2115,"she4Ġhui4Ġ":2116,"Ġxing2Ġzheng4Ġ":2117,"qu1Ġwei4Ġ":2118,"feng4Ġ":2119,"wan1Ġ":2120,"qiang1Ġ":2121,"lang3Ġ":2122,"TĠ":2123,"zheĠ":2124,"ju3Ġxing2Ġ":2125,"Ġshi4Ġshi4Ġ":2126,"duan3Ġ":2127,"Ġli4Ġru2Ġ":2128,"lie4Ġche1Ġ":2129,"erĠ":2130,"Ġzui4Ġzhong1Ġ":2131,"nei4ĠdeĠ":2132,"shou4Ġdao4Ġ":2133,"ĠE":2134,"e3Ġ":2135,"shu3ĠdeĠ":2136,"xiao3Ġshi2Ġ":2137,"suan1Ġ":2138,"zu2Ġqiu2Ġ":2139,"lang2Ġ":2140,"dian4Ġying3":2141,"Ġyu2Ġ200":2142,"Ġbu4Ġtong2":2143,"hua4ĠdeĠ":2144,"sun1Ġ":2145,"xu1Ġyao4Ġ":2146,"kong4Ġ":2147,"song1Ġ":2148,"ren2Ġshi4Ġ":2149,"pao4Ġ":2150,"lai2Ġzi4Ġ":2151,"zuo4ĠdeĠ":2152,"Ġ8":2153,"zeng1Ġjia1Ġ":2154,"Ġji4Ġhua4Ġ":2155,"min2Ġzhu3Ġ":2156,"tan3Ġ":2157,"zuo4Ġwei2Ġ":2158,"Ġshi2Ġqi1Ġ":2159,"mao4Ġ":2160,"dan4Ġ":2161,"ĠĠĠP":2162,"Ġzhi3Ġ":2163,"kong4Ġzhi4Ġ":2164,"xiang2Ġ":2165,"Ġshi4Ġjian4Ġ":2166,"Ġjian4ĠdeĠ":2167,"xiong2Ġ":2168,"Ġyin1Ġyue4Ġ":2169,"Ġsui1":2170,"Ġtong1Ġ":2171,"Ġran2Ġer2Ġ":2172,"ol":2173,"yao2Ġ":2174,"ĠH":2175,"zuo4Ġpin3Ġ":2176,"Ġzai4Ġdi4Ġ":2177,"ren2Ġmin2Ġ":2178,"Ġren2Ġyuan2Ġ":2179,"xue2Ġyuan4Ġ":2180,"ta1ĠdeĠ":2181,"ba3Ġ":2182,"SĠ":2183,"xi4Ġtong3":2184,"zu3Ġcheng2Ġ":2185,"Ġyi3Ġjing1Ġ":2186,"Ġceng2Ġ":2187,"Ġ17":2188,"yin1Ġyue4Ġ":2189,"zai3Ġ":2190,"rĠ":2191,"a1Ġer3Ġ":2192,"Ġhe2Ġzuo4Ġ":2193,"chao1Ġguo4Ġ":2194,"Ġmei3Ġ":2195,"zong3Ġtong3Ġ":2196,"kuan3Ġ":2197,"hui4ĠdeĠ":2198,"Ġjian4Ġyu2Ġ":2199,"ji4ĠdeĠ":2200,"ye2Ġ":2201,"Ġshu3Ġyu2Ġ":2202,"Ġhou4Ġlai2Ġ":2203,"Ġzhang1Ġ":2204,"Ġsan1Ġ":2205,"ĠL":2206,"yu2Ġshi4Ġ":2207,"qiu1Ġ":2208,"Ġ196":2209,"Ġli4Ġya4Ġ":2210,"Ġcheng2Ġgong1Ġ":2211,"fa1Ġbu4Ġ":2212,"yao1Ġqiu2Ġ":2213,"da4Ġli4Ġ":2214,"Ġquan2Ġ":2215,"Ġzhe4Ġxie1Ġ":2216,"Ġ000":2217,"Ġyi4Ġyuan2Ġ":2218,"ĠR":2219,"Ġshe4Ġyou3Ġ":2220,"ra":2221,"yun4Ġdong4Ġyuan2Ġ":2222,"Ġyin1Ġci3":2223,"Ġwu3Ġ":2224,"han2Ġguo2Ġ":2225,"bu4Ġzai4Ġ":2226,"you3ĠdeĠ":2227,"Ġ9":2228,"ni2Ġya4":2229,"un2Ġ":2230,"zao4Ġcheng2Ġ":2231,"ĠĠĠB":2232,"dang1Ġshi2Ġ":2233,"ou1Ġzhou1Ġ":2234,"zhui1Ġ":2235,"Ġgong1Ġyuan2Ġ":2236,"jie2Ġmu4Ġ":2237,"Ġyou4":2238,"jia1ĠdeĠ":2239,"xing4ĠdeĠ":2240,"sheng1ĠdeĠ":2241,"ĠdeĠyi2Ġge4":2242,"Ġri4Ġzai4Ġ":2243,"xiao3Ġxing2Ġ":2244,"DĠ":2245,"ren2Ġwu4Ġ":2246,"xi4Ġlie4Ġ":2247,"Ġci3Ġwai4Ġ":2248,"gong4Ġchan3Ġ":2249,"mĠ":2250,"chun1Ġ":2251,"ĠzhĠ":2252,"Ġliu2Ġ":2253,"Ġãĥ":2254,"ding3Ġ":2255,"ĠĠĠT":2256,"Ġ1":2257,"20Ġ":2258,"ĠN":2259,"Ġshi4Ġhe2Ġ":2260,"Ġjiang1":2261,"ĠĠĠdeĠ":2262,"ma3Ġwei4Ġ":2263,"zan4Ġ":2264,"lve4Ġ":2265,"ĠG":2266,"ĠdeĠbu4Ġ":2267,"ye3Ġshi4Ġ":2268,"kuan1Ġ":2269,"of":2270,"xue2Ġjia1Ġ":2271,"xue4Ġ":2272,"san1Ġnian2Ġ":2273,"Ġjian3Ġ":2274,"ni3Ġ":2275,"ĠĠĠ199":2276,"fan4Ġwei2Ġ":2277,"Ġceng2":2278,"ĠĠĠ19":2279,"bi3Ġsai4":2280,"qing4Ġ":2281,"Ġbu4Ġtong2Ġ":2282,"Ġwo3Ġ":2283,"ĠdeĠji1Ġ":2284,"you2Ġxi4Ġ":2285,"Ġgen1Ġju4Ġ":2286,"dang4Ġ":2287,"Ġan1Ġ":2288,"Ġxing2Ġcheng2Ġ":2289,"ĠĠĠdi4Ġli3Ġ":2290,"Ġde2Ġguo2Ġ":2291,"zi4Ġzhi4Ġ":2292,"Ġ0":2293,"Ġsui2":2294,"she4Ġji4Ġ":2295,"ĠdeĠji4Ġ":2296,"Ġling4":2297,"shu1Ġji4Ġ":2298,"Ġcong2":2299,"Ġxiao3Ġ":2300,"jue2Ġse4Ġ":2301,"Ġshe4Ġhui4Ġ":2302,"ï¼į":2303,"dou1Ġshi4Ġ":2304,"ĠĠĠshi4Ġ":2305,"dun1Ġ":2306,"yi1Ġnian2Ġ":2307,"Ġ193":2308,"chong2Ġxin1Ġ":2309,"ĠF":2310,"za2":2311,"li3ĠdeĠ":2312,"bu2Ġshi4Ġ":2313,"o2Ġ":2314,"xiong1Ġ":2315,"guan1Ġyu2Ġ":2316,"Ġzhong1Ġhua2Ġ":2317,"sai4Ġshi4Ġ":2318,"ge1Ġqu3Ġ":2319,"Ġsi1Ġte4Ġ":2320,"jiao1Ġtong1Ġ":2321,"zhong4Ġyao4":2322,"Ġyou2Ġxi4Ġ":2323,"da4Ġxue2Ġ":2324,"kai1Ġfa1Ġ":2325,"il":2326,"ji2ĠdeĠ":2327,"wo4Ġ":2328,"ong3Ġ":2329,"pin2Ġ":2330,"duan1Ġ":2331,"qian2Ġwang3Ġ":2332,"Ġjiu4Ġ":2333,"Ġda4Ġxue2":2334,"ping2Ġjun1Ġ":2335,"kĠ":2336,"Ġ1Ġ":2337,"xian3Ġshi4Ġ":2338,"Ġguan1Ġ":2339,"que1Ġ":2340,"er4Ġnian2Ġ":2341,"Ġzhong1Ġhua2Ġren2Ġmin2Ġgong4Ġhe2Ġguo2Ġ":2342,"cao3Ġ":2343,"hou4Ġzai4Ġ":2344,"Ġyan2Ġ":2345,"zhi2Ġye4Ġ":2346,"pa4Ġ":2347,"xia4ĠdeĠ":2348,"yan3Ġyuan2Ġ":2349,"dang1Ġdi4Ġ":2350,"Ġke4Ġsi1Ġ":2351,"zou3Ġ":2352,"fa1Ġxian4":2353,"12Ġ":2354,"Ġjian4Ġli4Ġ":2355,"qu1Ġyu4Ġ":2356,"guan3Ġxia2Ġ":2357,"xuan3Ġju3Ġ":2358,"wei2Ġyi1Ġ":2359,"peng2Ġ":2360,"guo2Ġji4Ġ":2361,"dui4ĠdeĠ":2362,"zai1Ġ":2363,"bo2Ġwu4Ġ":2364,"Ġ10":2365,"Ġdi4Ġguo2Ġ":2366,"qian3Ġ":2367,"po1Ġ":2368,"30Ġ":2369,"cai3Ġyong4Ġ":2370,"qi1ĠdeĠ":2371,"fan3Ġdui4Ġ":2372,"Ġdai4Ġbiao3Ġ":2373,"wu4ĠdeĠ":2374,"qie4Ġ":2375,"kong3Ġ":2376,"zu3Ġzhi1":2377,"Ġxiang1Ġgang3Ġ":2378,"qu4Ġshi4Ġ":2379,"Ġwei4ĠleĠ":2380,"niu2Ġ":2381,"yi1Ġbu4Ġfen4Ġ":2382,"chu2ĠleĠ":2383,"Ġ14":2384,"Ġãģ":2385,"ba2Ġgao1Ġ":2386,"pai1":2387,"Ġliang3":2388,"zhao1Ġ":2389,"shi2Ġnian2Ġ":2390,"xiang4Ġmu4Ġ":2391,"yi1Ġbu4Ġ":2392,"zui4Ġzhong1Ġ":2393,"du4Ġwei4Ġ":2394,"hun1Ġ":2395,"Ġhuo4Ġde2":2396,"ni2Ġya4Ġ":2397,"zheng4Ġzhi4Ġren2Ġwu4Ġ":2398,"ĠJ":2399,"miao4Ġ":2400,"ruan3Ġ":2401,"ĠãĤ":2402,"fa2Ġ":2403,"yin1Ġwei4Ġ":2404,"hai2Ġyou3Ġ":2405,"ĠĠĠren2Ġkou3Ġ":2406,"jiao4Ġshou4Ġ":2407,"cha1Ġ":2408,"xi3Ġ":2409,"ya3Ġ":2410,"ĠĠĠL":2411,"sun3Ġ":2412,"0Ġnian2Ġdai4Ġ":2413,"Ġta1Ġshi4Ġ":2414,"kuo4Ġ":2415,"de2Ġguo2Ġ":2416,"Ġzhi4Ġzuo4Ġ":2417,"zhong4Ġyao4Ġ":2418,"nĠ":2419,"dai4Ġbiao3":2420,"ti3Ġyu4Ġ":2421,"Ġdang1Ġdi4Ġ":2422,"Ġxing2Ġshi4Ġ":2423,"Ġbu4Ġdui4Ġ":2424,"Ġye3Ġshi4Ġ":2425,"ding4ĠdeĠ":2426,"ow":2427,"kang4Ġ":2428,"Ġliang3Ġ":2429,"zun1Ġ":2430,"jie1Ġr":2431,"ba1Ġshi4Ġ":2432,"jie1Ġshou4Ġ":2433,"ran3Ġ":2434,"oĠ":2435,"ĠdeĠyuan2Ġ":2436,"Ġke3Ġ":2437,"Ġjun1Ġshi4Ġ":2438,"Ġsuo3Ġ":2439,"diao4Ġcha2Ġ":2440,"Ġzhi1Ġjian1Ġ":2441,"jiao4Ġyu4":2442,"bian1Ġma3Ġwei4Ġ":2443,"dai4ĠdeĠ":2444,"jie2Ġgou4Ġ":2445,"lian2Ġmeng2Ġ":2446,"guan4Ġ":2447,"nv3Ġzi3Ġ":2448,"Ġxue2Ġming2Ġ":2449,"zhu3Ġxi2Ġ":2450,"cuo4Ġ":2451,"Ġbi4Ġ":2452,"qu3Ġde2Ġ":2453,"niao3Ġ":2454,"Ġyu2Ġ202":2455,"ĠĠĠR":2456,"Ġshou4Ġ":2457,"Ġri4Ġzhi4Ġ":2458,"gai3Ġwei2Ġ":2459,"xue2Ġxiao4Ġ":2460,"Ġwang2Ġ":2461,"zhu3Ġjiao4Ġ":2462,"Ġzai4Ġ200":2463,"zi1Ġliao4Ġ":2464,"Ġge2Ġ":2465,"wen3Ġ":2466,"fo2Ġ":2467,"fen1Ġwei2Ġ":2468,"sheng1Ġhuo2Ġ":2469,"zhuan4Ġ":2470,"ti2Ġchu1Ġ":2471,"zui4Ġgao1Ġ":2472,"gong1Ġshi4Ġ":2473,"Ġzheng4Ġfu3":2474,"Ġren2Ġkou3Ġmi4Ġdu4Ġ":2475,"duo2Ġ":2476,"ying3Ġxiang3":2477,"chu3Ġli3Ġ":2478,"fu4Ġze2Ġ":2479,"Ġma3":2480,"wu2Ġfa3Ġ":2481,"Ġbi3Ġ":2482,"ãĢī":2483,"hai3Ġjun1Ġ":2484,"ãĢĪ":2485,"Ġ2Ġ":2486,"Ġri4Ġben3":2487,"Ġsi4Ġ":2488,"ta":2489,"shu4ĠdeĠ":2490,"die2Ġ":2491,"fang1Ġfa3Ġ":2492,"wu1Ġke4Ġlan2Ġ":2493,"Ġgu3Ġ":2494,"ĠdeĠda4Ġ":2495,"ĠdeĠyi4Ġ":2496,"Ġchang2Ġ":2497,"Ġyou3Ġxian4":2498,"ĠĠĠyu3Ġ":2499,"Ġge4Ġren2Ġ":2500,"11Ġ":2501,"ju1Ġmin2Ġ":2502,"fei1Ġchang2Ġ":2503,"Ġchen2Ġ":2504,"Ġji4Ġshu4Ġ":2505,"lu4ĠdeĠ":2506,"zi4Ġyou2Ġ":2507,"san1Ġshi2Ġ":2508,"biao1Ġzhun3Ġ":2509,"ĠÐ":2510,"lian2Ġsai4Ġ":2511,"ĠĠĠG":2512,"Ġshi4Ġyou2Ġ":2513,"wen2Ġhua4":2514,"wen2Ġxue2Ġ":2515,"zhi2Ġjie1Ġ":2516,"xie2Ġhui4Ġ":2517,"Ġjie2":2518,"shu4Ġliang4":2519,"ke3Ġyi3":2520,"yao1Ġ":2521,"shen4Ġzhi4Ġ":2522,"fen1Ġbu4Ġyu2Ġ":2523,"an4ĠdeĠ":2524,"bi3Ġli4Ġ":2525,"ĠĠĠD":2526,"iĠ":2527,"pĠ":2528,"tong3Ġzhi4Ġ":2529,"Ġzhi1Ġchi2Ġ":2530,"bang3Ġ":2531,"zhu3Ġren4Ġ":2532,"Ġqi1Ġ":2533,"chan3Ġsheng1Ġ":2534,"ĠĠĠben3Ġ":2535,"dong1Ġbu4Ġ":2536,"ĠdeĠyi2Ġge4Ġshi4Ġzhen4Ġ":2537,"Ġzhong1Ġxue2Ġ":2538,"Ġdi4Ġsan1Ġ":2539,"Ġfu2":2540,"gu1Ġ":2541,"gai1Ġguo2Ġ":2542,"hui4Ġzai4Ġ":2543,"Ġgong1Ġsi1":2544,"chi4Ġ":2545,"fan3Ġying4Ġ":2546,"qi2Ġzhong1Ġ":2547,"PĠ":2548,"si4Ġnian2Ġ":2549,"Ġfu4Ġze2Ġ":2550,"yue1Ġhan4Ġ":2551,"wen2Ġwu4Ġ":2552,"Ġdi4Ġshi2Ġ":2553,"ĠĠĠxing2Ġzheng4Ġ":2554,"Ġbing4Ġyu2Ġ":2555,"Ġsh":2556,"et":2557,"Ġbu4Ġguo4Ġ":2558,"qing2Ġkuang4Ġ":2559,"pu2Ġ":2560,"ic":2561,"Ġ2":2562,"zhong1Ġshi4Ġ":2563,"fan2Ġ":2564,"quan2Ġli4Ġ":2565,"nan2ĠziĠ":2566,"an1Ġquan2Ġ":2567,"Ġdao4ĠdeĠ":2568,"Ġsui2Ġ":2569,"zang4Ġ":2570,"neng2Ġli4Ġ":2571,"gong1Ġbu4Ġ":2572,"nv3Ġxing4Ġ":2573,"yan1Ġ":2574,"nei4Ġrong2Ġ":2575,"Ġshi4Ġyi2Ġge4Ġ":2576,"gui3Ġ":2577,"xi1Ġbu4Ġ":2578,"qing2Ġkuang4":2579,"Ġshi1Ġ":2580,"Ġchu1Ġxian4Ġ":2581,"Ġlai2Ġ":2582,"sou1Ġ":2583,"cheng2Ġli4Ġ":2584,"Ġjie1Ġ":2585,"ĠK":2586,"xue2Ġsheng1Ġ":2587,"mian4ĠdeĠ":2588,"Ġjin4Ġru4Ġ":2589,"bei3Ġjing1Ġ":2590,"shuai4Ġ":2591,"Ġzhu3Ġyao4Ġ":2592,"ĠĠĠformulaĠ":2593,"jin3Ġbiao1Ġ":2594,"yi4Ġshi4Ġ":2595,"Ġer3Ġsi1Ġ":2596,"lu4Ġxian4Ġ":2597,"nie4Ġ":2598,"theĠĠĠ":2599,"you3Ġshi2Ġ":2600,"huo2Ġdong4":2601,"Ġyi4Ġhui4Ġ":2602,"mei2Ġti3Ġ":2603,"guang3Ġdong1Ġ":2604,"Ġfa3Ġ":2605,"ĠĠĠH":2606,"ken3Ġ":2607,"âĢĵ":2608,"tong1Ġguo4":2609,"Ġao4Ġ":2610,"ĠĠĠjia1Ġ":2611,"Ġxue2Ġxiao4Ġ":2612,"dong3":2613,"Ġshen1Ġ":2614,"ya4Ġzhou1Ġ":2615,"Ġgai3Ġ":2616,"u4Ġ":2617,"Ġbao3Ġ":2618,"xu3Ġduo1":2619,"Ġshan1Ġ":2620,"Ġpu3Ġ":2621,"dao3ĠdeĠ":2622,"Ġguo2Ġmin2Ġ":2623,"luan4Ġ":2624,"huo4Ġde2":2625,"na2Ġda4Ġ":2626,"tai4Ġping2Ġ":2627,"mei3Ġyuan2Ġ":2628,"pi3":2629,"fa1Ġsheng1":2630,"Ġka3Ġ":2631,"ĠĠĠ198":2632,"di4Ġwei4Ġ":2633,"quan2Ġbu4Ġ":2634,"shun4Ġ":2635,"ba2Ġgao1Ġdu4Ġ":2636,"Ġhuang2Ġ":2637,"Ġzhe4Ġshi4Ġ":2638,"li3Ġshi4Ġ":2639,"Ġbing4Ġqie3Ġ":2640,"zhi3Ġyou3Ġ":2641,"at":2642,"qing1Ġnian2Ġ":2643,"Ġsuo3Ġyi3Ġ":2644,"zhe3ĠdeĠ":2645,"shou3Ġci4Ġ":2646,"ban3Ġben3Ġ":2647,"Ġxi1Ġya4Ġ":2648,"zhu2Ġjian4Ġ":2649,"bing3Ġ":2650,"ĠĠĠI":2651,"ri4Ġben3":2652,"jian4Ġzhu4Ġ":2653,"chou2Ġ":2654,"Ġbing4Ġqie3":2655,"wu1Ġke4Ġlan2":2656,"la1Ġsi1Ġ":2657,"mie4Ġ":2658,"yi1Ġshi4Ġ":2659,"Ġqi2Ġshi4Ġ":2660,"ĠĠĠgen1Ġju4Ġ":2661,"Ġcheng2Ġwei2":2662,"Ġna4Ġ":2663,"dan1Ġqu1Ġ":2664,"mo2Ġshi4Ġ":2665,"zi4Ġji3ĠdeĠ":2666,"ĠĠĠF":2667,"ba4Ġ":2668,"jiang1Ġjun1Ġ":2669,"hao2Ġ":2670,"Ġta1ĠmenĠdeĠ":2671,"xue3Ġ":2672,"hang2Ġkong1Ġ":2673,"ting3Ġ":2674,"Ġzhou1ĠdeĠ":2675,"da2Ġdao4Ġ":2676,"âĢ¦":2677,"na2Ġ":2678,"Ġla1Ġ":2679,"wu3Ġnian2Ġ":2680,"Ġzhe4ĠgeĠ":2681,"ĠĠĠ18":2682,"Ġlin2Ġ":2683,"deng3Ġren2Ġ":2684,"zhe4Ġyi1Ġ":2685,"om":2686,"Ġqi2Ġyu2Ġ":2687,"ĠW":2688,"ze2Ġshi4Ġ":2689,"Ġqiu2Ġdui4Ġ":2690,"Ġyi4Ġshu4Ġ":2691,"Ġtai4Ġ":2692,"28Ġri4Ġ":2693,"zhi3Ġchu1Ġ":2694,"Ġfeng1Ġ":2695,"ren2Ġkou3Ġpu3Ġ":2696,"tong2Ġshi2Ġ":2697,"ge2Ġlan2Ġ":2698,"yun3Ġ":2699,"huai2Ġ":2700,"gai1Ġdi4Ġ":2701,"min2Ġzu2Ġ":2702,"Ġzai4Ġ201":2703,"chuang4Ġzuo4Ġ":2704,"xia4Ġji4Ġ":2705,"Ġzong3":2706,"ren4Ġwei2":2707,"Ġyu2Ġshi4Ġ":2708,"Ġzhi1Ġjian1ĠdeĠ":2709,"meĠ":2710,"Ġli4Ġya4":2711,"che1Ġzhan4":2712,"UT":2713,"zhi2Ġxing2Ġ":2714,"Ġba1":2715,"..":2716,"chang1Ġ":2717,"le4Ġbu4Ġ":2718,"Ġao4":2719,"ĠÃ":2720,"Ġai4Ġ":2721,"Ġhao4Ġ":2722,"Ġdang1Ġzhong1Ġ":2723,"jing4Ġnei4Ġ":2724,"Ġze2Ġ":2725,"ti3ĠdeĠ":2726,"gong4Ġtong2Ġ":2727,"ec":2728,"Ġzhu3Ġyao4":2729,"zhan4Ġzheng1Ġ":2730,"Ġ13":2731,"yan3Ġchu1Ġ":2732,"Ġshi4Ġwu4Ġ":2733,"tou4Ġ":2734,"IĠ":2735,"huan2Ġjing4Ġ":2736,"zhu2Ġ":2737,"jin4Ġru4Ġ":2738,"Ġzhang3Ġ":2739,"sai4Ġji4Ġ":2740,"nao3Ġ":2741,"Ġxin1":2742,"Ġling4Ġwai4Ġ":2743,"duo2":2744,"Ġkai1Ġ":2745,"dan1Ġren4":2746,"yuan2Ġnian2Ġ":2747,"ĠĠĠnian2":2748,"15Ġri4Ġ":2749,"shang1Ġye4Ġ":2750,"fen1Ġzhong1Ġ":2751,"qi3Ġye4Ġ":2752,"guan1ĠdeĠ":2753,"Ġ5Ġ":2754,"Ġxing2ĠleĠ":2755,"ĠĠĠzhe4Ġ":2756,"ĠĠĠ194":2757,"ji1ĠdeĠ":2758,"qian2ĠdeĠ":2759,"Ġgong1Ġkai1Ġ":2760,"liang4ĠdeĠ":2761,"yin2Ġhang2Ġ":2762,"Ġsu1Ġ":2763,"gao1ĠdeĠ":2764,"bo2Ġshi4Ġ":2765,"du4ĠdeĠ":2766,"Ġchu1ĠleĠ":2767,"40":2768,"Ġwei4Ġren2Ġ":2769,"bei3Ġjing1":2770,"chuan2Ġtong3Ġ":2771,"xiang1Ġguan1Ġ":2772,"quan2Ġqiu2Ġ":2773,"Ġji4Ġlu4Ġ":2774,"wan2Ġquan2Ġ":2775,"Ġji1Ġgou4Ġ":2776,"Ġdi4Ġer4":2777,"kai3Ġ":2778,"jie1Ġdao4Ġ":2779,"Ġke3Ġyi3Ġ":2780,"Ġwei4Ġzhi4Ġ":2781,"Ġsheng4Ġ":2782,"deng3Ġdi4Ġ":2783,"can1Ġyu4":2784,"tuan2Ġti3Ġ":2785,"fen1Ġbie2":2786,"re4Ġdai4Ġ":2787,"lin2Ġpi3":2788,"Ġgong1Ġlu4Ġ":2789,"cheng2Ġzhong1Ġ":2790,"zui4Ġhou4Ġ":2791,"ren2Ġzai4Ġ":2792,"Ġshi2Ġji4Ġ":2793,"bao4Ġgao4Ġ":2794,"xuan3Ġze2Ġ":2795,"Ġdan4Ġzai4Ġ":2796,"Ġda4Ġli4Ġ":2797,"onĠ":2798,"zui4Ġjia1Ġ":2799,"yun4Ġdong4Ġhui4Ġ":2800,"zi4Ġji3Ġ":2801,"RĠ":2802,"san1Ġge4Ġ":2803,"Ġbao1Ġkuo4":2804,"xue2Ġwei4Ġ":2805,"ĠĠĠju4Ġ":2806,"Ġhong2Ġ":2807,"jun1Ġshi4Ġ":2808,"21Ġ":2809,"tu3Ġdi4Ġ":2810,"Ġshi4Ġyi1Ġzhong3Ġ":2811,"xi4ĠdeĠ":2812,"Ġyi1Ġxie1Ġ":2813,"ong4Ġ":2814,"25Ġri4Ġ":2815,"Ġ2001Ġnian2Ġ":2816,"EĠ":2817,"min3Ġ":2818,"Ġwei4Ġdi4Ġ":2819,"ling3Ġdao3Ġ":2820,"ming4Ġming2Ġ":2821,"Ġdi4Ġfang1Ġ":2822,"shui4Ġ":2823,"jing1Ġli4Ġ":2824,"Ġjun1ĠdeĠ":2825,"zang4":2826,"sheng3ĠdeĠyi2Ġge4Ġshi4Ġzhen4Ġ":2827,"Ġjin1":2828,"juan3Ġ":2829,"gui3Ġdao4Ġ":2830,"Ġzhi1Ġqian2Ġ":2831,"oĠĠĠ":2832,"Ġshi4Ġwei4Ġyu2Ġmei3Ġguo2Ġ":2833,"zong1Ġjiao4Ġ":2834,"Ġzhong1Ġhua2Ġmin2Ġguo2Ġ":2835,"wei4ĠdeĠ":2836,"Ġge4Ġyue4Ġ":2837,"si3Ġwang2Ġ":2838,"Ġzai4Ġyi1Ġ":2839,"30Ġri4Ġ":2840,"bo1Ġchu1Ġ":2841,"Ġer4Ġ":2842,"VĠ":2843,"san4Ġ":2844,"ĠdeĠhe2Ġ":2845,"lao2Ġ":2846,"Ġhai3Ġba2Ġgao1Ġdu4Ġ":2847,"Ġmu4Ġqian2Ġ":2848,"Ġjian1Ġ":2849,"jie2Ġshu4Ġ":2850,"Ġyou3Ġguan1Ġ":2851,"20Ġri4Ġ":2852,"Ġji4Ġxu4Ġ":2853,"Ġzhi2Ġ":2854,"Ġhou4Ġlai2":2855,"Ġxing2Ġdong4Ġ":2856,"ter":2857,"po1":2858,"ĠĠĠwei4Ġ":2859,"shang4Ġwei4Ġ":2860,"ao4Ġlin2Ġpi3":2861,"shui3Ġyu4Ġ":2862,"Ġ3Ġ":2863,"gan4Ġ":2864,"ti4Ġ":2865,"bian4Ġhua4Ġ":2866,"Ġke1Ġ":2867,"Ġbo1Ġ":2868,"zhi1Ġyi1Ġ":2869,"ji2Ġzhong1Ġ":2870,"Ġshi2Ġdai4Ġ":2871,"fa1Ġbiao3":2872,"UTCĠ":2873,"gong4Ġhe2Ġ":2874,"ge2Ġming4Ġ":2875,"diao1Ġ":2876,"zhi1Ġchi2Ġ":2877,"ji1Ġyu2Ġ":2878,"chu3Ġyu2Ġ":2879,"Ġji2Ġtuan2":2880,"anĠ":2881,"guo4Ġcheng2Ġ":2882,"Ġbu4Ġzhang3Ġ":2883,"tai2Ġbei3":2884,"ge1Ġshou3Ġ":2885,"10Ġri4Ġ":2886,"yong4ĠdeĠ":2887,"zu1Ġ":2888,"xiao3Ġshuo1Ġ":2889,"kong1Ġjian1Ġ":2890,"wu4Ġzhong3Ġ":2891,"Ġzi4Ġji3":2892,"a1Ġla1Ġ":2893,"Ġyu2Ġ199":2894,"Ġhai2Ġ":2895,"bu2Ġhui4Ġ":2896,"Ġji2Ġtuan2Ġ":2897,"ĠĠĠgai1Ġ":2898,"nei4Ġbu4Ġ":2899,"xin1Ġwen2Ġ":2900,"Ġer2Ġzai4Ġ":2901,"Ġsha1Ġ":2902,"gen1Ġju4":2903,"Ġyi4Ġzhi2Ġ":2904,"jie3Ġfang4":2905,"BĠ":2906,"Ġzhou1Ġshi4Ġ":2907,"Ġde2Ġdao4Ġ":2908,"xi4Ġlie4":2909,"reng2Ġ":2910,"Ġdian4Ġ":2911,"ye4Ġyu2Ġ":2912,"di4Ġqu1Ġ":2913,"ngĠ":2914,"luo2Ġma3Ġ":2915,"lan3Ġ":2916,"zhe4Ġxie1Ġ":2917,"Ġhe2Ġnan2Ġ":2918,"as":2919,"Ġyou3Ġxian4Ġgong1Ġsi1Ġ":2920,"wan2Ġjia1Ġ":2921,"jing1Ġguo4Ġ":2922,"Ġyu3Ġyan2Ġ":2923,"fou3Ġ":2924,"Ġshi4Ġshi2Ġ":2925,"cheng2Ġwei2Ġ":2926,"26Ġri4Ġ":2927,"ao4Ġlin2Ġpi3Ġke4Ġ":2928,"li2Ġkai1Ġ":2929,"Ġzhe4Ġzhong3Ġ":2930,"ĠO":2931,"zi1Ġge2Ġ":2932,"Ġda4Ġhui4Ġ":2933,"Ġzhi2Ġdao4Ġ":2934,"24Ġri4Ġ":2935,"gui1Ġding4Ġ":2936,"duo1ĠdeĠ":2937,"da4Ġlu4Ġ":2938,"za2Ġzhi4Ġ":2939,"zai4ĠdeĠ":2940,"chuan2Ġtong3":2941,"lu4Ġdi4Ġ":2942,"hao2Ġmi3Ġ":2943,"za2Ġ":2944,"he2ĠdeĠ":2945,"ying1Ġyu3Ġ":2946,"fang1ĠdeĠ":2947,"kao4Ġ":2948,"Ġ12":2949,"kun1Ġ":2950,"hou4Ġyi1Ġ":2951,"Ġ6Ġ":2952,"Ġnan2":2953,"dian1Ġ":2954,"pan2Ġ":2955,"fa3Ġlv4Ġ":2956,"deng4":2957,"jie2Ġguo3Ġ":2958,"ĠĠĠyi1Ġ":2959,"Ġcheng2Ġqu1Ġ":2960,"se4ĠdeĠ":2961,"Ġhan4Ġ":2962,"Ġfei1Ġ":2963,"yi1ĠdeĠ":2964,"mou3Ġ":2965,"shang4Ġhai3Ġ":2966,"Ġli3Ġsi1Ġ":2967,"Ġshi4Ġfa3Ġguo2Ġ":2968,"Ġtai2Ġwan1Ġ":2969,"ĠĠĠc":2970,"xuan3Ġju3":2971,"18Ġri4Ġ":2972,"Ġwei4Ġyu2Ġgai1Ġguo2Ġ":2973,"Ġyang2Ġ":2974,"ĠĠĠW":2975,"zhan4ĠdeĠ":2976,"wu4Ġli3Ġ":2977,"60":2978,"shu4Ġwei4Ġ":2979,"zhi3Ġshi4Ġ":2980,"Ġbu4Ġtong2ĠdeĠ":2981,"hun4Ġ":2982,"es":2983,"Ġsui4":2984,"pi1Ġping2Ġ":2985,"Ġwu2":2986,"ta1Ġmen":2987,"kui2Ġ":2988,"Ġshi4Ġjie4Ġda4Ġ":2989,"Ġjiao4Ġ":2990,"shi3ĠdeĠ":2991,"Ġyi4Ġban1Ġ":2992,"sheng3Ġji2Ġ":2993,"la4Ġ":2994,"chun2Ġ":2995,"guan1Ġyuan2Ġ":2996,"chai1Ġ":2997,"zou4Ġ":2998,"po4Ġhu":2999,"fa3Ġyuan4Ġ":3000,"bo2Ġwu4Ġguan3Ġ":3001,"Ġying1Ġguo2Ġ":3002,"wen4Ġti2":3003,"Ġguo2Ġjia1":3004,"Ġjia1Ġru4Ġ":3005,"Ġgu4Ġ":3006,"Ġzhan4Ġzheng1Ġ":3007,"qi2Ġta1":3008,"zhi3Ġhui1Ġ":3009,"ye3Ġyou3Ġ":3010,"jie2Ġshu4":3011,"ĠĠĠE":3012,"Ġzhe4Ġxie1":3013,"Ġmei4":3014,"Ġhu2Ġ":3015,"Ġgong1Ġji1Ġ":3016,"zheng4Ġzai4Ġ":3017,"tong2Ġnian2Ġ":3018,"jiang1Ġqi2Ġ":3019,"ce4Ġshi4Ġ":3020,"suo1Ġ":3021,"tao3Ġ":3022,"chang3ĠdeĠ":3023,"xi1Ġban1Ġ":3024,"0Ġnian2Ġdai4":3025,"Ġwei4Ġzhong1Ġ":3026,"bu4Ġhe2Ġ":3027,"fei1Ġji1Ġ":3028,"Ġzui4Ġhou4Ġ":3029,"it":3030,"zheng1Ġyi4Ġ":3031,"16Ġri4Ġ":3032,"50Ġ":3033,"27Ġri4Ġ":3034,"Ġdi4Ġqu1":3035,"Ġbei4Ġcheng1Ġwei2Ġ":3036,"lai4Ġ":3037,"Ġda4":3038,"Ġyin3Ġ":3039,"Ġsui2Ġhou4Ġ":3040,"Ġ4Ġ":3041,"21Ġri4Ġ":3042,"zhuan1Ġye4Ġ":3043,"yi4Ġshi2Ġ":3044,"xun1Ġ":3045,"17Ġri4Ġ":3046,"Ġsan1":3047,"12Ġri4Ġ":3048,"dong1Ġnan2Ġ":3049,"8Ġri4Ġ":3050,"Ġyi2Ġ":3051,"Ġzhong1Ġxin1":3052,"ding4Ġyi4Ġ":3053,"Ġda4Ġqu1Ġ":3054,"liu4Ġnian2Ġ":3055,"ju3Ġban4":3056,"biao3Ġxian4Ġ":3057,"zong1Ġhe2Ġ":3058,"Ġlei3Ġ":3059,"zui4Ġda4ĠdeĠ":3060,"ji2Ġwei4Ġ":3061,"Ġshi4Ġyi4Ġ":3062,"xue2ĠdeĠ":3063,"e2Ġluo2Ġ":3064,"lian2Ġbang1Ġ":3065,"Ġzhong1Ġgong4":3066,"heĠĠĠ":3067,"Ġqi2Ġta1":3068,"hou2Ġ":3069,"23Ġri4Ġ":3070,"huang2Ġdi4Ġ":3071,"20Ġnian2Ġ":3072,"ou1Ġzhou1":3073,"Ġshi4Ġjian4":3074,"sheng1Ġya2Ġ":3075,"Ġbing4Ġbu4Ġ":3076,"11Ġri4Ġ":3077,"mi2Ġ":3078,"Ġfen1Ġbu4Ġyu2Ġ":3079,"gui1Ġmo2Ġ":3080,"fang1Ġxiang4Ġ":3081,"tong1Ġchang2Ġ":3082,"tui1Ġchu1Ġ":3083,"Ġwei1Ġ":3084,"yong1Ġ":3085,"7Ġri4Ġ":3086,"fen1Ġxi1Ġ":3087,"22Ġri4Ġ":3088,"quan1Ġ":3089,"ĠĠĠN":3090,"29Ġri4Ġ":3091,"xiang4ĠdeĠ":3092,"lian2Ġmeng2":3093,"ĠĠĠyu2Ġ":3094,"ĠdeĠzuo4Ġ":3095,"xu1Ġyao4":3096,"Ġti3Ġ":3097,"hai2Ġshi4Ġ":3098,"Ġsui1Ġran2":3099,"9Ġri4Ġ":3100,"nai4Ġ":3101,"ling4Ġyi1Ġ":3102,"Ġliu2":3103,"ding4Ġwei4Ġ":3104,"Ġli4Ġyong4Ġ":3105,"lĠ":3106,"ĠĠĠci3Ġ":3107,"wan4Ġren2Ġ":3108,"Ġzai4Ġzhe4Ġ":3109,"huan1Ġ":3110,"duo1Ġshu4Ġ":3111,"ĠĠĠzheng4Ġzhi4Ġ":3112,"tong3Ġji4Ġ":3113,"dong1Ġbei3Ġ":3114,"xin4Ġxi1Ġ":3115,"ruan3":3116,"yang4ĠdeĠ":3117,"bao1Ġhan2Ġ":3118,"19Ġri4Ġ":3119,"Ġai4":3120,"gong1ĠdeĠ":3121,"cai3Ġyong4":3122,"5Ġri4Ġ":3123,"cha2ĠdeĠ":3124,"14Ġri4Ġ":3125,"qiong2":3126,"chang2Ġshi4Ġ":3127,"Ġxian4Ġzhi4Ġ":3128,"Ġnei4Ġ":3129,"kai1Ġfa1":3130,"mei3Ġguo2Ġren2Ġkou3Ġpu3Ġ":3131,"3Ġri4Ġ":3132,"zu3Ġhe2Ġ":3133,"zao1Ġdao4Ġ":3134,"Ġyu2Ġ18":3135,"hai3Ġba2":3136,"30Ġnian2Ġ":3137,"lin2Ġshi2Ġ":3138,"niu3Ġyue1":3139,"Ġxian4Ġshi2Ġ":3140,"EE":3141,"wei4Ġshi4Ġ":3142,"100":3143,"dong3Ġshi4Ġ":3144,"ji1Ġdi4Ġ":3145,"qiu2Ġdui4Ġ":3146,"ĠdeĠshi4Ġzhen4Ġ":3147,"6Ġri4Ġ":3148,"Ġzhong1Ġbu4Ġ":3149,"2Ġri4Ġ":3150,"ĠdeĠzhong1Ġ":3151,"Ġke3":3152,"Ġshe4Ġli4Ġ":3153,"ĠĠĠzhong1Ġ":3154,"Ġyu2Ġ19":3155,"Ġyi4Ġda4Ġli4Ġ":3156,"si4Ġshi2Ġ":3157,"ge4Ġren2Ġ":3158,"Ġ190":3159,"4Ġri4Ġ":3160,"31Ġri4Ġ":3161,"she4Ġyou3Ġ":3162,"neng2Ġgou4Ġ":3163,"Ġmou2Ġ":3164,"Ġxue2Ġsheng1Ġ":3165,"tie3Ġlu4":3166,"shen1Ġfen4Ġ":3167,"ru3Ġ":3168,"yuan2Ġhe2Ġ":3169,"Ġyi4Ġban1":3170,"shao1Ġ":3171,"suo3Ġshu3ĠdeĠ":3172,"Ġdi4Ġqu1ĠdeĠ":3173,"au":3174,"guan1Ġfang1Ġ":3175,"sheng1Ġchan3Ġ":3176,"Ġmei2Ġ":3177,"bang1Ġzhu4Ġ":3178,"Ġren2Ġkou3":3179,"Ġru2":3180,"Ġxue2Ġyuan4Ġ":3181,"lie4Ġche1":3182,"ĠĠĠ197":3183,"chao2Ġxian1Ġ":3184,"nan4Ġ":3185,"lian2Ġsai4":3186,"zu2Ġqiu2":3187,"Ġxi1Ġban1Ġ":3188,"zao3Ġqi1Ġ":3189,"13Ġri4Ġ":3190,"xiong1Ġdi4Ġ":3191,"NS":3192,"Ġyue1Ġ":3193,"mu4Ġdi4Ġ":3194,"Ġshi4Ġchang3Ġ":3195,"yuan2Ġyu2Ġ":3196,"Ġbai2Ġ":3197,"Ġ2011Ġnian2Ġ":3198,"fan3Ġying4":3199,"ĠĠĠ195":3200,"su1Ġlian2Ġ":3201,"ĠĠĠyou2Ġyu2Ġ":3202,"Ġwai4Ġ":3203,"Ġdu4Ġ":3204,"shen4Ġ":3205,"eng3Ġ":3206,"qing2Ġkuang4Ġxia4Ġ":3207,"yi2Ġbu4Ġ":3208,"xie2Ġyi4Ġ":3209,"ge2Ġming4":3210,"jue2Ġsai4":3211,"huang2Ġjia1Ġ":3212,"ke1Ġji4Ġ":3213,"Ġtang2Ġ":3214,"bi4Ġye4Ġ":3215,"lo":3216,"rao4Ġ":3217,"Ġgong1Ġzuo4":3218,"Ġlu2Ġ":3219,"ren2Ġhe2Ġ":3220,"Ġyi3Ġjing1":3221,"zheng3Ġge4Ġ":3222,"gou1Ġ":3223,"Ġdao3Ġzhi4Ġ":3224,"miao4":3225,"Ġge1Ġ":3226,"80":3227,"chao1Ġji2Ġ":3228,"mao4Ġyi4Ġ":3229,"Ġzhe4Ġyi1Ġ":3230,"Ġgong1Ġchi3Ġ":3231,"wen2Ġwu4Ġbao3Ġhu4Ġ":3232,"yue4ĠdeĠ":3233,"sang1Ġ":3234,"zhang3ĠdeĠ":3235,"Ġxi1Ġnan2Ġ":3236,"jue2Ġsai4Ġ":3237,"Ġzhu1Ġ":3238,"xi2Ġji1Ġ":3239,"dong4Ġhua4Ġ":3240,"ir":3241,"hang2Ġkong1":3242,"Ġdi4Ġli4Ġ":3243,"li4Ġhe2Ġ":3244,"jie1Ġduan4Ġ":3245,"tu2Ġshu1Ġ":3246,"wu2Ġxian4Ġ":3247,"Ġbo2Ġ":3248,"xian1Ġhou4Ġ":3249,"Ġfen1Ġbie2":3250,"tong3Ġyi1Ġ":3251,"qu1Ġhua4Ġ":3252,"Ġxiang1Ġgang3":3253,"Ġwo3":3254,"jue2Ġding4":3255,"jie2Ġhe2Ġ":3256,"xue2Ġyuan4":3257,"yao1Ġqiu2":3258,"ĠbrĠ":3259,"yan2Ġzhong4Ġ":3260,"pang2Ġ":3261,"Ġquan2":3262,"ci4Ġshi4Ġjie4Ġda4Ġ":3263,"Ġjiu4":3264,"Ġmo2Ġ":3265,"zhan4Ġhou4Ġ":3266,"Ġa1":3267,"shang4Ġshi4Ġ":3268,"Ġru2Ġguo3Ġ":3269,"Ġshuang1Ġ":3270,"qiang3Ġ":3271,"Ġer3Ġsheng3Ġ":3272,"yu3ĠdeĠ":3273,"guang3Ġbo1Ġ":3274,"ren2Ġkou3Ġshu4Ġliang4":3275,"xie2Ġzhu4Ġ":3276,"xun4Ġlian4Ġ":3277,"Ġhe2Ġyi1Ġ":3278,"Ġha1":3279,"rou4Ġ":3280,"Ġzai4Ġci4Ġ":3281,"gong4Ġchan3Ġdang3Ġ":3282,"Ġshui3Ġ":3283,"qi1Ġnian2Ġ":3284,"shao4Ġnian2Ġ":3285,"hua4Ġxue2Ġ":3286,"Ġnv3Ġ":3287,"Ġyi3Ġlai2Ġ":3288,"MĠ":3289,"ĠĠĠ196":3290,"Ġta1Ġceng2":3291,"ĠU":3292,"Ġdan1Ġ":3293,"ju3Ġban4Ġ":3294,"hua4Ġhe2Ġ":3295,"Ġbu4Ġneng2Ġ":3296,"guo2Ġhe2Ġ":3297,"Ġgong4Ġ":3298,"shuai1Ġ":3299,"hao4Ġxian4Ġ":3300,"Ġyi3Ġxia4Ġ":3301,"teng2Ġ":3302,"te4ĠdeĠ":3303,"yan3Ġchang4":3304,"Ġ2009Ġnian2Ġ":3305,"dao3Ġyan3Ġ":3306,"zi4Ġran2Ġ":3307,"xia4Ġxia2":3308,"xi4Ġbao1Ġ":3309,"Ġjing3Ġ":3310,"70":3311,"fa1Ġbiao3Ġ":3312,"wĠ":3313,"Ġmu3Ġ":3314,"Ġdai4Ġbiao3":3315,"Ġ2010Ġnian2Ġ":3316,"ye4ĠdeĠ":3317,"jiao1Ġyi4Ġ":3318,"tiao2Ġjian4Ġ":3319,"zi4Ġxing2Ġ":3320,"bang4":3321,"Ġzuo4Ġpin3Ġ":3322,"andĠĠĠ":3323,"zhu4Ġzai4Ġ":3324,"Ġshi4Ġzhong1Ġguo2Ġ":3325,"qian4Ġ":3326,"Ġren2Ġkou3Ġmi4Ġdu4Ġwei4Ġ":3327,"chi2Ġxu4Ġ":3328,"Ġshi4Ġli4Ġ":3329,"Ġqi2Ġhou4Ġ":3330,"qiu2Ġyuan2Ġ":3331,"Ġsheng1Ġhuo2Ġ":3332,"ĠĠĠbu4Ġ":3333,"zui4Ġda4Ġ":3334,"wai4ĠdeĠ":3335,"zi1Ġyuan2Ġ":3336,"sai1Ġer3Ġ":3337,"pin2Ġdao4Ġ":3338,"Ġmei2Ġyou3Ġ":3339,"you2Ġzheng4Ġ":3340,"Ġhei1Ġ":3341,"ke3Ġda2Ġ":3342,"mo4Ġxi1Ġ":3343,"gai3Ġge2Ġ":3344,"cai4Ġ":3345,"chou2":3346,"Ġqie3Ġ":3347,"chu1Ġxian4Ġ":3348,"Ġbing4Ġwei4Ġ":3349,"cha4Ġ":3350,"Ġyi1Ġyuan4Ġ":3351,"Ġjian4Ġshe4Ġ":3352,"feng1Ġge2Ġ":3353,"nao3":3354,"Ġhua2Ġ":3355,"ĠĠĠtheĠĠĠ":3356,"qi4Ġhou4Ġ":3357,"Ġlei3":3358,"su4Ġdu4Ġ":3359,"mi4Ġshu1Ġ":3360,"zhuang4Ġtai4Ġ":3361,"Ġwei4Ġyu2Ġfa3Ġguo2Ġ":3362,"Ġyi1Ġsi1Ġ":3363,"35":3364,"Ġyi1Ġming2Ġ":3365,"miao2Ġshu4Ġ":3366,"ĠĠĠK":3367,"kuan3":3368,"ying4Ġyong4Ġ":3369,"dian4Ġshi4Ġju4Ġ":3370,"zhu4ĠdeĠ":3371,"fen4Ġwei4Ġ":3372,"Ġgong1Ġye4Ġ":3373,"mu4Ġbiao1Ġ":3374,"bao4Ġdao4Ġ":3375,"jie1Ġrang3":3376,"kua4Ġ":3377,"gong1Ġsi1Ġ":3378,"wang3Ġzhan4Ġ":3379,"ĠdeĠdi4Ġyi1Ġ":3380,"shang4Ġhai3":3381,"tou2Ġzi1Ġ":3382,"lu4Ġjun1Ġ":3383,"Ġjian3Ġcheng1Ġ":3384,"zhan4Ġyi4Ġ":3385,"wen2Ġwu4Ġbao3Ġhu4Ġdan1Ġwei4Ġ":3386,"ya4Ġli4Ġ":3387,"hu2Ġnan2Ġ":3388,"Ġwei4Ġyi1Ġ":3389,"xiao3Ġxue2Ġ":3390,"20Ġshi4Ġji4Ġ":3391,"zuo3Ġyou4Ġ":3392,"15Ġ":3393,"jian4Ġli4Ġ":3394,"sheng4Ġli4Ġ":3395,"ĠdeĠfu4Ġ":3396,"Ġzhong1Ġgong4Ġ":3397,"Ġben3":3398,"Ġwen2Ġ":3399,"bang4Ġ":3400,"zhen4Ġqu1Ġ":3401,"zhe4ĠgeĠ":3402,"shou3Ġci4":3403,"sheng3Ġfen4Ġ":3404,"yin4Ġdu4":3405,"Ġyong4Ġ":3406,"Ġxi1Ġbei3Ġ":3407,"Ġyi4Ġqi3Ġ":3408,"yi2Ġzhi4Ġ":3409,"Ġji1Ġchang3Ġ":3410,"chan3Ġpin3Ġ":3411,"wen2Ġming2Ġ":3412,"hui1Ġfu4Ġ":3413,"shi2Ġqi1Ġ":3414,"te4Ġzheng1Ġ":3415,"cang2Ġ":3416,"Ġer2Ġshi4Ġ":3417,"te4Ġbie2Ġ":3418,"dong1Ġjing1Ġ":3419,"gao1Ġji2Ġ":3420,"jiao4Ġhui4Ġ":3421,"qu3Ġde2":3422,"ye2":3423,"jiao1Ġtong1":3424,"Ġfa3Ġguo2Ġ":3425,"ke1ĠdeĠ":3426,"Ġren2Ġwu4Ġ":3427,"guo4Ġcheng2Ġzhong1Ġ":3428,"xuan3Ġshou3Ġ":3429,"hao3ĠdeĠ":3430,"dian4ĠziĠ":3431,"liu2Ġxing2Ġ":3432,"zhong4Ġyao4ĠdeĠ":3433,"bi4Ġxu1Ġ":3434,"ye4Ġwu4Ġ":3435,"gong4Ġyou3Ġren2Ġkou3Ġ":3436,"Ġxian4Ġdai4Ġ":3437,"can1Ġsai4Ġ":3438,"xiao3Ġxing2Ġxing1Ġ":3439,"Ġcheng2Ġji4Ġ":3440,"xu2Ġ":3441,"hong1":3442,"Ġhe2Ġdi4Ġ":3443,"ma":3444,"kai1Ġfang4Ġ":3445,"ziĠdeĠ":3446,"wang3Ġluo4Ġ":3447,"Ġming2":3448,"nu3":3449,"un":3450,"Ġyao4Ġ":3451,"fa1Ġdong4":3452,"bian4Ġcheng2Ġ":3453,"ig":3454,"qiao2Ġzhi4Ġ":3455,"da1Ġ":3456,"Ġhan":3457,"is":3458,"100Ġ":3459,"jie3Ġshi4Ġ":3460,"guo2Ġmin2Ġ":3461,"shan1Ġdong1Ġ":3462,"dian4Ġshi4Ġtai2Ġ":3463,"ling3Ġdao3":3464,"bao1Ġhan2":3465,"Ġdong4Ġwu4Ġ":3466,"bi3Ġjiao4Ġ":3467,"Ġzai4Ġzhong1Ġ":3468,"lei4Ġsi4":3469,"zha4Ġ":3470,"cui1":3471,"ka3Ġer3Ġ":3472,"hui2Ġdao4Ġ":3473,"xing2Ġshi4Ġ":3474,"dou1Ġyou3Ġ":3475,"lang4Ġ":3476,"Ġqie3":3477,"Ġha1Ġ":3478,"Ġsi1Ġji1Ġ":3479,"zhi1Ġhou4Ġ":3480,"zhan4Ġshi4Ġ":3481,"duo1Ġge4Ġ":3482,"Ġshi2Ġjian1":3483,"pai1Ġshe4Ġ":3484,"hui4Ġhe2Ġ":3485,"mei3Ġping2Ġfang1Ġgong1Ġli3Ġ":3486,"ĠĠĠ2021Ġnian2Ġ":3487,"Ġshe4Ġzhi4Ġ":3488,"av":3489,"Ġmo4Ġ":3490,"Ġgong1Ġfen1Ġ":3491,"zhun3Ġbei4Ġ":3492,"lai2Ġzi4":3493,"fei2":3494,"fei3":3495,"Ġyi1Ġyang4Ġ":3496,"jiu4Ġshi4Ġzhen4Ġ":3497,"ĠV":3498,"Ġxia4Ġling4":3499,"48":3500,"oo":3501,"zhen1Ġdui4Ġ":3502,"Ġshu3Ġ":3503,"yuan2Ġshi4Ġ":3504,"Ġci3Ġhou4Ġ":3505,"Ġchu2Ġ":3506,"wang2Ġguo2Ġ":3507,"wai4Ġjiao1":3508,"zao3Ġnian2Ġ":3509,"er4Ġshi4Ġ":3510,"ĠĠĠ2019Ġnian2Ġ":3511,"Ġmin2Ġ":3512,"Ġmi2Ġ":3513,"OĠ":3514,"Ġshen4Ġzhi4Ġ":3515,"lei4Ġsi4Ġ":3516,"Ġyi4Ġzhi4Ġ":3517,"Ġran2Ġhou4Ġ":3518,"XĠ":3519,"Ġbao4Ġ":3520,"36":3521,"Ġyi4Ġzhi2":3522,"Ġli4Ġshu3Ġyu2Ġ":3523,"Ġsui1Ġran2Ġ":3524,"cang1Ġ":3525,"ĠdeĠming2Ġ":3526,"yun2Ġnan2Ġ":3527,"NĠ":3528,"quan4Ġ":3529,"xin1Ġjia1Ġ":3530,"gao1Ġzhong1Ġ":3531,"ma3Ġlai2":3532,"ĠdeĠzhu3Ġ":3533,"zhu4Ġming2Ġ":3534,"hen3Ġduo1Ġ":3535,"ĠĠĠ2020Ġnian2Ġ":3536,"Ġcang2Ġ":3537,"ĠĠĠgong1Ġ":3538,"Ġjian4Ġzhi4Ġ":3539,"en4Ġ":3540,"fa1Ġshe4Ġ":3541,"jin3Ġbiao1Ġsai4Ġ":3542,"zong3Ġtong3":3543,"Ġer3ĠdeĠ":3544,"oc":3545,"zong3Ġli3Ġ":3546,"lian2Ġjie1Ġ":3547,"ĠĠĠda4Ġ":3548,"ĠdeĠyi1Ġzhong3Ġ":3549,"zhong4ĠdeĠ":3550,"shan1Ġxi1Ġ":3551,"ren2Ġkou3Ġshu4Ġliang4Ġwei4Ġren2Ġ":3552,"mu4Ġqian2Ġ":3553,"zhe2":3554,"Ġqi3Ġ":3555,"ju4Ġji2Ġ":3556,"fang1Ġan4Ġ":3557,"jie3Ġjue2Ġ":3558,"ji2Ġhe2Ġ":3559,"jie1Ġrang3ĠdeĠshi4Ġzhen4Ġ":3560,"ĠINS":3561,"Ġwu3":3562,"xĠ":3563,"lv3Ġyou2Ġ":3564,"gui1Ġhua4Ġ":3565,"FĠ":3566,"Ġtai2Ġ":3567,"ne4Ġ":3568,"kao4":3569,"Ġchu1Ġban3":3570,"ji2Ġshi4Ġ":3571,"ĠĠĠzhi4Ġ":3572,"lu4Ġyi4Ġ":3573,"40Ġ":3574,"Ġxing2Ġwei2Ġ":3575,"Ġshang4Ġhai3Ġ":3576,"nv3Ġer2Ġ":3577,"Ġzhe4Ġge":3578,"si1Ġhe2Ġ":3579,"qu3Ġdai4Ġ":3580,"wu4Ġzhi4Ġ":3581,"ĠdeĠli4Ġ":3582,"Ġxi1Ġya4":3583,"rui4Ġshi4Ġ":3584,"lan3":3585,"bang3":3586,"25Ġ":3587,"ĠĠĠ2018Ġnian2Ġ":3588,"nong2Ġye4Ġ":3589,"Ġsi4":3590,"cha1":3591,"ru4ĠleĠ":3592,"Ġcai2Ġ":3593,"Ġda4Ġliang4Ġ":3594,"Ġtou4Ġ":3595,"Ġ2008Ġnian2Ġ":3596,"Ġjin4Ġshi4Ġ":3597,"Ġci4":3598,"dui4Ġzai4Ġ":3599,"Ġyi2Ġge4Ġ":3600,"jue2ĠdeĠ":3601,"luo2Ġma3":3602,"ĠdeĠshi2Ġhou4Ġ":3603,"Ġji4Ġnian4Ġ":3604,"Ġdong1":3605,"Ġtao3Ġ":3606,"Ġz":3607,"juan1Ġ":3608,"ao4Ġlin2Ġpi3Ġke4Ġyun4Ġdong4Ġhui4Ġ":3609,"wo1Ġ":3610,"si1Ġren2Ġ":3611,"Ġzhi4Ġjin1Ġ":3612,"op":3613,"zhe2Ġ":3614,"24Ġ":3615,"ge2ĠdeĠ":3616,"Ġzhi1Ġwai4Ġ":3617,"Ġzhi4Ġzao4Ġ":3618,"ru2Ġxia4Ġ":3619,"ke3Ġneng2Ġshi4Ġ":3620,"shi3Ġyong4ĠdeĠ":3621,"Ġshe4Ġshi1Ġ":3622,"Ġfu4":3623,"hun4":3624,"gan3Ġran3Ġ":3625,"jie1Ġshou4":3626,"Ġ2013Ġnian2Ġ":3627,"chuang1Ġ":3628,"fei1Ġxing2Ġ":3629,"Ġze2":3630,"xuan3Ġwei4Ġ":3631,"yi2Ġshi4Ġ":3632,"Ġgu4":3633,"tiao4Ġ":3634,"tu3Ġer3":3635,"Ġzai4Ġci3Ġ":3636,"Ġli4Ġsi1Ġ":3637,"guang3Ġchang3Ġ":3638,"chui2Ġ":3639,"ĠdeĠyi1Ġbu4Ġfen4Ġ":3640,"Ġzhi4Ġ202":3641,"shang3Ġ":3642,"ov":3643,"chuang4Ġli4Ġ":3644,"jia4Ġzhi2Ġ":3645,"Ġdui4Ġyu2Ġ":3646,"ĠĠĠJ":3647,"chu4ĠdeĠ":3648,"bo2Ġte4Ġ":3649,"keng1Ġ":3650,"reng2Ġran2Ġ":3651,"Ġzong3Ġmian4Ġji1Ġ":3652,"she2Ġ":3653,"Ġgong1Ġneng2Ġ":3654,"Ġjia3Ġ":3655,"zhi4Ġshi4Ġ":3656,"Ġde2Ġli3Ġ":3657,"jiu3Ġnian2Ġ":3658,"lian2Ġhe2Ġguo2Ġ":3659,"ji2Ġshi2Ġ":3660,"Ġyou3Ġren2Ġ":3661,"Ġer2Ġqie3Ġ":3662,"geng1Ġming2Ġwei4Ġ":3663,"lian2Ġbang1":3664,"xiao4Ġli4Ġ":3665,"tong1Ġchang2":3666,"biao3Ġyan3Ġ":3667,"Ġdan1Ġren4Ġ":3668,"fen1Ġlei4Ġ":3669,"ĠINSEE":3670,"Ġgai1Ġsheng3Ġ":3671,"qi4ĠdeĠ":3672,"Ġzhi4Ġzuo4":3673,"gai4Ġnian4Ġ":3674,"2Ġren2Ġ":3675,"Ġren2Ġkou3Ġmi4Ġdu4Ġmei3Ġping2Ġfang1Ġgong1Ġli3Ġ":3676,"Ġren2Ġkou3Ġmi4Ġdu4Ġwei4Ġmei3":3677,"Ġxia4Ġling4Ġshi2Ġ":3678,"sun1":3679,"you2Ġzheng4Ġbian1Ġma3Ġwei4Ġ":3680,"Ġzai4Ġ199":3681,"ĠĠĠO":3682,"shi2Ġshi4Ġ":3683,"zu3Ġfu4Ġ":3684,"cong2Ġshi4Ġ":3685,"cha2ĠdeĠshu4Ġju4Ġ":3686,"Ġshi4Ġzhen4Ġbian1Ġma3Ġwei4Ġ":3687,"ĠINSEEĠshi4Ġzhen4Ġbian1Ġma3Ġwei4Ġ":3688,"an3Ġxi1Ġ":3689,"mo4Ġsi1Ġ":3690,"ãĢİ":3691,"ba1Ġnian2Ġ":3692,"tian1Ġwen2Ġ":3693,"jin4ĠdeĠ":3694,"sheng1Ġhuo2":3695,"Ġguo2Ġwang2Ġ":3696,"yi1Ġzhong3Ġ":3697,"xuan3Ġqu1Ġwei4Ġ":3698,"ãĢı":3699,"ĠĠĠbei4Ġ":3700,"Ġshe4ĠdeĠ":3701,"he2Ġshi4Ġ":3702,"da4Ġbu4Ġfen4":3703,"shi2ĠdeĠren2Ġkou3Ġshu4Ġliang4Ġwei4Ġren2Ġ":3704,"tionĠĠĠ":3705,"Ġbu4Ġguo4":3706,"ying1Ġchi3Ġ":3707,"zhan3Ġkai1Ġ":3708,"mei3Ġguo2Ġren2Ġkou3Ġpu3Ġcha2ĠdeĠshu4Ġju4Ġ":3709,"ĠĠĠ193":3710,"jia1Ġli4Ġ":3711,"16Ġ":3712,"yun4Ġying2Ġ":3713,"Ġshen2Ġ":3714,"Ġer2Ġren2Ġkou3Ġmi4Ġdu4Ġwei4Ġmei3":3715,"ĠĠĠ2017Ġnian2Ġ":3716,"Ġdang1Ġdi4Ġgong4Ġyou3Ġren2Ġkou3Ġ":3717,"pai2Ġming2Ġ":3718,"xue1Ġ":3719,"Ġ2019Ġnian2Ġ":3720,"fu2Ġjian4Ġ":3721,"zu2ĠdeĠ":3722,"Ġjin3Ġguan3Ġ":3723,"ge2Ġlan2":3724,"Ġhuo4Ġjiu4Ġshi4Ġzhen4Ġ":3725,"tiao2Ġyue1Ġ":3726,"Ġ2018Ġnian2Ġ":3727,"Ġzha4":3728,"Ġjun1Ġdui4Ġ":3729,"sheng3Ġji2Ġxuan3Ġqu1Ġwei4Ġ":3730,"suo3Ġshu3ĠdeĠsheng3Ġji2Ġxuan3Ġqu1Ġwei4Ġ":3731,"ĠĠĠli4Ġ":3732,"ji1Ġji2Ġ":3733,"Ġjun1Ġzai4Ġ":3734,"che1Ġliang4Ġ":3735,"jing3Ġcha2Ġ":3736,"Ġte4Ġbie2":3737,"xi1ĠdeĠ":3738,"xuan3Ġren2Ġ":3739,"xing1ĠdeĠ":3740,"sheng3Ġhe2Ġ":3741,"biao1Ġzhun3":3742,"man4Ġhua4Ġ":3743,"Ġbian4Ġ":3744,"90":3745,"Ġbu4Ġjiu3Ġ":3746,"fen4Ġwei4Ġfa3Ġguo2Ġ":3747,"Ġgai1Ġsheng3Ġfen4Ġwei4Ġfa3Ġguo2Ġ":3748,"ao4Ġda4Ġli4Ġ":3749,"Ġchu2ĠleĠ":3750,"Ġyu2Ġ198":3751,"zui4Ġhou4Ġyi1Ġ":3752,"mi3Ġer3Ġ":3753,"Ġer3Ġde2Ġ":3754,"hui3Ġ":3755,"kai3":3756,"ai4Ġer3Ġ":3757,"Ġnian2Ġjian1Ġ":3758,"qi3Ġlai2Ġ":3759,"Ġshu4Ġ":3760,"guang3Ġzhou1Ġ":3761,"Ġzhi1Ġxian4Ġ":3762,"ha":3763,"er2ĠziĠ":3764,"Ġwei4Ġshi2Ġ":3765,"Ġyou2Ġxi4":3766,"pai2Ġming2":3767,"Ġduo1":3768,"qu1Ġyu4":3769,"shuo4":3770,"qun2Ġdao3Ġ":3771,"ying2Ġde2Ġ":3772,"dong4Ġwu4Ġ":3773,"38":3774,"Ġye4Ġ":3775,"Ġgeng4Ġ":3776,"37":3777,"la4":3778,"Ġque4Ġ":3779,"Ġchu1Ġsheng1Ġyu2Ġ":3780,"Ġ2014Ġnian2Ġ":3781,"ben3ĠdeĠ":3782,"ling3Ġyu4Ġ":3783,"Ġdi4Ġsi4Ġ":3784,"1Ġren2Ġ":3785,"lai2Ġyuan2Ġ":3786,"Ġyi1Ġxie1":3787,"Ġ2016Ġnian2Ġ":3788,"zhao3":3789,"Ġta1Ġbei4Ġ":3790,"Ġdi4Ġsan1":3791,"Ġzi4Ġji3Ġ":3792,"ĠĠĠ2016Ġnian2Ġ":3793,"ma3Ġli4Ġ":3794,"chun2":3795,"tie3Ġdao4Ġ":3796,"di4Ġyi1Ġ":3797,"Ġri4ĠdeĠ":3798,"Ġji4Ġhua4":3799,"she4Ġli4Ġ":3800,"Ġjin4ĠdeĠ":3801,"ao4Ġsi1Ġ":3802,"Ġcheng1Ġ":3803,"mei3Ġzhou1Ġ":3804,"Ġbian1Ġ":3805,"wei3Ġhui4Ġ":3806,"Ġchu1Ġban3Ġ":3807,"zuo4Ġpin3":3808,"Ġji1Ġben3Ġ":3809,"ĠĠĠ2022Ġnian2Ġ":3810,"Ġhe2Ġbing4":3811,"Ġmai4":3812,"meng2Ġgu3Ġ":3813,"Ġ11":3814,"wu2Ġren2Ġ":3815,"Ġya4Ġ":3816,"reng2Ġran2":3817,"Ġzhi4Ġyu2Ġ":3818,"Ġ2012Ġnian2Ġ":3819,"mu3Ġsi1Ġ":3820,"Ġchu1Ġxian4":3821,"Ġren2Ġgong1Ġ":3822,"pu2Ġtao2Ġ":3823,"Ġjiu3Ġ":3824,"Ġjian4Ġyi4Ġ":3825,"sheng1Ġwu4Ġ":3826,"ur":3827,"nan2Ġji2Ġ":3828,"Ġwei2Ġzhu3Ġ":3829,"Ġ2015Ġnian2Ġ":3830,"gou4Ġm":3831,"Ġzhao4Ġ":3832,"Ġming2Ġchao2Ġ":3833,"Ġshu1Ġ":3834,"yan2Ġjiu1Ġsuo3Ġ":3835,"zao1Ġ":3836,"liao3Ġ":3837,"yi3Ġji2Ġ":3838,"Ġhe2Ġping2Ġ":3839,"Ġzai4Ġzhong1Ġguo2Ġ":3840,"bao4Ġfa1Ġ":3841,"Ġshi4Ġbu4Ġ":3842,"te4Ġbie2":3843,"Ġzhao3Ġ":3844,"cao1Ġ":3845,"Ġbu4Ġming2Ġ":3846,"Ġxian4Ġlu4Ġ":3847,"min3":3848,"guang3Ġfan4Ġ":3849,"Ġcuo4Ġ":3850,"shuo1Ġfa3Ġ":3851,"Ġju4Ġle4Ġbu4Ġ":3852,"meng4Ġ":3853,"wu3Ġshi2Ġ":3854,"zhan4Ġzheng1":3855,"yang1Ġ":3856,"Ġzai4Ġyi4Ġ":3857,"tou2Ġpiao4Ġ":3858,"Ġren4Ġwei2":3859,"ĠdeĠxin1Ġ":3860,"Ġchong2Ġ":3861,"miao3Ġ":3862,"Ġyi1Ġzhong3Ġ":3863,"xi1Ġzai4Ġ":3864,"ĠdeĠdi4Ġfang1Ġ":3865,"se":3866,"Ġta1Ġyu3Ġ":3867,"yun4Ġxing2Ġ":3868,"Ġyi4Ġwei4Ġ":3869,"yun4Ġshu1Ġ":3870,"Ġke4ĠdeĠ":3871,"tou4Ġguo4Ġ":3872,"xue3":3873,"xue2Ġshi4Ġ":3874,"ren4Ġwei2Ġshi4Ġ":3875,"LĠ":3876,"kan3Ġ":3877,"sheng1Ġchan3":3878,"mo2Ġxing2Ġ":3879,"hu3Ġ":3880,"hai3Ġjun1":3881,"Ġge4Ġdi4Ġ":3882,"lie4Ġwei4Ġ":3883,"ban4Ġgong1Ġshi4Ġ":3884,"jie2Ġgou4":3885,"Ġzhe2Ġ":3886,"ne":3887,"wai4Ġguo2Ġ":3888,"po4Ġhuai4Ġ":3889,"Ġ10Ġyue4Ġ":3890,"yuan2Ġwei4Ġ":3891,"shang4Ġyou3Ġ":3892,"mei3Ġnian2Ġ":3893,"Ġzong3Ġren2Ġkou3Ġ":3894,"xi3Ġhu":3895,"45":3896,"xuan1Ġchuan2Ġ":3897,"Ġ2007Ġnian2Ġ":3898,"3Ġren2Ġ":3899,"cu4":3900,"tai4Ġyang2Ġ":3901,"ni2Ġsi1Ġ":3902,"lun2Ġdun1":3903,"chang1":3904,"ĠdeĠguan1Ġ":3905,"dao1Ġ":3906,"Ġchen2":3907,"13Ġ":3908,"xue2Ġxiao4":3909,"yang3Ġhua4Ġ":3910,"4Ġren2Ġ":3911,"Ġzheng4Ġshi4Ġ":3912,"hua4Ġshi2Ġ":3913,"cheng1Ġwei4Ġ":3914,"xiao1Ġxi1Ġ":3915,"tie1Ġ":3916,"zhi4Ġwei4Ġ":3917,"xuan3Ġze2":3918,"biao1Ġzhi4Ġ":3919,"ao4Ġyun4":3920,"Ġbu4Ġmen2Ġ":3921,"shu4Ġliang4Ġ":3922,"mei4":3923,"Ġbiao3Ġshi4Ġ":3924,"Ġxian4Ġren2Ġ":3925,"chi2Ġxu4":3926,"Ġju4Ġli2Ġ":3927,"you2Ġxi4":3928,"fen3Ġ":3929,"fu4Ġze2Ġguan3Ġxia2Ġ":3930,"jin4Ġxing2":3931,"jia1Ġru4Ġ":3932,"a3Ġ":3933,"gong1Ġzuo4Ġ":3934,"ĠĠĠzh":3935,"Ġzai4Ġmei3Ġguo2Ġ":3936,"Ġzhi1Ġchi2":3937,"su2Ġ":3938,"tao4Ġ":3939,"tou2Ġru4Ġ":3940,"fou3":3941,"jie4Ġquan2Ġguo2Ġ":3942,"Ġzhong4Ġ":3943,"shi1ĠdeĠ":3944,"Ġ2005Ġnian2Ġ":3945,"fen1Ġzhi1Ġ":3946,"Ġzai4Ġ19":3947,"jie2Ġmu4":3948,"ta1ĠmenĠ":3949,"si4Ġchuan1Ġ":3950,"Ġyong3Ġ":3951,"tong2Ġyi1Ġ":3952,"huan2Ġjing4":3953,"ĠÎ":3954,"zai4Ġshi4Ġ":3955,"zheng4ĠdeĠ":3956,"dang3ĠdeĠ":3957,"ĠĠĠ2014Ġnian2Ġ":3958,"Ġqing1":3959,"kun4":3960,"bi3Ġde2Ġ":3961,"ĠĠĠ2015Ġnian2Ġ":3962,"Ġ2017Ġnian2Ġ":3963,"Ġ2021Ġnian2Ġ":3964,"zhu3Ġjue2Ġ":3965,"ub":3966,"gou4Ġcheng2Ġ":3967,"ni4Ġ":3968,"hi":3969,"fang1Ġmian4":3970,"Ġlong2Ġ":3971,"Ġzai4Ġbu4Ġ":3972,"bu4Ġwei4Ġ":3973,"Ġzhang1":3974,"Ġzhen1Ġ":3975,"Ġdao4Ġlu4Ġ":3976,"Ġshi4Ġmei3Ġguo2Ġ":3977,"qi1Ġjian1":3978,"Ġhan2Ġ":3979,"Ġwei2Ġer3Ġ":3980,"ĠĠĠyi3Ġ":3981,"peng2Ġyou3Ġ":3982,"zhai2Ġ":3983,"Ġbei4Ġer3Ġ":3984,"fen1Ġbie2Ġ":3985,"xue2Ġxi2Ġ":3986,"chi4":3987,"ji4Ġshu4Ġ":3988,"Ġhuo4Ġshi4Ġ":3989,"yin2Ġhang2":3990,"mou2Ġ":3991,"kang4Ġyi4Ġ":3992,"yue1Ġwei4Ġ":3993,"tai4Ġguo2Ġ":3994,"Ġjiang3Ġ":3995,"Ġzhan4Ġzheng1":3996,"ni1Ġ":3997,"ĠĠĠyou3Ġ":3998,"jie1Ġwei4Ġ":3999,"lie4ĠdeĠ":4000,"ting3":4001,"hui4Ġyou3Ġ":4002,"Ġwan4Ġ":4003,"yi4Ġhe2Ġ":4004,"xuan3Ġqu1Ġ":4005,"jing1Ġying2Ġ":4006,"xiao4Ġzhang3Ġ":4007,"ĠĠĠ2013Ġnian2Ġ":4008,"wen2Ġjian4Ġ":4009,"Ġgong1Ġgong4Ġ":4010,"wa1Ġ":4011,"ian2Ġ":4012,"cui1Ġ":4013,"wu3Ġqi4Ġ":4014,"ti4":4015,"UĠ":4016,"rong2Ġyi4Ġ":4017,"biao1Ġwei4Ġ":4018,"Ġji2Ġqi2Ġ":4019,"jiao4Ġtang2Ġ":4020,"shou1Ġru4Ġ":4021,"gua1Ġ":4022,"xiang1Ġdui4Ġ":4023,"Ġjing4Ġ":4024,"lai2Ġshuo1Ġ":4025,"ĠĠĠche1Ġzhan4Ġ":4026,"que4Ġzh":4027,"jie1Ġrang3Ġ":4028,"Ġgeng4":4029,"Ġwu1Ġ":4030,"yan3ĠdeĠ":4031,"bian1Ġji2Ġ":4032,"nan2Ġxing4Ġ":4033,"Ġxian1Ġ":4034,"tan1Ġ":4035,"ao1Ġzuo4Ġ":4036,"Ġxiao1Ġ":4037,"ĠĠĠshi2Ġ":4038,"si1Ġdi4Ġ":4039,"Ġjin4Ġxing2":4040,"guo1Ġ":4041,"tiao3":4042,"meng4":4043,"jie3Ġfang4Ġjun1Ġ":4044,"zhi2ĠdeĠ":4045,"xing1Ġjian4Ġ":4046,"zheng4Ġce4Ġ":4047,"Ġzhi4Ġdu4Ġ":4048,"ad":4049,"ge1Ġqu3":4050,"fan2":4051,"shou4Ġyu3Ġ":4052,"Ġzhong1Ġyou3Ġ":4053,"kua4":4054,"Ġyuan2Ġzhu4Ġ":4055,"bao3Ġhu4":4056,"Ġsong4Ġ":4057,"Ġcai4Ġ":4058,"ag":4059,"Ġqi4Ġ":4060,"die2":4061,"Ġjia1Ġna2Ġda4Ġ":4062,"Ġ2020Ġnian2Ġ":4063,"Ġyi3Ġshang4Ġ":4064,"ing":4065,"tong2ĠdeĠ":4066,"Ġyou4Ġcheng1Ġ":4067,"Ġshi4Ġyi2Ġge4":4068,"ĠĠĠta1":4069,"Ġdi4Ġxia4Ġ":4070,"pei4Ġhe2Ġ":4071,"an4Ġjian4Ġ":4072,"ĠĠĠhe2Ġ":4073,"en2Ġ":4074,"jia1Ġren2Ġ":4075,"Ġzai4Ġda4Ġ":4076,"Ġren4":4077,"jun1Ġdui4Ġ":4078,"di4Ġshi4Ġ":4079,"ap":4080,"gao1Ġyu2Ġ":4081,"hao4Ġwei4Ġ":4082,"Ġfei1":4083,"tian1Ġzhu3Ġjiao4Ġ":4084,"Ġrang4":4085,"xiang4Ġmu4":4086,"jue2Ġse4":4087,"Ġfa1Ġ":4088,"Ġdi2Ġ":4089,"da2Ġcheng2Ġ":4090,"wen3Ġding4Ġ":4091,"ji4Ġzhong1Ġ":4092,"yao2":4093,"yu3Ġyan2Ġ":4094,"gan3Ġdao4Ġ":4095,"jian3Ġjie4Ġ":4096,"tiao3Ġzhan4Ġ":4097,"quan2ĠdeĠ":4098,"Ġer2Ġqie3":4099,"Ġhou4":4100,"wan4Ġli4Ġ":4101,"shen1Ġfen4":4102,"ĠĠĠV":4103,"Ġxi1Ġwang4Ġ":4104,"Ġren2Ġlei4":4105,"Ġzhong1Ġguo2Ġren2Ġmin2Ġ":4106,"mei2Ġti3":4107,"duo2ĠdeĠ":4108,"Ġji4Ġcheng2Ġ":4109,"ĠĠĠ2023Ġnian2Ġ":4110,"Â°":4111,"chong1Ġtu1Ġ":4112,"Ġer2Ġren2Ġkou3Ġmi4Ġdu4Ġwei4Ġmei3Ġping2Ġfang1Ġqian1Ġmi3Ġ":4113,"Ġ2006Ġnian2Ġ":4114,"xiao3ĠdeĠ":4115,"Ġwei4Ġfu2":4116,"ban4Ġdao3Ġ":4117,"zheng4Ġshi2Ġ":4118,"ce4ĠdeĠ":4119,"zao4ĠdeĠ":4120,"22Ġ":4121,"ind":4122,"Ġdi4Ġtie3Ġ":4123,"hai3Ġyu4Ġ":4124,"zui4Ġzao3":4125,"zhan1Ġ":4126,"shi2Ġzai4Ġ":4127,"ï½":4128,"Ġlin2":4129,"ying3Ġpian4Ġ":4130,"ao4Ġyun4Ġ":4131,"an1ĠdeĠ":4132,"46":4133,"Ġping2Ġfang1Ġmi3Ġ":4134,"ĠĠĠyuan2Ġ":4135,"zhe4Ġzhong3Ġ":4136,"lian2Ġxu4Ġ":4137,"zi4Ġzhi4Ġqu1Ġ":4138,"Ġ8Ġyue4Ġ":4139,"ceng2Ġzai4Ġ":4140,"inĠ":4141,"biao3Ġxian4":4142,"la1Ġke4Ġ":4143,"Ġjian4Ġzhu4":4144,"ting2Ġzhi3Ġ":4145,"zha1Ġ":4146,"Ġguang1Ġ":4147,"ti2Ġming2Ġ":4148,"ju3Ġren2Ġ":4149,"ĠĠĠzi4Ġ":4150,"xin1Ġli3Ġ":4151,"12Ġnian2Ġ":4152,"tuan2Ġdui4Ġ":4153,"duo1Ġci4Ġ":4154,"Ġni2Ġ":4155,"qian2Ġwang3":4156,"gao1Ġsu4":4157,"ke3Ġneng2Ġhui4Ġ":4158,"ya1Ġli4Ġ":4159,"jian3Ġcha2Ġ":4160,"bi3Ġya4Ġ":4161,"ji4Ġwei4Ġ":4162,"Ġer2Ġbei4Ġ":4163,"fu2Ġwu4":4164,"pai1Ġ":4165,"14Ġ":4166,"gong4Ġtong2":4167,"Ġnian2Ġdu4Ġ":4168,"Ġleng3Ġ":4169,"Ġji1Ġbai4Ġ":4170,"xi1Ġban1Ġya2Ġ":4171,"Ġyu3":4172,"Ġhai2Ġyou3Ġ":4173,"tionĠ":4174,"li4Ġbu4Ġ":4175,"Ġchu1Ġren4Ġ":4176,"an1Ġde2Ġ":4177,"da4Ġbu4Ġfen4Ġ":4178,"Ġshi4Ġtu2Ġ":4179,"Ġer4":4180,"zhi3Ġhui1":4181,"ĠdeĠzhi4Ġ":4182,"chan3Ġye4Ġ":4183,"23Ġ":4184,"ka1Ġ":4185,"fan1Ġyi4Ġ":4186,"39":4187,"Ġtai2Ġwan1":4188,"zhu3Ġti2Ġ":4189,"gai3Ġbian4Ġ":4190,"fu2Ġhe2Ġ":4191,"shu2Ġ":4192,"ampĠ":4193,"2022Ġnian2Ġ":4194,"5Ġren2Ġ":4195,"ban4Ġshi4Ġ":4196,"bi3Ġsai4Ġzhong1Ġ":4197,"Ġbei3":4198,"si1Ġzai4Ġ":4199,"Ġji4Ġxu4":4200,"ceng2Ġjing1Ġ":4201,"xiang1Ġtong2Ġ":4202,"Ġzi4Ġyou2Ġ":4203,"xiao3Ġzu3Ġ":4204,"Ġd":4205,"You":4206,"xing2Ġwei2Ġ":4207,"fa1Ġxing2":4208,"can2Ġ":4209,"shou3ĠdeĠ":4210,"kun4Ġ":4211,"ban4Ġgong1Ġ":4212,"lun2Ġdun1Ġ":4213,"gao3Ġ":4214,"Ġtu2Ġ":4215,"Ġsuo3Ġyou3Ġ":4216,"xia4Ġwu3Ġ":4217,"00Ġnian2Ġ":4218,"shao3Ġshu4Ġ":4219,"ou1Ġyuan2Ġ":4220,"Ġwei4Ġneng2Ġ":4221,"Ġshi2Ġfen1Ġ":4222,"Ġyi1Ġci4Ġ":4223,"KĠ":4224,"pan1Ġ":4225,"zhong1Ġzai4Ġ":4226,"AT":4227,"nu3Ġ":4228,"Ġhe2Ġbei3Ġ":4229,"Ġcang2":4230,"jian3Ġshao3Ġ":4231,"shui4":4232,"kong1Ġjun1Ġ":4233,"gong1Ġyuan2Ġ":4234,"Ġzi4":4235,"han3Ġ":4236,"wei3Ġyuan2Ġhui4":4237,"47":4238,"Ġlan2Ġ":4239,"Ġyi4Ġyou3Ġ":4240,"xian4Ġdai4Ġ":4241,"shen1ĠdeĠ":4242,"Ġyi3Ġse4Ġ":4243,"ai4ĠdeĠ":4244,"gong4Ġxian4Ġ":4245,"guo4Ġqu4Ġ":4246,"chao2Ġxian1":4247,"biao3Ġming2Ġ":4248,"wei1Ġer3Ġ":4249,"ji4Ġhua4Ġ":4250,"ying4ĠdeĠ":4251,"zhan3Ġshi4Ġ":4252,"fen4Ġzi3Ġ":4253,"feng2Ġ":4254,"Ġtong1Ġguo4Ġ":4255,"Ġsheng1Ġwu4Ġ":4256,"na":4257,"Ġshi2Ġyan4":4258,"ming4Ġming2Ġwei4Ġ":4259,"ĠdeĠshou3Ġ":4260,"Ġgong1Ġsi1ĠdeĠ":4261,"Ġshe4Ġqu1Ġ":4262,"da3Ġji1Ġ":4263,"ĠdeĠdi4Ġqu1Ġ":4264,"Ġsi1Ġling4":4265,"Ġshi4Ġyi1Ġming2Ġ":4266,"jia1Ġna2Ġda4Ġ":4267,"Ġqian1Ġ":4268,"Ġshi4Ġyi3Ġ":4269,"xun2Ġhui2Ġ":4270,"Ġyou4Ġming2Ġ":4271,"yong4Ġlai2Ġ":4272,"shou3Ġwei4Ġ":4273,"Ġli4Ġji2Ġ":4274,"wai4Ġjiao1Ġ":4275,"jie1Ġjin4Ġ":4276,"liang3Ġge4":4277,"enĠ":4278,"ren4Ġwu4Ġ":4279,"lu4Ġdi4Ġmian4Ġji1Ġwei4Ġ":4280,"Ġ189":4281,"bu4Ġshi4Ġ":4282,"18Ġ":4283,"shui3Ġyu4Ġmian4Ġji1Ġwei4Ġ":4284,"xing2Ġdong4Ġ":4285,"Ġguo2Ġli4Ġ":4286,"ti3Ġxi4Ġ":4287,"Ġshi2Ġzi4Ġ":4288,"mu4Ġsi1Ġ":4289,"ping2Ġjia4Ġ":4290,"ying1Ġge2Ġlan2Ġ":4291,"Ġzai4Ġyu2Ġ":4292,"Ġshe4Ġbei4Ġ":4293,"gui1Ġmo2":4294,"ma2Ġ":4295,"san4":4296,"ju3Ġxing2ĠdeĠ":4297,"Ġmai4Ġ":4298,"Ġliang3Ġren2Ġ":4299,"ak":4300,"fan3Ġhui2Ġ":4301,"Ġan4Ġ":4302,"chan3Ġsheng1":4303,"jie2Ġshu4Ġhou4Ġ":4304,"Ġti3Ġzhang3Ġ":4305,"neng2Ġgou4":4306,"fa3Ġlv4":4307,"uo3Ġ":4308,"Ġda4Ġshi3Ġ":4309,"ï½ŀ":4310,"zuo4Ġjia1Ġ":4311,"guo2Ġzai4Ġ":4312,"zhu4Ġzuo4Ġ":4313,"dian4Ġli4Ġ":4314,"Ġli4Ġru2":4315,"Ġshi3ĠdeĠ":4316,"zhi4Ġhe2Ġ":4317,"zhu4Ġyi4Ġ":4318,"ĠampĠ":4319,"xiang4Ġshi4Ġ":4320,"guan1Ġzhong4Ġ":4321,"chang2Ġqi1Ġ":4322,"xue2Ġzhe3Ġ":4323,"Ġkai1Ġshi3Ġ":4324,"Ġzhi1Ġshi2Ġ":4325,"Ġdang1Ġzhong1Ġlu4Ġdi4Ġmian4Ġji1Ġwei4Ġ":4326,"Ġsi1Ġling4Ġ":4327,"Ġer2Ġshui3Ġyu4Ġmian4Ġji1Ġwei4Ġ":4328,"ling4Ġwai4Ġ":4329,"Ġdui4":4330,"Ġfan4Ġ":4331,"chong2Ġjian4Ġ":4332,"ĠĠĠ2012Ġnian2Ġ":4333,"Ġji1Ġdu1Ġ":4334,"jia1Ġhe2Ġ":4335,"zu3Ġcheng2ĠdeĠ":4336,"jiao4Ġqu1Ġ":4337,"Ġ21Ġ":4338,"wei1Ġlian2Ġ":4339,"Ġli4Ġfa3Ġ":4340,"60Ġ":4341,"Ġw":4342,"Ġcong2Ġer2Ġ":4343,"zou4":4344,"lei4Ġxing2Ġ":4345,"Ġzhi3Ġyou3Ġ":4346,"shui3Ġping2Ġ":4347,"ji2Ġzai4Ġ":4348,"ĠĠĠxi1Ġ":4349,"kuai4Ġsu4Ġ":4350,"ĠTheĠĠĠ":4351,"bi4Ġxu1":4352,"Ġcheng2Ġli4Ġyu2Ġ":4353,"Ġ9Ġyue4Ġ":4354,"feng1Ġbao4Ġ":4355,"xu2":4356,"lv3Ġke4Ġ":4357,"oun":4358,"33":4359,"Ġrang4Ġ":4360,"Ġpu2Ġ":4361,"Ġshi2Ġshi1Ġ":4362,"Ġjun1Ġwei4Ġ":4363,"ĠĠĠof":4364,"Ġda4Ġchen2Ġ":4365,"zong3Ġdu1Ġ":4366,"Ġluo4Ġ":4367,"dong1Ġxi1Ġ":4368,"qi3Ġyong4Ġ":4369,"shou4Ġshang1Ġ":4370,"ĠĠĠxing2Ġzheng4Ġqu1Ġhua4Ġ":4371,"xin4Ġhao4Ġ":4372,"jiao4Ġwei2Ġ":4373,"dian4Ġtai2Ġ":4374,"ai1Ġji2Ġ":4375,"ji3Ġyu3Ġ":4376,"yuan4Ġzhang3Ġ":4377,"Ġhua4Ġ":4378,"Ġyi3Ġhou4Ġ":4379,"ev":4380,"Ġdou1Ġ":4381,"dai4Ġyou3Ġ":4382,"Ġyi4Ġshu4":4383,"Ġji1Ġgou4":4384,"ren4Ġming4":4385,"eng1Ġli4Ġ":4386,"nei4Ġrong2":4387,"wei3Ġshu1Ġji4Ġ":4388,"Ġdeng3":4389,"dian3ĠdeĠ":4390,"ru2Ġhe2Ġ":4391,"xi1Ġyang2Ġ":4392,"Ġbei4":4393,"gua4Ġ":4394,"Ġzha4Ġ":4395,"min2ĠdeĠ":4396,"ran":4397,"dao3Ġyu3Ġ":4398,"Ġyi4Ġren2Ġ":4399,"Ġyuan2Ġyin1Ġ":4400,"chuan4Ġ":4401,"sui2Ġhou4Ġ":4402,"Ġwei4Ġfu2Ġqi2Ġyu2Ġ":4403,"ceĠ":4404,"ĠĠĠgai4Ġ":4405,"Ġjian4Ġcheng2Ġ":4406,"Ġxue2Ġxiao4":4407,"bao4Ġfa1":4408,"Ġzhi2Ġzhi4Ġ":4409,"Ġ7Ġyue4Ġ":4410,"hao4ĠdeĠ":4411,"Ġbo1":4412,"Ġshi3Ġyong4Ġ":4413,"Ġxin1Ġwen2Ġ":4414,"ci4Ġshi4Ġjie4Ġda4Ġzhan4Ġ":4415,"18Ġnian2Ġ":4416,"can1Ġjia1":4417,"xing4Ġzhi4Ġ":4418,"Ġzhe4Ġjiang1Ġ":4419,"yan3Ġchang4Ġhui4Ġ":4420,"Ġ2022Ġnian2Ġ":4421,"pi3Ġ":4422,"Ġshi4Ġyi1Ġwei4Ġ":4423,"fo2Ġjiao4Ġ":4424,"Ġwang2":4425,"tui4Ġyi4Ġ":4426,"hai2ĠziĠ":4427,"chan2Ġ":4428,"ji1Ġzhi4Ġ":4429,"bi4Ġye4Ġyu2Ġ":4430,"zhe4Ġge":4431,"wei4Ġzhi4Ġ":4432,"ya4ĠdeĠ":4433,"Ġshi4Ġqu1Ġ":4434,"Ġzhuan1Ġ":4435,"Ġming2Ġcheng1Ġ":4436,"ãĥ":4437,"Ġgu3":4438,"10Ġnian2Ġ":4439,"ru4Ġkou3Ġ":4440,"ĠĠĠyi4Ġ":4441,"Ġer3Ġhe2Ġ":4442,"ĠformulaĠ":4443,"Ġjia1Ġshang4Ġ":4444,"qu3Ġxiao1Ġ":4445,"Ġti3Ġzhang3Ġke3Ġda2Ġ":4446,"ju3Ġxing2":4447,"zhuan1Ġjia1Ġ":4448,"Ġke4Ġli3Ġ":4449,"pu3Ġtong1Ġ":4450,"hun2":4451,"fu1Ġren2Ġ":4452,"zhu4Ġming2ĠdeĠ":4453,"pi1Ġzhun3Ġ":4454,"Ġjian4Ġdui4Ġ":4455,"49":4456,"ĠdeĠyi1Ġzuo4Ġ":4457,"qi4Ġche1Ġ":4458,"Ġti2Ġ":4459,"huan3Ġ":4460,"Ġru2Ġguo3":4461,"Ġyu4ĠdeĠ":4462,"Ġfei4Ġ":4463,"Ġ12Ġyue4Ġ":4464,"Ġmeng4Ġ":4465,"Ġmin2Ġguo2Ġ":4466,"zha4":4467,"wen2Ġzhang1Ġ":4468,"fa1Ġdian4Ġ":4469,"bao3Ġchi2Ġ":4470,"cun1Ġzhuang1Ġ":4471,"Ġtou2Ġ":4472,"zhi4Ġzai4Ġ":4473,"Ġbu4Ġli3Ġ":4474,"Ġyi3Ġxia4":4475,"GĠ":4476,"rou4":4477,"yi2Ġdong4Ġ":4478,"lian2Ġxi4Ġ":4479,"di3Ġda2Ġ":4480,"zhan4Ġzhong1Ġ":4481,"ĠdeĠqian2Ġ":4482,"Ġshang4Ġhai3":4483,"Ġ11Ġyue4Ġ":4484,"Ġfu4Ġjin4Ġ":4485,"zhuo2Ġ":4486,"wang3Ġlu4Ġ":4487,"yu3Ġzhong1Ġ":4488,"xiang1Ġdang1Ġ":4489,"ru4Ġqin1Ġ":4490,"6Ġren2Ġ":4491,"ye3Ġzai4Ġ":4492,"Ġji1Ġguan1Ġ":4493,"Ġqu1Ġ":4494,"Ġzhi1Ġzhong1Ġ":4495,"yan2Ġge2Ġ":4496,"shou4Ġdao4":4497,"ĠĠĠ2024Ġnian2Ġ":4498,"2012Ġnian2Ġ":4499,"Ġde2Ġyi3Ġ":4500,"Ġping2":4501,"yi4Ġzai4Ġ":4502,"guang3Ġbo1":4503,"wan4Ġyuan2Ġ":4504,"Ġshi2Ġren4Ġ":4505,"Ġsuo1Ġ":4506,"25Ġnian2Ġ":4507,"tong2Ġyi4Ġ":4508,"si4Ġge4Ġ":4509,"gu1Ġji4Ġ":4510,"Ġzheng4Ġce4Ġ":4511,"gong4Ġchan3Ġdang3":4512,"ha1Ġer3Ġ":4513,"tai4Ġping2Ġyang2Ġ":4514,"dao3Ġshi4Ġ":4515,"zhe4Ġxie1":4516,"chi1Ġ":4517,"guai4Ġ":4518,"zhi2Ġwei4Ġ":4519,"8Ġren2Ġ":4520,"cheng2Ġgong1Ġ":4521,"fa1Ġdong4Ġ":4522,"Ġmu4Ġqian2":4523,"ming2Ġshi4Ġ":4524,"Ġping2Ġtai2Ġ":4525,"xiao1Ġshou4Ġ":4526,"geng4Ġjia1Ġ":4527,"ming2Ġcheng1Ġ":4528,"fa3ĠdeĠ":4529,"ĠdeĠshi2Ġqu1Ġwei4Ġ":4530,"28Ġnian2Ġ":4531,"de2Ġdao4Ġ":4532,"xing1Ġqi1Ġ":4533,"cha1Ġyi4Ġ":4534,"sheng1Ġwei4Ġ":4535,"co":4536,"esĠ":4537,"fa1Ġchu1Ġ":4538,"ĠĠĠt":4539,"2008Ġnian2Ġ":4540,"indow":4541,"yu3Ġhe2Ġ":4542,"Ġjia1Ġru4":4543,"ju2Ġzhang3Ġ":4544,"Ġyi1Ġsheng1Ġ":4545,"xiao3Ġshuo1":4546,"Ġshi4Ġyou3Ġ":4547,"qi1Ġzi3Ġ":4548,"yue4Ġtai2Ġ":4549,"Ġyu2Ġ197":4550,"ĠdeĠshi2Ġjian1Ġ":4551,"Ġer3Ġte4Ġ":4552,"gĠ":4553,"alĠ":4554,"55":4555,"duo1Ġnian2Ġ":4556,"chu1Ġban3":4557,"guang3Ġxi1Ġ":4558,"Ġren2Ġlei4Ġ":4559,"Ġxian4Ġwei4Ġ":4560,"kuo4Ġda4Ġ":4561,"Ġji1Ġhu1Ġ":4562,"zhu4Ġyu2Ġ":4563,"ĠhansĠ":4564,"Ġxi1":4565,"Ġruo4Ġ":4566,"yi4Ġzhong1Ġ":4567,"ĠtwĠ":4568,"yue4Ġshi2Ġ":4569,"ba4":4570,"ĠĠĠnian2Ġ":4571,"zhi3Ġzai4Ġ":4572,"zhong4Ġda4Ġ":4573,"zhe4Ġjiang1Ġ":4574,"ai1Ġer3Ġ":4575,"deng1Ġlu4Ġ":4576,"pang2":4577,"Ġsi1Ġtan3Ġ":4578,"lai2Ġdao4Ġ":4579,"ye4Ġhou4Ġ":4580,"Ġjin3Ġguan3":4581,"Ġbing4Ġmei2Ġyou3Ġ":4582,"Ġhai2":4583,"Ġyin4Ġdu4Ġ":4584,"Ġjin4Ġru4":4585,"shu4Ġxue2Ġ":4586,"bian3Ġ":4587,"ji4Ġhe2Ġ":4588,"ba1Ġli2Ġ":4589,"ĠĠĠdeĠshi2Ġ":4590,"ab":4591,"rong2Ġyu4Ġ":4592,"Ġhuo4Ġzhe3Ġ":4593,"meng2Ġgu3":4594,"che4Ġxiao1Ġ":4595,"Ġshang1Ġ":4596,"zui4Ġchu1Ġ":4597,"ba1Ġxi1Ġ":4598,"Ġshi4Ġyan3Ġ":4599,"zhou4Ġ":4600,"Ġzai4Ġ18":4601,"jie2Ġhun1Ġ":4602,"gai3Ġbian1":4603,"mu3Ġqin1Ġ":4604,"wan3Ġshang4Ġ":4605,"ĠĠĠ3":4606,"ya4Ġli4Ġshan1":4607,"ran3":4608,"Ġguo2Ġwu4Ġ":4609,"Ġgong1Ġye4":4610,"yuan4ĠdeĠ":4611,"wen2Ġzi4Ġ":4612,"Ġzhi1Ġyuan2Ġ":4613,"Ġyan3Ġ":4614,"Ġchuang4Ġ":4615,"Ġjia1Ġting2Ġ":4616,"shu4Ġzi4Ġ":4617,"17Ġ":4618,"ï¼ı":4619,"Ġzuo4Ġyong4Ġ":4620,"Ġci3Ġshi2Ġ":4621,"pan2":4622,"Ġa1Ġer3Ġ":4623,"Ġhui3Ġ":4624,"hun4Ġhe2Ġ":4625,"xu1Ġqiu2Ġ":4626,"Ġren2ĠmenĠ":4627,"Ġxue2Ġxi2Ġ":4628,"Ġxi1Ġban1Ġya2":4629,"Ġsa4Ġ":4630,"niu2":4631,"xue2Ġhe2Ġ":4632,"su1Ġlian2":4633,"heng2Ġxing1Ġ":4634,"ming2Ġyi4Ġ":4635,"fu4ĠdeĠ":4636,"ye3Ġbei4Ġ":4637,"wu4Ġzhong3":4638,"19Ġnian2Ġ":4639,"2021Ġnian2Ġ":4640,"Ġbing4Ġyi3Ġ":4641,"24Ġnian2Ġ":4642,"Ġda3Ġ":4643,"Ġde2ĠdeĠ":4644,"shi2Ġwei4Ġ":4645,"zhan4Ġdi4Ġ":4646,"xiong1Ġya2":4647,"2018Ġnian2Ġ":4648,"hua2Ġmin2Ġguo2Ġ":4649,"ĠĠĠsuo3Ġshu3ĠdeĠsheng3Ġji2Ġxuan3Ġqu1Ġwei4Ġ":4650,"ru2Ġci3Ġ":4651,"ĠĠĠdeĠyou2Ġzheng4Ġbian1Ġma3Ġwei4Ġ":4652,"ĠĠĠyu3Ġjie1Ġrang3ĠdeĠshi4Ġzhen4Ġ":4653,"ĠĠĠyu2Ġshi2ĠdeĠren2Ġkou3Ġshu4Ġliang4Ġwei4Ġren2Ġ":4654,"ĠĠĠdeĠshi2Ġqu1Ġwei4Ġ":4655,"chuang2Ġ":4656,"zong3Ġbu4Ġ":4657,"zhuang1Ġzhi4Ġ":4658,"Ġsi1Ġla1Ġ":4659,"tai2Ġbei3Ġ":4660,"Ġque4":4661,"Ġ6Ġyue4Ġ":4662,"liu3Ġ":4663,"ji4Ġnian4Ġ":4664,"que4Ġding4Ġ":4665,"shuo4Ġshi4Ġ":4666,"7Ġren2Ġ":4667,"ĠÑ":4668,"Ġshi2Ġxian4Ġ":4669,"Ġgai3":4670,"lin2ĠdeĠ":4671,"Ġzhao3":4672,"tu2Ġzhong1Ġ":4673,"guan1Ġzhu4Ġ":4674,"Ġkuan1Ġ":4675,"min2Ġzhong4Ġ":4676,"kai1Ġfang4":4677,"Ġchu1Ġxian4Ġzai4Ġ":4678,"xun4Ġsu4Ġ":4679,"ĠĠĠ2010Ġnian2Ġ":4680,"Ġling2Ġ":4681,"Ġwei4Ġle":4682,"Ġxing4Ġ":4683,"Ġwei4Ġsheng1Ġ":4684,"shi1Ġfan4":4685,"guan3Ġli3":4686,"can1Ġkao3Ġ":4687,"Ġpi2Ġ":4688,"Ġzhi1Ġming2Ġ":4689,"Ġceng2Ġren4Ġ":4690,"liu2Ġyu4Ġ":4691,"Ġji2Ġqi2":4692,"Ġqiang2Ġ":4693,"zi1Ġxun4Ġ":4694,"Ġfan3Ġ":4695,"ĠĠĠji1Ġ":4696,"Ġshi4Ġzhang3Ġ":4697,"Ġyi1Ġdai4Ġ":4698,"fu4Ġqin1Ġ":4699,"wei2ĠdeĠ":4700,"jin4Ġshi4Ġ":4701,"xiong1Ġya2Ġli4Ġ":4702,"sui1Ġran2Ġ":4703,"jing1Ġchang2Ġ":4704,"chang4Ġpian4Ġ":4705,"chu1Ġban3Ġ":4706,"75":4707,"ru3":4708,"tic":4709,"Ġge4Ġzhong3Ġ":4710,"Ġdan4Ġta1Ġ":4711,"jiang3Ġxiang4Ġ":4712,"ĠĠĠp":4713,"fei1Ġjian4Ġzhi4Ġ":4714,"Ġbu4Ġke3Ġ":4715,"ber":4716,"tai2ĠdeĠ":4717,"14Ġnian2Ġ":4718,"Ġbing4Ġli4Ġ":4719,"xue4":4720,"lu4Ġjun1":4721,"2014Ġnian2Ġ":4722,"ĠhkĠ":4723,"xi4Ġju4Ġ":4724,"Ġxue2Ġjia1Ġ":4725,"iv":4726,"niu3Ġyue1Ġ":4727,"nai3":4728,"Ġ5Ġyue4Ġ":4729,"luan4":4730,"Ġren2Ġshu4Ġ":4731,"gao1Ġdu4Ġ":4732,"zhuang4Ġkuang4Ġ":4733,"ti2Ġchu1":4734,"Ġwei4Ġhe2Ġ":4735,"ĠĠĠ2011Ġnian2Ġ":4736,"Ġdi4Ġqiu2Ġ":4737,"Ġsi1Ġte4":4738,"jing1Ġshen2Ġ":4739,"huai2":4740,"kang4Ġri4Ġ":4741,"Ġhe2Ġbing4Ġ":4742,"wei1Ġxie2Ġ":4743,"Ġhe2Ġxin1Ġ":4744,"Ġchu2":4745,"du3Ġ":4746,"Ġzhan1Ġ":4747,"fa1Ġxian4ĠleĠ":4748,"guo4Ġqu4":4749,"27Ġnian2Ġ":4750,"shan3Ġ":4751,"jiao4ĠdeĠ":4752,"Ġtong1Ġchang2Ġ":4753,"Ġche1Ġ":4754,"lan2Ġke4Ġ":4755,"Ġnian2Ġqing1":4756,"Ġyi4Ġyuan4Ġ":4757,"ye1Ġ":4758,"wang2ĠdeĠ":4759,"liang3Ġren2Ġ":4760,"sa4Ġke4Ġ":4761,"21Ġnian2Ġ":4762,"sp":4763,"cai2Ġzheng4Ġ":4764,"Ġwei2Ġqi2Ġ":4765,"jin4Ġru4":4766,"Ġzhi1Ġhou4":4767,"Ġshi4Ġzhi3Ġ":4768,"qi3Ġyi4Ġ":4769,"zhong4Ġdian3Ġ":4770,"sha4Ġ":4771,"um":4772,"lv4Ġwei4Ġ":4773,"Ġhuang2":4774,"Ġji4Ġzai3Ġ":4775,"Ġye3Ġyou3Ġ":4776,"Ġjing1Ġguo4Ġ":4777,"der":4778,"deĠĠĠ":4779,"ĠĠĠzhong1Ġguo2Ġ":4780,"Ġci2Ġ":4781,"li4Ġshi4Ġ":4782,"tu2Ġshu1Ġguan3Ġ":4783,"Ġzu3Ġ":4784,"zhu3Ġchi2Ġ":4785,"fei1Ġjian4Ġzhi4Ġdi4Ġqu1Ġ":4786,"Ġgui1Ġ":4787,"shou3Ġdu1Ġ":4788,"jiang1Ġxi1Ġ":4789,"diao4Ġcha2":4790,"Ġqian2":4791,"ao4Ġdi4Ġli4Ġ":4792,"shu2":4793,"dou1Ġhui4Ġ":4794,"Ġyin1Ġer2Ġ":4795,"Ġjin3":4796,"quan3Ġ":4797,"tai4Ġyang2":4798,"Ġzhu1":4799,"Ġche1Ġzhan4Ġ":4800,"liang3Ġnian2Ġ":4801,"xun4Ġlian4":4802,"ĠĠĠjie2":4803,"sui4Ġdao4Ġ":4804,"Ġda4Ġlou2Ġ":4805,"cun4Ġ":4806,"shang4Ġshu1Ġ":4807,"Ġzuo4Ġpin3":4808,"15Ġnian2Ġ":4809,"00Ġwan4Ġ":4810,"Ġshi4Ġji2Ġ":4811,"Ġhe2Ġzhong1Ġ":4812,"Ġbu4Ġduan4Ġ":4813,"chan3Ġpin3":4814,"zeng4Ġ":4815,"min2Ġzu2":4816,"ling3Ġdao3Ġren2Ġ":4817,"zhan4Ġdou4":4818,"xi4Ġtong3ĠdeĠ":4819,"xi4Ġbao1":4820,"shan1Ġmai4":4821,"Ġe2Ġluo2Ġsi1Ġ":4822,"kan4Ġdao4Ġ":4823,"Ġchi4Ġ":4824,"Ġyu2Ġ194":4825,"Ġzhong1Ġguo2Ġgong4Ġchan3Ġdang3Ġ":4826,"9Ġren2Ġ":4827,"Ġda2Ġ":4828,"ĠdeĠcheng2Ġyuan2Ġ":4829,"Ġhe2Ġcheng2Ġ":4830,"Ġji4Ġsuan4":4831,"Ġzai4Ġjia1Ġ":4832,"AS":4833,"tou":4834,"Ġda4Ġduo1Ġ":4835,"kuang2Ġ":4836,"guang3Ġgao4Ġ":4837,"na4Ġli3Ġ":4838,"Ġ00Ġ":4839,"190":4840,"29Ġnian2Ġ":4841,"Ġ4Ġyue4Ġ":4842,"Ġzao4Ġcheng2Ġ":4843,"hua4Ġwei4Ġ":4844,"2015Ġnian2Ġ":4845,"xiao4Ġguo3Ġ":4846,"chang4Ġpian4":4847,"Ġzheng4Ġzhuang4Ġ":4848,"nuo2Ġ":4849,"hai3Ġdao4Ġ":4850,"shen1Ġwei4Ġ":4851,"yong4Ġhu4Ġ":4852,"Ġli3Ġlun4Ġ":4853,"jiao4Ġlian4Ġ":4854,"Ġ2004Ġnian2Ġ":4855,"ying2Ġyun4Ġ":4856,"Ġzi4Ġji3ĠdeĠ":4857,"Ġhua1Ġ":4858,"zhao3Ġ":4859,"sai4ĠdeĠ":4860,"Ġ188":4861,"tor":4862,"Ġchuan2Ġ":4863,"jiang1Ġsu1Ġ":4864,"chan3Ġsheng1ĠdeĠ":4865,"shi2Ġjian1Ġ":4866,"que4Ġzhen3":4867,"yue4Ġzai4Ġ":4868,"22Ġnian2Ġ":4869,"fu4Ġjin4Ġ":4870,"ju4Ġli2Ġ":4871,"Ġteng2Ġ":4872,"xia4Ġji4Ġao4Ġlin2Ġpi3Ġke4Ġyun4Ġdong4Ġhui4Ġ":4873,"sui1Ġran2":4874,"sun3Ġshi1Ġ":4875,"ĠĠĠzhĠ":4876,"34":4877,"wu3Ġzhuang1Ġ":4878,"Ġruo4":4879,"Ġquan2Ġguo2Ġ":4880,"Ġda4Ġxing2Ġ":4881,"Ġzhi1Ġxia4Ġ":4882,"shen1Ġqing3Ġ":4883,"Ġke1":4884,"Ġlv4Ġ":4885,"Ġtuo1Ġ":4886,"ĠĠĠU":4887,"zhi2Ġdao4Ġ":4888,"run4Ġ":4889,"Ġshi4Ġzhen4":4890,"Ġgong1Ġren2Ġ":4891,"ao4Ġyun4Ġhui4Ġ":4892,"Ġbian4":4893,"lan2Ġqiu2Ġ":4894,"you1Ġshi4Ġ":4895,"ĠĠĠjia1Ġzu2Ġ":4896,"Ġshi4Ġren2Ġ":4897,"li2Ġkai1":4898,"zhou1ĠdeĠ":4899,"jiao4Ġshi1Ġ":4900,"yin3Ġqi3":4901,"Ġou1Ġ":4902,"ji4Ġshi2Ġ":4903,"hua2Ġren2Ġ":4904,"zhan4Ġdou4Ġ":4905,"pin3Ġpai2Ġ":4906,"11Ġnian2Ġ":4907,"edĠĠĠ":4908,"Ġmei4Ġ":4909,"2017Ġnian2Ġ":4910,"Ġchang2":4911,"xian3ĠdeĠ":4912,"ju4ĠdeĠ":4913,"wang2Ġchao2":4914,"Ġwang3Ġ":4915,"han2Ġshu4Ġ":4916,"ĠCĠ":4917,"jie4ĠdeĠ":4918,"Ġyue4Ġnan2Ġ":4919,"tun2Ġ":4920,"Ġyou3Ġshi2Ġ":4921,"qia4Ġ":4922,"jia1Ġzhong1Ġ":4923,"sun3":4924,"65":4925,"bao4Ġdao3Ġ":4926,"fang3Ġwen4Ġ":4927,"2011Ġnian2Ġ":4928,"ju1Ġzhu4Ġ":4929,"gao1Ġdeng3Ġ":4930,"Ġdao4Ġle":4931,"Ġji4Ġzhe3Ġ":4932,"Ġdan4Ġyou2Ġyu2Ġ":4933,"tiao2Ġzheng3Ġ":4934,"Ġxiang3":4935,"shan3Ġxi1Ġ":4936,"zeng1Ġzhang3Ġ":4937,"niao3":4938,"ying1Ġwen2Ġ":4939,"ai":4940,"Ġxu3Ġduo1Ġ":4941,"jin1ĠdeĠ":4942,"bao3Ġchi2":4943,"Ġyue4Ġtai2Ġ":4944,"Ġ10Ġ":4945,"you3Ġbu4Ġ":4946,"xi2Ġwei4Ġ":4947,"Ġji2Ġli4Ġ":4948,"Ġxi1Ġwang4":4949,"ao4Ġmen2Ġ":4950,"su4ĠdeĠ":4951,"Ġzhong1Ġwen2Ġ":4952,"chai2":4953,"zhen1Ġshi2Ġ":4954,"13Ġnian2Ġ":4955,"Ġdi4Ġwu3Ġ":4956,"mei3Ġshu4Ġ":4957,"Ġhuo4Ġde2ĠleĠ":4958,"yun3Ġxu3Ġ":4959,"chou1Ġ":4960,"zhong1Ġwei4Ġ":4961,"yin4Ġdi4Ġ":4962,"fei1Ġlv4Ġ":4963,"liang3Ġzhong3Ġ":4964,"fa3Ġan4Ġ":4965,"hui2Ġying4Ġ":4966,"she3Ġ":4967,"sheng1Ġzai4Ġ":4968,"yi2Ġmin2Ġ":4969,"guan1Ġxi4":4970,"2020Ġnian2Ġmei3Ġguo2Ġren2Ġkou3Ġpu3Ġcha2ĠdeĠshu4Ġju4Ġ":4971,"jiao4Ġxue2Ġ":4972,"wu3Ġtai2Ġ":4973,"lei4ĠdeĠ":4974,"Ġzhou1Ġnian2Ġ":4975,"ma3Ġsi1Ġ":4976,"lie4Ġbiao3Ġ":4977,"ming4Ġling4Ġ":4978,"bai2Ġse4Ġ":4979,"ĠdeĠgong1Ġzuo4Ġ":4980,"zhong1Ġhua2Ġren2Ġmin2Ġgong4Ġhe2Ġguo2Ġ":4981,"Ġsun1Ġ":4982,"23Ġnian2Ġ":4983,"--":4984,"Ġyu3Ġyan2":4985,"Ġren4Ġwu4Ġ":4986,"duo1Ġren2Ġ":4987,"shen2Ġjing1Ġ":4988,"yi2Ġchan3Ġ":4989,"yao1Ġqing3Ġ":4990,"hui4Ġyuan2Ġ":4991,"wa3Ġer3Ġ":4992,"Ġfeng2Ġ":4993,"deng3Ġwei4Ġ":4994,"du1Ġshi4Ġ":4995,"Ġjin4Ġgong1Ġ":4996,"yi3Ġlai2Ġ":4997,"1Ġyue4Ġ1Ġri4Ġ":4998,"hua4Ġjia1Ġ":4999,"quan2Ġmian4Ġ":5000,"mou3":5001,"Ġshi2Ġyi1Ġ":5002,"Ġshi2Ġqi1":5003,"Ġda4Ġyue1Ġ":5004,"yi2Ġzhi3Ġ":5005,"Ġri4Ġjun1Ġ":5006,"ceng2Ġjing1":5007,"he":5008,"jie1Ġji2Ġ":5009,"17Ġnian2Ġ":5010,"Ġbu4Ġmen2":5011,"Ġsheng4":5012,"ĠĠĠzao3Ġnian2Ġ":5013,"dong1Ġji4Ġ":5014,"shu1ĠdeĠ":5015,"Ġhe2Ġxi1Ġ":5016,"Ġshe4Ġji2Ġ":5017,"ze2Ġwei4Ġ":5018,"duan4ĠdeĠ":5019,"jing1Ġli3Ġ":5020,"hua1Ġyuan2Ġ":5021,"qi4Ġxiang4Ġ":5022,"da":5023,"yue1Ġyou3Ġ":5024,"mei3Ġguo2ĠdeĠ":5025,"Ġzai4Ġxi1Ġ":5026,"bing3":5027,"Ġzhi4Ġshi2Ġ":5028,"Ġli4Ġshi3":5029,"xia4Ġyi1Ġ":5030,"ying2ĠdeĠ":5031,"Ġji1Ġche1Ġ":5032,"ling3Ġtu3Ġ":5033,"zhai4Ġ":5034,"kun1":5035,"ke4Ġli3Ġ":5036,"Ġwo3ĠmenĠ":5037,"yi4Ġnian2Ġ":5038,"Ġzhi4Ġli4Ġ":5039,"rao3Ġ":5040,"Ġzuo3Ġ":5041,"pin4Ġ":5042,"mian4Ġdui4Ġ":5043,"Ġmei3Ġnian2Ġ":5044,"mang2Ġ":5045,"yuan2Ġji2Ġ":5046,"mi3ĠdeĠ":5047,"Ġhe2Ġlan2Ġ":5048,"Ġxing2Ġzheng4":5049,"Ġsuo3Ġyi3":5050,"wan2Ġquan2":5051,"Ġyuan2Ġyin1":5052,"Ġshi4Ġda4Ġ":5053,"Ġgong1Ġchang3Ġ":5054,"zi1Ġjin1Ġ":5055,"fang2Ġyu4Ġ":5056,"Ġai1Ġ":5057,"yuan2Ġzai4Ġ":5058,"Ġ3Ġyue4Ġ":5059,"jiu3Ġdian4Ġ":5060,"Ġming2Ġchao2Ġzheng4Ġzhi4Ġren2Ġwu4Ġ":5061,"Ġ2023Ġnian2Ġ":5062,"cheng1Ġzuo4Ġ":5063,"xue2Ġshu4Ġ":5064,"Ġji4Ġshu4":5065,"xia4Ġling4":5066,"Ġqi1":5067,"Ġshi2Ġer4Ġ":5068,"Ġren2Ġmin2":5069,"ĠĠĠxin1Ġ":5070,"ti2Ġsheng1Ġ":5071,"cai2Ġliao4Ġ":5072,"sou1":5073,"jin4Ġgong1Ġ":5074,"Ġzhong1Ġyu2Ġ":5075,"gui1Ġze2Ġ":5076,"cui4Ġ":5077,"Ġcan1Ġjia1Ġ":5078,"da4Ġdi4Ġ":5079,"2009Ġnian2Ġ":5080,"26Ġnian2Ġ":5081,"Ġkang1":5082,"wen2Ġxian4Ġ":5083,"est":5084,"ĠĠĠta1Ġ":5085,"Ġyuan2Ġming2Ġ":5086,"zong4Ġ":5087,"te4Ġli3Ġ":5088,"Ġyi4Ġyi4Ġ":5089,"zuo4Ġyong4Ġ":5090,"sheng1Ġji2Ġ":5091,"Ġhe2Ġgong1Ġ":5092,"nei4Ġlu4Ġ":5093,"shou1Ġlu4":5094,"ĠĠĠhou4Ġ":5095,"Ġguo2Ġhui4Ġ":5096,"qi3Ġye4":5097,"Ġ2002Ġnian2Ġ":5098,"eg":5099,"xi3Ġhuan1Ġ":5100,"Ġxiao4Ġ":5101,"2023Ġnian2Ġ":5102,"ji1Ġchang3Ġ":5103,"keng1":5104,"Ġgong1Ġhui4Ġ":5105,"Ġyuan2Ġgong1Ġ":5106,"biao3Ġmian4Ġ":5107,"2013Ġnian2Ġ":5108,"Ġzhi4Ġliao2Ġ":5109,"wu2Ġfa3":5110,"qian3":5111,"jie2Ġke4Ġ":5112,"can1Ġmou2Ġ":5113,"Ġguo2Ġfang2":5114,"Ġshi4Ġyi1Ġzhong3":5115,"IN":5116,"juan4Ġ":5117,"nai3Ġ":5118,"yong4Ġzuo4Ġ":5119,"lai4":5120,"zhu3Ġchi2":5121,"wei1Ġji1Ġ":5122,"Ġdi4Ġyi1Ġci4Ġ":5123,"Ġnan2Ġzhi4Ġ":5124,"ĠĠĠyou2Ġ":5125,"Ġyu2Ġ196":5126,"jia1Ġru4":5127,"ĠĠĠ2008Ġnian2Ġ":5128,"tai4Ġren2Ġ":5129,"Ġyi4Ġfang1Ġmian4Ġ":5130,"Ġyang2":5131,"zhi1Ġjian1Ġ":5132,"Ġhan2Ġguo2Ġ":5133,"19Ġ":5134,"bei4Ġshi4Ġwei4Ġ":5135,"wen2Ġyi4Ġ":5136,"Ġshi4Ġhou4Ġ":5137,"li3Ġlun4Ġ":5138,"nv3Ġzi3":5139,"68":5140,"ali":5141,"ent":5142,"Ġzai4Ġ198":5143,"Ġxian4Ġhe2Ġ":5144,"xiang1Ġguan1":5145,"Ġnian2Ġshi4Ġjie4Ġ":5146,"Ġcheng2Ġxian4Ġ":5147,"Ġxing1Ġ":5148,"dong1Ġnan2Ġbu4Ġ":5149,"ge2Ġwei4Ġ":5150,"ying2Ġde2":5151,"da4Ġwei4Ġ":5152,"kong1Ġzhong1Ġ":5153,"hui1Ġfu4":5154,"ke3Ġyi3Ġzai4Ġ":5155,"zhu4Ġli3Ġ":5156,"tian1ĠdeĠ":5157,"kong3Ġbu4Ġ":5158,"os":5159,"dai4Ġli3Ġ":5160,"liu2Ġzai4Ġ":5161,"16Ġnian2Ġ":5162,"zuo4Ġwei4Ġ":5163,"kui2":5164,"Ġfan3":5165,"shang3":5166,"jian4Ġshe4Ġ":5167,"shou3Ġji1Ġ":5168,"qi2Ġzhong1Ġyi1Ġzhong3Ġ":5169,"li4Ġwei4Ġ":5170,"shu1Ġji2Ġ":5171,"Ġer2Ġcheng2Ġ":5172,"Ġxiang1Ġguan1Ġ":5173,"Ġzhong1ĠdeĠ":5174,"suo3Ġzai4Ġ":5175,"gu4Ġwen4Ġ":5176,"zi4Ġdong4Ġ":5177,"Ġman4Ġ":5178,"shao1":5179,"Ġjian4ĠleĠ":5180,"31":5181,"yi3Ġxia4Ġ":5182,"50Ġnian2Ġ":5183,"Ġxiao3":5184,"you3Ġzai4Ġ":5185,"da4Ġlu4ĠdeĠ":5186,"bo1Ġlan2":5187,"cheng2Ġnian2Ġ":5188,"ji1Ġhe2Ġ":5189,"yan3Ġyi4Ġ":5190,"hui4Ġshi4Ġ":5191,"kuang1Ġ":5192,"jin1Ġshu3Ġ":5193,"44":5194,"ti1Ġ":5195,"tong1Ġche1Ġ":5196,"te4Ġshu1Ġ":5197,"Ġfu4Ġze2":5198,"Ġjie2Ġzhi4Ġ":5199,"Ġru4Ġ":5200,"Ġzuo4Ġwei2":5201,"ci":5202,"ĠsĠĠĠ":5203,"fa1ĠdeĠ":5204,"Ġfang1Ġ":5205,"biao3Ġda2":5206,"Ġyou3Ġji1Ġ":5207,"Ġjin4Ġyi2Ġbu4Ġ":5208,"Ġ2001Ġnian2Ġren2Ġkou3Ġ":5209,"zhao1Ġhe2Ġ":5210,"Ġta1Ġye3Ġ":5211,"ju1Ġmin2":5212,"ang":5213,"tong1Ġdao4Ġ":5214,"jing4ĠdeĠ":5215,"menĠdeĠ":5216,"shuo1Ġming2Ġ":5217,"zhi2Ġmin2":5218,"Ġbei3Ġqi3Ġ":5219,"Ġ7Ġ":5220,"jiang1Ġhui4Ġ":5221,"si3Ġhou4Ġ":5222,"Ġdong4Ġhua4Ġ":5223,"Ġ000Ġ":5224,"si1Ġli4Ġ":5225,"dao4Ġlu4Ġ":5226,"zhu3ĠdeĠ":5227,"wang2Ġchao2Ġ":5228,"per":5229,"Ġshi4Ġwei1Ġ":5230,"ya4Ġli4Ġshan1Ġda4Ġ":5231,"Ġzheng4":5232,"Ġyi3Ġbei4Ġ":5233,"Ġdao4Ġda2Ġ":5234,"Ġzhi1Ġjian1":5235,"Ġping2Ġmian4Ġ":5236,"ying3Ġpian4":5237,"ame":5238,"STĠ":5239,"Ġzhong1Ġguo2Ġda4Ġlu4Ġ":5240,"kou4Ġ":5241,"Ġying1Ġyu3Ġ":5242,"zhu3Ġli4Ġ":5243,"chang2ĠdeĠ":5244,"ni2Ġke4Ġ":5245,"Ġzai4Ġwei4Ġ":5246,"di4Ġer4Ġ":5247,"Ġà":5248,"Ġyu2Ġle4Ġ":5249,"Ġcang1Ġ":5250,"yao4Ġwu4Ġ":5251,"Ġxian4ĠdeĠyi2Ġge4Ġ":5252,"2024Ġnian2Ġ":5253,"Ġbu4Ġbu4Ġ":5254,"Ġ2000Ġnian2Ġ":5255,"nan2Ġjing1Ġ":5256,"teng2":5257,"ĠdeĠzheng4Ġ":5258,"Ġxi1Ġsi1Ġ":5259,"Ġjie4Ġ":5260,"ĠĠĠ2025Ġnian2Ġ":5261,"Ġguang3Ġ":5262,"Ġer2Ġyan2Ġ":5263,"Ġcu4":5264,"miao2Ġshu4":5265,"1ĠĠĠ":5266,"Ġhong2":5267,"jiao1Ġhui4Ġ":5268,"bo1Ġlan2Ġ":5269,"Ġxian4ĠdeĠyi2Ġge4":5270,"Ġlai2Ġzi4Ġ":5271,"shou3Ġge4Ġ":5272,"Ġta1Ġwei4Ġ":5273,"Ġxing2Ġdong4":5274,"ci4Ġshi3Ġ":5275,"lv4Ġshi1Ġ":5276,"Ġke4Ġcheng2Ġ":5277,"Ġyou3Ġyi4Ġ":5278,"ye3Ġhui4Ġ":5279,"jin1Ġhui4Ġ":5280,"ji3Ġge4Ġ":5281,"po2Ġ":5282,"AR":5283,"esĠĠĠ":5284,"mi2":5285,"Ġzhan4Ġdou4Ġ":5286,"Ġxuan1Ġbu4Ġ":5287,"fei1Ġzhou1Ġ":5288,"lao2Ġdong4Ġ":5289,"dong1Ġbei3Ġbu4Ġ":5290,"jin1Ġpai2Ġ":5291,"ĠĠĠ2009Ġnian2Ġ":5292,"ya4Ġzhou1":5293,"hai3Ġan4Ġ":5294,"Ġ0Ġ":5295,"ĠĠĠxia4Ġ":5296,"Ġ2003Ġnian2Ġ":5297,"and":5298,"ĠdeĠjia1Ġ":5299,"mu4Ġbiao1":5300,"Ġbi3":5301,"fu2Ġyi4Ġ":5302,"Ġtang1Ġ":5303,"wo3ĠmenĠ":5304,"Ġshi4Ġyu3Ġ":5305,"ti2Ġdao4Ġ":5306,"Ġer2Ġshui3Ġyu4Ġmian4Ġji1Ġwei4Ġ0":5307,"ãĥ»":5308,"gong3Ġ":5309,"ÃĹ":5310,"ju4Ġhe2Ġ":5311,"Ġguo2Ġjia1ĠdeĠ":5312,"Ġzha1Ġ":5313,"che1ĠdeĠ":5314,"zi4Ġyou2":5315,"Ġfu4Ġqin1Ġ":5316,"ben3Ġdi4Ġ":5317,"tui1Ġdong4Ġ":5318,"Ġzhi1Ġwei4Ġ":5319,"kao3Ġlv4":5320,"yun4Ġzuo4Ġ":5321,"Ġjie2Ġguo3Ġ":5322,"neĠ":5323,"zhuang1Ġjia3Ġ":5324,"shi1Ġbai4Ġ":5325,"gou4Ġzao4Ġ":5326,"ff":5327,"Ġqiao2Ġ":5328,"Ġ30Ġ":5329,"Ġbu4Ġde2":5330,"Ġshi2Ġyan4Ġ":5331,"ju4Ġle4Ġbu4Ġ":5332,"dang1Ġshi2ĠdeĠ":5333,"Ġwu4Ġ":5334,"Ġcheng1Ġwei2Ġ":5335,"sui4Ġshi2Ġ":5336,"lv3Ġxing2Ġ":5337,"Ġchu1Ġlai2Ġ":5338,"bian1Ġju4Ġ":5339,"tui4Ġchu1Ġ":5340,"an1Ġzhuang1":5341,"Ġbing4Ġjiang1Ġ":5342,"Ġqiu2Ġyuan2Ġ":5343,"Ġshi4Ġjia1Ġ":5344,"tang1Ġ":5345,"Ġhe2Ġqi2Ġta1Ġ":5346,"ao4Ġda4Ġli4Ġya4Ġ":5347,"pao3":5348,"qie1Ġ":5349,"Ġcheng2Ġxu4Ġ":5350,"fen3":5351,"chuang2":5352,"zhuang1Ġshi4Ġ":5353,"Ġyu2Ġ195":5354,"fa3Ġyuan4":5355,"to":5356,"Ġli2Ġ":5357,"Ġer2Ġgai1Ġdi4Ġ":5358,"mu4Ġqian2":5359,"ĠĠĠcheng2Ġ":5360,"bian4Ġde2Ġ":5361,"Ġbu4Ġla1Ġ":5362,"bo1Ġfang4Ġ":5363,"cao1Ġzuo4Ġ":5364,"ji4Ġlu4Ġ":5365,"fu4Ġqin1":5366,"2ĠĠĠ":5367,"da1":5368,"ph":5369,"Ġxiu1Ġ":5370,"Ġlei2Ġ":5371,"Ġyi1Ġji2Ġ":5372,"jin4Ġyi2Ġbu4Ġ":5373,"dian4Ġnao3Ġ":5374,"Ġtao4Ġ":5375,"mao2Ġze2Ġ":5376,"Ġwei4Ġyou3Ġ":5377,"Ġda4Ġlu4Ġ":5378,"Ġbing4Ġyu3Ġ":5379,"mo4Ġxi1Ġge1Ġ":5380,"tou4":5381,"sa4Ġsi1Ġ":5382,"jiao1Ġliu2Ġ":5383,"yan3Ġchang4Ġ":5384,"64":5385,"Ġguan1Ġyu2Ġ":5386,"xiao4ĠdeĠ":5387,"Ġjia1Ġzu2Ġ":5388,"Ġhen3Ġ":5389,"yi4Ġda4Ġli4Ġ":5390,"gu3Ġfen4":5391,"Ġzhong1Ġgong4Ġzhong1Ġyang1Ġ":5392,"xian1Ġsheng1Ġ":5393,"guan1Ġbi4Ġ":5394,"Ġcheng2Ġwei2ĠleĠ":5395,"tao3Ġlun4Ġ":5396,"luo2Ġdi4Ġ":5397,"jin3Ġji2Ġ":5398,"qing3Ġqiu2Ġ":5399,"Ġjin4Ġxing2ĠleĠ":5400,"ĠĠĠin":5401,"shou1Ġshi4Ġ":5402,"Ġwei4Ġlai2Ġ":5403,"Ġji1Ġbai4":5404,"Ġzhen4Ġ":5405,"ba1Ġli2":5406,"Ġzhu3Ġxi2Ġ":5407,"Ġli3":5408,"sa4Ġer3Ġ":5409,"ĠĠĠs":5410,"2007Ġnian2Ġ":5411,"bo2Ġwu4Ġguan3":5412,"Ġfu4Ġqin1":5413,"HĠ":5414,"Ġdu2Ġ":5415,"Ġsi1Ġke4Ġ":5416,"jing3Ġfang1Ġ":5417,"chang3Ġhe2Ġ":5418,"hong2Ġse4Ġ":5419,"ĠĠĠcong2Ġ":5420,"zhi4Ġzuo4Ġ":5421,"Ġr":5422,"tan3Ġke4Ġ":5423,"Ġyi4Ġmei3Ġyuan2Ġ":5424,"jie2Ġguo3":5425,"huo3Ġshan1Ġ":5426,"35Ġ":5427,"ken3":5428,"she3":5429,"Ġchu1Ġqi1Ġ":5430,"ea":5431,"chuang4Ġban4":5432,"ĠleĠta1Ġ":5433,"guang3Ġfan4":5434,"huo3Ġjian4Ġ":5435,"bi3Ġli4Ġshi2Ġ":5436,"tai4Ġping2Ġyang2":5437,"ĠĠĠb":5438,"te4Ġse4Ġ":5439,"âĶ":5440,"jue2Ġdui4Ġ":5441,"Ġte4Ġbie2Ġshi4Ġ":5442,"yu2Ġzai4Ġ":5443,"ding4ĠleĠ":5444,"bian1ĠdeĠ":5445,"Ġchu1Ġsheng1Ġ":5446,"Ġliang2Ġ":5447,"Ġshi4Ġri4Ġben3Ġ":5448,"Ġyi3Ġyou3Ġ":5449,"Ġci4Ġ":5450,"Ġbai3Ġ":5451,"shang4Ġwu3Ġ":5452,"Ġzhi4Ġcheng2Ġ":5453,"Ġzhi1ĠdeĠ":5454,"Ġbei4Ġren4Ġwei2Ġshi4Ġ":5455,"min2Ġjian1Ġ":5456,"min2Ġzhu3Ġdang3Ġ":5457,"nei4Ġyou3Ġ":5458,"2000Ġnian2Ġ":5459,"wan2Ġgong1Ġ":5460,"Ġda4Ġdao4Ġ":5461,"guang3Ġdong1Ġsheng3Ġ":5462,"In":5463,"ST":5464,"geng4Ġduo1Ġ":5465,"shen1Ġti3Ġ":5466,"nan2Ġyi3Ġ":5467,"ju4Ġjue2Ġ":5468,"yong4Ġtu2Ġ":5469,"zhong3Ġzu2Ġ":5470,"zhe3Ġzai4Ġ":5471,"tian1Ġjin1":5472,"bao3Ġliu2Ġ":5473,"hu2Ġbei3Ġ":5474,"Ġqi1Ġxi1Ġzai4Ġ":5475,"Ġfei4":5476,"er4Ġyue4Ġ":5477,"Ġzhi1ĠziĠ":5478,"mu3Ġqin1":5479,"leĠyi1Ġ":5480,"Ġda4Ġduo1Ġshu4Ġ":5481,"Ġguan1":5482,"xi2Ġxing4":5483,"Ġnv3Ġxing4Ġ":5484,"mei3Ġge4Ġ":5485,"ĠdeĠsheng1Ġ":5486,"Ġchao2Ġ":5487,"jian4Ġyi4Ġ":5488,"dai4Ġbiao3Ġda4Ġhui4Ġ":5489,"Ġshou4":5490,"Ġmeng2Ġ":5491,"wai4Ġbu4Ġ":5492,"Ġxian4Ġchang3Ġ":5493,"an1Ġquan2":5494,"yan2Ġshen1":5495,"wang3Ġluo4":5496,"li4Ġzai4Ġ":5497,"Ġshi4Ġzheng4Ġ":5498,"sen1Ġlin2Ġ":5499,"huo4Ġde2ĠleĠ":5500,"ĠĠĠzeng1Ġ":5501,"xiao4Ġyuan2Ġ":5502,"Ġri4Ġjun1":5503,"e2Ġluo2Ġsi1":5504,"Ġyong1Ġyou3Ġ":5505,"ï¼ħ":5506,"Ġyue4Ġtuan2Ġ":5507,"an1Ġna4Ġ":5508,"gao1Ġsu4Ġ":5509,"Ġ187":5510,"Ġyou3Ġxian4Ġ":5511,"tian1Ġjin1Ġ":5512,"zui3Ġ":5513,"Ġyuan2Ġsu4Ġ":5514,"Ġshi4Ġye4Ġ":5515,"Ġbu4Ġneng2":5516,"xing4Ġqu4Ġ":5517,"Ġzhe2":5518,"Ġta1ĠmenĠzai4Ġ":5519,"teĠ":5520,"ma3Ġlai2Ġxi1Ġya4Ġ":5521,"nai4":5522,"Ġwei3Ġ":5523,"an1Ġpai2Ġ":5524,"tai2Ġfeng1Ġ":5525,"Ġlao3Ġ":5526,"li2Ġmi3Ġ":5527,"Ġmo4":5528,"sui4ĠdeĠ":5529,"Ġdeng4":5530,"ti2Ġgao1Ġ":5531,"yin3Ġqing2Ġ":5532,"58":5533,"Ġgao1":5534,"ling3Ġxiu4Ġ":5535,"zhang4Ġai4Ġ":5536,"âĶĢ":5537,"chang3Ġdi4Ġ":5538,"Ġyi4Ġyuan4":5539,"qian1Ġzhi4Ġ":5540,"long2Ġjiang1Ġ":5541,"yin3Ġqi3Ġ":5542,"1Ġli4Ġ":5543,"dao3Ġdan4Ġ":5544,"zuo4Ġzhan4Ġ":5545,"wu4Ġyuan2Ġ":5546,"ew":5547,"ver":5548,"Ġji2Ġbei3Ġ":5549,"suo3ĠdeĠ":5550,"ban4Ġli3Ġ":5551,"mi4Ġmi4Ġ":5552,"wei4ĠĠĠ":5553,"shang4Ġdi4Ġ":5554,"ling3Ġshi4Ġ":5555,"Ġbu4Ġjiu3":5556,"Ġji4Ġsuan4Ġ":5557,"tu3Ġer3Ġqi2Ġ":5558,"Ġjiao1Ġ":5559,"shua1Ġ":5560,"Ġzai4Ġqi2Ġ":5561,"chuan2Ġshuo1Ġ":5562,"nong2Ġye4":5563,"Ġqing1Ġchao2Ġ":5564,"Ġ8Ġ":5565,"li3Ġgong1Ġ":5566,"chang2Ġjian4ĠdeĠ":5567,"Ġbu4Ġzu2Ġ":5568,"ge1Ġlun2Ġ":5569,"3Ġge4Ġ":5570,"Ġjing1Ġji4Ġ":5571,"Ġhe2Ġshi2Ġ":5572,"Ġcheng2Ġren4Ġ":5573,"fa3Ġguan1Ġ":5574,"bi3Ġya4":5575,"Ġzhong1Ġshi4Ġ":5576,"Ġcheng2Ġdu4Ġ":5577,"qing2Ġbao4Ġ":5578,"ming2Ġzhi4Ġ":5579,"shi1Ġqu4":5580,"nu3Ġli4Ġ":5581,"ceĠĠĠ":5582,"ren4Ġshi2Ġ":5583,"Ġsi1Ġtan3":5584,"hua2Ġsheng4Ġ":5585,"gui4Ġzhou1Ġ":5586,"xi3Ġju4Ġ":5587,"Ġgong1Ġzhu3Ġ":5588,"jing1Ġyan4Ġ":5589,"dian4Ġzi":5590,"Ġsheng1Ġchan3Ġ":5591,"xi2Ġxing4Ġbu4Ġming2Ġ":5592,"ren4Ġming4Ġwei4Ġ":5593,"Ġhe4Ġ":5594,"Ġjie2Ġmu4Ġ":5595,"cao2Ġ":5596,"Ġlu4":5597,"zha1":5598,"2006Ġnian2Ġ":5599,"zui4Ġgao1":5600,"45Ġ":5601,"Ġxiang4":5602,"zhu3Ġshi4Ġ":5603,"zhi2Ġdao3Ġ":5604,"Ġzai4Ġci3":5605,"ming2Ġzi4Ġ":5606,"qiong2Ġ":5607,"ji4Ġxu4Ġ":5608,"quan2Ġzhang3Ġ":5609,"ying4Ġyong4":5610,"Ġge2":5611,"ĠĠĠmei3Ġguo2Ġ":5612,"Ġ186":5613,"Ġwei4Ġji1Ġ":5614,"Ġta1Ġhai2Ġ":5615,"tai2Ġbei3Ġshi4Ġ":5616,"Ġsheng1Ġhuo2Ġxi2Ġxing4Ġbu4Ġming2Ġ":5617,"ĠĠĠxian4":5618,"kao3Ġlv4Ġ":5619,"Ġhe2Ġhe2Ġ":5620,"Ġju4Ġyou3Ġ":5621,"di4Ġzai4Ġ":5622,"she4Ġzhi4Ġ":5623,"hai3Ġwai4Ġ":5624,"zhou4":5625,"zhi4Ġzhong1Ġ":5626,"hen3Ġda4Ġ":5627,"Ġhuai2Ġ":5628,"xin1Ġjia1Ġpo1Ġ":5629,"sheng1Ġcheng2Ġ":5630,"Ġzhi1Ġdao4Ġ":5631,"zhi2Ġjie1":5632,"sai4Ġzhong1Ġ":5633,"Ġgong4":5634,"ji4Ġshi4Ġ":5635,"Ġshi2Ġdai4":5636,"2Ġge4Ġ":5637,"Ġgang3Ġ":5638,"99":5639,"Ġhui2Ġ":5640,"zhuan4":5641,"Ġqi2Ġzai4Ġ":5642,"san1Ġshi4Ġ":5643,"Ġer2Ġbu2Ġshi4Ġ":5644,"hua4Ġhe2Ġwu4Ġ":5645,"Ġbu4Ġluo4Ġ":5646,"lian3Ġ":5647,"bao4Ġli4Ġ":5648,"Ġwei4Ġxing1Ġ":5649,"zhao4Ġkai1Ġ":5650,"Ġci4Ġnian2Ġ":5651,"Ġgan1Ġ":5652,"Ġyi1Ġxue2Ġ":5653,"shou4Ġhuan1Ġ":5654,"Ġtou4Ġguo4Ġ":5655,"Ġfang2Ġ":5656,"yun3":5657,"shu1Ġru4Ġ":5658,"gai3Ġbian4":5659,"og":5660,"Ġlie4Ġ":5661,"Ġyue1Ġhan4Ġ":5662,"Ġyou3Ġxie1Ġ":5663,"shang4Ġying4Ġ":5664,"fang4Ġqi4Ġ":5665,"ĠĠĠ2007Ġnian2Ġ":5666,"jia1Ġli4Ġfu2Ġ":5667,"ma3Ġli3Ġ":5668,"tui1Ġjin4Ġ":5669,"Ġzai4Ġnei4ĠdeĠ":5670,"Ġxian4Ġxiang4Ġ":5671,"piao4Ġfang2Ġ":5672,"Ġjing1":5673,"Ġchu3Ġyu2Ġ":5674,"ming2Ġren2Ġ":5675,"Ġyou3Ġyi2Ġge4Ġ":5676,"zi1Ġchan3Ġ":5677,"tou2Ġzi1":5678,"ĠĠĠIn":5679,"Ġqi3":5680,"ĠĠĠli3Ġ":5681,"han3":5682,"fa3Ġyu3Ġ":5683,"yuan4Ġshi4Ġ":5684,"Ġdong1Ġnan2Ġ":5685,"Ġye3Ġjiu4Ġshi4Ġ":5686,"Ġpei4":5687,"Ġshi4Ġfou3Ġ":5688,"Ġguo2Ġnei4Ġ":5689,"ĠĠĠci3Ġwai4Ġ":5690,"oh":5691,"shun4Ġli4Ġ":5692,"jia4Ġge2Ġ":5693,"Ġbo2":5694,"Ġzhan4Ġdou4":5695,"ban3Ġben3":5696,"mian3Ġdian1Ġ":5697,"cong1":5698,"lei2Ġsi1Ġ":5699,"zhi4Ġbu4Ġ":5700,"ze2Ġren4Ġ":5701,"zhu3Ġyi4ĠdeĠ":5702,"Ġyou2Ġqi2Ġshi4Ġ":5703,"xun2Ġyang2":5704,"Ġgen1Ġju4":5705,"Ġzai4Ġdu4Ġ":5706,"zheng4Ġdang3Ġ":5707,"wang3Ġqiu2Ġ":5708,"ge4Ġzhong3Ġ":5709,"ruan3Ġjian4Ġ":5710,"Ġrui4Ġ":5711,"huang1Ġ":5712,"ĠdeĠfang1Ġshi4Ġ":5713,"ay":5714,"cang1":5715,"Ġka3":5716,"ari":5717,"Ġhe2Ġbu4Ġ":5718,"fang1Ġmian4ĠdeĠ":5719,"tai4ĠziĠ":5720,"ul":5721,"jiao4Ġshi4Ġ":5722,"ying1Ġli3Ġ":5723,"Ġde2Ġer3Ġ":5724,"Ġjian4Ġzao4Ġ":5725,"hai3Ġxia2Ġ":5726,"pai2Ġming2Ġdi4Ġ":5727,"80Ġ":5728,"yang2Ġshi4Ġ":5729,"bu2Ġ":5730,"Ġhou4Ġxuan3Ġren2Ġ":5731,"que1Ġfa2Ġ":5732,"cĠ":5733,"da4Ġzhi4Ġ":5734,"189":5735,"Ġyuan2Ġben3Ġ":5736,"bao4Ġgao4":5737,"lun4Ġwen2Ġ":5738,"Ġ20":5739,"Ġqu3Ġ":5740,"ren2Ġda4Ġ":5741,"ying1Ġgai1Ġ":5742,"Ġzhuan3Ġ":5743,"yu2ĠdeĠ":5744,"Ġli3Ġlun4":5745,"AM":5746,"Ġgong4Ġyou3Ġ":5747,"Ġta1Ġhe2Ġ":5748,"Ġmou3Ġ":5749,"Ġqi2Ġzhong1Ġyi1Ġ":5750,"Ġyu2Ġren2Ġ":5751,"Ġda4Ġfu2Ġ":5752,"cui4":5753,"Ġda4Ġxi1Ġyang2Ġ":5754,"jiu4Ġdu2":5755,"ĠCh":5756,"67":5757,"zhe4Ġli3Ġ":5758,"shen2ĠmeĠ":5759,"ling3Ġdi4Ġ":5760,"zhan4Ġling3Ġ":5761,"jie3Ġsan4Ġ":5762,"fen2":5763,"ping2Ġlun4Ġ":5764,"Ġsui4Ġ":5765,"xiang1Ġshi4Ġdi4Ġ":5766,"Ġxi1Ġla4Ġ":5767,"Ġcao2Ġ":5768,"ĠAĠ":5769,"ĠĠĠju4Ġqing2Ġ":5770,"ĠĠĠqian2Ġ":5771,"Ġshi4Ġgu4Ġ":5772,"xing2Ġcheng2Ġ":5773,"fa1Ġxing2ĠdeĠ":5774,"jin4Ġxing2ĠleĠ":5775,"Ġri4Ġbao4Ġ":5776,"Ġshi3Ġjian4Ġyu2Ġ":5777,"ĠĠĠqi2Ġ":5778,"Ġpei4Ġ":5779,"pai4ĠdeĠ":5780,"Ġshi4Ġwei4ĠleĠ":5781,"Ġfan2Ġ":5782,"asĠĠĠ":5783,"em":5784,"hou2":5785,"Ġcan1Ġ":5786,"ĠĠĠxian4Ġ":5787,"guan1Ġdian3Ġ":5788,"bao4Ġzha4Ġ":5789,"du2Ġli4ĠdeĠ":5790,"feng1Ġwei4Ġ":5791,"Ġhe2Ġda4Ġ":5792,"Ġer2Ġbu4Ġ":5793,"ack":5794,"gao1Ġsu4Ġgong1Ġlu4Ġ":5795,"he4Ġer3Ġ":5796,"Ġ2024Ġnian2Ġ":5797,"Ġxia4":5798,"zheng4Ġming2Ġ":5799,"jing1Ġchang2":5800,"ĠĠĠa1Ġ":5801,"Ġzhong1Ġbei4Ġ":5802,"xi1Ġban1Ġya2":5803,"zhe2Ġxue2Ġ":5804,"Ġde2Ġhua2Ġ":5805,"Ġhua2":5806,"Ġgang1Ġ":5807,"que1":5808,"Ġzhi4Ġshao3Ġ":5809,"gun3":5810,"ju4Ġda4Ġ":5811,"ma3Ġer3Ġ":5812,"jue2Ġyi4Ġ":5813,"Ġyou3Ġxiao4Ġ":5814,"Ġyi1Ġxiao3Ġshi2Ġ":5815,"Ġzuo4Ġjia1Ġ":5816,"pai2Ġhang2Ġ":5817,"bin1Ġhai3Ġ":5818,"pu3Ġbian4Ġ":5819,"bian4Ġwei4Ġ":5820,"an1Ġhui1Ġ":5821,"nei4Ġge2Ġ":5822,"Ġxi1Ġban1Ġya2Ġ":5823,"e2Ġguo2Ġ":5824,"que4Ġren4Ġ":5825,"jing3Ġcha2":5826,"cang2":5827,"Ġsu1":5828,"dang3Ġyuan2Ġ":5829,"zhi1Ġchi2":5830,"fang3Ġwen4":5831,"70Ġ":5832,"qu1Ġyi4Ġhui4Ġ":5833,"Ġzhuo2Ġ":5834,"chuang4Ġzuo4":5835,"wen1Ġdu4Ġ":5836,"lu4Ġyi4Ġsi1Ġ":5837,"Ġti2Ġgong1Ġ":5838,"huan4Ġcheng2Ġ":5839,"fang1Ġyan2Ġ":5840,"dang1Ġxuan3Ġ":5841,"ãģ":5842,"Ġwo4":5843,"yuan1Ġ":5844,"xian4Ġzhi4Ġ":5845,"qu1Ġhe2Ġ":5846,"Ġdong1Ġlin2Ġ":5847,"jie2ĠdeĠ":5848,"chu1Ġsheng1Ġyu2Ġ":5849,"ĠĠĠdi4Ġfang1Ġ":5850,"Ġxuan1Ġ":5851,"xiu1Ġzheng4Ġ":5852,"Ġbing4Ġbei4Ġ":5853,"yi2Ġdu4Ġ":5854,"tou2Ġxiang2Ġ":5855,"Ġshi4Ġyin1Ġwei4Ġ":5856,"ying1Ġxiong2Ġ":5857,"yun3Ġxu3":5858,"Ġhan4":5859,"ben3Ġren2Ġ":5860,"ci4ĠdeĠ":5861,"Ġde2Ġyu3Ġ":5862,"ĠleĠyi2Ġge4Ġ":5863,"xiang1Ġdang1":5864,"Ġchu1Ġzhan4Ġ":5865,"Ġbing4Ġfei1Ġ":5866,"zhong4Ġduo1Ġ":5867,"Ġzhong1Ġhua2Ġren2Ġmin2Ġgong4Ġhe2Ġguo2Ġzheng4Ġzhi4Ġren2Ġwu4Ġ":5868,"48Ġ":5869,"Ġyi4Ġqi3":5870,"zui4Ġduo1Ġ":5871,"Ġling4Ġyi1Ġ":5872,"ed":5873,"Ġta3Ġ":5874,"han2Ġyou3Ġ":5875,"Ġzai4Ġci4":5876,"yi2Ġding4Ġ":5877,"ke1ĠdeĠqi2Ġzhong1Ġyi1Ġzhong3Ġ":5878,"Ġyin2Ġ":5879,"Ġgong1Ġyi4Ġ":5880,"Ġban1Ġ":5881,"cheng2Ġyuan2Ġ":5882,"dian3Ġli3Ġ":5883,"dang4Ġtian1Ġ":5884,"zhong3ĠziĠ":5885,"biao3Ġyan3":5886,"feng2":5887,"tui1Ġchu1":5888,"ĠleĠta1ĠdeĠ":5889,"Ġji4Ġlu4":5890,"Ġji1Ġjin1Ġ":5891,"jiu3Ġlong2Ġ":5892,"ya4Ġjun1Ġ":5893,"dian4Ġhua4Ġ":5894,"fan4Ġwei2Ġnei4Ġ":5895,"cuo4Ġshi1Ġ":5896,"Ġ30":5897,"ĠĠĠming2Ġ":5898,"liang3Ġming2Ġ":5899,"Ġxian4Ġshi4Ġ":5900,"guo4Ġdu4Ġ":5901,"zhi1Ġqian2Ġ":5902,"mi4Ġshu1Ġzhang3Ġ":5903,"ĠĠĠandĠĠĠ":5904,"kou3Ġwei4Ġ":5905,"zu3Ġjian4Ġ":5906,"wu2Ġzheng4Ġzhuang4Ġ":5907,"tiao2Ġli4Ġ":5908,"bao3Ġliu2":5909,"Window":5910,"zheng4Ġbu4Ġ":5911,"shan1Ġshi4Ġ":5912,"Ġyu3Ġmao2":5913,"Ġxian4Ġren4Ġ":5914,"Ġbing4Ġdu2":5915,"ck":5916,"xing3Ġ":5917,"suo3Ġchu4ĠdeĠ":5918,"Ġkai3Ġ":5919,"Ġyi3Ġji2":5920,"xing1Ġdeng3Ġwei4Ġ":5921,"Ġgong1Ġmin2Ġ":5922,"fa1Ġshou4Ġ":5923,"hei1Ġse4Ġ":5924,"huang2Ġhou4Ġ":5925,"xie3Ġdao4Ġ":5926,"xiang1Ġsi4Ġ":5927,"Ġshi4Ġyu2Ġ":5928,"tui4Ġxiu1Ġ":5929,"Ġsai1Ġ":5930,"zhang3Ġyu2Ġ":5931,"tuan2ĠdeĠ":5932,"Ġji1Ġchang3":5933,"she4Ġqu1Ġ":5934,"Ġbei3Ġjing1Ġ":5935,"zao3Ġqi1":5936,"wa2Ġ":5937,"Ġzu3Ġfu4Ġ":5938,"lu3Ġsi1Ġ":5939,"tiao2Ġzheng3":5940,"Ġhao4":5941,"jie1Ġchu4Ġ":5942,"tuo4Ġ":5943,"chi2Ġyou3Ġ":5944,"dou1Ġzai4Ġ":5945,"orĠ":5946,"lay":5947,"ji4Ġcheng2Ġ":5948,"Ġyi1Ġtong2Ġ":5949,"biao3Ġda2Ġ":5950,"si3Ġwang2":5951,"zheng3Ġti3Ġ":5952,"ast":5953,"zhu3Ġjiao4":5954,"Ġtong2Ġyi4Ġ":5955,"nv3Ġxing4":5956,"kai1Ġshi3Ġzai4Ġ":5957,"90Ġ":5958,"nie4":5959,"Ġgong1Ġju4Ġ":5960,"feng1Ġxian3Ġ":5961,"OS":5962,"zhou2":5963,"deng1Ġshang4Ġ":5964,"bao3Ġshou3Ġ":5965,"jian3Ġshao3":5966,"Ġguo1Ġ":5967,"Ġ1998Ġnian2Ġ":5968,"Ġyong4Ġyu2Ġ":5969,"gong1Ġcheng2Ġ":5970,"Ġming2Ġdan1Ġ":5971,"xia4Ġxia2ĠdeĠyi2Ġge4Ġ":5972,"pu4":5973,"duo1Ġwei4Ġ":5974,"gu3Ġdai4Ġ":5975,"sui2Ġzhu4Ġ":5976,"zhen4Ġqu1ĠdeĠ":5977,"pi1Ġzhun3":5978,"43":5979,"tuo2Ġ":5980,"geng4Ġwei2Ġ":5981,"gai3Ġming2Ġwei4Ġ":5982,"mou3Ġxie1Ġ":5983,"que4Ġzhen3Ġbing4Ġli4Ġ":5984,"Ġsheng1Ġyu2Ġ":5985,"cha4":5986,"lai2Ġyue4Ġ":5987,"ni2Ġer3Ġ":5988,"Ġzhi1Ġfu4Ġ":5989,"tan2Ġpan4Ġ":5990,"ĠdeĠcheng2Ġji4Ġ":5991,"Ġ1949Ġnian2Ġ":5992,"ik":5993,"Ġyan2":5994,"ĠĠĠqi2Ġta1Ġ":5995,"zuo4Ġshi4Ġ":5996,"niang2Ġ":5997,"jiao4Ġtang2":5998,"neng2Ġliang4Ġ":5999,"can1Ġjia1ĠleĠ":6000,"Ġzhuang1Ġ":6001,"Ġping2Ġjun1Ġ":6002,"Ġer2Ġgai1Ġ":6003,"jiang4Ġdi1Ġ":6004,"bei3Ġjing1Ġshi4Ġ":6005,"gou4Ġmai3Ġ":6006,"Ġzhao4":6007,"ĠĠĠji2Ġ":6008,"2004Ġnian2Ġ":6009,"an1Ġpai2":6010,"bo2Ġshi4Ġxue2Ġwei4Ġ":6011,"yue4Ġzhong1Ġ":6012,"2001Ġnian2Ġ":6013,"ban3ĠdeĠ":6014,"zun1":6015,"id":6016,"Ġji1Ġhui4Ġ":6017,"Ġhou4Ġzhe3Ġ":6018,"Ġqi2Ġhou4":6019,"zhuang1Ġbei4Ġ":6020,"Ġji1Ġsi1Ġ":6021,"nan2ĠdeĠ":6022,"suan1":6023,"jie4Ġshao4Ġ":6024,"Ġren2Ġmin2Ġzheng4Ġfu3Ġ":6025,"Ġmeng4":6026,"en1Ġsheng3Ġ":6027,"Ġsang1Ġ":6028,"wu2Ġzheng4Ġzhuang4Ġgan3Ġran3Ġ":6029,"ne4":6030,"Ġhai3":6031,"shou4ĠdeĠ":6032,"gui4Ġzu2Ġ":6033,"Ġxiang3Ġnian2Ġ":6034,"Ġhe2Ġpan4Ġ":6035,"chang2Ġwei3Ġ":6036,"she4Ġshi1Ġ":6037,"Ġbi3Ġru2Ġ":6038,"san3Ġ":6039,"huo2Ġyue4Ġ":6040,"Ġyi1Ġzuo4Ġ":6041,"chang2Ġwu4Ġ":6042,"Ġhuo3Ġ":6043,"mie4":6044,"qiao3Ġ":6045,"arĠ":6046,"Ġxing2Ġwei4Ġ":6047,"hu4Ġlian2Ġ":6048,"zhen3Ġ":6049,"ling4Ġren2Ġ":6050,"Ġbu4Ġsi1Ġ":6051,"an1Ġna4":6052,"suo3Ġyou3ĠdeĠ":6053,"Ġhong1":6054,"ke4Ġcheng2Ġ":6055,"Ġsheng1Ġhuo2":6056,"Ġqi1Ġjian1Ġ":6057,"shu4Ġyu3Ġ":6058,"shou1Ġji2Ġ":6059,"ding4Ġju1Ġ":6060,"long2ĠdeĠ":6061,"Ġshi4Ġxi1Ġ":6062,"Ġshi4Ġmin2Ġ":6063,"Ġbu4Ġli4Ġ":6064,"lian2Ġxu4":6065,"ru4Ġxuan3Ġ":6066,"Ġmei3Ġge4Ġ":6067,"5Ġmi3Ġ":6068,"nu":6069,"ti2Ġji2Ġ":6070,"Ġwei4Ġyu2Ġzhong1Ġguo2Ġ":6071,"sai1Ġer3Ġwei2Ġ":6072,"hui4Ġzhong1Ġ":6073,"Ġli4Ġfa3":6074,"fu4Ġze2":6075,"Ġbing4Ġdu2Ġ":6076,"yao1Ġqing3":6077,"dan1ĠdeĠ":6078,"ĠleĠda4Ġ":6079,"ren4Ġwei4Ġ":6080,"Ġji2Ġren2Ġ":6081,"Ġcheng2Ġren2Ġ":6082,"zu2Ġqiu2Ġyun4Ġdong4Ġyuan2Ġ":6083,"Ġtong1Ġchang2":6084,"kun4Ġnan2Ġ":6085,"guan1Ġcha2Ġ":6086,"ĠdeĠdi4Ġer4Ġ":6087,"Ġ1999Ġnian2Ġ":6088,"xie3ĠdeĠ":6089,"xin4Ġyang3Ġ":6090,"Ġtong2Ġshi2Ġgai1Ġdi4Ġ":6091,"Ġzui4Ġgao1Ġ":6092,"Ġer2ĠziĠ":6093,"bian1Ġjie4Ġ":6094,"bei1Ġsi1Ġ":6095,"zhui1Ġsu4":6096,"hui4Ġzhi4Ġ":6097,"sheng3ĠdeĠ":6098,"Ġzai4Ġ197":6099,"Ġri4Ġyu2Ġ":6100,"zui4Ġgao1ĠdeĠ":6101,"Ġzhe4Ġzhong3":6102,"yi2Ġding4":6103,"32Ġ":6104,"Ġban4Ġ":6105,"2005Ġnian2Ġ":6106,"chu1Ġshen1Ġ":6107,"shan1Ġji1Ġ":6108,"jie3Ġfang4Ġ":6109,"wan2Ġzheng3":6110,"nei4Ġlu4Ġsheng3Ġfen4Ġ":6111,"Ġdi4Ġsi4":6112,"Ġdong4Ġli4Ġ":6113,"yi3Ġjing1Ġ":6114,"qiang2Ġlie4Ġ":6115,"ke1Ġxue2Ġjia1Ġ":6116,"II":6117,"zong4":6118,"Ġxi1Ġla4":6119,"fang1Ġfa3":6120,"Ġde2Ġzhu3Ġ":6121,"cai3Ġqu3Ġ":6122,"zhu2Ġbu4Ġ":6123,"alĠĠĠ":6124,"ma1Ġ":6125,"Ġtian1":6126,"tu2Ġxing2Ġ":6127,"luan3Ġ":6128,"Ġchu1Ġkou3Ġ":6129,"ya4Ġmei3Ġ":6130,"32":6131,"Ġju4":6132,"sui2Ġji2Ġ":6133,"Ġyin1Ġsu4Ġ":6134,"sang4Ġ":6135,"bei4ĠdeĠ":6136,"shan1ĠdeĠ":6137,"Ġke4Ġxi1Ġ":6138,"Ġjian4Ġzao4":6139,"Ġwei2Ġer3":6140,"lian2Ġhe2Ġhui4Ġ":6141,"xun1Ġzhang1Ġ":6142,"57":6143,"chao1Ġyue4Ġ":6144,"Ġzai4Ġshi2Ġ":6145,"Ġji2Ġdi4Ġ":6146,"yin3Ġfa1Ġ":6147,"liao2Ġning2Ġ":6148,"gh":6149,"ĠZ":6150,"Ġheng2Ġ":6151,"hai3Ġping2Ġmian4Ġ":6152,"Ġxue2Ġyuan4":6153,"wu3Ġzhuang1":6154,"fan4Ġzui4Ġ":6155,"gai4Ġnian4":6156,"Ġer4Ġshi2Ġ":6157,"Ġshi2Ġqi1ĠdeĠ":6158,"Ġli4Ġliang4Ġ":6159,"zi4Ġran2":6160,"zhu3Ġyao4ĠdeĠ":6161,"xia4Ġling4Ġshi2Ġjian1Ġ":6162,"heng1Ġli4Ġ":6163,"san1Ġjiao3":6164,"CO":6165,"guo4ĠdeĠ":6166,"zhi3Ġneng2Ġ":6167,"shu1Ġzhong1Ġ":6168,"Ġhou4Ġbei4Ġ":6169,"ĠĠĠi":6170,"dang1Ġnian2Ġ":6171,"xiang4Ġzheng1Ġ":6172,"shan1Ġqu1Ġ":6173,"66":6174,"ĠĠĠ1Ġ":6175,"ti2Ġyi4Ġ":6176,"dang1Ġzhong1Ġ":6177,"xu4Ġli4Ġya4Ġ":6178,"tai2Ġnan2":6179,"jing4Ġnei4Ġgong4Ġyou3Ġ":6180,"dong3Ġshi4Ġzhang3Ġ":6181,"Ġyao1Ġqiu2Ġ":6182,"ni2Ġya4Ġzhou1Ġ":6183,"Ġjiu4Ġshi4Ġ":6184,"ceng2Ġwei4Ġ":6185,"Ġbu4Ġshao3Ġ":6186,"duo1Ġzhong3Ġ":6187,"ĠĠĠbei4Ġjing3Ġ":6188,"Ġxie2Ġ":6189,"Ġhe2Ġyue1Ġ":6190,"Ġgong1Ġzhong4Ġ":6191,"Ġyi1Ġli4Ġ":6192,"zhi3Ġdao3Ġ":6193,"zhang1Ġzhuan1Ġji2Ġ":6194,"Ġyi3Ġwei2Ġ":6195,"fei1Ġchang2":6196,"ĠĠĠ2006Ġnian2Ġ":6197,"Ġna4":6198,"xian4ĠdeĠ":6199,"Ġyi4Ġqing2Ġ":6200,"Ġjiu3":6201,"fu2ĠdeĠ":6202,"qin1Ġzi4Ġ":6203,"ying1Ġge2Ġlan2":6204,"Ġzui4Ġchu1Ġ":6205,"shuang1Ġfang1Ġ":6206,"gou3Ġ":6207,"jia1Ġyi4Ġ":6208,"bu2Ġdao4Ġ":6209,"hui4Ġyi4Ġyuan2Ġ":6210,"zi4ĠdeĠ":6211,"Ġyuan2Ġxing2Ġ":6212,"nan2Ġbei3Ġ":6213,"guan1Ġcha2":6214,"ĠĠĠdi4Ġfang1Ġzi1Ġliao4Ġ":6215,"DTĠ":6216,"pen1Ġ":6217,"Ġwan2Ġjia1Ġ":6218,"li3Ġhe2Ġ":6219,"ping2Ġwei4Ġ":6220,"shen1Ġdu4Ġ":6221,"Ġhui3":6222,"Ġni3Ġ":6223,"lan2ĠdeĠ":6224,"di1Ġyu2Ġ":6225,"28Ġ":6226,"AC":6227,"ĠĠĠjian3Ġjie4Ġ":6228,"luo2Ġli3Ġ":6229,"Ġta1Ġceng2Ġdai4Ġbiao3Ġ":6230,"rou2Ġ":6231,"er2Ġtong2Ġ":6232,"Ġyu4Ġji4Ġ":6233,"zhan3Ġkai1":6234,"pai1Ġshe4":6235,"shou1Ġlu4Ġ":6236,"Ġcheng2Ġzhen4Ġ":6237,"zhu4Ġzhai2Ġ":6238,"dong4Ġli4Ġ":6239,"shang1Ġren2Ġ":6240,"di2Ġshi4Ġ":6241,"Ġdi4Ġli3Ġ":6242,"Ġyou3Ġsuo3Ġ":6243,"Ġxian4Ġfa3Ġ":6244,"Ġdong1Ġbei3Ġ":6245,"Ġtian2Ġ":6246,"da4Ġbu4Ġ":6247,"lai2Ġyin1Ġ":6248,"tai2Ġzhong1Ġ":6249,"Ġsi1Ġta3Ġ":6250,"Ġdong4ĠdeĠ":6251,"Ġshi2Ġji4Ġshang4Ġ":6252,"xue2Ġhui4Ġ":6253,"di2Ġren2Ġ":6254,"nu2":6255,"Ġyi3Ġxi1Ġ":6256,"Ġyue1":6257,"jiang1Ġzai4Ġ":6258,"xuan3Ġzhong1Ġ":6259,"Ġxi1Ġjie1Ġ":6260,"Ġzhong1Ġguo2Ġren2Ġmin2Ġjie3Ġfang4Ġjun1Ġ":6261,"ĠĠĠ17":6262,"mei3Ġzhou1":6263,"la1Ġding1":6264,"jia4Ġshi3Ġ":6265,"Ġshi2Ġxing2Ġ":6266,"suo3Ġcai3Ġyong4":6267,"Ġyu4Ġshi3Ġ":6268,"ER":6269,"Ġshu3":6270,"ti2Ġchu1ĠdeĠ":6271,"gan4Ġbu4Ġ":6272,"shou1Ġgou4Ġ":6273,"hai3Ġba2Ġwei4Ġ":6274,"00Ġmi3Ġ":6275,"all":6276,"Ġdi4Ġyi2Ġge4Ġ":6277,"tu1Ġpo4Ġ":6278,"Ġda4Ġxue2ĠdeĠ":6279,"neng2Ġyuan2Ġ":6280,"zhu3Ġyan3Ġ":6281,"TV":6282,"biao1Ġben3Ġ":6283,"Ġliu4Ġ":6284,"laĠ":6285,"zan4Ġshi2Ġ":6286,"Ġdi4Ġqi1Ġ":6287,"Ġli4Ġyi4Ġ":6288,"yan2Ġse4Ġ":6289,"ji1Ġdu1Ġ":6290,"ce4Ġliang2Ġ":6291,"ĠdeĠshi4Ġjie4Ġ":6292,"NB":6293,"deng3Ġdeng3Ġ":6294,"nong2Ġmin2Ġ":6295,"suo3Ġzai4Ġdi4Ġ":6296,"que4ĠdeĠ":6297,"Ġzhong1Ġguo2ĠdeĠ":6298,"Ġsheng1Ġya2Ġ":6299,"zhu2Ġjian4":6300,"Ġde2Ġming2Ġ":6301,"shang1Ġye4":6302,"Ġhu3Ġ":6303,"Ġpu2Ġtao2Ġ":6304,"duo3":6305,"yi2Ġdai4Ġ":6306,"shui3Ġli4Ġ":6307,"gei3ĠleĠ":6308,"chuan2Ġbo1Ġ":6309,"a1Ġla1Ġbo2":6310,"fa1Ġdong4Ġji1Ġ":6311,"rong2Ġhe2Ġ":6312,"Ġqi2Ġwei4Ġ":6313,"tou2Ġpiao4":6314,"Ġ25":6315,"Ġran2Ġer2":6316,"wang2Ġshi4Ġ":6317,"Ġmou2":6318,"jiu4Ġdu2Ġ":6319,"53":6320,"zhuo2":6321,"shuai4":6322,"jue2Ġshi4Ġ":6323,"chang3Ġsuo3Ġ":6324,"tai4Ġdu4Ġ":6325,"Ġbei3Ġjing1":6326,"78":6327,"Ġxiang3Ġ":6328,"ĠdeĠying3Ġxiang3Ġ":6329,"jing1Ġshen2":6330,"zi1Ġben3Ġ":6331,"zhuan3Ġxiang4Ġ":6332,"mo4Ġxi1Ġge1":6333,"ban4Ġshi4Ġchu4Ġ":6334,"kai1Ġtong1Ġ":6335,"tao2Ġtai4Ġ":6336,"jian1Ġyu4Ġ":6337,"dian4Ġji1Ġ":6338,"jiu4Ġhui4Ġ":6339,"jing4Ġji4Ġ":6340,"ping2Ġtai2Ġ":6341,"xiao1Ġfei4Ġ":6342,"shuai4Ġling3":6343,"ju3Ġban4ĠdeĠ":6344,"Ġyi1Ġsi1Ġlan2Ġ":6345,"56":6346,"zhong1Ġyang1Ġ":6347,"Ġxi4Ġ":6348,"ĠĠĠqi2":6349,"pai4Ġchu1Ġ":6350,"Ġyu3Ġqi2Ġta1Ġ":6351,"ge2Ġla1Ġ":6352,"qi1Ġwei4Ġ":6353,"wen2ĠdeĠ":6354,"gou4ĠdeĠ":6355,"pei4Ġzhi4Ġ":6356,"zhang3Ġda2Ġ":6357,"jing4Ġxuan3Ġ":6358,"Ġshuo1Ġ":6359,"chen4":6360,"qu1Ġshi4Ġ":6361,"00Ġren2Ġ":6362,"fu4Ġzhu3Ġren4Ġ":6363,"diao4Ġkuai4":6364,"hui3":6365,"hua4Ġzhong1Ġ":6366,"gong1Ġgong4Ġ":6367,"Ġqi2Ġxia4Ġ":6368,"shan1Ġfeng1Ġ":6369,"zu3Ġzhi1ĠdeĠ":6370,"man":6371,"Ġai1":6372,"cheng2Ġhe2Ġ":6373,"26Ġ":6374,"zhi2Ġye4Ġsheng1Ġya2Ġ":6375,"Ġwei1":6376,"ĠĠĠw":6377,"shou3Ġzhong1Ġ":6378,"Ġwei4ĠUTCĠ":6379,"zi1Ġliao4":6380,"ĠcnĠ":6381,"Ġqi2Ġshi2Ġ":6382,"nan2Ġjing1":6383,"zhe3Ġshi4Ġ":6384,"Ġda4Ġjiang3Ġ":6385,"bian1Ġhao4Ġ":6386,"ti2Ġgong1ĠleĠ":6387,"59":6388,"neng2Ġzai4Ġ":6389,"liu4Ġshi2Ġ":6390,"diao4Ġkuai4Ġyi1Ġxiao3Ġshi2Ġ":6391,"Ġdao3Ġ":6392,"jin1Ġrong2Ġ":6393,"4Ġge4Ġ":6394,"da2Ġer3Ġ":6395,"Ġji2ĠUTCĠ":6396,"gai3Ġzao4Ġ":6397,"she4Ġyou3Ġxia4Ġling4Ġshi2Ġjian1Ġ":6398,"ĠdeĠshi2Ġqu1Ġwei4ĠUTCĠ":6399,"Ġer2Ġgai1Ġdi4Ġsuo3Ġcai3Ġyong4":6400,"Ġtong2Ġshi2Ġgai1Ġdi4Ġshe4Ġyou3Ġxia4Ġling4Ġshi2Ġjian1Ġ":6401,"Ġer2Ġgai1Ġdi4Ġsuo3Ġcai3Ġyong4ĠdeĠshi2Ġqu1Ġwei4ĠUTCĠ":6402,"fa1Ġqi3Ġ":6403,"zhi2Ġmin2Ġ":6404,"ta1ĠmenĠdeĠ":6405,"qiu2Ġji4Ġ":6406,"ba2Ġ":6407,"fa1Ġqi3":6408,"zhan3Ġlan3Ġ":6409,"Ġdian4Ġying3Ġ":6410,"you2Ġji1Ġ":6411,"Ġgai1Ġcun1Ġ":6412,"ke1Ġxue2Ġyuan4Ġ":6413,"can2":6414,"ku3Ġ":6415,"xia4ĠleĠ":6416,"zuo4Ġchu1Ġ":6417,"zhi1Ġjian1ĠdeĠ":6418,"Ġkong3Ġ":6419,"ma3Ġke4Ġ":6420,"ti3Ġzhi4Ġ":6421,"Ġbu4Ġdui4":6422,"Ġzhong1Ġshan1Ġ":6423,"Ġxi1Ġlan2Ġ":6424,"Ġli4Ġshi3Ġshang4Ġ":6425,"gao1Ġyu2Ġhai3Ġping2Ġmian4Ġ":6426,"yuan2Ġzhu4Ġ":6427,"Ġjian4Ġshe4":6428,"Ġtong2Ġyang4":6429,"ĠĠĠjiao1Ġtong1Ġ":6430,"wu4Ġshi4Ġ":6431,"hu4Ġxiang1Ġ":6432,"Ġzhai4Ġ":6433,"wan4Ġmei3Ġyuan2Ġ":6434,"Ġling4Ġyou3Ġ":6435,"us":6436,"©Ġ":6437,"Ġkang1Ġ":6438,"zhou2Ġ":6439,"Ġgong1Ġjue2Ġ":6440,"AN":6441,"ĠĠĠgai1":6442,"bi4Ġye4Ġhou4Ġ":6443,"hai3Ġba2Ġwei4Ġgao1Ġyu2Ġhai3Ġping2Ġmian4Ġ":6444,"ĠĠĠdui4Ġ":6445,"lu4Ġzhi4Ġ":6446,"Ġbu4Ġji2Ġ":6447,"Ġren2Ġmen":6448,"Ġxue2Ġzhe3Ġ":6449,"suo3Ġchu4ĠdeĠhai3Ġba2Ġwei4Ġgao1Ġyu2Ġhai3Ġping2Ġmian4Ġ":6450,"ku1Ġ":6451,"Ġwa3Ġ":6452,"zhong4Ġshi4Ġ":6453,"Ġmang2Ġ":6454,"Ġcui4Ġ":6455,"qiang2Ġdiao4Ġ":6456,"qiao4Ġ":6457,"shi3Ġjian4Ġyu2Ġ":6458,"wu4Ġhe2Ġ":6459,"ping2Ġyuan2Ġ":6460,"Ġshi2Ġwu4Ġ":6461,"yun4Ġshu1":6462,"cai3Ġqu3":6463,"Ġjie2Ġguo3":6464,"Ġer2Ġtong2Ġ":6465,"dong1Ġfang1Ġ":6466,"xing4Ġbie2Ġ":6467,"Ġsheng1Ġchan3":6468,"xiao4Ġqu1Ġ":6469,"ren3Ġ":6470,"ren4ĠdeĠ":6471,"zhu4Ġyou3Ġ":6472,"xing4Ġwei4Ġ":6473,"Ġxian4Ġyu2Ġ":6474,"dian4Ġche1Ġ":6475,"dian4Ġqi4Ġ":6476,"fa1Ġxian4ĠdeĠ":6477,"ke3Ġzai4Ġ":6478,"Ġzhi1Ġyi4Ġ":6479,"Ġyuan2Ġben3":6480,"Ġji1Ġjin1Ġhui4Ġ":6481,"shou3Ġxiang4Ġ":6482,"ĠĠĠ190":6483,"zhi2Ġmin2Ġdi4Ġ":6484,"ge2Ġshi4Ġ":6485,"er4Ġji2Ġ":6486,"...":6487,"nd":6488,"weng1Ġ":6489,"Ġmei2":6490,"ĠĠĠqing1Ġ":6491,"nei4Ġdi4Ġ":6492,"luo4Ġcheng2Ġ":6493,"Ġwei2Ġchi2":6494,"bĠ":6495,"ke2Ġ":6496,"deng3Ġji2Ġ":6497,"shi2Ġqu1Ġ":6498,"xiu1Ġgai3Ġ":6499,"ep":6500,"zĠ":6501,"ĠĠĠ2Ġ":6502,"tu1Ġran2Ġ":6503,"Ġyi1Ġjia1Ġ":6504,"quan2Ġqiu2":6505,"Ġli4Ġren4Ġ":6506,"te4Ġding4Ġ":6507,"Ġmi2":6508,"Ġwei4Ġyu2Ġgai1Ġ":6509,"ĠĠĠran2":6510,"hou4Ġwei4Ġ":6511,"Ġtu3Ġ":6512,"Ġbu4Ġjin3Ġ":6513,"Ġdi4Ġqiu2":6514,"lan4Ġ":6515,"ĠĠĠben3":6516,"ĠĠĠma3Ġ":6517,"hun1Ġyin1Ġ":6518,"igh":6519,"bao1Ġwei2Ġ":6520,"Ġpa4":6521,"Ġzai4Ġ196":6522,"wei2Ġsi1Ġ":6523,"Ġ1997Ġnian2Ġ":6524,"Ġsui2Ġzhu4Ġ":6525,"kui4Ġ":6526,"xue2Ġyuan2Ġ":6527,"zhen4Ġqu1ĠdeĠmian4Ġji1Ġwei4Ġ":6528,"xia2Ġqu1Ġ":6529,"Ġying2Ġ":6530,"ao4Ġzhou1Ġ":6531,"shang4Ġxian4Ġ":6532,"lan":6533,"Ġying1":6534,"Ġzhuan3":6535,"ĠĠĠf":6536,"ĠĠĠyin1Ġ":6537,"fu1Ġka3Ġ":6538,"69":6539,"Ġzhi4Ġliang4Ġ":6540,"Ġleng3":6541,"fan3Ġhui2":6542,"1Ġge4Ġ":6543,"Ġwan2Ġ":6544,"bo1Ġsi1Ġ":6545,"Ġzhou1Ġci4Ġshi3Ġ":6546,"xin4Ġyang3":6547,"jiao4Ġyu4Ġbu4Ġ":6548,"dan3Ġ":6549,"ich":6550,"er4Ġren2Ġ":6551,"ju2ĠdeĠ":6552,"yan2Ġhai3Ġ":6553,"jing4Ġzheng1Ġ":6554,"xuan1Ġchuan2":6555,"Ġxing2Ġzheng4Ġqu1Ġ":6556,"jin4Ġbu4Ġ":6557,"ĠdeĠxi1Ġ":6558,"Ġli3Ġya4Ġ":6559,"Ġdui4Ġshou3Ġ":6560,"ru2Ġguo3Ġ":6561,"Ġmian4Ġ":6562,"Ġta1Ġyi3Ġ":6563,"Ġyuan2Ġzi4Ġ":6564,"Ġli3Ġxi1Ġ":6565,"ĠY":6566,"jia1Ġyi3Ġ":6567,"jian4Ġcheng2Ġ":6568,"dui4Ġqi2Ġ":6569,"liang3Ġwei4Ġ":6570,"ping2Ġlun4":6571,"ĠdeĠbu4Ġfen4Ġ":6572,"zui4Ġchu1":6573,"ci4Ġyu2Ġ":6574,"bian1Ġyuan2Ġ":6575,"liang3Ġci4Ġ":6576,"ling4Ġyi2Ġge4Ġ":6577,"amĠ":6578,"baĠ":6579,"ji4Ġyou3Ġ":6580,"mian4Ġshang4Ġ":6581,"Ġwei2Ġsi1Ġ":6582,"cai2Ġneng2Ġ":6583,"Ġcha2":6584,"hai3Ġyang2Ġ":6585,"chang2Ġdu4Ġ":6586,"zao4Ġcheng2ĠdeĠ":6587,"ĠĠĠ4":6588,"Ġyi1Ġju4Ġ":6589,"Ġzi4Ġran2Ġ":6590,"79":6591,"Ġ9Ġ":6592,"Ġpa4Ġ":6593,"reĠ":6594,"Ġmang2":6595,"tian2Ġjing4Ġ":6596,"Tub":6597,"shi1Ġgong1Ġ":6598,"chui1Ġ":6599,"liang3Ġguo2Ġ":6600,"suo3Ġwei4Ġ":6601,"Ġwei4Ġdui4Ġ":6602,"dang1Ġdi4ĠdeĠ":6603,"Ġ1994Ġnian2Ġ":6604,"IS":6605,"qi3Ġdong4Ġ":6606,"jun4Ġgong1Ġ":6607,"fen4Ġzi3":6608,"a1Ġla1Ġbo2Ġ":6609,"xiao4Ġli4Ġyu2Ġ":6610,"ĠdeĠxing2Ġ":6611,"guo2Ġjia1":6612,"Ġji2Ġda4Ġ":6613,"AP":6614,"Ġcha2Ġ":6615,"an1Ġshi4Ġ":6616,"ka3Ġluo2Ġ":6617,"zhan4Ġshi2Ġ":6618,"pei4Ġyin1Ġ":6619,"chong2Ġqing4":6620,"Ġ1992Ġnian2Ġ":6621,"wei3Ġyuan2Ġhui4Ġwei3Ġyuan2Ġ":6622,"Ġ12Ġ":6623,"na2Ġxia4Ġ":6624,"xia4Ġjiang4Ġ":6625,"Ġer3Ġduo1Ġ":6626,"ti3Ġyu4Ġchang3Ġ":6627,"rao4":6628,"xin1Ġcheng2Ġ":6629,"ban4ĠdeĠ":6630,"Ġyu2Ġle4":6631,"Ġyi4Ġyu2Ġ":6632,"xiang1Ġguan1ĠdeĠ":6633,"Ġjie2Ġke4Ġ":6634,"31Ġ":6635,"mian2Ġ":6636,"Ġ2Ġyue4Ġ":6637,"xia4Ġlai2Ġ":6638,"Ġdang1Ġshi2ĠdeĠ":6639,"que1Ġfa2":6640,"zai1Ġpei2Ġ":6641,"ai4Ġer3Ġlan2Ġ":6642,"gou4Ġmai3":6643,"Ġwei4Ġda4Ġ":6644,"Ġdi4Ġliu4Ġ":6645,"Ġqi2ĠdeĠ":6646,"jie1Ġduan4":6647,"shu1Ġyuan4Ġ":6648,"Ġreng2":6649,"xi1Ġhe2Ġ":6650,"jiao4Ġda4Ġ":6651,"xun2Ġzhao3Ġ":6652,"dian3Ġshi4Ġ":6653,"Ġshi2Ġduan4Ġ":6654,"yi4Ġshu4Ġ":6655,"Ġsi1Ġke4":6656,"dong1Ġbei3":6657,"gao1Ġxiong2":6658,"Ġma3Ġlai2":6659,"diao1":6660,"zhe4Ġshi4Ġ":6661,"sang1":6662,"ping2ĠdeĠ":6663,"Ġluo2":6664,"san1Ġming2Ġ":6665,"zhi2Ġzheng4Ġ":6666,"jiang4Ġling3Ġ":6667,"ĠĠĠ2005Ġnian2Ġ":6668,"ĠĠĠnan2Ġ":6669,"ĠĠĠsheng4Ġ":6670,"Ġzhi4Ġzuo4ĠdeĠ":6671,"88":6672,"zhao4Ġkai1":6673,"ĠĠĠjin3Ġ":6674,"da4Ġlu4":6675,"Ġnian2ĠĠĠ":6676,"tian1Ġti3Ġ":6677,"Ġju4Ġli2":6678,"Ġ1996Ġnian2Ġ":6679,"fu4Ġhe2Ġ":6680,"geng1Ġxin1Ġ":6681,"Ġti4Ġ":6682,"xi1Ġdi4Ġ":6683,"fa1Ġshe4":6684,"hui4Ġzhang3Ġ":6685,"Ġji1Ġchu3":6686,"zhu3Ġzhang1Ġ":6687,"Ġkai3":6688,"bo1Ġshi4Ġ":6689,"27Ġ":6690,"tiv":6691,"xing4Ġhe2Ġ":6692,"zhen4ĠdeĠ":6693,"Ġyi3Ġwai4Ġ":6694,"qi4Ġche1":6695,"ting2Ġche1Ġ":6696,"chuan2Ġtong3ĠdeĠ":6697,"pao3Ġ":6698,"li3Ġcheng2Ġ":6699,"cai4":6700,"fu2Ġli4Ġ":6701,"la1Ġji1Ġ":6702,"te4Ġxing4Ġ":6703,"Ġqi2Ġzhong1Ġbao1Ġkuo4Ġ":6704,"fa1Ġsheng1Ġzai4Ġ":6705,"zu2Ġqiu2Ġju4Ġle4Ġbu4Ġ":6706,"Ġdi4Ġdian3Ġ":6707,"Ġda4Ġlou2":6708,"lian2Ġjie1":6709,"cun1Ġluo4Ġ":6710,"ĠĠĠdi4Ġer4Ġ":6711,"Ġguo2Ġwu4Ġyuan4Ġ":6712,"uĠ":6713,"chen4Ġ":6714,"shi1Ġren2Ġ":6715,"tuan2Ġti3":6716,"Ġbu4Ġbu4Ġzhang3Ġ":6717,"lian2ĠdeĠ":6718,"bei4Ġjing3Ġ":6719,"qu2Ġ":6720,"Ġcheng1":6721,"bing4Ġbu4Ġ":6722,"qi3Ġyuan2Ġ":6723,"Ġzhi4Ġzao4":6724,"Ġzhi4Ġdi4Ġ":6725,"Ġfu4Ġjin4":6726,"Ġyou2Ġji1Ġ":6727,"ju1Ġzhu4Ġzai4Ġ":6728,"Ġzheng4Ġzhi4Ġ":6729,"shu4Ġshi2Ġ":6730,"kai1Ġshe4Ġ":6731,"hao4Ġxian4":6732,"zheng4Ġju4Ġ":6733,"dui4Ġzhang3Ġ":6734,"dian4Ġshi4Ġtai2":6735,"zhuan4ĠdeĠ":6736,"nei4Ġzhan4Ġ":6737,"wei3Ġfu4Ġ":6738,"Ġde2Ġsi1Ġ":6739,"jie2Ġdu4Ġ":6740,"jiao1Ġliu2":6741,"ell":6742,"Ġyong4":6743,"Ġshi4Ġde2Ġguo2Ġ":6744,"Ġbu4Ġbing1Ġ":6745,"Ġyu2Ġ2021Ġnian2Ġ":6746,"quan2Ġxian4Ġ":6747,"jian1Ġdu1Ġ":6748,"Ġbing4Ġyou2Ġ":6749,"ao4Ġmen2":6750,"zai1":6751,"dou1Ġbei4Ġ":6752,"ot":6753,"Ġrong2Ġ":6754,"Ġfeng4Ġ":6755,"chai1Ġchu2Ġ":6756,"Ġtao2Ġ":6757,"Ġlu3Ġ":6758,"fu1ĠdeĠ":6759,"lang2Ġzhong1Ġ":6760,"Ġhe2Ġdao4Ġ":6761,"Ġzhou1Ġfu3Ġ":6762,"Ġyu2Ġ2015Ġnian2Ġ":6763,"wu2Ġzheng4Ġzhuang4Ġgan3Ġran3Ġzhe3Ġ":6764,"Ġdan1":6765,"bai3Ġnian2Ġ":6766,"dian4Ġnao3":6767,"Ġzuo4Ġchu1Ġ":6768,"luo4Ġfa2":6769,"man3Ġzu2Ġ":6770,"zhao3Ġdao4Ġ":6771,"YouTub":6772,"Ġshi4Ġgong1Ġ":6773,"Ġshi4Ġyi1Ġbu4Ġ":6774,"wei2Ġer3Ġ":6775,"Ġyu3Ġyi1Ġ":6776,"Ġxing2Ġmu4Ġ":6777,"zhuan1Ġye4":6778,"Ġ11Ġ":6779,"Ġdi4Ġdai4Ġ":6780,"Ġcheng2Ġke4Ġ":6781,"shi3Ġshang4Ġ":6782,"zi4Ġmu3Ġ":6783,"bo1Ġli2Ġ":6784,"fei4Ġchu2Ġ":6785,"Ġ1993Ġnian2Ġ":6786,"si4ĠdeĠ":6787,"Ġli3Ġke4Ġ":6788,"jiu4Ġyuan2Ġ":6789,"Ġzai4Ġhe2Ġ":6790,"bang4Ġqiu2Ġ":6791,"mu3ĠdeĠ":6792,"Ġwei4Ġyu2Ġmei3Ġguo2Ġ":6793,"mian3Ġfei4Ġ":6794,"Ġtang2":6795,"Ġyi1Ġyuan4":6796,"Ġde2Ġzhi1Ġ":6797,"ling2Ġchen2Ġ":6798,"zong1Ġjiao4":6799,"sa1Ġ":6800,"Ġ24":6801,"Ġnuo4Ġ":6802,"jia3Ġdi4Ġ":6803,"dong1Ġjing1":6804,"Ġyu2Ġ2012Ġnian2Ġ":6805,"zong1Ġyi4Ġ":6806,"qi1Ġzi3":6807,"shan1Ġmai4Ġ":6808,"hou4Ġyi4Ġ":6809,"qi1Ġshi2Ġ":6810,"Ġchu1Ġdao4Ġ":6811,"ou3Ġxiang4Ġ":6812,"ĠĠĠge4Ġren2Ġ":6813,"zong3Ġren2Ġkou3Ġ":6814,"zuo4Ġwei2":6815,"hen3Ġkuai4Ġ":6816,"33Ġ":6817,"gu3Ġli4Ġ":6818,"kao3Ġshi4Ġ":6819,"yin4Ġni2Ġ":6820,"bi4Ġmian3":6821,"su1Ġge2Ġlan2Ġ":6822,"zhu3Ġyi4Ġzhe3Ġ":6823,"Ġsi1Ġling4Ġbu4Ġ":6824,"fĠ":6825,"Ġan1":6826,"guan1Ġjian4Ġ":6827,"liang4Ġwei4Ġ":6828,"jian1Ġren4Ġ":6829,"Ġzuo4Ġzhan4Ġ":6830,"Ġyu2Ġ2018Ġnian2Ġ":6831,"chou3Ġ":6832,"wu3Ġshi4Ġ":6833,"na4ĠdeĠ":6834,"ate":6835,"Ġ20Ġ":6836,"chai2Ġ":6837,"Ġji4Ġnian4":6838,"Ġ1945Ġnian2Ġ":6839,"chuang4Ġzao4":6840,"cuo4":6841,"tie1":6842,"du4Ġhe2Ġ":6843,"Ġxian4Ġyi3Ġ":6844,"77":6845,"guo2Ġshi4Ġ":6846,"Ġzui4Ġjia1Ġ":6847,"seng1Ġ":6848,"Ġyun2Ġ":6849,"yu2Ġhe2Ġ":6850,"shi3Ġren2Ġ":6851,"ze2Ġzai4Ġ":6852,"tian1Ġhou4Ġ":6853,"ark":6854,"Ġwei4Ġfu2Ġqi2Ġyu2Ġgang1Ġ":6855,"Ġxian1":6856,"che1Ġdui4Ġ":6857,"Ġdi4Ġfang1":6858,"Ġlv3Ġ":6859,"mai4Ġke4Ġ":6860,"wa3Ġer3Ġsheng3Ġ":6861,"Ġer3Ġshi4Ġ":6862,"pai4Ġqian3Ġ":6863,"Ch":6864,"Ġyi2":6865,"guan3Ġli3Ġju2Ġ":6866,"Ġming2Ġzhi4Ġ":6867,"54":6868,"hu4Ġbu4Ġ":6869,"hui2Ġyi4Ġ":6870,"Ġgong1Ġli3ĠdeĠ":6871,"Ġshi2Ġyan4Ġshi4Ġ":6872,"zou3Ġxiang4Ġ":6873,"Ġda4Ġgong1Ġ":6874,"shao4Ġnv3Ġ":6875,"ji1Ġzai4Ġ":6876,"guo2Ġwu4Ġ":6877,"guang3Ġchang3":6878,"wang4Ġyuan3Ġ":6879,"Ġyu2Ġ2014Ġnian2Ġ":6880,"guan3Ġzhi4Ġ":6881,"Ġdi4Ġtie3":6882,"DĠĠĠ":6883,"IC":6884,"Ġlian2Ġhe2Ġ":6885,"Ġza2Ġzhi4Ġ":6886,"di4Ġhe2Ġ":6887,"xiu1Ġdao4Ġ":6888,"xian3Ġzhu4Ġ":6889,"Ġxian4Ġcheng2Ġ":6890,"jing1Ġdian3Ġ":6891,"Ġer2Ġfei1Ġ":6892,"yun4Ġyong4Ġ":6893,"gua4":6894,"yan2Ġren2Ġ":6895,"siĠ":6896,"fu4Ġjin4":6897,"guan1Ġfang1":6898,"luan2":6899,"zei2":6900,"Ġwei4Ġyuan2Ġ":6901,"Ġji2Ġshi3Ġ":6902,"Ġju4Ġjue2Ġ":6903,"Ġe4Ġ":6904,"Ġxu2Ġ":6905,"ao4Ġer3Ġ":6906,"xie3Ġzuo4Ġ":6907,"ji1Ġgou4Ġ":6908,"che1Ġxiang1Ġ":6909,"jiao3Ġdu4Ġ":6910,"ill":6911,"bi2Ġ":6912,"su2":6913,"Ġxie4":6914,"ĠĠĠren2Ġ":6915,"zhua1Ġ":6916,"Ġdi4Ġtu2Ġ":6917,"Ġ23":6918,"Ġzheng1Ġ":6919,"bi4ĠdeĠ":6920,"2025Ġnian2Ġ":6921,"zuo3Ġyi4Ġ":6922,"im":6923,"Ġxie4Ġ":6924,"yan2ĠdeĠ":6925,"Ġshi2Ġxian4":6926,"Ġyu2Ġ193":6927,"chao1Ġguo4":6928,"bian3":6929,"shang4Ġbu4Ġ":6930,"Ġyi4Ġjian4Ġ":6931,"Ġji1Ġhu1":6932,"tai4Ġkong1Ġ":6933,"yuan4Ġyi4Ġ":6934,"Ġyue4Ġdui4Ġ":6935,"Ġjun1Ġqu1Ġ":6936,"Ġyi2Ġge4":6937,"ĠĠĠdang1Ġ":6938,"xiang1Ġshi4Ġ":6939,"ge2Ġli2Ġ":6940,"Sta":6941,"Ġyi4Ġshi4Ġ":6942,"95":6943,"Ġxian2Ġ":6944,"zu3ĠdeĠ":6945,"fang4Ġzai4Ġ":6946,"Ġcheng2Ġben3Ġ":6947,"Ġzheng4Ġming2Ġ":6948,"luo4Ġshan1Ġji1Ġ":6949,"wai4Ġjiao1Ġbu4Ġ":6950,"dao3Ġshang4Ġ":6951,"shan1Ġxian4Ġ":6952,"ti2Ġchu1ĠleĠ":6953,"Ġke4Ġer3Ġ":6954,"Ġcao1Ġ":6955,"atĠĠĠ":6956,"an4Ġshi4Ġ":6957,"ci3Ġtong2Ġshi2Ġ":6958,"ka3Ġsi1Ġ":6959,"xin1Ġjia1Ġpo1":6960,"76":6961,"jiu3ĠdeĠ":6962,"Ġyou3Ġxie1":6963,"ci2Ġzhi2Ġ":6964,"Ġwo3Ġmen":6965,"ni4":6966,"pu4Ġ":6967,"toĠĠĠ":6968,"ĠĠĠsi1Ġ":6969,"ĠĠĠzheng4Ġ":6970,"Ġzhi1Ġshi4Ġ":6971,"gai3Ġshan4Ġ":6972,"Ġge1":6973,"Ġneng2Ġ":6974,"ceng2ĠdeĠ":6975,"jing3Ġgao4Ġ":6976,"Ġyu2Ġ2017Ġnian2Ġ":6977,"yan2Ġzhi4Ġ":6978,"Ġxi1Ġer3Ġ":6979,"jin3Ġyou3Ġ":6980,"thĠ":6981,"cai3Ġfang3":6982,"can1Ġxuan3Ġ":6983,"Ġfu2Ġjian4Ġ":6984,"e2Ġluo2Ġsi1ĠdeĠ":6985,"Ġbao3":6986,"Ġba3":6987,"Ġku4Ġ":6988,"bei4Ġcheng1Ġwei2Ġ":6989,"Ġde2Ġla1Ġ":6990,"zheng4Ġfu3ĠdeĠ":6991,"mo4Ġsi1Ġke1Ġ":6992,"Ġxun2Ġ":6993,"Ġzhao1Ġhe2Ġ":6994,"shou3Ġdu1":6995,"qin1Ġwang2Ġ":6996,"huan4Ġzhe3Ġ":6997,"Ġshan1Ġdong1Ġ":6998,"gao3":6999,"Ġliu4":7000,"kou3ĠdeĠ":7001,"Ġwei4Ġzai4Ġ":7002,"Ġzai4Ġ194":7003,"zhang3Ġguan1Ġ":7004,"kong1Ġjian1":7005,"mu4ĠdeĠ":7006,"ti3Ġyu4":7007,"zheng1Ġyue4Ġ":7008,"chu4Ġzhang3Ġ":7009,"shuang1Ġda3Ġ":7010,"Ġ1995Ġnian2Ġ":7011,"vi":7012,"qiang2Ġzhi4Ġ":7013,"Ġyin1Ġshi4Ġ":7014,"chuang4Ġzuo4ĠdeĠ":7015,"Ġyu2Ġ2022Ġnian2Ġ":7016,"Ġsha1":7017,"Ġjia3":7018,"ying3Ġshi4Ġ":7019,"188":7020,"Ġ29":7021,"xue2Ġzhong1Ġ":7022,"fu4Ġshi4Ġ":7023,"xiu1Ġfu4Ġ":7024,"Ġge4Ġguo2Ġ":7025,"a1Ġgen1Ġ":7026,"chong1Ġtu1":7027,"00Ġmi3":7028,"Ġluo2Ġma3Ġ":7029,"shan1Ġdi4Ġ":7030,"ci2ĠdeĠ":7031,"Ġba3Ġ":7032,"si1Ġshi4Ġ":7033,"Ġxian4Ġji2Ġ":7034,"Ġying1Ġwen2Ġ":7035,"98":7036,"zhao4Ġpian1Ġ":7037,"ĠĠĠCh":7038,"ma3Ġlai2Ġxi1Ġya4":7039,"she4Ġbei4Ġ":7040,"ĠĠĠgu4Ġshi4Ġ":7041,"kai1Ġgong1Ġ":7042,"sheng4Ġchu1Ġ":7043,"guan4Ġjun1":7044,"Ġsi1Ġma3Ġ":7045,"bo2Ġlin2Ġ":7046,"Ġxu1Ġ":7047,"ĠĠĠchu1Ġ":7048,"Ġcheng2Ġxian4":7049,"fa1Ġsheng1ĠdeĠ":7050,"Ġdan4Ġbai2Ġ":7051,"pu3Ġbian4":7052,"Ġyu2Ġ2013Ġnian2Ġ":7053,"yong4ĠleĠ":7054,"bu4ĠdeĠcun1Ġzhuang1Ġ":7055,"Ġhe2Ġliu2Ġ":7056,"jia1Ġting2Ġ":7057,"Ġ00":7058,"xia4Ġzai4Ġ":7059,"qian1Ġshu3Ġ":7060,"Ġ1985Ġnian2Ġ":7061,"Ġkao3Ġ":7062,"dong4Ġzuo4Ġ":7063,"Ġyu2Ġ2019Ġnian2Ġ":7064,"li3Ġlun4":7065,"Ġtie3Ġ":7066,"su1Ġwei2Ġ":7067,"jiang4Ġyu3Ġ":7068,"Ġyue4Ġlai2Ġyue4Ġ":7069,"gu3Ġlao3":7070,"xiao3Ġxing2Ġxing1":7071,"ti1":7072,"guan3ĠdeĠ":7073,"Ġyu2Ġ2020Ġnian2Ġ":7074,"Ġyu2Ġ2016Ġnian2Ġ":7075,"Ġgong1Ġying4Ġ":7076,"qiang2Ġdu4Ġ":7077,"jia1Ġzai4Ġ":7078,"Ġren2Ġda4Ġ":7079,"Ġzhi1Ġdi4Ġ":7080,"Ġzhi1Ġjia1Ġ":7081,"yun3Ġshi2Ġ":7082,"qiang2ĠdeĠ":7083,"Ġshi2Ġhou4Ġ":7084,"yue4Ġnan2Ġ":7085,"Ġke4Ġhe2Ġ":7086,"Ġjian4Ġkang1Ġ":7087,"fei1Ġxing2":7088,"ting2Ġkao4Ġ":7089,"Ġ2025Ġnian2Ġ":7090,"38Ġ":7091,"zeng4":7092,"tong1Ġzhi1Ġ":7093,"chuang4Ġjian4Ġ":7094,"Ġji4Ġyi4Ġ":7095,"Ġ1990Ġnian2Ġ":7096,"Ġlei3Ġji4Ġ":7097,"ĠĠĠzeng1Ġzu3Ġ":7098,"ĠQ":7099,"shi4ĠĠĠ":7100,"san1Ġda4Ġ":7101,"Ġfu4Ġjin4ĠdeĠ":7102,"ĠĠĠba1Ġ":7103,"zao3Ġshang4Ġ":7104,"Ġbu4Ġman3Ġ":7105,"wo3Ġmen":7106,"Ġfu4Ġze2Ġguan3Ġxia2Ġ":7107,"po4Ġhuai4":7108,"lie4Ġru4Ġ":7109,"xuan3Ġju3Ġzhong1Ġ":7110,"ĠĠĠyi3Ġxia4":7111,"Ġyi1Ġzhi2Ġ":7112,"zhi3Ġkong4Ġ":7113,"Ġpai1":7114,"di1Ġqi4Ġ":7115,"ĠĠĠwei2Ġ":7116,"duo1Ġming2Ġ":7117,"jing1Ġguo4":7118,"Ġma2Ġ":7119,"shen2Ġme":7120,"Ġlai2":7121,"Ġge4Ġzhong3":7122,"zhu3Ġti2":7123,"sen1Ġlin2":7124,"guang3Ġzhou1":7125,"Ġjun1Ġdi4Ġ":7126,"tong2Ġxing4Ġ":7127,"qu3Ġxiao1":7128,"yin2Ġpai2Ġ":7129,"ĠBĠ":7130,"shang4ĠleĠ":7131,"la1Ġde2Ġ":7132,"Ġwan4Ġli4Ġ":7133,"la1ĠdeĠ":7134,"bian1Ġwei4Ġ":7135,"Ġwei4Ġneng2":7136,"Ġji1Ġchu3Ġ":7137,"gu3Ġla1Ġ":7138,"Ġzhu3Ġyan3Ġ":7139,"36Ġ":7140,"dun4ĠdeĠ":7141,"ming2Ġdan1Ġ":7142,"zhan4Ġtai2Ġ":7143,"Ġer2Ġgai1Ġdi4ĠdeĠ":7144,"Ġgen1Ġ":7145,"Ġfa1Ġxian4Ġ":7146,"shu1Ġchu1Ġ":7147,"bi4Ġmian3Ġ":7148,"BS":7149,"Ġshen2":7150,"qian2Ġhou4Ġ":7151,"lan2Ġxi1Ġ":7152,"mo4Ġer3Ġ":7153,"zhi4Ġ199":7154,"tian1Ġran2Ġ":7155,"hui2Ġgui1Ġ":7156,"ong":7157,"shi2Ġhe2Ġ":7158,"bo2Ġjue2Ġ":7159,"Ġ1991Ġnian2Ġ":7160,"zao3Ġqi1ĠdeĠ":7161,"Ġchuan1Ġ":7162,"shou1Ġdao4Ġ":7163,"Ġjia1Ġla1Ġ":7164,"Ġdui4Ġci3Ġ":7165,"jing4Ġnei4":7166,"mei3Ġyuan2ĠdeĠ":7167,"kong1Ġqi4Ġ":7168,"min2Ġzhu3Ġdang3":7169,"nu4Ġ":7170,"san1Ġren2Ġ":7171,"ban4Ġnian2Ġ":7172,"Ġyi3Ġqian2Ġ":7173,"Ġjia1Ġting2":7174,"Ġke4Ġli4Ġ":7175,"Ġwei2Ġzhi3Ġ":7176,"Ġteng2":7177,"shan1Ġdong1Ġsheng3Ġ":7178,"Ġyi3Ġse4Ġlie4Ġ":7179,"dui4Ġyuan2Ġ":7180,"2002Ġnian2Ġ":7181,"bao3ĠdeĠ":7182,"ma3Ġla1Ġ":7183,"Ġding4Ġ":7184,"zhi1Ġshi2Ġ":7185,"te4Ġli4Ġ":7186,"duo1Ġge4":7187,"san1Ġge4":7188,"guo2Ġwang2Ġ":7189,"xing1Ġqi1":7190,"fang2Ġwu1Ġ":7191,"5ĠĠĠ":7192,"lian2Ġren4Ġ":7193,"sao3Ġ":7194,"Ġhe2Ġgu3Ġ":7195,"Ġxian4Ġshang4Ġ":7196,"xiang1Ġbi3Ġ":7197,"Ġchu1Ġyan3Ġ":7198,"cai2Ġliao4":7199,"huang2Ġse4Ġ":7200,"pp":7201,"Ġì":7202,"qiu2Ġhui4Ġ":7203,"Ġpan1Ġ":7204,"Ġjue2Ġding4Ġ":7205,"zha2Ġ":7206,"tu2ĠdeĠ":7207,"sheng1Ġya2":7208,"ĠĠĠgai4Ġyao4Ġ":7209,"2003Ġnian2Ġ":7210,"liao3Ġjie3Ġ":7211,"feng1Ġfu4Ġ":7212,"zhan4Ġling3":7213,"Ġwei2Ġrao4Ġ":7214,"74":7215,"ĠĠĠfu4Ġ":7216,"fen1ĠdeĠ":7217,"Ġji4Ġzai3":7218,"bei3Ġfang1Ġ":7219,"pu3Ġcha2Ġ":7220,"Ġyu2Ġ2023Ġnian2Ġ":7221,"fen1Ġcheng2Ġ":7222,"ta3Ġer3Ġ":7223,"ĠdeĠju4Ġ":7224,"Ġshi2Ġbao4Ġ":7225,"shou4Ġquan2Ġ":7226,"wan2Ġzheng3Ġ":7227,"isĠĠĠ":7228,"ss":7229,"piao1Ġ":7230,"Ġbei4Ġer3":7231,"te4Ġla1Ġ":7232,"qing1Ġshao4Ġnian2Ġ":7233,"ling3Ġdao3ĠdeĠ":7234,"Ġ1950Ġnian2Ġ":7235,"Ġbing1Ġ":7236,"wang3Ġshang4Ġ":7237,"shou3Ġbo1Ġ":7238,"qi4Ġxuan2Ġ":7239,"Ġ1988Ġnian2Ġ":7240,"bu":7241,"tun2":7242,"Ġqin1Ġ":7243,"te4Ġer3Ġ":7244,"wu1Ġsi1Ġ":7245,"hao3Ġping2Ġ":7246,"Ġzai4Ġxin1Ġ":7247,"Ġgong1Ġneng2":7248,"jie1Ġren4Ġ":7249,"chang3Ġbi3Ġsai4Ġ":7250,"fang4Ġqi4":7251,"Ġsec":7252,"Ġ15Ġ":7253,"zan4Ġzhu4Ġ":7254,"Ġbu4Ġshao3":7255,"Ġyu3Ġqi2Ġ":7256,"Ġjin4Ġzhi3Ġ":7257,"yan2Ġjiu1Ġsheng1Ġ":7258,"Ġtai4":7259,"xiang1Ġtong2ĠdeĠ":7260,"te4Ġzheng1":7261,"ya4Ġmu4Ġ":7262,"Ġti1Ġ":7263,"lv4Ġse4Ġ":7264,"ear":7265,"te4Ġyou3Ġ":7266,"duo1Ġci4":7267,"ĠĠĠ16":7268,"gun3Ġ":7269,"Ġxing2Ġbu4Ġ":7270,"fu4Ġjin4ĠdeĠ":7271,"Ġping2Ġlun4Ġ":7272,"Ġzhe4Ġyang4Ġ":7273,"2Ġmi3Ġ":7274,"qing1Ġchao2Ġ":7275,"ĠĠĠde":7276,"dian1":7277,"xin1Ġshi4Ġ":7278,"wen2Ġzhong1Ġ":7279,"da2Ġzhou1Ġ":7280,"Ġyi1Ġliao2Ġ":7281,"gai3Ġzhi4Ġwei4Ġ":7282,"can1Ġshu4Ġ":7283,"500Ġ":7284,"od":7285,"Ġjue2Ġ":7286,"shi1Ġqu4Ġ":7287,"xing2Ġtai4Ġ":7288,"ĠĠĠdi4Ġyi1Ġ":7289,"96":7290,"ok":7291,"tong2Ġming2Ġ":7292,"gang3Ġyuan2Ġ":7293,"zhang3Ġzi3Ġ":7294,"BC":7295,"Ġshou3":7296,"he2Ġzai4Ġ":7297,"la1Ġhe2Ġ":7298,"an1Ġzhuang1Ġ":7299,"she4Ġhui4":7300,"fei4Ġyan2Ġ":7301,"Ġzhong1Ġjian1Ġ":7302,"bao3Ġluo2Ġ":7303,"can1Ġting1Ġ":7304,"rui4Ġdian3Ġ":7305,"Ġzai4Ġyi4Ġqi3Ġ":7306,"Ġfa3":7307,"ĠĠĠ10":7308,"wu3Ġge4Ġ":7309,"shen1Ġshi4Ġ":7310,"fang1Ġmi3Ġ":7311,"fen1Ġpei4Ġ":7312,"shen1Ġqing3":7313,"Ġhu4Ġ":7314,"fu2Ġli3Ġ":7315,"mi4ĠdeĠ":7316,"cun2ĠdeĠ":7317,"Ġsi1Ġke1Ġ":7318,"fei4Ġyong4Ġ":7319,"zan4Ġting2Ġ":7320,"si4Ġshi4Ġ":7321,"qing2ĠdeĠ":7322,"da4Ġqu1Ġ":7323,"xing4Ġneng2Ġ":7324,"sheng3Ġjie1Ġrang3Ġ":7325,"Ġre":7326,"cong2Ġwei4Ġ":7327,"xu4Ġli4Ġya4":7328,"zhi2Ġsheng1Ġ":7329,"Ġzhen3Ġ":7330,"qiao3":7331,"san1Ġji2Ġ":7332,"zhe3Ġhe2Ġ":7333,"jian4Ġzhu4":7334,"xiao1Ġshi1Ġ":7335,"Ġshe4Ġhui4Ġzhu3Ġyi4Ġ":7336,"Ġxuan3Ġ":7337,"Ġguang3Ġdong1Ġ":7338,"ying3Ġxiang4Ġ":7339,"gu4Ġding4Ġ":7340,"wu2Ġxian4Ġdian4Ġshi4Ġ":7341,"WĠ":7342,"you2Ġxing2Ġ":7343,"Ġxian4Ġyou3Ġ":7344,"jing4Ġzheng1":7345,"Ġtan1Ġ":7346,"xiao1Ġliang4Ġ":7347,"7Ġyue4Ġ1Ġri4Ġ":7348,"Ġfen1Ġbie2Ġ":7349,"Ġgong1Ġgong4":7350,"ma2":7351,"Ġxian1Ġhou4Ġ":7352,"ma3Ġke4Ġsi1Ġ":7353,"Ġquan2Ġzhang3Ġ":7354,"deng3ĠdeĠ":7355,"zhe3Ġhui4Ġ":7356,"tai4ĠdeĠ":7357,"hu1Ġyu4Ġ":7358,"hai3Ġan4":7359,"Ġwu2Ġfa3Ġ":7360,"mai3Ġ":7361,"hui2Ġguo2Ġ":7362,"Ġshi4Ġyi1Ġke1Ġ":7363,"Ġmai4Ġke4Ġ":7364,"tong4":7365,"Ġe2Ġ":7366,"Ġpo4Ġ":7367,"ĠĠĠjin1Ġ":7368,"wang2Ġwei4Ġ":7369,"Ġgong1Ġqing3Ġ":7370,"xin1Ġwen2":7371,"te4Ġdian3Ġ":7372,"wu1Ġran3Ġ":7373,"tui1Ġguang3Ġ":7374,"hong1Ġzha4":7375,"ex":7376,"zhi3ĠdeĠ":7377,"ying4Ġji2Ġ":7378,"Ġshi4Ġyou2":7379,"Ġzhi4Ġyi2Ġ":7380,"Ġji2Ġhou4Ġ":7381,"ji4Ġsuan4":7382,"lian2Ġjie2Ġ":7383,"suo3Ġshu3":7384,"fu2Ġluo2Ġli3Ġ":7385,"jiang1Ġta1Ġ":7386,"Ġli4Ġshi2Ġ":7387,"Ġbei4Ġpo4Ġ":7388,"Ġguo2Ġjia1Ġdui4Ġ":7389,"Ġ185":7390,"Ġfou3Ġ":7391,"tie3Ġlu4Ġche1Ġzhan4Ġ":7392,"chĠ":7393,"li3Ġbu4Ġ":7394,"luo4Ġsi1Ġ":7395,"Ġjia1Ġzu2":7396,"Ġnai3":7397,"Ġyao2Ġ":7398,"Ġzai4Ġta1ĠdeĠ":7399,"Ġshe4Ġyu2Ġ":7400,"guan1Ġce4Ġ":7401,"zhuan3Ġyi2":7402,"geng4Ġduo1ĠdeĠ":7403,"wen3":7404,"war":7405,"Ġta1Ġceng2Ġ":7406,"gao1Ġda2Ġ":7407,"Ġjiang1Ġsu1Ġ":7408,"85":7409,"ĠÏ":7410,"Ġbai2":7411,"Ġshen3Ġ":7412,"ji2Ġbu4Ġ":7413,"quan2Ġshi4Ġ":7414,"lei4Ġxing2ĠdeĠ":7415,"Ġdi4Ġzhi4Ġ":7416,"che1Ġliang4":7417,"yin3Ġru4Ġ":7418,"xie2Ġding4Ġ":7419,"nong2Ġcun1Ġ":7420,"Ġken3Ġ":7421,"Ġxu3Ġduo1":7422,"ĠdeĠzhu3Ġyao4Ġ":7423,"wei2Ġzhu3Ġ":7424,"Ġshi4Ġzhong1Ġhua2Ġren2Ġmin2Ġgong4Ġhe2Ġguo2Ġ":7425,"ying3Ġxiang3Ġli4Ġ":7426,"37Ġ":7427,"an4Ġzhong1Ġ":7428,"chong1Ġji1Ġ":7429,"Ġnian2Ġling2Ġ":7430,"Ġzi4Ġyou2":7431,"Ġwei1Ġlian2Ġ":7432,"Ġ28":7433,"xia1Ġ":7434,"zui4Ġwei4Ġ":7435,"Ġchu1Ġfa1Ġ":7436,"wen2Ġhua4ĠdeĠ":7437,"Ġzui4Ġda4Ġ":7438,"bang1Ġzhu4":7439,"kuo4Ġzhan3":7440,"Ġli":7441,"Ġyong3":7442,"si4Ġda4Ġ":7443,"ziĠhe2Ġ":7444,"zong3Ġhui4Ġ":7445,"jing1Ġji4":7446,"fang1Ġxiang4":7447,"Ġtong2Ġyang4Ġ":7448,"Ġshi4Ġjie4Ġbei1Ġ":7449,"Ġ1989Ġnian2Ġ":7450,"ĠĠĠjia1Ġting2Ġ":7451,"ga1Ġ":7452,"nu2Ġ":7453,"pu1Ġ":7454,"ĠX":7455,"Ġsong4":7456,"Ġyi1Ġren2Ġ":7457,"zhi2Ġye4":7458,"Ġnan2ĠziĠ":7459,"Ġzhi3Ġzai4Ġ":7460,"ni1":7461,"na4Ġde2Ġ":7462,"ĠdeĠhua4Ġ":7463,"Ġdi4Ġzhen4Ġ":7464,"mei3Ġguo2Ġren2Ġ":7465,"ĠdeĠzuo4Ġbiao1Ġwei4Ġ":7466,"mer":7467,"Ġbu4Ġlai2Ġ":7468,"yan2Ġzhong4ĠdeĠ":7469,"ĠsectionĠĠĠ":7470,"hu3":7471,"yp":7472,"Ġdang3Ġ":7473,"xue2Ġbu4Ġ":7474,"mu4Ġni2Ġ":7475,"ying1Ġgai1":7476,"ci3Ġshi2Ġ":7477,"Ġshi4Ġhui4Ġ":7478,"Ġji2Ġbing4Ġ":7479,"heng1Ġ":7480,"Ġxing1":7481,"lie4Ġchu1Ġ":7482,"hai2Ġzai4Ġ":7483,"Ġshi2Ġzhi4Ġ":7484,"jiang4Ġdi1":7485,"Ġsu4Ġ":7486,"lv4ĠdeĠ":7487,"Ġshi4Ġji4ĠdeĠ":7488,"ye3Ġke3Ġyi3Ġ":7489,"300":7490,"Ġzhong4":7491,"a1Ġer3":7492,"Ġnian2Ġqing1Ġ":7493,"Ġli4Ġyong4":7494,"Ġdao4Ġhe2Ġ":7495,"wu3Ġqi4":7496,"gai3Ġge2":7497,"Ġ1983Ġnian2Ġ":7498,"Ġceng2Ġren4":7499,"Ġwai4":7500,"Ġ50":7501,"fu4Ġjia1Ġ":7502,"ban1ĠdeĠ":7503,"Ġdao4Ġyi1Ġ":7504,"Ġta1Ġren4Ġwei2Ġ":7505,"liu2Ġxia4Ġ":7506,"Ġxin1Ġzeng1Ġ":7507,"pi1Ġping2":7508,"Ġshuang1Ġfang1Ġ":7509,"ca":7510,"Ġhu2Ġnan2Ġ":7511,"hai3Ġshang4Ġ":7512,"Ġshi4Ġfou3":7513,"guo2Ġhui4Ġ":7514,"se4Ġfu1Ġ":7515,"jian3Ġce4Ġ":7516,"Ġtong2Ġpai2Ġ":7517,"34Ġ":7518,"cao2":7519,"Ġyou3Ġda4Ġ":7520,"Ġyu2Ġ2024Ġnian2Ġ":7521,"ĠĠĠgen1Ġju4Ġ2020Ġnian2Ġmei3Ġguo2Ġren2Ġkou3Ġpu3Ġcha2ĠdeĠshu4Ġju4Ġ":7522,"can1Ġyu4ĠleĠ":7523,"xi4Ġlie4ĠdeĠ":7524,"yi4Ġbu4Ġ":7525,"sheng1Ġzhi4Ġ":7526,"guo2Ġli4Ġ":7527,"Ġgong1Ġkai1":7528,"âĨ":7529,"bing4Ġwei4Ġ":7530,"mei3Ġjun1Ġ":7531,"wu3Ġyue4Ġ":7532,"Ġyi1Ġzhi4Ġ":7533,"xi1Ġnan2Ġ":7534,"ba1Ġer3Ġ":7535,"hui2Ġhe2Ġ":7536,"zheng4Ġxie2Ġ":7537,"Ġta1Ġdui4Ġ":7538,"ban1Ġjiang3Ġ":7539,"qian1Ġyue1Ġ":7540,"qun2Ġdao3":7541,"you1Ġxiu4":7542,"shang4Ġhai3Ġshi4Ġ":7543,"chan3Ġsheng1ĠleĠ":7544,"xin1Ġren2Ġ":7545,"xiang1Ġji4Ġ":7546,"dan1Ġyuan2Ġ":7547,"liu2ĠdeĠ":7548,"si3Ġxing2Ġ":7549,"reng2Ġzai4Ġ":7550,"qie4Ġer3Ġ":7551,"Ġyi3Ġzai4Ġ":7552,"tao3Ġlun4":7553,"ON":7554,"xuan3Ġchu1Ġ":7555,"Ġyu2Ġlei4Ġ":7556,"tu3Ġer3Ġqi2":7557,"ah":7558,"jia1Ġgong1Ġ":7559,"Ġli4Ġshu3Ġ":7560,"Ġda4Ġliang4":7561,"sheng1Ġming2Ġ":7562,"shang4Ġyi1Ġ":7563,"xing4Ġshi4Ġ":7564,"guo4Ġyu2Ġ":7565,"Ġda4Ġqiao2Ġ":7566,"hai3Ġba2Ġgao1Ġ":7567,"Ġcan2Ġ":7568,"can1Ġmou2Ġzhang3Ġ":7569,"shuo4Ġ":7570,"ĠĠĠshi3Ġyong4Ġ":7571,"fang2Ġwei4Ġ":7572,"Ġbu4Ġyi1Ġ":7573,"Ġli4ĠziĠ":7574,"deng1Ġchang2Ġ":7575,"87":7576,"Ġdai4":7577,"Ġke3Ġneng2Ġ":7578,"Ġzai4Ġta1Ġ":7579,"Ġyou3Ġzhu4Ġ":7580,"ben3Ġtu3Ġ":7581,"Ġyu2Ġ2011Ġnian2Ġ":7582,"ĠdeĠji4Ġlu4Ġ":7583,"suo1":7584,"Ġlei2":7585,"Ġdi4Ġ1Ġ":7586,"Ġda4Ġdao4":7587,"zhang4Ġfu1Ġ":7588,"Ġ000Ġren2Ġ":7589,"e2Ġwei4Ġ":7590,"po3":7591,"Ġji2Ġxing2Ġzheng4Ġ":7592,"lu4Ġzhan4Ġ":7593,"jiao1Ġcha1Ġ":7594,"xun2Ġhuan2Ġ":7595,"lei4Ġsi4ĠdeĠ":7596,"fei1Ġzhou1":7597,"yang2Ġxian4Ġ":7598,"Ġyi1Ġci2Ġ":7599,"dui4Ġshou3Ġ":7600,"shi1Ġbai4":7601,"Ġtun2":7602,"qian1Ġshu3":7603,"ĠSĠ":7604,"cun2Ġzai4ĠdeĠ":7605,"etĠ":7606,"ji3Ġnian2Ġ":7607,"zhuang4Ġji1Ġ":7608,"our":7609,"yi2Ġchan3":7610,"zhuan1Ġmen2Ġ":7611,"nan2Ġji2Ġzhou1ĠdeĠ":7612,"meng3Ġ":7613,"Ġli2":7614,"qing4Ġzhu4Ġ":7615,"lao2Ġgong1Ġ":7616,"dao1":7617,"zhai1Ġ":7618,"zhi2Ġzhi4Ġ":7619,"Ġzai4Ġgai1Ġ":7620,"Ġyu2Ġdi4Ġ":7621,"Ġgong1Ġlu4":7622,"Ġshe4Ġji4ĠdeĠ":7623,"kan3":7624,"Ġqin2Ġ":7625,"ĠĠĠdan4":7626,"xi1Ġshi4Ġ":7627,"sheng3Ġdao4Ġ":7628,"Ġyou2Ġci3Ġ":7629,"Ġ1984Ġnian2Ġ":7630,"ĠhantĠ":7631,"ĠĠĠran2Ġer2Ġ":7632,"chuan2Ġzhi1Ġ":7633,"150":7634,"Ġzhi1Ġzhan4Ġ":7635,"Ġwei2Ġchi2Ġ":7636,"Ġbing4Ġru4Ġ":7637,"sheng2Ġ":7638,"pin1Ġ":7639,"Ġxian4Ġzhi1Ġxian4Ġ":7640,"shu3ĠdeĠzhi2Ġwu4Ġ":7641,"Ġsi4Ġchuan1Ġ":7642,"Ġzai4Ġyu3Ġ":7643,"Ġbu4Ġer3Ġ":7644,"Ġyou3Ġguan1":7645,"Ġyi3Ġzhi4Ġ":7646,"shou3Ġxi2Ġ":7647,"gu3Ġfen4Ġyou3Ġxian4Ġgong1Ġsi1Ġ":7648,"ll":7649,"mian2":7650,"Ġluo4":7651,"Ġchong1Ġ":7652,"por":7653,"mi4Ġsi1Ġ":7654,"Ġxi1Ġan1Ġ":7655,"Ġzhi1Ġliu2Ġ":7656,"Ġke4Ġyun4Ġ":7657,"ĠĠĠ2004Ġnian2Ġ":7658,"Ġnai3Ġ":7659,"Ġmi4Ġ":7660,"he2Ġwei4Ġ":7661,"zuo4ĠleĠ":7662,"jian1Ġshi4Ġ":7663,"chuang4Ġxin1Ġ":7664,"zong3Ġcai2Ġ":7665,"46Ġ":7666,"dian4ĠdeĠ":7667,"yao4ĠdeĠ":7668,"Ġgong1Ġchi3":7669,"Ġjian4Ġshi4Ġ":7670,"Ġzuo4Ġchu1":7671,"beng1":7672,"ĠĠĠ0":7673,"xuan4Ġ":7674,"tou2Ġbu4Ġ":7675,"zheng3Ġge4":7676,"xiao4Ġying4Ġ":7677,"omp":7678,"97":7679,"ist":7680,"nang2Ġ":7681,"ob":7682,"hui4Ġyi3Ġ":7683,"187":7684,"si3Ġyu2Ġ":7685,"pan4Ġluan4Ġ":7686,"Ġshi4Ġyi4Ġda4Ġli4Ġ":7687,"Ġmo2":7688,"Ġhuan2Ġ":7689,"hei1Ġren2Ġ":7690,"Ġnian2Ġnian2Ġ":7691,"bu4Ġfen4Ġ":7692,"chu1Ġqi1Ġ":7693,"yun4Ġdong4ĠdeĠ":7694,"hui4Ġshi4Ġdi4Ġ":7695,"yan2Ġshi2Ġ":7696,"zhang3Ġda4Ġ":7697,"chang2Ġjian4Ġ":7698,"Ġda4Ġsha4Ġ":7699,"zhu3Ġxi2":7700,"jiao4Ġshou4":7701,"zhi3Ġding4Ġ":7702,"jie4Ġshao4":7703,"Ġku4":7704,"Ġni3":7705,"ling3Ġyu4":7706,"huan2Ġxing2Ġ":7707,"Ġling4Ġwai4":7708,"na2Ġpo4Ġ":7709,"Ġpu3":7710,"guo2Ġnei4Ġ":7711,"xi1Ġbei3Ġbu4Ġ":7712,"di3Ġkang4Ġ":7713,"xia4Ġxia2Ġyi3Ġxia4":7714,"etĠĠĠ":7715,"Ġhan2":7716,"ĠĠĠ3Ġyue4Ġ":7717,"Ġshi4Ġyi1Ġzuo4Ġ":7718,"luo2Ġde2Ġ":7719,"fa3Ġting2Ġ":7720,"Ġzhe4Ġshou3Ġ":7721,"chuan2Ġmei2Ġ":7722,"yin3Ġyong4Ġ":7723,"Ġce4Ġ":7724,"Ġxin4Ġ":7725,"zi4Ġwei4Ġ":7726,"ge2Ġer3Ġ":7727,"Ġji2Ġlin2Ġ":7728,"ma3Ġtou2Ġ":7729,"zhou1Ġbian1Ġ":7730,"fen1Ġbie2Ġwei4Ġ":7731,"500":7732,"yi1Ġbu4Ġfen4":7733,"leng3Ġ":7734,"zhu4Ġdi4Ġ":7735,"pian4ĠdeĠ":7736,"Ġhou4Ġqi1Ġ":7737,"dui4Ġwu3Ġ":7738,"jing4Ġsai4Ġ":7739,"hang2Ġtian1Ġ":7740,"Ġhuan4Ġ":7741,"erĠĠĠ":7742,"Ġbu4Ġdi2Ġ":7743,"yan2Ġzhong4":7744,"Ġqiu2Ġhui4Ġ":7745,"ba1Ġla1Ġ":7746,"zu3Ġzhi3Ġ":7747,"Ġsai4Ġ":7748,"ai4Ġguo2Ġ":7749,"ta1Ġzai4Ġ":7750,"zhan4Ġwei4Ġyu2Ġ":7751,"zhi2Ġli4Ġ":7752,"zhi2Ġyuan2Ġ":7753,"Ġshi4Ġbing1Ġ":7754,"xue2Ġxi2":7755,"sheng1Ġtai4Ġ":7756,"tong1Ġxun4Ġ":7757,"shuai4Ġling3Ġ":7758,"mo4Ġsi1Ġke1":7759,"hai3Ġba2Ġgao1Ġdu4Ġwei4Ġ":7760,"Ġruan3Ġ":7761,"xi1Ġnan2Ġbu4Ġ":7762,"qu3Ġdai4":7763,"Ġgou1Ġ":7764,"mu4Ġsi1Ġlin2Ġ":7765,"dong3Ġ":7766,"ĠĠĠ3Ġ":7767,"tui1Ġjian4Ġ":7768,"nuo4Ġyi1Ġ":7769,"Ġzhong1Ġguo2Ġguo2Ġmin2Ġ":7770,"a1Ġli3Ġ":7771,"dui1Ġ":7772,"dan1Ġyi1Ġ":7773,"luo4ĠdeĠ":7774,"186":7775,"ric":7776,"Ġdi4Ġmian4Ġ":7777,"Ġxin1Ġzeng1":7778,"jian3Ġdan1Ġ":7779,"Ġa1Ġla1Ġ":7780,"jie1Ġshou1Ġ":7781,"Ġxiang1Ġdang1":7782,"Ġcao2":7783,"sha1Ġsi3Ġ":7784,"guang1Ġxu4Ġ":7785,"ĠdeĠcheng2Ġzhen4Ġ":7786,"ye3Ġbu4Ġ":7787,"la1Ġer3Ġ":7788,"shang1ĠdeĠ":7789,"yi1Ġxie1Ġ":7790,"Ġxian4Ġjin1Ġ":7791,"Ġxi1Ġxi1Ġ":7792,"Ġke4Ġla1Ġ":7793,"yin3Ġzhong3Ġ":7794,"Ġsui2Ġzhe":7795,"gr":7796,"xun2Ġqiu2Ġ":7797,"luo2Ġbo2Ġte4Ġ":7798,"ĠIn":7799,"Ġwei4Ġfu2Ġqi2Ġyu2Ġgang1":7800,"Ġche1Ġzhan4":7801,"Ġhe2Ġli3Ġ":7802,"Ġxing2Ġxiang4Ġ":7803,"Ġshe4Ġhui4":7804,"yin3Ġfa1":7805,"ying2Ġye4Ġ":7806,"Ġhuai4Ġ":7807,"ĠĠĠ5Ġyue4Ġ":7808,"bie2ĠdeĠ":7809,"wei3Ġfu4Ġshu1Ġji4Ġ":7810,"ge1Ġju4Ġ":7811,"Ġwei4Ġci3Ġ":7812,"Ġguo2Ġmin2":7813,"Ġer3Ġde2":7814,"wu3Ġdi4Ġ":7815,"Ġqiu2Ġchang3Ġ":7816,"bian1Ġhao4Ġwei4Ġ":7817,"li2ĠziĠ":7818,"Ġchu3Ġ":7819,"ming2ĠleĠ":7820,"you2Ġqi2Ġ":7821,"you2Ġtai4Ġren2Ġ":7822,"Ġqi2Ġzhong1Ġnan2Ġxing4Ġ":7823,"kuai4Ġsu4":7824,"Ġyu2Ġ2009Ġnian2Ġ":7825,"fa1Ġsheng1ĠleĠ":7826,"yu3Ġshi4Ġ":7827,"zhe3Ġwei4Ġ":7828,"ceng2Ġshui3Ġyu4Ġ":7829,"xun2Ġyang2Ġjian4Ġ":7830,"zhuan4ĠdeĠxiao3Ġxing2Ġxing1Ġ":7831,"Ġxu4Ġ":7832,"Ġwu1Ġke4Ġlan2Ġ":7833,"ĠĠĠping2Ġjia4Ġ":7834,"men2ĠdeĠ":7835,"zuo4Ġchu1":7836,"Ġchu1Ġyi1Ġ":7837,"Ġxing2Ġshi3Ġ":7838,"Ġshe4Ġji1Ġ":7839,"Ġke4Ġlai2Ġ":7840,"wei1Ġxian3Ġ":7841,"liao3Ġjie3":7842,"AO":7843,"ami":7844,"Ġdian4Ġshi4Ġ":7845,"yun4Ġhe2Ġ":7846,"liang2Ġshi2Ġ":7847,"bu2Ġyao4Ġ":7848,"rong2Ġna4Ġ":7849,"Ġ1986Ġnian2Ġ":7850,"you2Ġren2Ġgong1Ġ":7851,"Ġzai4Ġbei3Ġ":7852,"gui1Ġfan4Ġ":7853,"Ġ184":7854,"BCĠ":7855,"tui1Ġchu1ĠdeĠ":7856,"Ġjin4Ġnian2Ġ":7857,"bao3Ġcun2Ġ":7858,"Ġsheng1Ġzhang3Ġyu2Ġ":7859,"fu3Ġzhu4Ġ":7860,"terĠ":7861,"Ġzai4Ġri4Ġben3Ġ":7862,"xi1Ġbei3Ġ":7863,"gang3Ġkou3Ġ":7864,"42":7865,"ci4Ġwei4Ġ":7866,"bian1Ġcheng2Ġ":7867,"du1Ġdu1Ġ":7868,"cuo4Ġwu4Ġ":7869,"63":7870,"guo1":7871,"zhang3Ġwei4Ġ":7872,"ci4Ġda4Ġ":7873,"Ġji1Ġyin1Ġ":7874,"tu2Ġxiang4Ġ":7875,"fei3Ġ":7876,"sao1Ġ":7877,"Ġcan1Ġyu4Ġ":7878,"ben3Ġxian4Ġ":7879,"xiu1Ġjian4Ġ":7880,"shun4Ġshi2Ġ":7881,"ru4Ġqin1":7882,"shao4Ġjiang4Ġ":7883,"Ġchao2Ġxian1Ġ":7884,"zhi1Ġyuan2Ġ":7885,"dui4Ġhe2Ġ":7886,"nan2Ġfang1Ġ":7887,"Ġdang1Ġnian2Ġ":7888,"Ġdong1Ġjing1Ġ":7889,"Ġren2Ġmin2Ġbi4Ġ":7890,"Ġhuai2":7891,"gan3Ġlan3":7892,"ace":7893,"42Ġ":7894,"sa1":7895,"Ġniu2Ġ":7896,"ge4Ġdi4Ġ":7897,"ĠdeĠgu4Ġshi4Ġ":7898,"Ġyu2Ġ2010Ġnian2Ġ":7899,"fu2Ġhao4Ġ":7900,"Ġsu2Ġ":7901,"Ġdi4Ġer4Ġci4Ġ":7902,"Ġgong1Ġcheng2Ġshi1Ġ":7903,"Ġ1958Ġnian2Ġ":7904,"ĠĠĠjing1Ġji4Ġ":7905,"Ġshi4Ġnei4Ġ":7906,"Ġji2Ġshi3":7907,"fa3Ġlan2Ġ":7908,"zong3Ġjian1Ġ":7909,"na4Ġcui4":7910,"Ġtong1Ġguo4":7911,"Ġzai4Ġdi4Ġer4Ġ":7912,"ping2Ġjun1Ġhai3Ġba2Ġgao1Ġdu4Ġwei4Ġ":7913,"Ġye4":7914,"Ġbao1Ġhan2Ġ":7915,"lai2ĠleĠ":7916,"Ġsi1Ġxiang3Ġ":7917,"93":7918,"LE":7919,"lang4":7920,"zu2Ġqiu2Ġdui4Ġ":7921,"Ġhe2Ġji2Ġ":7922,"ĠdeĠdi4Ġer4":7923,"lao3Ġshi1Ġ":7924,"fa4Ġ":7925,"chu2Ġle":7926,"Ġshi2Ġxing4Ġ":7927,"ji4Ġnian4":7928,"si1Ġlan2Ġ":7929,"Ġzhuo2":7930,"jie3Ġjue2":7931,"dang1Ġju2Ġ":7932,"Ġer2Ġgai1Ġdi4ĠdeĠping2Ġjun1Ġhai3Ġba2Ġgao1Ġdu4Ġwei4Ġ":7933,"wu4Ġzhong1Ġ":7934,"fen1Ġzhi1Ġyi1Ġ":7935,"ni2Ġxi1Ġya4Ġ":7936,"meng2Ġjun1Ġ":7937,"zhong1Ġxin1Ġ":7938,"Ġyou3Ġli4Ġ":7939,"Ġzhi1Ġqian2":7940,"Ġchu1Ġshen1Ġ":7941,"kai1Ġzhan3Ġ":7942,"ru4Ġxuan3":7943,"mian4Ġlin2Ġ":7944,"na4Ġxie1Ġ":7945,"Ġe2":7946,"Ġbao4":7947,"miao3":7948,"kong1Ġjun1":7949,"Ġjian4Ġwei4Ġ":7950,"2010Ġnian2Ġmei3Ġguo2Ġren2Ġkou3Ġpu3Ġcha2ĠdeĠshu4Ġju4Ġ":7951,"han3Ġmo4":7952,"aw":7953,"mi3Ġya4Ġ":7954,"sheng3Ġwei3Ġ":7955,"fei1Ġfa3Ġ":7956,"qun2Ġti3Ġ":7957,"Ġsan4Ġ":7958,"Ġ1946Ġnian2Ġ":7959,"yin3Ġzhong3Ġzai1Ġpei2Ġ":7960,"75Ġ":7961,"ĠĠĠtian1Ġ":7962,"ji1Ġshi4Ġ":7963,"Ġwei4Ġming2Ġ":7964,"Ġshi2Ġyong4Ġ":7965,"qing2Ġxu4Ġ":7966,"can1Ġsai4":7967,"pin2Ġlv4Ġ":7968,"5Ġge4Ġ":7969,"ĠĠĠ12":7970,"zhang1ĠdeĠ":7971,"Ġzai4Ġgong1Ġ":7972,"chuang4Ġzao4Ġ":7973,"ka3Ġluo2Ġlai2Ġ":7974,"yuan2Ġdi4Ġ":7975,"ze2Ġyou3Ġ":7976,"feng1ĠdeĠ":7977,"shen1Ġshang4Ġ":7978,"chang3Ġjing3Ġ":7979,"jiao1Ġhuan4Ġ":7980,"Ġyi3Ġse4Ġlie4":7981,"jiao4Ġyu2Ġ":7982,"si4Ġming2Ġ":7983,"zu2Ġyi3Ġ":7984,"ying4Ġdui4Ġ":7985,"ji1Ġbai3Ġ":7986,"Ġde2Ġdao4ĠleĠ":7987,"Ġfan2":7988,"you2Ġren2Ġgong1Ġyin3Ġzhong3Ġzai1Ġpei2Ġ":7989,"Ġliang3Ġge4Ġ":7990,"Ġdian4Ġying3":7991,"Ġyun2Ġnan2Ġ":7992,"li4Ġzhong1Ġ":7993,"yan3Ġchu1":7994,"ge1ĠdeĠ":7995,"quan1":7996,"Ġzhi4Ġshao3":7997,"1Ġhao4Ġ":7998,"ke1Ġhui4Ġshi4Ġdi4Ġ":7999}