#version: 0.2
4 Ġ
2 Ġ
1 Ġ
n g
3 Ġ
i 4Ġ
a n
s h
z h
ng 1Ġ
j i
u 4Ġ
ng 2Ġ
Ġ Ġ
i 2Ġ
a o
x i
ng 4Ġ
an 2Ġ
i 3Ġ
i 1Ġ
d e
u 3Ġ
an 4Ġ
e 4Ġ
e n
c h
u o
de Ġ
u 2Ġ
ng 3Ġ
an 1Ġ
e 2Ġ
a i4Ġ
u 1Ġ
o ng1Ġ
a 1Ġ
ĠĠ Ġ
ã Ģ
sh i4Ġ
e i4Ġ
ao 4Ġ
i an2Ġ
a 4Ġ
y u
a ng1Ġ
y o
an 3Ġ
n 1Ġ
h u
a ng4Ġ
n ian2Ġ
en 2Ġ
l i
a ng3Ġ
e ng2Ġ
uo 4Ġ
uo 2Ġ
w ei4Ġ
m i
ao 3Ġ
z ai4Ġ
ãĢ ģ
b i
q i
a ng2Ġ
e 1Ġ
h e2Ġ
y i
e ng1Ġ
zh ong1Ġ
e r
b u4Ġ
o u4Ġ
a 3Ġ
e 3Ġ
n 4Ġ
sh i2Ġ
d i4Ġ
g uo2Ġ
a i2Ġ
u i4Ġ
r en2Ġ
ao 1Ġ
x u
y i1Ġ
n 2Ġ
o ng2Ġ
y u2Ġ
g u
l i4Ġ
zh i4Ġ
d i
w e
en 4Ġ
ch eng2Ġ
o ng4Ġ
y i4Ġ
g ong1Ġ
ji 2Ġ
e ng4Ġ
en 1Ġ
yu e4Ġ
yo u3Ġ
Ġ nian2Ġ
yu an2Ġ
d a4Ġ
a 2Ġ
l e
j i4Ġ
2 0
y i3Ġ
j u
a i1Ġ
p i
xi an4Ġ
o u1Ġ
ji a1Ġ
Ġ t
s i1Ġ
xi ng2Ġ
e i3Ġ
Ġ zh
y u3Ġ
ji 1Ġ
r i4Ġ
h ou4Ġ
l i3Ġ
o u3Ġ
a i3Ġ
Ġ d
t i
we i2Ġ
hu i4Ġ
1 9
o ng3Ġ
zh i1Ġ
q i2Ġ
u an2Ġ
d ao4Ġ
mi ng2Ġ
xi 1Ġ
ao 2Ġ
ji an4Ġ
xu e2Ġ
ch u1Ġ
g e4Ġ
z uo4Ġ
zh eng4Ġ
uo 1Ġ
sh eng1Ġ
yo u2Ġ
uo 3Ġ
q u1Ġ
sh ang4Ġ
le Ġ
en 3Ġ
de 2Ġ
b ei4Ġ
sh i3Ġ
d ui4Ġ
n 3Ġ
Ġ ji
zh an4Ġ
xi n1Ġ
ju n1Ġ
zh u
er 3Ġ
sh e4Ġ
r en4Ġ
f a1Ġ
w u4Ġ
bi ng4Ġ
k e4Ġ
er 2Ġ
l u4Ġ
y i2Ġ
sh u4Ġ
j u4Ġ
z i4Ġ
yi n1Ġ
f u4Ġ
f ang1Ġ
n an2Ġ
Ġ g
hu a4Ġ
d ai4Ġ
pi ng2Ġ
xi a4Ġ
t a1Ġ
l ai2Ġ
yo ng4Ġ
0 Ġ
ji n4Ġ
gu an1Ġ
y u4Ġ
zh u3Ġ
ãĢ ĭ
ãĢ Ĭ
zh ou1Ġ
Ġ shi4Ġ
f a3Ġ
m ei3Ġ
ji ng1Ġ
Ġ b
Â ·
Ġ h
zh u4Ġ
ji an1Ġ
xi ang1Ġ
xi ang4Ġ
mi n2Ġ
d ong4Ġ
q i1Ġ
f en1Ġ
sh ou3Ġ
q uan2Ġ
w en2Ġ
y an2Ġ
s uo3Ġ
q ian2Ġ
di an4Ġ
b o
z ui4Ġ
Ġ zai4Ġ
b en3Ġ
k ai1Ġ
l ian2Ġ
Ġt a1Ġ
ji ao4Ġ
zh i2Ġ
x i4Ġ
k e3Ġ
e ng3Ġ
e i1Ġ
t e4Ġ
m u4Ġ
y e4Ġ
sh u
f u2Ġ
m a3Ġ
y e3Ġ
t ong2Ġ
qi u2Ġ
ãĢ Į
ãĢ į
ji ang1Ġ
d u4Ġ
d uo1Ġ
Ġ yue4Ġ
y a4Ġ
Ġ c
o u2Ġ
h uo4Ġ
u n2Ġ
mi an4Ġ
ji e2Ġ
sh i1Ġ
n ei4Ġ
Ġ s
d u
xi ng4Ġ
zh i3Ġ
20 1
de ng3Ġ
y ao4Ġ
zh ang3Ġ
ch e1Ġ
s ai4Ġ
g uo4Ġ
m o
r u4Ġ
ji e1Ġ
w u3Ġ
g ao1Ġ
k u
di ng4Ġ
ch ang2Ġ
b ei3Ġ
Ġ ri4Ġ
d ong1Ġ
l a1Ġ
bi ao3Ġ
g e2Ġ
sh ou4Ġ
sh an1Ġ
ch ang3Ġ
l v
z e2Ġ
h ai3Ġ
Ġ bing4Ġ
k e1Ġ
c i4Ġ
n eng2Ġ
er 4Ġ
w ai4Ġ
e i2Ġ
Ġ 19
ch u
t ai2Ġ
q i3Ġ
t i3Ġ
z i
ji e4Ġ
k ou3Ġ
s an1Ġ
xi ao3Ġ
Ġ deĠ
z u3Ġ
ju e2Ġ
li n2Ġ
li u2Ġ
n i
sh eng3Ġ
yi ng1Ġ
d ao3Ġ
l an2Ġ
l uo2Ġ
g ong4Ġ
Ġ 1
ji n1Ġ
t i2Ġ
zh e3Ġ
s i4Ġ
sh u3Ġ
yi2Ġ ge4Ġ
Ġd an4Ġ
20 0
li e4Ġ
q i4Ġ
ch eng1Ġ
sh u1Ġ
yu an4Ġ
zh ong4Ġ
zh en4Ġ
d an1Ġ
f u3Ġ
Ġ wei4Ġ
zh ong3Ġ
f eng1Ġ
m i3Ġ
qi ng1Ġ
sh en1Ġ
w ang2Ġ
c i3Ġ
yu n4Ġ
gu an3Ġ
f ei1Ġ
b i3Ġ
b a1Ġ
li ang3Ġ
t ong1Ġ
m ei2Ġ
f en4Ġ
s u
y an3Ġ
we i3Ġ
b ao3Ġ
z ong3Ġ
xu an3Ġ
Ġ qi2Ġ
xi ao4Ġ
n a4Ġ
t ai4Ġ
li ang4Ġ
ti an1Ġ
Ġ er2Ġ
z u2Ġ
n i2Ġ
w u2Ġ
zhong1Ġ guo2Ġ
hu a2Ġ
d a2Ġ
yu e1Ġ
g u3Ġ
t ong3Ġ
yi ng3Ġ
bi an4Ġ
Ġzh e4Ġ
xi ng1Ġ
zh e4Ġ
ji ng4Ġ
shu i3Ġ
zi Ġ
y ang2Ġ
ji ao1Ġ
Ġ yi3Ġ
m en
b ao4Ġ
Ġ r
s u4Ġ
di an3Ġ
ji u4Ġ
bo 1Ġ
bi an1Ġ
w ang3Ġ
q u3Ġ
0 Ġnian2Ġ
h ao4Ġ
ch an3Ġ
mei3Ġ guo2Ġ
z i1Ġ
q u
ch uan2Ġ
b an4Ġ
n v
sh eng4Ġ
c eng2Ġ
s e4Ġ
5 Ġ
x u4Ġ
p u3Ġ
g e1Ġ
d ang1Ġ
nv 3Ġ
li ng4Ġ
l uo4Ġ
bo 2Ġ
1Ġ nian2Ġ
yo u4Ġ
c an1Ġ
g ai1Ġ
ch a2Ġ
b i4Ġ
Ġ you2Ġ
ch i2Ġ
g ang3Ġ
5 Ġnian2Ġ
2Ġ nian2Ġ
lv 4Ġ
qi an1Ġ
4Ġ nian2Ġ
ren2Ġ kou3Ġ
e Ġ
t u2Ġ
l i2Ġ
c e4Ġ
3Ġ nian2Ġ
h u4Ġ
8 Ġnian2Ġ
k uo4Ġ
l u
sh a1Ġ
t ou2Ġ
f an3Ġ
l ei4Ġ
x i2Ġ
zh eng1Ġ
we i1Ġ
xi e1Ġ
d ang3Ġ
6 Ġnian2Ġ
li ng3Ġ
l ong2Ġ
g ou4Ġ
gu i1Ġ
xi an1Ġ
u n1Ġ
g ai3Ġ
hu ang2Ġ
xi ang3Ġ
yi ng4Ġ
Ġ yin1Ġ
m en2Ġ
sh ang1Ġ
sh en2Ġ
7 Ġnian2Ġ
k a3Ġ
t uan2Ġ
m u3Ġ
20 2
Ġ ch
zh ang1Ġ
f u1Ġ
j u3Ġ
mo 2Ġ
d ou1Ġ
gu ang3Ġ
sh uo1Ġ
qi ng2Ġ
r ong2Ġ
c ong2Ġ
ji ng3Ġ
b an1Ġ
Ġ he2Ġ
pi n3Ġ
b an3Ġ
mo 4Ġ
Ġ zhong1Ġ
Ġ bu4Ġ
yi ng2Ġ
w o
zh an3Ġ
p o
u i1Ġ
hu i2Ġ
zhu ang1Ġ
m i4Ġ
b ao1Ġ
ji u3Ġ
w an4Ġ
p ai2Ġ
w an1Ġ
z ao4Ġ
c i2Ġ
6 Ġ
r an2Ġ
Ġg ai1Ġ
ti ng2Ġ
w an2Ġ
du an4Ġ
bi ao1Ġ
l un2Ġ
xi e2Ġ
j u2Ġ
d u2Ġ
f an4Ġ
f ang2Ġ
r u2Ġ
ji 3Ġ
Ġ ji2Ġ
k ong1Ġ
ti ao2Ġ
c ai2Ġ
m eng2Ġ
h ang2Ġ
bi e2Ġ
ch ao2Ġ
w u1Ġ
yi n3Ġ
shi3Ġ yong4Ġ
da4Ġ xue2Ġ
x u1Ġ
h uo2Ġ
cheng2Ġ wei2Ġ
gong1Ġ si1Ġ
zheng4Ġ fu3Ġ
1Ġ yue4Ġ
0 0Ġ
9 Ġnian2Ġ
t ang2Ġ
bi ng1Ġ
mi ng4Ġ
di4Ġ qu1Ġ
li ng2Ġ
ti e3Ġ
8 Ġ
1 0Ġ
ji ang3Ġ
Ġ yi1Ġ
ji e3Ġ
qi n1Ġ
guo2Ġ jia1Ġ
ĠĠĠ 19
z i3Ġ
lu n4Ġ
kai1Ġ shi3Ġ
2Ġ yue4Ġ
o r
xi n4Ġ
xi u1Ġ
Ġ di4Ġ
a Ġ
ji an3Ġ
z ong1Ġ
d an4Ġ
qu e4Ġ
h an4Ġ
xi ao1Ġ
ch u4Ġ
ji n3Ġ
ping2Ġ fang1Ġ
ji a4Ġ
qi ang2Ġ
7 Ġ
q u4Ġ
h ai2Ġ
zhu an1Ġ
pi an4Ġ
h an2Ġ
ch en2Ġ
Ġ yu2Ġ
zh en1Ġ
ke3Ġ yi3Ġ
e ĠĠĠ
f ang4Ġ
Ġt ong2Ġ
deĠ yi1Ġ
ji u1Ġ
Ġd ang1Ġ
sh ou1Ġ
gong1Ġ li3Ġ
â Ģ
c un1Ġ
jin4Ġ xing2Ġ
gu ang1Ġ
xiang1Ġ gang3Ġ
t Ġ
bu4Ġ fen4Ġ
j u1Ġ
ch u3Ġ
g u4Ġ
chu ang4Ġ
g en1Ġ
ren2Ġ min2Ġ
mian4Ġ ji1Ġ
xu n4Ġ
m an4Ġ
p ai4Ġ
yan2Ġ jiu1Ġ
h ong2Ġ
f ei4Ġ
wei4Ġ yu2Ġ
Ġ yi4Ġ
1 8
p ei4Ġ
g uo3Ġ
ri4Ġ ben3Ġ
xu an1Ġ
zh ao4Ġ
Ġh uo4Ġ
Ġ 201
ch ong2Ġ
li4Ġ shi3Ġ
o n
s u1Ġ
Ġ ye3Ġ
di ao4Ġ
xi a2Ġ
li u4Ġ
h u2Ġ
d u1Ġ
Ġ yu3Ġ
hu i1Ġ
Ġ hou4Ġ
mei2Ġ you3Ġ
Ġ 200
Ġ da4Ġ
ren4Ġ wei2Ġ
qi e3Ġ
qi ao2Ġ
shi4Ġ jie4Ġ
Ġ zui4Ġ
z eng1Ġ
zhu an3Ġ
Ġ xi1Ġ
a r
xi an3Ġ
m ai4Ġ
hu an2Ġ
x u3Ġ
d i2Ġ
t uo1Ġ
w a3Ġ
w en4Ġ
ti ng1Ġ
ji a3Ġ
g eng4Ġ
li ang2Ġ
d a3Ġ
wei3Ġ yuan2Ġ
Ġ you3Ġ
y a2Ġ
Ġc i3Ġ
di4Ġ yi1Ġ
Ġ shi2Ġ
sh ao3Ġ
g an3Ġ
y an4Ġ
qi2Ġ ta1Ġ
le i2Ġ
Ġ l
huo4Ġ de2Ġ
chu an1Ġ
t u3Ġ
yi n4Ġ
Ġ li4Ġ
yun4Ġ dong4Ġ
t a3Ġ
z ao3Ġ
s Ġ
yo ng3Ġ
1Ġ ri4Ġ
de ng1Ġ
fa3Ġ guo2Ġ
c un2Ġ
zhu ang4Ġ
b ai2Ġ
xu n2Ġ
ji ao3Ġ
dian4Ġ ying3Ġ
ĠĠĠ 201
n uo4Ġ
t ian2Ġ
d i3Ġ
ĠĠĠ zai4Ġ
b ai4Ġ
yu2Ġ 19
hu an4Ġ
deĠ yi2Ġge4Ġ
gong1Ġ zuo4Ġ
ji ang4Ġ
Ġqi2Ġ zhong1Ġ
l e4Ġ
t ui1Ġ
b ai3Ġ
zheng4Ġ zhi4Ġ
c ai3Ġ
zhu n3Ġ
lv 3Ġ
dai4Ġ biao3Ġ
ch ao1Ġ
h uo3Ġ
y ang4Ġ
zh u1Ġ
9 Ġ
q un2Ġ
zuo4Ġ wei2Ġ
guo2Ġ ji4Ġ
men Ġ
s i3Ġ
gu an4Ġ
po 4Ġ
g ao4Ġ
s a4Ġ
Ġt i
wo 3Ġ
hu a1Ġ
ke3Ġ neng2Ġ
le i1Ġ
biao3Ġ shi4Ġ
Ġ k
zhong1Ġ xin1Ġ
b ang1Ġ
Ġ xian4Ġ
l u3Ġ
ku ang4Ġ
Ġzh i1Ġ
dian4Ġ shi4Ġ
zhu3Ġ yao4Ġ
deĠ shi4Ġ
Ġ p
ch u2Ġ
xi4Ġ tong3Ġ
n ong2Ġ
shu ang1Ġ
Ġ zi4Ġ
li an4Ġ
tai2Ġ wan1Ġ
ku ai4Ġ
i n
h a1Ġ
Ġwei4Ġ yu2Ġ
du n4Ġ
he2Ġ guo2Ġ
di4Ġ er4Ġ
g ang1Ġ
Ġ xin1Ġ
ying1Ġ guo2Ġ
h ao3Ġ
Ġ bei4Ġ
shi2Ġ jian1Ġ
xi e3Ġ
che1Ġ zhan4Ġ
7 Ġyue4Ġ
shi4Ġ deĠ
fa1Ġ xian4Ġ
xing2Ġ zheng4Ġ
s ong4Ġ
su i2Ġ
9 Ġyue4Ġ
s ĠĠĠ
h en3Ġ
w ang4Ġ
p i1Ġ
li ao4Ġ
z uo3Ġ
8 Ġyue4Ġ
g ei3Ġ
y ang1Ġ
Ġb ao1Ġ
cheng2Ġ li4Ġ
3Ġ yue4Ġ
fa1Ġ zhan3Ġ
Ġji ang1Ġ
t ao2Ġ
p an4Ġ
zi4Ġ ji3Ġ
qi1Ġ jian1Ġ
yi n2Ġ
Ġ ã
bao1Ġ kuo4Ġ
Ġ nan2Ġ
she4Ġ ji4Ġ
Ġd ui4Ġ
Ġr u2Ġ
zhong1Ġ deĠ
zh eng3Ġ
ta1Ġ deĠ
d i1Ġ
Ġ yuan2Ġ
pi ao4Ġ
y a1Ġ
shi2Ġ qi1Ġ
5 Ġyue4Ġ
she4Ġ hui4Ġ
jian4Ġ zhu4Ġ
bi n1Ġ
âĢ Ķ
6 Ġyue4Ġ
k ong4Ġ
Ġd ong1Ġ
ju n4Ġ
s ai1Ġ
zu3Ġ zhi1Ġ
Ġyin1Ġ ci3Ġ
s ui4Ġ
yi3Ġ ji2Ġ
u l
g ai4Ġ
s en1Ġ
ch ang4Ġ
Ġ zhi4Ġ
r e4Ġ
4Ġ yue4Ġ
y ang3Ġ
xue2Ġ yuan4Ġ
Ġ 2
y ao1Ġ
cheng2Ġ shi4Ġ
zhi1Ġ yi1Ġ
Ġji n1Ġ
b ei1Ġ
wei3Ġyuan2Ġ hui4Ġ
l ou2Ġ
k ao3Ġ
xi an2Ġ
wen2Ġ hua4Ġ
Ġ fu4Ġ
ying3Ġ xiang3Ġ
1 2Ġyue4Ġ
shu3Ġ yu2Ġ
Ġzh eng4Ġ
xi e4Ġ
li4Ġ ya4Ġ
10Ġ yue4Ġ
ni an4Ġ
b u3Ġ
f or
yo u1Ġ
dan1Ġ ren4Ġ
ping2Ġfang1Ġ gong1Ġli3Ġ
you2Ġ xi4Ġ
Ġzh u3Ġ
bu4Ġ tong2Ġ
deĠ di4Ġ
1 5
ch ong1Ġ
h e4Ġ
Ġ shi3Ġ
a l
Ġ jia1Ġ
zhu3Ġ yi4Ġ
Ġ li3Ġ
tong1Ġ guo4Ġ
k u4Ġ
Ġzh i3Ġ
yu n2Ġ
zh u2Ġ
gong4Ġ he2Ġguo2Ġ
ni ng2Ġ
Ġbao1Ġ kuo4Ġ
Ġ zhong1Ġguo2Ġ
li ao2Ġ
sh ao4Ġ
Ġ you4Ġ
xue2Ġ xiao4Ġ
Ġ ju4Ġ
qi ng3Ġ
r eng2Ġ
bi3Ġ sai4Ġ
Ġ suo3Ġ
chu1Ġ xian4Ġ
20 Ġnian2Ġ
Ġ C
Ġyi3Ġ ji2Ġ
u an3Ġ
l ao3Ġ
luo2Ġ si1Ġ
Ġ gong1Ġ
zuo4Ġ pin3Ġ
ji4Ġ hua4Ġ
mi an3Ġ
y ong1Ġ
fa1Ġ sheng1Ġ
w an3Ġ
ch i3Ġ
t an2Ġ
can1Ġ jia1Ġ
f an1Ġ
h ei1Ġ
guan3Ġ li3Ġ
Ġzh i2Ġ
Ġc ong2Ġ
Ġ a1Ġ
r ui4Ġ
1 6
d ou4Ġ
Ġ cheng2Ġ
huo2Ġ dong4Ġ
1 1Ġyue4Ġ
Ġ S
di ng1Ġ
yu an3Ġ
for m
Ġji e2Ġ
k an4Ġ
w en1Ġ
1 0
Ġ fen1Ġ
1 7
Ġ ling4Ġ
Ġ ma3Ġ
cheng1Ġ wei2Ġ
t an3Ġ
zheng4Ġ shi4Ġ
zhong1Ġ yang1Ġ
xi u4Ġ
t ĠĠĠ
m an3Ġ
3 0Ġ
su an4Ġ
Ġb ei3Ġ
yin1Ġ yue4Ġ
tie3Ġ lu4Ġ
Ġ shang4Ġ
jing1Ġ ji4Ġ
h eng2Ġ
ul aĠ
form ulaĠ
d ĠĠĠ
Ġc eng2Ġ
m ao2Ġ
l u2Ġ
pi an1Ġ
h u1Ġ
Ġ mei3Ġ
Ġr an2Ġ
yi1Ġ zhong3Ġ
Ġji ng1Ġ
deĠ shi2Ġ
shi4Ġ zhen4Ġ
m ao4Ġ
de2Ġ guo2Ġ
qi n2Ġ
zhi1Ġ jian1Ġ
b u2Ġ
n a2Ġ
z an4Ġ
gu i3Ġ
Ġyou2Ġ yu2Ġ
wen4Ġ ti2Ġ
Ġ1 8
t h
1 2Ġ
Ġ 0
t u1Ġ
Ġ19 9
b a2Ġ
ming2Ġ wei4Ġ
t ui4Ġ
xu3Ġ duo1Ġ
p i2Ġ
xi 3Ġ
Ġ quan2Ġ
ti2Ġ gong1Ġ
pi n2Ġ
wo 4Ġ
k ang1Ġ
cheng2Ġ yuan2Ġ
r ang4Ġ
xi ong2Ġ
Ġ sheng1Ġ
zhong1Ġ hua2Ġ
Ġji n4Ġ
sh an4Ġ
ĠĠĠ di4Ġ
19 9
l ang3Ġ
jiao4Ġ yu4Ġ
xi ong1Ġ
Ġ A
Ġb o
shang4Ġ deĠ
shi2Ġ deĠ
4Ġ ri4Ġ
li4Ġ deĠ
Ġs u
Ġtong2Ġ shi2Ġ
k ang4Ġ
fu2Ġ wu4Ġ
ĠĠĠ 200
g an1Ġ
sh en3Ġ
qi ng4Ġ
ni2Ġ ya4Ġ
mi ao2Ġ
f ang3Ġ
xuan1Ġ bu4Ġ
a ĠĠĠ
shi4Ġ zai4Ġ
ren2Ġ deĠ
zhi1Ġ hou4Ġ
3Ġ ri4Ġ
Ġd uo1Ġ
zhi4Ġ zuo4Ġ
xing2Ġ deĠ
ta1Ġ men
yin4Ġ du4Ġ
Ġ ji1Ġ
e2Ġ luo2Ġsi1Ġ
a m
Ġ qian2Ġ
guan1Ġ xi4Ġ
ĠĠĠ 202
qi u1Ġ
Ġs an1Ġ
suo3Ġ you3Ġ
zhan4Ġ zheng1Ġ
Ġ liang3Ġ
Ġ zong3Ġ
Ġ mu4Ġ
ji4Ġ shu4Ġ
o u
qian1Ġ mi3Ġ
qi ang1Ġ
f a2Ġ
da4Ġ deĠ
z ao1Ġ
Ġb a1Ġ
f eng4Ġ
Ġ M
b a3Ġ
fang1Ġ mian4Ġ
Ġh ai3Ġ
jue2Ġ ding4Ġ
l ang2Ġ
zu2Ġ qiu2Ġ
ï ¼
Ġ fu2Ġ
Ġ ming2Ġ
g ui4Ġ
zhi1Ġ chi2Ġ
hui4Ġ yi4Ġ
20 20Ġnian2Ġ
ĠĠĠ sheng1Ġ
0Ġnian2Ġ dai4Ġ
Ġb en3Ġ
z ou3Ġ
jin4Ġ ru4Ġ
qi e4Ġ
r i
ren2Ġ wu4Ġ
19 Ġnian2Ġ
shu n4Ġ
Ġsu i2Ġ
xu an2Ġ
g eĠ
n i3Ġ
h ai4Ġ
xue2Ġ jia1Ġ
guan4Ġ jun1Ġ
ĠĠĠ S
fu4Ġ ze2Ġ
gong1Ġ cheng2Ġ
Ġh ao4Ġ
Ġ xia4Ġ
di ng3Ġ
xue2Ġ sheng1Ġ
ni u3Ġ
Ġ 3
zh ang4Ġ
shi4Ġ jian4Ġ
ren2Ġmin2Ġ gong4Ġhe2Ġguo2Ġ
z ai3Ġ
Ġji u4Ġ
zhong4Ġ yao4Ġ
leĠ yi1Ġ
quan2Ġ guo2Ġ
Ġ chu1Ġ
bu4Ġ deĠ
Ġ wu2Ġ
Ġd ao4Ġ
yi3Ġ jing1Ġ
Ġti an1Ġ
Ġt ai2Ġ
she4Ġ you3Ġ
cheng2Ġ deĠ
lie4Ġ che1Ġ
C Ġ
Ġzh an4Ġ
xu1Ġ yao4Ġ
ou1Ġ zhou1Ġ
lv e4Ġ
chu n1Ġ
hu n1Ġ
gen1Ġ ju4Ġ
lai2Ġ zi4Ġ
ping2Ġfang1Ġ qian1Ġmi3Ġ
p ao4Ġ
s ong1Ġ
sh en4Ġ
Ġ deng3Ġ
Ġ wei2Ġ
2 5
Ġ19 8
Ġ 5
xi ang2Ġ
can1Ġ yu4Ġ
d ang4Ġ
fa1Ġ xing2Ġ
Ġ qing1Ġ
Ġta1Ġ men
shi4Ġ wei4Ġ
shi4Ġ ji4Ġ
ke4Ġ lan2Ġ
xi4Ġ lie4Ġ
shou4Ġ dao4Ġ
Ġshi4Ġ yi1Ġ
t an4Ġ
g eng1Ġ
bao3Ġ hu4Ġ
min2Ġ guo2Ġ
du an1Ġ
s t
yin1Ġ wei4Ġ
si1Ġ te4Ġ
liang3Ġ ge4Ġ
y ĠĠĠ
r o
Ġ jian4Ġ
Ġt ong1Ġ
Ġyin1Ġ wei4Ġ
yong4Ġ yu2Ġ
Ġta1Ġ deĠ
Ġg ao1Ġ
Ġ T
sheng1Ġ huo2Ġ
yao1Ġ qiu2Ġ
zong3Ġ tong3Ġ
du n1Ġ
Ġ ji4Ġ
Ġ 202
ku an3Ġ
z a2Ġ
Ġji n3Ġ
ren2Ġ yuan2Ġ
kai1Ġ fa1Ġ
yong1Ġ you3Ġ
xian4Ġ deĠ
y a3Ġ
y e2Ġ
ĠĠĠ li4Ġshi3Ġ
ju3Ġ xing2Ġ
e l
Ġd ai4Ġ
r uo4Ġ
Ġ I
Ġ ren4Ġ
xiang1Ġ guan1Ġ
wu1Ġ ke4Ġlan2Ġ
p eng2Ġ
qing2Ġ kuang4Ġ
jun1Ġ shi4Ġ
jie2Ġ mu4Ġ
po 1Ġ
dan1Ġ wei4Ġ
Ġ de2Ġ
wan2Ġ cheng2Ġ
Ġb i3Ġ
you2Ġ yu2Ġ
ĠĠĠsheng1Ġ ping2Ġ
fang1Ġ shi4Ġ
qiu2Ġ dui4Ġ
Ġzh u
jia1Ġ ru4Ġ
s i
du an3Ġ
k an1Ġ
Ġg en1Ġ
Ġ liu2Ġ
cun2Ġ zai4Ġ
lian2Ġ meng2Ġ
mi4Ġ du4Ġ
zh eĠ
xuan3Ġ ju3Ġ
di4Ġ deĠ
Ġ m
Ġ B
f an2Ġ
zhu i1Ġ
Ġ 4
Ġ wo3Ġ
ch e4Ġ
Ġs i4Ġ
Ġh ai2Ġ
cheng2Ġ gong1Ġ
8 Ġri4Ġ
0 0
r e
g an4Ġ
Ġ wu3Ġ
Ġzh ang1Ġ
Ġd an1Ġ
c ao3Ġ
y ao2Ġ
bei3Ġ bu4Ġ
Ġ ren2Ġ
20 19Ġnian2Ġ
Ġ si1Ġ
shi4Ġ yi1Ġ
Ġli4Ġ ru2Ġ
Ġshi4Ġ ji4Ġ
Ġ P
Ġ xing2Ġ
jue2Ġ se4Ġ
zai4Ġ 19
gong1Ġ yuan2Ġ
bei3Ġ jing1Ġ
a t
zhi4Ġ deĠ
chu1Ġ deĠ
guo2Ġ min2Ġ
y Ġ
yi4Ġ shu4Ġ
zhi2Ġ wu4Ġ
Ġ ao4Ġ
zh a4Ġ
Ġ19 4
c uo4Ġ
z ang4Ġ
ji4Ġ lu4Ġ
Ġ 6
da4Ġ lu4Ġ
p a4Ġ
chan3Ġ sheng1Ġ
lian2Ġ sai4Ġ
er4Ġ shi2Ġ
yi4Ġ yuan2Ġ
shang4Ġ hai3Ġ
xiang4Ġ mu4Ġ
g u1Ġ
shou3Ġ ci4Ġ
Ġ guan1Ġ
Ġ ping2Ġ
k ong3Ġ
p ei2Ġ
mi ao4Ġ
Ġran2Ġ er2Ġ
lian2Ġ he2Ġ
su an1Ġ
Ġ 1Ġ
di4Ġ san1Ġ
l ao2Ġ
bu4Ġ dui4Ġ
Ġ mei3Ġguo2Ġ
shu4Ġ ju4Ġ
he2Ġ zuo4Ġ
a c
yu2Ġ 201
ge4Ġ ren2Ġ
Ġs ui4Ġ
yi1Ġ xie1Ġ
qu1Ġ deĠ
zi4Ġ you2Ġ
xi1Ġ ya4Ġ
c ang2Ġ
Ġ ying1Ġ
hu ai2Ġ
zhuan1Ġ ji2Ġ
nan2Ġ bu4Ġ
p ai1Ġ
Ġ D
qian2Ġ wang3Ġ
Ġ ke3Ġ
ch a1Ġ
h ao2Ġ
Ġ mian4Ġji1Ġ
Ġzhe4Ġ xie1Ġ
7 Ġri4Ġ
zh ao1Ġ
6 Ġri4Ġ
d uo2Ġ
zhe4Ġ xie1Ġ
deĠ ren2Ġ
d Ġ
A Ġ
zui4Ġ gao1Ġ
qu1Ġ yu4Ġ
zh e2Ġ
ren2Ġkou3Ġ mi4Ġdu4Ġ
ke1Ġ xue2Ġ
Ġbing4Ġ qie3Ġ
jiao1Ġ tong1Ġ
gao1Ġ du4Ġ
lai2Ġ deĠ
gong4Ġ you3Ġ
dang1Ġ shi2Ġ
qu3Ġ de2Ġ
tong2Ġ shi2Ġ
Ġdan4Ġ shi4Ġ
Ġta1Ġ zai4Ġ
2 2Ġ
m i2Ġ
min2Ġ zhu3Ġ
zui4Ġ hou4Ġ
9 Ġri4Ġ
fan3Ġ ying4Ġ
xu e4Ġ
ji2Ġ tuan2Ġ
Ġ luo2Ġ
cai3Ġ yong4Ġ
chu1Ġ ban3Ġ
ĠĠĠ C
mian4Ġji1Ġ wei4Ġ
ming2Ġ deĠ
Ġg ong4Ġ
zeng1Ġ jia1Ġ
xing2Ġ dong4Ġ
yu3Ġ yan2Ġ
Ġ cheng2Ġwei2Ġ
jian4Ġ li4Ġ
Ġtong2Ġ nian2Ġ
ji1Ġ gou4Ġ
de2Ġ dao4Ġ
Ġ n
ren4Ġ he2Ġ
jie2Ġ gou4Ġ
Ġ xiao3Ġ
Ġ xue2Ġ
ling3Ġ dao3Ġ
Ġdang1Ġ shi2Ġ
sheng1Ġ chan3Ġ
zhu3Ġ xi2Ġ
1 1Ġ
chuan2Ġ tong3Ġ
jie2Ġ shu4Ġ
zh ao3Ġ
Ġ19 5
zu3Ġ cheng2Ġ
xing2Ġ shi4Ġ
jian4Ġ deĠ
du2Ġ li4Ġ
ke4Ġ si1Ġ
ge1Ġ qu3Ġ
t ou4Ġ
o l
Ġ an1Ġ
zhu3Ġ jiao4Ġ
ĠĠĠ M
le i3Ġ
b ang3Ġ
Ġgen1Ġ ju4Ġ
Ġ ke4Ġ
Ġg tĠ
di4Ġ guo2Ġ
Ġ ai4Ġ
Ġji e1Ġ
ch ou2Ġ
da4Ġ li4Ġ
ti on
Ġ19 7
biao1Ġ zhun3Ġ
Ġ ze2Ġ
Ġzui4Ġ zhong1Ġ
Ġ xiang1Ġ
hu n4Ġ
Ġhou4Ġ lai2Ġ
ji4Ġ xu4Ġ
ju4Ġ you3Ġ
mei2Ġ ti3Ġ
fu4Ġ jin4Ġ
n ao3Ġ
Ġt e4Ġ
Ġ1 5
ch i4Ġ
Ġl tĠ
ku an1Ġ
jie1Ġ shou4Ġ
Ġbing4Ġ zai4Ġ
shu4Ġ liang4Ġ
ni u2Ġ
shi2Ġ dai4Ġ
Ġg ai3Ġ
hai3Ġ jun1Ġ
r uan3Ġ
nei4Ġ deĠ
Ġzhi1Ġ hou4Ġ
di e2Ġ
Ġzh ou1Ġ
fan4Ġ wei2Ġ
ta1Ġ menĠ
su n1Ġ
Ġ 7
yi3Ġ xia4Ġ
Ġ 2Ġ
shu3Ġ deĠ
qi2Ġ zhong1Ġ
Ġch en2Ġ
t i4Ġ
nv3Ġ xing4Ġ
qi an3Ġ
diao4Ġ cha2Ġ
m ou2Ġ
Ġ wang2Ġ
yi4Ġ hui4Ġ
Ġt ai4Ġ
Ġ E
19 8
deĠ ji1Ġ
chao1Ġ guo4Ġ
ye3Ġ shi4Ġ
dong4Ġ wu4Ġ
nei4Ġ rong2Ġ
qu e1Ġ
Ġg u4Ġ
Ġch u2Ġ
f ou3Ġ
Ġ huang2Ġ
Ġri4Ġ ben3Ġ
s an4Ġ
hang2Ġ kong1Ġ
zhu an4Ġ
wu2Ġ fa3Ġ
Ġ shou3Ġ
deĠ da4Ġ
ge2Ġ ming4Ġ
Ġ1 6
jun1Ġ dui4Ġ
Ġci3Ġ wai4Ġ
nv3Ġ zi3Ġ
k ai3Ġ
Ġs ui1Ġ
a1Ġ er3Ġ
qu1Ġ wei4Ġ
hou4Ġ deĠ
r an3Ġ
yun4Ġdong4Ġ yuan2Ġ
Ġ 8
Ġzhu3Ġ yao4Ġ
ni ao3Ġ
ju1Ġ min2Ġ
er Ġ
Ġ H
f o
an1Ġ quan2Ġ
di4Ġ fang1Ġ
kong4Ġ zhi4Ġ
chuang4Ġ zuo4Ġ
ti2Ġ chu1Ġ
fen1Ġ bie2Ġ
Ġ chang2Ġ
fa1Ġ biao3Ġ
ge2Ġ lan2Ġ
T Ġ
wei4Ġ zhi4Ġ
lian2Ġ bang1Ġ
z ai1Ġ
ming2Ġ cheng1Ġ
ch ang1Ġ
Ġbu4Ġ guo4Ġ
Ġg u3Ġ
fa1Ġ bu4Ġ
xu e3Ġ
hu i3Ġ
you3Ġ xian4Ġ
bi4Ġ ye4Ġ
t ao3Ġ
yuan2Ġ deĠ
dang1Ġ di4Ġ
zao4Ġ cheng2Ġ
Ġshi4Ġ wei4Ġyu2Ġ
gu4Ġ shi4Ġ
l an3Ġ
p i3Ġ
su n3Ġ
Ġ fei1Ġ
ji1Ġ chang3Ġ
lu an4Ġ
Ġ shu3Ġyu2Ġ
ban1Ġ ya2Ġ
xiao3Ġ shi2Ġ
Ġ19 3
Ġ L
Ġ lin2Ġ
xin1Ġ deĠ
fan3Ġ dui4Ġ
Ġji an3Ġ
zhi1Ġ qian2Ġ
Ġ19 6
Ġ ka3Ġ
z un1Ġ
zi4Ġji3Ġ deĠ
min2Ġ zu2Ġ
Ġ R
chu1Ġ sheng1Ġ
Ġzhong1Ġ hua2Ġ
Ġg e2Ġ
guo4Ġ cheng2Ġ
m ou3Ġ
hu an1Ġ
luo2Ġ ma3Ġ
Ġbo 1Ġ
xiao3Ġ xing2Ġ
huan2Ġ jing4Ġ
Ġ 9
t eng2Ġ
yi4Ġ deĠ
Ġ yan2Ġ
ju3Ġ ban4Ġ
r ang3Ġ
xuan3Ġ ze2Ġ
Ġzh u4Ġ
bian1Ġ ma3Ġ
gong1Ġ lu4Ġ
Ġ xiang4Ġ
Ġji ao4Ġ
zui4Ġ zhong1Ġ
s ou1Ġ
xin1Ġ wen2Ġ
sh ui4Ġ
ĠĠĠ A
b a4Ġ
Ġzh Ġ
mi n3Ġ
yin2Ġ hang2Ġ
yan3Ġ yuan2Ġ
m eng4Ġ
k ao4Ġ
k en3Ġ
zi1Ġ liao4Ġ
yu2Ġ 200
jue2Ġ sai4Ġ
Ġã ĥ
1 3
Ġt i2Ġ
Ġ N
tong1Ġ chang2Ġ
fo 2Ġ
jiu4Ġ shi4Ġ
gong4Ġ chan3Ġ
shu1Ġ ji4Ġ
fang1Ġ fa3Ġ
you3Ġ guan1Ġ
xie2Ġ hui4Ġ
ren2Ġ shi4Ġ
1 4
zhong1Ġhua2Ġ ren2Ġmin2Ġgong4Ġhe2Ġguo2Ġ
ti ng3Ġ
Ġ G
S Ġ
Ġc i4Ġ
l a4Ġ
fen1Ġ bu4Ġ
w en3Ġ
o f
yi4Ġ zhi2Ġ
Ġ er4Ġ
dao4Ġ leĠ
r Ġ
ch un2Ġ
ĠĠĠdi4Ġ li3Ġ
o m
20 Ġ
xing2Ġ cheng2Ġ
dao3Ġ zhi4Ġ
Ġ yu4Ġ
zhi2Ġ ye4Ġ
qi3Ġ ye4Ġ
ji4Ġ nian4Ġ
jian4Ġ she4Ġ
i l
b ang4Ġ
Ġsui1Ġ ran2Ġ
5 0Ġ
Ġ guo2Ġ
Ġ yue1Ġ
bu4Ġ zhang3Ġ
fa3Ġ lv4Ġ
guan3Ġ xia2Ġ
jiao4Ġ shou4Ġ
zhong1Ġ xue2Ġ
1 3Ġ
chong2Ġ xin1Ġ
er3Ġ si1Ġ
bi ng3Ġ
she4Ġ li4Ġ
Ġsuo3Ġ yi3Ġ
wan2Ġ quan2Ġ
Ġc an1Ġ
Ġ hui4Ġ
sai4Ġ shi4Ġ
xing4Ġ deĠ
gong1Ġ ye4Ġ
ï¼ į
xian3Ġ shi4Ġ
Ġd ao3Ġ
p an2Ġ
ĠĠĠ P
ĠĠĠ ben3Ġ
ya4Ġ zhou1Ġ
Ġ F
zi4Ġ zhi4Ġ
p u2Ġ
you3Ġ yi1Ġ
fa3Ġ yuan4Ġ
ĠĠĠ19 9
shu ai4Ġ
1 2
ni e4Ġ
xing2Ġ wei2Ġ
Ġtai2Ġ wan1Ġ
yi4Ġ qi3Ġ
gong1Ġ kai1Ġ
Ġ qi1Ġ
Ġ shou4Ġ
1 4Ġ
fei1Ġ chang2Ġ
san1Ġ nian2Ġ
shi2Ġ er4Ġ
shen4Ġ zhi4Ġ
ban3Ġ ben3Ġ
sh ao1Ġ
zhu3Ġ ren4Ġ
c ai4Ġ
yi1Ġ ci4Ġ
c ao1Ġ
shen1Ġ fen4Ġ
Ġ lian2Ġ
c ang1Ġ
ti3Ġ yu4Ġ
zhi2Ġ jie1Ġ
Ġ lu4Ġ
ĠĠĠ B
da4Ġ liang4Ġ
Ġ1 7
jia1Ġ zu2Ġ
s uo1Ġ
yi4Ġ ban1Ġ
biao3Ġ xian4Ġ
Ġb i4Ġ
Ġ qie3Ġ
xiao3Ġ shuo1Ġ
xian4Ġ dai4Ġ
Ġ ke1Ġ
f eng2Ġ
mi e4Ġ
shi4Ġ he2Ġ
deĠ yuan2Ġ
Ġmu4Ġ qian2Ġ
yu n3Ġ
yi3Ġ lai2Ġ
wen2Ġ xue2Ġ
e t
ĠĠĠ T
zhi3Ġ hui1Ġ
Ġ sheng4Ġ
l ai4Ġ
chu3Ġ li3Ġ
wu4Ġ zhong3Ġ
shang1Ġ ye4Ġ
sheng3Ġ fen4Ġ
Ġb ao3Ġ
D Ġ
z ou4Ġ
dong4Ġ hua4Ġ
Ġ na4Ġ
zheng4Ġ ce4Ġ
m ei4Ġ
duo1Ġ shu4Ġ
shi4Ġ shi4Ġ
Ġbo 2Ġ
hu ai4Ġ
19 7
lei4Ġ si4Ġ
pu3Ġ cha2Ġ
jia1Ġ ting2Ġ
n ai4Ġ
zhou1Ġ deĠ
r a
Ġh ong2Ġ
te4Ġ bie2Ġ
Ġ xiang1Ġgang3Ġ
zao3Ġ qi1Ġ
qu4Ġ shi4Ġ
gui1Ġ mo2Ġ
dui4Ġ yu2Ġ
gong1Ġ ji1Ġ
u n4Ġ
y an1Ġ
miao2Ġ shu4Ġ
Ġd ou1Ġ
Ġ ren2Ġkou3Ġmi4Ġdu4Ġ
bu2Ġ shi4Ġ
sheng1Ġ ya2Ġ
ĠĠĠ gai1Ġ
k Ġ
li3Ġ lun4Ġ
Ġta1Ġ menĠ
ba2Ġ gao1Ġdu4Ġ
Ġ shan1Ġ
zhan4Ġ dou4Ġ
wai4Ġ jiao1Ġ
ping2Ġ jun1Ġ
deĠ cheng2Ġ
guang3Ġ dong1Ġ
p ang2Ġ
Ġ J
Ġs u1Ġ
Ġ 3Ġ
neng2Ġ gou4Ġ
Ġh u2Ġ
g e
xue2Ġ xi2Ġ
yi4Ġ da4Ġli4Ġ
ĠĠĠ ren2Ġkou3Ġ
shi4Ġ wu4Ġ
o w
Ġ shi1Ġ
sheng1Ġ wu4Ġ
shi4Ġ you2Ġ
li2Ġ kai1Ġ
yi1Ġ nian2Ġ
jiang1Ġ jun1Ġ
zong1Ġ jiao4Ġ
xia4Ġ deĠ
Ġ lai2Ġ
Ġji an1Ġ
Ġã Ĥ
Ġ pu3Ġ
m ai3Ġ
chi2Ġ xu4Ġ
zhe4Ġ geĠ
zheng4Ġzhi4Ġ ren2Ġwu4Ġ
jie2Ġ guo3Ġ
m Ġ
ding4Ġ deĠ
1 5Ġ
ji2Ġ deĠ
zi4Ġ ran2Ġ
gong4Ġ tong2Ġ
han2Ġ guo2Ġ
yi1Ġ yuan4Ġ
fu4Ġ qin1Ġ
Ġã ģ
zuo4Ġ yong4Ġ
ku n1Ġ
li4Ġ yong4Ġ
bian1Ġma3Ġ wei4Ġ
kong1Ġ jian1Ġ
Ġ la1Ġ
zhi2Ġ xing2Ġ
l a
deĠyi2Ġge4Ġ shi4Ġzhen4Ġ
Ġ0 00Ġ
zhong1Ġ gong4Ġ
da4Ġ hui4Ġ
n u3Ġ
ren2Ġ lei4Ġ
Ġh an2Ġ
Ġ wei1Ġ
su i1Ġ
mei3Ġ yuan2Ġ
bo2Ġ wu4Ġ
jing4Ġ nei4Ġ
zhu2Ġ jian4Ġ
Ġ she4Ġ
fang1Ġ xiang4Ġ
gai3Ġ wei2Ġ
Ġxue2Ġ ming2Ġ
Ġzh u1Ġ
jie1Ġ rang3Ġ
wen2Ġ wu4Ġ
ku a4Ġ
ĠĠĠ gen1Ġju4Ġ
yan3Ġ chu1Ġ
Ġg eng4Ġ
h ou2Ġ
ku i2Ġ
na2Ġ da4Ġ
gai1Ġ guo2Ġ
n Ġ
ĠĠĠ yu3Ġ
ãĢ ī
ãĢ Ī
niu3Ġ yue1Ġ
gong4Ġchan3Ġ dang3Ġ
Ġg e1Ġ
bu4Ġ zai4Ġ
Ġye3Ġ shi4Ġ
neng2Ġ li4Ġ
Ġzh ang3Ġ
gong1Ġ gong4Ġ
Ġling4Ġ wai4Ġ
Ġh a1Ġ
fen1Ġ wei2Ġ
she4Ġ shi1Ġ
bian4Ġ hua4Ġ
qi2Ġ shi4Ġ
s ang1Ġ
Ġ mo4Ġ
gong1Ġ shi4Ġ
o ĠĠĠ
bao4Ġ gao4Ġ
su1Ġ lian2Ġ
jin3Ġ biao1Ġ
qiu2Ġ yuan2Ġ
yi4Ġ wei4Ġ
hou4Ġ lai2Ġ
Ġ shen1Ġ
sh an3Ġ
Ġ feng1Ġ
ren4Ġ wu4Ġ
yan2Ġ zhong4Ġ
zh en3Ġ
si3Ġ wang2Ġ
da4Ġ qu1Ġ
guang3Ġ bo1Ġ
kai1Ġ fang4Ġ
Ġzhe4Ġ shi4Ġ
Ġ zuo4Ġwei2Ġ
zhi4Ġ zao4Ġ
t u
di ao1Ġ
Ġh an4Ġ
Ġ Ð
zh a1Ġ
xi1Ġ ban1Ġya2Ġ
pai2Ġ ming2Ġ
ge4Ġ zhong3Ġ
zhi3Ġ chu1Ġ
o Ġ
dou1Ġ shi4Ġ
Ġ zuo4Ġ
Ġ yang2Ġ
wei2Ġ yi1Ġ
quan2Ġ li4Ġ
2 8Ġri4Ġ
i c
Ġru2Ġ guo3Ġ
jing1Ġ guo4Ġ
pai1Ġ she4Ġ
Ġzui4Ġ hou4Ġ
15 Ġri4Ġ
gong1Ġ neng2Ġ
fa1Ġ dong4Ġ
e s
ren2Ġkou3Ġ pu3Ġcha2Ġ
zhi1Ġjian1Ġ deĠ
shi4Ġ chang3Ġ
tai2Ġ bei3Ġ
d ong3Ġ
ba1Ġ shi4Ġ
x u2Ġ
deĠ you2Ġ
zhi3Ġ you3Ġ
xing2Ġzheng4Ġ qu1Ġ
zai4Ġ ci4Ġ
wei2Ġ er3Ġ
mu4Ġ biao1Ġ
san1Ġ ge4Ġ
si1Ġ tan3Ġ
dong1Ġ bu4Ġ
Ġzh ong4Ġ
Ġ yi2Ġ
lu4Ġ xian4Ġ
yun4Ġdong4Ġ hui4Ġ
zhong1Ġguo2Ġ da4Ġlu4Ġ
deĠ guan1Ġ
Ġ fa3Ġ
di4Ġ si4Ġ
xun4Ġ lian4Ġ
ju an3Ġ
bei4Ġ jing3Ġ
xi4Ġ bao1Ġ
Ġ jun1Ġ
di an1Ġ
19 6
yan3Ġ chang4Ġ
Ġ 4Ġ
mu4Ġ qian2Ġ
p Ġ
tuan2Ġ ti3Ġ
la1Ġ si1Ġ
Ġdang1Ġ di4Ġ
e c
Ġ1 0Ġ
yu2Ġ 18
gui1Ġ ding4Ġ
t ao4Ġ
g ou1Ġ
jie1Ġ dao4Ġ
tong3Ġ zhi4Ġ
dong1Ġ bei3Ġ
i Ġ
Ġb ao4Ġ
3 0
Ġ ke3Ġyi3Ġ
Ġ sha1Ġ
re4Ġ dai4Ġ
wan2Ġ jia1Ġ
xi1Ġ bu4Ġ
deĠ he2Ġ
Ġ K
zui4Ġ jia1Ġ
deĠ xin1Ġ
ĠĠĠ L
Ġt i3Ġ
bi4Ġ xu1Ġ
4 0Ġ
gong1Ġ bu4Ġ
19 4
yue4Ġ tai2Ġ
le ng3Ġ
Ġhuo4Ġ de2Ġ
er3Ġ sheng3Ġ
20 Ġri4Ġ
ju4Ġ le4Ġ
Ġsui2Ġ hou4Ġ
gui3Ġ dao4Ġ
r u3Ġ
z u1Ġ
c ui4Ġ
2 1Ġ
da2Ġ dao4Ġ
zhe4Ġ zhong3Ġ
âĢ ĵ
xian4Ġ zai4Ġ
chan3Ġ pin3Ġ
25 Ġri4Ġ
Ġji e4Ġ
Ġd u4Ġ
deĠyi1Ġ bu4Ġfen4Ġ
bo2Ġwu4Ġ guan3Ġ
si4Ġ nian2Ġ
30Ġ ri4Ġ
ji4Ġ suan4Ġ
si1Ġ ling4Ġ
jie1Ġ duan4Ġ
qu an1Ġ
zhe3Ġ deĠ
ao4Ġ yun4Ġ
h u3Ġ
li3Ġ si1Ġ
bao1Ġ han2Ġ
r ou4Ġ
dan1Ġ qu1Ġ
xian4Ġ zhi4Ġ
tui1Ġ chu1Ġ
feng1Ġ ge2Ġ
zh uo2Ġ
mo2Ġ shi4Ġ
10Ġ ri4Ġ
Ġer2Ġ qie3Ġ
Ġdi4Ġ er4Ġ
hua4Ġ deĠ
xiang1Ġ tong2Ġ
zhuan1Ġ ye4Ġ
guo2Ġ wang2Ġ
hui1Ġ fu4Ġ
Ġ mai4Ġ
Ġ bian4Ġ
lun2Ġ dun1Ġ
da4Ġ zhan4Ġ
Ġ nei4Ġ
shi4Ġ zhang3Ġ
quan2Ġ qiu2Ġ
Ġ zu3Ġ
mu3Ġ qin1Ġ
you3Ġxian4Ġ gong1Ġsi1Ġ
dao4Ġ lu4Ġ
ying4Ġ yong4Ġ
Ġ19 2
xiao3Ġxing2Ġ xing1Ġ
i t
zh e
jie3Ġ fang4Ġ
ku n4Ġ
a s
ch a4Ġ
k eng1Ġ
ming4Ġ ming2Ġ
yu2Ġ 202
nan2Ġ ziĠ
Ġjin3Ġ guan3Ġ
Ġ xian1Ġ
wang3Ġ luo4Ġ
bao4Ġ fa1Ġ
shi4Ġ yi2Ġge4Ġ
Ġt ang2Ġ
bi3Ġ li4Ġ
m ang2Ġ
lu4Ġ jun1Ġ
f en3Ġ
ĠĠĠ19 8
âĢ ¦
Ġ hua2Ġ
ju4Ġ li2Ġ
ĠĠĠ R
Ġ que4Ġ
Ġ dian4Ġ
bei4Ġ cheng1Ġwei2Ġ
ge1Ġ shou3Ġ
th eĠĠĠ
he2Ġ bing4Ġ
sh ang3Ġ
guan1Ġ yu2Ġ
ta1Ġmen ĠdeĠ
hua4Ġ xue2Ġ
reng2Ġ ran2Ġ
zi1Ġ ge2Ġ
Ġ W
bu4Ġ men2Ġ
Ġzh en1Ġ
Ġ yin3Ġ
bu4Ġ neng2Ġ
cheng2Ġ ji4Ġ
ji2Ġ qi2Ġ
meng2Ġ gu3Ġ
Ġzhu an1Ġ
Ġr ang4Ġ
zhu3Ġ chi2Ġ
1 00Ġ
2 4Ġ
201 0Ġnian2Ġ
bo1Ġ chu1Ġ
Ġ Ã
xu n1Ġ
yi1Ġ ming2Ġ
dian4Ġshi4Ġ tai2Ġ
Ġ ge4Ġ
U T
ji1Ġ bai4Ġ
Ġb ai2Ġ
Ġzhi2Ġ dao4Ġ
2 4Ġri4Ġ
deng3Ġ ren2Ġ
Ġyu2Ġ shi4Ġ
. .
c an2Ġ
Ġ kai1Ġ
shi2Ġ nian2Ġ
18 Ġri4Ġ
1 6Ġ
ji1Ġ chu3Ġ
dao4Ġ deĠ
ch ai1Ġ
zhou1Ġ shi4Ġ
zhi4Ġ du4Ġ
P Ġ
yi1Ġ yang4Ġ
ĠĠĠ G
2 6Ġri4Ġ
ĠĠĠ ci3Ġ
zhong1Ġ bu4Ġ
qing1Ġ nian2Ġ
nong2Ġ ye4Ġ
pi1Ġ ping2Ġ
zhu3Ġ ti2Ġ
ye3Ġ you3Ġ
gai3Ġ ge2Ġ
l ang4Ġ
ming2Ġ zi4Ġ
qun2Ġ dao3Ġ
zh ou4Ġ
r ao4Ġ
n e4Ġ
bu4Ġtong2Ġ deĠ
shi2Ġ yan4Ġ
gao1Ġ su4Ġ
fei1Ġ ji1Ġ
gui1Ġ hua4Ġ
m eĠ
jian4Ġ zao4Ġ
16 Ġri4Ġ
lin2Ġ pi3Ġ
zhe4Ġ yi1Ġ
ling3Ġ yu4Ġ
ĠĠĠ D
ju4Ġle4Ġ bu4Ġ
yu2Ġ19 9
Ġ wen2Ġ
ying2Ġ de2Ġ
wu3Ġ nian2Ġ
sh u2Ġ
n an4Ġ
li4Ġ fa3Ġ
jiang1Ġ qi2Ġ
17 Ġri4Ġ
bu2Ġ hui4Ġ
Ġji u3Ġ
wu4Ġ li3Ġ
mei3Ġ zhou1Ġ
deĠ shou3Ġ
12Ġ ri4Ġ
19 5
biao3Ġ yan3Ġ
she4Ġ zhi4Ġ
xia4Ġ ji4Ġ
5 Ġri4Ġ
Ġzh ao4Ġ
shui3Ġ yu4Ġ
2Ġ ri4Ġ
Ġzhe4Ġ zhong3Ġ
yin1Ġ ci3Ġ
Ġ 5Ġ
guang3Ġ chang3Ġ
c u4Ġ
n ai3Ġ
ju1Ġ zhu4Ġ
a1Ġ la1Ġ
xiang1Ġ dang1Ġ
Ġdan4Ġ zai4Ġ
di4Ġ shi2Ġ
yuan2Ġ nian2Ġ
zhong1Ġhua2Ġ min2Ġguo2Ġ
tai4Ġ yang2Ġ
jin4Ġ shi4Ġ
1 1Ġri4Ġ
tou2Ġ zi1Ġ
ĠĠĠ H
dong1Ġ jing1Ġ
ta1Ġ zai4Ġ
Ġta1Ġ ceng2Ġ
zao1Ġ dao4Ġ
si1Ġ ji1Ġ
xue2Ġ zhe3Ġ
fa1Ġ she4Ġ
m a2Ġ
2 1Ġri4Ġ
gong1Ġ chi3Ġ
t i1Ġ
you3Ġ deĠ
ji1Ġ ben3Ġ
ĠĠĠ19 4
te4Ġ zheng1Ġ
2 7Ġri4Ġ
6 0Ġ
xi2Ġ ji1Ġ
2 3Ġri4Ġ
lin2Ġpi3Ġ ke4Ġ
dong1Ġ nan2Ġ
1 8Ġ
22Ġ ri4Ġ
ji2Ġ zhong1Ġ
Ġ mo2Ġ
Ġl u2Ġ
19 Ġri4Ġ
xin4Ġ xi1Ġ
Ġ200 1Ġnian2Ġ
tai4Ġ ping2Ġ
Ġzhe4Ġ geĠ
Ġ yong4Ġ
da4Ġ bu4Ġfen4Ġ
c ui1Ġ
xue2Ġ wei4Ġ
guang3Ġ fan4Ġ
tong2Ġ nian2Ġ
tou4Ġ guo4Ġ
fen1Ġ zhong1Ġ
Ġshi4Ġwei4Ġyu2Ġ mei3Ġguo2Ġ
a tion
lian2Ġ jie1Ġ
shi2Ġ ji4Ġ
jin3Ġbiao1Ġ sai4Ġ
qi an4Ġ
Ġc ai2Ġ
jia1Ġ na2Ġda4Ġ
chao2Ġ xian1Ġ
Ġ ying1Ġguo2Ġ
d a1Ġ
yue1Ġ han4Ġ
1 4Ġri4Ġ
2 9Ġri4Ġ
Ġhai3Ġ ba2Ġgao1Ġdu4Ġ
Ġch ong2Ġ
dui4Ġ deĠ
si1Ġ deĠ
bing4Ġ bu4Ġ
yuan2Ġ yin1Ġ
jing3Ġ cha2Ġ
Ġji a3Ġ
za2Ġ zhi4Ġ
jian4Ġ yu2Ġ
ge4Ġ yue4Ġ
Ġta1Ġ shi4Ġ
deng3Ġ di4Ġ
Ġ shu3Ġ
li3Ġ deĠ
fen1Ġ xi1Ġ
t an1Ġ
qu3Ġ dai4Ġ
er3Ġ de2Ġ
Ġ wai4Ġ
Ġ shui3Ġ
wei4Ġ ren2Ġ
guan1Ġ fang1Ġ
Ġdang1Ġ zhong1Ġ
jing1Ġ li4Ġ
xia4Ġ xia2Ġ
ping2Ġ lun4Ġ
Ġ qi3Ġ
she4Ġ bei4Ġ
t er
u r
1 3Ġri4Ġ
5 0
xie2Ġ zhu4Ġ
sai4Ġ ji4Ġ
bi3Ġ ya4Ġ
zuo3Ġ you4Ġ
wang3Ġ zhan4Ġ
dang1Ġ xuan3Ġ
UT CĠ
she4Ġ qu1Ġ
ren4Ġ ming4Ġ
ao4Ġ lin2Ġpi3Ġke4Ġ
tu3Ġ di4Ġ
mu4Ġ di4Ġ
duo1Ġ deĠ
di4Ġqu1Ġ deĠ
I Ġ
bu4Ġ yu2Ġ
yun4Ġ shu1Ġ
Ġh ei1Ġ
qi ang3Ġ
che1Ġ liang4Ġ
er4Ġ nian2Ġ
sh e2Ġ
xi1Ġ nan2Ġ
pin2Ġ dao4Ġ
sh uo4Ġ
Ġran2Ġ hou4Ġ
hui4Ġ deĠ
hui4Ġ zai4Ġ
3 1Ġri4Ġ
on Ġ
xi1Ġ la4Ġ
ding4Ġ yi4Ġ
Ġ1 4
yuan2Ġ zhu4Ġ
wei2Ġ zhu3Ġ
ĠĠĠ 18
si1Ġ ke1Ġ
zai4Ġ di4Ġ
zhan4Ġ yi4Ġ
deĠshi2Ġ qu1Ġwei4Ġ
xi1Ġ bei3Ġ
ying3Ġ pian4Ġ
man4Ġ hua4Ġ
i r
su4Ġ du4Ġ
2 5Ġ
yi1Ġ wei4Ġ
Ġqi2Ġ hou4Ġ
ye4Ġ wu4Ġ
ma3Ġ lai2Ġ
bao3Ġ chi2Ġ
Ġzhong1Ġhua2Ġ ren2Ġmin2Ġgong4Ġhe2Ġguo2Ġ
Ġ19 1
ĠĠĠ F
ĠĠĠ ju4Ġ
2 3Ġ
yi4Ġ yuan4Ġ
h eĠĠĠ
qu an4Ġ
h an3Ġ
s u2Ġ
zuo4Ġ jia1Ġ
wei4Ġ leĠ
ze2Ġ shi4Ġ
Ġ O
mao4Ġ yi4Ġ
nan2Ġ sheng3Ġ
fen1Ġ lei4Ġ
xuan1Ġ chuan2Ġ
quan2Ġ bu4Ġ
Ġ yi2Ġge4Ġ
an Ġ
Ġtong1Ġ chang2Ġ
Ġ 20
Ġ ya4Ġ
zh ai2Ġ
Ġji ng3Ġ
de ng4Ġ
zhi3Ġ shi4Ġ
jian4Ġ yi4Ġ
qing2Ġkuang4Ġ xia4Ġ
ren2Ġ zai4Ġ
Ġt ou2Ġ
zui4Ġ da4Ġ
wei4Ġ mei3Ġ
Ġ cheng1Ġ
Ġr uo4Ġ
can1Ġ sai4Ġ
nan2Ġ xing4Ġ
z u
zheng1Ġ yi4Ġ
shi2Ġ shi1Ġ
fang1Ġ an4Ġ
t e
tiao2Ġ jian4Ġ
zhuang4Ġ tai4Ġ
Ġwei4Ġyu2Ġ gai1Ġguo2Ġ
E Ġ
zh an1Ġ
Ġ bian1Ġ
qi4Ġ che1Ġ
xuan3Ġ shou3Ġ
Ġjian3Ġ cheng1Ġ
Ġfen1Ġ bie2Ġ
zuo4Ġ zhan4Ġ
Ġ mei2Ġ
sheng3Ġ ji2Ġ
dian4Ġshi4Ġ ju4Ġ
di4Ġ wei4Ġ
hui2Ġ dao4Ġ
lian2Ġ xu4Ġ
Ġ ren4Ġwei2Ġ
Ġwei4Ġ leĠ
Ġ shen2Ġ
Ġ shuang1Ġ
ng Ġ
zuo4Ġ chu1Ġ
Ġdan1Ġ ren4Ġ
ĠĠĠ I
ren2Ġkou3Ġ shu4Ġliang4Ġ
er2Ġ ziĠ
n i1Ġ
jiao4Ġ tang2Ġ
tong3Ġ ji4Ġ
bo2Ġ shi4Ġ
ju4Ġ jue2Ġ
po4Ġ huai4Ġ
wu3Ġ qi4Ġ
c ao2Ġ
zhu3Ġ jue2Ġ
ping2Ġ jia4Ġ
duo1Ġ ci4Ġ
ke1Ġ ji4Ġ
ti3Ġ deĠ
Ġzhe4Ġ yi1Ġ
liu4Ġ nian2Ġ
ceng2Ġ jing1Ġ
zong1Ġ he2Ġ
sh e3Ġ
bei4Ġ er3Ġ
gai3Ġ bian4Ġ
Ġshi4Ġ fa3Ġguo2Ġ
1 7Ġ
2 7
z eng4Ġ
Ġ19 0
sui1Ġ ran2Ġ
xi1Ġ wang4Ġ
n i4Ġ
hai2Ġ you3Ġ
p ao3Ġ
guo2Ġ deĠ
gai4Ġ nian4Ġ
zui4Ġ da4ĠdeĠ
u n
bang1Ġ zhu4Ġ
Ġ ai1Ġ
er2Ġ tong2Ġ
h ong1Ġ
m e
guang3Ġ zhou1Ġ
hai3Ġ ba2Ġ
ding4Ġ wei4Ġ
dao3Ġ yan3Ġ
Ġ shu1Ġ
shang4Ġ wei4Ġ
zhan3Ġ kai1Ġ
Ġqi2Ġ ta1Ġ
Ġ fan3Ġ
yi1Ġ shi4Ġ
Ġfen1Ġ bu4Ġyu2Ġ
zhi1Ġ wai4Ġ
g ao3Ġ
deĠ shu4Ġju4Ġ
yun4Ġ ying2Ġ
deĠ yi4Ġ
ping2Ġ tai2Ġ
jing1Ġ ying2Ġ
ji4Ġ cheng2Ġ
zhi4Ġ liao2Ġ
guan1Ġ yuan2Ġ
t un2Ġ
Ġci3Ġ hou4Ġ
zhan4Ġ ling3Ġ
zu3Ġ he2Ġ
fei1Ġ xing2Ġ
zi1Ġ yuan2Ġ
Ġt u2Ġ
jian3Ġ shao3Ġ
k an3Ġ
lu4Ġ di4Ġ
jie3Ġ jue2Ġ
ĠĠ formulaĠ
Ġ fei4Ġ
leĠ yi2Ġge4Ġ
E E
nei4Ġ bu4Ġ
Ġ shen4Ġzhi4Ġ
Ġ mi3Ġ
deĠ qian2Ġ
da4Ġ li4Ġya4Ġ
tou2Ġ piao4Ġ
00Ġ wan4Ġ
g uo1Ġ
di4Ġ tie3Ġ
xing1Ġ jian4Ġ
19 3
ji1Ġ du1Ġ
deĠshi4Ġ zhen4Ġ
Ġd a2Ġ
jie2Ġ he2Ġ
f ei2Ġ
Ġ ye4Ġ
hen3Ġ duo1Ġ
ĠĠĠ zheng4Ġzhi4Ġ
fu4Ġze2Ġ guan3Ġxia2Ġ
xian4Ġ lu4Ġ
gai1Ġ di4Ġ
ĠĠĠ zhe4Ġ
bi3Ġ jiao4Ġ
z ong4Ġ
nian2Ġ deĠ
ce4Ġ shi4Ġ
xiang1Ġ dui4Ġ
xie2Ġ yi4Ġ
zai4Ġ 200
liu2Ġ xing2Ġ
ba1Ġ li2Ġ
wu2Ġ xian4Ġ
qi ong2Ġ
Ġs ai4Ġ
mei3Ġguo2Ġ ren2Ġkou3Ġpu3Ġcha2Ġ
kong1Ġ jun1Ġ
chu ang2Ġ
zh ai4Ġ
2 8
li4Ġ yu2Ġ
di4Ġ qiu2Ġ
Ġdao3Ġ zhi4Ġ
zai4Ġ 201
mian4Ġ deĠ
ji1Ġ jin1Ġ
ying1Ġ ge2Ġlan2Ġ
nan2Ġ jing1Ġ
lai2Ġ yuan2Ġ
di4Ġ xia4Ġ
nv3Ġ er2Ġ
chu2Ġ leĠ
jian4Ġ dui4Ġ
chu i2Ġ
ju an1Ġ
jin4Ġ gong1Ġ
Ġ shu4Ġ
ĠĠĠ you2Ġyu2Ġ
xiong1Ġ di4Ġ
da4Ġ lou2Ġ
mi ao3Ġ
zhi4Ġ jin1Ġ
sheng3Ġ deĠyi2Ġge4Ġshi4Ġzhen4Ġ
Ġs ong4Ġ
Ġtong1Ġ guo4Ġ
ying1Ġ chi3Ġ
V Ġ
jia1Ġ po1Ġ
yi3Ġ shang4Ġ
Ġ1 0
Ġch ao2Ġ
shi2Ġ xian4Ġ
da4Ġ chen2Ġ
suo3Ġ shu3ĠdeĠ
ban4Ġ dao3Ġ
Ġd i2Ġ
dian4Ġ ziĠ
lv3Ġ you2Ġ
Ġ yong3Ġ
tian1Ġ zhu3Ġjiao4Ġ
zhen4Ġ qu1Ġ
ĠĠĠ ta1Ġ
li3Ġ shi4Ġ
Ġdi4Ġ yi1Ġ
m ian2Ġ
shu4Ġ deĠ
wang2Ġ chao2Ġ
B Ġ
xu e1Ġ
yan2Ġjiu1Ġ suo3Ġ
fo2Ġ jiao4Ġ
zui4Ġ chu1Ġ
di4Ġer4Ġ ci4Ġ
f ei3Ġ
4 0
ming2Ġ dan1Ġ
N S
ji1Ġ deĠ
Ġ 6Ġ
zi ĠdeĠ
chu1Ġ qi1Ġ
fen4Ġ zi3Ġ
shan1Ġ dong1Ġ
jia4Ġ zhi2Ġ
sheng1Ġ yu2Ġ
Ġ201 1Ġnian2Ġ
Ġji ng4Ġ
he2Ġ xin1Ġ
Ġs a4Ġ
chang2Ġ qi1Ġ
jin4Ġ deĠ
o c
zh ou2Ġ
ji4Ġ zai3Ġ
yi2Ġ bu4Ġ
chan3Ġ ye4Ġ
guo2Ġmin2Ġ dang3Ġ
Ġ min2Ġ
er3Ġ deĠ
he2Ġ ping2Ġ
Ġji ang3Ġ
wo 1Ġ
di4Ġyi1Ġ ci4Ġ
ji1Ġ che1Ġ
yun4Ġ xing2Ġ
wen2Ġwu4Ġ bao3Ġhu4Ġ
ĠĠĠ W
shu ai1Ġ
ji4Ġ zhe3Ġ
ke4Ġ deĠ
jing1Ġ chang2Ġ
chu ang1Ġ
gan3Ġ ran3Ġ
huang2Ġ di4Ġ
hu an3Ġ
an dĠĠĠ
shi4Ġ zhong1Ġ
zui4Ġ zao3Ġ
chang4Ġ pian4Ġ
qi4Ġ hou4Ġ
mi4Ġ shu1Ġ
de2Ġ li3Ġ
wan4Ġ ren2Ġ
xing1Ġ qi1Ġ
fang1Ġ deĠ
yin3Ġ qi3Ġ
gu a1Ġ
da4Ġ xing2Ġ
Ġji ao1Ġ
bei4Ġ ren4Ġwei2Ġ
qu3Ġ xiao1Ġ
Ġ pei4Ġ
Ġ ni2Ġ
xuan3Ġ qu1Ġ
duo1Ġ ge4Ġ
chong1Ġ tu1Ġ
xi1Ġ yang2Ġ
ji1Ġ di4Ġ
wei2Ġ chi2Ġ
shou1Ġ ru4Ġ
ĠĠĠ19 7
jing1Ġ shen2Ġ
Ġ wu1Ġ
d ao1Ġ
Ġ fa3Ġguo2Ġ
da4Ġ shi3Ġ
jia1Ġ deĠ
chu1Ġ ren4Ġ
bo1Ġ lan2Ġ
wei4Ġ neng2Ġ
Ġch u3Ġ
guo4Ġ qu4Ġ
tong3Ġ yi1Ġ
t ong4Ġ
shi4Ġjie4Ġ da4Ġzhan4Ġ
bo2Ġ te4Ġ
Ġshi4Ġ yi2Ġge4Ġ
kuai4Ġ su4Ġ
san1Ġ shi2Ġ
xiao3Ġ zu3Ġ
ĠĠĠ19 5
p an1Ġ
shao4Ġ nian2Ġ
li4Ġ liang4Ġ
Ġb rĠ
xian4Ġ deĠyi2Ġge4Ġ
wei2Ġ ya4Ġ
Ġzh eng3Ġ
Ġc i2Ġ
he2Ġ wu4Ġ
deĠyi1Ġ zhong3Ġ
ji1Ġ guan1Ġ
zhi4Ġ 202
qi2Ġ yu2Ġ
ke3Ġ da2Ġ
gu a4Ġ
shi4Ġ yan3Ġ
pi1Ġ zhun3Ġ
xi1Ġ sheng3Ġ
i s
Ġ mei2Ġyou3Ġ
di4Ġ wu3Ġ
wen2Ġwu4Ġbao3Ġhu4Ġ dan1Ġwei4Ġ
xiao3Ġ xue2Ġ
yang4Ġ deĠ
sai1Ġ er3Ġ
yu3Ġ deĠ
se4Ġ lie4Ġ
zhi1Ġ xian4Ġ
2 6
Ġshi4Ġ jie4Ġ
jiao1Ġ yi4Ġ
si1Ġ ke4Ġ
cheng2Ġ du4Ġ
da4Ġ yue1Ġ
shi3Ġ deĠ
w a1Ġ
zheng4Ġ ming2Ġ
2 9
zhu4Ġ ming2Ġ
tong2Ġ yi4Ġ
Ġ201 0Ġnian2Ġ
deĠ bu4Ġ
tie3Ġ dao4Ġ
Ġ U
zheng4Ġ zai4Ġ
fang3Ġ wen4Ġ
ao4Ġlin2Ġpi3Ġke4Ġ yun4Ġdong4Ġhui4Ġ
t uo2Ġ
tai4Ġping2Ġ yang2Ġ
ĠĠĠ E
bao3Ġ liu2Ġ
tu2Ġ shu1Ġ
shou1Ġ lu4Ġ
ti e1Ġ
shang4Ġ shi4Ġ
Ġ200 9Ġnian2Ġ
h eng1Ġ
dai4Ġ deĠ
fan3Ġ hui2Ġ
zheng3Ġ ge4Ġ
Ġyi4Ġ ban1Ġ
Ġd ong4Ġ
yun3Ġ xu3Ġ
Ġ kai1Ġshi3Ġ
wu3Ġ zhuang1Ġ
ĠĠĠ shi4Ġ
ji1Ġ yu2Ġ
shuo1Ġ fa3Ġ
Ġ luo4Ġ
he2Ġ deĠ
zhun3Ġ bei4Ġ
Ġch ao1Ġ
zhu4Ġ zuo4Ġ
qi1Ġ zi3Ġ
i g
Ġd u2Ġ
tian1Ġ jin1Ġ
nian2Ġ qing1Ġ
yi1Ġ si1Ġ
zhi1Ġ shi2Ġ
Ġ an4Ġ
zong3Ġ li3Ġ
Ġte4Ġ bie2Ġ
zhe4Ġ jiang1Ġ
wei4Ġ deĠ
you3Ġ xiao4Ġ
jun1Ġ deĠ
Ġbu4Ġ fen4Ġ
qiao2Ġ zhi4Ġ
qian2Ġ deĠ
huang2Ġ jia1Ġ
yue4Ġ nan2Ġ
fu2Ġ jian4Ġ
zhang3Ġ deĠ
ren2Ġ he2Ġ
bao4Ġ dao4Ġ
Ġshi4Ġ zhen4Ġ
8 0Ġ
shi4Ġ yi3Ġ
li4Ġ si1Ġ
zuo4Ġ biao1Ġ
se4Ġ deĠ
yi4Ġ zhi4Ġ
qiu2Ġ chang3Ġ
Ġ chuang4Ġ
Ġ lan2Ġ
tiao2Ġ yue1Ġ
bi an3Ġ
jian4Ġ zhi4Ġ
lie4Ġ wei4Ġ
guo2Ġ nei4Ġ
Ġdui4Ġ yu2Ġ
yao1Ġ qing3Ġ
t ang1Ġ
w Ġ
qi3Ġ lai2Ġ
mi3Ġ er3Ġ
ti ao4Ġ
xing2Ġzheng4Ġqu1Ġ hua4Ġ
ji2Ġ wei4Ġ
wei3Ġ hui4Ġ
zhong4Ġyao4Ġ deĠ
Ġzh uan3Ġ
a g
ren2Ġ shu4Ġ
tou2Ġ ru4Ġ
shi3Ġyong4Ġ deĠ
hao3Ġ deĠ
jian4Ġ cheng2Ġ
lin2Ġ shi2Ġ
3 2Ġ
Ġ guang1Ġ
ĠĠĠ19 6
ru2Ġ xia4Ġ
yu2Ġ19 8
zhi4Ġ 201
huo4Ġde2Ġ leĠ
hao4Ġ xian4Ġ
ĠĠĠ N
Ġbing4Ġ yu2Ġ
wang2Ġ guo2Ġ
a v
ge4Ġ di4Ġ
shan1Ġ mai4Ġ
da4Ġ dao4Ġ
cheng2Ġ xian4Ġ
er3Ġ te4Ġ
Ġh ao2Ġ
zheng4Ġ dang3Ġ
biao3Ġ da2Ġ
Ġchu2Ġ leĠ
si4Ġ chuan1Ġ
gong1Ġ fen1Ġ
gao1Ġ ji2Ġ
gu ai4Ġ
ru4Ġ qin1Ġ
Ġ xiang3Ġ
o p
Ġ guo2Ġjia1Ġ
20 0Ġ
jian3Ġ cha2Ġ
chu1Ġ shen1Ġ
jiao4Ġ hui4Ġ
zhu3Ġ yan3Ġ
deĠ zhu3Ġyao4Ġ
ji1Ġ hu1Ġ
tao3Ġ lun4Ġ
shang4Ġ ying4Ġ
ke4Ġ cheng2Ġ
er3Ġ qi2Ġ
jian1Ġ deĠ
ĠĠĠ che1Ġzhan4Ġ
guan1Ġ zhong4Ġ
zhan4Ġ shi4Ġ
ren2Ġmin2Ġ zheng4Ġfu3Ġ
xiao1Ġ shou4Ġ
cheng2Ġ ren4Ġ
ĠĠĠ theĠĠĠ
xia4Ġ ling4Ġ
yi2Ġ zhi4Ġ
R Ġ
ni2Ġ si1Ġ
shi2Ġ fen1Ġ
Ġh an
zi4Ġ xing2Ġ
Ġyou2Ġ xi4Ġ
lai2Ġ shuo1Ġ
xian4Ġ xiang4Ġ
xi1Ġ ge1Ġ
ch ai2Ġ
deĠ gong1Ġ
chu1Ġ leĠ
pu2Ġ tao2Ġ
wen2Ġ zhang1Ġ
hai3Ġ an4Ġ
00Ġ mi3Ġ
wei2Ġ qi2Ġ
l Ġ
Ġ long2Ġ
he2Ġ lan2Ġ
la1Ġ ke4Ġ
zao3Ġ nian2Ġ
Ġji a4Ġ
ĠĠĠ202 1Ġnian2Ġ
ch i1Ġ
wei4Ġ fa3Ġguo2Ġ
yi3Ġ hou4Ġ
ĠĠĠ xing2Ġzheng4Ġ
fa1Ġ dian4Ġ
bu4Ġ duan4Ġ
tong2Ġ yi1Ġ
que4Ġ ding4Ġ
bing4Ġ du2Ġ
Ġti ao2Ġ
ao4Ġ men2Ġ
Ġ V
deĠ ying3Ġxiang3Ġ
ĠĠĠ yu2Ġ
yuan2Ġ su4Ġ
Ġd a3Ġ
an1Ġ na4Ġ
jiu4Ġ shi4Ġzhen4Ġ
Ġk ang1Ġ
xian1Ġ hou4Ġ
Ġxia4Ġ ling4Ġ
ch an2Ġ
hai2Ġ shi4Ġ
sheng4Ġ li4Ġ
gao1Ġ deng3Ġ
yong4Ġ deĠ
1Ġ ĠĠ
Ġceng2Ġ ren4Ġ
dian4Ġ tai2Ġ
deng1Ġ lu4Ġ
Ġyou4Ġ cheng1Ġ
k a1Ġ
yi4Ġ shi4Ġ
yi4Ġ shi2Ġ
ĠĠĠ 2019Ġnian2Ġ
guo2Ġ hui4Ġ
guo4Ġcheng2Ġ zhong1Ġ
Ġ qian1Ġ
ĠĠĠ19 3
ren2Ġ gong1Ġ
o v
li u3Ġ
ke1Ġ deĠ
zuo4Ġ deĠ
cai2Ġ zheng4Ġ
shou3Ġ du1Ġ
zhi2Ġ min2Ġ
tian1Ġ wen2Ġ
zhi1Ġ yuan2Ġ
xian4Ġ shi2Ġ
Ġt ui1Ġ
zhong1Ġ wen2Ġ
bu4Ġ shao3Ġ
wen3Ġ ding4Ġ
gao1Ġ deĠ
xin4Ġ hao4Ġ
bu4Ġ zu2Ġ
you2Ġ tai4Ġ
ti3Ġ xi4Ġ
Ġt u3Ġ
bing4Ġ wei4Ġ
bu4Ġ ming2Ġ
zhou1Ġ bian1Ġ
guo2Ġ fang2Ġ
hou4Ġ xuan3Ġ
jin4Ġxing2Ġ leĠ
jie3Ġfang4Ġ jun1Ġ
zai4Ġ ci3Ġ
Ġwei4Ġyu2Ġ fa3Ġguo2Ġ
gai3Ġ bian1Ġ
Ġ ping2Ġfang1Ġgong1Ġli3Ġ
o s
M Ġ
deĠshi2Ġ hou4Ġ
shi4Ġ fou3Ġ
ĠĠĠ 2020Ġnian2Ġ
n u2Ġ
min2Ġ zhong4Ġ
te4Ġ shu1Ġ
shi4Ġ li4Ġ
liang4Ġ deĠ
mo2Ġ xing2Ġ
yang3Ġ hua4Ġ
he2Ġ liu2Ġ
ti ao3Ġ
si1Ġ xiang3Ġ
wen2Ġ jian4Ġ
pu3Ġ tong1Ġ
an1Ġ pai2Ġ
ren2Ġkou3Ġshu4Ġliang4Ġ wei4Ġren2Ġ
de2Ġ yi3Ġ
Ġb ai3Ġ
Ġc ai3Ġ
Ġh u4Ġ
wai4Ġ deĠ
lei4Ġ xing2Ġ
zh a2Ġ
xiang1Ġ si4Ġ
jie3Ġ shi4Ġ
shen1Ġ qing3Ġ
ting2Ġ zhi3Ġ
jie1Ġrang3Ġ deĠshi4Ġzhen4Ġ
li ao3Ġ
ĠI NS
dui4Ġ shou3Ġ
Ġxian4Ġ zai4Ġ
xian4Ġ fa3Ġ
tiao2Ġ zheng3Ġ
ĠĠĠ201 8Ġnian2Ġ
chao1Ġ ji2Ġ
6 0
Ġ shi3Ġyong4Ġ
20 Ġshi4Ġji4Ġ
Ġh e4Ġ
zi4Ġ dong4Ġ
k u3Ġ
zheng4Ġ bian1Ġma3Ġwei4Ġ
zhen1Ġ dui4Ġ
cong2Ġ shi4Ġ
guang3Ġ gao4Ġ
xiao4Ġ zhang3Ġ
p u4Ġ
Ġ che1Ġzhan4Ġ
sh a4Ġ
ke3Ġneng2Ġ shi4Ġ
chu1Ġsheng1Ġ yu2Ġ
3 7
ru4Ġ kou3Ġ
zhong4Ġ dian3Ġ
xiao1Ġ xi1Ġ
dou1Ġ you3Ġ
chu an4Ġ
heng2Ġ xing1Ġ
Ġ xu3Ġduo1Ġ
deĠ fu4Ġ
guo2Ġ li4Ġ
ying1Ġ wen2Ġ
yi2Ġ dong4Ġ
lian2Ġ xi4Ġ
jin4Ġ yi2Ġbu4Ġ
Ġp i2Ġ
chu4Ġ deĠ
shao3Ġ shu4Ġ
mei3Ġ ping2Ġfang1Ġgong1Ġli3Ġ
Ġ201 3Ġnian2Ġ
ĠINS EE
mu3Ġ si1Ġ
Ġming2Ġ chao2Ġ
min2Ġzhu3Ġ dang3Ġ
dan4Ġ bai2Ġ
yin1Ġ su4Ġ
ying1Ġ yu3Ġ
deĠdi4Ġ fang1Ġ
gong1Ġ chang3Ġ
ri4Ġ jun1Ġ
yi2Ġ min2Ġ
ma3Ġ li4Ġ
feng1Ġ bao4Ġ
8Ġ ren2Ġ
gan3Ġ dao4Ġ
3 5
zi4Ġzhi4Ġ qu1Ġ
zhuang4Ġ kuang4Ġ
ming2Ġ xian3Ġ
li4Ġshi3Ġ shang4Ġ
zhan4Ġ deĠ
Ġb an4Ġ
gong4Ġyou3Ġ ren2Ġkou3Ġ
cai2Ġ liao4Ġ
Ġ 2019Ġnian2Ġ
Ġzong3Ġ mian4Ġji1Ġ
nian2Ġ du4Ġ
biao3Ġ ming2Ġ
m eng3Ġ
o g
ĠĠĠ c
jie1Ġ jin4Ġ
ba1Ġ nian2Ġ
Ġh en3Ġ
Ġ fa1Ġ
cheng2Ġ xu4Ġ
Ġyu2Ġ 201
Ġ200 8Ġnian2Ġ
dian4Ġ nao3Ġ
sheng1Ġ deĠ
yi2Ġ chan3Ġ
fa3Ġ lan2Ġ
chong2Ġ jian4Ġ
hu ang1Ġ
xue2Ġ shu4Ġ
ru4Ġ xuan3Ġ
ĠĠĠ yi1Ġ
Ġcheng2Ġ qu1Ġ
kao3Ġ lv4Ġ
e sĠ
Ġ fan4Ġ
pin3Ġ pai2Ġ
shou4Ġ shang1Ġ
yuan2Ġ ben3Ġ
a p
gong1Ġ min2Ġ
zhi1Ġ dao4Ġ
yi2Ġ zhi3Ġ
yi2Ġ ding4Ġ
6Ġ ren2Ġ
li3Ġ ya4Ġ
bian4Ġ cheng2Ġ
d u3Ġ
ren2Ġkou3Ġmi4Ġdu4Ġ wei4Ġmei3Ġ
Ġshi4Ġzhen4Ġ bian1Ġma3Ġwei4Ġ
ĠINSEE Ġshi4Ġzhen4Ġbian1Ġma3Ġwei4Ġ
Ġren2Ġkou3Ġmi4Ġdu4Ġ mei3Ġping2Ġfang1Ġgong1Ġli3Ġ
Ġ xiu1Ġ
jiu4Ġ du2Ġ
ling4Ġ yi1Ġ
Ġcong2Ġ er2Ġ
Ġ wan4Ġ
ãĢ İ
ping2Ġfang1Ġ mi3Ġ
ãĢ ı
xuan3Ġ qu1Ġwei4Ġ
Ġxia4Ġling4Ġ shi2Ġ
biao1Ġ zhi4Ġ
2Ġ ĠĠ
ĠĠĠ K
shi2ĠdeĠ ren2Ġkou3Ġshu4Ġliang4Ġwei4Ġren2Ġ
zong3Ġ du1Ġ
ĠĠĠ201 7Ġnian2Ġ
mei3Ġguo2Ġren2Ġkou3Ġpu3Ġcha2Ġ deĠshu4Ġju4Ġ
xiang1Ġ shi4Ġ
xing2Ġ tai4Ġ
Ġer2Ġ ren2Ġkou3Ġmi4Ġdu4Ġwei4Ġmei3Ġ
Ġdang1Ġdi4Ġ gong4Ġyou3Ġren2Ġkou3Ġ
Ġer2Ġren2Ġkou3Ġmi4Ġdu4Ġwei4Ġmei3Ġ ping2Ġfang1Ġqian1Ġmi3Ġ
zai4Ġ mei3Ġguo2Ġ
hu n2Ġ
5Ġ ren2Ġ
shui3Ġ ping2Ġ
wu4Ġ zhi4Ġ
deĠyou2Ġ zheng4Ġbian1Ġma3Ġwei4Ġ
di4Ġ li4Ġ
yue4Ġ tuan2Ġ
yan2Ġ ge2Ġ
Ġhuo4Ġ jiu4Ġshi4Ġzhen4Ġ
Ġgai1Ġ sheng3Ġfen4Ġ
qiang2Ġ diao4Ġ
Ġ201 8Ġnian2Ġ
wei4Ġ xing1Ġ
Ġg uo4Ġ
Ġhai2Ġ you3Ġ
xia4Ġ wu3Ġ
te4Ġ deĠ
sheng3Ġji2Ġ xuan3Ġqu1Ġwei4Ġ
suo3Ġshu3ĠdeĠ sheng3Ġji2Ġxuan3Ġqu1Ġwei4Ġ
an1Ġ zhuang1Ġ
he2Ġ nan2Ġ
Ġ201 6Ġnian2Ġ
ke4Ġ li3Ġ
wen2Ġ ming2Ġ
xun4Ġ su4Ġ
ma3Ġlai2Ġ xi1Ġya4Ġ
bu4Ġ ke3Ġ
jiao1Ġ liu2Ġ
sui2Ġ hou4Ġ
ao4Ġ da4Ġli4Ġya4Ġ
ji4Ġ deĠ
yi2Ġ shi4Ġ
Ġr eng2Ġ
Ġgai1Ġsheng3Ġfen4Ġ wei4Ġfa3Ġguo2Ġ
xian4Ġ ren2Ġ
Ġzhong1Ġ yang1Ġ
7 0Ġ
ĠĠĠ nian2Ġ
shi4Ġ tu2Ġ
dao3Ġ deĠ
200 8Ġnian2Ġ
wei4Ġ yi1Ġ
ba1Ġ xi1Ġ
s a1Ġ
er4Ġ shi4Ġ
ĠĠĠ201 6Ġnian2Ġ
di3Ġ da2Ġ
2 4
f en2Ġ
ai4Ġ er3Ġ
tuan2Ġ dui4Ġ
ju4Ġ ji2Ġ
Ġshang4Ġ hai3Ġ
jin1Ġ shu3Ġ
e dĠĠĠ
ying2Ġ yun4Ġ
que1Ġ fa2Ġ
zhao4Ġ kai1Ġ
an4Ġ jian4Ġ
da4Ġ duo1Ġshu4Ġ
shi4Ġ qu1Ġ
wei1Ġ xie2Ġ
t ai1Ġ
Ġ hua1Ġ
ming4Ġ ling4Ġ
7Ġ ren2Ġ
Ġer2Ġ shi4Ġ
Ġ yin4Ġdu4Ġ
wu4Ġ yuan4Ġ
huan1Ġ ying2Ġ
fang4Ġ qi4Ġ
Ġ yao4Ġ
shang4Ġ shu1Ġ
guan1Ġ cha2Ġ
xu1Ġ qiu2Ġ
Ġt uo1Ġ
yong4Ġ lai2Ġ
jie2Ġ hun1Ġ
ren2Ġ da4Ġ
jian4Ġ kang1Ġ
chu3Ġ yu2Ġ
Ġ201 4Ġnian2Ġ
hai3Ġ yu4Ġ
ling4Ġ wai4Ġ
Ġjie2Ġ guo3Ġ
a b
Ġ lei2Ġ
gui1Ġ ze2Ġ
bian1Ġ hao4Ġ
Ġzhong1Ġ gong4Ġ
chu1Ġ kou3Ġ
Ġ nv3Ġ
bei3Ġ mei3Ġ
zhan4Ġ hou4Ġ
nian2Ġ jian1Ġ
qi3Ġ yong4Ġ
zhi1Ġ ming2Ġ
tong2Ġ yang4Ġ
u b
202 2Ġnian2Ġ
fei1Ġ zhou1Ġ
a d
dao4Ġ da2Ġ
gao1Ġ zhong1Ġ
wu2Ġ ren2Ġ
ping2Ġ mian4Ġ
Ġer2Ġ zai4Ġ
F Ġ
Ġ201 5Ġnian2Ġ
Ġ e2Ġluo2Ġsi1Ġ
r ao3Ġ
ke3Ġneng2Ġ hui4Ġ
ĠĠĠ202 2Ġnian2Ġ
N Ġ
Ġ li2Ġ
a k
peng2Ġ you3Ġ
1Ġ ren2Ġ
yan2Ġ shen1Ġ
shi1Ġ bai4Ġ
Ġ xiao4Ġ
Ġ201 2Ġnian2Ġ
Ġzong3Ġ ren2Ġkou3Ġ
wei4Ġ lai2Ġ
zi4Ġ mu3Ġ
bu4Ġ luo4Ġ
xiang4Ġ deĠ
Ġ10Ġ yue4Ġ
ao4Ġ si1Ġ
pu3Ġ bian4Ġ
O Ġ
di4Ġ yi2Ġge4Ġ
Ġzheng4Ġ shi4Ġ
3 8
Ġ wang3Ġ
Ġ2 1Ġ
yu2Ġ le4Ġ
chu1Ġ zhan4Ġ
chuan2Ġ shuo1Ġ
Ġ xiao1Ġ
Ġ cheng2Ġli4Ġ
xin4Ġ yang3Ġ
xi1Ġ zai4Ġ
shi1Ġ qu4Ġ
zi1Ġ xun4Ġ
a1Ġla1Ġ bo2Ġ
3 6
zhi1Ġ xia4Ġ
yong4Ġ hu4Ġ
zheng4Ġ zhuang4Ġ
Ġshi4Ġ yi1Ġzhong3Ġ
dong4Ġ li4Ġ
Ġyi4Ġ wei4Ġ
ben3Ġ tu3Ġ
ti2Ġ ming2Ġ
Ġ de2Ġguo2Ġ
er3Ġ he2Ġ
zheng4Ġ quan2Ġ
di4Ġ liu4Ġ
mei3Ġ nian2Ġ
ji1Ġ hui4Ġ
nan2Ġ ji2Ġ
4Ġ ren2Ġ
Ġbei3Ġ jing1Ġ
3 3Ġ
ru2Ġ ci3Ġ
deĠ sheng1Ġ
ti2Ġ sheng1Ġ
9Ġ ren2Ġ
deĠyi1Ġ zuo4Ġ
jiao4Ġ qu1Ġ
Ġyi1Ġ xie1Ġ
cheng2Ġ zhen4Ġ
jin1Ġ pai2Ġ
Ġzhu ang1Ġ
ch en4Ġ
fa1Ġ qi3Ġ
Ġs un1Ġ
xi3Ġ huan1Ġ
bing4Ġ mei2Ġyou3Ġ
ji2Ġ he2Ġ
ying1Ġ gai1Ġ
yin3Ġ fa1Ġ
wei1Ġ lian2Ġ
Ġ200 7Ġnian2Ġ
i ng
Ġb a3Ġ
jiao4Ġ lian4Ġ
a u
Ġzh en4Ġ
ĠĠĠ jian3Ġ
guan1Ġ zhu4Ġ
Ġr ong2Ġ
p u1Ġ
yi1Ġ dai4Ġ
jiu3Ġ nian2Ġ
Ġ202 1Ġnian2Ġ
Ġzh ao1Ġ
ka3Ġ er3Ġ
x Ġ
deĠ zhu3Ġ
ĠĠĠ201 4Ġnian2Ġ
zhi4Ġ shao3Ġ
lv4Ġ shi1Ġ
ĠĠĠ201 5Ġnian2Ġ
shi4Ġ yi1Ġzhong3Ġ
Ġ qu1Ġ
Ġ biao3Ġshi4Ġ
xue2Ġ hui4Ġ
zhong1Ġguo2Ġ gong4Ġchan3Ġdang3Ġ
shi2Ġ zi4Ġ
li4Ġ shan1Ġ
qiang2Ġ lie4Ġ
Ġ201 7Ġnian2Ġ
tu2Ġshu1Ġ guan3Ġ
X Ġ
fen1Ġ zhi1Ġ
wei4Ġ sheng1Ġ
ĠĠĠ jie2Ġ
gu n3Ġ
g ong3Ġ
mou3Ġ xie1Ġ
zheng4Ġ deĠ
Ġ guang3Ġ
wan2Ġ zheng3Ġ
shu4Ġ zi4Ġ
Ġs ai1Ġ
Ġdan4Ġ ta1Ġ
lv4Ġ bin1Ġ
zai4Ġ du4Ġ
t uo4Ġ
jie4Ġ quan2Ġguo2Ġ
yun2Ġ nan2Ġ
c un4Ġ
Ġ xing4Ġ
Ġ guo2Ġji4Ġ
2Ġ ren2Ġ
yi1Ġ sheng1Ġ
shu4Ġ wei4Ġ
t ou
Ġ liu4Ġ
pi n4Ġ
geng4Ġ duo1Ġ
yan3Ġchang4Ġ hui4Ġ
zhi4Ġ liang4Ġ
xian4Ġ chang3Ġ
er2Ġ bei4Ġ
Ġzh ong3Ġ
gong4Ġ xian4Ġ
ban4Ġ gong1Ġshi4Ġ
yu2Ġ19 7
Ġp a4Ġ
you3Ġ ren2Ġ
xia4Ġ lai2Ġ
liang3Ġ zhong3Ġ
shi2Ġ yi1Ġ
jie2Ġshu4Ġ hou4Ġ
Ġ200 5Ġnian2Ġ
xin1Ġ jia1Ġpo1Ġ
ling3Ġ tu3Ġ
chuang4Ġ ban4Ġ
wei4Ġ shi4Ġ
ĠĠĠ201 3Ġnian2Ġ
sen1Ġ lin2Ġ
cuo4Ġ shi1Ġ
Ġ Î
tiao3Ġ zhan4Ġ
qu an3Ġ
cao1Ġ zuo4Ġ
Ġjing1Ġ guo4Ġ
lv3Ġ ke4Ġ
yu3Ġ mao2Ġ
qi4Ġ deĠ
hao2Ġ mi3Ġ
he2Ġ yi1Ġ
ji2Ġ bing4Ġ
Ġ 2020Ġnian2Ġ
qi a4Ġ
ya1Ġ li4Ġ
di4Ġ qi1Ġ
zheng4Ġ ju4Ġ
Ġr ui4Ġ
deĠ yan2Ġjiu1Ġ
kan4Ġ dao4Ġ
yuan4Ġ zhang3Ġ
bu4Ġ jiu3Ġ
dui4Ġ wu3Ġ
ĠĠĠ J
da4Ġ xi1Ġyang2Ġ
biao3Ġ mian4Ġ
qi ao3Ġ
o t
zong3Ġ bu4Ġ
hua4Ġ shi2Ġ
e sĠĠĠ
Ġzhi3Ġ you3Ġ
la1Ġ fu1Ġ
ĠĠĠ he2Ġ
Ġ xing1Ġ
ĠĠĠ O
ou1Ġ yuan2Ġ
le Ġta1Ġ
si4Ġ ge4Ġ
fu2Ġ he2Ġ
9 0Ġ
suo3Ġ zai4Ġ
qi4Ġ xiang4Ġ
cun1Ġ zhuang1Ġ
ku ang2Ġ
jiu3Ġ dian4Ġ
Ġ liang2Ġ
jue2Ġ deĠ
can1Ġ kao3Ġ
Ġfu4Ġ ze2Ġ
chu1Ġxian4Ġ zai4Ġ
xun2Ġ hui2Ġ
yuan2Ġ yu2Ġ
Ġt a3Ġ
Ġyou4Ġ ming2Ġ
Ġdai4Ġ biao3Ġ
yi1Ġ tong2Ġ
4Ġ ĠĠ
Ġ cha2Ġ
jiao4Ġ xue2Ġ
jiao4Ġ shi1Ġ
ling3Ġ xiu4Ġ
zi1Ġ jin1Ġ
ju3Ġ xing2ĠdeĠ
xu4Ġ li4Ġya4Ġ
deĠ te4Ġ
ceng2Ġ zai4Ġ
chuan2Ġ bo1Ġ
Ġ 8Ġyue4Ġ
Ġ nv3Ġxing4Ġ
shang4Ġ you3Ġ
yao4Ġ wu4Ġ
yi3Ġ se4Ġlie4Ġ
shou4Ġ yu3Ġ
gong1Ġ zhong4Ġ
xiao3Ġ deĠ
sui4Ġ dao4Ġ
fa3Ġ an4Ġ
Ġsuo3Ġ you3Ġ
S t
fan1Ġ yi4Ġ
ĠĠĠ202 3Ġnian2Ġ
gou4Ġ mai3Ġ
Â °
bing4Ġ li4Ġ
Ġb an3Ġ
xuan3Ġ wei4Ġ
r un4Ġ
xi4Ġ ju4Ġ
que4Ġ zhen3Ġ
in d
Ġzheng4Ġ fu3Ġ
wei1Ġ er3Ġ
chuang4Ġ li4Ġ
shu4Ġ xue2Ġ
ĠĠĠ qi2Ġ
ï ½
geng1Ġ ming2Ġwei4Ġ
Ġ ren2Ġkou3Ġ
lian2Ġ he2Ġguo2Ġ
jia1Ġ li4Ġ
yu2Ġ19 4
A T
zhi2Ġ dao4Ġ
3 5Ġ
L Ġ
s an3Ġ
Ġti e3Ġ
xiao4Ġ guo3Ġ
Ġsheng1Ġ huo2Ġ
qiu2Ġ hui4Ġ
da2Ġ cheng2Ġ
3 1Ġ
he2Ġ qi2Ġta1Ġ
zhu4Ġ yi4Ġ
wen2Ġ xian4Ġ
shen1Ġ ti3Ġ
k ou4Ġ
zh uo1Ġ
hou4Ġxuan3Ġ ren2Ġ
Ġ200 6Ġnian2Ġ
200 9Ġnian2Ġ
ju3Ġ ren2Ġ
shi4Ġjie4Ġ bei1Ġ
chuang4Ġ zao4Ġ
8 0
3Ġ ren2Ġ
zhi1Ġ zhong1Ġ
shi4Ġ ye4Ġ
mo4Ġ xi1Ġge1Ġ
han2Ġ shu4Ġ
e v
ĠĠĠ zi4Ġ
si1Ġ ren2Ġ
dian3Ġ deĠ
Ġji 3Ġ
er2Ġ yan2Ġ
jie4Ġ shao4Ġ
wang3Ġ lu4Ġ
jiang3Ġ xiang4Ġ
u m
bo1Ġ fang4Ġ
shen2Ġ jing1Ġ
Ġ e2Ġ
ti2Ġ gao1Ġ
Ġl ao3Ġ
yi4Ġ yi4Ġ
bei3Ġ sheng3Ġ
rui4Ġ shi4Ġ
lie4Ġ ru4Ġ
hui2Ġ ying4Ġ
Ġ ni3Ġ
dong1Ġ xi1Ġ
in Ġ
wai4Ġ guo2Ġ
ke4Ġ yun4Ġ
Ġb an1Ġ
deĠ zhong1Ġ
Ġdi4Ġ san1Ġ
am pĠ
k ui4Ġ
Ġ feng2Ġ
shi1Ġ fan4Ġ
she4Ġhui4Ġ zhu3Ġyi4Ġ
Ġ shang1Ġ
yi2Ġ du4Ġ
chang2Ġ shi4Ġ
jin4Ġ zhi3Ġ
ren2Ġmin2Ġ jie3Ġfang4Ġjun1Ġ
shuai4Ġ ling3Ġ
Ġ zuo3Ġ
jie1Ġ chu4Ġ
cai3Ġ qu3Ġ
you3Ġ suo3Ġ
ben3Ġ shen1Ġ
bi3Ġsai4Ġ zhong1Ġ
Ġbing4Ġ jiang1Ġ
jing1Ġ yan4Ġ
si1Ġ ta3Ġ
a ng
Ġ xie4Ġ
ming4Ġ ming2Ġwei4Ġ
Y ou
kang4Ġ yi4Ġ
xing2Ġ xiang4Ġ
hou4Ġ qi1Ġ
ye3Ġ zai4Ġ
l ou4Ġ
bian1Ġ jie4Ġ
qing2Ġ bao4Ġ
3Ġ ĠĠ
bian1Ġ ji2Ġ
hong1Ġ zha4Ġ
202 1Ġnian2Ġ
Ġt ian2Ġ
nan2Ġ zi
nei4Ġ ge2Ġ
Ġ che1Ġ
chu1Ġ lai2Ġ
Ġta1Ġ hai2Ġ
wen2Ġ zi4Ġ
rong2Ġ yi4Ġ
Ġt uan2Ġ
hui4Ġ shi4Ġ
xi1Ġ yin3Ġ
m a1Ġ
he2Ġ shi4Ġ
w eng1Ġ
ch ou1Ġ
jia1Ġ ren2Ġ
zhu4Ġ ming2ĠdeĠ
qi2Ġyu2Ġ gang1Ġ
shi2Ġ you2Ġ
yin3Ġ qing2Ġ
que4Ġ ren4Ġ
gong1Ġ zhu3Ġ
Ġji e3Ġ
jing4Ġ zheng1Ġ
bi4Ġ mian3Ġ
y e1Ġ
Ġ lai2Ġzi4Ġ
Ġ 00Ġ
ju2Ġ zhang3Ġ
3 9
de ĠĠĠ
Ġzh eng1Ġ
ji1Ġ xie4Ġ
huo4Ġ zhe3Ġ
zhong1Ġ shi4Ġ
xi1Ġ fang1Ġ
mian4Ġ dui4Ġ
jin1Ġ rong2Ġ
Ġta1Ġmen ĠdeĠ
you3Ġ shi2Ġ
gao1Ġ yu2Ġ
bao4Ġ dao3Ġ
shou1Ġ gou4Ġ
zeng1Ġ zhang3Ġ
ha1Ġ er3Ġ
Ġ mu3Ġ
Ġa1Ġ er3Ġ
201 6Ġnian2Ġ
wei3Ġ shu1Ġji4Ġ
Ġliang3Ġ ren2Ġ
Ġti3Ġ zhang3Ġ
fu4Ġ za2Ġ
lu4Ġdi4Ġ mian4Ġji1Ġwei4Ġ
shui3Ġyu4Ġ mian4Ġji1Ġwei4Ġ
lie4Ġ biao3Ġ
fu2Ġ qi2Ġyu2Ġgang1Ġ
gong1Ġ hui4Ġ
zhuang1Ġ jia3Ġ
he2Ġ yue1Ġ
Ġt ao2Ġ
ru2Ġ he2Ġ
xiong1Ġ ya2Ġ
7 0
ye3Ġ bei4Ġ
hai3Ġ dao4Ġ
rong2Ġ yu4Ġ
mi4Ġ mi4Ġ
Ġ dian4Ġying3Ġ
quan2Ġ mian4Ġ
fan4Ġ zui4Ġ
Ġh uo3Ġ
xi ng3Ġ
wan3Ġ shang4Ġ
zuo4Ġbiao1Ġ wei4Ġ
p h
uo2Ġ wei1Ġ
na4Ġ li3Ġ
k u1Ġ
li4Ġ ji2Ġ
ju an4Ġ
gu3Ġ fen4Ġ
zh ai1Ġ
wu3Ġ tai2Ġ
bai2Ġ se4Ġ
sun3Ġ shi1Ġ
s ang4Ġ
guang3Ġdong1Ġ sheng3Ġ
Ġ 9Ġyue4Ġ
geng4Ġ jia1Ġ
ban4Ġ shi4Ġ
ï½ ŀ
zhong1Ġ shan1Ġ
Ġbu4Ġ jiu3Ġ
ĠĠĠ da4Ġ
ĠĠĠ201 2Ġnian2Ġ
mei3Ġ shu4Ġ
da3Ġ ji1Ġ
U Ġ
Ġ 0Ġ
yi4Ġ ren2Ġ
Ġ202 2Ġnian2Ġ
Ġ yao1Ġqiu2Ġ
Ġ ampĠ
guan1Ġ bi4Ġ
bu4Ġ he2Ġ
ying1Ġ xiong2Ġ
bao4Ġ zha4Ġ
cha1Ġ yi4Ġ
4 8
m a
Ġ yan3Ġ
xiu1Ġ gai3Ġ
Ġk ai3Ġ
piao4Ġ fang2Ġ
ĠĠĠ yuan2Ġ
Ġdang1Ġzhong1Ġ lu4Ġdi4Ġmian4Ġji1Ġwei4Ġ
Ġer2Ġ shui3Ġyu4Ġmian4Ġji1Ġwei4Ġ
bu4Ġ de2Ġ
jiu3Ġ long2Ġ
Ġ hui2Ġ
Ġ 7Ġyue4Ġ
m ao1Ġ
tong1Ġ che1Ġ
yu2Ġ19 5
gou4Ġ cheng2Ġ
Ġ ou1Ġ
yu2Ġ19 6
Ġ18 9
Ġ fang2Ġ
fa1Ġ shou4Ġ
hai3Ġ yang2Ġ
bi4Ġye4Ġ yu2Ġ
ĠĠĠ gai4Ġ
di4Ġ zhen4Ġ
ou n
yi1Ġ xue2Ġ
tui1Ġ dong4Ġ
Ġzhong1Ġhua2Ġ min2Ġguo2Ġ
zhuan1Ġ jia1Ġ
ã ĥ
mian3Ġ dian1Ġ
ĠT heĠĠĠ
shuo4Ġ shi4Ġ
jie2Ġ ke4Ġ
yue1Ġ wei4Ġ
bian4Ġ de2Ġ
guo2Ġjia1Ġ dui4Ġ
sa4Ġ ke4Ġ
an4Ġ deĠ
Ġshi3Ġ deĠ
ĠĠĠ bu4Ġ
200 7Ġnian2Ġ
Ġ wei3Ġ
ji1Ġ ji2Ġ
lai2Ġ dao4Ġ
shi2Ġ san1Ġ
xin1Ġ li3Ġ
10 0
zui4Ġhou4Ġ yi1Ġ
xing4Ġ zhi4Ġ
jiang4Ġ di1Ġ
fa1Ġ chu1Ġ
yi1Ġsi1Ġ lan2Ġ
dian4Ġ li4Ġ
Ġqi2Ġ yu2Ġ
jian3Ġ dan1Ġ
r u
zhong1Ġ you3Ġ
Ġ1 2Ġyue4Ġ
qing3Ġ qiu2Ġ
Ġ meng2Ġ
sheng4Ġ dun4Ġ
g ou3Ġ
jiang1Ġ su1Ġ
Ġyin1Ġ er2Ġ
gu4Ġ wen4Ġ
ĠĠĠ xing2Ġzheng4Ġqu1Ġhua4Ġ
en Ġ
ju4Ġ feng1Ġ
dao3Ġ yu3Ġ
Ġk u4Ġ
Ġta1Ġ bei4Ġ
Ġjin4Ġ xing2Ġ
zhe4Ġ ge
r ou2Ġ
Ġ1 1Ġyue4Ġ
huo4Ġ shi4Ġ
ru2Ġ guo3Ġ
jun1Ġ zai4Ġ
zhi3Ġ neng2Ġ
she4Ġ ji2Ġ
n u4Ġ
Ġg an1Ġ
gai3Ġ zao4Ġ
chang3Ġ deĠ
bi3Ġ de2Ġ
hai2Ġ ziĠ
zhu3Ġ zhang1Ġ
ban4Ġ gong1Ġ
jiao4Ġ wei2Ġ
du4Ġ deĠ
yuan2Ġ xing2Ġ
qian1Ġ shu3Ġ
si1Ġ fa3Ġ
a i
gui4Ġ zu2Ġ
shuo1Ġ ming2Ġ
Ġ ling2Ġ
can1Ġ mou2Ġ
gong1Ġsi1Ġ deĠ
p en1Ġ
19 2
shi4Ġ shi2Ġ
Ġs i3Ġ
sheng1Ġ ming4Ġ
mei3Ġ ge4Ġ
Ġhao2Ġ mi3Ġ
Ġ min2Ġguo2Ġ
Ġ chuan2Ġ
wu4Ġ deĠ
Ġti3Ġzhang3Ġ ke3Ġda2Ġ
Ġ wo4Ġ
hun4Ġ he2Ġ
Ġcan1Ġ jia1Ġ
ti c
nan2Ġ bei3Ġ
yong4Ġ tu2Ġ
dai4Ġbiao3Ġ da4Ġhui4Ġ
Ġ formulaĠ
lun4Ġ wen2Ġ
tu3Ġ er3Ġqi2Ġ
Ġshi4Ġ mei3Ġguo2Ġ
dang1Ġ ju2Ġ
bing4Ġ fei1Ġ
duo1Ġ zhong3Ġ
hai3Ġ xia2Ġ
gao1Ġsu4Ġ gong1Ġlu4Ġ
ĠĠĠ li4Ġ
xi1Ġ deĠ
sheng3Ġ he2Ġ
Ġbing4Ġ yi3Ġ
ao4Ġyun4Ġ hui4Ġ
wei2Ġ zhi3Ġ
zhu4Ġ zhai2Ġ
shi4Ġ hui4Ġ
shi4Ġ bing1Ġ
ji2Ġ shi2Ġ
ju4Ġ qing2Ġ
fen1Ġ pei4Ġ
yi4Ġ jian4Ġ
wei2Ġ si1Ġ
zu3Ġ cheng2ĠdeĠ
man3Ġ zu2Ġ
hai3Ġ wai4Ġ
gu1Ġ ji4Ġ
Ġ lv4Ġ
Ġzh an3Ġ
r an
ĠĠĠ cong2Ġ
zheng4Ġ chang2Ġ
xiong1Ġya2Ġ li4Ġ
wei4Ġ shi2Ġ
ren4Ġ zhi2Ġ
w a2Ġ
gong1Ġ ren2Ġ
dian4Ġ che1Ġ
li an3Ġ
xia4Ġ jiang4Ġ
kuo4Ġ da4Ġ
2 6Ġ
Ġ wa3Ġ
feng1Ġ xian3Ġ
Ġ 30Ġ
yi1Ġ zuo4Ġ
hong2Ġ se4Ġ
Ġ kuan1Ġ
Ġta1Ġ ye3Ġ
zu3Ġ jian4Ġ
gai3Ġ shan4Ġ
xia4Ġji4Ġ ao4Ġlin2Ġpi3Ġke4Ġyun4Ġdong4Ġhui4Ġ
ce4Ġ liang2Ġ
Ġju4Ġ li2Ġ
shi4Ġ gu4Ġ
19 1
lu an3Ġ
tou2Ġ xiang2Ġ
er ĠĠĠ
sheng1Ġ ming2Ġ
ji3Ġ ge4Ġ
Ġ qiao2Ġ
dui4Ġ xiang4Ġ
yu4Ġ shi3Ġ
ze2Ġ ren4Ġ
a li
200 6Ġnian2Ġ
Ġk ao3Ġ
fu4Ġjin4Ġ deĠ
h i
zhi1Ġ fu4Ġ
chu1Ġ xi2Ġ
201 2Ġnian2Ġ
ku ang1Ġ
shi2Ġqi1Ġ deĠ
4 5Ġ
shi4Ġ min2Ġ
zhi2Ġ wei4Ġ
Ġch i4Ġ
q u2Ġ
Ġ mao2Ġ
yi4Ġ qing2Ġ
da4Ġ gui1Ġmo2Ġ
ĠĠĠ202 4Ġnian2Ġ
liao3Ġ jie3Ġ
c eĠ
la1Ġ ding1Ġ
ai4Ġer3Ġ lan2Ġ
4 8Ġ
sui2Ġ zhu4Ġ
che4Ġ xiao1Ġ
2 8Ġ
zai4Ġ yu2Ġ
kai1Ġ tong1Ġ
bing4Ġ ru4Ġ
zhang4Ġ ai4Ġ
xing4Ġ qu4Ġ
dao3Ġ dan4Ġ
ind ow
3Ġ ge4Ġ
chu1Ġ dao4Ġ
Ġbei3Ġ qi3Ġ
lv3Ġ xing2Ġ
deĠ li4Ġ
hun1Ġ yin1Ġ
zheng4Ġ shi2Ġ
fu1Ġ ren2Ġ
zhuang1Ġ bei4Ġ
s eng1Ġ
san1Ġ jiao3Ġ
bu4Ġ man3Ġ
Ġta1Ġ yu3Ġ
Ġhan sĠ
er2Ġ cheng2Ġ
Ġ jue2Ġ
Ġt wĠ
xing4Ġ bie2Ġ
ĠĠĠ xi1Ġ
yong4Ġ zuo4Ġ
zu i3Ġ
ĠĠĠ you3Ġ
1 1
tong2Ġ meng2Ġ
Ġ fang1Ġ
zh ui4Ġ
Ġb u2Ġ
Ġ 6Ġyue4Ġ
zhong3Ġ zu2Ġ
jun1Ġ zhu3Ġ
ye3Ġ hui4Ġ
Ġye3Ġ you3Ġ
al Ġ
Ġjin4Ġ ru4Ġ
min2Ġ jian1Ġ
jing1Ġ li3Ġ
pei4Ġ yin1Ġ
yi1Ġ tiao2Ġ
er3Ġ man4Ġ
zhuang1Ġ zhi4Ġ
d uo3Ġ
yi4Ġ bai3Ġ
wan4Ġ yuan2Ġ
4Ġ ge4Ġ
shi4Ġ wei1Ġ
200 0Ġnian2Ġ
wen1Ġ du4Ġ
ao4Ġ di4Ġli4Ġ
de2Ġ deĠ
lu4Ġ yi4Ġ
Ġzhi2Ġ zhi4Ġ
ï¼ ı
Ġ qi1Ġjian1Ġ
ding4Ġ ju1Ġ
si1Ġ lin2Ġ
zhao3Ġ dao4Ġ
ĠĠĠ wei4Ġ
yi1Ġ ji2Ġ
ni ang2Ġ
Ġfu4Ġ qin1Ġ
duo2Ġ deĠ
gong4Ġ he2Ġ
gong1Ġ ju4Ġ
qiu2Ġ ji4Ġ
Ġ hua4Ġ
shu a1Ġ
pai2Ġ hang2Ġ
shang4Ġ wu3Ġ
po 2Ġ
zhan4Ġ tai2Ġ
Ġ 5Ġyue4Ġ
ĠĠĠ deĠshi2Ġqu1Ġwei4Ġ
ĠĠĠ deĠyou2Ġzheng4Ġbian1Ġma3Ġwei4Ġ
ĠĠĠ suo3Ġshu3ĠdeĠsheng3Ġji2Ġxuan3Ġqu1Ġwei4Ġ
ĠĠĠyu2Ġ shi2ĠdeĠren2Ġkou3Ġshu4Ġliang4Ġwei4Ġren2Ġ
ming2Ġ yi4Ġ
tui4Ġ xiu1Ġ
yuan2Ġ gong1Ġ
ĠĠĠyu3Ġ jie1Ġrang3ĠdeĠshi4Ġzhen4Ġ
2 7Ġ
Ġ Ñ
te4Ġ se4Ġ
1Ġyue4Ġ 1Ġri4Ġ
Ġg ang3Ġ
liang3Ġ ren2Ġ
Ġjia1Ġ shang4Ġ
tan2Ġ pan4Ġ
zhi1Ġ deĠ
Ġh ang2Ġ
zai4Ġ qi2Ġ
ĠĠĠ xin1Ġ
200 5Ġnian2Ġ
Ġci3Ġ shi2Ġ
qi2Ġ bing1Ġ
gou4Ġ zao4Ġ
e g
zheng4Ġ xie2Ġ
zhou1Ġ wei2Ġ
Ġzai4Ġ ci3Ġ
ce4Ġ deĠ
yu an1Ġ
zhi4Ġ yu2Ġ
dong4Ġ zuo4Ġ
w ang1Ġ
de r
zhan4Ġ lve4Ġ
men ĠdeĠ
9 0
c ong1Ġ
you3Ġ yi2Ġge4Ġ
nei4Ġ lu4Ġ
dou1Ġ hui4Ġ
zhe2Ġ xue2Ġ
Ġ qi4Ġ
Ġti2Ġ gong1Ġ
you2Ġ ji1Ġ
jie3Ġ san4Ġ
you1Ġ xiu4Ġ
Ġqing1Ġ chao2Ġ
he2Ġ cheng2Ġ
Ġyou3Ġ shi2Ġ
kai1Ġ she4Ġ
ma3Ġ la1Ġ
jiang1Ġ hui4Ġ
yuan2Ġ shi4Ġ
202 3Ġnian2Ġ
qing1Ġ chao2Ġ
mo4Ġ si1Ġke1Ġ
jia1Ġ meng2Ġ
fei1Ġ jian4Ġzhi4Ġ
yin3Ġ ru4Ġ
ĠĠĠ201 1Ġnian2Ġ
dao3Ġ shi4Ġ
al ĠĠĠ
tai2Ġ nan2Ġ
u s
di4Ġ dian3Ġ
feng1Ġ fu4Ġ
gu3Ġ dai4Ġ
Ġk ong3Ġ
4 5
Ġ man4Ġ
Ġh kĠ
n e
chu1Ġ yan3Ġ
zhi2Ġ deĠ
yin4Ġ ni2Ġ
nian2Ġ hou4Ġ
bao3Ġ cun2Ġ
ĠĠĠ19 2
pai4Ġ qian3Ġ
K Ġ
Ġp u2Ġ
fa1Ġxian4Ġ leĠ
ji1Ġdu1Ġ jiao4Ġ
zai4Ġ yi1Ġ
ji2Ġ shi4Ġ
zhao4Ġ pian1Ġ
yi3Ġ bei4Ġ
Ġzhe4Ġ ge
da4Ġ sai4Ġ
xun2Ġ zhao3Ġ
t oĠĠĠ
shou3Ġ wei4Ġ
tui1Ġ jin4Ġ
Ġta1Ġceng2Ġ dai4Ġbiao3Ġ
li4Ġ he2Ġ
wang3Ġ qiu2Ġ
jing3Ġ fang1Ġ
ĠĠĠ201 0Ġnian2Ġ
dong1Ġ nan2Ġbu4Ġ
tan3Ġ ke4Ġ
k e2Ġ
Ġ zao4Ġcheng2Ġ
i v
yun4Ġ zuo4Ġ
deng1Ġ shang4Ġ
fei1Ġjian4Ġzhi4Ġ di4Ġqu1Ġ
fang1Ġ yan2Ġ
A S
shi4Ġ yu3Ġ
fu4Ġ mu3Ġ
t ao1Ġ
jun1Ġ qu1Ġ
201 4Ġnian2Ġ
fa3Ġ guan1Ġ
3 4Ġ
Ġdong1Ġ lin2Ġ
chong2Ġ qing4Ġ
ni2Ġya4Ġ zhou1Ġ
xue2Ġ shi4Ġ
ji3Ġ yu3Ġ
en t
f a4Ġ
zhong4Ġ da4Ġ
gao1Ġ xiong2Ġ
ren4Ġming4Ġ wei4Ġ
deĠ zhong4Ġyao4Ġ
ĠĠĠ yi3Ġxia4Ġ
Ġ 4Ġyue4Ġ
Ġc e4Ġ
deĠ hua4Ġ
xi1Ġ lan2Ġ
fu4Ġ gai4Ġ
201 8Ġnian2Ġ
zhou1Ġ fu3Ġ
ban4Ġ yan3Ġ
ling3Ġdao3Ġ ren2Ġ
G Ġ
zui4Ġ duo1Ġ
Ġ nuo4Ġ
lv4Ġ wei4Ġ
xian1Ġ sheng1Ġ
shuang1Ġ fang1Ġ
le Ġta1ĠdeĠ
liang3Ġ ci4Ġ
Ġzhe4Ġ jiang1Ġ
ri4Ġ bao4Ġ
dai4Ġ lai2Ġ
zhi4Ġ wei4Ġ
sheng1Ġ cheng1Ġ
an1Ġ de2Ġ
xi4Ġtong3Ġ deĠ
lao2Ġ dong4Ġ
dong1Ġ bei3Ġbu4Ġ
li3Ġ ke4Ġ
19 Ġ
Ġzh u2Ġ
202 4Ġnian2Ġ
di4Ġ tu2Ġ
Ġdan4Ġ you2Ġyu2Ġ
tong1Ġ dao4Ġ
Ġzui4Ġ chu1Ġ
Ġhuo4Ġ zhe3Ġ
rui4Ġ dian3Ġ
tui4Ġ chu1Ġ
Ġquan2Ġ guo2Ġ
bei4Ġren4Ġwei2Ġ shi4Ġ
yi1Ġ liao2Ġ
wei1Ġ ji1Ġ
shao4Ġ nv3Ġ
ti2Ġ dao4Ġ
Ġxi1Ġ wang4Ġ
ĠĠĠ jia1Ġzu2Ġ
bu4Ġ lu3Ġ
yuan2Ġ zi4Ġ
zi1Ġ chan3Ġ
kuo4Ġ zhan3Ġ
ma3Ġ er3Ġ
tui4Ġ yi4Ġ
shu1Ġ ru4Ġ
t uo3Ġ
2Ġ ge4Ġ
ĠĠĠ b
chang2Ġ du4Ġ
Ġl u3Ġ
you3Ġ yi4Ġ
zhi4Ġ ding4Ġ
200 4Ġnian2Ġ
ĠĠĠ zh
Ġg ang1Ġ
xiang1Ġ hu4Ġ
zhuan1Ġ men2Ġ
he2Ġ pan4Ġ
Ġc ai4Ġ
ke1Ġ fu1Ġ
yi3Ġ qian2Ġ
she4Ġ ying3Ġ
Ġ e4Ġ
jun1Ġ wei4Ġ
zhi3Ġ zai4Ġ
Ġwei4Ġ fu2Ġqi2Ġyu2Ġgang1Ġ
Ġxi1Ġ ban1Ġya2Ġ
yu3Ġmao2Ġ qiu2Ġ
dang1Ġ shi2ĠdeĠ
zhan3Ġ shi4Ġ
Ġbi4Ġ ye4Ġ
deĠ fang1Ġshi4Ġ
Ġshi4Ġ ri4Ġben3Ġ
zi4Ġ shen1Ġ
shou3Ġ deĠ
dui4Ġ zhang3Ġ
xi2Ġ xing4Ġ
cheng2Ġwei2Ġ leĠ
di4Ġ ya4Ġ
ma3Ġ si1Ġ
bo2Ġ lin2Ġ
lan2Ġ qiu2Ġ
Ġjing1Ġ ji4Ġ
Ġhou4Ġ zhe3Ġ
de2Ġ zhi1Ġ
dong1Ġ ji4Ġ
hui2Ġ gui1Ġ
lun2Ġ bi3Ġya4Ġ
t ou1Ġ
cheng2Ġ ben3Ġ
zhi3Ġ kong4Ġ
di4Ġ 1Ġ
ĠĠĠzh Ġ
ji1Ġ zhi4Ġ
dai4Ġbiao3Ġ tuan2Ġ
bu4Ġ bing1Ġ
Ġh eng2Ġ
shi4Ġ ji2Ġ
zhong1Ġ bei4Ġ
gong1Ġ ying4Ġ
nong2Ġ min2Ġ
a y
tai2Ġ feng1Ġ
hou4Ġ zai4Ġ
qi3Ġ yi4Ġ
dan4Ġ shui3Ġ
deĠ xiao3Ġ
sheng1Ġ tai4Ġ
hua1Ġ yuan2Ġ
Ġ lv3Ġ
zuo4Ġ zhe3Ġ
ĠĠĠ V
shi2Ġ ba1Ġ
cai2Ġ neng2Ġ
zhi1Ġ ziĠ
Ġ jian4Ġzhu4Ġ
shi2Ġ xing2Ġ
yi1Ġ jia1Ġ
huo3Ġ jian4Ġ
te4Ġ ding4Ġ
dang1Ġ zhong1Ġ
Ġ18 8
xian4Ġ jin1Ġ
Ġying1Ġ yu3Ġ
e m
ĠĠĠ a1Ġ
ke4Ġ luo2Ġ
mei3Ġ ni2Ġya4Ġ
201 1Ġnian2Ġ
you1Ġ shi4Ġ
Ġ yin2Ġ
deĠ di4Ġqu1Ġ
xi2Ġ wei4Ġ
su1Ġ ge2Ġlan2Ġ
l o
ji1Ġ yin1Ġ
shen1Ġ zhen4Ġ
xiang4Ġ zheng1Ġ
bu4Ġ la1Ġ
zhi2Ġ dao3Ġ
qi3Ġ dong4Ġ
da4Ġ fu2Ġ
5Ġ mi3Ġ
jia4Ġ ge2Ġ
zhi3Ġ dao3Ġ
yi4Ġ fang1Ġmian4Ġ
Ġ200 4Ġnian2Ġ
da4Ġ qiao2Ġ
19 0
guan1Ġ dian3Ġ
chuang4Ġ jian4Ġ
Ġ202 3Ġnian2Ġ
Ġhan2Ġ guo2Ġ
li4Ġ yi4Ġ
zhi1Ġ wei4Ġ
jun1Ġ guan1Ġ
Ġbi3Ġ ru2Ġ
sha1Ġ si3Ġ
xun1Ġ zhang1Ġ
di4Ġ mian4Ġ
zhu4Ġ deĠ
ma3Ġ ke4Ġ
shan3Ġ xi1Ġ
Ġ wu4Ġ
nian2Ġ ling2Ġ
zuo4Ġ qu3Ġ
xiang1Ġguan1Ġ deĠ
da4Ġ jiang3Ġ
biao1Ġ ben3Ġ
or Ġ
pu2Ġtao2Ġ ya2Ġ
Ġ xue2Ġxiao4Ġ
yan2Ġ hai3Ġ
yan2Ġ se4Ġ
tong2Ġ pai2Ġ
Ġ she4Ġhui4Ġ
xing2Ġ mu4Ġ
xiang1Ġ bi3Ġ
ke1Ġ xue2Ġyuan4Ġ
mi3Ġ ya4Ġ
ri4Ġ zhi4Ġ
4 2Ġ
yuan2Ġ ze2Ġ
ai1Ġ er3Ġ
yin4Ġ di4Ġ
Ġgong4Ġ you3Ġ
kun4Ġ nan2Ġ
shan1Ġ qu1Ġ
2020Ġnian2Ġ mei3Ġguo2Ġren2Ġkou3Ġpu3Ġcha2ĠdeĠshu4Ġju4Ġ
ai1Ġ ji2Ġ
Ġ neng2Ġ
4 6
qi2Ġ xia4Ġ
fei1Ġ lv4Ġbin1Ġ
n eĠ
qi e1Ġ
shi2Ġ duan4Ġ
ĠĠĠ deĠ
yu3Ġ qi2Ġta1Ġ
- -
I n
shi2Ġ wu3Ġ
da4Ġ sha4Ġ
bei4Ġ po4Ġ
dui4Ġ wai4Ġ
jie1Ġ wei4Ġ
sa4Ġ si1Ġ
shan1Ġ ji1Ġ
Ġyin1Ġ yue4Ġ
Ġyou3Ġ xie1Ġ
a sĠĠĠ
ĠĠĠ zao3Ġnian2Ġ
jia1Ġ la1Ġ
shen2Ġ meĠ
jian3Ġ ce4Ġ
zhong1Ġ qi1Ġ
zhi1Ġ zhan4Ġ
xi1Ġ an1Ġ
xi1Ġ si1Ġ
yin1Ġ shi4Ġ
Ġping2Ġ jun1Ġ
shi2Ġ wu4Ġ
xing1Ġ deng3Ġ
b er
Ġ 3Ġyue4Ġ
zhi4Ġ yi2Ġ
zheng4Ġfu3Ġ deĠ
zeng1Ġ zu3Ġ
201 5Ġnian2Ġ
liu2Ġ yu4Ġ
du1Ġ shi4Ġ
tu1Ġ po4Ġ
g Ġ
fan4Ġwei2Ġ nei4Ġ
Ġg ui4Ġ
you2Ġ yong3Ġ
jun1Ġ tuan2Ġ
nan2Ġ yi3Ġ
tai4Ġ guo2Ġ
Ġzhong1Ġ deĠ
ac k
fen1Ġ li2Ġ
pei4Ġ he2Ġ
zhuan3Ġ yi2Ġ
can1Ġjia1Ġ leĠ
dai4Ġ li3Ġ
deĠ li4Ġshi3Ġ
dui4Ġ ying4Ġ
di4Ġ ba1Ġ
huan4Ġ zhe3Ġ
shi3Ġ shang4Ġ
guan1Ġ ce4Ġ
dong1Ġ fang1Ġ
yi3Ġ wai4Ġ
bu4Ġ er3Ġ
tong1Ġ xun4Ġ
zai4Ġ 199
jing1Ġ dian3Ġ
dian4Ġ hua4Ġ
pai4Ġ chu1Ġ
Ġ cheng1Ġwei2Ġ
ĠĠĠ of
dai4Ġ bu3Ġ
cheng1Ġ wei4Ġ
ren2Ġkou3Ġ wei4Ġ
I N
201 7Ġnian2Ġ
00Ġ ren2Ġ
li4Ġshan1Ġ da4Ġ
liu2Ġ zai4Ġ
xie2Ġ tiao2Ġ
hou4Ġ bei4Ġ
she4Ġ deĠ
Ġbao1Ġ han2Ġ
qi2Ġzhong1Ġ yi1Ġzhong3Ġ
pi n1Ġ
Ġzheng4Ġ zhi4Ġ
hui4Ġ zhang3Ġ
sheng1Ġ zhang3Ġ
Ġqi2Ġzhong1Ġ bao1Ġkuo4Ġ
yu3Ġ qi2Ġ
xi1Ġ bei3Ġbu4Ġ
Ġshi4Ġ you2Ġ
ka3Ġ si1Ġ
po 3Ġ
zheng3Ġ ti3Ġ
Ġming2Ġchao2Ġ zheng4Ġzhi4Ġren2Ġwu4Ġ
Ġ lie4Ġ
shi4Ġ you3Ġ
3 6Ġ
ch ou3Ġ
lu4Ġ xu4Ġ
guo2Ġjia1Ġ deĠ
zhu4Ġ li3Ġ
wa3Ġ er3Ġsheng3Ġ
deĠ shi2Ġjian1Ġ
A R
ĠĠĠ qi2Ġta1Ġ
yi4Ġ you3Ġ
tai4Ġ kong1Ġ
huo3Ġ shan1Ġ
ĠĠĠ200 8Ġnian2Ġ
jian1Ġ du1Ġ
Ġs u4Ġ
yu2Ġ19 3
ao4Ġ zhou1Ġ
shi2Ġ si4Ġ
yan2Ġ chang2Ġ
p i4Ġ
deĠ di4Ġyi1Ġ
ji1Ġ qi4Ġ
zhan3Ġ lan3Ġ
xi1Ġ nan2Ġbu4Ġ
fang2Ġ yu4Ġ
guo2Ġ wu4Ġyuan4Ġ
jia1Ġ qiang2Ġ
Ġxin1Ġ zeng1Ġ
Ġnan2Ġ zhi4Ġ
mian3Ġ fei4Ġ
zhong4Ġ duo1Ġ
jiao1Ġ hui4Ġ
fen1Ġbu4Ġ yu2Ġ
Ġ qiu1Ġ
xiang1Ġ xin4Ġ
fu2Ġ yi4Ġ
Ġsui2Ġ zhu4Ġ
Ġ ru4Ġ
Ġ qin2Ġ
yi4Ġ ming2Ġ
shou3Ġ ge4Ġ
nong2Ġ cun1Ġ
ju4Ġ yuan4Ġ
200 1Ġnian2Ġ
sh eng2Ġ
ke4Ġ la1Ġ
li2Ġ mi3Ġ
Ġ xu2Ġ
shi2Ġ liu4Ġ
yi1Ġ li4Ġ
shu1Ġ yuan4Ġ
fang2Ġ wu1Ġ
qin1Ġ wang2Ġ
si1Ġ dun4Ġ
Ġyue1Ġ han4Ġ
ci4Ġ shi3Ġ
long2Ġ jiang1Ġ
ĠC h
gong1Ġ jue2Ġ
shi2Ġ ren4Ġ
yin2Ġ pai2Ġ
Ġmei3Ġ nian2Ġ
shi2Ġ hou4Ġ
dai4Ġ you3Ġ
Ġ200 2Ġnian2Ġ
xi3Ġ ju4Ġ
ban4Ġshi4Ġ chu4Ġ
Ġ ke3Ġneng2Ġ
jia1Ġ shang4Ġ
bei4Ġ shi4Ġwei4Ġ
ĠĠĠ dang1Ġ
deĠ gao1Ġ
Ġ xuan1Ġbu4Ġ
da4Ġ xuan3Ġ
kai1Ġ zhan3Ġ
ze2Ġ wei4Ġ
ji1Ġjin1Ġ hui4Ġ
gu4Ġ ding4Ġ
ruan3Ġ jian4Ġ
jie1Ġ ji2Ġ
el l
cheng2Ġ leĠ
yu3Ġ zhong1Ġ
18 9
fen1Ġ lan2Ġ
ci4Ġ shi4Ġjie4Ġda4Ġzhan4Ġ
cheng2Ġ ke4Ġ
ji4Ġ yi4Ġ
kong1Ġ zhong1Ġ
Ġ fa1Ġxian4Ġ
zhi3Ġ ding4Ġ
bian1Ġ ju4Ġ
wan2Ġ gong1Ġ
da4Ġxue2Ġ deĠ
hua4Ġ he2Ġwu4Ġ
neng2Ġ liang4Ġ
yu3Ġ zhou4Ġ
Ġb ai4Ġ
hei1Ġ se4Ġ
yun4Ġ yong4Ġ
4 7
hua2Ġ ren2Ġ
dai4Ġ ling3Ġ
hen3Ġ kuai4Ġ
que4Ġzhen3Ġ bing4Ġli4Ġ
yi1Ġ duan4Ġ
hui4Ġ shang4Ġ
zeng1Ġ qiang2Ġ
Ġ qu3Ġ
de2Ġ hua2Ġ
can1Ġ xuan3Ġ
zhi2Ġye4Ġ sheng1Ġya2Ġ
kong1Ġ qi4Ġ
Ġli4Ġ shu3Ġyu2Ġ
5 5
shi1Ġ deĠ
she4Ġ ding4Ġ
guo4Ġ du4Ġ
ã ģ
Ġ yan2Ġjiu1Ġ
zhuan3Ġ xiang4Ġ
mai4Ġ ke4Ġ
Ġ2001Ġnian2Ġ ren2Ġkou3Ġ
p er
Ġ bing1Ġ
1Ġ hao4Ġ
chu1Ġ fa1Ġ
dian3Ġ li3Ġ
Ġti ng2Ġ
di4Ġ li3Ġ
zi1Ġ ben3Ġ
nu3Ġ li4Ġ
o k
an1Ġ hui1Ġ
le Ġzhe4Ġ
an4Ġ zhao4Ġ
liang3Ġ nian2Ġ
zai4Ġ19 8
2 9Ġ
cheng2Ġ qu1Ġ
shou1Ġ shi4Ġ
3 8Ġ
ping2Ġ gu1Ġ
ma3Ġ tou2Ġ
deng1Ġ chang2Ġ
ming2Ġ zhi4Ġ
zhang1Ġ zhuan1Ġji2Ġ
ĠĠĠ200 9Ġnian2Ġ
gong1Ġ yi4Ġ
hai3Ġ ba2Ġgao1Ġdu4Ġ
Ġ1 2Ġ
ĠC Ġ
ming2Ġ que4Ġ
cheng1Ġ zuo4Ġ
f f
Ġ xuan1Ġ
you3Ġ zhu4Ġ
zhou1Ġ qi1Ġ
bo1Ġ li2Ġ
Ġ à
Ġ wu1Ġke4Ġlan2Ġ
yu3Ġ he2Ġ
Ġzai4Ġ zhe4Ġ
zhen1Ġ shi2Ġ
Ġdong1Ġ bei3Ġ
le Ġdui4Ġ
ri4Ġ qi1Ġ
cu4Ġ jin4Ġ
ĠĠĠ202 5Ġnian2Ġ
wei2Ġ ai1Ġ
Ġxian4Ġ ren4Ġ
201 3Ġnian2Ġ
Ġshi4Ġyi1Ġ ming2Ġ
Ġqi1Ġ xi1Ġzai4Ġ
ar i
xi1Ġ zang4Ġ
na2Ġ xia4Ġ
b i2Ġ
ge4Ġ zi4Ġ
S T
sheng1Ġ wei4Ġ
4 9
n uo2Ġwei1Ġ
dui4Ġ kang4Ġ
Ġzu3Ġ fu4Ġ
Ġ wen2Ġhua4Ġ
di4Ġ 2Ġ
ju4Ġ ben3Ġ
liang3Ġ ming2Ġ
Ġte4Ġbie2Ġ shi4Ġ
suo3Ġ shu3Ġ
jing4Ġ deĠ
1 0Ġnian2Ġ
Ġ xun2Ġ
jing4Ġ xuan3Ġ
dang3Ġ deĠ
tao2Ġ tai4Ġ
d an3Ġ
zhi1Ġ liu2Ġ
Ġm eng4Ġ
Ġguan1Ġ yu2Ġ
Ġshi4Ġ zhong1Ġguo2Ġ
jia4Ġ shi3Ġ
Ġ gui1Ġ
Ġg uo1Ġ
zhu4Ġ ce4Ġ
guan3Ġli3Ġ ju2Ġ
r en3Ġ
Ġ feng4Ġ
ge2Ġ li2Ġ
na4Ġ xie1Ġ
Ġ1 1Ġ
jin3Ġ ji2Ġ
Ġ yong1Ġyou3Ġ
dian4Ġ qi4Ġ
huang2Ġ hou4Ġ
Ġer2Ġshui3Ġyu4Ġmian4Ġji1Ġwei4Ġ 0
ãĥ »
S TĠ
Ã Ĺ
yi1Ġ zhi1Ġ
bin1Ġ hai3Ġ
Ġshi4Ġyi1Ġ ke1Ġ
Ġ shuo1Ġ
xian4Ġ shang4Ġ
Ġ she4Ġyou3Ġ
chu i1Ġ
e w
ĠĠĠ you2Ġ
ĠĠĠ mei3Ġguo2Ġ
qi ao1Ġ
g a1Ġ
zai4Ġ zhe4Ġ
he2Ġ gu3Ġ
geng1Ġ xin1Ġ
Ġ huan2Ġ
bu4Ġ dian4Ġying3Ġ
qi1Ġ nian2Ġ
ye4Ġ deĠ
Ġ jue2Ġding4Ġ
wei4Ġ dui4Ġ
ĠĠĠ qian2Ġ
shen1Ġ du4Ġ
huang2Ġ jin1Ġ
Ġ200 3Ġnian2Ġ
liao2Ġ ning2Ġ
qi ao4Ġ
jin4Ġ ji2Ġ
ling4Ġ yi2Ġge4Ġ
shi4Ġ zheng4Ġfu3Ġ
Ġg eng1Ġ
duo1Ġ nian2Ġ
Ġhao4Ġ xian4Ġ
deĠ zuo4Ġpin3Ġ
bao3Ġ zhang4Ġ
u an4Ġ
fei4Ġ chu2Ġ
c i
jia1Ġ zhou1Ġ
Ġch ong1Ġ
chan3Ġsheng1Ġ deĠ
xia4Ġxia2Ġ deĠyi2Ġge4Ġ
zai4Ġ ri4Ġben3Ġ
Ġt ong3Ġ
o h
ke4Ġ lai2Ġ
zhang3Ġ guan1Ġ
lian2Ġhe2Ġ hui4Ġ
shi2Ġ shang4Ġ
Ġer2Ġ gai1Ġdi4Ġ
fu1Ġ ka3Ġ
nan2Ġ fang1Ġ
guo2Ġmin2Ġ zheng4Ġfu3Ġ
s p
s ao3Ġ
cheng2Ġ ren2Ġ
yue4Ġ dui4Ġ
quan2Ġ deĠ
Ġ xing2Ġzheng4Ġ
jian1Ġ yu4Ġ
wu3Ġ han4Ġ
wei2Ġ hu4Ġ
si1Ġ la1Ġfu1Ġ
hao4Ġ deĠ
Ġg an3Ġ
qian1Ġ ding4Ġ
Ġji2Ġ shi3Ġ
Ġjiao4Ġ yu4Ġ
li4Ġ fang1Ġ
bei3Ġ fang1Ġ
fu4Ġ nv3Ġ
zhu3Ġ chang3Ġ
Ġb ang1Ġ
lin2Ġ deĠ
shi4Ġ yan4Ġ
yi2Ġ dai4Ġ
Ġyi3Ġ jing1Ġ
jie1Ġ shou1Ġ
kang4Ġ ri4Ġ
hua4Ġ wei4Ġ
tong2Ġ xing4Ġ
mu4Ġ si1Ġlin2Ġ
zhi4Ġ 199
Ġ200 0Ġnian2Ġ
shi4Ġ zhong1Ġguo2Ġ
chai1Ġ chu2Ġ
deng3Ġ deng3Ġ
xiao1Ġ fei4Ġ
qiang2Ġ du4Ġ
zhuan3Ġ huan4Ġ
chuan2Ġ mei2Ġ
6 5
shi4Ġ nei4Ġ
qin1Ġ zi4Ġ
Ġ zu2Ġ
wei4Ġ you3Ġ
Ġd ang3Ġ
u sĠ
ge2Ġ wei4Ġ
Ġ wan2Ġjia1Ġ
I I
c o
â Ķ
di4Ġ dai4Ġ
xing2Ġ xing1Ġ
fu4Ġ zhu3Ġren4Ġ
shou1Ġ cang2Ġ
Ġju4Ġ you3Ġ
1 2Ġnian2Ġ
m an2Ġ
xue2Ġ deĠ
7 5
b eng1Ġ
shi4Ġ fang4Ġ
hui4Ġ yuan2Ġ
quan2Ġ zhang3Ġ
nei4Ġ zhan4Ġ
tai4Ġ du4Ġ
nian2Ġ dai4Ġ
dui4Ġ ci3Ġ
huo4Ġ bi4Ġ
tian1Ġ huang2Ġ
yu2Ġ lei4Ġ
li3Ġ jie3Ġ
an d
shi4Ġ zhi3Ġ
zai4Ġ zhong1Ġguo2Ġ
Ġd i1Ġ
lie4Ġ deĠ
p eng1Ġ
Ġ ding1Ġ
jie4Ġ deĠ
zhong1Ġ yu2Ġ
zhi1Ġ jia1Ġ
ze2Ġ dong1Ġ
ĠĠĠju4Ġ qing2Ġ
zai4Ġ gai1Ġ
gan3Ġran3Ġ zhe3Ġ
p en2Ġ
yi4Ġ mei3Ġyuan2Ġ
xin1Ġ jiang1Ġ
Ġg ai4Ġ
xiu1Ġ jian4Ġ
liu2Ġ xia4Ġ
shen1Ġ wei4Ġ
ni2Ġ xi1Ġya4Ġ
yi3Ġ you3Ġ
zu3Ġ zhi3Ġ
huo2Ġ yue4Ġ
Ġshi4Ġyi1Ġ wei4Ġ
Ġcan1Ġ yu4Ġ
4 4Ġ
e d
tu1Ġ ran2Ġ
A M
fu4Ġ xing1Ġ
mi4Ġshu1Ġ zhang3Ġ
Ġr uan3Ġ
bu4Ġ shi4Ġ
lian2Ġ ren4Ġ
shen3Ġ cha2Ġ
Ġwo3Ġ men
Ġt ou4Ġ
yuan2Ġzhu4Ġ min2Ġ
ĠĠĠ xiang1Ġgang3Ġ
ge4Ġ lei4Ġ
bo1Ġ luo2Ġ
zhu3Ġyi4Ġ zhe3Ġ
ï¼ ħ
gong1Ġ an1Ġ
fu4Ġ zhu3Ġxi2Ġ
Ġh uo2Ġ
Ġ ying2Ġ
ming2Ġ xing1Ġ
zhi4Ġ cheng2Ġ
Ġd un1Ġ
jue2Ġ dui4Ġ
ĠĠĠ xia4Ġ
i m
li3Ġ da2Ġ
bao3Ġ shou3Ġ
Ġchao2Ġ xian1Ġ
yi3Ġ nan2Ġ
xiao4Ġ qu1Ġ
sui4Ġ shi2Ġ
Ġ deng4Ġ
shi4Ġ bu4Ġ
yan3Ġ yi4Ġ
H Ġ
ĠĠĠ zhong1Ġguo2Ġ
de2Ġ er3Ġ
tui1Ġ guang3Ġ
âĶ Ģ
C h
zai4Ġ xiang1Ġgang3Ġ
chang2Ġ jian4ĠdeĠ
ling3Ġ shi4Ġ
Ġmei3Ġ ge4Ġ
xiu1Ġ fu4Ġ
shi2Ġer4Ġ nian2Ġ
Ġ xu1Ġ
geng4Ġ wei2Ġ
chang3Ġ suo3Ġ
ni2Ġ ke4Ġ
gen1Ġ ting2Ġ
ĠĠĠci3Ġ wai4Ġ
you3Ġ ji1Ġ
shou3Ġ xiang4Ġ
zhou1Ġ ci4Ġshi3Ġ
du i1Ġ
lei3Ġ ji4Ġ
shou3Ġ ji1Ġ
di4Ġer4Ġci4Ġ shi4Ġjie4Ġda4Ġzhan4Ġ
l an4Ġ
dang1Ġ nian2Ġ
wei1Ġ xian3Ġ
ke3Ġyi3Ġ zai4Ġ
shi4Ġwei4Ġ leĠ
zhong1Ġgong4Ġ zhong1Ġyang1Ġ
de2Ġ zhu3Ġ
jin4Ġ bu4Ġ
ben3Ġ di4Ġ
200 3Ġnian2Ġ
bi4Ġ yao4Ġ
zai4Ġ nei4ĠdeĠ
shou3Ġ ge1Ġ
bao4Ġ li4Ġ
Ġl ao2Ġ
6 4Ġ
T V
xiao1Ġ liang4Ġ
Ġgong1Ġ yuan2Ġ
Ġ chuan1Ġ
zhong1Ġ zhi3Ġ
Ġchu3Ġ yu2Ġ
2 3
er3Ġ duo1Ġ
Ġ18 7
fa1Ġdong4Ġ ji1Ġ
b i1Ġ
si1Ġ he2Ġ
lian2Ġ luo4Ġ
shi2Ġ qu1Ġ
zi4Ġ sha1Ġ
Ġshi2Ġ ren4Ġ
fa1Ġ yan2Ġ
cheng2Ġli4Ġ deĠ
ti3Ġyu4Ġ chang3Ġ
bu4Ġ wei4Ġ
tu2Ġ zhong1Ġ
shi4Ġjie4Ġ shang4Ġ
Ġ shun4Ġ
bu4Ġ jin3Ġ
xi2Ġxing4Ġ bu4Ġming2Ġ
chang3Ġ jing3Ġ
can1Ġ ting1Ġ
sha1Ġ hai4Ġ
Ġ deng1Ġ
zhe4Ġ yang4Ġ
xian4Ġ he2Ġ
fa3Ġ deĠ
zong3Ġ ren2Ġkou3Ġ
t a
ĠĠĠ sheng4Ġ
1Ġ li4Ġ
O S
hu2Ġ nan2Ġ
hen3Ġ da4Ġ
bei3Ġjing1Ġ shi4Ġ
cuo4Ġ wu4Ġ
tian1Ġ deĠ
gao4Ġ su4Ġ
shang4Ġ shu4Ġ
Ġsheng1Ġhuo2Ġ xi2Ġxing4Ġbu4Ġming2Ġ
xing2Ġ shi3Ġ
she4Ġ ji1Ġ
qian1Ġ zhi4Ġ
jia1Ġ zhong1Ġ
ping2Ġ min2Ġ
wei2Ġ rao4Ġ
wang3Ġ wang3Ġ
ge1Ġ lun2Ġbi3Ġya4Ġ
jian1Ġ ren4Ġ
chang3Ġ bi3Ġsai4Ġ
na4Ġ cui4Ġ
Ġye3Ġ jiu4Ġshi4Ġ
shang4Ġhai3Ġ shi4Ġ
a tĠĠĠ
i d
Ġp eng2Ġ
W indow
si4Ġ shi2Ġ
al l
ĠĠĠ200 7Ġnian2Ġ
Ġ er4Ġshi2Ġ
bian4Ġ wei4Ġ
ji4Ġsuan4Ġ ji1Ġ
si1Ġ ma3Ġ
hui4Ġ you3Ġ
Ġci4Ġ nian2Ġ
shou4Ġ huan1Ġying2Ġ
shu1Ġ ji2Ġ
chi2Ġ you3Ġ
zhu3Ġyao4Ġ deĠ
ĠĠĠ jia1Ġ
yu2Ġ ren2Ġ
zhu3Ġ ban4Ġ
Ġ 7Ġ
zhu4Ġ zai4Ġ
fu2Ġ luo2Ġ
xing4Ġ neng2Ġ
qi4Ġ xuan2Ġ
Ġer2Ġ gai1Ġ
hua2Ġ sheng4Ġdun4Ġ
she4Ġ yu2Ġ
yang2Ġ shi4Ġ
che1Ġ xiang1Ġ
gong1Ġ jin1Ġ
Ġ202 4Ġnian2Ġ
yi1Ġ bu4Ġ
xian4Ġ ru4Ġ
jiao1Ġ huan4Ġ
li4Ġ shi2Ġ
ling3Ġ di4Ġ
ĠĠĠ sui1Ġran2Ġ
fa3Ġ ting2Ġ
ma3Ġ li3Ġ
Ġyou2Ġ qi2Ġshi4Ġ
ren2Ġmin2Ġ bi4Ġ
Ġ xiong1Ġ
da4Ġ zhong4Ġ
Ġ18 6
ĠĠĠ bei4Ġjing3Ġ
cheng2Ġ bao3Ġ
jiao1Ġ gei3Ġ
5Ġ ge4Ġ
4 6Ġ
4 1Ġ
ĠĠĠ zeng1Ġzu3Ġ
tong1Ġ xin4Ġ
da4Ġ wei4Ġ
Ġ ding4Ġ
ji4Ġ wei4Ġ
dui4Ġ qi2Ġ
deĠyi1Ġ xie1Ġ
pai4Ġ deĠ
kao3Ġ gu3Ġ
qian2Ġ ting3Ġ
ao4Ġ er3Ġ
da4Ġ duo1Ġ
hou4Ġ xu4Ġ
qu1Ġ yi4Ġhui4Ġ
Ġzui4Ġ gao1Ġ
ĠĠĠ zhong1Ġ
yi1Ġ chang2Ġ
de2Ġ ming2Ġ
ya4Ġ jun1Ġ
si1Ġling4Ġ bu4Ġ
e x
deĠ guo2Ġjia1Ġ
yu2Ġ shi4Ġ
xun2Ġ yang2Ġ
ying1Ġ li3Ġ
ĠĠĠ ba1Ġ
di4Ġ 3Ġ
li4Ġ shu3Ġyu2Ġ
da4Ġ lian2Ġmeng2Ġ
shui3Ġ ku4Ġ
zhang4Ġ fu1Ġ
xiu1Ġ zheng4Ġ
Ġ gong1Ġsi1Ġ
Ġ huai2Ġ
Ġ xi4Ġ
Ġ yun2Ġ
yi3Ġ bei3Ġ
Ġtian1Ġ jin1Ġ
zhuang1Ġ shi4Ġ
Ġdong1Ġ nan2Ġ
Ġshuang1Ġ fang1Ġ
jing3Ġ gao4Ġ
cai3Ġ fang3Ġ
xi1Ġ er3Ġ
wai4Ġ bu4Ġ
qing4Ġ zhu4Ġ
yi1Ġ xiao3Ġshi2Ġ
Ġ1 4Ġ
fa3Ġlan2Ġ xi1Ġ
Ġ ou1Ġzhou1Ġ
gui1Ġ fan4Ġ
shi4Ġ zheng4Ġ
xi1Ġ li3Ġ
suo3Ġ cai3Ġyong4Ġ
lei4Ġ deĠ
hang2Ġ tian1Ġ
lei2Ġ si1Ġ
bu2Ġ dao4Ġ
Ġ xi4Ġlie4Ġ
da4Ġ xiao3Ġ
er3Ġ fu1Ġ
ren4Ġ shi2Ġ
chang3Ġ di4Ġ
Ġqi2Ġzhong1Ġ nan2Ġxing4Ġ
pin2Ġ lv4Ġ
si3Ġ hou4Ġ
gong1Ġcheng2Ġ shi1Ġ
Ġ qiang2Ġ
ge2Ġ la1Ġ
cun1Ġ luo4Ġ
zhui1Ġ su4Ġ
C O
fa1Ġ xing2ĠdeĠ
zou3Ġ xiang4Ġ
kong3Ġ bu4Ġ
Ġ xu4Ġ
Ġ wen1Ġ
shi4Ġ hou4Ġ
shang4Ġ xia4Ġ
Ġh ao3Ġ
xi4Ġ deĠ
wu3Ġ shi2Ġ
luo4Ġ shan1Ġji1Ġ
gang3Ġ kou3Ġ
guang1Ġ xu4Ġ
gong1Ġkai1Ġ sai4Ġ
1 5Ġnian2Ġ
4 3Ġ
o d
ji2Ġ bie2Ġ
xiao4Ġ yuan2Ġ
Ġ yong4Ġyu2Ġ
ĠĠĠ er2Ġ
hui4Ġ he2Ġ
nan2Ġ fei1Ġ
dang3Ġ yuan2Ġ
ĠĠĠdi4Ġ fang1Ġ
deĠ wen4Ġti2Ġ
xun2Ġ huan2Ġ
Ġt an2Ġ
jie2Ġ deĠ
tian1Ġ ti3Ġ
tian1Ġ ran2Ġ
xia2Ġ qu1Ġ
zhong1Ġguo2Ġda4Ġlu4Ġ deĠ
zhu a1Ġ
ar Ġ
shang4Ġ sheng1Ġ
xiao4Ġ li4Ġ
xie3Ġ dao4Ġ
bei4Ġ bu3Ġ
hai3Ġ ping2Ġmian4Ġ
zan4Ġ ting2Ġ
ĠĠĠ li3Ġ
m ai2Ġ
Ġh eng1Ġ
ka3Ġ luo2Ġ
Ġda4Ġ bu4Ġfen4Ġ
leĠyi1Ġ xie1Ġ
Ġ zao3Ġ
ng ĠĠĠ
xiao1Ġ shi1Ġ
l ong3Ġ
yi1Ġ ran2Ġ
jin3Ġ guan3Ġ
bu4Ġ ji2Ġ
Ġg ei3Ġ
ping2Ġ yuan2Ġ
hui4Ġyi4Ġ yuan2Ġ
ri c
kuo4Ġ zhang1Ġ
zan4Ġ zhu4Ġ
shi2Ġ shi4Ġ
shan1Ġ feng1Ġ
ni ao4Ġ
yan3Ġ zou4Ġ
bian1Ġ jing4Ġ
Ġxing2Ġ cheng2Ġ
wan4Ġ mei3Ġyuan2Ġ
deĠ zui4Ġ
zu2Ġ gou4Ġ
c an3Ġ
shi4Ġ zhong1Ġxin1Ġ
mei3Ġ jun1Ġ
ke1ĠdeĠ qi2Ġzhong1Ġyi1Ġzhong3Ġ
zhong1Ġ jian1Ġ
neng2Ġ yuan2Ġ
Ġzhong1Ġhua2Ġren2Ġmin2Ġgong4Ġhe2Ġguo2Ġ zheng4Ġzhi4Ġren2Ġwu4Ġ
deĠ san1Ġ
jiang4Ġ ling3Ġ
sui2Ġ ji2Ġ
fen1Ġ lie4Ġ
wu2Ġ zheng4Ġzhuang4Ġ
du2Ġ li4ĠdeĠ
Ġshi2Ġ ji4Ġ
zhuan4Ġ xie3Ġ
1 8Ġnian2Ġ
Ġ 8Ġ
bu4Ġ bu4Ġzhang3Ġ
qi2Ġ wei4Ġ
jin1Ġ ri4Ġ
Ġ199 8Ġnian2Ġ
pei2Ġ xun4Ġ
Ġ xiong2Ġ
en1Ġ sheng3Ġ
li3Ġ gong1Ġ
lu4Ġ zhan4Ġ
tong2Ġ ming2Ġ
zao1Ġ yu4Ġ
deĠ gong1Ġzuo4Ġ
Ġ shen3Ġ
wu1Ġ ran3Ġ
dong3Ġ shi4Ġzhang3Ġ
chu1Ġ ru4Ġkou3Ġ
suo3Ġ chu4ĠdeĠ
v er
Ġ sheng3Ġ
he2Ġ xi1Ġ
zu2Ġqiu2Ġ yun4Ġdong4Ġyuan2Ġ
Ġluo2Ġ ma3Ġ
Ġshi4Ġ zhi3Ġ
jiang1Ġ xi1Ġ
san1Ġ shi4Ġ
Ġr e4Ġ
Ġxi1Ġ jie1Ġ
zu1Ġ jie4Ġ
tu2Ġ xing2Ġ
Ġyi4Ġ da4Ġli4Ġ
xing1Ġdeng3Ġ wei4Ġ
Ġ fu3Ġ
Ġ fan2Ġ
ben3Ġ ren2Ġ
Ġbing4Ġ yu3Ġ
qi3Ġ yuan2Ġ
3 7Ġ
ji2Ġ da4Ġ
lai2Ġ yue4Ġ
shan1Ġ xian4Ġ
Ġjie2Ġ mu4Ġ
bao3Ġ luo2Ġ
Ġgai1Ġ cun1Ġ
lai2Ġ yin1Ġ
qun2Ġ ti3Ġ
ĠĠĠ ma3Ġ
le ĠĠĠ
xing2Ġ rong2Ġ
shou4Ġ quan2Ġ
200 2Ġnian2Ġ
Ġma3Ġ lai2Ġ
zu2Ġqiu2Ġ dui4Ġ
sa4Ġ er3Ġ
t a4Ġ
de2Ġ la1Ġ
sui4Ġ deĠ
zai1Ġ pei2Ġ
ling4Ġ ren2Ġ
ce4Ġ lve4Ġ
Ġyi1Ġ ming2Ġ
fa1Ġ hui1Ġ
te4Ġ la1Ġ
Ġ194 9Ġnian2Ġ
6 8
zu2Ġ xie2Ġ
wo3Ġ menĠ
Ġxiang3Ġ nian2Ġ
ping2Ġ heng2Ġ
huang2Ġ se4Ġ
di3Ġ kang4Ġ
Ġ xin4Ġ
zai4Ġ wei4Ġ
yi1Ġ ju4Ġ
xin1Ġ zeng1Ġ
xie3Ġ zuo4Ġ
yan2Ġ lun4Ġ
lv4Ġ se4Ġ
gai3Ġ ming2Ġwei4Ġ
a h
bu4Ġ li3Ġ
di4Ġ zhi4Ġ
dui4Ġ fang1Ġ
guan1Ġ deĠ
Ġshi4Ġ de2Ġguo2Ġ
shou3Ġ xi2Ġ
Ġshi4Ġ wu1Ġke4Ġlan2Ġ
ban3Ġ deĠ
Ġjian4Ġ li4Ġ
Ġ huan4Ġ
Ġ xian2Ġ
gong1Ġ deĠ
zhu3Ġ shi4Ġ
Ġ1 5Ġ
Ġyou2Ġ qi2Ġ
shao4Ġ jiang4Ġ
Ġwei1Ġ lian2Ġ
c u1Ġ
da3Ġ suan4Ġ
i k
shou1Ġ ji2Ġ
bo2Ġshi4Ġ xue2Ġwei4Ġ
ge4Ġ ge4Ġ
ting2Ġ kao4Ġ
bi4Ġye4Ġ hou4Ġ
yi1Ġ zhi2Ġ
xia4Ġling4Ġ shi2Ġjian1Ġ
jia1Ġli4Ġ fu2Ġ
b en1Ġ
f Ġ
1Ġ ge4Ġ
fa1Ġ ming2Ġ
t un1Ġ
deĠ fa1Ġzhan3Ġ
shou3Ġ bo1Ġ
dang1Ġ di4ĠdeĠ
jian4Ġzhu4Ġ wu4Ġ
cui1Ġ hui3Ġ
heng1Ġ li4Ġ
Ġ xu3Ġ
guo2Ġ jun1Ġ
yi3Ġ xi1Ġ
ĠĠĠ200 6Ġnian2Ġ
he2Ġ zhong1Ġ
jian1Ġ cha2Ġ
hui4Ġ bei4Ġ
chu1Ġ shou4Ġ
yan2Ġ fa1Ġ
ceng2Ġ wei4Ġ
Ġjie2Ġ ke4Ġ
ming2Ġ chao2Ġ
shan1Ġ shi4Ġ
qi4Ġ ya1Ġ
yuan4Ġ shi4Ġ
jing4Ġ sai4Ġ
Ġk ang4Ġ
Ġxian4Ġ shi2Ġ
dan1Ġ mai4Ġ
feng1Ġ wei4Ġ
Ġ199 9Ġnian2Ġ
li4Ġ ziĠ
bei1Ġ si1Ġ
ping2Ġ wei4Ġ
lian2Ġ wang3Ġ
Ġbing4Ġ you2Ġ
guo2Ġji4Ġ ji1Ġchang3Ġ
ling2Ġ chen2Ġ
Ġ z
le Ġduo1Ġ
sheng1Ġ yin1Ġ
xiao4Ġ ying4Ġ
fen1Ġ qu1Ġ
quan2Ġ xian4Ġ
Ġsu1Ġ lian2Ġ
Ġ she4Ġji4Ġ
202 5Ġnian2Ġ
bao1Ġ wei2Ġ
Ġxi1Ġ nan2Ġ
Ġ xie2Ġ
ju4Ġ da4Ġ
ju4Ġ ti3Ġ
ĠA Ġ
Ġtong2Ġshi2Ġ gai1Ġdi4Ġ
e a
deĠ gu3Ġ
ĠĠĠ qing1Ġ
yi3Ġ wei2Ġ
Ġ0 00
chu1Ġban3Ġ she4Ġ
m aĠ
si1Ġ li4Ġ
fu2Ġ hao4Ġ
jue2Ġ yi4Ġ
Ġ1 3Ġ
ci2Ġ zhi2Ġ
xian3Ġ zhu4Ġ
Ġd ang4Ġ
che1Ġ chang3Ġ
il l
wu2Ġzheng4Ġzhuang4Ġ gan3Ġran3Ġzhe3Ġ
deĠ qing2Ġkuang4Ġxia4Ġ
ou3Ġ xiang4Ġ
shen2Ġ hua4Ġ
shi2Ġ jiu3Ġ
hua4Ġ fen1Ġ
ta1Ġ wei4Ġ
zu3Ġzhi1Ġ deĠ
zai4Ġ19 7
nei4Ġlu4Ġ sheng3Ġfen4Ġ
guang3Ġ xi1Ġ
yin3Ġ yong4Ġ
5 00Ġ
bo1Ġ si1Ġ
Ġzhou1Ġ nian2Ġ
n ang2Ġ
he2Ġ bei3Ġ
suo3Ġ zai4Ġdi4Ġ
ying3Ġ xiang4Ġ
qian1Ġ yue1Ġ
zuo4Ġ wei4Ġ
n uan3Ġ
deĠ xi1Ġ
la1Ġ te4Ġ
5Ġ gong1Ġli3Ġ
ban1Ġ fa1Ġ
mi4Ġ qie4Ġ
deĠ jia1Ġ
Ġzh ui1Ġ
zha4Ġ dan4Ġ
jing4Ġnei4Ġ gong4Ġyou3Ġ
Ġ Z
Ġ shan4Ġ
deĠ zhi2Ġ
si1Ġ ka3Ġ
mian4Ġ lin2Ġ
bo2Ġ jue2Ġ
Ġp i1Ġ
Ġling4Ġ you3Ġ
E R
ĠĠĠ xian4Ġ
yi4Ġ wai4Ġ
shou1Ġ dao4Ġ
mao4Ġ xian3Ġ
ju3Ġban4Ġ deĠ
shan1Ġdong1Ġ sheng3Ġ
Ġt u1Ġ
Ġyuan2Ġ ming2Ġ
Ġzhi4Ġ zuo4Ġ
ĠĠĠ U
he2Ġ tong2Ġ
fu4Ġ shu3Ġ
liang3Ġ guo2Ġ
yu2Ġ19 0
ĠĠĠ zhi4Ġ
chang2Ġ jian4Ġ
liang4Ġ zi3Ġ
dou4Ġ zheng1Ġ
shang1Ġ pin3Ġ
Ġzi4Ġ you2Ġ
ye1Ġ su1Ġ
ig h
qi1Ġ xi1Ġ
shan1Ġ xi1Ġ
que4Ġ bao3Ġ
fei4Ġ yan2Ġ
ti2Ġgong1Ġ leĠ
l l
ĠĠĠ dan4Ġ
ĠĠĠ yi3Ġ
shi2Ġyan4Ġ shi4Ġ
Ġcai3Ġ yong4Ġ
u t
Ġ yao2Ġ
deĠ qing1Ġ
jiu4Ġ yuan2Ġ
zhi2Ġmin2Ġ di4Ġ
Ġ qin1Ġ
lu4Ġ ying3Ġ
chang2Ġ wei3Ġ
ban1Ġ jiang3Ġ
shun4Ġ li4Ġ
5 8
bu4Ġ shu3Ġ
yu4Ġ suan4Ġ
bao4Ġ zhi3Ġ
ye3Ġ ke3Ġyi3Ġ
che1Ġ dui4Ġ
tiao2Ġ li4Ġ
shuang1Ġ da3Ġ
zui4Ġgao1Ġ deĠ
qi1Ġ deĠ
dan1Ġ du2Ġ
ren2Ġmin2Ġ dai4Ġbiao3Ġda4Ġhui4Ġ
jiao3Ġ du4Ġ
ĠĠĠdi4Ġfang1Ġ zi1Ġliao4Ġ
N B
sheng1Ġ ji2Ġ
duo1Ġ li4Ġya4Ġ
tou4Ġ lu4Ġ
deĠji1Ġ chu3Ġ
Ġd i3Ġ
you2Ġ xing2Ġ
man3Ġ zhou1Ġ
Ġ xu1Ġyao4Ġ
kai1Ġ mu4Ġ
ni2Ġ er3Ġ
Ġsheng1Ġ yu2Ġ
ĠĠĠjian3Ġ jie4Ġ
zan4Ġ shi2Ġ
D TĠ
chang2Ġ jiang1Ġ
zhi1Ġ shi4Ġ
ĠĠĠ19 0
Ġceng2Ġ jing1Ġ
3 0Ġnian2Ġ
I S
e p
ji2Ġ lin2Ġ
ya4Ġ mei3Ġni2Ġya4Ġ
Ġc ao2Ġ
5 2Ġ
i sĠĠĠ
ta1Ġ shi4Ġ
ya4Ġ mu4Ġ
pei4Ġ bei4Ġ
Ġn ai3Ġ
he2Ġ fa3Ġ
chu1Ġ chang3Ġ
sheng4Ġ chu1Ġ
Ġbi3Ġ sai4Ġ
c eĠĠĠ
shi2Ġ pin3Ġ
zuo4Ġ fa3Ġ
ke1Ġ xue2Ġjia1Ġ
ming2Ġ ren2Ġ
jin4Ġ dang3Ġ
tian1Ġ hou4Ġ
jiang3Ġ shu4Ġ
xin1Ġ guan1Ġ
gu3Ġ lao3Ġ
han2Ġ you3Ġ
yan2Ġjiu1Ġ yuan4Ġ
li4Ġ chang3Ġ
yuan2Ġ shi3Ġ
xue2Ġ ke1Ġ
lu4Ġ duan4Ġ
wen2Ġ yi4Ġ
hai3Ġba2Ġ wei4Ġ
A N
ge4Ġ guo2Ġ
Ġji ang4Ġ
ke4Ġ lin2Ġ
shi2Ġqi1Ġ nian2Ġ
Ġbi4Ġ xu1Ġ
2 2
zu2Ġ qun2Ġ
la y
Ġjiu4Ġ shi4Ġ
zai4Ġ yi4Ġqi3Ġ
zhang3Ġ zi3Ġ
zhong3Ġ ziĠ
tu2Ġ sha1Ġ
meng2Ġ te4Ġ
deĠ li3Ġ
ĠĠĠ s
jie2Ġ du4Ġ
Ġdan4Ġ yin1Ġ
wo3Ġ men
da4Ġ zhi4Ġ
6Ġ ge4Ġ
bei4Ġ pan4Ġ
zhan4Ġ chang3Ġ
huai2Ġ yi2Ġ
zhong1Ġ zui4Ġ
zhong4Ġ zhi2Ġ
wei4Ġ qi2Ġ
shi2Ġ bao4Ġ
yue4Ġ qiu2Ġ
luo2Ġ de2Ġ
duan3Ġ zan4Ġ
yi4Ġshu4Ġ jia1Ġ
ĠĠĠI n
deĠ dian4Ġying3Ġ
da4Ġ fu1Ġ
ling3Ġ xian1Ġ
dang4Ġ tian1Ġ
dao4Ġ de2Ġ
suo3Ġ deĠ
lian2Ġ jie2Ġ
ti2Ġ ji2Ġ
dou1Ġ zai4Ġ
diao4Ġ kuai4Ġ
yu2Ġ19 2
ou1Ġ meng2Ġ
wa3Ġ er3Ġ
g h
ren2Ġ men
Ġyi1Ġ ci2Ġ
zao1Ġ shou4Ġ
wai4Ġjiao1Ġ bu4Ġ
c Ġ
ĠĠĠ ran2Ġ
wei4Ġ xin1Ġ
Ġ po4Ġ
jian1Ġ chi2Ġ
ya4Ġ li4Ġshan1Ġda4Ġ
xu3Ġ ke3Ġ
shi4Ġ ni2Ġ
jiang1Ġ zai4Ġ
er4Ġ yue4Ġ
da2Ġ er3Ġ
ban4Ġ li3Ġ
Ġjia1Ġ na2Ġda4Ġ
n en4Ġ
deĠ yi2Ġ
hu ang3Ġ
gong1Ġzuo4Ġ shi4Ġ
Ġjia1Ġ ru4Ġ
9 9
deĠ wu3Ġ
ĠĠĠ jiao1Ġtong1Ġ
xian4Ġ cheng2Ġ
tai4Ġ ziĠ
fei4Ġ yong4Ġ
fa1Ġsheng1Ġ zai4Ġ
Ġ diao4Ġ
1 4Ġnian2Ġ
gao1Ġ da2Ġ
che4Ġ tui4Ġ
ĠĠĠC h
yi1Ġ mei2Ġ
kong1Ġ xi2Ġ
Ġ wan3Ġ
yi4Ġ dian3Ġ
shang4Ġ zhen4Ġ
fu2Ġ deĠ
shen3Ġ pan4Ġ
Ġsi4Ġ chuan1Ġ
A C
te4Ġ qu1Ġ
qing2Ġ xu4Ġ
A P
Ġ chun1Ġ
leĠ xu3Ġduo1Ġ
zhi2Ġ zheng4Ġ
she4Ġji4Ġ deĠ
xian4Ġ shi4Ġ
Ġc nĠ
s ao1Ġ
p a2Ġ
shi2Ġ yong4Ġ
shu4Ġ mu4Ġ
Ġtai2Ġ bei3Ġ
zhong1Ġ wei4Ġ
fu4Ġ shu1Ġji4Ġ
diao4Ġkuai4Ġ yi1Ġxiao3Ġshi2Ġ
fu2Ġ zhou1Ġ
Ġwei4Ġ UTCĠ
wei3Ġyuan2Ġhui4Ġ wei3Ġyuan2Ġ
da4Ġshi3Ġ guan3Ġ
Ġ mi4Ġ
deĠ guan1Ġxi4Ġ
gong1Ġ jiao1Ġ
lu4Ġ kou3Ġ
Ġch e4Ġ
Ġji2Ġ UTCĠ
she4Ġyou3Ġ xia4Ġling4Ġshi2Ġjian1Ġ
deĠshi2Ġqu1Ġwei4Ġ UTCĠ
Ġer2Ġgai1Ġdi4Ġ suo3Ġcai3Ġyong4Ġ
Ġtong2Ġshi2Ġgai1Ġdi4Ġ she4Ġyou3Ġxia4Ġling4Ġshi2Ġjian1Ġ
Ġer2Ġgai1Ġdi4Ġsuo3Ġcai3Ġyong4Ġ deĠshi2Ġqu1Ġwei4ĠUTCĠ
4 7Ġ
lu4Ġ zhi4Ġ
dai4Ġ ma3Ġ
jiao4Ġ shi4Ġ
niao3Ġ lei4Ġ
wei2Ġ fan3Ġ
shu4Ġ yu3Ġ
jie1Ġ ren4Ġ
yuan2Ġ wei4Ġ
qu1Ġ jian1Ġ
kuo4Ġ jian4Ġ
Ġfu2Ġ jian4Ġ
Ġ fa1Ġxing2Ġ
fang2Ġ zhi3Ġ
Ġshan1Ġ dong1Ġ
ti2Ġ yi4Ġ
Ġ199 7Ġnian2Ġ
Ġsai4Ġ ji4Ġ
deĠ wai4Ġ
miao2Ġ hui4Ġ
deĠyuan2Ġ yin1Ġ
bing4Ġ qie3Ġ
fu2Ġ de2Ġ
zu2Ġqiu2Ġ ju4Ġle4Ġbu4Ġ
gan4Ġ bu4Ġ
gao1Ġyu2Ġ hai3Ġping2Ġmian4Ġ
D ĠĠĠ
pai2Ġhang2Ġ bang3Ġ
deĠ dian4Ġ
Ġzhi1Ġ chi2Ġ
qu1ĠdeĠ mian4Ġji1Ġwei4Ġ
suo3Ġchu4ĠdeĠ hai3Ġba2Ġwei4Ġ
suo3Ġchu4ĠdeĠhai3Ġba2Ġwei4Ġ gao1Ġyu2Ġhai3Ġping2Ġmian4Ġ
l eng2Ġ
sheng1Ġ ji1Ġ
bi3Ġli4Ġ shi2Ġ
5 0Ġnian2Ġ
ke4Ġ li3Ġsi1Ġ
te4Ġ er3Ġ
Ġt ang1Ġ
xing2Ġ zhuang4Ġ
Ġri4Ġ jun1Ġ
zhu3Ġyi4Ġ deĠ
bang4Ġ qiu2Ġ
yi4Ġ ti2Ġ
chuang4Ġ xin1Ġ
wei2Ġ ke4Ġ
jiu4Ġ hui4Ġ
u Ġ
Ġdan4Ġ qi2Ġ
hao4Ġ wei4Ġ
chuang4Ġ shi3Ġ
kao4Ġ jin4Ġ
Ġ za2Ġzhi4Ġ
da4Ġ shi1Ġ
ke3Ġ zai4Ġ
Ġs ang1Ġ
Ġhuo4Ġ shi4Ġ
Ġwo3Ġ menĠ
.. .
xie2Ġ ding4Ġ
Ġliang3Ġ ge4Ġ
yi1Ġ zhou1Ġ
da4Ġ ge2Ġming4Ġ
jia1Ġ su4Ġ
te4Ġ dian3Ġ
yan3Ġ hua4Ġ
zai4Ġ19 4
ren4Ġ ke3Ġ
ku i1Ġ
wang2Ġ zi3Ġ
Ġying1Ġ wen2Ġ
liang3Ġ wei4Ġ
6 7
i ch
fu2Ġ li4Ġ
mian4Ġ ti3Ġ
wang2Ġ shi4Ġ
Ġji2Ġ bei3Ġmei3Ġ
18 8
Ġs uo1Ġ
Ġqian2Ġ long2Ġ
3 00Ġ
Ġ ning2Ġ
deĠ nan2Ġ
xian4Ġ yu2Ġ
zhi1Ġ chu4Ġ
chao2Ġ ting2Ġ
15 0Ġ
B C
yi1Ġ lang3Ġ
fen1Ġ zhi1Ġyi1Ġ
long2Ġ deĠ
ar k
gong1Ġyuan2Ġ qian2Ġ
nian2Ġ lai2Ġ
yu4Ġ deĠ
tian1Ġ tang2Ġ
l uan2Ġ
Ġ mu3Ġqin1Ġ
gong1Ġ qing3Ġ
zhi1Ġ ji4Ġ
shou3Ġ shu4Ġ
chuan2Ġ zhi1Ġ
chu1Ġxian4Ġ leĠ
bu4Ġ bian4Ġ
Ġs ong1Ġ
ge1Ġ ci2Ġ
cai2Ġ chan3Ġ
Ġdao4Ġ leĠ
Ġ ya3Ġ
2Ġ hao4Ġ
ji2Ġ jiang1Ġ
Ġg ou4Ġ
bian1Ġ deĠ
Ġ199 4Ġnian2Ġ
ti4Ġ dai4Ġ
pi ao1Ġ
Ġzhu n3Ġ
xiang1Ġtong2Ġ deĠ
d ou3Ġ
zhi1Ġ di4Ġ
xuan3Ġ chu1Ġ
na4Ġ ru4Ġ
gu3Ġ dian3Ġ
zhe4Ġjiang1Ġ sheng3Ġ
xun2Ġyang2Ġ jian4Ġ
di2Ġ ren2Ġ
ĠĠĠ zheng4Ġ
di4Ġ zai4Ġ
Ġg u1Ġ
zhang3Ġ da2Ġ
nuo4Ġ fu1Ġ
Ġ199 2Ġnian2Ġ
shi4Ġ pin2Ġ
yi1Ġ bu4Ġfen4Ġ
cheng2Ġ jiu4Ġ
jin1Ġ shan1Ġ
cheng1Ġ hu1Ġ
hu4Ġ xiang1Ġ
tui1Ġ jian4Ġ
qie4Ġ er3Ġ
tu i3Ġ
1 1Ġnian2Ġ
n d
Ġ Y
Ġ 2Ġyue4Ġ
Ġdong1Ġ jing1Ġ
zai4Ġ19 6
Ġji ao3Ġ
Ġh u1Ġ
qing1Ġ xiang4Ġ
he2Ġ ma3Ġ
er3Ġ dun4Ġ
she4Ġ qun2Ġ
ying3Ġ shi4Ġ
xing1Ġ deĠ
gen1Ġ sui2Ġ
ju4Ġ chang3Ġ
zao4Ġ cheng2ĠdeĠ
pei4Ġ zhi4Ġ
xue2Ġ xi4Ġ
zhen4Ġ qu1ĠdeĠmian4Ġji1Ġwei4Ġ
rong2Ġ he2Ġ
jun4Ġ gong1Ġ
T ub
qu1Ġ fen1Ġ
shu1Ġ chu1Ġ
kai1Ġshi3Ġ zai4Ġ
5 ĠĠĠ
da4Ġ ban3Ġ
Ġzh an1Ġ
ti2Ġ chu1ĠdeĠ
suo3Ġyou3Ġ deĠ
1 7Ġnian2Ġ
xu an4Ġ
guan3Ġ zhi4Ġ
deĠ gu4Ġshi4Ġ
yi1Ġ xi4Ġlie4Ġ
suo3Ġ wei4Ġ
bao3Ġ xian3Ġ
xuan1Ġ cheng1Ġ
zhi4Ġzuo4Ġ deĠ
pei2Ġ yang3Ġ
5 3Ġ
yu4Ġ ji4Ġ
Ġ199 6Ġnian2Ġ
shi2Ġji4Ġ shang4Ġ
Ġ xia2Ġ
bu4Ġ lai2Ġ
dong4Ġ deĠ
shui3Ġ li4Ġ
shang1Ġ wang2Ġ
Ġxian1Ġ hou4Ġ
Ġzheng3Ġ ge4Ġ
ĠĠĠ ji2Ġ
ĠĠĠ tai2Ġwan1Ġ
gong1Ġ wu4Ġ
Ġc ui1Ġ
fang1Ġmian4Ġ deĠ
Ġsui2Ġ zheĠ
zi3Ġ nv3Ġ
Ġjie2Ġ zhi4Ġ
b aĠ
hua4Ġ jia1Ġ
yi3Ġ dong1Ġ
zong3Ġ cai2Ġ
di4Ġyi1Ġ wei4Ġ
shang4Ġ xian4Ġ
fei1Ġ fa3Ġ
zi1Ġ zhu4Ġ
shang1Ġ dian4Ġ
xun2Ġ qiu2Ġ
u sĠĠĠ
chang2Ġ wu4Ġ
ge2Ġ er3Ġ
Ġp ei2Ġ
xi a1Ġ
qu1Ġ nei4Ġ
fa3Ġ ling4Ġ
tu2Ġ xiang4Ġ
ai4Ġ qing2Ġ
shi4Ġ ren2Ġ
cheng2Ġ nian2Ġ
yan2Ġ zhi4Ġ
wei3Ġ tuo1Ġ
yue1Ġ you3Ġ
qun2Ġ zhong4Ġ
zui4Ġ di1Ġ
er4Ġ zhan4Ġ
zong3Ġ jian1Ġ
Ġmai4Ġ ke4Ġ
ba1Ġ la1Ġ
Ġer2Ġ bu2Ġshi4Ġ
Ġwei4Ġyu2Ġ gai1Ġ
Ġtou4Ġ guo4Ġ
shi2Ġ xing4Ġ
zi4Ġ wo3Ġ
sh i
ĠĠĠ zhu3Ġyao4Ġ
er4Ġ ren2Ġ
si4Ġ hu1Ġ
mo2Ġ ni3Ġ
Ġxin1Ġ wen2Ġ
d uo4Ġ
jing3Ġ guan1Ġ
Ġtong2Ġ yang4Ġ
lao3Ġ shi1Ġ
1 3Ġnian2Ġ
r am
cheng2Ġ zhang3Ġ
zhong1Ġguo2Ġ ren2Ġmin2Ġjie3Ġfang4Ġjun1Ġ
Ġzhe4Ġ yang4Ġ
zheng1Ġ qu3Ġ
m an
ti3Ġ zhi4Ġ
fu1Ġ fu4Ġ
N A
te4Ġ xing4Ġ
dan1Ġ yi1Ġ
tong1Ġ zhi1Ġ
zhi4Ġ pian4Ġ
ti v
qing2Ġ jie2Ġ
zhan1Ġ mu3Ġsi1Ġ
gu3Ġfen4Ġ you3Ġxian4Ġgong1Ġsi1Ġ
you3Ġ xie1Ġ
xing2Ġ ren2Ġ
Ġming2Ġ zhi4Ġ
0 1Ġ
6 2Ġ
zhong1Ġ jiang4Ġ
xiang1Ġ zhen4Ġ
shou3Ġ xian1Ġ
deng3Ġ ji2Ġ
Ġ199 3Ġnian2Ġ
gu3Ġ la1Ġ
bo1Ġ shi4Ġ
qi2Ġ deĠ
Ġxi1Ġ bei3Ġ
jiang1Ġsu1Ġ sheng3Ġ
Ġ niu3Ġyue1Ġ
yuan4Ġ yi4Ġ
fu3Ġ zhu4Ġ
7Ġyue4Ġ 1Ġri4Ġ
ec tion
di4Ġ jiu3Ġ
can1Ġ shu4Ġ
rong2Ġ na4Ġ
yu4Ġ ce4Ġ
Ġzhe4Ġ ci4Ġ
bian1Ġ yuan2Ġ
fang2Ġ kong1Ġ
pan4Ġ luan4Ġ
1 6Ġnian2Ġ
ze2Ġ zai4Ġ
luo4Ġ cheng2Ġ
luo4Ġ fa2Ġ
zong1Ġ yi4Ġ
Ġchu1Ġ sheng1Ġyu2Ġ
Ġ pai4Ġ
Ġ li4Ġshi3Ġ
Ġ yuan3Ġ
qing1Ġ chu3Ġ
you2Ġxi4Ġ deĠ
ĠĠĠ fu4Ġ
mei3Ġ yuan2ĠdeĠ
de2Ġdao4Ġ leĠ
a mi
e ar
ĠĠĠ ri4Ġben3Ġ
zheng4Ġ que4Ġ
guan1Ġ kan4Ġ
duo1Ġ wei4Ġ
z Ġ
lie4Ġ chu1Ġ
You Tub
3 9Ġ
e tĠĠĠ
ĠĠĠ jin4Ġ
ji2Ġ ren2Ġ
si1Ġ bao3Ġ
ren4Ġ wei4Ġ
Ġpu2Ġ tao2Ġ
b ao2Ġ
hai3Ġ shang4Ġ
fang4Ġ zai4Ġ
Ġta1Ġmen Ġzai4Ġ
b Ġ
di4Ġ shi4Ġ
yue4Ġ lai2Ġyue4Ġ
shang1Ġ ren2Ġ
you2Ġtai4Ġ ren2Ġ
se4Ġ fu1Ġ
bu3Ġ chong1Ġ
deĠ hou4Ġ
ren2Ġ ci4Ġ
deĠyi1Ġ tiao2Ġ
qiao2Ġ liang2Ġ
Ġji4Ġ zai3Ġ
Ġ194 5Ġnian2Ġ
Ġ ji4Ġhua4Ġ
he2Ġ li3Ġ
yi1Ġ qie4Ġ
18 7
ren4Ġ qi1Ġ
lai2Ġ na4Ġ
shou3Ġ duan4Ġ
lang3Ġ pu3Ġ
t u4Ġ
tong2Ġ zhi4Ġ
ban1Ġ ci4Ġ
Ġti ng1Ġ
huo4Ġ sheng4Ġ
ĠĠĠ200 5Ġnian2Ġ
Ġbing4Ġ wei4Ġ
xiao4Ġ li4Ġyu2Ġ
tian1Ġ qi4Ġ
zhong1Ġguo2Ġ deĠ
yi1Ġ xiang4Ġ
mi4Ġ si1Ġ
zi3Ġ dan4Ġ
s s
Ġ f
yu2Ġ lei2Ġ
di e1Ġ
lin2Ġ jin4Ġ
wu3Ġ ge4Ġ
Ġer2Ġ fei1Ġ
jin4Ġxing2Ġ deĠ
ĠĠĠ mu4Ġqian2Ġ
cheng2Ġ fen4Ġ
xing4Ġ he2Ġ
la1Ġ ji1Ġ
tan4Ġ xian3Ġ
chuan2Ġtong3Ġ deĠ
si4Ġchuan1Ġ sheng3Ġ
5 7
guo2Ġ dao4Ġ
yi1Ġ ren2Ġ
bo1Ġ er3Ġ
su1Ġ dan1Ġ
Ġgong4Ġ tong2Ġ
ĠĠĠ jia1Ġting2Ġ
zhuan4Ġ deĠ
ji2Ġ ti3Ġ
liu2Ġ chuan2Ġ
6 1Ġ
Ġ qiu2Ġ
ĠĠĠ fu2Ġ
xi1Ġ shou1Ġ
sai4Ġ deĠ
yong3Ġ jiu3Ġ
jian4Ġli4Ġ leĠ
wu2Ġren2Ġ ji1Ġ
huan4Ġ cheng2Ġ
gong4Ġhe2Ġ dang3Ġ
B S
ju4Ġ bei4Ġ
ju4Ġ luo4Ġ
ci4Ġ yu2Ġ
zhe4Ġ shi4Ġ
Ġbu4Ġ tong2Ġ
Ġ lei1Ġ
zh ai3Ġ
li4Ġ ke4Ġ
gong1Ġ zhan4Ġ
zhi4Ġzuo4Ġ ren2Ġ
ĠĠĠ ge4Ġren2Ġ
ri4Ġ chang2Ġ
hang2Ġ ye4Ġ
gei3Ġ leĠ
nei4Ġ di4Ġ
5 1Ġ
qi2Ġ zai4Ġ
lu4Ġ shang4Ġ
Ġch u4Ġ
chu4Ġ zhang3Ġ
wang4Ġ yuan3Ġ
ji1Ġ fen1Ġ
zheng4Ġ mian4Ġ
yi2Ġ ci4Ġshi4Ġjie4Ġda4Ġzhan4Ġ
Ġshi4Ġ wei4Ġ
liang3Ġ ce4Ġ
ying2Ġ ye4Ġ
hong2Ġ jun1Ġ
Ġ mian4Ġ
Ġ qing3Ġ
fa3Ġ yu3Ġ
huo4Ġ wu4Ġ
chao1Ġ yue4Ġ
hao3Ġ ping2Ġ
tu1Ġ chu1Ġ
5 4Ġ
I C
Ġ shou3Ġci4Ġ
yan3Ġ jiang3Ġ
t o
zhi4Ġ 198
qu1Ġ zhu2Ġ
ye3Ġ bu4Ġ
z ei2Ġ
ci3Ġ tong2Ġshi2Ġ
nv e4Ġ
hu1Ġ yu4Ġ
zhi1Ġchi2Ġ zhe3Ġ
lu4Ġ deĠ
yuan2Ġ he2Ġ
ren4Ġ tong2Ġ
zhi2Ġ bo1Ġ
gu3Ġ li4Ġ
ren4Ġwei2Ġ shi4Ġ
fen3Ġ si1Ġ
Ġ you1Ġ
ĠĠĠ andĠĠĠ
zhong1Ġ shu1Ġ
zhan4Ġ shu4Ġ
ren4Ġ zheng4Ġ
jin3Ġ you3Ġ
ĠĠĠran2Ġ er2Ġ
ĠĠĠ in
she4Ġ jiao1Ġ
zhou1Ġ zhang3Ġ
pu3Ġ lu3Ġ
she4Ġ xian2Ġ
zhu4Ġ shou3Ġ
shang4Ġ su4Ġ
yang2Ġ xian4Ġ
ĠĠĠ p
ĠĠĠ formulaĠ
da4Ġ qi4Ġ
wu3Ġ yue4Ġ
ka3Ġ la1Ġ
ping2Ġ deng3Ġ
Ġzhao1Ġ he2Ġ
jue2Ġ shi4Ġ
zhe4Ġ ci4Ġ
xia4Ġxia2Ġ yi3Ġxia4Ġ
ĠĠĠ dui4Ġ
ren4Ġ jiao4Ġ
qian2Ġ hou4Ġ
qi4Ġ ti3Ġ
ta3Ġ er3Ġ
Ġ199 5Ġnian2Ġ
Ġ ling3Ġ
deĠ shi1Ġ
mo4Ġ er3Ġ
zao3Ġ shang4Ġ
Ġshi4Ġyi2Ġge4Ġ wei4Ġyu2Ġ
ĠĠĠ jin1Ġ
li4Ġ te4Ġ
zhu3Ġ li4Ġ
fu2Ġ zhuang1Ġ
tie3Ġlu4Ġ che1Ġzhan4Ġ
guan1Ġ jian4Ġ
fen1Ġ xiao4Ġ
na4Ġ de2Ġ
8Ġ ge4Ġ
zhu2Ġ bu4Ġ
yun3Ġ shi2Ġ
tai2Ġbei3Ġ shi4Ġ
a1Ġ gen1Ġting2Ġ
zhong4Ġ liang4Ġ
nv3Ġ hai2Ġ
qian3Ġ ze2Ġ
Ġ lian2Ġhe2Ġ
deĠ bu4Ġfen4Ġ
e2Ġ guo2Ġ
jiao4Ġ da4Ġ
shou1Ġ fei4Ġ
Ġcheng2Ġ gong1Ġ
luo2Ġma3Ġ ni2Ġya4Ġ
yi3Ġ shang4ĠdeĠ
zuo4Ġ ye4Ġ
ping2Ġ jie4Ġ
xia4Ġ zai4Ġ
zhu4Ġ yu2Ġ
luo2Ġ fu1Ġ
xiang4Ġ shi4Ġ
jiao4Ġ di1Ġ
xiang3Ġ fa3Ġ
tian1Ġwen2Ġ tai2Ġ
zai4Ġ xin1Ġ
xing2Ġ che1Ġ
ben3Ġ xian4Ġ
cai2Ġ pan4Ġ
Ġ198 5Ġnian2Ġ
Ġ202 5Ġnian2Ġ
a yĠ
ying4Ġ dui4Ġ
ju3Ġ zhen4Ġ
Ġyu2Ġ 199
Ġkang1Ġ xi1Ġ
jia1Ġ li4Ġya4Ġ
mu4Ġ ni2Ġ
zong3Ġ hui4Ġ
tuo1Ġ li2Ġ
Ġp an1Ġ
5 9
e tĠ
si1Ġ di4Ġ
shou3Ġ fu3Ġ
han4Ġ zi4Ġ
Ġzui4Ġ jia1Ġ
tian2Ġ jing4Ġ
7 5Ġ
zhong1Ġ hai3Ġ
cheng2Ġ nuo4Ġ
mei3Ġguo2Ġ deĠ
xi2Ġ guan4Ġ
zhen1Ġ cha2Ġ
ju1Ġzhu4Ġ zai4Ġ
da4Ġ dui4Ġ
zhu3Ġ quan2Ġ
zhong4Ġ yi4Ġyuan4Ġ
zi1Ġ xun2Ġ
chong1Ġ man3Ġ
ruan3Ġ ti3Ġ
can1Ġ yi4Ġyuan4Ġ
zhi3Ġhui1Ġ guan1Ġ
Ġ guang3Ġdong1Ġ
you2Ġ ke4Ġ
ren2Ġ menĠ
zhi1Ġ yi4Ġ
qu1Ġ shi4Ġ
ying1Ġ jun1Ġ
bing1Ġ tuan2Ġ
a w
Ġ hua4Ġxue2Ġ
Ġta1Ġ yi3Ġ
xuan3Ġ xiu4Ġ
Ġjiang1Ġ su1Ġ
bu4ĠdeĠ cun1Ġzhuang1Ġ
7 2Ġ
he2Ġ he2Ġ
zhong1Ġ duan4Ġ
ming2Ġ shi4Ġ
sheng1Ġ cheng2Ġ
yin4Ġ shua1Ġ
0 ĠĠĠ
yi1Ġ zhi4Ġ
shan1Ġ deĠ
Ġyi3Ġ bian4Ġ
Ġyi4Ġ shi4Ġ
6 9
19 Ġshi4Ġji4Ġ
liu2Ġ qiu2Ġ
Ġ199 0Ġnian2Ġ
rang4Ġ ta1Ġ
ĠĠĠ gu4Ġshi4Ġ
da4Ġ di4Ġ
shou3Ġ zhong1Ġ
Ġzhi3Ġ zai4Ġ
fu2Ġjian4Ġ sheng3Ġ
cong2Ġ wei4Ġ
Ġcheng2Ġ yuan2Ġ
Ġge1Ġ qu3Ġ
wei4Ġ he2Ġ
de2Ġ si1Ġ
ta3Ġ ni2Ġ
bai3Ġ ke1Ġ
fa2Ġ li4Ġya4Ġ
xuan3Ġju3Ġ zhong1Ġ
3 4
deĠ ji4Ġ
xiu1Ġ dao4Ġ
gan3Ġ jue2Ġ
mao2Ġ dun4Ġ
zhi1Ġ chu1Ġ
shou3Ġ ge1Ġqu3Ġ
na4Ġ deĠ
Ġ199 1Ġnian2Ġ
l a3Ġ
Ġ yan4Ġ
li4Ġ pu3Ġ
shu i2Ġ
bian1Ġ wei4Ġ
Ġ Q
Ġ shou4Ġdao4Ġ
ĠĠĠ 17
zhong1Ġ fa1Ġxian4Ġ
te4Ġ li3Ġ
huo4Ġ yun4Ġ
shang1Ġ hai4Ġ
cai2Ġ wu4Ġ
xiao1Ġ fang2Ġ
gan3Ġ lan3Ġ
tao2Ġ wan3Ġ
fan2Ġ zhi2Ġ
shi4Ġ ge4Ġ
Ġt ui4Ġ
Ġd uo2Ġ
guo4Ġ deĠ
qi3Ġ su4Ġ
Ġzhi3Ġ chu1Ġ
yu2Ġ201 6Ġnian2Ġ
Ġ ì
nv3Ġ wang2Ġ
huo3Ġ ban4Ġ
6 3Ġ
ĠĠĠ shi3Ġyong4Ġ
yi1Ġ lai4Ġ
ji2Ġ er3Ġ
yan2Ġ xu4Ġ
Ġc un1Ġ
zhe4Ġ yang4ĠdeĠ
ming2Ġ ci2Ġ
leĠ gai1Ġ
xu4Ġ lie4Ġ
hui4Ġ hua4Ġ
jiang1Ġ ta1Ġ
200 0Ġ
luo4Ġ si1Ġ
hu4Ġ dong4Ġ
Ġli4Ġ shu3Ġ
lu4Ġyi4Ġ si1Ġ
Ġma3Ġlai2Ġ xi1Ġya4Ġ
bu4Ġ fu4Ġ
bu4Ġ shang4Ġshu1Ġ
sheng1Ġ cun2Ġ
sai4Ġ zhong1Ġ
jiao1Ġ cha1Ġ
Ġyi3Ġ xia4Ġ
hui2Ġ yi4Ġ
xing2Ġ hao4Ġ
qu1Ġ bie2Ġ
Ġxian4Ġ dai4Ġ
Ġer2Ġgai1Ġ di4ĠdeĠ
zheng4Ġ bian4Ġ
kai1Ġ gong1Ġ
jian3Ġ jie4Ġ
fen1Ġbie2Ġ wei4Ġ
zhan4Ġ lie4Ġ
bao3Ġ zheng4Ġ
Ġli4Ġ ren4Ġ
l an
ju4Ġ deĠ
Ġyue4Ġ nan2Ġ
dou1Ġ bei4Ġ
Ġzhi4Ġ yu2Ġ
wei2Ġ xiu1Ġ
lan2Ġ se4Ġ
gai3Ġ zhi4Ġwei4Ġ
dong3Ġ shi4Ġ
Ġ X
Ġ men2Ġ
zh e1Ġ
ren2Ġ quan2Ġ
chang3Ġ he2Ġ
luo4Ġ ke4Ġ
g a2Ġ
zhong4Ġ shi4Ġ
th Ġ
Ġt an4Ġ
zu2Ġ deĠ
po r
cheng2Ġli4Ġ hou4Ġ
ĠĠĠS t
Ġ198 8Ġnian2Ġ
Ġguan1Ġ fang1Ġ
s tĠĠĠ
Ġb u3Ġ
shu1Ġ niu3Ġ
jia4Ġ gou4Ġ
Ġyi4Ġ zhi2Ġ
kao3Ġ shi4Ġ
deĠcheng2Ġ ji4Ġ
Ġzhuan1Ġ ji2Ġ
0 0Ġnian2Ġ
bu4Ġ lie4Ġ
de2Ġ li4Ġ
lu4Ġ yin1Ġ
wu3Ġ shi4Ġ
xie2Ġ shang1Ġ
Ġda4Ġ duo1Ġshu4Ġ
zi4Ġxing2Ġ che1Ġ
ĠĠĠgai4Ġ yao4Ġ
he2Ġ suan1Ġ
wu1Ġ si1Ġ
ĠÃ ©
7 8
p ao1Ġ
yi1Ġ tian1Ġ
zui4Ġ wei4Ġ
zuo3Ġ yi4Ġ
ation Ġ
jie1Ġ ti4Ġ
er4Ġ ji2Ġ
e st
Ġ ren2Ġmin2Ġ
Ġ nong2Ġ
xian4Ġ zhi1Ġxian4Ġ
jun1Ġ ren2Ġ
si4Ġ shi4Ġ
xian4Ġ xing4Ġ
xing2Ġ wei4Ġ
dong1Ġ ya4Ġ
kang1Ġ xi1Ġ
Ġshi4Ġyi1Ġ bu4Ġ
Ġ195 0Ġnian2Ġ
shi4Ġ ying4Ġ
cheng2Ġ shi4ĠdeĠ
jia1Ġ he2Ġ
duo1Ġ yang4Ġ
shou4Ġ hai4Ġ
da4Ġ li3Ġ
ji4Ġ hou4Ġ
de2Ġ jun1Ġ
she4Ġ zai4Ġ
Ġyu2Ġ le4Ġ
Ġk ong4Ġ
h en4Ġ
Ġ xuan3Ġ
ĠĠĠ jin3Ġguan3Ġ
zheng4Ġ quan4Ġ
tong1Ġ wang3Ġ
18 6
Ġzhi4Ġ jin1Ġ
shan3Ġ xi1Ġsheng3Ġ
re4Ġdai4Ġ feng1Ġbao4Ġ
o ng
deĠ qing2Ġkuang4Ġ
ren2Ġ dui4Ġ
hou4Ġ fang1Ġ
hen3Ġ shao3Ġ
Ġquan2Ġ qiu2Ġ
mou2Ġ sha1Ġ
fou3Ġ ren4Ġ
5 6
ĠĠĠ zhu4Ġ
chong2Ġ fan3Ġ
Ġk an4Ġ
Ġsheng1Ġ zhang3Ġ
gong1Ġ gao4Ġ
ke4Ġ li4Ġ
fu2Ġ li3Ġ
zu3Ġ fu4Ġ
gai3Ġ cheng1Ġ
geng4Ġ duo1ĠdeĠ
Ġjiang1Ġ qi2Ġ
si Ġ
zhu3Ġ dao3Ġ
ke1Ġ hui4Ġshi4Ġ
qing2Ġ gan3Ġ
Ġdi4Ġ si4Ġ
zhuang4Ġ ji1Ġ
3 3
suo3Ġ xu1Ġ
wu3Ġ dao3Ġ
deĠdi4Ġ san1Ġ
chong1Ġ ji1Ġ
jing1Ġ you2Ġ
quan2Ġ shi4Ġ
fu2Ġ lei2Ġ
qing1Ġ hua2Ġ
sai1Ġ na4Ġ
Ġquan2Ġ zhang3Ġ
Ġzhong1Ġgong4Ġ zhong1Ġyang1Ġ
Ġta1Ġ ren4Ġwei2Ġ
bian4Ġ huan4Ġ
luo4Ġfa2Ġ ke4Ġ
Ġ 9Ġ
Ġ xue2Ġsheng1Ġ
bu4Ġ li4Ġ
shi2Ġ zai4Ġ
dui4Ġ zhen4Ġ
12Ġyue4Ġ 31Ġri4Ġ
reng2Ġ zai4Ġ
zhu3Ġchi2Ġ ren2Ġ
nan4Ġ min2Ġ
chai2Ġ you2Ġ
xing2Ġ zou3Ġ
ming2Ġ jin4Ġshi4Ġ
te4Ġ lan2Ġ
bu4Ġ jia1Ġ
gong1Ġ da3Ġ
fa1Ġ jue2Ġ
ceng2Ġ deĠ
Ġ niu2Ġ
tion Ġ
Ġshi4Ġ xiang1Ġgang3Ġ
ying1Ġ bang4Ġ
zhen4Ġ ya1Ġ
xiang3Ġ yao4Ġ
zhen1Ġ zheng4Ġ
ĠĠĠ nan2Ġ
di4Ġ chan3Ġ
jing4Ġ ji4Ġ
p p
ji 3Ġnian2Ġ
ĠĠĠ tian1Ġ
you3Ġ xu3Ġduo1Ġ
Ġt un2Ġ
tong2Ġ wei4Ġ
zhuang4Ġ bing4Ġdu2Ġ
si1Ġ li3Ġ
xia4Ġ yi1Ġ
jing4Ġ tou2Ġ
si3Ġ xing2Ġ
8 8
lian2Ġ deĠ
jiao4Ġ zong1Ġ
gao1Ġ xiao4Ġ
ku a1Ġ
ding4Ġ qi1Ġ
tai2Ġ zhong1Ġ
fang2Ġ jian1Ġ
Ġ198 9Ġnian2Ġ
Ġgai3Ġ wei2Ġ
jie2Ġdu4Ġ shi3Ġ
O ĠĠĠ
Ġwu2Ġ fa3Ġ
wang4Ġyuan3Ġ jing4Ġ
ĠĠĠ ling4Ġwai4Ġ
da4Ġ jie1Ġ
Ġd uan4Ġ
wei2Ġ ji1Ġ
dan1Ġ yuan2Ġ
bai3Ġ wan4Ġ
ĠĠĠ bei4Ġ
shi2Ġ ke4Ġ
jiang1Ġ hu4Ġ
ba1Ġ er3Ġ
xing1Ġ xi4Ġ
mo2Ġ te4Ġ
jiang4Ġ yu3Ġ
lu3Ġ si1Ġ
sheng1Ġ ren4Ġ
yu4Ġ dao4Ġ
zheng1Ġ fu2Ġ
su1Ġ wei2Ġai1Ġ
deĠ sheng4Ġ
jun1Ġ you3Ġ
duo1Ġ ren2Ġ
dong1Ġ xian4Ġ
wu2Ġxian4Ġ dian4Ġshi4Ġ
fu2Ġluo2Ġ li3Ġda2Ġ
Ġ xuan2Ġ
deĠ shui3Ġ
he2Ġ shang4Ġ
he2Ġ ta1ĠdeĠ
zhu3Ġ dong4Ġ
zhu3Ġ liu2Ġ
xu4Ġ shu4Ġ
6Ġ mi3Ġ
Ġli4Ġ yong4Ġ
sui2Ġ zheĠ
di1Ġ yu2Ġ
he2Ġ nan2Ġsheng3Ġ
zhi1Ġ fu3Ġ
hu4Ġ lian2Ġwang3Ġ
Ġg an4Ġ
ma3Ġ wei4Ġ
Ġbing4Ġ bei4Ġ
ran2Ġ liao4Ġ
on ĠĠĠ
lang2Ġ zhong1Ġ
dui4Ġ yuan2Ġ
ju4Ġ da4ĠdeĠ
ti2Ġ jiao1Ġ
dang4Ġ an4Ġ
hu2Ġ po1Ġ
xie3Ġ deĠ
pan4Ġ jue2Ġ
Ġ Ï
Ġ kou3Ġ
ĠĠĠ bei3Ġ
li3Ġ cheng2Ġ
jiao1Ġ jie4Ġ
qing2Ġ xing2Ġ
luo2Ġma3Ġ di4Ġguo2Ġ
sai1Ġer3Ġ wei2Ġya4Ġ
Ġguang1Ġ xu4Ġ
7 9
Ġzai4Ġ 199
fu2Ġ er3Ġ
ma3Ġ ke4Ġsi1Ġ
ying4Ġ ji2Ġ
xian4ĠdeĠyi2Ġge4Ġ fei1Ġjian4Ġzhi4Ġdi4Ġqu1Ġ
dui4Ġ zai4Ġ
wu4Ġ pin3Ġ
00Ġ ming2Ġ
diao1Ġ su4Ġ
wai4Ġ jie4Ġ
fei1Ġ er3Ġde2Ġ
shi4Ġyi1Ġ ming2Ġ
zai4Ġ bei3Ġjing1Ġ
7Ġ ge4Ġ
h e1Ġ
wang2Ġ wei4Ġ
ar dĠĠĠ
gang1Ġ qin2Ġ
o b
y p
li3Ġ xiang3Ġ
chu1Ġ sai4Ġ
xiang1Ġ ying4Ġ
gui4Ġ zhou1Ġ
Ġ198 3Ġnian2Ġ
zhi4Ġ xu4Ġ
Ġs ection
liu2Ġ liang4Ġ
sheng3Ġ dao4Ġ
jiu4Ġ zhi3Ġ
gai3Ġ jian4Ġ
Ġyuan2Ġ ben3Ġ
gan1Ġ su4Ġ
O N
shi2Ġ jian4Ġ
guo2Ġ yu3Ġ
cheng2Ġ du1Ġ
Ġjing3Ġ fang1Ġ
shi2Ġ wei4Ġ
dan1Ġ xin1Ġ
bao3Ġ an1Ġ
nv3Ġ zhu3Ġjue2Ġ
gan4Ġ xian4Ġ
Ġhan4Ġ zu2Ġ
Ġzh e2Ġ
yu3Ġ yin1Ġ
zhuan1Ġ yong4Ġ
6 ĠĠĠ
Ġ pai2Ġ
deĠ wei4Ġzhi4Ġ
fu4Ġ han4Ġ
gao1Ġ jia4Ġ
zhu3Ġ ti3Ġ
sheng3Ġ jie1Ġrang3Ġ
shu1Ġ zhong1Ġ
mei4Ġ mei4Ġ
li4Ġfa3Ġ hui4Ġ
Ġ bin1Ġ
yu2Ġ ci3Ġ
li3Ġ xue2Ġ
bei4Ġ gao4Ġ
W Ġ
ĠĠĠ yin1Ġ
xing2Ġ cheng2ĠdeĠ
fu2Ġ she4Ġ
tou2Ġ xian2Ġ
jiang3Ġ jin1Ġ
chan3Ġsheng1Ġ leĠ
yu2Ġ201 4Ġnian2Ġ
5 5Ġ
ge4Ġ ti3Ġ
jing3Ġ bao4Ġ
Ġ wan2Ġ
deĠ jue2Ġse4Ġ
zhan4Ġ ji4Ġ
san1Ġ zhong3Ġ
Ġyou2Ġ ci3Ġ
lei4Ġ xing2ĠdeĠ
rong2Ġ liang4Ġ
Ġji1Ġ hu1Ġ
ĠĠĠgen1Ġju4Ġ 2020Ġnian2Ġmei3Ġguo2Ġren2Ġkou3Ġpu3Ġcha2ĠdeĠshu4Ġju4Ġ
ch ong3Ġ
yi2Ġ ban4Ġ
cheng1Ġ hao4Ġ
he4Ġ se4Ġ
C ĠĠĠ
â Ĩ
shi4Ġ cong2Ġ
di4Ġ yu4Ġ
Ġc u4Ġ
jia1Ġru4Ġ leĠ
gu n4Ġ
yuan2Ġ li3Ġ
lian2Ġ zai3Ġ
fu4Ġze2Ġ ren2Ġ
00 Ġduo1Ġ
Ġao4Ġ men2Ġ
dong1Ġnan2Ġ ya4Ġ
shi4Ġ dui4Ġ
jia1Ġ yi3Ġ
mo4Ġ qi1Ġ
hang2Ġ ban1Ġ
lian4Ġ xi2Ġ
qi2Ġ hou4Ġ
qing1Ġ shao4Ġnian2Ġ
Ġlu2Ġ wa3Ġer3Ġsheng3Ġ
ĠĠĠ you2Ġxi4Ġ
wei2Ġ duo1Ġli4Ġya4Ġ
hui2Ġ he2Ġ
deng1Ġ ji4Ġ
n ĠĠĠ
yi4Ġ xi2Ġ
qiang2Ġ zhi4Ġ
pian4Ġ deĠ
zhi1Ġjia1Ġ ge1Ġ
Ġ zeng1Ġ
wei4Ġ ĠĠ
er2Ġ lai2Ġ
shi1Ġ gong1Ġ
ti2Ġ cai2Ġ
jia3Ġ she4Ġ
ĠĠĠ200 4Ġnian2Ġ
Ġ198 4Ġnian2Ġ
che4Ġ di3Ġ
cheng2Ġ shu2Ġ
fu2Ġ hua4Ġ
dong1Ġ ni2Ġ
ju2Ġ ju2Ġzhang3Ġ
Ġyi1Ġ zhong3Ġ
Ġjia1Ġ jing4Ġ
xiang2Ġ xi4Ġ
pai2Ġming2Ġ di4Ġ
zhi4Ġ shi4Ġ
xian4Ġ you3Ġ
ben3Ġ zhan4Ġ
zhun3Ġ que4Ġ
Ġtong2Ġshi2Ġ ye3Ġ
Ġyin1Ġwei4Ġ ta1Ġ
Ġ da4Ġxue2Ġ
fang1Ġ bian4Ġ
h e
Ġc un2Ġ
dong1Ġ ce4Ġ
pin3Ġ zhong3Ġ
pian4Ġ duan4Ġ
yu2Ġ201 5Ġnian2Ġ
can1Ġmou2Ġ zhang3Ġ
da4Ġ gong1Ġ
jiao4Ġ tu2Ġ
ge1Ġ er3Ġ
Ġdang1Ġ shi2ĠdeĠ
nong2Ġ chang3Ġ
yu2Ġ201 7Ġnian2Ġ
ai4Ġ de2Ġhua2Ġ
zhan4Ġ ting2Ġ
ge2Ġ shi4Ġ
chu1Ġxian4Ġ deĠ
yu2Ġ201 2Ġnian2Ġ
zeng1Ġjia1Ġ leĠ
nan2Ġji2Ġ zhou1ĠdeĠ
long2Ġjiang1Ġ sheng3Ġ
ĠĠĠ chen2Ġ
shi4Ġ jia1Ġ
dong4Ġ che1Ġ
ou r
hun4Ġ luan4Ġ
shu3ĠdeĠ zhi2Ġwu4Ġ
ĠĠĠ 1Ġ
yu3Ġ ta1Ġ
yan2Ġ an4Ġ
liang3Ġ tiao2Ġ
jian4Ġzhu4Ġ shi1Ġ
Ġling4Ġ yi4Ġfang1Ġmian4Ġ
zhan4Ġzheng1Ġ qi1Ġjian1Ġ
wei2Ġyi1Ġ deĠ
Ġhan tĠ
ge2Ġ lei1Ġ
ti3Ġ yan4Ġ
tong1Ġ yong4Ġ
shang1Ġ chang3Ġ
Ġ18 5
ĠĠĠ ping2Ġjia4Ġ
zai4Ġ zhong1Ġ
ji2Ġ si1Ġ
dian4Ġ zi
wai4Ġ guan1Ġ
yu2Ġ201 8Ġnian2Ġ
mi2Ġ ni3Ġ
m ao3Ġ
n ong4Ġ
Ġ bie2Ġ
zhan4Ġ ju4Ġ
ke4Ġ fu2Ġ
Ġhe2Ġ lan2Ġ
chou2Ġ bei4Ġ
xin1Ġguan1Ġ fei4Ġyan2Ġ
p eng4Ġ
ĠĠĠ hong2Ġ
xi1Ġ ce4Ġ
sheng1Ġ ge2Ġwei4Ġ
jing1Ġ du1Ġ
chang2Ġ sha1Ġ
huan2Ġ xing2Ġ
le4Ġ si1Ġtan3Ġ
ming2Ġ ju3Ġren2Ġ
zhu3Ġ guan3Ġ
Ġs e4Ġ
lun4Ġ tan2Ġ
zhan4Ġzheng1Ġ zhong1Ġ
deĠ quan2Ġ
gong1Ġ dian4Ġ
deĠcheng2Ġ zhen4Ġ
lu4Ġying3Ġ dai4Ġ
ĠĠĠ san1Ġ
er2Ġ zi
mei3Ġ ri4Ġ
shui3Ġ liang4Ġ
om p
kuang1Ġ jia4Ġ
P ro
xian4Ġ ji2Ġ
mei3Ġguo2Ġ ren2Ġ
po4Ġ lun2Ġ
Ġp an4Ġ
ming2Ġ lu4Ġ
jie1Ġ guan3Ġ
lei4Ġsi4Ġ deĠ
2 5Ġnian2Ġ
3Ġ hao4Ġ
ĠĠĠ chu2ĠleĠ
jia1Ġ xiang1Ġ
zhan4Ġ zhong1Ġ
wu3Ġ di4Ġ
chong2Ġ fu4Ġ
ĠĠĠ gu3Ġ
shi4Ġ yin1Ġwei4Ġ
si4Ġ da4Ġ
mo4Ġ de2Ġ
yin3Ġ zhong3Ġ
Ġgong1Ġ cheng2Ġ
na2Ġ po4Ġlun2Ġ
Ġ xi3Ġ
li4Ġ wei4Ġ
zheng4Ġ shi3Ġ
Ġzai4Ġ ci4Ġ
Ġpu2Ġtao2Ġ ya2Ġ
7 7
shi2Ġ ti3Ġ
you2Ġ qi2Ġ
dian4Ġ chi2Ġ
duo1Ġ er3Ġ
hang2Ġ zhou1Ġ
8Ġ mi3Ġ
dan4Ġ yao4Ġ
du1Ġ du1Ġ
Ġxian4Ġ wei4Ġ
yu4Ġ bei4Ġ
nei4Ġ meng2Ġgu3Ġ
luo2Ġ bo2Ġte4Ġ
ti2Ġchu1Ġ leĠ
Ġ w
deĠ cheng2Ġyuan2Ġ
xia4Ġ leĠ
kai1Ġ ban4Ġ
guo2Ġjia1Ġ gong1Ġyuan2Ġ
Ġchu1Ġ ren4Ġ
i f
wu4Ġ ti3Ġ
mo2Ġ fa3Ġ
da3Ġ po4Ġ
Ġti2Ġ chu1Ġ
c ai1Ġ
jia1Ġ er3Ġ
qu1Ġ he2Ġ
bei4Ġ fa1Ġxian4Ġ
fu4Ġ shi3Ġ
chi3Ġ cun4Ġ
yu2Ġ202 1Ġnian2Ġ
sheng3Ġ deĠ
yan3Ġ sheng1Ġ
zong3Ġ zhan4Ġ
ceng2Ġ shi4Ġ
zhan4Ġdou4Ġ ji1Ġ
hai3Ġba2Ġgao1Ġdu4Ġ wei4Ġ
a st
Ġ shao4Ġ
Ġ fan3Ġdui4Ġ
qian2Ġ shen1Ġ
ba1Ġ he4Ġ
Ġ198 6Ġnian2Ġ
chui2Ġ zhi2Ġ
dui4Ġ ta1Ġ
Ġg ao4Ġ
shou4Ġ sun3Ġ
shu1Ġ deĠ
ge1Ġ ge1Ġ
li4Ġfang1Ġ mi3Ġ
Ġshi4Ġ e2Ġluo2Ġsi1Ġ
ma3Ġ li4Ġya4Ġ
yao2Ġ gun3Ġ
ju1Ġmin2Ġ dian3Ġ
dang1Ġxuan3Ġ wei4Ġ
shi2Ġ li4Ġ
wei3Ġ fu4Ġshu1Ġji4Ġ
shi3Ġyong4Ġ zhe3Ġ
fa1Ġsheng1Ġ leĠ
6 5Ġ
Ġ xi2Ġ
zai4Ġ da4Ġ
Ġzh uo2Ġ
zhong4Ġ deĠ
bian1Ġ zu3Ġ
Ġliu2Ġ yu4Ġ
ji2Ġ qi2Ġta1Ġ
bing4Ġ shi4Ġ
yun4Ġ he2Ġ
tiao2Ġ kuan3Ġ
L E
zai4Ġ xi1Ġ
si1Ġ lan2Ġ
hua4Ġ gui1Ġ
ye3Ġ na4Ġ
tan4Ġ ce4Ġ
ling3Ġdao3Ġ deĠ
shuo4Ġshi4Ġ xue2Ġwei4Ġ
si1Ġ tuo1Ġ
shen1Ġ shang4Ġ
shen1Ġ wang2Ġ
gai3Ġ zhuang1Ġ
zhuan3Ġ wei2Ġ
song4Ġ dao4Ġ
hong1Ġzha4Ġ ji1Ġ
xiang1Ġ ji4Ġ
shun4Ġ xu4Ġ
ac e
qi2Ġzhong1Ġ yi2Ġge4Ġ
chuang4Ġzuo4Ġ deĠ
ao4Ġsi1Ġ ka3Ġ
ceng2Ġ shui3Ġyu4Ġ
zhan3Ġ xian4Ġ
zhuan3Ġ hui4Ġ
jiao4Ġyu4Ġ bu4Ġ
tan4Ġ suo3Ġ
Ġ000Ġ ren2Ġ
yu2Ġ202 2Ġnian2Ġ
Ġ fou3Ġ
zai4Ġ ying1Ġguo2Ġ
ze2Ġ you3Ġ
liang4Ġ xiang4Ġ
bian1Ġhao4Ġ wei4Ġ
ĠĠĠ 3Ġyue4Ġ
ĠĠĠ jing1Ġji4Ġ
ji1Ġ si1Ġtan3Ġ
Ġb ei1Ġ
qiang2Ġ deĠ
Ġci3Ġ ci4Ġ
zhuan4ĠdeĠ xiao3Ġxing2Ġxing1Ġ
e b
m er
li3Ġ you2Ġ
Ġs u2Ġ
qu3Ġ mu4Ġ
pai2Ġ lie4Ġ
suan4Ġ fa3Ġ
lai2Ġzi4Ġ yu2Ġ
ĠB Ġ
ji4Ġ si4Ġ
qing1Ġ dao3Ġ
ci3Ġ zhi1Ġwai4Ġ
xiao4Ġ lv4Ġ
nv3Ġ yan3Ġyuan2Ġ
Ġhe2Ġ nan2Ġ
xie2Ġ dai4Ġ
huo3Ġ che1Ġ
huo3Ġ zai1Ġ
ĠS Ġ
zu2Ġqiu2Ġ lian2Ġsai4Ġ
you2Ġ ren2Ġgong1Ġ
qian1Ġ yin3Ġ
gai3Ġ jin4Ġ
reng2Ġ you3Ġ
yu2Ġ201 3Ġnian2Ġ
n a3Ġ
e2Ġ wei4Ġ
ke3Ġ jian4Ġ
Ġwan4Ġ li4Ġ
ch Ġ
zai4Ġ ta1Ġ
shi2Ġ zhen1Ġ
shan1Ġ xi1Ġsheng3Ġ
long2Ġ cao3Ġ
jiu3Ġ deĠ
mao2Ġ ze2Ġdong1Ġ
Ġ195 8Ġnian2Ġ
v i
bu4Ġ qiang1Ġ
yu3Ġ zhi1Ġ
ke4Ġ xi1Ġ
dang1Ġ ri4Ġ
li2Ġ ziĠ
jian4Ġ shi4Ġ
ge2Ġ deĠ
oc k
l aĠ
jia1Ġ yi4Ġ
bing4Ġ wu2Ġ
kao3Ġ cha2Ġ
ĠĠĠ 2Ġ
zhi4Ġ li4Ġ
zhan4Ġ di4Ġ
ding1Ġ bao3Ġ
mie4Ġ jue2Ġ
yu2Ġ deĠ
jia1Ġ li3Ġ
quan2Ġ ti3Ġ
sai4Ġ che1Ġ
biao1Ġ ti2Ġ
lei2Ġ da2Ġ
Ġjing1Ġ chang2Ġ
fu4Ġ he2Ġ
nei4Ġ you3Ġ
xuan3Ġ min2Ġ
ping2Ġjun1Ġ hai3Ġba2Ġgao1Ġdu4Ġwei4Ġ
zhi4Ġ hui4Ġ
de2Ġ yi4Ġzhi4Ġ
jiang1Ġ nan2Ġ
na4Ġ si1Ġ
zi1Ġ sheng3Ġ
ĠI n
1 20
ĠĠĠ 5Ġyue4Ġ
shan1Ġ di4Ġ
fei1Ġ dan4Ġ
Ġzhan4Ġ dou4Ġ
lao2Ġ gong1Ġ
de2Ġ luo2Ġ
ke4Ġ hu4Ġ
shu4Ġ shi2Ġ
mei3Ġ tian1Ġ
duo1Ġ ming2Ġ
ge2Ġ li3Ġ
zhong1Ġxin1Ġ deĠ
Ġer2Ġgai1Ġdi4ĠdeĠ ping2Ġjun1Ġhai3Ġba2Ġgao1Ġdu4Ġwei4Ġ
R ĠĠĠ
ĠĠĠ di4Ġer4Ġ
yu2Ġ hai3Ġba2Ġ
tong2Ġ xue2Ġ
ying1Ġ cun4Ġ
tai4Ġ hou4Ġ
yan2Ġjiu1Ġ sheng1Ġ
Ġ194 6Ġnian2Ġ
yin3Ġzhong3Ġ zai1Ġpei2Ġ
yi4Ġ miao2Ġ
Ġd uan3Ġ
zhun3Ġ jue2Ġsai4Ġ
2010Ġnian2Ġ mei3Ġguo2Ġren2Ġkou3Ġpu3Ġcha2ĠdeĠshu4Ġju4Ġ
deĠ jin4Ġ
Ġd ong3Ġ
xi1Ġ zhou1Ġ
zhi3Ġ shu4Ġ
su4Ġ song4Ġ
tu2Ġ an4Ġ
yu2Ġ202 3Ġnian2Ġ
9 8
di4Ġ 4Ġ
yuan2Ġ ziĠ
chang2Ġ deĠ
ban4Ġ nian2Ġ
7 4Ġ
ĠĠĠ w
zai4Ġ tai2Ġwan1Ġ
zhi2Ġ bang4Ġ
bian4Ġ geng1Ġ
ka3Ġluo2Ġ lai2Ġna4Ġ
I P
shi4Ġ qi2Ġ
li3Ġ nian4Ġ
jiao4Ġ gao1Ġ
tai2Ġ bi4Ġ
eĠĠĠ S
nuo4Ġ man4Ġ
Ġ lie4Ġche1Ġ
deĠ di4Ġer4Ġ
bu4Ġ zhi4Ġ
shang4Ġ leĠ
wu2Ġ er3Ġ
Ġji4Ġ xu4Ġ
tou Ġ
you2Ġren2Ġgong1Ġ yin3Ġzhong3Ġzai1Ġpei2Ġ
ming2Ġ yu4Ġ
dong4Ġ ji1Ġ
ro s
Ġ guan3Ġ
deĠ she4Ġji4Ġ
li4Ġ xue2Ġ
qian2Ġ zai4Ġ
yin3Ġ jin4Ġ
han2Ġ gai4Ġ
hai4Ġ e2Ġ
Ġ198 2Ġnian2Ġ
Ġ198 7Ġnian2Ġ
Ġ nei4Ġrong2Ġ
li n
zheng4Ġ wu4Ġ
Ġshi4Ġ yan3Ġ
mian4Ġ shang4Ġ
gao1Ġ yuan2Ġ
wai4Ġ wei2Ġ
se4Ġ cai3Ġ
shi2Ġdai4Ġ deĠ
a in
zhong1Ġ yi3Ġ
zhi4Ġ neng2Ġ
yi4Ġ yu2Ġ
zhan4Ġ wei4Ġyu2Ġ
san1Ġ ci4Ġ
dian4Ġshi4Ġ dong4Ġhua4Ġ
Ġ wan2Ġcheng2Ġ
yi4Ġ zai4Ġ
Ġzui4Ġ da4Ġ
jing1Ġji4Ġ xue2Ġ
xia4Ġxia2Ġyi3Ġxia4Ġ di4Ġqu1Ġ
ĠĠĠ shi2Ġ
yi1Ġ xue2Ġyuan4Ġ
chu1Ġ nian2Ġ
ge2Ġ lu3Ġ
ha1Ġ la1Ġ
geng1Ġ huan4Ġ
Ġ lun2Ġ
jian4Ġ you3Ġ
zhang3Ġ yue1Ġ
hua2Ġ xue3Ġ
pin3Ġ zhi4Ġ
zhu1Ġ long2Ġcao3Ġ
Ġk en3Ġ
ji4Ġlu4Ġ pian4Ġ
hang2Ġkong1Ġ gong1Ġsi1Ġ
re4Ġdai4Ġ qi4Ġxuan2Ġ
Ġ qiu2Ġdui4Ġ
deĠ fang1Ġfa3Ġ
qi3Ġ leĠ
san1Ġ ren2Ġ
gong1Ġgong4Ġ jiao1Ġtong1Ġ
ĠĠĠjie2Ġ zhi4Ġ202
Ġ qu4Ġ
ji2Ġ lian2Ġsai4Ġ
yu3Ġ yi3Ġ
el Ġ
Ġchong2Ġ xin1Ġ
jia1Ġli4Ġfu2Ġ ni2Ġya4Ġzhou1Ġ
7 3Ġ
he2Ġ da4Ġ
20 19
zui4Ġ duo1ĠdeĠ
guo4Ġ yu2Ġ
su1Ġ li3Ġ
Ġzi4Ġ ji3Ġ
Ġyu4Ġ ji4Ġ
Ġdao3Ġ yan3Ġ
ĠĠĠ quan2Ġ
fu2Ġ lang3Ġ
zu3Ġ xian1Ġ
zhong3Ġ lei4Ġ
wang3Ġ shang4Ġ
luo4Ġ fu1Ġ
si1Ġ zai4Ġ
ben3Ġ ke1Ġ
huo4Ġ qu3Ġ
huo4Ġ jiang3Ġ
chang2Ġ wei3Ġhui4Ġ
tui1Ġ fan1Ġ
huo3Ġ che1Ġzhan4Ġ
huo3Ġ pao4Ġ
6 6
deĠ feng1Ġ
yi1Ġ deĠ
yuan2Ġ xian1Ġ
ri4Ġ yi4Ġ
bei4Ġ ren4Ġming4Ġwei4Ġ
yi2Ġ ju1Ġ
shen2Ġ mi4Ġ
Ġcong2Ġ ci3Ġ
o o
yi1Ġ shi1Ġ
Ġqian2Ġ wang3Ġ
ye2Ġ fu1Ġ
Ġãĥ ¼
Ġ ju1Ġ
hou4Ġ wei4Ġ
zhan4Ġ wei4Ġ
Ġzhong1Ġguo2Ġ da4Ġlu4Ġ
Ġzhong1Ġguo2Ġ gong4Ġchan3Ġdang3Ġ
zhen3Ġ duan4Ġ
â Ī
ru4Ġ jing4Ġ
xiu1Ġdao4Ġ yuan4Ġ
ai4Ġ guo2Ġ
shi2Ġ bie2Ġ
yuan2Ġ shuai4Ġ
ti ao1Ġ
xiu1Ġ ding4Ġ
yin4Ġ xiang4Ġ
Ġ18 4
yu2Ġ201 0Ġnian2Ġ
dai4Ġ ti4Ġ
tui1Ġ chu1ĠdeĠ
Ġ197 8Ġnian2Ġ
Ġwei4Ġyu2Ġgai1Ġ sheng3Ġ
8 2Ġ
Ġ she4Ġli4Ġ
ĠĠĠ ming2Ġ
xi1Ġ ni2Ġ
zhi2Ġ li4Ġ
de2Ġ ke4Ġ
zhan4Ġ fang2Ġ
ni ang4Ġ
ju2Ġ deĠ
yun4Ġdong4Ġ deĠ
Ġzhi3Ġ shi4Ġ
Ġa1Ġ la1Ġ
2 1Ġnian2Ġ
Ġ zu3Ġzhi1Ġ
ĠĠĠ dao4Ġ
ĠĠĠ 10Ġyue4Ġ
dui4Ġ hua4Ġ
di2Ġ shi4Ġni2Ġ
dian4Ġshi4Ġ jie2Ġmu4Ġ
le Ġzhong4Ġ
xiang1Ġ cun1Ġ
han4Ġ yu3Ġ
ying2Ġde2Ġ leĠ
deĠ mei3Ġguo2Ġ
yue4Ġ du2Ġ
shi3Ġyong4Ġ leĠ
ĠĠĠ200 3Ġnian2Ġ
ti3Ġyu4Ġ guan3Ġ
cheng2Ġ guo3Ġ
jian4Ġ zai4Ġ
guan1Ġ guang1Ġ
luo2Ġ ji2Ġ
ba1Ġ fa2Ġli4Ġya4Ġ
hang2Ġ xian4Ġ
7Ġ mi3Ġ
yue4Ġ sheng1Ġ
bian1Ġ cheng2Ġ
deĠdi4Ġ wei4Ġ
Ġling4Ġ yi1Ġ
Ġwu2Ġ lun4Ġ
deĠ xing2Ġshi4Ġ
qi2Ġ zhi4Ġ
nei4Ġ zheng4Ġ
tian1Ġ jia1Ġ
dang1Ġ dai4Ġ
tu r
mu4Ġni2Ġ hei1Ġ
h en2Ġ
ren2Ġ yu3Ġ
mian4Ġ xiang4Ġ
zhang3Ġ wo4Ġ
Ġao4Ġ da4Ġli4Ġya4Ġ
Ġhu2Ġ nan2Ġ
fang1Ġ cheng2Ġ
Ġshi4Ġ xi1Ġban1Ġya2Ġ
qian2Ġ long2Ġ
Ġta1Ġ jiang1Ġ
xing4Ġ shi4Ġ
san1Ġ da4Ġ
Ġ1 7Ġ
mi3Ġ lan2Ġ
pi1Ġ pan4Ġ
Ġm ou3Ġ
Ġ shou1Ġ
Ġ gui3Ġ
Ġ qu3Ġde2Ġ
zhi4Ġ yuan4Ġ
fu4Ġ jia1Ġ
zhi2Ġ sheng1Ġji1Ġ
lang3Ġ de2Ġ
lei4Ġsi4Ġ yu2Ġ
yue4Ġ chu1Ġ
qu1Ġ zhu2Ġjian4Ġ
shou3Ġ du4Ġ
ci3Ġ ci4Ġ
man4Ġ di4Ġguo2Ġ
di1Ġ qi4Ġya1Ġ
Ġ194 8Ġnian2Ġ
Ġn Ġ
yan2Ġ shi2Ġ
dao3Ġ shang4Ġ
wei3Ġyuan2Ġhui4Ġ zhu3Ġxi2Ġ
l uo3Ġ
er2Ġ bu4Ġ
Ġsui4Ġ deĠ
deĠji1Ġ hui4Ġ
shu1Ġ xie3Ġ
wang2Ġ deĠ
gang3Ġ yuan2Ġ
shang1Ġ wu4Ġ
Ġbu4Ġ neng2Ġ
liang2Ġ hao3Ġ
zheng3Ġ he2Ġ
you1Ġ xian1Ġ
yu2Ġ201 1Ġnian2Ġ
â Ħ
Ġ fan1Ġ
zhong1Ġ dui4Ġ
xian4Ġ wei4Ġ
Ġshi4Ġ tai2Ġwan1Ġ
Ġ1 6Ġ
zhe3Ġ zai4Ġ
shen1Ġ ru4Ġ
chong2Ġ zu3Ġ
Ġyu3Ġ ci3Ġtong2Ġshi2Ġ
fa1Ġsheng1Ġ deĠ
Ġbi4Ġye4Ġ yu2Ġ
âĨ Ĵ
4 9Ġ
8 1Ġ
ĠĠĠ la1Ġ
deng3Ġ zhi2Ġ
ziĠ gong1Ġsi1Ġ
ban4Ġ fa3Ġ
Ġ198 0Ġnian2Ġ
an4Ġ cha2Ġ
Ġshi4Ġ yi4Ġda4Ġli4Ġ
bei3Ġ hai3Ġdao4Ġ
xiao4Ġ she4Ġ
he4Ġ er3Ġ
an1Ġhui1Ġ sheng3Ġ
yuan2Ġ qu1Ġ
sheng1Ġ xiao4Ġ
mu4Ġ fu3Ġ
Ġsheng1Ġzhang3Ġ yu2Ġhai3Ġba2Ġ
c a1Ġ
ĠĠĠ liu2Ġ
yu2Ġ 2020Ġnian2Ġ
xiang1Ġ lian2Ġ
bo2Ġ ge2Ġ
eĠĠĠ C
ke4Ġsi1Ġ tan3Ġ
yu2Ġ200 9Ġnian2Ġ
de n
ĠĠĠ di4Ġyi1Ġ
qian2Ġ jin4Ġ
Ġs ou1Ġ
lan2Ġ ka3Ġ
gen1Ġ ben3Ġ
xuan2Ġ zhuan3Ġ
u mĠ
shi4Ġ yi2Ġ
xue2Ġ yuan2Ġ
ta1Ġ yu3Ġ
fen1Ġ jie3Ġ
Ġch ang4Ġ
ji3Ġ nan2Ġ
zhi1Ġ bu4Ġ
xi1Ġ bo2Ġ
fu4Ġ you3Ġ
zhen4Ġ rong2Ġ
shen1Ġ deĠ
zong3Ġ mian4Ġji1Ġ
k mĠ
ji2Ġ xing2Ġzheng4Ġ
ji1Ġ qiang1Ġ
xi1Ġ shi4Ġ
zhu4Ġ fang2Ġ
fen1Ġ cheng2Ġ
tong2Ġ bu4Ġ
qiu2Ġ mi2Ġ
shi1Ġ ren2Ġ
zong3Ġ jing1Ġli3Ġ
zheng1Ġ duo2Ġ
nuo4Ġ si1Ġ
hao3Ġ you3Ġ
Ġzhan4Ġ zheng1Ġ
Ġmu4Ġqian2Ġ shang4Ġwei4Ġ
wu4Ġli3Ġ xue2Ġ
Ġ chi2Ġ
wei4Ġ bei4Ġ
he2Ġ jin1Ġ
dian4Ġ liu2Ġ
jie2Ġ lun4Ġ
ti2Ġ qian2Ġ
zong3Ġ ju2Ġ
chan3Ġ liang4Ġ
ri4Ġben3Ġ deĠ
zai4Ġ19 5
i th
shi4Ġ lang2Ġ
Ġta1Ġ he2Ġ
I T
Ġ i
deĠ zhi1Ġchi2Ġ
he2Ġ ren2Ġkou3Ġ
xing2Ġzheng4Ġ zhen4Ġqu1Ġ
Ġ2 3Ġ
Ġfu2Ġ lang3Ġ
Ġchu1Ġ ban3Ġ
yan2Ġzhong4Ġ deĠ
2 2Ġnian2Ġ
gong1Ġ yue1Ġ
xin1Ġ ren2Ġ
te4Ġ lei1Ġ
ge1Ġ chang4Ġ
xin4Ġ tu2Ġ
zhu3Ġyao4Ġ shi4Ġ
V i
e f
yi4Ġ nian2Ġ
zi4Ġ cheng1Ġ
fu4Ġ shi4Ġ
xia4Ġ deĠyi2Ġge4Ġ
zui4Ġzao3Ġ deĠ
shu4Ġ bai3Ġ
wen2Ġ deĠ
zhi2Ġ zhi4Ġ
wu3Ġ de2Ġ
Ġzhe4Ġ ye3Ġshi4Ġ
bu4Ġ di2Ġ
yuan2Ġ you3Ġ
zhi1Ġ shang4Ġ
dian4Ġ ji1Ġ
sha1Ġ tian2Ġ
xu1Ġ ni3Ġ
he2Ġ dong1Ġ
di4Ġ ming2Ġ
gong1Ġ shang1Ġ
cheng1Ġ zhi1Ġwei4Ġ
chan3Ġ wu4Ġ
ci2Ġ shan4Ġ
biao1Ġ ji4Ġ
ar t
zao3Ġqi1Ġ deĠ
xian4ĠdeĠyi2Ġge4Ġ xing2Ġzheng4Ġzhen4Ġqu1Ġ
J Ġ
e di
jiao4Ġ zuo4Ġ
shi1Ġ di4Ġ
liang3Ġ an4Ġ
Ġbei4Ġ qi2Ġ
Ġshi4Ġyi1Ġ zuo4Ġ
Ġ dian3Ġ
Ġ fa1Ġbiao3Ġ
yi4Ġ he2Ġ
fu2Ġ yin1Ġ
âĢ §
gong4Ġchan3Ġ zhu3Ġyi4Ġ
jin4Ġ cheng2Ġ
shou3Ġ ling3Ġ
zu2Ġ lian2Ġ
dang4Ġ zuo4Ġ
ka1Ġ fei1Ġ
t t
ĠĠĠ xiang1Ġ
shi4Ġ bei4Ġ
di4Ġ di
ri4Ġ hou4Ġ
suo3Ġ yi3Ġ
qu3Ġ zi4Ġ
cheng2Ġli4Ġ leĠ
Ġsuo1Ġ xie3Ġ
ru4Ġ qiu2Ġ
san1Ġ ji2Ġ
cha2Ġ li3Ġ
gong1Ġzuo4Ġ deĠ
bin1Ġ shi4Ġ
xi3Ġ ai4Ġ
wu4Ġzhong3Ġ deĠ
juan1Ġ zeng4Ġ
ren2Ġda4Ġ dai4Ġbiao3Ġ
yu2Ġ 2019Ġnian2Ġ
ru4Ġ wei2Ġ
shan1Ġ ding3Ġ
Ġ19 20Ġnian2Ġ
jin3Ġ zhang1Ġ
fang4Ġ song4Ġ
Ġ197 9Ġnian2Ġ
da4Ġliang4Ġ deĠ
sa4Ġsi1Ġ zhou1Ġ
Ġ man3Ġ
Ġh a1Ġer3Ġ
jiu4Ġ you3Ġ
han4Ġ lin2Ġ
. &
D V
Ġ chang3Ġ
cheng2Ġ dan1Ġ
shang4Ġ fang1Ġ
fu4Ġ deĠ
xia4Ġ lai2ĠdeĠ
san1Ġ ming2Ġ
jing4Ġ wai4Ġ
li4Ġshi3Ġ xue2Ġjia1Ġ
gong1Ġzuo4Ġ ren2Ġyuan2Ġ
she4Ġji4Ġ shi1Ġ
han3Ġ mo4Ġde2Ġ
yin1Ġ er2Ġ
yin1Ġ mou2Ġ
chang2Ġ chang2Ġ
jiang3Ġ pai2Ġ
ke3Ġyi3Ġ tong1Ġguo4Ġ
zhu3Ġti2Ġ qu1Ġ
g eng3Ġ
Ġ jun1Ġshi4Ġ
wu4Ġ zi1Ġ
ying1Ġ er2Ġ
Ġda4Ġ yue1Ġ
si3Ġ yu2Ġ
ĠĠĠ zhi4Ġzuo4Ġ
you3Ġ hao3Ġ
re s
shi1Ġfan4Ġ da4Ġxue2Ġ
r ao2Ġ
yu2Ġ tong2Ġnian2Ġ
Ġt eng2Ġ
lian2Ġ jun1Ġ
jiu4Ġdu2Ġ yu2Ġ
ĠĠĠ dui4Ġyu2Ġ
she4Ġ ru4Ġ
qian2Ġ xian4Ġ
jiao4Ġ shao3Ġ
ze2Ġ er3Ġsheng3Ġ
ceng2Ġ ren4Ġ
tuan2Ġ zhang3Ġ
can1Ġyu4Ġ leĠ
cheng2Ġ qiang2Ġ
pu3Ġ luo2Ġ
Ġtong2Ġ ri4Ġ
hu2Ġ nan2Ġsheng3Ġ
gei3Ġ ta1Ġ
2 8Ġnian2Ġ
Ġ yun2Ġnan2Ġ
xin1Ġ bei3Ġ
zi Ġshi4Ġ
yan2Ġjiu1Ġ zhong1Ġxin1Ġ
xuan1Ġ yan2Ġ
Ġ cheng2Ġshi4Ġ
3Ġ mi3Ġ
da4Ġ bu4Ġ
tian1Ġ xia4Ġ
gai3Ġ ming2Ġ
hu2Ġ bei3Ġsheng3Ġ
chuan1Ġ xian4Ġ
Ġ2 2Ġ
Ġ1Ġ ĠĠ
he2Ġ chang4Ġ
shi2Ġ zhi4Ġ
Ġzai4Ġ ta1Ġ
Ġzai4Ġ mei3Ġguo2Ġ
chu ang3Ġ
jiang3Ġ zui4Ġjia1Ġ
chen2Ġ mo4Ġ
ar d
hui4Ġyi4Ġ shang4Ġ
Ġde2Ġ yu3Ġ
sheng1Ġchan3Ġ deĠ
meng4Ġ jia1Ġla1Ġ
yi3Ġ 1Ġ
zhi2Ġ lu4Ġ
Ġyin3Ġ fa1Ġ
deĠ cheng2Ġshi4Ġ
xi1Ġ he2Ġ
zuo4Ġ luo4Ġ
xi4Ġ jun1Ġ
shou4Ġ ming4Ġ
guang1Ġ pu3Ġ
ke3Ġneng2Ġ xing4Ġ
ĠS A
lu2Ġ wa3Ġ
ĠĠĠ gao1Ġ
gong1Ġ li4Ġ
yi2Ġ chuan2Ġ
Ġshi4Ġ tu2Ġ
6Ġnian2Ġ 1Ġyue4Ġ
tui1Ġ xing2Ġ
kong4Ġ gu3Ġ
wen1Ġ dai4Ġ
pi2Ġ fu1Ġ
tong2Ġxing4Ġ lian4Ġ
3 5Ġnian2Ġ
f eng3Ġ
Ġ 1Ġyue4Ġ
e2Ġ hai4Ġe2Ġ
wen2Ġ ben3Ġ
la1Ġ de2Ġ
ci4Ġ shu4Ġ
biao3Ġxian4Ġ chu1Ġ
yu2Ġ202 4Ġnian2Ġ
2 4Ġnian2Ġ
a di
t or
2Ġ mi3Ġ
ĠĠĠ lin2Ġ
li4Ġ bu4Ġ
jia1Ġ si1Ġ
xi4Ġ jie2Ġ
liang3Ġ zhe3Ġ
tai4Ġ lang2Ġ
cun1Ġ min2Ġ
wan3Ġ qi1Ġ
Ġm i2Ġ
8 4Ġ
yue4Ġ deĠ
Ġc ao3Ġ
ze2Ġ you2Ġ
4Ġyue4Ġ 1Ġri4Ġ
Ġzhi3Ġ yao4Ġ
kong3Ġ long2Ġ
Ġmu4Ġqian2Ġshang4Ġwei4Ġ you2Ġren2Ġgong1Ġyin3Ġzhong3Ġzai1Ġpei2Ġ
zai4Ġ bei3Ġ
jiao4Ġ ke1Ġ
sheng4Ġ jing1Ġ
du1Ġ hui4Ġ
Ġ2 4Ġ
Ġzhu3Ġ chi2Ġ
s e
Ġ yong1Ġ
guo2Ġ you3Ġ
di ceĠ
yue4Ġ qi4Ġ
xin1Ġ jian4Ġ
luo2Ġ la1Ġ
ya1Ġ suo1Ġ
miao2Ġ xie3Ġ
yi3Ġ 2Ġ
du4Ġ guo4Ġ
xing4Ġ cun2Ġ
tuan2Ġ jie2Ġ
ĠĠĠ200 2Ġnian2Ġ
shi4Ġyi1Ġ wei4Ġ
7 6
ĠĠĠ jian4Ġzhu4Ġ
yi1Ġ ke1Ġ
ji2Ġ hui4Ġ
hua4Ġ mian4Ġ
Ġzhong1Ġguo2Ġ ren2Ġmin2Ġjie3Ġfang4Ġjun1Ġ
Ġbo1Ġ lan2Ġ
shi4Ġ chu1Ġ
gong1Ġ she4Ġ
Ġd ou4Ġ
zhou1Ġ nian2Ġ
qian2Ġ lai2Ġ
ke1Ġ er3Ġ
meng2Ġ jun1Ġ
bu2Ġ yao4Ġ
Ġ193 8Ġnian2Ġ
ĠJ R
Ġbang1Ġ zhu4Ġ
a th
Ġ kuai4Ġ
a1Ġ ji1Ġ
ĠĠĠ chu2Ġ
ĠĠĠ st
yu2Ġ ĠĠ
ge4Ġ da4Ġ
dong1Ġ qu1Ġ
zu3Ġ deĠ
hui2Ġ da2Ġ
wan4Ġ li4Ġ
xu1Ġ gou4Ġ
ying3Ġxiang3Ġ li4Ġ
chong1Ġ fen4Ġ
dan4Ġbai2Ġ zhi4Ġ
o og
chang2Ġ an1Ġ
Ġfen1Ġbie2Ġ wei4Ġ
9 5
zhe4Ġ li3Ġ
eĠĠĠ M
chu1Ġban3Ġ deĠ
a ch
ĠĠĠ f
ren2Ġ cai2Ġ
ci4Ġ ji1Ġ
chuan1Ġ guo4Ġ
I IĠ
ĠĠĠ zuo4Ġwei2Ġ
zhan4Ġ che1Ġ
shen2Ġ sheng4Ġ
zao4Ġ xing2Ġ
ji3Ġ he2Ġ
zi3Ġ mei4Ġ
ĠĠĠ194 9Ġnian2Ġ
Ġban3Ġ ben3Ġ
Ġ luo2Ġsi1Ġ
xia4Ġ fang1Ġ
xiang4Ġ bei3Ġ
jing4Ġ nei4ĠdeĠ
Ġgai1Ġ di4ĠdeĠ
si Ġshi4Ġ
li3Ġshi4Ġ hui4Ġ
deĠ ming2Ġzi4Ġ
ĠĠĠ wei2Ġ
ĠĠĠ wu2Ġ
zhi4Ġ zai4Ġ
ping2Ġ guo3Ġ
zui4Ġ jin4Ġ
jiang1Ġ shi4Ġ
chuan2Ġ qi2Ġ
sha1Ġ bai2Ġ
xin4Ġ ren4Ġ
a yĠĠĠ
Ġ 20Ġ
hui2Ġ guo2Ġ
xun2Ġ luo2Ġ
pan4Ġ duan4Ġ
deĠdi4Ġ yi2Ġge4Ġ
qu4Ġshi4Ġ hou4Ġ
ĠĠĠge4Ġren2Ġ sheng1Ġhuo2Ġ
ji4Ġ ren4Ġ
yu3Ġ wen2Ġ
ming2Ġ jiao4Ġ
ye4Ġ jian1Ġ
guan3Ġ kong4Ġ
ting2Ġ yun4Ġ
Ġ194 7Ġnian2Ġ
Ġà ¸
yun3Ġshi2Ġ keng1Ġ
âĦ ĥ
s eĠ
qu1Ġ dong4Ġ
ding4Ġ li3Ġ
5Ġ wan4Ġ
Ġ3 0
Ġguo4Ġ qu4Ġ
yi1Ġsi1Ġlan2Ġ jiao4Ġ
e le
g en3Ġ
wei2Ġ qi1Ġ
neng2Ġ zai4Ġ
ju1Ġ liu2Ġ
zhao4Ġ gu4Ġ
sen1Ġ bao3Ġ
zun1Ġ zhong4Ġ
Window sĠĠĠ
lay St
jian4Ġ guo2Ġ
dong4Ġ yuan2Ġ
wang2Ġ hou4Ġ
sheng4Ġ mu3Ġ
hou4Ġ zhe3Ġ
zhan4Ġ zhi4Ġ
che1Ġ dao4Ġ
dan1Ġ da3Ġ
yan3Ġ jing1Ġ
xie1Ġ er3Ġ
tiao2Ġ wen2Ġ
dian4Ġying3Ġ jie2Ġ
Ġ198 1Ġnian2Ġ
Ġjie1Ġ shou4Ġ
ĠĠĠ 3Ġ
he2Ġ shi2Ġ
zhong1Ġ dian3Ġ
si1Ġ tu2Ġ
jin4Ġ dai4Ġ
tian1Ġ fu3Ġ
jing3Ġ dian3Ġ
jia3Ġ ji1Ġ
hei1Ġ ren2Ġ
zheng4Ġxie2Ġ wei3Ġyuan2Ġ
Ġ ziĠ
Ġ zi1Ġ
Ġ ju3Ġ
Ġ zong1Ġ
Ġ hui1Ġ
yuan2Ġ wai4Ġ
xia4Ġ shu3Ġ
chang2Ġ gui1Ġ
ba1Ġ nen4Ġ
Ġzhi1Ġ jian1Ġ
wen4Ġti2Ġ deĠ
ken3Ġ ding4Ġ
fa1Ġ da2Ġ
nan2Ġ hai2Ġ
yu4Ġ gao4Ġ
duo1Ġ xiang4Ġ
Ġan1Ġ hui1Ġ
fa1Ġdian4Ġ chang3Ġ
chuang4Ġshi3Ġ ren2Ġ
ren2Ġ qun2Ġ
yue4Ġ yu3Ġ
leĠ qi2Ġ
dui4Ġ chen4Ġ
ju4Ġ zhong1Ġ
nan2Ġ nv3Ġ
ci2Ġ hui4Ġ
liang2Ġ shi2Ġ
ta1Ġmen Ġzai4Ġ
am Ġ
cun2Ġzai4Ġ deĠ
lai2Ġ si1Ġ
hu2Ġ bei3Ġ
Ġxin1Ġ jia1Ġpo1Ġ
Ġji1Ġ ben3Ġ
deĠ yin1Ġyue4Ġ
jing1Ġ ying1Ġ
wei1Ġ bo2Ġ
liu4Ġ ge4Ġ
cun2Ġ chu3Ġ
fa1Ġxian4Ġ deĠ
Ġzhi2Ġ jie1Ġ
Ġsi1Ġ zhi2Ġ
Ġgu4Ġ shi4Ġ
yu2Ġ18 9
a1Ġ li3Ġ
er i
tou2Ġ shou3Ġ
Ġzi4Ġ ran2Ġ
Ġfen1Ġbie2Ġ shi4Ġ
Ġ fa1Ġzhan3Ġ
deĠ zheng4Ġzhi4Ġ
zhi4Ġ 197
jia1Ġ zhuang1Ġ
yin4Ġdi4Ġ an1Ġna4Ġ
deĠ zong3Ġ
Ġ1 8Ġ
jie3Ġ chu2Ġ
mian4Ġji1Ġ he2Ġren2Ġkou3Ġ
Ġyi4Ġ you3Ġ
Ġnan2Ġ jing1Ġ
Ġdou1Ġ shi4Ġ
gou1Ġ tong1Ġ
he2Ġliu2Ġ yu4Ġ
Ġheng1Ġ li4Ġ
Ġ kai1Ġfa1Ġ
li4Ġ shu3Ġ
jian4Ġ dao4Ġ
Ġdan4Ġ zhe4Ġ
zu2Ġ ren2Ġ
Ġshi3Ġ jian4Ġ
mian3Ġ yi4Ġ
10 00Ġ
y n
deĠ mu4Ġ
ĠĠĠ zhang1Ġ
shi2Ġ qi4Ġ
hou4Ġ lai2ĠdeĠ
zhan4Ġ ting1Ġ
qian2Ġ feng1Ġ
wang3Ġ fan3Ġ
gui1Ġ lei4Ġ
Ġ193 7Ġnian2Ġ
M A
T A
s onĠ
ĠĠĠ dong1Ġ
ĠĠĠ 8Ġyue4Ġ
di4Ġ xing2Ġ
xian4Ġ zhang3Ġ
yu4Ġ ding4Ġ
ge2Ġ la1Ġsi1Ġ
xiao3Ġ jie3Ġ
dan4Ġ sheng1Ġ
sa4Ġ la1Ġ
jie1Ġwei4Ġ zhi1Ġ
Ġshi4Ġyi2Ġge4Ġwei4Ġyu2Ġ mei3Ġguo2Ġ
Ġ Ø
Ġ zan4Ġ
bei4Ġ lie4Ġwei4Ġ
xin1Ġ jie4Ġ
Ġyou3Ġ ren2Ġ
9Ġ mi3Ġ
shen3Ġ yang2Ġ
shi4Ġwu4Ġ suo3Ġ
deĠ mian4Ġji1Ġwei4Ġ
li4Ġ shi4Ġ
ji2Ġ jie2Ġ
zhan4Ġ sheng4Ġ
fu4Ġ yu3Ġ
jin4Ġ jun1Ġ
nei4Ġ ya4Ġ
tu2Ġ jing4Ġ
gong1Ġli3Ġ deĠ
hu1Ġ xi1Ġ
25 0Ġ
5 8Ġ
he2Ġ bei3Ġsheng3Ġ
zhou1Ġ li4Ġ
cheng1Ġ zan4Ġ
yin3Ġ shi2Ġ
zhuan3Ġ bian4Ġ
YouTub eĠ
Ġgai1Ġdi4ĠdeĠ mian4Ġji1Ġhe2Ġren2Ġkou3Ġ
Ġgai1Ġdi4ĠdeĠmian4Ġji1Ġhe2Ġren2Ġkou3Ġ jie1Ġwei4Ġzhi1Ġ
4 0Ġnian2Ġ
Ġ en1Ġ
xian1Ġ wei2Ġ
a1Ġer3Ġ ba1Ġ
yu2Ġ200 8Ġnian2Ġ
he2Ġbing4Ġ wei4Ġ
oh n
5 6Ġ
w a4Ġ
ĠĠĠ fa3Ġguo2Ġ
di u1Ġ
yuan2Ġ chuang4Ġ
wei2Ġ wu2Ġer3Ġ
jian4Ġ qiao2Ġ
de2Ġ yu3Ġ
gao1Ġ ceng2Ġ
liang3Ġ zuo4Ġ
wei1Ġ yi2Ġ
xiang3Ġ ying4Ġ
Ġren2Ġ lei4Ġ
Ġxiang1Ġ dang1Ġ
ĠĠĠ 16
shi2Ġ yi1Ġnian2Ġ
da4Ġ jia1Ġ
shang4Ġ jiang4Ġ
xin1Ġ zhu2Ġ
nan2Ġ hai3Ġ
dong4Ġ gong1Ġ
bi4Ġ lu3Ġ
Ġbu4Ġ zai4Ġ
deĠyi1Ġ ci4Ġ
Ġ lian4Ġ
ĠĠĠ huang2Ġ
yi1Ġ hao4Ġ
fa1Ġ bu4ĠdeĠ
shou3Ġ qiang1Ġ
mian4Ġ shi4Ġ
ge2Ġ lin2Ġ
qian1Ġ yi2Ġ
ying4Ġ bi4Ġ
bing1Ġ li4Ġ
Ġye3Ġ ke3Ġyi3Ġ
xing2Ġzheng4Ġ yuan4Ġ
dong1Ġjing1Ġ du1Ġ
xun2Ġhui2Ġ sai4Ġ
A r
ĠĠĠ wang2Ġ
jin4Ġ ping2Ġ
ye3Ġ zhan4Ġ
zhi3Ġ yu2Ġ
bao3Ġ wei4Ġ
dian3Ġ shi4Ġ
Ġlu4Ġ yi4Ġ
zu an4Ġ
ren2Ġda4Ġ chang2Ġwei3Ġhui4Ġ
n ao4Ġ
fan3Ġ kang4Ġ
tiao2Ġ jie2Ġ
wei4Ġyu2Ġ zhong1Ġguo2Ġ
sai1Ġ bai4Ġ
ĠĠĠ ai4Ġ
he2Ġ shui3Ġ
ji1Ġ zhong4Ġ
lei4Ġ bie2Ġ
Ġgai1Ġ zhuang1Ġ
2 1
de2Ġ lan2Ġ
ge1Ġ ju4Ġ
tu1Ġ jue2Ġ
ĠĠĠ cheng2Ġ
deng3Ġ dai4Ġ
zhang3Ġ da4Ġ
su4Ġ she4Ġ
bo1Ġ yin1Ġ
ran2Ġ shao1Ġ
Ġl e4Ġ
Ġp ang2Ġ
Ġp ai1Ġ
Ġtai4Ġ ping2Ġ
Ġzhen1Ġ dui4Ġ
liao2Ġning2Ġ sheng3Ġ
fa1Ġyan2Ġ ren2Ġ
ji2Ġ wei2Ġ
Ġyi3Ġ se4Ġlie4Ġ
you4Ġ cheng1Ġ
long2Ġ ke1Ġ
lun2Ġ duo1Ġ
zhuan1Ġ ke1Ġ
om Ġ
ĠĠĠ 9Ġyue4Ġ
yi1Ġ dui4Ġ
de2Ġ fen1Ġ
zhi2Ġ jing4Ġ
liu2Ġ dong4Ġ
dian3Ġ wei4Ġ
Ġ20 0Ġ
2 3Ġnian2Ġ
p en
Ġ ke1Ġxue2Ġ
ji ong3Ġ
ĠĠĠ 7Ġyue4Ġ
di4Ġ zhong1Ġhai3Ġ
ke3Ġ kao4Ġ
qi4Ġ wen1Ġ
can1Ġ guan1Ġ
xiao1Ġ mie4Ġ
hai2Ġ zai4Ġ
Ġgong1Ġ bu4Ġ
che4Ġ li2Ġ
yan2Ġshen1Ġ zhi4Ġ
7 ĠĠĠ
ĠĠĠ 4Ġyue4Ġ
zhong1Ġ zheng4Ġ
you3Ġ ke3Ġneng2Ġ
yi2Ġ ji4Ġ
lv4Ġ deĠ
Ġbu4Ġ jin3Ġ
xuan1Ġ gao4Ġ
deĠ zhong1Ġguo2Ġ
li c
bu4Ġ zuo4Ġpin3Ġ
chu1Ġ lai2ĠdeĠ
zuo4Ġ tang2Ġ
bei4Ġ ge2Ġ
ben3Ġ shu1Ġ
di3Ġ zhi4Ġ
zhui1Ġ qiu2Ġ
ĠĠĠ zao3Ġqi1Ġ
chang2Ġ zhu4Ġ
yun4Ġ suan4Ġ
zheng1Ġ qi4Ġ
shun4Ġ shi2Ġzhen1Ġ
ye2Ġ er3Ġ
tong3Ġzhi4Ġ zhe3Ġ
ĠĠĠche1Ġzhan4Ġ jie2Ġgou4Ġ
Ġfou3Ġ ze2Ġ
hou4Ġ yi4Ġ
yan2Ġ xian4Ġ
liu2Ġ xue2Ġ
feng1Ġ suo3Ġ
can1Ġ yi4Ġyuan2Ġ
wan1Ġ qu1Ġ
qiang2Ġ hua4Ġ
fa1Ġzhan3Ġ deĠ
miao2Ġshu4Ġ wei4Ġ
deĠhe2Ġ liu2Ġ
7 1Ġ
8 9
er n
ya2Ġ chi3Ġ
il li
3 8Ġnian2Ġ
deĠ guo2Ġji4Ġ
di4Ġ si1Ġ
lu4Ġ jing4Ġ
cha2Ġ er3Ġsi1Ġ
yun2Ġ nan2Ġsheng3Ġ
ĠĠĠ200 1Ġnian2Ġ
Ġ195 5Ġnian2Ġ
an1Ġ ren2Ġ
hua4Ġ ru4Ġ
jin4Ġ qiu2Ġ
jing1Ġ fei4Ġ
bi3Ġ er3Ġ
na4Ġ yang4Ġ
Ġ2 9
Ġhai3Ġ jun1Ġ
kai1Ġfa1Ġ deĠ
pao3Ġ dao4Ġ
3 7Ġnian2Ġ
Ġ meng2Ġgu3Ġ
an ĠĠĠ
xing2Ġ shi4ĠdeĠ
jian4Ġ leĠ
Ġwei4Ġ ci3Ġ
Ġyi4Ġ nian2Ġ
Ġsui4Ġ shi2Ġ
Ġyin3Ġ qi3Ġ
ji1Ġ dui4Ġ
bei4Ġ sha1Ġ
zhu3Ġ da3Ġ
ba1Ġ le4Ġsi1Ġtan3Ġ
wan2Ġcheng2Ġ leĠ
Ġzhu ang4Ġ
yu2Ġ200 7Ġnian2Ġ
nu2Ġ li4Ġ
e2Ġ wai4Ġ
ĠĠĠ 4Ġ
ĠĠĠ wen2Ġhua4Ġ
li3Ġ cha2Ġ
xi1Ġ de2Ġ
ci2Ġ qu4Ġ
re4Ġ men2Ġ
zhi1Ġhou4Ġ deĠ
zhu3Ġjiao4Ġ lian4Ġ
o ni
r oun
an n
zhan4Ġ lou2Ġ
duo1Ġ yuan2Ġ
gong4Ġ ji4Ġ
bi3Ġ ci3Ġ
su4Ġ deĠ
qiang2Ġ da4ĠdeĠ
0Ġnian2Ġdai4Ġ chu1Ġ
Ġ15 7
ji4Ġnian4Ġ bei1Ġ
shi2Ġ da4Ġ
qiu2Ġ yun4Ġdong4Ġyuan2Ġ
zhi3Ġ ze2Ġ
lan2Ġ zhou1Ġ
di2Ġ ya4Ġ
Ġzi4Ġ ci3Ġ
Ġguan1Ġ zhi4Ġ
l i1Ġ
ke4Ġ jia1Ġ
min2Ġ jin4Ġdang3Ġ
jie2Ġ chu1Ġ
tai4Ġ shou3Ġ
du2Ġ te4ĠdeĠ
bu4Ġde2Ġ bu4Ġ
laySt ation
deĠ ji2Ġ
ĠĠĠ can1Ġkao3Ġ
wei4Ġ ta1Ġ
wei4Ġ ji1Ġchu3Ġ
he2Ġ hua2Ġ
guo2Ġ an1Ġ
li3Ġ ao4Ġ
ti n
zhi2Ġ yuan2Ġ
jie2Ġ zou4Ġ
mo n
Ġbing4Ġ biao3Ġshi4Ġ
tang2Ġ qu1Ġ
Ġzhan4Ġ di4Ġ
wei4Ġ zai4Ġ
lu4Ġ yu3Ġ
yi2Ġ qi4Ġ
jing1Ġ que4Ġ
la1Ġ er3Ġ
jiao1Ġ you2Ġ
chu3Ġ cun2Ġ
ke4Ġli3Ġ mi3Ġya4Ġ
Ġzh ao3Ġ
ke3Ġ qian2Ġwang3Ġ
bei3Ġ ce4Ġ
Ġ1 00Ġ
wo r
pai2Ġ chu2Ġ
Ġlian2Ġ jie1Ġ
O M
he2Ġ mei3Ġguo2Ġ
ji4Ġ neng2Ġ
xin1Ġ shi4Ġ
Ġdan4Ġ ye3Ġ
Ġdan4Ġ reng2Ġ
tang2Ġ chao2Ġ
deĠji1Ġ ben3Ġ
Ġwei1Ġ er3Ġ
deĠ fei1Ġ
ri4Ġ ji4Ġ
jin4Ġ kou3Ġ
xuan3Ġ zhong1Ġ
wu1Ġ ding3Ġ
chuan1Ġ yue4Ġ
199 9Ġnian2Ġ
Ġshi4Ġwei4Ġyu2Ġ wu1Ġke4Ġlan2Ġ
zhong4Ġdian3Ġ wen2Ġwu4Ġbao3Ġhu4Ġdan1Ġwei4Ġ
I D
wei4Ġ da4Ġ
zhi4Ġ 194
yi3Ġ wai4ĠdeĠ
Ġg uo3Ġ
xiang4Ġ liang4Ġ
jue2Ġ yu2Ġ
Ġgai1Ġ pian4Ġ
zhen1Ġ deĠ
mei2Ġyou3Ġ ren4Ġhe2Ġ
bai3Ġ xing4Ġ
wen2Ġhua4Ġ yi2Ġchan3Ġ
Ġguo2Ġ wu4Ġyuan4Ġ
zu an1Ġ
shi4Ġ yong4Ġ
shang4Ġ you2Ġ
yan2Ġ yong4Ġ
jiu4Ġ bei4Ġ
zao4Ġ chuan2Ġ
zi3Ġ you2Ġxi4Ġ
Ġyou3Ġ guan1Ġ
si c
Ġshou3Ġ xian1Ġ
ĠĠĠgen1Ġju4Ġ 2010Ġnian2Ġmei3Ġguo2Ġren2Ġkou3Ġpu3Ġcha2ĠdeĠshu4Ġju4Ġ
B CĠ
S h
ĠĠĠ 6Ġyue4Ġ
ĠĠĠ yan2Ġge2Ġ
xi1Ġ xi1Ġ
ren4Ġ zhi1Ġ
fang1Ġ cheng2Ġshi4Ġ
gan3Ġ qing2Ġ
deĠda4Ġ bu4Ġfen4Ġ
a z
Ġ guan3Ġli3Ġ
Ġ zeng4Ġ
li4Ġ zai4Ġ
ji2Ġ li4Ġ
jun1Ġ yi3Ġ
jian1Ġ shi4Ġ
xuan3Ġ ba2Ġ
Ġgai1Ġ dang3Ġ
ming4Ġ ming2ĠdeĠ
ĠĠĠ200 0Ġnian2Ġ
xue4Ġ ye4Ġ
guo2Ġfang2Ġ bu4Ġ
xin1Ġ xing1Ġ
fa1Ġ yu4Ġ
zhou1Ġ fu4Ġze2Ġguan3Ġxia2Ġ
min2Ġ dang3Ġ
ye4Ġ yu2Ġ
shou4Ġ piao4Ġ
si4Ġ yue4Ġ
qian1Ġ ren2Ġ
xun4Ġ hao4Ġ
shi2Ġjian1Ġ deĠ
K B
Ġ v
sh e1Ġ
deĠ er2ĠziĠ
ĠĠĠ qi2Ġzhong1Ġ
shi4Ġ jiang1Ġ
di4Ġ shang4Ġ
zhi4Ġ pin3Ġ
yi4Ġ chang2Ġ
yi3Ġ zhi1Ġ
ke4Ġ he2Ġ
nan2Ġ mei3Ġzhou1Ġ
Ġta1Ġ shuo1Ġ
jiao4Ġ yu2Ġ
shen2Ġ me
di4Ġyi1Ġ jie4Ġ
huo2Ġdong4Ġ deĠ
kan4Ġ fa3Ġ
Ġbing4Ġqie3Ġ zai4Ġ
kun1Ġ chong2Ġ
wei4Ġ jun1Ġ
cheng2Ġ zuo4Ġ
yu4Ġ wei2Ġ
Ġzai4Ġ qi2Ġ
Ġdan4Ġ zui4Ġzhong1Ġ
guan3Ġ deĠ
Ġzui4Ġ zao3Ġ
Ġ195 6Ġnian2Ġ
s k
Ġ dian4Ġshi4Ġ
Ġ liao2Ġ
ji2Ġ ke3Ġ
chu1Ġ bu4Ġ
zhou1Ġ he2Ġ
kai1Ġ ye4Ġ
ceng2Ġ bei4Ġ
Ġji2Ġ tuan2Ġ
shi2Ġjian1Ġ wei4Ġ
10Ġyue4Ġ 1Ġri4Ġ
ĠĠĠ18 9
Ġ xue1Ġ
ji1Ġ long2Ġ
chu1Ġ shi3Ġ
Ġshi4Ġ nan2Ġji2Ġzhou1ĠdeĠ
ke1Ġ huan4Ġ
jin1Ġ deĠ
yuan4Ġ xiao4Ġ
lun2Ġ si1Ġ
huo3Ġ xing1Ġ
pin2Ġ fan2Ġ
Ġde2Ġ dao4Ġ
Ġchao1Ġ guo4Ġ
lai2Ġ kan4Ġ
ye3Ġ sheng1Ġ
na4Ġ er3Ġ
qian1Ġ xi3Ġ
tiao2Ġ mu4Ġ
17 9
Ã ©
san1Ġ yue4Ġ
gu3Ġ dong1Ġ
sha1Ġ ren2Ġ
ci2Ġ deĠ
pian4Ġ zhong1Ġ
bai3Ġ nian2Ġ
Ġtai4Ġ yang2Ġ
8 5
ri4Ġ yu3Ġ
xia4Ġ you2Ġ
Ġh ou2Ġ
ti3Ġ cao1Ġ
ti2Ġ qin2Ġ
ying3Ġ zhan3Ġ
gai3Ġ liang2Ġ
Ġhe2Ġ dao4Ġ
ju2Ġ shi4Ġ
6 6Ġ
U S
U ni
z uan3Ġ
Ġ lei3Ġji4Ġ
deĠ xing2Ġwei2Ġ
shi4Ġ jue2Ġ
nan2Ġ ce4Ġ
guan1Ġ lian2Ġ
lv 2Ġ
xing1Ġ qi3Ġ
sui2Ġ zhi1Ġ
kua4Ġ yue4Ġ
bao4Ġfa1Ġ hou4Ġ
Ġxi1Ġban1Ġya2Ġ yu3Ġ
guo2Ġ qi2Ġ
ji1Ġ he2Ġ
mo 4Ġnian2Ġ
Ġbei4Ġ er3Ġ
e4Ġ hua4Ġ
zhong1Ġ xun2Ġ
bu4Ġ zhi1Ġ
zhan4Ġ shi2Ġ
jun1Ġ wei3Ġ
she4Ġ li4ĠdeĠ
zhu4Ġ ru4Ġ
shi1Ġ zong1Ġ
shui3Ġ shen1Ġ
pu3Ġ la1Ġ
hu4Ġ bu4Ġ
wei3Ġyuan2Ġhui4Ġ deĠ
30Ġ fen1Ġ
Ġji1Ġ yu2Ġ
8 ĠĠĠ
ĠĠĠ luo2Ġ
ren2Ġ sheng1Ġ
gong1Ġ dang3Ġ
lai2Ġ wang3Ġ
mu3Ġ deĠ
Ġk an1Ġ
Ġzong3Ġ tong3Ġ
ge2Ġming4Ġ jun1Ġ
ĠĠĠT heĠĠĠ
jiao1Ġyi4Ġ suo3Ġ
r ou
an t
zhi4Ġ he2Ġ
yu3Ġ lin2Ġ
wei2Ġ ye3Ġna4Ġ
lie4Ġ shi4Ġ
Ġliu2Ġyu4Ġ mian4Ġji1Ġ
ren2Ġ suo3Ġ
yi2Ġ ding4ĠdeĠ
ya4Ġ ke1Ġ
ba1Ġ da2Ġ
sha1Ġ mo4Ġ
jiu3Ġ ba1Ġ
di2Ġ si1Ġ
Ġhai3Ġ ba2Ġ
Ġfa3Ġ lan2Ġ
i dĠĠĠ
Ġ ding3Ġ
bu4Ġ lei2Ġ
zhi4Ġ li3Ġ
ding4Ġ leĠ
ci3Ġ shi2Ġ
mi4Ġ deĠ
da4Ġxue2Ġ jiao4Ġshou4Ġ
Ġdang1Ġ nian2Ġ
Ġben3Ġ pian4Ġ
Ġgen1Ġju4Ġ 2020Ġnian2Ġmei3Ġguo2Ġren2Ġkou3Ġpu3Ġcha2ĠdeĠshu4Ġju4Ġ
diao1Ġ xiang4Ġ
lan2Ġ te4Ġ
feng1Ġ bi4Ġ
zeng1Ġ she4Ġ
Ġben3Ġ zhan4Ġ
Ġ2Ġ ĠĠ
Ġdong4Ġ hua4Ġ
zhui1Ġsu4Ġ dao4Ġ
w it
yi3Ġ wang3Ġ
hou4Ġ dai4Ġ
ma3Ġ shi4Ġ
shan1Ġ hu2Ġ
kou3Ġ jing4Ġ
xuan3Ġ piao4Ġ
bo1Ġ li4Ġ
ling2Ġ hun2Ġ
Ġjian4Ġ yu2Ġ
00 0
Ġke3Ġ shi4Ġ
a1Ġer3Ġ bei1Ġsi1Ġ
Ġ lian2Ġbang1Ġ
Ġ ya4Ġzhou1Ġ
te4Ġ lie4Ġ
Ġc ang2Ġ
gong4Ġ feng4Ġ
nv3Ġ shen2Ġ
Ġgai1Ġ gong1Ġsi1Ġ
yan2Ġjiu1Ġ yuan2Ġ
9Ġ ge4Ġ
Ġshi3Ġ qi2Ġ
199 8Ġnian2Ġ
ĠM Ġ
po1Ġ er3Ġ
Ġ min3Ġ
yu2Ġ shi2ĠdeĠren2Ġkou3Ġshu4Ġliang4Ġwei4Ġren2Ġ
gu a3Ġ
li4Ġ ti3Ġ
zhi4Ġ cai2Ġ
jia1Ġ gong1Ġ
ming2Ġ e2Ġ
xia4Ġ men2Ġ
xiang4Ġ xi1Ġ
bo1Ġ chu1ĠdeĠ
li2Ġ hun1Ġ
ling2Ġ deĠ
3 9Ġnian2Ġ
ao4Ġ duo1Ġ
ge2Ġ lei2Ġ
dao3Ġ shi1Ġ
gu3Ġ ji4Ġ
ying3Ġ ping2Ġ
gou4Ġ wu4Ġ
Ġ15 8
shou1Ġshi4Ġ lv4Ġ
Ġ yan1Ġ
wei4Ġ you2Ġ
xin1Ġ qu1Ġ
ren4Ġ ding4Ġ
bing4Ġ zai4Ġ
lian2Ġ dui4Ġ
Ġchu2Ġ ci3Ġzhi1Ġwai4Ġ
deĠ suo3Ġyou3Ġ
chu1Ġ ji2Ġ
bao3Ġ jia1Ġli4Ġya4Ġ
pu3Ġ ji2Ġ
su1Ġ da2Ġ
Ġxi1Ġ la4Ġ
qu3Ġde2Ġ leĠ
Ġtai4Ġ guo2Ġ
3 6Ġnian2Ġ
bu4Ġ yu3Ġ
mu4Ġ deĠ
2 9Ġnian2Ġ
ji1Ġ fu3Ġ
nan2Ġ si1Ġla1Ġfu1Ġ
deng3Ġ yu2Ġ
zong3Ġ si1Ġling4Ġ
bing1Ġ chuan1Ġ
guo2Ġjia1Ġ an1Ġquan2Ġ
199 6Ġnian2Ġ
yu2Ġ18 8
xian4Ġzai4Ġ deĠ
2 7Ġnian2Ġ
deĠ liang3Ġ
ĠĠĠ ge4Ġ
shi4Ġ xin1Ġ
shi3Ġ di4Ġ
ke4Ġ che1Ġ
dong4Ġ tai4Ġ
ban1Ġ bu4Ġ
qin1Ġ fan4Ġ
Ġzhi4Ġ shao3Ġ
bu3Ġ zhu4Ġ
Ġn ai4Ġ
deĠguan1Ġ dian3Ġ
jie4Ġquan2Ġguo2Ġ ren2Ġmin2Ġdai4Ġbiao3Ġda4Ġhui4Ġ
² Ġ
you3Ġ liang3Ġge4Ġ
bing4Ġ bu2Ġshi4Ġ
zhou1Ġ ren2Ġ
long2Ġ sheng3Ġ
Ġyi4Ġ shu4Ġ
Ġjie2Ġ zhi4Ġ202
ba3Ġ ta1Ġ
ji2Ġtuan2Ġ jun1Ġ
Ġ195 2Ġnian2Ġ
guang3Ġbo1Ġ gong1Ġsi1Ġ
deĠguan1Ġ fang1Ġ
8 7
O R
4Ġ mi3Ġ
an i
ĠĠĠ xiao3Ġ
ĠĠĠ ling4Ġ
yi1Ġ suo3Ġ
zuo4Ġ wu4Ġ
zhe3Ġ wei4Ġ
zai1Ġ nan4Ġ
zuo4Ġqu3Ġ jia1Ġ
t yĠĠĠ
deĠ jie2Ġguo3Ġ
ĠĠĠ huo4Ġ
ĠĠĠ wu1Ġke4Ġlan2Ġ
Ġzh a1Ġ
qi1Ġ kan1Ġ
shou3Ġ zhang1Ġ
fu2Ġ lu3Ġ
bei3Ġ ping2Ġ
men tĠ
da3Ġ kai1Ġ
Ġjin1Ġ shu3Ġ
rui4Ġ la1Ġ
ĠP Ġ
ch ao3Ġ
he2Ġ ji2Ġ
yi3Ġ zai4Ġ
pi ng1Ġ
jiu4Ġ zai4Ġ
you4Ġ yi4Ġ
shen2Ġ she4Ġ
tui1Ġ ce4Ġ
Ġzhan4Ġ hou4Ġ
Ġka3Ġ er3Ġ
D S
E N
Ġ niu3Ġ
zhi4Ġ zhong1Ġ
zuo4Ġ leĠ
mu4Ġ shi1Ġ
chang2Ġ chun1Ġ
jiao1Ġ xiang3Ġ
hong2Ġ shui3Ġ
Ġbei4Ġ cheng1Ġwei2Ġ
Ġjin4Ġ er2Ġ
shi4Ġyi1Ġ zuo4Ġ
Ġreng2Ġ ran2Ġ
4 00Ġ
Ġ fang4Ġ
Ġ xie2Ġzhu4Ġ
an4Ġ li4Ġ
bu4Ġ xiang2Ġ
chu3Ġ jue2Ġ
Ġmian4Ġji1Ġ 0
duo2Ġ qu3Ġ
mou3Ġ zhong3Ġ
ĠĠĠ wu3Ġ
ĠĠĠ wei4ĠleĠ
shi2Ġ bei4Ġ
gong1Ġ yu4Ġ
shi3Ġ zhong1Ġ
fa3Ġ xue2Ġ
fen1Ġ xiang3Ġ
fu2Ġ shi4Ġ
ze2Ġ yi3Ġ
jin1Ġ tian1Ġ
mu3Ġ jian4Ġ
Ġl ai4Ġ
Ġan1Ġ de2Ġ
yu2Ġ200 6Ġnian2Ġ
dai4Ġ lai2ĠdeĠ
xiang1Ġ fan3Ġ
shou3Ġ er3Ġ
fu2Ġ te4Ġ
ding4Ġ yi4Ġwei4Ġ
ti3Ġ xing2Ġ
lv4Ġ hua4Ġ
huo2Ġ xing4Ġ
ku4Ġ er3Ġ
at eĠĠĠ
ren4Ġ nei4Ġ
ping2Ġ ding4Ġ
bei3Ġ han2Ġ
ge2Ġ lai2Ġ
qian1Ġ ming2Ġ
xue4Ġ tong3Ġ
wei4Ġ zhong1Ġ
yi1Ġ fen4Ġ
jia1Ġ bin1Ġ
xia4Ġ xun2Ġ
ze2Ġ bei4Ġ
ying1Ġ chao1Ġ
Ġdan4Ġ que4Ġ
chong2Ġ bai4Ġ
hun1Ġ li3Ġ
ruo4Ġ gan1Ġ
tao3Ġ fa2Ġ
Ġjiang3Ġ shu4Ġ
huan3Ġ man4Ġ
Ġ xie3Ġ
Ġ wang4Ġ
he2Ġ she4Ġhui4Ġ
zhan4Ġ qian2Ġ
qi4Ġ he2Ġ
mo2Ġ fang3Ġ
du2Ġ te4Ġ
du2Ġ zhe3Ġ
zhuan3Ġ cheng2Ġ
huan4Ġ xiang3Ġ
zang4Ġ yu2Ġ
ĠD Ġ
ĠÐ °
Ġan4Ġ zhao4Ġ
Ġrui4Ġ dian3Ġ
2 6Ġnian2Ġ
Ġ xue3Ġ
ji a2Ġ
zai4Ġ nei4Ġ
xing4Ġ ge2Ġ
fen4Ġ nu4Ġ
jing3Ġ qu1Ġ
Ġk an3Ġ
Ġtong2Ġshi2Ġ ye3Ġshi4Ġ
zi4Ġ zhu3Ġ
che1Ġ ren2Ġci4Ġ
ru4Ġ leĠ
shui3Ġ dao4Ġ
ti2Ġgong1Ġ deĠ
Ġren2Ġ men
Ġguo2Ġ li4Ġ
tian1Ġwen2Ġ xue2Ġjia1Ġ
sang4Ġ shi1Ġ
3 1Ġnian2Ġ
a1Ġ fu4Ġhan4Ġ
ĠĠĠ mei3Ġ
shi4Ġ da4Ġ
wei4Ġ jian4Ġ
cheng2Ġ xiang4Ġ
ri4Ġ yuan2Ġ
ta1Ġ ren2Ġ
fen1Ġ qi2Ġ
mu4Ġ zhi4Ġ
zong3Ġ shu1Ġji4Ġ
tian1Ġ shi3Ġ
wen2Ġhua4Ġ deĠ
Ġ zi3Ġ
Ġd u1Ġ
jue2Ġ ce4Ġ
ti2Ġ an4Ġ
mei3Ġguo2Ġ zong3Ġtong3Ġ
xun4Ġ xi1Ġ
199 2Ġnian2Ġ
Ġhuo2Ġ dong4Ġ
N H
m a4Ġ
shi4Ġ zui4Ġ
19 00
ba1Ġ ma3Ġ
Ġ197 0Ġnian2Ġ
Ġ197 5Ġnian2Ġ
shuai4Ġ xian1Ġ
Ġchi4Ġ wei3Ġ
3 3Ġnian2Ġ
ĠĠĠ fen1Ġlei4Ġ
ji2Ġ ya4Ġ
ji4Ġ qiao3Ġ
liu2Ġ lang4Ġ
on t
kong4Ġ zhi4ĠdeĠ
ĠS t
Ġren4Ġ he2Ġ
guang3Ġbo1Ġ dian4Ġtai2Ġ
0 2Ġ
Ġ wang1Ġ
3Ġ ming2Ġ
ai4Ġ hao4Ġ
zai4Ġ xian4Ġ
luo2Ġ xuan2Ġ
zhong1Ġguo2Ġ guo2Ġmin2Ġdang3Ġ
Ġ194 1Ġnian2Ġ
fa1Ġbu4Ġ leĠ
ĠĠĠ ta1ĠdeĠ
xue2Ġ tang2Ġ
guan1Ġ shang3Ġ
quan2Ġ shi4Ġjie4Ġ
dian4Ġ lu4Ġ
nei4Ġ rui4Ġla1Ġ
ming4Ġ yun4Ġ
chi4Ġ jing1Ġ
3 2Ġnian2Ġ
3 4Ġnian2Ġ
di4Ġ yi4Ġbai3Ġ
zhi1Ġ nv3Ġ
liu2Ġ deĠ
ci3Ġ shi4Ġ
tuan2Ġ deĠ
7 8Ġ
e li
shi4Ġ ĠĠ
jian4Ġ li4ĠdeĠ
ben3Ġ di4Ġqu1Ġ
wei3Ġ chang2Ġwei3Ġ
xiao4Ġ you3Ġ
xian1Ġ qian2Ġ
Ġyi1Ġ wei4Ġ
can1Ġsai4Ġ zi1Ġge2Ġ
Ġdu2Ġ li4Ġ
bu4Ġ shou4Ġ
li4Ġ tao2Ġwan3Ġ
ji4Ġ shi4Ġ
yan2Ġ deĠ
mu4Ġ er2Ġ
gong4Ġ shi2Ġ
si4Ġ yuan4Ġ
chuan2Ġ shu1Ġ
ting2Ġ che1Ġchang3Ġ
hang2Ġ xing2Ġ
Ġhuo4Ġ cheng1Ġ
deĠshi4Ġ jian4Ġ
cheng2Ġgong1Ġ deĠ
Ġchang2Ġ qi1Ġ
ĠĠĠ ka3Ġ
ren2Ġ dou1Ġ
you3Ġ liang3Ġ
jun1Ġ jian4Ġ
zhou1Ġ deĠyi2Ġge4Ġshi4Ġzhen4Ġ
Ġshi4Ġ xing1Ġdeng3Ġwei4Ġ
qi3Ġ tu2Ġ
shen1Ġ shi4Ġ
ci2Ġ ke4Ġ
ha1Ġ de2Ġ
wen1Ġ quan2Ġ
ĠĠĠ n
wei4Ġ yuan2Ġ
zhong1Ġ shi4Ġji4Ġ
zhou1Ġ mo4Ġ
kai1Ġ qi3Ġ
deĠyi1Ġ xiang4Ġ
huan2Ġ qiu2Ġ
Ġwei4Ġyu2Ġgai1Ġguo2Ġ xi1Ġbu4Ġ
wu2Ġxian4Ġ dian4Ġ
wan2Ġzheng3Ġ deĠ
lu4Ġ de2Ġ
jie2Ġ yun4Ġ
deng3Ġ deĠ
ban1Ġ deĠ
Ġhe2Ġ zuo4Ġ
Ġ qiong2Ġ
1Ġ mi3Ġ
ji1Ġ dong4Ġ
ju4Ġ dian3Ġ
zhong1Ġguo2Ġ ren2Ġmin2Ġ
luo4Ġ hou4Ġ
wa3Ġ duo1Ġ
Ġ195 4Ġnian2Ġ
198 8Ġnian2Ġ
Ġche4Ġ xiao1Ġ
6 8Ġ
i dĠ
s on
zhi1Ġ dui4Ġ
dao4Ġ qian4Ġ
ming2Ġ ni2Ġ
shi3Ġ ta1Ġ
shu4Ġ ge4Ġ
shu1Ġ fa3Ġ
bian1Ġ xing2Ġ
ban3Ġ quan2Ġ
Ġbu4Ġ lai2Ġ
i st
sh ao2Ġ
ĠĠĠ fen1Ġbu4Ġ
zhi1Ġ cheng1Ġ
dai4Ġ zhu4Ġ
feng1Ġ deĠ
tian1Ġ wen2Ġxue2Ġ
ling2Ġ gan3Ġ
jin3Ġ jin3Ġ
Ġ193 9Ġnian2Ġ
Ġqi1Ġ xi1Ġ
6 7Ġ
Ġ guang3Ġzhou1Ġ
jian4Ġ die2Ġ
zhan4Ġ bai4Ġ
Ġshi4Ġ xia4Ġxia2ĠdeĠyi2Ġge4Ġ
chuan2Ġ di4Ġ
pin2Ġ kun4Ġ
min2Ġzu2Ġ zhu3Ġyi4Ġ
y st
Ġ xi4Ġtong3Ġ
xin1Ġ zang4Ġ
xin1Ġ tai2Ġbi4Ġ
fen1Ġ zu3Ġ
sheng3Ġ zhang3Ġ
zao4Ġ deĠ
ne4Ġ sheng3Ġ
Ġtuan2Ġ ti3Ġ
shou4Ġhai4Ġ zhe3Ġ
yu3Ġ shi4Ġ
dui4Ġ you3Ġ
Ġshi4Ġ jian4Ġ
jian1Ġ guan3Ġ
xi2Ġ su2Ġ
xin4Ġ yong4Ġ
9 2Ġ
xi1Ġ qu1Ġ
shi3Ġ jian4Ġyu2Ġ
xia4Ġ tian1Ġ
xiang4Ġ nan2Ġ
fen1Ġ fen1Ġ
na4Ġ sheng3Ġ
4 4
A L
deĠ ri4Ġben3Ġ
xian4Ġ cun2Ġ
ge4Ġ di4ĠdeĠ
Ġzhe4Ġ zuo4Ġ
ĠA l
sheng1Ġhuo2Ġ zai4Ġ
ĠR Ġ
Ġzhun3Ġ bei4Ġ
o ol
Ġ ë
Ġ li
ĠĠĠ ke1Ġ
dao4Ġ fu1Ġ
xiang4Ġ dong1Ġ
quan2Ġ wei1Ġ
qiu2Ġ bi3Ġsai4Ġ
shi1Ġ ti3Ġ
hai3Ġ guan1Ġ
yang2Ġ zhou1Ġ
bian1Ġ zhi4Ġ
bian1Ġ xie3Ġ
yang4Ġ ben3Ġ
guang3Ġfan4Ġ deĠ
C DĠ
x ĠĠĠ
ch uo4Ġ
si1Ġ sheng3Ġ
zhi3Ġ ling4Ġ
zhen4Ġ wang2Ġ
zu2Ġ zi4Ġzhi4Ġ
gu3Ġ ba1Ġ
bian4Ġ shi4Ġ
bian4Ġ lun4Ġ
luo4Ġ bai4Ġ
Ġwei4Ġyu2Ġ yin2Ġ
di4Ġer4Ġ ge4Ġ
tao2Ġ yuan2Ġ
xian4ĠdeĠ fei1Ġjian4Ġzhi4Ġdi4Ġqu1Ġ
Ġ194 4Ġnian2Ġ
lei3Ġ ji1Ġ
sou1Ġ suo3Ġ
i ni
Ġ xian3Ġ
Ġ shou1Ġlu4Ġ
er v
xing2Ġ bu4Ġ
shou3Ġ ren4Ġ
Ġzai4Ġ na4Ġli3Ġ
luo4Ġ te4Ġ
Ġch un2Ġ
ju2Ġ bu4Ġ
ren2Ġmin2Ġ fa3Ġyuan4Ġ
Ġjin4Ġ shi4Ġ
ĠĠĠjian3Ġ li4Ġ
p ang1Ġ
shang4Ġ bu4Ġ
jin1Ġ gang1Ġ
ying3Ġ ye4Ġ
ha1Ġ li3Ġ
gang1Ġ tie3Ġ
sui2Ġ ji1Ġ
Ġjie2Ġ shu4Ġ
pian1Ġ xiao3Ġshuo1Ġ
00 ĠĠĠ
ming2Ġcheng1Ġ wei4Ġ
la s
shun4Ġshi2Ġzhen1Ġ yu3Ġ
B SĠ
u c
Ġ kong1Ġ
deĠ fan3Ġ
shi2Ġ san1Ġnian2Ġ
en1Ġ lai2Ġ
leĠ liang3Ġ
wang3Ġ lai2Ġ
hang2Ġ zhan4Ġlou2Ġ
tao2Ġ li2Ġ
jia1Ġru4Ġ zhong1Ġguo2Ġgong4Ġchan3Ġdang3Ġ
Ġren2Ġ menĠ
deĠda4Ġ xing2Ġ
Ġh ong1Ġ
shan1Ġ chu2Ġ
ying1Ġ wu3Ġ
shuo1Ġ shi4Ġ
hai2Ġ bao1Ġkuo4Ġ
Ġwei4Ġyu2Ġ zhong1Ġguo2Ġ
Ġfei1Ġ lv4Ġbin1Ġ
sp anĠ
ji2Ġxing2Ġzheng4Ġ dan1Ġwei4Ġ
jiao4Ġ xiao3Ġ
che1Ġ deĠ
shan1Ġ kou3Ġ
Ġdui4Ġ ci3Ġ
Ġ194 0Ġnian2Ġ
an1Ġ da3Ġ
bu4Ġ liang2Ġ
zhi1Ġ lu4Ġ
hua4Ġ he2Ġ
qian1Ġ wang3Ġ
xiang3Ġ you3Ġ
reng2Ġ wei4Ġ
quan2Ġguo2Ġ zhong4Ġdian3Ġwen2Ġwu4Ġbao3Ġhu4Ġdan1Ġwei4Ġ
Ġguan1Ġ zhuang4Ġbing4Ġdu2Ġ
Ġke4Ġ li3Ġsi1Ġ
xue2Ġshi4Ġ xue2Ġwei4Ġ
ge4Ġ xiang4Ġ
jun1Ġ fang1Ġ
ye3Ġ mei2Ġyou3Ġ
huo4Ġ qi2Ġta1Ġ
Ġyi4Ġ qi3Ġ
diao4Ġ yu2Ġ
shou4Ġdao4Ġ leĠ
Ġchong2Ġ qing4Ġ
yi4Ġshi2Ġ dao4Ġ
Ġtui1Ġ chu1Ġ
ke4Ġluo2Ġ di4Ġya4Ġ
e dĠ
zhi4Ġ li4Ġyu2Ġ
zhi1Ġ li3Ġ
ge2Ġ si1Ġ
bian1Ġ qu1Ġ
sheng4Ġ dan4Ġ
zheng4Ġzhi4Ġ ju2Ġ
hen3Ġ da4ĠdeĠ
fei2Ġ te4Ġlie4Ġ
Ġ Ä
Ġ er3Ġ
ĠĠĠ jing1Ġli4Ġ
fang1Ġ xing2Ġ
jing1Ġ ti3Ġ
jie1Ġ tou2Ġ
Ġqi2Ġ B
ci2Ġ ji1Ġ
Ġdang1Ġ xuan3Ġ
deĠshi4Ġ qing2Ġ
pei2Ġ chang2Ġ
ĠĠĠche1Ġzhan4Ġ gou4Ġzao4Ġ
Ġhen3Ġ duo1Ġ
Ġyin2Ġ wei3Ġ
5 7Ġ
8 3Ġ
deĠ jue2Ġdui4Ġ
ĠĠĠ sha1Ġ
ĠĠĠ guo2Ġji4Ġ
er2Ġ wen2Ġming2Ġ
tong2Ġ shi4Ġ
qin1Ġ lve4Ġ
Ġmei3Ġ zhou1Ġ
si sĠ
chao1Ġji2Ġ lian2Ġsai4Ġ
I V
ji2Ġ ju4Ġ
da4Ġ pi1Ġ
ta1Ġ dui4Ġ
0Ġ zuo4Ġbiao1Ġwei4Ġ
qiu2Ġ deĠ
bei3Ġ bu4ĠdeĠ
Ġdan4Ġ shi4Ġzai4Ġ
zu2Ġ zi4Ġzhi4Ġqu1Ġ
gui1Ġ ge2Ġ
Ġ194 2Ġnian2Ġ
Ġwei4Ġyu2Ġyin2Ġ jing1Ġ
Ġqi2ĠB 1900
0Ġzuo4Ġbiao1Ġwei4Ġ chi4Ġjing1Ġ
8 6
A l
a f
2Ġ li4Ġ
yi3Ġ ci3Ġ
ri4Ġ deĠ
zui4Ġ zhong4Ġyao4ĠdeĠ
bao4Ġ fu4Ġ
zheng1Ġ lun4Ġ
Ġdi4Ġ wu3Ġ
ï¼ İ
shao3Ġshu4Ġ min2Ġzu2Ġ
Ġqing1Ġchao2Ġ zheng4Ġzhi4Ġren2Ġwu4Ġ
b eng4Ġ
o y
sheng1Ġ yu4Ġ
kai1Ġ bo1Ġ
wang3Ġ min2Ġ
yong3Ġ yuan3Ġ
wo4Ġ er3Ġ
pao4Ġ bing1Ġ
geng1Ġ gai3Ġ
duan1Ġ deĠ
zu3Ġcheng2Ġ bu4Ġfen4Ġ
Ġ196 0Ġnian2Ġ
Ġãĥ ³
ĠĠĠ zheng1Ġyi4Ġ
da4Ġ yu2Ġ
lu4Ġ shi4Ġ
can1Ġ yan3Ġ
da3Ġ bai4Ġ
qi2Ġta1Ġ deĠ
bu3Ġ ji3Ġ
Ġshi3Ġ jian4Ġyu2Ġ
Ġceng2Ġ zai4Ġ
8 7Ġ
Ġ yang3Ġ
zhou1Ġ kan1Ġ
gu3Ġ wu1Ġ
fang2Ġ xian4Ġ
Ġdi4Ġ xia4Ġ
gong1Ġzuo4Ġ zhe3Ġ
Ġbo1Ġ chu1Ġ
pu3Ġlu3Ġ shi4Ġ
r yĠĠĠ
nian2Ġ qian2Ġ
shi2Ġ hui4Ġ
de2Ġ piao4Ġ
ping2Ġ shen3Ġ
zhu4Ġ di4Ġ
jiao4Ġ da4ĠdeĠ
ci4Ġ deĠ
si4Ġ miao4Ġ
geng4Ġ gao1Ġ
geng4Ġ da4ĠdeĠ
Ġl ou2Ġ
le4Ġ yuan2Ġ
kuang4Ġ wu4Ġ
jun1Ġshi4Ġ tan3Ġ
Ġ196 8Ġnian2Ġ
9 6
Ġ lei4Ġ
ĠĠĠ yin1Ġyue4Ġ
wei4Ġ zhi1Ġ
you3Ġ duo1Ġ
chu1Ġ tu3Ġ
xiao3Ġ ping2Ġ
bian1Ġ ru4Ġ
fang2Ġ shou3Ġ
guo2Ġjia1Ġ zu2Ġqiu2Ġdui4Ġ
fan2Ġ mang2Ġ
Ġ193 5Ġnian2Ġ
Ġti3Ġ yu4Ġ
mei3Ġshu4Ġ guan3Ġ
da4Ġjiang3Ġ sai4Ġ
bo1Ġshi4Ġ dun4Ġ
ã Ĥ
ren2Ġ zhi4Ġ
ji2Ġ xian4Ġ
zhen4Ġ ying2Ġ
zhuan3Ġ bo1Ġ
ying1Ġguo2Ġ deĠ
duan3Ġ pian4Ġ
gong1Ġbu4Ġ wei4Ġ
mo2Ġte4Ġ er2Ġ
C T
a tĠ
deĠ zheng4Ġ
he2Ġ di4Ġ
ren2Ġ cheng1Ġ
yi4Ġ zhang3Ġ
er3Ġ ci2Ġ
nan2Ġ bu4ĠdeĠ
ba1Ġ bu4Ġ
du2Ġ shu1Ġ
Ġm a2Ġ
ĠE Ġ
Ġ196 6Ġnian2Ġ
zhuan3Ġyi2Ġ dao4Ġ
ji1Ġqi4Ġ ren2Ġ
8 8Ġ
P S
deĠ sheng1Ġhuo2Ġ
shi4Ġ pai2Ġ
qi n3Ġ
he2Ġ kou3Ġ
ren4Ġ tian1Ġtang2Ġ
shu4Ġ zhi2Ġ
duo1Ġ fu1Ġ
zhi3Ġ biao1Ġ
zhen1Ġ zheng4ĠdeĠ
tu3Ġ rang3Ġ
xue4Ġ guan3Ġ
7 6Ġ
Ġ gong1Ġzuo4Ġ
ĠĠĠ h
jian4Ġ zheng4Ġ
dui4Ġ bi3Ġ
gao1Ġ di4Ġ
jiao1Ġ fu4Ġ
dian3Ġ xing2ĠdeĠ
shi2Ġjian1Ġ nei4Ġ
Ġyin1Ġci3Ġ zai4Ġ
zhi4Ġzao4Ġ shang1Ġ
qiang3Ġ po4Ġ
ming2Ġxian3Ġ deĠ
Ġshi2Ġji4Ġ shang4Ġ
gu3Ġlao3Ġ deĠ
t sĠ
shi2Ġ chang2Ġ
ren2Ġ zhi1Ġ
li4Ġ wei3Ġ
xin1Ġ sheng1Ġ
fa1Ġ yin1Ġ
qian2Ġ fang1Ġ
Ġs en1Ġ
jie1Ġ shi4Ġ
mi4Ġ su1Ġli3Ġ
Ġjiang1Ġ xi1Ġ
ning2Ġ tu3Ġ
dang4Ġ deĠ
Ġ000Ġ ming2Ġ
xiang1Ġzhen4Ġ ji2Ġxing2Ġzheng4Ġdan1Ġwei4Ġ
Ġ shao1Ġ
he2Ġ ĠĠ
er sĠ
bu4Ġ si1Ġ
bu4Ġ bei4Ġ
shi3Ġ guan3Ġ
yue1Ġ se4Ġfu1Ġ
5Ġ ming2Ġ
jing3Ġ yuan2Ġ
zhen1Ġ ren2Ġ
eĠĠĠ of
Ġfen1Ġ bu4Ġzai4Ġ
ĠĠĠ an1Ġ
ĠĠĠ zhong1Ġhua2Ġren2Ġmin2Ġgong4Ġhe2Ġguo2Ġ
shi2Ġ si4Ġnian2Ġ
yi4Ġ wu4Ġ
chang3Ġ shang1Ġ
san1Ġ wei4Ġ
ju1Ġ bu3Ġ
xun2Ġ fu3Ġ
Ġxian4Ġ shi2Ġyou2Ġ
ling3Ġshi4Ġ guan3Ġ
E S
ĠĠĠ 11Ġyue4Ġ
yi1Ġ er3Ġ
zuo4Ġ shi4Ġ
shi3Ġ qi2Ġ
suo3Ġ wei4ĠdeĠ
jie2Ġ shi2Ġ
hai3Ġ shi4Ġ
Ġdi4Ġ fang1Ġ
xun2Ġ yan3Ġ
you2Ġxi4Ġ zhong1Ġ
xuan1Ġbu4Ġ jiang1Ġ
duo2Ġ guan4Ġ
shan1Ġmai4Ġ deĠyi1Ġbu4Ġfen4Ġ
xin1Ġguan1Ġfei4Ġyan2Ġ que4Ġzhen3Ġbing4Ġli4Ġ
ĠĠĠ ao4Ġ
yi1Ġ fang1Ġ
er2Ġ fei1Ġ
bei3Ġ lu4Ġ
ceng2Ġ you3Ġ
han4Ġ guo2Ġ
zhuan1Ġ li4Ġ
nong2Ġ du4Ġ
gan1Ġ yu4Ġ
Ġjie1Ġ zhu4Ġ
1Ġ ming2Ġ
ĠĠĠ zhi2Ġ
zai4Ġ shang4Ġhai3Ġ
shi2Ġ wu3Ġnian2Ġ
yi1Ġ zhang1Ġ
Ġt an3Ġ
xiang4Ġ ji1Ġ
jian3Ġ ruo4Ġ
ban3Ġben3Ġ deĠ
r in
t erĠ
zhi4Ġ an1Ġ
zhan4Ġ you3Ġ
wang3Ġ you3Ġ
ar dĠ
ting1Ġ dao4Ġ
geng4Ġ shi4Ġ
Ġru2Ġ jin1Ġ
ĠA n
gui3Ġdao4Ġ jiao1Ġtong1Ġ
24Ġ xiao3Ġshi2Ġ
Ġ qiao2Ġzhi4Ġ
shi2Ġ yue4Ġ
zui4Ġ jin4ĠdeĠ
gao1Ġ feng1Ġ
dong1Ġ lu4Ġ
jie4Ġ shi2Ġ
pu3Ġ zhai4Ġ
luo4Ġ yi1Ġ
Ġnan2Ġ bei3Ġ
Ġ195 9Ġnian2Ġ
ĠH RĠĠĠ
tun2Ġ men2Ġ
tiao2Ġyue1Ġ ti3Ġxi4Ġ
pen2Ġ di4Ġ
an1Ġ xian4Ġ
cheng2Ġ zhong1Ġ
yi4Ġ bei4Ġ
jiao1Ġ dian3Ġ
huan2Ġ rao4Ġ
ta3Ġ ji1Ġ
Ġzhi3Ġ neng2Ġ
wan3Ġ jian1Ġ
yuan3Ġ zheng1Ġ
199 7Ġnian2Ġ
Ġai4Ġ er3Ġ
wen3Ġ ding4ĠdeĠ
li4Ġfa3Ġ wei3Ġyuan2Ġ
jiang4Ġyu3Ġ liang4Ġ
Ġ xiu4Ġ
guo2Ġ ji2Ġ
zhi4Ġ 196
da4Ġ jun1Ġ
hui4Ġ mian4Ġ
sheng1Ġ zai4Ġ
ta1Ġ bei4Ġ
han4Ġ bao3Ġ
xue2Ġyuan4Ġ deĠ
pa4Ġ er3Ġ
fang1Ġxiang4Ġ deĠ
Ġjiao1Ġ tong1Ġ
o mi
Ġ qiang1Ġ
Ġzh ang4Ġ
fa1Ġ deĠ
yu4Ġ fang2Ġ
wu2Ġ xu1Ġ
shuo1Ġ fu2Ġ
bai4Ġ zhan4Ġting2Ġ
zhan4Ġyi4Ġ zhong1Ġ
Ġchao2Ġ ting2Ġ
Ġ liu3Ġ
an4Ġ shi4Ġ
zhan4Ġ qu1Ġ
ju4Ġ he2Ġ
lin2Ġ chuang2Ġ
gai3Ġ zu3Ġ
pei4Ġ yue4Ġ
deĠ hai3Ġ
deĠ quan2Ġli4Ġ
yi1Ġ jian1Ġ
ji4Ġ you3Ġ
dian4Ġ ya1Ġ
ke3Ġ yong4Ġ
jiu4Ġ ren4Ġ
10Ġ ge4Ġ
nan2Ġji2Ġ tiao2Ġyue1Ġti3Ġxi4Ġ
deĠ zuo4Ġbiao1Ġwei4Ġ
zheng4Ġ wei3Ġ
gao1Ġ shan1Ġ
dan1Ġ dang1Ġ
ci3Ġ lei4Ġ
bo2Ġ er3Ġ
ying2Ġ yang3Ġ
jian3Ġ yan4Ġ
shi4Ġjie4Ġ yi2Ġchan3Ġ
jia3Ġ ban3Ġ
hun4Ġ ning2Ġtu3Ġ
ĠĠĠ199 9Ġnian2Ġ
kun1Ġ ming2Ġ
si1Ġling4Ġ yuan2Ġ
Ġ fan3Ġying4Ġ
zhong1Ġ yuan2Ġ
hou4Ġ cai2Ġ
xi1Ġ xian4Ġ
ge4Ġ ji2Ġ
you2Ġ lai2Ġ
shang4Ġ ren4Ġ
de2Ġ lei1Ġ
wu4Ġ pu3Ġ
fa3Ġ gui1Ġ
te4Ġ ji2Ġ
te4Ġ lang3Ġpu3Ġ
ti3Ġ ji1Ġ
ba1Ġ li3Ġ
tan2Ġ he2Ġ
Ġ195 3Ġnian2Ġ
Ġ197 2Ġnian2Ġ
Ġ197 6Ġnian2Ġ
Ġtang2Ġ chao2Ġ
huan2Ġxing2Ġ shan1Ġ
gen3Ġ di4Ġ
deĠ xian4Ġ
deĠ ge1Ġqu3Ġ
ping2Ġ xing2Ġ
fen1Ġ deĠ
dian3Ġ xing2Ġ
sheng4Ġ di4Ġ
se4Ġ qing2Ġ
gang3Ġ tie3Ġ
guo2Ġjia1Ġ ji2Ġ
meng4Ġ xiang3Ġ
Ġ17 9
yuan2Ġwai4Ġ lang2Ġ
l a2Ġ
Ġ hui4Ġyi4Ġ
Ġ bing3Ġ
ĠĠĠ de
hui4Ġ yi3Ġ
jing1Ġ ling2Ġ
eĠĠĠ B
zui4Ġgao1Ġ fa3Ġyuan4Ġ
zui4Ġhou4Ġ yi1Ġci4Ġ
cai3Ġyong4Ġ leĠ
Ġn u3Ġ
ruan3Ġ tiao2Ġ
Ġ16 4
fei1Ġxing2Ġ yuan2Ġ
Ġguang3Ġ xi1Ġ
U N
Ġ xiang1Ġguan1Ġ
di4Ġ an1Ġ
li4Ġ xian4Ġ
dai4Ġ xie4Ġ
mei3Ġ deĠ
fen1Ġ kai1Ġ
ma3Ġ chang3Ġ
ya4Ġ li4Ġ
sai4Ġ guan4Ġjun1Ġ
zhe3Ġ he2Ġ
fu3Ġ bai4Ġ
tong1Ġ xing2Ġ
wei3Ġ ren4Ġ
jie3Ġ mei4Ġ
nuo4Ġ bei4Ġer3Ġ
xing2Ġzheng4Ġ zhang3Ġguan1Ġ
z en3Ġ
Ġ kui2Ġ
Ġ qiang2Ġdiao4Ġ
gong1Ġ ru4Ġ
gong1Ġ ting2Ġ
shi3Ġ jian4Ġ
qian1Ġ ru4Ġ
or g
ĠT Ġ
guo2Ġmin2Ġ ge2Ġming4Ġjun1Ġ
± Ġ
zai4Ġ jia1Ġ
bu4Ġ xia4Ġ
Ġd a1Ġ
shou3Ġ hu4Ġ
zui4Ġ chu1ĠdeĠ
bo1Ġ te4Ġ
xian1Ġ jin4Ġ
xiang1Ġgang3Ġ deĠ
gu4Ġ zhang4Ġ
huo3Ġ li4Ġ
di4Ġsan1Ġ ci4Ġ
nan2Ġji2Ġtiao2Ġyue1Ġti3Ġxi4Ġ guan3Ġli3Ġ
0 4Ġ
Ġ xiang2Ġ
Ġ zeng1Ġjia1Ġ
Ġ neng2Ġgou4Ġ
ĠĠĠ pu3Ġ
guo4Ġ hou4Ġ
ke1Ġ xiao3Ġxing2Ġxing1Ġ
tai2Ġ deĠ
yun4Ġ song4Ġ
na4Ġ he2Ġ
Ġzhe4Ġ shi2Ġ
sha1Ġ ni2Ġya4Ġ
Ġfen1Ġ wei2Ġ
199 4Ġnian2Ġ
Ġ197 7Ġnian2Ġ
ĠJ Ġ
ji4Ġcheng2Ġ ren2Ġ
ĠĠĠ zhi2Ġye4Ġsheng1Ġya2Ġ
shi2Ġ liu4Ġnian2Ġ
yi1Ġ wan4Ġ
jia1Ġ shu3Ġ
Ġshi4Ġ zai4Ġ
zhen4Ġ deĠ
shui3Ġ shang4Ġ
zhuan1Ġ qu1Ġ
Ġ194 3Ġnian2Ġ
miao4Ġ yu3Ġ
sai1Ġbai4Ġ jiang1Ġ
b u
ren2Ġ li4Ġ
shi3Ġ zhe3Ġ
shi1Ġ zhang3Ġ
qi3Ġ chu1Ġ
lie4Ġ si1Ġ
zhan3Ġ chu1Ġ
18 4
kao3Ġ ru4Ġ
Ġshi3Ġ mi4Ġsi1Ġ
xue2Ġxiao4Ġ deĠ
Ġping2Ġ cheng2Ġ
sun3Ġ hai4Ġ
da1Ġ zai4Ġ
Ġguan1Ġzhuang4Ġbing4Ġdu2Ġ bing4Ġ
n c
jian4Ġ jian4Ġ
leĠ zai4Ġ
nan2Ġ zhu3Ġjue2Ġ
qi1Ġ yue4Ġ
xiao4Ġ deĠ
bo2Ġ la1Ġ
ji3Ġ nei4Ġya4Ġ
cai2Ġ ding4Ġ
18 5
xun2Ġ wen4Ġ
fang3Ġ zhi1Ġ
fen1Ġbie2Ġ shi4Ġ
ĠĠ shi4Ġ
an1Ġ fu3Ġ
bu4Ġ yi1Ġ
ben3Ġ pian4Ġ
Ġbing4Ġ you3Ġ
kou3Ġ hao4Ġ
feng1Ġ mian4Ġ
Ġer2Ġ hou4Ġ
jiao1Ġ zhan4Ġ
ding1Ġ mu4Ġ
Ġ196 4Ġnian2Ġ
qu1Ġyi4Ġhui4Ġ xuan3Ġju3Ġ
E T
a sĠ
r en
ĠĠĠ mu4Ġ
ĠĠĠ dian4Ġying3Ġ
da4Ġ lin2Ġ
zhu4Ġ zhong4Ġ
hai3Ġ nan2Ġ
er4Ġ ci4Ġ
ba1Ġ si1Ġ
fang2Ġ wei4Ġ
9Ġ ping2Ġfang1Ġgong1Ġli3Ġ
gan1Ġ rao3Ġ
Ġ15 9
t sĠĠĠ
Ġ fu2Ġwu4Ġ
Ġ min2Ġzhu3Ġ
Ġ chuan2Ġtong3Ġ
he2Ġ yu3Ġ
yuan2Ġ lai2Ġ
da4Ġ ting1Ġ
dian4Ġ xin4Ġ
te4Ġ li4Ġ
ba1Ġ sai1Ġer3Ġ
chuan2Ġ jiao4Ġ
Ġzhu an4Ġ
er4Ġshi2Ġ nian2Ġ
cha1Ġ ju4Ġ
Ġ15 6
dong3Ġ shi4Ġhui4Ġ
yi1Ġli4Ġ nuo4Ġ
qi2Ġ shi2Ġ
you2Ġ zheng4Ġ
yu4Ġ qi1Ġ
Ġb a4Ġ
si4Ġ wei4Ġ
bao3Ġ yu4Ġ
Ġzhe4Ġ li3Ġ
shen2Ġ fu4Ġ
ĠS h
cun2Ġzai4Ġ yu2Ġ
min3Ġ gan3Ġ
xian4Ġdai4Ġ hua4Ġ
cheng2Ġdu4Ġ shang4Ġ
Ġ ying2Ġde2Ġ
ĠĠĠ she4Ġhui4Ġ
li n4Ġ
lai2Ġ wu4Ġ
jin4Ġ zhan3Ġ
or l
hao2Ġ wu2Ġ
8 6Ġ
ĠĠ M
zhong1Ġ ye3Ġ
zhe4Ġ xiang4Ġ
xu4Ġ ji2Ġ
di4Ġshi2Ġ san1Ġ
tai4Ġyang2Ġ gong1Ġ
a dĠĠĠ
r aĠ
Ġ fa1Ġsheng1Ġ
zhong1Ġ li4Ġ
Ġshi4Ġ zhong1Ġhua2Ġren2Ġmin2Ġgong4Ġhe2Ġguo2Ġ
jie4Ġ you2Ġ
yue1Ġ ke4Ġ
men tĠĠĠ
nv3Ġ ren2Ġ
tai2Ġwan1Ġ deĠ
Ġsui2Ġ ji2Ġ
xiang1Ġdang1Ġ yu2Ġ
da1Ġ pei4Ġ
c an4Ġ
Ġ ying4Ġ
1Ġ jia1Ġ
ren2Ġ wen2Ġ
dai4Ġ kuan3Ġ
mian4Ġ qian2Ġ
gong4Ġ xiang3Ġ
shen2Ġ deĠ
duan4Ġ deĠ
bao1Ġkuo4Ġ yi3Ġxia4Ġ
Ġjie1Ġ wei4Ġ
Ġgai3Ġ bian1Ġ
mou3Ġ ge4Ġ
G B
l yĠĠĠ
Ġ qu3Ġdai4Ġ
ĠĠĠ m
ĠĠĠ xiang1Ġguan1Ġ
guo2Ġ hui4Ġyi4Ġyuan2Ġ
chu1Ġ zi4Ġ
zhi2Ġ ren2Ġyuan2Ġ
ke1Ġ li4Ġ
jiao1Ġ qu1Ġ
pu3Ġ lei1Ġ
jiang3Ġ deĠ
jian3Ġ cheng1Ġ
zhen1Ġ si4Ġ
yu2Ġ200 5Ġnian2Ġ
o sĠ
s ti
an4Ġ sha1Ġ
qi e2Ġ
yu2Ġ lun4Ġ
yuan2Ġ sheng1Ġ
jian4Ġ ting3Ġ
xin1Ġ cheng2Ġ
she4Ġ shi4Ġ
shou3Ġ pi1Ġ
zui4Ġ xiao3Ġ
qi4Ġ guan1Ġ
jiu4Ġ ye4Ġ
wei1Ġ ni2Ġsi1Ġ
Ġhe2Ġ bing4Ġ
deĠyi1Ġ jia1Ġ
zheng4Ġzhi4Ġ jia1Ġ
Ġzhi2Ġ ye4Ġ
0 3Ġ
wei4Ġ jing1Ġ
ren2Ġ ren4Ġwei2Ġ
jun1Ġ bei4Ġ
hu4Ġ zhao4Ġ
shuo1Ġ deĠ
Ġdi4Ġ yi1Ġci4Ġ
huan2Ġ bao3Ġ
bu3Ġ ru3Ġ
zhan4Ġzheng1Ġ deĠ
Ġba1Ġ li2Ġ
pao4Ġ ta3Ġ
deĠhe2Ġ xin1Ġ
pin4Ġ qing3Ġ
ban1Ġjiang3Ġ dian3Ġli3Ġ
Ġ ying3Ġxiang3Ġ
ĠĠĠ min2Ġguo2Ġ
gong1Ġ ping2Ġ
you3Ġ li4Ġ
jia1Ġ ju4Ġ
hou4Ġ bu4Ġjiu3Ġ
hui4Ġ zhi4Ġ
zhan4Ġ dui4Ġ
fu4Ġ mian4Ġ
dai4Ġ dao4Ġ
Ġta1Ġ dui4Ġ
que4Ġ shi2Ġ
bai2Ġ ren2Ġ
aĠĠĠ S
Ġzong3Ġ bu4Ġ
suan1Ġ yan2Ġ
Ġhua2Ġ sheng4Ġdun4Ġ
lian2Ġxu4Ġ ju4Ġ
ent erĠ
Ġsu2Ġ cheng1Ġ
a le
e i
Ġ biao3Ġ
ĠĠĠ shang4Ġ
fa3Ġ ding4Ġ
shou3Ġ fa3Ġ
ziĠ he2Ġ
ban4Ġ lv3Ġ
fan3Ġ ji1Ġ
fan4Ġ dian4Ġ
zhu1Ġ duo1Ġ
fan2Ġ rong2Ġ
Ġ195 1Ġnian2Ġ
ĠĠĠ194 5Ġnian2Ġ
zong4Ġ dui4Ġ
4 3
ren2Ġ wei2Ġ
guan1Ġ yin1Ġ
shou3Ġ ying4Ġ
ding4Ġ lv4Ġ
ke1Ġ jin4Ġshi4Ġ
li2Ġ ba1Ġnen4Ġ
cong2Ġ zhong1Ġ
meng2Ġ de2Ġ
jian3Ġ hua4Ġ
han2Ġ yi4Ġ
Ġk ao4Ġ
Ġp ao4Ġ
yin4Ġdu4Ġ ni2Ġxi1Ġya4Ġ
cui1Ġ hua4Ġ
deĠte4Ġ you3Ġ
C A
ĠĠĠ zhe4Ġxie1Ġ
shi2Ġ yu2Ġ
en1Ġ si1Ġ
zhi2Ġ fa3Ġ
lin2Ġ na4Ġ
bi3Ġ 2Ġ
su1Ġ zhou1Ġ
song4Ġ wang3Ġ
Ġgong1Ġ kai1Ġ
qiu1Ġ ji4Ġ
zhu3Ġjiao4Ġ zuo4Ġtang2Ġ
Ġ197 4Ġnian2Ġ
Ġ197 3Ġnian2Ġ
ĠĠĠP ro
wu4Ġli3Ġ xue2Ġjia1Ġ
2Ġ ming2Ġ
an4Ġ zhong1Ġ
a1Ġ mu3Ġ
li4Ġ ren4Ġ
qi1Ġ wei4Ġ
suo3Ġ xia2Ġ
fan4Ġ chou2Ġ
shao3Ġ liang4Ġ
Ġyou4Ġ yi4Ġ
Ġ18 0
tan4Ġ tao3Ġ
zhi1Ġqian2Ġ deĠ
sheng1Ġwu4Ġ xue2Ġ
san1Ġjiao3Ġ xing2Ġ
Ġtun2Ġ qi2Ġ
9 4Ġ
Ġ guan4Ġ
Ġ lun2Ġdun1Ġ
wei4Ġ lin2Ġ
li4Ġ ao4Ġ
yuan2Ġ ding4Ġ
qi2Ġ xia4ĠdeĠ
ren4Ġ yi4Ġ
qiu2Ġ fan4Ġ
che1Ġ xing2Ġ
dong1Ġ hai3Ġ
yun4Ġ zai4Ġ
da2Ġ ni2Ġ
ce4Ġ hua4Ġ
Ġzhong1Ġ yu2Ġ
pai2Ġ fang4Ġ
deĠyi1Ġ wei4Ġ
da3Ġ jin4Ġ
kuai4Ġ deĠ
zuo3Ġ pai4Ġ
Ġzhu3Ġ zhang1Ġ
ya3Ġ dian3Ġ
zun1Ġ xun2Ġ
ji2Ġzhong1Ġ zai4Ġ
âĪ Ĵ
a de
Ġ za2Ġ
Ġ xian3Ġshi4Ġ
ren2Ġ dao4Ġ
xian4Ġ yu3Ġ
Ġt ao3Ġ
yin1Ġ qi2Ġ
qi3Ġ fei1Ġ
0Ġnian2Ġdai4Ġ mo4Ġ
leĠyi1Ġ xi4Ġlie4Ġ
ri4Ġzhi4Ġ shi2Ġqi1Ġ
zong1Ġyi4Ġ jie2Ġmu4Ġ
ĠĠĠ v
che1Ġ shou3Ġ
guang1Ġ xue2Ġ
Ġyu3Ġ yan2Ġ
ol spanĠ
zai1Ġ hai4Ġ
ĠÐ ¾
Ġtu3Ġ er3Ġqi2Ġ
ĠĠĠ en
ĠĠĠ jiao4Ġyu4Ġ
guo2Ġ gong1Ġ
nan2Ġ lu4Ġ
dai4Ġ er3Ġ
ke1Ġ yi1Ġsheng1Ġ
jin1Ġ si1Ġ
zhong4Ġ shang1Ġ
00Ġ ping2Ġfang1Ġqian1Ġmi3Ġ
xiu1Ġ xi1Ġ
Ġzhi1Ġ ming2Ġ
Ġm eng3Ġ
zhai4Ġ wu4Ġ
Ġgui4Ġ zhou1Ġ
wei2Ġji1Ġ bai3Ġke1Ġ
Ġ hui1Ġfu4Ġ
shang4Ġ kong1Ġ
shang4Ġ huo4Ġde2Ġ
lu4Ġ yin1Ġshi4Ġ
ping2Ġ fen1Ġ
qu3Ġ jue2Ġyu2Ġ
Ġxian4Ġshi2Ġyou2Ġ nan2Ġji2Ġtiao2Ġyue1Ġti3Ġxi4Ġguan3Ġli3Ġ
5 Ġhao4Ġ
M V
S S
you3Ġ qi1Ġ
yuan2Ġ di4Ġ
hui4Ġ ru4Ġ
shi3Ġ liao4Ġ
ye3Ġ ceng2Ġ
Ġdan4Ġ mei2Ġyou3Ġ
zhong4Ġ du2Ġ
bao4Ġ dong4Ġ
pu3Ġ er3Ġ
tou2Ġ bu4Ġ
wei1Ġ ruan3Ġ
at eĠ
Ġ shang1Ġye4Ġ
he2Ġ tang2Ġ
guo2Ġ wu4Ġ
ji2Ġ li4Ġya4Ġ
chu1Ġ yu2Ġ
ba1Ġ yue4Ġ
Ġzhe4Ġ xiang4Ġ
luo4Ġ yang2Ġ
hui2Ġ jia1Ġ
kan4Ġ jian4Ġ
fu4Ġza2Ġ deĠ
7 7Ġ
Ġ ying3Ġpian4Ġ
deĠ neng2Ġli4Ġ
zai4Ġ ta1ĠdeĠ
yi2Ġ mian4Ġ
zhou1Ġ ji4Ġ
min2Ġ zheng4Ġ
jin1Ġ qu3Ġ
zhen4Ġ xian4Ġ
ba1Ġ ji1Ġsi1Ġtan3Ġ
Ġzhong1Ġ wen2Ġ
xiu1Ġ si1Ġ
zheng4Ġzhi4Ġ bu4Ġ
Ġ5 0Ġ
ĠI ST
fou3Ġ jue2Ġ
dong1Ġbu4Ġ shi2Ġqu1Ġ
Ġsi3Ġ wang2Ġ
e k
p ou1Ġ
Ġ zu3Ġcheng2Ġ
a1Ġ bu4Ġ
qi3Ġ yuan2Ġyu2Ġ
luo2Ġ men2Ġ
Ġwei4Ġ neng2Ġ
li2Ġ shi4Ġ
wo3Ġ deĠ
jun4Ġ deĠ
lu2Ġ wa3Ġer3Ġsheng3Ġ
Ġdai4Ġ ma3Ġwei4Ġ
oc i
Ġhe2Ġdao4Ġ quan2Ġzhang3Ġ
u d
Ġ ou3Ġ
li4Ġ an1Ġ
ping2Ġ an1Ġ
Ġbing4Ġ fei1Ġ
yi2Ġge4Ġ yue4Ġ
wan1Ġ dao4Ġ
Ġ197 1Ġnian2Ġ
chu1Ġsheng1Ġ zai4Ġ
deĠyou2Ġ ju2Ġ
ka3Ġluo2Ġlai2Ġna4Ġ zhou1Ġ
Ġ gui1Ġding4Ġ
zhong1Ġ shen1Ġ
bu4Ġ deng3Ġ
zhi4Ġ yuan2Ġ
ji2Ġ quan2Ġ
da4Ġ lian2Ġ
xi1Ġ fa3Ġ
te4Ġ ding4ĠdeĠ
ma3Ġ ding1Ġ
zhen4Ġ di4Ġ
tou2Ġ deĠ
du2Ġ zi4Ġ
J R
m u2Ġ
Ġ xiong1Ġya2Ġli4Ġ
Ġs Ġ
gao1Ġ tie3Ġ
yang2Ġ xing4Ġ
18 0
ling3Ġyu4Ġ deĠ
jie4Ġquan2Ġguo2Ġ zheng4Ġxie2Ġwei3Ġyuan2Ġ
8 5Ġ
A I
ĠĠĠ tang2Ġ
ĠĠĠ ying1Ġguo2Ġ
yu3Ġ fa3Ġ
zhan4Ġ zai4Ġ
fu4Ġ chu1Ġ
hai3Ġ shui3Ġ
qing1Ġ chun1Ġ
zong3Ġ ti3Ġ
hua2Ġ bei3Ġ
mo2Ġ tuo1Ġ
jiu3Ġ jing1Ġ
xin4Ġ feng4Ġ
zhen1Ġ jun1Ġ
Ġgong1Ġ ye4Ġ
ĠF Ġ
ping2Ġlun4Ġ jia1Ġ
C D
¡ Ġ
Ġ zao4Ġ
Ġ zao3Ġqi1Ġ
hui4Ġ dao3Ġzhi4Ġ
ping2Ġ xian4Ġ
yue1Ġ 1
dang3Ġ ji2Ġ
dou1Ġ mei2Ġyou3Ġ
ci2Ġ dian3Ġ
ru2Ġ tong2Ġ
qiang2Ġ da4Ġ
199 1Ġnian2Ġ
Ġtong2Ġnian2Ġ 12Ġyue4Ġ
Ġn i4Ġ
bang3Ġ dan1Ġ
198 4Ġnian2Ġ
shui4Ġ mian2Ġ
Ġjie3Ġ fang4Ġ
Ġ shan3Ġxi1Ġ
shi4Ġ ta1Ġ
zhong1Ġ deng3Ġ
yin1Ġ jie2Ġ
guan1Ġ zheng4Ġ
Ġta1Ġ you4Ġ
jie1Ġ ceng2Ġ
shan1Ġ gu3Ġ
pu3Ġ lin2Ġ
qian1Ġ zheng4Ġ
tu2Ġ jing1Ġ
ling3Ġ dui4Ġ
chen2Ġ ji1Ġ
Ġxian4Ġ jin1Ġ
Ġma3Ġ ding1Ġ
zai3Ġ xiang4Ġ
ĠE STĠ
198 9Ġnian2Ġ
you3Ġguan1Ġ deĠ
Ġjun1Ġ wei4Ġ
a ngĠ
u ni
ren2Ġ qi4Ġ
yi2Ġ lan2Ġ
Ġ19 Ġ
jiu4Ġ yi3Ġ
luo4Ġ shi2Ġ
wei1Ġ li4Ġ
Ġbu4Ġ la1Ġ
Ġling4Ġ yi2Ġge4Ġ
199 5Ġnian2Ġ
ĠĠĠzhe4Ġ ke1Ġxiao3Ġxing2Ġxing1Ġ
Ġwei4Ġyu2Ġfa3Ġguo2Ġ ao4Ġ
shi4Ġwei1Ġ zhe3Ġ
Ġkong4Ġ zhi4Ġ
ping1Ġ pang1Ġ
z ou1Ġ
ren2Ġ ti3Ġ
yi1Ġ la1Ġke4Ġ
cheng2Ġ he2Ġ
li3Ġ shi4Ġzhang3Ġ
fu4Ġ zhi4Ġ
te4Ġ shi4Ġ
te4Ġ lei2Ġ
Ġwei4Ġ lai2Ġ
xi4Ġtong3Ġ zhong1Ġ
you1Ġ hui4Ġ
zuo4Ġpin3Ġ deĠ
fen1Ġbu4Ġ zai4Ġ
niu3Ġyue1Ġ zhou1Ġ
ic k
wei2Ġrao4Ġ tai4Ġyang2Ġgong1Ġ
Ġ zong1Ġjiao4Ġ
sh ai1Ġ
deĠ xiang1Ġ
deĠ jing1Ġji4Ġ
guo2Ġ wai4Ġ
zhi4Ġ di4Ġ
li3Ġ xi1Ġ
qu1Ġ fu4Ġze2Ġguan3Ġxia2Ġ
shui3Ġ zhun3Ġ
fan3Ġ she4Ġ
fu1Ġ lei1Ġ
ban1Ġ dao4Ġ
tie3Ġlu4Ġ ju2Ġ
ĠE DTĠ
Ġ193 3Ġnian2Ġ
Ġ193 6Ġnian2Ġ
Ġ196 9Ġnian2Ġ
ĠĠĠ199 8Ġnian2Ġ
suo1Ġ xie3Ġ
yu2Ġ18 7
Ġ5Ġ diao4Ġkuai4Ġyi1Ġxiao3Ġshi2Ġ
ha1Ġer3Ġ bin1Ġ
Ġji2Ġbei3Ġmei3Ġ dong1Ġbu4Ġshi2Ġqu1Ġ
wei2Ġrao4Ġtai4Ġyang2Ġgong1Ġ zhuan4ĠdeĠxiao3Ġxing2Ġxing1Ġ
shi4Ġ bian4Ġ
yi3Ġ qi2Ġ
yu3Ġ mei3Ġguo2Ġ
zhan4Ġ guo2Ġ
jie4Ġ ru4Ġ
tu2Ġ deĠ
dou1Ġ bu4Ġ
ying2Ġ li4Ġ
di4Ġyi1Ġ bu4Ġ
ning2Ġ bo1Ġ
hui3Ġ mie4Ġ
nian2Ġqing1Ġ deĠ
deĠjue2Ġdui4Ġ xing1Ġdeng3Ġwei4Ġ
6 4
9 3Ġ
M P
y u1Ġ
ĠĠĠ si1Ġ
ĠĠĠ ha1Ġ
wei2Ġ la1Ġ
shang4Ġ di4Ġ
bei4Ġ ke4Ġ
fu4Ġ zong3Ġtong3Ġ
quan2Ġ shu4Ġ
suo3Ġ en1Ġ
dian4Ġ ti1Ġ
guo4Ġ shi4Ġ
lan2Ġ de2Ġ
ling3Ġ xian2Ġ
Ġji2Ġ hou4Ġ
pei4Ġ jue2Ġ
zheng3Ġ li3Ġ
xie4Ġ ren4Ġ
ju3Ġxing2Ġ leĠ
zhi3Ġhui1Ġ bu4Ġ
bu4Ġfu4Ġ bu4Ġzhang3Ġ
ace bo
ĠSA OĠĠĠ
Y Ġ
zhi1Ġ luan4Ġ
nan2Ġ xia4Ġ
jin4Ġ sheng1Ġ
dian4Ġ rong2Ġ
Ġta1Ġ yu2Ġ
du4Ġ wei4Ġ
shen2Ġ qi2Ġ
10Ġ wan4Ġ
tui1Ġ li3Ġ
Ġju4Ġ ti3Ġ
ĠU Ġ
Ġshi4Ġxia4Ġxia2ĠdeĠyi2Ġge4Ġ xiang1Ġzhen4Ġji2Ġxing2Ġzheng4Ġdan1Ġwei4Ġ
ĠĠĠzhe4Ġke1Ġxiao3Ġxing2Ġxing1Ġ deĠjue2Ġdui4Ġxing1Ġdeng3Ġwei4Ġ
i re
t yĠ
Ġ ming2Ġwei4Ġ
ĠĠĠ yi1Ġxie1Ġ
jian1Ġ zhi4Ġ
jie4Ġ mian4Ġ
qing1Ġ dai4Ġ
liang3Ġ da4Ġ
guang3Ġ zhou1Ġshi4Ġ
Ġxi1Ġ zang4Ġ
wa3Ġ la1Ġ
shi4Ġhui4Ġ she4Ġ
xia4Ġ wei1Ġyi2Ġ
Ġzai4Ġ ri4Ġben3Ġ
fu2Ġ ji2Ġ
duo1Ġ lun2Ġduo1Ġ
liang2Ġ hao3ĠdeĠ
Ġgong1Ġ gong4Ġ
zhao1Ġ mu4Ġ
ĠĠĠ199 7Ġnian2Ġ
gong1Ġwu4Ġ yuan2Ġ
4Ġ ming2Ġ
ai4Ġ deĠ
wei4Ġ gai1Ġ
hou4Ġ qin2Ġ
shang4Ġ chang3Ġ
suo3Ġ zhang3Ġ
Ġzai4Ġ zhong1Ġguo2Ġ
mian4Ġ 2Ġ
ting2Ġ zhan4Ġ
ling2Ġ mu4Ġ
Ġju4Ġ shuo1Ġ
ba4Ġ gong1Ġ
4Ġ hao4Ġ
guo2Ġ gong4Ġ
yi1Ġ chu4Ġ
guan1Ġ nian4Ġ
jiao4Ġ deĠ
ma3Ġ deĠ
shan1Ġ po1Ġ
ci3Ġ tian1Ġti3Ġ
da4Ġxue2Ġ sheng1Ġ
jian3Ġ yi4Ġ
xiao1Ġ chu2Ġ
jian3Ġdan1Ġ deĠ
zuan4Ġ shi2Ġ
g e3Ġ
ĠĠĠ yin1Ġwei4Ġ
yi4Ġ mei3Ġguo2Ġren2Ġ
ge4Ġ sheng3Ġ
zheng4Ġ gui1Ġ
xin1Ġ cun1Ġ
xia4Ġ lie4Ġ
zhi3Ġ deĠ
qi3Ġ dian3Ġ
Ġzhe4Ġ ye3Ġ
liu4Ġ yue4Ġ
ting1Ġ zhang3Ġ
tie3Ġlu4Ġ gong1Ġsi1Ġ
2019 Ġguan1Ġzhuang4Ġbing4Ġdu2Ġbing4Ġ
Ġ biao1Ġ
1Ġ wan4Ġ
ĠĠĠ jian4Ġ
fen1Ġ shu4Ġ
jiao4Ġ duo1Ġ
Ġbing4Ġ cheng2Ġwei2Ġ
Ġer2Ġ zhe4Ġ
Ġyi3Ġ shang4Ġ
sheng4Ġ yu2Ġ
sha1Ġ la1Ġ
tui1Ġ chi2Ġ
17 8
mie4Ġ wang2Ġ
ter n
chang4Ġpian4Ġ gong1Ġsi1Ġ
ban4Ġgong1Ġ ting1Ġ
b en4Ġ
Ġ ge4Ġren2Ġ
ĠĠĠ wai4Ġbu4Ġ
he2Ġ bu4Ġ
fang1Ġ zhen1Ġ
Ġshi4Ġ shi2Ġshang4Ġ
fen1Ġ san4Ġ
ya4Ġ deĠ
hai3Ġ wan1Ġ
yang2Ġ guang1Ġ
8Ġyue4Ġ 1Ġri4Ġ
ti4Ġ huan4Ġ
Ġ196 5Ġnian2Ġ
jue2Ġsai4Ġ zhong1Ġ
Ġlian2Ġ he2Ġguo2Ġ
Ġ ji4Ġshu4Ġ
shi2Ġ cai2Ġ
yi1Ġ kao4Ġ
gong1Ġ guo2Ġ
yu3Ġ xin1Ġ
ji1Ġ lie4Ġ
0Ġ ren2Ġ
jian1Ġ jin4Ġ
ke3Ġ you2Ġ
qi3Ġ fa1Ġ
tai4Ġ yin1Ġ
huang2Ġ shi4Ġ
rong2Ġ huo4Ġ
ation al
ren2Ġkou3Ġshu4Ġliang4Ġ wei4Ġ
zhi4Ġ 195
ji1Ġ zu3Ġ
dian4Ġ zi3Ġyou2Ġxi4Ġ
qi3Ġ hua4Ġ
lie4Ġ ning2Ġ
yun4Ġ hui4Ġ
zong3Ġ e2Ġwei4Ġ
sheng4Ġ dian4Ġ
zheng4Ġfu3Ġ zai4Ġ
dian4Ġying3Ġ deĠ
Ġa1Ġ li3Ġ
Ġ195 7Ġnian2Ġ
Ġfei1Ġ chang2Ġ
da1Ġ dang4Ġ
Ġshi4Ġyi1Ġke1Ġ wei2Ġrao4Ġtai4Ġyang2Ġgong1Ġzhuan4ĠdeĠxiao3Ġxing2Ġxing1Ġ
h Ġ
Ġt i4Ġ
Ġzh a4Ġ
te4Ġ he2Ġ
Ġc ang1Ġ
zu2Ġ yi3Ġ
Ġshi2Ġ jian1Ġ
ĠM ar
Ġ196 1Ġnian2Ġ
sang4Ġ sheng1Ġ
Ġ mian3Ġdian1Ġ
ĠĠĠ guan1Ġyu2Ġ
ji2Ġ duan1Ġ
qi2Ġ dun4Ġ
jin4Ġ si4Ġ
fen1Ġ ji2Ġ
ben3Ġ zhi4Ġ
lian2Ġ tong2Ġ
lin2Ġ zhong1Ġ
ci3Ġ zhan4Ġ
nv3Ġ ge1Ġshou3Ġ
kuo4Ġ san4Ġ
Ġke4Ġ lai2Ġ
te4Ġbie2Ġ xing2Ġzheng4Ġqu1Ġ
ba1Ġshi4Ġ lu4Ġxian4Ġ
0 5Ġ
r eĠ
Ġ juan3Ġ
2Ġ wan4Ġ
ji2Ġ xing4Ġ
xian4Ġ ding4Ġ
jia1Ġ re4Ġ
ji1Ġ luo4Ġ
xi1Ġ yuan2Ġ
ru4Ġ yu4Ġ
xiao3Ġ yu2Ġ
Ġdan4Ġ bu4Ġ
jiu4Ġ jin1Ġshan1Ġ
xing2Ġzheng4Ġ qu1Ġyu4Ġ
11Ġyue4Ġ 1Ġri4Ġ
yuan3Ġ dong1Ġ
12Ġ ge4Ġ
tu1Ġ ji1Ġ
Ġshen1Ġ zhen4Ġ
Ġ20 Ġshi4Ġji4Ġ
Ġ guo2Ġmin2Ġdang3Ġ
shi4Ġ yu2Ġ
ge4Ġ bu4Ġ
Ġshi4Ġ ying1Ġguo2Ġ
jie1Ġ deĠ
er4Ġ hao4Ġ
mi3Ġ deĠ
yan3Ġ xi2Ġ
zhang1Ġ hua4Ġ
jing3Ġ wu4Ġ
Ġzhong1Ġ shi4Ġyan3Ġ
wan2Ġ shan4Ġ
kong1Ġ tiao2Ġ
jiang3Ġ xue2Ġ
pan4Ġ chu3Ġ
rui4Ġ ke4Ġ
Ġke4Ġ luo2Ġ
zun1Ġ shou3Ġ
gao1Ġdeng3Ġ jiao4Ġyu4Ġ
Ġa1Ġer3Ġ bei1Ġsi1Ġ
ji4Ġhou4Ġ sai4Ġ
yue4Ġ tan2Ġ
fang1Ġ wei4Ġ
dai4Ġ shu4Ġ
mei3Ġ xiao3Ġshi2Ġ
quan2Ġ yi4Ġ
shan1Ġ lu4Ġ
mei2Ġ er3Ġ
shi4Ġjie4Ġ deĠ
ting1Ġ deĠ
Ġqi2Ġzhong1Ġ you3Ġ
ĠH Ġ
fu2Ġluo2Ġli3Ġda2Ġ zhou1Ġ
ming2Ġni2Ġ su1Ġda2Ġ
ĠĠĠ 6Ġ
qi a3Ġ
si1Ġ zhang3Ġ
chu1Ġ ju2Ġ
xiang4Ġ ta1Ġ
jin1Ġ xiang4Ġ
xian1Ġ fa1Ġ
Ġl ang2Ġ
bai2Ġ e2Ġluo2Ġsi1Ġ
di3Ġ ceng2Ġshui3Ġyu4Ġ
si3Ġ qu4Ġ
Ġliang3Ġ zhe3Ġ
xiang4Ġmu4Ġ deĠ
fa1Ġbiao3Ġ leĠ
xiao3Ġshi2Ġ hou4Ġ
Ġ196 2Ġnian2Ġ
xi ao2Ġ
jian4Ġ he2Ġ
er2Ġ de2Ġming2Ġ
nei4Ġ si1Ġ
sheng3Ġ fu4Ġze2Ġguan3Ġxia2Ġ
qian1Ġ xia4Ġ
Ġbu4Ġ shao3Ġ
que4Ġ li4Ġ
Ġda4Ġ zhi4Ġ
Ġ2 8
shi4Ġjian4Ġ deĠ
pu1Ġ she4Ġ
ta3Ġni2Ġ da4Ġqu1Ġ
3 2
9 Ġshi2Ġ
s ong3Ġ
zhi1Ġ nei4Ġ
shang4Ġ xiao4Ġ
zui4Ġ xin1Ġ
jin1Ġ men2Ġ
duan4Ġ shi2Ġjian1Ġ
jiang3Ġ zhang1Ġ
zhuan1Ġ yuan2Ġ
ĠA r
er3Ġsi1Ġ ke4Ġ
Ġbao4Ġ gao4Ġ
bi3Ġli4Ġ niu2Ġ
l ao4Ġ
ĠĠĠ ying3Ġxiang3Ġ
yuan2Ġ shou3Ġ
ji4Ġ jie2Ġ
xi1Ġ sheng1Ġ
xin1Ġ ji1Ġ
yong4Ġ di4Ġ
Ġshi4Ġ yi3Ġ
suo3Ġ shi4Ġ
hai3Ġ di3Ġ
bian4Ġ liang4Ġ
bo2Ġ luo2Ġ
hui2Ġ fu4Ġ
jiang3Ġ li4Ġ
aĠĠĠ M
ĠĠĠ199 4Ġnian2Ġ
Ġbo2Ġ shi4Ġ
lang4Ġ man4Ġ
jiao1Ġhui4Ġ chu4Ġ
M S
ĠĠĠ Y
shi4Ġ yue4Ġtai2Ġ
zhong1Ġ jie2Ġ
shang4Ġ ceng2Ġ
ma3Ġ da2Ġ
ya4Ġ zhong3Ġ
tai4Ġ lei1Ġ
bo2Ġ gen3Ġdi4Ġ
jie3Ġ jie3Ġ
tuo1Ġ ma3Ġsi1Ġ
wai4Ġjiao1Ġ guan1Ġ
O SĠ
Ġ xĠ
deĠ shen1Ġfen4Ġ
shi2Ġ yi3Ġ
gong1Ġ bu4ĠdeĠ
hui4Ġ yu3Ġ
nan2Ġ yang2Ġ
xiang4Ġ qi2Ġ
Ġbing4Ġ bu4Ġ
ci3Ġ qian2Ġ
bo1Ġ ying4Ġ
Ġshi2Ġ yi1Ġ
pi1Ġ fu4Ġ
Ġma3Ġ li4Ġ
zou3Ġ lang2Ġ
suo1Ġ duan3Ġ
Ġbao3Ġ luo2Ġ
e ĠdeĠ
ĠĠ S
ĠĠĠ 15
ĠĠĠ zhan4Ġhou4Ġ
shi1Ġ xing2Ġ
jie4Ġ xian4Ġ
dao3Ġ xian4Ġ
dou1Ġ ke3Ġyi3Ġ
kong1Ġ jiang4Ġ
bu4Ġfen4Ġ deĠ
du1Ġ cha2Ġ
hua1Ġ fei4Ġ
Ġna4Ġ meĠ
ow Ġ
tong4Ġ ku3Ġ
ma1Ġ zu3Ġ
9 1Ġ
ĠĠĠ yi4Ġ
xue2Ġ he2Ġ
chuan2Ġ yuan2Ġ
Ġye3Ġ cheng1Ġ
9Ġyue4Ġ 1Ġri4Ġ
ji2Ġtuan2Ġ you3Ġxian4Ġgong1Ġsi1Ġ
zhong1Ġbu4Ġ shi2Ġqu1Ġ
Ġlu2Ġ wa3Ġ
9 5Ġ
f li
Ġ yin4Ġni2Ġ
ĠĠĠ hou4Ġ
ĠĠĠ tong2Ġnian2Ġ
ji2Ġ cheng2Ġ
you3Ġ san1Ġ
ke4Ġ lei2Ġ
min2Ġ yong4Ġ
kai1Ġ xing2Ġ
sai4Ġ ma3Ġ
si4Ġ ming2Ġ
ci2Ġ chang3Ġ
tang2Ġ deĠ
Ġ193 1Ġnian2Ġ
zi1Ġge2Ġ sai4Ġ
Ġzhu2Ġ jian4Ġ
ĠĠĠ Ð
shi4Ġ dai4Ġ
wei2Ġ gong1Ġ
hui4Ġ jiang1Ġ
zheng4Ġ yi4Ġ
xin1Ġ xing2Ġ
fu4Ġ fei4Ġ
xiang1Ġ lin2Ġ
zhi2Ġ xia2Ġ
Ġdan4Ġ hou4Ġlai2Ġ
ĠC STĠ
ĠC DTĠ
wan3Ġ nian2Ġ
Ġdao4Ġ guang1Ġ
198 0Ġnian2Ġ
shuai4Ġ jun1Ġ
Ġ6Ġ diao4Ġkuai4Ġyi1Ġxiao3Ġshi2Ġ
lv3Ġke4Ġ tie3Ġdao4Ġ
xun2Ġhui2Ġ yan3Ġchang4Ġhui4Ġ
yan2Ġhai3Ġ sheng3Ġfen4Ġ
Ġji2Ġbei3Ġmei3Ġ zhong1Ġbu4Ġshi2Ġqu1Ġ
L in
c t
ĠĠĠ she4Ġji4Ġ
ĠĠĠ te4Ġzheng1Ġ
ĠĠĠ ru2Ġguo3Ġ
xia4Ġ ban4Ġ
zui4Ġ you3Ġ
la1Ġ mu3Ġ
Ġer2Ġ ta1Ġ
mei3Ġguo2Ġ hai3Ġjun1Ġ
zheng1Ġ yue4Ġ
jiu3Ġ zhou1Ġ
fan1Ġ chuan2Ġ
zhui1Ġ ji1Ġ
hang2Ġkong1Ġ mu3Ġjian4Ġ
Ġ196 7Ġnian2Ġ
ĠĠĠ199 1Ġnian2Ġ
Ġ192 7Ġnian2Ġ
lai2Ġyuan2Ġ yu2Ġ
Ġchao1Ġ ji2Ġ
o tĠĠĠ
Ġ biao1Ġzhun3Ġ
deĠ fu4Ġqin1Ġ
a1Ġ mi4Ġ
he2Ġ qi2Ġ
yu3Ġ da4Ġ
de2Ġ jia3Ġ
de2Ġ chuan1Ġ
qian2Ġ xi1Ġ
ke3Ġ fen1Ġwei2Ġ
jue2Ġ zhu2Ġ
eĠĠĠ P
xuan1Ġ shi4Ġ
hui1Ġ se4Ġ
Ġba1Ġ xi1Ġ
di4Ġguo2Ġ deĠ
yu2Ġ202 5Ġnian2Ġ
Ġ ya1Ġ
mei3Ġ li4Ġ
wei3Ġ nei4Ġrui4Ġla1Ġ
am eĠ
re4Ġdai4Ġ di1Ġqi4Ġya1Ġ
qi1Ġxi1Ġ di4Ġ
ĠĠĠ 0
xing2Ġ sheng3Ġ
ke4Ġ zai4Ġ
ke4Ġ yu3Ġ
ben3Ġ bu4Ġ
jiang1Ġ xi1Ġsheng3Ġ
su i3Ġ
Ġqi2Ġ shi2Ġ
Ġr u3Ġ
hui2Ġ lai2Ġ
zhu1Ġ sai1Ġ
Ġben3Ġ ming2Ġ
Ġ qie4Ġ
ĠĠĠ fei1Ġ
shi2Ġ ba1Ġnian2Ġ
cheng2Ġ men2Ġ
fu4Ġ yu2Ġ
wei1Ġ er3Ġsi1Ġ
Ġdong1Ġ fang1Ġ
Ġ ming4Ġ
Ġ wan2Ġquan2Ġ
ĠĠĠ bi3Ġsai4Ġ
shi4Ġ xia4Ġ
jie1Ġ qu1Ġ
gu3Ġ xi1Ġla4Ġ
jiu4Ġ yi3Ġjing1Ġ
wu1Ġ lu3Ġ
chong1Ġ sheng2Ġ
chun1Ġ ji4Ġ
Ġqing1Ġ hua2Ġ
Ġping2Ġ lun4Ġ
Ġhuo4Ġde2Ġ yi1Ġmei2Ġ
Ġfan3Ġ er2Ġ
zhan4Ġlie4Ġ jian4Ġ
a ti
Ġ Ù
he2Ġ nei4Ġ
bu4Ġ yi3Ġ
xi1Ġ lu4Ġ
she4Ġ tuan2Ġ
zhe4Ġ chang3Ġ
199 0Ġnian2Ġ
yu2Ġ18 6
jian4Ġzao4Ġ deĠ
a1Ġji1Ġ tan3Ġ
T e
ĠĠĠ X
ĠĠĠ shui3Ġ
he2Ġ dao4Ġ
cheng2Ġ zai4Ġ
ji1Ġ chen2Ġ
ri4Ġ er3Ġman4Ġ
wen2Ġ shu1Ġ
zui4Ġ hao3ĠdeĠ
chang2Ġ bei4Ġ
liu2Ġ tong1Ġ
rong2Ġ ye4Ġ
fei4Ġ qi4Ġ
kang4Ġ zhan4Ġ
qu1ĠdeĠ fu4Ġze2Ġguan3Ġxia2Ġ
chu3Ġli3Ġ qi4Ġ
197 2Ġnian2Ġ
r ac
s ĠdeĠ
an1Ġ dong1Ġni2Ġ
bu4Ġ da2Ġ
bu4Ġ ju2Ġ
yi1Ġ fu2Ġ
da4Ġ bai4Ġ
ke4Ġ chuan4Ġ
zi4Ġ wei4Ġ
bo2Ġ lan3Ġ
hu4Ġ shi4Ġ
Ġhou4Ġ yin1Ġ
Ġshi2Ġ zi4Ġ
Ġshi4Ġyi1Ġ jia1Ġ
zhe2Ġ xue2Ġjia1Ġ
e2Ġhai4Ġe2Ġ zhou1Ġ
p ro
wei4Ġ di4Ġ
yue4Ġ ĠĠ
ji1Ġ tui4Ġ
yu4Ġ jing3Ġ
qian2Ġ shui3Ġ
zhi2Ġ dao3ĠdeĠ
nei4Ġ wai4Ġ
jiao1Ġ wang3Ġ
can1Ġ zheng4Ġ
jie3Ġ ti3Ġ
tuo1Ġ fu1Ġ
da3Ġ zao4Ġ
zhuang4Ġ deĠ
miao2Ġ zhun3Ġ
cha1Ġ bie2Ġ
pu2Ġ sa4Ġ
P C
zhong1Ġ wu3Ġ
zhi4Ġ xian4Ġ
you3Ġ leĠ
da4Ġ jiang1Ġjun1Ġ
ji1Ġ rou4Ġ
jun1Ġ xian2Ġ
zhu4Ġ zha1Ġ
ma3Ġ ge2Ġ
guan3Ġ dao4Ġ
ji3Ġ zhui1Ġ
geng4Ġ da4Ġ
feng1Ġge2Ġ deĠ
Ġcai2Ġ zheng4Ġ
co diceĠ
shi4Ġ yong4Ġyu2Ġ
zai4Ġ yu3Ġ
di4Ġ li4Ġya4Ġ
di4Ġ yi2Ġci4Ġshi4Ġjie4Ġda4Ġzhan4Ġ
yuan2Ġ ming2Ġ
da4Ġ yu3Ġ
jia1Ġ suo3Ġ
zhi1Ġ qiu2Ġdui4Ġ
er4Ġ yang3Ġhua4Ġ
xiao3Ġ xiang4Ġ
bi4Ġ deĠ
guo2Ġjia1Ġ he2Ġ
Ġci3Ġ qian2Ġ
wo3Ġ menĠdeĠ
Ġxiao3Ġ shi2Ġ
Ġshou3Ġ fu3Ġ
1 20Ġ
e mĠ
Ġ lun4Ġ
Ġ zuo4Ġpin3Ġ
Ġ miao4Ġ
jian4Ġ zhi1Ġ
yan2Ġ chi2Ġ
bao3Ġ deĠ
pu3Ġ sen1Ġ
ju2Ġ mian4Ġ
nong2Ġ li4Ġ
Ġfen1Ġ lan2Ġ
Ġma3Ġ er3Ġ
Ġmei3Ġ ri4Ġ
Ġ193 4Ġnian2Ġ
ĠL Ġ
Ġ192 8Ġnian2Ġ
i ngĠ
zi4Ġ zhuan4Ġ
san1Ġ bu4Ġ
tai4Ġ er3Ġ
you4Ġ er2Ġ
Ġbu4Ġ lang3Ġ
sĠĠĠ of
xi4Ġlie4Ġ sai4Ġ
kong3Ġ ju4Ġ
jing4Ġwai4Ġ shu1Ġru4Ġ
5 4
H DĠĠĠ
l y
deĠ zui4Ġgao1Ġ
wei4Ġ 2
yuan2Ġ lai2ĠdeĠ
le Ġzhe4Ġyi1Ġ
ma3Ġ pi3Ġ
liu2Ġ wang2Ġ
ceng2Ġ yu3Ġ
xiu1Ġ xian2Ġ
yan4Ġ zheng4Ġ
wang4Ġ si1Ġ
6Ġyue4Ġ 30Ġri4Ġ
Ġjin1Ġ ri4Ġ
lian2Ġsai4Ġ guan4Ġjun1Ġ
Ġtong2Ġnian2Ġ 10Ġyue4Ġ
Ġge2Ġ lei2Ġ
Ġlian2Ġ xu4Ġ
zong3Ġdu1Ġ fu3Ġ
chai2Ġyou2Ġ ji1Ġche1Ġ
Ġzai4Ġ gai1Ġ
Ġc an2Ġ
jie2Ġ ju2Ġ
tian1Ġ qiao2Ġ
bao4Ġ lu4Ġ
Ġhe2Ġ bei3Ġ
Ġxian4Ġ zhi4Ġ
fa1Ġbiao3Ġ deĠ
na4Ġcui4Ġ de2Ġguo2Ġ
9 7
N AĠ
N et
s ch
deĠ dao4Ġlu4Ġ
ĠĠĠ 12Ġyue4Ġ
shi2Ġ biao3Ġshi4Ġ
yi4Ġ da4Ġ
fu2Ġ da4Ġxue2Ġ
wu3Ġ ke1Ġ
jue2Ġ wei4Ġ
zhe3Ġ shi4Ġ
luo4Ġ zai4Ġ
ke3Ġyi3Ġ yong4Ġ
fang4Ġ she4Ġ
Ġshi2Ġ yue4Ġ
zhong1Ġyang1Ġ wei3Ġyuan2Ġhui4Ġ
yin1Ġyue4Ġ hui4Ġ
Ġxia4Ġ xia2Ġ
kan1Ġ wu4Ġ
niu2Ġ jin1Ġ
50Ġ wan4Ġ
A G
deĠ shi4Ġjie4Ġ
gong1Ġ lv4Ġ
shang4Ġ yi1Ġ
Ġshi4Ġ hou4Ġ
qi3Ġ deĠ
ying4Ġ yong4Ġyu2Ġ
fang4Ġ ying4Ġ
ju1Ġ yu2Ġ
Ġl ang3Ġ
po4Ġ hai4Ġ
Ġxian4Ġ yi3Ġ
Ġnan2Ġ xing4Ġ
6Ġyue4Ġ 1Ġri4Ġ
Ġzhi2Ġ li4Ġ
Ġ5 0
Ġ5 00Ġ
Ġ196 3Ġnian2Ġ
Ġna4Ġ me
ĠĠĠqi2Ġ hou4Ġ
Ġbei3Ġqi3Ġ shun4Ġshi2Ġzhen1Ġyu3Ġ
kang4Ġri4Ġ zhan4Ġzheng1Ġ
ĠĠĠ tong2Ġ
wei2Ġ fa3Ġ
de2Ġ chu1Ġ
shi1Ġ ge1Ġ
yuan4Ġ deĠ
tai4Ġ yuan2Ġ
you4Ġ zai4Ġ
Ġzhi1Ġ yi1Ġ
20Ġnian2Ġ dai4Ġ
gui3Ġ dian4Ġche1Ġ
199 3Ġnian2Ġ
bao3Ġhu4Ġ qu1Ġ
198 0Ġnian2Ġdai4Ġ
Ġ193 0Ġnian2Ġ
ic ros
Ġ mo
bu4Ġ dao4Ġ
zhan4Ġ he2Ġ
Ġta1Ġ cheng2Ġwei2Ġ
san1Ġ jia3Ġ
tong1Ġ bao4Ġ
long2Ġ lei4Ġ
gai3Ġ zhi4Ġ
ting2Ġ liu2Ġ
hu2Ġ guang3Ġ
Ġda4Ġ liang4Ġ
ha1Ġ li4Ġ
Ġxin1Ġ jiang1Ġ
lao3Ġ ban3Ġ
guan1Ġxi4Ġ deĠ
qiu1Ġ ling2Ġ
Ġxia4Ġ wu3Ġ
Ġjin3Ġ ci4Ġyu2Ġ
zui4Ġhou4Ġ yi2Ġge4Ġ
Ġzhu3Ġyao4Ġ shi4Ġ
yu2Ġ200 4Ġnian2Ġ
Ġbao3Ġ hu4Ġ
rou4Ġ shi2Ġxing4Ġ
I R
zai4Ġ ĠĠ
zheng4Ġ jiao4Ġ
bei4Ġ xuan3Ġwei4Ġ
lian2Ġ xian4Ġ
lian2Ġ si1Ġji1Ġ
jiang1Ġ xian4Ġ
Ġbing4Ġ dui4Ġ
ke1Ġ yan2Ġ
ti3Ġ xian4Ġ
Ġ1 3
ni2Ġ ao4Ġ
Ġzhe4Ġ chang3Ġ
bo1Ġ kuan3Ġ
shen2Ġ miao4Ġ
6Ġ ming2Ġ
li4Ġshi3Ġ jian4Ġzhu4Ġ
yong3Ġ kang1Ġ
Ġzhi1Ġ qian2Ġ
Ġzhu3Ġ ti2Ġ
Ġsui2Ġ zhe
Ġ193 2Ġnian2Ġ
Ġyong4Ġ yi3Ġ
s c
Ġ fu1Ġ
ĠĠĠ aĠĠĠ
bu4Ġ jian4Ġ
hou4Ġ che1Ġ
tai2Ġ zhong1Ġshi4Ġ
zhong4Ġ yi4Ġyuan2Ġ
qing1Ġ hai3Ġ
fei4Ġ er3Ġ
hen3Ġ nan2Ġ
tao2Ġ wang2Ġ
ning2Ġ xian4Ġ
fan1Ġ xin1Ġ
Ġji4Ġ suan4Ġ
cao3Ġ an4Ġ
lei3Ġ da3Ġ
Ġgu4Ġ ci3Ġ
mo2Ġshi4Ġ chan3Ġ
nuo4Ġman4Ġ di3Ġ
Ġxiang1Ġdang1Ġ yu2Ġ
A ĠdeĠ
Ġ yun4Ġ
Ġ qing2Ġ
ĠĠĠ fa1Ġzhan3Ġ
ĠĠĠ hou4Ġlai2Ġ
si1Ġ wei2Ġ
yu3Ġ zhong1Ġguo2Ġ
li3Ġ qi2Ġ
bei4Ġ deĠ
wen2Ġ zhong1Ġ
xiao3Ġ zhen4Ġ
bo2Ġ ke4Ġ
xi2Ġ jin4Ġping2Ġ
yin3Ġ dao3Ġ
yin3Ġ cang2Ġ
ji4Ġhua4Ġ deĠ
Ġsan1Ġ yue4Ġ
ĠI Ġ
yun3Ġ keng1Ġ
Ġqi3Ġ chu1Ġ
an1Ġ ni1Ġ
e2Ġ jun1Ġ
ĠĠĠ guang1Ġxu4Ġ
bu4Ġ xing2Ġ
jian4Ġ mian4Ġ
yin1Ġ ying4Ġ
ban4Ġ deĠ
deng1Ġ ji1Ġ
lian4Ġ ai4Ġ
Ġdong1Ġ xi1Ġ
cheng2Ġyuan2Ġ guo2Ġ
ĠT h
tou4Ġ ming2Ġ
yu2Ġ200 0Ġnian2Ġ
ĠN Ġ
50Ġ mi3Ġ
Ġshan1Ġ xi1Ġ
es tĠĠĠ
can2Ġ ji2Ġren2Ġ
P h
c en2Ġ
yi1Ġ zhao4Ġ
gong1Ġ tou2Ġ
shi3Ġ yu2Ġ
du c
Ġdan4Ġ yin1Ġwei4Ġ
zhen1Ġ zhu1Ġ
kan1Ġ deng1Ġ
Ġn uo2Ġwei1Ġ
niu3Ġyue1Ġ shi4Ġ
Ġmo4Ġ xi1Ġge1Ġ
Ġmao2Ġ ze2Ġdong1Ġ
fa3Ġlan2Ġxi1Ġ da4Ġqu1Ġ
li3Ġgong1Ġ da4Ġxue2Ġ
9 ĠĠĠ
ren2Ġ bei4Ġ
qi2Ġ fu4Ġ
yi2Ġ chu2Ġ
jiang1Ġ gai1Ġ
bei3Ġ ji2Ġ
dang3Ġ pai4Ġ
di4Ġyi1Ġ pi1Ġ
ke3Ġneng2Ġ deĠ
di4Ġer4Ġ lun2Ġ
ding3Ġ dian3Ġ
ge4Ġyue4Ġ hou4Ġ
tian1Ġjin1Ġ shi4Ġ
li3Ġ bu4Ġ
jue2Ġ xin1Ġ
shu1Ġ dian4Ġ
Ġzhe4Ġ yang4ĠdeĠ
hong2Ġ shi2Ġzi4Ġ
Ġben3Ġ jie4Ġ
194 5Ġnian2Ġ
Ġa1Ġla1Ġ bo2Ġ
g en
y ĠĠĠS
qian2Ġ qi1Ġ
zhang1Ġ shi4Ġ
ban1Ġ dian3Ġ
mi4Ġ ji2Ġ
fang4Ġ zhi4Ġ
huan2Ġ yuan2Ġ
gei3Ġ chu1Ġ
piao4Ġ jia4Ġ
Ġxiang1Ġ bi3Ġ
Ġ16 0
ĠĠĠ199 5Ġnian2Ġ
ĠĠĠhe2Ġ ĠĠ
Ġ pian4Ġ
Ġ xiang4Ġmu4Ġ
Ġ xue4Ġ
ĠĠĠ wei4Ġyu2Ġ
bu4Ġ shi2Ġ
ji1Ġ zai4Ġ
leĠ zi4Ġji3ĠdeĠ
fu4Ġ huo2Ġ
dai4Ġ mu4Ġ
xiang4Ġ jiao1Ġ
xing4Ġ ming2Ġ
bao3Ġ lei3Ġ
zong3Ġ jiao4Ġqu1Ġ
tai4Ġ zong1Ġ
bie2Ġ shu4Ġ
xiao1Ġ hao4Ġ
Ġci3Ġ zhan4Ġ
guo2Ġji4Ġ sai4Ġ
Ġ2 5Ġ
zi4Ġyou2Ġ dang3Ġ
Ġjiao4Ġ shou4Ġ
feng1Ġfu4Ġ deĠ
R e
Z Ġ
Ġ zao1Ġ
wu4Ġ shi4Ġ
qi1Ġ wang4Ġ
shu3Ġ xing4Ġ
chuan2Ġ fo2Ġjiao4Ġ
ceng2Ġ yu2Ġ
chuan1Ġ zhu4Ġ
cai3Ġ na4Ġ
sa4Ġ ke4Ġsi1Ġtan3Ġ
yin2Ġ he2Ġ
fu2Ġwu4Ġ deĠ
Ġduo1Ġ shu4Ġ
sheng1Ġhuo2Ġ deĠ
ĠG Ġ
fa1Ġxian4ĠleĠ ci3Ġtian1Ġti3Ġ
5 9Ġ
ĠĠĠ ji1Ġ
yi1Ġ qi1Ġ
xi1Ġ bu4ĠdeĠ
qu1Ġ yi4Ġyuan2Ġ
kai1Ġ pi4Ġ
qi3Ġ shi4Ġ
sheng3Ġ hui4Ġ
Ġdan4Ġ bei4Ġ
Ġzhe4Ġ shi3ĠdeĠ
Ġch ou2Ġ
jiu3Ġ yue4Ġ
Ġnan2Ġ fei1Ġ
Ġren4Ġ zhong1Ġgong4Ġ
ĠĠĠben3Ġ shu3Ġ
tian1Ġran2Ġ qi4Ġ
sheng3Ġdao4Ġ tai2Ġ
E C
Ġ qing4Ġ
an1Ġ zhi4Ġ
zhi1Ġ yu2Ġ
fen1Ġ ge1Ġ
ben3Ġ zuo4Ġ
ye4Ġ ti3Ġ
zheng1Ġ zhao4Ġ
dou1Ġ yi3Ġ
ling2Ġ shou4Ġ
cun1Ġ deĠ
chong2Ġ xiu1Ġ
deĠshi2Ġ yan4Ġ
ye2Ġ lu4Ġ
si on
duan3Ġ qi1Ġ
Ġxue2Ġ xi2Ġ
icros of
m anĠ
o li
t en
Ġ á
nan2Ġ duan1Ġ
liu2Ġ cheng2Ġ
qing1Ġ shui3Ġ
cheng2Ġwei2Ġ yi2Ġge4Ġ
âĢ ĭ
cao3Ġ yuan2Ġ
jue2Ġse4Ġ deĠ
cang1Ġ ku4Ġ
ji1Ġdu1Ġ tu2Ġ
dian4Ġqi4Ġ hua4Ġ
qing1Ġhua2Ġ da4Ġxue2Ġ
an1Ġ shi4Ġ
shi4Ġ mei3Ġguo2Ġ
bu4Ġ xu1Ġyao4Ġ
gong1Ġ shu3Ġ
qi2Ġ shi1Ġ
Ġshi4Ġ yin4Ġdu4Ġ
shou3Ġ bu4Ġ
du4Ġ he2Ġ
ying1Ġ dang1Ġ
tian2Ġ xin4Ġ
jiang4Ġ ji2Ġ
xie4Ġ er3Ġ
shao1Ġ hui3Ġ
he2Ġ wei4Ġ
le sĠĠĠ
leĠ da4Ġliang4Ġ
ke4Ġ er3Ġ
nan2Ġ chang1Ġ
Ġta1Ġ cong2Ġ
bei3Ġ yue1Ġ
bao3Ġ jian4Ġ
dang3Ġ bu4Ġ
chu3Ġ fa2Ġ
lou2Ġ ti1Ġ
sa1Ġ leng3Ġ
9 8Ġ
S M
g nĠ
s tĠ
deĠ ji4Ġhua4Ġ
deĠ jun1Ġshi4Ġ
wei4Ġ wei4Ġ
zhi4Ġ fu2Ġ
nan2Ġ yan3Ġyuan2Ġ
ben3Ġ lai2Ġ
liu2Ġ shi4Ġ
ying1Ġ shu3Ġ
Ġyi3Ġ ci3Ġ
ban4Ġ jing4Ġ
6Ġnian2Ġ 3Ġyue4Ġ
gou4Ġ ru4Ġ
fu1Ġ te4Ġ
ci2Ġ xing4Ġ
Ġliang3Ġ guo2Ġ
xuan2Ġ lv4Ġ
leĠyi1Ġ fen4Ġ
Ġgao1Ġ xiong2Ġ
sun3Ġ huai4Ġ
xing2Ġcheng2Ġ leĠ
beng1Ġ kui4Ġ
si1Ġ shi4Ġ
ming2Ġ dai4Ġ
yin1Ġ deĠ
chang2Ġ yong4Ġ
Ġer2Ġ tong2Ġ
wu2Ġ yi4Ġ
pu3Ġ li3Ġ
fan4Ġ mai4Ġ
yi3Ġji2Ġ zhong1Ġguo2Ġda4Ġlu4ĠdeĠ
deĠdi4Ġ tie3Ġ
qiang1Ġ ji1Ġ
Ġwu3Ġ han4Ġ
ji2Ġlin2Ġ sheng3Ġ
5 Ġsui4Ġ
9 9Ġ
f i
y leĠ
shi2Ġ ye4Ġ
ji2Ġ shi3Ġ
yi3Ġ 3Ġ
bian1Ġ fu2Ġ
8Ġ shi2Ġ
fa1Ġxing2Ġ leĠ
yu3Ġyan2Ġ deĠ
sun3Ġ shang1Ġ
ke1Ġji4Ġ da4Ġxue2Ġ
I DĠ
u p
Ġ nong2Ġye4Ġ
deĠ a1Ġ
zai4Ġ bei4Ġ
suo3Ġ mu3Ġ
Ġzai4Ġ ta1ĠdeĠ
mu4Ġ lu4Ġ
Ġbing4Ġ xiang4Ġ
Ġbing4Ġ huo4Ġde2Ġ
Ġqi2Ġ xia4Ġ
mo2Ġ hu2Ġ
Ġji1Ġ bai4Ġ
leĠyi1Ġ chang2Ġ
Ġtian1Ġ wen2Ġ
diao4Ġcha2Ġ ju2Ġ
Ġ17 8
ye2Ġlu4Ġ sa1Ġleng3Ġ
t eĠ
ĠĠĠ shi3Ġ
ĠĠĠ jiang1Ġ
nian2Ġ di3Ġ
zai4Ġ yi2Ġge4Ġ
da4Ġ cheng2Ġ
Ġt ao4Ġ
xue2Ġ yan2Ġjiu1Ġ
shang4Ġ fa3Ġlan2Ġxi1Ġda4Ġqu1Ġ
xiang1Ġ deĠ
yao4Ġ sai4Ġ
Ġzhong1Ġ xin1Ġ
chuang4Ġ yi4Ġ
gao4Ġ zhi1Ġ
deĠdi4Ġ di
si1Ġte4Ġ la1Ġ
ro m
Ġbi3Ġ de2Ġ
dong1Ġbu4Ġ da4Ġqu1Ġ
21Ġ shi4Ġji4Ġ
qi4Ġxiang4Ġ ju2Ġ
0 6Ġ
9 3
P layStation
a dĠ
Ġ XĠ
wei4Ġ li4Ġ
yu3Ġ ĠĠ
yu3Ġ ri4Ġben3Ġ
dui4Ġ gai1Ġ
zhan4Ġ bi3Ġ
yi2Ġ jiao1Ġ
shi1Ġ tuan2Ġ
jie1Ġ li4Ġ
biao3Ġ zhang1Ġ
you4Ġ bei4Ġ
wan1Ġ zai3Ġ
zhuan1Ġ an4Ġ
tai2Ġwan1Ġ sheng3Ġ
ĠĠĠ18 8
9 6Ġ
deĠ qi2Ġta1Ġ
ĠĠĠ ri4Ġ
yi1Ġ lu4Ġ
she4Ġ zhi4ĠdeĠ
jin4Ġ sheng1Ġwei4Ġ
dian4Ġ dong4Ġ
zong3Ġ zhang3Ġ
mi4Ġ ma3Ġ
or eĠ
Ġsheng1Ġ ren4Ġ
Ġjing4Ġ nei4Ġ
huang2Ġjia1Ġ hai3Ġjun1Ġ
Ġrui4Ġ shi4Ġ
he2Ġ li4Ġ
ge4Ġ bie2Ġ
min2Ġ bing1Ġ
fen1Ġ zi3Ġ
luo2Ġ na4Ġ
Ġwei4Ġ le
fang2Ġ hu4Ġ
hei1Ġ long2Ġjiang1Ġsheng3Ġ
xiong1Ġ zhang3Ġ
jiao1Ġliu2Ġ dao4Ġ
Ġbu2Ġ shi4Ġ
Ġbi4Ġye4Ġ hou4Ġ
ĠĠĠ yi4Ġban1Ġ
qu1Ġ xian4Ġ
shang4Ġ suo3Ġ
zhan4Ġ jian4Ġ
nan2Ġ ren2Ġ
jie1Ġ bo2Ġ
ge1Ġ hua2Ġ
hu4Ġ hang2Ġ
Ġyin1Ġ qi2Ġ
pai2Ġ xu4Ġ
jin3Ġ mi4Ġ
shi2Ġnian2Ġ dai4Ġ
fei3Ġ cui4Ġ
U R
1Ġ hao4Ġxian4Ġ
ĠĠĠ fan3Ġ
zai4Ġ qian2Ġ
yi4Ġ xing4Ġ
Ġd un4Ġ
yu4Ġ nan4Ġ
zui4Ġ xing2Ġ
ti3Ġ nei4Ġ
wang2Ġ zhu1Ġ
yan3Ġ deĠ
bi4Ġ hu4Ġ
huang2Ġ pu3Ġ
shen2Ġ xue2Ġ
eĠĠĠ T
deĠyi1Ġ suo3Ġ
Ġhu2Ġ bei3Ġ
ĠĠĠb eg
Ġpi1Ġ ping2Ġ
jia1Ġ tai4Ġ
quan2Ġ zhou1Ġ
lian2Ġ bo1Ġ
zhang3Ġ lao3Ġ
hua2Ġ yu3Ġ
Ġji2Ġ lin2Ġ
diao4Ġ ren4Ġ
xia2Ġ gu3Ġ
liu4Ġ shi4Ġ
Ġzhi1Ġ cheng1Ġ
tong1Ġguo4Ġ leĠ
Ġsheng1Ġ chan3Ġ
Ġwei2Ġ zhu3Ġ
luo2Ġma3Ġ tian1Ġzhu3Ġjiao4Ġ
ĠĠĠ199 3Ġnian2Ġ
wo1Ġ lun2Ġ
tou2Ġru4Ġ shi3Ġyong4Ġ
0 7Ġ
Ġ mian3Ġ
Ġ mei2Ġti3Ġ
ĠĠĠ duo1Ġ
ĠĠĠ si4Ġ
li4Ġ fa3Ġyuan4Ġ
wei2Ġ xin1Ġ
zheng4Ġ si1Ġ
er2Ġ si3Ġ
dong4Ġ ci2Ġ
zui4Ġ ming2Ġ
Ġs an4Ġ
dao3Ġ he2Ġ
ci3Ġ di4Ġ
yan3Ġ bian4Ġ
zu2Ġ zong3Ġ
jiu4Ġ ke3Ġyi3Ġ
sheng4Ġ xia4Ġ
17 7
lu2Ġ xing2Ġmu4Ġ
peng2Ġ zhang4Ġ
ji4Ġzhe3Ġ hui4Ġ
wu3Ġzhuang1Ġ bu4Ġdui4Ġ
gao1Ġdeng3Ġ xue2Ġxiao4Ġ
Ġ leng3Ġ
an c
yi1Ġ shou3Ġ
yi1Ġ qian1Ġ
yuan2Ġ xian4Ġ
qi2Ġ yi4Ġ
ke4Ġ lun2Ġ
ke4Ġ lu3Ġ
ye4Ġ zhe3Ġ
er4Ġ bai3Ġ
bian4Ġ xing2Ġ
cai2Ġ fu4Ġ
xian3Ġ deĠ
Ġduo1Ġ ci4Ġ
Ġji1Ġ chang3Ġ
lu4Ġzhan4Ġ dui4Ġ
A D
ĠĠĠ er4Ġ
li4Ġ zhi1Ġ
ming2Ġ lie4Ġ
sheng1Ġ qian2Ġ
zhan4Ġ si3Ġ
xin1Ġ xi1Ġlan2Ġ
zhu4Ġ she4Ġ
ba1Ġ sai1Ġ
huang2Ġ he2Ġ
shang1Ġ biao1Ġ
or d
jia4Ġ ri4Ġ
gu4Ġ yi4Ġ
pai4Ġ xi4Ġ
Ġzhi2Ġ wu4Ġ
am p
198 6Ġnian2Ġ
zhan4Ġdou4Ġ zhong1Ġ
Ġtie3Ġ lu4Ġ
O V
t on
zai4Ġ fa3Ġguo2Ġ
he2Ġ zhong1Ġguo2Ġ
Ġd u
fa1Ġ song4Ġ
ke3Ġ yong4Ġyu2Ġ
ba1Ġ ba1Ġ
wu2Ġ guan1Ġ
Ġgai1Ġ wu4Ġzhong3ĠdeĠ
deng1Ġ bao3Ġ
xie4Ġ lou4Ġ
hei1Ġ an4Ġ
geng1Ġ ming2Ġ
Ġao4Ġ si1Ġ
bi4Ġye4Ġ sheng1Ġ
ren2Ġlei4Ġ deĠ
qiao1Ġ chu1Ġ
C P
Ġ aĠ
Ġ yun4Ġdong4Ġ
Ġ in
ĠĠĠ yang2Ġ
shi4Ġ qing2Ġ
qi n4Ġ
zhong1Ġ cheng2Ġ
xiang4Ġ qian2Ġ
wen2Ġ di4Ġ
la1Ġ deĠ
jin1Ġ e2Ġ
zong3Ġ shi4Ġ
zong3Ġ guan3Ġ
wan2Ġ cheng2ĠdeĠ
Ġyi1Ġ shuo1Ġ
Ġwei4Ġyu2Ġ zhong1Ġhua2Ġren2Ġmin2Ġgong4Ġhe2Ġguo2Ġ
15 0
yin4Ġdu4Ġ yang2Ġ
Ġ4 0Ġ
Ġze2Ġ shi4Ġ
Ġzhu4Ġ you3Ġ
yu2Ġ200 2Ġnian2Ġ
wei2Ġzhu3Ġ deĠ
sa4Ġke4Ġ sen1Ġ
6 Ġhao4Ġ
ĠĠĠ 1
wei4Ġ mian3Ġ
kai1Ġ chu2Ġ
zhi2Ġ shu3Ġ
ma3Ġ de2Ġli3Ġ
sai4Ġ ting3Ġ
wang3Ġ ye4Ġ
wan2Ġ fa3Ġ
7Ġ gong1Ġli3Ġ
bu4Ġfen4Ġ di4Ġqu1Ġ
zhuan3Ġ ren4Ġ
jia3Ġ zu3Ġ
bai3Ġ huo4Ġ
gei3Ġ shi4Ġzhong1Ġ
zuo4Ġpin3Ġ zhong1Ġ
wa1Ġ jue2Ġ
NB AĠ
E M
Ġ yan3Ġyuan2Ġ
Ġ lei4Ġsi4Ġ
a1Ġ lie4Ġ
shi4Ġ yi4Ġ
he2Ġ xian4Ġ
zhong1Ġ chang3Ġ
da4Ġ tong2Ġ
fa3Ġ shi1Ġ
ni2Ġ gu3Ġla1Ġ
huan4Ġ you3Ġ
po4Ġ chan3Ġ
Ġyuan2Ġ chao2Ġ
Ġsan1Ġ guo2Ġ
Ġzhuan1Ġ men2Ġ
Ġhen3Ġ kuai4Ġ
xiao1Ġfei4Ġ zhe3Ġ
gan1Ġsu4Ġ sheng3Ġ
deĠ tong2Ġ
you3Ġ ke1Ġ
xue2Ġ pai4Ġ
bei4Ġ lie4Ġru4Ġ
she4Ġ zhang3Ġ
kai1Ġ cai3Ġ
liu2Ġ jing1Ġ
fei1Ġ li4Ġpu3Ġ
chuan2Ġ ru4Ġ
Ġgai1Ġ di4Ġ
dai4Ġbiao3Ġ dui4Ġ
man3Ġ guan4Ġ
ken3Ġ ta3Ġji1Ġ
Ġdian4Ġ ziĠ
Ġ190 9Ġnian2Ġ
00Ġmi3Ġ deĠdi4Ġqu1Ġ
Ġsai1Ġ er3Ġ
ĠĠĠen dĠ
r e3Ġ
deĠ na4Ġ
ai4Ġ li4Ġ
yi1Ġ kai1Ġshi3Ġ
li3Ġ ang2Ġ
dui4Ġ li4Ġ
zui4Ġ ju4Ġ
shu ang3Ġ
xian1Ġ qu1Ġ
Ġbu4Ġ de2Ġ
jia3Ġ ji2Ġlian2Ġsai4Ġ
le4Ġ bi3Ġ
reng2Ġ shi4Ġ
feng4Ġ huang2Ġ
huai2Ġ yun4Ġ
Ġ191 2Ġnian2Ġ
jiao1Ġcha1Ġ kou3Ġ
mi2Ġni3Ġ zhuan1Ġji2Ġ
Ġ xuan3Ġju3Ġ
3Ġ wan4Ġ
wei4Ġ ci3Ġ
zhi1Ġ yong4Ġ
er2Ġ yi3Ġ
zhu3Ġ chang4Ġ
qing1Ġ zhen1Ġsi4Ġ
hua2Ġ nan2Ġ
gu3Ġ cheng2Ġ
bi4Ġ hua4Ġ
xie1Ġ gen1Ġ
ban3Ġ kuai4Ġ
meng2Ġ you3Ġ
deĠyi1Ġ ming2Ġ
Ġyou3Ġ xian4Ġ
Ġshi3Ġ cheng1Ġ
aĠĠĠ C
Ġjian4Ġ yi4Ġ
Ġ15 0
Ġjun1Ġ zai4Ġ
bao1Ġhan2Ġ leĠ
yu2Ġ199 8Ġnian2Ġ
man4Ġhua4Ġ jia1Ġ
xi1Ġbo2Ġ li4Ġya4Ġ
Ġ qian3Ġ
an1Ġ suan1Ġ
ĠĠĠ yu4Ġ
ĠĠĠ hai3Ġ
ĠĠĠ zhu4Ġzuo4Ġ
shi2Ġ you3Ġ
shou3Ġ bei4Ġ
xing1Ġ yun2Ġ
pu3Ġ jing1Ġ
shou1Ġ fu4Ġ
zeng1Ġ zhi4Ġ
shuang1Ġ chong2Ġ
Ġjie2Ġ gou4Ġ
ba4Ġ mian3Ġ
Ġ192 9Ġnian2Ġ
xue1Ġ ruo4Ġ
G oog
chu1Ġ zi1Ġ
jin4Ġ zhu4Ġ
zong3Ġ gong4Ġ
ni2Ġ ri4Ġ
shui3Ġ deĠ
zheng3Ġ shu4Ġ
yuan3Ġ li2Ġ
xian4ĠdeĠ cheng2Ġshi4Ġ
Ġxiang4Ġ zheng1Ġ
ĠĠĠgai4Ġ shu4Ġ
ka3Ġsi1Ġ di4Ġli4Ġya4Ġ
R o
y ao3Ġ
Ġ yuan4Ġ
ĠĠĠ mo4Ġ
li4Ġ cheng2Ġ
ge4Ġ jie4Ġ
jun1Ġ zhang3Ġ
ke4Ġ ren2Ġ
ju4Ġ tuan2Ġ
ze2Ġ ren4Ġwei2Ġ
dan1Ġ you1Ġ
zhe4Ġ lei4Ġ
Ġzhong1Ġ shi4Ġ
zhen1Ġ xiang4Ġ
Ġyu3Ġ qi2Ġta1Ġ
Ġshi2Ġ nian2Ġ
zhi1Ġyi1Ġ deĠ
Ġji4Ġ zhe3Ġ
Ġfeng1Ġ bao4Ġ
wang3Ġqiu2Ġ gong1Ġkai1Ġsai4Ġ
han4Ġlin2Ġ yuan4Ġ
9 0Ġnian2Ġdai4Ġ
di4Ġ hai3Ġ
da4Ġ ming2Ġ
jin4Ġ xiu1Ġ
fa3Ġ jun1Ġ
hua2Ġ wei4Ġ
bian1Ġ jiang1Ġ
jing3Ġ wei4Ġ
zheng3Ġ jiu4Ġ
Ġji4Ġ nian4Ġ
lian2Ġmeng2Ġ deĠ
jie1Ġshou4Ġ leĠ
ĠĠĠ199 2Ġnian2Ġ
Ġqi1Ġxi1Ġ shen1Ġdu4Ġ
a x
Ġ nv3Ġzi3Ġ
Ġ nie4Ġ
Ġ yun3Ġxu3Ġ
ĠĠĠ 2Ġyue4Ġ
ĠĠĠ bai2Ġ
yi1Ġ xian4Ġ
yi3Ġ lai2ĠdeĠ
zuo4Ġ ci2Ġ
bei4Ġ ping2Ġwei4Ġ
bing4Ġ ren2Ġ
xia4Ġ qu4Ġ
zhu4Ġ suo3Ġ
sai4Ġ ju1Ġ
jie1Ġ kou3Ġ
liu2Ġ dan4Ġ
liang3Ġ xiang4Ġ
bian4Ġ li4Ġ
qu3Ġ leĠ
chuan2Ġ song4Ġ
tang2Ġ na4Ġ
lun4Ġ shu4Ġ
18 Ġshi4Ġji4Ġ
sui4Ġ pian4Ġ
Ġjie2Ġ hun1Ġ
197 6Ġnian2Ġ
Ġbao4Ġ dao4Ġ
chuang4Ġban4Ġ ren2Ġ
ĠĠĠbeg inĠ
6 00Ġ
D R
Ġ ju2Ġ
Ġ ya2Ġ
Ġ zou3Ġ
Ġ chuang4Ġzuo4Ġ
ĠĠĠ fa1Ġxing2Ġ
ji4Ġ zhong1Ġ
si1Ġ yu3Ġ
dai4Ġ yu4Ġ
jin4Ġ leĠ
ti3Ġ zhong4Ġ
hua2Ġ qiao2Ġ
dang3Ġ nei4Ġ
dang3Ġ wei3Ġ
jia4Ġ deĠ
deĠyi1Ġ chang2Ġ
Ġxi1Ġ lin2Ġ
shen3Ġ li3Ġ
Ġduo1Ġ ge4Ġ
Ġao4Ġ di4Ġli4Ġ
liu2Ġxing2Ġ yin1Ġyue4Ġ
juan1Ġ kuan3Ġ
ĠĠĠzao3Ġnian2Ġ sheng1Ġhuo2Ġ
bu4Ġlie4Ġ dian1Ġ
Ġsection ĠĠĠbeginĠ
dong4Ġche1Ġ zu3Ġ
Ġpai1Ġ she4Ġ
p ao2Ġ
z ang1Ġ
Ġ qiang3Ġ
Ġ xu4Ġli4Ġya4Ġ
he2Ġ ge1Ġ
bu4Ġ lan2Ġ
ji2Ġ zai4Ġ
ji4Ġ jun1Ġ
chu1Ġ bing1Ġ
wu3Ġ shu4Ġ
dong1Ġ feng1Ġ
shen1Ġ shou4Ġ
hui2Ġ shou1Ġ
guang1Ġ deĠ
dun4Ġ deĠ
ya1Ġ zhi4Ġ
di4Ġshi2Ġ yi1Ġ
de2Ġli3Ġ xi1Ġ
5 8Ġnian2Ġ
Ġ mian4Ġdui4Ġ
zhi4Ġ yu4Ġ
ji2Ġ ta1Ġ
you3Ġ zheĠ
si1Ġ kao3Ġ
you2Ġ ci3Ġ
si4Ġ ren2Ġ
zong3Ġ jie2Ġ
ceng2Ġ dan1Ġren4Ġ
qian1Ġ dao4Ġ
xiang3Ġ xiang4Ġ
zhen1Ġ tan4Ġ
Ġtong2Ġ yue4Ġ
zheng4Ġshi4Ġ cheng2Ġli4Ġ
hun4Ġ xiao2Ġ
Ġ17 7
Ġdai4Ġma3Ġwei4Ġ 0
Ġ fa1Ġbu4Ġ
ĠĠĠ xu3Ġduo1Ġ
ao4Ġ de2Ġ
shi2Ġ he2Ġ
di4Ġ zhi3Ġ
li4Ġ yu3Ġ
jiao4Ġ gao1ĠdeĠ
ni2Ġ ji1Ġ
gai1Ġ di4Ġqu1Ġ
di2Ġ nan2Ġ
yu2Ġ200 3Ġnian2Ġ
Ġnei4Ġ bu4Ġ
dian4Ġli4Ġ ji1Ġche1Ġ
xiang1Ġhu4Ġ zuo4Ġyong4Ġ
zi1Ġben3Ġ zhu3Ġyi4Ġ
B DĠ
Q u
zhong1Ġ huo4Ġde2Ġ
di4Ġ shi2Ġer4Ġ
yu2Ġ mei3Ġguo2Ġ
ge4Ġ you3Ġ
gai1Ġ xiao4Ġ
Ġyi1Ġ lang3Ġ
jiao3Ġ deĠ
Ġsheng1Ġ ya2Ġ
e2Ġluo2Ġsi1Ġ deĠ
fa2Ġ kuan3Ġ
ĠĠĠ199 6Ġnian2Ġ
tui1Ġchu1Ġ leĠ
tiao2Ġjian4Ġ xia4Ġ
he2Ġ jia1Ġ
guo2Ġ xiao3Ġ
yi1Ġ ri4Ġ
yi1Ġ dao4Ġ
yi1Ġ shi4ĠdeĠ
guan1Ġ zhi4Ġ
shou3Ġ zhang3Ġ
wu3Ġ bai3Ġ
qing1Ġ xi1Ġ
chuan2Ġ jiao4Ġshi4Ġ
Ġbu4Ġ lu3Ġ
Ġzhi1Ġ jian1ĠdeĠ
Ġer4Ġ ren2Ġ
qi3Ġye4Ġ jia1Ġ
4 2
c on
3Ġ gong1Ġli3Ġ
ĠĠĠ 1Ġyue4Ġ
he2Ġ 1Ġ
bu4Ġ yi2Ġ
wei2Ġ sheng1Ġ
chu1Ġ zhong1Ġ
de2Ġ shi4Ġ
te4Ġ luo2Ġ
ye3Ġ yin1Ġci3Ġ
hai3Ġ tan1Ġ
shui3Ġ mian4Ġ
tou2Ġ ying3Ġ
lun2Ġ deĠ
8Ġ gong1Ġli3Ġ
chuang4Ġ ye4Ġ
chun1Ġ qiu1Ġ
zhui1Ġ sui2Ġ
Ġhai2Ġ shi4Ġ
ĠĠĠben3Ġ zhan4Ġ
roun dĠ
Ġjin4Ġshi4Ġ chu1Ġshen1Ġ
6 0Ġnian2Ġ
c uan4Ġ
ji1Ġ lv4Ġ
fen1Ġ hua4Ġ
kou3Ġ an4Ġ
liu2Ġ yi4Ġ
wu2Ġ xiao4Ġ
gang3Ġ qu1Ġ
ying4Ġ she4Ġ
han2Ġ liang4Ġ
she4Ġhui4Ġ deĠ
fa1Ġsheng1Ġ hou4Ġ
Ġqi1Ġ yue4Ġ
dong1Ġji4Ġ ao4Ġlin2Ġpi3Ġke4Ġyun4Ġdong4Ġhui4Ġ
C R
Ġ liao4Ġ
Ġ zun1Ġ
Ġ ke3Ġneng2Ġshi4Ġ
ĠĠĠ d
ĠĠĠ yong3Ġ
zai4Ġ ou1Ġzhou1Ġ
di4Ġ yi4Ġming2Ġ
guo2Ġ zhong1Ġ
da4Ġ men2Ġ
jun1Ġ zheng4Ġ
min2Ġ yi4Ġ
dian4Ġ chang3Ġ
Ġta1Ġ ye3Ġshi4Ġ
duo1Ġ bu4Ġ
jie2Ġ meng2Ġ
ke1Ġ te4Ġ
ci4Ġ ziĠ
ji3Ġ zhong3Ġ
man4Ġ lian2Ġ
pai4Ġ wang3Ġ
Ġda4Ġ zheng4Ġ
xun2Ġ hang2Ġ
yuan3Ġ deĠ
kan4Ġ qi3Ġlai2Ġ
ji4Ġshu4Ġ deĠ
zhao1Ġ he2Ġ
feng2Ġ xing1Ġqi1Ġ
3 00
I G
i b
i de
p ei1Ġ
e4Ġ tu2Ġ
qi2Ġ ren2Ġ
sheng1Ġ zhi4Ġ
hua4Ġ ti2Ġ
ping2Ġ xi1Ġ
jing1Ġ shi1Ġ
suo3Ġ zuo4Ġ
dian4Ġ deĠ
bei3Ġ fa2Ġ
san1Ġ ceng2Ġ
Ġbu4Ġ di2Ġ
ying2Ġ di4Ġ
on eĠ
Ġda4Ġ wei4Ġ
Ġba1Ġ yue4Ġ
Ġsi4Ġ yue4Ġ
cao3Ġ di4Ġ
Ġping2Ġ tai2Ġ
Ġke4Ġ li3Ġ
shi1Ġqu4Ġ leĠ
mi4Ġsu1Ġli3Ġ zhou1Ġ
i p
deĠ nei4Ġrong2Ġ
bu4Ġ lang3Ġ
di4Ġ zi3Ġ
yi1Ġ gong4Ġ
yi1Ġ qun2Ġ
gong1Ġ che1Ġ
shu4Ġ lin2Ġ
ma3Ġ lu4Ġ
tong2Ġ zhi1Ġ
zi Ġzai4Ġ
shu1Ġ shi4Ġ
gai3Ġ you2Ġ
hai2Ġ yao4Ġ
chu3Ġ si3Ġ
ying3Ġxiang3Ġ deĠ
jia1Ġzu2Ġ deĠ
Ġbian1Ġ hao4Ġ
Ġsection ĠĠĠendĠ
1 10Ġ
j ec
he2Ġ yuan2Ġ
yi1Ġ liang4Ġ
de2Ġ bao3Ġ
ping2Ġ tan3Ġ
xiang1Ġ jiao1Ġ
jiao4Ġ xiao3ĠdeĠ
mu4Ġ han3Ġmo4Ġde2Ġ
bao3Ġ shi2Ġ
jiu4Ġ zhi2Ġ
dou1Ġ neng2Ġ
Ġzhong1Ġ jian1Ġ
pei4Ġ tao4Ġ
dai4Ġbiao3Ġ xing4Ġ
kuai4Ġ ji4Ġ
bao1Ġkuo4Ġ leĠ
tu1Ġ xi2Ġ
Ġsheng1Ġ cheng1Ġ
fan3Ġdui4Ġ pai4Ġ
100Ġ wan4Ġ
te dĠĠĠ
you2Ġji1Ġ dui4Ġ
he2Ġsuan1Ġ jian3Ġce4Ġ
7 9Ġ
shi4Ġ qian2Ġ
he2Ġ xiao3Ġ
bu4Ġ ke3Ġneng2Ġ
ji2Ġ long2Ġ
jin4Ġ hua4Ġ
lan2Ġ ke4Ġlin2Ġ
wang2Ġ guo2ĠdeĠ
shui3Ġ zhong1Ġ
fan3Ġ fu4Ġ
dang3Ġ zu3Ġ
kao3Ġ liang2Ġ
man3Ġ yi4Ġ
Ġxing2Ġ shi4Ġ
Ġxiao3Ġ shuo1Ġ
nai4Ġ er3Ġ
Ġ192 4Ġnian2Ġ
ji1Ġchu3Ġ shang4Ġ
ji1Ġchu3Ġ she4Ġshi1Ġ
gai3Ġbian1Ġ zi4Ġ
5 7Ġnian2Ġ
8 0Ġnian2Ġdai4Ġ
I F
U C
i sĠ
Ġ kuang4Ġ
yuan2Ġ ji2Ġ
hui4Ġ xing1Ġ
guan1Ġ dong1Ġ
lin2Ġ xian4Ġ
gu3Ġ piao4Ġ
gai3Ġ yong4Ġ
fu1Ġ deĠ
xia2Ġ zhai3Ġ
Ġci3Ġ ju3Ġ
xie3Ġ cheng2Ġ
yin4Ġdu4Ġ jiao4Ġ
ĠĠĠA r
Ġdang4Ġ tian1Ġ
duo1Ġ jia1Ġ
san1Ġ shi2Ġnian2Ġ
qing1Ġ deĠ
qing1Ġ xie2Ġ
yan3Ġ shuo1Ġ
Ġch ai2Ġ
Ġgai1Ġ zu3Ġzhi1Ġ
xiang1Ġgang3Ġ dian4Ġying3Ġ
Ġda4Ġ zi4Ġ
che4Ġ hui2Ġ
Ġdan1Ġ mai4Ġ
ĠĠĠben3Ġ yu2Ġ
cu4Ġ shi3Ġ
xi1Ġxi1Ġ bi3Ġ
Ġjie1Ġwei4Ġ lu4Ġdi4Ġ
sh Ġ
shi4Ġ fan4Ġ
zhi4Ġ bei4Ġ
da4Ġ gang1Ġ
jia1Ġ ci2Ġ
li3Ġ hui4Ġ
hui4Ġ tan2Ġ
la1Ġ sa4Ġ
ke1Ġ heng2Ġxing1Ġ
shen1Ġ bian1Ġ
wan2Ġ mei3Ġ
ru2Ġ jin1Ġ
bing1Ġ bu4Ġ
Ġwu2Ġ xian4Ġ
Ġguo2Ġ wang2Ġ
Ġdi4Ġer4Ġ ci4Ġ
deĠji1Ġchu3Ġ shang4Ġ
A n
I M
a j
Ġ zao3Ġnian2Ġ
zai4Ġ shang4Ġ
he2Ġ ji4Ġ
guo2Ġ tu3Ġ
yu2Ġ xiang1Ġgang3Ġ
li3Ġ mian4Ġ
ju4Ġ hui4Ġ
shou3Ġ jie4Ġ
zhi2Ġ neng2Ġ
liu2Ġ xing2ĠdeĠ
qing1Ġ chen2Ġ
mei2Ġ kuang4Ġ
gan3Ġ shou4Ġ
3Ġyue4Ġ 1Ġri4Ġ
Ġzhi3Ġ hui1Ġ
ĠĠĠS h
shi4Ġji4Ġ deĠ
jiang1Ġhu4Ġ shi2Ġdai4Ġ
bu4Ġ tai4Ġ
sheng1Ġ you1Ġ
jun1Ġ yong4Ġ
shu4Ġ ma3Ġ
shu4Ġ qian1Ġ
kai1Ġ chuang4Ġ
Ġyue4Ġ tai2Ġ
yao4Ġ su4Ġ
jie1Ġ dai4Ġ
xiao4Ġ xiang4Ġ
zi1Ġ bie2Ġ
jiang3Ġ hua4Ġ
zhao4Ġ ji2Ġ
guan4Ġ mu4Ġ
Ġzheng4Ġ zai4Ġ
rang4Ġ ren2Ġ
xuan2Ġ gua4Ġ
198 5Ġnian2Ġ
deĠguan1Ġ zhu4Ġ
T E
deĠ jing1Ġ
bu4Ġ lun2Ġ
Ġnian2Ġ du4Ġ
dao4Ġ lai2Ġ
ke4Ġ han2Ġ
fa3Ġ ren2Ġ
ben3Ġ jie4Ġ
jie2Ġ dian3Ġ
Ġbing4Ġ mei2Ġyou3Ġ
shui3Ġ he2Ġ
mu3Ġ ni2Ġ
zhu1Ġ shi4Ġhui4Ġshe4Ġ
5Ġyue4Ġ 1Ġri4Ġ
Ġzhi2Ġ jing4Ġ
ĠĠĠS ch
ĠĠĠli4Ġshi3Ġ yan2Ġge2Ġ
Ġtong2Ġnian2Ġ 11Ġyue4Ġ
ĠĠĠgai1Ġ di4Ġ
yu2Ġ199 9Ġnian2Ġ
ta in
wei2Ġwu2Ġer3Ġ zi4Ġzhi4Ġqu1Ġ
Ġ xuan3Ġze2Ġ
Ġ zuo3Ġyou4Ġ
deĠ ji4Ġlu4Ġ
ai4Ġ li4Ġsi1Ġ
ĠĠĠ 10
da4Ġ dong1Ġbu4Ġda4Ġqu1Ġ
xian4Ġ ming2Ġ
hui4Ġ dui4Ġ
chu1Ġ jing4Ġ
wu3Ġ li4Ġ
gao1Ġ wen1Ġ
Ġdan4Ġ gai1Ġ
tian1Ġ kong1Ġ
8Ġ ming2Ġ
Ġyi4Ġ ji2Ġ
zhuan3Ġ tou2Ġ
tuo1Ġ er3Ġ
cai3Ġ gou4Ġ
jun4Ġ wang2Ġ
bei3Ġjing1Ġ da4Ġxue2Ġ
shui4Ġ wu4Ġ
yu2Ġ200 1Ġnian2Ġ
dao3Ġzhi4Ġ leĠ
cao1Ġ zong4Ġ
Ġyong4Ġ lai2Ġ
00Ġwan4Ġ mei3Ġyuan2Ġ
deĠsheng1Ġ yin1Ġ
sao1Ġ rao3Ġ
deĠte4Ġyou3Ġ zhi2Ġwu4Ġ
ĠIST AT
a1Ġji1Ġtan3Ġ da4Ġqu1Ġ
1 30Ġ
8 Ġhao4Ġ
ĠĠĠ ta1Ġzai4Ġ
yu3Ġ xi4Ġ
wei2Ġ li4Ġ
guan1Ġ zhi2Ġ
yu4Ġ shi4Ġ
yu4Ġ yan2Ġ
ma3Ġ ni2Ġ
bei3Ġ hai3Ġ
da2Ġ dao4ĠleĠ
jiu4Ġ neng2Ġ
qian1Ġ shi4Ġ
guan3Ġli3Ġ deĠ
Ġjie2Ġ zhi4Ġ201
Ġta1ĠdeĠ fu4Ġqin1Ġ
zhi4Ġpian4Ġ ren2Ġ
5 6Ġnian2Ġ
9 Ġhao4Ġ
Ġ shao3Ġ
you3Ġ yi1Ġxie1Ġ
yu3Ġ yi4Ġ
nan2Ġ xi1Ġ
zhi2Ġ ze2Ġ
feng1Ġ su4Ġ
chuan2Ġ ran3Ġ
luo4Ġ deĠ
tu2Ġ pian4Ġ
pin3Ġ deĠ
fan4Ġ shou4Ġ
shou1Ġ huo4Ġ
Ġshi2Ġ xian4Ġ
Ġzhi4Ġ ci3Ġ
aĠĠĠ P
dong4Ġwu4Ġ deĠ
ĠĠĠ ruo4Ġ
shi4Ġ zong1Ġ
zhi4Ġ 193
cheng2Ġ che1Ġ
yu3Ġ qian2Ġ
yu3Ġ hang2Ġ
guan1Ġ jie2Ġ
quan2Ġ xin1Ġ
zhi2Ġ tong1Ġ
shang1Ġ deĠ
dou1Ġ yu4Ġshi3Ġ
1Ġri4Ġ ping2Ġjun1Ġ
Ġjin1Ġ tian1Ġ
shan4Ġ chang2Ġ
er4Ġshi2Ġ shi4Ġji4Ġ
Ġshen1Ġ ti3Ġ
diao1Ġ ke4Ġ
deĠguan1Ġ jian4Ġ
yi4Ġshi2Ġ xing2Ġtai4Ġ
qiang2Ġlie4Ġ deĠ
Ġzai4Ġci3Ġ qi1Ġjian1Ġ
you3Ġzhu4Ġ yu2Ġ
bao3Ġshou3Ġ dang3Ġ
B M
ĠĠĠ qi4Ġhou4Ġ
he2Ġ yi2Ġge4Ġ
ai2Ġ zheng4Ġ
yu2Ġ ye4Ġ
cheng2Ġ nei4Ġ
de2Ġ wei2Ġ
bei4Ġ fu2Ġ
hua4Ġ wu4Ġ
dong4Ġ mai4Ġ
yao4Ġ deĠ
neng2Ġ li4ĠdeĠ
xiao3Ġ hai2Ġ
zhong4Ġ xing2Ġ
bian4Ġ dong4Ġ
su4Ġ lv4Ġ
zi1Ġ shen1Ġ
ban4Ġ bu4Ġ
Ġgai1Ġ ju4Ġ
chao2Ġ deĠ
zhuan1Ġ shu3Ġ
chong2Ġ die2Ġ
shi4Ġzhen4Ġ fan4Ġwei2Ġnei4Ġ
Ġquan2Ġ bu4Ġ
Ġ4 0
wang2Ġchao2Ġ deĠ
li3Ġgong1Ġ xue2Ġyuan4Ġ
xie2Ġshang1Ġ hui4Ġyi4Ġ
7 Ġhao4Ġ
r on
ĠĠĠ xian4Ġdai4Ġ
shi4Ġ jin3Ġ
shi4Ġ wei4Ġyu2Ġ
wei4Ġ ming2Ġ
cheng2Ġ shou4Ġ
zhi1Ġ zhu4Ġ
sheng1Ġ ri4Ġ
Ġta1Ġ biao3Ġshi4Ġ
jiang1Ġ bei4Ġ
jie2Ġ ri4Ġ
jie1Ġ you3Ġ
er4Ġ jia3Ġ
zu3Ġ zhang3Ġ
shu3Ġ deĠyi1Ġzhong3Ġ
gu3Ġ ge2Ġ
Ġyi1Ġ shu1Ġ
Ġdi4Ġ liu4Ġ
leĠyi1Ġ zuo4Ġ
Ġwu3Ġ yue4Ġ
zui4Ġhou4Ġ deĠ
kuan1Ġ du4Ġ
Ġgan1Ġ su4Ġ
chong2Ġqing4Ġ shi4Ġ
feng3Ġ ci4Ġ
c ou4Ġ
Ġ zong4Ġ
ĠĠĠ 20Ġshi4Ġji4Ġ
ĠĠĠ sui2Ġzhu4Ġ
ai1Ġ de2Ġ
hou4Ġ shi4Ġ
zhi1Ġ ming2ĠdeĠ
Ġzai4Ġ fa3Ġguo2Ġ
ci4Ġ ri4Ġ
san1Ġ guo2Ġ
bao3Ġ he2Ġ
cai2Ġ jue2Ġ
pei4Ġ si1Ġ
Ġji1Ġ du1Ġ
Ġxue2Ġ zhe3Ġ
ol og
sun1Ġ zhong1Ġshan1Ġ
pai1Ġshe4Ġ deĠ
ĠĠĠ198 8Ġnian2Ġ
jun1Ġshi4Ġtan3Ġ ding1Ġbao3Ġ
M o
a eĠ
yuan2Ġ zhi3Ġ
dao4Ġ chang3Ġ
you2Ġ mei3Ġguo2Ġ
bei4Ġ zhi3Ġ
yong4Ġ yi3Ġ
yong4Ġ leĠ
ye3Ġ kai1Ġshi3Ġ
shi1Ġ ji2Ġ
shou4Ġ lie4Ġ
ba1Ġ ke4Ġ
luo4Ġ ge1Ġ
qu4Ġ leĠ
nuo4Ġ ke4Ġ
po4Ġ shi3Ġ
Ġao4Ġ zhou1Ġ
Ġrang4Ġ ta1Ġ
gao1Ġsu4Ġ tie3Ġlu4Ġ
shi1Ġfan4Ġ xue2Ġxiao4Ġ
Ġshi4Ġyi1Ġke1Ġ heng2Ġxing1Ġ
9 7Ġ
Ġ min2Ġzu2Ġ
zhong1Ġ suo3Ġ
bu4Ġ da4Ġ
you2Ġ lun2Ġ
lu4Ġ si1Ġ
shu4Ġ xue2Ġjia1Ġ
ju4Ġ xing1Ġ
lai2Ġ ke4Ġ
guan1Ġ bing1Ġ
yao4Ġ zai4Ġ
che1Ġ shen1Ġ
hua2Ġ dong1Ġ
gu3Ġ deĠ
yin3Ġ liao4Ġ
zhuan3Ġ ru4Ġ
ar yĠĠĠ
Ġdong1Ġ ri4Ġben3Ġ
deĠdi4Ġ xia4Ġ
Ġzhi2Ġ xing2Ġ
Ġai4Ġ de2Ġhua2Ġ
biao1Ġzhun3Ġ deĠ
di4Ġfang1Ġ zheng4Ġfu3Ġ
Ġti2Ġ gao1Ġ
yi4Ġzhi2Ġ zai4Ġ
Ġbo2Ġ wu4Ġ
bang1Ġzhu4Ġ xia4Ġ
a il
Ġ chan3Ġ
de l
e4Ġ lie4Ġ
ai4Ġ sha1Ġni2Ġya4Ġ
zhong1Ġ ji2Ġ
yi4Ġ siĠ
gong1Ġ ke4Ġ
shu4Ġ ci4Ġ
nei4Ġ she4Ġyou3Ġ
guo4Ġ lai2Ġ
guo4Ġ wang3Ġ
ru4Ġ xue2Ġ
Ġr ou4Ġ
xiang3Ġ dao4Ġ
biao1Ġ shi4Ġ
ar eĠĠĠ
geng4Ġ hao3Ġ
sa4Ġ zhu1Ġsai1Ġ
199 0Ġnian2Ġdai4Ġ
lie4Ġche1Ġ deĠ
pao4Ġ dan4Ġ
shi4Ġshi4Ġ zhang3Ġ
5 3Ġnian2Ġ
a ĠdeĠ
b e
shi4Ġ xian4Ġ
ren2Ġ ji2Ġ
yu2Ġ jia1Ġ
zuo4Ġ yi3Ġ
dui4Ġ fu4Ġ
jiao4Ġ yi4Ġ
fu2Ġ gang1Ġ
shan1Ġ si4Ġ
fu3Ġ yin1Ġ
tai4Ġ zi
hua2Ġ deĠ
hua2Ġ bing1Ġ
long2Ġ tou2Ġ
Ġch a1Ġ
Ġbu4Ġ ke3Ġ
jian3Ġ pu3Ġzhai4Ġ
fei4Ġ zhi3Ġ
Ġyi4Ġ siĠshi4Ġ
shao4Ġ xing1Ġ
che4Ġ chu1Ġ
ac eĠĠĠ
ĠR o
ji4Ġnian4Ġ guan3Ġ
ĠK Ġ
jie3Ġjue2Ġ fang1Ġan4Ġ
chuang1Ġ kou3Ġ
Ġzheng3Ġ ti3Ġ
gong3Ġ gu4Ġ
ali gnĠ
Ġpo4Ġ shi3Ġ
illi am
S O
c c
ĠĠĠ bo2Ġ
ĠĠĠ ming2Ġcheng1Ġ
yi1Ġ sou1Ġ
da4Ġ huo3Ġ
si1Ġ la1Ġ
xing2Ġ xing4Ġ
ming2Ġ gu3Ġwu1Ġ
fa1Ġ fang4Ġ
bing4Ġ bei4Ġ
te4Ġ gong1Ġ
lan2Ġ jie2Ġ
Ġ1 2
bao1Ġ zhuang1Ġ
jiang3Ġ shi1Ġ
ren4Ġwei2Ġ zhe4Ġ
shi4Ġjie4Ġ ge4Ġdi4Ġ
huan2Ġ jie2Ġ
Ġjia1Ġ ting2Ġ
Ġli3Ġ cha2Ġ
na2Ġ ma3Ġ
Ġjian1Ġ ren4Ġ
Ġchong2Ġ zhen1Ġ
Ġgai1Ġsheng3Ġfen4Ġwei4Ġfa3Ġguo2Ġ bei3Ġbu4Ġ
suo3Ġzai4Ġ deĠ
ju4Ġfeng1Ġ zhong1Ġxin1Ġ
jian1Ġcha2Ġ yu4Ġshi3Ġ
Ġjie2Ġke4Ġ xun4Ġ
Ġ ying3Ġ
Ġ hui2Ġdao4Ġ
ĠĠ di4Ġ
e4Ġ er3Ġ
shi4Ġ ye3Ġ
wei4Ġ zhong1Ġxin1Ġ
mi n
zhong1Ġ dong1Ġ
yu3Ġ xi1Ġ
xi4Ġ shu4Ġ
duo1Ġ mian4Ġti3Ġ
ziĠ ke1Ġ
mo2Ġ er3Ġ
ting2Ġ huo3Ġ
fang2Ġ ziĠ
hang2Ġ hai3Ġ
da3Ġ ru4Ġ
qun2Ġ deĠ
gan1Ġ she4Ġ
leĠyi1Ġ xiang4Ġ
198 2Ġnian2Ġ
zhuan4Ġ ji4Ġ
mu4Ġdi4Ġ shi4Ġ
gai3Ġbian1Ġ wei4Ġ
zhuan1Ġke1Ġ xue2Ġxiao4Ġ
yi1Ġli4Ġnuo4Ġ yi1Ġzhou1Ġ
nan2Ġ qu1Ġ
jin4Ġ zhi4Ġ
dian4Ġ ci2Ġ
jue2Ġ qi3Ġ
liu2Ġ fang4Ġ
kuo4Ġ chong1Ġ
Ġch i3Ġ
jian3Ġ qing1Ġ
Ġtong2Ġnian2Ġ 9Ġyue4Ġ
que1Ġ xian4Ġ
Ġran2Ġhou4Ġ zai4Ġ
Ġ14 9
Ġpu2Ġtao2Ġya2Ġ yu3Ġ
le4Ġbi3Ġ hai3Ġ
9 2
Ġ diao4Ġcha2Ġ
he2Ġ fu4Ġ
he2Ġ zhou1Ġ
ping2Ġ ji2Ġ
Ġwei4Ġ zhong1Ġguo2Ġ
liang3Ġ ceng2Ġ
zhang1Ġ dan1Ġqu1Ġ
du2Ġ xing4Ġ
pa4Ġ la1Ġ
ke1Ġxue2Ġ ji4Ġshu4Ġ
wai4Ġjiao1Ġ guan1Ġxi4Ġ
ĠÐ ½
196 8Ġnian2Ġ
2010Ġnian2Ġ mei3Ġguo2Ġren2Ġkou3Ġpu3Ġcha2Ġ
da1Ġ ying4Ġ
xin1Ġli3Ġ xue2Ġ
tai2Ġnan2Ġ shi4Ġ
zu2Ġgou4Ġ deĠ
de2Ġke4Ġ sa4Ġsi1Ġzhou1Ġ
guan3Ġkong4Ġ zhong1Ġfa1Ġxian4Ġ
4 2Ġnian2Ġ
Ġ chu1Ġxian4Ġ
deĠ shuo1Ġfa3Ġ
an1Ġ xi1Ġ
he2Ġ xiang1Ġ
ji4Ġ wei3Ġ
er2Ġ cheng2ĠdeĠ
zhou1Ġ qu1Ġ
jie1Ġ xia4Ġlai2ĠdeĠ
hai3Ġ mu3Ġ
Ġbing4Ġ jiang1Ġqi2Ġ
Ġdan4Ġ wei4Ġ
ni2Ġ po1Ġer3Ġ
guang3Ġ yi4Ġ
jiang3Ġ zuo4Ġ
zong1Ġ se4Ġ
Ġjin4Ġ yi2Ġbu4Ġ
Ġji4Ġ lu4Ġ
zhui1Ġ zong1Ġ
shu4Ġju4Ġ ku4Ġ
Ġxing2Ġzheng4Ġ zhong1Ġxin1Ġ
r yĠ
Ġ on
Ġ guo2Ġmin2Ġ
ĠĠĠ bi3Ġ
ĠĠĠ th
xian4Ġ bing1Ġ
dian4Ġ zhan4Ġ
jiao4Ġ dao3Ġ
bei3Ġ shang4Ġ
bian4Ġ hu4Ġ
deĠyi1Ġ xi4Ġlie4Ġ
qi1Ġjian1Ġ deĠ
Ġyuan2Ġ wei4Ġ
bi3Ġsai4Ġ deĠ
ro w
min2Ġzhu3Ġ zhu3Ġyi4Ġ
jie1Ġdao4Ġ ban4Ġshi4Ġchu4Ġ
mai4Ġke4Ġ er3Ġ
Ġcun2Ġ zai4Ġ
l ao1Ġ
Ġ guo2Ġmin2Ġzheng4Ġfu3Ġ
deĠ shu1Ġ
shi4Ġ ri4Ġben3Ġ
yi1Ġ jiao3Ġ
yuan2Ġ lang3Ġ
ji4Ġ liang4Ġ
si1Ġ de2Ġ
jian4Ġ jie1Ġ
sheng1Ġ jiang4Ġ
san1Ġ bai3Ġ
ti2Ġ chang4Ġ
Ġyi3Ġ zhi4Ġ
chu4Ġ chu4Ġzhang3Ġ
gang1Ġ guo3Ġ
lian2Ġbang1Ġ zheng4Ġfu3Ġ
sang1Ġ na4Ġ
zhi4Ġzao4Ġ deĠ
Ġzheng1Ġ yue4Ġ
e y
ĠĠĠ 3
ĠĠĠ xue2Ġxiao4Ġ
shi4Ġ fei1Ġ
bu4Ġ luo2Ġ
shi2Ġ su4Ġ
nan2Ġ shi4Ġ
ma3Ġ en1Ġsheng3Ġ
liu2Ġ lan3Ġ
shen1Ġ ke4Ġ
tong1Ġ qin2Ġ
mei2Ġ li4Ġ
can1Ġ yi4Ġ
xian1Ġ feng1Ġ
Ġdang1Ġ di4ĠdeĠ
Ġying1Ġ gai1Ġ
Ġpu3Ġ tong1Ġ
mai3Ġ jia1Ġ
Ġ191 3Ġnian2Ġ
Ġya4Ġ mei3Ġni2Ġya4Ġ
Ġmin2Ġ ji2Ġ
6 9Ġ
zai4Ġ de2Ġguo2Ġ
li3Ġ bai4Ġ
ge4Ġ xing4Ġ
guan1Ġ ya1Ġ
Ġzai4Ġ du4Ġ
qiu2Ġ zhang3Ġ
jiang1Ġ yu2Ġ
zhang3Ġ shi2Ġjian1Ġ
chuan2Ġ dao4Ġ
rong2Ġ ru4Ġ
yan2Ġjiu1Ġ deĠ
zao3Ġ zai4Ġ
qing4Ġ xia4Ġ
zhao3Ġ ze2Ġ
yi4Ġzhi2Ġ shi4Ġ
ĠO Ġ
you3Ġxiao4Ġ deĠ
wei4Ġ 1Ġ
yi4Ġ tu2Ġ
le Ġta1ĠmenĠdeĠ
xian4Ġ ren4Ġ
dui4Ġ dai4Ġ
yong4Ġ zai4Ġ
quan2Ġ ji1Ġ
suo3Ġ ni2Ġ
zui4Ġ shao3Ġ
jiao4Ġ you3Ġ
fu2Ġ si1Ġ
men2Ġ deĠ
sai1Ġ si1Ġ
Ġju4Ġ qing4Ġxia4Ġ
17 Ġshi4Ġji4Ġ
Ġchu1Ġ sheng1Ġ
ou1Ġzhou1Ġ guo2Ġjia1Ġ
Ġgong4Ġ ji4Ġ
ĠĠĠ199 0Ġnian2Ġ
Ġ191 8Ġnian2Ġ
nian2Ġqing1Ġ ren2Ġ
a1Ġer3Ġba1Ġ ni2Ġya4Ġ
icrosof tĠĠĠ
5 3
5 5Ġnian2Ġ
ĠĠĠ han4Ġ
zhi1Ġ ren2Ġ
wai4Ġ xing2Ġ
qin1Ġ shi2Ġ
lun4Ġ deĠ
Ġda4Ġ xing2Ġ
Ġmei3Ġ ci4Ġ
he2Ġzuo4Ġ deĠ
jie2Ġshu4Ġ shi2Ġ
Ġhuang2Ġ jia1Ġ
ken3Ġ se4Ġ
deĠyuan2Ġ su4Ġ
Ġhang2Ġ kong1Ġ
ai4Ġhao4Ġ zhe3Ġ
7 4
T heĠĠĠ
Ġ ye2Ġ
deĠ mei3Ġ
shi4Ġ xiang4Ġ
he2Ġ jie3Ġ
yuan2Ġ lin2Ġ
bei4Ġ qi2Ġ
fu2Ġ lan2Ġ
zhong4Ġ ren2Ġ
tai4Ġ zu3Ġ
gu3Ġ si1Ġ
lu deĠ
zhuan1Ġ zhu4Ġyu2Ġ
hong2Ġ qi2Ġ
Ġhou4Ġ you4Ġ
Ġzhi4Ġ zao4Ġ
chu1Ġban3Ġ leĠ
Ġjie1Ġ ti4Ġ
Ġtai4Ġ lei1Ġ
Ġ191 4Ġnian2Ġ
ĠĠĠjia1Ġ jing4Ġ
xiu1Ġzheng4Ġ an4Ġ
Ġgu1Ġ ji4Ġ
0 8Ġ
Ġ jue2Ġse4Ġ
Ġ shan3Ġ
3Ġ li4Ġ
deĠ tong2Ġshi2Ġ
ĠĠĠ 2
li3Ġ jia1Ġ
qi2Ġ jian4Ġ
Ġzai4Ġ jia1Ġshang4Ġ
kai1Ġ feng1Ġ
lian2Ġ chuan4Ġ
zhi2Ġ jiao4Ġ
hai3Ġ bao4Ġ
qing1Ġ song1Ġ
bi3Ġ fen1Ġ
di4Ġyi1Ġ ren4Ġ
xing2Ġzheng4Ġ zhong1Ġxin1Ġ
yi3Ġjing1Ġ bei4Ġ
Ġzuo4Ġ qu3Ġ
Ġyi2Ġ dan4Ġ
dan1Ġqu1Ġ bang3Ġ
Ġgai1Ġwu4Ġzhong3ĠdeĠ mo2Ġshi4Ġchan3Ġ
8 9Ġ
wei4Ġ zhong1Ġguo2Ġ
bu4Ġ yuan4Ġ
yi1Ġ jiu4Ġ
yue4Ġ bing1Ġ
da4Ġ tu2Ġsha1Ġ
ai1Ġ sai1Ġ
yu3Ġ wei4Ġ
ji1Ġ shen1Ġ
hou4Ġ bu3Ġ
de2Ġ lai2Ġ
yi2Ġ ti3Ġ
zhou1Ġ zhi1Ġ
jian1Ġ ce4Ġ
fen1Ġ ju2Ġ
kai1Ġ yuan2Ġ
mu4Ġ zang4Ġ
sai4Ġ er3Ġ
Ġzhe4Ġ shou3Ġge1Ġ
gou4Ġ jian4Ġ
Ġgai1Ġ shi4Ġzhen4Ġ
lun2Ġ li3Ġ
tuo1Ġ wei2Ġya4Ġ
zao3Ġ yi3Ġ
al lĠ
wen1Ġ ge1Ġhua2Ġ
zhong1Ġyang1Ġ dian4Ġshi4Ġtai2Ġ
shen3Ġ yi4Ġ
shen4Ġ tou4Ġ
Ġying1Ġ ge2Ġlan2Ġ
es s
zuo4Ġchu1Ġ leĠ
lu4Ġyin1Ġshi4Ġ zhuan1Ġji2Ġ
D NA
Ġ kun1Ġ
ĠĠ P
ĠĠĠ mi3Ġ
he2Ġ zai4Ġ
bu4Ġ duo1Ġ
wu4Ġ cha1Ġ
ye3Ġ cheng2Ġwei2Ġ
dao3Ġ zhi4ĠdeĠ
qing1Ġ li3Ġ
sha1Ġ shou3Ġ
xin4Ġ tuo1Ġ
xiu1Ġ shi4Ġ
chong2Ġ bo1Ġ
lian4Ġ jie1Ġ
Ġzheng4Ġ de2Ġ
Ġjian4Ġ she4Ġ
11Ġ ge4Ġ
197 0Ġnian2Ġdai4Ġ
ĠãĤ ĵ
Ġjiu3Ġ yue4Ġ
tan1Ġ wu1Ġ
Ġda2Ġ dao4Ġ
Ġbu2Ġ hui4Ġ
duo1Ġyang4Ġ xing4Ġ
si1Ġli3Ġ lan2Ġka3Ġ
en ĠĠĠ
e2Ġ wai4ĠdeĠ
gong1Ġ zi1Ġ
ji1Ġ jian4Ġ
hou4Ġ bian4Ġ
dai4Ġ wei2Ġ
dai4Ġ yan2Ġ
mei3Ġ la1Ġ
bei3Ġ mei3Ġzhou1Ġ
da2Ġ ke1Ġ
ling4Ġ yi1Ġzhong3Ġ
Ġti e1Ġ
12Ġyue4Ġ 1Ġri4Ġ
deĠshi2Ġ wu4Ġ
pi2Ġ jiu3Ġ
Ġduo1Ġ ming2Ġ
ji1Ġgou4Ġ deĠ
ran3Ġ se4Ġ
Ġer4Ġ yue4Ġ
Ġzhan1Ġ mu3Ġsi1Ġ
F or
g i
h er
y c
Ġ fa3Ġlv4Ġ
Ġ miao2Ġshu4Ġ
ĠĠĠ miao2Ġshu4Ġ
gong1Ġ xian4Ġ
bei4Ġ la1Ġ
lu4Ġ gui3Ġ
xia4Ġ lang3Ġde2Ġ
zui4Ġ zhu4Ġming2ĠdeĠ
ye3Ġ ke3Ġ
ya4Ġ re4Ġdai4Ġ
shou4Ġ ti3Ġ
mei2Ġ gui1Ġ
da2Ġ deĠ
Ġhe2Ġ ping2Ġ
zong1Ġ zuo4Ġ
7Ġ ming2Ġ
jiu1Ġ fen1Ġ
deĠshi4Ġ wu4Ġ
hen3Ġ gao1Ġ
bang3Ġ jia4Ġ
Ġte4Ġ lang3Ġpu3Ġ
Ġ192 5Ġnian2Ġ
Ġjing3Ġ cha2Ġ
qie1Ġ duan4Ġ
Ġgong1Ġyuan2Ġ qian2Ġ
a ul
Ġ huan2Ġjing4Ġ
di4Ġ na4Ġ
da4Ġ lve4Ġ
er2Ġ zai4Ġ
min2Ġ hang2Ġ
ye3Ġ yi3Ġ
shui3Ġ xian4Ġ
gou4Ġ xiang3Ġ
men2Ġ wai4Ġ
Ġji2Ġ qi2Ġ
di4Ġyi1Ġ lun2Ġ
Ġshi2Ġ er4Ġyue4Ġ
16 0Ġ
Ġzhan4Ġ zong3Ġren2Ġkou3Ġ
wai4Ġjiao1Ġ bu4Ġzhang3Ġ
Ġzuo4Ġ zhe3Ġ
ĠĠĠ198 9Ġnian2Ġ
tai2Ġfeng1Ġ jing3Ġbao4Ġ
yi1Ġduan4Ġ shi2Ġjian1Ġ
Ġdong1Ġnan2Ġ jie1Ġ
C E
G am
ĠĠĠ 5
ĠĠĠ jiu4Ġ
da4Ġ da4Ġ
ji4Ġ he2Ġ
ke4Ġ shi4Ġ
fu4Ġ dan1Ġ
mu4Ġ shi4Ġ
wei3Ġ deĠ
zi1Ġ tai4Ġ
Ġgai1Ġ xiao4Ġ
zheng4Ġzhi4Ġ xie2Ġshang1Ġhui4Ġyi4Ġ
zhu1Ġ hou2Ġ
shuang1Ġ xiang4Ġ
xian2Ġ yi2Ġ
zan4Ġ cheng2Ġ
xi4Ġlie4Ġ deĠ
Ġzui4Ġzhong1Ġ yi3Ġ
Ġge2Ġ nian2Ġ
Ġha1Ġ li4Ġ
dao3Ġshi4Ġ yue4Ġtai2Ġ
Ġgeng1Ġ ming2Ġwei4Ġ
1Ġ gong1Ġli3Ġ
ĠĠĠ zhi3Ġ
da4Ġ nao3Ġ
si1Ġ luo4Ġ
bei4Ġ shou4Ġyu3Ġ
zhan4Ġ xian4Ġ
wen2Ġ ji2Ġ
mu4Ġ hou4Ġ
Ġc uo4Ġ
ban4Ġ qiu2Ġ
sha1Ġ te4Ġ
fan3Ġ gong1Ġ
xiang3Ġ shou4Ġ
wan4Ġ ping2Ġfang1Ġmi3Ġ
hang2Ġ yun4Ġ
ling2Ġ dun4Ġ
kai1Ġshi3Ġ leĠ
Ġdi4Ġ 1Ġ
dan4Ġ dao4Ġ
shou1Ġ hui2Ġ
gan3Ġ jun1Ġ
deĠyi2Ġge4Ġ xian4Ġ
lao3Ġ ren2Ġ
16 Ġshi4Ġji4Ġ
fu2Ġwu4Ġ qi4Ġ
guai4Ġ wu4Ġ
zai4Ġzhe4Ġ li3Ġ
zhui1Ġsu4Ġ zhi4Ġ
3 1
F acebo
b yĠĠĠ
ji1Ġ er3Ġ
quan2Ġ lei3Ġda3Ġ
huo4Ġ ban1Ġ
er4Ġ deng3Ġ
ying1Ġ shi4Ġ
5Ġ shi2Ġ
xu4Ġ shi4Ġ
chu3Ġ fen4Ġ
fan1Ġ qie2Ġ
Ġsheng1Ġ wu4Ġ
Ġsan1Ġ ge4Ġ
pao4Ġ tai2Ġ
bo2Ġwu4Ġ yuan4Ġ
guo2Ġjia1Ġdui4Ġ can1Ġjia1Ġ
xin1Ġbei3Ġ shi4Ġ
D e
H E
a ur
Ġ ni
ĠĠĠ an4Ġ
wei4Ġ fu4Ġ
bu4Ġ dan4Ġ
yi4Ġ zuo4Ġ
ji4Ġ lv4Ġ
lai2Ġ leĠ
bo Ġdu4Ġ
jiang1Ġ zhe4Ġ
si4Ġ jun1Ġ
ba1Ġ ge4Ġ
dang1Ġ qian2Ġ
wei1Ġ te4Ġ
wei1Ġ hai4Ġ
mi4Ġ xie1Ġgen1Ġ
wan2Ġ jie2Ġ
wan2Ġ bi4Ġ
Ġyi1Ġ ju4Ġ
eĠĠĠ H
deĠshi4Ġ li4Ġ
gui4Ġ deĠ
ĠÐ ¸
huan3Ġ jie3Ġ
Ġxin1Ġzeng1Ġ ben3Ġtu3Ġ
luo2Ġla1Ġ duo1Ġ
2Ġ gong1Ġli3Ġ
ĠĠĠ yi2Ġge4Ġ
ĠĠĠ xiao4Ġ
ĠĠĠ long2Ġ
he2Ġ ta1Ġ
yi1Ġ deng3Ġ
yu2Ġ qi2Ġ
le Ġzhe4ĠgeĠ
nan2Ġ du4Ġ
te4Ġ zhong3Ġ
fu2Ġ la1Ġ
sai4Ġ shi4ĠdeĠ
er4Ġ ceng2Ġ
tai4Ġ ren2Ġ
ying2Ġ jie1Ġ
yong3Ġ shi4Ġ
deĠyi2Ġge4Ġ qu1Ġ
cai3Ġ ji2Ġ
hao3Ġ lai2Ġwu4Ġ
wo4Ġ fu1Ġ
gui4Ġ lin2Ġ
ĠĠĠM o
198 7Ġnian2Ġ
yu2Ġ199 7Ġnian2Ġ
ĠĠĠ18 7
Ġ191 1Ġnian2Ġ
ĠĠĠ193 7Ġnian2Ġ
fa3Ġlan2Ġ ke4Ġ
ha1Ġer3Ġ ke1Ġfu1Ġ
zhuang4Ġji1Ġ keng1Ġ
Ġ chi2Ġxu4Ġ
Ġ iĠ
wei4Ġ jie4Ġ
shi2Ġ suo3Ġ
you3Ġ quan2Ġ
jia1Ġ kang1Ġ
li3Ġ er3Ġ
xue2Ġ ye4Ġ
zhan4Ġ fu2Ġ
xiang4Ġ wei4Ġ
min2Ġ shi4Ġ
fen1Ġ dui4Ġ
fen1Ġ bian4Ġ
yan2Ġ an1Ġ
chang2Ġ zheng1Ġ
si4Ġ ci4Ġ
8Ġyue4Ġ 31Ġri4Ġ
Ġju4Ġ le4Ġ
can1Ġyu4Ġ zhe3Ġ
Ġdan1Ġ qu1Ġ
194 9Ġnian2Ġ
guan1Ġfang1Ġ wang3Ġzhan4Ġ
yin3Ġqi3Ġ deĠ
peng1Ġ hu2Ġ
D A
l yi
Ġ qun2Ġ
ĠĠĠ zhi1Ġhou4Ġ
ĠĠĠ e2Ġluo2Ġsi1Ġ
he2Ġ wu3Ġ
bu4Ġ si1Ġbao3Ġ
xi1Ġ la1Ġ
xue2Ġ jie4Ġ
she4Ġ zheng4Ġ
wu4Ġ ye4Ġ
er2Ġ bu2Ġshi4Ġ
Ġzai4Ġ zhong1Ġ
shan1Ġ zhan4Ġ
ci4Ġ nian2Ġ
xiao3Ġ shi2ĠdeĠ
wang2Ġ gong1Ġ
ban4Ġ xue2Ġ
mo4Ġ deĠ
kai1Ġshi3Ġ hou4Ġ
Ġ2 5
bu3Ġ chang2Ġ
deĠshi2Ġ dai4Ġ
Ġjiu4Ġ xiang4Ġ
sheng1Ġwu4Ġ xue2Ġjia1Ġ
ĠÐ µ
Ġshu3Ġ rou4Ġshi2Ġxing4Ġ
Ġhei1Ġ long2Ġjiang1Ġsheng3Ġ
yin3Ġqi3Ġ leĠ
200Ġ mi3Ġ
nve4Ġ dai4Ġ
Ġhua4Ġxue2Ġ shi4Ġwei4Ġ
shi2Ġqi4Ġ shi2Ġdai4Ġ
an k
ĠĠĠ for
he2Ġ a1Ġ
cheng2Ġ yi1Ġ
jia1Ġ zhang3Ġ
li3Ġ yue1Ġ
jian4Ġ ge2Ġ
zi4Ġ dong4Ġhua4Ġ
zhu4Ġ cheng1Ġ
fen1Ġ zhi4Ġ
zhi2Ġ gong1Ġ
shu3Ġ wu4Ġzhong3Ġ
dan1Ġ che1Ġ
ci3Ġ yi1Ġ
Ġdang1Ġ ri4Ġ
Ġzhi3Ġ deĠshi4Ġ
Ġwo3Ġ deĠ
xia4Ġji4Ġ ao4Ġyun4Ġhui4Ġ
tong2Ġyi1Ġ ge4Ġ
yi1Ġli4Ġ sha1Ġbai2Ġ
S c
u sic
ĠĠĠ jing1Ġ
ĠĠĠ yan2Ġjiu1Ġ
nian2Ġ fen4Ġ
yuan2Ġ you3ĠdeĠ
zi4Ġ ti3Ġ
xia4Ġ shui3Ġ
Ġshi4Ġ han2Ġguo2Ġ
wen2Ġ si1Ġ
ma3Ġ qi2Ġdun4Ġ
shi1Ġ li4Ġ
nei4Ġ bu4ĠdeĠ
6Ġ gong1Ġli3Ġ
ping2Ġfang1Ġ ying1Ġli3Ġ
Ġshi2Ġ dai4Ġ
cun2Ġ deĠ
lao3Ġ hu3Ġ
fan1Ġ chang4Ġ
ĠĠĠdi4Ġ san1Ġ
197 9Ġnian2Ġ
Ġ192 6Ġnian2Ġ
de2Ġli3Ġ ke4Ġ
zhu4Ġyi4Ġ dao4Ġ
9 4
ĠĠĠ ceng2Ġ
shi4Ġ ting1Ġ
zai4Ġ nan2Ġ
he2Ġ gao1Ġ
zhi4Ġ ming4Ġ
ji2Ġ bu4Ġ
xian4Ġ yi4Ġ
chu1Ġ se4Ġ
guo4Ġ duo1Ġ
shan1Ġ shang4Ġ
jin1Ġ zhong1Ġ
shen1Ġ ye4Ġ
bao4Ġ guang1Ġ
lei4Ġ an4Ġjian4Ġ
Ġch i1Ġ
jing3Ġ bei4Ġ
zhuang1Ġ zai4Ġ
chao2Ġ shi2Ġ
zi3Ġ sun1Ġ
shi4Ġjie4Ġ da4Ġsai4Ġ
liao4Ġ li3Ġ
Ġnan2Ġ fang1Ġ
chang4Ġ xiao1Ġ
kai1Ġfa1Ġ qu1Ġ
guang3Ġbo1Ġ dian4Ġshi4Ġ
can1Ġsai4Ġ zhe3Ġ
xiang1Ġsi4Ġ deĠ
bo1Ġluo2Ġ di4Ġhai3Ġ
suo3Ġxu1Ġ deĠ
wai4Ġwei2Ġ sai4Ġ
jiao4Ġke1Ġ wen2Ġ
8 00Ġ
m m
r y
ĠĠĠ su1Ġ
li a3Ġ
da4Ġ sheng4Ġ
jia1Ġ jing4Ġ
ri4Ġ nei4Ġ
fen1Ġ mi4Ġ
shou3Ġ xia4Ġ
dian4Ġ yuan2Ġ
zui4Ġ zhang3ĠdeĠ
ye3Ġ neng2Ġ
Ġc ao1Ġ
dong1Ġ bu4ĠdeĠ
liu2Ġ ru4Ġ
6Ġnian2Ġ 2Ġyue4Ġ
mo4Ġ duan1Ġ
cai2Ġ jing1Ġ
or i
Ġdi4Ġ guo2Ġ
jia4Ġ gei3Ġ
di2Ġ ke4Ġ
Ġti ao4Ġ
jin4Ġru4Ġ leĠ
11Ġ shi2Ġ
Ġke1Ġ er3Ġ
gao1Ġxiong2Ġ shi4Ġ
ber tĠĠĠ
man3Ġzhou1Ġ guo2Ġ
yin4Ġdi4Ġan1Ġna4Ġ zhou1Ġ
ĠĠĠ sai4Ġ
ĠĠĠ zhe4ĠgeĠ
xian4Ġ xing2Ġ
si1Ġ luo4Ġfa2Ġke4Ġ
dao4Ġ he2Ġ
sheng1Ġ ping2Ġ
you2Ġ ta1Ġ
dui4Ġ liu2Ġ
yi2Ġ zhi2Ġ
ding4Ġ gou4Ġ
Ġzhe4Ġ yi4Ġwei4Ġ
zhuang1Ġ yuan2Ġ
ming4Ġ zhong4Ġ
hai2Ġ hui4Ġ
zan4Ġ yang2Ġ
feng4Ġ ming4Ġ
shi2Ġer4Ġ yue4Ġ
Ġshen1Ġ du4Ġ
Ġ192 2Ġnian2Ġ
lv4Ġwei4Ġ 0
e2Ġ bi3Ġya4Ġ
ĠĠĠ dang1Ġshi2Ġ
zai4Ġ ke4Ġ
zhi4Ġ 9Ġyue4Ġ
gong1Ġ suo3Ġ
wei2Ġ shou3ĠdeĠ
fu4Ġ chou2Ġ
zhi2Ġ quan2Ġ
zhi3Ġ deĠshi4Ġ
Ġbing4Ġ kai1Ġshi3Ġ
tong3Ġ shuai4Ġ
Ġzhe4Ġ liang3Ġge4Ġ
can1Ġ jian4Ġ
jian4Ġzhu4Ġ qun2Ġ
Ġcong2Ġ shi4Ġ
Ġge2Ġ lan2Ġte4Ġ
leng3Ġ que4Ġ
shu2Ġ xi1Ġ
zong1Ġhe2Ġ xing4Ġ
G P
Ġ kua4Ġ
ch ou4Ġ
deĠ xue2Ġsheng1Ġ
yi3Ġ shi4Ġ
zhi1Ġ lv3Ġ
jie1Ġ na4Ġ
lin2Ġ si1Ġ
si4Ġ zhong3Ġ
Ġwei4Ġ re4Ġdai4Ġ
yue1Ġ shu4Ġ
duan4Ġ ceng2Ġ
gu4Ġ ti3Ġ
Ġhou4Ġ bei4Ġ
Ġli4Ġ fa3Ġ
Ġyuan2Ġ lai2Ġ
Ġzhu3Ġ yan3Ġ
shui4Ġ shou1Ġ
14 0Ġ
han3Ġ jian4Ġ
tie1Ġ mu4Ġer2Ġ
dong4Ġli4Ġ xue2Ġ
Ġliu4Ġ yue4Ġ
Ġbu2Ġ yao4Ġ
ke4Ġxi1Ġ ta3Ġni2Ġda4Ġqu1Ġ
6 3
A nd
z ao2Ġ
en d
deĠ bi3Ġsai4Ġ
ĠĠĠ g
ĠĠĠ lai2Ġ
ĠĠĠ ye4Ġ
ĠĠĠ zhu1Ġ
shi4Ġ yin1Ġ
wei4Ġ lai2ĠdeĠ
zu3Ġ ai4Ġ
zhong4Ġ zhi4Ġ
gai1Ġ gong1Ġsi1Ġ
tu2Ġ er3Ġ
hu4Ġ li3Ġ
Ġdang1Ġ ju2Ġ
on eĠĠĠ
huan4Ġ qu3Ġ
3Ġyue4Ġ 31Ġri4Ġ
12Ġyue4Ġ 28Ġri4Ġ
fang1Ġmian4Ġ jun1Ġ
zhang4Ġ hu4Ġ
dang4Ġ wan3Ġ
ti4Ġ bu3Ġ
nie4Ġ ci2Ġke4Ġ
zai4Ġ200 8Ġnian2Ġ
zai4Ġ201 2Ġnian2Ġ
Ġai4Ġer3Ġ lan2Ġ
ĠĠĠ ci2Ġ
ĠĠĠ wu1Ġ
zai4Ġ dang1Ġdi4Ġ
you3Ġ hen3Ġduo1Ġ
ge4Ġ zhou1Ġ
zuo4Ġ zai4Ġ
zheng4Ġ shi4ĠdeĠ
bei4Ġ shou4Ġ
qi1Ġ shi4Ġ
Ġta1Ġ yi4Ġ
ma3Ġ xun4Ġ
duo1Ġ da2Ġ
Ġyi1Ġ li4Ġ
âĢ »
Ġye3Ġ mei2Ġyou3Ġ
zeng1Ġ yuan2Ġ
huo4Ġde2Ġ deĠ
hen3Ġ you3Ġ
bin1Ġ xi1Ġfa3Ġ
pi2Ġ er3Ġ
Ġquan2Ġ xian4Ġ
zu2Ġqiu2Ġ xie2Ġhui4Ġ
Ġta1Ġmen Ġshi4Ġ
che4Ġ si1Ġte4Ġ
ol orĠ
she4Ġli4Ġ leĠ
fu4Ġqin1Ġ deĠ
Ġniu3Ġyue1Ġ shi2Ġbao4Ġ
p ian2Ġ
bu4Ġ ru2Ġ
jia1Ġ lai2Ġ
li3Ġ de2Ġ
zhu3Ġ deĠ
chang2Ġ tu2Ġ
ci4Ġ wei4Ġ
qi4Ġ jin1Ġ
jiu4Ġ ci3Ġ
Ġdi4Ġ qiu2Ġ
han2Ġ min2Ġguo2Ġ
Ġda4Ġ ban3Ġ
zhuang4Ġ zu2Ġzi4Ġzhi4Ġqu1Ġ
guan4Ġ li4Ġ
zan4Ġ shang3Ġ
Ġchu1Ġ shen1Ġ
Ġsi1Ġ ma3Ġ
jue2Ġse4Ġ ban4Ġyan3Ġ
sheng1Ġchan3Ġ zong3Ġ
sai4Ġshi4Ġ zhong1Ġ
ĠãĤ ¹
kun4Ġ rao3Ġ
I L
O P
t eĠĠĠ
Ġ chan3Ġsheng1Ġ
Ġ ming4Ġming2Ġ
le sĠ
xue2Ġ li4Ġ
xin1Ġ a1Ġji1Ġtan3Ġda4Ġqu1Ġ
bing4Ġ fa1Ġ
fu4Ġ zi3Ġ
fu2Ġ ke4Ġ
jie1Ġ zhong3Ġ
chang2Ġ shu4Ġ
bei3Ġ qu1Ġ
bi3Ġ si1Ġ
tai4Ġ mi3Ġer3Ġ
fu1Ġ si1Ġji1Ġ
2Ġyue4Ġ 24Ġri4Ġ
Ġxi1Ġ yuan2Ġ
yin1Ġyue4Ġ lu4Ġying3Ġdai4Ġ
Ġmei3Ġ jun1Ġ
deĠshi2Ġ ji4Ġ
gan1Ġ zao4Ġ
Ġqing1Ġ nian2Ġ
Ġlu4Ġ jun1Ġ
mu4Ġbiao1Ġ shi4Ġ
Ġ192 1Ġnian2Ġ
deĠyi4Ġ jian4Ġ
xian4Ġlu4Ġ kou3Ġ
Ġchuang4Ġ zao4Ġ
Ġyou4Ġming2Ġ BDĠ
Ġdu an1Ġ
i lv
o st
2Ġ hao4Ġxian4Ġ
deĠ dai4Ġbiao3Ġ
deĠ she4Ġhui4Ġ
gong1Ġ xue2Ġyuan4Ġ
ji2Ġ bei4Ġ
yu3Ġ tong2Ġ
quan2Ġ jing4Ġ
fu2Ġ nie4Ġ
man4Ġ ha1Ġ
fei4Ġ cheng2Ġ
bai2Ġ yin2Ġ
197 0Ġnian2Ġ
Ġwei4Ġyu2Ġgai1Ġguo2Ġ bei3Ġbu4Ġ
zai4Ġ201 5Ġnian2Ġ
T T
e u
g roundĠ
Ġ biao1Ġzhi4Ġ
zhan4Ġ li4Ġ
mei3Ġ ci4Ġ
zhe4Ġ zuo4Ġ
bo1Ġ xi1Ġ
xu4Ġ yue1Ġ
bo2Ġ li3Ġ
gang3Ġ ao4Ġ
bai3Ġ tuo1Ġ
in eĠ
bei1Ġ guan4Ġjun1Ġ
lu2Ġ sen1Ġbao3Ġ
198 3Ġnian2Ġ
Ġbu4Ġguo4Ġ zai4Ġ
ĠãĤ ¤
Ġyi2Ġ du4Ġ
ying4Ġyong4Ġ cheng2Ġxu4Ġ
yu2Ġ199 5Ġnian2Ġ
shuai1Ġ luo4Ġ
fu2Ġlei2Ġ de2Ġ
nei4Ġmeng2Ġgu3Ġ zi4Ġzhi4Ġqu1Ġ
C H
Ġ gui1Ġhua4Ġ
yi1Ġ shi2Ġ
yi3Ġ cheng2Ġwei2Ġ
ji1Ġ xing2Ġ
ri4Ġ ziĠ
zuo4Ġ ke4Ġ
hua4Ġ shi4Ġ
zhu3Ġ bian1Ġ
duo1Ġ er3Ġsheng3Ġ
Ġ19 19Ġnian2Ġ
feng1Ġ jing3Ġ
Ġer2Ġ qi2Ġ
shui3Ġ ni2Ġ
chuan2Ġ cheng2Ġ
nv3Ġ shi4Ġ
bi4Ġ nan4Ġ
jin3Ġ ci4Ġyu2Ġ
dian4Ġying3Ġ zhong1Ġ
tao2Ġ tuo1Ġ
Ġjia1Ġ qing4Ġ
Ġ192 3Ġnian2Ġ
Ġte4Ġbie2Ġ shi4Ġzai4Ġ
5 2
S P
Ġ xun4Ġ
4Ġ gong1Ġli3Ġ
deĠ you2Ġxi4Ġ
ao4Ġ wei3Ġhui4Ġ
zai4Ġ shi4Ġ
bu4Ġ you3Ġ
da4Ġ he2Ġ
jia1Ġ zai4Ġ
wei2Ġ deĠ
you2Ġ jian4Ġ
shang4Ġ yi3Ġ
leĠ xin1Ġ
de2Ġ duo1Ġ
jin4Ġ nian2Ġ
mei3Ġ ren2Ġ
qi4Ġ qiu2Ġ
hua2Ġ yi4Ġ
can1Ġ jun1Ġ
zhuang1Ġ you3Ġ
ke3Ġyi3Ġ bei4Ġ
Ġk a1Ġ
Ġdong1Ġ hai3Ġ
jia1Ġli4Ġfu2Ġ ni2Ġya4Ġ
mao3Ġ ke1Ġ
ming2Ġni2Ġsu1Ġda2Ġ zhou1Ġ
5 9Ġnian2Ġ
Ġ di4Ġqu1Ġ
Ġ ju3Ġxing2Ġ
ji1Ġ su4Ġ
chu1Ġ dong4Ġ
ju4Ġ ju1Ġ
mu4Ġ ban3Ġ
huo4Ġ zhun3Ġ
xing4Ġ yu3Ġ
jin1Ġ ma3Ġ
liang4Ġ chan3Ġ
xie2Ġ tong2Ġ
gu4Ġ yong1Ġ
si3Ġ zhe3Ġ
Ġyin1Ġci3Ġ ta1Ġ
lu2Ġ bi3Ġ
zan4Ġ wu2Ġ
ri v
que1Ġ xi2Ġ
k i
Ġ qi4Ġche1Ġ
di4Ġ chu3Ġ
ren2Ġ wei4Ġ
yi1Ġ zu3Ġ
chu1Ġ xuan3Ġ
zi4Ġ yuan4Ġ
lian2Ġ suo3Ġ
Ġta1Ġ dan1Ġren4Ġ
ke3Ġ chi2Ġxu4Ġ
ye3Ġ jiang1Ġ
Ġbing4Ġ cheng1Ġ
ni2Ġ deĠ
dang3Ġ wei3Ġshu1Ġji4Ġ
zhuang1Ġ cun1Ġ
pai4Ġ dui4Ġ
zhuan3Ġ yun4Ġ
jia3Ġ shuo1Ġ
tie3Ġlu4Ġ deĠ
Ġmei3Ġ tian1Ġ
Ġjin4Ġ zhi3Ġ
Ġtian1Ġ zhu3Ġjiao4Ġ
Ġm ang2Ġ
deĠren2Ġ shi4Ġ
fa1Ġdian4Ġ ji1Ġ
zhou1Ġli4Ġ da4Ġxue2Ġ
Ġ si1Ġte4Ġ
he2Ġ ri4Ġben3Ġ
li4Ġ wu4Ġpu3Ġ
wu4Ġ yu3Ġ
yin1Ġ ziĠ
hua4Ġ yu3Ġ
fen1Ġ hui4Ġ
qian2Ġ zuo4Ġ
du4Ġ jia4Ġ
zhi3Ġ yao4Ġ
dong1Ġ yin4Ġdu4Ġ
ge2Ġ li4Ġ
yi2Ġge4Ġ ren2Ġ
Ġdan4Ġ ye3Ġyou3Ġ
mei2Ġ tan4Ġ
zong3Ġ bing1Ġ
wu2Ġ shi4Ġ
bian4Ġ ti3Ġ
chuan2Ġ bo2Ġ
sheng4Ġ deĠ
ling3Ġ nan2Ġ
Ġgao1Ġ zhong1Ġ
Ġtong2Ġnian2Ġ 8Ġyue4Ġ
pang2Ġ bian1Ġ
deĠqian2Ġ shen1Ġ
deĠ tou2Ġ
yuan2Ġ zai4Ġ
chu1Ġ qu4Ġ
shang4Ġ ye3Ġ
leĠ zhong1Ġguo2Ġ
xia4Ġ yi4Ġyuan4Ġ
ban4Ġ jue2Ġsai4Ġ
ceng2Ġ mian4Ġ
qian1Ġ wan4Ġ
zhang1Ġ jia1Ġ
ying2Ġ deĠ
mi4Ġ xi1Ġxi1Ġbi3Ġ
fang2Ġ di4Ġchan3Ġ
Ġdi4Ġ 2Ġ
pei4Ġ dai4Ġ
gan3Ġ xing4Ġqu4Ġ
Ġceng2Ġ shi4Ġ
de2Ġguo2Ġ deĠ
xue2Ġsheng1Ġ hui4Ġ
gan4Ġ shi4Ġ
Ġguo2Ġ fang2Ġ
Ġbi4Ġ mian3Ġ
Ġtu3Ġ di4Ġ
Ġhu1Ġ yu4Ġ
jiang3Ġxue2Ġ jin1Ġ
1 10
I A
ĠĠĠ shi4Ġjian4Ġ
ĠĠĠ re
qi2Ġ shou3Ġ
dao4Ġ shi4Ġ
dao4Ġ qi2Ġ
xue2Ġ shuo1Ġ
Ġb ack
zhu4Ġ zao4Ġ
Ġbing4Ġ cong2Ġ
tian1Ġ wang2Ġ
hao4Ġ he2Ġ
hao4Ġ ma3Ġ
mei3Ġguo2Ġ guo2Ġjia1Ġ
ka3Ġ te4Ġ
rong2Ġ yu2Ġ
xiu1Ġ yang3Ġ
zhu3Ġyao4Ġ you2Ġ
fa1Ġzhan3Ġ chu1Ġ
Ġ0 0
gan1Ġ han4Ġ
Ġdeng3Ġ deng3Ġ
zong3Ġtong3Ġ xuan3Ġju3Ġ
Ġ6 0Ġ
Ġluo2Ġ ne4Ġ
ol le
Ġwei4Ġyu2Ġgai1Ġguo2Ġ dong1Ġnan2Ġbu4Ġ
qi4Ġhou4Ġ bian4Ġhua4Ġ
wei1Ġer3Ġ shi4Ġ
Ġkong3Ġ tai4Ġ
Ġmou3Ġ xie1Ġ
an4Ġcha2Ġ si1Ġ
en tĠĠĠ
gong1Ġ yan3Ġ
da4Ġ jiang4Ġ
fen1Ġ hang2Ġ
shan1Ġ dong4Ġ
ying1Ġ lian2Ġbang1Ġ
hao4Ġ zai4Ġ
ge1Ġ si1Ġ
nv3Ġ you3Ġ
pai4Ġ ren2Ġ
cheng2Ġyuan2Ġ deĠ
Ġ6 0
Ġ16 8
Ġ3Ġ ĠĠ
Ġya4Ġ li4Ġshan1Ġda4Ġ
zai4Ġ201 4Ġnian2Ġ
chuang1Ġ hu4Ġ
te4Ġshu1Ġ deĠ
ĠĠĠnian2Ġ ĠĠ
tuo4Ġ zhan3Ġ
shuai4Ġling3Ġ deĠ
4 1Ġnian2Ġ
s eĠĠĠ
de rĠ
ĠĠĠ dan1Ġ
zhong1Ġ shi3Ġyong4Ġ
guo2Ġ shi4Ġ
yi1Ġ zhan4Ġ
yu2Ġ zhong1Ġ
gong1Ġ bao4Ġ
sheng1Ġ yi4Ġ
ren4Ġ deĠ
Ġshi4Ġ yin1Ġwei4Ġ
yan2Ġ li4Ġ
wei3Ġ da4ĠdeĠ
Ġzhe4Ġ lei4Ġ
mo4Ġ si1Ġ
6Ġ shi2Ġ
zhao4Ġ ming2Ġ
heng2Ġ kua4Ġ
Ġqian2Ġ zhe3Ġ
Ġchu1Ġ dao4Ġ
que1Ġ dian3Ġ
que1Ġ shao3Ġ
zao4Ġcheng2Ġ leĠ
196 4Ġnian2Ġ
Ġhuo4Ġde2Ġ leĠ
ji3Ġzhui1Ġ dong4Ġwu4Ġ
6 5Ġnian2Ġ
ĠĠĠ 6
ĠĠĠ zhong1Ġhua2Ġmin2Ġguo2Ġ
yu2Ġ ri4Ġben3Ġ
yu2Ġ 9Ġyue4Ġ
li4Ġ fu2Ġ
jian4Ġ ding4Ġ
zheng4Ġ fa3Ġ
dui4Ġ zhan4Ġ
fa1Ġ wen2Ġ
jie1Ġ lu4Ġ
bao4Ġ yu3Ġ
Ġdi4Ġ yi2Ġge4Ġ
sai1Ġ te4Ġ
gai4Ġ yao4Ġ
Ġshi3Ġ ta1Ġ
Ġluo2Ġ bo2Ġ
ling3Ġdao3Ġ xia4Ġ
Ġzhi1Ġhou4Ġ zai4Ġ
zhi1Ġjian1ĠdeĠ guan1Ġxi4Ġ
jin4Ġshi4Ġ chu1Ġshen1Ġ
Ġji3Ġ yu3Ġ
ling3Ġxian2Ġ zhu3Ġyan3Ġ
da2Ġke1Ġ ta1Ġ
A V
Ġ pian1Ġ
deĠ wu2Ġ
ĠĠĠ mai4Ġ
yue4Ġ hou4Ġ
li3Ġ yi2Ġ
chu1Ġ ru4Ġ
zhu3Ġ bo1Ġ
mian4Ġ bao1Ġ
gao1Ġ ya1Ġ
hai3Ġ zhan4Ġ
er4Ġ shi4ĠdeĠ
tai2Ġ ji2Ġ
san1Ġ hao4Ġ
mu3Ġ shi4Ġ
yin3Ġ li4Ġ
Ġdi4Ġ qi1Ġ
deĠyi1Ġ bu4Ġ
re4Ġ qing2Ġ
Ġyi3Ġji2Ġ zai4Ġ
yin1Ġyue4Ġ jia1Ġ
Ġzui4Ġzhong1Ġ zai4Ġ
shu3ĠdeĠ dong4Ġwu4Ġ
ĠJ ohn
ĠĠĠ198 4Ġnian2Ġ
jie4Ġquan2Ġguo2Ġ ren2Ġda4Ġdai4Ġbiao3Ġ
zhu4Ġyi4Ġ deĠshi4Ġ
p sĠ
ri4Ġ gui3Ġ
jun1Ġ you2Ġ
Ġb ang4Ġ
che1Ġ ti3Ġ
zi Ġsi4Ġ
fei1Ġ chuan2Ġ
yan3Ġ hu4Ġ
bao4Ġ ming2Ġ
gui1Ġ huan2Ġ
gai3Ġ she4Ġ
gu4Ġ ju1Ġ
ri4Ġben3Ġ ren2Ġ
sui2Ġ zhe
jing1Ġji4Ġ gong1Ġsi1Ġ
tong1Ġchang2Ġ shi4Ġ
mu4Ġdi4Ġ di4Ġ
Ġbo2Ġwu4Ġ guan3Ġ
4 7Ġnian2Ġ
ĠĠĠ zuo4Ġpin3Ġ
shi4Ġ zuo4Ġ
bu4Ġ zheng4Ġshi3Ġ
yi4Ġ long2Ġ
xian4Ġ dao4Ġ
chu1Ġ zu1Ġ
shang4Ġ yan3Ġ
kai1Ġ tuo4Ġ
xi4Ġ yuan4Ġ
mu4Ġ er3Ġ
tong2Ġ ri4Ġ
deng3Ġ ren2ĠdeĠ
gao1Ġ li2Ġ
ying1Ġ jiu3Ġ
na4Ġ geĠ
jie3Ġ du2Ġ
hong2Ġ wai4Ġ
18 0Ġ
Ġzui4Ġ jin4Ġ
geng4Ġ gao1ĠdeĠ
gan3Ġ xie4Ġ
Ġjie2Ġ he2Ġ
wo4Ġ si1Ġ
196 0Ġnian2Ġ
Ġtui1Ġ dong4Ġ
lan2Ġqiu2Ġ yun4Ġdong4Ġyuan2Ġ
ĠĠĠst yleĠ
gui1Ġlei4Ġ wei4Ġ
ken3Ġta3Ġji1Ġ zhou1Ġ
- .
m ang3Ġ
a1Ġ sai1Ġbai4Ġjiang1Ġ
ĠĠĠ hou4Ġxu4Ġ
ji4Ġ sheng1Ġ
yu3Ġ yuan2Ġ
dao4Ġ fang3Ġ
zheng4Ġ shu1Ġ
sheng1Ġ zhi2Ġ
shang4Ġ ke4Ġ
shang4Ġ mian4Ġ
bei4Ġ hou4Ġ
ju4Ġ ren2Ġ
guan1Ġ qia3Ġ
Ġta1Ġ kai1Ġshi3Ġ
ke1Ġ wei2Ġqi2Ġ
Ġwei4Ġ tai2Ġwan1Ġ
chuan2Ġ chu1Ġ
ceng2Ġ ci4Ġ
mu3Ġ yu3Ġ
wan4Ġ ming2Ġ
zheng4Ġfu3Ġ he2Ġ
hua1Ġ xu4Ġ
Ġfu4Ġ jin4Ġ
guan3Ġli3Ġ wei3Ġyuan2Ġhui4Ġ
duo2Ġ hui2Ġ
Ġchuang4Ġ ban4Ġ
5 1Ġnian2Ġ
5 4Ġnian2Ġ
u per
2Ġ shi2Ġ
an1Ġ deĠ
er2Ġ chu1Ġ
ping2Ġ xuan3Ġ
guan1Ġ shui4Ġ
qi1Ġ ge4Ġ
quan2Ġ wan1Ġ
qian2Ġ qu4Ġ
Ġzai4Ġ ying1Ġguo2Ġ
Ġyue4Ġ tuan2Ġ
shi1Ġ wang4Ġ
wu3Ġ gong1Ġ
Ġri4Ġ zhi4Ġ
ge2Ġ luo2Ġ
ze2Ġ hui4Ġ
san1Ġ xiang4Ġ
si4Ġ yang3Ġ
qi4Ġ shi4Ġ
bi3Ġ 1Ġ
zong3Ġ shu3Ġ
zhe4Ġ liang3Ġge4Ġ
ke3Ġyi3Ġ shi3Ġyong4Ġ
dian4Ġying3Ġ yuan4Ġ
jiang4Ġ luo4Ġ
you1Ġ hua4Ġ
tan2Ġ hua4Ġ
ri tic
jing3Ġcha2Ġ ju2Ġ
ni4Ġ zhuan3Ġ
cheng2Ġdu4Ġ deĠ
pin1Ġ yin1Ġ
E D
ĠĠĠ ke4Ġ
ĠĠĠ zhou1Ġ
ĠĠĠ zhe4Ġzhong3Ġ
yu n1Ġ
wei4Ġ zhu3Ġti2Ġ
yi1Ġ kuai4Ġ
yu3Ġ zai4Ġ
ming2Ġ wen2Ġ
xue2Ġ bu4Ġ
jing1Ġ deĠ
zhu4Ġ you3Ġ
xing4Ġ di4Ġ
chang3Ġ guan3Ġ
tai2Ġ hou4Ġ
qing1Ġ tuan2Ġ
ren2Ġkou3Ġ deĠ
tang2Ġ dai4Ġ
Ġdang1Ġ ta1Ġ
Ġxi1Ġ yin3Ġ
qi2Ġta1Ġ ren2Ġ
Ġqi2Ġzhong1Ġ nan2Ġ
ha1Ġ sa4Ġke4Ġ
zou3Ġ leĠ
Ġdao4Ġ da2Ġ
Ġci4Ġ lie4Ġche1Ġ
Ġhong2Ġ zhi4Ġ
ver si
4 3Ġnian2Ġ
4 8Ġnian2Ġ
e an
e ch
deĠ tu3Ġdi4Ġ
ĠĠĠ suo3Ġyou3Ġ
zhong1Ġ ye4Ġ
di4Ġ 11Ġ
xing2Ġ fa3Ġ
yi2Ġ bu4ĠdeĠ
quan2Ġ nian2Ġ
te4Ġ you3Ġ
huo4Ġ er3Ġ
dao3Ġ su4Ġ
si4Ġ deĠ
mo2Ġ si1Ġ
hui2Ġ xiang3Ġ
qin1Ġ shu3Ġ
2Ġyue4Ġ 1Ġri4Ġ
bai2Ġ e4Ġ
Ġbei4Ġ ren4Ġwei2Ġshi4Ġ
Ġ2 6
Ġshang4Ġ shu1Ġ
pin2Ġ qiong2Ġ
Ġxing2Ġ rong2Ġ
Ġxiang1Ġ fan3Ġ
jian3Ġcha2Ġ guan1Ġ
ao4Ġsi1Ġ man4Ġdi4Ġguo2Ġ
ĠĠĠbu4Ġ guo4Ġ
Ġtong3Ġ yi1Ġ
pu3Ġluo2Ġ wang4Ġsi1Ġ
A TĠ
L i
S te
shi4Ġ deng3Ġ
he2Ġ wen2Ġhua4Ġ
bu4Ġ dong4Ġ
jian1Ġ kong4Ġ
xiang1Ġ jin4Ġ
fen1Ġ dian4Ġ
ke3Ġ wang4Ġ
gao1Ġ er3Ġfu1Ġ
Ġdan4Ġ ta1Ġmen
fei1Ġ er3Ġ
pu3Ġ dun4Ġ
wei1Ġ deĠ
zong1Ġ shi4Ġ
Ġxi1Ġ ri4Ġben3Ġ
di2Ġ jun1Ġ
ying3Ġxiang3Ġ li4ĠdeĠ
Ġma3Ġ ke4Ġ
ju3Ġban4Ġ leĠ
ĠĠĠA l
ji1Ġben3Ġ shang4Ġ
zai4Ġ201 3Ġnian2Ġ
gao1Ġdeng3Ġ fa3Ġyuan4Ġ
4 4Ġnian2Ġ
5 2Ġnian2Ġ
gong1Ġ du2Ġ
shang4Ġ ban4Ġ
zhang3Ġ zhou2Ġ
wai4Ġ xing1Ġ
dan1Ġ ci2Ġ
Ġqi2Ġ jian1Ġ
zhang1Ġ deĠ
mo4Ġ shou1Ġ
zhuan1Ġ lan2Ġ
liu4Ġ shi2Ġ
chang4Ġ yi4Ġ
ri p
wan2Ġcheng2Ġ hou4Ġ
shi4Ġyi1Ġ bu4Ġ
shou3Ġci4Ġ zai4Ġ
Ġxiang1Ġ dui4Ġ
Ġsu1Ġ ge2Ġlan2Ġ
zai4Ġ200 9Ġnian2Ġ
Ġchuang4Ġ li4Ġ
ĠĠĠc olspanĠ
an1Ġde2Ġ lie4Ġ
Ġxi1Ġbei3Ġ jie1Ġ
Ġgai3Ġbian1Ġ zi4Ġ
1Ġ yi4Ġ
deĠ lu4Ġ
deĠ chuan2Ġtong3Ġ
yu3Ġ shang4Ġ
zhi1Ġ fang2Ġ
dao4Ġ guang1Ġ
chu1Ġ shi4Ġ
Ġg ong3Ġ
dai4Ġ hao4Ġ
duo1Ġ yu2Ġ
zong3Ġ jue2Ġsai4Ġ
ge1Ġ wu3Ġ
ji3Ġ wei4Ġ
Ġti ng3Ġ
Ġben3Ġ ci4Ġ
pei2Ġ yu4Ġ
Ġhuang2Ġ di4Ġ
Ġge2Ġ lin2Ġ
tu di
jie2Ġke4Ġ xun4Ġ
tuo3Ġ yuan2Ġxing2Ġ
yi4Ġda4Ġ li4ĠdeĠ
Ġkong3Ġtai4Ġ da4Ġqu1Ġ
1 25
ï ¹
ĠĠĠ yin4Ġdu4Ġ
ĠĠĠ jing1Ġguo4Ġ
yi4Ġ cheng2Ġ
zhi1Ġ shou3Ġ
you2Ġ bao4Ġ
de2Ġ he2Ġ
yu4Ġ ming2Ġ
zhu4Ġ bi4Ġ
ma3Ġ shang4Ġ
jie2Ġ zhi4Ġ
zhi3Ġ nan2Ġ
jie1Ġ shou3Ġ
lin2Ġ ken3Ġ
qi4Ġ you2Ġ
fu3Ġ zhi1Ġfu3Ġ
zhong3Ġ liu2Ġ
gu3Ġ quan2Ġ
ge1Ġ deĠ
hai2Ġ mei2Ġyou3Ġ
lou2Ġ deĠ
Ġju4Ġ qing2Ġ
Ġjian3Ġ shao3Ġ
Ġxiang4Ġ shi4Ġ
Ġdi4Ġer4Ġ ci4Ġshi4Ġjie4Ġda4Ġzhan4Ġ
ying4Ġyong4Ġ cheng2Ġshi4Ġ
ĠĠĠ198 2Ġnian2Ġ
Ġ191 7Ġnian2Ġ
sheng1Ġzhang3Ġ zai4Ġ
Ġfu2Ġlang3Ġ shen2Ġ
Ġback groundĠ
B A
Ġ guang3Ġdong1Ġsheng3Ġ
Ġt uo4Ġ
xi1Ġ shan1Ġ
quan2Ġ shu1Ġ
fu2Ġ lai2Ġ
mi3Ġ te4Ġ
shen1Ġ chu4Ġ
zong3Ġ shu4Ġ
Ġqi2Ġ fu4Ġ
wu2Ġ lun4Ġ
han4Ġ ren2Ġ
Ġshi2Ġ er4Ġ
kuai4Ġ le4Ġ
niu3Ġ xi1Ġlan2Ġ
pao4Ġ ji1Ġ
197 8Ġnian2Ġ
Ġshe4Ġ zhi4Ġ
ge4Ġyue4Ġ deĠ
Ġtu2Ġ jing1Ġ
da4Ġgui1Ġmo2Ġ deĠ
an4Ġcha2Ġ shi3Ġ
p l
deĠ nv3Ġer2Ġ
a1Ġ la1Ġsi1Ġ
ĠĠĠ gui3Ġdao4Ġ
zai4Ġ dang1Ġshi2Ġ
shi2Ġ zhuang1Ġ
zhi4Ġ 8Ġyue4Ġ
zhu3Ġ ren2Ġ
Ġshi4Ġ ba1Ġxi1Ġ
wai4Ġ ji2Ġ
zhong3Ġ jia1Ġci2Ġ
ying3Ġ ji2Ġ
jiao1Ġ hu4Ġ
Ġr e
ce4Ġ suo3Ġ
gai3Ġ cheng2Ġ
ban1Ġ ji1Ġ
Ġxin1Ġ deĠ
tao2Ġ wang3Ġ
jue2Ġding4Ġ jiang1Ġ
hai4Ġ pa4Ġ
Ġjiu4Ġ hui4Ġ
Ġjiu4Ġ du2Ġ
Ġliu2Ġ jing1Ġ
Ġchu2Ġ fei1Ġ
Ġfei1Ġ zhou1Ġ
ju4Ġle4Ġ bu4ĠdeĠ
00Ġmi3Ġ zhi4Ġ
Ġbei3Ġjing1Ġ shi4Ġ
shi2Ġyi1Ġ yue4Ġ
you1Ġxiu4Ġ deĠ
tan4Ġxian3Ġ dui4Ġ
chuang3Ġ ru4Ġ
T S
T wit
Ġ qia4Ġ
yi3Ġ 0Ġ
jia1Ġ shi4Ġ
zhu4Ġ gong1Ġ
zhu4Ġ leĠ
ke3Ġ gong1Ġ
duo1Ġ tian2Ġ
qi3Ġ dan1Ġren4Ġ
hua2Ġ sha1Ġ
xing1Ġ fen4Ġ
fan3Ġ er2Ġ
Ġyi1Ġ ci4Ġ
Ġjin1Ġ rong2Ġ
lao3Ġ wo1Ġ
of ĠĠĠtheĠĠĠ
pang2Ġ da4Ġ
ji1Ġbai4Ġ leĠ
zai4Ġ201 1Ġnian2Ġ
ãģ ®
da2Ġni2Ġ hao4Ġ
Ġ jun4Ġ
deĠ biao1Ġzhun3Ġ
ĠĠĠ xian4Ġshi2Ġ
wei4Ġ guo2Ġ
he2Ġ guo2Ġjia1Ġ
ji1Ġ jin4Ġ
xi1Ġ te4Ġ
xue2Ġ zhong1Ġ
wen2Ġ ping2Ġ
qian2Ġ ren4Ġ
qi3Ġ cao3Ġ
san1Ġ deng3Ġ
liu2Ġ li2Ġ
lan2Ġ ban3Ġ
zhong1Ġguo2Ġ ke1Ġxue2Ġyuan4Ġ
sheng4Ġ xing2Ġ
shang1Ġ hui4Ġ
da4Ġxue2Ġ shi4Ġ
Ġzhong1Ġguo2Ġ ren2Ġmin2Ġ
yu2Ġ199 4Ġnian2Ġ
Ġcai2Ġ neng2Ġ
wen3Ġding4Ġ xing4Ġ
guo2Ġli4Ġ tai2Ġwan1Ġ
bian4Ġcheng2Ġ leĠ
Ġwang3Ġ wang3Ġ
G N
deĠ xiao1Ġxi1Ġ
ĠĠĠ hu2Ġ
ĠĠĠ wan4Ġli4Ġ
wei4Ġ le
ji2Ġ di4Ġ
yu3Ġ li3Ġ
zhi1Ġ ye4Ġ
shi3Ġ mi4Ġsi1Ġ
xin1Ġ shang3Ġ
jian1Ġ ju4Ġ
quan2Ġ mei3Ġ
yan2Ġ zhu4Ġ
mu4Ġ chang3Ġ
jiang1Ġ jin4Ġ
bei3Ġ yang2Ġ
la1Ġ li4Ġ
ke1Ġ mu4Ġ
zhong4Ġ li4Ġ
shen1Ġ shui3Ġ
yun4Ġ zhuan4Ġ
li2Ġ jia1Ġ
fan3Ġ pai4Ġ
ting2Ġ ban4Ġ
xiu1Ġ shan4Ġ
dan4Ġ deĠ
deĠyi1Ġ yuan2Ġ
ar eĠ
ke3Ġneng2Ġ zai4Ġ
ha1Ġ sa4Ġke4Ġsi1Ġtan3Ġ
guan4Ġjun1Ġ lian2Ġsai4Ġ
zang4Ġ li3Ġ
bu4Ġdui4Ġ deĠ
ĠĠĠyi3Ġxia4Ġ wei4Ġ
gui4Ġzhou1Ġ sheng3Ġ
bu3Ġru3Ġ dong4Ġwu4Ġ
a sh
ĠĠĠ song4Ġ
shu4Ġ nian2Ġ
Ġzai4Ġ tai2Ġwan1Ġ
kai1Ġ qiang1Ġ
Ġta1Ġ yin1Ġ
Ġbing4Ġ dan1Ġren4Ġ
liu2Ġ shou3Ġ
jin1Ġ qian2Ġ
bao3Ġ shi4Ġ
su4Ġ qiu2Ġ
ke3Ġyi3Ġ zhui1Ġsu4Ġdao4Ġ
guang1Ġ ming2Ġ
Ġye3Ġ bu4Ġ
bai2Ġ gong1Ġ
bai2Ġ jin1Ġ
liao2Ġ fa3Ġ
10 1Ġ
12Ġ ĠĠ
da1Ġ cheng2Ġ
tou2Ġru4Ġ fu2Ġwu4Ġ
wu3Ġtai2Ġ ju4Ġ
dan4Ġshui3Ġ yu2Ġ
bu4Ġla1Ġ ge2Ġ
hua4Ġfen1Ġ wei4Ġ
Ġhong1Ġ zha4Ġ
Ġa1Ġer3Ġbei1Ġsi1Ġ da4Ġqu1Ġ
5 1
e h
ĠĠĠ t
ĠĠĠ ya4Ġ
wei4Ġ zhu3Ġyao4Ġ
shi2Ġ kong1Ġ
li4Ġ xing2Ġ
da4Ġ fa3Ġguan1Ġ
le Ġzhe4Ġxie1Ġ
yu3Ġ yi1Ġ
zhi1Ġ pei4Ġ
zheng4Ġ zhi2Ġ
you2Ġ ji4Ġ
shang4Ġ ji2Ġ
suo3Ġ er3Ġ
mu4Ġ cai2Ġ
ya4Ġ si1Ġ
che1Ġ huo4Ġ
tai2Ġ shi4Ġ
Ġzhe4Ġ bu4Ġ
in ĠĠĠtheĠĠĠ
ha1Ġ te4Ġ
huo2Ġdong4Ġ zhong1Ġ
zhan4Ġzheng1Ġ bao4Ġfa1Ġ
xue2Ġsheng1Ġ deĠ
nu3Ġ si1Ġ
Ġge1Ġ shou3Ġ
shuai1Ġ jiao1Ġ
shuai1Ġ tui4Ġ
ĠĠĠ195 0Ġnian2Ġ
shou4Ġhuan1Ġying2Ġ deĠ
you3Ġqi1Ġ tu2Ġxing2Ġ
G D
Ġ zao1Ġdao4Ġ
a1Ġ si1Ġ
ĠĠĠ shang1Ġye4Ġ
zai4Ġ lun2Ġdun1Ġ
zhong1Ġ yi1Ġ
li4Ġ na4Ġ
qu1Ġ ji2Ġ
ke4Ġ ji1Ġ
fu4Ġ yuan4Ġzhang3Ġ
nan2Ġ song4Ġ
Ġg ou1Ġ
shou3Ġ lun2Ġ
ben3Ġ ci4Ġ
dan1Ġ ni2Ġ
zheng1Ġ yi4ĠdeĠ
guang3Ġ da4Ġ
pai2Ġ qiu2Ġ
deng1Ġ shan1Ġ
zhu1Ġ ru2Ġ
hen3Ġ hao3Ġ
5Ġyue4Ġ 20Ġri4Ġ
chong1Ġ feng1Ġ
lao3Ġ yuan4Ġ
Ġquan2Ġ tai2Ġ
Ġben3Ġ zuo4Ġ
gen1Ġju4Ġ di4Ġ
Ġ5 8
Ġan1Ġ quan2Ġ
Ġ8 0
Ġwei4Ġyu2Ġgai1Ġguo2Ġ zhong1Ġbu4Ġ
er3Ġhe2Ġ pan4Ġ
Ġdang3Ġ zu3Ġ
qing1Ġxiang4Ġ yu2Ġ
M ar
n eĠĠĠ
Ġ VĠ
wei4Ġ 1
he2Ġ zheng4Ġzhi4Ġ
yi4Ġ ri4Ġ
yuan2Ġ jian4Ġ
ji4Ġ shi2Ġ
jia1Ġ chen2Ġ
zhi1Ġ xin1Ġ
dao4Ġ zhong1Ġ
guan1Ġ xin1Ġ
jie1Ġ zhuang1Ġ
ci4Ġ quan2Ġguo2Ġ
tai4Ġ ji2Ġ
yue1Ġ 2
biao1Ġ qian1Ġ
Ġye3Ġ zai4Ġ
tu3Ġ zhu4Ġ
wan3Ġ hui4Ġ
ĠĠĠdi4Ġ ming2Ġ
Ġ4 5Ġ
Ġ6 Ġsui4Ġ
chi4Ġ dao4Ġ
20Ġ ge4Ġ
Ġna4Ġ xie1Ġ
196 0Ġnian2Ġdai4Ġ
zai4Ġ201 7Ġnian2Ġ
Ġchu3Ġ li3Ġ
wen2Ġyi4Ġ fu4Ġxing1Ġ
tiao1Ġ xuan3Ġ
ĠĠĠ mei2Ġ
yu2Ġ 7Ġyue4Ġ
xian4Ġ zheng4Ġfu3Ġ
zi4Ġ fu2Ġ
duo1Ġ shao3Ġ
mo 1Ġ
ci4Ġ sha1Ġ
si4Ġ zhou1Ġ
bao4Ġ chou2Ġ
pu3Ġ li4Ġ
xian1Ġ xing2Ġ
jian3Ġ tao3Ġ
da3Ġ chu1Ġ
di4Ġer4Ġ da4Ġ
wen1Ġ nuan3Ġ
li2Ġkai1Ġ leĠ
30 00Ġ
Ġha1Ġer3Ġ bin1Ġshi4Ġ
6 4Ġnian2Ġ
c om
Ġ wen4Ġ
ĠĠĠ shi4Ġjie4Ġ
zai4Ġ dong1Ġ
yi4Ġ yi3Ġ
quan2Ġ li4ĠdeĠ
suo3Ġ zhi4Ġ
zhi3Ġ hui4Ġ
bei3Ġ duan1Ġ
lin2Ġ suan1Ġ
bi3Ġ 0Ġ
can1Ġ zhan4Ġ
Ġzhong1Ġ shan1Ġ
10Ġ ren2Ġ
wei3Ġyuan2Ġhui4Ġ zhu3Ġren4Ġ
ta1Ġmen Ġshi4Ġ
pei2Ġ tong2Ġ
min2Ġzhu3Ġ pai4Ġ
Ġla1Ġ ding1Ġ
qi2Ġshi4Ġ tuan2Ġ
gao1Ġji2Ġ zhong1Ġxue2Ġ
peng4Ġ zhuang4Ġ
6 2Ġnian2Ġ
deĠ you3Ġ
he2Ġ san1Ġ
yu2Ġ ming2Ġ
bei4Ġ cheng1Ġzuo4Ġ
er2Ġ shou4Ġdao4Ġ
jian1Ġ zhi2Ġ
Ġta1Ġ ke3Ġyi3Ġ
mu4Ġ rong2Ġ
lin2Ġ ye4Ġ
mei2Ġ tong2Ġpai2Ġ
chuan2Ġ da2Ġ
zheng1Ġ shou1Ġ
du2Ġ pin3Ġ
jie3Ġ gu4Ġ
Ġdang1Ġ xuan3Ġwei4Ġ
guang1Ġ fu4Ġ
Ġyu3Ġ qi2Ġ
ren4Ġwei2Ġ ta1Ġ
gai4Ġ lv4Ġ
kan4Ġ tai2Ġ
Ġjian4Ġ zao4Ġ
Ġren4Ġ ming4Ġ
Ġm Ġ
Ġci4Ġ ri4Ġ
ĠĠĠ198 5Ġnian2Ġ
Ġyong4Ġ hu4Ġ
Ġshi4Ġwei4Ġyu2Ġmei3Ġguo2Ġ mi4Ġsu1Ġli3Ġzhou1Ġ
an1Ġzhuang1Ġ zai4Ġ
ĠÑ Ģ
qie4Ġer3Ġ ni2Ġ
zhi2Ġlu4Ġ hou4Ġ
Ġtai4Ġping2Ġ yang2Ġ
nc ludeĠ
Ġon lyi
Ġonlyi ncludeĠ
4 5Ġnian2Ġ
4 6Ġnian2Ġ
a si
Ġ lei4Ġxing2Ġ
gong1Ġ zheng4Ġ
pi ao2Ġ
hui4Ġ bao4Ġ
qi2Ġ yu3Ġ
xi1Ġ mu3Ġ
sheng1Ġ li3Ġ
jun1Ġ yun2Ġ
zui4Ġ hao3Ġ
mu4Ġ ji1Ġ
jie2Ġ jing1Ġ
shi1Ġ shi4Ġ
xing4Ġ fu2Ġ
xing4Ġ zhi4ĠdeĠ
deng3Ġ wen4Ġti2Ġ
dan1Ġ chun2Ġ
wei1Ġ fen1Ġ
Ġyi1Ġ si1Ġlan2Ġ
guang1Ġ lu4Ġ
cun2Ġ huo2Ġ
bai4Ġ gei3Ġ
xie3Ġ leĠ
Ġdui4Ġ ying4Ġ
rui4Ġ shi4ĠdeĠ
Ġma3Ġ ke4Ġsi1Ġ
hun4Ġ xue4Ġ
huan2Ġjing4Ġ zhong1Ġ
min3Ġ nan2Ġ
kun4Ġ jing4Ġ
ĠĠĠ198 7Ġnian2Ġ
shi1Ġfan4Ġ xue2Ġyuan4Ġ
ma1Ġ ma1Ġ
an1Ġde2Ġ lu3Ġ
ping1Ġpang1Ġ qiu2Ġ
Ġgai1Ġwu4Ġzhong3ĠdeĠmo2Ġshi4Ġchan3Ġ di4Ġzai4Ġ
+ +
e mi
Ġ xing1Ġqi1Ġ
deĠ ma3Ġ
deĠ gai4Ġnian4Ġ
he2Ġ bei4Ġ
jun1Ġ he2Ġ
fa3Ġ li4Ġ
zhu4Ġ min2Ġ
qian2Ġ wei4Ġ
kai1Ġ zhi1Ġ
shan1Ġ ji2Ġ
qu3Ġ jing3Ġ
can1Ġ yin3Ġ
ting2Ġ che1Ġ
zhuan3Ġ xing2Ġ
chong1Ġ dang1Ġ
hu1Ġ lve4Ġ
th er
Ġdao4Ġ lu4Ġ
Ġgen1Ġju4Ġ 2010Ġnian2Ġmei3Ġguo2Ġren2Ġkou3Ġpu3Ġcha2Ġ
Ġbao4Ġ dao3Ġ
ĠĠĠ198 3Ġnian2Ġ
guo4Ġqu4Ġ deĠ
jing4Ġzheng1Ġ dui4Ġshou3Ġ
Ġwei4Ġfu2Ġqi2Ġyu2Ġgang1Ġ lu2Ġxing2Ġmu4Ġ
Ġlu4Ġyi4Ġ si1Ġ
man4Ġha1Ġ dun4Ġ
an1Ġ da2Ġ
ĠĠĠ ai1Ġ
ĠĠĠ sa4Ġ
ao4Ġ di4Ġ
he2Ġ fu2Ġ
bu4Ġ fu2Ġ
li4Ġ dai4Ġ
20 Ġfen1Ġ
zheng4Ġ tong3Ġ
yin1Ġ yuan2Ġ
fa3Ġ xi1Ġsi1Ġ
Ġh u3Ġ
jiao4Ġ zao3Ġ
sai4Ġ hui4Ġ
wu3Ġ da4Ġ
zi Ġwei4Ġ
shu3Ġ shu3Ġ
zhong3Ġ zhong3Ġ
jiao1Ġ lv4Ġ
bo1Ġ de2Ġ
qu3Ġ deĠ
jia4Ġ qi1Ġ
âĢ ¢
di2Ġ er3Ġ
gao4Ġ zhong1Ġ
heng2Ġ bin1Ġ
qiang1Ġ guan3Ġ
ĠĠĠsheng1Ġ tai4Ġ
zhao1Ġ sheng1Ġ
you3Ġyi1Ġ tiao2Ġ
197 5Ġnian2Ġ
Ġhan2Ġ gai4Ġ
Ġwei4Ġyu2Ġgai1Ġguo2Ġ nan2Ġbu4Ġ
ce4Ġshi4Ġ yue4Ġtai2Ġ
Ġdong4Ġ wu4Ġ
Ġshang4Ġhai3Ġ shi4Ġ
ex tĠ
she4Ġjiao1Ġ mei2Ġti3Ġ
T VĠ
r eĠĠĠ
ĠĠĠ yin1Ġci3Ġ
shi4Ġ yuan2Ġ
ren2Ġ xuan3Ġ
yu3Ġ ji2Ġ
li3Ġ ni2Ġ
hui4Ġ ji2Ġ
zhi1Ġ cheng2Ġ
zhi1Ġ sheng1Ġ
dao4Ġ jiao4Ġ
luo2Ġ wan1Ġ
gou4Ġ cheng2ĠdeĠ
jie3Ġ pou1Ġ
su1Ġ jun1Ġ
9Ġ ming2Ġ
heng2Ġ liang2Ġ
gui3Ġ ji4Ġ
Ġxiang1Ġ jiao4Ġyu2Ġ
194 4Ġnian2Ġ
chao2Ġxian1Ġ ban4Ġdao3Ġ
Ġ2011Ġnian2Ġ 12Ġyue4Ġ31Ġri4Ġ
Ġnv3Ġxing4Ġ wei4Ġ
DV DĠ
tai2Ġfeng1Ġjing3Ġbao4Ġ zhong1Ġxin1Ġ
C o
o kĠ
u ri
he2Ġ you2Ġ
shi2Ġ xi2Ġ
hui4Ġ zhan4Ġ
fang1Ġ suo3Ġ
nan2Ġ zhan4Ġ
jin4Ġ wei4Ġ
zui4Ġ zhang3Ġ
ye3Ġ wei4Ġ
jiang1Ġ you2Ġ
chang2Ġ qi2Ġ
jie4Ġ yan2Ġ
lin2Ġ jin4ĠdeĠ
ti2Ġ shi4Ġ
wei3Ġ ren4Ġwei4Ġ
bo1Ġ deĠ
ying4Ġ fu4Ġ
chu4Ġ zai4Ġ
zhuan1Ġ xian4Ġ
guang1Ġ hua2Ġ
di4Ġer4Ġ ming2Ġ
pi1Ġ quan2Ġguo2Ġzhong4Ġdian3Ġwen2Ġwu4Ġbao3Ġhu4Ġdan1Ġwei4Ġ
Ġru2Ġ tong2Ġ
bei1Ġ deĠ
ning2Ġ xia4Ġ
ĠP ro
jun1Ġdui4Ġ deĠ
a1Ġer3Ġ ji2Ġli4Ġya4Ġ
Ġlin2Ġ shi2Ġ
194 1Ġnian2Ġ
yu2Ġ199 6Ġnian2Ġ
Ġfen1Ġbu4Ġyu2Ġ nan2Ġmei3Ġzhou1Ġ
ĠĠĠli4Ġ ru2Ġ
da4Ġxuan3Ġ zhong1Ġ
Ġduo2Ġ deĠ
zheng4Ġquan4Ġ jiao1Ġyi4Ġsuo3Ġ
guo2Ġan1Ġ fa3Ġ
bao1Ġkuo4Ġyi3Ġxia4Ġ wu4Ġzhong3Ġ
mo2Ġtuo1Ġ che1Ġ
n ter
u tĠĠĠ
Ġ po
ĠĠĠ rong2Ġyu4Ġ
zai4Ġ wu1Ġke4Ġlan2Ġ
shi2Ġ ceng2Ġ
di4Ġ he2Ġ
yi1Ġ tao4Ġ
ji2Ġ la1Ġ
de2Ġ jiang3Ġ
zhan4Ġ ji1Ġ
mo 3Ġ
chang2Ġ nian2Ġ
ke1Ġ duo1Ġer3Ġsheng3Ġ
si4Ġ qiang2Ġ
liang3Ġ sou1Ġ
Ġer2Ġ bei4Ġ
zhe4Ġ duan4Ġ
men t
bo1Ġ duo2Ġ
bo2Ġ en1Ġ
li2Ġ zhi2Ġ
10Ġ shi2Ġ
zi4Ġji3Ġ shi4Ġ
bu3Ġ huo4Ġ
pi2Ġ lin2Ġ
zu2Ġqiu2Ġ jin3Ġbiao1Ġsai4Ġ
ruo4Ġ deĠ
Ġtong2Ġnian2Ġ 7Ġyue4Ġ
Ġzhu4Ġ ming2Ġ
Ġdian4Ġ nao3Ġ
zai4Ġ200 7Ġnian2Ġ
Ġxin1Ġzeng1Ġ jing4Ġwai4Ġshu1Ġru4Ġ
7 0Ġnian2Ġdai4Ġ
E P
y l
an aĠ
e4Ġ mo2Ġ
en sisĠ
ch en1Ġ
er3Ġ deng1Ġ
er2Ġ qie3Ġ
suo3Ġ zuo4ĠdeĠ
dian4Ġ he4Ġ
kai1Ġ wang3Ġ
jiao4Ġ cai2Ġ
ci4Ġ lie4Ġche1Ġ
jue2Ġ da4Ġduo1Ġshu4Ġ
lin2Ġ qu1Ġ
Ġdan4Ġ bai2Ġ
ge1Ġ la1Ġ
bie2Ġ ren2Ġ
10Ġ mi3Ġ
yin1Ġyue4Ġ jie2Ġ
chun1Ġ jie2Ġ
si onĠ
Ġ1Ġ ge4Ġ
Ġfei1Ġ xing2Ġ
san1Ġshi2Ġ si4Ġnian2Ġ
guan1Ġcha2Ġ dao4Ġ
pei4Ġyin1Ġ yuan2Ġ
tuo3Ġ xie2Ġ
tao2Ġtai4Ġ sai4Ġ
niao4Ġ bing4Ġ
NB A
R O
Ġ ju1Ġmin2Ġ
ĠĠĠ ren2Ġwu4Ġ
guo2Ġ hou4Ġ
yi1Ġ pi1Ġ
ji1Ġ ya4Ġ
wei2Ġ te4Ġ
er2Ġ lai2ĠdeĠ
yin1Ġ bing4Ġ
dai4Ġ jia4Ġ
jin4Ġ shi2Ġ
yu4Ġ shang4Ġ
zhi3Ġ xiang4Ġ
deng3Ġ fang1Ġmian4Ġ
wu3Ġ ren2Ġ
lan2Ġ deĠ
qi4Ġ yue1Ġ
ci3Ġ ju3Ġ
liang3Ġ di4Ġ
liang3Ġ qi1Ġ
tian1Ġ di4Ġ
Ġer2Ġ bu4Ġ
tou2Ġ su4Ġ
rong2Ġ deĠ
zhuang1Ġ wei4Ġlin2Ġ
ting2Ġ bo2Ġ
xin4Ġ xin1Ġ
ta3Ġ ke4Ġ
Ġzheng4Ġ ming2Ġ
Ġju4Ġ jue2Ġ
chu1Ġxian4Ġ yu2Ġ
ĠC ar
Ġfu2Ġ zhou1Ġ
fa1Ġbiao3Ġ sheng1Ġming2Ġ
xiang1Ġdui4Ġ lun4Ġ
jing1Ġshen2Ġ bing4Ġ
Ġgai4Ġ nian4Ġ
la1Ġji1Ġ mi3Ġer3Ġ
Ġtao3Ġ lun4Ġ
ai4Ġ lun2Ġ
ĠĠĠ wai4Ġ
zhong1Ġ nan2Ġbu4Ġ
guo2Ġ tie3Ġ
yu2Ġ 8Ġyue4Ġ
19 20Ġnian2Ġ
zhi1Ġ xing1Ġ
dui4Ġ ta1ĠdeĠ
hua4Ġ gong1Ġ
fa3Ġ zhi4Ġ
qiu2Ġ yi1Ġ
shi1Ġ sheng1Ġ
nei4Ġ wu4Ġ
ru4Ġ du2Ġ
ba1Ġ qiang2Ġ
liang3Ġ du4Ġ
chan3Ġ jie1Ġji2Ġ
nv3Ġ zuo4Ġ
wei1Ġ si1Ġ
shuo1Ġ ta1Ġ
ci2Ġ yu3Ġ
jie3Ġ xi1Ġ
guang1Ġ nian2Ġ
chuang4Ġ xia4Ġ
Ġhou4Ġ zai4Ġ
chao1Ġ shi4Ġ
12Ġ ren2Ġ
Ġben3Ġ yu2Ġ
Ġdai4Ġ you3Ġ
20Ġ wan4Ġ
et er
as s
zhi1Ġming2Ġ du4Ġ
zong3Ġbu4Ġ wei4Ġyu2Ġ
chou3Ġ wen2Ġ
B L
a lu
Ġ mao4Ġ
Ġ xuan1Ġchuan2Ġ
ĠĠĠ ji4Ġ
mi u4Ġ
yi1Ġ bian1Ġ
yu2Ġ ke1ĠdeĠqi2Ġzhong1Ġyi1Ġzhong3Ġ
gong1Ġ xia4Ġ
ji2Ġ du4Ġ
ai1Ġ xi1Ġya4Ġ
xian4Ġ yi3Ġ
bei4Ġ yong4Ġyu2Ġ
ke4Ġ chang3Ġ
Ġc omĠ
pu3Ġ lei2Ġ
gui1Ġ shu3Ġ
Ġdi4Ġ chu3Ġ
gu4Ġ xiang1Ġ
Ġshi2Ġ xing2Ġ
Ġzhi4Ġ suo3Ġzai4Ġ
zhong1Ġyang1Ġ wei3Ġyuan2Ġ
na2Ġ dao4Ġ
zhong4Ġyao4Ġ xing4Ġ
qu1Ġyu4Ġ deĠ
ge1Ġqu3Ġ deĠ
Ġhong2Ġ se4Ġ
Ġjin3Ġguan3Ġ ru2Ġci3Ġ
wan4Ġren2Ġ ci4Ġ
pin1Ġ xie3Ġ
guo2Ġgong4Ġ nei4Ġzhan4Ġ
Ġ fang3Ġ
Ġ she3Ġ
Ġ ke3Ġneng2Ġhui4Ġ
zhong1Ġ quan2Ġ
li4Ġ wai4Ġ
zhi4Ġ guan1Ġ
zhi1Ġ bian4Ġ
shou3Ġ zhi1Ġ
mu4Ġ qi2Ġ
dan1Ġ ren2Ġ
ba1Ġ te4Ġ
ba1Ġ bi3Ġ
jiu4Ġ kai1Ġshi3Ġ
sheng4Ġ bi3Ġde2Ġ
xu4Ġ mu4Ġ
ka3Ġ che1Ġ
Ġji2Ġ er3Ġ
deĠyi1Ġ fen4Ġ
du1Ġ tong3Ġ
bu4Ġtong2Ġ yu2Ġ
zhi1Ġchi2Ġ xia4Ġ
ding3Ġ ji2Ġ
zhang4Ġ hao4Ġ
Ġyan2Ġ zhong4Ġ
ĠÃ ¼
Ġbing4Ġyu2Ġ tong2Ġnian2Ġ
Ġjian4Ġzhu4Ġ mian4Ġji1Ġ
m eĠĠĠ
v en
â ħ
Ġ miao2Ġ
Ġ qi3Ġye4Ġ
ĠĠĠ Z
ĠĠĠ zhu3Ġ
ĠĠĠ jia3Ġ
shi2Ġ yu3Ġ
shi2Ġ ming2Ġ
ou1Ġ yuan2ĠdeĠ
xing2Ġ ben3Ġ
xi1Ġ men2Ġ
ren4Ġ ding4Ġwei4Ġ
nan2Ġ deĠ
yu4Ġ you3Ġ
jian1Ġ gu4Ġ
jiao4Ġ pai4Ġ
shi1Ġ ziĠ
xing4Ġ xing2Ġwei4Ġ
biao3Ġ jue2Ġ
ni2Ġ di2Ġ
gui1Ġ ru4Ġ
ju3Ġ zhong4Ġ
lun2Ġ te4Ġ
ju2Ġ ji2Ġtuan2Ġ
chu3Ġ bei4Ġ
ri4Ġben3Ġ di4Ġguo2Ġ
li4Ġshi3Ġ deĠ
di4Ġyi1Ġ zuo4Ġ
sai1Ġ pu3Ġ
wei3Ġyuan2Ġhui4Ġ fu4Ġzhu3Ġren4Ġ
shi4Ġjian4Ġ zhong1Ġ
el li
jie2Ġgou4Ġ deĠ
Ġãģ Ħ
ĠĠĠ198 6Ġnian2Ġ
jing4Ġji4Ġ chang3Ġ
ĠĠĠben3Ġshu3Ġ bao1Ġkuo4Ġyi3Ġxia4Ġwu4Ġzhong3Ġ
jiao4Ġke1Ġwen2Ġ zu3Ġzhi1Ġ
T M
ĠĠĠ du4Ġ
wei4Ġ yi2Ġge4Ġ
zai4Ġ jin1Ġ
yu3Ġ she4Ġhui4Ġ
hui4Ġ jian4Ġ
zhou1Ġ zhi4Ġ
quan2Ġ xin1ĠdeĠ
deng3Ġ tong2Ġ
shan1Ġ cheng2Ġ
ze2Ġ shi4Ġzai4Ġ
wei1Ġ fu1Ġte4Ġ
dang3Ġ xiao4Ġ
cong2Ġ ci3Ġ
ji3Ġ tian1Ġ
ren2Ġmin2Ġ dang3Ġ
tuo1Ġ ke4Ġ
geng4Ġ hao3ĠdeĠ
nuo4Ġ wei2Ġqi2Ġ
10Ġyue4Ġ 10Ġri4Ġ
hao2Ġ sen1Ġ
Ġ9 0
194 8Ġnian2Ġ
fen1Ġlei4Ġ fa3Ġ
Ġmin2Ġ jin4Ġdang3Ġ
er4Ġyang3Ġhua4Ġ tan4Ġ
R E
Ġ shen4Ġ
ĠĠĠ 5Ġ
zhong1Ġ lu4Ġ
bu4Ġ gan3Ġ
bu4Ġ zhou4Ġ
hou4Ġ mian4Ġ
ju4Ġ hua4Ġ
ju4Ġ he2Ġwu4Ġ
fang1Ġ ji4Ġ
kai1Ġ guo2Ġ
lian2Ġ hua1Ġ
jiang1Ġ ci3Ġ
ge2Ġ na4Ġ
san1Ġ chong2Ġ
bi3Ġ li4Ġya4Ġ
zong3Ġ dui4Ġ
ling2Ġ shi2Ġ
que4Ġ shi4Ġ
han4Ġ wei4Ġ
di2Ġ dui4Ġ
zheng4Ġzhi4Ġ wei3Ġyuan2Ġ
di4Ġer4Ġ ji4Ġ
yang1Ġ shi4Ġ
Ġzhong1Ġguo2Ġ guo2Ġmin2Ġdang3Ġ
Ġcheng2Ġ ke4Ġ
wen1Ġ he2Ġ
zu2Ġqiu2Ġ jia3Ġji2Ġlian2Ġsai4Ġ
Ġtian1Ġ qi3Ġ
at aĠ
Ġying1Ġ xiong2Ġ
zhe2Ġ die2Ġ
Ġlin2Ġ jin4Ġ
Ġjiao4Ġ tang2Ġ
suo1Ġ xiao3Ġ
Ġ4Ġ ĠĠ
si1Ġke4Ġ zhou1Ġ
ĠISTAT Ġdai4Ġma3Ġwei4Ġ0
A d
Ġ de
a1Ġ ken3Ġse4Ġ
ĠĠĠ cheng2Ġli4Ġ
ĠĠĠ tong2Ġshi2Ġ
bu4Ġ gou4Ġ
bu4Ġ liao3Ġ
xin1Ġ yi1Ġ
she4Ġ xian4Ġ
shu4Ġ ji2Ġshi4Ġ
zhu4Ġ hua2Ġ
xiang1Ġ yu4Ġ
lian2Ġ hui4Ġ
bei3Ġ ke4Ġ
shen1Ġ hou4Ġ
bi3Ġ ji4Ġ
zong3Ġ jiao4Ġlian4Ġ
tai4Ġ shan1Ġ
wu2Ġ li4Ġ
lei4Ġ dong4Ġwu4Ġ
zhang1Ġ cheng2Ġ
zhuan3Ġ yi2Ġzhi4Ġ
geng4Ġ you3Ġ
ta3Ġ la1Ġ
tian2Ġ shi4Ġ
deĠshi4Ġ bing1Ġ
ji4Ġhua4Ġ zai4Ġ
jing1Ġji4Ġ fa1Ġzhan3Ġ
Ġsan1Ġ jia3Ġ
sun1Ġ ziĠ
chi2Ġxu4Ġ dao4Ġ
zai4Ġ201 8Ġnian2Ġ
xiao3Ġzu3Ġ sai4Ġ
ma3Ġla1Ġ song1Ġ
Ġshi2Ġzi4Ġ lv4Ġ
Net fli
t onĠ
deĠ nv3Ġxing4Ġ
ãĢ ķ
ao4Ġ bu4Ġ
yong4Ġ fa3Ġ
zhou1Ġ wei4Ġ
shu an1Ġ
Ġs a1Ġ
dao3Ġ shu4Ġ
gong4Ġ yong4Ġ
lv4Ġ di4Ġ
dang3Ġ kui2Ġ
Ġgai1Ġ di4Ġqu1Ġ
du2Ġ cai2Ġ
gu4Ġ shi4ĠdeĠ
pei4Ġ er3Ġ
qi2Ġta1Ġ di4Ġqu1Ġ
zi4Ġji3Ġ zai4Ġ
yin1Ġyue4Ġ ju4Ġ
aĠĠĠ B
Ġdai4Ġ wei2Ġsi1Ġ
ya4Ġzhou1Ġ yun4Ġdong4Ġhui4Ġ
yu2Ġ199 2Ġnian2Ġ
Ġyu2Ġ201 5Ġnian2Ġ
Window sĠ
Ġqi2Ġzhong1Ġnan2Ġxing4Ġ wei4Ġ
g n
ĠĠ C
deĠ cun1Ġluo4Ġ
shi4Ġ zu2Ġ
he2Ġ gong1Ġ
bu4Ġ yi4Ġ
bu4Ġ cuo4Ġ
cheng2Ġ fa2Ġ
xing2Ġ he2Ġ
xi1Ġ meng2Ġ
you2Ġ le4Ġ
shang4Ġ jia1Ġ
shang4Ġ yu3Ġ
yong4Ġ pin3Ġ
jing1Ġ cheng2Ġ
wen2Ġ ge2Ġ
Ġbing4Ġ tong1Ġguo4Ġ
sheng3Ġ zheng4Ġfu3Ġ
liang3Ġ chang3Ġ
xing1Ġ xing1Ġ
gai3Ġ ren4Ġ
shao3Ġ qing1Ġ
ya1Ġ po4Ġ
5Ġyue4Ġ 15Ġri4Ġ
16 0
ĠĠĠM ar
Ġhuang2Ġ jin1Ġ
ĠĠĠA n
wen2Ġxue2Ġ jiang3Ġ
ping2Ġjun1Ġ jiang4Ġyu3Ġliang4Ġ
xiang1Ġshi4Ġ ju3Ġren2Ġ
shen2Ġsheng4Ġ luo2Ġma3Ġdi4Ġguo2Ġ
a1Ġmu3Ġ si1Ġte4Ġ
7 3
A pp
u g
deĠ xing2Ġdong4Ġ
ĠĠĠ dai4Ġ
ãĢ Ķ
he2Ġ dui4Ġ
yuan2Ġ yi4Ġ
si1Ġ duo2Ġ
jing1Ġ wei4Ġ
suo3Ġ wa3Ġ
Ġzai4Ġ xiang1Ġgang3Ġ
ze2Ġ xi1Ġzhou1Ġ
ke1Ġ luo2Ġla1Ġduo1Ġ
san1Ġ qian1Ġ
xiao3Ġ ti2Ġqin2Ġ
Ġ1 00
qing1Ġ zhi4Ġ
bo1Ġ dong4Ġ
deĠyi1Ġ liao2Ġ
18 Ġsui4Ġ
Ġxi1Ġ an1Ġ
tu3Ġ mu4Ġ
di3Ġ yu4Ġ
chu2Ġ wai4Ġ
shuang1Ġ bian1Ġ
Ġsu an4Ġ
Ġbi3Ġ li4Ġshi2Ġ
Ġke4Ġ la1Ġ
ji1Ġchang3Ġ deĠ
13Ġ ge4Ġ
16Ġ ge4Ġ
si1Ġta3Ġ fu1Ġ
di4Ġmian4Ġ che1Ġzhan4Ġ
2001Ġnian2Ġ zong3Ġren2Ġkou3Ġ
Ġà ¤
2019Ġguan1Ġzhuang4Ġbing4Ġdu2Ġbing4Ġ yi4Ġqing2Ġ
ĠĠĠgai1Ġdi4Ġ 2001Ġnian2Ġzong3Ġren2Ġkou3Ġ
ĠĠĠ nei4Ġrong2Ġ
ĠĠĠ xing2Ġtai4Ġ
shi4Ġ wu2Ġ
zai4Ġ ye3Ġ
zai4Ġ zhong1Ġguo2Ġda4Ġlu4Ġ
bu4Ġ zhi1Ġdao4Ġ
li4Ġ jing1Ġ
cheng2Ġ qing1Ġ
le Ġdang1Ġshi2Ġ
ou1Ġ mei3Ġ
hui4Ġ chu1Ġxian4Ġ
zhi1Ġ sun1Ġ
shi3Ġ yi3Ġlai2Ġ
yin1Ġ si1Ġtan3Ġ
xia4Ġ shu3ĠdeĠ
ta1Ġ yi3Ġ
zhu4Ġ shi4Ġ
Ġc om
shi1Ġ fu4Ġ
Ġ19 Ġshi4Ġji4Ġ
san1Ġ tiao2Ġ
shen2Ġ ming2Ġ
zhuan3Ġ er2Ġ
bai3Ġ qiang2Ġ
hua1Ġ lian2Ġ
4Ġyue4Ġ 30Ġri4Ġ
xue2Ġyuan4Ġ yuan4Ġzhang3Ġ
deĠdi4Ġ dian3Ġ
jie2Ġmu4Ġ zhong1Ġ
Ġsi1Ġ tan3Ġ
deĠda4Ġ xiao3Ġ
195 0Ġnian2Ġ
Ġbian1Ġ ju4Ġ
Ġkao3Ġ lv4Ġ
di4Ġer4Ġci4Ġshi4Ġjie4Ġda4Ġzhan4Ġ qi1Ġjian1Ġ
Ġye3Ġjiu4Ġshi4Ġ shuo1Ġ
tun1Ġ bing4Ġ
laĠ gui1Ġ
hen2Ġ ji4Ġ
Ġ6Ġsui4Ġ ren2Ġkou3Ġ
N G
a iĠ
ĠĠĠ lei1Ġ
shi2Ġ jiu3Ġnian2Ġ
ji2Ġ yi3Ġshang4Ġ
da4Ġ di4Ġzhen4Ġ
ri4Ġ jian4Ġ
sheng1Ġ yuan2Ġ
yi2Ġ dan4Ġ
xiang4Ġ gong1Ġzhong4Ġ
quan2Ġ cheng2Ġ
shi1Ġ wu4Ġ
nei4Ġ he2Ġ
hai3Ġ mo4Ġ
Ġbing4Ġ yao1Ġqiu2Ġ
san1Ġ xing1Ġ
shu1Ġ guan3Ġ
shu1Ġ san4Ġ
fei1Ġ ya4Ġ
you4Ġ you3Ġ
you4Ġ ce4Ġ
Ġyin1Ġ ying4Ġ
Ġgai1Ġ jian4Ġzhu4Ġ
kai1Ġshi3Ġ jin4Ġxing2Ġ
yan2Ġjiu1Ġ shi4Ġ
Ġxi1Ġ er3Ġ
fa1Ġxian4Ġ yu2Ġ
you1Ġ mo4Ġ
lao3Ġ hui4Ġ
pian1Ġ wen2Ġzhang1Ġ
qing4Ġ dian3Ġ
gui4Ġ fei1Ġ
Ġm ian2Ġ
pa4Ġ te4Ġ
er4Ġshi2Ġ er4Ġnian2Ġ
teng2Ġ tong4Ġ
sao1Ġ luan4Ġ
T h
Ġ fo2Ġ
deĠ shi3Ġyong4Ġ
ĠĠĠ lu4Ġ
ĠĠĠ 12
zhong1Ġ deĠyi2Ġge4Ġ
di4Ġ 12Ġ
yi1Ġ ceng2Ġ
ji2Ġ gao1Ġ
ri4Ġ wen2Ġ
er2Ġ you3Ġ
suo3Ġ shi3Ġyong4ĠdeĠ
tai2Ġ da4Ġ
tai2Ġ yu3Ġ
Ġqi2Ġ ci4Ġ
gu3Ġ ji2Ġ
ban4Ġ zhang3Ġzhou2Ġ
zheng4Ġfu3Ġ jun1Ġ
man4Ġ deĠ
hu2Ġ tong4Ġ
wa3Ġ na4Ġ
bin1Ġ wei1Ġ
kao3Ġ zheng4Ġ
you1Ġ jiu3Ġ
Ġsu n3Ġ
at t
Ġchu2Ġ le
sou1Ġ xun2Ġ
Ġzu3Ġ ji2Ġ
zhan4Ġling3Ġ leĠ
bao3Ġliu2Ġ leĠ
chai2Ġ you2Ġji1Ġ
can1Ġmou2Ġ bu4Ġ
Ġyue1Ġhan4Ġ xun4Ġ
wei4Ġ 2Ġ
zai4Ġ you3Ġ
ren2Ġ yi4Ġ
yi1Ġ ci2Ġ
yi3Ġ zhi4Ġ
qi2Ġ dao3Ġ
ming2Ġ sheng1Ġ
shi1Ġ ye4Ġ
Ġ1 27
mi3Ġ la1Ġ
bi3Ġ xi1Ġ
liang3Ġ jia1Ġ
shui3Ġ yuan2Ġ
luo4Ġ lin2Ġ
ying4Ġ jian4Ġ
bie2Ġ ming2Ġ
shou1Ġ suo1Ġ
liu4Ġ jia3Ġ
9Ġyue4Ġ 30Ġri4Ġ
al k
tie3Ġlu4Ġ xian4Ġ
Ġbi3Ġ jiao4Ġ
197 4Ġnian2Ġ
su2Ġ cheng1Ġ
av idĠĠĠ
Ġwei4Ġyu2Ġfa3Ġguo2Ġ da4Ġdong1Ġbu4Ġda4Ġqu1Ġ
Ġkao4Ġ jin4Ġ
E x
i li
m ar
m mĠ
deĠ yu4Ġ
ĠĠĠ gong1Ġ
ĠĠĠ yan2Ġ
he2Ġ yi4Ġ
ren2Ġ xin1Ġ
jia1Ġ da4Ġ
shi3Ġ ji4Ġ
jun1Ġ shu3Ġ
lai2Ġ er3Ġ
Ġta1Ġ wei4Ġ
ye3Ġ ke3Ġneng2Ġ
deng3Ġ zhi2Ġwu4Ġ
bei3Ġ ka3Ġluo2Ġlai2Ġna4Ġzhou1Ġ
shu3Ġ xia4ĠdeĠyi2Ġge4Ġ
qing1Ġ chu2Ġ
fei1Ġ si1Ġ
mo2Ġ ca1Ġ
Ġgai1Ġ jian4Ġ
chuang4Ġ li4ĠdeĠ
Ġye3Ġ cheng1Ġwei2Ġ
tui1Ġ ju3Ġ
9Ġyue4Ġ 28Ġri4Ġ
Ġfu2Ġ li3Ġ
Ġ3 5Ġ
zai4Ġ19 0
Ġmian4Ġji1Ġ 1
198 1Ġnian2Ġ
zu1Ġ lin4Ġ
ĠĠĠ194 8Ġnian2Ġ
Ġ14 8
ĠĠĠ197 9Ġnian2Ġ
pu4Ġ bu4Ġ
yin4Ġdi4Ġ an1Ġren2Ġ
xin1Ġjiang1Ġ wei2Ġwu2Ġer3Ġzi4Ġzhi4Ġqu1Ġ
Ġluo2Ġma3Ġ ni2Ġya4Ġ
ye3Ġsheng1Ġ dong4Ġwu4Ġ
Ġshi2Ġyi1Ġ yue4Ġ
6 2
6 1Ġnian2Ġ
Ġ biao3Ġmian4Ġ
ĠĠĠ qi1Ġ
ĠĠĠ xiao3Ġxing2Ġxing1Ġ
zhong1Ġ yi4Ġ
da4Ġ jiao4Ġtang2Ġ
wei2Ġ na4Ġ
hui4Ġ shi3Ġyong4Ġ
xi1Ġ hu2Ġ
zheng4Ġ zhou1Ġ
you2Ġ wan2Ġ
de2Ġ zai4Ġ
ta1Ġ he2Ġ
ya4Ġ tai4Ġ
ke1Ġ zhang3Ġ
tai2Ġ dong1Ġ
feng1Ġ li4Ġ
hua2Ġ na4Ġ
yue1Ġ 3
tong3Ġ zhi4ĠdeĠ
yang2Ġ ren2Ġ
chuan2Ġ deĠ
men2Ġ piao4Ġ
dou1Ġ yao4Ġ
ying2Ġ zao4Ġ
xie2Ġ e4Ġ
Ġyi1Ġ zuo4Ġ
Ġyi1Ġ yang4Ġ
yan2Ġjiu1Ġ ren2Ġyuan2Ġ
Ġda4Ġ duo1Ġ
tuo1Ġ luo4Ġ
fa3Ġguo2Ġ deĠ
si3Ġ leĠ
ha1Ġ gen1Ġ
zuo3Ġ ce4Ġ
Ġ2 7
deĠdi4Ġ si4Ġ
Ġjing1Ġ shen2Ġ
hao2Ġ hua2Ġ
Ġguo2Ġ hui4Ġ
cao1Ġ kong4Ġ
200Ġ wan4Ġ
la1Ġding1Ġ yu3Ġ
bo2Ġlan3Ġ hui4Ġ
e yĠĠĠ
o lu
Ġ wang3Ġluo4Ġ
Ġ she2Ġ
Ġ fo2Ġjiao4Ġ
di4Ġ biao3Ġ
ji2Ġ xiang1Ġgang3Ġ
yue4Ġ kan1Ġ
xian4Ġ nei4Ġ
ke4Ġ lao2Ġ
ju4Ġ li4Ġ
hua4Ġ zuo4Ġ
zhu3Ġ ji1Ġ
Ġb ang3Ġ
shou3Ġ ce4Ġ
huo4Ġ che1Ġ
gao1Ġ qing1Ġ
Ġbing4Ġ ren4Ġwei2Ġ
xuan3Ġ xiang4Ġ
bian4Ġ yi4Ġ
5Ġ gong1Ġfen1Ġ
nv3Ġ sheng1Ġ
bo2Ġ si1Ġ
shuo1Ġ hua4Ġ
Ġyi1Ġ tong2Ġ
guang1Ġ die2Ġ
gu4Ġ yuan2Ġ
pi1Ġ lu4Ġ
Ġdong1Ġ ji4Ġ
Ġceng2Ġ wei4Ġ
Ġzuo4Ġ jia1Ġ
xue1Ġ jian3Ġ
li4Ġhe2Ġ wu2Ġzheng4Ġzhuang4Ġgan3Ġran3Ġzhe3Ġ
ke4Ġla1Ġ he2Ġma3Ġ
nei4Ġzheng4Ġ bu4Ġ
can2Ġji2Ġren2Ġ ao4Ġlin2Ġpi3Ġke4Ġyun4Ġdong4Ġhui4Ġ
5 Ġhao2Ġmi3Ġ
6 0Ġnian2Ġdai4Ġ
Ġ li4Ġshi3Ġshang4Ġ
ĠĠĠ kai1Ġfa1Ġ
zhong1Ġ he2Ġ
ji2Ġ shu4Ġ
yu3Ġ lian2Ġ
qi2Ġ huan4Ġ
jing1Ġ du4Ġ
shi1Ġ he2Ġ
chang2Ġ yong4ĠdeĠ
shu1Ġ mi4Ġ
fu3Ġ yang3Ġ
qing1Ġ jun1Ġ
liang3Ġ ji2Ġ
zhe4Ġ wei4Ġ
yang2Ġ ji1Ġ
gong1Ġsi1Ġ he2Ġ
man4Ġ wei1Ġ
tu3Ġ si1Ġ
Ġyuan2Ġ xian1Ġ
Ġfu2Ġ lan2Ġ
Ġmei3Ġguo2Ġ guo2Ġjia1Ġ
fou3Ġ ding4Ġ
13 0
yi4Ġban1Ġ deĠ
Ġfa3Ġ yu3Ġ
she4Ġhui4Ġzhu3Ġyi4Ġ gong4Ġhe2Ġguo2Ġ
ya4Ġli4Ġ sang1Ġna4Ġ
3 0Ġnian2Ġdai4Ġ
Ġ wen2Ġxue2Ġ
Ġ yao1Ġqing3Ġ
jia1Ġ yuan2Ġ
fen1Ġ ge2Ġ
Ġzai4Ġ 193
bi3Ġ deĠ
bao3Ġ ding4Ġ
luo4Ġ ma3Ġ
Ġch ang1Ġ
dou1Ġ hua2Ġ
di4Ġer4Ġ bai3Ġ
6Ġyue4Ġ 28Ġri4Ġ
Ġfu2Ġ lei2Ġ
Ġming2Ġ cheng1Ġ
jun1Ġshi4Ġ xing2Ġdong4Ġ
ow n
kua4Ġ xing4Ġbie2Ġ
Ġzhe4Ġshi4Ġ yin1Ġwei4Ġ
san1Ġge4Ġ yue4Ġ
ĠW Ġ
Ġtou2Ġ zi1Ġ
Ġsai4Ġ shi4Ġ
guai4Ġ shou4Ġ
ming2Ġxing1Ġ sai4Ġ
7 2
shi4Ġ nan2Ġ
zhi4Ġ de2Ġ
yue4Ġ guo4Ġ
li3Ġ he2Ġ
dai4Ġ hui2Ġ
xia4Ġ xing2Ġ
jin4Ġ yi2Ġbu4ĠdeĠ
guan1Ġ li4Ġ
Ġshi4Ġ bi4Ġlu3Ġ
mei3Ġ ling2Ġ
zhu4Ġ jun1Ġ
yan2Ġ he2Ġ
wu3Ġ wei4Ġ
shan1Ġ he2Ġ
shan1Ġ cun1Ġ
liang4Ġ wei4Ġ
gang3Ġ tai2Ġ
deĠyi1Ġ chu4Ġ
shi4Ġjie4Ġ guan4Ġjun1Ġ
zhuan3Ġ bian4Ġwei4Ġ
tian2Ġ na4Ġ
song4Ġ zhi4Ġ
8Ġyue4Ġ 15Ġri4Ġ
el lĠ
gan4Ġ dao4Ġ
Ġluo2Ġ bo2Ġte4Ġ
ge2Ġlan2Ġ te4Ġ
Ġyue1Ġ se4Ġfu1Ġ
you3Ġyi1Ġ zuo4Ġ
zhi2Ġxing2Ġ guan1Ġ
Ġshun4Ġ zhi4Ġ
Ġchang4Ġ pian4Ġ
M O
ĠĠĠ tai4Ġ
yi1Ġ jian4Ġ
gong1Ġ nong2Ġ
you3Ġ gong1Ġ
jia1Ġ te4Ġ
jia1Ġ mian3Ġ
shou3Ġ nao3Ġ
lian2Ġ tong1Ġ
gao1Ġ zong1Ġ
ni c
zhong4Ġ cai2Ġ
Ġwei4Ġ sheng1Ġ
zhe4Ġ shou3Ġge1Ġ
qu3Ġ xiang4Ġ
dang1Ġ si1Ġ
pai2Ġ wei4Ġ
deĠyi1Ġ qie4Ġ
Ġyou3Ġ deĠ
Ġã Ħ
Ġjie2Ġ zhi3Ġ
yin1Ġyue4Ġ xue2Ġyuan4Ġ
Ġceng2Ġ dan1Ġren4Ġ
Ġba1Ġ shi4Ġ
shun4Ġ zhi4Ġ
Ġxing2Ġ dong4Ġ
pai1Ġ mai4Ġ
Ġzhuan1Ġ ye4Ġ
dai4Ġlai2Ġ leĠ
ĠĠĠof ĠĠĠtheĠĠĠ
gong1Ġan1Ġ ju2Ġ
er3Ġduo1Ġ wa3Ġ
6 6Ġnian2Ġ
u st
Ġ niao3Ġ
Ġ fei2Ġ
Ġ qu3Ġxiao1Ġ
deĠ huo2Ġdong4Ġ
ĠĠĠ bing4Ġ
ĠĠĠ wan4Ġ
ren2Ġ yi3Ġ
yi1Ġ dai4ĠdeĠ
si1Ġ da4Ġlin2Ġ
she4Ġ fa3Ġ
shu4Ġ zhi1Ġ
zhi2Ġ da2Ġ
san1Ġ jian1Ġ
lin2Ġ dun4Ġ
qing1Ġ gui3Ġ
bi3Ġ te4Ġ
yang2Ġ qu1Ġ
dian3Ġ wei4Ġyu2Ġ
wang3Ġ deĠ
gai1Ġ nian2Ġ
qian1Ġ ju1Ġ
ji3Ġ ci4Ġ
deĠyi1Ġ zhi1Ġ
lei1Ġ mu3Ġ
xie3Ġ xin4Ġ
Ġjiang1Ġ hui4Ġ
5Ġyue4Ġ 31Ġri4Ġ
am esĠĠĠ
zu2Ġqiu2Ġ chao1Ġji2Ġlian2Ġsai4Ġ
ro p
zang4Ġ zai4Ġ
Ġfei1Ġ li4Ġpu3Ġ
Ġka3Ġ la1Ġ
Ġãĥ Ī
chang2Ġwu4Ġ wei3Ġyuan2Ġhui4Ġ
tiv eĠĠĠ
hong2Ġshi2Ġzi4Ġ hui4Ġ
Ġ qu1Ġyu4Ġ
ĠĠĠ zhen1Ġ
yi1Ġ pian4Ġ
zhi1Ġ jiu3Ġ
nan2Ġ dao4Ġ
zhou1Ġ en1Ġlai2Ġ
mei3Ġ yi2Ġge4Ġ
shou3Ġ jian1Ġ
mian4Ġ wei4Ġ
ĠdeĠ xin1Ġ
zu3Ġ guo2Ġ
jiao1Ġ deĠ
wu1Ġ er3Ġ
or k
xiao1Ġ hua4Ġ
qiang2Ġ xing2Ġ
chu3Ġ guo2Ġ
yan2Ġjiu1Ġ zhe3Ġ
zhuan3Ġ hua4Ġwei4Ġ
deĠshi4Ġ chang3Ġ
tao2Ġ dao4Ġ
Ġguan1Ġ zhong4Ġ
zeng1Ġjia1Ġ dao4Ġ
ke4Ġsi1Ġ luo4Ġfa2Ġke4Ġ
ir stĠĠĠ
Ġxing2Ġzheng4Ġ yuan4Ġ
tong2Ġwei4Ġ su4Ġ
ma3Ġke4Ġsi1Ġ zhu3Ġyi4Ġ
Ġyong1Ġ zheng4Ġ
zao4Ġchuan2Ġ chang3Ġ
O K
t ang3Ġ
3Ġ ci4Ġ
ai4Ġ zi1Ġ
ĠĠĠ qu1Ġ
ĠĠĠ ping2Ġ
gong1Ġ he2Ġ
yuan2Ġ liao4Ġ
da4Ġ shang3Ġ
xian4Ġ suo3Ġ
hou4Ġ guo3Ġ
li3Ġ xing4Ġ
jun1Ġ zhong1Ġ
fu4Ġ yuan2Ġ
qi1Ġ shi2Ġ
fen1Ġ zhong1ĠdeĠ
shou3Ġ chi2Ġ
ti2Ġ xing3Ġ
zhong3Ġ deĠ
liang3Ġ bu4Ġ
mei2Ġ jin1Ġpai2Ġ
ceng2Ġ duo1Ġci4Ġ
li2Ġ ming2Ġ
chen2Ġ shi4Ġ
bang1Ġ deĠ
Ġxian4Ġ lu4Ġ
kuang4Ġ ye4Ġ
Ġji1Ġ xie4Ġ
Ġshi4Ġyi1Ġ kuan3Ġ
deĠren2Ġ lei4Ġ
50Ġ ren2Ġ
Ġcan1Ġ jian4Ġ
6 9Ġnian2Ġ
a ge
ĠĠĠ 9
ĠĠĠ zhan4Ġ
li4Ġ run4Ġ
zhi4Ġ jing4Ġ
da4Ġ du1Ġ
wei2Ġ ji2Ġ
ge4Ġ ren2ĠdeĠ
yi2Ġ si4Ġ
xiang1Ġ deng3Ġ
yan2Ġ shi4Ġ
Ġzai4Ġ yu3Ġ
shu3Ġ ming2Ġ
yan3Ġ chu1ĠdeĠ
bian4Ġ deĠ
su4Ġ zao4Ġ
you4Ġ pai4Ġ
gui1Ġ yi1Ġ
zhang1Ġ jie2Ġ
ju3Ġ dong4Ġ
zhuan1Ġ zhu4Ġ
wei3Ġyuan2Ġ zhang3Ġ
lei1Ġ mi4Ġ
7Ġyue4Ġ 7Ġri4Ġ
bu3Ġ shi2Ġ
zhong1Ġyang1Ġ zheng4Ġfu3Ġ
zhi1Ġchi2Ġ lv4Ġ
leĠyi1Ġ ci4Ġ
Ġping2Ġ jie4Ġ
ping2Ġjun1Ġ shui3Ġping2Ġ
zai4Ġ200 5Ġnian2Ġ
Ġ2011Ġnian2Ġ ren2Ġkou3Ġ
tang1Ġ mu3Ġ
Ġer2Ġren2Ġkou3Ġmi4Ġdu4Ġwei4Ġmei3Ġping2Ġfang1Ġqian1Ġmi3Ġ ren2Ġ
Ġli2Ġ xin1Ġ
ĠĠĠjie2Ġ zhi4Ġ
xiang1Ġying4Ġ deĠ
ye3Ġzhan4Ġ jun1Ġ
P P
u k
u x
ĠĠĠ ge2Ġ
zhi4Ġ shang4Ġ
jia1Ġ you2Ġ
she4Ġ shou3Ġ
jin4Ġ hui4Ġ
jin4Ġ du4Ġ
Ġshi4Ġ dang1Ġdi4Ġ
zui4Ġ xian1Ġ
wu3Ġ chang1Ġ
luo2Ġ bo2Ġ
feng1Ġ yun2Ġ
ba1Ġ na2Ġma3Ġ
bo1Ġ ji2Ġ
qing2Ġ jing3Ġ
cai2Ġ shi4Ġ
qiang2Ġ jian1Ġ
xian3Ġ ran2Ġ
tui1Ġ yi2Ġ
cai3Ġ se4Ġ
song4Ġ gei3Ġ
hen3Ġ rong2Ġyi4Ġ
tong1Ġguo4Ġ deĠ
11Ġyue4Ġ 30Ġri4Ġ
qiu2Ġdui4Ġ deĠ
you3Ġxian4Ġ dian4Ġshi4Ġ
14Ġ ge4Ġ
miao2Ġshu4Ġ leĠ
yu2Ġ199 3Ġnian2Ġ
chou1Ġ qian1Ġ
yin4Ġdi4Ġ an1Ġ
ga2Ġ er3Ġ
ai1Ġsai1Ġ e2Ġbi3Ġya4Ġ
3 60Ġ
ĠĠĠ shi1Ġ
shi4Ġ zi4Ġ
yuan2Ġ guan1Ġxi4Ġ
wu4Ġ duan4Ġ
jin4Ġ shen1Ġ
mei3Ġ lian2Ġ
ma3Ġ di4Ġ
jiang1Ġ lai2Ġ
ding4Ġ yi4ĠdeĠ
luo2Ġ ni2Ġya4Ġ
liang3Ġ bu4Ġfen4Ġ
8Ġ ping2Ġfang1Ġgong1Ġli3Ġ
kai1Ġshi3Ġ deĠ
Ġyi4Ġ ri4Ġ
Ġye3Ġ hui4Ġ
Ġye3Ġ ke3Ġ
Ġye3Ġ yin1Ġci3Ġ
da3Ġ dian3Ġ
huan4Ġ guan1Ġ
10Ġyue4Ġ 25Ġri4Ġ
qing3Ġ yuan4Ġ
Ġshang4Ġ mian4Ġ
mao2Ġ si1Ġ
Ġm ou2Ġ
ac eĠ
ir l
Ġwei4Ġyu2Ġgai1Ġguo2Ġ dong1Ġbei3Ġbu4Ġ
ping2Ġtai2Ġ shang4Ġ
fa3Ġlan2Ġ ke4Ġfu2Ġ
yuan2Ġben3Ġ deĠ
gai3Ġjian4Ġ wei4Ġ
fu4Ġjia1Ġ sai4Ġ
4 9Ġnian2Ġ
K i
Ġ yin4Ġ
Ġ ju3Ġban4Ġ
Ġ qing3Ġqiu2Ġ
4Ġ wan4Ġ
deĠ bi3Ġsai4Ġzhong1Ġ
zhong1Ġ tu2Ġ
zhong1Ġ huan2Ġ
bu4Ġ cheng2Ġ
bu4Ġ guo4Ġ
bu4Ġ cun2Ġzai4Ġ
ji2Ġ xing2Ġ
ping2Ġ mu4Ġ
Ġzai4Ġ dang1Ġshi2Ġ
Ġc u1Ġ
jie1Ġ mu4Ġ
liu2Ġ pai4Ġ
Ġdan4Ġ you3Ġ
shen1Ġ yuan3Ġ
tong3Ġ chou2Ġ
ziĠ ji2Ġ
hao4Ġ zhao4Ġ
gai1Ġ dang3Ġ
rong2Ġ qi4Ġ
Ġbu4Ġ lun4Ġ
zhun3Ġ ze2Ġ
lve4Ġ you3Ġ
duan3Ġ que1Ġ
at edĠĠĠ
ji4Ġlu4Ġ deĠ
Ġxiao3Ġ xue2Ġ
bang3Ġ shou3Ġ
ĠĠĠT h
196 7Ġnian2Ġ
xiao3Ġxing2Ġxing1Ġ dai4Ġ
yu2Ġ199 1Ġnian2Ġ
Ġfan3Ġ hui2Ġ
lv3Ġyou2Ġ ye4Ġ
Ġbu4Ġjiu3Ġ hou4Ġ
D CĠ
F C
shi2Ġ shi2Ġ
yu4Ġ liu2Ġ
fen1Ġ fa1Ġ
bo x
tong2Ġ hang2Ġ
duo1Ġ tiao2Ġ
tai2Ġ tie3Ġ
mi3Ġ ni2Ġ
wang2Ġ fu3Ġ
wu2Ġ xi1Ġ
gu3Ġ wen2Ġ
shang1Ġ chuan2Ġ
ying2Ġ mu4Ġ
hai2Ġ ke3Ġyi3Ġ
di3Ġ qi1Ġ
tao2Ġ pao3Ġ
bu3Ġ zhuo1Ġ
Ġdan1Ġ da3Ġ
Ġping2Ġ guo3Ġ
zi4Ġyou2Ġ shi4Ġ
cai4Ġ ying1Ġwen2Ġ
gui1Ġmo2Ġ zui4Ġda4ĠdeĠ
pang2Ġ da4ĠdeĠ
xue2Ġzhe3Ġ ren4Ġwei2Ġ
qu3Ġdai4Ġ leĠ
00Ġwan4Ġ yuan2Ġ
you3Ġsuo3Ġ bu4Ġtong2Ġ
long3Ġ duan4Ġ
Ġ ×
deĠ jin1Ġ
shi4Ġ xiang1Ġgang3Ġ
bu4Ġ dang4Ġ
yi4Ġ mei3Ġyuan2ĠdeĠ
ai1Ġ na4Ġsheng3Ġ
mei3Ġ shi2Ġ
qi3Ġ zai4Ġ
san1Ġ tian1Ġ
ĠdeĠ ren2Ġ
zhong4Ġ chuang1Ġ
na4Ġ shi2Ġ
wu2Ġ zui4Ġ
gu3Ġ jia4Ġ
luo4Ġ ni2Ġ
mo2Ġ luo4Ġge1Ġ
10Ġ ming2Ġ
Ġk ou4Ġ
tao2Ġ zou3Ġ
yi3Ġji2Ġ qi2Ġta1Ġ
sen1Ġ deĠ
Ġhai3Ġ yang2Ġ
Ġmian4Ġji1Ġ 1Ġ
ĠĠĠben3Ġ pian4Ġ
gui1Ġding4Ġ ju1Ġmin2Ġdian3Ġ
zhong1Ġhua2Ġmin2Ġguo2Ġ zheng4Ġfu3Ġ
Ġ191 5Ġnian2Ġ
Ġ190 5Ġnian2Ġ
zai4Ġ201 6Ġnian2Ġ
Ġ liao2Ġning2Ġ
1Ġ zhi4Ġ
deĠ yao1Ġqiu2Ġ
an1Ġ ding4Ġ
ĠĠĠ 20
li4Ġ wen2Ġ
yu3Ġ ta1ĠdeĠ
xi1Ġ na4Ġ
ge4Ġ fang1Ġ
qu1Ġ deĠyi2Ġge4Ġ
lu4Ġ mian4Ġ
fu4Ġ jiao4Ġshou4Ġ
zhi2Ġ liu2Ġ
zhi3Ġ wei4Ġ
shu1Ġ mian4Ġ
lv4Ġ bu4Ġ
men2Ġ kou3Ġ
bing1Ġ dao3Ġ
Ġyi1Ġ liao2Ġ
Ġyu2Ġ 2019Ġnian2Ġ
hu2Ġ die2Ġ
zhuan3Ġ rang4Ġ
mai4Ġ a1Ġmi4Ġ
po4Ġ lie4Ġ
Ġzi4Ġ xing2Ġ
di1Ġ wen1Ġ
shao4Ġ lin2Ġ
11Ġ ĠĠ
mou3Ġ yi1Ġ
ĠĠĠben3Ġ jie4Ġ
pu3Ġcha2Ġ gui1Ġding4Ġju1Ġmin2Ġdian3Ġ
Ġpu3Ġ luo2Ġ
rao4Ġ tai4Ġyang2Ġ
50 00Ġ
you3Ġji1Ġ hua4Ġhe2Ġwu4Ġ
Ġxi1Ġnan2Ġ jie1Ġ
jin1Ġxiang4Ġ jiang3Ġ
5 00
y aĠ
Ġ bian3Ġ
e2Ġ yu3Ġ
ĠĠĠ suo3Ġ
ĠĠĠ pi2Ġ
nian2Ġ chu1Ġ
hui4Ġ guan3Ġ
xi1Ġ an4Ġ
xi1Ġ zhan4Ġ
jian4Ġ jiao1Ġ
ke4Ġ lei1Ġ
shu4Ġ shi4Ġ
shu4Ġ ren2Ġ
zhou1Ġ wu3Ġ
shou3Ġ shi4Ġ
ye3Ġ yu3Ġ
duo1Ġ mei2Ġti3Ġ
bei3Ġ zhan4Ġ
san1Ġ fen1Ġzhi1Ġyi1Ġ
ba1Ġ lei3Ġ
sha1Ġ deĠ
jin3Ġ zai4Ġ
Ġhou4Ġ xu4Ġ
Ġxian4Ġ cun2Ġ
tan2Ġ xing4Ġ
hei1Ġ long2Ġjiang1Ġ
guan4Ġjun1Ġ sai4Ġ
Ġwei2Ġ yi1Ġ
gong1Ġye4Ġ qu1Ġ
ĠĠĠ198 1Ġnian2Ġ
Ġmo2Ġ gen1Ġ
Ġwei4Ġyu2Ġgai1Ġguo2Ġ xi1Ġnan2Ġbu4Ġ
jian3Ġcha2Ġ yuan4Ġ
yin3Ġfa1Ġ leĠ
huo2Ġyue4Ġ yu2Ġ
Ġyou2Ġqi2Ġ shi4Ġzai4Ġ
Ġ xue2Ġyuan4Ġ
Ġ yin2Ġhang2Ġ
Ġ yan3Ġchu1Ġ
Ġ ru4Ġxuan3Ġ
ĠĠĠ ke3Ġ
xing2Ġ zhi4Ġ
ji1Ġ ceng2Ġ
xin1Ġ gan4Ġxian4Ġ
mei3Ġ yue4Ġ
dong1Ġ zhan4Ġ
er4Ġ qi1Ġ
jie4Ġ yu2Ġ
feng1Ġ bo1Ġ
qing1Ġ jie2Ġ
qian1Ġ wa3Ġ
sha1Ġ leĠ
Ġgai1Ġ shu1Ġ
da4Ġxue2Ġ he2Ġ
or eĠĠĠ
ju1Ġ ji1Ġ
guan4Ġ chuan1Ġ
xie3Ġ zhen1Ġ
jun4Ġ tai4Ġshou3Ġ
bei1Ġ jue2Ġsai4Ġ
12Ġyue4Ġ 30Ġri4Ġ
lao3Ġ nian2Ġ
yuan3Ġ cheng2Ġ
ĠM o
Ġwei2Ġ chi2Ġ
Ġ191 6Ġnian2Ġ
Ġzhuan3Ġ ren4Ġ
Ġda3Ġ po4Ġ
guo2Ġfang2Ġ jun1Ġ
Ġkang4Ġ ri4Ġ
ying3Ġping2Ġ ren2Ġ
Ġxing2Ġzheng4Ġzhong1Ġxin1Ġ wei4Ġ
4 1
O C
S p
Ġ j
wei4Ġ dao4Ġ
bu4Ġ lin2Ġ
shi2Ġ wei2Ġke4Ġ
li4Ġ zi1Ġ
gong1Ġ mu4Ġ
ji2Ġ xiang2Ġ
ou1Ġ yang2Ġ
xi1Ġ tai4Ġping2Ġyang2Ġ
fu4Ġ hui4Ġzhang3Ġ
guan1Ġ tang2Ġ
shou3Ġ yu3Ġ
te4Ġ zhi4Ġ
Ġc enterĠ
dan1Ġ ni2Ġer3Ġ
ci3Ġ hou4Ġ
jiu4Ġ hu4Ġ
Ġyou2Ġ zheng4Ġ
ce4Ġ mian4Ġ
6Ġ wan4Ġ
yang4Ġ shi4Ġ
jian4Ġzhu4Ġ mian4Ġji1Ġ
Ġzhi4Ġ shi3Ġ
Ġli3Ġ lun4Ġ
Ġsan1Ġ nian2Ġ
feng4Ġ tian1Ġ
zhi1Ġchi2Ġ deĠ
Ġran2Ġer2Ġ zai4Ġ
Ġbo1Ġ si1Ġ
Ġlian2Ġ tong2Ġ
gui3Ġdao4Ġ ban4Ġzhang3Ġzhou2Ġ
qun2Ġdao3Ġ deĠ
Ġjiu3Ġ long2Ġ
195 8Ġnian2Ġ
ru c
xi1Ġzang4Ġ zi4Ġzhi4Ġqu1Ġ
tong2Ġxing4Ġ hun1Ġyin1Ġ
Ġdeng1Ġ jin4Ġshi4Ġ
tan4Ġce4Ġ qi4Ġ
fen1Ġzu3Ġ sai4Ġ
yun4Ġzai4Ġ huo3Ġjian4Ġ
3 D
a el
w ith
Ġ fa3Ġyuan4Ġ
zh a1Ġer3Ġ
deĠ qu1Ġyu4Ġ
ren2Ġ ma3Ġ
yi4Ġ xiang4Ġ
ji2Ġ yi3Ġ
le Ġzhu4Ġ
li3Ġ ke1Ġ
dui4Ġ zhong1Ġguo2Ġ
xiang4Ġ shang4Ġ
yan2Ġ tao3Ġ
ya4Ġ er3Ġ
nei4Ġ er3Ġ
ru4Ġ chang3Ġ
la1Ġ he2Ġ
jie4Ġ yong4Ġ
jie4Ġ ci3Ġ
feng1Ġ kuang2Ġ
qing1Ġ tong2Ġ
shen1Ġ gao1Ġ
guan3Ġ zhang3Ġ
tai4Ġ duo1Ġ
bian4Ġ qian1Ġ
tu2Ġ zhuang1Ġ
ce4Ġ wei4Ġ
mo2Ġ deĠ
cai2Ġ bei4Ġ
Ġyu2Ġ 2021Ġnian2Ġ
tuo1Ġ si1Ġ
ta3Ġ li4Ġ
4Ġyue4Ġ 28Ġri4Ġ
ku4Ġ si1Ġ
kan4Ġ lai2Ġ
Ġliang3Ġ zhong3Ġ
Ġqing1Ġ dai4Ġ
Ġ7 0
Ġãĥ «
15Ġ ge4Ġ
ĠĠĠ194 1Ġnian2Ġ
Ġlan2Ġ se4Ġ
bi4Ġyao4Ġ deĠ
jiao1Ġjie4Ġ chu4Ġ
ji2Ġlong2Ġ po1Ġ
Ġ lian2Ġmeng2Ġ
3Ġ fen1Ġ
bi n
zhong1Ġ ri4Ġ
zhong1Ġ biao3Ġshi4Ġ
zhong1Ġ xue2Ġxiao4Ġ
di ng
ou3Ġ er3Ġ
hui4Ġ chan3Ġsheng1Ġ
fu4Ġ ju2Ġzhang3Ġ
xiang1Ġ dui4Ġyu2Ġ
Ġzai4Ġ xin1Ġ
ma3Ġ en1Ġ
ya4Ġ ma3Ġxun4Ġ
qi3Ġ bing1Ġ
Ġyi3Ġ zhi4Ġyu2Ġ
ban4Ġ chang3Ġ
bo2Ġ ming2Ġ
dang3Ġ tuan2Ġ
huang2Ġ gong1Ġ
or ĠĠĠ
que4Ġ qie4Ġ
7Ġ shi2Ġ
chen2Ġ lie4Ġ
Ġtong2Ġ zhi4Ġ
jiang4Ġ zhi4Ġ
Ġqi2Ġzhong1Ġ yi2Ġge4Ġ
di1Ġ ya1Ġ
Ġyuan2Ġ zi4Ġ
she4Ġhui4Ġ dang3Ġ
ying3Ġxiang3Ġ leĠ
Ġ3 9
deng4Ġ xiao3Ġping2Ġ
di4Ġqiu2Ġ deĠ
shou1Ġlu4Ġ leĠ
ap p
deĠli4Ġ ziĠ
niang4Ġ jiu3Ġ
Ġju4Ġle4Ġ bu4Ġ
ĠĠĠ de2Ġguo2Ġ
ĠĠĠ sai4Ġshi4Ġ
zhong1Ġ xi1Ġbu4Ġ
chu1Ġ jia1Ġ
yin1Ġ xing4Ġ
dai4Ġ zhi1Ġ
fa3Ġ xue2Ġyuan4Ġ
shou4Ġ yao1Ġ
xiao3Ġ xin1Ġ
ba1Ġ yi1Ġ
yan3Ġ ji4Ġ
hua2Ġ de2Ġ
hai2Ġ zi
zhuan1Ġ ti2Ġ
geng4Ġ rong2Ġyi4Ġ
liang2Ġ deĠ
dai4Ġbiao3Ġ zuo4Ġ
9Ġ gong1Ġli3Ġ
guan4Ġ ming2Ġ
shuang1Ġ ceng2Ġ
ha1Ġ bu4Ġsi1Ġbao3Ġ
Ġbei3Ġ wei4Ġ
er4Ġshi2Ġ yi1Ġnian2Ġ
min2Ġzhu3Ġ gong4Ġhe2Ġguo2Ġ
13Ġ ren2Ġ
Ġlai2Ġ ang2Ġ
reng2Ġran2Ġ shi4Ġ
jing1Ġli4Ġ leĠ
ma3Ġlai2Ġ ya4Ġ
jia4Ġzhi2Ġ guan1Ġ
yu2Ġ198 5Ġnian2Ġ
kao3Ġlv4Ġ dao4Ġ
cao1Ġzuo4Ġ xi4Ġtong3Ġ
Ġfu4Ġqin1Ġ shi4Ġ
Ġwen2Ġhua4Ġ da4Ġge2Ġming4Ġ
er3Ġduo1Ġ nie4Ġ
e e
e org
ĠĠ A
an1Ġ shan1Ġ
ĠĠĠ yue4Ġ
he2Ġ xie2Ġ
shi2Ġ ji1Ġ
yi4Ġ hou4Ġ
wei2Ġ bei4Ġ
you2Ġ ying1Ġguo2Ġ
bei4Ġ hui3Ġ
dai4Ġ zheĠ
Ġshi4Ġ chang3Ġ
tong2Ġ ren2Ġ
ru4Ġ wu3Ġ
wai4Ġ lai2Ġ
qing1Ġ ting2Ġ
da2Ġ da2Ġ
ce4Ġ feng1Ġ
xian1Ġ hua1Ġ
Ġyi1Ġ sheng1Ġ
xiang1Ġgang3Ġ dao3Ġ
wa3Ġ ni2Ġ
guan4Ġ gai4Ġ
sa4Ġ mo2Ġ
12Ġyue4Ġ 25Ġri4Ġ
Ġjin4Ġ nian2Ġlai2Ġ
Ġduo1Ġ ren2Ġ
chun1Ġ tian1Ġ
Ġliu2Ġ qiu2Ġ
Ġcheng2Ġwei2Ġ leĠ
Ġai4Ġ lun2Ġ
Ġshou4Ġ yu3Ġ
197 1Ġnian2Ġ
15Ġ ren2Ġ
ĠĠĠ198 0Ġnian2Ġ
qiang3Ġ jie2Ġ
Ġtou2Ġ piao4Ġ
guo2Ġfang2Ġ bu4Ġzhang3Ġ
Ġyu2Ġ201 3Ġnian2Ġ
la1Ġding1Ġ mei3Ġzhou1Ġ
ĠĠĠdan4Ġ shi4Ġ
yp eĠ
mer ic
Ġ hun1Ġ
deĠ M
ĠĠĠ ou1Ġzhou1Ġ
he2Ġ qian2Ġ
guo2Ġ ren2Ġ
yi4Ġ gang3Ġyuan2Ġ
ji2Ġ jia1Ġ
xin1Ġ jiao4Ġ
lai2Ġ te4Ġ
fa3Ġ dian3Ġ
jiang1Ġ zhi1Ġ
yao4Ġ pin3Ġ
Ġri4Ġ yu3Ġ
shou4Ġ hui4Ġ
ci4Ġ fu2Ġ
chuan2Ġ zhang3Ġ
bo2Ġ hui2Ġ
gui1Ġ lv4Ġ
qing2Ġ deĠ
jiang3Ġ jie4Ġshi2Ġ
xin4Ġ jian4Ġ
qi2Ġta1Ġ guo2Ġjia1Ġ
guo2Ġji4Ġ zu2Ġxie2Ġ
piao4Ġ xuan3Ġ
re4Ġ he2Ġ
you1Ġ dian3Ġ
Ġjin3Ġ you3Ġ
Ġde2Ġ jun1Ġ
cuo4Ġ wu4ĠdeĠ
he2Ġzuo4Ġ huo3Ġban4Ġ
11Ġ ren2Ġ
Ġ191 0Ġnian2Ġ
zhong1Ġwen2Ġ da4Ġxue2Ġ
wai4Ġguo2Ġ ren2Ġ
ĠĠĠxia4Ġ shu3Ġwu4Ġzhong3Ġ
guang3Ġxi1Ġ zhuang4Ġzu2Ġzi4Ġzhi4Ġqu1Ġ
Ġchun1Ġ qiu1Ġ
ao4Ġdi4Ġ li4ĠdeĠ
1 19
8 4
B BC
O L
e eĠ
en tĠ
deĠ xia4Ġ
deĠ mu4Ġbiao1Ġ
wei4Ġ 3
wei4Ġ gu3Ġ
zai4Ġ quan2Ġqiu2Ġ
li4Ġ nuo4Ġ
yu3Ġ shui3Ġ
xi1Ġ xi1Ġli3Ġ
dai4Ġ shang4Ġ
te4Ġ lv4Ġ
ma3Ġ lin2Ġ
zhen4Ġ shou3Ġ
Ġzhe4Ġ duan4Ġ
rong2Ġ xu3Ġ
Ġgai1Ġ xiao3Ġxing2Ġxing1Ġ
wu1Ġ yuan4Ġ
Ġdi4Ġ shi2Ġyi1Ġ
shou1Ġ yi4Ġ
bai4Ġ fang3Ġ
Ġyuan2Ġ shi4Ġ
wen2Ġhua4Ġ da4Ġge2Ġming4Ġ
deĠdi4Ġ mian4Ġ
12Ġ mi3Ġ
Ġchu1Ġ qi1Ġ
er4Ġshi2Ġ ting1Ġ
cha1Ġ ru4Ġ
zui4Ġgao1Ġ dian3Ġwei4Ġ
Ġgong4Ġ he2Ġ
Ġfei1Ġ ji1Ġ
Ġcan1Ġ sai4Ġ
you3Ġyi1Ġ ming2Ġ
Ġhai3Ġba2Ġgao1Ġdu4Ġ 2Ġ
xian4ĠdeĠyi2Ġge4Ġ zhen4Ġqu1Ġ
shang4Ġying4Ġ deĠ
da2Ġcheng2Ġ xie2Ġyi4Ġ
kang4Ġyi4Ġ huo2Ġdong4Ġ
zhu4Ġzhai2Ġ qu1Ġ
shi 4
2 30Ġ
6 8Ġnian2Ġ
c u
n er
Ġ sh
deĠ qin1Ġ
an1Ġ shi2Ġ
zai4Ġ xiao4Ġ
yi1Ġ tai2Ġ
zhi1Ġ zhu1Ġ
xi1Ġ gong4Ġ
bei4Ġ si1Ġ
zui4Ġ gu3Ġlao3ĠdeĠ
ding4Ġ dan1Ġ
chang2Ġ shou4Ġ
la1Ġ sheng3Ġ
wang2Ġ fei1Ġ
na4Ġ bu4Ġ
ziĠ li3Ġ
su4Ġ liao4Ġ
chuan2Ġ dong4Ġ
hu4Ġ wai4Ġ
duan4Ġ lie4Ġ
Ġyu2Ġ 2020Ġnian2Ġ
ke3Ġneng2Ġ you3Ġ
lu3Ġ xiao3Ġ
di1Ġ di4Ġ
ya1Ġ pian4Ġ
she4Ġhui4Ġ ke1Ġxue2Ġ
Ġzhu3Ġ da3Ġ
Ġxia4Ġ ji4Ġ
Ġ3 8
Ġ3 4Ġ
st ag
liang3Ġge4Ġ yue4Ġ
pi3Ġ pei4Ġ
197 3Ġnian2Ġ
ĠĠĠ194 6Ġnian2Ġ
Ġ190 3Ġnian2Ġ
ĠU ni
S A
i x
t ang4Ġ
Ġ kuo4Ġ
Ġ biao3Ġming2Ġ
ĠĠĠ nei4Ġ
zai4Ġ ben3Ġ
ren2Ġ shou4Ġ
yuan2Ġ zuo4Ġ
da4Ġ tang2Ġ
ji1Ġ pao4Ġ
li3Ġ wu4Ġ
er2Ġ wei4Ġ
fu4Ġ shi4Ġzhang3Ġ
zhu3Ġ pao4Ġ
dong4Ġ xue2Ġ
yao4Ġ dao4Ġ
bei3Ġ song4Ġ
wai4Ġ ke1Ġ
Ġwei4Ġ mei3Ġguo2Ġ
bian1Ġ zuan3Ġ
bo2Ġ lan2Ġ
ka3Ġ luo4Ġsi1Ġ
qing2Ġ ren2Ġ
Ġgai1Ġ zhan4Ġ
Ġyi1Ġ yuan4Ġ
zi3Ġ di4Ġ
han4Ġ zu2Ġ
Ġshi2Ġ yan4Ġ
di3Ġ bu4Ġ
lv3Ġ guan3Ġ
Ġjin4Ġ nian2Ġ
zong3Ġtong3Ġ fu3Ġ
Ġge2Ġ ming4Ġ
100Ġ mi3Ġ
ĠĠĠ197 8Ġnian2Ġ
ĠĠĠ195 8Ġnian2Ġ
Ġyu2Ġ201 8Ġnian2Ġ
ke4Ġli3Ġ fu1Ġ
pian2Ġ yi
6 1
e ng
Ġ wen3Ġ
Ġ pai2Ġming2Ġ
Ġ luan3Ġ
3Ġ shi2Ġ
deĠ ji4Ġshu4Ġ
ĠĠĠ fan4Ġ
ĠĠĠ guo2Ġjia1Ġdui4Ġ
shi4Ġ jing4Ġ
shi4Ġ jiao3Ġ
bu4Ġ guan1Ġzheng4Ġ
yu2Ġ mu4Ġ
li4Ġ yuan2Ġ
gong1Ġ shi3Ġ
li3Ġ fu1Ġ
dao4Ġ ju4Ġ
xi1Ġ liu2Ġ
xin1Ġ hua2Ġ
yin1Ġ ying3Ġ
ye4Ġ jie4Ġ
lie4Ġ wu4Ġ
tai4Ġ deĠ
wu2Ġ ji1Ġ
tou2Ġ jiao3Ġ
ling3Ġ zhu3Ġ
men2Ġ xia4Ġ
mo2Ġ biao1Ġben3Ġ
Ġbu4Ġ dan4Ġ
Ġgai1Ġ guo2Ġ
wu1Ġ shui3Ġ
bing1Ġ qi4Ġ
wa3Ġ zi1Ġ
dai4Ġbiao3Ġ deĠ
gang1Ġ gang1Ġ
Ġsuo3Ġ shu3Ġ
xiu4Ġ ji2Ġ
Ġqing1Ġ chun1Ġ
Ġwo3Ġ menĠdeĠ
Ġãĥ ©
et ac
Ġshe4Ġ ji2Ġ
chai1Ġ xie4Ġ
zhu3Ġyan3Ġ deĠ
qi1Ġxi1Ġ yu2Ġ
bi3Ġli4Ġniu2Ġ si1Ġsheng3Ġ
Ġli2Ġxin1Ġ lv4Ġwei4Ġ0
7 00Ġ
m b
an1Ġ da4Ġlve4Ġ
yu2Ġ 16
ji2Ġ da4ĠdeĠ
Ġt Ġ
ti Ġ
sheng1Ġ xia4Ġ
shi3Ġ fa1Ġ
jun1Ġ gong1Ġ
ke4Ġ luo4Ġ
ping2Ġ deĠ
min2Ġ sheng1Ġ
min2Ġ su2Ġ
te4Ġ she4Ġ
deng3Ġ jia4Ġ
guo4Ġ leĠ
dao3Ġ hang2Ġ
Ġzhe4Ġ wei4Ġ
shuo1Ġ dao4Ġ
cong2Ġ xiao3Ġ
xiu1Ġ zhu4Ġ
guan4Ġ tong1Ġ
9Ġyue4Ġ 29Ġri4Ġ
wang4Ġ jiao3Ġ
Ġcheng2Ġ hua4Ġ
Ġling4Ġ ren2Ġ
aĠĠĠ R
Ġsi1Ġ tu2Ġ
Ġao4Ġ er3Ġ
Ġke4Ġ la1Ġke4Ġ
mei2Ġti3Ġ deĠ
zhong1Ġhua2Ġren2Ġmin2Ġgong4Ġhe2Ġguo2Ġ zhu4Ġ
Ġyu2Ġ201 2Ġnian2Ġ
Ġyu2Ġ201 4Ġnian2Ġ
Ġjin4Ġru4Ġ zhi2Ġlu4Ġhou4Ġ
Ġtu1Ġ ran2Ġ
xu3Ġke3Ġ zheng4Ġ
B o
d ai3Ġ
i ĠĠĠ
q Ġ
ao4Ġ tuo1Ġ
zhong1Ġ ceng2Ġshui3Ġyu4Ġ
di4Ġ 13Ġ
cheng2Ġ jian4Ġ
jia1Ġ mi4Ġ
zhi1Ġ wang2Ġ
jian4Ġ dui4ĠdeĠ
de2Ġ xian4Ġ
de2Ġ zhou1Ġ
de2Ġ lin2Ġ
wu4Ġ jian4Ġ
yu4Ġ dao4ĠleĠ
jing1Ġ xuan3Ġ
zhu4Ġ yuan4Ġ
dian4Ġ che1Ġzhan4Ġ
Ġzai4Ġ zhe4Ġzhong3Ġ
kai1Ġ huo3Ġ
ti2Ġ qu3Ġ
yun4Ġ zhuan4ĠdeĠxiao3Ġxing2Ġxing1Ġ
liang3Ġ tian1Ġ
qian1Ġ ye4Ġ
gong1Ġsi1Ġ zai4Ġ
1Ġyue4Ġ 15Ġri4Ġ
ling2Ġ jian4Ġ
gan3Ġ ying4Ġ
cun2Ġ fang4Ġ
tian2Ġ ci2Ġ
lv3Ġ zhang3Ġ
ku4Ġ deĠ
Ġju4Ġ cheng1Ġ
fan1Ġ tai2Ġ
Ġbei3Ġ song4Ġ
Ġjing1Ġ ying2Ġ
kang1Ġ fu4Ġ
ding3Ġ bu4Ġ
zhi2Ġye4Ġ zu2Ġqiu2Ġ
tong3Ġzhi4Ġ shi2Ġqi1Ġ
Ġque4Ġ bao3Ġ
16Ġ ren2Ġ
Ġhai3Ġba2Ġgao1Ġdu4Ġ 1Ġ
Ġwei4Ġyu2Ġfa3Ġguo2Ġ xin1Ġa1Ġji1Ġtan3Ġda4Ġqu1Ġ
pen1Ġ fa1Ġ
ĠĠĠyi3Ġxia4Ġ shi4Ġ
Ġzhe4Ġjiang1Ġ sheng3Ġ
Ġshi4Ġyi1Ġke1Ġ rao4Ġtai4Ġyang2Ġ
Ġshi4Ġxing1Ġdeng3Ġwei4Ġ 6
ĠĠĠgui3Ġdao4Ġ can1Ġshu4Ġ
Ġshi4Ġyi1Ġke1Ġrao4Ġtai4Ġyang2Ġ yun4Ġzhuan4ĠdeĠxiao3Ġxing2Ġxing1Ġ
Ġ o
Ġ lve4Ġ
he2Ġ hou4Ġ
he2Ġ lu4Ġ
zhong1Ġ chao1Ġ
yi1Ġ yi1Ġ
zhi1Ġ zuo4Ġ
jin4Ġ hai3Ġ
zhou1Ġ hou4Ġ
Ġshi4Ġ hao4Ġ
quan2Ġ neng2Ġ
ma3Ġ ha1Ġ
ye3Ġ bei4Ġcheng1Ġwei2Ġ
duo1Ġ chu4Ġ
zhi3Ġ yin3Ġ
che1Ġ men2Ġ
dong1Ġ ou1Ġ
ge2Ġ da2Ġ
ge2Ġ ju2Ġ
luo2Ġ jie2Ġ
si4Ġ fen1Ġzhi1Ġyi1Ġ
liang3Ġ duan1Ġ
na4Ġ shui4Ġ
shui3Ġ guo3Ġ
5Ġ ping2Ġfang1Ġgong1Ġli3Ġ
luo4Ġ ru4Ġ
gang3Ġ wei4Ġ
fu1Ġ qi1Ġ
wan2Ġ ju4Ġ
wu1Ġ zi1Ġbie2Ġ
Ġtong2Ġ jin4Ġshi4Ġchu1Ġshen1Ġ
guang1Ġ xian4Ġ
xiang1Ġgang3Ġ zheng4Ġfu3Ġ
man4Ġ man4Ġ
Ġxi1Ġ fang1Ġ
tui1Ġ duan4Ġ
9Ġyue4Ġ 15Ġri4Ġ
Ġjia1Ġ qiang2Ġ
fang3Ġ tan2Ġ
Ġzhan4Ġ shen2Ġ
Ġ16 7
wai4Ġjiao1Ġ zheng4Ġce4Ġ
juan3Ġ ru4Ġ
196 6Ġnian2Ġ
zhuo2Ġ lu4Ġ
deĠyi4Ġ yi4Ġ
zhi4Ġ201 8Ġnian2Ġ
ma3Ġla1Ġ ya3Ġ
bu4Ġlu3Ġ ke4Ġ
Ġwei2Ġzhu3Ġ xiao3Ġxing2Ġxing1Ġdai4Ġ
bo1Ġxi1Ġ mi3Ġya4Ġ
Ġwei2Ġzhu3Ġxiao3Ġxing2Ġxing1Ġdai4Ġ xiao3Ġxing2Ġxing1Ġ
T AĠ
i z
deĠ guo4Ġcheng2Ġ
ĠĠĠ qi3Ġyuan2Ġ
ĠĠĠ sui2ĠzheĠ
bu4Ġ shang4Ġ
li4Ġ xi1Ġ
li4Ġ er3Ġ
zhi4Ġ gu3Ġ
da4Ġ du1Ġhui4Ġ
zheng4Ġ jian4Ġ
you2Ġ wei4Ġ
dui4Ġ zhi4Ġ
dian4Ġ tie3Ġ
ze2Ġ lian2Ġsi1Ġji1Ġ
Ġbing4Ġ ba3Ġ
jin1Ġ lai2Ġ
xiao4Ġ yi4Ġ
yue1Ġ 1Ġ
bian4Ġ zhong3Ġ
Ġyi3Ġ wei2Ġ
ling4Ġ yi1Ġwei4Ġ
bi4Ġ ran2Ġ
jin3Ġ wei4Ġ
eĠĠĠ L
di3Ġ pan2Ġ
zhu1Ġ jiang1Ġ
guo2Ġji4Ġ zu2Ġlian2Ġ
Ġxian4Ġ chang3Ġ
5Ġyue4Ġ 10Ġri4Ġ
chang4Ġ dao3Ġ
12Ġyue4Ġ 15Ġri4Ġ
Ġa1Ġ gen1Ġting2Ġ
da4Ġhui4Ġ shang4Ġ
Ġ190 4Ġnian2Ġ
Ġ190 7Ġnian2Ġ
Ġmin2Ġ jian1Ġ
zhi4Ġ202 1Ġnian2Ġ
zhi4Ġ201 5Ġnian2Ġ
gan3Ġlan3Ġ qiu2Ġ
xia4ĠdeĠyi2Ġge4Ġ shu3Ġ
ĠĠĠwai4Ġbu4Ġ lian2Ġjie2Ġ
o ngĠ
y th
Ġ alignĠ
2Ġ jia1Ġ
deĠ ying1Ġguo2Ġ
ĠĠĠ feng1Ġ
shi4Ġ tong1Ġguo4Ġ
yi1Ġ fa3Ġ
le x
ji4Ġ feng1Ġ
yu3Ġ qiu2Ġ
chu1Ġ ji1Ġ
she4Ġ wei4Ġ
ke4Ġ ti2Ġ
te4Ġ ren2Ġ
te4Ġ wu4Ġ
wu3Ġ ming2Ġ
shu1Ġ cai4Ġ
fu3Ġ dao3Ġ
mei2Ġ yin2Ġpai2Ġ
bian4Ġ bu4Ġ
hu4Ġ wei4Ġ
shang1Ġ pu4Ġ
Ġgai1Ġ nian2Ġ
da4Ġxue2Ġ xiao4Ġzhang3Ġ
Ġdi4Ġ ba1Ġ
fei4Ġ er3Ġde2Ġ
Ġzi4Ġ zhi4Ġ
3Ġyue4Ġ 15Ġri4Ġ
10Ġyue4Ġ 31Ġri4Ġ
ĠC o
Ġ3 00Ġ
Ġwei2Ġ lai2Ġ
ol l
yi3Ġxia4Ġ deĠ
teng2Ġ bao3Ġ
mo2Ġshi4Ġ zhong3Ġ
ĠĠĠR o
nai3Ġ zhi4Ġ
tuo2Ġ luo2Ġ
Ġtie3Ġ dao4Ġ
Ġgai1Ġcun1Ġ shi3Ġjian4Ġyu2Ġ
Ġshi4Ġwu1Ġke4Ġlan2Ġ deĠcun1Ġluo4Ġ
Ġ xing1Ġjian4Ġ
ĠĠĠ xian4Ġzai4Ġ
ĠĠĠ ju4Ġli2Ġ
ao4Ġ hui4Ġ
he2Ġ ying1Ġguo2Ġ
gu ai3Ġ
you3Ġ gui3Ġdian4Ġche1Ġ
xing2Ġ li3Ġ
li3Ġ sen1Ġ
zheng4Ġ jiao4Ġhui4Ġ
bei4Ġ mian4Ġ
fa1Ġ chu1ĠdeĠ
yi2Ġ dao3Ġsu4Ġ
ping2Ġ shi4Ġ
xia4Ġ zhao4Ġ
yong4Ġ yu3Ġ
jiao4Ġ hui4ĠdeĠ
wu3Ġ ji2Ġ
gao1Ġ jia1Ġsuo3Ġ
bei3Ġ ou1Ġ
ze2Ġ biao3Ġshi4Ġ
zhong3Ġ qun2Ġ
ni2Ġ ke4Ġsi1Ġ
bian4Ġ ge2Ġ
qu3Ġ sheng4Ġ
ka3Ġ deĠ
ka3Ġ tong1Ġ
Ġhuo4Ġ er3Ġ
diao4Ġ leĠ
ha1Ġ ma3Ġ
5Ġyue4Ġ 25Ġri4Ġ
cheng2Ġshi4Ġ gong1Ġgong4Ġjiao1Ġtong1Ġ
wen2Ġhua4Ġ he2Ġ
Ġming2Ġ yi4Ġ
chou2Ġ jian4Ġ
tong1Ġchang2Ġ hui4Ġ
mai3Ġ xia4Ġ
195 2Ġnian2Ġ
Ġpei4Ġ he2Ġ
Ġxing1Ġ ji4Ġ
ge4Ġzi4Ġ deĠ
ming2Ġren2Ġ tang2Ġ
Ġcu4Ġ jin4Ġ
zhi2Ġbang4Ġ da4Ġlian2Ġmeng2Ġ
B O
R I
deĠ xing4Ġ
ĠĠĠ chu1Ġ
shi4Ġ dong1Ġ
he2Ġ fei2Ġ
yi1Ġ yuan2Ġ
yu2Ġ min2Ġ
you3Ġ qu4Ġ
ti ng
zheng4Ġ tan2Ġ
bei4Ġ guang3Ġfan4Ġ
yin1Ġ zai4Ġ
jin4Ġ qi1Ġ
Ġh Ġ
zhu4Ġ guo2Ġ
shou3Ġ gao3Ġ
zhi2Ġ xian4Ġ
wu3Ġ qian1Ġ
san1Ġ si1Ġ
zhe3Ġ zhi1Ġyi1Ġ
qing1Ġ xing2Ġ
na4Ġ sen1Ġ
ni2Ġ ke1Ġ
yang2Ġ ming2Ġ
bian1Ġ xiu1Ġ
zuo4Ġwei2Ġ yi2Ġge4Ġ
Ġyuan2Ġ yin1Ġshi4Ġ
4Ġyue4Ġ 18Ġri4Ġ
Ġfu4Ġ mu3Ġ
shen3Ġ xun4Ġ
quan2Ġguo2Ġ ren2Ġda4Ġdai4Ġbiao3Ġ
song1Ġ jiang1Ġ
14 0
ya4Ġzhou1Ġ dian4Ġshi4Ġ
etac ritic
Ġ shui2Ġ
a1Ġ na4Ġ
ĠĠĠ k
zai4Ġ 2020Ġnian2Ġ
bi n4Ġ
he2Ġ zhen4Ġ
bu4Ġ xi1Ġ
bu4Ġ qu1Ġ
ji2Ġ yu3Ġ
le yĠ
le Ġta1ĠmenĠ
yi3Ġ 4Ġ
si1Ġ si1Ġzhang3Ġ
ji1Ġ fa1Ġ
xin1Ġ ji3Ġnei4Ġya4Ġ
ke4Ġ you3Ġ
jin4Ġ zhan4Ġ
xiang4Ġ wai4Ġ
quan2Ġ he2Ġ
dian4Ġ bao4Ġ
Ġzai4Ġ wei4Ġ
ben3Ġ ha1Ġgen1Ġ
xi4Ġ qu3Ġ
ke3Ġ rong2Ġna4Ġ
yuan4Ġ wang4Ġ
bian1Ġ yi4Ġ
zheng1Ġ zhi2Ġ
rong2Ġ zi1Ġ
fang2Ġ zhi4Ġ
jin3Ġ kuai4Ġ
ting1Ġ zhong4Ġ
4Ġyue4Ġ 15Ġri4Ġ
Ġgong1Ġ ji1Ġ
Ġ5 9
yong1Ġyou3Ġ deĠ
shi2Ġer4Ġ ting1Ġ
Ġ000Ġ mi3Ġ
Ġge1Ġ lun2Ġbi3Ġya4Ġ
ĠĠĠ194 2Ġnian2Ġ
ĠĠĠ194 4Ġnian2Ġ
deĠyi1Ġzuo4Ġ cheng2Ġshi4Ġ
dao3Ġshi4Ġ zhan4Ġtai2Ġ
Ġshi4Ġyi1Ġwei4Ġ mei3Ġguo2Ġ
min2Ġzhu3Ġzhu3Ġyi4Ġ ren2Ġmin2Ġgong4Ġhe2Ġguo2Ġ
b ur
e th
Ġ que1Ġfa2Ġ
deĠ cun2Ġzai4Ġ
ĠĠĠ mei2Ġti3Ġ
ĠĠĠ 13
nian2Ġ you4Ġ
bu4Ġ she4Ġ
cheng2Ġ ban4Ġ
Ġt extĠ
sheng1Ġ mu3Ġ
jun1Ġ yu3Ġ
fa1Ġ xing4Ġ
jin4Ġ chu1Ġ
xiang1Ġ jie1Ġ
xiang1Ġ rong2Ġ
fen1Ġ shou3Ġ
yan2Ġ qi1Ġ
ben3Ġ deĠ
kai1Ġ leĠ
qiu2Ġ jin4Ġ
Ġc olorĠ
qi4Ġ fen1Ġ
fu3Ġ shan1Ġ
feng1Ġ yu3Ġ
mo2Ġ zu3Ġ
6Ġ ping2Ġfang1Ġgong1Ġli3Ġ
ji3Ġ ge4Ġyue4Ġ
shi4Ġjie4Ġ ji4Ġlu4Ġ
di4Ġyi1Ġ jia1Ġ
deng1Ġ ta3Ġ
Ġp Ġ
bu4Ġtong2Ġ deĠshi4Ġ
Ġmu4Ġ di4Ġ
ri st
kai1Ġfa1Ġ zhe3Ġ
yi4Ġshu4Ġ xue2Ġyuan4Ġ
di4Ġsan1Ġ ming2Ġ
sun3Ġ hui3Ġ
xiao3Ġshi2Ġ nei4Ġ
ba4Ġ wang2Ġ
20Ġ mi3Ġ
yu2Ġ199 0Ġnian2Ġ
Ġshi4Ġwei4Ġyu2Ġmei3Ġguo2Ġ yi1Ġli4Ġnuo4Ġyi1Ġzhou1Ġ
Ġ14 7
gua4Ġ pai2Ġ
ka3Ġer3Ġ wa3Ġduo1Ġ
zhui4Ġ hui3Ġ
tuo3Ġ yuan2Ġ
Ġmei3Ġnian2Ġ ping2Ġjun1Ġjiang4Ġyu3Ġliang4Ġ
bu4Ġshi4Ġ lang2Ġ
Ġz ou1Ġ
A c
m i1Ġ
ĠĠĠ shou4Ġ
ĠĠĠ jie2Ġgou4Ġ
ĠĠĠ sui2Ġhou4Ġ
yi1Ġ qiu2Ġ
yu2Ġ ya4Ġmu4Ġ
yi4Ġ ke3Ġ
yuan2Ġ chao2Ġ
sheng1Ġ gao1Ġ
shang4Ġ chuan2Ġ
bei4Ġ li4Ġ
er2Ġ cheng2Ġwei2Ġ
hua4Ġ cheng2Ġ
dai4Ġ shen2Ġ
ye4Ġ mian4Ġ
tong2Ġ qi1Ġ
xing4Ġ yu2Ġlei4Ġ
san1Ġ ling2Ġ
Ġwei4Ġ ming2Ġ
tian1Ġ hua1Ġ
Ġzhe4Ġ shi4Ġyi1Ġ
lv4Ġ bo1Ġ
qu4Ġ chu2Ġ
tian2Ġ xian4Ġ
sĠĠĠ C
6Ġyue4Ġ 10Ġri4Ġ
Ġben3Ġ ju4Ġ
duan3Ġ tu2Ġ
cao3Ġ ben3Ġ
zhi2Ġwu4Ġ deĠ
dong4Ġhua4Ġ dian4Ġying3Ġ
ji2Ġzhong1Ġ ying2Ġ
da4Ġbu4Ġfen4Ġ deĠ
2ĠĠĠ nian2Ġ
Ġtuan2Ġ dui4Ġ
chou1Ġ xiang4Ġ
bin1Ġhai3Ġ sai1Ġna4Ġ
K P
Ġ yun4Ġshu1Ġ
Ġ fei3Ġ
shi4Ġ xi1Ġ
nian2Ġ zhong1Ġ
he2Ġ chuan1Ġ
di4Ġ ma3Ġla1Ġ
da4Ġ si4Ġ
20 Ġren2Ġ
jian4Ġ zhang3Ġ
zheng4Ġ hou4Ġ
lu4Ġ qu3Ġ
Ġshi4Ġ nei4Ġ
yan2Ġ yu3Ġ
nei4Ġ xin1Ġ
sai4Ġ dao4Ġ
ge2Ġ dou4Ġ
ĠdeĠ shuo1Ġfa3Ġ
Ġzhe4Ġ tiao2Ġ
Ġzhe4Ġ jiu4Ġshi4Ġ
jiu4Ġ xiang4Ġ
lv4Ġ bing1Ġ
ren2Ġkou3Ġ you3Ġ
bao1Ġ tai1Ġ
biao1Ġ shi2Ġ
zong1Ġ deĠ
7Ġ ping2Ġfang1Ġgong1Ġli3Ġ
Ġye3Ġ bei4Ġ
zeng1Ġ ya1Ġ
huan2Ġ zhuang4Ġ
tuo1Ġ mi3Ġer3Ġ
jia3Ġ wan2Ġ
huo4Ġde2Ġ yi1Ġmei2Ġ
Ġbei4Ġ ke4Ġ
10Ġyue4Ġ 28Ġri4Ġ
Ġshang4Ġ ying4Ġ
Ġsan1Ġ ren2Ġ
ni3Ġ deĠ
Ġgu3Ġ li4Ġ
su1Ġlian2Ġ deĠ
as eĠ
zai4Ġ200 6Ġnian2Ġ
jin4Ġbu4Ġ dang3Ġ
jue2Ġse4Ġban4Ġyan3Ġ you2Ġxi4Ġ
6 7Ġnian2Ġ
C S
e yĠ
³ Ġ
Ġ kai1Ġfang4Ġ
deĠ biao3Ġxian4Ġ
ĠĠĠ liang3Ġ
shi4Ġ shang4Ġ
he2Ġ jing1Ġji4Ġ
yi1Ġ jia4Ġ
li3Ġ tang2Ġ
shi3Ġ shi1Ġ
bing4Ġ zhi3Ġyu2Ġ
ta1Ġ ye3Ġ
yan2Ġ xi2Ġ
duo1Ġ nian2ĠdeĠ
liu2Ġ suan1Ġ
dao3Ġ ta1Ġ
zong3Ġ ji4Ġ
Ġer2Ġ zhe4Ġxie1Ġ
jiao1Ġ she4Ġ
bao4Ġ kan1Ġ
long2Ġ shi4Ġ
pei4Ġ ou3Ġ
diao4Ġ deĠ
xian3Ġ zhu4ĠdeĠ
ta3Ġ si1Ġ
lv3Ġ cheng2Ġ
di4Ġer4Ġ dai4Ġ
7Ġyue4Ġ 15Ġri4Ġ
3Ġyue4Ġ 18Ġri4Ġ
Ġsuo3Ġ you3ĠdeĠ
fa1Ġsheng1Ġ yu2Ġ
pian1Ġ hao3Ġ
Ġqian2Ġ hou4Ġ
deĠji1Ġ du1Ġ
di4Ġfang1Ġ fa3Ġyuan4Ġ
gong1Ġye4Ġ da4Ġxue2Ġ
neng2Ġgou4Ġ zai4Ġ
es tĠ
shi4Ġchang3Ġ deĠ
can2Ġ hai2Ġ
195 0Ġnian2Ġdai4Ġ
Ġni2Ġ gu3Ġla1Ġ
ma3Ġli4Ġ nuo4Ġ
indow sĠĠĠ
zhou1Ġwei2Ġ deĠ
lan4Ġ yong4Ġ
shuang1Ġda3Ġ guan4Ġjun1Ġ
DV D
shi3Ġdi4Ġ fen1Ġ
8 3
B AĠ
a pi
nian2Ġ ji4Ġ
he2Ġ wu2Ġ
zhong1Ġ bei3Ġbu4Ġ
guo2Ġ ge1Ġ
yi1Ġ te4Ġ
yue4Ġ e2Ġ
you3Ġ ji1Ġhui4Ġ
jia1Ġ ge1Ġ
de2Ġ man4Ġ
xin1Ġ cheng2Ġli4ĠdeĠ
mei3Ġ jiang3Ġ
fen1Ġ yuan4Ġ
quan2Ġ min2Ġ
lian2Ġ sheng4Ġ
zhang3Ġ kong4Ġ
wu3Ġ qu3Ġ
qing1Ġ shan1Ġ
guan3Ġ xian2Ġ
zhe4Ġ meĠ
Ġyi3Ġ you3Ġ
sheng4Ġ bao3Ġluo2Ġ
xu4Ġ zuo4Ġ
tou2Ġ shen1Ġ
wan4Ġ dun1Ġ
on d
Ġshi2Ġ shi1Ġ
ke3Ġneng2Ġ dao3Ġzhi4Ġ
Ġru2Ġ ci3Ġ
yong1Ġ zheng4Ġ
na2Ġ da4ĠdeĠ
ĠĠĠS p
Ġãģ Ĩ
hou4Ġlai2Ġ bei4Ġ
es sĠ
xi4Ġbao1Ġ deĠ
as tĠĠĠ
ĠĠĠ194 7Ġnian2Ġ
1ĠĠĠ nian2Ġ
ov eĠ
tiao3Ġzhan4Ġ sai4Ġ
AT P
peng1Ġ ji1Ġ
gong1Ġjin1Ġ ji2Ġ
zu2Ġzi4Ġzhi4Ġ zhou1Ġ
T P
Ġ shao4Ġnian2Ġ
Ġ chuan2Ġshuo1Ġ
Ġ na2Ġpo4Ġlun2Ġ
an1Ġ ji1Ġ
ĠĠĠ tie3Ġlu4Ġ
he2Ġ hei1Ġ
yu2Ġ fa3Ġguo2Ġ
cheng2Ġ ming2Ġ
gong1Ġ shui3Ġ
you3Ġ guo4Ġ
bei4Ġ li3Ġ
Ġji u1Ġ
zhan4Ġ ĠĠ
xin1Ġ nian2Ġ
min2Ġ ying2Ġ
wen2Ġ li3Ġ
Ġyue4Ġ dui4Ġ
deng3Ġ zhan4Ġ
chang2Ġ cheng2Ġ
kou3Ġ deĠ
mei2Ġ neng2Ġ
tian1Ġ shui3Ġ
hua2Ġ shi4Ġ
shui3Ġ jing1Ġ
shui3Ġ bian3Ġ
pu3Ġ xian4Ġ
Ġch ai1Ġ
1Ġyue4Ġ 31Ġri4Ġ
di4Ġqu1Ġ dai4Ġbiao3Ġ
man4Ġ gu3Ġ
zeng1Ġ sun1Ġ
Ġxi1Ġ meng2Ġ
bai3Ġ fen1Ġ
zuo3Ġ an4Ġ
lou2Ġ yu3Ġ
pi2Ġ ai1Ġer3Ġ
Ġba1Ġ er3Ġ
za2Ġ jiao1Ġ
Ġshi4Ġwei4Ġyu2Ġ ri4Ġben3Ġ
14Ġ ren2Ġ
195 4Ġnian2Ġ
Ġ2010Ġnian2Ġ ren2Ġkou3Ġ
ru4Ġqin1Ġ wu1Ġke4Ġlan2Ġ
cai2Ġzheng4Ġ bu4Ġ
Ġgai1Ġsheng3Ġfen4Ġwei4Ġfa3Ġguo2Ġ xi1Ġbei3Ġbu4Ġ
tuo4Ġ pu1Ġ
seng1Ġ lv3Ġ
II IĠ
Ġgai1Ġcun1Ġ shi3Ġjian4Ġ
li3Ġcha2Ġ de2Ġ
ĠÐ¾ ĠÐ
8 2
R A
Î ±
Ġ na2Ġ
ĠĠĠ bo1Ġ
ĠĠĠ lei2Ġ
yuan2Ġ zhang1Ġ
ji1Ġ chu1Ġ
zhi1Ġ shen2Ġ
jie2Ġ wei3Ġ
xing4Ġ lian4Ġ
zu3Ġ mu3Ġ
liu2Ġ xia4ĠdeĠ
si4Ġ qing1Ġ
bian4Ġ hui4Ġ
Ġyi3Ġ ji4Ġnian4Ġ
bo1Ġ li4Ġsi1Ġ
Ġzhong1Ġ nian2Ġ
fang2Ġ yi4Ġ
deĠyi1Ġ shu3Ġ
hong2Ġ qiao2Ġ
deĠyi2Ġge4Ġ cun1Ġ
chao1Ġ ren2Ġ
Ġp eng1Ġ
Ġzi4Ġ dong4Ġ
Ġzi4Ġ cheng1Ġ
sui2Ġ hou4ĠdeĠ
wang4Ġ lu4Ġ
5Ġyue4Ġ 8Ġri4Ġ
gai4Ġ kuang4Ġ
deĠdi4Ġ li3Ġ
Ġcheng2Ġ du1Ġ
xiong2Ġ xing4Ġ
yĠĠĠ of
Ġwu3Ġ nian2Ġ
cang2Ġ shu1Ġ
Ġãĥ ĥ
194 3Ġnian2Ġ
Ġai1Ġ er3Ġ
Ġtiao2Ġ zheng3Ġ
yan2Ġshen1Ġ dao4Ġ
Ġer2Ġgai1Ġdi4Ġ zui4Ġgao1Ġdian3Ġwei4Ġ
da4Ġshi1Ġ sai4Ġ
ba1Ġla1Ġ gui1Ġ
Ġer2Ġgai1Ġdi4Ġzui4Ġgao1Ġdian3Ġwei4Ġ hai3Ġba2Ġgao1Ġdu4Ġ
L U
b a
ĠĠĠ hei1Ġ
he2Ġ fei1Ġ
guo2Ġ ying2Ġ
ren2Ġ shi4ĠdeĠ
yi1Ġ ben3Ġ
bei4Ġ ren2Ġ
zi4Ġ deĠ
fu4Ġ zai4Ġ
dai4Ġ zou3Ġ
ping2Ġ dong1Ġ
zui4Ġ kuai4Ġ
te4Ġ na4Ġ
ru4Ġ zhu4Ġ
jie1Ġ lian2Ġ
shou4Ġ fang3Ġ
qi3Ġ jiang4Ġ
zu3Ġ zhuang1Ġ
Ġwei4Ġ zhi4Ġ
ba1Ġ de2Ġ
man4Ġ yan2Ġ
hu2Ġ shi4Ġ
wa3Ġ jie3Ġ
le4Ġ si1Ġ
lei1Ġ si1Ġ
Ġbei4Ġ po4Ġ
7Ġyue4Ġ 16Ġri4Ġ
Ġyuan2Ġ yin1Ġ
Ġshi3Ġ di4Ġ
fa1Ġsheng1Ġ chong1Ġtu1Ġ
Ġji1Ġ ji2Ġ
Ġqian2Ġ shen1Ġwei4Ġ
ya3Ġ tu2Ġ
at ur
lian2Ġsai4Ġ deĠ
chu1Ġban3Ġ wu4Ġ
hun4Ġ shuang1Ġ
Ġdao3Ġ shang4Ġ
194 0Ġnian2Ġ
xi1Ġla4Ġ yu3Ġ
ru i3Ġ
ĠÃ© Ġ
ool Ġ
M ac
O NĠ
Ġ yao1Ġ
ĠĠĠ lan2Ġ
ĠĠĠ ding4Ġyi4Ġ
shi2Ġ shu4Ġ
cheng2Ġ hou4Ġ
da4Ġ ying1Ġ
ji1Ġ zhun3Ġ
ri4Ġ shi4Ġ
fu4Ġ mi4Ġshu1Ġzhang3Ġ
nan2Ġ xian4Ġ
qi1Ġ dai4Ġ
quan2Ġ shen1Ġ
wen2Ġ ren2Ġ
dian4Ġ xun4Ġ
ma3Ġ mu4Ġ
tong2Ġ yang4ĠdeĠ
deng3Ġ yin1Ġsu4Ġ
hai3Ġ deĠ
san1Ġ wei2Ġ
jin1Ġ shi4Ġ
Ġdan4Ġ ta1ĠdeĠ
feng1Ġ shi4Ġ
shui3Ġ wei4Ġ
jiao1Ġ dao4Ġ
dou1Ġ hen3Ġ
lun2Ġ tai1Ġ
cai2Ġ zhi4Ġ
1Ġyue4Ġ 10Ġri4Ġ
ha1Ġ yi1Ġ
jian4Ġzhu4Ġ deĠ
Ġbei3Ġ fang1Ġ
jiao4Ġyu4Ġ deĠ
yin4Ġdu4Ġ deĠ
bang4Ġ wan3Ġ
chan3Ġpin3Ġ deĠ
Ġ190 6Ġnian2Ġ
Ġyu2Ġ201 7Ġnian2Ġ
xi1Ġyin3Ġ li4Ġ
ĠĠĠyou3Ġ xie1Ġ
hui2Ġyi4Ġ lu4Ġ
yst em
xia4Ġlang3Ġde2Ġ sheng3Ġ
a1Ġken3Ġse4Ġ zhou1Ġ
stag ram
4 00
Y P
c e
o sĠĠĠ
1Ġ fen1Ġ
wei4Ġ si4Ġ
he2Ġ zi1Ġ
zhong1Ġ xiao4Ġ
yi1Ġ bing4Ġ
li4Ġ zhi4Ġ
yi4Ġ yu3Ġ
ji1Ġ bu4Ġ
zhi1Ġ suo3Ġyi3Ġ
xi1Ġ ou1Ġ
xi1Ġ xiang1Ġ
fa3Ġ er3Ġci2Ġ
qian2Ġ li4Ġ
shi1Ġ shi1Ġzhang3Ġ
bao3Ġ mi4Ġ
Ġqi2Ġ zai4Ġ
da2Ġ si1Ġ
tong3Ġ ling3Ġ
Ġyi3Ġ hou4Ġ
gu4Ġ ding4ĠdeĠ
Ġyi4Ġ yuan2Ġ
zhu1Ġ ge3Ġ
3Ġyue4Ġ 28Ġri4Ġ
12Ġyue4Ġ 8Ġri4Ġ
ning2Ġ shi4Ġ
qiang1Ġ zhi1Ġ
jue2Ġding4Ġ zai4Ġ
kai3Ġ te4Ġ
Ġbo1Ġ li4Ġ
Ġ17 0
Ġsheng4Ġ jing1Ġ
yuan2Ġyin1Ġ shi4Ġ
shuai1Ġ jiao3Ġ
lv3Ġke4Ġ lie4Ġche1Ġ
lian2Ġhe2Ġguo2Ġ jiao4Ġke1Ġwen2Ġzu3Ġzhi1Ġ
da3Ġji1Ġ lv4Ġ
ri4Ġchang2Ġ sheng1Ġhuo2Ġ
Ġjiang1Ġsu1Ġ sheng3Ġ
fang4Ġshe4Ġ xing4Ġ
6 3Ġnian2Ġ
E PĠ
O pen
S D
a geĠ
h a2Ġ
p ang4Ġ
2Ġ fen1Ġ
zhong1Ġ xing2Ġ
xian4Ġ shi2ĠdeĠ
ji1Ġ zhan4Ġ
ming2Ġ bai2Ġ
chu1Ġ pin3Ġ
xin1Ġ hui4Ġ
ta1Ġ hai2Ġ
shou3Ġ jun1Ġ
suo3Ġ jian4Ġ
fu2Ġ yong4Ġ
ze2Ġ er3Ġ
yang2Ġ deĠ
sheng4Ġ fu4Ġ
gang3Ġ dao3Ġ
tou2Ġ shi4Ġ
zheng1Ġ zhan4Ġ
men2Ġ kan3Ġ
xin4Ġ zhong1Ġ
chen2Ġ shu4Ġ
gu4Ġ gong1Ġ
man4Ġ en1Ġ
dian4Ġshi4Ġ wang3Ġ
Ġp ao3Ġ
7Ġyue4Ġ 20Ġri4Ġ
7Ġyue4Ġ 31Ġri4Ġ
ya1Ġ dao3Ġ
gong1Ġcheng2Ġ xue2Ġyuan4Ġ
er4Ġshi2Ġ si4Ġnian2Ġ
ge2Ġming4Ġ dang3Ġ
nv3Ġzi3Ġ tuan2Ġti3Ġ
il Ġ
he2Ġbing4Ġ er2Ġcheng2Ġ
Ġmi3Ġ lei1Ġ
ban4Ġdao3Ġ ti3Ġ
jian4Ġcheng2Ġ tong1Ġche1Ġ
yu2Ġ198 8Ġnian2Ġ
gai3Ġbian1Ġ cheng2Ġ
CO V
de2Ġpiao4Ġ lv4Ġ
Ġwei4Ġyu2Ġfa3Ġguo2Ġao4Ġ ke4Ġxi1Ġta3Ġni2Ġda4Ġqu1Ġ
you4Ġer2Ġ yuan2Ġ
l yĠ
Ġ biao3Ġyan3Ġ
an tĠ
ĠĠĠ kai1Ġ
ĠĠĠ yue4Ġtai2Ġ
he2Ġ shi4ĠdeĠ
yi3Ġ zhi1ĠdeĠ
dao4Ġ shu3Ġ
er3Ġ ha1Ġ
ke4Ġ yi4Ġ
yu4Ġ he2Ġ
zhu3Ġ wei3Ġ
fen1Ġ gong1Ġsi1Ġ
lian2Ġ shu3Ġ
zhi2Ġ zhao4Ġ
ye4Ġ yan2Ġ
duo1Ġ er3Ġduo1Ġnie4Ġ
shi1Ġ jia1Ġ
jie1Ġ zhu4Ġ
bei3Ġ wei4Ġ
shou4Ġ chu1Ġ
san1Ġ zuo4Ġ
shu1Ġ ji1Ġ
mi3Ġ li4Ġ
Ġqi2Ġ ta1ĠdeĠ
tian1Ġ e2Ġ
zhong1Ġguo2Ġ zheng4Ġfu3Ġ
men2Ġ shi4Ġ
mo2Ġ tian1Ġ
Ġzhong1Ġ xue2Ġ
shuang1Ġ ren2Ġ
Ġjiang1Ġ ta1Ġ
11Ġyue4Ġ 15Ġri4Ġ
Ġtong1Ġ cheng1Ġ
er4Ġshi2Ġ san1Ġnian2Ġ
ĠR e
gui1Ġmo2Ġ deĠ
chuang4Ġzao4Ġ leĠ
rou2Ġ dao4Ġ
l os
n ao2Ġ
Ġ biao3Ġxian4Ġ
Ġ yan3Ġchang4Ġ
yi1Ġ kuan3Ġ
ji2Ġ yu2Ġ
ji2Ġ you3Ġ
yu3Ġ nan2Ġ
sheng1Ġ dai4Ġ
fu4Ġ shu4Ġ
yu4Ġ zhong1Ġ
mei3Ġ shi4Ġ
shou3Ġ zhi3Ġ
shou3Ġ chang3Ġ
zhang3Ġ zhe3Ġ
hai3Ġ bin1Ġ
Ġbing4Ġ zui4Ġzhong1Ġ
ban4Ġ zou4Ġ
you4Ġ nian2Ġ
shang1Ġ xue2Ġyuan4Ġ
ling2Ġ huo2Ġ
di3Ġ zhong1Ġceng2Ġshui3Ġyu4Ġ
bai3Ġ he2Ġ
11Ġyue4Ġ 11Ġri4Ġ
pian1Ġ li2Ġ
Ġmu4Ġ di4Ġshi4Ġ
Ġgen1Ġ sui2Ġ
ji2Ġtuan2Ġ deĠ
ĠĠĠC on
sou1Ġ ji2Ġ
196 5Ġnian2Ġ
195 6Ġnian2Ġ
Ġ190 8Ġnian2Ġ
zhi4Ġ201 3Ġnian2Ġ
ji1Ġhu1Ġ mei2Ġyou3Ġ
lian3Ġ shu1Ġ
zi4Ġshen1Ġ deĠ
Ġqi1Ġxi1Ġzai4Ġ di3Ġceng2Ġshui3Ġyu4Ġ
nian2Ġdai4Ġ wei4Ġ
yu4Ġgao4Ġ pian4Ġ
sa4Ġzhu1Ġsai1Ġ zhou1Ġ
A KB
E X
i tĠĠĠ
2Ġ ping2Ġfang1Ġgong1Ġli3Ġ
an tĠĠĠ
ĠĠĠ na4Ġ
yi1Ġ ban1Ġ
ji2Ġ zhen4Ġ
xi1Ġ ri4Ġ
xin1Ġ ren4Ġ
fa1Ġ jiao4Ġ
quan2Ġ gang3Ġ
Ġzai4Ġ jin1Ġ
te4Ġ se4ĠdeĠ
jie1Ġ xia4Ġlai2Ġ
sha1Ġ er3Ġ
2Ġyue4Ġ 28Ġri4Ġ
fei4Ġ li4Ġ
xia2Ġ shi4Ġ
zhu1Ġ li4Ġ
Ġzhi1Ġ yi4Ġ
zhu3Ġyao4Ġ wei4Ġ
3Ġyue4Ġ 26Ġri4Ġ
zheng3Ġ xiu1Ġ
Ġzhu3Ġ jue2Ġ
qiang1Ġ xie4Ġ
Ġdeng3Ġ ren2Ġ
ya3Ġ ge4Ġ
zhao1Ġ ri4Ġ
zhao1Ġ dai4Ġ
zhao1Ġ shou1Ġ
chuang4Ġzuo4Ġ leĠ
fan3Ġdui4Ġ dang3Ġ
xiao3Ġshuo1Ġ jia1Ġ
dian1Ġ feng1Ġ
Ġque4Ġ ding4Ġ
yu2Ġ198 9Ġnian2Ġ
pu2Ġtao2Ġ jiu3Ġ
lou4Ġ dong4Ġ
dui4Ġying4Ġ deĠ
ri4Ġnei4Ġ wa3Ġ
A 1Ġ
F CĠ
S B
u li
Î ²Ġ
4Ġ li4Ġ
ai4Ġ he2Ġhua2Ġ
shi4Ġ zhe3Ġ
zhi4Ġ ĠĠ
zheng4Ġ ren2Ġ
ju4Ġ xing2Ġ
wen2Ġ dang4Ġ
Ġta1Ġ you2Ġ
te4Ġ quan2Ġ
fu2Ġ yu2Ġ
tong2Ġ lei4Ġ
xiao3Ġ qu1Ġ
zu3Ġ dang3Ġ
da2Ġ lai4Ġ
shui3Ġ shou3Ġ
jiu4Ġ chu1Ġ
ge1Ġ mi2Ġ
cha2Ġ he2Ġ
Ġbu4Ġ dui4Ġ
hui2Ġ bao4Ġ
cai2Ġ kai1Ġshi3Ġ
da4Ġxue2Ġ xue2Ġxi2Ġ
Ġyu2Ġ 2010Ġnian2Ġ
Ġtong2Ġ yi1Ġ
Ġdong1Ġ han4Ġ
chi3Ġ du4Ġ
Ġbei3Ġ hai3Ġdao4Ġ
shang1Ġye4Ġ yin2Ġhang2Ġ
deĠcheng2Ġ du4Ġ
Ġni2Ġ ke4Ġ
jiao4Ġke1Ġ shu1Ġ
Ġqiong2Ġ si1Ġ
sheng1Ġchan3Ġzong3Ġ zhi2Ġ
a ir
Ġ ar
3Ġ hao4Ġxian4Ġ
deĠ zi4Ġ
deĠ hu2Ġpo1Ġ
a1Ġ sa4Ġ
ĠĠĠ bi4Ġye4Ġyu2Ġ
ĠĠĠ toĠĠĠ
bu4Ġ que4Ġding4Ġ
Ġnian2Ġ qing1Ġ
shi3Ġ ming4Ġ
dui4Ġ jue2Ġ
Ġg ou3Ġ
hua4Ġ zhuang1Ġ
quan2Ġ sheng3Ġ
dian4Ġ pu4Ġ
[...]
