{
  "version": "1.0",
  "truncation": null,
  "padding": null,
  "added_tokens": [],
  "normalizer": null,
  "pre_tokenizer": {
    "type": "Sequence",
    "pretokenizers": [
      {
        "type": "Split",
        "pattern": {
          "Regex": "[^\\p{L}\\p{N}\\s]+|[\\r\\n]+"
        },
        "behavior": "Isolated",
        "invert": false
      },
      {
        "type": "ByteLevel",
        "add_prefix_space": false,
        "trim_offsets": true,
        "use_regex": false
      }
    ]
  },
  "post_processor": null,
  "decoder": null,
  "model": {
    "type": "BPE",
    "dropout": null,
    "unk_token": null,
    "continuing_subword_prefix": null,
    "end_of_word_suffix": null,
    "fuse_unk": false,
    "byte_fallback": false,
    "ignore_merges": false,
    "vocab": {
      "!": 0,
      "\"": 1,
      "#": 2,
      "$": 3,
      "%": 4,
      "&": 5,
      "'": 6,
      "(": 7,
      ")": 8,
      "*": 9,
      "+": 10,
      ",": 11,
      "-": 12,
      ".": 13,
      "/": 14,
      "0": 15,
      "1": 16,
      "2": 17,
      "3": 18,
      "4": 19,
      "5": 20,
      "6": 21,
      "7": 22,
      "8": 23,
      "9": 24,
      ":": 25,
      ";": 26,
      "=": 27,
      "?": 28,
      "@": 29,
      "A": 30,
      "B": 31,
      "C": 32,
      "D": 33,
      "E": 34,
      "F": 35,
      "G": 36,
      "H": 37,
      "I": 38,
      "J": 39,
      "K": 40,
      "L": 41,
      "M": 42,
      "N": 43,
      "O": 44,
      "P": 45,
      "Q": 46,
      "R": 47,
      "S": 48,
      "T": 49,
      "U": 50,
      "V": 51,
      "W": 52,
      "X": 53,
      "Y": 54,
      "Z": 55,
      "[": 56,
      "\\": 57,
      "]": 58,
      "^": 59,
      "_": 60,
      "`": 61,
      "a": 62,
      "b": 63,
      "c": 64,
      "d": 65,
      "e": 66,
      "f": 67,
      "g": 68,
      "h": 69,
      "i": 70,
      "j": 71,
      "k": 72,
      "l": 73,
      "m": 74,
      "n": 75,
      "o": 76,
      "p": 77,
      "q": 78,
      "r": 79,
      "s": 80,
      "t": 81,
      "u": 82,
      "v": 83,
      "w": 84,
      "x": 85,
      "y": 86,
      "z": 87,
      "|": 88,
      "~": 89,
      "¡": 90,
      "¢": 91,
      "£": 92,
      "¤": 93,
      "¥": 94,
      "¦": 95,
      "§": 96,
      "¨": 97,
      "©": 98,
      "ª": 99,
      "«": 100,
      "¬": 101,
      "®": 102,
      "¯": 103,
      "°": 104,
      "±": 105,
      "²": 106,
      "³": 107,
      "´": 108,
      "µ": 109,
      "¶": 110,
      "·": 111,
      "¸": 112,
      "¹": 113,
      "º": 114,
      "»": 115,
      "¼": 116,
      "½": 117,
      "¾": 118,
      "¿": 119,
      "Â": 120,
      "Ã": 121,
      "Ä": 122,
      "Å": 123,
      "Æ": 124,
      "Ç": 125,
      "È": 126,
      "É": 127,
      "Ê": 128,
      "Ë": 129,
      "Ì": 130,
      "Í": 131,
      "Î": 132,
      "Ï": 133,
      "Ð": 134,
      "Ñ": 135,
      "Ò": 136,
      "Ó": 137,
      "Ô": 138,
      "Õ": 139,
      "Ö": 140,
      "×": 141,
      "Ø": 142,
      "Ù": 143,
      "Ú": 144,
      "Û": 145,
      "Ü": 146,
      "Þ": 147,
      "ß": 148,
      "à": 149,
      "á": 150,
      "â": 151,
      "ã": 152,
      "ä": 153,
      "ê": 154,
      "ë": 155,
      "ì": 156,
      "í": 157,
      "î": 158,
      "ï": 159,
      "ð": 160,
      "ñ": 161,
      "Ċ": 162,
      "Ġ": 163,
      "ġ": 164,
      "Ģ": 165,
      "ģ": 166,
      "Ĥ": 167,
      "ĥ": 168,
      "Ħ": 169,
      "ħ": 170,
      "Ĩ": 171,
      "ĩ": 172,
      "Ī": 173,
      "ī": 174,
      "Ĭ": 175,
      "ĭ": 176,
      "Į": 177,
      "į": 178,
      "İ": 179,
      "ı": 180,
      "Ĳ": 181,
      "ĳ": 182,
      "Ĵ": 183,
      "ĵ": 184,
      "Ķ": 185,
      "ķ": 186,
      "ĸ": 187,
      "Ĺ": 188,
      "ĺ": 189,
      "Ļ": 190,
      "ļ": 191,
      "Ľ": 192,
      "ľ": 193,
      "Ŀ": 194,
      "ŀ": 195,
      "Ł": 196,
      "ł": 197,
      "Ń": 198,
      "4Ġ": 199,
      "2Ġ": 200,
      "1Ġ": 201,
      "ng": 202,
      "3Ġ": 203,
      "i4Ġ": 204,
      "an": 205,
      "sh": 206,
      "zh": 207,
      "ng1Ġ": 208,
      "ji": 209,
      "u4Ġ": 210,
      "ng2Ġ": 211,
      "ĠĠ": 212,
      "i2Ġ": 213,
      "ao": 214,
      "xi": 215,
      "ng4Ġ": 216,
      "an2Ġ": 217,
      "i3Ġ": 218,
      "i1Ġ": 219,
      "de": 220,
      "u3Ġ": 221,
      "an4Ġ": 222,
      "e4Ġ": 223,
      "en": 224,
      "ch": 225,
      "uo": 226,
      "deĠ": 227,
      "u2Ġ": 228,
      "ng3Ġ": 229,
      "an1Ġ": 230,
      "e2Ġ": 231,
      "ai4Ġ": 232,
      "u1Ġ": 233,
      "ong1Ġ": 234,
      "a1Ġ": 235,
      "ĠĠĠ": 236,
      "ãĢ": 237,
      "shi4Ġ": 238,
      "ei4Ġ": 239,
      "ao4Ġ": 240,
      "ian2Ġ": 241,
      "a4Ġ": 242,
      "yu": 243,
      "ang1Ġ": 244,
      "yo": 245,
      "an3Ġ": 246,
      "n1Ġ": 247,
      "hu": 248,
      "ang4Ġ": 249,
      "nian2Ġ": 250,
      "en2Ġ": 251,
      "li": 252,
      "ang3Ġ": 253,
      "eng2Ġ": 254,
      "uo4Ġ": 255,
      "uo2Ġ": 256,
      "wei4Ġ": 257,
      "mi": 258,
      "ao3Ġ": 259,
      "zai4Ġ": 260,
      "ãĢģ": 261,
      "bi": 262,
      "qi": 263,
      "ang2Ġ": 264,
      "e1Ġ": 265,
      "he2Ġ": 266,
      "yi": 267,
      "eng1Ġ": 268,
      "zhong1Ġ": 269,
      "er": 270,
      "bu4Ġ": 271,
      "ou4Ġ": 272,
      "a3Ġ": 273,
      "e3Ġ": 274,
      "n4Ġ": 275,
      "shi2Ġ": 276,
      "di4Ġ": 277,
      "guo2Ġ": 278,
      "ai2Ġ": 279,
      "ui4Ġ": 280,
      "ren2Ġ": 281,
      "ao1Ġ": 282,
      "xu": 283,
      "yi1Ġ": 284,
      "n2Ġ": 285,
      "ong2Ġ": 286,
      "yu2Ġ": 287,
      "gu": 288,
      "li4Ġ": 289,
      "zhi4Ġ": 290,
      "di": 291,
      "we": 292,
      "en4Ġ": 293,
      "cheng2Ġ": 294,
      "ong4Ġ": 295,
      "yi4Ġ": 296,
      "gong1Ġ": 297,
      "ji2Ġ": 298,
      "eng4Ġ": 299,
      "en1Ġ": 300,
      "yue4Ġ": 301,
      "you3Ġ": 302,
      "Ġnian2Ġ": 303,
      "yuan2Ġ": 304,
      "da4Ġ": 305,
      "a2Ġ": 306,
      "le": 307,
      "ji4Ġ": 308,
      "20": 309,
      "yi3Ġ": 310,
      "ju": 311,
      "ai1Ġ": 312,
      "pi": 313,
      "xian4Ġ": 314,
      "ou1Ġ": 315,
      "jia1Ġ": 316,
      "Ġt": 317,
      "si1Ġ": 318,
      "xing2Ġ": 319,
      "ei3Ġ": 320,
      "Ġzh": 321,
      "yu3Ġ": 322,
      "ji1Ġ": 323,
      "ri4Ġ": 324,
      "hou4Ġ": 325,
      "li3Ġ": 326,
      "ou3Ġ": 327,
      "ai3Ġ": 328,
      "Ġd": 329,
      "ti": 330,
      "wei2Ġ": 331,
      "hui4Ġ": 332,
      "19": 333,
      "ong3Ġ": 334,
      "zhi1Ġ": 335,
      "qi2Ġ": 336,
      "uan2Ġ": 337,
      "dao4Ġ": 338,
      "ming2Ġ": 339,
      "xi1Ġ": 340,
      "ao2Ġ": 341,
      "jian4Ġ": 342,
      "xue2Ġ": 343,
      "chu1Ġ": 344,
      "ge4Ġ": 345,
      "zuo4Ġ": 346,
      "zheng4Ġ": 347,
      "uo1Ġ": 348,
      "sheng1Ġ": 349,
      "you2Ġ": 350,
      "uo3Ġ": 351,
      "qu1Ġ": 352,
      "shang4Ġ": 353,
      "leĠ": 354,
      "en3Ġ": 355,
      "de2Ġ": 356,
      "bei4Ġ": 357,
      "shi3Ġ": 358,
      "dui4Ġ": 359,
      "n3Ġ": 360,
      "Ġji": 361,
      "zhan4Ġ": 362,
      "xin1Ġ": 363,
      "jun1Ġ": 364,
      "zhu": 365,
      "er3Ġ": 366,
      "she4Ġ": 367,
      "ren4Ġ": 368,
      "fa1Ġ": 369,
      "wu4Ġ": 370,
      "bing4Ġ": 371,
      "ke4Ġ": 372,
      "er2Ġ": 373,
      "lu4Ġ": 374,
      "yi2Ġ": 375,
      "shu4Ġ": 376,
      "ju4Ġ": 377,
      "zi4Ġ": 378,
      "yin1Ġ": 379,
      "fu4Ġ": 380,
      "fang1Ġ": 381,
      "nan2Ġ": 382,
      "Ġg": 383,
      "hua4Ġ": 384,
      "dai4Ġ": 385,
      "ping2Ġ": 386,
      "xia4Ġ": 387,
      "ta1Ġ": 388,
      "lai2Ġ": 389,
      "yong4Ġ": 390,
      "0Ġ": 391,
      "jin4Ġ": 392,
      "guan1Ġ": 393,
      "yu4Ġ": 394,
      "zhu3Ġ": 395,
      "ãĢĭ": 396,
      "ãĢĬ": 397,
      "zhou1Ġ": 398,
      "Ġshi4Ġ": 399,
      "fa3Ġ": 400,
      "mei3Ġ": 401,
      "jing1Ġ": 402,
      "Ġb": 403,
      "Â·": 404,
      "Ġh": 405,
      "zhu4Ġ": 406,
      "jian1Ġ": 407,
      "xiang1Ġ": 408,
      "xiang4Ġ": 409,
      "min2Ġ": 410,
      "dong4Ġ": 411,
      "qi1Ġ": 412,
      "fen1Ġ": 413,
      "shou3Ġ": 414,
      "quan2Ġ": 415,
      "wen2Ġ": 416,
      "yan2Ġ": 417,
      "suo3Ġ": 418,
      "qian2Ġ": 419,
      "dian4Ġ": 420,
      "bo": 421,
      "zui4Ġ": 422,
      "Ġzai4Ġ": 423,
      "ben3Ġ": 424,
      "kai1Ġ": 425,
      "lian2Ġ": 426,
      "Ġta1Ġ": 427,
      "jiao4Ġ": 428,
      "zhi2Ġ": 429,
      "xi4Ġ": 430,
      "ke3Ġ": 431,
      "eng3Ġ": 432,
      "ei1Ġ": 433,
      "te4Ġ": 434,
      "mu4Ġ": 435,
      "ye4Ġ": 436,
      "shu": 437,
      "fu2Ġ": 438,
      "ma3Ġ": 439,
      "ye3Ġ": 440,
      "tong2Ġ": 441,
      "qiu2Ġ": 442,
      "ãĢĮ": 443,
      "ãĢį": 444,
      "jiang1Ġ": 445,
      "du4Ġ": 446,
      "duo1Ġ": 447,
      "Ġyue4Ġ": 448,
      "ya4Ġ": 449,
      "Ġc": 450,
      "ou2Ġ": 451,
      "huo4Ġ": 452,
      "un2Ġ": 453,
      "mian4Ġ": 454,
      "jie2Ġ": 455,
      "shi1Ġ": 456,
      "nei4Ġ": 457,
      "Ġs": 458,
      "du": 459,
      "xing4Ġ": 460,
      "zhi3Ġ": 461,
      "201": 462,
      "deng3Ġ": 463,
      "yao4Ġ": 464,
      "zhang3Ġ": 465,
      "che1Ġ": 466,
      "sai4Ġ": 467,
      "guo4Ġ": 468,
      "mo": 469,
      "ru4Ġ": 470,
      "jie1Ġ": 471,
      "wu3Ġ": 472,
      "gao1Ġ": 473,
      "ku": 474,
      "ding4Ġ": 475,
      "chang2Ġ": 476,
      "bei3Ġ": 477,
      "Ġri4Ġ": 478,
      "dong1Ġ": 479,
      "la1Ġ": 480,
      "biao3Ġ": 481,
      "ge2Ġ": 482,
      "shou4Ġ": 483,
      "shan1Ġ": 484,
      "chang3Ġ": 485,
      "lv": 486,
      "ze2Ġ": 487,
      "hai3Ġ": 488,
      "Ġbing4Ġ": 489,
      "ke1Ġ": 490,
      "ci4Ġ": 491,
      "neng2Ġ": 492,
      "er4Ġ": 493,
      "wai4Ġ": 494,
      "ei2Ġ": 495,
      "Ġ19": 496,
      "chu": 497,
      "tai2Ġ": 498,
      "qi3Ġ": 499,
      "ti3Ġ": 500,
      "zi": 501,
      "jie4Ġ": 502,
      "kou3Ġ": 503,
      "san1Ġ": 504,
      "xiao3Ġ": 505,
      "ĠdeĠ": 506,
      "zu3Ġ": 507,
      "jue2Ġ": 508,
      "lin2Ġ": 509,
      "liu2Ġ": 510,
      "ni": 511,
      "sheng3Ġ": 512,
      "ying1Ġ": 513,
      "dao3Ġ": 514,
      "lan2Ġ": 515,
      "luo2Ġ": 516,
      "gong4Ġ": 517,
      "Ġ1": 518,
      "jin1Ġ": 519,
      "ti2Ġ": 520,
      "zhe3Ġ": 521,
      "si4Ġ": 522,
      "shu3Ġ": 523,
      "yi2Ġge4Ġ": 524,
      "Ġdan4Ġ": 525,
      "200": 526,
      "lie4Ġ": 527,
      "qi4Ġ": 528,
      "cheng1Ġ": 529,
      "shu1Ġ": 530,
      "yuan4Ġ": 531,
      "zhong4Ġ": 532,
      "zhen4Ġ": 533,
      "dan1Ġ": 534,
      "fu3Ġ": 535,
      "Ġwei4Ġ": 536,
      "zhong3Ġ": 537,
      "feng1Ġ": 538,
      "mi3Ġ": 539,
      "qing1Ġ": 540,
      "shen1Ġ": 541,
      "wang2Ġ": 542,
      "ci3Ġ": 543,
      "yun4Ġ": 544,
      "guan3Ġ": 545,
      "fei1Ġ": 546,
      "bi3Ġ": 547,
      "ba1Ġ": 548,
      "liang3Ġ": 549,
      "tong1Ġ": 550,
      "mei2Ġ": 551,
      "fen4Ġ": 552,
      "su": 553,
      "yan3Ġ": 554,
      "wei3Ġ": 555,
      "bao3Ġ": 556,
      "zong3Ġ": 557,
      "xuan3Ġ": 558,
      "Ġqi2Ġ": 559,
      "xiao4Ġ": 560,
      "na4Ġ": 561,
      "tai4Ġ": 562,
      "liang4Ġ": 563,
      "tian1Ġ": 564,
      "Ġer2Ġ": 565,
      "zu2Ġ": 566,
      "ni2Ġ": 567,
      "wu2Ġ": 568,
      "zhong1Ġguo2Ġ": 569,
      "hua2Ġ": 570,
      "da2Ġ": 571,
      "yue1Ġ": 572,
      "gu3Ġ": 573,
      "tong3Ġ": 574,
      "ying3Ġ": 575,
      "bian4Ġ": 576,
      "Ġzhe4Ġ": 577,
      "xing1Ġ": 578,
      "zhe4Ġ": 579,
      "jing4Ġ": 580,
      "shui3Ġ": 581,
      "ziĠ": 582,
      "yang2Ġ": 583,
      "jiao1Ġ": 584,
      "Ġyi3Ġ": 585,
      "men": 586,
      "bao4Ġ": 587,
      "Ġr": 588,
      "su4Ġ": 589,
      "dian3Ġ": 590,
      "jiu4Ġ": 591,
      "bo1Ġ": 592,
      "bian1Ġ": 593,
      "wang3Ġ": 594,
      "qu3Ġ": 595,
      "0Ġnian2Ġ": 596,
      "hao4Ġ": 597,
      "chan3Ġ": 598,
      "mei3Ġguo2Ġ": 599,
      "zi1Ġ": 600,
      "qu": 601,
      "chuan2Ġ": 602,
      "ban4Ġ": 603,
      "nv": 604,
      "sheng4Ġ": 605,
      "ceng2Ġ": 606,
      "se4Ġ": 607,
      "5Ġ": 608,
      "xu4Ġ": 609,
      "pu3Ġ": 610,
      "ge1Ġ": 611,
      "dang1Ġ": 612,
      "nv3Ġ": 613,
      "ling4Ġ": 614,
      "luo4Ġ": 615,
      "bo2Ġ": 616,
      "1Ġnian2Ġ": 617,
      "you4Ġ": 618,
      "can1Ġ": 619,
      "gai1Ġ": 620,
      "cha2Ġ": 621,
      "bi4Ġ": 622,
      "Ġyou2Ġ": 623,
      "chi2Ġ": 624,
      "gang3Ġ": 625,
      "5Ġnian2Ġ": 626,
      "2Ġnian2Ġ": 627,
      "lv4Ġ": 628,
      "qian1Ġ": 629,
      "4Ġnian2Ġ": 630,
      "ren2Ġkou3Ġ": 631,
      "eĠ": 632,
      "tu2Ġ": 633,
      "li2Ġ": 634,
      "ce4Ġ": 635,
      "3Ġnian2Ġ": 636,
      "hu4Ġ": 637,
      "8Ġnian2Ġ": 638,
      "kuo4Ġ": 639,
      "lu": 640,
      "sha1Ġ": 641,
      "tou2Ġ": 642,
      "fan3Ġ": 643,
      "lei4Ġ": 644,
      "xi2Ġ": 645,
      "zheng1Ġ": 646,
      "wei1Ġ": 647,
      "xie1Ġ": 648,
      "dang3Ġ": 649,
      "6Ġnian2Ġ": 650,
      "ling3Ġ": 651,
      "long2Ġ": 652,
      "gou4Ġ": 653,
      "gui1Ġ": 654,
      "xian1Ġ": 655,
      "un1Ġ": 656,
      "gai3Ġ": 657,
      "huang2Ġ": 658,
      "xiang3Ġ": 659,
      "ying4Ġ": 660,
      "Ġyin1Ġ": 661,
      "men2Ġ": 662,
      "shang1Ġ": 663,
      "shen2Ġ": 664,
      "7Ġnian2Ġ": 665,
      "ka3Ġ": 666,
      "tuan2Ġ": 667,
      "mu3Ġ": 668,
      "202": 669,
      "Ġch": 670,
      "zhang1Ġ": 671,
      "fu1Ġ": 672,
      "ju3Ġ": 673,
      "mo2Ġ": 674,
      "dou1Ġ": 675,
      "guang3Ġ": 676,
      "shuo1Ġ": 677,
      "qing2Ġ": 678,
      "rong2Ġ": 679,
      "cong2Ġ": 680,
      "jing3Ġ": 681,
      "ban1Ġ": 682,
      "Ġhe2Ġ": 683,
      "pin3Ġ": 684,
      "ban3Ġ": 685,
      "mo4Ġ": 686,
      "Ġzhong1Ġ": 687,
      "Ġbu4Ġ": 688,
      "ying2Ġ": 689,
      "wo": 690,
      "zhan3Ġ": 691,
      "po": 692,
      "ui1Ġ": 693,
      "hui2Ġ": 694,
      "zhuang1Ġ": 695,
      "mi4Ġ": 696,
      "bao1Ġ": 697,
      "jiu3Ġ": 698,
      "wan4Ġ": 699,
      "pai2Ġ": 700,
      "wan1Ġ": 701,
      "zao4Ġ": 702,
      "ci2Ġ": 703,
      "6Ġ": 704,
      "ran2Ġ": 705,
      "Ġgai1Ġ": 706,
      "ting2Ġ": 707,
      "wan2Ġ": 708,
      "duan4Ġ": 709,
      "biao1Ġ": 710,
      "lun2Ġ": 711,
      "xie2Ġ": 712,
      "ju2Ġ": 713,
      "du2Ġ": 714,
      "fan4Ġ": 715,
      "fang2Ġ": 716,
      "ru2Ġ": 717,
      "ji3Ġ": 718,
      "Ġji2Ġ": 719,
      "kong1Ġ": 720,
      "tiao2Ġ": 721,
      "cai2Ġ": 722,
      "meng2Ġ": 723,
      "hang2Ġ": 724,
      "bie2Ġ": 725,
      "chao2Ġ": 726,
      "wu1Ġ": 727,
      "yin3Ġ": 728,
      "shi3Ġyong4Ġ": 729,
      "da4Ġxue2Ġ": 730,
      "xu1Ġ": 731,
      "huo2Ġ": 732,
      "cheng2Ġwei2Ġ": 733,
      "gong1Ġsi1Ġ": 734,
      "zheng4Ġfu3Ġ": 735,
      "1Ġyue4Ġ": 736,
      "00Ġ": 737,
      "9Ġnian2Ġ": 738,
      "tang2Ġ": 739,
      "bing1Ġ": 740,
      "ming4Ġ": 741,
      "di4Ġqu1Ġ": 742,
      "ling2Ġ": 743,
      "tie3Ġ": 744,
      "8Ġ": 745,
      "10Ġ": 746,
      "jiang3Ġ": 747,
      "Ġyi1Ġ": 748,
      "jie3Ġ": 749,
      "qin1Ġ": 750,
      "guo2Ġjia1Ġ": 751,
      "ĠĠĠ19": 752,
      "zi3Ġ": 753,
      "lun4Ġ": 754,
      "kai1Ġshi3Ġ": 755,
      "2Ġyue4Ġ": 756,
      "or": 757,
      "xin4Ġ": 758,
      "xiu1Ġ": 759,
      "Ġdi4Ġ": 760,
      "aĠ": 761,
      "jian3Ġ": 762,
      "zong1Ġ": 763,
      "dan4Ġ": 764,
      "que4Ġ": 765,
      "han4Ġ": 766,
      "xiao1Ġ": 767,
      "chu4Ġ": 768,
      "jin3Ġ": 769,
      "ping2Ġfang1Ġ": 770,
      "jia4Ġ": 771,
      "qiang2Ġ": 772,
      "7Ġ": 773,
      "qu4Ġ": 774,
      "hai2Ġ": 775,
      "zhuan1Ġ": 776,
      "pian4Ġ": 777,
      "han2Ġ": 778,
      "chen2Ġ": 779,
      "Ġyu2Ġ": 780,
      "zhen1Ġ": 781,
      "ke3Ġyi3Ġ": 782,
      "eĠĠĠ": 783,
      "fang4Ġ": 784,
      "Ġtong2Ġ": 785,
      "deĠyi1Ġ": 786,
      "jiu1Ġ": 787,
      "Ġdang1Ġ": 788,
      "shou1Ġ": 789,
      "gong1Ġli3Ġ": 790,
      "âĢ": 791,
      "cun1Ġ": 792,
      "jin4Ġxing2Ġ": 793,
      "guang1Ġ": 794,
      "xiang1Ġgang3Ġ": 795,
      "tĠ": 796,
      "bu4Ġfen4Ġ": 797,
      "ju1Ġ": 798,
      "chu3Ġ": 799,
      "gu4Ġ": 800,
      "chuang4Ġ": 801,
      "gen1Ġ": 802,
      "ren2Ġmin2Ġ": 803,
      "mian4Ġji1Ġ": 804,
      "xun4Ġ": 805,
      "man4Ġ": 806,
      "pai4Ġ": 807,
      "yan2Ġjiu1Ġ": 808,
      "hong2Ġ": 809,
      "fei4Ġ": 810,
      "wei4Ġyu2Ġ": 811,
      "Ġyi4Ġ": 812,
      "18": 813,
      "pei4Ġ": 814,
      "guo3Ġ": 815,
      "ri4Ġben3Ġ": 816,
      "xuan1Ġ": 817,
      "zhao4Ġ": 818,
      "Ġhuo4Ġ": 819,
      "Ġ201": 820,
      "chong2Ġ": 821,
      "li4Ġshi3Ġ": 822,
      "on": 823,
      "su1Ġ": 824,
      "Ġye3Ġ": 825,
      "diao4Ġ": 826,
      "xia2Ġ": 827,
      "liu4Ġ": 828,
      "hu2Ġ": 829,
      "du1Ġ": 830,
      "Ġyu3Ġ": 831,
      "hui1Ġ": 832,
      "Ġhou4Ġ": 833,
      "mei2Ġyou3Ġ": 834,
      "Ġ200": 835,
      "Ġda4Ġ": 836,
      "ren4Ġwei2Ġ": 837,
      "qie3Ġ": 838,
      "qiao2Ġ": 839,
      "shi4Ġjie4Ġ": 840,
      "Ġzui4Ġ": 841,
      "zeng1Ġ": 842,
      "zhuan3Ġ": 843,
      "Ġxi1Ġ": 844,
      "ar": 845,
      "xian3Ġ": 846,
      "mai4Ġ": 847,
      "huan2Ġ": 848,
      "xu3Ġ": 849,
      "di2Ġ": 850,
      "tuo1Ġ": 851,
      "wa3Ġ": 852,
      "wen4Ġ": 853,
      "ting1Ġ": 854,
      "jia3Ġ": 855,
      "geng4Ġ": 856,
      "liang2Ġ": 857,
      "da3Ġ": 858,
      "wei3Ġyuan2Ġ": 859,
      "Ġyou3Ġ": 860,
      "ya2Ġ": 861,
      "Ġci3Ġ": 862,
      "di4Ġyi1Ġ": 863,
      "Ġshi2Ġ": 864,
      "shao3Ġ": 865,
      "gan3Ġ": 866,
      "yan4Ġ": 867,
      "qi2Ġta1Ġ": 868,
      "lei2Ġ": 869,
      "Ġl": 870,
      "huo4Ġde2Ġ": 871,
      "chuan1Ġ": 872,
      "tu3Ġ": 873,
      "yin4Ġ": 874,
      "Ġli4Ġ": 875,
      "yun4Ġdong4Ġ": 876,
      "ta3Ġ": 877,
      "zao3Ġ": 878,
      "sĠ": 879,
      "yong3Ġ": 880,
      "1Ġri4Ġ": 881,
      "deng1Ġ": 882,
      "fa3Ġguo2Ġ": 883,
      "cun2Ġ": 884,
      "zhuang4Ġ": 885,
      "bai2Ġ": 886,
      "xun2Ġ": 887,
      "jiao3Ġ": 888,
      "dian4Ġying3Ġ": 889,
      "ĠĠĠ201": 890,
      "nuo4Ġ": 891,
      "tian2Ġ": 892,
      "di3Ġ": 893,
      "ĠĠĠzai4Ġ": 894,
      "bai4Ġ": 895,
      "yu2Ġ19": 896,
      "huan4Ġ": 897,
      "deĠyi2Ġge4Ġ": 898,
      "gong1Ġzuo4Ġ": 899,
      "jiang4Ġ": 900,
      "Ġqi2Ġzhong1Ġ": 901,
      "le4Ġ": 902,
      "tui1Ġ": 903,
      "bai3Ġ": 904,
      "zheng4Ġzhi4Ġ": 905,
      "cai3Ġ": 906,
      "zhun3Ġ": 907,
      "lv3Ġ": 908,
      "dai4Ġbiao3Ġ": 909,
      "chao1Ġ": 910,
      "huo3Ġ": 911,
      "yang4Ġ": 912,
      "zhu1Ġ": 913,
      "9Ġ": 914,
      "qun2Ġ": 915,
      "zuo4Ġwei2Ġ": 916,
      "guo2Ġji4Ġ": 917,
      "menĠ": 918,
      "si3Ġ": 919,
      "guan4Ġ": 920,
      "po4Ġ": 921,
      "gao4Ġ": 922,
      "sa4Ġ": 923,
      "Ġti": 924,
      "wo3Ġ": 925,
      "hua1Ġ": 926,
      "ke3Ġneng2Ġ": 927,
      "lei1Ġ": 928,
      "biao3Ġshi4Ġ": 929,
      "Ġk": 930,
      "zhong1Ġxin1Ġ": 931,
      "bang1Ġ": 932,
      "Ġxian4Ġ": 933,
      "lu3Ġ": 934,
      "kuang4Ġ": 935,
      "Ġzhi1Ġ": 936,
      "dian4Ġshi4Ġ": 937,
      "zhu3Ġyao4Ġ": 938,
      "deĠshi4Ġ": 939,
      "Ġp": 940,
      "chu2Ġ": 941,
      "xi4Ġtong3Ġ": 942,
      "nong2Ġ": 943,
      "shuang1Ġ": 944,
      "Ġzi4Ġ": 945,
      "lian4Ġ": 946,
      "tai2Ġwan1Ġ": 947,
      "kuai4Ġ": 948,
      "in": 949,
      "ha1Ġ": 950,
      "Ġwei4Ġyu2Ġ": 951,
      "dun4Ġ": 952,
      "he2Ġguo2Ġ": 953,
      "di4Ġer4Ġ": 954,
      "gang1Ġ": 955,
      "Ġxin1Ġ": 956,
      "ying1Ġguo2Ġ": 957,
      "hao3Ġ": 958,
      "Ġbei4Ġ": 959,
      "shi2Ġjian1Ġ": 960,
      "xie3Ġ": 961,
      "che1Ġzhan4Ġ": 962,
      "7Ġyue4Ġ": 963,
      "shi4ĠdeĠ": 964,
      "fa1Ġxian4Ġ": 965,
      "xing2Ġzheng4Ġ": 966,
      "song4Ġ": 967,
      "sui2Ġ": 968,
      "9Ġyue4Ġ": 969,
      "sĠĠĠ": 970,
      "hen3Ġ": 971,
      "wang4Ġ": 972,
      "pi1Ġ": 973,
      "liao4Ġ": 974,
      "zuo3Ġ": 975,
      "8Ġyue4Ġ": 976,
      "gei3Ġ": 977,
      "yang1Ġ": 978,
      "Ġbao1Ġ": 979,
      "cheng2Ġli4Ġ": 980,
      "3Ġyue4Ġ": 981,
      "fa1Ġzhan3Ġ": 982,
      "Ġjiang1Ġ": 983,
      "tao2Ġ": 984,
      "pan4Ġ": 985,
      "zi4Ġji3Ġ": 986,
      "qi1Ġjian1Ġ": 987,
      "yin2Ġ": 988,
      "Ġã": 989,
      "bao1Ġkuo4Ġ": 990,
      "Ġnan2Ġ": 991,
      "she4Ġji4Ġ": 992,
      "Ġdui4Ġ": 993,
      "Ġru2Ġ": 994,
      "zhong1ĠdeĠ": 995,
      "zheng3Ġ": 996,
      "ta1ĠdeĠ": 997,
      "di1Ġ": 998,
      "Ġyuan2Ġ": 999,
      "piao4Ġ": 1000,
      "ya1Ġ": 1001,
      "shi2Ġqi1Ġ": 1002,
      "5Ġyue4Ġ": 1003,
      "she4Ġhui4Ġ": 1004,
      "jian4Ġzhu4Ġ": 1005,
      "bin1Ġ": 1006,
      "âĢĶ": 1007,
      "6Ġyue4Ġ": 1008,
      "kong4Ġ": 1009,
      "Ġdong1Ġ": 1010,
      "jun4Ġ": 1011,
      "sai1Ġ": 1012,
      "zu3Ġzhi1Ġ": 1013,
      "Ġyin1Ġci3Ġ": 1014,
      "sui4Ġ": 1015,
      "yi3Ġji2Ġ": 1016,
      "ul": 1017,
      "gai4Ġ": 1018,
      "sen1Ġ": 1019,
      "chang4Ġ": 1020,
      "Ġzhi4Ġ": 1021,
      "re4Ġ": 1022,
      "4Ġyue4Ġ": 1023,
      "yang3Ġ": 1024,
      "xue2Ġyuan4Ġ": 1025,
      "Ġ2": 1026,
      "yao1Ġ": 1027,
      "cheng2Ġshi4Ġ": 1028,
      "zhi1Ġyi1Ġ": 1029,
      "Ġjin1Ġ": 1030,
      "bei1Ġ": 1031,
      "wei3Ġyuan2Ġhui4Ġ": 1032,
      "lou2Ġ": 1033,
      "kao3Ġ": 1034,
      "xian2Ġ": 1035,
      "wen2Ġhua4Ġ": 1036,
      "Ġfu4Ġ": 1037,
      "ying3Ġxiang3Ġ": 1038,
      "12Ġyue4Ġ": 1039,
      "shu3Ġyu2Ġ": 1040,
      "Ġzheng4Ġ": 1041,
      "xie4Ġ": 1042,
      "li4Ġya4Ġ": 1043,
      "10Ġyue4Ġ": 1044,
      "nian4Ġ": 1045,
      "bu3Ġ": 1046,
      "for": 1047,
      "you1Ġ": 1048,
      "dan1Ġren4Ġ": 1049,
      "ping2Ġfang1Ġgong1Ġli3Ġ": 1050,
      "you2Ġxi4Ġ": 1051,
      "Ġzhu3Ġ": 1052,
      "bu4Ġtong2Ġ": 1053,
      "deĠdi4Ġ": 1054,
      "15": 1055,
      "chong1Ġ": 1056,
      "he4Ġ": 1057,
      "Ġshi3Ġ": 1058,
      "al": 1059,
      "Ġjia1Ġ": 1060,
      "zhu3Ġyi4Ġ": 1061,
      "Ġli3Ġ": 1062,
      "tong1Ġguo4Ġ": 1063,
      "ku4Ġ": 1064,
      "Ġzhi3Ġ": 1065,
      "yun2Ġ": 1066,
      "zhu2Ġ": 1067,
      "gong4Ġhe2Ġguo2Ġ": 1068,
      "ning2Ġ": 1069,
      "Ġbao1Ġkuo4Ġ": 1070,
      "Ġzhong1Ġguo2Ġ": 1071,
      "liao2Ġ": 1072,
      "shao4Ġ": 1073,
      "Ġyou4Ġ": 1074,
      "xue2Ġxiao4Ġ": 1075,
      "Ġju4Ġ": 1076,
      "qing3Ġ": 1077,
      "reng2Ġ": 1078,
      "bi3Ġsai4Ġ": 1079,
      "Ġsuo3Ġ": 1080,
      "chu1Ġxian4Ġ": 1081,
      "20Ġnian2Ġ": 1082,
      "ĠC": 1083,
      "Ġyi3Ġji2Ġ": 1084,
      "uan3Ġ": 1085,
      "lao3Ġ": 1086,
      "luo2Ġsi1Ġ": 1087,
      "Ġgong1Ġ": 1088,
      "zuo4Ġpin3Ġ": 1089,
      "ji4Ġhua4Ġ": 1090,
      "mian3Ġ": 1091,
      "yong1Ġ": 1092,
      "fa1Ġsheng1Ġ": 1093,
      "wan3Ġ": 1094,
      "chi3Ġ": 1095,
      "tan2Ġ": 1096,
      "can1Ġjia1Ġ": 1097,
      "fan1Ġ": 1098,
      "hei1Ġ": 1099,
      "guan3Ġli3Ġ": 1100,
      "Ġzhi2Ġ": 1101,
      "Ġcong2Ġ": 1102,
      "Ġa1Ġ": 1103,
      "rui4Ġ": 1104,
      "16": 1105,
      "dou4Ġ": 1106,
      "Ġcheng2Ġ": 1107,
      "huo2Ġdong4Ġ": 1108,
      "11Ġyue4Ġ": 1109,
      "ĠS": 1110,
      "ding1Ġ": 1111,
      "yuan3Ġ": 1112,
      "form": 1113,
      "Ġjie2Ġ": 1114,
      "kan4Ġ": 1115,
      "wen1Ġ": 1116,
      "10": 1117,
      "Ġfen1Ġ": 1118,
      "17": 1119,
      "Ġling4Ġ": 1120,
      "Ġma3Ġ": 1121,
      "cheng1Ġwei2Ġ": 1122,
      "tan3Ġ": 1123,
      "zheng4Ġshi4Ġ": 1124,
      "zhong1Ġyang1Ġ": 1125,
      "xiu4Ġ": 1126,
      "tĠĠĠ": 1127,
      "man3Ġ": 1128,
      "30Ġ": 1129,
      "suan4Ġ": 1130,
      "Ġbei3Ġ": 1131,
      "yin1Ġyue4Ġ": 1132,
      "tie3Ġlu4Ġ": 1133,
      "Ġshang4Ġ": 1134,
      "jing1Ġji4Ġ": 1135,
      "heng2Ġ": 1136,
      "ulaĠ": 1137,
      "formulaĠ": 1138,
      "dĠĠĠ": 1139,
      "Ġceng2Ġ": 1140,
      "mao2Ġ": 1141,
      "lu2Ġ": 1142,
      "pian1Ġ": 1143,
      "hu1Ġ": 1144,
      "Ġmei3Ġ": 1145,
      "Ġran2Ġ": 1146,
      "yi1Ġzhong3Ġ": 1147,
      "Ġjing1Ġ": 1148,
      "deĠshi2Ġ": 1149,
      "shi4Ġzhen4Ġ": 1150,
      "mao4Ġ": 1151,
      "de2Ġguo2Ġ": 1152,
      "qin2Ġ": 1153,
      "zhi1Ġjian1Ġ": 1154,
      "bu2Ġ": 1155,
      "na2Ġ": 1156,
      "zan4Ġ": 1157,
      "gui3Ġ": 1158,
      "Ġyou2Ġyu2Ġ": 1159,
      "wen4Ġti2Ġ": 1160,
      "Ġ18": 1161,
      "th": 1162,
      "12Ġ": 1163,
      "Ġ0": 1164,
      "tu1Ġ": 1165,
      "Ġ199": 1166,
      "ba2Ġ": 1167,
      "ming2Ġwei4Ġ": 1168,
      "tui4Ġ": 1169,
      "xu3Ġduo1Ġ": 1170,
      "pi2Ġ": 1171,
      "xi3Ġ": 1172,
      "Ġquan2Ġ": 1173,
      "ti2Ġgong1Ġ": 1174,
      "pin2Ġ": 1175,
      "wo4Ġ": 1176,
      "kang1Ġ": 1177,
      "cheng2Ġyuan2Ġ": 1178,
      "rang4Ġ": 1179,
      "xiong2Ġ": 1180,
      "Ġsheng1Ġ": 1181,
      "zhong1Ġhua2Ġ": 1182,
      "Ġjin4Ġ": 1183,
      "shan4Ġ": 1184,
      "ĠĠĠdi4Ġ": 1185,
      "199": 1186,
      "lang3Ġ": 1187,
      "jiao4Ġyu4Ġ": 1188,
      "xiong1Ġ": 1189,
      "ĠA": 1190,
      "Ġbo": 1191,
      "shang4ĠdeĠ": 1192,
      "shi2ĠdeĠ": 1193,
      "4Ġri4Ġ": 1194,
      "li4ĠdeĠ": 1195,
      "Ġsu": 1196,
      "Ġtong2Ġshi2Ġ": 1197,
      "kang4Ġ": 1198,
      "fu2Ġwu4Ġ": 1199,
      "ĠĠĠ200": 1200,
      "gan1Ġ": 1201,
      "shen3Ġ": 1202,
      "qing4Ġ": 1203,
      "ni2Ġya4Ġ": 1204,
      "miao2Ġ": 1205,
      "fang3Ġ": 1206,
      "xuan1Ġbu4Ġ": 1207,
      "aĠĠĠ": 1208,
      "shi4Ġzai4Ġ": 1209,
      "ren2ĠdeĠ": 1210,
      "zhi1Ġhou4Ġ": 1211,
      "3Ġri4Ġ": 1212,
      "Ġduo1Ġ": 1213,
      "zhi4Ġzuo4Ġ": 1214,
      "xing2ĠdeĠ": 1215,
      "ta1Ġmen": 1216,
      "yin4Ġdu4Ġ": 1217,
      "Ġji1Ġ": 1218,
      "e2Ġluo2Ġsi1Ġ": 1219,
      "am": 1220,
      "Ġqian2Ġ": 1221,
      "guan1Ġxi4Ġ": 1222,
      "ĠĠĠ202": 1223,
      "qiu1Ġ": 1224,
      "Ġsan1Ġ": 1225,
      "suo3Ġyou3Ġ": 1226,
      "zhan4Ġzheng1Ġ": 1227,
      "Ġliang3Ġ": 1228,
      "Ġzong3Ġ": 1229,
      "Ġmu4Ġ": 1230,
      "ji4Ġshu4Ġ": 1231,
      "ou": 1232,
      "qian1Ġmi3Ġ": 1233,
      "qiang1Ġ": 1234,
      "fa2Ġ": 1235,
      "da4ĠdeĠ": 1236,
      "zao1Ġ": 1237,
      "Ġba1Ġ": 1238,
      "feng4Ġ": 1239,
      "ĠM": 1240,
      "ba3Ġ": 1241,
      "fang1Ġmian4Ġ": 1242,
      "Ġhai3Ġ": 1243,
      "jue2Ġding4Ġ": 1244,
      "lang2Ġ": 1245,
      "zu2Ġqiu2Ġ": 1246,
      "ï¼": 1247,
      "Ġfu2Ġ": 1248,
      "Ġming2Ġ": 1249,
      "gui4Ġ": 1250,
      "zhi1Ġchi2Ġ": 1251,
      "hui4Ġyi4Ġ": 1252,
      "2020Ġnian2Ġ": 1253,
      "ĠĠĠsheng1Ġ": 1254,
      "0Ġnian2Ġdai4Ġ": 1255,
      "Ġben3Ġ": 1256,
      "zou3Ġ": 1257,
      "jin4Ġru4Ġ": 1258,
      "qie4Ġ": 1259,
      "ri": 1260,
      "ren2Ġwu4Ġ": 1261,
      "19Ġnian2Ġ": 1262,
      "shun4Ġ": 1263,
      "Ġsui2Ġ": 1264,
      "xuan2Ġ": 1265,
      "geĠ": 1266,
      "ni3Ġ": 1267,
      "hai4Ġ": 1268,
      "xue2Ġjia1Ġ": 1269,
      "guan4Ġjun1Ġ": 1270,
      "ĠĠĠS": 1271,
      "fu4Ġze2Ġ": 1272,
      "gong1Ġcheng2Ġ": 1273,
      "Ġhao4Ġ": 1274,
      "Ġxia4Ġ": 1275,
      "ding3Ġ": 1276,
      "xue2Ġsheng1Ġ": 1277,
      "niu3Ġ": 1278,
      "Ġ3": 1279,
      "zhang4Ġ": 1280,
      "shi4Ġjian4Ġ": 1281,
      "ren2Ġmin2Ġgong4Ġhe2Ġguo2Ġ": 1282,
      "zai3Ġ": 1283,
      "Ġjiu4Ġ": 1284,
      "zhong4Ġyao4Ġ": 1285,
      "leĠyi1Ġ": 1286,
      "quan2Ġguo2Ġ": 1287,
      "Ġchu1Ġ": 1288,
      "bu4ĠdeĠ": 1289,
      "Ġwu2Ġ": 1290,
      "Ġdao4Ġ": 1291,
      "yi3Ġjing1Ġ": 1292,
      "Ġtian1Ġ": 1293,
      "Ġtai2Ġ": 1294,
      "she4Ġyou3Ġ": 1295,
      "cheng2ĠdeĠ": 1296,
      "lie4Ġche1Ġ": 1297,
      "CĠ": 1298,
      "Ġzhan4Ġ": 1299,
      "xu1Ġyao4Ġ": 1300,
      "ou1Ġzhou1Ġ": 1301,
      "lve4Ġ": 1302,
      "chun1Ġ": 1303,
      "hun1Ġ": 1304,
      "gen1Ġju4Ġ": 1305,
      "lai2Ġzi4Ġ": 1306,
      "ping2Ġfang1Ġqian1Ġmi3Ġ": 1307,
      "pao4Ġ": 1308,
      "song1Ġ": 1309,
      "shen4Ġ": 1310,
      "Ġdeng3Ġ": 1311,
      "Ġwei2Ġ": 1312,
      "25": 1313,
      "Ġ198": 1314,
      "Ġ5": 1315,
      "xiang2Ġ": 1316,
      "can1Ġyu4Ġ": 1317,
      "dang4Ġ": 1318,
      "fa1Ġxing2Ġ": 1319,
      "Ġqing1Ġ": 1320,
      "Ġta1Ġmen": 1321,
      "shi4Ġwei4Ġ": 1322,
      "shi4Ġji4Ġ": 1323,
      "ke4Ġlan2Ġ": 1324,
      "xi4Ġlie4Ġ": 1325,
      "shou4Ġdao4Ġ": 1326,
      "Ġshi4Ġyi1Ġ": 1327,
      "tan4Ġ": 1328,
      "geng1Ġ": 1329,
      "bao3Ġhu4Ġ": 1330,
      "min2Ġguo2Ġ": 1331,
      "duan1Ġ": 1332,
      "st": 1333,
      "yin1Ġwei4Ġ": 1334,
      "si1Ġte4Ġ": 1335,
      "liang3Ġge4Ġ": 1336,
      "yĠĠĠ": 1337,
      "ro": 1338,
      "Ġjian4Ġ": 1339,
      "Ġtong1Ġ": 1340,
      "Ġyin1Ġwei4Ġ": 1341,
      "yong4Ġyu2Ġ": 1342,
      "Ġta1ĠdeĠ": 1343,
      "Ġgao1Ġ": 1344,
      "ĠT": 1345,
      "sheng1Ġhuo2Ġ": 1346,
      "yao1Ġqiu2Ġ": 1347,
      "zong3Ġtong3Ġ": 1348,
      "dun1Ġ": 1349,
      "Ġji4Ġ": 1350,
      "Ġ202": 1351,
      "kuan3Ġ": 1352,
      "za2Ġ": 1353,
      "Ġjin3Ġ": 1354,
      "ren2Ġyuan2Ġ": 1355,
      "kai1Ġfa1Ġ": 1356,
      "yong1Ġyou3Ġ": 1357,
      "xian4ĠdeĠ": 1358,
      "ya3Ġ": 1359,
      "ye2Ġ": 1360,
      "ĠĠĠli4Ġshi3Ġ": 1361,
      "ju3Ġxing2Ġ": 1362,
      "el": 1363,
      "Ġdai4Ġ": 1364,
      "ruo4Ġ": 1365,
      "ĠI": 1366,
      "Ġren4Ġ": 1367,
      "xiang1Ġguan1Ġ": 1368,
      "wu1Ġke4Ġlan2Ġ": 1369,
      "peng2Ġ": 1370,
      "qing2Ġkuang4Ġ": 1371,
      "jun1Ġshi4Ġ": 1372,
      "jie2Ġmu4Ġ": 1373,
      "po1Ġ": 1374,
      "dan1Ġwei4Ġ": 1375,
      "Ġde2Ġ": 1376,
      "wan2Ġcheng2Ġ": 1377,
      "Ġbi3Ġ": 1378,
      "you2Ġyu2Ġ": 1379,
      "ĠĠĠsheng1Ġping2Ġ": 1380,
      "fang1Ġshi4Ġ": 1381,
      "qiu2Ġdui4Ġ": 1382,
      "Ġzhu": 1383,
      "jia1Ġru4Ġ": 1384,
      "si": 1385,
      "duan3Ġ": 1386,
      "kan1Ġ": 1387,
      "Ġgen1Ġ": 1388,
      "Ġliu2Ġ": 1389,
      "cun2Ġzai4Ġ": 1390,
      "lian2Ġmeng2Ġ": 1391,
      "mi4Ġdu4Ġ": 1392,
      "zheĠ": 1393,
      "xuan3Ġju3Ġ": 1394,
      "di4ĠdeĠ": 1395,
      "Ġm": 1396,
      "ĠB": 1397,
      "fan2Ġ": 1398,
      "zhui1Ġ": 1399,
      "Ġ4": 1400,
      "Ġwo3Ġ": 1401,
      "che4Ġ": 1402,
      "Ġsi4Ġ": 1403,
      "Ġhai2Ġ": 1404,
      "cheng2Ġgong1Ġ": 1405,
      "8Ġri4Ġ": 1406,
      "00": 1407,
      "re": 1408,
      "gan4Ġ": 1409,
      "Ġwu3Ġ": 1410,
      "Ġzhang1Ġ": 1411,
      "Ġdan1Ġ": 1412,
      "cao3Ġ": 1413,
      "yao2Ġ": 1414,
      "bei3Ġbu4Ġ": 1415,
      "Ġren2Ġ": 1416,
      "2019Ġnian2Ġ": 1417,
      "Ġsi1Ġ": 1418,
      "shi4Ġyi1Ġ": 1419,
      "Ġli4Ġru2Ġ": 1420,
      "Ġshi4Ġji4Ġ": 1421,
      "ĠP": 1422,
      "Ġxing2Ġ": 1423,
      "jue2Ġse4Ġ": 1424,
      "zai4Ġ19": 1425,
      "gong1Ġyuan2Ġ": 1426,
      "bei3Ġjing1Ġ": 1427,
      "at": 1428,
      "zhi4ĠdeĠ": 1429,
      "chu1ĠdeĠ": 1430,
      "guo2Ġmin2Ġ": 1431,
      "yĠ": 1432,
      "yi4Ġshu4Ġ": 1433,
      "zhi2Ġwu4Ġ": 1434,
      "Ġao4Ġ": 1435,
      "zha4Ġ": 1436,
      "Ġ194": 1437,
      "cuo4Ġ": 1438,
      "zang4Ġ": 1439,
      "ji4Ġlu4Ġ": 1440,
      "Ġ6": 1441,
      "da4Ġlu4Ġ": 1442,
      "pa4Ġ": 1443,
      "chan3Ġsheng1Ġ": 1444,
      "lian2Ġsai4Ġ": 1445,
      "er4Ġshi2Ġ": 1446,
      "yi4Ġyuan2Ġ": 1447,
      "shang4Ġhai3Ġ": 1448,
      "xiang4Ġmu4Ġ": 1449,
      "gu1Ġ": 1450,
      "shou3Ġci4Ġ": 1451,
      "Ġguan1Ġ": 1452,
      "Ġping2Ġ": 1453,
      "kong3Ġ": 1454,
      "pei2Ġ": 1455,
      "miao4Ġ": 1456,
      "Ġran2Ġer2Ġ": 1457,
      "lian2Ġhe2Ġ": 1458,
      "suan1Ġ": 1459,
      "Ġ1Ġ": 1460,
      "di4Ġsan1Ġ": 1461,
      "lao2Ġ": 1462,
      "bu4Ġdui4Ġ": 1463,
      "Ġmei3Ġguo2Ġ": 1464,
      "shu4Ġju4Ġ": 1465,
      "he2Ġzuo4Ġ": 1466,
      "ac": 1467,
      "yu2Ġ201": 1468,
      "ge4Ġren2Ġ": 1469,
      "Ġsui4Ġ": 1470,
      "yi1Ġxie1Ġ": 1471,
      "qu1ĠdeĠ": 1472,
      "zi4Ġyou2Ġ": 1473,
      "xi1Ġya4Ġ": 1474,
      "cang2Ġ": 1475,
      "Ġying1Ġ": 1476,
      "huai2Ġ": 1477,
      "zhuan1Ġji2Ġ": 1478,
      "nan2Ġbu4Ġ": 1479,
      "pai1Ġ": 1480,
      "ĠD": 1481,
      "qian2Ġwang3Ġ": 1482,
      "Ġke3Ġ": 1483,
      "cha1Ġ": 1484,
      "hao2Ġ": 1485,
      "Ġmian4Ġji1Ġ": 1486,
      "Ġzhe4Ġxie1Ġ": 1487,
      "7Ġri4Ġ": 1488,
      "zhao1Ġ": 1489,
      "6Ġri4Ġ": 1490,
      "duo2Ġ": 1491,
      "zhe4Ġxie1Ġ": 1492,
      "deĠren2Ġ": 1493,
      "dĠ": 1494,
      "AĠ": 1495,
      "zui4Ġgao1Ġ": 1496,
      "qu1Ġyu4Ġ": 1497,
      "zhe2Ġ": 1498,
      "ren2Ġkou3Ġmi4Ġdu4Ġ": 1499,
      "ke1Ġxue2Ġ": 1500,
      "Ġbing4Ġqie3Ġ": 1501,
      "jiao1Ġtong1Ġ": 1502,
      "gao1Ġdu4Ġ": 1503,
      "lai2ĠdeĠ": 1504,
      "gong4Ġyou3Ġ": 1505,
      "dang1Ġshi2Ġ": 1506,
      "qu3Ġde2Ġ": 1507,
      "tong2Ġshi2Ġ": 1508,
      "Ġdan4Ġshi4Ġ": 1509,
      "Ġta1Ġzai4Ġ": 1510,
      "22Ġ": 1511,
      "mi2Ġ": 1512,
      "min2Ġzhu3Ġ": 1513,
      "zui4Ġhou4Ġ": 1514,
      "9Ġri4Ġ": 1515,
      "fan3Ġying4Ġ": 1516,
      "xue4Ġ": 1517,
      "ji2Ġtuan2Ġ": 1518,
      "Ġluo2Ġ": 1519,
      "cai3Ġyong4Ġ": 1520,
      "chu1Ġban3Ġ": 1521,
      "ĠĠĠC": 1522,
      "mian4Ġji1Ġwei4Ġ": 1523,
      "ming2ĠdeĠ": 1524,
      "Ġgong4Ġ": 1525,
      "zeng1Ġjia1Ġ": 1526,
      "xing2Ġdong4Ġ": 1527,
      "yu3Ġyan2Ġ": 1528,
      "Ġcheng2Ġwei2Ġ": 1529,
      "jian4Ġli4Ġ": 1530,
      "Ġtong2Ġnian2Ġ": 1531,
      "ji1Ġgou4Ġ": 1532,
      "de2Ġdao4Ġ": 1533,
      "Ġn": 1534,
      "ren4Ġhe2Ġ": 1535,
      "jie2Ġgou4Ġ": 1536,
      "Ġxiao3Ġ": 1537,
      "Ġxue2Ġ": 1538,
      "ling3Ġdao3Ġ": 1539,
      "Ġdang1Ġshi2Ġ": 1540,
      "sheng1Ġchan3Ġ": 1541,
      "zhu3Ġxi2Ġ": 1542,
      "11Ġ": 1543,
      "chuan2Ġtong3Ġ": 1544,
      "jie2Ġshu4Ġ": 1545,
      "zhao3Ġ": 1546,
      "Ġ195": 1547,
      "zu3Ġcheng2Ġ": 1548,
      "xing2Ġshi4Ġ": 1549,
      "jian4ĠdeĠ": 1550,
      "du2Ġli4Ġ": 1551,
      "ke4Ġsi1Ġ": 1552,
      "ge1Ġqu3Ġ": 1553,
      "tou4Ġ": 1554,
      "ol": 1555,
      "Ġan1Ġ": 1556,
      "zhu3Ġjiao4Ġ": 1557,
      "ĠĠĠM": 1558,
      "lei3Ġ": 1559,
      "bang3Ġ": 1560,
      "Ġgen1Ġju4Ġ": 1561,
      "Ġke4Ġ": 1562,
      "ĠgtĠ": 1563,
      "di4Ġguo2Ġ": 1564,
      "Ġai4Ġ": 1565,
      "Ġjie1Ġ": 1566,
      "chou2Ġ": 1567,
      "da4Ġli4Ġ": 1568,
      "tion": 1569,
      "Ġ197": 1570,
      "biao1Ġzhun3Ġ": 1571,
      "Ġze2Ġ": 1572,
      "Ġzui4Ġzhong1Ġ": 1573,
      "Ġxiang1Ġ": 1574,
      "hun4Ġ": 1575,
      "Ġhou4Ġlai2Ġ": 1576,
      "ji4Ġxu4Ġ": 1577,
      "ju4Ġyou3Ġ": 1578,
      "mei2Ġti3Ġ": 1579,
      "fu4Ġjin4Ġ": 1580,
      "nao3Ġ": 1581,
      "Ġte4Ġ": 1582,
      "Ġ15": 1583,
      "chi4Ġ": 1584,
      "ĠltĠ": 1585,
      "kuan1Ġ": 1586,
      "jie1Ġshou4Ġ": 1587,
      "Ġbing4Ġzai4Ġ": 1588,
      "shu4Ġliang4Ġ": 1589,
      "niu2Ġ": 1590,
      "shi2Ġdai4Ġ": 1591,
      "Ġgai3Ġ": 1592,
      "hai3Ġjun1Ġ": 1593,
      "ruan3Ġ": 1594,
      "nei4ĠdeĠ": 1595,
      "Ġzhi1Ġhou4Ġ": 1596,
      "die2Ġ": 1597,
      "Ġzhou1Ġ": 1598,
      "fan4Ġwei2Ġ": 1599,
      "ta1ĠmenĠ": 1600,
      "sun1Ġ": 1601,
      "Ġ7": 1602,
      "yi3Ġxia4Ġ": 1603,
      "Ġ2Ġ": 1604,
      "shu3ĠdeĠ": 1605,
      "qi2Ġzhong1Ġ": 1606,
      "Ġchen2Ġ": 1607,
      "ti4Ġ": 1608,
      "nv3Ġxing4Ġ": 1609,
      "qian3Ġ": 1610,
      "diao4Ġcha2Ġ": 1611,
      "mou2Ġ": 1612,
      "Ġwang2Ġ": 1613,
      "yi4Ġhui4Ġ": 1614,
      "Ġtai4Ġ": 1615,
      "ĠE": 1616,
      "198": 1617,
      "deĠji1Ġ": 1618,
      "chao1Ġguo4Ġ": 1619,
      "ye3Ġshi4Ġ": 1620,
      "dong4Ġwu4Ġ": 1621,
      "nei4Ġrong2Ġ": 1622,
      "que1Ġ": 1623,
      "Ġgu4Ġ": 1624,
      "Ġchu2Ġ": 1625,
      "fou3Ġ": 1626,
      "Ġhuang2Ġ": 1627,
      "Ġri4Ġben3Ġ": 1628,
      "san4Ġ": 1629,
      "hang2Ġkong1Ġ": 1630,
      "zhuan4Ġ": 1631,
      "wu2Ġfa3Ġ": 1632,
      "Ġshou3Ġ": 1633,
      "deĠda4Ġ": 1634,
      "ge2Ġming4Ġ": 1635,
      "Ġ16": 1636,
      "jun1Ġdui4Ġ": 1637,
      "Ġci3Ġwai4Ġ": 1638,
      "nv3Ġzi3Ġ": 1639,
      "kai3Ġ": 1640,
      "Ġsui1Ġ": 1641,
      "a1Ġer3Ġ": 1642,
      "qu1Ġwei4Ġ": 1643,
      "hou4ĠdeĠ": 1644,
      "ran3Ġ": 1645,
      "yun4Ġdong4Ġyuan2Ġ": 1646,
      "Ġ8": 1647,
      "Ġzhu3Ġyao4Ġ": 1648,
      "niao3Ġ": 1649,
      "ju1Ġmin2Ġ": 1650,
      "erĠ": 1651,
      "ĠH": 1652,
      "fo": 1653,
      "an1Ġquan2Ġ": 1654,
      "di4Ġfang1Ġ": 1655,
      "kong4Ġzhi4Ġ": 1656,
      "chuang4Ġzuo4Ġ": 1657,
      "ti2Ġchu1Ġ": 1658,
      "fen1Ġbie2Ġ": 1659,
      "Ġchang2Ġ": 1660,
      "fa1Ġbiao3Ġ": 1661,
      "ge2Ġlan2Ġ": 1662,
      "TĠ": 1663,
      "wei4Ġzhi4Ġ": 1664,
      "lian2Ġbang1Ġ": 1665,
      "zai1Ġ": 1666,
      "ming2Ġcheng1Ġ": 1667,
      "chang1Ġ": 1668,
      "Ġbu4Ġguo4Ġ": 1669,
      "Ġgu3Ġ": 1670,
      "fa1Ġbu4Ġ": 1671,
      "xue3Ġ": 1672,
      "hui3Ġ": 1673,
      "you3Ġxian4Ġ": 1674,
      "bi4Ġye4Ġ": 1675,
      "tao3Ġ": 1676,
      "yuan2ĠdeĠ": 1677,
      "dang1Ġdi4Ġ": 1678,
      "zao4Ġcheng2Ġ": 1679,
      "Ġshi4Ġwei4Ġyu2Ġ": 1680,
      "gu4Ġshi4Ġ": 1681,
      "lan3Ġ": 1682,
      "pi3Ġ": 1683,
      "sun3Ġ": 1684,
      "Ġfei1Ġ": 1685,
      "ji1Ġchang3Ġ": 1686,
      "luan4Ġ": 1687,
      "Ġshu3Ġyu2Ġ": 1688,
      "ban1Ġya2Ġ": 1689,
      "xiao3Ġshi2Ġ": 1690,
      "Ġ193": 1691,
      "ĠL": 1692,
      "Ġlin2Ġ": 1693,
      "xin1ĠdeĠ": 1694,
      "fan3Ġdui4Ġ": 1695,
      "Ġjian3Ġ": 1696,
      "zhi1Ġqian2Ġ": 1697,
      "Ġ196": 1698,
      "Ġka3Ġ": 1699,
      "zun1Ġ": 1700,
      "zi4Ġji3ĠdeĠ": 1701,
      "min2Ġzu2Ġ": 1702,
      "ĠR": 1703,
      "chu1Ġsheng1Ġ": 1704,
      "Ġzhong1Ġhua2Ġ": 1705,
      "Ġge2Ġ": 1706,
      "guo4Ġcheng2Ġ": 1707,
      "mou3Ġ": 1708,
      "huan1Ġ": 1709,
      "luo2Ġma3Ġ": 1710,
      "Ġbo1Ġ": 1711,
      "xiao3Ġxing2Ġ": 1712,
      "huan2Ġjing4Ġ": 1713,
      "Ġ9": 1714,
      "teng2Ġ": 1715,
      "yi4ĠdeĠ": 1716,
      "Ġyan2Ġ": 1717,
      "ju3Ġban4Ġ": 1718,
      "rang3Ġ": 1719,
      "xuan3Ġze2Ġ": 1720,
      "Ġzhu4Ġ": 1721,
      "bian1Ġma3Ġ": 1722,
      "gong1Ġlu4Ġ": 1723,
      "Ġxiang4Ġ": 1724,
      "Ġjiao4Ġ": 1725,
      "zui4Ġzhong1Ġ": 1726,
      "sou1Ġ": 1727,
      "xin1Ġwen2Ġ": 1728,
      "shui4Ġ": 1729,
      "ĠĠĠA": 1730,
      "ba4Ġ": 1731,
      "ĠzhĠ": 1732,
      "min3Ġ": 1733,
      "yin2Ġhang2Ġ": 1734,
      "yan3Ġyuan2Ġ": 1735,
      "meng4Ġ": 1736,
      "kao4Ġ": 1737,
      "ken3Ġ": 1738,
      "zi1Ġliao4Ġ": 1739,
      "yu2Ġ200": 1740,
      "jue2Ġsai4Ġ": 1741,
      "Ġãĥ": 1742,
      "13": 1743,
      "Ġti2Ġ": 1744,
      "ĠN": 1745,
      "tong1Ġchang2Ġ": 1746,
      "fo2Ġ": 1747,
      "jiu4Ġshi4Ġ": 1748,
      "gong4Ġchan3Ġ": 1749,
      "shu1Ġji4Ġ": 1750,
      "fang1Ġfa3Ġ": 1751,
      "you3Ġguan1Ġ": 1752,
      "xie2Ġhui4Ġ": 1753,
      "ren2Ġshi4Ġ": 1754,
      "14": 1755,
      "zhong1Ġhua2Ġren2Ġmin2Ġgong4Ġhe2Ġguo2Ġ": 1756,
      "ting3Ġ": 1757,
      "ĠG": 1758,
      "SĠ": 1759,
      "Ġci4Ġ": 1760,
      "la4Ġ": 1761,
      "fen1Ġbu4Ġ": 1762,
      "wen3Ġ": 1763,
      "of": 1764,
      "yi4Ġzhi2Ġ": 1765,
      "Ġer4Ġ": 1766,
      "dao4ĠleĠ": 1767,
      "rĠ": 1768,
      "chun2Ġ": 1769,
      "ĠĠĠdi4Ġli3Ġ": 1770,
      "om": 1771,
      "20Ġ": 1772,
      "xing2Ġcheng2Ġ": 1773,
      "dao3Ġzhi4Ġ": 1774,
      "Ġyu4Ġ": 1775,
      "zhi2Ġye4Ġ": 1776,
      "qi3Ġye4Ġ": 1777,
      "ji4Ġnian4Ġ": 1778,
      "jian4Ġshe4Ġ": 1779,
      "il": 1780,
      "bang4Ġ": 1781,
      "Ġsui1Ġran2Ġ": 1782,
      "50Ġ": 1783,
      "Ġguo2Ġ": 1784,
      "Ġyue1Ġ": 1785,
      "bu4Ġzhang3Ġ": 1786,
      "fa3Ġlv4Ġ": 1787,
      "guan3Ġxia2Ġ": 1788,
      "jiao4Ġshou4Ġ": 1789,
      "zhong1Ġxue2Ġ": 1790,
      "13Ġ": 1791,
      "chong2Ġxin1Ġ": 1792,
      "er3Ġsi1Ġ": 1793,
      "bing3Ġ": 1794,
      "she4Ġli4Ġ": 1795,
      "Ġsuo3Ġyi3Ġ": 1796,
      "wan2Ġquan2Ġ": 1797,
      "Ġcan1Ġ": 1798,
      "Ġhui4Ġ": 1799,
      "sai4Ġshi4Ġ": 1800,
      "xing4ĠdeĠ": 1801,
      "gong1Ġye4Ġ": 1802,
      "ï¼į": 1803,
      "xian3Ġshi4Ġ": 1804,
      "Ġdao3Ġ": 1805,
      "pan2Ġ": 1806,
      "ĠĠĠP": 1807,
      "ĠĠĠben3Ġ": 1808,
      "ya4Ġzhou1Ġ": 1809,
      "ĠF": 1810,
      "zi4Ġzhi4Ġ": 1811,
      "pu2Ġ": 1812,
      "you3Ġyi1Ġ": 1813,
      "fa3Ġyuan4Ġ": 1814,
      "ĠĠĠ199": 1815,
      "shuai4Ġ": 1816,
      "12": 1817,
      "nie4Ġ": 1818,
      "xing2Ġwei2Ġ": 1819,
      "Ġtai2Ġwan1Ġ": 1820,
      "yi4Ġqi3Ġ": 1821,
      "gong1Ġkai1Ġ": 1822,
      "Ġqi1Ġ": 1823,
      "Ġshou4Ġ": 1824,
      "14Ġ": 1825,
      "fei1Ġchang2Ġ": 1826,
      "san1Ġnian2Ġ": 1827,
      "shi2Ġer4Ġ": 1828,
      "shen4Ġzhi4Ġ": 1829,
      "ban3Ġben3Ġ": 1830,
      "shao1Ġ": 1831,
      "zhu3Ġren4Ġ": 1832,
      "cai4Ġ": 1833,
      "yi1Ġci4Ġ": 1834,
      "cao1Ġ": 1835,
      "shen1Ġfen4Ġ": 1836,
      "Ġlian2Ġ": 1837,
      "cang1Ġ": 1838,
      "ti3Ġyu4Ġ": 1839,
      "zhi2Ġjie1Ġ": 1840,
      "Ġlu4Ġ": 1841,
      "ĠĠĠB": 1842,
      "da4Ġliang4Ġ": 1843,
      "Ġ17": 1844,
      "jia1Ġzu2Ġ": 1845,
      "suo1Ġ": 1846,
      "yi4Ġban1Ġ": 1847,
      "biao3Ġxian4Ġ": 1848,
      "Ġbi4Ġ": 1849,
      "Ġqie3Ġ": 1850,
      "xiao3Ġshuo1Ġ": 1851,
      "xian4Ġdai4Ġ": 1852,
      "Ġke1Ġ": 1853,
      "feng2Ġ": 1854,
      "mie4Ġ": 1855,
      "shi4Ġhe2Ġ": 1856,
      "deĠyuan2Ġ": 1857,
      "Ġmu4Ġqian2Ġ": 1858,
      "yun3Ġ": 1859,
      "yi3Ġlai2Ġ": 1860,
      "wen2Ġxue2Ġ": 1861,
      "et": 1862,
      "ĠĠĠT": 1863,
      "zhi3Ġhui1Ġ": 1864,
      "Ġsheng4Ġ": 1865,
      "lai4Ġ": 1866,
      "chu3Ġli3Ġ": 1867,
      "wu4Ġzhong3Ġ": 1868,
      "shang1Ġye4Ġ": 1869,
      "sheng3Ġfen4Ġ": 1870,
      "Ġbao3Ġ": 1871,
      "DĠ": 1872,
      "zou4Ġ": 1873,
      "dong4Ġhua4Ġ": 1874,
      "Ġna4Ġ": 1875,
      "zheng4Ġce4Ġ": 1876,
      "mei4Ġ": 1877,
      "duo1Ġshu4Ġ": 1878,
      "shi4Ġshi4Ġ": 1879,
      "Ġbo2Ġ": 1880,
      "huai4Ġ": 1881,
      "197": 1882,
      "lei4Ġsi4Ġ": 1883,
      "pu3Ġcha2Ġ": 1884,
      "jia1Ġting2Ġ": 1885,
      "nai4Ġ": 1886,
      "zhou1ĠdeĠ": 1887,
      "ra": 1888,
      "Ġhong2Ġ": 1889,
      "te4Ġbie2Ġ": 1890,
      "Ġxiang1Ġgang3Ġ": 1891,
      "zao3Ġqi1Ġ": 1892,
      "qu4Ġshi4Ġ": 1893,
      "gui1Ġmo2Ġ": 1894,
      "dui4Ġyu2Ġ": 1895,
      "gong1Ġji1Ġ": 1896,
      "un4Ġ": 1897,
      "yan1Ġ": 1898,
      "miao2Ġshu4Ġ": 1899,
      "Ġdou1Ġ": 1900,
      "Ġren2Ġkou3Ġmi4Ġdu4Ġ": 1901,
      "bu2Ġshi4Ġ": 1902,
      "sheng1Ġya2Ġ": 1903,
      "ĠĠĠgai1Ġ": 1904,
      "kĠ": 1905,
      "li3Ġlun4Ġ": 1906,
      "Ġta1ĠmenĠ": 1907,
      "ba2Ġgao1Ġdu4Ġ": 1908,
      "Ġshan1Ġ": 1909,
      "zhan4Ġdou4Ġ": 1910,
      "wai4Ġjiao1Ġ": 1911,
      "ping2Ġjun1Ġ": 1912,
      "deĠcheng2Ġ": 1913,
      "guang3Ġdong1Ġ": 1914,
      "pang2Ġ": 1915,
      "ĠJ": 1916,
      "Ġsu1Ġ": 1917,
      "Ġ3Ġ": 1918,
      "neng2Ġgou4Ġ": 1919,
      "Ġhu2Ġ": 1920,
      "ge": 1921,
      "xue2Ġxi2Ġ": 1922,
      "yi4Ġda4Ġli4Ġ": 1923,
      "ĠĠĠren2Ġkou3Ġ": 1924,
      "shi4Ġwu4Ġ": 1925,
      "ow": 1926,
      "Ġshi1Ġ": 1927,
      "sheng1Ġwu4Ġ": 1928,
      "shi4Ġyou2Ġ": 1929,
      "li2Ġkai1Ġ": 1930,
      "yi1Ġnian2Ġ": 1931,
      "jiang1Ġjun1Ġ": 1932,
      "zong1Ġjiao4Ġ": 1933,
      "xia4ĠdeĠ": 1934,
      "Ġlai2Ġ": 1935,
      "Ġjian1Ġ": 1936,
      "ĠãĤ": 1937,
      "Ġpu3Ġ": 1938,
      "mai3Ġ": 1939,
      "chi2Ġxu4Ġ": 1940,
      "zhe4ĠgeĠ": 1941,
      "zheng4Ġzhi4Ġren2Ġwu4Ġ": 1942,
      "jie2Ġguo3Ġ": 1943,
      "mĠ": 1944,
      "ding4ĠdeĠ": 1945,
      "15Ġ": 1946,
      "ji2ĠdeĠ": 1947,
      "zi4Ġran2Ġ": 1948,
      "gong4Ġtong2Ġ": 1949,
      "han2Ġguo2Ġ": 1950,
      "yi1Ġyuan4Ġ": 1951,
      "fu4Ġqin1Ġ": 1952,
      "Ġãģ": 1953,
      "zuo4Ġyong4Ġ": 1954,
      "kun1Ġ": 1955,
      "li4Ġyong4Ġ": 1956,
      "bian1Ġma3Ġwei4Ġ": 1957,
      "kong1Ġjian1Ġ": 1958,
      "Ġla1Ġ": 1959,
      "zhi2Ġxing2Ġ": 1960,
      "la": 1961,
      "deĠyi2Ġge4Ġshi4Ġzhen4Ġ": 1962,
      "Ġ000Ġ": 1963,
      "zhong1Ġgong4Ġ": 1964,
      "da4Ġhui4Ġ": 1965,
      "nu3Ġ": 1966,
      "ren2Ġlei4Ġ": 1967,
      "Ġhan2Ġ": 1968,
      "Ġwei1Ġ": 1969,
      "sui1Ġ": 1970,
      "mei3Ġyuan2Ġ": 1971,
      "bo2Ġwu4Ġ": 1972,
      "jing4Ġnei4Ġ": 1973,
      "zhu2Ġjian4Ġ": 1974,
      "Ġshe4Ġ": 1975,
      "fang1Ġxiang4Ġ": 1976,
      "gai3Ġwei2Ġ": 1977,
      "Ġxue2Ġming2Ġ": 1978,
      "Ġzhu1Ġ": 1979,
      "jie1Ġrang3Ġ": 1980,
      "wen2Ġwu4Ġ": 1981,
      "kua4Ġ": 1982,
      "ĠĠĠgen1Ġju4Ġ": 1983,
      "yan3Ġchu1Ġ": 1984,
      "Ġgeng4Ġ": 1985,
      "hou2Ġ": 1986,
      "kui2Ġ": 1987,
      "na2Ġda4Ġ": 1988,
      "gai1Ġguo2Ġ": 1989,
      "nĠ": 1990,
      "ĠĠĠyu3Ġ": 1991,
      "ãĢī": 1992,
      "ãĢĪ": 1993,
      "niu3Ġyue1Ġ": 1994,
      "gong4Ġchan3Ġdang3Ġ": 1995,
      "Ġge1Ġ": 1996,
      "bu4Ġzai4Ġ": 1997,
      "Ġye3Ġshi4Ġ": 1998,
      "neng2Ġli4Ġ": 1999,
      "Ġzhang3Ġ": 2000,
      "gong1Ġgong4Ġ": 2001,
      "Ġling4Ġwai4Ġ": 2002,
      "Ġha1Ġ": 2003,
      "fen1Ġwei2Ġ": 2004,
      "she4Ġshi1Ġ": 2005,
      "bian4Ġhua4Ġ": 2006,
      "qi2Ġshi4Ġ": 2007,
      "sang1Ġ": 2008,
      "Ġmo4Ġ": 2009,
      "gong1Ġshi4Ġ": 2010,
      "oĠĠĠ": 2011,
      "bao4Ġgao4Ġ": 2012,
      "su1Ġlian2Ġ": 2013,
      "jin3Ġbiao1Ġ": 2014,
      "qiu2Ġyuan2Ġ": 2015,
      "yi4Ġwei4Ġ": 2016,
      "hou4Ġlai2Ġ": 2017,
      "Ġshen1Ġ": 2018,
      "shan3Ġ": 2019,
      "Ġfeng1Ġ": 2020,
      "ren4Ġwu4Ġ": 2021,
      "yan2Ġzhong4Ġ": 2022,
      "zhen3Ġ": 2023,
      "si3Ġwang2Ġ": 2024,
      "da4Ġqu1Ġ": 2025,
      "guang3Ġbo1Ġ": 2026,
      "kai1Ġfang4Ġ": 2027,
      "Ġzhe4Ġshi4Ġ": 2028,
      "Ġzuo4Ġwei2Ġ": 2029,
      "zhi4Ġzao4Ġ": 2030,
      "tu": 2031,
      "diao1Ġ": 2032,
      "Ġhan4Ġ": 2033,
      "ĠÐ": 2034,
      "zha1Ġ": 2035,
      "xi1Ġban1Ġya2Ġ": 2036,
      "pai2Ġming2Ġ": 2037,
      "ge4Ġzhong3Ġ": 2038,
      "zhi3Ġchu1Ġ": 2039,
      "oĠ": 2040,
      "dou1Ġshi4Ġ": 2041,
      "Ġzuo4Ġ": 2042,
      "Ġyang2Ġ": 2043,
      "wei2Ġyi1Ġ": 2044,
      "quan2Ġli4Ġ": 2045,
      "28Ġri4Ġ": 2046,
      "ic": 2047,
      "Ġru2Ġguo3Ġ": 2048,
      "jing1Ġguo4Ġ": 2049,
      "pai1Ġshe4Ġ": 2050,
      "Ġzui4Ġhou4Ġ": 2051,
      "15Ġri4Ġ": 2052,
      "gong1Ġneng2Ġ": 2053,
      "fa1Ġdong4Ġ": 2054,
      "es": 2055,
      "ren2Ġkou3Ġpu3Ġcha2Ġ": 2056,
      "zhi1Ġjian1ĠdeĠ": 2057,
      "shi4Ġchang3Ġ": 2058,
      "tai2Ġbei3Ġ": 2059,
      "dong3Ġ": 2060,
      "ba1Ġshi4Ġ": 2061,
      "xu2Ġ": 2062,
      "deĠyou2Ġ": 2063,
      "zhi3Ġyou3Ġ": 2064,
      "xing2Ġzheng4Ġqu1Ġ": 2065,
      "zai4Ġci4Ġ": 2066,
      "wei2Ġer3Ġ": 2067,
      "mu4Ġbiao1Ġ": 2068,
      "san1Ġge4Ġ": 2069,
      "si1Ġtan3Ġ": 2070,
      "dong1Ġbu4Ġ": 2071,
      "Ġzhong4Ġ": 2072,
      "Ġyi2Ġ": 2073,
      "lu4Ġxian4Ġ": 2074,
      "yun4Ġdong4Ġhui4Ġ": 2075,
      "zhong1Ġguo2Ġda4Ġlu4Ġ": 2076,
      "deĠguan1Ġ": 2077,
      "Ġfa3Ġ": 2078,
      "di4Ġsi4Ġ": 2079,
      "xun4Ġlian4Ġ": 2080,
      "juan3Ġ": 2081,
      "bei4Ġjing3Ġ": 2082,
      "xi4Ġbao1Ġ": 2083,
      "Ġjun1Ġ": 2084,
      "dian1Ġ": 2085,
      "196": 2086,
      "yan3Ġchang4Ġ": 2087,
      "Ġ4Ġ": 2088,
      "mu4Ġqian2Ġ": 2089,
      "pĠ": 2090,
      "tuan2Ġti3Ġ": 2091,
      "la1Ġsi1Ġ": 2092,
      "Ġdang1Ġdi4Ġ": 2093,
      "ec": 2094,
      "Ġ10Ġ": 2095,
      "yu2Ġ18": 2096,
      "gui1Ġding4Ġ": 2097,
      "tao4Ġ": 2098,
      "gou1Ġ": 2099,
      "jie1Ġdao4Ġ": 2100,
      "tong3Ġzhi4Ġ": 2101,
      "dong1Ġbei3Ġ": 2102,
      "iĠ": 2103,
      "Ġbao4Ġ": 2104,
      "30": 2105,
      "Ġke3Ġyi3Ġ": 2106,
      "Ġsha1Ġ": 2107,
      "re4Ġdai4Ġ": 2108,
      "wan2Ġjia1Ġ": 2109,
      "xi1Ġbu4Ġ": 2110,
      "deĠhe2Ġ": 2111,
      "ĠK": 2112,
      "zui4Ġjia1Ġ": 2113,
      "deĠxin1Ġ": 2114,
      "ĠĠĠL": 2115,
      "Ġti3Ġ": 2116,
      "bi4Ġxu1Ġ": 2117,
      "40Ġ": 2118,
      "gong1Ġbu4Ġ": 2119,
      "194": 2120,
      "yue4Ġtai2Ġ": 2121,
      "leng3Ġ": 2122,
      "Ġhuo4Ġde2Ġ": 2123,
      "er3Ġsheng3Ġ": 2124,
      "20Ġri4Ġ": 2125,
      "ju4Ġle4Ġ": 2126,
      "Ġsui2Ġhou4Ġ": 2127,
      "gui3Ġdao4Ġ": 2128,
      "ru3Ġ": 2129,
      "zu1Ġ": 2130,
      "cui4Ġ": 2131,
      "21Ġ": 2132,
      "da2Ġdao4Ġ": 2133,
      "zhe4Ġzhong3Ġ": 2134,
      "âĢĵ": 2135,
      "xian4Ġzai4Ġ": 2136,
      "chan3Ġpin3Ġ": 2137,
      "25Ġri4Ġ": 2138,
      "Ġjie4Ġ": 2139,
      "Ġdu4Ġ": 2140,
      "deĠyi1Ġbu4Ġfen4Ġ": 2141,
      "bo2Ġwu4Ġguan3Ġ": 2142,
      "si4Ġnian2Ġ": 2143,
      "30Ġri4Ġ": 2144,
      "ji4Ġsuan4Ġ": 2145,
      "si1Ġling4Ġ": 2146,
      "jie1Ġduan4Ġ": 2147,
      "quan1Ġ": 2148,
      "zhe3ĠdeĠ": 2149,
      "ao4Ġyun4Ġ": 2150,
      "hu3Ġ": 2151,
      "li3Ġsi1Ġ": 2152,
      "bao1Ġhan2Ġ": 2153,
      "rou4Ġ": 2154,
      "dan1Ġqu1Ġ": 2155,
      "xian4Ġzhi4Ġ": 2156,
      "tui1Ġchu1Ġ": 2157,
      "feng1Ġge2Ġ": 2158,
      "zhuo2Ġ": 2159,
      "mo2Ġshi4Ġ": 2160,
      "10Ġri4Ġ": 2161,
      "Ġer2Ġqie3Ġ": 2162,
      "Ġdi4Ġer4Ġ": 2163,
      "hua4ĠdeĠ": 2164,
      "xiang1Ġtong2Ġ": 2165,
      "zhuan1Ġye4Ġ": 2166,
      "guo2Ġwang2Ġ": 2167,
      "hui1Ġfu4Ġ": 2168,
      "Ġmai4Ġ": 2169,
      "Ġbian4Ġ": 2170,
      "lun2Ġdun1Ġ": 2171,
      "da4Ġzhan4Ġ": 2172,
      "Ġnei4Ġ": 2173,
      "shi4Ġzhang3Ġ": 2174,
      "quan2Ġqiu2Ġ": 2175,
      "Ġzu3Ġ": 2176,
      "mu3Ġqin1Ġ": 2177,
      "you3Ġxian4Ġgong1Ġsi1Ġ": 2178,
      "dao4Ġlu4Ġ": 2179,
      "ying4Ġyong4Ġ": 2180,
      "Ġ192": 2181,
      "xiao3Ġxing2Ġxing1Ġ": 2182,
      "it": 2183,
      "zhe": 2184,
      "jie3Ġfang4Ġ": 2185,
      "kun4Ġ": 2186,
      "as": 2187,
      "cha4Ġ": 2188,
      "keng1Ġ": 2189,
      "ming4Ġming2Ġ": 2190,
      "yu2Ġ202": 2191,
      "nan2ĠziĠ": 2192,
      "Ġjin3Ġguan3Ġ": 2193,
      "Ġxian1Ġ": 2194,
      "wang3Ġluo4Ġ": 2195,
      "bao4Ġfa1Ġ": 2196,
      "shi4Ġyi2Ġge4Ġ": 2197,
      "Ġtang2Ġ": 2198,
      "bi3Ġli4Ġ": 2199,
      "mang2Ġ": 2200,
      "lu4Ġjun1Ġ": 2201,
      "fen3Ġ": 2202,
      "ĠĠĠ198": 2203,
      "âĢ¦": 2204,
      "Ġhua2Ġ": 2205,
      "ju4Ġli2Ġ": 2206,
      "ĠĠĠR": 2207,
      "Ġque4Ġ": 2208,
      "Ġdian4Ġ": 2209,
      "bei4Ġcheng1Ġwei2Ġ": 2210,
      "ge1Ġshou3Ġ": 2211,
      "theĠĠĠ": 2212,
      "he2Ġbing4Ġ": 2213,
      "shang3Ġ": 2214,
      "guan1Ġyu2Ġ": 2215,
      "ta1ĠmenĠdeĠ": 2216,
      "hua4Ġxue2Ġ": 2217,
      "reng2Ġran2Ġ": 2218,
      "zi1Ġge2Ġ": 2219,
      "ĠW": 2220,
      "bu4Ġmen2Ġ": 2221,
      "Ġzhen1Ġ": 2222,
      "Ġyin3Ġ": 2223,
      "bu4Ġneng2Ġ": 2224,
      "cheng2Ġji4Ġ": 2225,
      "ji2Ġqi2Ġ": 2226,
      "meng2Ġgu3Ġ": 2227,
      "Ġzhuan1Ġ": 2228,
      "Ġrang4Ġ": 2229,
      "zhu3Ġchi2Ġ": 2230,
      "100Ġ": 2231,
      "24Ġ": 2232,
      "2010Ġnian2Ġ": 2233,
      "bo1Ġchu1Ġ": 2234,
      "ĠÃ": 2235,
      "xun1Ġ": 2236,
      "yi1Ġming2Ġ": 2237,
      "dian4Ġshi4Ġtai2Ġ": 2238,
      "Ġge4Ġ": 2239,
      "UT": 2240,
      "ji1Ġbai4Ġ": 2241,
      "Ġbai2Ġ": 2242,
      "Ġzhi2Ġdao4Ġ": 2243,
      "24Ġri4Ġ": 2244,
      "deng3Ġren2Ġ": 2245,
      "Ġyu2Ġshi4Ġ": 2246,
      "..": 2247,
      "can2Ġ": 2248,
      "Ġkai1Ġ": 2249,
      "shi2Ġnian2Ġ": 2250,
      "18Ġri4Ġ": 2251,
      "16Ġ": 2252,
      "ji1Ġchu3Ġ": 2253,
      "dao4ĠdeĠ": 2254,
      "chai1Ġ": 2255,
      "zhou1Ġshi4Ġ": 2256,
      "zhi4Ġdu4Ġ": 2257,
      "PĠ": 2258,
      "yi1Ġyang4Ġ": 2259,
      "ĠĠĠG": 2260,
      "26Ġri4Ġ": 2261,
      "ĠĠĠci3Ġ": 2262,
      "zhong1Ġbu4Ġ": 2263,
      "qing1Ġnian2Ġ": 2264,
      "nong2Ġye4Ġ": 2265,
      "pi1Ġping2Ġ": 2266,
      "zhu3Ġti2Ġ": 2267,
      "ye3Ġyou3Ġ": 2268,
      "gai3Ġge2Ġ": 2269,
      "lang4Ġ": 2270,
      "ming2Ġzi4Ġ": 2271,
      "qun2Ġdao3Ġ": 2272,
      "zhou4Ġ": 2273,
      "rao4Ġ": 2274,
      "ne4Ġ": 2275,
      "bu4Ġtong2ĠdeĠ": 2276,
      "shi2Ġyan4Ġ": 2277,
      "gao1Ġsu4Ġ": 2278,
      "fei1Ġji1Ġ": 2279,
      "gui1Ġhua4Ġ": 2280,
      "meĠ": 2281,
      "jian4Ġzao4Ġ": 2282,
      "16Ġri4Ġ": 2283,
      "lin2Ġpi3Ġ": 2284,
      "zhe4Ġyi1Ġ": 2285,
      "ling3Ġyu4Ġ": 2286,
      "ĠĠĠD": 2287,
      "ju4Ġle4Ġbu4Ġ": 2288,
      "yu2Ġ199": 2289,
      "Ġwen2Ġ": 2290,
      "ying2Ġde2Ġ": 2291,
      "wu3Ġnian2Ġ": 2292,
      "shu2Ġ": 2293,
      "nan4Ġ": 2294,
      "li4Ġfa3Ġ": 2295,
      "jiang1Ġqi2Ġ": 2296,
      "17Ġri4Ġ": 2297,
      "bu2Ġhui4Ġ": 2298,
      "Ġjiu3Ġ": 2299,
      "wu4Ġli3Ġ": 2300,
      "mei3Ġzhou1Ġ": 2301,
      "deĠshou3Ġ": 2302,
      "12Ġri4Ġ": 2303,
      "195": 2304,
      "biao3Ġyan3Ġ": 2305,
      "she4Ġzhi4Ġ": 2306,
      "xia4Ġji4Ġ": 2307,
      "5Ġri4Ġ": 2308,
      "Ġzhao4Ġ": 2309,
      "shui3Ġyu4Ġ": 2310,
      "2Ġri4Ġ": 2311,
      "Ġzhe4Ġzhong3Ġ": 2312,
      "yin1Ġci3Ġ": 2313,
      "Ġ5Ġ": 2314,
      "guang3Ġchang3Ġ": 2315,
      "cu4Ġ": 2316,
      "nai3Ġ": 2317,
      "ju1Ġzhu4Ġ": 2318,
      "a1Ġla1Ġ": 2319,
      "xiang1Ġdang1Ġ": 2320,
      "Ġdan4Ġzai4Ġ": 2321,
      "di4Ġshi2Ġ": 2322,
      "yuan2Ġnian2Ġ": 2323,
      "zhong1Ġhua2Ġmin2Ġguo2Ġ": 2324,
      "tai4Ġyang2Ġ": 2325,
      "jin4Ġshi4Ġ": 2326,
      "11Ġri4Ġ": 2327,
      "tou2Ġzi1Ġ": 2328,
      "ĠĠĠH": 2329,
      "dong1Ġjing1Ġ": 2330,
      "ta1Ġzai4Ġ": 2331,
      "Ġta1Ġceng2Ġ": 2332,
      "zao1Ġdao4Ġ": 2333,
      "si1Ġji1Ġ": 2334,
      "xue2Ġzhe3Ġ": 2335,
      "fa1Ġshe4Ġ": 2336,
      "ma2Ġ": 2337,
      "21Ġri4Ġ": 2338,
      "gong1Ġchi3Ġ": 2339,
      "ti1Ġ": 2340,
      "you3ĠdeĠ": 2341,
      "ji1Ġben3Ġ": 2342,
      "ĠĠĠ194": 2343,
      "te4Ġzheng1Ġ": 2344,
      "27Ġri4Ġ": 2345,
      "60Ġ": 2346,
      "xi2Ġji1Ġ": 2347,
      "23Ġri4Ġ": 2348,
      "lin2Ġpi3Ġke4Ġ": 2349,
      "dong1Ġnan2Ġ": 2350,
      "18Ġ": 2351,
      "22Ġri4Ġ": 2352,
      "ji2Ġzhong1Ġ": 2353,
      "Ġmo2Ġ": 2354,
      "Ġlu2Ġ": 2355,
      "19Ġri4Ġ": 2356,
      "xin4Ġxi1Ġ": 2357,
      "Ġ2001Ġnian2Ġ": 2358,
      "tai4Ġping2Ġ": 2359,
      "Ġzhe4ĠgeĠ": 2360,
      "Ġyong4Ġ": 2361,
      "da4Ġbu4Ġfen4Ġ": 2362,
      "cui1Ġ": 2363,
      "xue2Ġwei4Ġ": 2364,
      "guang3Ġfan4Ġ": 2365,
      "tong2Ġnian2Ġ": 2366,
      "tou4Ġguo4Ġ": 2367,
      "fen1Ġzhong1Ġ": 2368,
      "Ġshi4Ġwei4Ġyu2Ġmei3Ġguo2Ġ": 2369,
      "ation": 2370,
      "lian2Ġjie1Ġ": 2371,
      "shi2Ġji4Ġ": 2372,
      "jin3Ġbiao1Ġsai4Ġ": 2373,
      "qian4Ġ": 2374,
      "Ġcai2Ġ": 2375,
      "jia1Ġna2Ġda4Ġ": 2376,
      "chao2Ġxian1Ġ": 2377,
      "Ġying1Ġguo2Ġ": 2378,
      "da1Ġ": 2379,
      "yue1Ġhan4Ġ": 2380,
      "14Ġri4Ġ": 2381,
      "29Ġri4Ġ": 2382,
      "Ġhai3Ġba2Ġgao1Ġdu4Ġ": 2383,
      "Ġchong2Ġ": 2384,
      "dui4ĠdeĠ": 2385,
      "si1ĠdeĠ": 2386,
      "bing4Ġbu4Ġ": 2387,
      "yuan2Ġyin1Ġ": 2388,
      "jing3Ġcha2Ġ": 2389,
      "Ġjia3Ġ": 2390,
      "za2Ġzhi4Ġ": 2391,
      "jian4Ġyu2Ġ": 2392,
      "ge4Ġyue4Ġ": 2393,
      "Ġta1Ġshi4Ġ": 2394,
      "deng3Ġdi4Ġ": 2395,
      "Ġshu3Ġ": 2396,
      "li3ĠdeĠ": 2397,
      "fen1Ġxi1Ġ": 2398,
      "tan1Ġ": 2399,
      "qu3Ġdai4Ġ": 2400,
      "er3Ġde2Ġ": 2401,
      "Ġwai4Ġ": 2402,
      "Ġshui3Ġ": 2403,
      "wei4Ġren2Ġ": 2404,
      "guan1Ġfang1Ġ": 2405,
      "Ġdang1Ġzhong1Ġ": 2406,
      "jing1Ġli4Ġ": 2407,
      "xia4Ġxia2Ġ": 2408,
      "ping2Ġlun4Ġ": 2409,
      "Ġqi3Ġ": 2410,
      "she4Ġbei4Ġ": 2411,
      "ter": 2412,
      "ur": 2413,
      "13Ġri4Ġ": 2414,
      "50": 2415,
      "xie2Ġzhu4Ġ": 2416,
      "sai4Ġji4Ġ": 2417,
      "bi3Ġya4Ġ": 2418,
      "zuo3Ġyou4Ġ": 2419,
      "wang3Ġzhan4Ġ": 2420,
      "dang1Ġxuan3Ġ": 2421,
      "UTCĠ": 2422,
      "she4Ġqu1Ġ": 2423,
      "ren4Ġming4Ġ": 2424,
      "ao4Ġlin2Ġpi3Ġke4Ġ": 2425,
      "tu3Ġdi4Ġ": 2426,
      "mu4Ġdi4Ġ": 2427,
      "duo1ĠdeĠ": 2428,
      "di4Ġqu1ĠdeĠ": 2429,
      "IĠ": 2430,
      "bu4Ġyu2Ġ": 2431,
      "yun4Ġshu1Ġ": 2432,
      "Ġhei1Ġ": 2433,
      "qiang3Ġ": 2434,
      "che1Ġliang4Ġ": 2435,
      "er4Ġnian2Ġ": 2436,
      "she2Ġ": 2437,
      "xi1Ġnan2Ġ": 2438,
      "pin2Ġdao4Ġ": 2439,
      "shuo4Ġ": 2440,
      "Ġran2Ġhou4Ġ": 2441,
      "hui4ĠdeĠ": 2442,
      "hui4Ġzai4Ġ": 2443,
      "31Ġri4Ġ": 2444,
      "onĠ": 2445,
      "xi1Ġla4Ġ": 2446,
      "ding4Ġyi4Ġ": 2447,
      "Ġ14": 2448,
      "yuan2Ġzhu4Ġ": 2449,
      "wei2Ġzhu3Ġ": 2450,
      "ĠĠĠ18": 2451,
      "si1Ġke1Ġ": 2452,
      "zai4Ġdi4Ġ": 2453,
      "zhan4Ġyi4Ġ": 2454,
      "deĠshi2Ġqu1Ġwei4Ġ": 2455,
      "xi1Ġbei3Ġ": 2456,
      "ying3Ġpian4Ġ": 2457,
      "man4Ġhua4Ġ": 2458,
      "ir": 2459,
      "su4Ġdu4Ġ": 2460,
      "25Ġ": 2461,
      "yi1Ġwei4Ġ": 2462,
      "Ġqi2Ġhou4Ġ": 2463,
      "ye4Ġwu4Ġ": 2464,
      "ma3Ġlai2Ġ": 2465,
      "bao3Ġchi2Ġ": 2466,
      "Ġzhong1Ġhua2Ġren2Ġmin2Ġgong4Ġhe2Ġguo2Ġ": 2467,
      "Ġ191": 2468,
      "ĠĠĠF": 2469,
      "ĠĠĠju4Ġ": 2470,
      "23Ġ": 2471,
      "yi4Ġyuan4Ġ": 2472,
      "heĠĠĠ": 2473,
      "quan4Ġ": 2474,
      "han3Ġ": 2475,
      "su2Ġ": 2476,
      "zuo4Ġjia1Ġ": 2477,
      "wei4ĠleĠ": 2478,
      "ze2Ġshi4Ġ": 2479,
      "ĠO": 2480,
      "mao4Ġyi4Ġ": 2481,
      "nan2Ġsheng3Ġ": 2482,
      "fen1Ġlei4Ġ": 2483,
      "xuan1Ġchuan2Ġ": 2484,
      "quan2Ġbu4Ġ": 2485,
      "Ġyi2Ġge4Ġ": 2486,
      "anĠ": 2487,
      "Ġtong1Ġchang2Ġ": 2488,
      "Ġ20": 2489,
      "Ġya4Ġ": 2490,
      "zhai2Ġ": 2491,
      "Ġjing3Ġ": 2492,
      "deng4Ġ": 2493,
      "zhi3Ġshi4Ġ": 2494,
      "jian4Ġyi4Ġ": 2495,
      "qing2Ġkuang4Ġxia4Ġ": 2496,
      "ren2Ġzai4Ġ": 2497,
      "Ġtou2Ġ": 2498,
      "zui4Ġda4Ġ": 2499,
      "wei4Ġmei3Ġ": 2500,
      "Ġcheng1Ġ": 2501,
      "Ġruo4Ġ": 2502,
      "can1Ġsai4Ġ": 2503,
      "nan2Ġxing4Ġ": 2504,
      "zu": 2505,
      "zheng1Ġyi4Ġ": 2506,
      "shi2Ġshi1Ġ": 2507,
      "fang1Ġan4Ġ": 2508,
      "te": 2509,
      "tiao2Ġjian4Ġ": 2510,
      "zhuang4Ġtai4Ġ": 2511,
      "Ġwei4Ġyu2Ġgai1Ġguo2Ġ": 2512,
      "EĠ": 2513,
      "zhan1Ġ": 2514,
      "Ġbian1Ġ": 2515,
      "qi4Ġche1Ġ": 2516,
      "xuan3Ġshou3Ġ": 2517,
      "Ġjian3Ġcheng1Ġ": 2518,
      "Ġfen1Ġbie2Ġ": 2519,
      "zuo4Ġzhan4Ġ": 2520,
      "Ġmei2Ġ": 2521,
      "sheng3Ġji2Ġ": 2522,
      "dian4Ġshi4Ġju4Ġ": 2523,
      "di4Ġwei4Ġ": 2524,
      "hui2Ġdao4Ġ": 2525,
      "lian2Ġxu4Ġ": 2526,
      "Ġren4Ġwei2Ġ": 2527,
      "Ġwei4ĠleĠ": 2528,
      "Ġshen2Ġ": 2529,
      "Ġshuang1Ġ": 2530,
      "ngĠ": 2531,
      "zuo4Ġchu1Ġ": 2532,
      "Ġdan1Ġren4Ġ": 2533,
      "ĠĠĠI": 2534,
      "ren2Ġkou3Ġshu4Ġliang4Ġ": 2535,
      "er2ĠziĠ": 2536,
      "ni1Ġ": 2537,
      "jiao4Ġtang2Ġ": 2538,
      "tong3Ġji4Ġ": 2539,
      "bo2Ġshi4Ġ": 2540,
      "ju4Ġjue2Ġ": 2541,
      "po4Ġhuai4Ġ": 2542,
      "wu3Ġqi4Ġ": 2543,
      "cao2Ġ": 2544,
      "zhu3Ġjue2Ġ": 2545,
      "ping2Ġjia4Ġ": 2546,
      "duo1Ġci4Ġ": 2547,
      "ke1Ġji4Ġ": 2548,
      "ti3ĠdeĠ": 2549,
      "Ġzhe4Ġyi1Ġ": 2550,
      "liu4Ġnian2Ġ": 2551,
      "ceng2Ġjing1Ġ": 2552,
      "zong1Ġhe2Ġ": 2553,
      "she3Ġ": 2554,
      "bei4Ġer3Ġ": 2555,
      "gai3Ġbian4Ġ": 2556,
      "Ġshi4Ġfa3Ġguo2Ġ": 2557,
      "17Ġ": 2558,
      "27": 2559,
      "zeng4Ġ": 2560,
      "Ġ190": 2561,
      "sui1Ġran2Ġ": 2562,
      "xi1Ġwang4Ġ": 2563,
      "ni4Ġ": 2564,
      "hai2Ġyou3Ġ": 2565,
      "pao3Ġ": 2566,
      "guo2ĠdeĠ": 2567,
      "gai4Ġnian4Ġ": 2568,
      "zui4Ġda4ĠdeĠ": 2569,
      "un": 2570,
      "bang1Ġzhu4Ġ": 2571,
      "Ġai1Ġ": 2572,
      "er2Ġtong2Ġ": 2573,
      "hong1Ġ": 2574,
      "me": 2575,
      "guang3Ġzhou1Ġ": 2576,
      "hai3Ġba2Ġ": 2577,
      "ding4Ġwei4Ġ": 2578,
      "dao3Ġyan3Ġ": 2579,
      "Ġshu1Ġ": 2580,
      "shang4Ġwei4Ġ": 2581,
      "zhan3Ġkai1Ġ": 2582,
      "Ġqi2Ġta1Ġ": 2583,
      "Ġfan3Ġ": 2584,
      "yi1Ġshi4Ġ": 2585,
      "Ġfen1Ġbu4Ġyu2Ġ": 2586,
      "zhi1Ġwai4Ġ": 2587,
      "gao3Ġ": 2588,
      "deĠshu4Ġju4Ġ": 2589,
      "yun4Ġying2Ġ": 2590,
      "deĠyi4Ġ": 2591,
      "ping2Ġtai2Ġ": 2592,
      "jing1Ġying2Ġ": 2593,
      "ji4Ġcheng2Ġ": 2594,
      "zhi4Ġliao2Ġ": 2595,
      "guan1Ġyuan2Ġ": 2596,
      "tun2Ġ": 2597,
      "Ġci3Ġhou4Ġ": 2598,
      "zhan4Ġling3Ġ": 2599,
      "zu3Ġhe2Ġ": 2600,
      "fei1Ġxing2Ġ": 2601,
      "zi1Ġyuan2Ġ": 2602,
      "Ġtu2Ġ": 2603,
      "jian3Ġshao3Ġ": 2604,
      "kan3Ġ": 2605,
      "lu4Ġdi4Ġ": 2606,
      "jie3Ġjue2Ġ": 2607,
      "ĠĠformulaĠ": 2608,
      "Ġfei4Ġ": 2609,
      "leĠyi2Ġge4Ġ": 2610,
      "EE": 2611,
      "nei4Ġbu4Ġ": 2612,
      "Ġshen4Ġzhi4Ġ": 2613,
      "Ġmi3Ġ": 2614,
      "deĠqian2Ġ": 2615,
      "da4Ġli4Ġya4Ġ": 2616,
      "tou2Ġpiao4Ġ": 2617,
      "00Ġwan4Ġ": 2618,
      "guo1Ġ": 2619,
      "di4Ġtie3Ġ": 2620,
      "xing1Ġjian4Ġ": 2621,
      "193": 2622,
      "ji1Ġdu1Ġ": 2623,
      "deĠshi4Ġzhen4Ġ": 2624,
      "Ġda2Ġ": 2625,
      "jie2Ġhe2Ġ": 2626,
      "fei2Ġ": 2627,
      "Ġye4Ġ": 2628,
      "hen3Ġduo1Ġ": 2629,
      "ĠĠĠzheng4Ġzhi4Ġ": 2630,
      "fu4Ġze2Ġguan3Ġxia2Ġ": 2631,
      "xian4Ġlu4Ġ": 2632,
      "gai1Ġdi4Ġ": 2633,
      "ĠĠĠzhe4Ġ": 2634,
      "bi3Ġjiao4Ġ": 2635,
      "zong4Ġ": 2636,
      "nian2ĠdeĠ": 2637,
      "ce4Ġshi4Ġ": 2638,
      "xiang1Ġdui4Ġ": 2639,
      "xie2Ġyi4Ġ": 2640,
      "zai4Ġ200": 2641,
      "liu2Ġxing2Ġ": 2642,
      "ba1Ġli2Ġ": 2643,
      "wu2Ġxian4Ġ": 2644,
      "qiong2Ġ": 2645,
      "Ġsai4Ġ": 2646,
      "mei3Ġguo2Ġren2Ġkou3Ġpu3Ġcha2Ġ": 2647,
      "kong1Ġjun1Ġ": 2648,
      "chuang2Ġ": 2649,
      "zhai4Ġ": 2650,
      "28": 2651,
      "li4Ġyu2Ġ": 2652,
      "di4Ġqiu2Ġ": 2653,
      "Ġdao3Ġzhi4Ġ": 2654,
      "zai4Ġ201": 2655,
      "mian4ĠdeĠ": 2656,
      "ji1Ġjin1Ġ": 2657,
      "ying1Ġge2Ġlan2Ġ": 2658,
      "nan2Ġjing1Ġ": 2659,
      "lai2Ġyuan2Ġ": 2660,
      "di4Ġxia4Ġ": 2661,
      "nv3Ġer2Ġ": 2662,
      "chu2ĠleĠ": 2663,
      "jian4Ġdui4Ġ": 2664,
      "chui2Ġ": 2665,
      "juan1Ġ": 2666,
      "jin4Ġgong1Ġ": 2667,
      "Ġshu4Ġ": 2668,
      "ĠĠĠyou2Ġyu2Ġ": 2669,
      "xiong1Ġdi4Ġ": 2670,
      "da4Ġlou2Ġ": 2671,
      "miao3Ġ": 2672,
      "zhi4Ġjin1Ġ": 2673,
      "sheng3ĠdeĠyi2Ġge4Ġshi4Ġzhen4Ġ": 2674,
      "Ġsong4Ġ": 2675,
      "Ġtong1Ġguo4Ġ": 2676,
      "ying1Ġchi3Ġ": 2677,
      "VĠ": 2678,
      "jia1Ġpo1Ġ": 2679,
      "yi3Ġshang4Ġ": 2680,
      "Ġ10": 2681,
      "Ġchao2Ġ": 2682,
      "shi2Ġxian4Ġ": 2683,
      "da4Ġchen2Ġ": 2684,
      "suo3Ġshu3ĠdeĠ": 2685,
      "ban4Ġdao3Ġ": 2686,
      "Ġdi2Ġ": 2687,
      "dian4ĠziĠ": 2688,
      "lv3Ġyou2Ġ": 2689,
      "Ġyong3Ġ": 2690,
      "tian1Ġzhu3Ġjiao4Ġ": 2691,
      "zhen4Ġqu1Ġ": 2692,
      "ĠĠĠta1Ġ": 2693,
      "li3Ġshi4Ġ": 2694,
      "Ġdi4Ġyi1Ġ": 2695,
      "mian2Ġ": 2696,
      "shu4ĠdeĠ": 2697,
      "wang2Ġchao2Ġ": 2698,
      "BĠ": 2699,
      "xue1Ġ": 2700,
      "yan2Ġjiu1Ġsuo3Ġ": 2701,
      "fo2Ġjiao4Ġ": 2702,
      "zui4Ġchu1Ġ": 2703,
      "di4Ġer4Ġci4Ġ": 2704,
      "fei3Ġ": 2705,
      "40": 2706,
      "ming2Ġdan1Ġ": 2707,
      "NS": 2708,
      "ji1ĠdeĠ": 2709,
      "Ġ6Ġ": 2710,
      "ziĠdeĠ": 2711,
      "chu1Ġqi1Ġ": 2712,
      "fen4Ġzi3Ġ": 2713,
      "shan1Ġdong1Ġ": 2714,
      "jia4Ġzhi2Ġ": 2715,
      "sheng1Ġyu2Ġ": 2716,
      "Ġ2011Ġnian2Ġ": 2717,
      "Ġjing4Ġ": 2718,
      "he2Ġxin1Ġ": 2719,
      "Ġsa4Ġ": 2720,
      "chang2Ġqi1Ġ": 2721,
      "jin4ĠdeĠ": 2722,
      "oc": 2723,
      "zhou2Ġ": 2724,
      "ji4Ġzai3Ġ": 2725,
      "yi2Ġbu4Ġ": 2726,
      "chan3Ġye4Ġ": 2727,
      "guo2Ġmin2Ġdang3Ġ": 2728,
      "Ġmin2Ġ": 2729,
      "er3ĠdeĠ": 2730,
      "he2Ġping2Ġ": 2731,
      "Ġjiang3Ġ": 2732,
      "wo1Ġ": 2733,
      "di4Ġyi1Ġci4Ġ": 2734,
      "ji1Ġche1Ġ": 2735,
      "yun4Ġxing2Ġ": 2736,
      "wen2Ġwu4Ġbao3Ġhu4Ġ": 2737,
      "ĠĠĠW": 2738,
      "shuai1Ġ": 2739,
      "ji4Ġzhe3Ġ": 2740,
      "ke4ĠdeĠ": 2741,
      "jing1Ġchang2Ġ": 2742,
      "chuang1Ġ": 2743,
      "gan3Ġran3Ġ": 2744,
      "huang2Ġdi4Ġ": 2745,
      "huan3Ġ": 2746,
      "andĠĠĠ": 2747,
      "shi4Ġzhong1Ġ": 2748,
      "zui4Ġzao3Ġ": 2749,
      "chang4Ġpian4Ġ": 2750,
      "qi4Ġhou4Ġ": 2751,
      "mi4Ġshu1Ġ": 2752,
      "de2Ġli3Ġ": 2753,
      "wan4Ġren2Ġ": 2754,
      "xing1Ġqi1Ġ": 2755,
      "fang1ĠdeĠ": 2756,
      "yin3Ġqi3Ġ": 2757,
      "gua1Ġ": 2758,
      "da4Ġxing2Ġ": 2759,
      "Ġjiao1Ġ": 2760,
      "bei4Ġren4Ġwei2Ġ": 2761,
      "qu3Ġxiao1Ġ": 2762,
      "Ġpei4Ġ": 2763,
      "Ġni2Ġ": 2764,
      "xuan3Ġqu1Ġ": 2765,
      "duo1Ġge4Ġ": 2766,
      "chong1Ġtu1Ġ": 2767,
      "xi1Ġyang2Ġ": 2768,
      "ji1Ġdi4Ġ": 2769,
      "wei2Ġchi2Ġ": 2770,
      "shou1Ġru4Ġ": 2771,
      "ĠĠĠ197": 2772,
      "jing1Ġshen2Ġ": 2773,
      "Ġwu1Ġ": 2774,
      "dao1Ġ": 2775,
      "Ġfa3Ġguo2Ġ": 2776,
      "da4Ġshi3Ġ": 2777,
      "jia1ĠdeĠ": 2778,
      "chu1Ġren4Ġ": 2779,
      "bo1Ġlan2Ġ": 2780,
      "wei4Ġneng2Ġ": 2781,
      "Ġchu3Ġ": 2782,
      "guo4Ġqu4Ġ": 2783,
      "tong3Ġyi1Ġ": 2784,
      "tong4Ġ": 2785,
      "shi4Ġjie4Ġda4Ġzhan4Ġ": 2786,
      "bo2Ġte4Ġ": 2787,
      "Ġshi4Ġyi2Ġge4Ġ": 2788,
      "kuai4Ġsu4Ġ": 2789,
      "san1Ġshi2Ġ": 2790,
      "xiao3Ġzu3Ġ": 2791,
      "ĠĠĠ195": 2792,
      "pan1Ġ": 2793,
      "shao4Ġnian2Ġ": 2794,
      "li4Ġliang4Ġ": 2795,
      "ĠbrĠ": 2796,
      "xian4ĠdeĠyi2Ġge4Ġ": 2797,
      "wei2Ġya4Ġ": 2798,
      "Ġzheng3Ġ": 2799,
      "Ġci2Ġ": 2800,
      "he2Ġwu4Ġ": 2801,
      "deĠyi1Ġzhong3Ġ": 2802,
      "ji1Ġguan1Ġ": 2803,
      "zhi4Ġ202": 2804,
      "qi2Ġyu2Ġ": 2805,
      "ke3Ġda2Ġ": 2806,
      "gua4Ġ": 2807,
      "shi4Ġyan3Ġ": 2808,
      "pi1Ġzhun3Ġ": 2809,
      "xi1Ġsheng3Ġ": 2810,
      "is": 2811,
      "Ġmei2Ġyou3Ġ": 2812,
      "di4Ġwu3Ġ": 2813,
      "wen2Ġwu4Ġbao3Ġhu4Ġdan1Ġwei4Ġ": 2814,
      "xiao3Ġxue2Ġ": 2815,
      "yang4ĠdeĠ": 2816,
      "sai1Ġer3Ġ": 2817,
      "yu3ĠdeĠ": 2818,
      "se4Ġlie4Ġ": 2819,
      "zhi1Ġxian4Ġ": 2820,
      "26": 2821,
      "Ġshi4Ġjie4Ġ": 2822,
      "jiao1Ġyi4Ġ": 2823,
      "si1Ġke4Ġ": 2824,
      "cheng2Ġdu4Ġ": 2825,
      "da4Ġyue1Ġ": 2826,
      "shi3ĠdeĠ": 2827,
      "wa1Ġ": 2828,
      "zheng4Ġming2Ġ": 2829,
      "29": 2830,
      "zhu4Ġming2Ġ": 2831,
      "tong2Ġyi4Ġ": 2832,
      "Ġ2010Ġnian2Ġ": 2833,
      "deĠbu4Ġ": 2834,
      "tie3Ġdao4Ġ": 2835,
      "ĠU": 2836,
      "zheng4Ġzai4Ġ": 2837,
      "fang3Ġwen4Ġ": 2838,
      "ao4Ġlin2Ġpi3Ġke4Ġyun4Ġdong4Ġhui4Ġ": 2839,
      "tuo2Ġ": 2840,
      "tai4Ġping2Ġyang2Ġ": 2841,
      "ĠĠĠE": 2842,
      "bao3Ġliu2Ġ": 2843,
      "tu2Ġshu1Ġ": 2844,
      "shou1Ġlu4Ġ": 2845,
      "tie1Ġ": 2846,
      "shang4Ġshi4Ġ": 2847,
      "Ġ2009Ġnian2Ġ": 2848,
      "heng1Ġ": 2849,
      "dai4ĠdeĠ": 2850,
      "fan3Ġhui2Ġ": 2851,
      "zheng3Ġge4Ġ": 2852,
      "Ġyi4Ġban1Ġ": 2853,
      "Ġdong4Ġ": 2854,
      "yun3Ġxu3Ġ": 2855,
      "Ġkai1Ġshi3Ġ": 2856,
      "wu3Ġzhuang1Ġ": 2857,
      "ĠĠĠshi4Ġ": 2858,
      "ji1Ġyu2Ġ": 2859,
      "shuo1Ġfa3Ġ": 2860,
      "Ġluo4Ġ": 2861,
      "he2ĠdeĠ": 2862,
      "zhun3Ġbei4Ġ": 2863,
      "Ġchao1Ġ": 2864,
      "zhu4Ġzuo4Ġ": 2865,
      "qi1Ġzi3Ġ": 2866,
      "ig": 2867,
      "Ġdu2Ġ": 2868,
      "tian1Ġjin1Ġ": 2869,
      "nian2Ġqing1Ġ": 2870,
      "yi1Ġsi1Ġ": 2871,
      "zhi1Ġshi2Ġ": 2872,
      "Ġan4Ġ": 2873,
      "zong3Ġli3Ġ": 2874,
      "Ġte4Ġbie2Ġ": 2875,
      "zhe4Ġjiang1Ġ": 2876,
      "wei4ĠdeĠ": 2877,
      "you3Ġxiao4Ġ": 2878,
      "jun1ĠdeĠ": 2879,
      "Ġbu4Ġfen4Ġ": 2880,
      "qiao2Ġzhi4Ġ": 2881,
      "qian2ĠdeĠ": 2882,
      "huang2Ġjia1Ġ": 2883,
      "yue4Ġnan2Ġ": 2884,
      "fu2Ġjian4Ġ": 2885,
      "zhang3ĠdeĠ": 2886,
      "ren2Ġhe2Ġ": 2887,
      "bao4Ġdao4Ġ": 2888,
      "Ġshi4Ġzhen4Ġ": 2889,
      "80Ġ": 2890,
      "shi4Ġyi3Ġ": 2891,
      "li4Ġsi1Ġ": 2892,
      "zuo4Ġbiao1Ġ": 2893,
      "se4ĠdeĠ": 2894,
      "yi4Ġzhi4Ġ": 2895,
      "qiu2Ġchang3Ġ": 2896,
      "Ġchuang4Ġ": 2897,
      "Ġlan2Ġ": 2898,
      "tiao2Ġyue1Ġ": 2899,
      "bian3Ġ": 2900,
      "jian4Ġzhi4Ġ": 2901,
      "lie4Ġwei4Ġ": 2902,
      "guo2Ġnei4Ġ": 2903,
      "Ġdui4Ġyu2Ġ": 2904,
      "yao1Ġqing3Ġ": 2905,
      "tang1Ġ": 2906,
      "wĠ": 2907,
      "qi3Ġlai2Ġ": 2908,
      "mi3Ġer3Ġ": 2909,
      "tiao4Ġ": 2910,
      "xing2Ġzheng4Ġqu1Ġhua4Ġ": 2911,
      "ji2Ġwei4Ġ": 2912,
      "wei3Ġhui4Ġ": 2913,
      "zhong4Ġyao4ĠdeĠ": 2914,
      "Ġzhuan3Ġ": 2915,
      "ag": 2916,
      "ren2Ġshu4Ġ": 2917,
      "tou2Ġru4Ġ": 2918,
      "shi3Ġyong4ĠdeĠ": 2919,
      "hao3ĠdeĠ": 2920,
      "jian4Ġcheng2Ġ": 2921,
      "lin2Ġshi2Ġ": 2922,
      "32Ġ": 2923,
      "Ġguang1Ġ": 2924,
      "ĠĠĠ196": 2925,
      "ru2Ġxia4Ġ": 2926,
      "yu2Ġ198": 2927,
      "zhi4Ġ201": 2928,
      "huo4Ġde2ĠleĠ": 2929,
      "hao4Ġxian4Ġ": 2930,
      "ĠĠĠN": 2931,
      "Ġbing4Ġyu2Ġ": 2932,
      "wang2Ġguo2Ġ": 2933,
      "av": 2934,
      "ge4Ġdi4Ġ": 2935,
      "shan1Ġmai4Ġ": 2936,
      "da4Ġdao4Ġ": 2937,
      "cheng2Ġxian4Ġ": 2938,
      "er3Ġte4Ġ": 2939,
      "Ġhao2Ġ": 2940,
      "zheng4Ġdang3Ġ": 2941,
      "biao3Ġda2Ġ": 2942,
      "Ġchu2ĠleĠ": 2943,
      "si4Ġchuan1Ġ": 2944,
      "gong1Ġfen1Ġ": 2945,
      "gao1Ġji2Ġ": 2946,
      "guai4Ġ": 2947,
      "ru4Ġqin1Ġ": 2948,
      "Ġxiang3Ġ": 2949,
      "op": 2950,
      "Ġguo2Ġjia1Ġ": 2951,
      "200Ġ": 2952,
      "jian3Ġcha2Ġ": 2953,
      "chu1Ġshen1Ġ": 2954,
      "jiao4Ġhui4Ġ": 2955,
      "zhu3Ġyan3Ġ": 2956,
      "deĠzhu3Ġyao4Ġ": 2957,
      "ji1Ġhu1Ġ": 2958,
      "tao3Ġlun4Ġ": 2959,
      "shang4Ġying4Ġ": 2960,
      "ke4Ġcheng2Ġ": 2961,
      "er3Ġqi2Ġ": 2962,
      "jian1ĠdeĠ": 2963,
      "ĠĠĠche1Ġzhan4Ġ": 2964,
      "guan1Ġzhong4Ġ": 2965,
      "zhan4Ġshi4Ġ": 2966,
      "ren2Ġmin2Ġzheng4Ġfu3Ġ": 2967,
      "xiao1Ġshou4Ġ": 2968,
      "cheng2Ġren4Ġ": 2969,
      "ĠĠĠtheĠĠĠ": 2970,
      "xia4Ġling4Ġ": 2971,
      "yi2Ġzhi4Ġ": 2972,
      "RĠ": 2973,
      "ni2Ġsi1Ġ": 2974,
      "shi2Ġfen1Ġ": 2975,
      "Ġhan": 2976,
      "zi4Ġxing2Ġ": 2977,
      "Ġyou2Ġxi4Ġ": 2978,
      "lai2Ġshuo1Ġ": 2979,
      "xian4Ġxiang4Ġ": 2980,
      "xi1Ġge1Ġ": 2981,
      "chai2Ġ": 2982,
      "deĠgong1Ġ": 2983,
      "chu1ĠleĠ": 2984,
      "pu2Ġtao2Ġ": 2985,
      "wen2Ġzhang1Ġ": 2986,
      "hai3Ġan4Ġ": 2987,
      "00Ġmi3Ġ": 2988,
      "wei2Ġqi2Ġ": 2989,
      "lĠ": 2990,
      "Ġlong2Ġ": 2991,
      "he2Ġlan2Ġ": 2992,
      "la1Ġke4Ġ": 2993,
      "zao3Ġnian2Ġ": 2994,
      "Ġjia4Ġ": 2995,
      "ĠĠĠ2021Ġnian2Ġ": 2996,
      "chi1Ġ": 2997,
      "wei4Ġfa3Ġguo2Ġ": 2998,
      "yi3Ġhou4Ġ": 2999,
      "ĠĠĠxing2Ġzheng4Ġ": 3000,
      "fa1Ġdian4Ġ": 3001,
      "bu4Ġduan4Ġ": 3002,
      "tong2Ġyi1Ġ": 3003,
      "que4Ġding4Ġ": 3004,
      "bing4Ġdu2Ġ": 3005,
      "Ġtiao2Ġ": 3006,
      "ao4Ġmen2Ġ": 3007,
      "ĠV": 3008,
      "deĠying3Ġxiang3Ġ": 3009,
      "ĠĠĠyu2Ġ": 3010,
      "yuan2Ġsu4Ġ": 3011,
      "Ġda3Ġ": 3012,
      "an1Ġna4Ġ": 3013,
      "jiu4Ġshi4Ġzhen4Ġ": 3014,
      "Ġkang1Ġ": 3015,
      "xian1Ġhou4Ġ": 3016,
      "Ġxia4Ġling4Ġ": 3017,
      "chan2Ġ": 3018,
      "hai2Ġshi4Ġ": 3019,
      "sheng4Ġli4Ġ": 3020,
      "gao1Ġdeng3Ġ": 3021,
      "yong4ĠdeĠ": 3022,
      "1ĠĠĠ": 3023,
      "Ġceng2Ġren4Ġ": 3024,
      "dian4Ġtai2Ġ": 3025,
      "deng1Ġlu4Ġ": 3026,
      "Ġyou4Ġcheng1Ġ": 3027,
      "ka1Ġ": 3028,
      "yi4Ġshi4Ġ": 3029,
      "yi4Ġshi2Ġ": 3030,
      "ĠĠĠ2019Ġnian2Ġ": 3031,
      "guo2Ġhui4Ġ": 3032,
      "guo4Ġcheng2Ġzhong1Ġ": 3033,
      "Ġqian1Ġ": 3034,
      "ĠĠĠ193": 3035,
      "ren2Ġgong1Ġ": 3036,
      "ov": 3037,
      "liu3Ġ": 3038,
      "ke1ĠdeĠ": 3039,
      "zuo4ĠdeĠ": 3040,
      "cai2Ġzheng4Ġ": 3041,
      "shou3Ġdu1Ġ": 3042,
      "zhi2Ġmin2Ġ": 3043,
      "tian1Ġwen2Ġ": 3044,
      "zhi1Ġyuan2Ġ": 3045,
      "xian4Ġshi2Ġ": 3046,
      "Ġtui1Ġ": 3047,
      "zhong1Ġwen2Ġ": 3048,
      "bu4Ġshao3Ġ": 3049,
      "wen3Ġding4Ġ": 3050,
      "gao1ĠdeĠ": 3051,
      "xin4Ġhao4Ġ": 3052,
      "bu4Ġzu2Ġ": 3053,
      "you2Ġtai4Ġ": 3054,
      "ti3Ġxi4Ġ": 3055,
      "Ġtu3Ġ": 3056,
      "bing4Ġwei4Ġ": 3057,
      "bu4Ġming2Ġ": 3058,
      "zhou1Ġbian1Ġ": 3059,
      "guo2Ġfang2Ġ": 3060,
      "hou4Ġxuan3Ġ": 3061,
      "jin4Ġxing2ĠleĠ": 3062,
      "jie3Ġfang4Ġjun1Ġ": 3063,
      "zai4Ġci3Ġ": 3064,
      "Ġwei4Ġyu2Ġfa3Ġguo2Ġ": 3065,
      "gai3Ġbian1Ġ": 3066,
      "Ġping2Ġfang1Ġgong1Ġli3Ġ": 3067,
      "os": 3068,
      "MĠ": 3069,
      "deĠshi2Ġhou4Ġ": 3070,
      "shi4Ġfou3Ġ": 3071,
      "ĠĠĠ2020Ġnian2Ġ": 3072,
      "nu2Ġ": 3073,
      "min2Ġzhong4Ġ": 3074,
      "te4Ġshu1Ġ": 3075,
      "shi4Ġli4Ġ": 3076,
      "liang4ĠdeĠ": 3077,
      "mo2Ġxing2Ġ": 3078,
      "yang3Ġhua4Ġ": 3079,
      "he2Ġliu2Ġ": 3080,
      "tiao3Ġ": 3081,
      "si1Ġxiang3Ġ": 3082,
      "wen2Ġjian4Ġ": 3083,
      "pu3Ġtong1Ġ": 3084,
      "an1Ġpai2Ġ": 3085,
      "ren2Ġkou3Ġshu4Ġliang4Ġwei4Ġren2Ġ": 3086,
      "de2Ġyi3Ġ": 3087,
      "Ġbai3Ġ": 3088,
      "Ġcai3Ġ": 3089,
      "Ġhu4Ġ": 3090,
      "wai4ĠdeĠ": 3091,
      "lei4Ġxing2Ġ": 3092,
      "zha2Ġ": 3093,
      "xiang1Ġsi4Ġ": 3094,
      "jie3Ġshi4Ġ": 3095,
      "shen1Ġqing3Ġ": 3096,
      "ting2Ġzhi3Ġ": 3097,
      "jie1Ġrang3ĠdeĠshi4Ġzhen4Ġ": 3098,
      "liao3Ġ": 3099,
      "ĠINS": 3100,
      "dui4Ġshou3Ġ": 3101,
      "Ġxian4Ġzai4Ġ": 3102,
      "xian4Ġfa3Ġ": 3103,
      "tiao2Ġzheng3Ġ": 3104,
      "ĠĠĠ2018Ġnian2Ġ": 3105,
      "chao1Ġji2Ġ": 3106,
      "60": 3107,
      "Ġshi3Ġyong4Ġ": 3108,
      "20Ġshi4Ġji4Ġ": 3109,
      "Ġhe4Ġ": 3110,
      "zi4Ġdong4Ġ": 3111,
      "ku3Ġ": 3112,
      "zheng4Ġbian1Ġma3Ġwei4Ġ": 3113,
      "zhen1Ġdui4Ġ": 3114,
      "cong2Ġshi4Ġ": 3115,
      "guang3Ġgao4Ġ": 3116,
      "xiao4Ġzhang3Ġ": 3117,
      "pu4Ġ": 3118,
      "Ġche1Ġzhan4Ġ": 3119,
      "sha4Ġ": 3120,
      "ke3Ġneng2Ġshi4Ġ": 3121,
      "chu1Ġsheng1Ġyu2Ġ": 3122,
      "37": 3123,
      "ru4Ġkou3Ġ": 3124,
      "zhong4Ġdian3Ġ": 3125,
      "xiao1Ġxi1Ġ": 3126,
      "dou1Ġyou3Ġ": 3127,
      "chuan4Ġ": 3128,
      "heng2Ġxing1Ġ": 3129,
      "Ġxu3Ġduo1Ġ": 3130,
      "deĠfu4Ġ": 3131,
      "guo2Ġli4Ġ": 3132,
      "ying1Ġwen2Ġ": 3133,
      "yi2Ġdong4Ġ": 3134,
      "lian2Ġxi4Ġ": 3135,
      "jin4Ġyi2Ġbu4Ġ": 3136,
      "Ġpi2Ġ": 3137,
      "chu4ĠdeĠ": 3138,
      "shao3Ġshu4Ġ": 3139,
      "mei3Ġping2Ġfang1Ġgong1Ġli3Ġ": 3140,
      "Ġ2013Ġnian2Ġ": 3141,
      "ĠINSEE": 3142,
      "mu3Ġsi1Ġ": 3143,
      "Ġming2Ġchao2Ġ": 3144,
      "min2Ġzhu3Ġdang3Ġ": 3145,
      "dan4Ġbai2Ġ": 3146,
      "yin1Ġsu4Ġ": 3147,
      "ying1Ġyu3Ġ": 3148,
      "deĠdi4Ġfang1Ġ": 3149,
      "gong1Ġchang3Ġ": 3150,
      "ri4Ġjun1Ġ": 3151,
      "yi2Ġmin2Ġ": 3152,
      "ma3Ġli4Ġ": 3153,
      "feng1Ġbao4Ġ": 3154,
      "8Ġren2Ġ": 3155,
      "gan3Ġdao4Ġ": 3156,
      "35": 3157,
      "zi4Ġzhi4Ġqu1Ġ": 3158,
      "zhuang4Ġkuang4Ġ": 3159,
      "ming2Ġxian3Ġ": 3160,
      "li4Ġshi3Ġshang4Ġ": 3161,
      "zhan4ĠdeĠ": 3162,
      "Ġban4Ġ": 3163,
      "gong4Ġyou3Ġren2Ġkou3Ġ": 3164,
      "cai2Ġliao4Ġ": 3165,
      "Ġ2019Ġnian2Ġ": 3166,
      "Ġzong3Ġmian4Ġji1Ġ": 3167,
      "nian2Ġdu4Ġ": 3168,
      "biao3Ġming2Ġ": 3169,
      "meng3Ġ": 3170,
      "og": 3171,
      "ĠĠĠc": 3172,
      "jie1Ġjin4Ġ": 3173,
      "ba1Ġnian2Ġ": 3174,
      "Ġhen3Ġ": 3175,
      "Ġfa1Ġ": 3176,
      "cheng2Ġxu4Ġ": 3177,
      "Ġyu2Ġ201": 3178,
      "Ġ2008Ġnian2Ġ": 3179,
      "dian4Ġnao3Ġ": 3180,
      "sheng1ĠdeĠ": 3181,
      "yi2Ġchan3Ġ": 3182,
      "fa3Ġlan2Ġ": 3183,
      "chong2Ġjian4Ġ": 3184,
      "huang1Ġ": 3185,
      "xue2Ġshu4Ġ": 3186,
      "ru4Ġxuan3Ġ": 3187,
      "ĠĠĠyi1Ġ": 3188,
      "Ġcheng2Ġqu1Ġ": 3189,
      "kao3Ġlv4Ġ": 3190,
      "esĠ": 3191,
      "Ġfan4Ġ": 3192,
      "pin3Ġpai2Ġ": 3193,
      "shou4Ġshang1Ġ": 3194,
      "yuan2Ġben3Ġ": 3195,
      "ap": 3196,
      "gong1Ġmin2Ġ": 3197,
      "zhi1Ġdao4Ġ": 3198,
      "yi2Ġzhi3Ġ": 3199,
      "yi2Ġding4Ġ": 3200,
      "6Ġren2Ġ": 3201,
      "li3Ġya4Ġ": 3202,
      "bian4Ġcheng2Ġ": 3203,
      "du3Ġ": 3204,
      "ren2Ġkou3Ġmi4Ġdu4Ġwei4Ġmei3Ġ": 3205,
      "Ġshi4Ġzhen4Ġbian1Ġma3Ġwei4Ġ": 3206,
      "ĠINSEEĠshi4Ġzhen4Ġbian1Ġma3Ġwei4Ġ": 3207,
      "Ġren2Ġkou3Ġmi4Ġdu4Ġmei3Ġping2Ġfang1Ġgong1Ġli3Ġ": 3208,
      "Ġxiu1Ġ": 3209,
      "jiu4Ġdu2Ġ": 3210,
      "ling4Ġyi1Ġ": 3211,
      "Ġcong2Ġer2Ġ": 3212,
      "Ġwan4Ġ": 3213,
      "ãĢİ": 3214,
      "ping2Ġfang1Ġmi3Ġ": 3215,
      "ãĢı": 3216,
      "xuan3Ġqu1Ġwei4Ġ": 3217,
      "Ġxia4Ġling4Ġshi2Ġ": 3218,
      "biao1Ġzhi4Ġ": 3219,
      "2ĠĠĠ": 3220,
      "ĠĠĠK": 3221,
      "shi2ĠdeĠren2Ġkou3Ġshu4Ġliang4Ġwei4Ġren2Ġ": 3222,
      "zong3Ġdu1Ġ": 3223,
      "ĠĠĠ2017Ġnian2Ġ": 3224,
      "mei3Ġguo2Ġren2Ġkou3Ġpu3Ġcha2ĠdeĠshu4Ġju4Ġ": 3225,
      "xiang1Ġshi4Ġ": 3226,
      "xing2Ġtai4Ġ": 3227,
      "Ġer2Ġren2Ġkou3Ġmi4Ġdu4Ġwei4Ġmei3Ġ": 3228,
      "Ġdang1Ġdi4Ġgong4Ġyou3Ġren2Ġkou3Ġ": 3229,
      "Ġer2Ġren2Ġkou3Ġmi4Ġdu4Ġwei4Ġmei3Ġping2Ġfang1Ġqian1Ġmi3Ġ": 3230,
      "zai4Ġmei3Ġguo2Ġ": 3231,
      "hun2Ġ": 3232,
      "5Ġren2Ġ": 3233,
      "shui3Ġping2Ġ": 3234,
      "wu4Ġzhi4Ġ": 3235,
      "deĠyou2Ġzheng4Ġbian1Ġma3Ġwei4Ġ": 3236,
      "di4Ġli4Ġ": 3237,
      "yue4Ġtuan2Ġ": 3238,
      "yan2Ġge2Ġ": 3239,
      "Ġhuo4Ġjiu4Ġshi4Ġzhen4Ġ": 3240,
      "Ġgai1Ġsheng3Ġfen4Ġ": 3241,
      "qiang2Ġdiao4Ġ": 3242,
      "Ġ2018Ġnian2Ġ": 3243,
      "wei4Ġxing1Ġ": 3244,
      "Ġguo4Ġ": 3245,
      "Ġhai2Ġyou3Ġ": 3246,
      "xia4Ġwu3Ġ": 3247,
      "te4ĠdeĠ": 3248,
      "sheng3Ġji2Ġxuan3Ġqu1Ġwei4Ġ": 3249,
      "suo3Ġshu3ĠdeĠsheng3Ġji2Ġxuan3Ġqu1Ġwei4Ġ": 3250,
      "an1Ġzhuang1Ġ": 3251,
      "he2Ġnan2Ġ": 3252,
      "Ġ2016Ġnian2Ġ": 3253,
      "ke4Ġli3Ġ": 3254,
      "wen2Ġming2Ġ": 3255,
      "xun4Ġsu4Ġ": 3256,
      "ma3Ġlai2Ġxi1Ġya4Ġ": 3257,
      "bu4Ġke3Ġ": 3258,
      "jiao1Ġliu2Ġ": 3259,
      "sui2Ġhou4Ġ": 3260,
      "ao4Ġda4Ġli4Ġya4Ġ": 3261,
      "ji4ĠdeĠ": 3262,
      "yi2Ġshi4Ġ": 3263,
      "Ġreng2Ġ": 3264,
      "Ġgai1Ġsheng3Ġfen4Ġwei4Ġfa3Ġguo2Ġ": 3265,
      "xian4Ġren2Ġ": 3266,
      "Ġzhong1Ġyang1Ġ": 3267,
      "70Ġ": 3268,
      "ĠĠĠnian2Ġ": 3269,
      "shi4Ġtu2Ġ": 3270,
      "dao3ĠdeĠ": 3271,
      "2008Ġnian2Ġ": 3272,
      "wei4Ġyi1Ġ": 3273,
      "ba1Ġxi1Ġ": 3274,
      "sa1Ġ": 3275,
      "er4Ġshi4Ġ": 3276,
      "ĠĠĠ2016Ġnian2Ġ": 3277,
      "di3Ġda2Ġ": 3278,
      "24": 3279,
      "fen2Ġ": 3280,
      "ai4Ġer3Ġ": 3281,
      "tuan2Ġdui4Ġ": 3282,
      "ju4Ġji2Ġ": 3283,
      "Ġshang4Ġhai3Ġ": 3284,
      "jin1Ġshu3Ġ": 3285,
      "edĠĠĠ": 3286,
      "ying2Ġyun4Ġ": 3287,
      "que1Ġfa2Ġ": 3288,
      "zhao4Ġkai1Ġ": 3289,
      "an4Ġjian4Ġ": 3290,
      "da4Ġduo1Ġshu4Ġ": 3291,
      "shi4Ġqu1Ġ": 3292,
      "wei1Ġxie2Ġ": 3293,
      "tai1Ġ": 3294,
      "Ġhua1Ġ": 3295,
      "ming4Ġling4Ġ": 3296,
      "7Ġren2Ġ": 3297,
      "Ġer2Ġshi4Ġ": 3298,
      "Ġyin4Ġdu4Ġ": 3299,
      "wu4Ġyuan4Ġ": 3300,
      "huan1Ġying2Ġ": 3301,
      "fang4Ġqi4Ġ": 3302,
      "Ġyao4Ġ": 3303,
      "shang4Ġshu1Ġ": 3304,
      "guan1Ġcha2Ġ": 3305,
      "xu1Ġqiu2Ġ": 3306,
      "Ġtuo1Ġ": 3307,
      "yong4Ġlai2Ġ": 3308,
      "jie2Ġhun1Ġ": 3309,
      "ren2Ġda4Ġ": 3310,
      "jian4Ġkang1Ġ": 3311,
      "chu3Ġyu2Ġ": 3312,
      "Ġ2014Ġnian2Ġ": 3313,
      "hai3Ġyu4Ġ": 3314,
      "ling4Ġwai4Ġ": 3315,
      "Ġjie2Ġguo3Ġ": 3316,
      "ab": 3317,
      "Ġlei2Ġ": 3318,
      "gui1Ġze2Ġ": 3319,
      "bian1Ġhao4Ġ": 3320,
      "Ġzhong1Ġgong4Ġ": 3321,
      "chu1Ġkou3Ġ": 3322,
      "Ġnv3Ġ": 3323,
      "bei3Ġmei3Ġ": 3324,
      "zhan4Ġhou4Ġ": 3325,
      "nian2Ġjian1Ġ": 3326,
      "qi3Ġyong4Ġ": 3327,
      "zhi1Ġming2Ġ": 3328,
      "tong2Ġyang4Ġ": 3329,
      "ub": 3330,
      "2022Ġnian2Ġ": 3331,
      "fei1Ġzhou1Ġ": 3332,
      "ad": 3333,
      "dao4Ġda2Ġ": 3334,
      "gao1Ġzhong1Ġ": 3335,
      "wu2Ġren2Ġ": 3336,
      "ping2Ġmian4Ġ": 3337,
      "Ġer2Ġzai4Ġ": 3338,
      "FĠ": 3339,
      "Ġ2015Ġnian2Ġ": 3340,
      "Ġe2Ġluo2Ġsi1Ġ": 3341,
      "rao3Ġ": 3342,
      "ke3Ġneng2Ġhui4Ġ": 3343,
      "ĠĠĠ2022Ġnian2Ġ": 3344,
      "NĠ": 3345,
      "Ġli2Ġ": 3346,
      "ak": 3347,
      "peng2Ġyou3Ġ": 3348,
      "1Ġren2Ġ": 3349,
      "yan2Ġshen1Ġ": 3350,
      "shi1Ġbai4Ġ": 3351,
      "Ġxiao4Ġ": 3352,
      "Ġ2012Ġnian2Ġ": 3353,
      "Ġzong3Ġren2Ġkou3Ġ": 3354,
      "wei4Ġlai2Ġ": 3355,
      "zi4Ġmu3Ġ": 3356,
      "bu4Ġluo4Ġ": 3357,
      "xiang4ĠdeĠ": 3358,
      "Ġ10Ġyue4Ġ": 3359,
      "ao4Ġsi1Ġ": 3360,
      "pu3Ġbian4Ġ": 3361,
      "OĠ": 3362,
      "di4Ġyi2Ġge4Ġ": 3363,
      "Ġzheng4Ġshi4Ġ": 3364,
      "38": 3365,
      "Ġwang3Ġ": 3366,
      "Ġ21Ġ": 3367,
      "yu2Ġle4Ġ": 3368,
      "chu1Ġzhan4Ġ": 3369,
      "chuan2Ġshuo1Ġ": 3370,
      "Ġxiao1Ġ": 3371,
      "Ġcheng2Ġli4Ġ": 3372,
      "xin4Ġyang3Ġ": 3373,
      "xi1Ġzai4Ġ": 3374,
      "shi1Ġqu4Ġ": 3375,
      "zi1Ġxun4Ġ": 3376,
      "a1Ġla1Ġbo2Ġ": 3377,
      "36": 3378,
      "zhi1Ġxia4Ġ": 3379,
      "yong4Ġhu4Ġ": 3380,
      "zheng4Ġzhuang4Ġ": 3381,
      "Ġshi4Ġyi1Ġzhong3Ġ": 3382,
      "dong4Ġli4Ġ": 3383,
      "Ġyi4Ġwei4Ġ": 3384,
      "ben3Ġtu3Ġ": 3385,
      "ti2Ġming2Ġ": 3386,
      "Ġde2Ġguo2Ġ": 3387,
      "er3Ġhe2Ġ": 3388,
      "zheng4Ġquan2Ġ": 3389,
      "di4Ġliu4Ġ": 3390,
      "mei3Ġnian2Ġ": 3391,
      "ji1Ġhui4Ġ": 3392,
      "nan2Ġji2Ġ": 3393,
      "4Ġren2Ġ": 3394,
      "Ġbei3Ġjing1Ġ": 3395,
      "33Ġ": 3396,
      "ru2Ġci3Ġ": 3397,
      "deĠsheng1Ġ": 3398,
      "ti2Ġsheng1Ġ": 3399,
      "9Ġren2Ġ": 3400,
      "deĠyi1Ġzuo4Ġ": 3401,
      "jiao4Ġqu1Ġ": 3402,
      "Ġyi1Ġxie1Ġ": 3403,
      "cheng2Ġzhen4Ġ": 3404,
      "jin1Ġpai2Ġ": 3405,
      "Ġzhuang1Ġ": 3406,
      "chen4Ġ": 3407,
      "fa1Ġqi3Ġ": 3408,
      "Ġsun1Ġ": 3409,
      "xi3Ġhuan1Ġ": 3410,
      "bing4Ġmei2Ġyou3Ġ": 3411,
      "ji2Ġhe2Ġ": 3412,
      "ying1Ġgai1Ġ": 3413,
      "yin3Ġfa1Ġ": 3414,
      "wei1Ġlian2Ġ": 3415,
      "Ġ2007Ġnian2Ġ": 3416,
      "ing": 3417,
      "Ġba3Ġ": 3418,
      "jiao4Ġlian4Ġ": 3419,
      "au": 3420,
      "Ġzhen4Ġ": 3421,
      "ĠĠĠjian3Ġ": 3422,
      "guan1Ġzhu4Ġ": 3423,
      "Ġrong2Ġ": 3424,
      "pu1Ġ": 3425,
      "yi1Ġdai4Ġ": 3426,
      "jiu3Ġnian2Ġ": 3427,
      "Ġ2021Ġnian2Ġ": 3428,
      "Ġzhao1Ġ": 3429,
      "ka3Ġer3Ġ": 3430,
      "xĠ": 3431,
      "deĠzhu3Ġ": 3432,
      "ĠĠĠ2014Ġnian2Ġ": 3433,
      "zhi4Ġshao3Ġ": 3434,
      "lv4Ġshi1Ġ": 3435,
      "ĠĠĠ2015Ġnian2Ġ": 3436,
      "shi4Ġyi1Ġzhong3Ġ": 3437,
      "Ġqu1Ġ": 3438,
      "Ġbiao3Ġshi4Ġ": 3439,
      "xue2Ġhui4Ġ": 3440,
      "zhong1Ġguo2Ġgong4Ġchan3Ġdang3Ġ": 3441,
      "shi2Ġzi4Ġ": 3442,
      "li4Ġshan1Ġ": 3443,
      "qiang2Ġlie4Ġ": 3444,
      "Ġ2017Ġnian2Ġ": 3445,
      "tu2Ġshu1Ġguan3Ġ": 3446,
      "XĠ": 3447,
      "fen1Ġzhi1Ġ": 3448,
      "wei4Ġsheng1Ġ": 3449,
      "ĠĠĠjie2Ġ": 3450,
      "gun3Ġ": 3451,
      "gong3Ġ": 3452,
      "mou3Ġxie1Ġ": 3453,
      "zheng4ĠdeĠ": 3454,
      "Ġguang3Ġ": 3455,
      "wan2Ġzheng3Ġ": 3456,
      "shu4Ġzi4Ġ": 3457,
      "Ġsai1Ġ": 3458,
      "Ġdan4Ġta1Ġ": 3459,
      "lv4Ġbin1Ġ": 3460,
      "zai4Ġdu4Ġ": 3461,
      "tuo4Ġ": 3462,
      "jie4Ġquan2Ġguo2Ġ": 3463,
      "yun2Ġnan2Ġ": 3464,
      "cun4Ġ": 3465,
      "Ġxing4Ġ": 3466,
      "Ġguo2Ġji4Ġ": 3467,
      "2Ġren2Ġ": 3468,
      "yi1Ġsheng1Ġ": 3469,
      "shu4Ġwei4Ġ": 3470,
      "tou": 3471,
      "Ġliu4Ġ": 3472,
      "pin4Ġ": 3473,
      "geng4Ġduo1Ġ": 3474,
      "yan3Ġchang4Ġhui4Ġ": 3475,
      "zhi4Ġliang4Ġ": 3476,
      "xian4Ġchang3Ġ": 3477,
      "er2Ġbei4Ġ": 3478,
      "Ġzhong3Ġ": 3479,
      "gong4Ġxian4Ġ": 3480,
      "ban4Ġgong1Ġshi4Ġ": 3481,
      "yu2Ġ197": 3482,
      "Ġpa4Ġ": 3483,
      "you3Ġren2Ġ": 3484,
      "xia4Ġlai2Ġ": 3485,
      "liang3Ġzhong3Ġ": 3486,
      "shi2Ġyi1Ġ": 3487,
      "jie2Ġshu4Ġhou4Ġ": 3488,
      "Ġ2005Ġnian2Ġ": 3489,
      "xin1Ġjia1Ġpo1Ġ": 3490,
      "ling3Ġtu3Ġ": 3491,
      "chuang4Ġban4Ġ": 3492,
      "wei4Ġshi4Ġ": 3493,
      "ĠĠĠ2013Ġnian2Ġ": 3494,
      "sen1Ġlin2Ġ": 3495,
      "cuo4Ġshi1Ġ": 3496,
      "ĠÎ": 3497,
      "tiao3Ġzhan4Ġ": 3498,
      "quan3Ġ": 3499,
      "cao1Ġzuo4Ġ": 3500,
      "Ġjing1Ġguo4Ġ": 3501,
      "lv3Ġke4Ġ": 3502,
      "yu3Ġmao2Ġ": 3503,
      "qi4ĠdeĠ": 3504,
      "hao2Ġmi3Ġ": 3505,
      "he2Ġyi1Ġ": 3506,
      "ji2Ġbing4Ġ": 3507,
      "Ġ2020Ġnian2Ġ": 3508,
      "qia4Ġ": 3509,
      "ya1Ġli4Ġ": 3510,
      "di4Ġqi1Ġ": 3511,
      "zheng4Ġju4Ġ": 3512,
      "Ġrui4Ġ": 3513,
      "deĠyan2Ġjiu1Ġ": 3514,
      "kan4Ġdao4Ġ": 3515,
      "yuan4Ġzhang3Ġ": 3516,
      "bu4Ġjiu3Ġ": 3517,
      "dui4Ġwu3Ġ": 3518,
      "ĠĠĠJ": 3519,
      "da4Ġxi1Ġyang2Ġ": 3520,
      "biao3Ġmian4Ġ": 3521,
      "qiao3Ġ": 3522,
      "ot": 3523,
      "zong3Ġbu4Ġ": 3524,
      "hua4Ġshi2Ġ": 3525,
      "esĠĠĠ": 3526,
      "Ġzhi3Ġyou3Ġ": 3527,
      "la1Ġfu1Ġ": 3528,
      "ĠĠĠhe2Ġ": 3529,
      "Ġxing1Ġ": 3530,
      "ĠĠĠO": 3531,
      "ou1Ġyuan2Ġ": 3532,
      "leĠta1Ġ": 3533,
      "si4Ġge4Ġ": 3534,
      "fu2Ġhe2Ġ": 3535,
      "90Ġ": 3536,
      "suo3Ġzai4Ġ": 3537,
      "qi4Ġxiang4Ġ": 3538,
      "cun1Ġzhuang1Ġ": 3539,
      "kuang2Ġ": 3540,
      "jiu3Ġdian4Ġ": 3541,
      "Ġliang2Ġ": 3542,
      "jue2ĠdeĠ": 3543,
      "can1Ġkao3Ġ": 3544,
      "Ġfu4Ġze2Ġ": 3545,
      "chu1Ġxian4Ġzai4Ġ": 3546,
      "xun2Ġhui2Ġ": 3547,
      "yuan2Ġyu2Ġ": 3548,
      "Ġta3Ġ": 3549,
      "Ġyou4Ġming2Ġ": 3550,
      "Ġdai4Ġbiao3Ġ": 3551,
      "yi1Ġtong2Ġ": 3552,
      "4ĠĠĠ": 3553,
      "Ġcha2Ġ": 3554,
      "jiao4Ġxue2Ġ": 3555,
      "jiao4Ġshi1Ġ": 3556,
      "ling3Ġxiu4Ġ": 3557,
      "zi1Ġjin1Ġ": 3558,
      "ju3Ġxing2ĠdeĠ": 3559,
      "xu4Ġli4Ġya4Ġ": 3560,
      "deĠte4Ġ": 3561,
      "ceng2Ġzai4Ġ": 3562,
      "chuan2Ġbo1Ġ": 3563,
      "Ġ8Ġyue4Ġ": 3564,
      "Ġnv3Ġxing4Ġ": 3565,
      "shang4Ġyou3Ġ": 3566,
      "yao4Ġwu4Ġ": 3567,
      "yi3Ġse4Ġlie4Ġ": 3568,
      "shou4Ġyu3Ġ": 3569,
      "gong1Ġzhong4Ġ": 3570,
      "xiao3ĠdeĠ": 3571,
      "sui4Ġdao4Ġ": 3572,
      "fa3Ġan4Ġ": 3573,
      "Ġsuo3Ġyou3Ġ": 3574,
      "St": 3575,
      "fan1Ġyi4Ġ": 3576,
      "ĠĠĠ2023Ġnian2Ġ": 3577,
      "gou4Ġmai3Ġ": 3578,
      "Â°": 3579,
      "bing4Ġli4Ġ": 3580,
      "Ġban3Ġ": 3581,
      "xuan3Ġwei4Ġ": 3582,
      "run4Ġ": 3583,
      "xi4Ġju4Ġ": 3584,
      "que4Ġzhen3Ġ": 3585,
      "ind": 3586,
      "Ġzheng4Ġfu3Ġ": 3587,
      "wei1Ġer3Ġ": 3588,
      "chuang4Ġli4Ġ": 3589,
      "shu4Ġxue2Ġ": 3590,
      "ĠĠĠqi2Ġ": 3591,
      "ï½": 3592,
      "geng1Ġming2Ġwei4Ġ": 3593,
      "Ġren2Ġkou3Ġ": 3594,
      "lian2Ġhe2Ġguo2Ġ": 3595,
      "jia1Ġli4Ġ": 3596,
      "yu2Ġ194": 3597,
      "AT": 3598,
      "zhi2Ġdao4Ġ": 3599,
      "35Ġ": 3600,
      "LĠ": 3601,
      "san3Ġ": 3602,
      "Ġtie3Ġ": 3603,
      "xiao4Ġguo3Ġ": 3604,
      "Ġsheng1Ġhuo2Ġ": 3605,
      "qiu2Ġhui4Ġ": 3606,
      "da2Ġcheng2Ġ": 3607,
      "31Ġ": 3608,
      "he2Ġqi2Ġta1Ġ": 3609,
      "zhu4Ġyi4Ġ": 3610,
      "wen2Ġxian4Ġ": 3611,
      "shen1Ġti3Ġ": 3612,
      "kou4Ġ": 3613,
      "zhuo1Ġ": 3614,
      "hou4Ġxuan3Ġren2Ġ": 3615,
      "Ġ2006Ġnian2Ġ": 3616,
      "2009Ġnian2Ġ": 3617,
      "ju3Ġren2Ġ": 3618,
      "shi4Ġjie4Ġbei1Ġ": 3619,
      "chuang4Ġzao4Ġ": 3620,
      "80": 3621,
      "3Ġren2Ġ": 3622,
      "zhi1Ġzhong1Ġ": 3623,
      "shi4Ġye4Ġ": 3624,
      "mo4Ġxi1Ġge1Ġ": 3625,
      "han2Ġshu4Ġ": 3626,
      "ev": 3627,
      "ĠĠĠzi4Ġ": 3628,
      "si1Ġren2Ġ": 3629,
      "dian3ĠdeĠ": 3630,
      "Ġji3Ġ": 3631,
      "er2Ġyan2Ġ": 3632,
      "jie4Ġshao4Ġ": 3633,
      "wang3Ġlu4Ġ": 3634,
      "jiang3Ġxiang4Ġ": 3635,
      "um": 3636,
      "bo1Ġfang4Ġ": 3637,
      "shen2Ġjing1Ġ": 3638,
      "Ġe2Ġ": 3639,
      "ti2Ġgao1Ġ": 3640,
      "Ġlao3Ġ": 3641,
      "yi4Ġyi4Ġ": 3642,
      "bei3Ġsheng3Ġ": 3643,
      "rui4Ġshi4Ġ": 3644,
      "lie4Ġru4Ġ": 3645,
      "hui2Ġying4Ġ": 3646,
      "Ġni3Ġ": 3647,
      "dong1Ġxi1Ġ": 3648,
      "inĠ": 3649,
      "wai4Ġguo2Ġ": 3650,
      "ke4Ġyun4Ġ": 3651,
      "Ġban1Ġ": 3652,
      "deĠzhong1Ġ": 3653,
      "Ġdi4Ġsan1Ġ": 3654,
      "ampĠ": 3655,
      "kui4Ġ": 3656,
      "Ġfeng2Ġ": 3657,
      "shi1Ġfan4Ġ": 3658,
      "she4Ġhui4Ġzhu3Ġyi4Ġ": 3659,
      "Ġshang1Ġ": 3660,
      "yi2Ġdu4Ġ": 3661,
      "chang2Ġshi4Ġ": 3662,
      "jin4Ġzhi3Ġ": 3663,
      "ren2Ġmin2Ġjie3Ġfang4Ġjun1Ġ": 3664,
      "shuai4Ġling3Ġ": 3665,
      "Ġzuo3Ġ": 3666,
      "jie1Ġchu4Ġ": 3667,
      "cai3Ġqu3Ġ": 3668,
      "you3Ġsuo3Ġ": 3669,
      "ben3Ġshen1Ġ": 3670,
      "bi3Ġsai4Ġzhong1Ġ": 3671,
      "Ġbing4Ġjiang1Ġ": 3672,
      "jing1Ġyan4Ġ": 3673,
      "si1Ġta3Ġ": 3674,
      "ang": 3675,
      "Ġxie4Ġ": 3676,
      "ming4Ġming2Ġwei4Ġ": 3677,
      "You": 3678,
      "kang4Ġyi4Ġ": 3679,
      "xing2Ġxiang4Ġ": 3680,
      "hou4Ġqi1Ġ": 3681,
      "ye3Ġzai4Ġ": 3682,
      "lou4Ġ": 3683,
      "bian1Ġjie4Ġ": 3684,
      "qing2Ġbao4Ġ": 3685,
      "3ĠĠĠ": 3686,
      "bian1Ġji2Ġ": 3687,
      "hong1Ġzha4Ġ": 3688,
      "2021Ġnian2Ġ": 3689,
      "Ġtian2Ġ": 3690,
      "nan2Ġzi": 3691,
      "nei4Ġge2Ġ": 3692,
      "Ġche1Ġ": 3693,
      "chu1Ġlai2Ġ": 3694,
      "Ġta1Ġhai2Ġ": 3695,
      "wen2Ġzi4Ġ": 3696,
      "rong2Ġyi4Ġ": 3697,
      "Ġtuan2Ġ": 3698,
      "hui4Ġshi4Ġ": 3699,
      "xi1Ġyin3Ġ": 3700,
      "ma1Ġ": 3701,
      "he2Ġshi4Ġ": 3702,
      "weng1Ġ": 3703,
      "chou1Ġ": 3704,
      "jia1Ġren2Ġ": 3705,
      "zhu4Ġming2ĠdeĠ": 3706,
      "qi2Ġyu2Ġgang1Ġ": 3707,
      "shi2Ġyou2Ġ": 3708,
      "yin3Ġqing2Ġ": 3709,
      "que4Ġren4Ġ": 3710,
      "gong1Ġzhu3Ġ": 3711,
      "Ġjie3Ġ": 3712,
      "jing4Ġzheng1Ġ": 3713,
      "bi4Ġmian3Ġ": 3714,
      "ye1Ġ": 3715,
      "Ġlai2Ġzi4Ġ": 3716,
      "Ġ00Ġ": 3717,
      "ju2Ġzhang3Ġ": 3718,
      "39": 3719,
      "deĠĠĠ": 3720,
      "Ġzheng1Ġ": 3721,
      "ji1Ġxie4Ġ": 3722,
      "huo4Ġzhe3Ġ": 3723,
      "zhong1Ġshi4Ġ": 3724,
      "xi1Ġfang1Ġ": 3725,
      "mian4Ġdui4Ġ": 3726,
      "jin1Ġrong2Ġ": 3727,
      "Ġta1ĠmenĠdeĠ": 3728,
      "you3Ġshi2Ġ": 3729,
      "gao1Ġyu2Ġ": 3730,
      "bao4Ġdao3Ġ": 3731,
      "shou1Ġgou4Ġ": 3732,
      "zeng1Ġzhang3Ġ": 3733,
      "ha1Ġer3Ġ": 3734,
      "Ġmu3Ġ": 3735,
      "Ġa1Ġer3Ġ": 3736,
      "2016Ġnian2Ġ": 3737,
      "wei3Ġshu1Ġji4Ġ": 3738,
      "Ġliang3Ġren2Ġ": 3739,
      "Ġti3Ġzhang3Ġ": 3740,
      "fu4Ġza2Ġ": 3741,
      "lu4Ġdi4Ġmian4Ġji1Ġwei4Ġ": 3742,
      "shui3Ġyu4Ġmian4Ġji1Ġwei4Ġ": 3743,
      "lie4Ġbiao3Ġ": 3744,
      "fu2Ġqi2Ġyu2Ġgang1Ġ": 3745,
      "gong1Ġhui4Ġ": 3746,
      "zhuang1Ġjia3Ġ": 3747,
      "he2Ġyue1Ġ": 3748,
      "Ġtao2Ġ": 3749,
      "ru2Ġhe2Ġ": 3750,
      "xiong1Ġya2Ġ": 3751,
      "70": 3752,
      "ye3Ġbei4Ġ": 3753,
      "hai3Ġdao4Ġ": 3754,
      "rong2Ġyu4Ġ": 3755,
      "mi4Ġmi4Ġ": 3756,
      "Ġdian4Ġying3Ġ": 3757,
      "quan2Ġmian4Ġ": 3758,
      "fan4Ġzui4Ġ": 3759,
      "Ġhuo3Ġ": 3760,
      "xing3Ġ": 3761,
      "wan3Ġshang4Ġ": 3762,
      "zuo4Ġbiao1Ġwei4Ġ": 3763,
      "ph": 3764,
      "uo2Ġwei1Ġ": 3765,
      "na4Ġli3Ġ": 3766,
      "ku1Ġ": 3767,
      "li4Ġji2Ġ": 3768,
      "juan4Ġ": 3769,
      "gu3Ġfen4Ġ": 3770,
      "zhai1Ġ": 3771,
      "wu3Ġtai2Ġ": 3772,
      "bai2Ġse4Ġ": 3773,
      "sun3Ġshi1Ġ": 3774,
      "sang4Ġ": 3775,
      "guang3Ġdong1Ġsheng3Ġ": 3776,
      "Ġ9Ġyue4Ġ": 3777,
      "geng4Ġjia1Ġ": 3778,
      "ban4Ġshi4Ġ": 3779,
      "ï½ŀ": 3780,
      "zhong1Ġshan1Ġ": 3781,
      "Ġbu4Ġjiu3Ġ": 3782,
      "ĠĠĠda4Ġ": 3783,
      "ĠĠĠ2012Ġnian2Ġ": 3784,
      "mei3Ġshu4Ġ": 3785,
      "da3Ġji1Ġ": 3786,
      "UĠ": 3787,
      "Ġ0Ġ": 3788,
      "yi4Ġren2Ġ": 3789,
      "Ġ2022Ġnian2Ġ": 3790,
      "Ġyao1Ġqiu2Ġ": 3791,
      "ĠampĠ": 3792,
      "guan1Ġbi4Ġ": 3793,
      "bu4Ġhe2Ġ": 3794,
      "ying1Ġxiong2Ġ": 3795,
      "bao4Ġzha4Ġ": 3796,
      "cha1Ġyi4Ġ": 3797,
      "48": 3798,
      "ma": 3799,
      "Ġyan3Ġ": 3800,
      "xiu1Ġgai3Ġ": 3801,
      "Ġkai3Ġ": 3802,
      "piao4Ġfang2Ġ": 3803,
      "ĠĠĠyuan2Ġ": 3804,
      "Ġdang1Ġzhong1Ġlu4Ġdi4Ġmian4Ġji1Ġwei4Ġ": 3805,
      "Ġer2Ġshui3Ġyu4Ġmian4Ġji1Ġwei4Ġ": 3806,
      "bu4Ġde2Ġ": 3807,
      "jiu3Ġlong2Ġ": 3808,
      "Ġhui2Ġ": 3809,
      "Ġ7Ġyue4Ġ": 3810,
      "mao1Ġ": 3811,
      "tong1Ġche1Ġ": 3812,
      "yu2Ġ195": 3813,
      "gou4Ġcheng2Ġ": 3814,
      "Ġou1Ġ": 3815,
      "yu2Ġ196": 3816,
      "Ġ189": 3817,
      "Ġfang2Ġ": 3818,
      "fa1Ġshou4Ġ": 3819,
      "hai3Ġyang2Ġ": 3820,
      "bi4Ġye4Ġyu2Ġ": 3821,
      "ĠĠĠgai4Ġ": 3822,
      "di4Ġzhen4Ġ": 3823,
      "oun": 3824,
      "yi1Ġxue2Ġ": 3825,
      "tui1Ġdong4Ġ": 3826,
      "Ġzhong1Ġhua2Ġmin2Ġguo2Ġ": 3827,
      "zhuan1Ġjia1Ġ": 3828,
      "ãĥ": 3829,
      "mian3Ġdian1Ġ": 3830,
      "ĠTheĠĠĠ": 3831,
      "shuo4Ġshi4Ġ": 3832,
      "jie2Ġke4Ġ": 3833,
      "yue1Ġwei4Ġ": 3834,
      "bian4Ġde2Ġ": 3835,
      "guo2Ġjia1Ġdui4Ġ": 3836,
      "sa4Ġke4Ġ": 3837,
      "an4ĠdeĠ": 3838,
      "Ġshi3ĠdeĠ": 3839,
      "ĠĠĠbu4Ġ": 3840,
      "2007Ġnian2Ġ": 3841,
      "Ġwei3Ġ": 3842,
      "ji1Ġji2Ġ": 3843,
      "lai2Ġdao4Ġ": 3844,
      "shi2Ġsan1Ġ": 3845,
      "xin1Ġli3Ġ": 3846,
      "100": 3847,
      "zui4Ġhou4Ġyi1Ġ": 3848,
      "xing4Ġzhi4Ġ": 3849,
      "jiang4Ġdi1Ġ": 3850,
      "fa1Ġchu1Ġ": 3851,
      "yi1Ġsi1Ġlan2Ġ": 3852,
      "dian4Ġli4Ġ": 3853,
      "Ġqi2Ġyu2Ġ": 3854,
      "jian3Ġdan1Ġ": 3855,
      "ru": 3856,
      "zhong1Ġyou3Ġ": 3857,
      "Ġ12Ġyue4Ġ": 3858,
      "qing3Ġqiu2Ġ": 3859,
      "Ġmeng2Ġ": 3860,
      "sheng4Ġdun4Ġ": 3861,
      "gou3Ġ": 3862,
      "jiang1Ġsu1Ġ": 3863,
      "Ġyin1Ġer2Ġ": 3864,
      "gu4Ġwen4Ġ": 3865,
      "ĠĠĠxing2Ġzheng4Ġqu1Ġhua4Ġ": 3866,
      "enĠ": 3867,
      "ju4Ġfeng1Ġ": 3868,
      "dao3Ġyu3Ġ": 3869,
      "Ġku4Ġ": 3870,
      "Ġta1Ġbei4Ġ": 3871,
      "Ġjin4Ġxing2Ġ": 3872,
      "zhe4Ġge": 3873,
      "rou2Ġ": 3874,
      "Ġ11Ġyue4Ġ": 3875,
      "huo4Ġshi4Ġ": 3876,
      "ru2Ġguo3Ġ": 3877,
      "jun1Ġzai4Ġ": 3878,
      "zhi3Ġneng2Ġ": 3879,
      "she4Ġji2Ġ": 3880,
      "nu4Ġ": 3881,
      "Ġgan1Ġ": 3882,
      "gai3Ġzao4Ġ": 3883,
      "chang3ĠdeĠ": 3884,
      "bi3Ġde2Ġ": 3885,
      "hai2ĠziĠ": 3886,
      "zhu3Ġzhang1Ġ": 3887,
      "ban4Ġgong1Ġ": 3888,
      "jiao4Ġwei2Ġ": 3889,
      "du4ĠdeĠ": 3890,
      "yuan2Ġxing2Ġ": 3891,
      "qian1Ġshu3Ġ": 3892,
      "si1Ġfa3Ġ": 3893,
      "ai": 3894,
      "gui4Ġzu2Ġ": 3895,
      "shuo1Ġming2Ġ": 3896,
      "Ġling2Ġ": 3897,
      "can1Ġmou2Ġ": 3898,
      "gong1Ġsi1ĠdeĠ": 3899,
      "pen1Ġ": 3900,
      "192": 3901,
      "shi4Ġshi2Ġ": 3902,
      "Ġsi3Ġ": 3903,
      "sheng1Ġming4Ġ": 3904,
      "mei3Ġge4Ġ": 3905,
      "Ġhao2Ġmi3Ġ": 3906,
      "Ġmin2Ġguo2Ġ": 3907,
      "Ġchuan2Ġ": 3908,
      "wu4ĠdeĠ": 3909,
      "Ġti3Ġzhang3Ġke3Ġda2Ġ": 3910,
      "Ġwo4Ġ": 3911,
      "hun4Ġhe2Ġ": 3912,
      "Ġcan1Ġjia1Ġ": 3913,
      "tic": 3914,
      "nan2Ġbei3Ġ": 3915,
      "yong4Ġtu2Ġ": 3916,
      "dai4Ġbiao3Ġda4Ġhui4Ġ": 3917,
      "ĠformulaĠ": 3918,
      "lun4Ġwen2Ġ": 3919,
      "tu3Ġer3Ġqi2Ġ": 3920,
      "Ġshi4Ġmei3Ġguo2Ġ": 3921,
      "dang1Ġju2Ġ": 3922,
      "bing4Ġfei1Ġ": 3923,
      "duo1Ġzhong3Ġ": 3924,
      "hai3Ġxia2Ġ": 3925,
      "gao1Ġsu4Ġgong1Ġlu4Ġ": 3926,
      "ĠĠĠli4Ġ": 3927,
      "xi1ĠdeĠ": 3928,
      "sheng3Ġhe2Ġ": 3929,
      "Ġbing4Ġyi3Ġ": 3930,
      "ao4Ġyun4Ġhui4Ġ": 3931,
      "wei2Ġzhi3Ġ": 3932,
      "zhu4Ġzhai2Ġ": 3933,
      "shi4Ġhui4Ġ": 3934,
      "shi4Ġbing1Ġ": 3935,
      "ji2Ġshi2Ġ": 3936,
      "ju4Ġqing2Ġ": 3937,
      "fen1Ġpei4Ġ": 3938,
      "yi4Ġjian4Ġ": 3939,
      "wei2Ġsi1Ġ": 3940,
      "zu3Ġcheng2ĠdeĠ": 3941,
      "man3Ġzu2Ġ": 3942,
      "hai3Ġwai4Ġ": 3943,
      "gu1Ġji4Ġ": 3944,
      "Ġlv4Ġ": 3945,
      "Ġzhan3Ġ": 3946,
      "ran": 3947,
      "ĠĠĠcong2Ġ": 3948,
      "zheng4Ġchang2Ġ": 3949,
      "xiong1Ġya2Ġli4Ġ": 3950,
      "wei4Ġshi2Ġ": 3951,
      "ren4Ġzhi2Ġ": 3952,
      "wa2Ġ": 3953,
      "gong1Ġren2Ġ": 3954,
      "dian4Ġche1Ġ": 3955,
      "lian3Ġ": 3956,
      "xia4Ġjiang4Ġ": 3957,
      "kuo4Ġda4Ġ": 3958,
      "26Ġ": 3959,
      "Ġwa3Ġ": 3960,
      "feng1Ġxian3Ġ": 3961,
      "Ġ30Ġ": 3962,
      "yi1Ġzuo4Ġ": 3963,
      "hong2Ġse4Ġ": 3964,
      "Ġkuan1Ġ": 3965,
      "Ġta1Ġye3Ġ": 3966,
      "zu3Ġjian4Ġ": 3967,
      "gai3Ġshan4Ġ": 3968,
      "xia4Ġji4Ġao4Ġlin2Ġpi3Ġke4Ġyun4Ġdong4Ġhui4Ġ": 3969,
      "ce4Ġliang2Ġ": 3970,
      "Ġju4Ġli2Ġ": 3971,
      "shi4Ġgu4Ġ": 3972,
      "191": 3973,
      "luan3Ġ": 3974,
      "tou2Ġxiang2Ġ": 3975,
      "erĠĠĠ": 3976,
      "sheng1Ġming2Ġ": 3977,
      "ji3Ġge4Ġ": 3978,
      "Ġqiao2Ġ": 3979,
      "dui4Ġxiang4Ġ": 3980,
      "yu4Ġshi3Ġ": 3981,
      "ze2Ġren4Ġ": 3982,
      "ali": 3983,
      "2006Ġnian2Ġ": 3984,
      "Ġkao3Ġ": 3985,
      "fu4Ġjin4ĠdeĠ": 3986,
      "hi": 3987,
      "zhi1Ġfu4Ġ": 3988,
      "chu1Ġxi2Ġ": 3989,
      "2012Ġnian2Ġ": 3990,
      "kuang1Ġ": 3991,
      "shi2Ġqi1ĠdeĠ": 3992,
      "45Ġ": 3993,
      "shi4Ġmin2Ġ": 3994,
      "zhi2Ġwei4Ġ": 3995,
      "Ġchi4Ġ": 3996,
      "qu2Ġ": 3997,
      "Ġmao2Ġ": 3998,
      "yi4Ġqing2Ġ": 3999,
      "da4Ġgui1Ġmo2Ġ": 4000,
      "ĠĠĠ2024Ġnian2Ġ": 4001,
      "liao3Ġjie3Ġ": 4002,
      "ceĠ": 4003,
      "la1Ġding1Ġ": 4004,
      "ai4Ġer3Ġlan2Ġ": 4005,
      "48Ġ": 4006,
      "sui2Ġzhu4Ġ": 4007,
      "che4Ġxiao1Ġ": 4008,
      "28Ġ": 4009,
      "zai4Ġyu2Ġ": 4010,
      "kai1Ġtong1Ġ": 4011,
      "bing4Ġru4Ġ": 4012,
      "zhang4Ġai4Ġ": 4013,
      "xing4Ġqu4Ġ": 4014,
      "dao3Ġdan4Ġ": 4015,
      "indow": 4016,
      "3Ġge4Ġ": 4017,
      "chu1Ġdao4Ġ": 4018,
      "Ġbei3Ġqi3Ġ": 4019,
      "lv3Ġxing2Ġ": 4020,
      "deĠli4Ġ": 4021,
      "hun1Ġyin1Ġ": 4022,
      "zheng4Ġshi2Ġ": 4023,
      "fu1Ġren2Ġ": 4024,
      "zhuang1Ġbei4Ġ": 4025,
      "seng1Ġ": 4026,
      "san1Ġjiao3Ġ": 4027,
      "bu4Ġman3Ġ": 4028,
      "Ġta1Ġyu3Ġ": 4029,
      "ĠhansĠ": 4030,
      "er2Ġcheng2Ġ": 4031,
      "Ġjue2Ġ": 4032,
      "ĠtwĠ": 4033,
      "xing4Ġbie2Ġ": 4034,
      "ĠĠĠxi1Ġ": 4035,
      "yong4Ġzuo4Ġ": 4036,
      "zui3Ġ": 4037,
      "ĠĠĠyou3Ġ": 4038,
      "11": 4039,
      "tong2Ġmeng2Ġ": 4040,
      "Ġfang1Ġ": 4041,
      "zhui4Ġ": 4042,
      "Ġbu2Ġ": 4043,
      "Ġ6Ġyue4Ġ": 4044,
      "zhong3Ġzu2Ġ": 4045,
      "jun1Ġzhu3Ġ": 4046,
      "ye3Ġhui4Ġ": 4047,
      "Ġye3Ġyou3Ġ": 4048,
      "alĠ": 4049,
      "Ġjin4Ġru4Ġ": 4050,
      "min2Ġjian1Ġ": 4051,
      "jing1Ġli3Ġ": 4052,
      "pei4Ġyin1Ġ": 4053,
      "yi1Ġtiao2Ġ": 4054,
      "er3Ġman4Ġ": 4055,
      "zhuang1Ġzhi4Ġ": 4056,
      "duo3Ġ": 4057,
      "yi4Ġbai3Ġ": 4058,
      "wan4Ġyuan2Ġ": 4059,
      "4Ġge4Ġ": 4060,
      "shi4Ġwei1Ġ": 4061,
      "2000Ġnian2Ġ": 4062,
      "wen1Ġdu4Ġ": 4063,
      "ao4Ġdi4Ġli4Ġ": 4064,
      "de2ĠdeĠ": 4065,
      "lu4Ġyi4Ġ": 4066,
      "Ġzhi2Ġzhi4Ġ": 4067,
      "ï¼ı": 4068,
      "Ġqi1Ġjian1Ġ": 4069,
      "ding4Ġju1Ġ": 4070,
      "si1Ġlin2Ġ": 4071,
      "zhao3Ġdao4Ġ": 4072,
      "ĠĠĠwei4Ġ": 4073,
      "yi1Ġji2Ġ": 4074,
      "niang2Ġ": 4075,
      "Ġfu4Ġqin1Ġ": 4076,
      "duo2ĠdeĠ": 4077,
      "gong4Ġhe2Ġ": 4078,
      "gong1Ġju4Ġ": 4079,
      "qiu2Ġji4Ġ": 4080,
      "Ġhua4Ġ": 4081,
      "shua1Ġ": 4082,
      "pai2Ġhang2Ġ": 4083,
      "shang4Ġwu3Ġ": 4084,
      "po2Ġ": 4085,
      "zhan4Ġtai2Ġ": 4086,
      "Ġ5Ġyue4Ġ": 4087,
      "ĠĠĠdeĠshi2Ġqu1Ġwei4Ġ": 4088,
      "ĠĠĠdeĠyou2Ġzheng4Ġbian1Ġma3Ġwei4Ġ": 4089,
      "ĠĠĠsuo3Ġshu3ĠdeĠsheng3Ġji2Ġxuan3Ġqu1Ġwei4Ġ": 4090,
      "ĠĠĠyu2Ġshi2ĠdeĠren2Ġkou3Ġshu4Ġliang4Ġwei4Ġren2Ġ": 4091,
      "ming2Ġyi4Ġ": 4092,
      "tui4Ġxiu1Ġ": 4093,
      "yuan2Ġgong1Ġ": 4094,
      "ĠĠĠyu3Ġjie1Ġrang3ĠdeĠshi4Ġzhen4Ġ": 4095,
      "27Ġ": 4096,
      "ĠÑ": 4097,
      "te4Ġse4Ġ": 4098,
      "1Ġyue4Ġ1Ġri4Ġ": 4099,
      "Ġgang3Ġ": 4100,
      "liang3Ġren2Ġ": 4101,
      "Ġjia1Ġshang4Ġ": 4102,
      "tan2Ġpan4Ġ": 4103,
      "zhi1ĠdeĠ": 4104,
      "Ġhang2Ġ": 4105,
      "zai4Ġqi2Ġ": 4106,
      "ĠĠĠxin1Ġ": 4107,
      "2005Ġnian2Ġ": 4108,
      "Ġci3Ġshi2Ġ": 4109,
      "qi2Ġbing1Ġ": 4110,
      "gou4Ġzao4Ġ": 4111,
      "eg": 4112,
      "zheng4Ġxie2Ġ": 4113,
      "zhou1Ġwei2Ġ": 4114,
      "Ġzai4Ġci3Ġ": 4115,
      "ce4ĠdeĠ": 4116,
      "yuan1Ġ": 4117,
      "zhi4Ġyu2Ġ": 4118,
      "dong4Ġzuo4Ġ": 4119,
      "wang1Ġ": 4120,
      "der": 4121,
      "zhan4Ġlve4Ġ": 4122,
      "menĠdeĠ": 4123,
      "90": 4124,
      "cong1Ġ": 4125,
      "you3Ġyi2Ġge4Ġ": 4126,
      "nei4Ġlu4Ġ": 4127,
      "dou1Ġhui4Ġ": 4128,
      "zhe2Ġxue2Ġ": 4129,
      "Ġqi4Ġ": 4130,
      "Ġti2Ġgong1Ġ": 4131,
      "you2Ġji1Ġ": 4132,
      "jie3Ġsan4Ġ": 4133,
      "you1Ġxiu4Ġ": 4134,
      "Ġqing1Ġchao2Ġ": 4135,
      "he2Ġcheng2Ġ": 4136,
      "Ġyou3Ġshi2Ġ": 4137,
      "kai1Ġshe4Ġ": 4138,
      "ma3Ġla1Ġ": 4139,
      "jiang1Ġhui4Ġ": 4140,
      "yuan2Ġshi4Ġ": 4141,
      "2023Ġnian2Ġ": 4142,
      "qing1Ġchao2Ġ": 4143,
      "mo4Ġsi1Ġke1Ġ": 4144,
      "jia1Ġmeng2Ġ": 4145,
      "fei1Ġjian4Ġzhi4Ġ": 4146,
      "yin3Ġru4Ġ": 4147,
      "ĠĠĠ2011Ġnian2Ġ": 4148,
      "dao3Ġshi4Ġ": 4149,
      "alĠĠĠ": 4150,
      "tai2Ġnan2Ġ": 4151,
      "us": 4152,
      "di4Ġdian3Ġ": 4153,
      "feng1Ġfu4Ġ": 4154,
      "gu3Ġdai4Ġ": 4155,
      "Ġkong3Ġ": 4156,
      "45": 4157,
      "Ġman4Ġ": 4158,
      "ĠhkĠ": 4159,
      "ne": 4160,
      "chu1Ġyan3Ġ": 4161,
      "zhi2ĠdeĠ": 4162,
      "yin4Ġni2Ġ": 4163,
      "nian2Ġhou4Ġ": 4164,
      "bao3Ġcun2Ġ": 4165,
      "ĠĠĠ192": 4166,
      "pai4Ġqian3Ġ": 4167,
      "KĠ": 4168,
      "Ġpu2Ġ": 4169,
      "fa1Ġxian4ĠleĠ": 4170,
      "ji1Ġdu1Ġjiao4Ġ": 4171,
      "zai4Ġyi1Ġ": 4172,
      "ji2Ġshi4Ġ": 4173,
      "zhao4Ġpian1Ġ": 4174,
      "yi3Ġbei4Ġ": 4175,
      "Ġzhe4Ġge": 4176,
      "da4Ġsai4Ġ": 4177,
      "xun2Ġzhao3Ġ": 4178,
      "toĠĠĠ": 4179,
      "shou3Ġwei4Ġ": 4180,
      "tui1Ġjin4Ġ": 4181,
      "Ġta1Ġceng2Ġdai4Ġbiao3Ġ": 4182,
      "li4Ġhe2Ġ": 4183,
      "wang3Ġqiu2Ġ": 4184,
      "jing3Ġfang1Ġ": 4185,
      "ĠĠĠ2010Ġnian2Ġ": 4186,
      "dong1Ġnan2Ġbu4Ġ": 4187,
      "tan3Ġke4Ġ": 4188,
      "ke2Ġ": 4189,
      "Ġzao4Ġcheng2Ġ": 4190,
      "iv": 4191,
      "yun4Ġzuo4Ġ": 4192,
      "deng1Ġshang4Ġ": 4193,
      "fei1Ġjian4Ġzhi4Ġdi4Ġqu1Ġ": 4194,
      "fang1Ġyan2Ġ": 4195,
      "AS": 4196,
      "shi4Ġyu3Ġ": 4197,
      "fu4Ġmu3Ġ": 4198,
      "tao1Ġ": 4199,
      "jun1Ġqu1Ġ": 4200,
      "2014Ġnian2Ġ": 4201,
      "fa3Ġguan1Ġ": 4202,
      "34Ġ": 4203,
      "Ġdong1Ġlin2Ġ": 4204,
      "chong2Ġqing4Ġ": 4205,
      "ni2Ġya4Ġzhou1Ġ": 4206,
      "xue2Ġshi4Ġ": 4207,
      "ji3Ġyu3Ġ": 4208,
      "ent": 4209,
      "fa4Ġ": 4210,
      "zhong4Ġda4Ġ": 4211,
      "gao1Ġxiong2Ġ": 4212,
      "ren4Ġming4Ġwei4Ġ": 4213,
      "deĠzhong4Ġyao4Ġ": 4214,
      "ĠĠĠyi3Ġxia4Ġ": 4215,
      "Ġ4Ġyue4Ġ": 4216,
      "Ġce4Ġ": 4217,
      "deĠhua4Ġ": 4218,
      "xi1Ġlan2Ġ": 4219,
      "fu4Ġgai4Ġ": 4220,
      "2018Ġnian2Ġ": 4221,
      "zhou1Ġfu3Ġ": 4222,
      "ban4Ġyan3Ġ": 4223,
      "ling3Ġdao3Ġren2Ġ": 4224,
      "GĠ": 4225,
      "zui4Ġduo1Ġ": 4226,
      "Ġnuo4Ġ": 4227,
      "lv4Ġwei4Ġ": 4228,
      "xian1Ġsheng1Ġ": 4229,
      "shuang1Ġfang1Ġ": 4230,
      "leĠta1ĠdeĠ": 4231,
      "liang3Ġci4Ġ": 4232,
      "Ġzhe4Ġjiang1Ġ": 4233,
      "ri4Ġbao4Ġ": 4234,
      "dai4Ġlai2Ġ": 4235,
      "zhi4Ġwei4Ġ": 4236,
      "sheng1Ġcheng1Ġ": 4237,
      "an1Ġde2Ġ": 4238,
      "xi4Ġtong3ĠdeĠ": 4239,
      "lao2Ġdong4Ġ": 4240,
      "dong1Ġbei3Ġbu4Ġ": 4241,
      "li3Ġke4Ġ": 4242,
      "19Ġ": 4243,
      "Ġzhu2Ġ": 4244,
      "2024Ġnian2Ġ": 4245,
      "di4Ġtu2Ġ": 4246,
      "Ġdan4Ġyou2Ġyu2Ġ": 4247,
      "tong1Ġdao4Ġ": 4248,
      "Ġzui4Ġchu1Ġ": 4249,
      "Ġhuo4Ġzhe3Ġ": 4250,
      "rui4Ġdian3Ġ": 4251,
      "tui4Ġchu1Ġ": 4252,
      "Ġquan2Ġguo2Ġ": 4253,
      "bei4Ġren4Ġwei2Ġshi4Ġ": 4254,
      "yi1Ġliao2Ġ": 4255,
      "wei1Ġji1Ġ": 4256,
      "shao4Ġnv3Ġ": 4257,
      "ti2Ġdao4Ġ": 4258,
      "Ġxi1Ġwang4Ġ": 4259,
      "ĠĠĠjia1Ġzu2Ġ": 4260,
      "bu4Ġlu3Ġ": 4261,
      "yuan2Ġzi4Ġ": 4262,
      "zi1Ġchan3Ġ": 4263,
      "kuo4Ġzhan3Ġ": 4264,
      "ma3Ġer3Ġ": 4265,
      "tui4Ġyi4Ġ": 4266,
      "shu1Ġru4Ġ": 4267,
      "tuo3Ġ": 4268,
      "2Ġge4Ġ": 4269,
      "ĠĠĠb": 4270,
      "chang2Ġdu4Ġ": 4271,
      "Ġlu3Ġ": 4272,
      "you3Ġyi4Ġ": 4273,
      "zhi4Ġding4Ġ": 4274,
      "2004Ġnian2Ġ": 4275,
      "ĠĠĠzh": 4276,
      "Ġgang1Ġ": 4277,
      "xiang1Ġhu4Ġ": 4278,
      "zhuan1Ġmen2Ġ": 4279,
      "he2Ġpan4Ġ": 4280,
      "Ġcai4Ġ": 4281,
      "ke1Ġfu1Ġ": 4282,
      "yi3Ġqian2Ġ": 4283,
      "she4Ġying3Ġ": 4284,
      "Ġe4Ġ": 4285,
      "jun1Ġwei4Ġ": 4286,
      "zhi3Ġzai4Ġ": 4287,
      "Ġwei4Ġfu2Ġqi2Ġyu2Ġgang1Ġ": 4288,
      "Ġxi1Ġban1Ġya2Ġ": 4289,
      "yu3Ġmao2Ġqiu2Ġ": 4290,
      "dang1Ġshi2ĠdeĠ": 4291,
      "zhan3Ġshi4Ġ": 4292,
      "Ġbi4Ġye4Ġ": 4293,
      "deĠfang1Ġshi4Ġ": 4294,
      "Ġshi4Ġri4Ġben3Ġ": 4295,
      "zi4Ġshen1Ġ": 4296,
      "shou3ĠdeĠ": 4297,
      "dui4Ġzhang3Ġ": 4298,
      "xi2Ġxing4Ġ": 4299,
      "cheng2Ġwei2ĠleĠ": 4300,
      "di4Ġya4Ġ": 4301,
      "ma3Ġsi1Ġ": 4302,
      "bo2Ġlin2Ġ": 4303,
      "lan2Ġqiu2Ġ": 4304,
      "Ġjing1Ġji4Ġ": 4305,
      "Ġhou4Ġzhe3Ġ": 4306,
      "de2Ġzhi1Ġ": 4307,
      "dong1Ġji4Ġ": 4308,
      "hui2Ġgui1Ġ": 4309,
      "lun2Ġbi3Ġya4Ġ": 4310,
      "tou1Ġ": 4311,
      "cheng2Ġben3Ġ": 4312,
      "zhi3Ġkong4Ġ": 4313,
      "di4Ġ1Ġ": 4314,
      "ĠĠĠzhĠ": 4315,
      "ji1Ġzhi4Ġ": 4316,
      "dai4Ġbiao3Ġtuan2Ġ": 4317,
      "bu4Ġbing1Ġ": 4318,
      "Ġheng2Ġ": 4319,
      "shi4Ġji2Ġ": 4320,
      "zhong1Ġbei4Ġ": 4321,
      "gong1Ġying4Ġ": 4322,
      "nong2Ġmin2Ġ": 4323,
      "ay": 4324,
      "tai2Ġfeng1Ġ": 4325,
      "hou4Ġzai4Ġ": 4326,
      "qi3Ġyi4Ġ": 4327,
      "dan4Ġshui3Ġ": 4328,
      "deĠxiao3Ġ": 4329,
      "sheng1Ġtai4Ġ": 4330,
      "hua1Ġyuan2Ġ": 4331,
      "Ġlv3Ġ": 4332,
      "zuo4Ġzhe3Ġ": 4333,
      "ĠĠĠV": 4334,
      "shi2Ġba1Ġ": 4335,
      "cai2Ġneng2Ġ": 4336,
      "zhi1ĠziĠ": 4337,
      "Ġjian4Ġzhu4Ġ": 4338,
      "shi2Ġxing2Ġ": 4339,
      "yi1Ġjia1Ġ": 4340,
      "huo3Ġjian4Ġ": 4341,
      "te4Ġding4Ġ": 4342,
      "dang1Ġzhong1Ġ": 4343,
      "Ġ188": 4344,
      "xian4Ġjin1Ġ": 4345,
      "Ġying1Ġyu3Ġ": 4346,
      "em": 4347,
      "ĠĠĠa1Ġ": 4348,
      "ke4Ġluo2Ġ": 4349,
      "mei3Ġni2Ġya4Ġ": 4350,
      "2011Ġnian2Ġ": 4351,
      "you1Ġshi4Ġ": 4352,
      "Ġyin2Ġ": 4353,
      "deĠdi4Ġqu1Ġ": 4354,
      "xi2Ġwei4Ġ": 4355,
      "su1Ġge2Ġlan2Ġ": 4356,
      "lo": 4357,
      "ji1Ġyin1Ġ": 4358,
      "shen1Ġzhen4Ġ": 4359,
      "xiang4Ġzheng1Ġ": 4360,
      "bu4Ġla1Ġ": 4361,
      "zhi2Ġdao3Ġ": 4362,
      "qi3Ġdong4Ġ": 4363,
      "da4Ġfu2Ġ": 4364,
      "5Ġmi3Ġ": 4365,
      "jia4Ġge2Ġ": 4366,
      "zhi3Ġdao3Ġ": 4367,
      "yi4Ġfang1Ġmian4Ġ": 4368,
      "Ġ2004Ġnian2Ġ": 4369,
      "da4Ġqiao2Ġ": 4370,
      "190": 4371,
      "guan1Ġdian3Ġ": 4372,
      "chuang4Ġjian4Ġ": 4373,
      "Ġ2023Ġnian2Ġ": 4374,
      "Ġhan2Ġguo2Ġ": 4375,
      "li4Ġyi4Ġ": 4376,
      "zhi1Ġwei4Ġ": 4377,
      "jun1Ġguan1Ġ": 4378,
      "Ġbi3Ġru2Ġ": 4379,
      "sha1Ġsi3Ġ": 4380,
      "xun1Ġzhang1Ġ": 4381,
      "di4Ġmian4Ġ": 4382,
      "zhu4ĠdeĠ": 4383,
      "ma3Ġke4Ġ": 4384,
      "shan3Ġxi1Ġ": 4385,
      "Ġwu4Ġ": 4386,
      "nian2Ġling2Ġ": 4387,
      "zuo4Ġqu3Ġ": 4388,
      "xiang1Ġguan1ĠdeĠ": 4389,
      "da4Ġjiang3Ġ": 4390,
      "biao1Ġben3Ġ": 4391,
      "orĠ": 4392,
      "pu2Ġtao2Ġya2Ġ": 4393,
      "Ġxue2Ġxiao4Ġ": 4394,
      "yan2Ġhai3Ġ": 4395,
      "yan2Ġse4Ġ": 4396,
      "tong2Ġpai2Ġ": 4397,
      "Ġshe4Ġhui4Ġ": 4398,
      "xing2Ġmu4Ġ": 4399,
      "xiang1Ġbi3Ġ": 4400,
      "ke1Ġxue2Ġyuan4Ġ": 4401,
      "mi3Ġya4Ġ": 4402,
      "ri4Ġzhi4Ġ": 4403,
      "42Ġ": 4404,
      "yuan2Ġze2Ġ": 4405,
      "ai1Ġer3Ġ": 4406,
      "yin4Ġdi4Ġ": 4407,
      "Ġgong4Ġyou3Ġ": 4408,
      "kun4Ġnan2Ġ": 4409,
      "shan1Ġqu1Ġ": 4410,
      "2020Ġnian2Ġmei3Ġguo2Ġren2Ġkou3Ġpu3Ġcha2ĠdeĠshu4Ġju4Ġ": 4411,
      "ai1Ġji2Ġ": 4412,
      "Ġneng2Ġ": 4413,
      "46": 4414,
      "qi2Ġxia4Ġ": 4415,
      "fei1Ġlv4Ġbin1Ġ": 4416,
      "neĠ": 4417,
      "qie1Ġ": 4418,
      "shi2Ġduan4Ġ": 4419,
      "ĠĠĠdeĠ": 4420,
      "yu3Ġqi2Ġta1Ġ": 4421,
      "--": 4422,
      "In": 4423,
      "shi2Ġwu3Ġ": 4424,
      "da4Ġsha4Ġ": 4425,
      "bei4Ġpo4Ġ": 4426,
      "dui4Ġwai4Ġ": 4427,
      "jie1Ġwei4Ġ": 4428,
      "sa4Ġsi1Ġ": 4429,
      "shan1Ġji1Ġ": 4430,
      "Ġyin1Ġyue4Ġ": 4431,
      "Ġyou3Ġxie1Ġ": 4432,
      "asĠĠĠ": 4433,
      "ĠĠĠzao3Ġnian2Ġ": 4434,
      "jia1Ġla1Ġ": 4435,
      "shen2ĠmeĠ": 4436,
      "jian3Ġce4Ġ": 4437,
      "zhong1Ġqi1Ġ": 4438,
      "zhi1Ġzhan4Ġ": 4439,
      "xi1Ġan1Ġ": 4440,
      "xi1Ġsi1Ġ": 4441,
      "yin1Ġshi4Ġ": 4442,
      "Ġping2Ġjun1Ġ": 4443,
      "shi2Ġwu4Ġ": 4444,
      "xing1Ġdeng3Ġ": 4445,
      "ber": 4446,
      "Ġ3Ġyue4Ġ": 4447,
      "zhi4Ġyi2Ġ": 4448,
      "zheng4Ġfu3ĠdeĠ": 4449,
      "zeng1Ġzu3Ġ": 4450,
      "2015Ġnian2Ġ": 4451,
      "liu2Ġyu4Ġ": 4452,
      "du1Ġshi4Ġ": 4453,
      "tu1Ġpo4Ġ": 4454,
      "gĠ": 4455,
      "fan4Ġwei2Ġnei4Ġ": 4456,
      "Ġgui4Ġ": 4457,
      "you2Ġyong3Ġ": 4458,
      "jun1Ġtuan2Ġ": 4459,
      "nan2Ġyi3Ġ": 4460,
      "tai4Ġguo2Ġ": 4461,
      "Ġzhong1ĠdeĠ": 4462,
      "ack": 4463,
      "fen1Ġli2Ġ": 4464,
      "pei4Ġhe2Ġ": 4465,
      "zhuan3Ġyi2Ġ": 4466,
      "can1Ġjia1ĠleĠ": 4467,
      "dai4Ġli3Ġ": 4468,
      "deĠli4Ġshi3Ġ": 4469,
      "dui4Ġying4Ġ": 4470,
      "di4Ġba1Ġ": 4471,
      "huan4Ġzhe3Ġ": 4472,
      "shi3Ġshang4Ġ": 4473,
      "guan1Ġce4Ġ": 4474,
      "dong1Ġfang1Ġ": 4475,
      "yi3Ġwai4Ġ": 4476,
      "bu4Ġer3Ġ": 4477,
      "tong1Ġxun4Ġ": 4478,
      "zai4Ġ199": 4479,
      "jing1Ġdian3Ġ": 4480,
      "dian4Ġhua4Ġ": 4481,
      "pai4Ġchu1Ġ": 4482,
      "Ġcheng1Ġwei2Ġ": 4483,
      "ĠĠĠof": 4484,
      "dai4Ġbu3Ġ": 4485,
      "cheng1Ġwei4Ġ": 4486,
      "ren2Ġkou3Ġwei4Ġ": 4487,
      "IN": 4488,
      "2017Ġnian2Ġ": 4489,
      "00Ġren2Ġ": 4490,
      "li4Ġshan1Ġda4Ġ": 4491,
      "liu2Ġzai4Ġ": 4492,
      "xie2Ġtiao2Ġ": 4493,
      "hou4Ġbei4Ġ": 4494,
      "she4ĠdeĠ": 4495,
      "Ġbao1Ġhan2Ġ": 4496,
      "qi2Ġzhong1Ġyi1Ġzhong3Ġ": 4497,
      "pin1Ġ": 4498,
      "Ġzheng4Ġzhi4Ġ": 4499,
      "hui4Ġzhang3Ġ": 4500,
      "sheng1Ġzhang3Ġ": 4501,
      "Ġqi2Ġzhong1Ġbao1Ġkuo4Ġ": 4502,
      "yu3Ġqi2Ġ": 4503,
      "xi1Ġbei3Ġbu4Ġ": 4504,
      "Ġshi4Ġyou2Ġ": 4505,
      "ka3Ġsi1Ġ": 4506,
      "po3Ġ": 4507,
      "zheng3Ġti3Ġ": 4508,
      "Ġming2Ġchao2Ġzheng4Ġzhi4Ġren2Ġwu4Ġ": 4509,
      "Ġlie4Ġ": 4510,
      "shi4Ġyou3Ġ": 4511,
      "36Ġ": 4512,
      "chou3Ġ": 4513,
      "lu4Ġxu4Ġ": 4514,
      "guo2Ġjia1ĠdeĠ": 4515,
      "zhu4Ġli3Ġ": 4516,
      "wa3Ġer3Ġsheng3Ġ": 4517,
      "deĠshi2Ġjian1Ġ": 4518,
      "AR": 4519,
      "ĠĠĠqi2Ġta1Ġ": 4520,
      "yi4Ġyou3Ġ": 4521,
      "tai4Ġkong1Ġ": 4522,
      "huo3Ġshan1Ġ": 4523,
      "ĠĠĠ2008Ġnian2Ġ": 4524,
      "jian1Ġdu1Ġ": 4525,
      "Ġsu4Ġ": 4526,
      "yu2Ġ193": 4527,
      "ao4Ġzhou1Ġ": 4528,
      "shi2Ġsi4Ġ": 4529,
      "yan2Ġchang2Ġ": 4530,
      "pi4Ġ": 4531,
      "deĠdi4Ġyi1Ġ": 4532,
      "ji1Ġqi4Ġ": 4533,
      "zhan3Ġlan3Ġ": 4534,
      "xi1Ġnan2Ġbu4Ġ": 4535,
      "fang2Ġyu4Ġ": 4536,
      "guo2Ġwu4Ġyuan4Ġ": 4537,
      "jia1Ġqiang2Ġ": 4538,
      "Ġxin1Ġzeng1Ġ": 4539,
      "Ġnan2Ġzhi4Ġ": 4540,
      "mian3Ġfei4Ġ": 4541,
      "zhong4Ġduo1Ġ": 4542,
      "jiao1Ġhui4Ġ": 4543,
      "fen1Ġbu4Ġyu2Ġ": 4544,
      "Ġqiu1Ġ": 4545,
      "xiang1Ġxin4Ġ": 4546,
      "fu2Ġyi4Ġ": 4547,
      "Ġsui2Ġzhu4Ġ": 4548,
      "Ġru4Ġ": 4549,
      "Ġqin2Ġ": 4550,
      "yi4Ġming2Ġ": 4551,
      "shou3Ġge4Ġ": 4552,
      "nong2Ġcun1Ġ": 4553,
      "ju4Ġyuan4Ġ": 4554,
      "2001Ġnian2Ġ": 4555,
      "sheng2Ġ": 4556,
      "ke4Ġla1Ġ": 4557,
      "li2Ġmi3Ġ": 4558,
      "Ġxu2Ġ": 4559,
      "shi2Ġliu4Ġ": 4560,
      "yi1Ġli4Ġ": 4561,
      "shu1Ġyuan4Ġ": 4562,
      "fang2Ġwu1Ġ": 4563,
      "qin1Ġwang2Ġ": 4564,
      "si1Ġdun4Ġ": 4565,
      "Ġyue1Ġhan4Ġ": 4566,
      "ci4Ġshi3Ġ": 4567,
      "long2Ġjiang1Ġ": 4568,
      "ĠCh": 4569,
      "gong1Ġjue2Ġ": 4570,
      "shi2Ġren4Ġ": 4571,
      "yin2Ġpai2Ġ": 4572,
      "Ġmei3Ġnian2Ġ": 4573,
      "shi2Ġhou4Ġ": 4574,
      "dai4Ġyou3Ġ": 4575,
      "Ġ2002Ġnian2Ġ": 4576,
      "xi3Ġju4Ġ": 4577,
      "ban4Ġshi4Ġchu4Ġ": 4578,
      "Ġke3Ġneng2Ġ": 4579,
      "jia1Ġshang4Ġ": 4580,
      "bei4Ġshi4Ġwei4Ġ": 4581,
      "ĠĠĠdang1Ġ": 4582,
      "deĠgao1Ġ": 4583,
      "Ġxuan1Ġbu4Ġ": 4584,
      "da4Ġxuan3Ġ": 4585,
      "kai1Ġzhan3Ġ": 4586,
      "ze2Ġwei4Ġ": 4587,
      "ji1Ġjin1Ġhui4Ġ": 4588,
      "gu4Ġding4Ġ": 4589,
      "ruan3Ġjian4Ġ": 4590,
      "jie1Ġji2Ġ": 4591,
      "ell": 4592,
      "cheng2ĠleĠ": 4593,
      "yu3Ġzhong1Ġ": 4594,
      "189": 4595,
      "fen1Ġlan2Ġ": 4596,
      "ci4Ġshi4Ġjie4Ġda4Ġzhan4Ġ": 4597,
      "cheng2Ġke4Ġ": 4598,
      "ji4Ġyi4Ġ": 4599,
      "kong1Ġzhong1Ġ": 4600,
      "Ġfa1Ġxian4Ġ": 4601,
      "zhi3Ġding4Ġ": 4602,
      "bian1Ġju4Ġ": 4603,
      "wan2Ġgong1Ġ": 4604,
      "da4Ġxue2ĠdeĠ": 4605,
      "hua4Ġhe2Ġwu4Ġ": 4606,
      "neng2Ġliang4Ġ": 4607,
      "yu3Ġzhou4Ġ": 4608,
      "Ġbai4Ġ": 4609,
      "hei1Ġse4Ġ": 4610,
      "yun4Ġyong4Ġ": 4611,
      "47": 4612,
      "hua2Ġren2Ġ": 4613,
      "dai4Ġling3Ġ": 4614,
      "hen3Ġkuai4Ġ": 4615,
      "que4Ġzhen3Ġbing4Ġli4Ġ": 4616,
      "yi1Ġduan4Ġ": 4617,
      "hui4Ġshang4Ġ": 4618,
      "zeng1Ġqiang2Ġ": 4619,
      "Ġqu3Ġ": 4620,
      "de2Ġhua2Ġ": 4621,
      "can1Ġxuan3Ġ": 4622,
      "zhi2Ġye4Ġsheng1Ġya2Ġ": 4623,
      "kong1Ġqi4Ġ": 4624,
      "Ġli4Ġshu3Ġyu2Ġ": 4625,
      "55": 4626,
      "shi1ĠdeĠ": 4627,
      "she4Ġding4Ġ": 4628,
      "guo4Ġdu4Ġ": 4629,
      "ãģ": 4630,
      "Ġyan2Ġjiu1Ġ": 4631,
      "zhuan3Ġxiang4Ġ": 4632,
      "mai4Ġke4Ġ": 4633,
      "Ġ2001Ġnian2Ġren2Ġkou3Ġ": 4634,
      "per": 4635,
      "Ġbing1Ġ": 4636,
      "1Ġhao4Ġ": 4637,
      "chu1Ġfa1Ġ": 4638,
      "dian3Ġli3Ġ": 4639,
      "Ġting2Ġ": 4640,
      "di4Ġli3Ġ": 4641,
      "zi1Ġben3Ġ": 4642,
      "nu3Ġli4Ġ": 4643,
      "ok": 4644,
      "an1Ġhui1Ġ": 4645,
      "leĠzhe4Ġ": 4646,
      "an4Ġzhao4Ġ": 4647,
      "liang3Ġnian2Ġ": 4648,
      "zai4Ġ198": 4649,
      "29Ġ": 4650,
      "cheng2Ġqu1Ġ": 4651,
      "shou1Ġshi4Ġ": 4652,
      "38Ġ": 4653,
      "ping2Ġgu1Ġ": 4654,
      "ma3Ġtou2Ġ": 4655,
      "deng1Ġchang2Ġ": 4656,
      "ming2Ġzhi4Ġ": 4657,
      "zhang1Ġzhuan1Ġji2Ġ": 4658,
      "ĠĠĠ2009Ġnian2Ġ": 4659,
      "gong1Ġyi4Ġ": 4660,
      "hai3Ġba2Ġgao1Ġdu4Ġ": 4661,
      "Ġ12Ġ": 4662,
      "ĠCĠ": 4663,
      "ming2Ġque4Ġ": 4664,
      "cheng1Ġzuo4Ġ": 4665,
      "ff": 4666,
      "Ġxuan1Ġ": 4667,
      "you3Ġzhu4Ġ": 4668,
      "zhou1Ġqi1Ġ": 4669,
      "bo1Ġli2Ġ": 4670,
      "Ġà": 4671,
      "Ġwu1Ġke4Ġlan2Ġ": 4672,
      "yu3Ġhe2Ġ": 4673,
      "Ġzai4Ġzhe4Ġ": 4674,
      "zhen1Ġshi2Ġ": 4675,
      "Ġdong1Ġbei3Ġ": 4676,
      "leĠdui4Ġ": 4677,
      "ri4Ġqi1Ġ": 4678,
      "cu4Ġjin4Ġ": 4679,
      "ĠĠĠ2025Ġnian2Ġ": 4680,
      "wei2Ġai1Ġ": 4681,
      "Ġxian4Ġren4Ġ": 4682,
      "2013Ġnian2Ġ": 4683,
      "Ġshi4Ġyi1Ġming2Ġ": 4684,
      "Ġqi1Ġxi1Ġzai4Ġ": 4685,
      "ari": 4686,
      "xi1Ġzang4Ġ": 4687,
      "na2Ġxia4Ġ": 4688,
      "bi2Ġ": 4689,
      "ge4Ġzi4Ġ": 4690,
      "ST": 4691,
      "sheng1Ġwei4Ġ": 4692,
      "49": 4693,
      "nuo2Ġwei1Ġ": 4694,
      "dui4Ġkang4Ġ": 4695,
      "Ġzu3Ġfu4Ġ": 4696,
      "Ġwen2Ġhua4Ġ": 4697,
      "di4Ġ2Ġ": 4698,
      "ju4Ġben3Ġ": 4699,
      "liang3Ġming2Ġ": 4700,
      "Ġte4Ġbie2Ġshi4Ġ": 4701,
      "suo3Ġshu3Ġ": 4702,
      "jing4ĠdeĠ": 4703,
      "10Ġnian2Ġ": 4704,
      "Ġxun2Ġ": 4705,
      "jing4Ġxuan3Ġ": 4706,
      "dang3ĠdeĠ": 4707,
      "tao2Ġtai4Ġ": 4708,
      "dan3Ġ": 4709,
      "zhi1Ġliu2Ġ": 4710,
      "Ġmeng4Ġ": 4711,
      "Ġguan1Ġyu2Ġ": 4712,
      "Ġshi4Ġzhong1Ġguo2Ġ": 4713,
      "jia4Ġshi3Ġ": 4714,
      "Ġgui1Ġ": 4715,
      "Ġguo1Ġ": 4716,
      "zhu4Ġce4Ġ": 4717,
      "guan3Ġli3Ġju2Ġ": 4718,
      "ren3Ġ": 4719,
      "Ġfeng4Ġ": 4720,
      "ge2Ġli2Ġ": 4721,
      "na4Ġxie1Ġ": 4722,
      "Ġ11Ġ": 4723,
      "jin3Ġji2Ġ": 4724,
      "Ġyong1Ġyou3Ġ": 4725,
      "dian4Ġqi4Ġ": 4726,
      "huang2Ġhou4Ġ": 4727,
      "Ġer2Ġshui3Ġyu4Ġmian4Ġji1Ġwei4Ġ0": 4728,
      "ãĥ»": 4729,
      "STĠ": 4730,
      "ÃĹ": 4731,
      "yi1Ġzhi1Ġ": 4732,
      "bin1Ġhai3Ġ": 4733,
      "Ġshi4Ġyi1Ġke1Ġ": 4734,
      "Ġshuo1Ġ": 4735,
      "xian4Ġshang4Ġ": 4736,
      "Ġshe4Ġyou3Ġ": 4737,
      "chui1Ġ": 4738,
      "ew": 4739,
      "ĠĠĠyou2Ġ": 4740,
      "ĠĠĠmei3Ġguo2Ġ": 4741,
      "qiao1Ġ": 4742,
      "ga1Ġ": 4743,
      "zai4Ġzhe4Ġ": 4744,
      "he2Ġgu3Ġ": 4745,
      "geng1Ġxin1Ġ": 4746,
      "Ġhuan2Ġ": 4747,
      "bu4Ġdian4Ġying3Ġ": 4748,
      "qi1Ġnian2Ġ": 4749,
      "ye4ĠdeĠ": 4750,
      "Ġjue2Ġding4Ġ": 4751,
      "wei4Ġdui4Ġ": 4752,
      "ĠĠĠqian2Ġ": 4753,
      "shen1Ġdu4Ġ": 4754,
      "huang2Ġjin1Ġ": 4755,
      "Ġ2003Ġnian2Ġ": 4756,
      "liao2Ġning2Ġ": 4757,
      "qiao4Ġ": 4758,
      "jin4Ġji2Ġ": 4759,
      "ling4Ġyi2Ġge4Ġ": 4760,
      "shi4Ġzheng4Ġfu3Ġ": 4761,
      "Ġgeng1Ġ": 4762,
      "duo1Ġnian2Ġ": 4763,
      "Ġhao4Ġxian4Ġ": 4764,
      "deĠzuo4Ġpin3Ġ": 4765,
      "bao3Ġzhang4Ġ": 4766,
      "uan4Ġ": 4767,
      "fei4Ġchu2Ġ": 4768,
      "ci": 4769,
      "jia1Ġzhou1Ġ": 4770,
      "Ġchong1Ġ": 4771,
      "chan3Ġsheng1ĠdeĠ": 4772,
      "xia4Ġxia2ĠdeĠyi2Ġge4Ġ": 4773,
      "zai4Ġri4Ġben3Ġ": 4774,
      "Ġtong3Ġ": 4775,
      "oh": 4776,
      "ke4Ġlai2Ġ": 4777,
      "zhang3Ġguan1Ġ": 4778,
      "lian2Ġhe2Ġhui4Ġ": 4779,
      "shi2Ġshang4Ġ": 4780,
      "Ġer2Ġgai1Ġdi4Ġ": 4781,
      "fu1Ġka3Ġ": 4782,
      "nan2Ġfang1Ġ": 4783,
      "guo2Ġmin2Ġzheng4Ġfu3Ġ": 4784,
      "sp": 4785,
      "sao3Ġ": 4786,
      "cheng2Ġren2Ġ": 4787,
      "yue4Ġdui4Ġ": 4788,
      "quan2ĠdeĠ": 4789,
      "Ġxing2Ġzheng4Ġ": 4790,
      "jian1Ġyu4Ġ": 4791,
      "wu3Ġhan4Ġ": 4792,
      "wei2Ġhu4Ġ": 4793,
      "si1Ġla1Ġfu1Ġ": 4794,
      "hao4ĠdeĠ": 4795,
      "Ġgan3Ġ": 4796,
      "qian1Ġding4Ġ": 4797,
      "Ġji2Ġshi3Ġ": 4798,
      "Ġjiao4Ġyu4Ġ": 4799,
      "li4Ġfang1Ġ": 4800,
      "bei3Ġfang1Ġ": 4801,
      "fu4Ġnv3Ġ": 4802,
      "zhu3Ġchang3Ġ": 4803,
      "Ġbang1Ġ": 4804,
      "lin2ĠdeĠ": 4805,
      "shi4Ġyan4Ġ": 4806,
      "yi2Ġdai4Ġ": 4807,
      "Ġyi3Ġjing1Ġ": 4808,
      "jie1Ġshou1Ġ": 4809,
      "kang4Ġri4Ġ": 4810,
      "hua4Ġwei4Ġ": 4811,
      "tong2Ġxing4Ġ": 4812,
      "mu4Ġsi1Ġlin2Ġ": 4813,
      "zhi4Ġ199": 4814,
      "Ġ2000Ġnian2Ġ": 4815,
      "shi4Ġzhong1Ġguo2Ġ": 4816,
      "chai1Ġchu2Ġ": 4817,
      "deng3Ġdeng3Ġ": 4818,
      "xiao1Ġfei4Ġ": 4819,
      "qiang2Ġdu4Ġ": 4820,
      "zhuan3Ġhuan4Ġ": 4821,
      "chuan2Ġmei2Ġ": 4822,
      "65": 4823,
      "shi4Ġnei4Ġ": 4824,
      "qin1Ġzi4Ġ": 4825,
      "Ġzu2Ġ": 4826,
      "wei4Ġyou3Ġ": 4827,
      "Ġdang3Ġ": 4828,
      "usĠ": 4829,
      "ge2Ġwei4Ġ": 4830,
      "Ġwan2Ġjia1Ġ": 4831,
      "II": 4832,
      "co": 4833,
      "âĶ": 4834,
      "di4Ġdai4Ġ": 4835,
      "xing2Ġxing1Ġ": 4836,
      "fu4Ġzhu3Ġren4Ġ": 4837,
      "shou1Ġcang2Ġ": 4838,
      "Ġju4Ġyou3Ġ": 4839,
      "12Ġnian2Ġ": 4840,
      "man2Ġ": 4841,
      "xue2ĠdeĠ": 4842,
      "75": 4843,
      "beng1Ġ": 4844,
      "shi4Ġfang4Ġ": 4845,
      "hui4Ġyuan2Ġ": 4846,
      "quan2Ġzhang3Ġ": 4847,
      "nei4Ġzhan4Ġ": 4848,
      "tai4Ġdu4Ġ": 4849,
      "nian2Ġdai4Ġ": 4850,
      "dui4Ġci3Ġ": 4851,
      "huo4Ġbi4Ġ": 4852,
      "tian1Ġhuang2Ġ": 4853,
      "yu2Ġlei4Ġ": 4854,
      "li3Ġjie3Ġ": 4855,
      "and": 4856,
      "shi4Ġzhi3Ġ": 4857,
      "zai4Ġzhong1Ġguo2Ġ": 4858,
      "Ġdi1Ġ": 4859,
      "lie4ĠdeĠ": 4860,
      "peng1Ġ": 4861,
      "Ġding1Ġ": 4862,
      "jie4ĠdeĠ": 4863,
      "zhong1Ġyu2Ġ": 4864,
      "zhi1Ġjia1Ġ": 4865,
      "ze2Ġdong1Ġ": 4866,
      "ĠĠĠju4Ġqing2Ġ": 4867,
      "zai4Ġgai1Ġ": 4868,
      "gan3Ġran3Ġzhe3Ġ": 4869,
      "pen2Ġ": 4870,
      "yi4Ġmei3Ġyuan2Ġ": 4871,
      "xin1Ġjiang1Ġ": 4872,
      "Ġgai4Ġ": 4873,
      "xiu1Ġjian4Ġ": 4874,
      "liu2Ġxia4Ġ": 4875,
      "shen1Ġwei4Ġ": 4876,
      "ni2Ġxi1Ġya4Ġ": 4877,
      "yi3Ġyou3Ġ": 4878,
      "zu3Ġzhi3Ġ": 4879,
      "huo2Ġyue4Ġ": 4880,
      "Ġshi4Ġyi1Ġwei4Ġ": 4881,
      "Ġcan1Ġyu4Ġ": 4882,
      "44Ġ": 4883,
      "ed": 4884,
      "tu1Ġran2Ġ": 4885,
      "AM": 4886,
      "fu4Ġxing1Ġ": 4887,
      "mi4Ġshu1Ġzhang3Ġ": 4888,
      "Ġruan3Ġ": 4889,
      "bu4Ġshi4Ġ": 4890,
      "lian2Ġren4Ġ": 4891,
      "shen3Ġcha2Ġ": 4892,
      "Ġwo3Ġmen": 4893,
      "Ġtou4Ġ": 4894,
      "yuan2Ġzhu4Ġmin2Ġ": 4895,
      "ĠĠĠxiang1Ġgang3Ġ": 4896,
      "ge4Ġlei4Ġ": 4897,
      "bo1Ġluo2Ġ": 4898,
      "zhu3Ġyi4Ġzhe3Ġ": 4899,
      "ï¼ħ": 4900,
      "gong1Ġan1Ġ": 4901,
      "fu4Ġzhu3Ġxi2Ġ": 4902,
      "Ġhuo2Ġ": 4903,
      "Ġying2Ġ": 4904,
      "ming2Ġxing1Ġ": 4905,
      "zhi4Ġcheng2Ġ": 4906,
      "Ġdun1Ġ": 4907,
      "jue2Ġdui4Ġ": 4908,
      "ĠĠĠxia4Ġ": 4909,
      "im": 4910,
      "li3Ġda2Ġ": 4911,
      "bao3Ġshou3Ġ": 4912,
      "Ġchao2Ġxian1Ġ": 4913,
      "yi3Ġnan2Ġ": 4914,
      "xiao4Ġqu1Ġ": 4915,
      "sui4Ġshi2Ġ": 4916,
      "Ġdeng4Ġ": 4917,
      "shi4Ġbu4Ġ": 4918,
      "yan3Ġyi4Ġ": 4919,
      "HĠ": 4920,
      "ĠĠĠzhong1Ġguo2Ġ": 4921,
      "de2Ġer3Ġ": 4922,
      "tui1Ġguang3Ġ": 4923,
      "âĶĢ": 4924,
      "Ch": 4925,
      "zai4Ġxiang1Ġgang3Ġ": 4926,
      "chang2Ġjian4ĠdeĠ": 4927,
      "ling3Ġshi4Ġ": 4928,
      "Ġmei3Ġge4Ġ": 4929,
      "xiu1Ġfu4Ġ": 4930,
      "shi2Ġer4Ġnian2Ġ": 4931,
      "Ġxu1Ġ": 4932,
      "geng4Ġwei2Ġ": 4933,
      "chang3Ġsuo3Ġ": 4934,
      "ni2Ġke4Ġ": 4935,
      "gen1Ġting2Ġ": 4936,
      "ĠĠĠci3Ġwai4Ġ": 4937,
      "you3Ġji1Ġ": 4938,
      "shou3Ġxiang4Ġ": 4939,
      "zhou1Ġci4Ġshi3Ġ": 4940,
      "dui1Ġ": 4941,
      "lei3Ġji4Ġ": 4942,
      "shou3Ġji1Ġ": 4943,
      "di4Ġer4Ġci4Ġshi4Ġjie4Ġda4Ġzhan4Ġ": 4944,
      "lan4Ġ": 4945,
      "dang1Ġnian2Ġ": 4946,
      "wei1Ġxian3Ġ": 4947,
      "ke3Ġyi3Ġzai4Ġ": 4948,
      "shi4Ġwei4ĠleĠ": 4949,
      "zhong1Ġgong4Ġzhong1Ġyang1Ġ": 4950,
      "de2Ġzhu3Ġ": 4951,
      "jin4Ġbu4Ġ": 4952,
      "ben3Ġdi4Ġ": 4953,
      "2003Ġnian2Ġ": 4954,
      "bi4Ġyao4Ġ": 4955,
      "zai4Ġnei4ĠdeĠ": 4956,
      "shou3Ġge1Ġ": 4957,
      "bao4Ġli4Ġ": 4958,
      "Ġlao2Ġ": 4959,
      "64Ġ": 4960,
      "TV": 4961,
      "xiao1Ġliang4Ġ": 4962,
      "Ġgong1Ġyuan2Ġ": 4963,
      "Ġchuan1Ġ": 4964,
      "zhong1Ġzhi3Ġ": 4965,
      "Ġchu3Ġyu2Ġ": 4966,
      "23": 4967,
      "er3Ġduo1Ġ": 4968,
      "Ġ187": 4969,
      "fa1Ġdong4Ġji1Ġ": 4970,
      "bi1Ġ": 4971,
      "si1Ġhe2Ġ": 4972,
      "lian2Ġluo4Ġ": 4973,
      "shi2Ġqu1Ġ": 4974,
      "zi4Ġsha1Ġ": 4975,
      "Ġshi2Ġren4Ġ": 4976,
      "fa1Ġyan2Ġ": 4977,
      "cheng2Ġli4ĠdeĠ": 4978,
      "ti3Ġyu4Ġchang3Ġ": 4979,
      "bu4Ġwei4Ġ": 4980,
      "tu2Ġzhong1Ġ": 4981,
      "shi4Ġjie4Ġshang4Ġ": 4982,
      "Ġshun4Ġ": 4983,
      "bu4Ġjin3Ġ": 4984,
      "xi2Ġxing4Ġbu4Ġming2Ġ": 4985,
      "chang3Ġjing3Ġ": 4986,
      "can1Ġting1Ġ": 4987,
      "sha1Ġhai4Ġ": 4988,
      "Ġdeng1Ġ": 4989,
      "zhe4Ġyang4Ġ": 4990,
      "xian4Ġhe2Ġ": 4991,
      "fa3ĠdeĠ": 4992,
      "zong3Ġren2Ġkou3Ġ": 4993,
      "ta": 4994,
      "ĠĠĠsheng4Ġ": 4995,
      "1Ġli4Ġ": 4996,
      "OS": 4997,
      "hu2Ġnan2Ġ": 4998,
      "hen3Ġda4Ġ": 4999,
      "bei3Ġjing1Ġshi4Ġ": 5000,
      "cuo4Ġwu4Ġ": 5001,
      "tian1ĠdeĠ": 5002,
      "gao4Ġsu4Ġ": 5003,
      "shang4Ġshu4Ġ": 5004,
      "Ġsheng1Ġhuo2Ġxi2Ġxing4Ġbu4Ġming2Ġ": 5005,
      "xing2Ġshi3Ġ": 5006,
      "she4Ġji1Ġ": 5007,
      "qian1Ġzhi4Ġ": 5008,
      "jia1Ġzhong1Ġ": 5009,
      "ping2Ġmin2Ġ": 5010,
      "wei2Ġrao4Ġ": 5011,
      "wang3Ġwang3Ġ": 5012,
      "ge1Ġlun2Ġbi3Ġya4Ġ": 5013,
      "jian1Ġren4Ġ": 5014,
      "chang3Ġbi3Ġsai4Ġ": 5015,
      "na4Ġcui4Ġ": 5016,
      "Ġye3Ġjiu4Ġshi4Ġ": 5017,
      "shang4Ġhai3Ġshi4Ġ": 5018,
      "atĠĠĠ": 5019,
      "id": 5020,
      "Ġpeng2Ġ": 5021,
      "Window": 5022,
      "si4Ġshi2Ġ": 5023,
      "all": 5024,
      "ĠĠĠ2007Ġnian2Ġ": 5025,
      "Ġer4Ġshi2Ġ": 5026,
      "bian4Ġwei4Ġ": 5027,
      "ji4Ġsuan4Ġji1Ġ": 5028,
      "si1Ġma3Ġ": 5029,
      "hui4Ġyou3Ġ": 5030,
      "Ġci4Ġnian2Ġ": 5031,
      "shou4Ġhuan1Ġying2Ġ": 5032,
      "shu1Ġji2Ġ": 5033,
      "chi2Ġyou3Ġ": 5034,
      "zhu3Ġyao4ĠdeĠ": 5035,
      "ĠĠĠjia1Ġ": 5036,
      "yu2Ġren2Ġ": 5037,
      "zhu3Ġban4Ġ": 5038,
      "Ġ7Ġ": 5039,
      "zhu4Ġzai4Ġ": 5040,
      "fu2Ġluo2Ġ": 5041,
      "xing4Ġneng2Ġ": 5042,
      "qi4Ġxuan2Ġ": 5043,
      "Ġer2Ġgai1Ġ": 5044,
      "hua2Ġsheng4Ġdun4Ġ": 5045,
      "she4Ġyu2Ġ": 5046,
      "yang2Ġshi4Ġ": 5047,
      "che1Ġxiang1Ġ": 5048,
      "gong1Ġjin1Ġ": 5049,
      "Ġ2024Ġnian2Ġ": 5050,
      "yi1Ġbu4Ġ": 5051,
      "xian4Ġru4Ġ": 5052,
      "jiao1Ġhuan4Ġ": 5053,
      "li4Ġshi2Ġ": 5054,
      "ling3Ġdi4Ġ": 5055,
      "ĠĠĠsui1Ġran2Ġ": 5056,
      "fa3Ġting2Ġ": 5057,
      "ma3Ġli3Ġ": 5058,
      "Ġyou2Ġqi2Ġshi4Ġ": 5059,
      "ren2Ġmin2Ġbi4Ġ": 5060,
      "Ġxiong1Ġ": 5061,
      "da4Ġzhong4Ġ": 5062,
      "Ġ186": 5063,
      "ĠĠĠbei4Ġjing3Ġ": 5064,
      "cheng2Ġbao3Ġ": 5065,
      "jiao1Ġgei3Ġ": 5066,
      "5Ġge4Ġ": 5067,
      "46Ġ": 5068,
      "41Ġ": 5069,
      "ĠĠĠzeng1Ġzu3Ġ": 5070,
      "tong1Ġxin4Ġ": 5071,
      "da4Ġwei4Ġ": 5072,
      "Ġding4Ġ": 5073,
      "ji4Ġwei4Ġ": 5074,
      "dui4Ġqi2Ġ": 5075,
      "deĠyi1Ġxie1Ġ": 5076,
      "pai4ĠdeĠ": 5077,
      "kao3Ġgu3Ġ": 5078,
      "qian2Ġting3Ġ": 5079,
      "ao4Ġer3Ġ": 5080,
      "da4Ġduo1Ġ": 5081,
      "hou4Ġxu4Ġ": 5082,
      "qu1Ġyi4Ġhui4Ġ": 5083,
      "Ġzui4Ġgao1Ġ": 5084,
      "ĠĠĠzhong1Ġ": 5085,
      "yi1Ġchang2Ġ": 5086,
      "de2Ġming2Ġ": 5087,
      "ya4Ġjun1Ġ": 5088,
      "si1Ġling4Ġbu4Ġ": 5089,
      "ex": 5090,
      "deĠguo2Ġjia1Ġ": 5091,
      "yu2Ġshi4Ġ": 5092,
      "xun2Ġyang2Ġ": 5093,
      "ying1Ġli3Ġ": 5094,
      "ĠĠĠba1Ġ": 5095,
      "di4Ġ3Ġ": 5096,
      "li4Ġshu3Ġyu2Ġ": 5097,
      "da4Ġlian2Ġmeng2Ġ": 5098,
      "shui3Ġku4Ġ": 5099,
      "zhang4Ġfu1Ġ": 5100,
      "xiu1Ġzheng4Ġ": 5101,
      "Ġgong1Ġsi1Ġ": 5102,
      "Ġhuai2Ġ": 5103,
      "Ġxi4Ġ": 5104,
      "Ġyun2Ġ": 5105,
      "yi3Ġbei3Ġ": 5106,
      "Ġtian1Ġjin1Ġ": 5107,
      "zhuang1Ġshi4Ġ": 5108,
      "Ġdong1Ġnan2Ġ": 5109,
      "Ġshuang1Ġfang1Ġ": 5110,
      "jing3Ġgao4Ġ": 5111,
      "cai3Ġfang3Ġ": 5112,
      "xi1Ġer3Ġ": 5113,
      "wai4Ġbu4Ġ": 5114,
      "qing4Ġzhu4Ġ": 5115,
      "yi1Ġxiao3Ġshi2Ġ": 5116,
      "Ġ14Ġ": 5117,
      "fa3Ġlan2Ġxi1Ġ": 5118,
      "Ġou1Ġzhou1Ġ": 5119,
      "gui1Ġfan4Ġ": 5120,
      "shi4Ġzheng4Ġ": 5121,
      "xi1Ġli3Ġ": 5122,
      "suo3Ġcai3Ġyong4Ġ": 5123,
      "lei4ĠdeĠ": 5124,
      "hang2Ġtian1Ġ": 5125,
      "lei2Ġsi1Ġ": 5126,
      "bu2Ġdao4Ġ": 5127,
      "Ġxi4Ġlie4Ġ": 5128,
      "da4Ġxiao3Ġ": 5129,
      "er3Ġfu1Ġ": 5130,
      "ren4Ġshi2Ġ": 5131,
      "chang3Ġdi4Ġ": 5132,
      "Ġqi2Ġzhong1Ġnan2Ġxing4Ġ": 5133,
      "pin2Ġlv4Ġ": 5134,
      "si3Ġhou4Ġ": 5135,
      "gong1Ġcheng2Ġshi1Ġ": 5136,
      "Ġqiang2Ġ": 5137,
      "ge2Ġla1Ġ": 5138,
      "cun1Ġluo4Ġ": 5139,
      "zhui1Ġsu4Ġ": 5140,
      "CO": 5141,
      "fa1Ġxing2ĠdeĠ": 5142,
      "zou3Ġxiang4Ġ": 5143,
      "kong3Ġbu4Ġ": 5144,
      "Ġxu4Ġ": 5145,
      "Ġwen1Ġ": 5146,
      "shi4Ġhou4Ġ": 5147,
      "shang4Ġxia4Ġ": 5148,
      "Ġhao3Ġ": 5149,
      "xi4ĠdeĠ": 5150,
      "wu3Ġshi2Ġ": 5151,
      "luo4Ġshan1Ġji1Ġ": 5152,
      "gang3Ġkou3Ġ": 5153,
      "guang1Ġxu4Ġ": 5154,
      "gong1Ġkai1Ġsai4Ġ": 5155,
      "15Ġnian2Ġ": 5156,
      "43Ġ": 5157,
      "od": 5158,
      "ji2Ġbie2Ġ": 5159,
      "xiao4Ġyuan2Ġ": 5160,
      "Ġyong4Ġyu2Ġ": 5161,
      "ĠĠĠer2Ġ": 5162,
      "hui4Ġhe2Ġ": 5163,
      "nan2Ġfei1Ġ": 5164,
      "dang3Ġyuan2Ġ": 5165,
      "ĠĠĠdi4Ġfang1Ġ": 5166,
      "deĠwen4Ġti2Ġ": 5167,
      "xun2Ġhuan2Ġ": 5168,
      "Ġtan2Ġ": 5169,
      "jie2ĠdeĠ": 5170,
      "tian1Ġti3Ġ": 5171,
      "tian1Ġran2Ġ": 5172,
      "xia2Ġqu1Ġ": 5173,
      "zhong1Ġguo2Ġda4Ġlu4ĠdeĠ": 5174,
      "zhua1Ġ": 5175,
      "arĠ": 5176,
      "shang4Ġsheng1Ġ": 5177,
      "xiao4Ġli4Ġ": 5178,
      "xie3Ġdao4Ġ": 5179,
      "bei4Ġbu3Ġ": 5180,
      "hai3Ġping2Ġmian4Ġ": 5181,
      "zan4Ġting2Ġ": 5182,
      "ĠĠĠli3Ġ": 5183,
      "mai2Ġ": 5184,
      "Ġheng1Ġ": 5185,
      "ka3Ġluo2Ġ": 5186,
      "Ġda4Ġbu4Ġfen4Ġ": 5187,
      "leĠyi1Ġxie1Ġ": 5188,
      "Ġzao3Ġ": 5189,
      "ngĠĠĠ": 5190,
      "xiao1Ġshi1Ġ": 5191,
      "long3Ġ": 5192,
      "yi1Ġran2Ġ": 5193,
      "jin3Ġguan3Ġ": 5194,
      "bu4Ġji2Ġ": 5195,
      "Ġgei3Ġ": 5196,
      "ping2Ġyuan2Ġ": 5197,
      "hui4Ġyi4Ġyuan2Ġ": 5198,
      "ric": 5199,
      "kuo4Ġzhang1Ġ": 5200,
      "zan4Ġzhu4Ġ": 5201,
      "shi2Ġshi4Ġ": 5202,
      "shan1Ġfeng1Ġ": 5203,
      "niao4Ġ": 5204,
      "yan3Ġzou4Ġ": 5205,
      "bian1Ġjing4Ġ": 5206,
      "Ġxing2Ġcheng2Ġ": 5207,
      "wan4Ġmei3Ġyuan2Ġ": 5208,
      "deĠzui4Ġ": 5209,
      "zu2Ġgou4Ġ": 5210,
      "can3Ġ": 5211,
      "shi4Ġzhong1Ġxin1Ġ": 5212,
      "mei3Ġjun1Ġ": 5213,
      "ke1ĠdeĠqi2Ġzhong1Ġyi1Ġzhong3Ġ": 5214,
      "zhong1Ġjian1Ġ": 5215,
      "neng2Ġyuan2Ġ": 5216,
      "Ġzhong1Ġhua2Ġren2Ġmin2Ġgong4Ġhe2Ġguo2Ġzheng4Ġzhi4Ġren2Ġwu4Ġ": 5217,
      "deĠsan1Ġ": 5218,
      "jiang4Ġling3Ġ": 5219,
      "sui2Ġji2Ġ": 5220,
      "fen1Ġlie4Ġ": 5221,
      "wu2Ġzheng4Ġzhuang4Ġ": 5222,
      "du2Ġli4ĠdeĠ": 5223,
      "Ġshi2Ġji4Ġ": 5224,
      "zhuan4Ġxie3Ġ": 5225,
      "18Ġnian2Ġ": 5226,
      "Ġ8Ġ": 5227,
      "bu4Ġbu4Ġzhang3Ġ": 5228,
      "qi2Ġwei4Ġ": 5229,
      "jin1Ġri4Ġ": 5230,
      "Ġ1998Ġnian2Ġ": 5231,
      "pei2Ġxun4Ġ": 5232,
      "Ġxiong2Ġ": 5233,
      "en1Ġsheng3Ġ": 5234,
      "li3Ġgong1Ġ": 5235,
      "lu4Ġzhan4Ġ": 5236,
      "tong2Ġming2Ġ": 5237,
      "zao1Ġyu4Ġ": 5238,
      "deĠgong1Ġzuo4Ġ": 5239,
      "Ġshen3Ġ": 5240,
      "wu1Ġran3Ġ": 5241,
      "dong3Ġshi4Ġzhang3Ġ": 5242,
      "chu1Ġru4Ġkou3Ġ": 5243,
      "suo3Ġchu4ĠdeĠ": 5244,
      "ver": 5245,
      "Ġsheng3Ġ": 5246,
      "he2Ġxi1Ġ": 5247,
      "zu2Ġqiu2Ġyun4Ġdong4Ġyuan2Ġ": 5248,
      "Ġluo2Ġma3Ġ": 5249,
      "Ġshi4Ġzhi3Ġ": 5250,
      "jiang1Ġxi1Ġ": 5251,
      "san1Ġshi4Ġ": 5252,
      "Ġre4Ġ": 5253,
      "Ġxi1Ġjie1Ġ": 5254,
      "zu1Ġjie4Ġ": 5255,
      "tu2Ġxing2Ġ": 5256,
      "Ġyi4Ġda4Ġli4Ġ": 5257,
      "xing1Ġdeng3Ġwei4Ġ": 5258,
      "Ġfu3Ġ": 5259,
      "Ġfan2Ġ": 5260,
      "ben3Ġren2Ġ": 5261,
      "Ġbing4Ġyu3Ġ": 5262,
      "qi3Ġyuan2Ġ": 5263,
      "37Ġ": 5264,
      "ji2Ġda4Ġ": 5265,
      "lai2Ġyue4Ġ": 5266,
      "shan1Ġxian4Ġ": 5267,
      "Ġjie2Ġmu4Ġ": 5268,
      "bao3Ġluo2Ġ": 5269,
      "Ġgai1Ġcun1Ġ": 5270,
      "lai2Ġyin1Ġ": 5271,
      "qun2Ġti3Ġ": 5272,
      "ĠĠĠma3Ġ": 5273,
      "leĠĠĠ": 5274,
      "xing2Ġrong2Ġ": 5275,
      "shou4Ġquan2Ġ": 5276,
      "2002Ġnian2Ġ": 5277,
      "Ġma3Ġlai2Ġ": 5278,
      "zu2Ġqiu2Ġdui4Ġ": 5279,
      "sa4Ġer3Ġ": 5280,
      "ta4Ġ": 5281,
      "de2Ġla1Ġ": 5282,
      "sui4ĠdeĠ": 5283,
      "zai1Ġpei2Ġ": 5284,
      "ling4Ġren2Ġ": 5285,
      "ce4Ġlve4Ġ": 5286,
      "Ġyi1Ġming2Ġ": 5287,
      "fa1Ġhui1Ġ": 5288,
      "te4Ġla1Ġ": 5289,
      "Ġ1949Ġnian2Ġ": 5290,
      "68": 5291,
      "zu2Ġxie2Ġ": 5292,
      "wo3ĠmenĠ": 5293,
      "Ġxiang3Ġnian2Ġ": 5294,
      "ping2Ġheng2Ġ": 5295,
      "huang2Ġse4Ġ": 5296,
      "di3Ġkang4Ġ": 5297,
      "Ġxin4Ġ": 5298,
      "zai4Ġwei4Ġ": 5299,
      "yi1Ġju4Ġ": 5300,
      "xin1Ġzeng1Ġ": 5301,
      "xie3Ġzuo4Ġ": 5302,
      "yan2Ġlun4Ġ": 5303,
      "lv4Ġse4Ġ": 5304,
      "gai3Ġming2Ġwei4Ġ": 5305,
      "ah": 5306,
      "bu4Ġli3Ġ": 5307,
      "di4Ġzhi4Ġ": 5308,
      "dui4Ġfang1Ġ": 5309,
      "guan1ĠdeĠ": 5310,
      "Ġshi4Ġde2Ġguo2Ġ": 5311,
      "shou3Ġxi2Ġ": 5312,
      "Ġshi4Ġwu1Ġke4Ġlan2Ġ": 5313,
      "ban3ĠdeĠ": 5314,
      "Ġjian4Ġli4Ġ": 5315,
      "Ġhuan4Ġ": 5316,
      "Ġxian2Ġ": 5317,
      "gong1ĠdeĠ": 5318,
      "zhu3Ġshi4Ġ": 5319,
      "Ġ15Ġ": 5320,
      "Ġyou2Ġqi2Ġ": 5321,
      "shao4Ġjiang4Ġ": 5322,
      "Ġwei1Ġlian2Ġ": 5323,
      "cu1Ġ": 5324,
      "da3Ġsuan4Ġ": 5325,
      "ik": 5326,
      "shou1Ġji2Ġ": 5327,
      "bo2Ġshi4Ġxue2Ġwei4Ġ": 5328,
      "ge4Ġge4Ġ": 5329,
      "ting2Ġkao4Ġ": 5330,
      "bi4Ġye4Ġhou4Ġ": 5331,
      "yi1Ġzhi2Ġ": 5332,
      "xia4Ġling4Ġshi2Ġjian1Ġ": 5333,
      "jia1Ġli4Ġfu2Ġ": 5334,
      "ben1Ġ": 5335,
      "fĠ": 5336,
      "1Ġge4Ġ": 5337,
      "fa1Ġming2Ġ": 5338,
      "tun1Ġ": 5339,
      "deĠfa1Ġzhan3Ġ": 5340,
      "shou3Ġbo1Ġ": 5341,
      "dang1Ġdi4ĠdeĠ": 5342,
      "jian4Ġzhu4Ġwu4Ġ": 5343,
      "cui1Ġhui3Ġ": 5344,
      "heng1Ġli4Ġ": 5345,
      "Ġxu3Ġ": 5346,
      "guo2Ġjun1Ġ": 5347,
      "yi3Ġxi1Ġ": 5348,
      "ĠĠĠ2006Ġnian2Ġ": 5349,
      "he2Ġzhong1Ġ": 5350,
      "jian1Ġcha2Ġ": 5351,
      "hui4Ġbei4Ġ": 5352,
      "chu1Ġshou4Ġ": 5353,
      "yan2Ġfa1Ġ": 5354,
      "ceng2Ġwei4Ġ": 5355,
      "Ġjie2Ġke4Ġ": 5356,
      "ming2Ġchao2Ġ": 5357,
      "shan1Ġshi4Ġ": 5358,
      "qi4Ġya1Ġ": 5359,
      "yuan4Ġshi4Ġ": 5360,
      "jing4Ġsai4Ġ": 5361,
      "Ġkang4Ġ": 5362,
      "Ġxian4Ġshi2Ġ": 5363,
      "dan1Ġmai4Ġ": 5364,
      "feng1Ġwei4Ġ": 5365,
      "Ġ1999Ġnian2Ġ": 5366,
      "li4ĠziĠ": 5367,
      "bei1Ġsi1Ġ": 5368,
      "ping2Ġwei4Ġ": 5369,
      "lian2Ġwang3Ġ": 5370,
      "Ġbing4Ġyou2Ġ": 5371,
      "guo2Ġji4Ġji1Ġchang3Ġ": 5372,
      "ling2Ġchen2Ġ": 5373,
      "Ġz": 5374,
      "leĠduo1Ġ": 5375,
      "sheng1Ġyin1Ġ": 5376,
      "xiao4Ġying4Ġ": 5377,
      "fen1Ġqu1Ġ": 5378,
      "quan2Ġxian4Ġ": 5379,
      "Ġsu1Ġlian2Ġ": 5380,
      "Ġshe4Ġji4Ġ": 5381,
      "2025Ġnian2Ġ": 5382,
      "bao1Ġwei2Ġ": 5383,
      "Ġxi1Ġnan2Ġ": 5384,
      "Ġxie2Ġ": 5385,
      "ju4Ġda4Ġ": 5386,
      "ju4Ġti3Ġ": 5387,
      "ĠAĠ": 5388,
      "Ġtong2Ġshi2Ġgai1Ġdi4Ġ": 5389,
      "ea": 5390,
      "deĠgu3Ġ": 5391,
      "ĠĠĠqing1Ġ": 5392,
      "yi3Ġwei2Ġ": 5393,
      "Ġ000": 5394,
      "chu1Ġban3Ġshe4Ġ": 5395,
      "maĠ": 5396,
      "si1Ġli4Ġ": 5397,
      "fu2Ġhao4Ġ": 5398,
      "jue2Ġyi4Ġ": 5399,
      "Ġ13Ġ": 5400,
      "ci2Ġzhi2Ġ": 5401,
      "xian3Ġzhu4Ġ": 5402,
      "Ġdang4Ġ": 5403,
      "che1Ġchang3Ġ": 5404,
      "ill": 5405,
      "wu2Ġzheng4Ġzhuang4Ġgan3Ġran3Ġzhe3Ġ": 5406,
      "deĠqing2Ġkuang4Ġxia4Ġ": 5407,
      "ou3Ġxiang4Ġ": 5408,
      "shen2Ġhua4Ġ": 5409,
      "shi2Ġjiu3Ġ": 5410,
      "hua4Ġfen1Ġ": 5411,
      "ta1Ġwei4Ġ": 5412,
      "zu3Ġzhi1ĠdeĠ": 5413,
      "zai4Ġ197": 5414,
      "nei4Ġlu4Ġsheng3Ġfen4Ġ": 5415,
      "guang3Ġxi1Ġ": 5416,
      "yin3Ġyong4Ġ": 5417,
      "500Ġ": 5418,
      "bo1Ġsi1Ġ": 5419,
      "Ġzhou1Ġnian2Ġ": 5420,
      "nang2Ġ": 5421,
      "he2Ġbei3Ġ": 5422,
      "suo3Ġzai4Ġdi4Ġ": 5423,
      "ying3Ġxiang4Ġ": 5424,
      "qian1Ġyue1Ġ": 5425,
      "zuo4Ġwei4Ġ": 5426,
      "nuan3Ġ": 5427,
      "deĠxi1Ġ": 5428,
      "la1Ġte4Ġ": 5429,
      "5Ġgong1Ġli3Ġ": 5430,
      "ban1Ġfa1Ġ": 5431,
      "mi4Ġqie4Ġ": 5432,
      "deĠjia1Ġ": 5433,
      "Ġzhui1Ġ": 5434,
      "zha4Ġdan4Ġ": 5435,
      "jing4Ġnei4Ġgong4Ġyou3Ġ": 5436,
      "ĠZ": 5437,
      "Ġshan4Ġ": 5438,
      "deĠzhi2Ġ": 5439,
      "si1Ġka3Ġ": 5440,
      "mian4Ġlin2Ġ": 5441,
      "bo2Ġjue2Ġ": 5442,
      "Ġpi1Ġ": 5443,
      "Ġling4Ġyou3Ġ": 5444,
      "ER": 5445,
      "ĠĠĠxian4Ġ": 5446,
      "yi4Ġwai4Ġ": 5447,
      "shou1Ġdao4Ġ": 5448,
      "mao4Ġxian3Ġ": 5449,
      "ju3Ġban4ĠdeĠ": 5450,
      "shan1Ġdong1Ġsheng3Ġ": 5451,
      "Ġtu1Ġ": 5452,
      "Ġyuan2Ġming2Ġ": 5453,
      "Ġzhi4Ġzuo4Ġ": 5454,
      "ĠĠĠU": 5455,
      "he2Ġtong2Ġ": 5456,
      "fu4Ġshu3Ġ": 5457,
      "liang3Ġguo2Ġ": 5458,
      "yu2Ġ190": 5459,
      "ĠĠĠzhi4Ġ": 5460,
      "chang2Ġjian4Ġ": 5461,
      "liang4Ġzi3Ġ": 5462,
      "dou4Ġzheng1Ġ": 5463,
      "shang1Ġpin3Ġ": 5464,
      "Ġzi4Ġyou2Ġ": 5465,
      "ye1Ġsu1Ġ": 5466,
      "igh": 5467,
      "qi1Ġxi1Ġ": 5468,
      "shan1Ġxi1Ġ": 5469,
      "que4Ġbao3Ġ": 5470,
      "fei4Ġyan2Ġ": 5471,
      "ti2Ġgong1ĠleĠ": 5472,
      "ll": 5473,
      "ĠĠĠdan4Ġ": 5474,
      "ĠĠĠyi3Ġ": 5475,
      "shi2Ġyan4Ġshi4Ġ": 5476,
      "Ġcai3Ġyong4Ġ": 5477,
      "ut": 5478,
      "Ġyao2Ġ": 5479,
      "deĠqing1Ġ": 5480,
      "jiu4Ġyuan2Ġ": 5481,
      "zhi2Ġmin2Ġdi4Ġ": 5482,
      "Ġqin1Ġ": 5483,
      "lu4Ġying3Ġ": 5484,
      "chang2Ġwei3Ġ": 5485,
      "ban1Ġjiang3Ġ": 5486,
      "shun4Ġli4Ġ": 5487,
      "58": 5488,
      "bu4Ġshu3Ġ": 5489,
      "yu4Ġsuan4Ġ": 5490,
      "bao4Ġzhi3Ġ": 5491,
      "ye3Ġke3Ġyi3Ġ": 5492,
      "che1Ġdui4Ġ": 5493,
      "tiao2Ġli4Ġ": 5494,
      "shuang1Ġda3Ġ": 5495,
      "zui4Ġgao1ĠdeĠ": 5496,
      "qi1ĠdeĠ": 5497,
      "dan1Ġdu2Ġ": 5498,
      "ren2Ġmin2Ġdai4Ġbiao3Ġda4Ġhui4Ġ": 5499,
      "jiao3Ġdu4Ġ": 5500,
      "ĠĠĠdi4Ġfang1Ġzi1Ġliao4Ġ": 5501,
      "NB": 5502,
      "sheng1Ġji2Ġ": 5503,
      "duo1Ġli4Ġya4Ġ": 5504,
      "tou4Ġlu4Ġ": 5505,
      "deĠji1Ġchu3Ġ": 5506,
      "Ġdi3Ġ": 5507,
      "you2Ġxing2Ġ": 5508,
      "man3Ġzhou1Ġ": 5509,
      "Ġxu1Ġyao4Ġ": 5510,
      "kai1Ġmu4Ġ": 5511,
      "ni2Ġer3Ġ": 5512,
      "Ġsheng1Ġyu2Ġ": 5513,
      "ĠĠĠjian3Ġjie4Ġ": 5514,
      "zan4Ġshi2Ġ": 5515,
      "DTĠ": 5516,
      "chang2Ġjiang1Ġ": 5517,
      "zhi1Ġshi4Ġ": 5518,
      "ĠĠĠ190": 5519,
      "Ġceng2Ġjing1Ġ": 5520,
      "30Ġnian2Ġ": 5521,
      "IS": 5522,
      "ep": 5523,
      "ji2Ġlin2Ġ": 5524,
      "ya4Ġmei3Ġni2Ġya4Ġ": 5525,
      "Ġcao2Ġ": 5526,
      "52Ġ": 5527,
      "isĠĠĠ": 5528,
      "ta1Ġshi4Ġ": 5529,
      "ya4Ġmu4Ġ": 5530,
      "pei4Ġbei4Ġ": 5531,
      "Ġnai3Ġ": 5532,
      "he2Ġfa3Ġ": 5533,
      "chu1Ġchang3Ġ": 5534,
      "sheng4Ġchu1Ġ": 5535,
      "Ġbi3Ġsai4Ġ": 5536,
      "ceĠĠĠ": 5537,
      "shi2Ġpin3Ġ": 5538,
      "zuo4Ġfa3Ġ": 5539,
      "ke1Ġxue2Ġjia1Ġ": 5540,
      "ming2Ġren2Ġ": 5541,
      "jin4Ġdang3Ġ": 5542,
      "tian1Ġhou4Ġ": 5543,
      "jiang3Ġshu4Ġ": 5544,
      "xin1Ġguan1Ġ": 5545,
      "gu3Ġlao3Ġ": 5546,
      "han2Ġyou3Ġ": 5547,
      "yan2Ġjiu1Ġyuan4Ġ": 5548,
      "li4Ġchang3Ġ": 5549,
      "yuan2Ġshi3Ġ": 5550,
      "xue2Ġke1Ġ": 5551,
      "lu4Ġduan4Ġ": 5552,
      "wen2Ġyi4Ġ": 5553,
      "hai3Ġba2Ġwei4Ġ": 5554,
      "AN": 5555,
      "ge4Ġguo2Ġ": 5556,
      "Ġjiang4Ġ": 5557,
      "ke4Ġlin2Ġ": 5558,
      "shi2Ġqi1Ġnian2Ġ": 5559,
      "Ġbi4Ġxu1Ġ": 5560,
      "22": 5561,
      "zu2Ġqun2Ġ": 5562,
      "lay": 5563,
      "Ġjiu4Ġshi4Ġ": 5564,
      "zai4Ġyi4Ġqi3Ġ": 5565,
      "zhang3Ġzi3Ġ": 5566,
      "zhong3ĠziĠ": 5567,
      "tu2Ġsha1Ġ": 5568,
      "meng2Ġte4Ġ": 5569,
      "deĠli3Ġ": 5570,
      "ĠĠĠs": 5571,
      "jie2Ġdu4Ġ": 5572,
      "Ġdan4Ġyin1Ġ": 5573,
      "wo3Ġmen": 5574,
      "da4Ġzhi4Ġ": 5575,
      "6Ġge4Ġ": 5576,
      "bei4Ġpan4Ġ": 5577,
      "zhan4Ġchang3Ġ": 5578,
      "huai2Ġyi2Ġ": 5579,
      "zhong1Ġzui4Ġ": 5580,
      "zhong4Ġzhi2Ġ": 5581,
      "wei4Ġqi2Ġ": 5582,
      "shi2Ġbao4Ġ": 5583,
      "yue4Ġqiu2Ġ": 5584,
      "luo2Ġde2Ġ": 5585,
      "duan3Ġzan4Ġ": 5586,
      "yi4Ġshu4Ġjia1Ġ": 5587,
      "ĠĠĠIn": 5588,
      "deĠdian4Ġying3Ġ": 5589,
      "da4Ġfu1Ġ": 5590,
      "ling3Ġxian1Ġ": 5591,
      "dang4Ġtian1Ġ": 5592,
      "dao4Ġde2Ġ": 5593,
      "suo3ĠdeĠ": 5594,
      "lian2Ġjie2Ġ": 5595,
      "ti2Ġji2Ġ": 5596,
      "dou1Ġzai4Ġ": 5597,
      "diao4Ġkuai4Ġ": 5598,
      "yu2Ġ192": 5599,
      "ou1Ġmeng2Ġ": 5600,
      "wa3Ġer3Ġ": 5601,
      "gh": 5602,
      "ren2Ġmen": 5603,
      "Ġyi1Ġci2Ġ": 5604,
      "zao1Ġshou4Ġ": 5605,
      "wai4Ġjiao1Ġbu4Ġ": 5606,
      "cĠ": 5607,
      "ĠĠĠran2Ġ": 5608,
      "wei4Ġxin1Ġ": 5609,
      "Ġpo4Ġ": 5610,
      "jian1Ġchi2Ġ": 5611,
      "ya4Ġli4Ġshan1Ġda4Ġ": 5612,
      "xu3Ġke3Ġ": 5613,
      "shi4Ġni2Ġ": 5614,
      "jiang1Ġzai4Ġ": 5615,
      "er4Ġyue4Ġ": 5616,
      "da2Ġer3Ġ": 5617,
      "ban4Ġli3Ġ": 5618,
      "Ġjia1Ġna2Ġda4Ġ": 5619,
      "nen4Ġ": 5620,
      "deĠyi2Ġ": 5621,
      "huang3Ġ": 5622,
      "gong1Ġzuo4Ġshi4Ġ": 5623,
      "Ġjia1Ġru4Ġ": 5624,
      "99": 5625,
      "deĠwu3Ġ": 5626,
      "ĠĠĠjiao1Ġtong1Ġ": 5627,
      "xian4Ġcheng2Ġ": 5628,
      "tai4ĠziĠ": 5629,
      "fei4Ġyong4Ġ": 5630,
      "fa1Ġsheng1Ġzai4Ġ": 5631,
      "Ġdiao4Ġ": 5632,
      "14Ġnian2Ġ": 5633,
      "gao1Ġda2Ġ": 5634,
      "che4Ġtui4Ġ": 5635,
      "ĠĠĠCh": 5636,
      "yi1Ġmei2Ġ": 5637,
      "kong1Ġxi2Ġ": 5638,
      "Ġwan3Ġ": 5639,
      "yi4Ġdian3Ġ": 5640,
      "shang4Ġzhen4Ġ": 5641,
      "fu2ĠdeĠ": 5642,
      "shen3Ġpan4Ġ": 5643,
      "Ġsi4Ġchuan1Ġ": 5644,
      "AC": 5645,
      "te4Ġqu1Ġ": 5646,
      "qing2Ġxu4Ġ": 5647,
      "AP": 5648,
      "Ġchun1Ġ": 5649,
      "leĠxu3Ġduo1Ġ": 5650,
      "zhi2Ġzheng4Ġ": 5651,
      "she4Ġji4ĠdeĠ": 5652,
      "xian4Ġshi4Ġ": 5653,
      "ĠcnĠ": 5654,
      "sao1Ġ": 5655,
      "pa2Ġ": 5656,
      "shi2Ġyong4Ġ": 5657,
      "shu4Ġmu4Ġ": 5658,
      "Ġtai2Ġbei3Ġ": 5659,
      "zhong1Ġwei4Ġ": 5660,
      "fu4Ġshu1Ġji4Ġ": 5661,
      "diao4Ġkuai4Ġyi1Ġxiao3Ġshi2Ġ": 5662,
      "fu2Ġzhou1Ġ": 5663,
      "Ġwei4ĠUTCĠ": 5664,
      "wei3Ġyuan2Ġhui4Ġwei3Ġyuan2Ġ": 5665,
      "da4Ġshi3Ġguan3Ġ": 5666,
      "Ġmi4Ġ": 5667,
      "deĠguan1Ġxi4Ġ": 5668,
      "gong1Ġjiao1Ġ": 5669,
      "lu4Ġkou3Ġ": 5670,
      "Ġche4Ġ": 5671,
      "Ġji2ĠUTCĠ": 5672,
      "she4Ġyou3Ġxia4Ġling4Ġshi2Ġjian1Ġ": 5673,
      "deĠshi2Ġqu1Ġwei4ĠUTCĠ": 5674,
      "Ġer2Ġgai1Ġdi4Ġsuo3Ġcai3Ġyong4Ġ": 5675,
      "Ġtong2Ġshi2Ġgai1Ġdi4Ġshe4Ġyou3Ġxia4Ġling4Ġshi2Ġjian1Ġ": 5676,
      "Ġer2Ġgai1Ġdi4Ġsuo3Ġcai3Ġyong4ĠdeĠshi2Ġqu1Ġwei4ĠUTCĠ": 5677,
      "47Ġ": 5678,
      "lu4Ġzhi4Ġ": 5679,
      "dai4Ġma3Ġ": 5680,
      "jiao4Ġshi4Ġ": 5681,
      "niao3Ġlei4Ġ": 5682,
      "wei2Ġfan3Ġ": 5683,
      "shu4Ġyu3Ġ": 5684,
      "jie1Ġren4Ġ": 5685,
      "yuan2Ġwei4Ġ": 5686,
      "qu1Ġjian1Ġ": 5687,
      "kuo4Ġjian4Ġ": 5688,
      "Ġfu2Ġjian4Ġ": 5689,
      "Ġfa1Ġxing2Ġ": 5690,
      "fang2Ġzhi3Ġ": 5691,
      "Ġshan1Ġdong1Ġ": 5692,
      "ti2Ġyi4Ġ": 5693,
      "Ġ1997Ġnian2Ġ": 5694,
      "Ġsai4Ġji4Ġ": 5695,
      "deĠwai4Ġ": 5696,
      "miao2Ġhui4Ġ": 5697,
      "deĠyuan2Ġyin1Ġ": 5698,
      "bing4Ġqie3Ġ": 5699,
      "fu2Ġde2Ġ": 5700,
      "zu2Ġqiu2Ġju4Ġle4Ġbu4Ġ": 5701,
      "gan4Ġbu4Ġ": 5702,
      "gao1Ġyu2Ġhai3Ġping2Ġmian4Ġ": 5703,
      "DĠĠĠ": 5704,
      "pai2Ġhang2Ġbang3Ġ": 5705,
      "deĠdian4Ġ": 5706,
      "Ġzhi1Ġchi2Ġ": 5707,
      "qu1ĠdeĠmian4Ġji1Ġwei4Ġ": 5708,
      "suo3Ġchu4ĠdeĠhai3Ġba2Ġwei4Ġ": 5709,
      "suo3Ġchu4ĠdeĠhai3Ġba2Ġwei4Ġgao1Ġyu2Ġhai3Ġping2Ġmian4Ġ": 5710,
      "leng2Ġ": 5711,
      "sheng1Ġji1Ġ": 5712,
      "bi3Ġli4Ġshi2Ġ": 5713,
      "50Ġnian2Ġ": 5714,
      "ke4Ġli3Ġsi1Ġ": 5715,
      "te4Ġer3Ġ": 5716,
      "Ġtang1Ġ": 5717,
      "xing2Ġzhuang4Ġ": 5718,
      "Ġri4Ġjun1Ġ": 5719,
      "zhu3Ġyi4ĠdeĠ": 5720,
      "bang4Ġqiu2Ġ": 5721,
      "yi4Ġti2Ġ": 5722,
      "chuang4Ġxin1Ġ": 5723,
      "wei2Ġke4Ġ": 5724,
      "jiu4Ġhui4Ġ": 5725,
      "uĠ": 5726,
      "Ġdan4Ġqi2Ġ": 5727,
      "hao4Ġwei4Ġ": 5728,
      "chuang4Ġshi3Ġ": 5729,
      "kao4Ġjin4Ġ": 5730,
      "Ġza2Ġzhi4Ġ": 5731,
      "da4Ġshi1Ġ": 5732,
      "ke3Ġzai4Ġ": 5733,
      "Ġsang1Ġ": 5734,
      "Ġhuo4Ġshi4Ġ": 5735,
      "Ġwo3ĠmenĠ": 5736,
      "...": 5737,
      "xie2Ġding4Ġ": 5738,
      "Ġliang3Ġge4Ġ": 5739,
      "yi1Ġzhou1Ġ": 5740,
      "da4Ġge2Ġming4Ġ": 5741,
      "jia1Ġsu4Ġ": 5742,
      "te4Ġdian3Ġ": 5743,
      "yan3Ġhua4Ġ": 5744,
      "zai4Ġ194": 5745,
      "ren4Ġke3Ġ": 5746,
      "kui1Ġ": 5747,
      "wang2Ġzi3Ġ": 5748,
      "Ġying1Ġwen2Ġ": 5749,
      "liang3Ġwei4Ġ": 5750,
      "67": 5751,
      "ich": 5752,
      "fu2Ġli4Ġ": 5753,
      "mian4Ġti3Ġ": 5754,
      "wang2Ġshi4Ġ": 5755,
      "Ġji2Ġbei3Ġmei3Ġ": 5756,
      "188": 5757,
      "Ġsuo1Ġ": 5758,
      "Ġqian2Ġlong2Ġ": 5759,
      "300Ġ": 5760,
      "Ġning2Ġ": 5761,
      "deĠnan2Ġ": 5762,
      "xian4Ġyu2Ġ": 5763,
      "zhi1Ġchu4Ġ": 5764,
      "chao2Ġting2Ġ": 5765,
      "150Ġ": 5766,
      "BC": 5767,
      "yi1Ġlang3Ġ": 5768,
      "fen1Ġzhi1Ġyi1Ġ": 5769,
      "long2ĠdeĠ": 5770,
      "ark": 5771,
      "gong1Ġyuan2Ġqian2Ġ": 5772,
      "nian2Ġlai2Ġ": 5773,
      "yu4ĠdeĠ": 5774,
      "tian1Ġtang2Ġ": 5775,
      "luan2Ġ": 5776,
      "Ġmu3Ġqin1Ġ": 5777,
      "gong1Ġqing3Ġ": 5778,
      "zhi1Ġji4Ġ": 5779,
      "shou3Ġshu4Ġ": 5780,
      "chuan2Ġzhi1Ġ": 5781,
      "chu1Ġxian4ĠleĠ": 5782,
      "bu4Ġbian4Ġ": 5783,
      "Ġsong1Ġ": 5784,
      "ge1Ġci2Ġ": 5785,
      "cai2Ġchan3Ġ": 5786,
      "Ġdao4ĠleĠ": 5787,
      "Ġya3Ġ": 5788,
      "2Ġhao4Ġ": 5789,
      "ji2Ġjiang1Ġ": 5790,
      "Ġgou4Ġ": 5791,
      "bian1ĠdeĠ": 5792,
      "Ġ1994Ġnian2Ġ": 5793,
      "ti4Ġdai4Ġ": 5794,
      "piao1Ġ": 5795,
      "Ġzhun3Ġ": 5796,
      "xiang1Ġtong2ĠdeĠ": 5797,
      "dou3Ġ": 5798,
      "zhi1Ġdi4Ġ": 5799,
      "xuan3Ġchu1Ġ": 5800,
      "na4Ġru4Ġ": 5801,
      "gu3Ġdian3Ġ": 5802,
      "zhe4Ġjiang1Ġsheng3Ġ": 5803,
      "xun2Ġyang2Ġjian4Ġ": 5804,
      "di2Ġren2Ġ": 5805,
      "ĠĠĠzheng4Ġ": 5806,
      "di4Ġzai4Ġ": 5807,
      "Ġgu1Ġ": 5808,
      "zhang3Ġda2Ġ": 5809,
      "nuo4Ġfu1Ġ": 5810,
      "Ġ1992Ġnian2Ġ": 5811,
      "shi4Ġpin2Ġ": 5812,
      "yi1Ġbu4Ġfen4Ġ": 5813,
      "cheng2Ġjiu4Ġ": 5814,
      "jin1Ġshan1Ġ": 5815,
      "cheng1Ġhu1Ġ": 5816,
      "hu4Ġxiang1Ġ": 5817,
      "tui1Ġjian4Ġ": 5818,
      "qie4Ġer3Ġ": 5819,
      "tui3Ġ": 5820,
      "11Ġnian2Ġ": 5821,
      "nd": 5822,
      "ĠY": 5823,
      "Ġ2Ġyue4Ġ": 5824,
      "Ġdong1Ġjing1Ġ": 5825,
      "zai4Ġ196": 5826,
      "Ġjiao3Ġ": 5827,
      "Ġhu1Ġ": 5828,
      "qing1Ġxiang4Ġ": 5829,
      "he2Ġma3Ġ": 5830,
      "er3Ġdun4Ġ": 5831,
      "she4Ġqun2Ġ": 5832,
      "ying3Ġshi4Ġ": 5833,
      "xing1ĠdeĠ": 5834,
      "gen1Ġsui2Ġ": 5835,
      "ju4Ġchang3Ġ": 5836,
      "zao4Ġcheng2ĠdeĠ": 5837,
      "pei4Ġzhi4Ġ": 5838,
      "xue2Ġxi4Ġ": 5839,
      "zhen4Ġqu1ĠdeĠmian4Ġji1Ġwei4Ġ": 5840,
      "rong2Ġhe2Ġ": 5841,
      "jun4Ġgong1Ġ": 5842,
      "Tub": 5843,
      "qu1Ġfen1Ġ": 5844,
      "shu1Ġchu1Ġ": 5845,
      "kai1Ġshi3Ġzai4Ġ": 5846,
      "5ĠĠĠ": 5847,
      "da4Ġban3Ġ": 5848,
      "Ġzhan1Ġ": 5849,
      "ti2Ġchu1ĠdeĠ": 5850,
      "suo3Ġyou3ĠdeĠ": 5851,
      "17Ġnian2Ġ": 5852,
      "xuan4Ġ": 5853,
      "guan3Ġzhi4Ġ": 5854,
      "deĠgu4Ġshi4Ġ": 5855,
      "yi1Ġxi4Ġlie4Ġ": 5856,
      "suo3Ġwei4Ġ": 5857,
      "bao3Ġxian3Ġ": 5858,
      "xuan1Ġcheng1Ġ": 5859,
      "zhi4Ġzuo4ĠdeĠ": 5860,
      "pei2Ġyang3Ġ": 5861,
      "53Ġ": 5862,
      "yu4Ġji4Ġ": 5863,
      "Ġ1996Ġnian2Ġ": 5864,
      "shi2Ġji4Ġshang4Ġ": 5865,
      "Ġxia2Ġ": 5866,
      "bu4Ġlai2Ġ": 5867,
      "dong4ĠdeĠ": 5868,
      "shui3Ġli4Ġ": 5869,
      "shang1Ġwang2Ġ": 5870,
      "Ġxian1Ġhou4Ġ": 5871,
      "Ġzheng3Ġge4Ġ": 5872,
      "ĠĠĠji2Ġ": 5873,
      "ĠĠĠtai2Ġwan1Ġ": 5874,
      "gong1Ġwu4Ġ": 5875,
      "Ġcui1Ġ": 5876,
      "fang1Ġmian4ĠdeĠ": 5877,
      "Ġsui2ĠzheĠ": 5878,
      "zi3Ġnv3Ġ": 5879,
      "Ġjie2Ġzhi4Ġ": 5880,
      "baĠ": 5881,
      "hua4Ġjia1Ġ": 5882,
      "yi3Ġdong1Ġ": 5883,
      "zong3Ġcai2Ġ": 5884,
      "di4Ġyi1Ġwei4Ġ": 5885,
      "shang4Ġxian4Ġ": 5886,
      "fei1Ġfa3Ġ": 5887,
      "zi1Ġzhu4Ġ": 5888,
      "shang1Ġdian4Ġ": 5889,
      "xun2Ġqiu2Ġ": 5890,
      "usĠĠĠ": 5891,
      "chang2Ġwu4Ġ": 5892,
      "ge2Ġer3Ġ": 5893,
      "Ġpei2Ġ": 5894,
      "xia1Ġ": 5895,
      "qu1Ġnei4Ġ": 5896,
      "fa3Ġling4Ġ": 5897,
      "tu2Ġxiang4Ġ": 5898,
      "ai4Ġqing2Ġ": 5899,
      "shi4Ġren2Ġ": 5900,
      "cheng2Ġnian2Ġ": 5901,
      "yan2Ġzhi4Ġ": 5902,
      "wei3Ġtuo1Ġ": 5903,
      "yue1Ġyou3Ġ": 5904,
      "qun2Ġzhong4Ġ": 5905,
      "zui4Ġdi1Ġ": 5906,
      "er4Ġzhan4Ġ": 5907,
      "zong3Ġjian1Ġ": 5908,
      "Ġmai4Ġke4Ġ": 5909,
      "ba1Ġla1Ġ": 5910,
      "Ġer2Ġbu2Ġshi4Ġ": 5911,
      "Ġwei4Ġyu2Ġgai1Ġ": 5912,
      "Ġtou4Ġguo4Ġ": 5913,
      "shi2Ġxing4Ġ": 5914,
      "zi4Ġwo3Ġ": 5915,
      "shi": 5916,
      "ĠĠĠzhu3Ġyao4Ġ": 5917,
      "er4Ġren2Ġ": 5918,
      "si4Ġhu1Ġ": 5919,
      "mo2Ġni3Ġ": 5920,
      "Ġxin1Ġwen2Ġ": 5921,
      "duo4Ġ": 5922,
      "jing3Ġguan1Ġ": 5923,
      "Ġtong2Ġyang4Ġ": 5924,
      "lao3Ġshi1Ġ": 5925,
      "13Ġnian2Ġ": 5926,
      "ram": 5927,
      "cheng2Ġzhang3Ġ": 5928,
      "zhong1Ġguo2Ġren2Ġmin2Ġjie3Ġfang4Ġjun1Ġ": 5929,
      "Ġzhe4Ġyang4Ġ": 5930,
      "zheng1Ġqu3Ġ": 5931,
      "man": 5932,
      "ti3Ġzhi4Ġ": 5933,
      "fu1Ġfu4Ġ": 5934,
      "NA": 5935,
      "te4Ġxing4Ġ": 5936,
      "dan1Ġyi1Ġ": 5937,
      "tong1Ġzhi1Ġ": 5938,
      "zhi4Ġpian4Ġ": 5939,
      "tiv": 5940,
      "qing2Ġjie2Ġ": 5941,
      "zhan1Ġmu3Ġsi1Ġ": 5942,
      "gu3Ġfen4Ġyou3Ġxian4Ġgong1Ġsi1Ġ": 5943,
      "you3Ġxie1Ġ": 5944,
      "xing2Ġren2Ġ": 5945,
      "Ġming2Ġzhi4Ġ": 5946,
      "01Ġ": 5947,
      "62Ġ": 5948,
      "zhong1Ġjiang4Ġ": 5949,
      "xiang1Ġzhen4Ġ": 5950,
      "shou3Ġxian1Ġ": 5951,
      "deng3Ġji2Ġ": 5952,
      "Ġ1993Ġnian2Ġ": 5953,
      "gu3Ġla1Ġ": 5954,
      "bo1Ġshi4Ġ": 5955,
      "qi2ĠdeĠ": 5956,
      "Ġxi1Ġbei3Ġ": 5957,
      "jiang1Ġsu1Ġsheng3Ġ": 5958,
      "Ġniu3Ġyue1Ġ": 5959,
      "yuan4Ġyi4Ġ": 5960,
      "fu3Ġzhu4Ġ": 5961,
      "7Ġyue4Ġ1Ġri4Ġ": 5962,
      "ection": 5963,
      "di4Ġjiu3Ġ": 5964,
      "can1Ġshu4Ġ": 5965,
      "rong2Ġna4Ġ": 5966,
      "yu4Ġce4Ġ": 5967,
      "Ġzhe4Ġci4Ġ": 5968,
      "bian1Ġyuan2Ġ": 5969,
      "fang2Ġkong1Ġ": 5970,
      "pan4Ġluan4Ġ": 5971,
      "16Ġnian2Ġ": 5972,
      "ze2Ġzai4Ġ": 5973,
      "luo4Ġcheng2Ġ": 5974,
      "luo4Ġfa2Ġ": 5975,
      "zong1Ġyi4Ġ": 5976,
      "Ġchu1Ġsheng1Ġyu2Ġ": 5977,
      "Ġpai4Ġ": 5978,
      "Ġli4Ġshi3Ġ": 5979,
      "Ġyuan3Ġ": 5980,
      "qing1Ġchu3Ġ": 5981,
      "you2Ġxi4ĠdeĠ": 5982,
      "ĠĠĠfu4Ġ": 5983,
      "mei3Ġyuan2ĠdeĠ": 5984,
      "de2Ġdao4ĠleĠ": 5985,
      "ami": 5986,
      "ear": 5987,
      "ĠĠĠri4Ġben3Ġ": 5988,
      "zheng4Ġque4Ġ": 5989,
      "guan1Ġkan4Ġ": 5990,
      "duo1Ġwei4Ġ": 5991,
      "zĠ": 5992,
      "lie4Ġchu1Ġ": 5993,
      "YouTub": 5994,
      "39Ġ": 5995,
      "etĠĠĠ": 5996,
      "ĠĠĠjin4Ġ": 5997,
      "ji2Ġren2Ġ": 5998,
      "si1Ġbao3Ġ": 5999,
      "ren4Ġwei4Ġ": 6000,
      "Ġpu2Ġtao2Ġ": 6001,
      "bao2Ġ": 6002,
      "hai3Ġshang4Ġ": 6003,
      "fang4Ġzai4Ġ": 6004,
      "Ġta1ĠmenĠzai4Ġ": 6005,
      "bĠ": 6006,
      "di4Ġshi4Ġ": 6007,
      "yue4Ġlai2Ġyue4Ġ": 6008,
      "shang1Ġren2Ġ": 6009,
      "you2Ġtai4Ġren2Ġ": 6010,
      "se4Ġfu1Ġ": 6011,
      "bu3Ġchong1Ġ": 6012,
      "deĠhou4Ġ": 6013,
      "ren2Ġci4Ġ": 6014,
      "deĠyi1Ġtiao2Ġ": 6015,
      "qiao2Ġliang2Ġ": 6016,
      "Ġji4Ġzai3Ġ": 6017,
      "Ġ1945Ġnian2Ġ": 6018,
      "Ġji4Ġhua4Ġ": 6019,
      "he2Ġli3Ġ": 6020,
      "yi1Ġqie4Ġ": 6021,
      "187": 6022,
      "ren4Ġqi1Ġ": 6023,
      "lai2Ġna4Ġ": 6024,
      "shou3Ġduan4Ġ": 6025,
      "lang3Ġpu3Ġ": 6026,
      "tu4Ġ": 6027,
      "tong2Ġzhi4Ġ": 6028,
      "ban1Ġci4Ġ": 6029,
      "Ġting1Ġ": 6030,
      "huo4Ġsheng4Ġ": 6031,
      "ĠĠĠ2005Ġnian2Ġ": 6032,
      "Ġbing4Ġwei4Ġ": 6033,
      "xiao4Ġli4Ġyu2Ġ": 6034,
      "tian1Ġqi4Ġ": 6035,
      "zhong1Ġguo2ĠdeĠ": 6036,
      "yi1Ġxiang4Ġ": 6037,
      "mi4Ġsi1Ġ": 6038,
      "zi3Ġdan4Ġ": 6039,
      "ss": 6040,
      "Ġf": 6041,
      "yu2Ġlei2Ġ": 6042,
      "die1Ġ": 6043,
      "lin2Ġjin4Ġ": 6044,
      "wu3Ġge4Ġ": 6045,
      "Ġer2Ġfei1Ġ": 6046,
      "jin4Ġxing2ĠdeĠ": 6047,
      "ĠĠĠmu4Ġqian2Ġ": 6048,
      "cheng2Ġfen4Ġ": 6049,
      "xing4Ġhe2Ġ": 6050,
      "la1Ġji1Ġ": 6051,
      "tan4Ġxian3Ġ": 6052,
      "chuan2Ġtong3ĠdeĠ": 6053,
      "si4Ġchuan1Ġsheng3Ġ": 6054,
      "57": 6055,
      "guo2Ġdao4Ġ": 6056,
      "yi1Ġren2Ġ": 6057,
      "bo1Ġer3Ġ": 6058,
      "su1Ġdan1Ġ": 6059,
      "Ġgong4Ġtong2Ġ": 6060,
      "ĠĠĠjia1Ġting2Ġ": 6061,
      "zhuan4ĠdeĠ": 6062,
      "ji2Ġti3Ġ": 6063,
      "liu2Ġchuan2Ġ": 6064,
      "61Ġ": 6065,
      "Ġqiu2Ġ": 6066,
      "ĠĠĠfu2Ġ": 6067,
      "xi1Ġshou1Ġ": 6068,
      "sai4ĠdeĠ": 6069,
      "yong3Ġjiu3Ġ": 6070,
      "jian4Ġli4ĠleĠ": 6071,
      "wu2Ġren2Ġji1Ġ": 6072,
      "huan4Ġcheng2Ġ": 6073,
      "gong4Ġhe2Ġdang3Ġ": 6074,
      "BS": 6075,
      "ju4Ġbei4Ġ": 6076,
      "ju4Ġluo4Ġ": 6077,
      "ci4Ġyu2Ġ": 6078,
      "zhe4Ġshi4Ġ": 6079,
      "Ġbu4Ġtong2Ġ": 6080,
      "Ġlei1Ġ": 6081,
      "zhai3Ġ": 6082,
      "li4Ġke4Ġ": 6083,
      "gong1Ġzhan4Ġ": 6084,
      "zhi4Ġzuo4Ġren2Ġ": 6085,
      "ĠĠĠge4Ġren2Ġ": 6086,
      "ri4Ġchang2Ġ": 6087,
      "hang2Ġye4Ġ": 6088,
      "gei3ĠleĠ": 6089,
      "nei4Ġdi4Ġ": 6090,
      "51Ġ": 6091,
      "qi2Ġzai4Ġ": 6092,
      "lu4Ġshang4Ġ": 6093,
      "Ġchu4Ġ": 6094,
      "chu4Ġzhang3Ġ": 6095,
      "wang4Ġyuan3Ġ": 6096,
      "ji1Ġfen1Ġ": 6097,
      "zheng4Ġmian4Ġ": 6098,
      "yi2Ġci4Ġshi4Ġjie4Ġda4Ġzhan4Ġ": 6099,
      "Ġshi4Ġwei4Ġ": 6100,
      "liang3Ġce4Ġ": 6101,
      "ying2Ġye4Ġ": 6102,
      "hong2Ġjun1Ġ": 6103,
      "Ġmian4Ġ": 6104,
      "Ġqing3Ġ": 6105,
      "fa3Ġyu3Ġ": 6106,
      "huo4Ġwu4Ġ": 6107,
      "chao1Ġyue4Ġ": 6108,
      "hao3Ġping2Ġ": 6109,
      "tu1Ġchu1Ġ": 6110,
      "54Ġ": 6111,
      "IC": 6112,
      "Ġshou3Ġci4Ġ": 6113,
      "yan3Ġjiang3Ġ": 6114,
      "to": 6115,
      "zhi4Ġ198": 6116,
      "qu1Ġzhu2Ġ": 6117,
      "ye3Ġbu4Ġ": 6118,
      "zei2Ġ": 6119,
      "ci3Ġtong2Ġshi2Ġ": 6120,
      "nve4Ġ": 6121,
      "hu1Ġyu4Ġ": 6122,
      "zhi1Ġchi2Ġzhe3Ġ": 6123,
      "lu4ĠdeĠ": 6124,
      "yuan2Ġhe2Ġ": 6125,
      "ren4Ġtong2Ġ": 6126,
      "zhi2Ġbo1Ġ": 6127,
      "gu3Ġli4Ġ": 6128,
      "ren4Ġwei2Ġshi4Ġ": 6129,
      "fen3Ġsi1Ġ": 6130,
      "Ġyou1Ġ": 6131,
      "ĠĠĠandĠĠĠ": 6132,
      "zhong1Ġshu1Ġ": 6133,
      "zhan4Ġshu4Ġ": 6134,
      "ren4Ġzheng4Ġ": 6135,
      "jin3Ġyou3Ġ": 6136,
      "ĠĠĠran2Ġer2Ġ": 6137,
      "ĠĠĠin": 6138,
      "she4Ġjiao1Ġ": 6139,
      "zhou1Ġzhang3Ġ": 6140,
      "pu3Ġlu3Ġ": 6141,
      "she4Ġxian2Ġ": 6142,
      "zhu4Ġshou3Ġ": 6143,
      "shang4Ġsu4Ġ": 6144,
      "yang2Ġxian4Ġ": 6145,
      "ĠĠĠp": 6146,
      "ĠĠĠformulaĠ": 6147,
      "da4Ġqi4Ġ": 6148,
      "wu3Ġyue4Ġ": 6149,
      "ka3Ġla1Ġ": 6150,
      "ping2Ġdeng3Ġ": 6151,
      "Ġzhao1Ġhe2Ġ": 6152,
      "jue2Ġshi4Ġ": 6153,
      "zhe4Ġci4Ġ": 6154,
      "xia4Ġxia2Ġyi3Ġxia4Ġ": 6155,
      "ĠĠĠdui4Ġ": 6156,
      "ren4Ġjiao4Ġ": 6157,
      "qian2Ġhou4Ġ": 6158,
      "qi4Ġti3Ġ": 6159,
      "ta3Ġer3Ġ": 6160,
      "Ġ1995Ġnian2Ġ": 6161,
      "Ġling3Ġ": 6162,
      "deĠshi1Ġ": 6163,
      "mo4Ġer3Ġ": 6164,
      "zao3Ġshang4Ġ": 6165,
      "Ġshi4Ġyi2Ġge4Ġwei4Ġyu2Ġ": 6166,
      "ĠĠĠjin1Ġ": 6167,
      "li4Ġte4Ġ": 6168,
      "zhu3Ġli4Ġ": 6169,
      "fu2Ġzhuang1Ġ": 6170,
      "tie3Ġlu4Ġche1Ġzhan4Ġ": 6171,
      "guan1Ġjian4Ġ": 6172,
      "fen1Ġxiao4Ġ": 6173,
      "na4Ġde2Ġ": 6174,
      "8Ġge4Ġ": 6175,
      "zhu2Ġbu4Ġ": 6176,
      "yun3Ġshi2Ġ": 6177,
      "tai2Ġbei3Ġshi4Ġ": 6178,
      "a1Ġgen1Ġting2Ġ": 6179,
      "zhong4Ġliang4Ġ": 6180,
      "nv3Ġhai2Ġ": 6181,
      "qian3Ġze2Ġ": 6182,
      "Ġlian2Ġhe2Ġ": 6183,
      "deĠbu4Ġfen4Ġ": 6184,
      "e2Ġguo2Ġ": 6185,
      "jiao4Ġda4Ġ": 6186,
      "shou1Ġfei4Ġ": 6187,
      "Ġcheng2Ġgong1Ġ": 6188,
      "luo2Ġma3Ġni2Ġya4Ġ": 6189,
      "yi3Ġshang4ĠdeĠ": 6190,
      "zuo4Ġye4Ġ": 6191,
      "ping2Ġjie4Ġ": 6192,
      "xia4Ġzai4Ġ": 6193,
      "zhu4Ġyu2Ġ": 6194,
      "luo2Ġfu1Ġ": 6195,
      "xiang4Ġshi4Ġ": 6196,
      "jiao4Ġdi1Ġ": 6197,
      "xiang3Ġfa3Ġ": 6198,
      "tian1Ġwen2Ġtai2Ġ": 6199,
      "zai4Ġxin1Ġ": 6200,
      "xing2Ġche1Ġ": 6201,
      "ben3Ġxian4Ġ": 6202,
      "cai2Ġpan4Ġ": 6203,
      "Ġ1985Ġnian2Ġ": 6204,
      "Ġ2025Ġnian2Ġ": 6205,
      "ayĠ": 6206,
      "ying4Ġdui4Ġ": 6207,
      "ju3Ġzhen4Ġ": 6208,
      "Ġyu2Ġ199": 6209,
      "Ġkang1Ġxi1Ġ": 6210,
      "jia1Ġli4Ġya4Ġ": 6211,
      "mu4Ġni2Ġ": 6212,
      "zong3Ġhui4Ġ": 6213,
      "tuo1Ġli2Ġ": 6214,
      "Ġpan1Ġ": 6215,
      "59": 6216,
      "etĠ": 6217,
      "si1Ġdi4Ġ": 6218,
      "shou3Ġfu3Ġ": 6219,
      "han4Ġzi4Ġ": 6220,
      "Ġzui4Ġjia1Ġ": 6221,
      "tian2Ġjing4Ġ": 6222,
      "75Ġ": 6223,
      "zhong1Ġhai3Ġ": 6224,
      "cheng2Ġnuo4Ġ": 6225,
      "mei3Ġguo2ĠdeĠ": 6226,
      "xi2Ġguan4Ġ": 6227,
      "zhen1Ġcha2Ġ": 6228,
      "ju1Ġzhu4Ġzai4Ġ": 6229,
      "da4Ġdui4Ġ": 6230,
      "zhu3Ġquan2Ġ": 6231,
      "zhong4Ġyi4Ġyuan4Ġ": 6232,
      "zi1Ġxun2Ġ": 6233,
      "chong1Ġman3Ġ": 6234,
      "ruan3Ġti3Ġ": 6235,
      "can1Ġyi4Ġyuan4Ġ": 6236,
      "zhi3Ġhui1Ġguan1Ġ": 6237,
      "Ġguang3Ġdong1Ġ": 6238,
      "you2Ġke4Ġ": 6239,
      "ren2ĠmenĠ": 6240,
      "zhi1Ġyi4Ġ": 6241,
      "qu1Ġshi4Ġ": 6242,
      "ying1Ġjun1Ġ": 6243,
      "bing1Ġtuan2Ġ": 6244,
      "aw": 6245,
      "Ġhua4Ġxue2Ġ": 6246,
      "Ġta1Ġyi3Ġ": 6247,
      "xuan3Ġxiu4Ġ": 6248,
      "Ġjiang1Ġsu1Ġ": 6249,
      "bu4ĠdeĠcun1Ġzhuang1Ġ": 6250,
      "72Ġ": 6251,
      "he2Ġhe2Ġ": 6252,
      "zhong1Ġduan4Ġ": 6253,
      "ming2Ġshi4Ġ": 6254,
      "sheng1Ġcheng2Ġ": 6255,
      "yin4Ġshua1Ġ": 6256,
      "0ĠĠĠ": 6257,
      "yi1Ġzhi4Ġ": 6258,
      "shan1ĠdeĠ": 6259,
      "Ġyi3Ġbian4Ġ": 6260,
      "Ġyi4Ġshi4Ġ": 6261,
      "69": 6262,
      "19Ġshi4Ġji4Ġ": 6263,
      "liu2Ġqiu2Ġ": 6264,
      "Ġ1990Ġnian2Ġ": 6265,
      "rang4Ġta1Ġ": 6266,
      "ĠĠĠgu4Ġshi4Ġ": 6267,
      "da4Ġdi4Ġ": 6268,
      "shou3Ġzhong1Ġ": 6269,
      "Ġzhi3Ġzai4Ġ": 6270,
      "fu2Ġjian4Ġsheng3Ġ": 6271,
      "cong2Ġwei4Ġ": 6272,
      "Ġcheng2Ġyuan2Ġ": 6273,
      "Ġge1Ġqu3Ġ": 6274,
      "wei4Ġhe2Ġ": 6275,
      "de2Ġsi1Ġ": 6276,
      "ta3Ġni2Ġ": 6277,
      "bai3Ġke1Ġ": 6278,
      "fa2Ġli4Ġya4Ġ": 6279,
      "xuan3Ġju3Ġzhong1Ġ": 6280,
      "34": 6281,
      "deĠji4Ġ": 6282,
      "xiu1Ġdao4Ġ": 6283,
      "gan3Ġjue2Ġ": 6284,
      "mao2Ġdun4Ġ": 6285,
      "zhi1Ġchu1Ġ": 6286,
      "shou3Ġge1Ġqu3Ġ": 6287,
      "na4ĠdeĠ": 6288,
      "Ġ1991Ġnian2Ġ": 6289,
      "la3Ġ": 6290,
      "Ġyan4Ġ": 6291,
      "li4Ġpu3Ġ": 6292,
      "shui2Ġ": 6293,
      "bian1Ġwei4Ġ": 6294,
      "ĠQ": 6295,
      "Ġshou4Ġdao4Ġ": 6296,
      "ĠĠĠ17": 6297,
      "zhong1Ġfa1Ġxian4Ġ": 6298,
      "te4Ġli3Ġ": 6299,
      "huo4Ġyun4Ġ": 6300,
      "shang1Ġhai4Ġ": 6301,
      "cai2Ġwu4Ġ": 6302,
      "xiao1Ġfang2Ġ": 6303,
      "gan3Ġlan3Ġ": 6304,
      "tao2Ġwan3Ġ": 6305,
      "fan2Ġzhi2Ġ": 6306,
      "shi4Ġge4Ġ": 6307,
      "Ġtui4Ġ": 6308,
      "Ġduo2Ġ": 6309,
      "guo4ĠdeĠ": 6310,
      "qi3Ġsu4Ġ": 6311,
      "Ġzhi3Ġchu1Ġ": 6312,
      "yu2Ġ2016Ġnian2Ġ": 6313,
      "Ġì": 6314,
      "nv3Ġwang2Ġ": 6315,
      "huo3Ġban4Ġ": 6316,
      "63Ġ": 6317,
      "ĠĠĠshi3Ġyong4Ġ": 6318,
      "yi1Ġlai4Ġ": 6319,
      "ji2Ġer3Ġ": 6320,
      "yan2Ġxu4Ġ": 6321,
      "Ġcun1Ġ": 6322,
      "zhe4Ġyang4ĠdeĠ": 6323,
      "ming2Ġci2Ġ": 6324,
      "leĠgai1Ġ": 6325,
      "xu4Ġlie4Ġ": 6326,
      "hui4Ġhua4Ġ": 6327,
      "jiang1Ġta1Ġ": 6328,
      "2000Ġ": 6329,
      "luo4Ġsi1Ġ": 6330,
      "hu4Ġdong4Ġ": 6331,
      "Ġli4Ġshu3Ġ": 6332,
      "lu4Ġyi4Ġsi1Ġ": 6333,
      "Ġma3Ġlai2Ġxi1Ġya4Ġ": 6334,
      "bu4Ġfu4Ġ": 6335,
      "bu4Ġshang4Ġshu1Ġ": 6336,
      "sheng1Ġcun2Ġ": 6337,
      "sai4Ġzhong1Ġ": 6338,
      "jiao1Ġcha1Ġ": 6339,
      "Ġyi3Ġxia4Ġ": 6340,
      "hui2Ġyi4Ġ": 6341,
      "xing2Ġhao4Ġ": 6342,
      "qu1Ġbie2Ġ": 6343,
      "Ġxian4Ġdai4Ġ": 6344,
      "Ġer2Ġgai1Ġdi4ĠdeĠ": 6345,
      "zheng4Ġbian4Ġ": 6346,
      "kai1Ġgong1Ġ": 6347,
      "jian3Ġjie4Ġ": 6348,
      "fen1Ġbie2Ġwei4Ġ": 6349,
      "zhan4Ġlie4Ġ": 6350,
      "bao3Ġzheng4Ġ": 6351,
      "Ġli4Ġren4Ġ": 6352,
      "lan": 6353,
      "ju4ĠdeĠ": 6354,
      "Ġyue4Ġnan2Ġ": 6355,
      "dou1Ġbei4Ġ": 6356,
      "Ġzhi4Ġyu2Ġ": 6357,
      "wei2Ġxiu1Ġ": 6358,
      "lan2Ġse4Ġ": 6359,
      "gai3Ġzhi4Ġwei4Ġ": 6360,
      "dong3Ġshi4Ġ": 6361,
      "ĠX": 6362,
      "Ġmen2Ġ": 6363,
      "zhe1Ġ": 6364,
      "ren2Ġquan2Ġ": 6365,
      "chang3Ġhe2Ġ": 6366,
      "luo4Ġke4Ġ": 6367,
      "ga2Ġ": 6368,
      "zhong4Ġshi4Ġ": 6369,
      "thĠ": 6370,
      "Ġtan4Ġ": 6371,
      "zu2ĠdeĠ": 6372,
      "por": 6373,
      "cheng2Ġli4Ġhou4Ġ": 6374,
      "ĠĠĠSt": 6375,
      "Ġ1988Ġnian2Ġ": 6376,
      "Ġguan1Ġfang1Ġ": 6377,
      "stĠĠĠ": 6378,
      "Ġbu3Ġ": 6379,
      "shu1Ġniu3Ġ": 6380,
      "jia4Ġgou4Ġ": 6381,
      "Ġyi4Ġzhi2Ġ": 6382,
      "kao3Ġshi4Ġ": 6383,
      "deĠcheng2Ġji4Ġ": 6384,
      "Ġzhuan1Ġji2Ġ": 6385,
      "00Ġnian2Ġ": 6386,
      "bu4Ġlie4Ġ": 6387,
      "de2Ġli4Ġ": 6388,
      "lu4Ġyin1Ġ": 6389,
      "wu3Ġshi4Ġ": 6390,
      "xie2Ġshang1Ġ": 6391,
      "Ġda4Ġduo1Ġshu4Ġ": 6392,
      "zi4Ġxing2Ġche1Ġ": 6393,
      "ĠĠĠgai4Ġyao4Ġ": 6394,
      "he2Ġsuan1Ġ": 6395,
      "wu1Ġsi1Ġ": 6396,
      "ĠÃ©": 6397,
      "78": 6398,
      "pao1Ġ": 6399,
      "yi1Ġtian1Ġ": 6400,
      "zui4Ġwei4Ġ": 6401,
      "zuo3Ġyi4Ġ": 6402,
      "ationĠ": 6403,
      "jie1Ġti4Ġ": 6404,
      "er4Ġji2Ġ": 6405,
      "est": 6406,
      "Ġren2Ġmin2Ġ": 6407,
      "Ġnong2Ġ": 6408,
      "xian4Ġzhi1Ġxian4Ġ": 6409,
      "jun1Ġren2Ġ": 6410,
      "si4Ġshi4Ġ": 6411,
      "xian4Ġxing4Ġ": 6412,
      "xing2Ġwei4Ġ": 6413,
      "dong1Ġya4Ġ": 6414,
      "kang1Ġxi1Ġ": 6415,
      "Ġshi4Ġyi1Ġbu4Ġ": 6416,
      "Ġ1950Ġnian2Ġ": 6417,
      "shi4Ġying4Ġ": 6418,
      "cheng2Ġshi4ĠdeĠ": 6419,
      "jia1Ġhe2Ġ": 6420,
      "duo1Ġyang4Ġ": 6421,
      "shou4Ġhai4Ġ": 6422,
      "da4Ġli3Ġ": 6423,
      "ji4Ġhou4Ġ": 6424,
      "de2Ġjun1Ġ": 6425,
      "she4Ġzai4Ġ": 6426,
      "Ġyu2Ġle4Ġ": 6427,
      "Ġkong4Ġ": 6428,
      "hen4Ġ": 6429,
      "Ġxuan3Ġ": 6430,
      "ĠĠĠjin3Ġguan3Ġ": 6431,
      "zheng4Ġquan4Ġ": 6432,
      "tong1Ġwang3Ġ": 6433,
      "186": 6434,
      "Ġzhi4Ġjin1Ġ": 6435,
      "shan3Ġxi1Ġsheng3Ġ": 6436,
      "re4Ġdai4Ġfeng1Ġbao4Ġ": 6437,
      "ong": 6438,
      "deĠqing2Ġkuang4Ġ": 6439,
      "ren2Ġdui4Ġ": 6440,
      "hou4Ġfang1Ġ": 6441,
      "hen3Ġshao3Ġ": 6442,
      "Ġquan2Ġqiu2Ġ": 6443,
      "mou2Ġsha1Ġ": 6444,
      "fou3Ġren4Ġ": 6445,
      "56": 6446,
      "ĠĠĠzhu4Ġ": 6447,
      "chong2Ġfan3Ġ": 6448,
      "Ġkan4Ġ": 6449,
      "Ġsheng1Ġzhang3Ġ": 6450,
      "gong1Ġgao4Ġ": 6451,
      "ke4Ġli4Ġ": 6452,
      "fu2Ġli3Ġ": 6453,
      "zu3Ġfu4Ġ": 6454,
      "gai3Ġcheng1Ġ": 6455,
      "geng4Ġduo1ĠdeĠ": 6456,
      "Ġjiang1Ġqi2Ġ": 6457,
      "siĠ": 6458,
      "zhu3Ġdao3Ġ": 6459,
      "ke1Ġhui4Ġshi4Ġ": 6460,
      "qing2Ġgan3Ġ": 6461,
      "Ġdi4Ġsi4Ġ": 6462,
      "zhuang4Ġji1Ġ": 6463,
      "33": 6464,
      "suo3Ġxu1Ġ": 6465,
      "wu3Ġdao3Ġ": 6466,
      "deĠdi4Ġsan1Ġ": 6467,
      "chong1Ġji1Ġ": 6468,
      "jing1Ġyou2Ġ": 6469,
      "quan2Ġshi4Ġ": 6470,
      "fu2Ġlei2Ġ": 6471,
      "qing1Ġhua2Ġ": 6472,
      "sai1Ġna4Ġ": 6473,
      "Ġquan2Ġzhang3Ġ": 6474,
      "Ġzhong1Ġgong4Ġzhong1Ġyang1Ġ": 6475,
      "Ġta1Ġren4Ġwei2Ġ": 6476,
      "bian4Ġhuan4Ġ": 6477,
      "luo4Ġfa2Ġke4Ġ": 6478,
      "Ġ9Ġ": 6479,
      "Ġxue2Ġsheng1Ġ": 6480,
      "bu4Ġli4Ġ": 6481,
      "shi2Ġzai4Ġ": 6482,
      "dui4Ġzhen4Ġ": 6483,
      "12Ġyue4Ġ31Ġri4Ġ": 6484,
      "reng2Ġzai4Ġ": 6485,
      "zhu3Ġchi2Ġren2Ġ": 6486,
      "nan4Ġmin2Ġ": 6487,
      "chai2Ġyou2Ġ": 6488,
      "xing2Ġzou3Ġ": 6489,
      "ming2Ġjin4Ġshi4Ġ": 6490,
      "te4Ġlan2Ġ": 6491,
      "bu4Ġjia1Ġ": 6492,
      "gong1Ġda3Ġ": 6493,
      "fa1Ġjue2Ġ": 6494,
      "ceng2ĠdeĠ": 6495,
      "Ġniu2Ġ": 6496,
      "tionĠ": 6497,
      "Ġshi4Ġxiang1Ġgang3Ġ": 6498,
      "ying1Ġbang4Ġ": 6499,
      "zhen4Ġya1Ġ": 6500,
      "xiang3Ġyao4Ġ": 6501,
      "zhen1Ġzheng4Ġ": 6502,
      "ĠĠĠnan2Ġ": 6503,
      "di4Ġchan3Ġ": 6504,
      "jing4Ġji4Ġ": 6505,
      "pp": 6506,
      "ji3Ġnian2Ġ": 6507,
      "ĠĠĠtian1Ġ": 6508,
      "you3Ġxu3Ġduo1Ġ": 6509,
      "Ġtun2Ġ": 6510,
      "tong2Ġwei4Ġ": 6511,
      "zhuang4Ġbing4Ġdu2Ġ": 6512,
      "si1Ġli3Ġ": 6513,
      "xia4Ġyi1Ġ": 6514,
      "jing4Ġtou2Ġ": 6515,
      "si3Ġxing2Ġ": 6516,
      "88": 6517,
      "lian2ĠdeĠ": 6518,
      "jiao4Ġzong1Ġ": 6519,
      "gao1Ġxiao4Ġ": 6520,
      "kua1Ġ": 6521,
      "ding4Ġqi1Ġ": 6522,
      "tai2Ġzhong1Ġ": 6523,
      "fang2Ġjian1Ġ": 6524,
      "Ġ1989Ġnian2Ġ": 6525,
      "Ġgai3Ġwei2Ġ": 6526,
      "jie2Ġdu4Ġshi3Ġ": 6527,
      "OĠĠĠ": 6528,
      "Ġwu2Ġfa3Ġ": 6529,
      "wang4Ġyuan3Ġjing4Ġ": 6530,
      "ĠĠĠling4Ġwai4Ġ": 6531,
      "da4Ġjie1Ġ": 6532,
      "Ġduan4Ġ": 6533,
      "wei2Ġji1Ġ": 6534,
      "dan1Ġyuan2Ġ": 6535,
      "bai3Ġwan4Ġ": 6536,
      "ĠĠĠbei4Ġ": 6537,
      "shi2Ġke4Ġ": 6538,
      "jiang1Ġhu4Ġ": 6539,
      "ba1Ġer3Ġ": 6540,
      "xing1Ġxi4Ġ": 6541,
      "mo2Ġte4Ġ": 6542,
      "jiang4Ġyu3Ġ": 6543,
      "lu3Ġsi1Ġ": 6544,
      "sheng1Ġren4Ġ": 6545,
      "yu4Ġdao4Ġ": 6546,
      "zheng1Ġfu2Ġ": 6547,
      "su1Ġwei2Ġai1Ġ": 6548,
      "deĠsheng4Ġ": 6549,
      "jun1Ġyou3Ġ": 6550,
      "duo1Ġren2Ġ": 6551,
      "dong1Ġxian4Ġ": 6552,
      "wu2Ġxian4Ġdian4Ġshi4Ġ": 6553,
      "fu2Ġluo2Ġli3Ġda2Ġ": 6554,
      "Ġxuan2Ġ": 6555,
      "deĠshui3Ġ": 6556,
      "he2Ġshang4Ġ": 6557,
      "he2Ġta1ĠdeĠ": 6558,
      "zhu3Ġdong4Ġ": 6559,
      "zhu3Ġliu2Ġ": 6560,
      "xu4Ġshu4Ġ": 6561,
      "6Ġmi3Ġ": 6562,
      "Ġli4Ġyong4Ġ": 6563,
      "sui2ĠzheĠ": 6564,
      "di1Ġyu2Ġ": 6565,
      "he2Ġnan2Ġsheng3Ġ": 6566,
      "zhi1Ġfu3Ġ": 6567,
      "hu4Ġlian2Ġwang3Ġ": 6568,
      "Ġgan4Ġ": 6569,
      "ma3Ġwei4Ġ": 6570,
      "Ġbing4Ġbei4Ġ": 6571,
      "ran2Ġliao4Ġ": 6572,
      "onĠĠĠ": 6573,
      "lang2Ġzhong1Ġ": 6574,
      "dui4Ġyuan2Ġ": 6575,
      "ju4Ġda4ĠdeĠ": 6576,
      "ti2Ġjiao1Ġ": 6577,
      "dang4Ġan4Ġ": 6578,
      "hu2Ġpo1Ġ": 6579,
      "xie3ĠdeĠ": 6580,
      "pan4Ġjue2Ġ": 6581,
      "ĠÏ": 6582,
      "Ġkou3Ġ": 6583,
      "ĠĠĠbei3Ġ": 6584,
      "li3Ġcheng2Ġ": 6585,
      "jiao1Ġjie4Ġ": 6586,
      "qing2Ġxing2Ġ": 6587,
      "luo2Ġma3Ġdi4Ġguo2Ġ": 6588,
      "sai1Ġer3Ġwei2Ġya4Ġ": 6589,
      "Ġguang1Ġxu4Ġ": 6590,
      "79": 6591,
      "Ġzai4Ġ199": 6592,
      "fu2Ġer3Ġ": 6593,
      "ma3Ġke4Ġsi1Ġ": 6594,
      "ying4Ġji2Ġ": 6595,
      "xian4ĠdeĠyi2Ġge4Ġfei1Ġjian4Ġzhi4Ġdi4Ġqu1Ġ": 6596,
      "dui4Ġzai4Ġ": 6597,
      "wu4Ġpin3Ġ": 6598,
      "00Ġming2Ġ": 6599,
      "diao1Ġsu4Ġ": 6600,
      "wai4Ġjie4Ġ": 6601,
      "fei1Ġer3Ġde2Ġ": 6602,
      "shi4Ġyi1Ġming2Ġ": 6603,
      "zai4Ġbei3Ġjing1Ġ": 6604,
      "7Ġge4Ġ": 6605,
      "he1Ġ": 6606,
      "wang2Ġwei4Ġ": 6607,
      "ardĠĠĠ": 6608,
      "gang1Ġqin2Ġ": 6609,
      "ob": 6610,
      "yp": 6611,
      "li3Ġxiang3Ġ": 6612,
      "chu1Ġsai4Ġ": 6613,
      "xiang1Ġying4Ġ": 6614,
      "gui4Ġzhou1Ġ": 6615,
      "Ġ1983Ġnian2Ġ": 6616,
      "zhi4Ġxu4Ġ": 6617,
      "Ġsection": 6618,
      "liu2Ġliang4Ġ": 6619,
      "sheng3Ġdao4Ġ": 6620,
      "jiu4Ġzhi3Ġ": 6621,
      "gai3Ġjian4Ġ": 6622,
      "Ġyuan2Ġben3Ġ": 6623,
      "gan1Ġsu4Ġ": 6624,
      "ON": 6625,
      "shi2Ġjian4Ġ": 6626,
      "guo2Ġyu3Ġ": 6627,
      "cheng2Ġdu1Ġ": 6628,
      "Ġjing3Ġfang1Ġ": 6629,
      "shi2Ġwei4Ġ": 6630,
      "dan1Ġxin1Ġ": 6631,
      "bao3Ġan1Ġ": 6632,
      "nv3Ġzhu3Ġjue2Ġ": 6633,
      "gan4Ġxian4Ġ": 6634,
      "Ġhan4Ġzu2Ġ": 6635,
      "Ġzhe2Ġ": 6636,
      "yu3Ġyin1Ġ": 6637,
      "zhuan1Ġyong4Ġ": 6638,
      "6ĠĠĠ": 6639,
      "Ġpai2Ġ": 6640,
      "deĠwei4Ġzhi4Ġ": 6641,
      "fu4Ġhan4Ġ": 6642,
      "gao1Ġjia4Ġ": 6643,
      "zhu3Ġti3Ġ": 6644,
      "sheng3Ġjie1Ġrang3Ġ": 6645,
      "shu1Ġzhong1Ġ": 6646,
      "mei4Ġmei4Ġ": 6647,
      "li4Ġfa3Ġhui4Ġ": 6648,
      "Ġbin1Ġ": 6649,
      "yu2Ġci3Ġ": 6650,
      "li3Ġxue2Ġ": 6651,
      "bei4Ġgao4Ġ": 6652,
      "WĠ": 6653,
      "ĠĠĠyin1Ġ": 6654,
      "xing2Ġcheng2ĠdeĠ": 6655,
      "fu2Ġshe4Ġ": 6656,
      "tou2Ġxian2Ġ": 6657,
      "jiang3Ġjin1Ġ": 6658,
      "chan3Ġsheng1ĠleĠ": 6659,
      "yu2Ġ2014Ġnian2Ġ": 6660,
      "55Ġ": 6661,
      "ge4Ġti3Ġ": 6662,
      "jing3Ġbao4Ġ": 6663,
      "Ġwan2Ġ": 6664,
      "deĠjue2Ġse4Ġ": 6665,
      "zhan4Ġji4Ġ": 6666,
      "san1Ġzhong3Ġ": 6667,
      "Ġyou2Ġci3Ġ": 6668,
      "lei4Ġxing2ĠdeĠ": 6669,
      "rong2Ġliang4Ġ": 6670,
      "Ġji1Ġhu1Ġ": 6671,
      "ĠĠĠgen1Ġju4Ġ2020Ġnian2Ġmei3Ġguo2Ġren2Ġkou3Ġpu3Ġcha2ĠdeĠshu4Ġju4Ġ": 6672,
      "chong3Ġ": 6673,
      "yi2Ġban4Ġ": 6674,
      "cheng1Ġhao4Ġ": 6675,
      "he4Ġse4Ġ": 6676,
      "CĠĠĠ": 6677,
      "âĨ": 6678,
      "shi4Ġcong2Ġ": 6679,
      "di4Ġyu4Ġ": 6680,
      "Ġcu4Ġ": 6681,
      "jia1Ġru4ĠleĠ": 6682,
      "gun4Ġ": 6683,
      "yuan2Ġli3Ġ": 6684,
      "lian2Ġzai3Ġ": 6685,
      "fu4Ġze2Ġren2Ġ": 6686,
      "00Ġduo1Ġ": 6687,
      "Ġao4Ġmen2Ġ": 6688,
      "dong1Ġnan2Ġya4Ġ": 6689,
      "shi4Ġdui4Ġ": 6690,
      "jia1Ġyi3Ġ": 6691,
      "mo4Ġqi1Ġ": 6692,
      "hang2Ġban1Ġ": 6693,
      "lian4Ġxi2Ġ": 6694,
      "qi2Ġhou4Ġ": 6695,
      "qing1Ġshao4Ġnian2Ġ": 6696,
      "Ġlu2Ġwa3Ġer3Ġsheng3Ġ": 6697,
      "ĠĠĠyou2Ġxi4Ġ": 6698,
      "wei2Ġduo1Ġli4Ġya4Ġ": 6699,
      "hui2Ġhe2Ġ": 6700,
      "deng1Ġji4Ġ": 6701,
      "nĠĠĠ": 6702,
      "yi4Ġxi2Ġ": 6703,
      "qiang2Ġzhi4Ġ": 6704,
      "pian4ĠdeĠ": 6705,
      "zhi1Ġjia1Ġge1Ġ": 6706,
      "Ġzeng1Ġ": 6707,
      "wei4ĠĠĠ": 6708,
      "er2Ġlai2Ġ": 6709,
      "shi1Ġgong1Ġ": 6710,
      "ti2Ġcai2Ġ": 6711,
      "jia3Ġshe4Ġ": 6712,
      "ĠĠĠ2004Ġnian2Ġ": 6713,
      "Ġ1984Ġnian2Ġ": 6714,
      "che4Ġdi3Ġ": 6715,
      "cheng2Ġshu2Ġ": 6716,
      "fu2Ġhua4Ġ": 6717,
      "dong1Ġni2Ġ": 6718,
      "ju2Ġju2Ġzhang3Ġ": 6719,
      "Ġyi1Ġzhong3Ġ": 6720,
      "Ġjia1Ġjing4Ġ": 6721,
      "xiang2Ġxi4Ġ": 6722,
      "pai2Ġming2Ġdi4Ġ": 6723,
      "zhi4Ġshi4Ġ": 6724,
      "xian4Ġyou3Ġ": 6725,
      "ben3Ġzhan4Ġ": 6726,
      "zhun3Ġque4Ġ": 6727,
      "Ġtong2Ġshi2Ġye3Ġ": 6728,
      "Ġyin1Ġwei4Ġta1Ġ": 6729,
      "Ġda4Ġxue2Ġ": 6730,
      "fang1Ġbian4Ġ": 6731,
      "he": 6732,
      "Ġcun2Ġ": 6733,
      "dong1Ġce4Ġ": 6734,
      "pin3Ġzhong3Ġ": 6735,
      "pian4Ġduan4Ġ": 6736,
      "yu2Ġ2015Ġnian2Ġ": 6737,
      "can1Ġmou2Ġzhang3Ġ": 6738,
      "da4Ġgong1Ġ": 6739,
      "jiao4Ġtu2Ġ": 6740,
      "ge1Ġer3Ġ": 6741,
      "Ġdang1Ġshi2ĠdeĠ": 6742,
      "nong2Ġchang3Ġ": 6743,
      "yu2Ġ2017Ġnian2Ġ": 6744,
      "ai4Ġde2Ġhua2Ġ": 6745,
      "zhan4Ġting2Ġ": 6746,
      "ge2Ġshi4Ġ": 6747,
      "chu1Ġxian4ĠdeĠ": 6748,
      "yu2Ġ2012Ġnian2Ġ": 6749,
      "zeng1Ġjia1ĠleĠ": 6750,
      "nan2Ġji2Ġzhou1ĠdeĠ": 6751,
      "long2Ġjiang1Ġsheng3Ġ": 6752,
      "ĠĠĠchen2Ġ": 6753,
      "shi4Ġjia1Ġ": 6754,
      "dong4Ġche1Ġ": 6755,
      "our": 6756,
      "hun4Ġluan4Ġ": 6757,
      "shu3ĠdeĠzhi2Ġwu4Ġ": 6758,
      "ĠĠĠ1Ġ": 6759,
      "yu3Ġta1Ġ": 6760,
      "yan2Ġan4Ġ": 6761,
      "liang3Ġtiao2Ġ": 6762,
      "jian4Ġzhu4Ġshi1Ġ": 6763,
      "Ġling4Ġyi4Ġfang1Ġmian4Ġ": 6764,
      "zhan4Ġzheng1Ġqi1Ġjian1Ġ": 6765,
      "wei2Ġyi1ĠdeĠ": 6766,
      "ĠhantĠ": 6767,
      "ge2Ġlei1Ġ": 6768,
      "ti3Ġyan4Ġ": 6769,
      "tong1Ġyong4Ġ": 6770,
      "shang1Ġchang3Ġ": 6771,
      "Ġ185": 6772,
      "ĠĠĠping2Ġjia4Ġ": 6773,
      "zai4Ġzhong1Ġ": 6774,
      "ji2Ġsi1Ġ": 6775,
      "dian4Ġzi": 6776,
      "wai4Ġguan1Ġ": 6777,
      "yu2Ġ2018Ġnian2Ġ": 6778,
      "mi2Ġni3Ġ": 6779,
      "mao3Ġ": 6780,
      "nong4Ġ": 6781,
      "Ġbie2Ġ": 6782,
      "zhan4Ġju4Ġ": 6783,
      "ke4Ġfu2Ġ": 6784,
      "Ġhe2Ġlan2Ġ": 6785,
      "chou2Ġbei4Ġ": 6786,
      "xin1Ġguan1Ġfei4Ġyan2Ġ": 6787,
      "peng4Ġ": 6788,
      "ĠĠĠhong2Ġ": 6789,
      "xi1Ġce4Ġ": 6790,
      "sheng1Ġge2Ġwei4Ġ": 6791,
      "jing1Ġdu1Ġ": 6792,
      "chang2Ġsha1Ġ": 6793,
      "huan2Ġxing2Ġ": 6794,
      "le4Ġsi1Ġtan3Ġ": 6795,
      "ming2Ġju3Ġren2Ġ": 6796,
      "zhu3Ġguan3Ġ": 6797,
      "Ġse4Ġ": 6798,
      "lun4Ġtan2Ġ": 6799,
      "zhan4Ġzheng1Ġzhong1Ġ": 6800,
      "deĠquan2Ġ": 6801,
      "gong1Ġdian4Ġ": 6802,
      "deĠcheng2Ġzhen4Ġ": 6803,
      "lu4Ġying3Ġdai4Ġ": 6804,
      "ĠĠĠsan1Ġ": 6805,
      "er2Ġzi": 6806,
      "mei3Ġri4Ġ": 6807,
      "shui3Ġliang4Ġ": 6808,
      "omp": 6809,
      "kuang1Ġjia4Ġ": 6810,
      "Pro": 6811,
      "xian4Ġji2Ġ": 6812,
      "mei3Ġguo2Ġren2Ġ": 6813,
      "po4Ġlun2Ġ": 6814,
      "Ġpan4Ġ": 6815,
      "ming2Ġlu4Ġ": 6816,
      "jie1Ġguan3Ġ": 6817,
      "lei4Ġsi4ĠdeĠ": 6818,
      "25Ġnian2Ġ": 6819,
      "3Ġhao4Ġ": 6820,
      "ĠĠĠchu2ĠleĠ": 6821,
      "jia1Ġxiang1Ġ": 6822,
      "zhan4Ġzhong1Ġ": 6823,
      "wu3Ġdi4Ġ": 6824,
      "chong2Ġfu4Ġ": 6825,
      "ĠĠĠgu3Ġ": 6826,
      "shi4Ġyin1Ġwei4Ġ": 6827,
      "si4Ġda4Ġ": 6828,
      "mo4Ġde2Ġ": 6829,
      "yin3Ġzhong3Ġ": 6830,
      "Ġgong1Ġcheng2Ġ": 6831,
      "na2Ġpo4Ġlun2Ġ": 6832,
      "Ġxi3Ġ": 6833,
      "li4Ġwei4Ġ": 6834,
      "zheng4Ġshi3Ġ": 6835,
      "Ġzai4Ġci4Ġ": 6836,
      "Ġpu2Ġtao2Ġya2Ġ": 6837,
      "77": 6838,
      "shi2Ġti3Ġ": 6839,
      "you2Ġqi2Ġ": 6840,
      "dian4Ġchi2Ġ": 6841,
      "duo1Ġer3Ġ": 6842,
      "hang2Ġzhou1Ġ": 6843,
      "8Ġmi3Ġ": 6844,
      "dan4Ġyao4Ġ": 6845,
      "du1Ġdu1Ġ": 6846,
      "Ġxian4Ġwei4Ġ": 6847,
      "yu4Ġbei4Ġ": 6848,
      "nei4Ġmeng2Ġgu3Ġ": 6849,
      "luo2Ġbo2Ġte4Ġ": 6850,
      "ti2Ġchu1ĠleĠ": 6851,
      "Ġw": 6852,
      "deĠcheng2Ġyuan2Ġ": 6853,
      "xia4ĠleĠ": 6854,
      "kai1Ġban4Ġ": 6855,
      "guo2Ġjia1Ġgong1Ġyuan2Ġ": 6856,
      "Ġchu1Ġren4Ġ": 6857,
      "if": 6858,
      "wu4Ġti3Ġ": 6859,
      "mo2Ġfa3Ġ": 6860,
      "da3Ġpo4Ġ": 6861,
      "Ġti2Ġchu1Ġ": 6862,
      "cai1Ġ": 6863,
      "jia1Ġer3Ġ": 6864,
      "qu1Ġhe2Ġ": 6865,
      "bei4Ġfa1Ġxian4Ġ": 6866,
      "fu4Ġshi3Ġ": 6867,
      "chi3Ġcun4Ġ": 6868,
      "yu2Ġ2021Ġnian2Ġ": 6869,
      "sheng3ĠdeĠ": 6870,
      "yan3Ġsheng1Ġ": 6871,
      "zong3Ġzhan4Ġ": 6872,
      "ceng2Ġshi4Ġ": 6873,
      "zhan4Ġdou4Ġji1Ġ": 6874,
      "hai3Ġba2Ġgao1Ġdu4Ġwei4Ġ": 6875,
      "ast": 6876,
      "Ġshao4Ġ": 6877,
      "Ġfan3Ġdui4Ġ": 6878,
      "qian2Ġshen1Ġ": 6879,
      "ba1Ġhe4Ġ": 6880,
      "Ġ1986Ġnian2Ġ": 6881,
      "chui2Ġzhi2Ġ": 6882,
      "dui4Ġta1Ġ": 6883,
      "Ġgao4Ġ": 6884,
      "shou4Ġsun3Ġ": 6885,
      "shu1ĠdeĠ": 6886,
      "ge1Ġge1Ġ": 6887,
      "li4Ġfang1Ġmi3Ġ": 6888,
      "Ġshi4Ġe2Ġluo2Ġsi1Ġ": 6889,
      "ma3Ġli4Ġya4Ġ": 6890,
      "yao2Ġgun3Ġ": 6891,
      "ju1Ġmin2Ġdian3Ġ": 6892,
      "dang1Ġxuan3Ġwei4Ġ": 6893,
      "shi2Ġli4Ġ": 6894,
      "wei3Ġfu4Ġshu1Ġji4Ġ": 6895,
      "shi3Ġyong4Ġzhe3Ġ": 6896,
      "fa1Ġsheng1ĠleĠ": 6897,
      "65Ġ": 6898,
      "Ġxi2Ġ": 6899,
      "zai4Ġda4Ġ": 6900,
      "Ġzhuo2Ġ": 6901,
      "zhong4ĠdeĠ": 6902,
      "bian1Ġzu3Ġ": 6903,
      "Ġliu2Ġyu4Ġ": 6904,
      "ji2Ġqi2Ġta1Ġ": 6905,
      "bing4Ġshi4Ġ": 6906,
      "yun4Ġhe2Ġ": 6907,
      "tiao2Ġkuan3Ġ": 6908,
      "LE": 6909,
      "zai4Ġxi1Ġ": 6910,
      "si1Ġlan2Ġ": 6911,
      "hua4Ġgui1Ġ": 6912,
      "ye3Ġna4Ġ": 6913,
      "tan4Ġce4Ġ": 6914,
      "ling3Ġdao3ĠdeĠ": 6915,
      "shuo4Ġshi4Ġxue2Ġwei4Ġ": 6916,
      "si1Ġtuo1Ġ": 6917,
      "shen1Ġshang4Ġ": 6918,
      "shen1Ġwang2Ġ": 6919,
      "gai3Ġzhuang1Ġ": 6920,
      "zhuan3Ġwei2Ġ": 6921,
      "song4Ġdao4Ġ": 6922,
      "hong1Ġzha4Ġji1Ġ": 6923,
      "xiang1Ġji4Ġ": 6924,
      "shun4Ġxu4Ġ": 6925,
      "ace": 6926,
      "qi2Ġzhong1Ġyi2Ġge4Ġ": 6927,
      "chuang4Ġzuo4ĠdeĠ": 6928,
      "ao4Ġsi1Ġka3Ġ": 6929,
      "ceng2Ġshui3Ġyu4Ġ": 6930,
      "zhan3Ġxian4Ġ": 6931,
      "zhuan3Ġhui4Ġ": 6932,
      "jiao4Ġyu4Ġbu4Ġ": 6933,
      "tan4Ġsuo3Ġ": 6934,
      "Ġ000Ġren2Ġ": 6935,
      "yu2Ġ2022Ġnian2Ġ": 6936,
      "Ġfou3Ġ": 6937,
      "zai4Ġying1Ġguo2Ġ": 6938,
      "ze2Ġyou3Ġ": 6939,
      "liang4Ġxiang4Ġ": 6940,
      "bian1Ġhao4Ġwei4Ġ": 6941,
      "ĠĠĠ3Ġyue4Ġ": 6942,
      "ĠĠĠjing1Ġji4Ġ": 6943,
      "ji1Ġsi1Ġtan3Ġ": 6944,
      "Ġbei1Ġ": 6945,
      "qiang2ĠdeĠ": 6946,
      "Ġci3Ġci4Ġ": 6947,
      "zhuan4ĠdeĠxiao3Ġxing2Ġxing1Ġ": 6948,
      "eb": 6949,
      "mer": 6950,
      "li3Ġyou2Ġ": 6951,
      "Ġsu2Ġ": 6952,
      "qu3Ġmu4Ġ": 6953,
      "pai2Ġlie4Ġ": 6954,
      "suan4Ġfa3Ġ": 6955,
      "lai2Ġzi4Ġyu2Ġ": 6956,
      "ĠBĠ": 6957,
      "ji4Ġsi4Ġ": 6958,
      "qing1Ġdao3Ġ": 6959,
      "ci3Ġzhi1Ġwai4Ġ": 6960,
      "xiao4Ġlv4Ġ": 6961,
      "nv3Ġyan3Ġyuan2Ġ": 6962,
      "Ġhe2Ġnan2Ġ": 6963,
      "xie2Ġdai4Ġ": 6964,
      "huo3Ġche1Ġ": 6965,
      "huo3Ġzai1Ġ": 6966,
      "ĠSĠ": 6967,
      "zu2Ġqiu2Ġlian2Ġsai4Ġ": 6968,
      "you2Ġren2Ġgong1Ġ": 6969,
      "qian1Ġyin3Ġ": 6970,
      "gai3Ġjin4Ġ": 6971,
      "reng2Ġyou3Ġ": 6972,
      "yu2Ġ2013Ġnian2Ġ": 6973,
      "na3Ġ": 6974,
      "e2Ġwei4Ġ": 6975,
      "ke3Ġjian4Ġ": 6976,
      "Ġwan4Ġli4Ġ": 6977,
      "chĠ": 6978,
      "zai4Ġta1Ġ": 6979,
      "shi2Ġzhen1Ġ": 6980,
      "shan1Ġxi1Ġsheng3Ġ": 6981,
      "long2Ġcao3Ġ": 6982,
      "jiu3ĠdeĠ": 6983,
      "mao2Ġze2Ġdong1Ġ": 6984,
      "Ġ1958Ġnian2Ġ": 6985,
      "vi": 6986,
      "bu4Ġqiang1Ġ": 6987,
      "yu3Ġzhi1Ġ": 6988,
      "ke4Ġxi1Ġ": 6989,
      "dang1Ġri4Ġ": 6990,
      "li2ĠziĠ": 6991,
      "jian4Ġshi4Ġ": 6992,
      "ge2ĠdeĠ": 6993,
      "ock": 6994,
      "laĠ": 6995,
      "jia1Ġyi4Ġ": 6996,
      "bing4Ġwu2Ġ": 6997,
      "kao3Ġcha2Ġ": 6998,
      "ĠĠĠ2Ġ": 6999,
      "zhi4Ġli4Ġ": 7000,
      "zhan4Ġdi4Ġ": 7001,
      "ding1Ġbao3Ġ": 7002,
      "mie4Ġjue2Ġ": 7003,
      "yu2ĠdeĠ": 7004,
      "jia1Ġli3Ġ": 7005,
      "quan2Ġti3Ġ": 7006,
      "sai4Ġche1Ġ": 7007,
      "biao1Ġti2Ġ": 7008,
      "lei2Ġda2Ġ": 7009,
      "Ġjing1Ġchang2Ġ": 7010,
      "fu4Ġhe2Ġ": 7011,
      "nei4Ġyou3Ġ": 7012,
      "xuan3Ġmin2Ġ": 7013,
      "ping2Ġjun1Ġhai3Ġba2Ġgao1Ġdu4Ġwei4Ġ": 7014,
      "zhi4Ġhui4Ġ": 7015,
      "de2Ġyi4Ġzhi4Ġ": 7016,
      "jiang1Ġnan2Ġ": 7017,
      "na4Ġsi1Ġ": 7018,
      "zi1Ġsheng3Ġ": 7019,
      "ĠIn": 7020,
      "120": 7021,
      "ĠĠĠ5Ġyue4Ġ": 7022,
      "shan1Ġdi4Ġ": 7023,
      "fei1Ġdan4Ġ": 7024,
      "Ġzhan4Ġdou4Ġ": 7025,
      "lao2Ġgong1Ġ": 7026,
      "de2Ġluo2Ġ": 7027,
      "ke4Ġhu4Ġ": 7028,
      "shu4Ġshi2Ġ": 7029,
      "mei3Ġtian1Ġ": 7030,
      "duo1Ġming2Ġ": 7031,
      "ge2Ġli3Ġ": 7032,
      "zhong1Ġxin1ĠdeĠ": 7033,
      "Ġer2Ġgai1Ġdi4ĠdeĠping2Ġjun1Ġhai3Ġba2Ġgao1Ġdu4Ġwei4Ġ": 7034,
      "RĠĠĠ": 7035,
      "ĠĠĠdi4Ġer4Ġ": 7036,
      "yu2Ġhai3Ġba2Ġ": 7037,
      "tong2Ġxue2Ġ": 7038,
      "ying1Ġcun4Ġ": 7039,
      "tai4Ġhou4Ġ": 7040,
      "yan2Ġjiu1Ġsheng1Ġ": 7041,
      "Ġ1946Ġnian2Ġ": 7042,
      "yin3Ġzhong3Ġzai1Ġpei2Ġ": 7043,
      "yi4Ġmiao2Ġ": 7044,
      "Ġduan3Ġ": 7045,
      "zhun3Ġjue2Ġsai4Ġ": 7046,
      "2010Ġnian2Ġmei3Ġguo2Ġren2Ġkou3Ġpu3Ġcha2ĠdeĠshu4Ġju4Ġ": 7047,
      "deĠjin4Ġ": 7048,
      "Ġdong3Ġ": 7049,
      "xi1Ġzhou1Ġ": 7050,
      "zhi3Ġshu4Ġ": 7051,
      "su4Ġsong4Ġ": 7052,
      "tu2Ġan4Ġ": 7053,
      "yu2Ġ2023Ġnian2Ġ": 7054,
      "98": 7055,
      "di4Ġ4Ġ": 7056,
      "yuan2ĠziĠ": 7057,
      "chang2ĠdeĠ": 7058,
      "ban4Ġnian2Ġ": 7059,
      "74Ġ": 7060,
      "ĠĠĠw": 7061,
      "zai4Ġtai2Ġwan1Ġ": 7062,
      "zhi2Ġbang4Ġ": 7063,
      "bian4Ġgeng1Ġ": 7064,
      "ka3Ġluo2Ġlai2Ġna4Ġ": 7065,
      "IP": 7066,
      "shi4Ġqi2Ġ": 7067,
      "li3Ġnian4Ġ": 7068,
      "jiao4Ġgao1Ġ": 7069,
      "tai2Ġbi4Ġ": 7070,
      "eĠĠĠS": 7071,
      "nuo4Ġman4Ġ": 7072,
      "Ġlie4Ġche1Ġ": 7073,
      "deĠdi4Ġer4Ġ": 7074,
      "bu4Ġzhi4Ġ": 7075,
      "shang4ĠleĠ": 7076,
      "wu2Ġer3Ġ": 7077,
      "Ġji4Ġxu4Ġ": 7078,
      "touĠ": 7079,
      "you2Ġren2Ġgong1Ġyin3Ġzhong3Ġzai1Ġpei2Ġ": 7080,
      "ming2Ġyu4Ġ": 7081,
      "dong4Ġji1Ġ": 7082,
      "ros": 7083,
      "Ġguan3Ġ": 7084,
      "deĠshe4Ġji4Ġ": 7085,
      "li4Ġxue2Ġ": 7086,
      "qian2Ġzai4Ġ": 7087,
      "yin3Ġjin4Ġ": 7088,
      "han2Ġgai4Ġ": 7089,
      "hai4Ġe2Ġ": 7090,
      "Ġ1982Ġnian2Ġ": 7091,
      "Ġ1987Ġnian2Ġ": 7092,
      "Ġnei4Ġrong2Ġ": 7093,
      "lin": 7094,
      "zheng4Ġwu4Ġ": 7095,
      "Ġshi4Ġyan3Ġ": 7096,
      "mian4Ġshang4Ġ": 7097,
      "gao1Ġyuan2Ġ": 7098,
      "wai4Ġwei2Ġ": 7099,
      "se4Ġcai3Ġ": 7100,
      "shi2Ġdai4ĠdeĠ": 7101,
      "ain": 7102,
      "zhong1Ġyi3Ġ": 7103,
      "zhi4Ġneng2Ġ": 7104,
      "yi4Ġyu2Ġ": 7105,
      "zhan4Ġwei4Ġyu2Ġ": 7106,
      "san1Ġci4Ġ": 7107,
      "dian4Ġshi4Ġdong4Ġhua4Ġ": 7108,
      "Ġwan2Ġcheng2Ġ": 7109,
      "yi4Ġzai4Ġ": 7110,
      "Ġzui4Ġda4Ġ": 7111,
      "jing1Ġji4Ġxue2Ġ": 7112,
      "xia4Ġxia2Ġyi3Ġxia4Ġdi4Ġqu1Ġ": 7113,
      "ĠĠĠshi2Ġ": 7114,
      "yi1Ġxue2Ġyuan4Ġ": 7115,
      "chu1Ġnian2Ġ": 7116,
      "ge2Ġlu3Ġ": 7117,
      "ha1Ġla1Ġ": 7118,
      "geng1Ġhuan4Ġ": 7119,
      "Ġlun2Ġ": 7120,
      "jian4Ġyou3Ġ": 7121,
      "zhang3Ġyue1Ġ": 7122,
      "hua2Ġxue3Ġ": 7123,
      "pin3Ġzhi4Ġ": 7124,
      "zhu1Ġlong2Ġcao3Ġ": 7125,
      "Ġken3Ġ": 7126,
      "ji4Ġlu4Ġpian4Ġ": 7127,
      "hang2Ġkong1Ġgong1Ġsi1Ġ": 7128,
      "re4Ġdai4Ġqi4Ġxuan2Ġ": 7129,
      "Ġqiu2Ġdui4Ġ": 7130,
      "deĠfang1Ġfa3Ġ": 7131,
      "qi3ĠleĠ": 7132,
      "san1Ġren2Ġ": 7133,
      "gong1Ġgong4Ġjiao1Ġtong1Ġ": 7134,
      "ĠĠĠjie2Ġzhi4Ġ202": 7135,
      "Ġqu4Ġ": 7136,
      "ji2Ġlian2Ġsai4Ġ": 7137,
      "yu3Ġyi3Ġ": 7138,
      "elĠ": 7139,
      "Ġchong2Ġxin1Ġ": 7140,
      "jia1Ġli4Ġfu2Ġni2Ġya4Ġzhou1Ġ": 7141,
      "73Ġ": 7142,
      "he2Ġda4Ġ": 7143,
      "2019": 7144,
      "zui4Ġduo1ĠdeĠ": 7145,
      "guo4Ġyu2Ġ": 7146,
      "su1Ġli3Ġ": 7147,
      "Ġzi4Ġji3Ġ": 7148,
      "Ġyu4Ġji4Ġ": 7149,
      "Ġdao3Ġyan3Ġ": 7150,
      "ĠĠĠquan2Ġ": 7151,
      "fu2Ġlang3Ġ": 7152,
      "zu3Ġxian1Ġ": 7153,
      "zhong3Ġlei4Ġ": 7154,
      "wang3Ġshang4Ġ": 7155,
      "luo4Ġfu1Ġ": 7156,
      "si1Ġzai4Ġ": 7157,
      "ben3Ġke1Ġ": 7158,
      "huo4Ġqu3Ġ": 7159,
      "huo4Ġjiang3Ġ": 7160,
      "chang2Ġwei3Ġhui4Ġ": 7161,
      "tui1Ġfan1Ġ": 7162,
      "huo3Ġche1Ġzhan4Ġ": 7163,
      "huo3Ġpao4Ġ": 7164,
      "66": 7165,
      "deĠfeng1Ġ": 7166,
      "yi1ĠdeĠ": 7167,
      "yuan2Ġxian1Ġ": 7168,
      "ri4Ġyi4Ġ": 7169,
      "bei4Ġren4Ġming4Ġwei4Ġ": 7170,
      "yi2Ġju1Ġ": 7171,
      "shen2Ġmi4Ġ": 7172,
      "Ġcong2Ġci3Ġ": 7173,
      "oo": 7174,
      "yi1Ġshi1Ġ": 7175,
      "Ġqian2Ġwang3Ġ": 7176,
      "ye2Ġfu1Ġ": 7177,
      "Ġãĥ¼": 7178,
      "Ġju1Ġ": 7179,
      "hou4Ġwei4Ġ": 7180,
      "zhan4Ġwei4Ġ": 7181,
      "Ġzhong1Ġguo2Ġda4Ġlu4Ġ": 7182,
      "Ġzhong1Ġguo2Ġgong4Ġchan3Ġdang3Ġ": 7183,
      "zhen3Ġduan4Ġ": 7184,
      "âĪ": 7185,
      "ru4Ġjing4Ġ": 7186,
      "xiu1Ġdao4Ġyuan4Ġ": 7187,
      "ai4Ġguo2Ġ": 7188,
      "shi2Ġbie2Ġ": 7189,
      "yuan2Ġshuai4Ġ": 7190,
      "tiao1Ġ": 7191,
      "xiu1Ġding4Ġ": 7192,
      "yin4Ġxiang4Ġ": 7193,
      "Ġ184": 7194,
      "yu2Ġ2010Ġnian2Ġ": 7195,
      "dai4Ġti4Ġ": 7196,
      "tui1Ġchu1ĠdeĠ": 7197,
      "Ġ1978Ġnian2Ġ": 7198,
      "Ġwei4Ġyu2Ġgai1Ġsheng3Ġ": 7199,
      "82Ġ": 7200,
      "Ġshe4Ġli4Ġ": 7201,
      "ĠĠĠming2Ġ": 7202,
      "xi1Ġni2Ġ": 7203,
      "zhi2Ġli4Ġ": 7204,
      "de2Ġke4Ġ": 7205,
      "zhan4Ġfang2Ġ": 7206,
      "niang4Ġ": 7207,
      "ju2ĠdeĠ": 7208,
      "yun4Ġdong4ĠdeĠ": 7209,
      "Ġzhi3Ġshi4Ġ": 7210,
      "Ġa1Ġla1Ġ": 7211,
      "21Ġnian2Ġ": 7212,
      "Ġzu3Ġzhi1Ġ": 7213,
      "ĠĠĠdao4Ġ": 7214,
      "ĠĠĠ10Ġyue4Ġ": 7215,
      "dui4Ġhua4Ġ": 7216,
      "di2Ġshi4Ġni2Ġ": 7217,
      "dian4Ġshi4Ġjie2Ġmu4Ġ": 7218,
      "leĠzhong4Ġ": 7219,
      "xiang1Ġcun1Ġ": 7220,
      "han4Ġyu3Ġ": 7221,
      "ying2Ġde2ĠleĠ": 7222,
      "deĠmei3Ġguo2Ġ": 7223,
      "yue4Ġdu2Ġ": 7224,
      "shi3Ġyong4ĠleĠ": 7225,
      "ĠĠĠ2003Ġnian2Ġ": 7226,
      "ti3Ġyu4Ġguan3Ġ": 7227,
      "cheng2Ġguo3Ġ": 7228,
      "jian4Ġzai4Ġ": 7229,
      "guan1Ġguang1Ġ": 7230,
      "luo2Ġji2Ġ": 7231,
      "ba1Ġfa2Ġli4Ġya4Ġ": 7232,
      "hang2Ġxian4Ġ": 7233,
      "7Ġmi3Ġ": 7234,
      "yue4Ġsheng1Ġ": 7235,
      "bian1Ġcheng2Ġ": 7236,
      "deĠdi4Ġwei4Ġ": 7237,
      "Ġling4Ġyi1Ġ": 7238,
      "Ġwu2Ġlun4Ġ": 7239,
      "deĠxing2Ġshi4Ġ": 7240,
      "qi2Ġzhi4Ġ": 7241,
      "nei4Ġzheng4Ġ": 7242,
      "tian1Ġjia1Ġ": 7243,
      "dang1Ġdai4Ġ": 7244,
      "tur": 7245,
      "mu4Ġni2Ġhei1Ġ": 7246,
      "hen2Ġ": 7247,
      "ren2Ġyu3Ġ": 7248,
      "mian4Ġxiang4Ġ": 7249,
      "zhang3Ġwo4Ġ": 7250,
      "Ġao4Ġda4Ġli4Ġya4Ġ": 7251,
      "Ġhu2Ġnan2Ġ": 7252,
      "fang1Ġcheng2Ġ": 7253,
      "Ġshi4Ġxi1Ġban1Ġya2Ġ": 7254,
      "qian2Ġlong2Ġ": 7255,
      "Ġta1Ġjiang1Ġ": 7256,
      "xing4Ġshi4Ġ": 7257,
      "san1Ġda4Ġ": 7258,
      "Ġ17Ġ": 7259,
      "mi3Ġlan2Ġ": 7260,
      "pi1Ġpan4Ġ": 7261,
      "Ġmou3Ġ": 7262,
      "Ġshou1Ġ": 7263,
      "Ġgui3Ġ": 7264,
      "Ġqu3Ġde2Ġ": 7265,
      "zhi4Ġyuan4Ġ": 7266,
      "fu4Ġjia1Ġ": 7267,
      "zhi2Ġsheng1Ġji1Ġ": 7268,
      "lang3Ġde2Ġ": 7269,
      "lei4Ġsi4Ġyu2Ġ": 7270,
      "yue4Ġchu1Ġ": 7271,
      "qu1Ġzhu2Ġjian4Ġ": 7272,
      "shou3Ġdu4Ġ": 7273,
      "ci3Ġci4Ġ": 7274,
      "man4Ġdi4Ġguo2Ġ": 7275,
      "di1Ġqi4Ġya1Ġ": 7276,
      "Ġ1948Ġnian2Ġ": 7277,
      "ĠnĠ": 7278,
      "yan2Ġshi2Ġ": 7279,
      "dao3Ġshang4Ġ": 7280,
      "wei3Ġyuan2Ġhui4Ġzhu3Ġxi2Ġ": 7281,
      "luo3Ġ": 7282,
      "er2Ġbu4Ġ": 7283,
      "Ġsui4ĠdeĠ": 7284,
      "deĠji1Ġhui4Ġ": 7285,
      "shu1Ġxie3Ġ": 7286,
      "wang2ĠdeĠ": 7287,
      "gang3Ġyuan2Ġ": 7288,
      "shang1Ġwu4Ġ": 7289,
      "Ġbu4Ġneng2Ġ": 7290,
      "liang2Ġhao3Ġ": 7291,
      "zheng3Ġhe2Ġ": 7292,
      "you1Ġxian1Ġ": 7293,
      "yu2Ġ2011Ġnian2Ġ": 7294,
      "âĦ": 7295,
      "Ġfan1Ġ": 7296,
      "zhong1Ġdui4Ġ": 7297,
      "xian4Ġwei4Ġ": 7298,
      "Ġshi4Ġtai2Ġwan1Ġ": 7299,
      "Ġ16Ġ": 7300,
      "zhe3Ġzai4Ġ": 7301,
      "shen1Ġru4Ġ": 7302,
      "chong2Ġzu3Ġ": 7303,
      "Ġyu3Ġci3Ġtong2Ġshi2Ġ": 7304,
      "fa1Ġsheng1ĠdeĠ": 7305,
      "Ġbi4Ġye4Ġyu2Ġ": 7306,
      "âĨĴ": 7307,
      "49Ġ": 7308,
      "81Ġ": 7309,
      "ĠĠĠla1Ġ": 7310,
      "deng3Ġzhi2Ġ": 7311,
      "ziĠgong1Ġsi1Ġ": 7312,
      "ban4Ġfa3Ġ": 7313,
      "Ġ1980Ġnian2Ġ": 7314,
      "an4Ġcha2Ġ": 7315,
      "Ġshi4Ġyi4Ġda4Ġli4Ġ": 7316,
      "bei3Ġhai3Ġdao4Ġ": 7317,
      "xiao4Ġshe4Ġ": 7318,
      "he4Ġer3Ġ": 7319,
      "an1Ġhui1Ġsheng3Ġ": 7320,
      "yuan2Ġqu1Ġ": 7321,
      "sheng1Ġxiao4Ġ": 7322,
      "mu4Ġfu3Ġ": 7323,
      "Ġsheng1Ġzhang3Ġyu2Ġhai3Ġba2Ġ": 7324,
      "ca1Ġ": 7325,
      "ĠĠĠliu2Ġ": 7326,
      "yu2Ġ2020Ġnian2Ġ": 7327,
      "xiang1Ġlian2Ġ": 7328,
      "bo2Ġge2Ġ": 7329,
      "eĠĠĠC": 7330,
      "ke4Ġsi1Ġtan3Ġ": 7331,
      "yu2Ġ2009Ġnian2Ġ": 7332,
      "den": 7333,
      "ĠĠĠdi4Ġyi1Ġ": 7334,
      "qian2Ġjin4Ġ": 7335,
      "Ġsou1Ġ": 7336,
      "lan2Ġka3Ġ": 7337,
      "gen1Ġben3Ġ": 7338,
      "xuan2Ġzhuan3Ġ": 7339,
      "umĠ": 7340,
      "shi4Ġyi2Ġ": 7341,
      "xue2Ġyuan2Ġ": 7342,
      "ta1Ġyu3Ġ": 7343,
      "fen1Ġjie3Ġ": 7344,
      "Ġchang4Ġ": 7345,
      "ji3Ġnan2Ġ": 7346,
      "zhi1Ġbu4Ġ": 7347,
      "xi1Ġbo2Ġ": 7348,
      "fu4Ġyou3Ġ": 7349,
      "zhen4Ġrong2Ġ": 7350,
      "shen1ĠdeĠ": 7351,
      "zong3Ġmian4Ġji1Ġ": 7352,
      "kmĠ": 7353,
      "ji2Ġxing2Ġzheng4Ġ": 7354,
      "ji1Ġqiang1Ġ": 7355,
      "xi1Ġshi4Ġ": 7356,
      "zhu4Ġfang2Ġ": 7357,
      "fen1Ġcheng2Ġ": 7358,
      "tong2Ġbu4Ġ": 7359,
      "qiu2Ġmi2Ġ": 7360,
      "shi1Ġren2Ġ": 7361,
      "zong3Ġjing1Ġli3Ġ": 7362,
      "zheng1Ġduo2Ġ": 7363,
      "nuo4Ġsi1Ġ": 7364,
      "hao3Ġyou3Ġ": 7365,
      "Ġzhan4Ġzheng1Ġ": 7366,
      "Ġmu4Ġqian2Ġshang4Ġwei4Ġ": 7367,
      "wu4Ġli3Ġxue2Ġ": 7368,
      "Ġchi2Ġ": 7369,
      "wei4Ġbei4Ġ": 7370,
      "he2Ġjin1Ġ": 7371,
      "dian4Ġliu2Ġ": 7372,
      "jie2Ġlun4Ġ": 7373,
      "ti2Ġqian2Ġ": 7374,
      "zong3Ġju2Ġ": 7375,
      "chan3Ġliang4Ġ": 7376,
      "ri4Ġben3ĠdeĠ": 7377,
      "zai4Ġ195": 7378,
      "ith": 7379,
      "shi4Ġlang2Ġ": 7380,
      "Ġta1Ġhe2Ġ": 7381,
      "IT": 7382,
      "Ġi": 7383,
      "deĠzhi1Ġchi2Ġ": 7384,
      "he2Ġren2Ġkou3Ġ": 7385,
      "xing2Ġzheng4Ġzhen4Ġqu1Ġ": 7386,
      "Ġ23Ġ": 7387,
      "Ġfu2Ġlang3Ġ": 7388,
      "Ġchu1Ġban3Ġ": 7389,
      "yan2Ġzhong4ĠdeĠ": 7390,
      "22Ġnian2Ġ": 7391,
      "gong1Ġyue1Ġ": 7392,
      "xin1Ġren2Ġ": 7393,
      "te4Ġlei1Ġ": 7394,
      "ge1Ġchang4Ġ": 7395,
      "xin4Ġtu2Ġ": 7396,
      "zhu3Ġyao4Ġshi4Ġ": 7397,
      "Vi": 7398,
      "ef": 7399,
      "yi4Ġnian2Ġ": 7400,
      "zi4Ġcheng1Ġ": 7401,
      "fu4Ġshi4Ġ": 7402,
      "xia4ĠdeĠyi2Ġge4Ġ": 7403,
      "zui4Ġzao3ĠdeĠ": 7404,
      "shu4Ġbai3Ġ": 7405,
      "wen2ĠdeĠ": 7406,
      "zhi2Ġzhi4Ġ": 7407,
      "wu3Ġde2Ġ": 7408,
      "Ġzhe4Ġye3Ġshi4Ġ": 7409,
      "bu4Ġdi2Ġ": 7410,
      "yuan2Ġyou3Ġ": 7411,
      "zhi1Ġshang4Ġ": 7412,
      "dian4Ġji1Ġ": 7413,
      "sha1Ġtian2Ġ": 7414,
      "xu1Ġni3Ġ": 7415,
      "he2Ġdong1Ġ": 7416,
      "di4Ġming2Ġ": 7417,
      "gong1Ġshang1Ġ": 7418,
      "cheng1Ġzhi1Ġwei4Ġ": 7419,
      "chan3Ġwu4Ġ": 7420,
      "ci2Ġshan4Ġ": 7421,
      "biao1Ġji4Ġ": 7422,
      "art": 7423,
      "zao3Ġqi1ĠdeĠ": 7424,
      "xian4ĠdeĠyi2Ġge4Ġxing2Ġzheng4Ġzhen4Ġqu1Ġ": 7425,
      "JĠ": 7426,
      "edi": 7427,
      "jiao4Ġzuo4Ġ": 7428,
      "shi1Ġdi4Ġ": 7429,
      "liang3Ġan4Ġ": 7430,
      "Ġbei4Ġqi2Ġ": 7431,
      "Ġshi4Ġyi1Ġzuo4Ġ": 7432,
      "Ġdian3Ġ": 7433,
      "Ġfa1Ġbiao3Ġ": 7434,
      "yi4Ġhe2Ġ": 7435,
      "fu2Ġyin1Ġ": 7436,
      "âĢ§": 7437,
      "gong4Ġchan3Ġzhu3Ġyi4Ġ": 7438,
      "jin4Ġcheng2Ġ": 7439,
      "shou3Ġling3Ġ": 7440,
      "zu2Ġlian2Ġ": 7441,
      "dang4Ġzuo4Ġ": 7442,
      "ka1Ġfei1Ġ": 7443,
      "tt": 7444,
      "ĠĠĠxiang1Ġ": 7445,
      "shi4Ġbei4Ġ": 7446,
      "di4Ġdi": 7447,
      "ri4Ġhou4Ġ": 7448,
      "suo3Ġyi3Ġ": 7449,
      "qu3Ġzi4Ġ": 7450,
      "cheng2Ġli4ĠleĠ": 7451,
      "Ġsuo1Ġxie3Ġ": 7452,
      "ru4Ġqiu2Ġ": 7453,
      "san1Ġji2Ġ": 7454,
      "cha2Ġli3Ġ": 7455,
      "gong1Ġzuo4ĠdeĠ": 7456,
      "bin1Ġshi4Ġ": 7457,
      "xi3Ġai4Ġ": 7458,
      "wu4Ġzhong3ĠdeĠ": 7459,
      "juan1Ġzeng4Ġ": 7460,
      "ren2Ġda4Ġdai4Ġbiao3Ġ": 7461,
      "yu2Ġ2019Ġnian2Ġ": 7462,
      "ru4Ġwei2Ġ": 7463,
      "shan1Ġding3Ġ": 7464,
      "Ġ1920Ġnian2Ġ": 7465,
      "jin3Ġzhang1Ġ": 7466,
      "fang4Ġsong4Ġ": 7467,
      "Ġ1979Ġnian2Ġ": 7468,
      "da4Ġliang4ĠdeĠ": 7469,
      "sa4Ġsi1Ġzhou1Ġ": 7470,
      "Ġman3Ġ": 7471,
      "Ġha1Ġer3Ġ": 7472,
      "jiu4Ġyou3Ġ": 7473,
      "han4Ġlin2Ġ": 7474,
      ".&": 7475,
      "DV": 7476,
      "Ġchang3Ġ": 7477,
      "cheng2Ġdan1Ġ": 7478,
      "shang4Ġfang1Ġ": 7479,
      "fu4ĠdeĠ": 7480,
      "xia4Ġlai2ĠdeĠ": 7481,
      "san1Ġming2Ġ": 7482,
      "jing4Ġwai4Ġ": 7483,
      "li4Ġshi3Ġxue2Ġjia1Ġ": 7484,
      "gong1Ġzuo4Ġren2Ġyuan2Ġ": 7485,
      "she4Ġji4Ġshi1Ġ": 7486,
      "han3Ġmo4Ġde2Ġ": 7487,
      "yin1Ġer2Ġ": 7488,
      "yin1Ġmou2Ġ": 7489,
      "chang2Ġchang2Ġ": 7490,
      "jiang3Ġpai2Ġ": 7491,
      "ke3Ġyi3Ġtong1Ġguo4Ġ": 7492,
      "zhu3Ġti2Ġqu1Ġ": 7493,
      "geng3Ġ": 7494,
      "Ġjun1Ġshi4Ġ": 7495,
      "wu4Ġzi1Ġ": 7496,
      "ying1Ġer2Ġ": 7497,
      "Ġda4Ġyue1Ġ": 7498,
      "si3Ġyu2Ġ": 7499,
      "ĠĠĠzhi4Ġzuo4Ġ": 7500,
      "you3Ġhao3Ġ": 7501,
      "res": 7502,
      "shi1Ġfan4Ġda4Ġxue2Ġ": 7503,
      "rao2Ġ": 7504,
      "yu2Ġtong2Ġnian2Ġ": 7505,
      "Ġteng2Ġ": 7506,
      "lian2Ġjun1Ġ": 7507,
      "jiu4Ġdu2Ġyu2Ġ": 7508,
      "ĠĠĠdui4Ġyu2Ġ": 7509,
      "she4Ġru4Ġ": 7510,
      "qian2Ġxian4Ġ": 7511,
      "jiao4Ġshao3Ġ": 7512,
      "ze2Ġer3Ġsheng3Ġ": 7513,
      "ceng2Ġren4Ġ": 7514,
      "tuan2Ġzhang3Ġ": 7515,
      "can1Ġyu4ĠleĠ": 7516,
      "cheng2Ġqiang2Ġ": 7517,
      "pu3Ġluo2Ġ": 7518,
      "Ġtong2Ġri4Ġ": 7519,
      "hu2Ġnan2Ġsheng3Ġ": 7520,
      "gei3Ġta1Ġ": 7521,
      "28Ġnian2Ġ": 7522,
      "Ġyun2Ġnan2Ġ": 7523,
      "xin1Ġbei3Ġ": 7524,
      "ziĠshi4Ġ": 7525,
      "yan2Ġjiu1Ġzhong1Ġxin1Ġ": 7526,
      "xuan1Ġyan2Ġ": 7527,
      "Ġcheng2Ġshi4Ġ": 7528,
      "3Ġmi3Ġ": 7529,
      "da4Ġbu4Ġ": 7530,
      "tian1Ġxia4Ġ": 7531,
      "gai3Ġming2Ġ": 7532,
      "hu2Ġbei3Ġsheng3Ġ": 7533,
      "chuan1Ġxian4Ġ": 7534,
      "Ġ22Ġ": 7535,
      "Ġ1ĠĠĠ": 7536,
      "he2Ġchang4Ġ": 7537,
      "shi2Ġzhi4Ġ": 7538,
      "Ġzai4Ġta1Ġ": 7539,
      "Ġzai4Ġmei3Ġguo2Ġ": 7540,
      "chuang3Ġ": 7541,
      "jiang3Ġzui4Ġjia1Ġ": 7542,
      "chen2Ġmo4Ġ": 7543,
      "ard": 7544,
      "hui4Ġyi4Ġshang4Ġ": 7545,
      "Ġde2Ġyu3Ġ": 7546,
      "sheng1Ġchan3ĠdeĠ": 7547,
      "meng4Ġjia1Ġla1Ġ": 7548,
      "yi3Ġ1Ġ": 7549,
      "zhi2Ġlu4Ġ": 7550,
      "Ġyin3Ġfa1Ġ": 7551,
      "deĠcheng2Ġshi4Ġ": 7552,
      "xi1Ġhe2Ġ": 7553,
      "zuo4Ġluo4Ġ": 7554,
      "xi4Ġjun1Ġ": 7555,
      "shou4Ġming4Ġ": 7556,
      "guang1Ġpu3Ġ": 7557,
      "ke3Ġneng2Ġxing4Ġ": 7558,
      "ĠSA": 7559,
      "lu2Ġwa3Ġ": 7560,
      "ĠĠĠgao1Ġ": 7561,
      "gong1Ġli4Ġ": 7562,
      "yi2Ġchuan2Ġ": 7563,
      "Ġshi4Ġtu2Ġ": 7564,
      "6Ġnian2Ġ1Ġyue4Ġ": 7565,
      "tui1Ġxing2Ġ": 7566,
      "kong4Ġgu3Ġ": 7567,
      "wen1Ġdai4Ġ": 7568,
      "pi2Ġfu1Ġ": 7569,
      "tong2Ġxing4Ġlian4Ġ": 7570,
      "35Ġnian2Ġ": 7571,
      "feng3Ġ": 7572,
      "Ġ1Ġyue4Ġ": 7573,
      "e2Ġhai4Ġe2Ġ": 7574,
      "wen2Ġben3Ġ": 7575,
      "la1Ġde2Ġ": 7576,
      "ci4Ġshu4Ġ": 7577,
      "biao3Ġxian4Ġchu1Ġ": 7578,
      "yu2Ġ2024Ġnian2Ġ": 7579,
      "24Ġnian2Ġ": 7580,
      "adi": 7581,
      "tor": 7582,
      "2Ġmi3Ġ": 7583,
      "ĠĠĠlin2Ġ": 7584,
      "li4Ġbu4Ġ": 7585,
      "jia1Ġsi1Ġ": 7586,
      "xi4Ġjie2Ġ": 7587,
      "liang3Ġzhe3Ġ": 7588,
      "tai4Ġlang2Ġ": 7589,
      "cun1Ġmin2Ġ": 7590,
      "wan3Ġqi1Ġ": 7591,
      "Ġmi2Ġ": 7592,
      "84Ġ": 7593,
      "yue4ĠdeĠ": 7594,
      "Ġcao3Ġ": 7595,
      "ze2Ġyou2Ġ": 7596,
      "4Ġyue4Ġ1Ġri4Ġ": 7597,
      "Ġzhi3Ġyao4Ġ": 7598,
      "kong3Ġlong2Ġ": 7599,
      "Ġmu4Ġqian2Ġshang4Ġwei4Ġyou2Ġren2Ġgong1Ġyin3Ġzhong3Ġzai1Ġpei2Ġ": 7600,
      "zai4Ġbei3Ġ": 7601,
      "jiao4Ġke1Ġ": 7602,
      "sheng4Ġjing1Ġ": 7603,
      "du1Ġhui4Ġ": 7604,
      "Ġ24Ġ": 7605,
      "Ġzhu3Ġchi2Ġ": 7606,
      "se": 7607,
      "Ġyong1Ġ": 7608,
      "guo2Ġyou3Ġ": 7609,
      "diceĠ": 7610,
      "yue4Ġqi4Ġ": 7611,
      "xin1Ġjian4Ġ": 7612,
      "luo2Ġla1Ġ": 7613,
      "ya1Ġsuo1Ġ": 7614,
      "miao2Ġxie3Ġ": 7615,
      "yi3Ġ2Ġ": 7616,
      "du4Ġguo4Ġ": 7617,
      "xing4Ġcun2Ġ": 7618,
      "tuan2Ġjie2Ġ": 7619,
      "ĠĠĠ2002Ġnian2Ġ": 7620,
      "shi4Ġyi1Ġwei4Ġ": 7621,
      "76": 7622,
      "ĠĠĠjian4Ġzhu4Ġ": 7623,
      "yi1Ġke1Ġ": 7624,
      "ji2Ġhui4Ġ": 7625,
      "hua4Ġmian4Ġ": 7626,
      "Ġzhong1Ġguo2Ġren2Ġmin2Ġjie3Ġfang4Ġjun1Ġ": 7627,
      "Ġbo1Ġlan2Ġ": 7628,
      "shi4Ġchu1Ġ": 7629,
      "gong1Ġshe4Ġ": 7630,
      "Ġdou4Ġ": 7631,
      "zhou1Ġnian2Ġ": 7632,
      "qian2Ġlai2Ġ": 7633,
      "ke1Ġer3Ġ": 7634,
      "meng2Ġjun1Ġ": 7635,
      "bu2Ġyao4Ġ": 7636,
      "Ġ1938Ġnian2Ġ": 7637,
      "ĠJR": 7638,
      "Ġbang1Ġzhu4Ġ": 7639,
      "ath": 7640,
      "Ġkuai4Ġ": 7641,
      "a1Ġji1Ġ": 7642,
      "ĠĠĠchu2Ġ": 7643,
      "ĠĠĠst": 7644,
      "yu2ĠĠĠ": 7645,
      "ge4Ġda4Ġ": 7646,
      "dong1Ġqu1Ġ": 7647,
      "zu3ĠdeĠ": 7648,
      "hui2Ġda2Ġ": 7649,
      "wan4Ġli4Ġ": 7650,
      "xu1Ġgou4Ġ": 7651,
      "ying3Ġxiang3Ġli4Ġ": 7652,
      "chong1Ġfen4Ġ": 7653,
      "dan4Ġbai2Ġzhi4Ġ": 7654,
      "oog": 7655,
      "chang2Ġan1Ġ": 7656,
      "Ġfen1Ġbie2Ġwei4Ġ": 7657,
      "95": 7658,
      "zhe4Ġli3Ġ": 7659,
      "eĠĠĠM": 7660,
      "chu1Ġban3ĠdeĠ": 7661,
      "ach": 7662,
      "ĠĠĠf": 7663,
      "ren2Ġcai2Ġ": 7664,
      "ci4Ġji1Ġ": 7665,
      "chuan1Ġguo4Ġ": 7666,
      "IIĠ": 7667,
      "ĠĠĠzuo4Ġwei2Ġ": 7668,
      "zhan4Ġche1Ġ": 7669,
      "shen2Ġsheng4Ġ": 7670,
      "zao4Ġxing2Ġ": 7671,
      "ji3Ġhe2Ġ": 7672,
      "zi3Ġmei4Ġ": 7673,
      "ĠĠĠ1949Ġnian2Ġ": 7674,
      "Ġban3Ġben3Ġ": 7675,
      "Ġluo2Ġsi1Ġ": 7676,
      "xia4Ġfang1Ġ": 7677,
      "xiang4Ġbei3Ġ": 7678,
      "jing4Ġnei4ĠdeĠ": 7679,
      "Ġgai1Ġdi4ĠdeĠ": 7680,
      "siĠshi4Ġ": 7681,
      "li3Ġshi4Ġhui4Ġ": 7682,
      "deĠming2Ġzi4Ġ": 7683,
      "ĠĠĠwei2Ġ": 7684,
      "ĠĠĠwu2Ġ": 7685,
      "zhi4Ġzai4Ġ": 7686,
      "ping2Ġguo3Ġ": 7687,
      "zui4Ġjin4Ġ": 7688,
      "jiang1Ġshi4Ġ": 7689,
      "chuan2Ġqi2Ġ": 7690,
      "sha1Ġbai2Ġ": 7691,
      "xin4Ġren4Ġ": 7692,
      "ayĠĠĠ": 7693,
      "Ġ20Ġ": 7694,
      "hui2Ġguo2Ġ": 7695,
      "xun2Ġluo2Ġ": 7696,
      "pan4Ġduan4Ġ": 7697,
      "deĠdi4Ġyi2Ġge4Ġ": 7698,
      "qu4Ġshi4Ġhou4Ġ": 7699,
      "ĠĠĠge4Ġren2Ġsheng1Ġhuo2Ġ": 7700,
      "ji4Ġren4Ġ": 7701,
      "yu3Ġwen2Ġ": 7702,
      "ming2Ġjiao4Ġ": 7703,
      "ye4Ġjian1Ġ": 7704,
      "guan3Ġkong4Ġ": 7705,
      "ting2Ġyun4Ġ": 7706,
      "Ġ1947Ġnian2Ġ": 7707,
      "Ġà¸": 7708,
      "yun3Ġshi2Ġkeng1Ġ": 7709,
      "âĦĥ": 7710,
      "seĠ": 7711,
      "qu1Ġdong4Ġ": 7712,
      "ding4Ġli3Ġ": 7713,
      "5Ġwan4Ġ": 7714,
      "Ġ30": 7715,
      "Ġguo4Ġqu4Ġ": 7716,
      "yi1Ġsi1Ġlan2Ġjiao4Ġ": 7717,
      "ele": 7718,
      "gen3Ġ": 7719,
      "wei2Ġqi1Ġ": 7720,
      "neng2Ġzai4Ġ": 7721,
      "ju1Ġliu2Ġ": 7722,
      "zhao4Ġgu4Ġ": 7723,
      "sen1Ġbao3Ġ": 7724,
      "zun1Ġzhong4Ġ": 7725,
      "WindowsĠĠĠ": 7726,
      "laySt": 7727,
      "jian4Ġguo2Ġ": 7728,
      "dong4Ġyuan2Ġ": 7729,
      "wang2Ġhou4Ġ": 7730,
      "sheng4Ġmu3Ġ": 7731,
      "hou4Ġzhe3Ġ": 7732,
      "zhan4Ġzhi4Ġ": 7733,
      "che1Ġdao4Ġ": 7734,
      "dan1Ġda3Ġ": 7735,
      "yan3Ġjing1Ġ": 7736,
      "xie1Ġer3Ġ": 7737,
      "tiao2Ġwen2Ġ": 7738,
      "dian4Ġying3Ġjie2Ġ": 7739,
      "Ġ1981Ġnian2Ġ": 7740,
      "Ġjie1Ġshou4Ġ": 7741,
      "ĠĠĠ3Ġ": 7742,
      "he2Ġshi2Ġ": 7743,
      "zhong1Ġdian3Ġ": 7744,
      "si1Ġtu2Ġ": 7745,
      "jin4Ġdai4Ġ": 7746,
      "tian1Ġfu3Ġ": 7747,
      "jing3Ġdian3Ġ": 7748,
      "jia3Ġji1Ġ": 7749,
      "hei1Ġren2Ġ": 7750,
      "zheng4Ġxie2Ġwei3Ġyuan2Ġ": 7751,
      "ĠziĠ": 7752,
      "Ġzi1Ġ": 7753,
      "Ġju3Ġ": 7754,
      "Ġzong1Ġ": 7755,
      "Ġhui1Ġ": 7756,
      "yuan2Ġwai4Ġ": 7757,
      "xia4Ġshu3Ġ": 7758,
      "chang2Ġgui1Ġ": 7759,
      "ba1Ġnen4Ġ": 7760,
      "Ġzhi1Ġjian1Ġ": 7761,
      "wen4Ġti2ĠdeĠ": 7762,
      "ken3Ġding4Ġ": 7763,
      "fa1Ġda2Ġ": 7764,
      "nan2Ġhai2Ġ": 7765,
      "yu4Ġgao4Ġ": 7766,
      "duo1Ġxiang4Ġ": 7767,
      "Ġan1Ġhui1Ġ": 7768,
      "fa1Ġdian4Ġchang3Ġ": 7769,
      "chuang4Ġshi3Ġren2Ġ": 7770,
      "ren2Ġqun2Ġ": 7771,
      "yue4Ġyu3Ġ": 7772,
      "leĠqi2Ġ": 7773,
      "dui4Ġchen4Ġ": 7774,
      "ju4Ġzhong1Ġ": 7775,
      "nan2Ġnv3Ġ": 7776,
      "ci2Ġhui4Ġ": 7777,
      "liang2Ġshi2Ġ": 7778,
      "ta1ĠmenĠzai4Ġ": 7779,
      "amĠ": 7780,
      "cun2Ġzai4ĠdeĠ": 7781,
      "lai2Ġsi1Ġ": 7782,
      "hu2Ġbei3Ġ": 7783,
      "Ġxin1Ġjia1Ġpo1Ġ": 7784,
      "Ġji1Ġben3Ġ": 7785,
      "deĠyin1Ġyue4Ġ": 7786,
      "jing1Ġying1Ġ": 7787,
      "wei1Ġbo2Ġ": 7788,
      "liu4Ġge4Ġ": 7789,
      "cun2Ġchu3Ġ": 7790,
      "fa1Ġxian4ĠdeĠ": 7791,
      "Ġzhi2Ġjie1Ġ": 7792,
      "Ġsi1Ġzhi2Ġ": 7793,
      "Ġgu4Ġshi4Ġ": 7794,
      "yu2Ġ189": 7795,
      "a1Ġli3Ġ": 7796,
      "eri": 7797,
      "tou2Ġshou3Ġ": 7798,
      "Ġzi4Ġran2Ġ": 7799,
      "Ġfen1Ġbie2Ġshi4Ġ": 7800,
      "Ġfa1Ġzhan3Ġ": 7801,
      "deĠzheng4Ġzhi4Ġ": 7802,
      "zhi4Ġ197": 7803,
      "jia1Ġzhuang1Ġ": 7804,
      "yin4Ġdi4Ġan1Ġna4Ġ": 7805,
      "deĠzong3Ġ": 7806,
      "Ġ18Ġ": 7807,
      "jie3Ġchu2Ġ": 7808,
      "mian4Ġji1Ġhe2Ġren2Ġkou3Ġ": 7809,
      "Ġyi4Ġyou3Ġ": 7810,
      "Ġnan2Ġjing1Ġ": 7811,
      "Ġdou1Ġshi4Ġ": 7812,
      "gou1Ġtong1Ġ": 7813,
      "he2Ġliu2Ġyu4Ġ": 7814,
      "Ġheng1Ġli4Ġ": 7815,
      "Ġkai1Ġfa1Ġ": 7816,
      "li4Ġshu3Ġ": 7817,
      "jian4Ġdao4Ġ": 7818,
      "Ġdan4Ġzhe4Ġ": 7819,
      "zu2Ġren2Ġ": 7820,
      "Ġshi3Ġjian4Ġ": 7821,
      "mian3Ġyi4Ġ": 7822,
      "1000Ġ": 7823,
      "yn": 7824,
      "deĠmu4Ġ": 7825,
      "ĠĠĠzhang1Ġ": 7826,
      "shi2Ġqi4Ġ": 7827,
      "hou4Ġlai2ĠdeĠ": 7828,
      "zhan4Ġting1Ġ": 7829,
      "qian2Ġfeng1Ġ": 7830,
      "wang3Ġfan3Ġ": 7831,
      "gui1Ġlei4Ġ": 7832,
      "Ġ1937Ġnian2Ġ": 7833,
      "MA": 7834,
      "TA": 7835,
      "sonĠ": 7836,
      "ĠĠĠdong1Ġ": 7837,
      "ĠĠĠ8Ġyue4Ġ": 7838,
      "di4Ġxing2Ġ": 7839,
      "xian4Ġzhang3Ġ": 7840,
      "yu4Ġding4Ġ": 7841,
      "ge2Ġla1Ġsi1Ġ": 7842,
      "xiao3Ġjie3Ġ": 7843,
      "dan4Ġsheng1Ġ": 7844,
      "sa4Ġla1Ġ": 7845,
      "jie1Ġwei4Ġzhi1Ġ": 7846,
      "Ġshi4Ġyi2Ġge4Ġwei4Ġyu2Ġmei3Ġguo2Ġ": 7847,
      "ĠØ": 7848,
      "Ġzan4Ġ": 7849,
      "bei4Ġlie4Ġwei4Ġ": 7850,
      "xin1Ġjie4Ġ": 7851,
      "Ġyou3Ġren2Ġ": 7852,
      "9Ġmi3Ġ": 7853,
      "shen3Ġyang2Ġ": 7854,
      "shi4Ġwu4Ġsuo3Ġ": 7855,
      "deĠmian4Ġji1Ġwei4Ġ": 7856,
      "li4Ġshi4Ġ": 7857,
      "ji2Ġjie2Ġ": 7858,
      "zhan4Ġsheng4Ġ": 7859,
      "fu4Ġyu3Ġ": 7860,
      "jin4Ġjun1Ġ": 7861,
      "nei4Ġya4Ġ": 7862,
      "tu2Ġjing4Ġ": 7863,
      "gong1Ġli3ĠdeĠ": 7864,
      "hu1Ġxi1Ġ": 7865,
      "250Ġ": 7866,
      "58Ġ": 7867,
      "he2Ġbei3Ġsheng3Ġ": 7868,
      "zhou1Ġli4Ġ": 7869,
      "cheng1Ġzan4Ġ": 7870,
      "yin3Ġshi2Ġ": 7871,
      "zhuan3Ġbian4Ġ": 7872,
      "YouTubeĠ": 7873,
      "Ġgai1Ġdi4ĠdeĠmian4Ġji1Ġhe2Ġren2Ġkou3Ġ": 7874,
      "Ġgai1Ġdi4ĠdeĠmian4Ġji1Ġhe2Ġren2Ġkou3Ġjie1Ġwei4Ġzhi1Ġ": 7875,
      "40Ġnian2Ġ": 7876,
      "Ġen1Ġ": 7877,
      "xian1Ġwei2Ġ": 7878,
      "a1Ġer3Ġba1Ġ": 7879,
      "yu2Ġ2008Ġnian2Ġ": 7880,
      "he2Ġbing4Ġwei4Ġ": 7881,
      "ohn": 7882,
      "56Ġ": 7883,
      "wa4Ġ": 7884,
      "ĠĠĠfa3Ġguo2Ġ": 7885,
      "diu1Ġ": 7886,
      "yuan2Ġchuang4Ġ": 7887,
      "wei2Ġwu2Ġer3Ġ": 7888,
      "jian4Ġqiao2Ġ": 7889,
      "de2Ġyu3Ġ": 7890,
      "gao1Ġceng2Ġ": 7891,
      "liang3Ġzuo4Ġ": 7892,
      "wei1Ġyi2Ġ": 7893,
      "xiang3Ġying4Ġ": 7894,
      "Ġren2Ġlei4Ġ": 7895,
      "Ġxiang1Ġdang1Ġ": 7896,
      "ĠĠĠ16": 7897,
      "shi2Ġyi1Ġnian2Ġ": 7898,
      "da4Ġjia1Ġ": 7899,
      "shang4Ġjiang4Ġ": 7900,
      "xin1Ġzhu2Ġ": 7901,
      "nan2Ġhai3Ġ": 7902,
      "dong4Ġgong1Ġ": 7903,
      "bi4Ġlu3Ġ": 7904,
      "Ġbu4Ġzai4Ġ": 7905,
      "deĠyi1Ġci4Ġ": 7906,
      "Ġlian4Ġ": 7907,
      "ĠĠĠhuang2Ġ": 7908,
      "yi1Ġhao4Ġ": 7909,
      "fa1Ġbu4ĠdeĠ": 7910,
      "shou3Ġqiang1Ġ": 7911,
      "mian4Ġshi4Ġ": 7912,
      "ge2Ġlin2Ġ": 7913,
      "qian1Ġyi2Ġ": 7914,
      "ying4Ġbi4Ġ": 7915,
      "bing1Ġli4Ġ": 7916,
      "Ġye3Ġke3Ġyi3Ġ": 7917,
      "xing2Ġzheng4Ġyuan4Ġ": 7918,
      "dong1Ġjing1Ġdu1Ġ": 7919,
      "xun2Ġhui2Ġsai4Ġ": 7920,
      "Ar": 7921,
      "ĠĠĠwang2Ġ": 7922,
      "jin4Ġping2Ġ": 7923,
      "ye3Ġzhan4Ġ": 7924,
      "zhi3Ġyu2Ġ": 7925,
      "bao3Ġwei4Ġ": 7926,
      "dian3Ġshi4Ġ": 7927,
      "Ġlu4Ġyi4Ġ": 7928,
      "zuan4Ġ": 7929,
      "ren2Ġda4Ġchang2Ġwei3Ġhui4Ġ": 7930,
      "nao4Ġ": 7931,
      "fan3Ġkang4Ġ": 7932,
      "tiao2Ġjie2Ġ": 7933,
      "wei4Ġyu2Ġzhong1Ġguo2Ġ": 7934,
      "sai1Ġbai4Ġ": 7935,
      "ĠĠĠai4Ġ": 7936,
      "he2Ġshui3Ġ": 7937,
      "ji1Ġzhong4Ġ": 7938,
      "lei4Ġbie2Ġ": 7939,
      "Ġgai1Ġzhuang1Ġ": 7940,
      "21": 7941,
      "de2Ġlan2Ġ": 7942,
      "ge1Ġju4Ġ": 7943,
      "tu1Ġjue2Ġ": 7944,
      "ĠĠĠcheng2Ġ": 7945,
      "deng3Ġdai4Ġ": 7946,
      "zhang3Ġda4Ġ": 7947,
      "su4Ġshe4Ġ": 7948,
      "bo1Ġyin1Ġ": 7949,
      "ran2Ġshao1Ġ": 7950,
      "Ġle4Ġ": 7951,
      "Ġpang2Ġ": 7952,
      "Ġpai1Ġ": 7953,
      "Ġtai4Ġping2Ġ": 7954,
      "Ġzhen1Ġdui4Ġ": 7955,
      "liao2Ġning2Ġsheng3Ġ": 7956,
      "fa1Ġyan2Ġren2Ġ": 7957,
      "ji2Ġwei2Ġ": 7958,
      "Ġyi3Ġse4Ġlie4Ġ": 7959,
      "you4Ġcheng1Ġ": 7960,
      "long2Ġke1Ġ": 7961,
      "lun2Ġduo1Ġ": 7962,
      "zhuan1Ġke1Ġ": 7963,
      "omĠ": 7964,
      "ĠĠĠ9Ġyue4Ġ": 7965,
      "yi1Ġdui4Ġ": 7966,
      "de2Ġfen1Ġ": 7967,
      "zhi2Ġjing4Ġ": 7968,
      "liu2Ġdong4Ġ": 7969,
      "dian3Ġwei4Ġ": 7970,
      "Ġ200Ġ": 7971,
      "23Ġnian2Ġ": 7972,
      "pen": 7973,
      "Ġke1Ġxue2Ġ": 7974,
      "jiong3Ġ": 7975,
      "ĠĠĠ7Ġyue4Ġ": 7976,
      "di4Ġzhong1Ġhai3Ġ": 7977,
      "ke3Ġkao4Ġ": 7978,
      "qi4Ġwen1Ġ": 7979,
      "can1Ġguan1Ġ": 7980,
      "xiao1Ġmie4Ġ": 7981,
      "hai2Ġzai4Ġ": 7982,
      "Ġgong1Ġbu4Ġ": 7983,
      "che4Ġli2Ġ": 7984,
      "yan2Ġshen1Ġzhi4Ġ": 7985,
      "7ĠĠĠ": 7986,
      "ĠĠĠ4Ġyue4Ġ": 7987,
      "zhong1Ġzheng4Ġ": 7988,
      "you3Ġke3Ġneng2Ġ": 7989,
      "yi2Ġji4Ġ": 7990,
      "lv4ĠdeĠ": 7991,
      "Ġbu4Ġjin3Ġ": 7992,
      "xuan1Ġgao4Ġ": 7993,
      "deĠzhong1Ġguo2Ġ": 7994,
      "lic": 7995,
      "bu4Ġzuo4Ġpin3Ġ": 7996,
      "chu1Ġlai2ĠdeĠ": 7997,
      "zuo4Ġtang2Ġ": 7998,
      "bei4Ġge2Ġ": 7999,
      "ben3Ġshu1Ġ": 8000,
      "di3Ġzhi4Ġ": 8001,
      "zhui1Ġqiu2Ġ": 8002,
      "ĠĠĠzao3Ġqi1Ġ": 8003,
      "chang2Ġzhu4Ġ": 8004,
      "yun4Ġsuan4Ġ": 8005,
      "zheng1Ġqi4Ġ": 8006,
      "shun4Ġshi2Ġzhen1Ġ": 8007,
      "ye2Ġer3Ġ": 8008,
      "tong3Ġzhi4Ġzhe3Ġ": 8009,
      "ĠĠĠche1Ġzhan4Ġjie2Ġgou4Ġ": 8010,
      "Ġfou3Ġze2Ġ": 8011,
      "hou4Ġyi4Ġ": 8012,
      "yan2Ġxian4Ġ": 8013,
      "liu2Ġxue2Ġ": 8014,
      "feng1Ġsuo3Ġ": 8015,
      "can1Ġyi4Ġyuan2Ġ": 8016,
      "wan1Ġqu1Ġ": 8017,
      "qiang2Ġhua4Ġ": 8018,
      "fa1Ġzhan3ĠdeĠ": 8019,
      "miao2Ġshu4Ġwei4Ġ": 8020,
      "deĠhe2Ġliu2Ġ": 8021,
      "71Ġ": 8022,
      "89": 8023,
      "ern": 8024,
      "ya2Ġchi3Ġ": 8025,
      "illi": 8026,
      "38Ġnian2Ġ": 8027,
      "deĠguo2Ġji4Ġ": 8028,
      "di4Ġsi1Ġ": 8029,
[...]
