#version: 0.2
ä ¸
ä º
ç ļ
çļ Ħ
å ħ
å ı
æ ľ
ã Ģ
å ¹
ä »
å ¤
å ľ
å Ĳ
å Ī
å Ľ
å ®
å¹ ´
ä ½
æ Ĺ
ç Ķ
å į
æ ĸ
è ¿
å °
æ ĺ
ä ¹
ç »
ãĢ ģ
åľ ¨
ä¸ º
å Ĭ
æ Ī
ä ¼
ä¸ Ģ
å Ń
å Į
å ¸
è ¯
è ®
ä¸ Ń
å Ĩ
åĽ ½
äº º
æĺ ¯
å º
æ Ŀ
å ¼
å ·
äº İ
å ¾
é ĩ
ç ī
ç §
è ¡
ç º
å¤ §
æ ī
é Ģ
æľ ī
å ±
æ Ķ
å ĩ
å Ĵ
åĴ Į
2 0
æ Ń
é ĥ
è µ
è Ģ
æ ķ
å ½
å İ
æľ Ī
å ¯
æ °
é Ļ
æ ĭ
æĹ ¥
ç Ľ
è ĩ
æ ³
å ¥
æ ł
ç İ
1 9
é ĺ
ä» ¥
åĲ İ
æĹ ¶
â Ģ
å ĳ
äº Ĩ
åľ °
æ ²
ç «
æ µ
ä¼ ļ
åŃ ¦
è §
æ Ģ
è ¾
è ´
æĪ Ĳ
é Ĺ
è ½
é Ŀ
å Ł
ä¸ ª
ç Ĳ
ä¸ Ĭ
éĥ ¨
å ī
æĸ ¯
é ķ
ä¸ İ
è¡ Į
ä» ĸ
åĩ º
ä¸ į
æ ¯
åĮ º
æ ´
æ ŀ
æ Ĭ
æ İ
åħ ¬
ç ¬
åħ ¶
åı ĳ
æ ¸
ç ½
ä½ ľ
çĶ Ł
æ Ľ
å° Ķ
åĲ į
ä ¿
ä¸ »
åĪ Ĩ
è ¢
ç Ń
è ĥ
ä¹ ĭ
é ģ
æĸ ¹
ç¬ ¬
çĶ ¨
å® ¶
å §
ãĢ ĭ
ãĢ Ĭ
è ¥
å¹ ¶
ç ¾
è¥ ¿
æ³ ķ
åĪ °
å ¿
èĢ Į
Â ·
æ ¬
é ¢
åĨ Ľ
å »
åı Ĭ
è¢ «
ä ¾
æĶ ¿
ä½ į
ç ±
çĶ ±
æ Į
æľ ¬
ç ľ
æ ±
æ° ĳ
è ·
é Ľ
é ¦
ä¸ ĭ
å¸ Ĥ
å ĵ
å¯ ¹
åĲ Į
è ģ
è ĭ
åħ ĭ
åĬ ¨
æĿ ¥
çī ¹
éķ ¿
è¿ Ļ
å¤ ļ
ä» »
èĩ ª
å¼ Ģ
éĩ Į
åĳ ĺ
åį Ĺ
é ©
åŃ Ĳ
åı ¯
æĸ °
å¹ ³
è ī
å Ŀ
è İ
åĬ ł
å¾ ·
åĮ Ĺ
ãĢ Į
ãĢ į
æľ Ģ
æĸ ĩ
å £
åĪ ©
æ Ļ
ç¾ İ
é «
åī į
ä¸ ľ
ä» £
é« ĺ
äº ļ
éĿ ¢
æµ ·
æī Ģ
¦ ģ
å¾ Ĺ
èĩ ³
ç ¤
å» º
è Ī
éĹ ´
æŃ ¤
åĨ ħ
åĽ ł
äº ĭ
âĢ ľ
ä¸ ī
âĢ Ŀ
çİ °
è¿ Ľ
çĶ µ
) ,
ä¹ Ł
çī ©
è¿ ĩ
èµ Ľ
20 1
çŃ ī
åı °
åº ¦
è½ ¦
åħ ¥
è¯ ¥
ç» ı
å½ ĵ
éģ ĵ
ç ¥
è ¦ģ
ç« ĭ
æĪ ĺ
å° Ĩ
çĲ Ĩ
ç ©
è¡ ¨
ä½ ĵ
ç Ł
ç ķ
æĭ ī
é ¡
å ¦
è °
å ²
æľ º
æķ Ļ
æľ Ł
ä¸ ĸ
è Ĳ
é ļ
æ ı
å· ¥
åĪ ¶
ç ®
èĥ ½
äº Į
å¤ ĸ
åĲ Ī
æ į
è· ¯
å® ļ
åı £
çľ ģ
å¸ ĥ
æ¬ ¡
æ Ħ
é© ¬
è® ¾
åħ ±
æĢ §
å¹´ ,
éĺ Ł
åľ º
éĢ ļ
ä¸ ļ
å± ±
å° ı
20 0
çĲ ĥ
ä½ Ĩ
è Ĭ
ä½ ¿
é ĵ
è ¶
, å¹¶
åį ģ
ä¸Ģ ä¸ª
èĢ ħ
å· ŀ
åĮ ĸ
åħ ¨
æ ĥ
ç ³
æķ °
ç§ į
é £
ç§ °
å¤ ©
è Ĥ
ç½ Ĺ
ç§ ĳ
ç ł
æ Ł
çº ¿
ç Ļ
å¼ ı
ç± ³
ç« Ļ
éĩ į
å® ī
é Ł
èģ Ķ
æ ģ
ç Ĥ
ä¸ ¤
é Ĥ
ç³ »
æ¯ Ķ
æ ¼
ç ¼
1 0
ç Ī
æ ¡
ç ¦
ç ¨
å ¢
æĢ »
éĢ ī
è¿ Ĳ
åĬ Ľ
æĹ¥ ,
åİ ¿
åħ °
å£ «
çĽ ¸
éĻ ¢
æ ¹
åŁ º
åħ ³
ä¸Ń åĽ½
éĥ ½
æ² »
åİ Ł
è¾ ¾
åŁ İ
ç» Ł
å ģ
æł ¼
èµ ·
ç» Ħ
æŃ £
æĺ İ
é »
çº ¦
åı ·
èĭ ±
æ° ´
å½ ±
å° ¼
æĪ ĸ
åĲİ ,
å± ŀ
, ä½Ĩ
åº ľ
å ¡
æİ ¥
åı ¸
è® ¡
éĩ ĳ
çĽ ®
é¦ ĸ
çİ ĭ
è® ®
æı Ĳ
åį İ
ç Ħ
ä» ¬
éĺ ¿
åĽ Ľ
ä» İ
åĪ Ĺ
åħ ĥ
ç ģ
æ¼ Ķ
å· ´
ç¾İ åĽ½
è ĳ
0 0
å¦ Ĥ
äº §
è¯ Ń
å Ģ
é ħ
åı Ĥ
åı ²
éĩ ı
å ŀ
æĶ ¹
å¸ ¸
å¥ ³
æ ®
æ ¶
éķ ĩ
åĲ ĳ
è £
è į
åĬ ¡
æŀ Ĺ
1 8
åĮ ħ
æ¸ ¯
å ¨
) .
æĽ ¾
æĹ ł
èİ ·
äºº åı£
çĦ ¶
äº ¤
å Ķ
å® ŀ
å¿ ĥ
é Ķ
åı Ĺ
é ľ
1 2
ä½į äºİ
ç» ´
æĦ ı
åİ Ĩ
ç» ĵ
èī ²
çķ Į
çº §
ä¹ Ĳ
æī ĭ
å§ ĭ
ä¿ Ŀ
å§ Ķ
åĪ Ļ
ä¹ ī
æ Ĵ
å¤ Ħ
åħ ļ
è§ Ĩ
ä¹ ¦
ç ´
åĽ ¢
0 å¹´
ç® ¡
. 19
å½ ¢
ç¨ ĭ
, èĢĮ
æ £
å¯ ¼
å ĭ
1 å¹´
è® ¤
æį ®
ç± »
æ² ³
å° ±
åį ¡
éĹ ¨
æ ·
æĮ ĩ
æľĪ 2
, åľ¨
çĽ ´
20 2
5 å¹´
åį ķ
é Ĵ
ç ĥ
è¯ ´
éŁ ³
äº Ľ
å¹ ¿
åŀ ĭ
å· ²
åº Ķ
4 å¹´
æĺ Ł
éĽ Ĩ
ç¤ º
å¥ ¥
æµ ģ
é¢ Ĩ
ç¤ ¾
æľĪ ,
å ł
ä¼ ł
æ º
æĮ ģ
é ²
åĵ ģ
çĤ ¹
) æĺ¯
è º
æł ¡
æĽ ´
2 å¹´
å± ķ
å¤ «
3 å¹´
e r
ç ĭ
åĽ ŀ
è Į
, åħ¶
ä¸ ¾
æĻ ®
1 1
æ¸ ¸
ä¸ ĩ
ç§ ¯
8 å¹´
èº «
6 å¹´
æ ¢
ç© º
åı į
é ª
èµ Ħ
æĶ¿ åºľ
æĥ ħ
å® ĺ
ç ¡
çº ª
äº Ķ
æ´ »
è¿ ĺ
é ¾
åĩ »
a n
æĶ ¯
é¦ Ļ
æł ĩ
æĬ ¥
æ »
o r
å¸ Ī
åĲ Ħ
æ¹ ¾
éĵ ģ
åĪ «
7 å¹´
è Ĵ
éĢ ł
å¤§ åŃ¦
çº ³
è Ļ
åı ĸ
ä½¿ çĶ¨
ç Ĭ
, ä»¥
åı ¤
å² Ľ
ç ĸ
æĪĲ ä¸º
å¤ ª
æĹ¥ æľ¬
i n
åī §
å± Ģ
åħ¬ åı¸
åı ĺ
æĭ ¬
ç ı
æľ ¯
åŃ Ĺ
å ķ
. åľ¨
å¥ ¹
ç Ŀ
æĹ ı
ä¸ ĵ
åĳ ½
åĮħ æĭ¬
åľ° åĮº
éĿ ŀ
å¸ ¦
èĳ Ĺ
åĽ½ å®¶
å¼ ł
è® º
è¿ ĳ
åį ³
å¼Ģ å§ĭ
çł Ķ
æľ Ŀ
æ± Ł
ä¸Ń ,
åĨ ³
ä¿ ¡
è§ £
æ´ ²
æĽ ²
èĬ Ĥ
ç Ĺ
ç¥ ŀ
é£ İ
o n
çī ĩ
å° ĳ
èģ Į
ä» ¶
ç ²
è¿Ľ è¡Į
æĹ¶ ,
ä¼ Ĭ
åĽ ¾
è Ħ
æľ ª
ç ĵ
è® °
åı ª
ç ¿
å¹³ æĸ¹
å® ĥ
æľĪ 1
æł ¹
æĿ ĥ
æ² ¡
çŁ ³
éĻ ħ
ç¬¬ ä¸Ģ
èĭ ı
æ¯ ı
ç¼ ĸ
è§ Ĵ
è½ ¬
åı¯ ä»¥
æĶ ¾
æ³ ¢
æ ¨
, æĺ¯
äº ¬
ä¾ ĭ
19 9
æĶ ¶
æĿ ¡
çļĦ ä¸Ģ
åĪ Ĵ
è° ĥ
é¾ Ļ
åħ¬ éĩĮ
é¦Ļ æ¸¯
åĳ ¨
åħ ī
åķ Ĩ
åĪ Ľ
æ¸ ħ
è¿ ŀ
åĪ Ŀ
9 å¹´
æ° Ķ
æŃ Į
ç¦ »
æĿ ĳ
å ĸ
æ ĳ
çī Ī
éĻ Ĩ
éĥ¨ åĪĨ
ç© ¶
å Ļ
å¾ Ģ
äºº æ°ĳ
å¤ ´
èİ· å¾Ĺ
è ±
åŃ £
çŁ ¥
ä¸ĸ çķĮ
åı Ī
éĿ¢ ç§¯
åħ Ī
çłĶ ç©¶
åİ »
å¯ Ĩ
äºº ,
æŀ Ħ
åŁ Ł
æ´ ¾
ä» ¤
æī ĵ
ç» Ń
æŀ ľ
åĬ ŀ
å¼ º
éļ ı
æŁ ¥
å¨ ģ
ä¸» è¦ģ
çĻ ½
åĨ į
åħ µ
äº ī
åº §
äºº .
æŃ ¦
ä»ĸ ä»¬
ç¦ ı
å¤ į
è§ Ĥ
èĤ ²
è£ ħ
åİĨ åı²
å® Į
å¹´ (
åħ Ń
l a
åĻ ¨
è®¤ ä¸º
å¼ ķ
é¡ ¹
æ® µ
, åĽł
æ ļ
é¢ ĺ
è¶ ³
åı° æ¹¾
åĵ Ī
æ²¡ æľī
ä¸ Ķ
æĿ İ
ç ĳ
å¡ Ķ
æľ į
éĻ ¤
å± ħ
å® £
æ¬ §
1 5
æĪ ı
ç½ ĳ
æĴ Ń
ç» Ī
è§ Ħ
æĭ ħ
åį ı
èĲ ¥
äº ¦
è® ¸
æİ ¨
è ı
çĵ ¦
åľ £
ä» ½
å§Ķ åĳĺ
å¥ ĸ
åľ Ł
æ¡ Ī
ç½ ®
å½ ķ
ä¿ ®
è´ ¨
è ¨
äº ²
èĲ ¨
è¨ Ģ
çĶ ·
å Ħ
a r
æº Ĳ
ç¬¬ äºĮ
åŃ ĺ
å¸ Ŀ
ä»£ è¡¨
éĹ ®
åĭ Ĵ
ä» Ĭ
è¯ Ħ
åĽ Ń
æ ¥
e n
åħ ·
ç» Ļ
æĬ ¤
ä¾ Ľ
, è¿Ļ
éĽ ·
è¿Ĳ åĬ¨
é¦ Ĩ
æŃ »
æĬ ķ
åħ «
çĪ ±
æĶ¿ æ²»
çĶ± äºİ
æ³ķ åĽ½
éĢ Ł
åħ¶ ä»ĸ
åį ĥ
åĩ Ĩ
å® Ĺ
åį °
å¢ ŀ
è¾ ĥ
è¶ ħ
ä¼ ¯
å¢ ĥ
æ´ Ľ
å¸ Į
æ± Ĥ
åĬ Ł
è§ ģ
çĶµ å½±
çĶ »
çļĦ ä¸Ģä¸ª
æ± ī
1 6
èĩ ´
( ),
åĿ ĩ
åį ĩ
å¤ ĩ
åı ¦
è¯ º
åĬ ©
åį «
å·¥ ä½ľ
åį ļ
ç Į
çİ ĩ
èİ ±
éĺ ³
åĦ ¿
è¾ ¹
ä¼ Ĺ
å¥ ½
è Ĺ
é ¥
å ĥ
å® ¢
å® ¹
èĪ ª
ä¼ ¦
åĳ Ĭ
19 8
æĹ ©
æ¨ ¡
ç ª
ä¹ Į
åĲ ī
è¯ ķ
ä¿ Ħ
ä½ľ ä¸º
ä»¥ åıĬ
æİ Ĵ
åī ¯
èī º
æł ·
æµ İ
å¾ Ī
çģ «
çİ ¯
æķ ħ
å¡ ŀ
æĪ ĳ
æĶ »
åĽ½ éĻħ
é» Ħ
çĶ °
ç¾ ¤
å· ±
èĬ ±
åı¯ èĥ½
æ¯ į
ä¹ Ŀ
çĪ ¶
æĸ ½
åĵ į
çı Ń
. è¿Ļ
è ħ
åĽ ´
ä¸Ń å¿ĥ
è¡¨ ç¤º
1 7
æĬ Ģ
. ä»ĸ
æķ ´
, ä»ĸ
é² ģ
æ² Ļ
ç» §
åĮ »
æĭħ ä»»
3 0
å¤ ±
å¸Ĥ éķĩ
çŃ ĳ
èĲ ½
çĹ ħ
ä¸Ń åįİ
åħ ´
è¯ ģ
ç» ĩ
) ãĢģ
ç³» ç»Ł
æ ¦
è´ £
ä¹ ¡
å¿ Ĺ
å¸ Ń
éĩ ĩ
éĺ ²
èĪ °
å® ¤
è Ń
å± Ĥ
æī ĺ
ä¸Ń çļĦ
éĿ Ĵ
çĽ Ł
ä¸ ĥ
, ä¸º
æĦ Ł
èŃ ¦
éľ Ģ
çĻ »
åĨ ł
æĹ¶ éĹ´
çĭ ¬
èĭ± åĽ½
è´ Ł
åį Ĭ
é º
æ¹ ĸ
æ¸¸ æĪı
éĢļ è¿ĩ
å£ °
çĶµ è§Ĩ
å§ Ĩ
éĤ £
çĻ ¾
éħ į
ç ¢
èĩª å·±
åı Į
è½¦ ç«Ļ
éĻ Ī
æł¹ æį®
a l
åł Ĥ
é» ĳ
åıĳ çİ°
æĺ ĵ
çĥ Ń
çļ ĩ
åĨ Ļ
å½ĵ æĹ¶
è¡Į æĶ¿
( ,
ç¡ ®
( )æĺ¯
çº ¢
çĬ ¶
é£ ŀ
åıĳ å±ķ
æĪĲ ç«ĭ
æģ ©
ä½ ķ
å¤ ı
æľŁ éĹ´
æ· ±
ä» į
èĢ ĥ
æŀ ģ
ä½ ı
åį ł
ç ħ
é ±
åħ± åĴĮ
æ£ ®
è¡ Ĺ
1 4
è¶ Ĭ
éĻ Ĳ
å¤ ®
å° Ħ
é ¸
é± ¼
çĶ ²
åĲĮ æĹ¶
æŃ ¥
a t
è®¾ è®¡
ç¤¾ ä¼ļ
âĢ Ķ
é£ Ł
è® ©
å»º çŃĳ
äºİ 19
åĥ ı
åŁ ĥ
è± ¡
ä¹ĭ ä¸Ģ
æĽ ¼
æĿ Ģ
å¯ Ł
è´ ¹
èĮ ĥ
å± Ĭ
, ä¹Ł
æİ §
æī ¹
ç¥ ¨
ä» ħ
, çĶ±
æ ½
è´ Ŀ
æĻ ¯
ç»Ħ ç»ĩ
æĸ Ļ
æ Ĥ
åŃ¦ éĻ¢
å¥ ĩ
e s
ä¸į åĲĮ
æ´ ĭ
å² ģ
åıĤ åĬł
æµ ĭ
çķ Ļ
èĢ ģ
ä¸Ń å¤®
å§Ķåĳĺ ä¼ļ
è¿ ª
åĨ ľ
æ¥ ¼
æĸĩ åĮĸ
ä½ İ
æŃ ¢
ä¸ĸ çºª
å· Ŀ
å½± åĵį
æ¯Ķ èµĽ
èĥ ľ
éĿ ©
è¯ į
åĵ ¥
ç§° ä¸º
. è¯¥
å¾ ĭ
çī Į
é¡ ¿
æĥ ³
å±ŀ äºİ
æİ Ī
f or
æķ Ī
1 3
å ĺ
æ³ °
è¾ ĸ
ä¾ ¿
, ä½įäºİ
å¹³æĸ¹ åħ¬éĩĮ
æ ¤
æľ ¨
éĻ į
åĩ ł
ç§ »
è¿ °
çľ Ł
i c
æ ħ
åģ ľ
æī į
æ° ı
éĵ ¶
æ¡ ¥
( )
èĴ Ļ
æĪ ¿
å¿ µ
æĺ ¾
éŁ³ ä¹Ĳ
t ;
æī ¿
æĢ ģ
çĿ Ģ
è´ ¥
âĢĿ .
å ©
,åħ¶ ä¸Ń
ç´ ¢
æ ¾
åħ±åĴĮ åĽ½
åº ķ
åº ·
åº ĵ
é¢ Ħ
ä¸» ä¹ī
é Ń
m u
åŃ¦ æł¡
å¤ĸ ,
å¾ ģ
ç´ ł
æ´» åĬ¨
ç±³ ,
çī Ļ
è¾ ĳ
çľ ĭ
å¼ ¹
åĶ ±
åħ ¸
ä½ľ åĵģ
æŃ£ å¼ı
æ¶ Ī
æıĲ ä¾Ľ
åĪ© äºļ
ç® Ģ
è®¡ åĪĴ
åĩº çİ°
ç½Ĺ æĸ¯
è½ ½
ä¹ ł
ä»ĸ çļĦ
æīĢ æľī
æģ ¯
ä» ·
å ³
ä¹ĭ éĹ´
éĻ Ħ
ç»ı æµİ
ç®¡ çĲĨ
åıĳ çĶŁ
æľĢ ç»Ī
éĵģ è·¯
çł ģ
ãĢį .
çĳ ŀ
, è¯¥
æī §
æĹ¶ æľŁ
è¿ ľ
i s
åĿ ¦
æĪ ·
ä¸Ģ ç§į
å¹ ²
åı ĭ
åŁİ å¸Ĥ
åĨ µ
ç® Ĺ
ä¾ §
æķĻ èĤ²
ç¥ ĸ
éĢ Ģ
éŁ ©
å® Ī
æ» ¡
åĲİ æĿ¥
äº ĳ
æ³ ¨
èĪ ¹
mu la
å½ĵ åľ°
è¯ ·
è¯ Ŀ
æ¸ ©
éĤ ¦
for mula
formula _
åĢ Ļ
ä½ Ļ
, ä¸į
ä½ Ľ
æ Ĳ
æĬ Ĭ
ç« ł
ä¸ ģ
ç² ¾
i t
, äºİ
æĬ Ĺ
å® ģ
çĽ ĳ
19 7
åĪ¶ ä½ľ
åł ¡
19 4
20 å¹´
æľ Ľ
. 201
a m
æĹ §
è´Ł è´£
å¾· åĽ½
å· ¦
æĪĲ åĳĺ
ä¸Ĭ çļĦ
æĭ ¿
) çļĦ
éĹ® é¢ĺ
æľ Ĺ
éª Į
h e
åĬ ¿
è¿Ľ åħ¥
æĢ Ŀ
ä¸ ´
. æŃ¤
è®¸ å¤ļ
åĪ ĺ
å ´
çª ģ
é ¹
çł ´
å¿ «
å® «
æĹ ħ
ä¾ Ŀ
åİ ĭ
åº Ħ
ç¬¬ ä¸ī
åĲį ä¸º
èİ «
æľĢ åĲİ
ä¼ ¼
æĪĺ äºī
å¯ Į
ä¸Ģ äºĽ
æ¢ ħ
çĿ £
åĢ ¼
åģ ļ
åħ¨ åĽ½
æĶ¯ æĮģ
å° ģ
èĹ ı
æ° ¸
,åĽł æŃ¤
åĲ «
å» ¶
æĸ Ĺ
èĴ Ĥ
5 0
æĭ Ķ
çĶŁ æ´»
åĽł ä¸º
åİ ħ
ä¹ĭ åĲİ
åį ¢
äºº çļĦ
çħ §
äº ¡
æľį åĬ¡
å¼ Ĺ
éļ ¾
l e
åİ Ĥ
ç» Ĩ
æ¾ ³
åĪ ¤
æ ĵ
æł ¸
æŀ ¶
ä¸ ¹
å¤§ çļĦ
éģ Ĺ
ä¼ ¤
å°¼ äºļ
å®£ å¸ĥ
çļ ®
èĻ ½
å½ Ĵ
åį° åº¦
åı ³
ä¿Ħ ç½Ĺæĸ¯
å·² ç»ı
è¯ Ĩ
åº Ĩ
åıĤ ä¸İ
åľ° æĸ¹
ä¸¾ è¡Į
æĸ Ń
åħ³ ç³»
åıĳ è¡Į
éĹ »
19 6
. åħ¶
ç Ĩ
è½ ®
é ½
åı ¶
ä¸ ½
æĿ °
åº Ĺ
æĸ¹ éĿ¢
ç¤ ¼
åĶ Ĳ
åĨ³ å®ļ
å·¥ ç¨ĭ
ï ¼
éĩį è¦ģ
è Ľ
è¶³ çĲĥ
r o
åĮĹ äº¬
åĪ ĩ
ä¸¤ ä¸ª
ä¼ ĺ
çŃ ĸ
ä¸ ¥
, æľī
ä¸Ĭ æµ·
åº Ń
èµ °
ãĢį ,
å¿ ħ
è¯ »
æĭ ¥
ç» Ŀ
éģ Ń
0å¹´ ä»£
å° ļ
èģĶ åĲĪ
äºº çī©
å¼ Ĥ
r e
åĺ ī
éĥ ¡
äºĭ ä»¶
ç» ĥ
æį ¢
åĮĹ éĥ¨
åĨł åĨĽ
é© »
å½ ¹
èµ «
åŃ¦ å®¶
èĬĤ çĽ®
æ¤ į
å² ¸
éº ¦
éĩ İ
åŃ¦ çĶŁ
å¼ Ł
ä¼ļ è®®
19 5
æ² ¹
äººæ°ĳ åħ±åĴĮåĽ½
æĬĢ æľ¯
éĢ Ĳ
åĶ ®
èĥ Į
. 5
æ¯ ķ
æĿ ¾
åĪ° äºĨ
åĬł åħ¥
é ³
å¯ º
00 0
èī ¾
è ĵ
åį ´
ä¿Ŀ æĬ¤
e l
åĪĹ è½¦
ä¹ ħ
æĢ» ç»Ł
æ¬§ æ´²
ç½ ²
20 19
èı ²
éļ Ĩ
è®¾ æľī
æĻ ļ
é ¼
å¹³æĸ¹ åįĥ
èĪ ¬
s t
å ª
åĪĨ åĪ«
æĿ¥ èĩª
ç« ¯
20 20å¹´
çĽ® åīį
ç ¯
. 200
æĺ ¥
çŁ Ń
å¹³ .
éĢ ģ
åħ ¹
åĪĨ å¸ĥ
åħĭ åħ°
éľĢ è¦ģ
ç³» åĪĹ
ä¸ĭ ,
ä¹ ĺ
,ä»¥ åıĬ
ä½ ³
å° ½
æĿ Ł
å® Ŀ
å®Į æĪĲ
ä¸Ńåįİ äººæ°ĳåħ±åĴĮåĽ½
éĢļ å¸¸
é¡ º
æ°ĳ åĽ½
ä» Ģ
åĲĮ å¹´
æ² ¿
æľ «
æĹ Ĺ
åİĨåı² .
å»º ç«ĭ
åĲ ¯
èį ī
åįĹ éĥ¨
åº ı
åŃĺ åľ¨
éĺ ¶
éĺ µ
èį ¯
å¯¼ èĩ´
èĢ ¶
éĽ Ħ
éħ Ĵ
æļ ´
æĸ¯ çī¹
æ¯ Ľ
æĸ¯ Â·
æĪĲ åĬŁ
i on
æ³ ½
åħ ¼
é¢ ĳ
äºİ 201
ä¸Ĭ ,
åħ± æľī
åĨ ²
è½ »
è¦ģ æ±Ĥ
æĳ Ħ
çĭ¬ ç«ĭ
è· Ŀ
çĦ¶ èĢĮ
2 5
ç»Ħ æĪĲ
ä¾ĭ å¦Ĥ
æĳ ©
è¿Ļ äºĽ
æľĢ é«ĺ
éĶ Ģ
æ¬ ¾
è¿Ļ ä¸ª
è¾ ĵ
åįķ ä½į
ãĢĭ çļĦ
èĻ½ çĦ¶
æµ· æĭĶ
12 æľĪ
å¼Ģ åıĳ
æĭ¥ æľī
å¸ ķ
èĩª çĶ±
ãĢĭ (
ãĢĭ ãĢģ
çģ µ
åŃ Ļ
ä¸ĵ è¾ĳ
æĺ¯ åľ¨
çŃ ¾
åª Ĵ
çĽ¸ åħ³
ä¹Į åħĭåħ°
ç± į
å© ļ
çİ Ľ
æĥħ åĨµ
çĶ¨ äºİ
ç½ ª
19 3
é¡ »
èīº æľ¯
æĺ¯ ä¸Ģ
, åĮħæĭ¬
çĶŁ å¹³.
æĿ Ĥ
äºº åĳĺ
çº ½
é¥ °
æ£ Ģ
éĽ ħ
e t
åĲį .
é¡ ¶
çĲĥ éĺŁ
âĢĿ ,
éĢī ä¸¾
å¯Ĩ åº¦
æĿ ¨
èģĶ çĽŁ
éĩĩ çĶ¨
æŀ ª
i l
å Ĥ
æıĲ åĩº
2 4
ä» ĭ
äºĨ ä¸Ģ
åīį å¾Ģ
åĮº .
åĬ ³
ç§ Ģ
åħ į
o u
7 æľĪ
çķ ¥
åıĹ åĪ°
æ² ĥ
å· ®
æĭ į
éĢ ı
è¿ ½
å® ³
äº ¿
æ ¿
ãĢĭ ,
å· ¡
o l
æĸ¹ å¼ı
9 æľĪ
1 .
çĽ ĸ
åĩ ı
èĭ ¥
çļĦ ãĢĬ
è§Ĵ èī²
è´ ¢
ä¸º äºĨ
10 æľĪ
éĴ Ł
è¢ Ń
8 æľĪ
è¿ ģ
éĩ Ĭ
, ä¸Ģ
åĽ½ æ°ĳ
äºĮ åįģ
æĿ ¿
èī ¯
a c
å° ¾
åĲ ´
, ä¸İ
çļĦ .
å¤§ éĻĨ
è® Ń
è ŀ
åħ· æľī
çŃī .
èį £
æĿ ¯
åĲĪ ä½ľ
3 æľĪ
è° ·
çĪ Ĩ
, å¦Ĥ
éħ ¸
äº¤ éĢļ
æķ £
æı ´
æł ĳ
æŃĮ æĽ²
åĩº çīĪ
éĽĨ åĽ¢
1 ,
å°Ķ Â·
èģĶ èµĽ
äº§ çĶŁ
ç £
æĺ ł
çļĦ å¤§
é¦ĸ æ¬¡
å® ĭ
ä¼ ģ
è¯ ĳ
è´ Ń
äº Ī
æķ° æį®
åĸ Ħ
± ä¹Ĳ
å¾ ®
é» İ
æ´ ¥
åħ¶ ä¸Ń
èĤ ¡
å° º
è¡ ¥
çī¹ åĪ«
æ¯ķ ä¸ļ
è® ¿
å± ĭ
ç»§ ç»Ń
å® ¡
è´ µ
äº Ĵ
è¡ Ģ
é«ĺ åº¦
. ä½Ĩ
é¡¹ çĽ®
ç»ĵ æĿŁ
6 æľĪ
æĻ ĭ
è½ ¨
çĶŁ äº§
çĥ Ī
åģ ĩ
0 .
åĽł æŃ¤
è® ¯
çĲĨ .
éŁ ¦
ã ĥ
ãĢĭãĢģ ãĢĬ
åħ »
éĻ ©
ç»ĵ æŀĦ
èĩ £
h -
5 æľĪ
å¸Ŀ åĽ½
é¢ Ŀ
æı ı
æī ©
2 3
éĥ¨ éĺŁ
è¥¿ äºļ
å¹³æĸ¹åħ¬éĩĮ ,
. èĢĮ
ä¸ª äºº
è¯Ń è¨Ģ
æķ ĳ
äººåı£ å¯Ĩåº¦
æ¯ Ĵ
æİ§ åĪ¶
é² ľ
å¯¹ äºİ
åĸ ľ
ç§ĳ åŃ¦
2 .
æİ¥ åıĹ
å½¢ æĪĲ
ç« ŀ
1 æľĪ
åıĸ å¾Ĺ
ä»» ä½ķ
æĹ¶ ä»£
æµ· åĨĽ
è¡Į åĬ¨
ä¸» å¸Ń
åĮº åŁŁ
æĮ ¥
å³ °
éĿ¢ç§¯ ä¸º
æķħ äºĭ
, åĲİ
å¤ º
æĿ ľ
æ°ĳ ä¸»
èĪ ŀ
æ¦ Ĥ
éĶ ¦
è¯ Ĺ
åĩº çĶŁ
z h-
æĹł æ³ķ
è® ²
4 æľĪ
éĢ Ĥ
11 æľĪ
éĢ Ķ
çļĦ æĺ¯
ä¹Ł æĺ¯
æĭ ľ
ä¸ °
æľº æŀĦ
çİ ©
çĶ ļ
å¢ŀ åĬł
åĮº çļĦ
éĢł æĪĲ
4 0
2019 å¹´
æľ ±
å¸ ģ
çĸ Ĺ
é½ Ĳ
æ¢ ģ
èį ·
è¾ Ĩ
éĻĦ è¿ĳ
ä¸» æķĻ
è¶ħ è¿ĩ
çļĦ äºº
ç§ ĺ
å» ·
é¢Ĩ å¯¼
æĮ ī
ä¼ł ç»Ł
ç»ĵ æŀľ
ç½Ĺ é©¬
å¾ Ħ
ä»¥ ä¸ĭ
ç ĩ
å® ¾
éļ ¶
202 1å¹´
ç ¦ģ
, åį³
ãĢį çļĦ
æĴ ¤
ä¸Ń åħ±
åĿ Ģ
æĿ Ĳ
åį Ī
in g
è´ §
& g
&g t;
åĩ ¯
åĬ¨ çī©
æ¸ Ĳ
çĬ ¯
èĥ ¡
202 2å¹´
a s
åĨĽ äºĭ
2 1
ç« ¥
æķ ¦
èĪª ç©º
åľ Ĩ
ä½ ©
çĽ Ĭ
çļĦ æĹ¶
ä» ª
å¤ Ł
æłĩ åĩĨ
o m
åıĳ å¸ĥ
5 æĹ¥
èģ ļ
è° ¢
10 0
æĸ° éĹ»
6 0
éª ¨
æ· ·
çĮ ®
çĽ Ľ
, ä»İ
åĨħ çļĦ
è¿ Ķ
åıª æľī
ãĢĭ .
ä» ģ
éĥ İ
l t;
& lt;
, ä½¿
çī Ľ
,å¹¶ ä¸Ķ
çļ Ĩ
æķ° éĩı
æŁ Ĳ
è® ¨
å°± æĺ¯
ç¿ °
åĪ ĳ
ç© Ĩ
çĤ ¸
æį ķ
éĺ¿ å°Ķ
å¨ ľ
éĿ© åĳ½
èĮĥ åĽ´
äºİ 200
c h
å¤§ åĪ©
å¸ ®
åªĴ ä½ĵ
e d
, å°Ĩ
éĻ¤ äºĨ
å® ½
å¾Ĺ åĪ°
æľº åľº
å¥³ æĢ§
èĮ ¨
å®ī åħ¨
è°ĥ æŁ¥
è¿ĩ ç¨ĭ
,å¹¶ åľ¨
è§ ī
æİ ¢
ä¹ĭ åīį
æł¼ åħ°
ç»ı è¿ĩ
çĤ ®
æĻ º
åº Ļ
åĨħ å®¹
åħ¬ åĽŃ
çĪ¶ äº²
å¹ ķ
æĪ ª
åĲ ¦
éģ ĩ
å¤ ľ
: âĢľ
(, ),
éŁ© åĽ½
çĶ· åŃĲ
ä¹ Ķ
åįģ äºĮ
éľ į
èµ ŀ
åħ ħ
è Ķ
æĭ ©
2 2
è½ ¯
éĩį æĸ°
å¥³ åŃĲ
å¹³æĸ¹åįĥ ç±³
åĪ »
) åĴĮ
æīĢ ä»¥
éľ ²
èµĽ äºĭ
æĽ ¿
7 æĹ¥
ä¼ ĳ
å° ¤
ç§ ģ
,åĽł ä¸º
åĪ º
ä¹ĭ åĲİ,
ä½į ç½®
å¹³ åĿĩ
è ĸ
, è¢«
å «
èĩªå·± çļĦ
çİ ī
è¿ĲåĬ¨ åĳĺ
æŁ ĵ
çºª å¿µ
å±ħ æ°ĳ
6 æĹ¥
201 0å¹´
ä¸Ģ èĪ¬
é¸ Ł
åĪĽ ä½ľ
çľģ ,
åıĳ è¡¨
åº Ł
ä¸Ģ åĲį
ç¼ º
éĿ ł
u s
ä¸ Ŀ
ã ģ
éĴ Ī
æķ Į
, æĽ¾
åĢ Ł
æĺ Į
çİ° ä»£
ä¸º .
è®¾ ç«ĭ
ç» ©
çļĦ ãĢĮ
è¯ ī
æº ª
æĬ µ
éĤ ®
æľī éĻĲ
èģĶ éĤ¦
åľ° ,
åĲ Ľ
å· ¨
è ľ
åĲ ¸
å® ĩ
è¥¿ çıŃ
è· Ł
çĪ µ
ä¹ ±
å±ŀ çļĦ
.19 9
èĵ Ŀ
è¥¿çıŃ çīĻ
éª ĳ
å¾ ¡
2 8
å® ª
æĹ¶ çļĦ
3 1
çľ ¼
è®® ä¼ļ
åıį å¯¹
æ¼Ķ åĳĺ
æ¤į çī©
ä¸Ģ çĽ´
åĿ ¡
æ® ¿
åħ± äº§
æķĻ æİĪ
æį Ł
å¾ Ĵ
éĽ ª
æĿ¥ çļĦ
å·¥ ä¸ļ
åĽ º
æ°ĳ æĹı
âĢĿ çļĦ
è¯ ¸
ä¾ µ
åĪ Ĭ
çīĪ æľ¬
åĮ ¹
æľī åħ³
, å¤§
ç¬¬ åĽĽ
éĢ ĥ
åħ¬ è·¯
çĽ´ æİ¥
çİ° åľ¨
éļ Ķ
202 3å¹´
è ª
å»º è®¾
4 æĹ¥
èģĮ ä¸ļ
æī ¾
çİ¯ å¢ĥ
è° ĭ
ä¸¾ åĬŀ
èĦ ĳ
æ¶ ¯
éļı åĲİ
ä¸Ń åŃ¦
3 æĹ¥
ä¹ İ
éĢī æĭ©
åĨĽ éĺŁ
çĹ ĩ
è¿ĺ æľī
éĿŀ å¸¸
ç¿ »
æ¬ ¢
èĭı èģĶ
åıį åºĶ
ç¼ĸ çłģ
, æŃ¤
, åĲĮæĹ¶
ä½ ł
( ä»Ĭ
çĶ ³
åħ¬ å¼Ģ
d e
ä½ĵ èĤ²
å£ ¤
éĥ ĳ
å² ©
éĵ¶ è¡Į
ä¸º ãĢĮ
éķ¿ .
æ¦ ľ
è£ ģ
èµĦ æĸĻ
åħ± åĲĮ
æ± ĩ
å½¢ å¼ı
åĨ³ èµĽ
ç© ¿
æĪĺ æĸĹ
è¡Į æĺŁ
åħ Ħ
åı ¬
éĥ½ æĺ¯
åĨ °
æĺ¾ ç¤º
éĤ »
æ¼ «
åįı ä¼ļ
2 æľĪ
æĢ ¥
æ¿ Ģ
åĲį ç§°
. âĢĿ
è·Ŀ ç¦»
. å®ĥ
2 7
o f
å¥ ī
æĸ¹ æ³ķ
ç» ľ
éķ ľ
æĪ Ī
åŁ ¹
u n
åĶ ¯
æİ¨ åĩº
åĲį çļĦ
è¯ ¾
å°ı è¯´
ç¬ ¦
èĥ ŀ
åĪ© çĶ¨
, åıĪ
å¤ļ æķ°
åĲ ¬
çĶŁ æ¶¯
åľ° .
æ¯ ģ
è®® åĳĺ
èĬ ¬
è¿ «
ç¾İ åħĥ
çĽ´ åĪ°
æĸ¯ åĿ¦
ä¹¦ è®°
ä¼ģ ä¸ļ
è® ¢
è° Ī
åĳ ¼
é» ĺ
åĮħ åĲ«
èĩª æ²»
ä¸º âĢľ
å¾ ħ
æ³ķ å¾ĭ
éĽ ¨
ä¹ĭä¸Ģ .
é Ĩ
ä¸Ģ èµ·
ç®¡ è¾ĸ
æĮĩ æĮ¥
åĳ Ī
èĤ ¯
S t
è¿Ļ ä¸Ģ
åģ ¥
å®Į åħ¨
( C
ä¸» ä»»
æĢ Ģ
èĢ ³
åı° åĮĹ
ä¸Ńåįİ æ°ĳåĽ½
çĶŁ çī©
æĸ° çļĦ
ï¼ į
çĸ ĳ
æ³ Ľ
å®¶ åºŃ
éķ¿ ,
èµ µ
åĿ ļ
ä¸ľ åĮĹ
ä¸į æĺ¯
2 6
æ³ķ éĻ¢
äºº ç±»
åľ° çĲĨ.
èİ ī
éĻ µ
æĦ ¿
en t
âĢĶ âĢĶ
ã Ĥ
. çĶ±äºİ
an d
æĵ į
æĹ ĭ
æĪĳ ä»¬
å®¶ æĹı
èĩª çĦ¶
å§ ĵ
åı¦ ä¸Ģ
æľī ä¸Ģ
åŃ¦ ä¹ł
åľ° çļĦ
åĨį æ¬¡
r i
202 4å¹´
æ¶ ī
çĶµ åŃĲ
å¤§ éĩı
, æĪĲä¸º
, å®ĥ
æŀ ļ
æĮĩ åĩº
é¢ Ĺ
æĶ¿ çŃĸ
åħ³ äºİ
, å±ŀäºİ
æĪ ´
æ¯ «
åŃ ©
èĦ ±
æī§ è¡Į
åĬ¨ çĶ»
çĶļ èĩ³
åĪĨ ä¸º
201 6å¹´
çĲĨ è®º
3 5
3 .
åĲį :
è¡¨ çİ°
èŀ į
: ãĢĮ
æľĪ1 æĹ¥
åĲİ çļĦ
å¿ħ é¡»
åĮ» éĻ¢
, 000
ä½į .
2 9
æļ Ĥ
åŁº ç¡
åį ±
ç» ¿
ä»¥ æĿ¥
è¡Į ä¸º
å°Ĩ åĨĽ
å¦ »
8 å¹´,
ç§ ĭ
ä¸ľ éĥ¨
çĽ ĺ
æľĢ ä½³
æģ Ĵ
å¢ĥ åĨħ
å°½ ç®¡
201 1å¹´
èĪ į
o w
æī İ
æĢ§ çļĦ
.19 8
æľĢ åĪĿ
åĿ Ĳ
è Ŀ
é¡ ¾
æĸĩ åŃ¦
åŁºç¡ Ģ
æĶ¹ ä¸º
åį ·
æ¨ ª
201 8å¹´
ç¾ ½
æŁ ı
ä¸ŃåĽ½ å¤§éĻĨ
ä¹ Ī
å¾· Â·
åĬ ª
å®ĺ æĸ¹
()æĺ¯ ä½įäºİ
ç¿ ¼
ç´ §
åįļ çī©
èī ĩ
2 å¹´,
åķĨ ä¸ļ
ç¯ ĩ
çľģ ä»½
è¾ Ľ
æĶ» åĩ»
3 å¹´,
æ» ¨
æĦı å¤§åĪ©
è´ ¡
5 æĹ¥,
åħ¬ åħ±
å¥ ı
ä¹ °
çī© ç§į
æŃ» äº¡
æĴŃ åĩº
u r
æ¡ ĳ
éĴ ±
æĬ¥ åĳĬ
ç±» ä¼¼
åĿ ı
æĻ® æŁ¥
æľŁéĹ´ ,
éŃ Ķ
ç¼ ©
åĮº ,
ä¸Ń .
æľĿ é²ľ
1 å¹´,
5 å¹´,
æĶ¿æ²» äººçī©
æ´ ª
å¸Ĥ åľº
201 4å¹´
æĹ© æľŁ
èĥ½ åĬĽ
¤ Ĳ
æ½ ľ
4 å¹´,
å®ŀ éĻħ
äºļ æ´²
è Ĩ
æıı è¿°
å¢ ĵ
a d
è¯ ¯
æ¼Ķ åĩº
è§Ħ æ¨¡
8 0
çº¦ ç¿°
åĽ¢ ä½ĵ
åĬł æĭ¿
6 å¹´,
éģ ¿
å¿ ł
åħ¨ çĲĥ
ç» į
æ® ĸ
åİ» ä¸ĸ
æĭį æĳĦ
å¤Ħ çĲĨ
æĺ¯ ä¸Ģä¸ª
æł ĸ
æµ·æĭĶ é«ĺåº¦
çģ Ń
ä¹ĭéĹ´ çļĦ
è¥¿ éĥ¨
å¤ĸ äº¤
å¹¿ ä¸ľ
ä¸ĭ çļĦ
éľ ĩ
æµ Ļ
201 7å¹´
201 2å¹´
åĪ¶ éĢł
éĵ ľ
èµ· ,
201 5å¹´
èĥ½ å¤Ł
ä¸¥ éĩį
å¤§ ä¼ļ
å» ī
ç¦» å¼Ģ
ç« ¹
çļĦ åľ°
äººåı£ .
çĸ «
åŁº æľ¬
ãĢį (
å®Ĺ æķĻ
æģ ¶
æ± ½
å® ľ
è¿ ·
i g
ä¼ į
çºª å½ķ
é³ į
ä¸º ä¸»
ä½ľ çĶ¨
è¿ ¹
è¿Ļ ç§į
çļĦ âĢľ
éĹ Ń
å¥ Ĺ
200 1å¹´
æĮģ ç»Ń
åĿ Ĺ
åģ ı
å°ı æĹ¶
ä» ĺ
è®¡ ç®Ĺ
201 3å¹´
è·¯ çº¿
200 9å¹´
18 9
t h
(), æĺ¯
æī ¬
.19 4
åħ±äº§ åħļ
äºĭ åĬ¡
åŃ Ķ
è¯¥ åĽ½
ç©º éĹ´
çļĦä¸Ģä¸ª å¸Ĥéķĩ
èµ ĸ
è¡ £
8 æĹ¥
è¿ İ
,ä½Ĩ æĺ¯
7 0
6 æĹ¥,
å°Ķ æĸ¯
æ³ ī
åĪ ļ
7 å¹´,
è¾ ħ
t he
å¸Į æľĽ
ä»» åĬ¡
4 æĹ¥,
çĽ® æłĩ
æŀ Ĳ
èĦ ī
ä¸ī ä¸ª
å¥¹ çļĦ
æ± ł
ç»Ł æ²»
æİ¥ å£¤
èª ī
ä¼ °
åı¦ å¤ĸ
æĸ¹ åĲĳ
æ¸ ¡
æģ Ĳ
ç¼ ĺ
æĸĩ çī©
( åŃ¦
ç¬¬ åįģ
ä¸ľ åįĹ
åĬŁ èĥ½
èĳ £
éļ ľ
7 æĹ¥,
å¼ ĥ
å¹´ çļĦ
, åı¯
åįķ æĽ²
éĺ¿ æĭī
ãĢ ī
ãĢ Ī
åĬłæĭ¿ å¤§
çº½ çº¦
å¢ ¨
éĶ¦ æłĩ
æĭ Ľ
äº «
è· ¨
è®¾ æĸ½
æľĪ åı°
èµ ¤
å¯ »
19 2
èµĽ åŃ£
. çĦ¶èĢĮ
èħ Ĭ
æĺ¯ çĶ±
åī ĳ
éĢı è¿ĩ
çĶ ĺ
äº ķ
ä¿ ±ä¹Ĳ
è§Ħ å®ļ
ä¸» æĮģ
éĶ ¡
éŃ ı
çĲĥ åĳĺ
éĢ Ĭ
ä¿±ä¹Ĳ éĥ¨
éĺ »
åĪĨå¸ĥ äºİ
(åŃ¦ åĲį:
ä»į çĦ¶
åįļçī© é¦Ĩ
éĢī åĮº
åıĺ åĮĸ
æĥ ł
åĲĪ å¹¶
è´ ¸
åĲį ,
è§£ æĶ¾
åĽ½ çİĭ
çĳ Ł
ä¸Ģ æ¬¡
, æīĢä»¥
é¢ ģ
åħ¬ å¸ĥ
å·´ å£«
å¼Ģ æĶ¾
å¹¿ æĴŃ
åĨ ¬
åħĭ æĸ¯
ç» ĺ
å¦Ĥ æŀľ
, å¯¹
åħĭ éĩĮ
4 .
äº ®
200 8å¹´
3 æĹ¥,
ä»ĸ åľ¨
èĤ ī
è¾¾ åĪ°
å®ŀ éªĮ
èµ ¢
ä¹Ł æľī
, æľĢç»Ī
åĶ¯ ä¸Ģ
åİŁ åĽł
, ä»ĸä»¬
è ¸
å½ĵ ä¸Ń
éĢĲ æ¸Ĳ
æį ·
èı Į
åıĳ åĬ¨
éĥ¨ éķ¿
äººåı£ æĻ®æŁ¥
çĥŃ å¸¦
çº ²
åĦ¿ åŃĲ
ç» ¼
é©¬ æĿ¥
åĵ ²
çŁ ¿
è¿ŀ æİ¥
å½ĵ éĢī
4 5
æ¨¡ å¼ı
å¾ Ĳ
ç ¹
å¤§ åĮº
è¾ ŀ
ç¬¬ä¸Ģ æ¬¡
ä¸ľ äº¬
åı· çº¿
çģ ¾
èĴĻ åı¤
åħĭ Â·
è¿ĲåĬ¨ ä¼ļ
å®ļ ä¹ī
2 ,
è¯Ń :
i d
, æ¯ı
æľīéĻĲ åħ¬åı¸
o s
çĽ¸ å½ĵ
éĺ ´
èĽ ĭ
åĲĦ ç§į
è®Ń ç»ĥ
æ´ ŀ
ç¨ ³
ç»Ĩ èĥŀ
æ½ ®
çĽ¸ åĲĮ
r a
åĩ» è´¥
, æĪĸ
å¦ ĩ
åı Ļ
æ¼Ķ åĶ±
é£İ æł¼
å¤ª å¹³
çĬ ¹
å¤ª éĺ³
å¦ ¹
19 0
, ä¾ĭå¦Ĥ
èĢħ çļĦ
ç¹ ģ
I N
æ° §
éģĵ è·¯
ä½ Ĳ
c t
æĪĲ ç»©
4 8
æļ Ĺ
æŃĮ æīĭ
æİ Į
T C
æĭ Ĵ
å¥¥ è¿Ĳ
æ» ĳ
åı¸ ä»¤
( åį³
æģ ¢
çİ© å®¶
ä¸ĵ ä¸ļ
å¹¶ ä¸į
éĺ¶ æ®µ
äºº å£«
, ä¸Ķ
t er
éĴ ¢
.19 5
è¥¿ åįĹ
åĢ Ĵ
202 5å¹´
åĨ ·
åĨ Į
æī¹ è¯Ħ
. ãĢį
è¥¿ åĮĹ
èĻ İ
çĲ ´
ä¸įåĲĮ çļĦ
ç§ Ł
å»º éĢł
ä¸Ģ æł·
è®¾ ç½®
äº§ åĵģ
ä¼ Ĳ
, åĮĹ
âĢ ĵ
zh- h
åĬŀ åħ¬
è½¨ éģĵ
åĪĨ ,
æĺ Ĥ
ç¨ İ
9 å¹´,
é© ±
ä¿ Ĺ
. å½ĵ
å¾ ½
äºİ 199
ä¸į è¿ĩ
è¡ĮæĶ¿ åĮº
çı ł
è¢« ç§°ä¸º
éº »
èī ĺ
å¥ Ī
éĶ Ļ
ç¡ ¬
åĿ ĳ
èĥĮ æĻ¯
åľ Ī
å®ļ çļĦ
å¹ ¼
åĳ ³
çĶ º
çĪĨ åıĳ
å½ ¼
æĬ¥ ãĢĭ
æµĻ æ±Ł
åĪĨ éĴŁ
å°ı è¡ĮæĺŁ
æĤ £
çļĦä¸Ģ éĥ¨åĪĨ
éĺ ģ
çī¹ Â·
èĳ ¡
å¢ Ļ
å½ ©
ä¼¦ æķ¦
ä¹ Ļ
9 0
åŃ¦ èĢħ
å¤§ æĪĺ
æµ ¦
æģ¢ å¤į
åºĶ çĶ¨
å¸Į èħĬ
ä¸ī åįģ
æĶ¹ éĿ©
çļĦ ä¸»
åį ĸ
æ¯į äº²
è§ ¦
9 æĹ¥
èº« ä»½
çº ¸
å¯ ¿
u m
çļĦ ,
3 6
éĥ¨ éĹ¨
èŃ¦ å¯Ł
æİĴ åĲį
ç¬ Ķ
å±± ä¸ľ
è± ª
åĽ °
æ® ĭ
é£ŀ æľº
i m
åĪ¶ åº¦
åī Ĥ
ä¸Ģ ä½į
éĿĴ å¹´
ä¸į èĥ½
èİ İ
è ķ
è¡¨ç¤º ,
ä¿ ĥ
, äº¦
çĤ¹ .
ä¸ĭ è¾ĸ
è¯Ħ è®º
è¿Ľ å£«
ç² ī
æĽ¾ ç»ı
æľĢ å¤§
âĢ ¦
æĬķ èµĦ
,ä¹Ł æĺ¯
èĦ ļ
éĢ Ŀ
é«ĺ éĢŁ
ç½ĳ ç»ľ
i r
å¤ı åŃ£
o t
è£ Ĥ
è®° è½½
æ¡ £
æ¥ ļ
æµ ª
èµ ı
æ¢ ¦
å°Ĩ åħ¶
å¯¼ æ¼Ķ
3 8
åĮĸ åŃ¦
æ² ī
èµĦ æł¼
éĽ ¶
( A
å¤© æ´¥
o d
å¹¿ å·ŀ
æĺ Ń
äº ¨
ãĢį ãĢģ
æŁ ±
æĭ Ł
å¾Ī å¤ļ
åģ ¶
åĨ Ī
å° Ĭ
çĶµè§Ĩ åı°
å¸® åĬ©
åįļ å£«
éĤ Ģ
çļĦ æĸ°
çĽ Ĳ
200 7å¹´
å¼ ±
éģĵ ,
éķ¿ ãĢģ
è® ·
çĸ Ĩ
åı «
ç¬¬ äºĶ
éĻ ·
, çİ°
åħ¨ éĥ¨
åĪĨ åŃĲ
å´ ĩ
æģ ĭ
ä» Ļ
æ¶ ħ
çĭ ±
ç Ĵ
è¯ Ĭ
at ion
3 7
ç±³ .
ç¾¤ å²Ľ
äºİ 18
éĿ Ļ
å¥¥ æŀĹ
ä»» åĳ½
, ä¸¤
éĻĨ åĨĽ
åĨľ ä¸ļ
æĿĤ å¿Ĺ
æ± Ĺ
ç» ķ
åŁº çĿ£
é ¤Ĳ
I n
çļĦ çī¹
ä¸į ä¼ļ
åħ¬ å°º
. æł¹æį®
æķ´ ä¸ª
åĲį åŃĹ
è£ Ķ
v e
åĲ ķ
ç®Ģ ç§°
çĶ· æĢ§
ãĢĭ ä¸Ń
ç«ĭ æ³ķ
æ¶ ²
è ļ
å¤ļ æ¬¡
ç¥ Ń
é¢Ĩ åŁŁ
èµ¢ å¾Ĺ
. å¥¹
å»º è®®
åıĬ åħ¶
è´Ŀ å°Ķ
ä½ľ å®¶
é¼ ĵ
ç¬¬äºĮ æ¬¡
ä¾ ¯
( M
æ ©
è¿ŀ ç»Ń
æĿĳ ãĢģ
åĪĨ æŀĲ
è¡¨ æ¼Ķ
çĸ ¾
ä¼ ´
ä¼ Ł
åįĹ äº¬
i a
ä»ĸä»¬ çļĦ
éĶ¦æłĩ èµĽ
åĲĮ æł·
èĻ ĳ
å¹¿ åľº
åĮħæĭ¬ :
å¥¥æŀĹ åĮ¹
æĢ» äººåı£
ç»ı å¸¸
åĩº çļĦ
(, )æĺ¯
åħ¬éĩĮ ,
åĪĻ æĺ¯
ä¸ ĺ
åĽĽ å·Ŀ
åĮº ä¸º
åħĪ åĲİ
åıĳ å°Ħ
ä¸Ń éĥ¨
äºī è®®
5 00
åĩ ¤
6 .
( S
å¹ ħ
åľ° ä¸ĭ
é¢ ľ
éĥ Ń
åŃĲ .
åľ° çĲĥ
æĭ Ĩ
çī §
çŃī äºº
éĢŁ åº¦
æĪª èĩ³
è®° å½ķ
è®¾ å¤ĩ
é© ¶
ç¦ı å»º
äºº ä»¬
ç»´ å°Ķ
æĲ Ń
åĩº ä»»
ä¿Ŀ æĮģ
åľ°åĮº çļĦ
æĿ¡ ä»¶
å¼ķ èµ·
æ°´ åŁŁ
5 .
200 6å¹´
ç» ª
æĭī æĸ¯
.19 7
çľģ çļĦä¸Ģä¸ªå¸Ĥéķĩ
è§Ħ åĪĴ
æĹ¥ åĨĽ
ä¼Ĭ æĸ¯
æŁ ¯
æ²³ åįĹ
åıĤ èµĽ
ä¿¡ æģ¯
, ä¸»è¦ģ
éģŃ åĪ°
å¹³ åı°
å±ħ ä½ı
çľģ ãĢģ
å¤ı ä»¤
å¤ļ çļĦ
è¯¥ åľ°
é£ŀ è¡Į
U TC
åĤ ¨
ç»Ł è®¡
è¢Ń åĩ»
åĨħ éĥ¨
çĽ¸ å¯¹
å¹¿ æ³Ľ
èĻ «
çī© çĲĨ
è¿ĩ åİ»
æķĻ åłĤ
å®ĺ åĳĺ
, å¥¹
è¶Ĭ åįĹ
( æĪĸ
S T
èĩ³ ä»Ĭ
ä¸Ģ æŃ¥
æĪĺ å½¹
200 5å¹´
æĭĴ ç»Ŀ
èĶ ¡
æĸ¯ ç§ĳ
å¤ļ ä¸ª
æ£ Ĵ
èĭ± æĸĩ
è´¸ æĺĵ
åħ ģ
è§ Ī
æłĸ æģ¯
çĵ¦ å°Ķ
å¥¥æŀĹåĮ¹ åħĭ
åŁİ åĮº
èĲ Ħ
æ¯Ķ äºļ
èĳ¡ èĲĦ
åŃĲ ,
å¹ ¸
æĺİ æľĿ
ç³ ĸ
åĦ¿ ç«¥
a g
æµģ è¡Į
åľ¨ ãĢĬ
æľĢ æĹ©
æľĪ1 æĹ¥,
åĩ ½
å¡ŀ å°Ķ
ç§ ¦
æ· ¡
åıĸ ä»£
æľĪ2 1
æĹ ģ
é¢ĳ éģĵ
æ¼« çĶ»
()æĺ¯ä½įäºİ ç¾İåĽ½
é¥° æ¼Ķ
éĻ ¶
è¿ Ŀ
ç¾İ æ´²
æľª èĥ½
æ³¢ åħ°
ç»ı åİĨ
è¡Ĺ éģĵ
æ± ¤
ç¢ ĳ
çļĦ ä¸»è¦ģ
æľĪ2 2
åĩł ä¹İ
æĮ ĳ
å·´ é»İ
æ¦Ĥ å¿µ
èĻ ļ
ãĢģ å¤§
é ŀ
å®ŀ çİ°
æĮ ¯
), æĺ¯
âĢĿ (
ç½ĳ ç«Ļ
å¤Ħ äºİ
æľĢ å¤§çļĦ
å·¦ åı³
é¾ Ħ
çĦ¶ åĲİ
è®° èĢħ
å¹´( 15
å®ŀ æĸ½
åįı åĬ©
å® ¿
åĩı å°ĳ
æĶ¹ åıĺ
èİ·å¾Ĺ äºĨ
è§Ĩ ä¸º
,èĢĮ ä¸Ķ
è· ĳ
ä¾ į
è¿ Ī
æ® Ĭ
) ä¸º
è½¦ è¾Ĩ
èĳ ¬
åľ° éĵģ
ä¼ ¸
éķ¿ æľŁ
å±ķ å¼Ģ
çĨ Ļ
åĪĨ ç±»
çļĩ å¸Ŀ
æĢ§ .
è¿Ĳ è¾ĵ
æĺ Ĩ
ç§ĳ æĬĢ
å¤§ éĥ¨åĪĨ
èĭ± æł¼åħ°
åĩºçĶŁ äºİ
éķ¿ çļĦ
å½± çīĩ
ç±» åŀĭ
, æķħ
o p
ä¼ļ åľ¨
ä¹ ĥ
èĮ ¶
çĬ¶ æĢģ
çļĦæĹ¶ åĮºä¸º
æ¯Ķ è¾ĥ
éģ į
ç¬¬ ä¸Ģä¸ª
ç»ı èĲ¥
åįł é¢Ĩ
åİ¿ çļĦ
åī§ æĥħ
æ¾³ éĹ¨
çº¿ çļĦ
æĬķ ç¥¨
ç»§ æī¿
å® ħ
ä½ľ æĪĺ
çĥ §
åĽ½ çļĦ
ä¼ļ .
æ²» çĸĹ
æŃ¦ åĻ¨
éĻĲ åĪ¶
3 4
7 .
åįģ ä¸Ģ
b r
ä¸ļ åĬ¡
åŁº äºİ
è¯´ ,
èį· åħ°
çŃ ¹
8 æĹ¥,
è§£ åĨ³
çº ¯
å¤© ä¸»æķĻ
çĩ ĥ
èĪ° éĺŁ
å¨ģ å»ī
è½ °
% çļĦ
åĴĮ å¹³
å¦ ®
éĶ ®
å®£ ä¼ł
l i
çº¿ è·¯
åĭ ĭ
.æŃ¤ å¤ĸ,
çı į
S E
çģ ¯
åľŁ åľ°
åİ ¦
åĩĨ å¤ĩ
u b
ç´ ¯
éĽ ķ
å² Ń
åĿ Ľ
èµĦ æºĲ
T he
è¾ ½
éļ Ĳ
æĬ ĺ
çļĦ æķ°æį®
.19 3
åĭ ĩ
3 9
åĩº äºĨ
è¡ ¡
UTC -
s e
ä½ĵ çļĦ
. åĲĮ
a y
æĸ¹ æ¡Ī
èı ľ
æĿ¥ æºĲ
ç»Ł ä¸Ģ
è¯Ħ ä»·
, ä¸ŃåĽ½
çĤ İ
è¯ķ åĽ¾
é½ ¿
æ¸ħ æľĿ
äºº ãĢģ
çĶµè§Ĩ åī§
,ä½įäºİ è¯¥åĽ½
å³ ¡
æ±½ è½¦
åİŁ æľ¬
I I
æ¾³ å¤§
å¤§ çº¦
å®ĥ ä»¬
åĮº ãĢģ
æĸ¯ çļĦ
åħ´ å»º
åŃ Ł
åħĦ å¼Ł
çļĦ æĥħåĨµ
éĵģ éģĵ
éĢī æīĭ
äºº åľ¨
çł´ åĿı
ãĢįãĢģ ãĢĮ
éģ £
.è¿Ļ äºĽ
é©¬æĿ¥ è¥¿äºļ
åįı è®®
ç£ ģ
æīĢ åľ¨
èĲ §
éĤ® æĶ¿
7 5
çĲ ³
åĽŀ åĪ°
C h
è½ ´
3 ,
æķ ¬
éļı èĳĹ
åĶ± çīĩ
ä¸º æ¯ı
è¿Ľ ä¸ĢæŃ¥
å£ ģ
åĪĿ æľŁ
çļĦ å½±åĵį
è¿Ĳ è¡Į
. .
4 6
éĹ´ ,
é¥ ®
ä¸» è§Ĵ
æĽ ¹
è ¦
, åıª
æĶ¹ ç¼ĸ
çĬ¹ å¤ª
æħ Ī
ç® Ń
è¿Ľ æĶ»
èĩª åĬ¨
å¹ »
è¡ Ķ
å¨ ±ä¹Ĳ
è¿ĺ æĺ¯
ç²¾ ç¥ŀ
æķ ı
å°ı åŃ¦
èµ ł
ç»´ æĮģ
éĴĪ å¯¹
ä¸Ń æĸĩ
, çĶ±äºİ
è§Ĥ ä¼Ĺ
æ¢ °
åŁº éĩĳ
åľº .
e m
è´ ¤
æ² Ī
åı Ľ
è¿Ľè¡Į äºĨ
åŁİ éķĩ
å¹³æĸ¹åįĥ ç±³,
, å½ĵ
æľº è½¦
18 8
å¤§ æ¥¼
ä¸Ĭ .
çĶŁ äºİ
ç»Ħ åĲĪ
ä» Ķ
æĢ» éĿ¢ç§¯
èĢħ .
è¿Ĳ èĲ¥
è´ ¾
ä¸» é¢ĺ
.19 6
äººåı£ æķ°éĩı
åľ¨ æŃ¤
è¾ Ĳ
ä¸į ä¹ħ
éĶ ĭ
ç¯ ®
çī¹ å¾ģ
çľģ çº§
å§ Ĳ
æŃ£ åľ¨
, åĪĻ
çº ¹
å¤ªå¹³ æ´ĭ
. ãĢĬ
éĥ¨ ä»½
åĬł ä¸Ĭ
å·ŀ çļĦ
èĹ ¤
è¢« è®¤ä¸º
çģ °
äº¤ æĺĵ
o c
v er
éĿ¢ çļĦ
ç©º åĨĽ
ç»¼ åĲĪ
åĨ ¯
å¤§ åŀĭ
è´Łè´£ ç®¡è¾ĸ
åıĮ æĸ¹
éĤ ĵ
ç¡® å®ļ
éĻ ķ
æ¾³å¤§ åĪ©äºļ
9 æĹ¥,
, å°±
, åįĹ
, èĩª
èµ ´
æķĻ ä¼ļ
% .
çŃ Ķ
æľī çļĦ
è§£ éĩĬ
ç¾İåĽ½ äººåı£æĻ®æŁ¥
è¯ģ æĺİ
åĽ¾ ä¹¦
ä»· åĢ¼
è¿Ķ åĽŀ
èĳ£ äºĭ
, æľ¬
,è¿Ļ äºĽ
è¦ Ĩ
åĲį åįķ
åİ ļ
æīĢ å±ŀçļĦ
ä¸º ,
å¾· éĩĮ
æĦŁ æŁĵ
åĪ Ģ
ç¨ĭ åº¦
äºĳ åįĹ
ä» °
3 2
æ³ ³
è° ±
æ¹ĸ åįĹ
æ³ķ åħ°
( P
ä¸» æ¼Ķ
ä½į ,
çļĩ å®¶
æ²³ æµģ
çĥ Ł
åĢ į
å°ı ç»Ħ
çİĭ æľĿ
çļĦ åīį
åħĥ ç´ł
å¼ķ åıĳ
å°Ķ å¾·
å¥³ åĦ¿
åĩ Ń
ä¿Ŀ çķĻ
çº µ
a p
æĹħ æ¸¸
æľ ĭ
æ¨¡ åŀĭ
é¦ĸ éĥ½
åħ¬ åħĥ
å¸¸ è§ģ
åľ°åĮº .
è¶ħ çº§
é ¬
æĺ¯ ä¸Ģç§į
è´¢ æĶ¿
èĴ ĭ
æ² Ł
ä¸´ æĹ¶
äººåı£æķ°éĩı ä¸º
åĩº èº«
çķ ª
åĬł åĿ¡
u t
å¤© æĸĩ
æī¹ åĩĨ
, åħ¨
. åĲĮå¹´
é«ĺ çº§
å¹´( 16
åĨ² çªģ
åĽ½ éĺ²
ç½ ķ
è®¨ è®º
å° ĸ
åĬĽ éĩı
æĺ¯ åĲ¦
ç¬¬ åħŃ
20 ä¸ĸçºª
ä½Ľ æķĻ
åĽ½ ä¼ļ
( E
çĳŀ å£«
åĲĮ æĦı
åĽ½æ°ĳ åħļ
åĽ½ åĨħ
æ¯ı å¹´
éĩįè¦ģ çļĦ
äºĨ ä¸Ģä¸ª
çłĶç©¶ æīĢ
çĶµå½± ãĢĬ
åı ¥
éĿ ĸ
,ä½Ĩ åľ¨
æľº åħ³
3 00
è¶ £
é© ¾
å¹´ è½»
å¤§ èĩ£
æ¡ ĥ
è®® éĻ¢
200 4å¹´
ç»ĵ åĲĪ
çļĦä¸Ģ ç§į
åĩ ¡
, åĲİæĿ¥
äº§ ä¸ļ
å·ŀ å¸Ĥ
è¾ ī
äºĮ ä¸ĸ
è· ³
æĸĩçī© ä¿ĿæĬ¤
,ä¸į è¿ĩ
åĬĽ çļĦ
9 .
æĸ° åĬłåĿ¡
æŁ ´
è¿ ħ
æĽ¾ åľ¨
å¤ĸ çļĦ
, è®©
åİ¿ çļĦä¸Ģä¸ª
æŃ¦ è£ħ
æĹ º
åĽ½ ç«ĭ
æĻ® éĢļ
ä¸Ĭ æĺł
200 0å¹´
ç¼ ĵ
çĨ Ł
8 .
, å½ĵæĹ¶
,å¹¶ äºİ
ä¸ª æľĪ
éĽĨ ä¸Ń
ç§ĺ ä¹¦
å»º æĪĲ
ä¸Ģ å¹´
åŁ Ķ
æ°Ķ åĢĻ
åįģ ä¸ī
, åİŁ
æİ ª
,äºİ æĺ¯
æĸ¯ åŁº
è§£æĶ¾ åĨĽ
, åı¯ä»¥
å¤§ ä½¿
ç¥ ¥
éģ Ĥ
æĺŁ æľŁ
å¥½ çļĦ
æ §
æĶ¶ åħ¥
åıĸ æ¶Ī
ç¼ĸ åı·
äºº æķ°
åľ¨ ç¾İåĽ½
æ½ ĺ
å°Ķ çļĦ
ä¸ĸçķĮ å¤§æĪĺ
æĸĩ ä»¶
æ³ķ .
æĬķ åħ¥
å¿« éĢŁ
æī¿ è®¤
an s
è¥¿ æ´ĭ
åı¯ è¾¾
èŃ¦ æĸ¹
an t
éĿŀ æ´²
( "
æĢ» éĥ¨
å·´ è¥¿
ç»´ äºļ
br &gt;
ãĢģ ãĢģ
èĩ³ å°ĳ
&lt; br&gt;
æł¸ å¿ĥ
. æľ¬
é¹ ¿
å¿ Ĩ
å¤§ å¤ļæķ°
äºĨ .
éļı çĿĢ
æĸĩçī©ä¿ĿæĬ¤ åįķä½į
è ©
6 5
ä» ĵ
æĿ¡ çº¦
4 7
åĭ ¤
é£İ æļ´
åĽ½ åĬ¡
ä¹ ı
èĭ Ĺ
ä¸į æĸŃ
èĥľ åĪ©
è¿Ļ æł·
ä¸į å°ĳ
èī² åĪĹ
æĢ» çĲĨ
èĭ± è¯Ń
æĸ¯ åħĭ
èĳĹ ä½ľ
c e
åŃ Ŀ
åİ Ħ
19 1
ç¼ ħ
åĪĽ ç«ĭ
æ³ Ĭ
åŃĲ çļĦ
éĩį å»º
äºº ,èĢĮ
9 æľĪ2
10 æľĪ2
è© ¹
æĹ¶ ä»»
ç§ Ĵ
ä»İ äºĭ
å¥¥æŀĹåĮ¹åħĭ è¿ĲåĬ¨ä¼ļ
æľª æĿ¥
æľī æķĪ
å¥¥ æĸ¯
è®¿ éĹ®
åĽ¢ éĺŁ
æĶ¿æ²» .
o g
è´ ¯
çĮ İ
çº¦ç¿° Â·
çĹħ æ¯Ĵ
åħ¬ æ°ĳ
è¥¿ çľģ
æ°ĳ ä¼Ĺ
åįĬ å²Ľ
æ±Ł èĭı
ä¸Ģ åº§
çļĦ å¸Ĥéķĩ
èİ ²
ä¸ŃåĽ½ äººæ°ĳ
æĶ¶ å½ķ
æħ ķ
åħģ è®¸
é©¬ åħĭ
å¹´ åº¦
æĴ Ĵ
, ä¹ĭåĲİ
èĳĹ åĲį
3 3
ç ŀ
æµĭ è¯ķ
çīĮ .
èĳ Ľ
è°ĥ æķ´
åĮĸ çļĦ
æĻ ¨
åİ¿ ,
ä¼ ı
ç¨ĭ åºı
çĵ ľ
éĥ½ ä¼ļ
å°ĳ å¹´
ä¹Ĳ åĽ¢
åĢ ¾
18 7
ä¸Ģ ä¸ĸ
æµ· å²¸
, æĽ´
.åħ¶ ä¸Ń
çİĭ åĽ½
èĽĭ çĻ½
10 æľĪ,
ç»ĵ å©ļ
éļ¶ å±ŀäºİ
æĻ ¶
éĥ½ æľī
u l
ç¬¬ ä¸ĥ
çĶµ èĦĳ
åģľ æŃ¢
çĶ¨ æĿ¥
æ¢ ¯
é«ĺ çŃī
ä»¥ ä¸Ĭ
æħ ¢
äºº (
åĵĪ å°Ķ
çĶŁæ¶¯ .
çļĦ çłĶç©¶
èī² ,
am p
éĺ¿æĭī ä¼¯
èĥ ģ
æİ¥ è¿ĳ
ä¸ĭ åįĪ
èĢĥ èĻĳ
è¡ĮæĶ¿åĮº åĪĴ
å±± èĦī
äºİ 198
( J
è´ º
åĬĽ .
å°¤ åħ¶
æ®ĸ æ°ĳ
åĩ Į
æĢĿ æĥ³
çĶµ åı°
ä¸ŃåĽ½ åħ±äº§åħļ
çĽ´ èĩ³
èĹ ©
åĳ¨ è¾¹
æĸ° å¢ŀ
ä¸Ģ å¸¦
éĤĢ è¯·
æµ ®
å§Ķ ä¼ļ
åĮ» çĸĹ
ä¸į åı¯
åīį ,
èµ· æĿ¥
(), åŃĹ
åħ³ æ³¨
æĸ¹éĿ¢ ,
ä½¿çĶ¨ çļĦ
ç´ «
åįģ åħŃ
ç¡ ķ
é¬ ¼
6 4
å¦Ĥ ä¸ĭ
çĶ³ è¯·
, å¯¼èĩ´
æĥ Ĭ
èħ ¹
in d
åİ¿ .
è§Ĥ å¯Ł
åĿ İ
åįģ äºĶ
æĺİ æĺ¾
åĨį åº¦
ç¥ĸ çĪ¶
æĶ¿ åħļ
5 5
åįģ åĪĨ
çĽ¸ ä¼¼
è¯¾ ç¨ĭ
å¡ ĳ
èĬ Ŀ
ä¹Ķ æ²»
åĮ Ī
æĢ ª
ä¿ Ĭ
åĲĪ çī©
å®ª æ³ķ
äºĭ ,
è¡¨ è¾¾
åħ±æľī äººåı£
åħ¥ ä¾µ
å£« åħµ
ä» ²
å®ī æİĴ
æĴ °
åĲ ¨
èĭ ¦
æ¯ķä¸ļ äºİ
a k
åĬ ±
ç½ ļ
åĪ° è¾¾
äººæ°ĳ æĶ¿åºľ
A T
å¨ģ å°Ķ
3 æľĪ,
å¥ ´
æĶ¯ æı´
ç§» åĬ¨
åŃ¦ æľ¯
æ³ ¥
æĴ ŀ
, è¥¿
ä¸į åĨį
18 6
3 æľĪ2
éĶĢ åĶ®
( B
å± ¿
åĢĻ éĢī
æĿ ī
è·¯ æĺĵ
çĽ Ĺ
% ,
æĭī åħĭ
å·¥ä½ľ .
ç¦ Ħ
0 å¹´,
éĩį çĤ¹
çĶ¨ çļĦ
æĹł çº¿
9 æľĪ,
è¯ ¦
1 æľĪ,
ä¸ §
ä¼Ĭæĸ¯ åħ°
å Ĺ
. æľī
12 æľĪ2
åºĶ è¯¥
çĨ Ĭ
âĢĿ ãĢģ
, ãĢĬ
ãĢĭ åĴĮ
æĹ ¨
è¥¿ åĵ¥
çī¹ çļĦ
, ä¸ľ
8 æľĪ2
ä»¥ èī²åĪĹ
ç¢ į
çļĦæĹ¶ åĢĻ
çİ° è±¡
å¦» åŃĲ
éģĹ åĿĢ
çĹ Ľ
ä¸º æ³ķåĽ½
ä¼ļ ,
çĶ¨ æĪ·
åıĺ æĪĲ
ç² Ĵ
åľ° åĪ©
èī² çļĦ
çĮ ª
å°± è¯»
åı¯èĥ½ æĺ¯
éĩĳ å±ŀ
æĹ§ å¸Ĥéķĩ
6 æľĪ2
æĬµ è¾¾
. åĽłæŃ¤
åįģ åĽĽ
æĿĲ æĸĻ
æĹ© å¹´
é ī
12 æľĪ,
, è¿ĺ
éĤ®æĶ¿ ç¼ĸçłģ
ä¹ ³
æĢ» çĿ£
è´¨ éĩı
éĺ ħ
æıĲ åįĩ
ä¸į æĺİ
çĦ ¦
4 9
æŀĦ æĪĲ
å°ĳ æķ°
åįģ åħ«
åīį çļĦ
èģĮ åĬ¡
a b
åº Ĭ
è· ĥ
çĩ ķ
å®ī è£ħ
æŁ ³
åı· .
ç¨³ å®ļ
8 æľĪ,
åį« æĺŁ
å½ Ń
20 æĹ¥
æ± ¡
äººåı£å¯Ĩåº¦ ä¸ºæ¯ı
é«ĺ çļĦ
éĢĿ ä¸ĸ
å·¥ åİĤ
ar d
æŁĲ äºĽ
æ¯Ķ åĪ©
äºĭ .
30 æĹ¥
å± ı
å¹´ ä»£
æ¡ Ĥ
é Ħ
èĪ Ĵ
çº¿ .
ä½ĵ ç³»
æģĴ æĺŁ
æĬ ļ
çī© è´¨
åĴ ¸
é¡ µ
å¡ ĺ
å»º äºİ
å¤± åİ»
7 æľĪ,
ä»ª å¼ı
åĿ Ĭ
ä½ĵ .
SE E
å¥¥ åľ°åĪ©
éī ´
200 3å¹´
éĻĨ åľ°
äºİ19 7
åĩ½ æķ°
äºº /
åĩº åı£
ç¤¾ åĮº
çĶ ¸
ç§ĳ çļĦ
åĪĽ åĬŀ
ãĢģ (
æİ ī
éĶ ģ
çĤ¹ ,
éĺŁ çļĦ
å¢¨ è¥¿åĵ¥
æĸ¹ çļĦ
å»º åĪ¶
èĢħ ,
ä½¿ å¾Ĺ
,ä½įäºİ æ³ķåĽ½
åĲ ĥ
æľĭ åıĭ
è° ĵ
æĲ ľ
æĵį ä½ľ
æİ¥å£¤ çļĦå¸Ĥéķĩ
è¯ ļ
æĸ ĳ
æĸĩ ç«ł
éģĵ .
èĲ¨ åħĭ
IN SEE
äºĭ ä¸ļ
æĦı è¯Ĩ
æĻ® éģį
å¤« Â·
æ°§ åĮĸ
, âĢľ
çº ¬
ç ĺ
çļĦ å°ı
ç§» æ°ĳ
6 æľĪ,
æ¯ı å¹³æĸ¹åħ¬éĩĮ
ç¿» è¯ĳ
4 æľĪ2
å¨ģ èĥģ
æ¯ı ä¸ª
å¾Ĺ ä»¥
èĤ ĥ
å°ļ æľª
åĬŀåħ¬ å®¤
4 æľĪ,
æľĪ1 5æĹ¥
å¹¿ åĳĬ
) åľ¨
7 æľĪ2
åħ¥ åı£
æĹł äºº
æ¡Ī ä»¶
è¯ ŀ
çĶ¨ .
åŀ Ĵ
æĹ ¢
æĮ Ĥ
æľº æ¢°
t o
èĥ ¶
éļ §
å¹³ éĿ¢
11 æľĪ,
æĪĸ èĢħ
( ;
ä¾ĭ ,
çĬ¶ åĨµ
æ¶Ī æģ¯
å¦Ĥ æŃ¤
ä¼ļ çļĦ
éģĹ äº§
åı¬ å¼Ģ
4 4
è¡ĮæĶ¿ .
ä¸¤ äºº
äº¤ æµģ
, çĽ´åĪ°
å¾ ª
è¡¨ æĺİ
æĦı ä¹ī
æ°ĳä¸» åħļ
, çĦ¶åĲİ
æĮĳ æĪĺ
200 2å¹´
10 æĹ¥
äºĨ ãĢĬ
å¯¹ æīĭ
æıĲ é«ĺ
, åĨį
, æľĢåĲİ
å¼ ĺ
èģĶåĲĪ åĽ½
çľĭ åĪ°
åĭ ĥ
è¯´ æ³ķ
æķ° åŃĹ
èģĶ ç³»
çķ Ķ
çļĦæķ°æį® ,
æĶ¿æ²»äººçī© .
åĽ¾ä¹¦ é¦Ĩ
æħ §
ç¦ģ æŃ¢
åĮħæĭ¬: .
åħ¥ éĢī
æ´»åĬ¨ .
åħĥ ,
ãĢģ æĿİ
åĮĹ ç¾İ
ä¸į è¶³
èº« ä½ĵ
æłĩ å¿Ĺ
ç¬¬ 1
å¤Ħ çļĦ
çĲĥ åľº
å¹³æĸ¹åħ¬éĩĮ, æµ·æĭĶé«ĺåº¦
åģ¥ åº·
, ä½ĵ
æĭ ĵ
å² ³
å¸ĥ æĭī
åĪĽ éĢł
å± ¯
èĳ¡èĲĦ çīĻ
å®¶ ãĢģ
ç¥ Ŀ
ç±³ å°Ķ
è¢ ĸ
åıĳ çĶµ
ä½¿çĶ¨ .
åľŁ èĢ³
ä¹ ¾
çº ·
éĩĮ ,
( D
ä¸¤ ç§į
æ£® æŀĹ
æĹ¶ ).
æĪ Ĵ
äººåı£å¯Ĩåº¦ æ¯ıå¹³æĸ¹åħ¬éĩĮ
åľŁèĢ³ åħ¶
n e
åŃĹ æ¯į
æį Ĳ
æ° ¢
i e
ç® ±
èĩªæ²» åĮº
å¤± è´¥
. åĲİæĿ¥
. èĻ½çĦ¶
å¹´ )
å¸Ĥéķĩ ç¼ĸçłģ
ä¸º, INSEE
éĤ®æĶ¿ç¼ĸçłģ ä¸º,INSEE
å¸Ĥéķĩç¼ĸçłģ ä¸º.
éĤ®æĶ¿ç¼ĸçłģä¸º,INSEE å¸Ĥéķĩç¼ĸçłģä¸º.
äººåı£æķ°éĩıä¸º äºº.
5 æľĪ,
ãĢ İ
çī¹ æ®Ĭ
åĮ» åŃ¦
åŁİåĮº )
ãĢ ı
åħ ½
çĳŀ åħ¸
çļĦ é¦ĸ
åį ĳ
äºİ æĹ¶çļĦ
å®¶ .
() éĿ¢ç§¯
äºİæĹ¶çļĦ äººåı£æķ°éĩıä¸ºäºº.
ç±³ çļĦ
åĪĹ ä¸º
æ£ ĭ
ä¸Ģ åĲĮ
, åĪĨåĪ«
å¤ıä»¤ æĹ¶).
çļĦæĹ¶åĮºä¸º ãĢģ(
äººåı£å¯Ĩåº¦ä¸ºæ¯ı å¹³æĸ¹åįĥç±³
çļĦæĹ¶åĮºä¸ºãĢģ( å¤ıä»¤æĹ¶).
åĲĮ ä¸Ģ
æĻ ĵ
å½ĵåľ° åħ±æľīäººåı£
äºº,èĢĮ äººåı£å¯Ĩåº¦ä¸ºæ¯ıå¹³æĸ¹åįĥç±³
çĶŁ åĳ½
åİ¿ ãĢģ
æ²³ åĮĹ
äºº å¤§
åľ ³
èĩª è¡Į
åį ¿
æµ ħ
ä¸ľ è¥¿
ãĢģ åŁİåĮº)
é«ĺ ä¸Ń
å»¶ ä¼¸
(æĪĸ æĹ§å¸Ĥéķĩ
æİ¥å£¤çļĦå¸Ĥéķĩ (æĪĸæĹ§å¸Ĥéķĩ
ãĢģåŁİåĮº) åĮħæĭ¬:.
æİ¥å£¤çļĦå¸Ĥéķĩ(æĪĸæĹ§å¸Ĥéķĩ ãĢģåŁİåĮº)åĮħæĭ¬:.
å¼º è°ĥ
,è¿Ļ æĺ¯
éħĴ åºĹ
çľģ ,è¯¥
çľģçº§ éĢīåĮº
æīĢå±ŀçļĦ çľģçº§éĢīåĮº
çľģ,è¯¥ çľģä»½
å¸ĥ é²ģ
åį« çĶŁ
å¹¶ æ²¡æľī
çľģ åĴĮ
()éĿ¢ç§¯ ,ä½įäºİæ³ķåĽ½
åĬ¨ åĬĽ
åĲĦ åľ°
ç¼ĸ è¾ĳ
çľģ,è¯¥çľģä»½ ä¸ºæ³ķåĽ½
æīĢå±ŀçļĦçľģçº§éĢīåĮº ä¸º.
æĭī Â·
å¥ĸ é¡¹
. ä¸įè¿ĩ
ä¸Ń å±±
11 æľĪ2
çĽ® çļĦ
éľĢ æ±Ĥ
åĳ½ ä»¤
éģ¿ åħį
6 8
æĬ¥ å¯¼
åıĹ ä¼¤
èĲ¥ è¿Ĳ
ä¼° è®¡
è½° çĤ¸
åıĪ ç§°
ç¼º ä¹ı
æľ¬ åľŁ
è¿ħ éĢŁ
æĹ ¦
åıĳ èµ·
ä¸Ģ å®¶
æµ· åŁŁ
R e
æī °
18 æĹ¥
æĲ ¬
æ³¨ æĦı
æ¬¢ è¿İ
æĶ¿ æĿĥ
éĩĮ çļĦ
ä¸» å¼ł
åİĨåı² ä¸Ĭ
å¹¶ æľª
éĥ Ĭ
åī ©
äºİ19 4
è¾¾ æĪĲ
æĸ¯ å¡Ķ
åĲ¸ å¼ķ
çĹĩ çĬ¶
ä¿¡ åı·
æı Ĵ
é² į
åĸ Ģ
å¤ĸ åĽ½
çŁ¥ éģĵ
è§Ħ åĪĻ
åĽĽ ä¸ª
ä»ĭ ç»į
S A
äºº åĴĮ
å®ī å¾·
ä¹ĺ å®¢
ç¾İåĽ½äººåı£æĻ®æŁ¥ çļĦæķ°æį®,
éĩĳ èŀį
æķĻ ç»ĥ
å¿ĥ çĲĨ
, çĶļèĩ³
æĿ Ĩ
æĴ¤ éĶĢ
çİ »
ä¾ ¦
éľ ¸
ä¸ ²
is t
å°¼ æĸ¯
è´ ŀ
åı¯èĥ½ ä¼ļ
æķ° åŃ¦
éĥ¨ èĲ½
å´ İ
å¸Ĥ çļĦ
ä¹Ł åľ¨
æĽ´ åĲįä¸º
31 æĹ¥
T V
an g
ç¬¬ 2
5 æľĪ2
åĳĺ .
éĵ ¾
ä½ľåĵģ .
æĦŁ åĪ°
- 1
åħ¬ ä¼Ĺ
æ¬ ²
å½¼ å¾Ĺ
èĥ İ
èµĽ .
åħĥ å¹´(
æķĪ åĬĽ
äºº/ å¹³æĸ¹åħ¬éĩĮ
A n
äºĭ å®ŀ
4 00
çĶŁ éķ¿
å°Ķ åħ°
æķĻ å¸Ī
ä» ¿
ç«Ļ .
éĩĩ åıĸ
æİ¨ åĬ¨
,èĢĮ æĺ¯
æķĻ åŃ¦
es t
æµ ĵ
è ¹
åįĹ åĮĹ
èĳĹ åĲįçļĦ
å¤§ è¥¿æ´ĭ
èµĦ è®¯
è´Ń ä¹°
ä¿¡ ä»°
æī§ å¯¼
æŀ ¢
é¼ ł
ä¸Ńåħ± ä¸Ńå¤®
æĸ¯ èĴĤ
çļĦä¸Ģ åº§
( å¦Ĥ
è¯ ¢
çļĦ æĸ¹å¼ı
ä¼ Ļ
ç¥ŀ ç»ı
åľ¨ 199
å½ »
èĽ ĩ
åį ĵ
æĶ¾ å¼ĥ
4 ,
åŁº åľ°
çİ° åľº
çļĦ éĤ®æĶ¿ç¼ĸçłģä¸º,INSEEå¸Ĥéķĩç¼ĸçłģä¸º.
æĬ¥ éģĵ
12 æĹ¥
ä¹ĭä¸Ģ ,
æĴŃ æĶ¾
19 æĹ¥
éĩį åºĨ
åĵģ çīĮ
åı¦ å¤ĸ,
çļĦ åĲĮ
2 æľĪ2
åįģ åŃĹ
âĢĿãĢģ âĢľ
å¤§ éģĵ
æ³ķ æ¡Ī
. ä¸İ
æĺ¯ âĢľ
ç¨ĭ å¼ı
åıĤ èĢĥ
çļĦ ç¬¬ä¸Ģ
è´¡ çĮ®
æĭ ³
ç½ĳ è·¯
åĩº æĪĺ
æīĵ åĩ»
åĳ½ åĲį
å£ ®
èĭ± éĽĦ
å®¹ æĺĵ
) ;
ç±³ (åį³
. åĲİ
11 æĹ¥
ç¬ ĳ
åİ ĺ
åĨĽ çļĦ
æ³° åĽ½
åįĹ æŀģ
ç§¯ æŀģ
æĵ İ
æĬĹ è®®
åĸľ æ¬¢
åĽ½åĬ¡ éĻ¢
ä¸Ģ åº¦
æı Ń
åī ²
äºĭ æķħ
, éĿ¢ç§¯
ä¸Ģ æĿ¡
å¥ĸ .
ä¹Ŀ é¾Ļ
å¤º å¾Ĺ
çī ł
è¯ģ æį®
äºİ19 6
æĢ§ è´¨
æİ¥ è§¦
äº Ń
éĺŁ ä¼į
N A
æ´ Ĺ
åį ľ
è£ħ çĶ²
æī ®
å° Ŀ
èµ Ĳ
. ä»İ
å¤ļ ç§į
çŁ¥ è¯Ĩ
å±Ĭ åħ¨åĽ½
åį¡ å°Ķ
èĤ º
. æį®
äºİ19 5
çĶŁ æĢģ
å¼º çĥĪ
æ¹ĸ åĮĹ
çª Ĺ
èĬ ³
æĮ ª
å®ī å¾½
å±ķ ç¤º
2 æľĪ,
çĸ ı
å¤į æĿĤ
èĢĮ è¢«
æ¶ī åıĬ
æĽ´ å¤ļ
æľ¬ èº«
ä¸ĸçķĮ æĿ¯
çł ²
å®Į æķ´
èı² å¾ĭ
æĿĥ åĬĽ
çļĦ åİŁ
éĩĮ äºļ
èı²å¾ĭ å®¾
äºº å·¥
æĿ Ń
è¥¿ æĸ¹
å¸Ĥ åĮº
åĪĿ ,
ç§°ä¸º ãĢĮ
çŃī ,
ç»´ å¥ĩ
èģĮ .
ç¾½ æ¯Ľ
çİ Ħ
ä¸ĩ ç¾İåħĥ
åħ¬ ä¸»
çĪ± å°Ķåħ°
è´ «
èį¯ çī©
æĬ ¢
åħ¶ å®ĥ
ç¾İ æľ¯
åħī ç»ª
.ä»ĸ åľ¨
, èİ·å¾Ĺ
ä¸į å¾Ĺ
èĢĮ æĪĲ
,ä»İ èĢĮ
æĺ¯ ãĢĮ
æĸĩ çĮ®
æĿĳ åºĦ
æĦı è§ģ
è± Ĩ
éĢ Ĵ
å¤© ,
ä¸ī å¹´
æĿ¥ ,
éĵ º
5 8
ä»Ģ ä¹Ī
å²ģ .
1 æľĪ2
æ¸ Ķ
å¸Ĥ æ°ĳ
å¼ķ æĵİ
éĢ Ĩ
åĨħ éĺģ
in e
åŁĥ åıĬ
å½±åĵį .
å£ ³
æĿĥ åĪ©
æĹħ å®¢
å« Į
è´ ´
é«ĺ éĽĦ
çļĦ éĩįè¦ģ
åŃ¦ ä½į
æ¹ ¿
t e
æĬ ½
é¢Ĩ åľŁ
çĬ ¬
å®¢ è¿Ĳ
çĪ¶ æ¯į
ç®Ģ åįķ
çļĦ æµ·
å¾ĭ å¸Ī
æº ¶
æİĪ äºĪ
æİª æĸ½
è¡¨ éĿ¢
æĭī ä¸ģ
éĽ ĩ
æľº ä¼ļ
çĮ «
æľĢåĲİ ä¸Ģ
ç®Ģ ä»ĭ
æ°ĳ éĹ´
å¦ ĥ
ä¹¾ éļĨ
åĴĮ åħ¶ä»ĸ
éķ¿ åº¦
èŀ º
èĤ¡ ä»½
, ä»ħ
æķĪ æŀľ
çŃ¾ ç½²
èģ ĺ
è±¡ å¾ģ
å¯ Ħ
ç² ®
åıĳ åĶ®
èį£ èªī
æĸ¯ æĭī
åľ° éľĩ
ä¼ł è¯´
è½¦ç«Ļ .
å° ī
éĻį ä½İ
; èĢĮ
å£° ç§°
o b
é£ ĵ
æ·± åľ³
æĤ ¬
å½¢ è±¡
åħĭ ç½Ĺ
l y
äºļ åİĨ
ç¡® è®¤
ç¡® è¯Ĭ
4 2
ä¹Ł è¢«
å¦Ĥ ä½ķ
å· §
åĽł ç´ł
æĿ¥ åĪ°
åħ¨ éĿ¢
æ°´ å¹³
ç¢ ³
æĮī çħ§
çĬ¯ ç½ª
åĨłåĨĽ .
é£ĵ é£İ
çĽ ¾
åıĳ åĩº
å·ŀ ãĢģ
çĪĨ çĤ¸
åı Ķ
è¿ Ł
æľĪ1 6æĹ¥
å°ı çļĦ
é¢Ĩ è¢ĸ
åĮ» çĶŁ
ç«ŀ äºī
è¢ ģ
è¯´ :âĢľ
çĶŁæ´» .
çħ ¤
t w
æĹ¶æľŁ ,
æľī æīĢ
åĩºçİ° åľ¨
å®¶ ,
å·® å¼Ĥ
åŃ¦ ä¼ļ
ä¼ł æĴŃ
( H
è·¯ ãĢģ
ç¨ ¿
åħĥ .
å® ı
æ´ ģ
ä¸ĵ éĹ¨
æľĪ1 7æĹ¥
6 7
ä¸ Ī
æĸ ľ
ä¸ĭ .
æĸĩ åŃĹ
ä¼Ĭ æľĹ
åıĻ åĪ©äºļ
åĨĽ .
ç¾ Ĭ
åı¤ ä»£
æ°Ķ è±¡
ä¸ Ļ
å·¥ åħ·
ä¹¡ è¯ķ
åŁºçĿ£ æķĻ
O S
æĿ¥ .
: 00
åĲİ æľŁ
æ¯« ç±³
èµĦ éĩĳ
Â °
åı° åįĹ
éļ§ éģĵ
, ä¸Ĭ
= "
æĪı åī§
çī µ
èĨ ľ
èħ ¾
å½ĵæĹ¶ çļĦ
é«ĺ äºİ
èµ· æºĲ
æĬ ¼
å° ¸
åıª æĺ¯
å°ļ ä¹¦
. ä»ĸä»¬
æ²³ çķĶ
æįŁ å¤±
æľĪ22 æĹ¥
ï ½
çļĦ åľ°æĸ¹
åĨ Ĵ
ä»¥ ãĢĮ
å¡ «
ç»Ļ äºĪ
åıª èĥ½
è¾¹ çķĮ
åı°åĮĹ å¸Ĥ
é³į é±¼
, åĪĨå¸ĥäºİ
ãĢģ å¼ł
å¸Ī èĮĥ
çĸ¾ çĹħ
è¾ ©
ä¸º ä¸Ģ
çĽ¸ æ¯Ķ
åĿ¦ åħĭ
ä¸į æ»¡
è®¤ä¸º ,
éĹ®é¢ĺ .
ç»ı éªĮ
å°Ķ çī¹
éĿ¢ å¯¹
çĲĨ äºĭ
è¡ į
å¹¶ éĿŀ
18 5
( G
, æĶ¹
1 -
o k
å¥ ĳ
è£ ķ
éĴ ¦
B C
( L
a v
ä½ľ æĽ²
äº¨ åĪ©
ä» ĳ
è¡ °
å§ »
ä¸ľ åĮĹéĥ¨
åĩº å¸Ń
, åį´
æ° Ł
ç½ ¢
æľ¬ ç«Ļ
è¸ ª
åĪĹ è¡¨
éĢĢ å½¹
å·¡ åĽŀ
æľĪ1 4æĹ¥
å²ģ çļĦ
åĪĽ å»º
é¸ ¡
æĺİ æ²»
çĻ» éĻĨ
æĢ§ åĪ«
æĪĲä¸º äºĨ
, çĽ®åīį
èĮ Ĥ
ä½ı å®ħ
ç®Ģä»ĭ .
9 9
è ²
çĲ ī
( T
, 199
ãĢĭ çŃī
åľ° éĿ¢
åŃ© åŃĲ
åĪĹ åħ¥
åĽŀ åºĶ
åħĭ èİ±
æľĪ21 æĹ¥
åİ¿ äºº,
å® Ļ
ç«Ļ åı°
åı¸ æ³ķ
çİĩ é¢Ĩ
è´µ æĹı
èĪŀ åı°
åĩł ä¸ª
è½¬ ç§»
ç¤¾ä¼ļ ä¸»ä¹ī
, è®¤ä¸º
å¦ Ī
å®ŀ è¡Į
å£° æĺİ
åĨ¬ åŃ£
åŁº åĽł
ä¸¾è¡Į çļĦ
ç² ¹
æĪĺ åĲİ
èĭ± å°º
çĶµ è½¦
ç§į æĹı
æ¾³ æ´²
èµĦæĸĻ .
æµ· æ´ĭ
èĤ ¥
å¨ľ Â·
çļĦ é«ĺ
äºİ æĺ¯
å°ı åŀĭ
çº¦ ä¸º
åıĤ è°ĭ
åĸ ·
åħ³ éĹŃ
æĽ´ åĬł
ç¬¬ åħ«
åĳ½ åĲįä¸º
èį Ĵ
æµģ åŁŁ
åĥ §
, èĩ³
3 ä¸ª
ä¸ľ æĸ¹
å¤§ ,
æĪĲ æľ¬
Y ou
åįģ ä¸ĥ
7 8
éĺŁ .
è£ħ ç½®
ä¿® æĶ¹
è¾ĥ ä¸º
ãĢģ éĻĪ
) ä¸İ
æ ĩ
éģ µ
çĭ Ħ
ç¤º å¨ģ
åį¢ çĵ¦å°Ķ
A l
ä¸Ģ å®ļ
åľ°åĮº ,
( R
å½¢ æĢģ
çĸ« æĥħ
éĹ´ çļĦ
, åīį
æµ ©
ar t
åıĳè¡Į .
æīį èĥ½
ãĢĭåĴĮ ãĢĬ
åıĺ å¾Ĺ
å·ŀ ,
ç¡ķ å£«
å½ĵ å±Ģ
åıĤåĬł äºĨ
èĬ¬ åħ°
é¸ ¿
å´ Ķ
åħ³ç³» .
çİĽ ä¸½
ç¬¦ åĲĪ
é©± éĢĲ
æĦı æĢĿ
æľĪ1 3æĹ¥
é«ĺéĢŁ åħ¬è·¯
æľº åĻ¨
æµĭ éĩı
h a
é³įé±¼ çº²
ãĢĭ æĺ¯
æŃ£ å¸¸
ãĢģ çİĭ
å¸ ħ
éĢļ è½¦
æĮĩ å®ļ
èİ« æĸ¯ç§ĳ
æĸ° çĸĨ
çļĦ ä¸ī
å² Ĺ
çļĦ åĽ½å®¶
) åıĬ
åı¦ ä¸Ģä¸ª
é¥ Ń
. æĢ»éĿ¢ç§¯
é¡¾ éĹ®
å¼Ģ è®¾
æĥħ æĬ¥
6 6
èĭı æł¼åħ°
, åĴĮ
å¼ ¥
åįģ ä¹Ŀ
ä¸Ń æľī
éħį åĲĪ
é£Ł çī©
æ·· åĲĪ
æĢ Ĵ
èī² .
ç§° âĢľ
æĶ¹ éĢł
æ¶ µ
å§Ķ ä¹¦è®°
æĶ¶ è´Ń
åĵ² åŃ¦
ä¿ ĺ
å¾Ī å¿«
åħ¬åı¸ çļĦ
ä¸ĵè¾ĳ ãĢĬ
è¾Ĳ é³įé±¼çº²
èĢ Ĺ
åľº ,
çģ« ç®Ń
éĻĨåľ° éĿ¢ç§¯ä¸º
9 5
åĪĨ éħį
æ°´åŁŁ éĿ¢ç§¯ä¸º
æ¬ £
æ¶ ¦
u p
), èĢĮ
è¯´ æĺİ
åŃ ¤
ä¹Ł ä¼ļ
æľº .
åĲİ, ä»ĸ
éħį éŁ³
èĢ Ģ
h t
å¼Ģ éĢļ
åĮĪ çīĻ
æŃ ĩ
éķĩ åĮº
è¥¿ èĹı
åıĳçİ° äºĨ
ä½ľ èĢħ
çŁ ¶
çĭ Ĥ
æķ´ ä½ĵ
( N
åĪĨ .
æ³ķ å®ĺ
éĻĦè¿ĳ çļĦ
èµ ¶
å¯¼ å¼¹
è¡ĮæĶ¿åĮºåĪĴ .
æĮª å¨ģ
åĮĪçīĻ åĪ©
es s
8 8
éķ¿ åı¯è¾¾
15 0
åĤ ħ
èĢĮ è¨Ģ
å¯¹ è±¡
ç¥ Ģ
æĥ ¯
è£ħ å¤ĩ
çĭ ®
7å¹´ )
éĻ Ģ
åº· çĨĻ
å¯ ¸
ç¿ Į
ï½ ŀ
æľĪ1 5æĹ¥,
æµ· å¤ĸ
åħĭ æĭī
, åħ±
è¯· æ±Ĥ
æıĲ åĪ°
æĶ¹ åĸĦ
æģĲ æĢ
i k
å¯¹ æŃ¤
çĶ¨ ä½ľ
åĬ¨ ä½ľ
æµ· å³¡
åŀ Ĥ
5å¹´ )
,åħ¶ åĲİ
.è¿Ļ ä¸ª
æĪĺ çķ¥
ç¥¨ æĪ¿
amp ;
å½ĵä¸Ń éĻĨåľ°éĿ¢ç§¯ä¸º
å¹³æĸ¹åįĥç±³, å½ĵä¸ŃéĻĨåľ°éĿ¢ç§¯ä¸º
& amp;
åľ¨ åħ¶
ä¸Ģ éĥ¨
,èĢĮ æ°´åŁŁéĿ¢ç§¯ä¸º
å¹³æĸ¹åįĥç±³ ,èĢĮæ°´åŁŁéĿ¢ç§¯ä¸º
ç§ĺ å¯Ĩ
ä¸ĭ éĻį
çĶµ åĬĽ
çĹħ ä¾ĭ
ç½Ĺ ä¼¯
èĦ Ĥ
er s
å¤ ·
åİ ¢
æŁ Ķ
ç² ¤
äºļåİĨ å±±
åĬ³ åĬ¨
åľ° çĲĨ
ä¸ľ åįĹéĥ¨
æłĩ ä¸º
æŃ¦ æ±ī
æĤ ī
ç¼ħ çĶ¸
åįİ çĽĽ
çĭ Ĺ
éĤ£ éĩĮ
éĢĢ ä¼ĳ
i p
åľ° ä½į
å®¶ çļĦ
å¸Ĥ éķ¿
äº¦ æľī
ãĢģ åįĹ
å¹¿ä¸ľ çľģ
äºĮ å¹´(
å¸ĥ å°Ķ
åĩº æ¼Ķ
å§ ļ
èµ· ä¹ī
åĽŀ å½Ĵ
æ» ļ
æŃ¥ åħµ
è¦Ĩ çĽĸ
å¼Ģå§ĭ ,
ç¼ĸ åī§
ç¢ İ
éĢ ¢
è§Ĥ æµĭ
ç§ģ äºº
æľĢ è¿ĳ
å°Ĩ ä¼ļ
çĮ Ľ
,ä½¿ å¾Ĺ
æī¾ åĪ°
, åı·
, éļıåĲİ
åľ¨ æĹ¥æľ¬
æ¯Ķ ä¾ĭ
4å¹´ )
u e
åľ° åĽ¾
B A
çĲĥ ä¼ļ
æ·± åº¦
åľº æ¯ĶèµĽ
çģ Į
.ä½Ĩ æĺ¯
æİ¨ è¿Ľ
åįİçĽĽ é¡¿
.ä»ĸ æĽ¾
é¢Ħ è®¡
å½ °
ä»» èģĮ
èĬ Ĵ
åĲĪ çº¦
åħ´ è¶£
æĳ ĩ
å®ŀéĻħ ä¸Ĭ
åĪ ¸
æľī ä¸Ģä¸ª
ä¸ĩ äºº
çľŁ æŃ£
ç»ı åħ¸
éĥ¨ çļĦ
ç¬¬ 5
å¹¿ è¥¿
è¯ķ éªĮ
åº ŀ
ç»Ħ å»º
åĳ¨ åĽ´
åĨħ ,
éĩį å¤§
é£İ éĻ©
æºĲ èĩª
å°Ŀ è¯ķ
ä¿Ŀ åŃĺ
å®ĥ çļĦ
åĬł çĽŁ
å¼ķ åħ¥
æĬķ éĻį
éĺ² å¾¡
å¾¡ åı²
æłĸæģ¯ åľ¨
ow s
å¹¶ åħ¥
æ» ©
èĬ± åĽŃ
æĿĢ æŃ»
i f
ç¬ ¼
å¹¶ ä¸Ķ
å» Ĭ
, ãĢĮ
ä¼ ª
åĳ İ
çĶŁ çļĦ
ç¬¬ 3
ç¾İ åĨĽ
åģ ·
å²Ľ å±¿
åĪ¶ çļĦ
åĮĹäº¬ å¸Ĥ
âĢ¦ âĢ¦
éĺ ª
å¸¦ æĿ¥
æľī æĹ¶
, åĲĳ
10 æĹ¥,
èį Ĳ
éļı åį³
å¹´ éĹ´
æľĢ å¤ļ
ä¸Ĭ åįĪ
å¥ İ
åĬŀ äºĭ
è´£ ä»»
è©¹ å§Ĩ
ä»£è¡¨ å¤§ä¼ļ
éĢ »
èĤ ĸ
.ä»ĸ çļĦ
å£° éŁ³
ä¸º æŃ¢
éħ ¶
å¤Ħ .
å¹´ é¾Ħ
è®º æĸĩ
çĶ¨ éĢĶ
éĩĮ æĸ¯
,å¹¶ å°Ĩ
åİĭ åĬĽ
çı Ĭ
ä¾ ł
è¿Ļ æĺ¯
3å¹´ )
æ¸© åº¦
è®² è¿°
åĲ ¾
Â· éĺ¿
äº¿ ç¾İåħĥ
çħ§ çīĩ
çļĦ ä¸Ń
çļĦ æĹ¶éĹ´
æľī äºº
æŀ Ŀ
è¿Ĳ ä½ľ
ä¿ĥ è¿Ľ
ä»£ çłģ
åľ¨ è¿Ļ
ä¼ĺ åĬ¿
W ind
å¤§ è§Ħæ¨¡
å¾Ĺ çŁ¥
æĮĩ å¯¼
è½¯ ä»¶
è§£ æķ£
è¢«è®¤ä¸º æĺ¯
åĲĮ çĽŁ
æĢ§ ,
æ¹ ĺ
ç¿ ģ
è°Ī åĪ¤
çĴ ĥ
èµ ĭ
éļľ ç¢į
, éķ¿
åĲį ä¹ī
; -
18 0
å¨ ĥ
åĵ¥ ä¼¦
å¤ıåŃ£ å¥¥æŀĹåĮ¹åħĭè¿ĲåĬ¨ä¼ļ
å¤ļ å¹´
ä¸ŃåĽ½äººæ°ĳ è§£æĶ¾åĨĽ
æŀĦ éĢł
éĺ Ķ
èĥ ¸
å·ŀ .
çº¢ èī²
éļ¾ ä»¥
4 3
å¼ ¦
æģĲæĢ ĸ
çļĦ ä¸¤
æĮĩ æİ§
éŃ Ĥ
åį µ
æľī äºĽ
æł ı
äºĨ è§£
A R
ä¸ĩ åİĨ
A M
- zh-h
ä» ĩ
ic e
,å¦Ĥ æŀľ
çŁ¥ åĲį
9 8
ä¸Ĭæµ· å¸Ĥ
el l
åİĨ ä»»
åĲ Ĳ
ä¹ĭ å¤ĸ,
B S
æ±Ł è¥¿
I C
g e
æľ ´
åıĳå±ķ .
é©¾ é©¶
éĤ£ äºĽ
åĲ ı
ä¸ī è§Ĵ
è¯Ń çļĦ
éĩı çļĦ
åı ł
æ· ĺ
ç½ĳ çĲĥ
æĹĹ ä¸ĭ
( ).
7 6
éĤ ¨
20 æĹ¥,
æ³¨ åĨĮ
å©ļ å§»
ä¸Ģ é¢Ĺ
, æĢ»
æĪĸ æĺ¯
.è¿Ļ ç§į
å®ĩ å®Ļ
æī® æ¼Ķ
åħ¬ åĪĨ,
åı° ä¸Ń
å± ł
åĮĸ çŁ³
åĬł å¼º
æĳĦ å½±
ç¡ «
é©¬ æĭī
ãĢģ ä¸Ń
èħ Ĳ
éĶĻ è¯¯
ä¸ī å¹´(
é©¬ å°Ķ
æĲ º
æ¼ĶåĶ± ä¼ļ
èĪ ±
åı° é£İ
åĩº .
æķĻ åĮº
æ·¡ æ°´
s p
6å¹´ )
å½ ¦
å¤ª ç©º
ç³»ç»Ł çļĦ
è¥¿ åįĹéĥ¨
æŁı æŀĹ
b o
åħĭ çļĦ
èĦ Ĭ
æľį å½¹
åĲĪ æĪĲ
éĻĨ ç»Ń
éĢ ®
è² Į
æī© å¤§
æĺ¯ æĮĩ
åĺ ´
åĪ¶ .
18 4
é¹ °
åĬł åĪ©
å¹³æĸ¹åħ¬éĩĮ, æĢ»äººåı£
æĿĥ .
å·¥ä½ľ ,
è§Ĥ çĤ¹
çļĦ å±±
æĶ¿ åįı
éļ¶ å±ŀ
ans :
u d
æŃ §
ä½ľ åĩº
èĥĮæĻ¯ .
" )
æĽ¾ ä»»
å¸¦ æľī
æĹ ¬
. èĩª
å°ı æĹ¶,
ç¨ į
åı ī
çĻ½ èī²
çĲĥ åŃ£
äººåı£ ä¸º
ä»· æł¼
éĩĬ æĶ¾
8å¹´ )
æĶ¿åºľ çļĦ
. 8
åľ¨ ä¸ŃåĽ½
ï¼ ı
åĳĪ çİ°
, æĹł
åĨĽ ,
å®ļ å±ħ
,ä»ĸ çļĦ
çĽ¸ ä¿¡
18 æĹ¥,
å¸Ĥ .
ãĢģ æĸ°
30 æĹ¥,
æīĢ å±ŀ
é¦ĸ åħĪ
å¨ ĺ
ä¿Ŀ ç½Ĺ
åĪ ·
ç¿ ł
åħ¼ ä»»
åĽº å®ļ
( F
zh- tw
æİĴ è¡Į
éĹ ½
æģ °
ä¸İ æİ¥å£¤çļĦå¸Ĥéķĩ(æĪĸæĹ§å¸ĤéķĩãĢģåŁİåĮº)åĮħæĭ¬:.
éĺ¶ çº§
è¥¿ åĮĹéĥ¨
æł¡ éķ¿
èĿ ¶
zh-tw :
ct ion
ç¯® çĲĥ
çļĦ åİĨåı²
æ¸¸ æ³³
åĳĺ ,
æı ¡
çĽ¸ äºĴ
åħ³ éĶ®
è¥¿ å®ī
ç«ĭ åį³
åŀĭ çļĦ
4 ä¸ª
7 7
éĢļ è®¯
åįģ å¹´
è®¾ å®ļ
èĸ Ħ
éªĳ å£«
k :
åĿ ª
ä½ı æ°ĳ
çĶŁ .
å¯¹ å¤ĸ
æ¯Ķ å¦Ĥ
æ· »
éªĳ åħµ
å© Ĩ
æĸ¯ æŀĹ
éĽ Ģ
çİ° æĹ¶
å¸¦ é¢Ĩ
éĵ Ń
æĸ¹ è¨Ģ
ä¸Ģ èĩ´
10 00
ä¿® å»º
ä¸° å¯Į
å¿ §
è¶ ĭ
ä¼ĺ ç§Ģ
éĨ Ĵ
ç¬¬äºĮæ¬¡ ä¸ĸçķĮå¤§æĪĺ
, çĦ¶èĢĮ
2 ä¸ª
6 00
å· «
æ· ®
å±ķ è§Ī
al l
. å½ĵæĹ¶
åľ° çĤ¹
åĪ¶ å®ļ
1å¹´ )
åĨħ éĻĨ
ä¾Ľ åºĶ
çľŁ å®ŀ
åĮĸ .
2 -
è¯ ı
éĿŀ å»ºåĪ¶
ç¾½æ¯Ľ çĲĥ
ä¼Ĺ å¤ļ
æĺ¯ ä»¥
æĦı å¿Ĺ
å¤ª åŃĲ
é¸ £
åĬ¿ åĬĽ
è¾ĵ åħ¥
Wind ows
å®¶æĹı .
ä»»åĳ½ ä¸º
ä¸¤ æ¬¡
æĬĹ æĹ¥
çļĦ å¤ĸ
æİ ĺ
en d
åħ· ä½ĵ
,åĮĹ èµ·
æ³ķ ,
åĲĮ æĹ¶,
åį° å°¼
èĩª èº«
å·ŀ åºľ
æľĿ å»·
éĺ ®
å·¥ äºº
ç§°ä¸º âĢľ
å·² è¢«
æ´¾ éģ£
å µ
å¤ļ å°Ķ
å±± è¥¿
æĹ¶æľŁ çļĦ
ç»ĵæŀĦ .
å¾Ģ å¾Ģ
æ£Ģ æµĭ
å§ ¬
å¯» æī¾
ä¸İ åħ¶ä»ĸ
å¯¹ åºĶ
P ro
äºİ19 3
,åĽł èĢĮ
æľº çļĦ
é»Ħ éĩĳ
ä»£è¡¨ åĽ¢
çªģ çł´
é¼ »
æĿ° åħĭ
ç»ĦæĪĲ çļĦ
åľ¨ è¯¥
ä¹Ĳ éĺŁ
ä¹ĭ æĪĺ
ãĢĬ ãĢĭ
çģ« å±±
çĽĳ çĿ£
åĹ £
å¼Ģ å±ķ
æĦ Ī
,æĽ¾ ä»»
æĿī çŁ¶
S p
éĩĳ çīĮ
æ´Ľ æĿīçŁ¶
çĽ¸åħ³ çļĦ
,ä½ĵ éķ¿åı¯è¾¾
æ° ¯
12 æĹ¥,
çĶµ è¯Ŀ
è¿ĩç¨ĭ ä¸Ń
, äººåı£å¯Ĩåº¦æ¯ıå¹³æĸ¹åħ¬éĩĮ
æĸ ¤
è¢« è¿«
æıĲ åĲį
æ³¢ æĸ¯
åĦ Ĵ
çĻ» ä¸Ĭ
ä»¥æĿ¥ ,
åħ Ĩ
èĭ ĳ
çªģ çĦ¶
åĮĹ æµ·
çİ° ä»»
ä¸¹ éº¦
å®ŀéªĮ å®¤
æĺ¯ ä¸ŃåĽ½
ç§° ãĢĮ
èĮ µ
åĽ½å®¶ çļĦ
ä¾Ŀ æį®
åħ¶ åĲİ
éĢĢ åĩº
çº¿ ,
i o
çī¹ å®ļ
åģ ¿
åįĹ æĸ¹
ä¸Ģ çº§
ä¸Ģ æ®µ
åħ¬ çĪµ
æĳ Ĩ
åį Ĵ
æ± ª
ä¸ī ä¸ĸ
il l
åĳĺ å·¥
æĻļ ä¸Ĭ
åĲĽ ä¸»
å¯ ¨
åĨĽ å®ĺ
æľĪ1 6æĹ¥,
åľº çļĦ
å°ĳ å¥³
ac e
r y
å¦ĩ å¥³
æĺİ ç¡®
æ²¿ æµ·
åĳ¨ å¹´
å¤§ æ¡¥
æĪ¿ å±ĭ
éĢ® æįķ
,ä»ĸ åľ¨
çľģçļĦä¸Ģä¸ªå¸Ĥéķĩ ,å±ŀäºİ
åĨĽ åĮº
ç§° ,
è½¬ åĲĳ
å¥¥è¿Ĳ ä¼ļ
æľĪ1 7æĹ¥,
æī© å±ķ
å¦Ĥä¸ĭ :
å¤ ķ
ä¾ ¨
éĥ½ å¸Ĥ
èµĦ äº§
7 9
èĦ ı
éĻ ¨
4 1
éģĵ ãĢģ
çľģ .
ä»£ çĲĨ
è¯ģ å®ŀ
ç»Ŀ å¯¹
æ¬§ åħĥ
S h
åľ¨ é¦Ļæ¸¯
åĬ Ŀ
åĩ Ģ
å¯¹ æĬĹ
å¤§ åİ¦
la y
8 5
ä¸ Ľ
è¾ °
æ£Ģ æŁ¥
on g
äºĨ âĢľ
äºļ ç¾İ
è§Ĩ é¢ĳ
åĽ½å®¶ éĺŁ
a in
åĮĸ åĲĪçī©
ç² Ĺ
åĲ¯ åĬ¨
çī¹åĪ« æĺ¯
Ã ©
2å¹´ )
æ°ı .
, ä¸Ń
æ³ķåħ° è¥¿
åĪĨ ç¦»
U n
æľī ãĢĬ
éĵ ¸
åİŁ åĪĻ
å¤§ èµĽ
åŃĲ ãĢģ
11 æĹ¥,
åī§ æľ¬
ç´§ æĢ¥
è¯Ħ ä¼°
ä¸ĵ å®¶
åĮĹ æĸ¹
ä¸¤ å¹´
åĨľ æ°ĳ
åĵ¥ä¼¦ æ¯Ķäºļ
6 9
éĻķ è¥¿
åĬł æĭī
æ¶ Ĥ
åĿĩ ä¸º
ä¸ ĳ
çŃī ä¸º
, ä»¤
9å¹´ )
æľįåĬ¡ .
è®¡ç®Ĺ æľº
æĽ´ ä¸º
UTC- 5
b e
ç§ĳ å¤«
A C
ä¿Ŀ å®Ī
çī© .
åī§ éĻ¢
åºŁ éĻ¤
åĬ «
ä¸Ń è¢«
ç»ı çĲĨ
L e
çŁ ©
åĢ ¡
çķĻ ä¸ĭ
I S
, èĻ½çĦ¶
æī «
è´ ©
æ± °
è´¨ çĸĳ
çŃ¾ è®¢
åı² ä¸Ĭ
é¦ĸ ä¸ª
åħĪ çĶŁ
æ± Ģ
1 ä¸ª
åĨĽ åĽ¢
å½¢ å®¹
ä¸ĭ ä»¤
ä¸Ĭ è¿°
.19 2
èĲ¨ æĸ¯
ä¹ĭåīį ,
éĦ Ĥ
1 20
æĹ¶ æ®µ
æľĪ21 æĹ¥,
å¼ ¯
ç±³ äºļ
. çĶ±
çĶ· ,
. ä¾ĭå¦Ĥ
ç»´ æĬ¤
O N
çīł ä»¬
åŃ¦ å£«
ä¸į ä»ħ
èĥ½ éĩı
éĢī ä¸º
æĭ ĺ
éĽ Į
ä¸»è¦ģ çļĦ
åįĩ çº§
çİĩ ä¸º
åĲ¯ çĶ¨
é© ³
åİŁ åŃĲ
æ½ Ń
zh-h k:
a st
ãĢģ é»Ħ
åħļ çļĦ
é¾ Ł
åī§ ãĢĬ
éĺ» æŃ¢
åŁİ åł¡
å½ĵ å¹´
å¤© çļĦ
ä¿Ŀ éļľ
. å°½ç®¡
åĭĭ ç«ł
æłĩ æľ¬
ç©Ĩ æĸ¯æŀĹ
åĽ° éļ¾
çŃī åľ°
ç§ĳ åŃ¦éĻ¢
æ¶ Į
äºļç¾İ å°¼äºļ
åľ¨ å¤§
or t
åħ¨ éķ¿
åł ª
äºĭä»¶ .
ç£ ¨
æıĲä¾Ľ äºĨ
åı· çļĦ
, ä¸»
çł ĸ
ç»Ļ äºĨ
èĵ ¬
éĨ ĩ
å¯ Ĵ
åĪ© çĽĬ
ç³»ç»Ł .
æ»¡ è¶³
åĢĻéĢī äºº
åĺī éĿĸ
å¥¥ å°Ķ
p h
å¿ ½
æĿ¥ è¯´
é©¬ éĩĮ
æĥ Ł
åĢ º
å¤§åŃ¦ çļĦ
19 æĹ¥,
åįĹ éĿŀ
æ¸¸ è¡Į
åıĤ éĢī
æķ ¢
, æĸ°
, 198
. èĩ³
åľ¨ äºİ
ä¸ĸçķĮ ä¸Ĭ
å§Ĩ Â·
-zh-h ans:
éĥ¨ ãĢģ
æĶ¶ è§Ĩ
åĪº åı²
å° ¹
20 20
å¼Ĺ æľĹ
. 0
åħ¬ å®ī
åĳ¨ æľŁ
æ¶Ī è´¹
å¥ Ķ
çŃī åľ°,
åĭ Ł
æ°Ķ æĹĭ
éº¦ åħĭ
æĬ ĳ
- -
çļĦ æķħäºĭ
æº ¯
å¤į åħ´
éĹ ª
çº³ ç²¹
æĸ¯ é¡¿
æ´» è·ĥ
ä¿® æŃ£
éĤ» è¿ĳ
ãĢģ ä¸ī
å¤« äºº
ç©º æ°Ķ
åıį æĺł
åıĳçİ° .
é¢ ĩ
å½¢ çĽ®
é¤Ĳ åİħ
(,)æĺ¯ æ³ķåĽ½
6 2
199 8å¹´
å¹´( 17
æī ¶
199 9å¹´
åĳĬ è¯ī
2020å¹´ ç¾İåĽ½äººåı£æĻ®æŁ¥çļĦæķ°æį®,
æŃ¤ å¤ĸ,
ç¢ Ł
å°¼äºļ å·ŀ
æł¼ æĭī
æĻĭ çº§
æľĪ22 æĹ¥,
çļĦ æ°´
ä¸Ń æľŁ
ä¸Ĭ æľī
æĽ´ æĸ°
ac k
åįı è°ĥ
åħ¶ä¸Ń ä¸Ģç§į
çİ» çĴĥ
, åĪ°
çļĦ ä½ľåĵģ
19 ä¸ĸçºª
å½ķ éŁ³
æĤ ²
éĿ¢ .
å¢ŀ éķ¿
è Ł
ä¼ł åªĴ
ç¿ ħ
æĹ¶æľŁ .
çĽĳ çĭ±
å®¶ äºº
,å¹¶ ä»¥
æĭ ¼
æĭ ĸ
åĩº åıĳ
ä¹¦ éĻ¢
åı¦ æľī
200 0
æİ¥ æĶ¶
æ¸ħ åįİ
èĲ¨ å°Ķ
åħ¸ ç¤¼
æĪĲåĳĺ .
èķ ¾
æ·ĺ æ±°
æĹ¥ æľŁ
çĶŁ æĪĲ
æľ¬ åľ°
å±± ãĢģ
éĢ ¼
194 5å¹´
åįĩ ä»»
å¤© çļĩ
é£Ł åĵģ
.çĦ¶èĢĮ ,
æĸ Ĳ
å¯ ĵ
åıĳ æĺİ
è¢« è§Ĩä¸º
æľĪ1 4æĹ¥,
C D
åŃ¦ ãĢģ
ç«ĭ æĸ¹
å¤§ å¥ĸ
å¸ĥ èİ±
æĹ¥ æ²»
å·² æľī
æĳ §
å· ¢
ä¹Ł åı¯ä»¥
è¯Ń ãĢģ
æľĪ1 3æĹ¥,
, éĢļå¸¸
å°¼ Â·
åħį è´¹
é¢ľ èī²
åĽ½ .
åĬł å·ŀ
ç§° ä½ľ
ä¸¤ åĲį
ç¨ »
é±¼ ç±»
çļĦ åĲİ
æİ¨ å¹¿
æı´ åĬ©
çİ° å®ŀ
åľ¨ åĨħçļĦ
ç»´ åŁĥ
äº² çİĭ
äºļåİĨå±± å¤§
æĸ¯ æīĺ
æķ° .
èĢĥ åı¤
( K
ä¸» åĬŀ
åº¦ çļĦ
åĪ¶ ,
åī¯ ä¸»ä»»
åĿ Ŀ
ç¥ ł
çĻ Į
ç«ŀ éĢī
å¹³ åİŁ
æīĢ è°ĵ
åī¯ ä¸»å¸Ń
æĺ¾ èĳĹ
å½ĵåľ° çļĦ
è¿Ļ æ¬¡
åı¸ é©¬
it y
ç» ³
è¥¿ åħ°
åŁºéĩĳ ä¼ļ
, åĲĮå¹´
, ç»ĵæŀľ
çĲ ¼
å¿ į
äºĮ æĪĺ
åħ¬åħĥ åīį
çĲĨ è§£
ä¾Ŀ çĦ¶
, çĶ¨
M A
ä¸Ģ è¯į
æł ĭ
è£ħ é¥°
åĨľ æĿĳ
æĺŃ åĴĮ
åĨħ æĪĺ
8 00
åĳ½ åĲį.
è½¬ æį¢
é¾Ļ æ±Ł
åį± éĻ©
ç»Ī äºİ
äº¤éĢļ .
D e
åľ Ń
ä¸į åĪ°
éĤ£ ä¹Ī
ä»£è¡¨ .
éĿł è¿ĳ
å¿ Ļ
é¹ ¤
å¾· çļĦ
å®Į å·¥
è´§ å¸ģ
åİ»ä¸ĸ ,
E n
ä¿® å¤į
éļĶ ç¦»
åĩ Ŀ
åľ° å¸¦
ä¸Ī å¤«
, å°¤åħ¶
æł¡ åĽŃ
ç¡® ä¿Ŀ
éĩĮ Â·
è¿Ľ æŃ¥
èĥ½ æºĲ
éĩĩ è®¿
æļ´ åĬĽ
æīĵ ç®Ĺ
å»ºçŃĳ .
æ½ľ èīĩ
åŃ¦ .
ãĢĭ ()æĺ¯
å¾· åįİ
åİŁ å§ĭ
çĿ ¡
å¢ŀ å¼º
æīĢæľī çļĦ
äºīè®® .
ä¸¤ åĽ½
i ve
çŁ Ľ
èĴ ¸
èº« ä¸º
åİŁ ä½ıæ°ĳ
åħ¬éĩĮ .
èĬĤçĽ® ãĢĬ
A r
æ°´ åºĵ
åį¡ ç½Ĺ
çłģ å¤´
ãĢģ è¥¿
æĹħ è¡Į
ä¹ī å¤§åĪ©
é² ¤
æ´¾ åĩº
åŁİå¸Ĥ .
æĴ° åĨĻ
å¤§ å¹ħ
èĻ ¹
194 9å¹´
éĢļ ä¿¡
å¹³æĸ¹åįĥç±³ .
åĬª åĬĽ
æł ½
æī§ æĶ¿
éĢĤ åĲĪ
2001å¹´ äººåı£
æĭĨ éĻ¤
å§ Ĭ
,åħ¶ ä»ĸ
3 -
çļĦ æ¯ĶèµĽ
åĬ© çĲĨ
ä¸İ åħ¶
åĩº éģĵ
åĲ ģ
, é«ĺ
E R
o v
äºº ,åħ¶ä¸Ń
èµĦ æľ¬
çŁ³ æ²¹
5 9
èĢ Ĳ
æ³¢ ç½Ĺ
å²ģ æĹ¶
åľ¨ 198
ä¹¦ ç±į
æĮĩ ç¤º
çķĻ åľ¨
ä¸¾è¡Į .
åĽ´ ç»ķ
åī Ĭ
å¸Ĥ ä¸Ńå¿ĥ
ç¿ Ķ
åº¦ .
å®ĺ .
ä½Ľ ç½Ĺ
çļĦ è®¾è®¡
åĩº ,
è®¤ è¯Ĩ
æ³ ¡
æ³ķ åºŃ
å¤© çĦ¶
, è¦ģæ±Ĥ
çļĦ åıĳå±ķ
æľī æľº
åĩº åħ¥åı£
ä¸ĩ åħĥ
å¤§ å¤ļ
.19 0
èĸ Ľ
s h
.æŃ¤ å¤ĸ
é¦ĸ çĽ¸
ç®¡çĲĨ å±Ģ
è¿ĳ å¹´
é»ĳ èī²
åľĨ å½¢
c om
å¤§ ä¼Ĺ
äº ¥
åł Ĩ
è¾¹ å¢ĥ
æĿĢ å®³
æĭ¿ ä¸ĭ
æ¯ĶåĪ© æĹ¶
N e
åįİ äºº
æīĭ æľº
éĶĢ éĩı
å¤« åį¡
,è¿Ļ ä¸ª
æĮĩåĩº ,
' s
å¤§ éĢī
æĶ¶ éĽĨ
ãĥ »
I D
Ã Ĺ
éĹ ¸
æĦı åĳ³
çĽ Ĩ
æĺİ æĺŁ
or e
åĲĦ èĩª
è¾½ å®ģ
ä¸Ģ åľº
åĪĨ æĶ¯
ä»¤ äºº
è½¦ç«Ļ ,
ç¡®è¯Ĭ çĹħä¾ĭ
" ,
æľĢ ä½İ
ä»» .
è®° å¿Ĩ
un d
b er
ç©º ä¸Ń
åĿļ æĮģ
(åŃ¦åĲį: "
åĲī æŀĹ
ä¸Ģ æŀļ
åĪĨ è£Ĥ
ç»´ æĸ¯
12 å¹´
èĴĻ çī¹
( çİ°
å°± ä¼ļ
æİ¥å£¤ .
å±±ä¸ľ çľģ
æĸ ĭ
èĩª æĿĢ
èŃ¦ åĳĬ
çļĩ åĲİ
çļĦ æĶ¯æĮģ
ä¹ł æĢ§
åĽ½æ°ĳ æĶ¿åºľ
åī§ éĽĨ
ä¸ĭè¾ĸ çļĦä¸Ģä¸ª
. ä¸º
ä»¥ åįĹ
ä»¥ åĲİ,
æĬ ĵ
æ± Ŀ
199 7å¹´
å»ºç«ĭ äºĨ
å¨ģå»ī Â·
7 2
æĪĲ å¹´
èĥ º
å¹³ æ°ĳ
èĮĥåĽ´ åĨħ
æŁ´ æ²¹
è¦ģ .
åĲĦ ç±»
æĹ¨ åľ¨
æ³ķ ãĢĭ
èĪ Ł
ç§ĳ åŃ¦å®¶
å¼ı çļĦ
å¼Ł å¼Ł
7 4
, ä¼ļ
ä¸ ŀ
çŃī çº§
6 3
o h
æł ª
å± Ī
D T
åĲĮ æĢ§
å¾· å°Ķ
æĶ¯ æµģ
åħĭ æŀĹ
i an
âĢ Ļ
äº² èĩª
æ¯Ľ æ³½
, ä½ľä¸º
ç¤ ģ
èİ± èĮµ
äº§çĶŁ çļĦ
æ»¨ æµ·
, æĿİ
æĬ ±
äº¤ æį¢
,åħ¶ ä½Ļ
C O
ãĢģ åĪĺ
æĭ ¨
æĸ¯ æ´Ľ
ãĢģ é«ĺ
éĴ »
è§Ħ èĮĥ
m an
ä¸Ĭ ä¸ĭ
å´ ©
, ç»ı
i v
æĹ¶ åĢĻ
è¯Ħä»· .
å¹ ½
æ¶Ī å¤±
å® °
ç¬¬ ä¹Ŀ
é»ĳ é¾Ļæ±Ł
æ³ķ çļĦ
çł Ĥ
å¸Ī .
è¿Ŀ åıį
åĳ¼ åĲģ
æµĻæ±Ł çľģ
æĳ§ æ¯ģ
åĪ© æĸ¯
äºĮ äºº
çº§ åĪ«
, ç¾İåĽ½
å¸¸è§ģ çļĦ
ä»¥ åīį
ç§į æ¤į
6 ,
â Ķ
ãĢģ ä¸ľ
çĭ ¼
æĶ¶ èĹı
çŃ¾ çº¦
. å¤§
T e
è¿ ¦
å¯¹ æĸ¹
è¾¾ å°Ķ
æ¬§ çĽŁ
æºĲ äºİ
at e
, ä¾¿
å»¶ éķ¿
çľģä»½ ,åĮĹèµ·
r ic
æ ª
çī¹ æĭī
è¡Į çļĦ
å°¼ è¥¿äºļ
æİĪ æĿĥ
, ç§°
éĻ ª
è½¦ åİ¢
è¿Ĳ çĶ¨
å© ´
å¿ħ è¦ģ
å¹³æĸ¹åįĥç±³,èĢĮæ°´åŁŁéĿ¢ç§¯ä¸º 0.
ä»» æľŁ
æ¸¯ åı£
æ¦ Ħ
( W
å¦ Ļ
199 6å¹´
åįł åľ°
æ¯Ľæ³½ ä¸ľ
; åľ¨
n :
æŃĮ è¯į
ç®¡çĲĨ .
é¦ĸ å¸Ń
èĦ ¸
å¾ª çİ¯
åį ¸
åŃ¦ çļĦ
å°Ħ åĩ»
é¦ĸ åºľ
,è¿Ļ ç§į
åį± æľº
æĤ£ èĢħ
èĪª å¤©
å¾Ĺ åĪ°äºĨ
æĶ¹ åĲįä¸º
ãĢģ é©¬
äºº ;
æĬ «
åı¤ åħ¸
åĬŀ çĲĨ
èµ° åĲĳ
éĢļ éģĵ
æİ¥ æĽ¿
æ¼Ķ å¥ı
æĶ¹ åĪ¶
åįĩ ä¸º
am e
åľº æīĢ
ä¼ ½
æĢ§ èĥ½
çĭ Ń
199 2å¹´
ï¼ ħ
é¡º åĪ©
åĴ ĸ
åĪĻ ä¸º
å·¥ä½ľ å®¤
å®¡ æŁ¥
éĺ² æŃ¢
åĮº è®®ä¼ļ
ç¦ ħ
åĽ ļ
ç«Ļ ,
åŁİ ,
å¯ ®
è¢ ĭ
å·ŀ åĪºåı²
åĽĽ å¹´
ç¥ŀ è¯Ŀ
çĶŁ ,
å« ģ
éķ¿ å®ĺ
æ³¢ å°Ķ
ä» ķ
éĺ¿ æł¹
å¤Ħ ,
ç´¯ è®¡
âĶ Ģ
æĭ ±
.è¿Ļ æĺ¯
é¦ĸ æĴŃ
åķĨ åĵģ
è·Ł éļı
å® Ľ
éĽ į
å¾Ĺ ä¸»
èģĶåĲĪ ä¼ļ
,ä¸Ģ èĪ¬
å¤ĸäº¤ éĥ¨
ä»¥ åĮĹ
åŁĥ å°Ķ
ou n
åŁ¹ è®Ń
æıĲ åıĬ
äºĶ å¹´
å¸Ĥ æĶ¿åºľ
(, ;
ç¼© åĨĻ
, æ²¡æľī
å¸ĥ éĩĮ
çĤ ī
åıĹ æ¬¢è¿İ
åį¡ æĭī
è¿ĲåĬ¨åĳĺ ,
éĺ¿æł¹ å»·
A P
s s
å°¼ åħĭ
çĶŁæ´» ä¹łæĢ§
éĺŁ ,
18 å¹´
èĤ Į
ä¸ŃåĽ½ çļĦ
åģľ éĿł
q u
åĲ ¹
åĩº æĿ¥
æķ° ä½į
èĭ± åĨĽ
199 4å¹´
æ¸¸æĪı çļĦ
1 åı·
ç»ĵæĿŁ åĲİ,
ä¸Ĭ åįĩ
éĿ¢ ä¸´
G o
éĻ· åħ¥
çĶŁæ´»ä¹łæĢ§ ä¸įæĺİ
è¾ Ł
æĮģ æľī
é¼ İ
, å±ŀ
. çĽ®åīį
C om
18 3
æ´¾ çļĦ
( ä¾ĭå¦Ĥ
å¤§ èĩ´
è¾ ¨
éŁ µ
çĤ¹ çļĦ
åĩºçīĪ ç¤¾
åĸľ åī§
( åĮħæĭ¬
èĢ ķ
æľĪ çĲĥ
æ£ ĺ
åĲĦ åĽ½
ç½Ĺé©¬ å°¼äºļ
çİ° ä»Ĭ
æĥ ¨
c on
å°Ĩ åľ¨
ä½ĵèĤ² åľº
äºº/å¹³æĸ¹åħ¬éĩĮ .
åŁ ĭ
èĭ ¯
ç¾İåĽ½ çļĦ
çŁ¥ .
çĶĺ èĤĥ
)ãĢģ ãĢĬ
éĩĮ è¾¾
åľº æĻ¯
åı¸ä»¤ éĥ¨
çĶ «
å®ļ ä¸º
æķ° çļĦ
M ar
ç °
éģĵ å¾·
çļĦä¸Ģ äºĽ
æĸ¯æĭī å¤«
ä¸Ģ é¡¹
è¢« æįķ
äºº, äººåı£å¯Ĩåº¦
æī¿ è¯º
ä¼¼ ä¹İ
çĤ¸ å¼¹
éģ ¥
ä½ĵ ,
éĽ ¾
çłĶ åıĳ
(åŃ¦åĲį: )ä¸º
åĲĦ ä¸ª
é¦ĸ æŃĮ
å·´ å°Ķ
æĿĳ èĲ½
åħ¬ æĸ¤
çĶŁ åŃĺ
åĲī å°Ķ
å¸ Ĳ
ä»Ĭ æĹ¥
èĢĥ è¯ķ
éĥ½ åľ¨
éħį å¤ĩ
çľģ, ä¸ľ
8 7
è¾¹ ç¼ĺ
åĬłåĪ© ç¦ı
æīĭ .
å±Ģ éķ¿
ub e
è¹ Ī
éķ¿ æ±Ł
éħ ·
å§Ķåĳĺ .
çĪ± æĥħ
åľ° è´¨
æľ¬ çīĩ
æ¡ Ĩ
å¸¸ åĬ¡
æĶ¯ ä»ĺ
äººæ°ĳ å¸ģ
èı Ĭ
æ²¿ éĿ©
æĬµ æĬĹ
çļĦ åĦ¿åŃĲ
æĸĩ æĺİ
) çŃī
åĮĸ ,
åĮħ åĽ´
çĽĳ å¯Ł
31 æĹ¥,
. 9
å¤ ¹
å°Ĩ é¢Ĩ
è¿Ľå£« .
å¹³ è¡¡
æĢĢ çĸĳ
çļĦ ç¬¬
äºī åıĸ
å¼Ģ å¹ķ
è¨Ģ è®º
17 9
èĥ Ĩ
ä¸ŃåĽ½å¤§éĻĨ çļĦ
èµ« å°Ķ
æ±Łèĭı çľģ
åĿ Ĥ
èĤ ł
çº¿ ãĢģ
åı¯ä»¥ åľ¨
è ¤
è®¾ äºİ
å¼ı æľĪåı°
ou r
å·¡ æ´ĭ
åŃ ķ
åĽ½ ,
æīĭ æľ¯
ä¼¯ çĪµ
åºĨ ç¥Ŀ
çĲī çĲĥ
åĲ« æľī
æī £
éķ¿ è¾¾
æ±¡ æŁĵ
åıĳ æĮ¥
å¯¹ åħ¶
æľĢ ä¸º
æīĢ éĩĩçĶ¨
å¥ ĭ
æĬ¥ çº¸
6 -
æ² ª
æ£Ģ å¯Ł
, ä¸ī
è ¤Ĳ
æī ģ
åıĳ è¨Ģ
åŁİ .
åĻ¨ çļĦ
çŃĸ çķ¥
åĤ ¬
é¼ĵ åĬ±
, è·Ŀç¦»
å¤§ èģĶçĽŁ
çŁŃ æļĤ
éļ ĭ
çı Ģ
, åıĬ
è¶³ å¤Ł
. ä¹ĭåĲİ
é¡ ·
æıĲ è®®
æİ¨ èįĲ
çĪ± å¾·åįİ
æĺİæľĿ æĶ¿æ²»äººçī©.
åĲ §
å¹´( 14
I P
T h
è¥ Ħ
æĪĳ çļĦ
å¾· åĨĽ
è° Ń
é¢ģ åıĳ
åĩĮ æĻ¨
è¯ ±
19 00
æľª æľī
åºķ ,
éĹ ²
åĩº åĶ®
æĸ¹éĿ¢ çļĦ
é¢ĳ çİĩ
éĻ¢ éķ¿
å§ĭ å»ºäºİ
åįķ çĭ¬
. ä¸ºäºĨ
æĮ ĸ
æĹı ,
çº ¤
åıĪ åĲį
éĢı éľ²
çļĦ ä½įç½®
åĩ ī
çº¦ æľī
åĶĲ æľĿ
: 30
æĪĲ å°±
æµ· å¹³éĿ¢
æĪĺ å£«
åĲį ãĢģ
æ²³ çļĦ
æĿ¡ ä¾ĭ
éĻĦ å±ŀ
å·¥ç¨ĭ å¸Ī
åĴĮ âĢľ
æĪĲç«ĭ çļĦ
,å®ĥ ä»¬
éĢĤ åºĶ
èµŀ åĬ©
å¢ĥåĨħ åħ±æľī
ä½į çļĦ
äºļ çĽ®
äºĭ æĥħ
åĨĻ ä½ľ
åıĳåĬ¨ æľº
6 1
åĮº åĨħ
çĽ´ å¾Ħ
æ¦Ĥ è¦ģ.
4 -
5 ,
ãĢģ åĮĹ
éĿ¢ ,
è¿½ æº¯
åĩŃ åĢŁ
5 2
éĿĴ å²Ľ
A N
é¢ Ī
ä¸ĭ æĿ¥
åĪ¶ çīĩ
æīĢ å¤ĦçļĦ
åı² å¯Ĩ
é¢Ĩå¯¼ äºº
æĽ¿ ä»£
8 9
èģĶ ç»ľ
èĸ ª
é¹ ħ
æ° ¨
åħ¬ äº¤
f f
åĢ¾ åĲĳ
åĲ ŀ
æĪĲ äºº
æĻ® é²ģ
199 1å¹´
èħ Ķ
æ£ ķ
ç«Ļ çļĦ
æĹł çĹĩçĬ¶
æµ·æĭĶ ä¸º
åħ¬å¼Ģ èµĽ
æĽ °
æĹ¥æľ¬ çļĦ
en s
éĽĨ åĲĪ
æ¸¸ åĩ»
è¶³ åįı
æĸ ¥
å¥ ¶
ä»¥ åĲİ
æŃ£ ç¡®
åĬ ²
å¿ ĺ
,ä½Ĩ ä»ĸ
é¦ĸ ä½į
ãĢģ åĴĮ
æĦı å¤ĸ
å·¡æ´ĭ èĪ°
èĭ± éĩĮ
é¢Ħ ç®Ĺ
åĲ¸ æĶ¶
ä¸º ãĢĬ
æĽ¾ ç¥ĸ
,åħ¶ä¸Ń åĮħæĭ¬
åıĳçĶŁ åľ¨
æī© å¼ł
çļĦ éĥ¨åĪĨ
åĨ ķ
S e
å¤§ å°ı
æĸĩ èīº
åı¤ èĢģ
éº Ł
æ²ĥ å°Ķ
é¢ģ å¥ĸ
ãĢģ ä¸ŃåĽ½
å»ºçŃĳ çī©
æĦŁæŁĵ èĢħ
ç§ĳçļĦ åħ¶ä¸Ńä¸Ģç§į
åĽ Ĭ
5 3
çļĦ éĹ®é¢ĺ
åŁ¹ åħ»
åİ»ä¸ĸ .
çĲ ª
åħ¬ åĳĬ
éĿŀ æ³ķ
æ°Ķ åİĭ
åĲ »
å·² çŁ¥
èĪŀ è¹Ī
å½ĵéĢī ä¸º
éĴ ĵ
åĨ³ è®®
èľ ľ
ä¸º :
ç¢ §
it h
æĺŁ çŃīä¸º
ä¿Ħ åĽ½
è± «
ç¢ ±
éŃ ģ
ä¸¥ æł¼
éģŃ éģĩ
åĲİ ç»Ń
å¾· æĭī
æķĪ åºĶ
å® ´
ä¸Ń éĹ´
ç§ĳ å°Ķ
èĪ¹ åıª
äºĴ çĽ¸
å®ī ä¸ľ
æł¼ ä¸º
ç»Ħç»ĩ çļĦ
çĶµ æ°Ķ
ä¸»è¦ģ æĺ¯
åĩºçİ° äºĨ
äº« å¹´
æĸ¯ åį¡
éĢĲ æŃ¥
é¸Ł ç±»
æĪĲ äºĨ
åī ª
å¤ĸ éĥ¨
æ¬¡ å¹´
åĪĽ å§ĭ
. 7
çļĦ ç¬¬äºĮ
æĪĲ éĥ½
æİ ł
æ¼ ı
199 5å¹´
ç±³, 2001å¹´äººåı£
L E
ä¹ĭ å¤ĸ
è¶ħ è¶Ĭ
ç»ıåİĨ .
çļĦ å¥³
å§ ľ
åĬł éĢŁ
è½¦ .
å§ĭ å»º
è§Ĩ è§ī
æ²¿éĿ© .
ä¸Ģ åĪĩ
ä¹ĭ åŃĲ
å¸Ĥ æĶ¿
è¶³çĲĥ ä¿±ä¹Ĳéĥ¨
åģ¶ åĥı
ãĢģ éĩĳ
ç© ·
p e
åĪĻ åľ¨
å½¢ çĬ¶
å®¡ åĪ¤
åħ¬åĪĨ, æłĸæģ¯åľ¨
å¡Ķ å°Ķ
å½ķ å½±
åıĮ æīĵ
æ£ ī
æļ ¨
é¢Ħ æµĭ
æıı ç»ĺ
å¹³æĸ¹åįĥç±³. å½ĵåľ°åħ±æľīäººåı£
æł½ åŁ¹
æĿ¥ è¶Ĭ
éķ¿ æ²Ļ
çĽ´ éļ¶
åıĺ ä¸º
ä¸Ńå¿ĥ .
è´µ å·ŀ
è°¢ å°Ķ
åĴ ¨
ç¦» åŃĲ
å¼º åº¦
å¾Ī å¤§
ç§į .
è¿Ļæł· çļĦ
åĪĽ æĸ°
æķĳ æı´
åħħ æ»¡
åĵĪå°Ķ æ»¨
åĪ ł
ä¸Ģ ç³»åĪĹ
å¤§ åį«
éĶ Ĳ
æ¸¸ å®¢
å¼Ģå§ĭ åľ¨
æļ ĸ
éĥ¨ çĶµå½±
èĭı ä¸¹
è· µ
æŃ£ éĿ¢
æº ĥ
æĵ ħ
åģĩ è®¾
æ²³åįĹ çľģ
å¤ıä»¤ æĹ¶éĹ´
ä»¥ âĢľ
çĲĨ å·¥
æģ Ń
éĤ ª
on e
å¯» æ±Ĥ
, éĢłæĪĲ
éĥ¨ ç½²
ä¸» åľº
åİ¿ çŁ¥
æĶ¶ åĪ°
æ¨¡ æĭŁ
è¶Ĭ æĿ¥è¶Ĭ
ä¸»ä¹ī çļĦ
æĸĹ äºī
æĸ ©
åľ¨ ä¸Ģèµ·
æ¯ ħ
æļĤ åģľ
5 6
Â· é©¬
, åŃĹ
å½± åĥı
èĮ ħ
æĹı ç¾¤
éĥ¨ ,
èģĶ ç½ĳ
æĺ¯ä¸Ģ åĲį
è¿ģ èĩ³
éĺ¿å°Ķ åįĳ
å¸ ½
ç¬¬ 4
é«ĺ è¾¾
çĲĨ æĥ³
åĲĪ æ³ķ
çĻ¾ ä¸ĩ
éħį ç½®
æĢģ åº¦
å·¥ èīº
ç¨ Ģ
æ¡Ī .
åĽ½éĻħ æľºåľº
æļĤ æĹ¶
ç§ ©
æĹ¶ åĮº
å¸¸ å§Ķ
é¢Ĩ äºĭ
åĽ¾ åĥı
å·´ æĭī
ç¦ı å·ŀ
c k
è¡Į ä¸ļ
å¸Ĥ ,
åı· ,
æīĭ æ®µ
èª ĵ
.ä»ĸæĽ¾ ä»£è¡¨
7 00
åĩ ¶
å» ĸ
å±ł æĿĢ
ç§° åĳ¼
0å¹´ )
çĽ´ æĴŃ
ä¼Ĭ åĪ©
ä¾Ŀ èµĸ
èģļ éĽĨ
åľ¨ 197
éĺ¿å°Ķåįĳ æĸ¯
åĪ¶ æĪĲ
åħ±åĴĮ åħļ
ä½İ äºİ
æĢ ķ
äºİ19 0
m a
ç¼ ´
ç¹ģ æ®ĸ
èĤº çĤİ
èĭ±å°º ).
, æĮĩ
çļĦ æĸ¹æ³ķ
åĽ½ åĨĽ
éĽ· æĸ¯
, åĬłä¸Ĭ
ç« Ł
åĬł å°Ķ
æķĻ å®Ĺ
èĤ ¤
, éĥ½
å¸ ĸ
æľ¬ ä½ľ
æľº åĪ¶
äºĶ ä¸ª
1 10
ä¼ļ æľī
ä¾ £
202 6å¹´
å±± åĮº
ä½¿ ,
èĲ½ æĪĲ
åĲĮæĹ¶ è¯¥åľ°
æĪĺ .
ç»´ å¤ļ
éŀ ĭ
ä¸»ä¹ī èĢħ
åİ¿ (ä»Ĭ
åŃ¦ ç§ĳ
æ¼ ł
ä¿Ŀ éĻ©
èĴ ²
åħ¬åı¸ .
çĶ° å¾Ħ
æģ© Â·
åĪĨå¸ĥ åľ¨
H D
éĺŁ éķ¿
ç¦ıå»º çľģ
ä¸º åħ¶
åī§ åľº
åį³ ä½¿
å¯Ĩ åĪĩ
198 8å¹´
æ£Ĵ çĲĥ
å° ¿
è®¤ åı¯
ä¾ĭ .
æ¶Ī éĺ²
åĽĽå·Ŀ çľģ
åĬŀäºĭ å¤Ħ
, å¤ļ
1 .5
å¤© åłĤ
éĺ² ç©º
è¾ħ åĬ©
çļĦ è§Ĵèī²
è½ ©
10 å¹´
èĭ± åĳİ
,ä½Ĩ çĶ±äºİ
äº¤ ç»Ļ
çłĶç©¶ éĻ¢
è§Ĥ çľĭ
, æĪĳ
. å¦Ĥæŀľ
éĤ ±
æīĵ çł´
æ¡¥ æ¢ģ
| |
ç¨ £
è®¤ è¯ģ
çļĦä¸Ģéĥ¨åĪĨ ,
è·¯ æ®µ
åĨĴ éĻ©
çĲĨ çĶ±
éķĩ .
å§Ķ æīĺ
åķĨ åºĹ
å« ©
å¤© æ°Ķ
0å¹´ä»£ ,
ç«ŀ èµĽ
19 å¹´
âĢ ĺ
èĢ¶ ç¨£
æľĢé«ĺ çļĦ
å¡ŀå°Ķ ç»´äºļ
å¥ ł
è¥¿ ä¾§
æĭī çī¹
æĦı ä¸ºâĢľ
5 4
éĩı åŃĲ
åī¯ ä¹¦è®°
,ä¸º äºĨ
åĪ¶ä½ľ .
èģļ èĲ½
çļĦ å·¥ä½ľ
çļĦ åİŁåĽł
èµĦ åĬ©
åĬłåħ¥ äºĨ
ä¼ļ è¯ķ
åĻ¨ .
å¼Ĺ éĽ·
,åĲİ èĢħ
æĪĲç«ĭ ,
æĴ¤ éĢĢ
å¤©æĸĩ åı°
çľģ,ä¸ľ ä¸´
ä¼ļ åĳĺ
åĬł åĵ¥
äºº ä¸º
åįĹ èĩ³
è®¾è®¡ .
æī© å»º
I T
æł Ĺ
èĬĿ åĬłåĵ¥
6 ä¸ª
çļĦ æĢ»
ä»¥ ä¸º
ç© ´
5 ä¸ª
å®¶ ä¸Ń
çĤ ¼
è´§ è¿Ĳ
å½± è§Ĩ
å®¤ åĨħ
åľ°æĸ¹ èµĦæĸĻ.
ç»ĦæĪĲ .
çļĦ éŁ³ä¹Ĳ
ä»¥ ä¸ĬçļĦ
è¢« ä»»åĳ½ä¸º
äººæ°ĳ ä»£è¡¨å¤§ä¼ļ
æ¤ İ
Â· åį¡
ä¸ĭ å±ŀ
èĭ ¹
èĩª æĪĳ
å±ķ çİ°
çļĦ ç¾İåĽ½
ç§¯ åĪĨ
çº³ åħ¥
æ¯ı æĹ¥
è®¸ åı¯
ç» ¥
çľ ł
åº§ æłĩä¸º
åģľ è½¦
äºº æĿĥ
é¸ Ń
çļĦ è¯Ŀ
ä¼Ĺ è®®éĻ¢
èħ ¿
å¼Ĺ éĩĮ
æ¶µ çĽĸ
, å°½ç®¡
åİŁ åĲį
in t
è§Ĵ åº¦
èĢģ å¸Ī
åģļ åĩº
ç»¿ èī²
) æĪĸ
å¤§ å¸Ī
éľ ŀ
èĬĤ åº¦
çľģ, è¥¿
çļĦ éķ¿
çº¦ çĳŁ
æĥ³ è¦ģ
çļĨ ä¸º
çļĦ æĿĳåºĦ
ä¹Ł ä¸į
çļĦ æĹ¥
ä¹ĭ ä¸ĭ
è¿Ľ åħļ
æŃ» åĪĳ
, çĽ´èĩ³
p er
ä¸į æķĮ
è´¢ äº§
åľ¨ èĭ±åĽ½
éĥ¨ .
,å¹¶ ä¸İ
ä¸¤ ä½į
ä¸¤ ä¾§
éª ļ
ä¸¹ å°¼
5 7
å· ·
æĸ¹ ä¾¿
ãĢĭ ãĢĬ
åıĽ ä¹±
åĨħ èĴĻåı¤
ç«ŀ æĬĢ
M V
m ent
å¥¹ åľ¨
.201 8å¹´
äº¡ .
æ¤įçī© .
ä¸ ¸
å¤§ å¤«
çī¹ æľĹ
å¨ ħ
èħ º
è½¦ éĺŁ
æľį è£ħ
éģŃ åıĹ
ãĢģ æŀĹ
èħ ĵ
çĭ¬ç«ĭ çļĦ
æľ¬ äºº
çº¿ ä¸Ĭ
èģĮ ,
a i
è¡Į .
è¥¿ éĩĮ
éĩį éĩı
è¯Ń .
æ¶ Ľ
199 3å¹´
å·¦ ç¿¼
U -
ä¸Ģ å°ıæĹ¶,
åĽŀ å¿Ĩ
çĶµè§Ĩåī§ ãĢĬ
çļĦ å½¢å¼ı
èį ¡
äºĨ ä»ĸ
è° Ĭ
çĽ´ åįĩ
è£ģ åĪ¤
é©¬ æģ©
å¨ ¶
ç¤¾ ç¾¤
oc k
è°ĥ å¿«
å±Ĥ ,
ä»ħ æľī
æ²³ è°·
æ¶ī å«Į
æŁ¥ çĲĨ
å®£ ç§°
èĲ¥ ä¸ļ
é±¼ éĽ·
è® ¼
å¼ł ä¸ĵè¾ĳ
åįı å®ļ
çĽ¸åĲĮ çļĦ
äºº æ¬¡
æł¼ éĽ·
æĶ¹ è¿Ľ
ç©º è¢Ń
ST ).
åº§æłĩä¸º ,èĢĮ
æĸ° åĨł
è¾Ĳ å°Ħ
çļĦ æľĢ
åľ¨ åı°æ¹¾
ä¸Ĭ éĺµ
éĵ ĥ
,å¹¶ çĶ±
åł ¤
æĥħ ç»ª
å¾ģ æľį
è®¾æĸ½ .
å¤§ä½¿ é¦Ĩ
æ³ķ ä»¤
åĺī ä¹ī
æ³½ å°Ķ
èŀį åĲĪ
8 6
æ¯ Ĺ
æĬ Ħ
äºİ ãĢĬ
æİ ©
è¿ŀ è½½
åĻ ¶
ãĢģ å°ı
), å¹¶
åıĤ è®®éĻ¢
ä¾ĭ åŃĲ
ä½ľçĶ¨ .
,ä¸¤ äºº
ä»¥ ä¸ľ
æĪĺ æľ¯
è¯´ :ãĢĮ
ä¼ļ è¢«
é¢Ĩ åħĪ
éĩį è§Ĩ
æ´Ľ åħĭ
çļĦ åĲįåŃĹ
åľ¨ 196
äºĨ ,
ç£ ·
è§ī å¾Ĺ
æĸĩçī©ä¿ĿæĬ¤åįķä½į .
éĢļ çŁ¥
èº« åĪĨ
è½¬ çļĦ
16 0
a "
æĪĲ çĨŁ
èĪ Į
å½ĵ ä»£
æħ °
èĵĿ èī²
DT ).
è°ĥå¿« ä¸Ģå°ıæĹ¶,
ç Ģ
éĥ ģ
åı¯ è§ģ
æ¿ Ĵ
ä¾į éĥİ
çĬ¹å¤ª äºº
èĩ Ĥ
å¸ĥ æľĹ
ç¤¾ äº¤
è®¾æľī å¤ıä»¤æĹ¶éĹ´
è¯¥åľ° æīĢéĩĩçĶ¨
åĲĮæĹ¶è¯¥åľ° è®¾æľīå¤ıä»¤æĹ¶éĹ´
ST). åĲĮæĹ¶è¯¥åľ°è®¾æľīå¤ıä»¤æĹ¶éĹ´
è°ĥå¿«ä¸Ģå°ıæĹ¶, åį³
è¯¥åľ°æīĢéĩĩçĶ¨ çļĦæĹ¶åĮºä¸º
ST).åĲĮæĹ¶è¯¥åľ°è®¾æľīå¤ıä»¤æĹ¶éĹ´ ,ä¸º
, ç®Ģç§°
æ¼Ķ è®²
.201 6å¹´
å·¨ å¤§
éķĩ åĮºçļĦ
äº¤ æ±ĩ
.è¯¥ æĿĳ
æ»¡ æ´²
å»¶ ç»Ń
ä¸ĭ ä¸Ģ
éĢļ å¾Ģ
çĥ ¯
çĪµ å£«
.åĲĮ æĹ¶,
ä¸ľ ä¾§
åįķ ä¸Ģ
åĲįä¸º ãĢĮ
5 -
è´ ·
æĦŁ è§ī
ç²ī ä¸Ŀ
é«ĺäºİ æµ·å¹³éĿ¢
. 2
u re
199 0å¹´
çļĦ åħ³ç³»
æĢ» çĽĳ
ä¼ł æķĻ
æį· åħĭ
çĽ¸å½ĵ äºİ
a h
æĮ ¡
åŃĲ å¥³
æİĴè¡Į æ¦ľ
èīº äºº
è´§ çī©
),èĢĮ è¯¥åľ°æīĢéĩĩçĶ¨çļĦæĹ¶åĮºä¸º
æīĢå¤ĦçļĦ æµ·æĭĶä¸º
èĭ±åĳİ ),èĢĮè¯¥åľ°æīĢéĩĩçĶ¨çļĦæĹ¶åĮºä¸º
æīĢå¤ĦçļĦæµ·æĭĶä¸º é«ĺäºİæµ·å¹³éĿ¢
è¾ĵ åĩº
è¡¥ åħħ
, éĢļè¿ĩ
c ol
ä¸Ń æľĢ
åº ¶
çİ ²
éķĩ åĮº.
çĶŁæ´»ä¹łæĢ§ä¸įæĺİ .
åľ° å½¢
æ¼Ķ åĮĸ
éª Ĺ
è®¾è®¡ çļĦ
å½±åĵį ,
ç¬¦ åı·
çī¹å¾ģ .
ç§į åŃĲ
å¸ Ĩ
å®¶åºŃ .
ç»ĺ çĶ»
C o
u g
åľ¨ ä¸Ń
å¤§ éĿ©åĳ½
èģ ª
æĦ ¤
ä¿Ŀ è¯ģ
æĻ® ç½Ĺ
æĹłçĹĩçĬ¶ æĦŁæŁĵèĢħ
å¼ ĵ
è¡ĮæĶ¿ éĻ¢
)æĺ¯ æ³ķåĽ½
æ°¸ ä¹ħ
å¸Ĥ ãĢģ
åĨħ .
åĲĪ åĲĮ
é² ¸
è¯¦ ç»Ĩ
ç»´å¤ļ åĪ©äºļ
èį Ĩ
åĪ¶ä½ľ çļĦ
æıĲåĩº äºĨ
èĦ± ç¦»
çī¹ å°Ķ
æĪĺ éĺŁ
åŁİ çļĦ
äº¬ éĥ½
åħ· å¤ĩ
å¾Ī å°ĳ
äºĴ åĬ¨
r an
å¤§ éĺª
ä½Ĩ æĺ¯
å°¼ åı¤
or d
çĵ ¶
çĻ» è®°
7 3
æ¡ Į
,åį³ åĮĹç¾İ
( I
ç¥ ¯
è·¯ åı£
) :
ãĢĭ ä¸Ģ
æł¼ å°Ķ
æĥħ èĬĤ
å±Ģ .
ar e
æ¾ Ħ
.201 0å¹´
zh- c
æ© Ħ
a w
åľ° äºļ
åĮº éĹ´
èĭ± è¯Ń:
éĺ¿ éĩĮ
éħ ®
èİ· èĥľ
æķĻèĤ² éĥ¨
åºı åĪĹ
äºİ201 6å¹´
èĤ¡ä»½ æľīéĻĲåħ¬åı¸
S S
o y
æ¯« ç±³,
. 3
æ¸ ł
æİ¢ éĻ©
éķĩåĮºçļĦ éĿ¢ç§¯ä¸º
äº ©
çī¹ éĩĮ
ä½ľ ä¸ļ
æł¼ éĩĮ
æĸ½ å·¥
éķĩåĮº ()æĺ¯ä½įäºİç¾İåĽ½
ä¸º æĸ°
åº ĩ
ãĢĭ åľ¨
æŃ¤ æ¬¡
æµģ ä¼ł
UTC- 6
ä½įäºİ ç¾İåĽ½
çº¢ åĨĽ
èļ Ģ
ä¼Ĭæĸ¯åħ° æķĻ
. ä¸Ģ
ä¼ ŀ
å§ ¿
å¤ļ åĲį
åĽĽ ä¸ĸ
ä¸¾ äºº,
8 2
å§ ĳ
å¾· æĦıå¿Ĺ
éĤ ĳ
è¯º å¤«
è½°çĤ¸ æľº
éĿĴ å°ĳå¹´
æķĪåĬĽ äºİ
æ Ĩ
åħ¬ é¡·
åĩºèº« .
ä¸» å¯¼
ãĢį ä¹ĭ
èĬ Ń
ç±» çļĦ
.è¿Ļ ä¸Ģ
æ´»åĬ¨ ,
ä¼łç»Ł çļĦ
zh-c n:
æ©Ħ æ¦Ħ
ç» ĳ
æĶ¾ åľ¨
å²Ľ çļĦ
æĿĳ .
èĩ´ åĬĽ
çģŃ ç»Ŀ
ä¼ļ ä¸Ĭ
è¿Ļ éĩĮ
ç»´ åŁº
ä½Ľç½Ĺ éĩĮè¾¾
ä» Ĩ
åº ļ
æ³ Ħ
æ» ķ
çİ°åľ¨ çļĦ
åįĹæŀģ æ´²
. 6
å¤ļ æł·
äºĮ çº§
æĢ» è£ģ
äºİ19 2
æ¤ ħ
äºĴ èģĶç½ĳ
åĬĽ ,
å®¹ çº³
äº¿ åħĥ
æ®ĸæ°ĳ åľ°
æľ¬ ç§ĳ
æµ· ä¸Ĭ
å·´ åĭĴ
åİĨåı² åŃ¦å®¶
17 8
ãĢĭ( "
ä¸ľåįĹ äºļ
æ²Ī éĺ³
ä¸ľ äºļ
æ±ī åŃĹ
,ä¹Ł æľī
7 ,
ç¥ Ī
çĽ¸ åıį
å®ĺ ,
çıŃ æ¬¡
()æĺ¯ ä¸Ģä¸ª
çĪ ·
å°ĳ å°Ĩ
æĪĺæĸĹ æľº
k m
çļĦ æĶ¿æ²»
æĶ¿ åıĺ
çļĦ ä¸į
éĥ¨ å°ļä¹¦
æ²¿ å²¸
éĽĨ ä½ĵ
åį³ å°Ĩ
åį« éĺŁ
çĸ« èĭĹ
éĩĳ å±±
ç¾¤ ä¼Ĺ
åľ¨ åĮĹäº¬
åŃ¦ ç³»
ç½ ©
çī¹ èī²
æ¼Ķ èīº
å®īå¾½ çľģ
è©¹å§Ĩ æĸ¯Â·
è¿ĳ ä»£
è¿ŀ ä»»
ç¾¤ ä½ĵ
åĪĨ åĮº
å¸ĥ éĽ·
å®ī Â·
åį« è§Ĩ
èĭ¹ æŀľ
, æĹ¥æľ¬
åĪĨ æł¡
éĢļ çĶ¨
æĢ» ä¼ļ
åķ ¡
åĬ £
æĿ¥ è¯´,
ä½¿çĶ¨ äºĨ
æĭħ å¿ĥ
æĶ» åįł
çļĦæĥħåĨµ ä¸ĭ
. åĽł
çº§ èģĶèµĽ
198 9å¹´
æħ İ
P lay
ä¸İ ãĢĬ
ä»į æľī
åıĤä¸İ äºĨ
m e
éĢ ¸
ãĢį åĴĮ
è¿ŀ ç»ĵ
å¹² éĥ¨
æ°ĳ è¿Ľåħļ
å·¥ ä¼ļ
çļĦ çĶµ
ä»¥ è¥¿
ä»ĸ æĺ¯
æĥ §
æ¸ħ æ¥ļ
é¹ ı
äººçī© .
æİ¢ ç´¢
, åıªæľī
2 50
éķĩ åİĭ
æĻ®é²ģ å£«
ð «
éķ ĳ
çľģ çļĦ
å¹³æĸ¹ ç±³,
æŃ» .
æł¸ éħ¸
æŀ¶ æŀĦ
è´ ª
å½ĵ å¤©
çŁ ®
éĥ½ è¢«
åįķ æīĵ
çĥ ·
åĢ¼ å¾Ĺ
åĪ¤ åĨ³
éķ¿ çº¦
è¿ĩç¨ĭ ä¸Ń,
èľ Ĥ
çļĦ åıį
ç»Ħ .
ä»İ æľª
é³ ŀ
å¥³ çİĭ
å¤« å¦ĩ
, ),
, å¸¸
çļĦ ç»ĵæŀľ
ç¬¬ä¸Ģ ä½į
å°ıè¯´ ãĢĬ
æī ĳ
å±± è¥¿çľģ
æ¨ ±
çļĦä¸Ģ æĿ¡
æ¸ħ ä»£
éĴ¢ çĲ´
, ä»»
è´ ¼
æł¼ æŀĹ
å®ŀ è·µ
æĽ´ å¤ļçļĦ
å¤§åŃ¦ ãĢģ
èīºæľ¯ å®¶
åĲİ èĢħ
æŃ¤ ç«Ļ
è° ´
.201 5å¹´
è¸ ı
, èĭ¥
i re
æĸ¯ åľ¨
åĨĽ åľ¨
æĪĺ ,
åĽĽ å¹´(
éĢ ¾
å®ļ æľŁ
æĺŁ ç³»
,ä½įäºİ è¯¥
åĮĹæµ· éģĵ
ä»ĸ ä¸İ
è¯¥ åľ°çļĦ
éĩį è¿Ķ
ä¿® è®¢
åĪĩ å°Ķ
2019 å¹´,
å½» åºķ
9 6
åĬ³ å·¥
u st
åħ¶ å®ŀ
å¥¹ ä»¬
æ±Ł æĪ·
æĪĲ éķ¿
åĵ ª
æµ· åįĹ
è¿ª å£«
æĦ¿ æĦı
ig ht
( O
, çİĭ
çŃ Ĵ
åıĳè¡Į çļĦ
ä¼ļè®® åĳĺ
åįķä½į .
æ¡ĥ åĽŃ
You T
- 21
S c
ä¸Ń å°Ĩ
è¡Į èµ°
åĪ© Â·
çª Ħ
èµ Ķ
äºĨ ä»ĸçļĦ
åŃ¦ ä½į.
æł¼ é²ģ
æĺ¯ä¸Ģ ä½į
è½¯ ä½ĵ
éŃĶ æ³ķ
P S
éĻ¨ çŁ³
, ä¸ĭ
å¤´ è¡Ķ
æķ´ åĲĪ
2 åı·
D V
s )
çļĦ ç¥ŀ
æķ ²
åŃ¦ ,
ä¸ľ æµ·
èĤ ¢
ç»´ ä¿®
å¼ķ è¿Ľ
å¥½ è¯Ħ
ä»į åľ¨
æĴŃåĩº .
åİŁ åħĪ
åıĹ å®³
å±Ĥ çļĦ
s on
çº ł
æĬ Ľ
èĹ »
ä¼¤ å®³
è¡Į ,
çĲĨ æŁ¥
è¯ģ åĪ¸
. 4
i z
,èĢĮ åľ¨
åĵĪ èĲ¨åħĭ
è¢«ç§°ä¸º âĢľ
ä¹Ķæ²» Â·
è¿ªå£« å°¼
åĲİ åľ¨
, æĬĬ
çļĦ åŁºç¡Ģ
åĲİ è¢«
è¾ĥ ä½İ
æĶ¿æ²»äººçī© ãĢģ
åĲ Ĭ
19 20å¹´
è° ¥
è·¯ .
ä½¿ .
3å¹´ ),
ä¸Ģ æĶ¯
åĨ Ģ
198 4å¹´
æĸ¯ åł¡
èµ· è¯ī
è®® å¸Ń
è®° ãĢĭ
åĿ Ł
å®ĺ èĩ³
ä¼Ĭ æĭīåħĭ
ä¼¯ çī¹
c l
åĩ ¸
åĮº åĪ«
éģ ®
åįł æį®
p t
çļĦ æľº
æĥ ©
åĨħ åľ°
å£« .
é»Ħ èī²
, è¿ĺæľī
. åı¦å¤ĸ
; zh-tw:
ç»´ åħĭ
, å½¢æĪĲ
i b
ä¸º äºº
ä¸» åĬ¨
çī¹ åĮº
åĪ© çļĦ
çĽ® çļĦæĺ¯
åĸ ĩ
ä¹¡ éķĩ
, éĺ¿
, å¼Ģå§ĭ
, 197
åľ¨ æĸ°
æľī :
è¢« åĳĬ
ä¿® éģĵ
äº§çĶŁ äºĨ
æĴŀ åĩ»
( V
/ &gt;
ç½Ĺ å¾·
formula_ 1
.201 4å¹´
äºİ201 5å¹´
æŃ ī
è¯º æĽ¼
æľĽ è¿ľ
,æĪĸ èĢħ
æĪĺ åĪĹ
èµ· åĪĿ
è®¤ åĲĮ
èĥĮ é³į
äºİ201 4å¹´
ç¬¬ä¸Ģæ¬¡ ä¸ĸçķĮå¤§æĪĺ
çĩĥ æĸĻ
çļĦ ä¸Ĭ
é£Ł çĶ¨
æĹłçº¿ çĶµè§Ĩ
çĶ ľ
åĽ½ éģĵ
èµ £
çİĭ åŃĲ
æŃ¦ å¸Ŀ
å¸Į å°Ķ
i al
æľ µ
å§Ķ ä»»
éĻ¤ æŃ¤
æĶ» æīĵ
äºİ201 8å¹´
çºªå½ķ .
çļĦ çĶµå½±
çļĦ æīĢæľī
å± ¥
åľ° åĲį
æłĩ è®°
çĶ· å¥³
. åı¦å¤ĸ,
å¤ļ é¡¹
æĲº å¸¦
P C
ãĢģ æ°´
åħ¬ åĬ¡
é¢ ł
æĶ¹ å»º
202 1å¹´,
èĭı ç»´åŁĥ
.201 3å¹´
æ¡£ æ¡Ī
åĽ½éĺ² éĥ¨
è®® é¢ĺ
åĪĹ åĩº
æ¨¡ çī¹
æĤ ł
éĢĶ ä¸Ń
ä¸Ģæł· ,
a )
ç» µ
åŁİ å¢Ļ
äº¤ çķĮ
ç»Ī çĤ¹
è´¹ çĶ¨
äºİ201 7å¹´
èĽĭçĻ½ è´¨
B e
çļĦ æŃĮæĽ²
åİ ¥
äºĨ è®¸å¤ļ
äº¤ åıī
å¡ŀ çº³
æ³ķåħ° åħĭ
è°´ è´£
9 7
çļĦ æĪĲåĳĺ
æ¸ Ĭ
åį° ç¬¬
èı² åĪ©
åĨħå®¹ .
æĸ¯ åĴĮ
èĬ Ļ
æ¢ ¨
å»ºçŃĳ å¸Ī
ä¹¦ .
åħĪ è¿Ľ
æ¹ĸ æ³Ĭ
ä¸ĭè¾ĸ ä»¥ä¸ĭ
çŁĽ çĽ¾
" .
åį §
æĺ¯ åĽłä¸º
çī© åĵģ
è¿ĺ åľ¨
ä»Ĭ å¤©
çī¹æľĹ æĻ®
. 1
éĤ µ
æ²³ éģĵ
æĻº æħ§
å²© çŁ³
æľī ãĢĮ
åľ° ä¸Ń
åĲį è¯į
ä¹Ł æĽ¾
åĽ¢ ç»ĵ
åºĶ å¯¹
è°ĭ æĿĢ
, åĽĽ
å¤§ .
åĲİ æĸ¹
åı¯ åľ¨
ä¼¦ Â·
çĶŁéķ¿ äºİ
ä¼Ļ ä¼´
å¼Ģ å·¥
åĿ ł
çĤ Ń
ä¸¾åĬŀ çļĦ
ãĢģ ä»¥åıĬ
åī ¥
ä»£ æĽ¿
éģĵ åħī
å®ŀ ä½ĵ
åŀĭ .
æ²Ļ çĶ°
2å¹´ ),
,æĺ¯ ä¸ŃåĽ½
æĶ¶ è´¹
è¶³çĲĥ éĺŁ
åĶ¯ä¸Ģ çļĦ
8 4
äºİ 2020å¹´
æľ¬ çº¿
åİĨ .
4å¹´ ),
ç½Ĺ å¤«
æıĲ äº¤
èģĮ ä½į
è¿Ľè¡Į çļĦ
å¦¹ å¦¹
æľĽè¿ľ éķľ
, å¼ł
i es
m er
äºİ æŃ¤
ä»» æķĻ
A S
å¥ ¸
çĲĨ å¿µ
çķ ħ
åľº åľ°
éģĩ åĪ°
æ²³åĮĹ çľģ
ãĢģ åĲ´
æĢ§ åĴĮ
çº³ å·ŀ
æĤ ¦
å·¨ å¤§çļĦ
9 3
å¼Ģ åĬŀ
å®ī å¨ľ
7å¹´ ),
éļ¾ æ°ĳ
é¢ģ å¸ĥ
æŀ¢ çº½
éĢ» è¾ĳ
åį°ç¬¬ å®ī
ç¦ı å¾·
éĻį éĽ¨
çľģ, åįĹèĩ³
æĹ ±
ãĢģ ãĢĬ
æ±Ł åįĹ
æł¹æį® 2020å¹´ç¾İåĽ½äººåı£æĻ®æŁ¥çļĦæķ°æį®,
ä¸įåĲĮ ,
ic h
äºİ201 2å¹´
l d
è¯Ń éŁ³
ä¸ĵ çĶ¨
çİĩ .
æĶ¿ åĬ¡
æīĢ éľĢ
å¤ĸ è§Ĥ
.200 8å¹´
1 æľĪ1æĹ¥
æĹ¥ å¸¸
èµĽ çļĦ
çĪ± åĽ½
ç±į ,
åįķæĽ² ãĢĬ
æ© ¡
æľŁ çļĦ
è¡Į é©¶
éĥ½ çĿ£
ä¹¦ ,
å²Ľ ä¸Ĭ
å¼º åĪ¶
å¼ķ çĶ¨
æİĴ åĪĹ
æµİ åįĹ
æľĢæĹ© çļĦ
ãĢį ä¸º
èĤ ©
ä½ı åľ¨
ä¹¦ åĨĻ
åįı åķĨ
ä¹ł æĥ¯
å´ ĸ
æĹłäºº æľº
, è¿Ľ
ç»ı çĶ±
è° ģ
éĢī åĩº
éĢī ç§Ģ
,è¿Ļ ä¸Ģ
æł¹æį® 2010å¹´
14 0
è¿· ä½ł
çļĦä¸Ģéĥ¨åĪĨ .
D S
å° ĺ
æľī èĳĹ
æ³ķ è¯Ń
æĥ ľ
æł¼ åĭĴ
é¦ĸ æŃĮæĽ²
åĽĽ å¤§
(), çĶ·,
.201 7å¹´
ç½Ĺé©¬ å¸ĿåĽ½
èĸ ĩ
. æľĢç»Ī
åĲĪ åĶ±
çº¿ æĢ§
æİ¥ èĳĹ
åį¡ æĸ¯
é¢Ĩ åľ°
æł¹ æľ¬
å¥ĸ éĩĳ
åį° åĪ·
æĹ¶ä»£ çļĦ
åĴ¨ è¯¢
, æĪĲç«ĭ
ä¸Ĭ äºĨ
ä¸ĭ äºĨ
ç«ĭ éĻ¶
,ä½Ĩ åĽł
èĥľ åĩº
åĪĳ äºĭ
. åĽłä¸º
çī ²
æģ ¨
5å¹´ ),
åľ£ ç»ı
è¯Ħ ä¸º
æ¢ µ
198 0å¹´
198 6å¹´
è° į
ä¿Ħ åĨĽ
èħ °
çĻ¾ å¹´
( 15
- åį¢çĵ¦å°Ķ
äºİ 2019å¹´
ä¸į è¦ģ
çĪ ª
å¡Ķ å°¼
ä¼Ĳ åĪ©äºļ
æĿŃ å·ŀ
ç½Ĺä¼¯ çī¹Â·
5 1
åĲĮ åĲį
è° Ĳ
åĩĨ ç¡®
åĨł çĬ¶
R E
åĵ Ģ
é«ĺ ,
è¿ĩ çļĦ
ç§° ä¹ĭ
é¦ĸ åº¦
é¢ĺ æĿĲ
ä½ı æĪ¿
,åıĪ åĲį
çĽ Ī
ç«Ļ æĪ¿
æ°Ķ ä½ĵ
ç»¼ èīº
æĢ ¡
ä»ĸ è¢«
è§Ĥ åħī
å¢ŀåĬł äºĨ
ç¼ĸåı· ä¸º
èī² å½©
è½¬ ä¸º
æ¯ĶèµĽ ,èİ·å¾Ĺ
å¼¹ èį¯
äºİ201 3å¹´
æĻº èĥ½
éķľ å¤´
çĥŃå¸¦ é£İæļ´
åŃŁ åĬłæĭī
çļĦ ä¸ŃåĽ½
å¯¹ è¯Ŀ
éĵ İ
çİĭ .
èĻ ı
æ¯ı åĳ¨
åıĭ å¥½
æİ¢ æµĭ
å½ķå½± å¸¦
èĩ Ģ
åħ¥ åĽ´
è° ¦
ä¸¤ èĢħ
6å¹´ ),
è®¡åĪĴ .
è¿« ä½¿
é©¬åħĭ æĢĿ
çĽ¸ åºĶ
çĻ¾ ç§ĳ
åĪĨåĪ« ä¸º
å±ħä½ı åľ¨
, åĲĦ
, éĻ¤äºĨ
ç« £
é«ĺ åİŁ
çĲĥ .
ç»´ ä¹Ł
1å¹´ ),
ç«ĭéĻ¶ å®Ľ
çļĦ æĹ¥æľ¬
æľī è®¸å¤ļ
æĪĲ æŀľ
åĮº åĪĨ
ç«ĭ åľº
æ¯ı å¤©
, æŃ£
1 30
B -
l o
çĿ Ľ
èĩªè¡Į è½¦
å¼ Ħ
åįģ æľĪ
ç§ĳ ä¼ļè¯ķ
è¯Ĩ åĪ«
çºªå½ķ çīĩ
æĳĩ æ»ļ
ãĢģ åı°æ¹¾
åĬ¨ è½¦
æĸ° å»º
æĥħ å½¢
çĳ ľ
ç¢ °
æĸĩåĮĸ .
.201 2å¹´
æİĮ æı¡
åĴĸ åķ¡
, æľĢ
M e
N BA
äºļ Â·
æ· ĳ
éĿĴ æĺ¥
æŃ¥ æŀª
çŃ¹ å¤ĩ
æ² ¼
èĤ Ŀ
çŁ¥ åºľ
æĻ¯ è§Ĥ
ç¼ Ŀ
198 5å¹´
, 195
æľ Ń
ä¸» æĿĥ
æĭī å°Ķ
æ¬¡ äºİ
ç±³ åħ°
è®¤ä¸º æĺ¯
åıĳçĶŁ äºĨ
ç«ĭæ³ķ ä¼ļ
èļ ģ
å¤ ¸
æĪĲç«ĭ .
çī©ç§į .
åı²å¯Ĩ æĸ¯
åľ¨ ä¸Ģ
åľ° äº§
å¹³ çŃī
èĪ Ĩ
ar k
çĽŁ åĨĽ
,ä¸º è¾Ĳé³įé±¼çº²
åĪ¤ å¤Ħ
è´ ¬
çī¹ åħ°
éĹ¨ .
å®¹ éĩı
åĲ¦ è®¤
ä¸º åŁºç¡Ģ
åĬł åĪ©äºļ
åīį è¿Ľ
&lt; /
é©±éĢĲ èĪ°
çĽ´åįĩ æľº
å¯¹ ç§°
åīį èº«
åĨħ æĶ¿
çĽ¸ ç»§
æİ¥ ç®¡
èĪª çıŃ
åĵ¥ åĵ¥
äºº/å¹³æĸ¹åħ¬éĩĮ (
çŁ© éĺµ
âĢĿ åĴĮâĢľ
åħĥ æľĿ
æĽ´ æį¢
èĿ ł
å¥¥æĸ¯ åį¡
è¡į çĶŁ
( çº¦
ãĢģ æĿ¨
å¯¹ éĺµ
ä¸ī äºº
æł¡ åĮº
åħµ åĽ¢
æ³° åĭĴ
é¢Ħ å¤ĩ
æĪĲç»© .
P h
å® ł
å¼Ģ åĲ¯
æĪĺ èĥľ
èµĽ ,
æĳ Ķ
æµ Ĩ
, å·²
ç¥ Ĳ
åįķ åħĥ
è½¬ ä¼ļ
å¸Ń ä½į
194 8å¹´
,æŃ¤ åĲİ
c o
éĩĮ .
æĸ° åĮĹ
), äººåı£å¯Ĩåº¦
ä½ĵ éªĮ
èĩ³ äºİ
æĮĩ æķ°
åŀĭ åı·
ä½¿çĶ¨ èĢħ
çģ« è½¦
çģ« çģ¾
çİ° åŃĺ
äºĮ å¹´
éļı åĲİ,
å°ģ ä¸º
æĿ¥èĩª äºİ
æīĺ é©¬
, éĥ¨åĪĨ
à ¸
ä¹ĭ éĻħ
æŃ¤ æĹ¶
æ¼ Ĩ
æł¡ èĪį
æİ¨ ç¿»
å¿Ĺ æĦ¿
çĻ¾ å§ĵ
æ°ı ,
ä¹ĭ ä¸ĭ,
ãĢĭ ä¸Ń,
é¢ ĸ
èĭ± éķĳ
å®¢ æĪ·
æ¸¸æĪı .
() çļĦ
æĹ§ åĿĢ
; zh-hk:
J R
èµĽ è½¦
çĮ ľ
è¿ĲåĬ¨åĳĺ .ä»ĸæĽ¾ä»£è¡¨
åĪĨç±» .
åŀĤ çĽ´
, æĭħä»»
, å¸ĮæľĽ
ä¸Ń ä¸ĸçºª
çĶµ æ±ł
åĭ ĺ
æĥħ æĦŁ
æķĻèĤ² .
æ²³æµģ åŁŁ
, åĪĨ
åħ Ķ
å·´ ä¼ĲåĪ©äºļ
æĽ¾ æĺ¯
ç¨ĭ .
é¾Ļ çļĦ
æĹ© ä¸Ĭ
åĪĨå¸ĥ .
ä¼ģ åĽ¾
èµĦæł¼ .
ç¥Ń ç¥Ģ
æ¹ĸåįĹ çľģ
å¿ Į
éĿ¢ åĲĳ
å±± ,
åħ¨ ä½ĵ
éĢī æ°ĳ
,èĢĮ ä¸įæĺ¯
ä¼Ĳ åħĭ
è· Į
æķ° åįģ
ä¿Ŀ å®ī
åįĩ æł¼ä¸º
ä¸» æµģ
éĩį å¤į
èĽ Ľ
è¿ģ ç§»
è¾ Ī
åıĺ æį¢
ç¬¬åįģ ä¸ī
ç§© åºı
, åĲĮ
åįĹ ä¾§
, åĬł
C on
å¹¶ åľ¨
ç¾İåĽ½ æĢ»ç»Ł
éĺħ è¯»
æ° ®
ä¸» åĬĽ
å°º å¯¸
ç»ĵæĿŁ .
1 /
I V
çī© çļĦ
åľ£ æ¯į
è¿° .
è§Ĵèī² .
é©± åĬ¨
éĿŀå»ºåĪ¶ åľ°åĮº.
8 3
ãĢģ H
æĺ¯ ä¸ª
ä¸ī åĽ½
äºĶ æľĪ
å½ķ åĪ¶
M S
a la
ä¸Ĭ è¯ī
çľģ éģĵ
194 4å¹´
èģĮä¸ļ çĶŁæ¶¯
se ction
9 2
åıĳ æİĺ
å¤§ è¡Ĺ
æ¹ĸåĮĹ çľģ
YouT ube
åİ ī
c he
ãĢģ éĺ¿
å¤§ éĺŁ
åĿ ŀ
éģĹ ä¼ł
éĻķ è¥¿çľģ
æħķ å°¼
ä½ ĳ
åĮ ł
ä¸» ç®¡
å¸ĥ åħ°
. æĿİ
åĮĹ ä¾§
èĤ ĩ
æĶ¹ è£ħ
çľ¼ çĿĽ
ä¸¥éĩį çļĦ
çĺ ¤
éĿ¢ ä½ĵ
å·´ èµ«
åĵģ è´¨
çĹħ éĢĿ
ä¼¤ äº¡
æŃ§ è§Ĩ
æ¡ Ĳ
æµģ éĩı
198 2å¹´
.æŃ¤ åĲİ
èľ Ģ
.åĽłæŃ¤ ,
8 ä¸ª
æµ ¸
æĮ º
å±± çļĦ
ç©¿ è¿ĩ
äºĭåĬ¡ æīĢ
ä¸ľäº¬ éĥ½
, è´Łè´£
ãĢģ çŁ³
ä»¥ å¤ĸ
å¥³ ä¸»è§Ĵ
åķĨ åĬ¡
çĻ» åľº
åĨĻ éģĵ
èµ Į
è¡Į äºº
é© ¹
å§Ķåĳĺ ãĢģ
åĩĨ åĨ³èµĽ
198 7å¹´
17 7
194 1å¹´
åĲį äºº
å·ŀ éķ¿
ä¸¤ å²¸
å¤§åŃ¦ .
åı¤ å·´
æ¯ĶèµĽ .
éĵ¶ çīĮ
çļĦä¸Ģä¸ªå¸Ĥéķĩ .æĢ»éĿ¢ç§¯
äºİ 2021å¹´
åİ¦ éĹ¨
æħķå°¼ é»ĳ
9 4
æĪ Ĭ
æĹ¥ æĬ¥ãĢĭ
å®¶ ä¹¡
åĲĮ æŃ¥
æıĲ åīį
çĵ ·
åĩł ä½ķ
æĥħåĨµ .
éĽķ å¡ĳ
åĨłçĬ¶ çĹħæ¯Ĵ
æľ¬ ä¹¦
ä¾Ŀ çħ§
ç±»ä¼¼ çļĦ
çīµ å¼ķ
ç»´ä¹Ł çº³
M P
a u
æĺ¯ ä¸į
å¤§ åħ¬
ãĢĭ ä¸ŃçļĦ
é©¬ ä¸ģ
æĹ© åľ¨
æĮĩæĮ¥ å®ĺ
, åıį
å¢ŀ è®¾
,åıĪ ç§°
ç«£ å·¥
, æł¹æį®
èŃ¦ æĬ¥
äºİ201 0å¹´
DV D
,çİ° æĹ¶
- 2
ä¸Ĭ å¸Ŀ
æ» ¤
æ» ĭ
åĪĴ å½Ĵ
&lt; section
å¹ķ åºľ
æŁ Ħ
æĿĳ æ°ĳ
" ),
, é¦Ļæ¸¯
p p
èĮ Ħ
åĮ» åŃ¦éĻ¢
é¡¹çĽ® .
æ·» åĬł
èģĮ åĳĺ
æ±ī è¯Ń
çĶ² åŁº
ç»ĥ ä¹ł
, çº¦
èĬ ¦
å¥³ åŃ©
çĸ ¯
è¾¹ çļĦ
at h
å¾·åĽ½ çļĦ
ç»Ĩ èıĮ
èı² å°Ķå¾·
æ¯ķä¸ļ åĲİ
U S
ãĢģ æĹ¥æľ¬
æī Ń
ä¸ī ç§į
çº¿ (
éħ ¯
18 2
åķĨ åľº
å®ĮæĪĲ äºĨ
æĺ¯ ä¸ºäºĨ
ä¸ª ä½ĵ
æ¿Ģ çĥĪ
çľģ,è¥¿ æİ¥
ä¿®éģĵ éĻ¢
è¿Ĳ .
ä¿Ŀ åĬłåĪ©äºļ
åĽŀ åĲĪ
an n
èĢĥ å¯Ł
äºİ201 1å¹´
éĢĶ ç»ı
èĻļ æĭŁ
, éģĤ
r am
èĢĮ ä¸į
æĪĺ åľº
, è¡¨ç¤º
k e
ä¸ĭ åįĬ
åĨħ æľī
äºĮ æľĪ
å¸Ī ,
äºī å¤º
; ä½Ĩ
â Ĩ
äºİ 2022å¹´
ãĢĭ åıĬ
æ´Ľ å¤«
æĶ» åĬ¿
æī¿ æĭħ
çļ® èĤ¤
èµ¢å¾Ĺ äºĨ
T A
å°Ķ é¡¿
æ£ į
äºº, å¥³æĢ§
ç´¢ æģ©
æŃ»äº¡ .
è¶ ģ
æ£ ±
ç»ıæµİ åŃ¦
æľ« æľŁ
åħ¶ä¸Ń ä¸Ģä¸ª
å¤§éĩı çļĦ
è¯Ń: )æĺ¯
åĪĨ ä¹ĭä¸Ģ
çľģ æİ¥å£¤.
ç§į ç±»
èİ· åıĸ
è´Ŀ åħĭ
é¡º åºı
è¸ ¢
) äºº,
E N
æĻ ´
åħĥ éŁ³
çķĮ çļĦ
åľ°åĮº :
,ä¹Ł å°±æĺ¯
å®¤ ãĢģ
åıĳçĶŁ çļĦ
.201 1å¹´
In ter
ãĢģ çĻ½
å¸ ľ
æĹ¥ åĲİ
ä¸Ĭ å¸Ĥ
ä½įäºİ ä¸ŃåĽ½
æ» ¥
,æľī æĹ¶
ä¸İ ãĢĮ
å¹¶ æĹł
ç»ı çºª
åıĹ æįŁ
åĳ¨ åĪĬ
è± ¹
éĹ®é¢ĺ ,
åıįåºĶ .
æĸ°åĨł èĤºçĤİ
åľ°ä¸Ń æµ·
åĿ ¤
å£« é¡¿
åı¸ èģĮ
æĬĹæĹ¥ æĪĺäºī
ç¥ ¸
æķĻæİĪ .
æĬĳ åĪ¶
8 1
çļĦ åĽ½éĻħ
çĽ´ è·¯
er t
äº¦ æĺ¯
é¥ ¶
å®ģ æ³¢
æİĴåĲį ç¬¬
W e
å¸¸ å¸¸
åĪĻ æľī
åħļ åĳĺ
ç¥ĸ åħĪ
æĲ ŀ
åĶĲ çº³
ç¬¬åįģ ä¸Ģ
éĺ´ è°ĭ
åĪ° çļĦ
çĮ ´
æ¯ĶèµĽ ä¸Ń
å©´ åĦ¿
, éĻĪ
, è®¸å¤ļ
çĶ· åŃ©
éĽ· è¾¾
194 6å¹´
æ·· ä¹±
æ§ ½
è¥¿ æĸ¯
å·´ åŁº
çİ° æľī
å¦ ¥
å¤© ä¸ĭ
éĹ¨ ,
ä¿¡ å¾Ĵ
æĿ¡ æ¬¾
æŃ» äºİ
ä¸Ńå¿ĥ çļĦ
ä½ĵèĤ² é¦Ĩ
äº® çĽ¸
å¯ ĩ
ä¸ī æľĪ
è®¤ å®ļ
, æį®
y )
åħ¬ ä¼ļ
å½ĵ æĹ¥
èĲ Ŀ
ä¹¦ ä¸Ń
ç¬¬ä¸Ģ å±Ĭ
æİ¨ æµĭ
æ¤ Ń
ç»Ĩ èĬĤ
193 7å¹´
é¢Ĩå¯¼ çļĦ
äºİ åĲĮå¹´
åīį åĲİ
åıĸ èĩª
åĽ½å®¶ åħ¬åĽŃ
æł· çļĦ
å·´åĭĴ æĸ¯åĿ¦
C l
ä¸¤ æĿ¡
è®º åĿĽ
åī§æĥħ .
æ¡Ĩ æŀ¶
2 .5
çĽ¸ è¿ŀ
å¤´ éĥ¨
éĢģ åĪ°
è¯ī è®¼
åĳ¼ åĲ¸
æµ·æĭĶé«ĺåº¦ ä¸º
é¥® é£Ł
i x
å¾ Ļ
çĤ ³
è¡ĮåĬ¨ .
éĢĶ å¾Ħ
æł½åŁ¹ .
å· ©
" )æĺ¯
, åıĹ
, å½ĵä¸Ń
0 5
é¥ ¼
ç»§ ä»»
éĻĦ åĬł
å¯Į æ±Ĺ
æĺ¯ ä»İ
æ¬ ł
æĳ© å°Ķ
çļĦ çĪ¶äº²
å¤ĸ åĽ´
å¦Ĥ ä»Ĭ
.åľ¨ æŃ¤
æŃĮ åĶ±
å¼ķ ç§į
ç§» å±ħ
æĭ¿ çł´
è¿½ æ±Ĥ
å±ĭ é¡¶
ä¸»é¢ĺ æĽ²
è® ½
åĽł èĢĮ
çĽ¸ éĤ»
æ°´ éĩı
çłĶç©¶ çĶŁ
éŁ¦ å°Ķ
æĿ°åħĭ éĢĬ
èĩ´åĬĽ äºİ
çļĦ éĺ¿
çļĦ åŁİéķĩ
çī© ä½ĵ
è¯Ĭ æĸŃ
(; ),
æĭ¿çł´ ä»ĳ
E P
äºĨ è¯¥
åĩº èĩª
åĩº åľº
ä¸ŃåĽ½ åĽ½æ°ĳåħļ
çİ¯ å½¢
å§Ĩ æĸ¯
æī¹ åĪ¤
æĥħåĨµ ä¸ĭ
ac h
a z
äºº ä¸İ
æ£ ļ
æµģ åĬ¨
æĻ® æĭī
è¾ĸ åĮº
æ»ĳ éĽª
çľģçļĦä¸Ģä¸ªå¸Ĥéķĩ .æĢ»éĿ¢ç§¯
çļĦ åŃ¦çĶŁ
åĪĨ è§£
å¤ļ .
çī© èµĦ
å¦ ĸ
ç»Ī æŃ¢
æħĪ åĸĦ
, ä¸Ģä¸ª
çļĦ éĿ¢ç§¯ä¸º
æī ĩ
ãĢĭ æĿĤå¿Ĺ
è° £
å±± åİ¿
å±± é¡¶
æ¡ ĵ
å´ĩ ç¥¯
ç¿Į å¹´
åĨ »
èĳ µ
å§ĭ ç»Ī
æłĩ é¢ĺ
æľºæŀĦ .
g in
çļĦ åŁİå¸Ĥ
è¿ĩ æ¸¡
ç¦ §
éĴ ©
äºĶ åįģ
è¿ĲåĬ¨ çļĦ
çĶ» éĿ¢
m m
ä¸ī å¤§
æĢ» å±Ģ
åºķ å±Ĥ
ä¹ĭåĲİ çļĦ
å½¼ æŃ¤
ä¸º æŃ¤
åįĹ æµ·
çĪ ¬
è£ ´
è®º .
ç§ĺ é²ģ
äºİ200 9å¹´
æĸ Į
è¡Į ä¸º.
ä½ľ ãĢĬ
æĶ¿ ,
æŁ ľ
ç«Ļ ãĢģ
åħĥ å¸ħ
å§Ķ åī¯ä¹¦è®°
æ²³ åı£
é³ Ħ
r is
åħ¥ å¢ĥ
èĤ ¿
æ¼ Ĥ
ant :
. åĲĮæĹ¶
å¤§ æ°Ķ
å·¥ åķĨ
æĴ ĳ
åħ¬éĩĮ çļĦ
çĶ» å®¶
æ·± åħ¥
ç¬¬ä¸ī æ¬¡
ä¸įå¾Ĺ ä¸į
é»ĳé¾Ļæ±Ł çľģ
, åı¦å¤ĸ
åħ¬ å¯ĵ
ä¸» æīĵ
æľĢ å¤ļçļĦ
çĲĥ è¿·
åĽĽ æľĪ
æĶ¹ ç§°
æĹł è®º
.19 1
ãĢģ åĳ¨
å± ¡
è¾ ±
å¾· åħĭ
,å¹¶ è¢«
éĨ ī
ç§ĺä¹¦ éķ¿
ä¸Ń å¼ı
åİ Į
çĦ ļ
æİ¨ è¡Į
åħ« æľĪ
çĶŁæ´» åľ¨
èĵ Ħ
äºĨ å¯¹
å¤ļ äºº
çīĩ æ®µ
ç¦ı éŁ³
éĺ³ å¸Ĥ
çª ĥ
è¿ª Â·
æĵ ¦
æĸ° ç«¹
æł¼ å¼ı
èĭı éĩĮ
çªģ åİ¥
ä¼ĺ åħĪ
è¿ĩç¨ĭ .
åħ±äº§ ä¸»ä¹ī
2020 å¹´,
èģ Ĥ
çŃī å¾ħ
æĽ² çĽ®
åŃ£ åĲİ
ç¬¬äºĮ ä¸ª
åį° è±¡
çİ¯ çĲĥ
ä¸įåĲĮ .
åį°åº¦ æķĻ
æ© Ļ
è½¬çļĦ å°ıè¡ĮæĺŁ
ä¹ĭ ä¸Ń
è¶³çĲĥ èģĶèµĽ
7 -
F -
çĶ± äººå·¥
å·¥ä½ľ çļĦ
æĪĲç«ĭ äºĨ
é¢Ħ åĳĬ
,ä¸į ä¹ħ
æĹ Ń
åıĳ éŁ³
åıĬ åħ¶ä»ĸ
æİ¥ ä»»
èģĮ æ£Ĵ
9å¹´ ),
ç¦ı åĪ©
198 3å¹´
åĥı æĺ¯
ä½İ æ°Ķåİĭ
æıĲåĩº çļĦ
ç¿° æŀĹ
åĢŁ çĶ±
è¾ŀ èģĮ
äºĳåįĹ çľģ
, éļ¶å±ŀäºİ
äºİ 2023å¹´
ä¼ļ éķ¿
åĲį èªī
ç³ ķ
éĽĨ .
å¾® è½¯
èµĽäºĭ .
çĥŃå¸¦ æ°ĶæĹĭ
e ct
ä¸» ä½ĵ
åįĹ ç¾İæ´²
æľº æŀª
ä¸ļ .
çĪ± çļĦ
ç¬¼ èįī
å¹´ .
åĪĨ æĪĲ
æľ¬ åľ°åĮº
è¿ĩ äºİ
è¯º ä¼Ĭ
ol d
åĪº æ¿Ģ
èĳ£äºĭ éķ¿
çĮª ç¬¼èįī
åİ Ŀ
è´ ¿
æĸĩ ãĢģ
çĶµ åĬ¨
åı² èĴĤ
æ¡Ī ,
æĪ¿ éĹ´
åµ Į
å±± å¸Ĥ
ç¾İåĽ½ åĽ½å®¶
æĹ©æľŁ çļĦ
åº§æłĩä¸º,èĢĮ è¯¥åľ°çļĦ
( èĭ±è¯Ń:
ä¸Ń ãĢģ
çº º
å¥³ æ¼Ķåĳĺ
å¥¥ Â·
ä¹¡ æĿĳ
éĢĤ çĶ¨äºİ
åħĭç½Ĺ åľ°äºļ
ç¼ Ķ
åĭ ¾
èº ²
ä¸ģ åł¡
ç½ķ é»ĺ
A L
äºĨ è¿Ļ
åįĹ æĸ¯æĭīå¤«
ç«Ļ ä½įäºİ
å¥½ åıĭ
é¥ ¥
8 ,
B L
å¤ļ ,
åĬł åĭĴ
ç§° èµŀ
åıĤ è§Ĥ
.200 7å¹´
å¹³åĿĩ æµ·æĭĶé«ĺåº¦ä¸º
, çī¹åĪ«æĺ¯
ãĢį ,å¹¶
åħ¨ çº¿
é² Ī
åıĳçİ° çļĦ
é£ŀ å¼¹
formula_ 2
St ation
. éĻ¤äºĨ
ãĢģ æµ·
er )
æİ§ èĤ¡
åĨľ åľº
å¼Ĺ æĭī
ãĥ ¼
å·´åŁº æĸ¯åĿ¦
åĲİ .
ä¸ĭ è½½
åı° å¸ģ
æķ° çĻ¾
8å¹´ ),
ä¸ĥ æľĪ
å¼Ĥ å¸¸
è´¢ åĬ¡
åº§æłĩä¸º,èĢĮè¯¥åľ°çļĦ å¹³åĿĩæµ·æĭĶé«ĺåº¦ä¸º
æĺ ı
æĸ¹ ç¨ĭ
åĮĹ éŁ©
åºĵ å°Ķ
çīĪæľ¬ .
è´Łè´£ç®¡è¾ĸ ,éĿ¢ç§¯
x t
éģĹ è¿¹
N et
r it
ä¸Ģ çĻ¾
åĮº åĴĮ
åĪĨ çļĦ
éķ¿ åŃĲ
åı¸ æľº
è£ ¸
çģ« æĺŁ
ä¹ĺ åĿĲ
.å®ĥ ä»¬
è£Ķ ç¾İåĽ½
R O
Î ±
äºĨ ä¸ĢäºĽ
æĸ¯ éĩĮ
æĿ¥ å¾Ģ
ä»£ çļĦ
æŃ¤ åĲĮæĹ¶,
éģĵ çļĦ
ç¾İåĽ½ æµ·åĨĽ
ç¥ŀ åľ£
åĸ ī
å®£ åĳĬ
ä¿Ħ äº¥
ä¿Ħäº¥ ä¿Ħ
p ro
åĬł ä»¥
ç§ĳ å¹»
åģļ ä¸º
çħ§ é¡¾
çĶ±äººå·¥ å¼ķç§į
7 ä¸ª
åį¡ æ´Ľ
åī§ ä¸Ń
è¿Ľè¡Į .
æĿĥ çļĦ
è½¬ ä»»
d u
ä¸ĭ æĸ¹
åŃĲ å¼¹
çº¿ åĴĮ
è¿Ĳ æ²³
åĲİ, åħ¶
,ä»¥ ä¾¿
å±Ģ çļĦ
ç¼ĸ åĨĻ
èĲ¨ æĭī
åİĦ å°Ķ
å¥´ éļ¶
å»º æľī
å¸¸ å§Ķä¼ļ
æīĭ æŀª
å®£ è¨Ģ
åĬłåĪ©ç¦ı å°¼äºļå·ŀ
çĶ±äººå·¥å¼ķç§į æł½åŁ¹.
åĮĸ ä¸º
è¯Ń åĴĮ
èİ± æĸ¯
åĩºçİ° çļĦ
æĺ¾ç¤º ,
St e
) ä¸Ń
åŁº è¾ħ
çĶµè§Ĩ åĬ¨çĶ»
.200 9å¹´
å¤©æ´¥ å¸Ĥ
E C
å·´ å¡ŀå°Ķ
èį ĥ
èĻ Ĳ
ar y
å¤ľ éĹ´
éĵľ çīĮ
ç¤ºå¨ģ èĢħ
åİ ¨
é«ĺ æŀ¶
æ¶ ¡
çºªå¿µ ç¢ĳ
èĤ¯ å®ļ
ä¸ĭè¾ĸä»¥ä¸ĭ åľ°åĮº:
i de
çļĦ èĥ½åĬĽ
æĸĩ æľ¬
ç¥ŀ ç§ĺ
åĨħéĻĨ çľģä»½,åĮĹèµ·
æĭ ¦
é«ĺ .
çķ ľ
åİŁ åĪĽ
æµģ ç»ı
è°ĥ èĬĤ
, 196
7 1
æĺ¯ :
åħŃ ä¸ª
åĿĲ æłĩ
æĶ¹ç¼ĸ èĩª
M ic
æĶ¹ åĲį
ãĢįåĴĮ ãĢĮ
U N
åı£ å¾Ħ
éĩį ç»Ħ
çº§ çļĦ
åĽŀ çŃĶ
å®¢ å®¶
éľį å°Ķ
å°±è¯» äºİ
æľ¬ å±Ĭ
å±± åľ°
åŁº éļĨ
éĺµ å®¹
æ®ĭ çĸ¾
å¹¸ åŃĺ
å¥¥æĸ¯ æĽ¼
. éĺ¿
M E
éķ¿ å®ī
12 5
æŀģ ç«¯
éĵľ çīĮ.
, çĶŁæ´»ä¹łæĢ§ä¸įæĺİ.
æĺ¯ ãĢĬ
çĽ ²
èĢĮ å¾Ĺ
å¤ļ åħĥ
åº¦ ,
ç»´ åĲ¾
ä¾Ľ å¥ī
é»ĳ äºº
è®¾è®¡ ,
æĮī å¯Ł
ç©Ĩ ç½ķé»ĺ
è´Łè´£ç®¡è¾ĸ ,
åĽ½ æľī
åĩº äºİ
æĮ ¤
åĳĺ ãĢģ
ä¸ī æ¬¡
åħ³ èģĶ
åĪ¤ æĸŃ
.èĢĮ åľ¨
ç´§ å¼ł
. åīį
H K
â Ī
æĶ Ģ
äºļ åĨĽ
åĸ »
la t
åĵĪ æĭī
åıĸå¾Ĺ äºĨ
(C h
ä¸º å¤§
ä¸į åıĺ
å² Ĳ
åĪĻ çĶ±
çĹ ķ
çīĩ .
æ°Ķ æ¸©
åĵĪ éĩĮ
åĪ¶ä½ľ äºº
èĢ¶ å¤«
æķĮ äºº
ç©¿ è¶Ĭ
åī© ä½Ļ
ç»´åĲ¾ å°Ķ
ä»¥ å¤ĸçļĦ
å¤ĸ çķĮ
æį ī
é» Ľ
éħ ĭ
å½¢ ,
çļĦå¤§ åŀĭ
çļĦå¤§ éĥ¨åĪĨ
( æĺŃåĴĮ
) ä»¥åıĬ
, è¦ģ
çļĦ ä¸ĸçķĮ
åĴĮ ä»ĸçļĦ
æĢ» é¢Ŀ
å¿ĥ èĦı
åħļ ç»Ħ
åĵģ .
éª ı
ç¼ĸ ç»Ħ
åİ» .
æľĹ å¾·
ç²® é£Ł
åĲĮæĢ§ æģĭ
,ä½įäºİè¯¥ çľģ
H e
æ¬ º
éħ ¿
åĵĪ åĪ©
è¯į æ±ĩ
ä¹Įåħĭåħ° çļĦ
çĩĥ çĥ§
M y
c od
çĶŁ æķĪ
æĸ° çķĮ
æĮĩ è´£
åı¯ä»¥ éĢļè¿ĩ
åĲįä¸º âĢľ
å®¿ èĪį
è·¯æĺĵ æĸ¯
(,; )æĺ¯æ³ķåĽ½
åŁ ł
æľº ,
,ä½Ĩ åħ¶
é¦ĸ é¢Ĩ
å·´ å¸ĥ
,èĢĮ éĿŀ
æį¢ ä¹ĺ
æŀĦéĢł .
oh n
åĴĮ å¤§
é¢ Ĥ
è¿Ľ åı£
çªģ åĩ»
åĨ² åĩ»
æ¼Ķåĩº .
çĲĨäºĭ ä¼ļ
å°Ķ å¤«
ç«Ļ åİħ
æĺİ å°¼
çİĭ å®¤
å·´ åħĭ
ç½ĳ ä¸Ĭ
æģĲ é¾Ļ
çļĦ è¡Įä¸º
ä¸ī çĶ²
197 2å¹´
ä¸´ åºĬ
195 0å¹´
ãĢģ äºĮ
ç³ Ĭ
å°± åľ¨
å¥¥ åħĭ
çī©ç§į çļĦ
S ch
å¹´ éĹ´,
å¾Ĺ ç¥¨
éħ ī
å¸¸ è§Ħ
æĹł éĻĲ
æĦı åĽ¾
éĹ®é¢ĺ çļĦ
æĹĹ å¸ľ
çļĦå±± å³°
ãĢģ ä¸į
çĶµ æµģ
å¡ Į
å¤ª éĥİ
èĬĤ å¥ı
åŃĺ åĤ¨
çĭ¬ çī¹çļĦ
å¤º åıĸ
äºİ200 8å¹´
(; )æĺ¯
, éĻ¤
e )
è¯¥ æł¡
éĽĨ ãĢĬ
å®Ī æĬ¤
çĶŁäº§ çļĦ
æĹĭ è½¬
ãĢį çŃī
åįģ å¤§
è¾ĥ å°ĳ
çĶµå½± èĬĤ
æ°¸ è¿ľ
çĶŁéķ¿äºİ æµ·æĭĶ
, ä½¿çĶ¨
3 000
A K
çļĦ å¥³åĦ¿
äºº æīį
æĹ¥ (
æ³ ª
ç¬¬ 6
æĸĩ .
å½¢ çļĦ
194 2å¹´
ä¸Ĭ æĸ¹
ä»» å¤©åłĤ
è° ¨
ä¼ł å¥ĩ
èĻ ¾
å§Ķåĳĺä¼ļ ä¸»å¸Ń
åĿĲ èĲ½
, å¹´
æĺ Ķ
åŀ ¦
). åľ¨
åħŃ æľĪ
è¶³ èģĶ
çļĨ æľª
, è§Ĩ
, åı°æ¹¾
ä¸Ģ å¤©
åĬł å·¥
åĲİ, åľ¨
åĲİæĿ¥ çļĦ
ç±»åŀĭ çļĦ
.. .
â Ħ
æĹ¶ éĴĪ
è½¦ çļĦ
ç¡® å®ŀ
197 9å¹´
âĨ Ĵ
, æ¯Ķ
A I
y n
ä¸Ģ æīĢ
åħ¬ çº¦
åħī è°±
ç»Ħç»ĩ .
æıı åĨĻ
èĪªç©º åħ¬åı¸
T -
ä¸º çĶ±
æĪ Į
åĮĹ å¹³
æķĻ ç§ĳ
æĢ§ æł¼
äº§ éĩı
ä¿Ŀ åį«
æ¶Ī çģŃ
è¿Ľå£« åĩºèº«.
èĻļ æŀĦ
ä¸ĭ æĿ¥çļĦ
åĽł åħ¶
æŃ£ ä¹ī
çĳ Ļ
äºº ç¾¤
åĿĩ æľī
æĬĢ èĥ½
æ¸© å¸¦
åĺī åºĨ
" çļĦ
åİŁ æĿ¥
é¦ĸ ä»»
æĬ¥ éģĵ,
æĹ¶, ä»ĸ
éĻĲ äºİ
åį¢ çĵ¦
åį°åº¦ å°¼è¥¿äºļ
ç±»ä¼¼ äºİ
åıĳçĶµ åİĤ
L o
ãĢģ é¦Ļæ¸¯
éĥ¨ éĥ¨éķ¿
å¤© ä½¿
éĩĳ åĪļ
ç®Ĺ æ³ķ
éĩĩçĶ¨ äºĨ
éĴ¢ éĵģ
1 ä¾ĭ
æĢ ¨
çłĶç©¶ .
çº¤ ç»´
C P
D NA
çļĦ åľ£
åĽ½ è¯Ń
äºİ 2024å¹´
ä»¥ å¾Ģ
åĲį å½ķ
è· ĭ
çī¹ åĭĴ
åħ± è®¡
çº³ å°Ķ
çª Ŀ
çģµ éŃĤ
éĢı æĺİ
æĶ¹åĪ¶ ä¸º
çļĦ çĶŁæ´»
ãĢģ åĽĽ
ãĢģ äºĶ
åĵģ ç§į
æĻļ æľŁ
ä¿Ŀç½Ĺ Â·
( åľ¨
, åĨ³å®ļ
r u
åĽ½ æĹĹ
è·¯ ,
åįİ åĮĹ
éļı ä¹ĭ
æĤ ¼
ãĢģ å®ī
äºĶ å¹´(
è§£ éĻ¤
èı ±
ç¡® ç«ĭ
197 6å¹´
b y
åĴĮ äººåı£
åħĭ é²ģ
æ¸¯ éĵģ
åĸ Ŀ
å¾Ģ è¿Ķ
ä¸ºä¸» ,
F C
æŃ¤ å¤ĸ
éĢī ç¥¨
åĲĳ åĮĹ
éĶ ħ
è®¤ çŁ¥
æľ¯ è¯Ń
æ²¡æľī ä»»ä½ķ
é¦Ĩ .
éĢłæĪĲ çļĦ
äºİ200 7å¹´
åħĭéĩĮ ç±³äºļ
æ²Ł éĢļ
ä¸Ń æŃ£
éĹ ¹
æĺİ ä»£
åĶ ¤
er n
17 0
æķĪ çİĩ
èī¯ å¥½
çļĦæĺ¯ ,
æĲŃ è½½
9 00
éĺ ľ
åİŁ ä¸º
é»ĳ æļĹ
é¸ ¦
åŃĺåľ¨ çļĦ
åİ¿çļĦä¸Ģä¸ª è¡ĮæĶ¿
,å°¤åħ¶ æĺ¯
, åĪĺ
åĽ½ å®ī
åľ° å¤Ħ
å»º åĽ½
äºĭ åıĺ
çĽ¸ è¾ĥ
æŃ£ æľĪ
å®ŀ åĬĽ
or k
å¼º åĮĸ
å¸ĿåĽ½ çļĦ
,åį³ ä½¿
çĽ Ĵ
ç§° .
æīĵ å¼Ģ
âĢ §
ç¥ŀ ç¤¾
,æĺ¯ ä¸Ģç§į
äºº, ä¸ŃåĽ½
åħŃ å¹´
è¾ŀ åİ»
è¢«ç§°ä¸º ãĢĮ
( ç®Ģç§°
å° §
ä¸Ģ éĥ¨åĪĨ
äºĨ ãĢĮ
ä¸ĭ çļĦä¸Ģä¸ª
å£« åĿ¦
æĶ¾ éĢģ
198 0å¹´ä»£
åĵį åºĶ
ä¸Ńå¿ĥ ,
.ä»ĸ æĺ¯
åŃ¦æł¡ .
æĬĹ æĪĺ
193 9å¹´
ig n
, èİ·
åľ¨ è¥¿
åĮ ª
å¾· ç½Ĺ
ä½ĵ åĪ¶
æµģ æµª
å¢ĥ å¤ĸ
éĽĨåĽ¢ åĨĽ
ç§ģ ç«ĭ
ä¸Ģ ä»½
å·¥ åħļ
.åħ¶ åĲİ
ä¸ªäºº çĶŁæ´».
åĬŁèĥ½ .
ç§Ł çķĮ
çŃīåľ°, çĶŁéķ¿äºİæµ·æĭĶ
, é©¬
L in
æīĢ .
åĽł åºĶ
å¹² çº¿
ä¿Ħç½Ĺæĸ¯ çļĦ
ç²Ĵ åŃĲ
æįĲ èµł
i ver
), ä½Ĩ
è®¾ åľ¨
èģĶ åĨĽ
æ¯į èĪ°
å·¡ éĢ»
éĹ´ è°į
äºĮ æ¬¡
çĥ Ĥ
åħĪ åīį
åıĳå±ķ çļĦ
ä¸»æķĻ ç»ĥ
èķ ĥ
å°Ĭ éĩį
Â° C
çŃī çļĦ
éĺŁ åĳĺ
æł¹æį® ãĢĬ
ç»ĵæĿŁ åĲİ
é¦ĸ æī¹
äºº, ä¸Ńåįİäººæ°ĳåħ±åĴĮåĽ½
åı°æ¹¾ çļĦ
æĥ³ æ³ķ
æĺĨ æĺİ
æ§ Ł
æĢ İ
ç¼ Ģ
æ® ·
èĮ İ
ç²¾ çģµ
å¸ķ å°Ķ
åĤ¨ åŃĺ
å»¶ä¼¸ èĩ³
éĺŁ åľ¨
åĬĽ åŃ¦
ç¤¾ åĮºãĢģ
è½¬ åıĺ
å¼º å¤§çļĦ
ä¼¯ æł¼
è¿ª äºļ
.æŃ¤ åĲİ,
èĽ Ļ
å®ĮæĪĲ .
éĢĿä¸ĸ .
3 åı·
åĬ ¾
ä¸Ń æĸŃ
æ°ĳ æĶ¿
ãĢį ;
è¿ĩ åº¦
æ³¢ çī¹
,æľī äºĽ
æĺ¥ ç§ĭ
12æľĪ 31æĹ¥
çº· çº·
/ /
è¯ Ī
åħ¬ ç¤¾
ä¸ĭ åĪĹ
åĬ¨ æĢģ
èĥ½ åľ¨
éĺ² å®Ī
E T
ãĢģ ç¾İåĽ½
æľī çĿĢ
åıĳ è¾¾
ç®¡ æİ§
åĲĽ å£«åĿ¦
çļĦ é©¬
åľ° ä¸Ĭ
ä»ĸ ä¸º
è¢« åıĳçİ°
éķ¿ æĺ¥
æīĭ ,
éĴ ł
åķĨ äºº
çīĪ .
èı ©
å°ģ éĹŃ
.200 6å¹´
; çĪ¶
æľī âĢľ
ç¬¬ 10
èĢĮ åľ¨
æĢ§ ãĢģ
æĽ´ æĺ¯
å¼º çļĦ
å¥ĸ æľĢä½³
åı¦ ä¸Ģç§į
å¾® åįļ
ation al
åİ¿çļĦä¸Ģä¸ªè¡ĮæĶ¿ éķĩåĮº.
çļĦ åĨħå®¹
æľī åı¯èĥ½
éĹ ¯
æ¬¡ æķ°
å¢ĥ åĨħçļĦ
èĽ ®
M O
åħĭ éĽ·
æ¬¡ .
çĲĥ ,
åıĤ è®®åĳĺ
åĲĳ éĩı
åħµ åĬĽ
å°ģ éĶģ
- 19
0 9
ä½ £
ä¸º æľŁ
ä¸Ĭ æ¸¸
åħ¬ å¼ı
æ³¨ åħ¥
è¡¨çİ° åĩº
çļĦæĹ¶åĢĻ ,
å¸ĥ æĶ¿
é¦ĸ å°Ķ
æĺŁ çļĦ
æ³¢ å£«é¡¿
ä¹Ŀ æľĪ
çľĭ è§ģ
194 3å¹´
.åĲĮ å¹´,
ä»¥ æŃ¤
æł¼ æĭīæĸ¯
åŀ £
åıĹ åĪ°äºĨ
ä¸ĵ ç§ĳ
ä¸ĵ æ³¨
é¥° )
. æĸ°
æľŁ åĪĬ
ç¦ ¾
çĦ °
åıĤ æ¼Ķ
çĤ¹ æĺ¯
in a
ic k
éĩİ çĶŁ
å°ļæľª çĶ±äººå·¥å¼ķç§įæł½åŁ¹.
èī ®
åħ¨ ä¸ĸçķĮ
æĥħåĨµ ä¸ĭ,
ä¿ĥ ä½¿
å°¼ æ³Ĭ
è°ĥ ä»»
åİĭ ç¼©
æĺ¯ä¸Ģ åº§
å·¡ æĬļ
éŀ į
éĿŀå»ºåĪ¶ åľ°åĮº
éĺ Ģ
å¤ª åĲİ
éļı æľº
éĤ£ æł·
è®¾è®¡ å¸Ī
æıĲä¾Ľ çļĦ
åŁİå¸Ĥ çļĦ
ç²¾ ç¡®
åı³ ç¿¼
èĭ į
å¼Ģ æĴŃ
ç½Ĺ è®·
è¯º æĸ¯
æŀģ ä¸º
ä¹ĭéĹ´ .
éĽħ åħ¸
èĤ¡ ä¸ľ
å®ľ åħ°
æľī ä¸¤ä¸ª
Â· ç½Ĺ
çŃī äºİ
æ¶ ¨
æ²³ ãĢģ
æĿĥ ,
åĮ» å¸Ī
ä¹ĭéĹ´ ,
is h
æĹ¶ åĪ»
è·¯ å¾Ħ
åİ¿ åŁİ
ç»ĵ è®º
åı¤ å¸ĮèħĬ
å§Ķåĳĺ ,
å·¥ä½ľ äººåĳĺ
åħį çĸ«
å¹³æĸ¹åħ¬éĩĮ, äººåı£
è¶ĭ åĬ¿
æĺ¯ ç¾İåĽ½
ä»ĸ äºº
ä½ĵ æĵį
çķ ı
åĪĿ æŃ¥
æ´ª æ°´
åıĻ è¿°
å¤©æĸĩ åŃ¦å®¶
è¿Ļ é¡¹
äºĭ åĲİ
ç»ı ,
æ´»åĬ¨ çļĦ
åĬłåħ¥ ä¸ŃåĽ½åħ±äº§åħļ
èį£ èİ·
. åĪ°
ä¸Ń ä»¥
å¤§ çĲĨ
ãĢĬ æĸ°
åīį éĶĭ
é«ĺ æł¡
å®ļ çĲĨ
æ¬¡ åĪĹè½¦
æĦŁ æĥħ
æīĢåľ¨ åľ°
å§Ĭ å¦¹
åľ¨ ä¸Ģä¸ª
ä¸į ä½³
åıĳ èĤ²
åĬ¨ åĳĺ
æľĢ éĩįè¦ģçļĦ
å¤© åĲİ
ç¼ Ĩ
å±Ģ åĬ¿
æĬĢ å·§
ç³»ç»Ł ,
çĭ¬ çī¹
èĢĥ åħ¥
è®¨ ä¼Ĳ
æĪª æŃ¢
ag e
. ç¾İåĽ½
l es
èĥ Ģ
å°ı å§Ĳ
éĢī æĭĶ
åĸ Ļ
å§Ķåĳĺä¼ļ çļĦ
å½Ĵ ç±»
æľ« ,
ac t
æĭľ åįł
å±¯ éĹ¨
( 16
1 æľĪ1æĹ¥,
ä¼ļ ç¤¾
èĩª ä¸»
å¤© åºľ
0å¹´ ),
èĭı å·ŀ
ç¦» å©ļ
åĶ® ç¥¨
çľģçļĦä¸Ģä¸ªå¸Ĥéķĩ ,ä½įäºİè¯¥çľģ
ice _
cod ice_
æĹ¥ æĬ¥
åĩº åľŁ
åħ¬ ç«ĭ
ãĢĭ ()
å¹¶ ä¸įæĺ¯
åĨĽ æĸ¹
ä¸ļ ä½Ļ
éĤ ¹
å¤Ħ åĨ³
çİĩ åĨĽ
çħ Į
éĥ¡ .
å½¢æĪĲ çļĦ
èµĭ äºĪ
. æĪªèĩ³
åĴ ı
åĲį è¿Ľå£«.
ä¸ľ åĮº
éĺ¿ å¯Įæ±Ĺ
åº§ åłĤ
æĪ· éĥ¨
äººå¤§ å¸¸å§Ķä¼ļ
èŀº æĹĭ
éĻ¨çŁ³ åĿĳ
âĦ ĥ
r on
åľ¨ ä¸Ĭæµ·
ç¼ ¸
åĨ³ çŃĸ
ä»ĸä»¬ åľ¨
am es
as s
çļĦå½±åĵį .
C N
åİŁ æľī
éķĩ ãĢģ
çľŁæŃ£ çļĦ
t on
ç»ı è´¹
æĢ» ç»ıçĲĨ
æ°´ æ·±
æĶ¹ èī¯
12 7
å¤ª å®Ī
è§Ħ æł¼
å¼Ģåıĳ çļĦ
åĲ¦ åĪĻ
åĨ¯ Â·
T O
åŃ ļ
ä¹ĭ ,
åİŁ çĲĨ
é¦Ļæ¸¯ çļĦ
è§Ĥ éŁ³
å¤± è¸ª
èĭ±åĽ½ çļĦ
æ£® åł¡
çĨ Ķ
åĺī å®¾
195 8å¹´
éĤ® å±Ģ
0 1
æĸĩ Â·
æĪĺ ç»©
èİİ çĻ½
çĬ¶åĨµ .
åĩº èµĽ
èĢĮ éĿŀ
åĳĺ å¤ĸ
åı¯ éĿł
éĺ¿ åŁº
å·´ å«©
èİ· å¥ĸ
er e
åĲĪä½ľ ,
åĲįç§° .
æ½ľ åľ¨
éĽķ åĥı
äºº,åħ¶ä¸Ń çĶ·æĢ§
" ).
ä¹Ĳ åĽŃ
åį¡ å°ĶÂ·
éĽĨ çļĦ
åĽ¾ æ¡Ī
ç®¡è¾ĸ .
çļĦ éģĵè·¯
è¢ ľ
ç¬¬ åįģäºĮ
åĨĽ äºº
å¤ļ ä¼¦
åĬł æĸ¯
ç±» åĪ«
éĴ §
ç¦ı å°Ķ
é¹ ¦
196 8å¹´
æľĢé«ĺ æ³ķéĻ¢
é¢Ŀ å¤ĸ
èŁ ¹
% ä¸º
æĹ¥ çļĦ
èĢĮ éĹ»
ãĢį åıĬ
é«ĺ å±Ĥ
åı£ .
å¨ģ å°¼æĸ¯
èĩ³ä»Ĭ .
og le
æ°Ł åĮĸ
Play Station
çļĦ æĪĲç»©
æĭ ¯
ä»» æĦı
å¾· æĸ¯
æĽ¾ è¢«
éĽĨ ç»ĵ
ä¼ł éĢĴ
åıĺ æĽ´
199 0å¹´ä»£
èĪª ç«Ļ
ä¾¦ å¯Ł
èı²åĪ© æĻ®
é¢ Į
å½ĵ ä½ľ
å®ī å¦®
å£« ,
18 1
194 7å¹´
é»İ å·´å«©
äºİ200 6å¹´
ä¸Ń åİŁ
ä¹ĭ .
éĥ½ ä¸į
åı¤ è¿¹
æŃ» åĲİ
zh-h ant:
æĲľ ç´¢
æĪĺ åĽ½
æķ° ä¸º
å¤ª åİŁ
éĿ¢ç§¯ åĴĮäººåı£
è§Ĥ èµı
.è¯¥ åľ°çļĦ
æ¸© æ³ī
çªģ åĩº
æĴ¤ ç¦»
ãĢĭ è®°è½½
åĵ º
åı¯ åīįå¾Ģ
10 5
å¦Ĥ åĲĮ
ç¡ ħ
ç½® äºİ
ç¡¬ å¸ģ
å¤§ å®¶
å£ ¬
éĺŁ åıĭ
äº¤ åĵį
è§Ĥ å¿µ
åĻ¨ ãĢģ
éº ĵ
ç»ĵæŀľ .
è¿Ľå£« ,
æĲŃ éħį
i um
p en
åľ¨ ä»ĸ
æĪ İ
ä¸ī åĲį
åĽĽ åįģ
ä¿¡ ä»»
æİĴ éĻ¤
åŃ¦éĻ¢ ãĢģ
è´Ń çī©
åº ¸
ç¥ ·
ç«Ļ èĩ³
ä¸¤ åº§
ç³» .
A .
äºº è¢«
è¿Ļ é¢Ĺ
å¹³ æĪĲ
åıª è¦ģ
è¾ĥ å¤§çļĦ
æĶ¯æĮģ èĢħ
An d
éĴĵ é±¼
ð ¬
æŃ ¼
åĨħ äºļ
æķĻ å¾Ĵ
ä¼ł è¾ĵ
æĳ ĺ
éĥ¨åĪĨ .
éĺ² åį«
èĿ Ļ
çļĨæľª çŁ¥.
éĿ¢ç§¯åĴĮäººåı£ çļĨæľªçŁ¥.
.è¯¥åľ°çļĦ éĿ¢ç§¯åĴĮäººåı£çļĨæľªçŁ¥.
è¯´ æľį
17 5
æĹ¶éĹ´ çļĦ
åŃĺåľ¨ .
åĲĪå¹¶ ä¸º
æĭľåįł åºŃ
, å¯¹äºİ
ä¸ ¢
ä¸º è¯¥
åľ° åľ¨
åĪĨ ä¹ĭ
åĲĳ ä¸ľ
ä¸Ń, ä»ĸ
æĸĩåĮĸ çļĦ
æĸĩåĮĸ å¤§éĿ©åĳ½
ä¾Ŀ éĿł
åģļ æ³ķ
é¡º æĹ¶éĴĪ
æĦıè¯Ĩ åĪ°
åĨ ¢
åĪĴ åħ¥
198 1å¹´
çŃĸ åĪĴ
ä¸įä¹ħ ,
æĹłçº¿ çĶµ
èĿĻ èĿł
, æ¯Ķå¦Ĥ
æĺ¯ æĹ¥æľ¬
æĹ¥ çĽĬ
è´ ¦
åĲį åı«
åĪĨ äº«
è¢« åĪĹä¸º
ç¾İ ä¸½
è° ķ
çº¦ åħĭ
åĲĳ åįĹ
å°± æľī
ç¬¬ä¸Ģ çĻ¾
çļĦä¸Ģ æ¬¡
ç½ĳ åıĭ
æ¨¡ ä»¿
ä¹Ŀ å·ŀ
å©ļ ç¤¼
ç´¯ ç§¯
çļĦæĥħåĨµ ä¸ĭ,
å¸ĪèĮĥ å¤§åŃ¦
, çĶ¨äºİ
- 3
A d
è¿Ļ åľº
å¤© æĸĩåŃ¦
è®© ä»ĸ
1 12
æ° Ľ
ä¹ĭ å¤Ħ
ãĢĭ ç³»åĪĹ
æŃ¤ ,
å¥³ ç¥ŀ
æ» ŀ
å¡ŀ æĭľ
çĥŃ éĹ¨
è¯» èĢħ
èĲ¨æĸ¯ å·ŀ
ç§ ī
åħ¶ ä½Ļ
æĸ¹ ç¨ĭå¼ı
è¿ĺ åĮħæĭ¬
åħ¶ä»ĸ çļĦ
éĺ³ åİ¿
åĥ ļ
å®Įæķ´ çļĦ
, )æĺ¯
i )
è½¦ ,
é» ı
åıĤ è§ģ
æ²Ļ æ¼ł
å¤ı å¨ģ
å¯º éĻ¢
è®¯ æģ¯
å¹¿æ³Ľ çļĦ
Go ogle
0 .5
ä¸Ģ åı·
æ± ¶
éĵ Ŀ
æķ° åįĥ
åİŁ åŀĭ
é¦ĸ å¼ł
åĶ ĩ
æĸĩåĮĸ éģĹäº§
å¼Ĺ åħ°
è¡Ģ æ¶²
9 1
åħ° å·ŀ
åĿĩ åľ¨
éħį ä¹Ĳ
è´¥ .
æ²¿ çĶ¨
ä¼ĳ æģ¯
æ¯« æĹł
æµģåŁŁ éĿ¢ç§¯
éĿŀå»ºåĪ¶åľ°åĮº .è¯¥åľ°çļĦéĿ¢ç§¯åĴĮäººåı£çļĨæľªçŁ¥.
. âĢľ
åľ¨ ä½į
äºº æĸĩ
éķ ¶
åı° ä¸ľ
åĲĳ è¥¿
åį³ ä½į
æĿĥ å¨ģ
æĿ° åĩº
å¤§åį« Â·
åł µ
çłĶç©¶ ä¸Ńå¿ĥ
ä¸Ĭæĺł .
M I
æĸ¯ ãĢģ
ä¿ ±
åĬ¨ å·¥
ä¹Ł æ²¡æľī
å±± åı£
è¿Ĳ ç®Ĺ
æĿ¡ çĽ®
è§ģ åĪ°
åĬ© äºİ
çİ¯ ä¿Ŀ
è½¦ç«Ļ ç»ĵæŀĦ.
è¡ĮæĶ¿ ä¸Ńå¿ĥ
194 0å¹´
åı¬ éĽĨ
åĨ° å·Ŀ
çļĦä¸» é¢ĺ
å¹» æĥ³
èģĮåĬ¡ .
åľ° åŁŁ
æĿ¥ çľĭ
èĩª ç§°
çŃī çŃī.
èĭ± è¶ħ
æ°´ ä¸Ĭ
å½± è¯Ħ
ä¹ī åĬ¡
æİ¢ è®¨
of t
æĺİæĺ¾ çļĦ
èĢĮè¨Ģ ,
èĬĤåº¦ ä½¿
ãĢģ 2
åĵ Ń
åħ° åį¡
åī¯ æĢ»ç»Ł
æ¾ İ
åĨµ .
ro und
ä½įç½® .
åıĺåĮĸ .
å°¸ ä½ĵ
()æĺ¯ä¸Ģä¸ª ä½įäºİç¾İåĽ½
D A
çļĦ æīĭ
åľ° åĿĢ
å¤ļ ä¸º
åıĤ æķ°
ä¸ĵ åĪ©
éĿĴ æµ·
äºİ19 1
è´¹ å°Ķ
æ¢ħ å°Ķ
çī©çĲĨ åŃ¦
0 8
ä»¥ ãĢĬ
ç¬¬ 8
åĽŀ åĽ½
åĽ½å®¶ å®īåħ¨
çīĻ é½¿
197 8å¹´
äºĪ ä»¥
,æĪĸ æĺ¯
åŁºçĿ£ å¾Ĵ
9 ,
åĲį é¢Ŀ
ç¬¬ 7
éĢł åŀĭ
ç»Ī èº«
ç³»ç»Ł ãĢģ
ä¸ĥ å¹´
å®£å¸ĥ å°Ĩ
çģµ æĦŁ
( )ãĢģ
t y
åĲį âĢľ
åĵ ©
åĲĮ åŃ¦
ä¸ī çº§
ä½ĵ ç§¯
åĪ¶ è£ģ
æĮĩ ä»¤
æ±ī åł¡
ro s
åħħ åĪĨ
ä¾µ çĬ¯
" (
, äº«å¹´
G B
M us
åĲ ĵ
éĵ ħ
æĢ» åı¸ä»¤
æīĵ éĢł
è´Ŀ æł¼
åĩł å¹´
åıĭ è°Ĭ
å¯º åºĻ
åĪł éĻ¤
, åı¯èĥ½
èĥ ĥ
æĸ° äºº
æĹı çļĦ
çĪ± å¥½
æ¦ ´
II I
ç½ķ è§ģ
ä¸Ń ä¹¦
åħĭ ãĢģ
åŃĲ åħ¬åı¸
ä¹¦ æ³ķ
196 0å¹´
un g
, åĮħåĲ«
0 6
C ol
ç¬¬ 11
å¤© ä½ĵ
çĭ Ĳ
ä¹ł è¿ĳ
èĢ¶ å°Ķ
193 8å¹´
ä¼į å¾·
æĦıåĳ³ çĿĢ
, ç»ıè¿ĩ
ä¸º é¦ĸ
çī º
æ³ķ åŃ¦
åĨĽ å§Ķ
å¤ļ Â·
âĢĿ ,å¹¶
æĽ´ æĶ¹
ä¹Ŀ å¹´
æĪĲåĬŁ çļĦ
äºİ18 8
æ¸ħåįİ å¤§åŃ¦
B o
m y
ä¸Ĭ åįĬ
æĸ° è¥¿åħ°
å¹³ å®ī
201 8å¹´,
çº§ è¡ĮæĶ¿
æ¢ Ń
åĵĪ å¾·
åľŁ å£¤
åĩºçİ° .
é¡º æ²»
èĪªç«Ļ æ¥¼
å¤ıå¨ģ å¤·
æĪ ļ
çĻ ¸
ç±³ èĩ³
202 2å¹´,
è¿ĲåĬ¨ .
æĿĢ .
B O
ä¼ļ ãĢģ
åīį çº¿
èĤ ¾
éŁ³ èĬĤ
åľ£ è¯ŀ
éĺµ èĲ¥
å´ĩ æĭľ
i -
çļĦ ãĢģ
å¤§ è¿ŀ
æķ° ä¸ª
éĺ¿ å§Ĩ
èģĮ è´£
åħŃ å¹´(
çĶµè§Ĩ èĬĤçĽ®
æĽ¼ èģĶ
196 4å¹´
æ²¿ çº¿
æŁĲ ç§į
è¯Ń: ),æĺ¯
èĩĢ é³į
, æľŁéĹ´
å¤§ æī¹
åĨĽ èĪ°
éĩĮ æĺĤ
éĢł èĪ¹
çĳ ļ
.ä»ĸ è¿ĺ
æ£® Â·
14 5
åŃĺåľ¨ äºİ
åħ¬åħ± äº¤éĢļ
è·¨ è¶Ĭ
æ¢¦ æĥ³
, æĪĳä»¬
æľī çº¿
æĸ¯ åĽ¾
ä»» åĨħ
æľŁ .
éĶ ¥
åıį æĬĹ
æĽ² .
on d
ç¼ĸ åħ¥
è½¬ ä¹ĺ
æĿĳ ,
ä¸ĸçķĮ éģĹäº§
æĪĲç«ĭ åĲİ,
æĪĺäºī .
.åħ¶ ä¸Ń,
æ¯« ç±³.
å¥ĸé¡¹ .
, æĿ¥
çļĦ å¼Ģ
ç«Ļ æĺ¯
åįİ ä¸º
çĶ· ä¸»è§Ĵ
æŃ» åĲİ,
çª ĳ
195 2å¹´
èĭ¥ å¹²
æĪĪ å°Ķ
é£ŀè¡Į åĳĺ
çļĦ ç¤¾ä¼ļ
ä¸ĭ æ¸¸
çŃī çŃī
æ¸¯ åħĥ
ç®¡ åĪ¶
çłĶ åĪ¶
ä¼¯ åĪ©äºļ
åıĳå±ķ ,
æĹĹ ä¸ĭçļĦ
å·¡ æ¼Ķ
è¡¥ ç»Ļ
å¹³æĸ¹åįĥç±³ .æł¹æį®
éŀ Ń
7 æľĪ1æĹ¥
ç«ĭ å§Ķ
åŁİ ãĢģ
è¯Ħ å®¡
é¢ĳ ç¹ģ
ä»»åĬ¡ .
åı« åģļ
- zh-cn:
çļĦ åı¯èĥ½
), åľ¨
å®ļ ä½į
èĭ± å¯¸
æĦı .
åħ¸ åŀĭ
çīº çī²
( æ°ĳåĽ½
A V
çļĦ åħ¨
åį ¯
è¡Į è½¦
è¿Ļ åº§
æĻ® åıĬ
æĬķ æīĭ
å¸Į Â·
13 6
æĺĨ èĻ«
ä¹łè¿ĳ å¹³
C C
i le
ä¸º é£Ł
å¹³ å®ļ
é«ĺ å±±
é£İ æĻ¯
å®Į ç¾İ
èĲ¥ åħ»
åŁºæľ¬ ä¸Ĭ
åĲįåįķ .
åīį æĿ¥
å¾Ĺ åĪĨ
éĩı .
æĹı èĩªæ²»
åŃ£ èĬĤ
æ±ī æĹı,
æ¹ĸ å¹¿
æį· è¿Ĳ
, å¤ĸ
, ä»į
åŃ¦ åłĤ
ä¸Ĭ å°Ĩ
æĥ ĳ
äº¤ ä»ĺ
en ce
æ´Ľ çī¹
æ´Ľ éĺ³
ent er
ãĢī ãĢģ
è¾½å®ģ çľģ
åı¤èĢģ çļĦ
, çİ°åľ¨
çķ ´
åĲĪ çĲĨ
ä¹Ĳ åĻ¨
,æŃ¤ å¤ĸ
æľºåĻ¨ äºº
S -
i er
p s
åĴĮ ç¤¾ä¼ļ
åħ¶ åľ¨
æ¸ Ĺ
å®¶ å±ŀ
çĶ± æŃ¤
åĬ¨ .
æŃ¤ åĲİ
ç¦ ¹
å½± å±ķ
æıĲ çĲ´
è§ģ äºİ
æķ´ çĲĨ
ä¸ĸçºª çļĦ
is s
éĢĥ ç¦»
çĽ®æłĩ .
åıĹä¼¤ .
æĵħ éķ¿
å°¼æ³Ĭ å°Ķ
S O
å¤© .
éĻ¢ æł¡
åĽ¢ çļĦ
èĳĹ æľīãĢĬ
15 00
æĹ¶éĹ´ ä¸º
197 0å¹´
197 5å¹´
è¡¥ åĬ©
æĻĭ åįĩ
åıĳå¸ĥ äºĨ
åĲ¬ åĪ°
èµ¤ çº¬
å½¼å¾Ĺ Â·
ç»´åŁº çĻ¾ç§ĳ
M o
ä¸Ģ äºº
è¯¥ çīĩ
é¾Ļ ç§ĳ
ç½ĳ æ°ĳ
è¡ĮæĶ¿ éķ¿å®ĺ
ä¸¾è¡Į ,
äº¤æĺĵ æīĢ
å±ı ä¸ľ
æĹ¥ è¯Ń
éĺ Ĳ
åĳ¨ æľ«
ä¹Į é²ģ
çİ¯ ç»ķ
æł¼åħ° çī¹
ST AT
; ç¥ĸçĪ¶
I G
l and
åĪ© å¥¥
éģĵ æŃī
å·´ æĸ¯
åĨľ åİĨ
æĻº åĪ©
åı¦ä¸Ģ æĸ¹éĿ¢,
.194 9å¹´
äºĭå®ŀ ä¸Ĭ
å·¡åĽŀ èµĽ
ç²¤ è¯Ń
å½° åĮĸ
é¢ģå¥ĸ åħ¸ç¤¼
çļĦ ç¬¬ä¸ī
éĺ¿å°Ķ å·´
è·¯çº¿ .
,äº¦ æĺ¯
æµ·åŁŁ ,
ä¿ĺ èĻı
Ne w
æ¯Ĺ éĤ»
u de
çļĦ æ¦Ĥå¿µ
ä¸Ń èİ·å¾Ĺ
æĸ¯ å¤§
åİ¿ æ²»
æ¹ Ľ
éĩĳ éĹ¨
æ· Ģ
å¯Ĩ èĭıéĩĮ
è¯º è´Ŀå°Ķ
æĶ» åħ¥
èŃ¦ åĳĺ
,å¹¶ä¸Ķ åľ¨
,æ¯ı ä¸ª
éĽ¶ åĶ®
éĽį æŃ£
å±± .
çİĭ ,
æĻ® æŀĹ
or ld
åĽ¾ å½¢
çīĪ çļĦ
çģ« çĤ®
è¿½æº¯ åĪ°
0 7
T r
w it
ä¸Ģ èĩ³
äºº ç§°
äºº æ°Ķ
çī ¢
å¯¹ æ¯Ķ
äºļ ç§ĳ
âĢĿ åı·
çŁ¥ åİ¿
æīĵ è´¥
æĭħ å½ĵ
åĮºåŁŁ .
å¼ĢæĶ¾ .
èī °
çĶµå½± .
é¥ ²
195 6å¹´
æĸ¹æ³ķ .
å¹¿å·ŀ å¸Ĥ
å±Ĭåħ¨åĽ½ æĶ¿åįı
æ¨¡çī¹ åĦ¿
0 2
çļĦ è¥¿
åĮ ¿
æĺ¯ å¯¹
å¤§ åĲĮ
æľī å¤ļ
åĩ °
æĹ¥ .
ä»» ä¸Ńåħ±
æ¬¡ ,
æ±Ł è¥¿çľģ
ä¿¡ çĶ¨
åįļå£« åŃ¦ä½į
ä½ľæĽ² å®¶
èĴ¸ æ±½
å¤§ å¸Ŀ
âĢĿ ä¹ĭ
è¯¥ åħļ
ä½ĵ éĩį
èİ± æĺĤ
ä»ħ ä»ħ
ç®Ģ åİĨ.
èµĶ åģ¿
, éĤ£ä¹Ī
F or
ä¸Ģ éĹ´
ä¸Ń æĹ¬
æİ ·
çī¹ éĽ·
æĸ° åı°å¸ģ
è¿Ľ å±ķ
éħ ¬
å¥³ ,
éª ¸
å¤į åĪ¶
é£Ł æĢ§
å®« å»·
æ¯ķä¸ļ åĲİ,
åĿĲ æłĩä¸º
è¯¢ éĹ®
æĪĺåĪĹ èĪ°
åħ± è¯Ĩ
éĩį ä¿®
çĽ´ è¾ĸ
é¢Ħ å®ļ
.200 5å¹´
èĪªç©º æ¯įèĪ°
åħ¬å¸ĥ ä¸º
åİ¿çļĦä¸Ģä¸ª éĿŀå»ºåĪ¶åľ°åĮº.è¯¥åľ°çļĦéĿ¢ç§¯åĴĮäººåı£çļĨæľªçŁ¥.
è¾ £
ãĢį æĪĸ
å°Ĩ ä»ĸ
åİŁ å®ļ
éª ¤
å±Ģ éĥ¨
çĵ¦ åħ¹
è£ģ å®ļ
ç§ĭ åŃ£
, æľª
A G
T E
æĪĲ åĪĨ
å¯¹ ä»ĸ
æľº ãĢģ
æĽ´ å¤§çļĦ
çĵ £
17 6
å¹³æĸ¹åħ¬éĩĮ .
å·¦ æ´¾
æĻļ éĹ´
æľīåħ³ çļĦ
æĭĽ åĭŁ
( å¾·
C H
çļĦ èº«ä»½
ä»¥ 2
ä¸į çŁ¥
çľ ī
æ± ķ
æĭī çļĦ
æĢ» ä¹¦è®°
éľ ĸ
å¸¦ æĿ¥çļĦ
è´Ł éĿ¢
å±Ĭåħ¨åĽ½ äººæ°ĳä»£è¡¨å¤§ä¼ļ
æľĢè¿ĳ çļĦ
M a
Ð °
è¿ Ħ
ãĢģ ç¤¾ä¼ļ
çº Ĥ
æľī ä¸¤
åī ¿
éĩĮ åħĭ
ç«ĭ ä½ĵ
éĢļ è¡Į
ç³» çļĦ
éķĩ ,
æĶ¯ çĲĥéĺŁ
åĨ³ äºİ
çļĦä¸Ģ é¡¹
å¤į æ´»
çľŁ äºº
193 6å¹´
ä¹ĭåīį çļĦ
åįģäºĮ æľĪ
è¯¸ å¤ļ
æľĢåĪĿ çļĦ
ä¸»æĮģ äºº
åĲīæŀĹ çľģ
, è½¬
æľ¬ è´¨
æŃ£ ç»Ł
åĲī ä»ĸ
çģ« è½¦ç«Ļ
æĪĺäºī çļĦ
æĽ¿ æį¢
ow n
. ä»¥
w e
çĶµ è·¯
è¯¥ åħ¬åı¸
æŁ ¬
åŁİ åİ¿
éĩĳ çīĮ.
å¨ ¥
äº¤ çĶ±
)æĺ¯ ä¸Ģç§į
æĻ® äº¬
å»ºçŃĳ éĿ¢ç§¯
çº½çº¦ å·ŀ
,æ¯ı å¹´
5 000
çī Ł
ä¾ Ħ
), ä¸º
æĢ» ç«Ļ
æ²Ļ çī¹
çĶ² æĿ¿
ä¹ł ä¿Ĺ
æĪĺäºī ä¸Ń
éĢļå¸¸ æĺ¯
æııè¿° .
, å°ı
å¯ ¡
åĲĦ åľ°çļĦ
åĪĿ çº§
ä½ľåĵģ ãĢĬ
åĪĨåĪ« æĺ¯
åĬ¨çī© .
è½¯ æĿ¡
å¹´è½» çļĦ
E x
W h
n et
çļĦ æľĢé«ĺ
åĲĮ å¿Ĺ
åį³ åı¯
ic al
,æŃ¤ æĹ¶
æģĲ æĥ§
å¹¿æĴŃ åħ¬åı¸
çģ¾ éļ¾
åĽ½ åħ±
å¸¸ ä½ı
ç¦ı çī¹
ç¬¬äºĮ è½®
é¢Ħ éĺ²
æĹ§ éĩĳå±±
åħ¨åĽ½ éĩįçĤ¹
24 å°ıæĹ¶
åĸľ çĪ±
æĭ¯ æķĳ
3 D
B BC
å¼Ģ ä¸ļ
é© °
ä¹Ł åĽłæŃ¤
æ²» å®ī
æŃ£ è§Ħ
å½± ä¸ļ
æŃ¢ äºİ
èģĮä¸ļ çĶŁæ¶¯.
äº¨åĪ© Â·
çļĦ åĽĽ
èµ ¦
ä¸į è¯¦
åħĭ åĬ³
åĩ» ä¸Ń
å·Ŀ åİ¿
çĽĳ ç®¡
è´Łè´£ .
é¹ ī
æł¹æį®2010å¹´ ç¾İåĽ½äººåı£æĻ®æŁ¥çļĦæķ°æį®,
s ,
æĹ¶ å¸¸
é² ¶
çĭ ©
åĢĻ è½¦
åĽ½æ°ĳ éĿ©åĳ½
è¡Ģ ç»Ł
è¯Ħè®º å®¶
çļĦ ç»Ŀå¯¹
äºĨ ä¸¤
æ³ķ åĨĽ
æľŁ æľĽ
åĪĹ å®ģ
èº« ä¸Ĭ
è§£ .
æ¸ħ çľŁ
åıĳçİ° ,
196 6å¹´
å·® è·Ŀ
åĬłåĭĴ æ¯Ķ
çļĦ ç»ıæµİ
å¾· å·Ŀ
åĮĸ ãĢģ
å®ī ç½®
å¹³æĸ¹ ç±³
it e
æķħäºĭ .
åĪĨ ç»Ħ
åħĭ å°Ķ
éħ °
åıį å°Ħ
çĶµå½± çļĦ
ç»ĦæĪĲ ,
ç¼ĵ æħ¢
åĪĹè¡¨ .
åĵº ä¹³
C -
ãĢģ éķ¿
åľ¨ åĮĹ
å°Ķ æĸ¯Â·
æ± ģ
åīį æĸ¹
æĪĺ è½¦
çº§ .
åħī åŃ¦
å¾Ī éļ¾
æ·± åĪ»
è®¡åĪĴ ,
å¹² é¢Ħ
é©» æīİ
195 4å¹´
è¿ģ å¾Ģ
è¿ĲåĬ¨åĳĺ .
()æĺ¯ä½įäºİ ä¹Įåħĭåħ°
æ½ľ æ°´
äº« æľī
s .
æĺ¯ æľī
èĥ °
ä»£ åı·
äºļ å½ĵ
ä¹Ł åı¯
è½¦ äººæ¬¡
10 ä¸ª
æ· ³
æł¡ åıĭ
or y
èĭı è¾¾
çĭ¬ èĩª
å£° ä¼ĺ
è¡Ĺ å¤´
æĿĢ äºº
è¿ľ ä¸ľ
æĸ¯éĩĮ åħ°åį¡
D -
S er
äºº çĶŁ
ä½ľ .
åĬł é¾Ļ
æĸĩ ,
âĢĿ æĪĸ
æĮĩ çļĦæĺ¯
æ» ´
æĿ¥æºĲ .
ä¹ĭ ä¸Ń,
æ³ķ å®ļ
æµ· åħ³
åİ¿ æĶ¿åºľ
å¹¿ ä¹ī
äººæ°ĳ æ³ķéĻ¢
å¤į åĲĪ
çİĩ åħĪ
åĪĹè½¦ .
çīĪæľ¬ çļĦ
åīĳ æ¡¥
èĭ±æĸĩ :
èħĵ çī¹
% ;
çļĦ å¤ļ
ä¸Ģ èģĮ
ä¸Ń çŃī
åĴĮ ç¾İåĽ½
æĭī å¤ļ
æĢ» ä½ĵ
æĽ¾ ä¸º
ä¸¾ äºº.
ä¸ĩ å¹´
å¨ģ å°Ķæĸ¯
æľĢåĲİ çļĦ
åŃĻ ä¸Ńå±±
æ£Ģ éªĮ
çº½çº¦ å¸Ĥ
p r
åĲ Ĺ
åĨħ çĳŀ
çĶµ ä¿¡
å¢ ħ
æ°´ åĪ©
ä¹¦ ãĢĭ
å°± è¢«
è½¬ æĴŃ
æīĵ è¿Ľ
æĤ Ł
å¹² æī°
æ°ĳæĹı ä¸»ä¹ī
èĳ¬ äºİ
ç½¢ å·¥
è½¬ç§» åĪ°
, å½ĵåľ°
1 åı·çº¿
åĴĮ .
ä¸ĸ .
å®ļ å¾ĭ
å·´ é©¬
æĹı äºº
ä¼Ĭ å°Ķ
æĶ¾ ç½®
åı°æ¹¾ çľģ
æŃ» ,
æ¤ Ĵ
è¿ľ å¾ģ
å¤º åĨł
å¹¿æĴŃ çĶµåı°
èµ·æºĲ äºİ
èħĵçī¹ çĥĪ
a f
ä»¥ åħ¶
æĪĲ åĮĸ
ãĢĬ å¤§
æľ¬ å±ŀ
åħĭ åĪ©
æŃ¤ åīį
èµĽ èīĩ
æķ° åĢ¼
éĩį çļĦ
,ä½Ĩ ä»į
å§Ķ åĨħçĳŀ
è½¦ç«Ļ æŀĦéĢł.
åŃ¦æł¡ çļĦ
æľĢåĲİ ä¸Ģæ¬¡
çĲĥåĳĺ .
åĳĺå¤ĸ éĥİ
o st
ãĢģ å®½
åĲİ åį«
æµ· æ°´
æīĢ å¾Ĺ
ä¸ī ä½į
ä½ĵ åŀĭ
éĤ ¸
è¯´ æĺ¯
ç¥ŀ çĪ¶
èĬ± èİ²
æ¸¸æĪı ä¸Ń
åħ¸ åŀĭçļĦ
çĦ¶èĢĮ ,
ä»ĭ çŁ³
åĭĥ èī®
ä¸Ģ æĸ¹
åĩº æĿ¥çļĦ
æŀ «
ä½ľ è¯į
éĩĮ ç¨ĭ
å§Ķ å¸¸å§Ķ
ç¬¬ä¸Ģ æī¹
æ¸ħ æ°´
çŁŃ çīĩ
çĩ ¥
åĶ±çīĩ åħ¬åı¸
æĭĺ æįķ
çļĦ åħ¶ä»ĸ
å°± ä»»
çģ« åĬĽ
è´¥ ,
å¯Į å£«
å°ģ éĿ¢
åİĤ åķĨ
åħ¬åĬ¡ åĳĺ
I A
ä¸ĭ æĹ¬
åįĹ å®ĭ
âĢĿ çŃī
æĶ¿æ²» å±Ģ
ç»ĩ çĶ°
åĲ¯ çĶ¨.
ç¹ģ å¿Ļ
ç»´å¥ĩ Â·
é¹¦ é¹ī
, åĿĩ
C ar
ä¹ Ĵ
æĪĲ çļĦ
ç½ Ĳ
éĥ½ åı¯ä»¥
éħ ±
éħ µ
è¾ĥ å¤§
ç²¾ èĭ±
åĲĪä½ľ .
ä¾µ çķ¥
å§Ĳ å¦¹
è¯ŀ çĶŁ
åĽļ çĬ¯
è¢« éĢīä¸º
åĮĹ çº¦
æŃ£ æĺ¯
å¾Ī å¤§çļĦ
ç§» æ¤į
èįī åİŁ
å« ¡
(åŃ¦åĲį: )æĺ¯
,ä½įäºİè¯¥åĽ½ è¥¿éĥ¨
ç®Ģåįķ çļĦ
B l
Ã ¡
çļĦ è¯´æ³ķ
ç» ħ
å°¼ æĹ¥
åĲĦ é¡¹
åıĸ åĨ³äºİ
,æĺ¯ ä¸Ģä¸ª
å¥ĸ åĬ±
å§ĵ æ°ı
çī§ å¸Ī
çıĬ çĳļ
æĦ¤ æĢĴ
0 4
åĬ¨ è¯į
æľĢ æľī
è½¦ èº«
ç«ĭ æ³ķéĻ¢
ä¸ĸ çļĦ
èĲ ¤
æ¬¡ æĹ¥
åľº åĲĪ
è¾¾ å°¼
é¦ĸ æĺł
ç¬¬äºĮ åŃ£
è¯Ĺ æŃĮ
åĪĬ çĻ»
åĩ¤ åĩ°
åĢº åĬ¡
ä¸Ĭ ä¸Ģ
çİĭ ä½į
æĽ¾ æĭħä»»
åĪĴ åĪĨ
åĸ Ĭ
é¥ ±
çĽĳ ç¦ģ
åĶĲ ä»£
è¡Ģ ç®¡
å°¼åı¤ æĭī
, éĤ£
. éļıåĲİ
äºĭ å®ľ
é©¬ åĬĽ
åħ± äº«
æĮĩ æłĩ
ç»Ī ç»ĵ
æĺ¯ä¸Ģ éĥ¨
åĪ¶éĢł åķĨ
çļĦçī¹ å¾ģ
ç¨ĭåº¦ ä¸Ĭ
èĴĭ ä»ĭçŁ³
SA O
è´« åĽ°
åıĳè¨Ģ äºº
çļĦ æľī
æĶ¿ å§Ķ
å¤ļ å¤«
æĶ¹ ç»Ħ
å±Ģ ,
è¶³çĲĥ è¿ĲåĬ¨åĳĺ,
çŃ¾ è¯ģ
èĳĹä½ľ .
a e
o ol
åľ¨ æ³ķåĽ½
æĸ° ä¸Ģ
é«ĺ å³°
æľº åĬ¨
å·ŀ çļĦä¸Ģä¸ªå¸Ĥéķĩ.æĢ»éĿ¢ç§¯
éĿ¢ç§¯ 0.
() åĴĮ
éĻįéĽ¨ éĩı
, æīį
0 3
C R
S M
çļĦ æłĩåĩĨ
äºĨ åħ¶
201 7å¹´,
äº§ çī©
å·² åľ¨
æĬ¤ çħ§
åĬŁ çİĩ
åįĬ å¾Ħ
æĳ© æīĺ
æįŁ å®³
æµª æ¼«
å¤įæĿĤ çļĦ
c c
è¿Ļ æ®µ
æĢ» æĺ¯
åįİ ä¸ľ
åĭ ī
å®ĥ æĺ¯
å¼¹ åĬ¾
197 3å¹´
åĲ¯ åıĳ
æ¸Ĳ æ¸Ĳ
èİī Â·
æĪĳä»¬ çļĦ
ç¾İæľ¯ é¦Ĩ
é«ĺéĽĦ å¸Ĥ
,è§Ĩ æĺŁçŃīä¸º
( åĲİ
çļĦ è¡¨çİ°
æ³ Į
ä¸į åıĹ
è¶³ ä»¥
æł· æľ¬
åĩł åĨħäºļ
èĪĨ è®º
æĹ¶ è¢«
æ°ĳ åħļ
ä»£ è°¢
åħĥ å¹´
å¥¥ å¾·
å¸¦ èĳĹ
åĭĴ æĸ¯
ä¼Ĺ äºº
il li
çīĽ æ´¥
ä»ĺ è´¹
ç¹ģ èį£
å¼ĺ æ²»
ãĢģ åīį
äºº ä½ĵ
åĲİ æīį
éĩĮ éĿ¢
åŁİ éĻħ
è½¬ åŀĭ
åĬŀ æ³ķ
å¡Ķ åŁº
çħ ®
ä¿Ħç½Ĺæĸ¯ èģĶéĤ¦
sp an
è¤ Ĵ
ç¬ ĥ
åĲį ãĢĮ
çº³ æĸ¯
é¾Ļ ãĢģ
æ¦ľ åįķ
åı¦ä¸Ģ æĸ¹éĿ¢
åĮĸåŃ¦ å¼ı
Î ²
çļĦ åľ°åĮº
å¤§ æŃ£
åľ° ä½į.
éĹ µ
ä¸į èī¯
,ä½Ĩ æľĢç»Ī
èī² æĥħ
å±Ĥ .
åŃ¦éĻ¢ .
æľĢé«ĺ çĤ¹
äººç±» çļĦ
æĲŃ æ¡£
çº¦çĳŁ å¤«Â·
é¡ºæĹ¶éĴĪ ä¸İ
s c
ä¸» äºĭ,
åĮĹ å®ĭ
å®ī æīĵ
éĥ½ æ²¡æľī
åĩ» éĢĢ
195 5å¹´
éª¨ éª
æŁĲ ä¸ª
äºİ200 5å¹´
åİŁåĽł æĺ¯
, æīĢæľī
çļĦ éĿŀ
å² ĳ
çł į
å¥¥ åı¤
æĶ¯ æĴĳ
è§Ĵ .
åĲįä¸º ãĢĬ
æĵ ¢
æĸ¹å¼ı .
çļĦåīį èº«
, åħ·æľī
åĴ Ĵ
æĹ¶ ä¼ļ
åĪ¶ å¤ĩ
æĽ¾ ä»£è¡¨
ä¹Į æĸ¯
æī§ æ³ķ
formula_ 3
å®« æ®¿
è¯Ńè¨Ģ .
è¿ĲèĲ¥ .
è¶ħçº§ èģĶèµĽ
éĥ¨ éķ¿.
æ³ķ å°Ķ
æ³ķ è§Ħ
èį «
çĽ´ å±ŀ
åºĶ å½ĵ
çĳ ¶
ä¾¿ æĺ¯
è¯Ĺ äºº
æĸ¹åĲĳ çļĦ
æļĹ ç¤º
åĭĥèī® ç¬¬
u x
çļĦ åıĮ
ä½ľ çī©
çĶµ åİĭ
ç§ĳ çłĶ
çŁ³ åĻ¨
åľ£ æ®¿
æ´ĭ åŁº
ä¸ģ çĽ®
å¾Ĵ åĪĳ
ä¿Ħäº¥ä¿Ħ å·ŀ
9 ä¸ª
B 1900
ä¸ľ é£İ
æµ· çĽĹ
ç§ĳ ãĢģ
æ¯Ķ 2
æĶ¿åºľ åľ¨
åĲĦ å¤§
,æĺ¯ ä¸ĭè¾ĸçļĦä¸Ģä¸ª
å¼ķ å¯¼
éĵ¶ çº¬
çĶµåŃĲ æ¸¸æĪı
çļĦçī¹ æľī
æĸ°å¢ŀ æľ¬åľŁ
B1900 .0
G e
çŃ ĭ
åı¤ å±ĭ
æĶ¾ å°Ħ
è¡Ĺ ãĢģ
,ä½įäºİ éĵ¶
åĩı å¼±
æģĴæĺŁ ,è§ĨæĺŁçŃīä¸º
ä¼ĬåĪ© è¯ºä¼Ĭ
éª¨éª ¼
, éĩĳ
æĭī å§Ĩ
ç½Ĺ å§Ĩ
èµ· .
åĳ¨ æģ©
éŃ ħ
éĢģ å¾Ģ
èµ¤ ç»ı,
åĭĩ å£«
ãĢģH R
èµ¤çº¬ .
ä¹ ŀ
å¥ ķ
çĶŁ çĲĨ
ãĢĭ (),
åĬł çĥŃ
å¾· ãĢģ
æŃ¤ ç±»
å¢ ©
åŀ ĥ
18 ä¸ĸçºª
é² ·
å®¤ .
å±Ĥ ä¸º
2019 åĨłçĬ¶çĹħæ¯Ĵ
æŃ»äº¡ ,
åŁİéķĩ .
åĿĲæłĩä¸º èµ¤ç»ı,
B1900.0 åĿĲæłĩä¸ºèµ¤ç»ı,
. èĭ¥
1 )
S H
ä¸Ģ åįĬ
äºİ 189
ä»¥ å¤ĸ,
ä¿ ŀ
çī¹ å®ļçļĦ
å¾· åĪ©
çĪ ¸
æıĲ æ¡Ī
åĪĻ è¢«
,åħ¶ B1900.0åĿĲæłĩä¸ºèµ¤ç»ı,
æ´Ľ ä¼Ĭ
ï¼ İ
å°ĳæķ° æ°ĳæĹı
bo ok
èĤĮ èĤī
æĸ°åĮĹ å¸Ĥ
. å¤©
L a
ç§° åħ¶
ç§° åı·
12 ä¸ª
ä¿¡ å¥ī
å¯Ĩ è¥¿
ç®Ģ åĮĸ
ãĥ ³
æ²ī ç§¯
åİĺ ç±³
æĩ ¿
éĴ» çŁ³
,ä½įäºİéĵ¶ ç»ı
( æĺİæ²»
çļĦ éĩĳ
çŁ ¢
,è¿Ļ æł·
193 5å¹´
éħ¸ çĽĲ
ä¸»å¸Ń .
åĩºçĶŁ åľ¨
åĲ¦ åĨ³
å¸ĥæĭī æł¼
åįĹæŀģ æĿ¡çº¦
éĢ¢ æĺŁæľŁ
åĮºè®®ä¼ļ éĢīä¸¾
( è¥¿çıŃçīĻ
çļĦ åĪĨ
éĥ¨ åī¯
é«ĺ éĵģ
èµ· çĤ¹
la r
al e
æ³½ è¥¿
åĪĳ éĥ¨
èĳ£äºĭ ä¼ļ
åıĤè°ĭ éķ¿
æĺİå°¼ èĭıè¾¾
å¤ļä¼¦ å¤ļ
,åħ¶B1900.0åĿĲæłĩä¸ºèµ¤ç»ı, èµ¤çº¬.
çļĦ ä¼łç»Ł
å¤§ å°ĨåĨĽ
æĻ ·
åįİ åįĹ
å½¢ .
ä¸Ńå¿ĥ ãĢģ
è´Łè´£ äºº
,ä½¿ åħ¶
ç»Łæ²» èĢħ
çĽ¸åĲĮ .
æĻ¶ ä½ĵ
è´· æ¬¾
, ä»£è¡¨
Q u
çļĦ æ¸¸æĪı
å¤§ åİħ
åĴĮ ä¸Ń
å½ ¬
åħ¬ ç½²
æīĢ è¾ĸ
æ²³ .
æľ¨ åĦ¿
è´¢ å¯Į
ä¸ºä¸» é¢ĺ
å¦Ī ç¥ĸ
ç« ĸ
ä¸Ĭ æł¡
ä¸ĸ ä»£
åı£ ,
å¸ĥ åĪĹ
æĹ¶éĹ´ .
1, 000
ãģ ®
æľīåħ³ .
åĲı éĥ¨
ä½Ľç½ĹéĩĮè¾¾ å·ŀ
l l
åľ ¾
å½ Ĺ
ä¸» ç¼ĸ
ä½ĵ çİ°
å¥³ .
æĶ¯ çº¿
ç¬¬ä¸Ģ éĥ¨
èİ± åĿŀ
ç©¿ èĳĹ
ãĢīãĢģ ãĢĪ
åŀĥ åľ¾
åľ° ãĢģ
åı° .
10 .
æ¯ı æ¬¡
èĪ° èīĩ
åŁĥ å°ĶÂ·
ä¸Ńå¤® å§Ķåĳĺä¼ļ
ro m
åĨ² ç»³
ç£ ħ
åºĻ å®ĩ
im e
é¥Ń åºĹ
æĸ¯æ´Ľ ä¼Ĳåħĭ
çļĦ ä»£è¡¨
çļĦ å»ºçŃĳ
å¾· åħ°
10 8
éĺ¿ åĪĹ
202 3å¹´,
æµģ äº¡
å¼º è¿«
ä¹Į æĭī
æŀģ éĻĲ
é¢Ħ æľŁ
èľ ¥
åı°åįĹ å¸Ĥ
å®° çĽ¸
ç§ĳçļĦåħ¶ä¸Ńä¸Ģç§į ,åĪĨå¸ĥäºİ
åıĹå®³ èĢħ
ä¹¡éķĩ çº§è¡ĮæĶ¿
å¡ŀæĭľ çĸĨ
åĽ½ ãĢģ
ä»ĸ .
ä½ľ çļĦ
åħ³ ä¸ľ
å±ŀ .
éĺ¿ å¸ĥ
åĳ½ åĲįçļĦ
åħ« å¹´
æ³° å°Ķ
ä¾Ŀ æĹ§
éħĴ ç²¾
å§Ĳ å§Ĳ
çĭ® åŃĲ
åĤ¬ åĮĸ
D R
çļĦ åĨħ
ç¬¬ 9
è¯Ń ,
é¢Ĩ è¡Ķ
å¤ª å®Ĺ
æĿĥ çĽĬ
ç¼ĸ åĪ¶
æ³¢ éŁ³
åįļ å°Ķ
å°Ħ åħ¥
éĵ¶ çīĮ.
æĶ¯æĮģ .
æİ¥åıĹ äºĨ
å½ķéŁ³ å®¤
å¤©çĦ¶ æ°Ķ
, 5
çī© æµ¦
èµĽ ä¸Ń
æİĴ çĲĥ
éĤ£ ä¸ª
æ¶Ī éĻ¤
æĺ¥ åŃ£
æļ´ åĬ¨
åĩºçīĪ .
æ·· åĩĿ
æ´ª æŃ¦
äºļåİĨå±±å¤§ Â·
( åİŁ
, 3
ãĢģ æľ±
å¹³ è¡Į
æĺİ çļĦ
åĪĹ æĸ¯
åĲĦ çº§
äºº, åįł
196 7å¹´
ä¸»æķĻ åº§åłĤ
ç¨³ å®ļçļĦ
æķı æĦŁ
ä¾ĭ, æĿ¥èĩª
S .
ç» °
åĽ´ æĶ»
èĩªçĶ± åħļ
as e
,æĽ¾ ç»ı
åºĶçĶ¨ .
æľ Ķ
ä¸º ä¸ŃåĽ½
æ² ¦
çĻ½ ä¿Ħç½Ĺæĸ¯
æİ¨ çĲĨ
çŁŃ ç¯ĩ
èĮ¨ åŁº
çŀ Ħ
2 )
ãĢģ èĭı
åº µ
æ° °
çĶµ å®¹
è¡¨ .
å¤Ħ éķ¿
å°± ä¸ļ
é²ģ æĸ¯
èĬĤçĽ® .
âĢĿ, âĢľ
åıĳè¡¨ äºĨ
éļĶ å¹´
åĩ»è´¥ äºĨ
æ°´åŁŁ ,çĶŁæ´»ä¹łæĢ§ä¸įæĺİ.
, æĭ¥æľī
2 ä¸ĩ
C .
C A
çļĦ è½¨éģĵ
ç» £
ä¸Ģ åıª
äºº è®¤ä¸º
çº ±
æĹ¶ æĬ¥ãĢĭ
å¤ļ æĸ¯
åįĹ ç«¯
åĪ© çī©æµ¦
ä½¿ åħ¶
æ¼ ³
ä¸ĸçķĮ çļĦ
èİ« å°Ķ
æ¿ ĳ
æ© ĺ
å¼ķèµ· äºĨ
æĿ¥æºĲ äºİ
åŁĶ å¯¨
å¤±åİ» äºĨ
èĦĤ é²¤
B M
åŃ ¢
åħ¬ å¹³
è¥¿ Â·
çĶµ æ¢¯
ä¸¤ å¤§
æĽ¾ æľī
å½¢æĪĲ äºĨ
æ¼Ķåĳĺ .
æ²ī æ²¡
çºº ç»ĩ
å¤§ äºİ
æľī äºĨ
å¯ Ŀ
éĺ İ
è¿Ļ ä¸¤ä¸ª
æĸ° åŁİ
æľĢ å¥½çļĦ
åı° ,
çĥ ¦
è¿ŀ åĲĮ
åħĪ åıĳ
è¯» ä¹¦
éĺµ äº¡
éĽħ åĲĦ
è°ĥæŁ¥ .
,åĲĮæĹ¶ ä¹Ł
åĵ² åŃ¦å®¶
æŁ¬ åŁĶå¯¨
S P
è¿Ļ ç±»
åīį .
éĹ´ æİ¥
201 2å¹´,
å¤© ç©º
åİ¿ çº§
éĹ¨ ãĢģ
åł ķ
é² ¨
çīĪ æĿĥ
åĻ¨ ,
è¶ħ äºº
æķħ éļľ
æļ´ éľ²
èįĥ æ¹¾
åįĹæŀģæĿ¡çº¦ ä½ĵç³»
çļĦ è¦ģæ±Ĥ
ä½į åĪĹ
è·¯ åĨĽ
å°¼ å¥¥
12 8
ç©º è°ĥ
åı¯ä»¥ çĶ¨
èĪª è¡Į
èĪ¹ åĳĺ
éĽĨä¸Ń åľ¨
ç¿°æŀĹ éĻ¢
ä¸Ģ èīĺ
åİ ķ
åĪĨ å¼Ģ
è¥¿ æ¯Ķ
å°ı å¹³
èĬ ¯
æ²» çĲĨ
èµ· é£ŀ
åĪĻ ä»¥
æĶ¿æ²» éĥ¨
æķħ æĦı
èĬ± è´¹
197 7å¹´
è¿ģ å¾Ļ
,åĲĮæĹ¶ ä¹Łæĺ¯
ç´§ å¯Ĩ
, å¤Ħäºİ
çļĦ å¯¹
çļĦ äºº,
æµ ı
ä¸į åıĬ
åĪĽ ä¸ĭ
åŃ¦éĻ¢ çļĦ
åģľ çķĻ
éĩİ æĪĺ
åĮħåĲ« äºĨ
ç±³çļĦ åľ°åĮº,
æ··åĩĿ åľŁ
å® ¦
ãĢģ ç½Ĺ
åįĹ æĺĮ
è¿Ľ åĨĽ
èĬ ½
æķ° çĽ®
åį³ æĹ¶
æľª æĿ¥çļĦ
æ¯ı å°ıæĹ¶
æŀģ å¤§
èĮĥ çķ´
çĽ¸æ¯Ķ ,
åĪĽå§ĭ äºº
ç»´ èİ±
åĽŀ å¤į
or n
ä¸ĵ æ¡Ī
æľª ç»ı
16 8
at t
ç´¢ å°¼
ä½ľåĵģ çļĦ
ä¼ļ å¯¼èĩ´
å¾· çĶ²
è½¦ æīĭ
èĢħ åľ¨
æ°´ ,
æº ´
ç©º éĻį
åĩ» èĲ½
ç»ıæµİ .
ä¼ĺ æĥł
äºĭä»¶ çļĦ
, éľĢè¦ģ
1 ä¸ĩ
é¢ ħ
å¸Ĥ åĨħ
é©¬ å¾·éĩĮ
å¤© ä½ĵ.
ç«Ļ åľ¨
ç»Ħ çļĦ
ç¤º èĮĥ
èĻ ŀ
é»Ħ æ²³
éªĮ è¯ģ
èī¯ å¥½çļĦ
èĤ¡ ç¥¨
è®®åĳĺ .
é£İæł¼ .
Ð ¾
å® µ
åĽ½ å¤ĸ
åĲį åı¤å±ĭ
æľ¬ æĿ¥
æ¼Ķ ä¹ł
æ®µ .
197 4å¹´
le y
æĪĲåĬŁ .
,å°Ĩ åħ¶
è¯¸ å¦Ĥ
ä¸§ å¤±
è¾© è®º
èħĲ è´¥
éĻ¤æŃ¤ ä¹ĭå¤ĸ,
2019åĨłçĬ¶çĹħæ¯Ĵ çĹħ
, å¼Ģ
çļĦ åĨĽäºĭ
ä½ ¥
åŃ ľ
åī Į
ä¸İ å¤§
ä»£ æķ°
è¿Ĳ éĢģ
åİŁ æĿ¥çļĦ
æĶ¯ éĺŁ
çļĦä¸Ģ å®¶
æŃ¦ æľ¯
çĪ± æ²Ļ
èĢģ æĿ¿
èĮĥåĽ´ .
ä½ł ä»¬
æģĭ çĪ±
æŃĩ å°Ķ
ä»£çłģ ä¸º
, åıĳçİ°
201 6å¹´,
åº¦ è¿ĩ
ç«ĭ åĪ»
åĪĽ æĦı
ç¦ı åĨĪ
æ°¸ ä¹Ĳ
ä¼¤ .
ç»į åħ´
æłª å¼ı
çĪ±æ²Ļ å°¼äºļ
( ä¸Ģ
3 .5
D O
ç¾ Į
201 4å¹´,
å·´ éĩĮ
åī§ åĽ¢
17 ä¸ĸçºª
å¹¸ ç¦ı
å§ĶåĨħçĳŀ æĭī
æłªå¼ı ä¼ļç¤¾
çļĦ çİ¯å¢ĥ
ãĢģ åī¯
æµ ĳ
æľĢ å°ı
ä¸ľ æĹ¥æľ¬
è° ľ
10 6
åı² æĸĻ
çº³ è¥¿
åĻ ª
åĽŃ åĮº
è¾ĥ å°ı
éĩĬ åĩº
éĢĤ å½ĵ
åĪĽä½ľ çļĦ
ç»ĺ åĪ¶
åĪĿæľŁ ,
C E
ä¸Ĭ ä»»
åī ĸ
éļ Ļ
èĤ Ĩ
ç¼ ł
æŃ£ å¾·
éĶ ¯
åıį åĩ»
å²Ľ .
æĹı èĩªæ²»åĮº
åĽ½å®¶ çº§
åĮĹäº¬ å¤§åŃ¦
193 1å¹´
æ¿Ģ è¿Ľ
ä¸ĺ éĻµ
æĢ»éĥ¨ ä½įäºİ
æħķ å®¹
å°¤åħ¶ æĺ¯
éĩįåºĨ å¸Ĥ
åįĹæŀģæĿ¡çº¦ä½ĵç³» ç®¡çĲĨ.
ä¸Ģ å¯¹
201 0
201 3å¹´,
æĪĸ åħ¶ä»ĸ
å¿ĥ çļĦ
åĮħæĭ¬ ä»¥ä¸ĭ
æŃ¥ è¡Į
197 1å¹´
ä»ĭ åħ¥
èĨ ¨
åħĭéĩĮ æĸ¯èĴĤ
ä¼´ ä¾£
å¤§å¥ĸ èµĽ
å¸ĸ æľ¨åĦ¿
, åıĮæĸ¹
åľ¨ åĨħ
æ² §
ç¬¬ 12
å¾Ĺ åĲį
èµ· äºĨ
ç¡ Ŀ
å®¢ ä¸²
æİĴ æĶ¾
å¹² çĩ¥
197 0å¹´ä»£
,ä¸Ģ çĽ´
çĶ¨éĢĶ .
, éļ¶å±ŀ
M et
O pen
åĽ½ åľŁ
åĩ ¹
æĸ¹ éĴĪ
çĶ¨ ä»¥
10 4
,ä½Ĩ åį´
å§ĭ äºİ
ä¿Ŀ èĤ²
æ· ¹
ä¸ĵ åĳĺ
è¾ĥ é«ĺ
å®¢ è½¦
ä»ħ æ¬¡äºİ
è§Ħå®ļ ,
åĵĪå°Ķæ»¨ å¸Ĥ
S m
éĿ¢ ä¸Ĭ
è¯¥ åī§
æĭī å¾·
å¦ ĵ
å¤į ä»ĩ
æ¥ ł
åĳĬ ç¤º
æīĺ Â·
éĵ¶ æ²³
.200 4å¹´
æĦıè¯Ĩ å½¢æĢģ
çļĦ æ¶Īæģ¯
ç» Ĵ
åº Ĳ
ä¹ĭ ä¹±
è¯¥ åľ°åĮº
äºĮ çĶ²
ç¨ ļ
è¯Ń ä¸Ń
æĽ¾ ä¸İ
ä¹¡ .
äº¿ åħĥ,
å¯¿ åĳ½
,åħ¨ éķ¿
çĶĺèĤĥ çľģ
. åħ¶ä»ĸ
M ac
çĶ± åħ¶
åĮĹ éŃı
åİ¿ éķ¿
æīĭ ä¸Ń
éĴ ¥
å®Į åĸĦ
çĽĳ è§Ĩ
çĴ ĭ
åįģä¸Ģ æľĪ
åİĺ ç±³,
åħ¬ åĪĨ
èµĽ é©¬
å¥ĸ çīĮ
éĻĲ å®ļ
ä¹ħ çļĦ
åįĹéĥ¨ çļĦ
èĨ Ģ
çļĦæĿĳåºĦ ,çĶ±
æĹ¥ è®°
éĿ¢ åĮħ
åħĥ é¦ĸ
çīĩ ä¸Ń
çļĦä¸Ģ ä½į
éĥ¨åĪĨ çļĦ
è¿½ åĩ»
é¡¹çĽ® çļĦ
çī©çĲĨ åŃ¦å®¶
è·ĳ éģĵ
åİ¿çļĦ éĿŀå»ºåĪ¶åľ°åĮº.
åĵĪå°Ķ ç§ĳå¤«
èĲ¨åħĭ æ£®
èĢĮæĪĲ .
, æıĲä¾Ľ
e v
s k
åħĭ æĭīåħĭ
ãĢĮ ãĢį
ç±³ çī¹
æ· «
è§ģ è¯ģ
èĪ° åıª
åıĳè¡Į äºĨ
è´Ń åħ¥
åĢŁ æŃ¤
çıį çıł
P r
åľ¨ æ¬§æ´²
ä¸º æĹ¥æľ¬
æľī åĪ©
æĮ Ŀ
äºĭ è¿¹
ä¹Ł å°±æĺ¯
è½¦ åŀĭ
æ¬¡ çļĦ
çĽ¸ å¯¹äºİ
èģĮ äººåĳĺ
åĽ¾ æĽ¼
åłĤ .
ic o
èģĺ è¯·
æ®ĭçĸ¾ äºº
, æŃ£å¼ı
. å¯¹äºİ
3 50
ä¸Ģ å¼ł
åĪĨ æķ£
ç¬¬ 13
æĻ °
å¦ Ĩ
ç±³ Â·
åħŃ ä¸ĸ
èĵ ī
æİ¨åĩº äºĨ
é¢ĨåŁŁ çļĦ
èı© èĲ¨
( U
. ä½ľä¸º
i i
ãĢģ å±±
å¼ §
åĴĮ æĸ°
ä¸Ĭ ç©º
çĶ± åįĹæŀģæĿ¡çº¦ä½ĵç³»ç®¡çĲĨ.
è¿Ļ é¦ĸæŃĮ
åħ¨ åı°
æĹł åħ³
åİĨ ç»ı
åį¡ Â·
11 5
æĴŃ æĺł
å¥ĸ ç«ł
èĪª çº¿
ä¸¾è¡Į äºĨ
çĥĪ å£«
21 ä¸ĸçºª
å®ĩ æĸĩ
æĪ´ ç»´æĸ¯
,000 åĲį
èĦĬ æ¤İ
è°ĥå¿«ä¸Ģå°ıæĹ¶,åį³ UTC-
æµ ´
ä¸į åľ¨
ç© Ĺ
200 8å¹´,
ä¸Ģä¸ª æľĪ
æĢ» åħ±
åŀ «
æĻ® å°Ķ
æĬ¥ ãĢĭçļĦ
åıĪ åľ¨
åĮĹéĥ¨ çļĦ
èĢ³ æĽ¼
ä¸ºä¸» .
åĬŀåħ¬ åİħ
äºİ18 7
å®ĥä»¬ çļĦ
æĸ°åĨłèĤºçĤİ ç¡®è¯ĬçĹħä¾ĭ
æ¸ħçľŁ å¯º
, çĪ¶äº²
3 åĲį
ä¸º ä»ĸ
ãĢĭ çŃī.
çī¹ æĢ§
10 ä¸ĩ
éĢī .
åĪĹ é¢ł
æµģ éĢļ
æ´» æĢ§
æ¨ Ł
èĶ ½
ç¼© çŁŃ
2009å¹´ ).
ä¸»æ¼Ķ .
å¨ģå°Ķ å£«
ä¹ ĵ
åľ° åĬ¿
åĲį åĪĹ
åĪĨ æŃ§
âĢĿ ;
æľº ç»Ħ
10 9
ç¬¬ä¸Ģ è½®
åį¢ æ£®åł¡
æİ¨åĩº çļĦ
å®īå¾· çĥĪ
æº¶ æ¶²
åı°ä¸Ń å¸Ĥ
. (
D P
æĹ¶ å°ļ
ä¸Ĭ èİ·å¾Ĺ
ä¸İ ç¾İåĽ½
201 0å¹´,
çĵ¦ æĭī
åį° åľ°
åĳĬ çŁ¥
ä¸ĥ å¹´(
å»ºçŃĳ ,
éĻį èĲ½
re t
æĳ© æł¹
æłĳ æľ¨
æ©¡ èĥ¶
? âĢĿ
R o
äºº æīĢ
å» ¿
è¿Ļ éĥ¨
ç§ĳ åĮ»çĶŁ
å¥¥ å¤ļ
)æĺ¯ ä¸Ģé¢Ĺ
åħ¬åı¸ ,
åĳ½ è¿Ĳ
çĳ °
è´¹ åŁİ
å§Ķåĳĺä¼ļ å§Ķåĳĺ
æĸ¯çī¹ Â·
å¤ªéĺ³ åħ¬
çĹĽ èĭ¦
âĪ Ĵ
, 8
äºº éĥ½
è¥¿ èĴĻ
å¤© æ¡¥
ç¤¾ åĽ¢
å°ĳ éĩı
åĻ¨ å®ĺ
æİ¨ è¿Ł
,ä½įäºİ ä¸ŃåĽ½
å© ·
ro w
å½¢å¼ı çļĦ
è½¨éģĵ äº¤éĢļ
å¹¼ åĦ¿
éģµ å¾ª
. æĺ¯
æŃ¤ äºĭ
éĩĳ æĽ²
åħļ ç±į
æĬ¥ å¤į
çķĻ åŃ¦
éŁ³ä¹Ĳ å½ķå½±å¸¦
è¯Ĩ åŃĹ
il d
çģ¾ å®³
éļĲ èĹı
è´Łè´£ç®¡è¾ĸ .è¯¥æĿĳ
. ä¸ĢäºĽ
å°Ĩ äºİ
å¯¼ å¸Ī
åį¡ çī¹
è´¨ çļĦ
16 5
è®¯ åı·
éĢĥ äº¡
ä¿Ĺ ç§°
æĹ¥æ²» æĹ¶æľŁ
é¢Ĩäºĭ é¦Ĩ
ä¸Ģ å¤Ħ
19 18å¹´
åĮĹ æŀģ
åħ¥ çĲĥ
å¹´, ä»ĸ
äº¤ å¾Ģ
è¿ĳ ä¼¼
åŃ¦æł¡ ,
195 7å¹´
195 9å¹´
çĬ¶æĢģ .
åį¸ ä»»
è¿Ļé¢Ĺ å°ıè¡ĮæĺŁ
y le
ä¸Ģ åįĥ
æĹ¶ ç©º
æĸ¯ .
éĩĮ ãĢģ
æĸ° åŀĭ
ç±³ å°ĶÂ·
æŀĹ ãĢģ
æŀĹ èĤ¯
æĽ¾ äºİ
ä¹¦ åºĹ
åķ ¤
èĢģ æĮĿ
äºĨä¸Ģ ç³»åĪĹ
192 8å¹´
æµĵ åº¦
æ²³éģĵ åħ¨éķ¿
è®½ åĪº
A pp
æĭ ¾
ä¸į éľĢè¦ģ
åı¯ çĶ¨
åĽł åŃĲ
201 8
èĢħ åĴĮ
åİĨ ä»£
åĽ¢ éķ¿
å¤§åŃ¦ çĶŁ
åł¡ åŀĴ
193 3å¹´
åºŁ å¼ĥ
è¿Ħ ä»Ĭ
B E
y st
ãĢģ åį°åº¦
æĪĺ èĪ°
å·¥ éĥ¨
13 8
ä¸ľéĥ¨ æĹ¶åĮº
çģŃ äº¡
AT P
N G
ä¸» äºº
èī ³
å¾· åĭĴ
æĸĩ éĿ©
äºĮ æ°§åĮĸ
åĽĽ äºº
çª Ł
æĪ· ,
çīĽ æĸ¯
æ¨ª æ»¨
æĩ Ĥ
ãĢįæĪĸ ãĢĮ
çļĦ ä¿¡
æµ· åºķ
æ¡ ¨
æĹł éĶ¡
äºĶ ä¸ĸ
ä»¶ .
åıĪ è¯ĳ
æĺł å°Ħ
ä»¥ 1
åħ¬ æĬķ
æĶ¶ å¤į
16 4
æĤ Ķ
çĨŁ æĤī
éĦĤ åĽ¾æĽ¼
æĭĺ çķĻ
1 ãĢģ
å¤« çī¹
ä¼¦ çĲĨ
åĺ Ľ
æ¨ª è·¨
å¯ ħ
çİ «
çĶŁ åīį
æĢ» ç»ĵ
,ä½Ĩ ä¹Ł
å¤§åŃ¦ ,
ç² ĺ
193 0å¹´
äºİ200 4å¹´
éģµ å®Ī
ä¸°å¯Į çļĦ
, 4
çļĦ çĽ®æłĩ
åĲİ ä»£
âĢĿ )
äºĮ åı·
ç½Ĺ éĹ¨
å°± åı¯ä»¥
èĲ½ å®ŀ
çĿ¡ çľł
å¹ ¢
ä¸ª åĪ«
æıĲ åĢ¡
00 å¹´
åį¡ æĸ¯èĴĤ
æłĩ ç¤º
çĻ½ äºº
çľŁ çļĦ
ä¼ģ åĪĴ
In st
ä»ĵ åºĵ
çº³ç²¹ å¾·åĽ½
, ä¸ĢäºĽ
4 (E
u k
à ¤
åľ¨ ä»ĸçļĦ
æĬ ¬
æĽ Ŀ
ä¸» åĶ±
çŃ Ľ
éĿ¢ 2
æł¼ èİ±
åĢ ª
æĺŁ éĻħ
äºĶ æľĪ,
çľĭ èµ·æĿ¥
å®Ī å¤ĩ
ä¹Ĵ ä¹ĵ
, èĥ½
3 0å¹´
ä¸į åı¯èĥ½
201 5å¹´,
çŃī åľ°.
æĺİ ãĢģ
å°± å·²ç»ı
è¿ĺ åİŁ
è§Ĵ éĢĲ
åįĩ éĻį
çº¢ åįģåŃĹ
å½±åĵį åĬĽ
è¯Ńè¨Ģ çļĦ
èĮ¨ åħĭ
æĮĩæĮ¥ éĥ¨
æ°ĶåĢĻ .
åĽ´ç»ķ å¤ªéĺ³åħ¬
âĢĿæĪĸ âĢľ
) æīĢ
ä¸Ģ è·¯
), ä»¥åıĬ
æķ° çłģ
ç§ĳ ç½Ĺ
åħĥ æľĹ
éª Ĥ
æļ ĳ
ç»Ļ ä»ĸ
ç»Ļ äºĭ
åį« åĨķ
çĻ» å½ķ
éģĹ ä½ĵ
é©» å®Ī
æĹĭ å¾ĭ
è¡£ æľį
(E ST).åĲĮæĹ¶è¯¥åľ°è®¾æľīå¤ıä»¤æĹ¶éĹ´,ä¸º
é«ĺçŃī æķĻèĤ²
æĢ»çĿ£ åºľ
UTC-5 ,åį³åĮĹç¾İ
UTC-5 è°ĥå¿«ä¸Ģå°ıæĹ¶,åį³UTC-
2020å¹´ç¾İåĽ½äººåı£æĻ®æŁ¥çļĦæķ°æį®, å½ĵåľ°åħ±æľīäººåı£
ãĢĭåıĬ ãĢĬ
å¹³æĸ¹åįĥç±³.æł¹æį® 2020å¹´ç¾İåĽ½äººåı£æĻ®æŁ¥çļĦæķ°æį®,å½ĵåľ°åħ±æľīäººåı£
ä¸ľéĥ¨æĹ¶åĮº (EST).åĲĮæĹ¶è¯¥åľ°è®¾æľīå¤ıä»¤æĹ¶éĹ´,ä¸º
4(E DT).
åĽ´ç»ķå¤ªéĺ³åħ¬ è½¬çļĦå°ıè¡ĮæĺŁ
UTC-5,åį³åĮĹç¾İ ä¸ľéĥ¨æĹ¶åĮº(EST).åĲĮæĹ¶è¯¥åľ°è®¾æľīå¤ıä»¤æĹ¶éĹ´,ä¸º
UTC-5è°ĥå¿«ä¸Ģå°ıæĹ¶,åį³UTC- 4(EDT).
UTC-5,åį³åĮĹç¾İä¸ľéĥ¨æĹ¶åĮº(EST).åĲĮæĹ¶è¯¥åľ°è®¾æľīå¤ıä»¤æĹ¶éĹ´,ä¸º UTC-5è°ĥå¿«ä¸Ģå°ıæĹ¶,åį³UTC-4(EDT).
F ace
e ar
ãĢĮ å¤§
è° ı
å·´ çī¹
åıĪ è¢«
ar a
åįļ è§Ī
åºĦ -
193 2å¹´
å·® åĪ«
æ¯ĶåĪ© çīĽæĸ¯
éĹ½ åįĹ
æīĺé©¬ æĸ¯Â·
åĽ½æ°ĳéĿ©åĳ½ åĨĽ
çļĦç»Ŀå¯¹ æĺŁçŃīä¸º
çļĦ çĥŃ
æĿ ı
æķ ·
æĹ¥ åľ¨
Â· åĵĪ
åıĬ åĪ©äºļ
èŃ¦ åĬ¡
åĨĻ æĪĲ
æ°¸ åº·
.200 2å¹´
.200 3å¹´
çŁŃ æľŁ
æ¯ģ çģŃ
åıĸä»£ .
( å¹³æĪĲ
ä¸Ģ å¼Ģå§ĭ
ä¸Ń ç«ĭ
äºº æĺ¯
æ°ĳ çĶ¨
åħ¨ æķ°
æŁ¥ å°Ķæĸ¯Â·
16 6
13 5
æ¶Ī èĢĹ
æ¦Ĥ è¿°.
èį£èªī .
M an
i el
t a
ä¸Ń æ¯Ĵ
æľī æĦı
è¥¿ åħĥ
æĻ ¤
çİĭ çļĦ
12 6
èģĮ èĥ½
çŁ³ å¤´
åĭĴ -
æĬ¤ åį«
æľĢåĲİ ä¸Ģä¸ª
è®¾ç«ĭ çļĦ
,çİ° ä»»
äºİ18 6
äºº/å¹³æĸ¹åħ¬éĩĮ( 2009å¹´).
çļĦåŁİéķĩ ,ä½įäºİè¯¥åĽ½
è¿Ļé¢Ĺå°ıè¡ĮæĺŁ çļĦç»Ŀå¯¹æĺŁçŃīä¸º
2 åı·çº¿
èĢĮ ä¸Ķ
è¢« åĪĹåħ¥
å¯¹ è¯¥
æĸĩ å¸Ŀ
è¦ģ å¡ŀ
å·´ å¡ŀ
åĪ« å¢ħ
å±Ģ å±Ģéķ¿
åķĨ æłĩ
æ¸ħ æĻ°
çľŁ çĽ¸
æ³¨ å°Ħ
196 0å¹´ä»£
æ¯Ĵ åĵģ
æļĹ æĿĢ
çĥ§ æ¯ģ
éĽķ åĪ»
w h
çļĦ å®ĺæĸ¹
åľ¨ åīį
ä¸Ń ä¸ľ
èģĶ éĺŁ
çĥ ¹
å¤« åĭĴ
å¾Ģ æĿ¥
en g
åģľ è¿Ĳ.
é³ ĥ
å¥ī åĳ½
è¿Ī åħĭ
åĳ¨æģ© æĿ¥
ç» İ
åĴĮ ä¸Ģä¸ª
ä»¥ æĿ¥çļĦ
ãĢĭ ä¸º
èĪ ħ
çĶµ ç£ģ
201 1å¹´,
è·¯ ä¸İ
å¸ĥ ç½Ĺ
é©¬ åľº
æĻ® éĩĮ
å¯Ĩ çłģ
äºī è®º
åĲī äºļ
ç¢ ĺ
åĲ« ä¹ī
åħ³ç³» ,
ç¿» æĸ°
æĶ¿çŃĸ .
. ä¸¤
æľī ä¸ī
èĢħ ä¸º
è¿Ĳ è½½
æİ¥ ä¸ĭæĿ¥çļĦ
éĺ¿ å¯Ĩ
äº¤ æĪĺ
åħµ .
ç½ĳ é¡µ
é±¼ .
å»¶ è¿Ł
æĵ Ĵ
æĻĭ åįĩä¸º
ä»ª åĻ¨
å£ģ çĶ»
èĭ±åĳİ),èĢĮè¯¥åľ°æīĢéĩĩçĶ¨çļĦæĹ¶åĮºä¸º UTC-5,åį³åĮĹç¾İä¸ľéĥ¨æĹ¶åĮº(EST).åĲĮæĹ¶è¯¥åľ°è®¾æľīå¤ıä»¤æĹ¶éĹ´,ä¸ºUTC-5è°ĥå¿«ä¸Ģå°ıæĹ¶,åį³UTC-4(EDT).
, æĹłæ³ķ
ä¼ļ å°Ĩ
çī© ,
èĢħ ãĢģ
åįİ ä¾¨
æ® ī
å®ŀ ä¸ļ
å¼Ģå§ĭ äºĨ
éĺ³ åħī
æĹ¶éĹ´ åĨħ
ç§» äº¤
196 5å¹´
èįī æ¡Ī
ç«ĭæ³ķ å§Ķåĳĺ
1 18
p l
ä¸Ģ åĳ¨
åĲİ è£Ķ
ä¸İ ä¸ŃåĽ½
è¥¿ ä¼¯åĪ©äºļ
æŃ¤ å¤©ä½ĵ.
å·² æĪĲä¸º
çīĩ çļĦ
æĶ¾ æĺł
15 8
æ±ī æĹı
æľŁéĹ´ ,ä»ĸ
å© ī
è®¡åĪĴ çļĦ
195 1å¹´
çİ°ä»£ åĮĸ
é£İæł¼ çļĦ
å¸Ĩ èĪ¹
, æľĢåĪĿ
, æĥŁ
e c
ãĢģ æ³ķåĽ½
åĨ ¶
æľī ä¸ĢäºĽ
æĮ «
åħ¥ çĭ±
,å¹¶ è¡¨ç¤º
æ°´ åĩĨ
12 9
èº« é«ĺ
å±ħ äºİ
äºĮåįģ ä¸ĸçºª
æŃĮæĽ² ãĢĬ
ç¼º éĻ·
å¢ĵ èĳ¬
åĪļ æŀľ
å®ĺåĳĺ .
å·© åĽº
3 ä¸ĩ
åĮ £
åĽ½ ç±į
å¤§ åŁĶ
ä»ĸ å¯¹
æ³ķ ãĢģ
åĮĹ ç¾İæ´²
çº¿ æĺ¯
ç¼ ª
åĢ Ń
16 ä¸ĸçºª
ä¹¡ ãĢģ
ä¸įåĲĮ äºİ
çľŁ èıĮ
éĢīä¸¾ ä¸Ń
æī© æķ£
æĸĩçī©ä¿ĿæĬ¤åįķä½į ,
ç±į, æĺİæľĿæĶ¿æ²»äººçī©.
æ¾İ æ¹ĸ
æĸ¯å¤§ æŀĹ
, æĪĲåĬŁ
ä¸Ģ ç¾¤
è¡ ·
åĵ ĩ
æĸ° çĶŁ
å£ ¶
é©¬ è¾¾
éĢļ æĬ¥
æ°´ ãĢģ
åħļ åĨħ
å¸Ī ãĢģ
å¼ł åįķæĽ²
ç¥ŀ çļĦ
æ¸ħ å»·
èµ° å»Ĭ
æľ« ç«¯
æŃĮæĽ² .
è¯¸ èĳĽ
æĤ£ æľī
äºº( 2001å¹´
åĴ¸ ä¸°
æĢ»é¢Ŀ ä¸º
ä¸Ģ è¾Ĩ
åĽ½ åħ¬
æĺ¯ ä¸º
ä¸į ä¸Ģ
å¼Ģ æĻ®
æĪĺ è´¥
æ°´ çļĦ
åºľ .
å·´ æĭ¿
éĩĩ çº³
ç¤¾ä¼ļ çļĦ
å´ Ľ
196 9å¹´
æģ¶ åĬ£
èĢĥèĻĳ åĪ°
æĹħå®¢ éĵģéģĵ
,æĺ¯ä¸ĭè¾ĸçļĦä¸Ģä¸ª ä¹¡éķĩçº§è¡ĮæĶ¿
I F
è ł
çļĦ åº§æłĩä¸º,èĢĮè¯¥åľ°çļĦå¹³åĿĩæµ·æĭĶé«ĺåº¦ä¸º
å¤§ åŃĹ
å¸ĥ å±Ģ
,å¹¶ æľī
é¦ĸ å±Ĭ
). è¯¥
å¤§åŃ¦ æķĻæİĪ
éĻĨ æĪĺéĺŁ
15 5
en n
æīĺ å°Ķ
ä»į æĺ¯
äºİ200 0å¹´
èŀį åħ¥
æ³ī å·ŀ
.195 0å¹´
çĽ¸è¾ĥ äºİ
åħ ĳ
ãĢģ èµµ
ä¸į åĪ©
ç½ ¹
æĸ¹ å½¢
åı¯ çĶ±
åĪ© çī¹
åĵĪ ä½Ľ
è¿ľ ç¦»
æľįåĬ¡ çļĦ
åħ³ç³» çļĦ
èĤ¯ å¡ĶåŁº
éĺ¿åŁº åĿ¦
ãĢįåıĬ ãĢĮ
% ,åħ¶ä¸Ń
) (
, 7
, åĩº
e x
ç« Ń
Â· èī¾
éķ¿ å¤§
å¥³ æŃĮæīĭ
è¿ĺ è¦ģ
åħŃ åįģ
å¥½ èİ±åĿŀ
æ·± åıĹ
.ä½Ĩ åľ¨
çĥŃå¸¦ ä½İæ°Ķåİĭ
UTC-6 ,åį³åĮĹç¾İ
äºº(2001å¹´ ),äººåı£å¯Ĩåº¦
O ne
çļ ĸ
å¸ĥ ç½®
æ°´ .
å®ŀ ä¹ł
195 3å¹´
å²Ń åįĹ
çºµ éĺŁ
Com p
èĭ±åĳİ),èĢĮè¯¥åľ°æīĢéĩĩçĶ¨çļĦæĹ¶åĮºä¸º UTC-6,åį³åĮĹç¾İ
åĽ½ ä¼ļè®®åĳĺ
å¼Ģ è¾Ł
é« ĵ
æĢ§ è¡Įä¸º
åŁİ åĨħ
å°¼ åŁº
æµģ æĶ¾
èµĦ æ·±
ç¥ŀ åºĻ
ä¹Į å°Ķ
å¿Ĺ ãĢĭ
ç¢ Ĺ
åŁĥ å¡ŀ
13 7
ç¥ĸ ç±į
çĽĳ åĪ¶
re e
,å¤§ éĥ¨åĪĨ
åģ¶ å°Ķ
æĶ¶è§Ĩ çİĩ
ä¸ĵæ³¨ äºİ
ãĢģ 1
ãĢģ å¾Ĳ
éĥ¨ åĴĮ
éķ °
è¿Ľ çĲĥ
200 7å¹´,
çł Į
ä»İ æŃ¤
ä¼Ĭ ä¸½
æºĲ .
éĵģè·¯ å±Ģ
éĵģè·¯ åħ¬åı¸
ä¼ļè®® ,
è§Ĵèī² çļĦ
2. 0
ä¸ļåĬ¡ .
ä¼łæķĻ å£«
å¡Ķå°¼ å¤§åĮº
, ç¬¬ä¸Ģ
O R
ãĢģ èĭ±åĽ½
ãĢģ çº¢
ä¸Ģ çĶŁ
æĹ¥ èĢ³æĽ¼
åıĳ çļĦ
æľ¬ æ¬¡
æľĢ åħ·
åīį å¤ķ
çĽ¸ è¿ĳ
èĭ± å±ŀ
åºĶ çĶ¨äºİ
ä¼ł æī¿
è¾ĥ é«ĺçļĦ
å¤± ä¸ļ
æ¦ Ĩ
ç§» éĻ¤
éĵģè·¯ è½¦ç«Ļ
ç¤¼ æĭľ
èĶ ĵ
.194 5å¹´
åīĬ å¼±
æĭ¨ æ¬¾
æł¸éħ¸ æ£Ģæµĭ
B 48
çļĦ éĩį
çļĦ ä¸¤ä¸ª
çļĦ æķ°éĩı
ä¸Ģ è§Ĵ
èĢĮ ä¸įæĺ¯
çĦ ķ
å¤Ħ ç½ļ
al d
æģ© æĸ¯
13 9
å¯¼èĩ´ äºĨ
om e
éģĩ éļ¾
æįŁ åĿı
éĤĵ å°ıå¹³
æ²¼ æ³½
çļĦ ä½¿çĶ¨
å· ¾
å¯ Ĥ
çĶ± ç¾İåĽ½
æµ· æ¹¾
ä¹Ł æĪĲä¸º
ç¥ ĩ
åĪ¶ åĵģ
å¥¹ ä¸İ
,è¿Ļ ä¹Łæĺ¯
åħ« å¹´(
èĪª æµ·
() ä¸º
éĽĨåĽ¢ æľīéĻĲåħ¬åı¸
æ¯ķä¸ļ .
æĲ¬ åĪ°
è¯ºæĽ¼ åºķ
, ç¬¬äºĮ
äºº äºĭ
åŃ¦ åĳĺ
åħ¶ é¡¿
æ°ĳ åħµ
ä¸ī éĥ¨
201 6
éĤ ¢
è£ ¤
å»¶ å®ī
æİ§åĪ¶ çļĦ
ç¡¬ æ£ĺ
è¿Ī éĺ¿å¯Ĩ
è´¡çĮ® .
è´© åįĸ
å¥ł å®ļ
, äºĮ
æĸĩ çļĦ
é«ĺ åľ°
å½ĵ åīį
æľŁ å¾ĴåĪĳ
æĦ ļ
å¤« çļĦ
æ¢ ĵ
åĩ» æ²ī
æľª è¢«
æŃ» èĢħ
æ¥¼ æ¢¯
éĵģè·¯ .
æī§ æķĻ
çº½ è¥¿åħ°
æĿ¿ åĿĹ
.å®ĥ æĺ¯
ä¸Ńéĥ¨ æĹ¶åĮº
1 æĹ¥
äº ı
æĸ¯ å¨ģ
ä¸İ æĹ¥æľ¬
åı¯ åĪĨä¸º
å¾Ĺ åĩº
æĶ¹ çĶ±
è¿ĺ ä¼ļ
åį³ ä¸º
å¼Ł åŃĲ
äºĮåįģ ä¸Ģ
ä¸Ŀ Â·
åĮ ¾
åĴĮ 1
åĲĪ èĤ¥
,ä½Ĩ æ²¡æľī
ç¡ Ĵ
an ce
on t
,æĺ¯ æĮĩ
ä¿ĿæĬ¤ .
(C DT).
(C ST).åĲĮæĹ¶è¯¥åľ°è®¾æľīå¤ıä»¤æĹ¶éĹ´,ä¸º
çļĩå®¶ æµ·åĨĽ
ä¾¦ æİ¢
UTC-5 (CDT).
è°ĥå¿«ä¸Ģå°ıæĹ¶,åį³ UTC-5(CDT).
UTC-6 è°ĥå¿«ä¸Ģå°ıæĹ¶,åį³UTC-5(CDT).
ä¸Ńéĥ¨æĹ¶åĮº (CST).åĲĮæĹ¶è¯¥åľ°è®¾æľīå¤ıä»¤æĹ¶éĹ´,ä¸º
ä¸Ńéĥ¨æĹ¶åĮº(CST).åĲĮæĹ¶è¯¥åľ°è®¾æľīå¤ıä»¤æĹ¶éĹ´,ä¸º UTC-6è°ĥå¿«ä¸Ģå°ıæĹ¶,åį³UTC-5(CDT).
, ç§°ä¸º
çļĦ å®¶
è¿ Ń
ãĢģ ç»ıæµİ
äºİ 2025å¹´
ä¸į åĪĹé¢ł
åĬ¨ ,
ä¸ľ æ±ī
éŁ ¶
æİ¥ å¾ħ
æĹł æķĪ
åħļ æ´¾
çĽ´ éĢļ
çĥ ¤
å¸¦ åĪ°
çłĶç©¶ äººåĳĺ
åĵį .
åģļ äºĨ
195 0å¹´ä»£
å®½ åº¦
çĤ® åħµ
å« Ķ
æĶ¿æ²»äººçī© ,
èĭ±åĳİ),èĢĮè¯¥åľ°æīĢéĩĩçĶ¨çļĦæĹ¶åĮºä¸ºUTC-6,åį³åĮĹç¾İ ä¸Ńéĥ¨æĹ¶åĮº(CST).åĲĮæĹ¶è¯¥åľ°è®¾æľīå¤ıä»¤æĹ¶éĹ´,ä¸ºUTC-6è°ĥå¿«ä¸Ģå°ıæĹ¶,åį³UTC-5(CDT).
äºİ é¦Ļæ¸¯
å¤§ éĥ¨ä»½
å½ĵ ä¸Ń,
å·ŀ åĴĮ
é¦ĸ éĥ¨
éĽĨ ãĢĭ
æĿ¡ çº¹
å¿« ä¹Ĳ
çī¹åĪ« è¡ĮæĶ¿åĮº
åıįå¯¹ æ´¾
ä¸Ńåįİæ°ĳåĽ½ æĶ¿åºľ
, è¿Ľåħ¥
P .
ä½į åľ¨
æľĢ åĲİ,
è¿ĩ å¾Ģ
æķĻ å¯¼
èĮ ¹
éĻĨ åľ°.
ä¹Ŀ å¹´(
åģļ çļĦ
èĸ ¯
ul t
è´µå·ŀ çľģ
w ith
åı ¹
ãĢģ éĥĳ
ä¸Ń ä¹Ł
å» ĵ
å°Ĩ è¯¥
ç«Ļ ()æĺ¯ä½įäºİ
å¿ĥ .
å¹³æĸ¹ ç±³.
æľį é¥°
åŁĥ å¾·
æī¹ å¤į
å¸ķ æĭī
çŃ¾ ä¸ĭ
è¿ģ åħ¥
åĨ³èµĽ .
åī© ä¸ĭ
åıĳåĶ® .
çĸ¯ çĭĤ
éĺ¿å°Ķå·´ å°¼äºļ
å½ Ŀ
ä¸İ ä»ĸ
ä½į å±ħ
é©¬ åĪ©
ç¼ ī
å°¼ å°Ķ
åŃĹ ç¬¦
æ¨¡ ç³Ĭ
è¯į .
,åĽłæŃ¤ åľ¨
å»ºç«ĭ çļĦ
çĪĨåıĳ åĲİ,
åį¡æĸ¯èĴĤ åĪ©äºļ
I s
T H
çļĦ åħī
è¥¿ å¾·
é«ĺ ä¸½
å®ŀ è´¨
èĭı åĨĽ
åħµ éĥ¨
ä¹¡ ,
äºİ200 3å¹´
è¿« å®³
éĨ Ľ
åħ¬éĩĮ, æµģåŁŁéĿ¢ç§¯
çļĦåĲĮ æĹ¶,
æĭ³ åĩ»
ç½¢ åħį
æ¶Īè´¹ èĢħ
3 60
B r
a de
å¼ ¼
ä¸İ åīį
åıĬ æĹ¶
åĮĹ æ´ĭ
åĲĪ éĢĤ
æ¬¡ åŃĲ
åıį å¤į
é£İ éĢŁ
ç¾¤ .
åºĦ åĽŃ
åıĳå¸ĥ .
ä¸»ä»» .
çıł æµ·
å¼ķåıĳ äºĨ
å¯Ħ çĶŁ
åģľè½¦ åľº
å¢ĥå¤ĸ è¾ĵåħ¥
çŀĦ åĩĨ
9 0å¹´ä»£
o od
åĨ ¥
æĹ¶ éĢŁ
ä½¿ èĢħ
è¾¾ åĪ°äºĨ
åįİ çº³
æĶ¹ ä»»
åĲĦ çķĮ
æ¸ħ åĨĽ
çļĩ å®¤
å®ģ å¤ı
å·¡ èĪª
192 4å¹´
éĺ¶æ®µ .
(J R
æĢ§è´¨ .
ä¿Ŀå®Ī åħļ
æŁ´æ²¹ æľºè½¦
ç»ĳ æŀ¶
ãĢĬ ä¸ŃåĽ½
éĽ ģ
è¿Ľ é©»
å¤ĸ ç±į
çĽ¸ ä¼ł
éĻ¢ å£«
æ£ ł
åī§ ç»Ħ
æ¯ı ä¸Ģä¸ª
æīĵ åħ¥
å¼Ĺ åĲī
åĩı è½»
å¿ĥçĲĨ åŃ¦
span ="
! âĢĿ
. ãĢĮ
. çİĭ
åĴĮ å°ı
æľĪ åĪĬ
ç¬¬ 15
è¿Ľ ç¨ĭ
ç»ı ãĢĭ
è¡¨ å½°
æİ¥ é©³
ä¿Ŀ åģ¥
å¹¿ å²Ľ
æĶ¿åºľ .
åıĮ åĲĳ
æ³° åĽł
è®¡åĪĴ åľ¨
,ä¸į èĥ½
ä¾µ èļĢ
äºİ18 5
å·¦åı³ ,
æ¸Ķ ä¸ļ
Lo ve
åħ¬ æŃ£
æ¸ ´
è¢« åĪ¤
éĩĮ å¥ĩ
ãĢį æĺ¯
å¸ĥ æĸ¯
10 1
or g
åĮħæĭ¬ äºĨ
çīĩ ,
çīĩ ãĢĬ
è± ļ
è¾ĥ å°ıçļĦ
çĽŁ åıĭ
çĶŁæ´» çļĦ
æ®¿ è¯ķ
å®¶æĹı çļĦ
å¹´(16 2
åĽ½ç«ĭ åı°æ¹¾
oun d
çľģéģĵ åı°
- åºĦ-
E X
çļĦ å¥³æĢ§
éĩĮ å¥¥
åĮĹ ä¼Ĳ
201 7
æľŁ ,
200 9å¹´,
éĶ £
å¤Ħ çĲĨ.
æĺŁ äºĳ
ä¼ł è®°
æ» ĩ
åĵĪ é©¬
ä¼¦ æĸ¯
éĺ² æĬ¤
,ä¹Ł åı¯ä»¥
çļ® å°Ķ
çĲ³ Â·
è¤Ĳ èī²
æĥ© ç½ļ
,è¿Ľ èĢĮ
å½Ĺ æĺŁ
M C
o o
çļĦ æĹł
ãĢģ æķĻèĤ²
ãĢģ èĥ¡
åĽ½ å°ı
äºº ãĢĭ
åĮĹ åį¡ç½Ĺ
æľĢ æĸ°
çī© ä¸ļ
åŁº å°Ķ
éĽĨ ä¼ļ
åĽ½å®¶ åĴĮ
åĪĽ ä¸ļ
åĽ½éĻħ èµĽ
éĿĴ éĵľ
.æŃ¤ æĹ¶
196 1å¹´
re f
è®² è¯Ŀ
æĶ¯æµģ ,
åĲĽå£«åĿ¦ ä¸ģåł¡
, é»Ħ
- 20
I L
W orld
y l
ãĢģ æĸĩåĮĸ
æķ ķ
èĥ ļ
åħĭ ä¼¦
äºļ çĥŃå¸¦
èĪ ¶
å½¢ åĬ¿
åĪĿ å§ĭ
æĬķ å½±
èĥľ .
ä¼ļè®® ä¸Ĭ
æĻļ å¹´
çĲĥéĺŁ .
ä¼ĳ éĹ²
åįļçī©é¦Ĩ .
äº§åĵģ .
- 15
åĲĮ ä¸º
å°ı é¡¹
ç«Ļ åĨħ
åı² .
çĬ ģ
å²Ľ ãĢģ
é¥ ¿
èĲ½ åĲİ
æľįåĬ¡ ,
äºĭä»¶ ,
(A n
åĬ¨è½¦ ç»Ħ
åŃ£åĲİ èµĽ
w ard
çļĦ åįķ
çļĦ å¤´
äºº åĿĩ
èµ İ
è¡Į ä½¿
åıĳ éĢģ
ãĢį ä¸İãĢĮ
æľĢ èĳĹåĲįçļĦ
æł¼ æĸ¯
æİ¥ åĬĽ
åĽ½å®¶ .
çİ¯ èĬĤ
åı³ ä¾§
ç»Ŀ å¤§å¤ļæķ°
193 4å¹´
èľ ¡
å¤ĦçĲĨ åĻ¨
å®ļä¹ī .
æĻ®ç½Ĺ æĹº
, ä»Ĭ
ä¸Ń éĺŁ
äºº å¯¹
æĺ¯ ä½įäºİ
æĪĺ ä¸Ń
åı£ å²¸
éĺ¿ å¡ŀæĭľçĸĨ
11 4
ä¸ĥ ä¸ª
æĺ¾ å¾Ĺ
ä¼ļè®® .
è¿½ éļı
èĥ½åĬĽ .
æĤ¬ æĮĤ
åĸĩ åĺĽ
çİ« çĳ°
çļĦ æ¯įäº²
ä¸Ģ æ¬¾
èµ ļ
ä¼ļ ä»¥
åĲĮ æĹ¥
å±± åĿ¡
æĻ® æ£®
la ss
éħį è§Ĵ
æĢĿ èĢĥ
åºŁ æŃ¢
- éĺ¿å°Ķåįĳæĸ¯
r ist
ä¸º ä¸Ģä¸ª
ä¸Ģ çŃī
æľ¬ åī§
å¾· è¯Ń
é¦Ļæ¸¯ æĶ¿åºľ
å®£ èªĵ
æĸ½ è¡Į
åįł æ¯Ķ
å²ģ ,
è½¨ çĶµè½¦
çĻĮ çĹĩ
, åı¦
çļĦ æĬĢæľ¯
ãĢģ 3
åĮº (
éģĵ æķĻ
äºĮ çĻ¾
åİŁ æĸĻ
å¸¸ çĶ¨
åĽŀ æĶ¶
æĪĲä¸º ä¸Ģä¸ª
å¸¦ çĿĢ
,æĺ¯ ä¸º
é¾Ļ ç±»
åħī æĺİ
å·¦ ä¾§
éĺµ çº¿
èĤ¯ å°¼
æĢĢ åŃķ
çģĮ æľ¨
æ±ŁæĪ· æĹ¶ä»£
è¯Ń:),æĺ¯ è¥¿çıŃçīĻ
b ack
t r
Ä ģ
çļĦ åĲįç§°
åĮ Ģ
19 12å¹´
è¿Ľ ä¿®
æĪĺ æĹ¶
ç¨ ½
è¾¾ Â·
åı· ãĢģ
éĩĳ åĥı
å¸Ī åĽ¢
çļĦä¸Ģ åĲį
æŃĮ åī§
æİĴ åºı
,ä»ĸ æĺ¯
ç¤¼ éĥ¨
æ³½ è¿ŀ
åĢ¾ æĸľ
èĤĸ åĥı
åįłåľ° éĿ¢ç§¯
åºĩ æĬ¤
) äºº.
, åħĪ
çĶŁ ãĢģ
æ°ĳ èĪª
çī¹ èī².
éķ¿ èĢģ
å¼Ģ éĻ¤
ç«ĭ å¤§åŃ¦
éĵ Ģ
æ· ĭ
an k
åĽ¾ å°Ķ
çłĶç©¶ çļĦ
è¶³ æĢ»
è¿½ è¸ª
æłĳ æŀĹ
ç½Ĺé©¬ å¤©ä¸»æķĻ
æ¨¡å¼ı äº§
æī¹è¯Ħ .
åŀĴ æīĵ
,åĪĨåĪ« ä¸º
åĳĬç¤º çīĮ
2 1.
ä» Ĺ
ä¼ļ è®¡
åĩº èµĦ
å¤ļ ä½į
ç§į ,
å®ī åİ¿
ä¸¤ é¡¹
è£ Ļ
ä¼ł åħ¥
11 3
è¾¹ å½¢
çĻ¾ è´§
()æĺ¯ ç¾İåĽ½
åıĳå¸ĥ çļĦ
æ¿Ģ ç´ł
äº« åıĹ
çŀ ¬
ç»ĵå©ļ .
éī´ äºİ
éĻ¨ åĿĳ
be gin
çĽĨ åľ°
åī¥ å¤º
çļĦ éĢŁåº¦
è¯ ł
åĲİ åĭ¤
ç¾ Ł
çī¹ åĴĮ
æ°´ éĿ¢
å°¼ çļĦ
å¿ĥ ,
åĳ½ åĲį,
æ¬§ éĺ³
14 8
ç¥¨ ä»·
åı¦ä¸Ģ ä½į
ig h
ä¹Ķæ²» äºļ
è¿ĳå¹´ æĿ¥
ä¼ĬåĪ©è¯ºä¼Ĭ å·ŀ
( åħ¶ä¸Ń
, åħĪåĲİ
åĲ ¡
ä¸Ģ åħ±
ä¸Ĭ éĿ¢
ä¹ĭ çĪ¶
æı ½
åĪ¶ æľį
éĩĳ é¢Ŀ
çİĭ åĽ½çļĦ
åĮħ è£ħ
æīĭ çļĦ
,åľ¨ æŃ¤
é¦Ļæ¸¯ çĶµå½±
æĬ¤ å£«
è¾¹ çĸĨ
17 3
åį°åº¦ æ´ĭ
çº¦ç¿° éĢĬ
æ³ķåħ°è¥¿ å¤§åĮº
å´© æºĥ
âĶĢ âĶĢ
, åĨħ
äºĨ åľ¨
ãĢį åŃĹ
ä¹Ł å°Ĩ
åı£ åı·
200 5å¹´,
,å¹¶ ä¸º
åħ¨ å¹´
æ¯Ķ å°Ķ
å¸¸ è¢«
å¤ª ç¥ĸ
15 6
å¥ĸ ãĢģ
è¯Ħ éĢī
éĻį çº§
ç´¢ å§Ĩ
196 2å¹´
å¼Ģåıĳ .
åĬ¨çī© çļĦ
çĶŁçī© åŃ¦
é¢Ĺ ç²Ĵ
æ³ķåħ°åħĭ ç¦ı
çĭ© çĮİ
, èĭ±åĽ½
. com
G P
äºİ ç¾İåĽ½
åĴĮ ä¸ŃåĽ½
æĹ¶ 30
ä¸Ĭ å±Ĥ
ç¬ Ľ
æľ¬ åĲį
è½¦ ãĢģ
éĥ½ èĥ½
è£ ¹
ç¿ ¡
æĭħ å¿§
å¸Į çī¹åĭĴ
èĢģ èĻİ
ä¸ĢçĽ´ åľ¨
. ä¸ŃåĽ½
D C
E d
O n
S N
åĴ Ģ
éĥ¨ éķ¿,
åħ¬ æ¼Ķ
å·¥ èµĦ
æķ° åŃ¦å®¶
æ²³ åĨħ
åıĺ éĩı
ç¼ĸ æĽ²
å¤´ .
åħĪ éĶĭ
å¼ķ åĬĽ
as h
(),æĺ¯ æĦıå¤§åĪ©
ros oft
ä¼Ĭä¸½ èİİçĻ½
U R
èĩ Ń
åĪĨ åī²
ä¹Ł ç§°
æķĻ ä¹ī
ç»´ æĭī
æ¯ı ä¸Ģ
å¢ŀ èĩ³
è¡¨ç¤º :ãĢĮ
åĨłåĨĽ ,
å®¾ å¤ķ
å®ª åħµ
è®°è½½ ,
åĵĪèĲ¨åħĭ æĸ¯åĿ¦
4 æľĪ1æĹ¥
çļĦ åŁºæľ¬
ä¸Ń æīĢ
åĴĮ é«ĺ
åĳ ¢
åħ¶ ä¸Ń,
æĶ¿ .
å¼Ģ è¡Į
âĢĿ ä¸º
å°ı äºİ
æĢ» ç®¡
éĻ¢ .
èµ· çļĦ
202 2
ä¼ł ä½ĽæķĻ
æĶ¶ èİ·
ä¼Ĺ è®®åĳĺ
æĹ¶éĹ´ ,
for m
åŃ¦æł¡ ãĢģ
ç®Ģ æĺĵ
æĴ¤ åĽŀ
æµģè¡Į éŁ³ä¹Ĳ
å³¡ è°·
æĴĴ åĨ·
æĮĸ æİĺ
çĢ ĳ
å¯ĨèĭıéĩĮ å·ŀ
E E
åĮº è®®åĳĺ
æ¼Ķ åıĺ
æĶ¹ çĶ¨
12 4
å®ĺ åħµ
å¤´ ,
èĩ´ åĳ½
æŃ¦è£ħ éĥ¨éĺŁ
åıĳçİ°äºĨ æŃ¤å¤©ä½ĵ.
èĨ¨ èĥĢ
( èĭ±æĸĩ:
y s
çļĦ èĩª
æĺ¯ æľĢ
å¼ı .
åİŁ æľīçļĦ
åŁİ éĹ¨
an a
æĿĳ çļĦ
æĦŁ è°¢
èĢ¶ è·¯
1, 0
Face book
ä¸Ń æĹ¥
âĢ ĭ
æ² Ľ
åı¯ æ±Ĺ
èĲ Į
åħ³ æĬ¼
æĻ® éĽ·
11 7
å±Ģ ãĢģ
ç¦» å¿ĥ
éħį å¥Ĺ
çł´ äº§
.200 0å¹´
éħĴ åĲ§
è¶³å¤Ł çļĦ
æ³½è¿ŀ æĸ¯åŁº
. ä¸»è¦ģ
M L
éĿ¢ åīį
æīĢ ,
èĪ ·
é©¬ åĮ¹
,å¹¶ æĪĲä¸º
10 æľĪ1æĹ¥
,ä½Ĩ è¿Ļ
åħļ å§Ķ
èĹ ī
å½±åĵį çļĦ
èģĶçĽŁ çļĦ
è£ģ åĨ³
os e
å±Ĭåħ¨åĽ½ äººå¤§
æĦıåĳ³ èĳĹ
oun t
O V
æĹ¥ æĸĩ
äºĨ è¿Ļä¸Ģ
ä¸İ ä¹ĭ
ä¸į å¦Ĥ
å¢ Ł
åİ¿ éģĵ
å·´ å·´
ç»ĵ è¯Ĩ
å°± èĥ½
in cl
è¯º åħĭ
åĮºçļĦ è´Łè´£ç®¡è¾ĸ.è¯¥æĿĳ
èµŀ æī¬
è®¾ç«ĭ äºĨ
æıŃ éľ²
. )
o x
èµĽ é©¹
åı° çļĦ
è·¯ å¾·
é¢Ĩ éĺŁ
åĽŀ å®¶
ä¸ĩ å¼ł
æ®µ çļĦ
at a
è®© äºº
ä¸Ńå¤® åĨĽå§Ķ
çªģ è¢Ń
196 3å¹´
çľģ, ä¸ľåįĹ
æ±Ĺ åĽ½
, 0
å½ ª
åħĭ æ´Ľ
å¼Ģ å°ģ
âĢĿ âĢľ
è¿Ľ åĮĸ
è¯¥ å¸Ĥ
çĤ Ĵ
è®® éķ¿
èº« äº¡
ä¸ĵ æłı
å¤´ çļĦ
16 3
èĲ½ .
éĺ² çº¿
å¤ı å¤©
æ¥¼ .
æ¯ĶèµĽ çļĦ
å¹² æ¶ī
å®ĭ æľĿ
ä»¥ä¸ĭ ä¸º
äºİ200 2å¹´
æĭįæĳĦ .
éĺ¿æĭī æĸ¯
çİĭæľĿ çļĦ
æ³¨æĦı åĪ°
ä¸īè§Ĵ å½¢
æ¸¸åĩ» éĺŁ
åķ¤ éħĴ
, æĺİ
åĲ ĭ
ä¸Ĭ æ³ķåħ°è¥¿å¤§åĮº
ä»ĸ è¿ĺ
æ¯ Ļ
å¤ļ å®¶
éŁ §
è¯´ .
åıį èĢĮ
çĸ ²
åĲī ç¥¥
ä¸Ńå¤® çĶµè§Ĩåı°
ç®¡çĲĨ çļĦ
50 å¹´,
èĥĮ éĿ¢
çİ¯å¢ĥ .
å®ĺæĸ¹ ç½ĳç«Ļ
192 5å¹´
192 9å¹´
æīĢåľ¨ çļĦ
èĢ¶è·¯ æĴĴåĨ·
, å®ī
d er
é©¬ åħĭÂ·
æĶ¿åºľ åĨĽ
ä½¿çĶ¨ ,
çĻ» è¿Ľå£«
éĺ¶ å±Ĥ
é»İ æĺİ
èĶ ¬
ç§Ł åĢŁ
æĶ¹ç¼ĸ ä¸º
åĨ²çªģ .
åĬłåĪ©ç¦ı å°¼äºļ
(è¥¿çıŃçīĻ è¯Ń:),æĺ¯è¥¿çıŃçīĻ
æµı è§Ī
åĴĮ çļĦ
äºĭ çī©
è½¦ ä½ĵ
åħ° å¾·
äº¦ åľ¨
èŃ¦ åį«
æ¥¼ ãĢģ
ä¸ľéĥ¨ å¤§åĮº
ç¬¬åįģ åĽĽ
äºİ199 8å¹´
åĢ¡ è®®
, åħ±æľī
ä¸º ä½ķ
åĴĮ è¥¿
ä¸į ä½Ĩ
æĭī èĲ¨
æ¹¾ ä»Ķ
æ¸ħ çĲĨ
æĳ Ĭ
éĩĩ è´Ń
éĤ£ å·ŀ
è¡ĮæĶ¿ åĮºåŁŁ
è¶³çĲĥ è¿ĲåĬ¨åĳĺ
åĤ ²
äºİ200 1å¹´
çĪ¶äº² çļĦ
è¯¯ å·®
è¾ħ éŁ³
æĻ®ç½ĹæĹº æĸ¯
, åı²
1 èĩ³
T T
m o
çļĦ æ³ķå¾ĭ
åĴĮ ãĢĬ
åŃ¦ ä½į,
èģ Ĭ
çī¹ ç§į
åı° å¤§
200 6å¹´,
ç»ĵ çĽŁ
åħļ å§Ķä¹¦è®°
)æĺ¯ ä¸Ģä¸ª
çºª å¾ĭ
é¾ ļ
åĽ½å®¶ è¶³çĲĥéĺŁ
15 9
è¯º Â·
ä¸ĢçĽ´ æĺ¯
ä¸ºä¸» çļĦ
æĸ ¼
ä¸Ń åľº
åħ¬ çĽĬ
æľ¬ éĥ¨
éĹ´ éļĶ
æĪĺ çļĦ
æĪĺ ä¿ĺ
æĢ» è®¡
ä¹Ĳ åĿĽ
éĴ ¾
æ³° ç±³å°Ķ
åľ°æĸ¹ æĶ¿åºľ
.199 8å¹´
(),æĺ¯ ä¹Įåħĭåħ°
è¿İ æİ¥
çĪĨåıĳ ,
æ¡Ĥ æŀĹ
æ°Ķè±¡ å±Ģ
éĢļè½¦ .
çİ¯å½¢ å±±
æ¦´ å¼¹
( åīį
éĩ ľ
æĻ ĸ
ä¸ľ è·¯
çķ ¿
å°± åĥı
ä¸ĩ äºº.
çļĦä¸Ģ æīĢ
çĻ½ å®«
åľŁ èĳĹ
å·¥ä½ľ èĢħ
æľŁéĹ´ çļĦ
è¿Ľåħ¥ äºĨ
è¯¸ ä¾¯
å¹´(15 7
oc i
,åįĹ èĩ³
ç¡ķå£« åŃ¦ä½į
ç¿¡ ç¿ł
, 9
, å°ģ
, åĲ¦åĪĻ
çļĦ ä¸ĭ
åľ¨ å¾·åĽ½
äºİ æĹ¥æľ¬
19 19å¹´
ä¹ĭ å¥³
æľ¬ Â·
èĪ ĸ
åľº ä¸Ĭ
æ¯Ķ 0
åħ³ èĬĤ
æİ¥ ä¸ĭæĿ¥
ä¼ł ãĢĭ
å±ķ åĩº
çĭ ¸
ç¬¬ä¸Ģ åŃ£
,æĺ¯ åı°æ¹¾
å¼º å¤§
.è¿Ļ æ¬¡
çļĩ å¤ª
å½ĵåľ° å±ħæ°ĳ
å¯Į æľī
ou t
å¾ħ éģĩ
ow er
ä¼Ł å¤§çļĦ
å®īå¾· é²ģ
bo x
çĪ±å¾·åįİ Â·
. 2019å¹´
åľ¨ çº¿
10 7
ä¼ł éĢģ
æĽ´ é«ĺ
æĽ² ãĢĬ
æ´¾ å¾Ģ
ç»Ļ åĩº
æĦŁ åıĹ
å¾ģ åı¬
æĵį çºµ
li x
æĸ°çĸĨ ç»´åĲ¾å°Ķ
ãĢĭ()æĺ¯ ä¸Ģéĥ¨
å®¾å¤ķ æ³ķ
, æīĢ
, å¿ħé¡»
2 åĲį
éĻ ĩ
å¹¶ è¢«
åĲĮ ä¸Ģä¸ª
201 4
é©¬ åħ¶é¡¿
éĢļ åĭ¤
10 3
éĩĳ é©¬
ç³»åĪĹ èµĽ
çİĽ æł¼
åħĦ éķ¿
8 0å¹´ä»£
çļĦ æł¸å¿ĥ
æľī å¾Īå¤ļ
æ³ µ
ä¼ļ è°Ī
åĵ ¨
åı· çłģ
å¼Ģå§ĭ .
æ´¾ ç³»
çĻ½ éĵ¶
å¡Ķ æĭī
åıĮ éĩį
æľ¨ æĿĲ
å»ºéĢł çļĦ
ç£ģ åľº
æĺ¯ ä»ĸ
å¤§ å¤§
åĴĮ éĺ¿
ä¸į å¹¸
äºĶ çĻ¾
å¤ĩ åıĹ
è¾¹ ä¸º
çĶ² çº§èģĶèµĽ
ä¾¿ åĪ©
formula_ 4
ç§ĳåŃ¦ æĬĢæľ¯
æĭľ ä»ģ
å¹ķ åĲİ
èĬ¬ Â·
æľĿé²ľ åįĬå²Ľ
çļĦåľ° éĵģ
ç¿Į æĹ¥
æ¶¡ è½®
Mic rosoft
- 5
4 000
200 4å¹´,
æĢ» åĢ¼
éĩĳ æĸ¯
æıĲ åĲį.
èİ· é¢ģ
å¥¥ åĪ©
,æĺ¯ ä¸Ģé¢Ĺ
çłĶç©¶ åĳĺ
èĲ¥ éĢł
ä»¥åıĬ ä¸ŃåĽ½å¤§éĻĨçļĦ
è´Ł æĭħ
åĺ İ
æĺ¾ çĦ¶
é¢Ħ èŃ¦
æ¸© åĵ¥
èµŀ æĪĲ
çŃĶ åºĶ
çĭŃ çªĦ
yst em
2 2.
4 .5
å¤§ åĨĽ
çĶŁ å¹³
åĲį ä¸¾äºº,
è¥¿ æĹ¥æľ¬
èĢĮ æĿ¥
æľ¬ é±¼
åĪĻ è®¤ä¸º
è¯´ è¯Ŀ
çĸ ¼
è½¬ åħ¥
æ¸ħ æĻ¨
çĶ² ç»Ħ
çĽĳ æµĭ
ç½ª åĲį
é¡¶ çĤ¹
äºĨä¸Ģ åľº
è°ĥæŁ¥ å±Ģ
èĶ ļ
æķ² åĩº
é²Ī å½¢çĽ®
, ç»Ī
çļĦ éľĢæ±Ĥ
åľ¨ åľ°
æĹ¶ ä¸º
ä¸į æĦ¿
éķ¿ å¾ģ
äºļ çļĦ
èĢħ æĺ¯
åİŁ åĿĢ
åįİ è¯Ń
è®º è¿°
çŁ¥ çļĦ
åĲī æĸ¯
éĩĩ éĽĨ
æ»¡ è´¯
æĸ¹æ¡Ī .
èħ¹ éĥ¨
æĭ¦ æĪª
æ¸©åĵ¥ åįİ
, å¤©
M ed
O r
çļĦ åľŁåľ°
åľ¨ ä¸İ
åŃ¦ æ´¾
è¡Į ç¨ĭ
ä¸į å¤ª
å¯¹ ç«ĭ
å¹³ åĿ¦
201 2
è½¦ éģĵ
æĪĺ åĮº
å±± è°·
èº« è¾¹
ç¦ı åħĭ
æ¡Ī çļĦ
åįĬ çĲĥ
åĲĮæĹ¶ ä¹Ł
å·²ç»ı è¢«
24 0
å®¡ è®®
æĴŃåĩº çļĦ
æ¨¡å¼ı .
äºİ199 9å¹´
.å¥¹ æĽ¾ä»£è¡¨
æĲŃ ä¹ĺ
æĿĨ èıĮ
æī§å¯¼ ,
è¿½æº¯ èĩ³
c m
u al
æķ ĸ
æ² ģ
ç«Ļ åĴĮ
çĽ® å½ķ
çİĭ æľ±
11 .
ä¸ĩ äºº,
æĥħ .
å¥ĸ çļĦ
çĬ¶ .
13 4
æ»¡ æĦı
è¯Ŀ é¢ĺ
ä¾Ŀ æ³ķ
(,), ç¾İåĽ½
äºĭåĬ¡ .
èĶ¡ èĭ±æĸĩ
åİļ çļĦ
çħ¤ çŁ¿
B D
E S
åľ¨ åįĹ
äºļ åĪ©
201 5
å°ı éķĩ
,å¹¶ åĲĳ
ä»¬ çļĦ
åıĤ è®®
ä¸ĩ åĲ¨
åıª åľ¨
ä¾ĭ (
å¯Ĩ æŃĩ
åĲ« éĩı
å±ŀçļĦ æ¤įçī©
å®ļä¹ī ä¸º
,åıª æĺ¯
çĶµåĬĽ æľºè½¦
! ãĢį
. å¼ł
P P
çļĦ ä¸ľ
éĿ¢ æĺ¯
å°ı åŃ©
åĵĪ ä¼Ĭ
æŁĵ èī²
ä¸ĩç¾İåħĥ çļĦ
åµ ©
çĲĨå·¥ å¤§åŃ¦
æĽĿ åħī
1 200
A m
çļĦ èĭ±åĽ½
çļĦ è®¡åĪĴ
åĩº ç§Ł
åıĳ æĶ¾
ä¹ĭ ä¸Ń.
æµ· æ»©
åĽł çĹħ
ç¼ ®
æīĭ æ³ķ
å²Ľ å¼ı
åıĺ å½¢
åķ ¦
åķ ¸
æ³¢ åĪ©
æŃ¦ åĬŁ
åĵĪ å¸ĥ
å¥ĩ å¹»
å²ģ æĹ¶,
èĴĻ å¾·
äºĳ æŀĹ
æĳ© æ³½å°Ķ
äºĨä¸Ģ ä»½
.199 9å¹´
åİ»ä¸ĸ åĲİ,
é¤Ĳ é¥®
éħī ç§ĳ
å¯ĨæŃĩ æł¹
çļĦ åįĹ
ä¸º ä¸»è¦ģ
å¤§ çģ«
åŃ¦ çķĮ
çĶŁ æĹ¥
ãĢĭ èİ·å¾Ĺ
åĲĮ äºĭ
ä¹Ł å¼Ģå§ĭ
è¦ģ ç´ł
åı· ä¸º
å±ŀ çļĦä¸Ģç§į
æ¸¯ åĮº
æ²³ ,
å¸Ī éķ¿
åĪ« åħĭ
çĬ Ģ
æĶ¶ åĽŀ
æ·± å¤ľ
14 6
åģľ çģ«
ä¸¥ åİī
æłĸæģ¯ æ·±åº¦
åıĸä»£ äºĨ
æĭĵ è·ĭ
éĵ¸ éĢł
çĽĳå¯Ł å¾¡åı²
æ°¨ éħ¸
ç£· éħ¸
è¿Īåħĭ å°ĶÂ·
ãĢģ ä¸ĭ
è¡ Ļ
åŃ¦ éĩĳ
è¿Ļ ä½į
ç¾İ èģĶ
æ²³ ä¸ľ
ä¼Ĭ ä¸ĩ
åº§ ä½į
äº¦ è¢«
åĮ» èį¯
.200 1å¹´
å¢ŀåĬł .
æııè¿° äºĨ
æĦıä¹ī .
. çĽ´åĪ°
çļĦ äºº.
ãĢģ ä¸Ĭ
åľ¨ ãĢĮ
åĴĮ æŃĮ
åħ³ ç¨İ
ç»´ æĸ°
æ· Ĩ
åĲĦ æľī
æŀĦ å»º
å¾Ī æľī
çº¢ æĹĹ
æĸ¯çī¹ æĭī
ç£ º
åĨ° çĲĥ
åħĭéĩĮ æĸ¯
é¥® æĸĻ
æ°¯ åĮĸ
åĮĸåĲĪçī© ,
, ä¹ĥ
çļĦ äº²
ãĢģ C
äºĨ èĩªå·±çļĦ
çĶ± æĿ¥.
åĬ¨ çļĦ
æµ· å§Ĩ
çİ° éĩĳ
ä¹Ł èĥ½
åĲĪ éĩĳ
åĮĸ å·¥
èģĶ æĴŃ
an c
ç¬¬ä¸Ģ ä»»
çīĪ ãĢĬ
æ´¾ äºº
æĬ¤ çĲĨ
è´Ŀ æĭī
ç´¢ å°Ķ
å¼¹ éģĵ
le t
éĢīä¸¾ .
éĺ» ç¢į
çŁ¿ çī©
æ¯ĶèµĽ,èİ·å¾Ĺ ä¸Ģæŀļ
AK B48
, æ°´
åľ¨ å½ĵåľ°
ä¸į å¤ļ
å¼Ģ åĪĽ
åīį ä»»
ä½ĵ åĨħ
åŁº åľ°.
æĦı ä¸º
äº¦ åı¯
17 4
æ³¨ éĩį
ç«ł .
192 7å¹´
åĨ· åį´
ä¿ĿçķĻ äºĨ
æįĲ æ¬¾
,åĪĨåĪ« æĺ¯
æ³¢ç½Ĺ çļĦæµ·
, å¹³åĿĩ
, æĹ¨åľ¨
A D
ãĢģ å¤©
ä¼ļ ä¸İ
ä¸Ĭ æĺ¯
åĩº åħµ
çľ ·
,å¹¶ å¯¹
åħ¨ ç¾İ
éĩį æĴŃ
å®ī çŁ³
å±ŀ (åŃ¦åĲį:"
,ä½Ĩ è¢«
è¯´ çļĦ
ä¼¯ çī¹Â·
æķ´ æķ°
å³ »
æį¢ åıĸ
é³ ļ
è´¢ ç»ı
æĹ¶ä»£ .
æ·· æ·Ĩ
çī©ç§į :
åħ³æ³¨ .
éªļ æī°
,æĺ¯ä¸ĭè¾ĸçļĦä¸Ģä¸ªä¹¡éķĩçº§è¡ĮæĶ¿ åįķä½į.
u c
ãĢģ T
å¼ Ĭ
ä¼ļ è§ģ
éĥ¨ ä»¶
ä¹ĭ æĹ¶,
åŃĲ åĴĮ
èİ ŀ
éĩį åĬĽ
å®ŀ çĶ¨
ç±» .
ä¼ł æŁĵ
åĽ¾ çīĩ
ç¬¬ä¸Ģ ä»£
å®Į ç»ĵ
æĶ» åħĭ
ic a
å¯Į åħ°
éĥ¡ ,
ol og
è¯ĳ ä¸º
æ¦Ĥ åĨµ.
åŁºç¡Ģ è®¾æĸ½
éĵ¾ æİ¥
, åĳ¨
ä¸Ģ å¥Ĺ
åĲİ ä¾¿
è¶ ¾
ä¼ł è¾¾
ä¸ĩ åĲį
æŀľ å®ŀ
.5 æľĪ
å®Ŀ çŁ³
éĢĤ çĶ¨
,ä»İ æŃ¤
çºªå¿µ é¦Ĩ
æŀļ ãĢģ
åįķæĽ² æ¦ľ
å¥Ī å°Ķ
.ä¸İ æŃ¤åĲĮæĹ¶,
å¼ºçĥĪ çļĦ
é©¬åħĭæĢĿ ä¸»ä¹ī
M 1
åĽ½ ä¸Ń
æľĢ å°ĳ
200 8
ç½Ĺ æĿ°
æ® ´
11 ä¸ª
åĽŃ ãĢģ
åĬ© æĶ»
17 2
é£ŀ èĪ¹
éŁ³ä¹Ĳ ä¼ļ
æĬĢæľ¯ çļĦ
æłĩåĩĨ çļĦ
åį± å®³
è®°å½ķ .
æĸ°å¢ŀ å¢ĥå¤ĸè¾ĵåħ¥
åĨ¬åŃ£ å¥¥æŀĹåĮ¹åħĭè¿ĲåĬ¨ä¼ļ
è´© åĶ®
æ©Ħæ¦Ħ çĲĥ
iver s
ä¹Įé²ģ æľ¨
L ive
o la
åĴĮ è§£
å®¶ åºĦ
è¢« æĿĢ
å°Ĩ æŃ¤
æ¡ ¶
éĹ¨ çļĦ
æµģ åħ¥
åĽ¾ .
åıĳå±ķ åĩº
ä¹ĭä¸Ģ çļĦ
æĿĢ æīĭ
åħ¨åĽ½ äººå¤§
1. 8
éģĩ åĪ°äºĨ
èģĶéĤ¦ æĶ¿åºľ
å½¢å¼ı .
åŁ¹ èĤ²
çļĦåľ° ä½į
åľ¨è¿Ļ éĩĮ
éĵ¸ å¸ģ
è´ª æ±¡
è¶³çĲĥè¿ĲåĬ¨åĳĺ, åı¸èģĮ
, æ³ķåĽ½
. ç¬¬äºĮ
1 5å¹´
3 )
9 -
èĢ »
è° İ
è·¯ çļĦ
èģĮ å·¥
åĵĪ çī¹
æĬ¤ èĪª
çĮ ©
å²ģ ä»¥ä¸ĭ
.è¯¥ çī©ç§įçļĦ
æīį ä¼ļ
èĪ¹ èĪ¶
çĽ®åīį å°ļæľªçĶ±äººå·¥å¼ķç§įæł½åŁ¹.
çĤ® å¡Ķ
æģ¶ éŃĶ
èİİ Â·
ak e
æĹ©å¹´ .
çºł çº·
ä¹Ĵä¹ĵ çĲĥ
w w
å¤§ åĬĽ
æ°ĳ æĦı
å¼Ģ éĩĩ
çĶµ æľº
è·¯ è½¨
è§Ĥ çĤ¹.
åĩł ç§į
é¢Ŀ å¤ĸçļĦ
21 -
ç»ıè¿ĩ .
åįģäºĮ å¹´
ri d
èĨ Ľ
æİĮ ç®¡
ä¸º éĤ»
åĽ½ éĵģ
çĶ¨ äºĨ
éĩĮ çº¦
å¸ĥ ä¼¦
å°ı æĹ¶çļĦ
æķ° æ¬¡
æł¼ Â·
éľ ľ
12 .
11 6
an e
æĹ¥æľ¬ æĶ¿åºľ
æľĿ éĺ³
çŁ¥ åĲįçļĦ
å¨ģ æĸ¯
ç¾¤ çļĦ
èµ° .
æĹĹ èĪ°
191 4å¹´
æĭīä¸ģ ç¾İæ´²
çħ¤ çĤŃ
ç½ĳçĲĥ åħ¬å¼ĢèµĽ
, 6
, æŀĹ
4 åĲį
; zh-hant:
I R
m in
çļĦ è¡ĮåĬ¨
ãĢģ æ²Ļ
å¤§ èĦĳ
åĴĮ æĶ¿æ²»
æĹ¶ æľī
ä¸» æĴŃ
è¥¿ å²¸
åĬ¨ èĦī
å½ĵ æĻļ
ä»İ èĢĮ
å¥³ å£«
12 3
on ly
è§Ĥ å¡ĺ
åħ« ä¸ª
le x
åħ¶ä¸Ń ä¸Ģ
èĤ¡ æĿĥ
æ¼« å¨ģ
191 7å¹´
ç½ļ æ¬¾
æĢİ ä¹Ī
å¯Įåħ° åħĭæŀĹ
. 2021å¹´
çļĦ å¤©
ãĢģ åŃĻ
åħ¬ åĽ½
æĸ° åįİ
ä¸ī éĩį
åħ¨ å¢ĥ
æ¸¯ æ¾³
è½¬ æĬķ
ä¹Į åħ¹
æ°ĳä¸» æ´¾
åıĳè¡¨ çļĦ
å®ĩ èĪª
ç¥Ī ç¥·
ä¹Įé²ģæľ¨ é½Ĳ
, éĩĩçĶ¨
6 âĢĵ
T R
çļĦ å¿ĥ
ä¸Ń çİ¯
æĺ¯ ä¸Ńåįİäººæ°ĳåħ±åĴĮåĽ½
è¢« æİĪäºĪ
è¢« è¯Ħä¸º
èĩª ä»İ
è¿ĩ ä¸ĸ
éĥ½ å¾¡åı²
åĲī éļĨ
æĻ¯ çĤ¹
æ²ĥ å¤«
å¤º åĽŀ
us "
æ¬£ èµı
èĲ¨å°Ķ çĵ¦
èµĦæľ¬ ä¸»ä¹ī
èĤ¿ çĺ¤
Lin ux
begin =
( ä¸į
N O
çļĦ åĮºåŁŁ
ãĢģ D
åĲİ åıĪ
è¿Ļ ä¸¤
åĬł æ²¹
åĨħ åĬ¡
äºĭ åıĳ
), ä»¥
çĽ¸ æľº
éķĩ å®Ī
ä¸Ń, æľī
ç¼ĸ ç¨ĭ
ä¸»è¦ģ çĶ±
æ¡Ī ä¾ĭ
è¯į âĢľ
ç³»åĪĹ çļĦ
åĤ į
è¯¸ å¡ŀ
å¹³æĸ¹åįĥç±³, çļĨä¸º
å¹´(16 4
å¦ĤæŃ¤ ,
è¾© æĬ¤
åİ¿çŁ¥ åİ¿,
æĹħå®¢éĵģéģĵ (JR
G r
Ã ¼
çļĦ åŃĺåľ¨
ãĢģ ä¸Ģ
åľ¨ ä¼¦æķ¦
ä¹ĭ åľ°
èĩª æĦ¿
åı¯ æĮģç»Ń
äºļ åĨĽ.
åħ¥ åŃ¦
ä¿Ŀ å®ļ
åĲĦ çľģ
çļĦä¸Ģ åľº
åİĨåı² æ²¿éĿ©.
å¼Ĺ èİ±
åĲĪä½ľ çļĦ
åĩºçīĪ çļĦ
è¡¥ åģ¿
ä»¥ä¸ĭ æĺ¯
æª Ĳ
Mus ic
( s
. å¹¶
j ect
ãĢģ B
åĩ ĳ
å¾· åł¡
é«ĺ æ¸©
æŃ¤ ä¸Ģ
çº¦ è®·
åĥ µ
(, ç¼©åĨĻ
æŃ¥ éª¤
éĵģè·¯ çļĦ
éĥ¡ çļĦ
ä»ĭ äºİ
ur n
è¿Ŀ æ³ķ
é¥² åħ»
å¯Ĩè¥¿ è¥¿æ¯Ķ
. ç»ıè¿ĩ
ä¼ º
æĹ¥ åĨħ
åįĹ ä¸ĭ
æĸ° åħ´
çĪ ½
åŀĭ æĢģ
åħĪ é©±
èĪª è¿Ĳ
æ¤į è¢«
èī¾ å°Ķ
åįĪ ç§ĳ
èķ ´
æ¶² ä½ĵ
å«ģ ç»Ļ
æīĢéľĢ çļĦ
å·´æĭ¿ é©¬
å¹³æĸ¹åįĥç±³,çļĨä¸º éĻĨåľ°.
å¹´ åºķ
ãĢģ æ¢ģ
ä¸º 2
æĺ¯ ,
ä¸ĸ å®Ĺ
åħ¨ æĸ°
è¯Ń æ³ķ
æŃ¦ å£«
æŃ» åİ»
å¸Ĥéķĩ èĮĥåĽ´åĨħ
é±¼ ãĢģ
å½±åĵį äºĨ
å±ĭ èĭĳ
å·¨ æĺŁ
åįıè®® ,
èĥľåĪ© .
è¯ł éĩĬ
ãĢģ åĲİ
åĪĨ æķ°
ç¾ ŀ
åĨĽ çĶ¨
æĮ ½
è¿Ļ ä¹Ī
æį ŀ
èĤ ª
æł¼ ç½Ĺ
äº¤ äºĴ
æ¢ §
å¸Ī ä»İ
èĩ´ ä½¿
æĪ¿ åľ°äº§
æĪĺäºī æľŁéĹ´
ç¤¼ ä»ª
é¡¶ éĥ¨
åĪ¶éĢł çļĦ
æĹģ è¾¹
èĦĤ èĤª
éĺ¿å§Ĩ æĸ¯çī¹
4 åı·
G ro
I STAT
R ed
f lix
åĽ½ åŃĲ
å¤§ çº²
æ¸ Ŀ
åĲĪ åħ±
åħ¨ æ°ĳ
æ²» æĦĪ
12 2
è¿ĺ åı¯ä»¥
é£İ åĬĽ
åĨ° å²Ľ
æĴŃåĩº ,
è¿ŀç»Ń åī§
éī´ å®ļ
æ·±åľ³ å¸Ĥ
å¼¯ æĽ²
ä¸¹å°¼ å°ĶÂ·
å§¿ æĢģ
èĻĲ å¾ħ
çļĦ æ´»åĬ¨
çļĦ åĨ³å®ļ
åľ¨ å½ĵæĹ¶
ä»¥ 3
çĲ ¦
ä¸Ĭ åľº
åĲĮ æ²»
ä¸ī åįĥ
é©¬ å°¼
å±± å¯º
åħ³ åį¡
ç»ĵ å±Ģ
åħļ éĥ¨
æ¸ħ æľ«
æŃĮ èĪŀ
çĶ· æ¼Ķåĳĺ
éĽ· è¯º
å¢ŀ æı´
åĢĻ è¡¥
çİ© åħ·
éĤ® ä»¶
ir l
è´Łè´£ç®¡è¾ĸ ,å±ŀäºİ
çĦ¦ èĻĳ
æĭĵ å±ķ
éĽĩ ä½£
æĤī å°¼
åĨħèĴĻåı¤ èĩªæ²»åĮº
éĺ¿åŁºåĿ¦ å¤§åĮº
çĢĳ å¸ĥ
ISTAT ä»£çłģä¸º
( p
, åºĶ
A -
S C
ä¸Ń åıĳçİ°.
åŃĲ åŃĻ
éĵģ è¾¾å°¼
ç¥ŀ åŃ¦
ä¼Ĭ Â·
æ¸ħ æ´ģ
æĹ© å·²
(, )
æľºæŀĦ çļĦ
è®¾ç«ĭ ,åħ¶åĲİ
çĸĳ ä¼¼
th er
æĽ¹ æĵį
,åıª è¦ģ
åĢ¡ å¯¼
æĸĩèīº å¤įåħ´
æ¤įçī©. åĪĨå¸ĥäºİ
Net flix
éħĭ éķ¿
(å¾· è¯Ń:)æĺ¯
illi am
. 2022å¹´
E .
è½ ¶
ä¸Ĭ æ¼Ķ
ä¹ĭ åĲį
ä¸ĭ å±ŀçļĦ
æĸ° åĮº
ãĢį ()
åįģ ä½Ļ
å·ŀ (ä»Ĭ
éĩį åıł
è¾¾ ç§ĳ
æŃ£ å½ĵ
ä¹¦ çļĦ
å¤« æĸ¯åŁº
æ²¡ æĶ¶
åĪĿ å¹´,
æŀĦ æĥ³
èĲ¨ æĳ©
ar i
æĥ³ åĪ°
å®³ æĢķ
ç¿» åĶ±
æ»ĳ åĨ°
åĢį .
çī¹æ®Ĭ çļĦ
end =
åĨħæĶ¿ éĥ¨
: ãĢĬ
H a
ãĢģ å¾·åĽ½
è¯ µ
åĴĮ æ°´
æĸ¯ å¾·
çĶŁ æĦı
åĲį ç§°ä¸º
ä¿ ©
è¥¿ è·¯
æ³ķ å¸Ī
äºĮ çŃī
èĤ ½
åħĥ èĢģ
éĴ ŀ
å®Ĺ åº§
èĢĥ éĩı
æ¾ ľ
æĲ ģ
åĪĹè½¦ çļĦ
è¿ģ åĪ°
çīĽ é¡¿
èĿ ´
çļĦä¸Ģéĥ¨åĪĨ, æµ·æĭĶé«ĺåº¦
1æĹ¥ å¹³åĿĩ
, å°±æĺ¯
L i
Ð ½
æľī åĬ©äºİ
éĽ ı
åĬł ç´¢
æľĢ éķ¿çļĦ
æ¡ ¦
é» Ķ
çº¦ æĿŁ
,ä½Ĩ åĲİæĿ¥
åħĥ çļĦ
åıį æĶ»
åĨ³ å¿ĥ
èĦ Ĩ
,æĺ¯ çĶ±
çĻ½ éĩĳ
äº¦ ä¸º
åŁĥ çº³
ç«¯ çļĦ
ç½ª .
.å®ĥ çļĦ
ä¸»æ¼Ķ çļĦ
æİ© æĬ¤
çķħ éĶĢ
èĿ´ èĿ¶
. ç¥ĸçĪ¶
1 :
V ID
ä¸º 5
ä¸Ń åįĪ
å¤§ æ³ķå®ĺ
æ³ ¼
åĩº éģĵ.
è¥¿ åĮº
å¯¹ å¾ħ
ç¾İ é£Ł
çİ° ä¸º
æĪĺ åĲİ,
åħ¨ æĹ¥
ç§° åı·.
åı· åľ¨
äººåı£ çļĦ
æĽ´ å¥½
åıĺ å¼Ĥ
èµ« é²ģ
æ¯ķä¸ļ çĶŁ
æįŁ ä¼¤
192 2å¹´
ç§ĳæĬĢ å¤§åŃ¦
å¦Ī å¦Ī
up er
æĳĨ èĦ±
J Â·
æ³ķ æĭī
äºļ é©¬
ä¸ī çĻ¾
11 æľĪ1æĹ¥
æ±Ł å¸Ĥ
èİ± çī¹
å¤ı æľĹå¾·
çļĦå¤§ å°ı
è®² åº§
.199 3å¹´
çĶŁçī© åŃ¦å®¶
æĪ´ ç»´
æ´ŀ ç©´
191 1å¹´
æª Ģ
incl ude
7 æľĪ1æĹ¥,
G u
J ohn
å ļ
åľ¨ ä¸ŃåĽ½å¤§éĻĨ
åĨ ¤
çī ¡
æľī åĽĽ
æ± ¾
ç±³ åĭĴ
éĴ ī
æĪĲåĳĺ åĽ½
å·¥ç¨ĭ .
æĳ© æ´Ľ
æŀª ç®¡
äºĨä¸Ģ é¡¹
éĺ¿å°Ķ åıĬåĪ©äºļ
åĪĽä½ľ .
æ¯ģ .
åį· .
.æľī äºĽ
,æĺ¯ä¸Ģé¢Ĺ æģĴæĺŁ,è§ĨæĺŁçŃīä¸º
" n
6 å²ģ
çļĦ åĨĽéĺŁ
ãĢģ æĸĩ
æĺ¯ è¢«
æĹ¶ æĬ¥
äºĨ å¤§éĩı
è¡Į æĿİ
å¤ļ è¾¾
èİ º
åĨħ å¤ĸ
å°Ĩ è¢«
åħ¨ å¸Ĥ
ç³ Ł
æ¯Ķ Â·
10 2
çķĮ .
å°± æŃ¤
æĶ¯ éĥ¨
åı¤ åŁİ
å¾Ī å®¹æĺĵ
åĺ ²
æĪ¿ åŃĲ
å¸ķ åħĭ
æĺ¯ä¸Ģ æ¬¾
ou s
æłĩåĩĨ .
èµĽåŃ£ ,
è±ª åįİ
åįļå£« åŃ¦ä½į.
ç»ıåİĨ äºĨ
çİ°è±¡ .
è§£æķ£ .
P ar
p ort
çļĦ æĪĺæĸĹ
æĬ ¹
è¥¿ å°Ķ
èĪ ľ
åı° éĵģ
æīĭ æĮģ
æµģ ç¨ĭ
èĲ¨ è¯¸å¡ŀ
16 7
äºĨä¸Ģ åº§
ç¨İ åĬ¡
åįıåķĨ ä¼ļè®®
e e
ãĢģ æĹł
åľ¨ 2008å¹´
æŀ ķ
åĪĨ æ³Į
âĢĿ ä¸Ģè¯į
å¤© çİĭ
ä¸ŃåĽ½ ç§ĳåŃ¦éĻ¢
æ¸¯ åı°
æµģ .
å²Ľ å¼ıæľĪåı°
æ¤ °
,ä¸į ä»ħ
äºĮåįģ åĽĽ
çļĨ æľī
èľ ĺ
åĪĬ çī©
èĿ ĩ
åıĻ äºĭ
è®¾ç½® çļĦ
å«Į çĸĳ
èĥ° å²Ľ
, é¢Ħè®¡
E D
å¹´ ä»½
æĿ ĸ
å¤§ å±łæĿĢ
åĪĨ çº§
é¦ Ī
åĬł åī§
ä¸ī æĺŁ
æĪĺ ç¥ŀ
å¤ĸ æĺŁ
éĩį åŀĭ
æİ¥ çº³
ä¾ĭ å¤ĸ
æ¬§ ç¾İ
16 9
çĹħ äºº
æ¸¸æĪı ãĢĬ
çľĭ æ³ķ
æķ°æį® åºĵ
æĪĺå½¹ ä¸Ń
åįłé¢Ĩ äºĨ
æľīæķĪ çļĦ
çľģ,è¯¥çľģä»½ä¸ºæ³ķåĽ½ åĮĹéĥ¨
ä¸ºæŃ¢ .
æ´»è·ĥ äºİ
Ã Ń
ãĢģ ä¸Ĭæµ·
ä¸º 6
ä¸º ç¾İåĽ½
å¤§ ä¸ľéĥ¨å¤§åĮº
ä»ĸ åĴĮ
ä»ĸ æĪĲä¸º
ä¸į æ¸ħæ¥ļ
åŃĲ ç§ĳ
åĪ© æ¶¦
âĢĿ åŃĹ
çŃī åĲĮ
çľģ ä¼ļ
ç§į åĬł
åİŁ å£°
æİ¥ åĪ°
é¦ĸ è½®
å·´ è¾¾
ä¿® çŃĳ
æ´Ľ æĸ¯
åı¯èĥ½ çļĦ
æ½ Ł
éŁ³ä¹Ĳ èĬĤ
æĺ¥ èĬĤ
ç½ª è¡Į
æ°ĳä¸» ä¸»ä¹ī
åĲ¦ å®ļ
.199 0å¹´
.199 1å¹´
.199 7å¹´
éĥĳ å·ŀ
èĳĹä½ľ ãĢĬ
è¡¨æĺİ ,
æķĪæŀľ .
é£ĵé£İ ä¸Ńå¿ĥ
èħ¾ è®¯
-21 ãĢģ
, è¯·
ãĢģ é¾Ļ
ä¸Ģ æľŁ
è¯ Ľ
åĩ ¿
èĢ ¿
çĶ¨ åľ¨
éķ¿ å´İ
ä»£ è¨Ģ
åº¦ åģĩ
åİ¿ åĴĮ
æĶ¹ æĪĲ
èį Ķ
ä¸ĩ ä½Ļ
äºĶ å¤§
åı¤ ç½Ĺé©¬
çļĦä¸Ģ ç³»åĪĹ
ä¼¯ æģ©
æĽ¼ åĵĪ
å³ Ļ
è¿ľ çļĦ
æĪĲåĳĺ ,
æ²¿ èĳĹ
çģµ é¡¿
æī© åħħ
.199 4å¹´
St ud
192 1å¹´
äºİ199 7å¹´
ç»´åŁĥ çº³
. äºİæĺ¯
2 30
çļĦ å£°éŁ³
åĪ ĥ
ä¸Ģ æĹ¦
æĺ¯ å°Ĩ
ä¸į åĲĪ
åħ¬ è½¦
åı¯ çĶ¨äºİ
äºļ ç§į
åħ¨ åŀĴæīĵ
å¤© åĲİ,
æ°´ åĬĽ
è§Ĩ è§Ĵ
çº³ å¾·
èĬĤ çĤ¹
æ¥ ·
åī¯ åı¸ä»¤
14 9
åŃ¦éĻ¢ ,
å°ļ æľī
1. 6
åªĴä½ĵ .
æĽ¿ è¡¥
ä¸ŃåŃ¦ .
æĶ¶å½ķ äºĨ
1 äº¿
L L
a ,
çļĦ èĢģ
åľ¨ âĢľ
åħ¶ ä¸º
ä¹ĭ æīĢä»¥
åĨĽ æĶ¿
ç¾İ æĭī
èĬ ľ
åŀ Ħ
åĽ¢ .
202 4å¹´,
æĽ´ é«ĺçļĦ
ä¸ĵ å±ŀ
ç¼ĸ æĪĲ
ä¾Ľ çĶµ
éĢŁ çİĩ
åįĬ åĨ³èµĽ
çº¢ å¤ĸ
éĢļå¸¸ ä¼ļ
1. 2
äºĮåįģ äºĶ
æķĮ å¯¹
èµĦæł¼ èµĽ
ãĢĭä¸Ń é¥°æ¼Ķ
%, å¥³æĢ§
å±ı å¹ķ
éķĩåĮºçļĦéĿ¢ç§¯ä¸º 9
æ¤Ń åľĨå½¢
V i
Ð ¸
ãĢģ æĹ¥
åľ¨ 2020å¹´
ä¸Ģ åĿĹ
é«ĺ å°Ķå¤«
éĢī ä¸Ń
ç»Ħ ä»¶
å¥¥ å§Ķä¼ļ
æĶ¯ åĩº
è¿ŀ ä¸²
éĿĴ å±±
çĻ» åł¡
éĢłæĪĲ äºĨ
éĥİ ä¸Ń,
ãģ Ħ
å§ĵ åĲį
192 6å¹´
å½© èĻ¹
çļĦçī¹ æ®Ĭ
èİ² èĬ±
é«ĺçŃī æ³ķéĻ¢
äºº/å¹³æĸ¹åħ¬éĩĮ(2009å¹´). ISTATä»£çłģä¸º
( The
, äººä»¬
P G
P l
ãĢģ å¤ļ
ä¸º 7
èĢ Ĩ
åıĳ .
ãĢį ,æĺ¯
æĭī èĦ±
æĥ ¹
åı· âĢĿ
å°¼ ç§ĳ
æĶ¾ å¤§
æ¬§ åħĥ,
ä¹¡ éģĵ
çĬ¶ ,
æĬĢæľ¯ .
é³ Ĺ
ä½© æĸ¯
èµŀ èµı
æĶ»åĩ» .
åĪ¶åº¦ .
åħ¬å°º ,ä½ĵéķ¿åı¯è¾¾
ä»ªå¼ı .
éĥĬ åĮº
å±¥ è¡Į
åĬłåĭĴæ¯Ķ æµ·
èľĺ èĽĽ
( åĲ«
g round
çļĦ å®īåħ¨
çļĦ ç»Łæ²»
ãĢģ S
20 å¹´,
æĹ¶ åľ¨
ç«Ļ ä¸º
åºľ ,
çĽ® åĩ»
æıĲ éĨĴ
ç»´ çī¹
åıĸ åĲĳ
è½¬ èĢĮ
åħī çļĦ
æ´¾ å¯¹
re d
èı² å°Ķ
éĶ¦ èµĽ
ä¸»ä»» ãĢģ
èĨ Ŀ
.194 6å¹´
éĽĮ æĢ§
ä¸ŀ çĽ¸
, è¿ŀ
C L
M .
ãĢģ åħ«
ä¸Ģ æŀ¶
ä»¥ 0
ä¹ĭ è·¯
ä¹Ł åı¯èĥ½
æĻ® é¡¿
åħ¬åı¸ åľ¨
ä¿¡ æīĺ
é¥ ·
æŀģ åħ¶
å§Ķåĳĺä¼ļ .
ä¸½ ä¸Ŀ
æļ´ éĽ¨
åĨ² éĶĭ
op h
av id
æ¿Ĵ åį±
çĲĨæŁ¥ å¾·Â·
åĽ½åħ± åĨħæĪĺ
H O
åĲİ å¤ĩ
è§ ħ
ç¬¬ 14
åı¯ å®¹çº³
200 3å¹´,
èµ· èįī
åı· åĴĮ
åĪĻ ä¼ļ
æŃ¦ åĬĽ
æŃ¦ çĶ°
å®Į æ¯ķ
åĽŃ æŀĹ
å®¤ ,
åįł æľī
åģľ åĬŀ
å¹² æĹ±
éĽĦ æĢ§
.199 6å¹´
ä¼ģä¸ļ .
ãĤ ¹
ri g
é«ĺéĢŁ éĵģè·¯
çĶµæ°Ķ åĮĸ
æĴŀåĩ» åĿĳ
, éĩį
1 åĲį
n g
çļĦ æĿĥåĪ©
åŃ µ
åĮ ¡
äºº åĬĽ
ä¸į çŁ¥éģĵ
èĭ ·
è¿ĩ .
æĪĺ äºĭ
åĲĳ åīį
ä¸ĵ åĮº
æ¨ Ĭ
ä¸ĸçķĮ åĲĦåľ°
æŃ¦ æĺĮ
åħ· åºĨ
é¡¿ æ¶ħ
is e
åĪĩ æĸŃ
è¥¿éĥ¨ çļĦ
å·®å¼Ĥ .
Al l
å¾Ĺä¸» ãĢģ
å¨ħ Â·
èĿĻèĿł ä¾ł
æĸ°çĸĨç»´åĲ¾å°Ķ èĩªæ²»åĮº
çļĦ é¦Ļæ¸¯
ä¸Ģ é¦ĸ
äºº éģĵ
è¡Į çľģ
åĪĨ è¾¨
åįİ æ²Ļ
çĿ ¿
åį³ æĺ¯
çłĶç©¶ èĢħ
ç¬¬äºĮ ä»£
åįĥ ç±³,
èİ± åħĭ
æĶ» éĻ·
å°Ħ çº¿
è¿ª åįĹ
è´¥ ç»Ļ
æĸŃ å±Ĥ
åĨ³å®ļ å°Ĩ
æ¬§æ´² åĽ½å®¶
st yle
ãĤ ĵ
çĶŁéķ¿ åľ¨
çĽ¸äºĴ ä½ľçĶ¨
æ¸Ĺ éĢı
æĳ©æ´Ľ åĵ¥
. æ¯į
. 2020å¹´
J .
R NA
r .
çļĦ é¢Ĩå¯¼
åľ¨ éĺ¿
äºº ä¹ĭ
æ² «
ä¿ ¯
ä¸ĭ æ°´
åĬ¨ æľº
é© ¿
èİ ¹
åĮĹ æ¬§
æŃ¤ ä¸¾
è¿ĩ äºĨ
åħ¨ ç¨ĭ
ç½Ĺ å®¾
åŀ ©
å¨ Ħ
éĽĨ ,
åħ´ èµ·
å¸Ń ä½į.
åıĤä¸İ èĢħ
æĸ¹éĿ¢ åĨĽ
èĤ¯ èī²
æĭįæĳĦ çļĦ
åıĺæĪĲ äºĨ
æĹ¢ æľī
å¥¥åħĭ è¥¿
ä¸ª æĢ§
ä¸Ĭ çº¿
ä»ĸ ä¹Ł
æ°ĳ äºĭ
æĸ° æĿĳ
é«ĺ å®Ĺ
äºļ è¿Ĳ
æĢ» ç½²
èİ· åĩĨ
å¥¥ å¸ĥ
å¤« å¦»
å¥ĸ åŃ¦éĩĳ
è¯ģ .
å¤® è§Ĩ
æħ Į
åį¢ æ¯Ķ
æľįåĬ¡ åĻ¨
et h
èģļ å±ħ
å¤ĸäº¤ å®ĺ
èĴĭ ä¸ŃæŃ£
å·¡åĽŀ æ¼ĶåĶ±ä¼ļ
å¹¿è¥¿ å£®
æĺİå°¼èĭıè¾¾ å·ŀ
æĭīèĦ± ç»´äºļ
, çī¹åĪ«
. æĹ¥æľ¬
A ,
n ational
å ¬
çļĦ æİ§åĪ¶
å¥ ¢
æĹ¶ è£ħ
æ² ¾
æµ Ĭ
ä¼ļ å¯¹
è½ ¿
çĶµ æºĲ
æ¯Ķ åĪĨ
åĽŀ æĿ¥
åĪĿ ä¸Ń
å¼º .
å¼º è¡Į
å®Į é¢ľ
éĺ³ æĢ§
å§Ķåĳĺä¼ļ ãĢģ
åģĩ æĹ¥
)åĴĮ ãĢĬ
éĢĥ èĦ±
æĬ¥åĳĬ ,
çķª èĮĦ
åĪĽéĢł äºĨ
çİ» åĪ©
ç¢İ çīĩ
åį°åľ° å®ī
æĽ¼åĵĪ é¡¿
- 6
? ãĢį
b it
Ð µ
ãĢģ ä½ķ
ä¸İ æĸ°
å¸Ĥ çº§
æľĢ å¿«
è½¦ åİĤ
ä½¿ åı¸
ç«Ļ (
åıĹ ä½ĵ
åħī å¤į
è¶³ åĪ©
æķħ å±ħ
æ·± æ°´
èį· é©¬
è®¢ è´Ń
èĨ ı
è¿ĩåİ» çļĦ
èĹ¤ åİŁ
åħīç»ª äºĮåįģ
å¹½ é»ĺ
ç° §
éĤª æģ¶
å·´æĭī åľŃ
æķĻç§ĳ æĸĩ
, å¼ķèµ·
. åĪĺ
B ar
G ame
l in
o )
ä¸Ģ ç»Ħ
è¡ ŀ
æī ³
åĴ ¬
åĴĮ æĹ¥æľ¬
éĥ¨ ä½į
åĲį ä¸¾äºº.
è¥¿ éĹ¨
éķ¿ æĹ¶éĹ´
åĬł å¯Ĩ
æŃ¤ åľ°
çľģ éķ¿
å¸ĥ è¾¾
,å¹¶ èİ·å¾Ĺ
æĢ» æķ°
éľ ī
çĭ Ļ
æłĩ çŃ¾
è£ħ æľī
åĵĪ å¯Ĩ
è¾ĥ å¤ļ
è¡Ĺ åºĦ
æĽ¼ Â·
æī¿ åıĹ
ä»Ģ -
åħħ å½ĵ
æī¾ åĪ°äºĨ
éģ¿ éļ¾
åıĤèµĽ èĢħ
å¹´(15 8
,åıª èĥ½
çļĦæķħäºĭ .
. å¦Ĥ
d i
å¤§ çķ¥
éĥ¨ ä½ľåĵģ
åĩº åĵģ
éĩĳ éĴ±
è¯Ń ç³»
1å¹´ (
åįķ è½¦
3å¹´ (
äºĶ ä»£
.åľ¨ è¿Ļ
åĪĽ åĪĬ
æĪĲç«ĭ ãĢĮ
è½» åŀĭ
æįķ èİ·
æłĸæģ¯ åľ°
å®īè£ħ åľ¨
ä¸ĭ. åħĦ
åĲĲ èķĥ
åı°é£İ èŃ¦æĬ¥
ç§°ä¹ĭ ä¸º
H z
v el
ãĢģ åħŃ
ãĢģ æĶ¿æ²»
åĲİ åĨį
ä½ľ å®¢
æ³ķ äºº
åĪ© å®ī
æ¼Ķ ç»İ
åĭ ¿
äºĶ åįĥ
ä¿¡ éķ¿
ä¾ĭ åŃĲ.
16 2
çª ¦
.ä»ĸ ä¹Ł
çħ ½
åŁĥ æĸ¯
,çĶ± æŃ¤
æŃĮæĽ² çļĦ
å®ĭ ä»£
çĽ¸ä¼¼ çļĦ
åĪĽåĬŀ äºº
Te am
ç¢° æĴŀ
ç»ıçºª åħ¬åı¸
" A
, å»ºç«ĭ
, æĿ¨
. 189
ä¸Ģ çĤ¹
æĹ¶ æīĢ
è¥¿ æ±ī
åĪ© æ¯Ķäºļ
çŃī ä»·
çŃī äººçļĦ
å®ī è¾¾
èĭ± èģĶéĤ¦
çĽ´ æµģ
æº ¢
çĭ¬ è£ģ
æĸĻ çĲĨ
.æŃ¤ æ¬¡
æĿ° åħĭÂ·
åŃ¦çĶŁ ä¼ļ
æĢĢ çī¹
ãĤ ¤
æ²»çĸĹ .
C T
åħ ĸ
åľ¨ 2015å¹´
åĲİ ä¸ĸ
åĩº å¢ĥ
åĮº çļĦä¸Ģä¸ª
æ´ ¼
åĪĨ å±Ģ
åĪ° è®¿
éĩį ä¼¤
æ°´ æ³¥
å±ŀ æĢ§
äº§ éĺ¶çº§
éĴ Ļ
èĮ ľ
å®ĺ èģĮ
åĲĦ æĸ¹
èİ·å¾Ĺ çļĦ
å¡ŀ æĸ¯
è¡¨ç¤º ãĢĮ
åŁĥ éĩĮ
å±Ĭ èµĽäºĭ
æ³° ç½Ĺ
æł¸ ç³ĸ
å°ĨåĨĽ ãĢģ
æĪĴ ä¸¥
åįĵ è¶Ĭ
åĽ½å®¶éĺŁ åıĤåĬł
åįĹæŀģæ´² çļĦ
ç©Ĩç½ķé»ĺ å¾·Â·
åĲīéļĨ åĿ¡
, æĶ¿åºľ
- D
S L
r es
æ¸ ¤
åı¯ ä¾Ľ
åıĤ æķ°.
ç»ĵ æĻ¶
ç®¡ éģĵ
æ°Ķ çĲĥ
,ä½įäºİ ä¸Ńåįİäººæ°ĳåħ±åĴĮåĽ½
åĢ¼ .
åį°åº¦ çļĦ
ä¼ĺ å¼Ĥ
ä¹ĺ è½¦
éŁ¦ ä¼¯
æķĻæİĪ ,
åºĶçĶ¨ ç¨ĭå¼ı
çĽ¸å¯¹ è®º
æĬĺ åıł
çĦ¦ çĤ¹
åįľ æĿľ
æĮīå¯Ł åı¸
çĶ Ħ
å¤§ ãĢģ
åĴĮ ,
çİ º
çĶŁ ç´ł
å¤ļ çĵ¦
æķ° å¹´
,ä½Ĩ æĺ¯åľ¨
æİ¥ çĿĢ
çİĭ åĲİ
æĹł éľĢ
æĦı æĦ¿
,åľ¨ éĤ£éĩĮ
åĪĴ åĪĨä¸º
15 7
æĪĲåĳĺ çļĦ
åıĳè¡Į ,
ç§Ģ åĲī
æĴ¤ åĩº
ç¨İ æĶ¶
ir st
åı¥ è¯Ŀ
ç° ¿
ç¦ıå°Ķ æĳ©
èĥ°å²Ľ ç´ł
. ä¹ĭåĲİ,
T wit
çļ Ĥ
æĺ¯ åħ¶
æł Ī
ä¸į å¤Ł
çĶŁ èĤ²
åĲĮ å¹´,
åı¯ è¡Į
é©¬ ä¸Ĭ
ç«Ļ åīį
åİŁ ä½ľ
æĶ¹ è®¾
ç»ĵ å°¾
è¯´ :
åİ» äºĨ
å¨ģ çī¹
åħµ ,
æĶ¿æ²» åįıåķĨä¼ļè®®
æ³ķåĽ½ çļĦ
æ´Ľ æŀĹ
al k
è¡Ĺ åĮº
æ°ı çļĦ
æĻļ ,
éĥ¨éĺŁ .
å·¨ äºº
ä¿¡æģ¯ .
åıĹæ¬¢è¿İ çļĦ
å¡ŀçº³ -
çİĽæł¼ ä¸½
.è¯¥çī©ç§įçļĦ æ¨¡å¼ıäº§
a x
l ic
ä¸º 3
ä¸Ń åıĳçİ°
è¾ ľ
å°Ķ ãĢģ
åĳĺ çļĦ
ç¥ ģ
ä¸ĩ èĭ±éķĳ
åı¯ä»¥ è¢«
çĶ» ä½ľ
éŁ³ä¹Ĳ .
å½Ĵ è¿ĺ
éº¦ éĩĳ
il la
çĪ¶äº² æĺ¯
æ²¿æµ· çľģä»½
ç§ĳç½Ĺ æĭīå¤ļ
åĵĪå¸ĥ æĸ¯åł¡
, formula_
- 4
. ä¸įä¹ħ
B u
åľ¨ 2013å¹´
ä¼ļ éĿ¢
å¸Ĥ äººæ°ĳæĶ¿åºľ
å¥³ äºº
æº ī
æĽ´ åĲį
è¿ĺ æ²¡æľī
è®¤ä¸º è¿Ļ
æ¥¼ ,
ä¸ĵè¾ĳ .
è¯ĳ ä½ľ
.199 2å¹´
çĽ®æłĩ æĺ¯
å·´å£« è·¯çº¿
.193 8å¹´
é«ĺçŃī åŃ¦æł¡
åĢ¾åĲĳ äºİ
çĲĨå·¥ åŃ¦éĻ¢
æ¤įçī©. åĪĨå¸ĥåľ¨
ä¹Įåħ¹ åĪ«åħĭ
çļĦ è¿ĩç¨ĭ
çļĦ ä½ľçĶ¨
çļĦ æľĢå¤§
åľ¨ åĽ½éĻħ
ä¼ļ åĲĪ
æ¸ £
ãĢį ,èĢĮ
ä¸ī åı·
,ä½Ĩ ä¸į
202 3
æĺŁ .
æĻ® åĪ©
æ¸¸ çİ©
ä¸ĩ .
æ´¾ .
èĩ´ æķ¬
is "
æ¸© æļĸ
çĽĳ æİ§
æŀ¶ .
è½» æĿ¾
ç¬¬åĽĽ æ¬¡
éĢĥ å¾Ģ
åŁºç¡Ģ .
åįļçī© éĻ¢
å¹¿æĴŃ çĶµè§Ĩ
èµ·æĿ¥ .
æĭ¼ éŁ³
- å¼ĹæľĹ
b le
g a
ãĢģ K
åľ¨ 2017å¹´
åıĳ æĸĩ
æľ¬ .
æĸ° æķĻ
ç§į ç§į
åºľ çŁ¥åºľ
æ¶ ©
åİĨ æĹ¶
éĽĨ æĪĲ
å¥¥ å¼Ĺ
æł¡ æĸ¹
æ¢ Ĺ
è¿ĳ æľŁ
æ¸ħ éĻ¤
é¦Ĩ ãĢģ
çĮ ¿
å¹² äºĭ
åŁİå¸Ĥ ,
éļ¾ åº¦
åŃĻ ,
ç½ª ,
äººåĳĺ .
åįģäºĮ å¹´(
åŃĶ åŃĲ
.å½ĵ æĹ¶,
åĩ¡ å°Ķ
è¯¾ç¨ĭ .
ç¥ŀåľ£ ç½Ĺé©¬å¸ĿåĽ½
èĶ¬ èıľ
a ur
çļĦ å»ºè®®
ä¸Ń éĢĶ
åľ° è¡¨
ä¹ĭ æĹħ
ä¸ľ æŃ£
äºĮ å±Ĥ
æĢ» åĨ³èµĽ
æ¸¯ å²Ľ
ç±» æ¡Īä»¶
åįķ çº¯
åı¤ å°Ķ
è§£ æŀĲ
,æĺ¯ ä¸Ńåįİäººæ°ĳåħ±åĴĮåĽ½
æīĵ åĩº
ç»Ń çº¦
ä»£è¡¨ éĺŁ
æīĺ åĭĴ
å£° .
çĬ¶ çļĦ
re am
åĨłåĨĽ èģĶèµĽ
.198 3å¹´
.198 8å¹´
çģ° èī²
è¹ Ħ
å¸¦æĿ¥ äºĨ
ç§ĳçļĦåħ¶ä¸Ńä¸Ģç§į ,ä¸º
è¿ŀç»ĵ .
è°¥ åı·
! !
ã Ħ
ãĢģ åı¶
åĴĮ ä¸ī
æ³ķ è¥¿æĸ¯
ãĢį )
è½¦ è·¯
çľģ çļĦä¸Ģä¸ª
åľº ãĢģ
æ¯Ķ 1
å¤Ħ ãĢģ
æĮĩ åįĹ
202 1
ç¤¾ éķ¿
ä¿® ç¼®
ä¸Ńå¤® æĶ¿åºľ
å© ¿
ä½© å°Ķ
æŁĲ ä¸Ģ
ä¸īä¸ª æľĪ
ab le
æ¹¿ åľ°
èĤ¯å¡ĶåŁº å·ŀ
p o
t s
æĺ¯ é¦Ļæ¸¯
å¤§ å°Ĩ
å½ĵ åĪĿ
ç¦ ½
å¼º å¥¸
è§Ħ å¾ĭ
ä¿Ħ æ¯Ķäºļ
å¾Ī åı¯èĥ½
å¾ģ æĶ¶
éŁ© æ°ĳåĽ½
éĥ¡ ãĢģ
æĪĲåĬŁ ,
å®¡ çĲĨ
ç«¥ å¹´
çĲĨè®º .
ç¨ĭåº¦ çļĦ
è´¢æĶ¿ éĥ¨
æĬ¢ åĬ«
åŁĥå¡ŀ ä¿Ħæ¯Ķäºļ
( 2001å¹´
. æľĢåĲİ
4 50
åĲİ ä¸įä¹ħ
èĩª æŃ¤
å¼Ģ æĭĵ
åįĹ æľĿ
äºļ ä¼¯
æīĢ èĳĹ
ä¸ļ èĢħ
å·´ æ¯Ķ
å¸¦ åĽŀ
è½¬ è¿Ĳ
è¿ŀ éĶģ
åıĪ æľī
åħĪ è¡Į
æĦŁ åħ´è¶£
åİĭ åĪ¶
è½» è½¨
è°Ī è¯Ŀ
æĿĤå¿Ĺ ãĢĬ
å¹´(16 3
col span="
E l
q ue
çļĦ ä¸įåĲĮ
çļĦ ç¬¬ä¸Ģä¸ª
æ³ Ĺ
ä¸į å½ĵ
å®¶ åĴĮ
ä½į ç´ł
çī¹ çĤ¹
ç¾İ çļĦ
), åħ¶
æį į
ä¸Ģä¸ª äºº
éĩĳ éĴŁ
æĽ´ å¥½çļĦ
è¿ĳ åį«
å¹³æĸ¹ èĭ±éĩĮ
çŁ³ ãĢģ
çıŃ .
æ¦ ķ
åłĤ ãĢģ
é»ĳ æ´ŀ
ç»Ħç»ĩ ,
è¶³çĲĥ åįıä¼ļ
193 0å¹´ä»£
æºª æµģ
è§Ĥå¯Ł åĪ°
å¾·åħĭ èĲ¨æĸ¯å·ŀ
äºļåĪ© æ¡ĳ
å¥¥åħĭè¥¿ å¡Ķå°¼å¤§åĮº
" C
âĢ »
ä¸ĭ è®®éĻ¢
å¤ļ å¹´çļĦ
ãĢį ä¸Ģè¯į
åħ¥ è¯»
é¡ ½
èĭ± ä¹Ŀ
éĺ¿ èĲ¨
å¤± è¯¯
åĨĻ çļĦ
æ³° å±±
èĪ¬ çļĦ
æļĤ æĹł
åŃĶ æ³°
è·¨ æĢ§åĪ«
èµ¤ éģĵ
äºİ199 5å¹´
ç¡¬ ä»¶
åĽ° å¢ĥ
æ¶ħ -
(,)æĺ¯ ä¸ĢåĲį
å¡ĳ éĢł
ä¿®æŃ£ æ¡Ī
æ£Ģå¯Ł å®ĺ
æ°¨ åŁº
çļĦæĿĳåºĦ ,éļ¶å±ŀ
éĹ¯ åħ¥
. åĪ°äºĨ
A s
ä¸º ä¸Ń
éĥ Ŀ
ä¼ļ åĴĮ
åŃ¦ åĴĮ
åĪĨ éĺŁ
ãĢĬ åħ³äºİ
ç¾ ģ
ä¸ĭ è¡Į
æĸĩ ä¸Ń
æĽ´ æľī
çĻ½ åŀ©
,è¿Ļ æ¬¡
å¸Į ä¼¯
çģ« çĦ°
åº· å¥Īå°Ķ
èĴĤ äºļ
æŀ¶ é£ŀæľº
æľ« å¹´
et er
æŀª åĩ»
é¦ĸæ¬¡ åľ¨
çĶŁäº§ æĢ»åĢ¼
åĽ° æī°
æłĩå¿Ĺ çĿĢ
å½» æĸ¯çī¹
æĬ½ è±¡
.èĩ³ äºİ
æĬ« éľ²
, åħ¼
, åĨħå®¹
. é©¬
åĴĮ åįĹ
ä»¥ åīį,
åĮº .è¯¥æĿĳ
Â· æĭī
è¢« æĮĩ
éĩĮ å£«
èµĽ ä¼ļ
é¦ĸ åĳ¨
éĩı äº§
æīĭ ä¸ĭ
on y
æĳ ¸
ç¦ı åħĭæĸ¯
æĶ» è¯»
ä»į æľª
è¿ª å°Ķ
é¢Ħ è¨Ģ
åĲİæĿ¥ è¢«
æķ°éĩı çļĦ
ç©ºéĹ´ .
å¿½ çķ¥
åį¯ ç§ĳ
, å¾ĹåĪ°
åľ¨ 2012å¹´
20 ä¸ª
æĹ¥ åľĨ
çĶŁ æ®ĸ
æĸ° éĺ¿åŁºåĿ¦å¤§åĮº
ç³» æķ°
åºĶ æĢ¥
ç¤¾ ãĢģ
èĻ Ķ
,ä»¥ æŃ¤
äº¦ ä¼ļ
åľ£ å½¼å¾Ĺ
åľŁ æľ¨
ä½ľä¸º ä¸Ģä¸ª
å¼Ĥ æĢ§
æĳĦ æĶ¿
ä¸ĢèĪ¬ çļĦ
åİ¿äºº, æĺİæľĿæĶ¿æ²»äººçī©.
ä¸ĳ éĹ»
2 ãĢĭ
3 åı·çº¿
åľ¨ 2018å¹´
ä¸Ń åı¶
åŃ¦ çłĶç©¶
å¼Ģ åĽ½
é«ĺ åİĭ
èĲ į
ç§ĳ .
ç§ĳ å¤ļå°Ķ
åı² éĥ½
åı¯ä»¥ ä½¿çĶ¨
åĨį çĶŁ
åİĨåı² å»ºçŃĳ
å¤± åĪ©
åĥı .
ç²¾ éĢī
.200 8å¹´,
åºĶçĶ¨ ç¨ĭåºı
åİŁæľ¬ çļĦ
ç»¼åĲĪ æĢ§
åŃ¤ ç«ĭ
åĨľæĿĳ å±ħæ°ĳ
å¼Ĺæĭī åŁº
, æĹ¥
, çİ©å®¶
P er
çļĦ åĴĮ
çļĦ æŃ£
çļĦ ä»·æł¼
ä»¥ ä¸Ĭ.
åŃ¦ ä¸ļ
æŀ ¯
æ¸ Ń
çĶ¨ åľ°
èĢĮ å·²
åıĬ åĲİ
å¼Ģ å¾Ģ
ä¸¤ èīĺ
åĮħ è£¹
ç¼ĸ è¯ĳ
æ¬§ åħĥ.
ä»£è¡¨ æĢ§
,ä»ĸ è¿ĺ
å¤± æľĽ
åłĤ ,
é±¼ ,åĪĨå¸ĥäºİ
13 3
çĳŀ åħĭ
it ed
.201 3å¹´,
èİ« éĩĮ
é©» åľ°
èįī åľ°
åıĳè¡¨ å£°æĺİ
ä»įçĦ¶ æĺ¯
äºİ18 4
ä½ľæĪĺ .
æĭīä¸ģ è¯Ń
è½¦ç«Ļ. è½¦ç«Ļ
æł¼é²ģ åĲīäºļ
è£Ķç¾İåĽ½ äºº
å¥¥æĸ¯æĽ¼ å¸ĿåĽ½
, åīįå¾Ģ
çļĦ ä¸ªäºº
çļĦ å®ļä¹ī
åį ¤
åľ¨ 2010å¹´
äºº æŃ»äº¡
çī¹ ç½Ĺ
å¹³ æĹ¥
æķĻ åıĭ
å°ı ,
åİ¿ (
çģ ¶
å¼ł å®¶
å®¢ åľº
æĤ ¨
çķĻ å®Ī
æĢ»ç»Ł éĢīä¸¾
æ£Ģ è®¨
ç¼º å¸Ń
,å¤§ å¤ļæķ°
éĢĢå½¹ .
å¾Ĺç¥¨ çİĩ
åĮĸåŃ¦å¼ı ä¸º
, å¼ķåıĳ
. è®¸å¤ļ
R .
åĨĽ ãĢģ
èģ ĭ
åįĹ è·¯
åĬł çļĦ
åīį èĢħ
201 3
è¯¥ å¹´
åİ¿ å¸Ĥ
,ä½Ĩ åĽłä¸º
éĶ Į
å¯¼ ä½ĵ
å°± å¼Ģå§ĭ
é¦Ĩ ,
ic s
,ä¸į åĨį
æ²¹ çĶ»
è§Ĵèī² æī®æ¼Ķ
St ar
.198 9å¹´
éĵľ éĶ£
(A l
æ°ĶåĢĻ åıĺåĮĸ
èĭĹ æłĹ
åħļç»Ħ ä¹¦è®°
. æ¯ı
çļĦ é£İéĻ©
åľ¨ ä¸ľ
ä»ĸ å·ŀ
å¤ļ éĥ¨
ä¸ī å±Ĥ
æ¸¸ ä¹Ĳ
å¸Ī çĶŁ
æ±Ł ãĢģ
æĶ¶ çĽĬ
åº§ æ¤ħ
æĪı éĻ¢
æİ¨ ä¸¾
æĬķ è¯ī
çĻ¾ å¼º
è´¹ åĪ©
æ²¿ éĢĶ
å·¡ è§Ĩ
æ¯ķä¸ļ ,
(åŃ¦åĲį: ),
ç¼ĵ è§£
çĲ¼ æĸ¯
ð« ļ
äº¤åıī åı£
Sch ool
( 19
. è½¦ç«Ļ
çļĦ åĮĹ
åľ¨ 2019å¹´
ç¬¬ 16
æ³ķ åħ¸
å°ı æıĲçĲ´
å¤© åĲ¯
ç§ĳ ç»´å¥ĩ
åħ³ å¿ĥ
è§Ĩ éĩİ
åįķ è¡Į
æĶ¯ éħį
in i
æĽ² çº¿
åĽ´ æ£ĭ
åħ´ å¥ĭ
å½Ĵ åħ¥
ro id
æ¦ľ é¦ĸ
åįĹåĮĹ æľĿ
Un ivers
.ä¾ĭå¦Ĥ ,
çļĦæ¯ĶèµĽ ä¸Ń
é¦ĸæĴŃ .
, åįł
ãĢģ 4
ç¾ ļ
æ°ĳ çĶŁ
ä¸ĭ è¯ı
çĲĥ è¡£
éĤ ¯
ä¸ŃåĽ½ æĶ¿åºľ
æ¼Ķ æĬĢ
åı² ãĢĭ
åıĸ æĻ¯
å¯Ĩ éĽĨ
æĦŁ .
14 .
è¿ª æĸ¯
è¡ĮåĬ¨ ,
åİļ åº¦
æº¶ äºİ
å¤§è§Ħæ¨¡ çļĦ
éŃģ åĮĹ
æĨ ¾
, åı¦æľī
D is
I M
d es
f e
w ork
åĩº æĿ¥.
åħĭ .
æĦ ī
ç±³ ãĢģ
éĥ½ è¦ģ
æİ¥ æīĭ
ç² Ł
èŃ¦ å¤ĩ
ä¾Ŀ æ¬¡
åĪº æĿĢ
.194 8å¹´
çıį å¦®
éĢĨ è½¬
çİĽä¸½ Â·
col or
include &gt;
style ="
ä»Ģ- åŃĶæ³°
n a
« çĹ
çļĦ äººåı£
åľ° ä¸»
åľ° çĭ±
ä¹ĭ åĨħ
å¯¹ æĪĺ
å¾· å·ŀ
åı° ãĢģ
æĪĺ æľº
è·¯ ä¸Ĭ
éĥ½ ç»Ł
éĶ ¤
èı ĩ
13 .
it ion
åİħ ãĢģ
ä¸Ńåįİäººæ°ĳåħ±åĴĮåĽ½ æĶ¿æ²»äººçī©ãĢģ
äºĨä¸Ģ æ®µ
èģļ åĲĪçī©
ç©Ĩ å°Ķ
ç¼º å°ĳ
åŃ¦ä¹ł .
äºİ199 6å¹´
åīĤ .
è®°èĢħ ä¼ļ
è¿Ĳè¡Į .
éĺħ åħµ
é©¬ä¸ģ Â·
,åıį èĢĮ
å¤ĸåĽ´ èµĽ
, æĹ¶
åħ Ģ
åľ¨ 2014å¹´
ä¸į åĬ¨
å¸Ĥ è®®ä¼ļ
æĸĩ ä¹¦
æĸĩ åĩŃ
æĻ ĥ
æīĢ ç¤º
ä¸ĸ ä¿Ĺ
,ä»¥ ä¸ĭ
åĬŀ åŃ¦
åŃĺ æ´»
ä¼¯ æĺİ
å¸Ĥéķĩ .
14 7
èĥĮ åıĽ
æĹ¶ä»£ ,
æĬµ å¾¡
èĳ¬ ç¤¼
ç²¾ç¥ŀ çĹħ
èģĶç³» .
çİĽä¸½ äºļÂ·
,æĹł è®º
å¹¿è¥¿å£® æĹıèĩªæ²»åĮº
çĭĻ åĩ»
) è¢«
åľ¨ ä¸Ĭ
ä¸º 4
ä¸Ģ è¾¹
åħ¶ çĪ¶
çĶŁ æ¯į
éģĵ åħ·
å®ī å®ļ
æ²» æīĢåľ¨
ç¾İåĽ½ éĻĨåĨĽ
æĦı ä¸ºãĢĮ
è§£ åīĸ
å®ĥ åľ¨
æ³¢ å¾·
åįĥ åı¶
æ±ī äºº
ç¥¨ .
æ¯ĶèµĽ ,
æĪ· .
æ¢ħ åĪ©
ç»ĵæĿŁ ,
éĥ¨éĺŁ çļĦ
,çĶ¨ ä»¥
( ãĢģ
( ä¸İ
. çİ°åľ¨
X -
çļĦ æĢ§
ä¸Ģ å®ļçļĦ
ä¸Ń çļĦä¸Ģä¸ª
âĢĿ æĺ¯
,å¹¶ å°Ĩåħ¶
é£ ĺ
çİĭ å®īçŁ³
æŀĹ ä¸ļ
å¤Ħ åľ¨
è¿ĺ å°Ĩ
å¸¦ .
ä¸ĸçķĮ å¤§èµĽ
æŀľ .
.èĢĮ ä¸Ķ
åĢŁ çĶ¨
åĨĮ å°ģ
é¢ĨåŁŁ .
æłĸæģ¯ äºİ
æĮĳ éĢī
ç¯® æĿ¿
ä»·åĢ¼ çļĦ
é©¬åħĭ è¥¿
ik e
çģĮ æºī
åįĴ äºİ
ç¤¾äº¤ åªĴä½ĵ
å°¼æĹ¥ åĪ©äºļ
, è®¾æľī
ä¸İ âĢľ
çĶ± èĭ±åĽ½
å¯¹ æµģ
å¤ļ å°ĳ
ä»£ ä»·
åĨħ æĸ¯
è¡¨ åĨ³
å¦ ¾
200 2å¹´,
åħ¨ ä¹¦
æ£ µ
ç±» ãĢģ
å°± å·²
åı°æ¹¾ .
è§ģ éĿ¢
çĪ¶ åŃĲ
é¢Ħ çķĻ
äº¤éĢļ éĥ¨
å¾® åĪĨ
28 0
å°ıæĹ¶ .
äºİ199 4å¹´
ä¸īåįģ åħŃ
çĴ §
åĤ¨ å¤ĩ
ä»ĭç»į .
è´« ç©·
èµ·æºĲ .
çİĩé¢Ĩ çļĦ
éĻª åĲĮ
å¾Ĺä¸» .
å¥ł åŁº
æ¤Ń åľĨ
çĪ±å¥½ èĢħ
( 2
Ã ³
çļĦ ç¾İ
çļĦ ä¸Ńå¿ĥ
ãĢģ æľī
åľ¨ 2009å¹´
å¹¶ åĪĹ
è¢« ä¿ĺ
åįĹ åĮº
æĸ° ä¼ļ
èĪ µ
ä¸ī æĿ¡
æĢ§ ä¸İ
å¤© åľ°
ä¸¤ åº¦
åŁİ å·´
ä»İ å°ı
æĽ¾ å¤ļæ¬¡
ä½įäºİ åı°æ¹¾
åį¡ æĻ®
æ°Ķ æ°Ľ
æŁ¥ å°Ķæĸ¯
åĽŃ .
ç¤¾ä¼ļ ç§ĳåŃ¦
å®« .
åºĨ åħ¸
1. 4
æľºåľº .
åħ¬åĽŃ .
å¥ī å¤©
åĪļ åĪļ
è®Ńç»ĥ .
è¥¿åĮĹ æİ¥
å¹´(15 9
ç»§æī¿ äºĨ
æĬ½ çŃ¾
åĳ½åĲįä¸º âĢľ
ç¡« éħ¸
( èĳ¡èĲĦçīĻ
åĴĮ åħ¶
åĴĮ é©¬
åħ¬ æīĢ
åħ¬ åĪĨ.
åĪĨ éļĶ
åĬł éĩĮ
åĲİ, è¯¥
åįİ è£Ķ
éĹ¨ å¤ĸ
202 4
æĹ¥æľ¬ äºº
è§£ ä½ĵ
çīĩ å°¾
å½ķ åıĸ
çĭ¬ å®¶
(, ç®Ģç§°
14 ä¸ª
ä¸½ çļĦ
åĺī åħ´
ot t
éĢīæīĭ .
èģĶåĲĪåĽ½ æķĻç§ĳæĸĩ
, è¿Ľè¡Į
, çĶ·,
v i
çļĦ çĽ¸åħ³
åľ¨ åħ¨çĲĥ
ä¸Ģ æī¹
æľº èº«
æ¯Ķ åĪ©äºļ
è¿Ĳ è½¬
èĤ² æľī
16 ä¸ª
å¡ŀ çī¹
å»ºçŃĳ ç¾¤
æīį æĺ¯
å¯Į è£ķ
åŃĻ æĿĥ
è´µ çļĦ
é©¬æĿ¥ äºļ
æŀ¢ å¯Ĩ
éªĳå£« åĽ¢
åĽļ ç¦ģ
back ground
äºļé©¬ éĢĬ
, å®£å¸ĥ
8 æľĪ1æĹ¥
B R
çļĦ å¦»åŃĲ
ä¸º é¦Ļæ¸¯
æĺ¯ éĢļè¿ĩ
çĲ µ
å®¶ éķ¿
éķ¿ è½´
åĮĹ åĮº
åīį åİ»
ç«ĭ å®ª
ç»Ł çŃ¹
æİ¥ ä»».
æ¸¯ åºľ
åĳ½ ä¸Ń
èĬĤ æĹ¥
å¥½ .
ç»§ ä½į
14 3
at or
13 ä¸ª
çľĭ ä½ľ
ou se
å°¾ å·´
.198 5å¹´
.ä¸įè¿ĩ ,
çªĹ åı£
èĪŀåı° åī§
è®²è¿° äºĨ
æĺĶ æĹ¥
, åı¦ä¸Ģ
5 .5
I t
çļĦ è¯Ńè¨Ģ
ãĢģ G
åŃ¦ åİĨ
åĩº åħ¥
ä¸į æķ¢
è· ¤
ä¸ī é¡¹
è° ħ
è®¾ æ³ķ
ä¸ŃåĽ½ åĽ½å®¶
çº¦ æĹ¦
åı¸ å¾Ĵ
çĽ® .
éĺ¿ æĸ¯
å¸¸ çĶ¨çļĦ
åķ ¶
en e
è¾ĥ æĹ©
å®¹ è®¸
çĻ» å±±
es )
æĺ¯ä¸Ģ å®¶
çĲĥéĺŁ çļĦ
100 ç±³
éģĩ ä¸Ĭ
æĬµ åĪ¶
å°Ķæĸ¯ åħĭ
åĪĨç±» æ³ķ
äºº( 2011å¹´
å®īå¾· å°Ķ
çĸı æķ£
çĮĽ çĥĪ
å¹³æĸ¹åįĥç±³,èĢĮæ°´åŁŁéĿ¢ç§¯ä¸º0. 00
, æ¯įäº²
, åĩłä¹İ
e p
ãĢģ èĶ¡
å¤§ éĥ½ä¼ļ
ä¸į åºĶ
ä¸» æľº
å¼Ģ æŀª
æĸĩ æ¡£
ä¸ľ åį°åº¦
å² ļ
ä¸ļ ä¸»
10 æľĪ1æĹ¥,
æİ¥ ç§į
éĴ ®
ä¼ł åĩº
å¸Ī çļĦ
æĹ¥æľ¬ å¸ĿåĽ½
.åľ¨ ãĢĬ
ä¸ĵ é¢ĺ
åħ¬éĩĮ ãĢģå®½
å¡Ķ Â·
çĶµå½± éĻ¢
éĿĴ åĽ¢
æ°ı æĹı
å®ģ åİ¿
ä¸´ è¿ĳ
äºĮåįģ åħ«
æľºåľº çļĦ
å®ĩ å¤ļ
,å¤§ èĩ´
èĭıèģĶ çļĦ
åĲ¬ ä¼Ĺ
,å®ĥ æĺ¯
åĪĨéĴŁ ,
æīĵåĩ» çİĩ
ä¸Ģæ®µ æĹ¶éĹ´
çĸ¼ çĹĽ
( å¤§
c .
l ine
åľ¨ 2011å¹´
ä¸º ä»Ģä¹Ī
ä¸Ģ çīĩ
ä¿ ¸
èĭ Ķ
çī¹ åĬ¡
åĬł è£ħ
å£ ¹
ä¸ī çŃī
æķĻ æĿĲ
å·¥ åĨľ
æ¬¡ å¹´,
ç±³ å°¼
éħ ļ
éķĩ çļĦ
éŁ³ .
æº ¥
å²Ľ åĴĮ
è§£ éĽĩ
å®Ĺ æĹ¨
åĿĩ åĮĢ
éĢļè¿ĩ äºĨ
ç§» èĩ³
è½» å¾®
éľį å¤«
åħ¬å°º ,
( çĶ±
1 19
6 æľĪ1æĹ¥
9 æľĪ1æĹ¥
F ran
M -
P a
W TA
k a
çļĦ åıĺåĮĸ
åľ¨ æ°´
åĴ ½
åĴĮ åĽ½å®¶
åĴĮ æĹłçĹĩçĬ¶æĦŁæŁĵèĢħ
å¥ ļ
æ°ĳ ä¿Ĺ
åĵ ī
200 0å¹´ä»£
å®ī å¨ľÂ·
åĬĽ åĴĮ
ä¸ŃåĽ½ ä¼łç»Ł
åºĶ ä»ĺ
an y
ç¬¬äºĮ å¤§
ä¾Ľ æ°´
30 å¹´,
åįĬ å¹´
èĩªå·± æĺ¯
åºķ éĥ¨
æ³¨ :
formula_ 5
åŃ¦çĶŁ çļĦ
æĿ¡ä»¶ .
ç¾İåĽ½äººåı£æĻ®æŁ¥ ,è¯¥
å¡ĳ æĸĻ
æĢª çī©
äºĭä¸ļ .
çľģ,ä¸ľåįĹ æİ¥
ä»Ģ-åŃĶæ³° å¤§åĮº
h am
ï ¹
ãĢģ éĥŃ
ä¸Ń åįĹéĥ¨
æ² Ĥ
åıĳ ,
çĽ¸ éģĩ
èµ· æĭħä»»
åı¸ éĵİ
éĩĳ çļĦ
åĽĽ ä½į
å·´ é¡¿
ä¸¾ éĩį
æłĩ è¯Ĩ
å°ĳ æŀĹ
åı¯ä»¥ è¿½æº¯åĪ°
çļĦä¸Ģ éĥ¨
çļĦä¸Ģ ä»½
åĪĿ æ¬¡
å¯Ĩ çļĦ
å¡Ķ æģ©
15 ä¸ª
åľŁ åı¸
çĶ° çº³è¥¿
ç¥ĸ æ¯į
åŃĻ åŃĲ
æķĳ æĬ¤
èŃ¦å¯Ł å±Ģ
ä¸ªæľĪ çļĦ
ç«ŀäºī å¯¹æīĭ
å¸ĪèĮĥ åŃ¦æł¡
åİ»ä¸ĸ, äº«å¹´
å¦¥ åįı
æįį åį«
) ä¸įæķĮ
, è¯ķåĽ¾
çļĦ åī¯
éĿ ¶
ç¬ ł
çĶ¨ ,
èĢĮ åıĹåĪ°
å¤ļ æĿ¡
âĢĿ ),
çŃī èģĮ
éģĵ :âĢľ
200 1å¹´,
,å¹¶ å¼Ģå§ĭ
éĺ¿ èĤ¯èī²
åıĹ éĤĢ
å°± èģĮ
,æĺ¯ ä¸Ģåº§
äººæ°ĳ åħļ
ic t
6æľĪ 30æĹ¥
åĿļ åĨ³
æİĮ æİ§
ç³ĸ å°¿
ä»·åĢ¼ è§Ĥ
å¤ļå¹´ æĿ¥
åĨħéĻĨ çľģä»½
åĭĥèī®ç¬¬ -å¼ĹæľĹ
M c
çļĦ çĶŁäº§
çļĦ æĦıæĢĿ
ä¸Ģ çº¿
éĥ¨ ä¸ĭ
æīĢ ä½¿çĶ¨çļĦ
äºĭ é¡¹
çŁ £
æł¼ çº³
ä¹¦ éĿ¢
æĮĩ åĲĳ
å¹¿ å¤§
ä¸ĩ åħĥ,
ä¾ĭ è¡Į
åº§ .
å½ķ ãĢĭ
æĽ¼ è°·
ä¾§ å¼ıæľĪåı°
ä¸¤ä¸ª æľĪ
æĢ»ç»Ł åºľ
é¡¶ çº§
è¿ĲåĬ¨åĳĺ .å¥¹æĽ¾ä»£è¡¨
åĮ»éĻ¢ .
ç¦»å¼Ģ äºĨ
.194 7å¹´
åİŁåĽł .
ä»² è£ģ
æİªæĸ½ .
å®īä¸ľ å°¼
åĭĥèī®ç¬¬-å¼ĹæľĹ ä»Ģ-åŃĶæ³°å¤§åĮº
D .
M ag
Ã ¶
Ñ Ģ
ãĢģ æĪĸ
åľ¨ 20ä¸ĸçºª
ä¸º åı°æ¹¾
ä¸Ń æŃ¢
æľī æĿĥ
æľī æľŁå¾ĴåĪĳ
éķ į
åĮĹ è·¯
æµ· åĽł
ç³» ãĢģ
åįİ å·ŀ
åĽĽ æľĪ,
åħĥ ä»¶
ç¦ı æĸ¯
è§ģ çļĦ
åıĳçİ° äºİ
,è¯¥ åºĦ
ro p
èµ° äºĨ
èĬĤçĽ® ä¸Ń
è½¨ è¿¹
æ¦Ĥ çİĩ
éĢĥ åĪ°
èģĮä¸ļ è¶³çĲĥ
åį· åħ¥
å¹¼ ç¨ļ
å¼ķèµ· çļĦ
åīĬ åĩı
æĿ¡ä¾ĭ ãĢĭ
ç«ŀæĬĢ åľº
è¯ģåĪ¸ äº¤æĺĵæīĢ
æľīçº¿ çĶµè§Ĩ
style=" background
( âĢľ
2 :
5 åı·
åľ¨ 2022å¹´
åľ¨ 2016å¹´
ä¸Ń åħ´
çĽ Ķ
ä¸İ åĲĮ
åħ¬ åŃĲ
åħ¬ å¢ĵ
å¾Ĺ å¥ĸ
è½¦ æ¬¡
åĲĪ è®¡
çģ ¿
å¥³ åıĭ
é¢Ĩ ä¸»
åł Ģ
åıª ä¼ļ
åħī ç¦Ħ
åº§ ,
è¶Ĭ è¿ĩ
å°Ħ ç¨ĭ
åº· å¤į
è½½ å®¢
èĴĤ Â·
æĸŃ è£Ĥ
èģĶèµĽ åĨłåĨĽ
æķĮ åĨĽ
é¡¾ å®¢
æııè¿° ä¸º
æĮģç»Ń åĪ°
ãĢģãĢģ ãĢģãĢģ
å¹´ä»£ ä¸º
å±ķç¤º äºĨ
è½¬ç§» èĩ³
é©¬æĭī æĿ¾
å¯¹åºĶ çļĦ
çİĩä¸º 0.
åıįæĺł äºĨ
åİ¿çŁ¥ åİ¿.
éĵĥ æľ¨
( ãĢĬ
. éļıçĿĢ
G O
è¡ ¬
èµ ģ
æĿ¥ äºĨ
å¤ļ åªĴä½ĵ
ãĢį åľ¨
åĲĪ èµĦ
200 9
éĢī é¡¹
åŁº éĥ¨
åŁº åĩĨ
æĻ® æľĹ
å¤ª ä¿Ŀ
ä¿¡ ,
ç»ĦæĪĲ éĥ¨åĪĨ
ç»ĵæŀĦ çļĦ
2. 4
çĤ® å¼¹
åĩºèº« äºİ
æħ¢ æħ¢
te xt
ä¼ĺç§Ģ çļĦ
åĲŀ å¹¶
æ»¡æ´² åĽ½
æİ¢éĻ© éĺŁ
èģĤ ä¼¯
åİķ æīĢ
è¯ĨåŃĹ çİĩ
äºĮæ°§åĮĸ ç¢³
" S
4 æľĪ1æĹ¥,
A g
B la
çĶŁ ä¸ĭ
åĪĨ åºĹ
çĶµ èį·
å°Ĩ è¿ĳ
ä»İ ä¸Ń
æĴ ķ
æ£ º
æį® çĤ¹
ç¼ĸ çºĤ
çİĩ åħµ
éĤ¦ èģĶ
æĿ¾ æ±Ł
.199 5å¹´
ä¸»ä»» ,
ç¾½ çĲĥ
æģ¶ åĮĸ
æ¥ļ åĽ½
æ¼«çĶ» å®¶
Sh ow
-éĺ¿å°Ķåįĳæĸ¯ å¤§åĮº
0 âĢĶ
S D
X box
çļĦ éĵģè·¯
åľ¨ æľ¬
åĴĮ æĸĩåĮĸ
çĲ ħ
çİ° å½¹
ä½¿ é¦Ĩ
åĮĸ çī©
åħ¨ æĸ°çļĦ
æĹı ãĢģ
åįĩ èĩ³
é¸ ł
å®Ī åĨĽ
äºĭä»¶ åıĳçĶŁ
ç«¯ .
è¿ģ å±ħ
è°ĥæŁ¥ ,
çļĦåľ° ä¸ĭ
åįģä¸Ģ å¹´
è·¯æĺĵ æĸ¯Â·
æĲľ å¯»
å¨ģèĥģ .
è¡° éĢĢ
åŃ¦å£« åŃ¦ä½į
éªļ ä¹±
æĳĶ è·¤
å§Ķå¸¸å§Ķ ãĢģ
) ä¹ĭ
) æĿ¥
0 -
2 ,000
s er
çļĦ é»ĳ
åĴĮ è°Ĳ
ä»¥ ä¸Ĭ,
å¼Ģ æĶ¯
æĭī åĽ¾
æľŁ å¾ħ
èİ· éĩĬ
æ±ī åı£
æĶ» ä¸ĭ
èĲ½ è´¥
éĻĪ åĪĹ
åĵ¥ çī¹
ç¥ĸ åĽ½
éĢģ ç»Ļ
åħ¬éĩĮ, æµ·æĭĶé«ĺåº¦
å¡« è¯į
å¥ĳ çº¦
æĶ¹å»º ä¸º
çĹķ è¿¹
éŃģåĮĹ åħĭ
, çļĨ
åĩº èī²çļĦ
å®¶ èĩ£
åĲĮ çŁ¥
âĢĿ ).
ç¥ Ĥ
é©¬ .
200 0å¹´,
åħ³ è¥¿
æĺİ ,
åı· åı¬
åĪĻ æĺ¯åľ¨
åħļ éŃģ
æł¡ éķ¿.
é¾Ļ ("
å¡Ķ æĸ¯
å¡Ķ åħĭ
ç¬¬äºĮ å±Ĭ
çİĩ éĥ¨
å¥½ ,
ä½İ åľ°
çĿĢ éĻĨ
å»¶ èĩ³
ä¼ĺ åĮĸ
è´µ å¦ĥ
åľĨ æŁ±
è¯ī æ±Ĥ
èĥ½å¤Ł åľ¨
æ±½ æ²¹
å¾Īå¿« å°±
èĬŃ èķ¾
( St
2 20
F i
t ain
çļĦ èµĦæĸĻ
ãĢģ å®ĭ
æ¯ ĵ
éĩĮ å°Ķ
åı¯ Â·
æĢ» éķ¿
æıĲ åıĸ
åįİ ä¸Ń
è½¬ åıĺä¸º
ä¸ŃçļĦ ãĢĮ
èĩªå·± åľ¨
åıĮ è¾¹
é£Ł .
æĿĢ äºĨ
ä¾§ éĿ¢
ç¬¬ä¸ī ä¸ª
éĢļå¸¸ åľ¨
æĭį åįĸ
æķĻæİĪ ãĢģ
èİī ä¸Ŀ
å¿ł è¯ļ
åĢĴ å¡Į
è®°è½½ .
åħ¬å°º .
å·¦åı³ .
å¹³æĸ¹åįĥç±³,å½ĵä¸ŃéĻĨåľ°éĿ¢ç§¯ä¸º 9
è©¹å§Ĩ æĸ¯
) ä½įäºİ
. æĺİ
æĬ ¨
ä¸» äºĭ
ãĢĭ ä¸İãĢĬ
è¥¿ è´¡
ç«ĭ ä¸º
æķĻ åĮº.
è·¯ éĿ¢
ä½¿ ãĢģ
,ä½Ĩ ä»ĸä»¬
å¡ ¾
æİ¥ åı£
åı¸ éķ¿
äº¤ ä¼ļ
äºĶ äºº
æĬ¥ åĲį
åįı åĲĮ
çĶµå½± ä¸Ń
èĩ´ ä»ķ
