#version: 0.2
n g
i 4
a n
s h
z h
ng 1
j i
u 4
ng 2
Ġ Ġ
i 2
a o
x i
ng 4
an 2
i 3
i 1
d e
u 3
an 4
e 4
e n
c h
u o
u 2
ng 3
an 1
e 2
a i4
u 1
ĠĠ Ġ
o ng1
a 1
ã Ģ
sh i4
e i4
ao 4
i an2
a 4
y u
a ng1
y o
an 3
n 1
h u
a ng4
n ian2
en 2
l i
a ng3
e ng2
uo 4
uo 2
w ei4
m i
ao 3
z ai4
ãĢ ģ
b i
q i
a ng2
e 1
h e2
y i
e ng1
zh ong1
e r
b u4
o u4
a 3
e 3
n 4
sh i2
d i4
g uo2
a i2
u i4
r en2
ao 1
x u
y i1
n 2
o ng2
y u2
g u
l i4
zh i4
d i
w e
en 4
ch eng2
o ng4
y i4
g ong1
ji 2
e ng4
en 1
yu e4
yo u3
yu an2
d a4
a 2
l e
j i4
2 0
y i3
j u
a i1
p i
xi an4
o u1
ji a1
s i1
xi ng2
e i3
t i
y u3
ji 1
t a1
r i4
zh i1
h ou4
l i3
o u3
a i3
we i2
hu i4
d ao4
1 9
o ng3
q i2
u an2
zh eng4
mi ng2
xi 1
ao 2
ji an4
xu e2
ch u1
g e4
z uo4
uo 1
sh eng1
d ui4
yo u2
uo 3
q u1
sh ang4
en 3
de 2
b ei4
sh i3
zh u
zh an4
n 3
xi n1
ju n1
er 3
sh e4
r en4
f a1
w u4
bi ng4
k e4
er 2
l u4
d ai4
zh u3
y i2
sh u4
j u4
ji n4
z i4
yi n1
f u4
f ang1
ji ng1
n an2
hu a4
zh ou1
pi ng2
xi a4
l ai2
yo ng4
gu an1
t ong2
y u4
ãĢ ĭ
ãĢ Ĭ
f a3
zh u4
m ei3
Â ·
ji an1
b o
h uo4
b en3
xi ang1
zh i2
d ong4
xi ang4
mi n2
zh e4
ji ang1
q i1
f en1
sh ou3
q uan2
w en2
y an2
s uo3
ji ao4
q ian2
di an4
t e4
d uo1
z ui4
k ai1
ji e2
l ian2
zh i3
x i4
k e3
e ng3
e i1
d an4
m u4
y e4
d u4
f u2
sh u
m a3
y e3
d ong1
qi u2
b ei3
ãĢ Į
ãĢ į
g ao1
y a4
o u2
d u
ji e1
u n2
mi an4
h ai3
zh ang3
sh i1
ji n1
c i3
n ei4
s ai4
s an1
t ai2
g e2
xi ng4
g uo4
20 1
de ng3
y ao4
ch e1
c i4
s u
m o
r u4
w u3
g ai1
k u
di ng4
ch ang2
bi ao3
l a1
t i3
g ong4
ji e4
sh ou4
d ao3
sh an1
ch ang3
s i4
l v
z e2
t i2
k e1
d ang1
n eng2
er 4
w ai4
e i2
ch u
d an1
q i3
z i
k ou3
xi ao3
z u3
b a1
ju e2
li n2
li u2
n i
sh eng3
yi ng1
l an2
b i3
l uo2
t ong1
20 0
zh ong4
zh e3
sh u3
ti an1
zh en4
zh ong3
li e4
q i4
ch eng1
sh u1
yu an4
b ao3
t ai4
f u3
f eng1
m i3
qi ng1
sh en1
w ang2
yu n4
gu an3
f ei1
ji u4
g u3
li ang3
c eng2
m ei2
1 0
f en4
h ao4
y an3
we i3
z ong3
xu an3
xi ao4
d a2
n a4
li ang4
bo 1
z u2
ji ng4
b ao4
n i2
w u2
t ong3
hu a2
ji ao1
yu e1
yi ng3
bi an4
xi ng1
s u4
shu i3
y ang2
m en
b ao1
g e1
bo 2
c an1
c ong2
di an3
r u2
b an4
b i4
bi an1
w ang3
q u3
ch an3
s e4
z i1
q u
0 0
ch uan2
n v
sh eng4
r an2
t u2
zh ang1
x u4
p u3
g ai3
g ang3
nv 3
li ng4
l uo4
yo u4
t ou2
h u4
ch a2
c e4
ch i2
1 8
lv 4
qi an1
l i2
d ou1
1 2
zh eng1
k uo4
sh a1
l u
d ang3
f an3
g ou4
l ei4
x i2
ji ng3
t uan2
we i1
xi e1
li ng3
l ong2
gu i1
xi an1
r ong2
hu ang2
xi ang3
b an1
ji u3
yi ng4
m en2
sh ang1
sh en2
20 2
b an3
k a3
c u
m u3
ji n3
f u1
j u3
mo 2
gu ang3
c i2
sh uo1
qi ng2
zh an3
h ai2
zhu ang1
mo 4
c ai2
ji 3
d u2
1 1
pi n3
ti ng2
ch ao2
yi ng2
w o
ti ao2
p o
ji an3
t ang2
hu i2
du an4
ch en2
g en1
m i4
w an4
p ai2
w an1
z ao4
h ang2
w an2
bi ao1
l un2
19 9
xi e2
ji ang3
h an4
j u2
f an4
f ang2
h uo2
g u4
h an2
k ong1
ti e3
m eng2
bi e2
w u1
ji e3
zhu an1
yi n3
x u1
zh en1
ji a4
bi ng1
mi ng4
li ng2
h ong2
qi n1
z i3
lu n4
t u
o r
xi n4
ch u4
s u1
xi u1
ch u3
z ong1
1 5
h u2
qu e4
xi ao1
zh ao4
qi ang2
q u4
cu n1
ch ong2
pi an4
ji u1
f ang4
su i2
sh ou1
g eng4
â Ģ
gu ang1
j u1
ji a3
chu ang4
d i2
zhu an3
1 6
g uo3
xu n4
m an4
p ai4
f ei4
p ei4
19 8
d a3
t uo1
xu an1
ch u2
b ai2
l a
o n
zh u1
d u1
t u3
di ao4
xi a2
li u4
1 7
s ui4
hu i1
ti ng1
qi e3
t a3
qi ao2
h a1
g an3
z eng1
xi an3
m ai4
hu an2
x u3
w a3
tu i1
w en4
ch ao1
t ian2
b ai3
c ai3
li ang2
y a2
s a4
a r
b ai4
c un2
ji ao3
sh ao3
y an4
zhu ang4
d i3
h uo3
le i2
1 4
ji ang4
chu an1
yi n4
z ao3
yo ng3
s i3
de ng1
3 0
zhu n3
l e4
xu n2
n uo4
hu an4
s ong4
g ao4
l u3
1 3
19 4
b ang1
lv 3
y ang4
h en3
q un2
zh eng3
gu an4
po 4
g ang1
wo 3
19 7
hu a1
le i1
h ao3
t ao2
ku ang4
p i1
du n4
n ong2
g ei3
s ai1
shu ang1
li an4
ku ai4
i n
d i1
p an4
xi e3
19 5
k ao3
g ai4
h e4
h ei1
w ang4
li ao4
r e4
g e
z uo3
k ong4
19 6
y ang1
ch ang4
yi n2
r eng2
s en1
b ei1
l u2
pi ao4
y a1
k u4
2 5
bi n1
âĢ Ķ
r ang4
ch ong1
l ou2
b u3
l ao3
zh u2
ju n4
y ang3
r ui4
y ao1
xi an2
xi e4
ni an4
f or
yo u1
t an2
k ang1
p i2
h eng2
yu n2
k an4
ni ng2
li ao2
sh ao4
b u2
qi ng3
ch i3
2 4
m u
d ou4
mi an3
y ong1
t an3
w an3
h u1
r u
f an1
a l
t u1
g an1
su an4
di ng1
yu an3
w en1
t ui4
zh e
s t
2 1
xi u4
b a3
m an3
19 3
2 3
mu la
k ang4
for mula
2 8
t h
m ao2
r uo4
pi an1
m ao4
l ang3
qi n2
b a2
n a2
z an4
xi 3
gu i3
g ui4
r e
pi n2
wo 4
xi ong2
sh an4
2 2
xi ong1
m e
su i1
2 6
sh en3
qi ng4
mi ao2
f ang3
5 0
20 20
2 7
l ang2
o u
qi u1
s ong1
r i
d ang4
g eng1
qi ang1
f a2
z ao1
f eng4
zh ang4
ï ¼
h ao2
du n1
z ou3
h ai4
qi e4
2 9
t an4
z u
p ao4
p a4
shu n4
p eng2
xu an2
201 0
n i3
00 0
di ng3
ni u3
z ai3
zh ao1
zhu i1
lv e4
chu n1
20 19
hu n1
k ong3
ch e4
du an1
sh en4
xi ang2
du an3
g an4
r o
t e
k an1
l ao2
c ao3
201 6
s i
g u1
p ei2
ku an3
z a2
201 8
su n1
y e2
y a3
r a
po 1
202 1
zh a4
ch i4
d uo2
201 4
f an2
201 1
201 5
c uo4
201 7
zh e2
y ao2
p ai1
t ou4
c ang2
201 2
4 0
k ai3
201 3
202 2
m i2
ru an3
su an1
ch a1
z ang4
mi ao4
l t
200 9
zh ao3
200 8
hu ai2
ã ĥ
c e
6 0
xu e4
ch ou2
s e
b ang3
a m
m eng4
10 0
t i4
p u2
n ao3
202 3
zhu an4
g t
le i3
19 0
3 1
c ai4
s an4
m ou2
ti on
hu n4
ku an1
200 7
t a
ni u2
m ou3
t ao3
di e2
200 1
t eng2
s ou1
k en3
qi an3
ch ang1
r an3
qu e1
f ou3
su n3
f o
b a4
200 0
8 0
k ao4
s uo1
200 6
ni ao3
p i3
ch un2
202 4
l an3
ã ģ
z ai1
c o
xu e3
hu i3
e l
m a
lu an4
ti ng3
200 5
zu n1
b ang4
l a4
hu an1
r ang3
sh ui4
mi n3
3 5
l ai4
c ang1
7 0
fo 2
p an2
n ai4
w en3
n e
c ao1
o f
s ang1
p ang2
9 0
bi ng3
ï¼ į
t er
zh a1
ã Ĥ
shu ai4
ni e4
h ou2
m ei4
sh ao1
n u3
d ong3
i l
f eng2
mi e4
yu n3
z ou4
m ai3
hu ai4
200 4
4 5
l o
y an1
th e
h e
4 8
zh uo2
a t
an d
t ao4
n ai3
ku n1
202 5
zh en3
c k
r u3
ku a4
ku i2
ãĢ ī
ãĢ Ī
g ou1
3 6
e t
cu i1
e s
3 8
c u4
sh an3
r ou4
di ao1
200 3
h u3
g uo1
3 7
c ui4
x u2
i s
m ang2
ju an3
t o
c an2
di an1
zh an1
c ao2
18 9
I N
200 2
k eng1
T C
m a2
3 4
le ng3
de Ġ
Ġ deĠ
shi4 Ġ
Ġ shi4Ġ
Ġ nian2
Ġnian2 Ġ
wei4 Ġ
zai4 Ġ
Ġ wei4Ġ
Ġ zai4Ġ
he2 Ġ
Ġ he2Ġ
zhong1 Ġ
bu4 Ġ
di4 Ġ
shi2 Ġ
guo2 Ġ
yu2 Ġ
ren2 Ġ
Ġ bu4Ġ
yi1 Ġ
Ġ zhong1Ġ
li4 Ġ
zhi4 Ġ
gong1 Ġ
Ġ shi2Ġ
yue4 Ġ
ji2 Ġ
cheng2 Ġ
yi4 Ġ
you3 Ġ
Ġ di4Ġ
Ġ yue4Ġ
Ġ yu2Ġ
Ġ ren2Ġ
Ġ zhi4Ġ
da4 Ġ
Ġ ji2Ġ
yuan2 Ġ
Ġ you3Ġ
ji4 Ġ
Ġ guo2Ġ
Ġ li4Ġ
Ġ gong1Ġ
Ġ yi4Ġ
Ġ yi3
Ġ cheng2Ġ
jia1 Ġ
si1 Ġ
yu3 Ġ
Ġ xian4
Ġ ri4
Ġ yi1Ġ
Ġ xing2
Ġ ta1
li3 Ġ
ji1 Ġ
Ġ dao4
hou4 Ġ
wei2 Ġ
Ġ zhi1
Ġ da4Ġ
Ġ yuan2Ġ
xi1 Ġ
Ġri4 Ġ
Ġ ge4
Ġyi3 Ġ
xue2 Ġ
hui4 Ġ
le Ġ
zuo4 Ġ
Ġ yu3Ġ
Ġdao4 Ġ
ming2 Ġ
Ġ ji4Ġ
bei4 Ġ
Ġxing2 Ġ
sheng1 Ġ
Ġ jian4
Ġ chu1
Ġ qi2
Ġ si1Ġ
Ġ de2
zheng4 Ġ
Ġxian4 Ġ
Ġ hou4Ġ
Ġ ji1Ġ
dui4 Ġ
shang4 Ġ
qu1 Ġ
shi3 Ġ
Ġ er3
Ġ jia1Ġ
you2 Ġ
Ġta1 Ġ
Ġ xi1Ġ
Ġ li3Ġ
Ġ er2
zhan4 Ġ
Ġ jun1
Ġ bing4
Ġzhi1 Ġ
Ġge4 Ġ
zhu3 Ġ
ren4 Ġ
fu4 Ġ
zi4 Ġ
wu4 Ġ
xin1 Ġ
dai4 Ġ
ju4 Ġ
ping2 Ġ
Ġchu1 Ġ
Ġ ke4
Ġ zhou1
xiang1 Ġ
Ġ hui4Ġ
shu4 Ġ
nan2 Ġ
Ġ she4
Ġ bei4Ġ
Ġ ming2Ġ
xia4 Ġ
guan1 Ġ
Ġer3 Ġ
Ġde2 Ġ
lu4 Ġ
yu4 Ġ
hua4 Ġ
Ġjian4 Ġ
jing1 Ġ
yan2 Ġ
fang1 Ġ
Ġ yin1
kai1 Ġ
jian1 Ġ
jiao4 Ġ
fa1 Ġ
yong4 Ġ
Ġ dan4
Ġer2 Ġ
zhu4 Ġ
lai2 Ġ
min2 Ġ
shou3 Ġ
zhe4 Ġ
xiang4 Ġ
wen2 Ġ
Ġjun1 Ġ
xi4 Ġ
qian2 Ġ
ben3 Ġ
te4 Ġ
Ġ wei2Ġ
zhi2 Ġ
fa3 Ġ
qi1 Ġ
jie2 Ġ
lian2 Ġ
Ġbing4 Ġ
dong4 Ġ
dian4 Ġ
Ġqi2 Ġ
Ġke4 Ġ
dong1 Ġ
mu4 Ġ
Ġ jin4
Ġ dui4Ġ
Ġ huo4
Ġ zhan4Ġ
fen1 Ġ
tai2 Ġ
zhang3 Ġ
du4 Ġ
jiang1 Ġ
Ġ qiu2
Ġ ping2Ġ
gao1 Ġ
ye4 Ġ
suo3 Ġ
bei3 Ġ
Ġzhou1 Ġ
shi1 Ġ
Ġ leĠ
duo1 Ġ
an1 Ġ
jie1 Ġ
ge2 Ġ
Ġ shang4Ġ
jin1 Ġ
Ġ zheng4Ġ
fu2 Ġ
Ġ zuo4Ġ
Ġ you2Ġ
Ġ fu4Ġ
kou3 Ġ
guo4 Ġ
zhi3 Ġ
hai3 Ġ
Ġ tong2
Ġ ren4Ġ
ma3 Ġ
ru4 Ġ
tong1 Ġ
zui4 Ġ
quan2 Ġ
Ġ sheng1Ġ
ci3 Ġ
Ġ xue2Ġ
xing4 Ġ
wai4 Ġ
nei4 Ġ
la1 Ġ
ti3 Ġ
jue2 Ġ
ke3 Ġ
qi3 Ġ
shan1 Ġ
tian1 Ġ
deng3 Ġ
chang3 Ġ
zhen4 Ġ
wu3 Ġ
chang2 Ġ
zi Ġ
yao4 Ġ
bi3 Ġ
a1 Ġ
Ġ ju4Ġ
bao3 Ġ
mi3 Ġ
ya4 Ġ
Ġyin1 Ġ
mian4 Ġ
ci4 Ġ
gai1 Ġ
shou4 Ġ
jie4 Ġ
ye3 Ġ
zhong4 Ġ
yi2 Ġ
Ġshe4 Ġ
feng1 Ġ
zhong3 Ġ
liu2 Ġ
che1 Ġ
yun4 Ġ
Ġ zhe4Ġ
lin2 Ġ
bao1 Ġ
sai4 Ġ
ding4 Ġ
yi2 Ġge4Ġ
shen1 Ġ
Ġ dai4Ġ
sheng3 Ġ
Ġdan4 Ġ
luo2 Ġ
an4 Ġ
qi4 Ġ
san1 Ġ
xiao3 Ġ
mei3 Ġguo2Ġ
neng2 Ġ
shu1 Ġ
ze2 Ġ
zhe3 Ġ
lie4 Ġ
xuan3 Ġ
si4 Ġ
qing1 Ġ
Ġqiu2 Ġ
yuan4 Ġ
jing4 Ġ
ba1 Ġ
wang2 Ġ
ke1 Ġ
tai4 Ġ
lan2 Ġ
bao4 Ġ
ying3 Ġ
Ġhuo4 Ġ
zong3 Ġ
bi4 Ġ
fu3 Ġ
dao3 Ġ
gu3 Ġ
ying1 Ġ
Ġ hao4
Ġ xin1Ġ
Ġ xia4Ġ
fen4 Ġ
ge1 Ġ
xiao4 Ġ
yue1 Ġ
Ġ zi4Ġ
jiao1 Ġ
ni2 Ġ
na4 Ġ
shui3 Ġ
zi1 Ġ
ao4 Ġ
er4 Ġ
Ġ mi3Ġ
pu3 Ġ
dan1 Ġ
biao3 Ġ
liang4 Ġ
guan3 Ġ
tou2 Ġ
1 Ġ
chuan2 Ġ
su4 Ġ
wu2 Ġ
ru2 Ġ
xing1 Ġ
bo1 Ġ
nv3 Ġ
yan3 Ġ
Ġ zhu4Ġ
bo2 Ġ
fei1 Ġ
ti2 Ġ
se4 Ġ
mei3 Ġ
da2 Ġ
cheng1 Ġ
Ġzhong1Ġ guo2Ġ
Ġ dang1
Ġjin4 Ġ
Ġ lu4Ġ
Ġwei4Ġ yu2Ġ
ceng2 Ġ
Ġ xiang1Ġ
chan3 Ġ
2 Ġ
bian4 Ġ
tu2 Ġ
Ġ nan2Ġ
gui1 Ġ
Ġ ran2
Ġ yu4Ġ
yang2 Ġ
zhang1 Ġ
dian3 Ġ
gai3 Ġ
cong2 Ġ
jiu4 Ġ
wang3 Ġ
sha1 Ġ
zu3 Ġ
hua2 Ġ
lv4 Ġ
sheng4 Ġ
bao1Ġ kuo4
jian3 Ġ
shu3 Ġ
Ġ ben3Ġ
gang3 Ġ
jing3 Ġ
qing2 Ġ
zu2 Ġ
ban4 Ġ
liang3 Ġ
tong3 Ġ
shang1 Ġ
gong4 Ġ
hu4 Ġ
li2 Ġ
tong2 Ġ
long2 Ġ
jin4 Ġ
bian1 Ġ
luo4 Ġ
xu4 Ġ
chi2 Ġ
mei2 Ġ
jin3 Ġ
ban1 Ġ
guang3 Ġ
ce4 Ġ
chu1 Ġ
zheng1 Ġ
shen2 Ġ
mi4 Ġ
Ġta1Ġ men
zhi1 Ġ
ling3 Ġ
wei1 Ġ
you4 Ġ
fan3 Ġ
ting2 Ġ
e2 Ġ
xi2 Ġ
huo2 Ġ
cha2 Ġ
ka3 Ġ
gou4 Ġ
cai2 Ġ
Ġ gai1Ġ
3 Ġ
men2 Ġ
xiang3 Ġ
shuo1 Ġ
ci2 Ġ
wei3 Ġ
qu3 Ġ
mu3 Ġ
jiang3 Ġ
lei4 Ġ
tuan2 Ġ
jian4 Ġ
chao2 Ġ
ying4 Ġ
Ġgong1Ġ li3Ġ
yin3 Ġ
yan2Ġ jiu1
xie1 Ġ
tang2 Ġ
qi2 Ġ
chen2 Ġ
pin3 Ġ
Ġ duo1Ġ
jia4 Ġ
Ġyi3 Ġji2Ġ
Ġ zhu3Ġ
jie3 Ġ
hang2 Ġ
shi3Ġ yong4Ġ
yi3 Ġ
lun2 Ġ
rong2 Ġ
fu1 Ġ
jiu3 Ġ
pai2 Ġ
Ġ you2
ling4 Ġ
Ġhao4 Ġ
tai2Ġ wan1
huang2 Ġ
dang3 Ġ
xu1 Ġ
duan4 Ġ
ĠdeĠ di4Ġ
xian1 Ġ
ai4 Ġ
ke3 Ġyi3Ġ
ke4 Ġ
ying2 Ġ
mo2 Ġ
5 Ġ
can1 Ġ
tiao2 Ġ
biao1 Ġ
zhan3 Ġ
xian4 Ġ
ban3 Ġ
ĠdeĠ yi1Ġ
kai1Ġ shi3Ġ
qian1 Ġ
Ġcheng2Ġ wei2Ġ
han4 Ġ
hong2 Ġ
yin1 Ġ
mei2 Ġyou3Ġ
wei3 Ġyuan2Ġ
ling2 Ġ
Ġtong2 Ġ
xiao1 Ġ
ju2 Ġ
meng2 Ġ
kong1 Ġ
hui2 Ġ
su1 Ġ
zhuang1 Ġ
fang2 Ġ
bao1Ġkuo4 Ġ
cun1 Ġ
9 Ġnian2Ġ
4 Ġ
ren2Ġ kou3Ġ
xing2 Ġ
Ġqi2 Ġzhong1Ġ
huo4 Ġ
Ġgong1Ġ si1Ġ
zi3 Ġ
dou1 Ġ
6 Ġnian2Ġ
ĠdeĠ shi4Ġ
ĠĠĠ zai4Ġ
zhao4 Ġ
qiang2 Ġ
du2 Ġ
8 Ġnian2Ġ
zheng4 Ġzhi4Ġ
bing1 Ġ
yi2 Ġge4
mo4 Ġ
s Ġ
cai3 Ġ
fa3 Ġguo2Ġ
5 Ġnian2Ġ
qin1 Ġ
ai1 Ġ
hai2 Ġ
chu4 Ġ
Ġda4Ġ xue2Ġ
hu2 Ġ
Ġshi4Ġ yi1Ġ
zhen1 Ġ
Ġta1 ĠdeĠ
Ġ wan4
lun4 Ġ
Ġ gao1Ġ
fan4 Ġ
guang1 Ġ
2 Ġnian2Ġ
man4 Ġ
an3 Ġ
wen4 Ġ
she4 Ġ
7 Ġnian2Ġ
4 Ġnian2Ġ
ju1 Ġ
biao3 Ġshi4Ġ
Ġ xiang4Ġ
zhong1 ĠdeĠ
que4 Ġ
zhuan1 Ġ
wan2 Ġ
diao4 Ġ
3 Ġnian2Ġ
bai2 Ġ
da3 Ġ
6 Ġ
Ġ jiao4Ġ
ju3 Ġ
dian4 Ġshi4Ġ
han2 Ġ
fei4 Ġ
Ġshi4Ġ wei4Ġ
xun4 Ġ
pian4 Ġ
ming4 Ġ
shi4 ĠdeĠ
Ġ dong1Ġ
Ġ mu4Ġ
tuo1 Ġ
Ġ du4Ġ
Ġ jin1Ġ
gu4 Ġ
1 Ġnian2Ġ
Ġ te4Ġ
guo3 Ġ
Ġ fen1Ġ
Ġbu4Ġ fen4Ġ
xiu1 Ġ
0 Ġnian2Ġ
ta1 Ġ
Ġren2Ġ kou3Ġ
xie2 Ġ
zao4 Ġ
Ġhe2Ġ guo2Ġ
zhong1Ġ guo2Ġ
10 Ġyue4Ġ
Ġ jiang1Ġ
shou1 Ġ
xin4 Ġ
dang1 Ġ
Ġ jie2Ġ
12 Ġyue4Ġ
7 Ġyue4Ġ
Ġ ye3Ġ
Ġ zui4
9 Ġyue4Ġ
zhuan3 Ġ
wu1 Ġ
dao4 Ġ
mian4 Ġji1Ġ
Ġren2Ġ min2Ġ
8 Ġyue4Ġ
xun2 Ġ
Ġdi4Ġ qu1Ġ
3 Ġyue4Ġ
jia3 Ġ
xia2 Ġ
1 Ġyue4Ġ
gan3 Ġ
di2 Ġ
huan2 Ġ
s ĠĠĠ
zhu1 Ġ
5 Ġyue4Ġ
di3 Ġ
ting1 Ġ
ying1 Ġguo2Ġ
Ġ ci3Ġ
Ġ guo4Ġ
Ġ jing1Ġ
zhou1 Ġ
zheng4 Ġshi4Ġ
huo3 Ġ
chong2 Ġ
Ġ shi1Ġ
6 Ġyue4Ġ
zhuang4 Ġ
Ġ ye3
cheng2 Ġshi4Ġ
4 Ġyue4Ġ
Ġ shou3Ġ
Ġ suo3Ġ
Ġguo2Ġ jia1Ġ
geng4 Ġ
tian2 Ġ
ĠĠĠ di4Ġ
fang4 Ġ
yong3 Ġ
jun1 Ġ
ao3 Ġ
shu3 Ġyu2Ġ
Ġping2Ġ fang1
po4 Ġ
Ġdi4Ġ yi1Ġ
qu4 Ġ
qun2 Ġ
11 Ġyue4Ġ
tao2 Ġ
jiang4 Ġ
ĠĠĠ S
Ġshi4Ġ ji4Ġ
Ġping2Ġfang1 Ġgong1Ġli3Ġ
gen1 Ġ
Ġ ru2Ġ
Ġtong2 Ġshi2Ġ
dan1 Ġren4Ġ
Ġ C
Ġ qian2Ġ
bie2 Ġ
ji3 Ġ
hui1 Ġ
tie3 Ġ
pai4 Ġ
liang2 Ġ
du1 Ġ
shao3 Ġ
ta3 Ġ
nong2 Ġ
zong1 Ġ
dian4Ġ ying3Ġ
en1 Ġ
chu3 Ġ
er3 Ġ
si3 Ġ
shuang1 Ġ
qiao2 Ġ
Ġ S
Ġ zhe4
ĠdeĠ shi2Ġ
tai2Ġwan1 Ġ
Ġ t
Ġ ma3Ġ
gen1 Ġju4Ġ
li4Ġ shi3Ġ
7 Ġ
gao4 Ġ
chu2 Ġ
bai4 Ġ
Ġshi4Ġ zhen4Ġ
Ġ deng3Ġ
can1 Ġjia1Ġ
yun4Ġ dong4
Ġ tian1Ġ
che1 Ġzhan4Ġ
guo2 ĠdeĠ
qi1Ġ jian1Ġ
Ġyin1 Ġwei4Ġ
gang1 Ġ
Ġri4Ġ ben3Ġ
zheng4Ġ fu3Ġ
Ġping2Ġ fang1Ġ
li4 ĠdeĠ
pan4 Ġ
gai4 Ġ
Ġnian2 ĠdeĠ
bing4 Ġ
yan4 Ġ
jiao3 Ġ
wa3 Ġ
zhun3 Ġ
ya2 Ġ
hei1 Ġ
wo3 Ġ
gong4 Ġhe2Ġguo2Ġ
Ġxian4 ĠdeĠ
yin2 Ġ
ha1 Ġ
song4 Ġ
fa1 Ġxian4Ġ
huan4 Ġ
chuang4 Ġ
formula Ġ
lei2 Ġ
ou1 Ġ
qu1 ĠdeĠ
Ġ 19
hen3 Ġ
ti2 Ġgong1Ġ
yan2Ġjiu1 Ġ
Ġ hai3Ġ
jin4 Ġxing2Ġ
hua1 Ġ
Ġ bei3Ġ
2 Ġyue4Ġ
jing1 Ġji4Ġ
tong1Ġ guo4Ġ
chuan1 Ġ
qie3 Ġ
Ġ A
sui2 Ġ
Ġ fu2Ġ
Ġzhong1Ġ yang1
Ġguo2Ġ ji4Ġ
Ġ 199
kao3 Ġ
shang4 ĠdeĠ
lei1 Ġ
Ġyou2 Ġyu2Ġ
ĠĠĠ C
wei3Ġyuan2Ġ hui4Ġ
bai3 Ġ
Ġ you4Ġ
deng1 Ġ
cheng1 Ġwei2Ġ
Ġshi4Ġ jie4Ġ
8 Ġ
Ġyin1Ġ ci3Ġ
9 Ġ
nuo4 Ġ
ming2 Ġwei4Ġ
Ġta1Ġmen Ġ
Ġjin4 Ġxing2Ġ
tu3 Ġ
chong1 Ġ
Ġshi4Ġ zai4Ġ
zhu3 Ġyi4Ġ
qiu2 Ġ
kuai4 Ġ
Ġran2 Ġ
hao4 Ġ
Ġzhi1 Ġhou4Ġ
mai4 Ġ
lian4 Ġ
Ġ 18
shi2 ĠdeĠ
xi4Ġ tong3Ġ
xiang1Ġ gang3Ġ
sa4 Ġ
pei4 Ġ
lu2 Ġ
liao4 Ġ
quan2 Ġguo2Ġ
lu3 Ġ
piao4 Ġ
a Ġ
chi3 Ġ
Ġ suo3
de2 Ġ
kuang4 Ġ
zeng1 Ġ
Ġxing2 ĠdeĠ
ren2 ĠdeĠ
xuan1 Ġ
Ġ zui4Ġ
ri4 Ġ
i1 Ġ
xu3 Ġ
guan3 Ġli3Ġ
Ġ M
Ġgong1Ġ zuo4Ġ
Ġzhi1 Ġyi1Ġ
Ġ shi3Ġ
e1 Ġ
Ġdang1 Ġ
ĠĠĠ M
Ġ mei3
di1 Ġ
e4 Ġ
heng2 Ġ
bu3 Ġ
da4 ĠdeĠ
sui4 Ġ
yang4 Ġ
tui1 Ġ
Ġzhong1Ġ xin1Ġ
pi1 Ġ
xuan1 Ġbu4Ġ
zao3 Ġ
men Ġ
sen1 Ġ
a4 Ġ
wang4 Ġ
zu3 Ġzhi1Ġ
pi2 Ġ
bu4 ĠdeĠ
chang4 Ġ
Ġ bao1Ġkuo4Ġ
yang3 Ġ
ying3Ġ xiang3Ġ
Ġta1 Ġzai4Ġ
he4 Ġ
qian1 Ġmi3Ġ
er2 Ġ
sai1 Ġ
ĠĠĠ sheng1Ġ
Ġhuo4 Ġde2Ġ
liu4 Ġ
2020 Ġnian2Ġ
luo2 Ġsi1Ġ
cheng2 ĠdeĠ
Ġshi4Ġ jie4
Ġ ying1Ġ
Ġ wen2Ġ
Ġ gai1
dun4 Ġ
ke3Ġ neng2
bang1 Ġ
ang1 Ġ
xian2 Ġ
Ġ h
nian4 Ġ
qi2 Ġta1Ġ
e Ġ
Ġ qing1Ġ
Ġcheng2Ġ li4Ġ
le Ġyi1Ġ
huo2Ġ dong4Ġ
Ġ 198
Ġren4Ġ wei2Ġ
you1 Ġ
fa1Ġ zhan3Ġ
ya1 Ġ
ĠĠĠ A
ao1 Ġ
ke1 Ġxue2Ġ
ku4 Ġ
Ġ lian2Ġ
hao3 Ġ
huo4 Ġde2Ġ
le4 Ġ
Ġ a1Ġ
t Ġ
jun4 Ġ
Ġzuo4Ġ wei2Ġ
Ġping2Ġfang1Ġ qian1Ġmi3Ġ
lao3 Ġ
lou2 Ġ
re4 Ġ
hua2 Ġren2Ġmin2Ġ
ri4 Ġben3Ġ
bei1 Ġ
Ġ wu2Ġ
hui4 Ġyi4Ġ
Ġ T
tan2 Ġ
jian1 ĠdeĠ
Ġ shu4Ġ
tie3 Ġlu4Ġ
bi3Ġ sai4Ġ
ĠdeĠ ren2Ġ
liao2 Ġ
yong4 Ġyu2Ġ
mian3 Ġ
Ġ 5
Ġshi2Ġ jian1Ġ
ning2 Ġ
ge4 Ġ
2010 Ġnian2Ġ
rui4 Ġ
ĠdeĠ gong1Ġ
Ġ zhi2
Ġ zh
Ġ zhang1Ġ
mian4Ġ ji1
Ġ B
min2 Ġguo2Ġ
xian3 Ġ
wu1 Ġke4Ġ
yin4 Ġ
zhu3Ġ yao4Ġ
zuo3 Ġ
gan1 Ġ
gong4 Ġyou3Ġ
ĠĠĠ li4Ġshi3Ġ
ran2 Ġ
ĠĠĠ P
dou4 Ġ
wen4Ġ ti2Ġ
ĠĠĠsheng1Ġ ping2Ġ
hua2Ġren2Ġmin2Ġ gong4Ġhe2Ġguo2Ġ
yuan3 Ġ
fang1 Ġshi4Ġ
fa1Ġ sheng1Ġ
zheng3 Ġ
u1 Ġ
kang1 Ġ
guan4 Ġjun1Ġ
ke3Ġ neng2Ġ
cun2 Ġ
Ġnian2Ġ 1Ġyue4Ġ
Ġdi4Ġ er4Ġ
di4 ĠdeĠ
Ġ P
dao3 Ġzhi4Ġ
guan1Ġ xi4Ġ
Ġ cong2Ġ
ge Ġ
can1 Ġyu4Ġ
y Ġ
dai4Ġ biao3Ġ
Ġ lai2Ġ
fen1 Ġbu4Ġ
Ġgong1Ġ cheng2Ġ
wan2 Ġcheng2Ġ
dan1 Ġwei4Ġ
xie4 Ġ
Ġ 15
yi1 Ġwei4Ġ
Ġ quan2Ġ
wen2Ġ hua4Ġ
Ġ luo2Ġ
suo3 Ġyou3Ġ
Ġnian2Ġ 12Ġyue4Ġ
1 Ġri4Ġ
Ġbu4Ġ fen4
Ġ shan1Ġ
zhi4 ĠdeĠ
lv3 Ġ
gei3 Ġ
Ġ yan2Ġ
Ġcheng2Ġ yuan2Ġ
Ġ jin3Ġ
ĠdeĠ cheng2Ġ
Ġ 194
ĠĠĠ B
Ġ liu2Ġ
00 Ġ
A Ġ
Ġwan4 Ġ
yuan2 ĠdeĠ
Ġ ze2Ġ
yong1 Ġyou3Ġ
cun2 Ġzai4Ġ
er4 Ġshi2Ġ
Ġ zong3Ġ
Ġ xiao3Ġ
bei3 Ġbu4Ġ
Ġ zhi2Ġ
ang2 Ġ
lian2 Ġhe2Ġ
Ġ 4
Ġ wu3Ġ
hou4 ĠdeĠ
niu3 Ġ
Ġ D
you2 Ġyu2Ġ
Ġshi4Ġ zhong1Ġ
guo2Ġ jia1Ġ
dui4 Ġyu2Ġ
fa1 Ġxing2Ġ
yi4 ĠdeĠ
ju4 Ġyou3Ġ
Ġjian4Ġ zhu4Ġ
Ġ zhi3Ġ
Ġbing4 Ġzai4Ġ
Ġdao4Ġ leĠ
xin1 ĠdeĠ
shen3 Ġ
ĠĠĠ T
si1 ĠdeĠ
zi4Ġ ji3
zheng4Ġ fu3
bin1 Ġ
yun4Ġ dong4Ġ
Ġ tong1Ġ
Ġ ba1Ġ
xing2 Ġzheng4Ġ
yin4 Ġdu4Ġ
e2Ġ luo2Ġsi1Ġ
tu1 Ġ
Ġ mian4Ġji1Ġ
xu3 Ġduo1Ġ
shao4 Ġ
yun2 Ġ
Ġdan4 Ġshi4Ġ
Ġ mei3Ġguo2Ġ
ren4 Ġhe2Ġ
Ġ ling4Ġ
sheng1 Ġyu2Ġ
gui4 Ġ
Ġ zhi3
bao3Ġ hu4Ġ
Ġ 16
liang3 Ġge4Ġ
xiu4 Ġ
ding1 Ġ
che4 Ġ
Ġnian2Ġ 3Ġyue4Ġ
Ġren2Ġkou3Ġ mi4Ġ
zhu3Ġ yao4
d Ġ
man3 Ġ
zhang4 Ġ
xuan2 Ġ
ĠdeĠ yi2Ġge4Ġ
nan2 Ġbu4Ġ
ju3 Ġxing2Ġ
zhuan1 Ġji2Ġ
mian4Ġji1 Ġwei4Ġ
wan3 Ġ
Ġzheng4Ġ fu3Ġ
Ġnian2Ġ 7Ġyue4Ġ
n4 Ġ
Ġ shi3
lai2 ĠdeĠ
Ġdang1 Ġshi2Ġ
jue2Ġ ding4Ġ
Ġ n
Ġ 0
fu2Ġ wu4Ġ
fan1 Ġ
e ĠĠĠ
ruo4 Ġ
du2 Ġli4Ġ
Ġnian2Ġ 10Ġyue4Ġ
Ġchu1 ĠdeĠ
rang4 Ġ
Ġ 6
kai1Ġ shi3
xie3 Ġ
qing3 Ġ
Ġ p
Ġli4Ġ shi3Ġ
Ġ mei3Ġ
Ġ 195
Ġ 3
Ġshe4 Ġji4Ġ
d ĠĠĠ
hai4 Ġ
ming2 ĠdeĠ
u2 Ġ
Ġshi4Ġwei4Ġ yu2Ġ
jiu4 Ġshi4Ġ
Ġyou3Ġ yi1Ġ
geng1 Ġ
qin2 Ġ
Ġnian2Ġ 5Ġyue4Ġ
xi3 Ġ
gt Ġ
Ġ gtĠ
Ġnian2Ġ 9Ġyue4Ġ
Ġnian2Ġ 6Ġyue4Ġ
tan4 Ġ
fang1Ġ mian4Ġ
Ġqi2 Ġta1Ġ
Ġ ci3
pei2 Ġ
suan4 Ġ
Ġ 197
Ġxing2Ġ zheng4Ġ
jiao4Ġ yu4Ġ
shou4 Ġdao4Ġ
10 Ġ
Ġnian2Ġ 8Ġyue4Ġ
lt Ġ
Ġ jian3Ġ
ren4Ġ wei2Ġ
Ġ san1Ġ
fang3 Ġ
shan4 Ġ
Ġnian2Ġ 4Ġyue4Ġ
y ĠĠĠ
Ġshi4Ġ di4Ġ
Ġzhong1Ġyang1 Ġ
she4 Ġhui4Ġ
Ġ ltĠ
yi4 Ġwei4Ġ
gu4 Ġshi4Ġ
Ġ an1Ġ
m Ġ
Ġ ceng2Ġ
Ġxian4 Ġzai4Ġ
pian1 Ġ
kan1 Ġ
xiang1Ġ gang3
qu1 Ġwei4Ġ
Ġ bi3Ġ
Ġ guan1Ġ
Ġzui4 Ġzhong1Ġ
tui4 Ġ
Ġ jiang1
Ġ dian4Ġ
Ġ wang2Ġ
fa1Ġ zhan3
Ġshi4Ġ shi4Ġ
lie4Ġ che1Ġ
Ġli4Ġ ru2Ġ
Ġ E
duan3 Ġ
nei4 ĠdeĠ
shu3 ĠdeĠ
wan4 Ġ
xiao3 Ġshi2Ġ
zu2 Ġqiu2Ġ
qiang1 Ġ
dan4 Ġ
shu4Ġ ju4Ġ
xu1Ġ yao4Ġ
zhi2Ġ wu4Ġ
hu1 Ġ
zhe Ġ
Ġshi4Ġ jian4Ġ
hua4 ĠdeĠ
shi3Ġ yong4
kong4 Ġ
Ġbu4Ġ tong2
kan4 Ġ
zuo4 ĠdeĠ
Ġ 1
ang3 Ġ
zeng1 Ġjia1Ġ
zuo4Ġ wei2Ġ
Ġnian2Ġ 11Ġyue4Ġ
Ġji4Ġ hua4Ġ
min2Ġ zhu3Ġ
Ġ sui1
Ġshi2Ġ qi1Ġ
pao4 Ġ
zhui1 Ġ
zuo4Ġ pin3Ġ
Ġ 7
tan3 Ġ
kong4 Ġzhi4Ġ
T Ġ
ren2 Ġshi4Ġ
wan1 Ġ
xiong2 Ġ
Ġjian4 ĠdeĠ
yin1 Ġyue4Ġ
Ġ H
Ġran2 Ġer2Ġ
lang2 Ġ
mao4 Ġ
Ġyi3Ġ jing1Ġ
xue2Ġ yuan4Ġ
t ĠĠĠ
Ġ I
Ġzai4Ġ di4Ġ
Ġ 17
ren2Ġ min2Ġ
Ġren2Ġ yuan2Ġ
Ġhe2Ġ zuo4Ġ
ta1 ĠdeĠ
zai3 Ġ
Ġjian4 Ġyu2Ġ
Ġ shu3Ġyu2Ġ
zu3 Ġcheng2Ġ
chao1 Ġguo4Ġ
feng4 Ġ
Ġyin1 Ġyue4Ġ
lang3 Ġ
xi4Ġ tong3
xiang2 Ġ
Ġ L
zong3Ġ tong3Ġ
r Ġ
Ġzhe4Ġ xie1Ġ
Ġ you4
hui4 ĠdeĠ
S Ġ
ji4 ĠdeĠ
Ġwei4Ġ leĠ
a ĠĠĠ
Ġhou4Ġ lai2Ġ
qiu1 Ġ
pin2 Ġ
Ġ 196
lao2 Ġ
yu2 Ġshi4Ġ
Ġ R
Ġli4Ġ ya4Ġ
song1 Ġ
Ġcheng2Ġ gong1Ġ
fa1 Ġbu4Ġ
yao1 Ġqiu2Ġ
da4Ġ li4Ġ
Ġ ceng2
ti2 Ġchu1Ġ
Ġ 000
Ġyi4Ġ yuan2Ġ
Ġshe4 Ġyou3Ġ
Ġ jie1Ġ
Ġ jiu4Ġ
Ġ feng1Ġ
yun4Ġdong4 Ġyuan2Ġ
a1 Ġer3Ġ
dang1 Ġshi2Ġ
han2 Ġguo2Ġ
bu4 Ġzai4Ġ
Ġ bi4Ġ
pu2 Ġ
you3 ĠdeĠ
ni2Ġ ya4
Ġ 8
xi4Ġ lie4Ġ
zao4 Ġcheng2Ġ
Ġyin1Ġ ci3
ou1 Ġzhou1Ġ
cai3Ġ yong4Ġ
xiao3 Ġxing2Ġ
Ġgong1Ġ yuan2Ġ
jia1 ĠdeĠ
xing4 ĠdeĠ
ba3 Ġ
sheng1 ĠdeĠ
ĠdeĠ yi2Ġge4
Ġri4 Ġzai4Ġ
ren2Ġ wu4Ġ
Ġ gu3Ġ
Ġnian2Ġ 2Ġyue4Ġ
Ġci3Ġ wai4Ġ
gong4Ġ chan3Ġ
Ġ b
Ġ zhang3Ġ
Ġzh Ġ
Ġ N
D Ġ
Ġ ãĥ
ĠĠĠ deĠ
Ġshi4Ġ he2Ġ
Ġ G
mao2 Ġ
ma3 Ġwei4Ġ
Ġ wo3Ġ
yao2 Ġ
dun1 Ġ
ĠdeĠ bu4Ġ
xue2Ġ jia1Ġ
ĠĠĠ 199
san1 Ġnian2Ġ
you2Ġ xi4Ġ
fan4 Ġwei2Ġ
Ġ cong2
Ġ sui2
chun1 Ġ
kai1Ġ fa1Ġ
chao1 Ġ
Ġbu4Ġ tong2Ġ
she4 Ġji4Ġ
Ġ gen1Ġju4Ġ
Ġ ge2Ġ
qu3 Ġde2Ġ
jie2Ġ mu4Ġ
ĠdeĠ ji1Ġ
Ġ ling4
eng1 Ġ
sai4 Ġshi4Ġ
Ġxing2 Ġcheng2Ġ
ding3 Ġ
ĠĠĠdi4Ġ li3Ġ
ni3 Ġ
C Ġ
zi4 Ġzhi4Ġ
chan3 Ġsheng1Ġ
dang4 Ġ
ye3 Ġshi4Ġ
zan4 Ġ
ou4 Ġ
jue2Ġ se4Ġ
ĠdeĠ ji4Ġ
shu1 Ġji4Ġ
Ġ F
ĠĠĠ shi4Ġ
Ġbing4 Ġyu2Ġ
dou1 Ġshi4Ġ
Ġ 193
chong2 Ġxin1Ġ
yi1 Ġnian2Ġ
Ġshe4 Ġhui4Ġ
dian4Ġ ying3
li3 ĠdeĠ
bu2 Ġshi4Ġ
lve4 Ġ
zhong4Ġ yao4
Ġsi1Ġ te4Ġ
Ġ si4Ġ
Ġ shou4Ġ
guan1 Ġyu2Ġ
Ġ 9
qu1Ġ yu4Ġ
ĠĠĠ L
ge1Ġ qu3Ġ
Ġzhong1Ġ hua2Ġ
jiao1Ġ tong1Ġ
wen1 Ġ
Ġ nv3Ġ
Ġyou2Ġ xi4Ġ
da4Ġ xue2Ġ
Ġ ke3Ġ
ji2 ĠdeĠ
kong3 Ġ
cao3 Ġ
mi2 Ġ
chu2 ĠleĠ
Ġchu1 Ġxian4Ġ
ĠĠĠ R
Ġzhi4Ġ zuo4Ġ
miao2 Ġ
wo4 Ġ
Ġda4Ġ xue2
ping2 Ġjun1Ġ
xiong1 Ġ
Ġde2 Ġguo2Ġ
xian3 Ġshi4Ġ
tao3 Ġ
qing4 Ġ
er4 Ġnian2Ġ
Ġzhong1Ġ hua2Ġren2Ġmin2Ġgong4Ġhe2Ġguo2Ġ
Ġ la1Ġ
hun1 Ġ
kuo4 Ġ
hou4 Ġzai4Ġ
Ġ chen2Ġ
xia4 ĠdeĠ
yan3 Ġyuan2Ġ
Ġke4 Ġsi1Ġ
dang1 Ġdi4Ġ
de2 Ġguo2Ġ
ang4 Ġ
xuan3Ġ ju3Ġ
Ġ liang3Ġ
guan3Ġ xia2Ġ
Ġ ma3
Ġxiang1Ġ gang3Ġ
wei2 Ġyi1Ġ
duan1 Ġ
guo2Ġ ji4Ġ
dui4 ĠdeĠ
zou3 Ġ
bo2Ġ wu4Ġ
Ġ ti3Ġ
cuo4 Ġ
2001 Ġnian2Ġ
Ġjian4 Ġli4Ġ
Ġdi4Ġ guo2Ġ
Ġ liang3
Ġ 1Ġ
Ġ 14
Ġdai4Ġ biao3Ġ
fan3 Ġdui4Ġ
xue4 Ġ
er Ġ
0 Ġ
qi1 ĠdeĠ
wu4 ĠdeĠ
sun1 Ġ
yin1 Ġwei4Ġ
qu4 Ġshi4Ġ
yi1 Ġbu4Ġfen4Ġ
zhu3Ġ xi2Ġ
que1 Ġ
dong4Ġ wu4Ġ
ba2 Ġgao1Ġ
Ġye3 Ġshi4Ġ
Ġ fa3Ġ
peng2 Ġ
shi2 Ġnian2Ġ
ĠĠĠ D
yi1 Ġbu4Ġ
du4 Ġwei4Ġ
Ġ yi2Ġ
Ġ fu2
Ġ J
Ġ jie2
zheng4Ġzhi4Ġ ren2Ġwu4Ġ
chi4 Ġ
ni2Ġ ya4Ġ
ĠĠĠ G
Ġ na4Ġ
hai2 Ġyou3Ġ
zui4 Ġzhong1Ġ
ĠĠĠ ren2Ġkou3Ġ
bi3Ġ sai4
Ġ shen1Ġ
Ġ qi1Ġ
lai2Ġ zi4Ġ
Ġ bao3Ġ
zhi2Ġ ye4Ġ
qian2Ġ wang3Ġ
Ġ ãĤ
dai4Ġ biao3
Ġta1 Ġshi4Ġ
Ġ 2
20 Ġ
Ġdang1 Ġdi4Ġ
Ġbu4Ġ dui4Ġ
Ġxing2 Ġshi4Ġ
Ġ ãģ
ding4 ĠdeĠ
Ġ sha1Ġ
Ġ chang2Ġ
ba1 Ġshi4Ġ
diao4Ġ cha2Ġ
ĠdeĠ yuan2Ġ
zhong4Ġ yao4Ġ
xue2Ġ xiao4Ġ
n Ġ
Ġ ke1Ġ
zhu3Ġ jiao4Ġ
Ġzhi1Ġ jian1Ġ
fa2 Ġ
bian1Ġ ma3Ġwei4Ġ
dai4 ĠdeĠ
zhao1 Ġ
Ġxue2Ġ ming2Ġ
ai2 Ġ
Ġri4 Ġzhi4Ġ
gai3 Ġwei2Ġ
zu3 Ġzhi1
kuan3 Ġ
Ġ huang2Ġ
zi1Ġ liao4Ġ
a2 Ġ
fen1 Ġwei2Ġ
Ġzheng4Ġ fu3
hai3 Ġjun1Ġ
Ġjun1 Ġshi4Ġ
gong1 Ġshi4Ġ
pa4 Ġ
qie4 Ġ
Ġren2Ġkou3Ġmi4Ġ du4Ġ
chu3 Ġli3Ġ
kang4 Ġ
Ġ yue1Ġ
fu4Ġ ze2Ġ
shu4 ĠdeĠ
fang1Ġ fa3Ġ
Ġ pu3Ġ
wu1Ġke4Ġ lan2Ġ
k Ġ
Ġ dan1Ġ
ĠdeĠ da4Ġ
jie1Ġ rang3
ĠĠĠ 19
Ġri4Ġ ben3
ĠĠĠ H
Ġ tai4Ġ
ĠdeĠ yi4Ġ
Ġ jian1Ġ
wu2Ġ fa3Ġ
Ġyou3Ġ xian4
ĠĠĠ yu3Ġ
Ġge4 Ġren2Ġ
lian2Ġ meng2Ġ
12 Ġ
Ġ lin2Ġ
zui4Ġ gao1Ġ
Ġji4Ġ shu4Ġ
Ġ wei1Ġ
ju1Ġ min2Ġ
guan4 Ġ
zhu3Ġ ren4Ġ
fan3Ġ ying4Ġ
qi2 Ġzhong1Ġ
fei1Ġ chang2Ġ
Ġshi4Ġ you2Ġ
lu4 ĠdeĠ
fan2 Ġ
zi4Ġ you2Ġ
Ġ Ð
san1 Ġshi2Ġ
ying3Ġ xiang3
Ġzhi1Ġ chi2Ġ
ken3 Ġ
xue2Ġ sheng1Ġ
ye2 Ġ
ĠĠĠ F
wen3 Ġ
Ġ s
xie2 Ġhui4Ġ
Ġ c
ke3 Ġyi3
biao1Ġ zhun3Ġ
hui4 Ġzai4Ġ
jie2Ġ gou4Ġ
shen4 Ġzhi4Ġ
u3 Ġ
yao1 Ġ
fen1Ġbu4Ġ yu2Ġ
bi3 Ġli4Ġ
Ġ 2Ġ
tong3 Ġzhi4Ġ
chuang4 Ġzuo4Ġ
Ġ ka3Ġ
Ġ Ã
ĠĠĠ ben3Ġ
jie1Ġ shou4Ġ
ti3Ġ yu4Ġ
Ġ quan2
dong1 Ġbu4Ġ
Ġfu4Ġ ze2Ġ
ĠdeĠyi2Ġge4 Ġshi4Ġzhen4Ġ
Ġdi4Ġ san1Ġ
Ġgong1Ġ si1
gai1 Ġguo2Ġ
Ġ sui2Ġ
30 Ġ
xiang4Ġ mu4Ġ
nan2Ġ ziĠ
si4 Ġnian2Ġ
ya3 Ġ
nv3Ġ zi3Ġ
ran3 Ġ
shu4Ġ liang4
Ġdi4Ġ shi2Ġ
mou3 Ġ
ĠĠĠ xing2Ġzheng4Ġ
Ġbu4Ġ guo4Ġ
ong4 Ġ
qing2Ġ kuang4Ġ
Ġ ao4Ġ
zhong1 Ġshi4Ġ
nei4Ġ rong2Ġ
Ġdao4 ĠdeĠ
Ġ hong2Ġ
neng2 Ġli4Ġ
ĠĠĠ I
gong1 Ġbu4Ġ
p Ġ
suo1 Ġ
sheng1Ġ huo2Ġ
Ġshi4Ġ yi2Ġge4Ġ
niu2 Ġ
xi1 Ġbu4Ġ
qing2Ġ kuang4
Ġjin4Ġ ru4Ġ
an1Ġ quan2Ġ
dong4Ġ hua4Ġ
huan1 Ġ
Ġ K
2008 Ġnian2Ġ
lian2Ġ sai4Ġ
gu1 Ġ
lu4 Ġxian4Ġ
cha1 Ġ
cheng2Ġ li4Ġ
Ġ gai3Ġ
Ġzhong1Ġ xue2Ġ
ĠĠĠ formulaĠ
mian4 ĠdeĠ
P Ġ
yi4 Ġshi4Ġ
Ġer3 Ġsi1Ġ
duo2 Ġ
bei3Ġ jing1Ġ
i Ġ
mei2Ġ ti3Ġ
2009 Ġnian2Ġ
you3 Ġshi2Ġ
ou3 Ġ
suan1 Ġ
Ġyi4Ġ hui4Ġ
Ġ bo1Ġ
guang3Ġ dong1Ġ
zai1 Ġ
ong1 Ġ
Ġ sui4
âĢ ĵ
ĠĠĠ jia1Ġ
jian4 Ġzhu4Ġ
gui3 Ġ
o w
ya4 Ġzhou1Ġ
Ġ xin1
ong3 Ġ
kai3 Ġ
dao3 ĠdeĠ
Ġguo2Ġ min2Ġ
wen2Ġ wu4Ġ
Ġ sheng4Ġ
na2 Ġda4Ġ
ĠĠĠ 198
tai4 Ġping2Ġ
zi4Ġji3 ĠdeĠ
jiao4Ġ shou4Ġ
Ġsuo3 Ġyi3Ġ
di4 Ġwei4Ġ
Ġxue2Ġ xiao4Ġ
ba2Ġgao1Ġ du4Ġ
da2 Ġdao4Ġ
li3 Ġshi4Ġ
zhu2 Ġjian4Ġ
cang2 Ġ
Ġzhe4 Ġshi4Ġ
quan2 Ġli4Ġ
niao3 Ġ
ban3 Ġben3Ġ
hao2 Ġ
qing1 Ġnian2Ġ
xu3Ġ duo1
zhe3 ĠdeĠ
Ġ ao4
Ġbing4Ġ qie3
Ġxi1Ġ ya4Ġ
Ġbing4Ġ qie3Ġ
wen2Ġ xue2Ġ
zhe2 Ġ
zha4 Ġ
zhuan4 Ġ
wu1Ġke4Ġ lan2
la1 Ġsi1Ġ
zhi3 Ġyou3Ġ
2016 Ġnian2Ġ
ĠĠĠ gen1Ġju4Ġ
Ġ ba1
yi1 Ġshi4Ġ
Ġcheng2Ġ wei2
ri4Ġ ben3
mo2 Ġshi4Ġ
meng4 Ġ
Ġ 10
Ġ kai1Ġ
hang2Ġ kong1Ġ
Ġta1Ġmen ĠdeĠ
Ġyi4Ġ shu4Ġ
Ġji4Ġ lu4Ġ
Ġ ze2
f en3
Ġ zong3
Ġzhou1 ĠdeĠ
âĢ ¦
Ġzhu3Ġ yao4Ġ
o l
tong1Ġ guo4
zhi3 Ġchu1Ġ
die2 Ġ
jin3Ġ biao1Ġ
wu3 Ġnian2Ġ
Ġ W
Ġ da4
2012 Ġnian2Ġ
Ġqi2 Ġshi4Ġ
Ġqi2 Ġyu2Ġ
Ġ yu2Ġshi4Ġ
deng3 Ġren2Ġ
po1 Ġ
miao4 Ġ
zhi2 Ġxing2Ġ
Ġ ke3Ġyi3Ġ
shuai4 Ġ
2011 Ġnian2Ġ
hun4 Ġ
28 Ġri4Ġ
zhi2Ġ jie1Ġ
tong2 Ġshi2Ġ
jin4Ġ ru4Ġ
ren2Ġkou3Ġ pu3Ġ
zhan4Ġ zheng1Ġ
zhe4Ġ xie1Ġ
ge2Ġ lan2Ġ
hui3 Ġ
Ġqiu2 Ġdui4Ġ
yan3 Ġchu1Ġ
gai1 Ġdi4Ġ
zhe4 Ġyi1Ġ
Ġ nan2
min2Ġ zu2Ġ
huo2Ġ dong4
ren4Ġ wei2
xu n1
Ġzhi1Ġ jian1ĠdeĠ
zhu2 Ġ
Ġgong1Ġ kai1Ġ
11 Ġ
gong4 Ġtong2Ġ
Ġli4Ġ ya4
jiang1 Ġjun1Ġ
zang4 Ġ
Ġ 13
Ġ hai2Ġ
. .
xia4 Ġji4Ġ
le4 Ġbu4Ġ
Ġ su1Ġ
Ġdan4 Ġzai4Ġ
Ġdang1 Ġzhong1Ġ
Ġ er4Ġ
jing4Ġ nei4Ġ
ti3 ĠdeĠ
che1Ġ zhan4
jiao4Ġ yu4
ĠĠĠ W
yun3 Ġ
tui1 Ġchu1Ġ
me Ġ
shui4 Ġ
ti4 Ġ
Ġshi4Ġ wu4Ġ
Ġ yang2Ġ
huan2Ġ jing4Ġ
dan1Ġ qu1Ġ
li2Ġ kai1Ġ
shou3Ġ ci4Ġ
Ġ ai4Ġ
Ġling4Ġ wai4Ġ
ĠĠĠ E
Ġzhe4Ġ geĠ
Ġzhu3Ġ yao4
chuan2Ġ tong3Ġ
san4 Ġ
lin2Ġ pi3
shang1Ġ ye4Ġ
ĠĠĠ nian2
yin2Ġ hang2Ġ
15 Ġri4Ġ
qi3Ġ ye4Ġ
fen1 Ġzhong1Ġ
guan1 ĠdeĠ
xuan3Ġ ze2Ġ
jun1 Ġshi4Ġ
ĠĠĠ 194
liang4 ĠdeĠ
jie1 Ġdao4Ġ
ji1 ĠdeĠ
qian2 ĠdeĠ
ren2 Ġzai4Ġ
chou2 Ġ
Ġ fa1Ġ
sai4 Ġji4Ġ
gao1 ĠdeĠ
bo2 Ġshi4Ġ
du4 ĠdeĠ
Ġwei4Ġ ren2Ġ
yuan2 Ġnian2Ġ
Ġ shui3Ġ
Ġdi4Ġ er4
wan2Ġ quan2Ġ
Ġ tai2Ġ
2014 Ġnian2Ġ
Ġ jin1
Ġwei4Ġ zhi4Ġ
ming4 Ġming2Ġ
tuan2Ġ ti3Ġ
I Ġ
deng3 Ġdi4Ġ
Ġgong1Ġ lu4Ġ
xiang1Ġ guan1Ġ
re4 Ġdai4Ġ
bang3 Ġ
sun3 Ġ
bei3Ġ jing1
zun1 Ġ
wen2Ġ hua4
cheng2 Ġzhong1Ġ
bao4Ġ gao4Ġ
Ġshi2Ġ ji4Ġ
yun4Ġdong4 Ġhui4Ġ
Ġda4Ġ li4Ġ
Ġer2 Ġzai4Ġ
2005 Ġnian2Ġ
san1 Ġge4Ġ
luan4 Ġ
2018 Ġnian2Ġ
zui4 Ġjia1Ġ
bo1 Ġchu1Ġ
Ġ 5Ġ
quan2 Ġbu4Ġ
teng2 Ġ
ĠdeĠ he2Ġ
Ġmu4Ġ qian2Ġ
zong1 Ġjiao4Ġ
ĠĠĠ ju4Ġ
xue2 Ġwei4Ġ
zui4 Ġhou4Ġ
ling3Ġ dao3Ġ
shun4 Ġ
Ġji1Ġ gou4Ġ
tu3 Ġdi4Ġ
Ġnian2Ġ dai4Ġ
Ġde2 Ġdao4Ġ
fen1Ġ bie2
on Ġ
TC Ġ
Ġ ge1Ġ
25 Ġri4Ġ
Ġshi4Ġyi1Ġ zhong3Ġ
Ġtong2 Ġnian2Ġ
Ġdi4Ġ fang1Ġ
gui3 Ġdao4Ġ
2015 Ġnian2Ġ
Ġwei4Ġ di4Ġ
2013 Ġnian2Ġ
jing1 Ġli4Ġ
xi4 ĠdeĠ
Ġzhi1Ġ qian2Ġ
sheng3 ĠdeĠyi2Ġge4Ġshi4Ġzhen4Ġ
nie4 Ġ
2007 Ġnian2Ġ
2019 Ġnian2Ġ
Ġyi1Ġ xie1Ġ
o Ġ
Ġshi4Ġwei4Ġyu2Ġ mei3Ġguo2Ġ
R Ġ
Ġzhong1Ġhua2Ġ min2Ġguo2Ġ
si3Ġ wang2Ġ
Ġge4 Ġyue4Ġ
Ġjun1 ĠdeĠ
30 Ġri4Ġ
wei4 ĠdeĠ
xue3 Ġ
ao4Ġ lin2Ġpi3
Ġhai3Ġ ba2Ġgao1Ġdu4Ġ
Ġyou3Ġ guan1Ġ
huai2 Ġ
ch ai1Ġ
Ġ yin3Ġ
20 Ġri4Ġ
jie2Ġ shu4Ġ
Ġxing2Ġ dong4Ġ
sou1 Ġ
Ġzai4Ġ yi1Ġ
ji1 Ġyu2Ġ
ĠĠĠ wei4Ġ
yong4 ĠdeĠ
gan4 Ġ
ĠĠĠ N
bian4Ġ hua4Ġ
shang4 Ġwei4Ġ
Ġji4Ġ xu4Ġ
zi4Ġ ji3Ġ
chun2 Ġ
Ġji2Ġ tuan2Ġ
Ġ bao1Ġkuo4
ji2 Ġzhong1Ġ
zhi1 Ġyi1Ġ
Ġshi2Ġ dai4Ġ
chu3 Ġyu2Ġ
U TCĠ
zhi1Ġ chi2Ġ
2006 Ġnian2Ġ
ĠĠĠ the
gong4 Ġhe2Ġ
2017 Ġnian2Ġ
Ġ fei1Ġ
guo4 Ġcheng2Ġ
Ġhou4Ġ lai2
Ġbu4Ġ zhang3Ġ
ge2Ġ ming4Ġ
Ġ 12
Ġ han4Ġ
10 Ġri4Ġ
kong1Ġ jian1Ġ
Ġ mei2Ġ
Ġyu2Ġ 199
bu2 Ġhui4Ġ
an Ġ
nao3 Ġ
sh uo4
xin1Ġ wen2Ġ
z u1Ġ
mei4 Ġ
tou4 Ġguo4Ġ
nei4 Ġbu4Ġ
ye4 Ġyu2Ġ
chang1 Ġ
cai4 Ġ
Ġzi4Ġ ji3
wu4Ġ zhong3Ġ
jie3Ġ fang4
Ġyi4Ġ zhi2Ġ
gen1Ġ ju4
Ġji2Ġ tuan2
Ġzhou1 Ġshi4Ġ
pi1 Ġping2Ġ
Ġ ming2
shui3Ġ yu4Ġ
Ġ nei4Ġ
Ġzhi2 Ġdao4Ġ
a1Ġ la1Ġ
Ġ hu2Ġ
di4Ġ qu1Ġ
l Ġ
E Ġ
2000 Ġnian2Ġ
Ġjia1Ġ ru4Ġ
gui1Ġ ding4Ġ
Ġhe2Ġ nan2Ġ
eng3 Ġ
Ġshi4Ġ shi2Ġ
Ġyou3Ġxian4 Ġgong1Ġsi1Ġ
wan2 Ġjia1Ġ
ĠĠĠ zhe4Ġ
ng Ġ
ta1Ġ men
shen4 Ġ
cheng2Ġ wei2Ġ
reng2 Ġ
xi1Ġ ban1Ġ
zi1Ġ ge2Ġ
26 Ġri4Ġ
Ġ O
da4Ġ lu4Ġ
ĠĠĠ gai1Ġ
ao4Ġlin2Ġpi3 Ġke4Ġ
V Ġ
Ġda4Ġ hui4Ġ
24 Ġri4Ġ
21 Ġ
shang4Ġ hai3Ġ
duo1 ĠdeĠ
Ġ 3Ġ
zai4 ĠdeĠ
za2 Ġzhi4Ġ
xi4Ġ lie4
Ġ bai2Ġ
ying1 Ġyu3Ġ
hou2 Ġ
Ġzhe4Ġ zhong3Ġ
pu2Ġ tao2Ġ
lu4 Ġdi4Ġ
he2 ĠdeĠ
hao2 Ġmi3Ġ
Ġyu3Ġ yan2Ġ
luo2Ġ ma3Ġ
qi2 Ġta1
fang1 ĠdeĠ
ĠĠĠ yi1Ġ
hou4 Ġyi1Ġ
Ġ gu4Ġ
ĠĠĠ 18
mie4 Ġ
yan1 Ġ
de ng4
Ġcheng2Ġ qu1Ġ
se4 ĠdeĠ
B Ġ
ao2 Ġ
ze2 Ġshi4Ġ
fa3Ġ lv4Ġ
yi1 ĠdeĠ
Ġshi4Ġ fa3Ġguo2Ġ
ba4 Ġ
m ian2
Ġ wu2
18 Ġri4Ġ
chuan2Ġ tong3
Ġwei4Ġyu2Ġ gai1Ġguo2Ġ
Ġli3Ġ si1Ġ
cui1 Ġ
zhan4 ĠdeĠ
wu4 Ġli3Ġ
Ġ tai2Ġwan1Ġ
xuan3Ġ ju3
shu4 Ġwei4Ġ
Ġyi4Ġ ban1Ġ
Ġbu4Ġtong2 ĠdeĠ
jing1Ġ guo4Ġ
biao3 Ġxian4Ġ
Ġ ying1Ġguo2Ġ
Ġ mu3Ġ
Ġshi4Ġjie4 Ġda4Ġ
bao1Ġ han2Ġ
Ġ ai4
2021 Ġnian2Ġ
0Ġnian2Ġ dai4Ġ
sheng3 Ġji2Ġ
miao2 Ġshu4Ġ
guan1 Ġyuan2Ġ
Ġ 2001Ġnian2Ġ
bo2Ġwu4Ġ guan3Ġ
2022 Ġnian2Ġ
Ġ 6Ġ
po4Ġ huai4
wen4Ġ ti2
Ġguo2Ġ jia1
ying2 Ġde2Ġ
Ġzui4 Ġhou4Ġ
zheng4 Ġzai4Ġ
fa3Ġ yuan4Ġ
cang1 Ġ
bing3 Ġ
Ġgong1Ġ ji1Ġ
shi3 ĠdeĠ
ce4 Ġshi4Ġ
sh e3
Ġ san1
chang3 ĠdeĠ
Ġsui2 Ġhou4Ġ
Ġwei4Ġ zhong1Ġ
bu4 Ġhe2Ġ
Ġ chu2Ġ
Ġ lu2Ġ
z eng4
Ġli4Ġ yong4Ġ
fei1 Ġji1Ġ
Ġ ru2
zhuan1Ġ ye4Ġ
zheng1 Ġyi4Ġ
27 Ġri4Ġ
16 Ġri4Ġ
Ġ si4
zhi3 Ġshi4Ġ
Ġdi4Ġ qu1
Ġ ch
21 Ġri4Ġ
Ġsheng1Ġ huo2Ġ
yi4 Ġshi2Ġ
sang1 Ġ
Ġzhan4Ġ zheng1Ġ
17 Ġri4Ġ
zao1 Ġdao4Ġ
na2 Ġ
Ġ tang2Ġ
2004 Ġnian2Ġ
jiang1 Ġqi2Ġ
12 Ġri4Ġ
Ġbei4Ġ cheng1Ġwei2Ġ
ding4 Ġyi4Ġ
8 Ġri4Ġ
Ġda4Ġ qu1Ġ
ge1Ġ shou3Ġ
Ġzhong1Ġ xin1
zong1 Ġhe2Ġ
liu4 Ġnian2Ġ
mou2 Ġ
Ġshi4Ġ yi4Ġ
xue2 ĠdeĠ
Ġxian4 Ġshi2Ġ
ji2 Ġwei4Ġ
yong1 Ġ
Ġsui1 Ġran2
23 Ġri4Ġ
huang2 Ġdi4Ġ
gui1Ġ mo2Ġ
Ġ fen1Ġbu4Ġyu2Ġ
Ġbing4 Ġbu4Ġ
11 Ġri4Ġ
ou1 Ġzhou1
Ġzhong1Ġ gong4
ye3 Ġyou3Ġ
u4 Ġ
e2Ġ luo2Ġ
fang1Ġ xiang4Ġ
Ġ wai4Ġ
Ġshi4Ġ jian4
Ġ xing4Ġ
zui4Ġ da4ĠdeĠ
chu1 Ġxian4Ġ
duo1Ġ shu4Ġ
fen1 Ġxi1Ġ
neng2Ġ gou4Ġ
7 Ġri4Ġ
22 Ġri4Ġ
29 Ġri4Ġ
ĠĠĠ yu2Ġ
kuan1 Ġ
xiang4 ĠdeĠ
yu4 ĠdeĠ
Ġ bo2Ġ
yuan2 Ġyu2Ġ
Ġ ke3
yue1Ġ han4Ġ
hai2 Ġshi4Ġ
pan2 Ġ
yang4 ĠdeĠ
9 Ġri4Ġ
ĠĠĠ ci3Ġ
f ei2
ding4 Ġwei4Ġ
E E
gong1 ĠdeĠ
ruan3 Ġ
xu1Ġ yao4
ĠĠĠ zheng4Ġzhi4Ġ
feng2 Ġ
tong3 Ġji4Ġ
xin4 Ġxi1Ġ
Ġzai4Ġ zhe4Ġ
Ġxian4 Ġzhi4Ġ
19 Ġri4Ġ
ling4 Ġyi1Ġ
qiu2 Ġdui4Ġ
Ġ shen2Ġ
cha2 ĠdeĠ
Ġ jing3Ġ
zhi3Ġ hui1Ġ
14 Ġri4Ġ
5 Ġri4Ġ
qi ong2
lan3 Ġ
chang2 Ġshi4Ġ
Ġ mo2Ġ
quan2 Ġqiu2Ġ
mei3Ġguo2Ġ ren2Ġkou3Ġpu3Ġ
3 Ġri4Ġ
zu3 Ġhe2Ġ
ĠdeĠ zuo4Ġ
dong1Ġ nan2Ġ
Ġhuo4 Ġde2
niu3Ġ yue1
lin2 Ġshi2Ġ
Ġ 4Ġ
31 Ġri4Ġ
wei4 Ġshi4Ġ
dong3 Ġshi4Ġ
ji1 Ġdi4Ġ
lian2Ġ meng2
Ġ k
pai1 Ġshe4Ġ
hai3Ġ ba2
bang1 Ġzhu4Ġ
ĠdeĠshi4Ġ zhen4Ġ
6 Ġri4Ġ
qu an1Ġ
ju3Ġ ban4
chu i2
ĠĠĠ zhong1Ġ
ting3 Ġ
Ġzhong1Ġ bu4Ġ
2 Ġri4Ġ
Ġyi4Ġ da4Ġli4Ġ
Ġshe4 Ġli4Ġ
c i
sheng1Ġ ya2Ġ
Ġ zhu1Ġ
ĠdeĠ zhong1Ġ
Ġren2Ġ kou3
Ġzhe4Ġ xie1
Ġ a1
4 Ġri4Ġ
ge4 Ġren2Ġ
Ġ duo1
she4 Ġyou3Ġ
Ġ 190
Ġfen1Ġ bie2
l ang4Ġ
yuan2 Ġhe2Ġ
Ġdi4Ġ qu1ĠdeĠ
tong1Ġ chang2Ġ
Ġxue2Ġ sheng1Ġ
lian2Ġ bang1Ġ
tie3Ġ lu4
za2 Ġ
ĠĠĠ 197
lie4Ġ che1
f ei3
zao3Ġ qi1Ġ
Ġqi2 Ġta1
dong1Ġ bei3Ġ
Ġyi4Ġ ban1
shen1Ġ fen4Ġ
chao2Ġ xian1Ġ
shao1 Ġ
Ġ mo4Ġ
zu2 Ġqiu2
13 Ġri4Ġ
xiong1 Ġdi4Ġ
sheng1 Ġzai4Ġ
mu4 Ġdi4Ġ
hui1 Ġfu4Ġ
Ġshi4Ġ chang3Ġ
jie2Ġ guo3Ġ
Ġ yong4Ġ
ĠĠĠ 195
n i4
v i
Ġxue2Ġ yuan4Ġ
a u
juan3 Ġ
ĠĠĠ K
qu3 Ġdai4Ġ
guan1Ġ fang1Ġ
ĠĠĠ you2Ġyu2Ġ
Ġzhe4 Ġyi1Ġ
su1Ġ lian2Ġ
ju3Ġ ban4Ġ
qing2Ġkuang4 Ġxia4Ġ
yi2 Ġbu4Ġ
Ġ dao3Ġzhi4Ġ
xie2 Ġyi4Ġ
huang2 Ġjia1Ġ
jue2Ġ sai4
ke1 Ġji4Ġ
w Ġ
fa1 Ġxian4
Ġ ha1Ġ
xiao3Ġ shuo1Ġ
nv3Ġ xing4Ġ
zheng3 Ġge4Ġ
Ġxiang1Ġ gang3
Ġgong1Ġ chi3Ġ
ren2 Ġhe2Ġ
Ġ jiu4
ge2Ġ ming4
fou3 Ġ
Ġ wo3
chao1 Ġji2Ġ
mao4 Ġyi4Ġ
yue4 ĠdeĠ
zhan1 Ġ
bi4Ġ ye4Ġ
zhang3 ĠdeĠ
jue2Ġ sai4Ġ
Ġru2Ġ guo3Ġ
wen2Ġwu4Ġ bao3Ġhu4Ġ
r ao4Ġ
xi2 Ġji1Ġ
lai4 Ġ
Ġ U
hua4 Ġhe2Ġ
Ġdi4Ġ li4Ġ
xue2Ġ yuan4
li4 Ġhe2Ġ
zou4 Ġ
tu2Ġ shu1Ġ
Ġ jing4Ġ
Ġ gong4Ġ
qu1Ġ hua4Ġ
xian1 Ġhou4Ġ
tong3 Ġyi1Ġ
Ġxi1Ġ nan2Ġ
an4 ĠdeĠ
hang2Ġ kong1
liu2 Ġxing2Ġ
Ġyi3Ġ jing1
jie1Ġ duan4Ġ
jie2Ġ shu4
yao1 Ġqiu2
a3 Ġ
hu3 Ġ
Ġb rĠ
xie2 Ġzhu4Ġ
ci4 Ġshi4Ġjie4Ġda4Ġ
wu2 Ġxian4Ġ
Ġ hua2Ġ
shang4 Ġshi4Ġ
zhan4 Ġhou4Ġ
guang3Ġ bo1Ġ
Ġ qi3Ġ
Ġ que4Ġ
dan1Ġ ren4
Ġer3Ġ sheng3Ġ
yu3 ĠdeĠ
fan3Ġ ying4
ren2Ġkou3Ġ shu4Ġliang4
Ġhe2Ġ yi1Ġ
gong4Ġchan3Ġ dang3Ġ
zi4 Ġxing2Ġ
Ġbu4Ġ neng2Ġ
i t
Ġyi3Ġ lai2Ġ
hua4Ġ xue2Ġ
shao4 Ġnian2Ġ
Ġxi1Ġ ban1Ġ
ĠĠĠ 196
qi1 Ġnian2Ġ
tai2Ġ bei3
cao1 Ġ
Ġ yao4Ġ
chi2Ġ xu4Ġ
Ġta1Ġ ceng2
dao3Ġ yan3Ġ
Ġ hei1Ġ
Ġzai4Ġ ci4Ġ
kai1Ġ fa1
Ġ ye4Ġ
fa1Ġ biao3
shu ai1Ġ
guo2 Ġhe2Ġ
xi4Ġ bao1Ġ
lian2Ġ sai4
Ġyi3Ġ xia4Ġ
Ġ shu3Ġ
te4 ĠdeĠ
ĠĠĠ O
zao1 Ġ
jue2Ġ ding4
Ġ ha1
zhu4 Ġzai4Ġ
xia4Ġ xia2
t un2
tiao2 Ġjian4Ġ
yan3Ġ chang4
Ġ 2010Ġnian2Ġ
pin2 Ġdao4Ġ
Ġgong1Ġ zuo4
Ġ mei2Ġyou3Ġ
ye4 ĠdeĠ
jiao1 Ġyi4Ġ
2002 Ġnian2Ġ
Ġshi4Ġ zhong1Ġguo2Ġ
bao4 Ġdao4Ġ
Ġren2Ġkou3Ġmi4Ġ du4Ġwei4Ġ
qiu2 Ġyuan2Ġ
2003 Ġnian2Ġ
Ġ lu4
Ġ wei1
Ġshi4Ġ li4Ġ
jie2 Ġhe2Ġ
Ġzuo4Ġ pin3Ġ
ĠĠĠ bu4Ġ
you2Ġ zheng4Ġ
jian4 Ġli4Ġ
ying4Ġ yong4Ġ
wai4 ĠdeĠ
zi1 Ġyuan2Ġ
sai1 Ġer3Ġ
Ġqi2 Ġhou4Ġ
Ġ qie3Ġ
mo4 Ġxi1Ġ
zui4 Ġda4Ġ
ke3Ġ da2Ġ
ch a4Ġ
Ġyi1Ġ yuan4Ġ
gai3Ġ ge2Ġ
M Ġ
Ġ chong2Ġ
zhuang4Ġ tai4Ġ
Ġbing4 Ġwei4Ġ
Ġ shuang1Ġ
hui2 Ġdao4Ġ
su4Ġ du4Ġ
Ġ sui4Ġ
qi4 Ġhou4Ġ
mi4Ġ shu1Ġ
ru3 Ġ
Ġwei4Ġyu2Ġ fa3Ġguo2Ġ
suo3Ġ shu3ĠdeĠ
pang2 Ġ
dian4Ġshi4Ġ ju4Ġ
zhu4 ĠdeĠ
fen4 Ġwei4Ġ
Ġgong1Ġ ye4Ġ
fa1Ġ biao3Ġ
wang3 Ġzhan4Ġ
gong1Ġ si1Ġ
xun4Ġ lian4Ġ
Ġ ben3
Ġjian3Ġ cheng1Ġ
zi4Ġ ran2Ġ
tou2Ġ zi1Ġ
ĠdeĠdi4Ġ yi1Ġ
zh ou2
qi an4Ġ
lei3 Ġ
Ġzhong1Ġ gong4Ġ
zuo3 Ġyou4Ġ
chan3Ġ pin3Ġ
hu2 Ġnan2Ġ
Ġyi1Ġ si1Ġ
zhan4 Ġyi4Ġ
Ġ bao4Ġ
ya4 Ġli4Ġ
Ġwei4Ġ yi1Ġ
wen2Ġwu4Ġbao3Ġhu4Ġ dan1Ġwei4Ġ
20 Ġshi4Ġji4Ġ
Ġdai4Ġ biao3
xiao3 Ġxue2Ġ
mu4Ġ biao1Ġ
Ġ long2Ġ
sheng4 Ġli4Ġ
shang4Ġ hai3
Ġhao4 Ġxian4Ġ
zhen4Ġ qu1Ġ
wen2 Ġming2Ġ
ĠdeĠ fu4Ġ
Ġjian4 Ġshe4Ġ
wang3Ġ luo4Ġ
sheng3Ġ fen4Ġ
i r
en2 Ġ
yi2 Ġzhi4Ġ
jiao4 Ġhui4Ġ
zhan3Ġ kai1Ġ
yin4Ġ du4
shi2Ġ qi1Ġ
feng1Ġ ge2Ġ
zhe4Ġ geĠ
Ġer2 Ġshi4Ġ
gao1 Ġji2Ġ
zhun3 Ġbei4Ġ
Ġ qie3
Ġ fa3Ġguo2Ġ
sh e2Ġ
xuan3Ġ shou3Ġ
ke1 ĠdeĠ
Ġren2Ġ wu4Ġ
nai4 Ġ
yan2Ġ zhong4Ġ
hao3 ĠdeĠ
dong1Ġ jing1Ġ
zhong4Ġyao4 ĠdeĠ
jiao1Ġ tong1
gong4Ġyou3Ġ ren2Ġkou3Ġ
Ġ IN
Ġyi1Ġ ming2Ġ
Ġxian4Ġ dai4Ġ
bi4Ġ xu1Ġ
hou4 Ġyu2Ġ
can1Ġ sai4Ġ
xiao3Ġxing2Ġ xing1Ġ
ĠĠĠ J
Ġcheng2Ġ ji4Ġ
Ġxi1Ġ bei3Ġ
mu4Ġ qian2Ġ
Ġ min2Ġ
Ġhe2Ġ di4Ġ
Ġ mai4
Ġji1Ġ chang3Ġ
zi ĠdeĠ
Ġ fu4
kai1Ġ fang4Ġ
bian4 Ġcheng2Ġ
qiao2 Ġzhi4Ġ
bang4 Ġ
ui4 Ġ
lei4Ġ si4
dian4Ġshi4Ġ tai2Ġ
jie3 Ġshi4Ġ
bi3Ġ jiao4Ġ
guo2Ġ min2Ġ
Ġyi4Ġ qi3Ġ
Ġh an
d a1Ġ
te4Ġ zheng1Ġ
zhi4Ġ zuo4Ġ
ka3 Ġer3Ġ
xing2 Ġshi4Ġ
dou1 Ġyou3Ġ
Ġsuo3 Ġyou3Ġ
tao4 Ġ
zhi1 Ġhou4Ġ
hui4 Ġhe2Ġ
zhan4 Ġshi4Ġ
ru2 Ġxia4Ġ
i c
mei3 Ġping2Ġfang1Ġgong1Ġli3Ġ
Ġyi1Ġ yang4Ġ
ru4 ĠleĠ
min3 Ġ
Ġzhe4Ġ ge
sheng1Ġ chan3Ġ
o o
Ġgong1Ġ fen1Ġ
Ġshe4 Ġzhi4Ġ
Ġsi1Ġ ji1Ġ
Ġxia4Ġ ling4
Ġ zhang1
Ġ V
a s
zhen1 Ġdui4Ġ
ling3Ġ dao3
i g
jiu4 Ġshi4Ġzhen4Ġ
Ġshi2Ġ jian1
Ġci3 Ġhou4Ġ
yuan2 Ġshi4Ġ
gao1 Ġzhong1Ġ
Ġnian2Ġ jian1Ġ
Ġzai4Ġ zhong1Ġ
wang2 Ġguo2Ġ
qu an4Ġ
Ġ ci4
er4 Ġshi4Ġ
Ġ shen4Ġzhi4Ġ
zao3 Ġnian2Ġ
dian4Ġ ziĠ
wai4Ġ jiao1
Ġ cai2Ġ
shan1Ġ dong1Ġ
lei4Ġ si4Ġ
gui1Ġ hua4Ġ
diao1 Ġ
Ġran2 Ġhou4Ġ
cao2 Ġ
Ġli4Ġ shu3Ġyu2Ġ
Ġyi4Ġ zhi2
dui4 Ġzai4Ġ
zhu4 Ġming2Ġ
yun2 Ġnan2Ġ
hen3 Ġduo1Ġ
kui2 Ġ
Ġer3 ĠdeĠ
X Ġ
huo4 Ġde2
Ġsui1 Ġran2Ġ
jie3Ġ jue2Ġ
Ġ qi4Ġ
ĠĠĠ 2020Ġnian2Ġ
lai2Ġ zi4
xin1 Ġjia1Ġ
ĠĠĠ gong1Ġ
Ġ zhao4Ġ
ĠdeĠ ming2Ġ
ĠdeĠ zhu3Ġ
Ġzhi4Ġ zao4Ġ
Ġ ya4Ġ
gou1 Ġ
Ġyi4Ġ zhi4Ġ
shou3Ġ ci4
ĠĠĠ da4Ġ
t an1Ġ
zhong4 ĠdeĠ
ĠdeĠyi1Ġ zhong3Ġ
Ġ wu3
shan1 Ġxi1Ġ
ren2Ġkou3Ġshu4Ġliang4 Ġwei4Ġren2Ġ
ju4 Ġji2Ġ
bao4Ġ fa1Ġ
ji2 Ġhe2Ġ
ye4Ġ wu4Ġ
ĠIN S
Ġ yi2Ġge4Ġ
Ġjian4 Ġzhi4Ġ
ma3Ġ lai2
lv3 Ġyou2Ġ
Ġ chu2ĠleĠ
Ġxing2Ġ wei2Ġ
nv3 Ġer2Ġ
ji2 Ġshi4Ġ
zong3 Ġli3Ġ
fang1Ġ an4Ġ
Ġ g
Ġyu2Ġ 18
Ġshang4Ġ hai3Ġ
fa1 Ġshe4Ġ
x Ġ
si1 Ġhe2Ġ
ĠĠĠ of
lu4 Ġjun1Ġ
lian2Ġ jie1Ġ
la4 Ġ
Ġxi1Ġ ya4
rui4 Ġshi4Ġ
te4Ġ bie2Ġ
Ġda4Ġ liang4Ġ
nong2Ġ ye4Ġ
Ġ dan1Ġren4Ġ
2023 Ġnian2Ġ
wu4 Ġzhi4Ġ
jue2 ĠdeĠ
fa1Ġ dong4Ġ
Ġ bian4Ġ
Ġjin4 Ġshi4Ġ
h a
Ġ jia3Ġ
ĠdeĠ li4Ġ
ĠdeĠshi2Ġ hou4Ġ
ao4Ġlin2Ġpi3Ġke4Ġ yun4Ġdong4Ġhui4Ġ
F Ġ
Ġzhi4Ġ jin1Ġ
O Ġ
si1 Ġren2Ġ
ĠINS EE
si4 Ġshi2Ġ
Ġmei3 Ġyuan2Ġ
ge2 ĠdeĠ
ju an1Ġ
fei1 Ġxing2Ġ
n an4Ġ
Ġzhi1Ġ wai4Ġ
ke3Ġneng2 Ġshi4Ġ
Ġ 11
Ġ gu4
wo 1Ġ
biao3Ġ yan3Ġ
Ġte4Ġ bie2
Ġ jie4Ġ
xuan3 Ġwei4Ġ
jie1Ġrang3 ĠdeĠshi4Ġzhen4Ġ
Ġ dui4Ġyu2Ġ
Ġshe4Ġ shi1Ġ
yi2 Ġshi4Ġ
jin4 ĠdeĠ
bao1Ġ han2
tu3 Ġer3
Ġli4Ġ si1Ġ
bo2Ġ te4Ġ
jia4Ġ zhi2Ġ
ti ao4Ġ
qian3 Ġ
Ġzong3Ġ mian4Ġji1Ġ
chuang4 Ġli4Ġ
Ġgong1Ġ neng2Ġ
chu4 ĠdeĠ
luo2Ġ ma3
Ġde2 Ġli3Ġ
zhi4 Ġshi4Ġ
guang3Ġ chang3Ġ
lian2 Ġhe2Ġguo2Ġ
Ġyou3Ġ ren2Ġ
ji2 Ġshi2Ġ
geng1Ġ ming2Ġwei4Ġ
reng2 Ġran2Ġ
ĠdeĠ yi1Ġbu4Ġfen4Ġ
20 Ġnian2Ġ
xiao4 Ġli4Ġ
Ġzai4Ġ ci3Ġ
jiu3 Ġnian2Ġ
ch an2
chu ang1Ġ
Ġgai1Ġ sheng3Ġ
u n
qi4 ĠdeĠ
N Ġ
biao1Ġ zhun3
Ġren2Ġkou3Ġmi4Ġdu4Ġ mei3Ġping2Ġfang1Ġgong1Ġli3Ġ
Ġju4Ġ le4Ġbu4Ġ
Ġren2Ġkou3Ġmi4Ġdu4Ġwei4Ġ mei3
Ġxia4Ġling4 Ġshi2Ġ
you2Ġzheng4Ġ bian1Ġma3Ġwei4Ġ
shi2 Ġshi4Ġ
zu3 Ġfu4Ġ
cha2ĠdeĠ shu4Ġju4Ġ
2 Ġren2Ġ
lian2Ġ bang1
Ġshi4Ġzhen4Ġ bian1Ġma3Ġwei4Ġ
ĠINSEE Ġshi4Ġzhen4Ġbian1Ġma3Ġwei4Ġ
fen1Ġ lei4Ġ
ĠĠĠ V
mo4 Ġsi1Ġ
Ġguo2Ġ wang2Ġ
ãĢ İ
shi3Ġyong4 ĠdeĠ
qi ang3Ġ
ĠĠĠ bei4Ġ
Ġjun1 Ġzai4Ġ
xuan3Ġ qu1Ġwei4Ġ
ãĢ ı
cong2 Ġshi4Ġ
Ġ cheng1Ġ
pai2 Ġming2Ġ
dong4 Ġli4Ġ
Ġbu4Ġ guo4
he2 Ġshi4Ġ
Ġshe4 ĠdeĠ
yun4Ġ ying2Ġ
shi2ĠdeĠ ren2Ġkou3Ġshu4Ġliang4Ġwei4Ġren2Ġ
Ġ m
zong3Ġ tong3
yi1Ġ zhong3Ġ
mei3Ġguo2Ġren2Ġkou3Ġpu3Ġ cha2ĠdeĠshu4Ġju4Ġ
ĠĠĠ 193
Ġjin3Ġ guan3Ġ
jia1 Ġli4Ġ
Ġer2 Ġren2Ġkou3Ġmi4Ġdu4Ġwei4Ġmei3
Ġchu1Ġ ban3Ġ
che1Ġ liang4Ġ
Ġdang1Ġdi4Ġ gong4Ġyou3Ġren2Ġkou3Ġ
hu n2
duo1 Ġge4Ġ
zu2 ĠdeĠ
ling3 Ġyu4Ġ
Ġhuo4Ġ jiu4Ġshi4Ġzhen4Ġ
ĠĠĠ li4Ġ
Ġer2Ġ qie3Ġ
tiao2Ġ yue1Ġ
Ġ dong1
Ġzai4Ġ 199
ge2Ġ lan2
sheng3Ġji2Ġ xuan3Ġqu1Ġwei4Ġ
Ġ zhong4Ġ
ji1 Ġji2Ġ
er2Ġ ziĠ
da4 Ġbu4Ġfen4
xi1 ĠdeĠ
man4Ġ hua4Ġ
Ġbu4Ġ jiu3Ġ
gai4Ġ nian4Ġ
Ġ shu1Ġ
xuan3 Ġren2Ġ
jing3Ġ cha2Ġ
ba1 Ġnian2Ġ
xing1 ĠdeĠ
Ġer3 Ġde2Ġ
qi3Ġ lai2Ġ
sheng3 Ġhe2Ġ
Ġ yong3Ġ
Ġ guang1Ġ
fen4Ġwei4Ġ fa3Ġguo2Ġ
Ġgai1Ġsheng3Ġ fen4Ġwei4Ġfa3Ġguo2Ġ
mi3 Ġer3Ġ
Ġzhi1 Ġxian4Ġ
tie3 Ġdao4Ġ
Ġ jiu3Ġ
ao4 Ġda4Ġli4Ġ
Ġjun1Ġ dui4Ġ
fu2 Ġjian4Ġ
guang3 Ġzhou1Ġ
jin3Ġbiao1Ġ sai4Ġ
Ġchu1Ġ ban3
Ġwei4Ġ shi2Ġ
qun2Ġ dao3Ġ
Ġ geng4Ġ
zh ai4Ġ
zui4Ġ hou4Ġyi1Ġ
pai2Ġ ming2
Ġ w
tian1Ġ wen2Ġ
mei3 Ġyuan2Ġ
xu e1Ġ
o m
Ġhe2Ġ bing4
tong1Ġ chang2
Ġ lan2Ġ
Ġdi4Ġ si4Ġ
te4Ġ bie2
en4 Ġ
lai2 Ġyuan2Ġ
ben3 ĠdeĠ
Ġta1Ġ bei4Ġ
guang3Ġ fan4Ġ
xing1 Ġjian4Ġ
Ġdi4Ġ san1
Ġ tou2Ġ
Ġchu1Ġ sheng1Ġyu2Ġ
she4 Ġli4Ġ
Ġ mai4Ġ
Ġ qu1Ġ
di4Ġ yi1Ġ
Ġri4 ĠdeĠ
sh ang3Ġ
wei3 Ġhui4Ġ
reng2 Ġran2
Ġren2Ġ gong1Ġ
Ġyou2Ġ xi4
meng2Ġ gu3Ġ
shan3 Ġxi1Ġ
Ġ song4Ġ
Ġzhi4Ġ yu2Ġ
Ġ ci4Ġ
n a
ao4 Ġsi1Ġ
ce Ġ
wu2 Ġren2Ġ
mu3 Ġsi1Ġ
gan3Ġ ran3Ġ
mei3 Ġzhou1Ġ
yun4 Ġxing2Ġ
ĠĠĠ b
Ġming2Ġ chao2Ġ
cai3Ġ yong4
jie1Ġ shou4
Ġbu4Ġ ming2Ġ
jia1Ġ ru4Ġ
yan2Ġjiu1 Ġsuo3Ġ
Ġxian4Ġ lu4Ġ
Ġshi4Ġ bu4Ġ
yi3 Ġji2Ġ
Ġhe2Ġ ping2Ġ
xi1 Ġzai4Ġ
nan2 Ġji2Ġ
hua4 Ġshi2Ġ
h ong1Ġ
Ġ liu2
zuo4Ġ pin3
shuo1Ġ fa3Ġ
guo4Ġ cheng2Ġzhong1Ġ
Ġjin4 ĠdeĠ
v er
wu3 Ġshi2Ġ
ceng2 Ġzai4Ġ
Ġbu4Ġ men2Ġ
Ġji1Ġ ben3Ġ
zhan4Ġ zheng1
Ġ han2Ġ
xue2Ġ xiao4
Ġren4Ġ wei2
ma2 Ġ
Ġju4Ġ li2Ġ
Ġ biao3Ġshi4Ġ
mo2 Ġxing2Ġ
Ġ yi4Ġwei4Ġ
n e4Ġ
ĠdeĠdi4Ġ fang1Ġ
Ġke4 ĠdeĠ
ji4Ġ shu4Ġ
yun4Ġ shu1Ġ
Ġjian4 Ġyi4Ġ
Ġta1 Ġyu3Ġ
gou4Ġ mai3
24 Ġ
keng1 Ġ
Ġ zheng4Ġshi4Ġ
xue2 Ġshi4Ġ
0Ġnian2Ġ dai4
ren4Ġwei2 Ġshi4Ġ
hu an3Ġ
xue2Ġ xi2Ġ
lun2Ġ dun1
xuan1Ġ chuan2Ġ
Ġzai4Ġ yi4Ġ
Ġyu2Ġ 198
Ġge4 Ġdi4Ġ
3 Ġren2Ġ
lie4 Ġwei4Ġ
ĠdeĠ xin1Ġ
ban4Ġ gong1Ġshi4Ġ
mi ao3Ġ
tong2 Ġyi1Ġ
wai4 Ġguo2Ġ
Ġ zhen1Ġ
Ġ 10Ġyue4Ġ
Ġzong3 Ġren2Ġkou3Ġ
shang4 Ġyou3Ġ
yuan2 Ġwei4Ġ
ku n4
Ġ jiang3Ġ
li ao3Ġ
gong1Ġ zuo4Ġ
ni2 Ġsi1Ġ
Ġzai4Ġ zhong1Ġguo2Ġ
Ġ xiao1Ġ
yang3Ġ hua4Ġ
30 Ġnian2Ġ
50 Ġ
zh ai2Ġ
u r
ĠĠĠ p
fang1Ġ mian4
tai4Ġ yang2Ġ
Ġzi4Ġ ji3Ġ
hai3 Ġjun1
cheng1 Ġwei4Ġ
xiao1 Ġxi1Ġ
Ġxian4 Ġren2Ġ
uo4 Ġ
biao1 Ġzhi4Ġ
zhi4 Ġwei4Ġ
ĠdeĠ guan1Ġ
you2Ġ xi4
a d
Ġ yu3
Ġ geng4
Ġ xian1Ġ
fu4Ġze2Ġ guan3Ġxia2Ġ
fen1 Ġzhi1Ġ
Ġwei2Ġ zhu3Ġ
d ao1Ġ
Ġ qing1
L Ġ
gou4 Ġcheng2Ġ
t uo2
shi1 ĠdeĠ
Ġ Î
gu n3
zhe2 Ġxue2Ġ
Ġji2Ġ qi2Ġ
ĠĠĠ yi3Ġ
zhu3Ġ jue2Ġ
Ġji4Ġ hua4
zai4 Ġshi4Ġ
zheng4 ĠdeĠ
jie4Ġ quan2Ġguo2Ġ
si4Ġ chuan1Ġ
dang3 ĠdeĠ
huan2Ġ jing4
bi3 Ġde2Ġ
Ġdao4Ġ lu4Ġ
u b
zha1 Ġ
ma3 Ġli4Ġ
a c
Ġ tu2Ġ
2024 Ġnian2Ġ
Ġyi1Ġ xie1
k an3Ġ
Ġji4Ġ nian4Ġ
15 Ġ
bu4 Ġwei4Ġ
Ġ rang4
Ġ wu1Ġ
Ġshi4Ġ mei3Ġguo2Ġ
ĠĠĠ U
peng2 Ġyou3Ġ
si1 Ġzai4Ġ
rou4 Ġ
ai4 Ġer3Ġ
chi2Ġ xu4
Ġgong1Ġ gong4Ġ
ao4Ġ yun4Ġ
kang4 Ġyi4Ġ
yue1 Ġwei4Ġ
tai4 Ġguo2Ġ
sheng1Ġ wu4Ġ
ĠĠĠ you3Ġ
Ġ di2Ġ
jie1 Ġwei4Ġ
lie4 ĠdeĠ
xuan3Ġ qu1Ġ
hui4 Ġyou3Ġ
shou1Ġ ru4Ġ
yi4 Ġhe2Ġ
Ġbei4Ġ er3Ġ
xiao4Ġ zhang3Ġ
wen2 Ġjian4Ġ
shi2 Ġzai4Ġ
zheng4Ġ ce4Ġ
ti ao3
xuan3Ġ ze2
1 Ġren2Ġ
rong2 Ġyi4Ġ
Ġyou4Ġ cheng1Ġ
Ġjie2 Ġzhi4Ġ
suo3Ġshu3ĠdeĠ sheng3Ġji2Ġxuan3Ġqu1Ġwei4Ġ
zhong1 Ġzai4Ġ
biao1 Ġwei4Ġ
fo2 Ġjiao4Ġ
Ġzhi1Ġ chi2
kun1 Ġ
can1Ġ yu4
ĠĠĠ che1Ġzhan4Ġ
Ġ kai1Ġshi3Ġ
yan3 ĠdeĠ
bian1 Ġji2Ġ
ĠĠĠ shi2Ġ
ti e1Ġ
yin2Ġ hang2
yu3Ġ yan2Ġ
si1 Ġdi4Ġ
Ġer2Ġ qie3
Ġ chen2
Ġsheng1Ġ wu4Ġ
tou2Ġ ru4Ġ
qi1Ġ jian1
Ġ ren4
Ġhuo4 Ġshi4Ġ
jun1 Ġdui4Ġ
nan2Ġ xing4Ġ
gu a1Ġ
jie3Ġfang4 Ġjun1Ġ
xiang1Ġ dui4Ġ
Ġ qian1Ġ
tiao3 Ġzhan4Ġ
Ġyuan2Ġ zhu4Ġ
Ġchu1Ġ leĠ
Ġzhi4Ġ du4Ġ
qian2Ġ wang3
gai3Ġ bian4Ġ
ĠĠĠ he2Ġ
Ġ fei1
shou4 Ġyu3Ġ
Ġzhong1Ġ you3Ġ
Ġzhan4Ġ zheng1
Ġnian2Ġ du4Ġ
Ġyi1Ġ zhong3Ġ
gao1 Ġyu2Ġ
gan3 Ġdao4Ġ
jie1Ġrang3 Ġ
Ġyi3Ġ shang4Ġ
s u2Ġ
Ġ 2020Ġnian2Ġ
yun4 Ġhui4Ġ
ĠĠĠ ta1
r ou2
Ġ bei3
Ġdi4Ġ xia4Ġ
ge1Ġ qu3
Ġshi4Ġ yi2Ġge4
yang1 Ġ
wen3Ġ ding4Ġ
pei4 Ġhe2Ġ
Ġyu2Ġ 19
o p
Ġshi4Ġ tu2Ġ
g ao3Ġ
jia1 Ġren2Ġ
an4 Ġjian4Ġ
Ġ tai2Ġwan1
in d
Ġzai4Ġ bu4Ġ
ti2 Ġming2Ġ
ji4 Ġzhong1Ġ
da2 Ġcheng2Ġ
Ġ er4
tong2 ĠdeĠ
ĠĠĠ 2021
wu3Ġ qi4Ġ
zhuo2 Ġ
shu4Ġ liang4Ġ
jian3Ġ jie4Ġ
lai2Ġ shuo1Ġ
tian1Ġ zhu3Ġjiao4Ġ
leng3 Ġ
biao3 Ġming2Ġ
Ġzhong1Ġguo2Ġ ren2Ġmin2Ġ
ting2Ġ zhi3Ġ
duo2 ĠdeĠ
ying3Ġ pian4Ġ
xi1Ġban1Ġ ya2Ġ
Â °
Ġer2Ġren2Ġkou3Ġmi4Ġdu4Ġwei4Ġmei3 Ġping2Ġfang1Ġqian1Ġmi3Ġ
ban4Ġ dao3Ġ
Ġ ni2Ġ
xiao3 ĠdeĠ
ta1Ġ menĠ
Ġ xi1
zheng4 Ġshi2Ġ
ce4 ĠdeĠ
zao4 ĠdeĠ
Ġwei4Ġ fu2
zhu3Ġ ti2Ġ
shen1Ġ fen4
Ġ hua4Ġ
uo3 Ġ
jue2Ġ se4
que4Ġ zhen3
zhe4Ġ zhong3Ġ
ï ½
Ġji1Ġ bai4Ġ
Ġ shi3Ġyong4Ġ
jie2Ġ mu4
di4 Ġshi4Ġ
Ġping2Ġfang1Ġ mi3Ġ
ĠĠĠ yuan2Ġ
Ġjia1Ġ na2Ġda4Ġ
zi4Ġzhi4Ġ qu1Ġ
ĠĠĠ c
in Ġ
Ġ 8Ġyue4Ġ
la1 Ġke4Ġ
lei4 ĠdeĠ
Ġzai4Ġ mei3Ġguo2Ġ
ĠĠĠ zi4Ġ
hun4 Ġhe2Ġ
ju3 Ġren2Ġ
Ġshi2Ġ yan4
3 9
kao4 Ġ
chong1Ġ tu1Ġ
tuan2 Ġdui4Ġ
4 Ġren2Ġ
quan2 ĠdeĠ
guo1 Ġ
ke3Ġneng2 Ġhui4Ġ
ya1 Ġli4Ġ
guo2 Ġzai4Ġ
ji4 Ġwei4Ġ
Ġer2 Ġbei4Ġ
ji4Ġ hua4Ġ
Ġji4Ġ cheng2Ġ
Ġ hai2Ġyou3Ġ
gong4 Ġxian4Ġ
ĠT he
xin1 Ġli3Ġ
Ġshi2Ġ shi1Ġ
jian3Ġ cha2Ġ
Ġdi4Ġ tie3Ġ
sheng1Ġ chan3
fen1Ġ bie2Ġ
dian1 Ġ
duo1Ġ ci4Ġ
li4 Ġbu4Ġ
k a1Ġ
Ġ fan3Ġ
a g
tion Ġ
chan3Ġ ye4Ġ
lian2Ġ xu4Ġ
ceng2Ġ jing1Ġ
Ġ tong1Ġguo4Ġ
xing2Ġ dong4Ġ
Ġ lin2
fan1 Ġyi4Ġ
i3 Ġ
Ġhe2Ġ liu2Ġ
n i1Ġ
Ġ zu3Ġ
da4 Ġbu4Ġfen4Ġ
zui4Ġ zao3
Ġchu1Ġ ren4Ġ
zhi3Ġ hui1
25 Ġ
cao1 Ġzuo4Ġ
jia1Ġ na2Ġda4Ġ
Ġzi4Ġ you2Ġ
ban4 Ġshi4Ġ
am pĠ
Ġzai4Ġ da4Ġ
Ġxi1Ġ wang4Ġ
shao3Ġ shu4Ġ
an1 Ġde2Ġ
chong2 Ġjian4Ġ
xiao3Ġ zu3Ġ
shou3 ĠdeĠ
tou4 Ġ
Ġ xing1Ġ
Ġshi4Ġ yi3Ġ
Ġjian4Ġ zhu4
jian3Ġ shao3Ġ
fen4Ġ zi3Ġ
Ġ zi4
Ġwei4Ġ neng2Ġ
Y ou
xing2 Ġwei2Ġ
sh u2
dong4 ĠdeĠ
kong1 Ġjun1Ġ
Ġshi2Ġ fen1Ġ
zh ou4Ġ
ban4 Ġgong1Ġ
mei2Ġ ti3
Ġzhi4Ġ zuo4
gong4 Ġtong2
ji4Ġ nian4Ġ
Ġyi4Ġ you3Ġ
mei3 Ġnian2Ġ
shen1 ĠdeĠ
Ġhe2Ġ bei3Ġ
Ġxian4 Ġwei4Ġ
Ġ 2009Ġnian2Ġ
5 Ġren2Ġ
Ġ luo4Ġ
Ġ an4Ġ
ou1 Ġyuan2Ġ
gong1Ġ yuan2Ġ
Ġ shang1Ġ
lun2Ġ dun1Ġ
6 Ġren2Ġ
Ġyi3Ġ se4Ġ
xian4 Ġdai4Ġ
Ġshi4Ġyi1Ġ ming2Ġ
a p
bao3Ġ hu4
Ġshi3 ĠdeĠ
Ġyou4 Ġming2Ġ
ying4 ĠdeĠ
xiang1Ġ tong2Ġ
wei3Ġyuan2Ġ hui4
ji2 Ġzai4Ġ
chao2Ġ xian1
h i
jie2Ġ gou4
ming4Ġ ming2Ġwei4Ġ
ĠdeĠ shou3Ġ
Ġgong1Ġ si1ĠdeĠ
jing1Ġ ying2Ġ
dong4 Ġji1Ġ
da3 Ġji1Ġ
ĠdeĠdi4Ġ qu1Ġ
Ġzhi3 Ġyou3Ġ
Ġ dui4
zhan3 Ġshi4Ġ
yong4Ġ lai2Ġ
qi3Ġ yong4Ġ
xun2Ġ hui2Ġ
Ġ fan4Ġ
Ġyi1Ġ ci4Ġ
p an1Ġ
Ġshe4Ġ qu1Ġ
tou2Ġ piao4Ġ
Ġ dou1Ġ
ĠĠĠ 2019
Ġti3Ġ zhang3Ġ
shou3 Ġwei4Ġ
xia4Ġ wu3Ġ
Ġliang3 Ġren2Ġ
Ġzhi2 Ġzhi4Ġ
jiao4Ġ tang2Ġ
yi4 Ġzai4Ġ
Ġji4Ġ xu4
Ġsi1Ġ ling4
ren4Ġ wu4Ġ
lu4Ġdi4Ġ mian4Ġji1Ġwei4Ġ
en Ġ
ping2Ġ jia4Ġ
h an3Ġ
Ġ deng3
bu4 Ġshi4Ġ
mu4 Ġsi1Ġ
jie1 Ġjin4Ġ
lei4 Ġxing2Ġ
Ġguo2Ġ li4Ġ
wai4Ġ jiao1Ġ
4 7
Ġ hua1Ġ
fu2 Ġhe2Ġ
Ġshi2Ġ zi4Ġ
Ġ ruo4Ġ
dian4 Ġli4Ġ
16 Ġ
Ġfu4Ġ jin4Ġ
Ġ yu4
xi ng3
ku n4Ġ
zhi2 ĠdeĠ
ju3 Ġxing2ĠdeĠ
ti3Ġ xi4Ġ
liang3 Ġge4
xue2Ġ zhe3Ġ
zhe4Ġ ge
fo2 Ġ
zuo4Ġ jia1Ġ
bi3Ġsai4 Ġzhong1Ġ
K Ġ
Ġda4Ġ shi3Ġ
fu2Ġ wu4
ï½ ŀ
Ġ fei4Ġ
gui1Ġ mo2
Ġshe4 Ġbei4Ġ
qu3Ġ xiao1Ġ
zh uo1
zhu4 Ġyi4Ġ
A T
zhu4Ġ zuo4Ġ
Ġ ampĠ
Ġsi1Ġ ling4Ġ
de2 Ġdao4Ġ
xiang4 Ġshi4Ġ
hai3Ġ yu4Ġ
ying1Ġ ge2Ġlan2Ġ
jie2 Ġzhi4Ġ
Ġda4Ġ chen2Ġ
Ġcong2 Ġer2Ġ
Ġdang1Ġzhong1Ġ lu4Ġdi4Ġmian4Ġji1Ġwei4Ġ
shui3Ġyu4Ġ mian4Ġji1Ġwei4Ġ
zhi4 Ġhe2Ġ
Ġer2Ġ shui3Ġyu4Ġmian4Ġji1Ġwei4Ġ
Ġ ai1
Ġli4Ġ ji2Ġ
Ġli4Ġ fa3Ġ
ĠĠĠ 2018
ĠĠĠ xi1Ġ
Ġli4Ġ ru2
Ġ gu3
shui3 Ġping2Ġ
Ġzhi1 Ġshi2Ġ
fa3Ġ lv4
gao1Ġ su4
chang2Ġ qi1Ġ
kuai4Ġ su4Ġ
Ġ 9Ġyue4Ġ
Ġcheng2Ġli4Ġ yu2Ġ
ĠĠĠ gai4Ġ
lv3 Ġke4Ġ
Ġwei2Ġ er3Ġ
d a
U Ġ
Ġ zhuan1Ġ
dai4 Ġyou3Ġ
ling4Ġ wai4Ġ
sheng1Ġ huo2
ying1Ġ chi3Ġ
ou n
xi1Ġ yang2Ġ
ĠĠĠxing2Ġzheng4Ġ qu1Ġhua4Ġ
sh u2Ġ
Ġjia1Ġ shang4Ġ
can1Ġ jia1
ĠĠĠ 2022
yuan4Ġ zhang3Ġ
dian3 ĠdeĠ
ji3 Ġyu3Ġ
Ġyi3Ġ hou4Ġ
guan1Ġ zhong4Ġ
bi3Ġ ya4Ġ
wei1Ġ lian2Ġ
Ġjun1 Ġwei4Ġ
min2 ĠdeĠ
shuo4 Ġshi4Ġ
Ġde2 ĠdeĠ
Ġ bei4
wei3Ġ shu1Ġji4Ġ
zhi4 Ġzai4Ġ
Ġyi4Ġ ren2Ġ
Ġ hai2
eng1 Ġli4Ġ
Ġyuan2Ġ yin1Ġ
pi1Ġ zhun3Ġ
feng1Ġ bao4Ġ
e c
dao3 Ġyu3Ġ
bao3Ġ chi2Ġ
dong1 Ġxi1Ġ
Ġxin1Ġ wen2Ġ
Ġzhe4Ġ jiang1Ġ
Ġwei4Ġfu2 Ġqi2Ġyu2Ġ
xin4 Ġhao4Ġ
22 Ġ
jie2Ġshu4 Ġhou4Ġ
Ġ ti2Ġ
ci4Ġshi4Ġjie4Ġda4Ġ zhan4Ġ
Ġ 7Ġyue4Ġ
chu an4Ġ
zhao3 Ġ
ren4Ġ ming4
ru2 Ġhe2Ġ
shou4Ġ shang1Ġ
a k
Ġshi4Ġ yi1Ġwei4Ġ
lian2Ġ xi4Ġ
tao3Ġ lun4Ġ
fa1 Ġchu1Ġ
xing4 Ġzhi4Ġ
yan3Ġchang4 Ġhui4Ġ
tui4 Ġyi4Ġ
Ġshi4Ġ qu1Ġ
i ng
jia1 Ġhe2Ġ
ji1 Ġzhi4Ġ
ya4 ĠdeĠ
Ġ formulaĠ
ĠĠĠ yi4Ġ
Ġjian4 Ġcheng2Ġ
Ġ ping2
nei4Ġ rong2
Ġming2Ġ cheng1Ġ
sui2 Ġhou4Ġ
wei4Ġ zhi4Ġ
zhu4Ġ ming2ĠdeĠ
Ġ bo1
Ġ pi2Ġ
Ġ rang4Ġ
dian4Ġ tai2Ġ
ch i1Ġ
Ġti3Ġzhang3Ġ ke3Ġda2Ġ
zhuan1 Ġjia1Ġ
Ġ 21Ġ
fu1 Ġren2Ġ
cha1 Ġyi4Ġ
Ġer3Ġ te4Ġ
Ġjie2Ġ guo3Ġ
ĠdeĠyi1Ġ zuo4Ġ
Ġzai4Ġ yu2Ġ
bi4Ġ ye4Ġyu2Ġ
di3Ġ da2Ġ
wang3 Ġlu4Ġ
ĠdeĠ qian2Ġ
ru4Ġ qin1Ġ
cun1Ġ zhuang1Ġ
Ġ 12Ġyue4Ġ
neng2Ġ gou4
Ġ min2Ġguo2Ġ
Ġke4 Ġli3Ġ
Ġbu4Ġ li3Ġ
Ġyi3Ġ xia4
zong3Ġ du1Ġ
zhan4 Ġzhong1Ġ
Ġ da3Ġ
Ġ 11Ġyue4Ġ
ch ai2
ĠĠĠ 2017
lai2 Ġdao4Ġ
Ġren2Ġ lei4Ġ
zh ou4
hai2Ġ ziĠ
ru4Ġ kou3Ġ
cuo4 Ġshi1Ġ
bi4Ġ xu1
qi1Ġ zi3Ġ
pu3Ġ tong1Ġ
Ġzhi1 Ġzhong1Ġ
Ġyi4Ġ shu4
Ġjian4Ġ dui4Ġ
Ġxue2Ġ xiao4
zu3Ġ cheng2ĠdeĠ
fa3 ĠdeĠ
Ġshi2Ġ ren4Ġ
Ġjing1Ġ guo4Ġ
gu a4Ġ
yu3 Ġzhong1Ġ
Ġyi1Ġ sheng1Ġ
Ġzheng4Ġ ce4Ġ
gu1 Ġji4Ġ
yan2Ġ ge2Ġ
tai4Ġping2Ġ yang2Ġ
9 Ġren2Ġ
Ġ wang2
Ġ meng2Ġ
tong2 Ġyi4Ġ
Ġer3 Ġhe2Ġ
guang3Ġ bo1
chu1Ġ ban3Ġ
dao3 Ġshi4Ġ
si4 Ġge4Ġ
fa1Ġ dian4Ġ
Ġ ling2Ġ
sheng1 Ġwei4Ġ
ĠĠĠ de
13 Ġ
cheng2Ġ gong1Ġ
gong4Ġchan3Ġ dang3
qi4Ġ che1Ġ
Ġshi4Ġ you3Ġ
ming2Ġ cheng1Ġ
Ġsheng1Ġ chan3Ġ
Ġtong1Ġ chang2Ġ
che4Ġ xiao1Ġ
8 Ġren2Ġ
le Ġda4Ġ
zhu4 Ġyu2Ġ
Ġde2 Ġyi3Ġ
ĠdeĠshi2Ġ qu1Ġwei4Ġ
fei3 Ġ
geng4 Ġjia1Ġ
sh ang3
Ġshi2Ġ xian4Ġ
gu ai4Ġ
Ġshang4Ġ hai3
ye3 Ġzai4Ġ
fan3Ġ hui2Ġ
g Ġ
23 Ġ
nai3 Ġ
xiao1Ġ shou4Ġ
G Ġ
4 6
ĠĠĠ zhi4Ġ
ind ow
ju2Ġ zhang3Ġ
Ġru2Ġ guo3
ĠdeĠshi2Ġ jian1Ġ
lu4 Ġyi4Ġ
ĠĠĠ 2016
Ġwei4Ġ sheng1Ġ
Ġ qiang2Ġ
yue4Ġ tai2Ġ
que4Ġ ding4Ġ
Ġ ke1
ĠĠĠ s
guang3 Ġxi1Ġ
ha1 Ġer3Ġ
al Ġ
kuo4 Ġda4Ġ
deng1 Ġlu4Ġ
Ġhan sĠ
yi4 Ġzhong1Ġ
rong2 Ġyu4Ġ
Ġping2Ġ tai2Ġ
Ġt wĠ
Ġshi4Ġ yan3Ġ
Ġ yin4Ġdu4Ġ
zhong4 Ġda4Ġ
dong4Ġ zuo4Ġ
xun4Ġ lian4
mu3Ġ qin1Ġ
5 5
zhi3 Ġzai4Ġ
Ġ che1Ġ
yue4 Ġshi2Ġ
ĠĠĠ in
ye4 Ġhou4Ġ
zhe4Ġ jiang1Ġ
Ġbing4Ġ mei2Ġyou3Ġ
Ġwan4 Ġren2Ġ
Ġjin3Ġ guan3
Ġji1Ġ gou4
ĠĠĠdeĠ shi2Ġ
Ġ bian1Ġ
yu3 Ġhe2Ġ
jiao4Ġ qu1Ġ
jin4 Ġxing2
Ġhuo4Ġ zhe3Ġ
Ġye3 Ġyou3Ġ
Ġ yan3Ġ
wu4Ġ zhong3
Ġbu4Ġ ke3Ġ
ba1 Ġxi1Ġ
po4Ġhuai4 Ġ
wan3 Ġshang4Ġ
Ġci3 Ġshi2Ġ
fu4 ĠdeĠ
ba1Ġ li2Ġ
chu1Ġ ban3
ya4Ġli4Ġ shan1
Ġmu4Ġ qian2
Ġ chang2
Ġguo2Ġ wu4Ġ
Ġ 189
Ġgong1Ġ ye4
Ġxue2Ġ xi2Ġ
Ġ a1Ġer3Ġ
yuan4 ĠdeĠ
00 Ġnian2Ġ
xu1 Ġqiu2Ġ
Ġzhi1 Ġyuan2Ġ
ï¼ ı
can1Ġ kao3Ġ
ĠĠĠnian2 Ġ
7 Ġren2Ġ
r ao3Ġ
Ġ que4
ĠĠĠ zh
guan1Ġ zhu4Ġ
zhi2 Ġwei4Ġ
xue2 Ġhe2Ġ
sun3 Ġshi1Ġ
cui4 Ġ
biao3 Ġxian4
zhe4Ġ xie1
fa1Ġxian4Ġ leĠ
heng2Ġ xing1Ġ
Ġ sa4Ġ
kan4 Ġdao4Ġ
fu4Ġ qin1Ġ
ĠĠĠ 3
Ġjia1Ġ ting2Ġ
fa1Ġ sheng1
bi an3Ġ
gai3Ġ bian1
t ang1Ġ
zui4 Ġchu1Ġ
lin2 ĠdeĠ
Ġbing4 Ġyi3Ġ
zhan4 Ġdi4Ġ
xiong1Ġ ya2
w a1Ġ
z ong4Ġ
Ġ Ñ
ĠĠĠ 2014
yi2Ġ dong4Ġ
hua2Ġ min2Ġguo2Ġ
ĠĠĠ suo3Ġshu3ĠdeĠsheng3Ġji2Ġxuan3Ġqu1Ġwei4Ġ
ĠĠĠdeĠ you2Ġzheng4Ġbian1Ġma3Ġwei4Ġ
ĠĠĠyu3Ġ jie1Ġrang3ĠdeĠshi4Ġzhen4Ġ
ĠĠĠyu2Ġ shi2ĠdeĠren2Ġkou3Ġshu4Ġliang4Ġwei4Ġren2Ġ
ĠĠĠdeĠshi2Ġ qu1Ġwei4Ġ
zhuang1 Ġzhi4Ġ
Ġceng2 Ġren4Ġ
Ġ 6Ġyue4Ġ
ĠĠĠ 2023
ji4 Ġhe2Ġ
su1Ġ lian2
Ġzuo4Ġ yong4Ġ
ĠĠĠ 2010Ġnian2Ġ
tu2 Ġzhong1Ġ
r an
Ġ f
kai1Ġ fang4
Ġ gai3
fa1 ĠdeĠ
Ġ d
Ġzhi1Ġ ming2Ġ
tai2Ġ bei3Ġ
zong3 Ġbu4Ġ
Ġsi1Ġ la1Ġ
xiang1Ġ dang1Ġ
b er
shi2 Ġwei4Ġ
ming2 Ġyi4Ġ
Ġ ci2Ġ
wei2 ĠdeĠ
ru2Ġ ci3Ġ
ĠĠĠ ji1Ġ
guan3Ġ li3
duo1 Ġnian2Ġ
Ġshi4Ġ zhang3Ġ
zi1Ġ xun4Ġ
jiang3Ġ xiang4Ġ
jin4 Ġshi4Ġ
14 Ġ
Ġyi1Ġ dai4Ġ
Ġchu1 Ġxian4Ġzai4Ġ
Ġsi1Ġ tan3Ġ
zhu3Ġ chi2Ġ
chang4Ġ pian4Ġ
xiong1Ġya2 Ġli4Ġ
zi4Ġ dong4Ġ
Ġren2Ġ shu4Ġ
Ġdan4 Ġta1Ġ
Ġ chuan2Ġ
o v
sai4 ĠdeĠ
tai2 ĠdeĠ
Ġdi4Ġ qiu2Ġ
xun4Ġ su4Ġ
t ou
ti2 Ġsheng1Ġ
fei1 Ġjian4Ġzhi4Ġ
shu4Ġ xue2Ġ
Ġyu2Ġ 197
Ġh kĠ
xi4Ġ ju4Ġ
Ġge4Ġ zhong3Ġ
xiang4Ġ mu4
Ġ 5Ġyue4Ġ
Ġwei4Ġ he2Ġ
Ġbing4 Ġli4Ġ
tui1Ġ dong4Ġ
7 5
Ġcheng2Ġwei2Ġ leĠ
niu3Ġ yue1Ġ
Ġyi4Ġ yuan4Ġ
fa1 Ġxing2
Ġshi4Ġ zhi3Ġ
te4 Ġli3Ġ
kang4 Ġri4Ġ
100 Ġ
Ġhe2Ġ xin1Ġ
Ġ tuo1Ġ
Ġjie2Ġ mu4Ġ
ĠĠĠ 2015
shou1 Ġlu4Ġ
jiao4 ĠdeĠ
zhan4Ġ dou4
lan2 Ġke4Ġ
hu ang1Ġ
wang2 ĠdeĠ
cai2 Ġzheng4Ġ
Ġnian2Ġ qing1
Ġzai4Ġ 19
Ġ da2Ġ
Ġji4Ġ zai3Ġ
sa4 Ġke4Ġ
ĠĠĠ 2013
zhuang4Ġ kuang4Ġ
Ġ 2019
Ġzhong1Ġ wen2Ġ
p ao3
12 Ġnian2Ġ
min2Ġ zhong4Ġ
jin4 Ġgong1Ġ
gao1Ġ du4Ġ
qi3 Ġyi4Ġ
Ġren2Ġ menĠ
wei1Ġ xie2Ġ
Ġ 2011
zhong4Ġ dian3Ġ
Ġ zhu1
Ġ ru4Ġ
lv4 Ġwei4Ġ
a b
le Ġta1Ġ
Ġhe2Ġ bing4Ġ
ĠĠĠ zhong1Ġguo2Ġ
zeng1Ġ zhang3Ġ
mang2 Ġ
can2 Ġ
Ġbu4Ġ duan4Ġ
Ġxi1Ġban1Ġ ya2
li4 Ġshi4Ġ
ye3 Ġbei4Ġ
sui1 Ġran2Ġ
fei1Ġjian4Ġzhi4Ġ di4Ġqu1Ġ
Ġ qian2
en3 Ġ
n uo2
Ġ ou1Ġ
tu2Ġshu1Ġ guan3Ġ
Ġ che1Ġzhan4Ġ
dou1 Ġhui4Ġ
Ġji2Ġ qi2
y e1Ġ
Ġ gui1Ġ
jing1Ġ shen2Ġ
a v
t or
Ġwei2Ġ qi2Ġ
xi4Ġtong3 ĠdeĠ
Ġ guang3Ġ
c Ġ
liang3 Ġren2Ġ
hai3 Ġdao4Ġ
ying2Ġ yun4Ġ
shang4Ġ shu1Ġ
min2Ġ zu2
ao4 Ġdi4Ġli4Ġ
18 Ġ
Ġda4Ġ lou2Ġ
Ġ e2Ġluo2Ġsi1Ġ
Ġshi4Ġ ji2Ġ
Ġhe2Ġ zhong1Ġ
ling3Ġdao3 Ġren2Ġ
ĠĠĠ f
jiang1 Ġxi1Ġ
liang3 Ġnian2Ġ
Ġsheng1Ġ huo2
Ġzhong1Ġguo2Ġ gong4Ġchan3Ġdang3Ġ
Ġyin1 Ġer2Ġ
yin1 Ġshi4Ġ
jie2Ġ hun1Ġ
mou3Ġ xie1Ġ
u m
pi3 Ġ
tai4Ġ yang2
can1Ġjia1Ġ leĠ
yue4 Ġzai4Ġ
Ġjin4Ġ ru4
Ġ chuang4Ġ
hua4 Ġwei4Ġ
jie2 Ġke4Ġ
ĠdeĠcheng2Ġ yuan2Ġ
A S
Ġ lv4Ġ
xi4Ġ bao1
Ġhe2Ġ cheng2Ġ
Ġji4Ġ suan4
Ġ jin3
ju4 ĠdeĠ
na4 Ġli3Ġ
Ġ zao4Ġcheng2Ġ
zhen3 Ġ
yin3Ġ fa1Ġ
Ġ 4Ġyue4Ġ
diao4Ġ cha2
shen1 Ġwei4Ġ
ju1 Ġzhu4Ġ
xia4Ġji4Ġ ao4Ġlin2Ġpi3Ġke4Ġyun4Ġdong4Ġhui4Ġ
Ġ ai1Ġ
40 Ġ
Ġ ruo4
Ġ quan2Ġguo2Ġ
sui4 Ġdao4Ġ
shi2Ġ jian1Ġ
yong4Ġ hu4Ġ
chang4Ġ pian4
m eng3Ġ
xiao4Ġ guo3Ġ
chan3Ġ sheng1ĠdeĠ
shuo1 Ġming2Ġ
Ġzheng4Ġ zhuang4Ġ
ĠĠĠzh Ġ
jiang1Ġ su1Ġ
Ġ fang1Ġ
Ġli3Ġ lun4Ġ
10 Ġnian2Ġ
Ġda4Ġ xing2Ġ
chan3Ġ pin3
fang3Ġ wen4Ġ
cu n4Ġ
Ġhuo4Ġde2Ġ leĠ
4 9
zhi2 Ġdao4Ġ
qu an3Ġ
sui1 Ġran2
Ġzhi1Ġ xia4Ġ
Ġzai4Ġ jia1Ġ
Ġzuo4Ġ pin3
Ġ man4Ġ
Ġ 00Ġ
ĠĠĠjia1Ġ zu2Ġ
lan2 Ġqiu2Ġ
you1 Ġshi4Ġ
Ġgong1Ġ ren2Ġ
pin3Ġ pai2Ġ
ĠC Ġ
Ġda4Ġ duo1Ġ
zhou1 ĠdeĠ
jie4 ĠdeĠ
hua2 Ġren2Ġ
Ġ li2Ġ
Ġ xu3Ġduo1Ġ
Ġ 2008Ġnian2Ġ
ji4 Ġshi2Ġ
Ġ 2005Ġnian2Ġ
xian3 ĠdeĠ
ao4Ġ yun4Ġhui4Ġ
Ġ 2011Ġnian2Ġ
Ġshi4Ġ ren2Ġ
zhan4Ġ dou4Ġ
jiao4Ġ wei2Ġ
su4 ĠdeĠ
Ġshi4Ġ zhen4
m a1Ġ
Ġ you3Ġshi2Ġ
Ġyue4Ġ nan2Ġ
Ġ hou4
Ġji2Ġ li4Ġ
Ġ bian4
chu ang2Ġ
bao4Ġ dao3Ġ
qu3 Ġde2
han2Ġ shu4Ġ
ao4Ġ men2Ġ
jin4Ġ ru4
ding4 ĠleĠ
Ġdan4Ġ you2Ġyu2Ġ
xiao3Ġ shuo1
wu3Ġ zhuang1Ġ
tiao2Ġ zheng3Ġ
Ġshi4Ġwei4Ġ leĠ
ma3 Ġsi1Ġ
xi2 Ġwei4Ġ
ju4Ġ li2Ġ
hui2Ġ ying4Ġ
Ġ sheng4
ĠĠĠ and
Ġyue4Ġ tai2Ġ
mei3Ġ shu4Ġ
6 5
zhong1 Ġwei4Ġ
you3 Ġbu4Ġ
yuan2 Ġzai4Ġ
ming4Ġ ling4Ġ
Ġ xiang3
jia1 Ġzhong1Ġ
wen2Ġ zi4Ġ
yun3Ġ xu3Ġ
jian4 Ġshe4Ġ
Ġdi4Ġ wu3Ġ
Ġ yang2
Ġ zhen4Ġ
jin1 ĠdeĠ
zhen1 Ġshi2Ġ
zhong1Ġ hua2Ġren2Ġmin2Ġgong4Ġhe2Ġguo2Ġ
xue2Ġ shu4Ġ
yin4 Ġdi4Ġ
xing1Ġ qi1Ġ
Ġ gan1Ġ
fei1Ġ lv4Ġ
Ġ xiao4Ġ
yi2Ġ chan3Ġ
ĠdeĠgong1Ġ zuo4Ġ
Ġzhi1Ġ hou4
2020Ġnian2Ġ mei3Ġguo2Ġren2Ġkou3Ġpu3Ġcha2ĠdeĠshu4Ġju4Ġ
ju3 Ġxing2
sh a4Ġ
fang2 Ġyu4Ġ
yi2Ġ min2Ġ
Ġlai2Ġ zi4Ġ
Ġ zuo3Ġ
ĠĠĠ 2025
qi a4Ġ
Ġzhou1 Ġnian2Ġ
shu4Ġ zi4Ġ
lie4Ġ biao3Ġ
ti2Ġ gao1Ġ
Ġ wang3Ġ
Ġshi4Ġ wei1Ġ
qu1Ġ yu4
Ġren4Ġ wu4Ġ
- -
Ġxian4 Ġyu2Ġ
ji1Ġ chang3Ġ
h o
yi3Ġ lai2Ġ
le Ġta1ĠdeĠ
hui4 Ġyuan2Ġ
hua4 Ġjia1Ġ
wa3 Ġer3Ġ
ji4Ġ lu4Ġ
Ġji1Ġ guan1Ġ
chu ang2
du1 Ġshi4Ġ
Ġshi2Ġ yi1Ġ
leĠ yi2Ġge4Ġ
3 3
g ong3Ġ
zh a2Ġ
deng3 Ġwei4Ġ
shu1 ĠdeĠ
Ġxi1Ġ la4
shan1Ġ mai4
Ġshi2Ġ qi1
shen1Ġ qing3Ġ
yao1Ġ qing3Ġ
jie1 Ġji2Ġ
duan4 ĠdeĠ
du1 Ġjiao4Ġ
Ġ co
ĠĠĠ zao3Ġnian2Ġ
ke4 Ġli3Ġ
Ġhe2Ġ xi1Ġ
d u3Ġ
zu3 Ġjian4Ġ
wu3Ġ tai2Ġ
liang3Ġ zhong3Ġ
shen2Ġ jing1Ġ
s a1Ġ
jing1 Ġli3Ġ
yan2 ĠdeĠ
de r
dong1 Ġji4Ġ
ying2 ĠdeĠ
hua1 Ġyuan2Ġ
yue1 Ġyou3Ġ
Ġjia1Ġ ru4
Ġ huang2
sheng1 Ġji2Ġ
mian4 Ġdui4Ġ
Ġ qi1
xia4 Ġyi1Ġ
Ġ 2018
Ġli4Ġ shi3
Ġshe4 Ġji2Ġ
Ġhe2Ġ lan2Ġ
Ġzhi4Ġ shi2Ġ
gao1Ġ deng3Ġ
fu4Ġ jin4Ġ
Ġzhi4Ġ li4Ġ
ai3 Ġ
Ġshi4Ġ da4Ġ
Ġsuo3 Ġyi3
fen3 Ġ
yuan2 Ġji2Ġ
ku ang2Ġ
mi3 ĠdeĠ
zi1Ġ jin1Ġ
Ġzi4Ġji3 ĠdeĠ
quan2Ġ mian4Ġ
Ġri4Ġ jun1Ġ
guan1Ġ xi4
ling3Ġ tu3Ġ
wan2Ġ quan2
Ġ shou4
mei3Ġ guo2ĠdeĠ
Ġ zhong1ĠdeĠ
ai1 Ġji2Ġ
Ġ 3Ġyue4Ġ
pi n1
jing1Ġ chang2Ġ
Ġ xu2
cheng1 Ġzuo4Ġ
Ġming2Ġchao2Ġ zheng4Ġzhi4Ġren2Ġwu4Ġ
a i
Ġren2Ġ lei4
jiu3Ġ dian4Ġ
Ġwo3Ġ menĠ
ĠĠĠ xin1Ġ
Ġzai4Ġ xi1Ġ
6 8
Ġ li
ĠĠĠ 2024
Ġji4Ġ zhe3Ġ
yong4Ġ zuo4Ġ
Ġshi4Ġyi1Ġ zhong3
wen2 Ġxian4Ġ
Ġren2Ġ min2
li3Ġ lun4Ġ
zheng4Ġ ming2Ġ
ru n4Ġ
nu3 Ġli4Ġ
Ġyuan2Ġ ming2Ġ
can1Ġ mou2
Ġzhong1Ġ yu2Ġ
Ġji1Ġ che1Ġ
Ġxiang1Ġ guan1Ġ
lu4 Ġjun1
jiao4Ġ lian4Ġ
Ġnian2Ġ dai4
dong4Ġ wu4
bian1 Ġhao4Ġ
Ġxian4 Ġhe2Ġ
Ġ jiao1Ġ
ĠĠĠ hou4Ġ
gui1Ġ ze2Ġ
ĠĠĠ you2Ġ
Ġyi4Ġ yi4Ġ
Ġjin4 Ġxing2
Ġguo2Ġ hui4Ġ
Ġgong1Ġ hui4Ġ
Ġyuan2Ġ gong1Ġ
Ġ z
ĠĠĠ ta1Ġ
nei4Ġ lu4Ġ
Ġcheng2Ġ xian4Ġ
qi4Ġ xiang4Ġ
wang2Ġ chao2
Ġnan2 Ġzhi4Ġ
zhao3 Ġdao4Ġ
Ġgong1Ġ chang3Ġ
lv3 Ġxing2Ġ
Ġfu4Ġ ze2
Ġdi4Ġyi1Ġ ci4Ġ
shou3Ġ du1Ġ
pai1 Ġ
t i1Ġ
Ġshi4Ġ hou4Ġ
you3 Ġzai4Ġ
25 Ġnian2Ġ
Ġ han2Ġguo2Ġ
sh eng2
tai4 Ġren2Ġ
Ġhe2Ġ gong1Ġ
zhu3Ġ chi2
bao3Ġ liu2Ġ
wen2 Ġyi4Ġ
wen2Ġ zhang1Ġ
zhi1Ġ jian1Ġ
Ġ cheng1Ġwei2Ġ
bei4 Ġshi4Ġwei4Ġ
ti2 Ġdao4Ġ
xia4Ġ ling4
fa3Ġ an4Ġ
Ġ zhuan3Ġ
Ġyi4Ġ fang1Ġmian4Ġ
Ġmei3 Ġnian2Ġ
Ġ xiao3
Ġ zhao1
tian1 ĠdeĠ
Ġyu2Ġ 194
zuo4Ġ yong4Ġ
qi3Ġ ye4
ke3Ġyi3 Ġzai4Ġ
ge2 Ġwei4Ġ
Ġnian2 Ġshi4Ġjie4Ġ
jin1Ġ shu3Ġ
shou3 Ġji1Ġ
bao3Ġ chi2
cai2Ġ liao4Ġ
kong1 Ġzhong1Ġ
zhu4 Ġli3Ġ
kong3 Ġbu4Ġ
Ġguo2Ġ fang2
dong1Ġ nan2Ġbu4Ġ
biao3Ġ mian4Ġ
bai2Ġ se4Ġ
tong1 Ġdao4Ġ
Ġshi2Ġ er4Ġ
qi2Ġzhong1Ġ yi1Ġzhong3Ġ
zuo4 Ġwei4Ġ
dai4 Ġli3Ġ
Ġbu4Ġ men2
e g
li4 Ġwei4Ġ
shu1 Ġji2Ġ
Ġer2 Ġcheng2Ġ
17 Ġ
p er
gu4Ġ wen4Ġ
t ong4Ġ
a li
yi3 Ġxia4Ġ
ju an4Ġ
da4Ġ lu4ĠdeĠ
xiang1Ġ guan1
yan3 Ġyi4Ġ
yin3Ġ qi3Ġ
Ġ 2016
ba2 Ġ
Ġzai4Ġ 198
jin4Ġ yi2Ġbu4Ġ
jiao4Ġ xue2Ġ
Ġzuo4Ġ wei2
wo3Ġ men
ĠĠĠI n
ji1 Ġhe2Ġ
ne Ġ
jing4 ĠdeĠ
Ġdao4Ġ da2Ġ
lao2Ġ dong4Ġ
Ġ sĠĠĠ
a ng
Ġzai4Ġ wei4Ġ
e st
tong1Ġ che1Ġ
zhu3 ĠdeĠ
Ġzai4Ġ 18
Ġyou3Ġ ji1Ġ
Ġfu4Ġ qin1Ġ
Ġ2001Ġnian2Ġ ren2Ġkou3Ġ
3 00
Ġhe2Ġ shi2Ġ
dao4 Ġlu4Ġ
hui4 Ġshi4Ġ
yi2Ġ zhi3Ġ
Ġbei3Ġ qi3Ġ
Ġ18 8
Ġ ying1Ġyu3Ġ
cheng2 Ġnian2Ġ
si3 Ġhou4Ġ
duo1 Ġren2Ġ
chang2 ĠdeĠ
zhao4Ġ kai1Ġ
4 4
a me
si1 Ġli4Ġ
Ġzhong1Ġguo2Ġ da4Ġlu4Ġ
ya4Ġli4Ġshan1 Ġda4Ġ
28 Ġnian2Ġ
Ġyi3Ġ bei4Ġ
bo1Ġ lan2
ceng2Ġ jing1
S T
Ġ wu4Ġ
Ġ 2007Ġnian2Ġ
liu2 Ġzai4Ġ
l ou4Ġ
ze2 Ġwei4Ġ
Ġping2Ġ mian4Ġ
ju1Ġ min2
zhu3 Ġli4Ġ
ni2 Ġke4Ġ
Ġta1 Ġwei4Ġ
Ġta1Ġ ye3Ġ
Ġ à
te4Ġ shu1Ġ
Ġ zhuan3
Ġ xuan1Ġbu4Ġ
Ġbu4Ġ bu4Ġ
Ġzhi1Ġ jian1
yin3Ġ qi3
S TĠ
Ġxian4ĠdeĠ yi2Ġge4Ġ
ku ang1Ġ
yao4Ġ wu4Ġ
zeng4 Ġ
da4 Ġwei4Ġ
yun4 Ġzuo4Ġ
ĠĠĠ w
ying3Ġ pian4
wu2Ġ fa3
lv4Ġ shi1Ġ
di4Ġ er4Ġ
A R
jiao1 Ġhui4Ġ
wei1 Ġji1Ġ
Ġxi1Ġ wang4
Ġ lao3Ġ
shou3 Ġge4Ġ
che1 ĠdeĠ
tui4 Ġchu1Ġ
Ġer2Ġ yan2Ġ
Ġxian4ĠdeĠ yi2Ġge4
5 00
Ġ zheng4
Ġ liang2Ġ
Ġsi1Ġ te4
Ġ chi4Ġ
yu2 Ġzai4Ġ
Ġke4 Ġcheng2Ġ
jiao4Ġ shi1Ġ
ji3 Ġge4Ġ
Ġyou3Ġ yi4Ġ
jin1 Ġhui4Ġ
fei1 Ġzhou1Ġ
xin1Ġjia1Ġ po1
Ġ fan3
ter Ġ
shi1Ġ fan4
Ġ du2Ġ
po 2Ġ
ĠdeĠ jia1Ġ
Ġ lei2Ġ
ĠĠĠ xia4Ġ
Ġ 10Ġ
bian4 Ġde2Ġ
Ġshi4Ġ jia1Ġ
Ġxi1Ġ si1Ġ
Ġcheng2Ġ xu4Ġ
jiang1 Ġhui4Ġ
guang3Ġ gao4Ġ
ãĥ »
dong1Ġ bei3Ġbu4Ġ
Ġdong1Ġ nan2Ġ
Ġer2Ġshui3Ġyu4Ġmian4Ġji1Ġwei4Ġ 0
Ã Ĺ
Ġguo2Ġ jia1ĠdeĠ
jin1Ġ pai2Ġ
da4 Ġdi4Ġ
Ġzhi4Ġ liao2Ġ
Ġ qiao2Ġ
ya4 Ġzhou1
sai4 Ġzhong1Ġ
bian1 Ġhao4
Ġshi4Ġ yu3Ġ
Ġhe2Ġ qi2Ġta1Ġ
bo1Ġ lan2Ġ
5 8
ĠĠĠ 2012
qi e1Ġ
ĠdeĠ zhi4Ġ
guo4Ġ qu4Ġ
Ġzhi1 Ġwei4Ġ
Ġbing4Ġ jiang1Ġ
3 2
ĠĠĠ 1
kang1 Ġxi1Ġ
Ġbu4Ġ de2
Ġyu2Ġ 196
ao4Ġda4Ġli4Ġ ya4Ġ
zhi2Ġ min2
huan1Ġ ying2Ġ
ben3 Ġdi4Ġ
bian1 Ġju4Ġ
zi4Ġ you2
dang1Ġ shi2ĠdeĠ
Ġ chao2Ġ
Ġcheng2Ġ ren4Ġ
Ġ 2021
nv3Ġ zi3
gou4Ġ zao4Ġ
zhuang1Ġ jia3Ġ
fang4Ġ qi4Ġ
tun2 Ġ
d a1
ju4 Ġhe2Ġ
fu2 Ġyi4Ġ
24 Ġnian2Ġ
Ġjin4Ġxing2Ġ leĠ
Ġnv3Ġ xing4Ġ
f f
Ġ hong2
suo3 Ġzai4Ġ
zhuang1 Ġshi4Ġ
60 Ġ
Ġyu2Ġ le4Ġ
huo4Ġde2Ġ leĠ
Ġ bi3
Ġqiu2 Ġyuan2Ġ
ĠĠĠ cheng2Ġ
ch ou1Ġ
ming2 Ġshi4Ġ
i2 Ġ
Ġer2Ġ gai1Ġdi4Ġ
jian4 Ġyi4Ġ
xian1 Ġsheng1Ġ
Ġbu4Ġ la1Ġ
yi4Ġ da4Ġli4Ġ
Ġ feng2Ġ
fa3Ġ yuan4
mu4Ġ biao1
wang2Ġ chao2Ġ
yan3Ġ chang4Ġ
Ġwei4Ġ you3Ġ
Ġ hen3Ġ
biao3Ġ da2
mao2 Ġze2Ġ
Ġ li3
Ġ guan1Ġyu2Ġ
xiao4 ĠdeĠ
sa4 Ġsi1Ġ
Ġyi1Ġ ji2Ġ
Ġbing4 Ġyu3Ġ
Ġda4Ġ lu4Ġ
Ġjian4Ġ zao4Ġ
pu2Ġtao2Ġ ya2
jia1Ġ ru4
H Ġ
luo2 Ġdi4Ġ
Ġwei4Ġ lai2Ġ
nan2Ġ jing1Ġ
a y
c tion
ĠĠĠ cong2Ġ
li4 Ġzai4Ġ
qing3 Ġqiu2Ġ
Ġjin4Ġ yi2Ġbu4Ġ
jin3 Ġji2Ġ
shou1 Ġshi4Ġ
Ġjia1Ġ zu2Ġ
que4 Ġren4Ġ
Ġjin4 Ġgong1Ġ
e v
xi1Ġban1Ġ ya2
p ao3Ġ
Ġ fang2Ġ
sa4 Ġer3Ġ
es Ġ
ji4Ġ xu4Ġ
guan1Ġ bi4Ġ
zhe3 Ġzai4Ġ
Ġshi4Ġ fou3
piao4Ġ fang2Ġ
Ġ 20
Ġ hui2Ġ
tan3 Ġke4Ġ
bo2Ġwu4Ġ guan3
l an4Ġ
ci4Ġ shi3Ġ
ĠdeĠ sheng1Ġ
Ġyi4Ġ mei3Ġyuan2Ġ
Ġji4Ġ shu4
Ġji1Ġ hu1Ġ
jing3Ġ fang1Ġ
huo3Ġ shan1Ġ
ye3 Ġhui4Ġ
Ġyue4Ġ tuan2Ġ
Ġta1Ġmen Ġzai4Ġ
Ġte4Ġbie2 Ġshi4Ġ
Ġ wei3Ġ
huo3 Ġjian4Ġ
mo4Ġxi1Ġ ge1Ġ
Ġ cheng1
bian1 ĠdeĠ
Ġsi1Ġ ke4Ġ
Ġ000 Ġ
bi3Ġli4Ġ shi2Ġ
zhan1Ġ mu3Ġsi1Ġ
â Ķ
jue2 Ġdui4Ġ
Ġri4Ġ jun1
gu3Ġ fen4
min2Ġzhu3Ġ dang3Ġ
tai4Ġping2Ġ yang2
tong2 Ġnian2Ġ
Ġshi4Ġ zheng4Ġ
Ġchu1Ġ sheng1Ġ
Ġqi1Ġ xi1Ġzai4Ġ
Ġ can1Ġ
Ġshi4Ġ ri4Ġben3Ġ
Ġyi3 Ġyou3Ġ
zhong3Ġ zu2Ġ
shen1Ġ ti3Ġ
kao3Ġ lv4
a ce
shang4Ġ wu3Ġ
Ġbei4Ġ ren4Ġwei2Ġshi4Ġ
guang3Ġdong1Ġ sheng3Ġ
Ġ guan1
wan4 Ġren2Ġ
ĠdeĠ zheng4Ġ
Ġ 30Ġ
ĠĠĠ jie2Ġzhi4Ġ
nei4 Ġyou3Ġ
wan2 Ġgong1Ġ
Ġzhi4Ġ cheng2Ġ
Ġda4Ġ yue1Ġ
Ġyuan2Ġ ben3Ġ
15 Ġnian2Ġ
min2Ġ jian1Ġ
Ġzhan4Ġ dou4Ġ
sen1Ġ lin2Ġ
Ġ xiang4
chang3 Ġhe2Ġ
geng4 Ġduo1Ġ
Ġzhi1Ġ ziĠ
fu4Ġ qin1
ba1Ġ li2
Ġzai4Ġ qi2Ġ
te4Ġ se4Ġ
hu2Ġ bei3Ġ
19 Ġnian2Ġ
gao1Ġ su4Ġ
ĠA Ġ
er4 Ġyue4Ġ
Ġren2Ġ men
Ġzhi1 ĠdeĠ
an1Ġ pai2Ġ
a te
Ġ xiu1Ġ
yong4Ġ tu2Ġ
qing2Ġ bao4Ġ
xi2Ġ xing4
Ġsi1Ġ tan3
mi4Ġ mi4Ġ
Ġ lie4Ġ
deng1 Ġshang4Ġ
Ġxian4Ġ chang3Ġ
dai4Ġbiao3 Ġda4Ġhui4Ġ
ĠĠĠ zeng1Ġ
wai4 Ġbu4Ġ
18 Ġnian2Ġ
Ġda4Ġ dao4Ġ
Ġfu4Ġ qin1
kao3Ġ lv4Ġ
xiao4 Ġyuan2Ġ
hai3Ġ an4Ġ
pai1 Ġshe4
meng2Ġ gu3
Ġyue1Ġ han4Ġ
e2Ġluo2Ġ si1
Ġ yong1Ġyou3Ġ
Ġyou3Ġ xian4Ġ
ï¼ ħ
zuo4Ġ zhan4Ġ
Ġ 2013Ġnian2Ġ
Ġyuan2Ġ su4Ġ
tai2Ġ feng1Ġ
Ġ 2015
nan2 Ġyi3Ġ
Ġshi4Ġ ye4Ġ
6 4
Ġda4Ġ duo1Ġshu4Ġ
p h
Ġ deng4
li2 Ġmi3Ġ
zhuang1 Ġbei4Ġ
h an3
Ġ tu3Ġ
mei3 Ġge4Ġ
tian1Ġ jin1Ġ
Ġta1 Ġyu2Ġ
Ġji1Ġ bai4
tu3Ġer3 Ġqi2Ġ
qian1 Ġzhi4Ġ
xing4Ġ qu4Ġ
âĶ Ģ
chang3 Ġdi4Ġ
27 Ġnian2Ġ
Ġshi2Ġ yan4Ġ
tian1Ġ jin1
long2Ġ jiang1Ġ
Ġying1Ġ wen2Ġ
Ġwei4Ġ xing1Ġ
xiang1Ġ dang1
jiao1Ġ liu2Ġ
qiong2 Ġ
Ġ xia4
dao3 Ġdan4Ġ
d o
neng2 Ġzai4Ġ
21 Ġnian2Ġ
Ġji2Ġ bei3Ġ
Ġyou3Ġ xie1Ġ
zhan4Ġ ling3Ġ
Ġchu1Ġ lai2Ġ
Ġwan4 Ġmei3Ġyuan2Ġ
Ġqing1Ġ chao2Ġ
ban4 Ġli3Ġ
22 Ġnian2Ġ
ma Ġ
Ġzhi1 Ġdao4Ġ
Ġ 2006Ġnian2Ġ
ch a4
Ġbu4Ġ zu2Ġ
Ġta1Ġ hai2Ġ
chuan2Ġ shuo1Ġ
3 Ġge4Ġ
Ġ jing1Ġji4Ġ
shang4 Ġdi4Ġ
ling3 Ġshi4Ġ
li3 Ġgong1Ġ
wei1 Ġer3Ġ
p i4
mu3Ġ qin1
ai1 Ġer3Ġ
chang2 Ġjian4ĠdeĠ
zhang4Ġ ai4Ġ
ma3Ġlai2 Ġxi1Ġya4Ġ
19 Ġ
13 Ġnian2Ġ
nong2Ġ ye4
Ġ zhong1Ġshi4Ġ
Ġyi4Ġ yuan4
guang3Ġ fan4
Ġbu4Ġ jiu3
Ġcheng2Ġ du4Ġ
Ġ he4Ġ
ĠĠĠ ming2Ġ
di4 Ġzai4Ġ
shu a1Ġ
ju4Ġ jue2Ġ
jin4Ġxing2Ġ leĠ
k ou4Ġ
xiu1 Ġzheng4Ġ
shou4 Ġdao4
gui4 Ġzhou1Ġ
an1Ġ quan2
ren4 Ġshi2Ġ
bo1Ġ fang4Ġ
hua2Ġ sheng4Ġ
wo3Ġ menĠ
p e
Ġ fei4
ch en4
ĠĠĠ 4
14 Ġnian2Ġ
xi3 Ġju4Ġ
Ġgong1Ġ zhu3Ġ
xi2Ġxing4 Ġbu4Ġming2Ġ
yin3Ġ qing2Ġ
Ġshi3 Ġjian4Ġyu2Ġ
ĠĠĠ 2
ĠĠĠ qi2Ġ
fa3Ġ guan1Ġ
Ġ 2013
Ġ ju4Ġyou3Ġ
Ġwei4Ġ ji1Ġ
Ġchu1Ġ qi1Ġ
Ġ kang1Ġ
ren4Ġming4 Ġwei4Ġ
sheng1 Ġcheng2Ġ
se Ġ
Ġji1Ġ hu1
xun1 Ġ
ĠĠĠ mei3Ġguo2Ġ
Ġzai4Ġ ci3
Ġzhan4Ġ dou4
Ġ tian1
Ġ gang3Ġ
ĠĠĠ xian4
Ġt un2
Ġ 7Ġ
wang3Ġ luo4
chuang4Ġ ban4
la1Ġ ding1
mian2 Ġ
Ġsheng1Ġhuo2Ġ xi2Ġxing4Ġbu4Ġming2Ġ
she4 Ġzhi4Ġ
zhu3 Ġshi4Ġ
ti2 Ġchu1
Ġyi4Ġ qi3
Ġqi2 Ġzai4Ġ
an1Ġ na4Ġ
cai3Ġ qu3Ġ
s an3Ġ
Ġ mo4
Ġ 2014
Ġhe2Ġ he2Ġ
6 7
zhi4 Ġzhong1Ġ
hen3 Ġda4Ġ
bao4Ġ fa1
Ġ gao1
Ġ can1Ġjia1Ġ
11 Ġnian2Ġ
Ġbu4Ġ luo4Ġ
9 9
Ġ pei4
hua4Ġhe2Ġ wu4Ġ
Ġ 2012Ġnian2Ġ
Ġer2Ġ bu2Ġshi4Ġ
k u3Ġ
Ġshi2Ġ dai4
quan2Ġ zhang3Ġ
ti2Ġgong1Ġ leĠ
Ġzui4Ġ gao1Ġ
bao4 Ġli4Ġ
29 Ġnian2Ġ
zhu3Ġ yi4ĠdeĠ
yan2Ġ shen1
Ġwo3Ġ men
Ġ ban4Ġ
Ġ chu3Ġyu2Ġ
ĠĠĠ li3Ġ
san1 Ġshi4Ġ
bian4 Ġwei4Ġ
Ġyi1Ġ xue2Ġ
shang4Ġ ying4Ġ
Ġtong1Ġ chang2
m an2
ji4 Ġshi4Ġ
shu1Ġ ru4Ġ
Ġ0 Ġ
Ġ pei4Ġ
jia1Ġli4Ġ fu2Ġ
Ġ jing1
Ġ gen1Ġju4
Ġyou3Ġ yi2Ġge4Ġ
Ġxian4Ġ xiang4Ġ
zi1Ġ chan3Ġ
Ġye3Ġ jiu4Ġshi4Ġ
zh ai1Ġ
zhi4 Ġbu4Ġ
fa3 Ġyu3Ġ
Ġzai4Ġ nei4ĠdeĠ
hai3Ġ wai4Ġ
zui4Ġ gao1
23 Ġnian2Ġ
Ġer2 Ġbu4Ġ
ling3Ġ xiu4Ġ
1 Ġli4Ġ
Ġ 30
sui4 Ġshi2Ġ
tui1 Ġjin4Ġ
ĠdeĠ fang1Ġshi4Ġ
ping2Ġ lun4Ġ
jia4Ġ ge2Ġ
ĠĠĠci3Ġ wai4Ġ
Ġ bai3Ġ
chuang4 Ġjian4Ġ
bin1 Ġhai3Ġ
shun4 Ġli4Ġ
an1Ġ zhuang1
s u2
Ġ bo2
dang1Ġ xuan3Ġ
Ġ 2017
ma3 Ġli3Ġ
lei2 Ġsi1Ġ
ruan3 Ġjian4Ġ
zheng4Ġ dang3Ġ
Ġyou2 Ġqi2Ġshi4Ġ
k ui4Ġ
yuan4 Ġshi4Ġ
Ġsheng1Ġ zhang3
xun2Ġ yang2
Ġxing2Ġ zheng4
f en2Ġ
wang3 Ġqiu2Ġ
Ġzai4Ġ du4Ġ
Ġ rui4Ġ
Ġsheng1Ġ chan3
lun4Ġ wen2Ġ
tu n1
Ġhe2Ġ bu4Ġ
fang1Ġ mian4ĠdeĠ
nv3Ġ xing4
Ġxiang4Ġ mu4Ġ
tou2Ġ zi1
p en1Ġ
ying4Ġ yong4
jiao4 Ġshi4Ġ
ying1 Ġli3Ġ
nu3 Ġ
ban3Ġ ben3
ge4Ġ zhong3Ġ
pai2Ġming2 Ġdi4Ġ
dian4Ġ zi
Ġ gong4Ġyou3Ġ
ze2 Ġren4Ġ
biao3Ġ da2Ġ
Ġ ge2
yu2 ĠdeĠ
bu2 Ġ
ren2Ġ da4Ġ
Ġde2 Ġer3Ġ
Ġhou4Ġ xuan3Ġren2Ġ
ju4Ġ le4Ġbu4Ġ
yi4 Ġnian2Ġ
bao4Ġ gao4
Ġbei3Ġ jing1Ġ
A M
Ġ mian4Ġ
jiu3Ġ long2Ġ
Ġdong1Ġ bei3Ġ
fan4Ġwei2Ġ nei4Ġ
Ġhe2Ġ da4Ġ
ling3 Ġdi4Ġ
Ġ ban1Ġ
ĠĠĠ qian2Ġ
zhe4 Ġli3Ġ
Ġshi4Ġ gu4Ġ
ĠĠĠju4Ġ qing2Ġ
k u1Ġ
ĠĠĠ xian4Ġ
xiang1 Ġshi4Ġdi4Ġ
Ġyu2Ġ ren2Ġ
Ġri4Ġ bao4Ġ
zhi2Ġ jie1
o s
xing2 Ġcheng2Ġ
fa1 Ġxing2ĠdeĠ
Ġ ju4
Ġ zhuang1Ġ
pai4 ĠdeĠ
Ġzhi4Ġ shao3Ġ
guo4Ġ qu4
Ġ hai3
Ġ gong4
e2 Ġguo2Ġ
shen2Ġ meĠ
du2Ġ li4ĠdeĠ
feng1 Ġwei4Ġ
Ġta1 Ġhe2Ġ
Ġyou3Ġ xiao4Ġ
Ġzhi1Ġ fu4Ġ
a st
he4 Ġer3Ġ
Ġzhong1Ġ bei4Ġ
guan1Ġ dian3Ġ
Ġli3Ġ lun4
chu1Ġ sheng1Ġyu2Ġ
o h
Ġji4Ġ suan4Ġ
t uo4Ġ
wen1 Ġdu4Ġ
jiu4Ġ du2
Ġling4 Ġyi1Ġ
Ġshi4Ġ xi1Ġ
ji4Ġ cheng2Ġ
bi3Ġ ya4
Ġ wo4
wei4 ĠĠĠ
ka3 Ġsi1Ġ
Ġyi1Ġ xiao3Ġshi2Ġ
Ġda4Ġ xi1Ġyang2Ġ
pai2Ġ hang2Ġ
Ġ xuan1Ġ
Ġnian2 ĠĠĠ
fang1Ġ yan2Ġ
ming2Ġ zi4Ġ
Ġdong1Ġ lin2Ġ
Ġ gang1Ġ
ĠĠĠ a1Ġ
Ġde2Ġ hua2Ġ
pu3Ġ bian4Ġ
jue2 Ġyi4Ġ
Ġzuo4Ġ jia1Ġ
dang3 Ġyuan2Ġ
chu1Ġ shen1Ġ
Ġ 2014Ġnian2Ġ
qu1 Ġyi4Ġhui4Ġ
Ġda4Ġ fu2Ġ
huan4 Ġcheng2Ġ
ĠĠĠC h
Ġ shou1Ġ
hong2Ġ se4Ġ
Ġjie2Ġ guo3
Ġ ta3Ġ
da4 Ġzhi4Ġ
xian4 Ġzhi4Ġ
la y
Ġchu1Ġ zhan4Ġ
jing1Ġ yan4Ġ
Ġbing4Ġ fei1Ġ
nei4Ġ ge2Ġ
zhong4Ġ duo1Ġ
ĠĠĠdi4Ġ fang1Ġ
Ġ hua2
Ġyu3Ġ mao2
de ĠĠĠ
Ġbing4 Ġbei4Ġ
Ġ yin2Ġ
qu1 Ġhe2Ġ
ma3 Ġer3Ġ
Ġyi1Ġ tong2Ġ
Ġzhong1Ġhua2Ġren2Ġmin2Ġgong4Ġhe2Ġguo2Ġ zheng4Ġzhi4Ġren2Ġwu4Ġ
Ġ kuan1
zuo4 Ġshi4Ġ
ru4Ġ xuan3Ġ
yi2Ġ du4Ġ
yun3Ġ xu3
han2 Ġyou3Ġ
Ġzai4Ġ ci4
tou2Ġ xiang2Ġ
ke1ĠdeĠ qi2Ġzhong1Ġyi1Ġzhong3Ġ
n e4
liang3 Ġming2Ġ
Ġgong1Ġ yi4Ġ
Ġxian4 Ġshi4Ġ
zhi1Ġ chi2
Ġ sai1Ġ
yi2Ġ ding4Ġ
zhong3Ġ ziĠ
dian3 Ġli3Ġ
dang4 Ġtian1Ġ
ying1Ġ wen2Ġ
Ġ huo3Ġ
ben3 Ġren2Ġ
cheng2Ġ yuan2Ġ
Ġyu2Ġ 195
e d
dou1 Ġzai4Ġ
zhi2Ġ dao3Ġ
jing3Ġ cha2
Ġ18 7
ya4 Ġjun1Ġ
Ġqi2Ġzhong1Ġ yi1Ġ
she4Ġ qu1Ġ
jiang4Ġ di1Ġ
ti c
ci4 ĠdeĠ
Ġshi4Ġ min2Ġ
zi4Ġ ran2
zhi1Ġ qian2Ġ
mi4Ġshu1Ġ zhang3Ġ
zheng4 Ġbu4Ġ
qi3Ġ dong4Ġ
tu1Ġ po4Ġ
she3 Ġ
ming2 Ġren2Ġ
suo3 ĠdeĠ
kou3 Ġwei4Ġ
tiao2 Ġli4Ġ
Ġ han4
pi n4Ġ
wu2 Ġzheng4Ġzhuang4Ġ
Ġxian4Ġ ren4Ġ
Ġwan4 Ġli4Ġ
xie3 Ġdao4Ġ
28 Ġ
shu4 Ġyu3Ġ
Ġshi4Ġ yu2Ġ
xi3Ġ huan1
fang3Ġ wen4
Ġ su1
xing1Ġ deng3Ġwei4Ġ
O S
Ġgong1Ġ min2Ġ
Ġbing4Ġ du2
n u2
Ġ 2012
zheng3Ġ ti3Ġ
gao1Ġsu4 Ġgong1Ġlu4Ġ
tuan2 ĠdeĠ
huang2 Ġhou4Ġ
gei3 ĠleĠ
26 Ġnian2Ġ
Ġshi4Ġ gong1Ġ
Ġji1Ġ jin1Ġ
jie2Ġ guo3
fan4Ġ zui4Ġ
hei1Ġ se4Ġ
l eng2
Ġ zu3Ġfu4Ġ
ĠĠĠ ji2Ġ
lu3 Ġsi1Ġ
Ġtong2 Ġyi4Ġ
jie4Ġ shao4Ġ
tiao2Ġ zheng3
Ġ yong4Ġyu2Ġ
Ġ sheng1Ġyu2Ġ
kai1Ġshi3 Ġzai4Ġ
Ġ qi1Ġjian1Ġ
yu an1Ġ
chi2 Ġyou3Ġ
gai4Ġ nian4
Ġ hu4Ġ
Ġgong1Ġ ju4Ġ
she4Ġ shi1Ġ
Ġ199 8Ġnian2Ġ
i v
ming2 Ġzhi4Ġ
bao3Ġ shou3Ġ
tou2Ġ piao4
gui4Ġ zu2Ġ
i k
u l
xia4Ġxia2 ĠdeĠyi2Ġge4Ġ
Ġ yan2
Ġ ping2Ġjun1Ġ
ban3 ĠdeĠ
W indow
Ġ qi3
shan1 Ġshi4Ġ
gu3 Ġdai4Ġ
wan2Ġ zheng3
lai2 Ġyue4Ġ
ni2 Ġer3Ġ
Ġming2Ġ dan1Ġ
dian4Ġ hua4Ġ
zhen4Ġ qu1ĠdeĠ
biao3Ġ yan3
ĠdeĠcheng2Ġ ji4Ġ
Ġ194 9Ġnian2Ġ
Ġji2Ġ ren2Ġ
hai3Ġ xia2Ġ
gai3Ġ ming2Ġwei4Ġ
Ġmei3 Ġge4Ġ
si3Ġ wang2
5 7
ĠĠĠ qi2Ġta1Ġ
sui2 Ġzhu4Ġ
ying1Ġ gai1Ġ
bo2Ġshi4Ġ xue2Ġwei4Ġ
g a1Ġ
yue4 Ġzhong1Ġ
you2 Ġji1Ġ
shan1 Ġji1Ġ
neng2Ġ liang4Ġ
zao3Ġ qi1
geng4 Ġwei2Ġ
Ġyi3Ġ ji2
zui4Ġ duo1Ġ
tai4Ġ ziĠ
dian4Ġ nao3Ġ
mu4Ġ qian2
Ġde2 Ġyu3Ġ
Ġbi3Ġ ru2Ġ
yang2 Ġshi4Ġ
or Ġ
Ġer2Ġ gai1Ġ
chang2Ġ wei3Ġ
Ġren2Ġmin2Ġ zheng4Ġfu3Ġ
© Ġ
shou4 ĠdeĠ
en1Ġ sheng3Ġ
tou4Ġ guo4
6 6
I n
Ġ dao3Ġ
Ġyi1Ġ zuo4Ġ
Ġxiang3 Ġnian2Ġ
wu2Ġzheng4Ġzhuang4Ġ gan3Ġran3Ġ
p u4
17 Ġnian2Ġ
Ġwei2Ġ er3
2 Ġge4Ġ
Ġ tian2Ġ
huo2 Ġyue4Ġ
35 Ġ
Ġxing2 Ġwei4Ġ
chang2Ġ wu4Ġ
que4Ġzhen3 Ġbing4Ġli4Ġ
xue2Ġ hui4Ġ
yao1Ġ qing3
n o
Ġbu4Ġ si1Ġ
an1Ġ hui1Ġ
Ġ pa4
Ġ 2015Ġnian2Ġ
ĠĠĠ 2011
ding4Ġ ju1Ġ
bao4Ġ zha4Ġ
ĠĠĠ gai1
ke4 Ġcheng2Ġ
duo1 Ġwei4Ġ
xiang1Ġ si4Ġ
ge1Ġ lun2Ġ
yi3Ġ jing1Ġ
kun4 Ġnan2Ġ
dan1 ĠdeĠ
long2 ĠdeĠ
ar Ġ
Ġbu4Ġ li4Ġ
fa1Ġ shou4Ġ
an1Ġ na4
Ġ xun2Ġ
ren4 Ġwei4Ġ
ti2 Ġji2Ġ
Ġri4 Ġyu2Ġ
Ġwei4Ġyu2Ġ zhong1Ġguo2Ġ
sai1Ġer3Ġ wei2Ġ
hui4 Ġzhong1Ġ
shou1 Ġji2Ġ
zuo4Ġ chu1Ġ
shi1Ġ bai4Ġ
ju4 Ġda4Ġ
ling4 Ġren2Ġ
Ġxi1Ġ jie1Ġ
zhu3Ġyao4 ĠdeĠ
ĠĠĠ 1Ġ
gong1Ġ cheng2Ġ
Ġli4Ġ fa3
l uan2
Ġcheng2Ġ ren2Ġ
Ġbing4Ġ du2Ġ
zu2Ġqiu2Ġ yun4Ġdong4Ġyuan2Ġ
li an3Ġ
xie3 ĠdeĠ
Ġ18 6
Ġtong2Ġshi2Ġ gai1Ġdi4Ġ
Ġ199 9Ġnian2Ġ
Ġ xi4Ġ
zh ui4Ġ
ai4 ĠdeĠ
ar i
Ġji1Ġ si1Ġ
Ġzui4 Ġchu1Ġ
bei1 Ġsi1Ġ
qiang2Ġ lie4Ġ
hui4 Ġzhi4Ġ
sheng3 ĠdeĠ
Ġhou4Ġ zhe3Ġ
Ġwen2Ġ hua4Ġ
er2 Ġtong2Ġ
nan2 ĠdeĠ
qu an1
Ġji1Ġ chang3
Ġde2Ġ zhu3Ġ
Ġzhe4Ġ zhong3
jie3Ġ san4Ġ
zhui1Ġ su4
gou4 ĠdeĠ
Ġyuan2Ġ xing2Ġ
nei4Ġlu4Ġ sheng3Ġfen4Ġ
Ġwan4 Ġyuan2Ġ
ke1Ġxue2Ġ jia1Ġ
m ao1Ġ
Ġ 2022
tu2 Ġxing2Ġ
Ġji2Ġ di4Ġ
guan1Ġ cha2Ġ
liu2Ġ xia4Ġ
bian1Ġ jie4Ġ
xin4Ġ yang3Ġ
5 Ġmi3Ġ
Ġ se
zhu2 Ġbu4Ġ
a ck
Ġ 2016Ġnian2Ġ
2025 Ġnian2Ġ
Ġdi4Ġ si4
ĠdeĠdi4Ġ er4Ġ
tao3Ġ lun4
jiang1 Ġzai4Ġ
ya4Ġ mei3Ġ
Ġzhu3Ġ xi2Ġ
jie3Ġ fang4Ġ
xun1 Ġzhang1Ġ
Ġ er4Ġshi2Ġ
shan1 ĠdeĠ
Ġke4 Ġxi1Ġ
fang1Ġ fa3
pi1Ġ zhun3
lian2Ġhe2Ġ hui4Ġ
Ġ Z
Ġ yao1Ġqiu2Ġ
chao1 Ġyue4Ġ
fu4Ġ ze2
que1Ġ fa2Ġ
t i1
jian3Ġ shao3
hai3 Ġping2Ġmian4Ġ
Ġguo2Ġ nei4Ġ
zhu3Ġ jiao4
xia4Ġling4 Ġshi2Ġjian1Ġ
I C
bu2 Ġdao4Ġ
Ġzai4Ġ 197
Ġli4Ġ liang4Ġ
h eng1Ġli4Ġ
Ġ na4
Ġ qu3Ġ
Ġ jiu4Ġshi4Ġ
Ġshi2Ġ qi1ĠdeĠ
fei1Ġ chang2
hui1Ġ fu4
Ġ 25
bei4 ĠdeĠ
fa1Ġ sheng1Ġzai4Ġ
zui4Ġ gao1ĠdeĠ
tan2Ġ pan4Ġ
z ong4
Ġji1Ġ hui4Ġ
lian2Ġ xu4
shuang1Ġ fang1Ġ
dong3Ġshi4Ġ zhang3Ġ
Ġ luo2
Ġ zhao4
guo4 ĠdeĠ
ti2 Ġyi4Ġ
shu1 Ġzhong1Ġ
202 6Ġnian2Ġ
Ġying1Ġ chi3Ġ
que1Ġ fa2
jing4Ġnei4Ġ gong4Ġyou3Ġ
A C
yi2Ġ ding4
ni2Ġya4 Ġzhou1Ġ
k u3
Ġ 8Ġ
Ġ heng2Ġ
xu4 Ġli4Ġya4Ġ
di1 Ġyu2Ġ
Ġxue2Ġ jia1Ġ
ĠĠĠbei4Ġ jing3Ġ
Ġzai4Ġ shi2Ġ
Ġyi1Ġ li4Ġ
Ġyi3Ġ wei2Ġ
zhu3Ġ yan3Ġ
tai2Ġ nan2
T V
qi ang3
16 Ġnian2Ġ
Ġhe2Ġ yue1Ġ
Ġgong1Ġ zhong4Ġ
ping2Ġ tai2Ġ
Ġer2Ġ ziĠ
san1Ġ jiao3
Ġ wan2Ġjia1Ġ
Ġ lai2
ĠĠĠ 17
xian4 ĠdeĠ
dang1 Ġzhong1Ġ
qin1 Ġzi4Ġ
Ġshi2Ġ xing2Ġ
ĠĠĠthe ĠĠĠ
jia1 Ġyi4Ġ
sui2 Ġji2Ġ
Ġshi4Ġ yin1Ġwei4Ġ
7 8
g h
hui4Ġyi4Ġ yuan2Ġ
D TĠ
Ġ jiu3
zi4 ĠdeĠ
Ġyou3Ġ suo3Ġ
ĠĠĠdi4Ġfang1Ġ zi1Ġliao4Ġ
ping2 Ġwei4Ġ
Ġhou4Ġ bei4Ġ
fa1Ġ qi3Ġ
Ġjiao4Ġ yu4Ġ
Ġxi1Ġban1Ġ ya2Ġ
s eng1Ġ
lan2 ĠdeĠ
na2 Ġxia4Ġ
Ġxue2Ġ yuan4
pai4Ġ qian3
n u
ĠĠĠ jian3Ġjie4Ġ
ni ang2Ġ
nan2Ġ bei3Ġ
bei3Ġjing1 Ġshi4Ġ
Ġ yue1
jie2 ĠdeĠ
Ġta1Ġceng2 Ġdai4Ġbiao3Ġ
e w
li3 Ġhe2Ġ
di2 Ġshi4Ġ
la Ġ
Ġchu1Ġ kou3Ġ
duo1Ġ zhong3Ġ
neng2 Ġyuan2Ġ
Ġxian4Ġ fa3Ġ
ĠC h
g ou3Ġ
s ang4
le Ġzai4Ġ
Ġbu4Ġ shao3Ġ
Ġdi4Ġ li3Ġ
tai2 Ġzhong1Ġ
Ġcheng2Ġ zhen4Ġ
jia4Ġ shi3Ġ
Ġshi2Ġji4Ġ shang4Ġ
k e2Ġ
Ġzheng4Ġ ming2Ġ
liao2Ġ ning2Ġ
mo4Ġxi1Ġ ge1
di2 Ġren2Ġ
zhuan3 Ġxiang4Ġ
E R
ceng2 Ġwei4Ġ
xuan3 Ġzhong1Ġ
Ġyi3Ġ xi1Ġ
jie1Ġ chu4Ġ
A N
Ġ ti2Ġgong1Ġ
pai4 Ġchu1Ġ
zhi3Ġ dao3Ġ
feng1Ġ xian3Ġ
gai3Ġ bian4
Ġzhong1Ġguo2Ġren2Ġmin2Ġ jie3Ġfang4Ġjun1Ġ
Ġ sun1Ġ
dian4Ġ nao3
r ao4
ji1Ġ gou4Ġ
5 9
Ġ xiang3Ġ
ti2 Ġchu1ĠdeĠ
gan4 Ġbu4Ġ
tui4Ġ xiu1Ġ
Ġ wa3Ġ
Ġdi4Ġ yi2Ġge4Ġ
Ġyi4Ġ qing2Ġ
Ġda4Ġxue2 ĠdeĠ
hai3Ġba2 Ġwei4Ġ
lei3 Ġji4Ġ
Ġli4Ġ yi4Ġ
Ġzhong1Ġgong4 Ġzhong1Ġyang1Ġ
5 6
a tion
Ġ xie2Ġ
Ġ kong3Ġ
Ġ 2017Ġnian2Ġ
qi ao3Ġ
shang1 Ġren2Ġ
biao1 Ġben3Ġ
kai1Ġ tong1Ġ
suo3Ġ cai3Ġyong4
zhi3Ġ neng2Ġ
shen1Ġ du4Ġ
ying1Ġ xiong2Ġ
xiu1Ġ gai3Ġ
mei3 Ġzhou1
zan4 Ġshi2Ġ
Ġdi4Ġ qi1Ġ
Ġ ziĠ
g ao3
n d
kai1 Ġshe4Ġ
ying1Ġ ge2Ġlan2
ĠdeĠshi4Ġ jie4Ġ
qiang2Ġ diao4Ġ
tao2Ġ tai4Ġ
nong2Ġ min2Ġ
hua4 Ġzhong1Ġ
15 0
que4 ĠdeĠ
chuan2Ġ bo1Ġ
3 2Ġ
Ġde2 Ġming2Ġ
guan1Ġ cha2
m an
ĠĠĠ yin1Ġ
shui3 Ġli4Ġ
Ġzhong1Ġ guo2ĠdeĠ
I I
fa1 Ġming2Ġ
rong2 Ġhe2Ġ
Ġ shu3
Ġ dian4Ġying3Ġ
ĠdeĠ xing2Ġ
chang3Ġ suo3Ġ
jiu4Ġ du2Ġ
wu1 Ġsi1Ġ
zi1Ġ ben3Ġ
N B
Ġ shuo1Ġ
ban4Ġshi4Ġ chu4Ġ
jue2 Ġshi4Ġ
xiu1 Ġjian4Ġ
zhang1Ġ zhuan1Ġji2Ġ
chai1Ġ chu2Ġ
Ġ 2018Ġnian2Ġ
jing4 Ġji4Ġ
Ġqi2 Ġwei4Ġ
Ġbei3Ġ jing1
ĠĠĠ 2Ġ
wen2 ĠdeĠ
shang1Ġ ye4
a1Ġla1Ġ bo2
dian4 Ġji1Ġ
ju3Ġban4 ĠdeĠ
pei4 Ġzhi4Ġ
Ġju4Ġ jue2Ġ
xiao1Ġ fei4Ġ
qu1 Ġshi4Ġ
qi1 Ġwei4Ġ
wei2Ġ si1Ġ
an1Ġ pai2
wu3Ġ zhuang1
tai4Ġ du4Ġ
fu4Ġ zhu3Ġren4Ġ
zi1Ġ liao4
w a2Ġ
diao4Ġ kuai4
qi ao4Ġ
fu2 ĠdeĠ
Ġzhong1Ġ shan1Ġ
Ġyu3Ġ qi2Ġta1Ġ
jing4Ġ xuan3Ġ
cheng2 Ġhe2Ġ
ge2Ġ la1Ġ
Ġci4 Ġnian2Ġ
wang2 Ġshi4Ġ
jiu4 Ġhui4Ġ
zao4 ĠleĠ
Ġwei4Ġ UTCĠ
Ġc nĠ
hou4 Ġwei4Ġ
shou3 Ġzhong1Ġ
e dĠĠĠ
ĠĠĠ dui4Ġ
qiu2 Ġji4Ġ
Ġming2 Ġzhi4Ġ
luo2 Ġli3Ġ
liu4 Ġshi2Ġ
Ġyin1Ġ su4Ġ
ke1Ġxue2Ġ yuan4Ġ
diao4Ġkuai4 Ġyi1Ġxiao3Ġshi2Ġ
Ġ cha2Ġ
Ġbu4Ġ ji2Ġ
Ġda4Ġ jiang3Ġ
Ġ wan2Ġ
suo3 Ġzai4Ġdi4Ġ
da2 Ġer3Ġ
Ġbu4Ġ dui4
Ġji2Ġ UTCĠ
zu3Ġzhi1 ĠdeĠ
she4Ġyou3Ġ xia4Ġling4Ġshi2Ġjian1Ġ
ĠdeĠshi2Ġqu1Ġwei4Ġ UTCĠ
Ġer2Ġgai1Ġdi4Ġ suo3Ġcai3Ġyong4
Ġtong2Ġshi2Ġgai1Ġdi4Ġ she4Ġyou3Ġxia4Ġling4Ġshi2Ġjian1Ġ
Ġer2Ġgai1Ġdi4Ġsuo3Ġcai3Ġyong4 ĠdeĠshi2Ġqu1Ġwei4ĠUTCĠ
Ġgai1Ġ cun1Ġ
shuai4Ġ ling3
6 9
lu4 Ġzhi4Ġ
jiao4Ġ tang2
Ġyi1Ġsi1Ġ lan2Ġ
s p
Ġ ni3Ġ
ti3 Ġzhi4Ġ
yuan2Ġ zhu4Ġ
Ġling4 Ġyou3Ġ
Ġ dong4Ġ
Ġ 2004Ġnian2Ġ
ci4 Ġyu2Ġ
lu an3Ġ
Ġfu4Ġ jin4
zhi1Ġ jian1ĠdeĠ
Ġ an1
Ġ ying2Ġ
ĠĠĠ jiao1Ġtong1Ġ
mu4 ĠdeĠ
Ġhao4 ĠdeĠ
Ġli4Ġshi3Ġ shang4Ġ
gao1Ġyu2Ġ hai3Ġping2Ġmian4Ġ
ĠĠĠ qing1Ġ
ti e1
hu4 Ġxiang1Ġ
zhu2 Ġjian4
Ġgong1Ġ jue2Ġ
Ġxi1Ġ lan2Ġ
Ġ rong2Ġ
Ġ 2019Ġnian2Ġ
sui4 ĠdeĠ
Ġshi2Ġ wu4Ġ
Ġtong2Ġ yang4
ta1Ġmen ĠdeĠ
ĠĠĠ 190
shang4 Ġxian4Ġ
zhe3 Ġshi4Ġ
Ġqi2Ġ xia4Ġ
chu4ĠdeĠ hai3Ġba2Ġwei4Ġ
chu4ĠdeĠhai3Ġba2Ġwei4Ġ gao1Ġyu2Ġhai3Ġping2Ġmian4Ġ
ĠĠĠ i
Ġwei4Ġ da4Ġ
Ġbu4Ġ jin3Ġ
xiang4Ġ zheng1Ġ
yi2Ġ dai4Ġ
Ġma3Ġ lai2
O N
bi4Ġ ye4Ġhou4Ġ
fa1 Ġshe4
ping2 Ġyuan2Ġ
zhong4 Ġshi4Ġ
Ġzi4Ġ ran2Ġ
qian1Ġ shu3Ġ
ĠdeĠ ying3Ġxiang3Ġ
Ġhe2Ġ pan4Ġ
dian4Ġ qi4Ġ
b Ġ
zhu4 Ġyou3Ġ
nan2Ġ jing1
zhang3Ġ da2Ġ
4 Ġge4Ġ
8 8
fa1 Ġxian4ĠdeĠ
xing4 Ġwei4Ġ
Ġzhi1 Ġyi4Ġ
Ġqi2 Ġshi2Ġ
xiao4Ġ qu1Ġ
ĠĠĠ ma3Ġ
ke3 Ġzai4Ġ
Ġer3Ġ duo1Ġ
yan2Ġ se4Ġ
shan1Ġ feng1Ġ
.. .
l ang4
nei4 Ġdi4Ġ
er4 Ġji2Ġ
Ġyu2Ġ le4
wei2Ġ er3Ġ
Ġ ying1
ren4 ĠdeĠ
luo4 Ġcheng2Ġ
shi2Ġ qu1Ġ
jian4 Ġcheng2Ġ
deng3 Ġji2Ġ
26 Ġ
geng1 Ġxin1Ġ
zhi2Ġ zheng4Ġ
yun4Ġ shu1
yun4Ġ yong4Ġ
Ġyi1Ġ jia1Ġ
Ġer2Ġ tong2Ġ
jin1Ġ rong2Ġ
ĠĠĠ ran2
Ġli4Ġ ren4Ġ
jing1Ġ chang2
Ġwei4Ġyu2Ġ gai1Ġ
ge2 Ġshi4Ġ
bang4 Ġqiu2Ġ
7 9
z Ġ
hou4 Ġyi4Ġ
Ġzuo4Ġ chu1Ġ
bao3Ġ liu2
ru2Ġ guo3Ġ
Ġsui2 Ġzhu4Ġ
Ġxue2Ġ zhe3Ġ
xia2Ġ qu1Ġ
ĠĠĠ ben3
bao1 Ġwei2Ġ
xin4Ġ yang3
chong2Ġ qing4
Ġ199 7Ġnian2Ġ
xue2 Ġyuan2Ġ
shu4 Ġshi2Ġ
Ġbu4Ġ neng2
dong1Ġ fang1Ġ
shou1Ġ gou4Ġ
cuo4Ġ wu4Ġ
ma3 Ġke4Ġ
ig h
Ġ tao2Ġ
ji4Ġ nian4
Ġran2 Ġer2
zhi2Ġ min2Ġ
zhen4Ġqu1ĠdeĠ mian4Ġji1Ġwei4Ġ
Ġsheng1Ġ ya2Ġ
fu1Ġ ka3Ġ
Ġ liu4Ġ
bo1 Ġsi1Ġ
Ġdui4Ġ shou3Ġ
Ġxing2Ġzheng4Ġ qu1Ġ
Ġzhou1Ġ ci4Ġshi3Ġ
hai3Ġ yang2Ġ
Ġjie2 Ġke4Ġ
shi3 Ġjian4Ġyu2Ġ
Ġdi4Ġ qiu2
Ġyuan2Ġ zi4Ġ
gao1Ġ xiong2
zao4Ġ cheng2ĠdeĠ
ĠĠĠ qi2
ze2 Ġzai4Ġ
dang1Ġ di4ĠdeĠ
ju2 ĠdeĠ
45 Ġ
Ġta1 Ġyi3Ġ
zhu3Ġ zhang1Ġ
Ġ Y
Ġ shi1
Ġ kai3
jia1 Ġyi3Ġ
bian1 Ġyuan2Ġ
ĠdeĠ xi1Ġ
Ġqi2Ġzhong1Ġ bao1Ġkuo4Ġ
Ġwei4Ġfu2Ġqi2Ġyu2Ġ gang1Ġ
I S
a sĠĠĠ
ao4 Ġzhou1Ġ
gong1Ġ gong4Ġ
zhi2Ġ wu4
ĠdeĠbu4Ġ fen4Ġ
ji4 Ġyou3Ġ
mian4 Ġshang4Ġ
Ġli3Ġ xi1Ġ
liang3Ġ ci4Ġ
n i1
s o
er4 Ġren2Ġ
Ġyi1Ġ ju4Ġ
jing4Ġ zheng1Ġ
xiao1Ġ shi1Ġ
lai2 Ġyin1Ġ
qi4Ġ che1
tian2Ġ jing4Ġ
Ġ lv3Ġ
dui4 Ġqi2Ġ
ping2Ġ lun4
Ġ199 4Ġnian2Ġ
s ao3Ġ
tu1 Ġran2Ġ
re Ġ
Ġzai4Ġ 196
yi4Ġ shu4Ġ
ling4Ġ yi2Ġge4Ġ
jiang4Ġ ling3Ġ
xuan1Ġ chuan2
d an3Ġ
Ġ reng2
gu a4
te4Ġ ding4Ġ
4 00
jun4 Ġgong1Ġ
al ĠĠĠ
Ġde2 Ġzhi1Ġ
Ġji1Ġ jin1Ġhui4Ġ
cai2Ġ neng2Ġ
xiao4Ġli4Ġ yu2Ġ
T ub
Ġ yong4
hun1 Ġyin1Ġ
guo2Ġ jia1
Ġ199 2Ġnian2Ġ
i d
zhan4 Ġshi2Ġ
Ġwei4Ġ dui4Ġ
Ġji2Ġ da4Ġ
gai3Ġ zao4Ġ
li2Ġ kai1
Ġ mei2
Ġzhi4Ġ liang4Ġ
bei4Ġ jing3Ġ
Ġli3Ġ ya4Ġ
yan2Ġ hai3Ġ
ka3Ġ luo2Ġ
wei3Ġyuan2Ġhui4Ġ wei3Ġyuan2Ġ
da4 Ġbu4Ġ
guan1 Ġjian4Ġ
shu1Ġ yuan4Ġ
ai4Ġer3Ġ lan2Ġ
liang3 Ġguo2Ġ
ban4 ĠdeĠ
zhi2Ġmin2 Ġdi4Ġ
Ġ cha2
Ġ sun1
Ġ 2Ġyue4Ġ
ĠĠĠ sheng4Ġ
ĠĠĠ jin3Ġ
jin4 Ġbu4Ġ
quan2 Ġqiu2
Ġdang1Ġ shi2ĠdeĠ
Ġ zheng1Ġ
jiao4 Ġda4Ġ
Ġ ba3
Ġji1Ġ du1Ġ
dian3 Ġshi4Ġ
pei4 Ġyin1Ġ
Ġshi2Ġ duan4Ġ
Ġzhi4Ġ zuo4ĠdeĠ
jing1Ġ shen2
Ġt ang1Ġ
ping2 ĠdeĠ
san1 Ġming2Ġ
a1Ġla1Ġ bo2Ġ
Ġqi2 ĠdeĠ
Ġ lu3Ġ
bei3 Ġshi4Ġ
tui1 Ġchu1
zheng4Ġ ju4Ġ
Ġ199 6Ġnian2Ġ
xin1 Ġcheng2Ġ
Ġxian4 Ġyi3Ġ
Ġjian4 Ġshe4
ĠĠĠ nan2Ġ
kao4 Ġjin4Ġ
Ġji1Ġ chu3
hu4Ġ lian2Ġ
ĠĠĠT he
man3Ġ zu2Ġ
liang3 Ġwei4Ġ
al l
da4Ġ lu4
Ġsi1Ġ ke4
chuan2Ġtong3 ĠdeĠ
Ġ xie4Ġ
Ġyi4Ġ yu2Ġ
zhu4Ġ zhai2Ġ
shou3Ġ xiang4Ġ
chang2Ġ du4Ġ
Ġ zheng4Ġzhi4Ġ
zui4 Ġchu1
Ġdi4Ġ dian3Ġ
hui4Ġ zhang3Ġ
zai1Ġ pei2Ġ
Ġ 24
Ġ 2023
Ġ 2002Ġnian2Ġ
ce4Ġ liang2Ġ
Ġluo2Ġ ma3Ġ
1 Ġge4Ġ
7 7
A P
Ġbu4Ġ bing1Ġ
Ġli4Ġ shi2Ġ
zi4Ġ mu3Ġ
xiang1Ġ guan1ĠdeĠ
Ġju4Ġ li2
bo1Ġ li2Ġ
ting2Ġ che1Ġ
zhen4 ĠdeĠ
xiu1 Ġfu4Ġ
Ġbing4Ġ you2Ġ
la1 Ġji1Ġ
bo1 Ġshi4Ġ
Ġshi4Ġ yi1Ġbu4Ġ
Ġde2 Ġsi1Ġ
shan1Ġ qu1Ġ
cun1Ġ luo4Ġ
mian3Ġ dian1
zu2Ġqiu2 Ġju4Ġle4Ġbu4Ġ
li3 Ġcheng2Ġ
nei4 Ġzhan4Ġ
te Ġ
sheng1Ġ ya2
Ġqian2Ġ wang3Ġ
Ġshan1Ġ dong1Ġ
Ġguo2Ġwu4Ġ yuan4Ġ
qi3 Ġyuan2Ġ
Ġdi4Ġ tie3
dui4Ġ zhang3Ġ
jie1Ġ duan4
ju1Ġ zhu4Ġzai4Ġ
Ġbu4Ġbu4Ġ zhang3Ġ
u Ġ
lian2 ĠdeĠ
zu i3
Ġda4Ġ lou2
Ġ dan1
ng ĠĠĠ
bing4 Ġbu4Ġ
Ġdi4Ġ dai4Ġ
Ġshi4Ġ de2Ġguo2Ġ
b aĠ
fu4 Ġhe2Ġ
wei3 Ġfu4Ġ
Ġwei2Ġ chi2
tian1Ġ ti3Ġ
Ġyu4Ġ shi3Ġ
3 3Ġ
Ġ 2021Ġnian2Ġ
Ġhe2Ġ dao4Ġ
quan2 Ġxian4Ġ
Ġyi3Ġ wai4Ġ
Ġwei2Ġ si1Ġ
fen4Ġ zi3
tuan2Ġ ti3
ĠĠĠdi4Ġ er4Ġ
e a
Ġ 23
dou1 Ġbei4Ġ
Ġyu3Ġ yan2
Ġcheng2Ġ ke4Ġ
Ġzhou1Ġ fu3Ġ
jiao1Ġ liu2
Ġfu2Ġ wu4Ġ
fu2 Ġli4Ġ
xing4 Ġhe2Ġ
lang2 Ġzhong1Ġ
Ġxing2Ġ mu4Ġ
fa1Ġ qi3
dian4Ġshi4Ġ tai2
zhi2Ġye4Ġ sheng1Ġya2Ġ
wu2Ġzheng4Ġzhuang4Ġgan3Ġran3Ġ zhe3Ġ
bai3 Ġnian2Ġ
luo4Ġ fa2
You Tub
zh ai2
Ġzhi4Ġ di4Ġ
pu2Ġtao2Ġ ya2Ġ
Ġ liu4
li u3Ġ
ji1 Ġzai4Ġ
xi1 Ġhe2Ġ
suo3 Ġwei4Ġ
chu i1Ġ
fu1 ĠdeĠ
Ġyu3Ġ yi1Ġ
Ġ199 3Ġnian2Ġ
Ġ 100
xie3 Ġzuo4Ġ
meng4 Ġjia1Ġ
jian1Ġ du1Ġ
mu3 ĠdeĠ
jia3 Ġdi4Ġ
te4Ġ xing4Ġ
shi1Ġ qu4
Ġwei4Ġyu2Ġ mei3Ġguo2Ġ
Ġ r
Ġ tang2
ou3 Ġxiang4Ġ
wu4 Ġshi4Ġ
27 Ġ
Ġ ku4Ġ
Ġxian4 Ġji2Ġ
ling2Ġ chen2Ġ
bi an3
dong1Ġ bei3
deng3Ġ deng3Ġ
Ġzui4 Ġjia1Ġ
c an3Ġ
Ġ 2000Ġnian2Ġ
zhe4 Ġshi4Ġ
liang4 Ġwei4Ġ
zong1 Ġyi4Ġ
Ġyi1Ġ yuan4
Ġli3Ġ ke4Ġ
kong1Ġ qi4Ġ
Ġwu2Ġ fa3Ġ
ĠĠĠ ge4Ġren2Ġ
50 Ġnian2Ġ
tou4 Ġlu4Ġ
zhuan4 ĠdeĠ
kua4 Ġ
kao3 Ġshi4Ġ
yin4Ġ ni2Ġ
Ġ xu1Ġ
xi1 Ġdi4Ġ
zong3 Ġren2Ġkou3Ġ
zhu3Ġyi4Ġ zhe3Ġ
Ġ 2008
Ġ fa1Ġxian4Ġ
ĠĠĠ 10
su1Ġ ge2Ġlan2Ġ
zhuan1Ġ ye4
hun2 Ġ
na4 ĠdeĠ
zuo4Ġ wei2
ĠĠĠP ro
Ġ lian2Ġhe2Ġ
ĠĠĠ 2008
gu3 Ġli4Ġ
guo4Ġ du4Ġ
fan3Ġ hui2
Ġ194 5Ġnian2Ġ
Ġsi1Ġling4 Ġbu4Ġ
Ġ 2009
qi1 Ġshi2Ġ
wu3 Ġshi4Ġ
ao4Ġ men2
Ġfu2 Ġjian4Ġ
B C
ar k
shao4Ġ nv3Ġ
l l
Ġdi4Ġ liu4Ġ
Ġxian4 Ġcheng2Ġ
jian1Ġ yu4Ġ
guang3Ġ chang3
guan3Ġli3Ġ ju2Ġ
ĠĠĠ ren2Ġ
zou3 Ġxiang4Ġ
Ġzai4Ġ he2Ġ
jian1Ġ ren4Ġ
e m
Ġ nuo4Ġ
Ġyuan2Ġ ben3
Ġzuo4Ġ zhan4Ġ
k an3
che1 Ġdui4Ġ
Ġer2Ġ fei1Ġ
guo2 Ġshi4Ġ
eng4 Ġ
yan2 Ġzhi4Ġ
jiu4 Ġyuan2Ġ
hu4 Ġbu4Ġ
wa3 Ġer3Ġsheng3Ġ
zhong1Ġ yang1Ġ
Ġchu1 Ġdao4Ġ
Ġnian2Ġ1Ġyue4Ġ 1Ġri4Ġ
f Ġ
shou1 Ġdao4Ġ
mai4 Ġke4Ġ
shi3Ġ shang4Ġ
fa1Ġ dong4Ġji1Ġ
gai3Ġ shan4Ġ
guan3 Ġzhi4Ġ
hui2 Ġyi4Ġ
Ġgong1Ġ li3ĠdeĠ
si4 ĠdeĠ
tian1 Ġhou4Ġ
Ġer3 Ġshi4Ġ
mian3Ġ fei4Ġ
hong1Ġ zha4
7 6
t ai1Ġ
Ġ za2Ġzhi4Ġ
shi3 Ġren2Ġ
yan2 Ġren2Ġ
guo4 ĠleĠ
xian3 Ġzhu4Ġ
huai4 Ġ
Ġwei4Ġ yuan2Ġ
guo2Ġ wu4Ġ
che1Ġ xiang1Ġ
wang4Ġ yuan3Ġ
9 8
Ġ e4Ġ
shou3Ġ du1
Ġshi2Ġyan4 Ġshi4Ġ
Ġ sai4Ġ
du4 Ġhe2Ġ
xiu1 Ġdao4Ġ
si Ġ
cu4 Ġjin4Ġ
Ġyi4Ġ jian4Ġ
Ġda4Ġ gong1Ġ
ge2Ġ li2Ġ
chong1Ġ tu1
5 4
Ġ qin1Ġ
jiang1 Ġyu2Ġ
bei4Ġ cheng1Ġwei2Ġ
d uo3
i ch
Ġ yi2Ġge4
jia1Ġ ting2Ġ
dong1Ġ jing1
xun2Ġ zhao3
Ġ xian1
Ġ yun2Ġ
ĠĠĠ yue4Ġ
Ġdi4Ġ fang1
Ġfu4Ġ jin4ĠdeĠ
luo4Ġ shan1Ġji1Ġ
Ġ ding4Ġ
ĠĠĠ chu1Ġ
ĠĠĠ dang1Ġ
zhu a1Ġ
Ġji2Ġ shi3Ġ
yin3Ġ yong4Ġ
hen3Ġ kuai4Ġ
xi3Ġ huan1Ġ
bi4 ĠdeĠ
jiao3 Ġdu4Ġ
zuo3 Ġyi4Ġ
Ġcheng2Ġ ben3Ġ
wei2Ġ zhu3Ġ
fei4Ġ chu2Ġ
Ġ bing1Ġ
Ġ yi4Ġshi4Ġ
ao4 Ġer3Ġ
di4 Ġhe2Ġ
Ġdi4Ġ tu2Ġ
Ġxing2Ġ dong4
il l
ĠĠĠ 16
xiang1 Ġshi4Ġ
yuan4 Ġyi4Ġ
Ġyue4Ġ dui4Ġ
Ġjun1Ġ qu1Ġ
kong1Ġ jian1
Ġ ge1
Ġ neng2Ġ
ĠĠĠ co
she4 Ġbei4Ġ
Ġdan4Ġ bai2Ġ
Ġ 00
yu2 Ġhe2Ġ
shan1 Ġxian4Ġ
zu3 ĠdeĠ
fang4 Ġzai4Ġ
Ġ ka3
ĠĠĠ si1Ġ
lian2Ġ jie1
tai2Ġbei3 Ġshi4Ġ
mo4Ġsi1Ġ ke1Ġ
dao3 Ġshang4Ġ
Ġke4 Ġer3Ġ
bian1Ġhao4 Ġwei4Ġ
p u4Ġ
z ei2
shang4 Ġbu4Ġ
ci3 Ġtong2Ġshi2Ġ
ci2Ġ zhi2Ġ
kai1 Ġgong1Ġ
tong1 Ġzhi1Ġ
wai4Ġjiao1 Ġbu4Ġ
Ġ jia3
ĠĠĠ zheng4Ġ
jiu3 ĠdeĠ
Ġzhi1 Ġshi4Ġ
lie4Ġ ru4Ġ
an4 Ġshi4Ġ
jia1 Ġzai4Ġ
ying3 Ġshi4Ġ
bi4Ġ mian3
huan4Ġ zhe3Ġ
c u1Ġ
jin3 Ġyou3Ġ
can1Ġ xuan3Ġ
e2Ġluo2Ġ si1ĠdeĠ
Ġ199 5Ġnian2Ġ
zheng4Ġfu3 ĠdeĠ
200 Ġ
Ġ can1Ġyu4Ġ
zheng1 Ġyue4Ġ
ti4 Ġdai4Ġ
cai3Ġ fang3
chu4Ġ zhang3Ġ
00Ġ mi3
ĠĠĠ 2009
qi ao3
dang1 Ġnian2Ġ
qiang2 Ġzhi4Ġ
9 5
b eng1Ġ
Ġ 29
fu4 Ġshi4Ġ
Ġwei4Ġ zai4Ġ
liu2Ġ yu4Ġ
ti2Ġchu1Ġ leĠ
xue2 Ġzhong1Ġ
th Ġ
Ġge4 Ġguo2Ġ
Ġhao4 Ġxian4
ĠĠĠ ba1Ġ
shan1 Ġdi4Ġ
li3Ġ lun4
Ġde2Ġ la1Ġ
bi4Ġ mian3Ġ
Ġdian4Ġ ying3
feng1 Ġfu4Ġ
ci2 ĠdeĠ
Ġyi3 Ġzai4Ġ
zhu3Ġ ti2
zhang3Ġ guan1Ġ
jing3Ġ gao4Ġ
Ġ 12Ġ
ĠĠĠ gu4Ġshi4Ġ
si1 Ġshi4Ġ
Ġsi1Ġ ma3Ġ
gu3Ġ lao3
chuang4Ġ zuo4ĠdeĠ
bo2Ġ lin2Ġ
zong1Ġ jiao4
s ao1Ġ
qi1Ġ zi3
yin3Ġ ru4Ġ
bu4ĠdeĠ cun1Ġzhuang1Ġ
ĠĠĠyi3Ġ xia4
zan4 Ġzhu4Ġ
jing1Ġ dian3Ġ
an1Ġ zhuang1Ġ
kou3 ĠdeĠ
ji4Ġ suan4
a1Ġ gen1Ġ
Ġ198 5Ġnian2Ġ
liao3Ġ jie3Ġ
Ġ suo1Ġ
Ġyue4Ġ lai2Ġyue4Ġ
Ġgong1Ġ ying4Ġ
pu3Ġ bian4
qiang2Ġ du4Ġ
w eng1Ġ
ĠĠĠ wei2Ġ
su1 Ġwei2Ġ
jiang4 Ġyu3Ġ
Ġzai4Ġ 194
Ġren2Ġ da4Ġ
cai3Ġ qu3
Ġh ong1Ġ
ĠB Ġ
Ġ feng4Ġ
guan3 ĠdeĠ
Ġzhi1 Ġdi4Ġ
hai3Ġ an4
xiao3Ġxing2Ġ xing1
qiang2 ĠdeĠ
yun3 Ġshi2Ġ
ti3Ġyu4Ġ chang3Ġ
Ġ jue2Ġding4Ġ
ĠĠĠ fu4Ġ
guan4 Ġjun1
Ġshi2Ġ hou4Ġ
Ġzhi1 Ġjia1Ġ
fa1Ġ sheng1ĠdeĠ
Ġyou2 Ġji1Ġ
ma3Ġlai2 Ġxi1Ġya4
xia4 Ġzai4Ġ
ceng2 ĠdeĠ
Ġge4Ġ zhong3
Ġke4 Ġhe2Ġ
Ġ199 0Ġnian2Ġ
Ġ yi2
Ġ tie3Ġ
Ġ pa4Ġ
guan1Ġ fang1
tong2Ġ xing4Ġ
Ġ Q
zao3 Ġshang4Ġ
zhan3Ġ lan3Ġ
Ġfu4Ġze2Ġ guan3Ġxia2Ġ
li u3
zhan4Ġ tai2Ġ
suo3Ġ you3ĠdeĠ
m er
hu1 Ġyu4Ġ
Ġxian4Ġ shang4Ġ
zhao4Ġ pian1Ġ
xuan3Ġju3 Ġzhong1Ġ
lie4 Ġchu1Ġ
Ġyi1Ġ zhi2Ġ
shi1Ġ qu4Ġ
di1Ġ qi4Ġ
ĠĠĠzeng1Ġ zu3Ġ
ĠĠĠ 8
ti v
fei1 Ġxing2
bian1 Ġwei4Ġ
Ġyu3Ġ qi2Ġ
shen2Ġ me
B S
Ġ 50
guang3 Ġzhou1
yin2Ġ pai2Ġ
Ġ xie4
Ġ e2Ġ
san1 Ġda4Ġ
la1 Ġde2Ġ
shu1 Ġchu1Ġ
Ġcheng2Ġ xian4
cai2Ġ liao4
s ti
Ġ shou3
Ġ bao3
la1 ĠdeĠ
lan2 Ġxi1Ġ
ming2Ġ dan1Ġ
tai4Ġ kong1Ġ
hui2Ġ gui1Ġ
yao2Ġ gun3
b u
Ġ 2007
guo2Ġ wang2Ġ
Ġ199 1Ġnian2Ġ
Ġer2Ġgai1Ġ di4ĠdeĠ
f a4Ġ
Ġ jue2Ġ
dun4 ĠdeĠ
Ġchu1Ġ yan3Ġ
qian2 Ġhou4Ġ
Ġshi4Ġ bing1Ġ
Ġhe2Ġ gu3Ġ
zhi4Ġ 199
Ġyou3Ġ xie1
shen1Ġ qing3
gu3Ġ la1Ġ
Ġfen1Ġ bie2Ġ
mo4 Ġer3Ġ
zao3Ġ qi1ĠdeĠ
Ġ gen1Ġ
Ġ 9Ġ
he2 Ġzai4Ġ
san1 Ġren2Ġ
Ġbu4Ġ shao3
Ġji4Ġ lu4
duo1Ġ ci4
Ġzhu3Ġ yan3Ġ
Ġsui4 ĠdeĠ
chan2 Ġ
Ġyi3Ġse4Ġ lie4Ġ
ĠĠĠ 6
dui4 Ġyuan2Ġ
qiu2 Ġhui4Ġ
ban4 Ġnian2Ġ
Ġbu4Ġ man3Ġ
Ġji4Ġ yi4Ġ
Ġdui4Ġ ci3Ġ
sen1Ġ lin2
S ta
n u4Ġ
Ġ tai4
shi2 Ġhe2Ġ
zhi1 Ġshi2Ġ
zao1 Ġyu4Ġ
qin1Ġ wang2Ġ
Ġ zhong4
en t
shi1 Ġgong1Ġ
Ġshi2Ġ bao4Ġ
Ġcheng2Ġ leĠ
Ġyi3Ġ qian2Ġ
Ġke4 Ġli4Ġ
xing1Ġ qi1
bo2Ġ jue2Ġ
jian4Ġ zhu4
Ġshou3Ġ ci4Ġ
min2Ġzhu3Ġ dang3
shan1Ġdong1Ġ sheng3Ġ
zha4 Ġdan4Ġ
Ġbei4Ġ er3
zhi3Ġ kong4Ġ
jing4Ġ nei4
Ġ ì
Ġ su4Ġ
te4 Ġli4Ġ
ding4 Ġyu2Ġ
lian2Ġ ren4Ġ
Ġ 2003Ġnian2Ġ
bao3 ĠdeĠ
tu2 ĠdeĠ
you1Ġ xiu4
Ġzhao1 Ġhe2Ġ
7 4
Ġ fa3
xia4Ġ jiang4Ġ
ĠĠĠgai4Ġ yao4Ġ
sheng4 Ġchu1Ġ
xia4Ġ lai2Ġ
shou4Ġ quan2Ġ
zan4Ġ ting2Ġ
pi n4
san1 Ġge4
Ġwei4Ġ neng2
Ġjun1 Ġdi4Ġ
fen1 ĠdeĠ
80 Ġ
bei3Ġ fang1Ġ
Ġ195 0Ġnian2Ġ
Ġ xian2Ġ
wang3 Ġshang4Ġ
ta3 Ġer3Ġ
pu3Ġ cha2Ġ
yan2Ġjiu1 Ġsheng1Ġ
Ġ sha1
Ġdi4Ġ zhen4Ġ
ling3Ġ dao3ĠdeĠ
mou3Ġ xie1
te4 Ġer3Ġ
Ġxian4 Ġyou3Ġ
Ġ198 8Ġnian2Ġ
shi4 ĠĠĠ
hao3 Ġping2Ġ
ĠdeĠ ju4Ġ
Ġzhong1Ġ jian1Ġ
Ġshe4 Ġyu2Ġ
Ġsheng1Ġ ming2Ġ
she4Ġ hui4
Ġ men2Ġ
Ġ kao3Ġ
sh a4
Ġshi2Ġ xian4
chang3Ġ bi3Ġsai4Ġ
lv4Ġ se4Ġ
can1Ġ shu4Ġ
qing1Ġ chao2Ġ
Ġquan2Ġ zhang3Ġ
p p
tong2 Ġming2Ġ
te4 Ġyou3Ġ
you2 Ġxing2Ġ
Ġxing2 Ġbu4Ġ
Ġ chong1Ġ
wen2 Ġzhong1Ġ
da2 Ġzhou1Ġ
pei4 Ġbei4Ġ
Ġji2Ġ bing4Ġ
Ġgong1Ġ neng2
gai3Ġ zhi4Ġwei4Ġ
Ġ xuan3Ġ
ĠĠĠdi4Ġ yi1Ġ
gang3 Ġyuan2Ġ
Ġxin1Ġ zeng1Ġ
fei4Ġ yan2Ġ
Ġwei1Ġ lian2Ġ
Ġ po4Ġ
ch Ġ
qing2 ĠdeĠ
Ġzhi3 Ġzai4Ġ
fen3 Ġsi1Ġ
Ġping2Ġ lun4Ġ
huang2Ġ se4Ġ
fang2Ġ wu1Ġ
xing2Ġ tai4Ġ
Ġ chu2
fang1Ġ mi3Ġ
ying3Ġ xiang4Ġ
tui1Ġ guang3Ġ
wu3 Ġge4Ġ
xu4 Ġli4Ġya4
mi4 ĠdeĠ
cun2 ĠdeĠ
Ġwei2Ġ rao4Ġ
can1Ġ ting1Ġ
rui4Ġ dian3Ġ
shen1 Ġshi4Ġ
da4Ġ qu1Ġ
sheng3Ġ jie1Ġrang3Ġ
qing1Ġ shao4Ġnian2Ġ
lu4Ġyi4Ġ si1Ġ
2 Ġmi3Ġ
Ġ re
Ġ 20Ġ
Ġ guang3Ġdong1Ġ
ĠĠĠ 5
ĠĠĠ 2019Ġnian2Ġ
si4 Ġshi4Ġ
hai2 Ġzai4Ġ
Ġzhi4Ġ yi2Ġ
Ġjia1Ġ ting2
tian1Ġ ran2Ġ
Ġ sai4Ġji4Ġ
Ġ 2022Ġnian2Ġ
Ġxi1Ġ er3Ġ
Ġ xian1Ġhou4Ġ
ĠĠĠ 0
zhe3 Ġhe2Ġ
Ġjin4Ġ zhi3Ġ
fei4Ġ yong4Ġ
Ġ shen2
18 8
bao3Ġ luo2Ġ
chu1Ġ qi1Ġ
Ġzui4 Ġda4Ġ
Ġ mi4Ġ
ĠdeĠ zhu3Ġyao4Ġ
Ġbei4Ġ po4Ġ
zhang3Ġ zi3Ġ
Ġ18 5
Ġ ding1Ġ
Ġzai4Ġ xin1Ġ
xiang1Ġ tong2ĠdeĠ
Ġjiang1Ġ su1Ġ
Ġshe4Ġhui4Ġ zhu3Ġyi4Ġ
Ġ ni3
ĠĠĠ jin1Ġ
san1 Ġji2Ġ
zhe3 Ġhui4Ġ
luo4 Ġsi1Ġ
Ġyuan2Ġ yin1
ce4Ġ liang2
xiao1Ġ liang4Ġ
Ġshi4Ġyi1Ġ ke1Ġ
chuang4Ġ zao4Ġ
Ġmai4 Ġke4Ġ
Ġzai4Ġyi4Ġ qi3Ġ
W Ġ
hui2 Ġguo2Ġ
Ġshi2Ġ xing4Ġ
xi1Ġ nan2Ġ
ma3Ġ la1Ġ
gu4Ġ ding4Ġ
gan3Ġ lan3
wu2Ġxian4Ġ dian4Ġshi4Ġ
ma3 Ġke4Ġsi1Ġ
Ġji4Ġ zai3
xiang1Ġ bi3Ġ
jing4Ġ zheng1
p u1
fen1 Ġcheng2Ġ
wang2 Ġwei4Ġ
ying4 Ġji2Ġ
Ġbu4Ġ lai2Ġ
Ġdi4Ġ zhi4Ġ
Ġsi1Ġ ke1Ġ
xin1 Ġshi4Ġ
la1 Ġhe2Ġ
ĠdeĠ hua4Ġ
Ġji2Ġ hou4Ġ
Ġgong1Ġ qing3Ġ
du4Ġ shi3Ġ
chan3Ġsheng1Ġ leĠ
Ġshuang1Ġ fang1Ġ
d ao1
Ġ ba3Ġ
te4Ġ dian3Ġ
Ġguo2Ġjia1Ġ dui4Ġ
Ġshi4Ġjie4Ġ bei1Ġ
tie3Ġlu4Ġ che1Ġzhan4Ġ
ĠĠĠ k
tai4 ĠdeĠ
cong2 Ġwei4Ġ
Ġnian2Ġ ling2Ġ
xin1Ġ wen2
xing4Ġ neng2Ġ
Ġzhe4Ġ yang4Ġ
wan2Ġ zheng3Ġ
Ġ Ï
tui1 Ġjian4Ġ
fu2Ġ luo2Ġli3Ġ
nong2Ġ cun1Ġ
9 6
lei4 Ġxing2ĠdeĠ
Ġta1Ġ ceng2Ġ
xie2Ġ ding4Ġ
b en1Ġ
w ar
Ġ X
ji2 Ġbu4Ġ
li3 Ġbu4Ġ
deng3 ĠdeĠ
zi Ġhe2Ġ
Ġzai4Ġ ta1ĠdeĠ
gao1Ġ da2Ġ
Ġshi4Ġzhong1Ġ hua2Ġren2Ġmin2Ġgong4Ġhe2Ġguo2Ġ
ying3Ġxiang3 Ġli4Ġ
o t
Ġ hu2Ġnan2Ġ
an4 Ġzhong1Ġ
chong1 Ġji1Ġ
fen1Ġ pei4Ġ
qi4Ġ xuan2Ġ
zhang4Ġ fu1Ġ
Ġ wai4
Ġgong1Ġ gong4
te4Ġ zheng1
te4Ġ la1Ġ
Ġzi4Ġ you2
sha1Ġ si3Ġ
Ġ198 9Ġnian2Ġ
ĠĠĠjia1Ġ ting2Ġ
xi a1Ġ
48 Ġ
zhuan3Ġ yi2
geng4Ġ duo1ĠdeĠ
ĠdeĠzuo4Ġ biao1Ġwei4Ġ
ta1 Ġzai4Ġ
10 00
na4 Ġde2Ġ
dong4Ġ hua4
Ġ 40
sheng1 Ġzhi4Ġ
Ġyi1Ġ ren2Ġ
lian2Ġ jie2Ġ
Ġse ction
duo1 Ġming2Ġ
lv4 ĠdeĠ
Ġdao4 Ġhe2Ġ
zhuan1Ġ men2Ġ
Ġceng2Ġ ren4
xue2 Ġbu4Ġ
Ġshi4Ġ hui4Ġ
Ġdao4 Ġyi1Ġ
sheng1Ġ ji1Ġ
fu4Ġ jin4
fang1Ġ xiang4
Ġtong2Ġ pai2Ġ
C O
Ġ song4
ĠĠĠ shi3Ġyong4Ġ
hui4 Ġyu2Ġ
xuan3 Ġchu1Ġ
Ġnian2Ġ qing1Ġ
Ġyu2Ġ lei4Ġ
xi4Ġlie4 ĠdeĠ
q u2
Ġ dai4
quan2 Ġshi4Ġ
yi1Ġ xie1Ġ
fei2 Ġ
Ġ yong3
Ġ dang3Ġ
Ġ 11Ġ
yi4 Ġbu4Ġ
si4 Ġda4Ġ
Ġshi4Ġ ji4ĠdeĠ
Ġzai4Ġ ta1Ġ
Ġshi2Ġ zhi4Ġ
Ġjia1Ġ zu2
Ġtong2Ġ yang4Ġ
Ġsi1Ġ ta3Ġ
mu4Ġ ni2Ġ
che1Ġ liang4
se4Ġ fu1Ġ
Ġ198 3Ġnian2Ġ
Ġ shen3Ġ
ban1 ĠdeĠ
5 3
reng2 Ġzai4Ġ
31 Ġ
guo2Ġ hui4Ġ
Ġta1Ġ ren4Ġwei2Ġ
guan1Ġ ce4Ġ
mei3Ġguo2Ġ ren2Ġ
Ġ xu3Ġduo1
jia1 Ġgong1Ġ
hai3 Ġshang4Ġ
si3 Ġxing2Ġ
qing4 Ġzhu4Ġ
Ġyou3Ġ da4Ġ
fu4Ġ jin4ĠdeĠ
qu3Ġ xiao1
ĠĠĠgen1Ġju4Ġ 2020Ġnian2Ġmei3Ġguo2Ġren2Ġkou3Ġpu3Ġcha2ĠdeĠshu4Ġju4Ġ
q u2Ġ
bing4 Ġwei4Ġ
zong3 Ġhui4Ġ
guo2Ġ li4Ġ
Ġda4Ġ dao4
jie1Ġ ren4Ġ
zeng1Ġjia1Ġ leĠ
â Ĩ
Ġ qin2Ġ
ch en4Ġ
jiang1 Ġta1Ġ
jing1Ġ ji4
wu3 Ġyue4Ġ
hui2 Ġhe2Ġ
si3 Ġyu2Ġ
lao3 Ġshi1Ġ
Ġyi1Ġ zhi4Ġ
Ġchu1Ġ fa1Ġ
ya4Ġ mu4Ġ
ban1Ġ jiang3Ġ
qian1Ġ yue1Ġ
shang4Ġhai3 Ġshi4Ġ
i m
xiang1 Ġji4Ġ
fu2 Ġli3Ġ
qie4 Ġer3Ġ
Ġyou3Ġ zhu4Ġ
Ġyi1Ġ ci2Ġ
Ġbing4Ġ ru4Ġ
4 3
Ġ cai4
xing4 Ġshi4Ġ
dan1 Ġyuan2Ġ
Ġbu4Ġ yi1Ġ
Ġli4Ġ shu3Ġ
ĠS Ġ
Ġ chu3Ġ
Ġ ke3Ġneng2Ġ
shang4 Ġyi1Ġ
wu4 Ġhe2Ġ
Ġshi4Ġ you2
shou3Ġ bo1Ġ
jiang3Ġ shu4Ġ
qun2Ġ dao3
deng1Ġ chang2Ġ
can1Ġmou2 Ġzhang3Ġ
1 20
4 2
Ġ bao1Ġhan2Ġ
ĠĠĠ v
ĠĠĠ 3Ġ
guo4 Ġyu2Ġ
dui4Ġ shou3Ġ
zhao4Ġ kai1
ĠdeĠji4Ġ lu4Ġ
kuo4Ġ zhan3
e e
fu4 Ġjia1Ġ
fang2 Ġwei4Ġ
pian4 ĠdeĠ
Ġli4Ġ ziĠ
dai4Ġ lai2Ġ
Ġjian4Ġ kang1Ġ
gai3Ġ ge2
ci3 Ġshi2Ġ
ba1 Ġer3Ġ
Ġji2Ġ xing2Ġzheng4Ġ
zhi2Ġ ye4
shan1Ġ mai4Ġ
shuang1Ġ da3Ġ
lei4Ġsi4 ĠdeĠ
Ġ 2006
Ġyi3 Ġzhi4Ġ
zheng4Ġ xie2Ġ
zhan4Ġ ling3
ye3Ġ ke3Ġyi3Ġ
Ġ000 Ġren2Ġ
lai2Ġzi4 Ġyu2Ġ
e2 Ġwei4Ġ
ĠĠĠ dan4
mei3 Ġjun1Ġ
zhi2 Ġzhi4Ġ
hai3Ġ ba2Ġgao1Ġ
ying1Ġ gai1
ĠĠĠ 12
zui4 Ġwei4Ġ
qi4 Ġhe2Ġ
zhu3Ġ xi2
cun2Ġ zai4ĠdeĠ
o k
ĠĠĠ st
ji3 Ġnian2Ġ
po 3
zhuang4 Ġji1Ġ
Ġke4Ġ yun4Ġ
Ġsi4Ġ chuan1Ġ
ĠĠĠ 2018Ġnian2Ġ
a1 Ġer3
duo1 Ġge4
sheng3 Ġdao4Ġ
yang2 Ġxian4Ġ
lao2 Ġgong1Ġ
na4Ġ cui4
zu3Ġ zhi3Ġ
nan2Ġji2Ġ zhou1ĠdeĠ
9 7
90 Ġ
Ġ198 4Ġnian2Ġ
Ġ15 Ġ
ch ou3
fei1 Ġzhou1
chuang4 Ġxin1Ġ
Ġhan tĠ
ĠĠĠran2 Ġer2Ġ
Ġ xing1
Ġ cai3Ġyong4Ġ
chang2 Ġjian4Ġ
chuan2 Ġzhi1Ġ
Ġzhi1Ġ zhan4Ġ
jiang4Ġ di1
Ġa1Ġ la1Ġ
Ġxian4 Ġzhi1Ġxian4Ġ
yan2Ġ zhong4ĠdeĠ
fa1Ġsheng1Ġ leĠ
shu3ĠdeĠ zhi2Ġwu4Ġ
he2 Ġwei4Ġ
xi1 Ġshi4Ġ
bu4Ġ fen4Ġ
xi1Ġ bei3Ġ
dui4Ġ wu3Ġ
Ġyou2Ġ ci3Ġ
shuai4Ġ ling3Ġ
tu3Ġer3 Ġqi2
jian1 Ġshi4Ġ
mi4 Ġsi1Ġ
Ġzhi1Ġ liu2Ġ
zhi3 ĠdeĠ
tou2 Ġbu4Ġ
Ġyou3Ġ guan1
Ġta1Ġ dui4Ġ
Ġzhi3 Ġshi4Ġ
d u3
p u1Ġ
Ġ li2
xin1 Ġren2Ġ
dian4 ĠdeĠ
yao4 ĠdeĠ
Ġjian4 Ġshi4Ġ
kai1Ġ zhan3Ġ
suo3Ġ shu3
Ġxiao3Ġ shuo1Ġ
8 7
e x
Ġjie2Ġ shu4Ġ
Ġshi4Ġyi4Ġ da4Ġli4Ġ
xu an4Ġ
hui4 Ġyi3Ġ
huai2 Ġyi2Ġ
Ġzai4Ġ yu3Ġ
Ġyi3 Ġyu2Ġ
Ġda4Ġ qiao2Ġ
Ġdong1Ġ jing1Ġ
Ġling4Ġ wai4
Ġ lei2
hei1 Ġren2Ġ
zong3Ġ cai2Ġ
hui4 Ġshi4Ġdi4Ġ
huan2 Ġxing2Ġ
Ġgong1Ġ lu4
Ġde2 Ġdao4ĠleĠ
Ġshe4Ġ ji4ĠdeĠ
chuan2Ġ mei2Ġ
zhou1Ġ bian1Ġ
yun4Ġdong4 ĠdeĠ
Ġ mao2Ġ
yan2 Ġshi2Ġ
ou r
xiao4Ġ ying4Ġ
qian1Ġ ding4Ġ
na2Ġ po4Ġ
gu3Ġfen4 Ġyou3Ġxian4Ġgong1Ġsi1Ġ
zhu4 Ġdi4Ġ
zheng3 Ġge4
Ġshi4Ġyi1Ġ zuo4Ġ
xia4Ġxia2 Ġyi3Ġxia4
xin1Ġjia1Ġ po1Ġ
Ġ shun4
Ġ 2024
ĠĠĠ 3Ġyue4Ġ
ben3 Ġxian4Ġ
luo2 Ġde2Ġ
ti3Ġ yu4
hang2Ġ tian1Ġ
n u2Ġ
Ġ xu4Ġ
zhang3 Ġda4Ġ
Ġji2Ġ lin2Ġ
xun2Ġ huan2Ġ
fang4Ġ qi4
Ġsui2Ġ zhe
Ġ bai3
ge2 Ġer3Ġ
xi1Ġ bei3Ġbu4Ġ
zhi3Ġ ding4Ġ
mu4Ġsi1Ġ lin2Ġ
Ġxing2Ġ shi3Ġ
can1Ġyu4Ġ leĠ
zi4 Ġwei4Ġ
70 Ġ
Ġzai4Ġ gai1Ġ
Ġli4Ġ yong4
fa3Ġ ting2Ġ
yi2Ġ chan3
jing4Ġ sai4Ġ
Ġ pu3
yi1 Ġbu4Ġfen4
zhan4 Ġwei4Ġyu2Ġ
Ġbu4Ġ er3Ġ
Ġwei2Ġ chi2Ġ
Ġxiang1Ġ dang1
Ġsheng1Ġzhang3 Ġyu2Ġ
Ġ dian4Ġshi4Ġ
du i1Ġ
Ġyu2Ġ 193
ben3Ġ tu3Ġ
mei3Ġ yuan2ĠdeĠ
Ġnan2Ġ ziĠ
hai3Ġba2Ġgao1Ġ du4Ġwei4Ġ
o d
luo4 ĠdeĠ
po r
xun2 Ġqiu2Ġ
nuo4 Ġyi1Ġ
Ġgong1Ġ chi3
xi1Ġ nan2Ġbu4Ġ
Ġxian4Ġ jin1Ġ
you2Ġ tai4Ġren2Ġ
Ġzhong1Ġguo2Ġ guo2Ġmin2Ġ
Ġqiu2 Ġhui4Ġ
jie1Ġ shou1Ġ
sheng3Ġ wei3Ġ
guang1Ġ xu4Ġ
le ĠĠĠ
dan1 Ġyi1Ġ
yun4 Ġhe2Ġ
ĠdeĠ gu4Ġshi4Ġ
Ġbu4Ġ di2Ġ
ĠdeĠcheng2Ġ zhen4Ġ
Ġ e2
Ġ bai2
zh a2
la1 Ġer3Ġ
zhe3 Ġwei4Ġ
yin3Ġ zhong3Ġ
ying2Ġ ye4Ġ
ĠI n
Ġ kai3Ġ
Ġ che1Ġzhan4
wu4 Ġyuan2Ġ
bu2 Ġyao4Ġ
Ġnian2 Ġnian2Ġ
Ġyi1Ġ liao2Ġ
Ġxing2Ġ xiang4Ġ
lu4Ġ zhan4Ġ
Ġzhe4Ġ shou3Ġ
ba1Ġ la1Ġ
i st
ĠĠĠ 2007
Ġhe2Ġ li3Ġ
Ġyi1Ġ zhi1Ġ
bang1Ġ zhu4
Ġ nai3
ĠĠĠ 5Ġyue4Ġ
Ġguo2Ġ min2
wen2Ġ hua4ĠdeĠ
mo4Ġsi1Ġ ke1
wei3Ġfu4Ġ shu1Ġji4Ġ
mi ao3
zhi2 Ġyuan2Ġ
wu3 Ġdi4Ġ
bie2 ĠdeĠ
si1Ġ lan2Ġ
Ġke4Ġ la1Ġ
shang1 ĠdeĠ
ta Ġ
90 Ġnian2Ġ
Ġwei4Ġ ci3Ġ
Ġdi4Ġ mian4Ġ
ji1Ġ ben3Ġ
rong2Ġ na4Ġ
mian3Ġ dian1Ġ
xun2Ġyang2 Ġjian4Ġ
ge1 Ġju4Ġ
gui1Ġ fan4Ġ
li2Ġ ziĠ
Ġqi2Ġzhong1Ġ nan2Ġxing4Ġ
di3Ġ kang4Ġ
kuai4Ġ su4
Ġ wu1Ġke4Ġlan2Ġ
men2 ĠdeĠ
ceng2Ġ shui3Ġyu4Ġ
Ġ198 6Ġnian2Ġ
zhuan4ĠdeĠ xiao3Ġxing2Ġxing1Ġ
8 5
ĠĠĠ ping2Ġjia4Ġ
you2 Ġqi2Ġ
qi3 ĠleĠ
Ġke4Ġ lai2Ġ
jian3Ġ dan1Ġ
Ġ ji3Ġ
shi1 Ġren2Ġ
ci4 Ġwei4Ġ
yue4Ġ nan2Ġ
Ġdi4Ġ 1Ġ
shou3Ġ xi2Ġ
fu3Ġ zhu4Ġ
you2 Ġren2Ġgong1Ġ
ro s
Ġshi4Ġ nei4Ġ
Ġhou4Ġ qi1Ġ
Ġshe4 Ġji1Ġ
jie4Ġ shao4
ĠdeĠdi4Ġ er4
leĠyi1Ġ xie1Ġ
Ġjian4Ġli4Ġ leĠ
A O
Ġ qiu1Ġ
a1 Ġli3Ġ
tui1 Ġchu1ĠdeĠ
ruan3 Ġti3Ġ
Ġshi2Ġ yong4Ġ
Ġyi1Ġ tiao2Ġ
na4Ġ xie1Ġ
Ġjiao4Ġ yu4
l ong3Ġ
Ġ guo1
ĠĠĠ chu2ĠleĠ
zhi2 Ġli4Ġ
jue2 ĠleĠ
ĠĠĠS t
a mi
r y
Ġ huan4Ġ
shu4 Ġshi4Ġ
zhang3 Ġwei4Ġ
ci4 Ġda4Ġ
zhong1Ġ xin1Ġ
mian4Ġ lin2Ġ
ban4Ġ yan3Ġ
ĠdeĠyi1Ġ xie1Ġ
jiao4 Ġyu2Ġ
ji1Ġ chu3Ġ
tu2Ġ xiang4Ġ
qun2Ġ ti3Ġ
c on
Ġ ce4Ġ
Ġ chao2Ġxian1Ġ
liu2 ĠdeĠ
Ġzai4Ġ ri4Ġben3Ġ
Ġda4Ġ liang4
Ġxi1Ġ yin3Ġ
luo2Ġ bo2Ġte4Ġ
shuo4Ġshi4Ġ xue2Ġwei4Ġ
sh e2
ĠĠĠ 2017Ġnian2Ġ
yu3 Ġshi4Ġ
Ġzai4Ġ bei3Ġ
wei2Ġ zhi3Ġ
tong1Ġ xun4Ġ
can1Ġ sai4
dang1Ġ ju2Ġ
Ġren2Ġmin2Ġ bi4Ġ
Ġliu2Ġ yu4Ġ
fen1Ġbie2 Ġwei4Ġ
ge4 Ġdi4Ġ
luo4 Ġke4Ġ
Ġjin4 Ġnian2Ġ
du1Ġ du1Ġ
Ġgong1Ġcheng2Ġ shi1Ġ
Ġ195 8Ġnian2Ġ
zhi1 Ġyuan2Ġ
meng2 Ġjun1Ġ
Ġhe2Ġ ji2Ġ
Ġji2Ġ shi3
zong3Ġ jian1Ġ
Ġdi4Ġer4Ġ ci4Ġ
shen3Ġ cha2Ġ
Ġzai4Ġdi4Ġ er4Ġ
ping2Ġjun1Ġ hai3Ġba2Ġgao1Ġdu4Ġwei4Ġ
L E
ĠĠĠ jing1Ġji4Ġ
ĠĠĠ 2016Ġnian2Ġ
ji1 Ġshi4Ġ
dui4 Ġhe2Ġ
zu2 Ġqiu2Ġdui4Ġ
ĠdeĠ xian4Ġ
Ġer3 Ġde2
fa3Ġ lan2Ġ
chui2 Ġ
ni2 Ġxi1Ġya4Ġ
Ġxi1Ġ an1Ġ
Ġqiu2Ġ chang3Ġ
qing2Ġ xu4Ġ
gao4Ġ su4Ġ
hua2Ġsheng4Ġ dun4
Ġ xin4Ġ
ĠĠĠ tian1Ġ
Ġwei4Ġ ming2Ġ
gong1Ġ kai1Ġ
chang3Ġ jing3Ġ
Ġer2Ġgai1Ġdi4ĠdeĠ ping2Ġjun1Ġhai3Ġba2Ġgao1Ġdu4Ġwei4Ġ
f en2
Ġ cai2
Ġ huan2Ġ
fen1 Ġzhi1Ġyi1Ġ
Ġyou3Ġ li4Ġ
Ġji1Ġ yin1Ġ
gai3Ġ bian1Ġ
bo Ġ
liang2 Ġshi2Ġ
zhong1Ġ yang1
suo3Ġ chu4ĠdeĠhai3Ġba2Ġwei4Ġgao1Ġyu2Ġhai3Ġping2Ġmian4Ġ
gang3Ġ kou3Ġ
2010Ġnian2Ġ mei3Ġguo2Ġren2Ġkou3Ġpu3Ġcha2ĠdeĠshu4Ġju4Ġ
pin2Ġ lv4Ġ
han3Ġ mo4
Ġ liang3Ġge4Ġ
chu1 Ġdao4Ġ
yan3 Ġchu1
bian1 Ġcheng2Ġ
ying4 Ġdui4Ġ
Ġchu1Ġ xi2Ġ
yong3Ġ jiu3Ġ
Ġ194 6Ġnian2Ġ
yin3Ġzhong3Ġ zai1Ġpei2Ġ
Ġ ye4
qi an4
xi1Ġ la4
Ġ i
Ġ ku4
pi ao1Ġ
chu1 Ġren4Ġ
shuo1 Ġshi4Ġ
chao2 ĠdeĠ
Ġzhi4Ġ zao4
yan2Ġ zhong4
chuang4Ġ ban4Ġ
ka3Ġluo2Ġ lai2Ġ
2 ĠĠĠ
a w
n ang2Ġ
yuan2 Ġdi4Ġ
shen1 Ġshang4Ġ
xue2Ġ xi2
Ġjian4 Ġwei4Ġ
Ġsi1Ġ xiang3Ġ
Ġxi1Ġ xi1Ġ
Ġzhi1Ġ qian2
ru4Ġ qin1
mi3Ġ ya4Ġ
Ġyi3Ġse4Ġ lie4
h Ġ
feng1 ĠdeĠ
zu2 Ġyi3Ġ
ji1Ġ bai3Ġ
fei1Ġ fa3Ġ
zhan3Ġ kai1
you2Ġren2Ġgong1Ġ yin3Ġzhong3Ġzai1Ġpei2Ġ
Ġ yun2Ġnan2Ġ
li4 Ġzhong1Ġ
si4 Ġming2Ġ
ge1 ĠdeĠ
qing2 Ġxing2Ġ
wei1Ġ xian3Ġ
ju1Ġmin2Ġ dian3Ġ
re4Ġdai4Ġ feng1Ġbao4Ġ
ji4 Ġji2Ġ
ye3 Ġbu4Ġ
ĠĠĠ ji4Ġ
ji4 Ġzai4Ġ
Ġzhi1Ġ fu3Ġ
ju4Ġ qing2Ġ
Ġqiu2 ĠdeĠ
Ġshe4Ġ hui4
Ġxin1Ġ zeng1
Ġhan4Ġ zu2Ġ
h eng1Ġ
Ġ gan3Ġ
yu4 Ġji4Ġ
dong4 Ġgong1Ġ
lu3 Ġke4Ġ
Ġzhong1Ġ zui4Ġ
wei2Ġ er3
Ġyi3Ġ shang4ĠdeĠ
Ġyu3Ġ ci3Ġtong2Ġshi2Ġ
Ġwei2Ġ ya4Ġ
t ou1Ġ
t ao1Ġ
Ġ 28
Ġ ting2Ġ
jie4 Ġshi2Ġ
bing1 Ġbu4Ġ
duo1Ġ yang4Ġ
zu3Ġ cheng2
Ġjiao4Ġ shou4Ġ
an4Ġ zhao4Ġ
d uo3Ġ
Ġ tui1Ġ
Ġ xu1Ġyao4Ġ
gu a1
yi3 Ġhou4Ġ
xiang4 Ġxi1Ġ
yan3 Ġsheng1Ġ
deng1 Ġji4Ġ
Ġbu4Ġ jia1Ġ
Ġzhong1Ġguo2Ġ da4Ġlu4ĠdeĠ
xia4Ġxia2Ġyi3Ġxia4 Ġdi4Ġqu1Ġ
an1 Ġshi4Ġ
chu1 Ġsheng1Ġ
ge2 Ġli4Ġ
da4Ġ shi3Ġ
nan2Ġ fang1Ġ
Ġzi4Ġ dong4Ġ
a la
zhan4 Ġzhi4Ġ
kong1 Ġjun1
bai2 Ġzhi4Ġ
zi1Ġ zhu4Ġ
bian1Ġ jing4Ġ
9 3
Ġ shen4Ġ
hou4 Ġshi4Ġ
ze2 Ġyou3Ġ
Ġping2Ġ jia4Ġ
liao3Ġ jie3
yu3 Ġyi3Ġ
shun4 Ġshi2Ġ
Ġxian4Ġ ru4Ġ
qu1Ġ fen1Ġ
Ġqi2Ġzhong1Ġ nan2Ġ
Ġjiang1 Ġqi2Ġ
fa1Ġzhan3 ĠdeĠ
Ġjin4Ġshi4Ġ chu1Ġshen1Ġ
Ġ xu3Ġ
Ġbu4Ġ bian4Ġ
Ġzhi4Ġ shao3
Ġbei4Ġ qi2Ġ
chuan2Ġ bo1
gan1Ġ su4Ġ
Ġtong1Ġ guo4
jiao4Ġyu4 Ġbu4Ġ
fei1Ġlv4Ġ bin1
mao2Ġze2Ġ dong1Ġ
p en2
Ġ you1Ġ
ĠĠĠ 10Ġyue4Ġ
lu3 Ġshi4Ġ
shan3 Ġ
si1Ġ xiang3Ġ
Ġji4Ġ nian4
zi1Ġ sheng3Ġ
zi3Ġ nv3Ġ
shao4Ġ jiang4Ġ
Ġsu1Ġ lian2Ġ
wen4Ġti2 ĠdeĠ
wu2Ġren2Ġ ji1Ġ
5 Ġge4Ġ
m eng3
Ġ 26
zu2 Ġren2Ġ
80 Ġnian2Ġ
Ġdi4Ġ si1Ġ
Ġyu2Ġ di4Ġ
nan2Ġ zi
pan4Ġ jue2Ġ
Ġãĥ ¼
1 Ġhao4Ġ
bao3 Ġzheng4Ġ
fei1 Ġli4Ġ
qu3 Ġjia1Ġ
cai2Ġ chan3Ġ
ju2Ġ ju2Ġzhang3Ġ
zhuang4Ġ kuang4
Ġ198 2Ġnian2Ġ
Ġn i4
gong4Ġchan3Ġ zhu3Ġyi4Ġ
Ġao4 Ġda4Ġli4Ġ
Ġgong1Ġkai1Ġ sai4Ġ
zi4Ġxing2Ġ che1Ġ
â Ī
ĠĠĠ bei3Ġ
fu2 Ġde2Ġ
fan2 Ġzhi2Ġ
Ġzhe4 Ġbu4Ġ
Ġ xi4Ġlie4Ġ
zhe4 Ġbu4Ġ
miao2 Ġhui4Ġ
shang1Ġ wang2Ġ
wan2Ġcheng2Ġ leĠ
Ġ 27
Ġyi1Ġ mei2Ġ
fa3Ġ ling4Ġ
ma3Ġ tou2Ġ
ke1Ġ fu1
hen3Ġ duo1
Ġ198 7Ġnian2Ġ
Ġshi4Ġzhong1Ġ xin1Ġ
zhi3Ġhui1Ġ guan1Ġ
ch ai2Ġ
ĠĠĠ ling4Ġwai4Ġ
yin3 Ġshi2Ġ
Ġshi4Ġ wu1Ġke4Ġlan2
Ġwei4Ġ qi2Ġ
Ġbu4Ġ zhi4Ġ
jiao1Ġ huan4Ġ
Ġnan2Ġ bei3Ġ
ai1Ġ na4Ġ
Ġgong1Ġzuo4 Ġshi4Ġ
ai4 Ġguo2Ġ
er4 Ġzhan4Ġ
Ġzhi1 Ġji4Ġ
Ġtong2 Ġyi1Ġ
shi3Ġyong4Ġ leĠ
ceng2 Ġshi4Ġ
re s
Ġzhi4Ġ liao2
bao3Ġ cun2Ġ
Ġ mu4
Ġ ou1Ġzhou1Ġ
zhan4 Ġji4Ġ
Ġzai4Ġ ji1Ġ
Ġda4Ġ jia1Ġ
ni4 Ġ
Ġhe2Ġbing4 Ġwei4Ġ
fang1 Ġcheng2Ġ
ji3 Ġhe2Ġ
shen1Ġ zhen4
bao4Ġ zhi3Ġ
zeng1Ġ qiang2Ġ
Ġ he4
Ġ chuan1Ġ
ku i1Ġ
Ġda4Ġ sha4Ġ
sha1Ġ hai4Ġ
Ġ man3
zhi1 Ġming2Ġ
wai4 Ġwei2Ġ
Ġshi4Ġ fou3Ġ
guo2Ġ nei4Ġ
Ġda4Ġ zhong4Ġ
Ġjian4 Ġhe2Ġ
Ġbi4Ġ ye4Ġyu2Ġ
6 Ġge4Ġ
Ġ jie1
Ġ han2
Ġ 60
zheng3 Ġhe2Ġ
Ġyu2Ġ 2020Ġnian2Ġ
shou4Ġ hai4Ġ
Ġn Ġ
ji1 Ġbu4Ġ
cheng1 Ġhao4Ġ
bo1 Ġer3Ġ
18 6
Ġdi4Ġ guo2ĠdeĠ
Ġgong1Ġ zhan4Ġ
Ġsi1Ġ ka3Ġ
fen1Ġ lei4
san1Ġ ci4Ġ
ba1Ġ fa2
cai2Ġ wu4Ġ
Ġ fa1Ġxing2Ġ
ci3 Ġzhi1Ġwai4Ġ
da2 ĠdeĠ
cu4 Ġjin4
Ġyi3Ġ nan2Ġ
Ġxing2Ġ cheng2ĠdeĠ
ling3Ġ xiu4
ma3 ĠdeĠ
lie4 Ġshi4Ġ
cu n4
Ġzai4Ġ 195
Ġdan4 Ġyin1Ġ
zhu4Ġ ce4Ġ
gai3Ġ shan4
pan4Ġ luan4Ġ
Ġchu1Ġxian4Ġ leĠ
ĠdeĠming2Ġ zi4Ġ
gong4 Ġshi2Ġ
199 9Ġnian2Ġ
th er
Ġda4Ġ shi1Ġ
ying1Ġ guo2ĠdeĠ
Ġjie2Ġ gou4Ġ
che4Ġ di3Ġ
u s
xia4 ĠdeĠyi2Ġge4Ġ
huo4 Ġshi4Ġ
ling2 ĠdeĠ
zheng4Ġ quan2Ġ
guang3Ġ gao4
Ġ197 8Ġnian2Ġ
7 5Ġ
I IĠ
o ng
t uo3
ĠĠĠ 2021Ġnian2Ġ
zhi3 Ġyu2Ġ
ru4 ĠdeĠ
Ġwei4Ġ you2Ġ
Ġyue4Ġ tai2
Ġdao4 Ġbu4Ġ
Ġxi1Ġ la4Ġ
tian1Ġ huang2Ġ
ling3Ġ yu4
bing4Ġ mei2Ġyou3Ġ
yan2Ġjiu1Ġ yuan4Ġ
Ġzhi3 Ġchu1Ġ
Ġling4 Ġyi4Ġfang1Ġmian4Ġ
miao2Ġ shu4
t y
t uo4
Ġ zhen1
sheng4 Ġdi4Ġ
qun2 ĠdeĠ
mian4Ġ ti3Ġ
zhong4Ġ zhi2Ġ
Ġ shang4
Ġ fou3
Ġ zheng3Ġ
Ġyuan2Ġ shi3Ġ
dang1Ġ xuan3
s onĠ
â Ħ
Ġ dou1
18 7
nuo4 Ġsi1Ġ
jing1Ġ guo4
jing3Ġ guan1Ġ
zu2Ġ xie2Ġ
Ġ5 00
dou4Ġ zheng1Ġ
âĨ Ĵ
Ġsheng1Ġzhang3Ġyu2Ġ hai3Ġba2
Ġ mo2
gao1 Ġyuan2Ġ
shang1Ġ dian4Ġ
wu1Ġ ran3Ġ
Ġma3 Ġli4Ġ
Ġwei4Ġfu2Ġqi2Ġyu2Ġ gang1
luo2 Ġji2Ġ
Ġwei4Ġ bei4Ġ
Ġdao4 Ġshi4Ġ
hou4Ġ lai2Ġ
Ġnan2Ġ jing1Ġ
Ġdi4Ġyi1Ġ ci4
Ġ198 0Ġnian2Ġ
Ġ194 8Ġnian2Ġ
Ġ niu3Ġyue1
ĠĠĠ 15
tao2 Ġyuan2Ġ
ru n4
Ġzai4Ġ ying1Ġguo2Ġ
Ġyuan2Ġ ze2Ġ
shi1Ġ bai4
hang2Ġ ye4Ġ
fang2Ġ zhi3Ġ
4 2Ġ
Ġ sa4
Ġ lao2Ġ
ĠĠĠ 6Ġ
tian1 Ġjia1Ġ
Ġshi2Ġ dai4ĠdeĠ
Ġshang4Ġ shu1Ġ
xing4Ġ bie2Ġ
qing2Ġ jie2Ġ
tuan2Ġ zhang3Ġ
Ġmu4Ġqian2Ġ shang4Ġwei4Ġ
Ġfen1Ġbie2 Ġshi4Ġ
tu1 Ġchu1Ġ
Ġzhong1Ġ shu1Ġ
Ġyi4Ġ si
ping2Ġ min2Ġ
guan1Ġ fei4Ġyan2Ġ
Ġzhe4Ġ ci4Ġ
lai2 Ġsi1Ġ
Ġhe2Ġ fa3Ġ
Ġyi4Ġ ming2Ġ
Ġyi3 Ġshi4Ġ
chang2Ġ qi1
Ġt uo2
Ġxian4ĠdeĠyi2Ġge4Ġ fei1Ġjian4Ġzhi4Ġdi4Ġqu1Ġ
3 Ġmi3Ġ
8 9
qi4Ġ ti3Ġ
fu2 Ġer3Ġ
bo1 Ġchu1
hong2 Ġjun1Ġ
Ġbu4Ġ de2Ġ
ru4Ġ xuan3
sai1Ġ na4Ġ
Ġp an1Ġ
Ġfen1Ġbie2 Ġwei4Ġ
wu4Ġzhong3 ĠdeĠ
Ġzhi1Ġ chu4Ġ
ĠD Ġ
Ġdan1Ġ ren4
a1 Ġji1Ġ
18 0
hao3 Ġyou3Ġ
Ġhe2Ġ ta1ĠdeĠ
xiang3Ġ fa3Ġ
kao3Ġ gu3Ġ
Ġ pei2Ġ
chou2 Ġbei4Ġ
Ġzhong1Ġ fa1Ġxian4Ġ
Ġyu3Ġ da4Ġ
shou3Ġ fu3Ġ
dong1Ġ ni2Ġ
Ġzhe4Ġ yang4ĠdeĠ
dang4Ġ an4Ġ
8 6
m ao3Ġ
Ġ zhuan1Ġji2Ġ
ĠĠĠ 2006
mian4 Ġshi4Ġ
199 6Ġnian2Ġ
Ġyi4Ġ ji2Ġ
Ġping2Ġ lun4
niao3Ġ lei4Ġ
n u4
ch i1
an1 Ġren2Ġ
yu4 Ġdao4Ġ
dian3 Ġwei4Ġ
fu2Ġ hao4Ġ
Ġguan1Ġ fang1Ġ
Ġzhong1Ġgong4 Ġzhong1Ġyang1
t ai1
Ġ jie3Ġ
hang2 Ġxian4Ġ
Ġzhi4Ġ ding4Ġ
Ġyi4Ġ dian3Ġ
zuo4Ġ chu1
Ġji1Ġ du1Ġjiao4Ġ
yan2Ġ shen1Ġ
Ġtong2 Ġri4Ġ
chang2Ġ jiang1Ġ
Ġxing2Ġzheng4Ġ zhen4Ġqu1Ġ
c a
c ong1Ġ
cheng1Ġ wei2
ao4Ġsi1Ġ ka3Ġ
Ġ shan4Ġ
Ġshi4Ġ nan2Ġji2Ġzhou1ĠdeĠ
qu1Ġ jian1Ġ
zhu3Ġ chang3Ġ
ju4Ġ feng1Ġ
Ġzuo4Ġ biao1Ġwei4Ġ
chan3Ġ ye4
xiu1Ġ gai3
zhu1Ġ long2Ġ
Ġxin1 Ġjia1Ġ
ĠĠĠ sui2Ġ
ĠĠĠ 2015Ġnian2Ġ
cheng1 Ġzhi1Ġwei4Ġ
ni2 ĠdeĠ
âĢ §
li4Ġ yong4Ġ
Ġgong1Ġ jin1Ġ
Ġda4Ġ xing2
Ġzuo4Ġ chu1
hui4 Ġji2Ġ
zhan4 Ġguo2Ġ
pin3 Ġzhi4Ġ
34 Ġ
dong4Ġ che1Ġ
N AĠ
Ġ xia2Ġ
Ġ gai3Ġwei2Ġ
ĠĠĠ er2
ĠĠĠ zhu3Ġyao4Ġ
dong1 Ġxian4Ġ
wu3 Ġming2Ġ
ge1 Ġer3Ġ
kuo4 Ġzhang1Ġ
bin1 Ġshi4Ġ
she4Ġhui4Ġ zhu3Ġyi4Ġ
ying2Ġde2Ġ leĠ
4 6Ġ
N A
Ġ bao4
Ġ xiong2Ġ
an4 Ġshi2Ġ
zuo4 Ġzhong1Ġ
Ġji1Ġ xie4Ġ
fen1Ġ li2Ġ
ming4Ġ ling4
huo3Ġ ban4Ġ
zu1Ġ jie4Ġ
ĠĠĠ zhan4Ġ
chang3 Ġshang4Ġ
qi3 ĠdeĠ
di3 Ġzhi4Ġ
Ġgong1Ġ zuo4ĠdeĠ
sheng1Ġ ming2Ġ
bao3Ġ cun2
ling3Ġ xian1Ġ
jing1Ġji4Ġ xue2Ġ
Ġ min2
ĠĠĠ zhu4Ġ
dui4 Ġyou3Ġ
zhang3Ġ yue1Ġ
. &
zhong1 Ġshi4Ġji4Ġ
dui4 Ġta1Ġ
dong4 Ġyuan2Ġ
ban1 Ġbu4Ġ
hou4Ġ xuan3Ġren2Ġ
Ġming2Ġ zi4Ġ
tong1Ġ xin4Ġ
ren2Ġmin2Ġ dai4Ġbiao3Ġda4Ġhui4Ġ
a yĠ
ĠĠĠ ke4Ġ
jiang1Ġsu1Ġ sheng3Ġ
5 Ġgong1Ġli3Ġ
I T
Ġ bai4Ġ
ĠĠĠ to
yin3 Ġli4Ġ
Ġdan4 Ġbu4Ġ
ti2Ġ gong1ĠdeĠ
zu2Ġ zi4Ġzhi4Ġ
ĠĠĠM o
lei4Ġsi4 Ġyu2Ġ
p en
Ġ wei2
Ġ cheng2Ġshi4Ġ
sh i
shi3 Ġzhong1Ġ
zhan4 Ġwei4Ġ
ban1Ġ fa1Ġ
ai4Ġ qing2Ġ
4 1
ĠĠĠ he2
ĠĠĠ dui4Ġyu2Ġ
shi1 Ġhe2Ġ
Ġwei2Ġ zhi3Ġ
jie1Ġ chu4
Ġren4Ġ ming4
jiao1Ġ cha1Ġ
nv3Ġ yan3Ġyuan2Ġ
gan3Ġ ran3
Ġbu4Ġde2 Ġbu4Ġ
e ar
i th
Ġ bao1Ġ
Ġ 1Ġyue4Ġ
Ġ pai4Ġ
Ġ ning2Ġ
199 8Ġnian2Ġ
su1 Ġli3Ġ
ĠdeĠ li3Ġ
Ġji1Ġ chu3Ġ
Ġjia1Ġ meng2Ġ
Ġchu1Ġ shen1Ġ
shou3Ġ duan4Ġ
Ġyou2Ġ yong3Ġ
qi3Ġ su4Ġ
deng3Ġ zhi2Ġ
xian4Ġ fa3Ġ
hai4Ġ e2
5 2
d ou3Ġ
ai4 Ġde2Ġhua2Ġ
che1 Ġdao4Ġ
Ġxian4Ġ dai4
Ġjia1Ġ jing4Ġ
dian4Ġ che1Ġ
Ġzhu3Ġ chi2Ġ
Ġ197 9Ġnian2Ġ
Ġ re4Ġ
ti3 Ġxing2Ġ
han4 Ġzi4Ġ
Ġzai4Ġ gong1Ġ
Ġcheng2Ġ shi4ĠdeĠ
gong4Ġhe2Ġ guo2ĠdeĠ
Ġ 36
Ġ chun1Ġ
yuan2 Ġzhong1Ġ
tai4 Ġhou4Ġ
jiang3 ĠdeĠ
reng2 Ġyou3Ġ
lang3 Ġde2Ġ
Ġzai4Ġ nan2Ġ
Ġchu1Ġ ru4Ġkou3Ġ
ma3Ġ lai2Ġ
ban1Ġ ci4Ġ
yan2Ġjiu1 Ġyuan2Ġ
ban3Ġ ben3ĠdeĠ
Ġdang1Ġ xuan3
Ġshi4Ġdi4Ġ yi1Ġ
I P
Ġ yao2Ġ
ĠĠĠ fu2Ġ
xian4 Ġshi2Ġ
fu4 Ġzhi4Ġ
hang2 Ġzhou1Ġ
han4 Ġyu3Ġ
ĠdeĠ xiao3Ġ
geng4Ġ duo1
mian4Ġji1 Ġhe2Ġ
B CĠ
Ġ yuan3Ġ
ren2 Ġwei4Ġ
xi1 Ġyuan2Ġ
fen1 Ġwei4Ġ
ke1 Ġer3Ġ
pai2 Ġde2Ġzhu3Ġ
zao1 Ġshou4Ġ
fen1Ġ qu1Ġ
jin3Ġbiao1Ġ sai4
Ġ san1Ġshi2Ġ
an1 Ġxian4Ġ
jiang1 Ġshi4Ġ
bing1 Ġli4Ġ
bai4 Ġzhan4Ġ
Ġbu4Ġ er3
Ġjian4 Ġyou3Ġ
Ġhui4Ġ bei4Ġ
xie2Ġ tiao2
s ang4Ġ
rang4 Ġta1Ġ
jiao4Ġ shou4
shui3Ġ ku4Ġ
gui1Ġmo2 ĠdeĠ
s on
Ġ guan3Ġ
fu4 Ġyou3Ġ
wu3Ġ qi4
pin3Ġ pai2
ĠĠĠR e
hu ang1
Ġwei4Ġ zhong1Ġguo2Ġ
Ġzhe4Ġ ye3Ġshi4Ġ
Ġgai1Ġ di4ĠdeĠ
Ġzui4 Ġchu1
Ġgong1Ġyuan2Ġ qian2Ġ
Ġdi4Ġshi2Ġ yi1Ġ
yi3 Ġshang4Ġ
am Ġ
lie4Ġ ru4
Ġqiu2Ġ yun4Ġdong4Ġyuan2Ġ
bian1Ġ ma3Ġ
gan3Ġ jue2Ġ
Ġmu4Ġqian2Ġshang4Ġwei4Ġ you2Ġren2Ġgong1Ġyin3Ġzhong3Ġzai1Ġpei2Ġ
ĠĠĠ 7
ĠĠĠ 2014Ġnian2Ġ
19 00
nan2 Ġsi1Ġla1Ġ
jin1 Ġri4Ġ
hua2 Ġda4Ġxue2Ġ
Ġhe2Ġ lan2
lu4Ġ xu4Ġ
tui4Ġ xiu1
wu4Ġli3Ġ xue2Ġ
zui4Ġzao3 ĠdeĠ
J Ġ
de n
ĠĠĠ 4Ġyue4Ġ
di ceĠ
mou2 Ġsha1Ġ
sheng1Ġ ming4Ġ
min2Ġ jin4Ġ
w eng1
Ġ chao1
fa3 Ġshi4Ġ
jian1 Ġzhi4Ġ
xue2Ġ sheng1
lu4Ġ shang4Ġ
Ġxi1Ġban1Ġya2 Ġyu3Ġ
ye1Ġ su1
oh n
yuan2 Ġshi2Ġ
lin2 Ġsi1Ġ
Ġli4Ġ ke4Ġ
sheng1Ġ tai4Ġ
dao3Ġ yan3
Ġxiang1Ġ dui4Ġ
ce4Ġ lve4Ġ
Ġt i1Ġ
ka3Ġluo2Ġlai2Ġ na4
ĠĠĠ 4Ġ
38 Ġ
Ġzai4Ġ yuan2Ġ
ding4Ġ qi1Ġ
xu4Ġ shu4Ġ
qian1Ġ shu3
Ġdang1Ġ xuan3Ġ
Ġyou3Ġyi1Ġ xie1Ġ
t sĠ
19 Ġshi4Ġji4Ġ
wo4 Ġer3Ġ
zhong1Ġ bu4Ġ
Ġcheng2Ġ xu4
Ġchu1 Ġxian4
shen1Ġ zhen4Ġ
wei3Ġyuan2Ġ hui4ĠdeĠ
Ġzhi4Ġzuo4 Ġren2Ġ
xia4Ġxia2ĠdeĠyi2Ġge4Ġ xiang1Ġ
g i
Ġ hao3Ġ
Ġ shou4Ġdao4Ġ
shou3 Ġbu4Ġ
te4 Ġhe2Ġ
te4 Ġji2Ġ
wang3 ĠdeĠ
tou2 ĠdeĠ
gan4 Ġxian4Ġ
zhan3Ġ lan3
ĠĠĠC om
ĠĠĠ194 9Ġnian2Ġ
xing3 Ġ
f i
lu4 Ġyu3Ġ
duo1 Ġer3Ġ
dui4Ġ wai4Ġ
shang4Ġ shu4Ġ
xiang1Ġ hu4Ġ
Ġming2Ġ cheng1
feng1Ġ ge2
gai3Ġ wei2
jian4Ġ zao4Ġ
Ġma3Ġlai2 Ġxi1Ġya4Ġ
l y
z u1
di Ġ
jing1 ĠdeĠ
shi1 Ġdi4Ġ
zi Ġgong1Ġsi1Ġ
Ġji2Ġ yi1Ġ
Ġjian4Ġ zao4
Ġyin1 ĠdeĠ
jiao4Ġ zuo4Ġ
zui4Ġ duo1ĠdeĠ
wu3Ġ han4
Ġzhong1Ġguo2Ġ gong4Ġchan3Ġdang3
Ġguo2Ġmin2Ġ dang3Ġ
zhou2 Ġ
ĠĠĠge4Ġren2Ġ sheng1Ġhuo2Ġ
ti ao1Ġ
bei4 Ġshi4Ġ
jia3 Ġji1Ġ
zao3 Ġzai4Ġ
Ġshi4Ġ xiang1Ġgang3Ġ
Ġyu2Ġ 2010Ġnian2Ġ
Ġda4Ġ yue1
Ġ193 8Ġnian2Ġ
Ġji4Ġsuan4 Ġji1Ġ
Ġ deng1Ġ
ĠĠĠ 7Ġyue4Ġ
shu4 Ġhe2Ġ
jin4 Ġji2Ġ
yan2Ġ chang2
Ġqi2Ġ bing1Ġ
tai2Ġ bi4Ġ
kuo4Ġ zhan3Ġ
zhuo1 Ġ
a in
Ġ wen1
Ġ 2005
Ġ kang1Ġxi1Ġ
mu4 Ġshi4Ġ
ru4 Ġwei2Ġ
qi4 Ġren2Ġ
xie2 Ġdai4Ġ
tan4 Ġsuo3Ġ
Ġhe2Ġ tong2Ġ
dui4Ġ xiang4Ġ
ben3Ġ shen1Ġ
zui4Ġ zao3Ġ
tian1Ġ tang2Ġ
miao2Ġ shu4Ġwei4Ġ
qi2 Ġshi4Ġ
mei3 Ġri4Ġ
xiu1 Ġsi1Ġ
jiu1 Ġ
zhuan3 Ġwei2Ġ
198 8Ġnian2Ġ
mai3 Ġ
gui1Ġ hua4
ĠdeĠji1Ġ hui4Ġ
jiu4Ġdu2 Ġyu2Ġ
Ġshi4Ġ ge4Ġ
Ġge4 Ġda4Ġ
Ġke4 Ġli3Ġsi1Ġ
liang4Ġ zi3Ġ
mi2Ġ ni3Ġ
Ġha1 Ġer3Ġ
zhu3Ġchi2 Ġren2Ġ
Ġà ¸
âĦ ĥ
1 Ġming2Ġ
l an
199 2Ġnian2Ġ
Ġdi4Ġ 2Ġ
Ġgong1Ġ kai1
Ġcheng2Ġ bao3Ġ
zhong4Ġ dian3
Ġ194 7Ġnian2Ġ
Ġquan2 Ġqiu2Ġ
Ġ pai2Ġ
ĠĠĠ dong1Ġ
ĠĠĠ 2012Ġnian2Ġ
ĠĠĠ 2013Ġnian2Ġ
fu1 Ġfu4Ġ
Ġzhong1Ġ zhi3Ġ
Ġguo2Ġ gong1Ġ
dai4Ġ bu3Ġ
kai1Ġ mu4Ġ
yi2Ġ min2
pi1Ġ ping2
zuo3Ġ you4
cui1Ġ hui3
lay Sta
c ai1Ġ
ĠĠĠ Y
hang2 Ġzhan4Ġ
zhuang4 Ġbing4Ġdu2
ba1Ġ n
jiang3Ġ zui4Ġjia1Ġ
Ġ hu2
Ġ fu3Ġ
na4 Ġsi1Ġ
min2Ġ zhu3
shang1Ġ pin3Ġ
fan4Ġ wei2
oo g
nuo2 Ġwei1
r en3Ġ
ĠĠĠ xiang1Ġgang3Ġ
dong1 ĠdeĠ
zhen1 ĠdeĠ
Ġbu4Ġ zheng4Ġ
Ġcheng2Ġ wei2Ġyi1Ġ
Ġzhan4Ġ ling3Ġ
nei4Ġ meng2Ġgu3Ġ
bo1Ġ fang4
tai2Ġwan1 ĠdeĠ
du2Ġ te4ĠdeĠ
xie2Ġ shang1Ġ
di3Ġ da2
60 Ġnian2Ġ
Ġshi4Ġ nan2Ġ
fen1Ġ lan2Ġ
que4Ġ ding4
6 4Ġ
t ang1
ĠĠĠ la1Ġ
ĠĠĠ zhi4Ġzuo4Ġ
wu2 Ġer3Ġ
qiu2Ġ dui4
Ġ meng4Ġ
e4 Ġer3Ġ
ju4 Ġzhong1Ġ
zhang1 ĠdeĠ
Ġyi1Ġ chang2Ġ
Ġqian2Ġ long2Ġ
b i1Ġ
Ġ fan3Ġdui4Ġ
yin4 Ġxiang4Ġ
29 Ġ
Ġming2Ġ xing1Ġ
ge1Ġ ci2Ġ
huang2Ġ jin1
Ġ 2025
Ġ kou3Ġ
Ġ ling3Ġ
shu1 Ġshi4Ġ
70 Ġnian2Ġ
Ġji2Ġ yi3Ġ
Ġri4Ġ qi1Ġ
yi2Ġ zhi3
tong2Ġ yang4
Ġ tou4Ġguo4Ġ
Ġ shan3Ġxi1Ġ
ĠĠĠ 8Ġyue4Ġ
fu4 Ġyu3Ġ
ma3 Ġshi4Ġ
jing4Ġ nei4ĠdeĠ
t t
Ġ 22
ci2 Ġhui4Ġ
Ġguo2Ġ yu3Ġ
you2Ġ tai4Ġ
Ġzhou1 Ġren2Ġ
zhi2Ġ bo1Ġ
ka3Ġ la1Ġ
zhao4Ġ pian1
Ġtong2Ġshi2Ġ ye3Ġ
huo2Ġdong4 ĠdeĠ
Ġ diao4Ġ
Ġ gu4Ġshi4Ġ
hu an3
fu2 Ġshe4Ġ
san1 Ġwei4Ġ
wang2 Ġhou4Ġ
chuan1 Ġyue4Ġ
40 Ġnian2Ġ
ck Ġ
Ġdi4Ġ ba1Ġ
te4Ġ qu1Ġ
jin4Ġ zhi3Ġ
Ġsui4 Ġshi2Ġ
6 5Ġ
an i
ch ong3Ġ
ci4 Ġji1Ġ
37 Ġ
da4Ġ xue2
Ġri4 Ġyi4Ġ
Ġer3 Ġzai4Ġ
Ġbing4Ġ biao3Ġshi4Ġ
Ġfu4Ġ gai4Ġ
jian4Ġ kang1Ġ
da3Ġ suan4Ġ
l a3Ġ
xu e1
ceng2 Ġyu2Ġ
jiao4Ġ ke1Ġ
zhe4Ġ zhong3
Ġjin4 Ġji2Ġ
zong3Ġ jing1Ġli3Ġ
Ġhe2Ġliu2Ġ yu4Ġ
Ġ yao1Ġqiu2
ĠĠĠ 2011Ġnian2Ġ
gu ai4
zhan4 Ġzai4Ġ
ci3 Ġshi4Ġ
ge2 Ġsi1Ġ
jiu4 Ġyou3Ġ
Ġyuan2Ġ you3Ġ
shang4Ġ xia4Ġ
ju4Ġ da4ĠdeĠ
han4Ġ lin2Ġ
he4Ġ se4Ġ
kai1Ġfa1 ĠdeĠ
jie1Ġwei4Ġ zhi1Ġ
Ġshi4Ġyi2Ġge4 Ġwei4Ġyu2Ġmei3Ġguo2Ġ
mian4Ġji1Ġhe2Ġ ren2Ġkou3Ġ
D V
t uo3Ġ
ch o
cheng2 Ġshi2Ġ
xiang3 ĠdeĠ
tang2 ĠdeĠ
fang2Ġ kong1Ġ
qun2Ġ zhong4Ġ
Ġ198 1Ġnian2Ġ
cheng2 Ġzai4Ġ
dan1 Ġxin1Ġ
ying1 Ġjun1Ġ
bi3 Ġer3Ġ
bo1 Ġli4Ġ
ji1Ġ chu3
Ġta1Ġ jiang1Ġ
bao3Ġ zhang4
lan2Ġ se4Ġ
que4Ġ bao3Ġ
g ou3
Ġ zhan4Ġdi4Ġ
ĠĠĠ X
qi ao1
zu i3Ġ
Ġyi1Ġ tian1Ġ
Ġchu1Ġ ren4
Ġdang1 Ġnian2Ġ
Ġqi2Ġzhong1Ġ you3Ġ
chuang4Ġ shi3Ġren2Ġ
hang2Ġkong1 Ġgong1Ġsi1Ġ
Ġgai1Ġdi4ĠdeĠ mian4Ġji1Ġhe2Ġren2Ġkou3Ġ
Ġgai1Ġdi4ĠdeĠmian4Ġji1Ġhe2Ġren2Ġkou3Ġ jie1Ġwei4Ġzhi1Ġ
ĠĠĠ mu4Ġqian2Ġ
ĠĠĠ sui1Ġran2Ġ
yue4 Ġhe2Ġ
qu1 Ġji2Ġ
ju1 Ġyu2Ġ
Ġyi4Ġ wai4Ġ
gao1Ġ deng3
Ġxiang1Ġ tong2Ġ
Ġ193 7Ġnian2Ġ
Ġzhi4Ġli4Ġ yu2Ġ
xiang1 ĠdeĠ
cha2 Ġli3Ġ
Ġshi4Ġ yuan2Ġ
xi1Ġ wang4Ġ
dan1Ġ da3Ġ
Ġs u2Ġ
B SĠ
Ġ can1
Ġ yan2Ġjiu1Ġ
Ġ ren4Ġhe2Ġ
mu4 Ġzhi4Ġ
Ġge4Ġ zi4Ġ
Ġjun1Ġ guan1Ġ
tuan2Ġ jie2Ġ
3 000
s k
Ġ wu1
yi2 Ġji4Ġ
pin3 ĠdeĠ
194 5Ġnian2Ġ
Ġjia1Ġ ru4ĠleĠ
Ġchu1Ġ shou4Ġ
gao1Ġ jia4Ġ
hai3Ġ yang2
chao2Ġ ting2Ġ
hui4Ġyi4Ġ shang4Ġ
cun2Ġzai4Ġ yu2Ġ
Ġguo2Ġmin2Ġ zheng4Ġfu3Ġ
b i2Ġ
¡ Ġ
dian3 Ġxing2ĠdeĠ
biao1 Ġji4Ġ
gei3 Ġta1Ġ
Ġshi2Ġ yue4Ġ
Ġde2 Ġli4Ġ
Ġte4Ġ bie2Ġ
m p
t an1
² Ġ
ĠĠĠ qi2Ġzhong1Ġ
fang1 Ġwei4Ġ
Ġzhong1Ġ dui4Ġ
Ġda4Ġ gui1Ġmo2Ġ
xi1Ġ yang2
ĠdeĠyuan2Ġ yin1Ġ
ĠĠĠwei4Ġ leĠ
tou Ġ
Ġ di2
Ġ qiu1
Ġ 35
duo1 Ġyuan2Ġ
xi4 Ġjun1Ġ
guo2Ġ fang2
chan3Ġ sheng1
ling3Ġ yu4ĠdeĠ
ĠĠĠ 9Ġyue4Ġ
ping2 Ġjun1
fu2 Ġzhou1Ġ
zhuang4 ĠdeĠ
fa1Ġ yan2Ġren2Ġ
nv3Ġ hai2Ġ
rui4Ġ dian3
Ġ195 6Ġnian2Ġ
ĠdeĠji4Ġ hua4Ġ
3 Ġming2Ġ
Ġ niu2Ġ
xu4 Ġji2Ġ
jian3 Ġli4Ġ
meng2Ġ te4Ġ
hei1Ġ long2Ġjiang1Ġ
chuang4Ġ zuo4
Ġ Ø
Ġ huai2
jie1 Ġjin4
Ġyi3Ġ 1Ġ
ting2Ġ yun4Ġ
zhuang1Ġ jia3
Ġ wan3Ġ
duan4 Ġshi2Ġjian1Ġ
ting1 ĠdeĠ
Ġhe2Ġ li4Ġ
Ġshi2Ġ jian1ĠdeĠ
fa1Ġ hui1
1 Ġmi3Ġ
Ġ cai3Ġ
qian1 Ġren2Ġ
wan4 Ġli4Ġ
diao4 Ġyu2Ġ
il li
Ġxi1Ġ li3Ġ
Ġzhi1Ġ cheng1Ġ
fu4Ġ zhu3Ġxi2Ġ
wu3Ġ dao3Ġ
m ao1
Ġ ken3Ġ
qi ao1Ġ
san1 Ġyue4Ġ
Ġzhou1 Ġwei2Ġ
shu4Ġ mu4Ġ
guan1Ġ ce4
na4Ġ ru4Ġ
liang4Ġ xiang4Ġ
wang3Ġ wang3Ġ
bu3Ġ chong1Ġ
p eng1Ġ
jia1 Ġshi4Ġ
shu4 Ġren2Ġ
chuan1 Ġguo4Ġ
ji4Ġ xu4
shen1Ġ wang2Ġ
duan3Ġ zan4
fu2Ġjian4Ġ sheng3Ġ
Ġ nei4
shi3 Ġdi4Ġ
Ġdan4 Ġqi2Ġ
fu2Ġ hua4Ġ
ke1Ġ fu1Ġ
ta3Ġ ni2
ĠĠĠche1Ġzhan4Ġ jie2Ġgou4Ġ
9 4
r en3
ĠĠĠ can1Ġkao3Ġ
you3Ġ guan1Ġ
Ġji2Ġ er3Ġ
Ġer2Ġ lai2Ġ
fang2Ġ jian1Ġ
suan4Ġ fa3Ġ
zhong1 Ġhe2Ġ
dang3 Ġji2Ġ
st Ġ
jing1Ġ you2Ġ
jing4Ġ wai4Ġ
Ġcheng2Ġli4Ġ leĠ
qu4Ġshi4Ġ hou4Ġ
Ġsui2Ġ zheĠ
Ġbing4Ġqie3 Ġzai4Ġ
Ġ cai4Ġ
yu4 Ġbei4Ġ
qi1 Ġshi4Ġ
shen2 ĠdeĠ
chong2 Ġfu4Ġ
tui1 Ġxing2Ġ
Ġke4Ġ luo2Ġ
ĠdeĠdi4Ġ yi2Ġge4Ġ
Ġye3Ġ ke3Ġyi3Ġ
ĠR o
s an3
Ġ lu2
ĠĠĠ aĠĠĠ
zhan4 Ġhe2Ġ
duo1 Ġbu4Ġ
zhan3 Ġxian4Ġ
song4 Ġdao4Ġ
Ġta1Ġ hai2
Ġyin1 Ġyuan2Ġ
Ġyin1 Ġqi2Ġ
Ġsheng1Ġ cheng1Ġ
kong1Ġ xi2Ġ
Ġshi4Ġjie4 ĠdeĠ
ni2Ġya4 ĠdeĠ
ao4Ġda4Ġli4Ġ ya4
zhe4Ġjiang1Ġ sheng3Ġ
Ġ zhu3
Ġ 2000
qian2 Ġzai4Ġ
lie4 Ġsi1Ġ
du1 Ġhui4Ġ
e2Ġ hai4Ġe2
hang2Ġ ban1Ġ
shou1Ġ lu4
Ġwen2Ġ hua4
r oun
ĠĠĠ 6Ġyue4Ġ
zhe3 Ġren4Ġwei2Ġ
Ġdi4Ġ 2
Ġchu1 Ġyi1Ġ
Ġhui4Ġ shang4Ġ
tou2Ġ xian2Ġ
se4Ġ cai3Ġ
qiang2Ġ da4ĠdeĠ
guo2Ġjia1Ġ dui4Ġ
tan4Ġ ce4Ġ
pai2Ġhang2Ġ bang3
zhi1 Ġdao4Ġ
hou4 Ġbu4Ġjiu3Ġ
jue2 Ġyu2Ġ
wan3 Ġnian2Ġ
da4Ġ liang4Ġ
Ġdao4 Ġzhong1Ġ
xi1Ġ ya4Ġ
Ġyi3Ġ lai2
Ġwei2Ġ qi2
chong2Ġ xin1
tan4Ġ xian3
bu4 Ġwei4Ġyu2Ġ
shui3 Ġhe2Ġ
Ġzai4Ġ xian4Ġ
Ġdi4Ġ zhong1Ġ
zhe4Ġ yang4ĠdeĠ
xu4Ġ lie4Ġ
cai2Ġ zheng4
Ġh eng1Ġli4Ġ
Ġ195 5Ġnian2Ġ
9 2
b e
zhen1 Ġzheng4Ġ
Ġyi1Ġ tong2
yan2Ġ chang2Ġ
Ġxue2Ġ xi2
pu3Ġ tong1
jin4 Ġxing2ĠdeĠ
Ġda4Ġ sai4Ġ
ke1Ġ xue2
cun1Ġ min2Ġ
Ġzong3Ġ tong3Ġ
ti ao4
chu1 Ġzhan4Ġ
fu4 Ġbu4Ġzhang3Ġ
wang3 Ġqiu2
lu an3
Ġer3 Ġyu3Ġ
la1Ġ te4Ġ
ba1Ġ le4
wang2Ġ zi3Ġ
5 00Ġ
t yĠ
w ang1Ġ
Ġ biao3Ġ
Ġ an1Ġde2Ġ
er i
sheng3 Ġzheng4Ġfu3Ġ
dou1 Ġbu4Ġ
kuo4 Ġjian4Ġ
cheng2Ġ ji4Ġ
Ġguo2Ġ wang2
Ġjia1Ġ si1Ġ
Ġbing4 Ġyou3Ġ
fa1Ġ bu4ĠdeĠ
san1Ġ zhong3Ġ
bao4Ġ zha4
Ġshi3Ġ yong4
che4Ġ tui4Ġ
man3Ġ zu2
Ġceng2Ġ jing1Ġ
bo1 Ġchu1ĠdeĠ
199 7Ġnian2Ġ
duan1 ĠdeĠ
Ġshi4Ġ yan4Ġ
yi1Ġ li4Ġ
Ġji2Ġ si1Ġ
Ġli4Ġ shu3
gui1Ġ ze2
hu4Ġ dong4Ġ
Ġlu4 Ġyi4Ġ
fei1Ġlv4Ġ bin1Ġ
Ġ feng1
ĠĠĠ gen1Ġju4
ben3 Ġbu4Ġ
xiao4 Ġshe4Ġ
Ġri4Ġ yu3Ġ
Ġri4Ġ hou4Ġ
tian1Ġ qi4Ġ
hu2Ġ po1Ġ
a1 Ġfu4Ġ
hou4 Ġta1Ġ
ren4 Ġyi4Ġ
ba1 Ġshi2Ġ
yun4 Ġxing2
wo r
Ġqi2 Ġta1ĠdeĠ
chang2Ġ wei3Ġhui4Ġ
gao4Ġ su4
Ġguo2Ġji4Ġ ji1Ġchang3Ġ
you1Ġ xiu4Ġ
ĠĠĠ xiang1Ġ
ĠĠĠ ri4Ġben3Ġ
ĠĠĠ jian4Ġzhu4Ġ
ma3 Ġli4Ġya4Ġ
gai3Ġ cheng1Ġ
Ġ wen2
ĠĠĠ 2008Ġnian2Ġ
ding4 Ġli3Ġ
xie3 ĠleĠ
et Ġ
ban4Ġ dao3
ĠĠĠgen1Ġju4Ġ 2010Ġnian2Ġmei3Ġguo2Ġren2Ġkou3Ġpu3Ġcha2ĠdeĠshu4Ġju4Ġ
nan4Ġ min2Ġ
Ġ xiong1
ĠĠĠ ci3
di1 ĠdeĠ
Ġyue4Ġ tuan2
Ġji2Ġ jiang1Ġ
qu1Ġ zhu2
mi4Ġ qie4
zhuan3Ġ yi2Ġ
ĠĠĠA r
ren2Ġkou3Ġpu3Ġ cha2Ġ
nuo2 Ġwei1Ġ
1 ĠĠĠ
u sĠ
liu2 Ġxue2Ġ
bao3 Ġwei4Ġ
Ġshi4Ġ bei4Ġ
Ġxian4 Ġyu3Ġ
Ġchu1 Ġxian4ĠdeĠ
Ġzhou1 Ġhe2Ġ
jie2Ġ du4Ġshi3Ġ
bao3Ġ zhang4Ġ
jing4Ġ tou2Ġ
xing1Ġ xi4Ġ
ban4Ġ yan3
nuo4Ġ man4Ġ
chui2 Ġzhi2Ġ
wan2Ġzheng3 ĠdeĠ
Ġ nong2Ġ
ĠĠĠ gao1Ġ
gai3 Ġming2Ġ
wai4Ġ guan1Ġ
xue2Ġshi4Ġ xue2Ġwei4Ġ
Ġ shao4Ġ
xiao4 Ġyou3Ġ
shuo1 ĠdeĠ
Ġshi4Ġ zhi3
Ġna4Ġ me
han3Ġmo4 Ġde2Ġ
i re
r ou
Ġ zu3
Ġ peng2Ġ
su4 Ġshe4Ġ
jia3 Ġshe4Ġ
zang4 Ġyu2Ġ
Ġxian4Ġ zai4ĠdeĠ
Ġke4Ġ sa4Ġsi1Ġ
Ġxue2Ġ hui4Ġ
ban4Ġ fa3Ġ
Ġguo2Ġmin2Ġ dang3
Ġ yi1Ġwei4Ġ
Ġ gong1Ġbu4Ġ
jiang3 Ġzhong1Ġ
Ġshi4Ġ zheng4Ġfu3Ġ
ren2Ġ min2
tiao2Ġ wen2Ġ
Ġtong2Ġshi2Ġ ye3Ġshi4Ġ
pan4Ġ chu3Ġ
Ġhe2Ġnan2Ġ sheng3Ġ
E N
Ġ da2
Ġ chang3Ġ
Ġ 2023Ġnian2Ġ
ĠĠĠ 189
qian2 Ġxian4Ġ
si4 Ġyue4Ġ
na4 Ġhe2Ġ
zhen1 Ġyu3Ġ
fou3 Ġren4Ġ
Ġta1 Ġcheng2Ġwei2Ġ
ren4Ġ ming4Ġ
fa3Ġ guo2ĠdeĠ
Ġbing4Ġ jiang1
deng1Ġ lu4
a1Ġer3Ġ ba1Ġ
Ġguan1 Ġzhi4Ġ
Ġ 80
Ġ zhui1Ġ
Ġ dou1Ġshi4Ġ
Ġ wo4Ġ
ĠĠĠ fa3Ġguo2Ġ
zong3 Ġzhan4Ġ
Ġzhi1 Ġbu4Ġ
Ġda4Ġ cheng2Ġ
ke4Ġ yun4Ġ
li3Ġshi4Ġ hui4Ġ
Ġ ta3
ĠĠĠ for
chuan2 Ġqi2Ġ
za2 ĠdeĠ
Ġhe2Ġ dong1Ġ
Ġyi3Ġ 2Ġ
Ġsi1Ġ fa3Ġ
xiao3Ġ zu3
Ġfen1Ġ bu4Ġzai4Ġ
mao4Ġ xian3Ġ
qu3Ġde2Ġ leĠ
Ġren2Ġkou3 ĠdeĠ
ren2Ġda4Ġ dai4Ġbiao3Ġ
Ġ gai4Ġ
ĠĠĠ chen2Ġ
Ġta1Ġ shuo1Ġ
Ġbei4Ġ jing3Ġ
shui3Ġ shen1Ġ
ming4Ġ ming2ĠdeĠ
2 Ġli4Ġ
wei2 Ġren2Ġ
san1 Ġbu4Ġ
liu4 Ġge4Ġ
ren4Ġ zhi2Ġ
sai4Ġ che1Ġ
5 5Ġ
6 Ġmi3Ġ
Ġ yan4Ġ
ying3 Ġdai4Ġ
qu4 ĠdeĠ
dang4 Ġzuo4Ġ
Ġshi4Ġ dui4Ġ
fang1Ġ cheng2Ġshi4Ġ
ĠM Ġ
Ġjiang1 Ġxi1Ġ
Ġshi4Ġshi4Ġ jie4
dian4Ġying3 ĠdeĠ
luo2Ġma3 Ġdi4Ġguo2Ġ
Ġxian4ĠdeĠyi2Ġge4 Ġxing2Ġzheng4Ġzhen4Ġqu1Ġ
O M
zi3 Ġdan4Ġ
Ġbu4Ġ jin3
Ġren4Ġ zhi2Ġ
mi4Ġ du4Ġ
fan3Ġ dui4
yin1Ġ su4Ġ
H D
h eng1
Ġ pi2
zhan4 Ġyou3Ġ
xin1 Ġxing2Ġ
che1 Ġren2Ġ
li2 Ġshi4Ġ
35 Ġnian2Ġ
Ġda4Ġ fu1Ġ
Ġzhi1Ġ hou4Ġzai4Ġ
yi2Ġ du4
liu2Ġ liang4Ġ
dan1Ġ mai4
zheng1Ġ qu3Ġ
fan4Ġ zui4
yin4Ġ shua1Ġ
Ġceng2 Ġzai4Ġ
jue2Ġsai4 Ġzhong1Ġ
a h
Ġ wan2Ġcheng2Ġ
ĠĠĠ yan2Ġge2Ġ
ĠĠĠ yi3Ġxia4Ġ
luo4 Ġzai4Ġ
te4Ġ lang3Ġ
jiao1Ġ jie4Ġ
wei3Ġyuan2Ġhui4Ġ zhu3Ġxi2Ġ
6 3
ti3 Ġji1Ġ
yun4 ĠdeĠ
mian3 Ġyi4Ġ
yan3Ġ zou4
Ġri4Ġben3 ĠdeĠ
shan1Ġxi1Ġ sheng3Ġ
Ġliu2Ġyu4Ġ mian4Ġji1Ġ
k ui4
m ai2Ġ
Ġ chuang4
xing1 Ġjian4
chuan2 Ġdi4Ġ
hu4 Ġshi4Ġ
cha2 Ġer3Ġsi1Ġ
in e
Ġhe2Ġ ji1Ġ
Ġxian4 Ġzhong1Ġ
Ġxing2 Ġhe2Ġ
Ġjun1Ġ tuan2Ġ
zong3Ġ mian4Ġji1Ġ
shang1Ġ chang3Ġ
hui2Ġ gui1
dai4Ġbiao3Ġ tuan2Ġ
Ġgen1Ġju4Ġ 2020Ġnian2Ġmei3Ġguo2Ġren2Ġkou3Ġpu3Ġcha2ĠdeĠshu4Ġju4Ġ
w it
an4 Ġli4Ġ
chao2 Ġshi2Ġ
ju2 Ġshi4Ġ
bu4Ġ tong2Ġ
Ġzheng4Ġ quan2Ġ
yan3Ġ jiang3Ġ
Ġdong1Ġ bei3
ĠP Ġ
Ġn an4Ġ
5 1
O R
k ou4
Ġ ci2
Ġ gui4Ġ
Ġ qing3Ġ
le Ġdi4Ġ
fu2 Ġshi4Ġ
gao1 Ġdi4Ġ
chang2 Ġbei4Ġ
00 Ġmi3Ġ
cun1 ĠdeĠ
qian3 Ġze2Ġ
Ġzai4Ġ bei4Ġ
min2Ġ zhong4
dian4Ġ zi3
shou4Ġ huan1Ġ
gai3Ġ zao4
bian1Ġ jie4
guang3Ġfan4 ĠdeĠ
Ġ deng1
Ġ zhao1Ġ
ĠĠĠ re
you3 Ġhe2Ġ
jin4 Ġnian2Ġ
ge2 Ġli3Ġ
Ġzhu3Ġ chi2
hang2Ġkong1Ġ mu3
ji4 Ġyu2Ġ
is Ġ
yi4Ġ bai3Ġ
shou3Ġ shu4Ġ
fen1Ġ lie4Ġ
xiang2Ġ xi4Ġ
ĠĠĠ tai2Ġwan1Ġ
shui3 ĠdeĠ
jing3 Ġyuan2Ġ
199 4Ġnian2Ġ
Ġzhong1Ġ qi1Ġ
Ġcheng2Ġ li4ĠdeĠ
sheng1Ġ yin1Ġ
zheng4Ġ chang2Ġ
yan2Ġ lun4Ġ
bao3Ġ jia1
C DĠ
Ġ lan2
ĠĠĠ tong2
di e1Ġ
zhang3 Ġhe2Ġ
jiu4 Ġbei4Ġ
dang4 ĠdeĠ
Ġzai4Ġ qi2
Ġyi1Ġ zhong3
xue2Ġ xi4Ġ
Ġming2Ġ xian3Ġ
Ġdan4 ĠdeĠ
jin1Ġ rong2
gui1Ġ lei4
a ch
kai1 Ġshe4
gen1 Ġben3Ġ
Ġwei4Ġ wei4Ġ
Ġzhi1Ġ shang4Ġ
zhu3Ġ ban4Ġ
qian2Ġ jin4Ġ
yi2Ġ ci4Ġshi4Ġjie4Ġda4Ġzhan4Ġ
tu2Ġ sha1Ġ
qiao2Ġ liang2Ġ
de2Ġ guo2ĠdeĠ
1 10
Ġ ji1Ġyu2Ġ
ĠĠĠ xiang1Ġgang3
jiao1 ĠdeĠ
bian4 Ġshi4Ġ
198 0Ġnian2Ġ
la s
Ġxi1Ġ fang1Ġ
Ġdui4Ġ wu3Ġ
jin1Ġ shan1Ġ
fu2Ġ lei2
4 4Ġ
er2 Ġtong2
Ġshi2Ġ ke4Ġ
li3Ġ lan2Ġ
Ġge4 Ġbu4Ġ
Ġzhou1 Ġli4Ġ
jing1Ġ ying2
Ġdui4Ġ wai4Ġ
shou1Ġ cang2
zhu3Ġyao4 Ġshi4Ġ
Ġli4Ġshi3Ġ xue2Ġjia1Ġ
Ġzhu3Ġyao4 Ġshi4Ġ
Ġyi4Ġshu4 Ġjia1Ġ
Window sĠĠĠ
laySta tion
Ġ ke3Ġneng2
jie4 Ġyou2Ġ
sha1 ĠdeĠ
Ġshi2Ġ you2Ġ
Ġyou3Ġ liang3Ġ
luo2Ġ la1Ġ
shuo4 Ġ
Ġguang1Ġ xu4Ġ
ĠĠĠ g
ĠĠĠ liu2Ġ
ti ao3Ġ
nan2 Ġren2Ġ
Ġshi4Ġ xi1Ġban1Ġya2Ġ
Ġbu4Ġ shi2Ġ
tong1Ġ wang3Ġ
nv3Ġ zhu3Ġjue2Ġ
mo2Ġ te4
sa4Ġ la1Ġ
Ġ195 2Ġnian2Ġ
a1Ġer3Ġ bei1Ġsi1Ġ
24Ġ xiao3Ġshi2Ġ
fo2Ġ jiao4
fu2 Ġyin1Ġ
bian4 ĠdeĠ
199 1Ġnian2Ġ
Ġda4Ġ qiao2
Ġji1Ġ xie4
Ġjin4 Ġer2Ġ
xuan3Ġ qu1
Ġmian4Ġji1Ġ 0
fa1Ġbu4Ġ leĠ
chao1Ġ guo4
Ġda4 Ġbu4Ġfen4
di1Ġqi4Ġ ya1Ġ
7 2
T VĠ
Ġ xiong1Ġ
gu3 Ġji4Ġ
nv3 Ġren2Ġ
Ġshi2Ġ li4Ġ
fen1Ġ pei4
Ġshe4Ġ ying3Ġ
zu2Ġ qun2Ġ
yi3Ġ se4Ġ
zhong4Ġdian3Ġ wen2Ġwu4Ġbao3Ġhu4Ġdan1Ġwei4Ġ
jia1Ġli4Ġfu2Ġ ni2Ġya4Ġzhou1Ġ
6 1
8 Ġge4Ġ
A L
pi ng1
hao4 ĠdeĠ
bian1 Ġzhi4Ġ
qu an4
yi1Ġ yuan4Ġ
zhi4Ġ zuo4
Ġxi1Ġ zang4Ġ
zhong3Ġ lei4Ġ
qing2Ġ bao4
qiang2Ġ diao4
tan3Ġ ding1Ġ
gu3Ġlao3 ĠdeĠ
lai2 Ġke4Ġ
ya4 Ġsi1Ġ
jie1 ĠdeĠ
zhuan3 Ġcheng2Ġ
Ġgong1Ġ gao4Ġ
Ġyuan2Ġ ziĠ
xin1Ġ jiang1Ġ
tou2Ġ shou3Ġ
jia4Ġ gou4Ġ
zhuan1Ġ men2
pei2Ġ xun4Ġ
nu2 Ġli4Ġ
8 4
Ġyi4Ġ da4Ġ
Ġzi4Ġ mu3Ġ
Ġjin1Ġ shu3Ġ
ĠĠĠM e
Ġlian2Ġ jie1Ġ
tan2Ġ pan4
tu2Ġshu1Ġ guan3
c ong1
Ġ xuan2Ġ
ju2 Ġbu4Ġ
Ġyi1Ġ lang3
Ġzhi1Ġ hou4ĠdeĠ
zi1Ġ xun2Ġ
gui1Ġ ding4
Ġshi4Ġyi1Ġ ke1
ti3Ġyu4Ġ guan3Ġ
di2Ġshi4Ġ ni2Ġ
f a4
t sĠĠĠ
Ġ zu2
Ġ lv3
Ġ luo2Ġsi1Ġ
da4 Ġhe2Ġ
guang3 Ġzhou1Ġshi4Ġ
hui2 Ġjia1Ġ
Ġji2Ġ xian4Ġ
ru2Ġ guo3
shou1Ġ ru4
cheng2Ġli4Ġ hou4Ġ
gong4Ġhe2Ġ dang3Ġ
cui1Ġ hui3Ġ
gong4 Ġji4Ġ
Ġshi4Ġ xing1Ġdeng3Ġwei4Ġ
Ġhe2Ġ ji4Ġ
Ġzhong1Ġ xin1ĠdeĠ
Ġguo2Ġ jun1Ġ
zhuan1 Ġli4Ġ
yu3Ġ mao2
Ġyi3Ġ bei3Ġ
yi2Ġ ding4ĠdeĠ
pu3Ġ luo2Ġ
shen2Ġ hua4Ġ
yan2Ġjiu1 Ġzhong1Ġxin1Ġ
dian4Ġying3Ġ jie2Ġ
ĠÐ °
Ġke3 Ġshi4Ġ
gou4Ġmai3 Ġ
wu3 Ġde2Ġ
gu3 ĠdeĠ
zhi4Ġ du4Ġ
wei3Ġ tuo1Ġ
Ġ18 0
ge4Ġ zhong3
Ġjing3Ġ fang1Ġ
Ġ bi3Ġsai4Ġ
a1 Ġsi1Ġ
ke3 Ġjian4Ġ
lun2 Ġsi1Ġ
Ġta1Ġ ye3
fang1Ġ xiang4ĠdeĠ
ĠÃ ©Ġ
E C
l and
w a2
± Ġ
Ġ zeng1Ġ
a1 Ġke4Ġ
duo1 Ġli4Ġya4Ġ
wei1Ġ xie2
ting2Ġ kao4
su1Ġ dan1Ġ
Ġnian2Ġ12Ġyue4Ġ 31Ġri4Ġ
fa3Ġlan2Ġ xi1
g en3
Ġ mi3
Ġ 21
Ġ bu4Ġzai4Ġ
da4 Ġyu2Ġ
jian1 Ġwei4Ġ
Ġzai4Ġ xiang1Ġgang3Ġ
wu4Ġ pin3Ġ
ge1Ġ ge1Ġ
zhuan3Ġ huan4
hong1Ġ zha4Ġ
Ġnian2Ġqing1 ĠdeĠ
p ao1Ġ
ĠĠĠ 2005
deng3 Ġyu2Ġ
qu3 Ġzi4Ġ
Ġshi2Ġ pin3Ġ
Ġri4 Ġhe2Ġ
sai4Ġ guan4Ġjun1Ġ
shi3Ġyong4Ġ zhe3Ġ
mo2Ġ fa3Ġ
fei2 Ġte4Ġ
o g
Ġ ruan3
gong1 Ġhe2Ġ
zhi1 Ġjia1Ġ
tu i3
gao4 Ġshi4Ġ
Ġshi4Ġ ying1Ġguo2Ġ
Ġxian4Ġ ming2Ġ
nei4Ġ rui4Ġ
zhuan3Ġ huan4Ġ
Ġ19 Ġ
zhuan4Ġ xie3Ġ
Ġshi4Ġshi2Ġ shang4Ġ
ru4 Ġqiu2Ġ
jiu4 Ġzai4Ġ
kuai4 ĠdeĠ
Ġxing2Ġ rong2
Ġjun1 Ġyou3Ġ
fu4Ġ shi3Ġ
Ġzhou1Ġ qi1Ġ
Ġyou2Ġ xi4ĠdeĠ
qing1Ġ chu3Ġ
zhun3Ġ bei4
shun4Ġ xu4Ġ
6 2
d uo4
ĠĠĠ 14
wu4 Ġyu3Ġ
geng4 Ġshi4Ġ
tan2 Ġhe2Ġ
Ġji2Ġ bing4
qu1Ġ nei4Ġ
Ġtong2 Ġzhi4Ġ
chan3Ġ wu4Ġ
Ġyin1Ġci3 Ġzai4Ġ
ĠĠĠ en
ĠĠĠ dao4Ġ
ke4 Ġsi1Ġ
ba1 Ġbu4Ġ
wang3 Ġyou3Ġ
ji4Ġ zai3Ġ
Ġxing2 Ġren2Ġ
Ġbing4 Ġshi4Ġ
Ġbei4Ġ ren4Ġming4Ġwei4Ġ
shen3Ġ pan4Ġ
Ġ197 0Ġnian2Ġ
Ġbi4Ġ xu1Ġ
ri4Ġben3 ĠdeĠ
Ġlu2Ġ wa3Ġer3Ġsheng3Ġ
mei3Ġguo2Ġren2Ġkou3Ġpu3Ġ cha2Ġ
sai1Ġer3Ġwei2Ġ ya4Ġ
8 9Ġnian2Ġ
ĠĠĠ 2022Ġnian2Ġ
Ġta1 Ġren2Ġ
zuo4Ġ zhe3Ġ
Ġxing2Ġ rong2Ġ
lian2Ġ luo4Ġ
jiao1Ġ gei3Ġ
shui3Ġ liang4Ġ
Ġtian1Ġ jin1Ġ
qiu2Ġ chang3Ġ
ke3Ġneng2Ġ xing4Ġ
Ġ15 7
Ġ 2004
00 Ġren2Ġ
po 3Ġ
Ġwei4Ġ li4Ġ
Ġshi2Ġ da4Ġ
zhan4Ġ lve4Ġ
zhi2Ġ sheng1Ġji1Ġ
fa3Ġ lan2Ġke4Ġ
Ġqi2Ġ hou4Ġyu2Ġ
zhen4Ġ rong2Ġ
gu3Ġ dian3Ġ
Ġxia4Ġ leĠ
jian3Ġ dan1ĠdeĠ
qu3Ġ mu4Ġ
pian4Ġ duan4Ġ
Ġshi4Ġjie4 Ġshang4Ġ
si4Ġchuan1Ġ sheng3Ġ
ka1Ġ fei1Ġ
Ġ chong2Ġxin1Ġ
ĠĠĠ h
pu3 Ġji2Ġ
chuan1 Ġxian4Ġ
Ġyu2Ġ shi2ĠdeĠren2Ġkou3Ġshu4Ġliang4Ġwei4Ġren2Ġ
bei3Ġ bu4ĠdeĠ
tong1Ġ xun4
mei2Ġyou3Ġ ren4Ġhe2Ġ
Ġmei3 Ġzhou1Ġ
Ġ194 1Ġnian2Ġ
yan2Ġshen1 Ġzhi4Ġ
U S
Ġ qin2
ĠĠĠ hong2Ġ
Ġshi4Ġ ji4Ġzhong1Ġ
Ġshang4Ġ leĠ
zhi3Ġ kong4
wu3Ġ han4Ġ
chong1Ġ man3Ġ
ĠR Ġ
Ġwei4Ġyu2Ġgai1Ġguo2Ġ xi1Ġbu4Ġ
bao1Ġhan2 ĠleĠ
7 3
hao4 Ġwei4Ġ
chi4 Ġjing1Ġ
bei4Ġ jing3
xuan3Ġ xiu4
tai4Ġ shou3Ġ
ying1Ġ xiong2
er4Ġ shi2Ġnian2Ġ
Ġwei4Ġyu2Ġ yin2
cai2Ġ pan4Ġ
Ġyuan2Ġzhu4Ġ min2Ġ
N H
can1 Ġyi4Ġyuan2Ġ
bu3 Ġzhu4Ġ
Ġli4Ġ tao2Ġ
Ġjian4 Ġzai4Ġ
zhu3Ġ dong4Ġ
xi4Ġ jie2Ġ
jie1Ġ xia4Ġ
shou4Ġ huan1Ġying2Ġ
zheng1Ġ fu2Ġ
xie2Ġ tiao2Ġ
ruan3Ġ tiao2Ġ
ge1Ġlun2Ġ bi3Ġya4Ġ
Ġ shuang1
Ġ ka3Ġer3Ġ
yuan2 Ġbu4Ġ
hou4 Ġyi3Ġ
hua4 Ġshi4Ġ
hu4 ĠdeĠ
ha1 Ġli3Ġ
you2Ġ yong3Ġ
zhi3Ġ shu4Ġ
ĠĠĠM u
che4Ġ xiao1
Ġ luo4
cheng1 Ġshi4Ġ
ceng2 Ġbei4Ġ
199 5Ġnian2Ġ
zhen1 Ġren2Ġ
198 4Ġnian2Ġ
Ġshi2Ġ er4Ġnian2Ġ
Ġyi3Ġ bian4Ġ
Ġde2Ġ wei2Ġ
an4Ġ zhao4
bing4Ġ ru4Ġ
ĠĠĠ you2Ġxi4Ġ
ra Ġ
kai1Ġ tong1
Ġ195 4Ġnian2Ġ
M A
e b
k u1
an1 ĠdeĠ
lin2 Ġjin4Ġ
qu3 ĠdeĠ
jia3 Ġji2Ġ
pin2 Ġdao4
Ġren4Ġ ming4Ġ
shou1Ġ fei4Ġ
Ġyou3Ġxian4 Ġgong1Ġsi1
qi2Ġzhong1Ġ yi1Ġ
wang4Ġyuan3Ġ jing4Ġ
a1 Ġbu4Ġ
ge1Ġ shou3
ling3Ġ tu3
dian4Ġshi4Ġ dong4Ġhua4Ġ
Ġchu2Ġ ci3Ġzhi1Ġwai4Ġ
jie4Ġquan2Ġguo2Ġ zheng4Ġxie2Ġ
bao4Ġfa1 Ġhou4Ġ
a vi
Ġ 2003
ĠĠĠ ka3Ġ
zhong1 ĠdeĠyi1Ġ
shu4 Ġjia1Ġ
shi1 Ġji2Ġ
che1 Ġxing2Ġ
ze2 Ġbei4Ġ
fei1 Ġdan4Ġ
Ġda4Ġ xiao3Ġ
ge2Ġ la1Ġsi1Ġ
hai3Ġ nan2Ġ
Ġxue2Ġ shu4Ġ
huang2Ġ jin1Ġ
huo3Ġ che1Ġzhan4Ġ
nong2Ġ chang3Ġ
xuan1Ġ yan2Ġ
Ġ197 5Ġnian2Ġ
ĠH R
mao2Ġ dun4Ġ
ĠĠĠjin3Ġ guan3Ġ
D S
Ġ 45
ming2 Ġhe2Ġ
shi3 Ġyu2Ġ
ni ao4Ġ
pian4 Ġzhong1Ġ
si4Ġ hu1
tu2Ġ an4Ġ
Ġshou3Ġ ci4
Ġtian1Ġ jin1
xuan1Ġ cheng1Ġ
pin1 Ġ
I DĠ
Ġ fa1
qi1 Ġzhi4Ġ
mo n
bo1 ĠdeĠ
shui3 Ġdao4Ġ
ting2 ĠdeĠ
reng2 Ġwei4Ġ
hu1 Ġxi1Ġ
si c
Ġyu2Ġ 2021
hen3Ġ da4ĠdeĠ
Ġ song1Ġ
ji4 Ġzhi4Ġ
lu4 Ġshi4Ġ
bai3 Ġwan4Ġ
huo3 Ġli4Ġ
kua4 Ġyue4Ġ
Ġshi2Ġ yi1Ġnian2Ġ
Ġda4Ġ li3Ġ
zhu3Ġ quan2Ġ
tuo1Ġ li2Ġ
nuo4Ġ fu1Ġ
Ġchi4Ġ wei3Ġ
c ri
ch ou3Ġ
ĠĠĠ jian3Ġli4Ġ
ye3 Ġsheng1Ġ
jie1 Ġshi4Ġ
du2 ĠdeĠ
si sĠ
yi4Ġ ming2Ġ
ji1Ġ guan1Ġ
duo1Ġ zhong3
sheng3Ġ zhang3Ġ
mei3Ġ tian1Ġ
Ġhai3Ġ ba2
Ġfei1Ġ lv4Ġ
Ġxian4Ġshi2Ġ you2Ġ
4 3Ġ
Ġ hua1
Ġ ting1Ġ
men tĠ
mo4 Ġnian2Ġ
tu1 Ġji1Ġ
wen1 Ġdai4Ġ
Ġji2Ġ wei2Ġ
Ġyi3 Ġbu4Ġ
Ġda4Ġ ban3Ġ
Ġxing2Ġ tai4Ġ
wu4Ġ ti3Ġ
Ġyou2Ġ tai4Ġ
shen1Ġ ti3
mei3Ġ xiao3Ġshi2Ġ
ĠdeĠdi4Ġ san1Ġ
chuang4Ġ zao4
Ġ ë
ĠĠĠ 9
sheng1 Ġyuan2Ġ
fang1 Ġzai4Ġ
fen4 ĠdeĠ
hu4 Ġwei4Ġ
sha1 Ġren2Ġ
Ġshi4Ġ e2Ġluo2Ġsi1Ġ
Ġde2 Ġdao4
Ġchu1Ġ chang3Ġ
ni2Ġ su1Ġ
tiao2Ġ jie2Ġ
Ġjian4Ġzhu4Ġ wu4Ġ
Ġ193 9Ġnian2Ġ
Ġyu4 Ġji4Ġ
p a2
xin1 Ġjian4Ġ
wan4 Ġyuan2Ġ
Ġzai4Ġ fa3Ġguo2Ġ
Ġhe2Ġ shang4Ġ
Ġde2 Ġjun1Ġ
lian2Ġ luo4
Ġzhe4Ġ zuo4Ġ
xiu1Ġ ding4Ġ
Ġzhe4 Ġshi2Ġ
Ġ194 4Ġnian2Ġ
l ou4
Ġ cao2Ġ
ĠĠĠ xiao3Ġ
ĠĠĠ 2009Ġnian2Ġ
sheng4 Ġdan4Ġ
chong2 Ġjian4
jun4 ĠdeĠ
Ġji2Ġ gong1Ġ
Ġyu3Ġ xi1Ġ
Ġhuo4Ġ zhe3
long2Ġ sheng3Ġ
jiang3Ġ jin1Ġ
pai2Ġ lie4Ġ
zhong1Ġguo2Ġ da4Ġlu4Ġ
Ġ18 Ġ
xu3Ġ ke3Ġ
sp anĠ
Ġ 90
ĠĠĠ jing1Ġli4Ġ
ni ao4
zao4 Ġxing2Ġ
liu4 Ġming2Ġ
Ġdi4Ġ yi1Ġwei4Ġ
ji1Ġ che1Ġ
Ġyu3Ġ zhou4
ju3Ġ zhen4Ġ
ĠS AO
ĠT Ġ
ĠE Ġ
Ġ ya3
Ġ fan2
ĠĠĠ shang4Ġ
ĠĠĠ er4Ġ
na4 Ġer3Ġ
wo3 ĠdeĠ
ba3 Ġta1Ġ
Ġguo2Ġ you3Ġ
yan2Ġ fa1Ġ
jiao4Ġ gao1Ġ
Ġsheng1Ġ tai4Ġ
xiao4Ġ lv4Ġ
bu3Ġ ru3Ġ
Ġ194 0Ġnian2Ġ
K B
e le
ĠĠĠ lin2Ġ
hai3 ĠdeĠ
Ġyu2Ġ tong2
guan1Ġ xi4ĠdeĠ
Ġqi2Ġ B
Ġdui4Ġ xiang4Ġ
zhou1Ġ bian1
huo3Ġ che1Ġ
Ġli4Ġfa3 Ġhui4Ġ
5 2Ġ
8 Ġmi3Ġ
Ġ zi3Ġ
jiang1 Ġjun1
suo3 Ġyi3Ġ
qian2Ġ ting3
shou1Ġ gou4
geng4Ġ da4ĠdeĠ
4 3Ġnian2Ġ
Ġ feng2
Ġ ti2Ġchu1Ġ
ze2 Ġyou2Ġ
xu4 ĠdeĠ
198 9Ġnian2Ġ
Ġji2Ġ hui4Ġ
Ġji2Ġ qi2Ġta1Ġ
ju4Ġ li2
guan1Ġ kan4Ġ
Ġjing1Ġ chang2Ġ
ou1Ġ meng2Ġ
Ġ196 0Ġnian2Ġ
biao3Ġxian4 Ġchu1Ġ
Ġji2Ġxing2Ġzheng4Ġ dan1Ġwei4Ġ
Ġ zu2Ġ
Ġ fan1Ġ
xing2 ĠdeĠ
fang1 Ġxing2Ġ
zhi2 Ġxing2
zhuang1 Ġwei4Ġ
Ġji2Ġ ti3Ġ
bei4Ġ er3Ġ
jiang1Ġ hu4
yi2Ġ ban4Ġ
bi4Ġ yao4Ġ
xiao1Ġ fang2Ġ
ren2Ġmin2Ġ zheng4Ġfu3Ġ
Ġyin2Ġ wei3Ġ
0 Ġzuo4Ġbiao1Ġwei4Ġ
fen1 Ġqi2Ġ
ya4 Ġhe2Ġ
00 Ġwan4Ġ
Ġcheng2Ġ yi1Ġ
wei2Ġ yi1ĠdeĠ
zhu3Ġ dao3Ġ
Ġdan4 Ġshi4Ġzai4Ġ
zhi2Ġ bang4
Ġbing4Ġ fei1
Ġdan4Ġ zui4Ġzhong1Ġ
tu3Ġ rang3
Ġguan1Ġ zhuang4Ġbing4Ġdu2
Ġwei4Ġyu2Ġyin2 Ġjing1Ġ
Ġqi2ĠB 1900
0Ġzuo4Ġbiao1Ġwei4Ġ chi4Ġjing1Ġ
t ong4
Ġ yun4Ġ
Ġ ke1Ġxue2Ġ
ĠĠĠ 11Ġyue4Ġ
ĠĠĠ 2007Ġnian2Ġ
lian2 Ġjun1Ġ
la1 Ġwei2Ġ
bo2 Ġer3Ġ
sheng4 ĠdeĠ
ï¼ İ
el Ġ
Ġer2 Ġhou4Ġ
Ġzui4Ġ zao3
Ġlian2Ġ meng2Ġ
Ġjian4Ġzhu4Ġ mian4Ġji1Ġ
kong4Ġ zhi4ĠdeĠ
cai3Ġyong4Ġ leĠ
u t
ĠĠĠ san1Ġ
ĠĠĠ fen1Ġbu4Ġ
jie2 Ġshi2Ġ
zi Ġshi4Ġ
jue2 Ġwei4Ġ
jiao1 Ġzhan4Ġ
37 Ġnian2Ġ
Ġshi2Ġ ren4
Ġren2Ġ zhi4Ġ
Ġren2Ġ dui4Ġ
Ġsi1Ġ zhi2Ġ
ci4Ġ shu4Ġ
Ġxiang1Ġ bi3Ġ
bian1Ġ zu3Ġ
Ġt i1
Ġãĥ ³
Ġqing1Ġchao2Ġ zheng4Ġzhi4Ġren2Ġwu4Ġ
Ġao4Ġda4Ġli4Ġ ya4Ġ
V i
r in
Ġ pu2Ġtao2Ġya2
ĠĠĠ ping2Ġ
xian1 Ġwei2Ġ
lun2 ĠdeĠ
si3 ĠleĠ
Ġzai4Ġ qian2Ġ
hou4Ġ qi1Ġ
you2Ġ xi4ĠdeĠ
jiao4Ġ lian4
jue2Ġ se4ĠdeĠ
Ġju4Ġ qing2Ġ
pu3Ġ la1Ġ
ti2Ġ qian2Ġ
g ong3
Ġ liang2
ĠĠĠ 5Ġ
xiang4 Ġji1Ġ
ba1 Ġsi1Ġ
18 5
man4 ĠdeĠ
zhong1Ġ hua2Ġmin2Ġguo2Ġ
zi4Ġ wo3Ġ
feng1Ġ ge2ĠdeĠ
ĠA l
ĠĠĠche1Ġzhan4Ġ gou4Ġzao4Ġ
luo4Ġfa2 Ġke4Ġ
ĠĠĠ chu2Ġ
lun4 Ġshi4Ġ
shi2Ġ dai4Ġ
Ġshi2Ġ san1Ġ
Ġda4Ġ jie1Ġ
xia4Ġ ling4Ġ
kai1Ġ zhan3
ding4Ġ yi4Ġwei4Ġ
Ġxiang1Ġ dang1Ġ
xun4Ġ su4
chong2Ġ fan3Ġ
jie3Ġfang4 Ġjun1
Ġhu2Ġ bei3Ġ
mu4Ġsi1Ġ lin2
b i2
hua4 Ġyu3Ġ
zui4 Ġyou3Ġ
xie3 Ġwei4Ġ
kang4 Ġzhan4Ġ
Ġzhong1Ġ yi1Ġ
Ġxiang1Ġ si4Ġ
Ġ196 6Ġnian2Ġ
ĠĠĠR o
lian2Ġmeng2 ĠdeĠ
4 1Ġ
T A
Ġ wu1Ġke4Ġlan2
nei4 Ġsi1Ġ
ar d
Ġji2Ġ cheng2Ġ
zhu3Ġ da3Ġ
fang1Ġ bian4Ġ
jian1Ġ chi2Ġ
Ġdai4Ġ lai2Ġ
Ġqiu2Ġ dui4
dan1Ġ du2Ġ
jin3Ġ zhang1Ġ
can1Ġ guan1Ġ
zhen1Ġ zheng4ĠdeĠ
Ġ194 2Ġnian2Ġ
Ġda4 Ġbu4Ġfen4Ġ
4 6Ġnian2Ġ
7 Ġge4Ġ
t ao1
Ġ zi1Ġ
Ġ wen1Ġ
Ġ zheng3Ġge4Ġ
suo3 Ġshi4Ġ
suo3Ġ xu1
zhong4Ġ liang4Ġ
Ġye3 Ġbu4Ġ
shun4Ġshi2Ġ zhen1Ġyu3Ġ
g a2
ĠĠĠ guo2Ġji4Ġ
qi n3
Ġzhong1Ġ duan4Ġ
Ġshi2Ġ ba1Ġ
Ġyi3Ġ dong1Ġ
Ġchu1Ġ xi2
zui4Ġ zhong4Ġyao4ĠdeĠ
tie1Ġ mu4
Ġ 38
ĠĠĠ gu3Ġ
dao3 Ġhe2Ġ
ni ang4Ġ
199 0Ġnian2Ġ
Ġzhong1Ġ jiang4Ġ
Ġren2Ġ quan2Ġ
Ġji2Ġ bie2Ġ
Ġyi4Ġ xi2Ġ
Ġyi1Ġ shi2Ġ
Ġda4Ġ dui4Ġ
fu4Ġ mu3Ġ
zhi3Ġ ding4
qi3Ġ yuan2Ġyu2Ġ
tong2Ġ yang4Ġ
Ġ193 5Ġnian2Ġ
O SĠ
R o
n c
Ġ 200
Ġ ji3
ĠĠĠ er2Ġ
ĠĠĠ ta1ĠdeĠ
hu ang3Ġ
zhen4 Ġji2Ġxing2Ġzheng4Ġdan1Ġwei4Ġ
hua2 ĠdeĠ
Ġxian4Ġ zhang3Ġ
Ġyin1 Ġer2
Ġ197 6Ġnian2Ġ
Ġguo2Ġfang2 Ġbu4Ġ
r ao3
Ġ se4Ġ
Ġ jiao3Ġ
Ġ kuai4Ġ
wu4 Ġbu4Ġ
lai2 Ġshi4Ġ
shou4 Ġdao4ĠleĠ
jiang3 Ġli4Ġ
jia4 ĠdeĠ
Ġshi4Ġ tai2Ġwan1Ġ
sheng1Ġ ge2Ġwei4Ġ
kan4Ġ fa3Ġ
kang4Ġri4Ġ zhan4Ġzheng1Ġ
Ġ xi2Ġ
ĠĠĠ Z
Ġzhi4Ġ yuan2Ġ
Ġshang4Ġ ying4Ġ
xiang3Ġ yao4Ġ
rong2Ġ liang4Ġ
gen1Ġ sui2Ġ
tuo2 Ġ
2 Ġhao4Ġ
ji4 Ġbu4Ġ
Ġdao4Ġ da2
qu1Ġ zhu2Ġjian4Ġ
dian4Ġ chi2Ġ
Ġren2Ġkou3 Ġwei4Ġ
ai4Ġer3Ġ lan2
u mĠ
ĠĠĠ wang2Ġ
16 0
Ġshi4Ġ lang2Ġ
yi4Ġ hui4Ġ
zhu4Ġ shou3Ġ
Ġzhou1Ġ zhang3Ġ
jin1Ġ shu3
pin3Ġ zhong3Ġ
Ġan1Ġ hui1Ġ
Ġ196 8Ġnian2Ġ
Ġzheng4Ġfu3 ĠdeĠ
hun4Ġ ning2Ġ
Ġwei1 Ġer3Ġ
e p
Ġ v
Ġ 70
ĠĠĠ 2006Ġnian2Ġ
you4 Ġyi4Ġ
lun4 ĠdeĠ
xun4 Ġxi1Ġ
Ġjian4Ġ kang1
fu2Ġ zhuang1Ġ
Ġyou2Ġ zheng4Ġ
zhen4Ġ ya1Ġ
cheng1Ġ hu1Ġ
jian3Ġ cha2
4 4Ġnian2Ġ
b ao2Ġ
Ġ tai4Ġguo2Ġ
ĠĠĠ zuo4Ġwei2Ġ
quan2 Ġyi4Ġ
197 2Ġnian2Ġ
38 Ġnian2Ġ
Ġyi3Ġ ci3Ġ
zi4Ġ sha1Ġ
hua4Ġ mian4Ġ
hua4Ġ gui1Ġ
jiang3Ġ pai2Ġ
qun2Ġ dao3ĠdeĠ
e4Ġ hua4Ġ
Ġ guang3Ġxi1Ġ
ai4 Ġhao4Ġ
ĠĠĠ luo2Ġ
xing4 Ġming2Ġ
ba1 Ġji1Ġsi1Ġ
bian1 Ġxing2Ġ
si on
dong3 Ġ
Ġshi4Ġ pin2Ġ
Ġyi1Ġ liao2
jing1Ġ yan4
Ġzuo4Ġ zhe3Ġ
tian1Ġ wen2Ġxue2Ġ
shou4Ġ sun3Ġ
shou1Ġ cang2Ġ
Ġ15 0
jing3 Ġwei4Ġ
Ġren2Ġ yu3Ġ
Ġdao4 Ġshi2Ġ
Ġyu3Ġ wen2Ġ
Ġzhou1Ġ fu4Ġze2Ġguan3Ġxia2Ġ
mian4Ġ xiang4Ġ
xuan3Ġ min2Ġ
qing2Ġ gan3Ġ
Ġzhu3Ġ ren4Ġ
tiao2Ġyue1Ġ ti3Ġxi4Ġ
3 9Ġ
8 3Ġnian2Ġ
u sĠĠĠ
nan2 Ġshi4Ġ
xiang4 Ġyu2Ġ
mo4 ĠdeĠ
qu4 ĠleĠ
Ġzai4Ġ you3Ġ
qu1Ġ bie2Ġ
su4Ġ song4Ġ
4 Ġmi3Ġ
fei1 ĠdeĠ
que4 Ġshi2Ġ
el l
Ġzhong1Ġ shan1
Ġyu2Ġ 2016
Ġyu2Ġ lei2Ġ
jian1Ġ cha2
wai4Ġ lang2Ġ
Ġyou2 Ġqi2Ġ
ĠdeĠshi2Ġ jian1
ĠĠĠ sui1Ġran2
te4 Ġzai4Ġ
shen1 Ġyu2Ġ
liang3 Ġzuo4Ġ
tang2 Ġhe2Ġ
suan1 Ġjian3Ġ
Ġzai4Ġ cheng2Ġ
Ġgong1Ġ da3Ġ
you2Ġ ju2
qian2Ġ shen1Ġ
ke1Ġ hui4Ġshi4Ġdi4Ġ
jian3Ġ ce4Ġ
Ġyin3Ġ fa1Ġ
Ġai4 Ġer3Ġ
E S
xiang4 Ġwei4Ġ
ke1 Ġli4Ġ
xiang3 Ġyou3Ġ
ji1Ġ hui4Ġ
jiang1Ġ nan2Ġ
kao3Ġ cha2Ġ
ĠĠĠC on
pei2Ġ xun4
nan2Ġji2Ġ tiao2Ġyue1Ġti3Ġxi4Ġ
Ġping2 Ġcheng2Ġ
Ġ l
Ġ kong1Ġ
mei2 Ġtong2Ġpai2Ġ
luo4 Ġyi1Ġ
ting1 Ġdao4Ġ
yin2 Ġhe2Ġ
tu1 Ġran2
can2 Ġji2Ġren2Ġ
Ġyu2Ġ 2019
wei2Ġ ye3Ġ
Ġyuan2Ġ yin1Ġshi4Ġ
qian2Ġ lai2Ġ
ji3Ġ nei4Ġ
Ġgai1Ġcun1Ġ shi3Ġjian4Ġyu2Ġ
4 2Ġnian2Ġ
e li
Ġ xiao3Ġshi2Ġ
yu2 Ġwei4Ġ
Ġshi4Ġ chu1Ġ
Ġzai4Ġ nei4Ġ
Ġcheng2Ġ gong1ĠdeĠ
dian4Ġ liu2Ġ
duo1Ġ shu4
quan2Ġ ti3Ġ
su4Ġ du4
mo4Ġ qi1Ġ
Ġt ong4Ġ
quan2Ġguo2Ġ zhong4Ġdian3Ġwen2Ġwu4Ġbao3Ġhu4Ġdan1Ġwei4Ġ
re4Ġ dai4
Ġxing2Ġcheng2Ġ leĠ
qi2Ġzhong1Ġ yi2Ġge4Ġ
xia4Ġxia2ĠdeĠyi2Ġge4Ġxiang1Ġ zhen4Ġji2Ġxing2Ġzheng4Ġdan1Ġwei4Ġ
zheng4 Ġyi4Ġ
mei3 ĠdeĠ
zhen4 Ġdi4Ġ
17 9
hun1 Ġyin1
bo1Ġ te4Ġ
sha1Ġ bai2Ġ
3 3Ġnian2Ġ
4 Ġming2Ġ
te4 Ġshi4Ġ
ta3 Ġji1Ġ
gong1Ġ min2Ġ
Ġjia1Ġ li3Ġ
Ġke4 Ġyu3Ġ
Ġde2Ġ luo2Ġ
jiao4Ġ zong1Ġ
fa3Ġ lan2Ġxi1Ġ
qing1Ġ xiang4Ġ
hui2Ġ da2Ġ
dang1Ġ xuan3Ġwei4Ġ
lei2Ġ da2Ġ
pi1Ġ pan4Ġ
Ġ195 9Ġnian2Ġ
ĠĠĠL i
tian1Ġwen2Ġ tai2Ġ
b a
wu4 Ġzhong1Ġ
199 3Ġnian2Ġ
nong2 Ġli4Ġ
cu4 Ġ
Ġzai4Ġ na4Ġ
Ġri4 Ġyi3Ġ
Ġyi1Ġ ran2Ġ
wei2Ġ chi2Ġ
Ġjian4 Ġdao4Ġ
Ġji1Ġ fen1Ġ
jiao4Ġ da4ĠdeĠ
Ġwei2Ġ wu2Ġer3Ġ
shang1Ġ hai4Ġ
tiao2Ġ kuan3Ġ
kuang1Ġ jia4Ġ
Ġ guang1
48 Ġnian2Ġ
cheng2Ġ ren4Ġ
Ġyue4Ġ yu3Ġ
Ġguo2Ġ an1Ġ
Ġcheng2Ġ fen4Ġ
Ġge4 Ġguo2Ġjia1Ġ
yan3Ġ hua4Ġ
Ġ195 3Ġnian2Ġ
Ġsi1Ġling4 Ġyuan2Ġ
Ġ qian1
Ġ bin1Ġ
yu3 Ġdi4Ġ
wei2 Ġgong1Ġ
ci2 Ġji1Ġ
fang2 Ġxian4Ġ
Ġzai4Ġ shang4Ġ
ji1Ġ du1Ġ
wei2Ġ chi2
Ġge4Ġ lei4Ġ
Ġbing4Ġ bu2Ġshi4Ġ
fen1Ġ li2
bao3Ġ xian3Ġ
Ġzhe4Ġ yang4
Ġxia4Ġ lai2Ġ
wang3Ġ wang3
xiao3Ġxing2Ġ xing1ĠdeĠ
min2Ġzu2Ġ zhu3Ġyi4Ġ
nan2Ġji2Ġtiao2Ġyue1Ġti3Ġxi4Ġ guan3Ġli3Ġ
7 Ġmi3Ġ
r en
Ġ 2002
ĠĠĠ 13
ĠĠĠ zhi2Ġye4Ġsheng1Ġya2Ġ
le Ġzhong1Ġguo2Ġ
sheng1 Ġhe2Ġ
ku ang2
shui3 Ġshang4Ġ
sa4 Ġke4Ġsi1Ġ
ĠdeĠ gu3Ġ
shi2Ġ yi1Ġ
hui4Ġ shang4Ġ
dai4Ġ ma3Ġ
tong1Ġ yong4Ġ
yi2Ġge4 Ġyue4Ġ
dian4Ġshi4Ġ jie2Ġmu4Ġ
Ġ17 Ġ
re4Ġdai4Ġ qi4Ġxuan2Ġ
shan1Ġmai4 ĠdeĠyi1Ġbu4Ġfen4Ġ
hu4Ġlian2Ġ wang3Ġ
ĠĠĠ huo4Ġ
hai3 Ġshi4Ġ
sheng3 Ġfu4Ġze2Ġguan3Ġxia2Ġ
yin3 Ġjin4Ġ
25 0
zu an1Ġ
lei3 Ġji1Ġ
Ġshi2Ġ ti3Ġ
Ġda4Ġ qi4Ġ
Ġer2Ġ tong2
fa3Ġ xue2Ġ
Ġfu4Ġ zhu3Ġxi2Ġ
ting2Ġ zhi3
Ġci3Ġ ci4Ġ
Ġ16 Ġ
mie4Ġ jue2Ġ
Ġji2Ġbei3Ġ mei3Ġ
gen3 Ġdi4Ġ
t a4Ġ
y st
ĠĠĠ ri4Ġ
qi a4
ri4 Ġjun1Ġ
dui4 Ġzhong1Ġ
du i1
si4 Ġwei4Ġ
fei1 Ġer3Ġde2Ġ
jian3 Ġyi4Ġ
Ġdi4Ġ 3Ġ
Ġcheng2Ġ jiu4Ġ
Ġzhi1 Ġli3Ġ
Ġda4Ġ chen2
Ġhuo4Ġ cheng1Ġ
zheng4Ġzhi4Ġ jia1Ġ
Ġ19 20Ġnian2Ġ
wei2Ġyi1Ġ yi1Ġ
Ġ guo1Ġ
ĠĠĠ jie2Ġ
ĠĠĠ wai4Ġbu4Ġ
ceng2 Ġyou3Ġ
ceng2 Ġren4Ġ
Ġwei4Ġ ji2Ġ
Ġchu1 Ġyu2Ġ
wen2Ġ zhang1
qian2Ġ feng1Ġ
tong2Ġ meng2
Ġye3 Ġzai4Ġ
Ġ197 2Ġnian2Ġ
ĠJ Ġ
Ġmu3Ġ qin1
f eng3Ġ
m ai2
Ġ yao4
yu3 Ġyi4Ġ
gai3 Ġjin4Ġ
sui2 Ġji1Ġ
Ġzhou1Ġ kan1Ġ
Ġdan4Ġ ye3Ġ
jie3Ġ san4
liang2Ġ hao3Ġ
ĠdeĠgong1Ġ neng2Ġ
Ġ194 3Ġnian2Ġ
YouTub eĠ
a di
yong4 Ġzai4Ġ
jie2 Ġchu1Ġ
bei3 Ġji2Ġ
Ġren2Ġ bei4Ġ
Ġyi1Ġ shi1Ġ
Ġxian4Ġ xing4Ġ
tang2Ġ qu1Ġ
xiang1Ġgang3 ĠdeĠ
ĠĠĠ199 9Ġnian2Ġ
ĠĠĠzhong1Ġ hua2Ġren2Ġmin2Ġgong4Ġhe2Ġguo2Ġ
fa1Ġbiao3 ĠdeĠ
can1Ġsai4Ġ zi1Ġge2Ġ
Ġ sĠ
ding4 Ġzai4Ġ
liu2 Ġqiu2Ġ
bing1 ĠdeĠ
ren2Ġ kou3Ġwei4Ġ
Ġdi4Ġ chan3Ġ
Ġyou3Ġ ming2Ġ
ji4Ġ hua4
Ġyuan2Ġ li3Ġ
nan2Ġ bu4ĠdeĠ
suo3Ġ wei4ĠdeĠ
liang3Ġ an4Ġ
Ġren2Ġmin2Ġ zheng4Ġfu3
chong2Ġ qing4Ġ
Ġge4Ġyue4Ġ hou4Ġ
ya4Ġmei3Ġ ni2Ġya4Ġ
3 9Ġnian2Ġ
5 1Ġ
Ġ zong1Ġ
ĠĠĠ wu2Ġ
ye4 Ġhe2Ġ
ni ang2
xin4 Ġren4Ġ
zeng1 Ġshe4Ġ
Ġyi1Ġ lai4
yu4Ġ ce4Ġ
ci2Ġ dian3Ġ
du1Ġ cha2Ġ
shao4Ġ nv3
bi3Ġsai4 ĠdeĠ
xiu1Ġdao4Ġ yuan4Ġ
4 1Ġnian2Ġ
fen1 Ġji2Ġ
Ġguo2Ġ dao4Ġ
Ġdui4Ġ fang1Ġ
hai3Ġ ba2Ġgao1Ġdu4Ġ
nei4Ġ ge2
pu3Ġ lu3Ġshi4Ġ
yan3Ġ zou4Ġ
Ġwei4Ġyu2Ġ zhong1Ġhua2Ġren2Ġmin2Ġgong4Ġhe2Ġguo2Ġ
Ġzhu3Ġ ti2Ġ
jiu3Ġ long2
yin1Ġ ci3Ġ
Ġtong2Ġ xing4Ġ
Ġlai2Ġ zi4
Ġzhi2Ġ jie1Ġ
ĠdeĠji4Ġ shu4Ġ
wen3Ġ ding4ĠdeĠ
tai4Ġyang2 Ġgong1Ġ
1 Ġjia1Ġ
Ġ hei1
zh e1Ġ
da4Ġ xing2Ġ
Ġta1 Ġyou3Ġ
dao3Ġ shi1Ġ
sheng4Ġ mu3Ġ
shen2Ġ sheng4Ġ
ban3Ġ quan2Ġ
ju1Ġ liu2Ġ
yin4Ġ ni2
Ġxiang1Ġdang1 Ġyu2Ġ
U N
Ġ 34
Ġ jie1Ġwei4Ġ
Ġ lei3Ġji4Ġ
ye3 Ġzhan4Ġ
shui3 Ġzhong1Ġ
ĠdeĠ zhi1Ġchi2Ġ
Ġshi4Ġ cheng2Ġ
Ġcheng2Ġ du1Ġ
Ġxi1Ġ te4Ġ
qi1Ġ jian1ĠdeĠ
ru4Ġ jing4Ġ
shang1Ġ wu4Ġ
Ġ15 6
Ġ197 7Ġnian2Ġ
ĠF Ġ
I V
Ġ wei3
Ġ di1Ġ
luo4 Ġshi2Ġ
tui1 Ġli3Ġ
Ġbu4Ġ lu3Ġ
Ġli4Ġ ao4Ġ
Ġgong1Ġ an1Ġ
Ġta1 Ġbu4Ġ
qu1Ġ dong4Ġ
Ġzheng4Ġ chang2Ġ
ĠĠĠS o
Ġxing2Ġzheng4Ġ yuan4Ġ
tui1Ġchu1Ġ leĠ
Ġhua2Ġ sheng4Ġ
3 2Ġnian2Ġ
Ġ zhan4Ġhou4Ġ
jian4 Ġshe4
xian1 ĠdeĠ
huan2 Ġqiu2Ġ
Ġda4Ġ lian2Ġmeng2Ġ
Ġchu1 Ġnian2Ġ
liu2Ġ dong4Ġ
8 2
ĠĠĠ min2Ġguo2Ġ
hui4 Ġwei4Ġ
hun1 Ġli3Ġ
lo g
Ġhe2Ġ yuan2Ġ
Ġyu3Ġ zhi1Ġ
Ġping2Ġ jie4Ġ
ye4Ġ jian1Ġ
ĠleĠ yi2Ġge4Ġ
Ġzi4Ġ ran2
tou2Ġ xiang2
Ġn uo2
1 30
6 2Ġ
b i1
Ġ qiao2Ġzhi4Ġ
ĠĠĠ wu3Ġ
ĠĠĠ zhang1Ġ
bao3 Ġhe2Ġ
bai2 Ġren2Ġ
Ġxing2Ġ shi4ĠdeĠ
Ġxing2Ġ chai2
zhu3Ġ liu2Ġ
Ġchu1Ġ lai2ĠdeĠ
lu4Ġ ying3Ġdai4Ġ
ti3Ġ yan4Ġ
dan1Ġ mai4Ġ
Ġben3Ġ tu3Ġ
P S
p eng1
z en3Ġ
Ġ kai1Ġshi3
chuan2 ĠdeĠ
ting2 Ġzhan4Ġ
na2 Ġda4
Ġcheng2Ġ zuo4Ġ
Ġdai4Ġ ma3Ġwei4Ġ
ting2Ġ kao4Ġ
su1Ġ ge2Ġlan2
li4Ġshi3Ġ shang4Ġ
ĠĠĠM ar
Ġ196 4Ġnian2Ġ
Ġxian4Ġshi2Ġyou2Ġ nan2Ġji2Ġtiao2Ġyue1Ġti3Ġxi4Ġguan3Ġli3Ġ
l i1Ġ
t yĠĠĠ
Ġ 2024Ġnian2Ġ
ch ai1
ĠĠĠ che1Ġzhan4
ping2 Ġren2Ġ
bei3 ĠdeĠ
198 6Ġnian2Ġ
ding3 Ġji2Ġ
Ġshi4Ġ zhi4Ġ
Ġdi4Ġ shang4Ġ
mian4Ġ 2
ti2Ġ gao1
jing3Ġ dian3Ġ
Ġyou2 Ġqi2
zhen1Ġ cha2Ġ
zhuan1Ġ yong4Ġ
ĠĠĠA l
Ġ193 6Ġnian2Ġ
1 Ġhao4
5 000
5 4Ġ
Ġ kuan1Ġ
ĠĠĠ sha1Ġ
xi1 Ġyu2Ġ
ze2 Ġyi3Ġ
ba1 Ġli3Ġ
luo4 Ġyu2Ġ
pian4 Ġren2Ġ
Ġhe2Ġ yi4Ġ
Ġzhi4Ġ du4
tong3Ġzhi4Ġ zhe3Ġ
ĠĠĠ194 5Ġnian2Ġ
ĠU Ġ
4 7Ġnian2Ġ
Ġ rong2
Ġ dou4Ġ
Ġ chao1Ġguo4Ġ
ĠĠĠ yin1Ġyue4Ġ
qi1 Ġyue4Ġ
jiang3 Ġxue2Ġ
Ġdi4Ġ jiu3Ġ
Ġji1Ġ ben3
guan1Ġ guang1Ġ
fa1Ġ jue2Ġ
li2Ġ ba1Ġn
yi3Ġ jing1
Ġ195 1Ġnian2Ġ
guan1Ġfei4Ġyan2Ġ que4Ġzhen3Ġbing4Ġli4Ġ
Ġ fan4
Ġ peng2
Ġ bang1Ġzhu4Ġ
ĠĠĠ 2005Ġnian2Ġ
jiao1 Ġyou2Ġ
man4 Ġdi4Ġguo2Ġ
zheng3 Ġli3Ġ
zhui1 Ġqiu2Ġ
34 Ġnian2Ġ
Ġzai4Ġ 193
ji1Ġ bai4Ġ
xi1Ġ wang4
Ġhou4Ġ zhe3
jian1Ġ cha2Ġ
yi2Ġ mian4Ġ
jiu4Ġ zhi3Ġ
zao4Ġ chuan2Ġ
Ġyin1Ġwei4Ġ ta1Ġ
Ġzai4Ġdi4Ġ yi1Ġ
ĠĠĠzhe4Ġ ke1Ġ
Ġ zu3Ġzhi1Ġ
ri4 Ġzhi4Ġ
dai4 Ġdao4Ġ
hui2 Ġdao4
ren2Ġ yuan2Ġ
Ġdi4Ġ yu4Ġ
Ġyou3Ġ guan1ĠdeĠ
Ġgong1Ġ chang3
Ġyi1Ġ qie4Ġ
hua4Ġ ru4Ġ
jing3Ġ qu1Ġ
fang2Ġ wu1
ĠM ar
Ġzhi2 Ġxing2Ġ
Ġn u
âĪ Ĵ
Ġ lei4Ġ
ai4 Ġli4Ġ
bei1 ĠdeĠ
Ġyu2Ġ 2018
Ġyu2Ġ 2024
Ġren2Ġ li4Ġ
zhan4Ġ lve4
guan1Ġ lian2Ġ
lu4Ġ duan4Ġ
jiao4Ġ di1Ġ
feng1Ġ fu4ĠdeĠ
bo2Ġ la1Ġ
she4Ġ ying3Ġ
ĠdeĠji1Ġ chu3
Y Ġ
ze2 Ġxi1Ġ
sheng3 Ġhui4Ġ
tong1 Ġxing2Ġ
le4 Ġyuan2Ġ
ku4 Ġer3Ġ
Ġshi4Ġ xia4Ġxia2ĠdeĠyi2Ġge4Ġxiang1Ġzhen4Ġji2Ġxing2Ġzheng4Ġdan1Ġwei4Ġ
gong1Ġ ji1Ġ
ji4Ġ shu4
Ġyu3Ġ qi2
ĠdeĠshi4Ġ jie4
ĠÐ ¾
Ġ ni2
Ġ hui1Ġ
en terĠ
ĠĠĠ Ð
ĠĠĠ fen1Ġlei4Ġ
ji2 Ġzhong1Ġxue2Ġ
tong2 Ġwei4Ġ
duo1 Ġsi1Ġ
si4 Ġren2Ġ
geng4 Ġgao1Ġ
jiang4 Ġji2Ġ
Ġyi1Ġ er3Ġ
Ġji4Ġ hua4ĠdeĠ
yan2Ġjiu1 ĠdeĠ
lun4Ġ tan2Ġ
Ġ16 0
pei2Ġ yang3
nu an3Ġ
t en
Ġ si3Ġ
zong3 Ġsi1Ġling4Ġ
xie1 Ġer3Ġ
or l
Ġbei4Ġ bu3Ġ
ben3Ġ ke1Ġ
Ġqi2Ġ xia4ĠdeĠ
dong1Ġ qu1Ġ
jie1Ġ guan3Ġ
Ġzheng4Ġ ce4
Ġdan4Ġ mei2Ġyou3Ġ
Ġben3Ġ zhan4Ġ
tong2Ġ meng2Ġ
Ġ197 3Ġnian2Ġ
Ġ shu4
Ġ tian2
Ġ tan2Ġ
le sĠĠĠ
ci4 Ġshi4Ġ
ke1 Ġjin4Ġshi4Ġ
shi2Ġ qi1
Ġgong1Ġ jiao1Ġ
Ġxing2Ġ hao4Ġ
zheng4Ġ ce4
qu1Ġ fu4Ġze2Ġguan3Ġxia2Ġ
lian2Ġ zai3Ġ
Ġhei1Ġ long2Ġjiang1Ġ
n ĠĠĠ
Ġ chao1Ġ
jian4 ĠdeĠ
min2 Ġyi4Ġ
nv e4
qian1 Ġming2Ġ
qiu1 Ġji4Ġ
ye2 Ġer3Ġ
Ġgong1Ġ she4Ġ
Ġxia4Ġ wu3Ġ
mi4Ġ su1Ġli3Ġ
Ġzhi2 Ġli4Ġ
Ġ14 Ġ
Ġhe2Ġdao4Ġ quan2Ġzhang3Ġ
Ġ yu2
Ġ sang1
Ġ 37
ĠĠĠ zheng1Ġyi4Ġ
te4 Ġren2Ġ
can1 Ġyi4Ġyuan4Ġ
xuan1 Ġshi4Ġ
yuan3 ĠdeĠ
Ġyi3Ġ bian4
lai2Ġ kan4Ġ
te4Ġ shu1
dian4Ġ tai2
feng1Ġ suo3Ġ
xi2Ġ ji1
tiao2Ġ mu4Ġ
ĠI ST
dong1Ġbu4Ġ shi2Ġqu1Ġ
guo2Ġwu4Ġ yuan4Ġ
mi c
xi1 Ġxian4Ġ
chu ang1
fan3 Ġji1Ġ
tuo1 Ġer3Ġ
liu4 Ġshi4Ġ
Ġdao4 Ġji2Ġ
Ġjun1 Ġren2Ġ
dong4Ġ wu4ĠdeĠ
chuan2Ġ shuo1
luo4Ġ te4Ġ
zhun3Ġ que4Ġ
gui4Ġ zu2
e i
Ġ kang1
Ġ 2001
sh e1Ġ
ke4 Ġli3Ġsi1Ġ
can1 Ġyi4Ġ
guang3 Ġyi4Ġ
Ġhe2Ġ zhi4Ġ
di4Ġ guo2Ġ
gong1Ġ ye4Ġ
Ġyu2Ġ 2015
Ġcheng2Ġ zhang3Ġ
Ġqi2 Ġzhi4Ġ
bei3Ġ hai3Ġdao4Ġ
duo1Ġ xiang4Ġ
Ġxia4Ġ ling4Ġ
dou1Ġ mei2Ġyou3Ġ
zhuang4Ġ tai4
Ġ197 4Ġnian2Ġ
Ġyou4 Ġyi4Ġ
la1Ġsi1Ġ jia1Ġ
fa1Ġbiao3 ĠleĠ
sheng1Ġchan3 ĠdeĠ
Ġ wa3
Ġ lao3
Ġ yi4Ġnian2Ġ
ĠĠĠ dao4
ĠĠĠ quan2Ġ
yu3 Ġzhong1Ġguo2Ġ
ren4 Ġzhi1Ġ
yun4 Ġzai4Ġ
zhuang1 ĠdeĠ
niu2 Ġsi1Ġ
36 Ġnian2Ġ
Ġnan2Ġ xing4Ġ
lv4Ġ hua4Ġ
bao1Ġkuo4 Ġyi3Ġxia4Ġ
fan2Ġ mang2
gong1Ġyuan2Ġ qian2Ġ
shou1Ġshi4Ġ lv4Ġ
zhui1Ġsu4 Ġdao4Ġ
3 00Ġ
Ġ sheng3Ġ
Ġ biao1Ġ
lin2 Ġzhong1Ġ
han4 Ġguo2Ġ
198 7Ġnian2Ġ
chun1 Ġji4Ġ
Ġyi1Ġ ran2
sheng1Ġ cheng1Ġ
fu4Ġ xing1Ġ
yu4Ġ wei2Ġ
dong1Ġ ce4Ġ
fen1Ġ bu4Ġzai4Ġ
Ġshi4Ġyi1Ġ zuo4
ai1Ġna4Ġ sheng3Ġ
te4 Ġgong1Ġ
zui4 Ġchu1ĠdeĠ
liang4 Ġji2Ġ
31 Ġnian2Ġ
36 Ġ
Ġbei4Ġ ren4Ġwei2Ġ
shou3Ġ xian1Ġ
tou2Ġ ru4
ĠA n
ĠE STĠ
xi4Ġtong3 Ġzhong1Ġ
I R
ch ou1
dui4 Ġli4Ġ
Ġzai4Ġ li4Ġ
Ġyou3Ġ xu3Ġduo1Ġ
nan2Ġ mei3Ġzhou1Ġ
zhong1Ġguo2Ġ da4Ġlu4ĠdeĠ
pao3 Ġdao4Ġ
a z
h er
Ġ duan4Ġ
Ġ guan3Ġli3Ġ
li3 Ġshi2Ġ
qu an3
rong2 ĠdeĠ
ying2 Ġli4Ġ
guang1 ĠdeĠ
Ġyi3Ġ ji2Ġzai4Ġ
Ġxi1Ġ yin3
zi4Ġ shen1Ġ
ru4Ġ kou3
zui4Ġ di1Ġ
bo2Ġ ge2Ġ
ĠH Ġ
Ġjie1Ġ shou4Ġ
mei4Ġ mei4Ġ
wu2Ġxian4Ġ dian4Ġ
Ġshi4Ġyi1Ġke1 Ġwei2Ġrao4Ġ
w a1
Ġ chi2Ġ
li3 Ġren2Ġ
she4 Ġji2Ġ
dang1 Ġri4Ġ
sheng3 Ġli4Ġ
jiu3 Ġshi2Ġ
biao1 Ġshi4Ġ
xin4 Ġhao4
at Ġ
guan1Ġ zheng4Ġ
ti2Ġ cai2Ġ
liang3Ġ ce4Ġ
dou1Ġ ke3Ġyi3Ġ
Ġ13 Ġ
jue2Ġdui4Ġ xing1Ġdeng3Ġwei4Ġ
ping1 Ġp
jie4Ġquan2Ġguo2Ġzheng4Ġxie2Ġ wei3Ġyuan2Ġ
E T
Ġ shu1
Ġ nuo4
zhi3 Ġchu1
chuan2 Ġyuan2Ġ
zhan3 Ġchu1Ġ
you1 Ġhui4Ġ
you3Ġ yi4Ġ
Ġxing2Ġ xing1Ġ
ping2Ġ heng2Ġ
fang1Ġ an4
Ġbing4Ġ huo4Ġde2Ġ
Ġju4Ġ ben3Ġ
shu1Ġ niu3Ġ
Ġxiang1Ġ guan1ĠdeĠ
qian1Ġ yin3Ġ
k i
Ġ mao2
ĠĠĠ wen2Ġhua4Ġ
dui4 Ġdi4Ġ
de2 Ġyi4Ġzhi4Ġ
fu2 Ġji2Ġ
gou1 Ġtong1Ġ
Ġzai4Ġ dang1Ġshi2Ġ
Ġzhong1Ġ yuan2Ġ
Ġshi2Ġ liu4Ġnian2Ġ
ju4Ġ ben3Ġ
qian2Ġ ting3Ġ
fen1Ġ xiao4Ġ
zhong3Ġ zu2
hen3Ġ shao3Ġ
ke3Ġneng2 ĠdeĠ
ĠE DTĠ
wan1Ġ qu1Ġ
Ġ5Ġ diao4Ġkuai4Ġyi1Ġxiao3Ġshi2Ġ
lian2Ġsai4 ĠdeĠ
su1Ġwei2Ġ ai1
Ġji2Ġbei3Ġmei3Ġ dong1Ġbu4Ġshi2Ġqu1Ġ
tai4Ġyang2Ġgong1Ġ zhuan4ĠdeĠxiao3Ġxing2Ġxing1Ġ
Ġshi4Ġyi1Ġke1Ġwei2Ġrao4Ġ tai4Ġyang2Ġgong1Ġzhuan4ĠdeĠxiao3Ġxing2Ġxing1Ġ
ao4 Ġke4Ġ
en1 Ġsi1Ġ
ci3 Ġdi4Ġ
han2 Ġyi4Ġ
45 Ġnian2Ġ
Ġshi4Ġ xin1Ġ
xue2Ġ ke1Ġ
Ġzuo4Ġ qu3Ġ
sheng4Ġ jing1Ġ
ĠdeĠyi1Ġ tiao2Ġ
Ġ197 1Ġnian2Ġ
xiao3Ġxing2Ġxing1ĠdeĠ jue2Ġdui4Ġxing1Ġdeng3Ġwei4Ġ
Ġ zu3Ġcheng2Ġ
ĠĠĠ guo2Ġ
ĠĠĠ huang2Ġ
ling3 Ġdui4Ġ
zhuan1 Ġyuan2Ġ
197 6Ġnian2Ġ
pai1 Ġshe4ĠdeĠ
Ġhe2Ġ yu3Ġ
Ġzhi1 Ġchu1Ġ
ju4Ġ feng1
Ġfu4Ġ mu3Ġ
ke3Ġ yong4Ġ
tu2Ġ jing4Ġ
you4Ġ cheng1Ġ
Ġshi4Ġwu4Ġ suo3Ġ
men ĠdeĠ
in u
Ġzhong1Ġ li4Ġ
guan1Ġ zhong4
xiao3Ġ jie3Ġ
na4Ġ xie1
zu2Ġ lian2Ġ
qu3Ġ jue2Ġyu2Ġ
tian1Ġwen2Ġ xue2Ġjia1Ġ
ĠĠĠzhe4Ġke1Ġ xiao3Ġxing2Ġxing1ĠdeĠjue2Ġdui4Ġxing1Ġdeng3Ġwei4Ġ
Ġ yan2Ġjiu1
ĠĠĠ ge4Ġ
miao4 Ġyu3Ġ
Ġshi4Ġ xia4Ġ
Ġshi4Ġ zui4Ġ
Ġli4Ġ xue2Ġ
Ġjia1Ġ qiang2Ġ
Ġtong2 Ġnian2Ġ12Ġyue4Ġ
ĠdeĠyi1Ġ xiang4Ġ
ĠĠĠ199 8Ġnian2Ġ
bi3Ġli4Ġ niu2Ġsi1Ġ
ace bo
p an1
Ġ gong4Ġtong2Ġ
ming2 Ġyu2Ġ
zhong3 ĠdeĠ
liang3 Ġda4Ġ
Ġzai4Ġ ren2Ġ
Ġyi1Ġ xiang4Ġ
Ġxi1Ġ er3
Ġbei4Ġ jing3
yu4Ġ suan4Ġ
Ġbing4Ġ wu2Ġ
xi2Ġ guan4Ġ
zu3Ġcheng2 Ġbu4Ġfen4Ġ
I D
Ġ zai4
Ġ zhu4
Ġ ming2Ġwei4Ġ
ĠĠĠ guan1Ġyu2Ġ
ĠĠĠ zao3Ġqi1Ġ
lai2 Ġer3Ġ
shu i2
guo4 Ġhou4Ġ
lei1 Ġsi1Ġ
Ġyu2Ġ 2013
Ġxi1Ġ ce4Ġ
ju4Ġ yuan4Ġ
shen1Ġ ru4Ġ
zong3Ġ ling3Ġshi4Ġ
Ġdeng3Ġ deng3Ġ
Ġdang1Ġ di4ĠdeĠ
Ġ15 9
duan3Ġ zan4Ġ
Ġ196 9Ġnian2Ġ
Ġsui2 Ġji2Ġ
Ġ qu4Ġ
Ġ xian3Ġshi4Ġ
Ġ fen1Ġwei2Ġ
wei1 Ġli4Ġ
14 0
Ġwei4Ġ guo2Ġ
Ġyu2Ġ 2014
Ġchu1 Ġbu4Ġ
ci3Ġ tian1Ġti3Ġ
liu2Ġ chuan2Ġ
liang3Ġ tiao2Ġ
bing1Ġ tuan2Ġ
zhuan1Ġ ji2ĠdeĠ
Ġao4Ġ men2Ġ
g e3
Ġ sang1Ġ
ĠĠĠ m
fu4 Ġyu2Ġ
qian2 Ġxi1Ġ
cha2 Ġde2Ġ
man3 Ġyi4Ġ
he2Ġ liu2Ġ
Ġyi1Ġ qie4
shang4Ġ ying4ĠdeĠ
zhen4Ġ wang2Ġ
Ġdian4Ġ ziĠ
hun4Ġ luan4Ġ
zhuan3Ġyi2 Ġdao4Ġ
Ġ du2Ġli4Ġ
ke1 Ġyi1Ġsheng1Ġ
zong1 ĠdeĠ
198 5Ġnian2Ġ
Ġri4 Ġshi2Ġ
Ġyuan2Ġ lai2Ġ
Ġdan4 Ġbei4Ġ
mo2Ġ tuo1Ġ
ĠC o
5 6Ġ
8 3
8 5Ġnian2Ġ
ben3 Ġzhi4Ġ
ni2 Ġxi1Ġya4
sheng4 Ġyu2Ġ
xia2 ĠdeĠ
geng1 Ġming2Ġ
Ġshi4Ġ chang3
Ġzai4Ġ ta1
Ġda4Ġ duo1
Ġyi3Ġ wai4ĠdeĠ
jie2Ġ lun4Ġ
qing1Ġ zhen1Ġ
nv3Ġ wang2Ġ
bian4Ġ huan4Ġ
mo2Ġ ni3
qiang2Ġ hua4Ġ
she4Ġ jiao1Ġ
Ġjie2Ġ hun1Ġ
Ġye3 Ġbei4Ġ
pei2Ġ chang2Ġ
duan3Ġ pian4Ġ
Ġda4 Ġzhi4Ġ
Ġ lie4Ġche1Ġ
Ġ shan1Ġxi1Ġ
lu4 Ġhe2Ġ
yong4 Ġdi4Ġ
ben3 Ġdi4Ġqu1Ġ
zi Ġli3Ġ
fu3 Ġzhi1Ġfu3Ġ
00 Ġping2Ġfang1Ġqian1Ġmi3Ġ
Ġzai4Ġ dui4Ġ
Ġyu2Ġ 2012
Ġcheng2Ġ nuo4Ġ
shu4Ġ ju4
te4Ġ ding4
Ġshe4Ġ shi1
yun4Ġ ying2
Ġzhu3Ġ zhang1Ġ
Ġjing1Ġ guo4
Ġ17 9
Ġ193 3Ġnian2Ġ
pen2 Ġdi4Ġ
8 8Ġnian2Ġ
ĠĠĠ yin1Ġwei4Ġ
fa3 Ġer3Ġ
wen2 Ġsi1Ġ
Ġde2 Ġhe2Ġ
shou3Ġ ling3Ġ
yi2Ġ dong4
feng1Ġ bao4
zong3Ġ e2Ġwei4Ġ
zi1Ġ xun4
Ġfu2Ġ lang3Ġ
Ġ195 7Ġnian2Ġ
Ġji2Ġtuan2 Ġjun1Ġ
fei1Ġxing2 Ġyuan2Ġ
h e1Ġ
Ġ you3
Ġ bu3Ġ
ĠĠĠ jian4Ġ
zuo4 Ġzai4Ġ
qu1 Ġzhong1Ġ
nv3 Ġer2
lun2 Ġli3Ġ
sui2 Ġzhi1Ġ
Ġwei4Ġ xin1Ġ
you2Ġ ke4Ġ
xiang4Ġ bei3Ġ
Ġqi2Ġ zhong1ĠdeĠ
chang2Ġ an1Ġ
Ġju4Ġ ti3Ġ
heng2Ġ xing1
S S
Ġ kan1Ġ
xia4 Ġshi4Ġ
ba1 Ġming2Ġ
dang3 Ġbu4Ġ
cai2 ĠdeĠ
pa4 Ġer3Ġ
Ġnian2 Ġshi4Ġ
Ġyu2Ġ 2022
Ġqi2 Ġyu3Ġ
xiang1Ġ xin4Ġ
yan2Ġ an4Ġ
Ġwan4 Ġnian2Ġ
Ġjian3Ġ cheng1
guang3Ġbo1 Ġgong1Ġsi1Ġ
jiang4Ġyu3Ġ liang4Ġ
Ġ qu3Ġde2Ġ
Ġ gui4Ġzhou1Ġ
xin1 Ġyi1Ġ
mei3 Ġzhong1Ġbu4Ġ
te4 Ġsi1Ġ
shui3 Ġyu2Ġ
cha1 Ġju4Ġ
Ġwei4Ġ si1Ġ
Ġhe2Ġ jin1Ġ
Ġzhong1Ġ wen2
Ġyuan2Ġ qu1Ġ
Ġjian4 Ġzhong1Ġ
Ġxiang1Ġ guan1
Ġnan2Ġ jing1
chu3Ġ jue2Ġ
zhun3Ġ jue2Ġsai4
Ġ196 5Ġnian2Ġ
li3Ġshi4Ġ zhang3Ġ
jiao1Ġyi4Ġ suo3Ġ
jie4Ġquan2Ġguo2Ġ ren2Ġmin2Ġdai4Ġbiao3Ġda4Ġhui4Ġ
Ġ kai1Ġfa1Ġ
Ġ dao3Ġyan3Ġ
Ġ xĠ
zh ai4
yao4 Ġzai4Ġ
qing1 Ġdai4Ġ
Ġzhi1Ġ qian2ĠdeĠ
zhu3Ġ jue2
ĠdeĠyi1Ġ ci4Ġ
ĠdeĠgong1Ġ si1Ġ
dan4Ġ shui3Ġ
chang4Ġpian4 Ġgong1Ġsi1Ġ
ping1Ġp ang1
ĠĠĠ yu4Ġ
ĠĠĠ 2023Ġnian2Ġ
che1 Ġshi4Ġ
ti3 Ġxian4Ġ
ĠdeĠ xing2Ġshi4Ġ
Ġwei4Ġ mei3Ġguo2Ġ
Ġyu2Ġ 190
Ġyi4Ġ mei3Ġguo2Ġren2Ġ
Ġyi1Ġ yang4
Ġjun1 Ġyi3Ġ
gao1Ġ xiao4Ġ
shi1Ġ ti3Ġ
qing1Ġ dao3Ġ
chan3Ġ liang4Ġ
Ġsuo3Ġ you3ĠdeĠ
Ġtian1Ġ wen2Ġ
ĠG Ġ
Ġqi1Ġ jian1
Ġa1Ġer3Ġ bei1Ġsi1Ġ
Ġ zuo3
sh ai1Ġ
er ĠĠĠ
si1 Ġdi4Ġli4Ġ
jun1 Ġzhu3Ġ
nan2 Ġxi1Ġ
ba1 Ġyue4Ġ
mu3 Ġsi1Ġte4Ġ
Ġyou3Ġ xiao4
Ġge4 Ġge4Ġ
ke1Ġ huan4Ġ
yue1Ġ 1
ĠdeĠyi1Ġ jia1Ġ
di3Ġ ceng2Ġshui3Ġyu4Ġ
Ġdi4Ġshi2Ġ san1Ġ
Ġsan1 Ġyue4Ġ
C A
ti2 Ġwei4Ġ
fu1 Ġsi1Ġ
tu r
30 Ġnian2Ġdai4Ġ
qing4 Ġxia4Ġ
ba4 Ġgong1Ġ
ren4Ġ zheng4Ġ
Ġta1Ġmen Ġshi4Ġ
jie3Ġ jue2
Ġci3Ġ wai4
you1Ġ xian1Ġ
ĠL Ġ
ĠĠĠ199 7Ġnian2Ġ
p eng4Ġ
y p
hu ang3
yuan2 Ġren2Ġmin2Ġbi4Ġ
xing2 Ġren2Ġ
yu3 Ġwei4Ġ
ji1 Ġshi2Ġ
jian4 Ġdui4Ġ
ĠdeĠ hou4Ġ
ĠdeĠ qing2Ġkuang4Ġxia4Ġ
Ġshi2Ġ san1Ġnian2Ġ
Ġzhou1 ĠdeĠyi2Ġge4Ġshi4Ġzhen4Ġ
dong4Ġ tai4Ġ
zhuan1Ġ qu1Ġ
zhuan3Ġ bian4Ġ
yan2Ġjiu1Ġ suo3
bai3Ġ xing4Ġ
tui1Ġ guang3
yin4Ġdi4Ġ an1Ġna4
ting2Ġche1Ġ chang3Ġ
5 3Ġ
o b
ping2 Ġxian4Ġ
jin1 Ġsi1Ġ
Ġshi4Ġ yin4Ġdu4Ġ
bu4Ġ fen4
zhan4Ġ shu4Ġ
Ġbing4 Ġcheng2Ġwei2Ġ
ĠdeĠshi4Ġ qing2Ġ
xun2Ġ fu3Ġ
sĠĠĠ of
liang2Ġ hao3ĠdeĠ
zhong4Ġyao4Ġ xing4Ġ
Ġsu2Ġ cheng1Ġ
Ġ zao3Ġ
dui4 Ġshi4Ġ
zhang3 Ġji2Ġ
cheng1 ĠdeĠ
196 0Ġnian2Ġ
cu4 Ġshi3Ġ
Ġji2Ġ er3
Ġer3 Ġbei4Ġ
Ġxi1Ġ fa3Ġ
fu4Ġ nv3Ġ
fa1Ġ sheng1Ġyu2Ġ
yong4Ġ leĠ
shou3Ġ ren4Ġ
Ġzi4Ġ ci3Ġ
xiao1Ġ shou4
Ġshang4Ġhai3 Ġshi4Ġ
Ġtun2 Ġqi2Ġ
4 9Ġnian2Ġ
k mĠ
m anĠ
Ġ xiong1Ġya2Ġli4Ġ
liu4 Ġyue4Ġ
30 Ġfen1Ġ
xie4 Ġer3Ġ
zu an4Ġshi2Ġ
Ġhe2Ġ chang4Ġ
Ġshi2Ġ wu3Ġnian2Ġ
Ġke4 Ġjia1Ġ
Ġshe4 Ġzai4Ġ
zui4Ġ hou4ĠdeĠ
feng1Ġ xian3
yue1Ġ se4Ġfu1Ġ
xie2Ġ hui4
Ġzh ou2
Ġcong2Ġ ci3Ġ
ĠJ RĠ
Ġze2 Ġshi4Ġ
Ġmu3Ġ qin1Ġ
Ġta1Ġceng2 Ġdai4Ġbiao3
M P
r on
s eng1
Ġ du4
sou1 Ġsuo3Ġ
Ġbu4Ġ duan4
Ġyi4Ġ bei4Ġ
jing1Ġ du1Ġ
Ġjun1Ġ wei3Ġ
zu3Ġ xian1Ġ
liang3Ġ zhong3
da3Ġ suan4
ji4Ġsuan4 Ġji1Ġ
Ġhong1Ġ zha4
Ġ XĠ
ce4 Ġwei4Ġ
ha1 Ġli4Ġ
shao3 ĠdeĠ
zhui1 Ġji1Ġ
rou4 Ġshi2Ġxing4Ġ
Ġke4 Ġzai4Ġ
tai2Ġ zhong1Ġshi4Ġ
jin1Ġ xiang4Ġ
Ġzheng4Ġ ju4Ġ
zong3Ġ ju2Ġ
Ġshi3Ġ mi4Ġsi1Ġ
pi2Ġ fu1Ġ
ĠdeĠji1Ġ chu3Ġ
ĠdeĠzuo4Ġ yong4Ġ
Ġyi3Ġji2 Ġzhong1Ġguo2Ġda4Ġlu4ĠdeĠ
mei3Ġzhong1Ġbu4Ġ shi2Ġqu1Ġ
a th
ĠĠĠ 2004Ġnian2Ġ
zhong1 Ġnian2Ġ
le Ġbu4Ġ
zhan4 Ġli4Ġ
ze2 Ġer3Ġsheng3Ġ
Ġdao4 Ġta1Ġ
Ġyuan2Ġ zi4
dai4Ġ ling3
Ġer2Ġ wen2Ġming2Ġ
zhe4Ġ shou3Ġ
Ġzuo4Ġ ye4Ġ
Ġ196 1Ġnian2Ġ
fei2Ġte4Ġ lie4Ġ
Ġ huai2Ġ
cheng2 Ġwei4Ġ
mi3 Ġer3
qiang2 Ġda4Ġ
huan2 Ġyuan2Ġ
2019 Ġguan1Ġzhuang4Ġbing4Ġdu2
wu4Ġ zi1Ġ
zhi2Ġ jing4Ġ
Ġjin4 Ġxing2ĠdeĠ
ge2Ġ lei2Ġ
xuan3Ġ shou3
chuan2Ġ mei2
wang3Ġ lai2Ġ
Ġshi4Ġyi1Ġ jia1Ġ
tuo1Ġ ma3Ġsi1Ġ
1Ġyue4Ġ 1Ġri4Ġ
ĠC STĠ
ĠC DTĠ
Ġma3Ġ la1Ġ
ran2Ġ liao4Ġ
Ġ196 2Ġnian2Ġ
cao3Ġ an4Ġ
Ġchang2Ġ qi1Ġ
Ġ6Ġ diao4Ġkuai4Ġyi1Ġxiao3Ġshi2Ġ
Ġji2Ġbei3Ġ mei3Ġzhong1Ġbu4Ġshi2Ġqu1Ġ
Ġ rui4Ġshi4Ġ
an n
ĠĠĠ mei3Ġ
zhang1 Ġshi4Ġ
que4 Ġli4Ġ
xun4 Ġhao4Ġ
198 2Ġnian2Ġ
ha1 Ġde2Ġ
194 9Ġnian2Ġ
is ĠĠĠ
Ġdi4Ġ ming2Ġ
Ġzhou1Ġ bian1Ġ
Ġsheng1Ġ ming4Ġ
ke3Ġyi3Ġ tong1Ġguo4Ġ
huo4Ġ zhe3Ġ
zheng4Ġzhi4Ġ ju2Ġ
ĠA r
yin4Ġ du4ĠdeĠ
hu2Ġbei3Ġ sheng3Ġ
Ġ lian2Ġhe2Ġguo2Ġ
sheng1 Ġbu4Ġ
mei2 Ġer3Ġ
wei3 ĠdeĠ
luo4 Ġhou4Ġ
ben3Ġ tu3
ben3Ġ zhan4Ġ
dong1Ġ ya4Ġ
Ġshang4Ġ shu4Ġ
Ġqiu2Ġ bi3Ġsai4Ġ
jiao1Ġ gei3
ĠN Ġ
Ġ193 1Ġnian2Ġ
zhe2Ġxue2Ġ jia1Ġ
7 1
ch i
jiao4 Ġyou3Ġ
shi1 Ġshi4Ġ
dang1 Ġdai4Ġ
ying1 Ġer2Ġ
jiao1 Ġfu4Ġ
qu3 ĠleĠ
pei4 Ġyue4Ġ
cheng2Ġ wei2
xing4Ġ bie2
tian1Ġ shi3Ġ
wei3Ġ nei4Ġrui4Ġ
guang1Ġ pu3Ġ
ĠĠĠ199 1Ġnian2Ġ
Ġa1 Ġli3Ġ
2 Ġming2Ġ
7 2Ġ
h ar
Ġ lun2Ġ
Ġ reng2Ġ
ĠĠĠ 12Ġyue4Ġ
shi2 Ġshi4Ġji4Ġ
sheng1 Ġri4Ġ
mei3 Ġli4Ġ
qi3 Ġshi4Ġ
bao4 Ġfu4Ġ
fu1 Ġsi1Ġji1Ġ
jiao3 ĠdeĠ
Ġshi4Ġ yi2Ġ
Ġshi2Ġ bei4Ġ
Ġyu2Ġ 2017
Ġyu2Ġ 2023
san1Ġ jiao3Ġ
bo2Ġ gen3Ġdi4Ġ
cai2Ġ neng2
ĠdeĠfu4Ġ qin1Ġ
yan2Ġhai3Ġ sheng3Ġfen4Ġ
4 ĠĠĠ
6 00
8 7Ġnian2Ġ
Ġ hou4Ġyu2Ġ
ĠĠĠ mu4Ġ
ĠĠĠ gai1Ġdi4Ġ
xiang4 Ġhe2Ġ
xuan3 ĠdeĠ
di2 Ġsi1Ġ
ri c
diao1 Ġxiang4Ġ
Ġgong1Ġ li4Ġ
Ġgong1Ġ dian4Ġ
Ġyi1Ġ lu4Ġ
sheng1Ġ ren4Ġ
Ġsi1Ġ da4Ġ
xiang4Ġ dong1Ġ
fu2Ġ wu4ĠdeĠ
ou1Ġ meng2
ying3Ġxiang3 ĠdeĠ
Ġqi1 Ġxi1Ġ
4 7Ġ
Ġ te
ĠĠĠ ying1Ġguo2Ġ
huang2 Ġshi4Ġ
hao2 Ġwu2Ġ
lai2Ġ yuan2Ġyu2Ġ
Ġtong2 Ġnian2Ġ10Ġyue4Ġ
tong1Ġ xin4
ye3Ġ mei2Ġyou3Ġ
Ġshe4Ġ xian2Ġ
Ġhuo4Ġ wu4Ġ
guan3Ġ li3ĠdeĠ
guang3Ġ dong1
ling2Ġ gan3Ġ
xin4Ġ tu2Ġ
huo3Ġ zai1Ġ
chong1Ġ sheng2
ĠĠĠ199 4Ġnian2Ġ
ya4Ġmei3Ġ ni2Ġya4
hong1Ġzha4 Ġji1Ġ
G B
Ġ jue2
Ġ chao1Ġji2Ġ
shu4 Ġge4Ġ
you4 Ġzai4Ġ
tu i3Ġ
hen3 Ġnan2Ġ
Ġwei4Ġ jing1Ġ
yi4Ġ qi3Ġ
xi1Ġ zang4Ġ
hua4Ġ fen1Ġ
xiang4Ġ nan2Ġ
Ġqi2Ġ fu4Ġ
xing4Ġ ge2Ġ
mo2Ġ ni3Ġ
Ġshou3Ġ xian1Ġ
ĠĠĠS ta
zeng1Ġ qiang2
Ġti3Ġ yu4Ġ
a1Ġgen1Ġ ting2Ġ
3 Ġhao4Ġ
6 1Ġ
a ngĠ
Ġ zhuan1
pu3 ĠdeĠ
huan4 Ġyou3Ġ
gei3 Ġshi4Ġzhong1Ġ
Ġshi4Ġ yi3
Ġshi2Ġ si4Ġnian2Ġ
shu4Ġ bai3
zhe4Ġ yang4Ġ
Ġjin4 ĠleĠ
er4Ġ bai3Ġ
sha1Ġ tian2Ġ
Ġduo1Ġ ci4Ġ
gang1Ġ qin2Ġ
qu1ĠdeĠ fu4Ġze2Ġguan3Ġxia2Ġ
zheng3Ġ ti3
gong4Ġhe2Ġ dang3
Ġshi4Ġjian4 ĠdeĠ
8 1
Ġ lian4Ġ
zh ui4
ĠĠĠ tang2Ġ
qian2 Ġwei4Ġ
jin1 Ġri4
pu3 Ġer3Ġ
kan4 Ġjian4Ġ
gui3 Ġdian4Ġ
Ġshi2Ġ jian4Ġ
Ġji2Ġ ke3Ġ
Ġyi3 Ġzhi1Ġ
ji1Ġ chang3
wei2Ġ ji1Ġbai3Ġ
fa1Ġ dong4
Ġzhan4Ġ tai2Ġ
ge2Ġ lin2Ġ
xiang3Ġ ying4Ġ
tie3Ġ lu4ĠdeĠ
Ġran2Ġ hou4Ġzai4Ġ
pei2Ġ yang3Ġ
ĠI Ġ
Ġao4 Ġsi1Ġ
an1Ġhui1Ġ sheng3Ġ
l yĠĠĠ
t on
Ġ Ù
Ġ hang2Ġ
Ġ mi2Ġ
an ĠĠĠ
ĠĠĠ ke1Ġ
ĠĠĠ te4Ġzheng1Ġ
du2 Ġzi4Ġ
Ġnian2Ġ hou4Ġ
di4Ġ fang1Ġ
li4Ġ shi3
Ġren2Ġ sheng1Ġ
Ġer3 Ġxi1Ġ
Ġbei4Ġ ke4Ġ
na4Ġ yang4Ġ
bian4Ġ hua4
hua2Ġ xue3Ġ
bao1Ġkuo4 ĠleĠ
wan3Ġ jian1Ġ
Ġ196 7Ġnian2Ġ
zhu3Ġjiao4Ġ lian4Ġ
qu1 Ġxian4Ġ
wen2 Ġji2Ġ
gu3 Ġcheng2Ġ
gu3 Ġsi1Ġ
dian3 Ġxing2Ġ
qian1 Ġzheng4Ġ
ban1 Ġdao4Ġ
geng4 Ġda4Ġ
pi1 Ġfu4Ġ
Ġbu4Ġ zhi1Ġ
Ġdi4Ġ xing2Ġ
Ġdi4Ġ er4Ġshi2Ġ
yan2Ġ xu4
mei3Ġguo2Ġ zong3Ġtong3Ġ
bo2Ġ lin2
Ġdang1 Ġri4Ġ
Ġ ying4Ġ
Ġ ju1Ġ
yi4 ĠdeĠshi4Ġ
le Ġyuan2Ġ
ma3 Ġqi2Ġ
san1 Ġguo2Ġ
tu re
lei1 ĠdeĠ
Ġzhi4Ġ jin1
Ġyou3Ġ leĠ
te4Ġ ding4ĠdeĠ
bei3Ġ mei3Ġ
bi4Ġ lu3
ting1Ġ zhang3Ġ
kuang4Ġ wu4Ġ
zhu3Ġjiao4Ġ zuo4Ġ
wu4Ġli3Ġ xue2Ġjia1Ġ
sang4 Ġsheng1Ġ
sheng3Ġdao4Ġ tai2Ġ
a f
Ġ shi2Ġnian2Ġ
ming2 Ġzai4Ġ
xiao3 Ġyu2Ġ
lv3 Ġyou2
Ġshi4Ġ yong4Ġyu2Ġ
Ġda4Ġ zheng4Ġ
Ġchu1Ġ sai4Ġ
bao3Ġ an1Ġ
shu1Ġ xie3Ġ
jian3Ġ cheng1Ġ
huo2Ġ xing4Ġ
du2Ġ zhe3Ġ
jun1Ġ guan1Ġ
en1Ġ lai2Ġ
ha1Ġ la1Ġ
ĠĠĠA n
ĠĠĠP ar
fa1Ġxing2Ġ leĠ
wan3Ġ qi1Ġ
Ġ lu3
Ġ tong3Ġ
Ġ zeng1Ġjia1Ġ
ji1 Ġli4Ġ
bo1 Ġyin1Ġ
po1 Ġer3Ġ
ĠdeĠ gao1Ġ
Ġwei4Ġ cheng2Ġ
Ġhe2Ġ kou3Ġ
di4Ġ er4
Ġyi1Ġ kai1Ġshi3Ġ
Ġda4Ġ ge2Ġming4Ġ
Ġchu1Ġ kou3
Ġyou2Ġ tai4Ġren2Ġ
ti2Ġ an4Ġ
luo4Ġ bai4Ġ
wei1Ġ bo2Ġ
xin4Ġ yong4Ġ
xun2Ġ zhao3Ġ
hu2Ġnan2Ġ sheng3Ġ
diao1Ġ su4Ġ
jie1Ġshou4 ĠleĠ
a1Ġji1Ġ tan3
1 Ġri4
S M
o li
Ġ mo
er sĠ
zuo4 Ġyi3Ġ
ming4 ĠdeĠ
gao4 Ġzhi1Ġ
Ġji2Ġ zhong1Ġzai4Ġ
Ġcheng2Ġ dan1Ġ
Ġyu3Ġ yuan2Ġ
jiao4Ġ tu2Ġ
fa1Ġ hui1Ġ
zhi3Ġ neng2
huan4Ġ xiang3Ġ
Ġceng2Ġ jing1
kong3Ġ long2Ġ
Ġguo2Ġjia1 Ġgong1Ġyuan2Ġ
lv3Ġke4Ġ tie3Ġdao4Ġ
M V
a ge
ĠĠĠ jiao4Ġyu4Ġ
tong2 Ġxue2Ġ
jie4 Ġxian4Ġ
na4 Ġxi1Ġ
liang2 ĠdeĠ
Ġshi4Ġ fang4Ġ
ji4Ġ zhe3Ġ
yu3Ġ yan2
Ġji4Ġ hou4Ġ
Ġer2 Ġyuan2Ġ
ren4Ġ ke3Ġ
Ġjian4Ġ dui4
ru4Ġ yu4Ġ
chang2Ġ gui1Ġ
chen2Ġ mo4Ġ
Ġjin3Ġ ci4Ġyu2Ġ
ge1Ġlun2Ġ bi3Ġya4
f li
Ġ gei3Ġ
Ġ bu2Ġshi4Ġ
Ġ yin4Ġdu4
Ġ chao2Ġxian1
ĠĠĠ shui3Ġ
zeng1 Ġzhi4Ġ
Ġli4Ġ yu2Ġ
Ġyi1Ġ duan4Ġ
ji1Ġ du1Ġjiao4Ġ
Ġsi1Ġ fa3
Ġer2 Ġyi3Ġ
zhu4Ġ ming2
Ġjun1Ġ zhu3Ġ
deng3Ġ dai4Ġ
si4Ġ chuan1
yan3Ġ jing1Ġ
xiao3Ġshi2Ġ hou4Ġ
Ġ hou4Ġzai4Ġ
ĠĠĠ pu3Ġ
wu3 ĠdeĠ
jiu3 Ġyue4Ġ
Ġshi2Ġ shi1
Ġzhi4Ġ ci3Ġ
Ġji2Ġ ju4Ġ
Ġda4Ġ zhan4Ġ
zhe4Ġ ci4Ġ
suo3Ġ zhang3Ġ
shi1Ġ zhang3Ġ
tian1Ġ zhu3Ġjiao4
bian1Ġ qu1Ġ
huo3Ġ pao4Ġ
Ġxian4ĠdeĠ fei1Ġjian4Ġzhi4Ġdi4Ġqu1Ġ
ju3Ġxing2Ġ leĠ
Ġ193 4Ġnian2Ġ
ĠdeĠyi4Ġ siĠ
Ġ tai2
jin4 Ġdai4Ġ
hang2 Ġxing2Ġ
Ġjun1Ġ dui4
fen1Ġ lan2
tian1Ġ huang2
mian4Ġ qian2Ġ
ying1Ġ cun4Ġ
xu3Ġ ke3
Ġshi4Ġwei4Ġyu2Ġ wu1Ġke4Ġlan2Ġ
3 ĠĠĠ
g ra
ĠĠĠ an1Ġ
sheng1 Ġyi4Ġ
gao1 Ġer3Ġ
liu2 Ġshi4Ġ
liu2 Ġcheng2Ġ
Ġli4Ġ chang3Ġ
Ġda4Ġ da4Ġ
xiang4Ġ liang4Ġ
Ġzhe4Ġ xiang4Ġ
Ġgai1Ġ zhuang1Ġ
jia4Ġ shi3
cun2Ġ chu3Ġ
jia1Ġru4 Ġzhong1Ġguo2Ġgong4Ġchan3Ġdang3Ġ
ban1Ġjiang3Ġ dian3Ġli3Ġ
Ä ģ
Ġ yi1Ġnian2Ġ
Ġ xie2Ġzhu4Ġ
Ġ zhen1Ġdui4Ġ
Ġ 22Ġ
ĠĠĠ jin4Ġ
shou1 Ġfu4Ġ
Ġzai4Ġ jin1Ġ
Ġyou3Ġ liang3Ġge4Ġ
yi2Ġge4 Ġren2Ġ
qu1Ġyi4Ġhui4Ġ xuan3Ġju3Ġ
fen1 Ġzhi4Ġ
kai1 Ġyuan2Ġ
pai4 Ġren2Ġ
zhu1 Ġshi4Ġhui4Ġ
Ġguo2Ġ nei4
Ġcheng2Ġ ke4
zhu3Ġ ti3Ġ
Ġwei2Ġ qi1Ġ
Ġzhan4Ġ ling3
Ġshang4Ġ zhen4Ġ
jiao1Ġ huan4
da3Ġ kai1Ġ
Ġyin1Ġwei4Ġ ta1
pan4Ġ duan4Ġ
kao3Ġ gu3
Ġbu4Ġfen4 ĠdeĠ
ĠĠĠb eg
5 8Ġnian2Ġ
R e
t ou1
Ġ xi3Ġ
guo2 Ġwei4Ġ
wu3 Ġgong1Ġ
ceng2 Ġyu3Ġ
Ġyu2Ġ yi1Ġ
Ġjian4 Ġguo2Ġ
ren4Ġ qi1Ġ
Ġdan4 Ġwei4Ġ
Ġqi2Ġ ziĠ
tai2Ġ nan2Ġ
shan1Ġ hu2Ġ
yi2Ġ qi4Ġ
zhang1Ġ dan1Ġqu1Ġ
fu1Ġ lei1Ġ
xie2Ġ zhu4
ĠS t
mian3Ġ fei4
Ġ feng4
Ġ cao2
Ġ hui4Ġyi4Ġ
an1 Ġzhi4Ġ
pu3 Ġli3Ġ
wei1 ĠdeĠ
shen2 Ġshe4Ġ
hen3 Ġyou3Ġ
197 9Ġnian2Ġ
Ġshi4Ġ cong2Ġ
Ġjia1Ġ su4Ġ
zhu3Ġ chang3
qi1Ġ tu2Ġxing2Ġ
guan3Ġ kong4
chuan2Ġ shu1Ġ
li2Ġ hun1Ġ
fang2Ġ shou3Ġ
guo2ĠdeĠ te4Ġyou3Ġ
Ġlian2Ġ bang1
xuan2Ġ zhuan3Ġ
dan4Ġ bai2Ġ
Ġ196 3Ġnian2Ġ
ic ros
Ġzhan4Ġdou4 Ġji1Ġ
N et
i ck
Ġ 23Ġ
yu3 Ġji2Ġ
de2 Ġyi3Ġ
xin1 Ġji1Ġ
hua4 Ġgong1Ġ
fang4 Ġshe4Ġ
gan1 Ġyu4Ġ
Ġyi1Ġ ci4
ĠdeĠshi4Ġ jian4Ġ
Ġgao1Ġ xiong2
zhi3Ġhui1 Ġbu4Ġ
chu1Ġban3 ĠdeĠ
Ġfou3 Ġze2Ġ
o kĠ
ĠĠĠ xing2Ġ
ming2 Ġzhong1Ġ
suo3 Ġbu4Ġ
shui3 Ġyuan2Ġ
yang2 Ġzhou1Ġ
sha1 Ġshi4Ġ
ding1 Ġmu4Ġ
cao3 Ġyuan2Ġ
Ġshi4Ġ yong4Ġ
Ġbu4Ġ lie4Ġ
Ġge4Ġ di4ĠdeĠ
Ġhui4Ġ dao3Ġzhi4Ġ
qi1Ġ xi1Ġdi4Ġ
quan2Ġ wei1Ġ
tian1Ġ xia4Ġ
wang2Ġ guo2ĠdeĠ
Ġguo4Ġ qu4Ġ
Ġ193 2Ġnian2Ġ
Ġyu3Ġmao2 Ġqiu2
meng4Ġjia1Ġ la1Ġ
5 6Ġnian2Ġ
l spanĠ
Ġ ou3
Ġ ling2
jia1 Ġji2Ġ
yi2 ĠdeĠ
guan1 Ġhe2Ġ
dian4 Ġyuan2Ġ
sheng3 Ġren2Ġmin2Ġzheng4Ġfu3Ġ
han4 ĠdeĠ
nong2 Ġdu4Ġ
Ġcheng2Ġ ren4
Ġzhi1Ġ dui4Ġ
zui4Ġ hao3ĠdeĠ
ol Ġ
lie4Ġche1 ĠdeĠ
Ġ bi3Ġde2Ġ
bao3 Ġshi2Ġ
fang4 Ġzhi4Ġ
da4Ġ hui4Ġ
Ġdao4Ġ fu1Ġ
xin1Ġ qu1Ġ
du4Ġ guo4Ġ
tong1Ġ chang2Ġshi4Ġ
ya4Ġ ke1Ġ
pei4Ġ jue2Ġ
dong3Ġshi4Ġ hui4Ġ
Ġjiang3Ġ shu4Ġ
g nĠ
Ġ 20Ġshi4Ġji4Ġ
chu1 Ġxian4Ġzai4Ġ
chan3 ĠdeĠ
xie3 Ġcheng2Ġ
Ġde2 Ġyi4Ġzhi4Ġ
yu4Ġ gao4Ġ
kai1Ġ ye4Ġ
ge2Ġ luo2Ġ
luo2Ġ xuan2Ġ
xiao4Ġ guo3
jiu3Ġ dian4
Ġt ou
Ġgai1 Ġdi4Ġ
ĠĠĠ199 5Ġnian2Ġ
Ġhuo4Ġde2 Ġdi4Ġ
5 ĠĠĠ
gu n4
yu3 Ġren2Ġ
guang1 Ġxue2Ġ
Ġhe2Ġ jia1Ġ
Ġhe2Ġ shui3Ġ
Ġsheng1Ġ ren4Ġ
qi3Ġ tu2Ġ
long2Ġ ke1Ġ
huo4Ġ bi4Ġ
fa1Ġxian4ĠleĠ ci3Ġtian1Ġti3Ġ
fa3Ġlan2Ġxi1 Ġda4Ġqu1Ġ
5 Ġming2Ġ
7 5Ġnian2Ġ
f ĠĠĠ
Ġ qu3
zh ai3
ji1 Ġxing2Ġ
bei4 Ġyi1Ġ
shi1 Ġxing2Ġ
fei4 Ġer3Ġ
zhi4Ġ zao4Ġ
Ġyue4Ġ nan2
nan2Ġ fei1Ġ
Ġwei2Ġ fan3Ġ
yi2Ġ chuan2Ġ
Ġzui4Ġ zhong1Ġzai4Ġ
ĠdeĠgong1Ġ ji1Ġ
geng1Ġ huan4
zong1Ġyi4Ġ jie2Ġmu4Ġ
jing4Ġwai4Ġ shu1Ġru4Ġ
L i
o c
Ġ sai1
ĠĠĠ shi3Ġ
mu4 Ġzhong1Ġ
bei3 Ġping2Ġ
ying2 Ġde2
sen1 ĠdeĠ
ye2 Ġlu4Ġ
Ġzhan4Ġ ju4Ġ
Ġtong2 Ġwei4Ġ
quan2Ġ shu4Ġ
zhao4Ġ gu4Ġ
gen1Ġ sui2
lian2Ġsai4Ġ guan4Ġjun1Ġ
icros of
M e
p en2Ġ
Ġ ying2Ġde2Ġ
ĠĠĠ she4Ġji4Ġ
ĠĠĠ 2003Ġnian2Ġ
dong1 Ġri4Ġben3Ġ
âĢ ĭ
kun1 Ġming2Ġ
Ġda4Ġ sha4
Ġjia1Ġ er3Ġ
Ġer2 Ġde2Ġming2Ġ
kai1Ġ pi4
te4Ġ se4
Ġyou2Ġ ke4Ġ
jie3Ġ chu2Ġ
xian4Ġ xiang4Ġ
she4Ġ ji4ĠdeĠ
Ġyou4Ġ cheng1
zhang4Ġ fu1
huo2Ġyue4Ġ yu2Ġ
ta3Ġni2 Ġda4Ġqu1Ġ
4 9Ġ
D R
O V
sh Ġ
le Ġdi4Ġyi1Ġ
xue2 Ġji2Ġ
zhu3 Ġren2Ġ
zhou1 Ġwei2Ġ
guan1 Ġzhi4Ġ
zhong4 Ġyi4Ġyuan4Ġ
lv4 Ġbu4Ġ
chen2 Ġji1Ġ
la r
xia2 Ġshi4Ġ
Ġzai4Ġ na4Ġli3Ġ
li4Ġ liang4Ġ
Ġxi1Ġ bei3Ġbu4Ġ
Ġli3Ġ ao4Ġ
Ġming2Ġ que4Ġ
Ġzhe4Ġ shi3ĠdeĠ
gu3Ġ dong1Ġ
ĠĠĠ199 6Ġnian2Ġ
o y
Ġ zhuo2
Ġ liang4Ġ
zheng4 Ġsi1Ġ
shang4 Ġji2Ġ
yue1 ĠdeĠ
Ġcheng2Ġ xiang4Ġ
xue2Ġ zhe3
Ġyu3Ġ xin1Ġ
Ġzhi1Ġ lu4Ġ
xia4Ġ xun2Ġ
wai4Ġ jie4Ġ
nong2Ġ cun1
xun2Ġhui2Ġ sai4Ġ
Ġbei3Ġqi3Ġ shun4Ġshi2Ġzhen1Ġyu3Ġ
A G
U R
Ġ sai4
Ġ hai3Ġjun1Ġ
de2 Ġzhi1Ġ
you4 Ġbei4Ġ
or d
zhuan3 Ġhui4Ġ
Ġshi4Ġ pin2
Ġshi4Ġ qi2Ġ
Ġshi2Ġ you3Ġ
Ġke4 Ġren2Ġ
suo3Ġ shu3Ġ
tian1Ġ zhu3Ġ
nv3Ġ shen2Ġ
e2Ġ wai4Ġ
ying4Ġ yong4Ġyu2Ġ
man4Ġ hua4
xue4Ġ ye4Ġ
Ġshi2Ġjian1 Ġwei4Ġ
9 Ġshi2Ġ
Z Ġ
Ġ á
Ġ zhan3Ġ
Ġ lei1Ġ
le sĠ
hua4 Ġcheng2Ġ
tong2 Ġshi4Ġ
can1 Ġzheng4Ġ
Ġzai4Ġ dang1Ġdi4Ġ
Ġxing2 Ġzhong1Ġ
Ġyu3Ġ zhou4Ġ
yu4Ġ shi3Ġ
ci3Ġ ci4Ġ
jiao1Ġ qu1Ġ
ce4Ġ lve4
huo3Ġ xing1Ġ
Ġzui4Ġ hou4Ġyi1Ġ
Ġnian2Ġ7Ġyue4Ġ 1Ġri4Ġ
Ġge2Ġ lan2Ġ
zhi2Ġye4Ġ sheng1Ġya2
ba1Ġfa2 Ġli4Ġya4
8 6Ġnian2Ġ
Ġ xiong2
Ġ tu1Ġ
Ġ nei4Ġrong2Ġ
Ġ gu1Ġ
lv 2Ġ
tui1 Ġjin4
fu4Ġ gai4Ġ
Ġchu1Ġ zi4Ġ
gao1Ġ shan1Ġ
hai3Ġ guan1Ġ
Ġdan4Ġ shui3Ġ
er4Ġ yang3Ġhua4Ġ
ai4Ġ sha1Ġ
huo4Ġ yun4Ġ
ke3Ġyi3 Ġshi4Ġ
tong1Ġguo4 ĠleĠ
fa1Ġxian4 Ġyu2Ġ
ye2Ġlu4Ġ sa1Ġ
o ni
wei2 Ġli4Ġ
wu3 Ġli4Ġ
zhong4 Ġyi4Ġyuan4
Ġzai4Ġ hou4Ġ
kou3Ġ jing4Ġ
jian3Ġ hua4Ġ
hang2Ġ tian1
fang4Ġ song4Ġ
Ġwen2Ġ zhang1Ġ
che4Ġ tui4
duo2Ġ qu3Ġ
Ġyin3Ġ qi3Ġ
Ġwei4Ġji1Ġ chu3Ġ
E M
n a3Ġ
Ġ xiang1
kai1 Ġxing2Ġ
chu ang3Ġ
zhen4 Ġxian4Ġ
yan3 ĠleĠ
liang4 Ġhe2Ġ
gai3 Ġzhi4Ġ
ya1 Ġzhi4Ġ
cao3 Ġdi4Ġ
Ġwei4Ġ ta1Ġ
Ġbu4Ġ lan2Ġ
Ġyi3Ġ qi2Ġ
guan1Ġ dian3
zhi2Ġ dao3ĠdeĠ
jin1Ġ pai2
zu3Ġ zhi3
sang4 Ġshi1Ġ
i de
Ġ xue1Ġ
zh ai3Ġ
ch uo4
jiang1 Ġwei2Ġwu2Ġer3Ġ
kuai4 Ġji4Ġ
ĠdeĠ wei4Ġ
Ġshi2Ġ qi4
shang4Ġ fa3Ġlan2Ġxi1Ġda4Ġqu1Ġ
Ġxi1Ġ nan2Ġbu4Ġ
Ġshe4 Ġxian4Ġ
Ġbing4Ġ dui4Ġ
kou3Ġ hao4Ġ
zhong4Ġ shang1Ġ
Ġt an1Ġ
Ġyi4Ġsi Ġshi4Ġ
a ti
Ġ an4
Ġ zao4Ġ
ĠĠĠ ying3Ġxiang3Ġ
nei4 Ġshe4Ġyou3Ġ
er4 Ġming2Ġ
dang3 Ġzai4Ġ
fan3 Ġshe4Ġ
gu4 Ġyi4Ġ
ar dĠĠĠ
wen1 Ġquan2Ġ
tou4 Ġming2Ġ
sheng1Ġ wu4
Ġjian4Ġ li4ĠdeĠ
fen1Ġ zu3Ġ
tai4Ġ kong1
ying2Ġ yun4
qiang2Ġ lie4ĠdeĠ
zeng1Ġ jia1
dan4Ġ bai2Ġzhi4Ġ
ĠĠĠwei4Ġ yu2Ġ
zhai4Ġ wu4Ġ
Ġ la1
ĠĠĠ 2000Ġnian2Ġ
ju an1
zhong4 Ġren2Ġ
fu3 ĠdeĠ
liang3 Ġbu4Ġ
xu4 Ġshi4Ġ
Ġgong1Ġ shang1Ġ
Ġji4Ġ shu4ĠdeĠ
Ġdan4 Ġyin1Ġwei4Ġ
Ġda4Ġxue2Ġ jiao4Ġshou4Ġ
ji3Ġ zhui1Ġ
ya2Ġ chi3Ġ
Ġgai1 Ġgong1Ġsi1Ġ
Ġshi3 Ġqi2Ġ
chu3Ġli3Ġ qi4Ġ
Ġgong1Ġzuo4 Ġren2Ġyuan2Ġ
Ġchu1Ġban3 Ġshe4Ġ
5 7Ġnian2Ġ
6 3Ġ
a tionĠ
fu4 Ġchu1Ġ
tu2 Ġer3Ġ
hu2 ĠdeĠ
zu an3Ġ
Ġshi2Ġ xing2
Ġshi2Ġ yi4Ġ
chu1Ġ kou3Ġ
hen3Ġ kuai4
Ġlian2Ġ sai4Ġ
xue4Ġ tong3Ġ
ĠdeĠming2Ġ cheng1Ġ
5 8Ġ
8 Ġshi2Ġ
Ġ yin3
Ġ si
Ġ zan4Ġ
ao4 Ġdi4Ġ
ti3 Ġhe2Ġ
198 3Ġnian2Ġ
zai1 Ġnan4Ġ
ĠdeĠ ji2Ġ
Ġzai4Ġ xia4Ġ
Ġhe2Ġ ping2
Ġzhong1Ġ ji2Ġ
Ġji4Ġ gong1Ġ
lai2Ġ wu4Ġ
Ġjin4 Ġping2Ġ
la1Ġ fu1Ġ
ying1Ġ wu3Ġ
zu2Ġ zi4Ġzhi4Ġqu1Ġ
lian4Ġ xi2Ġ
che4Ġ li2Ġ
ken3Ġ ding4Ġ
Ġben3 Ġming2Ġ
9 Ġmi3Ġ
m ĠĠĠ
Ġ long2
Ġ tan4Ġ
Ġ dang4Ġ
yuan2 Ġzhi4Ġ
yan2 Ġxian4Ġ
ze2 Ġer3Ġ
ti2 Ġshi4Ġ
qi4 Ġshi4Ġ
wu2 Ġyi4Ġ
zhen1 Ġjun1Ġ
ar dĠ
bin1 Ġxi1Ġfa3Ġ
Ġji2Ġ yu2Ġ
Ġxi1Ġ bei3
xiang1Ġ xin4
shou4Ġ ming4Ġ
mi4Ġ qie4Ġ
ling3Ġ xian2
Ġ000 Ġming2Ġ
Ġhe2Ġbei3Ġ sheng3Ġ
6 5Ġnian2Ġ
8 5Ġ
k e2
Ġ min3
Ġ ya3Ġ
Ġ ruan3Ġ
ĠĠĠ 2004
le Ġshi2Ġ
she4 Ġyu2Ġ
ni ver
bie2 Ġming2Ġ
yan4 Ġzheng4Ġ
Ġwei4Ġ zhi1Ġ
Ġzai4Ġ yue4Ġ
Ġzhong1Ġ yi4Ġ
Ġshi2Ġ biao3Ġshi4Ġ
Ġyu2Ġ 2011
Ġji2Ġ yu3Ġ
Ġta1 Ġyi4Ġ
Ġyu3Ġ yan2ĠdeĠ
ju4Ġ bei4Ġ
Ġer2Ġ zhe4Ġ
zhi3Ġ ze2Ġ
jie4Ġ sai4Ġshi4Ġ
Ġben3Ġ pian4
Ġgai1Ġ wu4Ġzhong3ĠdeĠ
qu3Ġ dai4
mo2Ġshi4Ġ chan3Ġ
Ġwo3 ĠdeĠ
yue4Ġzhong1Ġ xun2Ġ
hang2Ġkong1Ġmu3 Ġjian4Ġ
8 2Ġnian2Ġ
Ġ ma
Ġ zhu4Ġyou3Ġ
yong4 Ġyi3Ġ
duo1 Ġjia1Ġ
fan4 ĠdeĠ
zhu3Ġ guan3Ġ
ping2Ġ gu1Ġ
zhi2Ġ ze2Ġ
bei3Ġ ce4Ġ
jie1Ġ tou2Ġ
zong3Ġ du1
jian3Ġ dan1
hong2Ġ shui3Ġ
wu1Ġ lu3Ġ
dong1Ġbu4Ġ da4Ġqu1Ġ
da1Ġ pei4Ġ
biao1Ġzhun3 ĠdeĠ
8 4Ġnian2Ġ
9 Ġge4Ġ
s ĠdeĠ
ĠĠĠ Q
hou4 Ġcheng2Ġwei2Ġ
ci3 Ġzhan4Ġ
bi3 ĠdeĠ
ji3 Ġge4
pian1 Ġxiao3Ġshuo1Ġ
xu2 Ġ
Ġshi4Ġ wu1Ġke4Ġlan2Ġ
cheng2Ġ du4Ġ
Ġcheng2Ġ ji2Ġ
jia1Ġ zu2Ġ
wei2Ġ ke4Ġ
zhang3Ġ wo4
ti2Ġ jiao1Ġ
Ġdong1Ġ fang1Ġ
wen3Ġ ding4
7 1Ġnian2Ġ
a dĠ
l uo3
Ġ hu1Ġ
yang2 ĠdeĠ
xu1 Ġqiu2
diao4 Ġren4Ġ
Ġzhi1 Ġhe2Ġ
jian1Ġ du1
ti3Ġ xi4
luo2Ġ men2Ġ
cheng1Ġ hu1
wan2Ġ cheng2ĠdeĠ
chong2Ġ zu3Ġ
chi3Ġ cun4
Ġmei3 Ġri4Ġ
ĠĠĠ199 3Ġnian2Ġ
fen1Ġbie2 Ġshi4Ġ
ĠdeĠzhu3Ġ ti2Ġ
9 1
g eng3Ġ
p en1
li an3
bei4 Ġbu4Ġ
qian1 Ġxia4Ġ
196 8Ġnian2Ġ
qing3 Ġqiu2
Ġhe2Ġ mei3Ġguo2Ġ
yi4Ġ yuan2Ġ
fu4Ġ za2Ġ
ge1Ġ chang4
wei1Ġ ni2Ġsi1Ġ
jiu3Ġ ba1Ġ
luo2Ġdi4Ġ ya4Ġ
ĠĠĠen dĠ
P C
j ec
r yĠ
Ġ in
ge2 Ġhe2Ġ
tai4 Ġyuan2Ġ
bian4 Ġli4Ġ
wo 1
197 8Ġnian2Ġ
shen3 Ġli3Ġ
Ġyou3Ġ zhu4Ġyu2Ġ
Ġguo2Ġ fang2Ġ
ming2Ġ ni2Ġsu1Ġ
Ġta1Ġ biao3Ġshi4Ġ
guan1Ġ yin1Ġ
zhi2Ġ lu4
Ġzhe4Ġ chang3Ġ
zu2Ġ gou4Ġ
da3Ġ po4Ġ
zun1Ġ zhong4Ġ
xue2Ġyuan4 ĠdeĠ
ge1Ġqu3 ĠdeĠ
fa1Ġdian4Ġ chang3Ġ
Ġbu4Ġjiu3 Ġhou4Ġ
Ġwei4Ġyu2Ġgai1Ġ sheng3Ġ
l ong3
r e3
Ġ tan2
Ġ pan4Ġ
Ġ yang3Ġ
Ġ ya4Ġzhou1Ġ
yu4 Ġhe2Ġ
yu4 Ġzhong1Ġ
jie1 Ġli4Ġ
shan1 Ġhe2Ġ
suan1 Ġyan2Ġ
am p
zhi4Ġ jin1Ġ
da4Ġ yue1Ġ
Ġguo2Ġ ji2Ġ
Ġguo2Ġ gong4Ġ
Ġyi1Ġ lang3Ġ
Ġer3 Ġdi4Ġ
Ġjun1 Ġji2Ġ
Ġjun1 Ġbei4Ġ
xin1Ġ zeng1Ġ
dai4Ġ lai2ĠdeĠ
jian1Ġ chi2
suo3Ġ zai4ĠdeĠ
Ġzheng4Ġ quan4Ġ
di2Ġ ya4Ġ
A D
Ġ shen1
Ġ yong1
yu3 Ġzai4Ġ
dui4 Ġta1ĠdeĠ
zhu4 Ġshi4Ġ
xing4 Ġyu3Ġ
wu3 Ġwei4Ġ
la1 Ġke4
liu2 Ġyi4Ġ
lan2 Ġzhou1Ġ
ban4 Ġbu4Ġ
ke3Ġ kao4
Ġgai1Ġ pian4
ĠdeĠyi1Ġ tiao2
liao2Ġning2Ġ sheng3Ġ
bai4Ġzhan4Ġ ting2
Ġ aĠ
jiu4 Ġyi3Ġ
jiu3 Ġming2Ġ
196 4Ġnian2Ġ
lou2 ĠdeĠ
Ġguo2Ġ jun1
Ġyi3 Ġcheng2Ġwei2Ġ
kai1Ġ ban4Ġ
Ġju4Ġ le4Ġ
che1Ġ shou3Ġ
zu2Ġ xie2
Ġgao1Ġ su4
Ġye3 Ġhui4Ġ
Ġru2Ġ ci3Ġ
pai4Ġ qian3Ġ
Ġshi4Ġshi4Ġ jie4Ġ
p a2Ġ
Ġ 48
ĠĠĠ 2002Ġnian2Ġ
fa3 Ġzhong1Ġ
xiu1 Ġshi4Ġ
197 0Ġnian2Ġ
Ġguo2Ġ zhong1Ġ
Ġgong1Ġ an1
Ġxing2 Ġyu2Ġ
min2Ġ zheng4Ġ
jie1Ġ ti4Ġ
da2Ġ ni2
yin1Ġ ci3
dang1Ġ ju2
tui1Ġ ce4Ġ
Ġquan2 Ġbu4Ġ
Ġba1 Ġyue4Ġ
Ġda4 Ġwei4Ġ
lang4Ġ man4Ġ
Ġda4Ġshi3Ġ guan3Ġ
s ch
Ġ fu1Ġ
Ġ min2Ġzhu3Ġ
ĠĠĠ 2Ġyue4Ġ
tong2 Ġbu4Ġ
fa3 Ġzhi4Ġ
dong4 Ġshi4Ġ
ye4 Ġzhong1Ġ
qi4 Ġzhong1Ġ
meng2 Ġde2Ġ
yuan2Ġ yin1Ġ
ji4Ġ suan4Ġ
xin1Ġ zeng1
Ġtong2 Ġyue4Ġ
jue2Ġ ce4Ġ
gui1Ġ ge2Ġ
biao1Ġ ti2Ġ
sui2Ġ zhe
chi3Ġ cun4Ġ
Ġer4 Ġren2Ġ
Ġhua4Ġ xue2
7 6Ġnian2Ġ
e mĠ
o ĠĠĠ
Ġ ban3Ġ
Ġ nei4Ġbu4Ġ
Ġ qu3Ġdai4Ġ
qu1 Ġyi4Ġyuan2Ġ
shou3 Ġer3Ġ
quan2 Ġji1Ġ
zui4 Ġxing2Ġ
ke3 Ġyou2Ġ
zu3 Ġwei4Ġ
zong3 Ġshi4Ġ
ka3 ĠdeĠ
zhu1 Ġduo1Ġ
kan4 Ġdao4
Ġguo2Ġ ji4
Ġyi4Ġ qing2
shang4Ġ sheng1Ġ
Ġzhi1Ġ qiu2Ġdui4Ġ
Ġde2Ġ lan2Ġ
an1Ġ dong1Ġni2Ġ
jie1Ġ shou1
yi3Ġ qian2Ġ
y leĠ
Ġ ya1Ġ
Ġ pu2Ġ
ĠĠĠ 2003
duo1 Ġli4Ġya4
jiu4 Ġren4Ġ
shen2 Ġfu4Ġ
gao4 Ġzhong1Ġ
lu2 Ġxing2Ġmu4Ġ
Ġhe2Ġ ren2Ġ
yi1Ġ ming2Ġ
Ġyi1Ġ xi4Ġlie4Ġ
xiang1Ġ hu4
nan2Ġ zhu3Ġjue2Ġ
shan1Ġ ding3Ġ
qi4Ġ guan1Ġ
gu3Ġ dian3
luo4Ġ shan1Ġ
shen2Ġ mi4Ġ
xian1Ġ qian2Ġ
can1Ġ kao3
kai1Ġshi3Ġ leĠ
ming4Ġ yun4Ġ
ĠĠĠC o
ĠdeĠcheng2Ġ gong1Ġ
Ġnv3Ġ zi3Ġ
Ġ190 9Ġnian2Ġ
Ġwu3 Ġyue4Ġ
6 2Ġnian2Ġ
le Ġyi3Ġ
dao4 Ġde2Ġ
jiang1 Ġbei4Ġ
zui4 Ġjin4ĠdeĠ
wu3 Ġda4Ġ
lin2 Ġjin4ĠdeĠ
197 5Ġnian2Ġ
Ġri4Ġ er3Ġ
fu4Ġ xing1
ju4Ġ ti3Ġ
kai1Ġ qi3Ġ
fa1Ġ yu4Ġ
lai2Ġ wang3Ġ
jie1Ġ ti4
xing4Ġ cun2Ġ
Ġye3Ġ cheng1Ġ
zhuan3Ġ bo1Ġ
Ġjing1Ġ chang2
Ġyan2Ġ zhong4Ġ
ĠĠĠT e
ba1Ġshi4Ġ lu4Ġxian4Ġ
Ġdong1 Ġxi1Ġ
ĠĠĠgai4Ġ shu4Ġ
san1Ġjiao3 Ġxing2Ġ
U C
Ġ bo2Ġshi4Ġ
Ġ hai2Ġshi4Ġ
ĠĠĠ ge4
dui4 Ġcheng2Ġyuan2Ġ
yu4 Ġshi4Ġ
ba1 Ġke4Ġ
Ġzai4Ġ ji2Ġ
Ġqi2 Ġyi4Ġ
Ġji1Ġ zhong4Ġ
Ġjia1Ġ qiang2
Ġming2Ġ lu4Ġ
Ġde2Ġ fen1Ġ
jiao4Ġ shao3Ġ
dian4Ġ lu4Ġ
mu4Ġ di4Ġshi4Ġ
ke3Ġ qian2Ġwang3Ġ
Ġju4Ġ chang3Ġ
ka3Ġ si1Ġdi4Ġli4Ġ
ĠĠĠM a
Ġlian2Ġ bang1Ġ
Ġzhi2 ĠdeĠ
ken3Ġ ta3Ġji1Ġ
ĠĠĠbeg inĠ
c a1Ġ
ĠĠĠ cong2
ĠĠĠ jing1Ġ
shang4 Ġzai4Ġ
dai4 Ġer3Ġ
fu4 Ġbu4Ġ
zhi2 Ġren2Ġyuan2Ġ
wen2 Ġdi4Ġ
te4 Ġyu3Ġ
du4 Ġshi4Ġ
chuang4 Ġyi4Ġ
gei3 Ġchu1Ġ
ning2 Ġxia4Ġ
Ġri4 Ġyuan2Ġ
Ġhuo4Ġ yun4Ġ
du2Ġ shu1Ġ
Ġlian2Ġ xu4Ġ
le4Ġ bi3Ġ
Ġbu4Ġtong2 Ġyu2Ġ
mao4Ġ xian3
guang3Ġbo1Ġ dian4Ġtai2Ġ
Ġsection ĠĠĠbeginĠ
7 9Ġnian2Ġ
Ġ wang3
Ġ zhu2
Ġ yuan4Ġ
Ġ gan4Ġ
yu4 Ġwei4Ġ
lian2 Ġxian4Ġ
guan3 Ġdao4Ġ
tuo1 Ġke4Ġ
Ġshi2Ġ hui4Ġ
Ġdao4Ġ lu4
Ġji4Ġ si4Ġ
Ġta1Ġ ye3Ġshi4Ġ
mu4Ġ shi1Ġ
Ġju4Ġ bei4Ġ
shui3Ġ ku4
cai3Ġ fang3Ġ
zheng4Ġshi4Ġ cheng2Ġli4Ġ
hun4Ġ xi
Ġsan1 Ġguo2Ġ
fu4Ġze2 Ġren2Ġ
g en
Ġ liao2Ġ
ĠĠĠ ling4
you3 Ġbu4Ġtong2Ġ
shang4 Ġyu3Ġ
fa3 Ġren2Ġ
shou3 Ġshi4Ġ
da4Ġ chen2Ġ
Ġyou3Ġ hao3Ġ
si1Ġ te4Ġ
Ġke4 Ġshi4Ġ
fa1Ġ yan2Ġ
te4Ġ shu1ĠdeĠ
Ġqiu2 Ġji4Ġ
gan3Ġ qing2Ġ
ĠdeĠbu4Ġ fen4
ĠĠĠben3Ġ shu3Ġ
ĠK Ġ
Ġge1Ġ lun2Ġ
Ġsi4 Ġyue4Ġ
ĠĠĠqi2 Ġhou4Ġ
gao4Ġshi4Ġ pai2Ġ
jie1Ġxia4Ġ lai2ĠdeĠ
Ġdai4Ġma3Ġwei4Ġ 0
8 6Ġ
I G
v e
you2 ĠdeĠ
shen2 Ġxue2Ġ
zai3 Ġxiang4Ġ
co diceĠ
Ġren2Ġ bu4Ġ
Ġcheng2Ġ zhen4
Ġcheng2Ġ guo3Ġ
Ġyi1Ġ gong4Ġ
ming2Ġ xian3Ġ
Ġjian4 Ġjian4Ġ
Ġhou4Ġ fang1Ġ
dui4Ġ kang4Ġ
Ġer3 Ġke4Ġ
zui4Ġ xin1Ġ
Ġhuo4Ġ sheng4Ġ
bao3Ġhu4Ġ qu1Ġ
Ġ3 9
ĠdeĠji1Ġ ben3Ġ
na tion
ne4Ġ sheng3Ġ
xun2Ġhui2Ġ yan3Ġchang4Ġhui4Ġ
lian2Ġxu4 Ġju4Ġ
Ġyong4 Ġyi3Ġ
Ġsuo1Ġ xie3Ġ
na2Ġpo4Ġ lun2Ġ
3 Ġgong1Ġli3Ġ
6 4Ġnian2Ġ
7 7Ġnian2Ġ
c t
men t
Ġwei4Ġ bu4Ġ
Ġyi1Ġ dui4Ġ
lu4Ġ kou3Ġ
Ġdan4 Ġzhe4Ġ
Ġren4Ġ qi1Ġ
ci4Ġ ziĠ
yi2Ġ ju1Ġ
jiao1Ġ dian3Ġ
jing3Ġ bao4Ġ
ce4Ġ hua4Ġ
Ġying1Ġ bang4Ġ
kong4Ġ gu3
Ġhou4Ġlai2 Ġbei4Ġ
dong1Ġnan2Ġ ya4Ġ
Ġk an3Ġ
Ġqi1 Ġyue4Ġ
da1 Ġzai4Ġ
chuang4Ġban4 Ġren2Ġ
mi2Ġni3Ġ zhuan1Ġji2Ġ
roun dĠ
Ġ bao1Ġhan2
nei4 Ġhe2Ġ
lie4 Ġjian4Ġ
nv e4Ġ
shen2 Ġqi2Ġ
da3 Ġjin4Ġ
reng2 Ġshi4Ġ
Ġyi4Ġ zuo4Ġ
Ġdao4Ġ de2Ġ
jie2Ġ hun1
fu2Ġ lang3
chang2Ġ sha1Ġ
Ġdang1Ġ ju2Ġ
ĠĠĠ199 2Ġnian2Ġ
ye2Ġ fu1Ġ
si1Ġdi4Ġ an1Ġ
8 8Ġ
Ġ chu4Ġ
Ġ san1Ġnian2Ġ
Ġ fan2Ġ
Ġ yuan2Ġwei4Ġ
ĠĠĠ ai4Ġ
shang4 Ġyi3Ġ
zhi2 Ġyu2Ġ
dao3 Ġxian4Ġ
guan4 Ġmu4Ġ
195 0Ġnian2Ġ
gui4 ĠdeĠ
kong3 Ġju4Ġ
ro w
yi4Ġ ban1Ġ
sheng1Ġ zhang3Ġ
xia4Ġ tian1Ġ
Ġyin1 Ġhe2Ġ
shou3Ġ du4Ġ
san1Ġ shi2Ġnian2Ġ
qing1Ġ hai3Ġ
mei3Ġshu4Ġ guan3Ġ
4 000
Ġ xin1ĠdeĠ
xi2 Ġjin4Ġping2Ġ
cun2 Ġyu2Ġ
194 4Ġnian2Ġ
cheng2Ġ zhen4Ġ
Ġxing2Ġ wei2
Ġjia1Ġ la1Ġ
xiang1Ġ lian2Ġ
Ġjun1Ġ zhang3Ġ
qing1Ġ chun1Ġ
Ġxin1Ġ jiang1Ġ
chuan2Ġ jiao4Ġshi4Ġ
xing1Ġ qi3Ġ
5Ġ wan4
kan1Ġ wu4Ġ
Ġch an2
tie3Ġlu4 Ġgong1Ġsi1Ġ
6 6Ġ
B DĠ
Ġ ding1
Ġ song1
Ġ teng2Ġ
ĠĠĠ 2024Ġnian2Ġ
bei4 Ġren2Ġ
liu2 Ġxing2ĠdeĠ
lan2 Ġde2Ġ
10 00Ġ
ying2 Ġdi4Ġ
zhuan4 Ġji4Ġ
Ġxing2Ġ zou3Ġ
si4Ġ yuan4Ġ
cai2Ġ ding4Ġ
ci2Ġ shan4
sĠĠĠ S
Ġzhe4 Ġli3Ġ
dao3Ġzhi4Ġ leĠ
Ġxing4Ġ bie2Ġ
wang2Ġchao2 ĠdeĠ
Ġnian2Ġshi4Ġjie4Ġ bei1Ġ
Ġ jue2Ġding4
Ġ che4Ġxiao1Ġ
ĠĠĠ dai4Ġ
ou1 Ġzhou1ĠdeĠ
zhan4 Ġjian4Ġ
lin2 Ġshi4Ġ
huang2 Ġhe2Ġ
yang4 Ġben3Ġ
Ġzai4Ġ tai2Ġwan1Ġ
Ġli4Ġ jing1Ġ
shu4Ġ zhi2Ġ
bao3Ġ xian3
bao3Ġ yu4Ġ
ya4Ġ te4Ġ
ni2Ġ gu3Ġla1Ġ
zi1Ġ jin1
wei1Ġ yi2Ġ
qian1Ġ ru4Ġ
qian1Ġ wang3Ġ
du2Ġ te4Ġ
chu3Ġ li3
han4Ġlin2Ġ yuan4Ġ
8 1Ġnian2Ġ
r ao2Ġ
Ġ jiang4Ġ
ĠĠĠ 1Ġyue4Ġ
tong2 Ġzhi4Ġ
ma3 Ġdi4Ġ
hai3 Ġjun1ĠdeĠ
tai2 Ġji2Ġ
Ġnian2Ġ ling2
Ġzhong1Ġ shi2Ġ
zhi4Ġ liao2Ġ
Ġyuan2Ġ su4
you2Ġ lai2Ġ
Ġchu1Ġ sheng1Ġzai4Ġ
dian4Ġ rong2Ġ
chang2Ġ zhu4
jie4Ġ mian4Ġ
Ġshe4Ġ ding4Ġ
Ġye3Ġ mei2Ġyou3Ġ
mei4Ġ mei4
zhui1Ġsu4 Ġzhi4Ġ
Ġsection ĠĠĠendĠ
Ġ jian1
Ġ pian4Ġ
Ġ kan4Ġ
ĠĠĠ zhu4Ġzuo4Ġ
si1 Ġji2Ġ
de2 Ġke4Ġsa4Ġsi1Ġ
ping2 Ġji2Ġ
qian2 Ġyi1Ġ
guo4 Ġshi4Ġ
mi4 Ġxi1Ġxi1Ġ
ĠdeĠ shuo1Ġfa3Ġ
Ġzai4Ġ yi2Ġge4Ġ
Ġjun1 Ġgong1Ġ
Ġwei2Ġ yi1ĠdeĠ
Ġzheng4Ġ dang3Ġ
chang3Ġ jing3
yan3Ġ hua4
tu2Ġ jing1Ġ
jian3Ġ pu3Ġ
zheng1Ġ qi4Ġ
er2Ġ zi
zu1Ġ jie4
Ġhuo4Ġde2 Ġyi1Ġmei2Ġ
Ġda4Ġduo1Ġ shu4
meng4Ġjia1Ġ la1
A V
Ġ di3Ġ
xiang4 Ġta1Ġ
yue1 Ġke4Ġ
yang2 Ġji1Ġ
zhuang1 Ġyou3Ġ
chuan1 Ġzhu4Ġ
ĠdeĠ you3Ġ
Ġli4Ġ cheng2Ġ
Ġyi3 Ġgong1Ġ
si1Ġ fa3Ġ
Ġyi1Ġ ci2
Ġda4Ġ liang4ĠdeĠ
Ġjian4Ġ leĠ
jing1Ġ fei4Ġ
yong4Ġ hu4
Ġdui4Ġ ying4Ġ
Ġju4Ġ feng1Ġ
ze2Ġ ren4
wang3Ġ min2Ġ
Ġduo1Ġ shu4Ġ
zhuan1Ġ ke1Ġxue2Ġ
shen3Ġ yang2Ġ
Ġbi3Ġ sai4
bian4Ġcheng2Ġ leĠ
Ġ jing3
ĠĠĠ jiang1Ġ
yu an1
jian4 Ġyu2Ġ
jia4 Ġri4Ġ
194 8Ġnian2Ġ
rui4 Ġke4Ġ
Ġbu4Ġ gong1Ġ
Ġshi2Ġ qi1Ġnian2Ġ
Ġdi4Ġ 1
kai1Ġ bo1Ġ
ti3Ġ cao1Ġ
Ġxia4Ġ xia2Ġ
yin3Ġ qing2
dang3Ġ wei3Ġ
e4Ġ tu2Ġ
Ġyu2Ġ199 8Ġnian2Ġ
Ġwu2 Ġxian4Ġ
Ġzai4Ġci3Ġ qi1Ġjian1Ġ
5 3Ġnian2Ġ
8 1Ġ
B M
Ġ gui3Ġ
fa1 Ġyin1Ġ
jin1 Ġzhong1Ġ
zhong4 Ġyi4Ġyuan2Ġ
10 Ġge4Ġ
nv3 Ġshi4Ġ
mu3 Ġshi4Ġ
bai4 ĠdeĠ
Ġyue4Ġ qi4Ġ
Ġyi4Ġ ti2Ġ
Ġjian4Ġ zheng4Ġ
xing2Ġ xiang4Ġ
Ġren2Ġkou3Ġ pu3Ġcha2Ġ
wu1Ġ ran3
re4Ġ men2Ġ
Ġzhi3Ġ yao4Ġ
geng1Ġ huan4Ġ
Ġtai2Ġ bei3
Ġhou4Ġlai2 Ġzai4Ġ
zhan4Ġzheng1 Ġzhong1Ġ
mao2Ġze2Ġ dong1
Ġjie1Ġwei4Ġ lu4Ġdi4Ġ
6 7Ġ
8 2Ġ
l li
ĠĠĠ zhan4Ġhou4Ġ
sai4 Ġshi4Ġzhong1Ġ
hong2 Ġshi2Ġzi4Ġ
shun4 Ġtian1Ġ
Ġdi4Ġ liu4
Ġwei2Ġ ke4Ġ
qi1Ġ kan1Ġ
Ġtong2 Ġnian2Ġ9Ġyue4Ġ
jing3Ġ bao4
zu2Ġqiu2Ġ lian2Ġsai4Ġ
Ġliang3 Ġguo2Ġ
Ġbao3Ġ luo2Ġ
Ġzai4Ġzhong1Ġguo2Ġ da4Ġlu4Ġ
tou2Ġru4Ġ shi3Ġyong4Ġ
Ġ tu3
you3 Ġshi4Ġ
shang4 Ġhe2Ġ
jun1 Ġren2Ġ
jin4 Ġcheng2Ġ
yu4 Ġyou3Ġ
zhang3 Ġli3Ġ
mu3 Ġyu3Ġ
gan3 ĠdeĠ
wo4 Ġsi1Ġ
ĠdeĠ qing2Ġkuang4Ġ
Ġbu4Ġ luo4
Ġbu4Ġ bing1
wen2Ġ ben3Ġ
jin1Ġ qu3Ġ
lv4Ġ shi1
zu2Ġ gou4ĠdeĠ
ĠdeĠyi1Ġ xie1
Ġao4 Ġdi4Ġli4Ġ
you2Ġxi4 Ġzhong1Ġ
Ġshi4Ġwei1Ġ zhe3Ġ
li3Ġgong1Ġ da4Ġxue2Ġ
Ġshi4Ġshi4Ġjie4 Ġshang4Ġ
6 8Ġnian2Ġ
G C
p ei1
Ġ bai4
lai2 Ġde2Ġ
zhong3 Ġjia1Ġ
qian1 Ġshi4Ġ
lo w
Ġwei4Ġ gai1Ġ
Ġwei4Ġ re4Ġdai4Ġ
Ġzai4Ġ bei3Ġjing1Ġ
Ġyi4Ġ cheng2Ġ
Ġyi1Ġ xue2Ġyuan4Ġ
Ġsi1Ġ xiang3
dui4Ġ fang1Ġ
Ġta1Ġ cong2Ġ
neng2Ġ li4ĠdeĠ
yuan4Ġ xiao4Ġ
nv3Ġ ge1Ġshou3Ġ
Ġran2 Ġer2Ġzai4Ġ
shen2Ġ jing1
ju2Ġ mian4Ġ
sui2Ġ zhu4
Ġzui4Ġ hou4
Ġshu4Ġ ju4Ġ
Ġzhi3Ġ neng2Ġ
ĠĠĠD e
dong1Ġjing1Ġ du1Ġ
yun2Ġnan2Ġ sheng3Ġ
NB AĠ
G oog
l ao4Ġ
ĠĠĠ duo1Ġ
you3 Ġbu4Ġtong2ĠdeĠ
zheng4 Ġhe2Ġ
jie4 Ġyu2Ġ
tai4 Ġji2Ġ
tai4 Ġer3Ġ
da2 Ġhe2Ġ
Ġda4Ġ yu3Ġ
zi4Ġ zhu3Ġ
Ġtong2 Ġnian2Ġ11Ġyue4Ġ
ke3Ġ fen1Ġwei2Ġ
bi3Ġ ci3Ġ
Ġshe4Ġ bei4
zi1Ġ bie2
xian1Ġ fa1Ġ
can1Ġ mou2Ġ
que4Ġ bao3
han2Ġ gai4Ġ
ĠĠĠli4Ġshi3Ġ yan2Ġge2Ġ
fa1Ġsheng1Ġ hou4Ġ
Ġdi4Ġshi2Ġ er4Ġ
xiang1Ġdang1 Ġyu2Ġ
7 8Ġnian2Ġ
n ong4Ġ
Ġ zha1
Ġ fa1Ġbu4Ġ
xian4 Ġzai4Ġ
ge4 Ġge4Ġ
shi3 Ġsi1Ġ
ju4 Ġren2Ġ
195 8Ġnian2Ġ
ta in
yi1Ġ xie1
Ġdi4Ġ 4Ġ
Ġyue4Ġ qiu2Ġ
lu4Ġ xu4
Ġfu4Ġ nv3Ġ
Ġben3Ġ shen1Ġ
Ġshi4Ġjie4 Ġge4Ġdi4Ġ
lian2Ġsai4 Ġqiu2Ġdui4Ġ
shan3Ġxi1Ġ sheng3Ġ
Ġli4Ġfa3Ġ wei3Ġyuan2Ġ
pu1 Ġshe4Ġ
ĠIST AT
Ġ bei1Ġ
Ġ ke3Ġneng2Ġshi4Ġ
ĠĠĠ 2000
ping2 Ġxi1Ġ
xiang1 Ġdao4Ġ
ci3 Ġyi1Ġ
ku a1Ġ
lin2 Ġjin4
qian1 Ġnian2Ġ
dou1 Ġyi3Ġ
sha1 ĠleĠ
hui2 Ġfu4Ġ
Ġbu4Ġ zu2
Ġyue4Ġ du2Ġ
da4Ġ dong1Ġbu4Ġda4Ġqu1Ġ
Ġcheng2Ġ qiang2Ġ
Ġsi1Ġ dun4Ġ
Ġhou4Ġ lai2ĠdeĠ
Ġji1Ġ qi4Ġ
Ġji1Ġ qi4Ġren2Ġ
Ġbing4Ġ jiang1Ġqi2Ġ
jie1Ġ qu1Ġ
ge2Ġ lei1Ġ
zhi3Ġ ling4Ġ
yun4Ġ suan4Ġ
Ġhe2Ġguo2Ġ jia1Ġ
Ġyou3Ġyi1Ġ xie1
fou3Ġ jue2Ġ
huan3Ġ man4Ġ
P layStation
Ġ ou1Ġzhou1
li3 Ġyou3Ġ
nan2 Ġzhi4Ġ
jiao4 Ġyi4Ġ
shi1 Ġli4Ġ
wai4 Ġxing2Ġ
luo2 ĠdeĠ
shen3 Ġyi4Ġ
di4Ġ san1Ġ
Ġzhi1Ġ nv3Ġ
xin1Ġ sheng1Ġ
Ġzhou1Ġ bian1
Ġshang4Ġ sheng1Ġ
bian1Ġ fu2Ġ
ĠR e
hua2Ġsheng4Ġ dun4Ġ
mo2Ġte4 Ġer2Ġ
T E
s s
Ġ qing2Ġ
Ġ guang3Ġzhou1Ġ
hui4 Ġcheng2Ġyuan2Ġ
she4 Ġji1Ġ
fa3 Ġhe2Ġ
fu2 Ġke4Ġ
dao3 Ġdan4
hua2 Ġyu3Ġ
xiu1 Ġxi1Ġ
Ġshi2Ġ shi2Ġ
ji4Ġ hou4Ġ
hai3Ġ wai4
qi3Ġ fa1Ġ
sai4Ġ ting3Ġ
xuan3Ġ piao4Ġ
fan4Ġ dian4Ġ
Ġte4Ġ lang3Ġ
sai1Ġ bai4
niu3Ġyue1 Ġshi4Ġ
ke1Ġji4Ġ da4Ġxue2Ġ
jia1Ġli4Ġfu2Ġ ni2Ġya4
Ġ ge1Ġqu3Ġ
Ġ zao3Ġnian2Ġ
ĠĠĠ yue4
ĠĠĠ zuo4Ġ
wu3 Ġren2Ġ
zi1 ĠdeĠ
jiu3 Ġzhou1Ġ
194 1Ġnian2Ġ
rang4 Ġren2Ġ
Ġhe2Ġ ma3Ġ
Ġshi2Ġ zi4
Ġdi4Ġ chu3Ġ
Ġyu3Ġ li3Ġ
Ġbing4Ġ xiang4Ġ
Ġke4Ġ lu3Ġ
gao1Ġ feng1Ġ
ye4Ġ wu4
ba1Ġ he4Ġ
chong1Ġ fen4Ġ
Ġfa1Ġ biao3Ġ
zhu3Ġti2Ġ qu1Ġ
Ġshi4Ġyi1Ġke1Ġ heng2Ġxing1Ġ
7 4Ġ
I M
Ġ e4
Ġ ya4
ĠĠĠ dang1
hua4 Ġxian4Ġ
ci4 Ġri4Ġ
zhong4 Ġxing2Ġ
fang3 Ġzhi1Ġ
Ġwei4Ġ gong1Ġ
Ġzhou1 Ġguo2Ġ
jing1Ġ ying1Ġ
Ġer2Ġ fei1
dong1Ġ bu4ĠdeĠ
fen1Ġ shu4Ġ
pai2Ġ hang2
she4Ġ ding4Ġ
Ġru2Ġ jin1Ġ
Ġzhi2 Ġdao4
fan1Ġ chuan2Ġ
mu4Ġni2Ġ hei1Ġ
D e
t u4Ġ
Ġ tao2
Ġ cui1
Ġ zhu2Ġ
ĠĠĠ qi4Ġhou4Ġ
xiang4 Ġyu3Ġ
ĠdeĠ guan1Ġxi4Ġ
Ġgong1Ġ guo2Ġ
lin2Ġ na4Ġ
bian4Ġ geng1
gou4Ġ wu4Ġ
pai2Ġ fang4Ġ
Ġjie1Ġ zhu4Ġ
Ġdi4Ġer4 Ġge4Ġ
5 5Ġnian2Ġ
7 7Ġ
S O
l orĠ
Ġ zheng1Ġyue4Ġ
ĠĠĠ huo4
li n
men tĠĠĠ
dou1 Ġyu4Ġshi3Ġ
zan4 Ġcheng2Ġ
zao1 Ġdao4
Ġzai4Ġ ba1Ġ
Ġbu4Ġ lang3Ġ
Ġxian4 Ġli4Ġ
xi1Ġ fang1Ġ
jiao4Ġ xiao3Ġ
si4Ġ hu1Ġ
sĠĠĠ C
Ġjing1Ġ ying2Ġ
tian2Ġ xin4Ġ
ĠĠĠS u
shao3Ġ liang4Ġ
sa4Ġ zhu1Ġ
rĠ Ã
jian4Ġzhu4Ġ wu4Ġ
Ġer4 Ġyue4Ġ
xin1Ġli3Ġ xue2Ġ
Ġqi1Ġxi1Ġ shen1Ġdu4Ġ
a yĠĠĠ
o sĠ
ĠĠĠ 11
ĠĠĠ 7Ġ
xin1 Ġhe2Ġ
xin1 Ġxi1Ġlan2Ġ
dian3 Ġwei4Ġyu2Ġ
lu3 Ġji2Ġ
Ġbu4Ġ yu3Ġ
Ġgong1Ġ yue1Ġ
jing1Ġ ti3Ġ
zhi3Ġ biao1Ġ
ci4Ġ quan2Ġguo2Ġ
ban1Ġ dian3Ġ
ke3Ġyi3Ġ yong4Ġ
ĠS u
Ġdi4Ġer4Ġ ci4
miao2Ġshu4Ġ leĠ
00Ġmi3 ĠdeĠdi4Ġqu1Ġ
Ġ on
ai4 Ġhe2Ġ
yu2 Ġnian2Ġ
sheng1 Ġdao4Ġ
yan2 Ġhe2Ġ
zhong4 Ġzhi4Ġ
ji3 Ġnan2Ġ
deng1 Ġji1Ġ
Ġzai4Ġ 2010Ġnian2Ġ
li4Ġ ziĠ
Ġdao4Ġ guang1Ġ
Ġji4Ġ zhe3Ġhui4Ġ
lu4Ġ ying3Ġ
Ġjun1Ġ tuan2
lian2Ġ bo1Ġ
ke3Ġ yong4Ġyu2Ġ
ying3Ġ zhan3Ġ
Ġben3Ġ tu3
bian1Ġ jing4
xie1Ġ gen1
Ġqi2Ġzhong1Ġ bao1Ġkuo4
zhan4Ġdou4 Ġji1Ġ
zhen3Ġ duan4Ġ
sai1Ġer3Ġwei2Ġ ya4
2 Ġhao4
jia1 Ġshi2Ġ
shou3 Ġbei4Ġ
shu i2Ġ
bao3 Ġshi4Ġ
ĠdeĠ er2ĠziĠ
Ġshi4Ġ ri4Ġben3
Ġhe2Ġ zhong1Ġguo2Ġ
Ġde2 Ġyi4Ġ
fen1Ġ fen1Ġ
Ġtong2 Ġbu4Ġ
Ġren4Ġ zheng4Ġ
jue2Ġ xin1Ġ
Ġzhi2Ġ wu4Ġ
Ġxing2Ġzheng4 Ġzhong1Ġxin1
6 9Ġnian2Ġ
6 1Ġnian2Ġ
Ġ ni
Ġ wang4Ġ
Ġ qiong2
zuo4 Ġyou3Ġ
dai4 Ġshi2Ġ
ke3 Ġxing2Ġ
tie3 Ġdao4
meng2 Ġyou3Ġ
qin1 Ġshi2Ġ
yong3 Ġshi4Ġ
Ġbu4Ġ da4Ġ
Ġbu4Ġ shu3Ġ
Ġren2Ġ shu4
Ġgong1Ġ jin1
Ġgong1Ġ bu4ĠdeĠ
Ġzhi1 Ġyu2Ġ
Ġyuan2Ġ lai2ĠdeĠ
sheng1Ġ xiao4Ġ
xiao3Ġ xiang4Ġ
se4Ġ qing2Ġ
sha1Ġ hai4
zu2Ġ zong3Ġ
liang3Ġ zhe3Ġ
luo2Ġma3Ġ ni2Ġya4Ġ
Ġgai1Ġsheng3Ġfen4Ġwei4Ġfa3Ġguo2Ġ bei3Ġbu4Ġ
Ġfei1 Ġli4Ġ
ali gnĠ
guo2ĠdeĠte4Ġyou3Ġ zhi2Ġwu4Ġ
7 6Ġ
o i
Ġ shuo1
Ġ hou2Ġ
Ġ zhun3Ġbei4Ġ
ĠĠĠ 2001Ġnian2Ġ
zhu4 Ġgong1Ġ
wai4 Ġji2Ġ
sheng3 Ġzheng4Ġ
12 Ġge4Ġ
tiao2 Ġjian4
al lĠ
Ġyu2Ġ 2009
zhu3Ġ zhang1
Ġbei4Ġ pan4Ġ
yan2Ġ hai3
jiao4Ġ gao1ĠdeĠ
feng1Ġ mian4Ġ
jian3Ġ ce4
xi2Ġ su2Ġ
lun4Ġ shu4Ġ
xun2Ġ yan3Ġ
shen3Ġ cha2
Ġfu2 Ġli3Ġ
ĠĠĠ198 8Ġnian2Ġ
nie4Ġ ci2
Ġya4Ġ mei3Ġ
Ġw a1Ġ
illi am
dian4Ġzi3 Ġyou2Ġxi4Ġ
7 Ġgong1Ġli3Ġ
Ġ zhen4
Ġ 25Ġ
you3 Ġbu4Ġfen4Ġ
le Ġta1
qu1 Ġyi4Ġ
ping2 Ġxing2Ġ
gai1 Ġdi4Ġqu1Ġ
bao4 ĠdeĠ
bian4 Ġxing2Ġ
bo2 Ġke4Ġ
men2 Ġshi4Ġ
gu4 ĠdeĠ
nuo4 Ġbei4Ġer3Ġ
Ġli3Ġ xue2Ġ
Ġer2 Ġyou3Ġ
shou3Ġ fa3Ġ
zheng1Ġ lun4Ġ
zhen1Ġ dui4
zhuan1Ġ zhu4Ġyu2Ġ
xun2Ġ luo2Ġ
Ġguo4Ġ cheng2Ġzhong1Ġ
Ġma3Ġ ding1Ġ
tao3Ġ fa2Ġ
ran3Ġ se4Ġ
duo2Ġ guan4Ġ
Ġge1Ġ qu3
ĠdeĠli4Ġ shi3
Ġjiu3 Ġyue4Ġ
7 2Ġnian2Ġ
C D
y n
Ġ kao3
Ġ en1Ġ
ĠĠĠ she4Ġhui4Ġ
zuo4 Ġhe2Ġ
zhan4 Ġji2Ġ
er2 Ġcheng2Ġ
qi3 Ġchu1Ġ
qing1 Ġxi1Ġ
mei2 Ġli4Ġ
fan3 Ġgong1Ġ
gui1 ĠdeĠ
ning2 Ġxian4Ġ
te dĠĠĠ
Ġji1Ġ dong4Ġ
ping2Ġ mian4Ġ
zhu4Ġ fang2Ġ
Ġdong1Ġ lin2
Ġshi4Ġji4Ġ chu1Ġ
tui1Ġ fan1Ġ
dian4Ġying3 Ġzhong1Ġ
ĠÐ ½
guan3Ġkong4 Ġzhong1Ġfa1Ġxian4Ġ
I L
Ġ zhang3
Ġ bie2Ġ
Ġ zong1Ġjiao4Ġ
min2 Ġshi4Ġ
jie1 Ġyou3Ġ
se4 Ġhuo4Ġ
shang1 Ġhui4Ġ
qing2 Ġren2Ġ
Ġzhong1Ġ hua2
Ġyi4Ġ miao2
bei3Ġ ka3Ġluo2Ġlai2Ġna4
ding4Ġ lv4Ġ
ling2Ġ shou4Ġ
zhen1Ġ cha2
xi3Ġ ai4Ġ
shi1Ġqu4 ĠleĠ
d uo4Ġ
p sĠ
ao4 Ġli4Ġ
le ĠdeĠ
xue2 Ġli4Ġ
si3 ĠdeĠ
Ġzai4Ġ ke4Ġ
Ġshi2Ġ chang2Ġ
jia1Ġ qiang2Ġ
Ġxing2 Ġzhi4Ġ
Ġda4Ġ jiang1Ġjun1Ġ
Ġyuan2Ġ xing2
Ġyi3Ġ 3Ġ
Ġzhan4Ġ yi4Ġzhong1Ġ
fu2Ġ te4Ġ
Ġsheng1Ġ cheng1
Ġji2Ġtuan2 Ġyou3Ġxian4Ġgong1Ġsi1Ġ
ĠO Ġ
ye1Ġ su1Ġ
Ġyu3Ġmao2 Ġqiu2Ġ
0 Ġren2Ġ
8 Ġgong1Ġli3Ġ
Ġ hu4
de rĠ
ĠĠĠ 20
zhao4 Ġji2Ġ
Ġshi4Ġ jiang1Ġ
Ġshi4Ġ dang1Ġdi4Ġ
Ġyi4Ġ bai3Ġ
Ġcheng2Ġ yuan2ĠdeĠ
Ġyi1Ġ shou3Ġ
wei2Ġ hu4Ġ
Ġda4Ġ zi4Ġ
dian4Ġ dong4Ġ
qi3Ġ hua4Ġ
hai2Ġ zi
ĠdeĠbu4Ġ tong2Ġ
shou1Ġlu4Ġ leĠ
shou4Ġhuan1Ġ ying2ĠdeĠ
Ġ shan1
Ġ qiao2
li4 Ġnian2Ġ
zhan4 Ġji1Ġ
ma3 Ġde2Ġli3Ġ
shi3Ġ guan3Ġ
yan2Ġ lun4
fen1Ġ lie4
fei1Ġ ji1
jiu4Ġ ke3Ġyi3Ġ
zheng1Ġ duo2
ĠdeĠyi1Ġ zhong3
Ġshi4Ġjie4Ġ bei1
lu2Ġ wa3Ġ
Ġgong1Ġzuo4Ġ zhe3Ġ
2010Ġnian2Ġ mei3Ġguo2Ġren2Ġkou3Ġpu3Ġcha2Ġ
ĠĠĠB u
Ġshe4Ġji4Ġ shi1Ġ
hao2Ġ mi3
Ġguo2Ġjia1 Ġji2Ġ
Ġwei4Ġzhong1Ġ xin1Ġ
Ġsheng1Ġhuo2 Ġzai4Ġ
Ġmin2 Ġji2Ġ
qiao1 Ġchu1Ġ
ji3Ġnei4Ġ ya4Ġ
5 4Ġnian2Ġ
6 8Ġ
I F
Ġ fu3
Ġ xi3
Ġ shan4
Ġ xiang4Ġshi4Ġ
ji ong3Ġ
shi3 Ġqi2Ġ
mu4 Ġhou4Ġ
jie1 Ġdao4
cha2 Ġsi1Ġ
jiang3 Ġzuo4Ġ
kun1 Ġchong2Ġ
Ġshi4Ġ xian4Ġ
Ġshi4Ġ xiang1Ġgang3
Ġshi2Ġ bie2Ġ
Ġyi4Ġ li4Ġ
Ġxi1Ġ de2Ġ
Ġjian4Ġ zao4ĠdeĠ
Ġbing4Ġ kai1Ġshi3Ġ
wai4Ġ jie4
ti3Ġ nei4Ġ
lie4Ġ biao3
mei3Ġ guo2Ġhe2Ġ
Ġzhong1Ġguo2Ġ guo2Ġjia1Ġ
ling2Ġ mu4Ġ
ĠĠĠB e
Ġtai4Ġ yang2Ġ
Ġs a1Ġ
ĠĠĠof ĠĠĠthe
6 Ġming2Ġ
7 3Ġ
v eĠĠĠ
Ġ zhong3Ġ
xia4 Ġxing2Ġ
tu di
15 0Ġ
zheng3 Ġshu4Ġ
Ġbu4Ġ yi4Ġ
Ġren2Ġ lei4ĠdeĠ
Ġzhi4Ġ pian4Ġ
ju4Ġ chang3Ġ
jiao4Ġ duo1Ġ
Ġju4Ġ qing4Ġxia4Ġ
liang3Ġ ce4
huan2Ġ bao3Ġ
Ġzhi2Ġ jing4Ġ
Ġp i4
Ġbi4Ġ ye4Ġhou4Ġ
gui3Ġdao4Ġ jiao1Ġtong1Ġ
Ġwei4Ġfu2Ġqi2Ġyu2Ġgang1Ġ lu2Ġxing2Ġmu4Ġ
KB 48
Ġpu2Ġtao2Ġya2 Ġyu3Ġ
Ġ fen1
ji a2Ġ
bian4 Ġde2
su1 Ġzhou1Ġ
Ġshi4Ġ han2Ġguo2Ġ
Ġbu4Ġ xiang2Ġ
Ġyi4Ġ chang2Ġ
Ġqi2 Ġdi4Ġ
Ġhou4Ġ yin1Ġ
dong1Ġ lu4Ġ
Ġdan4Ġ reng2
wang3Ġ fan3Ġ
can1Ġ yan3Ġ
da3Ġ po4
gu4Ġ ding4
geng1Ġ gai3Ġ
Ġjiang1 Ġjun1Ġ
Ġw ang1Ġ
Ġke1 Ġer3Ġ
zhen3Ġ duan4
yin3Ġqi3 ĠdeĠ
kao3Ġlv4 Ġdao4Ġ
nan2Ġsi1Ġla1Ġ fu1Ġ
m a4Ġ
x ĠĠĠ
Ġ lei4
Ġ meng4
Ġ ying3Ġ
Ġ le4Ġ
ĠĠĠ fan3Ġ
le Ġda4Ġliang4Ġ
xiang4 Ġqi2Ġ
ying3 Ġji2Ġ
lu deĠ
sai1 Ġsi1Ġ
ruo4 ĠdeĠ
Ġwei4Ġ 2
zhong1Ġ xue2Ġ
Ġren2Ġ ji2Ġ
Ġli4Ġ an1Ġ
Ġji1Ġ guan1
qu1Ġ yu4ĠdeĠ
fang1Ġ zhen1Ġ
suo3Ġ mu3Ġ
ma3Ġ chang3Ġ
shan1Ġ chu2Ġ
ya4Ġ zhong3Ġ
sai4Ġ shi4ĠdeĠ
bo1Ġ luo2Ġdi4Ġ
Ġnan2Ġ fang1Ġ
jiu3Ġ jing1Ġ
fei4Ġ chu2
Ġqian2Ġ long2
er2Ġ yan2Ġ
tie3Ġlu4Ġ ju2Ġ
yun3Ġshi2Ġ keng1Ġ
3 Ġli4Ġ
9 5Ġ
m ar
v en
Ġ xi4Ġtong3Ġ
fu4 Ġyuan2Ġ
quan2 Ġcheng2Ġ
te4 Ġzhi4Ġ
gao1 Ġjia1Ġ
ti3 Ġzhong1Ġ
shui3 Ġxian4Ġ
ban4 Ġxue2Ġ
195 2Ġnian2Ġ
gai4 ĠleĠ
tan3 Ġke4
gan4 Ġshi4Ġ
Ġzhong1Ġ xue2
hou4Ġ lai2
guan1Ġ bi4
hua4Ġ xue2
jing1Ġ dian3
zhe4Ġ yang4
bei3Ġ lu4Ġ
mei3Ġguo2Ġ guo2Ġjia1Ġ
qing1Ġ chao2
qing1Ġ hua2Ġda4Ġxue2Ġ
shui3Ġ zhun3Ġ
Ġzhong1Ġguo2Ġ da4Ġlu4
Ġxiang1Ġ fan3Ġ
huo4Ġ sheng4Ġ
ĠdeĠshi4Ġ li4Ġ
wen2Ġhua4Ġ yi2Ġchan3Ġ
ĠĠĠ199 0Ġnian2Ġ
ĠãĤ ĵ
huan2Ġxing2Ġ shan1Ġ
o me
Ġ huan2
Ġ gai4
quan2 Ġhe2Ġ
deng3 Ġzhan4Ġ
la1 Ġli4Ġ
si4 Ġge4
dan1 Ġren2Ġ
fang2 ĠdeĠ
zong1 Ġzuo4Ġ
in eĠ
ĠdeĠ zuo4Ġpin3Ġ
ĠdeĠ yin1Ġyue4Ġ
ĠdeĠ she4Ġji4Ġ
Ġda4Ġ ming2Ġ
Ġxi1Ġ shou1Ġ
ju4Ġ dian3Ġ
Ġming2Ġ chao2
jiao4Ġ xiao3ĠdeĠ
Ġke4Ġ lun2Ġ
Ġzhe4Ġ ye3Ġ
kong1Ġ tiao2Ġ
qu1ĠdeĠ yi2Ġge4Ġ
Ġjin3Ġ biao1Ġ
min2Ġzhu3Ġ zhu3Ġyi4Ġ
pao4Ġ bing1Ġ
wen1Ġ ge1Ġ
cheng2Ġli4Ġ yu2Ġ
Ġba1 Ġxi1Ġ
shuai4Ġ xian1Ġ
Ġgai1Ġwu4Ġzhong3ĠdeĠ mo2Ġshi4Ġchan3Ġ
5 2Ġnian2Ġ
C R
Ġ dian3Ġ
Ġ qiang1Ġ
yan2 Ġshi4Ġ
lian2 Ġsi1Ġ
cong2 Ġzhong1Ġ
guan4 Ġjun1ĠdeĠ
Ġshi2Ġ shang4Ġ
Ġyu2Ġ zhong1Ġ
Ġji1Ġ qiang1Ġ
Ġzhi1Ġ yi1ĠdeĠ
Ġbei4Ġ ren4Ġwei2
zhu4Ġ zhai2
gao1Ġ ceng2Ġ
an1Ġ fu3Ġ
Ġbo1Ġ luo2Ġ
Ġzhan4Ġzheng1 Ġzhong1Ġ
Ġzhong1Ġguo2Ġguo2Ġmin2Ġ dang3Ġ
ĠĠĠ ying1Ġ
gong1 Ġwei4Ġ
hou4 Ġji2Ġ
zhu a1
lin2 Ġxian4Ġ
liu2 Ġdan4Ġ
zhong4 Ġli4Ġ
nv3 ĠdeĠ
hai2 Ġhui4Ġ
or i
mie4 Ġwang2Ġ
Ġwei4Ġ xing1
Ġyi1Ġ hao4Ġ
dai4Ġ ling3Ġ
Ġming2Ġ dan1
yan2Ġ se4
wen2Ġ shu1Ġ
suo3Ġ en1Ġ
ge2Ġ li2
Ġzuo4Ġ leĠ
dao3Ġ zhi4ĠdeĠ
jiao1Ġ wang3Ġ
luo4Ġ fu1Ġ
ju1Ġ bu3Ġ
7Ġyue4Ġ 1Ġri4Ġ
di3Ġ kang4
ĠĠĠS h
Ġwen2Ġ xue2Ġ
Ġdi4Ġer4Ġ ci4Ġshi4Ġjie4Ġda4Ġzhan4Ġ
ĠĠĠben3 Ġyu2Ġ
m b
Ġ zao3
Ġ gei3
Ġ cui1Ġ
si1 Ġyou3Ġ
jiang1 Ġxian4Ġ
shou4 ĠleĠ
da2 Ġdao4ĠleĠ
ding3 Ġbu4Ġ
Ġzai4Ġ dong1Ġ
Ġshi2Ġ er4
Ġda4Ġ jun1Ġ
dui4Ġ ying4Ġ
Ġdui4Ġ kang4Ġ
liu2Ġ lang4Ġ
Ġxin1Ġ wen2
mei2Ġ ti3ĠdeĠ
guang1Ġ xu4
hai3Ġjun1Ġ lu4Ġzhan4Ġ
5 9Ġnian2Ġ
c an4Ġ
t ra
ke4 ĠdeĠ
qi1 Ġge4Ġ
chuan2 Ġcheng2Ġ
xi2 ĠdeĠ
198 1Ġnian2Ġ
to ĠĠĠ
Ġshi2Ġ ba1Ġnian2Ġ
Ġyu2Ġ 2025
jia1Ġ meng2Ġ
Ġyi1Ġ wan4Ġ
Ġyu3Ġ qian2Ġ
Ġji4Ġ ren4Ġ
zheng4Ġ wu4Ġ
guan1Ġ shang3
dian4Ġ xin4Ġ
Ġxue2Ġ sheng1
Ġdai4Ġ ling3Ġ
Ġdan4Ġ yao4Ġ
bao4Ġ dong4Ġ
zong3Ġ jiao4Ġqu1Ġ
zheng1Ġ qu3
hui2Ġ lai2Ġ
Ġqian2Ġ wang3
fan1Ġ qi
Ġwei4Ġdi4Ġ yi1Ġ
ban4Ġshi4Ġ chu4
Ġzhong1Ġshi4Ġ yan3Ġ
pai2Ġhang2Ġ bang3Ġ
A TĠ
n ao4Ġ
p u
Ġ yan3Ġyuan2Ġ
lu4 Ġde2Ġ
zhi3 ĠdeĠshi4Ġ
yan4 ĠdeĠ
jiang4 Ġzhi4Ġ
ĠdeĠ wei4Ġzhi4Ġ
shi2Ġ yue4Ġ
Ġzhi4Ġ hui4Ġ
shang4Ġ su4Ġ
ma3Ġ en1Ġsheng3Ġ
Ġshe4Ġ li4ĠdeĠ
qi4Ġ xuan2
liang3Ġ ceng2Ġ
mi4Ġ ma3Ġ
xun2Ġ hang2Ġ
jia3Ġ zu3Ġ
sui2Ġ zheĠ
leĠyi1Ġ xie1
dai4Ġbiao3 Ġda4Ġ
bi4Ġye4Ġ sheng1Ġ
guang3Ġbo1Ġ dian4Ġshi4Ġ
dian4Ġqi4Ġ hua4Ġ
2 Ġgong1Ġli3Ġ
ĠĠĠ fa1Ġxing2Ġ
yi1 Ġzai4Ġ
qi2 Ġta1ĠdeĠ
fu4 Ġwei4Ġ
bo2 Ġli4Ġya4Ġ
lun2 Ġduo1Ġ
jie3 ĠdeĠ
cai3 Ġji2Ġ
Ġzhi4Ġ li3Ġ
Ġhui4Ġ hua4Ġ
fa1Ġ da2Ġ
dian4Ġ che1
Ġzhan4Ġ lve4Ġ
hai3Ġ di3Ġ
Ġzi4Ġ sha1Ġ
wei3Ġ tuo1
ling4Ġ wai4
chu3Ġ cun2Ġ
leĠyi1Ġ zhong3Ġ
dou4Ġ zheng1
Ġbo1Ġ lan2Ġ
yong1Ġ you3ĠdeĠ
juan1Ġ zeng4Ġ
Ġ miao2Ġ
Ġ gui1Ġding4Ġ
zhi1 Ġxia4Ġ
hua2 Ġwei4Ġ
cai2 Ġhui4Ġ
Ġshi4Ġ tu2
Ġyi1Ġ yi1Ġ
fu4Ġ shu3
ping2Ġ gu1
nan2Ġ xing4
min2Ġ dang3Ġ
gu3Ġ dai4
jian4Ġ zao4
kao3Ġ ru4Ġ
ke1Ġxue2Ġ yuan4
Ġzhi3 ĠdeĠshi4Ġ
Ġgong4 Ġji4Ġ
zhu1Ġlong2Ġ cao3
P ro
Ġ gan1
Ġ mĠ
ĠĠĠ bai2Ġ
nan2 Ġdao4Ġ
chang4 Ġyi4Ġ
lao3 Ġren2Ġ
qiang1 Ġji1Ġ
Ġyu2Ġ 9Ġyue4Ġ
Ġer2 Ġwei4Ġ
Ġjun1 Ġhe2Ġ
xin1Ġ zhu2
Ġshang4Ġ wu3Ġ
nei4Ġ bu4ĠdeĠ
tai4Ġ luo2Ġ
zu2Ġ qun2
jie3Ġ jie3Ġ
dun4Ġ nie4Ġci2
Ġshen1Ġ du4Ġ
ĠÐ ¸
ma1Ġ zu3Ġ
shuai4Ġling3 ĠdeĠ
zhan4 Ġyu3Ġ
zhou1 Ġnian2Ġ
shu3 ĠdeĠyi1Ġzhong3Ġ
pu3 Ġli4Ġ
wei1 Ġer3Ġsi1Ġ
zong1 Ġshi4Ġ
Ġnian2Ġ du4
shi2Ġ qi1ĠdeĠ
Ġji2Ġ zhi4Ġ
Ġyi4Ġ zhang3Ġ
Ġda4Ġ xuan3Ġ
ju4Ġ jue2
zhi2Ġ wu4ĠdeĠ
zui4Ġ xiao3Ġ
Ġxia4Ġ jiang4Ġ
bian1Ġ ru4Ġ
zheng1Ġ duo2Ġ
man4Ġ hua4Ġjia1Ġ
Ġt ai1Ġ
ĠĠĠ198 9Ġnian2Ġ
Ġyu2Ġ199 7Ġnian2Ġ
shou4Ġhai4Ġ zhe3Ġ
Ġ xin4
Ġ pang2
Ġ biao1Ġzhun3Ġ
Ġ iĠ
ai4 Ġli4Ġsi1Ġ
gu n4Ġ
li3 Ġzai4Ġ
zhang1 Ġjia1Ġ
or e
mai4 Ġke4Ġer3Ġ
lao3 Ġhui4Ġ
Ġbu4Ġ xia4Ġ
li4Ġ yi4Ġ
Ġyu2Ġ jia1Ġ
ming2Ġ chao2Ġ
Ġqi2 Ġren2Ġ
zheng4Ġ bian4Ġ
Ġxi1Ġ lan2
na4Ġ cui4Ġ
yang2Ġ xing4Ġ
wei1Ġ fu1Ġ
fan3Ġ kang4Ġ
ĠdeĠdi4Ġ tie3Ġ
Ġshi4Ġji4Ġ mo4Ġ
Ġco mĠ
you1Ġxiu4 ĠdeĠ
suo3Ġxu1 ĠdeĠ
jian1Ġcha2 Ġyu4Ġshi3Ġ
7 8Ġ
l yi
Ġ xiao1
Ġ xu3
Ġ qun2Ġ
zh ai1
li c
zhi3 Ġwei4Ġ
chu an4
long2 Ġshi4Ġ
to Ġ
Ġxing2Ġ che1Ġ
Ġbei4Ġ ji1Ġ
xia4Ġ lang3Ġde2Ġ
yan2Ġ fa1
yan2Ġ xu4Ġ
Ġhuo4 Ġer3Ġ
jie1Ġ shang4Ġ
zu3Ġ zhang3Ġ
liang3Ġ ci4
e2Ġ wai4ĠdeĠ
jia4Ġ zhi2
jia4Ġ zhi2ĠdeĠ
fei4Ġ qi4Ġ
tui1Ġ fan1
lao3Ġ ban3Ġ
ĠdeĠren2Ġ wu4Ġ
ĠÐ µ
Ġshu3Ġ rou4Ġshi2Ġxing4Ġ
shi1Ġfan4 Ġda4Ġxue2Ġ
Ġliu4 Ġyue4Ġ
6 6Ġnian2Ġ
quan2 Ġshi4Ġjie4Ġ
zui4 Ġming2Ġ
zu3 Ġcheng2Ġyuan2Ġ
qing1 ĠdeĠ
bai3 Ġwan4
195 4Ġnian2Ġ
196 6Ġnian2Ġ
Ġhe2Ġ xian4Ġ
Ġhe2Ġ zuo4ĠdeĠ
ren2Ġ lei4Ġ
Ġshi2Ġ yu2Ġ
you3Ġ xian4Ġ
qian2Ġ long2Ġ
chang2Ġ chang2Ġ
Ġdai4Ġ wei2Ġ
san1Ġ ceng2Ġ
zong3Ġ guan3Ġ
ying1Ġ chao1
que4Ġ ren4
yĠĠĠ of
huo2Ġdong4 Ġzhong1Ġ
ĠĠĠzhe4Ġ geĠ
ĠĠĠ193 7Ġnian2Ġ
Ġchao2Ġ ting2Ġ
yi1Ġli4Ġ nuo4Ġyi1Ġ
h en2
k a1
Ġ gui1
Ġ kong4Ġzhi4Ġ
ĠĠĠ th
ĠĠĠ miao2Ġshu4Ġ
wei2 Ġji2Ġ
bo Ġdu4Ġ
tai2 Ġyu3Ġ
zhan3 Ġxian4
zhuang1 Ġyuan2Ġ
zou3 ĠleĠ
Ġbu4Ġ cheng2Ġ
Ġzhong1Ġ jie2Ġ
Ġyu2Ġ 189
Ġren2Ġ cai2Ġ
Ġgong1Ġ zhong4
hou4Ġ bei4Ġ
zuo4Ġ qu3Ġjia1Ġ
Ġxian4Ġ ren4
shang4Ġ zhen4Ġ
Ġjia1Ġ ju4Ġ
Ġjia1Ġ zu2ĠdeĠ
Ġta1Ġ ke3Ġyi3Ġ
xiang1Ġ tong2
shi1Ġ zong1Ġ
quan2Ġ lei3Ġ
jie4Ġ ru4Ġ
Ġzhe4Ġ yi4Ġwei4Ġ
shu1Ġ niu3
lei4Ġ an4Ġjian4Ġ
xian1Ġ qu1Ġ
ling2Ġ hun2
xing2Ġ dong4
Ġfen1Ġ lan2Ġ
gang1Ġ qin2
Ġluo2Ġ bo2Ġ
Ġjian4Ġzhu4Ġ shi1Ġ
Ġxing2Ġzheng4Ġ zhang3Ġguan1Ġ
ĠdeĠbu4Ġ dui4Ġ
kuo4Ġ zhang1
Ġha1 Ġli4Ġ
Ġai1 Ġer3Ġ
wo3Ġmen ĠdeĠ
Ġhua4Ġxue2 Ġshi4Ġwei4Ġ
i e
Ġ yan1Ġ
Ġ bian1Ġhao4Ġ
ĠĠĠ tai2Ġwan1
fang1 Ġji4Ġ
ben3 Ġshi4Ġ
194 0Ġnian2Ġ
zai4Ġ wei4Ġ
yi4Ġ yi4Ġ
Ġren2Ġ yi4Ġ
Ġjia1Ġ meng2
mu4Ġ han3Ġmo4Ġde2Ġ
suo3Ġ xia2
Ġhuo4Ġ bi4Ġ
bo2Ġ luo2Ġ
cheng1Ġ zan4
jin3Ġ ci4Ġyu2Ġ
mi4Ġ mi4
jiang3Ġ shi1Ġ
ĠdeĠyi1Ġ zuo4
qian1Ġ xi3
Ġgao1Ġ deng3Ġ
xun2Ġ huan2
Ġ19 30Ġnian2Ġ
Ġci3 Ġzhan4Ġ
Ġguo2Ġmin2Ġ zheng4Ġfu3
ĠĠĠE n
Ġyu2Ġ199 9Ġnian2Ġ
niu3Ġyue1 Ġzhou1Ġ
liu2Ġxing2Ġ yin1Ġyue4Ġ
Ġxian4Ġlu4Ġ kou3Ġ
5 Ġshi2Ġ
8 00
p ace
Ġ ã
Ġ tuan2Ġ
Ġ zeng4
Ġ hen3Ġduo1Ġ
an ce
ch ao3Ġ
ĠĠĠ xiao4Ġ
ĠĠĠ 20Ġshi4Ġji4Ġ
zui4 Ġjin4Ġ
Ġli4Ġ wei3Ġ
shi3Ġ zhe3Ġ
Ġjia1Ġ shang4
jian1Ġ guan3Ġ
jin1Ġ tian1Ġ
Ġtong2 Ġnian2Ġ8Ġyue4Ġ
zui4Ġ duo1
zui4Ġ zhu4Ġming2ĠdeĠ
Ġsheng1Ġ ya2
ba1Ġ da2Ġ
zong3Ġ ti3Ġ
zhi1Ġ hou4ĠdeĠ
xun1 Ġzhang1
Ġfa1Ġ biao3
tiao2Ġjian4Ġ xia4Ġ
na4Ġcui4 Ġde2Ġguo2Ġ
e2Ġhai4Ġe2 Ġzhou1Ġ
D NAĠ
E D
H E
e or
n an4
w a4Ġ
Ġ niu3Ġ
Ġ fei1Ġchang2Ġ
Ġ huang2Ġdi4Ġ
Ġ huang2Ġjia1Ġ
ĠĠĠ yang2Ġ
ĠĠĠ xiang1Ġguan1Ġ
ping2 Ġshi4Ġ
zhi2 Ġgong1Ġ
ying1 Ġshi4Ġ
pu3 Ġsi1Ġ
mu3 Ġhe2Ġ
chu3 Ġguo2Ġ
ku4 ĠdeĠ
cheng2Ġ li4ĠdeĠ
xi1Ġ la4Ġ
Ġli3Ġ cha2Ġ
yu4Ġ qi1Ġ
ben3Ġ shu1Ġ
bian4Ġ geng1Ġ
zhuan1Ġ an4Ġ
ĠJ ohn
zai1Ġ hai4Ġ
lv4Ġwei4Ġ 0
C P
Ġ st
Ġ hui1Ġfu4Ġ
e2 Ġjun1Ġ
shu4 Ġnian2Ġ
qi1 Ġming2Ġ
xing4 Ġdi4Ġ
pai2 Ġqiu2Ġ
197 1Ġnian2Ġ
zhao1 Ġhe2Ġ
Ġbu4Ġ shou4Ġ
ji4Ġ lu4
lu4Ġ yin1Ġ
Ġqi2Ġ bing1
Ġzhe4Ġ ci4
sai4Ġ ju1Ġ
shu3Ġ xing4Ġ
xuan1Ġ gao4Ġ
sai1Ġ e2Ġ
ĠĠĠT h
shu4Ġliang4 ĠdeĠ
zhuan4Ġ xie3
7 4Ġnian2Ġ
F C
hou4 Ġgong1Ġ
zhan4 Ġxian4Ġ
fa3 Ġjun1Ġ
xiao4 Ġzhong1Ġ
rong2 Ġhuo4Ġ
xun4 ĠdeĠ
wa3 Ġer3
194 6Ġnian2Ġ
197 4Ġnian2Ġ
Ġcheng2Ġ du4ĠdeĠ
Ġxian4 Ġyi4Ġ
ming2Ġ cheng1
Ġxi1Ġ lin2Ġ
ren4Ġ jiao4Ġ
Ġchu1Ġ ju2Ġ
Ġbei4Ġ xuan3Ġwei4Ġ
kai1Ġ pu3Ġ
shou3Ġ hu4Ġ
Ġwei2Ġ hu4Ġ
zhen4Ġ ying2Ġ
wu2Ġ guan1Ġ
Ġxiang1Ġ xin4Ġ
lu2Ġ sen1Ġ
Ġcheng2Ġyuan2Ġ guo2Ġ
Ġma3 Ġke4Ġ
Ġ14 9
jing1Ġli4Ġ leĠ
ling4Ġyi1Ġ zhong3Ġ
Ġyi4Ġzhi2 Ġzai4Ġ
g a
i ni
Ġ sh
hou4 Ġzhi4Ġ
quan2 Ġzhou1Ġ
wen2 Ġjian4
bao3 Ġjian4Ġ
gu3 Ġxi1Ġla4
bo2 ĠdeĠ
193 9Ġnian2Ġ
que1 Ġxian4Ġ
zhan4Ġ chang3Ġ
Ġzhi1Ġ yong4Ġ
Ġwei2Ġ lai2Ġ
bian4Ġ lun4Ġ
tiao2Ġ yue1
chu4Ġ chu4Ġzhang3Ġ
ĠdeĠshi2Ġ ji4Ġ
Ġhong2Ġ se4Ġ
Ġtai2Ġ bei3Ġ
mu4Ġdi4Ġ di4Ġ
xie2Ġshang1Ġ hui4Ġyi4Ġ
1 Ġyi4Ġ
2 Ġshi2Ġ
8 4Ġ
le Ġhe2Ġ
yan2 Ġli4Ġ
qiang2 Ġxing2Ġ
âĢ »
guan4 Ġli4Ġ
zhi4Ġ 19
Ġji2Ġ ta1Ġ
ren4Ġ tian1Ġtang2Ġ
gu3Ġ ba1Ġ
biao3Ġ mian4
Ġzhu4Ġ ming2ĠdeĠ
mei3Ġ la1Ġ
yin3Ġ fa1
zhuang1Ġ cun1Ġ
bing1Ġ chuan1Ġ
hai2Ġ bao1Ġkuo4Ġ
zhou1Ġ qi1Ġ
ya1Ġ suo1Ġ
shen3Ġ pan4
kai1Ġshi3 Ġhou4Ġ
pin2Ġ fan2Ġ
Ġb ack
ĠãĤ ¹
ken3Ġ se4
Ġgan1Ġ su4Ġ
ĠĠĠhou4Ġ lai2Ġ
5 1Ġnian2Ġ
5 7Ġ
F acebo
m u2Ġ
Ġ huo2Ġdong4Ġ
ĠĠĠ zhe4Ġxie1Ġ
chu1 Ġxian4ĠdeĠ
qu1 Ġyu3Ġ
lu4 Ġsi1Ġ
fu2 Ġda4Ġxue2Ġ
neng2 ĠdeĠ
chu i1
zhuang1 Ġzai4Ġ
17 0
song4 Ġzhi4Ġ
194 2Ġnian2Ġ
st ĠĠĠ
shuai4 Ġjun1Ġ
ji1Ġ hu1Ġ
Ġyuan2Ġ you3ĠdeĠ
sheng1Ġ zhang3
Ġsi1Ġ ta3
Ġxian4Ġ ding4Ġ
Ġxi1Ġ zang4
Ġli3Ġ jia1Ġ
ge2Ġ lai2Ġ
ma3Ġ ding1Ġ
quan2Ġ xin1Ġ
chuan2Ġ jiao4Ġ
liang3Ġ xiang4Ġ
hui2Ġ ying4
ĠĠĠS e
tu1Ġ po4
tu1Ġ jue2Ġ
ya3Ġ dian3Ġ
li4Ġhe2Ġ wu2Ġzheng4Ġzhuang4Ġgan3Ġran3Ġzhe3Ġ
Ġshi2Ġyi1Ġ yue4Ġ
fu2Ġluo2Ġli3Ġ da2Ġzhou1Ġ
hang2Ġzhan4Ġ lou2Ġ
5 9Ġ
Ġ bang1Ġ
yi1 Ġnian2ĠdeĠ
er2 Ġbei4Ġ
ze2 Ġren4Ġwei2Ġ
rong2 Ġyu2Ġ
wan1 Ġdao4Ġ
195 6Ġnian2Ġ
ren2Ġ kou3
ren2Ġ lei4
Ġbu4Ġ bei4Ġ
Ġyu3Ġ zhi1
zhu3Ġ yi4Ġhe2Ġ
xin1Ġ a1Ġji1Ġtan3
min2Ġ jian1
zui4Ġ ju4Ġ
Ġdan4Ġ bai2
xu1Ġ ni3Ġ
Ġxiao3Ġ shuo1
Ġna4Ġ meĠ
bei3Ġjing1 Ġda4Ġxue2Ġ
Ġyou4Ġming2Ġ BDĠ
yin1Ġshi4Ġ zhuan1Ġji2Ġ
ba1Ġle4 Ġsi1Ġtan3
g roundĠ
l la
z ou1Ġ
Ġ shui3
ĠĠĠ suo3Ġ
ĠĠĠ si4Ġ
gong1 Ġzhong1Ġ
suo3 Ġbu4Ġtong2Ġ
geng4 Ġyou3Ġ
193 6Ġnian2Ġ
miao4 ĠdeĠ
Ġbu4Ġ lu3Ġke4Ġ
Ġji2Ġ you3Ġ
Ġyi1Ġ zhao4Ġ
xi1Ġ li3Ġ
hui4Ġ hua4Ġ
ming2Ġ que4Ġ
Ġde2 Ġshi4Ġ
shou3Ġ ge1Ġqu3Ġ
ye4Ġ ti3Ġ
Ġzhe4Ġ liang3Ġge4Ġ
ying4Ġ bi4Ġ
Ġci3Ġ qian2Ġ
chong2Ġ xiu1Ġ
mai4Ġ a1Ġ
ding3Ġ dian3Ġ
jie1Ġdao4Ġ ban4Ġshi4Ġchu4Ġ
Ġwei4Ġyu2Ġgai1Ġguo2Ġ bei3Ġbu4Ġ
min3Ġ gan3Ġ
Ġ jing4
Ġ geng1Ġming2Ġwei4Ġ
ĠĠĠ ao4Ġ
ju an4
dui4 Ġzhi4Ġ
duo1 Ġli4Ġ
ti2 ĠdeĠ
qian1 Ġdao4Ġ
11 Ġshi2Ġ
mi4 Ġji2Ġ
2010 Ġ
kao4 Ġjin4
Ġshi4Ġ jue2Ġ
Ġge4 Ġyou3Ġ
zheng4Ġ dang3
zhan4Ġ ju4Ġ
guan1Ġ qi
Ġwei2Ġ xiu1Ġ
fa3Ġ gui1Ġ
an4Ġ cha2Ġ
Ġzhu4Ġ zuo4Ġ
zhi1Ġ wai4Ġ
zhuang1Ġ bei4
man4Ġ ha1Ġ
ĠM o
ĠãĤ ¤
Ġsui2Ġ zhu4
ou1Ġzhou1 Ġguo2Ġjia1Ġ
jie2Ġshu4 Ġshi2Ġ
Ġxi1 Ġyuan2Ġ
jiao1Ġhui4Ġ chu4Ġ
Ġke4Ġxi1Ġ ta3Ġni2Ġda4Ġqu1Ġ
7 Ġnian2ĠdeĠ
Ġ xiu4Ġ
e2 ĠdeĠ
ao4 Ġbu4Ġ
da4 Ġshi4Ġ
qu1 Ġwei4Ġyu2Ġ
zhi2 Ġbei4Ġ
nv3 Ġyou3Ġ
mi4 Ġer3Ġ
Ġshi4Ġ dai4Ġ
shi2Ġ ji4Ġ
zhi4Ġ shao3Ġ
Ġyi1Ġ fu2Ġ
zuo4Ġ yong4
Ġdao4Ġ qian4Ġ
Ġsi1Ġ li3Ġlan2Ġ
ĠleĠ dui4Ġ
da2Ġ ke1
Ġxiang1Ġ jiao4Ġyu2Ġ
lei4Ġ bie2Ġ
jie3Ġ mei4Ġ
gu4Ġ wen4
jia3Ġ ban3Ġ
bie2Ġ shu4Ġ
xuan1Ġ cheng1
ke3Ġneng2 Ġzai4Ġ
Ġbi4Ġ xu1
zui4Ġhou4Ġ yi2Ġge4Ġ
Ġai4 Ġde2Ġhua2Ġ
nd ro
a1Ġgen1Ġ ting2
Ġ gui3
Ġ duan3Ġ
ĠĠĠ wu1Ġke4Ġlan2Ġ
ao4 Ġde2Ġ
di u1Ġ
qi2 Ġxia4Ġ
fen1 Ġdui4Ġ
bian4 Ġhou4Ġ
lv4 Ġdi4Ġ
on eĠ
hen3 Ġgao1Ġ
hua4Ġ ti2Ġ
ben3Ġ shen1
Ġqi2Ġ xia4
gu3Ġ fen4Ġ
qin1Ġ wang2
wa3Ġ sheng3Ġ
ĠĠĠC ol
bu3Ġ ji3Ġ
Ġan4Ġ zhao4Ġ
7 3Ġnian2Ġ
I A
Ġ u
yu3 Ġshi2Ġ
li3 Ġzhi4Ġ
xiang4 Ġzai4Ġ
bi3 Ġsi1Ġ
on eĠĠĠ
ar e
2020 Ġ
mou3 Ġge4Ġ
Ġshi2Ġ er4Ġyue4Ġ
Ġge4 Ġxian4Ġ
Ġyu3Ġ mei3Ġguo2Ġ
liang4Ġ zi3
Ġshi4Ġzhen4Ġ fan4Ġwei2Ġnei4Ġ
Ġshi3Ġ cheng1Ġ
Ġtong1Ġ chang2Ġshi4Ġ
Ġjie2 Ġhe2Ġ
ĠdeĠyi4Ġ shu4Ġ
re4Ġdai4Ġ di1Ġqi4Ġya1Ġ
zi1Ġben3Ġ zhu3Ġyi4Ġ
Ġ ou1
ĠĠĠ bi3Ġsai4Ġ
hou4 Ġbu4Ġ
jin4 Ġqiu2Ġ
yin1 ĠdeĠ
quan2 Ġnian2Ġ
suo3 Ġzhi4Ġ
han4 Ġren2Ġ
di3 Ġbu4Ġ
lang2 ĠdeĠ
kai3 Ġer3Ġ
bang3 Ġdan1Ġ
Ġyuan2Ġ sheng1Ġ
Ġta1Ġ dan1Ġren4Ġ
guan1Ġ kan4
jian1Ġ jin4Ġ
Ġshang4Ġ xia4Ġ
xuan3Ġ ba2
ba1Ġ ma3
ba1Ġ sai1Ġ
jing3Ġ wu4Ġ
pai2Ġ chu2
wan2Ġ fa3Ġ
sĠĠĠ A
Ġshi4Ġzhong1Ġ xin1
Ġge2Ġ lei2Ġ
Ġzhi4Ġzao4Ġ shang1Ġ
6 Ġshi2Ġ
9 9Ġ
hui4 Ġcheng2Ġ
bo x
mu4 Ġhe2Ġ
ye4 Ġshi4Ġ
bie2 Ġren2Ġ
yi1Ġ yang4Ġ
Ġshi2Ġ si4Ġ
Ġdi4Ġ 5Ġ
Ġge4 Ġchu1Ġru4Ġkou3Ġ
Ġta1Ġ you4Ġ
nan2Ġ hai3Ġ
shou3Ġ qiang1Ġ
Ġjun1Ġ qu1
dian4Ġ ci2Ġ
Ġyin1Ġ su4
luo2Ġ fu1
ci2Ġ xing4Ġ
Ġtong2Ġ shi2Ġzai4Ġ
xing2Ġ zheng4
Ġshi4Ġshi4Ġ zhang3Ġ
Ġte4Ġbie2 Ġshi4Ġzai4Ġ
Ġmeng2Ġ gu3
zhan4Ġdou4 Ġzhong1Ġ
su1Ġwei2Ġ ai1Ġ
6 Ġgong1Ġli3Ġ
O C
h ong1
Ġ lian2
Ġ ne
ĠĠĠ mi3Ġ
ĠĠĠ fei1Ġ
xian4 Ġlu4Ġ
dai4 Ġzai4Ġ
zhu3 Ġji1Ġ
fen1 Ġhui4Ġ
kai1 Ġguo2Ġ
mian4 Ġwei4Ġ
zu3 Ġjian4
194 3Ġnian2Ġ
sai1 Ġer3
re e
zun1 Ġshou3Ġ
ĠdeĠ wen4Ġti2Ġ
ĠdeĠ gui3Ġdao4Ġ
Ġzai4Ġ du4
Ġri4 Ġshi4Ġ
li3Ġ you2Ġ
sheng1Ġ yu4Ġ
Ġbei4Ġ si1Ġ
zhu4Ġ ru4Ġ
Ġke4Ġ lin2Ġ
duo1Ġ da2Ġ
ge2Ġ lei1
wu2Ġ xu1Ġ
gai3Ġ zhuang1Ġ
zu3Ġ shu1Ġji4Ġ
cai2Ġ zheng4Ġbu4Ġ
qian1Ġ mi3
huo4Ġ wu4Ġ
zhen1Ġ xiang4Ġ
Ġgao1Ġ su4Ġ
da3Ġ bai4Ġ
han2Ġ shu4
xue4Ġ guan3Ġ
Ġgong1Ġsi1 Ġzai4Ġ
yun3Ġ keng1
Ġyi1Ġsi1Ġ lan2
kui2Ġ bei3
yin3Ġqi3 ĠleĠ
tai2Ġnan2 Ġshi4Ġ
jiao4Ġke1Ġ wen2Ġ
S P
x tĠ
Ġ cun1Ġ
ĠĠĠ se
gu a3
shi3 Ġta1Ġ
Ġgong1Ġ bu4
Ġgong1Ġ yu4Ġ
dui4Ġ hua4Ġ
Ġke4Ġ hu4Ġ
fen1Ġ wei2
wei3Ġ da4ĠdeĠ
xu1Ġ ni3
Ġguo4Ġ qu4
Ġguo2Ġjia1Ġ an1Ġquan2Ġ
ha1Ġ sa4Ġke4Ġsi1Ġ
lian4Ġ ai4Ġ
tui1Ġ dong4
ying3Ġxiang3 ĠleĠ
Ġwei4Ġyu2Ġgai1Ġguo2Ġ dong1Ġnan2Ġbu4Ġ
xiang4Ġmu4 ĠdeĠ
man2 Ġ
zong4 Ġdui4Ġ
DV DĠ
ĠdeĠji1Ġchu3 Ġshang4Ġ
mi4Ġxi1Ġxi1Ġ bi3
b ao2
Ġ ju3Ġ
ĠĠĠ she4Ġ
li3 Ġji2Ġ
guan1 Ġjian4
mei3 Ġren2Ġ
shi1 Ġzai4Ġ
bo1 Ġxi1Ġ
fei4 Ġcheng2Ġ
wang4 ĠdeĠ
xie4 Ġren4Ġ
gong1Ġ zuo4
Ġyou3Ġ zheĠ
guan1Ġ zhu4
shou3Ġ ying4Ġ
qian2Ġ fang1Ġ
jin4Ġ zhan3Ġ
luo4Ġ yang2Ġ
gou4Ġ cheng2ĠdeĠ
suo1Ġ xie3Ġ
meng4Ġ xiang3Ġ
dong1Ġji4Ġ ao4Ġlin2Ġpi3Ġke4Ġyun4Ġdong4Ġhui4Ġ
ping2Ġlun4 Ġjia1Ġ
2019Ġguan1Ġzhuang4Ġbing4Ġdu2 Ġbing4
k e
y u1Ġ
Ġ xian3
Ġ dong4Ġhua4Ġ
ĠĠĠ 2002
jing1 Ġcheng2Ġ
wang2 Ġgong1Ġ
ni2 Ġji1Ġ
gou4 Ġjian4Ġ
di3 ĠdeĠ
yuan3 Ġdong1Ġ
ĠdeĠ guo2Ġji4Ġ
Ġbu4Ġ lei2Ġ
Ġzhi4Ġ shi3Ġ
Ġxian4Ġ lu4
Ġhou4Ġ xu4Ġ
zui4Ġ di1
wu3Ġ shu4Ġ
an4Ġ cha2Ġsi1Ġ
ni2Ġ ao4Ġ
hu4Ġ zhao4Ġ
geng4Ġ gao1ĠdeĠ
Ġxian4ĠdeĠ cheng2Ġshi4Ġ
ĠL i
zi1Ġge2Ġ sai4Ġ
Ġm eng3Ġ
lan2Ġqiu2Ġ yun4Ġdong4Ġyuan2Ġ
Ġkong3Ġ tai4
ĠĠĠst yleĠ
Ġ dong3
Ġ bao4Ġdao4Ġ
wu4 Ġji2Ġ
shou3 Ġge4
tai2 Ġshi4Ġ
liao4 Ġli3Ġ
chun1 Ġjie2Ġ
Ġyu2Ġ 2008
ji1Ġ gou4
Ġyuan2Ġ xian1Ġ
Ġyu3Ġ ta1
Ġzhou1 Ġzhi1Ġ
Ġde2Ġ piao4Ġ
zui4Ġ zhang3ĠdeĠ
shu1Ġ fa3Ġ
ba1Ġ he4
yan3Ġ xi2Ġ
Ġping2Ġfang1Ġ ying1Ġli3Ġ
Ġ19 27Ġnian2Ġ
Ġcong2 Ġshi4Ġ
NB A
Ġniu3Ġyue1 Ġshi2Ġbao4Ġ
Ġxin1Ġjia1Ġ po1Ġ
4 Ġgong1Ġli3Ġ
5 Ġnian2ĠdeĠ
T T
a le
Ġ guo3Ġ
Ġ qiang3Ġ
ĠĠĠ dang1Ġshi2Ġ
hua4 Ġji4Ġ
sai4 Ġshang4Ġ
ba1 Ġge4Ġ
wei3 Ġren4Ġ
lv4 Ġhe2Ġ
bai2 Ġgong1Ġ
wei2Ġ qi1Ġ
shan1Ġ lu4Ġ
yue1Ġ han4
shu3Ġ wu4Ġzhong3Ġ
gong4Ġ xiang3Ġ
qiang2Ġ lie4
Ġt ong4
ĠM e
Ġh eng1
Ġling4Ġ yi2Ġge4Ġ
Ġxing2Ġzheng4Ġ qu1Ġhua4Ġ
wu1Ġke4Ġlan2 ĠdeĠ
jie2Ġmu4 Ġzhong1Ġ
ĠĠĠc on
8 7Ġ
Ġ zheng3
ĠĠĠ 2001
ĠĠĠ zhi3Ġ
chu1 Ġxian4
dai4 Ġhe2Ġ
wen2 Ġhe2Ġ
sheng4 Ġxia4Ġ
wei1 Ġer3Ġshi4Ġ
xian1 Ġshi4Ġ
sui4 Ġren2Ġkou3Ġ
bai4 Ġhou4Ġ
Ġshe4 Ġshi4Ġ
Ġzhan4Ġ sheng4Ġ
fu2Ġ lu3Ġ
nei4Ġ zheng4Ġbu4Ġ
feng1Ġ bi4Ġ
ba1Ġ xi1
ke1Ġ te4Ġ
ao4Ġ yun4
mi4Ġ xie1Ġgen1
jiang3Ġ zhang1Ġ
du2Ġ xing4Ġ
bu3Ġ chong1
shu3ĠdeĠ dong4Ġwu4Ġ
qing4Ġ zhu4
cang1Ġ ku4Ġ
da1Ġ dang4Ġ
Ġyi4Ġzhi2 Ġshi4Ġ
Ġgai1Ġwu4Ġzhong3ĠdeĠmo2Ġshi4Ġchan3Ġ di4Ġzai4Ġ
Ġ zao3Ġqi1Ġ
en ce
ĠĠĠ de2Ġ
you3 Ġwei4Ġ
mei3 Ġshi2Ġ
jiang1 Ġqi2
duo1 Ġnian2ĠdeĠ
tai2 Ġhe2Ġ
jing4 Ġwei4Ġ
xing1 Ġren2Ġ
yang2 Ġren2Ġ
yan4 Ġshi4Ġ
wang4 Ġsi1Ġ
zan4 Ġwu2Ġ
xiong1 Ġzhang3Ġ
si onĠ
di4Ġ shi2Ġ
Ġbu4Ġ xing2Ġ
yu4Ġ suan4
gou4Ġ ru4Ġ
huan4Ġ zhe3
Ġzui4Ġzhong1Ġ yu2Ġ
ĠĠĠ198 4Ġnian2Ġ
bang1Ġzhu4Ġ xia4Ġ
xue2Ġxiao4 ĠdeĠ
- .
jian4 Ġguo2Ġ
jie2 Ġri4Ġ
can1 Ġyi4Ġyuan4
kuan1 Ġdu4Ġ
Ġren2Ġ qun2Ġ
Ġli4Ġ xian4Ġ
jing1Ġ ling2Ġ
Ġshang4Ġ su4Ġ
Ġsheng1Ġ yin1Ġ
ya4Ġ ma3Ġ
bo1Ġ luo2Ġ
yin3Ġ ru4
zi3Ġ mei4Ġ
zheng4Ġzhi4Ġ xie2Ġshang1Ġhui4Ġyi4Ġ
Ġgao1Ġ du4Ġ
she4Ġ hui4ĠdeĠ
shuang1Ġ fang1
xing2Ġzheng4Ġ qu1Ġ
Ġbi3Ġ ru2
Ġma3 Ġer3Ġ
diao1Ġ su4
tian1Ġjin1 Ġshi4Ġ
gan3Ġlan3 Ġqiu2Ġ
7 1Ġ
7 9Ġ
d an3
Ġ neng2Ġgou4Ġ
Ġ pei4Ġhe2Ġ
ĠĠĠ ru2Ġguo3Ġ
ao4 Ġzhou1
ai2 Ġzheng4Ġ
si1 Ġwei4Ġ
xi1 Ġri4Ġben3Ġ
fu4 Ġli3Ġ
zhu4 Ġshe4Ġ
duo1 Ġyu2Ġ
ti3 Ġwei4Ġ
jiu4 ĠdeĠ
bao4 Ġyu3Ġ
wu2 Ġshi4Ġ
cai2 Ġfu4Ġ
wa3 Ġsi1Ġ
man3 Ġzhou1Ġ
mai3 Ġjia1Ġ
Ġshi4Ġ qian2Ġ
Ġji2Ġ xing4Ġ
Ġyi1Ġ duan4
Ġren4Ġ jiao4Ġ
huan2Ġ rao4Ġ
ying3Ġxiang3Ġ li4ĠdeĠ
cui1Ġ hua4Ġ
Ġzai4Ġzhe4Ġ ge
Ġyong4Ġ lai2Ġ
can1Ġsai4Ġ zhe3Ġ
wo1Ġ lun2Ġ
ĠdeĠguan1Ġ dian3Ġ
ĠĠĠco lspanĠ
fei1Ġli4Ġ pu3Ġ
M S
Ġ ji2
Ġ po
an1 Ġda4Ġ
yu n1
19 20Ġnian2Ġ
ma3 Ġde2Ġ
deng3 Ġshi4Ġ
er4 Ġhao4Ġ
dan1 Ġshi4Ġ
Ġbu4Ġ luo2Ġ
Ġbu4Ġ fu4Ġbu4Ġzhang3Ġ
yi1Ġ ji2Ġ
Ġzhi4Ġ xu4Ġ
li3Ġ si1Ġ
Ġyu3Ġ duo1Ġ
Ġer2 Ġyu3Ġ
shu4Ġ xue2Ġjia1Ġ
Ġbei4Ġ ge2Ġ
zhi3Ġ dao3
la1Ġ ding1Ġ
yi2Ġ lan2
xiao4Ġ xiang4Ġ
shang1Ġ hai4
Ġjin1Ġ tian1Ġ
wa3Ġ la1Ġ
gan1Ġ rao3Ġ
pin2Ġ kun4
fan2Ġ rong2Ġ
li2Ġkai1Ġ leĠ
Ġzai4Ġyi1Ġ ci4Ġ
wai4Ġguo2Ġ ren2Ġ
gai3Ġbian1 Ġwei4Ġ
Ġxin1Ġjia1Ġ po1
Ġ ju3
ao4 ĠdeĠ
yi1 Ġhe2Ġ
zheng4 Ġren2Ġ
dui4 Ġzhong1Ġguo2Ġ
fu4 Ġzai4Ġ
qian2 Ġli4Ġ
hua2 Ġyi4Ġ
tang2 Ġdai4Ġ
qiang1 ĠdeĠ
Ġzai4Ġ jian4Ġ
Ġbu4Ġ lang3
Ġri4 Ġji2Ġ
dui4Ġ bi3Ġ
Ġxi1Ġ fang1
fa3Ġ an4
fen1Ġ xi1
jin1Ġ gang1Ġ
yi2Ġ bu4ĠdeĠ
ban4Ġ chang3Ġ
xin4Ġ feng4
deng1Ġ chang2
Ġshi4Ġdi4Ġ er4Ġ
Ġshi4Ġwei4Ġyu2Ġmei3Ġguo2Ġ mi4Ġsu1Ġli3Ġ
yi4Ġshi2Ġ dao4Ġ
zui4Ġhou4Ġyi1Ġ ci4Ġ
chai2 Ġyou2Ġ
tor Ġ
mu4Ġbiao1 Ġshi4Ġ
1 Ġzhi4Ġ
6 7Ġnian2Ġ
Ġ qing3
Ġ xiang2
Ġ ming4Ġ
Ġ you3ĠdeĠ
Ġ biao1Ġzhi4Ġ
20 Ġnian2Ġdai4Ġ
ming2 Ġcheng2Ġyuan2Ġ
shu4 Ġli4Ġ
chao1 Ġshi4Ġ
shuang1 Ġxiang4Ġ
Ġli4Ġ xi1Ġ
Ġyi4Ġ miao2Ġ
ji1Ġ hu1
Ġri4Ġ ji4Ġ
ming2Ġ yu4Ġ
dui4Ġ kang4
xiang4Ġ zheng1
yao4Ġ sai4Ġ
Ġju4Ġ jue2
Ġhao4 Ġhe2Ġ
jian3Ġ yan4Ġ
hen3Ġ shao3
leĠyi1Ġ zuo4Ġ
chuan2Ġtong3 Ġshang4Ġ
jie4Ġquan2Ġguo2Ġ ren2Ġda4Ġdai4Ġbiao3Ġ
bo1Ġshi4Ġ dun4Ġ
Ġ ke3Ġyi3
Ġ hao2Ġ
ĠĠĠ shou3Ġ
gong1 Ġzai4Ġ
li3 Ġwei4Ġ
ru2 Ġtong2Ġ
pao4 Ġji1Ġ
ĠdeĠ ge1Ġqu3Ġ
Ġda4Ġ ting1Ġ
Ġyuan2Ġ yi4Ġ
zheng4Ġ jiao4Ġ
Ġhou4Ġ you4Ġ
fen1Ġ kai1Ġ
san1Ġ fen1Ġzhi1Ġ
lie4Ġ ning2Ġ
zong3Ġ zhang3Ġ
bo1Ġ li2
bo1Ġ ying4Ġ
nv3Ġ xing4ĠdeĠ
ban4Ġ jing4Ġ
yan2Ġjiu1 Ġzhong1Ġ
qin1Ġ lve4Ġ
Ġxiang4Ġ zheng1Ġ
tuo1Ġ li2
jun1Ġ dui4
Ġtian1Ġ zhu3Ġjiao4Ġ
hua2Ġren2Ġmin2Ġ gong4Ġhe2Ġ
kai1Ġshi3 ĠdeĠ
Ġzhong1Ġyang1Ġ wei3Ġyuan2Ġhui4Ġ
ĠdeĠda4Ġ xing2Ġ
yi4Ġshi2Ġ dao4
ying4Ġyong4Ġ cheng2Ġshi4Ġ
Ġxiao3 Ġping2Ġ
ka3Ġsi1Ġdi4Ġli4Ġ ya4Ġ
P h
c or
Ġ ming4Ġming2Ġ
Ġ chuang4Ġli4Ġ
Ġ 2025Ġnian2Ġ
ĠĠĠ ceng2Ġ
ming2 Ġyu3Ġ
hua2 Ġnan2Ġ
cai2 Ġshi4Ġ
bu3 Ġshi2Ġ
Ġshi4Ġ ying4Ġ
jia1Ġ ting2
Ġchu1 Ġwei4Ġ
Ġer3 Ġjia1Ġ
zhi2Ġ jiao4Ġ
dian4Ġ zhan4Ġ
dong1Ġ feng1Ġ
fu2Ġ nie4Ġ
hai3Ġ xia2
bi4Ġ hua4Ġ
dan1Ġ dang1Ġ
bian1Ġ jiang1Ġ
xi2Ġ guan4
dang3Ġ wei3Ġshu1Ġji4Ġ
xie2Ġ hui4ĠdeĠ
wu1Ġ ding3Ġ
hui1Ġ se4Ġ
ĠĠĠzhong1Ġ hua2Ġmin2Ġguo2Ġ
Ġyi3Ġjing1 Ġbei4Ġ
Ġbu4Ġguo4 Ġzai4Ġ
Ġdi4Ġzhong1Ġ hai3Ġ
Ġfu2Ġlang3Ġ shen2Ġ
8 3Ġ
ï ¹
Ġ e
Ġ yan3
Ġ tou2
Ġ hao3
Ġ chuang4Ġzuo4Ġ
er n
yu3 ĠĠĠ
fu2 Ġsi1Ġ
qi4 Ġji1Ġ
feng1 Ġli4Ġ
mi3 Ġzhi4Ġ
gai3 Ġyou2Ġ
197 7Ġnian2Ġ
Ġbu4Ġ lun2Ġ
Ġren2Ġ shou4Ġshang1Ġ
yuan2Ġ su4Ġ
Ġguo2Ġ hui4Ġyi4Ġyuan2Ġ
Ġgong1Ġ wu4Ġyuan2Ġ
Ġde2 Ġchu1Ġ
ping2Ġ jie4Ġ
guan1Ġ zhi2Ġ
Ġjun1Ġ xian2Ġ
Ġke4Ġ lei2Ġ
Ġdai4Ġ bu3Ġ
tu2Ġ sha1
tong2Ġ pai2Ġ
gai4Ġ yao4Ġ
Ġluo2Ġ ma3
ĠdeĠhe2Ġ xin1Ġ
ao4Ġlin2Ġpi3Ġke4Ġ yun4Ġdong4Ġ
ĠĠĠ195 0Ġnian2Ġ
Ġback groundĠ
9 Ġnian2ĠdeĠ
T S
Ġ o
Ġ gao1Ġzhong1Ġ
suo3 Ġzhi1Ġ
mian4 Ġyou3Ġ
tai2 Ġhou4Ġ
gu3 Ġji2Ġ
can1 Ġjun1Ġ
chuan2 Ġdao4Ġ
pai2 ĠdeĠ
bu4Ġ dui4Ġ
ji2Ġ tuan2Ġ
Ġzhi4Ġ da4Ġ
yuan2Ġ wai4Ġlang2Ġ
Ġcheng2Ġ nuo4
Ġyi1Ġ jiao3Ġ
Ġdao4 Ġwei4Ġ
Ġta1Ġ kai1Ġshi3Ġ
Ġli3Ġ ya4
lu4Ġ duan4
zhi2Ġ tong1Ġ
bo2Ġ lan3
zhen1Ġ zhu1Ġ
ju1Ġ zhu4
Ġyin1Ġwei4Ġ zai4Ġ
zao4Ġcheng2Ġ leĠ
ĠÃ ©
Ġgai3Ġ bian1
Ġzai4Ġjia1Ġ shang4Ġ
xin1Ġcheng2Ġ li4ĠdeĠ
jiao1Ġliu2 Ġdao4Ġ
che1Ġren2Ġ ci4Ġ
Ġli4Ġtao2Ġ wan3
sa4Ġzhu1Ġ sai1
D A
O P
a sĠ
Ġ xiu1
Ġ chan3Ġ
Ġ qing1Ġnian2Ġ
ming2 Ġcheng2Ġ
yu4 Ġming2Ġ
mu4 Ġji1Ġ
ye3 Ġwei4Ġ
hai3 Ġzhan4Ġ
wu3 Ġji2Ġ
se4 Ġhe2Ġ
gang3 ĠdeĠ
mo2 ĠdeĠ
ci2 Ġyu3Ġ
jia4 Ġwei4Ġ
que4 Ġshi4Ġ
195 5Ġnian2Ġ
Ġbu4Ġ jian4Ġ
Ġdi4Ġ zhi3Ġ
yu4Ġ nan4Ġ
ye4Ġ zhe3Ġ
jie1Ġ ceng2Ġ
Ġqi2Ġzhong1Ġ yi2Ġge4Ġ
ĠdeĠshi2Ġ dai4Ġ
zhui1Ġ sui2Ġ
Ġchu2Ġ le
Ġmin2Ġ jin4Ġ
Ġji1Ġbai4 ĠleĠ
zei2 Ġ
i ngĠ
Ġ neng2
Ġ jia4Ġ
Ġ xue3Ġ
shen1 Ġke4Ġ
jie3 Ġxi1Ġ
bang1 ĠdeĠ
dun1 ĠdeĠ
pao4 ĠdeĠ
il Ġ
Ġhe2Ġ si1Ġ
Ġdi4Ġ 3
Ġyi1Ġ shu1Ġ
Ġjia1Ġ zhou1
ping2Ġ deng3Ġ
nan2Ġ ce4Ġ
lian2Ġ xi4
Ġdai4Ġ ling3
sha1Ġ te4Ġ
sheng4Ġ dian4Ġ
kong1Ġ jian1ĠdeĠ
fan4Ġ chou2Ġ
piao4Ġ jia4Ġ
pi1Ġ quan2Ġguo2Ġzhong4Ġdian3Ġwen2Ġwu4Ġbao3Ġhu4Ġdan1Ġwei4Ġ
ĠL e
Ġren4Ġwei2 Ġshi4Ġ
qi3Ġye4 Ġjia1Ġ
Ġkong3Ġtai4 Ġda4Ġqu1Ġ
u st
Ġ geng1Ġ
Ġ VĠ
Ġ lin2Ġshi2Ġ
ĠĠĠ hai3Ġ
sai4 Ġhe2Ġ
shan1 Ġshang4Ġ
su4 Ġwei4Ġ
tou2 Ġyu2Ġ
ar eĠĠĠ
Ġzai4Ġ ju4Ġ
Ġzai4Ġ xiang1Ġgang3
Ġshi2Ġ jia1Ġ
Ġdi4Ġ di
Ġren2Ġ wei2Ġ
Ġji4Ġ jie2Ġ
Ġchu1 Ġshi4Ġ
ren4Ġ nei4Ġ
nan2Ġ yan3Ġyuan2Ġ
gao1Ġ xiong2Ġ
Ġzuo4Ġ yong4
Ġfu4Ġ za2Ġ
Ġren4Ġ nei4Ġ
yi2Ġ dao3Ġ
ding4Ġ ju1
bian4Ġ huan4
bian4Ġ hua4ĠdeĠ
yan2Ġjiu1 Ġshi4Ġ
Ġtong2Ġ meng2
zhong1ĠdeĠ yi2Ġge4Ġ
tao2Ġ li2Ġ
Ġ19 28Ġnian2Ġ
jun4Ġ wang2Ġ
Ġbi4Ġ ye4Ġ
sun1Ġ ziĠ
juan1Ġ zeng4
wai4Ġjiao1Ġ guan1Ġxi4Ġ
guo4Ġqu4 ĠdeĠ
min2Ġjin4Ġ dang3Ġ
6 3Ġnian2Ġ
G P
J RĠ
r yĠĠĠ
Ġ fa1Ġzhan3
Ġ zun1Ġ
Ġ duo2ĠdeĠ
ĠĠĠ an4Ġ
zhan4 Ġshi2Ġqi1Ġ
kai1 ĠdeĠ
lian2 Ġsi1Ġji1Ġ
wei1 Ġsi1Ġ
di1 Ġdi4Ġ
Ġhe2Ġ M
Ġzhi4Ġ suo3Ġzai4Ġ
zhe4Ġ zuo4Ġ
qi3Ġ fei1Ġ
jie3Ġ p
yi3Ġ lai2
xiao1Ġ mie4Ġ
kong1Ġ xi2
ĠdeĠren2Ġ kou3Ġwei4Ġ
ĠP ro
wan2Ġcheng2Ġ hou4Ġ
1Ġri4Ġ qi3Ġ
yin4Ġdu4Ġ jiao4Ġ
jiao1Ġtong1 Ġbu4Ġ
tong2Ġxing4Ġ lian4Ġ
Ġfei1Ġlv4Ġ bin1Ġ
2 Ġping2Ġfang1Ġgong1Ġli3Ġ
9 6Ġ
B A
Ġ bi4
Ġ lei1
shu4 Ġzhi1Ġ
zhang3 Ġshi2Ġjian1Ġ
tai4 Ġhe2Ġ
pei4 Ġsi1Ġ
wen1 Ġhe2Ġ
Ġzhong1Ġ wu3Ġ
ji4Ġ yi4Ġ
Ġjun1 Ġjian4Ġ
nan2Ġ hai2Ġ
zhe4Ġ xiang4Ġ
Ġping2Ġ gu1Ġ
quan2Ġ mian4
qing1Ġ chu3
ĠdeĠshi4Ġ wu4Ġ
gu4Ġ zhang4Ġ
chong2Ġ bai4Ġ
guan3Ġli3Ġ ju2
xuan2Ġ lv4Ġ
sun3Ġ shang1Ġ
Ġzhi1Ġjia1Ġ ge1Ġ
zhu3Ġjiao4Ġzuo4Ġ tang2Ġ
8 Ġming2Ġ
p ian2
s a1
Ġ mian4Ġdui4Ġ
ĠĠĠ gui3Ġdao4Ġ
di e1
ai1 Ġde2Ġ
zuo4 Ġcheng2Ġ
sheng1 Ġshi2Ġ
shou3 Ġzhi1Ġ
bei3 Ġwei4Ġ
che1 Ġzai4Ġ
wu3 Ġri4Ġ
gai1 Ġshi4Ġ
lin2 Ġhe2Ġ
luo2 Ġyi1Ġ
mi3 ĠdeĠdi4Ġqu1Ġ
zhuan3 Ġren4Ġ
197 3Ġnian2Ġ
196 5Ġnian2Ġ
zhao1 Ġmu4Ġ
che4 Ġchu1Ġ
Ġri4 ĠĠĠ
sheng1Ġ ming4
zheng4Ġ wei3Ġ
wu4Ġ ye4Ġ
xiang1Ġ cun1Ġ
fu2Ġ la1Ġ
bi4Ġ ye4
gang3Ġ kou3
lian4Ġ jie1Ġ
jue2Ġse4Ġ ban4Ġyan3
Ġtang2Ġ chao2Ġ
Ġqi2Ġta1 Ġren2Ġ
0Ġnian2Ġdai4 Ġchu1Ġ
ĠĠĠp ro
Ġhong1Ġzha4 Ġji1Ġ
U ni
t ri
Ġ zhao3
Ġ ding3Ġ
Ġ pi1Ġping2Ġ
Ġ yong1Ġ
ĠĠĠ yi3
ĠĠĠ hui4Ġ
ĠĠĠ zhu3Ġ
yi2 Ġdao4Ġ
qi4 Ġzhi4Ġ
qi4 Ġyou2Ġ
qing1 Ġli3Ġ
ling2 Ġshi2Ġ
ku4 Ġsi1Ġ
ter nation
at ĠĠĠ
Ġshi4Ġ ji4
Ġnian2 Ġshi4Ġjie4
Ġwei4Ġ fu4Ġ
Ġwei4Ġ ri4Ġben3Ġ
Ġchu1Ġ shi3Ġ
Ġbei4Ġ sha1Ġ
bi4Ġ yao4
chuan2Ġ fo2Ġjiao4Ġ
wei1Ġ ruan3
yan2Ġjiu1 Ġren2Ġyuan2Ġ
han2Ġ liang4Ġ
chu3Ġ si3Ġ
Ġzh uo1
dan4Ġ yao4Ġ
Ġguo2Ġmin2Ġ ge2Ġming4
Ġao4 Ġzhou1Ġ
Ġwei4Ġyu2Ġgai1Ġguo2Ġ zhong1Ġbu4Ġ
Ġren4 Ġzhong1Ġgong4Ġ
yin4Ġdi4Ġ an1Ġren2Ġ
chong2Ġqing4 Ġshi4Ġ
zhu1Ġlong2Ġ cao3Ġ
gao1Ġdeng3 Ġxue2Ġxiao4Ġ
1 Ġnian2ĠdeĠ
t a4
Ġ xu1
Ġ fang4Ġ
Ġ 100Ġ
ĠĠĠ ri4
fa3 Ġli4Ġ
chang2 Ġnian2Ġ
ni c
tong1 ĠdeĠ
ge1 Ġsi1Ġ
wen1 Ġnu
tui4 Ġchu1
ni3 ĠdeĠ
Ġshi4Ġ tai2Ġwan1
Ġbu4Ġ dui4ĠdeĠ
Ġji2Ġ jie2Ġ
Ġda4Ġ xiao3
Ġyi3Ġ ci3
zuo4Ġ biao1Ġ
Ġyu3Ġ yin1Ġ
zhan4Ġ ting1Ġ
fa1Ġ dian4Ġji1Ġ
Ġer2Ġ si3Ġ
Ġbing4Ġ zhi3Ġyu2Ġ
zui4Ġ da4
shan1Ġ kou3Ġ
chang3Ġ shang1Ġ
ti2Ġ jiao1
gai3Ġ liang2Ġ
can1Ġ ting1
Ġcheng2Ġwei2Ġ yi2Ġge4Ġ
ĠĠĠdi4Ġ ming2Ġ
bing4Ġ fei1Ġ
song4Ġ wang3Ġ
piao4Ġ fang2
ning2Ġ bo1Ġ
Ġ2 ĠĠĠ
sun3Ġ hai4Ġ
xiu1Ġzheng4Ġ an4Ġ
Ġrui4Ġ dian3Ġ
icrosof tĠĠĠ
s sĠ
Ġ nai4
Ġ za2Ġ
qu1 Ġzhi1Ġyi1Ġ
jiang1 ĠdeĠ
sai4 Ġhui4Ġ
pai4 Ġchu1
re4 Ġhe2Ġ
196 7Ġnian2Ġ
yi4Ġ jian4Ġ
Ġyi4Ġ ri4Ġ
Ġxian4 Ġxing2Ġ
Ġdao4 Ġzai4Ġ
fen1Ġ jie3Ġ
an1Ġ da3Ġ
bao4Ġ dao3
zi1Ġ ge2
Ġlu4Ġ kou3Ġ
mei2Ġ you3Ġzai4Ġ
ting2Ġ liu2Ġ
ĠdeĠdi4Ġ xia4Ġ
yin1Ġ mou2Ġ
ĠĠĠC or
Ġluo2Ġ ne4Ġ
cha1Ġ bie2Ġ
ĠĠĠ198 6Ġnian2Ġ
dong4Ġli4Ġ xue2Ġ
gai3Ġbian1 Ġzi4Ġ
you3Ġbu4Ġ shao3Ġ
tai2Ġfeng1Ġ jing3Ġbao4
chou3 Ġke1Ġ
6 ĠĠĠ
7 00
Ġ hua4Ġxue2Ġ
ao4 Ġke4Ġxi1Ġta3Ġni2Ġda4Ġqu1Ġ
er3 Ġsi1Ġ
ke3 Ġgong1Ġ
shan1 Ġji2Ġ
zhe3 Ġzhi1Ġyi1Ġ
fan3 Ġfu4Ġ
yang3 Ġhe2Ġ
Ġbu4Ġ lei2
Ġgong1Ġ zhu3
zhe4Ġ chang3Ġ
zhi2Ġ quan2Ġ
Ġbing4Ġ dan1Ġren4Ġ
Ġqi2Ġ jian1Ġ
Ġjin4 Ġcheng2Ġ
Ġzhan4Ġ chang3Ġ
ci3Ġ lei4Ġ
lin2Ġ qu1Ġ
hai2Ġ yao4Ġ
hai2Ġ mei2Ġyou3Ġ
ĠĠĠC ar
leĠyi1Ġ chang2Ġ
Ġer3Ġsi1Ġ ke4Ġ
Ġshi4Ġyi4Ġ yuan2Ġ
Ġping2 Ġjun1
1 12
7 Ġming2Ġ
Ġ ya4Ġli4Ġshan1Ġda4Ġ
you3 Ġzhong1Ġ
hou4 Ġren2Ġ
sheng1 Ġshi4Ġ
you2 Ġhe2Ġ
dai4 Ġchu1Ġ
ju4 Ġshi4Ġ
zhi2 Ġxian4Ġ
wen2 Ġshi4Ġ
yuan4 Ġhe2Ġ
zong3 Ġren2Ġkou3ĠdeĠ
gai3 Ġcheng2Ġ
xian1 Ġzai4Ġ
bing1 Ġdui4Ġ
nu3 Ġer3Ġ
Ġzhong1Ġ chang3Ġ
Ġdan4 Ġdao4Ġ
dong4Ġ ci2Ġ
tian1Ġ qiao2Ġ
chang2Ġ chun1
bao3Ġ an1
lin2Ġ chuang2
tai4Ġ lang2Ġ
fu3Ġ bai4Ġ
sha1Ġ shou3Ġ
sha1Ġ mo4Ġ
ĠdeĠyi1Ġ yuan2Ġ
ĠdeĠshi2Ġ wu4Ġ
e4Ġ lie4Ġ
xuan1Ġbu4Ġ jiang1Ġ
ĠD e
ĠdeĠji4Ġ zai3Ġ
ĠĠĠF or
xia4Ġji4Ġ ao4Ġyun4Ġhui4Ġ
huan2Ġjing4 Ġzhong1Ġ
ĠÑ Ģ
Ġyi1Ġli4Ġ sha1Ġbai2Ġ
fu2Ġlei2 Ġde2Ġ
nc ludeĠ
Ġon lyi
Ġonlyi ncludeĠ
0 Ġbi3Ġ
8 Ġnian2ĠdeĠ
C o
G D
T e
a ta
l or
Ġ xi4Ġlie4
Ġ 24Ġ
ch e
ming2 Ġdi4Ġ
bei4 Ġli4Ġ
ren4 Ġhou4Ġ
tian1 Ġdi4Ġ
you4 Ġyou3Ġ
ji3 Ġwei4Ġ
50 Ġmi3Ġ
Ġzhong1Ġ yi3Ġ
Ġli4Ġ zhi1Ġ
Ġyi4Ġ ke3Ġ
si1Ġ xiang3
hou4Ġ lai2ĠdeĠ
Ġzhi1 Ġren2Ġ
Ġge4 Ġji2Ġ
Ġzhou1 Ġzhi4Ġ
ru4Ġ xue2Ġ
ci3Ġ qian2Ġ
shu3Ġ shu3Ġ
cai2Ġ pan4
Ġgai1Ġ dang3
han2Ġ min2Ġguo2Ġ
Ġjie2Ġ shu4
wei3Ġyuan2Ġhui4Ġ zhu3Ġren4Ġ
dai4Ġbiao3Ġ tuan2
Ġnv3Ġ xing4Ġwei4Ġ
Ġwai4Ġ jiao1
Ġyi4Ġzhi2 Ġdao4Ġ
zhan4Ġzheng1 ĠdeĠ
Ġqiang2Ġ diao4Ġ
ĠĠĠand ĠĠĠ
Ġqi3 Ġchu1Ġ
Ġha1Ġer3Ġ bin1Ġshi4Ġ
tan4Ġxian3 Ġdui4Ġ
+ +
T wit
Ġ yun4Ġdong4Ġ
qi2 Ġzhi4Ġ
ya4 Ġer3Ġ
che1 Ġshang4Ġ
10 Ġren2Ġ
tu2 Ġshang4Ġ
fang4 ĠdeĠ
193 7Ġnian2Ġ
Ġshi2Ġ bu4Ġ
yi4Ġ zhi2Ġ
Ġge4 Ġshi4Ġ
Ġde2 Ġzai4Ġ
jie1Ġ bo2Ġ
ziĠ ke1Ġ
wang2Ġ zi3
tai4Ġ lei1Ġ
zong3Ġ jie2Ġ
Ġzhu4Ġ ce4Ġ
wang3Ġ ye4Ġ
chu1Ġ xi2Ġ
shuo1Ġ fu2Ġ
zhuan1Ġ yong4
ĠĠĠS cho
pai4Ġ xi4Ġ
rui4Ġ shi4ĠdeĠ
tan4Ġ xian3Ġ
mou3Ġ zhong3Ġ
ĠĠĠ194 6Ġnian2Ġ
yi4Ġshi2Ġ xing2Ġtai4Ġ
Ġduo1 Ġnian2Ġ
Ġde2Ġli3Ġ ke4Ġ
Ġchu1Ġban3 ĠleĠ
Ġxin1Ġzeng1Ġ jing4Ġwai4Ġshu1Ġru4Ġ
zhu1Ġshi4Ġhui4Ġ she4Ġ
8 Ġping2Ġfang1Ġgong1Ġli3Ġ
Ġ de
Ġ man3Ġ
Ġ pao4Ġ
ĠĠĠ zhe4
ĠĠĠ long2Ġ
xin1 Ġnian2Ġ
er4 Ġge4Ġ
liu2 Ġqiu2
mo2 Ġer3Ġ
cai2 Ġbei4Ġ
âĢ ¢
gan3 Ġjun1Ġ
bai3 Ġren2Ġ
Ġhe2Ġ yi3Ġ
Ġyou3Ġ gong1Ġ
ji4Ġ zai3
Ġyi3 Ġshi2Ġ
Ġxi1Ġ yu3Ġ
shou3Ġ pi1Ġ
zhi2Ġ neng2Ġ
lian2Ġ suo3Ġ
dong1Ġ hai3Ġ
jie1Ġ duan4ĠdeĠ
zheng1Ġ yi4ĠdeĠ
ci2Ġ qu4Ġ
ĠC ar
Ġgen1Ġju4Ġ 2010Ġnian2Ġmei3Ġguo2Ġren2Ġkou3Ġpu3Ġcha2Ġ
Ġgong1Ġsi1 Ġhe2Ġ
ĠĠĠ198 5Ġnian2Ġ
ĠĠĠ198 2Ġnian2Ġ
ĠĠĠW orl
zhi1Ġchi2Ġ zhe3Ġ
Ġwei4Ġyu2Ġgai1Ġguo2Ġ nan2Ġbu4Ġ
sang1Ġ na4
xiao1Ġfei4Ġ zhe3Ġ
1 Ġgong1Ġli3Ġ
2 Ġnian2ĠdeĠ
5 Ġping2Ġfang1Ġgong1Ġli3Ġ
C C
T AĠ
Ġ kong3
Ġ bu2Ġhui4Ġ
Ġ zhan1Ġmu3Ġsi1Ġ
en1 ĠdeĠ
ji1 Ġwei4Ġ
you2 Ġshi4Ġ
fa3 Ġhui4Ġ
zhi3 Ġhui4Ġ
ma3 Ġshang4Ġ
ku ang1
fei1 Ġer3Ġ
da2 Ġli4Ġ
kuo4 Ġjian4
mo2 Ġsi1Ġ
geng1 Ġdi4Ġ
Ġxi1Ġ bu4ĠdeĠ
hua4Ġ fen1Ġwei4Ġ
zhu4Ġ yi4ĠdeĠshi4Ġ
Ġqi2Ġ shou3Ġ
Ġhuo4 Ġqi2Ġta1Ġ
shi1Ġ ge1Ġ
qi3Ġ dian3Ġ
zhen4Ġ ya1
gu3Ġ ge2Ġ
Ġnan2Ġ fei1Ġ
fang2Ġ hu4Ġ
Ġhe2Ġguo2Ġ ji4Ġ
zhang4Ġ ai4
Ġyin1Ġyue4Ġ hui4Ġ
zhong1Ġshi4Ġ yan3Ġ
tong1Ġguo4 ĠdeĠ
Ġshi4Ġjian4 Ġzhong1Ġ
shao1Ġ hui3Ġ
ĠV i
Ġ2011 Ġnian2Ġ12Ġyue4Ġ31Ġri4Ġ
ĠĠĠyi3Ġxia4 Ġwei4Ġ
zhuang1Ġwei4Ġ lin2Ġ
li2Ġba1Ġn en4
9 2Ġ
t u4
Ġ yao2
Ġ fa1Ġzhan3Ġ
Ġ guan4Ġ
yu3 Ġgong1Ġ
nan2 Ġda4Ġxue2Ġ
guan1 Ġyu3Ġ
hai3 Ġdi4Ġ
ze2 Ġhui4Ġ
ban1 Ġji1Ġ
chu4 Ġzai4Ġ
ta3 Ġli4Ġ
nuo4 Ġke4Ġ
lian4 ĠdeĠ
Ġyu2Ġ 8Ġyue4Ġ
Ġyi1Ġ dai4
Ġyi1Ġ liang4Ġ
Ġji4Ġ neng2Ġ
Ġjian4 Ġzhi1Ġ
Ġbei4Ġ yu4Ġwei2Ġ
fa3Ġ ting2
jie2Ġ yun4Ġ
zhang3Ġ zhou2
yi2Ġ ju1
yi2Ġ chu2Ġ
Ġzhe4Ġ lei4Ġ
dan1Ġ che1Ġ
Ġzhong1Ġguo2Ġ gong1Ġ
hua2Ġ bing1Ġ
ke3Ġyi3Ġ bei4Ġ
bing1Ġ tuan2
qin1Ġ fan4Ġ
zhun3Ġ jue2Ġsai4Ġ
ĠdeĠyi4Ġ jian4Ġ
wai4Ġjiao1Ġ guan1Ġ
su1Ġlian2 ĠdeĠ
a1Ġer3 Ġji2Ġli4Ġ
na2Ġpo4Ġ lun2
Ġ tong1
Ġ cang2
Ġ cun2Ġzai4Ġ
an k
shu a1
10 Ġshi2Ġ
chen2 Ġshi4Ġ
90 Ġnian2Ġdai4Ġ
Ġli3Ġ jie3Ġ
hua4Ġ wu4Ġ
Ġjian4Ġ zhu4ĠdeĠ
Ġzhan4Ġ bi3Ġ
Ġtong2 Ġzhi1Ġ
mi3Ġ lan2Ġ
ci4Ġ lie4Ġche1Ġ
yi2Ġ ci4Ġshi4Ġjie4Ġda4Ġ
ying3Ġ ye4Ġ
yue1Ġ 2
jiang3Ġ hua4Ġ
tuan2Ġ dui4
gu4Ġ shi4ĠdeĠ
si3Ġ qu4Ġ
Ġbo1Ġ lan2
ĠĠĠyi1Ġ xie1Ġ
ĠdeĠzhong1Ġ xin1Ġ
Ġshi2Ġzi4Ġ lv4Ġ
dong4Ġche1Ġ zu3Ġ
bao3Ġjia1 Ġli4Ġya4
bao1Ġkuo4Ġyi3Ġxia4Ġ wu4Ġzhong3Ġ
hun4Ġxi ao2Ġ
R A
a se
Ġ tuo1
Ġ wu3Ġnian2Ġ
ĠĠĠ dian4Ġying3Ġ
zhang1 Ġcheng2Ġ
gai3 Ġjian4Ġ
guang1 Ġnian2Ġ
ãģ ®
yi1Ġ ci4Ġ
Ġzhi4Ġ an1Ġ
ming2Ġ xian3ĠdeĠ
Ġji4Ġ jun1Ġ
Ġxing2Ġ dian4Ġli4Ġ
dui4Ġ ci3Ġ
Ġer2 Ġchu1Ġ
lian2Ġ tong2Ġ
mi3Ġ ya4
xiao3Ġ ti2Ġ
fen4Ġ nu4Ġ
jian3Ġ ruo4Ġ
chu1Ġ lai2Ġ
zhi1Ġ liu2Ġ
qian1Ġ yi2Ġ
Ġjie2Ġ gou4
Ġzui4Ġzhong1Ġ yi3Ġ
zu2Ġqiu2Ġ jia3Ġji2Ġ
kong4Ġ gu3Ġ
san1Ġshi2Ġ si4Ġnian2Ġ
Ġdi4Ġsan1Ġ ci4Ġ
Ġnan2 Ġyu3Ġ
chai1Ġ chu2
Ġyi1Ġsi1Ġlan2Ġ jiao4Ġ
da2Ġke1 Ġta1Ġ
3 Ġping2Ġfang1Ġgong1Ġli3Ġ
Ġ bei1
Ġ chi4
ĠĠĠ feng1Ġ
ĠĠĠ wan4Ġli4Ġ
hou4 Ġyou3Ġ
te4 Ġshe4Ġ
bian1 Ġyi4Ġ
du2 Ġjia1Ġ
Ġzai4Ġ guo2Ġ
Ġyi3Ġ wai4
Ġta1Ġ hui4Ġ
Ġxi1Ġ lu4Ġ
Ġshe4 Ġwei4Ġ
xia4Ġ xia2Ġ
shou3Ġ xi2
bei3Ġ shang4Ġ
Ġyin1Ġ ziĠ
ceng2Ġ dan1Ġren4Ġ
bian4Ġ liang4Ġ
tang2Ġ chao2Ġ
fei4Ġ zhi3Ġ
ĠĠĠA Ġ
Ġpu3Ġ tong1Ġ
Ġri4Ġben3 Ġren2Ġ
ya4Ġli4Ġ sang1Ġna4
dao3Ġshi4Ġ yue4Ġtai2Ġ
cheng2Ġnian2Ġ ren2Ġ
da1 Ġcheng2Ġ
Ġhei1Ġlong2Ġjiang1Ġ sheng3Ġ
6 Ġping2Ġfang1Ġgong1Ġli3Ġ
xin1 Ġyi4Ġ
pai4 Ġdui4Ġ
da3 Ġchu1Ġ
ĠdeĠ ping2Ġ
li4Ġ chang3Ġ
zhi4Ġ liang4Ġ
Ġli4Ġ zhi4Ġ
Ġli4Ġ wu4Ġ
Ġyi1Ġ kao4
Ġda4Ġ xi1Ġyang2
Ġqi2 Ġhe2Ġ
Ġyin1 Ġzai4Ġ
min2Ġ yong4Ġ
Ġjin4 Ġjun1Ġ
si4Ġ ci4Ġ
er4Ġ shi4ĠdeĠ
dan1Ġ ni2Ġer3Ġ
zhi1Ġ jian1
ting2Ġ huo3Ġ
xiao1Ġ fang2
Ġ19 29Ġnian2Ġ
Ġqing1Ġ chao2
Ġãģ Ħ
zhong3Ġjia1Ġ ci2Ġ
p an
s ong3Ġ
Ġ huo2Ġ
Ġ ju2Ġ
Ġ he4Ġer3Ġ
en sisĠ
wei2 Ġshi4Ġ
de2 Ġjun1Ġ
san1 Ġhe2Ġ
bi3 Ġji4Ġ
lie4 Ġren2Ġ
bian4 Ġyi4Ġ
nv3 Ġsheng1Ġ
tuan2 Ġyuan2Ġ
xiao1 Ġhao4Ġ
wan3 Ġhui4Ġ
hun1 Ġhou4Ġ
ck et
yu2Ġ le4Ġ
bei4Ġ po4Ġ
Ġjia1Ġ er3
Ġli3Ġ mian4Ġ
xi4Ġ shu4Ġ
Ġdui4Ġ zhen4Ġ
jie1Ġ dai4Ġ
quan2Ġ li4ĠdeĠ
shou4Ġ piao4Ġ
bi4Ġ hu4Ġ
Ġyou2 Ġji1Ġche1Ġ
mo2Ġ fang3Ġ
ĠĠĠdi4Ġ san1Ġ
gang1Ġ tie3
chong1Ġ man3
Ġba1Ġ li2Ġ
Ġyou3Ġyi1Ġ zuo4Ġ
Ġ17 0
Ġcong2 Ġer2
ĠĠĠshi4Ġ jie4Ġ
ĠĠĠ198 7Ġnian2Ġ
ĠĠĠ198 3Ġnian2Ġ
shui4Ġ mian2
Ġyu2Ġ199 5Ġnian2Ġ
an1Ġde2Ġ lie4Ġ
8 9Ġ
C h
R E
Ġ gu1Ġji4Ġ
di ng
xi1 Ġri4Ġ
ban3 Ġshang4Ġ
bing1 Ġhe2Ġ
guo3 Ġshi2Ġ
zao3 Ġyi3Ġ
yuan3 Ġcheng2Ġ
zhang4 Ġhao4Ġ
san4 Ġbu4Ġ
teng2 Ġyuan2Ġ
Ġbu4Ġ yi3Ġ
Ġli4Ġ yuan2Ġ
Ġli4Ġ fang1Ġ
Ġyi1Ġ shi4ĠdeĠ
xin1Ġ tai2Ġbi4Ġ
xia4Ġ shu3
dian4Ġ ya1Ġ
zhang3Ġ guan1
ma3Ġ lu4Ġ
lin2Ġ sheng3Ġ
bian4Ġ dong4Ġ
gai3Ġ yong4Ġ
ke4Ġ lai2Ġ
xian4Ġ chang3Ġ
po4Ġ chan3Ġ
chu3Ġ fen4Ġ
lian4Ġ xi2
sui4Ġ pian4Ġ
Ġying1Ġ gai1Ġ
Ġ1 ĠĠĠ
Ġsu1Ġ lian2
Ġwei4Ġdi4Ġ xia4Ġ
Ġfen1Ġbu4Ġyu2Ġ nan2Ġmei3Ġzhou1Ġ
Ġguo2Ġwu4Ġ yuan4
Ġwei4Ġyu2Ġgai1Ġ sheng3
4 Ġhao4Ġ
4 00Ġ
6 9Ġ
b eng4
c c
v eĠ
â ħ
ĠĠĠ yan2Ġ
jing1 Ġwei4Ġ
san1 Ġri4Ġ
wai4 Ġdi4Ġ
lie4 Ġdi4Ġ
zong3 Ġdui4Ġ
ĠdeĠ cheng2Ġshi4Ġ
Ġyu2Ġ 17
Ġli4Ġ ren4
Ġer2 Ġqi2Ġ
ren4Ġ tong2Ġ
ju4Ġ luo4Ġ
bei3Ġ fang1
jiao1Ġ xiang3
ao4Ġ duo1Ġ
Ġxiang1Ġ bi3
jiu4Ġ zhi2Ġ
Ġtong2Ġ meng2Ġ
xiao1Ġ mie4
fang2Ġ ziĠ
Ġda4Ġxue2Ġ sheng1Ġ
xun2Ġ wen4Ġ
geng4Ġ hao3ĠdeĠ
Ġ19 12Ġnian2Ġ
Ġ19 13Ġnian2Ġ
wei3Ġyuan2Ġhui4Ġ fu4Ġzhu3Ġren4Ġ
ĠM a
Ġshu4Ġ zi4Ġ
Ġben3 Ġyu2Ġ
da3Ġji1Ġ lv4Ġ
ĠĠĠzao3Ġnian2Ġ sheng1Ġhuo2Ġ
Ġhua2Ġsheng4Ġ dun4
C E
Ġ jiang3
Ġ xuan1
Ġ xu1Ġyao4
Ġ lai4Ġ
shan1 Ġzhan4Ġ
zi Ġzai4Ġ
dian3 Ġzhan4Ġ
mou3 Ġyi1Ġ
80 Ġnian2Ġdai4Ġ
Ġzai4Ġ gao1Ġ
Ġzai4Ġ tai2Ġwan1
Ġshi2Ġ wu3Ġ
Ġyu2Ġ 2007
Ġzhi4Ġ pian4Ġren2Ġ
wen2Ġ zi4
Ġzuo4Ġ wei2Ġyi1Ġ
xiao3Ġ zhen4Ġ
qing1Ġ chen2Ġ
dan1Ġ du2
shang1Ġ biao1Ġ
xiao1Ġ liang4
zong1Ġ se4Ġ
Ġmei3 Ġjun1Ġ
xi4Ġlie4Ġ sai4Ġ
ĠĠĠshi4Ġ jian4Ġ
cuo4Ġ wu4ĠdeĠ
zhan4Ġzheng1Ġ qi1Ġjian1Ġ
gen1Ġju4 Ġdi4Ġ
Ġji1Ġben3Ġ shang4Ġ
ke4Ġli3Ġ mi3Ġya4Ġ
bu2Ġ hui4Ġzai4Ġ
di2Ġshi4Ġ ni2
00Ġmi3 Ġzhi4Ġ
qing1Ġzhen1Ġ si4Ġ
ĠĠĠben3Ġshu3Ġ bao1Ġkuo4Ġyi3Ġxia4Ġwu4Ġzhong3Ġ
R O
Ġ xiao4
Ġ chuan2
Ġ shang1Ġye4Ġ
Ġ chun2Ġ
Ġ bing3Ġ
ĠĠĠ ren2Ġwu4Ġ
ĠĠĠ guang1Ġxu4Ġ
le Ġzhong1Ġ
chu1 ĠdeĠ
lu4 Ġzhong1Ġ
yong4 Ġyu3Ġ
mei3 Ġyi1Ġ
tai2 Ġda4Ġ
bao4 Ġming2Ġ
jiu1 Ġfen1Ġ
ta3 ĠdeĠ
ji1Ġ xie4
wei2Ġ ya4Ġ
bei4Ġ bu3Ġ
Ġge4Ġ ti3Ġ
Ġdan4 Ġyou3Ġ
shou3Ġ qiu2Ġ
Ġzhan4Ġ dui4Ġ
Ġzheng4Ġ wu4Ġ
ti3Ġ zhong4Ġ
pai2Ġ xu4Ġ
xian4Ġ dai4
bai2Ġ jin1Ġ
gan3Ġ shou4Ġ
ge4Ġ lei4
ĠJ o
ĠÃ ¼
hun4Ġ luan4
ĠĠĠgong1Ġ yuan2Ġ
indow sĠĠĠ
jiang1Ġxi1Ġ sheng3Ġ
ju4Ġfeng1 Ġzhong1Ġxin1Ġ
ĠISTAT Ġdai4Ġma3Ġwei4Ġ0
1 20Ġ
3 Ġnian2ĠdeĠ
S te
m mĠ
n a3
Ġ tie3
Ġ liao2
Ġ gan4
Ġ sai4Ġshi4Ġ
ĠĠĠ la
ĠĠĠ mo4Ġ
xi1 Ġdao4Ġ
che1 Ġhe2Ġ
gai1 Ġgong1Ġsi1Ġ
na4 Ġzai4Ġ
bo1 Ġji2Ġ
di3 Ġyu4Ġ
liao4 ĠdeĠ
yang1 Ġshi4Ġ
niu3 Ġxi1Ġlan2Ġ
Ġyu2Ġ 10Ġyue4Ġ
ma3Ġ ni2Ġ
xing4Ġ zhi4ĠdeĠ
chang2Ġ yong4Ġ
Ġju4Ġ shuo1Ġ
zong3Ġ gong4Ġ
Ġxin1Ġ zhu2
Ġzi4Ġ cheng1Ġ
jin3Ġ jin3
chu1Ġ yan3Ġ
gou4Ġ zao4
hu2Ġ guang3Ġ
ĠdeĠgong1Ġ gong4Ġ
shui4Ġ wu4Ġ
Ġjin3Ġguan3Ġ ru2Ġci3Ġ
mu4Ġni2Ġ hei1
Ġ tu3Ġdi4Ġ
Ġ hui2Ġdao4Ġ
Ġ yuan2Ġshi4Ġ
ĠĠĠ di
ãĢ ķ
ti Ġ
xin1 Ġshi4Ġzhen4Ġ
xiang4 Ġzhong1Ġ
mu4 Ġli3Ġ
ding4 Ġshi4Ġ
ze2 Ġshi4Ġzai4Ġ
zhang1 Ġlu4Ġ
hu4 Ġli3Ġ
kong1 ĠdeĠ
xun2 Ġqiu2
song4 ĠdeĠ
194 7Ġnian2Ġ
yang4 Ġshi4Ġ
196 9Ġnian2Ġ
196 2Ġnian2Ġ
Ġzai4Ġ a1Ġ
he2Ġ yue1Ġ
Ġyu2Ġ da4Ġ
Ġcheng2Ġ shu2
ming2Ġ ci2Ġ
guan1Ġ jie2Ġ
Ġzheng4Ġ mian4Ġ
Ġtong2 Ġnian2Ġ7Ġyue4Ġ
nei4Ġ wai4Ġ
chang2Ġ shu4Ġ
yi2Ġ ti3Ġ
liu2Ġ jing1Ġ
Ġzhu4Ġ zhai2Ġ
chan3Ġ jie1Ġji2Ġ
Ġzhu3Ġ jiao4Ġ
dou1Ġ neng2Ġ
zheng4Ġzhi4Ġ wei3Ġyuan2Ġ
Ġsuo3Ġ shu3ĠdeĠ
chu3Ġ fa2Ġ
ĠdeĠshi2Ġ qi1Ġ
Ġzhi3Ġ hui1Ġ
shao4Ġ jiang4
Ġn e4Ġ
Ġao4Ġ men2
guai4Ġ wu4Ġ
han3 Ġjian4Ġ
Ġge2 Ġnian2Ġ
Ġda4Ġjiang3Ġ sai4Ġ
xiang1Ġshi4Ġ ju3Ġren2Ġ
Ġqi2Ġzhong1Ġnan2Ġ xing4Ġwei4Ġ
nuo4Ġman4Ġ di3
Ġ zeng1
ĠĠĠ ha1Ġ
ĠĠĠ zuo4Ġpin3Ġ
qu1 Ġyi1Ġ
ju4 Ġli4Ġ
ping2 Ġhe2Ġ
cu an4Ġ
198 0Ġnian2Ġdai4Ġ
Ġwei4Ġ jun1Ġ
Ġren2Ġ qi4Ġ
Ġren2Ġ yuan2ĠdeĠ
ji1Ġ xie4Ġ
Ġxi1Ġ ni2Ġ
shu4Ġ ji2Ġshi4Ġ
nan2Ġ nv3Ġ
jing1Ġ que4Ġ
Ġzhan4Ġ shu4Ġ
shan1Ġ dong1
liu2Ġ lan3Ġ
ding4Ġ yi4ĠdeĠ
shu1Ġ dian4Ġ
zong3Ġ bing1Ġ
er4Ġ ceng2Ġ
wu2Ġ xiao4Ġ
yin3Ġ dao3Ġ
ĠdeĠdi4Ġ di
ĠdeĠyi1Ġ ming2Ġ
zhuan1Ġ shu3Ġ
chuang4Ġ li4ĠdeĠ
nuo4Ġ fu1
leĠyi1Ġ xiang4Ġ
ow Ġ
Ġge1Ġ shou3Ġ
Ġnei4Ġ rong2
si1Ġdi4Ġ fen1Ġ
Ġbo1 Ġsi1Ġ
can1Ġmou2 Ġbu4Ġ
tun2Ġ men2Ġ
gui1Ġlei4 Ġwei4Ġ
zhi2Ġlu4 Ġhou4Ġ
6 Ġnian2ĠdeĠ
Ġ ji2Ġshi4Ġ
ãĢ Ķ
ti n
zhi1 Ġfu4Ġ
guan1 Ġzhong1Ġ
xing4 Ġxing2Ġwei4Ġ
ti3 Ġshi4Ġ
shan1 Ġcheng2Ġ
ban3 Ġhe2Ġ
Ġshi4Ġ yin1Ġ
Ġshi4Ġ ji4Ġshi2Ġ
Ġzai4Ġ ben3Ġ
Ġzai4Ġ 2020Ġnian2Ġ
Ġzai4Ġ zhe4Ġli3Ġ
Ġdi4Ġ yi2Ġge4
Ġde2Ġ guo2ĠdeĠ
shou4Ġ piao4
liu2Ġ chuan2
ba1Ġ sai1Ġer3Ġ
ke1Ġ luo2Ġla1Ġ
chu1Ġ shou4Ġ
ĠdeĠdi4Ġ yi1Ġbu4Ġ
hui2Ġ xiang3Ġ
gu4Ġ ti3Ġ
Ġzhong1Ġyang1 Ġjun1Ġwei3Ġ
Ġshi4Ġjie4Ġ yi2Ġchan3Ġ
2001Ġnian2Ġ zong3Ġren2Ġkou3Ġ
mou3Ġ zhong3
fan3Ġying4 ĠleĠ
da4Ġbu4Ġfen4 ĠdeĠ
Ġhe2Ġbing4 Ġer2Ġcheng2Ġ
reng2Ġran2 Ġshi4Ġ
Ġà ¤
jiao1Ġcha1Ġ kou3Ġ
yi3Ġse4Ġ lie4Ġ
ĠĠĠgai1Ġdi4Ġ 2001Ġnian2Ġzong3Ġren2Ġkou3Ġ
niver si
A r
s ao3
Ġ qian3
shui3 Ġwei4Ġ
can1 Ġjian4Ġ
dang3 Ġzhu3Ġxi2Ġ
ru3 Ġla1Ġ
he2Ġ zuo4Ġ
Ġyi3 Ġyi1Ġ
dian4Ġ chang3Ġ
Ġtong2 Ġming2Ġ
chang2Ġ jiang1
bi3Ġ jiao4
Ġshe4Ġ hui4ĠdeĠ
jiu4Ġ jin1Ġshan1Ġ
sheng4Ġ bi3Ġde2Ġ
jian4Ġ kang1
Ġmu4Ġ biao1Ġ
Ġshi1Ġ fan4
Ġzhe4 Ġwei4Ġ
Ġmei3Ġ ci4Ġ
miao2Ġ zhun3Ġ
diao4Ġcha2Ġ ju2Ġ
Ġzhi1Ġchi2Ġ zhe3Ġ
Ġ6Ġ sui4Ġren2Ġkou3Ġ
ji4Ġlu4Ġ pian4Ġ
zhu3Ġti2 ĠdeĠ
gan1Ġsu4Ġ sheng3Ġ
hun4Ġning2Ġ tu3Ġ
wu1Ġlu3Ġ mu4
7 ĠĠĠ
T he
Ġ yi
Ġ meng2Ġgu3Ġ
hong2 Ġqi2Ġ
pei4 Ġyin1Ġyuan2Ġ
on ĠĠĠ
tian2 Ġshi4Ġ
cu4 Ġcheng2Ġ
wei4Ġ lai2Ġ
bu4Ġ tong2
Ġgong1Ġ shu3Ġ
Ġgong1Ġ yuan2ĠdeĠ
Ġyi3 Ġzhi4Ġyu2Ġ
Ġge4 Ġshi4Ġzhen4
xiang1Ġ si4ĠdeĠ
fa1Ġ wen2Ġ
fa3Ġ ding4Ġ
kou3Ġ an4Ġ
xing4Ġ xin1Ġ
na4Ġ ru4
bian4Ġ hu4Ġ
yang2Ġ guang1Ġ
zu2Ġ gou4
ban4Ġ lv3Ġ
gong4Ġ feng4Ġ
wei3Ġ ren4Ġwei4Ġ
dang3Ġ pai4Ġ
qian1Ġ xi3Ġ
Ġshou3Ġ fu3
fang4Ġ ying4Ġ
ĠĠĠS i
ĠĠĠT i
jie3Ġjue2Ġ fang1Ġan4Ġ
lan2Ġke4Ġ lin2Ġ
Ġfan3 Ġer2Ġ
ai4Ġhao4Ġ zhe3Ġ
o la
Ġ xia2
Ġ yin4Ġni2Ġ
ĠĠĠ tong2Ġshi2Ġ
fa3 Ġxi1Ġsi1Ġ
shou3 Ġhe2Ġ
dian4 Ġji2Ġ
jing3 ĠdeĠ
195 9Ġnian2Ġ
lou2 Ġgao1Ġ
you3Ġ xiao4Ġ
Ġcheng2Ġ shu2Ġ
jing1Ġ du1
jing1Ġ shi1Ġ
fa1Ġ shou4
jie2Ġ ju2Ġ
Ġping2Ġ heng2Ġ
shan1Ġ gu3Ġ
Ġshe4Ġ ru4Ġ
shen1Ġ shou4Ġ
Ġdai4Ġ ma3Ġ
qing1Ġ xiang4Ġyu2Ġ
zong3Ġ zhi2Ġ
han4Ġ bao3Ġ
ming4Ġ zhong4Ġ
huo3Ġ zai1
ĠS i
Ġt ou1Ġ
bei1Ġ guan4Ġjun1Ġ
Ġmei3Ġguo2Ġ guo2Ġjia1Ġ
wan1Ġ zai3Ġ
Ġgu4Ġ ci3Ġ
ju3Ġban4 ĠleĠ
zuo4Ġpin3 ĠdeĠ
you2Ġji1Ġ dui4Ġ
ĠĠĠyin1Ġ ci3Ġ
Ġbei3Ġjing1 Ġshi4Ġ
l a2Ġ
mi n
te4 Ġyi4Ġ
zui4 Ġjin4
ye3 Ġyi3Ġ
zi Ġji2Ġ
hua2 Ġshi4Ġ
su4 Ġshi2Ġ
xiang3 Ġdao4Ġ
zhuan1 Ġxian4Ġ
fang4 Ġda4Ġ
chuan1 Ġjia1Ġ
shi2Ġ shi1Ġ
Ġbu4Ġ shu3
Ġgong1Ġ wu4Ġ
Ġgong1Ġ lv4Ġ
jia1Ġ su4Ġ
Ġjia1Ġ da4Ġ
Ġer2 Ġta1Ġ
suo3Ġ shi3Ġyong4ĠdeĠ
Ġyou2Ġ mei3Ġguo2Ġ
yao4Ġ su4Ġ
Ġyi3Ġji2Ġ qi2Ġta1Ġ
zhu1Ġ ru2Ġ
chuang4Ġ ye4Ġ
qiu2Ġ dui4ĠdeĠ
Ġzh e1Ġ
ruo4Ġ gan1Ġ
pin2Ġ lv4
niao3Ġ lei4
ĠdeĠhe2Ġ zuo4Ġ
ling3Ġdao3Ġ xia4Ġ
Ġyu2Ġ199 4Ġnian2Ġ
ba4Ġ mian3Ġ
Ġk a1Ġ
Ġwei4Ġyu2Ġfa3Ġguo2Ġ da4Ġdong1Ġbu4Ġda4Ġqu1Ġ
zhan3Ġshi4Ġ leĠ
Ġji1Ġgou4 ĠdeĠ
tian1Ġran2Ġ qi4Ġ
1 Ġping2Ġfang1Ġgong1Ġli3Ġ
7 Ġping2Ġfang1Ġgong1Ġli3Ġ
9 1Ġ
m a1
Ġ nan2Ġbu4Ġ
Ġ yi1Ġshi4Ġ
ĠĠĠ d
ĠĠĠ tai4Ġ
ti ng
han4 Ġwei4Ġ
jia3 ĠdeĠ
diao4 ĠdeĠ
Ġyou3Ġ ke1Ġ
Ġyi4Ġ tu2Ġ
Ġyi1Ġ shuo1Ġ
li3Ġ jie3Ġ
ren4Ġ wu4
Ġdan4 Ġsheng1Ġ
lai2Ġ shuo1
Ġwei2Ġ ye3Ġ
Ġqi2Ġ shi1Ġ
Ġke4Ġ yun4
Ġzhan4Ġ che1Ġ
Ġzhou1Ġ mo4Ġ
an1Ġ ni1Ġ
Ġzuo4Ġ wu4Ġ
hai3Ġ tan1Ġ
ba1Ġ na2
sha1Ġ si3
sha1Ġ la1Ġ
tang2Ġ na4Ġ
ying2Ġ yang3Ġ
Ġshi4Ġyi1Ġ ming2
xiang1Ġgang3Ġ dian4Ġying3Ġ
kan4Ġ qi3Ġlai2Ġ
Ġliang3Ġ zhe3Ġ
Ġsui2Ġ hou4Ġzai4Ġ
ĠW Ġ
jiao4Ġyu4 ĠdeĠ
ĠĠĠ194 8Ġnian2Ġ
zu1Ġ li
Net fli
ling3Ġxian2 Ġzhu3Ġyan3Ġ
y aĠ
Ġ lun4Ġ
Ġ tong3Ġyi1Ġ
ĠĠĠ suo3Ġyou3Ġ
zhou1 Ġshi4Ġ
ye3 Ġcheng2Ġwei2Ġ
sheng3 ĠdeĠyi2Ġge4Ġ
liang3 Ġdi4Ġ
da2 Ġdao4
shou1 Ġyi4Ġ
195 7Ġnian2Ġ
Ġhe2Ġ bei4Ġ
Ġyu2Ġ ming2Ġ
da4Ġ xi1Ġyang2Ġ
Ġyi3Ġ xia4ĠdeĠ
Ġyu3Ġ ta1Ġ
yan2Ġ yong4Ġ
zhi2Ġ lu4Ġ
zhi3Ġ ding4Ġwei4Ġ
ma3Ġ tou2
qi3Ġ yong4
ying1Ġ tian1Ġ
gang3Ġ qu1Ġ
ci2Ġ shan4Ġ
jia4Ġ fei1Ġji1Ġ
huang2Ġ pu3Ġ
ĠdeĠdi4Ġ fang1
mo2Ġ luo4Ġ
bai2Ġ e2Ġluo2Ġsi1Ġ
Ġjiao4Ġ tang2Ġ
yong3Ġ yuan3Ġ
ĠS h
chu2Ġ wai4Ġ
Ġmei3 Ġzhou1
hao3Ġ lai2Ġwu4Ġ
ĠdeĠzuo4Ġ pin3
ge2Ġming4 Ġhou4Ġ
Ġfu4Ġze2 Ġren2Ġ
Ġxian4ĠdeĠyi2Ġge4 Ġcheng2Ġzhen4Ġ
Ġshi4Ġwu1Ġke4Ġlan2 ĠdeĠ
ĠĠĠwai4Ġbu4Ġ lian2Ġjie2Ġ
G N
T M
³ Ġ
Ġ heng2
Ġ fa1Ġsheng1Ġ
Ġ zhu2Ġjian4Ġ
Ġ fa1Ġxian4
Ġ zhan1Ġ
de l
ĠĠĠ shi1Ġ
a1 Ġli4Ġ
di u1
le Ġta1ĠmenĠdeĠ
nan2 Ġyou3Ġ
jiang1 Ġyuan2Ġ
zhang3 Ġshi4Ġ
bo2 Ġsi1Ġ
bo2 Ġming2Ġ
nu3 Ġsi1Ġ
Ġshi4Ġ luo2Ġma3Ġ
Ġhe2Ġ fu4Ġ
Ġdi4Ġ wu3
Ġji2Ġ bei4Ġ
Ġyi1Ġ guo2Ġ
Ġzhi1 Ġcheng2Ġ
Ġda4Ġ yuan2Ġ
Ġda4Ġ tong2Ġ
hua4Ġ zuo4Ġ
kai1Ġ chu2Ġ
tie3Ġ lu4Ġxian4Ġ
si3Ġ wang2ĠdeĠ
Ġt ang1
Ġt uo4Ġ
ran2Ġ shao1
Ġp u1Ġ
fa1Ġbiao3 Ġsheng1Ġming2Ġ
si1Ġlan2Ġ jiao4Ġ
Ġjin4Ġnian2Ġ lai2Ġ
B AĠ
C T
M o
p ri
Ġ ju3Ġxing2Ġ
Ġ dang4Ġtian1Ġ
ĠĠĠ xiao3Ġxing2Ġxing1Ġ
le yĠ
mei3 Ġge4
jiang1 Ġjin4Ġ
qian2 Ġbei4Ġ
dong1 Ġshi4Ġ
qi3 Ġzai4Ġ
jiu4 Ġyi3Ġjing1Ġ
na4 Ġshi2Ġ
gai3 Ġjian4Ġwei4Ġ
ling3 Ġnan2Ġ
Ġdi4Ġ yi1Ġbu4Ġ
Ġyi4Ġ ri4
wei2Ġ duo1Ġli4Ġya4Ġ
qu1Ġ bie2
Ġli3Ġ hui4Ġ
zi4Ġ cheng1Ġ
lu4Ġ jing4Ġ
dian4Ġ ti1Ġ
mu4Ġ fu3Ġ
luo2Ġ na4Ġ
qi4Ġ wen1
gong4Ġ feng4
ci2Ġ chang3Ġ
Ġshi4Ġyi1Ġ kuan3
qiao2Ġ liang2
Ġping2Ġfang1Ġ qian1Ġmi3
bu3Ġ chang2Ġ
tu1Ġ jue2
Ġshi3 Ġdi4Ġ
dan4Ġ shui3Ġyu2Ġ
ti3Ġyu4Ġ chang3
Ġgai1Ġsheng3Ġfen4Ġwei4Ġfa3Ġguo2Ġ zhong1Ġ
Ġchu1Ġban3 ĠdeĠ
zuo4Ġpin3 Ġzhong1Ġ
gong1Ġgong4Ġ jiao1Ġtong1Ġ
z ang1Ġ
Ġ en1
Ġ huo3
Ġ xi1Ġbu4Ġ
Ġ tui1Ġchu1Ġ
ĠĠĠ rong2Ġyu4Ġ
xia4 Ġwei4Ġ
du4 Ġyu3Ġ
bo2 Ġli4Ġ
xin4 Ġzhong1Ġ
on e
di4Ġ zhi4Ġ
Ġbu4Ġ ke3
Ġyou3Ġ san1Ġ
Ġri4 Ġdao4Ġ
Ġyi1Ġ la1Ġke4Ġ
zuo4Ġ qu3Ġ
Ġer3 Ġji1Ġ
xia4Ġ shui3Ġ
zhang3Ġ wo4Ġ
jie1Ġ zhuang1Ġ
zhong4Ġ duo1
feng1Ġ su4Ġ
ke1Ġ heng2Ġxing1Ġ
jiao1Ġ xiang3Ġ
tu2Ġ pian4Ġ
shang1Ġ pin3
jin3Ġ jin3Ġ
cai2Ġ jue2Ġ
xiao1Ġ chu2Ġ
leĠyi1Ġ xi4Ġlie4Ġ
xian3Ġ zhu4ĠdeĠ
yuan3Ġ zheng1
zheng4Ġfu3 Ġzai4Ġ
Ġn u2Ġ
niu2Ġ jin1
jun1Ġshi4Ġ tan3Ġding1Ġ
ĠĠĠN ew
Ġguo2Ġjia1 Ġhe2Ġ
Ġchong2Ġ qing4
zong3Ġdu1Ġ fu3Ġ
shi1Ġfan4 Ġxue2Ġxiao4Ġ
Ġlu4Ġyi4Ġ si1Ġ
jiang1Ġwei2Ġwu2Ġer3Ġ zi4Ġzhi4Ġqu1Ġ
Ġ chong2
Ġ shen3
an aĠ
ĠĠĠ ge2Ġ
ĠĠĠ xian4Ġdai4Ġ
yu4 Ġdao4ĠleĠ
shou3 Ġyu3Ġ
guan3 Ġhe2Ġ
wu2 Ġli4Ġ
bo2 Ġli3Ġ
shou1 Ġhuo4Ġ
deng1 ĠdeĠ
21 Ġshi4Ġji4Ġ
Ġwei4Ġ qi2
Ġwei4Ġ tai2Ġwan1Ġ
Ġbu4Ġ qiang1Ġ
Ġren2Ġ wen2Ġ
Ġyou3Ġ duo1Ġ
ji1Ġ bai4
wei2Ġ hu4
zheng4Ġ zhi4Ġbu4Ġ
Ġjia1Ġ bin1Ġ
Ġbei4Ġ lie4Ġwei4Ġ
Ġbing4Ġ cheng1Ġ
bei3Ġ mei3
an4Ġ sha1Ġ
bi4Ġ yao4ĠdeĠ
ao4Ġ fu2Ġnie4Ġ
Ġlu4Ġ xu4Ġ
hua2Ġ bei3Ġ
gang3Ġ tie3Ġ
dang3Ġ nei4Ġ
ĠĠĠsheng1Ġ tai4Ġ
Ġh eng1Ġ
Ġyu2Ġ199 6Ġnian2Ġ
ĠĠĠ197 9Ġnian2Ġ
ĠĠĠli4Ġ ru2Ġ
Ġyou2Ġxi4 Ġzhong1Ġ
chi2Ġxu4 Ġdao4Ġ
Ġwo4 Ġer3Ġ
jiang3Ġxue2Ġ jin1Ġ
Ġ zhuo2Ġ
an1 Ġshi2Ġ
feng1 Ġshi4Ġ
gang3 Ġwei4Ġ
pai2 Ġwei4Ġ
wu1 Ġer3Ġ
diao4 ĠleĠ
ha1 Ġbu4Ġsi1Ġ
ro m
pang2 ĠdeĠ
pang2 Ġda4Ġ
Ġzai4Ġ shang4Ġhai3Ġ
Ġbu4Ġ yi2Ġ
Ġdao4Ġ de2
shang4Ġ jiang4Ġ
qu1Ġ zhu2Ġ
Ġzhi1Ġ ming2ĠdeĠ
Ġxue2Ġ ke1Ġ
yao4Ġ wu4
ya4Ġ na4Ġ
ba1Ġ ba1Ġ
dan1Ġ you1Ġ
tong3Ġ yi1ĠdeĠ
huo4Ġ qu3Ġ
Ġwan4 Ġzhang1Ġ
Ġjie2Ġ mu4
zhuan3Ġ yi2Ġzhi4Ġ
Ġtian1Ġ qi3Ġ
Ġwu2Ġ lun4
er4Ġshi2Ġ er4Ġnian2Ġ
Ġzhe4Ġshi4Ġ yin1Ġwei4Ġ
hui3Ġ mie4Ġ
ĠdeĠhe2Ġ liu2Ġ
dong1Ġnan2Ġ ya4
pang2Ġ da4ĠdeĠ
Ġzhan4Ġzheng1 ĠdeĠ
ĠĠĠta1 Ġzai4Ġ
wei2Ġye3Ġ na4Ġ
3 50
4 Ġping2Ġfang1Ġgong1Ġli3Ġ
d ou3
l yĠ
l uo3Ġ
r ao2
t onĠ
Ġ a
Ġ zhan1
Ġ chan3Ġsheng1Ġ
Ġ jiao1Ġtong1Ġ
Ġ tu3Ġer3Ġqi2Ġ
ĠĠĠ te4Ġ
ĠĠĠ zhi1Ġ
jian4 Ġzhi4Ġ
you2 Ġta1Ġ
zi4 Ġyi4Ġ
qi1 Ġxi1Ġ
yan2 Ġzhi1Ġ
san1 Ġzuo4Ġ
zhe3 Ġyou3Ġ
liang3 Ġji2Ġ
fang2 Ġdi4Ġchan3Ġ
zhao4 Ġming2Ġ
ar a
li4Ġ fa3Ġ
Ġxi1Ġ sheng1Ġ
dai4Ġ bu3
shu4Ġ ma3Ġ
Ġdan4 Ġhou4Ġlai2Ġ
la1Ġ tuo1
Ġzhe4Ġ liang3Ġ
luo2Ġ bo2Ġ
Ġxin1Ġ xing1Ġ
er4Ġ ci4Ġ
ban4Ġ zhang3Ġzhou2
zhi1Ġ ziĠ
ying2Ġ jie1Ġ
ke3Ġneng2 Ġyou3Ġ
Ġan1Ġ quan2Ġ
zu2Ġqiu2Ġ chao1Ġji2Ġ
Ġãĥ Ī
Ġjun1Ġshi4Ġ tan3Ġding1Ġ
shu2 Ġxi1Ġ
yin3Ġfa1Ġ leĠ
nei4Ġmeng2Ġgu3Ġ zi4Ġzhi4Ġqu1Ġ
ping1Ġpang1 Ġqiu2Ġ
p eng4
Ġ shan3
Ġ cao3Ġ
ĠĠĠ bi3Ġ
ĠĠĠ yi2Ġge4Ġ
ĠĠĠ ri4Ġben3
ke4 Ġjia1Ġ
jin4 Ġjun1Ġ
ma3 Ġhui4Ġ
12 Ġren2Ġ
xian1 Ġxing2Ġ
xian1 Ġjin4
wan2 Ġju4Ġ
zeng1 Ġyuan2Ġ
wa3 Ġer3Ġhe2Ġ
195 3Ġnian2Ġ
196 3Ġnian2Ġ
chang4 ĠdeĠ
es ĠĠĠ
Ġhe2Ġ S
Ġhe2Ġ sheng1Ġ
Ġbu4Ġ dan4Ġ
Ġshi2Ġ ren2Ġ
Ġta1 Ġdao4Ġ
sheng1Ġ cheng1
Ġming2Ġ gu3Ġ
xia4Ġ you2Ġ
guan1Ġ nian4Ġ
yong4Ġ tu2
Ġdan4 Ġyin1
lai2Ġ leĠ
Ġping2Ġ gu1
Ġzhou1Ġ en1Ġlai2Ġ
chang2Ġ yong4ĠdeĠ
er4Ġ shi2Ġshi4Ġji4Ġ
huo4Ġ bi4
chong2Ġ fan3
ĠĠĠS er
zuo3Ġ pai4Ġ
kan1Ġ sa4Ġsi1Ġ
Ġceng2 Ġwei4Ġ
kai1Ġfa1Ġ qu1Ġ
shuai1Ġ jiao1Ġ
pin1 Ġyin1Ġ
bao3Ġliu2 ĠleĠ
sai1Ġbai4 Ġjiang1Ġ
Ġã Ħ
9 4Ġ
b le
Ġ huan4
Ġ si4Ġnian2Ġ
e4 ĠdeĠ
you2 Ġjian4Ġ
xiang4 Ġgong1Ġzhong4Ġ
ying1 ĠdeĠ
tai4 Ġxue2Ġ
su4 Ġzhi4Ġ
hang2 Ġyuan2Ġ
guan4 Ġming2Ġ
xian2 ĠdeĠ
Ġwei4Ġ le
Ġzai4Ġ guo2Ġji4Ġ
Ġbu4Ġ ru2Ġ
Ġbu4Ġ xu1Ġyao4Ġ
Ġguo2Ġ xiao3Ġ
Ġli4Ġ ti3Ġ
Ġchu1 Ġzhong1Ġ
zhan4Ġ fang2Ġ
fa1Ġ song4Ġ
Ġjin4 Ġbu4Ġ
bei3Ġ han2
la1Ġ ge2Ġ
ke3Ġ chi2Ġxu4Ġ
bian4Ġ ti3Ġ
jing3Ġ fang1
Ġyi3Ġji2Ġ yi1Ġ
zi3Ġ mei4
Ġ19 26Ġnian2Ġ
ĠdeĠyi4Ġ yi4Ġ
Ġquan2 Ġxian4Ġ
guang3Ġxi1Ġ zhuang4Ġ
ĠĠĠxian4 Ġshi2Ġ
yun3Ġshi2Ġ keng1
an4Ġcha2Ġ shi3Ġ
Ġping2Ġfang1Ġqian1Ġmi3 Ġren2Ġ
2 ĠdeĠ
q Ġ
v Ġ
Ġ xie2
ĠĠĠ bo2Ġ
ĠĠĠ xing2Ġtai4Ġ
you2 Ġji4Ġ
jin1 Ġhe2Ġ
zhe3 Ġyu3Ġ
shen1 Ġhou4Ġ
dian3 Ġji2Ġ
li2 Ġjia1Ġ
jin3 Ġwei4Ġ
di2 Ġjun1Ġ
Ġzai4Ġ zhe4
Ġhe2Ġ qi2Ġ
zhi4Ġ li4Ġ
Ġren2Ġ jun1Ġ
Ġzhi4Ġ yi1Ġ
Ġli4Ġ liang4
Ġxing2Ġ li3Ġ
Ġxing2Ġ zhuang4Ġ
yu4Ġ ding4Ġ
Ġdan4 Ġta1ĠmenĠ
qian2Ġ qi1Ġ
quan2Ġ xin1ĠdeĠ
Ġsheng1Ġ zhang3Ġ
Ġshe4Ġ qun2Ġ
san1Ġ xiang4Ġ
lan2Ġ jie2Ġ
dan1Ġ wei4ĠdeĠ
Ġxiang1Ġ xin4
jin4Ġ sheng1Ġwei4Ġ
lun2Ġ te4Ġ
Ġye3Ġ cheng1Ġwei2Ġ
Ġa1Ġ gen1Ġ
Ġzhi2Ġ ye4Ġ
lao2Ġ dong4
ren2Ġkou3Ġshu4Ġliang4 Ġwei4Ġ
Ġer2Ġren2Ġkou3Ġmi4Ġdu4Ġwei4Ġmei3 Ġping2Ġfang1Ġqian1Ġmi3Ġren2Ġ
tou2Ġru4Ġ fu2Ġwu4Ġ
D CĠ
P P
b eng1
Ġ pi1Ġ
Ġ ji3Ġyu3Ġ
jia1 Ġwei4Ġ
qian2 Ġshi4Ġ
wu2 Ġji1Ġ
gai3 Ġshe4Ġ
biao1 Ġshi2Ġ
di2 Ġnan2Ġ
193 8Ġnian2Ġ
Ġshi4Ġ ba1Ġxi1Ġ
Ġda4Ġ bai4Ġ
Ġxing2Ġ sheng3Ġ
Ġxian4Ġ chang3
Ġming2Ġ jiao4Ġ
a1Ġ ken3Ġse4
Ġdan4Ġ que4Ġ
Ġjin4Ġ zhi3
long2Ġ lei4Ġ
xu4Ġ mu4Ġ
3Ġ fen1Ġ
bai2Ġ se4
zhuan3Ġ hua4Ġwei4Ġ
du1Ġ tong3Ġ
Ġt Ġ
Ġ19 24Ġnian2Ġ
ge4Ġ ti3Ġ
Ġbu4Ġtong2 ĠdeĠshi4Ġ
ĠĠĠjia1Ġ jing4Ġ
Ġwei4Ġyu2Ġgai1Ġguo2Ġ dong1Ġbei3Ġbu4Ġ
Ġchong2Ġ zhen1Ġ
Ġ2011Ġnian2Ġ ren2Ġkou3Ġ
wu3Ġtai2Ġ ju4Ġ
Ġli2 Ġxin1Ġ
4 Ġnian2ĠdeĠ
Ġ chao2
Ġ zuo3Ġyou4Ġ
ji ong3
ĠĠĠ wen2Ġ
ĠĠĠ han4Ġ
ĠĠĠ fa1Ġzhan3Ġ
jia1 Ġcheng2Ġ
ci4 Ġzai4Ġ
ti3 Ġshang4Ġ
si4 Ġji4Ġ
10 Ġmi3Ġ
bo1 Ġde2Ġ
ge1 Ġhe2Ġ
ci2 Ġhe2Ġ
chu3 Ġbei4Ġ
Ġcheng2Ġ hua4Ġ
xia4Ġ fang1Ġ
duo1Ġ fu1Ġ
jie1Ġ kou3Ġ
tong1Ġ bao4Ġ
mian4Ġ che1Ġzhan4Ġ
qing1Ġ shui3Ġ
su4Ġ lv4Ġ
wang3Ġ zhan4ĠdeĠ
zheng1Ġ zhao4Ġ
cai3Ġ na4Ġ
ai1Ġ sai1Ġe2Ġ
da3Ġ zao4Ġ
shao3Ġ qing1Ġ
Ġbei3Ġ qi3
ge4Ġ lei4Ġ
Ġjin1 Ġri4Ġ
ji4Ġcheng2Ġ ren2Ġ
O NĠ
Ġ ju1
Ġ ma2Ġ
ĠĠĠ sui2Ġzhu4Ġ
zhan4 Ġgong1Ġ
jun1 Ġwei4Ġ
yi2 Ġren2Ġ
nan2 Ġyue4Ġ
min2 Ġzai4Ġ
kai1 Ġji1Ġ
lin2 Ġzai4Ġ
zi1 Ġshi4Ġ
ta3 Ġsi1Ġ
qiao2 ĠdeĠ
gan3 Ġdao4
tan4 Ġsuo3
Ġshi4Ġ bi4Ġlu3
Ġji2Ġ jin1Ġ
Ġyi1Ġ ben3Ġ
Ġdao4Ġ xi1Ġ
Ġli3Ġ xiang3Ġ
Ġzhou1 Ġwei4Ġ
jie2Ġ zou4Ġ
Ġzhan4Ġ shen2Ġ
liu2Ġ tong1Ġ
ge1Ġ chang4Ġ
Ġzhong1Ġguo2Ġ ren2Ġ
bian1Ġ xie3Ġ
chu1Ġ fa1Ġ
ju3Ġ zhong4Ġ
hen3Ġ rong2Ġyi4Ġ
geng1Ġ xin1
Ġling4 Ġren2Ġ
ping2Ġjun1Ġ jiang4Ġyu3Ġliang4Ġ
suo1Ġ duan3
gui1Ġmo2Ġ zui4Ġda4ĠdeĠ
Ġshe4Ġli4Ġ leĠ
lian2Ġhe2Ġguo2Ġ jiao4Ġke1Ġwen2Ġ
fang1Ġmian4 Ġjun1Ġ
Ġji4Ġhua4 Ġzai4Ġ
jian3Ġcha2Ġ guan1Ġ
Ġpo4Ġ shi3Ġ
ma3Ġke4Ġsi1Ġ zhu3Ġyi4Ġ
Ġxing2Ġzheng4Ġzhong1Ġxin1 Ġwei4Ġ
1 200
u ro
Ġ wan2Ġquan2Ġ
Ġ e2Ġluo2Ġ
ren4 Ġshi4Ġ
sai4 Ġzhi4Ġ
or k
guang1 Ġming2Ġ
gan1 Ġshe4Ġ
bang3 Ġdi4Ġ
Ġhe2Ġ xiao3Ġ
gong1Ġ ren2Ġ
you3Ġ yi1Ġ
Ġzhi4Ġ yuan4Ġ
Ġyi1Ġ fen4Ġ
Ġyi1Ġ bian1Ġ
Ġyuan2Ġ chao2Ġ
zuo4Ġ fa3Ġ
Ġchu1 Ġxian4Ġyu2Ġ
Ġli3Ġ wei2Ġ
Ġjun1 Ġyu3Ġ
jie2Ġ dian3Ġ
chang2Ġ zheng1Ġ
gui1Ġ fan4
Ġben3Ġ pian4Ġ
wei3Ġ chang2Ġwei3Ġ
yan2Ġjiu1Ġ yuan4
Ġnv3Ġ xing4
tao3Ġ fa2
ĠĠĠben3Ġ zhan4Ġ
tong1Ġchang2 Ġhui4Ġ
chu1Ġban3 Ġshe4Ġ
Ġnian2Ġdai4 Ġwei4Ġ
zhi1Ġchi2 Ġxia4Ġ
a1Ġfu4Ġ han4Ġ
5 Ġhao4Ġ
y e1
y ao3Ġ
ge4 Ġji2Ġ
dai4 Ġzhong1Ġ
qi1 Ġri4Ġ
shu ang3Ġ
sai4 Ġer3Ġ
zi3 Ġdi4Ġ
di3 Ġte4Ġ
zang4 Ġli3Ġ
Ġhe2Ġ suan1Ġjian3Ġ
bu4Ġ lie4Ġ
Ġxing2 Ġyu3Ġ
Ġyuan2Ġ xian1
Ġyi3Ġ shang4
Ġyin1 Ġyu3Ġ
lian2Ġ dui4Ġ
Ġdui4Ġ hua4Ġ
gao1Ġ du4
Ġtong2 Ġjin4Ġshi4Ġchu1Ġshen1Ġ
Ġren4Ġ tong2Ġ
qing1Ġ dao3
zong3Ġ bu4Ġwei4Ġyu2Ġ
ying1Ġ shu3Ġ
wei1Ġ fen1Ġ
Ġzhu3Ġ da3Ġ
5Ġ wan4Ġ
tao2Ġ wang2Ġ
ta3Ġ la1Ġ
lu2Ġ wa3Ġer3Ġsheng3Ġ
Ġ5 00Ġ
Ġluo2Ġ bo2Ġte4Ġ
ruo4Ġ gan1
xiao3Ġxing2Ġxing1 Ġdai4Ġ
Ġzhou1Ġli4Ġ da4Ġxue2Ġ
1 ĠdeĠ
5 Ġgong1Ġfen1Ġ
n er
Ġ xuan3Ġju3Ġ
zhi3 Ġyou3Ġyi1Ġ
dan1 Ġxing2Ġ
ba1 ĠdeĠ
tai4 Ġyin1Ġ
guan3 Ġshi4Ġ
nv3 Ġzuo4Ġ
199 0Ġnian2Ġdai4Ġ
chu3 ĠdeĠ
man4 Ġdi4Ġ
ri st
ĠdeĠ nian2
shi2Ġ er4Ġyue4Ġ
Ġbu4Ġ man3
Ġdi4Ġ xia4
Ġzhi4Ġ ding4
da4Ġ lou2Ġ
da4Ġ duo1Ġshu4Ġ
Ġli4Ġ yu3Ġ
si1Ġ ma3Ġ
Ġda4Ġ lu4
Ġming2Ġ e2Ġ
jiao4Ġ xue2
ni2Ġ po1Ġer3Ġ
da3Ġ ru4Ġ
wu1Ġ zi1Ġbie2
dao4Ġ da2Ġ
po4Ġ hai4Ġ
ji3Ġ zhong3Ġ
Ġh Ġ
leĠyi1Ġ fen4Ġ
Ġdi4Ġer4Ġ tian1Ġ
bo2Ġwu4Ġ yuan4Ġ
dai4Ġbiao3 ĠdeĠ
pu3Ġcha2Ġ gui1Ġding4Ġ
gao1Ġer3Ġ fu1
ao4Ġdi4Ġ li4ĠdeĠ
9 8Ġ
Ġ gen1
Ġ mei2Ġti3Ġ
ĠĠĠ zhou1Ġ
ĠĠĠ zhi1Ġhou4Ġ
19 30Ġnian2Ġ
zheng4 Ġjian4Ġ
pi2 Ġer3Ġ
Ġbu4Ġ deng3Ġ
Ġyu2Ġ 7Ġyue4Ġ
Ġli3Ġ you2Ġ
Ġwei2Ġ fan3
zhi2Ġ liu2Ġ
Ġping2Ġ ding4Ġ
an1Ġ quan2ĠdeĠ
zhi3Ġ nan2Ġ
che1Ġ shen1Ġ
fen4Ġ ziĠ
nv3Ġ wang2
2Ġ mian4Ġ2
she4Ġ li4ĠdeĠ
geng4Ġ rong2Ġyi4Ġ
hua1Ġ fei4Ġ
jing1Ġji4Ġ gong1Ġsi1Ġ
yin4Ġdu4Ġ yang2Ġ
Ġbi3Ġ jiao4Ġ
pao4Ġ ta3Ġ
ĠĠĠE x
Ġwei4Ġyu2Ġgai1Ġguo2Ġ xi1Ġnan2Ġbu4Ġ
ir l
rou2 Ġ
ĠĠĠhou4Ġ xu4Ġ
la1Ġding1 Ġyu3Ġ
Window sĠ
fu2Ġluo2Ġli3Ġ da2
ye2Ġlu4Ġsa1Ġ leng3
E PĠ
d sĠ
Ġ yi4
Ġ xue2
Ġ lai4
Ġ shao3Ġ
yue4 Ġwei4Ġ
zhan4 ĠĠĠ
lu4 Ġxian4
mu4 Ġwei4Ġ
zhe3 Ġji2Ġ
mi3 Ġli4Ġ
fei1 Ġsi1Ġ
ni2 Ġshi4Ġ
bian4 Ġshi2Ġ
lou2 Ġti1Ġ
Ġzhong1Ġ cheng2Ġ
Ġyuan2Ġ shuai4Ġ
Ġji4Ġ sheng1Ġ
Ġer2 Ġcheng2Ġwei2Ġ
fu4Ġ za2
Ġbei4Ġ fa1Ġxian4Ġ
jing1Ġ ji4ĠdeĠ
Ġwei2Ġ zhu3ĠdeĠ
Ġzhou1Ġ qu1Ġ
fu2Ġ hao4
tong1Ġ che1
quan2Ġ shu1Ġ
ya4Ġ re4Ġdai4Ġ
si4Ġ miao4Ġ
ba1Ġ te4Ġ
tai4Ġ zong1Ġ
jiu4Ġ ye4Ġ
tong3Ġ zhi4ĠdeĠ
ju1Ġ zhu4ĠdeĠ
Ġzui4Ġ hou4Ġzai4Ġ
Ġ14 0
Ġ190 5Ġnian2Ġ
xi4Ġbao1 ĠdeĠ
Ġbu4Ġzheng4Ġ shi3Ġ
hei1Ġlong2Ġjiang1Ġ sheng3Ġ
p ro
Ġ tu2
Ġ meng2
Ġ fa1Ġxing2
an1 Ġji1Ġ
ĠĠĠ lu4Ġ
ĠĠĠ wai4Ġ
ĠĠĠ ming2Ġcheng1Ġ
yu4 Ġhou4Ġ
wen2 Ġxian4
wai4 Ġyu3Ġ
qing1 Ġxing2Ġ
yan3 Ġchu1ĠdeĠ
na4 Ġbu4Ġ
long2 Ġhe2Ġ
xiu4 Ġji2Ġ
pa4 Ġla1Ġ
ming2Ġ jiao4Ġ
Ġde2 Ġdao4ĠdeĠ
zhu3Ġ yan3ĠdeĠ
shu4Ġ zi4
jiao4Ġ hui4ĠdeĠ
fa1Ġ jue2
zhi2Ġ fa3Ġ
Ġping2Ġ guo3
suo3Ġ zuo4ĠdeĠ
fu2Ġ lang3Ġ
shen1Ġ ye4Ġ
mei3Ġguo2Ġ guo2Ġ
qing1Ġ xie2Ġ
ke1Ġ zhang3Ġ
jiu4Ġ zhi3
ying1Ġguo2Ġ huang2Ġjia1Ġ
po4Ġ shi3Ġ
Ġc enterĠ
chuang4Ġzuo4Ġ leĠ
rao4Ġ tai4Ġyang2Ġ
da2Ġcheng2Ġ xie2Ġyi4Ġ
fei3Ġ cui4
Î ²Ġ
Ġ kan4
Ġ kuang4Ġ
ĠĠĠ zui4Ġ
ĠĠĠ guo2Ġjia1Ġdui4Ġ
zhi1 Ġzhong1Ġ
lai2 Ġyu3Ġ
guan1 Ġli4Ġ
zhong4 Ġyu2Ġ
xing1 Ġshi4Ġ
jin3 Ġzai4Ġ
pei4 Ġer3Ġ
lao3 Ġnian2Ġ
Ġhe2Ġ nei4Ġ
Ġbu4Ġ lu3
Ġguo2Ġ tu3Ġ
si1Ġ zhang3Ġ
Ġyuan2Ġ chuang4Ġ
sheng1Ġ cun2Ġ
Ġjun1 Ġji1Ġ
xiang1Ġ si4
Ġde2Ġ duo1Ġ
min2Ġ bing1Ġ
Ġfu4Ġ za2ĠdeĠ
deng3Ġ zhi2Ġwu4Ġ
xuan3Ġ xiu4Ġ
jin3Ġ mi4Ġ
kong1Ġ jiang4Ġ
wan2Ġ mei3Ġ
Ġdong1Ġ hai3Ġ
zhuan3Ġ tou2Ġ
tan4Ġ tao3
Ġãĥ «
gong1Ġbu4Ġ leĠ
ĠĠĠ194 1Ġnian2Ġ
Ġyu2Ġ199 2Ġnian2Ġ
Ġyi4Ġban1 ĠdeĠ
guo2Ġmin2Ġ dang3Ġ
you3Ġbu4Ġ shao3
Ġa1Ġla1Ġ bo2
da4Ġshi3Ġ guan3Ġ
mao3Ġ ke1Ġ
wang3Ġqiu2 Ġgong1Ġkai1Ġsai4Ġ
ba1Ġji1Ġsi1Ġ tan3
Ġyou2Ġqi2 Ġshi4Ġzai4Ġ
1 Ġhao4Ġxian4Ġ
6 000
E P
K i
O L
c tionĠ
f er
w a4
Ġ jiao1
Ġ xu4
Ġ bing1
Ġ kua4
Ġ juan3
Ġ san1Ġge4Ġ
en ĠĠĠ
ĠĠĠ sai4Ġshi4Ġ
zhong1 ĠdeĠdi4Ġ
she4 Ġzai4Ġ
kai1 Ġzhi1Ġ
ci4 Ġnian2Ġ
ge1 Ġji2Ġ
dian3 Ġhe2Ġ
du1 Ġcheng2Ġ
Ġshi4Ġ zi4Ġ
Ġzhong1Ġ ye3Ġ
you2Ġ tai4
duo1Ġ lun2Ġ
Ġshe4Ġ ying3
shu1Ġ yuan4
ge1Ġ wu3Ġ
Ġ19 11Ġnian2Ġ
ĠP e
xie3Ġ xin4Ġ
Ġfeng1Ġ bao4Ġ
Ġc u1Ġ
jie2Ġgou4 ĠdeĠ
chan3Ġpin3 ĠdeĠ
beng1Ġ kui4Ġ
gui3Ġdian4Ġ che1Ġ
hen2 Ġji4Ġ
t ro
Ġ nai4Ġ
Ġ fa3Ġyu3Ġ
Ġ mao2Ġze2Ġdong1Ġ
ĠĠĠ e2Ġluo2Ġsi1Ġ
dao4 ĠdeĠ
dan4 Ġsheng1Ġ
san1 Ġwei2Ġ
xian1 Ġjin4Ġ
wan1 ĠdeĠ
ar t
Ġwei4Ġ lai2ĠdeĠ
Ġzai4Ġ gai1
di4Ġ qu1ĠdeĠ
Ġren2Ġ wu4
Ġyi4Ġ mei3Ġyuan2ĠdeĠ
Ġyuan2Ġ ze2
sheng1Ġ li3Ġ
Ġxian4Ġ jin1
Ġjun1 Ġbu4Ġ
xiang1Ġ ying4ĠdeĠ
xiang4Ġ qian2Ġ
jiang1Ġ gai1Ġ
ci4Ġ fu2Ġ
yi2Ġ chuan2
Ġhao4 Ġwei4Ġ
hua2Ġ xue3
5Ġ hao2Ġmi3Ġ
Ġta1ĠdeĠ ming2Ġzi4Ġ
zhuan3Ġ bian4Ġwei4Ġ
Ġwan4Ġ mei3Ġyuan2ĠdeĠ
zhang4Ġ hu4Ġ
Ġma3 Ġke4Ġsi1Ġ
Ġch i1Ġ
xuan3Ġze2 ĠleĠ
ag ra
ban4Ġgong1Ġ ting1Ġ
pu3Ġcha2Ġgui1Ġding4Ġ ju1Ġmin2Ġdian3Ġ
Ġ bi3Ġli4Ġshi2Ġ
Ġ 200Ġ
hui4 Ġshi2Ġ
mei3 Ġshi4Ġ
ma3 Ġer3
sai4 Ġcheng2Ġ
wai4 Ġxian4Ġ
luo2 Ġke4Ġ
shen2 Ġming2Ġ
shuo1 Ġdao4Ġ
cai3 ĠdeĠ
di3 Ġzhong1Ġ
Ġgong1Ġ ke4Ġ
Ġyi1Ġ fang1Ġ
shang4Ġ you2Ġ
Ġjia1Ġ qing4Ġ
Ġbei4Ġ po4
Ġdui4Ġ ying4
fen1Ġ xiang3Ġ
Ġshang4Ġ fang1Ġ
Ġfu4Ġ yuan4Ġzhang3Ġ
Ġren4Ġ wu4
jue2Ġ qi3Ġ
yue1Ġ 1Ġ
Ġxiang1Ġ dui4Ġyu2Ġ
ling4Ġ yi1Ġwei4Ġ
xian1Ġ feng1Ġ
qian1Ġ ding4
fan4Ġ shou4Ġ
wu1Ġ ding3
de2Ġ piao4Ġ
heng2Ġ kua4
er4Ġshi2Ġ yi1Ġnian2Ġ
Ġmian4Ġji1Ġ 1Ġ
Ġda4Ġxue2 Ġshi4Ġ
Ġren2Ġkou3 Ġwei4Ġren2Ġ
Ġxi1Ġbei3Ġ jie1Ġ
Ġrang4 Ġta1Ġ
tui4Ġyi4Ġ hou4Ġ
ĠĠĠxia4Ġ shu3Ġwu4Ġzhong3Ġ
mer ic
Ġzhong1Ġguo2Ġguo2Ġmin2Ġ dang3
1 18
3 Ġshi2Ġ
g a2Ġ
n ong4
Ġ or
Ġ nai3Ġ
Ġ mo4Ġxi1Ġge1Ġ
yu3 Ġzhi4Ġ
dui4 Ġyi3Ġ
fu4 Ġxian4Ġ
hua4 Ġhou4Ġ
zhe4 Ġwei4Ġ
mian4 Ġyu3Ġ
shi1 Ġyu3Ġ
xing4 Ġyu2Ġlei4Ġ
su i3Ġ
can1 Ġzhan4Ġ
chen2 ĠdeĠ
huan2 Ġjie2Ġ
fan1 Ġxin1Ġ
Ġzhong1Ġ da4Ġ
cheng2Ġ ren2Ġ
Ġren2Ġ cheng1Ġ
Ġyi4Ġ gang3Ġyuan2Ġ
Ġdao4Ġ le
Ġming2Ġ yu4Ġ
fen1Ġ zi3Ġ
guo4Ġ lai2Ġ
hai3Ġ wan1Ġ
Ġdai4Ġ wei2Ġsi1Ġ
zong3Ġ shu1Ġji4Ġ
1Ġ fen1Ġ
ceng2Ġ mian4Ġ
gai3Ġ zhuang1
shu3Ġ xia4ĠdeĠyi2Ġge4Ġ
ĠdeĠyi1Ġ suo3Ġ
fang2Ġ kong1
ju1Ġ min2ĠdeĠ
tan2Ġ hua4Ġ
Ġxing2Ġzheng4Ġ qu1Ġyu4Ġ
Ġjian1Ġ ren4Ġ
zui4Ġgao1Ġ fa3Ġyuan4Ġ
Ġka3Ġ la1Ġ
jian4Ġzhu4Ġ shi1Ġ
Ġhai3Ġba2Ġgao1Ġdu4Ġ 2Ġ
Ġci4 Ġri4Ġ
bao3Ġjia1 Ġli4Ġya4Ġ
zhuan1Ġke1Ġxue2Ġ xiao4Ġ
A I
Ġ j
ĠĠĠ dan4Ġ
zuo4 Ġda4Ġ
n3 Ġ
xin1 Ġji4Ġshu4Ġ
yan2 Ġyu3Ġ
ba1 Ġyi1Ġ
cha2 Ġhe2Ġ
chi2 ĠdeĠ
jing3 Ġshi4Ġ
ju2 Ġfu4Ġ
pao4 Ġdan4Ġ
Ġyue4Ġ kan1Ġ
ming2Ġ lu4Ġ
dai4Ġ mu4Ġ
Ġyin1 Ġshi4Ġ
shou4Ġ shang1
Ġshe4Ġ ji4
Ġdan4Ġ ye3Ġyou3Ġ
Ġdan4Ġ bai2Ġzhi4Ġ
shu1Ġ mi4Ġ
gou4Ġ wu4
yin3Ġ cang2
fang2Ġ zhi3
Ġwan4 Ġping2Ġfang1Ġmi3Ġ
Ġdong1Ġ bei3Ġbu4Ġ
zhu1Ġ ge3
yin2Ġ pai2
ri4Ġ chang2
you1Ġ hua4Ġ
Ġp Ġ
Ġyou3Ġyi1Ġ tiao2Ġ
zui4Ġgao1Ġ dian3Ġwei4Ġ
ĠĠĠ198 0Ġnian2Ġ
ĠĠĠ197 8Ġnian2Ġ
da1Ġ ying4Ġ
te4Ġbie2 Ġxing2Ġzheng4Ġqu1Ġ
an1Ġde2Ġ lu3Ġ
ĠĠĠjin3Ġ guan3
xia4ĠdeĠyi2Ġge4Ġ shu3Ġ
n aĠ
Ġ shun4Ġ
ai1 Ġsi1Ġ
ji1 Ġzhong1Ġ
wu4 Ġsi1Ġ
wen2 Ġli3Ġ
wai4 Ġyuan2Ġ
shu1 Ġji1Ġ
hui2 ĠleĠ
tuo1 Ġsi1Ġ
ya1 ĠdeĠ
diao1 Ġke4Ġ
Ġshi4Ġ de2Ġguo2ĠdeĠ
Ġda4Ġ lian2Ġ
Ġta1Ġ suo3Ġ
Ġzhi1Ġ nei4Ġ
Ġming2Ġ xian3
Ġwei2Ġ ya4
qi1Ġ wang4Ġ
fen1Ġ hua4Ġ
tai4Ġ zu3Ġ
shui3Ġ mian4Ġ
zi1Ġ xun2
zi1Ġ tai4Ġ
wang3Ġ fan3
Ġguo2Ġjia1Ġ zu2Ġqiu2Ġdui4Ġ
Ġtong2Ġshi2Ġ ye3
tĠ Ã
Ġmei3Ġ tian1Ġ
fa1Ġzhan3 Ġchu1Ġ
pao4Ġ tai2Ġ
que1Ġ dian3Ġ
wen2Ġhua4 Ġhe2Ġ
Ġzai4Ġzhe4Ġ zhong3Ġ
YouTub e
tiv eĠĠĠ
duo1Ġyang4Ġ xing4Ġ
S B
S C
Ġ xian2
Ġ ke3Ġneng2Ġhui4Ġ
sh ao2Ġ
xi1 Ġshi2Ġ
lian2 Ġhui4Ġ
zu3 Ġguo2Ġ
qi4 Ġji2Ġ
meng2 ĠdeĠ
re4 ĠdeĠ
al k
sou1 Ġji2Ġ
bang4 ĠdeĠ
Ġgong1Ġ tou2Ġ
si1Ġ fa3
Ġyi1Ġ zhou1Ġ
Ġyuan2Ġ ben3ĠdeĠ
Ġyu3Ġ lin2Ġ
xin1Ġ zang4
Ġchu1Ġ shen1Ġyu2Ġ
zhu4Ġ zha1
Ġwei2Ġ hu4
mu4Ġ di4
mu4Ġ lu4Ġ
Ġzhe4Ġ jiang1
bi4Ġ nan4Ġ
Ġzi4Ġ shen1Ġ
Ġben3Ġ ci4Ġ
ka3Ġ te4Ġ
chao2Ġ ting2
hai2Ġ ke3Ġyi3Ġ
Ġci3Ġ ju3Ġ
Ġ19 14Ġnian2Ġ
sai1Ġ pu3Ġ
can1Ġyu4Ġ zhe3Ġ
che4Ġ hui2Ġ
zhu3Ġyao4 Ġyou2Ġ
ĠL u
Ġdi4Ġer4 Ġming2Ġ
kun4Ġ rao3Ġ
Ġzu3 Ġji2Ġ
5 Ġzhi4Ġ
Ġ sheng1
Ġ rui4
Ġ ye2Ġ
Ġ zheng4Ġzai4Ġ
Ġ nong2Ġye4Ġ
a1 Ġde2Ġ
zhi1 Ġchu1Ġ
qu1 Ġzai4Ġ
mei3 Ġyue4Ġ
bian4 Ġbu4Ġ
11 Ġge4Ġ
xin4 ĠdeĠ
di2 Ġer3Ġ
tu3 Ġsi1Ġ
piao4 ĠdeĠ
Ġwei4Ġ zheng4Ġ
Ġhe2Ġ you2Ġ
Ġyu2Ġ ke1ĠdeĠqi2Ġzhong1Ġyi1Ġzhong3Ġ
Ġzhi4Ġ zao4ĠdeĠ
Ġli4Ġ fa3Ġyuan4Ġ
Ġgong1Ġ li3
Ġyi1Ġ zhi1
ji1Ġ yin1Ġ
hou4Ġ dai4Ġ
bei4Ġ ren4Ġwei2Ġshi4Ġ
xiang1Ġ cun1
xiang1Ġ lin2Ġ
Ġqi2Ġ dui4Ġ
Ġping2Ġ min2Ġ
qi3Ġ dan1Ġren4Ġ
a1Ġ mu3Ġsi1Ġte4Ġ
shen1Ġ bian1Ġ
Ġxin1Ġ tai2Ġbi4Ġ
2Ġ fen1Ġ
jing3Ġ gao4
luo4Ġ fu1
xu4Ġ yue1Ġ
Ġgai1Ġ xiao3Ġxing2Ġxing1
tao2Ġ tai4
chuang4Ġ zao4ĠleĠ
Ġ19 25Ġnian2Ġ
Ġ19 23Ġnian2Ġ
lu3Ġ xiao3Ġ
Ġjiang1 Ġhui4Ġ
duan3Ġ qi1Ġ
zu2Ġqiu2Ġ xie2Ġhui4Ġ
na2Ġ da4ĠdeĠ
Ġtu2Ġ jing1Ġ
Ġzhong1Ġguo2Ġren2Ġmin2Ġ jie3Ġfang4Ġjun1
Ġli u3Ġ
luo2Ġdi4Ġ ya4
pin4Ġ qing3
la1Ġji1Ġ mi3Ġer3Ġ
Ġren2Ġda4Ġ chang2Ġwei3Ġhui4Ġ
Ġli2Ġxin1Ġ lv4Ġwei4Ġ0
7 Ġshi2Ġ
l lĠ
w ang1
Ġ ×
Ġ dun1Ġ
Ġ da2Ġdao4Ġ
Ġ 28Ġ
ĠĠĠ du4Ġ
ĠĠĠ ya4Ġ
ĠĠĠ yong3Ġ
ĠĠĠ qi2Ġta1
ĠĠĠ jing1Ġguo4Ġ
zhu3 Ġxian4Ġ
ci4 Ġyu3Ġ
yan3 Ġji4Ġ
zhang1 Ġge4Ġren2Ġ
gu4 Ġyuan2Ġ
zhao4 Ġshi4Ġ
kao3 Ġzheng4Ġ
196 1Ġnian2Ġ
zhao1 Ġsheng1Ġ
Ġshi4Ġ ta1Ġ
Ġzai4Ġ 17
Ġzai4Ġ de2Ġguo2Ġ
Ġgong1Ġ dang3Ġ
Ġjia1Ġ shu3Ġ
Ġge4Ġ sheng3Ġ
Ġhui4Ġ mian4Ġ
yan2Ġ ge2ĠdeĠ
min2Ġ hang2Ġ
chuan2Ġ song4Ġ
pai2Ġ chu2Ġ
she4Ġ zhi4ĠdeĠ
Ġjiao4Ġ shi1Ġ
Ġ19 22Ġnian2Ġ
sa4Ġ mo2Ġ
ĠĠĠM an
ĠdeĠyuan2Ġ su4Ġ
ti4Ġ huan4Ġ
Ġ190 3Ġnian2Ġ
shao3Ġshu4Ġ min2Ġzu2Ġ
ha1Ġer3Ġ bin1
Ġzheng4 Ġde2Ġ
Ġer3Ġduo1Ġ nie4Ġ
jiang3Ġzhong1Ġ zheng4Ġ
3 Ġhao4
S A
b en4
f u
h y
p le
ĠĠĠ ma
ĠĠĠ nei4Ġrong2Ġ
shu4 Ġji2Ġ
jie2 Ġke4
zi Ġgong1Ġ
gu4 Ġxiang1Ġ
st e
Ġhe2Ġ qi2Ġta1
Ġshi2Ġ zhong1Ġ
zheng4Ġ zhuang4Ġ
Ġer2 ĠdeĠ
shu4Ġ ci4Ġ
Ġming2Ġ cheng1Ġwei4Ġ
kai1Ġ ban4
Ġbing4Ġ ren4Ġwei2Ġ
bei3Ġ hai3
fu2Ġ gang1
Ġren4Ġ ding4Ġ
yun4Ġ zhuan4ĠdeĠxiao3Ġxing2Ġxing1Ġ
Ġdan4Ġ gai1Ġ
er4Ġ ting1Ġ
mo2Ġ fang3
di3Ġ qi1Ġ
Ġdi4Ġyi1Ġ jie4Ġ
mian4Ġji1 ĠdeĠ
ke3Ġneng2Ġ dao3Ġzhi4Ġ
Ġzhong1Ġyang1Ġ wei3Ġyuan2Ġ
zhong4Ġyao4 Ġzuo4Ġyong4Ġ
ping2Ġjun1Ġ shui3Ġping2Ġ
Ġshi2Ġji4Ġ shang4Ġshi4Ġ
Ġhai3Ġba2Ġgao1Ġdu4Ġ 1Ġ
Ġshi4Ġyi4Ġ hui4Ġ
Ġyong4Ġ hu4Ġ
Ġwei4Ġyu2Ġfa3Ġguo2Ġ xin1Ġa1Ġji1Ġtan3
chuang4Ġli4Ġ leĠ
Ġsheng1Ġwu4Ġ xue2Ġ
qiang3 Ġjie2Ġ
Ġshi4Ġyi1Ġke1Ġ rao4Ġtai4Ġyang2Ġ
Ġshi4Ġxing1Ġdeng3Ġwei4Ġ 6
quan2Ġlei3Ġ da3Ġ
ĠdeĠgui3Ġdao4Ġ ban4Ġzhang3Ġzhou2
ĠĠĠgui3Ġdao4Ġ can1Ġshu4Ġ
zhang1Ġlu4Ġ yin1Ġshi4Ġzhuan1Ġji2Ġ
Ġshi4Ġyi1Ġke1Ġrao4Ġtai4Ġyang2Ġ yun4Ġzhuan4ĠdeĠxiao3Ġxing2Ġxing1Ġ
9 Ġping2Ġfang1Ġgong1Ġli3Ġ
L U
M VĠ
p ha
Ġ ban4
Ġ lun2
Ġ fen4Ġ
ĠĠĠ de2Ġguo2Ġ
xi1 Ġji2Ġ
qi1 Ġgong1Ġcheng2Ġ
si4 Ġji2Ġ
gu3 Ġhe2Ġ
liang3 Ġbu4Ġfen4Ġ
xiao4 Ġyi4Ġ
shuo1 Ġta1Ġ
du1 Ġwei4Ġ
cao3 Ġben3Ġ
ĠdeĠ zi4Ġ
Ġshi4Ġ si1Ġ
Ġzai4Ġ 16
Ġgong1Ġ ru4Ġ
Ġcheng2Ġ du4
Ġda4Ġ pi1Ġ
jie2Ġ meng2Ġ
Ġdui4Ġ kang4
Ġzhan4Ġ lve4
Ġzuo4Ġ luo4Ġyu2Ġ
Ġzhe4Ġ jiu4Ġshi4Ġ
lv4Ġ bo1Ġ
xian4Ġ jin1Ġ
ĠdeĠyi1Ġ chang2Ġ
xing2Ġ mu4Ġ
zhuan3Ġ ru4Ġ
tie3Ġ da2Ġni2
Ġt ai1
ĠĠĠB o
Ġmian4Ġji1Ġ 1
ti4Ġ huan4
jian4Ġli4Ġ leĠ
ka3Ġer3Ġ wa3Ġ
na meĠ
Ġwei2Ġzhu3Ġ xiao3Ġxing2Ġxing1Ġdai4Ġ
lan4Ġ yong4Ġ
pu4 Ġbu4Ġ
qian1Ġshu3 ĠleĠ
ba1Ġle4 Ġsi1Ġtan3Ġ
Ġgong1Ġbu4 Ġwei4Ġdi4Ġ
[...]
