{"!":0,"\"":1,"#":2,"$":3,"%":4,"&":5,"'":6,"(":7,")":8,"*":9,"+":10,",":11,"-":12,".":13,"/":14,"0":15,"1":16,"2":17,"3":18,"4":19,"5":20,"6":21,"7":22,"8":23,"9":24,":":25,";":26,"=":27,"?":28,"@":29,"A":30,"B":31,"C":32,"D":33,"E":34,"F":35,"G":36,"H":37,"I":38,"J":39,"K":40,"L":41,"M":42,"N":43,"O":44,"P":45,"Q":46,"R":47,"S":48,"T":49,"U":50,"V":51,"W":52,"X":53,"Y":54,"Z":55,"[":56,"\\":57,"]":58,"^":59,"_":60,"`":61,"a":62,"b":63,"c":64,"d":65,"e":66,"f":67,"g":68,"h":69,"i":70,"j":71,"k":72,"l":73,"m":74,"n":75,"o":76,"p":77,"q":78,"r":79,"s":80,"t":81,"u":82,"v":83,"w":84,"x":85,"y":86,"z":87,"|":88,"~":89,"¡":90,"¢":91,"£":92,"¤":93,"¥":94,"¦":95,"§":96,"¨":97,"©":98,"ª":99,"«":100,"¬":101,"®":102,"¯":103,"°":104,"±":105,"²":106,"³":107,"´":108,"µ":109,"¶":110,"·":111,"¸":112,"¹":113,"º":114,"»":115,"¼":116,"½":117,"¾":118,"¿":119,"Â":120,"Ã":121,"Ä":122,"Å":123,"Æ":124,"Ç":125,"È":126,"É":127,"Ê":128,"Ë":129,"Ì":130,"Í":131,"Î":132,"Ï":133,"Ð":134,"Ñ":135,"Ò":136,"Ó":137,"Ô":138,"Õ":139,"Ö":140,"×":141,"Ø":142,"Ù":143,"Ú":144,"Û":145,"Ü":146,"Þ":147,"ß":148,"à":149,"á":150,"â":151,"ã":152,"ä":153,"ê":154,"ë":155,"ì":156,"í":157,"î":158,"ï":159,"ð":160,"ñ":161,"Ċ":162,"Ġ":163,"ġ":164,"Ģ":165,"ģ":166,"Ĥ":167,"ĥ":168,"Ħ":169,"ħ":170,"Ĩ":171,"ĩ":172,"Ī":173,"ī":174,"Ĭ":175,"ĭ":176,"Į":177,"į":178,"İ":179,"ı":180,"Ĳ":181,"ĳ":182,"Ĵ":183,"ĵ":184,"Ķ":185,"ķ":186,"ĸ":187,"Ĺ":188,"ĺ":189,"Ļ":190,"ļ":191,"Ľ":192,"ľ":193,"Ŀ":194,"ŀ":195,"Ł":196,"ł":197,"Ń":198,"ng":199,"i4":200,"an":201,"sh":202,"zh":203,"ng1":204,"ji":205,"u4":206,"ng2":207,"ĠĠ":208,"i2":209,"ao":210,"xi":211,"ng4":212,"an2":213,"i3":214,"i1":215,"de":216,"u3":217,"an4":218,"e4":219,"en":220,"ch":221,"uo":222,"u2":223,"ng3":224,"an1":225,"e2":226,"ai4":227,"u1":228,"ĠĠĠ":229,"ong1":230,"a1":231,"ãĢ":232,"shi4":233,"ei4":234,"ao4":235,"ian2":236,"a4":237,"yu":238,"ang1":239,"yo":240,"an3":241,"n1":242,"hu":243,"ang4":244,"nian2":245,"en2":246,"li":247,"ang3":248,"eng2":249,"uo4":250,"uo2":251,"wei4":252,"mi":253,"ao3":254,"zai4":255,"ãĢģ":256,"bi":257,"qi":258,"ang2":259,"e1":260,"he2":261,"yi":262,"eng1":263,"zhong1":264,"er":265,"bu4":266,"ou4":267,"a3":268,"e3":269,"n4":270,"shi2":271,"di4":272,"guo2":273,"ai2":274,"ui4":275,"ren2":276,"ao1":277,"xu":278,"yi1":279,"n2":280,"ong2":281,"yu2":282,"gu":283,"li4":284,"zhi4":285,"di":286,"we":287,"en4":288,"cheng2":289,"ong4":290,"yi4":291,"gong1":292,"ji2":293,"eng4":294,"en1":295,"yue4":296,"you3":297,"yuan2":298,"da4":299,"a2":300,"le":301,"ji4":302,"20":303,"yi3":304,"ju":305,"ai1":306,"pi":307,"xian4":308,"ou1":309,"jia1":310,"si1":311,"xing2":312,"ei3":313,"ti":314,"yu3":315,"ji1":316,"ta1":317,"ri4":318,"zhi1":319,"hou4":320,"li3":321,"ou3":322,"ai3":323,"wei2":324,"hui4":325,"dao4":326,"19":327,"ong3":328,"qi2":329,"uan2":330,"zheng4":331,"ming2":332,"xi1":333,"ao2":334,"jian4":335,"xue2":336,"chu1":337,"ge4":338,"zuo4":339,"uo1":340,"sheng1":341,"dui4":342,"you2":343,"uo3":344,"qu1":345,"shang4":346,"en3":347,"de2":348,"bei4":349,"shi3":350,"zhu":351,"zhan4":352,"n3":353,"xin1":354,"jun1":355,"er3":356,"she4":357,"ren4":358,"fa1":359,"wu4":360,"bing4":361,"ke4":362,"er2":363,"lu4":364,"dai4":365,"zhu3":366,"yi2":367,"shu4":368,"ju4":369,"jin4":370,"zi4":371,"yin1":372,"fu4":373,"fang1":374,"jing1":375,"nan2":376,"hua4":377,"zhou1":378,"ping2":379,"xia4":380,"lai2":381,"yong4":382,"guan1":383,"tong2":384,"yu4":385,"ãĢĭ":386,"ãĢĬ":387,"fa3":388,"zhu4":389,"mei3":390,"Â·":391,"jian1":392,"bo":393,"huo4":394,"ben3":395,"xiang1":396,"zhi2":397,"dong4":398,"xiang4":399,"min2":400,"zhe4":401,"jiang1":402,"qi1":403,"fen1":404,"shou3":405,"quan2":406,"wen2":407,"yan2":408,"suo3":409,"jiao4":410,"qian2":411,"dian4":412,"te4":413,"duo1":414,"zui4":415,"kai1":416,"jie2":417,"lian2":418,"zhi3":419,"xi4":420,"ke3":421,"eng3":422,"ei1":423,"dan4":424,"mu4":425,"ye4":426,"du4":427,"fu2":428,"shu":429,"ma3":430,"ye3":431,"dong1":432,"qiu2":433,"bei3":434,"ãĢĮ":435,"ãĢį":436,"gao1":437,"ya4":438,"ou2":439,"du":440,"jie1":441,"un2":442,"mian4":443,"hai3":444,"zhang3":445,"shi1":446,"jin1":447,"ci3":448,"nei4":449,"sai4":450,"san1":451,"tai2":452,"ge2":453,"xing4":454,"guo4":455,"201":456,"deng3":457,"yao4":458,"che1":459,"ci4":460,"su":461,"mo":462,"ru4":463,"wu3":464,"gai1":465,"ku":466,"ding4":467,"chang2":468,"biao3":469,"la1":470,"ti3":471,"gong4":472,"jie4":473,"shou4":474,"dao3":475,"shan1":476,"chang3":477,"si4":478,"lv":479,"ze2":480,"ti2":481,"ke1":482,"dang1":483,"neng2":484,"er4":485,"wai4":486,"ei2":487,"chu":488,"dan1":489,"qi3":490,"zi":491,"kou3":492,"xiao3":493,"zu3":494,"ba1":495,"jue2":496,"lin2":497,"liu2":498,"ni":499,"sheng3":500,"ying1":501,"lan2":502,"bi3":503,"luo2":504,"tong1":505,"200":506,"zhong4":507,"zhe3":508,"shu3":509,"tian1":510,"zhen4":511,"zhong3":512,"lie4":513,"qi4":514,"cheng1":515,"shu1":516,"yuan4":517,"bao3":518,"tai4":519,"fu3":520,"feng1":521,"mi3":522,"qing1":523,"shen1":524,"wang2":525,"yun4":526,"guan3":527,"fei1":528,"jiu4":529,"gu3":530,"liang3":531,"ceng2":532,"mei2":533,"10":534,"fen4":535,"hao4":536,"yan3":537,"wei3":538,"zong3":539,"xuan3":540,"xiao4":541,"da2":542,"na4":543,"liang4":544,"bo1":545,"zu2":546,"jing4":547,"bao4":548,"ni2":549,"wu2":550,"tong3":551,"hua2":552,"jiao1":553,"yue1":554,"ying3":555,"bian4":556,"xing1":557,"su4":558,"shui3":559,"yang2":560,"men":561,"bao1":562,"ge1":563,"bo2":564,"can1":565,"cong2":566,"dian3":567,"ru2":568,"ban4":569,"bi4":570,"bian1":571,"wang3":572,"qu3":573,"chan3":574,"se4":575,"zi1":576,"qu":577,"00":578,"chuan2":579,"nv":580,"sheng4":581,"ran2":582,"tu2":583,"zhang1":584,"xu4":585,"pu3":586,"gai3":587,"gang3":588,"nv3":589,"ling4":590,"luo4":591,"you4":592,"tou2":593,"hu4":594,"cha2":595,"ce4":596,"chi2":597,"18":598,"lv4":599,"qian1":600,"li2":601,"dou1":602,"12":603,"zheng1":604,"kuo4":605,"sha1":606,"lu":607,"dang3":608,"fan3":609,"gou4":610,"lei4":611,"xi2":612,"jing3":613,"tuan2":614,"wei1":615,"xie1":616,"ling3":617,"long2":618,"gui1":619,"xian1":620,"rong2":621,"huang2":622,"xiang3":623,"ban1":624,"jiu3":625,"ying4":626,"men2":627,"shang1":628,"shen2":629,"202":630,"ban3":631,"ka3":632,"cu":633,"mu3":634,"jin3":635,"fu1":636,"ju3":637,"mo2":638,"guang3":639,"ci2":640,"shuo1":641,"qing2":642,"zhan3":643,"hai2":644,"zhuang1":645,"mo4":646,"cai2":647,"ji3":648,"du2":649,"11":650,"pin3":651,"ting2":652,"chao2":653,"ying2":654,"wo":655,"tiao2":656,"po":657,"jian3":658,"tang2":659,"hui2":660,"duan4":661,"chen2":662,"gen1":663,"mi4":664,"wan4":665,"pai2":666,"wan1":667,"zao4":668,"hang2":669,"wan2":670,"biao1":671,"lun2":672,"199":673,"xie2":674,"jiang3":675,"han4":676,"ju2":677,"fan4":678,"fang2":679,"huo2":680,"gu4":681,"han2":682,"kong1":683,"tie3":684,"meng2":685,"bie2":686,"wu1":687,"jie3":688,"zhuan1":689,"yin3":690,"xu1":691,"zhen1":692,"jia4":693,"bing1":694,"ming4":695,"ling2":696,"hong2":697,"qin1":698,"zi3":699,"lun4":700,"tu":701,"or":702,"xin4":703,"chu4":704,"su1":705,"xiu1":706,"chu3":707,"zong1":708,"15":709,"hu2":710,"que4":711,"xiao1":712,"zhao4":713,"qiang2":714,"qu4":715,"cun1":716,"chong2":717,"pian4":718,"jiu1":719,"fang4":720,"sui2":721,"shou1":722,"geng4":723,"âĢ":724,"guang1":725,"ju1":726,"jia3":727,"chuang4":728,"di2":729,"zhuan3":730,"16":731,"guo3":732,"xun4":733,"man4":734,"pai4":735,"fei4":736,"pei4":737,"198":738,"da3":739,"tuo1":740,"xuan1":741,"chu2":742,"bai2":743,"la":744,"on":745,"zhu1":746,"du1":747,"tu3":748,"diao4":749,"xia2":750,"liu4":751,"17":752,"sui4":753,"hui1":754,"ting1":755,"qie3":756,"ta3":757,"qiao2":758,"ha1":759,"gan3":760,"zeng1":761,"xian3":762,"mai4":763,"huan2":764,"xu3":765,"wa3":766,"tui1":767,"wen4":768,"chao1":769,"tian2":770,"bai3":771,"cai3":772,"liang2":773,"ya2":774,"sa4":775,"ar":776,"bai4":777,"cun2":778,"jiao3":779,"shao3":780,"yan4":781,"zhuang4":782,"di3":783,"huo3":784,"lei2":785,"14":786,"jiang4":787,"chuan1":788,"yin4":789,"zao3":790,"yong3":791,"si3":792,"deng1":793,"30":794,"zhun3":795,"le4":796,"xun2":797,"nuo4":798,"huan4":799,"song4":800,"gao4":801,"lu3":802,"13":803,"194":804,"bang1":805,"lv3":806,"yang4":807,"hen3":808,"qun2":809,"zheng3":810,"guan4":811,"po4":812,"gang1":813,"wo3":814,"197":815,"hua1":816,"lei1":817,"hao3":818,"tao2":819,"kuang4":820,"pi1":821,"dun4":822,"nong2":823,"gei3":824,"sai1":825,"shuang1":826,"lian4":827,"kuai4":828,"in":829,"di1":830,"pan4":831,"xie3":832,"195":833,"kao3":834,"gai4":835,"he4":836,"hei1":837,"wang4":838,"liao4":839,"re4":840,"ge":841,"zuo3":842,"kong4":843,"196":844,"yang1":845,"chang4":846,"yin2":847,"reng2":848,"sen1":849,"bei1":850,"lu2":851,"piao4":852,"ya1":853,"ku4":854,"25":855,"bin1":856,"âĢĶ":857,"rang4":858,"chong1":859,"lou2":860,"bu3":861,"lao3":862,"zhu2":863,"jun4":864,"yang3":865,"rui4":866,"yao1":867,"xian2":868,"xie4":869,"nian4":870,"for":871,"you1":872,"tan2":873,"kang1":874,"pi2":875,"heng2":876,"yun2":877,"kan4":878,"ning2":879,"liao2":880,"shao4":881,"bu2":882,"qing3":883,"chi3":884,"24":885,"mu":886,"dou4":887,"mian3":888,"yong1":889,"tan3":890,"wan3":891,"hu1":892,"ru":893,"fan1":894,"al":895,"tu1":896,"gan1":897,"suan4":898,"ding1":899,"yuan3":900,"wen1":901,"tui4":902,"zhe":903,"st":904,"21":905,"xiu4":906,"ba3":907,"man3":908,"193":909,"23":910,"mula":911,"kang4":912,"formula":913,"28":914,"th":915,"mao2":916,"ruo4":917,"pian1":918,"mao4":919,"lang3":920,"qin2":921,"ba2":922,"na2":923,"zan4":924,"xi3":925,"gui3":926,"gui4":927,"re":928,"pin2":929,"wo4":930,"xiong2":931,"shan4":932,"22":933,"xiong1":934,"me":935,"sui1":936,"26":937,"shen3":938,"qing4":939,"miao2":940,"fang3":941,"50":942,"2020":943,"27":944,"lang2":945,"ou":946,"qiu1":947,"song1":948,"ri":949,"dang4":950,"geng1":951,"qiang1":952,"fa2":953,"zao1":954,"feng4":955,"zhang4":956,"ï¼":957,"hao2":958,"dun1":959,"zou3":960,"hai4":961,"qie4":962,"29":963,"tan4":964,"zu":965,"pao4":966,"pa4":967,"shun4":968,"peng2":969,"xuan2":970,"2010":971,"ni3":972,"000":973,"ding3":974,"niu3":975,"zai3":976,"zhao1":977,"zhui1":978,"lve4":979,"chun1":980,"2019":981,"hun1":982,"kong3":983,"che4":984,"duan1":985,"shen4":986,"xiang2":987,"duan3":988,"gan4":989,"ro":990,"te":991,"kan1":992,"lao2":993,"cao3":994,"2016":995,"si":996,"gu1":997,"pei2":998,"kuan3":999,"za2":1000,"2018":1001,"sun1":1002,"ye2":1003,"ya3":1004,"ra":1005,"po1":1006,"2021":1007,"zha4":1008,"chi4":1009,"duo2":1010,"2014":1011,"fan2":1012,"2011":1013,"2015":1014,"cuo4":1015,"2017":1016,"zhe2":1017,"yao2":1018,"pai1":1019,"tou4":1020,"cang2":1021,"2012":1022,"40":1023,"kai3":1024,"2013":1025,"2022":1026,"mi2":1027,"ruan3":1028,"suan1":1029,"cha1":1030,"zang4":1031,"miao4":1032,"lt":1033,"2009":1034,"zhao3":1035,"2008":1036,"huai2":1037,"ãĥ":1038,"ce":1039,"60":1040,"xue4":1041,"chou2":1042,"se":1043,"bang3":1044,"am":1045,"meng4":1046,"100":1047,"ti4":1048,"pu2":1049,"nao3":1050,"2023":1051,"zhuan4":1052,"gt":1053,"lei3":1054,"190":1055,"31":1056,"cai4":1057,"san4":1058,"mou2":1059,"tion":1060,"hun4":1061,"kuan1":1062,"2007":1063,"ta":1064,"niu2":1065,"mou3":1066,"tao3":1067,"die2":1068,"2001":1069,"teng2":1070,"sou1":1071,"ken3":1072,"qian3":1073,"chang1":1074,"ran3":1075,"que1":1076,"fou3":1077,"sun3":1078,"fo":1079,"ba4":1080,"2000":1081,"80":1082,"kao4":1083,"suo1":1084,"2006":1085,"niao3":1086,"pi3":1087,"chun2":1088,"2024":1089,"lan3":1090,"ãģ":1091,"zai1":1092,"co":1093,"xue3":1094,"hui3":1095,"el":1096,"ma":1097,"luan4":1098,"ting3":1099,"2005":1100,"zun1":1101,"bang4":1102,"la4":1103,"huan1":1104,"rang3":1105,"shui4":1106,"min3":1107,"35":1108,"lai4":1109,"cang1":1110,"70":1111,"fo2":1112,"pan2":1113,"nai4":1114,"wen3":1115,"ne":1116,"cao1":1117,"of":1118,"sang1":1119,"pang2":1120,"90":1121,"bing3":1122,"ï¼į":1123,"ter":1124,"zha1":1125,"ãĤ":1126,"shuai4":1127,"nie4":1128,"hou2":1129,"mei4":1130,"shao1":1131,"nu3":1132,"dong3":1133,"il":1134,"feng2":1135,"mie4":1136,"yun3":1137,"zou4":1138,"mai3":1139,"huai4":1140,"2004":1141,"45":1142,"lo":1143,"yan1":1144,"the":1145,"he":1146,"48":1147,"zhuo2":1148,"at":1149,"and":1150,"tao4":1151,"nai3":1152,"kun1":1153,"2025":1154,"zhen3":1155,"ck":1156,"ru3":1157,"kua4":1158,"kui2":1159,"ãĢī":1160,"ãĢĪ":1161,"gou1":1162,"36":1163,"et":1164,"cui1":1165,"es":1166,"38":1167,"cu4":1168,"shan3":1169,"rou4":1170,"diao1":1171,"2003":1172,"hu3":1173,"guo1":1174,"37":1175,"cui4":1176,"xu2":1177,"is":1178,"mang2":1179,"juan3":1180,"to":1181,"can2":1182,"dian1":1183,"zhan1":1184,"cao2":1185,"189":1186,"IN":1187,"2002":1188,"keng1":1189,"TC":1190,"ma2":1191,"34":1192,"leng3":1193,"deĠ":1194,"ĠdeĠ":1195,"shi4Ġ":1196,"Ġshi4Ġ":1197,"Ġnian2":1198,"Ġnian2Ġ":1199,"wei4Ġ":1200,"zai4Ġ":1201,"Ġwei4Ġ":1202,"Ġzai4Ġ":1203,"he2Ġ":1204,"Ġhe2Ġ":1205,"zhong1Ġ":1206,"bu4Ġ":1207,"di4Ġ":1208,"shi2Ġ":1209,"guo2Ġ":1210,"yu2Ġ":1211,"ren2Ġ":1212,"Ġbu4Ġ":1213,"yi1Ġ":1214,"Ġzhong1Ġ":1215,"li4Ġ":1216,"zhi4Ġ":1217,"gong1Ġ":1218,"Ġshi2Ġ":1219,"yue4Ġ":1220,"ji2Ġ":1221,"cheng2Ġ":1222,"yi4Ġ":1223,"you3Ġ":1224,"Ġdi4Ġ":1225,"Ġyue4Ġ":1226,"Ġyu2Ġ":1227,"Ġren2Ġ":1228,"Ġzhi4Ġ":1229,"da4Ġ":1230,"Ġji2Ġ":1231,"yuan2Ġ":1232,"Ġyou3Ġ":1233,"ji4Ġ":1234,"Ġguo2Ġ":1235,"Ġli4Ġ":1236,"Ġgong1Ġ":1237,"Ġyi4Ġ":1238,"Ġyi3":1239,"Ġcheng2Ġ":1240,"jia1Ġ":1241,"si1Ġ":1242,"yu3Ġ":1243,"Ġxian4":1244,"Ġri4":1245,"Ġyi1Ġ":1246,"Ġxing2":1247,"Ġta1":1248,"li3Ġ":1249,"ji1Ġ":1250,"Ġdao4":1251,"hou4Ġ":1252,"wei2Ġ":1253,"Ġzhi1":1254,"Ġda4Ġ":1255,"Ġyuan2Ġ":1256,"xi1Ġ":1257,"Ġri4Ġ":1258,"Ġge4":1259,"Ġyi3Ġ":1260,"xue2Ġ":1261,"hui4Ġ":1262,"leĠ":1263,"zuo4Ġ":1264,"Ġyu3Ġ":1265,"Ġdao4Ġ":1266,"ming2Ġ":1267,"Ġji4Ġ":1268,"bei4Ġ":1269,"Ġxing2Ġ":1270,"sheng1Ġ":1271,"Ġjian4":1272,"Ġchu1":1273,"Ġqi2":1274,"Ġsi1Ġ":1275,"Ġde2":1276,"zheng4Ġ":1277,"Ġxian4Ġ":1278,"Ġhou4Ġ":1279,"Ġji1Ġ":1280,"dui4Ġ":1281,"shang4Ġ":1282,"qu1Ġ":1283,"shi3Ġ":1284,"Ġer3":1285,"Ġjia1Ġ":1286,"you2Ġ":1287,"Ġta1Ġ":1288,"Ġxi1Ġ":1289,"Ġli3Ġ":1290,"Ġer2":1291,"zhan4Ġ":1292,"Ġjun1":1293,"Ġbing4":1294,"Ġzhi1Ġ":1295,"Ġge4Ġ":1296,"zhu3Ġ":1297,"ren4Ġ":1298,"fu4Ġ":1299,"zi4Ġ":1300,"wu4Ġ":1301,"xin1Ġ":1302,"dai4Ġ":1303,"ju4Ġ":1304,"ping2Ġ":1305,"Ġchu1Ġ":1306,"Ġke4":1307,"Ġzhou1":1308,"xiang1Ġ":1309,"Ġhui4Ġ":1310,"shu4Ġ":1311,"nan2Ġ":1312,"Ġshe4":1313,"Ġbei4Ġ":1314,"Ġming2Ġ":1315,"xia4Ġ":1316,"guan1Ġ":1317,"Ġer3Ġ":1318,"Ġde2Ġ":1319,"lu4Ġ":1320,"yu4Ġ":1321,"hua4Ġ":1322,"Ġjian4Ġ":1323,"jing1Ġ":1324,"yan2Ġ":1325,"fang1Ġ":1326,"Ġyin1":1327,"kai1Ġ":1328,"jian1Ġ":1329,"jiao4Ġ":1330,"fa1Ġ":1331,"yong4Ġ":1332,"Ġdan4":1333,"Ġer2Ġ":1334,"zhu4Ġ":1335,"lai2Ġ":1336,"min2Ġ":1337,"shou3Ġ":1338,"zhe4Ġ":1339,"xiang4Ġ":1340,"wen2Ġ":1341,"Ġjun1Ġ":1342,"xi4Ġ":1343,"qian2Ġ":1344,"ben3Ġ":1345,"te4Ġ":1346,"Ġwei2Ġ":1347,"zhi2Ġ":1348,"fa3Ġ":1349,"qi1Ġ":1350,"jie2Ġ":1351,"lian2Ġ":1352,"Ġbing4Ġ":1353,"dong4Ġ":1354,"dian4Ġ":1355,"Ġqi2Ġ":1356,"Ġke4Ġ":1357,"dong1Ġ":1358,"mu4Ġ":1359,"Ġjin4":1360,"Ġdui4Ġ":1361,"Ġhuo4":1362,"Ġzhan4Ġ":1363,"fen1Ġ":1364,"tai2Ġ":1365,"zhang3Ġ":1366,"du4Ġ":1367,"jiang1Ġ":1368,"Ġqiu2":1369,"Ġping2Ġ":1370,"gao1Ġ":1371,"ye4Ġ":1372,"suo3Ġ":1373,"bei3Ġ":1374,"Ġzhou1Ġ":1375,"shi1Ġ":1376,"ĠleĠ":1377,"duo1Ġ":1378,"an1Ġ":1379,"jie1Ġ":1380,"ge2Ġ":1381,"Ġshang4Ġ":1382,"jin1Ġ":1383,"Ġzheng4Ġ":1384,"fu2Ġ":1385,"Ġzuo4Ġ":1386,"Ġyou2Ġ":1387,"Ġfu4Ġ":1388,"kou3Ġ":1389,"guo4Ġ":1390,"zhi3Ġ":1391,"hai3Ġ":1392,"Ġtong2":1393,"Ġren4Ġ":1394,"ma3Ġ":1395,"ru4Ġ":1396,"tong1Ġ":1397,"zui4Ġ":1398,"quan2Ġ":1399,"Ġsheng1Ġ":1400,"ci3Ġ":1401,"Ġxue2Ġ":1402,"xing4Ġ":1403,"wai4Ġ":1404,"nei4Ġ":1405,"la1Ġ":1406,"ti3Ġ":1407,"jue2Ġ":1408,"ke3Ġ":1409,"qi3Ġ":1410,"shan1Ġ":1411,"tian1Ġ":1412,"deng3Ġ":1413,"chang3Ġ":1414,"zhen4Ġ":1415,"wu3Ġ":1416,"chang2Ġ":1417,"ziĠ":1418,"yao4Ġ":1419,"bi3Ġ":1420,"a1Ġ":1421,"Ġju4Ġ":1422,"bao3Ġ":1423,"mi3Ġ":1424,"ya4Ġ":1425,"Ġyin1Ġ":1426,"mian4Ġ":1427,"ci4Ġ":1428,"gai1Ġ":1429,"shou4Ġ":1430,"jie4Ġ":1431,"ye3Ġ":1432,"zhong4Ġ":1433,"yi2Ġ":1434,"Ġshe4Ġ":1435,"feng1Ġ":1436,"zhong3Ġ":1437,"liu2Ġ":1438,"che1Ġ":1439,"yun4Ġ":1440,"Ġzhe4Ġ":1441,"lin2Ġ":1442,"bao1Ġ":1443,"sai4Ġ":1444,"ding4Ġ":1445,"yi2Ġge4Ġ":1446,"shen1Ġ":1447,"Ġdai4Ġ":1448,"sheng3Ġ":1449,"Ġdan4Ġ":1450,"luo2Ġ":1451,"an4Ġ":1452,"qi4Ġ":1453,"san1Ġ":1454,"xiao3Ġ":1455,"mei3Ġguo2Ġ":1456,"neng2Ġ":1457,"shu1Ġ":1458,"ze2Ġ":1459,"zhe3Ġ":1460,"lie4Ġ":1461,"xuan3Ġ":1462,"si4Ġ":1463,"qing1Ġ":1464,"Ġqiu2Ġ":1465,"yuan4Ġ":1466,"jing4Ġ":1467,"ba1Ġ":1468,"wang2Ġ":1469,"ke1Ġ":1470,"tai4Ġ":1471,"lan2Ġ":1472,"bao4Ġ":1473,"ying3Ġ":1474,"Ġhuo4Ġ":1475,"zong3Ġ":1476,"bi4Ġ":1477,"fu3Ġ":1478,"dao3Ġ":1479,"gu3Ġ":1480,"ying1Ġ":1481,"Ġhao4":1482,"Ġxin1Ġ":1483,"Ġxia4Ġ":1484,"fen4Ġ":1485,"ge1Ġ":1486,"xiao4Ġ":1487,"yue1Ġ":1488,"Ġzi4Ġ":1489,"jiao1Ġ":1490,"ni2Ġ":1491,"na4Ġ":1492,"shui3Ġ":1493,"zi1Ġ":1494,"ao4Ġ":1495,"er4Ġ":1496,"Ġmi3Ġ":1497,"pu3Ġ":1498,"dan1Ġ":1499,"biao3Ġ":1500,"liang4Ġ":1501,"guan3Ġ":1502,"tou2Ġ":1503,"1Ġ":1504,"chuan2Ġ":1505,"su4Ġ":1506,"wu2Ġ":1507,"ru2Ġ":1508,"xing1Ġ":1509,"bo1Ġ":1510,"nv3Ġ":1511,"yan3Ġ":1512,"Ġzhu4Ġ":1513,"bo2Ġ":1514,"fei1Ġ":1515,"ti2Ġ":1516,"se4Ġ":1517,"mei3Ġ":1518,"da2Ġ":1519,"cheng1Ġ":1520,"Ġzhong1Ġguo2Ġ":1521,"Ġdang1":1522,"Ġjin4Ġ":1523,"Ġlu4Ġ":1524,"Ġwei4Ġyu2Ġ":1525,"ceng2Ġ":1526,"Ġxiang1Ġ":1527,"chan3Ġ":1528,"2Ġ":1529,"bian4Ġ":1530,"tu2Ġ":1531,"Ġnan2Ġ":1532,"gui1Ġ":1533,"Ġran2":1534,"Ġyu4Ġ":1535,"yang2Ġ":1536,"zhang1Ġ":1537,"dian3Ġ":1538,"gai3Ġ":1539,"cong2Ġ":1540,"jiu4Ġ":1541,"wang3Ġ":1542,"sha1Ġ":1543,"zu3Ġ":1544,"hua2Ġ":1545,"lv4Ġ":1546,"sheng4Ġ":1547,"bao1Ġkuo4":1548,"jian3Ġ":1549,"shu3Ġ":1550,"Ġben3Ġ":1551,"gang3Ġ":1552,"jing3Ġ":1553,"qing2Ġ":1554,"zu2Ġ":1555,"ban4Ġ":1556,"liang3Ġ":1557,"tong3Ġ":1558,"shang1Ġ":1559,"gong4Ġ":1560,"hu4Ġ":1561,"li2Ġ":1562,"tong2Ġ":1563,"long2Ġ":1564,"jin4Ġ":1565,"bian1Ġ":1566,"luo4Ġ":1567,"xu4Ġ":1568,"chi2Ġ":1569,"mei2Ġ":1570,"jin3Ġ":1571,"ban1Ġ":1572,"guang3Ġ":1573,"ce4Ġ":1574,"chu1Ġ":1575,"zheng1Ġ":1576,"shen2Ġ":1577,"mi4Ġ":1578,"Ġta1Ġmen":1579,"zhi1Ġ":1580,"ling3Ġ":1581,"wei1Ġ":1582,"you4Ġ":1583,"fan3Ġ":1584,"ting2Ġ":1585,"e2Ġ":1586,"xi2Ġ":1587,"huo2Ġ":1588,"cha2Ġ":1589,"ka3Ġ":1590,"gou4Ġ":1591,"cai2Ġ":1592,"Ġgai1Ġ":1593,"3Ġ":1594,"men2Ġ":1595,"xiang3Ġ":1596,"shuo1Ġ":1597,"ci2Ġ":1598,"wei3Ġ":1599,"qu3Ġ":1600,"mu3Ġ":1601,"jiang3Ġ":1602,"lei4Ġ":1603,"tuan2Ġ":1604,"jian4Ġ":1605,"chao2Ġ":1606,"ying4Ġ":1607,"Ġgong1Ġli3Ġ":1608,"yin3Ġ":1609,"yan2Ġjiu1":1610,"xie1Ġ":1611,"tang2Ġ":1612,"qi2Ġ":1613,"chen2Ġ":1614,"pin3Ġ":1615,"Ġduo1Ġ":1616,"jia4Ġ":1617,"Ġyi3Ġji2Ġ":1618,"Ġzhu3Ġ":1619,"jie3Ġ":1620,"hang2Ġ":1621,"shi3Ġyong4Ġ":1622,"yi3Ġ":1623,"lun2Ġ":1624,"rong2Ġ":1625,"fu1Ġ":1626,"jiu3Ġ":1627,"pai2Ġ":1628,"Ġyou2":1629,"ling4Ġ":1630,"Ġhao4Ġ":1631,"tai2Ġwan1":1632,"huang2Ġ":1633,"dang3Ġ":1634,"xu1Ġ":1635,"duan4Ġ":1636,"ĠdeĠdi4Ġ":1637,"xian1Ġ":1638,"ai4Ġ":1639,"ke3Ġyi3Ġ":1640,"ke4Ġ":1641,"ying2Ġ":1642,"mo2Ġ":1643,"5Ġ":1644,"can1Ġ":1645,"tiao2Ġ":1646,"biao1Ġ":1647,"zhan3Ġ":1648,"xian4Ġ":1649,"ban3Ġ":1650,"ĠdeĠyi1Ġ":1651,"kai1Ġshi3Ġ":1652,"qian1Ġ":1653,"Ġcheng2Ġwei2Ġ":1654,"han4Ġ":1655,"hong2Ġ":1656,"yin1Ġ":1657,"mei2Ġyou3Ġ":1658,"wei3Ġyuan2Ġ":1659,"ling2Ġ":1660,"Ġtong2Ġ":1661,"xiao1Ġ":1662,"ju2Ġ":1663,"meng2Ġ":1664,"kong1Ġ":1665,"hui2Ġ":1666,"su1Ġ":1667,"zhuang1Ġ":1668,"fang2Ġ":1669,"bao1Ġkuo4Ġ":1670,"cun1Ġ":1671,"9Ġnian2Ġ":1672,"4Ġ":1673,"ren2Ġkou3Ġ":1674,"xing2Ġ":1675,"Ġqi2Ġzhong1Ġ":1676,"huo4Ġ":1677,"Ġgong1Ġsi1Ġ":1678,"zi3Ġ":1679,"dou1Ġ":1680,"6Ġnian2Ġ":1681,"ĠdeĠshi4Ġ":1682,"ĠĠĠzai4Ġ":1683,"zhao4Ġ":1684,"qiang2Ġ":1685,"du2Ġ":1686,"8Ġnian2Ġ":1687,"zheng4Ġzhi4Ġ":1688,"bing1Ġ":1689,"yi2Ġge4":1690,"mo4Ġ":1691,"sĠ":1692,"cai3Ġ":1693,"fa3Ġguo2Ġ":1694,"5Ġnian2Ġ":1695,"qin1Ġ":1696,"ai1Ġ":1697,"hai2Ġ":1698,"chu4Ġ":1699,"Ġda4Ġxue2Ġ":1700,"hu2Ġ":1701,"Ġshi4Ġyi1Ġ":1702,"zhen1Ġ":1703,"Ġta1ĠdeĠ":1704,"Ġwan4":1705,"lun4Ġ":1706,"Ġgao1Ġ":1707,"fan4Ġ":1708,"guang1Ġ":1709,"2Ġnian2Ġ":1710,"man4Ġ":1711,"an3Ġ":1712,"wen4Ġ":1713,"she4Ġ":1714,"7Ġnian2Ġ":1715,"4Ġnian2Ġ":1716,"ju1Ġ":1717,"biao3Ġshi4Ġ":1718,"Ġxiang4Ġ":1719,"zhong1ĠdeĠ":1720,"que4Ġ":1721,"zhuan1Ġ":1722,"wan2Ġ":1723,"diao4Ġ":1724,"3Ġnian2Ġ":1725,"bai2Ġ":1726,"da3Ġ":1727,"6Ġ":1728,"Ġjiao4Ġ":1729,"ju3Ġ":1730,"dian4Ġshi4Ġ":1731,"han2Ġ":1732,"fei4Ġ":1733,"Ġshi4Ġwei4Ġ":1734,"xun4Ġ":1735,"pian4Ġ":1736,"ming4Ġ":1737,"shi4ĠdeĠ":1738,"Ġdong1Ġ":1739,"Ġmu4Ġ":1740,"tuo1Ġ":1741,"Ġdu4Ġ":1742,"Ġjin1Ġ":1743,"gu4Ġ":1744,"1Ġnian2Ġ":1745,"Ġte4Ġ":1746,"guo3Ġ":1747,"Ġfen1Ġ":1748,"Ġbu4Ġfen4Ġ":1749,"xiu1Ġ":1750,"0Ġnian2Ġ":1751,"ta1Ġ":1752,"Ġren2Ġkou3Ġ":1753,"xie2Ġ":1754,"zao4Ġ":1755,"Ġhe2Ġguo2Ġ":1756,"zhong1Ġguo2Ġ":1757,"10Ġyue4Ġ":1758,"Ġjiang1Ġ":1759,"shou1Ġ":1760,"xin4Ġ":1761,"dang1Ġ":1762,"Ġjie2Ġ":1763,"12Ġyue4Ġ":1764,"7Ġyue4Ġ":1765,"Ġye3Ġ":1766,"Ġzui4":1767,"9Ġyue4Ġ":1768,"zhuan3Ġ":1769,"wu1Ġ":1770,"dao4Ġ":1771,"mian4Ġji1Ġ":1772,"Ġren2Ġmin2Ġ":1773,"8Ġyue4Ġ":1774,"xun2Ġ":1775,"Ġdi4Ġqu1Ġ":1776,"3Ġyue4Ġ":1777,"jia3Ġ":1778,"xia2Ġ":1779,"1Ġyue4Ġ":1780,"gan3Ġ":1781,"di2Ġ":1782,"huan2Ġ":1783,"sĠĠĠ":1784,"zhu1Ġ":1785,"5Ġyue4Ġ":1786,"di3Ġ":1787,"ting1Ġ":1788,"ying1Ġguo2Ġ":1789,"Ġci3Ġ":1790,"Ġguo4Ġ":1791,"Ġjing1Ġ":1792,"zhou1Ġ":1793,"zheng4Ġshi4Ġ":1794,"huo3Ġ":1795,"chong2Ġ":1796,"Ġshi1Ġ":1797,"6Ġyue4Ġ":1798,"zhuang4Ġ":1799,"Ġye3":1800,"cheng2Ġshi4Ġ":1801,"4Ġyue4Ġ":1802,"Ġshou3Ġ":1803,"Ġsuo3Ġ":1804,"Ġguo2Ġjia1Ġ":1805,"geng4Ġ":1806,"tian2Ġ":1807,"ĠĠĠdi4Ġ":1808,"fang4Ġ":1809,"yong3Ġ":1810,"jun1Ġ":1811,"ao3Ġ":1812,"shu3Ġyu2Ġ":1813,"Ġping2Ġfang1":1814,"po4Ġ":1815,"Ġdi4Ġyi1Ġ":1816,"qu4Ġ":1817,"qun2Ġ":1818,"11Ġyue4Ġ":1819,"tao2Ġ":1820,"jiang4Ġ":1821,"ĠĠĠS":1822,"Ġshi4Ġji4Ġ":1823,"Ġping2Ġfang1Ġgong1Ġli3Ġ":1824,"gen1Ġ":1825,"Ġru2Ġ":1826,"Ġtong2Ġshi2Ġ":1827,"dan1Ġren4Ġ":1828,"ĠC":1829,"Ġqian2Ġ":1830,"bie2Ġ":1831,"ji3Ġ":1832,"hui1Ġ":1833,"tie3Ġ":1834,"pai4Ġ":1835,"liang2Ġ":1836,"du1Ġ":1837,"shao3Ġ":1838,"ta3Ġ":1839,"nong2Ġ":1840,"zong1Ġ":1841,"dian4Ġying3Ġ":1842,"en1Ġ":1843,"chu3Ġ":1844,"er3Ġ":1845,"si3Ġ":1846,"shuang1Ġ":1847,"qiao2Ġ":1848,"ĠS":1849,"Ġzhe4":1850,"ĠdeĠshi2Ġ":1851,"tai2Ġwan1Ġ":1852,"Ġt":1853,"Ġma3Ġ":1854,"gen1Ġju4Ġ":1855,"li4Ġshi3Ġ":1856,"7Ġ":1857,"gao4Ġ":1858,"chu2Ġ":1859,"bai4Ġ":1860,"Ġshi4Ġzhen4Ġ":1861,"Ġdeng3Ġ":1862,"can1Ġjia1Ġ":1863,"yun4Ġdong4":1864,"Ġtian1Ġ":1865,"che1Ġzhan4Ġ":1866,"guo2ĠdeĠ":1867,"qi1Ġjian1Ġ":1868,"Ġyin1Ġwei4Ġ":1869,"gang1Ġ":1870,"Ġri4Ġben3Ġ":1871,"zheng4Ġfu3Ġ":1872,"Ġping2Ġfang1Ġ":1873,"li4ĠdeĠ":1874,"pan4Ġ":1875,"gai4Ġ":1876,"Ġnian2ĠdeĠ":1877,"bing4Ġ":1878,"yan4Ġ":1879,"jiao3Ġ":1880,"wa3Ġ":1881,"zhun3Ġ":1882,"ya2Ġ":1883,"hei1Ġ":1884,"wo3Ġ":1885,"gong4Ġhe2Ġguo2Ġ":1886,"Ġxian4ĠdeĠ":1887,"yin2Ġ":1888,"ha1Ġ":1889,"song4Ġ":1890,"fa1Ġxian4Ġ":1891,"huan4Ġ":1892,"chuang4Ġ":1893,"formulaĠ":1894,"lei2Ġ":1895,"ou1Ġ":1896,"qu1ĠdeĠ":1897,"Ġ19":1898,"hen3Ġ":1899,"ti2Ġgong1Ġ":1900,"yan2Ġjiu1Ġ":1901,"Ġhai3Ġ":1902,"jin4Ġxing2Ġ":1903,"hua1Ġ":1904,"Ġbei3Ġ":1905,"2Ġyue4Ġ":1906,"jing1Ġji4Ġ":1907,"tong1Ġguo4Ġ":1908,"chuan1Ġ":1909,"qie3Ġ":1910,"ĠA":1911,"sui2Ġ":1912,"Ġfu2Ġ":1913,"Ġzhong1Ġyang1":1914,"Ġguo2Ġji4Ġ":1915,"Ġ199":1916,"kao3Ġ":1917,"shang4ĠdeĠ":1918,"lei1Ġ":1919,"Ġyou2Ġyu2Ġ":1920,"ĠĠĠC":1921,"wei3Ġyuan2Ġhui4Ġ":1922,"bai3Ġ":1923,"Ġyou4Ġ":1924,"deng1Ġ":1925,"cheng1Ġwei2Ġ":1926,"Ġshi4Ġjie4Ġ":1927,"8Ġ":1928,"Ġyin1Ġci3Ġ":1929,"9Ġ":1930,"nuo4Ġ":1931,"ming2Ġwei4Ġ":1932,"Ġta1ĠmenĠ":1933,"Ġjin4Ġxing2Ġ":1934,"tu3Ġ":1935,"chong1Ġ":1936,"Ġshi4Ġzai4Ġ":1937,"zhu3Ġyi4Ġ":1938,"qiu2Ġ":1939,"kuai4Ġ":1940,"Ġran2Ġ":1941,"hao4Ġ":1942,"Ġzhi1Ġhou4Ġ":1943,"mai4Ġ":1944,"lian4Ġ":1945,"Ġ18":1946,"shi2ĠdeĠ":1947,"xi4Ġtong3Ġ":1948,"xiang1Ġgang3Ġ":1949,"sa4Ġ":1950,"pei4Ġ":1951,"lu2Ġ":1952,"liao4Ġ":1953,"quan2Ġguo2Ġ":1954,"lu3Ġ":1955,"piao4Ġ":1956,"aĠ":1957,"chi3Ġ":1958,"Ġsuo3":1959,"de2Ġ":1960,"kuang4Ġ":1961,"zeng1Ġ":1962,"Ġxing2ĠdeĠ":1963,"ren2ĠdeĠ":1964,"xuan1Ġ":1965,"Ġzui4Ġ":1966,"ri4Ġ":1967,"i1Ġ":1968,"xu3Ġ":1969,"guan3Ġli3Ġ":1970,"ĠM":1971,"Ġgong1Ġzuo4Ġ":1972,"Ġzhi1Ġyi1Ġ":1973,"Ġshi3Ġ":1974,"e1Ġ":1975,"Ġdang1Ġ":1976,"ĠĠĠM":1977,"Ġmei3":1978,"di1Ġ":1979,"e4Ġ":1980,"heng2Ġ":1981,"bu3Ġ":1982,"da4ĠdeĠ":1983,"sui4Ġ":1984,"yang4Ġ":1985,"tui1Ġ":1986,"Ġzhong1Ġxin1Ġ":1987,"pi1Ġ":1988,"xuan1Ġbu4Ġ":1989,"zao3Ġ":1990,"menĠ":1991,"sen1Ġ":1992,"a4Ġ":1993,"wang4Ġ":1994,"zu3Ġzhi1Ġ":1995,"pi2Ġ":1996,"bu4ĠdeĠ":1997,"chang4Ġ":1998,"Ġbao1Ġkuo4Ġ":1999,"yang3Ġ":2000,"ying3Ġxiang3Ġ":2001,"Ġta1Ġzai4Ġ":2002,"he4Ġ":2003,"qian1Ġmi3Ġ":2004,"er2Ġ":2005,"sai1Ġ":2006,"ĠĠĠsheng1Ġ":2007,"Ġhuo4Ġde2Ġ":2008,"liu4Ġ":2009,"2020Ġnian2Ġ":2010,"luo2Ġsi1Ġ":2011,"cheng2ĠdeĠ":2012,"Ġshi4Ġjie4":2013,"Ġying1Ġ":2014,"Ġwen2Ġ":2015,"Ġgai1":2016,"dun4Ġ":2017,"ke3Ġneng2":2018,"bang1Ġ":2019,"ang1Ġ":2020,"xian2Ġ":2021,"Ġh":2022,"nian4Ġ":2023,"qi2Ġta1Ġ":2024,"eĠ":2025,"Ġqing1Ġ":2026,"Ġcheng2Ġli4Ġ":2027,"leĠyi1Ġ":2028,"huo2Ġdong4Ġ":2029,"Ġ198":2030,"Ġren4Ġwei2Ġ":2031,"you1Ġ":2032,"fa1Ġzhan3Ġ":2033,"ya1Ġ":2034,"ĠĠĠA":2035,"ao1Ġ":2036,"ke1Ġxue2Ġ":2037,"ku4Ġ":2038,"Ġlian2Ġ":2039,"hao3Ġ":2040,"huo4Ġde2Ġ":2041,"le4Ġ":2042,"Ġa1Ġ":2043,"tĠ":2044,"jun4Ġ":2045,"Ġzuo4Ġwei2Ġ":2046,"Ġping2Ġfang1Ġqian1Ġmi3Ġ":2047,"lao3Ġ":2048,"lou2Ġ":2049,"re4Ġ":2050,"hua2Ġren2Ġmin2Ġ":2051,"ri4Ġben3Ġ":2052,"bei1Ġ":2053,"Ġwu2Ġ":2054,"hui4Ġyi4Ġ":2055,"ĠT":2056,"tan2Ġ":2057,"jian1ĠdeĠ":2058,"Ġshu4Ġ":2059,"tie3Ġlu4Ġ":2060,"bi3Ġsai4Ġ":2061,"ĠdeĠren2Ġ":2062,"liao2Ġ":2063,"yong4Ġyu2Ġ":2064,"mian3Ġ":2065,"Ġ5":2066,"Ġshi2Ġjian1Ġ":2067,"ning2Ġ":2068,"ge4Ġ":2069,"2010Ġnian2Ġ":2070,"rui4Ġ":2071,"ĠdeĠgong1Ġ":2072,"Ġzhi2":2073,"Ġzh":2074,"Ġzhang1Ġ":2075,"mian4Ġji1":2076,"ĠB":2077,"min2Ġguo2Ġ":2078,"xian3Ġ":2079,"wu1Ġke4Ġ":2080,"yin4Ġ":2081,"zhu3Ġyao4Ġ":2082,"zuo3Ġ":2083,"gan1Ġ":2084,"gong4Ġyou3Ġ":2085,"ĠĠĠli4Ġshi3Ġ":2086,"ran2Ġ":2087,"ĠĠĠP":2088,"dou4Ġ":2089,"wen4Ġti2Ġ":2090,"ĠĠĠsheng1Ġping2Ġ":2091,"hua2Ġren2Ġmin2Ġgong4Ġhe2Ġguo2Ġ":2092,"yuan3Ġ":2093,"fang1Ġshi4Ġ":2094,"fa1Ġsheng1Ġ":2095,"zheng3Ġ":2096,"u1Ġ":2097,"kang1Ġ":2098,"guan4Ġjun1Ġ":2099,"ke3Ġneng2Ġ":2100,"cun2Ġ":2101,"Ġnian2Ġ1Ġyue4Ġ":2102,"Ġdi4Ġer4Ġ":2103,"di4ĠdeĠ":2104,"ĠP":2105,"dao3Ġzhi4Ġ":2106,"guan1Ġxi4Ġ":2107,"Ġcong2Ġ":2108,"geĠ":2109,"can1Ġyu4Ġ":2110,"yĠ":2111,"dai4Ġbiao3Ġ":2112,"Ġlai2Ġ":2113,"fen1Ġbu4Ġ":2114,"Ġgong1Ġcheng2Ġ":2115,"wan2Ġcheng2Ġ":2116,"dan1Ġwei4Ġ":2117,"xie4Ġ":2118,"Ġ15":2119,"yi1Ġwei4Ġ":2120,"Ġquan2Ġ":2121,"wen2Ġhua4Ġ":2122,"Ġluo2Ġ":2123,"suo3Ġyou3Ġ":2124,"Ġnian2Ġ12Ġyue4Ġ":2125,"1Ġri4Ġ":2126,"Ġbu4Ġfen4":2127,"Ġshan1Ġ":2128,"zhi4ĠdeĠ":2129,"lv3Ġ":2130,"gei3Ġ":2131,"Ġyan2Ġ":2132,"Ġcheng2Ġyuan2Ġ":2133,"Ġjin3Ġ":2134,"ĠdeĠcheng2Ġ":2135,"Ġ194":2136,"ĠĠĠB":2137,"Ġliu2Ġ":2138,"00Ġ":2139,"AĠ":2140,"Ġwan4Ġ":2141,"yuan2ĠdeĠ":2142,"Ġze2Ġ":2143,"yong1Ġyou3Ġ":2144,"cun2Ġzai4Ġ":2145,"er4Ġshi2Ġ":2146,"Ġzong3Ġ":2147,"Ġxiao3Ġ":2148,"bei3Ġbu4Ġ":2149,"Ġzhi2Ġ":2150,"ang2Ġ":2151,"lian2Ġhe2Ġ":2152,"Ġ4":2153,"Ġwu3Ġ":2154,"hou4ĠdeĠ":2155,"niu3Ġ":2156,"ĠD":2157,"you2Ġyu2Ġ":2158,"Ġshi4Ġzhong1Ġ":2159,"guo2Ġjia1Ġ":2160,"dui4Ġyu2Ġ":2161,"fa1Ġxing2Ġ":2162,"yi4ĠdeĠ":2163,"ju4Ġyou3Ġ":2164,"Ġjian4Ġzhu4Ġ":2165,"Ġzhi3Ġ":2166,"Ġbing4Ġzai4Ġ":2167,"Ġdao4ĠleĠ":2168,"xin1ĠdeĠ":2169,"shen3Ġ":2170,"ĠĠĠT":2171,"si1ĠdeĠ":2172,"zi4Ġji3":2173,"zheng4Ġfu3":2174,"bin1Ġ":2175,"yun4Ġdong4Ġ":2176,"Ġtong1Ġ":2177,"Ġba1Ġ":2178,"xing2Ġzheng4Ġ":2179,"yin4Ġdu4Ġ":2180,"e2Ġluo2Ġsi1Ġ":2181,"tu1Ġ":2182,"Ġmian4Ġji1Ġ":2183,"xu3Ġduo1Ġ":2184,"shao4Ġ":2185,"yun2Ġ":2186,"Ġdan4Ġshi4Ġ":2187,"Ġmei3Ġguo2Ġ":2188,"ren4Ġhe2Ġ":2189,"Ġling4Ġ":2190,"sheng1Ġyu2Ġ":2191,"gui4Ġ":2192,"Ġzhi3":2193,"bao3Ġhu4Ġ":2194,"Ġ16":2195,"liang3Ġge4Ġ":2196,"xiu4Ġ":2197,"ding1Ġ":2198,"che4Ġ":2199,"Ġnian2Ġ3Ġyue4Ġ":2200,"Ġren2Ġkou3Ġmi4Ġ":2201,"zhu3Ġyao4":2202,"dĠ":2203,"man3Ġ":2204,"zhang4Ġ":2205,"xuan2Ġ":2206,"ĠdeĠyi2Ġge4Ġ":2207,"nan2Ġbu4Ġ":2208,"ju3Ġxing2Ġ":2209,"zhuan1Ġji2Ġ":2210,"mian4Ġji1Ġwei4Ġ":2211,"wan3Ġ":2212,"Ġzheng4Ġfu3Ġ":2213,"Ġnian2Ġ7Ġyue4Ġ":2214,"n4Ġ":2215,"Ġshi3":2216,"lai2ĠdeĠ":2217,"Ġdang1Ġshi2Ġ":2218,"jue2Ġding4Ġ":2219,"Ġn":2220,"Ġ0":2221,"fu2Ġwu4Ġ":2222,"fan1Ġ":2223,"eĠĠĠ":2224,"ruo4Ġ":2225,"du2Ġli4Ġ":2226,"Ġnian2Ġ10Ġyue4Ġ":2227,"Ġchu1ĠdeĠ":2228,"rang4Ġ":2229,"Ġ6":2230,"kai1Ġshi3":2231,"xie3Ġ":2232,"qing3Ġ":2233,"Ġp":2234,"Ġli4Ġshi3Ġ":2235,"Ġmei3Ġ":2236,"Ġ195":2237,"Ġ3":2238,"Ġshe4Ġji4Ġ":2239,"dĠĠĠ":2240,"hai4Ġ":2241,"ming2ĠdeĠ":2242,"u2Ġ":2243,"Ġshi4Ġwei4Ġyu2Ġ":2244,"jiu4Ġshi4Ġ":2245,"Ġyou3Ġyi1Ġ":2246,"geng1Ġ":2247,"qin2Ġ":2248,"Ġnian2Ġ5Ġyue4Ġ":2249,"xi3Ġ":2250,"gtĠ":2251,"ĠgtĠ":2252,"Ġnian2Ġ9Ġyue4Ġ":2253,"Ġnian2Ġ6Ġyue4Ġ":2254,"tan4Ġ":2255,"fang1Ġmian4Ġ":2256,"Ġqi2Ġta1Ġ":2257,"Ġci3":2258,"pei2Ġ":2259,"suan4Ġ":2260,"Ġ197":2261,"Ġxing2Ġzheng4Ġ":2262,"jiao4Ġyu4Ġ":2263,"shou4Ġdao4Ġ":2264,"10Ġ":2265,"Ġnian2Ġ8Ġyue4Ġ":2266,"ltĠ":2267,"Ġjian3Ġ":2268,"ren4Ġwei2Ġ":2269,"Ġsan1Ġ":2270,"fang3Ġ":2271,"shan4Ġ":2272,"Ġnian2Ġ4Ġyue4Ġ":2273,"yĠĠĠ":2274,"Ġshi4Ġdi4Ġ":2275,"Ġzhong1Ġyang1Ġ":2276,"she4Ġhui4Ġ":2277,"ĠltĠ":2278,"yi4Ġwei4Ġ":2279,"gu4Ġshi4Ġ":2280,"Ġan1Ġ":2281,"mĠ":2282,"Ġceng2Ġ":2283,"Ġxian4Ġzai4Ġ":2284,"pian1Ġ":2285,"kan1Ġ":2286,"xiang1Ġgang3":2287,"qu1Ġwei4Ġ":2288,"Ġbi3Ġ":2289,"Ġguan1Ġ":2290,"Ġzui4Ġzhong1Ġ":2291,"tui4Ġ":2292,"Ġjiang1":2293,"Ġdian4Ġ":2294,"Ġwang2Ġ":2295,"fa1Ġzhan3":2296,"Ġshi4Ġshi4Ġ":2297,"lie4Ġche1Ġ":2298,"Ġli4Ġru2Ġ":2299,"ĠE":2300,"duan3Ġ":2301,"nei4ĠdeĠ":2302,"shu3ĠdeĠ":2303,"wan4Ġ":2304,"xiao3Ġshi2Ġ":2305,"zu2Ġqiu2Ġ":2306,"qiang1Ġ":2307,"dan4Ġ":2308,"shu4Ġju4Ġ":2309,"xu1Ġyao4Ġ":2310,"zhi2Ġwu4Ġ":2311,"hu1Ġ":2312,"zheĠ":2313,"Ġshi4Ġjian4Ġ":2314,"hua4ĠdeĠ":2315,"shi3Ġyong4":2316,"kong4Ġ":2317,"Ġbu4Ġtong2":2318,"kan4Ġ":2319,"zuo4ĠdeĠ":2320,"Ġ1":2321,"ang3Ġ":2322,"zeng1Ġjia1Ġ":2323,"zuo4Ġwei2Ġ":2324,"Ġnian2Ġ11Ġyue4Ġ":2325,"Ġji4Ġhua4Ġ":2326,"min2Ġzhu3Ġ":2327,"Ġsui1":2328,"Ġshi2Ġqi1Ġ":2329,"pao4Ġ":2330,"zhui1Ġ":2331,"zuo4Ġpin3Ġ":2332,"Ġ7":2333,"tan3Ġ":2334,"kong4Ġzhi4Ġ":2335,"TĠ":2336,"ren2Ġshi4Ġ":2337,"wan1Ġ":2338,"xiong2Ġ":2339,"Ġjian4ĠdeĠ":2340,"yin1Ġyue4Ġ":2341,"ĠH":2342,"Ġran2Ġer2Ġ":2343,"lang2Ġ":2344,"mao4Ġ":2345,"Ġyi3Ġjing1Ġ":2346,"xue2Ġyuan4Ġ":2347,"tĠĠĠ":2348,"ĠI":2349,"Ġzai4Ġdi4Ġ":2350,"Ġ17":2351,"ren2Ġmin2Ġ":2352,"Ġren2Ġyuan2Ġ":2353,"Ġhe2Ġzuo4Ġ":2354,"ta1ĠdeĠ":2355,"zai3Ġ":2356,"Ġjian4Ġyu2Ġ":2357,"Ġshu3Ġyu2Ġ":2358,"zu3Ġcheng2Ġ":2359,"chao1Ġguo4Ġ":2360,"feng4Ġ":2361,"Ġyin1Ġyue4Ġ":2362,"lang3Ġ":2363,"xi4Ġtong3":2364,"xiang2Ġ":2365,"ĠL":2366,"zong3Ġtong3Ġ":2367,"rĠ":2368,"Ġzhe4Ġxie1Ġ":2369,"Ġyou4":2370,"hui4ĠdeĠ":2371,"SĠ":2372,"ji4ĠdeĠ":2373,"Ġwei4ĠleĠ":2374,"aĠĠĠ":2375,"Ġhou4Ġlai2Ġ":2376,"qiu1Ġ":2377,"pin2Ġ":2378,"Ġ196":2379,"lao2Ġ":2380,"yu2Ġshi4Ġ":2381,"ĠR":2382,"Ġli4Ġya4Ġ":2383,"song1Ġ":2384,"Ġcheng2Ġgong1Ġ":2385,"fa1Ġbu4Ġ":2386,"yao1Ġqiu2Ġ":2387,"da4Ġli4Ġ":2388,"Ġceng2":2389,"ti2Ġchu1Ġ":2390,"Ġ000":2391,"Ġyi4Ġyuan2Ġ":2392,"Ġshe4Ġyou3Ġ":2393,"Ġjie1Ġ":2394,"Ġjiu4Ġ":2395,"Ġfeng1Ġ":2396,"yun4Ġdong4Ġyuan2Ġ":2397,"a1Ġer3Ġ":2398,"dang1Ġshi2Ġ":2399,"han2Ġguo2Ġ":2400,"bu4Ġzai4Ġ":2401,"Ġbi4Ġ":2402,"pu2Ġ":2403,"you3ĠdeĠ":2404,"ni2Ġya4":2405,"Ġ8":2406,"xi4Ġlie4Ġ":2407,"zao4Ġcheng2Ġ":2408,"Ġyin1Ġci3":2409,"ou1Ġzhou1Ġ":2410,"cai3Ġyong4Ġ":2411,"xiao3Ġxing2Ġ":2412,"Ġgong1Ġyuan2Ġ":2413,"jia1ĠdeĠ":2414,"xing4ĠdeĠ":2415,"ba3Ġ":2416,"sheng1ĠdeĠ":2417,"ĠdeĠyi2Ġge4":2418,"Ġri4Ġzai4Ġ":2419,"ren2Ġwu4Ġ":2420,"Ġgu3Ġ":2421,"Ġnian2Ġ2Ġyue4Ġ":2422,"Ġci3Ġwai4Ġ":2423,"gong4Ġchan3Ġ":2424,"Ġb":2425,"Ġzhang3Ġ":2426,"ĠzhĠ":2427,"ĠN":2428,"DĠ":2429,"Ġãĥ":2430,"ĠĠĠdeĠ":2431,"Ġshi4Ġhe2Ġ":2432,"ĠG":2433,"mao2Ġ":2434,"ma3Ġwei4Ġ":2435,"Ġwo3Ġ":2436,"yao2Ġ":2437,"dun1Ġ":2438,"ĠdeĠbu4Ġ":2439,"xue2Ġjia1Ġ":2440,"ĠĠĠ199":2441,"san1Ġnian2Ġ":2442,"you2Ġxi4Ġ":2443,"fan4Ġwei2Ġ":2444,"Ġcong2":2445,"Ġsui2":2446,"chun1Ġ":2447,"kai1Ġfa1Ġ":2448,"chao1Ġ":2449,"Ġbu4Ġtong2Ġ":2450,"she4Ġji4Ġ":2451,"Ġgen1Ġju4Ġ":2452,"Ġge2Ġ":2453,"qu3Ġde2Ġ":2454,"jie2Ġmu4Ġ":2455,"ĠdeĠji1Ġ":2456,"Ġling4":2457,"eng1Ġ":2458,"sai4Ġshi4Ġ":2459,"Ġxing2Ġcheng2Ġ":2460,"ding3Ġ":2461,"ĠĠĠdi4Ġli3Ġ":2462,"ni3Ġ":2463,"CĠ":2464,"zi4Ġzhi4Ġ":2465,"chan3Ġsheng1Ġ":2466,"dang4Ġ":2467,"ye3Ġshi4Ġ":2468,"zan4Ġ":2469,"ou4Ġ":2470,"jue2Ġse4Ġ":2471,"ĠdeĠji4Ġ":2472,"shu1Ġji4Ġ":2473,"ĠF":2474,"ĠĠĠshi4Ġ":2475,"Ġbing4Ġyu2Ġ":2476,"dou1Ġshi4Ġ":2477,"Ġ193":2478,"chong2Ġxin1Ġ":2479,"yi1Ġnian2Ġ":2480,"Ġshe4Ġhui4Ġ":2481,"dian4Ġying3":2482,"li3ĠdeĠ":2483,"bu2Ġshi4Ġ":2484,"lve4Ġ":2485,"zhong4Ġyao4":2486,"Ġsi1Ġte4Ġ":2487,"Ġsi4Ġ":2488,"Ġshou4Ġ":2489,"guan1Ġyu2Ġ":2490,"Ġ9":2491,"qu1Ġyu4Ġ":2492,"ĠĠĠL":2493,"ge1Ġqu3Ġ":2494,"Ġzhong1Ġhua2Ġ":2495,"jiao1Ġtong1Ġ":2496,"wen1Ġ":2497,"Ġnv3Ġ":2498,"Ġyou2Ġxi4Ġ":2499,"da4Ġxue2Ġ":2500,"Ġke3Ġ":2501,"ji2ĠdeĠ":2502,"kong3Ġ":2503,"cao3Ġ":2504,"mi2Ġ":2505,"chu2ĠleĠ":2506,"Ġchu1Ġxian4Ġ":2507,"ĠĠĠR":2508,"Ġzhi4Ġzuo4Ġ":2509,"miao2Ġ":2510,"wo4Ġ":2511,"Ġda4Ġxue2":2512,"ping2Ġjun1Ġ":2513,"xiong1Ġ":2514,"Ġde2Ġguo2Ġ":2515,"xian3Ġshi4Ġ":2516,"tao3Ġ":2517,"qing4Ġ":2518,"er4Ġnian2Ġ":2519,"Ġzhong1Ġhua2Ġren2Ġmin2Ġgong4Ġhe2Ġguo2Ġ":2520,"Ġla1Ġ":2521,"hun1Ġ":2522,"kuo4Ġ":2523,"hou4Ġzai4Ġ":2524,"Ġchen2Ġ":2525,"xia4ĠdeĠ":2526,"yan3Ġyuan2Ġ":2527,"Ġke4Ġsi1Ġ":2528,"dang1Ġdi4Ġ":2529,"de2Ġguo2Ġ":2530,"ang4Ġ":2531,"xuan3Ġju3Ġ":2532,"Ġliang3Ġ":2533,"guan3Ġxia2Ġ":2534,"Ġma3":2535,"Ġxiang1Ġgang3Ġ":2536,"wei2Ġyi1Ġ":2537,"duan1Ġ":2538,"guo2Ġji4Ġ":2539,"dui4ĠdeĠ":2540,"zou3Ġ":2541,"bo2Ġwu4Ġ":2542,"Ġti3Ġ":2543,"cuo4Ġ":2544,"2001Ġnian2Ġ":2545,"Ġjian4Ġli4Ġ":2546,"Ġdi4Ġguo2Ġ":2547,"Ġliang3":2548,"Ġ1Ġ":2549,"Ġ14":2550,"Ġdai4Ġbiao3Ġ":2551,"fan3Ġdui4Ġ":2552,"xue4Ġ":2553,"erĠ":2554,"0Ġ":2555,"qi1ĠdeĠ":2556,"wu4ĠdeĠ":2557,"sun1Ġ":2558,"yin1Ġwei4Ġ":2559,"qu4Ġshi4Ġ":2560,"yi1Ġbu4Ġfen4Ġ":2561,"zhu3Ġxi2Ġ":2562,"que1Ġ":2563,"dong4Ġwu4Ġ":2564,"ba2Ġgao1Ġ":2565,"Ġye3Ġshi4Ġ":2566,"Ġfa3Ġ":2567,"peng2Ġ":2568,"shi2Ġnian2Ġ":2569,"ĠĠĠD":2570,"yi1Ġbu4Ġ":2571,"du4Ġwei4Ġ":2572,"Ġyi2Ġ":2573,"Ġfu2":2574,"ĠJ":2575,"Ġjie2":2576,"zheng4Ġzhi4Ġren2Ġwu4Ġ":2577,"chi4Ġ":2578,"ni2Ġya4Ġ":2579,"ĠĠĠG":2580,"Ġna4Ġ":2581,"hai2Ġyou3Ġ":2582,"zui4Ġzhong1Ġ":2583,"ĠĠĠren2Ġkou3Ġ":2584,"bi3Ġsai4":2585,"Ġshen1Ġ":2586,"Ġqi1Ġ":2587,"lai2Ġzi4Ġ":2588,"Ġbao3Ġ":2589,"zhi2Ġye4Ġ":2590,"qian2Ġwang3Ġ":2591,"ĠãĤ":2592,"dai4Ġbiao3":2593,"Ġta1Ġshi4Ġ":2594,"Ġ2":2595,"20Ġ":2596,"Ġdang1Ġdi4Ġ":2597,"Ġbu4Ġdui4Ġ":2598,"Ġxing2Ġshi4Ġ":2599,"Ġãģ":2600,"ding4ĠdeĠ":2601,"Ġsha1Ġ":2602,"Ġchang2Ġ":2603,"ba1Ġshi4Ġ":2604,"diao4Ġcha2Ġ":2605,"ĠdeĠyuan2Ġ":2606,"zhong4Ġyao4Ġ":2607,"xue2Ġxiao4Ġ":2608,"nĠ":2609,"Ġke1Ġ":2610,"zhu3Ġjiao4Ġ":2611,"Ġzhi1Ġjian1Ġ":2612,"fa2Ġ":2613,"bian1Ġma3Ġwei4Ġ":2614,"dai4ĠdeĠ":2615,"zhao1Ġ":2616,"Ġxue2Ġming2Ġ":2617,"ai2Ġ":2618,"Ġri4Ġzhi4Ġ":2619,"gai3Ġwei2Ġ":2620,"zu3Ġzhi1":2621,"kuan3Ġ":2622,"Ġhuang2Ġ":2623,"zi1Ġliao4Ġ":2624,"a2Ġ":2625,"fen1Ġwei2Ġ":2626,"Ġzheng4Ġfu3":2627,"hai3Ġjun1Ġ":2628,"Ġjun1Ġshi4Ġ":2629,"gong1Ġshi4Ġ":2630,"pa4Ġ":2631,"qie4Ġ":2632,"Ġren2Ġkou3Ġmi4Ġdu4Ġ":2633,"chu3Ġli3Ġ":2634,"kang4Ġ":2635,"Ġyue1Ġ":2636,"fu4Ġze2Ġ":2637,"shu4ĠdeĠ":2638,"fang1Ġfa3Ġ":2639,"Ġpu3Ġ":2640,"wu1Ġke4Ġlan2Ġ":2641,"kĠ":2642,"Ġdan1Ġ":2643,"ĠdeĠda4Ġ":2644,"jie1Ġrang3":2645,"ĠĠĠ19":2646,"Ġri4Ġben3":2647,"ĠĠĠH":2648,"Ġtai4Ġ":2649,"ĠdeĠyi4Ġ":2650,"Ġjian1Ġ":2651,"wu2Ġfa3Ġ":2652,"Ġyou3Ġxian4":2653,"ĠĠĠyu3Ġ":2654,"Ġge4Ġren2Ġ":2655,"lian2Ġmeng2Ġ":2656,"12Ġ":2657,"Ġlin2Ġ":2658,"zui4Ġgao1Ġ":2659,"Ġji4Ġshu4Ġ":2660,"Ġwei1Ġ":2661,"ju1Ġmin2Ġ":2662,"guan4Ġ":2663,"zhu3Ġren4Ġ":2664,"fan3Ġying4Ġ":2665,"qi2Ġzhong1Ġ":2666,"fei1Ġchang2Ġ":2667,"Ġshi4Ġyou2Ġ":2668,"lu4ĠdeĠ":2669,"fan2Ġ":2670,"zi4Ġyou2Ġ":2671,"ĠÐ":2672,"san1Ġshi2Ġ":2673,"ying3Ġxiang3":2674,"Ġzhi1Ġchi2Ġ":2675,"ken3Ġ":2676,"xue2Ġsheng1Ġ":2677,"ye2Ġ":2678,"ĠĠĠF":2679,"wen3Ġ":2680,"Ġs":2681,"xie2Ġhui4Ġ":2682,"Ġc":2683,"ke3Ġyi3":2684,"biao1Ġzhun3Ġ":2685,"hui4Ġzai4Ġ":2686,"jie2Ġgou4Ġ":2687,"shen4Ġzhi4Ġ":2688,"u3Ġ":2689,"yao1Ġ":2690,"fen1Ġbu4Ġyu2Ġ":2691,"bi3Ġli4Ġ":2692,"Ġ2Ġ":2693,"tong3Ġzhi4Ġ":2694,"chuang4Ġzuo4Ġ":2695,"Ġka3Ġ":2696,"ĠÃ":2697,"ĠĠĠben3Ġ":2698,"jie1Ġshou4Ġ":2699,"ti3Ġyu4Ġ":2700,"Ġquan2":2701,"dong1Ġbu4Ġ":2702,"Ġfu4Ġze2Ġ":2703,"ĠdeĠyi2Ġge4Ġshi4Ġzhen4Ġ":2704,"Ġdi4Ġsan1Ġ":2705,"Ġgong1Ġsi1":2706,"gai1Ġguo2Ġ":2707,"Ġsui2Ġ":2708,"30Ġ":2709,"xiang4Ġmu4Ġ":2710,"nan2ĠziĠ":2711,"si4Ġnian2Ġ":2712,"ya3Ġ":2713,"nv3Ġzi3Ġ":2714,"ran3Ġ":2715,"shu4Ġliang4":2716,"Ġdi4Ġshi2Ġ":2717,"mou3Ġ":2718,"ĠĠĠxing2Ġzheng4Ġ":2719,"Ġbu4Ġguo4Ġ":2720,"ong4Ġ":2721,"qing2Ġkuang4Ġ":2722,"Ġao4Ġ":2723,"zhong1Ġshi4Ġ":2724,"nei4Ġrong2Ġ":2725,"Ġdao4ĠdeĠ":2726,"Ġhong2Ġ":2727,"neng2Ġli4Ġ":2728,"ĠĠĠI":2729,"gong1Ġbu4Ġ":2730,"pĠ":2731,"suo1Ġ":2732,"sheng1Ġhuo2Ġ":2733,"Ġshi4Ġyi2Ġge4Ġ":2734,"niu2Ġ":2735,"xi1Ġbu4Ġ":2736,"qing2Ġkuang4":2737,"Ġjin4Ġru4Ġ":2738,"an1Ġquan2Ġ":2739,"dong4Ġhua4Ġ":2740,"huan1Ġ":2741,"ĠK":2742,"2008Ġnian2Ġ":2743,"lian2Ġsai4Ġ":2744,"gu1Ġ":2745,"lu4Ġxian4Ġ":2746,"cha1Ġ":2747,"cheng2Ġli4Ġ":2748,"Ġgai3Ġ":2749,"Ġzhong1Ġxue2Ġ":2750,"ĠĠĠformulaĠ":2751,"mian4ĠdeĠ":2752,"PĠ":2753,"yi4Ġshi4Ġ":2754,"Ġer3Ġsi1Ġ":2755,"duo2Ġ":2756,"bei3Ġjing1Ġ":2757,"iĠ":2758,"mei2Ġti3Ġ":2759,"2009Ġnian2Ġ":2760,"you3Ġshi2Ġ":2761,"ou3Ġ":2762,"suan1Ġ":2763,"Ġyi4Ġhui4Ġ":2764,"Ġbo1Ġ":2765,"guang3Ġdong1Ġ":2766,"zai1Ġ":2767,"ong1Ġ":2768,"Ġsui4":2769,"âĢĵ":2770,"ĠĠĠjia1Ġ":2771,"jian4Ġzhu4Ġ":2772,"gui3Ġ":2773,"ow":2774,"ya4Ġzhou1Ġ":2775,"Ġxin1":2776,"ong3Ġ":2777,"kai3Ġ":2778,"dao3ĠdeĠ":2779,"Ġguo2Ġmin2Ġ":2780,"wen2Ġwu4Ġ":2781,"Ġsheng4Ġ":2782,"na2Ġda4Ġ":2783,"ĠĠĠ198":2784,"tai4Ġping2Ġ":2785,"zi4Ġji3ĠdeĠ":2786,"jiao4Ġshou4Ġ":2787,"Ġsuo3Ġyi3Ġ":2788,"di4Ġwei4Ġ":2789,"Ġxue2Ġxiao4Ġ":2790,"ba2Ġgao1Ġdu4Ġ":2791,"da2Ġdao4Ġ":2792,"li3Ġshi4Ġ":2793,"zhu2Ġjian4Ġ":2794,"cang2Ġ":2795,"Ġzhe4Ġshi4Ġ":2796,"quan2Ġli4Ġ":2797,"niao3Ġ":2798,"ban3Ġben3Ġ":2799,"hao2Ġ":2800,"qing1Ġnian2Ġ":2801,"xu3Ġduo1":2802,"zhe3ĠdeĠ":2803,"Ġao4":2804,"Ġbing4Ġqie3":2805,"Ġxi1Ġya4Ġ":2806,"Ġbing4Ġqie3Ġ":2807,"wen2Ġxue2Ġ":2808,"zhe2Ġ":2809,"zha4Ġ":2810,"zhuan4Ġ":2811,"wu1Ġke4Ġlan2":2812,"la1Ġsi1Ġ":2813,"zhi3Ġyou3Ġ":2814,"2016Ġnian2Ġ":2815,"ĠĠĠgen1Ġju4Ġ":2816,"Ġba1":2817,"yi1Ġshi4Ġ":2818,"Ġcheng2Ġwei2":2819,"ri4Ġben3":2820,"mo2Ġshi4Ġ":2821,"meng4Ġ":2822,"Ġ10":2823,"Ġkai1Ġ":2824,"hang2Ġkong1Ġ":2825,"Ġta1ĠmenĠdeĠ":2826,"Ġyi4Ġshu4Ġ":2827,"Ġji4Ġlu4Ġ":2828,"Ġze2":2829,"fen3":2830,"Ġzong3":2831,"Ġzhou1ĠdeĠ":2832,"âĢ¦":2833,"Ġzhu3Ġyao4Ġ":2834,"ol":2835,"tong1Ġguo4":2836,"zhi3Ġchu1Ġ":2837,"die2Ġ":2838,"jin3Ġbiao1Ġ":2839,"wu3Ġnian2Ġ":2840,"ĠW":2841,"Ġda4":2842,"2012Ġnian2Ġ":2843,"Ġqi2Ġshi4Ġ":2844,"Ġqi2Ġyu2Ġ":2845,"Ġyu2Ġshi4Ġ":2846,"deng3Ġren2Ġ":2847,"po1Ġ":2848,"miao4Ġ":2849,"zhi2Ġxing2Ġ":2850,"Ġke3Ġyi3Ġ":2851,"shuai4Ġ":2852,"2011Ġnian2Ġ":2853,"hun4Ġ":2854,"28Ġri4Ġ":2855,"zhi2Ġjie1Ġ":2856,"tong2Ġshi2Ġ":2857,"jin4Ġru4Ġ":2858,"ren2Ġkou3Ġpu3Ġ":2859,"zhan4Ġzheng1Ġ":2860,"zhe4Ġxie1Ġ":2861,"ge2Ġlan2Ġ":2862,"hui3Ġ":2863,"Ġqiu2Ġdui4Ġ":2864,"yan3Ġchu1Ġ":2865,"gai1Ġdi4Ġ":2866,"zhe4Ġyi1Ġ":2867,"Ġnan2":2868,"min2Ġzu2Ġ":2869,"huo2Ġdong4":2870,"ren4Ġwei2":2871,"xun1":2872,"Ġzhi1Ġjian1ĠdeĠ":2873,"zhu2Ġ":2874,"Ġgong1Ġkai1Ġ":2875,"11Ġ":2876,"gong4Ġtong2Ġ":2877,"Ġli4Ġya4":2878,"jiang1Ġjun1Ġ":2879,"zang4Ġ":2880,"Ġ13":2881,"Ġhai2Ġ":2882,"..":2883,"xia4Ġji4Ġ":2884,"le4Ġbu4Ġ":2885,"Ġsu1Ġ":2886,"Ġdan4Ġzai4Ġ":2887,"Ġdang1Ġzhong1Ġ":2888,"Ġer4Ġ":2889,"jing4Ġnei4Ġ":2890,"ti3ĠdeĠ":2891,"che1Ġzhan4":2892,"jiao4Ġyu4":2893,"ĠĠĠW":2894,"yun3Ġ":2895,"tui1Ġchu1Ġ":2896,"meĠ":2897,"shui4Ġ":2898,"ti4Ġ":2899,"Ġshi4Ġwu4Ġ":2900,"Ġyang2Ġ":2901,"huan2Ġjing4Ġ":2902,"dan1Ġqu1Ġ":2903,"li2Ġkai1Ġ":2904,"shou3Ġci4Ġ":2905,"Ġai4Ġ":2906,"Ġling4Ġwai4Ġ":2907,"ĠĠĠE":2908,"Ġzhe4ĠgeĠ":2909,"Ġzhu3Ġyao4":2910,"chuan2Ġtong3Ġ":2911,"san4Ġ":2912,"lin2Ġpi3":2913,"shang1Ġye4Ġ":2914,"ĠĠĠnian2":2915,"yin2Ġhang2Ġ":2916,"15Ġri4Ġ":2917,"qi3Ġye4Ġ":2918,"fen1Ġzhong1Ġ":2919,"guan1ĠdeĠ":2920,"xuan3Ġze2Ġ":2921,"jun1Ġshi4Ġ":2922,"ĠĠĠ194":2923,"liang4ĠdeĠ":2924,"jie1Ġdao4Ġ":2925,"ji1ĠdeĠ":2926,"qian2ĠdeĠ":2927,"ren2Ġzai4Ġ":2928,"chou2Ġ":2929,"Ġfa1Ġ":2930,"sai4Ġji4Ġ":2931,"gao1ĠdeĠ":2932,"bo2Ġshi4Ġ":2933,"du4ĠdeĠ":2934,"Ġwei4Ġren2Ġ":2935,"yuan2Ġnian2Ġ":2936,"Ġshui3Ġ":2937,"Ġdi4Ġer4":2938,"wan2Ġquan2Ġ":2939,"Ġtai2Ġ":2940,"2014Ġnian2Ġ":2941,"Ġjin1":2942,"Ġwei4Ġzhi4Ġ":2943,"ming4Ġming2Ġ":2944,"tuan2Ġti3Ġ":2945,"IĠ":2946,"deng3Ġdi4Ġ":2947,"Ġgong1Ġlu4Ġ":2948,"xiang1Ġguan1Ġ":2949,"re4Ġdai4Ġ":2950,"bang3Ġ":2951,"sun3Ġ":2952,"bei3Ġjing1":2953,"zun1Ġ":2954,"wen2Ġhua4":2955,"cheng2Ġzhong1Ġ":2956,"bao4Ġgao4Ġ":2957,"Ġshi2Ġji4Ġ":2958,"yun4Ġdong4Ġhui4Ġ":2959,"Ġda4Ġli4Ġ":2960,"Ġer2Ġzai4Ġ":2961,"2005Ġnian2Ġ":2962,"san1Ġge4Ġ":2963,"luan4Ġ":2964,"2018Ġnian2Ġ":2965,"zui4Ġjia1Ġ":2966,"bo1Ġchu1Ġ":2967,"Ġ5Ġ":2968,"quan2Ġbu4Ġ":2969,"teng2Ġ":2970,"ĠdeĠhe2Ġ":2971,"Ġmu4Ġqian2Ġ":2972,"zong1Ġjiao4Ġ":2973,"ĠĠĠju4Ġ":2974,"xue2Ġwei4Ġ":2975,"zui4Ġhou4Ġ":2976,"ling3Ġdao3Ġ":2977,"shun4Ġ":2978,"Ġji1Ġgou4Ġ":2979,"tu3Ġdi4Ġ":2980,"Ġnian2Ġdai4Ġ":2981,"Ġde2Ġdao4Ġ":2982,"fen1Ġbie2":2983,"onĠ":2984,"TCĠ":2985,"Ġge1Ġ":2986,"25Ġri4Ġ":2987,"Ġshi4Ġyi1Ġzhong3Ġ":2988,"Ġtong2Ġnian2Ġ":2989,"Ġdi4Ġfang1Ġ":2990,"gui3Ġdao4Ġ":2991,"2015Ġnian2Ġ":2992,"Ġwei4Ġdi4Ġ":2993,"2013Ġnian2Ġ":2994,"jing1Ġli4Ġ":2995,"xi4ĠdeĠ":2996,"Ġzhi1Ġqian2Ġ":2997,"sheng3ĠdeĠyi2Ġge4Ġshi4Ġzhen4Ġ":2998,"nie4Ġ":2999,"2007Ġnian2Ġ":3000,"2019Ġnian2Ġ":3001,"Ġyi1Ġxie1Ġ":3002,"oĠ":3003,"Ġshi4Ġwei4Ġyu2Ġmei3Ġguo2Ġ":3004,"RĠ":3005,"Ġzhong1Ġhua2Ġmin2Ġguo2Ġ":3006,"si3Ġwang2Ġ":3007,"Ġge4Ġyue4Ġ":3008,"Ġjun1ĠdeĠ":3009,"30Ġri4Ġ":3010,"wei4ĠdeĠ":3011,"xue3Ġ":3012,"ao4Ġlin2Ġpi3":3013,"Ġhai3Ġba2Ġgao1Ġdu4Ġ":3014,"Ġyou3Ġguan1Ġ":3015,"huai2Ġ":3016,"chai1Ġ":3017,"Ġyin3Ġ":3018,"20Ġri4Ġ":3019,"jie2Ġshu4Ġ":3020,"Ġxing2Ġdong4Ġ":3021,"sou1Ġ":3022,"Ġzai4Ġyi1Ġ":3023,"ji1Ġyu2Ġ":3024,"ĠĠĠwei4Ġ":3025,"yong4ĠdeĠ":3026,"gan4Ġ":3027,"ĠĠĠN":3028,"bian4Ġhua4Ġ":3029,"shang4Ġwei4Ġ":3030,"Ġji4Ġxu4Ġ":3031,"zi4Ġji3Ġ":3032,"chun2Ġ":3033,"Ġji2Ġtuan2Ġ":3034,"Ġbao1Ġkuo4":3035,"ji2Ġzhong1Ġ":3036,"zhi1Ġyi1Ġ":3037,"Ġshi2Ġdai4Ġ":3038,"chu3Ġyu2Ġ":3039,"UTCĠ":3040,"zhi1Ġchi2Ġ":3041,"2006Ġnian2Ġ":3042,"ĠĠĠthe":3043,"gong4Ġhe2Ġ":3044,"2017Ġnian2Ġ":3045,"Ġfei1Ġ":3046,"guo4Ġcheng2Ġ":3047,"Ġhou4Ġlai2":3048,"Ġbu4Ġzhang3Ġ":3049,"ge2Ġming4Ġ":3050,"Ġ12":3051,"Ġhan4Ġ":3052,"10Ġri4Ġ":3053,"kong1Ġjian1Ġ":3054,"Ġmei2Ġ":3055,"Ġyu2Ġ199":3056,"bu2Ġhui4Ġ":3057,"anĠ":3058,"nao3Ġ":3059,"shuo4":3060,"xin1Ġwen2Ġ":3061,"zu1Ġ":3062,"mei4Ġ":3063,"tou4Ġguo4Ġ":3064,"nei4Ġbu4Ġ":3065,"ye4Ġyu2Ġ":3066,"chang1Ġ":3067,"cai4Ġ":3068,"Ġzi4Ġji3":3069,"wu4Ġzhong3Ġ":3070,"jie3Ġfang4":3071,"Ġyi4Ġzhi2Ġ":3072,"gen1Ġju4":3073,"Ġji2Ġtuan2":3074,"Ġzhou1Ġshi4Ġ":3075,"pi1Ġping2Ġ":3076,"Ġming2":3077,"shui3Ġyu4Ġ":3078,"Ġnei4Ġ":3079,"Ġzhi2Ġdao4Ġ":3080,"a1Ġla1Ġ":3081,"Ġhu2Ġ":3082,"di4Ġqu1Ġ":3083,"lĠ":3084,"EĠ":3085,"2000Ġnian2Ġ":3086,"Ġjia1Ġru4Ġ":3087,"gui1Ġding4Ġ":3088,"Ġhe2Ġnan2Ġ":3089,"eng3Ġ":3090,"Ġshi4Ġshi2Ġ":3091,"Ġyou3Ġxian4Ġgong1Ġsi1Ġ":3092,"wan2Ġjia1Ġ":3093,"ĠĠĠzhe4Ġ":3094,"ngĠ":3095,"ta1Ġmen":3096,"shen4Ġ":3097,"cheng2Ġwei2Ġ":3098,"reng2Ġ":3099,"xi1Ġban1Ġ":3100,"zi1Ġge2Ġ":3101,"26Ġri4Ġ":3102,"ĠO":3103,"da4Ġlu4Ġ":3104,"ĠĠĠgai1Ġ":3105,"ao4Ġlin2Ġpi3Ġke4Ġ":3106,"VĠ":3107,"Ġda4Ġhui4Ġ":3108,"24Ġri4Ġ":3109,"21Ġ":3110,"shang4Ġhai3Ġ":3111,"duo1ĠdeĠ":3112,"Ġ3Ġ":3113,"zai4ĠdeĠ":3114,"za2Ġzhi4Ġ":3115,"xi4Ġlie4":3116,"Ġbai2Ġ":3117,"ying1Ġyu3Ġ":3118,"hou2Ġ":3119,"Ġzhe4Ġzhong3Ġ":3120,"pu2Ġtao2Ġ":3121,"lu4Ġdi4Ġ":3122,"he2ĠdeĠ":3123,"hao2Ġmi3Ġ":3124,"Ġyu3Ġyan2Ġ":3125,"luo2Ġma3Ġ":3126,"qi2Ġta1":3127,"fang1ĠdeĠ":3128,"ĠĠĠyi1Ġ":3129,"hou4Ġyi1Ġ":3130,"Ġgu4Ġ":3131,"ĠĠĠ18":3132,"mie4Ġ":3133,"yan1Ġ":3134,"deng4":3135,"Ġcheng2Ġqu1Ġ":3136,"se4ĠdeĠ":3137,"BĠ":3138,"ao2Ġ":3139,"ze2Ġshi4Ġ":3140,"fa3Ġlv4Ġ":3141,"yi1ĠdeĠ":3142,"Ġshi4Ġfa3Ġguo2Ġ":3143,"ba4Ġ":3144,"mian2":3145,"Ġwu2":3146,"18Ġri4Ġ":3147,"chuan2Ġtong3":3148,"Ġwei4Ġyu2Ġgai1Ġguo2Ġ":3149,"Ġli3Ġsi1Ġ":3150,"cui1Ġ":3151,"zhan4ĠdeĠ":3152,"wu4Ġli3Ġ":3153,"Ġtai2Ġwan1Ġ":3154,"xuan3Ġju3":3155,"shu4Ġwei4Ġ":3156,"Ġyi4Ġban1Ġ":3157,"Ġbu4Ġtong2ĠdeĠ":3158,"jing1Ġguo4Ġ":3159,"biao3Ġxian4Ġ":3160,"Ġying1Ġguo2Ġ":3161,"Ġmu3Ġ":3162,"Ġshi4Ġjie4Ġda4Ġ":3163,"bao1Ġhan2Ġ":3164,"Ġai4":3165,"2021Ġnian2Ġ":3166,"0Ġnian2Ġdai4Ġ":3167,"sheng3Ġji2Ġ":3168,"miao2Ġshu4Ġ":3169,"guan1Ġyuan2Ġ":3170,"Ġ2001Ġnian2Ġ":3171,"bo2Ġwu4Ġguan3Ġ":3172,"2022Ġnian2Ġ":3173,"Ġ6Ġ":3174,"po4Ġhuai4":3175,"wen4Ġti2":3176,"Ġguo2Ġjia1":3177,"ying2Ġde2Ġ":3178,"Ġzui4Ġhou4Ġ":3179,"zheng4Ġzai4Ġ":3180,"fa3Ġyuan4Ġ":3181,"cang1Ġ":3182,"bing3Ġ":3183,"Ġgong1Ġji1Ġ":3184,"shi3ĠdeĠ":3185,"ce4Ġshi4Ġ":3186,"she3":3187,"Ġsan1":3188,"chang3ĠdeĠ":3189,"Ġsui2Ġhou4Ġ":3190,"Ġwei4Ġzhong1Ġ":3191,"bu4Ġhe2Ġ":3192,"Ġchu2Ġ":3193,"Ġlu2Ġ":3194,"zeng4":3195,"Ġli4Ġyong4Ġ":3196,"fei1Ġji1Ġ":3197,"Ġru2":3198,"zhuan1Ġye4Ġ":3199,"zheng1Ġyi4Ġ":3200,"27Ġri4Ġ":3201,"16Ġri4Ġ":3202,"Ġsi4":3203,"zhi3Ġshi4Ġ":3204,"Ġdi4Ġqu1":3205,"Ġch":3206,"21Ġri4Ġ":3207,"Ġsheng1Ġhuo2Ġ":3208,"yi4Ġshi2Ġ":3209,"sang1Ġ":3210,"Ġzhan4Ġzheng1Ġ":3211,"17Ġri4Ġ":3212,"zao1Ġdao4Ġ":3213,"na2Ġ":3214,"Ġtang2Ġ":3215,"2004Ġnian2Ġ":3216,"jiang1Ġqi2Ġ":3217,"12Ġri4Ġ":3218,"Ġbei4Ġcheng1Ġwei2Ġ":3219,"ding4Ġyi4Ġ":3220,"8Ġri4Ġ":3221,"Ġda4Ġqu1Ġ":3222,"ge1Ġshou3Ġ":3223,"Ġzhong1Ġxin1":3224,"zong1Ġhe2Ġ":3225,"liu4Ġnian2Ġ":3226,"mou2Ġ":3227,"Ġshi4Ġyi4Ġ":3228,"xue2ĠdeĠ":3229,"Ġxian4Ġshi2Ġ":3230,"ji2Ġwei4Ġ":3231,"yong1Ġ":3232,"Ġsui1Ġran2":3233,"23Ġri4Ġ":3234,"huang2Ġdi4Ġ":3235,"gui1Ġmo2Ġ":3236,"Ġfen1Ġbu4Ġyu2Ġ":3237,"Ġbing4Ġbu4Ġ":3238,"11Ġri4Ġ":3239,"ou1Ġzhou1":3240,"Ġzhong1Ġgong4":3241,"ye3Ġyou3Ġ":3242,"u4Ġ":3243,"e2Ġluo2Ġ":3244,"fang1Ġxiang4Ġ":3245,"Ġwai4Ġ":3246,"Ġshi4Ġjian4":3247,"Ġxing4Ġ":3248,"zui4Ġda4ĠdeĠ":3249,"chu1Ġxian4Ġ":3250,"duo1Ġshu4Ġ":3251,"fen1Ġxi1Ġ":3252,"neng2Ġgou4Ġ":3253,"7Ġri4Ġ":3254,"22Ġri4Ġ":3255,"29Ġri4Ġ":3256,"ĠĠĠyu2Ġ":3257,"kuan1Ġ":3258,"xiang4ĠdeĠ":3259,"yu4ĠdeĠ":3260,"Ġbo2Ġ":3261,"yuan2Ġyu2Ġ":3262,"Ġke3":3263,"yue1Ġhan4Ġ":3264,"hai2Ġshi4Ġ":3265,"pan2Ġ":3266,"yang4ĠdeĠ":3267,"9Ġri4Ġ":3268,"ĠĠĠci3Ġ":3269,"fei2":3270,"ding4Ġwei4Ġ":3271,"EE":3272,"gong1ĠdeĠ":3273,"ruan3Ġ":3274,"xu1Ġyao4":3275,"ĠĠĠzheng4Ġzhi4Ġ":3276,"feng2Ġ":3277,"tong3Ġji4Ġ":3278,"xin4Ġxi1Ġ":3279,"Ġzai4Ġzhe4Ġ":3280,"Ġxian4Ġzhi4Ġ":3281,"19Ġri4Ġ":3282,"ling4Ġyi1Ġ":3283,"qiu2Ġdui4Ġ":3284,"Ġshen2Ġ":3285,"cha2ĠdeĠ":3286,"Ġjing3Ġ":3287,"zhi3Ġhui1Ġ":3288,"14Ġri4Ġ":3289,"5Ġri4Ġ":3290,"qiong2":3291,"lan3Ġ":3292,"chang2Ġshi4Ġ":3293,"Ġmo2Ġ":3294,"quan2Ġqiu2Ġ":3295,"mei3Ġguo2Ġren2Ġkou3Ġpu3Ġ":3296,"3Ġri4Ġ":3297,"zu3Ġhe2Ġ":3298,"ĠdeĠzuo4Ġ":3299,"dong1Ġnan2Ġ":3300,"Ġhuo4Ġde2":3301,"niu3Ġyue1":3302,"lin2Ġshi2Ġ":3303,"Ġ4Ġ":3304,"31Ġri4Ġ":3305,"wei4Ġshi4Ġ":3306,"dong3Ġshi4Ġ":3307,"ji1Ġdi4Ġ":3308,"lian2Ġmeng2":3309,"Ġk":3310,"pai1Ġshe4Ġ":3311,"hai3Ġba2":3312,"bang1Ġzhu4Ġ":3313,"ĠdeĠshi4Ġzhen4Ġ":3314,"6Ġri4Ġ":3315,"quan1Ġ":3316,"ju3Ġban4":3317,"chui2":3318,"ĠĠĠzhong1Ġ":3319,"ting3Ġ":3320,"Ġzhong1Ġbu4Ġ":3321,"2Ġri4Ġ":3322,"Ġyi4Ġda4Ġli4Ġ":3323,"Ġshe4Ġli4Ġ":3324,"ci":3325,"sheng1Ġya2Ġ":3326,"Ġzhu1Ġ":3327,"ĠdeĠzhong1Ġ":3328,"Ġren2Ġkou3":3329,"Ġzhe4Ġxie1":3330,"Ġa1":3331,"4Ġri4Ġ":3332,"ge4Ġren2Ġ":3333,"Ġduo1":3334,"she4Ġyou3Ġ":3335,"Ġ190":3336,"Ġfen1Ġbie2":3337,"lang4Ġ":3338,"yuan2Ġhe2Ġ":3339,"Ġdi4Ġqu1ĠdeĠ":3340,"tong1Ġchang2Ġ":3341,"Ġxue2Ġsheng1Ġ":3342,"lian2Ġbang1Ġ":3343,"tie3Ġlu4":3344,"za2Ġ":3345,"ĠĠĠ197":3346,"lie4Ġche1":3347,"fei3":3348,"zao3Ġqi1Ġ":3349,"Ġqi2Ġta1":3350,"dong1Ġbei3Ġ":3351,"Ġyi4Ġban1":3352,"shen1Ġfen4Ġ":3353,"chao2Ġxian1Ġ":3354,"shao1Ġ":3355,"Ġmo4Ġ":3356,"zu2Ġqiu2":3357,"13Ġri4Ġ":3358,"xiong1Ġdi4Ġ":3359,"sheng1Ġzai4Ġ":3360,"mu4Ġdi4Ġ":3361,"hui1Ġfu4Ġ":3362,"Ġshi4Ġchang3Ġ":3363,"jie2Ġguo3Ġ":3364,"Ġyong4Ġ":3365,"ĠĠĠ195":3366,"ni4":3367,"vi":3368,"Ġxue2Ġyuan4Ġ":3369,"au":3370,"juan3Ġ":3371,"ĠĠĠK":3372,"qu3Ġdai4Ġ":3373,"guan1Ġfang1Ġ":3374,"ĠĠĠyou2Ġyu2Ġ":3375,"Ġzhe4Ġyi1Ġ":3376,"su1Ġlian2Ġ":3377,"ju3Ġban4Ġ":3378,"qing2Ġkuang4Ġxia4Ġ":3379,"yi2Ġbu4Ġ":3380,"Ġdao3Ġzhi4Ġ":3381,"xie2Ġyi4Ġ":3382,"huang2Ġjia1Ġ":3383,"jue2Ġsai4":3384,"ke1Ġji4Ġ":3385,"wĠ":3386,"fa1Ġxian4":3387,"Ġha1Ġ":3388,"xiao3Ġshuo1Ġ":3389,"nv3Ġxing4Ġ":3390,"zheng3Ġge4Ġ":3391,"Ġxiang1Ġgang3":3392,"Ġgong1Ġchi3Ġ":3393,"ren2Ġhe2Ġ":3394,"Ġjiu4":3395,"ge2Ġming4":3396,"fou3Ġ":3397,"Ġwo3":3398,"chao1Ġji2Ġ":3399,"mao4Ġyi4Ġ":3400,"yue4ĠdeĠ":3401,"zhan1Ġ":3402,"bi4Ġye4Ġ":3403,"zhang3ĠdeĠ":3404,"jue2Ġsai4Ġ":3405,"Ġru2Ġguo3Ġ":3406,"wen2Ġwu4Ġbao3Ġhu4Ġ":3407,"rao4Ġ":3408,"xi2Ġji1Ġ":3409,"lai4Ġ":3410,"ĠU":3411,"hua4Ġhe2Ġ":3412,"Ġdi4Ġli4Ġ":3413,"xue2Ġyuan4":3414,"li4Ġhe2Ġ":3415,"zou4Ġ":3416,"tu2Ġshu1Ġ":3417,"Ġjing4Ġ":3418,"Ġgong4Ġ":3419,"qu1Ġhua4Ġ":3420,"xian1Ġhou4Ġ":3421,"tong3Ġyi1Ġ":3422,"Ġxi1Ġnan2Ġ":3423,"an4ĠdeĠ":3424,"hang2Ġkong1":3425,"liu2Ġxing2Ġ":3426,"Ġyi3Ġjing1":3427,"jie1Ġduan4Ġ":3428,"jie2Ġshu4":3429,"yao1Ġqiu2":3430,"a3Ġ":3431,"hu3Ġ":3432,"ĠbrĠ":3433,"xie2Ġzhu4Ġ":3434,"ci4Ġshi4Ġjie4Ġda4Ġ":3435,"wu2Ġxian4Ġ":3436,"Ġhua2Ġ":3437,"shang4Ġshi4Ġ":3438,"zhan4Ġhou4Ġ":3439,"guang3Ġbo1Ġ":3440,"Ġqi3Ġ":3441,"Ġque4Ġ":3442,"dan1Ġren4":3443,"Ġer3Ġsheng3Ġ":3444,"yu3ĠdeĠ":3445,"fan3Ġying4":3446,"ren2Ġkou3Ġshu4Ġliang4":3447,"Ġhe2Ġyi1Ġ":3448,"gong4Ġchan3Ġdang3Ġ":3449,"zi4Ġxing2Ġ":3450,"Ġbu4Ġneng2Ġ":3451,"it":3452,"Ġyi3Ġlai2Ġ":3453,"hua4Ġxue2Ġ":3454,"shao4Ġnian2Ġ":3455,"Ġxi1Ġban1Ġ":3456,"ĠĠĠ196":3457,"qi1Ġnian2Ġ":3458,"tai2Ġbei3":3459,"cao1Ġ":3460,"Ġyao4Ġ":3461,"chi2Ġxu4Ġ":3462,"Ġta1Ġceng2":3463,"dao3Ġyan3Ġ":3464,"Ġhei1Ġ":3465,"Ġzai4Ġci4Ġ":3466,"kai1Ġfa1":3467,"Ġye4Ġ":3468,"fa1Ġbiao3":3469,"shuai1Ġ":3470,"guo2Ġhe2Ġ":3471,"xi4Ġbao1Ġ":3472,"lian2Ġsai4":3473,"Ġyi3Ġxia4Ġ":3474,"Ġshu3Ġ":3475,"te4ĠdeĠ":3476,"ĠĠĠO":3477,"zao1Ġ":3478,"jue2Ġding4":3479,"Ġha1":3480,"zhu4Ġzai4Ġ":3481,"xia4Ġxia2":3482,"tun2":3483,"tiao2Ġjian4Ġ":3484,"yan3Ġchang4":3485,"Ġ2010Ġnian2Ġ":3486,"pin2Ġdao4Ġ":3487,"Ġgong1Ġzuo4":3488,"Ġmei2Ġyou3Ġ":3489,"ye4ĠdeĠ":3490,"jiao1Ġyi4Ġ":3491,"2002Ġnian2Ġ":3492,"Ġshi4Ġzhong1Ġguo2Ġ":3493,"bao4Ġdao4Ġ":3494,"Ġren2Ġkou3Ġmi4Ġdu4Ġwei4Ġ":3495,"qiu2Ġyuan2Ġ":3496,"2003Ġnian2Ġ":3497,"Ġlu4":3498,"Ġwei1":3499,"Ġshi4Ġli4Ġ":3500,"jie2Ġhe2Ġ":3501,"Ġzuo4Ġpin3Ġ":3502,"ĠĠĠbu4Ġ":3503,"you2Ġzheng4Ġ":3504,"jian4Ġli4Ġ":3505,"ying4Ġyong4Ġ":3506,"wai4ĠdeĠ":3507,"zi1Ġyuan2Ġ":3508,"sai1Ġer3Ġ":3509,"Ġqi2Ġhou4Ġ":3510,"Ġqie3Ġ":3511,"mo4Ġxi1Ġ":3512,"zui4Ġda4Ġ":3513,"ke3Ġda2Ġ":3514,"cha4Ġ":3515,"Ġyi1Ġyuan4Ġ":3516,"gai3Ġge2Ġ":3517,"MĠ":3518,"Ġchong2Ġ":3519,"zhuang4Ġtai4Ġ":3520,"Ġbing4Ġwei4Ġ":3521,"Ġshuang1Ġ":3522,"hui2Ġdao4Ġ":3523,"su4Ġdu4Ġ":3524,"Ġsui4Ġ":3525,"qi4Ġhou4Ġ":3526,"mi4Ġshu1Ġ":3527,"ru3Ġ":3528,"Ġwei4Ġyu2Ġfa3Ġguo2Ġ":3529,"suo3Ġshu3ĠdeĠ":3530,"pang2Ġ":3531,"dian4Ġshi4Ġju4Ġ":3532,"zhu4ĠdeĠ":3533,"fen4Ġwei4Ġ":3534,"Ġgong1Ġye4Ġ":3535,"fa1Ġbiao3Ġ":3536,"wang3Ġzhan4Ġ":3537,"gong1Ġsi1Ġ":3538,"xun4Ġlian4Ġ":3539,"Ġben3":3540,"Ġjian3Ġcheng1Ġ":3541,"zi4Ġran2Ġ":3542,"tou2Ġzi1Ġ":3543,"ĠdeĠdi4Ġyi1Ġ":3544,"zhou2":3545,"qian4Ġ":3546,"lei3Ġ":3547,"Ġzhong1Ġgong4Ġ":3548,"zuo3Ġyou4Ġ":3549,"chan3Ġpin3Ġ":3550,"hu2Ġnan2Ġ":3551,"Ġyi1Ġsi1Ġ":3552,"zhan4Ġyi4Ġ":3553,"Ġbao4Ġ":3554,"ya4Ġli4Ġ":3555,"Ġwei4Ġyi1Ġ":3556,"wen2Ġwu4Ġbao3Ġhu4Ġdan1Ġwei4Ġ":3557,"20Ġshi4Ġji4Ġ":3558,"Ġdai4Ġbiao3":3559,"xiao3Ġxue2Ġ":3560,"mu4Ġbiao1Ġ":3561,"Ġlong2Ġ":3562,"sheng4Ġli4Ġ":3563,"shang4Ġhai3":3564,"Ġhao4Ġxian4Ġ":3565,"zhen4Ġqu1Ġ":3566,"wen2Ġming2Ġ":3567,"ĠdeĠfu4Ġ":3568,"Ġjian4Ġshe4Ġ":3569,"wang3Ġluo4Ġ":3570,"sheng3Ġfen4Ġ":3571,"ir":3572,"en2Ġ":3573,"yi2Ġzhi4Ġ":3574,"jiao4Ġhui4Ġ":3575,"zhan3Ġkai1Ġ":3576,"yin4Ġdu4":3577,"shi2Ġqi1Ġ":3578,"feng1Ġge2Ġ":3579,"zhe4ĠgeĠ":3580,"Ġer2Ġshi4Ġ":3581,"gao1Ġji2Ġ":3582,"zhun3Ġbei4Ġ":3583,"Ġqie3":3584,"Ġfa3Ġguo2Ġ":3585,"she2Ġ":3586,"xuan3Ġshou3Ġ":3587,"ke1ĠdeĠ":3588,"Ġren2Ġwu4Ġ":3589,"nai4Ġ":3590,"yan2Ġzhong4Ġ":3591,"hao3ĠdeĠ":3592,"dong1Ġjing1Ġ":3593,"zhong4Ġyao4ĠdeĠ":3594,"jiao1Ġtong1":3595,"gong4Ġyou3Ġren2Ġkou3Ġ":3596,"ĠIN":3597,"Ġyi1Ġming2Ġ":3598,"Ġxian4Ġdai4Ġ":3599,"bi4Ġxu1Ġ":3600,"hou4Ġyu2Ġ":3601,"can1Ġsai4Ġ":3602,"xiao3Ġxing2Ġxing1Ġ":3603,"ĠĠĠJ":3604,"Ġcheng2Ġji4Ġ":3605,"Ġxi1Ġbei3Ġ":3606,"mu4Ġqian2Ġ":3607,"Ġmin2Ġ":3608,"Ġhe2Ġdi4Ġ":3609,"Ġmai4":3610,"Ġji1Ġchang3Ġ":3611,"ziĠdeĠ":3612,"Ġfu4":3613,"kai1Ġfang4Ġ":3614,"bian4Ġcheng2Ġ":3615,"qiao2Ġzhi4Ġ":3616,"bang4Ġ":3617,"ui4Ġ":3618,"lei4Ġsi4":3619,"dian4Ġshi4Ġtai2Ġ":3620,"jie3Ġshi4Ġ":3621,"bi3Ġjiao4Ġ":3622,"guo2Ġmin2Ġ":3623,"Ġyi4Ġqi3Ġ":3624,"Ġhan":3625,"da1Ġ":3626,"te4Ġzheng1Ġ":3627,"zhi4Ġzuo4Ġ":3628,"ka3Ġer3Ġ":3629,"xing2Ġshi4Ġ":3630,"dou1Ġyou3Ġ":3631,"Ġsuo3Ġyou3Ġ":3632,"tao4Ġ":3633,"zhi1Ġhou4Ġ":3634,"hui4Ġhe2Ġ":3635,"zhan4Ġshi4Ġ":3636,"ru2Ġxia4Ġ":3637,"ic":3638,"mei3Ġping2Ġfang1Ġgong1Ġli3Ġ":3639,"Ġyi1Ġyang4Ġ":3640,"ru4ĠleĠ":3641,"min3Ġ":3642,"Ġzhe4Ġge":3643,"sheng1Ġchan3Ġ":3644,"oo":3645,"Ġgong1Ġfen1Ġ":3646,"Ġshe4Ġzhi4Ġ":3647,"Ġsi1Ġji1Ġ":3648,"Ġxia4Ġling4":3649,"Ġzhang1":3650,"ĠV":3651,"as":3652,"zhen1Ġdui4Ġ":3653,"ling3Ġdao3":3654,"ig":3655,"jiu4Ġshi4Ġzhen4Ġ":3656,"Ġshi2Ġjian1":3657,"Ġci3Ġhou4Ġ":3658,"yuan2Ġshi4Ġ":3659,"gao1Ġzhong1Ġ":3660,"Ġnian2Ġjian1Ġ":3661,"Ġzai4Ġzhong1Ġ":3662,"wang2Ġguo2Ġ":3663,"quan4Ġ":3664,"Ġci4":3665,"er4Ġshi4Ġ":3666,"Ġshen4Ġzhi4Ġ":3667,"zao3Ġnian2Ġ":3668,"dian4ĠziĠ":3669,"wai4Ġjiao1":3670,"Ġcai2Ġ":3671,"shan1Ġdong1Ġ":3672,"lei4Ġsi4Ġ":3673,"gui1Ġhua4Ġ":3674,"diao1Ġ":3675,"Ġran2Ġhou4Ġ":3676,"cao2Ġ":3677,"Ġli4Ġshu3Ġyu2Ġ":3678,"Ġyi4Ġzhi2":3679,"dui4Ġzai4Ġ":3680,"zhu4Ġming2Ġ":3681,"yun2Ġnan2Ġ":3682,"hen3Ġduo1Ġ":3683,"kui2Ġ":3684,"Ġer3ĠdeĠ":3685,"XĠ":3686,"huo4Ġde2":3687,"Ġsui1Ġran2Ġ":3688,"jie3Ġjue2Ġ":3689,"Ġqi4Ġ":3690,"ĠĠĠ2020Ġnian2Ġ":3691,"lai2Ġzi4":3692,"xin1Ġjia1Ġ":3693,"ĠĠĠgong1Ġ":3694,"Ġzhao4Ġ":3695,"ĠdeĠming2Ġ":3696,"ĠdeĠzhu3Ġ":3697,"Ġzhi4Ġzao4Ġ":3698,"Ġya4Ġ":3699,"gou1Ġ":3700,"Ġyi4Ġzhi4Ġ":3701,"shou3Ġci4":3702,"ĠĠĠda4Ġ":3703,"tan1Ġ":3704,"zhong4ĠdeĠ":3705,"ĠdeĠyi1Ġzhong3Ġ":3706,"Ġwu3":3707,"shan1Ġxi1Ġ":3708,"ren2Ġkou3Ġshu4Ġliang4Ġwei4Ġren2Ġ":3709,"ju4Ġji2Ġ":3710,"bao4Ġfa1Ġ":3711,"ji2Ġhe2Ġ":3712,"ye4Ġwu4Ġ":3713,"ĠINS":3714,"Ġyi2Ġge4Ġ":3715,"Ġjian4Ġzhi4Ġ":3716,"ma3Ġlai2":3717,"lv3Ġyou2Ġ":3718,"Ġchu2ĠleĠ":3719,"Ġxing2Ġwei2Ġ":3720,"nv3Ġer2Ġ":3721,"ji2Ġshi4Ġ":3722,"zong3Ġli3Ġ":3723,"fang1Ġan4Ġ":3724,"Ġg":3725,"Ġyu2Ġ18":3726,"Ġshang4Ġhai3Ġ":3727,"fa1Ġshe4Ġ":3728,"xĠ":3729,"si1Ġhe2Ġ":3730,"ĠĠĠof":3731,"lu4Ġjun1Ġ":3732,"lian2Ġjie1Ġ":3733,"la4Ġ":3734,"Ġxi1Ġya4":3735,"rui4Ġshi4Ġ":3736,"te4Ġbie2Ġ":3737,"Ġda4Ġliang4Ġ":3738,"nong2Ġye4Ġ":3739,"Ġdan1Ġren4Ġ":3740,"2023Ġnian2Ġ":3741,"wu4Ġzhi4Ġ":3742,"jue2ĠdeĠ":3743,"fa1Ġdong4Ġ":3744,"Ġbian4Ġ":3745,"Ġjin4Ġshi4Ġ":3746,"ha":3747,"Ġjia3Ġ":3748,"ĠdeĠli4Ġ":3749,"ĠdeĠshi2Ġhou4Ġ":3750,"ao4Ġlin2Ġpi3Ġke4Ġyun4Ġdong4Ġhui4Ġ":3751,"FĠ":3752,"Ġzhi4Ġjin1Ġ":3753,"OĠ":3754,"si1Ġren2Ġ":3755,"ĠINSEE":3756,"si4Ġshi2Ġ":3757,"Ġmei3Ġyuan2Ġ":3758,"ge2ĠdeĠ":3759,"juan1Ġ":3760,"fei1Ġxing2Ġ":3761,"nan4Ġ":3762,"Ġzhi1Ġwai4Ġ":3763,"ke3Ġneng2Ġshi4Ġ":3764,"Ġ11":3765,"Ġgu4":3766,"wo1Ġ":3767,"biao3Ġyan3Ġ":3768,"Ġte4Ġbie2":3769,"Ġjie4Ġ":3770,"xuan3Ġwei4Ġ":3771,"jie1Ġrang3ĠdeĠshi4Ġzhen4Ġ":3772,"Ġdui4Ġyu2Ġ":3773,"Ġshe4Ġshi1Ġ":3774,"yi2Ġshi4Ġ":3775,"jin4ĠdeĠ":3776,"bao1Ġhan2":3777,"tu3Ġer3":3778,"Ġli4Ġsi1Ġ":3779,"bo2Ġte4Ġ":3780,"jia4Ġzhi2Ġ":3781,"tiao4Ġ":3782,"qian3Ġ":3783,"Ġzong3Ġmian4Ġji1Ġ":3784,"chuang4Ġli4Ġ":3785,"Ġgong1Ġneng2Ġ":3786,"chu4ĠdeĠ":3787,"luo2Ġma3":3788,"Ġde2Ġli3Ġ":3789,"zhi4Ġshi4Ġ":3790,"guang3Ġchang3Ġ":3791,"lian2Ġhe2Ġguo2Ġ":3792,"Ġyou3Ġren2Ġ":3793,"ji2Ġshi2Ġ":3794,"geng1Ġming2Ġwei4Ġ":3795,"reng2Ġran2Ġ":3796,"ĠdeĠyi1Ġbu4Ġfen4Ġ":3797,"20Ġnian2Ġ":3798,"xiao4Ġli4Ġ":3799,"Ġzai4Ġci3Ġ":3800,"jiu3Ġnian2Ġ":3801,"chan2":3802,"chuang1Ġ":3803,"Ġgai1Ġsheng3Ġ":3804,"un":3805,"qi4ĠdeĠ":3806,"NĠ":3807,"biao1Ġzhun3":3808,"Ġren2Ġkou3Ġmi4Ġdu4Ġmei3Ġping2Ġfang1Ġgong1Ġli3Ġ":3809,"Ġju4Ġle4Ġbu4Ġ":3810,"Ġren2Ġkou3Ġmi4Ġdu4Ġwei4Ġmei3":3811,"Ġxia4Ġling4Ġshi2Ġ":3812,"you2Ġzheng4Ġbian1Ġma3Ġwei4Ġ":3813,"shi2Ġshi4Ġ":3814,"zu3Ġfu4Ġ":3815,"cha2ĠdeĠshu4Ġju4Ġ":3816,"2Ġren2Ġ":3817,"lian2Ġbang1":3818,"Ġshi4Ġzhen4Ġbian1Ġma3Ġwei4Ġ":3819,"ĠINSEEĠshi4Ġzhen4Ġbian1Ġma3Ġwei4Ġ":3820,"fen1Ġlei4Ġ":3821,"ĠĠĠV":3822,"mo4Ġsi1Ġ":3823,"Ġguo2Ġwang2Ġ":3824,"ãĢİ":3825,"shi3Ġyong4ĠdeĠ":3826,"qiang3Ġ":3827,"ĠĠĠbei4Ġ":3828,"Ġjun1Ġzai4Ġ":3829,"xuan3Ġqu1Ġwei4Ġ":3830,"ãĢı":3831,"cong2Ġshi4Ġ":3832,"Ġcheng1Ġ":3833,"pai2Ġming2Ġ":3834,"dong4Ġli4Ġ":3835,"Ġbu4Ġguo4":3836,"he2Ġshi4Ġ":3837,"Ġshe4ĠdeĠ":3838,"yun4Ġying2Ġ":3839,"shi2ĠdeĠren2Ġkou3Ġshu4Ġliang4Ġwei4Ġren2Ġ":3840,"Ġm":3841,"zong3Ġtong3":3842,"yi1Ġzhong3Ġ":3843,"mei3Ġguo2Ġren2Ġkou3Ġpu3Ġcha2ĠdeĠshu4Ġju4Ġ":3844,"ĠĠĠ193":3845,"Ġjin3Ġguan3Ġ":3846,"jia1Ġli4Ġ":3847,"Ġer2Ġren2Ġkou3Ġmi4Ġdu4Ġwei4Ġmei3":3848,"Ġchu1Ġban3Ġ":3849,"che1Ġliang4Ġ":3850,"Ġdang1Ġdi4Ġgong4Ġyou3Ġren2Ġkou3Ġ":3851,"hun2":3852,"duo1Ġge4Ġ":3853,"zu2ĠdeĠ":3854,"ling3Ġyu4Ġ":3855,"Ġhuo4Ġjiu4Ġshi4Ġzhen4Ġ":3856,"ĠĠĠli4Ġ":3857,"Ġer2Ġqie3Ġ":3858,"tiao2Ġyue1Ġ":3859,"Ġdong1":3860,"Ġzai4Ġ199":3861,"ge2Ġlan2":3862,"sheng3Ġji2Ġxuan3Ġqu1Ġwei4Ġ":3863,"Ġzhong4Ġ":3864,"ji1Ġji2Ġ":3865,"er2ĠziĠ":3866,"da4Ġbu4Ġfen4":3867,"xi1ĠdeĠ":3868,"man4Ġhua4Ġ":3869,"Ġbu4Ġjiu3Ġ":3870,"gai4Ġnian4Ġ":3871,"Ġshu1Ġ":3872,"xuan3Ġren2Ġ":3873,"jing3Ġcha2Ġ":3874,"ba1Ġnian2Ġ":3875,"xing1ĠdeĠ":3876,"Ġer3Ġde2Ġ":3877,"qi3Ġlai2Ġ":3878,"sheng3Ġhe2Ġ":3879,"Ġyong3Ġ":3880,"Ġguang1Ġ":3881,"fen4Ġwei4Ġfa3Ġguo2Ġ":3882,"Ġgai1Ġsheng3Ġfen4Ġwei4Ġfa3Ġguo2Ġ":3883,"mi3Ġer3Ġ":3884,"Ġzhi1Ġxian4Ġ":3885,"tie3Ġdao4Ġ":3886,"Ġjiu3Ġ":3887,"ao4Ġda4Ġli4Ġ":3888,"Ġjun1Ġdui4Ġ":3889,"fu2Ġjian4Ġ":3890,"guang3Ġzhou1Ġ":3891,"jin3Ġbiao1Ġsai4Ġ":3892,"Ġchu1Ġban3":3893,"Ġwei4Ġshi2Ġ":3894,"qun2Ġdao3Ġ":3895,"Ġgeng4Ġ":3896,"zhai4Ġ":3897,"zui4Ġhou4Ġyi1Ġ":3898,"pai2Ġming2":3899,"Ġw":3900,"tian1Ġwen2Ġ":3901,"mei3Ġyuan2Ġ":3902,"xue1Ġ":3903,"om":3904,"Ġhe2Ġbing4":3905,"tong1Ġchang2":3906,"Ġlan2Ġ":3907,"Ġdi4Ġsi4Ġ":3908,"te4Ġbie2":3909,"en4Ġ":3910,"lai2Ġyuan2Ġ":3911,"ben3ĠdeĠ":3912,"Ġta1Ġbei4Ġ":3913,"guang3Ġfan4Ġ":3914,"xing1Ġjian4Ġ":3915,"Ġdi4Ġsan1":3916,"Ġtou2Ġ":3917,"Ġchu1Ġsheng1Ġyu2Ġ":3918,"she4Ġli4Ġ":3919,"Ġmai4Ġ":3920,"Ġqu1Ġ":3921,"di4Ġyi1Ġ":3922,"Ġri4ĠdeĠ":3923,"shang3Ġ":3924,"wei3Ġhui4Ġ":3925,"reng2Ġran2":3926,"Ġren2Ġgong1Ġ":3927,"Ġyou2Ġxi4":3928,"meng2Ġgu3Ġ":3929,"shan3Ġxi1Ġ":3930,"Ġsong4Ġ":3931,"Ġzhi4Ġyu2Ġ":3932,"Ġci4Ġ":3933,"na":3934,"ao4Ġsi1Ġ":3935,"ceĠ":3936,"wu2Ġren2Ġ":3937,"mu3Ġsi1Ġ":3938,"gan3Ġran3Ġ":3939,"mei3Ġzhou1Ġ":3940,"yun4Ġxing2Ġ":3941,"ĠĠĠb":3942,"Ġming2Ġchao2Ġ":3943,"cai3Ġyong4":3944,"jie1Ġshou4":3945,"Ġbu4Ġming2Ġ":3946,"jia1Ġru4Ġ":3947,"yan2Ġjiu1Ġsuo3Ġ":3948,"Ġxian4Ġlu4Ġ":3949,"Ġshi4Ġbu4Ġ":3950,"yi3Ġji2Ġ":3951,"Ġhe2Ġping2Ġ":3952,"xi1Ġzai4Ġ":3953,"nan2Ġji2Ġ":3954,"hua4Ġshi2Ġ":3955,"hong1Ġ":3956,"Ġliu2":3957,"zuo4Ġpin3":3958,"shuo1Ġfa3Ġ":3959,"guo4Ġcheng2Ġzhong1Ġ":3960,"Ġjin4ĠdeĠ":3961,"ver":3962,"wu3Ġshi2Ġ":3963,"ceng2Ġzai4Ġ":3964,"Ġbu4Ġmen2Ġ":3965,"Ġji1Ġben3Ġ":3966,"zhan4Ġzheng1":3967,"Ġhan2Ġ":3968,"xue2Ġxiao4":3969,"Ġren4Ġwei2":3970,"ma2Ġ":3971,"Ġju4Ġli2Ġ":3972,"Ġbiao3Ġshi4Ġ":3973,"mo2Ġxing2Ġ":3974,"Ġyi4Ġwei4Ġ":3975,"ne4Ġ":3976,"ĠdeĠdi4Ġfang1Ġ":3977,"Ġke4ĠdeĠ":3978,"ji4Ġshu4Ġ":3979,"yun4Ġshu1Ġ":3980,"Ġjian4Ġyi4Ġ":3981,"Ġta1Ġyu3Ġ":3982,"gou4Ġmai3":3983,"24Ġ":3984,"keng1Ġ":3985,"Ġzheng4Ġshi4Ġ":3986,"xue2Ġshi4Ġ":3987,"0Ġnian2Ġdai4":3988,"ren4Ġwei2Ġshi4Ġ":3989,"huan3Ġ":3990,"xue2Ġxi2Ġ":3991,"lun2Ġdun1":3992,"xuan1Ġchuan2Ġ":3993,"Ġzai4Ġyi4Ġ":3994,"Ġyu2Ġ198":3995,"Ġge4Ġdi4Ġ":3996,"3Ġren2Ġ":3997,"lie4Ġwei4Ġ":3998,"ĠdeĠxin1Ġ":3999,"ban4Ġgong1Ġshi4Ġ":4000,"miao3Ġ":4001,"tong2Ġyi1Ġ":4002,"wai4Ġguo2Ġ":4003,"Ġzhen1Ġ":4004,"Ġ10Ġyue4Ġ":4005,"Ġzong3Ġren2Ġkou3Ġ":4006,"shang4Ġyou3Ġ":4007,"yuan2Ġwei4Ġ":4008,"kun4":4009,"Ġjiang3Ġ":4010,"liao3Ġ":4011,"gong1Ġzuo4Ġ":4012,"ni2Ġsi1Ġ":4013,"Ġzai4Ġzhong1Ġguo2Ġ":4014,"Ġxiao1Ġ":4015,"yang3Ġhua4Ġ":4016,"30Ġnian2Ġ":4017,"50Ġ":4018,"zhai2Ġ":4019,"ur":4020,"ĠĠĠp":4021,"fang1Ġmian4":4022,"tai4Ġyang2Ġ":4023,"Ġzi4Ġji3Ġ":4024,"hai3Ġjun1":4025,"cheng1Ġwei4Ġ":4026,"xiao1Ġxi1Ġ":4027,"Ġxian4Ġren2Ġ":4028,"uo4Ġ":4029,"biao1Ġzhi4Ġ":4030,"zhi4Ġwei4Ġ":4031,"ĠdeĠguan1Ġ":4032,"you2Ġxi4":4033,"ad":4034,"Ġyu3":4035,"Ġgeng4":4036,"Ġxian1Ġ":4037,"fu4Ġze2Ġguan3Ġxia2Ġ":4038,"fen1Ġzhi1Ġ":4039,"Ġwei2Ġzhu3Ġ":4040,"dao1Ġ":4041,"Ġqing1":4042,"LĠ":4043,"gou4Ġcheng2Ġ":4044,"tuo2":4045,"shi1ĠdeĠ":4046,"ĠÎ":4047,"gun3":4048,"zhe2Ġxue2Ġ":4049,"Ġji2Ġqi2Ġ":4050,"ĠĠĠyi3Ġ":4051,"zhu3Ġjue2Ġ":4052,"Ġji4Ġhua4":4053,"zai4Ġshi4Ġ":4054,"zheng4ĠdeĠ":4055,"jie4Ġquan2Ġguo2Ġ":4056,"si4Ġchuan1Ġ":4057,"dang3ĠdeĠ":4058,"huan2Ġjing4":4059,"bi3Ġde2Ġ":4060,"Ġdao4Ġlu4Ġ":4061,"ub":4062,"zha1Ġ":4063,"ma3Ġli4Ġ":4064,"ac":4065,"Ġtu2Ġ":4066,"2024Ġnian2Ġ":4067,"Ġyi1Ġxie1":4068,"kan3Ġ":4069,"Ġji4Ġnian4Ġ":4070,"15Ġ":4071,"bu4Ġwei4Ġ":4072,"Ġrang4":4073,"Ġwu1Ġ":4074,"Ġshi4Ġmei3Ġguo2Ġ":4075,"ĠĠĠU":4076,"peng2Ġyou3Ġ":4077,"si1Ġzai4Ġ":4078,"rou4Ġ":4079,"ai4Ġer3Ġ":4080,"chi2Ġxu4":4081,"Ġgong1Ġgong4Ġ":4082,"ao4Ġyun4Ġ":4083,"kang4Ġyi4Ġ":4084,"yue1Ġwei4Ġ":4085,"tai4Ġguo2Ġ":4086,"sheng1Ġwu4Ġ":4087,"ĠĠĠyou3Ġ":4088,"Ġdi2Ġ":4089,"jie1Ġwei4Ġ":4090,"lie4ĠdeĠ":4091,"xuan3Ġqu1Ġ":4092,"hui4Ġyou3Ġ":4093,"shou1Ġru4Ġ":4094,"yi4Ġhe2Ġ":4095,"Ġbei4Ġer3Ġ":4096,"xiao4Ġzhang3Ġ":4097,"wen2Ġjian4Ġ":4098,"shi2Ġzai4Ġ":4099,"zheng4Ġce4Ġ":4100,"tiao3":4101,"xuan3Ġze2":4102,"1Ġren2Ġ":4103,"rong2Ġyi4Ġ":4104,"Ġyou4Ġcheng1Ġ":4105,"Ġjie2Ġzhi4Ġ":4106,"suo3Ġshu3ĠdeĠsheng3Ġji2Ġxuan3Ġqu1Ġwei4Ġ":4107,"zhong1Ġzai4Ġ":4108,"biao1Ġwei4Ġ":4109,"fo2Ġjiao4Ġ":4110,"Ġzhi1Ġchi2":4111,"kun1Ġ":4112,"can1Ġyu4":4113,"ĠĠĠche1Ġzhan4Ġ":4114,"Ġkai1Ġshi3Ġ":4115,"yan3ĠdeĠ":4116,"bian1Ġji2Ġ":4117,"ĠĠĠshi2Ġ":4118,"tie1Ġ":4119,"yin2Ġhang2":4120,"yu3Ġyan2Ġ":4121,"si1Ġdi4Ġ":4122,"Ġer2Ġqie3":4123,"Ġchen2":4124,"Ġsheng1Ġwu4Ġ":4125,"tou2Ġru4Ġ":4126,"qi1Ġjian1":4127,"Ġren4":4128,"Ġhuo4Ġshi4Ġ":4129,"jun1Ġdui4Ġ":4130,"nan2Ġxing4Ġ":4131,"gua1Ġ":4132,"jie3Ġfang4Ġjun1Ġ":4133,"xiang1Ġdui4Ġ":4134,"Ġqian1Ġ":4135,"tiao3Ġzhan4Ġ":4136,"Ġyuan2Ġzhu4Ġ":4137,"Ġchu1ĠleĠ":4138,"Ġzhi4Ġdu4Ġ":4139,"qian2Ġwang3":4140,"gai3Ġbian4Ġ":4141,"ĠĠĠhe2Ġ":4142,"Ġfei1":4143,"shou4Ġyu3Ġ":4144,"Ġzhong1Ġyou3Ġ":4145,"Ġzhan4Ġzheng1":4146,"Ġnian2Ġdu4Ġ":4147,"Ġyi1Ġzhong3Ġ":4148,"gao1Ġyu2Ġ":4149,"gan3Ġdao4Ġ":4150,"jie1Ġrang3Ġ":4151,"Ġyi3Ġshang4Ġ":4152,"su2Ġ":4153,"Ġ2020Ġnian2Ġ":4154,"yun4Ġhui4Ġ":4155,"ĠĠĠta1":4156,"rou2":4157,"Ġbei3":4158,"Ġdi4Ġxia4Ġ":4159,"ge1Ġqu3":4160,"Ġshi4Ġyi2Ġge4":4161,"yang1Ġ":4162,"wen3Ġding4Ġ":4163,"pei4Ġhe2Ġ":4164,"Ġyu2Ġ19":4165,"op":4166,"Ġshi4Ġtu2Ġ":4167,"gao3Ġ":4168,"jia1Ġren2Ġ":4169,"an4Ġjian4Ġ":4170,"Ġtai2Ġwan1":4171,"ind":4172,"Ġzai4Ġbu4Ġ":4173,"ti2Ġming2Ġ":4174,"ji4Ġzhong1Ġ":4175,"da2Ġcheng2Ġ":4176,"Ġer4":4177,"tong2ĠdeĠ":4178,"ĠĠĠ2021":4179,"wu3Ġqi4Ġ":4180,"zhuo2Ġ":4181,"shu4Ġliang4Ġ":4182,"jian3Ġjie4Ġ":4183,"lai2Ġshuo1Ġ":4184,"tian1Ġzhu3Ġjiao4Ġ":4185,"leng3Ġ":4186,"biao3Ġming2Ġ":4187,"Ġzhong1Ġguo2Ġren2Ġmin2Ġ":4188,"ting2Ġzhi3Ġ":4189,"duo2ĠdeĠ":4190,"ying3Ġpian4Ġ":4191,"xi1Ġban1Ġya2Ġ":4192,"Â°":4193,"Ġer2Ġren2Ġkou3Ġmi4Ġdu4Ġwei4Ġmei3Ġping2Ġfang1Ġqian1Ġmi3Ġ":4194,"ban4Ġdao3Ġ":4195,"Ġni2Ġ":4196,"xiao3ĠdeĠ":4197,"ta1ĠmenĠ":4198,"Ġxi1":4199,"zheng4Ġshi2Ġ":4200,"ce4ĠdeĠ":4201,"zao4ĠdeĠ":4202,"Ġwei4Ġfu2":4203,"zhu3Ġti2Ġ":4204,"shen1Ġfen4":4205,"Ġhua4Ġ":4206,"uo3Ġ":4207,"jue2Ġse4":4208,"que4Ġzhen3":4209,"zhe4Ġzhong3Ġ":4210,"ï½":4211,"Ġji1Ġbai4Ġ":4212,"Ġshi3Ġyong4Ġ":4213,"jie2Ġmu4":4214,"di4Ġshi4Ġ":4215,"Ġping2Ġfang1Ġmi3Ġ":4216,"ĠĠĠyuan2Ġ":4217,"Ġjia1Ġna2Ġda4Ġ":4218,"zi4Ġzhi4Ġqu1Ġ":4219,"ĠĠĠc":4220,"inĠ":4221,"Ġ8Ġyue4Ġ":4222,"la1Ġke4Ġ":4223,"lei4ĠdeĠ":4224,"Ġzai4Ġmei3Ġguo2Ġ":4225,"ĠĠĠzi4Ġ":4226,"hun4Ġhe2Ġ":4227,"ju3Ġren2Ġ":4228,"Ġshi2Ġyan4":4229,"39":4230,"kao4Ġ":4231,"chong1Ġtu1Ġ":4232,"tuan2Ġdui4Ġ":4233,"4Ġren2Ġ":4234,"quan2ĠdeĠ":4235,"guo1Ġ":4236,"ke3Ġneng2Ġhui4Ġ":4237,"ya1Ġli4Ġ":4238,"guo2Ġzai4Ġ":4239,"ji4Ġwei4Ġ":4240,"Ġer2Ġbei4Ġ":4241,"ji4Ġhua4Ġ":4242,"Ġji4Ġcheng2Ġ":4243,"Ġhai2Ġyou3Ġ":4244,"gong4Ġxian4Ġ":4245,"ĠThe":4246,"xin1Ġli3Ġ":4247,"Ġshi2Ġshi1Ġ":4248,"jian3Ġcha2Ġ":4249,"Ġdi4Ġtie3Ġ":4250,"sheng1Ġchan3":4251,"fen1Ġbie2Ġ":4252,"dian1Ġ":4253,"duo1Ġci4Ġ":4254,"li4Ġbu4Ġ":4255,"ka1Ġ":4256,"Ġfan3Ġ":4257,"ag":4258,"tionĠ":4259,"chan3Ġye4Ġ":4260,"lian2Ġxu4Ġ":4261,"ceng2Ġjing1Ġ":4262,"Ġtong1Ġguo4Ġ":4263,"xing2Ġdong4Ġ":4264,"Ġlin2":4265,"fan1Ġyi4Ġ":4266,"i3Ġ":4267,"Ġhe2Ġliu2Ġ":4268,"ni1Ġ":4269,"Ġzu3Ġ":4270,"da4Ġbu4Ġfen4Ġ":4271,"zui4Ġzao3":4272,"Ġchu1Ġren4Ġ":4273,"zhi3Ġhui1":4274,"25Ġ":4275,"cao1Ġzuo4Ġ":4276,"jia1Ġna2Ġda4Ġ":4277,"Ġzi4Ġyou2Ġ":4278,"ban4Ġshi4Ġ":4279,"ampĠ":4280,"Ġzai4Ġda4Ġ":4281,"Ġxi1Ġwang4Ġ":4282,"shao3Ġshu4Ġ":4283,"an1Ġde2Ġ":4284,"chong2Ġjian4Ġ":4285,"xiao3Ġzu3Ġ":4286,"shou3ĠdeĠ":4287,"tou4Ġ":4288,"Ġxing1Ġ":4289,"Ġshi4Ġyi3Ġ":4290,"Ġjian4Ġzhu4":4291,"jian3Ġshao3Ġ":4292,"fen4Ġzi3Ġ":4293,"Ġzi4":4294,"Ġwei4Ġneng2Ġ":4295,"You":4296,"xing2Ġwei2Ġ":4297,"shu2":4298,"dong4ĠdeĠ":4299,"kong1Ġjun1Ġ":4300,"Ġshi2Ġfen1Ġ":4301,"zhou4Ġ":4302,"ban4Ġgong1Ġ":4303,"mei2Ġti3":4304,"Ġzhi4Ġzuo4":4305,"gong4Ġtong2":4306,"ji4Ġnian4Ġ":4307,"Ġyi4Ġyou3Ġ":4308,"mei3Ġnian2Ġ":4309,"shen1ĠdeĠ":4310,"Ġhe2Ġbei3Ġ":4311,"Ġxian4Ġwei4Ġ":4312,"Ġ2009Ġnian2Ġ":4313,"5Ġren2Ġ":4314,"Ġluo4Ġ":4315,"Ġan4Ġ":4316,"ou1Ġyuan2Ġ":4317,"gong1Ġyuan2Ġ":4318,"Ġshang1Ġ":4319,"lun2Ġdun1Ġ":4320,"6Ġren2Ġ":4321,"Ġyi3Ġse4Ġ":4322,"xian4Ġdai4Ġ":4323,"Ġshi4Ġyi1Ġming2Ġ":4324,"ap":4325,"bao3Ġhu4":4326,"Ġshi3ĠdeĠ":4327,"Ġyou4Ġming2Ġ":4328,"ying4ĠdeĠ":4329,"xiang1Ġtong2Ġ":4330,"wei3Ġyuan2Ġhui4":4331,"ji2Ġzai4Ġ":4332,"chao2Ġxian1":4333,"hi":4334,"jie2Ġgou4":4335,"ming4Ġming2Ġwei4Ġ":4336,"ĠdeĠshou3Ġ":4337,"Ġgong1Ġsi1ĠdeĠ":4338,"jing1Ġying2Ġ":4339,"dong4Ġji1Ġ":4340,"da3Ġji1Ġ":4341,"ĠdeĠdi4Ġqu1Ġ":4342,"Ġzhi3Ġyou3Ġ":4343,"Ġdui4":4344,"zhan3Ġshi4Ġ":4345,"yong4Ġlai2Ġ":4346,"qi3Ġyong4Ġ":4347,"xun2Ġhui2Ġ":4348,"Ġfan4Ġ":4349,"Ġyi1Ġci4Ġ":4350,"pan1Ġ":4351,"Ġshe4Ġqu1Ġ":4352,"tou2Ġpiao4Ġ":4353,"Ġdou1Ġ":4354,"ĠĠĠ2019":4355,"Ġti3Ġzhang3Ġ":4356,"shou3Ġwei4Ġ":4357,"xia4Ġwu3Ġ":4358,"Ġliang3Ġren2Ġ":4359,"Ġzhi2Ġzhi4Ġ":4360,"jiao4Ġtang2Ġ":4361,"yi4Ġzai4Ġ":4362,"Ġji4Ġxu4":4363,"Ġsi1Ġling4":4364,"ren4Ġwu4Ġ":4365,"lu4Ġdi4Ġmian4Ġji1Ġwei4Ġ":4366,"enĠ":4367,"ping2Ġjia4Ġ":4368,"han3Ġ":4369,"Ġdeng3":4370,"bu4Ġshi4Ġ":4371,"mu4Ġsi1Ġ":4372,"jie1Ġjin4Ġ":4373,"lei4Ġxing2Ġ":4374,"Ġguo2Ġli4Ġ":4375,"wai4Ġjiao1Ġ":4376,"47":4377,"Ġhua1Ġ":4378,"fu2Ġhe2Ġ":4379,"Ġshi2Ġzi4Ġ":4380,"Ġruo4Ġ":4381,"dian4Ġli4Ġ":4382,"16Ġ":4383,"Ġfu4Ġjin4Ġ":4384,"Ġyu4":4385,"xing3":4386,"kun4Ġ":4387,"zhi2ĠdeĠ":4388,"ju3Ġxing2ĠdeĠ":4389,"ti3Ġxi4Ġ":4390,"liang3Ġge4":4391,"xue2Ġzhe3Ġ":4392,"zhe4Ġge":4393,"fo2Ġ":4394,"zuo4Ġjia1Ġ":4395,"bi3Ġsai4Ġzhong1Ġ":4396,"KĠ":4397,"Ġda4Ġshi3Ġ":4398,"fu2Ġwu4":4399,"ï½ŀ":4400,"Ġfei4Ġ":4401,"gui1Ġmo2":4402,"Ġshe4Ġbei4Ġ":4403,"qu3Ġxiao1Ġ":4404,"zhuo1":4405,"zhu4Ġyi4Ġ":4406,"AT":4407,"zhu4Ġzuo4Ġ":4408,"ĠampĠ":4409,"Ġsi1Ġling4Ġ":4410,"de2Ġdao4Ġ":4411,"xiang4Ġshi4Ġ":4412,"hai3Ġyu4Ġ":4413,"ying1Ġge2Ġlan2Ġ":4414,"jie2Ġzhi4Ġ":4415,"Ġda4Ġchen2Ġ":4416,"Ġcong2Ġer2Ġ":4417,"Ġdang1Ġzhong1Ġlu4Ġdi4Ġmian4Ġji1Ġwei4Ġ":4418,"shui3Ġyu4Ġmian4Ġji1Ġwei4Ġ":4419,"zhi4Ġhe2Ġ":4420,"Ġer2Ġshui3Ġyu4Ġmian4Ġji1Ġwei4Ġ":4421,"Ġai1":4422,"Ġli4Ġji2Ġ":4423,"Ġli4Ġfa3Ġ":4424,"ĠĠĠ2018":4425,"ĠĠĠxi1Ġ":4426,"Ġli4Ġru2":4427,"Ġgu3":4428,"shui3Ġping2Ġ":4429,"Ġzhi1Ġshi2Ġ":4430,"fa3Ġlv4":4431,"gao1Ġsu4":4432,"chang2Ġqi1Ġ":4433,"kuai4Ġsu4Ġ":4434,"Ġ9Ġyue4Ġ":4435,"Ġcheng2Ġli4Ġyu2Ġ":4436,"ĠĠĠgai4Ġ":4437,"lv3Ġke4Ġ":4438,"Ġwei2Ġer3Ġ":4439,"da":4440,"UĠ":4441,"Ġzhuan1Ġ":4442,"dai4Ġyou3Ġ":4443,"ling4Ġwai4Ġ":4444,"sheng1Ġhuo2":4445,"ying1Ġchi3Ġ":4446,"oun":4447,"xi1Ġyang2Ġ":4448,"ĠĠĠxing2Ġzheng4Ġqu1Ġhua4Ġ":4449,"shu2Ġ":4450,"Ġjia1Ġshang4Ġ":4451,"can1Ġjia1":4452,"ĠĠĠ2022":4453,"yuan4Ġzhang3Ġ":4454,"dian3ĠdeĠ":4455,"ji3Ġyu3Ġ":4456,"Ġyi3Ġhou4Ġ":4457,"guan1Ġzhong4Ġ":4458,"bi3Ġya4Ġ":4459,"wei1Ġlian2Ġ":4460,"Ġjun1Ġwei4Ġ":4461,"min2ĠdeĠ":4462,"shuo4Ġshi4Ġ":4463,"Ġde2ĠdeĠ":4464,"Ġbei4":4465,"wei3Ġshu1Ġji4Ġ":4466,"zhi4Ġzai4Ġ":4467,"Ġyi4Ġren2Ġ":4468,"Ġhai2":4469,"eng1Ġli4Ġ":4470,"Ġyuan2Ġyin1Ġ":4471,"pi1Ġzhun3Ġ":4472,"feng1Ġbao4Ġ":4473,"ec":4474,"dao3Ġyu3Ġ":4475,"bao3Ġchi2Ġ":4476,"dong1Ġxi1Ġ":4477,"Ġxin1Ġwen2Ġ":4478,"Ġzhe4Ġjiang1Ġ":4479,"Ġwei4Ġfu2Ġqi2Ġyu2Ġ":4480,"xin4Ġhao4Ġ":4481,"22Ġ":4482,"jie2Ġshu4Ġhou4Ġ":4483,"Ġti2Ġ":4484,"ci4Ġshi4Ġjie4Ġda4Ġzhan4Ġ":4485,"Ġ7Ġyue4Ġ":4486,"chuan4Ġ":4487,"zhao3Ġ":4488,"ren4Ġming4":4489,"ru2Ġhe2Ġ":4490,"shou4Ġshang1Ġ":4491,"ak":4492,"Ġshi4Ġyi1Ġwei4Ġ":4493,"lian2Ġxi4Ġ":4494,"tao3Ġlun4Ġ":4495,"fa1Ġchu1Ġ":4496,"xing4Ġzhi4Ġ":4497,"yan3Ġchang4Ġhui4Ġ":4498,"tui4Ġyi4Ġ":4499,"Ġshi4Ġqu1Ġ":4500,"ing":4501,"jia1Ġhe2Ġ":4502,"ji1Ġzhi4Ġ":4503,"ya4ĠdeĠ":4504,"ĠformulaĠ":4505,"ĠĠĠyi4Ġ":4506,"Ġjian4Ġcheng2Ġ":4507,"Ġping2":4508,"nei4Ġrong2":4509,"Ġming2Ġcheng1Ġ":4510,"sui2Ġhou4Ġ":4511,"wei4Ġzhi4Ġ":4512,"zhu4Ġming2ĠdeĠ":4513,"Ġbo1":4514,"Ġpi2Ġ":4515,"Ġrang4Ġ":4516,"dian4Ġtai2Ġ":4517,"chi1Ġ":4518,"Ġti3Ġzhang3Ġke3Ġda2Ġ":4519,"zhuan1Ġjia1Ġ":4520,"Ġ21Ġ":4521,"fu1Ġren2Ġ":4522,"cha1Ġyi4Ġ":4523,"Ġer3Ġte4Ġ":4524,"Ġjie2Ġguo3Ġ":4525,"ĠdeĠyi1Ġzuo4Ġ":4526,"Ġzai4Ġyu2Ġ":4527,"bi4Ġye4Ġyu2Ġ":4528,"di3Ġda2Ġ":4529,"wang3Ġlu4Ġ":4530,"ĠdeĠqian2Ġ":4531,"ru4Ġqin1Ġ":4532,"cun1Ġzhuang1Ġ":4533,"Ġ12Ġyue4Ġ":4534,"neng2Ġgou4":4535,"Ġmin2Ġguo2Ġ":4536,"Ġke4Ġli3Ġ":4537,"Ġbu4Ġli3Ġ":4538,"Ġyi3Ġxia4":4539,"zong3Ġdu1Ġ":4540,"zhan4Ġzhong1Ġ":4541,"Ġda3Ġ":4542,"Ġ11Ġyue4Ġ":4543,"chai2":4544,"ĠĠĠ2017":4545,"lai2Ġdao4Ġ":4546,"Ġren2Ġlei4Ġ":4547,"zhou4":4548,"hai2ĠziĠ":4549,"ru4Ġkou3Ġ":4550,"cuo4Ġshi1Ġ":4551,"bi4Ġxu1":4552,"qi1Ġzi3Ġ":4553,"pu3Ġtong1Ġ":4554,"Ġzhi1Ġzhong1Ġ":4555,"Ġyi4Ġshu4":4556,"Ġjian4Ġdui4Ġ":4557,"Ġxue2Ġxiao4":4558,"zu3Ġcheng2ĠdeĠ":4559,"fa3ĠdeĠ":4560,"Ġshi2Ġren4Ġ":4561,"Ġjing1Ġguo4Ġ":4562,"gua4Ġ":4563,"yu3Ġzhong1Ġ":4564,"Ġyi1Ġsheng1Ġ":4565,"Ġzheng4Ġce4Ġ":4566,"gu1Ġji4Ġ":4567,"yan2Ġge2Ġ":4568,"tai4Ġping2Ġyang2Ġ":4569,"9Ġren2Ġ":4570,"Ġwang2":4571,"Ġmeng2Ġ":4572,"tong2Ġyi4Ġ":4573,"Ġer3Ġhe2Ġ":4574,"guang3Ġbo1":4575,"chu1Ġban3Ġ":4576,"dao3Ġshi4Ġ":4577,"si4Ġge4Ġ":4578,"fa1Ġdian4Ġ":4579,"Ġling2Ġ":4580,"sheng1Ġwei4Ġ":4581,"ĠĠĠde":4582,"13Ġ":4583,"cheng2Ġgong1Ġ":4584,"gong4Ġchan3Ġdang3":4585,"qi4Ġche1Ġ":4586,"Ġshi4Ġyou3Ġ":4587,"ming2Ġcheng1Ġ":4588,"Ġsheng1Ġchan3Ġ":4589,"Ġtong1Ġchang2Ġ":4590,"che4Ġxiao1Ġ":4591,"8Ġren2Ġ":4592,"leĠda4Ġ":4593,"zhu4Ġyu2Ġ":4594,"Ġde2Ġyi3Ġ":4595,"ĠdeĠshi2Ġqu1Ġwei4Ġ":4596,"fei3Ġ":4597,"geng4Ġjia1Ġ":4598,"shang3":4599,"Ġshi2Ġxian4Ġ":4600,"guai4Ġ":4601,"Ġshang4Ġhai3":4602,"ye3Ġzai4Ġ":4603,"fan3Ġhui2Ġ":4604,"gĠ":4605,"23Ġ":4606,"nai3Ġ":4607,"xiao1Ġshou4Ġ":4608,"GĠ":4609,"46":4610,"ĠĠĠzhi4Ġ":4611,"indow":4612,"ju2Ġzhang3Ġ":4613,"Ġru2Ġguo3":4614,"ĠdeĠshi2Ġjian1Ġ":4615,"lu4Ġyi4Ġ":4616,"ĠĠĠ2016":4617,"Ġwei4Ġsheng1Ġ":4618,"Ġqiang2Ġ":4619,"yue4Ġtai2Ġ":4620,"que4Ġding4Ġ":4621,"Ġke1":4622,"ĠĠĠs":4623,"guang3Ġxi1Ġ":4624,"ha1Ġer3Ġ":4625,"alĠ":4626,"kuo4Ġda4Ġ":4627,"deng1Ġlu4Ġ":4628,"ĠhansĠ":4629,"yi4Ġzhong1Ġ":4630,"rong2Ġyu4Ġ":4631,"Ġping2Ġtai2Ġ":4632,"ĠtwĠ":4633,"Ġshi4Ġyan3Ġ":4634,"Ġyin4Ġdu4Ġ":4635,"zhong4Ġda4Ġ":4636,"dong4Ġzuo4Ġ":4637,"xun4Ġlian4":4638,"mu3Ġqin1Ġ":4639,"55":4640,"zhi3Ġzai4Ġ":4641,"Ġche1Ġ":4642,"yue4Ġshi2Ġ":4643,"ĠĠĠin":4644,"ye4Ġhou4Ġ":4645,"zhe4Ġjiang1Ġ":4646,"Ġbing4Ġmei2Ġyou3Ġ":4647,"Ġwan4Ġren2Ġ":4648,"Ġjin3Ġguan3":4649,"Ġji1Ġgou4":4650,"ĠĠĠdeĠshi2Ġ":4651,"Ġbian1Ġ":4652,"yu3Ġhe2Ġ":4653,"jiao4Ġqu1Ġ":4654,"jin4Ġxing2":4655,"Ġhuo4Ġzhe3Ġ":4656,"Ġye3Ġyou3Ġ":4657,"Ġyan3Ġ":4658,"wu4Ġzhong3":4659,"Ġbu4Ġke3Ġ":4660,"ba1Ġxi1Ġ":4661,"po4Ġhuai4Ġ":4662,"wan3Ġshang4Ġ":4663,"Ġci3Ġshi2Ġ":4664,"fu4ĠdeĠ":4665,"ba1Ġli2Ġ":4666,"chu1Ġban3":4667,"ya4Ġli4Ġshan1":4668,"Ġmu4Ġqian2":4669,"Ġchang2":4670,"Ġguo2Ġwu4Ġ":4671,"Ġ189":4672,"Ġgong1Ġye4":4673,"Ġxue2Ġxi2Ġ":4674,"Ġa1Ġer3Ġ":4675,"yuan4ĠdeĠ":4676,"00Ġnian2Ġ":4677,"xu1Ġqiu2Ġ":4678,"Ġzhi1Ġyuan2Ġ":4679,"ï¼ı":4680,"can1Ġkao3Ġ":4681,"ĠĠĠnian2Ġ":4682,"7Ġren2Ġ":4683,"rao3Ġ":4684,"Ġque4":4685,"ĠĠĠzh":4686,"guan1Ġzhu4Ġ":4687,"zhi2Ġwei4Ġ":4688,"xue2Ġhe2Ġ":4689,"sun3Ġshi1Ġ":4690,"cui4Ġ":4691,"biao3Ġxian4":4692,"zhe4Ġxie1":4693,"fa1Ġxian4ĠleĠ":4694,"heng2Ġxing1Ġ":4695,"Ġsa4Ġ":4696,"kan4Ġdao4Ġ":4697,"fu4Ġqin1Ġ":4698,"ĠĠĠ3":4699,"Ġjia1Ġting2Ġ":4700,"fa1Ġsheng1":4701,"bian3Ġ":4702,"gai3Ġbian1":4703,"tang1Ġ":4704,"zui4Ġchu1Ġ":4705,"lin2ĠdeĠ":4706,"Ġbing4Ġyi3Ġ":4707,"zhan4Ġdi4Ġ":4708,"xiong1Ġya2":4709,"wa1Ġ":4710,"zong4Ġ":4711,"ĠÑ":4712,"ĠĠĠ2014":4713,"yi2Ġdong4Ġ":4714,"hua2Ġmin2Ġguo2Ġ":4715,"ĠĠĠsuo3Ġshu3ĠdeĠsheng3Ġji2Ġxuan3Ġqu1Ġwei4Ġ":4716,"ĠĠĠdeĠyou2Ġzheng4Ġbian1Ġma3Ġwei4Ġ":4717,"ĠĠĠyu3Ġjie1Ġrang3ĠdeĠshi4Ġzhen4Ġ":4718,"ĠĠĠyu2Ġshi2ĠdeĠren2Ġkou3Ġshu4Ġliang4Ġwei4Ġren2Ġ":4719,"ĠĠĠdeĠshi2Ġqu1Ġwei4Ġ":4720,"zhuang1Ġzhi4Ġ":4721,"Ġceng2Ġren4Ġ":4722,"Ġ6Ġyue4Ġ":4723,"ĠĠĠ2023":4724,"ji4Ġhe2Ġ":4725,"su1Ġlian2":4726,"Ġzuo4Ġyong4Ġ":4727,"ĠĠĠ2010Ġnian2Ġ":4728,"tu2Ġzhong1Ġ":4729,"ran":4730,"Ġf":4731,"kai1Ġfang4":4732,"Ġgai3":4733,"fa1ĠdeĠ":4734,"Ġd":4735,"Ġzhi1Ġming2Ġ":4736,"tai2Ġbei3Ġ":4737,"zong3Ġbu4Ġ":4738,"Ġsi1Ġla1Ġ":4739,"xiang1Ġdang1Ġ":4740,"ber":4741,"shi2Ġwei4Ġ":4742,"ming2Ġyi4Ġ":4743,"Ġci2Ġ":4744,"wei2ĠdeĠ":4745,"ru2Ġci3Ġ":4746,"ĠĠĠji1Ġ":4747,"guan3Ġli3":4748,"duo1Ġnian2Ġ":4749,"Ġshi4Ġzhang3Ġ":4750,"zi1Ġxun4Ġ":4751,"jiang3Ġxiang4Ġ":4752,"jin4Ġshi4Ġ":4753,"14Ġ":4754,"Ġyi1Ġdai4Ġ":4755,"Ġchu1Ġxian4Ġzai4Ġ":4756,"Ġsi1Ġtan3Ġ":4757,"zhu3Ġchi2Ġ":4758,"chang4Ġpian4Ġ":4759,"xiong1Ġya2Ġli4Ġ":4760,"zi4Ġdong4Ġ":4761,"Ġren2Ġshu4Ġ":4762,"Ġdan4Ġta1Ġ":4763,"Ġchuan2Ġ":4764,"ov":4765,"sai4ĠdeĠ":4766,"tai2ĠdeĠ":4767,"Ġdi4Ġqiu2Ġ":4768,"xun4Ġsu4Ġ":4769,"tou":4770,"ti2Ġsheng1Ġ":4771,"fei1Ġjian4Ġzhi4Ġ":4772,"shu4Ġxue2Ġ":4773,"Ġyu2Ġ197":4774,"ĠhkĠ":4775,"xi4Ġju4Ġ":4776,"Ġge4Ġzhong3Ġ":4777,"xiang4Ġmu4":4778,"Ġ5Ġyue4Ġ":4779,"Ġwei4Ġhe2Ġ":4780,"Ġbing4Ġli4Ġ":4781,"tui1Ġdong4Ġ":4782,"75":4783,"Ġcheng2Ġwei2ĠleĠ":4784,"niu3Ġyue1Ġ":4785,"Ġyi4Ġyuan4Ġ":4786,"fa1Ġxing2":4787,"Ġshi4Ġzhi3Ġ":4788,"te4Ġli3Ġ":4789,"kang4Ġri4Ġ":4790,"100Ġ":4791,"Ġhe2Ġxin1Ġ":4792,"Ġtuo1Ġ":4793,"Ġjie2Ġmu4Ġ":4794,"ĠĠĠ2015":4795,"shou1Ġlu4Ġ":4796,"jiao4ĠdeĠ":4797,"zhan4Ġdou4":4798,"lan2Ġke4Ġ":4799,"huang1Ġ":4800,"wang2ĠdeĠ":4801,"cai2Ġzheng4Ġ":4802,"Ġnian2Ġqing1":4803,"Ġzai4Ġ19":4804,"Ġda2Ġ":4805,"Ġji4Ġzai3Ġ":4806,"sa4Ġke4Ġ":4807,"ĠĠĠ2013":4808,"zhuang4Ġkuang4Ġ":4809,"Ġ2019":4810,"Ġzhong1Ġwen2Ġ":4811,"pao3":4812,"12Ġnian2Ġ":4813,"min2Ġzhong4Ġ":4814,"jin4Ġgong1Ġ":4815,"gao1Ġdu4Ġ":4816,"qi3Ġyi4Ġ":4817,"Ġren2ĠmenĠ":4818,"wei1Ġxie2Ġ":4819,"Ġ2011":4820,"zhong4Ġdian3Ġ":4821,"Ġzhu1":4822,"Ġru4Ġ":4823,"lv4Ġwei4Ġ":4824,"ab":4825,"leĠta1Ġ":4826,"Ġhe2Ġbing4Ġ":4827,"ĠĠĠzhong1Ġguo2Ġ":4828,"zeng1Ġzhang3Ġ":4829,"mang2Ġ":4830,"can2Ġ":4831,"Ġbu4Ġduan4Ġ":4832,"Ġxi1Ġban1Ġya2":4833,"li4Ġshi4Ġ":4834,"ye3Ġbei4Ġ":4835,"sui1Ġran2Ġ":4836,"fei1Ġjian4Ġzhi4Ġdi4Ġqu1Ġ":4837,"Ġqian2":4838,"en3Ġ":4839,"nuo2":4840,"Ġou1Ġ":4841,"tu2Ġshu1Ġguan3Ġ":4842,"Ġche1Ġzhan4Ġ":4843,"dou1Ġhui4Ġ":4844,"Ġji2Ġqi2":4845,"ye1Ġ":4846,"Ġgui1Ġ":4847,"jing1Ġshen2Ġ":4848,"av":4849,"tor":4850,"Ġwei2Ġqi2Ġ":4851,"xi4Ġtong3ĠdeĠ":4852,"Ġguang3Ġ":4853,"cĠ":4854,"liang3Ġren2Ġ":4855,"hai3Ġdao4Ġ":4856,"ying2Ġyun4Ġ":4857,"shang4Ġshu1Ġ":4858,"min2Ġzu2":4859,"ao4Ġdi4Ġli4Ġ":4860,"18Ġ":4861,"Ġda4Ġlou2Ġ":4862,"Ġe2Ġluo2Ġsi1Ġ":4863,"Ġshi4Ġji2Ġ":4864,"Ġhe2Ġzhong1Ġ":4865,"ling3Ġdao3Ġren2Ġ":4866,"ĠĠĠf":4867,"jiang1Ġxi1Ġ":4868,"liang3Ġnian2Ġ":4869,"Ġsheng1Ġhuo2":4870,"Ġzhong1Ġguo2Ġgong4Ġchan3Ġdang3Ġ":4871,"Ġyin1Ġer2Ġ":4872,"yin1Ġshi4Ġ":4873,"jie2Ġhun1Ġ":4874,"mou3Ġxie1Ġ":4875,"um":4876,"pi3Ġ":4877,"tai4Ġyang2":4878,"can1Ġjia1ĠleĠ":4879,"yue4Ġzai4Ġ":4880,"Ġjin4Ġru4":4881,"Ġchuang4Ġ":4882,"hua4Ġwei4Ġ":4883,"jie2Ġke4Ġ":4884,"ĠdeĠcheng2Ġyuan2Ġ":4885,"AS":4886,"Ġlv4Ġ":4887,"xi4Ġbao1":4888,"Ġhe2Ġcheng2Ġ":4889,"Ġji4Ġsuan4":4890,"Ġjin3":4891,"ju4ĠdeĠ":4892,"na4Ġli3Ġ":4893,"Ġzao4Ġcheng2Ġ":4894,"zhen3Ġ":4895,"yin3Ġfa1Ġ":4896,"Ġ4Ġyue4Ġ":4897,"diao4Ġcha2":4898,"shen1Ġwei4Ġ":4899,"ju1Ġzhu4Ġ":4900,"xia4Ġji4Ġao4Ġlin2Ġpi3Ġke4Ġyun4Ġdong4Ġhui4Ġ":4901,"Ġai1Ġ":4902,"40Ġ":4903,"Ġruo4":4904,"Ġquan2Ġguo2Ġ":4905,"sui4Ġdao4Ġ":4906,"shi2Ġjian1Ġ":4907,"yong4Ġhu4Ġ":4908,"chang4Ġpian4":4909,"meng3Ġ":4910,"xiao4Ġguo3Ġ":4911,"chan3Ġsheng1ĠdeĠ":4912,"shuo1Ġming2Ġ":4913,"Ġzheng4Ġzhuang4Ġ":4914,"ĠĠĠzhĠ":4915,"jiang1Ġsu1Ġ":4916,"Ġfang1Ġ":4917,"Ġli3Ġlun4Ġ":4918,"10Ġnian2Ġ":4919,"Ġda4Ġxing2Ġ":4920,"chan3Ġpin3":4921,"fang3Ġwen4Ġ":4922,"cun4Ġ":4923,"Ġhuo4Ġde2ĠleĠ":4924,"49":4925,"zhi2Ġdao4Ġ":4926,"quan3Ġ":4927,"sui1Ġran2":4928,"Ġzhi1Ġxia4Ġ":4929,"Ġzai4Ġjia1Ġ":4930,"Ġzuo4Ġpin3":4931,"Ġman4Ġ":4932,"Ġ00Ġ":4933,"ĠĠĠjia1Ġzu2Ġ":4934,"lan2Ġqiu2Ġ":4935,"you1Ġshi4Ġ":4936,"Ġgong1Ġren2Ġ":4937,"pin3Ġpai2Ġ":4938,"ĠCĠ":4939,"Ġda4Ġduo1Ġ":4940,"zhou1ĠdeĠ":4941,"jie4ĠdeĠ":4942,"hua2Ġren2Ġ":4943,"Ġli2Ġ":4944,"Ġxu3Ġduo1Ġ":4945,"Ġ2008Ġnian2Ġ":4946,"ji4Ġshi2Ġ":4947,"Ġ2005Ġnian2Ġ":4948,"xian3ĠdeĠ":4949,"ao4Ġyun4Ġhui4Ġ":4950,"Ġ2011Ġnian2Ġ":4951,"Ġshi4Ġren2Ġ":4952,"zhan4Ġdou4Ġ":4953,"jiao4Ġwei2Ġ":4954,"su4ĠdeĠ":4955,"Ġshi4Ġzhen4":4956,"ma1Ġ":4957,"Ġyou3Ġshi2Ġ":4958,"Ġyue4Ġnan2Ġ":4959,"Ġhou4":4960,"Ġji2Ġli4Ġ":4961,"Ġbian4":4962,"chuang2Ġ":4963,"bao4Ġdao3Ġ":4964,"qu3Ġde2":4965,"han2Ġshu4Ġ":4966,"ao4Ġmen2Ġ":4967,"jin4Ġru4":4968,"ding4ĠleĠ":4969,"Ġdan4Ġyou2Ġyu2Ġ":4970,"xiao3Ġshuo1":4971,"wu3Ġzhuang1Ġ":4972,"tiao2Ġzheng3Ġ":4973,"Ġshi4Ġwei4ĠleĠ":4974,"ma3Ġsi1Ġ":4975,"xi2Ġwei4Ġ":4976,"ju4Ġli2Ġ":4977,"hui2Ġying4Ġ":4978,"Ġsheng4":4979,"ĠĠĠand":4980,"Ġyue4Ġtai2Ġ":4981,"mei3Ġshu4Ġ":4982,"65":4983,"zhong1Ġwei4Ġ":4984,"you3Ġbu4Ġ":4985,"yuan2Ġzai4Ġ":4986,"ming4Ġling4Ġ":4987,"Ġxiang3":4988,"jia1Ġzhong1Ġ":4989,"wen2Ġzi4Ġ":4990,"yun3Ġxu3Ġ":4991,"jian4Ġshe4Ġ":4992,"Ġdi4Ġwu3Ġ":4993,"Ġyang2":4994,"Ġzhen4Ġ":4995,"jin1ĠdeĠ":4996,"zhen1Ġshi2Ġ":4997,"zhong1Ġhua2Ġren2Ġmin2Ġgong4Ġhe2Ġguo2Ġ":4998,"xue2Ġshu4Ġ":4999,"yin4Ġdi4Ġ":5000,"xing1Ġqi1Ġ":5001,"Ġgan1Ġ":5002,"fei1Ġlv4Ġ":5003,"Ġxiao4Ġ":5004,"yi2Ġchan3Ġ":5005,"ĠdeĠgong1Ġzuo4Ġ":5006,"Ġzhi1Ġhou4":5007,"2020Ġnian2Ġmei3Ġguo2Ġren2Ġkou3Ġpu3Ġcha2ĠdeĠshu4Ġju4Ġ":5008,"ju3Ġxing2":5009,"sha4Ġ":5010,"fang2Ġyu4Ġ":5011,"yi2Ġmin2Ġ":5012,"Ġlai2Ġzi4Ġ":5013,"Ġzuo3Ġ":5014,"ĠĠĠ2025":5015,"qia4Ġ":5016,"Ġzhou1Ġnian2Ġ":5017,"shu4Ġzi4Ġ":5018,"lie4Ġbiao3Ġ":5019,"ti2Ġgao1Ġ":5020,"Ġwang3Ġ":5021,"Ġshi4Ġwei1Ġ":5022,"qu1Ġyu4":5023,"Ġren4Ġwu4Ġ":5024,"--":5025,"Ġxian4Ġyu2Ġ":5026,"ji1Ġchang3Ġ":5027,"ho":5028,"yi3Ġlai2Ġ":5029,"leĠta1ĠdeĠ":5030,"hui4Ġyuan2Ġ":5031,"hua4Ġjia1Ġ":5032,"wa3Ġer3Ġ":5033,"ji4Ġlu4Ġ":5034,"Ġji1Ġguan1Ġ":5035,"chuang2":5036,"du1Ġshi4Ġ":5037,"Ġshi2Ġyi1Ġ":5038,"leĠyi2Ġge4Ġ":5039,"33":5040,"gong3Ġ":5041,"zha2Ġ":5042,"deng3Ġwei4Ġ":5043,"shu1ĠdeĠ":5044,"Ġxi1Ġla4":5045,"shan1Ġmai4":5046,"Ġshi2Ġqi1":5047,"shen1Ġqing3Ġ":5048,"yao1Ġqing3Ġ":5049,"jie1Ġji2Ġ":5050,"duan4ĠdeĠ":5051,"du1Ġjiao4Ġ":5052,"Ġco":5053,"ĠĠĠzao3Ġnian2Ġ":5054,"ke4Ġli3Ġ":5055,"Ġhe2Ġxi1Ġ":5056,"du3Ġ":5057,"zu3Ġjian4Ġ":5058,"wu3Ġtai2Ġ":5059,"liang3Ġzhong3Ġ":5060,"shen2Ġjing1Ġ":5061,"sa1Ġ":5062,"jing1Ġli3Ġ":5063,"yan2ĠdeĠ":5064,"der":5065,"dong1Ġji4Ġ":5066,"ying2ĠdeĠ":5067,"hua1Ġyuan2Ġ":5068,"yue1Ġyou3Ġ":5069,"Ġjia1Ġru4":5070,"Ġhuang2":5071,"sheng1Ġji2Ġ":5072,"mian4Ġdui4Ġ":5073,"Ġqi1":5074,"xia4Ġyi1Ġ":5075,"Ġ2018":5076,"Ġli4Ġshi3":5077,"Ġshe4Ġji2Ġ":5078,"Ġhe2Ġlan2Ġ":5079,"Ġzhi4Ġshi2Ġ":5080,"gao1Ġdeng3Ġ":5081,"fu4Ġjin4Ġ":5082,"Ġzhi4Ġli4Ġ":5083,"ai3Ġ":5084,"Ġshi4Ġda4Ġ":5085,"Ġsuo3Ġyi3":5086,"fen3Ġ":5087,"yuan2Ġji2Ġ":5088,"kuang2Ġ":5089,"mi3ĠdeĠ":5090,"zi1Ġjin1Ġ":5091,"Ġzi4Ġji3ĠdeĠ":5092,"quan2Ġmian4Ġ":5093,"Ġri4Ġjun1Ġ":5094,"guan1Ġxi4":5095,"ling3Ġtu3Ġ":5096,"wan2Ġquan2":5097,"Ġshou4":5098,"mei3Ġguo2ĠdeĠ":5099,"Ġzhong1ĠdeĠ":5100,"ai1Ġji2Ġ":5101,"Ġ3Ġyue4Ġ":5102,"pin1":5103,"jing1Ġchang2Ġ":5104,"Ġxu2":5105,"cheng1Ġzuo4Ġ":5106,"Ġming2Ġchao2Ġzheng4Ġzhi4Ġren2Ġwu4Ġ":5107,"ai":5108,"Ġren2Ġlei4":5109,"jiu3Ġdian4Ġ":5110,"Ġwo3ĠmenĠ":5111,"ĠĠĠxin1Ġ":5112,"Ġzai4Ġxi1Ġ":5113,"68":5114,"Ġli":5115,"ĠĠĠ2024":5116,"Ġji4Ġzhe3Ġ":5117,"yong4Ġzuo4Ġ":5118,"Ġshi4Ġyi1Ġzhong3":5119,"wen2Ġxian4Ġ":5120,"Ġren2Ġmin2":5121,"li3Ġlun4Ġ":5122,"zheng4Ġming2Ġ":5123,"run4Ġ":5124,"nu3Ġli4Ġ":5125,"Ġyuan2Ġming2Ġ":5126,"can1Ġmou2":5127,"Ġzhong1Ġyu2Ġ":5128,"Ġji1Ġche1Ġ":5129,"Ġxiang1Ġguan1Ġ":5130,"lu4Ġjun1":5131,"jiao4Ġlian4Ġ":5132,"Ġnian2Ġdai4":5133,"dong4Ġwu4":5134,"bian1Ġhao4Ġ":5135,"Ġxian4Ġhe2Ġ":5136,"Ġjiao1Ġ":5137,"ĠĠĠhou4Ġ":5138,"gui1Ġze2Ġ":5139,"ĠĠĠyou2Ġ":5140,"Ġyi4Ġyi4Ġ":5141,"Ġjin4Ġxing2":5142,"Ġguo2Ġhui4Ġ":5143,"Ġgong1Ġhui4Ġ":5144,"Ġyuan2Ġgong1Ġ":5145,"Ġz":5146,"ĠĠĠta1Ġ":5147,"nei4Ġlu4Ġ":5148,"Ġcheng2Ġxian4Ġ":5149,"qi4Ġxiang4Ġ":5150,"wang2Ġchao2":5151,"Ġnan2Ġzhi4Ġ":5152,"zhao3Ġdao4Ġ":5153,"Ġgong1Ġchang3Ġ":5154,"lv3Ġxing2Ġ":5155,"Ġfu4Ġze2":5156,"Ġdi4Ġyi1Ġci4Ġ":5157,"shou3Ġdu1Ġ":5158,"pai1Ġ":5159,"ti1Ġ":5160,"Ġshi4Ġhou4Ġ":5161,"you3Ġzai4Ġ":5162,"25Ġnian2Ġ":5163,"Ġhan2Ġguo2Ġ":5164,"sheng2":5165,"tai4Ġren2Ġ":5166,"Ġhe2Ġgong1Ġ":5167,"zhu3Ġchi2":5168,"bao3Ġliu2Ġ":5169,"wen2Ġyi4Ġ":5170,"wen2Ġzhang1Ġ":5171,"zhi1Ġjian1Ġ":5172,"Ġcheng1Ġwei2Ġ":5173,"bei4Ġshi4Ġwei4Ġ":5174,"ti2Ġdao4Ġ":5175,"xia4Ġling4":5176,"fa3Ġan4Ġ":5177,"Ġzhuan3Ġ":5178,"Ġyi4Ġfang1Ġmian4Ġ":5179,"Ġmei3Ġnian2Ġ":5180,"Ġxiao3":5181,"Ġzhao1":5182,"tian1ĠdeĠ":5183,"Ġyu2Ġ194":5184,"zuo4Ġyong4Ġ":5185,"qi3Ġye4":5186,"ke3Ġyi3Ġzai4Ġ":5187,"ge2Ġwei4Ġ":5188,"Ġnian2Ġshi4Ġjie4Ġ":5189,"jin1Ġshu3Ġ":5190,"shou3Ġji1Ġ":5191,"bao3Ġchi2":5192,"cai2Ġliao4Ġ":5193,"kong1Ġzhong1Ġ":5194,"zhu4Ġli3Ġ":5195,"kong3Ġbu4Ġ":5196,"Ġguo2Ġfang2":5197,"dong1Ġnan2Ġbu4Ġ":5198,"biao3Ġmian4Ġ":5199,"bai2Ġse4Ġ":5200,"tong1Ġdao4Ġ":5201,"Ġshi2Ġer4Ġ":5202,"qi2Ġzhong1Ġyi1Ġzhong3Ġ":5203,"zuo4Ġwei4Ġ":5204,"dai4Ġli3Ġ":5205,"Ġbu4Ġmen2":5206,"eg":5207,"li4Ġwei4Ġ":5208,"shu1Ġji2Ġ":5209,"Ġer2Ġcheng2Ġ":5210,"17Ġ":5211,"per":5212,"gu4Ġwen4Ġ":5213,"tong4Ġ":5214,"ali":5215,"yi3Ġxia4Ġ":5216,"juan4Ġ":5217,"da4Ġlu4ĠdeĠ":5218,"xiang1Ġguan1":5219,"yan3Ġyi4Ġ":5220,"yin3Ġqi3Ġ":5221,"Ġ2016":5222,"ba2Ġ":5223,"Ġzai4Ġ198":5224,"jin4Ġyi2Ġbu4Ġ":5225,"jiao4Ġxue2Ġ":5226,"Ġzuo4Ġwei2":5227,"wo3Ġmen":5228,"ĠĠĠIn":5229,"ji1Ġhe2Ġ":5230,"neĠ":5231,"jing4ĠdeĠ":5232,"Ġdao4Ġda2Ġ":5233,"lao2Ġdong4Ġ":5234,"ĠsĠĠĠ":5235,"ang":5236,"Ġzai4Ġwei4Ġ":5237,"est":5238,"tong1Ġche1Ġ":5239,"zhu3ĠdeĠ":5240,"Ġzai4Ġ18":5241,"Ġyou3Ġji1Ġ":5242,"Ġfu4Ġqin1Ġ":5243,"Ġ2001Ġnian2Ġren2Ġkou3Ġ":5244,"300":5245,"Ġhe2Ġshi2Ġ":5246,"dao4Ġlu4Ġ":5247,"hui4Ġshi4Ġ":5248,"yi2Ġzhi3Ġ":5249,"Ġbei3Ġqi3Ġ":5250,"Ġ188":5251,"Ġying1Ġyu3Ġ":5252,"cheng2Ġnian2Ġ":5253,"si3Ġhou4Ġ":5254,"duo1Ġren2Ġ":5255,"chang2ĠdeĠ":5256,"zhao4Ġkai1Ġ":5257,"44":5258,"ame":5259,"si1Ġli4Ġ":5260,"Ġzhong1Ġguo2Ġda4Ġlu4Ġ":5261,"ya4Ġli4Ġshan1Ġda4Ġ":5262,"28Ġnian2Ġ":5263,"Ġyi3Ġbei4Ġ":5264,"bo1Ġlan2":5265,"ceng2Ġjing1":5266,"ST":5267,"Ġwu4Ġ":5268,"Ġ2007Ġnian2Ġ":5269,"liu2Ġzai4Ġ":5270,"lou4Ġ":5271,"ze2Ġwei4Ġ":5272,"Ġping2Ġmian4Ġ":5273,"ju1Ġmin2":5274,"zhu3Ġli4Ġ":5275,"ni2Ġke4Ġ":5276,"Ġta1Ġwei4Ġ":5277,"Ġta1Ġye3Ġ":5278,"Ġà":5279,"te4Ġshu1Ġ":5280,"Ġzhuan3":5281,"Ġxuan1Ġbu4Ġ":5282,"Ġbu4Ġbu4Ġ":5283,"Ġzhi1Ġjian1":5284,"yin3Ġqi3":5285,"STĠ":5286,"Ġxian4ĠdeĠyi2Ġge4Ġ":5287,"kuang1Ġ":5288,"yao4Ġwu4Ġ":5289,"zeng4Ġ":5290,"da4Ġwei4Ġ":5291,"yun4Ġzuo4Ġ":5292,"ĠĠĠw":5293,"ying3Ġpian4":5294,"wu2Ġfa3":5295,"lv4Ġshi1Ġ":5296,"di4Ġer4Ġ":5297,"AR":5298,"jiao1Ġhui4Ġ":5299,"wei1Ġji1Ġ":5300,"Ġxi1Ġwang4":5301,"Ġlao3Ġ":5302,"shou3Ġge4Ġ":5303,"che1ĠdeĠ":5304,"tui4Ġchu1Ġ":5305,"Ġer2Ġyan2Ġ":5306,"Ġxian4ĠdeĠyi2Ġge4":5307,"500":5308,"Ġzheng4":5309,"Ġliang2Ġ":5310,"Ġsi1Ġte4":5311,"Ġchi4Ġ":5312,"yu2Ġzai4Ġ":5313,"Ġke4Ġcheng2Ġ":5314,"jiao4Ġshi1Ġ":5315,"ji3Ġge4Ġ":5316,"Ġyou3Ġyi4Ġ":5317,"jin1Ġhui4Ġ":5318,"fei1Ġzhou1Ġ":5319,"xin1Ġjia1Ġpo1":5320,"Ġfan3":5321,"terĠ":5322,"shi1Ġfan4":5323,"Ġdu2Ġ":5324,"po2Ġ":5325,"ĠdeĠjia1Ġ":5326,"Ġlei2Ġ":5327,"ĠĠĠxia4Ġ":5328,"Ġ10Ġ":5329,"bian4Ġde2Ġ":5330,"Ġshi4Ġjia1Ġ":5331,"Ġxi1Ġsi1Ġ":5332,"Ġcheng2Ġxu4Ġ":5333,"jiang1Ġhui4Ġ":5334,"guang3Ġgao4Ġ":5335,"ãĥ»":5336,"dong1Ġbei3Ġbu4Ġ":5337,"Ġdong1Ġnan2Ġ":5338,"Ġer2Ġshui3Ġyu4Ġmian4Ġji1Ġwei4Ġ0":5339,"ÃĹ":5340,"Ġguo2Ġjia1ĠdeĠ":5341,"jin1Ġpai2Ġ":5342,"da4Ġdi4Ġ":5343,"Ġzhi4Ġliao2Ġ":5344,"Ġqiao2Ġ":5345,"ya4Ġzhou1":5346,"sai4Ġzhong1Ġ":5347,"bian1Ġhao4":5348,"Ġshi4Ġyu3Ġ":5349,"Ġhe2Ġqi2Ġta1Ġ":5350,"bo1Ġlan2Ġ":5351,"58":5352,"ĠĠĠ2012":5353,"qie1Ġ":5354,"ĠdeĠzhi4Ġ":5355,"guo4Ġqu4Ġ":5356,"Ġzhi1Ġwei4Ġ":5357,"Ġbing4Ġjiang1Ġ":5358,"32":5359,"ĠĠĠ1":5360,"kang1Ġxi1Ġ":5361,"Ġbu4Ġde2":5362,"Ġyu2Ġ196":5363,"ao4Ġda4Ġli4Ġya4Ġ":5364,"zhi2Ġmin2":5365,"huan1Ġying2Ġ":5366,"ben3Ġdi4Ġ":5367,"bian1Ġju4Ġ":5368,"zi4Ġyou2":5369,"dang1Ġshi2ĠdeĠ":5370,"Ġchao2Ġ":5371,"Ġcheng2Ġren4Ġ":5372,"Ġ2021":5373,"nv3Ġzi3":5374,"gou4Ġzao4Ġ":5375,"zhuang1Ġjia3Ġ":5376,"fang4Ġqi4Ġ":5377,"tun2Ġ":5378,"da1":5379,"ju4Ġhe2Ġ":5380,"fu2Ġyi4Ġ":5381,"24Ġnian2Ġ":5382,"Ġjin4Ġxing2ĠleĠ":5383,"Ġnv3Ġxing4Ġ":5384,"ff":5385,"Ġhong2":5386,"suo3Ġzai4Ġ":5387,"zhuang1Ġshi4Ġ":5388,"60Ġ":5389,"Ġyu2Ġle4Ġ":5390,"huo4Ġde2ĠleĠ":5391,"Ġbi3":5392,"Ġqiu2Ġyuan2Ġ":5393,"ĠĠĠcheng2Ġ":5394,"chou1Ġ":5395,"ming2Ġshi4Ġ":5396,"i2Ġ":5397,"Ġer2Ġgai1Ġdi4Ġ":5398,"jian4Ġyi4Ġ":5399,"xian1Ġsheng1Ġ":5400,"Ġbu4Ġla1Ġ":5401,"yi4Ġda4Ġli4Ġ":5402,"Ġfeng2Ġ":5403,"fa3Ġyuan4":5404,"mu4Ġbiao1":5405,"wang2Ġchao2Ġ":5406,"yan3Ġchang4Ġ":5407,"Ġwei4Ġyou3Ġ":5408,"Ġhen3Ġ":5409,"biao3Ġda2":5410,"mao2Ġze2Ġ":5411,"Ġli3":5412,"Ġguan1Ġyu2Ġ":5413,"xiao4ĠdeĠ":5414,"sa4Ġsi1Ġ":5415,"Ġyi1Ġji2Ġ":5416,"Ġbing4Ġyu3Ġ":5417,"Ġda4Ġlu4Ġ":5418,"Ġjian4Ġzao4Ġ":5419,"pu2Ġtao2Ġya2":5420,"jia1Ġru4":5421,"HĠ":5422,"luo2Ġdi4Ġ":5423,"Ġwei4Ġlai2Ġ":5424,"nan2Ġjing1Ġ":5425,"ay":5426,"ction":5427,"ĠĠĠcong2Ġ":5428,"li4Ġzai4Ġ":5429,"qing3Ġqiu2Ġ":5430,"Ġjin4Ġyi2Ġbu4Ġ":5431,"jin3Ġji2Ġ":5432,"shou1Ġshi4Ġ":5433,"Ġjia1Ġzu2Ġ":5434,"que4Ġren4Ġ":5435,"Ġjin4Ġgong1Ġ":5436,"ev":5437,"xi1Ġban1Ġya2":5438,"pao3Ġ":5439,"Ġfang2Ġ":5440,"sa4Ġer3Ġ":5441,"esĠ":5442,"ji4Ġxu4Ġ":5443,"guan1Ġbi4Ġ":5444,"zhe3Ġzai4Ġ":5445,"Ġshi4Ġfou3":5446,"piao4Ġfang2Ġ":5447,"Ġ20":5448,"Ġhui2Ġ":5449,"tan3Ġke4Ġ":5450,"bo2Ġwu4Ġguan3":5451,"lan4Ġ":5452,"ci4Ġshi3Ġ":5453,"ĠdeĠsheng1Ġ":5454,"Ġyi4Ġmei3Ġyuan2Ġ":5455,"Ġji4Ġshu4":5456,"Ġji1Ġhu1Ġ":5457,"jing3Ġfang1Ġ":5458,"huo3Ġshan1Ġ":5459,"ye3Ġhui4Ġ":5460,"Ġyue4Ġtuan2Ġ":5461,"Ġta1ĠmenĠzai4Ġ":5462,"Ġte4Ġbie2Ġshi4Ġ":5463,"Ġwei3Ġ":5464,"huo3Ġjian4Ġ":5465,"mo4Ġxi1Ġge1Ġ":5466,"Ġcheng1":5467,"bian1ĠdeĠ":5468,"Ġsi1Ġke4Ġ":5469,"Ġ000Ġ":5470,"bi3Ġli4Ġshi2Ġ":5471,"zhan1Ġmu3Ġsi1Ġ":5472,"âĶ":5473,"jue2Ġdui4Ġ":5474,"Ġri4Ġjun1":5475,"gu3Ġfen4":5476,"min2Ġzhu3Ġdang3Ġ":5477,"tai4Ġping2Ġyang2":5478,"tong2Ġnian2Ġ":5479,"Ġshi4Ġzheng4Ġ":5480,"Ġchu1Ġsheng1Ġ":5481,"Ġqi1Ġxi1Ġzai4Ġ":5482,"Ġcan1Ġ":5483,"Ġshi4Ġri4Ġben3Ġ":5484,"Ġyi3Ġyou3Ġ":5485,"zhong3Ġzu2Ġ":5486,"shen1Ġti3Ġ":5487,"kao3Ġlv4":5488,"ace":5489,"shang4Ġwu3Ġ":5490,"Ġbei4Ġren4Ġwei2Ġshi4Ġ":5491,"guang3Ġdong1Ġsheng3Ġ":5492,"Ġguan1":5493,"wan4Ġren2Ġ":5494,"ĠdeĠzheng4Ġ":5495,"Ġ30Ġ":5496,"ĠĠĠjie2Ġzhi4Ġ":5497,"nei4Ġyou3Ġ":5498,"wan2Ġgong1Ġ":5499,"Ġzhi4Ġcheng2Ġ":5500,"Ġda4Ġyue1Ġ":5501,"Ġyuan2Ġben3Ġ":5502,"15Ġnian2Ġ":5503,"min2Ġjian1Ġ":5504,"Ġzhan4Ġdou4Ġ":5505,"sen1Ġlin2Ġ":5506,"Ġxiang4":5507,"chang3Ġhe2Ġ":5508,"geng4Ġduo1Ġ":5509,"Ġzhi1ĠziĠ":5510,"fu4Ġqin1":5511,"ba1Ġli2":5512,"Ġzai4Ġqi2Ġ":5513,"te4Ġse4Ġ":5514,"hu2Ġbei3Ġ":5515,"19Ġnian2Ġ":5516,"gao1Ġsu4Ġ":5517,"ĠAĠ":5518,"er4Ġyue4Ġ":5519,"Ġren2Ġmen":5520,"Ġzhi1ĠdeĠ":5521,"an1Ġpai2Ġ":5522,"ate":5523,"Ġxiu1Ġ":5524,"yong4Ġtu2Ġ":5525,"qing2Ġbao4Ġ":5526,"xi2Ġxing4":5527,"Ġsi1Ġtan3":5528,"mi4Ġmi4Ġ":5529,"Ġlie4Ġ":5530,"deng1Ġshang4Ġ":5531,"Ġxian4Ġchang3Ġ":5532,"dai4Ġbiao3Ġda4Ġhui4Ġ":5533,"ĠĠĠzeng1Ġ":5534,"wai4Ġbu4Ġ":5535,"18Ġnian2Ġ":5536,"Ġda4Ġdao4Ġ":5537,"Ġfu4Ġqin1":5538,"kao3Ġlv4Ġ":5539,"xiao4Ġyuan2Ġ":5540,"hai3Ġan4Ġ":5541,"pai1Ġshe4":5542,"meng2Ġgu3":5543,"Ġyue1Ġhan4Ġ":5544,"e2Ġluo2Ġsi1":5545,"Ġyong1Ġyou3Ġ":5546,"Ġyou3Ġxian4Ġ":5547,"ï¼ħ":5548,"zuo4Ġzhan4Ġ":5549,"Ġ2013Ġnian2Ġ":5550,"Ġyuan2Ġsu4Ġ":5551,"tai2Ġfeng1Ġ":5552,"Ġ2015":5553,"nan2Ġyi3Ġ":5554,"Ġshi4Ġye4Ġ":5555,"64":5556,"Ġda4Ġduo1Ġshu4Ġ":5557,"ph":5558,"Ġdeng4":5559,"li2Ġmi3Ġ":5560,"zhuang1Ġbei4Ġ":5561,"han3":5562,"Ġtu3Ġ":5563,"mei3Ġge4Ġ":5564,"tian1Ġjin1Ġ":5565,"Ġta1Ġyu2Ġ":5566,"Ġji1Ġbai4":5567,"tu3Ġer3Ġqi2Ġ":5568,"qian1Ġzhi4Ġ":5569,"xing4Ġqu4Ġ":5570,"âĶĢ":5571,"chang3Ġdi4Ġ":5572,"27Ġnian2Ġ":5573,"Ġshi2Ġyan4Ġ":5574,"tian1Ġjin1":5575,"long2Ġjiang1Ġ":5576,"Ġying1Ġwen2Ġ":5577,"Ġwei4Ġxing1Ġ":5578,"xiang1Ġdang1":5579,"jiao1Ġliu2Ġ":5580,"qiong2Ġ":5581,"Ġxia4":5582,"dao3Ġdan4Ġ":5583,"do":5584,"neng2Ġzai4Ġ":5585,"21Ġnian2Ġ":5586,"Ġji2Ġbei3Ġ":5587,"Ġyou3Ġxie1Ġ":5588,"zhan4Ġling3Ġ":5589,"Ġchu1Ġlai2Ġ":5590,"Ġwan4Ġmei3Ġyuan2Ġ":5591,"Ġqing1Ġchao2Ġ":5592,"ban4Ġli3Ġ":5593,"22Ġnian2Ġ":5594,"maĠ":5595,"Ġzhi1Ġdao4Ġ":5596,"Ġ2006Ġnian2Ġ":5597,"cha4":5598,"Ġbu4Ġzu2Ġ":5599,"Ġta1Ġhai2Ġ":5600,"chuan2Ġshuo1Ġ":5601,"3Ġge4Ġ":5602,"Ġjing1Ġji4Ġ":5603,"shang4Ġdi4Ġ":5604,"ling3Ġshi4Ġ":5605,"li3Ġgong1Ġ":5606,"wei1Ġer3Ġ":5607,"pi4":5608,"mu3Ġqin1":5609,"ai1Ġer3Ġ":5610,"chang2Ġjian4ĠdeĠ":5611,"zhang4Ġai4Ġ":5612,"ma3Ġlai2Ġxi1Ġya4Ġ":5613,"19Ġ":5614,"13Ġnian2Ġ":5615,"nong2Ġye4":5616,"Ġzhong1Ġshi4Ġ":5617,"Ġyi4Ġyuan4":5618,"guang3Ġfan4":5619,"Ġbu4Ġjiu3":5620,"Ġcheng2Ġdu4Ġ":5621,"Ġhe4Ġ":5622,"ĠĠĠming2Ġ":5623,"di4Ġzai4Ġ":5624,"shua1Ġ":5625,"ju4Ġjue2Ġ":5626,"jin4Ġxing2ĠleĠ":5627,"kou4Ġ":5628,"xiu1Ġzheng4Ġ":5629,"shou4Ġdao4":5630,"gui4Ġzhou1Ġ":5631,"an1Ġquan2":5632,"ren4Ġshi2Ġ":5633,"bo1Ġfang4Ġ":5634,"hua2Ġsheng4Ġ":5635,"wo3ĠmenĠ":5636,"pe":5637,"Ġfei4":5638,"chen4":5639,"ĠĠĠ4":5640,"14Ġnian2Ġ":5641,"xi3Ġju4Ġ":5642,"Ġgong1Ġzhu3Ġ":5643,"xi2Ġxing4Ġbu4Ġming2Ġ":5644,"yin3Ġqing2Ġ":5645,"Ġshi3Ġjian4Ġyu2Ġ":5646,"ĠĠĠ2":5647,"ĠĠĠqi2Ġ":5648,"fa3Ġguan1Ġ":5649,"Ġ2013":5650,"Ġju4Ġyou3Ġ":5651,"Ġwei4Ġji1Ġ":5652,"Ġchu1Ġqi1Ġ":5653,"Ġkang1Ġ":5654,"ren4Ġming4Ġwei4Ġ":5655,"sheng1Ġcheng2Ġ":5656,"seĠ":5657,"Ġji1Ġhu1":5658,"xun1Ġ":5659,"ĠĠĠmei3Ġguo2Ġ":5660,"Ġzai4Ġci3":5661,"Ġzhan4Ġdou4":5662,"Ġtian1":5663,"Ġgang3Ġ":5664,"ĠĠĠxian4":5665,"Ġtun2":5666,"Ġ7Ġ":5667,"wang3Ġluo4":5668,"chuang4Ġban4":5669,"la1Ġding1":5670,"mian2Ġ":5671,"Ġsheng1Ġhuo2Ġxi2Ġxing4Ġbu4Ġming2Ġ":5672,"she4Ġzhi4Ġ":5673,"zhu3Ġshi4Ġ":5674,"ti2Ġchu1":5675,"Ġyi4Ġqi3":5676,"Ġqi2Ġzai4Ġ":5677,"an1Ġna4Ġ":5678,"cai3Ġqu3Ġ":5679,"san3Ġ":5680,"Ġmo4":5681,"Ġ2014":5682,"Ġhe2Ġhe2Ġ":5683,"67":5684,"zhi4Ġzhong1Ġ":5685,"hen3Ġda4Ġ":5686,"bao4Ġfa1":5687,"Ġgao1":5688,"Ġcan1Ġjia1Ġ":5689,"11Ġnian2Ġ":5690,"Ġbu4Ġluo4Ġ":5691,"99":5692,"Ġpei4":5693,"hua4Ġhe2Ġwu4Ġ":5694,"Ġ2012Ġnian2Ġ":5695,"Ġer2Ġbu2Ġshi4Ġ":5696,"ku3Ġ":5697,"Ġshi2Ġdai4":5698,"quan2Ġzhang3Ġ":5699,"ti2Ġgong1ĠleĠ":5700,"Ġzui4Ġgao1Ġ":5701,"bao4Ġli4Ġ":5702,"29Ġnian2Ġ":5703,"zhu3Ġyi4ĠdeĠ":5704,"yan2Ġshen1":5705,"Ġwo3Ġmen":5706,"Ġban4Ġ":5707,"Ġchu3Ġyu2Ġ":5708,"ĠĠĠli3Ġ":5709,"san1Ġshi4Ġ":5710,"bian4Ġwei4Ġ":5711,"Ġyi1Ġxue2Ġ":5712,"shang4Ġying4Ġ":5713,"Ġtong1Ġchang2":5714,"man2":5715,"ji4Ġshi4Ġ":5716,"shu1Ġru4Ġ":5717,"Ġ0Ġ":5718,"Ġpei4Ġ":5719,"jia1Ġli4Ġfu2Ġ":5720,"Ġjing1":5721,"Ġgen1Ġju4":5722,"Ġyou3Ġyi2Ġge4Ġ":5723,"Ġxian4Ġxiang4Ġ":5724,"zi1Ġchan3Ġ":5725,"Ġye3Ġjiu4Ġshi4Ġ":5726,"zhai1Ġ":5727,"zhi4Ġbu4Ġ":5728,"fa3Ġyu3Ġ":5729,"Ġzai4Ġnei4ĠdeĠ":5730,"hai3Ġwai4Ġ":5731,"zui4Ġgao1":5732,"23Ġnian2Ġ":5733,"Ġer2Ġbu4Ġ":5734,"ling3Ġxiu4Ġ":5735,"1Ġli4Ġ":5736,"Ġ30":5737,"sui4Ġshi2Ġ":5738,"tui1Ġjin4Ġ":5739,"ĠdeĠfang1Ġshi4Ġ":5740,"ping2Ġlun4Ġ":5741,"jia4Ġge2Ġ":5742,"ĠĠĠci3Ġwai4Ġ":5743,"Ġbai3Ġ":5744,"chuang4Ġjian4Ġ":5745,"bin1Ġhai3Ġ":5746,"shun4Ġli4Ġ":5747,"an1Ġzhuang1":5748,"su2":5749,"Ġbo2":5750,"dang1Ġxuan3Ġ":5751,"Ġ2017":5752,"ma3Ġli3Ġ":5753,"lei2Ġsi1Ġ":5754,"ruan3Ġjian4Ġ":5755,"zheng4Ġdang3Ġ":5756,"Ġyou2Ġqi2Ġshi4Ġ":5757,"kui4Ġ":5758,"yuan4Ġshi4Ġ":5759,"Ġsheng1Ġzhang3":5760,"xun2Ġyang2":5761,"Ġxing2Ġzheng4":5762,"fen2Ġ":5763,"wang3Ġqiu2Ġ":5764,"Ġzai4Ġdu4Ġ":5765,"Ġrui4Ġ":5766,"Ġsheng1Ġchan3":5767,"lun4Ġwen2Ġ":5768,"tun1":5769,"Ġhe2Ġbu4Ġ":5770,"fang1Ġmian4ĠdeĠ":5771,"nv3Ġxing4":5772,"Ġxiang4Ġmu4Ġ":5773,"tou2Ġzi1":5774,"pen1Ġ":5775,"ying4Ġyong4":5776,"jiao4Ġshi4Ġ":5777,"ying1Ġli3Ġ":5778,"nu3Ġ":5779,"ban3Ġben3":5780,"ge4Ġzhong3Ġ":5781,"pai2Ġming2Ġdi4Ġ":5782,"dian4Ġzi":5783,"Ġgong4Ġyou3Ġ":5784,"ze2Ġren4Ġ":5785,"biao3Ġda2Ġ":5786,"Ġge2":5787,"yu2ĠdeĠ":5788,"bu2Ġ":5789,"ren2Ġda4Ġ":5790,"Ġde2Ġer3Ġ":5791,"Ġhou4Ġxuan3Ġren2Ġ":5792,"ju4Ġle4Ġbu4Ġ":5793,"yi4Ġnian2Ġ":5794,"bao4Ġgao4":5795,"Ġbei3Ġjing1Ġ":5796,"AM":5797,"Ġmian4Ġ":5798,"jiu3Ġlong2Ġ":5799,"Ġdong1Ġbei3Ġ":5800,"fan4Ġwei2Ġnei4Ġ":5801,"Ġhe2Ġda4Ġ":5802,"ling3Ġdi4Ġ":5803,"Ġban1Ġ":5804,"ĠĠĠqian2Ġ":5805,"zhe4Ġli3Ġ":5806,"Ġshi4Ġgu4Ġ":5807,"ĠĠĠju4Ġqing2Ġ":5808,"ku1Ġ":5809,"ĠĠĠxian4Ġ":5810,"xiang1Ġshi4Ġdi4Ġ":5811,"Ġyu2Ġren2Ġ":5812,"Ġri4Ġbao4Ġ":5813,"zhi2Ġjie1":5814,"os":5815,"xing2Ġcheng2Ġ":5816,"fa1Ġxing2ĠdeĠ":5817,"Ġju4":5818,"Ġzhuang1Ġ":5819,"pai4ĠdeĠ":5820,"Ġzhi4Ġshao3Ġ":5821,"guo4Ġqu4":5822,"Ġhai3":5823,"Ġgong4":5824,"e2Ġguo2Ġ":5825,"shen2ĠmeĠ":5826,"du2Ġli4ĠdeĠ":5827,"feng1Ġwei4Ġ":5828,"Ġta1Ġhe2Ġ":5829,"Ġyou3Ġxiao4Ġ":5830,"Ġzhi1Ġfu4Ġ":5831,"ast":5832,"he4Ġer3Ġ":5833,"Ġzhong1Ġbei4Ġ":5834,"guan1Ġdian3Ġ":5835,"Ġli3Ġlun4":5836,"chu1Ġsheng1Ġyu2Ġ":5837,"oh":5838,"Ġji4Ġsuan4Ġ":5839,"tuo4Ġ":5840,"wen1Ġdu4Ġ":5841,"jiu4Ġdu2":5842,"Ġling4Ġyi1Ġ":5843,"Ġshi4Ġxi1Ġ":5844,"ji4Ġcheng2Ġ":5845,"bi3Ġya4":5846,"Ġwo4":5847,"wei4ĠĠĠ":5848,"ka3Ġsi1Ġ":5849,"Ġyi1Ġxiao3Ġshi2Ġ":5850,"Ġda4Ġxi1Ġyang2Ġ":5851,"pai2Ġhang2Ġ":5852,"Ġxuan1Ġ":5853,"Ġnian2ĠĠĠ":5854,"fang1Ġyan2Ġ":5855,"ming2Ġzi4Ġ":5856,"Ġdong1Ġlin2Ġ":5857,"Ġgang1Ġ":5858,"ĠĠĠa1Ġ":5859,"Ġde2Ġhua2Ġ":5860,"pu3Ġbian4Ġ":5861,"jue2Ġyi4Ġ":5862,"Ġzuo4Ġjia1Ġ":5863,"dang3Ġyuan2Ġ":5864,"chu1Ġshen1Ġ":5865,"Ġ2014Ġnian2Ġ":5866,"qu1Ġyi4Ġhui4Ġ":5867,"Ġda4Ġfu2Ġ":5868,"huan4Ġcheng2Ġ":5869,"ĠĠĠCh":5870,"Ġshou1Ġ":5871,"hong2Ġse4Ġ":5872,"Ġjie2Ġguo3":5873,"Ġta3Ġ":5874,"da4Ġzhi4Ġ":5875,"xian4Ġzhi4Ġ":5876,"lay":5877,"Ġchu1Ġzhan4Ġ":5878,"jing1Ġyan4Ġ":5879,"Ġbing4Ġfei1Ġ":5880,"nei4Ġge2Ġ":5881,"zhong4Ġduo1Ġ":5882,"ĠĠĠdi4Ġfang1Ġ":5883,"Ġhua2":5884,"Ġyu3Ġmao2":5885,"deĠĠĠ":5886,"Ġbing4Ġbei4Ġ":5887,"Ġyin2Ġ":5888,"qu1Ġhe2Ġ":5889,"ma3Ġer3Ġ":5890,"Ġyi1Ġtong2Ġ":5891,"Ġzhong1Ġhua2Ġren2Ġmin2Ġgong4Ġhe2Ġguo2Ġzheng4Ġzhi4Ġren2Ġwu4Ġ":5892,"Ġkuan1":5893,"zuo4Ġshi4Ġ":5894,"ru4Ġxuan3Ġ":5895,"yi2Ġdu4Ġ":5896,"yun3Ġxu3":5897,"han2Ġyou3Ġ":5898,"Ġzai4Ġci4":5899,"tou2Ġxiang2Ġ":5900,"ke1ĠdeĠqi2Ġzhong1Ġyi1Ġzhong3Ġ":5901,"ne4":5902,"liang3Ġming2Ġ":5903,"Ġgong1Ġyi4Ġ":5904,"Ġxian4Ġshi4Ġ":5905,"zhi1Ġchi2":5906,"Ġsai1Ġ":5907,"yi2Ġding4Ġ":5908,"zhong3ĠziĠ":5909,"dian3Ġli3Ġ":5910,"dang4Ġtian1Ġ":5911,"ying1Ġwen2Ġ":5912,"Ġhuo3Ġ":5913,"ben3Ġren2Ġ":5914,"cheng2Ġyuan2Ġ":5915,"Ġyu2Ġ195":5916,"ed":5917,"dou1Ġzai4Ġ":5918,"zhi2Ġdao3Ġ":5919,"jing3Ġcha2":5920,"Ġ187":5921,"ya4Ġjun1Ġ":5922,"Ġqi2Ġzhong1Ġyi1Ġ":5923,"she4Ġqu1Ġ":5924,"jiang4Ġdi1Ġ":5925,"tic":5926,"ci4ĠdeĠ":5927,"Ġshi4Ġmin2Ġ":5928,"zi4Ġran2":5929,"zhi1Ġqian2Ġ":5930,"mi4Ġshu1Ġzhang3Ġ":5931,"zheng4Ġbu4Ġ":5932,"qi3Ġdong4Ġ":5933,"tu1Ġpo4Ġ":5934,"she3Ġ":5935,"ming2Ġren2Ġ":5936,"suo3ĠdeĠ":5937,"kou3Ġwei4Ġ":5938,"tiao2Ġli4Ġ":5939,"Ġhan4":5940,"pin4Ġ":5941,"wu2Ġzheng4Ġzhuang4Ġ":5942,"Ġxian4Ġren4Ġ":5943,"Ġwan4Ġli4Ġ":5944,"xie3Ġdao4Ġ":5945,"28Ġ":5946,"shu4Ġyu3Ġ":5947,"Ġshi4Ġyu2Ġ":5948,"xi3Ġhuan1":5949,"fang3Ġwen4":5950,"Ġsu1":5951,"xing1Ġdeng3Ġwei4Ġ":5952,"OS":5953,"Ġgong1Ġmin2Ġ":5954,"Ġbing4Ġdu2":5955,"nu2":5956,"Ġ2012":5957,"zheng3Ġti3Ġ":5958,"gao1Ġsu4Ġgong1Ġlu4Ġ":5959,"tuan2ĠdeĠ":5960,"huang2Ġhou4Ġ":5961,"gei3ĠleĠ":5962,"26Ġnian2Ġ":5963,"Ġshi4Ġgong1Ġ":5964,"Ġji1Ġjin1Ġ":5965,"jie2Ġguo3":5966,"fan4Ġzui4Ġ":5967,"hei1Ġse4Ġ":5968,"leng2":5969,"Ġzu3Ġfu4Ġ":5970,"ĠĠĠji2Ġ":5971,"lu3Ġsi1Ġ":5972,"Ġtong2Ġyi4Ġ":5973,"jie4Ġshao4Ġ":5974,"tiao2Ġzheng3":5975,"Ġyong4Ġyu2Ġ":5976,"Ġsheng1Ġyu2Ġ":5977,"kai1Ġshi3Ġzai4Ġ":5978,"Ġqi1Ġjian1Ġ":5979,"yuan1Ġ":5980,"chi2Ġyou3Ġ":5981,"gai4Ġnian4":5982,"Ġhu4Ġ":5983,"Ġgong1Ġju4Ġ":5984,"she4Ġshi1Ġ":5985,"Ġ1998Ġnian2Ġ":5986,"iv":5987,"ming2Ġzhi4Ġ":5988,"bao3Ġshou3Ġ":5989,"tou2Ġpiao4":5990,"gui4Ġzu2Ġ":5991,"ik":5992,"ul":5993,"xia4Ġxia2ĠdeĠyi2Ġge4Ġ":5994,"Ġyan2":5995,"Ġping2Ġjun1Ġ":5996,"ban3ĠdeĠ":5997,"Window":5998,"Ġqi3":5999,"shan1Ġshi4Ġ":6000,"gu3Ġdai4Ġ":6001,"wan2Ġzheng3":6002,"lai2Ġyue4Ġ":6003,"ni2Ġer3Ġ":6004,"Ġming2Ġdan1Ġ":6005,"dian4Ġhua4Ġ":6006,"zhen4Ġqu1ĠdeĠ":6007,"biao3Ġyan3":6008,"ĠdeĠcheng2Ġji4Ġ":6009,"Ġ1949Ġnian2Ġ":6010,"Ġji2Ġren2Ġ":6011,"hai3Ġxia2Ġ":6012,"gai3Ġming2Ġwei4Ġ":6013,"Ġmei3Ġge4Ġ":6014,"si3Ġwang2":6015,"57":6016,"ĠĠĠqi2Ġta1Ġ":6017,"sui2Ġzhu4Ġ":6018,"ying1Ġgai1Ġ":6019,"bo2Ġshi4Ġxue2Ġwei4Ġ":6020,"ga1Ġ":6021,"yue4Ġzhong1Ġ":6022,"you2Ġji1Ġ":6023,"shan1Ġji1Ġ":6024,"neng2Ġliang4Ġ":6025,"zao3Ġqi1":6026,"geng4Ġwei2Ġ":6027,"Ġyi3Ġji2":6028,"zui4Ġduo1Ġ":6029,"tai4ĠziĠ":6030,"dian4Ġnao3Ġ":6031,"mu4Ġqian2":6032,"Ġde2Ġyu3Ġ":6033,"Ġbi3Ġru2Ġ":6034,"yang2Ġshi4Ġ":6035,"orĠ":6036,"Ġer2Ġgai1Ġ":6037,"chang2Ġwei3Ġ":6038,"Ġren2Ġmin2Ġzheng4Ġfu3Ġ":6039,"©Ġ":6040,"shou4ĠdeĠ":6041,"en1Ġsheng3Ġ":6042,"tou4Ġguo4":6043,"66":6044,"In":6045,"Ġdao3Ġ":6046,"Ġyi1Ġzuo4Ġ":6047,"Ġxiang3Ġnian2Ġ":6048,"wu2Ġzheng4Ġzhuang4Ġgan3Ġran3Ġ":6049,"pu4":6050,"17Ġnian2Ġ":6051,"Ġwei2Ġer3":6052,"2Ġge4Ġ":6053,"Ġtian2Ġ":6054,"huo2Ġyue4Ġ":6055,"35Ġ":6056,"Ġxing2Ġwei4Ġ":6057,"chang2Ġwu4Ġ":6058,"que4Ġzhen3Ġbing4Ġli4Ġ":6059,"xue2Ġhui4Ġ":6060,"yao1Ġqing3":6061,"no":6062,"Ġbu4Ġsi1Ġ":6063,"an1Ġhui1Ġ":6064,"Ġpa4":6065,"Ġ2015Ġnian2Ġ":6066,"ĠĠĠ2011":6067,"ding4Ġju1Ġ":6068,"bao4Ġzha4Ġ":6069,"ĠĠĠgai1":6070,"ke4Ġcheng2Ġ":6071,"duo1Ġwei4Ġ":6072,"xiang1Ġsi4Ġ":6073,"ge1Ġlun2Ġ":6074,"yi3Ġjing1Ġ":6075,"kun4Ġnan2Ġ":6076,"dan1ĠdeĠ":6077,"long2ĠdeĠ":6078,"arĠ":6079,"Ġbu4Ġli4Ġ":6080,"fa1Ġshou4Ġ":6081,"an1Ġna4":6082,"Ġxun2Ġ":6083,"ren4Ġwei4Ġ":6084,"ti2Ġji2Ġ":6085,"Ġri4Ġyu2Ġ":6086,"Ġwei4Ġyu2Ġzhong1Ġguo2Ġ":6087,"sai1Ġer3Ġwei2Ġ":6088,"hui4Ġzhong1Ġ":6089,"shou1Ġji2Ġ":6090,"zuo4Ġchu1Ġ":6091,"shi1Ġbai4Ġ":6092,"ju4Ġda4Ġ":6093,"ling4Ġren2Ġ":6094,"Ġxi1Ġjie1Ġ":6095,"zhu3Ġyao4ĠdeĠ":6096,"ĠĠĠ1Ġ":6097,"gong1Ġcheng2Ġ":6098,"Ġli4Ġfa3":6099,"luan2":6100,"Ġcheng2Ġren2Ġ":6101,"Ġbing4Ġdu2Ġ":6102,"zu2Ġqiu2Ġyun4Ġdong4Ġyuan2Ġ":6103,"lian3Ġ":6104,"xie3ĠdeĠ":6105,"Ġ186":6106,"Ġtong2Ġshi2Ġgai1Ġdi4Ġ":6107,"Ġ1999Ġnian2Ġ":6108,"Ġxi4Ġ":6109,"zhui4Ġ":6110,"ai4ĠdeĠ":6111,"ari":6112,"Ġji1Ġsi1Ġ":6113,"Ġzui4Ġchu1Ġ":6114,"bei1Ġsi1Ġ":6115,"qiang2Ġlie4Ġ":6116,"hui4Ġzhi4Ġ":6117,"sheng3ĠdeĠ":6118,"Ġhou4Ġzhe3Ġ":6119,"Ġwen2Ġhua4Ġ":6120,"er2Ġtong2Ġ":6121,"nan2ĠdeĠ":6122,"quan1":6123,"Ġji1Ġchang3":6124,"Ġde2Ġzhu3Ġ":6125,"Ġzhe4Ġzhong3":6126,"jie3Ġsan4Ġ":6127,"zhui1Ġsu4":6128,"gou4ĠdeĠ":6129,"Ġyuan2Ġxing2Ġ":6130,"nei4Ġlu4Ġsheng3Ġfen4Ġ":6131,"Ġwan4Ġyuan2Ġ":6132,"ke1Ġxue2Ġjia1Ġ":6133,"mao1Ġ":6134,"Ġ2022":6135,"tu2Ġxing2Ġ":6136,"Ġji2Ġdi4Ġ":6137,"guan1Ġcha2Ġ":6138,"liu2Ġxia4Ġ":6139,"bian1Ġjie4Ġ":6140,"xin4Ġyang3Ġ":6141,"5Ġmi3Ġ":6142,"Ġse":6143,"zhu2Ġbu4Ġ":6144,"ack":6145,"Ġ2016Ġnian2Ġ":6146,"2025Ġnian2Ġ":6147,"Ġdi4Ġsi4":6148,"ĠdeĠdi4Ġer4Ġ":6149,"tao3Ġlun4":6150,"jiang1Ġzai4Ġ":6151,"ya4Ġmei3Ġ":6152,"Ġzhu3Ġxi2Ġ":6153,"jie3Ġfang4Ġ":6154,"xun1Ġzhang1Ġ":6155,"Ġer4Ġshi2Ġ":6156,"shan1ĠdeĠ":6157,"Ġke4Ġxi1Ġ":6158,"fang1Ġfa3":6159,"pi1Ġzhun3":6160,"lian2Ġhe2Ġhui4Ġ":6161,"ĠZ":6162,"Ġyao1Ġqiu2Ġ":6163,"chao1Ġyue4Ġ":6164,"fu4Ġze2":6165,"que1Ġfa2Ġ":6166,"ti1":6167,"jian3Ġshao3":6168,"hai3Ġping2Ġmian4Ġ":6169,"Ġguo2Ġnei4Ġ":6170,"zhu3Ġjiao4":6171,"xia4Ġling4Ġshi2Ġjian1Ġ":6172,"IC":6173,"bu2Ġdao4Ġ":6174,"Ġzai4Ġ197":6175,"Ġli4Ġliang4Ġ":6176,"heng1Ġli4Ġ":6177,"Ġna4":6178,"Ġqu3Ġ":6179,"Ġjiu4Ġshi4Ġ":6180,"Ġshi2Ġqi1ĠdeĠ":6181,"fei1Ġchang2":6182,"hui1Ġfu4":6183,"Ġ25":6184,"bei4ĠdeĠ":6185,"fa1Ġsheng1Ġzai4Ġ":6186,"zui4Ġgao1ĠdeĠ":6187,"tan2Ġpan4Ġ":6188,"zong4":6189,"Ġji1Ġhui4Ġ":6190,"lian2Ġxu4":6191,"shuang1Ġfang1Ġ":6192,"dong3Ġshi4Ġzhang3Ġ":6193,"Ġluo2":6194,"Ġzhao4":6195,"guo4ĠdeĠ":6196,"ti2Ġyi4Ġ":6197,"shu1Ġzhong1Ġ":6198,"2026Ġnian2Ġ":6199,"Ġying1Ġchi3Ġ":6200,"que1Ġfa2":6201,"jing4Ġnei4Ġgong4Ġyou3Ġ":6202,"AC":6203,"yi2Ġding4":6204,"ni2Ġya4Ġzhou1Ġ":6205,"ku3":6206,"Ġ8Ġ":6207,"Ġheng2Ġ":6208,"xu4Ġli4Ġya4Ġ":6209,"di1Ġyu2Ġ":6210,"Ġxue2Ġjia1Ġ":6211,"ĠĠĠbei4Ġjing3Ġ":6212,"Ġzai4Ġshi2Ġ":6213,"Ġyi1Ġli4Ġ":6214,"Ġyi3Ġwei2Ġ":6215,"zhu3Ġyan3Ġ":6216,"tai2Ġnan2":6217,"TV":6218,"qiang3":6219,"16Ġnian2Ġ":6220,"Ġhe2Ġyue1Ġ":6221,"Ġgong1Ġzhong4Ġ":6222,"ping2Ġtai2Ġ":6223,"Ġer2ĠziĠ":6224,"san1Ġjiao3":6225,"Ġwan2Ġjia1Ġ":6226,"Ġlai2":6227,"ĠĠĠ17":6228,"xian4ĠdeĠ":6229,"dang1Ġzhong1Ġ":6230,"qin1Ġzi4Ġ":6231,"Ġshi2Ġxing2Ġ":6232,"ĠĠĠtheĠĠĠ":6233,"jia1Ġyi4Ġ":6234,"sui2Ġji2Ġ":6235,"Ġshi4Ġyin1Ġwei4Ġ":6236,"78":6237,"gh":6238,"hui4Ġyi4Ġyuan2Ġ":6239,"DTĠ":6240,"Ġjiu3":6241,"zi4ĠdeĠ":6242,"Ġyou3Ġsuo3Ġ":6243,"ĠĠĠdi4Ġfang1Ġzi1Ġliao4Ġ":6244,"ping2Ġwei4Ġ":6245,"Ġhou4Ġbei4Ġ":6246,"fa1Ġqi3Ġ":6247,"Ġjiao4Ġyu4Ġ":6248,"Ġxi1Ġban1Ġya2Ġ":6249,"seng1Ġ":6250,"lan2ĠdeĠ":6251,"na2Ġxia4Ġ":6252,"Ġxue2Ġyuan4":6253,"pai4Ġqian3":6254,"nu":6255,"ĠĠĠjian3Ġjie4Ġ":6256,"niang2Ġ":6257,"nan2Ġbei3Ġ":6258,"bei3Ġjing1Ġshi4Ġ":6259,"Ġyue1":6260,"jie2ĠdeĠ":6261,"Ġta1Ġceng2Ġdai4Ġbiao3Ġ":6262,"ew":6263,"li3Ġhe2Ġ":6264,"di2Ġshi4Ġ":6265,"laĠ":6266,"Ġchu1Ġkou3Ġ":6267,"duo1Ġzhong3Ġ":6268,"neng2Ġyuan2Ġ":6269,"Ġxian4Ġfa3Ġ":6270,"ĠCh":6271,"gou3Ġ":6272,"sang4":6273,"leĠzai4Ġ":6274,"Ġbu4Ġshao3Ġ":6275,"Ġdi4Ġli3Ġ":6276,"tai2Ġzhong1Ġ":6277,"Ġcheng2Ġzhen4Ġ":6278,"jia4Ġshi3Ġ":6279,"Ġshi2Ġji4Ġshang4Ġ":6280,"ke2Ġ":6281,"Ġzheng4Ġming2Ġ":6282,"liao2Ġning2Ġ":6283,"mo4Ġxi1Ġge1":6284,"di2Ġren2Ġ":6285,"zhuan3Ġxiang4Ġ":6286,"ER":6287,"ceng2Ġwei4Ġ":6288,"xuan3Ġzhong1Ġ":6289,"Ġyi3Ġxi1Ġ":6290,"jie1Ġchu4Ġ":6291,"AN":6292,"Ġti2Ġgong1Ġ":6293,"pai4Ġchu1Ġ":6294,"zhi3Ġdao3Ġ":6295,"feng1Ġxian3Ġ":6296,"gai3Ġbian4":6297,"Ġzhong1Ġguo2Ġren2Ġmin2Ġjie3Ġfang4Ġjun1Ġ":6298,"Ġsun1Ġ":6299,"dian4Ġnao3":6300,"rao4":6301,"ji1Ġgou4Ġ":6302,"59":6303,"Ġxiang3Ġ":6304,"ti2Ġchu1ĠdeĠ":6305,"gan4Ġbu4Ġ":6306,"tui4Ġxiu1Ġ":6307,"Ġwa3Ġ":6308,"Ġdi4Ġyi2Ġge4Ġ":6309,"Ġyi4Ġqing2Ġ":6310,"Ġda4Ġxue2ĠdeĠ":6311,"hai3Ġba2Ġwei4Ġ":6312,"lei3Ġji4Ġ":6313,"Ġli4Ġyi4Ġ":6314,"Ġzhong1Ġgong4Ġzhong1Ġyang1Ġ":6315,"56":6316,"ation":6317,"Ġxie2Ġ":6318,"Ġkong3Ġ":6319,"Ġ2017Ġnian2Ġ":6320,"qiao3Ġ":6321,"shang1Ġren2Ġ":6322,"biao1Ġben3Ġ":6323,"kai1Ġtong1Ġ":6324,"suo3Ġcai3Ġyong4":6325,"zhi3Ġneng2Ġ":6326,"shen1Ġdu4Ġ":6327,"ying1Ġxiong2Ġ":6328,"xiu1Ġgai3Ġ":6329,"mei3Ġzhou1":6330,"zan4Ġshi2Ġ":6331,"Ġdi4Ġqi1Ġ":6332,"ĠziĠ":6333,"gao3":6334,"nd":6335,"kai1Ġshe4Ġ":6336,"ying1Ġge2Ġlan2":6337,"ĠdeĠshi4Ġjie4Ġ":6338,"qiang2Ġdiao4Ġ":6339,"tao2Ġtai4Ġ":6340,"nong2Ġmin2Ġ":6341,"hua4Ġzhong1Ġ":6342,"150":6343,"que4ĠdeĠ":6344,"chuan2Ġbo1Ġ":6345,"32Ġ":6346,"Ġde2Ġming2Ġ":6347,"guan1Ġcha2":6348,"man":6349,"ĠĠĠyin1Ġ":6350,"shui3Ġli4Ġ":6351,"Ġzhong1Ġguo2ĠdeĠ":6352,"II":6353,"fa1Ġming2Ġ":6354,"rong2Ġhe2Ġ":6355,"Ġshu3":6356,"Ġdian4Ġying3Ġ":6357,"ĠdeĠxing2Ġ":6358,"chang3Ġsuo3Ġ":6359,"jiu4Ġdu2Ġ":6360,"wu1Ġsi1Ġ":6361,"zi1Ġben3Ġ":6362,"NB":6363,"Ġshuo1Ġ":6364,"ban4Ġshi4Ġchu4Ġ":6365,"jue2Ġshi4Ġ":6366,"xiu1Ġjian4Ġ":6367,"zhang1Ġzhuan1Ġji2Ġ":6368,"chai1Ġchu2Ġ":6369,"Ġ2018Ġnian2Ġ":6370,"jing4Ġji4Ġ":6371,"Ġqi2Ġwei4Ġ":6372,"Ġbei3Ġjing1":6373,"ĠĠĠ2Ġ":6374,"wen2ĠdeĠ":6375,"shang1Ġye4":6376,"a1Ġla1Ġbo2":6377,"dian4Ġji1Ġ":6378,"ju3Ġban4ĠdeĠ":6379,"pei4Ġzhi4Ġ":6380,"Ġju4Ġjue2Ġ":6381,"xiao1Ġfei4Ġ":6382,"qu1Ġshi4Ġ":6383,"qi1Ġwei4Ġ":6384,"wei2Ġsi1Ġ":6385,"an1Ġpai2":6386,"wu3Ġzhuang1":6387,"tai4Ġdu4Ġ":6388,"fu4Ġzhu3Ġren4Ġ":6389,"zi1Ġliao4":6390,"wa2Ġ":6391,"diao4Ġkuai4":6392,"qiao4Ġ":6393,"fu2ĠdeĠ":6394,"Ġzhong1Ġshan1Ġ":6395,"Ġyu3Ġqi2Ġta1Ġ":6396,"jing4Ġxuan3Ġ":6397,"cheng2Ġhe2Ġ":6398,"ge2Ġla1Ġ":6399,"Ġci4Ġnian2Ġ":6400,"wang2Ġshi4Ġ":6401,"jiu4Ġhui4Ġ":6402,"zao4ĠleĠ":6403,"Ġwei4ĠUTCĠ":6404,"ĠcnĠ":6405,"hou4Ġwei4Ġ":6406,"shou3Ġzhong1Ġ":6407,"edĠĠĠ":6408,"ĠĠĠdui4Ġ":6409,"qiu2Ġji4Ġ":6410,"Ġming2Ġzhi4Ġ":6411,"luo2Ġli3Ġ":6412,"liu4Ġshi2Ġ":6413,"Ġyin1Ġsu4Ġ":6414,"ke1Ġxue2Ġyuan4Ġ":6415,"diao4Ġkuai4Ġyi1Ġxiao3Ġshi2Ġ":6416,"Ġcha2Ġ":6417,"Ġbu4Ġji2Ġ":6418,"Ġda4Ġjiang3Ġ":6419,"Ġwan2Ġ":6420,"suo3Ġzai4Ġdi4Ġ":6421,"da2Ġer3Ġ":6422,"Ġbu4Ġdui4":6423,"Ġji2ĠUTCĠ":6424,"zu3Ġzhi1ĠdeĠ":6425,"she4Ġyou3Ġxia4Ġling4Ġshi2Ġjian1Ġ":6426,"ĠdeĠshi2Ġqu1Ġwei4ĠUTCĠ":6427,"Ġer2Ġgai1Ġdi4Ġsuo3Ġcai3Ġyong4":6428,"Ġtong2Ġshi2Ġgai1Ġdi4Ġshe4Ġyou3Ġxia4Ġling4Ġshi2Ġjian1Ġ":6429,"Ġer2Ġgai1Ġdi4Ġsuo3Ġcai3Ġyong4ĠdeĠshi2Ġqu1Ġwei4ĠUTCĠ":6430,"Ġgai1Ġcun1Ġ":6431,"shuai4Ġling3":6432,"69":6433,"lu4Ġzhi4Ġ":6434,"jiao4Ġtang2":6435,"Ġyi1Ġsi1Ġlan2Ġ":6436,"sp":6437,"Ġni3Ġ":6438,"ti3Ġzhi4Ġ":6439,"yuan2Ġzhu4Ġ":6440,"Ġling4Ġyou3Ġ":6441,"Ġdong4Ġ":6442,"Ġ2004Ġnian2Ġ":6443,"ci4Ġyu2Ġ":6444,"luan3Ġ":6445,"Ġfu4Ġjin4":6446,"zhi1Ġjian1ĠdeĠ":6447,"Ġan1":6448,"Ġying2Ġ":6449,"ĠĠĠjiao1Ġtong1Ġ":6450,"mu4ĠdeĠ":6451,"Ġhao4ĠdeĠ":6452,"Ġli4Ġshi3Ġshang4Ġ":6453,"gao1Ġyu2Ġhai3Ġping2Ġmian4Ġ":6454,"ĠĠĠqing1Ġ":6455,"tie1":6456,"hu4Ġxiang1Ġ":6457,"zhu2Ġjian4":6458,"Ġgong1Ġjue2Ġ":6459,"Ġxi1Ġlan2Ġ":6460,"Ġrong2Ġ":6461,"Ġ2019Ġnian2Ġ":6462,"sui4ĠdeĠ":6463,"Ġshi2Ġwu4Ġ":6464,"Ġtong2Ġyang4":6465,"ta1ĠmenĠdeĠ":6466,"ĠĠĠ190":6467,"shang4Ġxian4Ġ":6468,"zhe3Ġshi4Ġ":6469,"Ġqi2Ġxia4Ġ":6470,"chu4ĠdeĠhai3Ġba2Ġwei4Ġ":6471,"chu4ĠdeĠhai3Ġba2Ġwei4Ġgao1Ġyu2Ġhai3Ġping2Ġmian4Ġ":6472,"ĠĠĠi":6473,"Ġwei4Ġda4Ġ":6474,"Ġbu4Ġjin3Ġ":6475,"xiang4Ġzheng1Ġ":6476,"yi2Ġdai4Ġ":6477,"Ġma3Ġlai2":6478,"ON":6479,"bi4Ġye4Ġhou4Ġ":6480,"fa1Ġshe4":6481,"ping2Ġyuan2Ġ":6482,"zhong4Ġshi4Ġ":6483,"Ġzi4Ġran2Ġ":6484,"qian1Ġshu3Ġ":6485,"ĠdeĠying3Ġxiang3Ġ":6486,"Ġhe2Ġpan4Ġ":6487,"dian4Ġqi4Ġ":6488,"bĠ":6489,"zhu4Ġyou3Ġ":6490,"nan2Ġjing1":6491,"zhang3Ġda2Ġ":6492,"4Ġge4Ġ":6493,"88":6494,"fa1Ġxian4ĠdeĠ":6495,"xing4Ġwei4Ġ":6496,"Ġzhi1Ġyi4Ġ":6497,"Ġqi2Ġshi2Ġ":6498,"xiao4Ġqu1Ġ":6499,"ĠĠĠma3Ġ":6500,"ke3Ġzai4Ġ":6501,"Ġer3Ġduo1Ġ":6502,"yan2Ġse4Ġ":6503,"shan1Ġfeng1Ġ":6504,"...":6505,"lang4":6506,"nei4Ġdi4Ġ":6507,"er4Ġji2Ġ":6508,"Ġyu2Ġle4":6509,"wei2Ġer3Ġ":6510,"Ġying1":6511,"ren4ĠdeĠ":6512,"luo4Ġcheng2Ġ":6513,"shi2Ġqu1Ġ":6514,"jian4Ġcheng2Ġ":6515,"deng3Ġji2Ġ":6516,"26Ġ":6517,"geng1Ġxin1Ġ":6518,"zhi2Ġzheng4Ġ":6519,"yun4Ġshu1":6520,"yun4Ġyong4Ġ":6521,"Ġyi1Ġjia1Ġ":6522,"Ġer2Ġtong2Ġ":6523,"jin1Ġrong2Ġ":6524,"ĠĠĠran2":6525,"Ġli4Ġren4Ġ":6526,"jing1Ġchang2":6527,"Ġwei4Ġyu2Ġgai1Ġ":6528,"ge2Ġshi4Ġ":6529,"bang4Ġqiu2Ġ":6530,"79":6531,"zĠ":6532,"hou4Ġyi4Ġ":6533,"Ġzuo4Ġchu1Ġ":6534,"bao3Ġliu2":6535,"ru2Ġguo3Ġ":6536,"Ġsui2Ġzhu4Ġ":6537,"Ġxue2Ġzhe3Ġ":6538,"xia2Ġqu1Ġ":6539,"ĠĠĠben3":6540,"bao1Ġwei2Ġ":6541,"xin4Ġyang3":6542,"chong2Ġqing4":6543,"Ġ1997Ġnian2Ġ":6544,"xue2Ġyuan2Ġ":6545,"shu4Ġshi2Ġ":6546,"Ġbu4Ġneng2":6547,"dong1Ġfang1Ġ":6548,"shou1Ġgou4Ġ":6549,"cuo4Ġwu4Ġ":6550,"ma3Ġke4Ġ":6551,"igh":6552,"Ġtao2Ġ":6553,"ji4Ġnian4":6554,"Ġran2Ġer2":6555,"zhi2Ġmin2Ġ":6556,"zhen4Ġqu1ĠdeĠmian4Ġji1Ġwei4Ġ":6557,"Ġsheng1Ġya2Ġ":6558,"fu1Ġka3Ġ":6559,"Ġliu4Ġ":6560,"bo1Ġsi1Ġ":6561,"Ġdui4Ġshou3Ġ":6562,"Ġxing2Ġzheng4Ġqu1Ġ":6563,"Ġzhou1Ġci4Ġshi3Ġ":6564,"hai3Ġyang2Ġ":6565,"Ġjie2Ġke4Ġ":6566,"shi3Ġjian4Ġyu2Ġ":6567,"Ġdi4Ġqiu2":6568,"Ġyuan2Ġzi4Ġ":6569,"gao1Ġxiong2":6570,"zao4Ġcheng2ĠdeĠ":6571,"ĠĠĠqi2":6572,"ze2Ġzai4Ġ":6573,"dang1Ġdi4ĠdeĠ":6574,"ju2ĠdeĠ":6575,"45Ġ":6576,"Ġta1Ġyi3Ġ":6577,"zhu3Ġzhang1Ġ":6578,"ĠY":6579,"Ġshi1":6580,"Ġkai3":6581,"jia1Ġyi3Ġ":6582,"bian1Ġyuan2Ġ":6583,"ĠdeĠxi1Ġ":6584,"Ġqi2Ġzhong1Ġbao1Ġkuo4Ġ":6585,"Ġwei4Ġfu2Ġqi2Ġyu2Ġgang1Ġ":6586,"IS":6587,"asĠĠĠ":6588,"ao4Ġzhou1Ġ":6589,"gong1Ġgong4Ġ":6590,"zhi2Ġwu4":6591,"ĠdeĠbu4Ġfen4Ġ":6592,"ji4Ġyou3Ġ":6593,"mian4Ġshang4Ġ":6594,"Ġli3Ġxi1Ġ":6595,"liang3Ġci4Ġ":6596,"ni1":6597,"so":6598,"er4Ġren2Ġ":6599,"Ġyi1Ġju4Ġ":6600,"jing4Ġzheng1Ġ":6601,"xiao1Ġshi1Ġ":6602,"lai2Ġyin1Ġ":6603,"qi4Ġche1":6604,"tian2Ġjing4Ġ":6605,"Ġlv3Ġ":6606,"dui4Ġqi2Ġ":6607,"ping2Ġlun4":6608,"Ġ1994Ġnian2Ġ":6609,"sao3Ġ":6610,"tu1Ġran2Ġ":6611,"reĠ":6612,"Ġzai4Ġ196":6613,"yi4Ġshu4Ġ":6614,"ling4Ġyi2Ġge4Ġ":6615,"jiang4Ġling3Ġ":6616,"xuan1Ġchuan2":6617,"dan3Ġ":6618,"Ġreng2":6619,"gua4":6620,"te4Ġding4Ġ":6621,"400":6622,"jun4Ġgong1Ġ":6623,"alĠĠĠ":6624,"Ġde2Ġzhi1Ġ":6625,"Ġji1Ġjin1Ġhui4Ġ":6626,"cai2Ġneng2Ġ":6627,"xiao4Ġli4Ġyu2Ġ":6628,"Tub":6629,"Ġyong4":6630,"hun1Ġyin1Ġ":6631,"guo2Ġjia1":6632,"Ġ1992Ġnian2Ġ":6633,"id":6634,"zhan4Ġshi2Ġ":6635,"Ġwei4Ġdui4Ġ":6636,"Ġji2Ġda4Ġ":6637,"gai3Ġzao4Ġ":6638,"li2Ġkai1":6639,"Ġmei2":6640,"Ġzhi4Ġliang4Ġ":6641,"bei4Ġjing3Ġ":6642,"Ġli3Ġya4Ġ":6643,"yan2Ġhai3Ġ":6644,"ka3Ġluo2Ġ":6645,"wei3Ġyuan2Ġhui4Ġwei3Ġyuan2Ġ":6646,"da4Ġbu4Ġ":6647,"guan1Ġjian4Ġ":6648,"shu1Ġyuan4Ġ":6649,"ai4Ġer3Ġlan2Ġ":6650,"liang3Ġguo2Ġ":6651,"ban4ĠdeĠ":6652,"zhi2Ġmin2Ġdi4Ġ":6653,"Ġcha2":6654,"Ġsun1":6655,"Ġ2Ġyue4Ġ":6656,"ĠĠĠsheng4Ġ":6657,"ĠĠĠjin3Ġ":6658,"jin4Ġbu4Ġ":6659,"quan2Ġqiu2":6660,"Ġdang1Ġshi2ĠdeĠ":6661,"Ġzheng1Ġ":6662,"jiao4Ġda4Ġ":6663,"Ġba3":6664,"Ġji1Ġdu1Ġ":6665,"dian3Ġshi4Ġ":6666,"pei4Ġyin1Ġ":6667,"Ġshi2Ġduan4Ġ":6668,"Ġzhi4Ġzuo4ĠdeĠ":6669,"jing1Ġshen2":6670,"Ġtang1Ġ":6671,"ping2ĠdeĠ":6672,"san1Ġming2Ġ":6673,"a1Ġla1Ġbo2Ġ":6674,"Ġqi2ĠdeĠ":6675,"Ġlu3Ġ":6676,"bei3Ġshi4Ġ":6677,"tui1Ġchu1":6678,"zheng4Ġju4Ġ":6679,"Ġ1996Ġnian2Ġ":6680,"xin1Ġcheng2Ġ":6681,"Ġxian4Ġyi3Ġ":6682,"Ġjian4Ġshe4":6683,"ĠĠĠnan2Ġ":6684,"kao4Ġjin4Ġ":6685,"Ġji1Ġchu3":6686,"hu4Ġlian2Ġ":6687,"ĠĠĠThe":6688,"man3Ġzu2Ġ":6689,"liang3Ġwei4Ġ":6690,"all":6691,"da4Ġlu4":6692,"Ġsi1Ġke4":6693,"chuan2Ġtong3ĠdeĠ":6694,"Ġxie4Ġ":6695,"Ġyi4Ġyu2Ġ":6696,"zhu4Ġzhai2Ġ":6697,"shou3Ġxiang4Ġ":6698,"chang2Ġdu4Ġ":6699,"Ġzheng4Ġzhi4Ġ":6700,"zui4Ġchu1":6701,"Ġdi4Ġdian3Ġ":6702,"hui4Ġzhang3Ġ":6703,"zai1Ġpei2Ġ":6704,"Ġ24":6705,"Ġ2023":6706,"Ġ2002Ġnian2Ġ":6707,"ce4Ġliang2Ġ":6708,"Ġluo2Ġma3Ġ":6709,"1Ġge4Ġ":6710,"77":6711,"AP":6712,"Ġbu4Ġbing1Ġ":6713,"Ġli4Ġshi2Ġ":6714,"zi4Ġmu3Ġ":6715,"xiang1Ġguan1ĠdeĠ":6716,"Ġju4Ġli2":6717,"bo1Ġli2Ġ":6718,"ting2Ġche1Ġ":6719,"zhen4ĠdeĠ":6720,"xiu1Ġfu4Ġ":6721,"Ġbing4Ġyou2Ġ":6722,"la1Ġji1Ġ":6723,"bo1Ġshi4Ġ":6724,"Ġshi4Ġyi1Ġbu4Ġ":6725,"Ġde2Ġsi1Ġ":6726,"shan1Ġqu1Ġ":6727,"cun1Ġluo4Ġ":6728,"mian3Ġdian1":6729,"zu2Ġqiu2Ġju4Ġle4Ġbu4Ġ":6730,"li3Ġcheng2Ġ":6731,"nei4Ġzhan4Ġ":6732,"teĠ":6733,"sheng1Ġya2":6734,"Ġqian2Ġwang3Ġ":6735,"Ġshan1Ġdong1Ġ":6736,"Ġguo2Ġwu4Ġyuan4Ġ":6737,"qi3Ġyuan2Ġ":6738,"Ġdi4Ġtie3":6739,"dui4Ġzhang3Ġ":6740,"jie1Ġduan4":6741,"ju1Ġzhu4Ġzai4Ġ":6742,"Ġbu4Ġbu4Ġzhang3Ġ":6743,"uĠ":6744,"lian2ĠdeĠ":6745,"zui3":6746,"Ġda4Ġlou2":6747,"Ġdan1":6748,"ngĠĠĠ":6749,"bing4Ġbu4Ġ":6750,"Ġdi4Ġdai4Ġ":6751,"Ġshi4Ġde2Ġguo2Ġ":6752,"baĠ":6753,"fu4Ġhe2Ġ":6754,"wei3Ġfu4Ġ":6755,"Ġwei2Ġchi2":6756,"tian1Ġti3Ġ":6757,"Ġyu4Ġshi3Ġ":6758,"33Ġ":6759,"Ġ2021Ġnian2Ġ":6760,"Ġhe2Ġdao4Ġ":6761,"quan2Ġxian4Ġ":6762,"Ġyi3Ġwai4Ġ":6763,"Ġwei2Ġsi1Ġ":6764,"fen4Ġzi3":6765,"tuan2Ġti3":6766,"ĠĠĠdi4Ġer4Ġ":6767,"ea":6768,"Ġ23":6769,"dou1Ġbei4Ġ":6770,"Ġyu3Ġyan2":6771,"Ġcheng2Ġke4Ġ":6772,"Ġzhou1Ġfu3Ġ":6773,"jiao1Ġliu2":6774,"Ġfu2Ġwu4Ġ":6775,"fu2Ġli4Ġ":6776,"xing4Ġhe2Ġ":6777,"lang2Ġzhong1Ġ":6778,"Ġxing2Ġmu4Ġ":6779,"fa1Ġqi3":6780,"dian4Ġshi4Ġtai2":6781,"zhi2Ġye4Ġsheng1Ġya2Ġ":6782,"wu2Ġzheng4Ġzhuang4Ġgan3Ġran3Ġzhe3Ġ":6783,"bai3Ġnian2Ġ":6784,"luo4Ġfa2":6785,"YouTub":6786,"zhai2":6787,"Ġzhi4Ġdi4Ġ":6788,"pu2Ġtao2Ġya2Ġ":6789,"Ġliu4":6790,"liu3Ġ":6791,"ji1Ġzai4Ġ":6792,"xi1Ġhe2Ġ":6793,"suo3Ġwei4Ġ":6794,"chui1Ġ":6795,"fu1ĠdeĠ":6796,"Ġyu3Ġyi1Ġ":6797,"Ġ1993Ġnian2Ġ":6798,"Ġ100":6799,"xie3Ġzuo4Ġ":6800,"meng4Ġjia1Ġ":6801,"jian1Ġdu1Ġ":6802,"mu3ĠdeĠ":6803,"jia3Ġdi4Ġ":6804,"te4Ġxing4Ġ":6805,"shi1Ġqu4":6806,"Ġwei4Ġyu2Ġmei3Ġguo2Ġ":6807,"Ġr":6808,"Ġtang2":6809,"ou3Ġxiang4Ġ":6810,"wu4Ġshi4Ġ":6811,"27Ġ":6812,"Ġku4Ġ":6813,"Ġxian4Ġji2Ġ":6814,"ling2Ġchen2Ġ":6815,"bian3":6816,"dong1Ġbei3":6817,"deng3Ġdeng3Ġ":6818,"Ġzui4Ġjia1Ġ":6819,"can3Ġ":6820,"Ġ2000Ġnian2Ġ":6821,"zhe4Ġshi4Ġ":6822,"liang4Ġwei4Ġ":6823,"zong1Ġyi4Ġ":6824,"Ġyi1Ġyuan4":6825,"Ġli3Ġke4Ġ":6826,"kong1Ġqi4Ġ":6827,"Ġwu2Ġfa3Ġ":6828,"ĠĠĠge4Ġren2Ġ":6829,"50Ġnian2Ġ":6830,"tou4Ġlu4Ġ":6831,"zhuan4ĠdeĠ":6832,"kua4Ġ":6833,"kao3Ġshi4Ġ":6834,"yin4Ġni2Ġ":6835,"Ġxu1Ġ":6836,"xi1Ġdi4Ġ":6837,"zong3Ġren2Ġkou3Ġ":6838,"zhu3Ġyi4Ġzhe3Ġ":6839,"Ġ2008":6840,"Ġfa1Ġxian4Ġ":6841,"ĠĠĠ10":6842,"su1Ġge2Ġlan2Ġ":6843,"zhuan1Ġye4":6844,"hun2Ġ":6845,"na4ĠdeĠ":6846,"zuo4Ġwei2":6847,"ĠĠĠPro":6848,"Ġlian2Ġhe2Ġ":6849,"ĠĠĠ2008":6850,"gu3Ġli4Ġ":6851,"guo4Ġdu4Ġ":6852,"fan3Ġhui2":6853,"Ġ1945Ġnian2Ġ":6854,"Ġsi1Ġling4Ġbu4Ġ":6855,"Ġ2009":6856,"qi1Ġshi2Ġ":6857,"wu3Ġshi4Ġ":6858,"ao4Ġmen2":6859,"Ġfu2Ġjian4Ġ":6860,"BC":6861,"ark":6862,"shao4Ġnv3Ġ":6863,"ll":6864,"Ġdi4Ġliu4Ġ":6865,"Ġxian4Ġcheng2Ġ":6866,"jian1Ġyu4Ġ":6867,"guang3Ġchang3":6868,"guan3Ġli3Ġju2Ġ":6869,"ĠĠĠren2Ġ":6870,"zou3Ġxiang4Ġ":6871,"Ġzai4Ġhe2Ġ":6872,"jian1Ġren4Ġ":6873,"em":6874,"Ġnuo4Ġ":6875,"Ġyuan2Ġben3":6876,"Ġzuo4Ġzhan4Ġ":6877,"kan3":6878,"che1Ġdui4Ġ":6879,"Ġer2Ġfei1Ġ":6880,"guo2Ġshi4Ġ":6881,"eng4Ġ":6882,"yan2Ġzhi4Ġ":6883,"jiu4Ġyuan2Ġ":6884,"hu4Ġbu4Ġ":6885,"wa3Ġer3Ġsheng3Ġ":6886,"zhong1Ġyang1Ġ":6887,"Ġchu1Ġdao4Ġ":6888,"Ġnian2Ġ1Ġyue4Ġ1Ġri4Ġ":6889,"fĠ":6890,"shou1Ġdao4Ġ":6891,"mai4Ġke4Ġ":6892,"shi3Ġshang4Ġ":6893,"fa1Ġdong4Ġji1Ġ":6894,"gai3Ġshan4Ġ":6895,"guan3Ġzhi4Ġ":6896,"hui2Ġyi4Ġ":6897,"Ġgong1Ġli3ĠdeĠ":6898,"si4ĠdeĠ":6899,"tian1Ġhou4Ġ":6900,"Ġer3Ġshi4Ġ":6901,"mian3Ġfei4Ġ":6902,"hong1Ġzha4":6903,"76":6904,"tai1Ġ":6905,"Ġza2Ġzhi4Ġ":6906,"shi3Ġren2Ġ":6907,"yan2Ġren2Ġ":6908,"guo4ĠleĠ":6909,"xian3Ġzhu4Ġ":6910,"huai4Ġ":6911,"Ġwei4Ġyuan2Ġ":6912,"guo2Ġwu4Ġ":6913,"che1Ġxiang1Ġ":6914,"wang4Ġyuan3Ġ":6915,"98":6916,"Ġe4Ġ":6917,"shou3Ġdu1":6918,"Ġshi2Ġyan4Ġshi4Ġ":6919,"Ġsai4Ġ":6920,"du4Ġhe2Ġ":6921,"xiu1Ġdao4Ġ":6922,"siĠ":6923,"cu4Ġjin4Ġ":6924,"Ġyi4Ġjian4Ġ":6925,"Ġda4Ġgong1Ġ":6926,"ge2Ġli2Ġ":6927,"chong1Ġtu1":6928,"54":6929,"Ġqin1Ġ":6930,"jiang1Ġyu2Ġ":6931,"bei4Ġcheng1Ġwei2Ġ":6932,"duo3":6933,"ich":6934,"Ġyi2Ġge4":6935,"jia1Ġting2Ġ":6936,"dong1Ġjing1":6937,"xun2Ġzhao3":6938,"Ġxian1":6939,"Ġyun2Ġ":6940,"ĠĠĠyue4Ġ":6941,"Ġdi4Ġfang1":6942,"Ġfu4Ġjin4ĠdeĠ":6943,"luo4Ġshan1Ġji1Ġ":6944,"Ġding4Ġ":6945,"ĠĠĠchu1Ġ":6946,"ĠĠĠdang1Ġ":6947,"zhua1Ġ":6948,"Ġji2Ġshi3Ġ":6949,"yin3Ġyong4Ġ":6950,"hen3Ġkuai4Ġ":6951,"xi3Ġhuan1Ġ":6952,"bi4ĠdeĠ":6953,"jiao3Ġdu4Ġ":6954,"zuo3Ġyi4Ġ":6955,"Ġcheng2Ġben3Ġ":6956,"wei2Ġzhu3Ġ":6957,"fei4Ġchu2Ġ":6958,"Ġbing1Ġ":6959,"Ġyi4Ġshi4Ġ":6960,"ao4Ġer3Ġ":6961,"di4Ġhe2Ġ":6962,"Ġdi4Ġtu2Ġ":6963,"Ġxing2Ġdong4":6964,"ill":6965,"ĠĠĠ16":6966,"xiang1Ġshi4Ġ":6967,"yuan4Ġyi4Ġ":6968,"Ġyue4Ġdui4Ġ":6969,"Ġjun1Ġqu1Ġ":6970,"kong1Ġjian1":6971,"Ġge1":6972,"Ġneng2Ġ":6973,"ĠĠĠco":6974,"she4Ġbei4Ġ":6975,"Ġdan4Ġbai2Ġ":6976,"Ġ00":6977,"yu2Ġhe2Ġ":6978,"shan1Ġxian4Ġ":6979,"zu3ĠdeĠ":6980,"fang4Ġzai4Ġ":6981,"Ġka3":6982,"ĠĠĠsi1Ġ":6983,"lian2Ġjie1":6984,"tai2Ġbei3Ġshi4Ġ":6985,"mo4Ġsi1Ġke1Ġ":6986,"dao3Ġshang4Ġ":6987,"Ġke4Ġer3Ġ":6988,"bian1Ġhao4Ġwei4Ġ":6989,"pu4Ġ":6990,"zei2":6991,"shang4Ġbu4Ġ":6992,"ci3Ġtong2Ġshi2Ġ":6993,"ci2Ġzhi2Ġ":6994,"kai1Ġgong1Ġ":6995,"tong1Ġzhi1Ġ":6996,"wai4Ġjiao1Ġbu4Ġ":6997,"Ġjia3":6998,"ĠĠĠzheng4Ġ":6999,"jiu3ĠdeĠ":7000,"Ġzhi1Ġshi4Ġ":7001,"lie4Ġru4Ġ":7002,"an4Ġshi4Ġ":7003,"jia1Ġzai4Ġ":7004,"ying3Ġshi4Ġ":7005,"bi4Ġmian3":7006,"huan4Ġzhe3Ġ":7007,"cu1Ġ":7008,"jin3Ġyou3Ġ":7009,"can1Ġxuan3Ġ":7010,"e2Ġluo2Ġsi1ĠdeĠ":7011,"Ġ1995Ġnian2Ġ":7012,"zheng4Ġfu3ĠdeĠ":7013,"200Ġ":7014,"Ġcan1Ġyu4Ġ":7015,"zheng1Ġyue4Ġ":7016,"ti4Ġdai4Ġ":7017,"cai3Ġfang3":7018,"chu4Ġzhang3Ġ":7019,"00Ġmi3":7020,"ĠĠĠ2009":7021,"qiao3":7022,"dang1Ġnian2Ġ":7023,"qiang2Ġzhi4Ġ":7024,"95":7025,"beng1Ġ":7026,"Ġ29":7027,"fu4Ġshi4Ġ":7028,"Ġwei4Ġzai4Ġ":7029,"liu2Ġyu4Ġ":7030,"ti2Ġchu1ĠleĠ":7031,"xue2Ġzhong1Ġ":7032,"thĠ":7033,"Ġge4Ġguo2Ġ":7034,"Ġhao4Ġxian4":7035,"ĠĠĠba1Ġ":7036,"shan1Ġdi4Ġ":7037,"li3Ġlun4":7038,"Ġde2Ġla1Ġ":7039,"bi4Ġmian3Ġ":7040,"Ġdian4Ġying3":7041,"feng1Ġfu4Ġ":7042,"ci2ĠdeĠ":7043,"Ġyi3Ġzai4Ġ":7044,"zhu3Ġti2":7045,"zhang3Ġguan1Ġ":7046,"jing3Ġgao4Ġ":7047,"Ġ12Ġ":7048,"ĠĠĠgu4Ġshi4Ġ":7049,"si1Ġshi4Ġ":7050,"Ġsi1Ġma3Ġ":7051,"gu3Ġlao3":7052,"chuang4Ġzuo4ĠdeĠ":7053,"bo2Ġlin2Ġ":7054,"zong1Ġjiao4":7055,"sao1Ġ":7056,"qi1Ġzi3":7057,"yin3Ġru4Ġ":7058,"bu4ĠdeĠcun1Ġzhuang1Ġ":7059,"ĠĠĠyi3Ġxia4":7060,"zan4Ġzhu4Ġ":7061,"jing1Ġdian3Ġ":7062,"an1Ġzhuang1Ġ":7063,"kou3ĠdeĠ":7064,"ji4Ġsuan4":7065,"a1Ġgen1Ġ":7066,"Ġ1985Ġnian2Ġ":7067,"liao3Ġjie3Ġ":7068,"Ġsuo1Ġ":7069,"Ġyue4Ġlai2Ġyue4Ġ":7070,"Ġgong1Ġying4Ġ":7071,"pu3Ġbian4":7072,"qiang2Ġdu4Ġ":7073,"weng1Ġ":7074,"ĠĠĠwei2Ġ":7075,"su1Ġwei2Ġ":7076,"jiang4Ġyu3Ġ":7077,"Ġzai4Ġ194":7078,"Ġren2Ġda4Ġ":7079,"cai3Ġqu3":7080,"Ġhong1Ġ":7081,"ĠBĠ":7082,"Ġfeng4Ġ":7083,"guan3ĠdeĠ":7084,"Ġzhi1Ġdi4Ġ":7085,"hai3Ġan4":7086,"xiao3Ġxing2Ġxing1":7087,"qiang2ĠdeĠ":7088,"yun3Ġshi2Ġ":7089,"ti3Ġyu4Ġchang3Ġ":7090,"Ġjue2Ġding4Ġ":7091,"ĠĠĠfu4Ġ":7092,"guan4Ġjun1":7093,"Ġshi2Ġhou4Ġ":7094,"Ġzhi1Ġjia1Ġ":7095,"fa1Ġsheng1ĠdeĠ":7096,"Ġyou2Ġji1Ġ":7097,"ma3Ġlai2Ġxi1Ġya4":7098,"xia4Ġzai4Ġ":7099,"ceng2ĠdeĠ":7100,"Ġge4Ġzhong3":7101,"Ġke4Ġhe2Ġ":7102,"Ġ1990Ġnian2Ġ":7103,"Ġyi2":7104,"Ġtie3Ġ":7105,"Ġpa4Ġ":7106,"guan1Ġfang1":7107,"tong2Ġxing4Ġ":7108,"ĠQ":7109,"zao3Ġshang4Ġ":7110,"zhan3Ġlan3Ġ":7111,"Ġfu4Ġze2Ġguan3Ġxia2Ġ":7112,"liu3":7113,"zhan4Ġtai2Ġ":7114,"suo3Ġyou3ĠdeĠ":7115,"mer":7116,"hu1Ġyu4Ġ":7117,"Ġxian4Ġshang4Ġ":7118,"zhao4Ġpian1Ġ":7119,"xuan3Ġju3Ġzhong1Ġ":7120,"lie4Ġchu1Ġ":7121,"Ġyi1Ġzhi2Ġ":7122,"shi1Ġqu4Ġ":7123,"di1Ġqi4Ġ":7124,"ĠĠĠzeng1Ġzu3Ġ":7125,"ĠĠĠ8":7126,"tiv":7127,"fei1Ġxing2":7128,"bian1Ġwei4Ġ":7129,"Ġyu3Ġqi2Ġ":7130,"shen2Ġme":7131,"BS":7132,"Ġ50":7133,"guang3Ġzhou1":7134,"yin2Ġpai2Ġ":7135,"Ġxie4":7136,"Ġe2Ġ":7137,"san1Ġda4Ġ":7138,"la1Ġde2Ġ":7139,"shu1Ġchu1Ġ":7140,"Ġcheng2Ġxian4":7141,"cai2Ġliao4":7142,"sti":7143,"Ġshou3":7144,"Ġbao3":7145,"la1ĠdeĠ":7146,"lan2Ġxi1Ġ":7147,"ming2Ġdan1Ġ":7148,"tai4Ġkong1Ġ":7149,"hui2Ġgui1Ġ":7150,"yao2Ġgun3":7151,"bu":7152,"Ġ2007":7153,"guo2Ġwang2Ġ":7154,"Ġ1991Ġnian2Ġ":7155,"Ġer2Ġgai1Ġdi4ĠdeĠ":7156,"fa4Ġ":7157,"Ġjue2Ġ":7158,"dun4ĠdeĠ":7159,"Ġchu1Ġyan3Ġ":7160,"qian2Ġhou4Ġ":7161,"Ġshi4Ġbing1Ġ":7162,"Ġhe2Ġgu3Ġ":7163,"zhi4Ġ199":7164,"Ġyou3Ġxie1":7165,"shen1Ġqing3":7166,"gu3Ġla1Ġ":7167,"Ġfen1Ġbie2Ġ":7168,"mo4Ġer3Ġ":7169,"zao3Ġqi1ĠdeĠ":7170,"Ġgen1Ġ":7171,"Ġ9Ġ":7172,"he2Ġzai4Ġ":7173,"san1Ġren2Ġ":7174,"Ġbu4Ġshao3":7175,"Ġji4Ġlu4":7176,"duo1Ġci4":7177,"Ġzhu3Ġyan3Ġ":7178,"Ġsui4ĠdeĠ":7179,"chan2Ġ":7180,"Ġyi3Ġse4Ġlie4Ġ":7181,"ĠĠĠ6":7182,"dui4Ġyuan2Ġ":7183,"qiu2Ġhui4Ġ":7184,"ban4Ġnian2Ġ":7185,"Ġbu4Ġman3Ġ":7186,"Ġji4Ġyi4Ġ":7187,"Ġdui4Ġci3Ġ":7188,"sen1Ġlin2":7189,"Sta":7190,"nu4Ġ":7191,"Ġtai4":7192,"shi2Ġhe2Ġ":7193,"zhi1Ġshi2Ġ":7194,"zao1Ġyu4Ġ":7195,"qin1Ġwang2Ġ":7196,"Ġzhong4":7197,"ent":7198,"shi1Ġgong1Ġ":7199,"Ġshi2Ġbao4Ġ":7200,"Ġcheng2ĠleĠ":7201,"Ġyi3Ġqian2Ġ":7202,"Ġke4Ġli4Ġ":7203,"xing1Ġqi1":7204,"bo2Ġjue2Ġ":7205,"jian4Ġzhu4":7206,"Ġshou3Ġci4Ġ":7207,"min2Ġzhu3Ġdang3":7208,"shan1Ġdong1Ġsheng3Ġ":7209,"zha4Ġdan4Ġ":7210,"Ġbei4Ġer3":7211,"zhi3Ġkong4Ġ":7212,"jing4Ġnei4":7213,"Ġì":7214,"Ġsu4Ġ":7215,"te4Ġli4Ġ":7216,"ding4Ġyu2Ġ":7217,"lian2Ġren4Ġ":7218,"Ġ2003Ġnian2Ġ":7219,"bao3ĠdeĠ":7220,"tu2ĠdeĠ":7221,"you1Ġxiu4":7222,"Ġzhao1Ġhe2Ġ":7223,"74":7224,"Ġfa3":7225,"xia4Ġjiang4Ġ":7226,"ĠĠĠgai4Ġyao4Ġ":7227,"sheng4Ġchu1Ġ":7228,"xia4Ġlai2Ġ":7229,"shou4Ġquan2Ġ":7230,"zan4Ġting2Ġ":7231,"pin4":7232,"san1Ġge4":7233,"Ġwei4Ġneng2":7234,"Ġjun1Ġdi4Ġ":7235,"fen1ĠdeĠ":7236,"80Ġ":7237,"bei3Ġfang1Ġ":7238,"Ġ1950Ġnian2Ġ":7239,"Ġxian2Ġ":7240,"wang3Ġshang4Ġ":7241,"ta3Ġer3Ġ":7242,"pu3Ġcha2Ġ":7243,"yan2Ġjiu1Ġsheng1Ġ":7244,"Ġsha1":7245,"Ġdi4Ġzhen4Ġ":7246,"ling3Ġdao3ĠdeĠ":7247,"mou3Ġxie1":7248,"te4Ġer3Ġ":7249,"Ġxian4Ġyou3Ġ":7250,"Ġ1988Ġnian2Ġ":7251,"shi4ĠĠĠ":7252,"hao3Ġping2Ġ":7253,"ĠdeĠju4Ġ":7254,"Ġzhong1Ġjian1Ġ":7255,"Ġshe4Ġyu2Ġ":7256,"Ġsheng1Ġming2Ġ":7257,"she4Ġhui4":7258,"Ġmen2Ġ":7259,"Ġkao3Ġ":7260,"sha4":7261,"Ġshi2Ġxian4":7262,"chang3Ġbi3Ġsai4Ġ":7263,"lv4Ġse4Ġ":7264,"can1Ġshu4Ġ":7265,"qing1Ġchao2Ġ":7266,"Ġquan2Ġzhang3Ġ":7267,"pp":7268,"tong2Ġming2Ġ":7269,"te4Ġyou3Ġ":7270,"you2Ġxing2Ġ":7271,"Ġxing2Ġbu4Ġ":7272,"Ġchong1Ġ":7273,"wen2Ġzhong1Ġ":7274,"da2Ġzhou1Ġ":7275,"pei4Ġbei4Ġ":7276,"Ġji2Ġbing4Ġ":7277,"Ġgong1Ġneng2":7278,"gai3Ġzhi4Ġwei4Ġ":7279,"Ġxuan3Ġ":7280,"ĠĠĠdi4Ġyi1Ġ":7281,"gang3Ġyuan2Ġ":7282,"Ġxin1Ġzeng1Ġ":7283,"fei4Ġyan2Ġ":7284,"Ġwei1Ġlian2Ġ":7285,"Ġpo4Ġ":7286,"chĠ":7287,"qing2ĠdeĠ":7288,"Ġzhi3Ġzai4Ġ":7289,"fen3Ġsi1Ġ":7290,"Ġping2Ġlun4Ġ":7291,"huang2Ġse4Ġ":7292,"fang2Ġwu1Ġ":7293,"xing2Ġtai4Ġ":7294,"Ġchu2":7295,"fang1Ġmi3Ġ":7296,"ying3Ġxiang4Ġ":7297,"tui1Ġguang3Ġ":7298,"wu3Ġge4Ġ":7299,"xu4Ġli4Ġya4":7300,"mi4ĠdeĠ":7301,"cun2ĠdeĠ":7302,"Ġwei2Ġrao4Ġ":7303,"can1Ġting1Ġ":7304,"rui4Ġdian3Ġ":7305,"shen1Ġshi4Ġ":7306,"da4Ġqu1Ġ":7307,"sheng3Ġjie1Ġrang3Ġ":7308,"qing1Ġshao4Ġnian2Ġ":7309,"lu4Ġyi4Ġsi1Ġ":7310,"2Ġmi3Ġ":7311,"Ġre":7312,"Ġ20Ġ":7313,"Ġguang3Ġdong1Ġ":7314,"ĠĠĠ5":7315,"ĠĠĠ2019Ġnian2Ġ":7316,"si4Ġshi4Ġ":7317,"hai2Ġzai4Ġ":7318,"Ġzhi4Ġyi2Ġ":7319,"Ġjia1Ġting2":7320,"tian1Ġran2Ġ":7321,"Ġsai4Ġji4Ġ":7322,"Ġ2022Ġnian2Ġ":7323,"Ġxi1Ġer3Ġ":7324,"Ġxian1Ġhou4Ġ":7325,"ĠĠĠ0":7326,"zhe3Ġhe2Ġ":7327,"Ġjin4Ġzhi3Ġ":7328,"fei4Ġyong4Ġ":7329,"Ġshen2":7330,"188":7331,"bao3Ġluo2Ġ":7332,"chu1Ġqi1Ġ":7333,"Ġzui4Ġda4Ġ":7334,"Ġmi4Ġ":7335,"ĠdeĠzhu3Ġyao4Ġ":7336,"Ġbei4Ġpo4Ġ":7337,"zhang3Ġzi3Ġ":7338,"Ġ185":7339,"Ġding1Ġ":7340,"Ġzai4Ġxin1Ġ":7341,"xiang1Ġtong2ĠdeĠ":7342,"Ġjiang1Ġsu1Ġ":7343,"Ġshe4Ġhui4Ġzhu3Ġyi4Ġ":7344,"Ġni3":7345,"ĠĠĠjin1Ġ":7346,"san1Ġji2Ġ":7347,"zhe3Ġhui4Ġ":7348,"luo4Ġsi1Ġ":7349,"Ġyuan2Ġyin1":7350,"ce4Ġliang2":7351,"xiao1Ġliang4Ġ":7352,"Ġshi4Ġyi1Ġke1Ġ":7353,"chuang4Ġzao4Ġ":7354,"Ġmai4Ġke4Ġ":7355,"Ġzai4Ġyi4Ġqi3Ġ":7356,"WĠ":7357,"hui2Ġguo2Ġ":7358,"Ġshi2Ġxing4Ġ":7359,"xi1Ġnan2Ġ":7360,"ma3Ġla1Ġ":7361,"gu4Ġding4Ġ":7362,"gan3Ġlan3":7363,"wu2Ġxian4Ġdian4Ġshi4Ġ":7364,"ma3Ġke4Ġsi1Ġ":7365,"Ġji4Ġzai3":7366,"xiang1Ġbi3Ġ":7367,"jing4Ġzheng1":7368,"pu1":7369,"fen1Ġcheng2Ġ":7370,"wang2Ġwei4Ġ":7371,"ying4Ġji2Ġ":7372,"Ġbu4Ġlai2Ġ":7373,"Ġdi4Ġzhi4Ġ":7374,"Ġsi1Ġke1Ġ":7375,"xin1Ġshi4Ġ":7376,"la1Ġhe2Ġ":7377,"ĠdeĠhua4Ġ":7378,"Ġji2Ġhou4Ġ":7379,"Ġgong1Ġqing3Ġ":7380,"du4Ġshi3Ġ":7381,"chan3Ġsheng1ĠleĠ":7382,"Ġshuang1Ġfang1Ġ":7383,"dao1":7384,"Ġba3Ġ":7385,"te4Ġdian3Ġ":7386,"Ġguo2Ġjia1Ġdui4Ġ":7387,"Ġshi4Ġjie4Ġbei1Ġ":7388,"tie3Ġlu4Ġche1Ġzhan4Ġ":7389,"ĠĠĠk":7390,"tai4ĠdeĠ":7391,"cong2Ġwei4Ġ":7392,"Ġnian2Ġling2Ġ":7393,"xin1Ġwen2":7394,"xing4Ġneng2Ġ":7395,"Ġzhe4Ġyang4Ġ":7396,"wan2Ġzheng3Ġ":7397,"ĠÏ":7398,"tui1Ġjian4Ġ":7399,"fu2Ġluo2Ġli3Ġ":7400,"nong2Ġcun1Ġ":7401,"96":7402,"lei4Ġxing2ĠdeĠ":7403,"Ġta1Ġceng2Ġ":7404,"xie2Ġding4Ġ":7405,"ben1Ġ":7406,"war":7407,"ĠX":7408,"ji2Ġbu4Ġ":7409,"li3Ġbu4Ġ":7410,"deng3ĠdeĠ":7411,"ziĠhe2Ġ":7412,"Ġzai4Ġta1ĠdeĠ":7413,"gao1Ġda2Ġ":7414,"Ġshi4Ġzhong1Ġhua2Ġren2Ġmin2Ġgong4Ġhe2Ġguo2Ġ":7415,"ying3Ġxiang3Ġli4Ġ":7416,"ot":7417,"Ġhu2Ġnan2Ġ":7418,"an4Ġzhong1Ġ":7419,"chong1Ġji1Ġ":7420,"fen1Ġpei4Ġ":7421,"qi4Ġxuan2Ġ":7422,"zhang4Ġfu1Ġ":7423,"Ġwai4":7424,"Ġgong1Ġgong4":7425,"te4Ġzheng1":7426,"te4Ġla1Ġ":7427,"Ġzi4Ġyou2":7428,"sha1Ġsi3Ġ":7429,"Ġ1989Ġnian2Ġ":7430,"ĠĠĠjia1Ġting2Ġ":7431,"xia1Ġ":7432,"48Ġ":7433,"zhuan3Ġyi2":7434,"geng4Ġduo1ĠdeĠ":7435,"ĠdeĠzuo4Ġbiao1Ġwei4Ġ":7436,"ta1Ġzai4Ġ":7437,"1000":7438,"na4Ġde2Ġ":7439,"dong4Ġhua4":7440,"Ġ40":7441,"sheng1Ġzhi4Ġ":7442,"Ġyi1Ġren2Ġ":7443,"lian2Ġjie2Ġ":7444,"Ġsection":7445,"duo1Ġming2Ġ":7446,"lv4ĠdeĠ":7447,"Ġdao4Ġhe2Ġ":7448,"zhuan1Ġmen2Ġ":7449,"Ġceng2Ġren4":7450,"xue2Ġbu4Ġ":7451,"Ġshi4Ġhui4Ġ":7452,"Ġdao4Ġyi1Ġ":7453,"sheng1Ġji1Ġ":7454,"fu4Ġjin4":7455,"fang1Ġxiang4":7456,"Ġtong2Ġpai2Ġ":7457,"CO":7458,"Ġsong4":7459,"ĠĠĠshi3Ġyong4Ġ":7460,"hui4Ġyu2Ġ":7461,"xuan3Ġchu1Ġ":7462,"Ġnian2Ġqing1Ġ":7463,"Ġyu2Ġlei4Ġ":7464,"xi4Ġlie4ĠdeĠ":7465,"qu2":7466,"Ġdai4":7467,"quan2Ġshi4Ġ":7468,"yi1Ġxie1Ġ":7469,"fei2Ġ":7470,"Ġyong3":7471,"Ġdang3Ġ":7472,"Ġ11Ġ":7473,"yi4Ġbu4Ġ":7474,"si4Ġda4Ġ":7475,"Ġshi4Ġji4ĠdeĠ":7476,"Ġzai4Ġta1Ġ":7477,"Ġshi2Ġzhi4Ġ":7478,"Ġjia1Ġzu2":7479,"Ġtong2Ġyang4Ġ":7480,"Ġsi1Ġta3Ġ":7481,"mu4Ġni2Ġ":7482,"che1Ġliang4":7483,"se4Ġfu1Ġ":7484,"Ġ1983Ġnian2Ġ":7485,"Ġshen3Ġ":7486,"ban1ĠdeĠ":7487,"53":7488,"reng2Ġzai4Ġ":7489,"31Ġ":7490,"guo2Ġhui4Ġ":7491,"Ġta1Ġren4Ġwei2Ġ":7492,"guan1Ġce4Ġ":7493,"mei3Ġguo2Ġren2Ġ":7494,"Ġxu3Ġduo1":7495,"jia1Ġgong1Ġ":7496,"hai3Ġshang4Ġ":7497,"si3Ġxing2Ġ":7498,"qing4Ġzhu4Ġ":7499,"Ġyou3Ġda4Ġ":7500,"fu4Ġjin4ĠdeĠ":7501,"qu3Ġxiao1":7502,"ĠĠĠgen1Ġju4Ġ2020Ġnian2Ġmei3Ġguo2Ġren2Ġkou3Ġpu3Ġcha2ĠdeĠshu4Ġju4Ġ":7503,"qu2Ġ":7504,"bing4Ġwei4Ġ":7505,"zong3Ġhui4Ġ":7506,"guo2Ġli4Ġ":7507,"Ġda4Ġdao4":7508,"jie1Ġren4Ġ":7509,"zeng1Ġjia1ĠleĠ":7510,"âĨ":7511,"Ġqin2Ġ":7512,"chen4Ġ":7513,"jiang1Ġta1Ġ":7514,"jing1Ġji4":7515,"wu3Ġyue4Ġ":7516,"hui2Ġhe2Ġ":7517,"si3Ġyu2Ġ":7518,"lao3Ġshi1Ġ":7519,"Ġyi1Ġzhi4Ġ":7520,"Ġchu1Ġfa1Ġ":7521,"ya4Ġmu4Ġ":7522,"ban1Ġjiang3Ġ":7523,"qian1Ġyue1Ġ":7524,"shang4Ġhai3Ġshi4Ġ":7525,"im":7526,"xiang1Ġji4Ġ":7527,"fu2Ġli3Ġ":7528,"qie4Ġer3Ġ":7529,"Ġyou3Ġzhu4Ġ":7530,"Ġyi1Ġci2Ġ":7531,"Ġbing4Ġru4Ġ":7532,"43":7533,"Ġcai4":7534,"xing4Ġshi4Ġ":7535,"dan1Ġyuan2Ġ":7536,"Ġbu4Ġyi1Ġ":7537,"Ġli4Ġshu3Ġ":7538,"ĠSĠ":7539,"Ġchu3Ġ":7540,"Ġke3Ġneng2Ġ":7541,"shang4Ġyi1Ġ":7542,"wu4Ġhe2Ġ":7543,"Ġshi4Ġyou2":7544,"shou3Ġbo1Ġ":7545,"jiang3Ġshu4Ġ":7546,"qun2Ġdao3":7547,"deng1Ġchang2Ġ":7548,"can1Ġmou2Ġzhang3Ġ":7549,"120":7550,"42":7551,"Ġbao1Ġhan2Ġ":7552,"ĠĠĠv":7553,"ĠĠĠ3Ġ":7554,"guo4Ġyu2Ġ":7555,"dui4Ġshou3Ġ":7556,"zhao4Ġkai1":7557,"ĠdeĠji4Ġlu4Ġ":7558,"kuo4Ġzhan3":7559,"ee":7560,"fu4Ġjia1Ġ":7561,"fang2Ġwei4Ġ":7562,"pian4ĠdeĠ":7563,"Ġli4ĠziĠ":7564,"dai4Ġlai2Ġ":7565,"Ġjian4Ġkang1Ġ":7566,"gai3Ġge2":7567,"ci3Ġshi2Ġ":7568,"ba1Ġer3Ġ":7569,"Ġji2Ġxing2Ġzheng4Ġ":7570,"zhi2Ġye4":7571,"shan1Ġmai4Ġ":7572,"shuang1Ġda3Ġ":7573,"lei4Ġsi4ĠdeĠ":7574,"Ġ2006":7575,"Ġyi3Ġzhi4Ġ":7576,"zheng4Ġxie2Ġ":7577,"zhan4Ġling3":7578,"ye3Ġke3Ġyi3Ġ":7579,"Ġ000Ġren2Ġ":7580,"lai2Ġzi4Ġyu2Ġ":7581,"e2Ġwei4Ġ":7582,"ĠĠĠdan4":7583,"mei3Ġjun1Ġ":7584,"zhi2Ġzhi4Ġ":7585,"hai3Ġba2Ġgao1Ġ":7586,"ying1Ġgai1":7587,"ĠĠĠ12":7588,"zui4Ġwei4Ġ":7589,"qi4Ġhe2Ġ":7590,"zhu3Ġxi2":7591,"cun2Ġzai4ĠdeĠ":7592,"ok":7593,"ĠĠĠst":7594,"ji3Ġnian2Ġ":7595,"po3":7596,"zhuang4Ġji1Ġ":7597,"Ġke4Ġyun4Ġ":7598,"Ġsi4Ġchuan1Ġ":7599,"ĠĠĠ2018Ġnian2Ġ":7600,"a1Ġer3":7601,"duo1Ġge4":7602,"sheng3Ġdao4Ġ":7603,"yang2Ġxian4Ġ":7604,"lao2Ġgong1Ġ":7605,"na4Ġcui4":7606,"zu3Ġzhi3Ġ":7607,"nan2Ġji2Ġzhou1ĠdeĠ":7608,"97":7609,"90Ġ":7610,"Ġ1984Ġnian2Ġ":7611,"Ġ15Ġ":7612,"chou3":7613,"fei1Ġzhou1":7614,"chuang4Ġxin1Ġ":7615,"ĠhantĠ":7616,"ĠĠĠran2Ġer2Ġ":7617,"Ġxing1":7618,"Ġcai3Ġyong4Ġ":7619,"chang2Ġjian4Ġ":7620,"chuan2Ġzhi1Ġ":7621,"Ġzhi1Ġzhan4Ġ":7622,"jiang4Ġdi1":7623,"Ġa1Ġla1Ġ":7624,"Ġxian4Ġzhi1Ġxian4Ġ":7625,"yan2Ġzhong4ĠdeĠ":7626,"fa1Ġsheng1ĠleĠ":7627,"shu3ĠdeĠzhi2Ġwu4Ġ":7628,"he2Ġwei4Ġ":7629,"xi1Ġshi4Ġ":7630,"bu4Ġfen4Ġ":7631,"xi1Ġbei3Ġ":7632,"dui4Ġwu3Ġ":7633,"Ġyou2Ġci3Ġ":7634,"shuai4Ġling3Ġ":7635,"tu3Ġer3Ġqi2":7636,"jian1Ġshi4Ġ":7637,"mi4Ġsi1Ġ":7638,"Ġzhi1Ġliu2Ġ":7639,"zhi3ĠdeĠ":7640,"tou2Ġbu4Ġ":7641,"Ġyou3Ġguan1":7642,"Ġta1Ġdui4Ġ":7643,"Ġzhi3Ġshi4Ġ":7644,"du3":7645,"pu1Ġ":7646,"Ġli2":7647,"xin1Ġren2Ġ":7648,"dian4ĠdeĠ":7649,"yao4ĠdeĠ":7650,"Ġjian4Ġshi4Ġ":7651,"kai1Ġzhan3Ġ":7652,"suo3Ġshu3":7653,"Ġxiao3Ġshuo1Ġ":7654,"87":7655,"ex":7656,"Ġjie2Ġshu4Ġ":7657,"Ġshi4Ġyi4Ġda4Ġli4Ġ":7658,"xuan4Ġ":7659,"hui4Ġyi3Ġ":7660,"huai2Ġyi2Ġ":7661,"Ġzai4Ġyu3Ġ":7662,"Ġyi3Ġyu2Ġ":7663,"Ġda4Ġqiao2Ġ":7664,"Ġdong1Ġjing1Ġ":7665,"Ġling4Ġwai4":7666,"Ġlei2":7667,"hei1Ġren2Ġ":7668,"zong3Ġcai2Ġ":7669,"hui4Ġshi4Ġdi4Ġ":7670,"huan2Ġxing2Ġ":7671,"Ġgong1Ġlu4":7672,"Ġde2Ġdao4ĠleĠ":7673,"Ġshe4Ġji4ĠdeĠ":7674,"chuan2Ġmei2Ġ":7675,"zhou1Ġbian1Ġ":7676,"yun4Ġdong4ĠdeĠ":7677,"Ġmao2Ġ":7678,"yan2Ġshi2Ġ":7679,"our":7680,"xiao4Ġying4Ġ":7681,"qian1Ġding4Ġ":7682,"na2Ġpo4Ġ":7683,"gu3Ġfen4Ġyou3Ġxian4Ġgong1Ġsi1Ġ":7684,"zhu4Ġdi4Ġ":7685,"zheng3Ġge4":7686,"Ġshi4Ġyi1Ġzuo4Ġ":7687,"xia4Ġxia2Ġyi3Ġxia4":7688,"xin1Ġjia1Ġpo1Ġ":7689,"Ġshun4":7690,"Ġ2024":7691,"ĠĠĠ3Ġyue4Ġ":7692,"ben3Ġxian4Ġ":7693,"luo2Ġde2Ġ":7694,"ti3Ġyu4":7695,"hang2Ġtian1Ġ":7696,"nu2Ġ":7697,"Ġxu4Ġ":7698,"zhang3Ġda4Ġ":7699,"Ġji2Ġlin2Ġ":7700,"xun2Ġhuan2Ġ":7701,"fang4Ġqi4":7702,"Ġsui2Ġzhe":7703,"Ġbai3":7704,"ge2Ġer3Ġ":7705,"xi1Ġbei3Ġbu4Ġ":7706,"zhi3Ġding4Ġ":7707,"mu4Ġsi1Ġlin2Ġ":7708,"Ġxing2Ġshi3Ġ":7709,"can1Ġyu4ĠleĠ":7710,"zi4Ġwei4Ġ":7711,"70Ġ":7712,"Ġzai4Ġgai1Ġ":7713,"Ġli4Ġyong4":7714,"fa3Ġting2Ġ":7715,"yi2Ġchan3":7716,"jing4Ġsai4Ġ":7717,"Ġpu3":7718,"yi1Ġbu4Ġfen4":7719,"zhan4Ġwei4Ġyu2Ġ":7720,"Ġbu4Ġer3Ġ":7721,"Ġwei2Ġchi2Ġ":7722,"Ġxiang1Ġdang1":7723,"Ġsheng1Ġzhang3Ġyu2Ġ":7724,"Ġdian4Ġshi4Ġ":7725,"dui1Ġ":7726,"Ġyu2Ġ193":7727,"ben3Ġtu3Ġ":7728,"mei3Ġyuan2ĠdeĠ":7729,"Ġnan2ĠziĠ":7730,"hai3Ġba2Ġgao1Ġdu4Ġwei4Ġ":7731,"od":7732,"luo4ĠdeĠ":7733,"por":7734,"xun2Ġqiu2Ġ":7735,"nuo4Ġyi1Ġ":7736,"Ġgong1Ġchi3":7737,"xi1Ġnan2Ġbu4Ġ":7738,"Ġxian4Ġjin1Ġ":7739,"you2Ġtai4Ġren2Ġ":7740,"Ġzhong1Ġguo2Ġguo2Ġmin2Ġ":7741,"Ġqiu2Ġhui4Ġ":7742,"jie1Ġshou1Ġ":7743,"sheng3Ġwei3Ġ":7744,"guang1Ġxu4Ġ":7745,"leĠĠĠ":7746,"dan1Ġyi1Ġ":7747,"yun4Ġhe2Ġ":7748,"ĠdeĠgu4Ġshi4Ġ":7749,"Ġbu4Ġdi2Ġ":7750,"ĠdeĠcheng2Ġzhen4Ġ":7751,"Ġe2":7752,"Ġbai2":7753,"zha2":7754,"la1Ġer3Ġ":7755,"zhe3Ġwei4Ġ":7756,"yin3Ġzhong3Ġ":7757,"ying2Ġye4Ġ":7758,"ĠIn":7759,"Ġkai3Ġ":7760,"Ġche1Ġzhan4":7761,"wu4Ġyuan2Ġ":7762,"bu2Ġyao4Ġ":7763,"Ġnian2Ġnian2Ġ":7764,"Ġyi1Ġliao2Ġ":7765,"Ġxing2Ġxiang4Ġ":7766,"lu4Ġzhan4Ġ":7767,"Ġzhe4Ġshou3Ġ":7768,"ba1Ġla1Ġ":7769,"ist":7770,"ĠĠĠ2007":7771,"Ġhe2Ġli3Ġ":7772,"Ġyi1Ġzhi1Ġ":7773,"bang1Ġzhu4":7774,"Ġnai3":7775,"ĠĠĠ5Ġyue4Ġ":7776,"Ġguo2Ġmin2":7777,"wen2Ġhua4ĠdeĠ":7778,"mo4Ġsi1Ġke1":7779,"wei3Ġfu4Ġshu1Ġji4Ġ":7780,"miao3":7781,"zhi2Ġyuan2Ġ":7782,"wu3Ġdi4Ġ":7783,"bie2ĠdeĠ":7784,"si1Ġlan2Ġ":7785,"Ġke4Ġla1Ġ":7786,"shang1ĠdeĠ":7787,"taĠ":7788,"90Ġnian2Ġ":7789,"Ġwei4Ġci3Ġ":7790,"Ġdi4Ġmian4Ġ":7791,"ji1Ġben3Ġ":7792,"rong2Ġna4Ġ":7793,"mian3Ġdian1Ġ":7794,"xun2Ġyang2Ġjian4Ġ":7795,"ge1Ġju4Ġ":7796,"gui1Ġfan4Ġ":7797,"li2ĠziĠ":7798,"Ġqi2Ġzhong1Ġnan2Ġxing4Ġ":7799,"di3Ġkang4Ġ":7800,"kuai4Ġsu4":7801,"Ġwu1Ġke4Ġlan2Ġ":7802,"men2ĠdeĠ":7803,"ceng2Ġshui3Ġyu4Ġ":7804,"Ġ1986Ġnian2Ġ":7805,"zhuan4ĠdeĠxiao3Ġxing2Ġxing1Ġ":7806,"85":7807,"ĠĠĠping2Ġjia4Ġ":7808,"you2Ġqi2Ġ":7809,"qi3ĠleĠ":7810,"Ġke4Ġlai2Ġ":7811,"jian3Ġdan1Ġ":7812,"Ġji3Ġ":7813,"shi1Ġren2Ġ":7814,"ci4Ġwei4Ġ":7815,"yue4Ġnan2Ġ":7816,"Ġdi4Ġ1Ġ":7817,"shou3Ġxi2Ġ":7818,"fu3Ġzhu4Ġ":7819,"you2Ġren2Ġgong1Ġ":7820,"ros":7821,"Ġshi4Ġnei4Ġ":7822,"Ġhou4Ġqi1Ġ":7823,"Ġshe4Ġji1Ġ":7824,"jie4Ġshao4":7825,"ĠdeĠdi4Ġer4":7826,"leĠyi1Ġxie1Ġ":7827,"Ġjian4Ġli4ĠleĠ":7828,"AO":7829,"Ġqiu1Ġ":7830,"a1Ġli3Ġ":7831,"tui1Ġchu1ĠdeĠ":7832,"ruan3Ġti3Ġ":7833,"Ġshi2Ġyong4Ġ":7834,"Ġyi1Ġtiao2Ġ":7835,"na4Ġxie1Ġ":7836,"Ġjiao4Ġyu4":7837,"long3Ġ":7838,"Ġguo1":7839,"ĠĠĠchu2ĠleĠ":7840,"zhi2Ġli4Ġ":7841,"jue2ĠleĠ":7842,"ĠĠĠSt":7843,"ami":7844,"ry":7845,"Ġhuan4Ġ":7846,"shu4Ġshi4Ġ":7847,"zhang3Ġwei4Ġ":7848,"ci4Ġda4Ġ":7849,"zhong1Ġxin1Ġ":7850,"mian4Ġlin2Ġ":7851,"ban4Ġyan3Ġ":7852,"ĠdeĠyi1Ġxie1Ġ":7853,"jiao4Ġyu2Ġ":7854,"ji1Ġchu3Ġ":7855,"tu2Ġxiang4Ġ":7856,"qun2Ġti3Ġ":7857,"con":7858,"Ġce4Ġ":7859,"Ġchao2Ġxian1Ġ":7860,"liu2ĠdeĠ":7861,"Ġzai4Ġri4Ġben3Ġ":7862,"Ġda4Ġliang4":7863,"Ġxi1Ġyin3Ġ":7864,"luo2Ġbo2Ġte4Ġ":7865,"shuo4Ġshi4Ġxue2Ġwei4Ġ":7866,"she2":7867,"ĠĠĠ2017Ġnian2Ġ":7868,"yu3Ġshi4Ġ":7869,"Ġzai4Ġbei3Ġ":7870,"wei2Ġzhi3Ġ":7871,"tong1Ġxun4Ġ":7872,"can1Ġsai4":7873,"dang1Ġju2Ġ":7874,"Ġren2Ġmin2Ġbi4Ġ":7875,"Ġliu2Ġyu4Ġ":7876,"fen1Ġbie2Ġwei4Ġ":7877,"ge4Ġdi4Ġ":7878,"luo4Ġke4Ġ":7879,"Ġjin4Ġnian2Ġ":7880,"du1Ġdu1Ġ":7881,"Ġgong1Ġcheng2Ġshi1Ġ":7882,"Ġ1958Ġnian2Ġ":7883,"zhi1Ġyuan2Ġ":7884,"meng2Ġjun1Ġ":7885,"Ġhe2Ġji2Ġ":7886,"Ġji2Ġshi3":7887,"zong3Ġjian1Ġ":7888,"Ġdi4Ġer4Ġci4Ġ":7889,"shen3Ġcha2Ġ":7890,"Ġzai4Ġdi4Ġer4Ġ":7891,"ping2Ġjun1Ġhai3Ġba2Ġgao1Ġdu4Ġwei4Ġ":7892,"LE":7893,"ĠĠĠjing1Ġji4Ġ":7894,"ĠĠĠ2016Ġnian2Ġ":7895,"ji1Ġshi4Ġ":7896,"dui4Ġhe2Ġ":7897,"zu2Ġqiu2Ġdui4Ġ":7898,"ĠdeĠxian4Ġ":7899,"Ġer3Ġde2":7900,"fa3Ġlan2Ġ":7901,"chui2Ġ":7902,"ni2Ġxi1Ġya4Ġ":7903,"Ġxi1Ġan1Ġ":7904,"Ġqiu2Ġchang3Ġ":7905,"qing2Ġxu4Ġ":7906,"gao4Ġsu4Ġ":7907,"hua2Ġsheng4Ġdun4":7908,"Ġxin4Ġ":7909,"ĠĠĠtian1Ġ":7910,"Ġwei4Ġming2Ġ":7911,"gong1Ġkai1Ġ":7912,"chang3Ġjing3Ġ":7913,"Ġer2Ġgai1Ġdi4ĠdeĠping2Ġjun1Ġhai3Ġba2Ġgao1Ġdu4Ġwei4Ġ":7914,"fen2":7915,"Ġcai2":7916,"Ġhuan2Ġ":7917,"fen1Ġzhi1Ġyi1Ġ":7918,"Ġyou3Ġli4Ġ":7919,"Ġji1Ġyin1Ġ":7920,"gai3Ġbian1Ġ":7921,"boĠ":7922,"liang2Ġshi2Ġ":7923,"zhong1Ġyang1":7924,"suo3Ġchu4ĠdeĠhai3Ġba2Ġwei4Ġgao1Ġyu2Ġhai3Ġping2Ġmian4Ġ":7925,"gang3Ġkou3Ġ":7926,"2010Ġnian2Ġmei3Ġguo2Ġren2Ġkou3Ġpu3Ġcha2ĠdeĠshu4Ġju4Ġ":7927,"pin2Ġlv4Ġ":7928,"han3Ġmo4":7929,"Ġliang3Ġge4Ġ":7930,"chu1Ġdao4Ġ":7931,"yan3Ġchu1":7932,"bian1Ġcheng2Ġ":7933,"ying4Ġdui4Ġ":7934,"Ġchu1Ġxi2Ġ":7935,"yong3Ġjiu3Ġ":7936,"Ġ1946Ġnian2Ġ":7937,"yin3Ġzhong3Ġzai1Ġpei2Ġ":7938,"Ġye4":7939,"qian4":7940,"xi1Ġla4":7941,"Ġi":7942,"Ġku4":7943,"piao1Ġ":7944,"chu1Ġren4Ġ":7945,"shuo1Ġshi4Ġ":7946,"chao2ĠdeĠ":7947,"Ġzhi4Ġzao4":7948,"yan2Ġzhong4":7949,"chuang4Ġban4Ġ":7950,"ka3Ġluo2Ġlai2Ġ":7951,"2ĠĠĠ":7952,"aw":7953,"nang2Ġ":7954,"yuan2Ġdi4Ġ":7955,"shen1Ġshang4Ġ":7956,"xue2Ġxi2":7957,"Ġjian4Ġwei4Ġ":7958,"Ġsi1Ġxiang3Ġ":7959,"Ġxi1Ġxi1Ġ":7960,"Ġzhi1Ġqian2":7961,"ru4Ġqin1":7962,"mi3Ġya4Ġ":7963,"Ġyi3Ġse4Ġlie4":7964,"hĠ":7965,"feng1ĠdeĠ":7966,"zu2Ġyi3Ġ":7967,"ji1Ġbai3Ġ":7968,"fei1Ġfa3Ġ":7969,"zhan3Ġkai1":7970,"you2Ġren2Ġgong1Ġyin3Ġzhong3Ġzai1Ġpei2Ġ":7971,"Ġyun2Ġnan2Ġ":7972,"li4Ġzhong1Ġ":7973,"si4Ġming2Ġ":7974,"ge1ĠdeĠ":7975,"qing2Ġxing2Ġ":7976,"wei1Ġxian3Ġ":7977,"ju1Ġmin2Ġdian3Ġ":7978,"re4Ġdai4Ġfeng1Ġbao4Ġ":7979,"ji4Ġji2Ġ":7980,"ye3Ġbu4Ġ":7981,"ĠĠĠji4Ġ":7982,"ji4Ġzai4Ġ":7983,"Ġzhi1Ġfu3Ġ":7984,"ju4Ġqing2Ġ":7985,"Ġqiu2ĠdeĠ":7986,"Ġshe4Ġhui4":7987,"Ġxin1Ġzeng1":7988,"Ġhan4Ġzu2Ġ":7989,"heng1Ġ":7990,"Ġgan3Ġ":7991,"yu4Ġji4Ġ":7992,"dong4Ġgong1Ġ":7993,"lu3Ġke4Ġ":7994,"Ġzhong1Ġzui4Ġ":7995,"wei2Ġer3":7996,"Ġyi3Ġshang4ĠdeĠ":7997,"Ġyu3Ġci3Ġtong2Ġshi2Ġ":7998,"Ġwei2Ġya4Ġ":7999,"tou1Ġ":8000,"tao1Ġ":8001,"Ġ28":8002,"Ġting2Ġ":8003,"jie4Ġshi2Ġ":8004,"bing1Ġbu4Ġ":8005,"duo1Ġyang4Ġ":8006,"zu3Ġcheng2":8007,"Ġjiao4Ġshou4Ġ":8008,"an4Ġzhao4Ġ":8009,"duo3Ġ":8010,"Ġtui1Ġ":8011,"Ġxu1Ġyao4Ġ":8012,"gua1":8013,"yi3Ġhou4Ġ":8014,"xiang4Ġxi1Ġ":8015,"yan3Ġsheng1Ġ":8016,"deng1Ġji4Ġ":8017,"Ġbu4Ġjia1Ġ":8018,"Ġzhong1Ġguo2Ġda4Ġlu4ĠdeĠ":8019,"xia4Ġxia2Ġyi3Ġxia4Ġdi4Ġqu1Ġ":8020,"an1Ġshi4Ġ":8021,"chu1Ġsheng1Ġ":8022,"ge2Ġli4Ġ":8023,"da4Ġshi3Ġ":8024,"nan2Ġfang1Ġ":8025,"Ġzi4Ġdong4Ġ":8026,"ala":8027,"zhan4Ġzhi4Ġ":8028,"kong1Ġjun1":8029,"bai2Ġzhi4Ġ":8030,"zi1Ġzhu4Ġ":8031,"bian1Ġjing4Ġ":8032,"93":8033,"Ġshen4Ġ":8034,"hou4Ġshi4Ġ":8035,"ze2Ġyou3Ġ":8036,"Ġping2Ġjia4Ġ":8037,"liao3Ġjie3":8038,"yu3Ġyi3Ġ":8039,"shun4Ġshi2Ġ":8040,"Ġxian4Ġru4Ġ":8041,"qu1Ġfen1Ġ":8042,"Ġqi2Ġzhong1Ġnan2Ġ":8043,"Ġjiang1Ġqi2Ġ":8044,"fa1Ġzhan3ĠdeĠ":8045,"Ġjin4Ġshi4Ġchu1Ġshen1Ġ":8046,"Ġxu3Ġ":8047,"Ġbu4Ġbian4Ġ":8048,"Ġzhi4Ġshao3":8049,"Ġbei4Ġqi2Ġ":8050,"chuan2Ġbo1":8051,"gan1Ġsu4Ġ":8052,"Ġtong1Ġguo4":8053,"jiao4Ġyu4Ġbu4Ġ":8054,"fei1Ġlv4Ġbin1":8055,"mao2Ġze2Ġdong1Ġ":8056,"pen2":8057,"Ġyou1Ġ":8058,"ĠĠĠ10Ġyue4Ġ":8059,"lu3Ġshi4Ġ":8060,"shan3Ġ":8061,"si1Ġxiang3Ġ":8062,"Ġji4Ġnian4":8063,"zi1Ġsheng3Ġ":8064,"zi3Ġnv3Ġ":8065,"shao4Ġjiang4Ġ":8066,"Ġsu1Ġlian2Ġ":8067,"wen4Ġti2ĠdeĠ":8068,"wu2Ġren2Ġji1Ġ":8069,"5Ġge4Ġ":8070,"meng3":8071,"Ġ26":8072,"zu2Ġren2Ġ":8073,"80Ġnian2Ġ":8074,"Ġdi4Ġsi1Ġ":8075,"Ġyu2Ġdi4Ġ":8076,"nan2Ġzi":8077,"pan4Ġjue2Ġ":8078,"Ġãĥ¼":8079,"1Ġhao4Ġ":8080,"bao3Ġzheng4Ġ":8081,"fei1Ġli4Ġ":8082,"qu3Ġjia1Ġ":8083,"cai2Ġchan3Ġ":8084,"ju2Ġju2Ġzhang3Ġ":8085,"zhuang4Ġkuang4":8086,"Ġ1982Ġnian2Ġ":8087,"Ġni4":8088,"gong4Ġchan3Ġzhu3Ġyi4Ġ":8089,"Ġao4Ġda4Ġli4Ġ":8090,"Ġgong1Ġkai1Ġsai4Ġ":8091,"zi4Ġxing2Ġche1Ġ":8092,"âĪ":8093,"ĠĠĠbei3Ġ":8094,"fu2Ġde2Ġ":8095,"fan2Ġzhi2Ġ":8096,"Ġzhe4Ġbu4Ġ":8097,"Ġxi4Ġlie4Ġ":8098,"zhe4Ġbu4Ġ":8099,"miao2Ġhui4Ġ":8100,"shang1Ġwang2Ġ":8101,"wan2Ġcheng2ĠleĠ":8102,"Ġ27":8103,"Ġyi1Ġmei2Ġ":8104,"fa3Ġling4Ġ":8105,"ma3Ġtou2Ġ":8106,"ke1Ġfu1":8107,"hen3Ġduo1":8108,"Ġ1987Ġnian2Ġ":8109,"Ġshi4Ġzhong1Ġxin1Ġ":8110,"zhi3Ġhui1Ġguan1Ġ":8111,"chai2Ġ":8112,"ĠĠĠling4Ġwai4Ġ":8113,"yin3Ġshi2Ġ":8114,"Ġshi4Ġwu1Ġke4Ġlan2":8115,"Ġwei4Ġqi2Ġ":8116,"Ġbu4Ġzhi4Ġ":8117,"jiao1Ġhuan4Ġ":8118,"Ġnan2Ġbei3Ġ":8119,"ai1Ġna4Ġ":8120,"Ġgong1Ġzuo4Ġshi4Ġ":8121,"ai4Ġguo2Ġ":8122,"er4Ġzhan4Ġ":8123,"Ġzhi1Ġji4Ġ":8124,"Ġtong2Ġyi1Ġ":8125,"shi3Ġyong4ĠleĠ":8126,"ceng2Ġshi4Ġ":8127,"res":8128,"Ġzhi4Ġliao2":8129,"bao3Ġcun2Ġ":8130,"Ġmu4":8131,"Ġou1Ġzhou1Ġ":8132,"zhan4Ġji4Ġ":8133,"Ġzai4Ġji1Ġ":8134,"Ġda4Ġjia1Ġ":8135,"ni4Ġ":8136,"Ġhe2Ġbing4Ġwei4Ġ":8137,"fang1Ġcheng2Ġ":8138,"ji3Ġhe2Ġ":8139,"shen1Ġzhen4":8140,"bao4Ġzhi3Ġ":8141,"zeng1Ġqiang2Ġ":8142,"Ġhe4":8143,"Ġchuan1Ġ":8144,"kui1Ġ":8145,"Ġda4Ġsha4Ġ":8146,"sha1Ġhai4Ġ":8147,"Ġman3":8148,"zhi1Ġming2Ġ":8149,"wai4Ġwei2Ġ":8150,"Ġshi4Ġfou3Ġ":8151,"guo2Ġnei4Ġ":8152,"Ġda4Ġzhong4Ġ":8153,"Ġjian4Ġhe2Ġ":8154,"Ġbi4Ġye4Ġyu2Ġ":8155,"6Ġge4Ġ":8156,"Ġjie1":8157,"Ġhan2":8158,"Ġ60":8159,"zheng3Ġhe2Ġ":8160,"Ġyu2Ġ2020Ġnian2Ġ":8161,"shou4Ġhai4Ġ":8162,"ĠnĠ":8163,"ji1Ġbu4Ġ":8164,"cheng1Ġhao4Ġ":8165,"bo1Ġer3Ġ":8166,"186":8167,"Ġdi4Ġguo2ĠdeĠ":8168,"Ġgong1Ġzhan4Ġ":8169,"Ġsi1Ġka3Ġ":8170,"fen1Ġlei4":8171,"san1Ġci4Ġ":8172,"ba1Ġfa2":8173,"cai2Ġwu4Ġ":8174,"Ġfa1Ġxing2Ġ":8175,"ci3Ġzhi1Ġwai4Ġ":8176,"da2ĠdeĠ":8177,"cu4Ġjin4":8178,"Ġyi3Ġnan2Ġ":8179,"Ġxing2Ġcheng2ĠdeĠ":8180,"ling3Ġxiu4":8181,"ma3ĠdeĠ":8182,"lie4Ġshi4Ġ":8183,"cun4":8184,"Ġzai4Ġ195":8185,"Ġdan4Ġyin1Ġ":8186,"zhu4Ġce4Ġ":8187,"gai3Ġshan4":8188,"pan4Ġluan4Ġ":8189,"Ġchu1Ġxian4ĠleĠ":8190,"ĠdeĠming2Ġzi4Ġ":8191,"gong4Ġshi2Ġ":8192,"1999Ġnian2Ġ":8193,"ther":8194,"Ġda4Ġshi1Ġ":8195,"ying1Ġguo2ĠdeĠ":8196,"Ġjie2Ġgou4Ġ":8197,"che4Ġdi3Ġ":8198,"us":8199,"xia4ĠdeĠyi2Ġge4Ġ":8200,"huo4Ġshi4Ġ":8201,"ling2ĠdeĠ":8202,"zheng4Ġquan2Ġ":8203,"guang3Ġgao4":8204,"Ġ1978Ġnian2Ġ":8205,"75Ġ":8206,"IIĠ":8207,"ong":8208,"tuo3":8209,"ĠĠĠ2021Ġnian2Ġ":8210,"zhi3Ġyu2Ġ":8211,"ru4ĠdeĠ":8212,"Ġwei4Ġyou2Ġ":8213,"Ġyue4Ġtai2":8214,"Ġdao4Ġbu4Ġ":8215,"Ġxi1Ġla4Ġ":8216,"tian1Ġhuang2Ġ":8217,"ling3Ġyu4":8218,"bing4Ġmei2Ġyou3Ġ":8219,"yan2Ġjiu1Ġyuan4Ġ":8220,"Ġzhi3Ġchu1Ġ":8221,"Ġling4Ġyi4Ġfang1Ġmian4Ġ":8222,"miao2Ġshu4":8223,"ty":8224,"tuo4":8225,"Ġzhen1":8226,"sheng4Ġdi4Ġ":8227,"qun2ĠdeĠ":8228,"mian4Ġti3Ġ":8229,"zhong4Ġzhi2Ġ":8230,"Ġshang4":8231,"Ġfou3":8232,"Ġzheng3Ġ":8233,"Ġyuan2Ġshi3Ġ":8234,"dang1Ġxuan3":8235,"sonĠ":8236,"âĦ":8237,"Ġdou1":8238,"187":8239,"nuo4Ġsi1Ġ":8240,"jing1Ġguo4":8241,"jing3Ġguan1Ġ":8242,"zu2Ġxie2Ġ":8243,"Ġ500":8244,"dou4Ġzheng1Ġ":8245,"âĨĴ":8246,"Ġsheng1Ġzhang3Ġyu2Ġhai3Ġba2":8247,"Ġmo2":8248,"gao1Ġyuan2Ġ":8249,"shang1Ġdian4Ġ":8250,"wu1Ġran3Ġ":8251,"Ġma3Ġli4Ġ":8252,"Ġwei4Ġfu2Ġqi2Ġyu2Ġgang1":8253,"luo2Ġji2Ġ":8254,"Ġwei4Ġbei4Ġ":8255,"Ġdao4Ġshi4Ġ":8256,"hou4Ġlai2Ġ":8257,"Ġnan2Ġjing1Ġ":8258,"Ġdi4Ġyi1Ġci4":8259,"Ġ1980Ġnian2Ġ":8260,"Ġ1948Ġnian2Ġ":8261,"Ġniu3Ġyue1":8262,"ĠĠĠ15":8263,"tao2Ġyuan2Ġ":8264,"run4":8265,"Ġzai4Ġying1Ġguo2Ġ":8266,"Ġyuan2Ġze2Ġ":8267,"shi1Ġbai4":8268,"hang2Ġye4Ġ":8269,"fang2Ġzhi3Ġ":8270,"42Ġ":8271,"Ġsa4":8272,"Ġlao2Ġ":8273,"ĠĠĠ6Ġ":8274,"tian1Ġjia1Ġ":8275,"Ġshi2Ġdai4ĠdeĠ":8276,"Ġshang4Ġshu1Ġ":8277,"xing4Ġbie2Ġ":8278,"qing2Ġjie2Ġ":8279,"tuan2Ġzhang3Ġ":8280,"Ġmu4Ġqian2Ġshang4Ġwei4Ġ":8281,"Ġfen1Ġbie2Ġshi4Ġ":8282,"tu1Ġchu1Ġ":8283,"Ġzhong1Ġshu1Ġ":8284,"Ġyi4Ġsi":8285,"ping2Ġmin2Ġ":8286,"guan1Ġfei4Ġyan2Ġ":8287,"Ġzhe4Ġci4Ġ":8288,"lai2Ġsi1Ġ":8289,"Ġhe2Ġfa3Ġ":8290,"Ġyi4Ġming2Ġ":8291,"Ġyi3Ġshi4Ġ":8292,"chang2Ġqi1":8293,"Ġtuo2":8294,"Ġxian4ĠdeĠyi2Ġge4Ġfei1Ġjian4Ġzhi4Ġdi4Ġqu1Ġ":8295,"3Ġmi3Ġ":8296,"89":8297,"qi4Ġti3Ġ":8298,"fu2Ġer3Ġ":8299,"bo1Ġchu1":8300,"hong2Ġjun1Ġ":8301,"Ġbu4Ġde2Ġ":8302,"ru4Ġxuan3":8303,"sai1Ġna4Ġ":8304,"Ġpan1Ġ":8305,"Ġfen1Ġbie2Ġwei4Ġ":8306,"wu4Ġzhong3ĠdeĠ":8307,"Ġzhi1Ġchu4Ġ":8308,"ĠDĠ":8309,"Ġdan1Ġren4":8310,"a1Ġji1Ġ":8311,"180":8312,"hao3Ġyou3Ġ":8313,"Ġhe2Ġta1ĠdeĠ":8314,"xiang3Ġfa3Ġ":8315,"kao3Ġgu3Ġ":8316,"Ġpei2Ġ":8317,"chou2Ġbei4Ġ":8318,"Ġzhong1Ġfa1Ġxian4Ġ":8319,"Ġyu3Ġda4Ġ":8320,"shou3Ġfu3Ġ":8321,"dong1Ġni2Ġ":8322,"Ġzhe4Ġyang4ĠdeĠ":8323,"dang4Ġan4Ġ":8324,"86":8325,"mao3Ġ":8326,"Ġzhuan1Ġji2Ġ":8327,"ĠĠĠ2006":8328,"mian4Ġshi4Ġ":8329,"1996Ġnian2Ġ":8330,"Ġyi4Ġji2Ġ":8331,"Ġping2Ġlun4":8332,"niao3Ġlei4Ġ":8333,"nu4":8334,"chi1":8335,"an1Ġren2Ġ":8336,"yu4Ġdao4Ġ":8337,"dian3Ġwei4Ġ":8338,"fu2Ġhao4Ġ":8339,"Ġguan1Ġfang1Ġ":8340,"Ġzhong1Ġgong4Ġzhong1Ġyang1":8341,"tai1":8342,"Ġjie3Ġ":8343,"hang2Ġxian4Ġ":8344,"Ġzhi4Ġding4Ġ":8345,"Ġyi4Ġdian3Ġ":8346,"zuo4Ġchu1":8347,"Ġji1Ġdu1Ġjiao4Ġ":8348,"yan2Ġshen1Ġ":8349,"Ġtong2Ġri4Ġ":8350,"chang2Ġjiang1Ġ":8351,"Ġxing2Ġzheng4Ġzhen4Ġqu1Ġ":8352,"ca":8353,"cong1Ġ":8354,"cheng1Ġwei2":8355,"ao4Ġsi1Ġka3Ġ":8356,"Ġshan4Ġ":8357,"Ġshi4Ġnan2Ġji2Ġzhou1ĠdeĠ":8358,"qu1Ġjian1Ġ":8359,"zhu3Ġchang3Ġ":8360,"ju4Ġfeng1Ġ":8361,"Ġzuo4Ġbiao1Ġwei4Ġ":8362,"chan3Ġye4":8363,"xiu1Ġgai3":8364,"zhu1Ġlong2Ġ":8365,"Ġxin1Ġjia1Ġ":8366,"ĠĠĠsui2Ġ":8367,"ĠĠĠ2015Ġnian2Ġ":8368,"cheng1Ġzhi1Ġwei4Ġ":8369,"ni2ĠdeĠ":8370,"âĢ§":8371,"li4Ġyong4Ġ":8372,"Ġgong1Ġjin1Ġ":8373,"Ġda4Ġxing2":8374,"Ġzuo4Ġchu1":8375,"hui4Ġji2Ġ":8376,"zhan4Ġguo2Ġ":8377,"pin3Ġzhi4Ġ":8378,"34Ġ":8379,"dong4Ġche1Ġ":8380,"NAĠ":8381,"Ġxia2Ġ":8382,"Ġgai3Ġwei2Ġ":8383,"ĠĠĠer2":8384,"ĠĠĠzhu3Ġyao4Ġ":8385,"dong1Ġxian4Ġ":8386,"wu3Ġming2Ġ":8387,"ge1Ġer3Ġ":8388,"kuo4Ġzhang1Ġ":8389,"bin1Ġshi4Ġ":8390,"she4Ġhui4Ġzhu3Ġyi4Ġ":8391,"ying2Ġde2ĠleĠ":8392,"46Ġ":8393,"NA":8394,"Ġbao4":8395,"Ġxiong2Ġ":8396,"an4Ġshi2Ġ":8397,"zuo4Ġzhong1Ġ":8398,"Ġji1Ġxie4Ġ":8399,"fen1Ġli2Ġ":8400,"ming4Ġling4":8401,"huo3Ġban4Ġ":8402,"zu1Ġjie4Ġ":8403,"ĠĠĠzhan4Ġ":8404,"chang3Ġshang4Ġ":8405,"qi3ĠdeĠ":8406,"di3Ġzhi4Ġ":8407,"Ġgong1Ġzuo4ĠdeĠ":8408,"sheng1Ġming2Ġ":8409,"bao3Ġcun2":8410,"ling3Ġxian1Ġ":8411,"jing1Ġji4Ġxue2Ġ":8412,"Ġmin2":8413,"ĠĠĠzhu4Ġ":8414,"dui4Ġyou3Ġ":8415,"zhang3Ġyue1Ġ":8416,".&":8417,"zhong1Ġshi4Ġji4Ġ":8418,"dui4Ġta1Ġ":8419,"dong4Ġyuan2Ġ":8420,"ban1Ġbu4Ġ":8421,"hou4Ġxuan3Ġren2Ġ":8422,"Ġming2Ġzi4Ġ":8423,"tong1Ġxin4Ġ":8424,"ren2Ġmin2Ġdai4Ġbiao3Ġda4Ġhui4Ġ":8425,"ayĠ":8426,"ĠĠĠke4Ġ":8427,"jiang1Ġsu1Ġsheng3Ġ":8428,"5Ġgong1Ġli3Ġ":8429,"IT":8430,"Ġbai4Ġ":8431,"ĠĠĠto":8432,"yin3Ġli4Ġ":8433,"Ġdan4Ġbu4Ġ":8434,"ti2Ġgong1ĠdeĠ":8435,"zu2Ġzi4Ġzhi4Ġ":8436,"ĠĠĠMo":8437,"lei4Ġsi4Ġyu2Ġ":8438,"pen":8439,"Ġwei2":8440,"Ġcheng2Ġshi4Ġ":8441,"shi":8442,"shi3Ġzhong1Ġ":8443,"zhan4Ġwei4Ġ":8444,"ban1Ġfa1Ġ":8445,"ai4Ġqing2Ġ":8446,"41":8447,"ĠĠĠhe2":8448,"ĠĠĠdui4Ġyu2Ġ":8449,"shi1Ġhe2Ġ":8450,"Ġwei2Ġzhi3Ġ":8451,"jie1Ġchu4":8452,"Ġren4Ġming4":8453,"jiao1Ġcha1Ġ":8454,"nv3Ġyan3Ġyuan2Ġ":8455,"gan3Ġran3":8456,"Ġbu4Ġde2Ġbu4Ġ":8457,"ear":8458,"ith":8459,"Ġbao1Ġ":8460,"Ġ1Ġyue4Ġ":8461,"Ġpai4Ġ":8462,"Ġning2Ġ":8463,"1998Ġnian2Ġ":8464,"su1Ġli3Ġ":8465,"ĠdeĠli3Ġ":8466,"Ġji1Ġchu3Ġ":8467,"Ġjia1Ġmeng2Ġ":8468,"Ġchu1Ġshen1Ġ":8469,"shou3Ġduan4Ġ":8470,"Ġyou2Ġyong3Ġ":8471,"qi3Ġsu4Ġ":8472,"deng3Ġzhi2Ġ":8473,"xian4Ġfa3Ġ":8474,"hai4Ġe2":8475,"52":8476,"dou3Ġ":8477,"ai4Ġde2Ġhua2Ġ":8478,"che1Ġdao4Ġ":8479,"Ġxian4Ġdai4":8480,"Ġjia1Ġjing4Ġ":8481,"dian4Ġche1Ġ":8482,"Ġzhu3Ġchi2Ġ":8483,"Ġ1979Ġnian2Ġ":8484,"Ġre4Ġ":8485,"ti3Ġxing2Ġ":8486,"han4Ġzi4Ġ":8487,"Ġzai4Ġgong1Ġ":8488,"Ġcheng2Ġshi4ĠdeĠ":8489,"gong4Ġhe2Ġguo2ĠdeĠ":8490,"Ġ36":8491,"Ġchun1Ġ":8492,"yuan2Ġzhong1Ġ":8493,"tai4Ġhou4Ġ":8494,"jiang3ĠdeĠ":8495,"reng2Ġyou3Ġ":8496,"lang3Ġde2Ġ":8497,"Ġzai4Ġnan2Ġ":8498,"Ġchu1Ġru4Ġkou3Ġ":8499,"ma3Ġlai2Ġ":8500,"ban1Ġci4Ġ":8501,"yan2Ġjiu1Ġyuan2Ġ":8502,"ban3Ġben3ĠdeĠ":8503,"Ġdang1Ġxuan3":8504,"Ġshi4Ġdi4Ġyi1Ġ":8505,"IP":8506,"Ġyao2Ġ":8507,"ĠĠĠfu2Ġ":8508,"xian4Ġshi2Ġ":8509,"fu4Ġzhi4Ġ":8510,"hang2Ġzhou1Ġ":8511,"han4Ġyu3Ġ":8512,"ĠdeĠxiao3Ġ":8513,"geng4Ġduo1":8514,"mian4Ġji1Ġhe2Ġ":8515,"BCĠ":8516,"Ġyuan3Ġ":8517,"ren2Ġwei4Ġ":8518,"xi1Ġyuan2Ġ":8519,"fen1Ġwei4Ġ":8520,"ke1Ġer3Ġ":8521,"pai2Ġde2Ġzhu3Ġ":8522,"zao1Ġshou4Ġ":8523,"fen1Ġqu1Ġ":8524,"jin3Ġbiao1Ġsai4":8525,"Ġsan1Ġshi2Ġ":8526,"an1Ġxian4Ġ":8527,"jiang1Ġshi4Ġ":8528,"bing1Ġli4Ġ":8529,"bai4Ġzhan4Ġ":8530,"Ġbu4Ġer3":8531,"Ġjian4Ġyou3Ġ":8532,"Ġhui4Ġbei4Ġ":8533,"xie2Ġtiao2":8534,"sang4Ġ":8535,"rang4Ġta1Ġ":8536,"jiao4Ġshou4":8537,"shui3Ġku4Ġ":8538,"gui1Ġmo2ĠdeĠ":8539,"son":8540,"Ġguan3Ġ":8541,"fu4Ġyou3Ġ":8542,"wu3Ġqi4":8543,"pin3Ġpai2":8544,"ĠĠĠRe":8545,"huang1":8546,"Ġwei4Ġzhong1Ġguo2Ġ":8547,"Ġzhe4Ġye3Ġshi4Ġ":8548,"Ġgai1Ġdi4ĠdeĠ":8549,"Ġzui4Ġchu1":8550,"Ġgong1Ġyuan2Ġqian2Ġ":8551,"Ġdi4Ġshi2Ġyi1Ġ":8552,"yi3Ġshang4Ġ":8553,"amĠ":8554,"lie4Ġru4":8555,"Ġqiu2Ġyun4Ġdong4Ġyuan2Ġ":8556,"bian1Ġma3Ġ":8557,"gan3Ġjue2Ġ":8558,"Ġmu4Ġqian2Ġshang4Ġwei4Ġyou2Ġren2Ġgong1Ġyin3Ġzhong3Ġzai1Ġpei2Ġ":8559,"ĠĠĠ7":8560,"ĠĠĠ2014Ġnian2Ġ":8561,"1900":8562,"nan2Ġsi1Ġla1Ġ":8563,"jin1Ġri4Ġ":8564,"hua2Ġda4Ġxue2Ġ":8565,"Ġhe2Ġlan2":8566,"lu4Ġxu4Ġ":8567,"tui4Ġxiu1":8568,"wu4Ġli3Ġxue2Ġ":8569,"zui4Ġzao3ĠdeĠ":8570,"JĠ":8571,"den":8572,"ĠĠĠ4Ġyue4Ġ":8573,"diceĠ":8574,"mou2Ġsha1Ġ":8575,"sheng1Ġming4Ġ":8576,"min2Ġjin4Ġ":8577,"weng1":8578,"Ġchao1":8579,"fa3Ġshi4Ġ":8580,"jian1Ġzhi4Ġ":8581,"xue2Ġsheng1":8582,"lu4Ġshang4Ġ":8583,"Ġxi1Ġban1Ġya2Ġyu3Ġ":8584,"ye1Ġsu1":8585,"ohn":8586,"yuan2Ġshi2Ġ":8587,"lin2Ġsi1Ġ":8588,"Ġli4Ġke4Ġ":8589,"sheng1Ġtai4Ġ":8590,"dao3Ġyan3":8591,"Ġxiang1Ġdui4Ġ":8592,"ce4Ġlve4Ġ":8593,"Ġti1Ġ":8594,"ka3Ġluo2Ġlai2Ġna4":8595,"ĠĠĠ4Ġ":8596,"38Ġ":8597,"Ġzai4Ġyuan2Ġ":8598,"ding4Ġqi1Ġ":8599,"xu4Ġshu4Ġ":8600,"qian1Ġshu3":8601,"Ġdang1Ġxuan3Ġ":8602,"Ġyou3Ġyi1Ġxie1Ġ":8603,"tsĠ":8604,"19Ġshi4Ġji4Ġ":8605,"wo4Ġer3Ġ":8606,"zhong1Ġbu4Ġ":8607,"Ġcheng2Ġxu4":8608,"Ġchu1Ġxian4":8609,"shen1Ġzhen4Ġ":8610,"wei3Ġyuan2Ġhui4ĠdeĠ":8611,"Ġzhi4Ġzuo4Ġren2Ġ":8612,"xia4Ġxia2ĠdeĠyi2Ġge4Ġxiang1Ġ":8613,"gi":8614,"Ġhao3Ġ":8615,"Ġshou4Ġdao4Ġ":8616,"shou3Ġbu4Ġ":8617,"te4Ġhe2Ġ":8618,"te4Ġji2Ġ":8619,"wang3ĠdeĠ":8620,"tou2ĠdeĠ":8621,"gan4Ġxian4Ġ":8622,"zhan3Ġlan3":8623,"ĠĠĠCom":8624,"ĠĠĠ1949Ġnian2Ġ":8625,"xing3Ġ":8626,"fi":8627,"lu4Ġyu3Ġ":8628,"duo1Ġer3Ġ":8629,"dui4Ġwai4Ġ":8630,"shang4Ġshu4Ġ":8631,"xiang1Ġhu4Ġ":8632,"Ġming2Ġcheng1":8633,"feng1Ġge2":8634,"gai3Ġwei2":8635,"jian4Ġzao4Ġ":8636,"Ġma3Ġlai2Ġxi1Ġya4Ġ":8637,"ly":8638,"zu1":8639,"diĠ":8640,"jing1ĠdeĠ":8641,"shi1Ġdi4Ġ":8642,"ziĠgong1Ġsi1Ġ":8643,"Ġji2Ġyi1Ġ":8644,"Ġjian4Ġzao4":8645,"Ġyin1ĠdeĠ":8646,"jiao4Ġzuo4Ġ":8647,"zui4Ġduo1ĠdeĠ":8648,"wu3Ġhan4":8649,"Ġzhong1Ġguo2Ġgong4Ġchan3Ġdang3":8650,"Ġguo2Ġmin2Ġdang3Ġ":8651,"zhou2Ġ":8652,"ĠĠĠge4Ġren2Ġsheng1Ġhuo2Ġ":8653,"tiao1Ġ":8654,"bei4Ġshi4Ġ":8655,"jia3Ġji1Ġ":8656,"zao3Ġzai4Ġ":8657,"Ġshi4Ġxiang1Ġgang3Ġ":8658,"Ġyu2Ġ2010Ġnian2Ġ":8659,"Ġda4Ġyue1":8660,"Ġ1938Ġnian2Ġ":8661,"Ġji4Ġsuan4Ġji1Ġ":8662,"Ġdeng1Ġ":8663,"ĠĠĠ7Ġyue4Ġ":8664,"shu4Ġhe2Ġ":8665,"jin4Ġji2Ġ":8666,"yan2Ġchang2":8667,"Ġqi2Ġbing1Ġ":8668,"tai2Ġbi4Ġ":8669,"kuo4Ġzhan3Ġ":8670,"zhuo1Ġ":8671,"ain":8672,"Ġwen1":8673,"Ġ2005":8674,"Ġkang1Ġxi1Ġ":8675,"mu4Ġshi4Ġ":8676,"ru4Ġwei2Ġ":8677,"qi4Ġren2Ġ":8678,"xie2Ġdai4Ġ":8679,"tan4Ġsuo3Ġ":8680,"Ġhe2Ġtong2Ġ":8681,"dui4Ġxiang4Ġ":8682,"ben3Ġshen1Ġ":8683,"zui4Ġzao3Ġ":8684,"tian1Ġtang2Ġ":8685,"miao2Ġshu4Ġwei4Ġ":8686,"qi2Ġshi4Ġ":8687,"mei3Ġri4Ġ":8688,"xiu1Ġsi1Ġ":8689,"jiu1Ġ":8690,"zhuan3Ġwei2Ġ":8691,"1988Ġnian2Ġ":8692,"mai3Ġ":8693,"gui1Ġhua4":8694,"ĠdeĠji1Ġhui4Ġ":8695,"jiu4Ġdu2Ġyu2Ġ":8696,"Ġshi4Ġge4Ġ":8697,"Ġge4Ġda4Ġ":8698,"Ġke4Ġli3Ġsi1Ġ":8699,"liang4Ġzi3Ġ":8700,"mi2Ġni3Ġ":8701,"Ġha1Ġer3Ġ":8702,"zhu3Ġchi2Ġren2Ġ":8703,"Ġà¸":8704,"âĦĥ":8705,"1Ġming2Ġ":8706,"lan":8707,"1992Ġnian2Ġ":8708,"Ġdi4Ġ2Ġ":8709,"Ġgong1Ġkai1":8710,"Ġcheng2Ġbao3Ġ":8711,"zhong4Ġdian3":8712,"Ġ1947Ġnian2Ġ":8713,"Ġquan2Ġqiu2Ġ":8714,"Ġpai2Ġ":8715,"ĠĠĠdong1Ġ":8716,"ĠĠĠ2012Ġnian2Ġ":8717,"ĠĠĠ2013Ġnian2Ġ":8718,"fu1Ġfu4Ġ":8719,"Ġzhong1Ġzhi3Ġ":8720,"Ġguo2Ġgong1Ġ":8721,"dai4Ġbu3Ġ":8722,"kai1Ġmu4Ġ":8723,"yi2Ġmin2":8724,"pi1Ġping2":8725,"zuo3Ġyou4":8726,"cui1Ġhui3":8727,"laySta":8728,"cai1Ġ":8729,"ĠĠĠY":8730,"hang2Ġzhan4Ġ":8731,"zhuang4Ġbing4Ġdu2":8732,"ba1Ġn":8733,"jiang3Ġzui4Ġjia1Ġ":8734,"Ġhu2":8735,"Ġfu3Ġ":8736,"na4Ġsi1Ġ":8737,"min2Ġzhu3":8738,"shang1Ġpin3Ġ":8739,"fan4Ġwei2":8740,"oog":8741,"nuo2Ġwei1":8742,"ren3Ġ":8743,"ĠĠĠxiang1Ġgang3Ġ":8744,"dong1ĠdeĠ":8745,"zhen1ĠdeĠ":8746,"Ġbu4Ġzheng4Ġ":8747,"Ġcheng2Ġwei2Ġyi1Ġ":8748,"Ġzhan4Ġling3Ġ":8749,"nei4Ġmeng2Ġgu3Ġ":8750,"bo1Ġfang4":8751,"tai2Ġwan1ĠdeĠ":8752,"du2Ġte4ĠdeĠ":8753,"xie2Ġshang1Ġ":8754,"di3Ġda2":8755,"60Ġnian2Ġ":8756,"Ġshi4Ġnan2Ġ":8757,"fen1Ġlan2Ġ":8758,"que4Ġding4":8759,"64Ġ":8760,"tang1":8761,"ĠĠĠla1Ġ":8762,"ĠĠĠzhi4Ġzuo4Ġ":8763,"wu2Ġer3Ġ":8764,"qiu2Ġdui4":8765,"Ġmeng4Ġ":8766,"e4Ġer3Ġ":8767,"ju4Ġzhong1Ġ":8768,"zhang1ĠdeĠ":8769,"Ġyi1Ġchang2Ġ":8770,"Ġqian2Ġlong2Ġ":8771,"bi1Ġ":8772,"Ġfan3Ġdui4Ġ":8773,"yin4Ġxiang4Ġ":8774,"29Ġ":8775,"Ġming2Ġxing1Ġ":8776,"ge1Ġci2Ġ":8777,"huang2Ġjin1":8778,"Ġ2025":8779,"Ġkou3Ġ":8780,"Ġling3Ġ":8781,"shu1Ġshi4Ġ":8782,"70Ġnian2Ġ":8783,"Ġji2Ġyi3Ġ":8784,"Ġri4Ġqi1Ġ":8785,"yi2Ġzhi3":8786,"tong2Ġyang4":8787,"Ġtou4Ġguo4Ġ":8788,"Ġshan3Ġxi1Ġ":8789,"ĠĠĠ8Ġyue4Ġ":8790,"fu4Ġyu3Ġ":8791,"ma3Ġshi4Ġ":8792,"jing4Ġnei4ĠdeĠ":8793,"tt":8794,"Ġ22":8795,"ci2Ġhui4Ġ":8796,"Ġguo2Ġyu3Ġ":8797,"you2Ġtai4Ġ":8798,"Ġzhou1Ġren2Ġ":8799,"zhi2Ġbo1Ġ":8800,"ka3Ġla1Ġ":8801,"zhao4Ġpian1":8802,"Ġtong2Ġshi2Ġye3Ġ":8803,"huo2Ġdong4ĠdeĠ":8804,"Ġdiao4Ġ":8805,"Ġgu4Ġshi4Ġ":8806,"huan3":8807,"fu2Ġshe4Ġ":8808,"san1Ġwei4Ġ":8809,"wang2Ġhou4Ġ":8810,"chuan1Ġyue4Ġ":8811,"40Ġnian2Ġ":8812,"ckĠ":8813,"Ġdi4Ġba1Ġ":8814,"te4Ġqu1Ġ":8815,"jin4Ġzhi3Ġ":8816,"Ġsui4Ġshi2Ġ":8817,"65Ġ":8818,"ani":8819,"chong3Ġ":8820,"ci4Ġji1Ġ":8821,"37Ġ":8822,"da4Ġxue2":8823,"Ġri4Ġyi4Ġ":8824,"Ġer3Ġzai4Ġ":8825,"Ġbing4Ġbiao3Ġshi4Ġ":8826,"Ġfu4Ġgai4Ġ":8827,"jian4Ġkang1Ġ":8828,"da3Ġsuan4Ġ":8829,"la3Ġ":8830,"xue1":8831,"ceng2Ġyu2Ġ":8832,"jiao4Ġke1Ġ":8833,"zhe4Ġzhong3":8834,"Ġjin4Ġji2Ġ":8835,"zong3Ġjing1Ġli3Ġ":8836,"Ġhe2Ġliu2Ġyu4Ġ":8837,"Ġyao1Ġqiu2":8838,"ĠĠĠ2011Ġnian2Ġ":8839,"guai4":8840,"zhan4Ġzai4Ġ":8841,"ci3Ġshi4Ġ":8842,"ge2Ġsi1Ġ":8843,"jiu4Ġyou3Ġ":8844,"Ġyuan2Ġyou3Ġ":8845,"shang4Ġxia4Ġ":8846,"ju4Ġda4ĠdeĠ":8847,"han4Ġlin2Ġ":8848,"he4Ġse4Ġ":8849,"kai1Ġfa1ĠdeĠ":8850,"jie1Ġwei4Ġzhi1Ġ":8851,"Ġshi4Ġyi2Ġge4Ġwei4Ġyu2Ġmei3Ġguo2Ġ":8852,"mian4Ġji1Ġhe2Ġren2Ġkou3Ġ":8853,"DV":8854,"tuo3Ġ":8855,"cho":8856,"cheng2Ġshi2Ġ":8857,"xiang3ĠdeĠ":8858,"tang2ĠdeĠ":8859,"fang2Ġkong1Ġ":8860,"qun2Ġzhong4Ġ":8861,"Ġ1981Ġnian2Ġ":8862,"cheng2Ġzai4Ġ":8863,"dan1Ġxin1Ġ":8864,"ying1Ġjun1Ġ":8865,"bi3Ġer3Ġ":8866,"bo1Ġli4Ġ":8867,"ji1Ġchu3":8868,"Ġta1Ġjiang1Ġ":8869,"bao3Ġzhang4":8870,"lan2Ġse4Ġ":8871,"que4Ġbao3Ġ":8872,"gou3":8873,"Ġzhan4Ġdi4Ġ":8874,"ĠĠĠX":8875,"qiao1":8876,"zui3Ġ":8877,"Ġyi1Ġtian1Ġ":8878,"Ġchu1Ġren4":8879,"Ġdang1Ġnian2Ġ":8880,"Ġqi2Ġzhong1Ġyou3Ġ":8881,"chuang4Ġshi3Ġren2Ġ":8882,"hang2Ġkong1Ġgong1Ġsi1Ġ":8883,"Ġgai1Ġdi4ĠdeĠmian4Ġji1Ġhe2Ġren2Ġkou3Ġ":8884,"Ġgai1Ġdi4ĠdeĠmian4Ġji1Ġhe2Ġren2Ġkou3Ġjie1Ġwei4Ġzhi1Ġ":8885,"ĠĠĠmu4Ġqian2Ġ":8886,"ĠĠĠsui1Ġran2Ġ":8887,"yue4Ġhe2Ġ":8888,"qu1Ġji2Ġ":8889,"ju1Ġyu2Ġ":8890,"Ġyi4Ġwai4Ġ":8891,"gao1Ġdeng3":8892,"Ġxiang1Ġtong2Ġ":8893,"Ġ1937Ġnian2Ġ":8894,"Ġzhi4Ġli4Ġyu2Ġ":8895,"xiang1ĠdeĠ":8896,"cha2Ġli3Ġ":8897,"Ġshi4Ġyuan2Ġ":8898,"xi1Ġwang4Ġ":8899,"dan1Ġda3Ġ":8900,"Ġsu2Ġ":8901,"BSĠ":8902,"Ġcan1":8903,"Ġyan2Ġjiu1Ġ":8904,"Ġren4Ġhe2Ġ":8905,"mu4Ġzhi4Ġ":8906,"Ġge4Ġzi4Ġ":8907,"Ġjun1Ġguan1Ġ":8908,"tuan2Ġjie2Ġ":8909,"3000":8910,"sk":8911,"Ġwu1":8912,"yi2Ġji4Ġ":8913,"pin3ĠdeĠ":8914,"1945Ġnian2Ġ":8915,"Ġjia1Ġru4ĠleĠ":8916,"Ġchu1Ġshou4Ġ":8917,"gao1Ġjia4Ġ":8918,"hai3Ġyang2":8919,"chao2Ġting2Ġ":8920,"hui4Ġyi4Ġshang4Ġ":8921,"cun2Ġzai4Ġyu2Ġ":8922,"Ġguo2Ġmin2Ġzheng4Ġfu3Ġ":8923,"bi2Ġ":8924,"¡Ġ":8925,"dian3Ġxing2ĠdeĠ":8926,"biao1Ġji4Ġ":8927,"gei3Ġta1Ġ":8928,"Ġshi2Ġyue4Ġ":8929,"Ġde2Ġli4Ġ":8930,"Ġte4Ġbie2Ġ":8931,"mp":8932,"tan1":8933,"²Ġ":8934,"ĠĠĠqi2Ġzhong1Ġ":8935,"fang1Ġwei4Ġ":8936,"Ġzhong1Ġdui4Ġ":8937,"Ġda4Ġgui1Ġmo2Ġ":8938,"xi1Ġyang2":8939,"ĠdeĠyuan2Ġyin1Ġ":8940,"ĠĠĠwei4ĠleĠ":8941,"touĠ":8942,"Ġdi2":8943,"Ġqiu1":8944,"Ġ35":8945,"duo1Ġyuan2Ġ":8946,"xi4Ġjun1Ġ":8947,"guo2Ġfang2":8948,"chan3Ġsheng1":8949,"ling3Ġyu4ĠdeĠ":8950,"ĠĠĠ9Ġyue4Ġ":8951,"ping2Ġjun1":8952,"fu2Ġzhou1Ġ":8953,"zhuang4ĠdeĠ":8954,"fa1Ġyan2Ġren2Ġ":8955,"nv3Ġhai2Ġ":8956,"rui4Ġdian3":8957,"Ġ1956Ġnian2Ġ":8958,"ĠdeĠji4Ġhua4Ġ":8959,"3Ġming2Ġ":8960,"Ġniu2Ġ":8961,"xu4Ġji2Ġ":8962,"jian3Ġli4Ġ":8963,"meng2Ġte4Ġ":8964,"hei1Ġlong2Ġjiang1Ġ":8965,"chuang4Ġzuo4":8966,"ĠØ":8967,"Ġhuai2":8968,"jie1Ġjin4":8969,"Ġyi3Ġ1Ġ":8970,"ting2Ġyun4Ġ":8971,"zhuang1Ġjia3":8972,"Ġwan3Ġ":8973,"duan4Ġshi2Ġjian1Ġ":8974,"ting1ĠdeĠ":8975,"Ġhe2Ġli4Ġ":8976,"Ġshi2Ġjian1ĠdeĠ":8977,"fa1Ġhui1":8978,"1Ġmi3Ġ":8979,"Ġcai3Ġ":8980,"qian1Ġren2Ġ":8981,"wan4Ġli4Ġ":8982,"diao4Ġyu2Ġ":8983,"illi":8984,"Ġxi1Ġli3Ġ":8985,"Ġzhi1Ġcheng1Ġ":8986,"fu4Ġzhu3Ġxi2Ġ":8987,"wu3Ġdao3Ġ":8988,"mao1":8989,"Ġken3Ġ":8990,"qiao1Ġ":8991,"san1Ġyue4Ġ":8992,"Ġzhou1Ġwei2Ġ":8993,"shu4Ġmu4Ġ":8994,"guan1Ġce4":8995,"na4Ġru4Ġ":8996,"liang4Ġxiang4Ġ":8997,"wang3Ġwang3Ġ":8998,"bu3Ġchong1Ġ":8999,"peng1Ġ":9000,"jia1Ġshi4Ġ":9001,"shu4Ġren2Ġ":9002,"chuan1Ġguo4Ġ":9003,"ji4Ġxu4":9004,"shen1Ġwang2Ġ":9005,"duan3Ġzan4":9006,"fu2Ġjian4Ġsheng3Ġ":9007,"Ġnei4":9008,"shi3Ġdi4Ġ":9009,"Ġdan4Ġqi2Ġ":9010,"fu2Ġhua4Ġ":9011,"ke1Ġfu1Ġ":9012,"ta3Ġni2":9013,"ĠĠĠche1Ġzhan4Ġjie2Ġgou4Ġ":9014,"94":9015,"ren3":9016,"ĠĠĠcan1Ġkao3Ġ":9017,"you3Ġguan1Ġ":9018,"Ġji2Ġer3Ġ":9019,"Ġer2Ġlai2Ġ":9020,"fang2Ġjian1Ġ":9021,"suan4Ġfa3Ġ":9022,"zhong1Ġhe2Ġ":9023,"dang3Ġji2Ġ":9024,"stĠ":9025,"jing1Ġyou2Ġ":9026,"jing4Ġwai4Ġ":9027,"Ġcheng2Ġli4ĠleĠ":9028,"qu4Ġshi4Ġhou4Ġ":9029,"Ġsui2ĠzheĠ":9030,"Ġbing4Ġqie3Ġzai4Ġ":9031,"Ġcai4Ġ":9032,"yu4Ġbei4Ġ":9033,"qi1Ġshi4Ġ":9034,"shen2ĠdeĠ":9035,"chong2Ġfu4Ġ":9036,"tui1Ġxing2Ġ":9037,"Ġke4Ġluo2Ġ":9038,"ĠdeĠdi4Ġyi2Ġge4Ġ":9039,"Ġye3Ġke3Ġyi3Ġ":9040,"ĠRo":9041,"san3":9042,"Ġlu2":9043,"ĠĠĠaĠĠĠ":9044,"zhan4Ġhe2Ġ":9045,"duo1Ġbu4Ġ":9046,"zhan3Ġxian4Ġ":9047,"song4Ġdao4Ġ":9048,"Ġta1Ġhai2":9049,"Ġyin1Ġyuan2Ġ":9050,"Ġyin1Ġqi2Ġ":9051,"Ġsheng1Ġcheng1Ġ":9052,"kong1Ġxi2Ġ":9053,"Ġshi4Ġjie4ĠdeĠ":9054,"ni2Ġya4ĠdeĠ":9055,"ao4Ġda4Ġli4Ġya4":9056,"zhe4Ġjiang1Ġsheng3Ġ":9057,"Ġzhu3":9058,"Ġ2000":9059,"qian2Ġzai4Ġ":9060,"lie4Ġsi1Ġ":9061,"du1Ġhui4Ġ":9062,"e2Ġhai4Ġe2":9063,"hang2Ġban1Ġ":9064,"shou1Ġlu4":9065,"Ġwen2Ġhua4":9066,"roun":9067,"ĠĠĠ6Ġyue4Ġ":9068,"zhe3Ġren4Ġwei2Ġ":9069,"Ġdi4Ġ2":9070,"Ġchu1Ġyi1Ġ":9071,"Ġhui4Ġshang4Ġ":9072,"tou2Ġxian2Ġ":9073,"se4Ġcai3Ġ":9074,"qiang2Ġda4ĠdeĠ":9075,"guo2Ġjia1Ġdui4Ġ":9076,"tan4Ġce4Ġ":9077,"pai2Ġhang2Ġbang3":9078,"zhi1Ġdao4Ġ":9079,"hou4Ġbu4Ġjiu3Ġ":9080,"jue2Ġyu2Ġ":9081,"wan3Ġnian2Ġ":9082,"da4Ġliang4Ġ":9083,"Ġdao4Ġzhong1Ġ":9084,"xi1Ġya4Ġ":9085,"Ġyi3Ġlai2":9086,"Ġwei2Ġqi2":9087,"chong2Ġxin1":9088,"tan4Ġxian3":9089,"bu4Ġwei4Ġyu2Ġ":9090,"shui3Ġhe2Ġ":9091,"Ġzai4Ġxian4Ġ":9092,"Ġdi4Ġzhong1Ġ":9093,"zhe4Ġyang4ĠdeĠ":9094,"xu4Ġlie4Ġ":9095,"cai2Ġzheng4":9096,"Ġheng1Ġli4Ġ":9097,"Ġ1955Ġnian2Ġ":9098,"92":9099,"be":9100,"zhen1Ġzheng4Ġ":9101,"Ġyi1Ġtong2":9102,"yan2Ġchang2Ġ":9103,"Ġxue2Ġxi2":9104,"pu3Ġtong1":9105,"jin4Ġxing2ĠdeĠ":9106,"Ġda4Ġsai4Ġ":9107,"ke1Ġxue2":9108,"cun1Ġmin2Ġ":9109,"Ġzong3Ġtong3Ġ":9110,"tiao4":9111,"chu1Ġzhan4Ġ":9112,"fu4Ġbu4Ġzhang3Ġ":9113,"wang3Ġqiu2":9114,"luan3":9115,"Ġer3Ġyu3Ġ":9116,"la1Ġte4Ġ":9117,"ba1Ġle4":9118,"wang2Ġzi3Ġ":9119,"500Ġ":9120,"tyĠ":9121,"wang1Ġ":9122,"Ġbiao3Ġ":9123,"Ġan1Ġde2Ġ":9124,"eri":9125,"sheng3Ġzheng4Ġfu3Ġ":9126,"dou1Ġbu4Ġ":9127,"kuo4Ġjian4Ġ":9128,"cheng2Ġji4Ġ":9129,"Ġguo2Ġwang2":9130,"Ġjia1Ġsi1Ġ":9131,"Ġbing4Ġyou3Ġ":9132,"fa1Ġbu4ĠdeĠ":9133,"san1Ġzhong3Ġ":9134,"bao4Ġzha4":9135,"Ġshi3Ġyong4":9136,"che4Ġtui4Ġ":9137,"man3Ġzu2":9138,"Ġceng2Ġjing1Ġ":9139,"bo1Ġchu1ĠdeĠ":9140,"1997Ġnian2Ġ":9141,"duan1ĠdeĠ":9142,"Ġshi4Ġyan4Ġ":9143,"yi1Ġli4Ġ":9144,"Ġji2Ġsi1Ġ":9145,"Ġli4Ġshu3":9146,"gui1Ġze2":9147,"hu4Ġdong4Ġ":9148,"Ġlu4Ġyi4Ġ":9149,"fei1Ġlv4Ġbin1Ġ":9150,"Ġfeng1":9151,"ĠĠĠgen1Ġju4":9152,"ben3Ġbu4Ġ":9153,"xiao4Ġshe4Ġ":9154,"Ġri4Ġyu3Ġ":9155,"Ġri4Ġhou4Ġ":9156,"tian1Ġqi4Ġ":9157,"hu2Ġpo1Ġ":9158,"a1Ġfu4Ġ":9159,"hou4Ġta1Ġ":9160,"ren4Ġyi4Ġ":9161,"ba1Ġshi2Ġ":9162,"yun4Ġxing2":9163,"wor":9164,"Ġqi2Ġta1ĠdeĠ":9165,"chang2Ġwei3Ġhui4Ġ":9166,"gao4Ġsu4":9167,"Ġguo2Ġji4Ġji1Ġchang3Ġ":9168,"you1Ġxiu4Ġ":9169,"ĠĠĠxiang1Ġ":9170,"ĠĠĠri4Ġben3Ġ":9171,"ĠĠĠjian4Ġzhu4Ġ":9172,"ma3Ġli4Ġya4Ġ":9173,"gai3Ġcheng1Ġ":9174,"Ġwen2":9175,"ĠĠĠ2008Ġnian2Ġ":9176,"ding4Ġli3Ġ":9177,"xie3ĠleĠ":9178,"etĠ":9179,"ban4Ġdao3":9180,"ĠĠĠgen1Ġju4Ġ2010Ġnian2Ġmei3Ġguo2Ġren2Ġkou3Ġpu3Ġcha2ĠdeĠshu4Ġju4Ġ":9181,"nan4Ġmin2Ġ":9182,"Ġxiong1":9183,"ĠĠĠci3":9184,"di1ĠdeĠ":9185,"Ġyue4Ġtuan2":9186,"Ġji2Ġjiang1Ġ":9187,"qu1Ġzhu2":9188,"mi4Ġqie4":9189,"zhuan3Ġyi2Ġ":9190,"ĠĠĠAr":9191,"ren2Ġkou3Ġpu3Ġcha2Ġ":9192,"nuo2Ġwei1Ġ":9193,"1ĠĠĠ":9194,"usĠ":9195,"liu2Ġxue2Ġ":9196,"bao3Ġwei4Ġ":9197,"Ġshi4Ġbei4Ġ":9198,"Ġxian4Ġyu3Ġ":9199,"Ġchu1Ġxian4ĠdeĠ":9200,"Ġzhou1Ġhe2Ġ":9201,"jie2Ġdu4Ġshi3Ġ":9202,"bao3Ġzhang4Ġ":9203,"jing4Ġtou2Ġ":9204,"xing1Ġxi4Ġ":9205,"ban4Ġyan3":9206,"nuo4Ġman4Ġ":9207,"chui2Ġzhi2Ġ":9208,"wan2Ġzheng3ĠdeĠ":9209,"Ġnong2Ġ":9210,"ĠĠĠgao1Ġ":9211,"gai3Ġming2Ġ":9212,"wai4Ġguan1Ġ":9213,"xue2Ġshi4Ġxue2Ġwei4Ġ":9214,"Ġshao4Ġ":9215,"xiao4Ġyou3Ġ":9216,"shuo1ĠdeĠ":9217,"Ġshi4Ġzhi3":9218,"Ġna4Ġme":9219,"han3Ġmo4Ġde2Ġ":9220,"ire":9221,"rou":9222,"Ġzu3":9223,"Ġpeng2Ġ":9224,"su4Ġshe4Ġ":9225,"jia3Ġshe4Ġ":9226,"zang4Ġyu2Ġ":9227,"Ġxian4Ġzai4ĠdeĠ":9228,"Ġke4Ġsa4Ġsi1Ġ":9229,"Ġxue2Ġhui4Ġ":9230,"ban4Ġfa3Ġ":9231,"Ġguo2Ġmin2Ġdang3":9232,"Ġyi1Ġwei4Ġ":9233,"Ġgong1Ġbu4Ġ":9234,"jiang3Ġzhong1Ġ":9235,"Ġshi4Ġzheng4Ġfu3Ġ":9236,"ren2Ġmin2":9237,"tiao2Ġwen2Ġ":9238,"Ġtong2Ġshi2Ġye3Ġshi4Ġ":9239,"pan4Ġchu3Ġ":9240,"Ġhe2Ġnan2Ġsheng3Ġ":9241,"EN":9242,"Ġda2":9243,"Ġchang3Ġ":9244,"Ġ2023Ġnian2Ġ":9245,"ĠĠĠ189":9246,"qian2Ġxian4Ġ":9247,"si4Ġyue4Ġ":9248,"na4Ġhe2Ġ":9249,"zhen1Ġyu3Ġ":9250,"fou3Ġren4Ġ":9251,"Ġta1Ġcheng2Ġwei2Ġ":9252,"ren4Ġming4Ġ":9253,"fa3Ġguo2ĠdeĠ":9254,"Ġbing4Ġjiang1":9255,"deng1Ġlu4":9256,"a1Ġer3Ġba1Ġ":9257,"Ġguan1Ġzhi4Ġ":9258,"Ġ80":9259,"Ġzhui1Ġ":9260,"Ġdou1Ġshi4Ġ":9261,"Ġwo4Ġ":9262,"ĠĠĠfa3Ġguo2Ġ":9263,"zong3Ġzhan4Ġ":9264,"Ġzhi1Ġbu4Ġ":9265,"Ġda4Ġcheng2Ġ":9266,"ke4Ġyun4Ġ":9267,"li3Ġshi4Ġhui4Ġ":9268,"Ġta3":9269,"ĠĠĠfor":9270,"chuan2Ġqi2Ġ":9271,"za2ĠdeĠ":9272,"Ġhe2Ġdong1Ġ":9273,"Ġyi3Ġ2Ġ":9274,"Ġsi1Ġfa3Ġ":9275,"xiao3Ġzu3":9276,"Ġfen1Ġbu4Ġzai4Ġ":9277,"mao4Ġxian3Ġ":9278,"qu3Ġde2ĠleĠ":9279,"Ġren2Ġkou3ĠdeĠ":9280,"ren2Ġda4Ġdai4Ġbiao3Ġ":9281,"Ġgai4Ġ":9282,"ĠĠĠchen2Ġ":9283,"Ġta1Ġshuo1Ġ":9284,"Ġbei4Ġjing3Ġ":9285,"shui3Ġshen1Ġ":9286,"ming4Ġming2ĠdeĠ":9287,"2Ġli4Ġ":9288,"wei2Ġren2Ġ":9289,"san1Ġbu4Ġ":9290,"liu4Ġge4Ġ":9291,"ren4Ġzhi2Ġ":9292,"sai4Ġche1Ġ":9293,"55Ġ":9294,"6Ġmi3Ġ":9295,"Ġyan4Ġ":9296,"ying3Ġdai4Ġ":9297,"qu4ĠdeĠ":9298,"dang4Ġzuo4Ġ":9299,"Ġshi4Ġdui4Ġ":9300,"fang1Ġcheng2Ġshi4Ġ":9301,"ĠMĠ":9302,"Ġjiang1Ġxi1Ġ":9303,"Ġshi4Ġshi4Ġjie4":9304,"dian4Ġying3ĠdeĠ":9305,"luo2Ġma3Ġdi4Ġguo2Ġ":9306,"Ġxian4ĠdeĠyi2Ġge4Ġxing2Ġzheng4Ġzhen4Ġqu1Ġ":9307,"OM":9308,"zi3Ġdan4Ġ":9309,"Ġbu4Ġjin3":9310,"Ġren4Ġzhi2Ġ":9311,"mi4Ġdu4Ġ":9312,"fan3Ġdui4":9313,"yin1Ġsu4Ġ":9314,"HD":9315,"heng1":9316,"Ġpi2":9317,"zhan4Ġyou3Ġ":9318,"xin1Ġxing2Ġ":9319,"che1Ġren2Ġ":9320,"li2Ġshi4Ġ":9321,"35Ġnian2Ġ":9322,"Ġda4Ġfu1Ġ":9323,"Ġzhi1Ġhou4Ġzai4Ġ":9324,"yi2Ġdu4":9325,"liu2Ġliang4Ġ":9326,"dan1Ġmai4":9327,"zheng1Ġqu3Ġ":9328,"fan4Ġzui4":9329,"yin4Ġshua1Ġ":9330,"Ġceng2Ġzai4Ġ":9331,"jue2Ġsai4Ġzhong1Ġ":9332,"ah":9333,"Ġwan2Ġcheng2Ġ":9334,"ĠĠĠyan2Ġge2Ġ":9335,"ĠĠĠyi3Ġxia4Ġ":9336,"luo4Ġzai4Ġ":9337,"te4Ġlang3Ġ":9338,"jiao1Ġjie4Ġ":9339,"wei3Ġyuan2Ġhui4Ġzhu3Ġxi2Ġ":9340,"63":9341,"ti3Ġji1Ġ":9342,"yun4ĠdeĠ":9343,"mian3Ġyi4Ġ":9344,"yan3Ġzou4":9345,"Ġri4Ġben3ĠdeĠ":9346,"shan1Ġxi1Ġsheng3Ġ":9347,"Ġliu2Ġyu4Ġmian4Ġji1Ġ":9348,"kui4":9349,"mai2Ġ":9350,"Ġchuang4":9351,"xing1Ġjian4":9352,"chuan2Ġdi4Ġ":9353,"hu4Ġshi4Ġ":9354,"cha2Ġer3Ġsi1Ġ":9355,"ine":9356,"Ġhe2Ġji1Ġ":9357,"Ġxian4Ġzhong1Ġ":9358,"Ġxing2Ġhe2Ġ":9359,"Ġjun1Ġtuan2Ġ":9360,"zong3Ġmian4Ġji1Ġ":9361,"shang1Ġchang3Ġ":9362,"hui2Ġgui1":9363,"dai4Ġbiao3Ġtuan2Ġ":9364,"Ġgen1Ġju4Ġ2020Ġnian2Ġmei3Ġguo2Ġren2Ġkou3Ġpu3Ġcha2ĠdeĠshu4Ġju4Ġ":9365,"wit":9366,"an4Ġli4Ġ":9367,"chao2Ġshi2Ġ":9368,"ju2Ġshi4Ġ":9369,"bu4Ġtong2Ġ":9370,"Ġzheng4Ġquan2Ġ":9371,"yan3Ġjiang3Ġ":9372,"Ġdong1Ġbei3":9373,"ĠPĠ":9374,"Ġnan4Ġ":9375,"51":9376,"OR":9377,"kou4":9378,"Ġci2":9379,"Ġgui4Ġ":9380,"Ġqing3Ġ":9381,"leĠdi4Ġ":9382,"fu2Ġshi4Ġ":9383,"gao1Ġdi4Ġ":9384,"chang2Ġbei4Ġ":9385,"00Ġmi3Ġ":9386,"cun1ĠdeĠ":9387,"qian3Ġze2Ġ":9388,"Ġzai4Ġbei4Ġ":9389,"min2Ġzhong4":9390,"dian4Ġzi3":9391,"shou4Ġhuan1Ġ":9392,"gai3Ġzao4":9393,"bian1Ġjie4":9394,"guang3Ġfan4ĠdeĠ":9395,"Ġdeng1":9396,"Ġzhao1Ġ":9397,"ĠĠĠre":9398,"you3Ġhe2Ġ":9399,"jin4Ġnian2Ġ":9400,"ge2Ġli3Ġ":9401,"Ġzhu3Ġchi2":9402,"hang2Ġkong1Ġmu3":9403,"ji4Ġyu2Ġ":9404,"isĠ":9405,"yi4Ġbai3Ġ":9406,"shou3Ġshu4Ġ":9407,"fen1Ġlie4Ġ":9408,"xiang2Ġxi4Ġ":9409,"ĠĠĠtai2Ġwan1Ġ":9410,"shui3ĠdeĠ":9411,"jing3Ġyuan2Ġ":9412,"1994Ġnian2Ġ":9413,"Ġzhong1Ġqi1Ġ":9414,"Ġcheng2Ġli4ĠdeĠ":9415,"sheng1Ġyin1Ġ":9416,"zheng4Ġchang2Ġ":9417,"yan2Ġlun4Ġ":9418,"bao3Ġjia1":9419,"CDĠ":9420,"Ġlan2":9421,"ĠĠĠtong2":9422,"die1Ġ":9423,"zhang3Ġhe2Ġ":9424,"jiu4Ġbei4Ġ":9425,"dang4ĠdeĠ":9426,"Ġzai4Ġqi2":9427,"Ġyi1Ġzhong3":9428,"xue2Ġxi4Ġ":9429,"Ġming2Ġxian3Ġ":9430,"Ġdan4ĠdeĠ":9431,"jin1Ġrong2":9432,"gui1Ġlei4":9433,"ach":9434,"kai1Ġshe4":9435,"gen1Ġben3Ġ":9436,"Ġwei4Ġwei4Ġ":9437,"Ġzhi1Ġshang4Ġ":9438,"zhu3Ġban4Ġ":9439,"qian2Ġjin4Ġ":9440,"yi2Ġci4Ġshi4Ġjie4Ġda4Ġzhan4Ġ":9441,"tu2Ġsha1Ġ":9442,"qiao2Ġliang2Ġ":9443,"de2Ġguo2ĠdeĠ":9444,"110":9445,"Ġji1Ġyu2Ġ":9446,"ĠĠĠxiang1Ġgang3":9447,"jiao1ĠdeĠ":9448,"bian4Ġshi4Ġ":9449,"1980Ġnian2Ġ":9450,"las":9451,"Ġxi1Ġfang1Ġ":9452,"Ġdui4Ġwu3Ġ":9453,"jin1Ġshan1Ġ":9454,"fu2Ġlei2":9455,"44Ġ":9456,"er2Ġtong2":9457,"Ġshi2Ġke4Ġ":9458,"li3Ġlan2Ġ":9459,"Ġge4Ġbu4Ġ":9460,"Ġzhou1Ġli4Ġ":9461,"jing1Ġying2":9462,"Ġdui4Ġwai4Ġ":9463,"shou1Ġcang2":9464,"zhu3Ġyao4Ġshi4Ġ":9465,"Ġli4Ġshi3Ġxue2Ġjia1Ġ":9466,"Ġzhu3Ġyao4Ġshi4Ġ":9467,"Ġyi4Ġshu4Ġjia1Ġ":9468,"WindowsĠĠĠ":9469,"layStation":9470,"Ġke3Ġneng2":9471,"jie4Ġyou2Ġ":9472,"sha1ĠdeĠ":9473,"Ġshi2Ġyou2Ġ":9474,"Ġyou3Ġliang3Ġ":9475,"luo2Ġla1Ġ":9476,"shuo4Ġ":9477,"Ġguang1Ġxu4Ġ":9478,"ĠĠĠg":9479,"ĠĠĠliu2Ġ":9480,"tiao3Ġ":9481,"nan2Ġren2Ġ":9482,"Ġshi4Ġxi1Ġban1Ġya2Ġ":9483,"Ġbu4Ġshi2Ġ":9484,"tong1Ġwang3Ġ":9485,"nv3Ġzhu3Ġjue2Ġ":9486,"mo2Ġte4":9487,"sa4Ġla1Ġ":9488,"Ġ1952Ġnian2Ġ":9489,"a1Ġer3Ġbei1Ġsi1Ġ":9490,"24Ġxiao3Ġshi2Ġ":9491,"fo2Ġjiao4":9492,"fu2Ġyin1Ġ":9493,"bian4ĠdeĠ":9494,"1991Ġnian2Ġ":9495,"Ġda4Ġqiao2":9496,"Ġji1Ġxie4":9497,"Ġjin4Ġer2Ġ":9498,"xuan3Ġqu1":9499,"Ġmian4Ġji1Ġ0":9500,"fa1Ġbu4ĠleĠ":9501,"chao1Ġguo4":9502,"Ġda4Ġbu4Ġfen4":9503,"di1Ġqi4Ġya1Ġ":9504,"72":9505,"TVĠ":9506,"Ġxiong1Ġ":9507,"gu3Ġji4Ġ":9508,"nv3Ġren2Ġ":9509,"Ġshi2Ġli4Ġ":9510,"fen1Ġpei4":9511,"Ġshe4Ġying3Ġ":9512,"zu2Ġqun2Ġ":9513,"yi3Ġse4Ġ":9514,"zhong4Ġdian3Ġwen2Ġwu4Ġbao3Ġhu4Ġdan1Ġwei4Ġ":9515,"jia1Ġli4Ġfu2Ġni2Ġya4Ġzhou1Ġ":9516,"61":9517,"8Ġge4Ġ":9518,"AL":9519,"ping1":9520,"hao4ĠdeĠ":9521,"bian1Ġzhi4Ġ":9522,"quan4":9523,"yi1Ġyuan4Ġ":9524,"zhi4Ġzuo4":9525,"Ġxi1Ġzang4Ġ":9526,"zhong3Ġlei4Ġ":9527,"qing2Ġbao4":9528,"qiang2Ġdiao4":9529,"tan3Ġding1Ġ":9530,"gu3Ġlao3ĠdeĠ":9531,"lai2Ġke4Ġ":9532,"ya4Ġsi1Ġ":9533,"jie1ĠdeĠ":9534,"zhuan3Ġcheng2Ġ":9535,"Ġgong1Ġgao4Ġ":9536,"Ġyuan2ĠziĠ":9537,"xin1Ġjiang1Ġ":9538,"tou2Ġshou3Ġ":9539,"jia4Ġgou4Ġ":9540,"zhuan1Ġmen2":9541,"pei2Ġxun4Ġ":9542,"nu2Ġli4Ġ":9543,"84":9544,"Ġyi4Ġda4Ġ":9545,"Ġzi4Ġmu3Ġ":9546,"Ġjin1Ġshu3Ġ":9547,"ĠĠĠMe":9548,"Ġlian2Ġjie1Ġ":9549,"tan2Ġpan4":9550,"tu2Ġshu1Ġguan3":9551,"cong1":9552,"Ġxuan2Ġ":9553,"ju2Ġbu4Ġ":9554,"Ġyi1Ġlang3":9555,"Ġzhi1Ġhou4ĠdeĠ":9556,"zi1Ġxun2Ġ":9557,"gui1Ġding4":9558,"Ġshi4Ġyi1Ġke1":9559,"ti3Ġyu4Ġguan3Ġ":9560,"di2Ġshi4Ġni2Ġ":9561,"fa4":9562,"tsĠĠĠ":9563,"Ġzu2":9564,"Ġlv3":9565,"Ġluo2Ġsi1Ġ":9566,"da4Ġhe2Ġ":9567,"guang3Ġzhou1Ġshi4Ġ":9568,"hui2Ġjia1Ġ":9569,"Ġji2Ġxian4Ġ":9570,"ru2Ġguo3":9571,"shou1Ġru4":9572,"cheng2Ġli4Ġhou4Ġ":9573,"gong4Ġhe2Ġdang3Ġ":9574,"cui1Ġhui3Ġ":9575,"gong4Ġji4Ġ":9576,"Ġshi4Ġxing1Ġdeng3Ġwei4Ġ":9577,"Ġhe2Ġji4Ġ":9578,"Ġzhong1Ġxin1ĠdeĠ":9579,"Ġguo2Ġjun1Ġ":9580,"zhuan1Ġli4Ġ":9581,"yu3Ġmao2":9582,"Ġyi3Ġbei3Ġ":9583,"yi2Ġding4ĠdeĠ":9584,"pu3Ġluo2Ġ":9585,"shen2Ġhua4Ġ":9586,"yan2Ġjiu1Ġzhong1Ġxin1Ġ":9587,"dian4Ġying3Ġjie2Ġ":9588,"ĠÐ°":9589,"Ġke3Ġshi4Ġ":9590,"gou4Ġmai3Ġ":9591,"wu3Ġde2Ġ":9592,"gu3ĠdeĠ":9593,"zhi4Ġdu4Ġ":9594,"wei3Ġtuo1Ġ":9595,"Ġ180":9596,"ge4Ġzhong3":9597,"Ġjing3Ġfang1Ġ":9598,"Ġbi3Ġsai4Ġ":9599,"a1Ġsi1Ġ":9600,"ke3Ġjian4Ġ":9601,"lun2Ġsi1Ġ":9602,"Ġta1Ġye3":9603,"fang1Ġxiang4ĠdeĠ":9604,"ĠÃ©Ġ":9605,"EC":9606,"land":9607,"wa2":9608,"±Ġ":9609,"Ġzeng1Ġ":9610,"a1Ġke4Ġ":9611,"duo1Ġli4Ġya4Ġ":9612,"wei1Ġxie2":9613,"ting2Ġkao4":9614,"su1Ġdan1Ġ":9615,"Ġnian2Ġ12Ġyue4Ġ31Ġri4Ġ":9616,"fa3Ġlan2Ġxi1":9617,"gen3":9618,"Ġmi3":9619,"Ġ21":9620,"Ġbu4Ġzai4Ġ":9621,"da4Ġyu2Ġ":9622,"jian1Ġwei4Ġ":9623,"Ġzai4Ġxiang1Ġgang3Ġ":9624,"wu4Ġpin3Ġ":9625,"ge1Ġge1Ġ":9626,"zhuan3Ġhuan4":9627,"hong1Ġzha4Ġ":9628,"Ġnian2Ġqing1ĠdeĠ":9629,"pao1Ġ":9630,"ĠĠĠ2005":9631,"deng3Ġyu2Ġ":9632,"qu3Ġzi4Ġ":9633,"Ġshi2Ġpin3Ġ":9634,"Ġri4Ġhe2Ġ":9635,"sai4Ġguan4Ġjun1Ġ":9636,"shi3Ġyong4Ġzhe3Ġ":9637,"mo2Ġfa3Ġ":9638,"fei2Ġte4Ġ":9639,"og":9640,"Ġruan3":9641,"gong1Ġhe2Ġ":9642,"zhi1Ġjia1Ġ":9643,"tui3":9644,"gao4Ġshi4Ġ":9645,"Ġshi4Ġying1Ġguo2Ġ":9646,"Ġxian4Ġming2Ġ":9647,"nei4Ġrui4Ġ":9648,"zhuan3Ġhuan4Ġ":9649,"Ġ19Ġ":9650,"zhuan4Ġxie3Ġ":9651,"Ġshi4Ġshi2Ġshang4Ġ":9652,"ru4Ġqiu2Ġ":9653,"jiu4Ġzai4Ġ":9654,"kuai4ĠdeĠ":9655,"Ġxing2Ġrong2":9656,"Ġjun1Ġyou3Ġ":9657,"fu4Ġshi3Ġ":9658,"Ġzhou1Ġqi1Ġ":9659,"Ġyou2Ġxi4ĠdeĠ":9660,"qing1Ġchu3Ġ":9661,"zhun3Ġbei4":9662,"shun4Ġxu4Ġ":9663,"62":9664,"duo4":9665,"ĠĠĠ14":9666,"wu4Ġyu3Ġ":9667,"geng4Ġshi4Ġ":9668,"tan2Ġhe2Ġ":9669,"Ġji2Ġbing4":9670,"qu1Ġnei4Ġ":9671,"Ġtong2Ġzhi4Ġ":9672,"chan3Ġwu4Ġ":9673,"Ġyin1Ġci3Ġzai4Ġ":9674,"ĠĠĠen":9675,"ĠĠĠdao4Ġ":9676,"ke4Ġsi1Ġ":9677,"ba1Ġbu4Ġ":9678,"wang3Ġyou3Ġ":9679,"ji4Ġzai3Ġ":9680,"Ġxing2Ġren2Ġ":9681,"Ġbing4Ġshi4Ġ":9682,"Ġbei4Ġren4Ġming4Ġwei4Ġ":9683,"shen3Ġpan4Ġ":9684,"Ġ1970Ġnian2Ġ":9685,"Ġbi4Ġxu1Ġ":9686,"ri4Ġben3ĠdeĠ":9687,"Ġlu2Ġwa3Ġer3Ġsheng3Ġ":9688,"mei3Ġguo2Ġren2Ġkou3Ġpu3Ġcha2Ġ":9689,"sai1Ġer3Ġwei2Ġya4Ġ":9690,"89Ġnian2Ġ":9691,"ĠĠĠ2022Ġnian2Ġ":9692,"Ġta1Ġren2Ġ":9693,"zuo4Ġzhe3Ġ":9694,"Ġxing2Ġrong2Ġ":9695,"lian2Ġluo4Ġ":9696,"jiao1Ġgei3Ġ":9697,"shui3Ġliang4Ġ":9698,"Ġtian1Ġjin1Ġ":9699,"qiu2Ġchang3Ġ":9700,"ke3Ġneng2Ġxing4Ġ":9701,"Ġ157":9702,"Ġ2004":9703,"00Ġren2Ġ":9704,"po3Ġ":9705,"Ġwei4Ġli4Ġ":9706,"Ġshi2Ġda4Ġ":9707,"zhan4Ġlve4Ġ":9708,"zhi2Ġsheng1Ġji1Ġ":9709,"fa3Ġlan2Ġke4Ġ":9710,"Ġqi2Ġhou4Ġyu2Ġ":9711,"zhen4Ġrong2Ġ":9712,"gu3Ġdian3Ġ":9713,"Ġxia4ĠleĠ":9714,"jian3Ġdan1ĠdeĠ":9715,"qu3Ġmu4Ġ":9716,"pian4Ġduan4Ġ":9717,"Ġshi4Ġjie4Ġshang4Ġ":9718,"si4Ġchuan1Ġsheng3Ġ":9719,"ka1Ġfei1Ġ":9720,"Ġchong2Ġxin1Ġ":9721,"ĠĠĠh":9722,"pu3Ġji2Ġ":9723,"chuan1Ġxian4Ġ":9724,"Ġyu2Ġshi2ĠdeĠren2Ġkou3Ġshu4Ġliang4Ġwei4Ġren2Ġ":9725,"bei3Ġbu4ĠdeĠ":9726,"tong1Ġxun4":9727,"mei2Ġyou3Ġren4Ġhe2Ġ":9728,"Ġmei3Ġzhou1Ġ":9729,"Ġ1941Ġnian2Ġ":9730,"yan2Ġshen1Ġzhi4Ġ":9731,"US":9732,"Ġqin2":9733,"ĠĠĠhong2Ġ":9734,"Ġshi4Ġji4Ġzhong1Ġ":9735,"Ġshang4ĠleĠ":9736,"zhi3Ġkong4":9737,"wu3Ġhan4Ġ":9738,"chong1Ġman3Ġ":9739,"ĠRĠ":9740,"Ġwei4Ġyu2Ġgai1Ġguo2Ġxi1Ġbu4Ġ":9741,"bao1Ġhan2ĠleĠ":9742,"73":9743,"hao4Ġwei4Ġ":9744,"chi4Ġjing1Ġ":9745,"bei4Ġjing3":9746,"xuan3Ġxiu4":9747,"tai4Ġshou3Ġ":9748,"ying1Ġxiong2":9749,"er4Ġshi2Ġnian2Ġ":9750,"Ġwei4Ġyu2Ġyin2":9751,"cai2Ġpan4Ġ":9752,"Ġyuan2Ġzhu4Ġmin2Ġ":9753,"NH":9754,"can1Ġyi4Ġyuan2Ġ":9755,"bu3Ġzhu4Ġ":9756,"Ġli4Ġtao2Ġ":9757,"Ġjian4Ġzai4Ġ":9758,"zhu3Ġdong4Ġ":9759,"xi4Ġjie2Ġ":9760,"jie1Ġxia4Ġ":9761,"shou4Ġhuan1Ġying2Ġ":9762,"zheng1Ġfu2Ġ":9763,"xie2Ġtiao2Ġ":9764,"ruan3Ġtiao2Ġ":9765,"ge1Ġlun2Ġbi3Ġya4Ġ":9766,"Ġshuang1":9767,"Ġka3Ġer3Ġ":9768,"yuan2Ġbu4Ġ":9769,"hou4Ġyi3Ġ":9770,"hua4Ġshi4Ġ":9771,"hu4ĠdeĠ":9772,"ha1Ġli3Ġ":9773,"you2Ġyong3Ġ":9774,"zhi3Ġshu4Ġ":9775,"ĠĠĠMu":9776,"che4Ġxiao1":9777,"Ġluo4":9778,"cheng1Ġshi4Ġ":9779,"ceng2Ġbei4Ġ":9780,"1995Ġnian2Ġ":9781,"zhen1Ġren2Ġ":9782,"1984Ġnian2Ġ":9783,"Ġshi2Ġer4Ġnian2Ġ":9784,"Ġyi3Ġbian4Ġ":9785,"Ġde2Ġwei2Ġ":9786,"an4Ġzhao4":9787,"bing4Ġru4Ġ":9788,"ĠĠĠyou2Ġxi4Ġ":9789,"raĠ":9790,"kai1Ġtong1":9791,"Ġ1954Ġnian2Ġ":9792,"MA":9793,"eb":9794,"ku1":9795,"an1ĠdeĠ":9796,"lin2Ġjin4Ġ":9797,"qu3ĠdeĠ":9798,"jia3Ġji2Ġ":9799,"pin2Ġdao4":9800,"Ġren4Ġming4Ġ":9801,"shou1Ġfei4Ġ":9802,"Ġyou3Ġxian4Ġgong1Ġsi1":9803,"qi2Ġzhong1Ġyi1Ġ":9804,"wang4Ġyuan3Ġjing4Ġ":9805,"a1Ġbu4Ġ":9806,"ge1Ġshou3":9807,"ling3Ġtu3":9808,"dian4Ġshi4Ġdong4Ġhua4Ġ":9809,"Ġchu2Ġci3Ġzhi1Ġwai4Ġ":9810,"jie4Ġquan2Ġguo2Ġzheng4Ġxie2Ġ":9811,"bao4Ġfa1Ġhou4Ġ":9812,"avi":9813,"Ġ2003":9814,"ĠĠĠka3Ġ":9815,"zhong1ĠdeĠyi1Ġ":9816,"shu4Ġjia1Ġ":9817,"shi1Ġji2Ġ":9818,"che1Ġxing2Ġ":9819,"ze2Ġbei4Ġ":9820,"fei1Ġdan4Ġ":9821,"Ġda4Ġxiao3Ġ":9822,"ge2Ġla1Ġsi1Ġ":9823,"hai3Ġnan2Ġ":9824,"Ġxue2Ġshu4Ġ":9825,"huang2Ġjin1Ġ":9826,"huo3Ġche1Ġzhan4Ġ":9827,"nong2Ġchang3Ġ":9828,"xuan1Ġyan2Ġ":9829,"Ġ1975Ġnian2Ġ":9830,"ĠHR":9831,"mao2Ġdun4Ġ":9832,"ĠĠĠjin3Ġguan3Ġ":9833,"DS":9834,"Ġ45":9835,"ming2Ġhe2Ġ":9836,"shi3Ġyu2Ġ":9837,"niao4Ġ":9838,"pian4Ġzhong1Ġ":9839,"si4Ġhu1":9840,"tu2Ġan4Ġ":9841,"Ġshou3Ġci4":9842,"Ġtian1Ġjin1":9843,"xuan1Ġcheng1Ġ":9844,"pin1Ġ":9845,"IDĠ":9846,"Ġfa1":9847,"qi1Ġzhi4Ġ":9848,"mon":9849,"bo1ĠdeĠ":9850,"shui3Ġdao4Ġ":9851,"ting2ĠdeĠ":9852,"reng2Ġwei4Ġ":9853,"hu1Ġxi1Ġ":9854,"sic":9855,"Ġyu2Ġ2021":9856,"hen3Ġda4ĠdeĠ":9857,"Ġsong1Ġ":9858,"ji4Ġzhi4Ġ":9859,"lu4Ġshi4Ġ":9860,"bai3Ġwan4Ġ":9861,"huo3Ġli4Ġ":9862,"kua4Ġyue4Ġ":9863,"Ġshi2Ġyi1Ġnian2Ġ":9864,"Ġda4Ġli3Ġ":9865,"zhu3Ġquan2Ġ":9866,"tuo1Ġli2Ġ":9867,"nuo4Ġfu1Ġ":9868,"Ġchi4Ġwei3Ġ":9869,"cri":9870,"chou3Ġ":9871,"ĠĠĠjian3Ġli4Ġ":9872,"ye3Ġsheng1Ġ":9873,"jie1Ġshi4Ġ":9874,"du2ĠdeĠ":9875,"sisĠ":9876,"yi4Ġming2Ġ":9877,"ji1Ġguan1Ġ":9878,"duo1Ġzhong3":9879,"sheng3Ġzhang3Ġ":9880,"mei3Ġtian1Ġ":9881,"Ġhai3Ġba2":9882,"Ġfei1Ġlv4Ġ":9883,"Ġxian4Ġshi2Ġyou2Ġ":9884,"43Ġ":9885,"Ġhua1":9886,"Ġting1Ġ":9887,"mentĠ":9888,"mo4Ġnian2Ġ":9889,"tu1Ġji1Ġ":9890,"wen1Ġdai4Ġ":9891,"Ġji2Ġwei2Ġ":9892,"Ġyi3Ġbu4Ġ":9893,"Ġda4Ġban3Ġ":9894,"Ġxing2Ġtai4Ġ":9895,"wu4Ġti3Ġ":9896,"Ġyou2Ġtai4Ġ":9897,"shen1Ġti3":9898,"mei3Ġxiao3Ġshi2Ġ":9899,"ĠdeĠdi4Ġsan1Ġ":9900,"chuang4Ġzao4":9901,"Ġë":9902,"ĠĠĠ9":9903,"sheng1Ġyuan2Ġ":9904,"fang1Ġzai4Ġ":9905,"fen4ĠdeĠ":9906,"hu4Ġwei4Ġ":9907,"sha1Ġren2Ġ":9908,"Ġshi4Ġe2Ġluo2Ġsi1Ġ":9909,"Ġde2Ġdao4":9910,"Ġchu1Ġchang3Ġ":9911,"ni2Ġsu1Ġ":9912,"tiao2Ġjie2Ġ":9913,"Ġjian4Ġzhu4Ġwu4Ġ":9914,"Ġ1939Ġnian2Ġ":9915,"Ġyu4Ġji4Ġ":9916,"pa2":9917,"xin1Ġjian4Ġ":9918,"wan4Ġyuan2Ġ":9919,"Ġzai4Ġfa3Ġguo2Ġ":9920,"Ġhe2Ġshang4Ġ":9921,"Ġde2Ġjun1Ġ":9922,"lian2Ġluo4":9923,"Ġzhe4Ġzuo4Ġ":9924,"xiu1Ġding4Ġ":9925,"Ġzhe4Ġshi2Ġ":9926,"Ġ1944Ġnian2Ġ":9927,"lou4":9928,"Ġcao2Ġ":9929,"ĠĠĠxiao3Ġ":9930,"ĠĠĠ2009Ġnian2Ġ":9931,"sheng4Ġdan4Ġ":9932,"chong2Ġjian4":9933,"jun4ĠdeĠ":9934,"Ġji2Ġgong1Ġ":9935,"Ġyu3Ġxi1Ġ":9936,"Ġhuo4Ġzhe3":9937,"long2Ġsheng3Ġ":9938,"jiang3Ġjin1Ġ":9939,"pai2Ġlie4Ġ":9940,"zhong1Ġguo2Ġda4Ġlu4Ġ":9941,"Ġ18Ġ":9942,"xu3Ġke3Ġ":9943,"spanĠ":9944,"Ġ90":9945,"ĠĠĠjing1Ġli4Ġ":9946,"niao4":9947,"zao4Ġxing2Ġ":9948,"liu4Ġming2Ġ":9949,"Ġdi4Ġyi1Ġwei4Ġ":9950,"ji1Ġche1Ġ":9951,"Ġyu3Ġzhou4":9952,"ju3Ġzhen4Ġ":9953,"ĠSAO":9954,"ĠTĠ":9955,"ĠEĠ":9956,"Ġya3":9957,"Ġfan2":9958,"ĠĠĠshang4Ġ":9959,"ĠĠĠer4Ġ":9960,"na4Ġer3Ġ":9961,"wo3ĠdeĠ":9962,"ba3Ġta1Ġ":9963,"Ġguo2Ġyou3Ġ":9964,"yan2Ġfa1Ġ":9965,"jiao4Ġgao1Ġ":9966,"Ġsheng1Ġtai4Ġ":9967,"xiao4Ġlv4Ġ":9968,"bu3Ġru3Ġ":9969,"Ġ1940Ġnian2Ġ":9970,"KB":9971,"ele":9972,"ĠĠĠlin2Ġ":9973,"hai3ĠdeĠ":9974,"Ġyu2Ġtong2":9975,"guan1Ġxi4ĠdeĠ":9976,"Ġqi2ĠB":9977,"Ġdui4Ġxiang4Ġ":9978,"zhou1Ġbian1":9979,"huo3Ġche1Ġ":9980,"Ġli4Ġfa3Ġhui4Ġ":9981,"52Ġ":9982,"8Ġmi3Ġ":9983,"Ġzi3Ġ":9984,"jiang1Ġjun1":9985,"suo3Ġyi3Ġ":9986,"qian2Ġting3":9987,"shou1Ġgou4":9988,"geng4Ġda4ĠdeĠ":9989,"43Ġnian2Ġ":9990,"Ġfeng2":9991,"Ġti2Ġchu1Ġ":9992,"ze2Ġyou2Ġ":9993,"xu4ĠdeĠ":9994,"1989Ġnian2Ġ":9995,"Ġji2Ġhui4Ġ":9996,"Ġji2Ġqi2Ġta1Ġ":9997,"ju4Ġli2":9998,"guan1Ġkan4Ġ":9999,"Ġjing1Ġchang2Ġ":10000,"ou1Ġmeng2Ġ":10001,"Ġ1960Ġnian2Ġ":10002,"biao3Ġxian4Ġchu1Ġ":10003,"Ġji2Ġxing2Ġzheng4Ġdan1Ġwei4Ġ":10004,"Ġzu2Ġ":10005,"Ġfan1Ġ":10006,"xing2ĠdeĠ":10007,"fang1Ġxing2Ġ":10008,"zhi2Ġxing2":10009,"zhuang1Ġwei4Ġ":10010,"Ġji2Ġti3Ġ":10011,"bei4Ġer3Ġ":10012,"jiang1Ġhu4":10013,"yi2Ġban4Ġ":10014,"bi4Ġyao4Ġ":10015,"xiao1Ġfang2Ġ":10016,"ren2Ġmin2Ġzheng4Ġfu3Ġ":10017,"Ġyin2Ġwei3Ġ":10018,"0Ġzuo4Ġbiao1Ġwei4Ġ":10019,"fen1Ġqi2Ġ":10020,"ya4Ġhe2Ġ":10021,"00Ġwan4Ġ":10022,"Ġcheng2Ġyi1Ġ":10023,"wei2Ġyi1ĠdeĠ":10024,"zhu3Ġdao3Ġ":10025,"Ġdan4Ġshi4Ġzai4Ġ":10026,"zhi2Ġbang4":10027,"Ġbing4Ġfei1":10028,"Ġdan4Ġzui4Ġzhong1Ġ":10029,"tu3Ġrang3":10030,"Ġguan1Ġzhuang4Ġbing4Ġdu2":10031,"Ġwei4Ġyu2Ġyin2Ġjing1Ġ":10032,"Ġqi2ĠB1900":10033,"0Ġzuo4Ġbiao1Ġwei4Ġchi4Ġjing1Ġ":10034,"tong4":10035,"Ġyun4Ġ":10036,"Ġke1Ġxue2Ġ":10037,"ĠĠĠ11Ġyue4Ġ":10038,"ĠĠĠ2007Ġnian2Ġ":10039,"lian2Ġjun1Ġ":10040,"la1Ġwei2Ġ":10041,"bo2Ġer3Ġ":10042,"sheng4ĠdeĠ":10043,"ï¼İ":10044,"elĠ":10045,"Ġer2Ġhou4Ġ":10046,"Ġzui4Ġzao3":10047,"Ġlian2Ġmeng2Ġ":10048,"Ġjian4Ġzhu4Ġmian4Ġji1Ġ":10049,"kong4Ġzhi4ĠdeĠ":10050,"cai3Ġyong4ĠleĠ":10051,"ut":10052,"ĠĠĠsan1Ġ":10053,"ĠĠĠfen1Ġbu4Ġ":10054,"jie2Ġshi2Ġ":10055,"ziĠshi4Ġ":10056,"jue2Ġwei4Ġ":10057,"jiao1Ġzhan4Ġ":10058,"37Ġnian2Ġ":10059,"Ġshi2Ġren4":10060,"Ġren2Ġzhi4Ġ":10061,"Ġren2Ġdui4Ġ":10062,"Ġsi1Ġzhi2Ġ":10063,"ci4Ġshu4Ġ":10064,"Ġxiang1Ġbi3Ġ":10065,"bian1Ġzu3Ġ":10066,"Ġti1":10067,"Ġãĥ³":10068,"Ġqing1Ġchao2Ġzheng4Ġzhi4Ġren2Ġwu4Ġ":10069,"Ġao4Ġda4Ġli4Ġya4Ġ":10070,"Vi":10071,"rin":10072,"Ġpu2Ġtao2Ġya2":10073,"ĠĠĠping2Ġ":10074,"xian1Ġwei2Ġ":10075,"lun2ĠdeĠ":10076,"si3ĠleĠ":10077,"Ġzai4Ġqian2Ġ":10078,"hou4Ġqi1Ġ":10079,"you2Ġxi4ĠdeĠ":10080,"jiao4Ġlian4":10081,"jue2Ġse4ĠdeĠ":10082,"Ġju4Ġqing2Ġ":10083,"pu3Ġla1Ġ":10084,"ti2Ġqian2Ġ":10085,"gong3":10086,"Ġliang2":10087,"ĠĠĠ5Ġ":10088,"xiang4Ġji1Ġ":10089,"ba1Ġsi1Ġ":10090,"185":10091,"man4ĠdeĠ":10092,"zhong1Ġhua2Ġmin2Ġguo2Ġ":10093,"zi4Ġwo3Ġ":10094,"feng1Ġge2ĠdeĠ":10095,"ĠAl":10096,"ĠĠĠche1Ġzhan4Ġgou4Ġzao4Ġ":10097,"luo4Ġfa2Ġke4Ġ":10098,"ĠĠĠchu2Ġ":10099,"lun4Ġshi4Ġ":10100,"shi2Ġdai4Ġ":10101,"Ġshi2Ġsan1Ġ":10102,"Ġda4Ġjie1Ġ":10103,"xia4Ġling4Ġ":10104,"kai1Ġzhan3":10105,"ding4Ġyi4Ġwei4Ġ":10106,"Ġxiang1Ġdang1Ġ":10107,"xun4Ġsu4":10108,"chong2Ġfan3Ġ":10109,"jie3Ġfang4Ġjun1":10110,"Ġhu2Ġbei3Ġ":10111,"mu4Ġsi1Ġlin2":10112,"bi2":10113,"hua4Ġyu3Ġ":10114,"zui4Ġyou3Ġ":10115,"xie3Ġwei4Ġ":10116,"kang4Ġzhan4Ġ":10117,"Ġzhong1Ġyi1Ġ":10118,"Ġxiang1Ġsi4Ġ":10119,"Ġ1966Ġnian2Ġ":10120,"ĠĠĠRo":10121,"lian2Ġmeng2ĠdeĠ":10122,"41Ġ":10123,"TA":10124,"Ġwu1Ġke4Ġlan2":10125,"nei4Ġsi1Ġ":10126,"ard":10127,"Ġji2Ġcheng2Ġ":10128,"zhu3Ġda3Ġ":10129,"fang1Ġbian4Ġ":10130,"jian1Ġchi2Ġ":10131,"Ġdai4Ġlai2Ġ":10132,"Ġqiu2Ġdui4":10133,"dan1Ġdu2Ġ":10134,"jin3Ġzhang1Ġ":10135,"can1Ġguan1Ġ":10136,"zhen1Ġzheng4ĠdeĠ":10137,"Ġ1942Ġnian2Ġ":10138,"Ġda4Ġbu4Ġfen4Ġ":10139,"46Ġnian2Ġ":10140,"7Ġge4Ġ":10141,"tao1":10142,"Ġzi1Ġ":10143,"Ġwen1Ġ":10144,"Ġzheng3Ġge4Ġ":10145,"suo3Ġshi4Ġ":10146,"suo3Ġxu1":10147,"zhong4Ġliang4Ġ":10148,"Ġye3Ġbu4Ġ":10149,"shun4Ġshi2Ġzhen1Ġyu3Ġ":10150,"ga2":10151,"ĠĠĠguo2Ġji4Ġ":10152,"qin3":10153,"Ġzhong1Ġduan4Ġ":10154,"Ġshi2Ġba1Ġ":10155,"Ġyi3Ġdong1Ġ":10156,"Ġchu1Ġxi2":10157,"zui4Ġzhong4Ġyao4ĠdeĠ":10158,"tie1Ġmu4":10159,"Ġ38":10160,"ĠĠĠgu3Ġ":10161,"dao3Ġhe2Ġ":10162,"niang4Ġ":10163,"1990Ġnian2Ġ":10164,"Ġzhong1Ġjiang4Ġ":10165,"Ġren2Ġquan2Ġ":10166,"Ġji2Ġbie2Ġ":10167,"Ġyi4Ġxi2Ġ":10168,"Ġyi1Ġshi2Ġ":10169,"Ġda4Ġdui4Ġ":10170,"fu4Ġmu3Ġ":10171,"zhi3Ġding4":10172,"qi3Ġyuan2Ġyu2Ġ":10173,"tong2Ġyang4Ġ":10174,"Ġ1935Ġnian2Ġ":10175,"OSĠ":10176,"Ro":10177,"nc":10178,"Ġ200":10179,"Ġji3":10180,"ĠĠĠer2Ġ":10181,"ĠĠĠta1ĠdeĠ":10182,"huang3Ġ":10183,"zhen4Ġji2Ġxing2Ġzheng4Ġdan1Ġwei4Ġ":10184,"hua2ĠdeĠ":10185,"Ġxian4Ġzhang3Ġ":10186,"Ġyin1Ġer2":10187,"Ġ1976Ġnian2Ġ":10188,"Ġguo2Ġfang2Ġbu4Ġ":10189,"rao3":10190,"Ġse4Ġ":10191,"Ġjiao3Ġ":10192,"Ġkuai4Ġ":10193,"wu4Ġbu4Ġ":10194,"lai2Ġshi4Ġ":10195,"shou4Ġdao4ĠleĠ":10196,"jiang3Ġli4Ġ":10197,"jia4ĠdeĠ":10198,"Ġshi4Ġtai2Ġwan1Ġ":10199,"sheng1Ġge2Ġwei4Ġ":10200,"kan4Ġfa3Ġ":10201,"kang4Ġri4Ġzhan4Ġzheng1Ġ":10202,"Ġxi2Ġ":10203,"ĠĠĠZ":10204,"Ġzhi4Ġyuan2Ġ":10205,"Ġshang4Ġying4Ġ":10206,"xiang3Ġyao4Ġ":10207,"rong2Ġliang4Ġ":10208,"gen1Ġsui2Ġ":10209,"tuo2Ġ":10210,"2Ġhao4Ġ":10211,"ji4Ġbu4Ġ":10212,"Ġdao4Ġda2":10213,"qu1Ġzhu2Ġjian4Ġ":10214,"dian4Ġchi2Ġ":10215,"Ġren2Ġkou3Ġwei4Ġ":10216,"ai4Ġer3Ġlan2":10217,"umĠ":10218,"ĠĠĠwang2Ġ":10219,"160":10220,"Ġshi4Ġlang2Ġ":10221,"yi4Ġhui4Ġ":10222,"zhu4Ġshou3Ġ":10223,"Ġzhou1Ġzhang3Ġ":10224,"jin1Ġshu3":10225,"pin3Ġzhong3Ġ":10226,"Ġan1Ġhui1Ġ":10227,"Ġ1968Ġnian2Ġ":10228,"Ġzheng4Ġfu3ĠdeĠ":10229,"hun4Ġning2Ġ":10230,"Ġwei1Ġer3Ġ":10231,"ep":10232,"Ġv":10233,"Ġ70":10234,"ĠĠĠ2006Ġnian2Ġ":10235,"you4Ġyi4Ġ":10236,"lun4ĠdeĠ":10237,"xun4Ġxi1Ġ":10238,"Ġjian4Ġkang1":10239,"fu2Ġzhuang1Ġ":10240,"Ġyou2Ġzheng4Ġ":10241,"zhen4Ġya1Ġ":10242,"cheng1Ġhu1Ġ":10243,"jian3Ġcha2":10244,"44Ġnian2Ġ":10245,"bao2Ġ":10246,"Ġtai4Ġguo2Ġ":10247,"ĠĠĠzuo4Ġwei2Ġ":10248,"quan2Ġyi4Ġ":10249,"1972Ġnian2Ġ":10250,"38Ġnian2Ġ":10251,"Ġyi3Ġci3Ġ":10252,"zi4Ġsha1Ġ":10253,"hua4Ġmian4Ġ":10254,"hua4Ġgui1Ġ":10255,"jiang3Ġpai2Ġ":10256,"qun2Ġdao3ĠdeĠ":10257,"e4Ġhua4Ġ":10258,"Ġguang3Ġxi1Ġ":10259,"ai4Ġhao4Ġ":10260,"ĠĠĠluo2Ġ":10261,"xing4Ġming2Ġ":10262,"ba1Ġji1Ġsi1Ġ":10263,"bian1Ġxing2Ġ":10264,"sion":10265,"dong3Ġ":10266,"Ġshi4Ġpin2Ġ":10267,"Ġyi1Ġliao2":10268,"jing1Ġyan4":10269,"Ġzuo4Ġzhe3Ġ":10270,"tian1Ġwen2Ġxue2Ġ":10271,"shou4Ġsun3Ġ":10272,"shou1Ġcang2Ġ":10273,"Ġ150":10274,"jing3Ġwei4Ġ":10275,"Ġren2Ġyu3Ġ":10276,"Ġdao4Ġshi2Ġ":10277,"Ġyu3Ġwen2Ġ":10278,"Ġzhou1Ġfu4Ġze2Ġguan3Ġxia2Ġ":10279,"mian4Ġxiang4Ġ":10280,"xuan3Ġmin2Ġ":10281,"qing2Ġgan3Ġ":10282,"Ġzhu3Ġren4Ġ":10283,"tiao2Ġyue1Ġti3Ġxi4Ġ":10284,"39Ġ":10285,"83Ġnian2Ġ":10286,"usĠĠĠ":10287,"nan2Ġshi4Ġ":10288,"xiang4Ġyu2Ġ":10289,"mo4ĠdeĠ":10290,"qu4ĠleĠ":10291,"Ġzai4Ġyou3Ġ":10292,"qu1Ġbie2Ġ":10293,"su4Ġsong4Ġ":10294,"4Ġmi3Ġ":10295,"fei1ĠdeĠ":10296,"que4Ġshi2Ġ":10297,"ell":10298,"Ġzhong1Ġshan1":10299,"Ġyu2Ġ2016":10300,"Ġyu2Ġlei2Ġ":10301,"jian1Ġcha2":10302,"wai4Ġlang2Ġ":10303,"Ġyou2Ġqi2Ġ":10304,"ĠdeĠshi2Ġjian1":10305,"ĠĠĠsui1Ġran2":10306,"te4Ġzai4Ġ":10307,"shen1Ġyu2Ġ":10308,"liang3Ġzuo4Ġ":10309,"tang2Ġhe2Ġ":10310,"suan1Ġjian3Ġ":10311,"Ġzai4Ġcheng2Ġ":10312,"Ġgong1Ġda3Ġ":10313,"you2Ġju2":10314,"qian2Ġshen1Ġ":10315,"ke1Ġhui4Ġshi4Ġdi4Ġ":10316,"jian3Ġce4Ġ":10317,"Ġyin3Ġfa1Ġ":10318,"Ġai4Ġer3Ġ":10319,"ES":10320,"xiang4Ġwei4Ġ":10321,"ke1Ġli4Ġ":10322,"xiang3Ġyou3Ġ":10323,"ji1Ġhui4Ġ":10324,"jiang1Ġnan2Ġ":10325,"kao3Ġcha2Ġ":10326,"ĠĠĠCon":10327,"pei2Ġxun4":10328,"nan2Ġji2Ġtiao2Ġyue1Ġti3Ġxi4Ġ":10329,"Ġping2Ġcheng2Ġ":10330,"Ġl":10331,"Ġkong1Ġ":10332,"mei2Ġtong2Ġpai2Ġ":10333,"luo4Ġyi1Ġ":10334,"ting1Ġdao4Ġ":10335,"yin2Ġhe2Ġ":10336,"tu1Ġran2":10337,"can2Ġji2Ġren2Ġ":10338,"Ġyu2Ġ2019":10339,"wei2Ġye3Ġ":10340,"Ġyuan2Ġyin1Ġshi4Ġ":10341,"qian2Ġlai2Ġ":10342,"ji3Ġnei4Ġ":10343,"Ġgai1Ġcun1Ġshi3Ġjian4Ġyu2Ġ":10344,"42Ġnian2Ġ":10345,"eli":10346,"Ġxiao3Ġshi2Ġ":10347,"yu2Ġwei4Ġ":10348,"Ġshi4Ġchu1Ġ":10349,"Ġzai4Ġnei4Ġ":10350,"Ġcheng2Ġgong1ĠdeĠ":10351,"dian4Ġliu2Ġ":10352,"duo1Ġshu4":10353,"quan2Ġti3Ġ":10354,"su4Ġdu4":10355,"mo4Ġqi1Ġ":10356,"Ġtong4Ġ":10357,"quan2Ġguo2Ġzhong4Ġdian3Ġwen2Ġwu4Ġbao3Ġhu4Ġdan1Ġwei4Ġ":10358,"re4Ġdai4":10359,"Ġxing2Ġcheng2ĠleĠ":10360,"qi2Ġzhong1Ġyi2Ġge4Ġ":10361,"xia4Ġxia2ĠdeĠyi2Ġge4Ġxiang1Ġzhen4Ġji2Ġxing2Ġzheng4Ġdan1Ġwei4Ġ":10362,"zheng4Ġyi4Ġ":10363,"mei3ĠdeĠ":10364,"zhen4Ġdi4Ġ":10365,"179":10366,"hun1Ġyin1":10367,"bo1Ġte4Ġ":10368,"sha1Ġbai2Ġ":10369,"33Ġnian2Ġ":10370,"4Ġming2Ġ":10371,"te4Ġshi4Ġ":10372,"ta3Ġji1Ġ":10373,"gong1Ġmin2Ġ":10374,"Ġjia1Ġli3Ġ":10375,"Ġke4Ġyu3Ġ":10376,"Ġde2Ġluo2Ġ":10377,"jiao4Ġzong1Ġ":10378,"fa3Ġlan2Ġxi1Ġ":10379,"qing1Ġxiang4Ġ":10380,"hui2Ġda2Ġ":10381,"dang1Ġxuan3Ġwei4Ġ":10382,"lei2Ġda2Ġ":10383,"pi1Ġpan4Ġ":10384,"Ġ1959Ġnian2Ġ":10385,"ĠĠĠLi":10386,"tian1Ġwen2Ġtai2Ġ":10387,"ba":10388,"wu4Ġzhong1Ġ":10389,"1993Ġnian2Ġ":10390,"nong2Ġli4Ġ":10391,"cu4Ġ":10392,"Ġzai4Ġna4Ġ":10393,"Ġri4Ġyi3Ġ":10394,"Ġyi1Ġran2Ġ":10395,"wei2Ġchi2Ġ":10396,"Ġjian4Ġdao4Ġ":10397,"Ġji1Ġfen1Ġ":10398,"jiao4Ġda4ĠdeĠ":10399,"Ġwei2Ġwu2Ġer3Ġ":10400,"shang1Ġhai4Ġ":10401,"tiao2Ġkuan3Ġ":10402,"kuang1Ġjia4Ġ":10403,"Ġguang1":10404,"48Ġnian2Ġ":10405,"cheng2Ġren4Ġ":10406,"Ġyue4Ġyu3Ġ":10407,"Ġguo2Ġan1Ġ":10408,"Ġcheng2Ġfen4Ġ":10409,"Ġge4Ġguo2Ġjia1Ġ":10410,"yan3Ġhua4Ġ":10411,"Ġ1953Ġnian2Ġ":10412,"Ġsi1Ġling4Ġyuan2Ġ":10413,"Ġqian1":10414,"Ġbin1Ġ":10415,"yu3Ġdi4Ġ":10416,"wei2Ġgong1Ġ":10417,"ci2Ġji1Ġ":10418,"fang2Ġxian4Ġ":10419,"Ġzai4Ġshang4Ġ":10420,"ji1Ġdu1Ġ":10421,"wei2Ġchi2":10422,"Ġge4Ġlei4Ġ":10423,"Ġbing4Ġbu2Ġshi4Ġ":10424,"fen1Ġli2":10425,"bao3Ġxian3Ġ":10426,"Ġzhe4Ġyang4":10427,"Ġxia4Ġlai2Ġ":10428,"wang3Ġwang3":10429,"xiao3Ġxing2Ġxing1ĠdeĠ":10430,"min2Ġzu2Ġzhu3Ġyi4Ġ":10431,"nan2Ġji2Ġtiao2Ġyue1Ġti3Ġxi4Ġguan3Ġli3Ġ":10432,"7Ġmi3Ġ":10433,"ren":10434,"Ġ2002":10435,"ĠĠĠ13":10436,"ĠĠĠzhi2Ġye4Ġsheng1Ġya2Ġ":10437,"leĠzhong1Ġguo2Ġ":10438,"sheng1Ġhe2Ġ":10439,"kuang2":10440,"shui3Ġshang4Ġ":10441,"sa4Ġke4Ġsi1Ġ":10442,"ĠdeĠgu3Ġ":10443,"shi2Ġyi1Ġ":10444,"hui4Ġshang4Ġ":10445,"dai4Ġma3Ġ":10446,"tong1Ġyong4Ġ":10447,"yi2Ġge4Ġyue4Ġ":10448,"dian4Ġshi4Ġjie2Ġmu4Ġ":10449,"Ġ17Ġ":10450,"re4Ġdai4Ġqi4Ġxuan2Ġ":10451,"shan1Ġmai4ĠdeĠyi1Ġbu4Ġfen4Ġ":10452,"hu4Ġlian2Ġwang3Ġ":10453,"ĠĠĠhuo4Ġ":10454,"hai3Ġshi4Ġ":10455,"sheng3Ġfu4Ġze2Ġguan3Ġxia2Ġ":10456,"yin3Ġjin4Ġ":10457,"250":10458,"zuan1Ġ":10459,"lei3Ġji1Ġ":10460,"Ġshi2Ġti3Ġ":10461,"Ġda4Ġqi4Ġ":10462,"Ġer2Ġtong2":10463,"fa3Ġxue2Ġ":10464,"Ġfu4Ġzhu3Ġxi2Ġ":10465,"ting2Ġzhi3":10466,"Ġci3Ġci4Ġ":10467,"Ġ16Ġ":10468,"mie4Ġjue2Ġ":10469,"Ġji2Ġbei3Ġmei3Ġ":10470,"gen3Ġdi4Ġ":10471,"ta4Ġ":10472,"yst":10473,"ĠĠĠri4Ġ":10474,"qia4":10475,"ri4Ġjun1Ġ":10476,"dui4Ġzhong1Ġ":10477,"dui1":10478,"si4Ġwei4Ġ":10479,"fei1Ġer3Ġde2Ġ":10480,"jian3Ġyi4Ġ":10481,"Ġdi4Ġ3Ġ":10482,"Ġcheng2Ġjiu4Ġ":10483,"Ġzhi1Ġli3Ġ":10484,"Ġda4Ġchen2":10485,"Ġhuo4Ġcheng1Ġ":10486,"zheng4Ġzhi4Ġjia1Ġ":10487,"Ġ1920Ġnian2Ġ":10488,"wei2Ġyi1Ġyi1Ġ":10489,"Ġguo1Ġ":10490,"ĠĠĠjie2Ġ":10491,"ĠĠĠwai4Ġbu4Ġ":10492,"ceng2Ġyou3Ġ":10493,"ceng2Ġren4Ġ":10494,"Ġwei4Ġji2Ġ":10495,"Ġchu1Ġyu2Ġ":10496,"wen2Ġzhang1":10497,"qian2Ġfeng1Ġ":10498,"tong2Ġmeng2":10499,"Ġye3Ġzai4Ġ":10500,"Ġ1972Ġnian2Ġ":10501,"ĠJĠ":10502,"Ġmu3Ġqin1":10503,"feng3Ġ":10504,"mai2":10505,"Ġyao4":10506,"yu3Ġyi4Ġ":10507,"gai3Ġjin4Ġ":10508,"sui2Ġji1Ġ":10509,"Ġzhou1Ġkan1Ġ":10510,"Ġdan4Ġye3Ġ":10511,"jie3Ġsan4":10512,"liang2Ġhao3Ġ":10513,"ĠdeĠgong1Ġneng2Ġ":10514,"Ġ1943Ġnian2Ġ":10515,"YouTubeĠ":10516,"adi":10517,"yong4Ġzai4Ġ":10518,"jie2Ġchu1Ġ":10519,"bei3Ġji2Ġ":10520,"Ġren2Ġbei4Ġ":10521,"Ġyi1Ġshi1Ġ":10522,"Ġxian4Ġxing4Ġ":10523,"tang2Ġqu1Ġ":10524,"xiang1Ġgang3ĠdeĠ":10525,"ĠĠĠ1999Ġnian2Ġ":10526,"ĠĠĠzhong1Ġhua2Ġren2Ġmin2Ġgong4Ġhe2Ġguo2Ġ":10527,"fa1Ġbiao3ĠdeĠ":10528,"can1Ġsai4Ġzi1Ġge2Ġ":10529,"ĠsĠ":10530,"ding4Ġzai4Ġ":10531,"liu2Ġqiu2Ġ":10532,"bing1ĠdeĠ":10533,"ren2Ġkou3Ġwei4Ġ":10534,"Ġdi4Ġchan3Ġ":10535,"Ġyou3Ġming2Ġ":10536,"ji4Ġhua4":10537,"Ġyuan2Ġli3Ġ":10538,"nan2Ġbu4ĠdeĠ":10539,"suo3Ġwei4ĠdeĠ":10540,"liang3Ġan4Ġ":10541,"Ġren2Ġmin2Ġzheng4Ġfu3":10542,"chong2Ġqing4Ġ":10543,"Ġge4Ġyue4Ġhou4Ġ":10544,"ya4Ġmei3Ġni2Ġya4Ġ":10545,"39Ġnian2Ġ":10546,"51Ġ":10547,"Ġzong1Ġ":10548,"ĠĠĠwu2Ġ":10549,"ye4Ġhe2Ġ":10550,"niang2":10551,"xin4Ġren4Ġ":10552,"zeng1Ġshe4Ġ":10553,"Ġyi1Ġlai4":10554,"yu4Ġce4Ġ":10555,"ci2Ġdian3Ġ":10556,"du1Ġcha2Ġ":10557,"shao4Ġnv3":10558,"bi3Ġsai4ĠdeĠ":10559,"xiu1Ġdao4Ġyuan4Ġ":10560,"41Ġnian2Ġ":10561,"fen1Ġji2Ġ":10562,"Ġguo2Ġdao4Ġ":10563,"Ġdui4Ġfang1Ġ":10564,"hai3Ġba2Ġgao1Ġdu4Ġ":10565,"nei4Ġge2":10566,"pu3Ġlu3Ġshi4Ġ":10567,"yan3Ġzou4Ġ":10568,"Ġwei4Ġyu2Ġzhong1Ġhua2Ġren2Ġmin2Ġgong4Ġhe2Ġguo2Ġ":10569,"Ġzhu3Ġti2Ġ":10570,"jiu3Ġlong2":10571,"yin1Ġci3Ġ":10572,"Ġtong2Ġxing4Ġ":10573,"Ġlai2Ġzi4":10574,"Ġzhi2Ġjie1Ġ":10575,"ĠdeĠji4Ġshu4Ġ":10576,"wen3Ġding4ĠdeĠ":10577,"tai4Ġyang2Ġgong1Ġ":10578,"1Ġjia1Ġ":10579,"Ġhei1":10580,"zhe1Ġ":10581,"da4Ġxing2Ġ":10582,"Ġta1Ġyou3Ġ":10583,"dao3Ġshi1Ġ":10584,"sheng4Ġmu3Ġ":10585,"shen2Ġsheng4Ġ":10586,"ban3Ġquan2Ġ":10587,"ju1Ġliu2Ġ":10588,"yin4Ġni2":10589,"Ġxiang1Ġdang1Ġyu2Ġ":10590,"UN":10591,"Ġ34":10592,"Ġjie1Ġwei4Ġ":10593,"Ġlei3Ġji4Ġ":10594,"ye3Ġzhan4Ġ":10595,"shui3Ġzhong1Ġ":10596,"ĠdeĠzhi1Ġchi2Ġ":10597,"Ġshi4Ġcheng2Ġ":10598,"Ġcheng2Ġdu1Ġ":10599,"Ġxi1Ġte4Ġ":10600,"qi1Ġjian1ĠdeĠ":10601,"ru4Ġjing4Ġ":10602,"shang1Ġwu4Ġ":10603,"Ġ156":10604,"Ġ1977Ġnian2Ġ":10605,"ĠFĠ":10606,"IV":10607,"Ġwei3":10608,"Ġdi1Ġ":10609,"luo4Ġshi2Ġ":10610,"tui1Ġli3Ġ":10611,"Ġbu4Ġlu3Ġ":10612,"Ġli4Ġao4Ġ":10613,"Ġgong1Ġan1Ġ":10614,"Ġta1Ġbu4Ġ":10615,"qu1Ġdong4Ġ":10616,"Ġzheng4Ġchang2Ġ":10617,"ĠĠĠSo":10618,"Ġxing2Ġzheng4Ġyuan4Ġ":10619,"tui1Ġchu1ĠleĠ":10620,"Ġhua2Ġsheng4Ġ":10621,"32Ġnian2Ġ":10622,"Ġzhan4Ġhou4Ġ":10623,"jian4Ġshe4":10624,"xian1ĠdeĠ":10625,"huan2Ġqiu2Ġ":10626,"Ġda4Ġlian2Ġmeng2Ġ":10627,"Ġchu1Ġnian2Ġ":10628,"liu2Ġdong4Ġ":10629,"82":10630,"ĠĠĠmin2Ġguo2Ġ":10631,"hui4Ġwei4Ġ":10632,"hun1Ġli3Ġ":10633,"log":10634,"Ġhe2Ġyuan2Ġ":10635,"Ġyu3Ġzhi1Ġ":10636,"Ġping2Ġjie4Ġ":10637,"ye4Ġjian1Ġ":10638,"ĠleĠyi2Ġge4Ġ":10639,"Ġzi4Ġran2":10640,"tou2Ġxiang2":10641,"Ġnuo2":10642,"130":10643,"62Ġ":10644,"bi1":10645,"Ġqiao2Ġzhi4Ġ":10646,"ĠĠĠwu3Ġ":10647,"ĠĠĠzhang1Ġ":10648,"bao3Ġhe2Ġ":10649,"bai2Ġren2Ġ":10650,"Ġxing2Ġshi4ĠdeĠ":10651,"Ġxing2Ġchai2":10652,"zhu3Ġliu2Ġ":10653,"Ġchu1Ġlai2ĠdeĠ":10654,"lu4Ġying3Ġdai4Ġ":10655,"ti3Ġyan4Ġ":10656,"dan1Ġmai4Ġ":10657,"Ġben3Ġtu3Ġ":10658,"PS":10659,"peng1":10660,"zen3Ġ":10661,"Ġkai1Ġshi3":10662,"chuan2ĠdeĠ":10663,"ting2Ġzhan4Ġ":10664,"na2Ġda4":10665,"Ġcheng2Ġzuo4Ġ":10666,"Ġdai4Ġma3Ġwei4Ġ":10667,"ting2Ġkao4Ġ":10668,"su1Ġge2Ġlan2":10669,"li4Ġshi3Ġshang4Ġ":10670,"ĠĠĠMar":10671,"Ġ1964Ġnian2Ġ":10672,"Ġxian4Ġshi2Ġyou2Ġnan2Ġji2Ġtiao2Ġyue1Ġti3Ġxi4Ġguan3Ġli3Ġ":10673,"li1Ġ":10674,"tyĠĠĠ":10675,"Ġ2024Ġnian2Ġ":10676,"chai1":10677,"ĠĠĠche1Ġzhan4":10678,"ping2Ġren2Ġ":10679,"bei3ĠdeĠ":10680,"1986Ġnian2Ġ":10681,"ding3Ġji2Ġ":10682,"Ġshi4Ġzhi4Ġ":10683,"Ġdi4Ġshang4Ġ":10684,"mian4Ġ2":10685,"ti2Ġgao1":10686,"jing3Ġdian3Ġ":10687,"Ġyou2Ġqi2":10688,"zhen1Ġcha2Ġ":10689,"zhuan1Ġyong4Ġ":10690,"ĠĠĠAl":10691,"Ġ1936Ġnian2Ġ":10692,"1Ġhao4":10693,"5000":10694,"54Ġ":10695,"Ġkuan1Ġ":10696,"ĠĠĠsha1Ġ":10697,"xi1Ġyu2Ġ":10698,"ze2Ġyi3Ġ":10699,"ba1Ġli3Ġ":10700,"luo4Ġyu2Ġ":10701,"pian4Ġren2Ġ":10702,"Ġhe2Ġyi4Ġ":10703,"Ġzhi4Ġdu4":10704,"tong3Ġzhi4Ġzhe3Ġ":10705,"ĠĠĠ1945Ġnian2Ġ":10706,"ĠUĠ":10707,"47Ġnian2Ġ":10708,"Ġrong2":10709,"Ġdou4Ġ":10710,"Ġchao1Ġguo4Ġ":10711,"ĠĠĠyin1Ġyue4Ġ":10712,"qi1Ġyue4Ġ":10713,"jiang3Ġxue2Ġ":10714,"Ġdi4Ġjiu3Ġ":10715,"Ġji1Ġben3":10716,"guan1Ġguang1Ġ":10717,"fa1Ġjue2Ġ":10718,"li2Ġba1Ġn":10719,"yi3Ġjing1":10720,"Ġ1951Ġnian2Ġ":10721,"guan1Ġfei4Ġyan2Ġque4Ġzhen3Ġbing4Ġli4Ġ":10722,"Ġfan4":10723,"Ġpeng2":10724,"Ġbang1Ġzhu4Ġ":10725,"ĠĠĠ2005Ġnian2Ġ":10726,"jiao1Ġyou2Ġ":10727,"man4Ġdi4Ġguo2Ġ":10728,"zheng3Ġli3Ġ":10729,"zhui1Ġqiu2Ġ":10730,"34Ġnian2Ġ":10731,"Ġzai4Ġ193":10732,"ji1Ġbai4Ġ":10733,"xi1Ġwang4":10734,"Ġhou4Ġzhe3":10735,"jian1Ġcha2Ġ":10736,"yi2Ġmian4Ġ":10737,"jiu4Ġzhi3Ġ":10738,"zao4Ġchuan2Ġ":10739,"Ġyin1Ġwei4Ġta1Ġ":10740,"Ġzai4Ġdi4Ġyi1Ġ":10741,"ĠĠĠzhe4Ġke1Ġ":10742,"Ġzu3Ġzhi1Ġ":10743,"ri4Ġzhi4Ġ":10744,"dai4Ġdao4Ġ":10745,"hui2Ġdao4":10746,"ren2Ġyuan2Ġ":10747,"Ġdi4Ġyu4Ġ":10748,"Ġyou3Ġguan1ĠdeĠ":10749,"Ġgong1Ġchang3":10750,"Ġyi1Ġqie4Ġ":10751,"hua4Ġru4Ġ":10752,"jing3Ġqu1Ġ":10753,"fang2Ġwu1":10754,"ĠMar":10755,"Ġzhi2Ġxing2Ġ":10756,"Ġnu":10757,"âĪĴ":10758,"Ġlei4Ġ":10759,"ai4Ġli4Ġ":10760,"bei1ĠdeĠ":10761,"Ġyu2Ġ2018":10762,"Ġyu2Ġ2024":10763,"Ġren2Ġli4Ġ":10764,"zhan4Ġlve4":10765,"guan1Ġlian2Ġ":10766,"lu4Ġduan4Ġ":10767,"jiao4Ġdi1Ġ":10768,"feng1Ġfu4ĠdeĠ":10769,"bo2Ġla1Ġ":10770,"she4Ġying3Ġ":10771,"ĠdeĠji1Ġchu3":10772,"YĠ":10773,"ze2Ġxi1Ġ":10774,"sheng3Ġhui4Ġ":10775,"tong1Ġxing2Ġ":10776,"le4Ġyuan2Ġ":10777,"ku4Ġer3Ġ":10778,"Ġshi4Ġxia4Ġxia2ĠdeĠyi2Ġge4Ġxiang1Ġzhen4Ġji2Ġxing2Ġzheng4Ġdan1Ġwei4Ġ":10779,"gong1Ġji1Ġ":10780,"ji4Ġshu4":10781,"Ġyu3Ġqi2":10782,"ĠdeĠshi4Ġjie4":10783,"ĠÐ¾":10784,"Ġni2":10785,"Ġhui1Ġ":10786,"enterĠ":10787,"ĠĠĠÐ":10788,"ĠĠĠfen1Ġlei4Ġ":10789,"ji2Ġzhong1Ġxue2Ġ":10790,"tong2Ġwei4Ġ":10791,"duo1Ġsi1Ġ":10792,"si4Ġren2Ġ":10793,"geng4Ġgao1Ġ":10794,"jiang4Ġji2Ġ":10795,"Ġyi1Ġer3Ġ":10796,"Ġji4Ġhua4ĠdeĠ":10797,"yan2Ġjiu1ĠdeĠ":10798,"lun4Ġtan2Ġ":10799,"Ġ160":10800,"pei2Ġyang3":10801,"nuan3Ġ":10802,"ten":10803,"Ġsi3Ġ":10804,"zong3Ġsi1Ġling4Ġ":10805,"xie1Ġer3Ġ":10806,"orl":10807,"Ġbei4Ġbu3Ġ":10808,"ben3Ġke1Ġ":10809,"Ġqi2Ġxia4ĠdeĠ":10810,"dong1Ġqu1Ġ":10811,"jie1Ġguan3Ġ":10812,"Ġzheng4Ġce4":10813,"Ġdan4Ġmei2Ġyou3Ġ":10814,"Ġben3Ġzhan4Ġ":10815,"tong2Ġmeng2Ġ":10816,"Ġ1973Ġnian2Ġ":10817,"Ġshu4":10818,"Ġtian2":10819,"Ġtan2Ġ":10820,"lesĠĠĠ":10821,"ci4Ġshi4Ġ":10822,"ke1Ġjin4Ġshi4Ġ":10823,"shi2Ġqi1":10824,"Ġgong1Ġjiao1Ġ":10825,"Ġxing2Ġhao4Ġ":10826,"zheng4Ġce4":10827,"qu1Ġfu4Ġze2Ġguan3Ġxia2Ġ":10828,"lian2Ġzai3Ġ":10829,"Ġhei1Ġlong2Ġjiang1Ġ":10830,"nĠĠĠ":10831,"Ġchao1Ġ":10832,"jian4ĠdeĠ":10833,"min2Ġyi4Ġ":10834,"nve4":10835,"qian1Ġming2Ġ":10836,"qiu1Ġji4Ġ":10837,"ye2Ġer3Ġ":10838,"Ġgong1Ġshe4Ġ":10839,"Ġxia4Ġwu3Ġ":10840,"mi4Ġsu1Ġli3Ġ":10841,"Ġzhi2Ġli4Ġ":10842,"Ġ14Ġ":10843,"Ġhe2Ġdao4Ġquan2Ġzhang3Ġ":10844,"Ġyu2":10845,"Ġsang1":10846,"Ġ37":10847,"ĠĠĠzheng1Ġyi4Ġ":10848,"te4Ġren2Ġ":10849,"can1Ġyi4Ġyuan4Ġ":10850,"xuan1Ġshi4Ġ":10851,"yuan3ĠdeĠ":10852,"Ġyi3Ġbian4":10853,"lai2Ġkan4Ġ":10854,"te4Ġshu1":10855,"dian4Ġtai2":10856,"feng1Ġsuo3Ġ":10857,"xi2Ġji1":10858,"tiao2Ġmu4Ġ":10859,"ĠIST":10860,"dong1Ġbu4Ġshi2Ġqu1Ġ":10861,"guo2Ġwu4Ġyuan4Ġ":10862,"mic":10863,"xi1Ġxian4Ġ":10864,"chuang1":10865,"fan3Ġji1Ġ":10866,"tuo1Ġer3Ġ":10867,"liu4Ġshi4Ġ":10868,"Ġdao4Ġji2Ġ":10869,"Ġjun1Ġren2Ġ":10870,"dong4Ġwu4ĠdeĠ":10871,"chuan2Ġshuo1":10872,"luo4Ġte4Ġ":10873,"zhun3Ġque4Ġ":10874,"gui4Ġzu2":10875,"ei":10876,"Ġkang1":10877,"Ġ2001":10878,"she1Ġ":10879,"ke4Ġli3Ġsi1Ġ":10880,"can1Ġyi4Ġ":10881,"guang3Ġyi4Ġ":10882,"Ġhe2Ġzhi4Ġ":10883,"di4Ġguo2Ġ":10884,"gong1Ġye4Ġ":10885,"Ġyu2Ġ2015":10886,"Ġcheng2Ġzhang3Ġ":10887,"Ġqi2Ġzhi4Ġ":10888,"bei3Ġhai3Ġdao4Ġ":10889,"duo1Ġxiang4Ġ":10890,"Ġxia4Ġling4Ġ":10891,"dou1Ġmei2Ġyou3Ġ":10892,"zhuang4Ġtai4":10893,"Ġ1974Ġnian2Ġ":10894,"Ġyou4Ġyi4Ġ":10895,"la1Ġsi1Ġjia1Ġ":10896,"fa1Ġbiao3ĠleĠ":10897,"sheng1Ġchan3ĠdeĠ":10898,"Ġwa3":10899,"Ġlao3":10900,"Ġyi4Ġnian2Ġ":10901,"ĠĠĠdao4":10902,"ĠĠĠquan2Ġ":10903,"yu3Ġzhong1Ġguo2Ġ":10904,"ren4Ġzhi1Ġ":10905,"yun4Ġzai4Ġ":10906,"zhuang1ĠdeĠ":10907,"niu2Ġsi1Ġ":10908,"36Ġnian2Ġ":10909,"Ġnan2Ġxing4Ġ":10910,"lv4Ġhua4Ġ":10911,"bao1Ġkuo4Ġyi3Ġxia4Ġ":10912,"fan2Ġmang2":10913,"gong1Ġyuan2Ġqian2Ġ":10914,"shou1Ġshi4Ġlv4Ġ":10915,"zhui1Ġsu4Ġdao4Ġ":10916,"300Ġ":10917,"Ġsheng3Ġ":10918,"Ġbiao1Ġ":10919,"lin2Ġzhong1Ġ":10920,"han4Ġguo2Ġ":10921,"1987Ġnian2Ġ":10922,"chun1Ġji4Ġ":10923,"Ġyi1Ġran2":10924,"sheng1Ġcheng1Ġ":10925,"fu4Ġxing1Ġ":10926,"yu4Ġwei2Ġ":10927,"dong1Ġce4Ġ":10928,"fen1Ġbu4Ġzai4Ġ":10929,"Ġshi4Ġyi1Ġzuo4":10930,"ai1Ġna4Ġsheng3Ġ":10931,"te4Ġgong1Ġ":10932,"zui4Ġchu1ĠdeĠ":10933,"liang4Ġji2Ġ":10934,"31Ġnian2Ġ":10935,"36Ġ":10936,"Ġbei4Ġren4Ġwei2Ġ":10937,"shou3Ġxian1Ġ":10938,"tou2Ġru4":10939,"ĠAn":10940,"ĠESTĠ":10941,"xi4Ġtong3Ġzhong1Ġ":10942,"IR":10943,"chou1":10944,"dui4Ġli4Ġ":10945,"Ġzai4Ġli4Ġ":10946,"Ġyou3Ġxu3Ġduo1Ġ":10947,"nan2Ġmei3Ġzhou1Ġ":10948,"zhong1Ġguo2Ġda4Ġlu4ĠdeĠ":10949,"pao3Ġdao4Ġ":10950,"az":10951,"her":10952,"Ġduan4Ġ":10953,"Ġguan3Ġli3Ġ":10954,"li3Ġshi2Ġ":10955,"quan3":10956,"rong2ĠdeĠ":10957,"ying2Ġli4Ġ":10958,"guang1ĠdeĠ":10959,"Ġyi3Ġji2Ġzai4Ġ":10960,"Ġxi1Ġyin3":10961,"zi4Ġshen1Ġ":10962,"ru4Ġkou3":10963,"zui4Ġdi1Ġ":10964,"bo2Ġge2Ġ":10965,"ĠHĠ":10966,"Ġjie1Ġshou4Ġ":10967,"mei4Ġmei4Ġ":10968,"wu2Ġxian4Ġdian4Ġ":10969,"Ġshi4Ġyi1Ġke1Ġwei2Ġrao4Ġ":10970,"wa1":10971,"Ġchi2Ġ":10972,"li3Ġren2Ġ":10973,"she4Ġji2Ġ":10974,"dang1Ġri4Ġ":10975,"sheng3Ġli4Ġ":10976,"jiu3Ġshi2Ġ":10977,"biao1Ġshi4Ġ":10978,"xin4Ġhao4":10979,"atĠ":10980,"guan1Ġzheng4Ġ":10981,"ti2Ġcai2Ġ":10982,"liang3Ġce4Ġ":10983,"dou1Ġke3Ġyi3Ġ":10984,"Ġ13Ġ":10985,"jue2Ġdui4Ġxing1Ġdeng3Ġwei4Ġ":10986,"ping1Ġp":10987,"jie4Ġquan2Ġguo2Ġzheng4Ġxie2Ġwei3Ġyuan2Ġ":10988,"ET":10989,"Ġshu1":10990,"Ġnuo4":10991,"zhi3Ġchu1":10992,"chuan2Ġyuan2Ġ":10993,"zhan3Ġchu1Ġ":10994,"you1Ġhui4Ġ":10995,"you3Ġyi4Ġ":10996,"Ġxing2Ġxing1Ġ":10997,"ping2Ġheng2Ġ":10998,"fang1Ġan4":10999,"Ġbing4Ġhuo4Ġde2Ġ":11000,"Ġju4Ġben3Ġ":11001,"shu1Ġniu3Ġ":11002,"Ġxiang1Ġguan1ĠdeĠ":11003,"qian1Ġyin3Ġ":11004,"ki":11005,"Ġmao2":11006,"ĠĠĠwen2Ġhua4Ġ":11007,"dui4Ġdi4Ġ":11008,"de2Ġyi4Ġzhi4Ġ":11009,"fu2Ġji2Ġ":11010,"gou1Ġtong1Ġ":11011,"Ġzai4Ġdang1Ġshi2Ġ":11012,"Ġzhong1Ġyuan2Ġ":11013,"Ġshi2Ġliu4Ġnian2Ġ":11014,"ju4Ġben3Ġ":11015,"qian2Ġting3Ġ":11016,"fen1Ġxiao4Ġ":11017,"zhong3Ġzu2":11018,"hen3Ġshao3Ġ":11019,"ke3Ġneng2ĠdeĠ":11020,"ĠEDTĠ":11021,"wan1Ġqu1Ġ":11022,"Ġ5Ġdiao4Ġkuai4Ġyi1Ġxiao3Ġshi2Ġ":11023,"lian2Ġsai4ĠdeĠ":11024,"su1Ġwei2Ġai1":11025,"Ġji2Ġbei3Ġmei3Ġdong1Ġbu4Ġshi2Ġqu1Ġ":11026,"tai4Ġyang2Ġgong1Ġzhuan4ĠdeĠxiao3Ġxing2Ġxing1Ġ":11027,"Ġshi4Ġyi1Ġke1Ġwei2Ġrao4Ġtai4Ġyang2Ġgong1Ġzhuan4ĠdeĠxiao3Ġxing2Ġxing1Ġ":11028,"ao4Ġke4Ġ":11029,"en1Ġsi1Ġ":11030,"ci3Ġdi4Ġ":11031,"han2Ġyi4Ġ":11032,"45Ġnian2Ġ":11033,"Ġshi4Ġxin1Ġ":11034,"xue2Ġke1Ġ":11035,"Ġzuo4Ġqu3Ġ":11036,"sheng4Ġjing1Ġ":11037,"ĠdeĠyi1Ġtiao2Ġ":11038,"Ġ1971Ġnian2Ġ":11039,"xiao3Ġxing2Ġxing1ĠdeĠjue2Ġdui4Ġxing1Ġdeng3Ġwei4Ġ":11040,"Ġzu3Ġcheng2Ġ":11041,"ĠĠĠguo2Ġ":11042,"ĠĠĠhuang2Ġ":11043,"ling3Ġdui4Ġ":11044,"zhuan1Ġyuan2Ġ":11045,"1976Ġnian2Ġ":11046,"pai1Ġshe4ĠdeĠ":11047,"Ġhe2Ġyu3Ġ":11048,"Ġzhi1Ġchu1Ġ":11049,"ju4Ġfeng1":11050,"Ġfu4Ġmu3Ġ":11051,"ke3Ġyong4Ġ":11052,"tu2Ġjing4Ġ":11053,"you4Ġcheng1Ġ":11054,"Ġshi4Ġwu4Ġsuo3Ġ":11055,"menĠdeĠ":11056,"inu":11057,"Ġzhong1Ġli4Ġ":11058,"guan1Ġzhong4":11059,"xiao3Ġjie3Ġ":11060,"na4Ġxie1":11061,"zu2Ġlian2Ġ":11062,"qu3Ġjue2Ġyu2Ġ":11063,"tian1Ġwen2Ġxue2Ġjia1Ġ":11064,"ĠĠĠzhe4Ġke1Ġxiao3Ġxing2Ġxing1ĠdeĠjue2Ġdui4Ġxing1Ġdeng3Ġwei4Ġ":11065,"Ġyan2Ġjiu1":11066,"ĠĠĠge4Ġ":11067,"miao4Ġyu3Ġ":11068,"Ġshi4Ġxia4Ġ":11069,"Ġshi4Ġzui4Ġ":11070,"Ġli4Ġxue2Ġ":11071,"Ġjia1Ġqiang2Ġ":11072,"Ġtong2Ġnian2Ġ12Ġyue4Ġ":11073,"ĠdeĠyi1Ġxiang4Ġ":11074,"ĠĠĠ1998Ġnian2Ġ":11075,"bi3Ġli4Ġniu2Ġsi1Ġ":11076,"acebo":11077,"pan1":11078,"Ġgong4Ġtong2Ġ":11079,"ming2Ġyu2Ġ":11080,"zhong3ĠdeĠ":11081,"liang3Ġda4Ġ":11082,"Ġzai4Ġren2Ġ":11083,"Ġyi1Ġxiang4Ġ":11084,"Ġxi1Ġer3":11085,"Ġbei4Ġjing3":11086,"yu4Ġsuan4Ġ":11087,"Ġbing4Ġwu2Ġ":11088,"xi2Ġguan4Ġ":11089,"zu3Ġcheng2Ġbu4Ġfen4Ġ":11090,"ID":11091,"Ġzai4":11092,"Ġzhu4":11093,"Ġming2Ġwei4Ġ":11094,"ĠĠĠguan1Ġyu2Ġ":11095,"ĠĠĠzao3Ġqi1Ġ":11096,"lai2Ġer3Ġ":11097,"shui2":11098,"guo4Ġhou4Ġ":11099,"lei1Ġsi1Ġ":11100,"Ġyu2Ġ2013":11101,"Ġxi1Ġce4Ġ":11102,"ju4Ġyuan4Ġ":11103,"shen1Ġru4Ġ":11104,"zong3Ġling3Ġshi4Ġ":11105,"Ġdeng3Ġdeng3Ġ":11106,"Ġdang1Ġdi4ĠdeĠ":11107,"Ġ159":11108,"duan3Ġzan4Ġ":11109,"Ġ1969Ġnian2Ġ":11110,"Ġsui2Ġji2Ġ":11111,"Ġqu4Ġ":11112,"Ġxian3Ġshi4Ġ":11113,"Ġfen1Ġwei2Ġ":11114,"wei1Ġli4Ġ":11115,"140":11116,"Ġwei4Ġguo2Ġ":11117,"Ġyu2Ġ2014":11118,"Ġchu1Ġbu4Ġ":11119,"ci3Ġtian1Ġti3Ġ":11120,"liu2Ġchuan2Ġ":11121,"liang3Ġtiao2Ġ":11122,"bing1Ġtuan2Ġ":11123,"zhuan1Ġji2ĠdeĠ":11124,"Ġao4Ġmen2Ġ":11125,"ge3":11126,"Ġsang1Ġ":11127,"ĠĠĠm":11128,"fu4Ġyu2Ġ":11129,"qian2Ġxi1Ġ":11130,"cha2Ġde2Ġ":11131,"man3Ġyi4Ġ":11132,"he2Ġliu2Ġ":11133,"Ġyi1Ġqie4":11134,"shang4Ġying4ĠdeĠ":11135,"zhen4Ġwang2Ġ":11136,"Ġdian4ĠziĠ":11137,"hun4Ġluan4Ġ":11138,"zhuan3Ġyi2Ġdao4Ġ":11139,"Ġdu2Ġli4Ġ":11140,"ke1Ġyi1Ġsheng1Ġ":11141,"zong1ĠdeĠ":11142,"1985Ġnian2Ġ":11143,"Ġri4Ġshi2Ġ":11144,"Ġyuan2Ġlai2Ġ":11145,"Ġdan4Ġbei4Ġ":11146,"mo2Ġtuo1Ġ":11147,"ĠCo":11148,"56Ġ":11149,"83":11150,"85Ġnian2Ġ":11151,"ben3Ġzhi4Ġ":11152,"ni2Ġxi1Ġya4":11153,"sheng4Ġyu2Ġ":11154,"xia2ĠdeĠ":11155,"geng1Ġming2Ġ":11156,"Ġshi4Ġchang3":11157,"Ġzai4Ġta1":11158,"Ġda4Ġduo1":11159,"Ġyi3Ġwai4ĠdeĠ":11160,"jie2Ġlun4Ġ":11161,"qing1Ġzhen1Ġ":11162,"nv3Ġwang2Ġ":11163,"bian4Ġhuan4Ġ":11164,"mo2Ġni3":11165,"qiang2Ġhua4Ġ":11166,"she4Ġjiao1Ġ":11167,"Ġjie2Ġhun1Ġ":11168,"Ġye3Ġbei4Ġ":11169,"pei2Ġchang2Ġ":11170,"duan3Ġpian4Ġ":11171,"Ġda4Ġzhi4Ġ":11172,"Ġlie4Ġche1Ġ":11173,"Ġshan1Ġxi1Ġ":11174,"lu4Ġhe2Ġ":11175,"yong4Ġdi4Ġ":11176,"ben3Ġdi4Ġqu1Ġ":11177,"ziĠli3Ġ":11178,"fu3Ġzhi1Ġfu3Ġ":11179,"00Ġping2Ġfang1Ġqian1Ġmi3Ġ":11180,"Ġzai4Ġdui4Ġ":11181,"Ġyu2Ġ2012":11182,"Ġcheng2Ġnuo4Ġ":11183,"shu4Ġju4":11184,"te4Ġding4":11185,"Ġshe4Ġshi1":11186,"yun4Ġying2":11187,"Ġzhu3Ġzhang1Ġ":11188,"Ġjing1Ġguo4":11189,"Ġ179":11190,"Ġ1933Ġnian2Ġ":11191,"pen2Ġdi4Ġ":11192,"88Ġnian2Ġ":11193,"ĠĠĠyin1Ġwei4Ġ":11194,"fa3Ġer3Ġ":11195,"wen2Ġsi1Ġ":11196,"Ġde2Ġhe2Ġ":11197,"shou3Ġling3Ġ":11198,"yi2Ġdong4":11199,"feng1Ġbao4":11200,"zong3Ġe2Ġwei4Ġ":11201,"zi1Ġxun4":11202,"Ġfu2Ġlang3Ġ":11203,"Ġ1957Ġnian2Ġ":11204,"Ġji2Ġtuan2Ġjun1Ġ":11205,"fei1Ġxing2Ġyuan2Ġ":11206,"he1Ġ":11207,"Ġyou3":11208,"Ġbu3Ġ":11209,"ĠĠĠjian4Ġ":11210,"zuo4Ġzai4Ġ":11211,"qu1Ġzhong1Ġ":11212,"nv3Ġer2":11213,"lun2Ġli3Ġ":11214,"sui2Ġzhi1Ġ":11215,"Ġwei4Ġxin1Ġ":11216,"you2Ġke4Ġ":11217,"xiang4Ġbei3Ġ":11218,"Ġqi2Ġzhong1ĠdeĠ":11219,"chang2Ġan1Ġ":11220,"Ġju4Ġti3Ġ":11221,"heng2Ġxing1":11222,"SS":11223,"Ġkan1Ġ":11224,"xia4Ġshi4Ġ":11225,"ba1Ġming2Ġ":11226,"dang3Ġbu4Ġ":11227,"cai2ĠdeĠ":11228,"pa4Ġer3Ġ":11229,"Ġnian2Ġshi4Ġ":11230,"Ġyu2Ġ2022":11231,"Ġqi2Ġyu3Ġ":11232,"xiang1Ġxin4Ġ":11233,"yan2Ġan4Ġ":11234,"Ġwan4Ġnian2Ġ":11235,"Ġjian3Ġcheng1":11236,"guang3Ġbo1Ġgong1Ġsi1Ġ":11237,"jiang4Ġyu3Ġliang4Ġ":11238,"Ġqu3Ġde2Ġ":11239,"Ġgui4Ġzhou1Ġ":11240,"xin1Ġyi1Ġ":11241,"mei3Ġzhong1Ġbu4Ġ":11242,"te4Ġsi1Ġ":11243,"shui3Ġyu2Ġ":11244,"cha1Ġju4Ġ":11245,"Ġwei4Ġsi1Ġ":11246,"Ġhe2Ġjin1Ġ":11247,"Ġzhong1Ġwen2":11248,"Ġyuan2Ġqu1Ġ":11249,"Ġjian4Ġzhong1Ġ":11250,"Ġxiang1Ġguan1":11251,"Ġnan2Ġjing1":11252,"chu3Ġjue2Ġ":11253,"zhun3Ġjue2Ġsai4":11254,"Ġ1965Ġnian2Ġ":11255,"li3Ġshi4Ġzhang3Ġ":11256,"jiao1Ġyi4Ġsuo3Ġ":11257,"jie4Ġquan2Ġguo2Ġren2Ġmin2Ġdai4Ġbiao3Ġda4Ġhui4Ġ":11258,"Ġkai1Ġfa1Ġ":11259,"Ġdao3Ġyan3Ġ":11260,"ĠxĠ":11261,"zhai4":11262,"yao4Ġzai4Ġ":11263,"qing1Ġdai4Ġ":11264,"Ġzhi1Ġqian2ĠdeĠ":11265,"zhu3Ġjue2":11266,"ĠdeĠyi1Ġci4Ġ":11267,"ĠdeĠgong1Ġsi1Ġ":11268,"dan4Ġshui3Ġ":11269,"chang4Ġpian4Ġgong1Ġsi1Ġ":11270,"ping1Ġpang1":11271,"ĠĠĠyu4Ġ":11272,"ĠĠĠ2023Ġnian2Ġ":11273,"che1Ġshi4Ġ":11274,"ti3Ġxian4Ġ":11275,"ĠdeĠxing2Ġshi4Ġ":11276,"Ġwei4Ġmei3Ġguo2Ġ":11277,"Ġyu2Ġ190":11278,"Ġyi4Ġmei3Ġguo2Ġren2Ġ":11279,"Ġyi1Ġyang4":11280,"Ġjun1Ġyi3Ġ":11281,"gao1Ġxiao4Ġ":11282,"shi1Ġti3Ġ":11283,"qing1Ġdao3Ġ":11284,"chan3Ġliang4Ġ":11285,"Ġsuo3Ġyou3ĠdeĠ":11286,"Ġtian1Ġwen2Ġ":11287,"ĠGĠ":11288,"Ġqi1Ġjian1":11289,"Ġa1Ġer3Ġbei1Ġsi1Ġ":11290,"Ġzuo3":11291,"shai1Ġ":11292,"erĠĠĠ":11293,"si1Ġdi4Ġli4Ġ":11294,"jun1Ġzhu3Ġ":11295,"nan2Ġxi1Ġ":11296,"ba1Ġyue4Ġ":11297,"mu3Ġsi1Ġte4Ġ":11298,"Ġyou3Ġxiao4":11299,"Ġge4Ġge4Ġ":11300,"ke1Ġhuan4Ġ":11301,"yue1Ġ1":11302,"ĠdeĠyi1Ġjia1Ġ":11303,"di3Ġceng2Ġshui3Ġyu4Ġ":11304,"Ġdi4Ġshi2Ġsan1Ġ":11305,"Ġsan1Ġyue4Ġ":11306,"CA":11307,"ti2Ġwei4Ġ":11308,"fu1Ġsi1Ġ":11309,"tur":11310,"30Ġnian2Ġdai4Ġ":11311,"qing4Ġxia4Ġ":11312,"ba4Ġgong1Ġ":11313,"ren4Ġzheng4Ġ":11314,"Ġta1ĠmenĠshi4Ġ":11315,"jie3Ġjue2":11316,"Ġci3Ġwai4":11317,"you1Ġxian1Ġ":11318,"ĠLĠ":11319,"ĠĠĠ1997Ġnian2Ġ":11320,"peng4Ġ":11321,"yp":11322,"huang3":11323,"yuan2Ġren2Ġmin2Ġbi4Ġ":11324,"xing2Ġren2Ġ":11325,"yu3Ġwei4Ġ":11326,"ji1Ġshi2Ġ":11327,"jian4Ġdui4Ġ":11328,"ĠdeĠhou4Ġ":11329,"ĠdeĠqing2Ġkuang4Ġxia4Ġ":11330,"Ġshi2Ġsan1Ġnian2Ġ":11331,"Ġzhou1ĠdeĠyi2Ġge4Ġshi4Ġzhen4Ġ":11332,"dong4Ġtai4Ġ":11333,"zhuan1Ġqu1Ġ":11334,"zhuan3Ġbian4Ġ":11335,"yan2Ġjiu1Ġsuo3":11336,"bai3Ġxing4Ġ":11337,"tui1Ġguang3":11338,"yin4Ġdi4Ġan1Ġna4":11339,"ting2Ġche1Ġchang3Ġ":11340,"53Ġ":11341,"ob":11342,"ping2Ġxian4Ġ":11343,"jin1Ġsi1Ġ":11344,"Ġshi4Ġyin4Ġdu4Ġ":11345,"bu4Ġfen4":11346,"zhan4Ġshu4Ġ":11347,"Ġbing4Ġcheng2Ġwei2Ġ":11348,"ĠdeĠshi4Ġqing2Ġ":11349,"xun2Ġfu3Ġ":11350,"sĠĠĠof":11351,"liang2Ġhao3ĠdeĠ":11352,"zhong4Ġyao4Ġxing4Ġ":11353,"Ġsu2Ġcheng1Ġ":11354,"Ġzao3Ġ":11355,"dui4Ġshi4Ġ":11356,"zhang3Ġji2Ġ":11357,"cheng1ĠdeĠ":11358,"1960Ġnian2Ġ":11359,"cu4Ġshi3Ġ":11360,"Ġji2Ġer3":11361,"Ġer3Ġbei4Ġ":11362,"Ġxi1Ġfa3Ġ":11363,"fu4Ġnv3Ġ":11364,"fa1Ġsheng1Ġyu2Ġ":11365,"yong4ĠleĠ":11366,"shou3Ġren4Ġ":11367,"Ġzi4Ġci3Ġ":11368,"xiao1Ġshou4":11369,"Ġshang4Ġhai3Ġshi4Ġ":11370,"Ġtun2Ġqi2Ġ":11371,"49Ġnian2Ġ":11372,"kmĠ":11373,"manĠ":11374,"Ġxiong1Ġya2Ġli4Ġ":11375,"liu4Ġyue4Ġ":11376,"30Ġfen1Ġ":11377,"xie4Ġer3Ġ":11378,"zuan4Ġshi2Ġ":11379,"Ġhe2Ġchang4Ġ":11380,"Ġshi2Ġwu3Ġnian2Ġ":11381,"Ġke4Ġjia1Ġ":11382,"Ġshe4Ġzai4Ġ":11383,"zui4Ġhou4ĠdeĠ":11384,"feng1Ġxian3":11385,"yue1Ġse4Ġfu1Ġ":11386,"xie2Ġhui4":11387,"Ġzhou2":11388,"Ġcong2Ġci3Ġ":11389,"ĠJRĠ":11390,"Ġze2Ġshi4Ġ":11391,"Ġmu3Ġqin1Ġ":11392,"Ġta1Ġceng2Ġdai4Ġbiao3":11393,"MP":11394,"ron":11395,"seng1":11396,"Ġdu4":11397,"sou1Ġsuo3Ġ":11398,"Ġbu4Ġduan4":11399,"Ġyi4Ġbei4Ġ":11400,"jing1Ġdu1Ġ":11401,"Ġjun1Ġwei3Ġ":11402,"zu3Ġxian1Ġ":11403,"liang3Ġzhong3":11404,"da3Ġsuan4":11405,"ji4Ġsuan4Ġji1Ġ":11406,"Ġhong1Ġzha4":11407,"ĠXĠ":11408,"ce4Ġwei4Ġ":11409,"ha1Ġli4Ġ":11410,"shao3ĠdeĠ":11411,"zhui1Ġji1Ġ":11412,"rou4Ġshi2Ġxing4Ġ":11413,"Ġke4Ġzai4Ġ":11414,"tai2Ġzhong1Ġshi4Ġ":11415,"jin1Ġxiang4Ġ":11416,"Ġzheng4Ġju4Ġ":11417,"zong3Ġju2Ġ":11418,"Ġshi3Ġmi4Ġsi1Ġ":11419,"pi2Ġfu1Ġ":11420,"ĠdeĠji1Ġchu3Ġ":11421,"ĠdeĠzuo4Ġyong4Ġ":11422,"Ġyi3Ġji2Ġzhong1Ġguo2Ġda4Ġlu4ĠdeĠ":11423,"mei3Ġzhong1Ġbu4Ġshi2Ġqu1Ġ":11424,"ath":11425,"ĠĠĠ2004Ġnian2Ġ":11426,"zhong1Ġnian2Ġ":11427,"leĠbu4Ġ":11428,"zhan4Ġli4Ġ":11429,"ze2Ġer3Ġsheng3Ġ":11430,"Ġdao4Ġta1Ġ":11431,"Ġyuan2Ġzi4":11432,"dai4Ġling3":11433,"Ġer2Ġwen2Ġming2Ġ":11434,"zhe4Ġshou3Ġ":11435,"Ġzuo4Ġye4Ġ":11436,"Ġ1961Ġnian2Ġ":11437,"fei2Ġte4Ġlie4Ġ":11438,"Ġhuai2Ġ":11439,"cheng2Ġwei4Ġ":11440,"mi3Ġer3":11441,"qiang2Ġda4Ġ":11442,"huan2Ġyuan2Ġ":11443,"2019Ġguan1Ġzhuang4Ġbing4Ġdu2":11444,"wu4Ġzi1Ġ":11445,"zhi2Ġjing4Ġ":11446,"Ġjin4Ġxing2ĠdeĠ":11447,"ge2Ġlei2Ġ":11448,"xuan3Ġshou3":11449,"chuan2Ġmei2":11450,"wang3Ġlai2Ġ":11451,"Ġshi4Ġyi1Ġjia1Ġ":11452,"tuo1Ġma3Ġsi1Ġ":11453,"1Ġyue4Ġ1Ġri4Ġ":11454,"ĠCSTĠ":11455,"ĠCDTĠ":11456,"Ġma3Ġla1Ġ":11457,"ran2Ġliao4Ġ":11458,"Ġ1962Ġnian2Ġ":11459,"cao3Ġan4Ġ":11460,"Ġchang2Ġqi1Ġ":11461,"Ġ6Ġdiao4Ġkuai4Ġyi1Ġxiao3Ġshi2Ġ":11462,"Ġji2Ġbei3Ġmei3Ġzhong1Ġbu4Ġshi2Ġqu1Ġ":11463,"Ġrui4Ġshi4Ġ":11464,"ann":11465,"ĠĠĠmei3Ġ":11466,"zhang1Ġshi4Ġ":11467,"que4Ġli4Ġ":11468,"xun4Ġhao4Ġ":11469,"1982Ġnian2Ġ":11470,"ha1Ġde2Ġ":11471,"1949Ġnian2Ġ":11472,"isĠĠĠ":11473,"Ġdi4Ġming2Ġ":11474,"Ġzhou1Ġbian1Ġ":11475,"Ġsheng1Ġming4Ġ":11476,"ke3Ġyi3Ġtong1Ġguo4Ġ":11477,"huo4Ġzhe3Ġ":11478,"zheng4Ġzhi4Ġju2Ġ":11479,"ĠAr":11480,"yin4Ġdu4ĠdeĠ":11481,"hu2Ġbei3Ġsheng3Ġ":11482,"Ġlian2Ġhe2Ġguo2Ġ":11483,"sheng1Ġbu4Ġ":11484,"mei2Ġer3Ġ":11485,"wei3ĠdeĠ":11486,"luo4Ġhou4Ġ":11487,"ben3Ġtu3":11488,"ben3Ġzhan4Ġ":11489,"dong1Ġya4Ġ":11490,"Ġshang4Ġshu4Ġ":11491,"Ġqiu2Ġbi3Ġsai4Ġ":11492,"jiao1Ġgei3":11493,"ĠNĠ":11494,"Ġ1931Ġnian2Ġ":11495,"zhe2Ġxue2Ġjia1Ġ":11496,"71":11497,"chi":11498,"jiao4Ġyou3Ġ":11499,"shi1Ġshi4Ġ":11500,"dang1Ġdai4Ġ":11501,"ying1Ġer2Ġ":11502,"jiao1Ġfu4Ġ":11503,"qu3ĠleĠ":11504,"pei4Ġyue4Ġ":11505,"cheng2Ġwei2":11506,"xing4Ġbie2":11507,"tian1Ġshi3Ġ":11508,"wei3Ġnei4Ġrui4Ġ":11509,"guang1Ġpu3Ġ":11510,"ĠĠĠ1991Ġnian2Ġ":11511,"Ġa1Ġli3Ġ":11512,"2Ġming2Ġ":11513,"72Ġ":11514,"har":11515,"Ġlun2Ġ":11516,"Ġreng2Ġ":11517,"ĠĠĠ12Ġyue4Ġ":11518,"shi2Ġshi4Ġji4Ġ":11519,"sheng1Ġri4Ġ":11520,"mei3Ġli4Ġ":11521,"qi3Ġshi4Ġ":11522,"bao4Ġfu4Ġ":11523,"fu1Ġsi1Ġji1Ġ":11524,"jiao3ĠdeĠ":11525,"Ġshi4Ġyi2Ġ":11526,"Ġshi2Ġbei4Ġ":11527,"Ġyu2Ġ2017":11528,"Ġyu2Ġ2023":11529,"san1Ġjiao3Ġ":11530,"bo2Ġgen3Ġdi4Ġ":11531,"cai2Ġneng2":11532,"ĠdeĠfu4Ġqin1Ġ":11533,"yan2Ġhai3Ġsheng3Ġfen4Ġ":11534,"4ĠĠĠ":11535,"600":11536,"87Ġnian2Ġ":11537,"Ġhou4Ġyu2Ġ":11538,"ĠĠĠmu4Ġ":11539,"ĠĠĠgai1Ġdi4Ġ":11540,"xiang4Ġhe2Ġ":11541,"xuan3ĠdeĠ":11542,"di2Ġsi1Ġ":11543,"ric":11544,"diao1Ġxiang4Ġ":11545,"Ġgong1Ġli4Ġ":11546,"Ġgong1Ġdian4Ġ":11547,"Ġyi1Ġlu4Ġ":11548,"sheng1Ġren4Ġ":11549,"Ġsi1Ġda4Ġ":11550,"xiang4Ġdong1Ġ":11551,"fu2Ġwu4ĠdeĠ":11552,"ou1Ġmeng2":11553,"ying3Ġxiang3ĠdeĠ":11554,"Ġqi1Ġxi1Ġ":11555,"47Ġ":11556,"Ġte":11557,"ĠĠĠying1Ġguo2Ġ":11558,"huang2Ġshi4Ġ":11559,"hao2Ġwu2Ġ":11560,"lai2Ġyuan2Ġyu2Ġ":11561,"Ġtong2Ġnian2Ġ10Ġyue4Ġ":11562,"tong1Ġxin4":11563,"ye3Ġmei2Ġyou3Ġ":11564,"Ġshe4Ġxian2Ġ":11565,"Ġhuo4Ġwu4Ġ":11566,"guan3Ġli3ĠdeĠ":11567,"guang3Ġdong1":11568,"ling2Ġgan3Ġ":11569,"xin4Ġtu2Ġ":11570,"huo3Ġzai1Ġ":11571,"chong1Ġsheng2":11572,"ĠĠĠ1994Ġnian2Ġ":11573,"ya4Ġmei3Ġni2Ġya4":11574,"hong1Ġzha4Ġji1Ġ":11575,"GB":11576,"Ġjue2":11577,"Ġchao1Ġji2Ġ":11578,"shu4Ġge4Ġ":11579,"you4Ġzai4Ġ":11580,"tui3Ġ":11581,"hen3Ġnan2Ġ":11582,"Ġwei4Ġjing1Ġ":11583,"yi4Ġqi3Ġ":11584,"xi1Ġzang4Ġ":11585,"hua4Ġfen1Ġ":11586,"xiang4Ġnan2Ġ":11587,"Ġqi2Ġfu4Ġ":11588,"xing4Ġge2Ġ":11589,"mo2Ġni3Ġ":11590,"Ġshou3Ġxian1Ġ":11591,"ĠĠĠSta":11592,"zeng1Ġqiang2":11593,"Ġti3Ġyu4Ġ":11594,"a1Ġgen1Ġting2Ġ":11595,"3Ġhao4Ġ":11596,"61Ġ":11597,"angĠ":11598,"Ġzhuan1":11599,"pu3ĠdeĠ":11600,"huan4Ġyou3Ġ":11601,"gei3Ġshi4Ġzhong1Ġ":11602,"Ġshi4Ġyi3":11603,"Ġshi2Ġsi4Ġnian2Ġ":11604,"shu4Ġbai3":11605,"zhe4Ġyang4Ġ":11606,"Ġjin4ĠleĠ":11607,"er4Ġbai3Ġ":11608,"sha1Ġtian2Ġ":11609,"Ġduo1Ġci4Ġ":11610,"gang1Ġqin2Ġ":11611,"qu1ĠdeĠfu4Ġze2Ġguan3Ġxia2Ġ":11612,"zheng3Ġti3":11613,"gong4Ġhe2Ġdang3":11614,"Ġshi4Ġjian4ĠdeĠ":11615,"81":11616,"Ġlian4Ġ":11617,"zhui4":11618,"ĠĠĠtang2Ġ":11619,"qian2Ġwei4Ġ":11620,"jin1Ġri4":11621,"pu3Ġer3Ġ":11622,"kan4Ġjian4Ġ":11623,"gui3Ġdian4Ġ":11624,"Ġshi2Ġjian4Ġ":11625,"Ġji2Ġke3Ġ":11626,"Ġyi3Ġzhi1Ġ":11627,"ji1Ġchang3":11628,"wei2Ġji1Ġbai3Ġ":11629,"fa1Ġdong4":11630,"Ġzhan4Ġtai2Ġ":11631,"ge2Ġlin2Ġ":11632,"xiang3Ġying4Ġ":11633,"tie3Ġlu4ĠdeĠ":11634,"Ġran2Ġhou4Ġzai4Ġ":11635,"pei2Ġyang3Ġ":11636,"ĠIĠ":11637,"Ġao4Ġsi1Ġ":11638,"an1Ġhui1Ġsheng3Ġ":11639,"lyĠĠĠ":11640,"ton":11641,"ĠÙ":11642,"Ġhang2Ġ":11643,"Ġmi2Ġ":11644,"anĠĠĠ":11645,"ĠĠĠke1Ġ":11646,"ĠĠĠte4Ġzheng1Ġ":11647,"du2Ġzi4Ġ":11648,"Ġnian2Ġhou4Ġ":11649,"di4Ġfang1Ġ":11650,"li4Ġshi3":11651,"Ġren2Ġsheng1Ġ":11652,"Ġer3Ġxi1Ġ":11653,"Ġbei4Ġke4Ġ":11654,"na4Ġyang4Ġ":11655,"bian4Ġhua4":11656,"hua2Ġxue3Ġ":11657,"bao1Ġkuo4ĠleĠ":11658,"wan3Ġjian1Ġ":11659,"Ġ1967Ġnian2Ġ":11660,"zhu3Ġjiao4Ġlian4Ġ":11661,"qu1Ġxian4Ġ":11662,"wen2Ġji2Ġ":11663,"gu3Ġcheng2Ġ":11664,"gu3Ġsi1Ġ":11665,"dian3Ġxing2Ġ":11666,"qian1Ġzheng4Ġ":11667,"ban1Ġdao4Ġ":11668,"geng4Ġda4Ġ":11669,"pi1Ġfu4Ġ":11670,"Ġbu4Ġzhi1Ġ":11671,"Ġdi4Ġxing2Ġ":11672,"Ġdi4Ġer4Ġshi2Ġ":11673,"yan2Ġxu4":11674,"mei3Ġguo2Ġzong3Ġtong3Ġ":11675,"bo2Ġlin2":11676,"Ġdang1Ġri4Ġ":11677,"Ġying4Ġ":11678,"Ġju1Ġ":11679,"yi4ĠdeĠshi4Ġ":11680,"leĠyuan2Ġ":11681,"ma3Ġqi2Ġ":11682,"san1Ġguo2Ġ":11683,"ture":11684,"lei1ĠdeĠ":11685,"Ġzhi4Ġjin1":11686,"Ġyou3ĠleĠ":11687,"te4Ġding4ĠdeĠ":11688,"bei3Ġmei3Ġ":11689,"bi4Ġlu3":11690,"ting1Ġzhang3Ġ":11691,"kuang4Ġwu4Ġ":11692,"zhu3Ġjiao4Ġzuo4Ġ":11693,"wu4Ġli3Ġxue2Ġjia1Ġ":11694,"sang4Ġsheng1Ġ":11695,"sheng3Ġdao4Ġtai2Ġ":11696,"af":11697,"Ġshi2Ġnian2Ġ":11698,"ming2Ġzai4Ġ":11699,"xiao3Ġyu2Ġ":11700,"lv3Ġyou2":11701,"Ġshi4Ġyong4Ġyu2Ġ":11702,"Ġda4Ġzheng4Ġ":11703,"Ġchu1Ġsai4Ġ":11704,"bao3Ġan1Ġ":11705,"shu1Ġxie3Ġ":11706,"jian3Ġcheng1Ġ":11707,"huo2Ġxing4Ġ":11708,"du2Ġzhe3Ġ":11709,"jun1Ġguan1Ġ":11710,"en1Ġlai2Ġ":11711,"ha1Ġla1Ġ":11712,"ĠĠĠAn":11713,"ĠĠĠPar":11714,"fa1Ġxing2ĠleĠ":11715,"wan3Ġqi1Ġ":11716,"Ġlu3":11717,"Ġtong3Ġ":11718,"Ġzeng1Ġjia1Ġ":11719,"ji1Ġli4Ġ":11720,"bo1Ġyin1Ġ":11721,"po1Ġer3Ġ":11722,"ĠdeĠgao1Ġ":11723,"Ġwei4Ġcheng2Ġ":11724,"Ġhe2Ġkou3Ġ":11725,"di4Ġer4":11726,"Ġyi1Ġkai1Ġshi3Ġ":11727,"Ġda4Ġge2Ġming4Ġ":11728,"Ġchu1Ġkou3":11729,"Ġyou2Ġtai4Ġren2Ġ":11730,"ti2Ġan4Ġ":11731,"luo4Ġbai4Ġ":11732,"wei1Ġbo2Ġ":11733,"xin4Ġyong4Ġ":11734,"xun2Ġzhao3Ġ":11735,"hu2Ġnan2Ġsheng3Ġ":11736,"diao1Ġsu4Ġ":11737,"jie1Ġshou4ĠleĠ":11738,"a1Ġji1Ġtan3":11739,"1Ġri4":11740,"SM":11741,"oli":11742,"Ġmo":11743,"ersĠ":11744,"zuo4Ġyi3Ġ":11745,"ming4ĠdeĠ":11746,"gao4Ġzhi1Ġ":11747,"Ġji2Ġzhong1Ġzai4Ġ":11748,"Ġcheng2Ġdan1Ġ":11749,"Ġyu3Ġyuan2Ġ":11750,"jiao4Ġtu2Ġ":11751,"fa1Ġhui1Ġ":11752,"zhi3Ġneng2":11753,"huan4Ġxiang3Ġ":11754,"Ġceng2Ġjing1":11755,"kong3Ġlong2Ġ":11756,"Ġguo2Ġjia1Ġgong1Ġyuan2Ġ":11757,"lv3Ġke4Ġtie3Ġdao4Ġ":11758,"MV":11759,"age":11760,"ĠĠĠjiao4Ġyu4Ġ":11761,"tong2Ġxue2Ġ":11762,"jie4Ġxian4Ġ":11763,"na4Ġxi1Ġ":11764,"liang2ĠdeĠ":11765,"Ġshi4Ġfang4Ġ":11766,"ji4Ġzhe3Ġ":11767,"yu3Ġyan2":11768,"Ġji4Ġhou4Ġ":11769,"Ġer2Ġyuan2Ġ":11770,"ren4Ġke3Ġ":11771,"Ġjian4Ġdui4":11772,"ru4Ġyu4Ġ":11773,"chang2Ġgui1Ġ":11774,"chen2Ġmo4Ġ":11775,"Ġjin3Ġci4Ġyu2Ġ":11776,"ge1Ġlun2Ġbi3Ġya4":11777,"fli":11778,"Ġgei3Ġ":11779,"Ġbu2Ġshi4Ġ":11780,"Ġyin4Ġdu4":11781,"Ġchao2Ġxian1":11782,"ĠĠĠshui3Ġ":11783,"zeng1Ġzhi4Ġ":11784,"Ġli4Ġyu2Ġ":11785,"Ġyi1Ġduan4Ġ":11786,"ji1Ġdu1Ġjiao4Ġ":11787,"Ġsi1Ġfa3":11788,"Ġer2Ġyi3Ġ":11789,"zhu4Ġming2":11790,"Ġjun1Ġzhu3Ġ":11791,"deng3Ġdai4Ġ":11792,"si4Ġchuan1":11793,"yan3Ġjing1Ġ":11794,"xiao3Ġshi2Ġhou4Ġ":11795,"Ġhou4Ġzai4Ġ":11796,"ĠĠĠpu3Ġ":11797,"wu3ĠdeĠ":11798,"jiu3Ġyue4Ġ":11799,"Ġshi2Ġshi1":11800,"Ġzhi4Ġci3Ġ":11801,"Ġji2Ġju4Ġ":11802,"Ġda4Ġzhan4Ġ":11803,"zhe4Ġci4Ġ":11804,"suo3Ġzhang3Ġ":11805,"shi1Ġzhang3Ġ":11806,"tian1Ġzhu3Ġjiao4":11807,"bian1Ġqu1Ġ":11808,"huo3Ġpao4Ġ":11809,"Ġxian4ĠdeĠfei1Ġjian4Ġzhi4Ġdi4Ġqu1Ġ":11810,"ju3Ġxing2ĠleĠ":11811,"Ġ1934Ġnian2Ġ":11812,"ĠdeĠyi4ĠsiĠ":11813,"Ġtai2":11814,"jin4Ġdai4Ġ":11815,"hang2Ġxing2Ġ":11816,"Ġjun1Ġdui4":11817,"fen1Ġlan2":11818,"tian1Ġhuang2":11819,"mian4Ġqian2Ġ":11820,"ying1Ġcun4Ġ":11821,"xu3Ġke3":11822,"Ġshi4Ġwei4Ġyu2Ġwu1Ġke4Ġlan2Ġ":11823,"3ĠĠĠ":11824,"gra":11825,"ĠĠĠan1Ġ":11826,"sheng1Ġyi4Ġ":11827,"gao1Ġer3Ġ":11828,"liu2Ġshi4Ġ":11829,"liu2Ġcheng2Ġ":11830,"Ġli4Ġchang3Ġ":11831,"Ġda4Ġda4Ġ":11832,"xiang4Ġliang4Ġ":11833,"Ġzhe4Ġxiang4Ġ":11834,"Ġgai1Ġzhuang1Ġ":11835,"jia4Ġshi3":11836,"cun2Ġchu3Ġ":11837,"jia1Ġru4Ġzhong1Ġguo2Ġgong4Ġchan3Ġdang3Ġ":11838,
[...]
