#version: 0.2
n g
a n
s h
z h
j i
a ng
Ġ Ġ
o ng
x i
a o
a i
d e
e i
sh i
y u
o u
y i
e n
c h
i an
u o
e ng
l i
ĠĠ Ġ
ã Ģ
i ng
u i
w ei
u an
zh i
q i
n ian
zh ong
y ou
r en
u n
z ai
d i
g uo
ãĢ ģ
h e
b u
e r
g ong
xi ng
ch eng
d a
zh u
h u
yu an
s i
ji an
yu e
g e
f u
xi an
u e
k e
w u
ch u
sh u
sh eng
ji e
ji a
b i
d ao
z i
b ei
h ui
f a
xi ang
t i
zh eng
m i
t a
ji n
q u
2 0
t ong
r i
j u
ji ng
m ing
l e
h ou
sh ang
sh ou
d ong
c i
f ang
1 9
hu a
yi n
x ue
g uan
zh an
y e
yi ng
z uo
zh e
y an
m ei
ji ao
g u
ch ang
xi n
d ui
l u
b ing
b ao
f en
d an
h uo
j un
ji ang
d u
xi ao
d ian
y ong
q ian
sh e
t ai
xi a
m u
w en
g ai
zh ang
li ang
y a
r u
d ai
h ai
n an
zh ou
z u
w ang
l ai
b an
ji u
d ang
q ing
p ing
sh en
ãĢ ĭ
ãĢ Ĭ
w an
l ian
li ng
l uo
Â ·
mi n
q uan
p i
n i
b o
d uo
t e
b en
g ao
bi ao
s uo
l a
m a
k ai
b a
xi e
x u
b ian
de ng
y ao
y ang
m ian
zh en
d ing
qi u
z ui
s ai
li u
f an
x uan
f ei
s an
sh an
ch e
z ong
m en
ãĢ Į
ãĢ į
t u
t ian
h ao
s u
l ei
n ei
yu n
20 1
l an
f eng
m o
n a
z e
l v
h an
k ou
w ai
n eng
li n
ch uan
ch i
j ue
b ai
p ai
20 0
k u
c ai
z ao
t ing
zh uan
g ang
li e
gu ang
g ui
l un
s ui
p u
c eng
k ong
sh ui
1 0
ch ao
zhu ang
ch a
d ou
c an
t ou
r an
s e
d uan
c un
h uan
c ong
pi n
c e
ch an
x un
g ou
0 0
n v
zh ao
g an
ch ong
sh a
t an
1 8
qi n
k a
m eng
qi ang
hu ang
xi u
1 2
ti ao
m an
sh ao
k uo
l ong
p ian
sh uo
t uan
t ang
r ong
g eng
20 2
ch en
t ui
g en
q ue
ti e
1 1
qi e
w o
p o
p ei
h ang
h ong
19 9
b ang
li ao
chu ang
bi e
r e
t uo
t ao
s ong
w a
m ai
h a
1 5
p an
d un
di ao
qi ao
s a
m ao
l ang
k an
k ang
â Ģ
o r
l ao
z eng
1 6
19 8
k ao
xi ong
1 7
o n
n uo
mi ao
r ang
ku ang
h en
s uan
1 4
3 0
zh un
1 3
19 4
c ao
h un
q un
n ong
19 7
h eng
shu ang
l ou
g ei
ku ai
pi ao
zh a
h ei
ni u
19 5
s en
bi n
r eng
z ou
19 6
ch un
k uan
2 5
âĢ Ķ
r ui
s un
p ao
n ing
f or
p a
c ang
m ou
2 4
p eng
hu ai
2 1
19 3
2 3
mu la
for mula
2 8
z an
r uo
i n
2 2
ch ou
zh ui
a r
m e
2 6
5 0
20 20
2 7
n ai
n u
ï ¼
2 9
sh un
201 0
z a
00 0
lv e
zh ai
20 19
n e
r o
j uan
s t
r a
c ui
k un
201 6
l uan
201 8
c uo
202 1
z ang
201 4
shu ai
201 1
201 5
201 7
201 2
4 0
201 3
n ao
202 2
di e
r uan
k ui
l t
r ou
c u
s ang
200 9
200 8
ã ĥ
6 0
ni ao
a l
r ao
ch ai
10 0
zh uo
202 3
g t
s ou
19 0
3 1
k en
200 7
200 1
t eng
p ang
f ou
c o
f o
gu a
200 0
8 0
200 6
202 4
ã ģ
200 5
z un
ti on
ku a
t he
3 5
7 0
ni e
l o
o f
9 0
l eng
ï¼ į
ã Ĥ
a m
t un
t er
mi e
200 4
t h
t o
4 5
4 8
m ang
202 5
v e
g a
ãĢ ī
ãĢ Ī
3 6
3 8
200 3
3 7
M a
ch ui
p en
l l
18 9
I N
200 2
k eng
T C
d o
3 4
7 5
âĢ ĵ
C o
4 6
c a
199 0
âĢ ¦
c k
3 9
. .
b e
6 5
3 2
S T
4 7
U TC
199 9
199 8
198 0
18 8
5 00
3 3
I n
6 4
s s
T he
v i
S E
5 5
199 7
R e
h i
4 9
I I
e l
6 8
e t
4 4
199 6
o o
qi ong
199 4
g un
b r
gu ai
199 2
199 5
M i
6 7
an d
s ao
e s
199 1
197 0
5 8
195 0
3 00
199 3
18 7
194 9
a t
A T
p e
196 0
4 2
194 5
L i
v er
qi a
198 8
t y
198 9
6 9
R o
i s
r un
SE E
ni ang
IN SEE
h o
5 9
4 3
6 6
5 7
198 5
9 9
S A
ãĢ İ
ãĢ ı
c t
198 4
4 1
8 8
198 6
w i
o l
w s
T V
r y
15 0
M e
n d
4 00
198 7
7 8
198 2
5 6
b eng
V i
P a
t s
198 3
am p
N A
D e
C D
g h
f i
w eng
b er
7 7
W in
p er
z uan
S ta
7 9
O S
W i
Â °
ï ½
de r
18 0
B C
5 4
197 9
6 1
19 20
a s
M o
s eng
9 8
5 2
Y ou
197 8
n o
6 2
5 3
l y
shu a
L a
ï½ ŀ
B A
194 6
C O
5 1
195 8
g i
J o
198 1
197 2
194 8
L e
t w
A M
6 3
A R
c tion
194 1
B S
G a
19 30
D a
P ro
T e
7 6
han s
194 0
193 7
197 6
194 4
J a
8 9
u s
D i
Win do
197 5
ï¼ ı
196 8
h k
c on
F i
u m
S i
10 00
Windo ws
9 5
8 7
na l
M ar
196 6
r d
8 5
N e
R a
k i
6 00
1 20
194 7
S e
A C
195 6
196 4
B e
194 2
Ã ©
195 5
195 2
I S
a d
193 9
193 8
7 2
u r
7 4
C a
v a
197 3
197 4
195 4
A r
A l
E D
19 00
- -
A P
194 3
T o
197 7
l d
197 1
c en
la y
196 7
B a
I C
8 00
P o
L o
E R
zhu a
s ta
8 6
195 9
B o
t t
196 5
J R
196 9
F a
ãĥ »
Ã Ĺ
I D
B i
s on
193 6
16 0
9 7
195 3
S a
M A
196 2
196 1
n en
N a
â Ķ
S o
193 5
co m
H o
ti c
9 6
O N
ï¼ ħ
195 1
S t
195 7
196 3
T u
âĶ Ģ
f e
s o
shi Ġ
de Ġ
Ġ shiĠ
Ġ deĠ
yi Ġ
Ġ yiĠ
ji Ġ
wei Ġ
zhi Ġ
yu Ġ
Ġ weiĠ
Ġ jiĠ
Ġ nian
Ġ zhiĠ
Ġ yuĠ
Ġ li
Ġnian Ġ
zhong Ġ
Ġli Ġ
zai Ġ
ren Ġ
you Ġ
guo Ġ
he Ġ
qi Ġ
bu Ġ
di Ġ
Ġ youĠ
Ġ zaiĠ
Ġ renĠ
Ġ yue
Ġ zhongĠ
Ġ heĠ
da Ġ
xi Ġ
xing Ġ
yuan Ġ
er Ġ
gong Ġ
Ġyue Ġ
fu Ġ
si Ġ
ge Ġ
jian Ġ
Ġ guoĠ
wu Ġ
jia Ġ
Ġ buĠ
jie Ġ
ke Ġ
cheng Ġ
zhu Ġ
sheng Ġ
xiang Ġ
xian Ġ
dao Ġ
bei Ġ
zi Ġ
Ġ qiĠ
fa Ġ
hui Ġ
chu Ġ
jin Ġ
Ġ diĠ
shu Ġ
Ġ erĠ
ri Ġ
Ġ xiĠ
ju Ġ
qu Ġ
zheng Ġ
hou Ġ
shou Ġ
ming Ġ
shang Ġ
dong Ġ
le Ġ
ta Ġ
jing Ġ
xue Ġ
fang Ġ
yan Ġ
zhan Ġ
ci Ġ
bao Ġ
hua Ġ
ying Ġ
ye Ġ
tong Ġ
zuo Ġ
zhe Ġ
guan Ġ
Ġ daĠ
Ġ riĠ
yin Ġ
chang Ġ
xin Ġ
jiao Ġ
lu Ġ
dui Ġ
wen Ġ
ti Ġ
fen Ġ
qian Ġ
tai Ġ
jiang Ġ
xiao Ġ
bing Ġ
Ġ siĠ
jun Ġ
dian Ġ
zhang Ġ
ping Ġ
xia Ġ
du Ġ
huo Ġ
yong Ġ
dan Ġ
Ġ keĠ
Ġ jiaĠ
hai Ġ
gai Ġ
wang Ġ
dai Ġ
nan Ġ
ru Ġ
qing Ġ
mu Ġ
bi Ġ
ban Ġ
liang Ġ
lai Ġ
mei Ġ
ya Ġ
shen Ġ
zu Ġ
Ġ xingĠ
Ġ fuĠ
wan Ġ
she Ġ
lian Ġ
min Ġ
mi Ġ
zhou Ġ
an Ġ
jiu Ġ
qiu Ġ
zhen Ġ
ben Ġ
xu Ġ
gao Ġ
bo Ġ
Ġ taĠ
xie Ġ
te Ġ
bian Ġ
ling Ġ
luo Ġ
yao Ġ
deng Ġ
duo Ġ
yang Ġ
quan Ġ
che Ġ
suo Ġ
zui Ġ
tian Ġ
gu Ġ
biao Ġ
fan Ġ
hu Ġ
yun Ġ
xuan Ġ
su Ġ
shan Ġ
fei Ġ
ding Ġ
liu Ġ
zong Ġ
sai Ġ
dang Ġ
ma Ġ
kai Ġ
ba Ġ
hao Ġ
ĠdeĠ yiĠ
Ġ bingĠ
Ġ daoĠ
feng Ġ
kou Ġ
tu Ġ
mian Ġ
men Ġ
nei Ġ
la Ġ
lei Ġ
san Ġ
cai Ġ
wai Ġ
chuan Ġ
jue Ġ
pai Ġ
chi Ġ
Ġ danĠ
Ġ jinĠ
Ġ beiĠ
Ġ gongĠ
Ġ jianĠ
guang Ġ
ĠshiĠ yiĠ
lan Ġ
ni Ġ
gui Ġ
bai Ġ
Ġ ziĠ
lin Ġ
ting Ġ
Ġ zheĠ
pu Ġ
Ġ xiangĠ
na Ġ
gang Ġ
lun Ġ
neng Ġ
han Ġ
lie Ġ
ze Ġ
Ġ zhuĠ
cheng ĠweiĠ
mo Ġ
Ġ yinĠ
Ġ geĠ
Ġ xianĠ
Ġ chuĠ
ĠshiĠ deĠ
mei ĠguoĠ
chan Ġ
shui Ġ
Ġ juĠ
Ġ chengĠ
ĠdeĠ shiĠ
Ġ jieĠ
Ġ gaiĠ
Ġ wuĠ
sui Ġ
xun Ġ
zhuan Ġ
Ġ baoĠ
lv Ġ
Ġ pingĠ
Ġ ta
e Ġ
ao Ġ
li Ġ
zhuang Ġ
tou Ġ
duan Ġ
1 Ġ
ĠyiĠ jiĠ
se Ġ
huan Ġ
chong Ġ
ĠweiĠ yuĠ
ceng Ġ
pin Ġ
a Ġ
cong Ġ
cha Ġ
di ĠyiĠ
cun Ġ
dou Ġ
zao Ġ
Ġ houĠ
kong Ġ
zhao Ġ
gou Ġ
2 Ġ
gan Ġ
sha Ġ
Ġ ciĠ
qiang Ġ
ce Ġ
ĠshiĠ jiĠ
chao Ġ
ai Ġ
meng Ġ
kai ĠshiĠ
man Ġ
Ġ yeĠ
tang Ġ
long Ġ
kuo Ġ
Ġ dan
ke ĠyiĠ
Ġ faĠ
ĠyiĠ geĠ
Ġ yuanĠ
tan Ġ
tuan Ġ
Ġ shengĠ
ĠshiĠ weiĠ
ka Ġ
gong ĠliĠ
ĠzhongĠ guoĠ
qin Ġ
Ġ tong
tie Ġ
ĠshiĠ shiĠ
Ġ bing
zhengĠ fuĠ
Ġ mingĠ
shao Ġ
can Ġ
pian Ġ
Ġ you
huo ĠdeĠ
mian ĠjiĠ
hang Ġ
hong Ġ
geng Ġ
Ġ huoĠ
ji ĠdeĠ
ĠshiĠ yongĠ
tiao Ġ
xiu Ġ
chen Ġ
shuo Ġ
pi Ġ
3 Ġ
Ġ dongĠ
ren ĠweiĠ
ĠshiĠ jianĠ
tao Ġ
zhi ĠyiĠ
ran Ġ
zhong ĠdeĠ
zheng ĠzhiĠ
huang Ġ
ĠyiĠ zhiĠ
ĠshiĠ jieĠ
zhongĠ guoĠ
yue Ġ
chuang Ġ
nv Ġ
qu ĠdeĠ
guo ĠjiĠ
Ġ ri
yi ĠshiĠ
ĠpingĠ fangĠ
wo Ġ
renĠ kouĠ
xing ĠdeĠ
po Ġ
ou Ġ
jinĠ xingĠ
rong Ġ
Ġ shouĠ
liao Ġ
tuo Ġ
diao Ġ
mei ĠyouĠ
song Ġ
Ġli ĠdeĠ
nian Ġ
Ġ suiĠ
Ġli ĠshiĠ
Ġ dang
ĠweiĠ yuanĠ
pei Ġ
pan Ġ
ĠqiĠ zhongĠ
Ġ miĠ
Ġ fenĠ
zuo ĠweiĠ
gongĠ siĠ
fa ĠguoĠ
biao ĠshiĠ
Ġ haoĠ
ĠĠĠ zaiĠ
Ġ wanĠ
yanĠ jiuĠ
Ġ er
zheng ĠshiĠ
Ġ haiĠ
Ġ yin
Ġ shangĠ
ĠdeĠ jiĠ
tui Ġ
que Ġ
Ġ zhe
dian ĠshiĠ
yunĠ dongĠ
Ġ xinĠ
qie Ġ
bang Ġ
Ġ meiĠ
ĠdeĠ diĠ
Ġ taiĠ
cheng ĠshiĠ
zhi ĠshiĠ
Ġ jiangĠ
Ġ jingĠ
Ġ shuĠ
jian ĠdeĠ
ta ĠdeĠ
gong ĠheĠ
shu ĠyuĠ
she ĠjiĠ
lang Ġ
Ġ qianĠ
ĠrenĠ minĠ
dun Ġ
ĠrenĠ kouĠ
zhi ĠdeĠ
qiao Ġ
10 ĠyueĠ
12 ĠyueĠ
ĠdeĠ zhiĠ
jing ĠjiĠ
7 ĠyueĠ
dianĠ yingĠ
Ġ yingĠ
Ġ xiaĠ
Ġ nanĠ
zu ĠzhiĠ
9 ĠyueĠ
Ġ muĠ
Ġ zhangĠ
8 ĠyueĠ
zhu ĠyiĠ
4 Ġ
3 ĠyueĠ
Ġ zuiĠ
1 ĠyueĠ
mao Ġ
ĠshiĠ qiĠ
daiĠ biaoĠ
wa Ġ
riĠ benĠ
5 Ġ
s Ġ
ying ĠguoĠ
5 ĠyueĠ
you ĠyiĠ
ji ĠshiĠ
kao Ġ
6 ĠyueĠ
re Ġ
guo ĠdeĠ
kan Ġ
4 ĠyueĠ
ĠshiĠ zhenĠ
Ġ huiĠ
hen Ġ
mai Ġ
xian ĠdeĠ
wei ĠyiĠ
11 ĠyueĠ
cheĠ zhanĠ
jiao ĠyuĠ
gen ĠjuĠ
Ġ tongĠ
buĠ fenĠ
yi ĠdeĠ
daĠ xueĠ
yu ĠshiĠ
Ġ biĠ
xiangĠ gangĠ
ming ĠweiĠ
xueĠ yuanĠ
ĠdeĠ guoĠ
ĠyiĠ yuanĠ
li ĠshiĠ
ĠdeĠyiĠ geĠ
ĠzhiĠ houĠ
Ġ ruĠ
dan ĠrenĠ
gen Ġ
ĠnianĠ 1ĠyueĠ
can ĠjiaĠ
Ġ dengĠ
ĠyiĠ weiĠ
cao Ġ
kang Ġ
sheĠ huiĠ
xian ĠshiĠ
Ġ tiĠ
ĠdiĠ quĠ
sa Ġ
Ġ qingĠ
yingĠ xiangĠ
taiĠ wanĠ
s ĠĠĠ
shu ĠdeĠ
Ġ ran
bie Ġ
Ġyou ĠyuĠ
shang ĠdeĠ
xing ĠshiĠ
ye ĠshiĠ
qi ĠshiĠ
ĠyinĠ ciĠ
formula Ġ
guan ĠliĠ
lao Ġ
Ġ yanĠ
zeng Ġ
gongĠ zuoĠ
tong ĠguoĠ
le ĠyiĠ
Ġ xueĠ
ĠnianĠ 12ĠyueĠ
6 Ġ
Ġ xiaoĠ
Ġ lingĠ
xingĠ zhengĠ
bu ĠdeĠ
gongĠheĠ guoĠ
wei ĠshiĠ
ĠliĠ yaĠ
er ĠshiĠ
Ġnian ĠdeĠ
ren ĠdeĠ
zhun Ġ
zi ĠjiĠ
da ĠdeĠ
xiong Ġ
2 ĠyueĠ
ĠguoĠ jiaĠ
zui ĠzhongĠ
ĠnianĠ 3ĠyueĠ
hui ĠyiĠ
kuang Ġ
ĠĠĠ shengĠ
nong Ġ
cheng ĠliĠ
ĠpingĠfangĠ gongĠliĠ
Ġ liangĠ
luo ĠsiĠ
ku Ġ
ĠnianĠ 7ĠyueĠ
Ġ jiaoĠ
ĠnianĠ 10ĠyueĠ
faĠ xianĠ
chu ĠdeĠ
miao Ġ
ha Ġ
Ġ wangĠ
Ġ zhanĠ
ĠbaoĠ kuoĠ
qi ĠdeĠ
faĠ zhanĠ
ĠnianĠ 9ĠyueĠ
Ġ C
hei Ġ
yuan ĠdeĠ
ĠshiĠ youĠ
ĠshiĠ zhiĠ
qiĠ taĠ
ĠnianĠ 5ĠyueĠ
ĠqiĠ jianĠ
piao Ġ
kuai Ġ
suo ĠyouĠ
si ĠdeĠ
Ġ boĠ
Ġ tianĠ
ĠnianĠ 4ĠyueĠ
ĠnianĠ 6ĠyueĠ
en Ġ
ĠnianĠ 8ĠyueĠ
you ĠyuĠ
tieĠ luĠ
ĠdaĠ xueĠ
quan ĠguoĠ
ĠshiĠ zaiĠ
dao ĠzhiĠ
Ġ luoĠ
dao ĠdeĠ
tong ĠdeĠ
zhuĠ yaoĠ
cheng ĠdeĠ
can ĠyuĠ
lou Ġ
nuo Ġ
shuang Ġ
Ġ 19
wenĠ huaĠ
Ġ zhengĠ
Ġ maĠ
Ġ huaĠ
di ĠliĠ
zhong ĠyiĠ
ĠtaĠ menĠ
Ġ duiĠ
lian ĠheĠ
di ĠdeĠ
ĠzhiĠ daoĠ
Ġ luĠ
ĠnianĠ 11ĠyueĠ
baoĠ kuoĠ
Ġ dangĠ
Ġtong ĠshiĠ
Ġ guĠ
Ġ shenĠ
bu ĠshiĠ
ĠĠĠ S
ĠzhongĠ xinĠ
yin ĠyueĠ
ĠĠĠ shiĠ
bei ĠbuĠ
sen Ġ
shu ĠjiĠ
yong ĠyuĠ
Ġ jiuĠ
ĠĠĠ yiĠ
tiĠ gongĠ
zai ĠyiĠ
Ġ quanĠ
xuan ĠbuĠ
guoĠ jiaĠ
Ġ zongĠ
ĠweiĠyuanĠ huiĠ
zuĠ qiuĠ
wenĠ tiĠ
Ġnian ĠzhiĠ
Ġ sui
kuan Ġ
xueĠ xiaoĠ
Ġyin ĠweiĠ
sheng ĠyuĠ
ĠshiĠ wuĠ
jian ĠyuĠ
zi ĠyouĠ
Ġ zuoĠ
qianĠ miĠ
Ġ A
gong ĠyouĠ
guan ĠxiĠ
fang ĠshiĠ
ĠweiĠ zhiĠ
ĠshiĠ zhongĠ
hun Ġ
ĠnianĠ 2ĠyueĠ
Ġ xuĠ
biĠ saiĠ
hua ĠrenĠminĠ
chengĠ yuanĠ
ying ĠdeĠ
rang Ġ
jianĠ zhuĠ
huoĠ dongĠ
jian ĠliĠ
Ġ gai
heng Ġ
suan Ġ
yu ĠyiĠ
t Ġ
ĠĠĠ liĠshiĠ
ji ĠyiĠ
fen ĠweiĠ
ĠdeĠ renĠ
zuoĠ pinĠ
she ĠyouĠ
ren ĠshiĠ
tong ĠshiĠ
guanĠ junĠ
Ġ dianĠ
Ġ S
Ġ benĠ
Ġ changĠ
ĠĠĠ C
da ĠliĠ
ge ĠrenĠ
ĠĠĠshengĠ pingĠ
Ġ chengĠweiĠ
zhuan ĠjiĠ
Ġ anĠ
Ġ jie
yu ĠdeĠ
ĠdiĠ erĠ
beiĠ jingĠ
Ġ xian
ĠjiĠ huaĠ
ĠyouĠ xiĠ
jiu ĠshiĠ
xiao ĠshiĠ
Ġ liuĠ
huaĠrenĠminĠ gongĠheĠguoĠ
yin ĠweiĠ
Ġta ĠdeĠ
Ġ baĠ
men ĠdeĠ
Ġli ĠyuĠ
qun Ġ
ĠnianĠ daiĠ
dui ĠyuĠ
Ġ aĠ
xi ĠdeĠ
ming ĠdeĠ
jun ĠshiĠ
di ĠshiĠ
tong ĠyiĠ
Ġ congĠ
gei Ġ
diĠ erĠ
xin ĠdeĠ
xueĠ jiaĠ
qu ĠyuĠ
ĠbuĠ fenĠ
eĠ luoĠsiĠ
zou Ġ
t ĠĠĠ
taĠ menĠ
er ĠdeĠ
chun Ġ
Ġ duoĠ
wei ĠdeĠ
shouĠ daoĠ
min ĠguoĠ
hou ĠdeĠ
sheng ĠdeĠ
lai ĠdeĠ
fangĠ mianĠ
faĠ shengĠ
zhengĠ fu
gong ĠjiĠ
dan ĠweiĠ
xing ĠweiĠ
ĠshiĠ renĠ
ĠyiĠ jingĠ
Ġ fengĠ
yong ĠyouĠ
Ġ huĠ
Ġ fanĠ
Ġ 18
zhong ĠshiĠ
jin ĠshiĠ
ĠxiĠ tongĠ
jueĠ dingĠ
bu ĠyuĠ
ĠzhongĠ yangĠ
ju ĠyouĠ
Ġ lianĠ
Ġ mianĠjiĠ
1 ĠriĠ
tong ĠzhiĠ
Ġ quĠ
diĠ quĠ
niĠ yaĠ
liangĠ geĠ
faĠ xingĠ
7 Ġ
qu ĠweiĠ
ĠriĠ benĠ
Ġ guanĠ
Ġ feiĠ
Ġ gaoĠ
you ĠdeĠ
chuĠ xianĠ
sheng ĠjiĠ
ĠĠĠ A
Ġ wenĠ
Ġ teĠ
zh Ġ
hua ĠdeĠ
ĠrenĠkouĠ miĠ
ci ĠshiĠ
Ġ 15
qi ĠyuĠ
zi ĠzhiĠ
wu ĠdeĠ
juĠ xingĠ
laiĠ ziĠ
Ġta ĠzaiĠ
ling ĠyiĠ
jia ĠdeĠ
Ġ suoĠ
ĠjiĠ yuĠ
xian ĠzhiĠ
ĠweiĠ jiĠ
mianĠjiĠ weiĠ
Ġ suo
hui ĠdeĠ
Ġ suĠ
baoĠ huĠ
Ġ sanĠ
nan ĠbuĠ
du ĠliĠ
ĠpingĠfangĠ qianĠmiĠ
shuĠ juĠ
kong ĠzhiĠ
ĠshiĠ yuĠ
zongĠ tongĠ
jinĠ ruĠ
ĠshiĠweiĠ yuĠ
ĠliĠ ruĠ
renĠ wuĠ
qu ĠshiĠ
ke ĠliĠ
yaoĠ qiuĠ
mou Ġ
Ġ 0
8 Ġ
Ġ woĠ
Ġ meiĠguoĠ
gt Ġ
Ġ gtĠ
gu ĠshiĠ
ĠĠĠ deĠ
cheng ĠjiĠ
Ġ a
Ġran ĠerĠ
d ĠĠĠ
Ġ guangĠ
lt Ġ
Ġ ru
xueĠ shengĠ
ĠĠĠ yuĠ
jin ĠdeĠ
Ġdan ĠshiĠ
wanĠ chengĠ
Ġ bianĠ
minĠ zhuĠ
gong ĠshiĠ
ĠyiĠ qiĠ
lieĠ cheĠ
Ġ P
you ĠjiĠ
keĠ nengĠ
Ġ caiĠ
Ġ ltĠ
ĠyiĠ buĠ
Ġ 16
shen ĠzhiĠ
Ġbing ĠyuĠ
zha Ġ
ren ĠzhiĠ
pingĠ fangĠ
you ĠshiĠ
Ġbing ĠzaiĠ
ĠjiĠ shuĠ
chao ĠguoĠ
ti ĠyuĠ
Ġ yongĠ
yuan ĠshiĠ
cang Ġ
cun ĠzaiĠ
qianĠ wangĠ
ke ĠdeĠ
ya ĠliĠ
dang ĠshiĠ
si ĠshiĠ
xue ĠxiĠ
yong ĠdeĠ
ĠdeĠyiĠ ge
jing ĠguoĠ
nei ĠdeĠ
fa ĠbuĠ
zuo ĠdeĠ
ĠzhiĠ weiĠ
Ġ shanĠ
Ġ ceng
jian ĠyiĠ
guan ĠyuĠ
Ġ hanĠ
Ġ wan
Ġ B
wuĠ keĠ
ĠĠĠ diĠ
xiangĠ gang
wu ĠshiĠ
zhu ĠrenĠ
ĠzhiĠ jianĠ
yinĠ duĠ
Ġ puĠ
Ġ kaiĠ
zhan ĠshiĠ
zhanĠ zhengĠ
ĠqiĠ taĠ
guo ĠshiĠ
sun Ġ
pao Ġ
Ġ ba
zhuĠ yao
shengĠ huoĠ
zhou ĠdeĠ
xuĠ duoĠ
jian ĠzhiĠ
ĠjiĠ weiĠ
Ġ gongĠliĠ
fan ĠweiĠ
ĠyiĠ shuĠ
ĠjiĠ qiĠ
ĠweiĠ erĠ
bin Ġ
chengĠ gongĠ
han ĠguoĠ
Ġ 17
ouĠ zhouĠ
zhuĠ xiĠ
lu ĠdeĠ
fuĠ wuĠ
jieĠ shouĠ
qiuĠ duiĠ
ĠzhiĠ youĠ
Ġ shuĠyuĠ
daiĠ biao
ĠjiĠ zhongĠ
Ġ zai
Ġ jin
zeng ĠjiaĠ
ĠbuĠ guoĠ
ban ĠdeĠ
gongĠ yuanĠ
ĠyouĠ xianĠ
Ġ M
xiaoĠ xingĠ
Ġ 000
Ġ moĠ
xia ĠdeĠ
ĠĠĠ gaiĠ
ĠzheĠ xieĠ
shangĠ haiĠ
ĠzhiĠ chuĠ
he ĠyiĠ
duo ĠdeĠ
Ġ aoĠ
ĠĠĠ P
hou ĠyiĠ
san ĠshiĠ
ĠĠĠ zhiĠ
Ġ baiĠ
ĠciĠ waiĠ
fu ĠdeĠ
ju ĠliĠ
si ĠjiĠ
Ġ H
zuĠ chengĠ
huai Ġ
Ġ genĠjuĠ
ning Ġ
yunĠdongĠ yuanĠ
jiaoĠ tongĠ
ĠzhiĠ zuoĠ
ĠzhiĠ chiĠ
y Ġ
Ġ E
ma ĠweiĠ
gaoĠ duĠ
chang ĠdeĠ
ĠnianĠ qiĠ
m Ġ
zhuĠ jiaoĠ
Ġ zhĠ
Ġ D
zheĠ xieĠ
niu Ġ
d Ġ
ge ĠzhongĠ
xuĠ yaoĠ
ĠzhiĠ wuĠ
Ġ ãĥ
ĠzaiĠ ciĠ
jueĠ seĠ
chongĠ xinĠ
chuĠ leĠ
y ĠĠĠ
ti ĠdeĠ
tui ĠchuĠ
Ġli ĠjiĠ
zheĠ geĠ
jing ĠliĠ
Ġ cengĠ
xiang ĠdeĠ
Ġ zuiĠzhongĠ
gongĠ chengĠ
Ġdang ĠshiĠ
n Ġ
qi ĠyiĠ
da ĠshiĠ
chu ĠyuĠ
ĠrenĠ heĠ
wu ĠzhongĠ
du ĠweiĠ
renĠ minĠ
zi ĠdeĠ
Ġ T
xuanĠ juĠ
Ġ ai
Ġ sheĠ
lianĠ saiĠ
ĠĠĠ diĠliĠ
ziĠ jiĠdeĠ
kaiĠ faĠ
ĠweiĠ leĠ
ĠrenĠ wuĠ
geĠ quĠ
Ġ ye
ĠnianĠ jianĠ
Ġ duĠ
dang ĠdiĠ
Ġ huo
fuĠ zeĠ
Ġ ma
xian ĠzaiĠ
ĠweiĠ qiĠ
gongĠ chanĠ
ĠĠĠ weiĠ
ĠzhiĠ yuĠ
ĠrenĠ yuanĠ
zhe ĠyiĠ
Ġ laiĠ
liang ĠweiĠ
jieĠ shuĠ
ya ĠdeĠ
chu ĠliĠ
jieĠ muĠ
guan ĠdeĠ
nv ĠziĠ
sai ĠshiĠ
Ġ leiĠ
2010 ĠnianĠ
ding ĠdeĠ
rui Ġ
dui ĠdeĠ
fanĠ yingĠ
Ġ 1
riĠ ben
ĠhouĠ laiĠ
chuĠ banĠ
jie ĠdeĠ
chanĠ shengĠ
shouĠ ciĠ
juan Ġ
she ĠshiĠ
lei ĠsiĠ
ĠshiĠyiĠ geĠ
ba ĠshiĠ
dongĠ wuĠ
Ġ G
jing ĠshiĠ
ĠjiĠ xuĠ
le ĠbuĠ
jie ĠshiĠ
Ġ zuĠ
xiang ĠshiĠ
Ġ banĠ
Ġ naĠ
bo ĠshiĠ
an ĠdeĠ
keĠ neng
ruo Ġ
nanĠ ziĠ
du ĠdeĠ
guanĠ xiaĠ
san ĠnianĠ
Ġ aiĠ
zao ĠchengĠ
hai ĠshiĠ
yang ĠdeĠ
dong ĠshiĠ
Ġ mei
Ġ jiang
she ĠliĠ
10 Ġ
Ġ 1Ġ
yanĠ jiu
Ġ yangĠ
zhong ĠzhiĠ
daoĠ leĠ
shan ĠxiĠ
guo ĠyiĠ
9 Ġ
ĠjiĠ zhiĠ
Ġsuo ĠyiĠ
zhong ĠyuĠ
fen ĠbuĠ
nv ĠxingĠ
ĠheĠ zuoĠ
Ġ zhenĠ
dou ĠshiĠ
Ġ yaĠ
jun ĠdeĠ
guo ĠyuĠ
ĠĠĠ qiĠ
dong ĠdeĠ
lianĠ mengĠ
dai ĠdeĠ
zheng ĠdeĠ
fangĠ faĠ
ĠzhiĠ zhiĠ
Ġ 14
2020 ĠnianĠ
caiĠ yongĠ
ĠyiĠ siĠ
jiaoĠ shouĠ
wu ĠliĠ
xiangĠ muĠ
fang ĠdeĠ
meiĠ pingĠfangĠ
zhengĠzhiĠ renĠwuĠ
di ĠweiĠ
liang ĠdeĠ
ĠzaiĠ diĠ
Ġ cong
ĠĠĠ renĠkouĠ
Ġ tuĠ
chuanĠ tongĠ
yuan ĠyuĠ
zhan ĠdeĠ
zhu ĠdeĠ
Ġ ãĤ
huaĠ minĠguoĠ
ĠĠĠ youĠ
xiĠ tongĠ
cheng ĠrenĠ
A Ġ
ĠĠĠ B
Ġ ãģ
jiaĠ ruĠ
fa ĠdeĠ
ge ĠshiĠ
2001 ĠnianĠ
ĠĠĠ G
Ġnian ĠyiĠ
yanĠ yuanĠ
xinĠ wenĠ
Ġ daiĠ
Ġ ranĠ
hao ĠdeĠ
Ġ guiĠ
Ġ zeĠ
ĠliĠ siĠ
ĠjiĠ jiĠ
fu ĠshiĠ
ĠyiĠ huiĠ
ĠĠĠ jiĠ
xiangĠ guanĠ
ying ĠyuĠ
dao ĠshiĠ
bianĠ maĠweiĠ
bei ĠrenĠ
taiĠ wan
he ĠshiĠ
ĠjiĠ luĠ
ĠĠĠ M
Ġ xuanĠ
ĠtaĠ men
boĠ wuĠ
xue ĠdeĠ
hou ĠzaiĠ
lianĠ jieĠ
ĠweiĠ fuĠ
ĠdeĠyiĠge ĠshiĠzhenĠ
ĠyiĠ yiĠ
Ġri ĠzaiĠ
ĠxueĠ mingĠ
tiĠ chuĠ
mingĠ chengĠ
xi ĠjiĠ
zui ĠjiaĠ
ĠxiĠ yaĠ
mu ĠsiĠ
baoĠ kuo
er ĠnianĠ
ling ĠshiĠ
Ġzhe ĠshiĠ
xiao ĠdeĠ
hai ĠyouĠ
mian ĠdeĠ
ĠweiĠ zhuĠ
ĠrenĠkouĠmiĠ duĠ
ge ĠdeĠ
Ġli ĠyiĠ
ĠzhiĠ jieĠ
zuiĠ gaoĠ
Ġ laĠ
Ġ xieĠ
dong ĠjiĠ
Ġ zong
ĠĠĠ H
ĠĠĠ jiaĠ
ĠĠĠ T
ĠshiĠyiĠ zhongĠ
Ġ yeĠshiĠ
bei ĠshiĠ
yan ĠdeĠ
xia ĠjiĠ
Ġ yuĠshiĠ
ye ĠyuĠ
geĠ mingĠ
Ġ zhouĠ
ĠnianĠ zaiĠ
yao ĠdeĠ
gai ĠweiĠ
ĠgongĠ siĠ
ĠyiĠ xieĠ
zai ĠdeĠ
haiĠ junĠ
shu ĠshiĠ
Ġ ci
jia ĠzhiĠ
Ġ Ð
Ġ fangĠ
zhe ĠzhongĠ
shengĠ wuĠ
chang ĠshiĠ
hui ĠshiĠ
yan ĠzhongĠ
gai ĠguoĠ
na ĠdaĠ
Ġ kaĠ
zhu ĠshiĠ
luan Ġ
zheng ĠyiĠ
bian ĠdeĠ
Ġ qiuĠ
qingĠ kuang
ke ĠjiĠ
huiĠ fuĠ
ĠzhiĠ qianĠ
Ġ N
chou Ġ
Ġ liang
zai ĠyuĠ
meiĠ tiĠ
minĠ zuĠ
xin ĠxiĠ
zhai Ġ
Ġ F
jie ĠguoĠ
ĠyiĠ zhongĠ
Ġ junĠ
gao ĠdeĠ
wenĠ wuĠ
Ġ 2Ġ
Ġ zuoĠweiĠ
Ġ 2
Ġ 3
jian ĠshiĠ
qi ĠzhiĠ
ĠjiĠ zaiĠ
yanĠ changĠ
shui ĠyuĠ
qian ĠdeĠ
he ĠdeĠ
zhuĠ jianĠ
Ġ niĠ
fanĠ duiĠ
neng ĠliĠ
ĠweiĠ youĠ
ĠkeĠ siĠ
Ġ 12
ĠĠĠ xingĠzhengĠ
gongĠ kaiĠ
ge ĠliĠ
hua ĠshiĠ
ĠbuĠ tongĠ
xing ĠzhiĠ
3 ĠnianĠ
si ĠyuĠ
lei ĠdeĠ
ĠzhuĠ yaoĠ
Ġ chongĠ
jieĠ gouĠ
huanĠ jingĠ
jiangĠ junĠ
zhang ĠdeĠ
xian ĠyuĠ
Ġ keĠyiĠ
gaoĠ suĠ
ĠxiangĠ gangĠ
chuangĠ zuoĠ
shangĠ yeĠ
zan Ġ
ĠĠĠ benĠ
Ġ K
peng Ġ
ĠĠĠ formulaĠ
sai ĠjiĠ
ĠzheĠ geĠ
mo ĠshiĠ
a ĠerĠ
Ġ I
Ġ mi
zhe ĠdeĠ
biaoĠ xianĠ
Ġ diĠyiĠ
tong ĠjiĠ
ĠzhongĠ huaĠrenĠminĠgongĠheĠguoĠ
junĠ duiĠ
Ġ ling
Ġli ĠweiĠ
daĠ luĠ
Ġ chenĠ
shengĠ yaĠ
zhu ĠliĠ
ge ĠyueĠ
sheng ĠliĠ
Ġ hongĠ
wuĠ faĠ
quan ĠliĠ
zongĠ jiaoĠ
Ġ 7
Ġ 9
dong ĠbuĠ
Ġ tangĠ
zhou ĠshiĠ
geĠ lanĠ
Ġnian ĠshiĠ
diaoĠ chaĠ
si ĠnianĠ
tou ĠguoĠ
ĠyiĠ banĠ
buĠ fen
Ġ yunĠ
biaoĠ zhunĠ
ĠĠĠ genĠjuĠ
hangĠ kongĠ
biĠ yeĠ
hui ĠzaiĠ
shenĠ fenĠ
ĠĠĠ ciĠ
ĠyiĠ ciĠ
Ġdang ĠdiĠ
di ĠzhiĠ
gongĠ luĠ
Ġ 8
faĠ yuanĠ
ĠdeĠyiĠ buĠfenĠ
ĠĠĠ E
Ġ yaoĠ
bu ĠyiĠ
Ġ neiĠ
di ĠyuĠ
jia ĠliĠ
gongĠ zuo
jin ĠjiĠ
cheng ĠzhongĠ
bing ĠbuĠ
sai ĠdeĠ
quan ĠbuĠ
ĠtaiĠ wanĠ
baĠ gaoĠduĠ
xieĠ huiĠ
ĠjiĠ tuanĠ
feiĠ changĠ
jiao ĠshiĠ
anĠ quanĠ
dongĠ huaĠ
ĠzhiĠ xingĠ
bi ĠdeĠ
Ġ huangĠ
cha ĠdeĠ
ĠbingĠ qie
ĠĠĠ F
Ġ linĠ
shengĠ chanĠ
ziĠ liaoĠ
fu ĠheĠ
jing ĠdeĠ
tuanĠ tiĠ
Ġ 4
jie ĠzhiĠ
luoĠ maĠ
Ġ 10
chao ĠxianĠ
gai ĠdiĠ
fenĠ bie
1 ĠnianĠ
xingĠ dongĠ
pingĠ junĠ
ding ĠyiĠ
xia ĠyiĠ
jinĠ biaoĠ
Ġ liu
wenĠ xueĠ
ĠjinĠ xingĠ
qingĠ kuangĠ
ĠĠĠ 19
du ĠshiĠ
Ġ 5
renĠkouĠ puĠ
Ġru ĠguoĠ
la ĠsiĠ
Ġ ming
jia ĠjiĠ
Ġ zhuanĠ
gongĠ gongĠ
4 ĠnianĠ
jieĠ fangĠ
ĠzhiĠ yuanĠ
juĠ minĠ
ĠzhiĠ huiĠ
ĠqiĠ houĠ
dongĠ beiĠ
shou ĠdeĠ
Ġ gu
shang ĠshiĠ
yanĠ chuĠ
Ġ wo
S Ġ
ĠjiĠ diĠ
she ĠzhiĠ
ĠbaoĠ kuo
2 ĠnianĠ
qiuĠ yuanĠ
yuan ĠyiĠ
ĠyuĠ jiĠ
sai ĠzhongĠ
keĠ xueĠ
yan ĠshiĠ
gongĠ tongĠ
lingĠ daoĠ
Ġ da
ren ĠyiĠ
Ġ 13
zuoĠ pin
Ġ chuanĠ
er ĠjiĠ
zuo ĠyouĠ
Ġ si
Ġ nan
faĠ biaoĠ
T Ġ
zai ĠshiĠ
ĠdeĠ zhuĠ
28 ĠriĠ
sanĠ geĠ
aoĠ yunĠ
ye ĠyouĠ
kong ĠjianĠ
xing ĠjiĠ
gaiĠ bianĠ
wu ĠzhiĠ
deng ĠdiĠ
ĠlingĠ waiĠ
l Ġ
jia ĠshiĠ
ĠdiĠ guoĠ
youĠ xiĠ
yuan ĠheĠ
fang ĠzhiĠ
deng ĠrenĠ
Ġer ĠshiĠ
Ġ jiu
xue ĠshiĠ
guan ĠzhongĠ
lan ĠdeĠ
Ġ zhaoĠ
luĠ xianĠ
xue ĠweiĠ
fen ĠzhongĠ
shu ĠweiĠ
ze ĠshiĠ
ju ĠdeĠ
baoĠ daoĠ
Ġdan ĠrenĠ
Ġli ĠzhiĠ
Ġ R
qi ĠweiĠ
he ĠjiĠ
lve Ġ
chu ĠrenĠ
zhui Ġ
buĠ tongĠ
qing ĠnianĠ
2008 ĠnianĠ
ĠĠĠ the
guo ĠliĠ
zuoĠ yongĠ
aoĠ linĠ
bang ĠzhuĠ
pi ĠkeĠ
2016 ĠnianĠ
gong ĠdeĠ
ai ĠerĠ
zao ĠdaoĠ
ĠyuĠ qiĠ
ĠkeĠ nengĠ
ĠĠĠ zhongĠ
banĠ benĠ
jiang ĠqiĠ
zu ĠdeĠ
danĠ quĠ
taĠ men
Ġ huoĠdeĠ
ĠyuĠ yanĠ
ju ĠjiĠ
lu ĠdiĠ
tongĠ changĠ
gui ĠdaoĠ
ĠyouĠ guanĠ
ĠdaĠ daoĠ
15 ĠriĠ
ĠfuĠ zeĠ
shou ĠjiĠ
C Ġ
ĠyiĠ youĠ
fei ĠjiĠ
ĠyiĠ yuĠ
Ġ cheĠ
ĠĠĠ D
tu ĠdiĠ
xianĠ daiĠ
yuan ĠnianĠ
ĠzhiĠ jianĠdeĠ
ĠbingĠ qieĠ
2009 ĠnianĠ
ma ĠliĠ
yaĠ zhouĠ
sheng ĠdeĠyiĠgeĠshiĠzhenĠ
xiĠ banĠ
bianĠ huaĠ
ĠmuĠ qianĠ
Ġ L
jie ĠheĠ
jingĠ neiĠ
ĠĠĠ juĠ
gongĠ yeĠ
ĠshiĠ xingĠ
hui ĠheĠ
jueĠ saiĠ
wu ĠnianĠ
taiĠ pingĠ
Ġ shuiĠ
jia ĠyiĠ
zhengĠ ceĠ
hou ĠyuĠ
pa Ġ
2011 ĠnianĠ
ĠsiĠ keĠ
neiĠ rongĠ
2012 ĠnianĠ
zao ĠqiĠ
meiĠ yuanĠ
Ġri ĠzhiĠ
guangĠ boĠ
P Ġ
ĠweiĠ zhongĠ
zhan ĠyiĠ
xian ĠrenĠ
ta ĠzaiĠ
xingĠ chengĠ
jiao ĠyiĠ
pi ĠpingĠ
Ġ ha
Ġ dingĠ
ĠhaiĠ baĠgaoĠduĠ
25 ĠriĠ
jiaoĠ huiĠ
miao ĠshuĠ
ĠbuĠ duiĠ
wanĠ quanĠ
ĠzhiĠ yeĠ
ĠerĠ siĠ
Ġ mo
xuanĠ zeĠ
Ġdan ĠzaiĠ
yuanĠ yinĠ
ĠsiĠ teĠ
Ġ bei
Ġta ĠyuĠ
UTC Ġ
bo ĠliĠ
zao ĠdeĠ
ĠheĠ wuĠ
jianĠ sheĠ
Ġ paiĠ
r Ġ
Ġyue ĠdeĠ
xie ĠyiĠ
chu ĠshiĠ
xiaoĠ shuoĠ
wuĠkeĠ lanĠ
chang ĠqiĠ
yunĠdongĠ huiĠ
beiĠ chengĠweiĠ
lianĠ bangĠ
Ġ 6
ĠdiĠ sanĠ
ĠweiĠ diĠ
30 ĠriĠ
ĠjianĠ chengĠ
Ġdang ĠzhongĠ
ĠshiĠ yanĠ
ĠdeĠ daoĠ
chiĠ xuĠ
zui ĠdaĠ
wenĠ hua
20 ĠriĠ
mingĠ mingĠ
Ġ eĠ
zu ĠheĠ
yuanĠ zhuĠ
dianĠ ziĠ
duoĠ shuĠ
se ĠdeĠ
zhuanĠ yeĠ
Ġta ĠshiĠ
xing ĠyuĠ
ĠyiĠ mingĠ
houĠ laiĠ
2014 ĠnianĠ
10 ĠriĠ
gongĠ si
Ġ qie
lin ĠshiĠ
er ĠweiĠ
sheng ĠheĠ
ĠyouĠ chengĠ
bu ĠliĠ
wuĠ yuanĠ
jieĠ daoĠ
fu ĠzhiĠ
ba ĠliĠ
ziĠ geĠ
chu ĠqiĠ
Ġ renĠweiĠ
2018 ĠnianĠ
bu ĠjiĠ
2019 ĠnianĠ
Ġ 5Ġ
erĠ ziĠ
dongĠ nanĠ
faĠ lvĠ
gao ĠzhongĠ
taĠ menĠdeĠ
ĠjiĠ gouĠ
za ĠzhiĠ
ĠdiĠ siĠ
ĠjiĠ jinĠ
Ġ mengĠ
Ġ 11
ĠshiĠweiĠyuĠ meiĠguoĠ
daĠ daoĠ
ye ĠdeĠ
ĠjinĠ guanĠ
2013 ĠnianĠ
kui Ġ
ĠweiĠyuĠ gaiĠguoĠ
ĠguoĠ minĠ
faĠ zhan
Ġyue ĠzhiĠ
aĠ laĠ
30 Ġ
Ġ 3Ġ
ĠliĠ keĠ
tu ĠerĠ
sheng ĠweiĠ
ĠshiĠjieĠ daĠ
baoĠ gaoĠ
Ġ mianĠ
ĠĠĠ K
zhong ĠjiĠ
24 ĠriĠ
dao ĠyiĠ
2015 ĠnianĠ
ĠliĠ yongĠ
ĠliĠ kaiĠ
fangĠ xiangĠ
guiĠ dingĠ
nei ĠbuĠ
ĠyuĠ zhongĠ
guoĠ minĠ
guangĠ dongĠ
wang ĠdeĠ
ĠsuiĠ houĠ
Ġ san
boĠwuĠ guanĠ
ĠĠĠ W
luo ĠdeĠ
26 ĠriĠ
canĠ saiĠ
Ġyue ĠshiĠ
Ġ yingĠguoĠ
Ġzhe ĠzhongĠ
2007 ĠnianĠ
muĠ biaoĠ
ĠweiĠ siĠ
sheĠ quĠ
ĠyuĠ zhiĠ
guan ĠzhiĠ
dian ĠliĠ
Ġtong ĠnianĠ
2005 ĠnianĠ
20 Ġ
gongĠchanĠ dangĠ
Ġ gengĠ
18 ĠriĠ
Ġ ke
ĠyouĠ qiĠ
xian ĠyiĠ
ĠxiĠ lieĠ
Ġ O
die Ġ
ĠfenĠ buĠyuĠ
aoĠlinĠ piĠkeĠ
bing ĠweiĠ
lian ĠxiĠ
gongĠ buĠ
ĠjiĠ changĠ
juĠ banĠ
fu ĠliĠ
Ġ waiĠ
mu ĠdeĠ
ĠchuĠ leĠ
Ġ 2001ĠnianĠ
lie ĠdeĠ
ĠshiĠ heĠ
chang ĠweiĠ
quanĠ qiuĠ
wuĠ xianĠ
ĠerĠ shengĠ
bi ĠliĠ
D Ġ
shen ĠdeĠ
tou ĠziĠ
teĠ bie
ĠshiĠ ziĠ
Ġ shaĠ
2017 ĠnianĠ
mu ĠdiĠ
yinĠ hangĠ
16 ĠriĠ
ĠjiĠ heĠ
guanĠ fangĠ
ding ĠweiĠ
xunĠ lianĠ
shangĠ shuĠ
dongĠ jingĠ
Ġ ganĠ
fen ĠzhiĠ
fu ĠyiĠ
dao ĠyuĠ
dang ĠdeĠ
a ĠĠĠ
paiĠ sheĠ
guo ĠzhiĠ
17 ĠriĠ
Ġ Ã
zi ĠyuĠ
huaĠ xueĠ
kaiĠ fangĠ
shou ĠyuĠ
ĠyouĠxianĠ gongĠsiĠ
ĠĠĠ zhengĠzhiĠ
21 ĠriĠ
bu ĠzhiĠ
ĠdeĠshiĠ zhenĠ
gai ĠnianĠ
27 ĠriĠ
zhe ĠshiĠ
baoĠ faĠ
ka ĠerĠ
ĠzhongĠ xueĠ
Ġ minĠ
yingĠ yongĠ
2006 ĠnianĠ
8 ĠriĠ
ĠĠĠ of
mingĠ ziĠ
jun ĠweiĠ
ĠliĠ faĠ
12 ĠriĠ
23 ĠriĠ
shang ĠyouĠ
Ġ songĠ
ce ĠshiĠ
ĠyinĠ ci
xian ĠweiĠ
suĠ lianĠ
meiĠguoĠ renĠkouĠpuĠ
ĠdeĠ weiĠ
7 ĠriĠ
fei ĠxingĠ
shuĠ liangĠweiĠ
qiĠ jianĠ
Ġ qieĠ
juĠ leĠbuĠ
Ġ que
fu ĠyuĠ
boĠ chuĠ
yin ĠshiĠ
6 ĠnianĠ
fen ĠxiĠ
xueĠ zheĠ
huang ĠdiĠ
hui ĠyuĠ
xiĠ lieĠ
qi ĠjiĠ
2021 ĠnianĠ
ban ĠshiĠ
11 ĠriĠ
ĠdeĠ zhongĠ
22 ĠriĠ
guiĠ moĠ
ĠshiĠ faĠguoĠ
Ġ 6Ġ
21 Ġ
biĠ xuĠ
9 ĠriĠ
ling ĠyuĠ
19 ĠriĠ
shanĠ dongĠ
gongĠ nengĠ
29 ĠriĠ
chu ĠyiĠ
ĠfuĠ wuĠ
ting ĠzhiĠ
kun Ġ
Ġ 190
yin ĠqiĠ
me Ġ
guanĠ yuanĠ
ying ĠshiĠ
te ĠdeĠ
zuiĠ daĠdeĠ
zheng ĠzaiĠ
fuĠ jinĠ
fengĠ geĠ
ĠyueĠ hanĠ
ĠjiĠ baiĠ
jingĠ yingĠ
Ġ W
2022 ĠnianĠ
jin ĠzhiĠ
3 ĠriĠ
pingĠ jiaĠ
suoĠ shuĠdeĠ
nengĠ gouĠ
shengĠ mingĠ
14 ĠriĠ
geĠ diĠ
zhu ĠzaiĠ
qingĠkuang ĠxiaĠ
yuan ĠjiĠ
shou ĠshiĠ
tiao ĠjianĠ
0 Ġ
5 ĠriĠ
jiao ĠdeĠ
sheng ĠzaiĠ
quĠ huaĠ
shengĠ chan
yuan ĠzhiĠ
tai ĠdeĠ
xi ĠshiĠ
ĠĠĠ R
shang ĠweiĠ
ĠĠĠ youĠyuĠ
she ĠdeĠ
mai ĠkeĠ
ya ĠyuĠ
31 ĠriĠ
ĠbuĠ jiuĠ
jieĠ chuĠ
Ġ xunĠ
Ġ daoĠzhiĠ
ĠdaĠ huiĠ
lianĠ meng
xiaoĠxingĠ xingĠ
4 ĠriĠ
2 ĠriĠ
chao ĠjiĠ
da ĠjiĠ
Ġ lvĠ
ĠrenĠ zhongĠ
ĠzuiĠ houĠ
6 ĠriĠ
zang Ġ
dian ĠdeĠ
teĠ zhengĠ
hai ĠyuĠ
ĠgongĠ chiĠ
ge ĠjiĠ
liu ĠxingĠ
13 ĠriĠ
nanĠ xingĠ
Ġ saiĠ
boĠ teĠ
wenĠwuĠ baoĠhuĠ
ĠnianĠ dai
ĠsuiĠ ranĠ
ge ĠweiĠ
renĠ heĠ
wu ĠjiĠ
ren ĠjiĠ
manĠ huaĠ
lv ĠyouĠ
Ġ duo
zuoĠ jiaĠ
keĠ daĠ
E Ġ
si ĠrenĠ
geĠ shouĠ
Ġtong ĠguoĠ
xiong ĠdiĠ
yinĠ ciĠ
huang ĠjiaĠ
Ġ shenĠzhiĠ
zong ĠheĠ
ouĠ zhou
B Ġ
jian ĠweiĠ
shengĠ fenĠ
ĠhaoĠ miĠ
Ġ lingĠyiĠ
Ġ br
Ġ piĠ
xuĠ duo
Ġ xin
Ġ U
Ġ jueĠ
lieĠ che
Ġ kaiĠshiĠ
ju ĠrenĠ
niu ĠyueĠ
Ġbr Ġ
ĠĠĠ jinĠ
ci ĠshiĠjieĠdaĠ
banĠ daoĠ
zhuĠ tiĠ
zhong ĠweiĠ
Ġ qiangĠ
cheng ĠyiĠ
ĠzhiĠ jiĠ
zai ĠweiĠ
zhuangĠ taiĠ
ĠyouĠ mingĠ
qi ĠnianĠ
ĠtaĠ cengĠ
ĠsuiĠ ran
ben ĠdeĠ
bian ĠweiĠ
fenĠ ziĠ
ĠĠĠ O
pin ĠdaoĠ
you ĠyiĠgeĠ
ĠzaiĠ qiĠ
ju ĠzhongĠ
he ĠliĠ
mao ĠyiĠ
20 ĠshiĠjiĠ
wangĠ luoĠ
buĠ zhangĠ
renĠkouĠ shuĠliangĠweiĠ
hui ĠyouĠ
ĠĠĠ ziĠ
qian ĠyiĠ
ao ĠsiĠ
2004 ĠnianĠ
xuanĠ shouĠ
shuo ĠshiĠ
jieĠ duanĠ
ci ĠdeĠ
gao ĠjiĠ
zhun ĠbeiĠ
Ġ han
fa ĠshiĠ
bei ĠdeĠ
ĠheĠ nanĠ
fangĠ anĠ
fang ĠyuĠ
mi ĠerĠ
Ġ 4Ġ
wai ĠdeĠ
daĠ xingĠ
duoĠ ciĠ
Ġ geng
ci ĠzhiĠ
bing ĠliĠ
Ġ chen
gong ĠzhongĠ
huiĠ daoĠ
ĠĠĠ liĠ
mo ĠdeĠ
ĠyiĠ laiĠ
ĠzhiĠ zhongĠ
Ġ chiĠ
ĠĠĠ L
chengĠ duĠ
bu ĠweiĠ
2000 ĠnianĠ
on Ġ
shuĠ guanĠ
liu ĠnianĠ
wuĠ qiĠ
jie ĠjiĠ
le ĠyiĠgeĠ
yuan ĠweiĠ
baoĠ hanĠ
jun ĠzaiĠ
ĠdiĠ fangĠ
dianĠshiĠ taiĠ
you ĠzhiĠ
zi ĠshiĠ
ĠdeĠyiĠ zhongĠ
xing ĠheĠ
Ġ lanĠ
ĠrenĠ kou
ĠrenĠkouĠmiĠ duĠweiĠ
ju ĠshiĠ
deng ĠjiĠ
ĠzhongĠ buĠ
luĠ junĠ
xiangĠ tongĠ
ĠĠĠ N
xuan ĠweiĠ
Ġ fan
zheĠ jiangĠ
zuiĠ houĠ
biaoĠ yanĠ
Ġ yiĠshiĠ
qiu ĠjiĠ
Ġ gangĠ
sheĠ beiĠ
siĠ wangĠ
gaiĠ geĠ
ĠzhuĠ yao
ĠweiĠyuĠ faĠguoĠ
ai ĠdeĠ
meiĠ zhouĠ
daĠ liangĠ
nong ĠyeĠ
duoĠ geĠ
gu ĠjiĠ
Ġ douĠ
ĠzhiĠ jinĠ
dianĠshiĠ juĠ
hou ĠyouĠ
ĠshiĠ daiĠ
ĠxiĠ banĠ
Ġ chaoĠ
shang ĠyiĠ
yang ĠshiĠ
zhu ĠyuĠ
zhanĠ douĠ
guangĠ changĠ
liu ĠshiĠ
zai ĠjiĠ
Ġ zhao
mi ĠdeĠ
Ġri ĠqiĠ
fa ĠyuĠ
p Ġ
zhanĠ kaiĠ
wenĠwuĠbaoĠhuĠ danĠweiĠ
Ġ fei
ĠĠĠ daĠ
ĠzhiĠ liĠ
jia ĠheĠ
nu Ġ
tiao ĠyueĠ
ĠjiaĠ ruĠ
fuĠ jianĠ
xieĠ zhuĠ
ĠyiĠ beiĠ
Ġ xiang
ĠbuĠ zaiĠ
chanĠ pinĠ
muĠ qianĠ
jiang ĠyuĠ
bianĠ chengĠ
huoĠdeĠ leĠ
hangĠ kong
nai Ġ
youĠ zhengĠ
Ġ ze
ren ĠyuĠ
fenĠ leiĠ
daoĠ luĠ
gongĠyouĠ renĠkouĠ
5 ĠnianĠ
ying ĠjiĠ
duan ĠdeĠ
Ġ touĠ
qun ĠdaoĠ
ĠzhiĠ zaiĠ
qing ĠdeĠ
ĠfenĠ bie
biaoĠ zhun
zhenĠ quĠ
ĠbeiĠ qiĠ
haiĠ baĠ
Ġ meiĠyouĠ
Ġzhe ĠyiĠ
Ġ J
biĠ jiaoĠ
ĠĠĠ jianĠ
nao Ġ
ĠqiĠ yeĠ
Ġ xianĠshiĠ
zhanĠ zheng
guiĠ huaĠ
shouĠ duĠ
9 ĠnianĠ
cuo Ġ
ĠliĠ ziĠ
ĠkeĠ neng
suĠ duĠ
ju ĠyuĠ
nv ĠerĠ
xiĠ buĠ
ĠxiĠ wangĠ
xi ĠweiĠ
ĠzhongĠ huaĠminĠguoĠ
ĠxingĠ zhengĠ
ĠbuĠ huiĠ
ĠyiĠ renĠ
Ġ faĠguoĠ
qiao ĠzhiĠ
ĠgongĠ fenĠ
ĠzaiĠ zhongĠ
meiĠpingĠfangĠ gongĠliĠ
rong ĠyuĠ
de ĠĠĠ
dong ĠxiĠ
jiu ĠshiĠzhenĠ
dong ĠliĠ
ĠyiĠ yangĠ
ĠdeĠshiĠ jianĠ
jinĠ gongĠ
diĠyiĠ geĠ
dou ĠyouĠ
k Ġ
si ĠheĠ
ĠĠĠ xiĠ
ĠchengĠ quĠ
la ĠdeĠ
ken Ġ
si ĠweiĠ
xian ĠdeĠyiĠgeĠ
maĠ lai
henĠ duoĠ
Ġ 00
taiĠ beiĠ
ruĠ xiaĠ
quĠ daiĠ
ze ĠrenĠ
fu ĠrenĠ
la ĠkeĠ
jinĠbiaoĠ saiĠ
ĠciĠ houĠ
ĠyiĠ xiaĠ
ang Ġ
shangĠ wuĠ
ĠĠĠthe ĠĠĠ
Ġ nvĠ
yu ĠshiĠdeĠ
ĠyuĠ weiĠ
I Ġ
jian ĠyouĠ
ĠerĠ beiĠ
zong ĠliĠ
wang ĠguoĠ
lianĠ xuĠ
xiangĠ duiĠ
ĠĠĠ fuĠ
qu ĠyiĠ
min ĠzhongĠ
jieĠ rang
reng Ġran
xiao ĠxiĠ
miĠ shuĠ
Ġ ruo
tie ĠdaoĠ
Ġ zhou
zhengĠ geĠ
ci ĠjiĠ
zuiĠ houĠyiĠ
ĠĠĠ zheĠ
7 ĠnianĠ
jue ĠdeĠ
renĠkouĠshuĠliangĠweiĠ renĠ
niao Ġ
8 ĠnianĠ
ĠzhongĠ xin
quan ĠdeĠ
Ġ heiĠ
ĠĠĠ zhuĠ
fen ĠdeĠ
zhanĠ lingĠ
Ġ manĠ
xinĠ jiaĠ
waiĠ jiaoĠ
diĠ sanĠ
jiaĠ naĠdaĠ
ĠliĠ shuĠyuĠ
tianĠ zhuĠjiaoĠ
zhen ĠshiĠ
ĠrenĠ zaiĠ
yeĠ wuĠ
Ġ INSEE
chengĠ zhenĠ
ci ĠyuĠ
qiĠ ta
Ġ tian
Ġnian ĠjiĠ
Ġran ĠhouĠ
ceng ĠzaiĠ
yuan ĠyouĠ
daĠ xue
Ġ wu
jianĠ chaĠ
Ġyou ĠyiĠ
zhengĠ quanĠ
shengĠ chengĠ
zuoĠ chuĠ
ne Ġ
shouĠ geĠ
nan ĠjiĠ
ĠdeĠshiĠ houĠ
ĠheĠ beiĠ
ni ĠsiĠ
juĠ jueĠ
wangĠ zhanĠ
Ġ kongĠ
lu ĠshiĠ
jiao ĠweiĠ
quĠ xiaoĠ
ti ĠjiĠ
l ĠĠĠ
cheĠ liangĠ
dian ĠjiĠ
Ġjie ĠzhiĠ
Ġ rang
sheng ĠzhiĠ
le ĠjiĠ
ĠgaiĠ shengĠ
he ĠweiĠ
ĠyingĠ chiĠ
da ĠliĠyaĠ
zhongĠ xinĠ
dui ĠzaiĠ
tianĠ wenĠ
zhen ĠdeĠ
xianĠ faĠ
ziĠ xingĠ
yunĠ yingĠ
he ĠzhiĠ
diĠ fangĠ
lan ĠxiĠ
ĠqiĠ ta
Ġer ĠzaiĠ
ĠzongĠ mianĠjiĠ
V Ġ
ĠdeĠ yuĠ
jieĠ jueĠ
o Ġ
ye ĠzaiĠ
2002 ĠnianĠ
ĠriĠ ben
2003 ĠnianĠ
er ĠzaiĠ
mo ĠxiĠ
gong ĠyiĠ
shu ĠzhiĠ
ĠshiĠ changĠ
ĠdeĠ liĠ
ĠdiĠ qiĠ
ĠjianĠ zhuĠ
Ġ duiĠyuĠ
shou ĠweiĠ
dianĠ ying
ĠrenĠkouĠmiĠduĠ meiĠpingĠfangĠgongĠliĠ
xiaoĠ xueĠ
yingĠ xiang
chaĠdeĠ shuĠjuĠ
youĠzhengĠ bianĠmaĠweiĠ
puĠ taoĠ
hui ĠzhiĠ
gan ĠdaoĠ
ĠshiĠzhenĠ bianĠmaĠweiĠ
ĠINSEE ĠshiĠzhenĠbianĠmaĠweiĠ
qing ĠshiĠ
te ĠliĠ
ĠrenĠkouĠmiĠduĠweiĠ meiĠpingĠfangĠ
zhuo Ġ
ruan Ġ
mengĠ guĠ
diĠyiĠ ciĠ
mu ĠshiĠ
zuoĠ zhanĠ
ĠxingĠ chengĠ
ĠĠĠ buĠ
ĠxiaĠ lingĠshiĠ
xi ĠliĠ
xuanĠ quĠweiĠ
lei ĠjiĠ
gao ĠyuĠ
niĠ ya
yuĠshiĠdeĠ renĠkouĠshuĠliangĠweiĠrenĠ
bao ĠdeĠ
meiĠguoĠrenĠkouĠpuĠ chaĠdeĠshuĠjuĠ
si ĠzaiĠ
zuo ĠyiĠ
lu ĠyiĠ
Ġer ĠrenĠkouĠmiĠduĠweiĠmeiĠpingĠfangĠ
ĠdangĠdiĠ gongĠyouĠrenĠkouĠ
xi ĠyuĠ
yun ĠxingĠ
jingĠ changĠ
ĠteĠ bie
ĠhuoĠ jiuĠshiĠzhenĠ
xin ĠliĠ
yuanĠ ziĠ
jiang ĠshiĠ
shengĠjiĠ xuanĠquĠweiĠ
ĠĠĠ nianĠ
faĠ dongĠ
kuaiĠ suĠ
ming ĠyiĠ
zhang ĠdaĠ
shao ĠnianĠ
sheng ĠrenĠ
Ġ c
bian ĠjiĠ
ĠzhongĠ yang
chong ĠjianĠ
fenĠweiĠ faĠguoĠ
ĠgaiĠshengĠ fenĠweiĠfaĠguoĠ
fa ĠqiĠ
yangĠ huaĠ
Ġ bai
gaoĠ dengĠ
cong ĠshiĠ
shuo ĠfaĠ
ĠyouĠ renĠ
Ġnian ĠyuĠ
Ġ huanĠ
cheng ĠliĠyuĠ
2023 ĠnianĠ
Ġ shuangĠ
jia ĠzhongĠ
jin ĠyiĠbuĠ
na ĠdeĠ
lianĠheĠ guoĠ
yanĠjiuĠ suoĠ
zhengĠ mingĠ
ĠĠĠ 18
fang ĠqiĠ
daĠ quĠ
tai ĠguoĠ
er ĠheĠ
Ġ zhengĠshiĠ
gongĠ xianĠ
gou ĠdeĠ
12 Ġ
lunĠ dun
fanĠ huiĠ
aoĠlinĠpiĠkeĠ yunĠdongĠhuiĠ
xiang ĠjiĠ
jieĠrang ĠdeĠshiĠzhenĠ
zi ĠweiĠ
yunĠ shuĠ
gong ĠrenĠ
huo ĠshiĠ
suoĠshuĠdeĠ shengĠjiĠxuanĠquĠweiĠ
Ġ bo
ziĠ ran
yuan ĠliĠ
si ĠliĠ
zhanĠ dou
ti ĠxiĠ
ce ĠdeĠ
jianĠ chengĠ
cui Ġ
xingĠ qiĠ
biao ĠweiĠ
ĠĠĠ heĠ
ĠerĠ qie
na ĠliĠ
zhuĠ chiĠ
ziĠ yuanĠ
zhongĠ huaĠrenĠminĠgongĠheĠguoĠ
mingĠ danĠ
boĠ lanĠ
xi ĠzaiĠ
bei ĠyiĠ
dao ĠrenĠ
reĠ daiĠ
xiĠbanĠ yaĠ
fuĠ qinĠ
hua ĠweiĠ
luo ĠfuĠ
ĠxiĠ beiĠ
xiaĠ wuĠ
pai ĠdeĠ
faĠ sheĠ
Ġ huang
ĠdiĠ quĠdeĠ
ni ĠkeĠ
xiaoĠ zuĠ
wenĠ mingĠ
Ġ haĠ
ĠzhiĠ chengĠ
ĠĠĠ cheĠzhanĠ
wan ĠjiaĠ
ĠheĠ bingĠ
diaoĠ cha
chanĠ yeĠ
F Ġ
an ĠshiĠ
ĠshiĠyiĠ mingĠ
xiangĠ dangĠ
Ġyou ĠshiĠ
sheng ĠshiĠ
ĠĠĠ chuĠ
chaoĠ zhengĠzhiĠrenĠwuĠ
jinĠxingĠ leĠ
bei ĠjiĠ
su ĠdeĠ
ĠweiĠ shengĠ
xuanĠ chuanĠ
jian ĠjiĠ
jin ĠyiĠ
ĠbuĠ nengĠ
nanĠ shengĠ
ĠĠĠ taĠ
hao ĠweiĠ
ĠshiĠyiĠ weiĠ
ying ĠliĠ
jingĠ shenĠ
paiĠ mingĠ
lv ĠshiĠ
xianĠ xiangĠ
shouĠ shangĠ
Ġ guoĠjiĠ
hu ĠshiĠ
shu ĠzhongĠ
Ġ kang
zi ĠheĠ
xiĠ yangĠ
Ġ Î
guanĠ zhuĠ
fuĠzeĠ guanĠxiaĠ
Ġ bi
lian ĠdeĠ
qiĠ zhongĠyiĠ
mie Ġ
ba ĠnianĠ
Ġ zaoĠ
lanĠ qiuĠ
jiaĠ tingĠ
za Ġ
tongĠ xingĠ
lie ĠweiĠ
shuai Ġ
Ġ peiĠ
sai ĠerĠ
Ġyue ĠzaiĠ
zhanĠ houĠ
xuan ĠrenĠ
liu ĠyuĠ
shuĠ liangĠ
fo ĠjiaoĠ
ke ĠweiĠ
jie ĠyiĠ
Ġ chuangĠ
daoĠ yanĠ
zhengĠ juĠ
zao ĠnianĠ
ĠerĠ qieĠ
da ĠweiĠ
qiu ĠdeĠ
ĠxiĠ nanĠ
taoĠ lunĠ
Ġ biaoĠshiĠ
wang ĠshiĠ
duĠ jiaoĠ
yan ĠyiĠ
Ġ 193
reĠ dai
ming ĠshiĠ
zhengĠ dangĠ
laiĠ yuanĠ
ĠĠĠ beiĠ
wenĠ jianĠ
Ġ longĠ
genĠ ju
baoĠ chiĠ
X Ġ
ĠzhongĠ gongĠ
tiaoĠ zhanĠ
ĠyiĠ jianĠ
pingĠ lunĠ
hou ĠqiĠ
zhongĠ yangĠ
rui ĠshiĠ
ĠzhiĠ xianĠ
reng ĠranĠ
ĠdaoĠ leĠ
Ġ tuoĠ
Ġ 10ĠyueĠ
ĠyiĠ xiĠ
lv ĠkeĠ
ĠĠĠ U
ĠjiĠ siĠ
Ġzong ĠrenĠkouĠ
ziĠ dongĠ
xia ĠdeĠyiĠgeĠ
fan ĠdeĠ
ĠwuĠ keĠ
diĠ siĠ
Ġ ben
biaoĠ mingĠ
ĠshiĠ xianĠ
pingĠ taiĠ
M Ġ
xu ĠdeĠ
lu ĠyuĠ
ĠzhiĠ mingĠ
hai ĠdeĠ
cengĠ jingĠ
luoĠ ma
keĠliĠ siĠ
ĠjiĠ huĠ
ĠshiĠ jianĠyuĠ
xuĠ yao
mo ĠxingĠ
peng ĠyouĠ
ĠliĠ renĠ
Ġ hao
da ĠyueĠ
yinĠ hang
eĠ luoĠ
fengĠ xianĠ
nanĠ jingĠ
Ġ canĠ
ĠbeiĠ jingĠ
ĠdeĠdiĠ fangĠ
sheng ĠyiĠ
xuanĠ quĠ
Ġ ciĠshiĠ
rao Ġ
Ġ lin
gong ĠzhongĠyangĠ
jiaoĠ tangĠ
taiĠpingĠ yangĠ
ke ĠzaiĠ
x Ġ
zheng ĠbuĠ
jiao ĠbuĠ
lianĠ bang
Ġ queĠ
xingĠ buĠ
jing ĠyouĠ
yanĠ geĠ
ri ĠqiĠ
yuan ĠzaiĠ
ĠguoĠ wangĠ
daoĠ daĠ
shen ĠweiĠ
jianĠ duiĠ
chongĠ tuĠ
wu ĠrenĠ
ĠĠĠ xianĠ
jian ĠrenĠ
tui ĠyiĠ
biao ĠzhiĠ
hua ĠyuĠ
ru ĠheĠ
Ġ e
ĠĠĠ 2021
ke ĠshiĠ
qian ĠshiĠ
ĠnianĠ duĠ
qian ĠzhiĠ
g Ġ
xian ĠheĠ
shangĠ yingĠ
xiao ĠguoĠ
sou Ġ
dao ĠheĠ
ĠyiĠ shangĠ
keĠ siĠ
jing ĠweiĠ
ĠgongĠ yuanĠ
lei ĠxingĠ
ĠyiĠ liĠ
ĠĠĠ suiĠ
ĠdaĠ xue
zhou ĠweiĠ
xian ĠjiĠ
dangĠ xuanĠ
ye ĠbuĠ
fengĠ baoĠ
biao ĠdaĠ
guangĠ zhouĠ
xia ĠshiĠ
pang Ġ
ĠĠĠ 2020
liang ĠzhongĠ
zhang ĠshiĠ
xie ĠdeĠ
Ġ ouĠ
biĠ yaĠ
chuĠ shengĠ
shengĠ huo
ding ĠyuĠ
tiaoĠ zhengĠ
qiĠ yeĠ
Ġceng ĠrenĠ
shenĠ qingĠ
jiu ĠnianĠ
pingĠ mianĠ
rou Ġ
ĠjiĠ beiĠ
jiaoĠ quĠ
n ĠĠĠ
anĠ jianĠ
chengĠ xianĠ
luĠ siĠ
xing ĠyiĠ
ĠzhiĠ fuĠ
fenĠ bieĠ
tuanĠ duiĠ
ĠerĠrenĠkouĠmiĠduĠweiĠmeiĠpingĠfangĠ qianĠmiĠ
Ġ The
ĠliĠ daĠ
yaoĠ qingĠ
ĠjinĠ ruĠ
cha ĠyiĠ
ĠliĠ lunĠ
yingĠ geĠlanĠ
puĠ tongĠ
yuanĠ zhangĠ
yuanĠ suĠ
xing ĠrenĠ
Ġ qinĠ
xi ĠheĠ
xiaoĠ shouĠ
qiuĠ changĠ
ĠtaĠ menĠdeĠ
teĠ bieĠ
zhongĠ yaoĠ
chuĠ shengĠyuĠ
yan ĠzhiĠ
heng ĠxingĠ
neiĠ rong
zi ĠyiĠ
ruĠ ciĠ
queĠ zhenĠ
duiĠ shouĠ
ĠĠĠ a
la ĠfuĠ
Ġjie ĠguoĠ
11 Ġ
ĠnianĠ houĠ
ĠzhongĠ youĠ
Ġ zheng
zuo ĠshiĠ
bao ĠweiĠ
laiĠ shuoĠ
xueĠ shuĠ
cheng ĠyuĠ
shu ĠyiĠ
hui ĠjiĠ
beiĠrenĠ weiĠshiĠ
Ġ qiĠyuĠ
ru ĠguoĠ
Ġyue ĠyuĠ
ĠzhiĠ zaoĠ
24 Ġ
he ĠyuĠ
2024 ĠnianĠ
wangĠ luĠ
Ġ gao
anĠ naĠ
shun Ġ
ĠzhongĠ huaĠ
Ġ tanĠ
lun ĠdeĠ
nu ĠliĠ
ni ĠdeĠ
wu ĠyiĠ
ta ĠshiĠ
ĠnianĠ youĠ
duo ĠzhongĠ
Ġ 8ĠyueĠ
caiĠ yong
jia ĠrenĠ
quan ĠshiĠ
zhengĠ zhuangĠ
ting ĠdeĠ
nengĠ gou
ziĠzhiĠ quĠ
xiaoĠ zhangĠ
dianĠ taiĠ
jieĠfangĠ junĠ
gengĠ mingĠweiĠ
min ĠdeĠ
shuĠ ziĠ
haiĠ ziĠ
xiang ĠyuĠ
you ĠliĠ
lan ĠkeĠ
ĠtongĠ changĠ
qu ĠheĠ
chuang ĠliĠ
chuĠ shenĠ
xu ĠshiĠ
fan ĠyiĠ
xin ĠshiĠ
zongĠ duĠ
e ĠĠĠ
Ġ maiĠ
fuĠ qin
ĠĠĠ 2019
ge ĠyouĠ
zhuĠ yanĠ
she ĠyuĠ
L Ġ
jiaĠ geĠ
xunĠ huiĠ
bo ĠdeĠ
huoĠ dong
jiang ĠxiĠ
1999 ĠnianĠ
ming ĠyuĠ
sun ĠshiĠ
banĠ gongĠshiĠ
shouĠ ruĠ
jiangĠ xiangĠ
dan ĠdeĠ
jie ĠweiĠ
lin ĠdeĠ
le ĠĠĠ
juĠ xingĠdeĠ
Ġ hu
jingĠ chaĠ
dui ĠyiĠ
sa ĠkeĠ
ĠĠĠ wuĠ
jieĠ jinĠ
Ġ suoĠyouĠ
ĠweiĠ lianĠ
ĠjiĠ benĠ
jie ĠyuĠ
ka ĠsiĠ
guanĠ dianĠ
ĠĠĠ xiaĠ
ĠdeĠyiĠ zuoĠ
ĠĠĠ 2018
ĠliĠ heĠ
sang Ġ
Ġ laoĠ
jiang ĠdiĠ
shaoĠ shuĠ
wenĠ zhangĠ
kan ĠdaoĠ
ĠjiĠ zheĠ
lunĠ dunĠ
Ġ zaiĠyiĠ
dai ĠyouĠ
tou ĠxiangĠ
luĠdiĠ mianĠjiĠweiĠ
Ġ deng
Ġ xiongĠ
ĠĠĠ geĠ
zhang ĠyuĠ
amp Ġ
shuiĠyuĠ mianĠjiĠweiĠ
xingĠ jianĠ
jieĠ quanĠguoĠ
ĠdaĠ quĠ
wenĠ ziĠ
zhan ĠjiĠ
ĠdeĠdiĠ quĠ
aoĠ menĠ
zai ĠzhiĠ
wen ĠyiĠ
kang ĠyiĠ
Ġ miaoĠ
Ġ cheĠzhanĠ
1998 ĠnianĠ
xiĠ beiĠ
haiĠ anĠ
paiĠ ming
ruĠ kouĠ
R Ġ
Ġ pei
wai ĠguoĠ
ĠshiĠ diĠ
wen ĠdeĠ
jiaoĠ liuĠ
xingĠ xingĠ
zhenĠ duiĠ
Ġ V
xi ĠzhiĠ
xin ĠrenĠ
ĠjiĠ tuan
ĠĠĠ keĠ
tianĠ jinĠ
du ĠyuĠ
Ġ ampĠ
ĠĠĠ 2022
cuo ĠshiĠ
zhangĠ keĠdaĠ
fang ĠzaiĠ
xuanĠ ze
Ġ zhuan
jun ĠdiĠ
tiĠ mingĠ
ĠdangĠzhongĠ luĠdiĠmianĠjiĠweiĠ
chuĠ faĠ
ĠerĠ shuiĠyuĠmianĠjiĠweiĠ
poĠ huaiĠ
huiĠ shangĠ
rong ĠyiĠ
teng Ġ
taiĠ yangĠ
ĠbeiĠ erĠ
jingĠ dianĠ
Ġxian ĠzaiĠ
zao ĠyuĠ
O Ġ
chi ĠdeĠ
ba ĠxiĠ
ĠzhongĠ yaoĠ
Ġ pa
guang ĠxiĠ
bianĠ jieĠ
luo ĠdiĠ
gou ĠchengĠ
xian ĠyouĠ
ou ĠyuanĠ
xianĠ changĠ
Ġ juĠliĠ
Ġ haiĠyouĠ
xi ĠyiĠ
shan ĠjiĠ
ĠxiangĠ gang
fu ĠjiĠ
dao ĠjiĠ
ha ĠerĠ
touĠ ruĠ
queĠ dingĠ
ĠdeĠzhiĠ chiĠ
Ġyue ĠyouĠ
siĠ chuanĠ
yueĠ taiĠ
ĠĠĠxingĠzhengĠ quĠhuaĠ
ĠfaĠ xianĠ
Ġ jiĠshiĠ
keng Ġ
ĠzaiĠ zheĠ
duiĠ wuĠ
cunĠ zhuangĠ
Ġcong ĠerĠ
da ĠzhongĠ
ĠĠĠ I
jia ĠyuĠ
ming ĠzhiĠ
Ġ ao
you ĠweiĠ
Ġ jingĠguoĠ
cun ĠdeĠ
da ĠzhiĠ
dengĠ luĠ
Ġ 9ĠyueĠ
touĠ piaoĠ
ĠĠĠ 2017
15 Ġ
geĠ leiĠ
yuanĠ huiĠ
chang ĠyiĠ
Ġyue ĠweiĠ
gong ĠyuĠ
ĠshiĠ liĠ
ĠzhiĠ xiaĠ
gongĠ minĠ
yinĠ faĠ
biĠ yeĠyuĠ
jian ĠzhongĠ
nuo ĠweiĠ
Ġ hou
er ĠyuĠ
dai ĠliĠ
tuĠerĠ qiĠ
fang ĠweiĠ
tu ĠdeĠ
tui ĠdongĠ
ĠshiĠ zhongĠguoĠ
ge ĠyiĠ
zhan ĠdiĠ
ke ĠyuĠ
hun ĠheĠ
piĠ zhunĠ
juĠ zhuĠ
baoĠ liuĠ
qianĠ shuĠ
wu ĠyuĠ
er ĠrenĠ
jinĠ ru
ĠzaiĠ beiĠ
wenĠ dingĠ
haiĠ daoĠ
leĠ siĠ
yongĠ huĠ
ganĠ ran
shu ĠheĠ
biĠ saiĠzhongĠ
ĠtiĠ zhangĠkeĠdaĠ
Ġ formulaĠ
Ġ shou
ziĠ ranĠ
xi ĠzhongĠ
ĠĠĠ in
daĠ fuĠ
ĠĠĠ V
Ġ 7ĠyueĠ
zi ĠliĠ
nanĠ beiĠ
jun ĠyiĠ
ĠrenĠ menĠ
chu ĠjiĠ
qiĠ ziĠ
ĠweiĠfuĠ qiĠyuĠ
heng ĠliĠ
fangĠ wenĠ
Ġ saĠ
zhuang ĠjiaĠ
tiĠ gaoĠ
Ġyou ĠjiĠ
ĠĠĠ 2016
Ġ tingĠ
ĠwoĠ menĠ
di ĠjiĠ
ma ĠkeĠ
1996 ĠnianĠ
ĠshiĠ quĠ
chengĠ zuoĠ
ĠyuĠ ciĠ
xunĠ suĠ
jian ĠheĠ
ĠyiĠ daĠliĠ
xinĠ haoĠ
ĠyinĠ duĠ
jinĠ shuĠ
benĠ tuĠ
houĠ xuanĠrenĠ
mo ĠerĠ
zhan ĠzhongĠ
xiao ĠliĠ
xianĠ luĠ
xianĠ houĠ
ziĠ jinĠ
ci ĠweiĠ
jieĠshuĠ houĠ
Ġ 12ĠyueĠ
xin ĠyiĠ
pinĠ paiĠ
geĠ geĠ
Ġta ĠyiĠ
N Ġ
Ġ an
guangĠ fanĠ
Ġ zhang
zhuĠ mingĠdeĠ
zuiĠ chuĠ
zhong ĠliĠ
shang ĠrenĠ
yong ĠyiĠ
ceng ĠyuĠ
yingĠ pianĠ
zhuĠ mingĠ
1997 ĠnianĠ
heĠ zuoĠ
mouĠ xieĠ
cheng ĠzhiĠ
Ġ 11ĠyueĠ
ĠdeĠyiĠ zhiĠ
wu ĠweiĠ
jianĠ zaoĠ
chuĠ zhanĠ
jie ĠyouĠ
mei ĠnianĠ
jian ĠzaiĠ
lingĠ waiĠ
Ġ xiuĠ
ĠdeĠshiĠ quĠweiĠ
Ġ 21Ġ
jiaĠ zuĠ
xiaĠ laiĠ
xueĠ huiĠ
ĠzhiĠ nengĠ
buĠ tongĠdeĠ
ĠĠĠdeĠ shiĠ
Ġ tw
zhu ĠbuĠ
jiangĠ suĠ
Ġbing ĠyiĠ
sa ĠerĠ
shuiĠ pingĠ
ĠzhongĠguoĠ gongĠchanĠdangĠ
buĠ duiĠ
ĠdiĠ qu
ĠjiaĠ shangĠ
ĠĠĠ erĠ
dang ĠshiĠdeĠ
shan ĠdaĠ
reng Ġ
bo ĠerĠ
hans Ġ
Ġ hansĠ
ke ĠheĠ
xuĠ qiuĠ
ĠjiĠ chengĠ
jianĠ shaoĠ
teĠ shuĠ
Ġtw Ġ
Ġ hong
daĠ chengĠ
shan ĠdeĠ
i Ġ
Ġ bian
Ġ 2011
biaoĠ mianĠ
ĠzheĠ xie
meiĠ geĠ
ĠĠĠ qingĠ
lv ĠweiĠ
paiĠ chuĠ
ĠĠĠ 2014
xiaoĠ shuo
aoĠ daĠliĠyaĠ
nan ĠyiĠ
ĠbuĠ fen
jieĠ rangĠ
ĠĠĠ 2023
1992 ĠnianĠ
ĠrenĠ leiĠ
jueĠ ding
gongĠ changĠ
siĠ keĠ
c Ġ
chang ĠheĠ
ĠyuĠ renĠ
jieĠ keĠ
ĠdanĠ taĠ
ĠjiĠ guanĠ
ĠzaiĠ zhongĠguoĠ
ĠĠĠ li
sheĠhuiĠ zhuĠyiĠ
zhu ĠyouĠ
zhuang ĠzhiĠ
ĠchengĠ yuanĠ
ĠhaoĠ xianĠ
bei ĠzhiĠ
ĠxiĠ baoĠ
jingĠ yanĠ
U Ġ
Ġ 189
Ġ 2010ĠnianĠ
wan ĠrenĠ
faĠ chuĠ
ziĠ xunĠ
suo ĠdeĠ
wa ĠerĠ
ĠjiĠ renĠ
yinĠ suĠ
ĠjieĠ muĠ
ti ĠshiĠ
yingĠ wenĠ
ĠĠĠ 2015
ĠĠĠ yuanĠ
lu ĠzhiĠ
ĠhouĠ lai
Ġ hai
ĠxuĠ duoĠ
Ġ eĠluoĠsiĠ
ĠĠĠ J
tu ĠzhongĠ
kong ĠzhongĠ
sui ĠdaoĠ
hua ĠheĠ
sha ĠsiĠ
Ġri ĠyuĠ
yong ĠshiĠ
fo Ġ
lingĠ tuĠ
Ġ Ñ
geng ĠjiaĠ
minĠ jianĠ
ĠĠĠ yuĠshiĠdeĠrenĠkouĠshuĠliangĠweiĠrenĠ
ĠĠĠ suoĠshuĠdeĠshengĠjiĠxuanĠquĠweiĠ
xiangĠ siĠ
ĠĠĠdeĠ youĠzhengĠbianĠmaĠweiĠ
ĠĠĠyuĠ jieĠrangĠdeĠshiĠzhenĠ
ĠĠĠdeĠshiĠ quĠweiĠ
ĠguoĠ chengĠ
Ġ 2019
le ĠshiĠ
Ġ feng
zeng ĠzhangĠ
er ĠyiĠ
nan ĠdeĠ
ĠzaiĠ daĠ
jiang ĠdeĠ
keĠ chengĠ
huiĠ yingĠ
kongĠ junĠ
Ġ jingĠjiĠ
Ġ 2009ĠnianĠ
ci ĠyiĠ
ĠdiĠ daĠ
guĠ wenĠ
ĠheĠ xiĠ
ĠtaĠ yeĠ
guangĠ gaoĠ
jueĠ se
ĠfaĠ xingĠ
Ġ wang
te ĠerĠ
ĠshiĠ meiĠguoĠ
hanĠ shuĠ
ĠĠĠ 2013
Ġ hk
zhou ĠfuĠ
tian ĠdeĠ
ti ĠyiĠ
zong ĠbuĠ
ĠshengĠ huo
Ġ 30
ĠjiĠ youĠ
guanĠ biĠ
anĠ paiĠ
xianĠ xingĠ
ĠbingĠ jiangĠ
chao ĠshiĠ
Ġ menĠ
tiĠ shengĠ
feiĠ jianĠzhiĠ
woĠ menĠ
da ĠyuĠ
fang ĠbuĠ
xu ĠkeĠ
ĠĠĠ xinĠ
lang ĠdeĠ
zhengĠfu ĠdeĠ
minĠzhuĠ dangĠ
Ġ 6ĠyueĠ
zhuang ĠshiĠ
jiaĠ ru
quanĠ mianĠ
Ġbing ĠyouĠ
Ġhk Ġ
xingĠ taiĠ
banĠ gongĠ
ĠdeĠguoĠ jiaĠ
jun ĠjiĠ
cheĠ zhan
ĠerĠ gaiĠ
ĠheĠ erĠ
diĠ guoĠ
bao ĠliĠ
jieĠ gou
dui ĠshiĠ
shanĠ mai
Ġ zhiĠshiĠ
ju ĠbuĠ
ling ĠdeĠ
zhuan ĠjiaĠ
rui ĠdianĠ
dang ĠyuĠ
luo ĠkeĠ
ĠjiĠ nianĠ
wei ĠyiĠgeĠ
junĠ gongĠ
tuĠ shuĠguanĠ
dang ĠzhongĠ
weiĠ zhiĠ
neiĠ luĠ
hua ĠzhongĠ
chengĠ xuĠ
ĠyueĠ taiĠ
3 ĠrenĠ
yunĠ xuĠ
huiĠ beiĠ
jiuĠ dianĠ
seĠ lieĠ
Ġ laiĠziĠ
shan ĠshiĠ
dianĠ nao
dai ĠbuĠ
bingĠ meiĠyouĠ
ge ĠzhiĠ
ĠkeĠ xueĠ
Ġ na
ĠĠĠ xiangĠ
ĠqiĠ zhongĠyiĠ
zuĠ chengĠdeĠ
siĠ xiangĠ
feiĠjianĠzhiĠ diĠquĠ
Ġ 5ĠyueĠ
ĠĠĠ Co
ĠĠĠ and
1995 ĠnianĠ
Ġ zhuangĠ
fen ĠliĠ
ba ĠweiĠ
ĠxiĠ jieĠ
1994 ĠnianĠ
sanĠ jiaoĠ
jingĠ zhengĠ
guo ĠweiĠ
ĠyiĠ jiaĠ
chang ĠyuĠ
tan ĠkeĠ
ĠyouĠ qiĠshiĠ
muĠ qinĠ
Ġ zhongĠdeĠ
tong ĠyuĠ
bing ĠshiĠ
huanĠ yingĠ
faĠ lv
Ġ 2018
ma ĠerĠ
ĠdiĠ xiaĠ
moĠxiĠ geĠ
geĠ lan
que ĠfaĠ
gongĠ siĠdeĠ
jinĠ paiĠ
yanĠjiuĠ yuanĠ
Ġ zhengĠfuĠ
zhuan ĠyiĠ
25 Ġ
xiaĠ jiangĠ
shuĠ xueĠ
neiĠ geĠ
ĠshiĠjieĠ beiĠ
jiu ĠdeĠ
ĠliĠ ya
hua ĠrenĠ
mingĠ mingĠweiĠ
laiĠ daoĠ
jun ĠyouĠ
jiu ĠzhiĠ
ĠheĠ diĠ
2 ĠrenĠ
ĠgongĠ zuoĠ
ĠĠĠjiaĠ zuĠ
wei ĠĠĠ
shengĠ zhangĠ
deng ĠweiĠ
ĠjiĠ chuĠ
ĠliĠ buĠ
xiu ĠgaiĠ
huiĠ zhangĠ
mingĠ lingĠ
yingĠ yunĠ
shuo ĠmingĠ
hu ĠdeĠ
yongĠ laiĠ
1 ĠrenĠ
Ġ maoĠ
dui ĠqiĠ
Ġ chuĠyuĠ
ziĠ muĠ
shouĠ fuĠ
Ġ 20
ĠzaiĠ meiĠguoĠ
ĠdanĠ youĠyuĠ
wen ĠshiĠ
ĠĠĠ zhĠ
ĠbuĠ tongĠdeĠ
maoĠ qiuĠ
Ġ minĠguoĠ
gongĠ juĠ
ĠshiĠyiĠ ge
ĠdeĠdiĠ erĠ
ĠweiĠ weiĠ
K Ġ
zhu ĠjiĠ
que ĠrenĠ
leng Ġ
chengĠweiĠ leĠ
ta ĠyuĠ
yeĠ beiĠ
Ġ 4ĠyueĠ
liao ĠjieĠ
gua Ġ
ĠtaĠ beiĠ
beiĠ erĠ
feiĠ lvĠ
Ġ rangĠ
yin ĠdeĠ
chang ĠdiĠ
faĠ anĠ
juĠ zhangĠ
caiĠ quĠ
lieĠ biaoĠ
Ġ qian
shou ĠzhongĠ
ĠĠĠ jieĠzhiĠ
changĠ pianĠ
shenĠ tiĠ
ĠtaĠ haiĠ
ĠzhongĠguoĠ renĠminĠ
22 Ġ
cheĠ xiaoĠ
Ġyin ĠyueĠ
ĠshangĠ haiĠ
canĠjiaĠ leĠ
chuĠ xiĠ
chuanĠ boĠ
Ġ 2016
chanĠ pin
1991 ĠnianĠ
ĠyiĠ nianĠ
ĠerĠ fuĠ
jiaoĠ lianĠ
banĠ faĠ
xie ĠrenĠ
che ĠdeĠ
zhuĠ zuoĠ
boĠ fangĠ
fu ĠyouĠ
su ĠweiĠ
sui ĠjiĠ
Ġ 23
zhe ĠliĠ
ĠyiĠ juĠ
ma ĠsiĠ
16 Ġ
ĠweiĠ renĠ
Ġ kangĠ
ĠĠĠ zhongĠguoĠ
ze ĠyouĠ
ĠliĠ ru
qiuĠ huiĠ
tieĠ lu
dian ĠqiĠ
liang ĠshiĠ
1Ġ haoĠ
ĠweiĠyuanĠ hui
ĠdiĠ tieĠ
wangĠ qiuĠ
ma ĠdeĠ
ĠqiĠ laiĠ
faĠ dianĠ
ĠshiĠyiĠ nianĠ
gu ĠdeĠ
baiĠ seĠ
shenĠ jingĠ
yueĠ hanĠ
ju ĠheĠ
tai ĠjiĠ
zhanĠ taiĠ
huaĠ yuanĠ
tion Ġ
jieĠ hunĠ
wanĠ shangĠ
Ġ quanĠguoĠ
ling ĠbuĠ
ĠzhiĠ diĠ
ziĠ zhuĠ
huoĠ jianĠ
zuĠ jianĠ
ye ĠheĠ
ĠyiĠ zaiĠ
ĠyouĠ xieĠ
huaĠ shengĠ
lingĠ xianĠ
liang ĠrenĠ
chanĠ shengĠdeĠ
zhaoĠ kaiĠ
ĠrenĠminĠ zhengĠfuĠ
yanĠchangĠ huiĠ
ĠweiĠ nengĠ
2020ĠnianĠ meiĠguoĠrenĠkouĠpuĠchaĠdeĠshuĠjuĠ
maĠlai ĠxiĠyaĠ
xue ĠheĠ
ĠyouĠ xiaoĠ
or Ġ
ĠxingĠ dongĠ
Ġ Ma
chao ĠdeĠ
ĠzaiĠ xiĠ
ĠerĠ buĠ
tongĠ cheĠ
ĠĠĠ 2025
xu ĠliĠyaĠ
leĠ taĠ
chuĠ xianĠzaiĠ
yaoĠ wuĠ
Ġ kuanĠ
qin ĠshiĠ
ruĠ xuanĠ
ti ĠzhongĠ
1988 ĠnianĠ
changĠ pian
r ĠĠĠ
chang ĠzaiĠ
kuo ĠdaĠ
ĠxiĠ laĠ
m ĠĠĠ
ĠĠĠ 2024
yinĠ du
geĠ erĠ
xueĠ xiao
geĠ daĠ
xiangĠ xiĠ
Ġ yingĠyuĠ
xin ĠjiĠ
ĠliĠ shuĠ
ĠgongĠ chengĠ
ĠĠĠ qianĠ
zhuangĠ kuangĠ
ĠdaĠ buĠfenĠ
shanĠxiĠ shengĠ
xing ĠzhongĠ
tai ĠshiĠ
siĠ teĠ
kong ĠbuĠ
ĠzhiĠ duĠ
ĠshiĠdeĠ yiĠ
huĠ beiĠ
lv ĠxingĠ
tuo ĠliĠ
gongĠ huiĠ
shen ĠshiĠ
cheng ĠliĠdeĠ
daĠ buĠfenĠ
ĠfuĠ jinĠ
guiĠ zeĠ
ĠĠĠ nian
ĠweiĠ liĠ
aoĠ diĠliĠ
shangĠ hai
daĠ luĠdeĠ
Ġliang ĠrenĠ
lao ĠdongĠ
Ġ daiĠbiaoĠ
zhouĠ bianĠ
jing ĠyuĠ
zhuang ĠdeĠ
pei ĠyinĠ
cu ĠjinĠ
ĠyiĠ tongĠ
er ĠĠĠ
tong ĠbuĠ
xingĠ xiangĠ
Ġ caoĠ
ci ĠzaiĠ
Ġ ka
ĠliĠshiĠ shangĠ
yu ĠĠĠ
w Ġ
ze ĠweiĠ
long ĠdeĠ
suan ĠjiĠ
1993 ĠnianĠ
xingĠ quĠ
ĠC Ġ
ĠmingĠ chaoĠzhengĠzhiĠrenĠwuĠ
suiĠ houĠ
pei ĠheĠ
wuĠkeĠ lan
4 ĠrenĠ
jin ĠbuĠ
bao ĠshiĠ
daiĠbiao ĠdaĠhuiĠ
wu ĠheĠ
zhuĠ changĠ
nan ĠshiĠ
Ġ qiaoĠ
ĠzhiĠ ziĠ
ĠzheĠ jiangĠ
ping ĠweiĠ
teĠ seĠ
xiaĠjiĠ aoĠlinĠpiĠkeĠyunĠdongĠhuiĠ
12 ĠnianĠ
jiaoĠ xueĠ
ĠjiĠ erĠ
b Ġ
da ĠheĠ
xie ĠshiĠ
puĠ bianĠ
zhe ĠzaiĠ
Ġ panĠ
zhuan ĠxiangĠ
piaoĠ fangĠ
la ĠjiĠ
50 Ġ
ĠĠĠ xiaoĠ
ĠshiĠ tuĠ
G Ġ
Ġ 3ĠyueĠ
wenĠ xianĠ
sheĠ jiĠdeĠ
luo ĠjiĠ
feiĠ zhouĠ
lian ĠrenĠ
ĠxiĠ juĠ
sa ĠsiĠ
anĠ quan
Ġ sheĠjiĠ
Ġ 2011ĠnianĠ
dao ĠzhongĠ
kaoĠ lvĠ
Ġ lu
ĠweiĠ heĠ
ĠfuĠ jianĠ
13 Ġ
wangĠ chaoĠ
jie ĠrenĠ
mingĠ xianĠ
zhuĠ zhangĠ
Ġ yaoĠqiuĠ
gong ĠzhiĠ
zheng ĠheĠ
ĠweiĠ wuĠ
ĠxiĠ buĠ
hu ĠyuĠ
ĠbuĠ keĠ
tongĠ daoĠ
meiĠ guoĠdeĠ
xu ĠzaiĠ
ST Ġ
ĠweiĠ xingĠ
f Ġ
Ġ sun
Ġ 188
Ġ nvĠxingĠ
ĠĠĠ guoĠ
kou ĠweiĠ
lingĠ daoĠrenĠ
biĠ sai
18 Ġ
ĠweiĠ laiĠ
qiĠzhongĠyiĠ zhongĠ
Ġ 2021
zhao ĠdaoĠ
hongĠ seĠ
yuanĠ gongĠ
siĠ lingĠ
jingĠ cha
fangĠ wuĠ
Ġ taoĠ
Ġ sĠĠĠ
ĠliĠ miĠ
ĠĠĠ congĠ
zuiĠ hou
yunĠ dong
caiĠ liaoĠ
ĠshiĠweiĠ leĠ
ĠdeĠzhiĠ wuĠ
hun ĠyinĠ
ĠyuĠ leĠ
ĠchengĠ gongĠ
Ġ mai
ĠweiĠ huiĠ
1990 ĠnianĠ
ĠxiĠ ya
ĠjiĠ huiĠ
Ġ2001ĠnianĠ renĠkouĠ
Ġ ni
dongĠ nanĠbuĠ
bian ĠshiĠ
ĠyouĠ buĠ
dongĠ beiĠbuĠ
Ġ 2015
shou ĠzhiĠ
hua ĠjiĠ
fenĠ buĠyuĠ
ĠĠĠ 2012
jun ĠyuĠ
Ġ nai
yingĠ gaiĠ
Ġ biaoĠ
ge ĠheĠ
ĠrenĠ shuĠ
fu ĠzaiĠ
ti ĠzhiĠ
daĠ chenĠ
Ġ à
bao ĠzhiĠ
re ĠĠĠ
siĠ geĠ
feiĠ chuĠ
ri ĠzhiĠ
ĠxingĠ qiĠ
Ġ 2005ĠnianĠ
jin ĠyouĠ
dianĠ huaĠ
Ġ lieĠ
Ġ jiaoĠyuĠ
sao Ġ
ĠbuĠ menĠ
qianĠ wang
bao ĠyuĠ
ĠyiĠ ban
yuanĠ xingĠ
ruan ĠjianĠ
ĠĠĠ zaoĠnianĠ
duo ĠrenĠ
wuĠ taiĠ
ling ĠdiĠ
chi ĠyouĠ
duiĠ zhangĠ
faĠxianĠ leĠ
Ġ guanĠyuĠ
Ġ hanĠguoĠ
shi ĠĠĠ
tui ĠjinĠ
gengĠ duoĠ
zhuĠ jueĠ
Ġyin ĠerĠ
chuĠ laiĠ
tiĠ daoĠ
on ĠĠĠ
yongĠ zuoĠ
suo ĠzaiĠ
zhengĠ changĠ
ben ĠdiĠ
jue ĠshiĠ
ĠnianĠ beiĠ
wuĠ zhuangĠ
guoĠjiĠ jiĠ
mei ĠdeĠ
bian ĠxingĠ
douĠ huiĠ
yaĠliĠ shanĠdaĠ
jiao ĠdaĠ
gui ĠdeĠ
ĠerĠshuiĠyuĠmianĠjiĠweiĠ 0
riĠ junĠ
poĠ huai
ĠtiĠ gongĠ
bo ĠsiĠ
Ġ zhong
Ġ zaoĠchengĠ
yin ĠdiĠ
jiao ĠyouĠ
dongĠ fangĠ
tongĠ yangĠ
3 ĠgeĠ
tai ĠrenĠ
huoĠ zheĠ
ĠzaiĠ jiaĠ
qingĠ baoĠ
ĠpingĠfangĠ miĠ
caoĠ zuoĠ
Ġ quan
mingĠ xingĠ
ĠdaĠ chengĠ
haiĠ waiĠ
Ġ zu
yeĠ huiĠ
tuan ĠdeĠ
anĠ huiĠ
Ġ chaĠ
nei ĠyouĠ
jieĠ shaoĠ
chuĠ kouĠ
duiĠ waiĠ
Ġsui ĠdeĠ
ĠdaĠ liangĠ
Ġsui ĠzheĠ
Ġ 2017
jieĠ mu
xia ĠyouĠ
ĠheĠ pingĠ
ĠerĠ gaiĠdiĠ
canĠ mou
Ġ 2020
Ġ 2014
xiang ĠyiĠ
yongĠ tuĠ
Ġ 2013
la ĠheĠ
qiang ĠdeĠ
ĠyiĠ duĠ
ĠzhiĠ dingĠ
duiĠ xiangĠ
gaiĠ shanĠ
aoĠyunĠ huiĠ
biao ĠdeĠ
san ĠjiĠ
ĠyuĠ heĠ
yanĠ shenĠ
ĠdeĠshiĠ jieĠ
gao ĠjiaĠ
ĠyueĠ nanĠ
ĠxiĠ tong
Ġ tuiĠ
xiĠ nanĠ
xianĠ jinĠ
Ġwan ĠrenĠ
zuoĠ quĠ
dun ĠdeĠ
ĠjiaĠ naĠdaĠ
ĠbaoĠ hanĠ
Ġ xuanĠbuĠ
mei ĠliĠ
1984 ĠnianĠ
dengĠ shangĠ
guan ĠshiĠ
leĠ daĠ
gaoĠsuĠ gongĠluĠ
xiaoĠ quĠ
junĠ quĠ
zhengĠ tiĠ
zengĠ zuĠ
jia ĠzaiĠ
chang ĠyouĠ
leĠ taĠdeĠ
xiaĠ xiaĠdeĠyiĠgeĠ
longĠ jiangĠ
Ġ reng
yun ĠshiĠ
geĠ lunĠ
jue ĠyiĠ
shuĠ ruĠ
haiĠ xiaĠ
faĠ shouĠ
sui ĠzhuĠ
Ġxian ĠrenĠ
Ġ shengĠyuĠ
nie Ġ
ĠqiĠ zaiĠ
yunĠ zuoĠ
Ġye ĠyouĠ
queĠzhenĠ bingĠliĠ
ĠĠĠ In
ju ĠyiĠ
14 Ġ
gouĠ zaoĠ
banĠshiĠ chuĠ
Ġ xiu
liu ĠzaiĠ
ĠweiĠ keĠ
ĠerĠ yanĠ
Ġnan ĠzhiĠ
Ġ po
zhan ĠzhiĠ
1989 ĠnianĠ
zuo ĠrenĠ
dianĠ cheĠ
miĠ miĠ
ĠshiĠ daĠ
kang ĠriĠ
shuĠ yuanĠ
junĠ guanĠ
Ġ dou
jia ĠyouĠ
du ĠheĠ
fei ĠliĠ
kaiĠ zhanĠ
ĠshiĠwuĠ keĠ
10 ĠnianĠ
renĠ daĠ
ĠzhongĠ zaiĠ
Ġ 100
shang ĠyuĠ
bin ĠhaiĠ
ĠdongĠ linĠ
Ġ 2010
duo ĠnianĠ
jiangĠ huiĠ
liangĠ ciĠ
lingĠ xiuĠ
chuang ĠjianĠ
chuĠ daoĠ
shouĠ zhangĠ
xiaĠ ling
tian ĠshiĠ
zhuang ĠbeiĠ
dongĠ zuoĠ
shou ĠyiĠ
chuan ĠzhiĠ
chai ĠchuĠ
touĠ piao
senĠ linĠ
an ĠdaĠ
ĠqiĠ xiangĠ
shouĠ luĠ
caiĠ zhengĠ
ĠtaiĠ wan
Ġ niu
ĠĠĠ 3
ya ĠkeĠ
biĠ mianĠ
gu ĠliĠ
ĠqiĠ ziĠ
huiĠ yuanĠ
shanĠ quĠ
Ġ shaoĠ
bei ĠshiĠweiĠ
deng ĠdeĠ
ĠdiĠ wuĠ
Ġ zhengĠzhiĠ
Ġ jianĠyuĠ
tu ĠxingĠ
qin ĠziĠ
ĠerĠ tongĠ
juĠ qingĠ
kaĠ luoĠ
ĠĠĠ siĠ
ĠnianĠ1ĠyueĠ 1ĠriĠ
hou ĠshiĠ
zhe ĠbuĠ
dai ĠweiĠ
zuiĠ gao
ĠjuĠ xingĠ
zun Ġ
1985 ĠnianĠ
waiĠ jiaoĠbuĠ
ĠwanĠ meiĠyuanĠ
ĠyiĠ meiĠyuanĠ
Ġ qi
liu ĠdeĠ
ĠsiĠ lingĠ
ceĠ liangĠ
shou ĠxiĠ
jingĠ xuanĠ
hui ĠzhongĠ
suo ĠshiĠ
zhangĠ guanĠ
fanĠ zuiĠ
fu ĠweiĠ
ban ĠliĠ
daiĠ laiĠ
ĠjieĠ shouĠ
Ġ hengĠ
Ġ 2007ĠnianĠ
ĠĠĠ dangĠ
geng ĠweiĠ
bingĠ ruĠ
si ĠyiĠ
ĠerĠ ziĠ
tong ĠnianĠ
ĠyouĠ keĠ
xiangĠ zhengĠ
baoĠ shouĠ
ĠdongĠ beiĠ
fanĠweiĠ neiĠ
pian ĠdeĠ
mian ĠshiĠ
meng ĠdeĠ
guoĠ wangĠ
taiĠ fengĠ
ĠtaiĠ yangĠ
Ġ chengĠliĠ
ĠerĠ chengĠ
huĠ nanĠ
Ġ 2008ĠnianĠ
ĠzaiĠ duĠ
Ġ s
ĠqiĠ xiaĠ
Ġri ĠdeĠ
fangĠ mianĠdeĠ
ĠyiĠ houĠ
ĠjieĠ keĠ
ĠshengĠhuo ĠxiĠ
H Ġ
yan ĠxiĠ
ren ĠliĠ
can ĠyiĠyuanĠ
junĠ zhuĠ
kaiĠ tongĠ
taiĠ ziĠ
qingĠ chuĠ
dingĠ juĠ
Ġ sheĠhuiĠ
gongĠ zhuĠ
shengĠ yinĠ
jin ĠweiĠ
hua ĠheĠwuĠ
zhan ĠqiĠjianĠ
huan ĠchengĠ
Ġ 2012
zhou ĠqiĠ
Ġ dianĠyingĠ
jianĠ jieĠ
yingĠ yeĠ
ĠsiĠ wangĠ
liang ĠjiĠ
pi ĠfuĠ
fei ĠdeĠ
wai ĠbuĠ
xiangĠ huĠ
guanĠ chaĠ
xingĠbuĠ mingĠ
5 ĠrenĠ
Ġ sheĠyouĠ
dui ĠyouĠ
28 ĠnianĠ
zhuĠyao ĠdeĠ
lei ĠdaĠ
du ĠliĠdeĠ
er ĠyueĠ
zhuan ĠdeĠ
touĠ luĠ
Ġ se
lv ĠdeĠ
xiĠ juĠ
ĠĠĠ mingĠ
bing ĠdeĠ
jiang ĠjiĠ
wuĠ siĠ
maĠ laĠ
h Ġ
chang ĠzhiĠ
faĠ xingĠdeĠ
gouĠ maiĠ
ĠshengĠhuoĠxiĠ xingĠbuĠmingĠ
to ĠĠĠ
Ġ lao
tian ĠqiĠ
ĠyiĠ daiĠ
que ĠdeĠ
ter Ġ
xinĠ yangĠ
Ġ canĠjiaĠ
tongĠ paiĠ
zuoĠ biaoĠweiĠ
jiangĠ lingĠ
ĠmeiĠ geĠ
anĠ zhuangĠ
jiuĠ longĠ
Ġ sha
ĠĠĠ beiĠjingĠ
liangĠ xiangĠ
ĠwuĠ faĠ
jiaĠliĠ fuĠ
xinĠ xingĠ
huoĠ shanĠ
guanĠ jianĠ
zuĠ zhiĠdeĠ
keĠneng ĠshiĠ
jing ĠzhongĠ
lu ĠjiĠ
25 ĠnianĠ
cheng ĠheĠ
taiĠ beiĠshiĠ
jiuĠ duĠ
ĠĠĠ Ma
er ĠzhiĠ
ĠĠĠciĠ waiĠ
1 ĠliĠ
Ġ yongĠyouĠ
jieĠ sanĠ
ruĠ qinĠ
liang ĠzhiĠ
houĠ beiĠ
keĠyiĠ zaiĠ
Ġ dong
kong ĠqiĠ
Ġyue ĠzhongĠ
bai ĠrenĠ
ĠzaiĠ ci
fangĠ yanĠ
lunĠ wenĠ
shang ĠbuĠ
zhuĠ yiĠdeĠ
guiĠ zuĠ
ĠzhongĠguoĠ daĠluĠ
Ġ di
zhangĠ aiĠ
ai ĠjiĠ
zheĠ xie
chuanĠ shuoĠ
2Ġ haoĠ
kaoĠ guĠ
Ġ juĠyouĠ
cheng ĠnianĠ
1949 ĠnianĠ
fuĠ jinĠdeĠ
ĠchuĠ xianĠ
Ġ gongĠyouĠ
Ġ 2009
chu ĠbuĠ
qu ĠjiĠ
yuĠ yanĠ
Ġyin ĠqiĠ
Ġ yongĠyuĠ
man ĠdeĠ
jingĠ fangĠ
ĠshiĠshiĠ jieĠ
xinĠjiaĠ poĠ
Ġ zhongĠshiĠ
mo ĠsiĠkeĠ
geĠ ming
ĠĠĠjuĠ qingĠ
lian ĠzaiĠ
ĠbiĠ ruĠ
huan ĠzheĠ
kao ĠjinĠ
shenĠ me
suoĠ shuĠ
qian ĠrenĠ
1980 ĠnianĠ
ĠĠĠ 2010
ĠweiĠ ciĠ
zhanĠ tingĠ
ĠshiĠjiĠ shangĠ
ĠĠĠ 2011
4 ĠgeĠ
yunĠ nanĠ
Ġ diĠshiĠ
ming ĠrenĠ
le ĠyuĠ
zuoĠ zheĠ
zhou ĠjiĠ
zhongĠ dianĠ
guangĠdongĠ shengĠ
gao ĠdaĠ
ĠshiĠ riĠbenĠ
muĠ qin
Ġ xiao
ĠĠĠ ben
ĠsiĠ chuanĠ
Ġ 2008
quĠ leĠ
zhe ĠweiĠ
ĠguoĠ chengĠzhongĠ
baoĠ zhangĠ
taiĠ duĠ
ĠgongĠ tongĠ
ĠteĠbie ĠshiĠ
Ġ qiĠshiĠ
Ġ 2013ĠnianĠ
zong ĠshiĠ
ĠchuĠ shengĠyuĠ
yang ĠjiĠ
chuĠ yanĠ
jiang ĠzaiĠ
yinĠ qingĠ
shuangĠ fangĠ
24 ĠnianĠ
changĠ jianĠdeĠ
Ġ kai
ĠĠĠ 17
qu ĠyiĠhuiĠ
yin ĠheĠ
ĠyouĠ ciĠ
quanĠ zhangĠ
Ġ canĠyuĠ
40 Ġ
xunĠ yangĠ
faĠ huiĠ
wanĠ gongĠ
ĠrenĠ mingĠ
hua ĠyiĠ
yingĠ xiongĠ
xiuĠ zhengĠ
hua ĠzhiĠ
gan ĠbuĠ
youĠ xianĠ
ĠshiĠdeĠ guoĠ
1 ĠĠĠ
fang ĠyiĠ
sui ĠshiĠ
ĠqiĠ xiĠ
tiao ĠliĠ
1986 ĠnianĠ
xiangĠ guanĠdeĠ
chu ĠzaiĠ
cuo ĠwuĠ
ĠjiaĠ tingĠ
bianĠ juĠ
ĠĠĠdiĠ fangĠ
Ġ re
ĠguoĠ huiĠ
ban ĠbuĠ
ĠyiĠ xiaoĠshiĠ
shengĠ taiĠ
shouĠ xiangĠ
ĠbingĠ duĠ
taoĠ taiĠ
ĠĠĠ qiĠtaĠ
hu ĠbuĠ
nengĠ liangĠ
ĠĠĠ meiĠguoĠ
yuanĠ zeĠ
faĠ lanĠxiĠ
ĠwuĠkeĠ lanĠ
Ġ su
lao ĠdeĠ
ĠyueĠ tuanĠ
zhouĠ ciĠshiĠ
shu ĠliĠ
ĠxueĠ xiaoĠ
Ġ cai
chu ĠzhiĠ
zui ĠyouĠ
feng ĠweiĠ
luĠ yingĠ
luĠ kouĠ
ĠĠĠ diĠerĠ
qingĠ huaĠ
yaoĠ qiu
guĠ fen
keĠdeĠ qiĠzhongĠyiĠzhongĠ
Ġ duanĠ
hui ĠbuĠ
huoĠ xingĠ
qingĠ qiuĠ
kaiĠ sheĠ
zhi ĠdeĠshiĠ
si ĠzhiĠ
faĠ guanĠ
meiĠ shuĠ
dangĠ diĠdeĠ
ĠweiĠ chiĠ
ĠzhongĠhuaĠrenĠminĠgongĠheĠguoĠ zhengĠzhiĠrenĠwuĠ
heĠ xinĠ
gaiĠ chengĠ
n uan
ĠheĠ xinĠ
Ġ cha
dai ĠshiĠ
ling ĠrenĠ
han ĠyuĠ
Ġ 2022
hen ĠdaĠ
fou Ġ
ĠheĠ zhongĠ
ĠpingĠ junĠ
dao ĠbuĠ
ĠĠĠ Re
zhuang ĠjiĠ
cui ĠhuiĠ
ĠjiĠ nian
luĠ keĠ
han ĠyouĠ
chengĠ keĠ
qiangĠ diaoĠ
1945 ĠnianĠ
ĠĠĠ danĠ
xia ĠweiĠ
Ġ dui
en ĠshengĠ
lai ĠshiĠ
dang ĠweiĠ
Ġ 25
Ġ 2006ĠnianĠ
bei ĠweiĠ
huan ĠxingĠ
yaĠ junĠ
canĠ kaoĠ
Ġwan ĠjiaĠ
zheng ĠweiĠ
1987 ĠnianĠ
tianĠ jingĠ
beiĠrenĠ mingĠweiĠ
yuan ĠzhongĠ
huan ĠdeĠ
gongĠ yingĠ
zuiĠ gaoĠdeĠ
niĠyaĠ zhouĠ
Ġ maiĠkeĠ
ri ĠdeĠ
neng ĠzaiĠ
ĠyiĠ zuoĠ
xiĠ laĠ
ĠA Ġ
dengĠ dengĠ
liang ĠnianĠ
22 ĠnianĠ
xiaĠ quĠ
suoĠ chuĠdeĠ
dangĠ juĠ
ya ĠyiĠ
suo ĠzhiĠ
xiu ĠfuĠ
27 ĠnianĠ
chengĠ benĠ
qingĠ xingĠ
xieĠ daoĠ
tiĠyuĠ changĠ
Ġ xiong
xie ĠerĠ
shangĠ haiĠshiĠ
tuĠ poĠ
sheng ĠyouĠ
bai ĠdeĠ
21 ĠnianĠ
xianĠ shengĠ
ĠyeĠ jiuĠshiĠ
18 ĠnianĠ
ĠdaĠ duoĠ
teĠ dingĠ
kun ĠnanĠ
renĠ yuanĠ
ĠdaĠ xingĠ
yinĠ ruĠ
xiang ĠweiĠ
tai ĠzhongĠ
ĠshiĠ yong
aĠlaĠ boĠ
xiang ĠyouĠ
ĠyiĠ fuĠ
ĠjiĠ buĠ
kaiĠ fa
jing ĠzhiĠ
keĠ xueĠyuanĠ
huoĠ banĠ
19 ĠnianĠ
duo ĠweiĠ
tan ĠdeĠ
shun ĠliĠ
1982 ĠnianĠ
fenĠbuĠ zaiĠ
le ĠqiĠ
laĠ dingĠ
Ġsui ĠzhuĠ
le ĠzaiĠ
xiĠ baoĠ
hongĠ zha
7 ĠrenĠ
cheng ĠguoĠ
jun ĠzhiĠ
zhanĠ xianĠ
ĠdaĠ fuĠ
ĠxiĠbanĠ yaĠ
Ġ meng
daĠ huiĠ
Ġxiang ĠnianĠ
15 ĠnianĠ
chui Ġ
wangĠ yuanĠ
ke ĠyouĠ
6 ĠrenĠ
ĠxiĠ erĠ
ruĠ qin
qiangĠ lieĠ
ze ĠzaiĠ
13 ĠnianĠ
shouĠ gouĠ
ĠkeĠ erĠ
henĠ kuaiĠ
Ġ qing
Ġ 2012ĠnianĠ
wuĠ ziĠ
manĠ zuĠ
Ġ p
Ġ wenĠhuaĠ
chuan ĠdeĠ
ĠbuĠ jinĠ
haiĠ yangĠ
jing ĠheĠ
gai ĠshiĠ
zhongĠguoĠ daĠluĠdeĠ
ĠĠĠ 2
xiaoĠ yuanĠ
haiĠ pingĠmianĠ
Ġ00 Ġ
suo ĠweiĠ
xiu ĠjianĠ
shengĠ chuĠ
ĠtaĠcengĠ daiĠbiaoĠ
ganĠran ĠzheĠ
11 ĠnianĠ
1983 ĠnianĠ
ĠshiĠ geĠ
ĠheĠ lanĠ
tongĠ mengĠ
heiĠ seĠ
zu ĠyiĠ
ĠriĠ junĠ
li ĠyuĠ
ĠĠĠ yinĠ
bei ĠyuĠ
xue ĠyuĠ
lai ĠyueĠ
Ġ te
ciĠshiĠjieĠdaĠ zhanĠ
ĠĠĠ aĠ
jia ĠweiĠ
tai ĠyuĠ
zui ĠweiĠ
huang ĠhouĠ
zhaoĠ pianĠ
yin ĠliĠ
beng Ġ
yaĠ meiĠ
zhou ĠzhiĠ
ĠzuĠ fuĠ
jiang ĠzhiĠ
zhen ĠyuĠ
paiĠming ĠdiĠ
jing ĠyiĠ
hao ĠshiĠ
guĠ daiĠ
geiĠ leĠ
zhu ĠzhiĠ
zhang ĠweiĠ
renĠ leiĠ
dangĠ yuanĠ
ĠwanĠ yuanĠ
ĠtongĠshiĠ gaiĠdiĠ
hou ĠweiĠ
daĠ jiangĠ
ĠdeĠjiĠ chuĠ
ĠguangĠ dongĠ
ding ĠqiĠ
ĠjiĠ duĠ
shangĠ changĠ
benĠ shenĠ
zuĠqiuĠ yunĠdongĠyuanĠ
boĠshiĠ xueĠweiĠ
2 ĠgeĠ
xiang ĠheĠ
qiang ĠzhiĠ
beiĠ jingĠshiĠ
jiuĠ huiĠ
nongĠ minĠ
neiĠluĠ shengĠfenĠ
chengĠ baoĠ
Ġmei ĠnianĠ
jiao ĠzhiĠ
liang ĠguoĠ
ĠzhongĠ ziĠ
Ġa ĠerĠ
cheng ĠshiĠdeĠ
zhen ĠjiĠ
keĠ fuĠ
chu ĠyouĠ
chuangĠ banĠ
bang ĠdeĠ
ĠhuoĠ zheĠ
o ĠĠĠ
chuĠ shouĠ
xunĠ zhangĠ
xiaĠling ĠshiĠjianĠ
tong ĠweiĠ
jing ĠzaiĠ
le ĠyouĠ
duan ĠshiĠ
Ġ Z
te ĠxingĠ
mo ĠsiĠ
8 ĠrenĠ
Ġ pu
bianĠ haoĠ
tanĠ panĠ
Ġ liaoĠ
Ġ kuĠ
14 ĠnianĠ
Ġ saiĠjiĠ
ke ĠzhiĠ
ĠbuĠ diĠ
kuoĠ zhanĠ
ĠmuĠ qian
tang ĠdeĠ
xiangĠ xinĠ
shangĠ xiaĠ
luĠ xuĠ
Ġ 10Ġ
wan ĠdeĠ
min ĠdiĠ
diĠ qiuĠ
jiu ĠyiĠ
zao ĠzaiĠ
wo ĠdeĠ
wuĠ daoĠ
ĠbuĠ luoĠ
19 ĠshiĠjiĠ
paiĠ hangĠ
ta ĠweiĠ
jun ĠheĠ
chi ĠrenĠ
juĠ daĠ
ĠĠĠjianĠ jieĠ
mu ĠzhiĠ
gao ĠzhiĠ
fan ĠzhiĠ
renĠ gongĠ
xiĠ wangĠ
tianĠ tiĠ
kaiĠshiĠ shiĠ
Ġ tieĠ
xuan ĠdeĠ
weiĠyiĠ yiĠ
ĠjiĠ fuĠ
muĠ niĠ
Ġ 500
ĠrenĠ qiĠ
wuĠ zhengĠzhuangĠ
zheĠ xueĠ
suoĠ youĠdeĠ
ĠshiĠyiĠge ĠweiĠyuĠ
Ġ kanĠ
hui ĠguoĠ
ni ĠerĠ
ĠqiĠ cheĠ
nanĠ fangĠ
liangĠ mingĠ
miĠ yaĠ
ĠxianĠ houĠ
zi ĠzhongĠ
29 ĠnianĠ
Ġ 1950
xiĠ yaĠ
xiangĠ biĠ
jiangĠ jinĠ
shaĠ haiĠ
kaiĠshiĠ zaiĠ
yueĠ nanĠ
ĠĠĠdiĠfangĠ ziĠliaoĠ
qu ĠzhiĠ
dian ĠheĠ
ya ĠheĠ
rong ĠheĠ
diĠyiĠ weiĠ
Ġ 2014ĠnianĠ
bing ĠyiĠ
ling ĠyiĠgeĠ
fei ĠerĠ
feng ĠfuĠ
Ġnian ĠĠĠ
wenĠ duĠ
ĠĠĠ zengĠzuĠ
yan ĠyuĠ
duiĠ ciĠ
fangĠ jianĠ
Ġ tiaoĠ
Ġ zhiĠyiĠ
ping ĠdeĠ
nuo ĠfuĠ
ĠguoĠ quĠ
zi ĠzaiĠ
ceng ĠweiĠ
ĠĠĠ i
changĠ jianĠ
aoĠ zhouĠ
Ġ waĠ
yinĠ paiĠ
gaoĠ xiong
Ġ song
ye ĠjiĠ
ĠyiĠsiĠ lanĠ
ĠĠĠ jieĠ
zhou ĠheĠ
san ĠjiaĠ
shenĠ duĠ
ĠyiĠ wuĠ
Ġnian ĠweiĠ
qinĠ wangĠ
Ġ0 Ġ
nv ĠzhuĠ
ĠĠĠ 1Ġ
ding ĠshiĠ
xiu ĠdeĠ
ĠzhongĠ daĠ
ĠjiaĠ zuĠ
naĠ cui
guanĠliĠ juĠ
hu ĠweiĠ
yang ĠxingĠ
pei ĠzhiĠ
haiĠ baĠweiĠ
z Ġ
Ġ Co
ti ĠweiĠ
ĠkeĠ xiĠ
shanĠ fengĠ
ye ĠyiĠ
ĠjiĠ houĠ
tongĠ mingĠ
dongĠshiĠ zhangĠ
Ġ jiuĠshiĠ
zou ĠxiangĠ
xiaoĠ fangĠ
ĠĠĠ zhengĠ
zai ĠliĠ
zhu ĠweiĠ
te ĠĠĠ
ĠyouĠ zhongĠ
daĠ xiĠyangĠ
Ġ xu
liang ĠdaĠ
suoĠ caiĠyong
Ġbing ĠweiĠ
Ġ zengĠ
ĠĠĠ yingĠ
ĠbuĠ duanĠ
zhanĠ lve
ĠshiĠyiĠ buĠ
ĠxiĠ lie
ĠdaĠ duoĠshuĠ
gaiĠ zaoĠ
nengĠ yuanĠ
shou ĠrenĠ
erĠ tongĠ
19 Ġ
jun ĠrenĠ
ce ĠĠĠ
gongĠ chengĠshiĠ
23 ĠnianĠ
zhanĠ lanĠ
zhiĠshiĠ qiĠ
kaoĠ lv
5 ĠmiĠ
han ĠdeĠ
jieĠ tiĠ
ganĠ ranĠ
z ei
guĠ dingĠ
mengĠ gu
ba ĠheĠ
man ĠdiĠ
ĠbuĠ erĠ
wen ĠzhongĠ
ĠzaiĠ youĠ
geĠ juĠ
ĠĠĠ jingĠ
tai ĠheĠ
lun ĠshiĠ
leĠ zheĠ
Ġ ruoĠ
Ġ ku
jun ĠzhongĠ
ĠguoĠ neiĠ
shangĠ shengĠ
boĠ linĠ
ĠweiĠyuĠ gaiĠ
ge ĠyuĠ
jie ĠliĠ
muĠ qian
jueĠ duiĠ
jie ĠzhongĠ
hui ĠyiĠyuanĠ
zhengĠ xie
gong ĠliĠdeĠ
kou ĠdeĠ
ĠshiĠ yeĠ
ĠerĠ feiĠ
diaoĠ kuai
aiĠerĠ lanĠ
c ĠĠĠ
dao ĠweiĠ
xiaoĠ feiĠ
ĠfuĠ qinĠ
mianĠ duiĠ
Ġ 187
qianĠ dingĠ
xiaĠ lingĠ
ĠdeĠyiĠ shuĠ
ĠdongĠ nanĠ
san ĠweiĠ
ĠweiĠ UTCĠ
shengĠ diĠ
zhuĠyiĠ zheĠ
xiongĠ yaĠliĠ
lianĠheĠ huiĠ
Ġ 28
zhou ĠyiĠ
san ĠdaĠ
yanĠ haiĠ
Ġc nĠ
ĠĠĠ jiaoĠtongĠ
zhu ĠheĠ
wen ĠheĠ
ĠerĠ qiĠ
ziĠ shenĠ
diaoĠkuai ĠyiĠxiaoĠshiĠ
Ġ genĠ
ĠĠĠ maĠ
cheng ĠyouĠ
zhang ĠyueĠ
chong ĠjiĠ
1978 ĠnianĠ
guoĠ huiĠ
liuĠ xiaĠ
chuangĠ zaoĠ
luo ĠshiĠ
bian ĠyiĠ
lao ĠshiĠ
ĠjiĠ UTCĠ
paiĠ qianĠ
sheĠyouĠ xiaĠlingĠshiĠjianĠ
ĠdeĠshiĠquĠweiĠ UTCĠ
ĠerĠgaiĠdiĠ suoĠcaiĠyong
ĠtongĠshiĠgaiĠdiĠ sheĠyouĠxiaĠlingĠshiĠjianĠ
ĠerĠgaiĠdiĠsuoĠcaiĠyong ĠdeĠshiĠquĠweiĠUTCĠ
shu ĠrenĠ
nanĠ haiĠ
Ġling ĠyouĠ
jingĠ gaoĠ
jianĠliĠ leĠ
miĠshuĠ zhangĠ
ming ĠzhongĠ
xiangĠ tongĠdeĠ
bingĠ feiĠ
lieĠ ruĠ
guan ĠheĠ
zhang ĠheĠ
cai ĠdeĠ
in Ġ
biĠyeĠ houĠ
gaoĠyuĠ haiĠpingĠmianĠ
dang ĠjiĠ
ĠzhongĠ gongĠzhongĠyangĠ
ru ĠdeĠ
ĠqiĠ fuĠ
biaoĠ benĠ
Ġ chi
Ġ sa
ĠzhongĠ shanĠ
gaiĠ mingĠweiĠ
quĠdeĠ mianĠjiĠweiĠ
ĠqiĠzhongĠ baoĠkuoĠ
haiĠbaĠweiĠ gaoĠyuĠhaiĠpingĠmianĠ
jinĠ xingĠdeĠ
fa ĠzhiĠ
mang Ġ
jingĠ duĠ
guanĠ cha
changĠ suoĠ
tan ĠxianĠ
shouĠ xianĠ
ĠgeĠ quĠ
zhan ĠyuĠ
ĠshiĠ beiĠ
buĠshiĠ quĠ
Ġ ziĠyouĠ
fang ĠjiĠ
daĠ louĠ
zhengĠ ce
banĠ ben
da ĠyiĠ
st Ġ
.. .
Ġyue ĠyiĠ
Ġ shanĠxiĠ
shang ĠdiĠ
chao ĠyueĠ
qun ĠzhongĠ
26 ĠnianĠ
al ĠĠĠ
Ġ 2025
Ġ 2015ĠnianĠ
ben ĠrenĠ
dou ĠzaiĠ
pingĠ guĠ
tiao ĠjieĠ
yanĠ seĠ
zhangĠ fuĠ
cunĠ luoĠ
st ĠĠĠ
tuĠ jingĠ
yi ĠshiĠdeĠ
suo ĠzaiĠdiĠ
shuang ĠdaĠ
1972 ĠnianĠ
cheĠ xiangĠ
ĠhuoĠ dongĠ
ĠluoĠ maĠ
li ĠdeĠ
deng ĠzhiĠ
ĠdaĠ luĠ
Ġ 24
danĠ baiĠ
Ġ rongĠ
gong ĠweiĠ
17 Ġ
gongĠ neng
suoĠchuĠdeĠ haiĠbaĠweiĠgaoĠyuĠhaiĠpingĠmianĠ
changĠ jingĠ
3Ġ haoĠ
tuiĠ xiuĠ
sheĠ xianĠ
feiĠ erĠdeĠ
xiao ĠyuĠ
ĠbuĠ xiangĠ
ĠĠĠ 190
duan ĠshiĠjianĠ
lai ĠsiĠ
jianĠ kangĠ
shenĠ huaĠ
luoĠ faĠ
Ġer ĠdeĠ
ou ĠxiangĠ
san ĠrenĠ
diĠ xiaĠ
ĠzaiĠ taĠ
huiĠ guiĠ
ĠerĠ buĠshiĠ
tiĠ xingĠ
yinĠ xiangĠ
caiĠ nengĠ
ĠdeĠjiĠ luĠ
ĠĠĠ anĠ
le ĠdeĠ
yan ĠrenĠ
daĠ buĠfen
Ġ shuoĠ
yan ĠheĠ
ction ĠĠĠ
quĠ zhuĠ
ĠmeiĠ yuanĠ
yin ĠyuĠ
luo ĠyuĠ
juĠ leĠ
naĠ xieĠ
Ġ Y
zuĠqiuĠ duiĠ
ĠĠĠ 4
mian ĠyiĠ
shuai ĠlingĠ
ĠqiĠ xuanĠ
zaiĠyiĠ qiĠ
ĠĠĠ 2Ġ
xuan ĠzhongĠ
1979 ĠnianĠ
boĠ lan
keĠnengĠ huiĠ
qian ĠyueĠ
yanĠ zhongĠdeĠ
yongĠ leĠ
ĠluĠ wa
Ġ Mi
ĠyiĠ shengĠ
ĠheĠ daoĠ
zuĠ cheng
Ġwan ĠliĠ
canĠ xuanĠ
kong ĠxiĠ
ĠzhongĠ dianĠ
Ġsui ĠshiĠ
ĠĠĠ diĠyiĠ
Ġnian ĠshiĠjieĠ
huĠ xiangĠ
quan ĠyiĠ
se ĠfuĠ
fuĠ xingĠ
changĠ shangĠ
lianĠ luoĠ
zhou ĠliĠ
qingĠ jieĠ
9 ĠrenĠ
dan ĠshiĠ
Ġ 2016ĠnianĠ
tu ĠjiĠ
1958 ĠnianĠ
tiĠgongĠ leĠ
que ĠshiĠ
beiĠ fangĠ
daiĠ lingĠ
kai ĠdeĠ
beiĠ siĠ
guan ĠyiĠ
mu ĠerĠ
17 ĠnianĠ
huaĠ jiaĠ
ĠmaĠ lai
Ġ 2007
Ġ 7Ġ
Ġ chaoĠxianĠ
shu ĠbuĠ
fa ĠyiĠ
ding ĠliĠ
60 Ġ
xianĠ zhuĠ
duiĠ yingĠ
zhenĠ quĠdeĠmianĠjiĠweiĠ
Ġ 2023
ĠĠĠ meiĠ
23 Ġ
ĠzhiĠ shuĠ
ziĠ chanĠ
faĠ shengĠzaiĠ
1 ĠgeĠ
zhong ĠyiĠyuanĠ
nei ĠdiĠ
heĠ liuĠ
ceng ĠdeĠ
diĠ quĠdeĠ
zhengĠ bianĠ
mianĠ feiĠ
u Ġ
er i
diĠ wuĠ
zuiĠ duoĠ
zhuanĠ menĠ
zuĠqiuĠ juĠleĠbuĠ
ĠĠĠ 2008
qian ĠxiĠ
kao ĠshiĠ
geĠ guoĠ
baoĠ luoĠ
suĠ geĠlanĠ
ĠshouĠ daoĠ
ti ĠheĠ
shang ĠjiĠ
yan ĠjiĠ
bing ĠyuĠ
she ĠzaiĠ
ziĠ xun
guanĠ ceĠ
muĠsiĠ linĠ
ru ĠweiĠ
kaĠ laĠ
ĠyuanĠ mingĠ
shen ĠyiĠ
sheĠ jiĠshiĠ
ĠshouĠ ciĠ
Ġ 2ĠyueĠ
san ĠbuĠ
zhongĠ yao
baoĠ cunĠ
tianĠ houĠ
ĠĠĠ yanĠ
ĠyuĠ xiĠ
wuĠ guanĠ
ĠĠĠ xingĠ
ĠbuĠ laĠ
feiĠ yanĠ
zaoĠ shangĠ
zhongĠguoĠ daĠluĠ
k ĠĠĠ
o nal
ll Ġ
16 ĠnianĠ
mianĠ dianĠ
gengĠ xinĠ
qing ĠrenĠ
1976 ĠnianĠ
ĠĠĠ ran
chu ĠweiĠ
ping ĠguoĠ
tui ĠjianĠ
liao ĠdeĠ
cu Ġ
quanĠ xianĠ
gao ĠshiĠ
chai Ġ
guoĠ neiĠ
chuanĠ tongĠdeĠ
ĠbeiĠ chengĠweiĠ
1960 ĠnianĠ
juĠ fengĠ
wanĠ zhengĠ
shouĠ quanĠ
ĠxiangĠ guanĠ
zhu ĠzhongĠ
shu ĠzaiĠ
lang ĠzhongĠ
tongĠ xunĠ
hua ĠzaiĠ
bianĠ jingĠ
shanĠ xianĠ
jue ĠyuĠ
00 Ġ
miao ĠhuiĠ
yuanĠ xianĠ
xieĠ zuoĠ
Ġ kan
fuĠ zhuĠ
zan ĠzhuĠ
ĠdiĠ diĠ
tuĠ shuĠ
l li
Ġ shao
cheng ĠzaiĠ
mu ĠyuĠ
guiĠ mo
ju ĠzaiĠ
ba ĠsiĠ
pian ĠzhongĠ
geĠ laĠ
faĠ mingĠ
ĠdiĠ qiuĠ
luoĠ shanĠjiĠ
cheĠ changĠ
Ġ peng
Ġ 2019ĠnianĠ
li ĠziĠ
feng ĠdeĠ
ve Ġ
You Tu
ĠzhongĠ xingĠ
piĠ zhun
p p
Ġ 50
ĠĠĠ gongĠ
ĠshiĠ jiaĠ
ĠzhiĠ waiĠ
ĠliĠ chengĠ
ĠĠĠof ĠĠĠ
ba ĠdaĠ
tun Ġ
xingĠ muĠ
xianĠ ruĠ
jinĠ riĠ
quĠ jianĠ
zhangĠ zhuanĠjiĠ
ĠzuiĠ gaoĠ
Ġ lv
xing ĠzaiĠ
xue ĠzhongĠ
ĠnianĠ laiĠ
ĠbiĠ saiĠ
Ġ nuoĠ
yin Ġyue
zhou ĠrenĠ
pingĠ lun
jiang ĠyiĠ
ĠshanĠ dongĠ
guoĠminĠ dangĠ
Ġ hei
Ġ 26
Ġ xiaoĠshiĠ
Ġ jueĠdingĠ
liang ĠheĠ
bian ĠzhiĠ
jiuĠ yuanĠ
ĠĠĠ renĠ
chuĠ zhangĠ
ĠdeĠshiĠ yongĠ
Ġci ĠnianĠ
gai ĠzhiĠweiĠ
ĠliĠ liangĠ
ĠyouĠ zaiĠ
luo ĠliĠdaĠ
lin ĠsiĠ
ĠshiĠ taĠ
ĠyuĠ beiĠ
juĠ benĠ
jiaoĠ duĠ
tianĠ zhuĠ
zaoĠ chengĠdeĠ
Ġ 2017ĠnianĠ
xiaoĠ yingĠ
g ra
ao ĠerĠ
shouĠ boĠ
su ĠliĠ
ĠshiĠjianĠ zhuĠ
ban ĠjiĠ
1920 ĠnianĠ
shangĠ xianĠ
zhangĠ ziĠ
huĠ lianĠ
Ġ 2018ĠnianĠ
ĠĠĠ dongĠ
diĠ qiĠ
Ġhuo ĠshiĠ
Ġ i
fuĠ shuĠ
zhanĠ muĠsiĠ
ai ĠliĠ
Ġ tang
Ġ lianĠheĠ
yun ĠdeĠ
lie ĠshiĠ
tou ĠxianĠ
luĠ zhanĠ
ĠhouĠ zheĠ
ji ĠĠĠ
ĠĠĠ geĠrenĠ
ding ĠjiĠ
ĠweiĠ beiĠ
yunĠ yongĠ
ma ĠshiĠ
co l
naĠ xiaĠ
ĠĠĠ nanĠ
huai ĠyiĠ
ĠpuĠ taoĠ
ĠĠĠ duiĠ
xia ĠzaiĠ
xu ĠjiĠ
ĠyiĠ dongĠ
ĠweiĠyuĠ zhongĠguoĠ
ĠĠĠ baĠ
chu ĠzhongĠ
guan ĠjiĠ
miĠ niĠ
ĠyingĠ wenĠ
Ġ sang
can ĠyiĠ
ĠdiĠ yaĠ
huoĠ cheĠ
qiangĠ duĠ
yao ĠshiĠ
baoĠ hu
leiĠ siĠdeĠ
Ġai ĠerĠ
shao ĠdeĠ
xinĠ guanĠ
huoĠ biĠ
Ġ shuang
zha ĠdanĠ
jiaoĠ chaĠ
ba ĠerĠ
ĠzhiĠ buĠ
juĠ banĠdeĠ
xueĠ keĠ
chuanĠ meiĠ
ĠgaiĠ bianĠ
canĠ tingĠ
Ġ zaĠzhiĠ
dao ĠzaiĠ
dui ĠzhongĠ
ĠnianĠ diĠ
bingĠ duĠ
xingĠzhengĠ quĠ
ĠxuĠ yaoĠ
Ġ zuĠzhiĠ
ch Ġ
ĠshiĠ chengĠ
xiĠ nanĠbuĠ
zuiĠ zao
taiĠ houĠ
Ġming ĠzhiĠ
xinĠjiaĠ po
wu ĠyueĠ
zheng ĠjiĠ
luo ĠyiĠ
faĠ xianĠdeĠ
tiĠ chuĠdeĠ
ĠshiĠyiĠ keĠ
ĠxinĠ wenĠ
gan ĠyuĠ
Ġ 35
Ġ kouĠ
Ġ 30Ġ
fa ĠliĠ
ĠdaĠ buĠfen
zhuanĠ xieĠ
Ġ yang
ĠĠĠ 2009
zong ĠyiĠ
juĠ ban
taiĠ kongĠ
Ġ 2006
xi ĠyouĠ
chu ĠguoĠ
xue ĠliĠ
zhe ĠheĠ
bai ĠyuĠ
pin ĠdeĠ
ĠshiĠ erĠ
jueĠ sai
ĠshiĠshiĠ yongĠ
zong ĠrenĠkouĠ
teĠ quĠ
suiĠ ran
Ġ lunĠ
ĠĠĠ 10
dai ĠyiĠ
ĠbingĠ beiĠ
Ġ hangĠ
zhuĠ daoĠ
xiangĠ faĠ
ĠxiĠ yinĠ
qingĠ zhuĠ
jiang ĠliĠ
meiĠ junĠ
ĠĠĠ houĠ
xue ĠjiĠ
al Ġ
ĠdiĠ zaiĠ
tongĠ xinĠ
Ġ chunĠ
Ġ 2004ĠnianĠ
shangĠ wangĠ
ba ĠdeĠ
ĠnianĠ qianĠ
jinĠ rong
jiaoĠ huanĠ
wuĠzhengĠzhuangĠ ganĠranĠzheĠ
Ġ yanĠjiuĠ
Ġ 2021ĠnianĠ
xing ĠshiĠdeĠ
su ĠzhiĠ
tou ĠdeĠ
fuĠ muĠ
he ĠĠĠ
mi ĠsiĠ
te ĠjiĠ
chengĠ leĠ
sheĠ jiaoĠ
duanĠ pianĠ
Ġma ĠliĠ
ĠchuĠ banĠ
aĠ genĠ
sui ĠzheĠ
xinĠ jianĠ
shen ĠyuĠ
ve ĠĠĠ
geĠ ziĠ
ĠdeĠyiĠ yuanĠ
ju ĠzhiĠ
dui ĠjiĠ
dian ĠweiĠ
min ĠyiĠ
1968 ĠnianĠ
qiĠ zhongĠ
zuĠ jieĠ
ĠshiĠrenĠ minĠ
xianĠzhiĠ xianĠ
Ġ 29
ĠĠĠ liuĠ
xian ĠliĠ
ta ĠyiĠ
che ĠdiĠ
fangĠ mian
minĠ zu
Ġ shui
shou ĠbuĠ
chuan ĠqiĠ
1964 ĠnianĠ
faĠ sheng
guĠ laĠ
huangĠ seĠ
ĠĠĠ tianĠ
dang ĠnianĠ
1956 ĠnianĠ
biĠ xu
yong ĠzaiĠ
te ĠheĠ
ĠdeĠ huaĠ
daĠ xiaoĠ
zhengĠ quĠ
huoĠ shengĠ
teĠ dianĠ
Ġta ĠheĠ
ĠĠĠshiĠ yongĠ
Ġ 2020ĠnianĠ
du ĠguoĠ
zhang ĠzhiĠ
zan ĠshiĠ
Ġ mao
qiĠ laiĠ
xiĠ beiĠbuĠ
siĠ daĠ
Ġ shun
zui ĠdiĠ
lin ĠjinĠ
leĠ yuanĠ
luoĠ chengĠ
zuiĠ zaoĠ
yunĠ dongĠdeĠ
bangĠ qiuĠ
buĠdeĠ cunĠzhuangĠ
Ġ huan
gaoĠ duĠweiĠ
ĠyouĠ zhuĠ
lai ĠyuĠ
changĠ biĠsaiĠ
gangĠ kouĠ
xunĠ lian
gongĠyuanĠ qianĠ
Ġ ge
ci ĠdiĠ
chengĠ jiuĠ
xinĠ jiangĠ
gongĠzuo ĠshiĠ
an ĠzhiĠ
dan ĠdaĠ
wuĠ diĠ
Ġ weiĠyiĠ
yong ĠjiĠ
ĠgongĠ yeĠ
ĠshuangĠ fangĠ
qiĠ cheĠ
lingĠ chenĠ
1980 ĠnianĠdaiĠ
xianĠ chengĠ
faĠ tingĠ
e ĠdeĠ
Ġ 27
ĠshiĠ houĠ
zhongĠ huaĠminĠguoĠ
shanĠ maiĠ
ĠdeĠyiĠ xieĠ
chuĠbanĠ sheĠ
jingĠneiĠ gongĠyouĠ
Ġ Q
xian ĠzhongĠ
shengĠ daoĠ
Ġ ì
hui ĠweiĠ
xianĠ shangĠ
jiangĠ shuĠ
sanĠ mingĠ
dao ĠyouĠ
hou ĠjiĠ
han ĠziĠ
ĠyiĠ gongĠ
xinĠ jieĠ
ĠxiangĠ muĠ
ĠgeĠ shouĠ
Ġ Jo
xiao ĠliĠyuĠ
hai ĠzaiĠ
qiĠ houĠ
ĠjiaĠ laĠ
le ĠzhongĠ
lieĠ chuĠ
cheng ĠzhiĠweiĠ
san ĠzhongĠ
xiu ĠdaoĠ
Ġ henĠ
ĠdaĠ jiaĠ
qianĠ jinĠ
ĠheĠ liuĠ
daĠ diĠ
laiĠ yinĠ
zanĠ tingĠ
bi ĠliĠshiĠ
bai ĠkeĠ
ĠyiĠ bianĠ
Ġzhao ĠheĠ
w ĠĠĠ
ruan ĠtiĠ
th Ġ
jianĠ duĠ
yeĠ fuĠ
Ġta ĠyouĠ
ĠerĠgaiĠ diĠdeĠ
ĠĠĠ daoĠ
tong ĠheĠ
ĠdaĠ jiangĠ
ĠdanĠ yinĠ
jin ĠyuĠ
fen ĠqiĠ
dui ĠheĠ
huo ĠzaiĠ
qianĠ tingĠ
Ġtong ĠyiĠ
ĠliangĠ geĠ
tiĠ daiĠ
ĠĠĠgaiĠ yaoĠ
ĠbuĠ daoĠ
xiangĠ yingĠ
ĠweiĠfuĠqiĠyuĠ gang
ao ĠdeĠ
dui ĠdiĠ
ya ĠrenĠ
1990 ĠnianĠdaiĠ
chengĠ quĠ
jingĠ guanĠ
wangĠ wangĠ
ĠtaĠmen ĠzaiĠ
fa ĠjiĠ
tan ĠheĠ
faĠ dongĠjiĠ
Ġ dianĠshiĠ
an ĠliĠ
que ĠbaoĠ
maĠ touĠ
ĠzuiĠ chuĠ
ĠcaiĠ yongĠ
xing ĠyouĠ
qun ĠtiĠ
1970 ĠnianĠ
ĠqiĠ bingĠ
bianĠ yuanĠ
Ġ X
dan ĠyiĠ
buĠ menĠ
ch uo
yun ĠheĠ
na ĠheĠ
pin ĠzhongĠ
1981 ĠnianĠ
Ġli ĠliĠ
fuĠ haoĠ
pingĠ yuanĠ
ĠdeĠshiĠ jiĠ
wan ĠliĠ
shuĠ chuĠ
Ġ ceĠ
Ġ jinĠshiĠ
chang ĠjiĠ
jiu ĠzaiĠ
kuo ĠjianĠ
ĠtaĠ renĠweiĠ
dian ĠshiĠjieĠ
siĠ lanĠ
yeĠ keĠyiĠ
fenĠ peiĠ
ĠĠĠjiaĠ tingĠ
ĠyueĠ duiĠ
ĠxiĠ tongĠdeĠ
juĠ yuanĠ
guiĠ fanĠ
Ġ nengĠ
Ġ 2002ĠnianĠ
1948 ĠnianĠ
fuĠ za
sheĠ dingĠ
canĠ shuĠ
chuangĠ zuoĠdeĠ
pei ĠbeiĠ
wuĠ shuĠ
leĠyiĠ xieĠ
beiĠ jing
tuiĠ guangĠ
daĠshiĠ guanĠ
riĠben ĠdeĠ
quĠ fenĠ
jiaoĠ tang
suiĠ ranĠ
senĠ lin
e ĠguoĠ
Ġ Ro
ĠĠĠ shouĠ
ma ĠkeĠsiĠ
qiu ĠshiĠ
jieĠ duan
ĠzhongĠguoĠrenĠminĠ jieĠfangĠjunĠ
D ĠĠĠ
xuan ĠshiĠ
1952 ĠnianĠ
wuĠ zhuang
qianĠ shenĠ
saiĠ erĠweiĠ
gengĠ duoĠdeĠ
Ġxian ĠweiĠ
Ġ 40
Ġ Re
la ĠweiĠ
changĠ duĠ
tieĠluĠ cheĠzhanĠ
ĠzhongĠ jianĠ
beiĠ daĠ
yaĠ muĠ
duo ĠerĠ
ĠqiĠ zhong
zhongĠ buĠ
ĠyouĠ liangĠ
deng ĠyuĠ
ĠliĠ fuĠ
ĠqiĠ heĠ
shangĠ zhenĠ
baoĠ han
yeĠ jianĠ
duiĠ fangĠ
Ġ nongĠ
Ġ zhuanĠjiĠ
ĠĠĠ wangĠ
le ĠdiĠ
dou ĠbeiĠ
ĠbuĠ siĠ
chuĠ ziĠ
yeĠ shengĠyaĠ
5 ĠgeĠ
wang ĠweiĠ
mai ĠdeĠ
chengĠ weiĠyiĠ
yanĠ jingĠ
zeĠ dongĠ
zhang ĠjiĠ
ceng ĠshiĠ
banĠ jiangĠ
dengĠ changĠ
buĠdeĠ buĠ
ĠzaiĠ neiĠdeĠ
tuĠ xiangĠ
Ġ sunĠ
an ĠjiĠ
shan ĠdiĠ
ĠyiĠ meiĠ
qingĠ chaoĠ
s te
wen ĠjiĠ
tou ĠbuĠ
cong ĠweiĠ
keĠ yunĠ
zuĠ fuĠ
ĠgongĠ qingĠ
jun ĠbuĠ
huang ĠjinĠ
yeĠ shengĠ
teĠ laĠ
suĠ lian
Ġ 8Ġ
ze ĠyuĠ
kaiĠ gongĠ
ĠjieĠ shuĠ
lvĠ seĠ
YouTu be
xing ĠliĠ
hao ĠyouĠ
100 Ġ
zheĠ yangĠ
banĠ yanĠ
bei ĠliĠ
du ĠjiĠ
nan ĠsiĠ
Ġ tao
Ġ 45
1975 ĠnianĠ
zhuĠ ceĠ
xieĠ shangĠ
chiĠ xu
ĠshiĠshiĠ shangĠ
Ġ cunĠ
ĠĠĠ 193
shen ĠkeĠ
chen ĠjiĠ
1946 ĠnianĠ
1966 ĠnianĠ
riĠ baoĠ
dangĠ tianĠ
ĠziĠ yuanĠ
zhe ĠzhiĠ
che ĠshiĠ
ĠzaiĠ heĠ
ĠxiĠ anĠ
aĠlaĠ bo
jinĠ quĠ
fenĠ zhiĠyiĠ
xiaoĠ jieĠ
cheĠ duiĠ
ĠdeĠjiĠ huaĠ
Ġ tun
qu ĠyouĠ
quan ĠjiĠ
zhuan ĠweiĠ
Ã© Ġ
luĠ shangĠ
shenĠ meĠ
ĠfuĠzeĠ guanĠxiaĠ
mu ĠheĠ
deng ĠshiĠ
wai ĠweiĠ
dongĠ xianĠ
seĠ lie
ĠshiĠshiĠ jiĠ
Ġ Ï
sha ĠdeĠ
weiĠ yuanĠ
ĠqiĠ dongĠ
baiĠ wanĠ
dui ĠzhiĠ
ĠyiĠ qianĠ
xiangĠ qiĠ
haoĠ pingĠ
m p
ĠĠĠ chengĠ
bao ĠheĠ
fuĠ erĠ
zhengĠ shuĠ
shouĠ shuĠ
fanĠ ying
ĠfenĠ bieĠ
Ġ guang
ss Ġ
xuanĠ chengĠ
zongĠ jianĠ
ĠĠĠ guĠ
bing ĠzaiĠ
ĠzhongĠ qiĠ
mianĠ tiĠ
daiĠbiaoĠ tuanĠ
feiĠlvĠ bin
Ġ wa
ĠqiĠ xiĠzaiĠ
xiaoĠ liangĠ
qu ĠzhongĠ
hang ĠyeĠ
teĠ leiĠ
ĠbaoĠ huĠ
i r
ĠĠĠ de
biao ĠjiĠ
lie ĠsiĠ
yuanĠ benĠ
laiĠ naĠ
canĠ jia
Ġse ctionĠĠĠ
ĠĠĠ zhangĠ
zhan ĠweiĠyuĠ
feng ĠshiĠ
ĠyiĠ nian
ĠgeĠ leiĠ
Ġbing ĠbuĠ
ĠĠĠran ĠerĠ
lu ĠheĠ
zong ĠzhiĠ
ĠyuĠ 19
chuĠ xianĠdeĠ
haiĠ shangĠ
chang ĠdaĠ
jiang ĠyouĠ
bai ĠzhiĠ
niao ĠleiĠ
ĠyiĠ keĠ
fenĠ siĠ
tuĠ chuĠ
ĠgongĠ kaiĠ
zhan ĠyouĠ
duo ĠshiĠ
ĠqiĠzhongĠ nanĠxingĠ
ĠjiangĠ suĠ
Ġ pi
ĠĠĠ guangĠ
liang ĠbuĠ
hai ĠdiĠ
ni ĠxiĠyaĠ
1947 ĠnianĠ
jinĠ zhanĠ
baoĠ zha
ĠsiĠ daĠ
xie ĠweiĠ
gongĠ daĠ
moĠ niĠ
shaoĠ nvĠ
zhongĠguoĠ renĠminĠ
Ġ jianĠliĠ
bi ĠerĠ
zhang ĠyiĠ
dai ĠyuĠ
yanĠ anĠ
shenĠ zhenĠ
puĠtaoĠ yaĠ
xingĠ dong
geĠ buĠ
ĠĠĠgenĠjuĠ 2020ĠnianĠmeiĠguoĠrenĠkouĠpuĠchaĠdeĠshuĠjuĠ
¡ Ġ
ju ĠweiĠ
hou ĠzhiĠ
lu ĠyiĠsiĠ
xia ĠdiĠquĠ
ding ĠxingĠ
tion ĠĠĠ
changĠ jiangĠ
ĠlianĠ jieĠ
â Ĩ
zai ĠyiĠgeĠ
zhan ĠweiĠ
ĠguoĠ wuĠyuanĠ
daoĠ danĠ
laiĠ ziĠyuĠ
feiĠ yongĠ
Ġliu ĠyuĠ
Ġ fou
ĠĠĠ jingĠjiĠ
daĠ duoĠ
fuĠ zhouĠ
xiaoĠ xiangĠ
ĠĠĠ 2019ĠnianĠ
gong ĠyueĠ
jiao ĠdiĠ
zhengĠ mianĠ
fa ĠheĠ
ha ĠliĠ
1937 ĠnianĠ
ĠyouĠ suoĠ
gongĠkaiĠ saiĠ
Ġ 2000ĠnianĠ
zu ĠrenĠ
tian ĠjiaĠ
qiong Ġ
ĠshiĠ xiĠ
ĠguoĠ jiaĠdeĠ
ziĠ benĠ
ĠjinĠ shuĠ
kuoĠ zhangĠ
A N
ĠĠĠ The
dang ĠzaiĠ
Ġ 2005
hou ĠbuĠ
ĠshiĠ buĠ
xueĠ yeĠ
yuanĠzhuĠ minĠ
keĠ erĠ
beiĠ poĠ
ĠweiĠyuanĠhui ĠweiĠyuanĠ
Ġ 200
Ġ 2024
shu ĠdeĠzhiĠwuĠ
bei ĠyueĠ
wang ĠjiĠ
yang ĠheĠ
cha ĠshiĠ
1954 ĠnianĠ
ĠzaiĠ buĠ
leĠ duiĠ
yanĠ jiangĠ
taiĠ nanĠ
xuanĠ juĠzhongĠ
ĠB Ġ
ĠĠĠ 0
huo ĠliĠ
shui ĠdeĠ
gan ĠxianĠ
ĠnianĠ qingĠ
juĠ min
ĠshiĠyiĠ zuoĠ
Ġ SA
Ġ zuiĠjiaĠ
zhanĠ shuĠ
ĠshiĠdeĠ shiĠ
ĠĠĠqiĠ zhongĠ
Ġ In
lai ĠkeĠ
chuĠ changĠ
zheĠ yangĠdeĠ
chengĠliĠ houĠ
ĠjiĠjinĠ huiĠ
nanĠjiĠ zhouĠdeĠ
guĠfen ĠyouĠxianĠgongĠsiĠ
Ġ sai
gan ĠdeĠ
wo ĠerĠ
guĠ dianĠ
ri ĠyiĠ
jianĠ kang
huiĠ daĠ
wenĠ tiĠdeĠ
meiĠ guo
zongĠ caiĠ
ĠweiĠfuĠqiĠyuĠ gangĠ
ta ĠrenĠ
duo ĠliĠyaĠ
daĠ guiĠmoĠ
gongĠ anĠ
ĠguoĠ gongĠ
Ġhan tĠ
nuo ĠyiĠ
keĠ luoĠ
reĠdaiĠ fengĠbaoĠ
Ġ kaoĠ
ing Ġ
hu ĠxiĠ
ri ĠyuĠ
zuo ĠzhiĠ
shuai Ġling
1974 ĠnianĠ
Ġta ĠjiĠ
canĠ kao
ĠS Ġ
Ġ niuĠ
ĠĠĠ zhuĠyaoĠ
bie ĠdeĠ
ĠyuĠ diĠ
xinĠ taiĠ
men ĠshiĠ
ĠzhongĠ wenĠ
gongĠ jiaoĠ
zhuĠ banĠ
ĠdiĠ tuĠ
xuanĠ chuĠ
ĠshiĠyiĠ zhiĠ
cunĠ zaiĠdeĠ
ĠqianĠ wangĠ
ĠheĠ qiĠtaĠ
zuoĠ faĠ
ĠdaĠ erĠ
naĠ shengĠ
zhuanĠ yongĠ
hangĠ tianĠ
ru ĠyiĠ
meiĠguoĠ renĠ
xianĠdeĠyiĠgeĠ feiĠjianĠzhiĠdiĠquĠ
Ġ 2022ĠnianĠ
ya ĠzhongĠ
ĠzhiĠ shaoĠ
fangĠ miĠ
Ġ bao
Ġ lei
ĠĠĠ fanĠ
xue ĠbuĠ
qun ĠdeĠ
ĠshiĠ faĠ
youĠyiĠ xieĠ
ĠlingĠ wai
mei ĠshiĠ
ban ĠrenĠ
ding ĠzaiĠ
ĠzhiĠ jingĠ
luĠ wa
liangĠ ziĠ
lan ĠyuĠ
ck Ġ
duiĠ kangĠ
e ĠweiĠ
rao ĠtaiĠyangĠ
1955 ĠnianĠ
ciĠ quĠ
maĠ laiĠ
ĠnianĠyiĠ laiĠ
Ġ dunĠ
shang ĠweiĠyouĠ
jiu ĠyouĠ
ĠxingĠ jianĠ
xieĠ dingĠ
Ġ luo
Ġ 2003ĠnianĠ
ge ĠzaiĠ
ying ĠerĠ
niang Ġ
Ġ touĠguoĠ
ĠĠĠ 16
Ġyue ĠheĠ
duĠ huiĠ
chuan ĠguoĠ
wuĠ geĠ
sanĠ ciĠ
ĠzheĠ yangĠ
c ro
Ġ yong
ĠĠĠ 2007
shang ĠheĠ
II Ġ
zongĠ huiĠ
ĠfaĠ zhanĠ
ĠĠĠ 3ĠyueĠ
boĠ jueĠ
ĠxinĠ zengĠ
guoĠjiaĠ duiĠ
ĠguanĠ fangĠ
ĠĠĠqiĠ houĠ
jiaoĠ jieĠ
ĠshiĠyongĠ leĠ
haiĠbaĠ gaoĠduĠweiĠ
guang ĠdeĠ
gongĠ jueĠ
leiĠ xingĠdeĠ
Ġdang ĠshiĠdeĠ
jiaoĠyuĠ buĠ
wu ĠyouĠ
xingĠ zheng
wenĠ ti
ĠfuĠ qin
ĠjinĠ ru
Ġdan ĠqiĠ
ĠĠĠ jiangĠ
ta ĠheĠ
wai ĠxingĠ
gen ĠsuiĠ
ĠdiĠ liuĠ
yanĠ lunĠ
ĠsiĠ taĠ
ĠrenĠminĠ biĠ
fenĠbie ĠweiĠ
jin ĠzaiĠ
wang ĠzhiĠ
ĠdaoĠ yanĠ
nongĠ cun
Ġ ouĠzhouĠ
ĠyiĠ daĠ
daiĠ maĠ
sheĠ yingĠ
lianĠ sai
gaoĠ xiaoĠ
jianĠzhuĠ wuĠ
v Ġ
wang ĠyuĠ
zhanĠ changĠ
xuanĠ ju
ĠdeĠjiĠ huiĠ
qiaoĠ liangĠ
a ĠfuĠ
ĠĠĠ luoĠ
ĠĠĠ yueĠ
ĠĠĠ pingĠjiaĠ
fen ĠjiĠ
ĠdiĠ dianĠ
jingĠ saiĠ
Ġdan ĠweiĠ
xunĠyangĠ jianĠ
W Ġ
tuan ĠjieĠ
song ĠdaoĠ
ĠshiĠ bingĠ
guoĠ chengĠ
shuĠ muĠ
shouĠ faĠ
fenĠ jieĠ
quanĠ shuĠ
ĠdeĠyiĠ meiĠ
ĠshiĠyiĠ daĠliĠ
bei ĠheĠ
ĠyiĠ waiĠ
ĠkeĠ luoĠ
zuiĠ zaoĠdeĠ
cengĠ shuiĠyuĠ
ĠĠĠ faĠ
guai Ġ
ĠyiĠ chanĠ
shouĠ duanĠ
duanĠ zan
xiaĠyiĠ xiaĠdiĠquĠ
yingĠxiang ĠliĠ
ĠĠĠ chuĠleĠ
guo ĠshiĠqiĠ
pu ĠliĠ
ĠyiĠ heĠ
pingĠ jieĠ
xunĠ zhaoĠ
zhuanĠdeĠ xiaoĠxingĠxingĠ
fa ĠweiĠ
xin ĠzhongĠ
ĠyiĠ xiangĠ
jiaĠ mengĠ
jiangĠ beiĠ
Ġjiang ĠqiĠ
guoĠjiĠjiĠ changĠ
hua ĠerĠ
guoĠ wuĠyuanĠ
wuĠ zhongĠdeĠ
juĠ daĠdeĠ
wangĠ ziĠ
ĠpingĠ taiĠ
Ġ chao
Ġ fenĠzhongĠ
Ġ chengĠliĠyuĠ
wang ĠsiĠ
ĠdeĠshiĠ wuĠ
pinĠ lvĠ
zheĠjiangĠ shengĠ
ĠĠĠ 5ĠyueĠ
ru ĠyuĠ
ĠliĠ gongĠ
tiĠ chuĠleĠ
zhengĠshiĠ qiĠ
zheng ĠqiĠ
zhe ĠyuĠ
huang ĠshiĠ
202 6
ĠyiĠ erĠ
wangĠ shangĠ
Ġ ziĠjiĠ
ya ĠzhiĠ
ĠjiĠ xingĠ
ĠzaiĠ jinĠ
mingĠ juĠrenĠ
zuĠ xieĠ
guangĠ fan
shanĠdongĠ shengĠ
Ġ shen
1977 ĠnianĠ
qianĠ houĠ
yaoĠ gun
a ĠliĠ
Ġ min
Ġ keĠliĠ
gao ĠdiĠ
30 ĠnianĠ
ĠshiĠ baĠ
yinĠ yongĠ
anĠ zhuang
f ĠĠĠ
Ġ chuĠrenĠ
sheng ĠbuĠ
xiao ĠyouĠ
song ĠdeĠ
ĠnianĠ lingĠ
huoĠ yunĠ
Ġri ĠyouĠ
Ġ huai
la ĠerĠ
xianĠ zhangĠ
faĠ shengĠdeĠ
baoĠ zhaĠ
lianĠ tongĠ
Ġ sanĠshiĠ
ĠshiĠ jiĠdeĠ
pingĠ minĠ
zhuangĠ kuang
zengĠ qiangĠ
pingĠjunĠ haiĠbaĠgaoĠduĠweiĠ
duĠ duĠ
xunĠ qiuĠ
liĠ lunĠ
zaoĠ shouĠ
shaoĠ jiangĠ
6 ĠgeĠ
ou n
si ĠyouĠ
zhan ĠzaiĠ
yang ĠzhiĠ
danĠ shuiĠ
yangĠ xianĠ
neiĠ zhanĠ
ĠĠĠ shenĠ
yin ĠzhongĠzaiĠ
tai ĠerĠ
ru ĠshiĠ
shuo ĠdeĠ
ty Ġ
guĠ fenĠ
ĠzheĠ ciĠ
ganĠ suĠ
tuiĠ chuĠdeĠ
ĠnianĠqiĠ jianĠ
ĠerĠgaiĠdiĠdeĠ pingĠjunĠhaiĠbaĠgaoĠduĠweiĠ
g o
da ĠzaiĠ
shun ĠshiĠ
ĠliĠ xueĠ
shangĠ dianĠ
baoĠ xianĠ
ĠĠĠand ĠĠĠ
luo ĠzaiĠ
ma ĠliĠyaĠ
chai ĠyouĠjiĠ
chengĠ huĠ
qingĠ xiangĠ
ĠhanĠ zuĠ
2010ĠnianĠ meiĠguoĠrenĠkouĠpuĠchaĠdeĠshuĠjuĠ
shuoĠshiĠ xueĠweiĠ
yinĠzhongĠzaiĠ peiĠ
qie ĠerĠ
juĠ tiĠ
jiaoĠ fuĠ
wenĠ huaĠdeĠ
boĠ luoĠ
an ĠzhongĠ
ying ĠdiĠ
mao ĠxianĠ
faĠ lingĠ
yingĠ zhanĠ
xunĠ huanĠ
ĠfaĠ shengĠ
5Ġ gongĠliĠ
ri ĠjiĠ
qing ĠyiĠ
su ĠshiĠ
1971 ĠnianĠ
ĠbuĠ neng
ĠdaĠ xiĠyangĠ
ĠbiĠ yeĠ
Ġgai ĠweiĠ
Ġ anĠdeĠ
ĠĠĠ 2018ĠnianĠ
naĠ ruĠ
renĠgongĠ yinĠzhongĠzaiĠpeiĠ
Ġ quĠdeĠ
yi ĠshiĠyongĠ
jiang ĠzhongĠ
suo ĠyiĠ
hao ĠyuĠ
zhuĠ zhai
jiangĠ taĠ
lingĠ daoĠdeĠ
ĠgongĠ buĠ
Ġkang ĠxiĠ
Ġ 2000
mingĠ jinĠshiĠ
xiangĠshiĠ diĠ
Ġ 60
ĠyiĠ xueĠ
jiaoĠ zuoĠ
banĠ ciĠ
N BA
Ġ mu
ti onal
ye ĠzhiĠ
ĠheĠ yueĠ
dianĠ yingĠdeĠ
ĠbaoĠ daoĠ
panĠ jueĠ
ĠxueĠ shengĠ
ĠquanĠ zhangĠ
qu ĠzaiĠ
zhang ĠzaiĠ
reng ĠyouĠ
chengĠ fenĠ
ĠdaĠ louĠ
guiĠ zhouĠ
ĠxianĠ daiĠ
w e
ĠĠĠ taiĠwanĠ
zheng ĠyueĠ
baoĠ chi
diĠyiĠ renĠ
yanĠjiuĠ shengĠ
k mĠ
Ġ chun
fuĠ gaiĠ
faĠ zhanĠdeĠ
O ĠĠĠ
Ġ cui
xiang ĠzhiĠ
50 ĠnianĠ
ĠheĠ panĠ
duiĠ yuanĠ
caiĠ chanĠ
ĠshengĠ zhangĠyuĠ
canĠ guanĠ
ĠyuĠciĠ tongĠshiĠ
zheng ĠyuĠ
duo ĠfuĠ
zhen ĠrenĠ
zhuĠ ruĠ
junĠ tuanĠ
benĠ xianĠ
ĠjuĠ minĠ
hongĠ junĠ
chanĠshengĠ leĠ
Ġ cu
bi ĠshiĠ
1938 ĠnianĠ
fuĠ ze
xuĠ shuĠ
20 ĠnianĠ
zhan ĠheĠ
xia ĠzhiĠ
1962 ĠnianĠ
huoĠ wuĠ
Ġ diaoĠ
ĠĠĠ 2006
mian ĠyuĠ
dianĠ ziĠyouĠ
wanĠ quan
teĠ langĠ
tanĠ dingĠ
zuo ĠyuĠ
ya ĠshiĠ
zhen ĠheĠ
rang ĠtaĠ
shengĠ muĠ
tiĠ jiaoĠ
douĠ zhengĠ
suĠweiĠ aiĠ
x ĠĠĠ
shu ĠqiĠ
lu ĠzaiĠ
po r
zhiĠ chiĠ
changĠ beiĠ
ĠĠĠ 10ĠyueĠ
zhuang ĠbingĠduĠ
jieĠ duĠshiĠ
fenĠ quĠ
ĠbeiĠ keĠ
Ġ000 ĠrenĠ
Ġãĥ ¼
ke ĠrenĠ
le ĠweiĠ
ci ĠyouĠ
qiang ĠjiĠ
yinĠ jingĠ
â Ī
shang ĠzhiĠ
ping ĠshiĠ
ĠjiĠ liĠ
jianĠ she
yanĠ huaĠ
yingĠ duiĠ
ĠjiaĠ jingĠ
ĠjuĠ qingĠ
ĠsuĠ lianĠ
ai ĠguoĠ
zheng ĠliĠ
ban ĠyuĠ
xianĠ dai
dongĠ niĠ
jiaoĠ keĠ
ĠfuĠ leiĠ
chuĠxianĠ leĠ
huaĠshengĠ dunĠ
zu ĠyuĠ
ku ĠdeĠ
daĠ buĠ
dongĠ cheĠ
Ġ gongĠjiĠ
huan ĠjieĠ
fuĠ sheĠ
duiĠ huaĠ
gongĠheĠ dangĠ
Ġ bangĠ
jianĠ zao
daoĠ shangĠ
chuĠ ruĠkouĠ
baoĠ zhengĠ
aiĠ qingĠ
ciĠzhiĠ waiĠ
zhu ĠguoĠ
ĠyouĠ taiĠ
ĠrenĠzhongĠ gongĠ
shou ĠheĠ
ba ĠyueĠ
mo ĠqiĠ
youĠ guanĠ
ĠzaiĠ gaiĠ
yuanĠ ben
jinĠ qiuĠ
chongĠ qingĠ
juĠ beiĠ
ĠyinĠ faĠ
ĠshiĠzhongĠ huaĠrenĠminĠgongĠheĠguoĠ
zengĠjiaĠ leĠ
renĠminĠ daiĠbiaoĠdaĠhuiĠ
ĠnaĠ me
shengĠchan ĠdeĠ
Ġ 80
ĠĠĠ lingĠwaiĠ
yin ĠerĠ
te ĠyuĠ
buĠ luoĠ
ĠheĠ qiĠ
shenĠ shengĠ
ĠfaĠ biaoĠ
u l
ĠĠĠ p
di ĠyiĠjiĠ
1973 ĠnianĠ
xiaĠ fangĠ
ĠguoĠjiaĠ duiĠ
xia ĠyuĠ
chuan ĠdiĠ
siĠ tanĠ
shenĠ wangĠ
gouĠ mai
aiĠdeĠ huaĠ
Ġ leĠ
la ĠyuĠ
lei ĠweiĠ
kang ĠxiĠ
chaoĠ tingĠ
k o
ĠĠĠ 2017ĠnianĠ
yue ĠweiĠ
kan ĠdeĠ
xiangĠ mu
shouĠ haiĠ
shouĠ feiĠ
dongĠ gongĠ
ĠzhuĠ jianĠ
wang ĠyouĠ
hang ĠxianĠ
ĠshiĠ yueĠ
Ġnian ĠliĠ
ciĠ daĠ
zongĠ tong
baĠ laĠ
hanĠ moĠdeĠ
ĠaĠ laĠ
duan ĠyuĠ
ĠyiĠ xingĠ
xieĠ tiao
luoĠ boĠteĠ
ĠĠĠ xiangĠgangĠ
ding ĠzhiĠ
ĠyiĠ riĠ
geĠ siĠ
jiaoĠ daoĠ
2Ġ miĠ
te ĠshiĠ
long ĠshiĠ
chengĠ haoĠ
zhuĠ diĠ
ziĠ liao
ĠerĠ houĠ
ĠkeĠneng ĠshiĠ
9 3
ĠĠĠ 2016ĠnianĠ
nv eĠ
canĠmou ĠzhangĠ
â Ħ
ĠĠĠ 12
ci ĠzhongĠ
xun ĠfuĠ
pen Ġ
ĠyouĠ youĠ
jianĠ guoĠ
ĠbiĠ yeĠyuĠ
âĨ Ĵ
Ġ nĠ
1936 ĠnianĠ
meiĠ zhou
caiĠ liao
ĠxinĠ jiaĠ
ĠlingĠyiĠ fangĠmianĠ
ĠliĠ xinĠ
Ġ ju
Ġ langĠ
ĠĠĠ zhanĠ
kong ĠdeĠ
ĠzhiĠ luĠ
mingĠ luĠ
gangĠ yuanĠ
huaĠrenĠminĠ gongĠheĠ
nvĠzhuĠ jueĠ
p h
jiao ĠheĠ
na ĠsiĠ
1941 ĠnianĠ
1959 ĠnianĠ
ĠxiĠ huanĠ
shangĠ jiaĠ
longĠ shengĠ
ĠshengĠzhangĠyuĠ haiĠbaĠ
pin ĠzhiĠ
zhui ĠsuĠ
jieĠ guanĠ
huiĠ xiangĠ
dongĠ yuanĠ
changĠ wu
gaoĠ yuanĠ
qian ĠzaiĠ
pai ĠdeĠzhuĠ
3Ġ miĠ
ĠĠĠsuiĠ ranĠ
Ġ qiao
Ġ cao
du ĠdaĠ
ben ĠkeĠ
lou ĠdeĠ
bin ĠshiĠ
mingĠ queĠ
shangĠ pinĠ
qingĠ xuĠ
zaiĠ ciĠ
ĠzhongĠ beiĠ
fuĠ yinĠ
ĠqiĠ chuĠ
qingĠ daoĠ
Ġmi ĠdeĠdiĠquĠ
Ġ pianĠ
ĠheĠ chengĠ
fenĠ xiaoĠ
haiĠ eĠ
huĠ poĠ
ĠjianĠ sheĠ
Ġzai ĠyuĠ
ye ĠerĠ
1939 ĠnianĠ
zhuĠ liuĠ
moĠ luoĠ
rongĠ naĠ
Ġ chengĠshiĠ
zhong ĠdeĠyiĠ
yin ĠzhiĠ
lei ĠshiĠ
1963 ĠnianĠ
guoĠ quĠ
xingĠzhengĠ zhenĠquĠ
ĠtianĠ jinĠ
han ĠyiĠ
anĠ zhaoĠ
quan ĠweiĠ
Ġli ĠshiĠdeĠ
ĠbuĠ daĠ
ĠdongĠ wuĠ
eĠluoĠ siĠdeĠ
ĠmaĠlai ĠxiĠyaĠ
I P
R ĠĠĠ
ĠĠĠ taiĠ
buĠ keĠ
huĠ dongĠ
v en
ĠshiĠ jingĠ
duiĠ zhenĠ
ĠshiĠyongĠ zheĠ
Ġ genĠju
shangĠ leĠ
yingĠ junĠ
qianĠ ruĠ
zhouĠ zhangĠ
z enĠ
xun ĠdeĠ
1967 ĠnianĠ
fuĠ zhuĠrenĠ
fenĠ lieĠ
xiang ĠzaiĠ
yong ĠzhiĠ
bo ĠkeĠ
fei ĠyiĠ
ceng ĠrenĠ
âĢ §
shengĠ jingĠ
shangĠ suĠ
tiĠ yanĠ
liangĠ ceĠ
A S
ĠĠĠ zongĠ
chu ĠnianĠ
hou ĠbuĠjiuĠ
1953 ĠnianĠ
gongĠ gaoĠ
ĠwuĠ xianĠ
nvĠ haiĠ
peiĠ yangĠ
ĠĠĠ e
ye ĠweiĠ
jiu ĠrenĠ
zao ĠxingĠ
daĠ qiĠ
zhengĠ duoĠ
guiĠ moĠdeĠ
tuanĠ zhangĠ
ri ĠshiĠ
qing ĠxiĠ
ĠweiĠ yaĠ
zhuĠ dongĠ
xiangĠ guan
huiĠ huaĠ
zhen ĠdiĠ
1965 ĠnianĠ
gongĠ shangĠ
shengĠ fuĠ
leĠ gaiĠ
shuiĠ kuĠ
I T
Ġ ning
Ġ pinĠ
fa ĠliĠyaĠ
suan ĠfaĠ
yinĠ shua
fenĠ lanĠ
mianĠ linĠ
ĠqiĠzhongĠ nanĠ
ĠquanĠ qiuĠ
taiĠwan ĠdeĠ
. &
er ĠyouĠ
mei ĠriĠ
miao ĠdeĠ
1970 ĠnianĠdaiĠ
ĠqiĠ youĠ
tongĠ wangĠ
tianĠ tangĠ
ĠdeĠrenĠ wuĠ
Ġ15 Ġ
Ġke ĠshiĠ
Ġ pan
dong ĠyiĠ
huo ĠyueĠ
xia ĠerĠ
chengĠ zhangĠ
yanĠ wuĠ
sheĠ hui
ĠshiĠyiĠ jiĠ
ĠhuĠ nanĠ
a ĠjiĠ
hou ĠrenĠ
qingĠ shaoĠnianĠ
ganĠ jueĠ
du ĠyiĠ
ĠbuĠ laiĠ
ĠbuĠ zuĠ
zhenĠ yaĠ
tiĠyuĠ guanĠ
yi ĠshiĠjianĠ
jian ĠliĠdeĠ
ye ĠzhongĠ
1944 ĠnianĠ
suĠ danĠ
ĠxiĠbanĠ yaĠyuĠ
ming ĠyouĠ
dang ĠheĠ
na ĠerĠ
fou ĠrenĠ
90 ĠnianĠ
ĠyuĠ qiĠtaĠ
ĠheĠ heĠ
meiĠ meiĠ
shenĠ chaĠ
mianĠjiĠ heĠ
ĠdongĠ jingĠ
ĠboĠ chuĠ
jie ĠzaiĠ
dui ĠliĠ
es Ġ
Ġ sheĠliĠ
Ġ 1998ĠnianĠ
an ĠrenĠ
ĠĠĠ riĠ
ĠĠĠ luĠ
ĠĠĠ feiĠ
jie ĠweiĠzhiĠ
tong ĠzhongĠ
sui ĠdeĠ
shengĠ xiaĠ
duoĠ mingĠ
quanĠ qiu
kaiĠ faĠdeĠ
nvĠ yanĠyuanĠ
ĠguoĠminĠ dangĠ
xiaĠxiaĠdeĠyiĠgeĠ xiangĠ
Ġ dai
Ġ 2004
Ġ zuiĠdaĠ
ĠĠĠ 3Ġ
zuo ĠzhongĠ
ze ĠyiĠ
cha ĠliĠ
weiĠ yuĠ
shouĠ lingĠ
guĠ dongĠ
kaiĠ muĠ
ĠdeĠyiĠ siĠ
mouĠ shaĠ
Ġ JR
shu ĠyouĠ
chan ĠdeĠ
ts Ġ
keĠ xue
yongĠ jiuĠ
3 000
nanĠ feiĠ
ĠmuĠqianĠ shangĠweiĠyouĠ
Ġ lai
Ġ 36
yuan ĠrenĠ
la ĠliĠ
su ĠdaĠ
jianĠ daoĠ
danĠ yuanĠ
ĠnianĠ12ĠyueĠ 31ĠriĠ
canĠyuĠ leĠ
ĠshiĠzhongĠ xinĠ
xiangĠgang ĠdeĠ
2 ĠĠĠ
Ġ 1ĠyueĠ
ĠĠĠ 2021ĠnianĠ
chuang ĠshiĠrenĠ
daĠ duoĠshuĠ
xiĠ siĠ
shengĠ geĠweiĠ
chuĠ banĠdeĠ
tianĠ ran
chongĠ manĠ
Ġ ou
Ġ chanĠ
Ġ guĠshiĠ
te dĠĠĠ
ĠzhiĠ zhengĠ
leĠ liangĠ
huoĠ dongĠdeĠ
haiĠ jun
ĠbaoĠ gaoĠ
ĠshiĠ guĠ
ĠyouĠ xingĠ
shenĠ shangĠ
laĠ teĠ
waiĠ guanĠ
hanĠ linĠ
diĠyiĠ buĠ
sh aiĠ
ĠĠĠ tongĠ
ĠyuĠ youĠ
fuĠ luoĠliĠdaĠ
Ġba ĠliĠ
ĠmuĠqianĠshangĠweiĠyouĠ renĠgongĠyinĠzhongĠzaiĠpeiĠ
Ġ xie
Ġ poĠ
Ġ reĠ
sheng ĠzhongĠ
zhang ĠliĠ
shen ĠjiĠ
ĠziĠ liaoĠ
ĠtiĠ chuĠ
xianĠdeĠyiĠgeĠ xingĠzhengĠzhenĠquĠ
ji ong
di ceĠ
fa ĠzhongĠ
31 Ġ
ĠyiĠ chengĠ
fangĠ chengĠ
biĠ ya
chuangĠ xinĠ
ĠĠĠ shangĠ
anĠ pai
tianĠ huangĠ
caiĠ wuĠ
wu ĠzaiĠ
ĠzaiĠ naĠliĠ
zhuĠ daĠ
ĠqiĠ qiĠ
bianĠ haoĠweiĠ
wuĠliĠ xueĠ
fen ĠshiĠ
chou ĠbeiĠ
1930 ĠnianĠ
daoĠ qianĠ
jiaoĠ zongĠ
Ġ can
ĠĠĠ gaoĠ
ĠĠĠ 4ĠyueĠ
zhou ĠfuĠzeĠguanĠxiaĠ
heĠ pingĠ
mingĠ ciĠ
he ĠyiĠgeĠ
bian ĠyuĠ
tui ĠxingĠ
yuanĠ quĠ
juĠ changĠ
duĠ jiaĠ
ĠgaiĠ diĠdeĠ
Ġzhe ĠbuĠ
ĠĠĠ boĠ
xun ĠshiĠ
ĠyiĠ xie
cheĠ daoĠ
ĠzheĠ yeĠshiĠ
zaoĠ qiĠdeĠ
Ġha ĠerĠ
lianĠmeng ĠdeĠ
Ġ diao
ĠĠĠ puĠ
mi ĠshiĠ
ming ĠheĠ
tai ĠdaĠ
kan ĠfaĠ
ĠxiĠ jinĠ
guĠ wuĠ
saiĠ baiĠ
jingĠjiĠ xueĠ
Ġ 1999ĠnianĠ
yin ĠjiĠ
ĠzaiĠ renĠ
ĠdaĠ chenĠ
yinĠ ziĠ
mianĠ shangĠ
neiĠ mengĠguĠ
laĠ geĠ
ĠkeĠnengĠ huiĠ
Ġ bu
ĠrenĠ min
ĠerĠ zheĠ
shouĠ huiĠ
ruĠ jingĠ
ĠgongĠ jinĠ
ĠĠĠgeĠrenĠ shengĠhuoĠ
zeng ĠzhiĠ
co diceĠ
1935 ĠnianĠ
buĠ manĠ
ĠdanĠ yeĠ
ĠĠĠ s
lun ĠsiĠ
1969 ĠnianĠ
xiangĠ beiĠ
tiĠ gongĠdeĠ
jiaoĠyuĠ jiĠ
ĠnianĠ7ĠyueĠ 1ĠriĠ
Ġ gan
Ġ CD
ĠĠĠ 7ĠyueĠ
tuo ĠfuĠ
1942 ĠnianĠ
wangĠ chao
ĠkaiĠ faĠ
zhanĠzheng ĠzhongĠ
Ġà ¸
âĦ ĥ
Ġ 22
Ġ 34
Ġ 20Ġ
Ġ kaĠerĠ
Ġ keĠliĠsiĠ
bu ĠweiĠyuĠ
tian ĠfuĠ
niu ĠsiĠ
ne ĠshengĠ
1961 ĠnianĠ
shengĠ xiaoĠ
xueĠ yuanĠdeĠ
xinĠ zengĠ
duan ĠqiĠ
zhuĠyao ĠshiĠ
Ġ gui
Ġ buĠshiĠ
fang ĠheĠ
1940 ĠnianĠ
ĠliĠ youĠ
tingĠ yunĠ
xiang ĠzhongĠ
dian ĠyuĠ
han ĠshiĠ
lay Sta
ĠshiĠ xiangĠgangĠ
duiĠ taĠ
ĠbingĠ meiĠyouĠ
ĠĠĠjinĠ guanĠ
jiang ĠheĠ
32 Ġ
ĠzhiĠ yaoĠ
fuĠ huaĠ
ĠxiĠ yuanĠ
xinĠ shengĠ
shuiĠ shenĠ
D V
nuo ĠsiĠ
oo g
ĠliĠ qiĠ
gaiĠ mingĠ
baĠ nen
kaĠluoĠ laiĠnaĠ
xin ĠyuĠ
qian ĠweiĠ
lao ĠgongĠ
jinĠ xing
1957 ĠnianĠ
ĠshiĠ nanĠjiĠzhouĠdeĠ
zhuĠ longĠ
ĠqingĠ chaoĠ
zhong ĠshiĠjiĠ
ĠzaiĠ taĠdeĠ
gongĠ zuoĠdeĠ
fuĠ jiaĠ
xiangĠ lianĠ
ciĠ huiĠ
hou ĠguoĠ
liang ĠjiaĠ
ĠzhiĠ chi
ĠyueĠ laiĠyueĠ
zhanĠ zhengĠdeĠ
yaĠ zhou
minĠ jinĠ
zongĠ duiĠ
saiĠ cheĠ
liĠ yongĠ
Ġdan ĠyiĠ
peiĠ xunĠ
shouĠdaoĠ leĠ
1 10
Ġ Ja
jin ĠzhongĠ
yan ĠliĠ
huo ĠyiĠ
wai ĠjiĠ
huan ĠxiangĠ
siĠ xingĠ
siĠ faĠ
niĠ yaĠdeĠ
Ġ 55
Ġ paĠ
ĠĠĠ 8ĠyueĠ
ban ĠnianĠ
1951 ĠnianĠ
jiaĠ zhouĠ
jing ĠxiĠ
cha ĠjuĠ
ha ĠdeĠ
faĠ biao
jinĠ shanĠ
zuiĠ duoĠdeĠ
seĠ caiĠ
ĠliĠshiĠ xueĠjiaĠ
Ġ 9Ġ
ĠĠĠ guĠshiĠ
du ĠzhiĠ
feng ĠyuĠ
ziĠ gongĠsiĠ
houĠ fangĠ
dianĠ chiĠ
ĠĠĠ laĠ
qian ĠyuĠ
Ga me
boĠ laĠ
lingĠ yuĠdeĠ
ĠgongĠ gongĠ
huiĠyiĠ shangĠ
zhanĠzheng ĠqiĠjianĠ
mianĠjiĠheĠ renĠkouĠ
8 ĠgeĠ
Ġ zha
dao ĠliĠ
qian ĠliĠ
she ĠliĠdeĠ
ni ĠshiĠ
yanĠ xuĠ
ĠyuanĠ xingĠ
nianĠ daiĠ
Ġ Ø
ĠĠĠ yeĠ
ĠĠĠ jiuĠ
shou ĠerĠ
nan ĠrenĠ
duo ĠbuĠ
daĠ xueĠdeĠ
geĠ ciĠ
baĠ saiĠ
ĠdeĠjiĠ shuĠ
yingĠdeĠ leĠ
jiangĠsuĠ shengĠ
l la
Ġ 38
wang ĠyiĠ
la ĠdiĠ
ĠshiĠ zhangĠ
C ĠĠĠ
Ġ 75
Ġ Pa
ĠĠĠ quanĠ
ĠĠĠ duiĠyuĠ
gai ĠzhiĠ
che ĠliĠ
ce ĠqiĠ
hang ĠxingĠ
erĠ beiĠ
ĠdaĠ buĠ
lanĠ seĠ
ĠgaiĠ cun
ĠjingĠ neiĠ
ĠboĠ luoĠ
ĠgaiĠdiĠdeĠ mianĠjiĠheĠrenĠkouĠ
ĠgaiĠdiĠdeĠmianĠjiĠheĠrenĠkouĠ jieĠweiĠzhiĠ
sui ĠzhiĠ
pei ĠdeĠ
weiĠ jiĠ
diĠ liuĠ
ciĠ shuĠ
xuanĠ chuan
dangĠ xuanĠweiĠ
heiĠ longĠjiangĠ
ĠyiĠshuĠ jiaĠ
ĠĠĠyouĠ xiĠ
Ġ ruan
Ġ Li
ĠĠĠ muĠqianĠ
zhongĠ xueĠ
houĠ lai
ĠĠĠ 2015ĠnianĠ
wei ĠshiĠjieĠ
lu ĠweiĠ
lei ĠheĠ
80 ĠnianĠ
2025 ĠnianĠ
zongĠ jingĠliĠ
ĠmingĠ chaoĠ
Ġ La
an ĠfuĠ
ĠzaiĠ 19
jiangĠ zuiĠjiaĠ
dianĠ naoĠ
dangĠ anĠ
tuĠ anĠ
tingĠ kaoĠ
ĠqianĠ longĠ
Ġ 90
zhuang ĠweiĠ
ra Ġ
chui ĠzhiĠ
quĠ dongĠ
tongĠ chang
ĠfuĠ ze
Ġjie ĠweiĠ
zhengĠxie ĠweiĠyuanĠ
6 ĠmiĠ
Ġ guanĠzhiĠ
ĠĠĠ X
jiaĠ qiangĠ
jiangĠ zheĠ
mei ĠerĠ
ĠzaiĠ 18
quĠ ziĠ
zongĠ shuĠ
ĠtongĠ riĠ
ĠĠĠyiĠ xiaĠ
ĠfanĠ duiĠ
ĠfenĠbie ĠweiĠ
jiaĠliĠfuĠ niĠyaĠzhouĠ
Ġ com
Ġ leiĠjiĠ
ĠĠĠ jianĠliĠ
ĠyiĠ tiĠ
yanĠ shengĠ
gaiĠ jinĠ
anĠ xianĠ
jiuĠ duĠyuĠ
Ġ zhanĠdiĠ
ĠĠĠ 2014ĠnianĠ
chuan ĠyueĠ
luĠ duanĠ
ĠciĠ ciĠ
nongĠ changĠ
9 2
Ġ 2003
dong ĠzhiĠ
mei ĠyiĠ
kuai ĠdeĠ
jiaĠ naĠ
fenĠ chengĠ
ĠshiĠjiĠ yuĠ
hangĠ zhanĠ
xiuĠ dingĠ
faĠshengĠ leĠ
ĠĠĠ jianĠzhuĠ
ing ĠĠĠ
si ĠzhongĠ
jin ĠnianĠ
xin ĠheĠ
ha r
ĠzaiĠ riĠbenĠ
tongĠ xueĠ
zhouĠ bian
guĠ laoĠdeĠ
ĠhaiĠ junĠ
ziĠxingĠ cheĠ
ou r
li ĠyiĠ
cheng ĠyiĠgeĠ
jiao ĠjiĠ
jianĠ danĠ
ĠbuĠ luĠ
xiangĠ daoĠ
ĠqiĠ yongĠ
ĠkeĠ laiĠ
liuĠ liangĠ
puĠ chaĠ
kaĠ feiĠ
ĠyanĠ changĠ
zuiĠzhongĠ yaoĠdeĠ
pingĠfangĠ miĠ
Ġ 70
Ġ Vi
ĠĠĠ 9ĠyueĠ
zhe ĠjiĠ
ba ĠtaĠ
zhuĠ shouĠ
xiangĠ jiaoĠ
nanĠ minĠ
Ġtong ĠzhiĠ
geĠyueĠ houĠ
ĠĠĠ 2020ĠnianĠ
28 Ġ
jingĠ quĠ
duĠ teĠdeĠ
miĠ duĠ
ĠwanĠ meiĠ
ĠbiĠ xuĠ
ĠhuaĠ shengĠ
suan ĠdeĠ
run Ġ
zhuĠ guanĠ
jinĠ rongĠ
pingĠ hengĠ
chiĠ jingĠ
eĠ haiĠeĠ
touĠ ru
ĠwanĠ chengĠ
Ġ000 Ġ
ĠĠĠcheĠzhanĠ jieĠgouĠ
Ġ Wi
ĠĠĠ Li
si ĠyueĠ
fu ĠzhongĠ
dai ĠzhiĠ
zhengĠ jiaoĠ
yinĠ niĠ
linĠ shengĠ
J Ġ
v o
Ġ junĠshiĠ
jinĠ chengĠ
shangĠ fangĠ
1 30
shan ĠyuĠ
wi t
ziĠ shaĠ
ĠqianĠ miĠ
zhengĠfu ĠyuĠ
fang ĠdiĠ
mu ĠjiĠ
ka ĠdeĠ
yingĠ geĠlan
ĠdaĠ qiaoĠ
chongĠ zuĠ
ĠshengĠ chengĠ
Ġer ĠheĠ
ĠliĠfaĠ huiĠ
ĠĠĠ muĠ
sheng ĠrenĠminĠzhengĠfuĠ
zuo ĠheĠ
ĠzaiĠ nanĠ
jianĠ chiĠ
jiuĠ beiĠ
Ġ ding
ya ĠsiĠ
fuĠ buĠzhangĠ
baoĠ fuĠ
mianĠ qianĠ
chengĠliĠ leĠ
luoĠfaĠ keĠ
Ġ huiĠyiĠ
ĠbuĠ heĠ
juĠ feng
fangĠ xingĠ
ĠqiĠzhongĠ youĠ
ĠĠĠzhiĠ zuoĠ
ĠcengĠ jingĠ
Ġ ga
ĠĠĠ c
zhuan ĠzhiĠ
kuang ĠjiaĠ
jinĠ zhangĠ
yanĠ faĠ
yingĠ guoĠdeĠ
ĠdeĠshiĠ shiĠ
hangĠ banĠ
Ġ heng
Ġ 21
ĠĠĠ yue
ĠĠĠ riĠbenĠ
ĠĠĠ 6ĠyueĠ
jin ĠqiĠ
ci ĠheĠ
dui ĠweiĠ
bao ĠjiĠ
huiĠ jiaĠ
juĠ zhuĠzaiĠ
juĠ juĠzhangĠ
tuiĠ fanĠ
Ġ 2002
ĠĠĠ 2013ĠnianĠ
lu ĠxiĠ
liĠ liangĠ
gongĠchanĠ zhuĠyiĠ
li ĠkeĠ
ĠĠĠ 2010ĠnianĠ
luo ĠweiĠ
ku ĠerĠ
26 Ġ
ĠshiĠ taiĠwanĠ
ĠdeĠyiĠ jianĠ
ĠzhengĠ geĠ
Ġ 46
fei ĠzhiĠ
yanĠ shenĠzhiĠ
zhanĠ juĠ
zuoĠ leĠ
luoĠ xuanĠ
ĠzhuĠ xiĠ
ĠtaiĠ pingĠ
Ġmi ĠzhiĠ
wuĠxianĠ dianĠshiĠ
tai ĠweiĠ
lai ĠerĠ
pan ĠdeĠ
keĠ xueĠjiaĠ
fangĠ bianĠ
ĠdaĠ xueĠdeĠ
junĠ beiĠ
ĠfuĠ gaiĠ
wanĠ zhengĠdeĠ
E N
Ġ 150
reng ĠzaiĠ
wenĠ geĠ
ĠbingĠqie ĠzaiĠ
shou ĠliĠ
yan ĠqiĠ
te ĠzaiĠ
nei ĠsiĠ
hei ĠrenĠ
ĠyouĠ heĠ
ĠguoĠ fangĠ
meiĠ tianĠ
Ġ man
ĠĠĠ yongĠ
zu ĠweiĠ
yao ĠzaiĠ
hao ĠjiĠ
rou nd
1943 ĠnianĠ
guoĠ fangĠbuĠ
yuanĠ waiĠ
ĠkeĠ laĠ
muĠ jianĠ
zhenĠ zhengĠ
cheĠ tuiĠ
feiĠ chang
Ġ zhuo
ka ĠliĠ
ĠshiĠ siĠ
Ġyue ĠrenĠ
shuĠ shuĠ
ĠxiĠ xiĠ
mengĠ teĠ
ĠĠĠgenĠjuĠ 2010ĠnianĠmeiĠguoĠrenĠkouĠpuĠchaĠdeĠshuĠjuĠ
ĠĠĠ huoĠ
ĠĠĠ 2012ĠnianĠ
mei ĠzhongĠ
shen ĠliĠ
bo o
ben ĠzhiĠ
po ĠerĠ
liuĠ xueĠ
baĠ leĠsiĠ
Ġ xingĠshiĠ
jiang ĠweiĠ
qian ĠqiĠ
wangĠ houĠ
daiĠ tiĠ
zuĠ ziĠzhiĠ
ĠxianĠ jinĠ
tui ĠliĠ
son Ġ
shengĠ jieĠrangĠ
beiĠ meiĠ
qianĠ xianĠ
tuĠ ranĠ
e ĠerĠ
mi ĠjiĠ
ta ĠerĠ
chong ĠfuĠ
Ġli ĠnianĠ
qianĠ laiĠ
taiĠ shouĠ
zhuanĠ huanĠ
ĠM Ġ
Ġfei ĠliĠ
s si
xiao ĠyiĠ
duo ĠliĠ
chen ĠdeĠ
27 Ġ
ĠriĠ baoĠ
liuĠ chuanĠ
quĠshiĠ houĠ
Ġjiang ĠxiĠ
Ġ long
Ġ chongĠxinĠ
de n
ĠĠĠ tangĠ
ri ĠerĠ
dang ĠriĠ
25 0
jianĠ zhuĠshiĠ
jieĠ jieĠ
zhengĠ wuĠ
ĠkeĠ chengĠ
ĠdaoĠ daĠ
liaoĠ ning
ĠP Ġ
t en
re a
faĠ jueĠ
quĠ neiĠ
quanĠ tiĠ
guangĠ fanĠdeĠ
tanĠ suoĠ
ĠweiĠyuanĠ huiĠdeĠ
Ġ 180
ĠĠĠ yanĠgeĠ
jin ĠheĠ
nan ĠyuĠ
zong ĠdeĠ
ST AT
1960 ĠnianĠdaiĠ
fangĠ xiangĠdeĠ
chongĠ fanĠ
xinĠguanĠ feiĠyanĠ
ti ĠbuĠ
pu ĠdeĠ
rong ĠdeĠ
beiĠ qiĠ
huiĠ guanĠ
bianĠ zuĠ
liuĠ geĠ
tuĠ ran
tuĠ shaĠ
ĠshiĠshiĠ zhangĠ
Ġ 1997ĠnianĠ
che ĠrenĠ
ĠshiĠ zhengĠ
ĠshiĠ shangĠ
ĠyiĠ qingĠ
xiĠ lie
jiaĠ erĠ
jingĠ yuanĠ
mianĠ xiangĠ
Ġ yuĠyiĠ
ĠĠĠ gai
ĠĠĠ 15
ĠĠĠ 6Ġ
kai ĠqiĠ
jinĠ siĠ
baoĠ anĠ
feiĠ faĠ
gangĠ tieĠ
Ġyou ĠdeĠ
xingĠzhengĠ danĠweiĠ
ĠanĠ huiĠ
ĠdiĠerĠ ciĠ
Ġ guanĠliĠ
er ĠzhongĠ
liang ĠyuĠ
wan ĠqiĠ
zhao ĠshiĠ
ken ĠdingĠ
caiĠ zhengĠbuĠ
Ġceng ĠzaiĠ
ĠD Ġ
hangĠkong ĠgongĠsiĠ
ĠshiĠyiĠgeĠweiĠyuĠ meiĠguoĠ
Ġ qin
dao ĠguoĠ
tuo ĠerĠ
gei ĠtaĠ
ĠyiĠ changĠ
tingĠ zhangĠ
renĠdaĠ daiĠbiaoĠ
9 4
s ti
xian ĠbuĠ
zu ĠshiĠ
fan ĠfuĠ
ĠyiĠ jiaoĠ
Ġ zao
guan ĠzaiĠ
xin ĠzhiĠ
leĠ xuĠduoĠ
zhengĠfu ĠzaiĠ
ĠliuĠyuĠ mianĠjiĠ
m m
Ġ zhui
ĠĠĠ di
che ĠxingĠ
cun ĠyuĠ
shao ĠyouĠ
renĠ min
fuĠ qiĠ
fuĠ siĠ
zhuĠ chiĠrenĠ
ĠbingĠ biaoĠshiĠ
ĠzhuĠ chiĠ
3 ĠmingĠ
P S
le ĠzhiĠ
ying ĠheĠ
ben ĠjiĠ
diĠ daĠ
duoĠ xiangĠ
fengĠ geĠdeĠ
ĠgongĠ luĠ
ĠgenĠjuĠ 2020ĠnianĠmeiĠguoĠrenĠkouĠpuĠchaĠdeĠshuĠjuĠ
ĠfenĠbie ĠshiĠ
Ġ Le
Ġ 2023ĠnianĠ
zuo ĠjiĠ
fan ĠjiĠ
ĠrenĠ jiaoĠ
chengĠ danĠ
shangĠ jiangĠ
liangĠ haoĠ
taoĠ wangĠ
² Ġ
gu ĠyiĠ
wan ĠnianĠ
ben ĠbuĠ
nv ĠyouĠ
sha ĠshiĠ
qiao ĠdeĠ
keĠ saĠsiĠ
huoĠ quĠ
boĠ yinĠ
saiĠ guanĠjunĠ
touĠ shouĠ
xinĠxiĠ lanĠ
ĠĠĠ 2011ĠnianĠ
nian ĠdeĠ
lei ĠyuĠ
caiĠ panĠ
zhuanĠ quĠ
ĠyeĠ keĠyiĠ
guan ĠweiĠ
huan ĠweiĠ
ĠqiĠ houĠyuĠ
fenĠ xiangĠ
xiaoĠ sheĠ
ĠjiaĠ ru
ĠtaĠ jiangĠ
ĠdeĠyiĠ weiĠ
huoĠdeĠ deĠ
ĠĠĠ 2005
ĠĠĠ zuiĠ
zhou ĠdeĠyiĠgeĠshiĠzhenĠ
ma ĠqiĠ
pao ĠdaoĠ
zhongĠ haiĠ
diĠ mianĠ
yuanĠ shuĠ
ĠerĠ ciĠ
ĠyunĠ nanĠ
Ġ kua
ĠĠĠ ruĠ
ĠĠĠ faĠguoĠ
tai ĠyiĠ
ceng ĠbeiĠ
dou ĠbuĠ
heĠ beiĠ
gongĠ sheĠ
ĠxiĠ siĠ
shouĠ mingĠ
yeĠ naĠ
qianĠ zeĠ
xueĠshiĠ xueĠweiĠ
7 ĠgeĠ
Ġ zhen
Ġ 37
Ġ 39
Ġ Da
fa ĠrenĠ
fei ĠshiĠ
ze ĠdeĠ
bai ĠxingĠ
gang ĠdeĠ
shun ĠxuĠ
ry Ġ
geĠ tiĠ
jieĠ xiaĠ
ĠfuĠ erĠ
1Ġ ri
1Ġ mingĠ
ĠyinĠweiĠ taĠ
jing ĠbuĠ
qing ĠheĠ
ting ĠheĠ
jieĠ ruĠ
ĠdaĠ diĠ
dianĠ liuĠ
pingĠ dingĠ
ĠdanĠ zheĠ
ĠshiĠshiĠ yiĠ
ĠxinĠ zeng
c ri
Ġ gouĠ
ĠshiĠ xiĠbanĠyaĠ
huaĠ mianĠ
zuoĠ yeĠ
yinĠ jinĠ
ĠsiĠ lingĠbuĠ
meiĠ guoĠyiĠ
keĠneng ĠxingĠ
yaĠmeiĠ niĠyaĠ
Ġ t
ming ĠjiĠ
ting ĠshiĠ
pan ĠchuĠ
mao ĠdeĠ
chengĠ gongĠdeĠ
faĠ erĠ
faĠ buĠdeĠ
yanĠ zou
danĠ xinĠ
duoĠ lunĠ
fengĠ suoĠ
waiĠ jieĠ
ĠjieĠ fangĠ
qiangĠ daĠdeĠ
tiaoĠ wenĠ
chuangĠ zao
nvĠ wangĠ
Ġ rui
Ġ De
ĠĠĠ baiĠ
wangĠyuanĠ jingĠ
Ġ o
Ġ houĠyuĠ
ĠĠĠ 7
1Ġ miĠ
ranĠ liaoĠ
Ġ qu
Ġ 1949
ĠĠĠ 8
cha ĠerĠsiĠ
guanĠ xiĠdeĠ
danĠ duĠ
dianĠyingĠ jieĠ
ĠyingĠ xiangĠ
ĠĠĠ 189
yong ĠdiĠ
ĠjiĠ xu
shenĠ ruĠ
ĠR Ġ
ĠrenĠkou ĠdeĠ
yu ĠdeĠguoĠ
yong ĠheĠ
wen ĠyuĠ
th ĠĠĠ
zhongĠ huaĠ
ĠliĠ jingĠ
gongĠ zhanĠ
shouĠ huanĠyingĠ
xieĠ daiĠ
shuiĠ mianĠ
n angĠ
san ĠdeĠ
san ĠyueĠ
lin ĠyuĠ
diĠ tieĠ
jieĠ shou
biĠ saiĠdeĠ
ĠtongĠshiĠ yeĠ
ĠmianĠjiĠ 0
zuoĠpin ĠdeĠ
2 ĠliĠ
ch ĠĠĠ
ĠĠĠ wenĠhuaĠ
ting ĠjiĠ
xianĠ zaiĠdeĠ
qianĠ xiaĠ
ĠjieĠ jinĠ
ĠaoĠ daĠliĠyaĠ
huĠlianĠ wangĠ
4 ĠmiĠ
yi ĠdeĠshiĠ
huang ĠheĠ
daĠ lu
jianĠ shao
jingĠ neiĠdeĠ
suĠ songĠ
zongĠ zhanĠ
baĠ geĠ
Ġ bangĠzhuĠ
guan Ġli
tao ĠyuanĠ
ĠshiĠ keĠ
wuĠ renĠjiĠ
fenĠ shuĠ
banĠ benĠdeĠ
shanĠ dingĠ
ĠjieĠ gouĠ
Ġdan ĠbuĠ
ĠshiĠshiĠ deĠ
ĠdaĠ qiĠ
tiĠ quĠ
junĠ jianĠ
sheĠ huiĠdeĠ
ĠyiĠjiĠ zaiĠ
5 000
Ġ guoĠliĠ
zu ĠjiĠ
ĠweiĠ daĠ
tongĠ baoĠ
wenĠ siĠ
hangĠ zhouĠ
ĠhuĠ beiĠ
ĠÐ °
S S
Ġ 1992ĠnianĠ
luĠ waĠ
suĠ sheĠ
yanĠjiu ĠzhongĠxinĠ
Ġmi ĠdeĠ
ĠluĠwa ĠerĠshengĠ
dang ĠbuĠ
zhuĠ zhaiĠ
boĠ chuĠdeĠ
duoĠ yuanĠ
ĠdaoĠ luĠ
ĠshiĠxingĠ dengĠweiĠ
O R
³ Ġ
Ġ zeng
Ġ ED
ĠĠĠ guanĠ
ĠĠĠ dianĠ
shen ĠheĠ
tiĠ caiĠ
qianĠ yinĠ
paiĠ lieĠ
ĠjingĠ fangĠ
renĠkouĠpuĠ chaĠ
Ġ Mar
Ġ 1994ĠnianĠ
le ĠxiĠ
zun ĠzhongĠ
fuĠ nvĠ
tianĠ wenĠxueĠ
baĠ faĠliĠyaĠ
ĠaoĠ menĠ
shen ĠqiĠ
fan ĠdaĠxueĠ
ceng ĠyouĠ
or ĠĠĠ
35 Ġ
wuĠ buĠ
chengĠ shuĠ
xueĠ tangĠ
jiaoĠ gaoĠ
Ġ fu
Ġ 400
jiu ĠyueĠ
60 ĠnianĠ
jiaĠ xiangĠ
quĠ bieĠ
tongĠ yang
duĠ ziĠ
duoĠ guanĠ
xingĠzhengĠ quĠhuaĠ
ĠguangĠ xuĠ
aĠerĠ beiĠsiĠ
reĠdai ĠqiĠxuanĠ
Ġ nu
ĠĠĠ aiĠ
duo ĠsiĠ
bai ĠnianĠ
shuĠ faĠ
meiĠ ti
panĠ luanĠ
Ġzai ĠshiĠ
geĠlunĠ biĠyaĠ
aĠgenĠ tingĠ
p ĠĠĠ
Ġ yuanĠshiĠ
le ĠheĠ
ĠzhongĠ yaoĠdeĠ
shouĠ cang
ĠdeĠyiĠ ciĠ
neiĠ ruiĠ
N H
Ġ 2001
yin ĠyouĠ
bo ĠjiĠ
diĠ fenĠ
ĠdiĠ renĠ
quĠ muĠ
benĠ shuĠ
dangĠ xuan
shaĠ tianĠ
Ġri ĠyiĠ
Ġchi ĠweiĠ
Ġ hengĠliĠ
bi ĠyuĠ
tong ĠqiĠ
lu ĠerĠ
jianĠ ceĠ
ĠbuĠ yaoĠ
jiangĠ xueĠ
puĠ luoĠ
ĠshengĠ huoĠ
Ġ Al
Ġ siĠshiĠ
heĠ lanĠ
buĠ zaiĠ
ĠzaiĠ wuĠ
ĠyueĠ tuan
xianĠ daoĠ
ĠxianĠ luĠ
yiĠshiĠ daoĠ
tuiĠchuĠ leĠ
ĠxianĠshiĠ youĠ
ruanĠ tiaoĠ
h n
ĠĠĠ 6
ca Ġ
ĠweiĠ zaiĠ
zhongĠ gongĠ
ĠdaĠ banĠ
ĠzheĠ zuoĠ
Ġdan ĠyuĠ
keĠyiĠ tongĠguoĠ
woĠ men
D NA
Ġ 300
qia Ġ
ĠyouĠ xiĠdeĠ
gongĠ ziĠ
jinĠ huiĠ
ĠsiĠ houĠ
zhuanĠ jiĠdeĠ
gongĠchanĠ dang
ĠĠĠweiĠ leĠ
Ġ houĠyouĠ
tu ĠshiĠ
80 Ġ
ĠzhiĠ ciĠ
bingĠ wuĠ
diĠyiĠ baiĠ
ĠfeiĠ lvĠ
Ġ she
Ġ yao
ĠĠĠ lingĠ
hao ĠheĠ
shuo ĠfuĠ
miao ĠyuĠ
yuanĠ jianĠ
jieĠ lunĠ
shengĠ huiĠ
chuĠ saiĠ
xinĠ zhuĠ
shenĠ fuĠ
zuĠ xianĠ
ĠdeĠyiĠ jiĠ
hanĠ gaiĠ
qiangĠ huaĠ
dianĠshiĠjieĠ muĠ
Ġ jiĠyiĠ
ĠĠĠ zuoĠweiĠ
qi ĠliĠ
sa ĠdeĠ
33 Ġ
ID Ġ
ĠjiĠ xieĠ
fangĠ zhenĠ
tiĠ qianĠ
daiĠ laiĠdeĠ
ĠdeĠyiĠ xiangĠ
ĠchuĠ ciĠzhiĠwaiĠ
ĠshiĠjiĠ zhongĠ
quanĠguoĠ zhongĠdianĠ
luoĠma ĠdiĠguoĠ
fan ĠshiĠ
keĠ leiĠ
banĠ quanĠ
ĠziĠ xingĠ
ĠziĠ ranĠ
tingĠ zhanĠ
ĠzuoĠ biaoĠweiĠ
tianĠwenĠ taiĠ
Ġ 1996ĠnianĠ
yong ĠqiĠ
nv ĠrenĠ
40 ĠnianĠ
daĠ xuanĠ
jingĠ beiĠ
fangĠ chengĠshiĠ
huaĠ guiĠ
yangĠ ziĠ
zongĠ juĠ
eĠ huaĠ
shaĠ baiĠ
maoĠ dunĠ
ĠzhuĠyao ĠshiĠ
Ġ biĠdeĠ
ĠĠĠ 1
ĠĠĠ 2008ĠnianĠ
14 0
fuĠ xianĠ
jingĠ touĠ
liuĠ dongĠ
mengĠ junĠ
24Ġ xiaoĠshiĠ
j e
Ġ ë
nei ĠyiĠ
ciĠ ciĠ
yeĠ zhanĠ
ruĠ qiuĠ
ceĠ lveĠ
ĠtongĠshiĠ yeĠshiĠ
zang ĠyuĠ
ziĠ woĠ
zongĠ guanĠ
ĠbingĠ feiĠ
zhaoĠ guĠ
taoĠ wanĠ
ĠwoĠ men
Ġ12 Ġ
n ang
Ġ Si
qu ĠdiĠ
ĠyiĠ xianĠ
liangĠ anĠ
ĠshiĠshiĠ shiĠ
tuoĠ luoĠ
ĠdeĠdiĠ sanĠ
ĠdeĠguoĠ chengĠ
ciĠshiĠjieĠdaĠ zhanĠqiĠjianĠ
8 ĠmiĠ
Ġ yuan
ting ĠdaoĠ
zhuan ĠliĠ
zhuĠ fangĠ
zhuĠ quanĠ
riĠ changĠ
xiaĠ xiaĠ
zhuanĠ bianĠ
ĠdeĠjiĠ benĠ
ĠĠĠ jingĠliĠ
ta ĠyouĠ
ying ĠzhiĠ
qiu ĠheĠ
tu ĠsiĠ
ze ĠbeiĠ
ting ĠyuĠ
fuĠ zeĠrenĠ
zhanĠ quĠ
huoĠ cheĠzhanĠ
kaoĠ chaĠ
kai ĠerĠ
ĠqiĠ B
ĠkeĠ leiĠ
chanĠ wuĠ
cunĠ zaiĠyuĠ
Ġzhou ĠnianĠ
K B
Ġ chuang
fan ĠerĠ
jue ĠweiĠ
bai ĠheĠ
ĠshiĠ fuĠ
buĠ duanĠ
ĠzhongĠ guoĠdeĠ
xiangĠ dongĠ
houĠ daiĠ
fangĠ xianĠ
pianĠ duanĠ
rongĠ liangĠ
ĠshangĠ shuĠ
4 ĠmingĠ
Ġ chaoĠguoĠ
ĠĠĠ 5
ĠĠĠ wanĠ
zhe ĠyouĠ
wen ĠdiĠ
pu ĠsiĠ
ĠguoĠ jia
xianĠ mingĠ
faĠ xian
xueĠ xiaoĠdeĠ
minĠzuĠ zhuĠyiĠ
baoĠfaĠ houĠ
ĠĠĠ guoĠjiĠ
wuĠ pinĠ
ĠjiaĠ erĠ
duoĠ quĠ
ĠbingĠ chengĠ
tongĠzhiĠ zheĠ
Ġ11 Ġ
meiĠguoĠrenĠkouĠpuĠ chaĠ
ĠdiĠqiĠ yaĠ
shu ĠdiĠ
wen ĠbuĠ
chi ĠdaoĠ
guoĠ chengĠzhongĠ
wuĠ erĠ
huiĠ sheĠ
huaĠ fenĠ
moĠ fangĠ
poĠ lunĠ
Ġ la
dong ĠheĠ
ya ĠerĠ
diao ĠyuĠ
yuanĠ shengĠ
jiaĠ suĠ
jingĠ lingĠ
fanĠ gongĠ
caiĠ fangĠ
1Ġ riĠqiĠ
aiĠ haoĠ
caoĠ zuo
mouĠ xie
ge ĠĠĠ
gu ĠerĠ
zhou ĠnianĠ
pu ĠjiĠ
niu ĠyueĠshiĠ
geĠ laĠsiĠ
faĠ daĠ
hongĠ zhaĠ
ĠtaiĠ beiĠ
zhanĠdou ĠjiĠ
Ġ 1949ĠnianĠ
ĠĠĠ fenĠleiĠ
luo ĠheĠ
geng ĠshiĠ
bang ĠdiĠ
diĠ dianĠ
ĠguoĠ duĠ
ĠqiĠ yueĠ
huaĠ beiĠ
tiĠ gong
jueĠ seĠdeĠ
Ġa ĠerĠbeiĠ
1 ĠjiaĠ
E T
Ġ en
Ġ nuo
Ġ 1993ĠnianĠ
ĠĠĠ haiĠ
zhi ĠdeĠyiĠ
qu ĠdeĠyiĠgeĠ
guan ĠliĠdeĠ
nan ĠxiĠ
qing ĠliĠ
ĠshiĠ eĠluoĠsiĠ
jiaĠ shangĠ
ĠjinĠ erĠ
tiaoĠ kuanĠ
xianĠdeĠ feiĠjianĠzhiĠdiĠquĠ
Ġgai ĠshiĠ
erĠdeĠ mingĠ
yu ĠyiĠgeĠ
ĠĠĠ yaĠ
ya ĠzaiĠ
qiu ĠyiĠ
gan ĠshiĠ
tao ĠliĠ
reng ĠweiĠ
ĠyuĠ leiĠ
ĠguoĠ junĠ
0 ĠzuoĠbiaoĠweiĠ
7 ĠmiĠ
A L
Ġ zhongĠyuĠ
dui ĠdaĠ
luo ĠerĠ
tang ĠheĠ
mingĠ chengĠweiĠ
lianĠ saiĠdeĠ
bianĠ maĠ
ĠweiĠyuĠ yinĠjingĠ
ĠE Ġ
ĠweiĠwuĠ erĠ
ĠqiĠB 1900
0ĠzuoĠbiaoĠweiĠ chiĠjingĠ
ĠĠĠ zhenĠ
wen ĠzhiĠ
nan ĠzhiĠ
ï¼ İ
chengĠ xiangĠ
shengĠ huoĠdeĠ
dongĠ yaĠ
yingĠ chiĠ
nanĠ buĠdeĠ
suoĠ weiĠdeĠ
ĠliĠshiĠ huiĠ
dianĠshiĠ dongĠhuaĠ
ĠzongĠ tongĠ
e ĠyuĠ
Ġ xia
da ĠrenĠ
men tĠ
hao ĠzaiĠ
70 ĠnianĠ
is ĠĠĠ
kongĠ zhiĠdeĠ
ĠqingĠ chaoĠzhengĠzhiĠrenĠwuĠ
D S
ĠĠĠ hongĠ
ĠĠĠ 11ĠyueĠ
te ĠsiĠ
mo ĠliĠ
shui ĠzhongĠ
sen ĠdeĠ
sang ĠshiĠ
buĠ huiĠ
yuanĠ xiaoĠ
duiĠ fuĠ
fenĠ pei
zuĠqiuĠ lianĠsaiĠ
ĠguoĠminĠ zhengĠfuĠ
7 3
Ġ hua
Ġ kuaiĠ
tai ĠzaiĠ
gongĠ dianĠ
ĠxiĠ zhouĠ
meiĠ dongĠ
ĠfuĠ langĠ
xuanĠ yanĠ
ĠdongĠ huaĠ
ĠĠĠcheĠzhanĠ gouĠzaoĠ
ĠĠĠ linĠ
ĠjiĠ keĠ
shengĠ danĠ
ĠerĠ laiĠ
dongĠ quĠ
yinĠ daoĠ
miĠ qieĠ
henĠ daĠdeĠ
wanĠchengĠ leĠ
biaoĠxianĠ chuĠ
ĠThe ĠĠĠ
Ġ seĠ
ĠĠĠ sanĠ
ĠĠĠ taĠdeĠ
ĠĠĠ 2022ĠnianĠ
si sĠ
liang ĠyiĠ
te ĠrenĠ
shao ĠweiĠ
daĠ lou
nanĠsiĠ laĠfuĠ
xinĠtaiĠ biĠ
Ġ zou
Ġ pengĠ
lu ĠzhongĠ
bai ĠshiĠ
ĠnianĠ qingĠdeĠ
juĠ dianĠ
jiangĠ paiĠ
saiĠ naĠ
leiĠ siĠyuĠ
xunĠ zhao
chuan ĠdaoĠ
yuanĠ zhengĠ
gongĠ wuĠ
yingĠ xiangĠdeĠ
xinĠ quĠ
zongĠ shuĠjiĠ
shunĠshiĠ zhenĠyuĠ
Ġ fenĠweiĠ
Ġ taiĠguoĠ
fa ĠzaiĠ
yun ĠzaiĠ
sha ĠrenĠ
wa ĠdeĠ
68 ĠnianĠ
yingĠ pian
luĠ jingĠ
ĠxingĠ zheng
faĠbuĠ leĠ
feiĠlvĠ binĠ
ĠweiĠyuĠgaiĠ shengĠ
8 4
Ġ 1995ĠnianĠ
zhan ĠyiĠzhongĠ
suan ĠjianĠ
35 ĠnianĠ
pen ĠdiĠ
beiĠ renĠweiĠ
ĠqiĠ renĠ
zuoĠ wuĠ
zheĠ xiangĠ
changĠ changĠ
ĠsiĠ xiangĠ
ĠgeĠ mingĠ
aoĠ daĠliĠ
ĠĠĠH i
ĠyinĠci ĠzaiĠ
l le
Ġ minĠzhuĠ
Ġ guangĠxiĠ
xun ĠxiĠ
wuĠ tiĠ
feiĠ danĠ
2Ġ mingĠ
jiaĠruĠ leĠ
zhenĠjiĠ xingĠzhengĠdanĠweiĠ
Ġ 160
ĠĠĠ biĠ
you ĠyiĠzhiĠ
fa ĠweiĠyuanĠ
ta ĠliĠ
shui ĠheĠ
cong ĠzhongĠ
daĠ geĠmingĠ
zuoĠ weiĠyiĠ
ĠgeĠ erĠ
ĠzhanĠ houĠ
ĠxingĠzhengĠ quĠ
Ġ tan
Ġ boĠshiĠ
du ĠzaiĠ
mu ĠliĠ
ya ĠjiĠ
te ĠweiĠ
fei ĠdiĠ
duan ĠweiĠ
gen ĠdiĠ
daĠ banĠ
jiangĠ nanĠ
pingĠ dengĠ
benĠ zhanĠ
ĠziĠ ran
Ġ 64
Ġ luoĠsiĠ
Ġ yingĠdeĠ
Ġ changĠqiĠ
zhuan ĠkeĠ
qiang ĠdaĠ
ĠqiĠ xi
7 00
ĠĠĠ kaiĠ
zhuan ĠchengĠ
xiu ĠsiĠ
pe Ġ
CD Ġ
ĠbuĠ tong
ĠxiĠ geĠ
shangĠ biaoĠ
leĠ biĠ
zhanĠ lveĠ
bingĠ beiĠ
ĠpingĠ chengĠ
I V
u si
lian ĠshiĠ
zui ĠxingĠ
in e
ĠzhiĠ hou
xueĠ tongĠ
laiĠ kanĠ
shenĠ panĠ
luoĠ teĠ
kaiĠ chuĠ
ĠcongĠ ciĠ
ĠweiĠjiĠ chuĠ
xiaĠxiaĠdeĠyiĠgeĠxiangĠ zhenĠjiĠxingĠzhengĠdanĠweiĠ
Ġ pang
Ġ 58
Ġ aoĠsiĠ
ba ĠjiĠsiĠ
ĠyiĠ dingĠ
ĠyiĠ seĠlieĠ
buĠ zuĠ
xiangĠ liangĠ
fangĠ kongĠ
wenĠ shuĠ
chuanĠ shuĠ
lvĠ huaĠ
ĠF Ġ
O M
c ke
Ġ gang
min ĠshiĠ
erĠ chengĠ
dianĠ xinĠ
ĠboĠ lanĠ
hunĠ ningĠ
ĠguanĠ zhuangĠbingĠduĠ
zhuiĠsuĠ daoĠ
ĠĠĠ 9
ĠĠĠ fengĠ
zhan ĠliĠ
jiaĠ sheĠ
shengĠ qiĠ
zhanĠ shengĠ
ciĠ dianĠ
yinĠ yingĠ
luĠ yinĠ
gangĠ qinĠ
nanĠjiĠ tiaoĠyueĠ
ao ĠkeĠ
ting ĠzhongĠ
ĠbuĠ bingĠ
chuĠ jingĠ
shouĠ sunĠ
mingĠ chaoĠ
ĠgaiĠ shuĠ
yanĠjiu ĠdeĠ
ĠshiĠrenĠminĠ zhengĠfuĠ
Ġ fenĠbuĠzaiĠ
ĠĠĠ 2009ĠnianĠ
di ĠshiĠyiĠ
shou ĠzaiĠ
mian ĠweiĠ
long ĠkeĠ
rong ĠjiĠ
xiĠ tongĠdeĠ
siĠ houĠ
ĠerĠ taĠ
shouĠ geĠquĠ
shangĠ keĠ
ĠshangĠ yeĠ
ĠtongĠ yangĠ
dongĠjingĠ duĠ
te ĠzhiĠ
pai ĠheĠ
ĠjiĠ cheĠ
buĠ tong
tiĠ anĠ
laiĠ zi
yaĠ geĠ
tianĠ xiaĠ
ĠgeĠ lanĠ
qiangĠ diao
ĠnanĠ beiĠ
Ġ cang
Ġ 1999
du ĠyueĠ
ping ĠrenĠ
chuan ĠshiĠ
paiĠ she
zaoĠ chuanĠ
Ġ kao
Ġ 47
ĠzaiĠ xinĠ
ĠzhongĠ wen
shangĠ jieĠ
guanĠ zhengĠ
changĠ anĠ
ĠziĠ ciĠ
ĠxiangĠ dangĠyuĠ
ceĠ lve
ĠweiĠyuanĠhuiĠ zhuĠxiĠ
Ġa ĠliĠ
canĠsaiĠ ziĠgeĠ
nanĠjiĠtiaoĠyueĠ tiĠxiĠ
ji ĠshiĠshiĠ
ĠĠĠ st
ĠĠĠ shuĠ
ming ĠqiĠ
gai ĠyouĠ
cha ĠjiĠ
wo r
ĠliĠ xianĠ
mingĠ xianĠdeĠ
jiaoĠ tuĠ
xiaoĠ huaĠ
ĠfuĠ zhuĠ
ĠxiangĠ siĠ
Ġha ĠliĠ
xiuĠdaoĠ yuanĠ
Ġ duĠliĠ
ming ĠdiĠ
duo ĠyuĠ
liu ĠyiĠ
tou ĠyuĠ
ĠshiĠ fenĠ
ĠjiĠ yinĠ
faĠ yanĠrenĠ
shouĠ huĠ
moĠ faĠ
gengĠ daĠdeĠ
E ĠĠĠ
Ġ 1985ĠnianĠ
ji ĠshiĠjianĠ
ĠĠĠ sheĠjiĠ
jun ĠqiĠ
lv ĠheĠ
tao ĠfaĠ
sa ĠkeĠsiĠ
beiĠ luĠ
ĠdiĠ mianĠ
yanĠ zhengĠ
jiaoĠ zhanĠ
miaoĠ shuĠweiĠ
diĠshiĠ niĠ
Ġda ĠyueĠ
tongĠxingĠ lianĠ
v an
Ġ 48
jia ĠliĠyaĠ
ban ĠzhiĠ
shui ĠdaoĠ
hun ĠliĠ
ĠweiĠ xianĠ
guanĠ daoĠ
biĠ yaoĠ
laiĠ wuĠ
guangĠ bo
ĠhuiĠ fuĠ
xiaoĠxingĠ xingĠdeĠ
ĠeĠ luoĠ
± Ġ
Ġ 1998
ĠĠĠ huaĠ
ying ĠyiĠ
ding ĠyiĠweiĠ
tuo ĠkeĠ
hun Ġyin
weng Ġ
ĠzhongĠ yao
yunĠ huiĠ
fengĠ fuĠdeĠ
baiĠ houĠ
ĠjuĠ jueĠ
ĠhuoĠ chengĠ
Ġ weiĠshiĠ
quan ĠzhiĠ
san ĠxingĠ
se ĠĠĠ
ĠshiĠ nianĠ
ĠdeĠ heĠ
faĠ she
ĠxiĠ fangĠ
zhengĠ xieĠ
houĠ xuĠ
fenĠ geĠ
ĠfuĠ jinĠdeĠ
zhouĠ kanĠ
tianĠ huang
ĠzheĠ yangĠdeĠ
kaiĠshiĠ yuĠ
diĠerĠ ciĠ
ĠĠĠzhiĠ yeĠshengĠyaĠ
shanĠmai ĠdeĠyiĠbuĠfenĠ
quanĠguoĠzhongĠdianĠ wenĠwuĠbaoĠhuĠdanĠweiĠ
nanĠjiĠtiaoĠyueĠtiĠxiĠ guanĠliĠ
Ġ 1945
Ġ Fi
Ġ qiĠyiĠ
le ĠyueĠ
st er
ĠyiĠ danĠ
xingĠ dengĠweiĠ
faĠ xueĠ
fangĠ shouĠ
qingĠ yuanĠ
puĠ luĠshiĠ
zhengĠzhiĠ buĠ
quĠdeĠ leĠ
Ġ Ne
ĠĠĠ chenĠ
jing ĠdiĠ
guan ĠnianĠ
san ĠzhiĠ
cai ĠshiĠ
faĠ lanĠkeĠ
guanĠ fang
ĠsiĠ geĠ
ĠyeĠ chengĠ
tangĠ quĠ
ĠĠĠC on
U N
Ġ Di
ma ĠyiĠ
han ĠjianĠ
64 ĠnianĠ
guoĠ fangĠ
wuĠ hanĠ
shangĠ zuiĠ
jingĠ tiĠ
zheĠ ciĠ
duiĠ kang
shenĠ yeĠ
xuanĠ gaoĠ
ĠziĠ shengĠ
ĠJ Ġ
jieĠquanĠguoĠ renĠminĠdaiĠbiaoĠdaĠhuiĠ
ĠĠĠ zaoĠqiĠ
ĠĠĠ 2007ĠnianĠ
bei ĠzhongĠ
pa ĠerĠ
29 Ġ
guoĠ jiaĠdeĠ
gongĠ guoĠ
jiaĠ siĠ
chuĠ xian
shouĠ huanĠ
dianĠ xingĠdeĠ
shanĠ huĠ
laĠ maĠ
keĠyiĠ shengĠ
dongĠshiĠ huiĠ
Ġwo ĠdeĠ
Ġ pao
Ġ 1988ĠnianĠ
ĠĠĠ baoĠ
ĠĠĠ liangĠ
ĠĠĠ waiĠbuĠ
qu ĠxiĠ
xiao ĠzhiĠ
dai ĠerĠ
ma ĠheĠ
90 Ġ
mie ĠwangĠ
zhuĠ chengĠ
huiĠ baoĠ
danĠ yaoĠ
xuĠ lieĠ
lunĠ tanĠ
ĠyiĠzhiĠ zaiĠ
peiĠ changĠ
ĠĠĠ Mo
70 Ġ
65 ĠnianĠ
zhongĠ yang
ĠbuĠ zhangĠ
nanĠ meiĠzhouĠ
zhenĠ zhuĠ
bianĠ huanĠ
ĠweiĠyuĠ zhongĠhuaĠrenĠminĠgongĠheĠguoĠ
ĠdianĠ ziĠ
ĠgaiĠcun ĠshiĠjianĠyuĠ
Ġ douĠshiĠ
xiĠ diĠ
keĠ jianĠ
mingĠ mingĠdeĠ
zhanĠ jianĠ
guanĠ guangĠ
shuiĠ liangĠ
Ġ 1990
mie ĠjueĠ
ĠjiĠ jieĠ
xingĠ nengĠ
xiaoĠ lvĠ
xuanĠ minĠ
maĠ zuĠ
naĠ yangĠ
taoĠ lun
guoĠjiĠ zuĠ
Ġ tu
ĠĠĠ hanĠ
er ĠshiĠdeĠ
xue ĠzhiĠ
mian ĠyouĠ
shui ĠshiĠ
xiĠ fangĠ
geĠ diĠdeĠ
mingĠ niĠ
yingĠ xiong
zhenĠ rongĠ
dangĠ daiĠ
ĠjieĠ daoĠ
chongĠ shengĠ
daiĠbiaoĠ tuan
Ġ 1984ĠnianĠ
ĠĠĠ fenĠ
liang ĠqiĠ
duo ĠdaĠ
00 ĠnianĠ
nv ĠdeĠ
rong ĠhuoĠ
ĠliĠ aoĠ
xiĠ erĠ
ziĠ chengĠ
shuĠ xingĠ
huaĠ ruĠ
nanĠ daoĠ
qiuĠ miĠ
gaoĠ su
dangĠ zuoĠ
kaiĠ banĠ
ĠfanĠ yingĠ
ĠweiĠyuĠgaiĠguoĠ xiĠbuĠ
s of
lan ĠheĠ
75 ĠnianĠ
xianĠ qianĠ
dianĠ changĠ
gaiĠ jianĠ
boĠ geĠ
ĠshiĠyiĠ jiaĠ
ĠshiĠdeĠ renĠ
juĠminĠ dianĠ
zuoĠquĠ jiaĠ
Ġ jianĠyiĠ
Ġ 1990ĠnianĠ
zai ĠdeĠguoĠ
bu ĠdeĠyiĠgeĠ
xiu ĠshiĠ
xiu ĠxianĠ
1950 ĠnianĠ
keĠ yiĠshiĠ
duiĠ biĠ
suoĠ xieĠ
shanĠ chuĠ
ĠziĠ jiĠdeĠ
ĠmuĠ qinĠ
maoĠ zeĠdongĠ
ĠT Ġ
gu ĠsiĠ
wa rd
daĠ shaĠ
xingĠ zhuangĠ
wuĠ ran
qingĠ ganĠ
sheĠ ruĠ
feiĠ teĠ
liuĠ qiuĠ
paiĠ fangĠ
ĠjinĠ biaoĠ
aiĠ naĠshengĠ
saĠ laĠ
Ġceng ĠyuĠ
E C
Ġ Me
ĠĠĠ kaĠ
gaoĠ shanĠ
ge ĠyueĠdeĠ
shu ĠyueĠ
le ĠzhongĠguoĠ
huo ĠerĠ
chong ĠdeĠ
ar a
fuĠ zhuĠxiĠ
chuĠ jueĠ
ĠwuĠ qiĠ
ĠdeĠdiĠ diĠ
Ġ19 Ġ
zuĠcheng ĠbuĠfenĠ
Ġ 65
Ġ sĠ
guan ĠdiĠ
ni ĠfuĠ
zong ĠsiĠlingĠ
cha ĠheĠ
mou ĠzhongĠ
siĠ tan
geĠ xiangĠ
ĠbuĠ shaoĠ
guanĠ lianĠ
ĠyiĠjiĠ zhongĠguoĠdaĠluĠdeĠ
ganĠ qingĠ
zhuĠyao ĠyouĠ
ĠĠĠzheĠ keĠ
Ġ gei
shan ĠheĠ
geng ĠgaiĠ
deĠ guoĠ
ĠzaiĠ haiĠ
tongĠ xiangĠ
meiĠ xiaoĠshiĠ
shenĠ fen
chuanĠ shuo
Ġdan ĠyouĠ
feiĠxingĠ yuanĠ
du ĠbuĠ
zhang ĠzhongĠ
ar Ġ
62 ĠnianĠ
ĠyiĠ diĠ
ĠweiĠ taĠ
jinĠ shengĠ
tongĠ yongĠ
ĠdaĠ jieĠ
jiaoĠ dianĠ
qianĠ daoĠ
Ġdan ĠshiĠzaiĠ
ĠzuiĠ houĠyiĠ
genĠ benĠ
ĠĠĠ leiĠ
ĠĠĠ jiaoĠyuĠ
zhong ĠshiĠyongĠ
dong ĠyuĠ
gun Ġ
xiĠ zangĠ
juĠ liuĠ
liangĠ zuoĠ
ĠfuĠ zhuĠxiĠ
chuĠliĠ qiĠ
luĠyingĠ daiĠ
ĠĠĠ xiangĠgang
kai ĠjiĠ
nuo ĠdeĠ
45 Ġ
geĠ jieĠ
houĠ xuanĠ
yingĠ wuĠ
bingĠ buĠshiĠ
ĠkeĠ fuĠ
ĠtaĠ shuoĠ
guĠ zhangĠ
ĠbingĠ xiangĠ
ĠshiĠjiĠ chuĠ
gengĠ duo
zhengĠzhiĠ jiaĠ
M V
xiang ĠliĠ
ti ĠqiĠ
xiao ĠweiĠ
mu ĠzhongĠ
ll ĠĠĠ
xingĠ bieĠ
faĠ biaoĠdeĠ
jiaoĠ xiaoĠ
haiĠ baĠgaoĠduĠ
Ġ16 Ġ
ĠheiĠ longĠjiangĠ
âĪ Ĵ
ĠĠĠ 2000
zhao ĠjiĠ
diĠ anĠ
ĠyouĠ yongĠ
shengĠ dianĠ
jinĠ huaĠ
ĠxiĠ shouĠ
yeĠ chengĠweiĠ
jiaoĠ daĠdeĠ
duĠ shuĠ
ĠbingĠ chengĠweiĠ
meiĠguoĠ zongĠtongĠ
ĠhaiĠ baĠ
Ġba ĠyueĠ
fuĠzhiĠ fuĠ
xinĠguanĠfeiĠyanĠ queĠzhenĠbingĠliĠ
o p
s panĠ
an ĠheĠ
shang ĠzaiĠ
shui ĠliĠ
zhui ĠqiuĠ
qiĠ yuanĠ
ĠheĠ ziĠ
yinĠ jieĠ
boĠ duoĠ
ĠtaĠ duiĠ
zuiĠ da
baĠ maĠ
neiĠ yaĠ
cunĠ minĠ
ĠjiĠzhongĠ xueĠ
ĠÐ ¾
ĠmengĠ guĠ
ĠĠĠwaiĠbuĠ lianĠjieĠ
ĠĠĠ zhengĠyiĠ
qu ĠyiĠyuanĠ
bao ĠyouĠ
wang ĠzaiĠ
yang ĠyuĠ
ĠrenĠ zhengĠ
fuĠ chuĠ
fuĠ luĠ
wuĠ daĠ
guanĠ kanĠ
wanĠ jianĠ
ĠdeĠshiĠ qingĠ
ĠquĠ daiĠ
8 2
a ĠsiĠ
Ġ kong
Ġ qiang
ba ĠyiĠ
ĠheĠ huaĠ
fuĠ zhuangĠ
ĠbuĠ ruĠ
xianĠ quĠ
ĠxiĠ faĠ
ĠdaĠ baiĠ
luĠ yinĠshiĠ
ĠbaoĠ liuĠ
gouĠ tongĠ
ganĠ lanĠqiuĠ
ĠsuoĠ xieĠ
gongĠzuo ĠrenĠyuanĠ
ĠxianĠshiĠyouĠ nanĠjiĠtiaoĠyueĠtiĠxiĠguanĠliĠ
Ġ zhaĠ
ĠĠĠ changĠ
lai ĠzhiĠ
ni ĠyuĠ
zong ĠjiĠ
cun ĠchuĠ
shuai ĠjiaoĠ
kua Ġ
ĠzhongĠ zuĠ
xinĠ tuĠ
chenĠ moĠ
Ġxian ĠzhiĠ
c lu
zhong ĠyiĠgeĠ
beiĠ shangĠ
wenĠ dingĠdeĠ
suoĠ jianĠ
ĠdanĠ reng
ĠdanĠ quĠ
sĠĠĠ of
caiĠyongĠ leĠ
jian Ġli
zuo ĠzaiĠ
san ĠqiĠ
shui ĠweiĠ
or ld
yanĠ jiuĠshiĠ
ĠxiangĠ zhengĠ
Ġzhe ĠshiĠdeĠ
jiaoĠyiĠ suoĠ
ĠU Ġ
¼ Ġ
Ġ 600
bi ĠjiĠ
dan ĠjiĠ
man ĠyiĠ
me ĠĠĠ
zhanĠ chuĠ
changĠ daoĠ
jiaoĠ gei
zhenĠ wangĠ
dingĠ dianĠ
ĠshiĠyiĠ keĠweiĠ
Ġyou ĠzhiĠ
ĠdaiĠ maĠweiĠ
8 3
Ġ Mo
Ġ 1991ĠnianĠ
fei ĠqiĠ
shuĠ geĠ
yeĠ suĠ
ĠsiĠ maĠ
daiĠ daoĠ
shenĠ miĠ
ĠsuĠ chengĠ
ĠyaĠ zhouĠ
en ĠsiĠ
ĠĠĠ fenĠbuĠ
nan ĠyueĠ
wang ĠheĠ
ni ĠjiĠ
xu ĠyiĠ
tian ĠdiĠ
xiangĠ nanĠ
shouĠ cangĠ
mingĠ jiaoĠ
yanĠ xianĠ
suoĠ zaiĠdeĠ
M P
ĠĠĠ moĠ
ming ĠzaiĠ
zhan ĠqiĠ
37 ĠnianĠ
youĠ taiĠ
lianĠ junĠ
zuiĠ haoĠdeĠ
ĠjuĠ leĠbuĠ
ĠdeĠshiĠ yiĠ
Ġxian ĠyiĠ
maĠlai ĠxiĠya
raoĠtaiĠyangĠ gongĠ
meiĠdongĠ buĠshiĠquĠ
t ha
ĠĠĠ Ð
zhan ĠbuĠ
dan ĠyouĠ
ba ĠkeĠ
bian ĠfuĠ
lan ĠshiĠ
geng ĠdaĠ
30 ĠfenĠ
ĠshiĠ xiaĠxiaĠdeĠyiĠgeĠxiangĠzhenĠjiĠxingĠzhengĠdanĠweiĠ
ĠzaiĠ keĠ
ĠzhongĠ renĠ
geĠ xingĠ
beiĠ faĠ
dongĠ ceĠ
bingĠ qieĠ
ĠxingĠ xingĠ
miĠ suĠliĠ
xingĠzhengĠ yuanĠ
Ġ 1989ĠnianĠ
ĠĠĠ 2006ĠnianĠ
cheng ĠbuĠ
bi ĠheĠ
us Ġ
heĠ yueĠ
shengĠ cunĠ
ĠkeĠ yunĠ
xieĠ tiaoĠ
ĠdanĠ zuiĠzhongĠ
douĠ meiĠyouĠ
ĠyiĠzhiĠ daoĠ
yiĠshiĠ qiĠ
ĠH Ġ
ĠI STAT
Y Ġ
Ġ 59
qie ĠdeĠ
Ġnian ĠnianĠ
heĠ bingĠ
ĠyouĠ siĠ
jieĠ xiĠ
jinĠ junĠ
ruĠ xueĠ
ĠxingĠ quĠ
kouĠ jingĠ
ĠdeĠshiĠ liĠ
ĠE STĠ
Ġ jue
Ġ tuanĠ
Ġ 2024ĠnianĠ
ai n
ĠĠĠ dengĠ
hu ĠzhiĠ
na ĠshiĠ
neng ĠdeĠ
lin ĠzhongĠ
ĠyouĠ beiĠ
ĠguoĠ houĠ
ĠdiĠ baĠ
xinĠ fengĠ
shenĠ sheĠ
zhaoĠ kai
ĠduiĠ ciĠ
ĠweiĠyuĠfaĠguoĠ ao
Ġ hen
Ġ 1994
Ġ mingĠweiĠ
wen ĠweiĠ
ni ĠdiĠ
mo ĠnianĠ
huan ĠbaoĠ
jianĠ danĠdeĠ
quĠ daoĠ
houĠ laiĠdeĠ
qianĠ fangĠ
meiĠ guoĠzhiĠ
lingĠ ganĠ
zongĠ lingĠshiĠ
laĠ duoĠ
douĠ keĠyiĠ
ĠmingĠ mingĠ
tiaoĠ muĠ
zhuĠjiaoĠ lianĠ
ĠxieĠ zhuĠ
guangĠboĠ gongĠsiĠ
jueĠduiĠ xingĠdengĠweiĠ
jueĠsai ĠyiĠ
li ĠxiĠ
nei ĠheĠ
pian ĠweiĠ
TV Ġ
guoĠ jia
xiaĠ leĠ
ĠyiĠzhiĠ yuĠ
ĠshouĠ fuĠ
Ġsui ĠjiĠ
Ġ5Ġ diaoĠkuaiĠyiĠxiaoĠshiĠ
biĠliĠ niuĠsiĠ
ĠjiĠbeiĠ meiĠdongĠbuĠshiĠquĠ
ĠED TĠ
ĠshiĠyiĠkeĠweiĠ raoĠtaiĠyangĠgongĠ
ĠshiĠyiĠkeĠweiĠraoĠtaiĠyangĠgongĠ zhuanĠdeĠxiaoĠxingĠxingĠ
g inĠ
Ġ 49
Ġ 1996
di ĠliĠyaĠ
ni ĠheĠ
ben ĠshiĠ
shao ĠshiĠ
ĠjiĠ gou
yuanĠ yinĠshiĠ
minĠ dangĠ
Ġta ĠweiĠ
aĠ miĠ
ĠyuanĠ ziĠ
Ġer ĠjiĠ
ĠL Ġ
saiĠerĠweiĠ yaĠ
xiaoĠxingĠxingĠdeĠ jueĠduiĠxingĠdengĠweiĠ
I R
t ri
Ġ rou
xian ĠdeĠdiĠ
guang ĠyiĠ
pian ĠrenĠ
ĠfuĠ zhouĠ
tianĠ xinĠ
dingĠ leĠ
diaoĠ suĠ
Ġ zan
Ġ boĠliĠ
ma ĠjiĠ
qiĠ renĠ
ziĠ shengĠ
guanĠ ce
ĠdeĠyiĠ jiaĠ
jiaĠru ĠzhongĠguoĠgongĠchanĠdangĠ
ĠĠĠzheĠkeĠ xiaoĠxingĠxingĠdeĠjueĠduiĠxingĠdengĠweiĠ
Ġ 800
ci ĠrenĠ
zhou ĠyuĠ
pu ĠerĠ
ce boo
38 ĠnianĠ
67 ĠnianĠ
ĠguoĠ youĠ
beiĠ buĠdeĠ
duĠ zheĠ
shouĠshiĠ lvĠ
yinĠdiĠ anĠnaĠ
Ġ he
Ġ qiaoĠzhiĠ
ĠĠĠ banĠ
fan ĠdiĠ
ze ĠerĠ
cai ĠjiĠ
zhai ĠwuĠ
juĠ luoĠ
ruĠ leĠ
tianĠ xianĠ
erĠshiĠ nianĠ
ĠjiĠzhongĠ zaiĠ
f li
ĠĠĠ xuanĠ
sen ĠbaoĠ
ĠzhiĠ houĠzaiĠ
xiĠ shouĠ
ĠyueĠ seĠfuĠ
guanĠ shangĠ
taiĠ bei
yongĠ yuanĠ
wanĠ quĠ
gangĠ tie
shuiĠ shangĠ
henĠ duo
ĠyiĠweiĠ zheĠ
ĠĠĠE n
9 ĠshiĠ
Ġ Ca
en ĠdeĠ
ĠĠĠ miĠ
shou ĠqiĠ
yin ĠzaiĠ
xiao ĠheĠ
ct Ġ
ĠyiĠ jiĠyiĠ
ĠyouĠ wuĠ
xiĠ jieĠ
jianĠ zhengĠ
jianĠ huaĠ
yanĠ zouĠ
ciĠ tianĠtiĠ
ĠpingĠ lunĠ
diĠyiĠ jieĠ
Ġ qiuĠduiĠ
ĠĠĠ huiĠ
zao ĠyiĠ
zhuan ĠrenĠ
lun ĠjiĠ
chuang ĠshiĠ
sou ĠsuoĠ
xiĠ yuanĠ
geĠ shengĠ
chuĠ ban
ĠshiĠyiĠ yuanĠ
zhuĠjiaoĠ zuoĠ
ĠheĠdaoĠ quanĠzhangĠ
Ġ 1997
Ġ piaoĠ
qi ĠshiĠshiĠ
ĠyouĠ leĠ
xiĠ jinĠ
ĠdiĠ daiĠ
shangĠ yingĠdeĠ
duĠ xingĠ
zuĠ qunĠ
zhenĠ zhengĠdeĠ
ĠnanĠ jingĠ
junĠshiĠ tanĠdingĠ
keĠliĠ miĠyaĠ
ĠĠĠgaiĠ shuĠ
ĠzhiĠhuiĠ guanĠ
ling ĠxingĠ
feng ĠzhiĠ
pai ĠrenĠ
fuĠ shuĠjiĠ
quĠ fuĠzeĠguanĠxiaĠ
teĠ dingĠdeĠ
lanĠ kaĠ
naĠ geĠ
kongĠ jun
ĠjiangĠ shuĠ
yongĠyuĠ zhiĠ
g nĠ
hu ĠheĠ
lie ĠjianĠ
ĠliĠ jieĠ
wuĠ ranĠ
ĠdiĠ 1Ġ
xinĠ chengĠ
qianĠ mingĠ
jiuĠ baĠ
ouĠ mengĠ
meiĠyouĠ renĠheĠ
siĠchuanĠ shengĠ
zhuanĠyiĠ daoĠ
8 1
Ġ cangĠ
ma ĠdiĠ
men tĠĠĠ
chan ĠyuĠ
chen ĠkeĠ
ĠyiĠ minĠ
ĠzaiĠ yingĠguoĠ
xiaĠ tianĠ
daiĠ zhuĠ
ĠchuĠ shengĠ
gengĠ gaoĠ
3Ġ gongĠliĠ
wenĠhua ĠyiĠchanĠ
ĠheĠnanĠ shengĠ
anĠhuiĠ shengĠ
5 ĠwanĠ
fang ĠyouĠ
xiao ĠjiĠ
mo ĠheĠ
ze ĠerĠshengĠ
yingĠ chaoĠ
danĠ baiĠzhiĠ
lingĠ xiu
fanĠ mang
ĠdeĠyiĠ yiĠ
henĠ shaoĠ
ĠguiĠ zhouĠ
zuoĠpin ĠzhongĠ
a ĠdeĠ
Ġ jun
Ġ bie
Ġ Se
yi ĠĠĠ
pai ĠweiĠ
gou ĠjianĠ
00 ĠpingĠfangĠqianĠmiĠ
kuang ĠwuĠ
2019 ĠguanĠzhuangĠbingĠduĠ
ĠshiĠ biĠ
beiĠ haiĠdaoĠ
huaĠ xianĠ
gaiĠ bian
wangĠ yeĠ
zongĠ eĠweiĠ
ĠzhuĠ zhangĠ
nvĠ shenĠ
ĠĠĠ huangĠ
cheng Ġli
mi ĠliĠ
ĠbuĠ danĠ
zhanĠ fangĠ
xiaoĠ daoĠ
luoĠ boĠ
shanĠ kouĠ
paiĠ qiuĠ
1Ġ wanĠ
gongĠgongĠ jiaoĠtongĠ
Ġfan ĠerĠ
lianĠxuĠ juĠ
eĠluoĠ si
Ġ 1992
bi ĠqiĠ
jingĠ feiĠ
zhanĠ cheĠ
fenĠ huiĠ
ĠkeĠ daĠ
daiĠ shuĠ
ĠjuĠ banĠ
diĠshiĠ sanĠ
ĠĠĠzhongĠ huaĠrenĠminĠgongĠheĠguoĠ
Ġ bin
Ġ Lo
li ĠjieĠ
ĠĠĠ gu
ri n
qian ĠjiĠ
xuan ĠjiĠ
ĠweiĠ boĠ
buĠ nengĠ
ĠrenĠ weiĠshiĠ
xiangĠ yaoĠ
zhengĠ faĠ
danĠ shengĠ
liangĠ duĠ
bianĠ xieĠ
huĠ nanĠshengĠ
aoĠ di
zhuangĠ yuanĠ
Ġjie ĠshiĠ
quĠyiĠhuiĠ xuanĠjuĠ
Ġtun ĠqiĠ
mian ĠzhiĠ
ding ĠheĠ
su ĠerĠ
chi ĠzhiĠ
in u
ĠliĠ wuĠ
ĠzhongĠ shuĠ
jianĠ cha
sheĠ qun
zhenĠ yingĠ
zhenĠ junĠ
ĠG Ġ
yuanĠwaiĠ langĠ
ĠĠĠ saiĠ
ĠĠĠ guanĠyuĠ
ĠĠĠ zheĠgeĠ
bi ĠsiĠ
hui ĠliĠshiĠ
xia ĠdaĠ
duo ĠjiaĠ
xie ĠheĠ
liu ĠyueĠ
tuo ĠsiĠ
ĠzaiĠ qianĠ
xinĠ zang
tiĠ xianĠ
wangĠ laiĠ
liangĠ zheĠ
suoĠ zhangĠ
zuiĠ jinĠdeĠ
xunĠ luoĠ
ĠbaoĠ luoĠ
aoĠ men
Ġtong ĠnianĠ12ĠyueĠ
Ġ18 Ġ
ĠĠĠsuiĠ ran
c or
Ġ Ra
Ġ 1983ĠnianĠ
you ĠzhiĠwuĠ
ling ĠzhiĠ
gongĠ xueĠyuanĠ
siĠ maĠ
dangĠ di
guangĠ puĠ
ĠgeĠ lunĠ
ĠjieĠ hunĠ
baoĠkuo ĠyiĠxiaĠ
luoĠmaĠ niĠyaĠ
ĠĠĠ Pro
qing ĠyuĠ
fuĠ buĠ
fangĠ kong
fangĠ songĠ
caiĠ huiĠ
chiĠ cunĠ
shuiĠ shouĠ
tuiĠ xiu
Ġwu ĠyueĠ
M S
ni ĠxiĠ
dun ĠheĠ
diao ĠxiangĠ
69 ĠnianĠ
jingĠ baoĠ
xunĠ haoĠ
piĠ panĠ
Ġer ĠrenĠ
Ġ jing
Ġ diĠyuĠ
chu ĠheĠ
le sĠĠĠ
guan ĠyouĠ
shui ĠxianĠ
re e
ĠshiĠ yingĠ
shangĠ banĠ
ĠdaĠ xiaoĠ
dianĠ zhanĠ
muĠ biaoĠshiĠ
teĠ shuĠdeĠ
yunĠ nanĠshengĠ
jueĠ saiĠzhongĠ
ĠyuanĠ benĠ
ĠzuiĠ zhongĠyiĠ
P C
Ġ beiĠbuĠ
Ġ tuiĠchuĠ
Ġ ruiĠ
ĠĠĠ yinĠyueĠ
gong ĠzaiĠ
liang ĠdiĠ
34 ĠnianĠ
ĠyuĠ 18
ĠtaĠ chengĠweiĠ
ĠdanĠ beiĠ
ĠshouĠ xianĠ
ĠjingĠ changĠ
ĠnianĠ4ĠyueĠ 1ĠriĠ
Ġsan ĠyueĠ
5 ĠshiĠ
Ġ yaĠliĠ
Ġ xĠ
Ġ zhuĠyouĠ
zheng ĠshiĠdeĠ
yang ĠfuĠ
man ĠdiĠguoĠ
ĠyouĠ daĠ
ĠzaiĠ xiangĠ
erĠ siĠ
zhengĠ guiĠ
junĠ tuan
laiĠ wangĠ
2Ġ wanĠ
ĠyeĠ chengĠweiĠ
ĠshiĠweiĠ zheĠ
Ġyou ĠliĠ
zhuĠtiĠ quĠ
hongĠzha ĠjiĠ
meiĠzhongĠ buĠshiĠquĠ
Ġ zi
Ġ qiong
Ġ Sa
yang ĠqiĠ
ĠweiĠ mingĠ
chuanĠ yuanĠ
lieĠ dianĠ
ĠgaiĠ cunĠ
ĠĠĠshiĠ yiĠ
lieĠche ĠdeĠ
9 ĠmiĠ
Ġ lieĠcheĠ
ĠĠĠ Mi
ĠĠĠ yingĠxiangĠ
liu ĠzhiĠ
ĠyueĠ qiĠ
chuĠ siĠ
shenĠ yangĠ
zhenĠ xianĠ
xuanĠ zhuanĠ
paiĠ sheĠdeĠ
ĠC STĠ
ĠdangĠ xuanĠ
ĠĠĠS ch
Ġ17 Ġ
Ġ6Ġ diaoĠkuaiĠyiĠxiaoĠshiĠ
ĠjiĠbeiĠ meiĠzhongĠbuĠshiĠquĠ
ĠCD TĠ
b yĠĠĠ
ĠĠĠ 2005ĠnianĠ
hu ĠliĠ
gu ĠheĠ
bing ĠheĠ
lai ĠyiĠ
dang ĠrenĠ
zhen ĠsiĠ
zhao ĠheĠ
nong ĠliĠ
pao ĠdeĠ
fou ĠjueĠ
jianĠ jinĠ
wenĠ quanĠ
bingĠ yuanĠ
gaiĠ zao
zuĠ qiu
jiuĠ jingĠ
Ġ 1986ĠnianĠ
ĠĠĠ zai
ping ĠjiĠ
mai ĠjiaĠ
sang ĠshengĠ
ĠyiĠ luĠ
Ġnian ĠshiĠjieĠbeiĠ
shouĠ changĠ
yeĠ xianĠ
ĠkeĠ jianĠ
ĠgongĠ siĠdeĠ
zhuanĠ yuanĠ
reĠ menĠ
Ġ14 Ġ
ĠĠĠbenĠ shuĠ
ĠjiĠtuanĠ junĠ
ĠdeĠweiĠ zhiĠ
banĠjiangĠ dianĠliĠ
a u
h ri
tu ĠyuĠ
jinĠ tianĠ
zhanĠ ting
jiaoĠ xingĠ
huoĠ jiangĠ
luoĠ baiĠ
ĠdeĠyiĠ mingĠ
aĠ boĠ
tuoĠ maĠsiĠ
zengĠ sheĠ
nuoĠ manĠdiĠ
ĠH RĠĠĠ
fenĠbie ĠshiĠ
aoĠlinĠpiĠkeĠ yunĠdongĠ
aoĠsiĠ kaĠ
yanĠhaiĠ shengĠfenĠ
Ġ 1945ĠnianĠ
en dĠ
xin ĠnianĠ
nei ĠzhiĠ
geng ĠmingĠ
ken ĠtaĠjiĠ
48 ĠnianĠ
wuĠ gongĠ
ĠdaĠ poĠ
daiĠ muĠ
ĠjinĠ ciĠyuĠ
tingĠ cheĠchangĠ
ĠzheĠ changĠ
tieĠ luĠdeĠ
ĠN Ġ
5 ĠhaoĠ
8 ĠshiĠ
qing ĠzhiĠ
meng ĠxiangĠ
kan ĠjianĠ
shuai ĠxianĠ
46 ĠnianĠ
ĠbuĠ manĠ
chuĠ juĠ
zhenĠ xiangĠ
waiĠ shuĠruĠ
zhuanĠ shuĠ
jieĠquanĠguoĠ zhengĠxieĠweiĠyuanĠ
ĠĠĠ zuoĠ
ĠĠĠ gaiĠdiĠ
bu ĠzhiĠdaoĠ
huo ĠjiĠ
che ĠweiĠ
men ĠzaiĠ
32 ĠnianĠ
ĠliĠ zaiĠ
fenĠ fenĠ
jiangĠ huĠ
lanĠ zhouĠ
kongĠ longĠ
lianĠsaiĠ guanĠjunĠ
Ġhuo ĠdeĠyiĠmeiĠ
Ġma ĠkeĠ
ĠcheĠ xiaoĠ
2 ĠshiĠ
Ġ sheng
Ġ To
Ġ Na
Ġ zeĠshiĠ
un i
bing ĠqiĠ
ĠdeĠ qiĠ
xiĠ anĠ
luĠ saĠ
wenĠ benĠ
laiĠ yuanĠyuĠ
cheĠ chuĠ
liuĠ chengĠ
ĠbaoĠ chiĠ
keĠyiĠ zhiĠ
ĠshengĠ yaĠ
Ġzai ĠjiĠ
Ġ xinĠdeĠ
yu ĠshiĠjieĠ
ĠĠĠ 12ĠyueĠ
zhi ĠĠĠ
er ĠliĠ
ban ĠheĠ
ping ĠxiĠ
wan ĠyuĠ
zhui ĠjiĠ
kun ĠmingĠ
61 ĠnianĠ
ĠzaiĠ xiangĠgangĠ
jiaĠ gouĠ
daoĠ diĠ
ziĠ nvĠ
fenĠ zuĠ
ĠfuĠ buĠ
jiuĠ long
woĠ lunĠ
Ġer ĠyuĠ
hunĠ luanĠ
aĠerĠ baĠ
Ġ13 Ġ
7 1
Z Ġ
Ġ 1993
Ġ geĠrenĠ
zhou ĠxiĠ
liu ĠjiĠ
lei ĠerĠ
ĠzaiĠ faĠguoĠ
faĠ yanĠ
shuiĠ jingĠ
liĠ yaĠ
liĠ nuoĠyiĠ
Ġ1950 ĠnianĠ
yin ĠyiĠ
mei ĠjiĠ
wo ĠsiĠ
beiĠ jieĠ
dongĠ taiĠ
zuiĠ duo
zongĠ gongĠ
kouĠ haoĠ
eĠ waiĠ
ĠciĠ keĠ
Ġda ĠweiĠ
Ġ liao
Ġ Ar
Ġ 1920ĠnianĠ
dian ĠliĠjiĠ
zhou ĠdaĠxueĠ
la ĠshiĠ
tou ĠshiĠ
xingĠ xiĠ
jingĠ xiangĠ
yeĠ meiĠyouĠ
Ġ 1987ĠnianĠ
di u
qu ĠweiĠyuĠ
liu ĠjiaĠ
dou ĠyiĠ
rong ĠweiĠ
36 ĠnianĠ
39 ĠnianĠ
ĠrenĠ tongĠ
erĠ yanĠ
ĠyueĠ guoĠ
keĠ laiĠ
quĠdeĠ fuĠzeĠguanĠxiaĠ
Ġ zuĠchengĠ
Ġ 20ĠshiĠjiĠ
ai ĠsiĠ
hai ĠweiĠ
quan ĠyuĠ
po ĠdeĠ
ĠyouĠ zhengĠ
huiĠ daoĠzhiĠ
chuĠ shengĠzaiĠ
shuĠ jiaĠ
shuĠ xieĠ
ĠdaĠ niĠ
xinĠ beiĠshiĠ
zuĠ gouĠ
bianĠ quĠ
maĠ dingĠ
baĠ baĠ
ĠgaiĠ jianĠ
seĠ qingĠ
ĠqingĠ huaĠ
lvĠkeĠ tieĠdaoĠ
N et
Ġ Ba
ĠĠĠ shaĠ
ĠĠĠ lingĠyiĠ
ĠĠĠ teĠzhengĠ
jiao ĠzhongĠ
dian ĠzhiĠ
quan ĠheĠ
chuan ĠjiaĠ
lun ĠyuĠ
ĠweiĠ fanĠ
guoĠ wuĠ
ĠqiĠ buĠ
taiĠ yuanĠ
danĠ mai
muĠ fuĠ
ĠgaiĠ zhuangĠ
qiangĠ lieĠdeĠ
ĠwuĠkeĠ lan
xunĠhuiĠ saiĠ
Ġ chai
Ġ 1991
huo ĠqiĠtaĠ
xu ĠyuĠ
qin ĠdeĠ
31 ĠnianĠ
ĠbuĠ lunĠ
mingĠ eĠ
gaiĠ liangĠ
qiuĠ duiĠdeĠ
ĠwuĠ ziĠ
Ġta ĠerĠ
ĠfaĠ yuanĠ
ĠdongĠ fangĠ
henĠ kuai
keĠneng ĠdeĠ
P laySta
Ġ lianĠheĠguoĠ
ĠĠĠ yinĠweiĠ
zhi ĠshiĠyongĠ
mu ĠweiĠ
pai ĠxiĠ
45 ĠnianĠ
ĠshiĠ fou
gongĠ xiangĠ
ĠqiĠ zhuĠ
jinĠ daiĠ
shangĠ suoĠ
ĠgongĠ zhuĠ
zhuanĠ huiĠ
peiĠ jueĠ
Ġer ĠyueĠ
gongĠheĠ guoĠdeĠ
ĠI Ġ
9 1
yuan ĠrenĠminĠbiĠ
xiao ĠzhongĠ
wan ĠzaiĠ
ding ĠyouĠ
ĠshiĠ yongĠdeĠ
ĠqiĠ taĠdeĠ
ĠmingĠ chengĠ
taĠmen ĠzaiĠ
hunĠningĠ tuĠ
S M
bo ĠxiĠ
suo ĠjiĠ
tu ĠxiĠ
ce ĠweiĠ
pian ĠyuĠ
zhongĠ yaoĠdeĠ
gongĠ ye
jieĠ dianĠ
zhengĠ siĠ
jiaoĠ shaoĠ
ĠkeĠ linĠ
lianĠ boĠ
zhouĠ moĠ
ĠyingĠ cunĠ
Ġfou ĠzeĠ
I G
Ġ h
Ġ wai
Ġ huaiĠ
ĠĠĠ Ro
ĠĠĠ 4Ġ
ling ĠyouĠ
diĠ diĠ
daoĠ qiĠ
qianĠ shuiĠ
kaiĠ yeĠ
baĠ gongĠ
xingĠzhengĠ quĠyuĠ
Ġ 1978ĠnianĠ
an ĠyuĠ
ĠĠĠ 2023ĠnianĠ
kou ĠyuĠ
xiu ĠxiĠ
kun ĠchongĠ
ĠyouĠ baoĠ
keĠ huĠ
shouĠ jieĠ
mingĠ shengĠ
ĠdaĠ dianĠ
xinĠ xinĠ
bingĠ tuanĠ
maĠ changĠ
ĠxiangĠ duiĠ
huanĠ qiuĠ
enĠ laiĠ
fuĠjianĠ shengĠ
ĠqiĠxi ĠzaiĠdiĠ
Ä ģ
Ġ 1982ĠnianĠ
shan ĠzhiĠ
ha ĠfuĠ
gongĠ dangĠ
xiangĠ muĠdeĠ
beiĠ ceĠ
leĠ ziĠjiĠdeĠ
nanĠ zhuĠjueĠ
zuiĠ houĠdeĠ
guĠ chengĠ
suĠ zhouĠ
ĠshiĠyiĠ yueĠ
moĠ tuoĠ
ĠdeĠshiĠ yanĠ
ĠjieĠ zhuĠ
liĠ changĠ
ĠnanĠ xingĠ
ĠjiĠqiĠ renĠ
ĠĠĠweiĠ yuĠ
ĠbanĠ benĠ
dongĠnanĠ yaĠ
tianĠwenĠ xueĠjiaĠ
ĠxinĠjiaĠ poĠ
I L
f f
Ġ 1958ĠnianĠ
ĠĠĠ re
ĠĠĠ xuĠ
ying ĠzaiĠ
zuo ĠweiĠyuĠ
jiu ĠbuĠ
ĠyiĠ kaiĠshiĠ
ĠliĠ xingĠ
wuĠ dingĠ
ĠxiĠ lieĠdeĠ
xinĠ yongĠ
jiangĠ zuoĠ
ĠdanĠ baiĠ
puĠ sheĠ
ĠmeiĠ tiĠ
Ġ teng
hui ĠqiĠ
hai ĠheĠ
lun ĠheĠ
wuĠ jianĠ
chengĠ nuoĠ
beiĠ gaoĠ
zhanĠ kai
yinĠ mouĠ
banĠ yan
ĠgongĠ chanĠ
xunĠ wenĠ
canĠ zhengĠ
luoĠdiĠ yaĠ
zhongĠguoĠrenĠminĠ jieĠfangĠjunĠ
Ġ niĠkeĠ
xi ĠrenĠ
hua ĠyouĠ
sai ĠheĠ
gang ĠshiĠ
kuan ĠdeĠ
chuanĠ tong
ĠdanĠ meiĠyouĠ
ouĠ meng
4 ĠĠĠ
she ĠweiĠ
zhen ĠxingĠ
liu ĠrenĠ
lo g
buĠ shaoĠ
beiĠ fuĠ
ziĠ fuĠ
ĠdiĠ tie
yinĠ xingĠ
changĠ guiĠ
dianĠ xingĠ
benĠ jieĠ
zongĠ mianĠjiĠ
huanĠ guanĠ
Ġbing ĠzhiĠ
U S
a ĠbuĠ
c ti
Ġ Be
Ġ zengĠjiaĠ
Ġ ruiĠdianĠ
suan ĠyanĠ
diĠ baĠ
juĠ zhenĠ
yingĠ biĠ
guiĠ geĠ
ĠshiĠjiĠ zhiĠ
ĠxiaĠ wuĠ
ĠbenĠ jieĠ
c uan
m er
Ġ Bi
ĠĠĠ 13
gu ĠyuĠ
lu ĠqiĠ
ba ĠbuĠ
nv ĠshiĠ
ĠyiĠ daoĠ
dongĠ haiĠ
gaiĠ shuĠ
boĠ genĠdiĠ
dengĠ daiĠ
puĠ laĠ
moĠ teĠerĠ
ĠdeĠshiĠ qiĠ
ceĠ huaĠ
ĠA n
col spanĠ
E S
u b
ĠĠĠ yingĠguoĠ
bing ĠrenĠ
zhou ĠzhongĠ
lan ĠdaĠ
que ĠliĠ
ciĠ xingĠ
yingĠ jieĠ
xiaĠ xunĠ
shuiĠ ku
tanĠ pan
ĠĠĠR i
cro sof
Ġ Ù
Ġ wuĠshiĠ
Ġ juanĠ
zai ĠshiĠjieĠ
yuan ĠyiĠyuanĠ
fang ĠzhongĠ
zu ĠliĠ
tu ĠheĠ
man ĠyuĠ
ĠshiĠ yingĠguoĠ
yuanĠ diĠ
jianĠ leĠ
ĠguoĠ daoĠ
wuĠ chuĠ
gaoĠ cengĠ
yangĠ zhouĠ
moĠ teĠ
eĠ tuĠ
ĠyiĠjiĠ yuĠ
ĠdeĠjiĠ zaiĠ
Ġzai ĠweiĠ
changĠweiĠ huiĠ
Ġ ti
hua ĠbuĠ
bo ĠfuĠ
ding ĠbuĠ
lv ĠdiĠ
guang ĠfuĠ
rou ĠshiĠxingĠ
43 ĠnianĠ
jieĠ fuĠ
faĠ shengĠyuĠ
shangĠ xiaoĠ
dongĠ luĠ
jingĠ nei
cheĠ shouĠ
caiĠ dingĠ
linĠ naĠ
ĠdeĠguoĠ chengĠzhongĠ
faĠlanĠxiĠ daĠquĠ
Ġ juan
Ġ 1995
ĠĠĠ 1949
bing ĠzhiĠ
she ĠheĠ
mu ĠqiĠ
ling ĠjiĠ
33 ĠnianĠ
Fa ceboo
ĠyiĠ nanĠ
weiĠ yuanĠhuiĠ
ĠliĠ xiangĠ
qiĠ xiangĠ
gongĠ siĠyuĠ
taĠ beiĠ
ĠsiĠ tanĠ
zhangĠ woĠ
shaoĠ liangĠ
gongĠzuoĠ zheĠ
nongĠ cunĠ
ĠweiĠfuĠ shuĠjiĠ
hangĠkongĠ muĠjianĠ
biaoĠzhun ĠdeĠ
Ġ Te
Ġ haiĠshiĠ
Ġ junĠzaiĠ
jing ĠrenĠ
bing ĠjiĠ
lie ĠdiĠ
qiao ĠchuĠ
44 ĠnianĠ
42 Ġ
xiaĠ xiaĠyiĠxiaĠdiĠquĠ
bianĠ ruĠ
ĠjinĠ riĠ
ĠnianĠ10ĠyueĠ 1ĠriĠ
ĠduoĠ mingĠ
shengĠhuo ĠzaiĠ
Ġ zui
ĠĠĠ 14
ĠĠĠ 2004
xian ĠshiĠdeĠ
lu ĠyouĠ
10 ĠgeĠ
dou ĠzhiĠ
âĢ ĭ
ĠdeĠ deĠ
ĠliĠ changĠ
xingĠ chengĠdeĠ
wuĠ suoĠ
chengĠ qiĠ
ziĠ meiĠ
ĠqiĠ zhongĠdeĠ
xueĠ yuan
jiangĠ huaĠ
ĠziĠ dongĠ
Ġ á
Ġ renĠzhiĠ
an ĠxiĠ
ta ĠbuĠ
she ĠxingĠ
tai ĠdiĠ
pao ĠbingĠ
jieĠ meiĠ
ĠqiĠ diĠ
junĠ fangĠ
biĠ huaĠ
puĠ leiĠ
chanĠ liangĠ
zhuanĠ boĠ
9 ĠgeĠ
E E
Ġ n
Ġ 1980ĠnianĠ
ĠĠĠ 2004ĠnianĠ
suo ĠfuĠ
tu ĠweiĠ
nv ĠgeĠshouĠ
ĠshiĠ yinĠduĠ
wanĠ yanĠ
sanĠ xiangĠ
guangĠ zhouĠshiĠ
gengĠ huanĠ
chuangĠ zuo
yiĠdeĠ daoĠ
Ġai ĠdeĠ
ĠbeiĠqiĠ shunĠshiĠzhenĠyuĠ
A G
Ġ 1989
Ġ XĠ
ĠĠĠ shuiĠ
dian ĠweiĠyuĠ
quan ĠshiĠjieĠ
duo ĠyiĠ
qiu ĠyuĠ
zhuang ĠyouĠ
12 ĠgeĠ
shuĠ fuĠ
tongĠ huaĠ
guanĠ yinĠ
xiaĠ weiĠyiĠ
ĠruĠ jinĠ
N C
U ni
Ġ cen
Ġ hunĠ
mu ĠyiĠ
jiu ĠjiĠ
ni ĠdaĠquĠ
gou ĠwuĠ
ĠguoĠ min
ĠguoĠ fangĠbuĠ
keĠ huanĠ
xiangĠ qianĠ
lunĠ shuĠ
pinĠ fanĠ
piĠ ping
xiĠbanĠ ya
Ġniu ĠyueĠshiĠ
5 ĠmingĠ
Ġ yongĠyiĠ
pai ĠjiĠ
can ĠjiĠrenĠ
zhao ĠdeĠ
ĠzhiĠ heĠ
youĠ taiĠrenĠ
jiangĠ xianĠ
duĠ chaĠ
haiĠ guanĠ
meiĠ shuĠguanĠ
tianĠ ranĠ
tianĠ jinĠshiĠ
fanĠ dui
xuanĠ piaoĠ
ĠhongĠ zha
chaoĠjiĠ lianĠsaiĠ
Ġ dongĠxiĠ
Ġ 22Ġ
ĠĠĠ 2003
ĠĠĠ Me
tong ĠrenĠ
bo ĠyuĠ
nuo ĠbeiĠerĠ
nai ĠerĠ
ĠshiĠ chuĠ
zhanĠ fuĠ
jiangĠ zhangĠ
yaĠ dianĠ
Ġta ĠzhiĠ
renĠweiĠ yuanĠ
ĠduoĠ geĠ
mingĠniĠ suĠdaĠ
li ĠyouĠ
qing ĠweiĠ
47 ĠnianĠ
yuanĠ shouĠ
gongĠ qingĠ
jianĠ xiaoĠ
wuĠ fuĠ
luoĠ menĠ
zuiĠ chuĠdeĠ
chuanĠ xianĠ
ĠgongĠ changĠ
guangĠ xuĠ
ĠzhuĠ saiĠ
ĠzuiĠzhongĠ zaiĠ
ĠtaĠcengĠ daiĠbiao
4 ĠhaoĠ
Ġ kui
wu ĠzhongĠxinĠ
jiang ĠweiĠwuĠerĠ
17 0
chun ĠjiĠ
66 ĠnianĠ
zhengĠ lunĠ
shangĠ faĠlanĠxiĠdaĠquĠ
baoĠ luĠ
fenĠ kaiĠ
biĠ ciĠ
ĠbingĠ huoĠdeĠ
ĠtianĠ wenĠ
ĠgaoĠ suĠ
K i
Ġ shuo
Ġ junĠweiĠ
hu ĠrenĠ
xu ĠjiaĠ
zhongĠ daĠ
ĠliĠ jiaĠ
ĠguoĠ anĠ
yingĠ shuĠ
guanĠ jieĠ
ĠdaĠ gongĠ
xinĠ xianĠ
jiaoĠ duoĠ
chongĠ fenĠ
canĠ yanĠ
ĠzhanĠ dou
Ġsui ĠyiĠ
ren ĠshiĠdeĠ
qu ĠdeĠyiĠ
mei ĠrenĠ
shui ĠxiĠ
hong ĠshiĠziĠ
gh tĠ
qiĠ yongĠ
shangĠ chuanĠ
yingĠ sheĠ
xinĠ huaĠ
jiaoĠ tong
junĠ zhangĠ
yaĠ chiĠ
tuĠ luĠ
tuiĠ chu
zhunĠ queĠ
Ġma ĠerĠ
faĠbiaoĠ leĠ
e a
Ġ chaoĠjiĠ
ai ĠziĠ
ĠĠĠ 188
bi ĠzhiĠ
yan ĠweiĠ
bao ĠzhongĠ
du ĠyouĠ
lai ĠjiĠ
ban ĠyouĠ
gao ĠweiĠ
15 00
sun ĠhaiĠ
chou ĠkeĠ
zhiĠ zuoĠ
beiĠ songĠ
ĠxiĠ lanĠ
zhanĠ duiĠ
zhanĠ qianĠ
taiĠ nanĠshiĠ
xiaĠ banĠ
nanĠ ceĠ
ĠzhiĠchiĠ zheĠ
Ġ m
ĠĠĠ ta
ĠĠĠ Pa
mei ĠyuĠ
xia ĠheĠ
gai ĠdeĠ
cai ĠfuĠ
huan ĠyouĠ
53 ĠnianĠ
ĠbuĠ xingĠ
wangĠ fanĠ
1Ġ mianĠ
xiaoĠshiĠ houĠ
ĠR i
guiĠdaoĠ jiaoĠtongĠ
xianĠdaiĠ huaĠ
dianĠqiĠ huaĠ
ĠĠĠ suĠ
fen ĠheĠ
mu ĠyouĠ
xu ĠzhiĠ
qiu ĠxingĠ
lan ĠqiĠ
ĠshiĠ miĠ
ĠdiĠ 2Ġ
taiĠ zhongĠshiĠ
wangĠ chaoĠdeĠ
luoĠ houĠ
neiĠ zhengĠbuĠ
3Ġ wanĠ
y ste
ĠĠĠ ma
dao ĠyiĠgeĠ
huo ĠzhiĠ
tai ĠzhiĠ
fuĠ mianĠ
ĠguoĠ jiaĠjiĠ
chuĠ kou
muĠ hanĠmoĠdeĠ
liangĠ haoĠdeĠ
bianĠ gengĠ
ĠzheĠ xiangĠ
ĠgaiĠ wuĠzhongĠdeĠ
peiĠ xun
zhengĠfu ĠheĠ
shengĠwuĠ xueĠ
sanĠjiaoĠ xingĠ
U C
Ġ jian
Ġ chuanĠtongĠ
ue Ġ
le ĠliĠ
dian ĠzaiĠ
gao ĠliĠ
ĠshiĠ miĠsiĠ
ĠyiĠ ziĠ
shouĠ yingĠ
shouĠ qiangĠ
fenĠ bianĠ
pingĠ xianĠ
danĠ maiĠ
ĠfuĠ muĠ
wanĠ shanĠ
hongĠ shuiĠ
wuĠliĠ xueĠjiaĠ
dongĠbuĠ daĠquĠ
aĠjiĠ tan
4 000
c al
t ra
Ġ 1985
Ġ fuĠzhiĠ
di o
hui ĠshiĠyongĠ
jiang ĠdaĠ
du ĠzhongĠ
lie ĠtaĠ
rui ĠkeĠ
42 ĠnianĠ
xingĠ shengĠ
jianĠ jiaoĠ
wuĠ yeĠ
yanĠ huĠ
ĠdaĠ zhengĠ
gaoĠ xiongĠ
lingĠ shouĠ
guĠ geĠ
ĠzhuĠ yanĠ
Ġtong ĠnianĠ10ĠyueĠ
ĠmaĠ dingĠ
niuĠyueĠ zhouĠ
faĠxianĠleĠ ciĠtianĠtiĠ
Ġ kuangĠ
qi ĠyiĠzhiĠ
liang ĠkeĠ
chen ĠshiĠ
bang ĠdanĠ
gh tĠĠĠ
buĠ luĠ
gongĠ buĠdeĠ
jieĠ mianĠ
chuĠ ruĠ
tongĠ chengĠ
zheĠ changĠ
taiĠ yinĠ
dianĠ luĠ
banĠ dianĠ
zongĠ tiĠ
chuanĠ jiaoĠshiĠ
qinĠ fanĠ
miaoĠ xieĠ
ĠzhenĠ duiĠ
ĠchaoĠ tingĠ
Ġ leiĠsiĠ
ĠĠĠ tong
you ĠĠĠ
hu ĠjiĠ
dao ĠzhongĠguoĠ
ru ĠzhiĠ
kai ĠxingĠ
heng ĠdeĠ
diĠ zhenĠ
huiĠ shouĠ
yeĠ tiĠ
guanĠ kan
junĠ dui
saiĠ tingĠ
2Ġ gongĠliĠ
tuoĠ leiĠ
ĠguangĠ zhouĠ
G B
Ġ tie
Ġ in
Ġ xiangĠshiĠ
ge Ġyue
shu ĠdeĠyiĠzhongĠ
dian ĠzhongĠ
liang ĠzaiĠ
lin ĠheĠ
lun ĠzhongĠ
daĠ xiĠ
xingĠ mingĠ
jianĠ jianĠ
wuĠ jiaĠ
xiangĠ cunĠ
houĠ zheĠ
dongĠ wuĠdeĠ
qianĠ fengĠ
taiĠ yang
zuĠ gouĠdeĠ
gaoĠ fengĠ
luoĠ niĠ
biaoĠ tiĠ
kaiĠ boĠ
ĠxiangĠ biĠ
zhuanĠ men
ĠzhanĠ zhengĠ
ĠbuĠguoĠ zaiĠ
ĠaĠerĠbeiĠ siĠ
B BC
Ġ louĠ
gai ĠjiĠ
zhen ĠzhongĠ
sai ĠyuĠ
niu ĠjinĠ
ĠshiĠ yinĠweiĠ
wenĠ daiĠ
qingĠ haiĠ
sheĠ zhiĠdeĠ
zhenĠ chaĠ
lingĠ duiĠ
zhaoĠ muĠ
shaoĠ huiĠ
ĠgongĠyuanĠ qianĠ
an ĠbuĠ
ĠĠĠ jiaoĠ
ĠĠĠ pingĠ
xing ĠdeĠshiĠ
yao ĠzhiĠ
ting ĠzaiĠ
guang ĠdaĠ
ĠyiĠ shouĠ
gongĠ shuĠ
ĠdiĠ chuĠ
zhanĠ siĠ
yingĠ jiuĠ
liangĠ tiaoĠ
shenĠ yuanĠ
xuĠ niĠ
caiĠ neng
Ġyou ĠweiĠ
Ġgai ĠjiĠ
pingĠlun ĠjiaĠ
Ġ houĠzaiĠ
nian ĠjianĠ
bo ĠliĠyaĠ
pian ĠshiĠ
ning ĠxianĠ
ĠzaiĠ geĠ
ĠbuĠ shouĠ
shuĠ niuĠ
zhengĠ jianĠ
yangĠ guangĠ
fanĠ dianĠ
niĠ guĠlaĠ
linĠ jinĠdeĠ
ĠgeĠ siĠ
jieĠshouĠ leĠ
Ġ000 ĠmingĠ
zhuĠshiĠ huiĠsheĠ
T A
Ġ zouĠ
Ġ ruiĠshiĠ
ĠĠĠ De
chang ĠzhongĠ
gai ĠdiĠquĠ
sai ĠshiĠzhongĠ
feng ĠxingĠ
mo ĠzhiĠ
pian ĠyiĠ
56 ĠnianĠ
ĠzaiĠ xianĠ
huiĠ quĠ
yaĠ suoĠ
bianĠ jiangĠ
fanĠ kangĠ
ĠyuanĠ yinĠ
xianĠdeĠ chengĠshiĠ
caoĠ anĠ
ĠyouĠxianĠ gongĠsi
ĠjinĠxingĠ leĠ
aiĠerĠ lan
ĠĠĠN o
Ġ zun
ĠĠĠ Y
ĠĠĠ biĠsaiĠ
zheng ĠzhongĠ
mi ĠrenĠ
gai ĠyiĠ
bang ĠjiaĠ
mou ĠgeĠ
ĠdeĠ erĠ
ĠweiĠ guoĠ
siĠ zhangĠ
wuĠ juĠ
zhuĠ ming
ĠqiĠ yuanĠ
shuĠ baiĠ
shouĠ piao
duĠ teĠ
ĠkeĠ yiĠshiĠ
zuĠ zhangĠ
fanĠ zui
baĠ mianĠ
chuanĠ shangĠ
chanĠ sheng
ĠqiĠzhongĠ baoĠkuo
jieĠyiĠ chanĠ
ĠĠĠ suoĠ
ĠĠĠ minĠguoĠ
38 Ġ
be ginĠ
jingĠ jieĠ
lianĠ shuĠ
anĠ dongĠniĠ
zuiĠ xinĠ
xuanĠ baĠ
ĠdanĠ yinĠweiĠ
ĠzhuĠ tiĠ
haĠ laĠ
ĠĠĠP ar
KB 48
a li
ĠĠĠ duoĠ
ĠĠĠ 2ĠyueĠ
ju ĠdiĠ
liu ĠheĠ
chuang ĠyiĠ
tuo ĠdeĠ
tun ĠmenĠ
yuanĠ chuangĠ
wuĠ mingĠ
yeĠ keĠ
meiĠ you
jueĠ saiĠdeĠ
linĠ xianĠ
1Ġ gongĠliĠ
ĠjingĠ waiĠshuĠruĠ
ĠĠĠshiĠ jianĠ
Ġzai ĠzhiĠ
Ġbei ĠweiĠ
ĠdeĠzhongĠ yaoĠ
zongĠyiĠ jieĠmuĠ
ĠSA OĠĠĠ
dianĠziĠyouĠ xiĠ
y leĠ
sh Ġ
dui ĠrenĠ
yong ĠweiĠ
kua ĠyueĠ
um Ġ
xingĠ haoĠ
fuĠ huoĠ
yingĠ bangĠ
ruĠ xuan
fanĠ xiangĠ
fanĠ sheĠ
Ġdang ĠnianĠ
kaoĠ ruĠ
leĠyiĠ zhongĠ
Ġjin ĠzhiĠ
ĠdeĠjiĠchuĠ shangĠ
Ġ f
Ġ 57
Ġ yuanĠweiĠ
ĠĠĠ 1ĠyueĠ
ti ĠzaiĠ
neng ĠliĠdeĠ
gei ĠshiĠzhongĠ
shuai ĠjunĠ
ĠyiĠ fangĠ
heĠ faĠ
ĠyouĠ huiĠ
daĠ baiĠ
wuĠ luĠ
beiĠ shaĠ
ĠqiĠ xiaĠdeĠ
luĠ xingĠmuĠ
xiaoĠ haoĠ
lieĠ ru
touĠ mingĠ
saĠ moĠ
Ġba ĠxiĠ
liaoĠning ĠshengĠ
p ro
Ġ ne
Ġ geĠliĠ
bian ĠbuĠ
sai ĠsiĠ
cun ĠheĠ
beiĠ geĠ
jiaoĠ xiangĠ
xiaoĠ chuĠ
daiĠ xieĠ
bianĠ lunĠ
guĠ yongĠ
2Ġ mianĠ
ĠshangĠ hai
7Ġ gongĠliĠ
wuĠxianĠ dianĠ
zuiĠhouĠyiĠ ciĠ
Ġtian ĠqiĠ
ĠsectionĠĠĠ beginĠ
touĠru ĠshiĠyongĠ
Ġ zhiĠdeĠ
ai ĠliĠsiĠ
ĠĠĠ zheĠxieĠ
ĠĠĠ aĠĠĠ
ke ĠbuĠ
le sĠ
xiao ĠshiĠdeĠ
yong ĠliĠ
lei ĠxiĠ
lei ĠkeĠ
cao ĠyuanĠ
xiĠ huanĠ
erĠ yuanĠ
shangĠ huiĠ
jingĠ chengĠ
junĠ wangĠ
ĠjinĠ tianĠ
ĠjianĠ zaoĠ
zeĠ renĠweiĠ
ĠchengĠ duĠ
aiĠ shaĠ
ĠyiĠzhiĠ weiĠ
ĠzaiĠci ĠqiĠjianĠ
5 ĠĠĠ
U R
Ġ chou
bei ĠyouĠ
nan ĠweiĠ
suo ĠheĠ
gui ĠyuĠ
jinĠ shenĠ
quĠ chuĠ
ĠdaĠ tongĠ
daiĠ zheĠ
nanĠ xiaĠ
teĠ gongĠ
bianĠ liangĠ
feiĠ zhou
meiĠguoĠ guoĠjiaĠ
ĠchengĠ xianĠ
panĠ duanĠ
tuiĠ ceĠ
Ġjiu ĠyueĠ
ĠdaiĠmaĠweiĠ 0
Ġ 98
st o
ĠyiĠ langĠ
yuanĠ yuanĠ
zhuĠ duoĠ
haiĠ junĠdeĠ
muĠ biao
zuĠ ziĠzhiĠquĠ
guĠ xiangĠ
fengĠ suĠ
ĠshouĠ luĠ
ĠwanĠ quanĠ
yinĠyueĠ huiĠ
baĠshiĠ luĠxianĠ
guangĠboĠ dianĠtaiĠ
round Ġ
bing ĠzhongĠ
huo ĠrenĠ
bian ĠliĠ
jue ĠqiĠ
pei ĠyueĠ
hong ĠqiĠ
on e
cao ĠdiĠ
ga Ġ
jiĠ shuĠ
buĠ xiangĠ
daĠ lianĠmengĠ
siĠ jiaĠ
riĠ houĠ
nanĠ yanĠyuanĠ
fengĠ mianĠ
ĠshiĠweiĠ yuanĠhuiĠ
diĠshiĠ erĠ
Ġjin ĠjiĠ
reĠdai ĠdiĠqiĠyaĠ
paiĠhangĠ bangĠ
Ġ 1980
Ġ 1946
ying ĠyouĠ
dai ĠjiaĠ
yang ĠrenĠ
huiĠ mianĠ
chuĠ laiĠdeĠ
xueĠ guanĠ
suoĠ xuĠdeĠ
Ġ daĠliĠ
fei ĠsiĠ
shan ĠsiĠ
tu ĠzaiĠ
na ĠxiĠ
ĠliĠ mianĠ
jiaĠ shuĠ
keĠ laĠ
beiĠ pingĠ
ĠdaĠ siĠ
fenĠ juĠ
guangĠ dianĠ
yueĠ qiuĠ
ĠwangĠ luoĠ
ĠranĠ houĠzaiĠ
Ġsi ĠyueĠ
ĠjinĠshiĠ chuĠshenĠ
jiu ĠyuĠ
ling ĠheĠ
su ĠheĠ
lin ĠzhiĠ
cha ĠzhiĠ
pin ĠweiĠ
to Ġ
renĠ kou
ĠbuĠ langĠ
jieĠ quĠ
keĠ xiĠ
beiĠ faĠxianĠ
ĠdaĠ shaĠ
banĠ shangĠ
laiĠ meiĠ
teĠ youĠzhiĠwuĠ
haoĠ wuĠ
ĠjianĠ chaĠ
juanĠ zengĠ
zuiĠgaoĠ faĠyuanĠ
jiaĠliĠfuĠ niĠyaĠ
s ĠdeĠ
Ġ neiĠbuĠ
yi ĠshiĠshiĠ
ĠĠĠ ha
bu ĠdeĠyiĠ
ke ĠshiĠyongĠ
dai ĠzhongĠ
shan ĠxingĠ
lei ĠliĠ
feng ĠqiĠ
na ĠzaiĠ
po ĠshiĠ
youĠ juĠyuĠ
ĠguoĠ zhongĠ
beiĠ haiĠ
duoĠ yangĠ
xunĠ yanĠ
Ġãĥ ³
Ġ chong
sh uan
tui ĠdaoĠ
jiaoĠ geiĠ
wangĠ luo
nanĠ luĠ
nanĠ nvĠ
yangĠ benĠ
huĠ tongĠ
ĠĠĠW e
dai ĠheĠ
xu ĠweiĠ
yao ĠxingĠ
ĠshiĠ pinĠ
siĠ mingĠ
huiĠ xingĠ
jinĠ saiĠ
tiĠ qinĠ
chuanĠ zhuĠ
jueĠ zhuĠ
zhaoĠ huiĠ
Ġri ĠheĠ
moĠshiĠ chan
ĠsectionĠĠĠ endĠ
shouĠhuanĠ yingĠdeĠ
p sĠ
Ġ g
Ġ kongĠzhiĠ
Ġ heĠyiĠ
Ġ 1947ĠnianĠ
xi ĠyueĠ
ĠĠĠ taĠzaiĠ
kai ĠshiĠdeĠ
zuan ĠshiĠ
qiĠ xiaĠ
jianĠ zhu
chengĠ qiangĠ
juĠ huiĠ
ĠjiaĠ qiangĠ
biĠ luĠ
boĠ yingĠ
fengĠ jingĠ
ĠgaiĠ gongĠsiĠ
miĠniĠ zhuanĠjiĠ
B L
Ġ za
Ġ buĠliĠ
da ĠliĠdeĠ
dang ĠzhiĠ
ĠyiĠ jieĠ
ĠzaiĠ guoĠ
ziĠ danĠ
ĠxiĠ quĠ
zuoĠ paiĠ
xinĠ wen
jiaoĠ xiaoĠdeĠ
ĠgongĠ zuo
tieĠluĠ juĠ
B DĠ
Ġ yu
Ġ shengĠrenĠ
zi ĠbuĠ
mei ĠheĠ
huo ĠweiĠ
kong ĠjuĠ
the r
90 ĠnianĠdaiĠ
36 Ġ
youĠ renĠ
huiĠ jiangĠ
zuĠ zongĠ
ĠgaiĠ geĠ
kongĠ guĠ
ĠĠĠzhuĠ zuoĠ
saĠerĠ waĠ
kaoĠlv ĠdaoĠ
yi ĠshiĠjiĠ
ĠĠĠ Ne
ĠĠĠ wuĠkeĠlanĠ
bo ĠheĠ
feng ĠjiĠ
tiao ĠshiĠ
geng ĠyouĠ
bie ĠshuĠ
pang ĠqiuĠ
57 ĠnianĠ
jiĠ chuĠ
jianĠ ce
chengĠ faĠ
tongĠ changĠshiĠ
qingĠ daiĠ
muĠ houĠ
luoĠ yangĠ
ĠzhuĠ mingĠ
douĠ yuĠshiĠ
woĠ menĠdeĠ
Ġai ĠliĠ
ĠN i
jiaoĠhuiĠ chuĠ
jiangĠyuĠ liangĠ
ĠjieĠweiĠ luĠdiĠ
Ġ 1988
ĠĠĠ he
hui ĠliĠ
san ĠheĠ
ku ĠsiĠ
chan ĠshiĠ
meng ĠyouĠ
37 Ġ
49 ĠnianĠ
youĠ xiaoĠ
qiĠ zaiĠ
ĠyouĠ taiĠrenĠ
ĠzhongĠ duoĠ
daĠ liangĠdeĠ
gongĠ tingĠ
jianĠ shuĠ
jinĠ kouĠ
huaĠ tiĠ
jiangĠ jieĠ
laiĠ leĠ
ĠfuĠ za
wanĠ chengĠdeĠ
miĠ xieĠ
anĠ zhao
suoĠ muĠ
zuiĠ mingĠ
liuĠ xingĠdeĠ
Ġgai ĠnianĠ
G oog
Ġ gen
ĠĠĠ zhanĠhouĠ
yin ĠyueĠdeĠ
xue ĠshiĠweiĠ
jun ĠdaĠ
che ĠzaiĠ
han ĠrenĠ
zao ĠchuĠ
guang ĠdaoĠ
gou ĠxiangĠ
cao ĠdeĠ
41 ĠnianĠ
ĠqiĠ tuĠ
dongĠ hua
boĠ leiĠ
dengĠ xiaoĠ
cengĠ danĠrenĠ
ĠhouĠ beiĠ
ĠciĠ wai
ĠxuĠ duo
D o
I F
j a
Ġ geiĠ
na ĠweiĠ
song ĠshiĠ
48 Ġ
ĠzhongĠ wuĠ
zhanĠ lieĠ
fenĠ dianĠ
wangĠ minĠ
zuiĠ juĠ
fanĠ paiĠ
ĠgongĠ nengĠ
Ġbing ĠshiĠ
canĠ mouĠ
ĠdeĠzhiĠ zuoĠ
yanĠjiu ĠzhongĠ
ĠK Ġ
ĠyueĠzhongĠ xunĠ
C R
ĠĠĠ huĠ
ĠĠĠ 2003ĠnianĠ
you ĠshiĠyiĠ
jian ĠyueĠ
zhou ĠguoĠ
zhou ĠsiĠ
rang ĠrenĠ
34 Ġ
daĠ dongĠbuĠdaĠquĠ
jianĠ zaoĠdeĠ
shuĠ mingĠ
zuĠ qun
jiuĠ ciĠ
teĠ luoĠ
shanĠ luĠ
ĠĠĠliĠshiĠ yanĠgeĠ
ĠĠĠ tuĠ
gu ĠdiĠ
min ĠheĠ
hao ĠzhiĠ
chuan ĠdaĠ
daĠ erĠ
xiĠ yinĠ
beiĠ mianĠ
ziĠ jiĠshiĠ
huiĠ xianĠ
juĠ ziĠ
tiĠ neiĠ
junĠ fuĠ
haiĠ wanĠ
baĠ saiĠerĠ
diĠyiĠ mingĠ
ĠhouĠ yinĠ
ĠciĠ juĠ
Ġtong ĠyueĠ
ĠluoĠ boĠ
r on
Ġ zhanĠshiĠ
ĠĠĠ sheĠ
zheng ĠrenĠ
lv ĠbuĠ
huan ĠshiĠ
nuo ĠkeĠ
ĠrenĠ shouĠshangĠ
ĠheĠ luĠ
jiaĠ zhuangĠ
keĠ qianĠwangĠ
mingĠ dan
ciĠ ziĠ
jiaoĠ wangĠ
xiaĠ shuiĠ
dengĠ baoĠ
baĠ leiĠ
ĠjinĠ gongĠ
guangĠ xianĠ
nongĠ duĠ
muĠsiĠ teĠ
ĠĠĠCo m
siĠlingĠ yuanĠ
lli am
B M
Ġ 88
Ġ 1983
zhan ĠshiĠqiĠ
11 ĠshiĠ
kan ĠwuĠ
lao ĠhuiĠ
OS Ġ
yuanĠ chengĠ
quĠ xianĠ
houĠ saiĠ
bingĠ chuanĠ
keĠyiĠ yongĠ
Ġzhe ĠliĠ
laoĠ banĠ
ĠyaĠ meiĠ
huĠbeiĠ shengĠ
gaoĠxiong ĠshiĠ
shouĠhaiĠ zheĠ
3 ĠliĠ
D R
Ġ qiĠzhiĠ
ĠĠĠ duĠ
chang ĠrenĠ
min ĠzaiĠ
pi ĠerĠ
che ĠheĠ
52 ĠnianĠ
heĠ chengĠ
beiĠ anĠ
zuoĠ biaoĠ
qianĠ longĠ
muĠ luĠ
ĠxingĠ bie
fanĠ chuanĠ
ĠgaiĠ dangĠ
2Ġ biĠ
ĠmeiĠ zhouĠ
ĠdeĠdaoĠ luĠ
chengĠduĠ shangĠ
changĠpian ĠgongĠsiĠ
2 ĠjiaĠ
3 ĠĠĠ
Ġ shang
Ġ tuĠerĠqiĠ
er sĠ
jiao ĠxiĠ
bo ĠqiĠ
mao ĠkeĠ
58 ĠnianĠ
1900 ĠnianĠ
shengĠ xingĠ
xiangĠ fuĠ
beiĠ shouĠ
ĠdaĠ ziĠ
yinĠ duĠdeĠ
ĠjiaĠ la
maĠ luĠ
ĠjianĠ duĠ
ĠshiĠyiĠkeĠ hengĠxingĠ
Ġ 1948ĠnianĠ
ĠĠĠ Z
jie ĠyueĠ
ye ĠliĠ
fan ĠyuĠ
na ĠyiĠ
neng ĠyuĠ
zhongĠ zuĠ
ĠheĠ fuĠ
fenĠ huaĠ
xiaoĠ fuĠ
qingĠ fuĠ
shenĠ chuĠ
shenĠ xueĠ
qiuĠ dui
liuĠ mingĠ
ĠgeĠ guoĠ
ĠhuaĠ xueĠ
ĠzongĠ jiaoĠ
8Ġ gongĠliĠ
ĠaoĠ diĠliĠ
Ġzheng ĠyueĠ
Ġ faĠbuĠ
Ġ fuĠliĠ
Ġ zhunĠbeiĠ
Ġ 1946ĠnianĠ
an ĠdiĠ
ĠĠĠ genĠju
yin ĠrenĠ
lai ĠweiĠ
nei ĠshiĠ
song ĠzhiĠ
II IĠ
ĠjiĠ xianĠ
keĠ keĠ
jinĠ zhuĠ
zhengĠ jiuĠ
changĠ shuĠ
banĠ zhangĠ
aĠ saiĠbaiĠ
qunĠ daoĠdeĠ
Ġbei ĠzhiĠ
p ha
Ġ Po
Ġ zaoĠqiĠ
Ġ 1956ĠnianĠ
xin ĠdiĠ
ĠzaiĠ neiĠ
jieĠ jingĠ
quĠ zhuĠjianĠ
jiaoĠ gaoĠdeĠ
haiĠ yang
guangĠ xueĠ
ĠjieĠ tiĠ
nianĠ duĠ
tongĠguoĠ leĠ
faĠxingĠ leĠ
ĠguiĠ dingĠ
zongĠjiaoĠ quĠ
Ġming ĠshiĠ
ĠpuĠtaoĠ yaĠyuĠ
r ai
Ġ xue
Ġ Bo
quan ĠzhongĠ
bang ĠshangĠ
ro i
daĠ jiaĠ
yuanĠ laiĠdeĠ
yanĠ bianĠ
duiĠ gaiĠ
dengĠ zhanĠ
fanĠ xinĠ
tieĠluĠ gongĠsiĠ
ĠfeiĠ changĠ
zuiĠhou ĠyiĠgeĠ
huanĠxingĠ shanĠ
Ġ zuoĠyouĠ
ĠĠĠ Le
ĠĠĠ ruĠguoĠ
mei ĠkeĠ
ba ĠqiĠ
sai ĠshiĠdeĠ
su ĠyuĠ
Ġyue ĠjiĠ
xiĠ quĠ
gongĠ lu
wuĠ xuĠ
ĠbuĠ shuĠ
ciĠ leiĠ
muĠ diĠshiĠ
liuĠ jingĠ
ĠshengĠ wuĠ
zhengĠshiĠ chengĠliĠ
Ġ 1979ĠnianĠ
li ĠsiĠ
fan ĠrenĠ
zao ĠshiĠ
cha ĠsiĠ
shao ĠyuĠ
gei ĠchuĠ
zhai ĠdeĠ
63 ĠnianĠ
jieĠ beiĠ
leĠ jinĠ
yanĠ se
huaĠ wenĠ
ĠriĠ benĠdeĠ
duiĠ yingĠdeĠ
ĠjiaĠ mengĠ
meiĠ laĠ
lianĠ xianĠ
dingĠ lvĠ
ĠdanĠ taĠmenĠ
weiĠyiĠ zhongĠ
ĠjiaoĠ shouĠ
ĠbianĠ haoĠ
xinĠliĠ xueĠ
1 ĠzhiĠ
3 ĠshiĠ
a g
Ġ daiĠbiao
li gnĠ
hui ĠrenĠ
dong ĠzhongĠ
qiu ĠdaĠ
liu ĠqiĠ
pai ĠshiĠ
guang ĠweiĠ
tang ĠshiĠ
ĠzaiĠ shangĠ
xiangĠ jiangĠ
jiaoĠ yuanĠ
jiaoĠ yuĠdeĠ
xiaoĠ zhenĠ
danĠ shuiĠyuĠ
shenĠ shouĠ
ĠfuĠ haoĠ
ĠtaĠ yeĠshiĠ
guĠ baĠ
haoĠ chengĠshiĠ
ĠgaiĠ chengĠ
ĠciĠ qianĠ
guoĠdeĠ teĠyouĠzhiĠwuĠ
ĠhuiĠ daoĠ
ĠanĠ zhaoĠ
ĠlianĠ xuĠ
ĠdeĠyiĠge ĠzhongĠ
fuĠshiĠ zhangĠ
dianĠying ĠzhongĠ
ĠgaiĠshengĠfenĠweiĠfaĠguoĠ beiĠbuĠ
zhanĠdou ĠzhongĠ
ĠwanĠmeiĠ yuanĠdeĠ
wan ĠshiĠ
deng ĠyiĠ
han ĠsiĠ
bai ĠjinĠ
zou ĠdeĠ
55 ĠnianĠ
Ġnian ĠzhiĠhouĠ
ĠyouĠ zheĠ
ĠyueĠ duĠ
wuĠ jieĠ
shengĠ fuĠzeĠguanĠxiaĠ
ĠerĠ jiaĠ
tongĠ xun
tiĠ chu
zuĠ lianĠ
saiĠ juĠ
Ġgai ĠdiĠ
1ĠriĠ pingĠjunĠ
keĠjiĠ daĠxueĠ
Ġliang ĠguoĠ
ĠerĠsiĠ keĠ
kongĠzhongĠ faĠxianĠ
Ġ23 Ġ
minĠjinĠ dangĠ
Ġ quanĠbuĠ
qi ĠshiĠdeĠ
xiao ĠdiĠ
chao ĠxiĠ
tuo ĠyuanĠxingĠ
ha m
ĠdeĠ laĠ
ĠzaiĠ fuĠ
jianĠ yanĠ
minĠ yongĠ
dingĠ muĠ
liuĠ fangĠ
fengĠ biĠ
paiĠ duiĠ
huoĠdeĠ diĠ
ĠliangĠ zheĠ
ĠĠĠT i
1 12
Ġ b
Ġ zhuiĠ
ta ĠjiĠ
xu ĠheĠ
lei ĠzaiĠ
gui ĠjiĠ
bang ĠdaĠ
me sĠĠĠ
beiĠ diĠ
zhanĠ biĠ
zuoĠ chuĠleĠ
tiĠ caoĠ
jiangĠ gaiĠ
wangĠ guoĠdeĠ
hanĠ baoĠ
ĠyeĠ keĠ
yuĠyiĠ daĠliĠ
ĠbenĠ mingĠ
ĠÐ ½
Ġsi ĠliĠ
ĠweiĠzhongĠ xinĠ
ĠshiĠshiĠjieĠ shangĠ
T T
Ġ 1982
ai ĠdiĠ
ĠĠĠ houĠlaiĠ
da ĠyouĠ
ming ĠliĠ
ru ĠdiĠ
xu ĠliĠ
hao ĠzhongĠziĠ
tie ĠdeĠ
pei ĠsiĠ
ĠyiĠ guoĠ
keĠ taĠ
jinĠ jinĠ
yeĠ chengĠ
ĠdaĠ lou
dangĠ paiĠ
ĠjianĠ shaoĠ
ĠtongĠ chang
ĠtuĠ jingĠ
kaĠluoĠlaiĠnaĠ zhouĠ
Ġ ban
Ġ 1981ĠnianĠ
ĠĠĠ canĠkaoĠ
59 ĠnianĠ
Ġli ĠweiĠzhiĠ
ĠrenĠ neiĠ
jianĠ dingĠ
jieĠ zhuĠ
shouĠ piĠ
dianĠ ciĠ
lianĠ siĠjiĠ
zhengĠzhiĠ xieĠshangĠ
ĠyanĠ yuanĠ
ĠlianĠ bangĠ
ĠĠĠA n
ĠO Ġ
ĠheĠbeiĠ shengĠ
ĠqiĠxiĠ shenĠduĠ
Ġ St
Ġ zhongĠyiĠ
fa ĠyouĠ
zhan ĠguoĠ
wang ĠdaĠ
202 6ĠnianĠ
51 ĠnianĠ
zhanĠ lieĠjianĠ
huaĠ dongĠ
wanĠ jieĠ
fanĠ yingĠdeĠ
ĠxiangĠ dangĠ
ĠshiĠweiĠ shuĠjiĠ
Ġtong ĠnianĠ11ĠyueĠ
Ġjin ĠyiĠbuĠ
xunĠhuiĠ yanĠchangĠhuiĠ
saĠkeĠ senĠ
moĠshiĠchan ĠdiĠzaiĠ
A D
ĠĠĠ wenĠ
ĠĠĠ niĠ
er ĠshiĠshiĠjiĠ
chun ĠjieĠ
et Ġ
ĠyuĠ zhouĠ
jieĠ shangĠ
ĠdiĠ keĠ
jingĠ xianĠ
yinĠ yuanĠ
sheĠ xiangĠ
ĠtaĠ biaoĠshiĠ
ĠjinĠ guan
meiĠguoĠ haiĠjunĠ
2010ĠnianĠ meiĠguoĠrenĠkouĠpuĠchaĠ
shuaiĠling ĠdeĠ
Ġmin ĠjiĠ
E M
Ġ du
Ġ 1986
Ġ fangĠzhiĠ
ying ĠweiĠ
ver Ġ
zhenĠ dongĠ
huĠ zhaoĠ
zhuĠyiĠ daoĠ
ziĠgeĠ saiĠ
6 ĠmingĠ
t ro
Ġ henĠduoĠ
ng Ġ
ji ĠyiĠjiĠ
dai ĠzaiĠ
kang ĠdeĠ
BS Ġ
ĠyiĠ zhangĠ
renĠ menĠ
ĠyouĠ xi
ĠbeiĠ jingĠshiĠ
huanĠ rao
ĠdeĠzhiĠ huiĠ
ĠyiĠweiĠ zhuĠ
daoĠzhiĠ leĠ
ĠzuoĠ pinĠ
ĠmianĠ dianĠ
huaĠshengĠ dun
ĠjuĠqingĠ xiaĠ
1 200
S O
p ouĠ
u per
Ġ w
ĠĠĠ faĠxingĠ
hua ĠliĠ
jiang ĠrenĠ
dai ĠjiĠ
nan ĠdaĠ
gao ĠxingĠ
tian ĠyiĠ
chi ĠyuĠ
chai ĠyouĠ
ĠyiĠ wenĠ
beiĠ keĠ
yingĠ huaĠ
duiĠ chenĠ
ĠfuĠ luoĠ
teĠ shengĠ
ĠchuĠ daoĠ
ĠwuĠ diĠ
zhuanĠ anĠ
huangĠ puĠ
ouĠ zhouĠdeĠ
4Ġ gongĠliĠ
ĠneiĠ rongĠ
Ġ miao
Ġ zhuĠliĠ
ĠĠĠ w
ĠĠĠ Te
nian ĠbeiĠ
sheng ĠyueĠ
hao ĠyueĠtaiĠ
wuĠ changĠ
xiangĠ xiangĠ
jingĠ bao
xinĠ yang
ĠsiĠ tan
ĠjiaĠ sheĠ
ruĠ zhuĠ
teĠ se
zuiĠ jinĠ
ĠyinĠ hangĠ
tanĠ huaĠ
ĠdengĠ dengĠ
naĠcui ĠdeĠguoĠ
Ġ 68
ĠĠĠ Vi
ĠĠĠ caiĠ
sheng ĠdeĠyiĠgeĠ
ri ĠzaiĠ
suo ĠyuĠ
tang ĠjiĠ
diao ĠrenĠ
chun ĠdeĠ
1950 ĠnianĠdaiĠ
SA Ġ
weiĠ xieĠ
xiĠ tong
faĠ guoĠdeĠ
ĠxiĠ zang
yeĠ shouĠ
wanĠ huiĠ
ĠdanĠ houĠlaiĠ
ĠzheĠ yeĠ
Ġtong ĠnianĠ9ĠyueĠ
ĠãĤ ĵ
zhuiĠ suĠzhiĠ
maiĠkeĠ erĠ
gaoĠdengĠ xueĠxiaoĠ
fuĠqin ĠdeĠ
ĠbiĠyeĠ houĠ
Ġ 99
Ġ 1955ĠnianĠ
ĠĠĠ dianĠyingĠ
ĠĠĠ 2002ĠnianĠ
ti ĠyouĠ
shui ĠzhiĠ
piao ĠdeĠ
ĠyiĠ siĠshiĠ
jiaĠ juĠ
jieĠ juĠ
xianĠ qiĠ
ĠxingĠ xiangĠ
minĠ zhengĠ
jiuĠ keĠyiĠ
baĠ naĠ
zhongĠshiĠ yanĠ
manĠhuaĠ jiaĠ
langĠdeĠ shengĠ
ĠzhongĠshiĠ yanĠ
ĠkeĠxiĠ taĠ
Ġ hun
Ġ jiaĠliĠ
Ġ nuoĠweiĠ
ĠĠĠ 2002
ĠĠĠ 2024ĠnianĠ
rong ĠqiĠ
mai ĠxiaĠ
pang ĠdeĠ
taĠ duiĠ
bingĠ faĠ
laiĠ teĠ
zuĠ chengĠyuanĠ
ĠfuĠ siĠ
fanĠ xueĠxiaoĠ
ĠzheĠ liangĠ
ĠxianĠ faĠ
ĠjieĠ chuĠ
nianĠ qingĠ
ĠnanĠ ziĠ
ĠbuĠjiuĠ houĠ
l en
ĠĠĠ renĠwuĠ
xu ĠyouĠ
zui ĠxiĠ
sai ĠzhiĠ
fei ĠyuĠ
lou ĠtiĠ
ĠyuĠ jingĠ
chengĠ duĠdeĠ
ĠxiĠ la
leĠ zheĠyiĠ
jiaoĠ chuĠ
qianĠ wanĠ
ĠxingĠ bieĠ
suoĠ xuĠ
Ġjiang ĠyuĠ
x tĠ
Ġ on
ĠĠĠ for
ĠĠĠ xueĠ
ĠĠĠ 20ĠshiĠjiĠ
he ĠshiĠdeĠ
hu ĠyiĠ
wu ĠguoĠ
zhang ĠshiĠjianĠ
guang ĠshiĠ
xiu ĠzhuĠ
ĠshiĠ duanĠ
ĠzaiĠ jianĠ
ĠyueĠ qiuĠ
xianĠ beiĠ
xianĠ fengĠ
jiangĠ daoĠ
bingĠ qiuĠ
dianĠ yaĠ
teĠ lanĠ
quanĠ zhouĠ
maĠ enĠshengĠ
ĠshengĠ chanĠ
Ġzhe ĠshiĠyiĠ
ĠbenĠ zhanĠ
Ġtian ĠfuĠ
Ġ 1952ĠnianĠ
ĠĠĠ La
ĠĠĠ yangĠ
te ĠyiĠ
ben ĠdiĠquĠ
liu ĠweiĠ
gang ĠguoĠ
75 Ġ
54 ĠnianĠ
ĠzaiĠ taiĠwanĠ
gongĠ fengĠ
geĠ lanĠdeĠ
beiĠ panĠ
ziĠ youĠshiĠ
faĠ xianĠyuĠ
pingĠ xingĠ
suoĠ shu
sanĠ jianĠ
naĠ poĠlunĠ
eĠ waiĠdeĠ
canĠsaiĠ zheĠ
ĠĠĠof ĠĠĠtheĠĠĠ
6 ĠhaoĠ
Ġ chu
li ĠnianĠ
ĠĠĠ f
bian ĠzhongĠ
men ĠdaĠ
wai ĠyuĠ
xiaĠ shuĠ
qingĠ xieĠ
boĠ luoĠdiĠ
saiĠ maĠ
neiĠ waiĠ
eĠ junĠ
touĠ yingĠ
kaiĠshiĠ leĠ
minĠzhuĠ zhuĠyiĠ
Ġye ĠbuĠ
clu deĠ
ĠgaiĠwuĠzhongĠdeĠ moĠshiĠchanĠdiĠzaiĠ
I A
T i
e ar
e ĠjiĠ
e dĠĠĠ
ĠĠĠ aoĠ
shou ĠguoĠ
re ĠdeĠ
xiong ĠzhangĠ
ĠzhiĠ xiangĠ
ĠzhiĠ minĠ
guoĠ duĠ
shengĠ qianĠ
faĠ yinĠ
quĠ jueĠyuĠ
houĠ huiĠ
changĠ shaĠ
luĠ jun
ĠyinĠ niĠ
aĠ erĠjiĠ
manĠ guanĠ
Ġjie ĠheĠ
teĠbie ĠxingĠzhengĠquĠ
muĠniĠ hei
eĠhaiĠeĠ zhouĠ
ĠĠĠ Se
qu ĠliĠ
meng ĠjiaĠlaĠ
man ĠweiĠ
ĠyuĠ jiaĠ
ĠyouĠ fuĠ
daĠ tongĠ
ĠbuĠ leiĠ
beiĠ hanĠ
dongĠ fengĠ
guanĠ junĠdeĠ
xinĠ jiaoĠ
ĠxingĠ chaiĠyouĠjiĠ
xuanĠ xiuĠ
ĠshiĠyiĠ jingĠ
shaoĠ nv
waĠ laĠ
ĠĠĠyiĠ xieĠ
ĠP i
qingĠhuaĠ daĠxueĠ
Ġ leng
Ġ 1948
Ġ 1937ĠnianĠ
ĠĠĠ miaoĠshuĠ
da ĠliĠshiĠ
xiang ĠrenĠ
zuo ĠbuĠ
yong ĠrenĠ
wai ĠkeĠ
jieĠ duĠ
shengĠ yuanĠ
ĠqiĠ chengĠ
daiĠ huiĠ
ĠfuĠ lanĠkeĠ
wanĠ daoĠ
ĠchengĠ keĠ
ĠÐ ¸
ĠganĠ suĠ
ĠshiĠwuĠkeĠ lanĠdeĠ
7 ĠhaoĠ
d sĠ
Ġ 1970
Ġ jianĠzhiĠ
ĠĠĠ xiangĠguanĠ
jiu ĠyiĠjingĠ
gao ĠerĠfuĠ
que ĠxianĠ
ĠshiĠ gaiĠ
ĠheĠ youĠ
yingĠ fuĠ
qianĠ liangĠ
taiĠ shanĠ
cheĠ huiĠ
saiĠ puĠ
huanĠ manĠ
ĠĠĠU ni
lian ĠjiĠ
yang ĠyiĠ
shan ĠyiĠ
neng ĠshiĠ
lin ĠzaiĠ
bang ĠshouĠ
diao ĠdeĠ
47 Ġ
ĠyouĠ ziĠ
ĠzaiĠ jingĠ
daĠ siĠ
xingĠ fuĠ
chuĠ bingĠ
shangĠ ye
huaĠ feiĠ
guanĠ muĠ
gaiĠ zhuangĠ
zongĠ zhangĠ
ĠxianĠ zaiĠdeĠ
1Ġ biĠ
zhengĠzhiĠ juĠ
ĠÐ µ
Ġ mou
tong ĠyiĠgeĠ
han ĠweiĠ
pao ĠtaĠ
der Ġ
shiĠ yiĠ
ĠzhiĠ zuoĠdeĠ
xiĠ guanĠ
fuĠ luoĠ
jieĠ touĠ
zhengĠ queĠ
xinĠ zeng
taiĠ langĠ
liangĠ cengĠ
zuiĠ zhuĠmingĠdeĠ
zongĠ zuoĠ
saiĠ eĠ
ĠdeĠyiĠ changĠ
ĠbingĠ duiĠ
neiĠ sheĠyouĠ
ĠgaiĠ zuĠzhiĠ
huanĠ yuanĠ
panĠ luan
ĠshuĠ rouĠshiĠxingĠ
zengĠ qiang
Ġgu ĠjiĠ
ĠĠĠD o
yunĠshiĠ kengĠ
I M
Ġ lan
Ġ ouĠzhou
xian ĠyueĠ
su ĠjiĠ
zhongĠ xingĠ
shengĠ ziĠ
xianĠ jingĠ
yinĠ qiĠdeĠ
luĠ xiangĠ
tiĠ shangĠ
fenĠ sanĠ
lingĠ muĠ
ĠdeĠyiĠ buĠ
ĠgongĠ si
ĠyiĠzhiĠ youĠ
6Ġ gongĠliĠ
zongĠtongĠ fuĠ
Ġ Fa
Ġ binĠ
Ġ 1938ĠnianĠ
an ĠweiĠ
kai ĠzhiĠ
xiu ĠliĠ
pei ĠyuĠ
zun ĠshouĠ
jieĠ hun
zhuĠ yanĠdeĠ
shengĠ zhengĠfuĠ
faĠ guiĠ
biĠ huĠ
qiuĠ fanĠ
kaiĠ fang
tingĠ huoĠ
nvĠ xingĠdeĠ
ĠxiaĠ xiaĠ
ĠjiaoĠ tongĠ
ĠhuaĠ xueĠshiĠweiĠ
kenĠ seĠ
8 ĠhaoĠ
9 00
C P
p re
ĠĠĠ Be
yin ĠbuĠ
sa ĠzhuĠsaiĠ
sang ĠnaĠ
ĠshiĠ congĠ
ĠzhiĠ liangĠ
fuĠ daoĠ
juĠ mianĠ
wangĠ fuĠ
luoĠ shanĠ
yangĠ junĠ
zuiĠ changĠ
fengĠ mingĠ
jueĠ xinĠ
daiĠbiao ĠdeĠ
Ġmei ĠriĠ
kaĠsiĠ diĠliĠyaĠ
ĠzaiĠzhongĠguoĠ daĠluĠ
O V
ji ĠshiĠjieĠ
ĠĠĠ Q
nian ĠhouĠ
ke ĠweiĠerĠ
zu ĠzhongĠ
ni ĠzaiĠ
na ĠdaoĠ
lun ĠweiĠ
ver si
buĠ heĠ
jianĠ shouĠ
ĠerĠ wenĠmingĠ
shangĠ yanĠ
dongĠ xingĠ
tongĠ meng
xinĠ huiĠ
duiĠ liuĠ
ĠjiaĠ naĠ
liuĠ tongĠ
kaiĠ guanĠ
ĠyinĠ qingĠ
ĠchengĠ xuĠ
ĠshiĠjiĠ moĠ
ĠyeĠ huiĠ
ĠfaĠ lvĠ
ziĠjiĠ zaiĠ
ĠteĠ langĠ
lvĠweiĠ 0
w nĠ
ã Ħ
Ġ nei
Ġ xueĠxiĠ
wang ĠliĠ
tian ĠzhiĠ
zhuan ĠxingĠ
cun ĠjiĠ
cang ĠdeĠ
ĠshiĠ minĠ
ĠshiĠ neiĠ
ĠdeĠ junĠ
qiĠ bingĠ
daĠ geĠming
geĠ quĠdeĠ
zhuĠ biĠ
guanĠ xi
ĠdaĠ shengĠ
junĠ duiĠdeĠ
anĠ niĠ
suĠ lianĠdeĠ
leiĠ anĠjianĠ
guangĠ zhou
baiĠ huoĠ
chongĠ fengĠ
kaiĠshiĠ zhiĠ
Ġer ĠyiĠ
daiĠbiaoĠ duiĠ
ĠguĠ ciĠ
ĠranĠ erĠzaiĠ
Ġliu ĠyueĠ
6 ĠshiĠ
H DĠĠĠ
w n
ĠĠĠ quĠ
dang ĠyiĠ
yun ĠjiĠ
on eĠ
st ri
xiĠ lieĠdeĠ
shouĠ xiaĠ
shouĠ huoĠ
fangĠ ziĠ
fangĠ yingĠ
taiĠ leiĠ
nanĠ duanĠ
meiĠ tiĠdeĠ
sheĠ zhangĠ
ĠchuĠ xianĠzaiĠ
ganĠ junĠ
chuangĠ banĠrenĠ
ĠzhiĠweiĠ yuĠ
sanĠshiĠ nianĠ
baoĠhanĠ leĠ
diaoĠcha ĠjuĠ
Ġ Ho
Ġ iĠ
Ġ zhiĠdeĠshiĠ
guo ĠliĠshiĠ
suo ĠbuĠtongĠ
zhuang ĠzaiĠ
kao ĠdeĠ
ly Ġ
ĠyouĠ xie
daĠ chen
gongĠ bu
gongĠ keĠ
siĠ huĠ
jianĠ tingĠ
zhuĠ yuanĠ
ĠdiĠ xingĠ
shuĠ liangĠdeĠ
zheĠ huiĠ
qianĠ zhengĠ
pingĠ shenĠ
haiĠ baoĠ
daiĠ kuanĠ
qingĠ zhenĠsiĠ
dangĠ neiĠ
kouĠ anĠ
sanĠ jieĠ
ĠxiangĠ tongĠ
hanĠ liangĠ
shuiĠ zhunĠ
chongĠ baiĠ
zhunĠ jueĠsaiĠ
F C
Ġ shu
Ġ jianĠrenĠ
ĠĠĠ Bo
zuo ĠguoĠ
mu ĠxiĠ
lai ĠbuĠ
mo n
lin ĠyiĠ
cai ĠyouĠ
hen ĠyouĠ
diĠ tuĠ
siĠ yuanĠ
jiaĠ ciĠ
xiangĠ jinĠ
xianĠ jinĠdeĠ
huaĠ banĠ
guanĠ bingĠ
junĠ xianĠ
junĠ zhengĠ
miĠ lanĠ
zhenĠ duanĠ
paiĠ hang
Ġta ĠbuĠ
ĠciĠ lieĠcheĠ
juĠxingĠ leĠ
t or
fu ĠliĠdeĠ
bao ĠyiĠ
dan ĠheĠ
qian ĠheĠ
luo ĠliĠ
ba ĠdiĠ
deng ĠjiaĠ
lei ĠbuĠ
10 ĠwanĠ
sha ĠheĠ
âĢ »
hen ĠnanĠ
bin ĠxiĠfaĠ
yuĠ leiĠ
diĠ daiĠ
jiaĠ qiĠ
ziĠ jiaĠ
chuĠ xingĠ
zhanĠ baiĠ
huaĠ daĠ
xinĠ aĠjiĠtan
ĠshengĠ mingĠ
ĠãĤ ¹
ĠgengĠ mingĠweiĠ
tiaoĠjianĠ xiaĠ
crosof tĠĠĠ
e or
Ġ r
Ġ naiĠ
zai ĠshiĠyongĠ
ru ĠjiĠ
qiang ĠjianĠ
zan ĠchengĠ
80 ĠnianĠdaiĠ
am Ġ
43 Ġ
ĠzaiĠ yuanĠ
shengĠ riĠ
ziĠ taiĠ
yaĠ maĠ
shanĠ guĠ
ĠxiangĠ xiĠ
ĠxiangĠ jiaoĠyuĠ
ĠdeĠjiĠ heĠ
ĠzuiĠ zhongĠyuĠ
feiĠliĠ puĠ
tianĠran ĠqiĠ
m mĠ
u t
Ġ 1979
Ġ wuĠliĠ
li ĠwuĠ
xue ĠqiĠ
san ĠguoĠ
duan ĠdaoĠ
piao ĠjiaĠ
sun ĠziĠ
pao ĠjiĠ
ĠzhiĠ qiĠ
ĠyuĠ daĠ
fuĠ leiĠdeĠ
shouĠ yaoĠ
ciĠ shanĠ
ĠriĠ houĠ
haiĠ baoĠkuoĠ
ĠtaĠ danĠrenĠ
lingĠ wai
zongĠ jieĠ
sanĠ cengĠ
tingĠ boĠ
ĠzhuĠ gongĠ
ĠshiĠjiĠ luĠ
Ġai ĠdeĠhuaĠ
Ġling ĠyiĠgeĠ
muĠdiĠ diĠ
ĠyouĠmingĠ BDĠ
ĠzhongĠyang ĠweiĠyuanĠhuiĠ
banĠgongĠ tingĠ
ĠweiĠfuĠqiĠyuĠgangĠ luĠxingĠmuĠ
3 50
Ġ 1987
Ġ faĠyuĠ
Ġ 1954ĠnianĠ
ĠĠĠ 2001
ĠĠĠ 5Ġ
ĠĠĠ 2000ĠnianĠ
wen ĠxiĠ
mian ĠheĠ
lei ĠyiĠ
pa r
ĠdeĠ buĠ
renĠ mingĠ
qiĠ dongĠ
wuĠ fa
wuĠ quĠ
xiangĠ siĠdeĠ
yanĠ houĠ
dianĠ yuanĠ
miĠ maĠ
zuiĠ xiaoĠ
shanĠ poĠ
ĠbingĠ jiangĠqiĠ
caiĠ naĠ
linĠ quĠ
ĠjuĠ tiĠ
pinĠ kun
gengĠ gaoĠdeĠ
youĠyiĠ zuoĠ
beiĠjingĠ daĠxueĠ
e d
g roundĠ
Ġ ping
Ġ xun
Ġ luan
Ġ sanĠnianĠ
Ġ piĠpingĠ
ĠĠĠ v
ĠĠĠ sheĠhuiĠ
ĠĠĠ 2001ĠnianĠ
er o
ge ĠnianĠ
fang ĠrenĠ
lian ĠxingĠ
bo ĠyiĠ
tu re
long ĠheĠ
ĠshiĠ fangĠ
ĠyuĠ yuĠ
geĠ changĠ
beiĠ zhanĠ
ĠerĠ xiĠ
mingĠ yunĠ
dongĠ buĠdeĠ
xueĠ shengĠdeĠ
ciĠ zhanĠ
dianĠ tiĠ
chuanĠ chuĠ
ĠyiĠjiĠ weiĠ
ĠxueĠ zheĠ
ĠguoĠjiaĠ gongĠyuanĠ
ĠãĤ ¤
ĠjiĠluĠ pianĠ
biĠyeĠ shengĠ
Ġsi ĠzhiĠ
Ġsan ĠjiaĠ
suoĠshiĠ yongĠdeĠ
Ġ 1938
Ġ yunĠdongĠ
Ġ xinĠxiĠ
Ġ 1966ĠnianĠ
ĠĠĠ Di
le ĠrenĠ
lian ĠyiĠ
hong ĠyiĠ
reng ĠshiĠ
46 Ġ
ĠshiĠ liuĠ
ĠzaiĠ diĠerĠ
yuanĠ guĠ
gongĠ lvĠ
jinĠ gangĠ
ĠdiĠ jiuĠ
ciĠ juĠ
huaĠ gongĠ
banĠ jingĠ
ĠdaoĠ fuĠ
diĠyiĠ zhiĠ
ĠH a
Ġ190 9ĠnianĠ
ĠzhongĠxin ĠweiĠ
O C
Ġ mĠ
xin ĠyueĠ
dui ĠzhongĠguoĠ
qian ĠyouĠ
wang ĠjiaĠ
44 Ġ
1930 ĠnianĠdaiĠ
ĠyuĠ wenĠ
xianĠ huaĠ
ĠdiĠ zhenĠ
huoĠ fuĠ
gaoĠ wenĠ
duoĠ chuĠ
kaiĠshiĠ houĠ
ĠyuanĠ zhuĠ
guoĠjiĠ saiĠ
ĠfenĠ lanĠ
chengĠyuanĠ guoĠ
bangĠzhuĠ xiaĠ
Ġmo ĠxiĠgeĠ
y n
ta ĠzhiĠ
wang ĠxiĠ
biao ĠshiĠweiĠ
zhen ĠzhiĠ
liu ĠliĠ
tian ĠjiĠ
bai ĠgongĠ
huan ĠjiĠ
ĠdeĠ siĠ
zhuĠ yiĠdeĠshiĠ
zheĠ zuoĠ
gaiĠ xiaoĠ
fengĠ tianĠ
laĠ muĠ
chongĠ xin
ĠciĠ zhanĠ
manĠ zhouĠ
manĠ haĠ
faĠshengĠ houĠ
luĠyinĠshiĠ zhuanĠjiĠ
Ġ duoĠdeĠ
Ġ zhongĠzhiĠ
Ġ guanĠzhongĠ
Ġ 1964ĠnianĠ
ĠĠĠ Wi
na tional
pin ĠyinĠ
buĠ ruĠ
xingĠ geĠ
zhuĠ geĠ
ĠqiĠ daĠ
ĠerĠ diĠ
shouĠ qiuĠ
xueĠ yanĠjiuĠ
guanĠ jun
taiĠ luoĠ
jiuĠ fenĠ
fanĠ changĠ
ĠdeĠyiĠ banĠ
neiĠ buĠdeĠ
baiĠ se
naĠ xie
ĠshiĠjieĠ shangĠ
xiangĠgangĠ dianĠyingĠ
ziĠyouĠ dangĠ
Ġ ya
bi ĠzhongĠ
xiang ĠbuĠ
wen ĠliĠ
zu ĠzaiĠ
lian ĠsiĠ
tan ĠwuĠ
ĠweiĠ reĠdaiĠ
yanĠ yongĠ
baoĠ leiĠ
yeĠ kaiĠshiĠ
tongĠ yiĠdeĠ
gaiĠ bianĠweiĠ
zuĠ shuĠjiĠ
haoĠ xianĠ
lanĠ jieĠ
lanĠ xianĠ
baiĠ fangĠ
tingĠ cheĠ
pinĠ qingĠ
ĠdongĠ riĠbenĠ
ĠyingĠ yongĠ
ĠguoĠjiaĠ zuĠqiuĠduiĠ
Ġye ĠzaiĠ
guangĠboĠ dianĠshiĠ
jiaoĠkeĠ wenĠ
y o
Ġ nvĠziĠ
wei ĠdeĠguoĠ
lun ĠyiĠ
ĠyuĠ qianĠ
yuanĠ mingĠ
fuĠ fuĠ
ciĠ qianĠ
ĠjiaĠ siĠ
laiĠ shuo
bianĠ dongĠ
ĠzheĠ liangĠgeĠ
zhuanĠ zhuĠyuĠ
Ġdan ĠzhiĠ
kangĠ zhanĠ
shengĠjiĠ weiĠ
waiĠjiaoĠ guanĠxiĠ
ĠkeĠxiĠtaĠ niĠdaĠquĠ
Ġ 69
Ġ So
Ġ tiĠyuĠ
Ġ feiĠjiĠ
Ġ huangĠdiĠ
Ġ niuĠyueĠ
ji ĠshiĠyongĠ
mi ĠxiĠxiĠ
zhang ĠyouĠ
mian ĠbuĠ
jue ĠjiĠ
41 Ġ
ction Ġ
guoĠ daoĠ
daĠ jinĠ
ĠqiĠ mingĠ
xinĠ siĠ
jiangĠ shuiĠ
qingĠ shuiĠ
yaoĠ saiĠ
fengĠ shanĠ
tingĠ liuĠ
moĠ shouĠ
ĠzuoĠ quĠ
aĠfuĠ hanĠ
0 ĠrenĠ
Ġ 1984
Ġ linĠshiĠ
cun ĠzheĠ
yuanĠ junĠ
daoĠ fuĠ
ĠxiĠ zangĠ
liangĠ ce
lianĠ xu
ĠdaoĠ danĠ
ĠshiĠyiĠ huiĠ
ĠyeĠ beiĠ
Ġtong ĠnianĠ8ĠyueĠ
dongĠjiĠ aoĠlinĠpiĠkeĠyunĠdongĠhuiĠ
jieĠdaoĠ banĠshiĠchuĠ
shaoĠshuĠ minĠzuĠ
dian ĠyouĠ
zhang ĠguoĠ
nan ĠdaĠxueĠ
qiang ĠxingĠ
chen ĠyiĠ
cui ĠhuaĠ
ad Ġ
ĠyiĠ chuĠ
ĠyuĠ tiĠ
daĠ saiĠ
xiangĠ linĠ
jinĠ xiuĠ
3Ġ fenĠ
shuĠdeĠ dongĠwuĠ
haĠ saĠkeĠsiĠ
ĠdangĠ tianĠ
jinĠshiĠ chuĠshenĠ
ĠyongĠ laiĠ
Ġba ck
ĠĠĠH a
ĠchongĠ qingĠ
luoĠmaĠ tianĠzhuĠjiaoĠ
aoĠlinĠ piĠ
ouĠzhou ĠguoĠjiaĠ
neiĠruiĠ laĠ
ĠniuĠyueĠshiĠ baoĠ
1 ĠyiĠ
A I
Ġ gua
Ġ 1975ĠnianĠ
ĠĠĠ Ca
ĠĠĠ songĠ
guo ĠyiĠgeĠ
hu ĠshiĠdaiĠ
jin ĠguoĠ
biao ĠyuĠ
ĠshiĠ gongĠ
siĠ lingĠbuĠ
wuĠ xingĠ
ciĠ quanĠguoĠ
zuoĠ weiĠshiĠ
lianĠ aiĠ
jiuĠ zhouĠ
ĠbingĠ kaiĠshiĠ
ĠdeĠshiĠ tiĠ
zhuangĠ cunĠ
gongĠsi ĠzaiĠ
3 D
Ġ k
Ġ 1958
Ġ biaoĠzhunĠ
Ġ 1968ĠnianĠ
ou ĠdeĠ
qing ĠzhongĠ
quan ĠliĠdeĠ
feng ĠheĠ
cai ĠzhiĠ
long ĠdiĠ
kuang ĠyeĠ
sun ĠshangĠ
weiĠ erĠ
zhongĠ xin
jieĠ kouĠ
xianĠ xiaĠ
yingĠ yongĠyuĠ
guanĠ dongĠ
quanĠ xinĠ
suoĠ zuoĠdeĠ
suĠ geĠlan
ĠxiangĠ xinĠ
ĠwuĠ erĠ
chaĠ bieĠ
ĠzuiĠ hou
ĠĠĠshiĠ jieĠ
chuĠbanĠ leĠ
ĠyunĠ xuĠ
ĠnianĠdai ĠzhongĠqiĠ
dangĠweiĠ shuĠjiĠ
col orĠ
nongĠcun ĠjuĠminĠ
zhuĠjiaoĠzuoĠ tangĠ
q ui
Ġ luĠyiĠ
Ġ 1960ĠnianĠ
ĠĠĠ 11
ĠĠĠ Lo
ĠĠĠ eĠluoĠsiĠ
er ĠshiĠweiĠ
bi ĠyiĠ
ling ĠweiĠ
men ĠheĠ
tu ĠqiĠ
dou ĠyuĠ
zhongĠ wenĠ
daĠ daĠ
yingĠ yuanĠ
yeĠ luĠsaĠ
bingĠ qie
ĠfuĠ xingĠ
liuĠ danĠ
niĠ geĠ
ĠchuĠ xiĠ
ganĠ shouĠ
poĠ haiĠ
ĠnianĠ11ĠyueĠ 1ĠriĠ
ĠnianĠzhiĠ qianĠ
ĠduoĠ ciĠ
ĠK a
ĠweiĠyuĠgaiĠguoĠ dongĠnanĠbuĠ
N G
S P
Ġ kuoĠ
Ġ ningĠ
Ġ 1976ĠnianĠ
wen ĠrenĠ
zu ĠguoĠ
tu r
lun ĠliĠ
liao ĠliĠ
chuang ĠyeĠ
ĠbuĠ bianĠ
zhuĠ xianĠ
ziĠ zhuanĠ
nanĠ yangĠ
xieĠ chengĠ
bianĠ huĠ
zuiĠ zhangĠdeĠ
caiĠ jueĠ
youĠyiĠ zhongĠ
ziĠyouĠ yongĠ
riĠben ĠrenĠ
Ġmi ĠerĠ
ĠĠĠW orld
lanĠqiuĠ yunĠdongĠyuanĠ
- .
Ġ beiĠrenĠweiĠshiĠ
nei ĠjiĠ
lou ĠyuĠ
ĠyiĠ chengĠweiĠ
ĠzaiĠ dongĠ
ĠrenĠ siĠwangĠ
xiĠ zang
fuĠ zaĠ
zhuĠ muĠ
xiangĠ wangĠ
duiĠ taĠdeĠ
gaiĠ yaoĠ
zhouĠ weiĠdeĠ
ĠtaĠ congĠ
biaoĠ yan
gouĠ ruĠ
longĠ leiĠ
zouĠ leĠ
ĠweiĠerĠ siĠ
ĠaoĠ zhouĠ
gongĠsi ĠheĠ
jingĠcha ĠjuĠ
ĠĠĠst yleĠ
zhengĠzhiĠxieĠshangĠ huiĠyiĠ
Ġ 1981
Ġ 1977ĠnianĠ
ao ĠbuĠ
ĠĠĠ Fi
ĠĠĠ 7Ġ
wu ĠweiĠyuanĠhuiĠ
jing ĠqiĠ
nan ĠyouĠ
zhen ĠweiĠ
lun ĠjiaĠ
ceng ĠyiĠ
ĠshiĠ erĠyueĠ
fuĠ lanĠ
jiaĠ banĠ
xianĠ bingĠ
ĠdiĠ guoĠdeĠ
tongĠ guoĠdeĠ
huoĠ paoĠ
biĠ nanĠ
liangĠ zhouĠ
lingĠ dao
zuiĠ guĠlaoĠdeĠ
liuĠ langĠ
guiĠ dianĠcheĠ
aĠ laĠsiĠ
tanĠ taoĠ
qinĠ lve
leĠyiĠ changĠ
ĠlianĠ mengĠ
beiĠrenĠ wei
ĠĠĠN i
Ġ tou
bing ĠerĠchengĠ
huo ĠdiĠ
wa ĠjieĠ
ruo ĠdeĠ
ĠshiĠ tiĠ
ĠshiĠ sanĠ
ĠyouĠ jinĠ
ĠguoĠ wuĠ
xiangĠ taĠ
huiĠ jianĠ
shuĠ liang
pingĠ pangĠqiuĠ
haiĠ nanĠ
ĠfuĠ keĠ
ĠfuĠ huaĠ
wanĠ meiĠ
benĠ yingĠ
yaoĠ suĠ
ĠdaoĠ shangĠ
chanĠ jieĠjiĠ
ĠshiĠshiĠ jianĠ
ĠmeiĠ ciĠ
boĠshiĠ dunĠ
ĠweiĠzhuĠ tiĠ
ĠqiangĠ diaoĠ
5 ĠpingĠfangĠgongĠliĠ
6 ĠpingĠfangĠgongĠliĠ
m eri
Ġ huangĠjiaĠ
ĠĠĠ mengĠ
ĠĠĠ cheĠzhan
gu ĠzhiĠ
xie ĠxingĠ
wa ĠsiĠ
zeng ĠyuanĠ
renĠ qiĠ
buĠ shuĠ
daĠ gangĠ
fuĠ diĠ
siĠ taĠ
jianĠ qiao
wuĠ shengĠ
shuĠ maĠ
jingĠ jiĠdeĠ
huoĠ huaĠ
wanĠ biĠ
liuĠ wangĠ
maĠ piĠ
chongĠ xiuĠ
ĠyeĠ meiĠyouĠ
lingĠyiĠ zhongĠ
ĠshiĠweiĠyuĠmeiĠguoĠ miĠsuĠliĠ
waiĠjiaoĠ guanĠ
ĠxinĠzengĠ benĠtuĠ
8 ĠmingĠ
Ġ 1941
ĠĠĠ colspanĠ
gang ĠweiĠ
se ĠheĠ
lao ĠrenĠ
ĠjiĠ muĠ
ĠzaiĠ xiaoĠ
jianĠ mianĠ
ĠguoĠ qiĠ
shangĠ huoĠdeĠ
qianĠ quĠ
anĠ chaĠsiĠ
chuanĠ chengĠ
ĠdeĠshiĠ daiĠ
ĠwanĠ pingĠfangĠmiĠ
ĠminĠ jinĠ
Ġ tiao
gu ĠjiaĠ
nan ĠheĠ
jiu ĠxingĠ
qing ĠqiĠ
te ĠweiĠerĠ
san ĠsiĠ
wa ĠliĠ
ĠshiĠ dangĠdiĠ
youĠ keĠ
heĠ erĠ
ziĠ diĠ
chuĠ beiĠ
shouĠ beiĠ
baoĠ dongĠ
xinĠ cunĠ
banĠ qiuĠ
shanĠ daoĠ
zongĠ jiao
zongĠ bingĠ
canĠ junĠ
ĠshouĠ duĠ
leĠyiĠ zuoĠ
daiĠbiao ĠxingĠ
Ġjin ĠnianĠ
ĠweiĠyuĠgaiĠguoĠ beiĠbuĠ
muĠniĠ heiĠ
O P
Ġ chengĠjiĠ
an ĠyiĠ
lv ĠchengĠ
chi ĠyiĠ
niu Ġyue
ĠzaiĠ shengĠ
jinĠ shengĠweiĠ
shuĠ ciĠ
juĠ xing
changĠ chengĠ
taiĠ kong
liangĠ jieĠ
benĠ pianĠ
luoĠ wenĠ
kaiĠ leĠ
ĠdeĠyiĠ keĠ
ĠdeĠzhiĠ yeĠ
ĠshiĠzhenĠ fanĠweiĠneiĠ
ĠĠĠshiĠ shiĠ
ĠH i
ĠrenĠkou ĠweiĠ
ĠfuĠlangĠ shenĠ
8 2Ġ
ï ¹
an i
ĠĠĠ xianĠshiĠ
ying ĠzhongĠ
on eĠĠĠ
ĠjiĠ suanĠjiĠ
gongĠ wuĠyuanĠ
jieĠ xianĠ
chengĠ weiĠyiĠgeĠ
huiĠ laiĠ
laiĠ enĠ
lunĠ baoĠ
yinĠyueĠ jiaĠ
ĠĠĠyiĠ xiaĠshiĠ
Ġba ĠshiĠ
ĠnianĠyiĠ houĠ
miaoĠshuĠ leĠ
Ġback groundĠ
2 ĠpingĠfangĠgongĠliĠ
w er
Ġ Pro
bi ĠxiĠ
dao ĠĠĠ
mi ĠbuĠ
zuan Ġ
weiĠ laiĠ
zhongĠ duoĠ
ĠzhongĠ yuanĠ
faĠ dingĠ
ĠerĠ keĠ
shouĠ tiĠ
taĠ shouĠ
yingĠ yun
guanĠ wangĠ
biĠ mian
gaoĠ tieĠ
chuanĠ bo
chongĠ qingĠshiĠ
douĠ nengĠ
canĠ zhanĠ
kanĠ dengĠ
zengĠ jiaĠzhiĠ
ĠnianĠ6ĠyueĠ 30ĠriĠ
ĠĠĠS er
sheĠliĠ leĠ
Ġcong ĠshiĠ
fuĠluoĠliĠdaĠ zhouĠ
3 ĠpingĠfangĠgongĠliĠ
Ġ che
Ġ shouĠyuĠ
Ġ pinĠdaoĠ
min ĠzhiĠ
ma ĠdeĠliĠ
yao ĠyuĠ
sui ĠyiĠ
rong ĠyeĠ
diao ĠkeĠ
ĠweiĠ xiaoĠ
ĠjiĠ duĠjiaoĠ
ĠyuĠ 2021
xingĠ cheĠ
fuĠ lang
jinĠ menĠ
jingĠ juĠ
ĠdaĠ suanĠ
zhangĠ ai
ĠkeĠ xueĠjiaĠ
zhouĠ wuĠ
jiuĠ yeĠ
quanĠ daoĠ
guĠ quanĠ
ĠgongĠ jueĠ
ĠweiĠsiĠ teĠ
ĠgaiĠbianĠ ziĠ
fuĠza ĠdeĠ
luĠwa ĠerĠshengĠ
l lo
Ġ 1972ĠnianĠ
wei ĠyiĠjiĠ
ping ĠheĠ
luo ĠxiĠ
kai ĠguoĠ
zhuan ĠxianĠ
cu ĠchengĠ
daĠ gongĠ
yuanĠ dongĠ
ĠbuĠ jianĠ
chengĠ menĠ
huaĠ fenĠweiĠ
zuoĠ keĠ
ĠdaĠ qiao
qianĠ tiĠ
zhangĠ chengĠ
banĠ gong
sheĠ tuanĠ
jiuĠ mingĠ
xieĠ huiĠdeĠ
bianĠ huiĠ
maĠ niĠ
chuanĠ jiaoĠ
1Ġ fenĠ
ĠyiĠzhiĠ jiĠ
Ġri ĠshiĠ
Ġri ĠjiĠ
ĠshuĠ juĠ
xuanĠbuĠ jiangĠ
wuĠkeĠ lanĠdeĠ
ĠyaoĠ qiu
xingĠyuĠ leiĠ
zhi ĠshiĠdeĠ
yuan ĠĠĠ
bi ĠliĠyaĠ
tian ĠheĠ
ĠyuĠ daoĠ
ĠyouĠ shengĠ
ĠzaiĠ changĠ
jieĠ shao
beiĠ po
shuĠ niu
ĠxiĠ riĠbenĠ
duiĠ zhanĠ
xiaoĠ duiĠ
zhangĠ jiaĠ
duĠ tuĠ
ruĠ tongĠ
quanĠ shengĠ
ĠwuĠ lunĠ
canĠyuĠ zheĠ
ĠĠĠC ar
ĠĠĠP i
keĠsaĠsiĠ zhouĠ
8 ĠpingĠfangĠgongĠliĠ
S te
an a
ĠĠĠ cong
ĠĠĠ So
huo ĠqiĠ
bie ĠrenĠ
nu ĠsiĠ
ĠyiĠ liangĠ
ĠweiĠ juĠ
ĠweiĠ jingĠ
ĠyuĠ liĠ
ĠzaiĠ beiĠjingĠ
jianĠ die
faĠ junĠ
ĠdiĠ 2
yeĠ yinĠ
danĠ daoĠ
minĠ ganĠ
luoĠ naĠ
quanĠ guo
guĠ yuanĠ
huĠ anĠ
zongĠ seĠ
tuĠ jueĠ
sanĠ fenĠzhiĠ
ĠtaiĠ beiĠshiĠ
ĠzhanĠ muĠsiĠ
ĠluoĠ neĠ
ĠsheĠ xianĠ
ruoĠ ganĠ
yinĠqiĠ leĠ
yingĠxiang ĠliĠdeĠ
ĠĠĠxiaĠ shuĠ
rui ĠshiĠdeĠ
guai ĠwuĠ
is Ġ
ĠdeĠ fuĠ
ĠweiĠ xieĠ
ĠjiĠ geĠ
guoĠ qiĠ
gongĠ cheng
gongĠ yongĠ
jianĠ guanĠ
ĠbuĠ zhuĠ
keĠ cheĠ
daoĠ changĠ
yingĠ yangĠ
ĠdaĠ daĠ
jiaoĠ tongĠbuĠ
junĠ yongĠ
dianĠ dongĠ
huoĠ pao
ĠfuĠ nieĠ
lianĠ suoĠ
saiĠ teĠ
leiĠ bieĠ
jueĠ ceĠ
ĠziĠ jinĠ
ĠyiĠjiĠ jiĠ
ĠwangĠ zhanĠ
ĠshenĠ tiĠ
ĠĠĠS tu
ĠĠĠshiĠ jiĠ
ĠtaĠmen ĠshiĠ
ĠjianĠzhuĠ mianĠjiĠ
jiangĠxiĠ shengĠ
yaĠmeiĠ niĠya
feiĠteĠ lieĠ
R NA
ĠĠĠ waiĠ
si ĠweiĠerĠ
ma r
xu ĠyueĠ
bai ĠjiĠ
gang ĠzhiĠ
ĠshiĠ hanĠguoĠ
ĠdeĠ jiaĠ
ĠyiĠ tianĠ
youĠ xingĠ
ĠqiĠ leĠ
jingĠ taiĠ
xinĠ jiangĠweiĠwuĠerĠ
gaiĠ sheĠ
minĠ bingĠ
suĠ chengĠ
paiĠ wangĠ
paiĠ xuĠ
ĠxianĠ luĠkouĠ
chongĠ qing
piĠ quanĠguoĠzhongĠdianĠwenĠwuĠbaoĠhuĠdanĠweiĠ
chuangĠ shangĠ
ĠshangĠ haiĠshiĠ
kaoĠ liangĠ
ĠdeĠyiĠgeĠ quĠ
ĠĠĠA Ġ
fenĠbie ĠyuĠ
A V
Ġ 1944
ci ĠbuĠ
quan ĠnianĠ
ben ĠzhongĠ
gang ĠdaoĠ
pu ĠbuĠ
sa ĠliĠ
st erĠ
39 Ġ
ĠyouĠ chengĠweiĠ
ĠqiĠ daoĠ
ĠqiĠ yuanĠyuĠ
shuĠ xiĠ
dongĠ yinĠduĠ
pingĠ fenĠ
ĠjiaĠ qingĠ
yaĠ teĠ
ĠfuĠ teĠ
teĠ ding
guĠ tiĠ
feiĠ chengĠ
haoĠ maĠ
chuanĠ foĠjiaoĠ
ĠjinĠ siĠ
eĠ lieĠ
ĠyuanĠ laiĠ
youĠjiĠ duiĠ
ĠyongĠ huĠ
ĠD o
ĠK i
ĠtangĠ chaoĠ
ĠĠĠE x
bianĠchengĠ leĠ
luoĠfuĠ siĠkeĠ
cheĠrenĠ ciĠ
4 ĠshiĠ
N i
Ġ 1978
Ġ 1937
Ġ 25Ġ
Ġ 1935ĠnianĠ
li ĠxiangĠ
ĠĠĠ juĠliĠ
da ĠliĠyuĠ
ke ĠzhongĠ
bo x
huan ĠxianĠ
shuang ĠxiangĠ
cu ĠshiĠ
youĠ xiuĠ
guoĠ junĠ
ĠyouĠ gaiĠ
ĠheĠ siĠ
jieĠ daiĠ
ziĠ ji
yanĠ chiĠ
taiĠ zongĠ
yongĠ youĠdeĠ
ĠtaĠ keĠyiĠ
duoĠ yangĠxingĠ
ĠzhuĠ ruĠ
kaĠ teĠ
nianĠ lingĠ
daoĠshiĠ yueĠtaiĠ
ĠĠĠbuĠ guoĠ
shengĠdaoĠ taiĠ
dongĠcheĠ zuĠ
ĠheiĠlongĠjiangĠ shengĠ
7 ĠmingĠ
9 2ĠnianĠ
Ġ 1939
Ġ chuangĠzuoĠ
Ġ VĠ
Ġ 1970ĠnianĠ
ch o
ĠĠĠ zaiĠyiĠ
ĠĠĠ guiĠdaoĠ
cheng ĠliĠyiĠ
gu ĠshiĠdeĠ
tai n
zhou ĠdiĠ
wai ĠdiĠ
200 Ġ
10 ĠshiĠ
ĠyiĠ wanĠ
ĠweiĠ taiĠwanĠ
ĠyouĠ liangĠgeĠ
yuanĠ shuai
faĠ wenĠ
baoĠ guangĠ
xiaĠ menĠ
lianĠ qiuĠ
yunĠ xu
ĠgeĠ linĠ
shaĠ shouĠ
ĠshangĠ wuĠ
ĠshiĠweiĠyuĠ wuĠkeĠlanĠ
ĠdiĠyiĠ ciĠ
3 ĠjiaĠ
Ġ nie
Ġ 78
Ġ chengĠrenĠ
Ġ sheĠzhiĠ
Ġ biaoĠzhiĠ
ĠĠĠ 187
ĠĠĠ heĠĠĠ
ma ĠdaĠ
zong ĠrenĠkouĠdeĠ
sui ĠrenĠkouĠ
suan ĠshiĠ
cang ĠyuĠ
ĠzhiĠ shangĠ
ĠyouĠ diĠ
chuĠ dongĠ
ĠerĠ geĠ
zhengĠ zhaoĠ
changĠ wuĠ
ĠsiĠ faĠ
ĠjiaĠ daĠ
dengĠ jiangĠ
quanĠ chengĠ
ĠzheĠ shouĠ
ĠyiĠjiĠ qiĠtaĠ
ĠĠĠyiĠ xiaĠweiĠ
ĠweiĠyuĠgaiĠguoĠ zhongĠbuĠ
Ġduo ĠrenĠ
Ġfan ĠzhiĠ
Ġ193 4ĠnianĠ
zongĠduĠ fuĠ
Ġhou ĠrenĠ
taiĠfengĠ jingĠbao
zei Ġ
teĠlangĠ puĠ
0 ĠbiĠ
7 ĠshiĠ
E P
G D
T wit
l yin
xin ĠshiĠzhenĠ
yong ĠzhongĠ
te sĠ
deng ĠzhiĠwuĠ
kou ĠshiĠ
peng ĠhuĠ
ãģ ®
ber tĠĠĠ
ĠyiĠ tiaoĠ
ĠyouĠ zhongĠguoĠ
yuanĠ youĠdeĠ
xiangĠ jieĠ
xiangĠ fanĠ
ĠxiĠ shuĠ
juĠ jue
shouĠ jiaĠ
fangĠ daĠ
baoĠ gao
ĠfuĠ luĠ
ĠzhongĠguoĠ guoĠminĠdangĠ
Ġ19 27ĠnianĠ
ĠT i
jiaoĠliuĠ daoĠ
ĠÑ Ģ
hangĠzhanĠ louĠ
Ġon lyin
Ġonlyin cludeĠ
G N
G P
t on
Ġ nanĠbuĠ
Ġ xingĠjiĠ
Ġ xuĠliĠyaĠ
Ġ 1940ĠnianĠ
en ĠheĠ
zhi ĠshiĠyiĠ
ti ĠliĠ
zhen ĠliĠ
liu ĠzhongĠ
san ĠriĠ
ceng ĠjiĠ
can ĠjianĠ
sha ĠyuĠ
62 Ġ
erĠ zhanĠ
ĠxiĠ ceĠ
ciĠ keĠ
zuoĠ ciĠ
ruĠ wuĠ
yaoĠ daoĠ
ĠziĠ chengĠ
ĠgeĠ laĠ
ĠxianĠ shengĠ
taoĠ huiĠ
ĠnianĠjianĠ chengĠ
anĠdeĠ lieĠ
ĠkaĠ laĠ
ĠnvĠ xingĠweiĠ
ĠliĠheĠ wuĠzhengĠzhuangĠganĠranĠzheĠ
meiĠguoĠyiĠ liĠnuoĠyiĠ
ĠfeiĠlvĠ binĠ
+ +
7 ĠpingĠfangĠgongĠliĠ
a ĠkeĠ
Ġ ST
bu ĠshiĠyongĠ
da ĠĠĠ
mi c
hao ĠyiĠ
gun ĠqiuĠ
AT P
ĠzhiĠ houĠdeĠ
ĠyouĠ xuĠduoĠ
zhuĠ chi
chuĠ fangĠ
shuĠ xueĠjiaĠ
riĠ jianĠ
ĠxiĠ junĠ
huaĠ leĠ
tongĠ kuĠ
changĠ yongĠ
miĠ teĠ
yunĠ suanĠ
ĠdeĠyiĠ tiĠ
caiĠ fangĠshiĠ
ĠyeĠ jianĠ
tangĠ chaoĠ
poĠ chanĠ
leĠyiĠ fenĠ
hengĠ kua
guoĠminĠ zhengĠfuĠ
ĠteĠbie ĠshiĠzaiĠ
Ġ193 1ĠnianĠ
baĠleĠsiĠ tanĠ
I ON
Ġ 1940
Ġ xueĠyuanĠ
zhong ĠdeĠyiĠgeĠ
dui ĠbuĠ
âĢ ¢
50 ĠmiĠ
ĠweiĠ niĠ
daĠ yingĠ
jianĠ puĠ
huiĠ luĠ
jinĠ ciĠyuĠ
duiĠ daiĠ
xiaoĠ haiĠ
haiĠ yaoĠ
qingĠ chao
bianĠ tiĠ
duoĠ huiĠ
suoĠ xiaoĠ
baĠ biĠ
tingĠ banĠ
tanĠ ceĠ
yiĠshiĠ xingĠtaiĠ
ĠgenĠjuĠ 2010ĠnianĠmeiĠguoĠrenĠkouĠpuĠchaĠ
Ġ7 00
Ġ193 3ĠnianĠ
touĠruĠ fuĠwuĠ
kangĠriĠ zhanĠzhengĠ
zhuanĠkeĠ xueĠxiaoĠ
H E
Ġ luĠdeĠ
jin ĠliĠ
ban ĠdiĠ
feng ĠyiĠ
lin ĠjiĠ
bai ĠqiĠ
mai ĠdiĠ
st ra
kun Ġnan
89 ĠnianĠ
ĠweiĠ teĠ
zhongĠ jianĠ
daĠ dangĠ
geĠ ziĠdeĠ
keĠ yongĠ
ziĠ shenĠdeĠ
ĠqiĠ huaĠ
chuĠ waiĠ
gaiĠ yongĠ
suoĠ zuoĠ
fanĠ chouĠ
shanĠ shangĠ
shanĠ zhanĠ
ĠxiangĠ fanĠ
gangĠ quĠ
ĠjuĠ baoĠdaoĠ
zhuanĠ ye
nvĠ zi
Ġdang ĠriĠ
guoĠminĠ dang
huoĠdong ĠzhongĠ
Ġ2011 ĠnianĠ12ĠyueĠ31ĠriĠ
ĠhouĠlai ĠzaiĠ
tanĠxianĠ duiĠ
ĠĠĠ bingĠ
ĠĠĠ longĠ
bei ĠzaiĠ
ban ĠzhongĠ
biao ĠzhongĠ
xuan ĠyiĠ
na ĠkeĠ
long ĠyuĠ
mao ĠliĠ
hen ĠjiĠ
hun ĠxiaoĠ
ĠyuĠ 2015
xiĠ junĠ
gongĠ ruĠ
chuĠ cunĠ
quĠ yuĠdeĠ
zhengĠ queĠdeĠ
yinĠ siĠ
ĠsiĠ huĠ
duĠ chengĠ
zhouĠ xianĠ
biaoĠ zhangĠ
ĠbingĠ renĠweiĠ
ĠgongĠ minĠ
ĠjianĠ chiĠ
guangĠ huaĠ
ĠziĠ zhuĠ
ĠshiĠdeĠ jiĠ
ĠjingĠ chaĠ
Ġ2 ĠĠĠ
ĠĠĠbenĠ zhanĠ
ĠweiĠyuĠgaiĠguoĠ nanĠbuĠ
gaoĠdengĠ jiaoĠyuĠ
jieĠquanĠguoĠ renĠdaĠdaiĠbiaoĠ
zhuangĠweiĠ linĠ
L E
Ġ chang
Ġ 1974ĠnianĠ
ĠĠĠ suiĠzhuĠ
jie ĠbuĠ
ta l
huo ĠzhongĠ
ning ĠboĠ
ĠzhiĠ liuĠ
heĠ nanĠ
ĠyueĠ tanĠ
jinĠ jiangĠ
zuoĠ zhan
ĠdaĠ duiĠ
ĠriĠ yuanĠ
haiĠ zhanĠ
yangĠ quĠ
guĠ shengĠ
zongĠ tongĠdeĠ
tangĠ naĠ
zhengĠzhiĠ weiĠyuanĠ
Ġer ĠyouĠ
ĠxinĠzeng ĠjingĠwaiĠshuĠruĠ
duoĠlunĠ duoĠ
baoĠkuoĠyiĠxiaĠ wuĠzhongĠ
9 ĠhaoĠ
ĠĠĠ qiuĠ
ĠĠĠ piĠ
ĠĠĠ yinĠciĠ
shu ĠnianĠ
dong ĠweiĠ
ying ĠqiĠ
huo ĠyouĠ
xiao ĠqiĠ
bian ĠzaiĠ
na ĠjiĠ
duan ĠjiĠ
sha ĠliĠ
ter national
jianĠ juĠ
huiĠ seĠ
chuĠ quĠ
shuĠ qianĠ
ĠxiĠ linĠ
juĠ huaĠ
ĠdaĠ suan
qingĠ chun
shenĠ bianĠ
miĠ qie
xieĠ leĠ
maĠ tou
guiĠ ze
ĠyeĠ wuĠ
xiuĠ shanĠ
ĠnanĠ fangĠ
zuĠqiuĠ jiaĠjiĠ
ĠsanĠ geĠ
ĠĠĠzaoĠnianĠ shengĠhuoĠ
ĠqiĠzhong ĠyiĠgeĠ
1 ĠpingĠfangĠgongĠliĠ
8 1Ġ
T S
b leĠ
Ġ kuan
Ġ 79
Ġ nengĠgouĠ
fen ĠzaiĠ
du ĠqiĠ
ba ĠjiĠ
tu ĠzhiĠ
feng ĠliĠ
duan ĠzhiĠ
ss o
ĠweiĠ huĠ
ĠweiĠ zhongĠguoĠ
chengĠ xiĠ
xiangĠ yingĠdeĠ
zhengĠ houĠ
jingĠ yingĠdeĠ
duĠ tongĠ
liangĠ jianĠ
ĠbeiĠ fangĠ
hanĠ minĠguoĠ
gengĠ haoĠdeĠ
ĠwanĠ zhangĠ
qiĠshiĠ daiĠ
ĠC hi
wanĠchengĠ houĠ
ĠĠĠdiĠ sanĠ
daiĠbiao ĠdaĠ
haĠerĠ keĠfuĠ
wangĠqiuĠ gongĠkaiĠsaiĠ
Ġ tuo
Ġ shouĠjiĠ
Ġ kenĠ
Ġ yaĠliĠshanĠdaĠ
ĠĠĠ 1999ĠnianĠ
yue ĠyouĠ
mu ĠzaiĠ
ling ĠzaiĠ
chao ĠrenĠ
chong ĠxianĠ
ĠshiĠ riĠben
wuĠ laĠ
faĠ diĠ
tongĠ banĠ
ĠdaĠ junĠ
anĠ chaĠshiĠ
ĠtaĠ kaiĠshiĠ
diĠyiĠ jiaĠ
ĠmuĠ qin
kanĠ saĠsiĠ
xingĠzhengĠ zhangĠguanĠ
ĠshenĠ duĠ
guoĠshiĠ daiĠ
fanĠduiĠ paiĠ
taiĠpingĠ yang
guoĠminĠ geĠmingĠ
dianĠying ĠzhiĠ
siĠlanĠ jiaoĠ
Ġ bieĠ
Ġ tĠ
xi ĠzhiĠxingĠ
you ĠnianĠ
mei ĠyiĠgeĠ
wen ĠzaiĠ
lin ĠjiaĠ
lie ĠzhiĠ
gan ĠheĠ
ĠyouĠ guoĠ
fuĠ kaĠ
wuĠ xiaoĠ
chuĠ shengĠdeĠ
changĠ guanĠ
wenĠ nuan
ĠjiaĠ geĠ
nanĠ quĠ
baiĠ eĠluoĠsiĠ
zhuanĠ huan
diĠyiĠ zuoĠ
kongĠ jianĠdeĠ
shaĠ leĠ
guoĠjiĠ saiĠshiĠ
genĠ sui
ĠshiĠwuĠ suoĠ
ĠP e
waiĠguoĠ renĠ
xiuĠzhengĠ anĠ
xingĠzheng ĠzhongĠxinĠ
Ġ 32
ĠĠĠ chen
ĠĠĠ shangĠyeĠ
ĠĠĠ rongĠyuĠ
fei ĠweiĠ
pai ĠzaiĠ
chan ĠchuĠ
nv ĠshengĠ
ĠyiĠ liao
zhongĠ gongĠzhongĠyangĠ
jieĠ yanĠ
jieĠ shuĠshiĠ
ĠxiĠ huan
zhengĠ dang
guanĠ zhangĠ
xiaĠ shuĠdeĠ
jiuĠ nengĠ
bianĠ huaĠdeĠ
lingĠ jianĠ
ĠdaoĠ guangĠ
ĠbeiĠ poĠ
niĠ poĠerĠ
ĠdangĠ diĠdeĠ
jueĠseĠ banĠyan
Ġãģ Ħ
ĠhuoĠdeĠ leĠ
ĠzaiĠjiaĠ shangĠ
4 ĠpingĠfangĠgongĠliĠ
m ber
â ħ
Ġ nong
Ġ qia
Ġ gaoĠzhongĠ
ĠĠĠ laiĠ
ĠĠĠ dangĠshiĠ
you ĠliĠdeĠ
ge ĠshiĠjiĠ
xin ĠjiĠshuĠ
duo ĠyouĠ
10 ĠrenĠ
zhuang ĠheĠ
tuan ĠyuanĠ
peng ĠzhangĠ
67 Ġ
buĠ daoĠ
yuanĠ laiĠ
fuĠ wuĠdeĠ
zhuĠ houĠ
yeĠ jiangĠ
xiaoĠ mie
shenĠ xiangĠ
boĠ huiĠ
saiĠ huiĠ
zhaoĠ mingĠ
keĠyiĠ youĠ
ĠnianĠ6ĠyueĠ 1ĠriĠ
Ġzong ĠheĠ
gaoĠsuĠ tieĠluĠ
ĠjinĠguanĠ ruĠciĠ
ĠshiĠziĠ lvĠ
chanĠpin ĠdeĠ
u ro
Ġ qiu
Ġ gongĠshiĠ
ĠĠĠ zhouĠ
er ĠshiĠyiĠ
dao ĠyueĠ
hui ĠweiĠyuanĠ
guan ĠliĠjiĠ
gai ĠrenĠ
wai ĠshiĠ
zan ĠyangĠ
zang ĠliĠ
52 Ġ
daĠ jieĠ
yuanĠ dingĠ
gongĠ guĠ
zhengĠ yiĠdeĠ
fangĠ huĠ
yingĠ jianĠ
yeĠ zheĠ
tongĠ zhiĠdeĠ
zheĠ xueĠjiaĠ
xinĠ shangĠ
danĠ dangĠ
qingĠ jingĠ
banĠ lvĠ
yunĠ keng
haoĠ laiĠwuĠ
ganĠ sheĠ
nongĠ ye
ĠboĠ geĠ
sanĠshiĠ siĠnianĠ
yuanĠzhuĠ min
zaĠ zhiĠdeĠ
ĠmaoĠ zeĠdongĠ
jiaoĠchaĠ kouĠ
ĠĠĠbenĠshuĠ baoĠkuoĠyiĠxiaĠwuĠzhongĠ
1 ĠshiĠ
A nd
Ġ mang
ĠĠĠ guiĠ
qi ĠshiĠyongĠ
cun ĠyouĠ
BC Ġ
ĠjiĠ suanĠ
ĠzhongĠ duanĠ
xingĠ rongĠ
gongĠ qiĠ
ĠqiĠ shengĠ
shouĠ gou
haiĠ an
gaoĠ chuĠ
maĠ geĠliĠ
ĠbingĠ ruĠ
ĠbingĠ danĠrenĠ
leiĠ muĠ
sanĠ haoĠ
shaĠ moĠ
Ġ17 0
zhouĠliĠ daĠxueĠ
zhongĠyao ĠxingĠ
ĠhaĠerĠ binĠshiĠ
ĠISTAT ĠdaiĠmaĠweiĠ0
Ġ zaoĠzaiĠ
ĠĠĠ zheĠzhongĠ
yao ĠyiĠ
tian ĠyuĠ
tian ĠbuĠ
zhuang ĠxiangĠ
ĠweiĠ neng
keĠ jiaĠ
daoĠ xianĠ
ĠxiĠ guanĠ
quĠ fuĠ
yanĠ geĠdeĠ
changĠ zhuĠ
jiaoĠ huiĠdeĠ
qianĠ zuoĠ
taiĠ zuĠ
biĠ yaoĠdeĠ
jiuĠ jinĠshanĠ
cheĠ shenĠ
suoĠ enĠ
ĠyinĠ yingĠ
ĠgaiĠ mingĠ
gouĠ chengĠdeĠ
shaĠ teĠ
ranĠ seĠ
ĠyingĠ pianĠ
ĠĠĠzhiĠ houĠ
puĠluoĠ wangĠsiĠ
aiĠhaoĠ zheĠ
S C
Ġ 1960
Ġ shanĠxiĠshengĠ
Ġ 1971ĠnianĠ
ĠĠĠ xieĠ
ãĢ ķ
dong ĠdiĠ
huo ĠdeĠyiĠ
kai ĠshiĠyiĠ
fan ĠxingĠ
na ĠbuĠ
kan ĠchuĠ
64 Ġ
ĠzhiĠ liĠyuĠ
shuĠ zhangĠ
xiaĠ lieĠ
lingĠ hunĠ
baĠ qiangĠ
ĠdanĠ que
shuiĠ yuanĠ
ĠgaiĠ mingĠweiĠ
ĠyiĠjiĠ qiĠ
tangĠ muĠ
youĠyiĠ dingĠ
laoĠ huĠ
zhunĠ que
zaiĠyiĠ ciĠ
yinĠduĠ jiaoĠ
Ġgao ĠshiĠ
ĠbuĠsiĠ baoĠ
ĠqiĠzhongĠnanĠ xingĠweiĠ
ĠĠĠSch oo
dianĠliĠjiĠ cheĠ
Ġ tui
Ġ ken
Ġ dongĠjiĠ
Ġ 1941ĠnianĠ
ben ĠweiĠ
tan ĠxingĠ
chuang ĠliĠdeĠ
zhui ĠzongĠ
tun ĠbingĠ
diĠ qu
ĠrenĠ junĠ
ĠzhongĠ jieĠ
chengĠ yuanĠdeĠ
beiĠ daoĠ
ĠdiĠ shangĠ
zhanĠ ling
wanĠ cheng
wanĠ juĠ
duoĠ tianĠ
fengĠ xiangĠ
2Ġ ciĠ
canĠ yuĠdeĠ
dianĠshiĠ tai
ĠjiangĠ junĠ
leĠyiĠ xiĠlieĠ
erĠshiĠ yuĠ
ĠmeiĠguoĠ guoĠjiaĠ
yĠĠĠ of
Ġ1 ĠĠĠ
xiangĠshiĠ juĠrenĠ
ĠtaĠmen ĠyuĠ
ĠmianĠ duiĠ
genĠju ĠdiĠ
ĠxiongĠ yaĠliĠ
ĠĠĠguangĠ xuĠ
R i
Ġ de
Ġ jia
ĠĠĠ Sa
ãĢ Ķ
hou ĠliĠ
bao ĠerĠ
du ĠerĠ
zhang ĠqiĠ
ya ĠqiĠ
deng ĠguoĠ
na ĠyuĠ
re ĠheĠ
wa sĠĠĠ
zhiĠ yeĠ
ĠzhiĠ zhuĠ
shengĠ tai
shouĠ du
daiĠ haoĠ
wanĠ faĠ
tianĠ wangĠ
laĠ shengĠ
ĠdanĠ dangĠ
2Ġ fenĠ
piĠ luĠ
shuangĠ chongĠ
ĠzuoĠ jiaĠ
ĠyiĠjingĠ beiĠ
2001ĠnianĠ zongĠrenĠkouĠ
Ġbo ĠerĠ
laĠjiĠ miĠerĠ
Ġà ¤
ĠĠĠgaiĠdiĠ 2001ĠnianĠzongĠrenĠkouĠ
f fi
Ġ CO
Ġ wuĠdeĠ
hu ĠfuĠ
lai ĠzaiĠ
qing ĠjiĠ
ping ĠyuĠ
sai ĠyiĠ
lan ĠrenĠ
11 ĠgeĠ
bie ĠmingĠ
ĠdeĠ xinĠ
ĠzhongĠ liangĠ
gongĠ duĠ
keĠ yanĠ
xiangĠ dangĠyuĠ
beiĠ juĠ
huiĠ yanĠ
ĠtaĠ yinĠ
zuiĠ chu
ĠgongĠ yingĠ
puĠ dunĠ
xueĠyuanĠ yuanĠzhangĠ
Ġ19 28ĠnianĠ
xueĠshengĠ huiĠ
ĠĠĠzhiĠ beiĠ
chiĠxuĠ daoĠ
Ġ6Ġ suiĠrenĠkouĠ
jinĠyiĠ buĠdeĠ
yunĠshiĠ keng
Ġ tuĠdiĠ
ĠĠĠ cengĠ
ĠĠĠ mingĠchengĠ
ge ĠshiĠzhenĠ
jin ĠweiĠzhiĠ
bing ĠdiĠ
chuan ĠyuĠ
zan ĠshangĠ
ĠweiĠ xinĠ
ĠyueĠ kanĠ
geĠ luoĠ
ĠxiĠ wang
houĠ qin
yanĠ jinĠ
ĠgeĠ luĠ
aĠ kenĠseĠ
ĠshiĠjiĠ weiĠ
ĠfaĠ sheĠ
shaoĠ qingĠ
yueĠ laiĠyueĠ
Ġmei ĠliĠ
lingĠdaoĠ xiaĠ
cuoĠ wuĠdeĠ
xiaoĠfeiĠ zheĠ
1 ĠdeĠ
C C
Ġ 1943
ji ĠshiĠdeĠ
ĠĠĠ ai
ĠĠĠ Da
ĠĠĠ peiĠ
ĠĠĠ deĠĠĠ
chu ĠyiĠgeĠ
20 ĠgeĠ
dong ĠqiĠ
ni ĠrenĠ
ba ĠzaiĠ
kan ĠqiĠlaiĠ
ĠshiĠ shengĠ
heĠ tongĠ
ĠheĠ daĠ
ĠheĠ dongĠ
ĠheĠ taĠdeĠ
zhuĠ chuĠ
zhuĠ junĠ
zhuĠ boĠ
baoĠ mingĠ
xiaĠ laiĠdeĠ
wangĠ gongĠ
muĠ changĠ
ĠdanĠ gaiĠ
ĠzheĠ leiĠ
zhaoĠ shengĠ
Ġtong ĠnianĠ7ĠyueĠ
maoĠ zeĠ
hunĠ luan
ĠĠĠA u
jingĠliĠ leĠ
Ġmo ĠerĠ
Ġbo ĠsiĠ
ĠyiĠsiĠlanĠ jiaoĠ
juĠfeng ĠzhongĠxinĠ
Net fli
L L
u se
Ġ enĠ
Ġ ziĠzhiĠ
Ġ zaoĠdaoĠ
Ġ 1962ĠnianĠ
ĠĠĠ 1ĠĠĠ
xue ĠyiĠ
gu ĠxiĠlaĠ
huo ĠyuĠ
yong ĠguoĠ
Co m
xingĠ rong
wuĠ junĠ
zhuĠ gongĠ
zhuĠ jiangĠ
xianĠ xianĠ
tiĠ duĠ
pingĠ tanĠ
yaĠ daoĠ
lianĠ huaĠ
huĠ guangĠ
ĠgongĠ gaoĠ
ganĠ rao
ranĠ shaoĠ
rongĠ ruĠ
langĠ manĠ
ĠtongĠ yang
ĠyinĠciĠ taĠ
ĠdiĠerĠ geĠ
ĠĠĠliĠ ruĠ
ĠweiĠyuĠfaĠguoĠ daĠdongĠbuĠdaĠquĠ
Ġlu ĠyiĠsiĠ
Ġzu ĠjiĠ
chuo ĠhaoĠ
2019ĠguanĠzhuangĠbingĠduĠ bingĠyiĠ
3 ĠzhiĠ
Ġ d
Ġ quĠyuĠ
Ġ qiuĠjiĠ
Ġ 1936ĠnianĠ
Ġ 1951ĠnianĠ
di a
ci a
zhang ĠĠĠ
luo ĠbuĠ
duo ĠzaiĠ
duo ĠnianĠdeĠ
zhuan ĠzhuĠ
65 Ġ
ĠshiĠ douĠ
ĠjiĠ linĠ
ĠzhiĠ neng
zhongĠ ziĠ
ĠheĠ gongĠ
xiĠ shengĠ
xingĠ zouĠ
siĠ wang
jianĠ geĠ
jieĠ yunĠ
zhuĠ huaĠ
yeĠ cengĠ
guanĠ mingĠ
zhangĠ haoĠ
duĠ caiĠ
baiĠ leĠ
ĠzhongĠguoĠ guoĠjiaĠ
dianĠyingĠ yuanĠ
zhuĠyiĠ heĠ
ĠtongĠ changĠshiĠ
shengĠwuĠ xueĠjiaĠ
ĠfenĠbuĠyuĠ nanĠmeiĠzhouĠ
Ġhu ĠyuĠ
b leĠĠĠ
Ġ neng
ĠĠĠ Ra
ĠĠĠ xingĠtaiĠ
ci ĠxiĠ
zhuan ĠyiĠzhiĠ
pa ĠlaĠ
ĠjiĠ bai
ĠzhiĠ jiaĠ
houĠ caiĠ
huaĠ tingĠ
yingĠ gai
yongĠ daoĠ
nanĠ duĠ
sheĠ qunĠ
quanĠ leiĠdaĠ
xuanĠ gua
ĠwuĠ hanĠ
suiĠ pianĠ
touĠ sheĠ
cengĠ mianĠ
zhongĠguoĠ gongĠchanĠdangĠ
ĠyanĠ jiu
kaiĠfaĠ quĠ
youĠxianĠ gongĠsiĠ
Ġcom Ġ
baĠjiĠsiĠ tanĠ
l sĠ
ĠĠĠ huo
ĠĠĠ xiaoĠxingĠxingĠ
cheng ĠyiĠzhiĠ
xian ĠshiĠqiĠ
zheng ĠshiĠjieĠ
lan dĠ
24 0
ct or
76 ĠnianĠ
geĠ linĠ
ĠbuĠ yuanĠ
shuĠ dianĠ
mingĠ daiĠ
zhanĠ zhengĠshiĠ
huaĠ chengĠ
xinĠ ze
tiĠ huanĠ
fenĠ faĠ
fenĠ duiĠ
sheĠ zhengĠ
ĠdeĠyiĠ tiaoĠ
ĠjinĠ gangĠ
cunĠ huoĠ
ĠciĠ riĠ
yueĠ tuanĠ
ĠzuoĠ zheĠ
ĠteĠ bieĠ
anĠdeĠ luĠ
haĠerĠ bin
1 18
Ġ lian
Ġ 1959ĠnianĠ
ĠĠĠ yiĠshiĠ
zuo ĠqiĠ
pi ĠdeĠ
lun ĠzaiĠ
liao ĠfaĠ
chuang ĠdeĠ
pao ĠtaiĠ
77 ĠnianĠ
ĠshiĠ baoĠ
ĠyiĠ shangĠdeĠ
ĠjiĠ suan
ĠyouĠ yuanĠ
ĠzhongĠ zhengĠ
jieĠ gouĠdeĠ
zhuĠ suoĠ
daoĠ taĠ
beiĠ lieĠweiĠ
chuĠ xianĠyuĠ
ĠxiĠ shengĠ
jingĠ queĠ
tongĠ yangĠdeĠ
ĠkeĠ jiaĠ
quanĠ jingĠ
tianĠ qiaoĠ
kaiĠ yuanĠ
huanĠ jingĠzhongĠ
Ġtong ĠjiĠ
ĠpingĠfangĠ yingĠliĠ
ĠnianĠ8ĠyueĠ 1ĠriĠ
baoĠkuoĠ leĠ
zhongĠyuĠ yanĠ
ĠgaiĠshengĠfenĠweiĠfaĠguoĠ zhongĠ
ĠshiĠwuĠkeĠ lanĠxiĠ
R O
Ġ diĠzhiĠ
Ġ buĠyiĠ
Ġ 1953ĠnianĠ
ĠĠĠ shanĠ
xin ĠweiĠ
lu ĠbuĠ
ru ĠqiĠ
che ĠyuĠ
ting ĠyiĠ
mao ĠsiĠ
ning ĠxiaĠ
seng Ġ
95 ĠnianĠ
ĠshiĠ haoĠ
ĠyiĠ shuoĠ
diĠ yaĠ
xiangĠ dang
shangĠ qianĠ
tongĠ lingĠ
pingĠ anĠ
haiĠ tanĠ
qingĠ bao
ĠfuĠ qinĠshiĠ
waiĠ xianĠ
ĠchuĠ ziĠ
ĠjieĠ jueĠ
songĠ jiangĠ
zuĠzhiĠ buĠ
ĠzhangĠ danĠquĠ
ĠnianĠ3ĠyueĠ 1ĠriĠ
ĠlianĠ saiĠ
liuĠxingĠ yinĠyueĠ
ĠxingĠzhengĠ yuanĠ
geĠlunĠ biĠya
luĠzhanĠ duiĠ
9 ĠpingĠfangĠgongĠliĠ
Ġ 1947
Ġ 1963ĠnianĠ
bi ĠweiĠ
zi ĠrenĠ
she ĠyiĠ
liang ĠbuĠfenĠ
nan ĠdiĠquĠ
tou ĠbaoĠ
pa ĠdeĠ
ĠzhiĠ suoĠzaiĠ
ĠnianĠ jinĠ
ĠyouĠ haoĠ
mingĠ que
changĠ xiaoĠ
jiaoĠ xiang
qianĠ jingĠ
meiĠ youĠyiĠ
meiĠ youĠjiĠ
bianĠ houĠ
tianĠ eĠ
laĠ dingĠyuĠ
waiĠ jiao
chuanĠ ran
lieĠ ning
chengĠweiĠ jiĠ
kaĠ cheĠ
tuoĠ puĠ
ĠyingĠ gaiĠ
ĠdeĠrenĠ kouĠweiĠ
ĠĠĠzhongĠ huaĠminĠguoĠ
ĠW Ġ
chengĠnianĠ renĠ
DV D
A A
s er
Ġ 33
Ġ 120
Ġ 1955
Ġ zhuĠrenĠ
li ĠjiĠ
ĠĠĠ 1945
ĠĠĠ Mar
ĠĠĠ Ba
ze ĠshiĠzaiĠ
70 ĠnianĠdaiĠ
99 ĠnianĠ
ĠshiĠ dongĠ
ĠyuĠ 2019
zhongĠ guoĠdeĠ
guoĠ min
gongĠ yanĠ
chuĠ xuanĠ
shouĠ ciĠzaiĠ
yingĠ quĠ
guanĠ shuiĠ
taiĠ shangĠ
danĠ ciĠ
ĠfuĠ lang
ĠfuĠ jiaĠ
ĠfuĠ yinĠ
zhouĠ quĠ
xuĠ gouĠ
zeĠ huiĠ
ĠbaoĠ faĠ
zaoĠ qi
daĠxueĠ jiaoĠshouĠ
ĠnianĠ9ĠyueĠ 1ĠriĠ
ĠĠĠC i
ĠduoĠ shuĠ
Ġbi ĠliĠshiĠ
peiĠyinĠ yuanĠ
bengĠ kuiĠ
ĠzhiĠluĠ houĠ
3 ĠciĠ
s k
Ġ siĠjiĠ
Ġ 1973ĠnianĠ
ĠĠĠ wanĠliĠ
yan ĠyouĠ
bao ĠzaiĠ
huo ĠbuĠ
ba ĠrenĠ
lei ĠdiĠ
nei ĠweiĠ
shao ĠxingĠ
kua ĠguoĠ
ĠyuĠ 2016
qiĠ tiĠ
jieĠ riĠ
beiĠ huiĠ
shangĠ cengĠ
xueĠ jieĠ
fenĠ shouĠ
nanĠ changĠ
qingĠ chenĠ
banĠ changĠ
shenĠ cha
teĠ sheĠ
cheĠ tui
ĠzhuĠ daĠ
ĠgaiĠ xiaoĠ
zaoĠ leĠ
Ġãĥ Ī
jianĠchaĠ yuĠshiĠ
M L
Ġ 1975
Ġ renĠshiĠ
Ġ jiaĠzhiĠ
Ġ jiaĠshiĠ
Ġ 1942ĠnianĠ
ĠĠĠ yanĠjiuĠ
yue ĠqiĠ
guan ĠbuĠ
dian ĠyiĠ
xia ĠdiĠ
fei ĠheĠ
tan ĠshiĠ
shuo ĠdaoĠ
63 Ġ
ĠdeĠ daĠ
erĠ geĠ
fuĠ shanĠ
chengĠ nuo
beiĠ jingĠdeĠ
ciĠ changĠ
yeĠ jieĠ
xinĠ geĠ
yongĠ chiĠ
banĠ kuaiĠ
cheĠ huoĠ
fanĠ shouĠ
liuĠ ruĠ
menĠ jiangĠ
puĠ jingĠ
gangĠ xianĠ
zhuanĠ lanĠ
zhaoĠ pian
hangĠ yunĠ
ĠshenĠ zhenĠ
ĠĠĠyiĠ banĠ
ĠaĠ boĠ
yanĠjiu ĠrenĠyuanĠ
boĠwuĠ yuanĠ
jieĠmu ĠzhongĠ
canĠmou ĠbuĠ
ĠĠĠhouĠ xuĠ
2 ĠxianĠ
6 000
m b
u a
Ġ rong
zai ĠĠĠ
zi ĠyueĠ
ci ĠqiĠ
gu ĠkeĠ
bao ĠguoĠ
zhen ĠyiĠ
tian ĠzaiĠ
tian ĠzhongĠ
shuo ĠtaĠ
74 ĠnianĠ
ĠyuĠ 2018
qiĠ zhongĠyiĠgeĠ
ĠzaiĠ dangĠshiĠ
gongĠ pingĠ
shengĠ zhangĠzaiĠ
xianĠ leĠ
shuĠ linĠ
dongĠ zhengĠ
tongĠ riĠ
ĠdaĠ naĠ
qianĠ miĠrenĠ
haiĠ huiĠ
zhenĠ jingĠ
dingĠ baoĠ
maĠ saĠzhuĠsaiĠ
diĠyiĠ piĠ
Ġtong ĠshiĠzaiĠ
youĠyiĠ mingĠ
leĠyiĠ xiangĠ
ĠyinĠweiĠ taĠmenĠ
Ġ1 ĠgeĠ
ĠĠĠF or
Ġrang ĠtaĠ
guangĠxiĠ zhuangĠ
O K
Ġ zhengĠdeĠ
Ġ 1930ĠnianĠ
ĠĠĠ tongĠshiĠ
ĠĠĠ jingĠguoĠ
le yĠ
lin ĠdiĠ
lie ĠrenĠ
ĠshiĠ jiĠshiĠ
ĠzhiĠ qiuĠduiĠ
guoĠ jiaĠjiĠ
diĠ renĠ
daĠ suanĠ
xingĠ faĠ
xueĠ sheng
yanĠ hai
huaĠ zuoĠ
haiĠ meiĠyouĠ
anĠ quanĠdeĠ
luoĠ muĠ
yangĠ chengĠ
liuĠ shouĠ
puĠ bian
ĠxianĠ changĠ
ĠpingĠ jieĠ
huanĠ jingĠdeĠ
kongĠ jiangĠ
keĠyiĠ zhuiĠsuĠdaoĠ
ĠshiĠjieĠ rangĠ
yiĠshiĠ zaiĠ
songĠ wangĠ
ĠsuiĠ houĠzaiĠ
ĠxinĠ jiangĠ
ĠdeĠdiĠ xiaĠ
ĠjingĠ yingĠ
ĠtongĠ chengĠ
ĠnianĠ12ĠyueĠ 28ĠriĠ
ĠzhanĠ douĠ
Ġ19 12ĠnianĠ
qunĠ dao
ĠzhongĠyangĠ junĠweiĠ
ĠT a
mingĠziĠ mingĠmingĠ
ĠjiĠbaiĠ leĠ
ĠerĠrenĠkouĠmiĠduĠweiĠmeiĠpingĠfangĠ qianĠmiĠrenĠ
gaoĠdengĠ faĠyuanĠ
Ġ shan
ĠĠĠ suoĠyouĠ
ma ĠxiĠ
ka ĠheĠ
qiang ĠjieĠ
shuai ĠluoĠ
ĠdeĠ guiĠdaoĠ
ĠyuĠ 2020
ĠyuĠ 2013
ĠliĠ yuanĠ
ĠliĠ fangĠ
fuĠ chengĠ
jianĠ xiĠ
huiĠ yiĠdeĠ
chuĠ qiĠdeĠ
zhengĠ xuanĠ
zuoĠ yong
zheĠ liangĠ
daiĠ shangĠ
tuĠ po
guiĠ shuĠ
meiĠguoĠ heĠ
zhuanĠ touĠ
ĠmeiĠ junĠ
riĠben ĠdiĠguoĠ
ĠneiĠ rong
dongĠliĠ xueĠ
Faceboo k
Ġ 1942
ĠĠĠ neiĠ
jiang ĠbuĠ
dian ĠshiĠjiĠ
ding ĠjiaĠ
hao ĠbuĠ
pang ĠdaĠ
pang ĠbianĠ
56 Ġ
diĠ mingĠ
ĠzaiĠ meiĠ
ĠrenĠ chengĠ
jiaĠ zuĠdeĠ
jieĠ shu
zhengĠ quan
ciĠ houĠ
xuanĠ lvĠ
dangĠ zhuĠ
guiĠ leiĠweiĠ
ĠgeĠ ziĠ
ĠtaiĠ leiĠ
Ġ19 13ĠnianĠ
jinĠruĠ leĠ
xingĠchengĠ leĠ
faĠdianĠ changĠ
jiangĠxueĠ jinĠ
8 3ĠnianĠ
Ġ ãĦ
ĠĠĠ lanĠ
ĠĠĠ xueĠxiaoĠ
ĠĠĠ danĠshiĠ
zhan ĠĠĠ
huo ĠyueĠyuĠ
hai ĠzhongĠ
shen ĠdaĠ
lin ĠliĠ
55 Ġ
deĠ yiĠ
ĠdeĠ xiĠ
zhongĠ qiĠ
gongĠ chiĠ
jiaĠ diĠ
huiĠ guĠ
chuĠ jiaĠ
shouĠ dao
xiaoĠ wuĠ
shenĠ mingĠ
dengĠ renĠdeĠ
menĠ waiĠ
ĠchuĠ yanĠ
jingĠjiĠ heĠ
henĠ shao
daĠxueĠ shengĠ
ĠlingĠ daoĠ
kongĠzhiĠ qiĠ
xueĠzheĠ renĠweiĠ
ĠriĠqiĠ yongĠ
lianĠheĠguoĠ jiaoĠkeĠwenĠ
Ġ2011ĠnianĠ renĠkouĠ
juĠleĠ buĠdeĠ
Ġ 1956
Ġ zaoĠnianĠ
ĠĠĠ hong
ĠĠĠ zuoĠpinĠ
ci ĠshiĠjianĠ
zhou ĠdaĠ
tian ĠyouĠ
feng ĠxingĠqiĠ
cai ĠyiĠ
pei ĠerĠ
nie ĠciĠkeĠ
51 Ġ
ĠjiĠ dongĠ
heĠ nanĠshengĠ
buĠ bingĠ
ĠrenĠ quanĠ
wuĠ jiangĠ
jinĠ miĠ
huaĠ nanĠ
qingĠ laiĠ
biĠ shuĠ
ĠfuĠ fuĠ
xieĠ xinĠ
liuĠ yanĠ
tuĠ muĠ
niĠ aoĠ
ĠzhuĠ geĠ
zhuanĠ ruĠ
aiĠ zhengĠ
erĠshiĠ erĠnianĠ
ĠwenĠ jianĠ
Ġceng ĠweiĠ
Ġwan ĠnianĠ
guoĠliĠ taiĠwan
guanĠli ĠweiĠyuanĠhuiĠ
k erĠ
l or
t onĠ
Ġ ×
ou ĠerĠ
ĠĠĠ dang
ĠĠĠ 1998
yue ĠyuĠ
ke ĠĠĠ
mi ĠyuĠ
luo ĠweiĠqiĠ
la ĠqiĠ
huan ĠheĠ
pin ĠheĠ
fou ĠdingĠ
ĠliĠ mingĠ
gongĠ touĠ
geĠ zhouĠ
jianĠ ruoĠ
ĠguoĠ xiaoĠ
zhuĠ zha
shengĠ pingĠ
huiĠ gui
ĠdiĠ buĠ
huaĠ bingĠ
huaĠ naĠ
xinĠ chengĠliĠdeĠ
ĠkeĠ laĠkeĠ
suĠ xiangĠ
suĠ lvĠ
ĠzhuĠ changĠ
ĠdeĠshiĠ yeĠ
ĠdongĠ haiĠ
nvĠ zuoĠ
ĠboĠ wuĠguanĠ
ĠquanĠ chengĠ
junĠshiĠ xingĠdongĠ
ĠgaoĠ xiong
ĠweiĠyuĠgaiĠguoĠ dongĠbeiĠbuĠ
Ġ193 2ĠnianĠ
chuangĠliĠ leĠ
ĠjinĠbiaoĠ saiĠ
Ġ Sta
Ġ diĠliĠ
Ġ zanĠ
Ġ 1939ĠnianĠ
zun ĠxunĠ
the ĠĠĠ
ĠshiĠ qingĠ
ĠzaiĠ siĠ
faĠ lanĠ
tongĠ leiĠ
liangĠ duanĠ
meiĠ youĠdeĠ
miĠ teĠliĠ
xieĠ tongĠ
suoĠ you
tianĠ kongĠ
guĠ piaoĠ
fanĠ rongĠ
ĠdeĠyiĠ xiĠlieĠ
tuĠ rang
aiĠ lunĠ
ĠshengĠ muĠ
piĠ jiuĠ
ĠdangĠ xuanĠweiĠ
ĠnianĠ2ĠyueĠ 24ĠriĠ
ĠĠĠC en
yinĠduĠ niĠxiĠyaĠ
sunĠ huaiĠ
puĠchaĠ guiĠdingĠ
5 ĠgongĠfenĠ
Ġ zhu
Ġ jiaĠyiĠ
Ġ zhuoĠ
Ġ 1961ĠnianĠ
Ġ 1957ĠnianĠ
ĠĠĠ xianĠdaiĠ
wei ĠyiĠzhiĠ
xiang ĠguoĠ
yan ĠbuĠ
she ĠrenĠ
bai ĠliĠ
nuo ĠweiĠqiĠ
pao ĠdanĠ
ĠyiĠ mianĠ
ĠweiĠ baoĠ
ĠjiĠ jiangĠ
ĠyuĠ 2024
ĠyuĠ mingĠ
Ġli ĠshiĠjianĠzhuĠ
daĠ poĠ
erĠ buĠ
leĠ duoĠ
daiĠ xiaoĠxingĠxingĠ
duoĠ mianĠtiĠ
shanĠ beiĠ
caiĠ jingĠ
kuoĠ sanĠ
Ġxian ĠyouĠ
fangĠmianĠ junĠ
Ġmo ĠliĠ
ĠgeĠlunĠ biĠyaĠ
2 30
5 ĠzhiĠ
7 1ĠnianĠ
D A
V IDĠ
Ġ fo
Ġ chanĠshengĠ
Ġ minĠzuĠ
duo ĠkeĠ
pu ĠyiĠ
chong ĠqiĠ
88 ĠnianĠ
85 ĠnianĠ
ĠyuĠ xianĠ
youĠ qiĠ
ĠheĠ geĠ
ĠheĠ liuĠyuĠ
daĠ liang
yuanĠ qiĠ
jieĠ ciĠ
jinĠ xianĠ
ĠerĠ zhanĠ
juĠ zhuĠdeĠ
shouĠ quĠ
leĠ beiĠ
yanĠ huiĠ
biĠ fenĠ
boĠ lin
ĠdanĠ yeĠyouĠ
ĠyiĠjiĠ zhiĠ
qinĠ shuĠ
tieĠ cheĠzhanĠ
canĠ baiĠ
Ġyou ĠyiĠgeĠ
mianĠjiĠ yueĠ
xiuĠ yangĠ
genĠ zhouĠ
ĠdengĠ jinĠshiĠ
ĠĠĠshengĠ taiĠ
jieĠjueĠ fangĠanĠ
Ġlin ĠjinĠ
tuiĠyiĠ houĠ
ĠxiĠtong ĠzhongĠ
aoĠdi ĠliĠdeĠ
kenĠtaĠjiĠ zhouĠ
Ġ tieĠluĠ
Ġ nongĠyeĠ
ĠĠĠ suiĠzheĠ
le ĠyiĠzhiĠ
dong ĠdiĠquĠ
xia ĠyiĠgeĠ
la ĠdaĠ
su ĠdiĠ
gan ĠzhiĠ
66 Ġ
54 Ġ
ly ĠĠĠ
ĠyuĠ 2012
buĠ lieĠtaĠ
ĠzaiĠ zheĠgeĠ
daĠ duiĠ
yuanĠ wangĠ
ziĠ junĠ
shangĠ kongĠ
pingĠ heng
shenĠ xinĠ
dingĠ xiangĠ
zongĠ buĠweiĠyuĠ
dangĠ qianĠ
ĠdeĠyiĠ tiao
chuanĠ songĠ
ĠbeiĠ geĠ
guiĠ ding
ĠdeĠshiĠ changĠ
ĠgaiĠ zhuang
shaĠ laĠ
chenĠ shuĠ
tuiĠ chiĠ
queĠ dianĠ
erĠshiĠ siĠ
haĠ maĠ
ĠdeĠrenĠ heĠ
zaoĠchengĠ leĠ
Ġ14 0
xiaĠjiĠ aoĠyunĠhuiĠ
geĠliĠ guanĠ
ĠweiĠyuĠgaiĠguoĠ xiĠnanĠbuĠ
Ġkang ĠriĠ
ĠzhongĠhuaĠ minĠ
waiĠweiĠ saiĠ
PlaySta tion
Ġcen terĠ
5 ĠhaoĠmiĠ
7 3ĠnianĠ
q Ġ
Ġ zhan
ĠĠĠ guoĠjiaĠduiĠ
gao ĠjiĠzhongĠxueĠ
lan ĠsiĠ
lie ĠyuĠ
ran ĠshiĠ
el Ġ
ki Ġ
ĠyiĠ ge
ĠyiĠ tuĠ
ĠjiĠ suĠ
ĠrenĠ dingĠ
fuĠ yuanĠ
jiaĠ zhiĠdeĠ
daoĠ shuĠ
shouĠ ru
zhanĠ gongĠ
baoĠ jianĠ
qingĠ xiangĠyuĠ
meiĠ guiĠ
sheĠ youĠyiĠ
dingĠ yiĠdeĠ
moĠ huĠ
ĠshiĠshiĠ houĠ
chuangĠ xiaĠ
yanĠjiuĠ zheĠ
Ġer ĠweiĠ
Ġzhe ĠweiĠ
caoĠ zongĠ
zaiĠyiĠ daĠliĠ
zuĠqiuĠ xieĠhuiĠ
Ġgai ĠguoĠ
Ġãĥ «
lianĠbangĠ zhengĠfuĠ
ziĠran ĠbaoĠhuĠ
ĠyiĠmeiĠ yuanĠdeĠ
Ġ 44
Ġ hĠ
ĠĠĠ chongĠ
dou ĠdeĠ
cun ĠyiĠ
qin ĠjiaĠ
60 ĠnianĠdaiĠ
ĠshiĠ nanĠ
ĠyiĠ benĠ
ĠjiĠ tiĠ
ĠjiĠ longĠ
ĠzhongĠ shenĠ
fuĠ zongĠtongĠ
jieĠ zouĠ
daoĠ zhiĠdeĠ
jinĠ duĠ
junĠ wuĠ
xieĠ ziĠ
maĠ yaĠ
huanĠ quĠ
Ġdan ĠdeĠ
keĠyiĠ beiĠ
ĠshengĠ chuĠ
kaoĠ zhengĠ
haĠ saĠkeĠ
ĠquanĠ xianĠ
ĠyiĠliĠ shaĠbaiĠ
1ĠhaoĠ xianĠ
Ġdi ĠshiĠyiĠ
M C
T E
Ġ cunĠzaiĠ
Ġ paoĠ
Ġ 24Ġ
Ġ 1965ĠnianĠ
ao ĠliĠ
shu ĠguoĠ
ci ĠnianĠ
yin ĠzhongĠ
xie ĠliĠ
tou ĠzhiĠ
huang ĠdeĠ
50 ĠwanĠ
diĠ fuĠ
Ġyue ĠĠĠ
jianĠ qiĠ
jiaoĠ huĠ
danĠ weiĠdeĠ
ĠxingĠ buĠ
quanĠ ziĠ
quanĠ xinĠdeĠ
ĠbingĠ tongĠguoĠ
paiĠ ziĠ
ĠziĠ yangĠ
puĠ xianĠ
ĠchuĠ shouĠ
ĠwuĠ daoĠ
ĠzhongĠguoĠ gongĠ
taoĠ tuoĠ
daiĠbiaoĠ zuoĠ
ĠC ar
ĠluoĠ boĠteĠ
ĠĠĠyiĠ geĠ
ĠchengĠweiĠ leĠ
ĠcengĠ danĠrenĠ
huiĠfuĠ zhuĠrenĠ
aoĠsiĠ ka
zhanĠlingĠ leĠ
mingĠniĠsuĠdaĠ zhouĠ
puĠchaĠguiĠdingĠ juĠminĠdianĠ
Ġ cheng
Ġ zhunĠ
Ġ xiaĠjiĠ
Ġ huanĠjingĠ
Ġ heĠjiĠ
Ġ pĠ
bu ĠshiĠyiĠ
bing ĠyouĠ
gui ĠyiĠ
shui ĠguoĠ
12 ĠrenĠ
chen ĠyuĠ
cuo ĠdeĠ
ĠyouĠ sanĠ
ĠbuĠ shao
yanĠ shuoĠ
jiaoĠ shou
xiaoĠ mieĠ
xiaĠ xingĠ
banĠ xueĠ
duoĠ luoĠ
suoĠ zhuĠ
xuanĠ xiangĠ
laĠ tuo
ĠshiĠdeĠ guoĠdeĠ
kongĠ tiaoĠ
henĠ gaoĠ
sheĠhuiĠ keĠxueĠ
ĠqingĠ qiuĠ
hengĠ xingĠdeĠ
daoĠshiĠ zhanĠtaiĠ
ĠkongĠ tai
Ġpei ĠheĠ
lingĠxianĠ zhuĠyanĠ
ĠliĠxinĠ lvĠweiĠ0
ĠweiĠreĠdaiĠ danĠshuiĠyuĠ
ĠĠĠxiaĠshuĠ wuĠzhongĠ
2 ĠzhiĠ
B O
e b
Ġ zhuang
Ġ xuanĠjuĠ
Ġ qingĠnianĠ
Ġ bianĠjiĠ
Ġ lunĠdun
yuan ĠshiĠdeĠ
ci en
yan ĠzaiĠ
jiang ĠdaĠxueĠ
ya ĠweiĠ
zhou ĠerĠ
ben ĠyuĠ
deng ĠzaiĠ
zhen ĠshiĠdeĠ
00 ĠwanĠ
wo ĠfuĠ
53 Ġ
86 ĠnianĠ
ĠliĠ chaĠ
diĠ 1Ġ
ĠheĠ shengĠ
ĠbuĠ juĠ
faĠ songĠ
faĠ xiĠsiĠ
fangĠ sheĠ
baoĠ jiaĠliĠyaĠ
pingĠ fanĠ
ĠxingĠ chengĠdeĠ
jiuĠ geĠ
zhenĠ tanĠ
dengĠ wenĠtiĠ
quanĠ wanĠ
fengĠ huangĠ
hanĠ guoĠdeĠ
ĠchuĠ kouĠ
ĠgaiĠ pian
chaoĠ guoĠyiĠ
yueĠ duiĠ
ĠnanĠ feiĠ
yingĠguoĠ huangĠjiaĠ
heiĠ anĠ
ĠnianĠ5ĠyueĠ 1ĠriĠ
ĠfengĠ baoĠ
Ġba ĠerĠ
ĠzheĠshiĠ yinĠweiĠ
xiaĠdeĠyiĠgeĠ shuĠ
nveĠ daiĠ
e ĠsiĠ
h y
Ġ buĠdeĠ
ĠĠĠ Ja
ĠĠĠ Ho
ĠĠĠ teĠ
he ĠshiĠyongĠ
ye ĠweiĠqiĠ
lu ĠguoĠ
la ĠyiĠ
liu ĠriĠ
lv ĠyuĠ
huang ĠdaoĠ
100 ĠwanĠ
72 ĠnianĠ
ĠjiĠ yaĠ
ĠzaiĠ zhe
ĠrenĠ men
yuanĠ linĠ
jieĠ chuĠdeĠ
ĠqiĠ xingĠ
jinĠ ziĠ
riĠ neiĠ
ĠxiĠ xianĠ
zheĠ liangĠgeĠ
meiĠ tongĠpaiĠ
guĠ dingĠdeĠ
feiĠ chuanĠ
feiĠ jiĠdeĠ
puĠ saĠ
shuiĠ quĠ
tuoĠ xieĠ
jingĠjiĠ gongĠsiĠ
ĠjiuĠ huiĠ
ĠaĠ genĠ
ĠmianĠjiĠ 1Ġ
ĠxuanĠ zeĠ
Ġgu ĠliĠ
ĠhaiĠbaĠgaoĠduĠ 2Ġ
ĠrenĠkou ĠweiĠrenĠ
ĠmeiĠnianĠ pingĠjunĠ
heiĠlongĠjiangĠ shengĠ
R E
Ġ wuĠnianĠ
Ġ lieĠche
shang ĠerĠ
wan ĠheĠ
zhen ĠzaiĠ
dou ĠweiĠ
tiao ĠdeĠ
chen ĠxingĠ
ĠdeĠ mingĠ
ĠdeĠ shuoĠfaĠ
ĠyuĠ fuĠ
ĠyouĠ geĠ
jianĠ zhuĠdeĠ
ĠbuĠ xiĠ
chengĠ cheĠ
zhuĠ keĠ
shengĠ biĠdeĠ
jinĠ lingĠ
zhengĠ ceĠdeĠ
leĠ sanĠ
tongĠ guoĠyiĠ
luĠ quĠ
wenĠ dingĠxingĠ
jiangĠ yuanĠ
ĠsiĠ wang
ĠjiaĠ suĠ
banĠ daoĠdeĠ
liangĠ changĠ
jiuĠ kaiĠshiĠ
ĠtaĠ huiĠ
tuĠ pianĠ
mianĠ jiĠdeĠ
duanĠ cengĠ
pinĠ pai
ĠhouĠ laiĠdeĠ
chaoĠ xian
tieĠ muĠerĠ
nianĠ daiĠweiĠ
diĠshiĠ siĠ
chengĠrenĠ youĠxiĠ
zuiĠgaoĠ dianĠweiĠ
faĠbiaoĠ shengĠmingĠ
Ġpo ĠshiĠ
maĠkeĠsiĠ zhuĠyiĠ
zhuĠlongĠ caoĠ
9 3ĠnianĠ
H a
ou nd
ĠĠĠ xuĠduoĠ
ban ĠweiĠ
shen ĠzhongĠ
san ĠyiĠ
pu ĠshiĠ
10 ĠmiĠ
ce ĠxianĠ
chan ĠzhiĠ
rong ĠxingĠ
tie ĠdaĠniĠ
hang ĠdeĠ
kun ĠjingĠ
79 ĠnianĠ
ĠheĠ tongĠ
xingĠ bie
geĠ wuĠ
zhuĠ ziĠ
beiĠ xiĠ
ziĠ jianĠ
huiĠ zhanĠ
quĠ xiangĠ
shouĠ zhouĠ
xiaoĠ mingĠ
danĠ niĠerĠ
zuĠ muĠ
minĠ suĠ
maĠ shangĠ
mianĠ baoĠ
guangĠ mingĠ
linĠ yeĠ
ceĠ suoĠ
manĠ lianĠ
yiĠshiĠ zhiĠ
peiĠ tongĠ
youĠyiĠ weiĠ
yingĠxiangĠ leĠ
quanĠguoĠ renĠdaĠdaiĠbiaoĠ
xiaoĠxingĠ xingĠyuĠ
Ġma ĠliĠyaĠ
anĠdeĠ erĠ
ĠguiĠ huaĠ
ĠN o
ĠU ni
ĠshiĠwuĠkeĠ lan
guanĠcha ĠdaoĠ
T AĠ
ĠĠĠ Po
ĠĠĠ riĠben
ren ĠĠĠ
di ĠshiĠwuĠ
er ĠshiĠqiĠ
wan ĠzhiĠ
sha ĠerĠ
tao ĠdaoĠ
rou ĠdaoĠ
78 ĠnianĠ
61 Ġ
ĠshiĠ luoĠmaĠ
ĠyiĠ zhaoĠ
ĠzhiĠ li
Ġli ĠĠĠ
gongĠ yuanĠdeĠ
keĠ chuanĠ
jinĠ guanĠ
ĠdiĠ heĠ
zhengĠ que
leĠ daĠliangĠ
huaĠ jieĠ
tiĠ siĠ
xieĠ xiaĠ
teĠ quanĠ
caiĠ gouĠ
ĠxiangĠ guanĠdeĠ
ĠjuĠ shuoĠ
huanĠ jing
chongĠ dangĠ
aiĠ saiĠeĠ
Ġ19 29ĠnianĠ
yinĠyueĠ jieĠ
Ġãĥ ©
ĠxiĠbeiĠ jieĠ
daĠjiangĠ saiĠ
raoĠtaiĠyangĠ yunĠ
banĠzhangĠ zhouĠweiĠ
6 ĠĠĠ
7 1Ġ
H i
g g
Ġ chouĠ
Ġ qiĠweiĠ
ĠĠĠ dan
lai ĠdaĠ
ling ĠyiĠweiĠ
lie ĠriĠ
kan ĠtaiĠ
kuai ĠjiĠ
Ġli ĠshiĠshiĠ
ĠyouĠ zhuĠyuĠ
ĠrenĠ daĠ
chengĠ diĠ
yingĠ dangĠ
zuoĠ chengĠ
zuĠ aiĠ
anĠ suanĠ
benĠ haiĠ
xuĠ muĠ
xuanĠ buĠyuĠ
baĠ qianĠ
ĠgaiĠ xiaoĠxingĠxingĠyuĠ
congĠ shuĠ
tuiĠ guang
piaoĠ lvĠ
ĠbianĠ juĠ
youĠjiĠ huaĠheĠwuĠ
Ġma ĠkeĠsiĠ
xiaĠjiĠ aoĠlinĠpiĠkeĠyunĠdongĠ
fenĠbie ĠzaiĠ
Ġda ĠzhiĠ
pangĠ daĠdeĠ
taoĠtaiĠ saiĠ
changĠwu ĠweiĠyuanĠhuiĠ
fangĠdiĠ chanĠ
9 ĠyueĠzhiĠ
T a
c c
Ġ chuan
Ġ cuĠjinĠ
Ġ 1943ĠnianĠ
yan ĠguoĠ
jun ĠliĠ
su ĠxingĠ
21 ĠshiĠjiĠ
at Ġ
ĠyiĠ lang
jinĠ xingĠshiĠ
ĠxiĠ keĠ
ĠxiĠ boĠ
shouĠ ci
fangĠ xiang
ciĠ huiĠyiĠ
zheĠ yang
jiangĠ luoĠ
liangĠ beiĠ
ĠfuĠ qiĠ
lianĠ huanĠ
benĠ zuoĠ
quanĠ huiĠ
ĠshiĠyiĠ kuan
linĠ chuangĠ
ĠgeĠ diĠ
cengĠ ciĠ
tangĠ daiĠ
ĠshiĠjianĠ jieĠ
tuoĠ baĠ
songĠ huiĠ
sĠĠĠ C
ĠliuĠ jingĠ
cangĠ kuĠ
ĠhanĠ gaiĠ
xiangĠgang ĠdaoĠ
ĠhaiĠbaĠgaoĠduĠ 1Ġ
ĠweiĠyuĠfaĠguoĠ xinĠaĠjiĠtan
ĠjiaĠruĠ leĠ
foĠ jiao
ĠshiĠyiĠkeĠ raoĠtaiĠyangĠyunĠ
Ġge ĠnianĠ
ĠJo hn
ĠhuaĠshengĠ dun
ĠtaiĠpingĠ yangĠ
ĠshiĠxingĠdengĠweiĠ 6
ĠĠĠguiĠdaoĠ canĠshuĠ
ĠshiĠyiĠkeĠraoĠtaiĠyangĠyunĠ zhuanĠdeĠxiaoĠxingĠxingĠ
9 2Ġ
t ĠdeĠ
ĠĠĠ 1999
ĠĠĠ yingĠyongĠ
chi ĠheĠ
bai ĠdaĠ
xun ĠdaoĠ
hang ĠyuanĠ
tao ĠdeĠ
cang ĠshuĠ
sou ĠjiĠ
va Ġ
renĠ shuĠ
yuanĠ zuoĠ
daoĠ xiĠ
tongĠ hangĠ
guanĠ quĠ
minĠ zuĠdeĠ
jiuĠ chengĠ
ĠgongĠ jinĠjiĠ
niĠ yaĠyuĠ
ĠjuĠ changĠ
aĠ leiĠ
ĠmeiĠ tianĠ
ĠtongĠ jinĠshiĠchuĠshenĠ
erĠshiĠ tingĠ
faĠzhanĠ chuĠ
ĠĠĠC or
ĠwoĠ menĠdeĠ
zengĠjiaĠ daoĠ
ruiĠ dian
ĠweiĠzhuĠ xiaoĠxingĠxingĠ
laĠheĠ maĠ
sheĠjiaoĠ meiĠtiĠ
cri tic
junĠshiĠtanĠdingĠ baoĠ
ĠkongĠtai ĠdaĠquĠ
ĠweiĠzhuĠxiaoĠxingĠxingĠ daiĠxiaoĠxingĠxingĠ
7 3Ġ
Ġ lang
Ġ kaĠsiĠ
Ġ 1967ĠnianĠ
ĠĠĠ canĠkao
ri con
huo ĠdeĠyiĠmeiĠ
wan ĠjiĠ
pi ĠliĠ
na meĠ
dou ĠshiĠyouĠ
zhao ĠdaoĠleĠ
ka ĠshiĠ
peng ĠjiĠ
nai ĠchuanĠ
87 ĠnianĠ
ĠshiĠ yuanĠ
ĠyiĠ gangĠyuanĠ
ĠweiĠ buĠ
ĠnianĠ qing
daĠ huoĠ
fuĠ nv
siĠ quĠ
beiĠ quĠ
xueĠ fuĠ
huaĠ wuĠ
shenĠ pan
ĠfuĠ sheĠ
lianĠ huiĠ
anĠ dingĠ
benĠ shenĠdeĠ
ĠtaĠ ceng
bianĠ qianĠ
xuanĠ xiu
caiĠ yongĠdeĠ
ĠyinĠ suĠ
Ġta ĠrenĠ
duanĠ zanĠ
ĠfaĠ dongĠ
yiĠshiĠ yuĠ
Ġjin ĠyouĠ
jieĠshiĠ leĠ
Ġda ĠjiĠ
gaiĠbianĠ ziĠ
kaĠerĠ waĠ
xianĠdeĠyiĠgeĠ zhenĠquĠ
ĠliaoĠ ning
neiĠmengĠguĠ ziĠzhiĠquĠ
ĠshiĠwuĠkeĠlanĠdeĠ cunĠluoĠ
4 ĠliĠ
9 ĠgongĠliĠ
Ġ duan
ĠĠĠ ruo
ĠĠĠ Ar
zheng ĠdiĠ
mi ĠheĠ
qu ĠqiĠ
hai ĠrenĠ
te ĠdiĠ
xuan ĠzhiĠ
hao ĠdiĠ
lv ĠbingĠ
huan ĠbingĠ
th i
jiaĠ gongĠ
beiĠ dongĠ
ĠqiĠ shouĠ
faĠ fangĠ
tongĠ huoĠ
zheĠ ge
xiaĠ guĠ
benĠ shen
ĠbeiĠ haiĠ
tingĠ kao
queĠ ding
ĠdeĠdiĠ siĠ
zuĠzhiĠ jiĠ
ĠluĠ junĠ
yinĠyueĠ juĠ
ĠĠĠC hi
ĠshiĠweiĠyuĠ meiĠguoĠyiĠliĠnuoĠyiĠ
Ġa lignĠ
yaĠliĠ sangĠnaĠ
ĠĠĠdiĠ mingĠ
ĠĠĠjiaĠ jingĠ
ĠzhuanĠ menĠ
ganĠsuĠ shengĠ
m sĠ
p hi
Ġ Ga
Ġ 1959
Ġ heĠliĠ
Ġ 1944ĠnianĠ
ĠĠĠ To
ĠĠĠ daiĠ
ĠĠĠ 1997ĠnianĠ
ci ĠerĠ
chou ĠwenĠ
77 Ġ
ĠzaiĠ yingĠ
gongĠ xueĠ
chengĠ neiĠ
ziĠ keĠ
ĠqiĠ muĠ
chuĠ mingĠ
juĠ fuĠ
quĠ jingĠ
shouĠ jiaoĠ
yanĠ chuĠdeĠ
changĠ tuĠ
bingĠ tuan
zhangĠ huĠ
biĠ jinĠ
zhouĠ houĠ
benĠ haĠ
fengĠ ciĠ
sanĠ baiĠ
lieĠ wuĠ
ĠwuĠ yuanĠ
ĠmianĠjiĠ 1
pingĠjunĠ shuiĠpingĠ
ĠminĠ jianĠ
guiĠmoĠ zuiĠdaĠdeĠ
ĠĠĠU AĠ
Ġcan ĠjianĠ
biĠliĠniuĠsiĠ shengĠ
Ġ chuĠqiĠ
Ġ kaoĠjinĠ
Ġ pingĠguoĠ
yu ĠshiĠjianĠ
zhi ĠshiĠjianĠ
ta critic
lin ĠguoĠ
lun ĠziĠ
chou ĠqianĠ
nai ĠdeĠ
ĠzhongĠ shan
daĠ zhanĠ
wuĠ duanĠ
jiaĠ ting
jinĠ liangĠ
yanĠ xingĠ
wangĠ zhuĠ
muĠ lanĠ
meiĠ zhouĠdeĠ
boĠ mingĠ
boĠ kuanĠ
zhuanĠ tiĠ
congĠ ciĠ
ĠshiĠjiĠ shangĠshiĠ
ĠshengĠ jingĠ
diaoĠ leĠ
ĠsuiĠ jiĠyiĠ
waĠ jueĠ
ĠtiĠ gaoĠ
ĠtianĠ zhuĠjiaoĠ
tieĠluĠ xianĠ
youĠjiĠ huiĠ
ouĠzhouĠ guanĠjunĠ
ĠchongĠ zhenĠ
wenĠhua ĠheĠ
ĠĠĠK i
rengĠran ĠshiĠ
ĠzhiĠzaoĠ shangĠ
Ġ 89
Ġ 1969
li ĠqiĠ
bing ĠerĠ
yao ĠjiĠ
che ĠzhiĠ
bai ĠerĠ
die ĠdeĠ
97 ĠnianĠ
ĠweiĠ jieĠ
ĠzhiĠ zeĠ
daĠ shangĠ
gongĠ zhengĠ
fuĠ wu
daoĠ jiaoĠ
beiĠ guanĠ
beiĠ guanĠjunĠ
ziĠ xiĠ
changĠ chun
fenĠ nuĠ
ĠsiĠ xingĠ
zhangĠ jieĠ
ĠtaĠ keĠ
ĠtaĠ xiangĠ
suoĠ waĠ
tuĠ sha
tuĠ rangĠ
guangĠ chang
gangĠ taiĠ
ĠjingĠ shenĠ
ĠbenĠ ciĠ
ĠbianĠ chengĠ
Ġhuo ĠerĠ
ĠĠĠG o
Ġjiu ĠzaiĠ
ĠqiĠta ĠrenĠ
DV DĠ
minĠzhuĠzhuĠyiĠ renĠminĠ
8 2ĠnianĠ
A ĠdeĠ
C E
Ġ ying
Ġ rao
Ġ jueĠseĠ
Ġ colorĠ
yu ĠshiĠyongĠ
yuan ĠyiĠjiĠ
te ĠkeĠ
nei ĠerĠ
200 ĠmiĠ
meng ĠjiaĠla
pan ĠxingĠ
mou ĠyiĠ
ĠrenĠ keĠ
beiĠ shouĠyuĠ
chuĠ seĠ
tongĠ luoĠ
wenĠ niĠ
ĠsiĠ yuanĠ
danĠ xingĠ
qingĠ junĠ
leiĠ dongĠwuĠ
ĠshiĠyiĠ yiĠ
douĠ yaoĠ
zhaoĠ shouĠ
ĠrenĠkouĠ puĠ
ĠyingĠ xiongĠ
ĠshiĠzhenĠ mianĠjiĠweiĠ
ĠbenĠ pianĠ
ĠsuoĠ youĠdeĠ
baoĠdaoĠ chengĠ
Ġte xtĠ
kaĠerĠwaĠ duoĠsiĠ
8 3Ġ
u d
Ġ 67
Ġ zhuĠyiĠ
Ġ yanĠzhongĠ
li ĠchengĠ
ĠĠĠ yaoĠ
qi ĠĠĠ
ban ĠyiĠ
lei ĠzhiĠ
th o
49 Ġ
1920 ĠnianĠdaiĠ
ĠweiĠ xiĠ
ĠyuĠ 2014
ĠyuĠ gaoĠ
daoĠ taiĠ
ziĠ daĠ
zhangĠ danĠquĠ
danĠ cheĠ
gaoĠ jieĠ
ĠxiangĠ shouĠ
ĠxianĠ xiangĠ
ĠguoĠjiaĠ anĠquanĠ
Ġ19 24ĠnianĠ
yinĠyueĠ luĠyingĠdaiĠ
Ġque ĠfaĠ
gongĠzhongĠ kaiĠfangĠ
ĠdeĠyiĠzuoĠ chengĠshiĠ
H O
Ġ 1969ĠnianĠ
ĠĠĠ zhe
di ĠĠĠ
bu ĠliĠsiĠ
yong ĠdaĠ
duo ĠjiĠ
bian ĠyouĠ
zhen ĠfuĠ
han ĠzhongĠ
bin ĠweiĠ
ĠyuĠ zaiĠ
buĠ shao
ĠzaiĠ zheĠzhongĠ
ĠzhongĠ guo
gongĠ xiaĠ
jianĠ dui
jieĠ luĠ
faĠ shouĠdeĠ
xueĠ paiĠ
fangĠ suoĠ
yinĠ shuĠ
wenĠ pingĠ
ĠjiaĠ juĠ
qingĠ shanĠ
meiĠ ciĠ
anĠ dongĠ
luoĠ jieĠ
fanĠ xueĠyuanĠ
kaiĠ caiĠ
caiĠ pan
paiĠ zhaoĠ
ĠchuĠ laiĠ
ĠzhongĠguoĠ zhengĠfuĠ
renĠweiĠ zheĠ
ĠnianĠ3ĠyueĠ 31ĠriĠ
ĠnianĠzhiĠ jinĠ
Ġhuo ĠyiĠ
ĠpaiĠ sheĠ
ĠyueĠhanĠ xunĠ
ĠshiĠwuĠkeĠ lanĠ
henĠkuaiĠ jiuĠ
duoĠerĠ duoĠ
ĠjingĠneiĠ gongĠyouĠ
2 ĠdeĠ
K P
Y P
p ri
Ġ xi
Ġ nao
Ġ 1968
ĠĠĠ 1997
ĠĠĠ dingĠyiĠ
fen ĠyuĠ
lai ĠyouĠ
liu ĠguoĠ
shui ĠliĠfaĠ
zhao ĠzhiĠ
zhao ĠriĠ
vi dĠĠĠ
CO VIDĠ
ĠjiĠ xiangĠ
ĠyuĠ 2017
ĠliĠ kai
ĠheĠ kouĠ
zhuĠ fuĠ
zhuĠ bianĠ
shengĠ geĠ
faĠ shuĠ
huiĠ ru
chuĠ zuĠ
ĠdiĠ erĠjiĠ
shouĠ menĠ
taiĠ yangĠdeĠ
benĠ laiĠ
biaoĠ jueĠ
liuĠ paiĠ
waiĠ shengĠ
chuanĠ dongĠ
ĠdanĠ xinĠ
lunĠ taiĠ
ĠpingĠ jiaĠ
aĠ muĠsiĠteĠ
cunĠ zai
ĠjiangĠ huiĠ
ĠzuiĠ houĠzaiĠ
ĠxiaoĠ fangĠ
ĠluoĠ lunĠ
zhanĠzhengĠ baoĠfaĠ
fuĠwuĠ qiĠ
Ġliang ĠzhongĠ
buĠfen ĠdeĠ
ĠxingĠchengĠ leĠ
yinĠhang ĠdeĠ
mingĠxingĠ saiĠ
ĠdeĠguiĠdaoĠ banĠzhangĠzhouĠweiĠ
P i
Ġ siĠnianĠ
ĠĠĠ Al
ĠĠĠ yinĠduĠ
ĠĠĠ 1995ĠnianĠ
er ĠshiĠyiĠnianĠ
qu ĠdeĠshiĠ
gu ĠzhongĠ
fen ĠyiĠ
qian ĠbuĠ
qian ĠyiĠzhiĠ
she ĠqiĠ
dai ĠqiĠ
xie ĠyuĠ
xie ĠyouĠ
rong ĠziĠ
pei ĠliĠ
mao ĠziĠ
13 ĠgeĠ
ĠshiĠ baiĠ
ĠyiĠ seĠlie
daĠ anĠ
fuĠ teĠ
ĠbuĠ lanĠ
chengĠ daĠ
chengĠ qingĠ
faĠ dianĠjiĠ
ĠdiĠ 3Ġ
yeĠ yinĠciĠ
guanĠ zhongĠdeĠ
ĠdaĠ piĠ
fenĠ changĠ
junĠ keĠ
gaiĠ zuĠ
ĠxingĠ xiĠ
anĠ shaĠ
cheĠ zhanĠdeĠ
kaiĠ fangĠdeĠ
baĠ teĠ
ĠgeĠ geĠ
ĠchengĠ zuoĠ
ĠhuoĠ jianĠ
quĠdeĠ deĠ
ĠdeĠjiĠ changĠ
chengĠyuanĠ zhiĠyiĠ
zhengĠfu ĠyiĠ
Ġãģ Ĩ
Ġling ĠrenĠ
ĠÃ ¡Ġ
xuĠduo ĠrenĠ
ĠyouĠqiĠshiĠ zaiĠ
R I
c ar
e ĠyiĠ
ĠĠĠ se
ĠĠĠ toĠĠĠ
he ĠdeĠguoĠ
yue ĠdeĠ
le ĠguoĠ
dong ĠzaiĠ
xia ĠdeĠyiĠgeĠzhongĠ
sai ĠshiĠyuĠ
lv erĠ
cai ĠyuĠ
zhuan ĠshiĠ
lie ĠkeĠ
geng ĠdiĠ
or k
lao ĠnianĠ
ĠjiĠ shangĠ
ĠzhiĠ jiaĠgeĠ
ĠliĠ taoĠwanĠ
chuĠ fenĠ
fangĠ fa
yanĠ shouĠ
tiĠ changĠ
meiĠ jieĠ
lianĠ saiĠzhongĠ
gaoĠ yaĠ
suĠ qiuĠ
shuiĠ wuĠ
ĠgaiĠ shanĠ
diĠyiĠ daiĠ
qiangĠ poĠ
tangĠ niao
ĠliĠshiĠ xueĠ
jingĠjiĠ buĠ
ĠĠĠS to
ĠquĠ xiaoĠ
ĠgaiĠshengĠfenĠweiĠfaĠguoĠ xiĠbeiĠbuĠ
Ġzhuan ĠrenĠ
daiĠlaiĠ leĠ
ĠÐ¾ ĠÐ
b ri
c re
Ġ 1972
Ġ qunĠ
Ġ fuĠshiĠ
Ġ daiĠweiĠ
di ĠshiĠqiĠ
jie ĠshiĠweiĠ
hou ĠheĠ
she ĠerĠ
duo ĠerĠshengĠ
lao ĠyuanĠ
16 ĠgeĠ
kuang ĠdeĠ
zhui ĠdongĠwuĠ
zang ĠzuĠ
ĠshiĠ baĠxiĠ
fuĠ shangĠ
fuĠ yuanĠzhangĠ
fenĠ ziĠdeĠ
junĠ shuĠ
ruĠ jinĠ
biĠ teĠ
kaiĠ fangĠshiĠ
ĠbeiĠ jing
moĠ duanĠ
kaiĠshiĠ jinĠxingĠ
Ġri ĠqiĠjianĠ
ĠliĠshiĠ zhangĠ
Ġãĥ ĥ
wenĠhua ĠyiĠ
xiaoĠzuĠ saiĠ
neiĠrong ĠdeĠ
ĠerĠgaiĠdiĠ zuiĠgaoĠdianĠweiĠ
baoĠshouĠ dangĠ
ĠerĠgaiĠdiĠzuiĠgaoĠdianĠweiĠ haiĠbaĠgaoĠduĠ
L inu
Ġ juĠjiĠ
an ĠzaiĠ
ji ĠyiĠgeĠ
yi ĠshiĠyiĠ
mei ĠyueĠ
lai ĠxiĠ
ban ĠzaiĠ
ni ĠxiĠya
gao ĠyiĠ
suo ĠerĠ
tian ĠxingĠ
lin ĠweiĠ
que ĠxiĠ
100 ĠmiĠ
98 ĠnianĠ
ĠjiĠ bingĠ
shuĠ shangĠ
juĠ dongĠ
houĠ mianĠ
ĠdaĠ yingĠ
pingĠ min
xiaĠ xiaĠdeĠ
yongĠ hu
haiĠ keĠyiĠ
meiĠ guoĠshiĠ
miĠ laĠ
lingĠ hun
cheĠ liang
yunĠ songĠ
shanĠ changĠ
feiĠ cui
baiĠ tuoĠ
ĠxiangĠ huĠ
ĠxianĠ xingĠ
shuiĠ niĠ
ĠyeĠ yinĠciĠ
ĠliĠshiĠ youĠ
enĠ shengĠheĠ
Ġ19 11ĠnianĠ
Ġ19 26ĠnianĠ
ĠzhengĠ mingĠ
ĠĠĠS Ġ
ĠdiĠerĠ tianĠ
maĠkeĠ xiĠ
Ġ2010ĠnianĠ renĠkouĠ
tha tĠĠĠ
9 4ĠnianĠ
Ġ niao
Ġ chui
Ġ shuĠjiĠ
Ġ fangĠyuĠ
Ġ saĠerĠ
ao ĠweiĠhuiĠ
li ĠzhiĠ
ĠĠĠ 1994
ĠĠĠ lianĠ
lu ĠdaĠ
qian ĠnianĠ
hai ĠbuĠ
xun ĠyiĠ
huang ĠziĠ
sta gra
ĠshiĠ zheĠ
ĠjiĠ daĠ
ĠyuĠ shangĠ
ĠyuĠ zhangĠ
jiaĠ laiĠ
ĠbuĠ qiĠ
riĠ ziĠ
zuoĠ yongĠdeĠ
dianĠ yingĠshiĠ
zuĠ gou
zuiĠ xianĠ
guĠ gongĠ
dingĠ gouĠ
caiĠ beiĠ
baiĠ yinĠ
ĠbaoĠ han
ganĠ xieĠ
ranĠ liao
dianĠshiĠ taiĠdeĠ
ĠzhanĠ shenĠ
ĠzhengĠ tiĠ
ĠsuoĠ shuĠ
ĠbingĠyuĠ tong
Ġwo ĠerĠ
ĠpuĠtaoĠ yaĠ
ĠjinĠru ĠzhiĠluĠhouĠ
caoĠzuo ĠxiĠtongĠ
8 4ĠnianĠ
N o
s p
y sĠ
Ġ 1953
Ġ kunĠ
ĠĠĠ Si
ĠĠĠ taĠshiĠ
er a
dang ĠsiĠ
te dĠ
tian ĠguoĠ
zha ĠerĠ
25 ĠrenĠ
pa ce
96 ĠnianĠ
heĠ zhongĠ
ĠyouĠ zuoĠ
ĠzaiĠ duiĠ
ĠzhongĠ duiĠ
jiaĠ leĠbiĠ
jieĠ duanĠdeĠ
chengĠ jiangĠ
chengĠ weiĠshiĠ
quĠ shengĠ
jingĠ shangĠ
huaĠ xiangĠ
meiĠ lianĠ
wanĠ yuanĠ
bianĠ xiuĠ
duoĠ biĠ
dangĠ xiaoĠ
Ġri ĠĠĠ
Ġyin ĠdiĠ
jingĠjiĠ changĠ
ĠnianĠ12ĠyueĠ 1ĠriĠ
Ġ19 23ĠnianĠ
ĠnianĠzhiĠ jianĠ
chunĠ qiuĠ
ĠlianĠ tongĠ
ĠniĠ guĠlaĠ
zhuangĠjiĠ kengĠ
1 ĠjiĠ
E PĠ
Ġ guan
Ġ pai
Ġ 1935
Ġ jingĠliĠ
ĠĠĠ faĠzhanĠ
jian ĠĠĠ
she ĠfuĠ
zu ĠyouĠ
pi ĠshiĠ
bian ĠdiĠ
gou ĠheĠ
ka ĠxiĠ
man ĠheĠ
11 ĠrenĠ
nai ĠzhiĠ
el lo
buĠ luĠkeĠ
jiaĠ zhangĠ
xiangĠ fenĠ
daoĠ xiaĠ
huiĠ wuĠ
chuĠ shenĠdeĠ
biĠ yaĠdeĠ
shenĠ jing
ĠfuĠ laiĠ
zhouĠ chengĠ
xuanĠ juĠdeĠ
suĠ junĠ
ĠbingĠ yaoĠqiuĠ
naĠ me
ĠchuĠ zhanĠ
ĠgaiĠ pianĠ
aoĠ duoĠ
liĠ shaĠbaiĠ
touĠ jiaoĠ
ĠyuanĠ xianĠ
ĠdianĠ nao
ĠfanĠ huiĠ
Ġdong ĠyuĠ
wuĠzhuang ĠbuĠduiĠ
ziĠbenĠ zhuĠyiĠ
jieĠxiaĠ laiĠdeĠ
jueĠseĠbanĠyan ĠyouĠxiĠ
D CĠ
b li
j Ġ
Ġ tuiĠdongĠ
li ĠbuĠ
ĠĠĠ mo
ĠĠĠ lvĠ
ĠĠĠ 1994ĠnianĠ
qu ĠbuĠ
le x
ru ĠjiaĠ
te ĠyouĠ
la ĠjiaĠ
xu ĠliĠya
yao ĠyouĠ
tu reĠ
zhuan ĠdaoĠ
zhuang ĠchengĠ
dou ĠkeĠ
gan ĠxingĠquĠ
shao ĠerĠ
ĠdeĠ youĠ
Ġnian ĠdeĠyiĠ
ĠzhiĠ xuĠ
ĠzhiĠ houĠyouĠ
diĠ tie
ĠzaiĠ yueĠ
yuanĠ chuang
gongĠ suoĠ
ĠyueĠ zhanĠ
fuĠ danĠ
jieĠ cengĠ
jiangĠ huĠshiĠdaiĠ
gaiĠ daoĠ
ruĠ changĠ
qingĠ dianĠ
shenĠ houĠ
lianĠ duiĠ
ĠtaĠ cengĠzaiĠ
suoĠ xiaĠdeĠyiĠgeĠ
sanĠ shengĠ
caiĠ seĠ
ĠjieĠ shaoĠ
ĠwuĠ dingĠ
ĠfenĠ ziĠ
zhengĠfu ĠweiĠ
ĠweiĠjiĠ baiĠkeĠ
yingĠyongĠ chengĠshiĠ
tianĠjingĠ yunĠdongĠyuanĠ
zenĠ me
baĠleĠsiĠ tan
ĠweiĠyuĠfaĠguoĠao ĠkeĠxiĠtaĠniĠdaĠquĠ
ĠshiĠweiĠyuĠmeiĠguoĠmiĠsuĠliĠ zhouĠ
9 ĠmingĠ
N S
P P
l erĠ
Ġ shenĠweiĠ
ĠĠĠ zhuanĠjiĠ
ke ĠweiĠqiĠ
hai ĠzhiĠ
ben ĠguoĠ
