{"!":0,"\"":1,"#":2,"$":3,"%":4,"&":5,"'":6,"(":7,")":8,"*":9,"+":10,",":11,"-":12,".":13,"/":14,"0":15,"1":16,"2":17,"3":18,"4":19,"5":20,"6":21,"7":22,"8":23,"9":24,":":25,";":26,"=":27,"?":28,"@":29,"A":30,"B":31,"C":32,"D":33,"E":34,"F":35,"G":36,"H":37,"I":38,"J":39,"K":40,"L":41,"M":42,"N":43,"O":44,"P":45,"Q":46,"R":47,"S":48,"T":49,"U":50,"V":51,"W":52,"X":53,"Y":54,"Z":55,"[":56,"\\":57,"]":58,"^":59,"_":60,"`":61,"a":62,"b":63,"c":64,"d":65,"e":66,"f":67,"g":68,"h":69,"i":70,"j":71,"k":72,"l":73,"m":74,"n":75,"o":76,"p":77,"q":78,"r":79,"s":80,"t":81,"u":82,"v":83,"w":84,"x":85,"y":86,"z":87,"|":88,"~":89,"¡":90,"¢":91,"£":92,"¤":93,"¥":94,"¦":95,"§":96,"¨":97,"©":98,"ª":99,"«":100,"¬":101,"®":102,"¯":103,"°":104,"±":105,"²":106,"³":107,"´":108,"µ":109,"¶":110,"·":111,"¸":112,"¹":113,"º":114,"»":115,"¼":116,"½":117,"¾":118,"¿":119,"Â":120,"Ã":121,"Ä":122,"Å":123,"Æ":124,"Ç":125,"È":126,"É":127,"Ê":128,"Ë":129,"Ì":130,"Í":131,"Î":132,"Ï":133,"Ð":134,"Ñ":135,"Ò":136,"Ó":137,"Ô":138,"Õ":139,"Ö":140,"×":141,"Ø":142,"Ù":143,"Ú":144,"Û":145,"Ü":146,"Þ":147,"ß":148,"à":149,"á":150,"â":151,"ã":152,"ä":153,"ê":154,"ë":155,"ì":156,"í":157,"î":158,"ï":159,"ð":160,"ñ":161,"Ċ":162,"Ġ":163,"ġ":164,"Ģ":165,"ģ":166,"Ĥ":167,"ĥ":168,"Ħ":169,"ħ":170,"Ĩ":171,"ĩ":172,"Ī":173,"ī":174,"Ĭ":175,"ĭ":176,"Į":177,"į":178,"İ":179,"ı":180,"Ĳ":181,"ĳ":182,"Ĵ":183,"ĵ":184,"Ķ":185,"ķ":186,"ĸ":187,"Ĺ":188,"ĺ":189,"Ļ":190,"ļ":191,"Ľ":192,"ľ":193,"Ŀ":194,"ŀ":195,"Ł":196,"ł":197,"Ń":198,"ng":199,"an":200,"sh":201,"zh":202,"ji":203,"ang":204,"ĠĠ":205,"ong":206,"xi":207,"ao":208,"ai":209,"de":210,"ei":211,"shi":212,"yu":213,"ou":214,"yi":215,"en":216,"ch":217,"ian":218,"uo":219,"eng":220,"li":221,"ĠĠĠ":222,"ãĢ":223,"ing":224,"ui":225,"wei":226,"uan":227,"zhi":228,"qi":229,"nian":230,"zhong":231,"you":232,"ren":233,"un":234,"zai":235,"di":236,"guo":237,"ãĢģ":238,"he":239,"bu":240,"er":241,"gong":242,"xing":243,"cheng":244,"da":245,"zhu":246,"hu":247,"yuan":248,"si":249,"jian":250,"yue":251,"ge":252,"fu":253,"xian":254,"ue":255,"ke":256,"wu":257,"chu":258,"shu":259,"sheng":260,"jie":261,"jia":262,"bi":263,"dao":264,"zi":265,"bei":266,"hui":267,"fa":268,"xiang":269,"ti":270,"zheng":271,"mi":272,"ta":273,"jin":274,"qu":275,"20":276,"tong":277,"ri":278,"ju":279,"jing":280,"ming":281,"le":282,"hou":283,"shang":284,"shou":285,"dong":286,"ci":287,"fang":288,"19":289,"hua":290,"yin":291,"xue":292,"guan":293,"zhan":294,"ye":295,"ying":296,"zuo":297,"zhe":298,"yan":299,"mei":300,"jiao":301,"gu":302,"chang":303,"xin":304,"dui":305,"lu":306,"bing":307,"bao":308,"fen":309,"dan":310,"huo":311,"jun":312,"jiang":313,"du":314,"xiao":315,"dian":316,"yong":317,"qian":318,"she":319,"tai":320,"xia":321,"mu":322,"wen":323,"gai":324,"zhang":325,"liang":326,"ya":327,"ru":328,"dai":329,"hai":330,"nan":331,"zhou":332,"zu":333,"wang":334,"lai":335,"ban":336,"jiu":337,"dang":338,"qing":339,"ping":340,"shen":341,"ãĢĭ":342,"ãĢĬ":343,"wan":344,"lian":345,"ling":346,"luo":347,"Â·":348,"min":349,"quan":350,"pi":351,"ni":352,"bo":353,"duo":354,"te":355,"ben":356,"gao":357,"biao":358,"suo":359,"la":360,"ma":361,"kai":362,"ba":363,"xie":364,"xu":365,"bian":366,"deng":367,"yao":368,"yang":369,"mian":370,"zhen":371,"ding":372,"qiu":373,"zui":374,"sai":375,"liu":376,"fan":377,"xuan":378,"fei":379,"san":380,"shan":381,"che":382,"zong":383,"men":384,"ãĢĮ":385,"ãĢį":386,"tu":387,"tian":388,"hao":389,"su":390,"lei":391,"nei":392,"yun":393,"201":394,"lan":395,"feng":396,"mo":397,"na":398,"ze":399,"lv":400,"han":401,"kou":402,"wai":403,"neng":404,"lin":405,"chuan":406,"chi":407,"jue":408,"bai":409,"pai":410,"200":411,"ku":412,"cai":413,"zao":414,"ting":415,"zhuan":416,"gang":417,"lie":418,"guang":419,"gui":420,"lun":421,"sui":422,"pu":423,"ceng":424,"kong":425,"shui":426,"10":427,"chao":428,"zhuang":429,"cha":430,"dou":431,"can":432,"tou":433,"ran":434,"se":435,"duan":436,"cun":437,"huan":438,"cong":439,"pin":440,"ce":441,"chan":442,"xun":443,"gou":444,"00":445,"nv":446,"zhao":447,"gan":448,"chong":449,"sha":450,"tan":451,"18":452,"qin":453,"ka":454,"meng":455,"qiang":456,"huang":457,"xiu":458,"12":459,"tiao":460,"man":461,"shao":462,"kuo":463,"long":464,"pian":465,"shuo":466,"tuan":467,"tang":468,"rong":469,"geng":470,"202":471,"chen":472,"tui":473,"gen":474,"que":475,"tie":476,"11":477,"qie":478,"wo":479,"po":480,"pei":481,"hang":482,"hong":483,"199":484,"bang":485,"liao":486,"chuang":487,"bie":488,"re":489,"tuo":490,"tao":491,"song":492,"wa":493,"mai":494,"ha":495,"15":496,"pan":497,"dun":498,"diao":499,"qiao":500,"sa":501,"mao":502,"lang":503,"kan":504,"kang":505,"âĢ":506,"or":507,"lao":508,"zeng":509,"16":510,"198":511,"kao":512,"xiong":513,"17":514,"on":515,"nuo":516,"miao":517,"rang":518,"kuang":519,"hen":520,"suan":521,"14":522,"30":523,"zhun":524,"13":525,"194":526,"cao":527,"hun":528,"qun":529,"nong":530,"197":531,"heng":532,"shuang":533,"lou":534,"gei":535,"kuai":536,"piao":537,"zha":538,"hei":539,"niu":540,"195":541,"sen":542,"bin":543,"reng":544,"zou":545,"196":546,"chun":547,"kuan":548,"25":549,"âĢĶ":550,"rui":551,"sun":552,"pao":553,"ning":554,"for":555,"pa":556,"cang":557,"mou":558,"24":559,"peng":560,"huai":561,"21":562,"193":563,"23":564,"mula":565,"formula":566,"28":567,"zan":568,"ruo":569,"in":570,"22":571,"chou":572,"zhui":573,"ar":574,"me":575,"26":576,"50":577,"2020":578,"27":579,"nai":580,"nu":581,"ï¼":582,"29":583,"shun":584,"2010":585,"za":586,"000":587,"lve":588,"zhai":589,"2019":590,"ne":591,"ro":592,"juan":593,"st":594,"ra":595,"cui":596,"kun":597,"2016":598,"luan":599,"2018":600,"cuo":601,"2021":602,"zang":603,"2014":604,"shuai":605,"2011":606,"2015":607,"2017":608,"2012":609,"40":610,"2013":611,"nao":612,"2022":613,"die":614,"ruan":615,"kui":616,"lt":617,"rou":618,"cu":619,"sang":620,"2009":621,"2008":622,"ãĥ":623,"60":624,"niao":625,"al":626,"rao":627,"chai":628,"100":629,"zhuo":630,"2023":631,"gt":632,"sou":633,"190":634,"31":635,"ken":636,"2007":637,"2001":638,"teng":639,"pang":640,"fou":641,"co":642,"fo":643,"gua":644,"2000":645,"80":646,"2006":647,"2024":648,"ãģ":649,"2005":650,"zun":651,"tion":652,"kua":653,"the":654,"35":655,"70":656,"nie":657,"lo":658,"of":659,"90":660,"leng":661,"ï¼į":662,"ãĤ":663,"am":664,"tun":665,"ter":666,"mie":667,"2004":668,"th":669,"to":670,"45":671,"48":672,"mang":673,"2025":674,"ve":675,"ga":676,"ãĢī":677,"ãĢĪ":678,"36":679,"38":680,"2003":681,"37":682,"Ma":683,"chui":684,"pen":685,"ll":686,"189":687,"IN":688,"2002":689,"keng":690,"TC":691,"do":692,"34":693,"75":694,"âĢĵ":695,"Co":696,"46":697,"ca":698,"1990":699,"âĢ¦":700,"ck":701,"39":702,"..":703,"be":704,"65":705,"32":706,"ST":707,"47":708,"UTC":709,"1999":710,"1998":711,"1980":712,"188":713,"500":714,"33":715,"In":716,"64":717,"ss":718,"The":719,"vi":720,"SE":721,"55":722,"1997":723,"Re":724,"hi":725,"49":726,"II":727,"el":728,"68":729,"et":730,"44":731,"1996":732,"oo":733,"qiong":734,"1994":735,"gun":736,"br":737,"guai":738,"1992":739,"1995":740,"Mi":741,"67":742,"and":743,"sao":744,"es":745,"1991":746,"1970":747,"58":748,"1950":749,"300":750,"1993":751,"187":752,"1949":753,"at":754,"AT":755,"pe":756,"1960":757,"42":758,"1945":759,"Li":760,"ver":761,"qia":762,"1988":763,"ty":764,"1989":765,"69":766,"Ro":767,"is":768,"run":769,"SEE":770,"niang":771,"INSEE":772,"ho":773,"59":774,"43":775,"66":776,"57":777,"1985":778,"99":779,"SA":780,"ãĢİ":781,"ãĢı":782,"ct":783,"1984":784,"41":785,"88":786,"1986":787,"wi":788,"ol":789,"ws":790,"TV":791,"ry":792,"150":793,"Me":794,"nd":795,"400":796,"1987":797,"78":798,"1982":799,"56":800,"beng":801,"Vi":802,"Pa":803,"ts":804,"1983":805,"amp":806,"NA":807,"De":808,"CD":809,"gh":810,"fi":811,"weng":812,"ber":813,"77":814,"Win":815,"per":816,"zuan":817,"Sta":818,"79":819,"OS":820,"Wi":821,"Â°":822,"ï½":823,"der":824,"180":825,"BC":826,"54":827,"1979":828,"61":829,"1920":830,"as":831,"Mo":832,"seng":833,"98":834,"52":835,"You":836,"1978":837,"no":838,"62":839,"53":840,"ly":841,"shua":842,"La":843,"ï½ŀ":844,"BA":845,"1946":846,"CO":847,"51":848,"1958":849,"gi":850,"Jo":851,"1981":852,"1972":853,"1948":854,"Le":855,"tw":856,"AM":857,"63":858,"AR":859,"ction":860,"1941":861,"BS":862,"Ga":863,"1930":864,"Da":865,"Pro":866,"Te":867,"76":868,"hans":869,"1940":870,"1937":871,"1976":872,"1944":873,"Ja":874,"89":875,"us":876,"Di":877,"Windo":878,"1975":879,"ï¼ı":880,"1968":881,"hk":882,"con":883,"Fi":884,"um":885,"Si":886,"1000":887,"Windows":888,"95":889,"87":890,"nal":891,"Mar":892,"1966":893,"rd":894,"85":895,"Ne":896,"Ra":897,"ki":898,"600":899,"120":900,"1947":901,"Se":902,"AC":903,"1956":904,"1964":905,"Be":906,"1942":907,"Ã©":908,"1955":909,"1952":910,"IS":911,"ad":912,"1939":913,"1938":914,"72":915,"ur":916,"74":917,"Ca":918,"va":919,"1973":920,"1974":921,"1954":922,"Ar":923,"Al":924,"ED":925,"1900":926,"--":927,"AP":928,"1943":929,"To":930,"1977":931,"ld":932,"1971":933,"cen":934,"lay":935,"1967":936,"Ba":937,"IC":938,"800":939,"Po":940,"Lo":941,"ER":942,"zhua":943,"sta":944,"86":945,"1959":946,"Bo":947,"tt":948,"1965":949,"JR":950,"1969":951,"Fa":952,"ãĥ»":953,"ÃĹ":954,"ID":955,"Bi":956,"son":957,"1936":958,"160":959,"97":960,"1953":961,"Sa":962,"MA":963,"1962":964,"1961":965,"nen":966,"Na":967,"âĶ":968,"So":969,"1935":970,"com":971,"Ho":972,"tic":973,"96":974,"ON":975,"ï¼ħ":976,"1951":977,"St":978,"1957":979,"1963":980,"Tu":981,"âĶĢ":982,"fe":983,"so":984,"shiĠ":985,"deĠ":986,"ĠshiĠ":987,"ĠdeĠ":988,"yiĠ":989,"ĠyiĠ":990,"jiĠ":991,"weiĠ":992,"zhiĠ":993,"yuĠ":994,"ĠweiĠ":995,"ĠjiĠ":996,"Ġnian":997,"ĠzhiĠ":998,"ĠyuĠ":999,"Ġli":1000,"ĠnianĠ":1001,"zhongĠ":1002,"ĠliĠ":1003,"zaiĠ":1004,"renĠ":1005,"youĠ":1006,"guoĠ":1007,"heĠ":1008,"qiĠ":1009,"buĠ":1010,"diĠ":1011,"ĠyouĠ":1012,"ĠzaiĠ":1013,"ĠrenĠ":1014,"Ġyue":1015,"ĠzhongĠ":1016,"ĠheĠ":1017,"daĠ":1018,"xiĠ":1019,"xingĠ":1020,"yuanĠ":1021,"erĠ":1022,"gongĠ":1023,"ĠyueĠ":1024,"fuĠ":1025,"siĠ":1026,"geĠ":1027,"jianĠ":1028,"ĠguoĠ":1029,"wuĠ":1030,"jiaĠ":1031,"ĠbuĠ":1032,"jieĠ":1033,"keĠ":1034,"chengĠ":1035,"zhuĠ":1036,"shengĠ":1037,"xiangĠ":1038,"xianĠ":1039,"daoĠ":1040,"beiĠ":1041,"ziĠ":1042,"ĠqiĠ":1043,"faĠ":1044,"huiĠ":1045,"chuĠ":1046,"jinĠ":1047,"ĠdiĠ":1048,"shuĠ":1049,"ĠerĠ":1050,"riĠ":1051,"ĠxiĠ":1052,"juĠ":1053,"quĠ":1054,"zhengĠ":1055,"houĠ":1056,"shouĠ":1057,"mingĠ":1058,"shangĠ":1059,"dongĠ":1060,"leĠ":1061,"taĠ":1062,"jingĠ":1063,"xueĠ":1064,"fangĠ":1065,"yanĠ":1066,"zhanĠ":1067,"ciĠ":1068,"baoĠ":1069,"huaĠ":1070,"yingĠ":1071,"yeĠ":1072,"tongĠ":1073,"zuoĠ":1074,"zheĠ":1075,"guanĠ":1076,"ĠdaĠ":1077,"ĠriĠ":1078,"yinĠ":1079,"changĠ":1080,"xinĠ":1081,"jiaoĠ":1082,"luĠ":1083,"duiĠ":1084,"wenĠ":1085,"tiĠ":1086,"fenĠ":1087,"qianĠ":1088,"taiĠ":1089,"jiangĠ":1090,"xiaoĠ":1091,"bingĠ":1092,"ĠsiĠ":1093,"junĠ":1094,"dianĠ":1095,"zhangĠ":1096,"pingĠ":1097,"xiaĠ":1098,"duĠ":1099,"huoĠ":1100,"yongĠ":1101,"danĠ":1102,"ĠkeĠ":1103,"ĠjiaĠ":1104,"haiĠ":1105,"gaiĠ":1106,"wangĠ":1107,"daiĠ":1108,"nanĠ":1109,"ruĠ":1110,"qingĠ":1111,"muĠ":1112,"biĠ":1113,"banĠ":1114,"liangĠ":1115,"laiĠ":1116,"meiĠ":1117,"yaĠ":1118,"shenĠ":1119,"zuĠ":1120,"ĠxingĠ":1121,"ĠfuĠ":1122,"wanĠ":1123,"sheĠ":1124,"lianĠ":1125,"minĠ":1126,"miĠ":1127,"zhouĠ":1128,"anĠ":1129,"jiuĠ":1130,"qiuĠ":1131,"zhenĠ":1132,"benĠ":1133,"xuĠ":1134,"gaoĠ":1135,"boĠ":1136,"ĠtaĠ":1137,"xieĠ":1138,"teĠ":1139,"bianĠ":1140,"lingĠ":1141,"luoĠ":1142,"yaoĠ":1143,"dengĠ":1144,"duoĠ":1145,"yangĠ":1146,"quanĠ":1147,"cheĠ":1148,"suoĠ":1149,"zuiĠ":1150,"tianĠ":1151,"guĠ":1152,"biaoĠ":1153,"fanĠ":1154,"huĠ":1155,"yunĠ":1156,"xuanĠ":1157,"suĠ":1158,"shanĠ":1159,"feiĠ":1160,"dingĠ":1161,"liuĠ":1162,"zongĠ":1163,"saiĠ":1164,"dangĠ":1165,"maĠ":1166,"kaiĠ":1167,"baĠ":1168,"haoĠ":1169,"ĠdeĠyiĠ":1170,"ĠbingĠ":1171,"ĠdaoĠ":1172,"fengĠ":1173,"kouĠ":1174,"tuĠ":1175,"mianĠ":1176,"menĠ":1177,"neiĠ":1178,"laĠ":1179,"leiĠ":1180,"sanĠ":1181,"caiĠ":1182,"waiĠ":1183,"chuanĠ":1184,"jueĠ":1185,"paiĠ":1186,"chiĠ":1187,"ĠdanĠ":1188,"ĠjinĠ":1189,"ĠbeiĠ":1190,"ĠgongĠ":1191,"ĠjianĠ":1192,"guangĠ":1193,"ĠshiĠyiĠ":1194,"lanĠ":1195,"niĠ":1196,"guiĠ":1197,"baiĠ":1198,"ĠziĠ":1199,"linĠ":1200,"tingĠ":1201,"ĠzheĠ":1202,"puĠ":1203,"ĠxiangĠ":1204,"naĠ":1205,"gangĠ":1206,"lunĠ":1207,"nengĠ":1208,"hanĠ":1209,"lieĠ":1210,"zeĠ":1211,"ĠzhuĠ":1212,"chengĠweiĠ":1213,"moĠ":1214,"ĠyinĠ":1215,"ĠgeĠ":1216,"ĠxianĠ":1217,"ĠchuĠ":1218,"ĠshiĠdeĠ":1219,"meiĠguoĠ":1220,"chanĠ":1221,"shuiĠ":1222,"ĠjuĠ":1223,"ĠchengĠ":1224,"ĠdeĠshiĠ":1225,"ĠjieĠ":1226,"ĠgaiĠ":1227,"ĠwuĠ":1228,"suiĠ":1229,"xunĠ":1230,"zhuanĠ":1231,"ĠbaoĠ":1232,"lvĠ":1233,"ĠpingĠ":1234,"Ġta":1235,"eĠ":1236,"aoĠ":1237,"liĠ":1238,"zhuangĠ":1239,"touĠ":1240,"duanĠ":1241,"1Ġ":1242,"ĠyiĠjiĠ":1243,"seĠ":1244,"huanĠ":1245,"chongĠ":1246,"ĠweiĠyuĠ":1247,"cengĠ":1248,"pinĠ":1249,"aĠ":1250,"congĠ":1251,"chaĠ":1252,"diĠyiĠ":1253,"cunĠ":1254,"douĠ":1255,"zaoĠ":1256,"ĠhouĠ":1257,"kongĠ":1258,"zhaoĠ":1259,"gouĠ":1260,"2Ġ":1261,"ganĠ":1262,"shaĠ":1263,"ĠciĠ":1264,"qiangĠ":1265,"ceĠ":1266,"ĠshiĠjiĠ":1267,"chaoĠ":1268,"aiĠ":1269,"mengĠ":1270,"kaiĠshiĠ":1271,"manĠ":1272,"ĠyeĠ":1273,"tangĠ":1274,"longĠ":1275,"kuoĠ":1276,"Ġdan":1277,"keĠyiĠ":1278,"ĠfaĠ":1279,"ĠyiĠgeĠ":1280,"ĠyuanĠ":1281,"tanĠ":1282,"tuanĠ":1283,"ĠshengĠ":1284,"ĠshiĠweiĠ":1285,"kaĠ":1286,"gongĠliĠ":1287,"ĠzhongĠguoĠ":1288,"qinĠ":1289,"Ġtong":1290,"tieĠ":1291,"ĠshiĠshiĠ":1292,"Ġbing":1293,"zhengĠfuĠ":1294,"ĠmingĠ":1295,"shaoĠ":1296,"canĠ":1297,"pianĠ":1298,"Ġyou":1299,"huoĠdeĠ":1300,"mianĠjiĠ":1301,"hangĠ":1302,"hongĠ":1303,"gengĠ":1304,"ĠhuoĠ":1305,"jiĠdeĠ":1306,"ĠshiĠyongĠ":1307,"tiaoĠ":1308,"xiuĠ":1309,"chenĠ":1310,"shuoĠ":1311,"piĠ":1312,"3Ġ":1313,"ĠdongĠ":1314,"renĠweiĠ":1315,"ĠshiĠjianĠ":1316,"taoĠ":1317,"zhiĠyiĠ":1318,"ranĠ":1319,"zhongĠdeĠ":1320,"zhengĠzhiĠ":1321,"huangĠ":1322,"ĠyiĠzhiĠ":1323,"ĠshiĠjieĠ":1324,"zhongĠguoĠ":1325,"yueĠ":1326,"chuangĠ":1327,"nvĠ":1328,"quĠdeĠ":1329,"guoĠjiĠ":1330,"Ġri":1331,"yiĠshiĠ":1332,"ĠpingĠfangĠ":1333,"woĠ":1334,"renĠkouĠ":1335,"xingĠdeĠ":1336,"poĠ":1337,"ouĠ":1338,"jinĠxingĠ":1339,"rongĠ":1340,"ĠshouĠ":1341,"liaoĠ":1342,"tuoĠ":1343,"diaoĠ":1344,"meiĠyouĠ":1345,"songĠ":1346,"ĠliĠdeĠ":1347,"nianĠ":1348,"ĠsuiĠ":1349,"ĠliĠshiĠ":1350,"Ġdang":1351,"ĠweiĠyuanĠ":1352,"peiĠ":1353,"panĠ":1354,"ĠqiĠzhongĠ":1355,"ĠmiĠ":1356,"ĠfenĠ":1357,"zuoĠweiĠ":1358,"gongĠsiĠ":1359,"faĠguoĠ":1360,"biaoĠshiĠ":1361,"ĠhaoĠ":1362,"ĠĠĠzaiĠ":1363,"ĠwanĠ":1364,"yanĠjiuĠ":1365,"Ġer":1366,"zhengĠshiĠ":1367,"ĠhaiĠ":1368,"Ġyin":1369,"ĠshangĠ":1370,"ĠdeĠjiĠ":1371,"tuiĠ":1372,"queĠ":1373,"Ġzhe":1374,"dianĠshiĠ":1375,"yunĠdongĠ":1376,"ĠxinĠ":1377,"qieĠ":1378,"bangĠ":1379,"ĠmeiĠ":1380,"ĠdeĠdiĠ":1381,"ĠtaiĠ":1382,"chengĠshiĠ":1383,"zhiĠshiĠ":1384,"ĠjiangĠ":1385,"ĠjingĠ":1386,"ĠshuĠ":1387,"jianĠdeĠ":1388,"taĠdeĠ":1389,"gongĠheĠ":1390,"shuĠyuĠ":1391,"sheĠjiĠ":1392,"langĠ":1393,"ĠqianĠ":1394,"ĠrenĠminĠ":1395,"dunĠ":1396,"ĠrenĠkouĠ":1397,"zhiĠdeĠ":1398,"qiaoĠ":1399,"10ĠyueĠ":1400,"12ĠyueĠ":1401,"ĠdeĠzhiĠ":1402,"jingĠjiĠ":1403,"7ĠyueĠ":1404,"dianĠyingĠ":1405,"ĠyingĠ":1406,"ĠxiaĠ":1407,"ĠnanĠ":1408,"zuĠzhiĠ":1409,"9ĠyueĠ":1410,"ĠmuĠ":1411,"ĠzhangĠ":1412,"8ĠyueĠ":1413,"zhuĠyiĠ":1414,"4Ġ":1415,"3ĠyueĠ":1416,"ĠzuiĠ":1417,"1ĠyueĠ":1418,"maoĠ":1419,"ĠshiĠqiĠ":1420,"daiĠbiaoĠ":1421,"waĠ":1422,"riĠbenĠ":1423,"5Ġ":1424,"sĠ":1425,"yingĠguoĠ":1426,"5ĠyueĠ":1427,"youĠyiĠ":1428,"jiĠshiĠ":1429,"kaoĠ":1430,"6ĠyueĠ":1431,"reĠ":1432,"guoĠdeĠ":1433,"kanĠ":1434,"4ĠyueĠ":1435,"ĠshiĠzhenĠ":1436,"ĠhuiĠ":1437,"henĠ":1438,"maiĠ":1439,"xianĠdeĠ":1440,"weiĠyiĠ":1441,"11ĠyueĠ":1442,"cheĠzhanĠ":1443,"jiaoĠyuĠ":1444,"genĠjuĠ":1445,"ĠtongĠ":1446,"buĠfenĠ":1447,"yiĠdeĠ":1448,"daĠxueĠ":1449,"yuĠshiĠ":1450,"ĠbiĠ":1451,"xiangĠgangĠ":1452,"mingĠweiĠ":1453,"xueĠyuanĠ":1454,"ĠdeĠguoĠ":1455,"ĠyiĠyuanĠ":1456,"liĠshiĠ":1457,"ĠdeĠyiĠgeĠ":1458,"ĠzhiĠhouĠ":1459,"ĠruĠ":1460,"danĠrenĠ":1461,"genĠ":1462,"ĠnianĠ1ĠyueĠ":1463,"canĠjiaĠ":1464,"ĠdengĠ":1465,"ĠyiĠweiĠ":1466,"caoĠ":1467,"kangĠ":1468,"sheĠhuiĠ":1469,"xianĠshiĠ":1470,"ĠtiĠ":1471,"ĠdiĠquĠ":1472,"saĠ":1473,"ĠqingĠ":1474,"yingĠxiangĠ":1475,"taiĠwanĠ":1476,"sĠĠĠ":1477,"shuĠdeĠ":1478,"Ġran":1479,"bieĠ":1480,"ĠyouĠyuĠ":1481,"shangĠdeĠ":1482,"xingĠshiĠ":1483,"yeĠshiĠ":1484,"qiĠshiĠ":1485,"ĠyinĠciĠ":1486,"formulaĠ":1487,"guanĠliĠ":1488,"laoĠ":1489,"ĠyanĠ":1490,"zengĠ":1491,"gongĠzuoĠ":1492,"tongĠguoĠ":1493,"leĠyiĠ":1494,"ĠxueĠ":1495,"ĠnianĠ12ĠyueĠ":1496,"6Ġ":1497,"ĠxiaoĠ":1498,"ĠlingĠ":1499,"xingĠzhengĠ":1500,"buĠdeĠ":1501,"gongĠheĠguoĠ":1502,"weiĠshiĠ":1503,"ĠliĠyaĠ":1504,"erĠshiĠ":1505,"ĠnianĠdeĠ":1506,"renĠdeĠ":1507,"zhunĠ":1508,"ziĠjiĠ":1509,"daĠdeĠ":1510,"xiongĠ":1511,"2ĠyueĠ":1512,"ĠguoĠjiaĠ":1513,"zuiĠzhongĠ":1514,"ĠnianĠ3ĠyueĠ":1515,"huiĠyiĠ":1516,"kuangĠ":1517,"ĠĠĠshengĠ":1518,"nongĠ":1519,"chengĠliĠ":1520,"ĠpingĠfangĠgongĠliĠ":1521,"ĠliangĠ":1522,"luoĠsiĠ":1523,"kuĠ":1524,"ĠnianĠ7ĠyueĠ":1525,"ĠjiaoĠ":1526,"ĠnianĠ10ĠyueĠ":1527,"faĠxianĠ":1528,"chuĠdeĠ":1529,"miaoĠ":1530,"haĠ":1531,"ĠwangĠ":1532,"ĠzhanĠ":1533,"ĠbaoĠkuoĠ":1534,"qiĠdeĠ":1535,"faĠzhanĠ":1536,"ĠnianĠ9ĠyueĠ":1537,"ĠC":1538,"heiĠ":1539,"yuanĠdeĠ":1540,"ĠshiĠyouĠ":1541,"ĠshiĠzhiĠ":1542,"qiĠtaĠ":1543,"ĠnianĠ5ĠyueĠ":1544,"ĠqiĠjianĠ":1545,"piaoĠ":1546,"kuaiĠ":1547,"suoĠyouĠ":1548,"siĠdeĠ":1549,"ĠboĠ":1550,"ĠtianĠ":1551,"ĠnianĠ4ĠyueĠ":1552,"ĠnianĠ6ĠyueĠ":1553,"enĠ":1554,"ĠnianĠ8ĠyueĠ":1555,"youĠyuĠ":1556,"tieĠluĠ":1557,"ĠdaĠxueĠ":1558,"quanĠguoĠ":1559,"ĠshiĠzaiĠ":1560,"daoĠzhiĠ":1561,"ĠluoĠ":1562,"daoĠdeĠ":1563,"tongĠdeĠ":1564,"zhuĠyaoĠ":1565,"chengĠdeĠ":1566,"canĠyuĠ":1567,"louĠ":1568,"nuoĠ":1569,"shuangĠ":1570,"Ġ19":1571,"wenĠhuaĠ":1572,"ĠzhengĠ":1573,"ĠmaĠ":1574,"ĠhuaĠ":1575,"diĠliĠ":1576,"zhongĠyiĠ":1577,"ĠtaĠmenĠ":1578,"ĠduiĠ":1579,"lianĠheĠ":1580,"diĠdeĠ":1581,"ĠzhiĠdaoĠ":1582,"ĠluĠ":1583,"ĠnianĠ11ĠyueĠ":1584,"baoĠkuoĠ":1585,"ĠdangĠ":1586,"ĠtongĠshiĠ":1587,"ĠguĠ":1588,"ĠshenĠ":1589,"buĠshiĠ":1590,"ĠĠĠS":1591,"ĠzhongĠxinĠ":1592,"yinĠyueĠ":1593,"ĠĠĠshiĠ":1594,"beiĠbuĠ":1595,"senĠ":1596,"shuĠjiĠ":1597,"yongĠyuĠ":1598,"ĠjiuĠ":1599,"ĠĠĠyiĠ":1600,"tiĠgongĠ":1601,"zaiĠyiĠ":1602,"ĠquanĠ":1603,"xuanĠbuĠ":1604,"guoĠjiaĠ":1605,"ĠzongĠ":1606,"ĠweiĠyuanĠhuiĠ":1607,"zuĠqiuĠ":1608,"wenĠtiĠ":1609,"ĠnianĠzhiĠ":1610,"Ġsui":1611,"kuanĠ":1612,"xueĠxiaoĠ":1613,"ĠyinĠweiĠ":1614,"shengĠyuĠ":1615,"ĠshiĠwuĠ":1616,"jianĠyuĠ":1617,"ziĠyouĠ":1618,"ĠzuoĠ":1619,"qianĠmiĠ":1620,"ĠA":1621,"gongĠyouĠ":1622,"guanĠxiĠ":1623,"fangĠshiĠ":1624,"ĠweiĠzhiĠ":1625,"ĠshiĠzhongĠ":1626,"hunĠ":1627,"ĠnianĠ2ĠyueĠ":1628,"ĠxuĠ":1629,"biĠsaiĠ":1630,"huaĠrenĠminĠ":1631,"chengĠyuanĠ":1632,"yingĠdeĠ":1633,"rangĠ":1634,"jianĠzhuĠ":1635,"huoĠdongĠ":1636,"jianĠliĠ":1637,"Ġgai":1638,"hengĠ":1639,"suanĠ":1640,"yuĠyiĠ":1641,"tĠ":1642,"ĠĠĠliĠshiĠ":1643,"jiĠyiĠ":1644,"fenĠweiĠ":1645,"ĠdeĠrenĠ":1646,"zuoĠpinĠ":1647,"sheĠyouĠ":1648,"renĠshiĠ":1649,"tongĠshiĠ":1650,"guanĠjunĠ":1651,"ĠdianĠ":1652,"ĠS":1653,"ĠbenĠ":1654,"ĠchangĠ":1655,"ĠĠĠC":1656,"daĠliĠ":1657,"geĠrenĠ":1658,"ĠĠĠshengĠpingĠ":1659,"ĠchengĠweiĠ":1660,"zhuanĠjiĠ":1661,"ĠanĠ":1662,"Ġjie":1663,"yuĠdeĠ":1664,"ĠdiĠerĠ":1665,"beiĠjingĠ":1666,"Ġxian":1667,"ĠjiĠhuaĠ":1668,"ĠyouĠxiĠ":1669,"jiuĠshiĠ":1670,"xiaoĠshiĠ":1671,"ĠliuĠ":1672,"huaĠrenĠminĠgongĠheĠguoĠ":1673,"yinĠweiĠ":1674,"ĠtaĠdeĠ":1675,"ĠbaĠ":1676,"menĠdeĠ":1677,"ĠliĠyuĠ":1678,"qunĠ":1679,"ĠnianĠdaiĠ":1680,"duiĠyuĠ":1681,"ĠaĠ":1682,"xiĠdeĠ":1683,"mingĠdeĠ":1684,"junĠshiĠ":1685,"diĠshiĠ":1686,"tongĠyiĠ":1687,"ĠcongĠ":1688,"geiĠ":1689,"diĠerĠ":1690,"xinĠdeĠ":1691,"xueĠjiaĠ":1692,"quĠyuĠ":1693,"ĠbuĠfenĠ":1694,"eĠluoĠsiĠ":1695,"zouĠ":1696,"tĠĠĠ":1697,"taĠmenĠ":1698,"erĠdeĠ":1699,"chunĠ":1700,"ĠduoĠ":1701,"weiĠdeĠ":1702,"shouĠdaoĠ":1703,"minĠguoĠ":1704,"houĠdeĠ":1705,"shengĠdeĠ":1706,"laiĠdeĠ":1707,"fangĠmianĠ":1708,"faĠshengĠ":1709,"zhengĠfu":1710,"gongĠjiĠ":1711,"danĠweiĠ":1712,"xingĠweiĠ":1713,"ĠshiĠrenĠ":1714,"ĠyiĠjingĠ":1715,"ĠfengĠ":1716,"yongĠyouĠ":1717,"ĠhuĠ":1718,"ĠfanĠ":1719,"Ġ18":1720,"zhongĠshiĠ":1721,"jinĠshiĠ":1722,"ĠxiĠtongĠ":1723,"jueĠdingĠ":1724,"buĠyuĠ":1725,"ĠzhongĠyangĠ":1726,"juĠyouĠ":1727,"ĠlianĠ":1728,"ĠmianĠjiĠ":1729,"1ĠriĠ":1730,"tongĠzhiĠ":1731,"ĠquĠ":1732,"diĠquĠ":1733,"niĠyaĠ":1734,"liangĠgeĠ":1735,"faĠxingĠ":1736,"7Ġ":1737,"quĠweiĠ":1738,"ĠriĠbenĠ":1739,"ĠguanĠ":1740,"ĠfeiĠ":1741,"ĠgaoĠ":1742,"youĠdeĠ":1743,"chuĠxianĠ":1744,"shengĠjiĠ":1745,"ĠĠĠA":1746,"ĠwenĠ":1747,"ĠteĠ":1748,"zhĠ":1749,"huaĠdeĠ":1750,"ĠrenĠkouĠmiĠ":1751,"ciĠshiĠ":1752,"Ġ15":1753,"qiĠyuĠ":1754,"ziĠzhiĠ":1755,"wuĠdeĠ":1756,"juĠxingĠ":1757,"laiĠziĠ":1758,"ĠtaĠzaiĠ":1759,"lingĠyiĠ":1760,"jiaĠdeĠ":1761,"ĠsuoĠ":1762,"ĠjiĠyuĠ":1763,"xianĠzhiĠ":1764,"ĠweiĠjiĠ":1765,"mianĠjiĠweiĠ":1766,"Ġsuo":1767,"huiĠdeĠ":1768,"ĠsuĠ":1769,"baoĠhuĠ":1770,"ĠsanĠ":1771,"nanĠbuĠ":1772,"duĠliĠ":1773,"ĠpingĠfangĠqianĠmiĠ":1774,"shuĠjuĠ":1775,"kongĠzhiĠ":1776,"ĠshiĠyuĠ":1777,"zongĠtongĠ":1778,"jinĠruĠ":1779,"ĠshiĠweiĠyuĠ":1780,"ĠliĠruĠ":1781,"renĠwuĠ":1782,"quĠshiĠ":1783,"keĠliĠ":1784,"yaoĠqiuĠ":1785,"mouĠ":1786,"Ġ0":1787,"8Ġ":1788,"ĠwoĠ":1789,"ĠmeiĠguoĠ":1790,"gtĠ":1791,"ĠgtĠ":1792,"guĠshiĠ":1793,"ĠĠĠdeĠ":1794,"chengĠjiĠ":1795,"Ġa":1796,"ĠranĠerĠ":1797,"dĠĠĠ":1798,"ĠguangĠ":1799,"ltĠ":1800,"Ġru":1801,"xueĠshengĠ":1802,"ĠĠĠyuĠ":1803,"jinĠdeĠ":1804,"ĠdanĠshiĠ":1805,"wanĠchengĠ":1806,"ĠbianĠ":1807,"minĠzhuĠ":1808,"gongĠshiĠ":1809,"ĠyiĠqiĠ":1810,"lieĠcheĠ":1811,"ĠP":1812,"youĠjiĠ":1813,"keĠnengĠ":1814,"ĠcaiĠ":1815,"ĠltĠ":1816,"ĠyiĠbuĠ":1817,"Ġ16":1818,"shenĠzhiĠ":1819,"ĠbingĠyuĠ":1820,"zhaĠ":1821,"renĠzhiĠ":1822,"pingĠfangĠ":1823,"youĠshiĠ":1824,"ĠbingĠzaiĠ":1825,"ĠjiĠshuĠ":1826,"chaoĠguoĠ":1827,"tiĠyuĠ":1828,"ĠyongĠ":1829,"yuanĠshiĠ":1830,"cangĠ":1831,"cunĠzaiĠ":1832,"qianĠwangĠ":1833,"keĠdeĠ":1834,"yaĠliĠ":1835,"dangĠshiĠ":1836,"siĠshiĠ":1837,"xueĠxiĠ":1838,"yongĠdeĠ":1839,"ĠdeĠyiĠge":1840,"jingĠguoĠ":1841,"neiĠdeĠ":1842,"faĠbuĠ":1843,"zuoĠdeĠ":1844,"ĠzhiĠweiĠ":1845,"ĠshanĠ":1846,"Ġceng":1847,"jianĠyiĠ":1848,"guanĠyuĠ":1849,"ĠhanĠ":1850,"Ġwan":1851,"ĠB":1852,"wuĠkeĠ":1853,"ĠĠĠdiĠ":1854,"xiangĠgang":1855,"wuĠshiĠ":1856,"zhuĠrenĠ":1857,"ĠzhiĠjianĠ":1858,"yinĠduĠ":1859,"ĠpuĠ":1860,"ĠkaiĠ":1861,"zhanĠshiĠ":1862,"zhanĠzhengĠ":1863,"ĠqiĠtaĠ":1864,"guoĠshiĠ":1865,"sunĠ":1866,"paoĠ":1867,"Ġba":1868,"zhuĠyao":1869,"shengĠhuoĠ":1870,"zhouĠdeĠ":1871,"xuĠduoĠ":1872,"jianĠzhiĠ":1873,"ĠjiĠweiĠ":1874,"ĠgongĠliĠ":1875,"fanĠweiĠ":1876,"ĠyiĠshuĠ":1877,"ĠjiĠqiĠ":1878,"ĠweiĠerĠ":1879,"binĠ":1880,"chengĠgongĠ":1881,"hanĠguoĠ":1882,"Ġ17":1883,"ouĠzhouĠ":1884,"zhuĠxiĠ":1885,"luĠdeĠ":1886,"fuĠwuĠ":1887,"jieĠshouĠ":1888,"qiuĠduiĠ":1889,"ĠzhiĠyouĠ":1890,"ĠshuĠyuĠ":1891,"daiĠbiao":1892,"ĠjiĠzhongĠ":1893,"Ġzai":1894,"Ġjin":1895,"zengĠjiaĠ":1896,"ĠbuĠguoĠ":1897,"banĠdeĠ":1898,"gongĠyuanĠ":1899,"ĠyouĠxianĠ":1900,"ĠM":1901,"xiaoĠxingĠ":1902,"Ġ000":1903,"ĠmoĠ":1904,"xiaĠdeĠ":1905,"ĠĠĠgaiĠ":1906,"ĠzheĠxieĠ":1907,"shangĠhaiĠ":1908,"ĠzhiĠchuĠ":1909,"heĠyiĠ":1910,"duoĠdeĠ":1911,"ĠaoĠ":1912,"ĠĠĠP":1913,"houĠyiĠ":1914,"sanĠshiĠ":1915,"ĠĠĠzhiĠ":1916,"ĠbaiĠ":1917,"ĠciĠwaiĠ":1918,"fuĠdeĠ":1919,"juĠliĠ":1920,"siĠjiĠ":1921,"ĠH":1922,"zuĠchengĠ":1923,"huaiĠ":1924,"ĠgenĠjuĠ":1925,"ningĠ":1926,"yunĠdongĠyuanĠ":1927,"jiaoĠtongĠ":1928,"ĠzhiĠzuoĠ":1929,"ĠzhiĠchiĠ":1930,"yĠ":1931,"ĠE":1932,"maĠweiĠ":1933,"gaoĠduĠ":1934,"changĠdeĠ":1935,"ĠnianĠqiĠ":1936,"mĠ":1937,"zhuĠjiaoĠ":1938,"ĠzhĠ":1939,"ĠD":1940,"zheĠxieĠ":1941,"niuĠ":1942,"dĠ":1943,"geĠzhongĠ":1944,"xuĠyaoĠ":1945,"ĠzhiĠwuĠ":1946,"Ġãĥ":1947,"ĠzaiĠciĠ":1948,"jueĠseĠ":1949,"chongĠxinĠ":1950,"chuĠleĠ":1951,"yĠĠĠ":1952,"tiĠdeĠ":1953,"tuiĠchuĠ":1954,"ĠliĠjiĠ":1955,"zheĠgeĠ":1956,"jingĠliĠ":1957,"ĠcengĠ":1958,"xiangĠdeĠ":1959,"ĠzuiĠzhongĠ":1960,"gongĠchengĠ":1961,"ĠdangĠshiĠ":1962,"nĠ":1963,"qiĠyiĠ":1964,"daĠshiĠ":1965,"chuĠyuĠ":1966,"ĠrenĠheĠ":1967,"wuĠzhongĠ":1968,"duĠweiĠ":1969,"renĠminĠ":1970,"ziĠdeĠ":1971,"ĠT":1972,"xuanĠjuĠ":1973,"Ġai":1974,"ĠsheĠ":1975,"lianĠsaiĠ":1976,"ĠĠĠdiĠliĠ":1977,"ziĠjiĠdeĠ":1978,"kaiĠfaĠ":1979,"ĠweiĠleĠ":1980,"ĠrenĠwuĠ":1981,"geĠquĠ":1982,"Ġye":1983,"ĠnianĠjianĠ":1984,"ĠduĠ":1985,"dangĠdiĠ":1986,"Ġhuo":1987,"fuĠzeĠ":1988,"Ġma":1989,"xianĠzaiĠ":1990,"ĠweiĠqiĠ":1991,"gongĠchanĠ":1992,"ĠĠĠweiĠ":1993,"ĠzhiĠyuĠ":1994,"ĠrenĠyuanĠ":1995,"zheĠyiĠ":1996,"ĠlaiĠ":1997,"liangĠweiĠ":1998,"jieĠshuĠ":1999,"yaĠdeĠ":2000,"chuĠliĠ":2001,"jieĠmuĠ":2002,"guanĠdeĠ":2003,"nvĠziĠ":2004,"saiĠshiĠ":2005,"ĠleiĠ":2006,"2010ĠnianĠ":2007,"dingĠdeĠ":2008,"ruiĠ":2009,"duiĠdeĠ":2010,"fanĠyingĠ":2011,"Ġ1":2012,"riĠben":2013,"ĠhouĠlaiĠ":2014,"chuĠbanĠ":2015,"jieĠdeĠ":2016,"chanĠshengĠ":2017,"shouĠciĠ":2018,"juanĠ":2019,"sheĠshiĠ":2020,"leiĠsiĠ":2021,"ĠshiĠyiĠgeĠ":2022,"baĠshiĠ":2023,"dongĠwuĠ":2024,"ĠG":2025,"jingĠshiĠ":2026,"ĠjiĠxuĠ":2027,"leĠbuĠ":2028,"jieĠshiĠ":2029,"ĠzuĠ":2030,"xiangĠshiĠ":2031,"ĠbanĠ":2032,"ĠnaĠ":2033,"boĠshiĠ":2034,"anĠdeĠ":2035,"keĠneng":2036,"ruoĠ":2037,"nanĠziĠ":2038,"duĠdeĠ":2039,"guanĠxiaĠ":2040,"sanĠnianĠ":2041,"ĠaiĠ":2042,"zaoĠchengĠ":2043,"haiĠshiĠ":2044,"yangĠdeĠ":2045,"dongĠshiĠ":2046,"Ġmei":2047,"Ġjiang":2048,"sheĠliĠ":2049,"10Ġ":2050,"Ġ1Ġ":2051,"yanĠjiu":2052,"ĠyangĠ":2053,"zhongĠzhiĠ":2054,"daoĠleĠ":2055,"shanĠxiĠ":2056,"guoĠyiĠ":2057,"9Ġ":2058,"ĠjiĠzhiĠ":2059,"ĠsuoĠyiĠ":2060,"zhongĠyuĠ":2061,"fenĠbuĠ":2062,"nvĠxingĠ":2063,"ĠheĠzuoĠ":2064,"ĠzhenĠ":2065,"douĠshiĠ":2066,"ĠyaĠ":2067,"junĠdeĠ":2068,"guoĠyuĠ":2069,"ĠĠĠqiĠ":2070,"dongĠdeĠ":2071,"lianĠmengĠ":2072,"daiĠdeĠ":2073,"zhengĠdeĠ":2074,"fangĠfaĠ":2075,"ĠzhiĠzhiĠ":2076,"Ġ14":2077,"2020ĠnianĠ":2078,"caiĠyongĠ":2079,"ĠyiĠsiĠ":2080,"jiaoĠshouĠ":2081,"wuĠliĠ":2082,"xiangĠmuĠ":2083,"fangĠdeĠ":2084,"meiĠpingĠfangĠ":2085,"zhengĠzhiĠrenĠwuĠ":2086,"diĠweiĠ":2087,"liangĠdeĠ":2088,"ĠzaiĠdiĠ":2089,"Ġcong":2090,"ĠĠĠrenĠkouĠ":2091,"ĠtuĠ":2092,"chuanĠtongĠ":2093,"yuanĠyuĠ":2094,"zhanĠdeĠ":2095,"zhuĠdeĠ":2096,"ĠãĤ":2097,"huaĠminĠguoĠ":2098,"ĠĠĠyouĠ":2099,"xiĠtongĠ":2100,"chengĠrenĠ":2101,"AĠ":2102,"ĠĠĠB":2103,"Ġãģ":2104,"jiaĠruĠ":2105,"faĠdeĠ":2106,"geĠshiĠ":2107,"2001ĠnianĠ":2108,"ĠĠĠG":2109,"ĠnianĠyiĠ":2110,"yanĠyuanĠ":2111,"xinĠwenĠ":2112,"ĠdaiĠ":2113,"ĠranĠ":2114,"haoĠdeĠ":2115,"ĠguiĠ":2116,"ĠzeĠ":2117,"ĠliĠsiĠ":2118,"ĠjiĠjiĠ":2119,"fuĠshiĠ":2120,"ĠyiĠhuiĠ":2121,"ĠĠĠjiĠ":2122,"xiangĠguanĠ":2123,"yingĠyuĠ":2124,"daoĠshiĠ":2125,"bianĠmaĠweiĠ":2126,"beiĠrenĠ":2127,"taiĠwan":2128,"heĠshiĠ":2129,"ĠjiĠluĠ":2130,"ĠĠĠM":2131,"ĠxuanĠ":2132,"ĠtaĠmen":2133,"boĠwuĠ":2134,"xueĠdeĠ":2135,"houĠzaiĠ":2136,"lianĠjieĠ":2137,"ĠweiĠfuĠ":2138,"ĠdeĠyiĠgeĠshiĠzhenĠ":2139,"ĠyiĠyiĠ":2140,"ĠriĠzaiĠ":2141,"ĠxueĠmingĠ":2142,"tiĠchuĠ":2143,"mingĠchengĠ":2144,"xiĠjiĠ":2145,"zuiĠjiaĠ":2146,"ĠxiĠyaĠ":2147,"muĠsiĠ":2148,"baoĠkuo":2149,"erĠnianĠ":2150,"lingĠshiĠ":2151,"ĠzheĠshiĠ":2152,"xiaoĠdeĠ":2153,"haiĠyouĠ":2154,"mianĠdeĠ":2155,"ĠweiĠzhuĠ":2156,"ĠrenĠkouĠmiĠduĠ":2157,"geĠdeĠ":2158,"ĠliĠyiĠ":2159,"ĠzhiĠjieĠ":2160,"zuiĠgaoĠ":2161,"ĠlaĠ":2162,"ĠxieĠ":2163,"dongĠjiĠ":2164,"Ġzong":2165,"ĠĠĠH":2166,"ĠĠĠjiaĠ":2167,"ĠĠĠT":2168,"ĠshiĠyiĠzhongĠ":2169,"ĠyeĠshiĠ":2170,"beiĠshiĠ":2171,"yanĠdeĠ":2172,"xiaĠjiĠ":2173,"ĠyuĠshiĠ":2174,"yeĠyuĠ":2175,"geĠmingĠ":2176,"ĠzhouĠ":2177,"ĠnianĠzaiĠ":2178,"yaoĠdeĠ":2179,"gaiĠweiĠ":2180,"ĠgongĠsiĠ":2181,"ĠyiĠxieĠ":2182,"zaiĠdeĠ":2183,"haiĠjunĠ":2184,"shuĠshiĠ":2185,"Ġci":2186,"jiaĠzhiĠ":2187,"ĠÐ":2188,"ĠfangĠ":2189,"zheĠzhongĠ":2190,"shengĠwuĠ":2191,"changĠshiĠ":2192,"huiĠshiĠ":2193,"yanĠzhongĠ":2194,"gaiĠguoĠ":2195,"naĠdaĠ":2196,"ĠkaĠ":2197,"zhuĠshiĠ":2198,"luanĠ":2199,"zhengĠyiĠ":2200,"bianĠdeĠ":2201,"ĠqiuĠ":2202,"qingĠkuang":2203,"keĠjiĠ":2204,"huiĠfuĠ":2205,"ĠzhiĠqianĠ":2206,"ĠN":2207,"chouĠ":2208,"Ġliang":2209,"zaiĠyuĠ":2210,"meiĠtiĠ":2211,"minĠzuĠ":2212,"xinĠxiĠ":2213,"zhaiĠ":2214,"ĠF":2215,"jieĠguoĠ":2216,"ĠyiĠzhongĠ":2217,"ĠjunĠ":2218,"gaoĠdeĠ":2219,"wenĠwuĠ":2220,"Ġ2Ġ":2221,"ĠzuoĠweiĠ":2222,"Ġ2":2223,"Ġ3":2224,"jianĠshiĠ":2225,"qiĠzhiĠ":2226,"ĠjiĠzaiĠ":2227,"yanĠchangĠ":2228,"shuiĠyuĠ":2229,"qianĠdeĠ":2230,"heĠdeĠ":2231,"zhuĠjianĠ":2232,"ĠniĠ":2233,"fanĠduiĠ":2234,"nengĠliĠ":2235,"ĠweiĠyouĠ":2236,"ĠkeĠsiĠ":2237,"Ġ12":2238,"ĠĠĠxingĠzhengĠ":2239,"gongĠkaiĠ":2240,"geĠliĠ":2241,"huaĠshiĠ":2242,"ĠbuĠtongĠ":2243,"xingĠzhiĠ":2244,"3ĠnianĠ":2245,"siĠyuĠ":2246,"leiĠdeĠ":2247,"ĠzhuĠyaoĠ":2248,"ĠchongĠ":2249,"jieĠgouĠ":2250,"huanĠjingĠ":2251,"jiangĠjunĠ":2252,"zhangĠdeĠ":2253,"xianĠyuĠ":2254,"ĠkeĠyiĠ":2255,"gaoĠsuĠ":2256,"ĠxiangĠgangĠ":2257,"chuangĠzuoĠ":2258,"shangĠyeĠ":2259,"zanĠ":2260,"ĠĠĠbenĠ":2261,"ĠK":2262,"pengĠ":2263,"ĠĠĠformulaĠ":2264,"saiĠjiĠ":2265,"ĠzheĠgeĠ":2266,"moĠshiĠ":2267,"aĠerĠ":2268,"ĠI":2269,"Ġmi":2270,"zheĠdeĠ":2271,"biaoĠxianĠ":2272,"ĠdiĠyiĠ":2273,"tongĠjiĠ":2274,"ĠzhongĠhuaĠrenĠminĠgongĠheĠguoĠ":2275,"junĠduiĠ":2276,"Ġling":2277,"ĠliĠweiĠ":2278,"daĠluĠ":2279,"ĠchenĠ":2280,"shengĠyaĠ":2281,"zhuĠliĠ":2282,"geĠyueĠ":2283,"shengĠliĠ":2284,"ĠhongĠ":2285,"wuĠfaĠ":2286,"quanĠliĠ":2287,"zongĠjiaoĠ":2288,"Ġ7":2289,"Ġ9":2290,"dongĠbuĠ":2291,"ĠtangĠ":2292,"zhouĠshiĠ":2293,"geĠlanĠ":2294,"ĠnianĠshiĠ":2295,"diaoĠchaĠ":2296,"siĠnianĠ":2297,"touĠguoĠ":2298,"ĠyiĠbanĠ":2299,"buĠfen":2300,"ĠyunĠ":2301,"biaoĠzhunĠ":2302,"ĠĠĠgenĠjuĠ":2303,"hangĠkongĠ":2304,"biĠyeĠ":2305,"huiĠzaiĠ":2306,"shenĠfenĠ":2307,"ĠĠĠciĠ":2308,"ĠyiĠciĠ":2309,"ĠdangĠdiĠ":2310,"diĠzhiĠ":2311,"gongĠluĠ":2312,"Ġ8":2313,"faĠyuanĠ":2314,"ĠdeĠyiĠbuĠfenĠ":2315,"ĠĠĠE":2316,"ĠyaoĠ":2317,"buĠyiĠ":2318,"ĠneiĠ":2319,"diĠyuĠ":2320,"jiaĠliĠ":2321,"gongĠzuo":2322,"jinĠjiĠ":2323,"chengĠzhongĠ":2324,"bingĠbuĠ":2325,"saiĠdeĠ":2326,"quanĠbuĠ":2327,"ĠtaiĠwanĠ":2328,"baĠgaoĠduĠ":2329,"xieĠhuiĠ":2330,"ĠjiĠtuanĠ":2331,"feiĠchangĠ":2332,"jiaoĠshiĠ":2333,"anĠquanĠ":2334,"dongĠhuaĠ":2335,"ĠzhiĠxingĠ":2336,"biĠdeĠ":2337,"ĠhuangĠ":2338,"chaĠdeĠ":2339,"ĠbingĠqie":2340,"ĠĠĠF":2341,"ĠlinĠ":2342,"shengĠchanĠ":2343,"ziĠliaoĠ":2344,"fuĠheĠ":2345,"jingĠdeĠ":2346,"tuanĠtiĠ":2347,"Ġ4":2348,"jieĠzhiĠ":2349,"luoĠmaĠ":2350,"Ġ10":2351,"chaoĠxianĠ":2352,"gaiĠdiĠ":2353,"fenĠbie":2354,"1ĠnianĠ":2355,"xingĠdongĠ":2356,"pingĠjunĠ":2357,"dingĠyiĠ":2358,"xiaĠyiĠ":2359,"jinĠbiaoĠ":2360,"Ġliu":2361,"wenĠxueĠ":2362,"ĠjinĠxingĠ":2363,"qingĠkuangĠ":2364,"ĠĠĠ19":2365,"duĠshiĠ":2366,"Ġ5":2367,"renĠkouĠpuĠ":2368,"ĠruĠguoĠ":2369,"laĠsiĠ":2370,"Ġming":2371,"jiaĠjiĠ":2372,"ĠzhuanĠ":2373,"gongĠgongĠ":2374,"4ĠnianĠ":2375,"jieĠfangĠ":2376,"ĠzhiĠyuanĠ":2377,"juĠminĠ":2378,"ĠzhiĠhuiĠ":2379,"ĠqiĠhouĠ":2380,"dongĠbeiĠ":2381,"shouĠdeĠ":2382,"Ġgu":2383,"shangĠshiĠ":2384,"yanĠchuĠ":2385,"Ġwo":2386,"SĠ":2387,"ĠjiĠdiĠ":2388,"sheĠzhiĠ":2389,"ĠbaoĠkuo":2390,"2ĠnianĠ":2391,"qiuĠyuanĠ":2392,"yuanĠyiĠ":2393,"ĠyuĠjiĠ":2394,"saiĠzhongĠ":2395,"keĠxueĠ":2396,"yanĠshiĠ":2397,"gongĠtongĠ":2398,"lingĠdaoĠ":2399,"Ġda":2400,"renĠyiĠ":2401,"Ġ13":2402,"zuoĠpin":2403,"ĠchuanĠ":2404,"erĠjiĠ":2405,"zuoĠyouĠ":2406,"Ġsi":2407,"Ġnan":2408,"faĠbiaoĠ":2409,"TĠ":2410,"zaiĠshiĠ":2411,"ĠdeĠzhuĠ":2412,"28ĠriĠ":2413,"sanĠgeĠ":2414,"aoĠyunĠ":2415,"yeĠyouĠ":2416,"kongĠjianĠ":2417,"xingĠjiĠ":2418,"gaiĠbianĠ":2419,"wuĠzhiĠ":2420,"dengĠdiĠ":2421,"ĠlingĠwaiĠ":2422,"lĠ":2423,"jiaĠshiĠ":2424,"ĠdiĠguoĠ":2425,"youĠxiĠ":2426,"yuanĠheĠ":2427,"fangĠzhiĠ":2428,"dengĠrenĠ":2429,"ĠerĠshiĠ":2430,"Ġjiu":2431,"xueĠshiĠ":2432,"guanĠzhongĠ":2433,"lanĠdeĠ":2434,"ĠzhaoĠ":2435,"luĠxianĠ":2436,"xueĠweiĠ":2437,"fenĠzhongĠ":2438,"shuĠweiĠ":2439,"zeĠshiĠ":2440,"juĠdeĠ":2441,"baoĠdaoĠ":2442,"ĠdanĠrenĠ":2443,"ĠliĠzhiĠ":2444,"ĠR":2445,"qiĠweiĠ":2446,"heĠjiĠ":2447,"lveĠ":2448,"chuĠrenĠ":2449,"zhuiĠ":2450,"buĠtongĠ":2451,"qingĠnianĠ":2452,"2008ĠnianĠ":2453,"ĠĠĠthe":2454,"guoĠliĠ":2455,"zuoĠyongĠ":2456,"aoĠlinĠ":2457,"bangĠzhuĠ":2458,"piĠkeĠ":2459,"2016ĠnianĠ":2460,"gongĠdeĠ":2461,"aiĠerĠ":2462,"zaoĠdaoĠ":2463,"ĠyuĠqiĠ":2464,"ĠkeĠnengĠ":2465,"ĠĠĠzhongĠ":2466,"banĠbenĠ":2467,"jiangĠqiĠ":2468,"zuĠdeĠ":2469,"danĠquĠ":2470,"taĠmen":2471,"ĠhuoĠdeĠ":2472,"ĠyuĠyanĠ":2473,"juĠjiĠ":2474,"luĠdiĠ":2475,"tongĠchangĠ":2476,"guiĠdaoĠ":2477,"ĠyouĠguanĠ":2478,"ĠdaĠdaoĠ":2479,"15ĠriĠ":2480,"ĠfuĠzeĠ":2481,"shouĠjiĠ":2482,"CĠ":2483,"ĠyiĠyouĠ":2484,"feiĠjiĠ":2485,"ĠyiĠyuĠ":2486,"ĠcheĠ":2487,"ĠĠĠD":2488,"tuĠdiĠ":2489,"xianĠdaiĠ":2490,"yuanĠnianĠ":2491,"ĠzhiĠjianĠdeĠ":2492,"ĠbingĠqieĠ":2493,"2009ĠnianĠ":2494,"maĠliĠ":2495,"yaĠzhouĠ":2496,"shengĠdeĠyiĠgeĠshiĠzhenĠ":2497,"xiĠbanĠ":2498,"bianĠhuaĠ":2499,"ĠmuĠqianĠ":2500,"ĠL":2501,"jieĠheĠ":2502,"jingĠneiĠ":2503,"ĠĠĠjuĠ":2504,"gongĠyeĠ":2505,"ĠshiĠxingĠ":2506,"huiĠheĠ":2507,"jueĠsaiĠ":2508,"wuĠnianĠ":2509,"taiĠpingĠ":2510,"ĠshuiĠ":2511,"jiaĠyiĠ":2512,"zhengĠceĠ":2513,"houĠyuĠ":2514,"paĠ":2515,"2011ĠnianĠ":2516,"ĠsiĠkeĠ":2517,"neiĠrongĠ":2518,"2012ĠnianĠ":2519,"zaoĠqiĠ":2520,"meiĠyuanĠ":2521,"ĠriĠzhiĠ":2522,"guangĠboĠ":2523,"PĠ":2524,"ĠweiĠzhongĠ":2525,"zhanĠyiĠ":2526,"xianĠrenĠ":2527,"taĠzaiĠ":2528,"xingĠchengĠ":2529,"jiaoĠyiĠ":2530,"piĠpingĠ":2531,"Ġha":2532,"ĠdingĠ":2533,"ĠhaiĠbaĠgaoĠduĠ":2534,"25ĠriĠ":2535,"jiaoĠhuiĠ":2536,"miaoĠshuĠ":2537,"ĠbuĠduiĠ":2538,"wanĠquanĠ":2539,"ĠzhiĠyeĠ":2540,"ĠerĠsiĠ":2541,"Ġmo":2542,"xuanĠzeĠ":2543,"ĠdanĠzaiĠ":2544,"yuanĠyinĠ":2545,"ĠsiĠteĠ":2546,"Ġbei":2547,"ĠtaĠyuĠ":2548,"UTCĠ":2549,"boĠliĠ":2550,"zaoĠdeĠ":2551,"ĠheĠwuĠ":2552,"jianĠsheĠ":2553,"ĠpaiĠ":2554,"rĠ":2555,"ĠyueĠdeĠ":2556,"xieĠyiĠ":2557,"chuĠshiĠ":2558,"xiaoĠshuoĠ":2559,"wuĠkeĠlanĠ":2560,"changĠqiĠ":2561,"yunĠdongĠhuiĠ":2562,"beiĠchengĠweiĠ":2563,"lianĠbangĠ":2564,"Ġ6":2565,"ĠdiĠsanĠ":2566,"ĠweiĠdiĠ":2567,"30ĠriĠ":2568,"ĠjianĠchengĠ":2569,"ĠdangĠzhongĠ":2570,"ĠshiĠyanĠ":2571,"ĠdeĠdaoĠ":2572,"chiĠxuĠ":2573,"zuiĠdaĠ":2574,"wenĠhua":2575,"20ĠriĠ":2576,"mingĠmingĠ":2577,"ĠeĠ":2578,"zuĠheĠ":2579,"yuanĠzhuĠ":2580,"dianĠziĠ":2581,"duoĠshuĠ":2582,"seĠdeĠ":2583,"zhuanĠyeĠ":2584,"ĠtaĠshiĠ":2585,"xingĠyuĠ":2586,"ĠyiĠmingĠ":2587,"houĠlaiĠ":2588,"2014ĠnianĠ":2589,"10ĠriĠ":2590,"gongĠsi":2591,"Ġqie":2592,"linĠshiĠ":2593,"erĠweiĠ":2594,"shengĠheĠ":2595,"ĠyouĠchengĠ":2596,"buĠliĠ":2597,"wuĠyuanĠ":2598,"jieĠdaoĠ":2599,"fuĠzhiĠ":2600,"baĠliĠ":2601,"ziĠgeĠ":2602,"chuĠqiĠ":2603,"ĠrenĠweiĠ":2604,"2018ĠnianĠ":2605,"buĠjiĠ":2606,"2019ĠnianĠ":2607,"Ġ5Ġ":2608,"erĠziĠ":2609,"dongĠnanĠ":2610,"faĠlvĠ":2611,"gaoĠzhongĠ":2612,"taĠmenĠdeĠ":2613,"ĠjiĠgouĠ":2614,"zaĠzhiĠ":2615,"ĠdiĠsiĠ":2616,"ĠjiĠjinĠ":2617,"ĠmengĠ":2618,"Ġ11":2619,"ĠshiĠweiĠyuĠmeiĠguoĠ":2620,"daĠdaoĠ":2621,"yeĠdeĠ":2622,"ĠjinĠguanĠ":2623,"2013ĠnianĠ":2624,"kuiĠ":2625,"ĠweiĠyuĠgaiĠguoĠ":2626,"ĠguoĠminĠ":2627,"faĠzhan":2628,"ĠyueĠzhiĠ":2629,"aĠlaĠ":2630,"30Ġ":2631,"Ġ3Ġ":2632,"ĠliĠkeĠ":2633,"tuĠerĠ":2634,"shengĠweiĠ":2635,"ĠshiĠjieĠdaĠ":2636,"baoĠgaoĠ":2637,"ĠmianĠ":2638,"ĠĠĠK":2639,"zhongĠjiĠ":2640,"24ĠriĠ":2641,"daoĠyiĠ":2642,"2015ĠnianĠ":2643,"ĠliĠyongĠ":2644,"ĠliĠkaiĠ":2645,"fangĠxiangĠ":2646,"guiĠdingĠ":2647,"neiĠbuĠ":2648,"ĠyuĠzhongĠ":2649,"guoĠminĠ":2650,"guangĠdongĠ":2651,"wangĠdeĠ":2652,"ĠsuiĠhouĠ":2653,"Ġsan":2654,"boĠwuĠguanĠ":2655,"ĠĠĠW":2656,"luoĠdeĠ":2657,"26ĠriĠ":2658,"canĠsaiĠ":2659,"ĠyueĠshiĠ":2660,"ĠyingĠguoĠ":2661,"ĠzheĠzhongĠ":2662,"2007ĠnianĠ":2663,"muĠbiaoĠ":2664,"ĠweiĠsiĠ":2665,"sheĠquĠ":2666,"ĠyuĠzhiĠ":2667,"guanĠzhiĠ":2668,"dianĠliĠ":2669,"ĠtongĠnianĠ":2670,"2005ĠnianĠ":2671,"20Ġ":2672,"gongĠchanĠdangĠ":2673,"ĠgengĠ":2674,"18ĠriĠ":2675,"Ġke":2676,"ĠyouĠqiĠ":2677,"xianĠyiĠ":2678,"ĠxiĠlieĠ":2679,"ĠO":2680,"dieĠ":2681,"ĠfenĠbuĠyuĠ":2682,"aoĠlinĠpiĠkeĠ":2683,"bingĠweiĠ":2684,"lianĠxiĠ":2685,"gongĠbuĠ":2686,"ĠjiĠchangĠ":2687,"juĠbanĠ":2688,"fuĠliĠ":2689,"ĠwaiĠ":2690,"muĠdeĠ":2691,"ĠchuĠleĠ":2692,"Ġ2001ĠnianĠ":2693,"lieĠdeĠ":2694,"ĠshiĠheĠ":2695,"changĠweiĠ":2696,"quanĠqiuĠ":2697,"wuĠxianĠ":2698,"ĠerĠshengĠ":2699,"biĠliĠ":2700,"DĠ":2701,"shenĠdeĠ":2702,"touĠziĠ":2703,"teĠbie":2704,"ĠshiĠziĠ":2705,"ĠshaĠ":2706,"2017ĠnianĠ":2707,"muĠdiĠ":2708,"yinĠhangĠ":2709,"16ĠriĠ":2710,"ĠjiĠheĠ":2711,"guanĠfangĠ":2712,"dingĠweiĠ":2713,"xunĠlianĠ":2714,"shangĠshuĠ":2715,"dongĠjingĠ":2716,"ĠganĠ":2717,"fenĠzhiĠ":2718,"fuĠyiĠ":2719,"daoĠyuĠ":2720,"dangĠdeĠ":2721,"aĠĠĠ":2722,"paiĠsheĠ":2723,"guoĠzhiĠ":2724,"17ĠriĠ":2725,"ĠÃ":2726,"ziĠyuĠ":2727,"huaĠxueĠ":2728,"kaiĠfangĠ":2729,"shouĠyuĠ":2730,"ĠyouĠxianĠgongĠsiĠ":2731,"ĠĠĠzhengĠzhiĠ":2732,"21ĠriĠ":2733,"buĠzhiĠ":2734,"ĠdeĠshiĠzhenĠ":2735,"gaiĠnianĠ":2736,"27ĠriĠ":2737,"zheĠshiĠ":2738,"baoĠfaĠ":2739,"kaĠerĠ":2740,"ĠzhongĠxueĠ":2741,"ĠminĠ":2742,"yingĠyongĠ":2743,"2006ĠnianĠ":2744,"8ĠriĠ":2745,"ĠĠĠof":2746,"mingĠziĠ":2747,"junĠweiĠ":2748,"ĠliĠfaĠ":2749,"12ĠriĠ":2750,"23ĠriĠ":2751,"shangĠyouĠ":2752,"ĠsongĠ":2753,"ceĠshiĠ":2754,"ĠyinĠci":2755,"xianĠweiĠ":2756,"suĠlianĠ":2757,"meiĠguoĠrenĠkouĠpuĠ":2758,"ĠdeĠweiĠ":2759,"7ĠriĠ":2760,"feiĠxingĠ":2761,"shuĠliangĠweiĠ":2762,"qiĠjianĠ":2763,"ĠqieĠ":2764,"juĠleĠbuĠ":2765,"Ġque":2766,"fuĠyuĠ":2767,"boĠchuĠ":2768,"yinĠshiĠ":2769,"6ĠnianĠ":2770,"fenĠxiĠ":2771,"xueĠzheĠ":2772,"huangĠdiĠ":2773,"huiĠyuĠ":2774,"xiĠlieĠ":2775,"qiĠjiĠ":2776,"2021ĠnianĠ":2777,"banĠshiĠ":2778,"11ĠriĠ":2779,"ĠdeĠzhongĠ":2780,"22ĠriĠ":2781,"guiĠmoĠ":2782,"ĠshiĠfaĠguoĠ":2783,"Ġ6Ġ":2784,"21Ġ":2785,"biĠxuĠ":2786,"9ĠriĠ":2787,"lingĠyuĠ":2788,"19ĠriĠ":2789,"shanĠdongĠ":2790,"gongĠnengĠ":2791,"29ĠriĠ":2792,"chuĠyiĠ":2793,"ĠfuĠwuĠ":2794,"tingĠzhiĠ":2795,"kunĠ":2796,"Ġ190":2797,"yinĠqiĠ":2798,"meĠ":2799,"guanĠyuanĠ":2800,"yingĠshiĠ":2801,"teĠdeĠ":2802,"zuiĠdaĠdeĠ":2803,"zhengĠzaiĠ":2804,"fuĠjinĠ":2805,"fengĠgeĠ":2806,"ĠyueĠhanĠ":2807,"ĠjiĠbaiĠ":2808,"jingĠyingĠ":2809,"ĠW":2810,"2022ĠnianĠ":2811,"jinĠzhiĠ":2812,"3ĠriĠ":2813,"pingĠjiaĠ":2814,"suoĠshuĠdeĠ":2815,"nengĠgouĠ":2816,"shengĠmingĠ":2817,"14ĠriĠ":2818,"geĠdiĠ":2819,"zhuĠzaiĠ":2820,"qingĠkuangĠxiaĠ":2821,"yuanĠjiĠ":2822,"shouĠshiĠ":2823,"tiaoĠjianĠ":2824,"0Ġ":2825,"5ĠriĠ":2826,"jiaoĠdeĠ":2827,"shengĠzaiĠ":2828,"quĠhuaĠ":2829,"shengĠchan":2830,"yuanĠzhiĠ":2831,"taiĠdeĠ":2832,"xiĠshiĠ":2833,"ĠĠĠR":2834,"shangĠweiĠ":2835,"ĠĠĠyouĠyuĠ":2836,"sheĠdeĠ":2837,"maiĠkeĠ":2838,"yaĠyuĠ":2839,"31ĠriĠ":2840,"ĠbuĠjiuĠ":2841,"jieĠchuĠ":2842,"ĠxunĠ":2843,"ĠdaoĠzhiĠ":2844,"ĠdaĠhuiĠ":2845,"lianĠmeng":2846,"xiaoĠxingĠxingĠ":2847,"4ĠriĠ":2848,"2ĠriĠ":2849,"chaoĠjiĠ":2850,"daĠjiĠ":2851,"ĠlvĠ":2852,"ĠrenĠzhongĠ":2853,"ĠzuiĠhouĠ":2854,"6ĠriĠ":2855,"zangĠ":2856,"dianĠdeĠ":2857,"teĠzhengĠ":2858,"haiĠyuĠ":2859,"ĠgongĠchiĠ":2860,"geĠjiĠ":2861,"liuĠxingĠ":2862,"13ĠriĠ":2863,"nanĠxingĠ":2864,"ĠsaiĠ":2865,"boĠteĠ":2866,"wenĠwuĠbaoĠhuĠ":2867,"ĠnianĠdai":2868,"ĠsuiĠranĠ":2869,"geĠweiĠ":2870,"renĠheĠ":2871,"wuĠjiĠ":2872,"renĠjiĠ":2873,"manĠhuaĠ":2874,"lvĠyouĠ":2875,"Ġduo":2876,"zuoĠjiaĠ":2877,"keĠdaĠ":2878,"EĠ":2879,"siĠrenĠ":2880,"geĠshouĠ":2881,"ĠtongĠguoĠ":2882,"xiongĠdiĠ":2883,"yinĠciĠ":2884,"huangĠjiaĠ":2885,"ĠshenĠzhiĠ":2886,"zongĠheĠ":2887,"ouĠzhou":2888,"BĠ":2889,"jianĠweiĠ":2890,"shengĠfenĠ":2891,"ĠhaoĠmiĠ":2892,"ĠlingĠyiĠ":2893,"Ġbr":2894,"ĠpiĠ":2895,"xuĠduo":2896,"Ġxin":2897,"ĠU":2898,"ĠjueĠ":2899,"lieĠche":2900,"ĠkaiĠshiĠ":2901,"juĠrenĠ":2902,"niuĠyueĠ":2903,"ĠbrĠ":2904,"ĠĠĠjinĠ":2905,"ciĠshiĠjieĠdaĠ":2906,"banĠdaoĠ":2907,"zhuĠtiĠ":2908,"zhongĠweiĠ":2909,"ĠqiangĠ":2910,"chengĠyiĠ":2911,"ĠzhiĠjiĠ":2912,"zaiĠweiĠ":2913,"zhuangĠtaiĠ":2914,"ĠyouĠmingĠ":2915,"qiĠnianĠ":2916,"ĠtaĠcengĠ":2917,"ĠsuiĠran":2918,"benĠdeĠ":2919,"bianĠweiĠ":2920,"fenĠziĠ":2921,"ĠĠĠO":2922,"pinĠdaoĠ":2923,"youĠyiĠgeĠ":2924,"ĠzaiĠqiĠ":2925,"juĠzhongĠ":2926,"heĠliĠ":2927,"maoĠyiĠ":2928,"20ĠshiĠjiĠ":2929,"wangĠluoĠ":2930,"buĠzhangĠ":2931,"renĠkouĠshuĠliangĠweiĠ":2932,"huiĠyouĠ":2933,"ĠĠĠziĠ":2934,"qianĠyiĠ":2935,"aoĠsiĠ":2936,"2004ĠnianĠ":2937,"xuanĠshouĠ":2938,"shuoĠshiĠ":2939,"jieĠduanĠ":2940,"ciĠdeĠ":2941,"gaoĠjiĠ":2942,"zhunĠbeiĠ":2943,"Ġhan":2944,"faĠshiĠ":2945,"beiĠdeĠ":2946,"ĠheĠnanĠ":2947,"fangĠanĠ":2948,"fangĠyuĠ":2949,"miĠerĠ":2950,"Ġ4Ġ":2951,"waiĠdeĠ":2952,"daĠxingĠ":2953,"duoĠciĠ":2954,"Ġgeng":2955,"ciĠzhiĠ":2956,"bingĠliĠ":2957,"Ġchen":2958,"gongĠzhongĠ":2959,"huiĠdaoĠ":2960,"ĠĠĠliĠ":2961,"moĠdeĠ":2962,"ĠyiĠlaiĠ":2963,"ĠzhiĠzhongĠ":2964,"ĠchiĠ":2965,"ĠĠĠL":2966,"chengĠduĠ":2967,"buĠweiĠ":2968,"2000ĠnianĠ":2969,"onĠ":2970,"shuĠguanĠ":2971,"liuĠnianĠ":2972,"wuĠqiĠ":2973,"jieĠjiĠ":2974,"leĠyiĠgeĠ":2975,"yuanĠweiĠ":2976,"baoĠhanĠ":2977,"junĠzaiĠ":2978,"ĠdiĠfangĠ":2979,"dianĠshiĠtaiĠ":2980,"youĠzhiĠ":2981,"ziĠshiĠ":2982,"ĠdeĠyiĠzhongĠ":2983,"xingĠheĠ":2984,"ĠlanĠ":2985,"ĠrenĠkou":2986,"ĠrenĠkouĠmiĠduĠweiĠ":2987,"juĠshiĠ":2988,"dengĠjiĠ":2989,"ĠzhongĠbuĠ":2990,"luĠjunĠ":2991,"xiangĠtongĠ":2992,"ĠĠĠN":2993,"xuanĠweiĠ":2994,"Ġfan":2995,"zheĠjiangĠ":2996,"zuiĠhouĠ":2997,"biaoĠyanĠ":2998,"ĠyiĠshiĠ":2999,"qiuĠjiĠ":3000,"ĠgangĠ":3001,"sheĠbeiĠ":3002,"siĠwangĠ":3003,"gaiĠgeĠ":3004,"ĠzhuĠyao":3005,"ĠweiĠyuĠfaĠguoĠ":3006,"aiĠdeĠ":3007,"meiĠzhouĠ":3008,"daĠliangĠ":3009,"nongĠyeĠ":3010,"duoĠgeĠ":3011,"guĠjiĠ":3012,"ĠdouĠ":3013,"ĠzhiĠjinĠ":3014,"dianĠshiĠjuĠ":3015,"houĠyouĠ":3016,"ĠshiĠdaiĠ":3017,"ĠxiĠbanĠ":3018,"ĠchaoĠ":3019,"shangĠyiĠ":3020,"yangĠshiĠ":3021,"zhuĠyuĠ":3022,"zhanĠdouĠ":3023,"guangĠchangĠ":3024,"liuĠshiĠ":3025,"zaiĠjiĠ":3026,"Ġzhao":3027,"miĠdeĠ":3028,"ĠriĠqiĠ":3029,"faĠyuĠ":3030,"pĠ":3031,"zhanĠkaiĠ":3032,"wenĠwuĠbaoĠhuĠdanĠweiĠ":3033,"Ġfei":3034,"ĠĠĠdaĠ":3035,"ĠzhiĠliĠ":3036,"jiaĠheĠ":3037,"nuĠ":3038,"tiaoĠyueĠ":3039,"ĠjiaĠruĠ":3040,"fuĠjianĠ":3041,"xieĠzhuĠ":3042,"ĠyiĠbeiĠ":3043,"Ġxiang":3044,"ĠbuĠzaiĠ":3045,"chanĠpinĠ":3046,"muĠqianĠ":3047,"jiangĠyuĠ":3048,"bianĠchengĠ":3049,"huoĠdeĠleĠ":3050,"hangĠkong":3051,"naiĠ":3052,"youĠzhengĠ":3053,"Ġze":3054,"renĠyuĠ":3055,"fenĠleiĠ":3056,"daoĠluĠ":3057,"gongĠyouĠrenĠkouĠ":3058,"5ĠnianĠ":3059,"yingĠjiĠ":3060,"duanĠdeĠ":3061,"ĠtouĠ":3062,"qunĠdaoĠ":3063,"ĠzhiĠzaiĠ":3064,"qingĠdeĠ":3065,"ĠfenĠbie":3066,"biaoĠzhun":3067,"zhenĠquĠ":3068,"ĠbeiĠqiĠ":3069,"haiĠbaĠ":3070,"ĠmeiĠyouĠ":3071,"ĠzheĠyiĠ":3072,"ĠJ":3073,"biĠjiaoĠ":3074,"ĠĠĠjianĠ":3075,"naoĠ":3076,"ĠqiĠyeĠ":3077,"ĠxianĠshiĠ":3078,"zhanĠzheng":3079,"guiĠhuaĠ":3080,"shouĠduĠ":3081,"9ĠnianĠ":3082,"cuoĠ":3083,"ĠliĠziĠ":3084,"ĠkeĠneng":3085,"suĠduĠ":3086,"juĠyuĠ":3087,"nvĠerĠ":3088,"xiĠbuĠ":3089,"ĠxiĠwangĠ":3090,"xiĠweiĠ":3091,"ĠzhongĠhuaĠminĠguoĠ":3092,"ĠxingĠzhengĠ":3093,"ĠbuĠhuiĠ":3094,"ĠyiĠrenĠ":3095,"ĠfaĠguoĠ":3096,"qiaoĠzhiĠ":3097,"ĠgongĠfenĠ":3098,"ĠzaiĠzhongĠ":3099,"meiĠpingĠfangĠgongĠliĠ":3100,"rongĠyuĠ":3101,"deĠĠĠ":3102,"dongĠxiĠ":3103,"jiuĠshiĠzhenĠ":3104,"dongĠliĠ":3105,"ĠyiĠyangĠ":3106,"ĠdeĠshiĠjianĠ":3107,"jinĠgongĠ":3108,"diĠyiĠgeĠ":3109,"douĠyouĠ":3110,"kĠ":3111,"siĠheĠ":3112,"ĠĠĠxiĠ":3113,"ĠchengĠquĠ":3114,"laĠdeĠ":3115,"kenĠ":3116,"siĠweiĠ":3117,"xianĠdeĠyiĠgeĠ":3118,"maĠlai":3119,"henĠduoĠ":3120,"Ġ00":3121,"taiĠbeiĠ":3122,"ruĠxiaĠ":3123,"quĠdaiĠ":3124,"zeĠrenĠ":3125,"fuĠrenĠ":3126,"laĠkeĠ":3127,"jinĠbiaoĠsaiĠ":3128,"ĠciĠhouĠ":3129,"ĠyiĠxiaĠ":3130,"angĠ":3131,"shangĠwuĠ":3132,"ĠĠĠtheĠĠĠ":3133,"ĠnvĠ":3134,"yuĠshiĠdeĠ":3135,"ĠyuĠweiĠ":3136,"IĠ":3137,"jianĠyouĠ":3138,"ĠerĠbeiĠ":3139,"zongĠliĠ":3140,"wangĠguoĠ":3141,"lianĠxuĠ":3142,"xiangĠduiĠ":3143,"ĠĠĠfuĠ":3144,"quĠyiĠ":3145,"minĠzhongĠ":3146,"jieĠrang":3147,"rengĠran":3148,"xiaoĠxiĠ":3149,"miĠshuĠ":3150,"Ġruo":3151,"tieĠdaoĠ":3152,"Ġzhou":3153,"zhengĠgeĠ":3154,"ciĠjiĠ":3155,"zuiĠhouĠyiĠ":3156,"ĠĠĠzheĠ":3157,"7ĠnianĠ":3158,"jueĠdeĠ":3159,"renĠkouĠshuĠliangĠweiĠrenĠ":3160,"niaoĠ":3161,"8ĠnianĠ":3162,"ĠzhongĠxin":3163,"quanĠdeĠ":3164,"ĠheiĠ":3165,"ĠĠĠzhuĠ":3166,"fenĠdeĠ":3167,"zhanĠlingĠ":3168,"ĠmanĠ":3169,"xinĠjiaĠ":3170,"waiĠjiaoĠ":3171,"diĠsanĠ":3172,"jiaĠnaĠdaĠ":3173,"ĠliĠshuĠyuĠ":3174,"tianĠzhuĠjiaoĠ":3175,"zhenĠshiĠ":3176,"ĠrenĠzaiĠ":3177,"yeĠwuĠ":3178,"ĠINSEE":3179,"chengĠzhenĠ":3180,"ciĠyuĠ":3181,"qiĠta":3182,"Ġtian":3183,"ĠnianĠjiĠ":3184,"ĠranĠhouĠ":3185,"cengĠzaiĠ":3186,"yuanĠyouĠ":3187,"daĠxue":3188,"Ġwu":3189,"jianĠchaĠ":3190,"ĠyouĠyiĠ":3191,"zhengĠquanĠ":3192,"shengĠchengĠ":3193,"zuoĠchuĠ":3194,"neĠ":3195,"shouĠgeĠ":3196,"nanĠjiĠ":3197,"ĠdeĠshiĠhouĠ":3198,"ĠheĠbeiĠ":3199,"niĠsiĠ":3200,"juĠjueĠ":3201,"wangĠzhanĠ":3202,"ĠkongĠ":3203,"luĠshiĠ":3204,"jiaoĠweiĠ":3205,"quĠxiaoĠ":3206,"tiĠjiĠ":3207,"lĠĠĠ":3208,"cheĠliangĠ":3209,"dianĠjiĠ":3210,"ĠjieĠzhiĠ":3211,"Ġrang":3212,"shengĠzhiĠ":3213,"leĠjiĠ":3214,"ĠgaiĠshengĠ":3215,"heĠweiĠ":3216,"ĠyingĠchiĠ":3217,"daĠliĠyaĠ":3218,"zhongĠxinĠ":3219,"duiĠzaiĠ":3220,"tianĠwenĠ":3221,"zhenĠdeĠ":3222,"xianĠfaĠ":3223,"ziĠxingĠ":3224,"yunĠyingĠ":3225,"heĠzhiĠ":3226,"diĠfangĠ":3227,"lanĠxiĠ":3228,"ĠqiĠta":3229,"ĠerĠzaiĠ":3230,"ĠzongĠmianĠjiĠ":3231,"VĠ":3232,"ĠdeĠyuĠ":3233,"jieĠjueĠ":3234,"oĠ":3235,"yeĠzaiĠ":3236,"2002ĠnianĠ":3237,"ĠriĠben":3238,"2003ĠnianĠ":3239,"erĠzaiĠ":3240,"moĠxiĠ":3241,"gongĠyiĠ":3242,"shuĠzhiĠ":3243,"ĠshiĠchangĠ":3244,"ĠdeĠliĠ":3245,"ĠdiĠqiĠ":3246,"ĠjianĠzhuĠ":3247,"ĠduiĠyuĠ":3248,"shouĠweiĠ":3249,"dianĠying":3250,"ĠrenĠkouĠmiĠduĠmeiĠpingĠfangĠgongĠliĠ":3251,"xiaoĠxueĠ":3252,"yingĠxiang":3253,"chaĠdeĠshuĠjuĠ":3254,"youĠzhengĠbianĠmaĠweiĠ":3255,"puĠtaoĠ":3256,"huiĠzhiĠ":3257,"ganĠdaoĠ":3258,"ĠshiĠzhenĠbianĠmaĠweiĠ":3259,"ĠINSEEĠshiĠzhenĠbianĠmaĠweiĠ":3260,"qingĠshiĠ":3261,"teĠliĠ":3262,"ĠrenĠkouĠmiĠduĠweiĠmeiĠpingĠfangĠ":3263,"zhuoĠ":3264,"ruanĠ":3265,"mengĠguĠ":3266,"diĠyiĠciĠ":3267,"muĠshiĠ":3268,"zuoĠzhanĠ":3269,"ĠxingĠchengĠ":3270,"ĠĠĠbuĠ":3271,"ĠxiaĠlingĠshiĠ":3272,"xiĠliĠ":3273,"xuanĠquĠweiĠ":3274,"leiĠjiĠ":3275,"gaoĠyuĠ":3276,"niĠya":3277,"yuĠshiĠdeĠrenĠkouĠshuĠliangĠweiĠrenĠ":3278,"baoĠdeĠ":3279,"meiĠguoĠrenĠkouĠpuĠchaĠdeĠshuĠjuĠ":3280,"siĠzaiĠ":3281,"zuoĠyiĠ":3282,"luĠyiĠ":3283,"ĠerĠrenĠkouĠmiĠduĠweiĠmeiĠpingĠfangĠ":3284,"ĠdangĠdiĠgongĠyouĠrenĠkouĠ":3285,"xiĠyuĠ":3286,"yunĠxingĠ":3287,"jingĠchangĠ":3288,"ĠteĠbie":3289,"ĠhuoĠjiuĠshiĠzhenĠ":3290,"xinĠliĠ":3291,"yuanĠziĠ":3292,"jiangĠshiĠ":3293,"shengĠjiĠxuanĠquĠweiĠ":3294,"ĠĠĠnianĠ":3295,"faĠdongĠ":3296,"kuaiĠsuĠ":3297,"mingĠyiĠ":3298,"zhangĠdaĠ":3299,"shaoĠnianĠ":3300,"shengĠrenĠ":3301,"Ġc":3302,"bianĠjiĠ":3303,"ĠzhongĠyang":3304,"chongĠjianĠ":3305,"fenĠweiĠfaĠguoĠ":3306,"ĠgaiĠshengĠfenĠweiĠfaĠguoĠ":3307,"faĠqiĠ":3308,"yangĠhuaĠ":3309,"Ġbai":3310,"gaoĠdengĠ":3311,"congĠshiĠ":3312,"shuoĠfaĠ":3313,"ĠyouĠrenĠ":3314,"ĠnianĠyuĠ":3315,"ĠhuanĠ":3316,"chengĠliĠyuĠ":3317,"2023ĠnianĠ":3318,"ĠshuangĠ":3319,"jiaĠzhongĠ":3320,"jinĠyiĠbuĠ":3321,"naĠdeĠ":3322,"lianĠheĠguoĠ":3323,"yanĠjiuĠsuoĠ":3324,"zhengĠmingĠ":3325,"ĠĠĠ18":3326,"fangĠqiĠ":3327,"daĠquĠ":3328,"taiĠguoĠ":3329,"erĠheĠ":3330,"ĠzhengĠshiĠ":3331,"gongĠxianĠ":3332,"gouĠdeĠ":3333,"12Ġ":3334,"lunĠdun":3335,"fanĠhuiĠ":3336,"aoĠlinĠpiĠkeĠyunĠdongĠhuiĠ":3337,"xiangĠjiĠ":3338,"jieĠrangĠdeĠshiĠzhenĠ":3339,"ziĠweiĠ":3340,"yunĠshuĠ":3341,"gongĠrenĠ":3342,"huoĠshiĠ":3343,"suoĠshuĠdeĠshengĠjiĠxuanĠquĠweiĠ":3344,"Ġbo":3345,"ziĠran":3346,"yuanĠliĠ":3347,"siĠliĠ":3348,"zhanĠdou":3349,"tiĠxiĠ":3350,"ceĠdeĠ":3351,"jianĠchengĠ":3352,"cuiĠ":3353,"xingĠqiĠ":3354,"biaoĠweiĠ":3355,"ĠĠĠheĠ":3356,"ĠerĠqie":3357,"naĠliĠ":3358,"zhuĠchiĠ":3359,"ziĠyuanĠ":3360,"zhongĠhuaĠrenĠminĠgongĠheĠguoĠ":3361,"mingĠdanĠ":3362,"boĠlanĠ":3363,"xiĠzaiĠ":3364,"beiĠyiĠ":3365,"daoĠrenĠ":3366,"reĠdaiĠ":3367,"xiĠbanĠyaĠ":3368,"fuĠqinĠ":3369,"huaĠweiĠ":3370,"luoĠfuĠ":3371,"ĠxiĠbeiĠ":3372,"xiaĠwuĠ":3373,"paiĠdeĠ":3374,"faĠsheĠ":3375,"Ġhuang":3376,"ĠdiĠquĠdeĠ":3377,"niĠkeĠ":3378,"xiaoĠzuĠ":3379,"wenĠmingĠ":3380,"ĠhaĠ":3381,"ĠzhiĠchengĠ":3382,"ĠĠĠcheĠzhanĠ":3383,"wanĠjiaĠ":3384,"ĠheĠbingĠ":3385,"diaoĠcha":3386,"chanĠyeĠ":3387,"FĠ":3388,"anĠshiĠ":3389,"ĠshiĠyiĠmingĠ":3390,"xiangĠdangĠ":3391,"ĠyouĠshiĠ":3392,"shengĠshiĠ":3393,"ĠĠĠchuĠ":3394,"chaoĠzhengĠzhiĠrenĠwuĠ":3395,"jinĠxingĠleĠ":3396,"beiĠjiĠ":3397,"suĠdeĠ":3398,"ĠweiĠshengĠ":3399,"xuanĠchuanĠ":3400,"jianĠjiĠ":3401,"jinĠyiĠ":3402,"ĠbuĠnengĠ":3403,"nanĠshengĠ":3404,"ĠĠĠtaĠ":3405,"haoĠweiĠ":3406,"ĠshiĠyiĠweiĠ":3407,"yingĠliĠ":3408,"jingĠshenĠ":3409,"paiĠmingĠ":3410,"lvĠshiĠ":3411,"xianĠxiangĠ":3412,"shouĠshangĠ":3413,"ĠguoĠjiĠ":3414,"huĠshiĠ":3415,"shuĠzhongĠ":3416,"Ġkang":3417,"ziĠheĠ":3418,"xiĠyangĠ":3419,"ĠÎ":3420,"guanĠzhuĠ":3421,"fuĠzeĠguanĠxiaĠ":3422,"Ġbi":3423,"lianĠdeĠ":3424,"qiĠzhongĠyiĠ":3425,"mieĠ":3426,"baĠnianĠ":3427,"ĠzaoĠ":3428,"lanĠqiuĠ":3429,"jiaĠtingĠ":3430,"zaĠ":3431,"tongĠxingĠ":3432,"lieĠweiĠ":3433,"shuaiĠ":3434,"ĠpeiĠ":3435,"saiĠerĠ":3436,"ĠyueĠzaiĠ":3437,"zhanĠhouĠ":3438,"xuanĠrenĠ":3439,"liuĠyuĠ":3440,"shuĠliangĠ":3441,"foĠjiaoĠ":3442,"keĠweiĠ":3443,"jieĠyiĠ":3444,"ĠchuangĠ":3445,"daoĠyanĠ":3446,"zhengĠjuĠ":3447,"zaoĠnianĠ":3448,"ĠerĠqieĠ":3449,"daĠweiĠ":3450,"qiuĠdeĠ":3451,"ĠxiĠnanĠ":3452,"taoĠlunĠ":3453,"ĠbiaoĠshiĠ":3454,"wangĠshiĠ":3455,"duĠjiaoĠ":3456,"yanĠyiĠ":3457,"Ġ193":3458,"reĠdai":3459,"mingĠshiĠ":3460,"zhengĠdangĠ":3461,"laiĠyuanĠ":3462,"ĠĠĠbeiĠ":3463,"wenĠjianĠ":3464,"ĠlongĠ":3465,"genĠju":3466,"baoĠchiĠ":3467,"XĠ":3468,"ĠzhongĠgongĠ":3469,"tiaoĠzhanĠ":3470,"ĠyiĠjianĠ":3471,"pingĠlunĠ":3472,"houĠqiĠ":3473,"zhongĠyangĠ":3474,"ruiĠshiĠ":3475,"ĠzhiĠxianĠ":3476,"rengĠranĠ":3477,"ĠdaoĠleĠ":3478,"ĠtuoĠ":3479,"Ġ10ĠyueĠ":3480,"ĠyiĠxiĠ":3481,"lvĠkeĠ":3482,"ĠĠĠU":3483,"ĠjiĠsiĠ":3484,"ĠzongĠrenĠkouĠ":3485,"ziĠdongĠ":3486,"xiaĠdeĠyiĠgeĠ":3487,"fanĠdeĠ":3488,"ĠwuĠkeĠ":3489,"diĠsiĠ":3490,"Ġben":3491,"biaoĠmingĠ":3492,"ĠshiĠxianĠ":3493,"pingĠtaiĠ":3494,"MĠ":3495,"xuĠdeĠ":3496,"luĠyuĠ":3497,"ĠzhiĠmingĠ":3498,"haiĠdeĠ":3499,"cengĠjingĠ":3500,"luoĠma":3501,"keĠliĠsiĠ":3502,"ĠjiĠhuĠ":3503,"ĠshiĠjianĠyuĠ":3504,"xuĠyao":3505,"moĠxingĠ":3506,"pengĠyouĠ":3507,"ĠliĠrenĠ":3508,"Ġhao":3509,"daĠyueĠ":3510,"yinĠhang":3511,"eĠluoĠ":3512,"fengĠxianĠ":3513,"nanĠjingĠ":3514,"ĠcanĠ":3515,"ĠbeiĠjingĠ":3516,"ĠdeĠdiĠfangĠ":3517,"shengĠyiĠ":3518,"xuanĠquĠ":3519,"ĠciĠshiĠ":3520,"raoĠ":3521,"Ġlin":3522,"gongĠzhongĠyangĠ":3523,"jiaoĠtangĠ":3524,"taiĠpingĠyangĠ":3525,"keĠzaiĠ":3526,"xĠ":3527,"zhengĠbuĠ":3528,"jiaoĠbuĠ":3529,"lianĠbang":3530,"ĠqueĠ":3531,"xingĠbuĠ":3532,"jingĠyouĠ":3533,"yanĠgeĠ":3534,"riĠqiĠ":3535,"yuanĠzaiĠ":3536,"ĠguoĠwangĠ":3537,"daoĠdaĠ":3538,"shenĠweiĠ":3539,"jianĠduiĠ":3540,"chongĠtuĠ":3541,"wuĠrenĠ":3542,"ĠĠĠxianĠ":3543,"jianĠrenĠ":3544,"tuiĠyiĠ":3545,"biaoĠzhiĠ":3546,"huaĠyuĠ":3547,"ruĠheĠ":3548,"Ġe":3549,"ĠĠĠ2021":3550,"keĠshiĠ":3551,"qianĠshiĠ":3552,"ĠnianĠduĠ":3553,"qianĠzhiĠ":3554,"gĠ":3555,"xianĠheĠ":3556,"shangĠyingĠ":3557,"xiaoĠguoĠ":3558,"souĠ":3559,"daoĠheĠ":3560,"ĠyiĠshangĠ":3561,"keĠsiĠ":3562,"jingĠweiĠ":3563,"ĠgongĠyuanĠ":3564,"leiĠxingĠ":3565,"ĠyiĠliĠ":3566,"ĠĠĠsuiĠ":3567,"ĠdaĠxue":3568,"zhouĠweiĠ":3569,"xianĠjiĠ":3570,"dangĠxuanĠ":3571,"yeĠbuĠ":3572,"fengĠbaoĠ":3573,"biaoĠdaĠ":3574,"guangĠzhouĠ":3575,"xiaĠshiĠ":3576,"pangĠ":3577,"ĠĠĠ2020":3578,"liangĠzhongĠ":3579,"zhangĠshiĠ":3580,"xieĠdeĠ":3581,"ĠouĠ":3582,"biĠyaĠ":3583,"chuĠshengĠ":3584,"shengĠhuo":3585,"dingĠyuĠ":3586,"tiaoĠzhengĠ":3587,"qiĠyeĠ":3588,"ĠcengĠrenĠ":3589,"shenĠqingĠ":3590,"jiuĠnianĠ":3591,"pingĠmianĠ":3592,"rouĠ":3593,"ĠjiĠbeiĠ":3594,"jiaoĠquĠ":3595,"nĠĠĠ":3596,"anĠjianĠ":3597,"chengĠxianĠ":3598,"luĠsiĠ":3599,"xingĠyiĠ":3600,"ĠzhiĠfuĠ":3601,"fenĠbieĠ":3602,"tuanĠduiĠ":3603,"ĠerĠrenĠkouĠmiĠduĠweiĠmeiĠpingĠfangĠqianĠmiĠ":3604,"ĠThe":3605,"ĠliĠdaĠ":3606,"yaoĠqingĠ":3607,"ĠjinĠruĠ":3608,"chaĠyiĠ":3609,"ĠliĠlunĠ":3610,"yingĠgeĠlanĠ":3611,"puĠtongĠ":3612,"yuanĠzhangĠ":3613,"yuanĠsuĠ":3614,"xingĠrenĠ":3615,"ĠqinĠ":3616,"xiĠheĠ":3617,"xiaoĠshouĠ":3618,"qiuĠchangĠ":3619,"ĠtaĠmenĠdeĠ":3620,"teĠbieĠ":3621,"zhongĠyaoĠ":3622,"chuĠshengĠyuĠ":3623,"yanĠzhiĠ":3624,"hengĠxingĠ":3625,"neiĠrong":3626,"ziĠyiĠ":3627,"ruĠciĠ":3628,"queĠzhenĠ":3629,"duiĠshouĠ":3630,"ĠĠĠa":3631,"laĠfuĠ":3632,"ĠjieĠguoĠ":3633,"11Ġ":3634,"ĠnianĠhouĠ":3635,"ĠzhongĠyouĠ":3636,"Ġzheng":3637,"zuoĠshiĠ":3638,"baoĠweiĠ":3639,"laiĠshuoĠ":3640,"xueĠshuĠ":3641,"chengĠyuĠ":3642,"shuĠyiĠ":3643,"huiĠjiĠ":3644,"beiĠrenĠweiĠshiĠ":3645,"ĠqiĠyuĠ":3646,"ruĠguoĠ":3647,"ĠyueĠyuĠ":3648,"ĠzhiĠzaoĠ":3649,"24Ġ":3650,"heĠyuĠ":3651,"2024ĠnianĠ":3652,"wangĠluĠ":3653,"Ġgao":3654,"anĠnaĠ":3655,"shunĠ":3656,"ĠzhongĠhuaĠ":3657,"ĠtanĠ":3658,"lunĠdeĠ":3659,"nuĠliĠ":3660,"niĠdeĠ":3661,"wuĠyiĠ":3662,"taĠshiĠ":3663,"ĠnianĠyouĠ":3664,"duoĠzhongĠ":3665,"Ġ8ĠyueĠ":3666,"caiĠyong":3667,"jiaĠrenĠ":3668,"quanĠshiĠ":3669,"zhengĠzhuangĠ":3670,"tingĠdeĠ":3671,"nengĠgou":3672,"ziĠzhiĠquĠ":3673,"xiaoĠzhangĠ":3674,"dianĠtaiĠ":3675,"jieĠfangĠjunĠ":3676,"gengĠmingĠweiĠ":3677,"minĠdeĠ":3678,"shuĠziĠ":3679,"haiĠziĠ":3680,"xiangĠyuĠ":3681,"youĠliĠ":3682,"lanĠkeĠ":3683,"ĠtongĠchangĠ":3684,"quĠheĠ":3685,"chuangĠliĠ":3686,"chuĠshenĠ":3687,"xuĠshiĠ":3688,"fanĠyiĠ":3689,"xinĠshiĠ":3690,"zongĠduĠ":3691,"eĠĠĠ":3692,"ĠmaiĠ":3693,"fuĠqin":3694,"ĠĠĠ2019":3695,"geĠyouĠ":3696,"zhuĠyanĠ":3697,"sheĠyuĠ":3698,"LĠ":3699,"jiaĠgeĠ":3700,"xunĠhuiĠ":3701,"boĠdeĠ":3702,"huoĠdong":3703,"jiangĠxiĠ":3704,"1999ĠnianĠ":3705,"mingĠyuĠ":3706,"sunĠshiĠ":3707,"banĠgongĠshiĠ":3708,"shouĠruĠ":3709,"jiangĠxiangĠ":3710,"danĠdeĠ":3711,"jieĠweiĠ":3712,"linĠdeĠ":3713,"leĠĠĠ":3714,"juĠxingĠdeĠ":3715,"Ġhu":3716,"jingĠchaĠ":3717,"duiĠyiĠ":3718,"saĠkeĠ":3719,"ĠĠĠwuĠ":3720,"jieĠjinĠ":3721,"ĠsuoĠyouĠ":3722,"ĠweiĠlianĠ":3723,"ĠjiĠbenĠ":3724,"jieĠyuĠ":3725,"kaĠsiĠ":3726,"guanĠdianĠ":3727,"ĠĠĠxiaĠ":3728,"ĠdeĠyiĠzuoĠ":3729,"ĠĠĠ2018":3730,"ĠliĠheĠ":3731,"sangĠ":3732,"ĠlaoĠ":3733,"jiangĠdiĠ":3734,"shaoĠshuĠ":3735,"wenĠzhangĠ":3736,"kanĠdaoĠ":3737,"ĠjiĠzheĠ":3738,"lunĠdunĠ":3739,"ĠzaiĠyiĠ":3740,"daiĠyouĠ":3741,"touĠxiangĠ":3742,"luĠdiĠmianĠjiĠweiĠ":3743,"Ġdeng":3744,"ĠxiongĠ":3745,"ĠĠĠgeĠ":3746,"zhangĠyuĠ":3747,"ampĠ":3748,"shuiĠyuĠmianĠjiĠweiĠ":3749,"xingĠjianĠ":3750,"jieĠquanĠguoĠ":3751,"ĠdaĠquĠ":3752,"wenĠziĠ":3753,"zhanĠjiĠ":3754,"ĠdeĠdiĠquĠ":3755,"aoĠmenĠ":3756,"zaiĠzhiĠ":3757,"wenĠyiĠ":3758,"kangĠyiĠ":3759,"ĠmiaoĠ":3760,"ĠcheĠzhanĠ":3761,"1998ĠnianĠ":3762,"xiĠbeiĠ":3763,"haiĠanĠ":3764,"paiĠming":3765,"ruĠkouĠ":3766,"RĠ":3767,"Ġpei":3768,"waiĠguoĠ":3769,"ĠshiĠdiĠ":3770,"wenĠdeĠ":3771,"jiaoĠliuĠ":3772,"xingĠxingĠ":3773,"zhenĠduiĠ":3774,"ĠV":3775,"xiĠzhiĠ":3776,"xinĠrenĠ":3777,"ĠjiĠtuan":3778,"ĠĠĠkeĠ":3779,"tianĠjinĠ":3780,"duĠyuĠ":3781,"ĠampĠ":3782,"ĠĠĠ2022":3783,"cuoĠshiĠ":3784,"zhangĠkeĠdaĠ":3785,"fangĠzaiĠ":3786,"xuanĠze":3787,"Ġzhuan":3788,"junĠdiĠ":3789,"tiĠmingĠ":3790,"ĠdangĠzhongĠluĠdiĠmianĠjiĠweiĠ":3791,"chuĠfaĠ":3792,"ĠerĠshuiĠyuĠmianĠjiĠweiĠ":3793,"poĠhuaiĠ":3794,"huiĠshangĠ":3795,"rongĠyiĠ":3796,"tengĠ":3797,"taiĠyangĠ":3798,"ĠbeiĠerĠ":3799,"jingĠdianĠ":3800,"ĠxianĠzaiĠ":3801,"zaoĠyuĠ":3802,"OĠ":3803,"chiĠdeĠ":3804,"baĠxiĠ":3805,"ĠzhongĠyaoĠ":3806,"Ġpa":3807,"guangĠxiĠ":3808,"bianĠjieĠ":3809,"luoĠdiĠ":3810,"gouĠchengĠ":3811,"xianĠyouĠ":3812,"ouĠyuanĠ":3813,"xianĠchangĠ":3814,"ĠjuĠliĠ":3815,"ĠhaiĠyouĠ":3816,"xiĠyiĠ":3817,"shanĠjiĠ":3818,"ĠxiangĠgang":3819,"fuĠjiĠ":3820,"daoĠjiĠ":3821,"haĠerĠ":3822,"touĠruĠ":3823,"queĠdingĠ":3824,"ĠdeĠzhiĠchiĠ":3825,"ĠyueĠyouĠ":3826,"siĠchuanĠ":3827,"yueĠtaiĠ":3828,"ĠĠĠxingĠzhengĠquĠhuaĠ":3829,"ĠfaĠxianĠ":3830,"ĠjiĠshiĠ":3831,"kengĠ":3832,"ĠzaiĠzheĠ":3833,"duiĠwuĠ":3834,"cunĠzhuangĠ":3835,"ĠcongĠerĠ":3836,"daĠzhongĠ":3837,"ĠĠĠI":3838,"jiaĠyuĠ":3839,"mingĠzhiĠ":3840,"Ġao":3841,"youĠweiĠ":3842,"ĠjingĠguoĠ":3843,"cunĠdeĠ":3844,"daĠzhiĠ":3845,"dengĠluĠ":3846,"Ġ9ĠyueĠ":3847,"touĠpiaoĠ":3848,"ĠĠĠ2017":3849,"15Ġ":3850,"geĠleiĠ":3851,"yuanĠhuiĠ":3852,"changĠyiĠ":3853,"ĠyueĠweiĠ":3854,"gongĠyuĠ":3855,"ĠshiĠliĠ":3856,"ĠzhiĠxiaĠ":3857,"gongĠminĠ":3858,"yinĠfaĠ":3859,"biĠyeĠyuĠ":3860,"jianĠzhongĠ":3861,"nuoĠweiĠ":3862,"Ġhou":3863,"erĠyuĠ":3864,"daiĠliĠ":3865,"tuĠerĠqiĠ":3866,"fangĠweiĠ":3867,"tuĠdeĠ":3868,"tuiĠdongĠ":3869,"ĠshiĠzhongĠguoĠ":3870,"geĠyiĠ":3871,"zhanĠdiĠ":3872,"keĠyuĠ":3873,"hunĠheĠ":3874,"piĠzhunĠ":3875,"juĠzhuĠ":3876,"baoĠliuĠ":3877,"qianĠshuĠ":3878,"wuĠyuĠ":3879,"erĠrenĠ":3880,"jinĠru":3881,"ĠzaiĠbeiĠ":3882,"wenĠdingĠ":3883,"haiĠdaoĠ":3884,"leĠsiĠ":3885,"yongĠhuĠ":3886,"ganĠran":3887,"shuĠheĠ":3888,"biĠsaiĠzhongĠ":3889,"ĠtiĠzhangĠkeĠdaĠ":3890,"ĠformulaĠ":3891,"Ġshou":3892,"ziĠranĠ":3893,"xiĠzhongĠ":3894,"ĠĠĠin":3895,"daĠfuĠ":3896,"ĠĠĠV":3897,"Ġ7ĠyueĠ":3898,"ziĠliĠ":3899,"nanĠbeiĠ":3900,"junĠyiĠ":3901,"ĠrenĠmenĠ":3902,"chuĠjiĠ":3903,"qiĠziĠ":3904,"ĠweiĠfuĠqiĠyuĠ":3905,"hengĠliĠ":3906,"fangĠwenĠ":3907,"ĠsaĠ":3908,"zhuangĠjiaĠ":3909,"tiĠgaoĠ":3910,"ĠyouĠjiĠ":3911,"ĠĠĠ2016":3912,"ĠtingĠ":3913,"ĠwoĠmenĠ":3914,"diĠjiĠ":3915,"maĠkeĠ":3916,"1996ĠnianĠ":3917,"ĠshiĠquĠ":3918,"chengĠzuoĠ":3919,"ĠyuĠciĠ":3920,"xunĠsuĠ":3921,"jianĠheĠ":3922,"ĠyiĠdaĠliĠ":3923,"xinĠhaoĠ":3924,"ĠyinĠduĠ":3925,"jinĠshuĠ":3926,"benĠtuĠ":3927,"houĠxuanĠrenĠ":3928,"moĠerĠ":3929,"zhanĠzhongĠ":3930,"xiaoĠliĠ":3931,"xianĠluĠ":3932,"xianĠhouĠ":3933,"ziĠjinĠ":3934,"ciĠweiĠ":3935,"jieĠshuĠhouĠ":3936,"Ġ12ĠyueĠ":3937,"xinĠyiĠ":3938,"pinĠpaiĠ":3939,"geĠgeĠ":3940,"ĠtaĠyiĠ":3941,"NĠ":3942,"Ġan":3943,"guangĠfanĠ":3944,"Ġzhang":3945,"zhuĠmingĠdeĠ":3946,"zuiĠchuĠ":3947,"zhongĠliĠ":3948,"shangĠrenĠ":3949,"yongĠyiĠ":3950,"cengĠyuĠ":3951,"yingĠpianĠ":3952,"zhuĠmingĠ":3953,"1997ĠnianĠ":3954,"heĠzuoĠ":3955,"mouĠxieĠ":3956,"chengĠzhiĠ":3957,"Ġ11ĠyueĠ":3958,"ĠdeĠyiĠzhiĠ":3959,"wuĠweiĠ":3960,"jianĠzaoĠ":3961,"chuĠzhanĠ":3962,"jieĠyouĠ":3963,"meiĠnianĠ":3964,"jianĠzaiĠ":3965,"lingĠwaiĠ":3966,"ĠxiuĠ":3967,"ĠdeĠshiĠquĠweiĠ":3968,"Ġ21Ġ":3969,"jiaĠzuĠ":3970,"xiaĠlaiĠ":3971,"xueĠhuiĠ":3972,"ĠzhiĠnengĠ":3973,"buĠtongĠdeĠ":3974,"ĠĠĠdeĠshiĠ":3975,"Ġtw":3976,"zhuĠbuĠ":3977,"jiangĠsuĠ":3978,"ĠbingĠyiĠ":3979,"saĠerĠ":3980,"shuiĠpingĠ":3981,"ĠzhongĠguoĠgongĠchanĠdangĠ":3982,"buĠduiĠ":3983,"ĠdiĠqu":3984,"ĠjiaĠshangĠ":3985,"ĠĠĠerĠ":3986,"dangĠshiĠdeĠ":3987,"shanĠdaĠ":3988,"rengĠ":3989,"boĠerĠ":3990,"hansĠ":3991,"ĠhansĠ":3992,"keĠheĠ":3993,"xuĠqiuĠ":3994,"ĠjiĠchengĠ":3995,"jianĠshaoĠ":3996,"teĠshuĠ":3997,"ĠtwĠ":3998,"Ġhong":3999,"daĠchengĠ":4000,"shanĠdeĠ":4001,"iĠ":4002,"Ġbian":4003,"Ġ2011":4004,"biaoĠmianĠ":4005,"ĠzheĠxie":4006,"meiĠgeĠ":4007,"ĠĠĠqingĠ":4008,"lvĠweiĠ":4009,"paiĠchuĠ":4010,"ĠĠĠ2014":4011,"xiaoĠshuo":4012,"aoĠdaĠliĠyaĠ":4013,"nanĠyiĠ":4014,"ĠbuĠfen":4015,"jieĠrangĠ":4016,"ĠĠĠ2023":4017,"1992ĠnianĠ":4018,"ĠrenĠleiĠ":4019,"jueĠding":4020,"gongĠchangĠ":4021,"siĠkeĠ":4022,"cĠ":4023,"changĠheĠ":4024,"ĠyuĠrenĠ":4025,"jieĠkeĠ":4026,"ĠdanĠtaĠ":4027,"ĠjiĠguanĠ":4028,"ĠzaiĠzhongĠguoĠ":4029,"ĠĠĠli":4030,"sheĠhuiĠzhuĠyiĠ":4031,"zhuĠyouĠ":4032,"zhuangĠzhiĠ":4033,"ĠchengĠyuanĠ":4034,"ĠhaoĠxianĠ":4035,"beiĠzhiĠ":4036,"ĠxiĠbaoĠ":4037,"jingĠyanĠ":4038,"UĠ":4039,"Ġ189":4040,"Ġ2010ĠnianĠ":4041,"wanĠrenĠ":4042,"faĠchuĠ":4043,"ziĠxunĠ":4044,"suoĠdeĠ":4045,"waĠerĠ":4046,"ĠjiĠrenĠ":4047,"yinĠsuĠ":4048,"ĠjieĠmuĠ":4049,"tiĠshiĠ":4050,"yingĠwenĠ":4051,"ĠĠĠ2015":4052,"ĠĠĠyuanĠ":4053,"luĠzhiĠ":4054,"ĠhouĠlai":4055,"Ġhai":4056,"ĠxuĠduoĠ":4057,"ĠeĠluoĠsiĠ":4058,"ĠĠĠJ":4059,"tuĠzhongĠ":4060,"kongĠzhongĠ":4061,"suiĠdaoĠ":4062,"huaĠheĠ":4063,"shaĠsiĠ":4064,"ĠriĠyuĠ":4065,"yongĠshiĠ":4066,"foĠ":4067,"lingĠtuĠ":4068,"ĠÑ":4069,"gengĠjiaĠ":4070,"minĠjianĠ":4071,"ĠĠĠyuĠshiĠdeĠrenĠkouĠshuĠliangĠweiĠrenĠ":4072,"ĠĠĠsuoĠshuĠdeĠshengĠjiĠxuanĠquĠweiĠ":4073,"xiangĠsiĠ":4074,"ĠĠĠdeĠyouĠzhengĠbianĠmaĠweiĠ":4075,"ĠĠĠyuĠjieĠrangĠdeĠshiĠzhenĠ":4076,"ĠĠĠdeĠshiĠquĠweiĠ":4077,"ĠguoĠchengĠ":4078,"Ġ2019":4079,"leĠshiĠ":4080,"Ġfeng":4081,"zengĠzhangĠ":4082,"erĠyiĠ":4083,"nanĠdeĠ":4084,"ĠzaiĠdaĠ":4085,"jiangĠdeĠ":4086,"keĠchengĠ":4087,"huiĠyingĠ":4088,"kongĠjunĠ":4089,"ĠjingĠjiĠ":4090,"Ġ2009ĠnianĠ":4091,"ciĠyiĠ":4092,"ĠdiĠdaĠ":4093,"guĠwenĠ":4094,"ĠheĠxiĠ":4095,"ĠtaĠyeĠ":4096,"guangĠgaoĠ":4097,"jueĠse":4098,"ĠfaĠxingĠ":4099,"Ġwang":4100,"teĠerĠ":4101,"ĠshiĠmeiĠguoĠ":4102,"hanĠshuĠ":4103,"ĠĠĠ2013":4104,"Ġhk":4105,"zhouĠfuĠ":4106,"tianĠdeĠ":4107,"tiĠyiĠ":4108,"zongĠbuĠ":4109,"ĠshengĠhuo":4110,"Ġ30":4111,"ĠjiĠyouĠ":4112,"guanĠbiĠ":4113,"anĠpaiĠ":4114,"xianĠxingĠ":4115,"ĠbingĠjiangĠ":4116,"chaoĠshiĠ":4117,"ĠmenĠ":4118,"tiĠshengĠ":4119,"feiĠjianĠzhiĠ":4120,"woĠmenĠ":4121,"daĠyuĠ":4122,"fangĠbuĠ":4123,"xuĠkeĠ":4124,"ĠĠĠxinĠ":4125,"langĠdeĠ":4126,"zhengĠfuĠdeĠ":4127,"minĠzhuĠdangĠ":4128,"Ġ6ĠyueĠ":4129,"zhuangĠshiĠ":4130,"jiaĠru":4131,"quanĠmianĠ":4132,"ĠbingĠyouĠ":4133,"ĠhkĠ":4134,"xingĠtaiĠ":4135,"banĠgongĠ":4136,"ĠdeĠguoĠjiaĠ":4137,"junĠjiĠ":4138,"cheĠzhan":4139,"ĠerĠgaiĠ":4140,"ĠheĠerĠ":4141,"diĠguoĠ":4142,"baoĠliĠ":4143,"jieĠgou":4144,"duiĠshiĠ":4145,"shanĠmai":4146,"ĠzhiĠshiĠ":4147,"juĠbuĠ":4148,"lingĠdeĠ":4149,"zhuanĠjiaĠ":4150,"ruiĠdianĠ":4151,"dangĠyuĠ":4152,"luoĠkeĠ":4153,"ĠjiĠnianĠ":4154,"weiĠyiĠgeĠ":4155,"junĠgongĠ":4156,"tuĠshuĠguanĠ":4157,"dangĠzhongĠ":4158,"weiĠzhiĠ":4159,"neiĠluĠ":4160,"huaĠzhongĠ":4161,"chengĠxuĠ":4162,"ĠyueĠtaiĠ":4163,"3ĠrenĠ":4164,"yunĠxuĠ":4165,"huiĠbeiĠ":4166,"jiuĠdianĠ":4167,"seĠlieĠ":4168,"ĠlaiĠziĠ":4169,"shanĠshiĠ":4170,"dianĠnao":4171,"daiĠbuĠ":4172,"bingĠmeiĠyouĠ":4173,"geĠzhiĠ":4174,"ĠkeĠxueĠ":4175,"Ġna":4176,"ĠĠĠxiangĠ":4177,"ĠqiĠzhongĠyiĠ":4178,"zuĠchengĠdeĠ":4179,"siĠxiangĠ":4180,"feiĠjianĠzhiĠdiĠquĠ":4181,"Ġ5ĠyueĠ":4182,"ĠĠĠCo":4183,"ĠĠĠand":4184,"1995ĠnianĠ":4185,"ĠzhuangĠ":4186,"fenĠliĠ":4187,"baĠweiĠ":4188,"ĠxiĠjieĠ":4189,"1994ĠnianĠ":4190,"sanĠjiaoĠ":4191,"jingĠzhengĠ":4192,"guoĠweiĠ":4193,"ĠyiĠjiaĠ":4194,"changĠyuĠ":4195,"tanĠkeĠ":4196,"ĠyouĠqiĠshiĠ":4197,"muĠqinĠ":4198,"ĠzhongĠdeĠ":4199,"tongĠyuĠ":4200,"bingĠshiĠ":4201,"huanĠyingĠ":4202,"faĠlv":4203,"Ġ2018":4204,"maĠerĠ":4205,"ĠdiĠxiaĠ":4206,"moĠxiĠgeĠ":4207,"geĠlan":4208,"queĠfaĠ":4209,"gongĠsiĠdeĠ":4210,"jinĠpaiĠ":4211,"yanĠjiuĠyuanĠ":4212,"ĠzhengĠfuĠ":4213,"zhuanĠyiĠ":4214,"25Ġ":4215,"xiaĠjiangĠ":4216,"shuĠxueĠ":4217,"neiĠgeĠ":4218,"ĠshiĠjieĠbeiĠ":4219,"jiuĠdeĠ":4220,"ĠliĠya":4221,"huaĠrenĠ":4222,"mingĠmingĠweiĠ":4223,"laiĠdaoĠ":4224,"junĠyouĠ":4225,"jiuĠzhiĠ":4226,"ĠheĠdiĠ":4227,"2ĠrenĠ":4228,"ĠgongĠzuoĠ":4229,"ĠĠĠjiaĠzuĠ":4230,"weiĠĠĠ":4231,"shengĠzhangĠ":4232,"dengĠweiĠ":4233,"ĠjiĠchuĠ":4234,"ĠliĠbuĠ":4235,"xiuĠgaiĠ":4236,"huiĠzhangĠ":4237,"mingĠlingĠ":4238,"yingĠyunĠ":4239,"shuoĠmingĠ":4240,"huĠdeĠ":4241,"yongĠlaiĠ":4242,"1ĠrenĠ":4243,"ĠmaoĠ":4244,"duiĠqiĠ":4245,"ĠchuĠyuĠ":4246,"ziĠmuĠ":4247,"shouĠfuĠ":4248,"Ġ20":4249,"ĠzaiĠmeiĠguoĠ":4250,"ĠdanĠyouĠyuĠ":4251,"wenĠshiĠ":4252,"ĠĠĠzhĠ":4253,"ĠbuĠtongĠdeĠ":4254,"maoĠqiuĠ":4255,"ĠminĠguoĠ":4256,"gongĠjuĠ":4257,"ĠshiĠyiĠge":4258,"ĠdeĠdiĠerĠ":4259,"ĠweiĠweiĠ":4260,"KĠ":4261,"zhuĠjiĠ":4262,"queĠrenĠ":4263,"lengĠ":4264,"chengĠweiĠleĠ":4265,"taĠyuĠ":4266,"yeĠbeiĠ":4267,"Ġ4ĠyueĠ":4268,"liaoĠjieĠ":4269,"guaĠ":4270,"ĠtaĠbeiĠ":4271,"beiĠerĠ":4272,"feiĠlvĠ":4273,"ĠrangĠ":4274,"yinĠdeĠ":4275,"changĠdiĠ":4276,"faĠanĠ":4277,"juĠzhangĠ":4278,"caiĠquĠ":4279,"lieĠbiaoĠ":4280,"Ġqian":4281,"shouĠzhongĠ":4282,"ĠĠĠjieĠzhiĠ":4283,"changĠpianĠ":4284,"shenĠtiĠ":4285,"ĠtaĠhaiĠ":4286,"ĠzhongĠguoĠrenĠminĠ":4287,"22Ġ":4288,"cheĠxiaoĠ":4289,"ĠyinĠyueĠ":4290,"ĠshangĠhaiĠ":4291,"canĠjiaĠleĠ":4292,"chuĠxiĠ":4293,"chuanĠboĠ":4294,"Ġ2016":4295,"chanĠpin":4296,"1991ĠnianĠ":4297,"ĠyiĠnianĠ":4298,"ĠerĠfuĠ":4299,"jiaoĠlianĠ":4300,"banĠfaĠ":4301,"xieĠrenĠ":4302,"cheĠdeĠ":4303,"zhuĠzuoĠ":4304,"boĠfangĠ":4305,"fuĠyouĠ":4306,"suĠweiĠ":4307,"suiĠjiĠ":4308,"Ġ23":4309,"zheĠliĠ":4310,"ĠyiĠjuĠ":4311,"maĠsiĠ":4312,"16Ġ":4313,"ĠweiĠrenĠ":4314,"ĠkangĠ":4315,"ĠĠĠzhongĠguoĠ":4316,"zeĠyouĠ":4317,"ĠliĠru":4318,"qiuĠhuiĠ":4319,"tieĠlu":4320,"dianĠqiĠ":4321,"liangĠshiĠ":4322,"1ĠhaoĠ":4323,"ĠweiĠyuanĠhui":4324,"ĠdiĠtieĠ":4325,"wangĠqiuĠ":4326,"maĠdeĠ":4327,"ĠqiĠlaiĠ":4328,"faĠdianĠ":4329,"ĠshiĠyiĠnianĠ":4330,"guĠdeĠ":4331,"baiĠseĠ":4332,"shenĠjingĠ":4333,"yueĠhanĠ":4334,"juĠheĠ":4335,"taiĠjiĠ":4336,"zhanĠtaiĠ":4337,"huaĠyuanĠ":4338,"tionĠ":4339,"jieĠhunĠ":4340,"wanĠshangĠ":4341,"ĠquanĠguoĠ":4342,"lingĠbuĠ":4343,"ĠzhiĠdiĠ":4344,"ziĠzhuĠ":4345,"huoĠjianĠ":4346,"zuĠjianĠ":4347,"yeĠheĠ":4348,"ĠyiĠzaiĠ":4349,"ĠyouĠxieĠ":4350,"huaĠshengĠ":4351,"lingĠxianĠ":4352,"liangĠrenĠ":4353,"chanĠshengĠdeĠ":4354,"zhaoĠkaiĠ":4355,"ĠrenĠminĠzhengĠfuĠ":4356,"yanĠchangĠhuiĠ":4357,"ĠweiĠnengĠ":4358,"2020ĠnianĠmeiĠguoĠrenĠkouĠpuĠchaĠdeĠshuĠjuĠ":4359,"maĠlaiĠxiĠyaĠ":4360,"xueĠheĠ":4361,"ĠyouĠxiaoĠ":4362,"orĠ":4363,"ĠxingĠdongĠ":4364,"ĠMa":4365,"chaoĠdeĠ":4366,"ĠzaiĠxiĠ":4367,"ĠerĠbuĠ":4368,"tongĠcheĠ":4369,"ĠĠĠ2025":4370,"xuĠliĠyaĠ":4371,"leĠtaĠ":4372,"chuĠxianĠzaiĠ":4373,"yaoĠwuĠ":4374,"ĠkuanĠ":4375,"qinĠshiĠ":4376,"ruĠxuanĠ":4377,"tiĠzhongĠ":4378,"1988ĠnianĠ":4379,"changĠpian":4380,"rĠĠĠ":4381,"changĠzaiĠ":4382,"kuoĠdaĠ":4383,"ĠxiĠlaĠ":4384,"mĠĠĠ":4385,"ĠĠĠ2024":4386,"yinĠdu":4387,"geĠerĠ":4388,"xueĠxiao":4389,"geĠdaĠ":4390,"xiangĠxiĠ":4391,"ĠyingĠyuĠ":4392,"xinĠjiĠ":4393,"ĠliĠshuĠ":4394,"ĠgongĠchengĠ":4395,"ĠĠĠqianĠ":4396,"zhuangĠkuangĠ":4397,"ĠdaĠbuĠfenĠ":4398,"shanĠxiĠshengĠ":4399,"xingĠzhongĠ":4400,"taiĠshiĠ":4401,"siĠteĠ":4402,"kongĠbuĠ":4403,"ĠzhiĠduĠ":4404,"ĠshiĠdeĠyiĠ":4405,"huĠbeiĠ":4406,"lvĠxingĠ":4407,"tuoĠliĠ":4408,"gongĠhuiĠ":4409,"shenĠshiĠ":4410,"chengĠliĠdeĠ":4411,"daĠbuĠfenĠ":4412,"ĠfuĠjinĠ":4413,"guiĠzeĠ":4414,"ĠĠĠnian":4415,"ĠweiĠliĠ":4416,"aoĠdiĠliĠ":4417,"shangĠhai":4418,"daĠluĠdeĠ":4419,"ĠliangĠrenĠ":4420,"laoĠdongĠ":4421,"ĠdaiĠbiaoĠ":4422,"zhouĠbianĠ":4423,"jingĠyuĠ":4424,"zhuangĠdeĠ":4425,"peiĠyinĠ":4426,"cuĠjinĠ":4427,"ĠyiĠtongĠ":4428,"erĠĠĠ":4429,"tongĠbuĠ":4430,"xingĠxiangĠ":4431,"ĠcaoĠ":4432,"ciĠzaiĠ":4433,"Ġka":4434,"ĠliĠshiĠshangĠ":4435,"yuĠĠĠ":4436,"wĠ":4437,"zeĠweiĠ":4438,"longĠdeĠ":4439,"suanĠjiĠ":4440,"1993ĠnianĠ":4441,"xingĠquĠ":4442,"ĠCĠ":4443,"ĠmingĠchaoĠzhengĠzhiĠrenĠwuĠ":4444,"suiĠhouĠ":4445,"peiĠheĠ":4446,"wuĠkeĠlan":4447,"4ĠrenĠ":4448,"jinĠbuĠ":4449,"baoĠshiĠ":4450,"daiĠbiaoĠdaĠhuiĠ":4451,"wuĠheĠ":4452,"zhuĠchangĠ":4453,"nanĠshiĠ":4454,"ĠqiaoĠ":4455,"ĠzhiĠziĠ":4456,"ĠzheĠjiangĠ":4457,"pingĠweiĠ":4458,"teĠseĠ":4459,"xiaĠjiĠaoĠlinĠpiĠkeĠyunĠdongĠhuiĠ":4460,"12ĠnianĠ":4461,"jiaoĠxueĠ":4462,"ĠjiĠerĠ":4463,"bĠ":4464,"daĠheĠ":4465,"xieĠshiĠ":4466,"puĠbianĠ":4467,"zheĠzaiĠ":4468,"ĠpanĠ":4469,"zhuanĠxiangĠ":4470,"piaoĠfangĠ":4471,"laĠjiĠ":4472,"50Ġ":4473,"ĠĠĠxiaoĠ":4474,"ĠshiĠtuĠ":4475,"GĠ":4476,"Ġ3ĠyueĠ":4477,"wenĠxianĠ":4478,"sheĠjiĠdeĠ":4479,"luoĠjiĠ":4480,"feiĠzhouĠ":4481,"lianĠrenĠ":4482,"ĠxiĠjuĠ":4483,"saĠsiĠ":4484,"anĠquan":4485,"ĠsheĠjiĠ":4486,"Ġ2011ĠnianĠ":4487,"daoĠzhongĠ":4488,"kaoĠlvĠ":4489,"Ġlu":4490,"ĠweiĠheĠ":4491,"ĠfuĠjianĠ":4492,"13Ġ":4493,"wangĠchaoĠ":4494,"jieĠrenĠ":4495,"mingĠxianĠ":4496,"zhuĠzhangĠ":4497,"ĠyaoĠqiuĠ":4498,"gongĠzhiĠ":4499,"zhengĠheĠ":4500,"ĠweiĠwuĠ":4501,"ĠxiĠbuĠ":4502,"huĠyuĠ":4503,"ĠbuĠkeĠ":4504,"tongĠdaoĠ":4505,"meiĠguoĠdeĠ":4506,"xuĠzaiĠ":4507,"STĠ":4508,"ĠweiĠxingĠ":4509,"fĠ":4510,"Ġsun":4511,"Ġ188":4512,"ĠnvĠxingĠ":4513,"ĠĠĠguoĠ":4514,"kouĠweiĠ":4515,"lingĠdaoĠrenĠ":4516,"biĠsai":4517,"18Ġ":4518,"ĠweiĠlaiĠ":4519,"qiĠzhongĠyiĠzhongĠ":4520,"Ġ2021":4521,"zhaoĠdaoĠ":4522,"hongĠseĠ":4523,"yuanĠgongĠ":4524,"siĠlingĠ":4525,"jingĠcha":4526,"fangĠwuĠ":4527,"ĠtaoĠ":4528,"ĠsĠĠĠ":4529,"ĠliĠmiĠ":4530,"ĠĠĠcongĠ":4531,"zuiĠhou":4532,"yunĠdong":4533,"caiĠliaoĠ":4534,"ĠshiĠweiĠleĠ":4535,"ĠdeĠzhiĠwuĠ":4536,"hunĠyinĠ":4537,"ĠyuĠleĠ":4538,"ĠchengĠgongĠ":4539,"Ġmai":4540,"ĠweiĠhuiĠ":4541,"1990ĠnianĠ":4542,"ĠxiĠya":4543,"ĠjiĠhuiĠ":4544,"Ġ2001ĠnianĠrenĠkouĠ":4545,"Ġni":4546,"dongĠnanĠbuĠ":4547,"bianĠshiĠ":4548,"ĠyouĠbuĠ":4549,"dongĠbeiĠbuĠ":4550,"Ġ2015":4551,"shouĠzhiĠ":4552,"huaĠjiĠ":4553,"fenĠbuĠyuĠ":4554,"ĠĠĠ2012":4555,"junĠyuĠ":4556,"Ġnai":4557,"yingĠgaiĠ":4558,"ĠbiaoĠ":4559,"geĠheĠ":4560,"ĠrenĠshuĠ":4561,"fuĠzaiĠ":4562,"tiĠzhiĠ":4563,"daĠchenĠ":4564,"Ġà":4565,"baoĠzhiĠ":4566,"reĠĠĠ":4567,"siĠgeĠ":4568,"feiĠchuĠ":4569,"riĠzhiĠ":4570,"ĠxingĠqiĠ":4571,"Ġ2005ĠnianĠ":4572,"jinĠyouĠ":4573,"dianĠhuaĠ":4574,"ĠlieĠ":4575,"ĠjiaoĠyuĠ":4576,"saoĠ":4577,"ĠbuĠmenĠ":4578,"qianĠwang":4579,"baoĠyuĠ":4580,"ĠyiĠban":4581,"yuanĠxingĠ":4582,"ruanĠjianĠ":4583,"ĠĠĠzaoĠnianĠ":4584,"duoĠrenĠ":4585,"wuĠtaiĠ":4586,"lingĠdiĠ":4587,"chiĠyouĠ":4588,"duiĠzhangĠ":4589,"faĠxianĠleĠ":4590,"ĠguanĠyuĠ":4591,"ĠhanĠguoĠ":4592,"shiĠĠĠ":4593,"tuiĠjinĠ":4594,"gengĠduoĠ":4595,"zhuĠjueĠ":4596,"ĠyinĠerĠ":4597,"chuĠlaiĠ":4598,"tiĠdaoĠ":4599,"onĠĠĠ":4600,"yongĠzuoĠ":4601,"suoĠzaiĠ":4602,"zhengĠchangĠ":4603,"benĠdiĠ":4604,"jueĠshiĠ":4605,"ĠnianĠbeiĠ":4606,"wuĠzhuangĠ":4607,"guoĠjiĠjiĠ":4608,"meiĠdeĠ":4609,"bianĠxingĠ":4610,"douĠhuiĠ":4611,"yaĠliĠshanĠdaĠ":4612,"jiaoĠdaĠ":4613,"guiĠdeĠ":4614,"ĠerĠshuiĠyuĠmianĠjiĠweiĠ0":4615,"riĠjunĠ":4616,"poĠhuai":4617,"ĠtiĠgongĠ":4618,"boĠsiĠ":4619,"Ġzhong":4620,"ĠzaoĠchengĠ":4621,"yinĠdiĠ":4622,"jiaoĠyouĠ":4623,"dongĠfangĠ":4624,"tongĠyangĠ":4625,"3ĠgeĠ":4626,"taiĠrenĠ":4627,"huoĠzheĠ":4628,"ĠzaiĠjiaĠ":4629,"qingĠbaoĠ":4630,"ĠpingĠfangĠmiĠ":4631,"caoĠzuoĠ":4632,"Ġquan":4633,"mingĠxingĠ":4634,"ĠdaĠchengĠ":4635,"haiĠwaiĠ":4636,"Ġzu":4637,"yeĠhuiĠ":4638,"tuanĠdeĠ":4639,"anĠhuiĠ":4640,"ĠchaĠ":4641,"neiĠyouĠ":4642,"jieĠshaoĠ":4643,"chuĠkouĠ":4644,"duiĠwaiĠ":4645,"ĠsuiĠdeĠ":4646,"ĠdaĠliangĠ":4647,"ĠsuiĠzheĠ":4648,"Ġ2017":4649,"jieĠmu":4650,"xiaĠyouĠ":4651,"ĠheĠpingĠ":4652,"ĠerĠgaiĠdiĠ":4653,"canĠmou":4654,"Ġ2020":4655,"Ġ2014":4656,"xiangĠyiĠ":4657,"yongĠtuĠ":4658,"Ġ2013":4659,"laĠheĠ":4660,"qiangĠdeĠ":4661,"ĠyiĠduĠ":4662,"ĠzhiĠdingĠ":4663,"duiĠxiangĠ":4664,"gaiĠshanĠ":4665,"aoĠyunĠhuiĠ":4666,"biaoĠdeĠ":4667,"sanĠjiĠ":4668,"ĠyuĠheĠ":4669,"yanĠshenĠ":4670,"ĠdeĠshiĠjieĠ":4671,"gaoĠjiaĠ":4672,"ĠyueĠnanĠ":4673,"ĠxiĠtong":4674,"ĠtuiĠ":4675,"xiĠnanĠ":4676,"xianĠjinĠ":4677,"ĠwanĠrenĠ":4678,"zuoĠquĠ":4679,"dunĠdeĠ":4680,"ĠjiaĠnaĠdaĠ":4681,"ĠbaoĠhanĠ":4682,"ĠxuanĠbuĠ":4683,"meiĠliĠ":4684,"1984ĠnianĠ":4685,"dengĠshangĠ":4686,"guanĠshiĠ":4687,"leĠdaĠ":4688,"gaoĠsuĠgongĠluĠ":4689,"xiaoĠquĠ":4690,"junĠquĠ":4691,"zhengĠtiĠ":4692,"zengĠzuĠ":4693,"jiaĠzaiĠ":4694,"changĠyouĠ":4695,"leĠtaĠdeĠ":4696,"xiaĠxiaĠdeĠyiĠgeĠ":4697,"longĠjiangĠ":4698,"Ġreng":4699,"yunĠshiĠ":4700,"geĠlunĠ":4701,"jueĠyiĠ":4702,"shuĠruĠ":4703,"haiĠxiaĠ":4704,"faĠshouĠ":4705,"suiĠzhuĠ":4706,"ĠxianĠrenĠ":4707,"ĠshengĠyuĠ":4708,"nieĠ":4709,"ĠqiĠzaiĠ":4710,"yunĠzuoĠ":4711,"ĠyeĠyouĠ":4712,"queĠzhenĠbingĠliĠ":4713,"ĠĠĠIn":4714,"juĠyiĠ":4715,"14Ġ":4716,"gouĠzaoĠ":4717,"banĠshiĠchuĠ":4718,"Ġxiu":4719,"liuĠzaiĠ":4720,"ĠweiĠkeĠ":4721,"ĠerĠyanĠ":4722,"ĠnanĠzhiĠ":4723,"Ġpo":4724,"zhanĠzhiĠ":4725,"1989ĠnianĠ":4726,"zuoĠrenĠ":4727,"dianĠcheĠ":4728,"miĠmiĠ":4729,"ĠshiĠdaĠ":4730,"kangĠriĠ":4731,"shuĠyuanĠ":4732,"junĠguanĠ":4733,"Ġdou":4734,"jiaĠyouĠ":4735,"duĠheĠ":4736,"feiĠliĠ":4737,"kaiĠzhanĠ":4738,"ĠshiĠwuĠkeĠ":4739,"10ĠnianĠ":4740,"renĠdaĠ":4741,"ĠzhongĠzaiĠ":4742,"Ġ100":4743,"shangĠyuĠ":4744,"binĠhaiĠ":4745,"ĠdongĠlinĠ":4746,"Ġ2010":4747,"duoĠnianĠ":4748,"jiangĠhuiĠ":4749,"liangĠciĠ":4750,"lingĠxiuĠ":4751,"chuangĠjianĠ":4752,"chuĠdaoĠ":4753,"shouĠzhangĠ":4754,"xiaĠling":4755,"tianĠshiĠ":4756,"zhuangĠbeiĠ":4757,"dongĠzuoĠ":4758,"shouĠyiĠ":4759,"chuanĠzhiĠ":4760,"chaiĠchuĠ":4761,"touĠpiao":4762,"senĠlinĠ":4763,"anĠdaĠ":4764,"ĠqiĠxiangĠ":4765,"shouĠluĠ":4766,"caiĠzhengĠ":4767,"ĠtaiĠwan":4768,"Ġniu":4769,"ĠĠĠ3":4770,"yaĠkeĠ":4771,"biĠmianĠ":4772,"guĠliĠ":4773,"ĠqiĠziĠ":4774,"huiĠyuanĠ":4775,"shanĠquĠ":4776,"ĠshaoĠ":4777,"beiĠshiĠweiĠ":4778,"dengĠdeĠ":4779,"ĠdiĠwuĠ":4780,"ĠzhengĠzhiĠ":4781,"ĠjianĠyuĠ":4782,"tuĠxingĠ":4783,"qinĠziĠ":4784,"ĠerĠtongĠ":4785,"juĠqingĠ":4786,"kaĠluoĠ":4787,"ĠĠĠsiĠ":4788,"ĠnianĠ1ĠyueĠ1ĠriĠ":4789,"houĠshiĠ":4790,"zheĠbuĠ":4791,"daiĠweiĠ":4792,"zuiĠgao":4793,"ĠjuĠxingĠ":4794,"zunĠ":4795,"1985ĠnianĠ":4796,"waiĠjiaoĠbuĠ":4797,"ĠwanĠmeiĠyuanĠ":4798,"ĠyiĠmeiĠyuanĠ":4799,"Ġqi":4800,"liuĠdeĠ":4801,"ĠsiĠlingĠ":4802,"ceĠliangĠ":4803,"shouĠxiĠ":4804,"jingĠxuanĠ":4805,"huiĠzhongĠ":4806,"suoĠshiĠ":4807,"zhangĠguanĠ":4808,"fanĠzuiĠ":4809,"fuĠweiĠ":4810,"banĠliĠ":4811,"daiĠlaiĠ":4812,"ĠjieĠshouĠ":4813,"ĠhengĠ":4814,"Ġ2007ĠnianĠ":4815,"ĠĠĠdangĠ":4816,"gengĠweiĠ":4817,"bingĠruĠ":4818,"siĠyiĠ":4819,"ĠerĠziĠ":4820,"tongĠnianĠ":4821,"ĠyouĠkeĠ":4822,"xiangĠzhengĠ":4823,"baoĠshouĠ":4824,"ĠdongĠbeiĠ":4825,"fanĠweiĠneiĠ":4826,"pianĠdeĠ":4827,"mianĠshiĠ":4828,"mengĠdeĠ":4829,"guoĠwangĠ":4830,"taiĠfengĠ":4831,"ĠtaiĠyangĠ":4832,"ĠchengĠliĠ":4833,"ĠerĠchengĠ":4834,"huĠnanĠ":4835,"Ġ2008ĠnianĠ":4836,"ĠzaiĠduĠ":4837,"Ġs":4838,"ĠqiĠxiaĠ":4839,"ĠriĠdeĠ":4840,"fangĠmianĠdeĠ":4841,"ĠyiĠhouĠ":4842,"ĠjieĠkeĠ":4843,"ĠshengĠhuoĠxiĠ":4844,"HĠ":4845,"yanĠxiĠ":4846,"renĠliĠ":4847,"canĠyiĠyuanĠ":4848,"junĠzhuĠ":4849,"kaiĠtongĠ":4850,"taiĠziĠ":4851,"qingĠchuĠ":4852,"dingĠjuĠ":4853,"ĠsheĠhuiĠ":4854,"gongĠzhuĠ":4855,"shengĠyinĠ":4856,"jinĠweiĠ":4857,"huaĠheĠwuĠ":4858,"zhanĠqiĠjianĠ":4859,"huanĠchengĠ":4860,"Ġ2012":4861,"zhouĠqiĠ":4862,"ĠdianĠyingĠ":4863,"jianĠjieĠ":4864,"yingĠyeĠ":4865,"ĠsiĠwangĠ":4866,"liangĠjiĠ":4867,"piĠfuĠ":4868,"feiĠdeĠ":4869,"waiĠbuĠ":4870,"xiangĠhuĠ":4871,"guanĠchaĠ":4872,"xingĠbuĠmingĠ":4873,"5ĠrenĠ":4874,"ĠsheĠyouĠ":4875,"duiĠyouĠ":4876,"28ĠnianĠ":4877,"zhuĠyaoĠdeĠ":4878,"leiĠdaĠ":4879,"duĠliĠdeĠ":4880,"erĠyueĠ":4881,"zhuanĠdeĠ":4882,"touĠluĠ":4883,"Ġse":4884,"lvĠdeĠ":4885,"xiĠjuĠ":4886,"ĠĠĠmingĠ":4887,"bingĠdeĠ":4888,"jiangĠjiĠ":4889,"wuĠsiĠ":4890,"maĠlaĠ":4891,"hĠ":4892,"changĠzhiĠ":4893,"faĠxingĠdeĠ":4894,"gouĠmaiĠ":4895,"ĠshengĠhuoĠxiĠxingĠbuĠmingĠ":4896,"toĠĠĠ":4897,"Ġlao":4898,"tianĠqiĠ":4899,"ĠyiĠdaiĠ":4900,"queĠdeĠ":4901,"terĠ":4902,"xinĠyangĠ":4903,"ĠcanĠjiaĠ":4904,"tongĠpaiĠ":4905,"zuoĠbiaoĠweiĠ":4906,"jiangĠlingĠ":4907,"ĠmeiĠgeĠ":4908,"anĠzhuangĠ":4909,"jiuĠlongĠ":4910,"Ġsha":4911,"ĠĠĠbeiĠjingĠ":4912,"liangĠxiangĠ":4913,"ĠwuĠfaĠ":4914,"jiaĠliĠfuĠ":4915,"xinĠxingĠ":4916,"huoĠshanĠ":4917,"guanĠjianĠ":4918,"zuĠzhiĠdeĠ":4919,"keĠnengĠshiĠ":4920,"jingĠzhongĠ":4921,"luĠjiĠ":4922,"25ĠnianĠ":4923,"chengĠheĠ":4924,"taiĠbeiĠshiĠ":4925,"jiuĠduĠ":4926,"ĠĠĠMa":4927,"erĠzhiĠ":4928,"ĠĠĠciĠwaiĠ":4929,"1ĠliĠ":4930,"ĠyongĠyouĠ":4931,"jieĠsanĠ":4932,"ruĠqinĠ":4933,"liangĠzhiĠ":4934,"houĠbeiĠ":4935,"keĠyiĠzaiĠ":4936,"Ġdong":4937,"kongĠqiĠ":4938,"ĠyueĠzhongĠ":4939,"baiĠrenĠ":4940,"ĠzaiĠci":4941,"fangĠyanĠ":4942,"lunĠwenĠ":4943,"shangĠbuĠ":4944,"zhuĠyiĠdeĠ":4945,"guiĠzuĠ":4946,"ĠzhongĠguoĠdaĠluĠ":4947,"Ġdi":4948,"zhangĠaiĠ":4949,"aiĠjiĠ":4950,"zheĠxie":4951,"chuanĠshuoĠ":4952,"2ĠhaoĠ":4953,"kaoĠguĠ":4954,"ĠjuĠyouĠ":4955,"chengĠnianĠ":4956,"1949ĠnianĠ":4957,"fuĠjinĠdeĠ":4958,"ĠchuĠxianĠ":4959,"ĠgongĠyouĠ":4960,"Ġ2009":4961,"chuĠbuĠ":4962,"quĠjiĠ":4963,"yuĠyanĠ":4964,"ĠyinĠqiĠ":4965,"ĠyongĠyuĠ":4966,"manĠdeĠ":4967,"jingĠfangĠ":4968,"ĠshiĠshiĠjieĠ":4969,"xinĠjiaĠpoĠ":4970,"ĠzhongĠshiĠ":4971,"moĠsiĠkeĠ":4972,"geĠming":4973,"ĠĠĠjuĠqingĠ":4974,"lianĠzaiĠ":4975,"ĠbiĠruĠ":4976,"huanĠzheĠ":4977,"kaoĠjinĠ":4978,"shenĠme":4979,"suoĠshuĠ":4980,"qianĠrenĠ":4981,"1980ĠnianĠ":4982,"ĠĠĠ2010":4983,"ĠweiĠciĠ":4984,"zhanĠtingĠ":4985,"ĠshiĠjiĠshangĠ":4986,"ĠĠĠ2011":4987,"4ĠgeĠ":4988,"yunĠnanĠ":4989,"ĠdiĠshiĠ":4990,"mingĠrenĠ":4991,"leĠyuĠ":4992,"zuoĠzheĠ":4993,"zhouĠjiĠ":4994,"zhongĠdianĠ":4995,"guangĠdongĠshengĠ":4996,"gaoĠdaĠ":4997,"ĠshiĠriĠbenĠ":4998,"muĠqin":4999,"Ġxiao":5000,"ĠĠĠben":5001,"ĠsiĠchuanĠ":5002,"Ġ2008":5003,"quĠleĠ":5004,"zheĠweiĠ":5005,"ĠguoĠchengĠzhongĠ":5006,"baoĠzhangĠ":5007,"taiĠduĠ":5008,"ĠgongĠtongĠ":5009,"ĠteĠbieĠshiĠ":5010,"ĠqiĠshiĠ":5011,"Ġ2013ĠnianĠ":5012,"zongĠshiĠ":5013,"ĠchuĠshengĠyuĠ":5014,"yangĠjiĠ":5015,"chuĠyanĠ":5016,"jiangĠzaiĠ":5017,"yinĠqingĠ":5018,"shuangĠfangĠ":5019,"24ĠnianĠ":5020,"changĠjianĠdeĠ":5021,"Ġkai":5022,"ĠĠĠ17":5023,"quĠyiĠhuiĠ":5024,"yinĠheĠ":5025,"ĠyouĠciĠ":5026,"quanĠzhangĠ":5027,"ĠcanĠyuĠ":5028,"40Ġ":5029,"xunĠyangĠ":5030,"faĠhuiĠ":5031,"wanĠgongĠ":5032,"ĠrenĠmingĠ":5033,"huaĠyiĠ":5034,"yingĠxiongĠ":5035,"xiuĠzhengĠ":5036,"huaĠzhiĠ":5037,"ganĠbuĠ":5038,"youĠxianĠ":5039,"ĠshiĠdeĠguoĠ":5040,"1ĠĠĠ":5041,"fangĠyiĠ":5042,"suiĠshiĠ":5043,"ĠqiĠxiĠ":5044,"tiaoĠliĠ":5045,"1986ĠnianĠ":5046,"xiangĠguanĠdeĠ":5047,"chuĠzaiĠ":5048,"cuoĠwuĠ":5049,"ĠjiaĠtingĠ":5050,"bianĠjuĠ":5051,"ĠĠĠdiĠfangĠ":5052,"Ġre":5053,"ĠguoĠhuiĠ":5054,"banĠbuĠ":5055,"ĠyiĠxiaoĠshiĠ":5056,"shengĠtaiĠ":5057,"shouĠxiangĠ":5058,"ĠbingĠduĠ":5059,"taoĠtaiĠ":5060,"ĠĠĠqiĠtaĠ":5061,"huĠbuĠ":5062,"nengĠliangĠ":5063,"ĠĠĠmeiĠguoĠ":5064,"yuanĠzeĠ":5065,"faĠlanĠxiĠ":5066,"ĠwuĠkeĠlanĠ":5067,"Ġsu":5068,"laoĠdeĠ":5069,"ĠyueĠtuanĠ":5070,"zhouĠciĠshiĠ":5071,"shuĠliĠ":5072,"ĠxueĠxiaoĠ":5073,"Ġcai":5074,"chuĠzhiĠ":5075,"zuiĠyouĠ":5076,"fengĠweiĠ":5077,"luĠyingĠ":5078,"luĠkouĠ":5079,"ĠĠĠdiĠerĠ":5080,"qingĠhuaĠ":5081,"yaoĠqiu":5082,"guĠfen":5083,"keĠdeĠqiĠzhongĠyiĠzhongĠ":5084,"ĠduanĠ":5085,"huiĠbuĠ":5086,"huoĠxingĠ":5087,"qingĠqiuĠ":5088,"kaiĠsheĠ":5089,"zhiĠdeĠshiĠ":5090,"siĠzhiĠ":5091,"faĠguanĠ":5092,"meiĠshuĠ":5093,"dangĠdiĠdeĠ":5094,"ĠweiĠchiĠ":5095,"ĠzhongĠhuaĠrenĠminĠgongĠheĠguoĠzhengĠzhiĠrenĠwuĠ":5096,"heĠxinĠ":5097,"gaiĠchengĠ":5098,"nuan":5099,"ĠheĠxinĠ":5100,"Ġcha":5101,"daiĠshiĠ":5102,"lingĠrenĠ":5103,"hanĠyuĠ":5104,"Ġ2022":5105,"henĠdaĠ":5106,"fouĠ":5107,"ĠheĠzhongĠ":5108,"ĠpingĠjunĠ":5109,"daoĠbuĠ":5110,"ĠĠĠRe":5111,"zhuangĠjiĠ":5112,"cuiĠhuiĠ":5113,"ĠjiĠnian":5114,"luĠkeĠ":5115,"hanĠyouĠ":5116,"chengĠkeĠ":5117,"qiangĠdiaoĠ":5118,"1945ĠnianĠ":5119,"ĠĠĠdanĠ":5120,"xiaĠweiĠ":5121,"Ġdui":5122,"enĠshengĠ":5123,"laiĠshiĠ":5124,"dangĠweiĠ":5125,"Ġ25":5126,"Ġ2006ĠnianĠ":5127,"beiĠweiĠ":5128,"huanĠxingĠ":5129,"yaĠjunĠ":5130,"canĠkaoĠ":5131,"ĠwanĠjiaĠ":5132,"zhengĠweiĠ":5133,"1987ĠnianĠ":5134,"tianĠjingĠ":5135,"beiĠrenĠmingĠweiĠ":5136,"yuanĠzhongĠ":5137,"huanĠdeĠ":5138,"gongĠyingĠ":5139,"zuiĠgaoĠdeĠ":5140,"niĠyaĠzhouĠ":5141,"ĠmaiĠkeĠ":5142,"riĠdeĠ":5143,"nengĠzaiĠ":5144,"ĠyiĠzuoĠ":5145,"xiĠlaĠ":5146,"ĠAĠ":5147,"dengĠdengĠ":5148,"liangĠnianĠ":5149,"22ĠnianĠ":5150,"xiaĠquĠ":5151,"suoĠchuĠdeĠ":5152,"dangĠjuĠ":5153,"yaĠyiĠ":5154,"suoĠzhiĠ":5155,"xiuĠfuĠ":5156,"27ĠnianĠ":5157,"chengĠbenĠ":5158,"qingĠxingĠ":5159,"xieĠdaoĠ":5160,"tiĠyuĠchangĠ":5161,"Ġxiong":5162,"xieĠerĠ":5163,"shangĠhaiĠshiĠ":5164,"tuĠpoĠ":5165,"shengĠyouĠ":5166,"baiĠdeĠ":5167,"21ĠnianĠ":5168,"xianĠshengĠ":5169,"ĠyeĠjiuĠshiĠ":5170,"18ĠnianĠ":5171,"ĠdaĠduoĠ":5172,"teĠdingĠ":5173,"kunĠnanĠ":5174,"renĠyuanĠ":5175,"ĠdaĠxingĠ":5176,"yinĠruĠ":5177,"xiangĠweiĠ":5178,"taiĠzhongĠ":5179,"ĠshiĠyong":5180,"aĠlaĠboĠ":5181,"xiangĠyouĠ":5182,"ĠyiĠfuĠ":5183,"ĠjiĠbuĠ":5184,"kaiĠfa":5185,"jingĠzhiĠ":5186,"keĠxueĠyuanĠ":5187,"huoĠbanĠ":5188,"19ĠnianĠ":5189,"duoĠweiĠ":5190,"tanĠdeĠ":5191,"shunĠliĠ":5192,"1982ĠnianĠ":5193,"fenĠbuĠzaiĠ":5194,"leĠqiĠ":5195,"laĠdingĠ":5196,"ĠsuiĠzhuĠ":5197,"leĠzaiĠ":5198,"xiĠbaoĠ":5199,"hongĠzha":5200,"7ĠrenĠ":5201,"chengĠguoĠ":5202,"junĠzhiĠ":5203,"zhanĠxianĠ":5204,"ĠdaĠfuĠ":5205,"ĠxiĠbanĠyaĠ":5206,"Ġmeng":5207,"daĠhuiĠ":5208,"ĠxiangĠnianĠ":5209,"15ĠnianĠ":5210,"chuiĠ":5211,"wangĠyuanĠ":5212,"keĠyouĠ":5213,"6ĠrenĠ":5214,"ĠxiĠerĠ":5215,"ruĠqin":5216,"qiangĠlieĠ":5217,"zeĠzaiĠ":5218,"13ĠnianĠ":5219,"shouĠgouĠ":5220,"ĠkeĠerĠ":5221,"henĠkuaiĠ":5222,"Ġqing":5223,"Ġ2012ĠnianĠ":5224,"wuĠziĠ":5225,"manĠzuĠ":5226,"Ġp":5227,"ĠwenĠhuaĠ":5228,"chuanĠdeĠ":5229,"ĠbuĠjinĠ":5230,"haiĠyangĠ":5231,"jingĠheĠ":5232,"gaiĠshiĠ":5233,"zhongĠguoĠdaĠluĠdeĠ":5234,"ĠĠĠ2":5235,"xiaoĠyuanĠ":5236,"haiĠpingĠmianĠ":5237,"Ġ00Ġ":5238,"suoĠweiĠ":5239,"xiuĠjianĠ":5240,"shengĠchuĠ":5241,"ĠtaĠcengĠdaiĠbiaoĠ":5242,"ganĠranĠzheĠ":5243,"11ĠnianĠ":5244,"1983ĠnianĠ":5245,"ĠshiĠgeĠ":5246,"ĠheĠlanĠ":5247,"tongĠmengĠ":5248,"heiĠseĠ":5249,"zuĠyiĠ":5250,"ĠriĠjunĠ":5251,"liĠyuĠ":5252,"ĠĠĠyinĠ":5253,"beiĠyuĠ":5254,"xueĠyuĠ":5255,"laiĠyueĠ":5256,"Ġte":5257,"ciĠshiĠjieĠdaĠzhanĠ":5258,"ĠĠĠaĠ":5259,"jiaĠweiĠ":5260,"taiĠyuĠ":5261,"zuiĠweiĠ":5262,"huangĠhouĠ":5263,"zhaoĠpianĠ":5264,"yinĠliĠ":5265,"bengĠ":5266,"yaĠmeiĠ":5267,"zhouĠzhiĠ":5268,"ĠzuĠfuĠ":5269,"jiangĠzhiĠ":5270,"zhenĠyuĠ":5271,"paiĠmingĠdiĠ":5272,"jingĠyiĠ":5273,"haoĠshiĠ":5274,"guĠdaiĠ":5275,"geiĠleĠ":5276,"zhuĠzhiĠ":5277,"zhangĠweiĠ":5278,"renĠleiĠ":5279,"dangĠyuanĠ":5280,"ĠwanĠyuanĠ":5281,"ĠtongĠshiĠgaiĠdiĠ":5282,"houĠweiĠ":5283,"daĠjiangĠ":5284,"ĠdeĠjiĠchuĠ":5285,"ĠguangĠdongĠ":5286,"dingĠqiĠ":5287,"ĠjiĠduĠ":5288,"shangĠchangĠ":5289,"benĠshenĠ":5290,"zuĠqiuĠyunĠdongĠyuanĠ":5291,"boĠshiĠxueĠweiĠ":5292,"2ĠgeĠ":5293,"xiangĠheĠ":5294,"qiangĠzhiĠ":5295,"beiĠjingĠshiĠ":5296,"jiuĠhuiĠ":5297,"nongĠminĠ":5298,"neiĠluĠshengĠfenĠ":5299,"chengĠbaoĠ":5300,"ĠmeiĠnianĠ":5301,"jiaoĠzhiĠ":5302,"liangĠguoĠ":5303,"ĠzhongĠziĠ":5304,"ĠaĠerĠ":5305,"chengĠshiĠdeĠ":5306,"zhenĠjiĠ":5307,"keĠfuĠ":5308,"chuĠyouĠ":5309,"chuangĠbanĠ":5310,"bangĠdeĠ":5311,"ĠhuoĠzheĠ":5312,"oĠĠĠ":5313,"chuĠshouĠ":5314,"xunĠzhangĠ":5315,"xiaĠlingĠshiĠjianĠ":5316,"tongĠweiĠ":5317,"jingĠzaiĠ":5318,"leĠyouĠ":5319,"duanĠshiĠ":5320,"ĠZ":5321,"teĠxingĠ":5322,"moĠsiĠ":5323,"8ĠrenĠ":5324,"Ġpu":5325,"bianĠhaoĠ":5326,"tanĠpanĠ":5327,"ĠliaoĠ":5328,"ĠkuĠ":5329,"14ĠnianĠ":5330,"ĠsaiĠjiĠ":5331,"keĠzhiĠ":5332,"ĠbuĠdiĠ":5333,"kuoĠzhanĠ":5334,"ĠmuĠqian":5335,"tangĠdeĠ":5336,"xiangĠxinĠ":5337,"shangĠxiaĠ":5338,"luĠxuĠ":5339,"Ġ10Ġ":5340,"wanĠdeĠ":5341,"minĠdiĠ":5342,"diĠqiuĠ":5343,"jiuĠyiĠ":5344,"zaoĠzaiĠ":5345,"woĠdeĠ":5346,"wuĠdaoĠ":5347,"ĠbuĠluoĠ":5348,"19ĠshiĠjiĠ":5349,"paiĠhangĠ":5350,"taĠweiĠ":5351,"junĠheĠ":5352,"chiĠrenĠ":5353,"juĠdaĠ":5354,"ĠĠĠjianĠjieĠ":5355,"muĠzhiĠ":5356,"gaoĠzhiĠ":5357,"fanĠzhiĠ":5358,"renĠgongĠ":5359,"xiĠwangĠ":5360,"tianĠtiĠ":5361,"kaiĠshiĠshiĠ":5362,"ĠtieĠ":5363,"xuanĠdeĠ":5364,"weiĠyiĠyiĠ":5365,"ĠjiĠfuĠ":5366,"muĠniĠ":5367,"Ġ500":5368,"ĠrenĠqiĠ":5369,"wuĠzhengĠzhuangĠ":5370,"zheĠxueĠ":5371,"suoĠyouĠdeĠ":5372,"ĠshiĠyiĠgeĠweiĠyuĠ":5373,"ĠkanĠ":5374,"huiĠguoĠ":5375,"niĠerĠ":5376,"ĠqiĠcheĠ":5377,"nanĠfangĠ":5378,"liangĠmingĠ":5379,"miĠyaĠ":5380,"ĠxianĠhouĠ":5381,"ziĠzhongĠ":5382,"29ĠnianĠ":5383,"Ġ1950":5384,"xiĠyaĠ":5385,"xiangĠbiĠ":5386,"jiangĠjinĠ":5387,"shaĠhaiĠ":5388,"kaiĠshiĠzaiĠ":5389,"yueĠnanĠ":5390,"ĠĠĠdiĠfangĠziĠliaoĠ":5391,"quĠzhiĠ":5392,"dianĠheĠ":5393,"yaĠheĠ":5394,"rongĠheĠ":5395,"diĠyiĠweiĠ":5396,"Ġ2014ĠnianĠ":5397,"bingĠyiĠ":5398,"lingĠyiĠgeĠ":5399,"feiĠerĠ":5400,"fengĠfuĠ":5401,"ĠnianĠĠĠ":5402,"wenĠduĠ":5403,"ĠĠĠzengĠzuĠ":5404,"yanĠyuĠ":5405,"duiĠciĠ":5406,"fangĠjianĠ":5407,"ĠtiaoĠ":5408,"ĠzhiĠyiĠ":5409,"pingĠdeĠ":5410,"nuoĠfuĠ":5411,"ĠguoĠquĠ":5412,"ziĠzaiĠ":5413,"cengĠweiĠ":5414,"ĠĠĠi":5415,"changĠjianĠ":5416,"aoĠzhouĠ":5417,"ĠwaĠ":5418,"yinĠpaiĠ":5419,"gaoĠxiong":5420,"Ġsong":5421,"yeĠjiĠ":5422,"ĠyiĠsiĠlanĠ":5423,"ĠĠĠjieĠ":5424,"zhouĠheĠ":5425,"sanĠjiaĠ":5426,"shenĠduĠ":5427,"ĠyiĠwuĠ":5428,"ĠnianĠweiĠ":5429,"qinĠwangĠ":5430,"Ġ0Ġ":5431,"nvĠzhuĠ":5432,"ĠĠĠ1Ġ":5433,"dingĠshiĠ":5434,"xiuĠdeĠ":5435,"ĠzhongĠdaĠ":5436,"ĠjiaĠzuĠ":5437,"naĠcui":5438,"guanĠliĠjuĠ":5439,"huĠweiĠ":5440,"yangĠxingĠ":5441,"peiĠzhiĠ":5442,"haiĠbaĠweiĠ":5443,"zĠ":5444,"ĠCo":5445,"tiĠweiĠ":5446,"ĠkeĠxiĠ":5447,"shanĠfengĠ":5448,"yeĠyiĠ":5449,"ĠjiĠhouĠ":5450,"tongĠmingĠ":5451,"dongĠshiĠzhangĠ":5452,"ĠjiuĠshiĠ":5453,"zouĠxiangĠ":5454,"xiaoĠfangĠ":5455,"ĠĠĠzhengĠ":5456,"zaiĠliĠ":5457,"zhuĠweiĠ":5458,"teĠĠĠ":5459,"ĠyouĠzhongĠ":5460,"daĠxiĠyangĠ":5461,"Ġxu":5462,"liangĠdaĠ":5463,"suoĠcaiĠyong":5464,"ĠbingĠweiĠ":5465,"ĠzengĠ":5466,"ĠĠĠyingĠ":5467,"ĠbuĠduanĠ":5468,"zhanĠlve":5469,"ĠshiĠyiĠbuĠ":5470,"ĠxiĠlie":5471,"ĠdaĠduoĠshuĠ":5472,"gaiĠzaoĠ":5473,"nengĠyuanĠ":5474,"shouĠrenĠ":5475,"erĠtongĠ":5476,"19Ġ":5477,"junĠrenĠ":5478,"ceĠĠĠ":5479,"gongĠchengĠshiĠ":5480,"23ĠnianĠ":5481,"zhanĠlanĠ":5482,"zhiĠshiĠqiĠ":5483,"kaoĠlv":5484,"5ĠmiĠ":5485,"hanĠdeĠ":5486,"jieĠtiĠ":5487,"ganĠranĠ":5488,"zei":5489,"guĠdingĠ":5490,"mengĠgu":5491,"baĠheĠ":5492,"manĠdiĠ":5493,"ĠbuĠerĠ":5494,"wenĠzhongĠ":5495,"ĠzaiĠyouĠ":5496,"geĠjuĠ":5497,"ĠĠĠjingĠ":5498,"taiĠheĠ":5499,"lunĠshiĠ":5500,"leĠzheĠ":5501,"ĠruoĠ":5502,"Ġku":5503,"junĠzhongĠ":5504,"ĠguoĠneiĠ":5505,"shangĠshengĠ":5506,"boĠlinĠ":5507,"ĠweiĠyuĠgaiĠ":5508,"geĠyuĠ":5509,"jieĠliĠ":5510,"muĠqian":5511,"jueĠduiĠ":5512,"jieĠzhongĠ":5513,"huiĠyiĠyuanĠ":5514,"zhengĠxie":5515,"gongĠliĠdeĠ":5516,"kouĠdeĠ":5517,"ĠshiĠyeĠ":5518,"ĠerĠfeiĠ":5519,"diaoĠkuai":5520,"aiĠerĠlanĠ":5521,"cĠĠĠ":5522,"daoĠweiĠ":5523,"xiaoĠfeiĠ":5524,"ĠfuĠqinĠ":5525,"mianĠduiĠ":5526,"Ġ187":5527,"qianĠdingĠ":5528,"xiaĠlingĠ":5529,"ĠdeĠyiĠshuĠ":5530,"ĠdongĠnanĠ":5531,"sanĠweiĠ":5532,"ĠweiĠUTCĠ":5533,"shengĠdiĠ":5534,"zhuĠyiĠzheĠ":5535,"xiongĠyaĠliĠ":5536,"lianĠheĠhuiĠ":5537,"Ġ28":5538,"zhouĠyiĠ":5539,"sanĠdaĠ":5540,"yanĠhaiĠ":5541,"ĠcnĠ":5542,"ĠĠĠjiaoĠtongĠ":5543,"zhuĠheĠ":5544,"wenĠheĠ":5545,"ĠerĠqiĠ":5546,"ziĠshenĠ":5547,"diaoĠkuaiĠyiĠxiaoĠshiĠ":5548,"ĠgenĠ":5549,"ĠĠĠmaĠ":5550,"chengĠyouĠ":5551,"zhangĠyueĠ":5552,"chongĠjiĠ":5553,"1978ĠnianĠ":5554,"guoĠhuiĠ":5555,"liuĠxiaĠ":5556,"chuangĠzaoĠ":5557,"luoĠshiĠ":5558,"bianĠyiĠ":5559,"laoĠshiĠ":5560,"ĠjiĠUTCĠ":5561,"paiĠqianĠ":5562,"sheĠyouĠxiaĠlingĠshiĠjianĠ":5563,"ĠdeĠshiĠquĠweiĠUTCĠ":5564,"ĠerĠgaiĠdiĠsuoĠcaiĠyong":5565,"ĠtongĠshiĠgaiĠdiĠsheĠyouĠxiaĠlingĠshiĠjianĠ":5566,"ĠerĠgaiĠdiĠsuoĠcaiĠyongĠdeĠshiĠquĠweiĠUTCĠ":5567,"shuĠrenĠ":5568,"nanĠhaiĠ":5569,"ĠlingĠyouĠ":5570,"jingĠgaoĠ":5571,"jianĠliĠleĠ":5572,"miĠshuĠzhangĠ":5573,"mingĠzhongĠ":5574,"xiangĠtongĠdeĠ":5575,"bingĠfeiĠ":5576,"lieĠruĠ":5577,"guanĠheĠ":5578,"zhangĠheĠ":5579,"caiĠdeĠ":5580,"inĠ":5581,"biĠyeĠhouĠ":5582,"gaoĠyuĠhaiĠpingĠmianĠ":5583,"dangĠjiĠ":5584,"ĠzhongĠgongĠzhongĠyangĠ":5585,"ruĠdeĠ":5586,"ĠqiĠfuĠ":5587,"biaoĠbenĠ":5588,"Ġchi":5589,"Ġsa":5590,"ĠzhongĠshanĠ":5591,"gaiĠmingĠweiĠ":5592,"quĠdeĠmianĠjiĠweiĠ":5593,"ĠqiĠzhongĠbaoĠkuoĠ":5594,"haiĠbaĠweiĠgaoĠyuĠhaiĠpingĠmianĠ":5595,"jinĠxingĠdeĠ":5596,"faĠzhiĠ":5597,"mangĠ":5598,"jingĠduĠ":5599,"guanĠcha":5600,"changĠsuoĠ":5601,"tanĠxianĠ":5602,"shouĠxianĠ":5603,"ĠgeĠquĠ":5604,"zhanĠyuĠ":5605,"ĠshiĠbeiĠ":5606,"buĠshiĠquĠ":5607,"ĠziĠyouĠ":5608,"fangĠjiĠ":5609,"daĠlouĠ":5610,"zhengĠce":5611,"banĠben":5612,"daĠyiĠ":5613,"stĠ":5614,"...":5615,"ĠyueĠyiĠ":5616,"ĠshanĠxiĠ":5617,"shangĠdiĠ":5618,"chaoĠyueĠ":5619,"qunĠzhongĠ":5620,"26ĠnianĠ":5621,"alĠĠĠ":5622,"Ġ2025":5623,"Ġ2015ĠnianĠ":5624,"benĠrenĠ":5625,"douĠzaiĠ":5626,"pingĠguĠ":5627,"tiaoĠjieĠ":5628,"yanĠseĠ":5629,"zhangĠfuĠ":5630,"cunĠluoĠ":5631,"stĠĠĠ":5632,"tuĠjingĠ":5633,"yiĠshiĠdeĠ":5634,"suoĠzaiĠdiĠ":5635,"shuangĠdaĠ":5636,"1972ĠnianĠ":5637,"cheĠxiangĠ":5638,"ĠhuoĠdongĠ":5639,"ĠluoĠmaĠ":5640,"liĠdeĠ":5641,"dengĠzhiĠ":5642,"ĠdaĠluĠ":5643,"Ġ24":5644,"danĠbaiĠ":5645,"ĠrongĠ":5646,"gongĠweiĠ":5647,"17Ġ":5648,"gongĠneng":5649,"suoĠchuĠdeĠhaiĠbaĠweiĠgaoĠyuĠhaiĠpingĠmianĠ":5650,"changĠjingĠ":5651,"3ĠhaoĠ":5652,"tuiĠxiuĠ":5653,"sheĠxianĠ":5654,"feiĠerĠdeĠ":5655,"xiaoĠyuĠ":5656,"ĠbuĠxiangĠ":5657,"ĠĠĠ190":5658,"duanĠshiĠjianĠ":5659,"laiĠsiĠ":5660,"jianĠkangĠ":5661,"shenĠhuaĠ":5662,"luoĠfaĠ":5663,"ĠerĠdeĠ":5664,"ouĠxiangĠ":5665,"sanĠrenĠ":5666,"diĠxiaĠ":5667,"ĠzaiĠtaĠ":5668,"huiĠguiĠ":5669,"ĠerĠbuĠshiĠ":5670,"tiĠxingĠ":5671,"yinĠxiangĠ":5672,"caiĠnengĠ":5673,"ĠdeĠjiĠluĠ":5674,"ĠĠĠanĠ":5675,"leĠdeĠ":5676,"yanĠrenĠ":5677,"daĠbuĠfen":5678,"ĠshuoĠ":5679,"yanĠheĠ":5680,"ctionĠĠĠ":5681,"quĠzhuĠ":5682,"ĠmeiĠyuanĠ":5683,"yinĠyuĠ":5684,"luoĠyuĠ":5685,"juĠleĠ":5686,"naĠxieĠ":5687,"ĠY":5688,"zuĠqiuĠduiĠ":5689,"ĠĠĠ4":5690,"mianĠyiĠ":5691,"shuaiĠlingĠ":5692,"ĠqiĠxuanĠ":5693,"zaiĠyiĠqiĠ":5694,"ĠĠĠ2Ġ":5695,"xuanĠzhongĠ":5696,"1979ĠnianĠ":5697,"boĠlan":5698,"keĠnengĠhuiĠ":5699,"qianĠyueĠ":5700,"yanĠzhongĠdeĠ":5701,"yongĠleĠ":5702,"ĠluĠwa":5703,"ĠMi":5704,"ĠyiĠshengĠ":5705,"ĠheĠdaoĠ":5706,"zuĠcheng":5707,"ĠwanĠliĠ":5708,"canĠxuanĠ":5709,"kongĠxiĠ":5710,"ĠzhongĠdianĠ":5711,"ĠsuiĠshiĠ":5712,"ĠĠĠdiĠyiĠ":5713,"ĠnianĠshiĠjieĠ":5714,"huĠxiangĠ":5715,"quanĠyiĠ":5716,"seĠfuĠ":5717,"fuĠxingĠ":5718,"changĠshangĠ":5719,"lianĠluoĠ":5720,"zhouĠliĠ":5721,"qingĠjieĠ":5722,"9ĠrenĠ":5723,"danĠshiĠ":5724,"Ġ2016ĠnianĠ":5725,"tuĠjiĠ":5726,"1958ĠnianĠ":5727,"tiĠgongĠleĠ":5728,"queĠshiĠ":5729,"beiĠfangĠ":5730,"daiĠlingĠ":5731,"kaiĠdeĠ":5732,"beiĠsiĠ":5733,"guanĠyiĠ":5734,"muĠerĠ":5735,"17ĠnianĠ":5736,"huaĠjiaĠ":5737,"ĠmaĠlai":5738,"Ġ2007":5739,"Ġ7Ġ":5740,"ĠchaoĠxianĠ":5741,"shuĠbuĠ":5742,"faĠyiĠ":5743,"dingĠliĠ":5744,"60Ġ":5745,"xianĠzhuĠ":5746,"duiĠyingĠ":5747,"zhenĠquĠdeĠmianĠjiĠweiĠ":5748,"Ġ2023":5749,"ĠĠĠmeiĠ":5750,"23Ġ":5751,"ĠzhiĠshuĠ":5752,"ziĠchanĠ":5753,"faĠshengĠzaiĠ":5754,"1ĠgeĠ":5755,"zhongĠyiĠyuanĠ":5756,"neiĠdiĠ":5757,"heĠliuĠ":5758,"cengĠdeĠ":5759,"diĠquĠdeĠ":5760,"zhengĠbianĠ":5761,"mianĠfeiĠ":5762,"uĠ":5763,"eri":5764,"diĠwuĠ":5765,"zuiĠduoĠ":5766,"zhuanĠmenĠ":5767,"zuĠqiuĠjuĠleĠbuĠ":5768,"ĠĠĠ2008":5769,"qianĠxiĠ":5770,"kaoĠshiĠ":5771,"geĠguoĠ":5772,"baoĠluoĠ":5773,"suĠgeĠlanĠ":5774,"ĠshouĠdaoĠ":5775,"tiĠheĠ":5776,"shangĠjiĠ":5777,"yanĠjiĠ":5778,"bingĠyuĠ":5779,"sheĠzaiĠ":5780,"ziĠxun":5781,"guanĠceĠ":5782,"muĠsiĠlinĠ":5783,"ruĠweiĠ":5784,"kaĠlaĠ":5785,"ĠyuanĠmingĠ":5786,"shenĠyiĠ":5787,"sheĠjiĠshiĠ":5788,"ĠshouĠciĠ":5789,"Ġ2ĠyueĠ":5790,"sanĠbuĠ":5791,"zhongĠyao":5792,"baoĠcunĠ":5793,"tianĠhouĠ":5794,"ĠĠĠyanĠ":5795,"ĠyuĠxiĠ":5796,"wuĠguanĠ":5797,"ĠĠĠxingĠ":5798,"ĠbuĠlaĠ":5799,"feiĠyanĠ":5800,"zaoĠshangĠ":5801,"zhongĠguoĠdaĠluĠ":5802,"kĠĠĠ":5803,"onal":5804,"llĠ":5805,"16ĠnianĠ":5806,"mianĠdianĠ":5807,"gengĠxinĠ":5808,"qingĠrenĠ":5809,"1976ĠnianĠ":5810,"ĠĠĠran":5811,"chuĠweiĠ":5812,"pingĠguoĠ":5813,"tuiĠjianĠ":5814,"liaoĠdeĠ":5815,"cuĠ":5816,"quanĠxianĠ":5817,"gaoĠshiĠ":5818,"chaiĠ":5819,"guoĠneiĠ":5820,"chuanĠtongĠdeĠ":5821,"ĠbeiĠchengĠweiĠ":5822,"1960ĠnianĠ":5823,"juĠfengĠ":5824,"wanĠzhengĠ":5825,"shouĠquanĠ":5826,"ĠxiangĠguanĠ":5827,"zhuĠzhongĠ":5828,"shuĠzaiĠ":5829,"langĠzhongĠ":5830,"tongĠxunĠ":5831,"huaĠzaiĠ":5832,"bianĠjingĠ":5833,"shanĠxianĠ":5834,"jueĠyuĠ":5835,"00Ġ":5836,"miaoĠhuiĠ":5837,"yuanĠxianĠ":5838,"xieĠzuoĠ":5839,"Ġkan":5840,"fuĠzhuĠ":5841,"zanĠzhuĠ":5842,"ĠdiĠdiĠ":5843,"tuĠshuĠ":5844,"lli":5845,"Ġshao":5846,"chengĠzaiĠ":5847,"muĠyuĠ":5848,"guiĠmo":5849,"juĠzaiĠ":5850,"baĠsiĠ":5851,"pianĠzhongĠ":5852,"geĠlaĠ":5853,"faĠmingĠ":5854,"ĠdiĠqiuĠ":5855,"luoĠshanĠjiĠ":5856,"cheĠchangĠ":5857,"Ġpeng":5858,"Ġ2019ĠnianĠ":5859,"liĠziĠ":5860,"fengĠdeĠ":5861,"veĠ":5862,"YouTu":5863,"ĠzhongĠxingĠ":5864,"piĠzhun":5865,"pp":5866,"Ġ50":5867,"ĠĠĠgongĠ":5868,"ĠshiĠjiaĠ":5869,"ĠzhiĠwaiĠ":5870,"ĠliĠchengĠ":5871,"ĠĠĠofĠĠĠ":5872,"baĠdaĠ":5873,"tunĠ":5874,"xingĠmuĠ":5875,"xianĠruĠ":5876,"jinĠriĠ":5877,"quĠjianĠ":5878,"zhangĠzhuanĠjiĠ":5879,"ĠzuiĠgaoĠ":5880,"Ġlv":5881,"xingĠzaiĠ":5882,"xueĠzhongĠ":5883,"ĠnianĠlaiĠ":5884,"ĠbiĠsaiĠ":5885,"ĠnuoĠ":5886,"yinĠyue":5887,"zhouĠrenĠ":5888,"pingĠlun":5889,"jiangĠyiĠ":5890,"ĠshanĠdongĠ":5891,"guoĠminĠdangĠ":5892,"Ġhei":5893,"Ġ26":5894,"ĠxiaoĠshiĠ":5895,"ĠjueĠdingĠ":5896,"liangĠheĠ":5897,"bianĠzhiĠ":5898,"jiuĠyuanĠ":5899,"ĠĠĠrenĠ":5900,"chuĠzhangĠ":5901,"ĠdeĠshiĠyongĠ":5902,"ĠciĠnianĠ":5903,"gaiĠzhiĠweiĠ":5904,"ĠliĠliangĠ":5905,"ĠyouĠzaiĠ":5906,"luoĠliĠdaĠ":5907,"linĠsiĠ":5908,"ĠshiĠtaĠ":5909,"ĠyuĠbeiĠ":5910,"juĠbenĠ":5911,"jiaoĠduĠ":5912,"tianĠzhuĠ":5913,"zaoĠchengĠdeĠ":5914,"Ġ2017ĠnianĠ":5915,"xiaoĠyingĠ":5916,"gra":5917,"aoĠerĠ":5918,"shouĠboĠ":5919,"suĠliĠ":5920,"ĠshiĠjianĠzhuĠ":5921,"banĠjiĠ":5922,"1920ĠnianĠ":5923,"shangĠxianĠ":5924,"zhangĠziĠ":5925,"huĠlianĠ":5926,"Ġ2018ĠnianĠ":5927,"ĠĠĠdongĠ":5928,"diĠqiĠ":5929,"ĠhuoĠshiĠ":5930,"Ġi":5931,"fuĠshuĠ":5932,"zhanĠmuĠsiĠ":5933,"aiĠliĠ":5934,"Ġtang":5935,"ĠlianĠheĠ":5936,"yunĠdeĠ":5937,"lieĠshiĠ":5938,"touĠxianĠ":5939,"luĠzhanĠ":5940,"ĠhouĠzheĠ":5941,"jiĠĠĠ":5942,"ĠĠĠgeĠrenĠ":5943,"dingĠjiĠ":5944,"ĠweiĠbeiĠ":5945,"yunĠyongĠ":5946,"maĠshiĠ":5947,"col":5948,"naĠxiaĠ":5949,"ĠĠĠnanĠ":5950,"huaiĠyiĠ":5951,"ĠpuĠtaoĠ":5952,"ĠĠĠduiĠ":5953,"xiaĠzaiĠ":5954,"xuĠjiĠ":5955,"ĠyiĠdongĠ":5956,"ĠweiĠyuĠzhongĠguoĠ":5957,"ĠĠĠbaĠ":5958,"chuĠzhongĠ":5959,"guanĠjiĠ":5960,"miĠniĠ":5961,"ĠyingĠwenĠ":5962,"Ġsang":5963,"canĠyiĠ":5964,"ĠdiĠyaĠ":5965,"huoĠcheĠ":5966,"qiangĠduĠ":5967,"yaoĠshiĠ":5968,"baoĠhu":5969,"leiĠsiĠdeĠ":5970,"ĠaiĠerĠ":5971,"shaoĠdeĠ":5972,"xinĠguanĠ":5973,"huoĠbiĠ":5974,"Ġshuang":5975,"zhaĠdanĠ":5976,"jiaoĠchaĠ":5977,"baĠerĠ":5978,"ĠzhiĠbuĠ":5979,"juĠbanĠdeĠ":5980,"xueĠkeĠ":5981,"chuanĠmeiĠ":5982,"ĠgaiĠbianĠ":5983,"canĠtingĠ":5984,"ĠzaĠzhiĠ":5985,"daoĠzaiĠ":5986,"duiĠzhongĠ":5987,"ĠnianĠdiĠ":5988,"bingĠduĠ":5989,"xingĠzhengĠquĠ":5990,"ĠxuĠyaoĠ":5991,"ĠzuĠzhiĠ":5992,"chĠ":5993,"ĠshiĠchengĠ":5994,"xiĠnanĠbuĠ":5995,"zuiĠzao":5996,"taiĠhouĠ":5997,"ĠmingĠzhiĠ":5998,"xinĠjiaĠpo":5999,"wuĠyueĠ":6000,"zhengĠjiĠ":6001,"luoĠyiĠ":6002,"faĠxianĠdeĠ":6003,"tiĠchuĠdeĠ":6004,"ĠshiĠyiĠkeĠ":6005,"ĠxinĠwenĠ":6006,"ganĠyuĠ":6007,"Ġ35":6008,"ĠkouĠ":6009,"Ġ30Ġ":6010,"faĠliĠ":6011,"ĠdaĠbuĠfen":6012,"zhuanĠxieĠ":6013,"Ġyang":6014,"ĠĠĠ2009":6015,"zongĠyiĠ":6016,"juĠban":6017,"taiĠkongĠ":6018,"Ġ2006":6019,"xiĠyouĠ":6020,"chuĠguoĠ":6021,"xueĠliĠ":6022,"zheĠheĠ":6023,"baiĠyuĠ":6024,"pinĠdeĠ":6025,"ĠshiĠerĠ":6026,"jueĠsai":6027,"ĠshiĠshiĠyongĠ":6028,"zongĠrenĠkouĠ":6029,"teĠquĠ":6030,"suiĠran":6031,"ĠlunĠ":6032,"ĠĠĠ10":6033,"daiĠyiĠ":6034,"ĠbingĠbeiĠ":6035,"ĠhangĠ":6036,"zhuĠdaoĠ":6037,"xiangĠfaĠ":6038,"ĠxiĠyinĠ":6039,"qingĠzhuĠ":6040,"jiangĠliĠ":6041,"meiĠjunĠ":6042,"ĠĠĠhouĠ":6043,"xueĠjiĠ":6044,"alĠ":6045,"ĠdiĠzaiĠ":6046,"tongĠxinĠ":6047,"ĠchunĠ":6048,"Ġ2004ĠnianĠ":6049,"shangĠwangĠ":6050,"baĠdeĠ":6051,"ĠnianĠqianĠ":6052,"jinĠrong":6053,"jiaoĠhuanĠ":6054,"wuĠzhengĠzhuangĠganĠranĠzheĠ":6055,"ĠyanĠjiuĠ":6056,"Ġ2021ĠnianĠ":6057,"xingĠshiĠdeĠ":6058,"suĠzhiĠ":6059,"touĠdeĠ":6060,"fuĠmuĠ":6061,"heĠĠĠ":6062,"miĠsiĠ":6063,"teĠjiĠ":6064,"chengĠleĠ":6065,"sheĠjiaoĠ":6066,"duanĠpianĠ":6067,"ĠmaĠliĠ":6068,"ĠchuĠbanĠ":6069,"aĠgenĠ":6070,"suiĠzheĠ":6071,"xinĠjianĠ":6072,"shenĠyuĠ":6073,"veĠĠĠ":6074,"geĠziĠ":6075,"ĠdeĠyiĠyuanĠ":6076,"juĠzhiĠ":6077,"duiĠjiĠ":6078,"dianĠweiĠ":6079,"minĠyiĠ":6080,"1968ĠnianĠ":6081,"qiĠzhongĠ":6082,"zuĠjieĠ":6083,"ĠshiĠrenĠminĠ":6084,"xianĠzhiĠxianĠ":6085,"Ġ29":6086,"ĠĠĠliuĠ":6087,"xianĠliĠ":6088,"taĠyiĠ":6089,"cheĠdiĠ":6090,"fangĠmian":6091,"minĠzu":6092,"Ġshui":6093,"shouĠbuĠ":6094,"chuanĠqiĠ":6095,"1964ĠnianĠ":6096,"faĠsheng":6097,"guĠlaĠ":6098,"huangĠseĠ":6099,"ĠĠĠtianĠ":6100,"dangĠnianĠ":6101,"1956ĠnianĠ":6102,"biĠxu":6103,"yongĠzaiĠ":6104,"teĠheĠ":6105,"ĠdeĠhuaĠ":6106,"daĠxiaoĠ":6107,"zhengĠquĠ":6108,"huoĠshengĠ":6109,"teĠdianĠ":6110,"ĠtaĠheĠ":6111,"ĠĠĠshiĠyongĠ":6112,"Ġ2020ĠnianĠ":6113,"duĠguoĠ":6114,"zhangĠzhiĠ":6115,"zanĠshiĠ":6116,"Ġmao":6117,"qiĠlaiĠ":6118,"xiĠbeiĠbuĠ":6119,"siĠdaĠ":6120,"Ġshun":6121,"zuiĠdiĠ":6122,"linĠjinĠ":6123,"leĠyuanĠ":6124,"luoĠchengĠ":6125,"zuiĠzaoĠ":6126,"yunĠdongĠdeĠ":6127,"bangĠqiuĠ":6128,"buĠdeĠcunĠzhuangĠ":6129,"Ġhuan":6130,"gaoĠduĠweiĠ":6131,"ĠyouĠzhuĠ":6132,"laiĠyuĠ":6133,"changĠbiĠsaiĠ":6134,"gangĠkouĠ":6135,"xunĠlian":6136,"gongĠyuanĠqianĠ":6137,"Ġge":6138,"ciĠdiĠ":6139,"chengĠjiuĠ":6140,"xinĠjiangĠ":6141,"gongĠzuoĠshiĠ":6142,"anĠzhiĠ":6143,"danĠdaĠ":6144,"wuĠdiĠ":6145,"ĠweiĠyiĠ":6146,"yongĠjiĠ":6147,"ĠgongĠyeĠ":6148,"ĠshuangĠfangĠ":6149,"qiĠcheĠ":6150,"lingĠchenĠ":6151,"1980ĠnianĠdaiĠ":6152,"xianĠchengĠ":6153,"faĠtingĠ":6154,"eĠdeĠ":6155,"Ġ27":6156,"ĠshiĠhouĠ":6157,"zhongĠhuaĠminĠguoĠ":6158,"shanĠmaiĠ":6159,"ĠdeĠyiĠxieĠ":6160,"chuĠbanĠsheĠ":6161,"jingĠneiĠgongĠyouĠ":6162,"ĠQ":6163,"xianĠzhongĠ":6164,"shengĠdaoĠ":6165,"Ġì":6166,"huiĠweiĠ":6167,"xianĠshangĠ":6168,"jiangĠshuĠ":6169,"sanĠmingĠ":6170,"daoĠyouĠ":6171,"houĠjiĠ":6172,"hanĠziĠ":6173,"ĠyiĠgongĠ":6174,"xinĠjieĠ":6175,"ĠxiangĠmuĠ":6176,"ĠgeĠshouĠ":6177,"ĠJo":6178,"xiaoĠliĠyuĠ":6179,"haiĠzaiĠ":6180,"qiĠhouĠ":6181,"ĠjiaĠlaĠ":6182,"leĠzhongĠ":6183,"lieĠchuĠ":6184,"chengĠzhiĠweiĠ":6185,"sanĠzhongĠ":6186,"xiuĠdaoĠ":6187,"ĠhenĠ":6188,"ĠdaĠjiaĠ":6189,"qianĠjinĠ":6190,"ĠheĠliuĠ":6191,"daĠdiĠ":6192,"laiĠyinĠ":6193,"zanĠtingĠ":6194,"biĠliĠshiĠ":6195,"baiĠkeĠ":6196,"ĠyiĠbianĠ":6197,"ĠzhaoĠheĠ":6198,"wĠĠĠ":6199,"ruanĠtiĠ":6200,"thĠ":6201,"jianĠduĠ":6202,"yeĠfuĠ":6203,"ĠtaĠyouĠ":6204,"ĠerĠgaiĠdiĠdeĠ":6205,"ĠĠĠdaoĠ":6206,"tongĠheĠ":6207,"ĠdaĠjiangĠ":6208,"ĠdanĠyinĠ":6209,"jinĠyuĠ":6210,"fenĠqiĠ":6211,"duiĠheĠ":6212,"huoĠzaiĠ":6213,"qianĠtingĠ":6214,"ĠtongĠyiĠ":6215,"ĠliangĠgeĠ":6216,"tiĠdaiĠ":6217,"ĠĠĠgaiĠyaoĠ":6218,"ĠbuĠdaoĠ":6219,"xiangĠyingĠ":6220,"ĠweiĠfuĠqiĠyuĠgang":6221,"aoĠdeĠ":6222,"duiĠdiĠ":6223,"yaĠrenĠ":6224,"1990ĠnianĠdaiĠ":6225,"chengĠquĠ":6226,"jingĠguanĠ":6227,"wangĠwangĠ":6228,"ĠtaĠmenĠzaiĠ":6229,"faĠjiĠ":6230,"tanĠheĠ":6231,"faĠdongĠjiĠ":6232,"ĠdianĠshiĠ":6233,"anĠliĠ":6234,"queĠbaoĠ":6235,"maĠtouĠ":6236,"ĠzuiĠchuĠ":6237,"ĠcaiĠyongĠ":6238,"xingĠyouĠ":6239,"qunĠtiĠ":6240,"1970ĠnianĠ":6241,"ĠqiĠbingĠ":6242,"bianĠyuanĠ":6243,"ĠX":6244,"danĠyiĠ":6245,"buĠmenĠ":6246,"chuo":6247,"yunĠheĠ":6248,"naĠheĠ":6249,"pinĠzhongĠ":6250,"1981ĠnianĠ":6251,"ĠliĠliĠ":6252,"fuĠhaoĠ":6253,"pingĠyuanĠ":6254,"ĠdeĠshiĠjiĠ":6255,"wanĠliĠ":6256,"shuĠchuĠ":6257,"ĠceĠ":6258,"ĠjinĠshiĠ":6259,"changĠjiĠ":6260,"jiuĠzaiĠ":6261,"kuoĠjianĠ":6262,"ĠtaĠrenĠweiĠ":6263,"dianĠshiĠjieĠ":6264,"siĠlanĠ":6265,"yeĠkeĠyiĠ":6266,"fenĠpeiĠ":6267,"ĠĠĠjiaĠtingĠ":6268,"ĠyueĠduiĠ":6269,"ĠxiĠtongĠdeĠ":6270,"juĠyuanĠ":6271,"guiĠfanĠ":6272,"ĠnengĠ":6273,"Ġ2002ĠnianĠ":6274,"1948ĠnianĠ":6275,"fuĠza":6276,"sheĠdingĠ":6277,"canĠshuĠ":6278,"chuangĠzuoĠdeĠ":6279,"peiĠbeiĠ":6280,"wuĠshuĠ":6281,"leĠyiĠxieĠ":6282,"beiĠjing":6283,"tuiĠguangĠ":6284,"daĠshiĠguanĠ":6285,"riĠbenĠdeĠ":6286,"quĠfenĠ":6287,"jiaoĠtang":6288,"suiĠranĠ":6289,"senĠlin":6290,"eĠguoĠ":6291,"ĠRo":6292,"ĠĠĠshouĠ":6293,"maĠkeĠsiĠ":6294,"qiuĠshiĠ":6295,"jieĠduan":6296,"ĠzhongĠguoĠrenĠminĠjieĠfangĠjunĠ":6297,"DĠĠĠ":6298,"xuanĠshiĠ":6299,"1952ĠnianĠ":6300,"wuĠzhuang":6301,"qianĠshenĠ":6302,"saiĠerĠweiĠ":6303,"gengĠduoĠdeĠ":6304,"ĠxianĠweiĠ":6305,"Ġ40":6306,"ĠRe":6307,"laĠweiĠ":6308,"changĠduĠ":6309,"tieĠluĠcheĠzhanĠ":6310,"ĠzhongĠjianĠ":6311,"beiĠdaĠ":6312,"yaĠmuĠ":6313,"duoĠerĠ":6314,"ĠqiĠzhong":6315,"zhongĠbuĠ":6316,"ĠyouĠliangĠ":6317,"dengĠyuĠ":6318,"ĠliĠfuĠ":6319,"ĠqiĠheĠ":6320,"shangĠzhenĠ":6321,"baoĠhan":6322,"yeĠjianĠ":6323,"duiĠfangĠ":6324,"ĠnongĠ":6325,"ĠzhuanĠjiĠ":6326,"ĠĠĠwangĠ":6327,"leĠdiĠ":6328,"douĠbeiĠ":6329,"ĠbuĠsiĠ":6330,"chuĠziĠ":6331,"yeĠshengĠyaĠ":6332,"5ĠgeĠ":6333,"wangĠweiĠ":6334,"maiĠdeĠ":6335,"chengĠweiĠyiĠ":6336,"yanĠjingĠ":6337,"zeĠdongĠ":6338,"zhangĠjiĠ":6339,"cengĠshiĠ":6340,"banĠjiangĠ":6341,"dengĠchangĠ":6342,"buĠdeĠbuĠ":6343,"ĠzaiĠneiĠdeĠ":6344,"tuĠxiangĠ":6345,"ĠsunĠ":6346,"anĠjiĠ":6347,"shanĠdiĠ":6348,"ĠyiĠmeiĠ":6349,"qingĠchaoĠ":6350,"ste":6351,"wenĠjiĠ":6352,"touĠbuĠ":6353,"congĠweiĠ":6354,"keĠyunĠ":6355,"zuĠfuĠ":6356,"ĠgongĠqingĠ":6357,"junĠbuĠ":6358,"huangĠjinĠ":6359,"yeĠshengĠ":6360,"teĠlaĠ":6361,"suĠlian":6362,"Ġ8Ġ":6363,"zeĠyuĠ":6364,"kaiĠgongĠ":6365,"ĠjieĠshuĠ":6366,"lvĠseĠ":6367,"YouTube":6368,"xingĠliĠ":6369,"haoĠyouĠ":6370,"100Ġ":6371,"zheĠyangĠ":6372,"banĠyanĠ":6373,"beiĠliĠ":6374,"duĠjiĠ":6375,"nanĠsiĠ":6376,"Ġtao":6377,"Ġ45":6378,"1975ĠnianĠ":6379,"zhuĠceĠ":6380,"xieĠshangĠ":6381,"chiĠxu":6382,"ĠshiĠshiĠshangĠ":6383,"ĠcunĠ":6384,"ĠĠĠ193":6385,"shenĠkeĠ":6386,"chenĠjiĠ":6387,"1946ĠnianĠ":6388,"1966ĠnianĠ":6389,"riĠbaoĠ":6390,"dangĠtianĠ":6391,"ĠziĠyuanĠ":6392,"zheĠzhiĠ":6393,"cheĠshiĠ":6394,"ĠzaiĠheĠ":6395,"ĠxiĠanĠ":6396,"aĠlaĠbo":6397,"jinĠquĠ":6398,"fenĠzhiĠyiĠ":6399,"xiaoĠjieĠ":6400,"cheĠduiĠ":6401,"ĠdeĠjiĠhuaĠ":6402,"Ġtun":6403,"quĠyouĠ":6404,"quanĠjiĠ":6405,"zhuanĠweiĠ":6406,"Ã©Ġ":6407,"luĠshangĠ":6408,"shenĠmeĠ":6409,"ĠfuĠzeĠguanĠxiaĠ":6410,"muĠheĠ":6411,"dengĠshiĠ":6412,"waiĠweiĠ":6413,"dongĠxianĠ":6414,"seĠlie":6415,"ĠshiĠshiĠjiĠ":6416,"ĠÏ":6417,"shaĠdeĠ":6418,"weiĠyuanĠ":6419,"ĠqiĠdongĠ":6420,"baiĠwanĠ":6421,"duiĠzhiĠ":6422,"ĠyiĠqianĠ":6423,"xiangĠqiĠ":6424,"haoĠpingĠ":6425,"mp":6426,"ĠĠĠchengĠ":6427,"baoĠheĠ":6428,"fuĠerĠ":6429,"zhengĠshuĠ":6430,"shouĠshuĠ":6431,"fanĠying":6432,"ĠfenĠbieĠ":6433,"Ġguang":6434,"ssĠ":6435,"xuanĠchengĠ":6436,"zongĠjianĠ":6437,"ĠĠĠguĠ":6438,"bingĠzaiĠ":6439,"ĠzhongĠqiĠ":6440,"mianĠtiĠ":6441,"daiĠbiaoĠtuanĠ":6442,"feiĠlvĠbin":6443,"Ġwa":6444,"ĠqiĠxiĠzaiĠ":6445,"xiaoĠliangĠ":6446,"quĠzhongĠ":6447,"hangĠyeĠ":6448,"teĠleiĠ":6449,"ĠbaoĠhuĠ":6450,"ir":6451,"ĠĠĠde":6452,"biaoĠjiĠ":6453,"lieĠsiĠ":6454,"yuanĠbenĠ":6455,"laiĠnaĠ":6456,"canĠjia":6457,"ĠsectionĠĠĠ":6458,"ĠĠĠzhangĠ":6459,"zhanĠweiĠyuĠ":6460,"fengĠshiĠ":6461,"ĠyiĠnian":6462,"ĠgeĠleiĠ":6463,"ĠbingĠbuĠ":6464,"ĠĠĠranĠerĠ":6465,"luĠheĠ":6466,"zongĠzhiĠ":6467,"ĠyuĠ19":6468,"chuĠxianĠdeĠ":6469,"haiĠshangĠ":6470,"changĠdaĠ":6471,"jiangĠyouĠ":6472,"baiĠzhiĠ":6473,"niaoĠleiĠ":6474,"ĠyiĠkeĠ":6475,"fenĠsiĠ":6476,"tuĠchuĠ":6477,"ĠgongĠkaiĠ":6478,"zhanĠyouĠ":6479,"duoĠshiĠ":6480,"ĠqiĠzhongĠnanĠxingĠ":6481,"ĠjiangĠsuĠ":6482,"Ġpi":6483,"ĠĠĠguangĠ":6484,"liangĠbuĠ":6485,"haiĠdiĠ":6486,"niĠxiĠyaĠ":6487,"1947ĠnianĠ":6488,"jinĠzhanĠ":6489,"baoĠzha":6490,"ĠsiĠdaĠ":6491,"xieĠweiĠ":6492,"gongĠdaĠ":6493,"moĠniĠ":6494,"shaoĠnvĠ":6495,"zhongĠguoĠrenĠminĠ":6496,"ĠjianĠliĠ":6497,"biĠerĠ":6498,"zhangĠyiĠ":6499,"daiĠyuĠ":6500,"yanĠanĠ":6501,"shenĠzhenĠ":6502,"puĠtaoĠyaĠ":6503,"xingĠdong":6504,"geĠbuĠ":6505,"ĠĠĠgenĠjuĠ2020ĠnianĠmeiĠguoĠrenĠkouĠpuĠchaĠdeĠshuĠjuĠ":6506,"¡Ġ":6507,"juĠweiĠ":6508,"houĠzhiĠ":6509,"luĠyiĠsiĠ":6510,"xiaĠdiĠquĠ":6511,"dingĠxingĠ":6512,"tionĠĠĠ":6513,"changĠjiangĠ":6514,"ĠlianĠjieĠ":6515,"âĨ":6516,"zaiĠyiĠgeĠ":6517,"zhanĠweiĠ":6518,"ĠguoĠwuĠyuanĠ":6519,"daoĠdanĠ":6520,"laiĠziĠyuĠ":6521,"feiĠyongĠ":6522,"ĠliuĠyuĠ":6523,"Ġfou":6524,"ĠĠĠjingĠjiĠ":6525,"daĠduoĠ":6526,"fuĠzhouĠ":6527,"xiaoĠxiangĠ":6528,"ĠĠĠ2019ĠnianĠ":6529,"gongĠyueĠ":6530,"jiaoĠdiĠ":6531,"zhengĠmianĠ":6532,"faĠheĠ":6533,"haĠliĠ":6534,"1937ĠnianĠ":6535,"ĠyouĠsuoĠ":6536,"gongĠkaiĠsaiĠ":6537,"Ġ2000ĠnianĠ":6538,"zuĠrenĠ":6539,"tianĠjiaĠ":6540,"qiongĠ":6541,"ĠshiĠxiĠ":6542,"ĠguoĠjiaĠdeĠ":6543,"ziĠbenĠ":6544,"ĠjinĠshuĠ":6545,"kuoĠzhangĠ":6546,"AN":6547,"ĠĠĠThe":6548,"dangĠzaiĠ":6549,"Ġ2005":6550,"houĠbuĠ":6551,"ĠshiĠbuĠ":6552,"xueĠyeĠ":6553,"yuanĠzhuĠminĠ":6554,"keĠerĠ":6555,"beiĠpoĠ":6556,"ĠweiĠyuanĠhuiĠweiĠyuanĠ":6557,"Ġ200":6558,"Ġ2024":6559,"shuĠdeĠzhiĠwuĠ":6560,"beiĠyueĠ":6561,"wangĠjiĠ":6562,"yangĠheĠ":6563,"chaĠshiĠ":6564,"1954ĠnianĠ":6565,"ĠzaiĠbuĠ":6566,"leĠduiĠ":6567,"yanĠjiangĠ":6568,"taiĠnanĠ":6569,"xuanĠjuĠzhongĠ":6570,"ĠBĠ":6571,"ĠĠĠ0":6572,"huoĠliĠ":6573,"shuiĠdeĠ":6574,"ganĠxianĠ":6575,"ĠnianĠqingĠ":6576,"juĠmin":6577,"ĠshiĠyiĠzuoĠ":6578,"ĠSA":6579,"ĠzuiĠjiaĠ":6580,"zhanĠshuĠ":6581,"ĠshiĠdeĠshiĠ":6582,"ĠĠĠqiĠzhongĠ":6583,"ĠIn":6584,"laiĠkeĠ":6585,"chuĠchangĠ":6586,"zheĠyangĠdeĠ":6587,"chengĠliĠhouĠ":6588,"ĠjiĠjinĠhuiĠ":6589,"nanĠjiĠzhouĠdeĠ":6590,"guĠfenĠyouĠxianĠgongĠsiĠ":6591,"Ġsai":6592,"ganĠdeĠ":6593,"woĠerĠ":6594,"guĠdianĠ":6595,"riĠyiĠ":6596,"jianĠkang":6597,"huiĠdaĠ":6598,"wenĠtiĠdeĠ":6599,"meiĠguo":6600,"zongĠcaiĠ":6601,"ĠweiĠfuĠqiĠyuĠgangĠ":6602,"taĠrenĠ":6603,"duoĠliĠyaĠ":6604,"daĠguiĠmoĠ":6605,"gongĠanĠ":6606,"ĠguoĠgongĠ":6607,"ĠhantĠ":6608,"nuoĠyiĠ":6609,"keĠluoĠ":6610,"reĠdaiĠfengĠbaoĠ":6611,"ĠkaoĠ":6612,"ingĠ":6613,"huĠxiĠ":6614,"riĠyuĠ":6615,"zuoĠzhiĠ":6616,"shuaiĠling":6617,"1974ĠnianĠ":6618,"ĠtaĠjiĠ":6619,"canĠkao":6620,"ĠSĠ":6621,"ĠniuĠ":6622,"ĠĠĠzhuĠyaoĠ":6623,"bieĠdeĠ":6624,"ĠyuĠdiĠ":6625,"xinĠtaiĠ":6626,"menĠshiĠ":6627,"ĠzhongĠwenĠ":6628,"gongĠjiaoĠ":6629,"zhuĠbanĠ":6630,"ĠdiĠtuĠ":6631,"xuanĠchuĠ":6632,"ĠshiĠyiĠzhiĠ":6633,"cunĠzaiĠdeĠ":6634,"ĠqianĠwangĠ":6635,"ĠheĠqiĠtaĠ":6636,"zuoĠfaĠ":6637,"ĠdaĠerĠ":6638,"naĠshengĠ":6639,"zhuanĠyongĠ":6640,"hangĠtianĠ":6641,"ruĠyiĠ":6642,"meiĠguoĠrenĠ":6643,"xianĠdeĠyiĠgeĠfeiĠjianĠzhiĠdiĠquĠ":6644,"Ġ2022ĠnianĠ":6645,"yaĠzhongĠ":6646,"ĠzhiĠshaoĠ":6647,"fangĠmiĠ":6648,"Ġbao":6649,"Ġlei":6650,"ĠĠĠfanĠ":6651,"xueĠbuĠ":6652,"qunĠdeĠ":6653,"ĠshiĠfaĠ":6654,"youĠyiĠxieĠ":6655,"ĠlingĠwai":6656,"meiĠshiĠ":6657,"banĠrenĠ":6658,"dingĠzaiĠ":6659,"ĠzhiĠjingĠ":6660,"luĠwa":6661,"liangĠziĠ":6662,"lanĠyuĠ":6663,"ckĠ":6664,"duiĠkangĠ":6665,"eĠweiĠ":6666,"raoĠtaiĠyangĠ":6667,"1955ĠnianĠ":6668,"ciĠquĠ":6669,"maĠlaiĠ":6670,"ĠnianĠyiĠlaiĠ":6671,"ĠdunĠ":6672,"shangĠweiĠyouĠ":6673,"jiuĠyouĠ":6674,"ĠxingĠjianĠ":6675,"xieĠdingĠ":6676,"Ġluo":6677,"Ġ2003ĠnianĠ":6678,"geĠzaiĠ":6679,"yingĠerĠ":6680,"niangĠ":6681,"ĠtouĠguoĠ":6682,"ĠĠĠ16":6683,"ĠyueĠheĠ":6684,"duĠhuiĠ":6685,"chuanĠguoĠ":6686,"wuĠgeĠ":6687,"sanĠciĠ":6688,"ĠzheĠyangĠ":6689,"cro":6690,"Ġyong":6691,"ĠĠĠ2007":6692,"shangĠheĠ":6693,"IIĠ":6694,"zongĠhuiĠ":6695,"ĠfaĠzhanĠ":6696,"ĠĠĠ3ĠyueĠ":6697,"boĠjueĠ":6698,"ĠxinĠzengĠ":6699,"guoĠjiaĠduiĠ":6700,"ĠguanĠfangĠ":6701,"ĠĠĠqiĠhouĠ":6702,"jiaoĠjieĠ":6703,"ĠshiĠyongĠleĠ":6704,"haiĠbaĠgaoĠduĠweiĠ":6705,"guangĠdeĠ":6706,"gongĠjueĠ":6707,"leiĠxingĠdeĠ":6708,"ĠdangĠshiĠdeĠ":6709,"jiaoĠyuĠbuĠ":6710,"wuĠyouĠ":6711,"xingĠzheng":6712,"wenĠti":6713,"ĠfuĠqin":6714,"ĠjinĠru":6715,"ĠdanĠqiĠ":6716,"ĠĠĠjiangĠ":6717,"taĠheĠ":6718,"waiĠxingĠ":6719,"genĠsuiĠ":6720,"ĠdiĠliuĠ":6721,"yanĠlunĠ":6722,"ĠsiĠtaĠ":6723,"ĠrenĠminĠbiĠ":6724,"fenĠbieĠweiĠ":6725,"jinĠzaiĠ":6726,"wangĠzhiĠ":6727,"ĠdaoĠyanĠ":6728,"nongĠcun":6729,"ĠouĠzhouĠ":6730,"ĠyiĠdaĠ":6731,"daiĠmaĠ":6732,"sheĠyingĠ":6733,"lianĠsai":6734,"gaoĠxiaoĠ":6735,"jianĠzhuĠwuĠ":6736,"vĠ":6737,"wangĠyuĠ":6738,"zhanĠchangĠ":6739,"xuanĠju":6740,"ĠdeĠjiĠhuiĠ":6741,"qiaoĠliangĠ":6742,"aĠfuĠ":6743,"ĠĠĠluoĠ":6744,"ĠĠĠyueĠ":6745,"ĠĠĠpingĠjiaĠ":6746,"fenĠjiĠ":6747,"ĠdiĠdianĠ":6748,"jingĠsaiĠ":6749,"ĠdanĠweiĠ":6750,"xunĠyangĠjianĠ":6751,"WĠ":6752,"tuanĠjieĠ":6753,"songĠdaoĠ":6754,"ĠshiĠbingĠ":6755,"guoĠchengĠ":6756,"shuĠmuĠ":6757,"shouĠfaĠ":6758,"fenĠjieĠ":6759,"quanĠshuĠ":6760,"ĠdeĠyiĠmeiĠ":6761,"ĠshiĠyiĠdaĠliĠ":6762,"beiĠheĠ":6763,"ĠyiĠwaiĠ":6764,"ĠkeĠluoĠ":6765,"zuiĠzaoĠdeĠ":6766,"cengĠshuiĠyuĠ":6767,"ĠĠĠfaĠ":6768,"guaiĠ":6769,"ĠyiĠchanĠ":6770,"shouĠduanĠ":6771,"duanĠzan":6772,"xiaĠyiĠxiaĠdiĠquĠ":6773,"yingĠxiangĠliĠ":6774,"ĠĠĠchuĠleĠ":6775,"guoĠshiĠqiĠ":6776,"puĠliĠ":6777,"ĠyiĠheĠ":6778,"pingĠjieĠ":6779,"xunĠzhaoĠ":6780,"zhuanĠdeĠxiaoĠxingĠxingĠ":6781,"faĠweiĠ":6782,"xinĠzhongĠ":6783,"ĠyiĠxiangĠ":6784,"jiaĠmengĠ":6785,"jiangĠbeiĠ":6786,"ĠjiangĠqiĠ":6787,"guoĠjiĠjiĠchangĠ":6788,"huaĠerĠ":6789,"guoĠwuĠyuanĠ":6790,"wuĠzhongĠdeĠ":6791,"juĠdaĠdeĠ":6792,"wangĠziĠ":6793,"ĠpingĠtaiĠ":6794,"Ġchao":6795,"ĠfenĠzhongĠ":6796,"ĠchengĠliĠyuĠ":6797,"wangĠsiĠ":6798,"ĠdeĠshiĠwuĠ":6799,"pinĠlvĠ":6800,"zheĠjiangĠshengĠ":6801,"ĠĠĠ5ĠyueĠ":6802,"ruĠyuĠ":6803,"ĠliĠgongĠ":6804,"tiĠchuĠleĠ":6805,"zhengĠshiĠqiĠ":6806,"zhengĠqiĠ":6807,"zheĠyuĠ":6808,"huangĠshiĠ":6809,"2026":6810,"ĠyiĠerĠ":6811,"wangĠshangĠ":6812,"ĠziĠjiĠ":6813,"yaĠzhiĠ":6814,"ĠjiĠxingĠ":6815,"ĠzaiĠjinĠ":6816,"mingĠjuĠrenĠ":6817,"zuĠxieĠ":6818,"guangĠfan":6819,"shanĠdongĠshengĠ":6820,"Ġshen":6821,"1977ĠnianĠ":6822,"qianĠhouĠ":6823,"yaoĠgun":6824,"aĠliĠ":6825,"Ġmin":6826,"ĠkeĠliĠ":6827,"gaoĠdiĠ":6828,"30ĠnianĠ":6829,"ĠshiĠbaĠ":6830,"yinĠyongĠ":6831,"anĠzhuang":6832,"fĠĠĠ":6833,"ĠchuĠrenĠ":6834,"shengĠbuĠ":6835,"xiaoĠyouĠ":6836,"songĠdeĠ":6837,"ĠnianĠlingĠ":6838,"huoĠyunĠ":6839,"ĠriĠyouĠ":6840,"Ġhuai":6841,"laĠerĠ":6842,"xianĠzhangĠ":6843,"faĠshengĠdeĠ":6844,"baoĠzhaĠ":6845,"lianĠtongĠ":6846,"ĠsanĠshiĠ":6847,"ĠshiĠjiĠdeĠ":6848,"pingĠminĠ":6849,"zhuangĠkuang":6850,"zengĠqiangĠ":6851,"pingĠjunĠhaiĠbaĠgaoĠduĠweiĠ":6852,"duĠduĠ":6853,"xunĠqiuĠ":6854,"liĠlunĠ":6855,"zaoĠshouĠ":6856,"shaoĠjiangĠ":6857,"6ĠgeĠ":6858,"oun":6859,"siĠyouĠ":6860,"zhanĠzaiĠ":6861,"yangĠzhiĠ":6862,"danĠshuiĠ":6863,"yangĠxianĠ":6864,"neiĠzhanĠ":6865,"ĠĠĠshenĠ":6866,"yinĠzhongĠzaiĠ":6867,"taiĠerĠ":6868,"ruĠshiĠ":6869,"shuoĠdeĠ":6870,"tyĠ":6871,"guĠfenĠ":6872,"ĠzheĠciĠ":6873,"ganĠsuĠ":6874,"tuiĠchuĠdeĠ":6875,"ĠnianĠqiĠjianĠ":6876,"ĠerĠgaiĠdiĠdeĠpingĠjunĠhaiĠbaĠgaoĠduĠweiĠ":6877,"go":6878,"daĠzaiĠ":6879,"shunĠshiĠ":6880,"ĠliĠxueĠ":6881,"shangĠdianĠ":6882,"baoĠxianĠ":6883,"ĠĠĠandĠĠĠ":6884,"luoĠzaiĠ":6885,"maĠliĠyaĠ":6886,"chaiĠyouĠjiĠ":6887,"chengĠhuĠ":6888,"qingĠxiangĠ":6889,"ĠhanĠzuĠ":6890,"2010ĠnianĠmeiĠguoĠrenĠkouĠpuĠchaĠdeĠshuĠjuĠ":6891,"shuoĠshiĠxueĠweiĠ":6892,"yinĠzhongĠzaiĠpeiĠ":6893,"qieĠerĠ":6894,"juĠtiĠ":6895,"jiaoĠfuĠ":6896,"wenĠhuaĠdeĠ":6897,"boĠluoĠ":6898,"anĠzhongĠ":6899,"yingĠdiĠ":6900,"maoĠxianĠ":6901,"faĠlingĠ":6902,"yingĠzhanĠ":6903,"xunĠhuanĠ":6904,"ĠfaĠshengĠ":6905,"5ĠgongĠliĠ":6906,"riĠjiĠ":6907,"qingĠyiĠ":6908,"suĠshiĠ":6909,"1971ĠnianĠ":6910,"ĠbuĠneng":6911,"ĠdaĠxiĠyangĠ":6912,"ĠbiĠyeĠ":6913,"ĠgaiĠweiĠ":6914,"ĠanĠdeĠ":6915,"ĠĠĠ2018ĠnianĠ":6916,"naĠruĠ":6917,"renĠgongĠyinĠzhongĠzaiĠpeiĠ":6918,"ĠquĠdeĠ":6919,"yiĠshiĠyongĠ":6920,"jiangĠzhongĠ":6921,"suoĠyiĠ":6922,"haoĠyuĠ":6923,"zhuĠzhai":6924,"jiangĠtaĠ":6925,"lingĠdaoĠdeĠ":6926,"ĠgongĠbuĠ":6927,"ĠkangĠxiĠ":6928,"Ġ2000":6929,"mingĠjinĠshiĠ":6930,"xiangĠshiĠdiĠ":6931,"Ġ60":6932,"ĠyiĠxueĠ":6933,"jiaoĠzuoĠ":6934,"banĠciĠ":6935,"NBA":6936,"Ġmu":6937,"tional":6938,"yeĠzhiĠ":6939,"ĠheĠyueĠ":6940,"dianĠyingĠdeĠ":6941,"ĠbaoĠdaoĠ":6942,"panĠjueĠ":6943,"ĠxueĠshengĠ":6944,"ĠquanĠzhangĠ":6945,"quĠzaiĠ":6946,"zhangĠzaiĠ":6947,"rengĠyouĠ":6948,"chengĠfenĠ":6949,"ĠdaĠlouĠ":6950,"guiĠzhouĠ":6951,"ĠxianĠdaiĠ":6952,"we":6953,"ĠĠĠtaiĠwanĠ":6954,"zhengĠyueĠ":6955,"baoĠchi":6956,"diĠyiĠrenĠ":6957,"yanĠjiuĠshengĠ":6958,"kmĠ":6959,"Ġchun":6960,"fuĠgaiĠ":6961,"faĠzhanĠdeĠ":6962,"OĠĠĠ":6963,"Ġcui":6964,"xiangĠzhiĠ":6965,"50ĠnianĠ":6966,"ĠheĠpanĠ":6967,"duiĠyuanĠ":6968,"caiĠchanĠ":6969,"ĠshengĠzhangĠyuĠ":6970,"canĠguanĠ":6971,"ĠyuĠciĠtongĠshiĠ":6972,"zhengĠyuĠ":6973,"duoĠfuĠ":6974,"zhenĠrenĠ":6975,"zhuĠruĠ":6976,"junĠtuanĠ":6977,"benĠxianĠ":6978,"ĠjuĠminĠ":6979,"hongĠjunĠ":6980,"chanĠshengĠleĠ":6981,"Ġcu":6982,"biĠshiĠ":6983,"1938ĠnianĠ":6984,"fuĠze":6985,"xuĠshuĠ":6986,"20ĠnianĠ":6987,"zhanĠheĠ":6988,"xiaĠzhiĠ":6989,"1962ĠnianĠ":6990,"huoĠwuĠ":6991,"ĠdiaoĠ":6992,"ĠĠĠ2006":6993,"mianĠyuĠ":6994,"dianĠziĠyouĠ":6995,"wanĠquan":6996,"teĠlangĠ":6997,"tanĠdingĠ":6998,"zuoĠyuĠ":6999,"yaĠshiĠ":7000,"zhenĠheĠ":7001,"rangĠtaĠ":7002,"shengĠmuĠ":7003,"tiĠjiaoĠ":7004,"douĠzhengĠ":7005,"suĠweiĠaiĠ":7006,"xĠĠĠ":7007,"shuĠqiĠ":7008,"luĠzaiĠ":7009,"por":7010,"zhiĠchiĠ":7011,"changĠbeiĠ":7012,"ĠĠĠ10ĠyueĠ":7013,"zhuangĠbingĠduĠ":7014,"jieĠduĠshiĠ":7015,"fenĠquĠ":7016,"ĠbeiĠkeĠ":7017,"Ġ000ĠrenĠ":7018,"Ġãĥ¼":7019,"keĠrenĠ":7020,"leĠweiĠ":7021,"ciĠyouĠ":7022,"qiangĠjiĠ":7023,"yinĠjingĠ":7024,"âĪ":7025,"shangĠzhiĠ":7026,"pingĠshiĠ":7027,"ĠjiĠliĠ":7028,"jianĠshe":7029,"yanĠhuaĠ":7030,"yingĠduiĠ":7031,"ĠjiaĠjingĠ":7032,"ĠjuĠqingĠ":7033,"ĠsuĠlianĠ":7034,"aiĠguoĠ":7035,"zhengĠliĠ":7036,"banĠyuĠ":7037,"xianĠdai":7038,"dongĠniĠ":7039,"jiaoĠkeĠ":7040,"ĠfuĠleiĠ":7041,"chuĠxianĠleĠ":7042,"huaĠshengĠdunĠ":7043,"zuĠyuĠ":7044,"kuĠdeĠ":7045,"daĠbuĠ":7046,"dongĠcheĠ":7047,"ĠgongĠjiĠ":7048,"huanĠjieĠ":7049,"fuĠsheĠ":7050,"duiĠhuaĠ":7051,"gongĠheĠdangĠ":7052,"ĠbangĠ":7053,"jianĠzao":7054,"daoĠshangĠ":7055,"chuĠruĠkouĠ":7056,"baoĠzhengĠ":7057,"aiĠqingĠ":7058,"ciĠzhiĠwaiĠ":7059,"zhuĠguoĠ":7060,"ĠyouĠtaiĠ":7061,"ĠrenĠzhongĠgongĠ":7062,"shouĠheĠ":7063,"baĠyueĠ":7064,"moĠqiĠ":7065,"youĠguanĠ":7066,"ĠzaiĠgaiĠ":7067,"yuanĠben":7068,"jinĠqiuĠ":7069,"chongĠqingĠ":7070,"juĠbeiĠ":7071,"ĠyinĠfaĠ":7072,"ĠshiĠzhongĠhuaĠrenĠminĠgongĠheĠguoĠ":7073,"zengĠjiaĠleĠ":7074,"renĠminĠdaiĠbiaoĠdaĠhuiĠ":7075,"ĠnaĠme":7076,"shengĠchanĠdeĠ":7077,"Ġ80":7078,"ĠĠĠlingĠwaiĠ":7079,"yinĠerĠ":7080,"teĠyuĠ":7081,"buĠluoĠ":7082,"ĠheĠqiĠ":7083,"shenĠshengĠ":7084,"ĠfaĠbiaoĠ":7085,"ul":7086,"ĠĠĠp":7087,"diĠyiĠjiĠ":7088,"1973ĠnianĠ":7089,"xiaĠfangĠ":7090,"ĠguoĠjiaĠduiĠ":7091,"xiaĠyuĠ":7092,"chuanĠdiĠ":7093,"siĠtanĠ":7094,"shenĠwangĠ":7095,"gouĠmai":7096,"aiĠdeĠhuaĠ":7097,"ĠleĠ":7098,"laĠyuĠ":7099,"leiĠweiĠ":7100,"kangĠxiĠ":7101,"chaoĠtingĠ":7102,"ko":7103,"ĠĠĠ2017ĠnianĠ":7104,"yueĠweiĠ":7105,"kanĠdeĠ":7106,"xiangĠmu":7107,"shouĠhaiĠ":7108,"shouĠfeiĠ":7109,"dongĠgongĠ":7110,"ĠzhuĠjianĠ":7111,"wangĠyouĠ":7112,"hangĠxianĠ":7113,"ĠshiĠyueĠ":7114,"ĠnianĠliĠ":7115,"ciĠdaĠ":7116,"zongĠtong":7117,"baĠlaĠ":7118,"hanĠmoĠdeĠ":7119,"ĠaĠlaĠ":7120,"duanĠyuĠ":7121,"ĠyiĠxingĠ":7122,"xieĠtiao":7123,"luoĠboĠteĠ":7124,"ĠĠĠxiangĠgangĠ":7125,"dingĠzhiĠ":7126,"ĠyiĠriĠ":7127,"geĠsiĠ":7128,"jiaoĠdaoĠ":7129,"2ĠmiĠ":7130,"teĠshiĠ":7131,"longĠshiĠ":7132,"chengĠhaoĠ":7133,"zhuĠdiĠ":7134,"ziĠliao":7135,"ĠerĠhouĠ":7136,"ĠkeĠnengĠshiĠ":7137,"93":7138,"ĠĠĠ2016ĠnianĠ":7139,"nveĠ":7140,"canĠmouĠzhangĠ":7141,"âĦ":7142,"ĠĠĠ12":7143,"ciĠzhongĠ":7144,"xunĠfuĠ":7145,"penĠ":7146,"ĠyouĠyouĠ":7147,"jianĠguoĠ":7148,"ĠbiĠyeĠyuĠ":7149,"âĨĴ":7150,"ĠnĠ":7151,"1936ĠnianĠ":7152,"meiĠzhou":7153,"caiĠliao":7154,"ĠxinĠjiaĠ":7155,"ĠlingĠyiĠfangĠmianĠ":7156,"ĠliĠxinĠ":7157,"Ġju":7158,"ĠlangĠ":7159,"ĠĠĠzhanĠ":7160,"kongĠdeĠ":7161,"ĠzhiĠluĠ":7162,"mingĠluĠ":7163,"gangĠyuanĠ":7164,"huaĠrenĠminĠgongĠheĠ":7165,"nvĠzhuĠjueĠ":7166,"ph":7167,"jiaoĠheĠ":7168,"naĠsiĠ":7169,"1941ĠnianĠ":7170,"1959ĠnianĠ":7171,"ĠxiĠhuanĠ":7172,"shangĠjiaĠ":7173,"longĠshengĠ":7174,"ĠshengĠzhangĠyuĠhaiĠbaĠ":7175,"pinĠzhiĠ":7176,"zhuiĠsuĠ":7177,"jieĠguanĠ":7178,"huiĠxiangĠ":7179,"dongĠyuanĠ":7180,"changĠwu":7181,"gaoĠyuanĠ":7182,"qianĠzaiĠ":7183,"paiĠdeĠzhuĠ":7184,"3ĠmiĠ":7185,"ĠĠĠsuiĠranĠ":7186,"Ġqiao":7187,"Ġcao":7188,"duĠdaĠ":7189,"benĠkeĠ":7190,"louĠdeĠ":7191,"binĠshiĠ":7192,"mingĠqueĠ":7193,"shangĠpinĠ":7194,"qingĠxuĠ":7195,"zaiĠciĠ":7196,"ĠzhongĠbeiĠ":7197,"fuĠyinĠ":7198,"ĠqiĠchuĠ":7199,"qingĠdaoĠ":7200,"ĠmiĠdeĠdiĠquĠ":7201,"ĠpianĠ":7202,"ĠheĠchengĠ":7203,"fenĠxiaoĠ":7204,"haiĠeĠ":7205,"huĠpoĠ":7206,"ĠjianĠsheĠ":7207,"ĠzaiĠyuĠ":7208,"yeĠerĠ":7209,"1939ĠnianĠ":7210,"zhuĠliuĠ":7211,"moĠluoĠ":7212,"rongĠnaĠ":7213,"ĠchengĠshiĠ":7214,"zhongĠdeĠyiĠ":7215,"yinĠzhiĠ":7216,"leiĠshiĠ":7217,"1963ĠnianĠ":7218,"guoĠquĠ":7219,"xingĠzhengĠzhenĠquĠ":7220,"ĠtianĠjinĠ":7221,"hanĠyiĠ":7222,"anĠzhaoĠ":7223,"quanĠweiĠ":7224,"ĠliĠshiĠdeĠ":7225,"ĠbuĠdaĠ":7226,"ĠdongĠwuĠ":7227,"eĠluoĠsiĠdeĠ":7228,"ĠmaĠlaiĠxiĠyaĠ":7229,"IP":7230,"RĠĠĠ":7231,"ĠĠĠtaiĠ":7232,"buĠkeĠ":7233,"huĠdongĠ":7234,"ven":7235,"ĠshiĠjingĠ":7236,"duiĠzhenĠ":7237,"ĠshiĠyongĠzheĠ":7238,"ĠgenĠju":7239,"shangĠleĠ":7240,"yingĠjunĠ":7241,"qianĠruĠ":7242,"zhouĠzhangĠ":7243,"zenĠ":7244,"xunĠdeĠ":7245,"1967ĠnianĠ":7246,"fuĠzhuĠrenĠ":7247,"fenĠlieĠ":7248,"xiangĠzaiĠ":7249,"yongĠzhiĠ":7250,"boĠkeĠ":7251,"feiĠyiĠ":7252,"cengĠrenĠ":7253,"âĢ§":7254,"shengĠjingĠ":7255,"shangĠsuĠ":7256,"tiĠyanĠ":7257,"liangĠceĠ":7258,"AS":7259,"ĠĠĠzongĠ":7260,"chuĠnianĠ":7261,"houĠbuĠjiuĠ":7262,"1953ĠnianĠ":7263,"gongĠgaoĠ":7264,"ĠwuĠxianĠ":7265,"nvĠhaiĠ":7266,"peiĠyangĠ":7267,"ĠĠĠe":7268,"yeĠweiĠ":7269,"jiuĠrenĠ":7270,"zaoĠxingĠ":7271,"daĠqiĠ":7272,"zhengĠduoĠ":7273,"guiĠmoĠdeĠ":7274,"tuanĠzhangĠ":7275,"riĠshiĠ":7276,"qingĠxiĠ":7277,"ĠweiĠyaĠ":7278,"zhuĠdongĠ":7279,"xiangĠguan":7280,"huiĠhuaĠ":7281,"zhenĠdiĠ":7282,"1965ĠnianĠ":7283,"gongĠshangĠ":7284,"shengĠfuĠ":7285,"leĠgaiĠ":7286,"shuiĠkuĠ":7287,"IT":7288,"Ġning":7289,"ĠpinĠ":7290,"faĠliĠyaĠ":7291,"suanĠfaĠ":7292,"yinĠshua":7293,"fenĠlanĠ":7294,"mianĠlinĠ":7295,"ĠqiĠzhongĠnanĠ":7296,"ĠquanĠqiuĠ":7297,"taiĠwanĠdeĠ":7298,".&":7299,"erĠyouĠ":7300,"meiĠriĠ":7301,"miaoĠdeĠ":7302,"1970ĠnianĠdaiĠ":7303,"ĠqiĠyouĠ":7304,"tongĠwangĠ":7305,"tianĠtangĠ":7306,"ĠdeĠrenĠwuĠ":7307,"Ġ15Ġ":7308,"ĠkeĠshiĠ":7309,"Ġpan":7310,"dongĠyiĠ":7311,"huoĠyueĠ":7312,"xiaĠerĠ":7313,"chengĠzhangĠ":7314,"yanĠwuĠ":7315,"sheĠhui":7316,"ĠshiĠyiĠjiĠ":7317,"ĠhuĠnanĠ":7318,"aĠjiĠ":7319,"houĠrenĠ":7320,"qingĠshaoĠnianĠ":7321,"ganĠjueĠ":7322,"duĠyiĠ":7323,"ĠbuĠlaiĠ":7324,"ĠbuĠzuĠ":7325,"zhenĠyaĠ":7326,"tiĠyuĠguanĠ":7327,"yiĠshiĠjianĠ":7328,"jianĠliĠdeĠ":7329,"yeĠzhongĠ":7330,"1944ĠnianĠ":7331,"suĠdanĠ":7332,"ĠxiĠbanĠyaĠyuĠ":7333,"mingĠyouĠ":7334,"dangĠheĠ":7335,"naĠerĠ":7336,"fouĠrenĠ":7337,"90ĠnianĠ":7338,"ĠyuĠqiĠtaĠ":7339,"ĠheĠheĠ":7340,"meiĠmeiĠ":7341,"shenĠchaĠ":7342,"mianĠjiĠheĠ":7343,"ĠdongĠjingĠ":7344,"ĠboĠchuĠ":7345,"jieĠzaiĠ":7346,"duiĠliĠ":7347,"esĠ":7348,"ĠsheĠliĠ":7349,"Ġ1998ĠnianĠ":7350,"anĠrenĠ":7351,"ĠĠĠriĠ":7352,"ĠĠĠluĠ":7353,"ĠĠĠfeiĠ":7354,"jieĠweiĠzhiĠ":7355,"tongĠzhongĠ":7356,"suiĠdeĠ":7357,"shengĠxiaĠ":7358,"duoĠmingĠ":7359,"quanĠqiu":7360,"kaiĠfaĠdeĠ":7361,"nvĠyanĠyuanĠ":7362,"ĠguoĠminĠdangĠ":7363,"xiaĠxiaĠdeĠyiĠgeĠxiangĠ":7364,"Ġdai":7365,"Ġ2004":7366,"ĠzuiĠdaĠ":7367,"ĠĠĠ3Ġ":7368,"zuoĠzhongĠ":7369,"zeĠyiĠ":7370,"chaĠliĠ":7371,"weiĠyuĠ":7372,"shouĠlingĠ":7373,"guĠdongĠ":7374,"kaiĠmuĠ":7375,"ĠdeĠyiĠsiĠ":7376,"mouĠshaĠ":7377,"ĠJR":7378,"shuĠyouĠ":7379,"chanĠdeĠ":7380,"tsĠ":7381,"keĠxue":7382,"yongĠjiuĠ":7383,"3000":7384,"nanĠfeiĠ":7385,"ĠmuĠqianĠshangĠweiĠyouĠ":7386,"Ġlai":7387,"Ġ36":7388,"yuanĠrenĠ":7389,"laĠliĠ":7390,"suĠdaĠ":7391,"jianĠdaoĠ":7392,"danĠyuanĠ":7393,"ĠnianĠ12ĠyueĠ31ĠriĠ":7394,"canĠyuĠleĠ":7395,"ĠshiĠzhongĠxinĠ":7396,"xiangĠgangĠdeĠ":7397,"2ĠĠĠ":7398,"Ġ1ĠyueĠ":7399,"ĠĠĠ2021ĠnianĠ":7400,"chuangĠshiĠrenĠ":7401,"daĠduoĠshuĠ":7402,"xiĠsiĠ":7403,"shengĠgeĠweiĠ":7404,"chuĠbanĠdeĠ":7405,"tianĠran":7406,"chongĠmanĠ":7407,"Ġou":7408,"ĠchanĠ":7409,"ĠguĠshiĠ":7410,"tedĠĠĠ":7411,"ĠzhiĠzhengĠ":7412,"leĠliangĠ":7413,"huoĠdongĠdeĠ":7414,"haiĠjun":7415,"ĠbaoĠgaoĠ":7416,"ĠshiĠguĠ":7417,"ĠyouĠxingĠ":7418,"shenĠshangĠ":7419,"laĠteĠ":7420,"waiĠguanĠ":7421,"hanĠlinĠ":7422,"diĠyiĠbuĠ":7423,"shaiĠ":7424,"ĠĠĠtongĠ":7425,"ĠyuĠyouĠ":7426,"fuĠluoĠliĠdaĠ":7427,"ĠbaĠliĠ":7428,"ĠmuĠqianĠshangĠweiĠyouĠrenĠgongĠyinĠzhongĠzaiĠpeiĠ":7429,"Ġxie":7430,"ĠpoĠ":7431,"ĠreĠ":7432,"shengĠzhongĠ":7433,"zhangĠliĠ":7434,"shenĠjiĠ":7435,"ĠziĠliaoĠ":7436,"ĠtiĠchuĠ":7437,"xianĠdeĠyiĠgeĠxingĠzhengĠzhenĠquĠ":7438,"jiong":7439,"diceĠ":7440,"faĠzhongĠ":7441,"31Ġ":7442,"ĠyiĠchengĠ":7443,"fangĠchengĠ":7444,"biĠya":7445,"chuangĠxinĠ":7446,"ĠĠĠshangĠ":7447,"anĠpai":7448,"tianĠhuangĠ":7449,"caiĠwuĠ":7450,"wuĠzaiĠ":7451,"ĠzaiĠnaĠliĠ":7452,"zhuĠdaĠ":7453,"ĠqiĠqiĠ":7454,"bianĠhaoĠweiĠ":7455,"wuĠliĠxueĠ":7456,"fenĠshiĠ":7457,"chouĠbeiĠ":7458,"1930ĠnianĠ":7459,"daoĠqianĠ":7460,"jiaoĠzongĠ":7461,"Ġcan":7462,"ĠĠĠgaoĠ":7463,"ĠĠĠ4ĠyueĠ":7464,"zhouĠfuĠzeĠguanĠxiaĠ":7465,"heĠpingĠ":7466,"mingĠciĠ":7467,"heĠyiĠgeĠ":7468,"bianĠyuĠ":7469,"tuiĠxingĠ":7470,"yuanĠquĠ":7471,"juĠchangĠ":7472,"duĠjiaĠ":7473,"ĠgaiĠdiĠdeĠ":7474,"ĠzheĠbuĠ":7475,"ĠĠĠboĠ":7476,"xunĠshiĠ":7477,"ĠyiĠxie":7478,"cheĠdaoĠ":7479,"ĠzheĠyeĠshiĠ":7480,"zaoĠqiĠdeĠ":7481,"ĠhaĠerĠ":7482,"lianĠmengĠdeĠ":7483,"Ġdiao":7484,"ĠĠĠpuĠ":7485,"miĠshiĠ":7486,"mingĠheĠ":7487,"taiĠdaĠ":7488,"kanĠfaĠ":7489,"ĠxiĠjinĠ":7490,"guĠwuĠ":7491,"saiĠbaiĠ":7492,"jingĠjiĠxueĠ":7493,"Ġ1999ĠnianĠ":7494,"yinĠjiĠ":7495,"ĠzaiĠrenĠ":7496,"ĠdaĠchenĠ":7497,"yinĠziĠ":7498,"mianĠshangĠ":7499,"neiĠmengĠguĠ":7500,"laĠgeĠ":7501,"ĠkeĠnengĠhuiĠ":7502,"Ġbu":7503,"ĠrenĠmin":7504,"ĠerĠzheĠ":7505,"shouĠhuiĠ":7506,"ruĠjingĠ":7507,"ĠgongĠjinĠ":7508,"ĠĠĠgeĠrenĠshengĠhuoĠ":7509,"zengĠzhiĠ":7510,"codiceĠ":7511,"1935ĠnianĠ":7512,"buĠmanĠ":7513,"ĠdanĠyeĠ":7514,"ĠĠĠs":7515,"lunĠsiĠ":7516,"1969ĠnianĠ":7517,"xiangĠbeiĠ":7518,"tiĠgongĠdeĠ":7519,"jiaoĠyuĠjiĠ":7520,"ĠnianĠ7ĠyueĠ1ĠriĠ":7521,"Ġgan":7522,"ĠCD":7523,"ĠĠĠ7ĠyueĠ":7524,"tuoĠfuĠ":7525,"1942ĠnianĠ":7526,"wangĠchao":7527,"ĠkaiĠfaĠ":7528,"zhanĠzhengĠzhongĠ":7529,"Ġà¸":7530,"âĦĥ":7531,"Ġ22":7532,"Ġ34":7533,"Ġ20Ġ":7534,"ĠkaĠerĠ":7535,"ĠkeĠliĠsiĠ":7536,"buĠweiĠyuĠ":7537,"tianĠfuĠ":7538,"niuĠsiĠ":7539,"neĠshengĠ":7540,"1961ĠnianĠ":7541,"shengĠxiaoĠ":7542,"xueĠyuanĠdeĠ":7543,"xinĠzengĠ":7544,"duanĠqiĠ":7545,"zhuĠyaoĠshiĠ":7546,"Ġgui":7547,"ĠbuĠshiĠ":7548,"fangĠheĠ":7549,"1940ĠnianĠ":7550,"ĠliĠyouĠ":7551,"tingĠyunĠ":7552,"xiangĠzhongĠ":7553,"dianĠyuĠ":7554,"hanĠshiĠ":7555,"laySta":7556,"ĠshiĠxiangĠgangĠ":7557,"duiĠtaĠ":7558,"ĠbingĠmeiĠyouĠ":7559,"ĠĠĠjinĠguanĠ":7560,"jiangĠheĠ":7561,"32Ġ":7562,"ĠzhiĠyaoĠ":7563,"fuĠhuaĠ":7564,"ĠxiĠyuanĠ":7565,"xinĠshengĠ":7566,"shuiĠshenĠ":7567,"DV":7568,"nuoĠsiĠ":7569,"oog":7570,"ĠliĠqiĠ":7571,"gaiĠmingĠ":7572,"baĠnen":7573,"kaĠluoĠlaiĠnaĠ":7574,"xinĠyuĠ":7575,"qianĠweiĠ":7576,"laoĠgongĠ":7577,"jinĠxing":7578,"1957ĠnianĠ":7579,"ĠshiĠnanĠjiĠzhouĠdeĠ":7580,"zhuĠlongĠ":7581,"ĠqingĠchaoĠ":7582,"zhongĠshiĠjiĠ":7583,"ĠzaiĠtaĠdeĠ":7584,"gongĠzuoĠdeĠ":7585,"fuĠjiaĠ":7586,"xiangĠlianĠ":7587,"ciĠhuiĠ":7588,"houĠguoĠ":7589,"liangĠjiaĠ":7590,"ĠzhiĠchi":7591,"ĠyueĠlaiĠyueĠ":7592,"zhanĠzhengĠdeĠ":7593,"yaĠzhou":7594,"minĠjinĠ":7595,"zongĠduiĠ":7596,"saiĠcheĠ":7597,"liĠyongĠ":7598,"ĠdanĠyiĠ":7599,"peiĠxunĠ":7600,"shouĠdaoĠleĠ":7601,"110":7602,"ĠJa":7603,"jinĠzhongĠ":7604,"yanĠliĠ":7605,"huoĠyiĠ":7606,"waiĠjiĠ":7607,"huanĠxiangĠ":7608,"siĠxingĠ":7609,"siĠfaĠ":7610,"niĠyaĠdeĠ":7611,"Ġ55":7612,"ĠpaĠ":7613,"ĠĠĠ8ĠyueĠ":7614,"banĠnianĠ":7615,"1951ĠnianĠ":7616,"jiaĠzhouĠ":7617,"jingĠxiĠ":7618,"chaĠjuĠ":7619,"haĠdeĠ":7620,"faĠbiao":7621,"jinĠshanĠ":7622,"zuiĠduoĠdeĠ":7623,"seĠcaiĠ":7624,"ĠliĠshiĠxueĠjiaĠ":7625,"Ġ9Ġ":7626,"ĠĠĠguĠshiĠ":7627,"duĠzhiĠ":7628,"fengĠyuĠ":7629,"ziĠgongĠsiĠ":7630,"houĠfangĠ":7631,"dianĠchiĠ":7632,"ĠĠĠlaĠ":7633,"qianĠyuĠ":7634,"Game":7635,"boĠlaĠ":7636,"lingĠyuĠdeĠ":7637,"ĠgongĠgongĠ":7638,"huiĠyiĠshangĠ":7639,"zhanĠzhengĠqiĠjianĠ":7640,"mianĠjiĠheĠrenĠkouĠ":7641,"8ĠgeĠ":7642,"Ġzha":7643,"daoĠliĠ":7644,"qianĠliĠ":7645,"sheĠliĠdeĠ":7646,"niĠshiĠ":7647,"yanĠxuĠ":7648,"ĠyuanĠxingĠ":7649,"nianĠdaiĠ":7650,"ĠØ":7651,"ĠĠĠyeĠ":7652,"ĠĠĠjiuĠ":7653,"shouĠerĠ":7654,"nanĠrenĠ":7655,"duoĠbuĠ":7656,"daĠxueĠdeĠ":7657,"geĠciĠ":7658,"baĠsaiĠ":7659,"ĠdeĠjiĠshuĠ":7660,"yingĠdeĠleĠ":7661,"jiangĠsuĠshengĠ":7662,"lla":7663,"Ġ38":7664,"wangĠyiĠ":7665,"laĠdiĠ":7666,"ĠshiĠzhangĠ":7667,"CĠĠĠ":7668,"Ġ75":7669,"ĠPa":7670,"ĠĠĠquanĠ":7671,"ĠĠĠduiĠyuĠ":7672,"gaiĠzhiĠ":7673,"cheĠliĠ":7674,"ceĠqiĠ":7675,"hangĠxingĠ":7676,"erĠbeiĠ":7677,"ĠdaĠbuĠ":7678,"lanĠseĠ":7679,"ĠgaiĠcun":7680,"ĠjingĠneiĠ":7681,"ĠboĠluoĠ":7682,"ĠgaiĠdiĠdeĠmianĠjiĠheĠrenĠkouĠ":7683,"ĠgaiĠdiĠdeĠmianĠjiĠheĠrenĠkouĠjieĠweiĠzhiĠ":7684,"suiĠzhiĠ":7685,"peiĠdeĠ":7686,"weiĠjiĠ":7687,"diĠliuĠ":7688,"ciĠshuĠ":7689,"xuanĠchuan":7690,"dangĠxuanĠweiĠ":7691,"heiĠlongĠjiangĠ":7692,"ĠyiĠshuĠjiaĠ":7693,"ĠĠĠyouĠxiĠ":7694,"Ġruan":7695,"ĠLi":7696,"ĠĠĠmuĠqianĠ":7697,"zhongĠxueĠ":7698,"houĠlai":7699,"ĠĠĠ2015ĠnianĠ":7700,"weiĠshiĠjieĠ":7701,"luĠweiĠ":7702,"leiĠheĠ":7703,"80ĠnianĠ":7704,"2025ĠnianĠ":7705,"zongĠjingĠliĠ":7706,"ĠmingĠchaoĠ":7707,"ĠLa":7708,"anĠfuĠ":7709,"ĠzaiĠ19":7710,"jiangĠzuiĠjiaĠ":7711,"dianĠnaoĠ":7712,"dangĠanĠ":7713,"tuĠanĠ":7714,"tingĠkaoĠ":7715,"ĠqianĠlongĠ":7716,"Ġ90":7717,"zhuangĠweiĠ":7718,"raĠ":7719,"chuiĠzhiĠ":7720,"quĠdongĠ":7721,"tongĠchang":7722,"ĠfuĠze":7723,"ĠjieĠweiĠ":7724,"zhengĠxieĠweiĠyuanĠ":7725,"6ĠmiĠ":7726,"ĠguanĠzhiĠ":7727,"ĠĠĠX":7728,"jiaĠqiangĠ":7729,"jiangĠzheĠ":7730,"meiĠerĠ":7731,"ĠzaiĠ18":7732,"quĠziĠ":7733,"zongĠshuĠ":7734,"ĠtongĠriĠ":7735,"ĠĠĠyiĠxiaĠ":7736,"ĠfanĠduiĠ":7737,"ĠfenĠbieĠweiĠ":7738,"jiaĠliĠfuĠniĠyaĠzhouĠ":7739,"Ġcom":7740,"ĠleiĠjiĠ":7741,"ĠĠĠjianĠliĠ":7742,"ĠyiĠtiĠ":7743,"yanĠshengĠ":7744,"gaiĠjinĠ":7745,"anĠxianĠ":7746,"jiuĠduĠyuĠ":7747,"ĠzhanĠdiĠ":7748,"ĠĠĠ2014ĠnianĠ":7749,"chuanĠyueĠ":7750,"luĠduanĠ":7751,"ĠciĠciĠ":7752,"nongĠchangĠ":7753,"92":7754,"Ġ2003":7755,"dongĠzhiĠ":7756,"meiĠyiĠ":7757,"kuaiĠdeĠ":7758,"jiaĠnaĠ":7759,"fenĠchengĠ":7760,"ĠshiĠjiĠyuĠ":7761,"hangĠzhanĠ":7762,"xiuĠdingĠ":7763,"faĠshengĠleĠ":7764,"ĠĠĠjianĠzhuĠ":7765,"ingĠĠĠ":7766,"siĠzhongĠ":7767,"jinĠnianĠ":7768,"xinĠheĠ":7769,"har":7770,"ĠzaiĠriĠbenĠ":7771,"tongĠxueĠ":7772,"zhouĠbian":7773,"guĠlaoĠdeĠ":7774,"ĠhaiĠjunĠ":7775,"ziĠxingĠcheĠ":7776,"our":7777,"liĠyiĠ":7778,"chengĠyiĠgeĠ":7779,"jiaoĠjiĠ":7780,"jianĠdanĠ":7781,"ĠbuĠluĠ":7782,"xiangĠdaoĠ":7783,"ĠqiĠyongĠ":7784,"ĠkeĠlaiĠ":7785,"liuĠliangĠ":7786,"puĠchaĠ":7787,"kaĠfeiĠ":7788,"ĠyanĠchangĠ":7789,"zuiĠzhongĠyaoĠdeĠ":7790,"pingĠfangĠmiĠ":7791,"Ġ70":7792,"ĠVi":7793,"ĠĠĠ9ĠyueĠ":7794,"zheĠjiĠ":7795,"baĠtaĠ":7796,"zhuĠshouĠ":7797,"xiangĠjiaoĠ":7798,"nanĠminĠ":7799,"ĠtongĠzhiĠ":7800,"geĠyueĠhouĠ":7801,"ĠĠĠ2020ĠnianĠ":7802,"28Ġ":7803,"jingĠquĠ":7804,"duĠteĠdeĠ":7805,"miĠduĠ":7806,"ĠwanĠmeiĠ":7807,"ĠbiĠxuĠ":7808,"ĠhuaĠshengĠ":7809,"suanĠdeĠ":7810,"runĠ":7811,"zhuĠguanĠ":7812,"jinĠrongĠ":7813,"pingĠhengĠ":7814,"chiĠjingĠ":7815,"eĠhaiĠeĠ":7816,"touĠru":7817,"ĠwanĠchengĠ":7818,"Ġ000Ġ":7819,"ĠĠĠcheĠzhanĠjieĠgouĠ":7820,"ĠWi":7821,"ĠĠĠLi":7822,"siĠyueĠ":7823,"fuĠzhongĠ":7824,"daiĠzhiĠ":7825,"zhengĠjiaoĠ":7826,"yinĠniĠ":7827,"linĠshengĠ":7828,"JĠ":7829,"vo":7830,"ĠjunĠshiĠ":7831,"jinĠchengĠ":7832,"shangĠfangĠ":7833,"130":7834,"shanĠyuĠ":7835,"wit":7836,"ziĠshaĠ":7837,"ĠqianĠmiĠ":7838,"zhengĠfuĠyuĠ":7839,"fangĠdiĠ":7840,"muĠjiĠ":7841,"kaĠdeĠ":7842,"yingĠgeĠlan":7843,"ĠdaĠqiaoĠ":7844,"chongĠzuĠ":7845,"ĠshengĠchengĠ":7846,"ĠerĠheĠ":7847,"ĠliĠfaĠhuiĠ":7848,"ĠĠĠmuĠ":7849,"shengĠrenĠminĠzhengĠfuĠ":7850,"zuoĠheĠ":7851,"ĠzaiĠnanĠ":7852,"jianĠchiĠ":7853,"jiuĠbeiĠ":7854,"Ġding":7855,"yaĠsiĠ":7856,"fuĠbuĠzhangĠ":7857,"baoĠfuĠ":7858,"mianĠqianĠ":7859,"chengĠliĠleĠ":7860,"luoĠfaĠkeĠ":7861,"ĠhuiĠyiĠ":7862,"ĠbuĠheĠ":7863,"juĠfeng":7864,"fangĠxingĠ":7865,"ĠqiĠzhongĠyouĠ":7866,"ĠĠĠzhiĠzuoĠ":7867,"ĠcengĠjingĠ":7868,"Ġga":7869,"ĠĠĠc":7870,"zhuanĠzhiĠ":7871,"kuangĠjiaĠ":7872,"jinĠzhangĠ":7873,"yanĠfaĠ":7874,"yingĠguoĠdeĠ":7875,"ĠdeĠshiĠshiĠ":7876,"hangĠbanĠ":7877,"Ġheng":7878,"Ġ21":7879,"ĠĠĠyue":7880,"ĠĠĠriĠbenĠ":7881,"ĠĠĠ6ĠyueĠ":7882,"jinĠqiĠ":7883,"ciĠheĠ":7884,"duiĠweiĠ":7885,"baoĠjiĠ":7886,"huiĠjiaĠ":7887,"juĠzhuĠzaiĠ":7888,"juĠjuĠzhangĠ":7889,"tuiĠfanĠ":7890,"Ġ2002":7891,"ĠĠĠ2013ĠnianĠ":7892,"luĠxiĠ":7893,"liĠliangĠ":7894,"gongĠchanĠzhuĠyiĠ":7895,"liĠkeĠ":7896,"ĠĠĠ2010ĠnianĠ":7897,"luoĠweiĠ":7898,"kuĠerĠ":7899,"26Ġ":7900,"ĠshiĠtaiĠwanĠ":7901,"ĠdeĠyiĠjianĠ":7902,"ĠzhengĠgeĠ":7903,"Ġ46":7904,"feiĠzhiĠ":7905,"yanĠshenĠzhiĠ":7906,"zhanĠjuĠ":7907,"zuoĠleĠ":7908,"luoĠxuanĠ":7909,"ĠzhuĠxiĠ":7910,"ĠtaiĠpingĠ":7911,"ĠmiĠzhiĠ":7912,"wuĠxianĠdianĠshiĠ":7913,"taiĠweiĠ":7914,"laiĠerĠ":7915,"panĠdeĠ":7916,"keĠxueĠjiaĠ":7917,"fangĠbianĠ":7918,"ĠdaĠxueĠdeĠ":7919,"junĠbeiĠ":7920,"ĠfuĠgaiĠ":7921,"wanĠzhengĠdeĠ":7922,"EN":7923,"Ġ150":7924,"rengĠzaiĠ":7925,"wenĠgeĠ":7926,"ĠbingĠqieĠzaiĠ":7927,"shouĠliĠ":7928,"yanĠqiĠ":7929,"teĠzaiĠ":7930,"neiĠsiĠ":7931,"heiĠrenĠ":7932,"ĠyouĠheĠ":7933,"ĠguoĠfangĠ":7934,"meiĠtianĠ":7935,"Ġman":7936,"ĠĠĠyongĠ":7937,"zuĠweiĠ":7938,"yaoĠzaiĠ":7939,"haoĠjiĠ":7940,"round":7941,"1943ĠnianĠ":7942,"guoĠfangĠbuĠ":7943,"yuanĠwaiĠ":7944,"ĠkeĠlaĠ":7945,"muĠjianĠ":7946,"zhenĠzhengĠ":7947,"cheĠtuiĠ":7948,"feiĠchang":7949,"Ġzhuo":7950,"kaĠliĠ":7951,"ĠshiĠsiĠ":7952,"ĠyueĠrenĠ":7953,"shuĠshuĠ":7954,"ĠxiĠxiĠ":7955,"mengĠteĠ":7956,"ĠĠĠgenĠjuĠ2010ĠnianĠmeiĠguoĠrenĠkouĠpuĠchaĠdeĠshuĠjuĠ":7957,"ĠĠĠhuoĠ":7958,"ĠĠĠ2012ĠnianĠ":7959,"meiĠzhongĠ":7960,"shenĠliĠ":7961,"boo":7962,"benĠzhiĠ":7963,"poĠerĠ":7964,"liuĠxueĠ":7965,"baĠleĠsiĠ":7966,"ĠxingĠshiĠ":7967,"jiangĠweiĠ":7968,"qianĠqiĠ":7969,"wangĠhouĠ":7970,"daiĠtiĠ":7971,"zuĠziĠzhiĠ":7972,"ĠxianĠjinĠ":7973,"tuiĠliĠ":7974,"sonĠ":7975,"shengĠjieĠrangĠ":7976,"beiĠmeiĠ":7977,"qianĠxianĠ":7978,"tuĠranĠ":7979,"eĠerĠ":7980,"miĠjiĠ":7981,"taĠerĠ":7982,"chongĠfuĠ":7983,"ĠliĠnianĠ":7984,"qianĠlaiĠ":7985,"taiĠshouĠ":7986,"zhuanĠhuanĠ":7987,"ĠMĠ":7988,"ĠfeiĠliĠ":7989,"ssi":7990,"xiaoĠyiĠ":7991,"duoĠliĠ":7992,"chenĠdeĠ":7993,"27Ġ":7994,"ĠriĠbaoĠ":7995,"liuĠchuanĠ":7996,"quĠshiĠhouĠ":7997,"ĠjiangĠxiĠ":7998,"Ġlong":7999,"ĠchongĠxinĠ":8000,"den":8001,"ĠĠĠtangĠ":8002,"riĠerĠ":8003,"dangĠriĠ":8004,"250":8005,"jianĠzhuĠshiĠ":8006,"jieĠjieĠ":8007,"zhengĠwuĠ":8008,"ĠkeĠchengĠ":8009,"ĠdaoĠdaĠ":8010,"liaoĠning":8011,"ĠPĠ":8012,"ten":8013,"rea":8014,"faĠjueĠ":8015,"quĠneiĠ":8016,"quanĠtiĠ":8017,"guangĠfanĠdeĠ":8018,"tanĠsuoĠ":8019,"ĠweiĠyuanĠhuiĠdeĠ":8020,"Ġ180":8021,"ĠĠĠyanĠgeĠ":8022,"jinĠheĠ":8023,"nanĠyuĠ":8024,"zongĠdeĠ":8025,"STAT":8026,"1960ĠnianĠdaiĠ":8027,"fangĠxiangĠdeĠ":8028,"chongĠfanĠ":8029,"xinĠguanĠfeiĠyanĠ":8030,"tiĠbuĠ":8031,"puĠdeĠ":8032,"rongĠdeĠ":8033,"beiĠqiĠ":8034,"huiĠguanĠ":8035,"bianĠzuĠ":8036,"liuĠgeĠ":8037,"tuĠran":8038,"tuĠshaĠ":8039,"ĠshiĠshiĠzhangĠ":8040,"Ġ1997ĠnianĠ":8041,"cheĠrenĠ":8042,"ĠshiĠzhengĠ":8043,"ĠshiĠshangĠ":8044,"ĠyiĠqingĠ":8045,"xiĠlie":8046,"jiaĠerĠ":8047,"jingĠyuanĠ":8048,"mianĠxiangĠ":8049,"ĠyuĠyiĠ":8050,"ĠĠĠgai":8051,"ĠĠĠ15":8052,"ĠĠĠ6Ġ":8053,"kaiĠqiĠ":8054,"jinĠsiĠ":8055,"baoĠanĠ":8056,"feiĠfaĠ":8057,"gangĠtieĠ":8058,"ĠyouĠdeĠ":8059,"xingĠzhengĠdanĠweiĠ":8060,"ĠanĠhuiĠ":8061,"ĠdiĠerĠciĠ":8062,"ĠguanĠliĠ":8063,"erĠzhongĠ":8064,"liangĠyuĠ":8065,"wanĠqiĠ":8066,"zhaoĠshiĠ":8067,"kenĠdingĠ":8068,"caiĠzhengĠbuĠ":8069,"ĠcengĠzaiĠ":8070,"ĠDĠ":8071,"hangĠkongĠgongĠsiĠ":8072,"ĠshiĠyiĠgeĠweiĠyuĠmeiĠguoĠ":8073,"Ġqin":8074,"daoĠguoĠ":8075,"tuoĠerĠ":8076,"geiĠtaĠ":8077,"ĠyiĠchangĠ":8078,"tingĠzhangĠ":8079,"renĠdaĠdaiĠbiaoĠ":8080,"94":8081,"sti":8082,"xianĠbuĠ":8083,"zuĠshiĠ":8084,"fanĠfuĠ":8085,"ĠyiĠjiaoĠ":8086,"Ġzao":8087,"guanĠzaiĠ":8088,"xinĠzhiĠ":8089,"leĠxuĠduoĠ":8090,"zhengĠfuĠzaiĠ":8091,"ĠliuĠyuĠmianĠjiĠ":8092,"mm":8093,"Ġzhui":8094,"ĠĠĠdi":8095,"cheĠxingĠ":8096,"cunĠyuĠ":8097,"shaoĠyouĠ":8098,"renĠmin":8099,"fuĠqiĠ":8100,"fuĠsiĠ":8101,"zhuĠchiĠrenĠ":8102,"ĠbingĠbiaoĠshiĠ":8103,"ĠzhuĠchiĠ":8104,"3ĠmingĠ":8105,"PS":8106,"leĠzhiĠ":8107,"yingĠheĠ":8108,"benĠjiĠ":8109,"diĠdaĠ":8110,"duoĠxiangĠ":8111,"fengĠgeĠdeĠ":8112,"ĠgongĠluĠ":8113,"ĠgenĠjuĠ2020ĠnianĠmeiĠguoĠrenĠkouĠpuĠchaĠdeĠshuĠjuĠ":8114,"ĠfenĠbieĠshiĠ":8115,"ĠLe":8116,"Ġ2023ĠnianĠ":8117,"zuoĠjiĠ":8118,"fanĠjiĠ":8119,"ĠrenĠjiaoĠ":8120,"chengĠdanĠ":8121,"shangĠjiangĠ":8122,"liangĠhaoĠ":8123,"taoĠwangĠ":8124,"²Ġ":8125,"guĠyiĠ":8126,"wanĠnianĠ":8127,"benĠbuĠ":8128,"nvĠyouĠ":8129,"shaĠshiĠ":8130,"qiaoĠdeĠ":8131,"keĠsaĠsiĠ":8132,"huoĠquĠ":8133,"boĠyinĠ":8134,"saiĠguanĠjunĠ":8135,"touĠshouĠ":8136,"xinĠxiĠlanĠ":8137,"ĠĠĠ2011ĠnianĠ":8138,"nianĠdeĠ":8139,"leiĠyuĠ":8140,"caiĠpanĠ":8141,"zhuanĠquĠ":8142,"ĠyeĠkeĠyiĠ":8143,"guanĠweiĠ":8144,"huanĠweiĠ":8145,"ĠqiĠhouĠyuĠ":8146,"fenĠxiangĠ":8147,"xiaoĠsheĠ":8148,"ĠjiaĠru":8149,"ĠtaĠjiangĠ":8150,"ĠdeĠyiĠweiĠ":8151,"huoĠdeĠdeĠ":8152,"ĠĠĠ2005":8153,"ĠĠĠzuiĠ":8154,"zhouĠdeĠyiĠgeĠshiĠzhenĠ":8155,"maĠqiĠ":8156,"paoĠdaoĠ":8157,"zhongĠhaiĠ":8158,"diĠmianĠ":8159,"yuanĠshuĠ":8160,"ĠerĠciĠ":8161,"ĠyunĠnanĠ":8162,"Ġkua":8163,"ĠĠĠruĠ":8164,"ĠĠĠfaĠguoĠ":8165,"taiĠyiĠ":8166,"cengĠbeiĠ":8167,"douĠbuĠ":8168,"heĠbeiĠ":8169,"gongĠsheĠ":8170,"ĠxiĠsiĠ":8171,"shouĠmingĠ":8172,"yeĠnaĠ":8173,"qianĠzeĠ":8174,"xueĠshiĠxueĠweiĠ":8175,"7ĠgeĠ":8176,"Ġzhen":8177,"Ġ37":8178,"Ġ39":8179,"ĠDa":8180,"faĠrenĠ":8181,"feiĠshiĠ":8182,"zeĠdeĠ":8183,"baiĠxingĠ":8184,"gangĠdeĠ":8185,"shunĠxuĠ":8186,"ryĠ":8187,"geĠtiĠ":8188,"jieĠxiaĠ":8189,"ĠfuĠerĠ":8190,"1Ġri":8191,"1ĠmingĠ":8192,"ĠyinĠweiĠtaĠ":8193,"jingĠbuĠ":8194,"qingĠheĠ":8195,"tingĠheĠ":8196,"jieĠruĠ":8197,"ĠdaĠdiĠ":8198,"dianĠliuĠ":8199,"pingĠdingĠ":8200,"ĠdanĠzheĠ":8201,"ĠshiĠshiĠyiĠ":8202,"ĠxinĠzeng":8203,"cri":8204,"ĠgouĠ":8205,"ĠshiĠxiĠbanĠyaĠ":8206,"huaĠmianĠ":8207,"zuoĠyeĠ":8208,"yinĠjinĠ":8209,"ĠsiĠlingĠbuĠ":8210,"meiĠguoĠyiĠ":8211,"keĠnengĠxingĠ":8212,"yaĠmeiĠniĠyaĠ":8213,"Ġt":8214,"mingĠjiĠ":8215,"tingĠshiĠ":8216,"panĠchuĠ":8217,"maoĠdeĠ":8218,"chengĠgongĠdeĠ":8219,"faĠerĠ":8220,"faĠbuĠdeĠ":8221,"yanĠzou":8222,"danĠxinĠ":8223,"duoĠlunĠ":8224,"fengĠsuoĠ":8225,"waiĠjieĠ":8226,"ĠjieĠfangĠ":8227,"qiangĠdaĠdeĠ":8228,"tiaoĠwenĠ":8229,"chuangĠzao":8230,"nvĠwangĠ":8231,"Ġrui":8232,"ĠDe":8233,"ĠĠĠbaiĠ":8234,"wangĠyuanĠjingĠ":8235,"Ġo":8236,"ĠhouĠyuĠ":8237,"ĠĠĠ7":8238,"1ĠmiĠ":8239,"ranĠliaoĠ":8240,"Ġqu":8241,"Ġ1949":8242,"ĠĠĠ8":8243,"chaĠerĠsiĠ":8244,"guanĠxiĠdeĠ":8245,"danĠduĠ":8246,"dianĠyingĠjieĠ":8247,"ĠyingĠxiangĠ":8248,"ĠĠĠ189":8249,"yongĠdiĠ":8250,"ĠjiĠxu":8251,"shenĠruĠ":8252,"ĠRĠ":8253,"ĠrenĠkouĠdeĠ":8254,"yuĠdeĠguoĠ":8255,"yongĠheĠ":8256,"wenĠyuĠ":8257,"thĠĠĠ":8258,"zhongĠhuaĠ":8259,"ĠliĠjingĠ":8260,"gongĠzhanĠ":8261,"shouĠhuanĠyingĠ":8262,"xieĠdaiĠ":8263,"shuiĠmianĠ":8264,"nangĠ":8265,"sanĠdeĠ":8266,"sanĠyueĠ":8267,"linĠyuĠ":8268,"diĠtieĠ":8269,"jieĠshou":8270,"biĠsaiĠdeĠ":8271,"ĠtongĠshiĠyeĠ":8272,"ĠmianĠjiĠ0":8273,"zuoĠpinĠdeĠ":8274,"2ĠliĠ":8275,"chĠĠĠ":8276,"ĠĠĠwenĠhuaĠ":8277,"tingĠjiĠ":8278,"xianĠzaiĠdeĠ":8279,"qianĠxiaĠ":8280,"ĠjieĠjinĠ":8281,"ĠaoĠdaĠliĠyaĠ":8282,"huĠlianĠwangĠ":8283,"4ĠmiĠ":8284,"yiĠdeĠshiĠ":8285,"huangĠheĠ":8286,"daĠlu":8287,"jianĠshao":8288,"jingĠneiĠdeĠ":8289,"suĠsongĠ":8290,"zongĠzhanĠ":8291,"baĠgeĠ":8292,"ĠbangĠzhuĠ":8293,"guanĠli":8294,"taoĠyuanĠ":8295,"ĠshiĠkeĠ":8296,"wuĠrenĠjiĠ":8297,"fenĠshuĠ":8298,"banĠbenĠdeĠ":8299,"shanĠdingĠ":8300,"ĠjieĠgouĠ":8301,"ĠdanĠbuĠ":8302,"ĠshiĠshiĠdeĠ":8303,"ĠdaĠqiĠ":8304,"tiĠquĠ":8305,"junĠjianĠ":8306,"sheĠhuiĠdeĠ":8307,"ĠyiĠjiĠzaiĠ":8308,"5000":8309,"ĠguoĠliĠ":8310,"zuĠjiĠ":8311,"ĠweiĠdaĠ":8312,"tongĠbaoĠ":8313,"wenĠsiĠ":8314,"hangĠzhouĠ":8315,"ĠhuĠbeiĠ":8316,"ĠÐ°":8317,"SS":8318,"Ġ1992ĠnianĠ":8319,"luĠwaĠ":8320,"suĠsheĠ":8321,"yanĠjiuĠzhongĠxinĠ":8322,"ĠmiĠdeĠ":8323,"ĠluĠwaĠerĠshengĠ":8324,"dangĠbuĠ":8325,"zhuĠzhaiĠ":8326,"boĠchuĠdeĠ":8327,"duoĠyuanĠ":8328,"ĠdaoĠluĠ":8329,"ĠshiĠxingĠdengĠweiĠ":8330,"OR":8331,"³Ġ":8332,"Ġzeng":8333,"ĠED":8334,"ĠĠĠguanĠ":8335,"ĠĠĠdianĠ":8336,"shenĠheĠ":8337,"tiĠcaiĠ":8338,"qianĠyinĠ":8339,"paiĠlieĠ":8340,"ĠjingĠfangĠ":8341,"renĠkouĠpuĠchaĠ":8342,"ĠMar":8343,"Ġ1994ĠnianĠ":8344,"leĠxiĠ":8345,"zunĠzhongĠ":8346,"fuĠnvĠ":8347,"tianĠwenĠxueĠ":8348,"baĠfaĠliĠyaĠ":8349,"ĠaoĠmenĠ":8350,"shenĠqiĠ":8351,"fanĠdaĠxueĠ":8352,"cengĠyouĠ":8353,"orĠĠĠ":8354,"35Ġ":8355,"wuĠbuĠ":8356,"chengĠshuĠ":8357,"xueĠtangĠ":8358,"jiaoĠgaoĠ":8359,"Ġfu":8360,"Ġ400":8361,"jiuĠyueĠ":8362,"60ĠnianĠ":8363,"jiaĠxiangĠ":8364,"quĠbieĠ":8365,"tongĠyang":8366,"duĠziĠ":8367,"duoĠguanĠ":8368,"xingĠzhengĠquĠhuaĠ":8369,"ĠguangĠxuĠ":8370,"aĠerĠbeiĠsiĠ":8371,"reĠdaiĠqiĠxuanĠ":8372,"Ġnu":8373,"ĠĠĠaiĠ":8374,"duoĠsiĠ":8375,"baiĠnianĠ":8376,"shuĠfaĠ":8377,"meiĠti":8378,"panĠluanĠ":8379,"ĠzaiĠshiĠ":8380,"geĠlunĠbiĠyaĠ":8381,"aĠgenĠtingĠ":8382,"pĠĠĠ":8383,"ĠyuanĠshiĠ":8384,"leĠheĠ":8385,"ĠzhongĠyaoĠdeĠ":8386,"shouĠcang":8387,"ĠdeĠyiĠciĠ":8388,"neiĠruiĠ":8389,"NH":8390,"Ġ2001":8391,"yinĠyouĠ":8392,"boĠjiĠ":8393,"diĠfenĠ":8394,"ĠdiĠrenĠ":8395,"quĠmuĠ":8396,"benĠshuĠ":8397,"dangĠxuan":8398,"shaĠtianĠ":8399,"ĠriĠyiĠ":8400,"ĠchiĠweiĠ":8401,"ĠhengĠliĠ":8402,"biĠyuĠ":8403,"tongĠqiĠ":8404,"luĠerĠ":8405,"jianĠceĠ":8406,"ĠbuĠyaoĠ":8407,"jiangĠxueĠ":8408,"puĠluoĠ":8409,"ĠshengĠhuoĠ":8410,"ĠAl":8411,"ĠsiĠshiĠ":8412,"heĠlanĠ":8413,"buĠzaiĠ":8414,"ĠzaiĠwuĠ":8415,"ĠyueĠtuan":8416,"xianĠdaoĠ":8417,"ĠxianĠluĠ":8418,"yiĠshiĠdaoĠ":8419,"tuiĠchuĠleĠ":8420,"ĠxianĠshiĠyouĠ":8421,"ruanĠtiaoĠ":8422,"hn":8423,"ĠĠĠ6":8424,"caĠ":8425,"ĠweiĠzaiĠ":8426,"zhongĠgongĠ":8427,"ĠdaĠbanĠ":8428,"ĠzheĠzuoĠ":8429,"ĠdanĠyuĠ":8430,"keĠyiĠtongĠguoĠ":8431,"woĠmen":8432,"DNA":8433,"Ġ300":8434,"qiaĠ":8435,"ĠyouĠxiĠdeĠ":8436,"gongĠziĠ":8437,"jinĠhuiĠ":8438,"ĠsiĠhouĠ":8439,"zhuanĠjiĠdeĠ":8440,"gongĠchanĠdang":8441,"ĠĠĠweiĠleĠ":8442,"ĠhouĠyouĠ":8443,"tuĠshiĠ":8444,"80Ġ":8445,"ĠzhiĠciĠ":8446,"bingĠwuĠ":8447,"diĠyiĠbaiĠ":8448,"ĠfeiĠlvĠ":8449,"Ġshe":8450,"Ġyao":8451,"ĠĠĠlingĠ":8452,"haoĠheĠ":8453,"shuoĠfuĠ":8454,"miaoĠyuĠ":8455,"yuanĠjianĠ":8456,"jieĠlunĠ":8457,"shengĠhuiĠ":8458,"chuĠsaiĠ":8459,"xinĠzhuĠ":8460,"shenĠfuĠ":8461,"zuĠxianĠ":8462,"ĠdeĠyiĠjiĠ":8463,"hanĠgaiĠ":8464,"qiangĠhuaĠ":8465,"dianĠshiĠjieĠmuĠ":8466,"ĠjiĠyiĠ":8467,"ĠĠĠzuoĠweiĠ":8468,"qiĠliĠ":8469,"saĠdeĠ":8470,"33Ġ":8471,"IDĠ":8472,"ĠjiĠxieĠ":8473,"fangĠzhenĠ":8474,"tiĠqianĠ":8475,"daiĠlaiĠdeĠ":8476,"ĠdeĠyiĠxiangĠ":8477,"ĠchuĠciĠzhiĠwaiĠ":8478,"ĠshiĠjiĠzhongĠ":8479,"quanĠguoĠzhongĠdianĠ":8480,"luoĠmaĠdiĠguoĠ":8481,"fanĠshiĠ":8482,"keĠleiĠ":8483,"banĠquanĠ":8484,"ĠziĠxingĠ":8485,"ĠziĠranĠ":8486,"tingĠzhanĠ":8487,"ĠzuoĠbiaoĠweiĠ":8488,"tianĠwenĠtaiĠ":8489,"Ġ1996ĠnianĠ":8490,"yongĠqiĠ":8491,"nvĠrenĠ":8492,"40ĠnianĠ":8493,"daĠxuanĠ":8494,"jingĠbeiĠ":8495,"fangĠchengĠshiĠ":8496,"huaĠguiĠ":8497,"yangĠziĠ":8498,"zongĠjuĠ":8499,"eĠhuaĠ":8500,"shaĠbaiĠ":8501,"maoĠdunĠ":8502,"ĠzhuĠyaoĠshiĠ":8503,"ĠbiĠdeĠ":8504,"ĠĠĠ1":8505,"ĠĠĠ2008ĠnianĠ":8506,"140":8507,"fuĠxianĠ":8508,"jingĠtouĠ":8509,"liuĠdongĠ":8510,"mengĠjunĠ":8511,"24ĠxiaoĠshiĠ":8512,"je":8513,"Ġë":8514,"neiĠyiĠ":8515,"ciĠciĠ":8516,"yeĠzhanĠ":8517,"ruĠqiuĠ":8518,"ceĠlveĠ":8519,"ĠtongĠshiĠyeĠshiĠ":8520,"zangĠyuĠ":8521,"ziĠwoĠ":8522,"zongĠguanĠ":8523,"ĠbingĠfeiĠ":8524,"zhaoĠguĠ":8525,"taoĠwanĠ":8526,"ĠwoĠmen":8527,"Ġ12Ġ":8528,"nang":8529,"ĠSi":8530,"quĠdiĠ":8531,"ĠyiĠxianĠ":8532,"liangĠanĠ":8533,"ĠshiĠshiĠshiĠ":8534,"tuoĠluoĠ":8535,"ĠdeĠdiĠsanĠ":8536,"ĠdeĠguoĠchengĠ":8537,"ciĠshiĠjieĠdaĠzhanĠqiĠjianĠ":8538,"8ĠmiĠ":8539,"Ġyuan":8540,"tingĠdaoĠ":8541,"zhuanĠliĠ":8542,"zhuĠfangĠ":8543,"zhuĠquanĠ":8544,"riĠchangĠ":8545,"xiaĠxiaĠ":8546,"zhuanĠbianĠ":8547,"ĠdeĠjiĠbenĠ":8548,"ĠĠĠjingĠliĠ":8549,"taĠyouĠ":8550,"yingĠzhiĠ":8551,"qiuĠheĠ":8552,"tuĠsiĠ":8553,"zeĠbeiĠ":8554,"tingĠyuĠ":8555,"fuĠzeĠrenĠ":8556,"zhanĠquĠ":8557,"huoĠcheĠzhanĠ":8558,"kaoĠchaĠ":8559,"kaiĠerĠ":8560,"ĠqiĠB":8561,"ĠkeĠleiĠ":8562,"chanĠwuĠ":8563,"cunĠzaiĠyuĠ":8564,"ĠzhouĠnianĠ":8565,"KB":8566,"Ġchuang":8567,"fanĠerĠ":8568,"jueĠweiĠ":8569,"baiĠheĠ":8570,"ĠshiĠfuĠ":8571,"buĠduanĠ":8572,"ĠzhongĠguoĠdeĠ":8573,"xiangĠdongĠ":8574,"houĠdaiĠ":8575,"fangĠxianĠ":8576,"pianĠduanĠ":8577,"rongĠliangĠ":8578,"ĠshangĠshuĠ":8579,"4ĠmingĠ":8580,"ĠchaoĠguoĠ":8581,"ĠĠĠ5":8582,"ĠĠĠwanĠ":8583,"zheĠyouĠ":8584,"wenĠdiĠ":8585,"puĠsiĠ":8586,"ĠguoĠjia":8587,"xianĠmingĠ":8588,"faĠxian":8589,"xueĠxiaoĠdeĠ":8590,"minĠzuĠzhuĠyiĠ":8591,"baoĠfaĠhouĠ":8592,"ĠĠĠguoĠjiĠ":8593,"wuĠpinĠ":8594,"ĠjiaĠerĠ":8595,"duoĠquĠ":8596,"ĠbingĠchengĠ":8597,"tongĠzhiĠzheĠ":8598,"Ġ11Ġ":8599,"meiĠguoĠrenĠkouĠpuĠchaĠ":8600,"ĠdiĠqiĠyaĠ":8601,"shuĠdiĠ":8602,"wenĠbuĠ":8603,"chiĠdaoĠ":8604,"guoĠchengĠzhongĠ":8605,"wuĠerĠ":8606,"huiĠsheĠ":8607,"huaĠfenĠ":8608,"moĠfangĠ":8609,"poĠlunĠ":8610,"Ġla":8611,"dongĠheĠ":8612,"yaĠerĠ":8613,"diaoĠyuĠ":8614,"yuanĠshengĠ":8615,"jiaĠsuĠ":8616,"jingĠlingĠ":8617,"fanĠgongĠ":8618,"caiĠfangĠ":8619,"1ĠriĠqiĠ":8620,"aiĠhaoĠ":8621,"caoĠzuo":8622,"mouĠxie":8623,"geĠĠĠ":8624,"guĠerĠ":8625,"zhouĠnianĠ":8626,"puĠjiĠ":8627,"niuĠyueĠshiĠ":8628,"geĠlaĠsiĠ":8629,"faĠdaĠ":8630,"hongĠzhaĠ":8631,"ĠtaiĠbeiĠ":8632,"zhanĠdouĠjiĠ":8633,"Ġ1949ĠnianĠ":8634,"ĠĠĠfenĠleiĠ":8635,"luoĠheĠ":8636,"gengĠshiĠ":8637,"bangĠdiĠ":8638,"diĠdianĠ":8639,"ĠguoĠduĠ":8640,"ĠqiĠyueĠ":8641,"huaĠbeiĠ":8642,"tiĠgong":8643,"jueĠseĠdeĠ":8644,"ĠaĠerĠbeiĠ":8645,"1ĠjiaĠ":8646,"ET":8647,"Ġen":8648,"Ġnuo":8649,"Ġ1993ĠnianĠ":8650,"ĠĠĠhaiĠ":8651,"zhiĠdeĠyiĠ":8652,"quĠdeĠyiĠgeĠ":8653,"guanĠliĠdeĠ":8654,"nanĠxiĠ":8655,"qingĠliĠ":8656,"ĠshiĠeĠluoĠsiĠ":8657,"jiaĠshangĠ":8658,"ĠjinĠerĠ":8659,"tiaoĠkuanĠ":8660,"xianĠdeĠfeiĠjianĠzhiĠdiĠquĠ":8661,"ĠgaiĠshiĠ":8662,"erĠdeĠmingĠ":8663,"yuĠyiĠgeĠ":8664,"ĠĠĠyaĠ":8665,"yaĠzaiĠ":8666,"qiuĠyiĠ":8667,"ganĠshiĠ":8668,"taoĠliĠ":8669,"rengĠweiĠ":8670,"ĠyuĠleiĠ":8671,"ĠguoĠjunĠ":8672,"0ĠzuoĠbiaoĠweiĠ":8673,"7ĠmiĠ":8674,"AL":8675,"ĠzhongĠyuĠ":8676,"duiĠdaĠ":8677,"luoĠerĠ":8678,"tangĠheĠ":8679,"mingĠchengĠweiĠ":8680,"lianĠsaiĠdeĠ":8681,"bianĠmaĠ":8682,"ĠweiĠyuĠyinĠjingĠ":8683,"ĠEĠ":8684,"ĠweiĠwuĠerĠ":8685,"ĠqiĠB1900":8686,"0ĠzuoĠbiaoĠweiĠchiĠjingĠ":8687,"ĠĠĠzhenĠ":8688,"wenĠzhiĠ":8689,"nanĠzhiĠ":8690,"ï¼İ":8691,"chengĠxiangĠ":8692,"shengĠhuoĠdeĠ":8693,"dongĠyaĠ":8694,"yingĠchiĠ":8695,"nanĠbuĠdeĠ":8696,"suoĠweiĠdeĠ":8697,"ĠliĠshiĠhuiĠ":8698,"dianĠshiĠdongĠhuaĠ":8699,"ĠzongĠtongĠ":8700,"eĠyuĠ":8701,"Ġxia":8702,"daĠrenĠ":8703,"mentĠ":8704,"haoĠzaiĠ":8705,"70ĠnianĠ":8706,"isĠĠĠ":8707,"kongĠzhiĠdeĠ":8708,"ĠqingĠchaoĠzhengĠzhiĠrenĠwuĠ":8709,"DS":8710,"ĠĠĠhongĠ":8711,"ĠĠĠ11ĠyueĠ":8712,"teĠsiĠ":8713,"moĠliĠ":8714,"shuiĠzhongĠ":8715,"senĠdeĠ":8716,"sangĠshiĠ":8717,"buĠhuiĠ":8718,"yuanĠxiaoĠ":8719,"duiĠfuĠ":8720,"fenĠpei":8721,"zuĠqiuĠlianĠsaiĠ":8722,"ĠguoĠminĠzhengĠfuĠ":8723,"73":8724,"Ġhua":8725,"ĠkuaiĠ":8726,"taiĠzaiĠ":8727,"gongĠdianĠ":8728,"ĠxiĠzhouĠ":8729,"meiĠdongĠ":8730,"ĠfuĠlangĠ":8731,"xuanĠyanĠ":8732,"ĠdongĠhuaĠ":8733,"ĠĠĠcheĠzhanĠgouĠzaoĠ":8734,"ĠĠĠlinĠ":8735,"ĠjiĠkeĠ":8736,"shengĠdanĠ":8737,"ĠerĠlaiĠ":8738,"dongĠquĠ":8739,"yinĠdaoĠ":8740,"miĠqieĠ":8741,"henĠdaĠdeĠ":8742,"wanĠchengĠleĠ":8743,"biaoĠxianĠchuĠ":8744,"ĠTheĠĠĠ":8745,"ĠseĠ":8746,"ĠĠĠsanĠ":8747,"ĠĠĠtaĠdeĠ":8748,"ĠĠĠ2022ĠnianĠ":8749,"sisĠ":8750,"liangĠyiĠ":8751,"teĠrenĠ":8752,"shaoĠweiĠ":8753,"daĠlou":8754,"nanĠsiĠlaĠfuĠ":8755,"xinĠtaiĠbiĠ":8756,"Ġzou":8757,"ĠpengĠ":8758,"luĠzhongĠ":8759,"baiĠshiĠ":8760,"ĠnianĠqingĠdeĠ":8761,"juĠdianĠ":8762,"jiangĠpaiĠ":8763,"saiĠnaĠ":8764,"leiĠsiĠyuĠ":8765,"xunĠzhao":8766,"chuanĠdaoĠ":8767,"yuanĠzhengĠ":8768,"gongĠwuĠ":8769,"yingĠxiangĠdeĠ":8770,"xinĠquĠ":8771,"zongĠshuĠjiĠ":8772,"shunĠshiĠzhenĠyuĠ":8773,"ĠfenĠweiĠ":8774,"ĠtaiĠguoĠ":8775,"faĠzaiĠ":8776,"yunĠzaiĠ":8777,"shaĠrenĠ":8778,"waĠdeĠ":8779,"68ĠnianĠ":8780,"yingĠpian":8781,"luĠjingĠ":8782,"ĠxingĠzheng":8783,"faĠbuĠleĠ":8784,"feiĠlvĠbinĠ":8785,"ĠweiĠyuĠgaiĠshengĠ":8786,"84":8787,"Ġ1995ĠnianĠ":8788,"zhanĠyiĠzhongĠ":8789,"suanĠjianĠ":8790,"35ĠnianĠ":8791,"penĠdiĠ":8792,"beiĠrenĠweiĠ":8793,"ĠqiĠrenĠ":8794,"zuoĠwuĠ":8795,"zheĠxiangĠ":8796,"changĠchangĠ":8797,"ĠsiĠxiangĠ":8798,"ĠgeĠmingĠ":8799,"aoĠdaĠliĠ":8800,"ĠĠĠHi":8801,"ĠyinĠciĠzaiĠ":8802,"lle":8803,"ĠminĠzhuĠ":8804,"ĠguangĠxiĠ":8805,"xunĠxiĠ":8806,"wuĠtiĠ":8807,"feiĠdanĠ":8808,"2ĠmingĠ":8809,"jiaĠruĠleĠ":8810,"zhenĠjiĠxingĠzhengĠdanĠweiĠ":8811,"Ġ160":8812,"ĠĠĠbiĠ":8813,"youĠyiĠzhiĠ":8814,"faĠweiĠyuanĠ":8815,"taĠliĠ":8816,"shuiĠheĠ":8817,"congĠzhongĠ":8818,"daĠgeĠmingĠ":8819,"zuoĠweiĠyiĠ":8820,"ĠgeĠerĠ":8821,"ĠzhanĠhouĠ":8822,"ĠxingĠzhengĠquĠ":8823,"Ġtan":8824,"ĠboĠshiĠ":8825,"duĠzaiĠ":8826,"muĠliĠ":8827,"yaĠjiĠ":8828,"teĠweiĠ":8829,"feiĠdiĠ":8830,"duanĠweiĠ":8831,"genĠdiĠ":8832,"daĠbanĠ":8833,"jiangĠnanĠ":8834,"pingĠdengĠ":8835,"benĠzhanĠ":8836,"ĠziĠran":8837,"Ġ64":8838,"ĠluoĠsiĠ":8839,"ĠyingĠdeĠ":8840,"ĠchangĠqiĠ":8841,"zhuanĠkeĠ":8842,"qiangĠdaĠ":8843,"ĠqiĠxi":8844,"700":8845,"ĠĠĠkaiĠ":8846,"zhuanĠchengĠ":8847,"xiuĠsiĠ":8848,"peĠ":8849,"CDĠ":8850,"ĠbuĠtong":8851,"ĠxiĠgeĠ":8852,"shangĠbiaoĠ":8853,"leĠbiĠ":8854,"zhanĠlveĠ":8855,"bingĠbeiĠ":8856,"ĠpingĠchengĠ":8857,"IV":8858,"usi":8859,"lianĠshiĠ":8860,"zuiĠxingĠ":8861,"ine":8862,"ĠzhiĠhou":8863,"xueĠtongĠ":8864,"laiĠkanĠ":8865,"shenĠpanĠ":8866,"luoĠteĠ":8867,"kaiĠchuĠ":8868,"ĠcongĠciĠ":8869,"ĠweiĠjiĠchuĠ":8870,"xiaĠxiaĠdeĠyiĠgeĠxiangĠzhenĠjiĠxingĠzhengĠdanĠweiĠ":8871,"Ġpang":8872,"Ġ58":8873,"ĠaoĠsiĠ":8874,"baĠjiĠsiĠ":8875,"ĠyiĠdingĠ":8876,"ĠyiĠseĠlieĠ":8877,"buĠzuĠ":8878,"xiangĠliangĠ":8879,"fangĠkongĠ":8880,"wenĠshuĠ":8881,"chuanĠshuĠ":8882,"lvĠhuaĠ":8883,"ĠFĠ":8884,"OM":8885,"cke":8886,"Ġgang":8887,"minĠshiĠ":8888,"erĠchengĠ":8889,"dianĠxinĠ":8890,"ĠboĠlanĠ":8891,"hunĠningĠ":8892,"ĠguanĠzhuangĠbingĠduĠ":8893,"zhuiĠsuĠdaoĠ":8894,"ĠĠĠ9":8895,"ĠĠĠfengĠ":8896,"zhanĠliĠ":8897,"jiaĠsheĠ":8898,"shengĠqiĠ":8899,"zhanĠshengĠ":8900,"ciĠdianĠ":8901,"yinĠyingĠ":8902,"luĠyinĠ":8903,"gangĠqinĠ":8904,"nanĠjiĠtiaoĠyueĠ":8905,"aoĠkeĠ":8906,"tingĠzhongĠ":8907,"ĠbuĠbingĠ":8908,"chuĠjingĠ":8909,"shouĠsunĠ":8910,"mingĠchaoĠ":8911,"ĠgaiĠshuĠ":8912,"yanĠjiuĠdeĠ":8913,"ĠshiĠrenĠminĠzhengĠfuĠ":8914,"ĠfenĠbuĠzaiĠ":8915,"ĠĠĠ2009ĠnianĠ":8916,"diĠshiĠyiĠ":8917,"shouĠzaiĠ":8918,"mianĠweiĠ":8919,"longĠkeĠ":8920,"rongĠjiĠ":8921,"xiĠtongĠdeĠ":8922,"siĠhouĠ":8923,"ĠerĠtaĠ":8924,"shouĠgeĠquĠ":8925,"shangĠkeĠ":8926,"ĠshangĠyeĠ":8927,"ĠtongĠyangĠ":8928,"dongĠjingĠduĠ":8929,"teĠzhiĠ":8930,"paiĠheĠ":8931,"ĠjiĠcheĠ":8932,"buĠtong":8933,"tiĠanĠ":8934,"laiĠzi":8935,"yaĠgeĠ":8936,"tianĠxiaĠ":8937,"ĠgeĠlanĠ":8938,"qiangĠdiao":8939,"ĠnanĠbeiĠ":8940,"Ġcang":8941,"Ġ1999":8942,"duĠyueĠ":8943,"pingĠrenĠ":8944,"chuanĠshiĠ":8945,"paiĠshe":8946,"zaoĠchuanĠ":8947,"Ġkao":8948,"Ġ47":8949,"ĠzaiĠxinĠ":8950,"ĠzhongĠwen":8951,"shangĠjieĠ":8952,"guanĠzhengĠ":8953,"changĠanĠ":8954,"ĠziĠciĠ":8955,"ĠxiangĠdangĠyuĠ":8956,"ceĠlve":8957,"ĠweiĠyuanĠhuiĠzhuĠxiĠ":8958,"ĠaĠliĠ":8959,"canĠsaiĠziĠgeĠ":8960,"nanĠjiĠtiaoĠyueĠtiĠxiĠ":8961,"jiĠshiĠshiĠ":8962,"ĠĠĠst":8963,"ĠĠĠshuĠ":8964,"mingĠqiĠ":8965,"gaiĠyouĠ":8966,"chaĠjiĠ":8967,"wor":8968,"ĠliĠxianĠ":8969,"mingĠxianĠdeĠ":8970,"jiaoĠtuĠ":8971,"xiaoĠhuaĠ":8972,"ĠfuĠzhuĠ":8973,"ĠxiangĠsiĠ":8974,"ĠhaĠliĠ":8975,"xiuĠdaoĠyuanĠ":8976,"ĠduĠliĠ":8977,"mingĠdiĠ":8978,"duoĠyuĠ":8979,"liuĠyiĠ":8980,"touĠyuĠ":8981,"ĠshiĠfenĠ":8982,"ĠjiĠyinĠ":8983,"faĠyanĠrenĠ":8984,"shouĠhuĠ":8985,"moĠfaĠ":8986,"gengĠdaĠdeĠ":8987,"EĠĠĠ":8988,"Ġ1985ĠnianĠ":8989,"jiĠshiĠjianĠ":8990,"ĠĠĠsheĠjiĠ":8991,"junĠqiĠ":8992,"lvĠheĠ":8993,"taoĠfaĠ":8994,"saĠkeĠsiĠ":8995,"beiĠluĠ":8996,"ĠdiĠmianĠ":8997,"yanĠzhengĠ":8998,"jiaoĠzhanĠ":8999,"miaoĠshuĠweiĠ":9000,"diĠshiĠniĠ":9001,"ĠdaĠyueĠ":9002,"tongĠxingĠlianĠ":9003,"van":9004,"Ġ48":9005,"jiaĠliĠyaĠ":9006,"banĠzhiĠ":9007,"shuiĠdaoĠ":9008,"hunĠliĠ":9009,"ĠweiĠxianĠ":9010,"guanĠdaoĠ":9011,"biĠyaoĠ":9012,"laiĠwuĠ":9013,"guangĠbo":9014,"ĠhuiĠfuĠ":9015,"xiaoĠxingĠxingĠdeĠ":9016,"ĠeĠluoĠ":9017,"±Ġ":9018,"Ġ1998":9019,"ĠĠĠhuaĠ":9020,"yingĠyiĠ":9021,"dingĠyiĠweiĠ":9022,"tuoĠkeĠ":9023,"hunĠyin":9024,"wengĠ":9025,"ĠzhongĠyao":9026,"yunĠhuiĠ":9027,"fengĠfuĠdeĠ":9028,"baiĠhouĠ":9029,"ĠjuĠjueĠ":9030,"ĠhuoĠchengĠ":9031,"ĠweiĠshiĠ":9032,"quanĠzhiĠ":9033,"sanĠxingĠ":9034,"seĠĠĠ":9035,"ĠshiĠnianĠ":9036,"ĠdeĠheĠ":9037,"faĠshe":9038,"ĠxiĠfangĠ":9039,"zhengĠxieĠ":9040,"houĠxuĠ":9041,"fenĠgeĠ":9042,"ĠfuĠjinĠdeĠ":9043,"zhouĠkanĠ":9044,"tianĠhuang":9045,"ĠzheĠyangĠdeĠ":9046,"kaiĠshiĠyuĠ":9047,"diĠerĠciĠ":9048,"ĠĠĠzhiĠyeĠshengĠyaĠ":9049,"shanĠmaiĠdeĠyiĠbuĠfenĠ":9050,"quanĠguoĠzhongĠdianĠwenĠwuĠbaoĠhuĠdanĠweiĠ":9051,"nanĠjiĠtiaoĠyueĠtiĠxiĠguanĠliĠ":9052,"Ġ1945":9053,"ĠFi":9054,"ĠqiĠyiĠ":9055,"leĠyueĠ":9056,"ster":9057,"ĠyiĠdanĠ":9058,"xingĠdengĠweiĠ":9059,"faĠxueĠ":9060,"fangĠshouĠ":9061,"qingĠyuanĠ":9062,"puĠluĠshiĠ":9063,"zhengĠzhiĠbuĠ":9064,"quĠdeĠleĠ":9065,"ĠNe":9066,"ĠĠĠchenĠ":9067,"jingĠdiĠ":9068,"guanĠnianĠ":9069,"sanĠzhiĠ":9070,"caiĠshiĠ":9071,"faĠlanĠkeĠ":9072,"guanĠfang":9073,"ĠsiĠgeĠ":9074,"ĠyeĠchengĠ":9075,"tangĠquĠ":9076,"ĠĠĠCon":9077,"UN":9078,"ĠDi":9079,"maĠyiĠ":9080,"hanĠjianĠ":9081,"64ĠnianĠ":9082,"guoĠfangĠ":9083,"wuĠhanĠ":9084,"shangĠzuiĠ":9085,"jingĠtiĠ":9086,"zheĠciĠ":9087,"duiĠkang":9088,"shenĠyeĠ":9089,"xuanĠgaoĠ":9090,"ĠziĠshengĠ":9091,"ĠJĠ":9092,"jieĠquanĠguoĠrenĠminĠdaiĠbiaoĠdaĠhuiĠ":9093,"ĠĠĠzaoĠqiĠ":9094,"ĠĠĠ2007ĠnianĠ":9095,"beiĠzhongĠ":9096,"paĠerĠ":9097,"29Ġ":9098,"guoĠjiaĠdeĠ":9099,"gongĠguoĠ":9100,"jiaĠsiĠ":9101,"chuĠxian":9102,"shouĠhuanĠ":9103,"dianĠxingĠdeĠ":9104,"shanĠhuĠ":9105,"laĠmaĠ":9106,"keĠyiĠshengĠ":9107,"dongĠshiĠhuiĠ":9108,"ĠwoĠdeĠ":9109,"Ġpao":9110,"Ġ1988ĠnianĠ":9111,"ĠĠĠbaoĠ":9112,"ĠĠĠliangĠ":9113,"ĠĠĠwaiĠbuĠ":9114,"quĠxiĠ":9115,"xiaoĠzhiĠ":9116,"daiĠerĠ":9117,"maĠheĠ":9118,"90Ġ":9119,"mieĠwangĠ":9120,"zhuĠchengĠ":9121,"huiĠbaoĠ":9122,"danĠyaoĠ":9123,"xuĠlieĠ":9124,"lunĠtanĠ":9125,"ĠyiĠzhiĠzaiĠ":9126,"peiĠchangĠ":9127,"ĠĠĠMo":9128,"70Ġ":9129,"65ĠnianĠ":9130,"zhongĠyang":9131,"ĠbuĠzhangĠ":9132,"nanĠmeiĠzhouĠ":9133,"zhenĠzhuĠ":9134,"bianĠhuanĠ":9135,"ĠweiĠyuĠzhongĠhuaĠrenĠminĠgongĠheĠguoĠ":9136,"ĠdianĠziĠ":9137,"ĠgaiĠcunĠshiĠjianĠyuĠ":9138,"ĠdouĠshiĠ":9139,"xiĠdiĠ":9140,"keĠjianĠ":9141,"mingĠmingĠdeĠ":9142,"zhanĠjianĠ":9143,"guanĠguangĠ":9144,"shuiĠliangĠ":9145,"Ġ1990":9146,"mieĠjueĠ":9147,"ĠjiĠjieĠ":9148,"xingĠnengĠ":9149,"xiaoĠlvĠ":9150,"xuanĠminĠ":9151,"maĠzuĠ":9152,"naĠyangĠ":9153,"taoĠlun":9154,"guoĠjiĠzuĠ":9155,"Ġtu":9156,"ĠĠĠhanĠ":9157,"erĠshiĠdeĠ":9158,"xueĠzhiĠ":9159,"mianĠyouĠ":9160,"shuiĠshiĠ":9161,"xiĠfangĠ":9162,"geĠdiĠdeĠ":9163,"mingĠniĠ":9164,"yingĠxiong":9165,"zhenĠrongĠ":9166,"dangĠdaiĠ":9167,"ĠjieĠdaoĠ":9168,"chongĠshengĠ":9169,"daiĠbiaoĠtuan":9170,"Ġ1984ĠnianĠ":9171,"ĠĠĠfenĠ":9172,"liangĠqiĠ":9173,"duoĠdaĠ":9174,"00ĠnianĠ":9175,"nvĠdeĠ":9176,"rongĠhuoĠ":9177,"ĠliĠaoĠ":9178,"xiĠerĠ":9179,"ziĠchengĠ":9180,"shuĠxingĠ":9181,"huaĠruĠ":9182,"nanĠdaoĠ":9183,"qiuĠmiĠ":9184,"gaoĠsu":9185,"dangĠzuoĠ":9186,"kaiĠbanĠ":9187,"ĠfanĠyingĠ":9188,"ĠweiĠyuĠgaiĠguoĠxiĠbuĠ":9189,"sof":9190,"lanĠheĠ":9191,"75ĠnianĠ":9192,"xianĠqianĠ":9193,"dianĠchangĠ":9194,"gaiĠjianĠ":9195,"boĠgeĠ":9196,"ĠshiĠyiĠjiaĠ":9197,"ĠshiĠdeĠrenĠ":9198,"juĠminĠdianĠ":9199,"zuoĠquĠjiaĠ":9200,"ĠjianĠyiĠ":9201,"Ġ1990ĠnianĠ":9202,"zaiĠdeĠguoĠ":9203,"buĠdeĠyiĠgeĠ":9204,"xiuĠshiĠ":9205,"xiuĠxianĠ":9206,"1950ĠnianĠ":9207,"keĠyiĠshiĠ":9208,"duiĠbiĠ":9209,"suoĠxieĠ":9210,"shanĠchuĠ":9211,"ĠziĠjiĠdeĠ":9212,"ĠmuĠqinĠ":9213,"maoĠzeĠdongĠ":9214,"ĠTĠ":9215,"guĠsiĠ":9216,"ward":9217,"daĠshaĠ":9218,"xingĠzhuangĠ":9219,"wuĠran":9220,"qingĠganĠ":9221,"sheĠruĠ":9222,"feiĠteĠ":9223,"liuĠqiuĠ":9224,"paiĠfangĠ":9225,"ĠjinĠbiaoĠ":9226,"aiĠnaĠshengĠ":9227,"saĠlaĠ":9228,"ĠcengĠyuĠ":9229,"EC":9230,"ĠMe":9231,"ĠĠĠkaĠ":9232,"gaoĠshanĠ":9233,"geĠyueĠdeĠ":9234,"shuĠyueĠ":9235,"leĠzhongĠguoĠ":9236,"huoĠerĠ":9237,"chongĠdeĠ":9238,"ara":9239,"fuĠzhuĠxiĠ":9240,"chuĠjueĠ":9241,"ĠwuĠqiĠ":9242,"ĠdeĠdiĠdiĠ":9243,"Ġ19Ġ":9244,"zuĠchengĠbuĠfenĠ":9245,"Ġ65":9246,"ĠsĠ":9247,"guanĠdiĠ":9248,"niĠfuĠ":9249,"zongĠsiĠlingĠ":9250,"chaĠheĠ":9251,"mouĠzhongĠ":9252,"siĠtan":9253,"geĠxiangĠ":9254,"ĠbuĠshaoĠ":9255,"guanĠlianĠ":9256,"ĠyiĠjiĠzhongĠguoĠdaĠluĠdeĠ":9257,"ganĠqingĠ":9258,"zhuĠyaoĠyouĠ":9259,"ĠĠĠzheĠkeĠ":9260,"Ġgei":9261,"shanĠheĠ":9262,"gengĠgaiĠ":9263,"deĠguoĠ":9264,"ĠzaiĠhaiĠ":9265,"tongĠxiangĠ":9266,"meiĠxiaoĠshiĠ":9267,"shenĠfen":9268,"chuanĠshuo":9269,"ĠdanĠyouĠ":9270,"feiĠxingĠyuanĠ":9271,"duĠbuĠ":9272,"zhangĠzhongĠ":9273,"arĠ":9274,"62ĠnianĠ":9275,"ĠyiĠdiĠ":9276,"ĠweiĠtaĠ":9277,"jinĠshengĠ":9278,"tongĠyongĠ":9279,"ĠdaĠjieĠ":9280,"jiaoĠdianĠ":9281,"qianĠdaoĠ":9282,"ĠdanĠshiĠzaiĠ":9283,"ĠzuiĠhouĠyiĠ":9284,"genĠbenĠ":9285,"ĠĠĠleiĠ":9286,"ĠĠĠjiaoĠyuĠ":9287,"zhongĠshiĠyongĠ":9288,"dongĠyuĠ":9289,"gunĠ":9290,"xiĠzangĠ":9291,"juĠliuĠ":9292,"liangĠzuoĠ":9293,"ĠfuĠzhuĠxiĠ":9294,"chuĠliĠqiĠ":9295,"luĠyingĠdaiĠ":9296,"ĠĠĠxiangĠgang":9297,"kaiĠjiĠ":9298,"nuoĠdeĠ":9299,"45Ġ":9300,"geĠjieĠ":9301,"houĠxuanĠ":9302,"yingĠwuĠ":9303,"bingĠbuĠshiĠ":9304,"ĠkeĠfuĠ":9305,"ĠtaĠshuoĠ":9306,"guĠzhangĠ":9307,"ĠbingĠxiangĠ":9308,"ĠshiĠjiĠchuĠ":9309,"gengĠduo":9310,"zhengĠzhiĠjiaĠ":9311,"MV":9312,"xiangĠliĠ":9313,"tiĠqiĠ":9314,"xiaoĠweiĠ":9315,"muĠzhongĠ":9316,"llĠĠĠ":9317,"xingĠbieĠ":9318,"faĠbiaoĠdeĠ":9319,"jiaoĠxiaoĠ":9320,"haiĠbaĠgaoĠduĠ":9321,"Ġ16Ġ":9322,"ĠheiĠlongĠjiangĠ":9323,"âĪĴ":9324,"ĠĠĠ2000":9325,"zhaoĠjiĠ":9326,"diĠanĠ":9327,"ĠyouĠyongĠ":9328,"shengĠdianĠ":9329,"jinĠhuaĠ":9330,"ĠxiĠshouĠ":9331,"yeĠchengĠweiĠ":9332,"jiaoĠdaĠdeĠ":9333,"duĠshuĠ":9334,"ĠbingĠchengĠweiĠ":9335,"meiĠguoĠzongĠtongĠ":9336,"ĠhaiĠbaĠ":9337,"ĠbaĠyueĠ":9338,"fuĠzhiĠfuĠ":9339,"xinĠguanĠfeiĠyanĠqueĠzhenĠbingĠliĠ":9340,"op":9341,"spanĠ":9342,"anĠheĠ":9343,"shangĠzaiĠ":9344,"shuiĠliĠ":9345,"zhuiĠqiuĠ":9346,"qiĠyuanĠ":9347,"ĠheĠziĠ":9348,"yinĠjieĠ":9349,"boĠduoĠ":9350,"ĠtaĠduiĠ":9351,"zuiĠda":9352,"baĠmaĠ":9353,"neiĠyaĠ":9354,"cunĠminĠ":9355,"ĠjiĠzhongĠxueĠ":9356,"ĠÐ¾":9357,"ĠmengĠguĠ":9358,"ĠĠĠwaiĠbuĠlianĠjieĠ":9359,"ĠĠĠzhengĠyiĠ":9360,"quĠyiĠyuanĠ":9361,"baoĠyouĠ":9362,"wangĠzaiĠ":9363,"yangĠyuĠ":9364,"ĠrenĠzhengĠ":9365,"fuĠchuĠ":9366,"fuĠluĠ":9367,"wuĠdaĠ":9368,"guanĠkanĠ":9369,"wanĠjianĠ":9370,"ĠdeĠshiĠqingĠ":9371,"ĠquĠdaiĠ":9372,"82":9373,"aĠsiĠ":9374,"Ġkong":9375,"Ġqiang":9376,"baĠyiĠ":9377,"ĠheĠhuaĠ":9378,"fuĠzhuangĠ":9379,"ĠbuĠruĠ":9380,"xianĠquĠ":9381,"ĠxiĠfaĠ":9382,"ĠdaĠbaiĠ":9383,"luĠyinĠshiĠ":9384,"ĠbaoĠliuĠ":9385,"gouĠtongĠ":9386,"ganĠlanĠqiuĠ":9387,"ĠsuoĠxieĠ":9388,"gongĠzuoĠrenĠyuanĠ":9389,"ĠxianĠshiĠyouĠnanĠjiĠtiaoĠyueĠtiĠxiĠguanĠliĠ":9390,"ĠzhaĠ":9391,"ĠĠĠchangĠ":9392,"laiĠzhiĠ":9393,"niĠyuĠ":9394,"zongĠjiĠ":9395,"cunĠchuĠ":9396,"shuaiĠjiaoĠ":9397,"kuaĠ":9398,"ĠzhongĠzuĠ":9399,"xinĠtuĠ":9400,"chenĠmoĠ":9401,"ĠxianĠzhiĠ":9402,"clu":9403,"zhongĠyiĠgeĠ":9404,"beiĠshangĠ":9405,"wenĠdingĠdeĠ":9406,"suoĠjianĠ":9407,"ĠdanĠreng":9408,"ĠdanĠquĠ":9409,"sĠĠĠof":9410,"caiĠyongĠleĠ":9411,"jianĠli":9412,"zuoĠzaiĠ":9413,"sanĠqiĠ":9414,"shuiĠweiĠ":9415,"orld":9416,"yanĠjiuĠshiĠ":9417,"ĠxiangĠzhengĠ":9418,"ĠzheĠshiĠdeĠ":9419,"jiaoĠyiĠsuoĠ":9420,"ĠUĠ":9421,"¼Ġ":9422,"Ġ600":9423,"biĠjiĠ":9424,"danĠjiĠ":9425,"manĠyiĠ":9426,"meĠĠĠ":9427,"zhanĠchuĠ":9428,"changĠdaoĠ":9429,"jiaoĠgei":9430,"zhenĠwangĠ":9431,"dingĠdianĠ":9432,"ĠshiĠyiĠkeĠweiĠ":9433,"ĠyouĠzhiĠ":9434,"ĠdaiĠmaĠweiĠ":9435,"83":9436,"ĠMo":9437,"Ġ1991ĠnianĠ":9438,"feiĠqiĠ":9439,"shuĠgeĠ":9440,"yeĠsuĠ":9441,"ĠsiĠmaĠ":9442,"daiĠdaoĠ":9443,"shenĠmiĠ":9444,"ĠsuĠchengĠ":9445,"ĠyaĠzhouĠ":9446,"enĠsiĠ":9447,"ĠĠĠfenĠbuĠ":9448,"nanĠyueĠ":9449,"wangĠheĠ":9450,"niĠjiĠ":9451,"xuĠyiĠ":9452,"tianĠdiĠ":9453,"xiangĠnanĠ":9454,"shouĠcangĠ":9455,"mingĠjiaoĠ":9456,"yanĠxianĠ":9457,"suoĠzaiĠdeĠ":9458,"MP":9459,"ĠĠĠmoĠ":9460,"mingĠzaiĠ":9461,"zhanĠqiĠ":9462,"37ĠnianĠ":9463,"youĠtaiĠ":9464,"lianĠjunĠ":9465,"zuiĠhaoĠdeĠ":9466,"ĠjuĠleĠbuĠ":9467,"ĠdeĠshiĠyiĠ":9468,"ĠxianĠyiĠ":9469,"maĠlaiĠxiĠya":9470,"raoĠtaiĠyangĠgongĠ":9471,"meiĠdongĠbuĠshiĠquĠ":9472,"tha":9473,"ĠĠĠÐ":9474,"zhanĠbuĠ":9475,"danĠyouĠ":9476,"baĠkeĠ":9477,"bianĠfuĠ":9478,"lanĠshiĠ":9479,"gengĠdaĠ":9480,"30ĠfenĠ":9481,"ĠshiĠxiaĠxiaĠdeĠyiĠgeĠxiangĠzhenĠjiĠxingĠzhengĠdanĠweiĠ":9482,"ĠzaiĠkeĠ":9483,"ĠzhongĠrenĠ":9484,"geĠxingĠ":9485,"beiĠfaĠ":9486,"dongĠceĠ":9487,"bingĠqieĠ":9488,"ĠxingĠxingĠ":9489,"miĠsuĠliĠ":9490,"xingĠzhengĠyuanĠ":9491,"Ġ1989ĠnianĠ":9492,"ĠĠĠ2006ĠnianĠ":9493,"chengĠbuĠ":9494,"biĠheĠ":9495,"usĠ":9496,"heĠyueĠ":9497,"shengĠcunĠ":9498,"ĠkeĠyunĠ":9499,"xieĠtiaoĠ":9500,"ĠdanĠzuiĠzhongĠ":9501,"douĠmeiĠyouĠ":9502,"ĠyiĠzhiĠdaoĠ":9503,"yiĠshiĠqiĠ":9504,"ĠHĠ":9505,"ĠISTAT":9506,"YĠ":9507,"Ġ59":9508,"qieĠdeĠ":9509,"ĠnianĠnianĠ":9510,"heĠbingĠ":9511,"ĠyouĠsiĠ":9512,"jieĠxiĠ":9513,"jinĠjunĠ":9514,"ruĠxueĠ":9515,"ĠxingĠquĠ":9516,"kouĠjingĠ":9517,"ĠdeĠshiĠliĠ":9518,"ĠESTĠ":9519,"Ġjue":9520,"ĠtuanĠ":9521,"Ġ2024ĠnianĠ":9522,"ain":9523,"ĠĠĠdengĠ":9524,"huĠzhiĠ":9525,"naĠshiĠ":9526,"nengĠdeĠ":9527,"linĠzhongĠ":9528,"ĠyouĠbeiĠ":9529,"ĠguoĠhouĠ":9530,"ĠdiĠbaĠ":9531,"xinĠfengĠ":9532,"shenĠsheĠ":9533,"zhaoĠkai":9534,"ĠduiĠciĠ":9535,"ĠweiĠyuĠfaĠguoĠao":9536,"Ġhen":9537,"Ġ1994":9538,"ĠmingĠweiĠ":9539,"wenĠweiĠ":9540,"niĠdiĠ":9541,"moĠnianĠ":9542,"huanĠbaoĠ":9543,"jianĠdanĠdeĠ":9544,"quĠdaoĠ":9545,"houĠlaiĠdeĠ":9546,"qianĠfangĠ":9547,"meiĠguoĠzhiĠ":9548,"lingĠganĠ":9549,"zongĠlingĠshiĠ":9550,"laĠduoĠ":9551,"douĠkeĠyiĠ":9552,"ĠmingĠmingĠ":9553,"tiaoĠmuĠ":9554,"zhuĠjiaoĠlianĠ":9555,"ĠxieĠzhuĠ":9556,"guangĠboĠgongĠsiĠ":9557,"jueĠduiĠxingĠdengĠweiĠ":9558,"jueĠsaiĠyiĠ":9559,"liĠxiĠ":9560,"neiĠheĠ":9561,"pianĠweiĠ":9562,"TVĠ":9563,"guoĠjia":9564,"xiaĠleĠ":9565,"ĠyiĠzhiĠyuĠ":9566,"ĠshouĠfuĠ":9567,"ĠsuiĠjiĠ":9568,"Ġ5ĠdiaoĠkuaiĠyiĠxiaoĠshiĠ":9569,"biĠliĠniuĠsiĠ":9570,"ĠjiĠbeiĠmeiĠdongĠbuĠshiĠquĠ":9571,"ĠEDTĠ":9572,"ĠshiĠyiĠkeĠweiĠraoĠtaiĠyangĠgongĠ":9573,"ĠshiĠyiĠkeĠweiĠraoĠtaiĠyangĠgongĠzhuanĠdeĠxiaoĠxingĠxingĠ":9574,"ginĠ":9575,"Ġ49":9576,"Ġ1996":9577,"diĠliĠyaĠ":9578,"niĠheĠ":9579,"benĠshiĠ":9580,"shaoĠshiĠ":9581,"ĠjiĠgou":9582,"yuanĠyinĠshiĠ":9583,"minĠdangĠ":9584,"ĠtaĠweiĠ":9585,"aĠmiĠ":9586,"ĠyuanĠziĠ":9587,"ĠerĠjiĠ":9588,"ĠLĠ":9589,"saiĠerĠweiĠyaĠ":9590,"xiaoĠxingĠxingĠdeĠjueĠduiĠxingĠdengĠweiĠ":9591,"IR":9592,"tri":9593,"Ġrou":9594,"xianĠdeĠdiĠ":9595,"guangĠyiĠ":9596,"pianĠrenĠ":9597,"ĠfuĠzhouĠ":9598,"tianĠxinĠ":9599,"dingĠleĠ":9600,"diaoĠsuĠ":9601,"Ġzan":9602,"ĠboĠliĠ":9603,"maĠjiĠ":9604,"qiĠrenĠ":9605,"ziĠshengĠ":9606,"guanĠce":9607,"ĠdeĠyiĠjiaĠ":9608,"jiaĠruĠzhongĠguoĠgongĠchanĠdangĠ":9609,"ĠĠĠzheĠkeĠxiaoĠxingĠxingĠdeĠjueĠduiĠxingĠdengĠweiĠ":9610,"Ġ800":9611,"ciĠrenĠ":9612,"zhouĠyuĠ":9613,"puĠerĠ":9614,"ceboo":9615,"38ĠnianĠ":9616,"67ĠnianĠ":9617,"ĠguoĠyouĠ":9618,"beiĠbuĠdeĠ":9619,"duĠzheĠ":9620,"shouĠshiĠlvĠ":9621,"yinĠdiĠanĠnaĠ":9622,"Ġhe":9623,"ĠqiaoĠzhiĠ":9624,"ĠĠĠbanĠ":9625,"fanĠdiĠ":9626,"zeĠerĠ":9627,"caiĠjiĠ":9628,"zhaiĠwuĠ":9629,"juĠluoĠ":9630,"ruĠleĠ":9631,"tianĠxianĠ":9632,"erĠshiĠnianĠ":9633,"ĠjiĠzhongĠzaiĠ":9634,"fli":9635,"ĠĠĠxuanĠ":9636,"senĠbaoĠ":9637,"ĠzhiĠhouĠzaiĠ":9638,"xiĠshouĠ":9639,"ĠyueĠseĠfuĠ":9640,"guanĠshangĠ":9641,"taiĠbei":9642,"yongĠyuanĠ":9643,"wanĠquĠ":9644,"gangĠtie":9645,"shuiĠshangĠ":9646,"henĠduo":9647,"ĠyiĠweiĠzheĠ":9648,"ĠĠĠEn":9649,"9ĠshiĠ":9650,"ĠCa":9651,"enĠdeĠ":9652,"ĠĠĠmiĠ":9653,"shouĠqiĠ":9654,"yinĠzaiĠ":9655,"xiaoĠheĠ":9656,"ctĠ":9657,"ĠyiĠjiĠyiĠ":9658,"ĠyouĠwuĠ":9659,"xiĠjieĠ":9660,"jianĠzhengĠ":9661,"jianĠhuaĠ":9662,"yanĠzouĠ":9663,"ciĠtianĠtiĠ":9664,"ĠpingĠlunĠ":9665,"diĠyiĠjieĠ":9666,"ĠqiuĠduiĠ":9667,"ĠĠĠhuiĠ":9668,"zaoĠyiĠ":9669,"zhuanĠrenĠ":9670,"lunĠjiĠ":9671,"chuangĠshiĠ":9672,"souĠsuoĠ":9673,"xiĠyuanĠ":9674,"geĠshengĠ":9675,"chuĠban":9676,"ĠshiĠyiĠyuanĠ":9677,"zhuĠjiaoĠzuoĠ":9678,"ĠheĠdaoĠquanĠzhangĠ":9679,"Ġ1997":9680,"ĠpiaoĠ":9681,"qiĠshiĠshiĠ":9682,"ĠyouĠleĠ":9683,"xiĠjinĠ":9684,"ĠdiĠdaiĠ":9685,"shangĠyingĠdeĠ":9686,"duĠxingĠ":9687,"zuĠqunĠ":9688,"zhenĠzhengĠdeĠ":9689,"ĠnanĠjingĠ":9690,"junĠshiĠtanĠdingĠ":9691,"keĠliĠmiĠyaĠ":9692,"ĠĠĠgaiĠshuĠ":9693,"ĠzhiĠhuiĠguanĠ":9694,"lingĠxingĠ":9695,"fengĠzhiĠ":9696,"paiĠrenĠ":9697,"fuĠshuĠjiĠ":9698,"quĠfuĠzeĠguanĠxiaĠ":9699,"teĠdingĠdeĠ":9700,"lanĠkaĠ":9701,"naĠgeĠ":9702,"kongĠjun":9703,"ĠjiangĠshuĠ":9704,"yongĠyuĠzhiĠ":9705,"gnĠ":9706,"huĠheĠ":9707,"lieĠjianĠ":9708,"ĠliĠjieĠ":9709,"wuĠranĠ":9710,"ĠdiĠ1Ġ":9711,"xinĠchengĠ":9712,"qianĠmingĠ":9713,"jiuĠbaĠ":9714,"ouĠmengĠ":9715,"meiĠyouĠrenĠheĠ":9716,"siĠchuanĠshengĠ":9717,"zhuanĠyiĠdaoĠ":9718,"81":9719,"ĠcangĠ":9720,"maĠdiĠ":9721,"mentĠĠĠ":9722,"chanĠyuĠ":9723,"chenĠkeĠ":9724,"ĠyiĠminĠ":9725,"ĠzaiĠyingĠguoĠ":9726,"xiaĠtianĠ":9727,"daiĠzhuĠ":9728,"ĠchuĠshengĠ":9729,"gengĠgaoĠ":9730,"3ĠgongĠliĠ":9731,"wenĠhuaĠyiĠchanĠ":9732,"ĠheĠnanĠshengĠ":9733,"anĠhuiĠshengĠ":9734,"5ĠwanĠ":9735,"fangĠyouĠ":9736,"xiaoĠjiĠ":9737,"moĠheĠ":9738,"zeĠerĠshengĠ":9739,"yingĠchaoĠ":9740,"danĠbaiĠzhiĠ":9741,"lingĠxiu":9742,"fanĠmang":9743,"ĠdeĠyiĠyiĠ":9744,"henĠshaoĠ":9745,"ĠguiĠzhouĠ":9746,"zuoĠpinĠzhongĠ":9747,"aĠdeĠ":9748,"Ġjun":9749,"Ġbie":9750,"ĠSe":9751,"yiĠĠĠ":9752,"paiĠweiĠ":9753,"gouĠjianĠ":9754,"00ĠpingĠfangĠqianĠmiĠ":9755,"kuangĠwuĠ":9756,"2019ĠguanĠzhuangĠbingĠduĠ":9757,"ĠshiĠbiĠ":9758,"beiĠhaiĠdaoĠ":9759,"huaĠxianĠ":9760,"gaiĠbian":9761,"wangĠyeĠ":9762,"zongĠeĠweiĠ":9763,"ĠzhuĠzhangĠ":9764,"nvĠshenĠ":9765,"ĠĠĠhuangĠ":9766,"chengĠli":9767,"miĠliĠ":9768,"ĠbuĠdanĠ":9769,"zhanĠfangĠ":9770,"xiaoĠdaoĠ":9771,"luoĠboĠ":9772,"shanĠkouĠ":9773,"paiĠqiuĠ":9774,"1ĠwanĠ":9775,"gongĠgongĠjiaoĠtongĠ":9776,"ĠfanĠerĠ":9777,"lianĠxuĠjuĠ":9778,"eĠluoĠsi":9779,"Ġ1992":9780,"biĠqiĠ":9781,"jingĠfeiĠ":9782,"zhanĠcheĠ":9783,"fenĠhuiĠ":9784,"ĠkeĠdaĠ":9785,"daiĠshuĠ":9786,"ĠjuĠbanĠ":9787,"diĠshiĠsanĠ":9788,"ĠĠĠzhongĠhuaĠrenĠminĠgongĠheĠguoĠ":9789,"Ġbin":9790,"ĠLo":9791,"liĠjieĠ":9792,"ĠĠĠgu":9793,"rin":9794,"qianĠjiĠ":9795,"xuanĠjiĠ":9796,"ĠweiĠboĠ":9797,"buĠnengĠ":9798,"ĠrenĠweiĠshiĠ":9799,"xiangĠyaoĠ":9800,"zhengĠfaĠ":9801,"danĠshengĠ":9802,"liangĠduĠ":9803,"bianĠxieĠ":9804,"huĠnanĠshengĠ":9805,"aoĠdi":9806,"zhuangĠyuanĠ":9807,"ĠjieĠshiĠ":9808,"quĠyiĠhuiĠxuanĠjuĠ":9809,"ĠtunĠqiĠ":9810,"mianĠzhiĠ":9811,"dingĠheĠ":9812,"suĠerĠ":9813,"chiĠzhiĠ":9814,"inu":9815,"ĠliĠwuĠ":9816,"ĠzhongĠshuĠ":9817,"jianĠcha":9818,"sheĠqun":9819,"zhenĠyingĠ":9820,"zhenĠjunĠ":9821,"ĠGĠ":9822,"yuanĠwaiĠlangĠ":9823,"ĠĠĠsaiĠ":9824,"ĠĠĠguanĠyuĠ":9825,"ĠĠĠzheĠgeĠ":9826,"biĠsiĠ":9827,"huiĠliĠshiĠ":9828,"xiaĠdaĠ":9829,"duoĠjiaĠ":9830,"xieĠheĠ":9831,"liuĠyueĠ":9832,"tuoĠsiĠ":9833,"ĠzaiĠqianĠ":9834,"xinĠzang":9835,"tiĠxianĠ":9836,"wangĠlaiĠ":9837,"liangĠzheĠ":9838,"suoĠzhangĠ":9839,"zuiĠjinĠdeĠ":9840,"xunĠluoĠ":9841,"ĠbaoĠluoĠ":9842,"aoĠmen":9843,"ĠtongĠnianĠ12ĠyueĠ":9844,"Ġ18Ġ":9845,"ĠĠĠsuiĠran":9846,"cor":9847,"ĠRa":9848,"Ġ1983ĠnianĠ":9849,"youĠzhiĠwuĠ":9850,"lingĠzhiĠ":9851,"gongĠxueĠyuanĠ":9852,"siĠmaĠ":9853,"dangĠdi":9854,"guangĠpuĠ":9855,"ĠgeĠlunĠ":9856,"ĠjieĠhunĠ":9857,"baoĠkuoĠyiĠxiaĠ":9858,"luoĠmaĠniĠyaĠ":9859,"ĠĠĠPro":9860,"qingĠyuĠ":9861,"fuĠbuĠ":9862,"fangĠkong":9863,"fangĠsongĠ":9864,"caiĠhuiĠ":9865,"chiĠcunĠ":9866,"shuiĠshouĠ":9867,"tuiĠxiu":9868,"ĠwuĠyueĠ":9869,"MS":9870,"niĠxiĠ":9871,"dunĠheĠ":9872,"diaoĠxiangĠ":9873,"69ĠnianĠ":9874,"jingĠbaoĠ":9875,"xunĠhaoĠ":9876,"piĠpanĠ":9877,"ĠerĠrenĠ":9878,"Ġjing":9879,"ĠdiĠyuĠ":9880,"chuĠheĠ":9881,"lesĠĠĠ":9882,"guanĠyouĠ":9883,"shuiĠxianĠ":9884,"ree":9885,"ĠshiĠyingĠ":9886,"shangĠbanĠ":9887,"ĠdaĠxiaoĠ":9888,"dianĠzhanĠ":9889,"muĠbiaoĠshiĠ":9890,"teĠshuĠdeĠ":9891,"yunĠnanĠshengĠ":9892,"jueĠsaiĠzhongĠ":9893,"ĠyuanĠbenĠ":9894,"ĠzuiĠzhongĠyiĠ":9895,"PC":9896,"ĠbeiĠbuĠ":9897,"ĠtuiĠchuĠ":9898,"ĠruiĠ":9899,"ĠĠĠyinĠyueĠ":9900,"gongĠzaiĠ":9901,"liangĠdiĠ":9902,"34ĠnianĠ":9903,"ĠyuĠ18":9904,"ĠtaĠchengĠweiĠ":9905,"ĠdanĠbeiĠ":9906,"ĠshouĠxianĠ":9907,"ĠjingĠchangĠ":9908,"ĠnianĠ4ĠyueĠ1ĠriĠ":9909,"ĠsanĠyueĠ":9910,"5ĠshiĠ":9911,"ĠyaĠliĠ":9912,"ĠxĠ":9913,"ĠzhuĠyouĠ":9914,"zhengĠshiĠdeĠ":9915,"yangĠfuĠ":9916,"manĠdiĠguoĠ":9917,"ĠyouĠdaĠ":9918,"ĠzaiĠxiangĠ":9919,"erĠsiĠ":9920,"zhengĠguiĠ":9921,"junĠtuan":9922,"laiĠwangĠ":9923,"2ĠwanĠ":9924,"ĠyeĠchengĠweiĠ":9925,"ĠshiĠweiĠzheĠ":9926,"ĠyouĠliĠ":9927,"zhuĠtiĠquĠ":9928,"hongĠzhaĠjiĠ":9929,"meiĠzhongĠbuĠshiĠquĠ":9930,"Ġzi":9931,"Ġqiong":9932,"ĠSa":9933,"yangĠqiĠ":9934,"ĠweiĠmingĠ":9935,"chuanĠyuanĠ":9936,"lieĠdianĠ":9937,"ĠgaiĠcunĠ":9938,"ĠĠĠshiĠyiĠ":9939,"lieĠcheĠdeĠ":9940,"9ĠmiĠ":9941,"ĠlieĠcheĠ":9942,"ĠĠĠMi":9943,"ĠĠĠyingĠxiangĠ":9944,"liuĠzhiĠ":9945,"ĠyueĠqiĠ":9946,"chuĠsiĠ":9947,"shenĠyangĠ":9948,"zhenĠxianĠ":9949,"xuanĠzhuanĠ":9950,"paiĠsheĠdeĠ":9951,"ĠCSTĠ":9952,"ĠdangĠxuanĠ":9953,"ĠĠĠSch":9954,"Ġ17Ġ":9955,"Ġ6ĠdiaoĠkuaiĠyiĠxiaoĠshiĠ":9956,"ĠjiĠbeiĠmeiĠzhongĠbuĠshiĠquĠ":9957,"ĠCDTĠ":9958,"byĠĠĠ":9959,"ĠĠĠ2005ĠnianĠ":9960,"huĠliĠ":9961,"guĠheĠ":9962,"bingĠheĠ":9963,"laiĠyiĠ":9964,"dangĠrenĠ":9965,"zhenĠsiĠ":9966,"zhaoĠheĠ":9967,"nongĠliĠ":9968,"paoĠdeĠ":9969,"fouĠjueĠ":9970,"jianĠjinĠ":9971,"wenĠquanĠ":9972,"bingĠyuanĠ":9973,"gaiĠzao":9974,"zuĠqiu":9975,"jiuĠjingĠ":9976,"Ġ1986ĠnianĠ":9977,"ĠĠĠzai":9978,"pingĠjiĠ":9979,"maiĠjiaĠ":9980,"sangĠshengĠ":9981,"ĠyiĠluĠ":9982,"ĠnianĠshiĠjieĠbeiĠ":9983,"shouĠchangĠ":9984,"yeĠxianĠ":9985,"ĠkeĠjianĠ":9986,"ĠgongĠsiĠdeĠ":9987,"zhuanĠyuanĠ":9988,"reĠmenĠ":9989,"Ġ14Ġ":9990,"ĠĠĠbenĠshuĠ":9991,"ĠjiĠtuanĠjunĠ":9992,"ĠdeĠweiĠzhiĠ":9993,"banĠjiangĠdianĠliĠ":9994,"au":9995,"hri":9996,"tuĠyuĠ":9997,"jinĠtianĠ":9998,"zhanĠting":9999,"jiaoĠxingĠ":10000,"huoĠjiangĠ":10001,"luoĠbaiĠ":10002,"ĠdeĠyiĠmingĠ":10003,"aĠboĠ":10004,"tuoĠmaĠsiĠ":10005,"zengĠsheĠ":10006,"nuoĠmanĠdiĠ":10007,"ĠHRĠĠĠ":10008,"fenĠbieĠshiĠ":10009,"aoĠlinĠpiĠkeĠyunĠdongĠ":10010,"aoĠsiĠkaĠ":10011,"yanĠhaiĠshengĠfenĠ":10012,"Ġ1945ĠnianĠ":10013,"endĠ":10014,"xinĠnianĠ":10015,"neiĠzhiĠ":10016,"gengĠmingĠ":10017,"kenĠtaĠjiĠ":10018,"48ĠnianĠ":10019,"wuĠgongĠ":10020,"ĠdaĠpoĠ":10021,"daiĠmuĠ":10022,"ĠjinĠciĠyuĠ":10023,"tingĠcheĠchangĠ":10024,"ĠzheĠchangĠ":10025,"tieĠluĠdeĠ":10026,"ĠNĠ":10027,"5ĠhaoĠ":10028,"8ĠshiĠ":10029,"qingĠzhiĠ":10030,"mengĠxiangĠ":10031,"kanĠjianĠ":10032,"shuaiĠxianĠ":10033,"46ĠnianĠ":10034,"ĠbuĠmanĠ":10035,"chuĠjuĠ":10036,"zhenĠxiangĠ":10037,"waiĠshuĠruĠ":10038,"zhuanĠshuĠ":10039,"jieĠquanĠguoĠzhengĠxieĠweiĠyuanĠ":10040,"ĠĠĠzuoĠ":10041,"ĠĠĠgaiĠdiĠ":10042,"buĠzhiĠdaoĠ":10043,"huoĠjiĠ":10044,"cheĠweiĠ":10045,"menĠzaiĠ":10046,"32ĠnianĠ":10047,"ĠliĠzaiĠ":10048,"fenĠfenĠ":10049,"jiangĠhuĠ":10050,"lanĠzhouĠ":10051,"kongĠlongĠ":10052,"lianĠsaiĠguanĠjunĠ":10053,"ĠhuoĠdeĠyiĠmeiĠ":10054,"ĠmaĠkeĠ":10055,"ĠcheĠxiaoĠ":10056,"2ĠshiĠ":10057,"Ġsheng":10058,"ĠTo":10059,"ĠNa":10060,"ĠzeĠshiĠ":10061,"uni":10062,"bingĠqiĠ":10063,"ĠdeĠqiĠ":10064,"xiĠanĠ":10065,"luĠsaĠ":10066,"wenĠbenĠ":10067,"laiĠyuanĠyuĠ":10068,"cheĠchuĠ":10069,"liuĠchengĠ":10070,"ĠbaoĠchiĠ":10071,"keĠyiĠzhiĠ":10072,"ĠshengĠyaĠ":10073,"ĠzaiĠjiĠ":10074,"ĠxinĠdeĠ":10075,"yuĠshiĠjieĠ":10076,"ĠĠĠ12ĠyueĠ":10077,"zhiĠĠĠ":10078,"erĠliĠ":10079,"banĠheĠ":10080,"pingĠxiĠ":10081,"wanĠyuĠ":10082,"zhuiĠjiĠ":10083,"kunĠmingĠ":10084,"61ĠnianĠ":10085,"ĠzaiĠxiangĠgangĠ":10086,"jiaĠgouĠ":10087,"daoĠdiĠ":10088,"ziĠnvĠ":10089,"fenĠzuĠ":10090,"ĠfuĠbuĠ":10091,"jiuĠlong":10092,"woĠlunĠ":10093,"ĠerĠyuĠ":10094,"hunĠluanĠ":10095,"aĠerĠbaĠ":10096,"Ġ13Ġ":10097,"71":10098,"ZĠ":10099,"Ġ1993":10100,"ĠgeĠrenĠ":10101,"zhouĠxiĠ":10102,"liuĠjiĠ":10103,"leiĠerĠ":10104,"ĠzaiĠfaĠguoĠ":10105,"faĠyanĠ":10106,"shuiĠjingĠ":10107,"liĠyaĠ":10108,"liĠnuoĠyiĠ":10109,"Ġ1950ĠnianĠ":10110,"yinĠyiĠ":10111,"meiĠjiĠ":10112,"woĠsiĠ":10113,"beiĠjieĠ":10114,"dongĠtaiĠ":10115,"zuiĠduo":10116,"zongĠgongĠ":10117,"kouĠhaoĠ":10118,"eĠwaiĠ":10119,"ĠciĠkeĠ":10120,"ĠdaĠweiĠ":10121,"Ġliao":10122,"ĠAr":10123,"Ġ1920ĠnianĠ":10124,"dianĠliĠjiĠ":10125,"zhouĠdaĠxueĠ":10126,"laĠshiĠ":10127,"touĠshiĠ":10128,"xingĠxiĠ":10129,"jingĠxiangĠ":10130,"yeĠmeiĠyouĠ":10131,"Ġ1987ĠnianĠ":10132,"diu":10133,"quĠweiĠyuĠ":10134,"liuĠjiaĠ":10135,"douĠyiĠ":10136,"rongĠweiĠ":10137,"36ĠnianĠ":10138,"39ĠnianĠ":10139,"ĠrenĠtongĠ":10140,"erĠyanĠ":10141,"ĠyueĠguoĠ":10142,"keĠlaiĠ":10143,"quĠdeĠfuĠzeĠguanĠxiaĠ":10144,"ĠzuĠchengĠ":10145,"Ġ20ĠshiĠjiĠ":10146,"aiĠsiĠ":10147,"haiĠweiĠ":10148,"quanĠyuĠ":10149,"poĠdeĠ":10150,"ĠyouĠzhengĠ":10151,"huiĠdaoĠzhiĠ":10152,"chuĠshengĠzaiĠ":10153,"shuĠjiaĠ":10154,"shuĠxieĠ":10155,"ĠdaĠniĠ":10156,"xinĠbeiĠshiĠ":10157,"zuĠgouĠ":10158,"bianĠquĠ":10159,"maĠdingĠ":10160,"baĠbaĠ":10161,"ĠgaiĠjianĠ":10162,"seĠqingĠ":10163,"ĠqingĠhuaĠ":10164,"lvĠkeĠtieĠdaoĠ":10165,"Net":10166,"ĠBa":10167,"ĠĠĠshaĠ":10168,"ĠĠĠlingĠyiĠ":10169,"ĠĠĠteĠzhengĠ":10170,"jiaoĠzhongĠ":10171,"dianĠzhiĠ":10172,"quanĠheĠ":10173,"chuanĠjiaĠ":10174,"lunĠyuĠ":10175,"ĠweiĠfanĠ":10176,"guoĠwuĠ":10177,"ĠqiĠbuĠ":10178,"taiĠyuanĠ":10179,"danĠmai":10180,"muĠfuĠ":10181,"ĠgaiĠzhuangĠ":10182,"qiangĠlieĠdeĠ":10183,"ĠwuĠkeĠlan":10184,"xunĠhuiĠsaiĠ":10185,"Ġchai":10186,"Ġ1991":10187,"huoĠqiĠtaĠ":10188,"xuĠyuĠ":10189,"qinĠdeĠ":10190,"31ĠnianĠ":10191,"ĠbuĠlunĠ":10192,"mingĠeĠ":10193,"gaiĠliangĠ":10194,"qiuĠduiĠdeĠ":10195,"ĠwuĠziĠ":10196,"ĠtaĠerĠ":10197,"ĠfaĠyuanĠ":10198,"ĠdongĠfangĠ":10199,"henĠkuai":10200,"keĠnengĠdeĠ":10201,"PlaySta":10202,"ĠlianĠheĠguoĠ":10203,"ĠĠĠyinĠweiĠ":10204,"zhiĠshiĠyongĠ":10205,"muĠweiĠ":10206,"paiĠxiĠ":10207,"45ĠnianĠ":10208,"ĠshiĠfou":10209,"gongĠxiangĠ":10210,"ĠqiĠzhuĠ":10211,"jinĠdaiĠ":10212,"shangĠsuoĠ":10213,"ĠgongĠzhuĠ":10214,"zhuanĠhuiĠ":10215,"peiĠjueĠ":10216,"ĠerĠyueĠ":10217,"gongĠheĠguoĠdeĠ":10218,"ĠIĠ":10219,"91":10220,"yuanĠrenĠminĠbiĠ":10221,"xiaoĠzhongĠ":10222,"wanĠzaiĠ":10223,"dingĠyouĠ":10224,"ĠshiĠyongĠdeĠ":10225,"ĠqiĠtaĠdeĠ":10226,"ĠmingĠchengĠ":10227,"taĠmenĠzaiĠ":10228,"hunĠningĠtuĠ":10229,"SM":10230,"boĠxiĠ":10231,"suoĠjiĠ":10232,"tuĠxiĠ":10233,"ceĠweiĠ":10234,"pianĠyuĠ":10235,"zhongĠyaoĠdeĠ":10236,"gongĠye":10237,"jieĠdianĠ":10238,"zhengĠsiĠ":10239,"jiaoĠshaoĠ":10240,"ĠkeĠlinĠ":10241,"lianĠboĠ":10242,"zhouĠmoĠ":10243,"ĠyingĠcunĠ":10244,"ĠfouĠzeĠ":10245,"IG":10246,"Ġh":10247,"Ġwai":10248,"ĠhuaiĠ":10249,"ĠĠĠRo":10250,"ĠĠĠ4Ġ":10251,"lingĠyouĠ":10252,"diĠdiĠ":10253,"daoĠqiĠ":10254,"qianĠshuiĠ":10255,"kaiĠyeĠ":10256,"baĠgongĠ":10257,"xingĠzhengĠquĠyuĠ":10258,"Ġ1978ĠnianĠ":10259,"anĠyuĠ":10260,"ĠĠĠ2023ĠnianĠ":10261,"kouĠyuĠ":10262,"xiuĠxiĠ":10263,"kunĠchongĠ":10264,"ĠyouĠbaoĠ":10265,"keĠhuĠ":10266,"shouĠjieĠ":10267,"mingĠshengĠ":10268,"ĠdaĠdianĠ":10269,"xinĠxinĠ":10270,"bingĠtuanĠ":10271,"maĠchangĠ":10272,"ĠxiangĠduiĠ":10273,"huanĠqiuĠ":10274,"enĠlaiĠ":10275,"fuĠjianĠshengĠ":10276,"ĠqiĠxiĠzaiĠdiĠ":10277,"Äģ":10278,"Ġ1982ĠnianĠ":10279,"shanĠzhiĠ":10280,"haĠfuĠ":10281,"gongĠdangĠ":10282,"xiangĠmuĠdeĠ":10283,"beiĠceĠ":10284,"leĠziĠjiĠdeĠ":10285,"nanĠzhuĠjueĠ":10286,"zuiĠhouĠdeĠ":10287,"guĠchengĠ":10288,"suĠzhouĠ":10289,"ĠshiĠyiĠyueĠ":10290,"moĠtuoĠ":10291,"ĠdeĠshiĠyanĠ":10292,"ĠjieĠzhuĠ":10293,"liĠchangĠ":10294,"ĠnanĠxingĠ":10295,"ĠjiĠqiĠrenĠ":10296,"ĠĠĠweiĠyuĠ":10297,"ĠbanĠbenĠ":10298,"dongĠnanĠyaĠ":10299,"tianĠwenĠxueĠjiaĠ":10300,"ĠxinĠjiaĠpoĠ":10301,"IL":10302,"ff":10303,"Ġ1958ĠnianĠ":10304,"ĠĠĠre":10305,"ĠĠĠxuĠ":10306,"yingĠzaiĠ":10307,"zuoĠweiĠyuĠ":10308,"jiuĠbuĠ":10309,"ĠyiĠkaiĠshiĠ":10310,"ĠliĠxingĠ":10311,"wuĠdingĠ":10312,"ĠxiĠlieĠdeĠ":10313,"xinĠyongĠ":10314,"jiangĠzuoĠ":10315,"ĠdanĠbaiĠ":10316,"puĠsheĠ":10317,"ĠmeiĠtiĠ":10318,"Ġteng":10319,"huiĠqiĠ":10320,"haiĠheĠ":10321,"lunĠheĠ":10322,"wuĠjianĠ":10323,"chengĠnuoĠ":10324,"beiĠgaoĠ":10325,"zhanĠkai":10326,"yinĠmouĠ":10327,"banĠyan":10328,"ĠgongĠchanĠ":10329,"xunĠwenĠ":10330,"canĠzhengĠ":10331,"luoĠdiĠyaĠ":10332,"zhongĠguoĠrenĠminĠjieĠfangĠjunĠ":10333,"ĠniĠkeĠ":10334,"xiĠrenĠ":10335,"huaĠyouĠ":10336,"saiĠheĠ":10337,"gangĠshiĠ":10338,"kuanĠdeĠ":10339,"chuanĠtong":10340,"ĠdanĠmeiĠyouĠ":10341,"ouĠmeng":10342,"4ĠĠĠ":10343,"sheĠweiĠ":10344,"zhenĠxingĠ":10345,"liuĠrenĠ":10346,"log":10347,"buĠshaoĠ":10348,"beiĠfuĠ":10349,"ziĠfuĠ":10350,"ĠdiĠtie":10351,"yinĠxingĠ":10352,"changĠguiĠ":10353,"dianĠxingĠ":10354,"benĠjieĠ":10355,"zongĠmianĠjiĠ":10356,"huanĠguanĠ":10357,"ĠbingĠzhiĠ":10358,"US":10359,"aĠbuĠ":10360,"cti":10361,"ĠBe":10362,"ĠzengĠjiaĠ":10363,"ĠruiĠdianĠ":10364,"suanĠyanĠ":10365,"diĠbaĠ":10366,"juĠzhenĠ":10367,"yingĠbiĠ":10368,"guiĠgeĠ":10369,"ĠshiĠjiĠzhiĠ":10370,"ĠxiaĠwuĠ":10371,"ĠbenĠjieĠ":10372,"cuan":10373,"mer":10374,"ĠBi":10375,"ĠĠĠ13":10376,"guĠyuĠ":10377,"luĠqiĠ":10378,"baĠbuĠ":10379,"nvĠshiĠ":10380,"ĠyiĠdaoĠ":10381,"dongĠhaiĠ":10382,"gaiĠshuĠ":10383,"boĠgenĠdiĠ":10384,"dengĠdaiĠ":10385,"puĠlaĠ":10386,"moĠteĠerĠ":10387,"ĠdeĠshiĠqiĠ":10388,"ceĠhuaĠ":10389,"ĠAn":10390,"colspanĠ":10391,"ES":10392,"ub":10393,"ĠĠĠyingĠguoĠ":10394,"bingĠrenĠ":10395,"zhouĠzhongĠ":10396,"lanĠdaĠ":10397,"queĠliĠ":10398,"ciĠxingĠ":10399,"yingĠjieĠ":10400,"xiaĠxunĠ":10401,"shuiĠku":10402,"tanĠpan":10403,"ĠĠĠRi":10404,"crosof":10405,"ĠÙ":10406,"ĠwuĠshiĠ":10407,"ĠjuanĠ":10408,"zaiĠshiĠjieĠ":10409,"yuanĠyiĠyuanĠ":10410,"fangĠzhongĠ":10411,"zuĠliĠ":10412,"tuĠheĠ":10413,"manĠyuĠ":10414,"ĠshiĠyingĠguoĠ":10415,"yuanĠdiĠ":10416,"jianĠleĠ":10417,"ĠguoĠdaoĠ":10418,"wuĠchuĠ":10419,"gaoĠcengĠ":10420,"yangĠzhouĠ":10421,"moĠteĠ":10422,"eĠtuĠ":10423,"ĠyiĠjiĠyuĠ":10424,"ĠdeĠjiĠzaiĠ":10425,"ĠzaiĠweiĠ":10426,"changĠweiĠhuiĠ":10427,"Ġti":10428,"huaĠbuĠ":10429,"boĠfuĠ":10430,"dingĠbuĠ":10431,"lvĠdiĠ":10432,"guangĠfuĠ":10433,"rouĠshiĠxingĠ":10434,"43ĠnianĠ":10435,"jieĠfuĠ":10436,"faĠshengĠyuĠ":10437,"shangĠxiaoĠ":10438,"dongĠluĠ":10439,"jingĠnei":10440,"cheĠshouĠ":10441,"caiĠdingĠ":10442,"linĠnaĠ":10443,"ĠdeĠguoĠchengĠzhongĠ":10444,"faĠlanĠxiĠdaĠquĠ":10445,"Ġjuan":10446,"Ġ1995":10447,"ĠĠĠ1949":10448,"bingĠzhiĠ":10449,"sheĠheĠ":10450,"muĠqiĠ":10451,"lingĠjiĠ":10452,"33ĠnianĠ":10453,"Faceboo":10454,"ĠyiĠnanĠ":10455,"weiĠyuanĠhuiĠ":10456,"ĠliĠxiangĠ":10457,"qiĠxiangĠ":10458,"gongĠsiĠyuĠ":10459,"taĠbeiĠ":10460,"ĠsiĠtanĠ":10461,"zhangĠwoĠ":10462,"shaoĠliangĠ":10463,"gongĠzuoĠzheĠ":10464,"nongĠcunĠ":10465,"ĠweiĠfuĠshuĠjiĠ":10466,"hangĠkongĠmuĠjianĠ":10467,"biaoĠzhunĠdeĠ":10468,"ĠTe":10469,"ĠhaiĠshiĠ":10470,"ĠjunĠzaiĠ":10471,"jingĠrenĠ":10472,"bingĠjiĠ":10473,"lieĠdiĠ":10474,"qiaoĠchuĠ":10475,"44ĠnianĠ":10476,"42Ġ":10477,"xiaĠxiaĠyiĠxiaĠdiĠquĠ":10478,"bianĠruĠ":10479,"ĠjinĠriĠ":10480,"ĠnianĠ10ĠyueĠ1ĠriĠ":10481,"ĠduoĠmingĠ":10482,"shengĠhuoĠzaiĠ":10483,"Ġzui":10484,"ĠĠĠ14":10485,"ĠĠĠ2004":10486,"xianĠshiĠdeĠ":10487,"luĠyouĠ":10488,"10ĠgeĠ":10489,"douĠzhiĠ":10490,"âĢĭ":10491,"ĠdeĠdeĠ":10492,"ĠliĠchangĠ":10493,"xingĠchengĠdeĠ":10494,"wuĠsuoĠ":10495,"chengĠqiĠ":10496,"ziĠmeiĠ":10497,"ĠqiĠzhongĠdeĠ":10498,"xueĠyuan":10499,"jiangĠhuaĠ":10500,"ĠziĠdongĠ":10501,"Ġá":10502,"ĠrenĠzhiĠ":10503,"anĠxiĠ":10504,"taĠbuĠ":10505,"sheĠxingĠ":10506,"taiĠdiĠ":10507,"paoĠbingĠ":10508,"jieĠmeiĠ":10509,"ĠqiĠdiĠ":10510,"junĠfangĠ":10511,"biĠhuaĠ":10512,"puĠleiĠ":10513,"chanĠliangĠ":10514,"zhuanĠboĠ":10515,"9ĠgeĠ":10516,"EE":10517,"Ġn":10518,"Ġ1980ĠnianĠ":10519,"ĠĠĠ2004ĠnianĠ":10520,"suoĠfuĠ":10521,"tuĠweiĠ":10522,"nvĠgeĠshouĠ":10523,"ĠshiĠyinĠduĠ":10524,"wanĠyanĠ":10525,"sanĠxiangĠ":10526,"guangĠzhouĠshiĠ":10527,"gengĠhuanĠ":10528,"chuangĠzuo":10529,"yiĠdeĠdaoĠ":10530,"ĠaiĠdeĠ":10531,"ĠbeiĠqiĠshunĠshiĠzhenĠyuĠ":10532,"AG":10533,"Ġ1989":10534,"ĠXĠ":10535,"ĠĠĠshuiĠ":10536,"dianĠweiĠyuĠ":10537,"quanĠshiĠjieĠ":10538,"duoĠyiĠ":10539,"qiuĠyuĠ":10540,"zhuangĠyouĠ":10541,"12ĠgeĠ":10542,"shuĠfuĠ":10543,"tongĠhuaĠ":10544,"guanĠyinĠ":10545,"xiaĠweiĠyiĠ":10546,"ĠruĠjinĠ":10547,"NC":10548,"Uni":10549,"Ġcen":10550,"ĠhunĠ":10551,"muĠyiĠ":10552,"jiuĠjiĠ":10553,"niĠdaĠquĠ":10554,"gouĠwuĠ":10555,"ĠguoĠmin":10556,"ĠguoĠfangĠbuĠ":10557,"keĠhuanĠ":10558,"xiangĠqianĠ":10559,"lunĠshuĠ":10560,"pinĠfanĠ":10561,"piĠping":10562,"xiĠbanĠya":10563,"ĠniuĠyueĠshiĠ":10564,"5ĠmingĠ":10565,"ĠyongĠyiĠ":10566,"paiĠjiĠ":10567,"canĠjiĠrenĠ":10568,"zhaoĠdeĠ":10569,"ĠzhiĠheĠ":10570,"youĠtaiĠrenĠ":10571,"jiangĠxianĠ":10572,"duĠchaĠ":10573,"haiĠguanĠ":10574,"meiĠshuĠguanĠ":10575,"tianĠranĠ":10576,"tianĠjinĠshiĠ":10577,"fanĠdui":10578,"xuanĠpiaoĠ":10579,"ĠhongĠzha":10580,"chaoĠjiĠlianĠsaiĠ":10581,"ĠdongĠxiĠ":10582,"Ġ22Ġ":10583,"ĠĠĠ2003":10584,"ĠĠĠMe":10585,"tongĠrenĠ":10586,"boĠyuĠ":10587,"nuoĠbeiĠerĠ":10588,"naiĠerĠ":10589,"ĠshiĠchuĠ":10590,"zhanĠfuĠ":10591,"jiangĠzhangĠ":10592,"yaĠdianĠ":10593,"ĠtaĠzhiĠ":10594,"renĠweiĠyuanĠ":10595,"ĠduoĠgeĠ":10596,"mingĠniĠsuĠdaĠ":10597,"liĠyouĠ":10598,"qingĠweiĠ":10599,"47ĠnianĠ":10600,"yuanĠshouĠ":10601,"gongĠqingĠ":10602,"jianĠxiaoĠ":10603,"wuĠfuĠ":10604,"luoĠmenĠ":10605,"zuiĠchuĠdeĠ":10606,"chuanĠxianĠ":10607,"ĠgongĠchangĠ":10608,"guangĠxuĠ":10609,"ĠzhuĠsaiĠ":10610,"ĠzuiĠzhongĠzaiĠ":10611,"ĠtaĠcengĠdaiĠbiao":10612,"4ĠhaoĠ":10613,"Ġkui":10614,"wuĠzhongĠxinĠ":10615,"jiangĠweiĠwuĠerĠ":10616,"170":10617,"chunĠjiĠ":10618,"66ĠnianĠ":10619,"zhengĠlunĠ":10620,"shangĠfaĠlanĠxiĠdaĠquĠ":10621,"baoĠluĠ":10622,"fenĠkaiĠ":10623,"biĠciĠ":10624,"ĠbingĠhuoĠdeĠ":10625,"ĠtianĠwenĠ":10626,"ĠgaoĠsuĠ":10627,"Ki":10628,"Ġshuo":10629,"ĠjunĠweiĠ":10630,"huĠrenĠ":10631,"xuĠjiaĠ":10632,"zhongĠdaĠ":10633,"ĠliĠjiaĠ":10634,"ĠguoĠanĠ":10635,"yingĠshuĠ":10636,"guanĠjieĠ":10637,"ĠdaĠgongĠ":10638,"xinĠxianĠ":10639,"jiaoĠduoĠ":10640,"chongĠfenĠ":10641,"canĠyanĠ":10642,"ĠzhanĠdou":10643,"ĠsuiĠyiĠ":10644,"renĠshiĠdeĠ":10645,"quĠdeĠyiĠ":10646,"meiĠrenĠ":10647,"shuiĠxiĠ":10648,"hongĠshiĠziĠ":10649,"ghtĠ":10650,"qiĠyongĠ":10651,"shangĠchuanĠ":10652,"yingĠsheĠ":10653,"xinĠhuaĠ":10654,"jiaoĠtong":10655,"junĠzhangĠ":10656,"yaĠchiĠ":10657,"tuĠluĠ":10658,"tuiĠchu":10659,"zhunĠqueĠ":10660,"ĠmaĠerĠ":10661,"faĠbiaoĠleĠ":10662,"ea":10663,"ĠchaoĠjiĠ":10664,"aiĠziĠ":10665,"ĠĠĠ188":10666,"biĠzhiĠ":10667,"yanĠweiĠ":10668,"baoĠzhongĠ":10669,"duĠyouĠ":10670,"laiĠjiĠ":10671,"banĠyouĠ":10672,"gaoĠweiĠ":10673,"1500":10674,"sunĠhaiĠ":10675,"chouĠkeĠ":10676,"zhiĠzuoĠ":10677,"beiĠsongĠ":10678,"ĠxiĠlanĠ":10679,"zhanĠduiĠ":10680,"zhanĠqianĠ":10681,"taiĠnanĠshiĠ":10682,"xiaĠbanĠ":10683,"nanĠceĠ":10684,"ĠzhiĠchiĠzheĠ":10685,"Ġm":10686,"ĠĠĠta":10687,"ĠĠĠPa":10688,"meiĠyuĠ":10689,"xiaĠheĠ":10690,"gaiĠdeĠ":10691,"caiĠfuĠ":10692,"huanĠyouĠ":10693,"53ĠnianĠ":10694,"ĠbuĠxingĠ":10695,"wangĠfanĠ":10696,"1ĠmianĠ":10697,"xiaoĠshiĠhouĠ":10698,"ĠRi":10699,"guiĠdaoĠjiaoĠtongĠ":10700,"xianĠdaiĠhuaĠ":10701,"dianĠqiĠhuaĠ":10702,"ĠĠĠsuĠ":10703,"fenĠheĠ":10704,"muĠyouĠ":10705,"xuĠzhiĠ":10706,"qiuĠxingĠ":10707,"lanĠqiĠ":10708,"ĠshiĠmiĠ":10709,"ĠdiĠ2Ġ":10710,"taiĠzhongĠshiĠ":10711,"wangĠchaoĠdeĠ":10712,"luoĠhouĠ":10713,"neiĠzhengĠbuĠ":10714,"3ĠwanĠ":10715,"yste":10716,"ĠĠĠma":10717,"daoĠyiĠgeĠ":10718,"huoĠzhiĠ":10719,"taiĠzhiĠ":10720,"fuĠmianĠ":10721,"ĠguoĠjiaĠjiĠ":10722,"chuĠkou":10723,"muĠhanĠmoĠdeĠ":10724,"liangĠhaoĠdeĠ":10725,"bianĠgengĠ":10726,"ĠzheĠxiangĠ":10727,"ĠgaiĠwuĠzhongĠdeĠ":10728,"peiĠxun":10729,"zhengĠfuĠheĠ":10730,"shengĠwuĠxueĠ":10731,"sanĠjiaoĠxingĠ":10732,"UC":10733,"Ġjian":10734,"ĠchuanĠtongĠ":10735,"ueĠ":10736,"leĠliĠ":10737,"dianĠzaiĠ":10738,"gaoĠliĠ":10739,"ĠshiĠmiĠsiĠ":10740,"ĠyiĠziĠ":10741,"shouĠyingĠ":10742,"shouĠqiangĠ":10743,"fenĠbianĠ":10744,"pingĠxianĠ":10745,"danĠmaiĠ":10746,"ĠfuĠmuĠ":10747,"wanĠshanĠ":10748,"hongĠshuiĠ":10749,"wuĠliĠxueĠjiaĠ":10750,"dongĠbuĠdaĠquĠ":10751,"aĠjiĠtan":10752,"4000":10753,"cal":10754,"tra":10755,"Ġ1985":10756,"ĠfuĠzhiĠ":10757,"dio":10758,"huiĠshiĠyongĠ":10759,"jiangĠdaĠ":10760,"duĠzhongĠ":10761,"lieĠtaĠ":10762,"ruiĠkeĠ":10763,"42ĠnianĠ":10764,"xingĠshengĠ":10765,"jianĠjiaoĠ":10766,"wuĠyeĠ":10767,"yanĠhuĠ":10768,"ĠdaĠzhengĠ":10769,"gaoĠxiongĠ":10770,"lingĠshouĠ":10771,"guĠgeĠ":10772,"ĠzhuĠyanĠ":10773,"ĠtongĠnianĠ10ĠyueĠ":10774,"ĠmaĠdingĠ":10775,"niuĠyueĠzhouĠ":10776,"faĠxianĠleĠciĠtianĠtiĠ":10777,"ĠkuangĠ":10778,"qiĠyiĠzhiĠ":10779,"liangĠkeĠ":10780,"chenĠshiĠ":10781,"bangĠdanĠ":10782,"ghtĠĠĠ":10783,"buĠluĠ":10784,"gongĠbuĠdeĠ":10785,"jieĠmianĠ":10786,"chuĠruĠ":10787,"tongĠchengĠ":10788,"zheĠchangĠ":10789,"taiĠyinĠ":10790,"dianĠluĠ":10791,"banĠdianĠ":10792,"zongĠtiĠ":10793,"chuanĠjiaoĠshiĠ":10794,"qinĠfanĠ":10795,"miaoĠxieĠ":10796,"ĠzhenĠduiĠ":10797,"ĠchaoĠtingĠ":10798,"ĠleiĠsiĠ":10799,"ĠĠĠtong":10800,"youĠĠĠ":10801,"huĠjiĠ":10802,"daoĠzhongĠguoĠ":10803,"ruĠzhiĠ":10804,"kaiĠxingĠ":10805,"hengĠdeĠ":10806,"diĠzhenĠ":10807,"huiĠshouĠ":10808,"yeĠtiĠ":10809,"guanĠkan":10810,"junĠdui":10811,"saiĠtingĠ":10812,"2ĠgongĠliĠ":10813,"tuoĠleiĠ":10814,"ĠguangĠzhouĠ":10815,"GB":10816,"Ġtie":10817,"Ġin":10818,"ĠxiangĠshiĠ":10819,"geĠyue":10820,"shuĠdeĠyiĠzhongĠ":10821,"dianĠzhongĠ":10822,"liangĠzaiĠ":10823,"linĠheĠ":10824,"lunĠzhongĠ":10825,"daĠxiĠ":10826,"xingĠmingĠ":10827,"jianĠjianĠ":10828,"wuĠjiaĠ":10829,"xiangĠcunĠ":10830,"houĠzheĠ":10831,"dongĠwuĠdeĠ":10832,"qianĠfengĠ":10833,"taiĠyang":10834,"zuĠgouĠdeĠ":10835,"gaoĠfengĠ":10836,"luoĠniĠ":10837,"biaoĠtiĠ":10838,"kaiĠboĠ":10839,"ĠxiangĠbiĠ":10840,"zhuanĠmen":10841,"ĠzhanĠzhengĠ":10842,"ĠbuĠguoĠzaiĠ":10843,"ĠaĠerĠbeiĠsiĠ":10844,"BBC":10845,"ĠlouĠ":10846,"gaiĠjiĠ":10847,"zhenĠzhongĠ":10848,"saiĠyuĠ":10849,"niuĠjinĠ":10850,"ĠshiĠyinĠweiĠ":10851,"wenĠdaiĠ":10852,"qingĠhaiĠ":10853,"sheĠzhiĠdeĠ":10854,"zhenĠchaĠ":10855,"lingĠduiĠ":10856,"zhaoĠmuĠ":10857,"shaoĠhuiĠ":10858,"ĠgongĠyuanĠqianĠ":10859,"anĠbuĠ":10860,"ĠĠĠjiaoĠ":10861,"ĠĠĠpingĠ":10862,"xingĠdeĠshiĠ":10863,"yaoĠzhiĠ":10864,"tingĠzaiĠ":10865,"guangĠdaĠ":10866,"ĠyiĠshouĠ":10867,"gongĠshuĠ":10868,"ĠdiĠchuĠ":10869,"zhanĠsiĠ":10870,"yingĠjiuĠ":10871,"liangĠtiaoĠ":10872,"shenĠyuanĠ":10873,"xuĠniĠ":10874,"caiĠneng":10875,"ĠyouĠweiĠ":10876,"ĠgaiĠjiĠ":10877,"pingĠlunĠjiaĠ":10878,"ĠhouĠzaiĠ":10879,"nianĠjianĠ":10880,"boĠliĠyaĠ":10881,"pianĠshiĠ":10882,"ningĠxianĠ":10883,"ĠzaiĠgeĠ":10884,"ĠbuĠshouĠ":10885,"shuĠniuĠ":10886,"zhengĠjianĠ":10887,"yangĠguangĠ":10888,"fanĠdianĠ":10889,"niĠguĠlaĠ":10890,"linĠjinĠdeĠ":10891,"ĠgeĠsiĠ":10892,"jieĠshouĠleĠ":10893,"Ġ000ĠmingĠ":10894,"zhuĠshiĠhuiĠsheĠ":10895,"TA":10896,"ĠzouĠ":10897,"ĠruiĠshiĠ":10898,"ĠĠĠDe":10899,"changĠzhongĠ":10900,"gaiĠdiĠquĠ":10901,"saiĠshiĠzhongĠ":10902,"fengĠxingĠ":10903,"moĠzhiĠ":10904,"pianĠyiĠ":10905,"56ĠnianĠ":10906,"ĠzaiĠxianĠ":10907,"huiĠquĠ":10908,"yaĠsuoĠ":10909,"bianĠjiangĠ":10910,"fanĠkangĠ":10911,"ĠyuanĠyinĠ":10912,"xianĠdeĠchengĠshiĠ":10913,"caoĠanĠ":10914,"ĠyouĠxianĠgongĠsi":10915,"ĠjinĠxingĠleĠ":10916,"aiĠerĠlan":10917,"ĠĠĠNo":10918,"Ġzun":10919,"ĠĠĠY":10920,"ĠĠĠbiĠsaiĠ":10921,"zhengĠzhongĠ":10922,"miĠrenĠ":10923,"gaiĠyiĠ":10924,"bangĠjiaĠ":10925,"mouĠgeĠ":10926,"ĠdeĠerĠ":10927,"ĠweiĠguoĠ":10928,"siĠzhangĠ":10929,"wuĠjuĠ":10930,"zhuĠming":10931,"ĠqiĠyuanĠ":10932,"shuĠbaiĠ":10933,"shouĠpiao":10934,"duĠteĠ":10935,"ĠkeĠyiĠshiĠ":10936,"zuĠzhangĠ":10937,"fanĠzui":10938,"baĠmianĠ":10939,"chuanĠshangĠ":10940,"chanĠsheng":10941,"ĠqiĠzhongĠbaoĠkuo":10942,"jieĠyiĠchanĠ":10943,"ĠĠĠsuoĠ":10944,"ĠĠĠminĠguoĠ":10945,"38Ġ":10946,"beginĠ":10947,"jingĠjieĠ":10948,"lianĠshuĠ":10949,"anĠdongĠniĠ":10950,"zuiĠxinĠ":10951,"xuanĠbaĠ":10952,"ĠdanĠyinĠweiĠ":10953,"ĠzhuĠtiĠ":10954,"haĠlaĠ":10955,"ĠĠĠPar":10956,"KB48":10957,"ali":10958,"ĠĠĠduoĠ":10959,"ĠĠĠ2ĠyueĠ":10960,"juĠdiĠ":10961,"liuĠheĠ":10962,"chuangĠyiĠ":10963,"tuoĠdeĠ":10964,"tunĠmenĠ":10965,"yuanĠchuangĠ":10966,"wuĠmingĠ":10967,"yeĠkeĠ":10968,"meiĠyou":10969,"jueĠsaiĠdeĠ":10970,"linĠxianĠ":10971,"1ĠgongĠliĠ":10972,"ĠjingĠwaiĠshuĠruĠ":10973,"ĠĠĠshiĠjianĠ":10974,"ĠzaiĠzhiĠ":10975,"ĠbeiĠweiĠ":10976,"ĠdeĠzhongĠyaoĠ":10977,"zongĠyiĠjieĠmuĠ":10978,"ĠSAOĠĠĠ":10979,"dianĠziĠyouĠxiĠ":10980,"yleĠ":10981,"shĠ":10982,"duiĠrenĠ":10983,"yongĠweiĠ":10984,"kuaĠyueĠ":10985,"umĠ":10986,"xingĠhaoĠ":10987,"fuĠhuoĠ":10988,"yingĠbangĠ":10989,"ruĠxuan":10990,"fanĠxiangĠ":10991,"fanĠsheĠ":10992,"ĠdangĠnianĠ":10993,"kaoĠruĠ":10994,"leĠyiĠzhongĠ":10995,"ĠjinĠzhiĠ":10996,"ĠdeĠjiĠchuĠshangĠ":10997,"Ġf":10998,"Ġ57":10999,"ĠyuanĠweiĠ":11000,"ĠĠĠ1ĠyueĠ":11001,"tiĠzaiĠ":11002,"nengĠliĠdeĠ":11003,"geiĠshiĠzhongĠ":11004,"shuaiĠjunĠ":11005,"ĠyiĠfangĠ":11006,"heĠfaĠ":11007,"ĠyouĠhuiĠ":11008,"daĠbaiĠ":11009,"wuĠluĠ":11010,"beiĠshaĠ":11011,"ĠqiĠxiaĠdeĠ":11012,"luĠxingĠmuĠ":11013,"xiaoĠhaoĠ":11014,"lieĠru":11015,"touĠmingĠ":11016,"saĠmoĠ":11017,"ĠbaĠxiĠ":11018,"liaoĠningĠshengĠ":11019,"pro":11020,"Ġne":11021,"ĠgeĠliĠ":11022,"bianĠbuĠ":11023,"saiĠsiĠ":11024,"cunĠheĠ":11025,"beiĠgeĠ":11026,"jiaoĠxiangĠ":11027,"xiaoĠchuĠ":11028,"daiĠxieĠ":11029,"bianĠlunĠ":11030,"guĠyongĠ":11031,"2ĠmianĠ":11032,"ĠshangĠhai":11033,"7ĠgongĠliĠ":11034,"wuĠxianĠdianĠ":11035,"zuiĠhouĠyiĠciĠ":11036,"ĠtianĠqiĠ":11037,"ĠsectionĠĠĠbeginĠ":11038,"touĠruĠshiĠyongĠ":11039,"ĠzhiĠdeĠ":11040,"aiĠliĠsiĠ":11041,"ĠĠĠzheĠxieĠ":11042,"ĠĠĠaĠĠĠ":11043,"keĠbuĠ":11044,"lesĠ":11045,"xiaoĠshiĠdeĠ":11046,"yongĠliĠ":11047,"leiĠxiĠ":11048,"leiĠkeĠ":11049,"caoĠyuanĠ":11050,"xiĠhuanĠ":11051,"erĠyuanĠ":11052,"shangĠhuiĠ":11053,"jingĠchengĠ":11054,"junĠwangĠ":11055,"ĠjinĠtianĠ":11056,"ĠjianĠzaoĠ":11057,"zeĠrenĠweiĠ":11058,"ĠchengĠduĠ":11059,"aiĠshaĠ":11060,"ĠyiĠzhiĠweiĠ":11061,"ĠzaiĠciĠqiĠjianĠ":11062,"5ĠĠĠ":11063,"UR":11064,"Ġchou":11065,"beiĠyouĠ":11066,"nanĠweiĠ":11067,"suoĠheĠ":11068,"guiĠyuĠ":11069,"jinĠshenĠ":11070,"quĠchuĠ":11071,"ĠdaĠtongĠ":11072,"daiĠzheĠ":11073,"nanĠxiaĠ":11074,"teĠgongĠ":11075,"bianĠliangĠ":11076,"feiĠzhou":11077,"meiĠguoĠguoĠjiaĠ":11078,"ĠchengĠxianĠ":11079,"panĠduanĠ":11080,"tuiĠceĠ":11081,"ĠjiuĠyueĠ":11082,"ĠdaiĠmaĠweiĠ0":11083,"Ġ98":11084,"sto":11085,"ĠyiĠlangĠ":11086,"yuanĠyuanĠ":11087,"zhuĠduoĠ":11088,"haiĠjunĠdeĠ":11089,"muĠbiao":11090,"zuĠziĠzhiĠquĠ":11091,"guĠxiangĠ":11092,"fengĠsuĠ":11093,"ĠshouĠluĠ":11094,"ĠwanĠquanĠ":11095,"yinĠyueĠhuiĠ":11096,"baĠshiĠluĠxianĠ":11097,"guangĠboĠdianĠtaiĠ":11098,"roundĠ":11099,"bingĠzhongĠ":11100,"huoĠrenĠ":11101,"bianĠliĠ":11102,"jueĠqiĠ":11103,"peiĠyueĠ":11104,"hongĠqiĠ":11105,"one":11106,"caoĠdiĠ":11107,"gaĠ":11108,"jiĠshuĠ":11109,"buĠxiangĠ":11110,"daĠlianĠmengĠ":11111,"siĠjiaĠ":11112,"riĠhouĠ":11113,"nanĠyanĠyuanĠ":11114,"fengĠmianĠ":11115,"ĠshiĠweiĠyuanĠhuiĠ":11116,"diĠshiĠerĠ":11117,"ĠjinĠjiĠ":11118,"reĠdaiĠdiĠqiĠyaĠ":11119,"paiĠhangĠbangĠ":11120,"Ġ1980":11121,"Ġ1946":11122,"yingĠyouĠ":11123,"daiĠjiaĠ":11124,"yangĠrenĠ":11125,"huiĠmianĠ":11126,"chuĠlaiĠdeĠ":11127,"xueĠguanĠ":11128,"suoĠxuĠdeĠ":11129,"ĠdaĠliĠ":11130,"feiĠsiĠ":11131,"shanĠsiĠ":11132,"tuĠzaiĠ":11133,"naĠxiĠ":11134,"ĠliĠmianĠ":11135,"jiaĠshuĠ":11136,"keĠlaĠ":11137,"beiĠpingĠ":11138,"ĠdaĠsiĠ":11139,"fenĠjuĠ":11140,"guangĠdianĠ":11141,"yueĠqiuĠ":11142,"ĠwangĠluoĠ":11143,"ĠranĠhouĠzaiĠ":11144,"ĠsiĠyueĠ":11145,"ĠjinĠshiĠchuĠshenĠ":11146,"jiuĠyuĠ":11147,"lingĠheĠ":11148,"suĠheĠ":11149,"linĠzhiĠ":11150,"chaĠzhiĠ":11151,"pinĠweiĠ":11152,"toĠ":11153,"renĠkou":11154,"ĠbuĠlangĠ":11155,"jieĠquĠ":11156,"keĠxiĠ":11157,"beiĠfaĠxianĠ":11158,"ĠdaĠshaĠ":11159,"banĠshangĠ":11160,"laiĠmeiĠ":11161,"teĠyouĠzhiĠwuĠ":11162,"haoĠwuĠ":11163,"ĠjianĠchaĠ":11164,"juanĠzengĠ":11165,"zuiĠgaoĠfaĠyuanĠ":11166,"jiaĠliĠfuĠniĠyaĠ":11167,"sĠdeĠ":11168,"ĠneiĠbuĠ":11169,"yiĠshiĠshiĠ":11170,"ĠĠĠha":11171,"buĠdeĠyiĠ":11172,"keĠshiĠyongĠ":11173,"daiĠzhongĠ":11174,"shanĠxingĠ":11175,"leiĠliĠ":11176,"fengĠqiĠ":11177,"naĠzaiĠ":11178,"poĠshiĠ":11179,"youĠjuĠyuĠ":11180,"ĠguoĠzhongĠ":11181,"beiĠhaiĠ":11182,"duoĠyangĠ":11183,"xunĠyanĠ":11184,"Ġãĥ³":11185,"Ġchong":11186,"shuan":11187,"tuiĠdaoĠ":11188,"jiaoĠgeiĠ":11189,"wangĠluo":11190,"nanĠluĠ":11191,"nanĠnvĠ":11192,"yangĠbenĠ":11193,"huĠtongĠ":11194,"ĠĠĠWe":11195,"daiĠheĠ":11196,"xuĠweiĠ":11197,"yaoĠxingĠ":11198,"ĠshiĠpinĠ":11199,"siĠmingĠ":11200,"huiĠxingĠ":11201,"jinĠsaiĠ":11202,"tiĠqinĠ":11203,"chuanĠzhuĠ":11204,"jueĠzhuĠ":11205,"zhaoĠhuiĠ":11206,"ĠriĠheĠ":11207,"moĠshiĠchan":11208,"ĠsectionĠĠĠendĠ":11209,"shouĠhuanĠyingĠdeĠ":11210,"psĠ":11211,"Ġg":11212,"ĠkongĠzhiĠ":11213,"ĠheĠyiĠ":11214,"Ġ1947ĠnianĠ":11215,"xiĠyueĠ":11216,"ĠĠĠtaĠzaiĠ":11217,"kaiĠshiĠdeĠ":11218,"zuanĠshiĠ":11219,"qiĠxiaĠ":11220,"jianĠzhu":11221,"chengĠqiangĠ":11222,"juĠhuiĠ":11223,"ĠjiaĠqiangĠ":11224,"biĠluĠ":11225,"boĠyingĠ":11226,"fengĠjingĠ":11227,"ĠgaiĠgongĠsiĠ":11228,"miĠniĠzhuanĠjiĠ":11229,"BL":11230,"Ġza":11231,"ĠbuĠliĠ":11232,"daĠliĠdeĠ":11233,"dangĠzhiĠ":11234,"ĠyiĠjieĠ":11235,"ĠzaiĠguoĠ":11236,"ziĠdanĠ":11237,"ĠxiĠquĠ":11238,"zuoĠpaiĠ":11239,"xinĠwen":11240,"jiaoĠxiaoĠdeĠ":11241,"ĠgongĠzuo":11242,"tieĠluĠjuĠ":11243,"BDĠ":11244,"Ġyu":11245,"ĠshengĠrenĠ":11246,"ziĠbuĠ":11247,"meiĠheĠ":11248,"huoĠweiĠ":11249,"kongĠjuĠ":11250,"ther":11251,"90ĠnianĠdaiĠ":11252,"36Ġ":11253,"youĠrenĠ":11254,"huiĠjiangĠ":11255,"zuĠzongĠ":11256,"ĠgaiĠgeĠ":11257,"kongĠguĠ":11258,"ĠĠĠzhuĠzuoĠ":11259,"saĠerĠwaĠ":11260,"kaoĠlvĠdaoĠ":11261,"yiĠshiĠjiĠ":11262,"ĠĠĠNe":11263,"ĠĠĠwuĠkeĠlanĠ":11264,"boĠheĠ":11265,"fengĠjiĠ":11266,"tiaoĠshiĠ":11267,"gengĠyouĠ":11268,"bieĠshuĠ":11269,"pangĠqiuĠ":11270,"57ĠnianĠ":11271,"jiĠchuĠ":11272,"jianĠce":11273,"chengĠfaĠ":11274,"tongĠchangĠshiĠ":11275,"qingĠdaiĠ":11276,"muĠhouĠ":11277,"luoĠyangĠ":11278,"ĠzhuĠmingĠ":11279,"douĠyuĠshiĠ":11280,"woĠmenĠdeĠ":11281,"ĠaiĠliĠ":11282,"ĠNi":11283,"jiaoĠhuiĠchuĠ":11284,"jiangĠyuĠliangĠ":11285,"ĠjieĠweiĠluĠdiĠ":11286,"Ġ1988":11287,"ĠĠĠhe":11288,"huiĠliĠ":11289,"sanĠheĠ":11290,"kuĠsiĠ":11291,"chanĠshiĠ":11292,"mengĠyouĠ":11293,"37Ġ":11294,"49ĠnianĠ":11295,"youĠxiaoĠ":11296,"qiĠzaiĠ":11297,"ĠyouĠtaiĠrenĠ":11298,"ĠzhongĠduoĠ":11299,"daĠliangĠdeĠ":11300,"gongĠtingĠ":11301,"jianĠshuĠ":11302,"jinĠkouĠ":11303,"huaĠtiĠ":11304,"jiangĠjieĠ":11305,"laiĠleĠ":11306,"ĠfuĠza":11307,"wanĠchengĠdeĠ":11308,"miĠxieĠ":11309,"anĠzhao":11310,"suoĠmuĠ":11311,"zuiĠmingĠ":11312,"liuĠxingĠdeĠ":11313,"ĠgaiĠnianĠ":11314,"Goog":11315,"Ġgen":11316,"ĠĠĠzhanĠhouĠ":11317,"yinĠyueĠdeĠ":11318,"xueĠshiĠweiĠ":11319,"junĠdaĠ":11320,"cheĠzaiĠ":11321,"hanĠrenĠ":11322,"zaoĠchuĠ":11323,"guangĠdaoĠ":11324,"gouĠxiangĠ":11325,"caoĠdeĠ":11326,"41ĠnianĠ":11327,"ĠqiĠtuĠ":11328,"dongĠhua":11329,"boĠleiĠ":11330,"dengĠxiaoĠ":11331,"cengĠdanĠrenĠ":11332,"ĠhouĠbeiĠ":11333,"ĠciĠwai":11334,"ĠxuĠduo":11335,"Do":11336,"IF":11337,"ja":11338,"ĠgeiĠ":11339,"naĠweiĠ":11340,"songĠshiĠ":11341,"48Ġ":11342,"ĠzhongĠwuĠ":11343,"zhanĠlieĠ":11344,"fenĠdianĠ":11345,"wangĠminĠ":11346,"zuiĠjuĠ":11347,"fanĠpaiĠ":11348,"ĠgongĠnengĠ":11349,"ĠbingĠshiĠ":11350,"canĠmouĠ":11351,"ĠdeĠzhiĠzuoĠ":11352,"yanĠjiuĠzhongĠ":11353,"ĠKĠ":11354,"ĠyueĠzhongĠxunĠ":11355,"CR":11356,"ĠĠĠhuĠ":11357,"ĠĠĠ2003ĠnianĠ":11358,"youĠshiĠyiĠ":11359,"jianĠyueĠ":11360,"zhouĠguoĠ":11361,"zhouĠsiĠ":11362,"rangĠrenĠ":11363,"34Ġ":11364,"daĠdongĠbuĠdaĠquĠ":11365,"jianĠzaoĠdeĠ":11366,"shuĠmingĠ":11367,"zuĠqun":11368,"jiuĠciĠ":11369,"teĠluoĠ":11370,"shanĠluĠ":11371,"ĠĠĠliĠshiĠyanĠgeĠ":11372,"ĠĠĠtuĠ":11373,"guĠdiĠ":11374,"minĠheĠ":11375,"haoĠzhiĠ":11376,"chuanĠdaĠ":11377,"daĠerĠ":11378,"xiĠyinĠ":11379,"beiĠmianĠ":11380,"ziĠjiĠshiĠ":11381,"huiĠxianĠ":11382,"juĠziĠ":11383,"tiĠneiĠ":11384,"junĠfuĠ":11385,"haiĠwanĠ":11386,"baĠsaiĠerĠ":11387,"diĠyiĠmingĠ":11388,"ĠhouĠyinĠ":11389,"ĠciĠjuĠ":11390,"ĠtongĠyueĠ":11391,"ĠluoĠboĠ":11392,"ron":11393,"ĠzhanĠshiĠ":11394,"ĠĠĠsheĠ":11395,"zhengĠrenĠ":11396,"lvĠbuĠ":11397,"huanĠshiĠ":11398,"nuoĠkeĠ":11399,"ĠrenĠshouĠshangĠ":11400,"ĠheĠluĠ":11401,"jiaĠzhuangĠ":11402,"keĠqianĠwangĠ":11403,"mingĠdan":11404,"ciĠziĠ":11405,"jiaoĠwangĠ":11406,"xiaĠshuiĠ":11407,"dengĠbaoĠ":11408,"baĠleiĠ":11409,"ĠjinĠgongĠ":11410,"guangĠxianĠ":11411,"nongĠduĠ":11412,"muĠsiĠteĠ":11413,"ĠĠĠCom":11414,"siĠlingĠyuanĠ":11415,"lliam":11416,"BM":11417,"Ġ88":11418,"Ġ1983":11419,"zhanĠshiĠqiĠ":11420,"11ĠshiĠ":11421,"kanĠwuĠ":11422,"laoĠhuiĠ":11423,"OSĠ":11424,"yuanĠchengĠ":11425,"quĠxianĠ":11426,"houĠsaiĠ":11427,"bingĠchuanĠ":11428,"keĠyiĠyongĠ":11429,"ĠzheĠliĠ":11430,"laoĠbanĠ":11431,"ĠyaĠmeiĠ":11432,"huĠbeiĠshengĠ":11433,"gaoĠxiongĠshiĠ":11434,"shouĠhaiĠzheĠ":11435,"3ĠliĠ":11436,"DR":11437,"ĠqiĠzhiĠ":11438,"ĠĠĠduĠ":11439,"changĠrenĠ":11440,"minĠzaiĠ":11441,"piĠerĠ":11442,"cheĠheĠ":11443,"52ĠnianĠ":11444,"heĠchengĠ":11445,"beiĠanĠ":11446,"zuoĠbiaoĠ":11447,"qianĠlongĠ":11448,"muĠluĠ":11449,"ĠxingĠbie":11450,"fanĠchuanĠ":11451,"ĠgaiĠdangĠ":11452,"2ĠbiĠ":11453,"ĠmeiĠzhouĠ":11454,"ĠdeĠdaoĠluĠ":11455,"chengĠduĠshangĠ":11456,"changĠpianĠgongĠsiĠ":11457,"2ĠjiaĠ":11458,"3ĠĠĠ":11459,"Ġshang":11460,"ĠtuĠerĠqiĠ":11461,"ersĠ":11462,"jiaoĠxiĠ":11463,"boĠqiĠ":11464,"maoĠkeĠ":11465,"58ĠnianĠ":11466,"1900ĠnianĠ":11467,"shengĠxingĠ":11468,"xiangĠfuĠ":11469,"beiĠshouĠ":11470,"ĠdaĠziĠ":11471,"yinĠduĠdeĠ":11472,"ĠjiaĠla":11473,"maĠluĠ":11474,"ĠjianĠduĠ":11475,"ĠshiĠyiĠkeĠhengĠxingĠ":11476,"Ġ1948ĠnianĠ":11477,"ĠĠĠZ":11478,"jieĠyueĠ":11479,"yeĠliĠ":11480,"fanĠyuĠ":11481,"naĠyiĠ":11482,"nengĠyuĠ":11483,"zhongĠzuĠ":11484,"ĠheĠfuĠ":11485,"fenĠhuaĠ":11486,"xiaoĠfuĠ":11487,"qingĠfuĠ":11488,"shenĠchuĠ":11489,"shenĠxueĠ":11490,"qiuĠdui":11491,"liuĠmingĠ":11492,"ĠgeĠguoĠ":11493,"ĠhuaĠxueĠ":11494,"ĠzongĠjiaoĠ":11495,"8ĠgongĠliĠ":11496,"ĠaoĠdiĠliĠ":11497,"ĠzhengĠyueĠ":11498,"ĠfaĠbuĠ":11499,"ĠfuĠliĠ":11500,"ĠzhunĠbeiĠ":11501,"Ġ1946ĠnianĠ":11502,"anĠdiĠ":11503,"ĠĠĠgenĠju":11504,"yinĠrenĠ":11505,"laiĠweiĠ":11506,"neiĠshiĠ":11507,"songĠzhiĠ":11508,"IIIĠ":11509,"ĠjiĠxianĠ":11510,"keĠkeĠ":11511,"jinĠzhuĠ":11512,"zhengĠjiuĠ":11513,"changĠshuĠ":11514,"banĠzhangĠ":11515,"aĠsaiĠbaiĠ":11516,"qunĠdaoĠdeĠ":11517,"ĠbeiĠzhiĠ":11518,"pha":11519,"ĠPo":11520,"ĠzaoĠqiĠ":11521,"Ġ1956ĠnianĠ":11522,"xinĠdiĠ":11523,"ĠzaiĠneiĠ":11524,"jieĠjingĠ":11525,"quĠzhuĠjianĠ":11526,"jiaoĠgaoĠdeĠ":11527,"haiĠyang":11528,"guangĠxueĠ":11529,"ĠjieĠtiĠ":11530,"nianĠduĠ":11531,"tongĠguoĠleĠ":11532,"faĠxingĠleĠ":11533,"ĠguiĠdingĠ":11534,"zongĠjiaoĠquĠ":11535,"ĠmingĠshiĠ":11536,"ĠpuĠtaoĠyaĠyuĠ":11537,"rai":11538,"Ġxue":11539,"ĠBo":11540,"quanĠzhongĠ":11541,"bangĠshangĠ":11542,"roi":11543,"daĠjiaĠ":11544,"yuanĠlaiĠdeĠ":11545,"yanĠbianĠ":11546,"duiĠgaiĠ":11547,"dengĠzhanĠ":11548,"fanĠxinĠ":11549,"tieĠluĠgongĠsiĠ":11550,"ĠfeiĠchangĠ":11551,"zuiĠhouĠyiĠgeĠ":11552,"huanĠxingĠshanĠ":11553,"ĠzuoĠyouĠ":11554,"ĠĠĠLe":11555,"ĠĠĠruĠguoĠ":11556,"meiĠkeĠ":11557,"baĠqiĠ":11558,"saiĠshiĠdeĠ":11559,"suĠyuĠ":11560,"ĠyueĠjiĠ":11561,"xiĠquĠ":11562,"gongĠlu":11563,"wuĠxuĠ":11564,"ĠbuĠshuĠ":11565,"ciĠleiĠ":11566,"muĠdiĠshiĠ":11567,"liuĠjingĠ":11568,"ĠshengĠwuĠ":11569,"zhengĠshiĠchengĠliĠ":11570,"Ġ1979ĠnianĠ":11571,"liĠsiĠ":11572,"fanĠrenĠ":11573,"zaoĠshiĠ":11574,"chaĠsiĠ":11575,"shaoĠyuĠ":11576,"geiĠchuĠ":11577,"zhaiĠdeĠ":11578,"63ĠnianĠ":11579,"jieĠbeiĠ":11580,"leĠjinĠ":11581,"yanĠse":11582,"huaĠwenĠ":11583,"ĠriĠbenĠdeĠ":11584,"duiĠyingĠdeĠ":11585,"ĠjiaĠmengĠ":11586,"meiĠlaĠ":11587,"lianĠxianĠ":11588,"dingĠlvĠ":11589,"ĠdanĠtaĠmenĠ":11590,"weiĠyiĠzhongĠ":11591,"ĠjiaoĠshouĠ":11592,"ĠbianĠhaoĠ":11593,"xinĠliĠxueĠ":11594,"1ĠzhiĠ":11595,"3ĠshiĠ":11596,"ag":11597,"ĠdaiĠbiao":11598,"lignĠ":11599,"huiĠrenĠ":11600,"dongĠzhongĠ":11601,"qiuĠdaĠ":11602,"liuĠqiĠ":11603,"paiĠshiĠ":11604,"guangĠweiĠ":11605,"tangĠshiĠ":11606,"ĠzaiĠshangĠ":11607,"xiangĠjiangĠ":11608,"jiaoĠyuanĠ":11609,"jiaoĠyuĠdeĠ":11610,"xiaoĠzhenĠ":11611,"danĠshuiĠyuĠ":11612,"shenĠshouĠ":11613,"ĠfuĠhaoĠ":11614,"ĠtaĠyeĠshiĠ":11615,"guĠbaĠ":11616,"haoĠchengĠshiĠ":11617,"ĠgaiĠchengĠ":11618,"ĠciĠqianĠ":11619,"guoĠdeĠteĠyouĠzhiĠwuĠ":11620,"ĠhuiĠdaoĠ":11621,"ĠanĠzhaoĠ":11622,"ĠlianĠxuĠ":11623,"ĠdeĠyiĠgeĠzhongĠ":11624,"fuĠshiĠzhangĠ":11625,"dianĠyingĠzhongĠ":11626,"ĠgaiĠshengĠfenĠweiĠfaĠguoĠbeiĠbuĠ":11627,"zhanĠdouĠzhongĠ":11628,"ĠwanĠmeiĠyuanĠdeĠ":11629,"wanĠshiĠ":11630,"dengĠyiĠ":11631,"hanĠsiĠ":11632,"baiĠjinĠ":11633,"zouĠdeĠ":11634,"55ĠnianĠ":11635,"ĠnianĠzhiĠhouĠ":11636,"ĠyouĠzheĠ":11637,"ĠyueĠduĠ":11638,"wuĠjieĠ":11639,"shengĠfuĠzeĠguanĠxiaĠ":11640,"ĠerĠjiaĠ":11641,"tongĠxun":11642,"tiĠchu":11643,"zuĠlianĠ":11644,"saiĠjuĠ":11645,"ĠgaiĠdiĠ":11646,"1ĠriĠpingĠjunĠ":11647,"keĠjiĠdaĠxueĠ":11648,"ĠliangĠguoĠ":11649,"ĠerĠsiĠkeĠ":11650,"kongĠzhongĠfaĠxianĠ":11651,"Ġ23Ġ":11652,"minĠjinĠdangĠ":11653,"ĠquanĠbuĠ":11654,"qiĠshiĠdeĠ":11655,"xiaoĠdiĠ":11656,"chaoĠxiĠ":11657,"tuoĠyuanĠxingĠ":11658,"ham":11659,"ĠdeĠlaĠ":11660,"ĠzaiĠfuĠ":11661,"jianĠyanĠ":11662,"minĠyongĠ":11663,"dingĠmuĠ":11664,"liuĠfangĠ":11665,"fengĠbiĠ":11666,"paiĠduiĠ":11667,"huoĠdeĠdiĠ":11668,"ĠliangĠzheĠ":11669,"ĠĠĠTi":11670,"112":11671,"Ġb":11672,"ĠzhuiĠ":11673,"taĠjiĠ":11674,"xuĠheĠ":11675,"leiĠzaiĠ":11676,"guiĠjiĠ":11677,"bangĠdaĠ":11678,"mesĠĠĠ":11679,"beiĠdiĠ":11680,"zhanĠbiĠ":11681,"zuoĠchuĠleĠ":11682,"tiĠcaoĠ":11683,"jiangĠgaiĠ":11684,"wangĠguoĠdeĠ":11685,"hanĠbaoĠ":11686,"ĠyeĠkeĠ":11687,"yuĠyiĠdaĠliĠ":11688,"ĠbenĠmingĠ":11689,"ĠÐ½":11690,"ĠsiĠliĠ":11691,"ĠweiĠzhongĠxinĠ":11692,"ĠshiĠshiĠjieĠshangĠ":11693,"TT":11694,"Ġ1982":11695,"aiĠdiĠ":11696,"ĠĠĠhouĠlaiĠ":11697,"daĠyouĠ":11698,"mingĠliĠ":11699,"ruĠdiĠ":11700,"xuĠliĠ":11701,"haoĠzhongĠziĠ":11702,"tieĠdeĠ":11703,"peiĠsiĠ":11704,"ĠyiĠguoĠ":11705,"keĠtaĠ":11706,"jinĠjinĠ":11707,"yeĠchengĠ":11708,"ĠdaĠlou":11709,"dangĠpaiĠ":11710,"ĠjianĠshaoĠ":11711,"ĠtongĠchang":11712,"ĠtuĠjingĠ":11713,"kaĠluoĠlaiĠnaĠzhouĠ":11714,"Ġban":11715,"Ġ1981ĠnianĠ":11716,"ĠĠĠcanĠkaoĠ":11717,"59ĠnianĠ":11718,"ĠliĠweiĠzhiĠ":11719,"ĠrenĠneiĠ":11720,"jianĠdingĠ":11721,"jieĠzhuĠ":11722,"shouĠpiĠ":11723,"dianĠciĠ":11724,"lianĠsiĠjiĠ":11725,"zhengĠzhiĠxieĠshangĠ":11726,"ĠyanĠyuanĠ":11727,"ĠlianĠbangĠ":11728,"ĠĠĠAn":11729,"ĠOĠ":11730,"ĠheĠbeiĠshengĠ":11731,"ĠqiĠxiĠshenĠduĠ":11732,"ĠSt":11733,"ĠzhongĠyiĠ":11734,"faĠyouĠ":11735,"zhanĠguoĠ":11736,"wangĠdaĠ":11737,"2026ĠnianĠ":11738,"51ĠnianĠ":11739,"zhanĠlieĠjianĠ":11740,"huaĠdongĠ":11741,"wanĠjieĠ":11742,"fanĠyingĠdeĠ":11743,"ĠxiangĠdangĠ":11744,"ĠshiĠweiĠshuĠjiĠ":11745,"ĠtongĠnianĠ11ĠyueĠ":11746,"ĠjinĠyiĠbuĠ":11747,"xunĠhuiĠyanĠchangĠhuiĠ":11748,"saĠkeĠsenĠ":11749,"moĠshiĠchanĠdiĠzaiĠ":11750,"AD":11751,"ĠĠĠwenĠ":11752,"ĠĠĠniĠ":11753,"erĠshiĠshiĠjiĠ":11754,"chunĠjieĠ":11755,"etĠ":11756,"ĠyuĠzhouĠ":11757,"jieĠshangĠ":11758,"ĠdiĠkeĠ":11759,"jingĠxianĠ":11760,"yinĠyuanĠ":11761,"sheĠxiangĠ":11762,"ĠtaĠbiaoĠshiĠ":11763,"ĠjinĠguan":11764,"meiĠguoĠhaiĠjunĠ":11765,"2010ĠnianĠmeiĠguoĠrenĠkouĠpuĠchaĠ":11766,"shuaiĠlingĠdeĠ":11767,"ĠminĠjiĠ":11768,"EM":11769,"Ġdu":11770,"Ġ1986":11771,"ĠfangĠzhiĠ":11772,"yingĠweiĠ":11773,"verĠ":11774,"zhenĠdongĠ":11775,"huĠzhaoĠ":11776,"zhuĠyiĠdaoĠ":11777,"ziĠgeĠsaiĠ":11778,"6ĠmingĠ":11779,"tro":11780,"ĠhenĠduoĠ":11781,"ngĠ":11782,"jiĠyiĠjiĠ":11783,"daiĠzaiĠ":11784,"kangĠdeĠ":11785,"BSĠ":11786,"ĠyiĠzhangĠ":11787,"renĠmenĠ":11788,"ĠyouĠxi":11789,"ĠbeiĠjingĠshiĠ":11790,"huanĠrao":11791,"ĠdeĠzhiĠhuiĠ":11792,"ĠyiĠweiĠzhuĠ":11793,"daoĠzhiĠleĠ":11794,"ĠzuoĠpinĠ":11795,"ĠmianĠdianĠ":11796,"huaĠshengĠdun":11797,"ĠjuĠqingĠxiaĠ":11798,"1200":11799,"SO":11800,"pouĠ":11801,"uper":11802,"Ġw":11803,"ĠĠĠfaĠxingĠ":11804,"huaĠliĠ":11805,"jiangĠrenĠ":11806,"daiĠjiĠ":11807,"nanĠdaĠ":11808,"gaoĠxingĠ":11809,"tianĠyiĠ":11810,"chiĠyuĠ":11811,"chaiĠyouĠ":11812,"ĠyiĠwenĠ":11813,"beiĠkeĠ":11814,"yingĠhuaĠ":11815,"duiĠchenĠ":11816,"ĠfuĠluoĠ":11817,"teĠshengĠ":11818,"ĠchuĠdaoĠ":11819,"ĠwuĠdiĠ":11820,"zhuanĠanĠ":11821,"huangĠpuĠ":11822,"ouĠzhouĠdeĠ":11823,"4ĠgongĠliĠ":11824,"ĠneiĠrongĠ":11825,"Ġmiao":11826,"ĠzhuĠliĠ":11827,"ĠĠĠw":11828,"ĠĠĠTe":11829,"nianĠbeiĠ":11830,"shengĠyueĠ":11831,"haoĠyueĠtaiĠ":11832,"wuĠchangĠ":11833,"xiangĠxiangĠ":11834,"jingĠbao":11835,"xinĠyang":11836,"ĠsiĠtan":11837,"ĠjiaĠsheĠ":11838,"ruĠzhuĠ":11839,"teĠse":11840,"zuiĠjinĠ":11841,"ĠyinĠhangĠ":11842,"tanĠhuaĠ":11843,"ĠdengĠdengĠ":11844,"naĠcuiĠdeĠguoĠ":11845,"Ġ68":11846,"ĠĠĠVi":11847,"ĠĠĠcaiĠ":11848,"shengĠdeĠyiĠgeĠ":11849,"riĠzaiĠ":11850,"suoĠyuĠ":11851,"tangĠjiĠ":11852,"diaoĠrenĠ":11853,"chunĠdeĠ":11854,"1950ĠnianĠdaiĠ":11855,"SAĠ":11856,"weiĠxieĠ":11857,"xiĠtong":11858,"faĠguoĠdeĠ":11859,"ĠxiĠzang":11860,"yeĠshouĠ":11861,"wanĠhuiĠ":11862,"ĠdanĠhouĠlaiĠ":11863,"ĠzheĠyeĠ":11864,"ĠtongĠnianĠ9ĠyueĠ":11865,"ĠãĤĵ":11866,"zhuiĠsuĠzhiĠ":11867,"maiĠkeĠerĠ":11868,"gaoĠdengĠxueĠxiaoĠ":11869,"fuĠqinĠdeĠ":11870,"ĠbiĠyeĠhouĠ":11871,"Ġ99":11872,"Ġ1955ĠnianĠ":11873,"ĠĠĠdianĠyingĠ":11874,"ĠĠĠ2002ĠnianĠ":11875,"tiĠyouĠ":11876,"shuiĠzhiĠ":11877,"piaoĠdeĠ":11878,"ĠyiĠsiĠshiĠ":11879,"jiaĠjuĠ":11880,"jieĠjuĠ":11881,"xianĠqiĠ":11882,"ĠxingĠxiangĠ":11883,"minĠzhengĠ":11884,"jiuĠkeĠyiĠ":11885,"baĠnaĠ":11886,"zhongĠshiĠyanĠ":11887,"manĠhuaĠjiaĠ":11888,"langĠdeĠshengĠ":11889,"ĠzhongĠshiĠyanĠ":11890,"ĠkeĠxiĠtaĠ":11891,"Ġhun":11892,"ĠjiaĠliĠ":11893,"ĠnuoĠweiĠ":11894,"ĠĠĠ2002":11895,"ĠĠĠ2024ĠnianĠ":11896,"rongĠqiĠ":11897,"maiĠxiaĠ":11898,"pangĠdeĠ":11899,"taĠduiĠ":11900,"bingĠfaĠ":11901,"laiĠteĠ":11902,"zuĠchengĠyuanĠ":11903,"ĠfuĠsiĠ":11904,"fanĠxueĠxiaoĠ":11905,"ĠzheĠliangĠ":11906,"ĠxianĠfaĠ":11907,"ĠjieĠchuĠ":11908,"nianĠqingĠ":11909,"ĠnanĠziĠ":11910,"ĠbuĠjiuĠhouĠ":11911,"len":11912,"ĠĠĠrenĠwuĠ":11913,"xuĠyouĠ":11914,"zuiĠxiĠ":11915,"saiĠzhiĠ":11916,"feiĠyuĠ":11917,"louĠtiĠ":11918,"ĠyuĠjingĠ":11919,"chengĠduĠdeĠ":11920,"ĠxiĠla":11921,"leĠzheĠyiĠ":11922,"jiaoĠchuĠ":11923,"qianĠwanĠ":11924,"ĠxingĠbieĠ":11925,"suoĠxuĠ":11926,"ĠjiangĠyuĠ":11927,"xtĠ":11928,"Ġon":11929,"ĠĠĠfor":11930,"ĠĠĠxueĠ":11931,"ĠĠĠ20ĠshiĠjiĠ":11932,"heĠshiĠdeĠ":11933,"huĠyiĠ":11934,"wuĠguoĠ":11935,"zhangĠshiĠjianĠ":11936,"guangĠshiĠ":11937,"xiuĠzhuĠ":11938,"ĠshiĠduanĠ":11939,"ĠzaiĠjianĠ":11940,"ĠyueĠqiuĠ":11941,"xianĠbeiĠ":11942,"xianĠfengĠ":11943,"jiangĠdaoĠ":11944,"bingĠqiuĠ":11945,"dianĠyaĠ":11946,"teĠlanĠ":11947,"quanĠzhouĠ":11948,"maĠenĠshengĠ":11949,"ĠshengĠchanĠ":11950,"ĠzheĠshiĠyiĠ":11951,"ĠbenĠzhanĠ":11952,"ĠtianĠfuĠ":11953,"Ġ1952ĠnianĠ":11954,"ĠĠĠLa":11955,"ĠĠĠyangĠ":11956,"teĠyiĠ":11957,"benĠdiĠquĠ":11958,"liuĠweiĠ":11959,"gangĠguoĠ":11960,"75Ġ":11961,"54ĠnianĠ":11962,"ĠzaiĠtaiĠwanĠ":11963,"gongĠfengĠ":11964,"geĠlanĠdeĠ":11965,"beiĠpanĠ":11966,"ziĠyouĠshiĠ":11967,"faĠxianĠyuĠ":11968,"pingĠxingĠ":11969,"suoĠshu":11970,"sanĠjianĠ":11971,"naĠpoĠlunĠ":11972,"eĠwaiĠdeĠ":11973,"canĠsaiĠzheĠ":11974,"ĠĠĠofĠĠĠtheĠĠĠ":11975,"6ĠhaoĠ":11976,"Ġchu":11977,"liĠnianĠ":11978,"ĠĠĠf":11979,"bianĠzhongĠ":11980,"menĠdaĠ":11981,"waiĠyuĠ":11982,"xiaĠshuĠ":11983,"qingĠxieĠ":11984,"boĠluoĠdiĠ":11985,"saiĠmaĠ":11986,"neiĠwaiĠ":11987,"eĠjunĠ":11988,"touĠyingĠ":11989,"kaiĠshiĠleĠ":11990,"minĠzhuĠzhuĠyiĠ":11991,"ĠyeĠbuĠ":11992,"cludeĠ":11993,"ĠgaiĠwuĠzhongĠdeĠmoĠshiĠchanĠdiĠzaiĠ":11994,"IA":11995,"Ti":11996,"ear":11997,"eĠjiĠ":11998,"edĠĠĠ":11999,"ĠĠĠaoĠ":12000,"shouĠguoĠ":12001,"reĠdeĠ":12002,"xiongĠzhangĠ":12003,"ĠzhiĠxiangĠ":12004,"ĠzhiĠminĠ":12005,"guoĠduĠ":12006,"shengĠqianĠ":12007,"faĠyinĠ":12008,"quĠjueĠyuĠ":12009,"houĠhuiĠ":12010,"changĠshaĠ":12011,"luĠjun":12012,"ĠyinĠniĠ":12013,"aĠerĠjiĠ":12014,"manĠguanĠ":12015,"ĠjieĠheĠ":12016,"teĠbieĠxingĠzhengĠquĠ":12017,"muĠniĠhei":12018,"eĠhaiĠeĠzhouĠ":12019,"ĠĠĠSe":12020,"quĠliĠ":12021,"mengĠjiaĠlaĠ":12022,"manĠweiĠ":12023,"ĠyuĠjiaĠ":12024,"ĠyouĠfuĠ":12025,"daĠtongĠ":12026,"ĠbuĠleiĠ":12027,"beiĠhanĠ":12028,"dongĠfengĠ":12029,"guanĠjunĠdeĠ":12030,"xinĠjiaoĠ":12031,"ĠxingĠchaiĠyouĠjiĠ":12032,"xuanĠxiuĠ":12033,"ĠshiĠyiĠjingĠ":12034,"shaoĠnv":12035,"waĠlaĠ":12036,"ĠĠĠyiĠxieĠ":12037,"ĠPi":12038,"qingĠhuaĠdaĠxueĠ":12039,"Ġleng":12040,"Ġ1948":12041,"Ġ1937ĠnianĠ":12042,"ĠĠĠmiaoĠshuĠ":12043,"daĠliĠshiĠ":12044,"xiangĠrenĠ":12045,"zuoĠbuĠ":12046,"yongĠrenĠ":12047,"waiĠkeĠ":12048,"jieĠduĠ":12049,"shengĠyuanĠ":12050,"ĠqiĠchengĠ":12051,"daiĠhuiĠ":12052,"ĠfuĠlanĠkeĠ":12053,"wanĠdaoĠ":12054,"ĠchengĠkeĠ":12055,"ĠÐ¸":12056,"ĠganĠsuĠ":12057,"ĠshiĠwuĠkeĠlanĠdeĠ":12058,"7ĠhaoĠ":12059,"dsĠ":12060,"Ġ1970":12061,"ĠjianĠzhiĠ":12062,"ĠĠĠxiangĠguanĠ":12063,"jiuĠyiĠjingĠ":12064,"gaoĠerĠfuĠ":12065,"queĠxianĠ":12066,"ĠshiĠgaiĠ":12067,"ĠheĠyouĠ":12068,"yingĠfuĠ":12069,"qianĠliangĠ":12070,"taiĠshanĠ":12071,"cheĠhuiĠ":12072,"saiĠpuĠ":12073,"huanĠmanĠ":12074,"ĠĠĠUni":12075,"lianĠjiĠ":12076,"yangĠyiĠ":12077,"shanĠyiĠ":12078,"nengĠshiĠ":12079,"linĠzaiĠ":12080,"bangĠshouĠ":12081,"diaoĠdeĠ":12082,"47Ġ":12083,"ĠyouĠziĠ":12084,"ĠzaiĠjingĠ":12085,"daĠsiĠ":12086,"xingĠfuĠ":12087,"chuĠbingĠ":12088,"shangĠye":12089,"huaĠfeiĠ":12090,"guanĠmuĠ":12091,"gaiĠzhuangĠ":12092,"zongĠzhangĠ":12093,"ĠxianĠzaiĠdeĠ":12094,"1ĠbiĠ":12095,"zhengĠzhiĠjuĠ":12096,"ĠÐµ":12097,"Ġmou":12098,"tongĠyiĠgeĠ":12099,"hanĠweiĠ":12100,"paoĠtaĠ":12101,"derĠ":12102,"shiĠyiĠ":12103,"ĠzhiĠzuoĠdeĠ":12104,"xiĠguanĠ":12105,"fuĠluoĠ":12106,"jieĠtouĠ":12107,"zhengĠqueĠ":12108,"xinĠzeng":12109,"taiĠlangĠ":12110,"liangĠcengĠ":12111,"zuiĠzhuĠmingĠdeĠ":12112,"zongĠzuoĠ":12113,"saiĠeĠ":12114,"ĠdeĠyiĠchangĠ":12115,"ĠbingĠduiĠ":12116,"neiĠsheĠyouĠ":12117,"ĠgaiĠzuĠzhiĠ":12118,"huanĠyuanĠ":12119,"panĠluan":12120,"ĠshuĠrouĠshiĠxingĠ":12121,"zengĠqiang":12122,"ĠguĠjiĠ":12123,"ĠĠĠDo":12124,"yunĠshiĠkengĠ":12125,"IM":12126,"Ġlan":12127,"ĠouĠzhou":12128,"xianĠyueĠ":12129,"suĠjiĠ":12130,"zhongĠxingĠ":12131,"shengĠziĠ":12132,"xianĠjingĠ":12133,"yinĠqiĠdeĠ":12134,"luĠxiangĠ":12135,"tiĠshangĠ":12136,"fenĠsanĠ":12137,"lingĠmuĠ":12138,"ĠdeĠyiĠbuĠ":12139,"ĠgongĠsi":12140,"ĠyiĠzhiĠyouĠ":12141,"6ĠgongĠliĠ":12142,"zongĠtongĠfuĠ":12143,"ĠFa":12144,"ĠbinĠ":12145,"Ġ1938ĠnianĠ":12146,"anĠweiĠ":12147,"kaiĠzhiĠ":12148,"xiuĠliĠ":12149,"peiĠyuĠ":12150,"zunĠshouĠ":12151,"jieĠhun":12152,"zhuĠyanĠdeĠ":12153,"shengĠzhengĠfuĠ":12154,"faĠguiĠ":12155,"biĠhuĠ":12156,"qiuĠfanĠ":12157,"kaiĠfang":12158,"tingĠhuoĠ":12159,"nvĠxingĠdeĠ":12160,"ĠxiaĠxiaĠ":12161,"ĠjiaoĠtongĠ":12162,"ĠhuaĠxueĠshiĠweiĠ":12163,"kenĠseĠ":12164,"8ĠhaoĠ":12165,"900":12166,"CP":12167,"pre":12168,"ĠĠĠBe":12169,"yinĠbuĠ":12170,"saĠzhuĠsaiĠ":12171,"sangĠnaĠ":12172,"ĠshiĠcongĠ":12173,"ĠzhiĠliangĠ":12174,"fuĠdaoĠ":12175,"juĠmianĠ":12176,"wangĠfuĠ":12177,"luoĠshanĠ":12178,"yangĠjunĠ":12179,"zuiĠchangĠ":12180,"fengĠmingĠ":12181,"jueĠxinĠ":12182,"daiĠbiaoĠdeĠ":12183,"ĠmeiĠriĠ":12184,"kaĠsiĠdiĠliĠyaĠ":12185,"ĠzaiĠzhongĠguoĠdaĠluĠ":12186,"OV":12187,"jiĠshiĠjieĠ":12188,"ĠĠĠQ":12189,"nianĠhouĠ":12190,"keĠweiĠerĠ":12191,"zuĠzhongĠ":12192,"niĠzaiĠ":12193,"naĠdaoĠ":12194,"lunĠweiĠ":12195,"versi":12196,"buĠheĠ":12197,"jianĠshouĠ":12198,"ĠerĠwenĠmingĠ":12199,"shangĠyanĠ":12200,"dongĠxingĠ":12201,"tongĠmeng":12202,"xinĠhuiĠ":12203,"duiĠliuĠ":12204,"ĠjiaĠnaĠ":12205,"liuĠtongĠ":12206,"kaiĠguanĠ":12207,"ĠyinĠqingĠ":12208,"ĠchengĠxuĠ":12209,"ĠshiĠjiĠmoĠ":12210,"ĠyeĠhuiĠ":12211,"ĠfaĠlvĠ":12212,"ziĠjiĠzaiĠ":12213,"ĠteĠlangĠ":12214,"lvĠweiĠ0":12215,"wnĠ":12216,"ãĦ":12217,"Ġnei":12218,"ĠxueĠxiĠ":12219,"wangĠliĠ":12220,"tianĠzhiĠ":12221,"zhuanĠxingĠ":12222,"cunĠjiĠ":12223,"cangĠdeĠ":12224,"ĠshiĠminĠ":12225,"ĠshiĠneiĠ":12226,"ĠdeĠjunĠ":12227,"qiĠbingĠ":12228,"daĠgeĠming":12229,"geĠquĠdeĠ":12230,"zhuĠbiĠ":12231,"guanĠxi":12232,"ĠdaĠshengĠ":12233,"junĠduiĠdeĠ":12234,"anĠniĠ":12235,"suĠlianĠdeĠ":12236,"leiĠanĠjianĠ":12237,"guangĠzhou":12238,"baiĠhuoĠ":12239,"chongĠfengĠ":12240,"kaiĠshiĠzhiĠ":12241,"ĠerĠyiĠ":12242,"daiĠbiaoĠduiĠ":12243,"ĠguĠciĠ":12244,"ĠranĠerĠzaiĠ":12245,"ĠliuĠyueĠ":12246,"6ĠshiĠ":12247,"HDĠĠĠ":12248,"wn":12249,"ĠĠĠquĠ":12250,"dangĠyiĠ":12251,"yunĠjiĠ":12252,"oneĠ":12253,"stri":12254,"xiĠlieĠdeĠ":12255,"shouĠxiaĠ":12256,"shouĠhuoĠ":12257,"fangĠziĠ":12258,"fangĠyingĠ":12259,"taiĠleiĠ":12260,"nanĠduanĠ":12261,"meiĠtiĠdeĠ":12262,"sheĠzhangĠ":12263,"ĠchuĠxianĠzaiĠ":12264,"ganĠjunĠ":12265,"chuangĠbanĠrenĠ":12266,"ĠzhiĠweiĠyuĠ":12267,"sanĠshiĠnianĠ":12268,"baoĠhanĠleĠ":12269,"diaoĠchaĠjuĠ":12270,"ĠHo":12271,"ĠiĠ":12272,"ĠzhiĠdeĠshiĠ":12273,"guoĠliĠshiĠ":12274,"suoĠbuĠtongĠ":12275,"zhuangĠzaiĠ":12276,"kaoĠdeĠ":12277,"lyĠ":12278,"ĠyouĠxie":12279,"daĠchen":12280,"gongĠbu":12281,"gongĠkeĠ":12282,"siĠhuĠ":12283,"jianĠtingĠ":12284,"zhuĠyuanĠ":12285,"ĠdiĠxingĠ":12286,"shuĠliangĠdeĠ":12287,"zheĠhuiĠ":12288,"qianĠzhengĠ":12289,"pingĠshenĠ":12290,"haiĠbaoĠ":12291,"daiĠkuanĠ":12292,"qingĠzhenĠsiĠ":12293,"dangĠneiĠ":12294,"kouĠanĠ":12295,"sanĠjieĠ":12296,"ĠxiangĠtongĠ":12297,"hanĠliangĠ":12298,"shuiĠzhunĠ":12299,"chongĠbaiĠ":12300,"zhunĠjueĠsaiĠ":12301,"FC":12302,"Ġshu":12303,"ĠjianĠrenĠ":12304,"ĠĠĠBo":12305,"zuoĠguoĠ":12306,"muĠxiĠ":12307,"laiĠbuĠ":12308,"mon":12309,"linĠyiĠ":12310,"caiĠyouĠ":12311,"henĠyouĠ":12312,"diĠtuĠ":12313,"siĠyuanĠ":12314,"jiaĠciĠ":12315,"xiangĠjinĠ":12316,"xianĠjinĠdeĠ":12317,"huaĠbanĠ":12318,"guanĠbingĠ":12319,"junĠxianĠ":12320,"junĠzhengĠ":12321,"miĠlanĠ":12322,"zhenĠduanĠ":12323,"paiĠhang":12324,"ĠtaĠbuĠ":12325,"ĠciĠlieĠcheĠ":12326,"juĠxingĠleĠ":12327,"tor":12328,"fuĠliĠdeĠ":12329,"baoĠyiĠ":12330,"danĠheĠ":12331,"qianĠheĠ":12332,"luoĠliĠ":12333,"baĠdiĠ":12334,"dengĠjiaĠ":12335,"leiĠbuĠ":12336,"10ĠwanĠ":12337,"shaĠheĠ":12338,"âĢ»":12339,"henĠnanĠ":12340,"binĠxiĠfaĠ":12341,"yuĠleiĠ":12342,"diĠdaiĠ":12343,"jiaĠqiĠ":12344,"ziĠjiaĠ":12345,"chuĠxingĠ":12346,"zhanĠbaiĠ":12347,"huaĠdaĠ":12348,"xinĠaĠjiĠtan":12349,"ĠshengĠmingĠ":12350,"ĠãĤ¹":12351,"ĠgengĠmingĠweiĠ":12352,"tiaoĠjianĠxiaĠ":12353,"crosoftĠĠĠ":12354,"eor":12355,"Ġr":12356,"ĠnaiĠ":12357,"zaiĠshiĠyongĠ":12358,"ruĠjiĠ":12359,"qiangĠjianĠ":12360,"zanĠchengĠ":12361,"80ĠnianĠdaiĠ":12362,"amĠ":12363,"43Ġ":12364,"ĠzaiĠyuanĠ":12365,"shengĠriĠ":12366,"ziĠtaiĠ":12367,"yaĠmaĠ":12368,"shanĠguĠ":12369,"ĠxiangĠxiĠ":12370,"ĠxiangĠjiaoĠyuĠ":12371,"ĠdeĠjiĠheĠ":12372,"ĠzuiĠzhongĠyuĠ":12373,"feiĠliĠpuĠ":12374,"tianĠranĠqiĠ":12375,"mmĠ":12376,"ut":12377,"Ġ1979":12378,"ĠwuĠliĠ":12379,"liĠwuĠ":12380,"xueĠqiĠ":12381,"sanĠguoĠ":12382,"duanĠdaoĠ":12383,"piaoĠjiaĠ":12384,"sunĠziĠ":12385,"paoĠjiĠ":12386,"ĠzhiĠqiĠ":12387,"ĠyuĠdaĠ":12388,"fuĠleiĠdeĠ":12389,"shouĠyaoĠ":12390,"ciĠshanĠ":12391,"ĠriĠhouĠ":12392,"haiĠbaoĠkuoĠ":12393,"ĠtaĠdanĠrenĠ":12394,"lingĠwai":12395,"zongĠjieĠ":12396,"sanĠcengĠ":12397,"tingĠboĠ":12398,"ĠzhuĠgongĠ":12399,"ĠshiĠjiĠluĠ":12400,"ĠaiĠdeĠhuaĠ":12401,"ĠlingĠyiĠgeĠ":12402,"muĠdiĠdiĠ":12403,"ĠyouĠmingĠBDĠ":12404,"ĠzhongĠyangĠweiĠyuanĠhuiĠ":12405,"banĠgongĠtingĠ":12406,"ĠweiĠfuĠqiĠyuĠgangĠluĠxingĠmuĠ":12407,"350":12408,"Ġ1987":12409,"ĠfaĠyuĠ":12410,"Ġ1954ĠnianĠ":12411,"ĠĠĠ2001":12412,"ĠĠĠ5Ġ":12413,"ĠĠĠ2000ĠnianĠ":12414,"wenĠxiĠ":12415,"mianĠheĠ":12416,"leiĠyiĠ":12417,"par":12418,"ĠdeĠbuĠ":12419,"renĠmingĠ":12420,"qiĠdongĠ":12421,"wuĠfa":12422,"wuĠquĠ":12423,"xiangĠsiĠdeĠ":12424,"yanĠhouĠ":12425,"dianĠyuanĠ":12426,"miĠmaĠ":12427,"zuiĠxiaoĠ":12428,"shanĠpoĠ":12429,"ĠbingĠjiangĠqiĠ":12430,"caiĠnaĠ":12431,"linĠquĠ":12432,"ĠjuĠtiĠ":12433,"pinĠkun":12434,"gengĠgaoĠdeĠ":12435,"youĠyiĠzuoĠ":12436,"beiĠjingĠdaĠxueĠ":12437,"ed":12438,"groundĠ":12439,"Ġping":12440,"Ġxun":12441,"Ġluan":12442,"ĠsanĠnianĠ":12443,"ĠpiĠpingĠ":12444,"ĠĠĠv":12445,"ĠĠĠsheĠhuiĠ":12446,"ĠĠĠ2001ĠnianĠ":12447,"ero":12448,"geĠnianĠ":12449,"fangĠrenĠ":12450,"lianĠxingĠ":12451,"boĠyiĠ":12452,"ture":12453,"longĠheĠ":12454,"ĠshiĠfangĠ":12455,"ĠyuĠyuĠ":12456,"geĠchangĠ":12457,"beiĠzhanĠ":12458,"ĠerĠxiĠ":12459,"mingĠyunĠ":12460,"dongĠbuĠdeĠ":12461,"xueĠshengĠdeĠ":12462,"ciĠzhanĠ":12463,"dianĠtiĠ":12464,"chuanĠchuĠ":12465,"ĠyiĠjiĠweiĠ":12466,"ĠxueĠzheĠ":12467,"ĠguoĠjiaĠgongĠyuanĠ":12468,"ĠãĤ¤":12469,"ĠjiĠluĠpianĠ":12470,"biĠyeĠshengĠ":12471,"ĠsiĠzhiĠ":12472,"ĠsanĠjiaĠ":12473,"suoĠshiĠyongĠdeĠ":12474,"Ġ1938":12475,"ĠyunĠdongĠ":12476,"ĠxinĠxiĠ":12477,
[...]
