{
  "!": 0,
  "\"": 1,
  "#": 2,
  "$": 3,
  "%": 4,
  "&": 5,
  "'": 6,
  "(": 7,
  ")": 8,
  "*": 9,
  "+": 10,
  ",": 11,
  "-": 12,
  ".": 13,
  "/": 14,
  "0": 15,
  "1": 16,
  "2": 17,
  "3": 18,
  "4": 19,
  "5": 20,
  "6": 21,
  "7": 22,
  "8": 23,
  "9": 24,
  ":": 25,
  ";": 26,
  "=": 27,
  "?": 28,
  "@": 29,
  "A": 30,
  "B": 31,
  "C": 32,
  "D": 33,
  "E": 34,
  "F": 35,
  "G": 36,
  "H": 37,
  "I": 38,
  "J": 39,
  "K": 40,
  "L": 41,
  "M": 42,
  "N": 43,
  "O": 44,
  "P": 45,
  "Q": 46,
  "R": 47,
  "S": 48,
  "T": 49,
  "U": 50,
  "V": 51,
  "W": 52,
  "X": 53,
  "Y": 54,
  "Z": 55,
  "[": 56,
  "\\": 57,
  "]": 58,
  "^": 59,
  "_": 60,
  "`": 61,
  "a": 62,
  "b": 63,
  "c": 64,
  "d": 65,
  "e": 66,
  "f": 67,
  "g": 68,
  "h": 69,
  "i": 70,
  "j": 71,
  "k": 72,
  "l": 73,
  "m": 74,
  "n": 75,
  "o": 76,
  "p": 77,
  "q": 78,
  "r": 79,
  "s": 80,
  "t": 81,
  "u": 82,
  "v": 83,
  "w": 84,
  "x": 85,
  "y": 86,
  "z": 87,
  "|": 88,
  "~": 89,
  "\n": 162,
  " ": 163,
  "": 164,
  "i ": 199,
  "n ": 200,
  "ng": 201,
  "ng ": 202,
  "u ": 203,
  "e ": 204,
  "an ": 205,
  "o ": 206,
  "sh": 207,
  "zh": 208,
  "a ": 209,
  "ang ": 210,
  "ian ": 211,
  "ong ": 212,
  "  ": 213,
  "ao ": 214,
  "ai ": 215,
  "ing ": 216,
  "ei ": 217,
  "shi ": 218,
  "de ": 219,
  "ou ": 220,
  "eng ": 221,
  "en ": 222,
  "ch": 223,
  "uo ": 224,
  "ji": 225,
  "uan ": 226,
  "yi ": 227,
  "xi": 228,
  "   ": 230,
  "ui ": 231,
  "ji ": 232,
  "wei ": 233,
  "zhi ": 234,
  "yu ": 235,
  "ue ": 236,
  "nian ": 237,
  "li ": 238,
  "un ": 239,
  "zhong ": 240,
  "you ": 241,
  "in ": 242,
  "ren ": 243,
  "zai ": 244,
  "guo ": 245,
  "、": 246,
  " nian ": 247,
  "qi ": 248,
  "di ": 249,
  "he ": 250,
  "bu ": 251,
  "er": 252,
  " y": 253,
  "gong ": 254,
  "xing ": 255,
  "cheng ": 256,
  "da ": 257,
  "li": 258,
  "er ": 259,
  "xi ": 260,
  "jian ": 261,
  "si ": 262,
  "ge ": 263,
  "yuan ": 264,
  "fu ": 265,
  "xian ": 266,
  "ke ": 267,
  "wu ": 268,
  "sheng ": 269,
  "jie ": 270,
  "jia ": 271,
  "zhu ": 272,
  "dao ": 273,
  "zi ": 274,
  "bei ": 275,
  "hui ": 276,
  "fa ": 277,
  "shu ": 278,
  "xiang ": 279,
  "chu ": 280,
  "hu": 281,
  "iao ": 282,
  "zheng ": 283,
  "jin ": 284,
  "qu ": 285,
  "20": 286,
  "tong ": 287,
  "ta ": 288,
  "ju ": 289,
  "jing ": 290,
  "ming ": 291,
  "hou ": 292,
  "ri ": 293,
  "le ": 294,
  "shang ": 295,
  " yue ": 296,
  "shou ": 297,
  " d": 298,
  "fang ": 299,
  "19": 300,
  "hua ": 301,
  "xue ": 302,
  "ci ": 303,
  "guan ": 304,
  " b": 305,
  "zhan ": 306,
  "uang ": 307,
  "zuo ": 308,
  "zhe ": 309,
  "qi": 310,
  "dong ": 311,
  "mei ": 312,
  "jiao ": 313,
  "chang ": 314,
  "xin ": 315,
  "ying ": 316,
  " shi ": 317,
  "yan ": 318,
  "lu ": 319,
  "fen ": 320,
  "ye ": 321,
  "huo ": 322,
  "ti ": 323,
  "jun ": 324,
  "jiang ": 325,
  "dui ": 326,
  "xiao ": 327,
  "qian ": 328,
  "yin ": 329,
  "du ": 330,
  "she ": 331,
  "xia ": 332,
  "tai ": 333,
  "wen ": 334,
  "bao ": 335,
  "dian ": 336,
  "yong ": 337,
  "zhang ": 338,
  "gai ": 339,
  " ri ": 340,
  "liang ": 341,
  "ru ": 342,
  "hai ": 343,
  "mu ": 344,
  "zhou ": 345,
  "nan ": 346,
  "zu ": 347,
  "wang ": 348,
  "ya ": 349,
  "lai ": 350,
  "yue ": 351,
  "jiu ": 352,
  "dai ": 353,
  "qing ": 354,
  "ping ": 355,
  " yi ": 356,
  "shen ": 357,
  "ban ": 358,
  "》": 359,
  "《": 360,
  "wan ": 361,
  "lian ": 362,
  "ling ": 363,
  "luo ": 364,
  "·": 365,
  "quan ": 366,
  "min ": 367,
  "gao ": 368,
  "suo ": 369,
  "kai ": 370,
  "mi ": 371,
  "xie ": 372,
  "bi ": 373,
  "xu ": 374,
  "te ": 375,
  "biao ": 376,
  "mian ": 377,
  "zhen ": 378,
  "qiu ": 379,
  "gu ": 380,
  "ma ": 381,
  "duo ": 382,
  "zui ": 383,
  "ben ": 384,
  "sai ": 385,
  "la ": 386,
  "yao ": 387,
  "ding ": 388,
  "bian ": 389,
  "liu ": 390,
  "yang ": 391,
  "bo ": 392,
  "bing ": 393,
  " zai ": 394,
  "fan ": 395,
  "dang ": 396,
  "v ": 397,
  "dan ": 398,
  "xuan ": 399,
  " ta ": 400,
  "0 ": 401,
  "fei ": 402,
  "shan ": 403,
  "san ": 404,
  "hu ": 405,
  "deng ": 406,
  "ba ": 407,
  "zong ": 408,
  "「": 409,
  "che ": 410,
  "」": 411,
  "ie ": 412,
  "tian ": 413,
  "hao ": 414,
  "men ": 415,
  "lei ": 416,
  "su ": 417,
  "tu ": 418,
  "nei ": 419,
  "201": 420,
  " wei ": 421,
  " you ": 422,
  "feng ": 423,
  "lan ": 424,
  " 1": 425,
  " bing ": 426,
  "yun ": 427,
  "mo ": 428,
  "ze ": 429,
  "ni ": 430,
  "kou ": 431,
  " qi ": 432,
  "na ": 433,
  " dan ": 434,
  "wai ": 435,
  "neng ": 436,
  " 19": 437,
  "lin ": 438,
  "chuan ": 439,
  " de ": 440,
  "han ": 441,
  "jue ": 442,
  "chi ": 443,
  "pai ": 444,
  "cai ": 445,
  "zao ": 446,
  "ting ": 447,
  "de yi ": 448,
  "zhuan ": 449,
  "gang ": 450,
  "200": 451,
  "lie ": 452,
  "guang ": 453,
  "gui ": 454,
  "lun ": 455,
  " zhi ": 456,
  "sui ": 457,
  " ji ": 458,
  " er ": 459,
  "bai ": 460,
  "ceng ": 461,
  "kong ": 462,
  "shui ": 463,
  "chao ": 464,
  "pu ": 465,
  "zhuang ": 466,
  "2 ": 467,
  "tou ": 468,
  "can ": 469,
  "cha ": 470,
  " yu ": 471,
  "zhong guo ": 472,
  "1 ": 473,
  "ran ": 474,
  "dou ": 475,
  "duan ": 476,
  "cun ": 477,
  "huan ": 478,
  "lv ": 479,
  "cong ": 480,
  "pin ": 481,
  "chan ": 482,
  " zhe ": 483,
  "se ": 484,
  "xun ": 485,
  " ren ": 486,
  " yin ": 487,
  "ce ": 488,
  "0 nian ": 489,
  "cheng wei ": 490,
  "gou ": 491,
  "mei guo ": 492,
  "5 ": 493,
  "zhao ": 494,
  "gan ": 495,
  "chong ": 496,
  " nian 1": 497,
  "yi ge ": 498,
  "sha ": 499,
  "3 ": 500,
  " yue 1": 501,
  "qin ": 502,
  "tan ": 503,
  "meng ": 504,
  "qiang ": 505,
  "huang ": 506,
  "xiu ": 507,
  " gai ": 508,
  "tiao ": 509,
  "ka ": 510,
  "de shi ": 511,
  "shao ": 512,
  " li ": 513,
  "nv ": 514,
  "kuo ": 515,
  "long ": 516,
  "pi ": 517,
  "man ": 518,
  "pian ": 519,
  "shuo ": 520,
  " zhong ": 521,
  "tuan ": 522,
  "tang ": 523,
  "1 nian ": 524,
  "rong ": 525,
  "4 ": 526,
  "geng ": 527,
  "5 nian ": 528,
  "2 nian ": 529,
  " yue 2": 530,
  "chen ": 531,
  "202": 532,
  "4 nian ": 533,
  " he ": 534,
  " bu ": 535,
  "8 nian ": 536,
  "tui ": 537,
  " tong ": 538,
  "shi de ": 539,
  "3 nian ": 540,
  "tie ": 541,
  "que ": 542,
  "qie ": 543,
  "ren kou ": 544,
  "gen ": 545,
  " jin ": 546,
  "6 nian ": 547,
  "zheng fu ": 548,
  "li shi ": 549,
  " di ": 550,
  "pei ": 551,
  "hong ": 552,
  "hang ": 553,
  "wo ": 554,
  "6 ": 555,
  "7 nian ": 556,
  "liao ": 557,
  "shi yong ": 558,
  "chuang ": 559,
  "or": 560,
  "tuo ": 561,
  "da xue ": 562,
  "tao ": 563,
  "gong si ": 564,
  "shi yi ": 565,
  "bie ": 566,
  "po ": 567,
  "song ": 568,
  "bang ": 569,
  " bei ": 570,
  "ke yi ": 571,
  "00 ": 572,
  "guo jia ": 573,
  "shi jian ": 574,
  " xi ": 575,
  "di qu ": 576,
  "   19": 577,
  "8 ": 578,
  "uai ": 579,
  "mai ": 580,
  " ye ": 581,
  " dang ": 582,
  " da ": 583,
  "kai shi ": 584,
  "ping fang ": 585,
  "gong li ": 586,
  " ci ": 587,
  " fu ": 588,
  "wa ": 589,
  "9 nian ": 590,
  "pan ": 591,
  "qiao ": 592,
  "wei yu ": 593,
  "mao ": 594,
  "jin xing ": 595,
  "lang ": 596,
  "kan ": 597,
  "bu fen ": 598,
  "kang ": 599,
  "7 ": 601,
  "shi jie ": 602,
  "t ": 603,
  "xiang gang ": 604,
  " huo ": 605,
  "ni": 606,
  "dun ": 607,
  " bao ": 608,
  "lao ": 609,
  "zeng ": 610,
  "di yi ": 611,
  "sa ": 612,
  "mian ji ": 613,
  " zhu ": 614,
  " xian ": 615,
  "diao ": 616,
  " wu ": 617,
  "ren min ": 618,
  "ri ben ": 619,
  " 201": 620,
  "ha ": 621,
  " hou ": 622,
  "ren wei ": 623,
  "zheng zhi ": 624,
  "kao ": 625,
  "ji de ": 626,
  "xiong ": 627,
  "yan jiu ": 628,
  " ke ": 629,
  "mei you ": 630,
  "zhi yi ": 631,
  "tai wan ": 632,
  " 200": 633,
  "wei yuan ": 634,
  "shi qi ": 635,
  " ying ": 636,
  " zui ": 637,
  " jie ": 638,
  "nuo ": 639,
  "lv": 640,
  "miao ": 641,
  "ar": 642,
  "yi zhi ": 643,
  "rang ": 644,
  "kuang ": 645,
  " gong ": 646,
  "huo de ": 647,
  "guo ji ": 648,
  "s ": 649,
  "qi ta ": 650,
  "yi ji ": 651,
  "suan ": 652,
  "hen ": 653,
  " yuan ": 654,
  "zhong de ": 655,
  " jian ": 656,
  " zi ": 657,
  "zuo wei ": 658,
  "ku ": 659,
  "fa guo ": 660,
  "18": 661,
  " chu ": 662,
  "zhun ": 663,
  "yu 19": 664,
  "de yi ge ": 665,
  "   zai ": 666,
  "   201": 667,
  "yun dong ": 668,
  "an": 669,
  "li de ": 670,
  "xing de ": 671,
  " qi zhong ": 672,
  "shi ji ": 673,
  "dai biao ": 674,
  "cao ": 675,
  " cheng ": 676,
  "re ": 677,
  " sui ": 678,
  "zhong xin ": 679,
  "qun ": 680,
  " jiang ": 681,
  " jia ": 682,
  "hun ": 683,
  "gong zuo ": 684,
  " xin ": 685,
  "ta men ": 686,
  "shi shi ": 687,
  "she ji ": 688,
  "nong ": 689,
  " si ": 690,
  " dong ": 691,
  "dian ying ": 692,
  " ru ": 693,
  " hai ": 694,
  " sheng ": 695,
  "zhu yao ": 696,
  "de ji ": 697,
  "heng ": 698,
  "de di ": 699,
  "shi wei ": 700,
  "s   ": 701,
  " ju ": 702,
  "li ya ": 703,
  "shuang ": 704,
  " 2": 705,
  "lou ": 706,
  " xiang ": 707,
  " jing ": 708,
  "10": 709,
  "gei ": 710,
  "zu zhi ": 711,
  "zhu yi ": 712,
  "zheng shi ": 713,
  "shu yu ": 714,
  "he guo ": 715,
  " wei yu ": 716,
  "kuai ": 717,
  "ta de ": 718,
  "piao ": 719,
  "qu de ": 720,
  " ge ": 721,
  "fa xian ": 722,
  "che zhan ": 723,
  "zha ": 724,
  "xi tong ": 725,
  "xing zheng ": 726,
  "niu ": 727,
  "gen ju ": 728,
  "hei ": 729,
  "fa zhan ": 730,
  "xue yuan ": 731,
  "2 yue ": 732,
  " mei ": 733,
  " shou ": 734,
  "cheng shi ": 735,
  "zou ": 736,
  " ling ": 737,
  "reng ": 738,
  "biao shi ": 739,
  "chun ": 740,
  "ke neng ": 741,
  "sen ": 742,
  "bao kuo ": 743,
  " yan ": 744,
  "di er ": 745,
  " nan ": 746,
  "dian shi ": 747,
  "you xi ": 749,
  "de zhi ": 750,
  "ua ": 751,
  "qi jian ": 752,
  " bi ": 753,
  "she hui ": 754,
  "kuan ": 755,
  "ying xiang ": 756,
  "—": 757,
  "yi yuan ": 758,
  "ren wu ": 759,
  "sun ": 760,
  "rui ": 761,
  " yin ci ": 762,
  "wen hua ": 763,
  "pao ": 764,
  "9 ": 765,
  "can jia ": 766,
  "you yi ": 767,
  "bu tong ": 768,
  " yi ji ": 769,
  " shang ": 770,
  "jiao yu ": 771,
  "dan ren ": 772,
  "ti": 773,
  "luo si ": 774,
  "al": 775,
  " suo ": 776,
  "en": 777,
  "wei yuan hui ": 778,
  "for": 779,
  "jian de ": 780,
  "jing ji ": 781,
  "ping fang gong li ": 782,
  "on ": 783,
  "ning ": 784,
  " 3": 785,
  "cang ": 786,
  " qian ": 787,
  " shi yi ": 788,
  "ming wei ": 789,
  "shi zhen ": 790,
  "tong guo ": 791,
  "yi shi ": 792,
  "ti gong ": 793,
  " dao ": 794,
  "xue xiao ": 795,
  " fen ": 796,
  " dui ": 797,
  "mou ": 798,
  " zhong guo ": 799,
  " deng ": 800,
  "bi sai ": 801,
  "gong he guo ": 802,
  " mu ": 803,
  "jian zhu ": 804,
  " a ": 805,
  "guan li ": 806,
  "mu": 807,
  " bao kuo ": 808,
  " ma ": 809,
  " C": 810,
  "fa sheng ": 811,
  "ying guo ": 812,
  " ta men ": 813,
  "zuo pin ": 814,
  " gu ": 815,
  "de guo ": 816,
  " xing ": 817,
  "shi zai ": 818,
  "in": 819,
  " liang ": 820,
  " ba ": 821,
  "chu xian ": 822,
  "shi wu ": 823,
  "tie lu ": 824,
  "shi you ": 825,
  "huo dong ": 826,
  " jiu ": 827,
  "t   ": 828,
  "peng ": 829,
  "bei jing ": 830,
  " S": 831,
  "bin ": 832,
  " shen ": 833,
  "zhong yang ": 834,
  "huai ": 835,
  " zong ": 836,
  "zhi de ": 837,
  " cong ": 838,
  "cheng li ": 839,
  "5 ri ": 840,
  "yin yue ": 841,
  "shu de ": 842,
  " you yu ": 843,
  " qing ": 844,
  "mula ": 845,
  "formula ": 846,
  " ran ": 847,
  " xiao ": 848,
  "zi ji ": 849,
  "d   ": 850,
  "8 ri ": 851,
  "zhong hua ": 852,
  "ji hua ": 853,
  "wen ti ": 854,
  "wei zhi ": 855,
  "cheng yuan ": 856,
  "ruo ": 857,
  "zan ": 858,
  " quan ": 859,
  "shang de ": 860,
  " 0": 861,
  " shi ji ": 862,
  "le yi ": 863,
  " bo ": 864,
  "xu duo ": 865,
  " ming ": 866,
  "   di ": 867,
  "   sheng ": 868,
  " 199": 869,
  "bei bu ": 870,
  "da de ": 871,
  "pa ": 872,
  "20 nian ": 873,
  "xian de ": 874,
  "hui yi ": 875,
  " zheng ": 876,
  "11": 877,
  "zhi hou ": 878,
  " 18": 879,
  " zhang ": 880,
  "ren de ": 881,
  "199": 882,
  "am": 883,
  " liu ": 884,
  "chou ": 885,
  "zhui ": 886,
  "6 ri ": 887,
  " ceng ": 888,
  " A": 889,
  "7 ri ": 890,
  "1 ri ": 891,
  " fa ": 892,
  " 5": 893,
  "guan xi ": 894,
  " xia ": 895,
  "4 ri ": 896,
  "ni ya ": 897,
  "chu de ": 898,
  " san ": 899,
  "can yu ": 900,
  " 4": 901,
  " guo ": 902,
  " dian ": 903,
  "   200": 904,
  "xuan bu ": 905,
  " wang ": 906,
  "fu wu ": 907,
  "on": 908,
  "er shi ": 909,
  "3 ri ": 910,
  "zhan zheng ": 911,
  "suo you ": 912,
  "zhi shi ": 913,
  "e luo si ": 914,
  "xing shi ": 915,
  "   202": 916,
  "zhi zuo ": 917,
  "zhong yao ": 918,
  "el": 919,
  "nai ": 920,
  " ben ": 921,
  " lu ": 922,
  " yong ": 923,
  " wo ": 924,
  "qian mi ": 925,
  " shu ": 926,
  " duo ": 927,
  " M": 928,
  "zu qiu ": 929,
  "fang mian ": 930,
  "cheng de ": 931,
  "jin ru ": 932,
  "jue ding ": 933,
  " nian 10": 934,
  "ren he ": 936,
  " ai ": 937,
  "xue jia ": 938,
  "0 nian dai ": 939,
  "wei yi ": 940,
  "guan jun ": 941,
  "dao de ": 942,
  " zhan ": 943,
  "bu de ": 944,
  " luo ": 945,
  " fei ": 946,
  "you yu ": 947,
  "shu ji ": 948,
  "shun ": 949,
  "fu ze ": 950,
  "di de ": 951,
  "xue sheng ": 952,
  "nu ": 953,
  " an ": 954,
  " tai ": 955,
  "yi wei ": 956,
  "10 ": 957,
  "quan guo ": 958,
  "lve ": 959,
  "xu yao ": 960,
  " 6": 961,
  "zhai ": 962,
  "ren min gong he guo ": 963,
  "y   ": 964,
  "lai zi ": 965,
  "lie che ": 966,
  "yi jing ": 967,
  "shou dao ": 968,
  "e   ": 969,
  " tong shi ": 970,
  "9 yue ": 971,
  "ou zhou ": 972,
  " g": 973,
  "8 yue ": 974,
  "2019": 975,
  "7 yue ": 976,
  " gao ": 977,
  "ping fang qian mi ": 978,
  "qi shi ": 979,
  " fan ": 980,
  "12": 981,
  " 198": 982,
  " yin wei ": 983,
  "za ": 984,
  "30": 985,
  " tian ": 986,
  "fang shi ": 987,
  " hui ": 988,
  " han ": 989,
  "ke lan ": 990,
  "she you ": 991,
  "juan ": 992,
  " guan ": 993,
  " nian 11": 994,
  "ro": 995,
  "liang ge ": 996,
  "xian shi ": 997,
  "de li ": 998,
  "shang hai ": 999,
  " hua ": 1000,
  "ju xing ": 1001,
  "bao hu ": 1002,
  "cun zai ": 1003,
  "cui ": 1004,
  "zi you ": 1005,
  "kun ": 1006,
  "ren yuan ": 1007,
  "15": 1008,
  "ji shu ": 1009,
  "min guo ": 1010,
  "st": 1011,
  " l": 1012,
  "re": 1013,
  "shi yan ": 1014,
  "fa xing ": 1015,
  " T": 1016,
  "ri": 1017,
  "zong tong ": 1018,
  " mo ": 1019,
  "chu le ": 1020,
  "C ": 1021,
  "cheng gong ": 1022,
  "qi de ": 1023,
  "er de ": 1024,
  "li si ": 1025,
  " 202": 1026,
  "zhuan ji ": 1027,
  "   li shi ": 1028,
  " yue 1 ri ": 1029,
  "bu shi ": 1030,
  "yin wei ": 1031,
  " dai ": 1032,
  "yin du ": 1033,
  " lian ": 1034,
  " xue ": 1035,
  "cuo ": 1036,
  "kai fa ": 1037,
  "he   ": 1038,
  " I": 1039,
  "jia ru ": 1040,
  "qu yu ": 1041,
  "sheng huo ": 1042,
  " cheng wei ": 1043,
  "zhi jian ": 1044,
  "zhi chi ": 1045,
  "qiu dui ": 1046,
  "dan wei ": 1047,
  "mi du ": 1048,
  "17": 1049,
  "3 yue ": 1050,
  "cai yong ": 1051,
  "   sheng ping ": 1052,
  "jie shou ": 1053,
  "qing kuang ": 1054,
  "wan cheng ": 1055,
  "xuan ju ": 1056,
  "16": 1057,
  "jun shi ": 1058,
  "zang ": 1059,
  "2020 nian ": 1060,
  "luan ": 1061,
  "shuai ": 1062,
  "   yu ": 1063,
  " B": 1064,
  "tong shi ": 1065,
  "xiang guan ": 1066,
  " bai ": 1067,
  "qian wang ": 1068,
  "da lu ": 1069,
  " chang ": 1070,
  "tong yi ": 1071,
  "zhi wu ": 1072,
  "gong yuan ": 1073,
  "5 yue ": 1074,
  "si te ": 1075,
  " li ru ": 1076,
  "zhe xie ": 1077,
  "de dao ": 1078,
  " ti ": 1079,
  " bian ": 1080,
  "da li ": 1081,
  "   yi ": 1082,
  "jie mu ": 1083,
  "ren shi ": 1084,
  "00": 1085,
  "xi ya ": 1086,
  " P": 1087,
  "zai 19": 1088,
  "yu yan ": 1089,
  "nao ": 1090,
  "jue se ": 1091,
  " ao ": 1092,
  "ming de ": 1093,
  " hu ": 1094,
  "gong cheng ": 1095,
  "fen wei ": 1096,
  "ruan ": 1097,
  "jian li ": 1098,
  " feng ": 1099,
  "kui ": 1100,
  "lian meng ": 1101,
  "de zhu ": 1102,
  "xing wei ": 1103,
  "he zuo ": 1104,
  "shu ju ": 1105,
  "6 yue ": 1106,
  " 194": 1107,
  "ol": 1108,
  "zhi dao ": 1109,
  "chan sheng ": 1110,
  "ke si ": 1111,
  "yi zhong ": 1112,
  "da dao ": 1113,
  " ping ": 1114,
  "gong you ": 1115,
  "di san ": 1116,
  "sang ": 1117,
  "qi zhong ": 1118,
  "jiao tong ": 1119,
  "bu dui ": 1120,
  "zai ci ": 1121,
  "4 yue ": 1122,
  " mei guo ": 1123,
  "te bie ": 1124,
  "lei si ": 1125,
  "lai de ": 1126,
  "xiao shi ": 1127,
  "zhe ge ": 1128,
  "yuan de ": 1129,
  " wan ": 1130,
  "xi lie ": 1131,
  "ou": 1132,
  "xing dong ": 1133,
  " guang ": 1134,
  "yi de ": 1135,
  "nan bu ": 1136,
  " D": 1137,
  " ran er ": 1138,
  " mian ji ": 1139,
  "you xian ": 1140,
  "shi zhi ": 1141,
  "th": 1142,
  "die ": 1143,
  "yu 201": 1144,
  "wei ji ": 1145,
  "y ": 1146,
  "lian sai ": 1147,
  "zui gao ": 1148,
  "niao ": 1149,
  "gao du ": 1150,
  "sheng yu ": 1151,
  "chu ban ": 1152,
  "zhu xi ": 1153,
  " bing qie ": 1154,
  "2 ri ": 1155,
  " 7": 1156,
  "yi qi ": 1157,
  "min zhu ": 1158,
  "zh ": 1159,
  "zui hou ": 1160,
  "xiang mu ": 1161,
  "   gai ": 1162,
  "9 ri ": 1163,
  "tong zhi ": 1164,
  "d ": 1165,
  "ji shi ": 1166,
  "zhu jiao ": 1167,
  "mian ji wei ": 1168,
  " nian 1 yue ": 1169,
  "qu wei ": 1170,
  "zeng jia ": 1171,
  "chao guo ": 1172,
  " shan ": 1173,
  " du ": 1174,
  "ge ren ": 1175,
  "fu jin ": 1176,
  "ying de ": 1177,
  "dang shi ": 1178,
  "sheng chan ": 1179,
  "ye shi ": 1180,
  "zu cheng ": 1181,
  "du li ": 1182,
  "rao ": 1183,
  "zhuo ": 1184,
  " zhe xie ": 1185,
  "chai ": 1186,
  "yong yu ": 1187,
  "kong zhi ": 1188,
  " tong nian ": 1189,
  " ren kou ": 1190,
  " 8": 1191,
  "de you ": 1192,
  "jie gou ": 1193,
  " su ": 1194,
  "xian zhi ": 1195,
  "xue xi ": 1196,
  " 195": 1197,
  "lian he ": 1198,
  " jiao ": 1199,
  " zuo ": 1200,
  " ta zai ": 1201,
  "ge qu ": 1202,
  "wu ke lan ": 1203,
  "14": 1204,
  "shou ci ": 1205,
  "di fang ": 1206,
  "dao zhi ": 1207,
  "di guo ": 1208,
  "yong you ": 1209,
  "on   ": 1210,
  "de ren ": 1211,
  " gt ": 1212,
  " ban ": 1213,
  "ji lu ": 1214,
  "si ke ": 1215,
  " 9": 1216,
  "dong wu ": 1217,
  "13": 1218,
  " gen ju ": 1219,
  "jie shu ": 1220,
  "A ": 1221,
  "chuan tong ": 1222,
  "ji yu ": 1223,
  " nian 12 yue ": 1224,
  "qu shi ": 1225,
  " 197": 1226,
  "o   ": 1227,
  "hai jun ": 1228,
  "de gong ": 1229,
  " chen ": 1230,
  "yao qiu ": 1231,
  "jin shi ": 1232,
  "hang kong ": 1233,
  "sou ": 1234,
  " huang ": 1235,
  "shu liang ": 1236,
  "wei er ": 1237,
  " pu ": 1238,
  "ji xu ": 1239,
  "il": 1240,
  "zhi qian ": 1241,
  "   S": 1242,
  " hou lai ": 1243,
  "ken ": 1244,
  " lt ": 1245,
  " ze ": 1246,
  " biao ": 1247,
  "de da ": 1248,
  "ji zhong ": 1249,
  "bu yu ": 1250,
  "fan ying ": 1251,
  "yi shu ": 1252,
  " ya ": 1253,
  "ju you ": 1254,
  " zui zhong ": 1255,
  "shi yu ": 1256,
  "de fu ": 1257,
  "ac": 1258,
  "teng ": 1259,
  "zi zhi ": 1260,
  "ge ming ": 1261,
  "ji tuan ": 1262,
  "dang di ": 1263,
  "50 ": 1264,
  "yi ci ": 1265,
  "jiu shi ": 1266,
  " zhi hou ": 1267,
  "sheng ji ": 1268,
  "pang ": 1269,
  "yi hui ": 1270,
  " dan shi ": 1271,
  "rou ": 1272,
  "yi bu ": 1273,
  "shi dai ": 1274,
  "zhi chu ": 1275,
  " E": 1276,
  "ke xue ": 1277,
  " ka ": 1278,
  "198": 1279,
  " bing zai ": 1280,
  "nei rong ": 1281,
  "ge lan ": 1282,
  "chong xin ": 1283,
  "ji gou ": 1284,
  "guo min ": 1285,
  "fou ": 1286,
  "2019 nian ": 1287,
  " wen ": 1288,
  " ri ben ": 1289,
  " yang ": 1290,
  " 15": 1291,
  "dao le ": 1292,
  " yao ": 1293,
  "jun dui ": 1294,
  " ci wai ": 1295,
  "bi ye ": 1296,
  "om": 1297,
  "gu shi ": 1298,
  "fan wei ": 1299,
  "zhi wei ": 1300,
  "luo ma ": 1301,
  "mei ti ": 1302,
  "30 ": 1303,
  "li yu ": 1304,
  " H": 1305,
  " tu ": 1306,
  "ji qi ": 1307,
  "chuang zuo ": 1308,
  " hao ": 1309,
  "xing xing ": 1310,
  "at": 1311,
  "an quan ": 1312,
  "cu ": 1313,
  "de xin ": 1314,
  "fen bie ": 1315,
  "ji chang ": 1316,
  "fa bu ": 1317,
  "si": 1318,
  " 16": 1319,
  "yi xie ": 1320,
  "nv zi ": 1321,
  " shi wei yu ": 1322,
  " bu guo ": 1323,
  " shu yu ": 1324,
  "yu shi ": 1325,
  "ban ya ": 1326,
  "di si ": 1327,
  "zao cheng ": 1328,
  "de xiao ": 1329,
  "zhi hui ": 1330,
  "diao cha ": 1331,
  " cai ": 1332,
  " kai ": 1333,
  " qie ": 1334,
  " nian 10 yue ": 1335,
  "zi ji de ": 1336,
  " lin ": 1337,
  "di shi ": 1338,
  "yun dong yuan ": 1339,
  " 193": 1340,
  " L": 1341,
  "jiao shou ": 1342,
  " zhu yao ": 1343,
  "tong chang ": 1344,
  " na ": 1345,
  "yi si ": 1346,
  "cheng ji ": 1347,
  "zhi ye ": 1348,
  "biao zhun ": 1349,
  "zun ": 1350,
  "wu fa ": 1351,
  " 196": 1352,
  "nei de ": 1353,
  " zhong hua ": 1354,
  "ling dao ": 1355,
  " she ": 1356,
  " R": 1357,
  "de sheng ": 1358,
  "tui chu ": 1359,
  "gua ": 1360,
  "huan jing ": 1361,
  " zhao ": 1362,
  "ti yu ": 1363,
  "shi zhong ": 1364,
  "gong ji ": 1365,
  "xuan ze ": 1366,
  "yi lai ": 1367,
  "xing cheng ": 1368,
  "12 ": 1369,
  "ju min ": 1370,
  "zui zhong ": 1371,
  "fang fa ": 1372,
  " ta de ": 1373,
  "nan zi ": 1374,
  "ma wei ": 1375,
  "kua ": 1376,
  " mi ": 1377,
  "min zu ": 1378,
  "jia zu ": 1379,
  " zh ": 1380,
  "shi he ": 1381,
  "you guan ": 1382,
  "fo ": 1383,
  "zhu ren ": 1384,
  "you ji ": 1385,
  "hou de ": 1386,
  "jue sai ": 1387,
  "me ": 1388,
  " N": 1390,
  " geng ": 1391,
  "di": 1392,
  "xin de ": 1393,
  " xu ": 1394,
  "gong shi ": 1395,
  "ke de ": 1396,
  "yu de ": 1397,
  "wu guan ": 1398,
  "of": 1399,
  "ju ban ": 1400,
  " G": 1401,
  "nv xing ": 1402,
  "ya li ": 1403,
  "gong chan ": 1404,
  "nie ": 1405,
  "zhe yi ": 1406,
  "ji wei ": 1407,
  "zhi jie ": 1408,
  "   di li ": 1409,
  "gong lu ": 1410,
  "zhong hua ren min gong he guo ": 1411,
  "zi liao ": 1412,
  "ti chu ": 1413,
  "T ": 1414,
  "zhi xing ": 1415,
  "fa yuan ": 1416,
  "dui yu ": 1417,
  "lian bang ": 1418,
  " dang shi ": 1419,
  "qi ye ": 1420,
  "zhi you ": 1421,
  "gai bian ": 1422,
  "xie hui ": 1423,
  "han guo ": 1424,
  "lian jie ": 1425,
  " h": 1426,
  "dong hua ": 1427,
  "zhi yu ": 1428,
  "ming cheng ": 1429,
  " sui ran ": 1430,
  "bu zhang ": 1431,
  "jian yu ": 1432,
  "er   ": 1433,
  "xia de ": 1434,
  " zhen ": 1435,
  " qu ": 1436,
  " zu ": 1437,
  "－": 1438,
  "   ben ": 1439,
  "xin wen ": 1440,
  " F": 1441,
  "ji nian ": 1442,
  "da liang ": 1443,
  "ne ": 1444,
  "yin hang ": 1445,
  "a   ": 1446,
  " ni ": 1447,
  " nian 11 yue ": 1448,
  " lai ": 1449,
  "zhan shi ": 1450,
  "r ": 1451,
  "fa biao ": 1452,
  "fei chang ": 1453,
  "jing li ": 1454,
  " ha ": 1455,
  "   199": 1456,
  "de wu ": 1457,
  "shang ye ": 1458,
  "er nian ": 1459,
  "yi ban ": 1460,
  " yun ": 1461,
  "san nian ": 1462,
  " zhuan ": 1463,
  "xi de ": 1464,
  "wei qi ": 1465,
  "gong ye ": 1466,
  " fang ": 1467,
  "chu li ": 1468,
  "guan xia ": 1469,
  "yan chang ": 1470,
  "zhou de ": 1471,
  "fan dui ": 1472,
  "mie ": 1473,
  "tun ": 1474,
  "zhan dou ": 1475,
  "et": 1476,
  "er si ": 1477,
  " 10": 1478,
  "he wu ": 1479,
  "ban ben ": 1480,
  "wei shi ": 1481,
  " tai wan ": 1482,
  "jian she ": 1483,
  "sheng wu ": 1484,
  " hong ": 1485,
  " zhou ": 1486,
  "gong kai ": 1487,
  "xian dai ": 1488,
  "de yuan ": 1489,
  " gui ": 1490,
  "jiang jun ": 1491,
  "le bu ": 1492,
  "gao su ": 1493,
  "ba shi ": 1494,
  "wei zhu ": 1495,
  "shen fen ": 1496,
  "da shi ": 1497,
  " mu qian ": 1498,
  "you shi ": 1499,
  "zhi yuan ": 1500,
  "m ": 1501,
  "zong jiao ": 1502,
  "fu de ": 1503,
  "ow": 1504,
  "jia ting ": 1505,
  "zheng ce ": 1506,
  "sheng ya ": 1507,
  " lei ": 1508,
  " 2 ": 1509,
  "ati": 1510,
  " xie ": 1511,
  "jie guo ": 1512,
  " 17": 1513,
  "a er ": 1514,
  "er zi ": 1515,
  "197": 1516,
  "xian zai ": 1517,
  "zhu jian ": 1518,
  "pu cha ": 1519,
  "11 ": 1520,
  "zheng zhi ren wu ": 1521,
  "hua de ": 1522,
  "wan quan ": 1523,
  " xiang gang ": 1524,
  "ping jun ": 1525,
  "na da ": 1526,
  "k ": 1527,
  "nv": 1528,
  "duo de ": 1529,
  " la ": 1530,
  "yu 200": 1531,
  "sai shi ": 1532,
  " ren kou mi du ": 1533,
  "hui fu ": 1534,
  "qi yu ": 1535,
  "   M": 1536,
  "ec": 1537,
  " suo yi ": 1538,
  " chao ": 1539,
  "ba gao du ": 1540,
  "shi chang ": 1541,
  "jian zhi ": 1542,
  " tang ": 1543,
  "da hui ": 1544,
  "zhong gong ": 1545,
  "wai jiao ": 1546,
  "li yong ": 1547,
  " J": 1548,
  "   C": 1549,
  "   ren kou ": 1550,
  "neng gou ": 1551,
  "wei ren ": 1552,
  "wei de ": 1553,
  "pai she ": 1554,
  "bu zai ": 1555,
  " dou ": 1556,
  " c": 1557,
  "zhe zhong ": 1558,
  "jian yi ": 1559,
  "leng ": 1560,
  "tuan ti ": 1561,
  "zhong xue ": 1562,
  "fang xiang ": 1563,
  "ji zai ": 1564,
  "jing nei ": 1565,
  "es": 1566,
  "2 yue 2": 1568,
  "jing guo ": 1569,
  "15 ": 1570,
  "si wang ": 1571,
  "gui mo ": 1572,
  " jun ": 1573,
  "ge zhong ": 1574,
  "gai guo ": 1575,
  "xiao shuo ": 1576,
  "zi ran ": 1577,
  "ding de ": 1578,
  "she shi ": 1580,
  "she li ": 1581,
  "ra": 1582,
  "mei yuan ": 1583,
  "S ": 1584,
  "bian ma wei ": 1585,
  "guo cheng ": 1586,
  "de yi ge shi zhen ": 1587,
  "yuan shi ": 1588,
  "mang ": 1589,
  "wen xue ": 1590,
  "chi xu ": 1591,
  "la": 1592,
  "guan yu ": 1593,
  "bing bu ": 1594,
  "jie shi ": 1595,
  "gong tong ": 1596,
  "you de ": 1597,
  "er sheng ": 1598,
  " xue ming ": 1599,
  " zhe shi ": 1600,
  "zuo yong ": 1601,
  "ren lei ": 1602,
  "miao shu ": 1603,
  "   gen ju ": 1604,
  "wen wu ": 1605,
  "gai wei ": 1606,
  "de shou ": 1607,
  " zuo wei ": 1608,
  "biao xian ": 1609,
  "qiu yuan ": 1610,
  " 000 ": 1611,
  "niu yue ": 1612,
  "〉": 1613,
  "〈": 1614,
  "wu zhong ": 1615,
  "ya zhou ": 1616,
  "si de ": 1617,
  "tai bei ": 1618,
  "   shi ": 1619,
  "   ci ": 1620,
  "qi hou ": 1621,
  "bao gao ": 1622,
  "jin biao ": 1623,
  " ling wai ": 1624,
  "jiao hui ": 1625,
  "li fa ": 1626,
  "da qu ": 1627,
  "yu yi ": 1628,
  "de hua ": 1629,
  "li kai ": 1630,
  "duo shu ": 1631,
  "reng ran ": 1632,
  "hou lai ": 1633,
  "tou guo ": 1634,
  "neng li ": 1635,
  "ic": 1636,
  "jie rang ": 1637,
  "pai ming ": 1638,
  "jie dao ": 1639,
  "p ": 1640,
  "zi de ": 1641,
  " que ": 1642,
  "xiang shi ": 1643,
  "fa lv ": 1645,
  "cheng ren ": 1646,
  "yan yuan ": 1647,
  "bo shi ": 1648,
  "ji yi ": 1649,
  "ji he ": 1650,
  "yan chu ": 1651,
  "D ": 1652,
  "su lian ": 1653,
  "ling shi ": 1654,
  "wu shi ": 1655,
  "bi xu ": 1656,
  "re dai ": 1657,
  "de he ": 1658,
  " zui hou ": 1659,
  "xiang tong ": 1660,
  " mai ": 1661,
  " bing yu ": 1662,
  "bao dao ": 1663,
  "ren kou pu cha ": 1664,
  "san ge ": 1665,
  "shui yu ": 1666,
  " ke yi ": 1667,
  "li lun ": 1668,
  "yang de ": 1669,
  "xi bu ": 1670,
  "mu qian ": 1671,
  "wu yuan ": 1672,
  "xi ban ya ": 1673,
  "chui ": 1674,
  " ru guo ": 1675,
  "kong jian ": 1676,
  "yi ming ": 1677,
  "meng gu ": 1678,
  "xing zheng qu ": 1679,
  "it": 1680,
  "gong chan dang ": 1681,
  "zhong guo da lu ": 1682,
  "jia de ": 1683,
  "quan li ": 1684,
  "yun dong hui ": 1685,
  "jin de ": 1686,
  "lu xian ": 1687,
  " sha ": 1688,
  "zheng yi ": 1689,
  "san shi ": 1690,
  " ye shi ": 1691,
  "le": 1692,
  "gong gong ": 1693,
  "ju li ": 1694,
  "40 ": 1695,
  "jie duan ": 1696,
  "guang bo ": 1697,
  "196": 1698,
  "dian zi ": 1699,
  "xia ji ": 1700,
  "xun lian ": 1701,
  "   A": 1702,
  "keng ": 1703,
  " zhi dao ": 1704,
  "dou shi ": 1705,
  "ge shou ": 1706,
  "194": 1707,
  "dan qu ": 1708,
  "pi ping ": 1709,
  "guan fang ": 1710,
  "zhong shi ": 1711,
  "jie fang ": 1712,
  " K": 1713,
  "   wei ": 1714,
  "zai di ": 1715,
  "2 yue 1": 1716,
  "yue tai ": 1717,
  "la si ": 1718,
  "guo wang ": 1719,
  "bian hua ": 1720,
  "he bing ": 1721,
  "zhi zao ": 1722,
  "hao de ": 1723,
  "si ling ": 1724,
  "dong bei ": 1725,
  "cheng du ": 1726,
  "bao han ": 1727,
  "20 ri ": 1728,
  "mu si ": 1729,
  "the   ": 1730,
  " zhe ge ": 1731,
  "si nian ": 1732,
  " sui hou ": 1733,
  "sheng de ": 1734,
  "–": 1735,
  "de yi bu fen ": 1736,
  "da zhan ": 1737,
  "bo wu guan ": 1738,
  "guo de ": 1739,
  "zhuan ye ": 1740,
  "zhi jian de ": 1741,
  "ao yun ": 1742,
  "chan pin ": 1743,
  "ke ji ": 1744,
  "feng ge ": 1745,
  "sai ji ": 1746,
  "mu biao ": 1747,
  "gong bu ": 1748,
  "zao qi ": 1749,
  "lun dun ": 1750,
  "wei you ": 1751,
  "zui jia ": 1752,
  "25": 1753,
  " dang di ": 1754,
  " er qie ": 1755,
  "dong ji ": 1756,
  "0 ri ": 1757,
  " shui ": 1758,
  "yi bei ": 1759,
  "fu shi ": 1760,
  "dong bu ": 1761,
  "30 ri ": 1762,
  "quan qiu ": 1763,
  "lu jun ": 1764,
  "li xue ": 1765,
  " nei ": 1766,
  " 192": 1767,
  "bu hui ": 1768,
  " chong ": 1769,
  "de wei ": 1770,
  "bao fa ": 1771,
  "ji di ": 1772,
  "yi xia ": 1773,
  "yan zhong ": 1774,
  "an de ": 1775,
  "ke li ": 1776,
  "ci shi ": 1777,
  "mei zhou ": 1778,
  " xuan ": 1779,
  "kai fang ": 1780,
  "chang de ": 1781,
  " di er ": 1782,
  "jin ji ": 1783,
  " 20": 1784,
  "ren zhi ": 1785,
  "zhu chi ": 1786,
  " jin guan ": 1787,
  "…": 1788,
  "xi ji ": 1789,
  "xi la ": 1790,
  "zi ge ": 1791,
  "   198": 1792,
  "xi bao ": 1793,
  "100 ": 1794,
  "bei cheng wei ": 1795,
  "qi yi ": 1796,
  " W": 1797,
  "si tan ": 1798,
  "13 ": 1799,
  "pi ke ": 1800,
  " song ": 1801,
  "zhou shi ": 1802,
  " yu shi ": 1803,
  "ming ming ": 1804,
  " pei ": 1805,
  "li zi ": 1806,
  "ur": 1807,
  " ding ": 1808,
  "you xian gong si ": 1809,
  "fu he ": 1810,
  "16 ": 1811,
  "2010 nian ": 1812,
  "qing nian ": 1813,
  "ta zai ": 1814,
  "hao xian ": 1815,
  "yuan yin ": 1816,
  "jiang qi ": 1817,
  "zhe de ": 1818,
  "si ji ": 1819,
  "UT": 1820,
  "si shi ": 1821,
  "dao shi ": 1822,
  " e ": 1823,
  " rang ": 1824,
  "dong shi ": 1825,
  "zhu ti ": 1826,
  "..": 1827,
  "shan xi ": 1828,
  "xiang dang ": 1829,
  "   ju ": 1830,
  "chu yu ": 1831,
  "yin ci ": 1832,
  "dong jing ": 1833,
  "ying yong ": 1834,
  "yu 199": 1835,
  " 3 ": 1836,
  "xiang de ": 1837,
  "gai nian ": 1838,
  "li ji ": 1839,
  " 14": 1840,
  "qi zi ": 1841,
  "gong neng ": 1842,
  "hen duo ": 1843,
  "he yi ": 1844,
  "gui ding ": 1845,
  "xin xi ": 1846,
  " gan ": 1847,
  "di wei ": 1848,
  "bu men ": 1849,
  "nong ye ": 1850,
  "deng ren ": 1851,
  "   P": 1852,
  "   T": 1853,
  "zai yi ": 1854,
  "   nian ": 1855,
  "gui dao ": 1856,
  "di li ": 1857,
  "60 ": 1858,
  "zao dao ": 1859,
  "mo shi ": 1860,
  " yue 15 ri ": 1861,
  "ji chu ": 1862,
  "ai er ": 1863,
  "ji jin ": 1864,
  "jie chu ": 1865,
  "jie he ": 1866,
  "195": 1867,
  "jie de ": 1868,
  "she qu ": 1869,
  " chuan ": 1870,
  "dong nan ": 1871,
  "ming zi ": 1872,
  "ao lin ": 1873,
  "di yi ci ": 1874,
  "fen zhong ": 1875,
  "bu neng ": 1876,
  "14 ": 1877,
  "de zhong ": 1878,
  "hao mi ": 1879,
  "xing qi ": 1880,
  "tong nian ": 1881,
  "shi ren ": 1882,
  "da bu fen ": 1883,
  "xia xia ": 1884,
  " kang ": 1885,
  "fu qin ": 1886,
  "tou zi ": 1887,
  "ge yue ": 1888,
  "tai ping ": 1889,
  "gai ge ": 1890,
  "pen ": 1891,
  "   you ": 1892,
  "zhong hua min guo ": 1893,
  "18 ": 1894,
  "de si ": 1895,
  " ta ceng ": 1896,
  "shi li ": 1897,
  " te ": 1898,
  "shi qu ": 1899,
  "bo lan ": 1900,
  "chao xian ": 1901,
  "shi ye ": 1902,
  "bian de ": 1903,
  "as": 1904,
  "jian cha ": 1905,
  "   194": 1906,
  " wei le ": 1907,
  "zhi zai ": 1908,
  " qi hou ": 1909,
  "ji bai ": 1910,
  "jing cha ": 1911,
  "wang luo ": 1912,
  "gong chi ": 1913,
  "ma li ": 1914,
  "19 ri ": 1915,
  "yue han ": 1916,
  "shi xian ": 1917,
  " yue 28 ri ": 1918,
  " dan zai ": 1919,
  "jian zao ": 1920,
  "can sai ": 1921,
  "yi dai ": 1922,
  " shi wei yu mei guo ": 1923,
  "shi xing ": 1924,
  "zhong bu ": 1925,
  " s": 1926,
  "sai er ": 1927,
  "fang de ": 1928,
  "shang shu ": 1929,
  " min ": 1930,
  "bo te ": 1931,
  "zi yuan ": 1932,
  "ju zhu ": 1933,
  " hai ba gao du ": 1934,
  "   B": 1935,
  " wai ": 1936,
  "gui hua ": 1937,
  "xi wang ": 1938,
  "bo chu ": 1939,
  "xue zhe ": 1940,
  "dang xuan ": 1941,
  "tu di ": 1942,
  "jing ying ": 1943,
  "ji suan ": 1944,
  "jin biao sai ": 1945,
  "guan yuan ": 1946,
  "ye you ": 1947,
  "ir": 1948,
  "un": 1949,
  "a la ": 1950,
  "ping lun ": 1951,
  "jie zhi ": 1952,
  "deng di ": 1953,
  " t": 1954,
  "tai yang ": 1955,
  "fen bu ": 1956,
  "jia na da ": 1957,
  "ke da ": 1958,
  " meng ": 1959,
  "bao chi ": 1960,
  " dang zhong ": 1961,
  "nan sheng ": 1962,
  "yi yang ": 1963,
  "bi ya ": 1964,
  "di qi ": 1965,
  "P ": 1966,
  "xiang dui ": 1967,
  "she bei ": 1968,
  "guang dong ": 1969,
  " ying guo ": 1970,
  "ju le bu ": 1971,
  "mi de ": 1972,
  " 2001 nian ": 1973,
  "UTC ": 1974,
  "zhi du ": 1975,
  "xue wei ": 1976,
  "ba li ": 1977,
  "che liang ": 1978,
  "zhi fu ": 1979,
  "yuan zhu ": 1980,
  "xi bei ": 1981,
  "ma lai ": 1982,
  "ding yi ": 1983,
  "su du ": 1984,
  " yue 10 ri ": 1985,
  "wu xian ": 1986,
  "di xia ": 1987,
  "25 ": 1988,
  "ao lin pi ke ": 1989,
  "zheng de ": 1990,
  "tong ji ": 1991,
  "zhuang tai ": 1992,
  " ran hou ": 1993,
  "31 ri ": 1994,
  "ti de ": 1995,
  "xiao de ": 1996,
  "shi chu ": 1997,
  "wei mei ": 1998,
  "xi nan ": 1999,
  "man hua ": 2000,
  " 5 ": 2001,
  "zhang de ": 2002,
  "zu he ": 2003,
  "ping jia ": 2004,
  "fen zi ": 2005,
  " yue 25 ri ": 2006,
  "pin dao ": 2007,
  "ji du ": 2008,
  "ji ben ": 2009,
  "24": 2010,
  "dian shi tai ": 2011,
  "   18": 2012,
  "yi yi ": 2013,
  "guang chang ": 2014,
  "de shi qu wei ": 2015,
  "shu guan ": 2016,
  "jian cheng ": 2017,
  "shi shang ": 2018,
  "yu zhong ": 2019,
  "li ke ": 2020,
  "wu de ": 2021,
  "tou piao ": 2022,
  "sheng ming ": 2023,
  " hei ": 2024,
  "zui da ": 2025,
  "lu di ": 2026,
  " 4 ": 2027,
  "em": 2028,
  " chi ": 2029,
  "zhan kai ": 2030,
  "er bei ": 2031,
  "tiao jian ": 2032,
  "dao yan ": 2033,
  "li wei ": 2034,
  "oo": 2035,
  " zhong hua ren min gong he guo ": 2036,
  "shen zhi ": 2037,
  " jian cheng ": 2038,
  "yu 202": 2039,
  "dao lu ": 2040,
  "50": 2041,
  "hai shi ": 2042,
  "ta men de ": 2043,
  " O": 2044,
  "jian dui ": 2045,
  "zhi zhong ": 2046,
  "fen lei ": 2047,
  "qun dao ": 2048,
  "zuo jia ": 2049,
  " zhe zhong ": 2050,
  " lao ": 2051,
  "zuo you ": 2052,
  "biao yan ": 2053,
  " pi ": 2054,
  "shang shi ": 2055,
  "da xing ": 2056,
  "shou du ": 2057,
  " yi ge ": 2058,
  "xian ren ": 2059,
  "   ta ": 2060,
  "sheng li ": 2061,
  " huan ": 2062,
  "zhi jin ": 2063,
  "xuan shou ": 2064,
  "fen xi ": 2065,
  "duo ci ": 2066,
  "hui zai ": 2067,
  "bu tong de ": 2068,
  "li fu ": 2069,
  "zhun bei ": 2070,
  " 1 ": 2071,
  " sa ": 2072,
  "qing kuang xia ": 2073,
  "jia zhi ": 2074,
  "bang zhu ": 2075,
  "hui de ": 2076,
  "ju jue ": 2077,
  " wei yu gai guo ": 2078,
  "27": 2079,
  "za zhi ": 2080,
  "hua xue ": 2081,
  "jiao tang ": 2082,
  "ceng jing ": 2083,
  "yu qi ": 2084,
  "yuan nian ": 2085,
  " ruo ": 2086,
  "shan dong ": 2087,
  " shuang ": 2088,
  "fei ji ": 2089,
  "quan bu ": 2090,
  "guang fan ": 2091,
  "liu xing ": 2092,
  " fen bie ": 2093,
  "she zhi ": 2094,
  "zhe jiang ": 2095,
  "yu 18": 2096,
  "fang an ": 2097,
  "jiao yi ": 2098,
  "ban dao ": 2099,
  "sui ran ": 2100,
  "hai ba ": 2101,
  " yue 18 ri ": 2102,
  "po huai ": 2103,
  "jun de ": 2104,
  "lian xi ": 2105,
  "fa she ": 2106,
  "chang pian ": 2107,
  "EE": 2108,
  " yi wei ": 2109,
  "bei er ": 2110,
  "yi hou ": 2111,
  "zheng quan ": 2112,
  "lian xu ": 2113,
  "nian de ": 2114,
  "zhi ding ": 2115,
  " er shi ": 2116,
  "St": 2117,
  "ling yu ": 2118,
  "ge li ": 2119,
  "   jin ": 2120,
  " xiong ": 2121,
  "zong he ": 2122,
  "23": 2123,
  "hui shi ": 2124,
  "te zheng ": 2125,
  " qiang ": 2126,
  "jin gong ": 2127,
  "zuo zhan ": 2128,
  " 190": 2129,
  "ub": 2130,
  " kong ": 2131,
  "ping tai ": 2132,
  " shi yong ": 2133,
  "chang shi ": 2134,
  "xian lu ": 2135,
  " lv ": 2136,
  "ren kou shu liang ": 2137,
  "wei si ": 2138,
  "jiao shi ": 2139,
  "bian cheng ": 2140,
  "29": 2141,
  " yue 16 ri ": 2142,
  " ta shi ": 2143,
  " dan ren ": 2144,
  " bin ": 2145,
  "zi xun ": 2146,
  " shi fa guo ": 2147,
  "da cheng ": 2148,
  " yue 26 ri ": 2149,
  "zhong zhi ": 2150,
  "zhan ling ": 2151,
  "yi ren ": 2152,
  "de shi zhen ": 2153,
  "xi ju ": 2154,
  "nan xing ": 2155,
  "wang zhan ": 2156,
  "ban de ": 2157,
  "chu sheng ": 2158,
  " fen bu yu ": 2159,
  " zao ": 2160,
  "21 ": 2161,
  "da li ya ": 2162,
  "zhi ming ": 2163,
  "zhi xia ": 2164,
  " qi ta ": 2165,
  "le   ": 2166,
  " ci hou ": 2167,
  "gai di ": 2168,
  "mu di ": 2169,
  " yue 17 ri ": 2170,
  "00 wan ": 2171,
  "fu jian ": 2172,
  "mi er ": 2173,
  "wei le ": 2174,
  "zhu li ": 2175,
  "I ": 2176,
  " diao ": 2177,
  "cheng zhen ": 2179,
  "ed   ": 2180,
  "he shi ": 2181,
  "qiong ": 2182,
  "yi shang ": 2183,
  " yue 12 ri ": 2184,
  "in   ": 2185,
  "he xin ": 2186,
  "ye wu ": 2187,
  "duo ge ": 2188,
  "er tong ": 2189,
  "bi jiao ": 2190,
  "28": 2191,
  "ji guan ": 2192,
  " man ": 2193,
  "20 ": 2194,
  "ren zai ": 2195,
  "hui dao ": 2196,
  "liang de ": 2197,
  "193": 2198,
  " yue 11 ri ": 2199,
  "   zheng zhi ": 2200,
  "xian fa ": 2201,
  "chang qi ": 2202,
  "bi de ": 2203,
  "wei chi ": 2204,
  " 191": 2205,
  "di yu ": 2206,
  "yin qi ": 2207,
  "fu ze guan xia ": 2208,
  "oc": 2209,
  " yue 24 ri ": 2210,
  " yue 29 ri ": 2211,
  " ren wei ": 2212,
  "di tie ": 2213,
  "yuan yu ": 2214,
  " mian ": 2215,
  "de   ": 2216,
  "mu qin ": 2217,
  " yue 21 ri ": 2218,
  "es ": 2219,
  "jia po ": 2220,
  "   L": 2221,
  "mei guo ren kou pu cha ": 2222,
  " yue 23 ri ": 2223,
  "da chen ": 2224,
  "zai 200": 2225,
  "xing zhi ": 2226,
  "di qu de ": 2227,
  "zui da de ": 2228,
  "di qiu ": 2229,
  "17 ": 2230,
  "tiao yue ": 2231,
  "da yue ": 2232,
  " yue 27 ri ": 2233,
  "hai you ": 2234,
  " che ": 2235,
  "   you yu ": 2236,
  "jing chang ": 2237,
  "jie jue ": 2238,
  "yi you ": 2239,
  "suo shu de ": 2240,
  " yue 2 ri ": 2241,
  "zhi wai ": 2242,
  "zai 201": 2243,
  "shou ge ": 2244,
  "nan jing ": 2245,
  "xuan chuan ": 2246,
  "wei sheng ": 2247,
  "ying ge lan ": 2248,
  "xie yi ": 2249,
  "ji zhe ": 2250,
  "zhi li ": 2251,
  "NS": 2252,
  " yue 22 ri ": 2253,
  "huo de le ": 2254,
  "tian zhu jiao ": 2255,
  "di ya ": 2256,
  "da lou ": 2257,
  "wei fu ": 2258,
  "24 ": 2259,
  "zhu shi ": 2260,
  " lan ": 2261,
  "wu li ": 2262,
  "ming dan ": 2263,
  "qu dai ": 2264,
  "zui chu ": 2265,
  "liu nian ": 2266,
  "ig": 2267,
  "zheng dang ": 2268,
  "ting zhi ": 2269,
  "is": 2270,
  "  formula ": 2271,
  "ke fu ": 2272,
  " sai ": 2273,
  "de shu ju ": 2274,
  "guo hui ": 2275,
  "tie dao ": 2276,
  "ling yi ": 2277,
  "nei bu ": 2278,
  "ji hui ": 2279,
  "xian hou ": 2280,
  "de shi jian ": 2281,
  "yuan zi ": 2282,
  "guan zhong ": 2283,
  " gang ": 2284,
  "tao lun ": 2285,
  " chuang ": 2286,
  "zhen qu ": 2287,
  "zhan yi ": 2288,
  "jie jin ": 2289,
  "shu shi ": 2290,
  "zheng ge ": 2291,
  "   zhe ": 2292,
  " chu le ": 2293,
  "da fu ": 2294,
  "dian li ": 2295,
  "xing jian ": 2296,
  "mian de ": 2297,
  "xie zhu ": 2298,
  " yue 13 ri ": 2299,
  " yue 14 ri ": 2300,
  "22 ": 2301,
  "zui zao ": 2302,
  " 6 ": 2303,
  "jing shen ": 2304,
  "ge lei ": 2305,
  "zhu jue ": 2306,
  "shi yi zhong ": 2307,
  "zheng zai ": 2308,
  " xiu ": 2309,
  "jian shao ": 2310,
  "op": 2311,
  "26": 2312,
  "er qi ": 2313,
  "ze shi ": 2314,
  "ji ji ": 2315,
  "mao yi ": 2316,
  "   li ": 2317,
  "E ": 2318,
  "shang you ": 2319,
  "ce shi ": 2320,
  "xuan qu ": 2321,
  "de qi ": 2322,
  "gan ran ": 2323,
  " V": 2324,
  "sheng de yi ge shi zhen ": 2325,
  "wen wu bao hu ": 2326,
  "de qian ": 2327,
  "ag": 2328,
  "he ping ": 2329,
  "li yi ": 2330,
  "and   ": 2331,
  "dian shi ju ": 2332,
  "fei xing ": 2333,
  "of   ": 2334,
  " shi zhen ": 2335,
  "wu qi ": 2336,
  "n   ": 2337,
  "yan jiu suo ": 2338,
  "jin xing le ": 2339,
  "fa dong ": 2340,
  "lv shi ": 2341,
  " qin ": 2342,
  "nian qing ": 2343,
  " ying chi ": 2344,
  "chong tu ": 2345,
  "le yi ge ": 2346,
  "du shi ": 2347,
  "al   ": 2348,
  "ying pian ": 2349,
  "ji zhi ": 2350,
  "yi wai ": 2351,
  "bi li ": 2352,
  "lin shi ": 2353,
  "da xi ": 2354,
  "tou ru ": 2355,
  "bu luo ": 2356,
  "chan ye ": 2357,
  "jian shi ": 2358,
  "du de ": 2359,
  " shi yi ge ": 2360,
  "lv you ": 2361,
  "fo jiao ": 2362,
  "ji hu ": 2363,
  "bing li ": 2364,
  "qian de ": 2365,
  "shao nian ": 2366,
  "xi ge ": 2367,
  "kuai su ": 2368,
  "chu ren ": 2369,
  "di zhi ": 2370,
  "fa de ": 2371,
  "pi zhun ": 2372,
  "wan ren ": 2373,
  " mei you ": 2374,
  "chu qi ": 2375,
  " br ": 2376,
  "shang wu ": 2377,
  "zhi xian ": 2378,
  "gao zhong ": 2379,
  "   197": 2380,
  " huo de ": 2381,
  "   195": 2382,
  "zhu yan ": 2383,
  " tong chang ": 2384,
  "qi lai ": 2385,
  "ad": 2386,
  "dui de ": 2387,
  "sheng fen ": 2388,
  "shi zi ": 2389,
  "wang chao ": 2390,
  " fa guo ": 2391,
  "zai yu ": 2392,
  "er he ": 2393,
  "bao liu ": 2394,
  "xiao xue ": 2395,
  "wen wu bao hu dan wei ": 2396,
  "xian de yi ge ": 2397,
  "wan jia ": 2398,
  "gun ": 2399,
  "wo men ": 2400,
  "de yi zhong ": 2401,
  "se lie ": 2402,
  "zheng ju ": 2403,
  "di er ci ": 2404,
  "ni si ": 2405,
  "huang di ": 2406,
  " nv ": 2407,
  "zheng ming ": 2408,
  " yi ban ": 2409,
  "es   ": 2410,
  "wei ya ": 2411,
  "ke cheng ": 2412,
  "zhong dian ": 2413,
  " qiu ": 2414,
  "jia ge ": 2415,
  "hua shi ": 2416,
  "xiao zu ": 2417,
  " 2010 nian ": 2418,
  "shi jie da zhan ": 2419,
  " U": 2420,
  "yi dong ": 2421,
  "hai yu ": 2422,
  "que ding ": 2423,
  "yi nian ": 2424,
  "zuo chu ": 2425,
  "ao lin pi ke yun dong hui ": 2426,
  "zhi neng ": 2427,
  "bei ren wei ": 2428,
  "ru xia ": 2429,
  "ying yu ": 2430,
  "wei hui ": 2431,
  "ul": 2432,
  "40": 2433,
  "zhu de ": 2434,
  " 13": 2435,
  "jian jie ": 2436,
  "xian xiang ": 2437,
  "zi xing ": 2438,
  "80 ": 2439,
  "gao de ": 2440,
  "guang zhou ": 2441,
  "wei neng ": 2442,
  "shou de ": 2443,
  "shou ji ": 2444,
  "huang jia ": 2445,
  "ge di ": 2446,
  " shi jie ": 2447,
  "ent": 2448,
  "yu 198": 2449,
  " long ": 2450,
  "yun ying ": 2451,
  "shuo shi ": 2452,
  "jin zhi ": 2453,
  "tian wen ": 2454,
  "zong li ": 2455,
  "guai ": 2456,
  "   G": 2457,
  "yue nan ": 2458,
  " tong guo ": 2459,
  "he bei ": 2460,
  " wo men ": 2461,
  "cheng xu ": 2462,
  "zuo biao ": 2463,
  "sheng wei ": 2464,
  "xiong di ": 2465,
  "bu duan ": 2466,
  " bu fen ": 2467,
  "he liu ": 2468,
  "fu yi ": 2469,
  "shu wei ": 2470,
  "qi wei ": 2471,
  "zhong you ": 2472,
  "kong jun ": 2473,
  "fan hui ": 2474,
  "w ": 2475,
  "yi jian ": 2476,
  "um": 2477,
  " guo jia ": 2478,
  "yun shu ": 2479,
  "xing zheng qu hua ": 2480,
  "shuo fa ": 2481,
  "zhi liao ": 2482,
  "wang guo ": 2483,
  " kai shi ": 2484,
  " qiao ": 2485,
  "gao deng ": 2486,
  "ke luo ": 2487,
  " heng ": 2488,
  "shou ru ": 2489,
  "gan dao ": 2490,
  "gu ji ": 2491,
  "qu xiao ": 2492,
  "shan mai ": 2493,
  "de yu ": 2494,
  "   R": 2495,
  "bo li ": 2496,
  "   196": 2497,
  "de shi hou ": 2498,
  "os": 2499,
  " tuo ": 2500,
  "ren gong ": 2501,
  " dao zhi ": 2502,
  "qi che ": 2503,
  "sheng cheng ": 2504,
  "ap": 2505,
  "er te ": 2506,
  "ab": 2507,
  "di wu ": 2508,
  "shou yu ": 2509,
  "zhe shi ": 2510,
  "   che zhan ": 2511,
  "xiao xing xing ": 2512,
  "hui he ": 2513,
  "tiao zheng ": 2514,
  "dao da ": 2515,
  "gong fen ": 2516,
  "tuan dui ": 2517,
  "200 ": 2518,
  "dou you ": 2519,
  "av": 2520,
  "zhi ji ": 2521,
  "tai ping yang ": 2522,
  "he lan ": 2523,
  "nv er ": 2524,
  "dian de ": 2525,
  " han": 2526,
  " te bie ": 2527,
  "xian wei ": 2528,
  "shen qing ": 2529,
  " cha ": 2530,
  "zhong yu ": 2531,
  "pu tao ": 2532,
  "fang wen ": 2533,
  "mi shu ": 2534,
  "ren min zheng fu ": 2535,
  "qia ": 2536,
  "yun xing ": 2537,
  "zhu ming ": 2538,
  "sao ": 2539,
  "jiu shi zhen ": 2540,
  "shi hou ": 2541,
  "di da ": 2542,
  "sheng he ": 2543,
  "yi yu ": 2544,
  " tan ": 2545,
  "lei de ": 2546,
  "23 ": 2547,
  "   xing zheng ": 2548,
  "   D": 2549,
  "you tai ": 2550,
  "ru qin ": 2551,
  "B ": 2552,
  "ren da ": 2553,
  "xia ling ": 2554,
  " zhe yi ": 2555,
  "ao men ": 2556,
  "bing wei ": 2557,
  " can ": 2558,
  " ou ": 2559,
  "jia shi ": 2560,
  "fang zhi ": 2561,
  "bu ming ": 2562,
  "hou xuan ": 2563,
  "guo nei ": 2564,
  " tou ": 2565,
  "   zhi ": 2566,
  "   193": 2567,
  "lie wei ": 2568,
  "rong yu ": 2569,
  " pai ": 2570,
  "wen zhang ": 2571,
  "   qi ": 2572,
  "zhong yi ": 2573,
  "he de ": 2574,
  "yin shi ": 2575,
  "you xiao ": 2576,
  "la ke ": 2577,
  "jing shi ": 2578,
  "an pai ": 2579,
  "wu zhuang ": 2580,
  "dian tai ": 2581,
  "70 ": 2582,
  " xun ": 2583,
  "you qi ": 2584,
  "xian yu ": 2585,
  "yan ge ": 2586,
  "liu shi ": 2587,
  " you cheng ": 2588,
  "fu yu ": 2589,
  " bei qi ": 2590,
  "bu zu ": 2591,
  " wei yu fa guo ": 2592,
  "wen jian ": 2593,
  "dan bai ": 2594,
  "wen ming ": 2595,
  " ping fang gong li ": 2596,
  " zai ci ": 2597,
  "shen de ": 2598,
  "hai an ": 2599,
  "qiu chang ": 2600,
  "mou xie ": 2601,
  "fen zhi ": 2602,
  "ren shu ": 2603,
  "guan zhu ": 2604,
  "jie fang jun ": 2605,
  "guo fang ": 2606,
  "yuan su ": 2607,
  "zhan de ": 2608,
  " you xi ": 2609,
  "feng bao ": 2610,
  "chao ji ": 2611,
  "ti xi ": 2612,
  " 2009 nian ": 2613,
  "sui hou ": 2614,
  " xian zai ": 2615,
  "ju ji ": 2616,
  "bing du ": 2617,
  " 11": 2618,
  "wen ding ": 2619,
  "niang ": 2620,
  "   zi ": 2621,
  "ren kou shu liang wei ren ": 2622,
  " shao ": 2623,
  " tui ": 2624,
  "zuo de ": 2625,
  "an na ": 2626,
  "cheng xian ": 2627,
  "jin shu ": 2628,
  "ren kou mi du ": 2629,
  "nt": 2630,
  "mo xing ": 2631,
  "yi jia ": 2632,
  " INS": 2633,
  "jie rang de shi zhen ": 2634,
  "pu tong ": 2635,
  " mao ": 2636,
  " sun ": 2637,
  "shou shang ": 2638,
  "xiang si ": 2639,
  "ding wei ": 2640,
  "ka er ": 2641,
  " INSEE": 2642,
  "yu wei ": 2643,
  " che zhan ": 2644,
  "wu zhi ": 2645,
  "er yan ": 2646,
  "   I": 2647,
  "ji cheng ": 2648,
  "zheng bian ma wei ": 2649,
  "ju de ": 2650,
  "jing de ": 2651,
  "guan cha ": 2652,
  " jie zhi ": 2653,
  " xu duo ": 2654,
  "ju ren ": 2655,
  "2022 nian ": 2656,
  "cai liao ": 2657,
  "se de ": 2658,
  "cai zheng ": 2659,
  "fu li ": 2660,
  "R ": 2661,
  "yin su ": 2662,
  "chu sheng yu ": 2663,
  "lai yuan ": 2664,
  "ov": 2665,
  "ren yi ": 2666,
  "ri jun ": 2667,
  "mei ping fang gong li ": 2668,
  "dui shou ": 2669,
  "ba nian ": 2670,
  " dui yu ": 2671,
  "shi yong de ": 2672,
  "10 yue ": 2673,
  " ming chao ": 2674,
  " yu 201": 2675,
  "zhong wen ": 2676,
  " gai sheng ": 2677,
  " yi yuan ": 2678,
  "lai shuo ": 2679,
  "deng lu ": 2680,
  "2 ren ": 2681,
  "wang lu ": 2682,
  "shi yi ge ": 2683,
  "ru kou ": 2684,
  "da ji ": 2685,
  "gong you ren kou ": 2686,
  "zhuang kuang ": 2687,
  " zong mian ji ": 2688,
  "5 ren ": 2689,
  "gao ji ": 2690,
  "fa lan ": 2691,
  "tong yang ": 2692,
  "zhen dui ": 2693,
  "yong hu ": 2694,
  "yao qing ": 2695,
  " cheng qu ": 2696,
  "20 shi ji ": 2697,
  "sheng zhang ": 2698,
  "xiao xing ": 2699,
  "zhong yao de ": 2700,
  "cao zuo ": 2701,
  "zhi cheng ": 2702,
  "bu yi ": 2703,
  "shang ying ": 2704,
  "xian chang ": 2705,
  "shang wei ": 2706,
  "pin pai ": 2707,
  "guo li ": 2708,
  "chong jian ": 2709,
  "gong min ": 2710,
  " ta yu ": 2711,
  "sen lin ": 2712,
  " ceng ren ": 2713,
  "jiao liu ": 2714,
  " shi zhen bian ma wei ": 2715,
  " INSEE shi zhen bian ma wei ": 2716,
  " ren kou mi du mei ping fang gong li ": 2717,
  "ren kou mi du wei mei ": 2718,
  "『": 2719,
  "tiao zhan ": 2720,
  "』": 2721,
  " xia ling shi ": 2722,
  "bian hao ": 2723,
  "de xing ": 2724,
  "xuan qu wei ": 2725,
  "bei mei ": 2726,
  "shi de ren kou shu liang wei ren ": 2727,
  "jia yi ": 2728,
  "mei guo ren kou pu cha de shu ju ": 2729,
  "yuan zhang ": 2730,
  " er ren kou mi du wei mei ": 2731,
  " dang di gong you ren kou ": 2732,
  " er ren kou mi du wei mei ping fang qian mi ": 2733,
  "bu ke ": 2734,
  "dian nao ": 2735,
  "zhou bian ": 2736,
  "ling wai ": 2737,
  "jin yi bu ": 2738,
  "   ji ": 2739,
  "zi dong ": 2740,
  "jun wei ": 2741,
  "zi jin ": 2742,
  " huo jiu shi zhen ": 2743,
  "zhan hou ": 2744,
  "nian jian ": 2745,
  "ga ": 2746,
  "jiu du ": 2747,
  "sheng ji xuan qu wei ": 2748,
  "suo shu de sheng ji xuan qu wei ": 2749,
  "xia wu ": 2750,
  "60": 2751,
  "shui ping ": 2752,
  "   zhu ": 2753,
  "zi zhi qu ": 2754,
  "jing dian ": 2755,
  "jiao qu ": 2756,
  "an zhuang ": 2757,
  "hai zi ": 2758,
  "ma lai xi ya ": 2759,
  "ao da li ya ": 2760,
  "deng ji ": 2761,
  "fen wei fa guo ": 2762,
  "min zhu dang ": 2763,
  "fa dian ": 2764,
  " zhong yang ": 2765,
  " gai sheng fen wei fa guo ": 2766,
  "gong chang ": 2767,
  "er ji ": 2768,
  "   da ": 2769,
  "yong de ": 2770,
  "yue tuan ": 2771,
  " zhuang ": 2772,
  "ren men ": 2773,
  "   H": 2774,
  "nan ji ": 2775,
  "   fu ": 2776,
  "jing yan ": 2777,
  "M ": 2778,
  "zai mei guo ": 2779,
  "si chuan ": 2780,
  "bu li ": 2781,
  "zhi min ": 2782,
  "zai wei ": 2783,
  " kao ": 2784,
  "run ": 2785,
  "jiang yu ": 2786,
  "zhao kai ": 2787,
  "de xi ": 2788,
  "si xiang ": 2789,
  "zi mu ": 2790,
  "ying wen ": 2791,
  "de ke ": 2792,
  "ye yu ": 2793,
  " yin du ": 2794,
  "fei zhou ": 2795,
  "xiao zhang ": 2796,
  "er yue ": 2797,
  "jie ji ": 2798,
  "id": 2799,
  " kan ": 2800,
  "bu ji ": 2801,
  " ke neng ": 2802,
  "you liang ": 2803,
  "ru ci ": 2804,
  "si ren ": 2805,
  "feng xian ": 2806,
  "qiu ji ": 2807,
  "de di fang ": 2808,
  "V ": 2809,
  "wu ren ": 2810,
  "bei shi ": 2811,
  "jiang xiang ": 2812,
  "ping mian ": 2813,
  "yun xu ": 2814,
  "xia lai ": 2815,
  "chuan bo ": 2816,
  "bu jiu ": 2817,
  "yi li ": 2818,
  "geng duo ": 2819,
  " e luo si ": 2820,
  "cong shi ": 2821,
  "an jian ": 2822,
  "zheng zhuang ": 2823,
  " bang ": 2824,
  "yi da li ": 2825,
  "pai chu ": 2826,
  "qi zhi ": 2827,
  "bian wei ": 2828,
  "zong du ": 2829,
  "1 ren ": 2830,
  "yi chang ": 2831,
  "ind": 2832,
  "guo shi ": 2833,
  "xue shu ": 2834,
  "peng you ": 2835,
  "guo min dang ": 2836,
  "3 ren ": 2837,
  "ev": 2838,
  "yuan ben ": 2839,
  "chu kou ": 2840,
  " pa ": 2841,
  " p": 2842,
  "jin pai ": 2843,
  "yu he ": 2844,
  " zong ren kou ": 2845,
  "   F": 2846,
  " yi xie ": 2847,
  "bing mei you ": 2848,
  "mei nian ": 2849,
  "ao si ": 2850,
  "guan de ": 2851,
  "   xi ": 2852,
  "gong he ": 2853,
  "ge ge ": 2854,
  "ba xi ": 2855,
  "zai du ": 2856,
  "  C": 2857,
  "4 ren ": 2858,
  "jie hun ": 2859,
  "48": 2860,
  "di yi ge ": 2861,
  "  S": 2862,
  "hong zha ": 2863,
  "rui dian ": 2864,
  "nu li ": 2865,
  "ben tu ": 2866,
  "guo qu ": 2867,
  "de yi zuo ": 2868,
  "jian kang ": 2869,
  "shi tu ": 2870,
  "yi xi ": 2871,
  "ti ming ": 2872,
  "de you zheng bian ma wei ": 2873,
  " ting ": 2874,
  " guo ji ": 2875,
  "bu shao ": 2876,
  "tong xing ": 2877,
  "guan dian ": 2878,
  " er zai ": 2879,
  "lu de ": 2880,
  "yi ju ": 2881,
  "a la bo ": 2882,
  "min zhong ": 2883,
  "shu zi ": 2884,
  " you ming ": 2885,
  "fang yu ": 2886,
  "12 yue ": 2887,
  "da jiang ": 2888,
  "gou mai ": 2889,
  "ping fang mi ": 2890,
  "shou shi ": 2891,
  "ying yun ": 2892,
  "2008 nian ": 2893,
  "gui ze ": 2894,
  "guo yu ": 2895,
  "shen me ": 2896,
  "tian jin ": 2897,
  "yi qian ": 2898,
  "zhi zi ": 2899,
  "zao nian ": 2900,
  " ku ": 2901,
  "lu si ": 2902,
  "xu qiu ": 2903,
  "jiu nian ": 2904,
  "gu wen ": 2905,
  "6 ren ": 2906,
  "fu ren ": 2907,
  "wei xing ": 2908,
  "di liu ": 2909,
  "zhen shi ": 2910,
  " zheng shi ": 2911,
  "li liang ": 2912,
  " 2011 nian ": 2913,
  "jie ke ": 2914,
  "yu 197": 2915,
  "chu zhan ": 2916,
  " dan ta ": 2917,
  " qi xi ": 2918,
  "ti gao ": 2919,
  "de jia ": 2920,
  "hui you ": 2921,
  "de yan ": 2922,
  "he nan ": 2923,
  "ru xuan ": 2924,
  "l ": 2925,
  "2021 nian ": 2926,
  "gong zhong ": 2927,
  "yin fa ": 2928,
  "xue shi ": 2929,
  "F ": 2930,
  "lv bin ": 2931,
  "eg": 2932,
  "zhang da ": 2933,
  " biao shi ": 2934,
  " nuo ": 2935,
  "cun zhuang ": 2936,
  "xing tai ": 2937,
  "fang qi ": 2938,
  "im": 2939,
  "he ji ": 2940,
  " de guo ": 2941,
  "gong xian ": 2942,
  "de qing ": 2943,
  "biao ming ": 2944,
  "bo luo ": 2945,
  "xiao shou ": 2946,
  "zhong da ": 2947,
  "ying gai ": 2948,
  "yi fu ": 2949,
  "yu ji ": 2950,
  "shi bei ": 2951,
  "35 ": 2952,
  "weng ": 2953,
  "suo zai ": 2954,
  "de bu ": 2955,
  "xin jia po ": 2956,
  "zhou wei ": 2958,
  "gao yu ": 2959,
  "xun su ": 2960,
  "er fu ": 2961,
  "tu shu guan ": 2962,
  "guan zhi ": 2963,
  "qian shu ": 2964,
  "gu fen ": 2965,
  "38": 2966,
  "yu lei ": 2967,
  "li he ": 2968,
  " jie guo ": 2969,
  "nian du ": 2970,
  " shen zhi ": 2971,
  "ju xing de ": 2972,
  "jiang shi ": 2973,
  "yi chan ": 2974,
  " zhong gong ": 2975,
  "chu shi ": 2976,
  "90 ": 2977,
  " pan ": 2978,
  "fa qi ": 2979,
  "ling tu ": 2980,
  "zong bu ": 2981,
  "jia ji ": 2982,
  " 2008 nian ": 2983,
  "na li ": 2984,
  "heng xing ": 2985,
  "jing zheng ": 2986,
  "ying ji ": 2987,
  "37": 2988,
  "jiao lian ": 2989,
  "ke er ": 2990,
  "ru he ": 2991,
  "hai dao ": 2992,
  "ye zai ": 2993,
  "rui shi ": 2994,
  "que zhen ": 2995,
  "yang hua ": 2996,
  "jie shu hou ": 2997,
  "xing ji ": 2998,
  "le ta ": 2999,
  "han shu ": 3000,
  "zhu yu ": 3001,
  "jiu dian ": 3002,
  " yi ci ": 3003,
  "can kao ": 3004,
  "ot": 3005,
  "xin hao ": 3006,
  "dui wu ": 3007,
  "lan qiu ": 3008,
  " nian 12 yue 2": 3009,
  "li da ": 3010,
  "zuan ": 3011,
  "biao da ": 3012,
  " yi zhi ": 3013,
  "xuan wei ": 3014,
  "yi tong ": 3015,
  "ke zai ": 3016,
  "he yue ": 3017,
  "cheng zuo ": 3018,
  " 2013 nian ": 3019,
  "   W": 3020,
  "yu le ": 3021,
  "huo shi ": 3022,
  "qi yong ": 3023,
  "N ": 3024,
  " zheng fu ": 3025,
  "lei xing ": 3026,
  "2016 nian ": 3027,
  "jie quan guo ": 3028,
  "ling xiu ": 3029,
  "kan dao ": 3030,
  "ren ming ": 3031,
  "shou lu ": 3032,
  "luo de ": 3033,
  " di yi ": 3034,
  "jian dan ": 3035,
  "er cheng ": 3036,
  "ti sheng ": 3037,
  " suo you ": 3038,
  " fu ze ": 3039,
  "11 yue ": 3040,
  "dai de ": 3041,
  "AT": 3042,
  " m": 3043,
  "chu fa ": 3044,
  "sui dao ": 3045,
  "xing qu ": 3046,
  "wu nian ": 3047,
  "wen xian ": 3048,
  "gou cheng ": 3049,
  "shen ti ": 3050,
  " dun ": 3051,
  "dong xi ": 3052,
  "jie shao ": 3053,
  "jiao xue ": 3054,
  " jing guo ": 3055,
  "ge shi ": 3056,
  "22": 3057,
  "duo zhong ": 3058,
  "ceng zai ": 3059,
  " wa ": 3060,
  "°": 3061,
  "wang de ": 3062,
  "zhong guo gong chan dang ": 3063,
  "shen jing ": 3064,
  "yu 194": 3065,
  "ou yuan ": 3066,
  "qi zai ": 3067,
  "geng ming wei ": 3068,
  " sheng huo ": 3069,
  "ed": 3070,
  "qiang lie ": 3071,
  "yi zai ": 3072,
  "   2021 nian ": 3073,
  "te shu ": 3074,
  "ming ling ": 3076,
  " tao ": 3077,
  "tou xiang ": 3078,
  "yan de ": 3079,
  "ban gong ": 3080,
  "li shi shang ": 3081,
  "bian jie ": 3082,
  "yong lai ": 3083,
  "ying shi ": 3084,
  "la fu ": 3085,
  "xun hui ": 3086,
  "da xi yang ": 3087,
  "beng ": 3088,
  "sui shi ": 3089,
  "00 mi ": 3090,
  "qi xiang ": 3091,
  " qi jian ": 3092,
  "yi xiang ": 3093,
  " bing jiang ": 3094,
  "chuang zao ": 3095,
  "ge wei ": 3096,
  "kao lv ": 3097,
  " zeng ": 3098,
  "xi an ": 3099,
  "fa chu ": 3100,
  "zu de ": 3101,
  "9 ren ": 3102,
  " duan ": 3103,
  "yue wei ": 3104,
  "lian he guo ": 3105,
  "bu xiang ": 3106,
  "yang shi ": 3107,
  " 10 ": 3108,
  " dai biao ": 3109,
  "O ": 3110,
  " 21 ": 3111,
  "  M": 3112,
  "yi dao ": 3113,
  "jiao wei ": 3114,
  "guang gao ": 3115,
  "yi du ": 3116,
  "qiao zhi ": 3117,
  " shang hai ": 3118,
  "ob": 3119,
  "od": 3120,
  "hai xia ": 3121,
  " cong er ": 3122,
  "lie ru ": 3123,
  "   wu ": 3124,
  "us ": 3125,
  "zhi shao ": 3126,
  "bai se ": 3127,
  "   2019 nian ": 3128,
  "amp ": 3129,
  "xian jin ": 3130,
  " 0 ": 3131,
  "you yi ge ": 3132,
  "dong de ": 3133,
  " shi de ": 3134,
  "x ": 3135,
  "ke wei ": 3136,
  "si ge ": 3137,
  "te de ": 3138,
  "bian ji ": 3139,
  " di san ": 3140,
  "shou wei ": 3141,
  " yao qiu ": 3142,
  "yan shi ": 3143,
  "liang wei ": 3144,
  "xi huan ": 3145,
  "ban gong shi ": 3146,
  "yi zuo ": 3147,
  " yi shi ": 3148,
  "   de ": 3149,
  "nian hou ": 3150,
  "you ren ": 3151,
  "ti ji ": 3152,
  "ren min jie fang jun ": 3153,
  "zhan ting ": 3154,
  "quan mian ": 3155,
  "lv ke ": 3156,
  "he li ": 3157,
  "shao shu ": 3158,
  " 2012 nian ": 3159,
  "35": 3160,
  "chu shen ": 3161,
  "mo xi ge ": 3162,
  "ci ji ": 3163,
  "mei ge ": 3164,
  "qi yu gang ": 3165,
  "ep": 3166,
  "og": 3167,
  "pu bian ": 3168,
  "huo zhe ": 3169,
  "X ": 3170,
  "xing xiang ": 3171,
  "yin qing ": 3172,
  " zhi zhi ": 3173,
  " bei jing ": 3174,
  "us": 3175,
  "he qi ta ": 3176,
  " lai zi ": 3177,
  " 2007 nian ": 3178,
  "can jia le ": 3179,
  "eb": 3180,
  "te se ": 3181,
  "chang wei ": 3182,
  "yi qing ": 3183,
  "shu xue ": 3184,
  "xi wei ": 3185,
  "ge de ": 3186,
  "   2020 nian ": 3187,
  "   2018 nian ": 3188,
  "2012 nian ": 3189,
  "shuai ling ": 3190,
  "na de ": 3191,
  "chuang ban ": 3192,
  " 2005 nian ": 3193,
  "chuan shuo ": 3194,
  "zhi zhi ": 3195,
  "lie biao ": 3196,
  "chu lai ": 3197,
  " cao ": 3198,
  "hen kuai ": 3199,
  "   yuan ": 3200,
  "   er ": 3201,
  "ha": 3202,
  "lu di mian ji wei ": 3203,
  "   bei ": 3204,
  "shui yu mian ji wei ": 3205,
  "ji ren ": 3206,
  "yu 196": 3207,
  " ti zhang ": 3208,
  "dao yu ": 3209,
  "xia jiang ": 3210,
  " cheng li ": 3211,
  "chuang li ": 3212,
  "chu xian zai ": 3213,
  "gong zhu ": 3214,
  "xi sheng ": 3215,
  "shi da ": 3216,
  "bao zha ": 3217,
  "luo fu ": 3218,
  "bi mian ": 3219,
  "shua ": 3220,
  "hi": 3221,
  "jiu long ": 3222,
  "21": 3223,
  "di zhen ": 3224,
  " 2016 nian ": 3225,
  "ru guo ": 3226,
  "que fa ": 3227,
  "7 ren ": 3228,
  "zai qi ": 3229,
  " bu jiu ": 3230,
  " 2014 nian ": 3231,
  "she hui zhu yi ": 3232,
  "hou xuan ren ": 3233,
  "hai wai ": 3234,
  "cai qu ": 3235,
  "kang yi ": 3236,
  " ci shi ": 3237,
  "zhu zhang ": 3238,
  "chu xi ": 3239,
  "yu 195": 3240,
  "～": 3241,
  " ta hai ": 3242,
  "shi er ": 3243,
  "guan bi ": 3244,
  "xiao xi ": 3245,
  "   zhong ": 3246,
  "shi jie bei ": 3247,
  " shi yi zhong ": 3248,
  "hui ying ": 3249,
  "45 ": 3250,
  "80": 3251,
  "jian ce ": 3252,
  "xian xing ": 3253,
  "sa ke ": 3254,
  "   E": 3255,
  " amp ": 3256,
  "zhi shu ": 3257,
  "fan zui ": 3258,
  "dang de ": 3259,
  " 2015 nian ": 3260,
  " 2018 nian ": 3261,
  "ci yu ": 3262,
  " jue ": 3263,
  " dang zhong lu di mian ji wei ": 3264,
  "fa an ": 3265,
  " shi jian ": 3266,
  " er shui yu mian ji wei ": 3267,
  "nan bei ": 3268,
  "gao su gong lu ": 3269,
  "guo jia dui ": 3270,
  "26 ": 3271,
  "2023 nian ": 3272,
  "jie wei ": 3273,
  "ju zhang ": 3274,
  "hun he ": 3275,
  " rong ": 3276,
  "ke yun ": 3277,
  " 189": 3278,
  "zi zhu ": 3279,
  "   2017 nian ": 3280,
  " ta ye ": 3281,
  "liang zhong ": 3282,
  "bing fei ": 3283,
  "2009 nian ": 3284,
  "si li ": 3285,
  "geng jia ": 3286,
  "xue hui ": 3287,
  "ce   ": 3288,
  " The   ": 3289,
  "cuo shi ": 3290,
  "�": 3291,
  "ju qing ": 3292,
  "ju feng ": 3293,
  "jiang su ": 3294,
  "la de ": 3295,
  "nd": 3296,
  "sheng dun ": 3297,
  " qi yu ": 3298,
  "shi pin ": 3299,
  "gong hui ": 3300,
  "xiang ji ": 3301,
  "min jian ": 3302,
  "28 ": 3303,
  "ha er ": 3304,
  "   xin ": 3305,
  "cheng wei le ": 3306,
  "70": 3307,
  "qiu hui ": 3308,
  "cha yi ": 3309,
  " dian ying ": 3310,
  "jing xuan ": 3311,
  "yao wu ": 3312,
  "yu zhi ": 3313,
  "bu he ": 3314,
  "xing he ": 3315,
  "ming xian ": 3316,
  "zhang ai ": 3317,
  " zhi you ": 3318,
  " ling yi ": 3319,
  " zhong hua min guo ": 3320,
  "jiao de ": 3321,
  "U ": 3322,
  "   jia ": 3323,
  "yu bei ": 3324,
  "hun yin ": 3325,
  "nian dai ": 3326,
  "   ge ": 3327,
  "ju shi ": 3328,
  "wen zi ": 3329,
  "suo shu ": 3330,
  " liang ren ": 3331,
  "   xing zheng qu hua ": 3332,
  "zhuang jia ": 3333,
  "zhi shang ": 3334,
  "xi yin ": 3335,
  "piao fang ": 3336,
  "L ": 3337,
  "shi zhang ": 3338,
  "   qing ": 3339,
  "zhi liu ": 3340,
  "jin rong ": 3341,
  "hou qi ": 3342,
  "dong bei bu ": 3343,
  " hai you ": 3344,
  "cheng ben ": 3345,
  "bu man ": 3346,
  "to   ": 3347,
  "ying xiong ": 3348,
  " 2021 nian ": 3349,
  "de zhu yao ": 3350,
  "   3": 3351,
  "di dian ": 3352,
  "guo cheng zhong ": 3353,
  " 2019 nian ": 3354,
  "fa yu ": 3355,
  " ta bei ": 3356,
  "wei li ": 3357,
  "gai zao ": 3358,
  "hong se ": 3359,
  "ci de ": 3360,
  "zhu zai ": 3361,
  "ak": 3362,
  "fang zai ": 3363,
  "can mou ": 3364,
  "   bu ": 3365,
  "yu mao ": 3366,
  " wei fu ": 3367,
  "qiang diao ": 3368,
  "tong che ": 3369,
  "zhan tai ": 3370,
  "fan yi ": 3371,
  " kuan ": 3372,
  " min guo ": 3373,
  "   N": 3374,
  "zhong shan ": 3375,
  "gong ren ": 3376,
  "jun zai ": 3377,
  "hai yang ": 3378,
  "ew": 3379,
  "dong li ": 3380,
  "bing ru ": 3381,
  "shuo ming ": 3382,
  " ti zhang ke da ": 3383,
  " shi mei guo ": 3384,
  "ce liang ": 3385,
  "fa xian le ": 3386,
  "yan chang hui ": 3387,
  "nei ge ": 3388,
  " formula ": 3389,
  "nei lu ": 3390,
  " nian 12 yue 1": 3391,
  "gai shan ": 3392,
  "mu shi ": 3393,
  "2024 nian ": 3394,
  "lai dao ": 3395,
  "ma ke ": 3396,
  "yuan xing ": 3397,
  "dian che ": 3398,
  "mu de ": 3399,
  "te li ": 3400,
  "ye bei ": 3401,
  "8 ren ": 3402,
  "fen pei ": 3403,
  "dai biao da hui ": 3404,
  "yu xi ": 3405,
  " 2006 nian ": 3406,
  "   2022 nian ": 3407,
  " 2017 nian ": 3408,
  "tui dong ": 3409,
  "32 ": 3410,
  "   cong ": 3411,
  " ju li ": 3412,
  "wei lai ": 3413,
  "   2016 nian ": 3414,
  "zhou fu ": 3415,
  "he cheng ": 3416,
  "hui zhang ": 3417,
  "qing bao ": 3418,
  "zhuan jia ": 3419,
  "hua yuan ": 3420,
  "zu jian ": 3421,
  " nai ": 3422,
  "mo de ": 3423,
  "27 ": 3424,
  " shi you ": 3425,
  "bo fang ": 3426,
  "de ying xiang ": 3427,
  "chang bi sai ": 3428,
  "2000 nian ": 3429,
  "xia ji ao lin pi ke yun dong hui ": 3430,
  "jun gong ": 3431,
  "qi bing ": 3432,
  "bo er ": 3433,
  "2018 nian ": 3434,
  "ming shi ": 3435,
  "hua wei ": 3436,
  "bao wei ": 3437,
  "biao mian ": 3438,
  "huan ying ": 3439,
  " liao ": 3440,
  "da gui mo ": 3441,
  "xi xing ": 3442,
  "lun wen ": 3443,
  "zhou nian ": 3444,
  "   dang ": 3445,
  "zhu ming de ": 3446,
  "te ding ": 3447,
  "zhuang bei ": 3448,
  "yu ren ": 3449,
  "yu ci ": 3450,
  "jiang di ": 3451,
  "3 ge ": 3452,
  "xiu gai ": 3453,
  "da duo shu ": 3454,
  "jia shang ": 3455,
  "you ke ": 3456,
  "2014 nian ": 3457,
  "zhi he ": 3458,
  "yan jiu yuan ": 3459,
  "ai er lan ": 3460,
  "zheng xie ": 3461,
  "you suo ": 3462,
  "de zhi chi ": 3463,
  "de shi jie ": 3464,
  "indow": 3465,
  "seng ": 3466,
  "tan ke ": 3467,
  "xian sheng ": 3468,
  "duan de ": 3469,
  "ke neng hui ": 3470,
  "gou zao ": 3471,
  "yong tu ": 3472,
  "ao yun hui ": 3473,
  "lu wa ": 3474,
  "zhi di ": 3475,
  "   dan ": 3476,
  " hans ": 3477,
  " tw ": 3478,
  "sun shi ": 3479,
  "bi ye yu ": 3480,
  " chun ": 3481,
  "shen wei ": 3482,
  "ban fa ": 3483,
  "chu dao ": 3484,
  "san jiao ": 3485,
  " 2020 nian ": 3486,
  "   qian ": 3487,
  "zhao dao ": 3488,
  "   2014 nian ": 3489,
  "shan da ": 3490,
  "cu jin ": 3491,
  "he xi ": 3492,
  "tai guo ": 3493,
  "sui ji ": 3494,
  "tong meng ": 3495,
  "2007 nian ": 3496,
  "wei lian ": 3497,
  "tan pan ": 3498,
  "dong fang ": 3499,
  "gu ding ": 3500,
  "fu za ": 3501,
  "ge er ": 3502,
  "sheng tai ": 3503,
  "zhu zuo ": 3504,
  "48 ": 3505,
  "jiang hui ": 3506,
  "pei yin ": 3507,
  "tui xiu ": 3508,
  "da wei ": 3509,
  "2015 nian ": 3510,
  "   ke ": 3511,
  "dong zuo ": 3512,
  "bao cun ": 3513,
  " fu qin ": 3514,
  "si yu ": 3515,
  "si ta ": 3516,
  "guan ce ": 3517,
  "shi fan ": 3518,
  "zhan lve ": 3519,
  "te   ": 3520,
  "2011 nian ": 3521,
  "she de ": 3522,
  "che xiao ": 3523,
  "zeng zhang ": 3524,
  "and": 3525,
  "de di er ": 3526,
  "／": 3527,
  "bu bing ": 3528,
  "xing deng ": 3529,
  "zui duo ": 3530,
  "uc": 3531,
  "zhu chang ": 3532,
  "zheng ti ": 3533,
  "jie san ": 3534,
  "dao dan ": 3535,
  "shi di ": 3536,
  "zhong duo ": 3537,
  "jue de ": 3538,
  "ming ming wei ": 3539,
  " shi ren ": 3540,
  "wan shang ": 3541,
  "gu dai ": 3542,
  "   2015 nian ": 3543,
  "yi xue ": 3544,
  "shi ge ": 3545,
  "36": 3546,
  "xiang hu ": 3547,
  "ri bao ": 3548,
  "   de shi qu wei ": 3549,
  "   suo shu de sheng ji xuan qu wei ": 3550,
  "   de you zheng bian ma wei ": 3551,
  " bing you ": 3552,
  "   yu shi de ren kou shu liang wei ren ": 3553,
  "jia ren ": 3554,
  "gong ju ": 3556,
  "   yu jie rang de shi zhen ": 3557,
  " shi wei ": 3558,
  "ni ke ": 3559,
  "al ": 3560,
  "bao zhang ": 3561,
  "xie de ": 3562,
  "kong zhong ": 3563,
  "bu dao ": 3564,
  "gong ying ": 3565,
  "90": 3566,
  " shi zhi ": 3567,
  "yin ru ": 3568,
  "   2013 nian ": 3569,
  "jun zhu ": 3570,
  "ea": 3571,
  "zhuan men ": 3572,
  "2006 nian ": 3573,
  "192": 3574,
  "bo lin ": 3575,
  "dang zhong ": 3576,
  "bu zhi ": 3577,
  "xin ren ": 3578,
  "sui zhu ": 3579,
  "tai nan ": 3580,
  "te er ": 3581,
  "shi fou ": 3582,
  "wai guo ": 3583,
  "ling xian ": 3584,
  "zhao pian ": 3585,
  "bu wei ": 3586,
  "AS": 3587,
  "iv": 3588,
  "ge da ": 3589,
  "ji you ": 3590,
  "xiang yu ": 3591,
  "ben shen ": 3592,
  "lu shi ": 3593,
  "la ding ": 3594,
  "zi shen ": 3595,
  "fei jian zhi ": 3596,
  "wan yuan ": 3597,
  "shan qu ": 3598,
  " xi lie ": 3599,
  " 00 ": 3600,
  "jun qu ": 3601,
  "100": 3602,
  "   c": 3603,
  "   a ": 3604,
  "xiao guo ": 3605,
  "lv wei ": 3606,
  "tong dao ": 3607,
  "sui de ": 3608,
  "OS": 3609,
  "  P": 3610,
  "zheng chang ": 3611,
  "ying ye ": 3612,
  "tai feng ": 3613,
  "mi mi ": 3614,
  "shang yi ": 3615,
  "chong qing ": 3616,
  " hk ": 3617,
  "dang shi de ": 3618,
  "dai lai ": 3619,
  "shan ji ": 3620,
  "wei wu ": 3621,
  "kuo da ": 3622,
  "ji bing ": 3623,
  "xin yang ": 3624,
  "19 nian ": 3625,
  "dui zhang ": 3626,
  "mo er ": 3627,
  "can yi yuan ": 3628,
  "zu cheng de ": 3629,
  "189": 3630,
  "ma la ": 3631,
  "yong zuo ": 3632,
  "qi xia ": 3633,
  " ta ceng dai biao ": 3634,
  "   2010 nian ": 3635,
  " qing chao ": 3636,
  "wang qiu ": 3637,
  "chu yan ": 3638,
  "fei jian zhi di qu ": 3639,
  "dong nan bu ": 3640,
  "shou gou ": 3641,
  "ma er ": 3642,
  " po ": 3643,
  "da duo ": 3644,
  "tong pai ": 3645,
  "191": 3646,
  " nv xing ": 3647,
  "mo si ke ": 3648,
  "ze ren ": 3649,
  "fu zhou ": 3650,
  "dui xiang ": 3651,
  "que ren ": 3652,
  "jia meng ": 3653,
  "ren ming wei ": 3654,
  "shu zhong ": 3655,
  " dong lin ": 3656,
  "ni ya zhou ": 3657,
  "ma si ": 3658,
  " zao cheng ": 3659,
  "4 ge ": 3660,
  "di tu ": 3661,
  "cheng bao ": 3662,
  " jia shang ": 3663,
  "da xiao ": 3664,
  "yin pai ": 3665,
  "2017 nian ": 3666,
  "ation   ": 3667,
  " jin ru ": 3668,
  "he pan ": 3669,
  "zhe yang ": 3670,
  "di mian ": 3671,
  "ti dao ": 3672,
  "qi ji ": 3673,
  "gao xiong ": 3674,
  "yi si lan ": 3675,
  "xiang bi ": 3676,
  "yi sheng ": 3677,
  "fu luo ": 3678,
  "zhi liang ": 3679,
  "fang wu ": 3680,
  " dan you yu ": 3681,
  "ut": 3682,
  "jian du ": 3683,
  "xiang xi ": 3684,
  " jin xing ": 3685,
  "fu gai ": 3686,
  " yan jiu ": 3687,
  "ruan jian ": 3688,
  "gui zu ": 3689,
  "jia li ": 3690,
  "yi min ": 3691,
  "shu ru ": 3692,
  "xiang zheng ": 3693,
  " dian shi ": 3694,
  "tui yi ": 3695,
  "yi wu ": 3696,
  " shi ri ben ": 3697,
  "xiao qu ": 3698,
  "   jia zu ": 3699,
  "huo jian ": 3700,
  "lao dong ": 3701,
  "bu lu ": 3702,
  "dian hua ": 3703,
  "dai li ": 3704,
  "gong si de ": 3705,
  "39": 3706,
  "ding ju ": 3707,
  "fa shou ": 3708,
  "ke xue yuan ": 3709,
  "jun guan ": 3710,
  "zhong guo de ": 3711,
  "shi yi nian ": 3712,
  "   jie zhi ": 3713,
  "xing bie ": 3714,
  "xian he ": 3715,
  "tai zi ": 3716,
  "xi bei bu ": 3717,
  "dou hui ": 3718,
  "huo shan ": 3719,
  "K ": 3720,
  "li zhi ": 3721,
  " 30 ": 3722,
  "bu fu ": 3723,
  "xiang xin ": 3724,
  "ao di li ": 3725,
  " xi ban ya ": 3726,
  "   yi xia ": 3727,
  "mi ya ": 3728,
  " wei fu qi yu gang ": 3729,
  "yun zuo ": 3730,
  "zhong zi ": 3731,
  "xi si ": 3732,
  "zhan ji ": 3733,
  "jing wei ": 3734,
  "2   ": 3735,
  "45": 3736,
  "you xing ": 3737,
  "ge lun ": 3738,
  "ke neng shi ": 3739,
  "ye hui ": 3740,
  "hu bei ": 3741,
  "quan de ": 3742,
  "da sai ": 3743,
  "an shi ": 3744,
  "You": 3745,
  "liang ren ": 3746,
  "   zh ": 3747,
  "bei fang ": 3748,
  "ming yu ": 3749,
  "cai neng ": 3750,
  "shi wei le ": 3751,
  "1   ": 3752,
  "31 ": 3753,
  "wen du ": 3754,
  "xu li ya ": 3755,
  " quan guo ": 3756,
  "2005 nian ": 3757,
  " peng ": 3758,
  "zhong qi ": 3759,
  "pai hang ": 3760,
  "dui wai ": 3761,
  "or ": 3762,
  "fa guan ": 3763,
  " yin er ": 3764,
  "fu zhi ": 3765,
  "liang ci ": 3766,
  "man zu ": 3767,
  "zhang guan ": 3768,
  "dai biao tuan ": 3769,
  "  A": 3770,
  "cheng le ": 3771,
  "qian zhi ": 3772,
  "da sha ": 3773,
  "tu po ": 3774,
  "yi duan ": 3775,
  "nong min ": 3776,
  "su ge lan ": 3777,
  "er man ": 3778,
  "mei ni ya ": 3779,
  "kai zhan ": 3780,
  "tui jin ": 3781,
  "zai shi ": 3782,
  "nian lai ": 3783,
  "2020": 3784,
  "dian ji ": 3785,
  "ban yan ": 3786,
  " 188": 3787,
  " xue xiao ": 3788,
  "shou fu ": 3789,
  " 2022 nian ": 3790,
  "si wei ": 3791,
  "190": 3792,
  "2013 nian ": 3793,
  "di an ": 3794,
  "kai tong ": 3795,
  "   chu ": 3796,
  "hui yuan ": 3797,
  "shen hua ": 3798,
  " niu ": 3799,
  " shuo ": 3800,
  "bei po ": 3801,
  "shu yuan ": 3802,
  "jia la ": 3803,
  " she hui ": 3804,
  "pai de ": 3805,
  " yin yue ": 3806,
  "xu ke ": 3807,
  "dang ju ": 3808,
  " you xie ": 3809,
  "bu er ": 3810,
  "deng shang ": 3811,
  "ni de ": 3812,
  "hui shang ": 3813,
  " bi ru ": 3814,
  "ren qi ": 3815,
  "ce de ": 3816,
  "46": 3817,
  " reng ": 3818,
  "biao zhi ": 3819,
  "wang shi ": 3820,
  "49": 3821,
  "pu tao ya ": 3822,
  "zhi zhan ": 3823,
  "bei ji ": 3824,
  "zuo zhe ": 3825,
  "ex": 3826,
  "fang yan ": 3827,
  " ye you ": 3828,
  "2004 nian ": 3829,
  "rong yi ": 3830,
  "shi qi de ": 3831,
  "kun nan ": 3832,
  "tong xun ": 3833,
  "sui zhe ": 3834,
  "2020 nian mei guo ren kou pu cha de shu ju ": 3835,
  "ali": 3836,
  "fen bu yu ": 3837,
  "neng liang ": 3838,
  "wei ke ": 3839,
  "wei xie ": 3840,
  " miao ": 3841,
  "zhuang zhi ": 3842,
  "zhong xing ": 3843,
  "xi li ": 3844,
  "jing fang ": 3845,
  "ling dao ren ": 3846,
  "fei lv bin ": 3847,
  "tian de ": 3848,
  "kuo zhan ": 3849,
  "fan wei nei ": 3850,
  "na xie ": 3851,
  "2 ge ": 3852,
  "chu yi ": 3853,
  "ye de ": 3854,
  "ze you ": 3855,
  " zhe jiang ": 3856,
  "--": 3857,
  " she ji ": 3858,
  "   he ": 3859,
  "da xuan ": 3860,
  " xian shi ": 3861,
  "ming yi ": 3862,
  "5 mi ": 3863,
  "   2012 nian ": 3864,
  "   zao nian ": 3865,
  "zhuan xiang ": 3866,
  "cun de ": 3867,
  "up": 3868,
  "xi fang ": 3869,
  "shang ren ": 3870,
  "   2023 nian ": 3871,
  "ka si ": 3872,
  "ack": 3873,
  "wu tai ": 3874,
  "jing du ": 3875,
  "yan shen ": 3876,
  "AR": 3877,
  "yi ding ": 3878,
  "ji ge ": 3879,
  "nian ling ": 3880,
  "dui kang ": 3881,
  "qin wang ": 3882,
  "shuang fang ": 3883,
  "zuo qu ": 3884,
  " n": 3885,
  "fei chu ": 3886,
  "lv xing ": 3887,
  "jun tuan ": 3888,
  "de yi zhi ": 3889,
  "bi sai zhong ": 3890,
  "di ba ": 3891,
  " shi qi ": 3892,
  "shi hui ": 3893,
  "she ji de ": 3894,
  "   J": 3895,
  "fen li ": 3896,
  "bao de ": 3897,
  " can jia ": 3898,
  "xian yi ": 3899,
  "ka luo ": 3900,
  " bao han ": 3901,
  "bu jin ": 3902,
  "tion   ": 3903,
  "zhu zhai ": 3904,
  "tu er qi ": 3905,
  " sui zhe ": 3906,
  "IN": 3907,
  "ren kou wei ": 3908,
  "lu xu ": 3909,
  " qi zhong bao kuo ": 3910,
  "wei bei ": 3911,
  "de zhi wu ": 3912,
  "ai de ": 3913,
  "   qi ta ": 3914,
  "fa hui ": 3915,
  " ming chao zheng zhi ren wu ": 3916,
  "xia qu ": 3917,
  "ell": 3918,
  "zhong zai ": 3919,
  "sa si ": 3920,
  "he gu ": 3921,
  "tai du ": 3922,
  "ao zhou ": 3923,
  "da qiao ": 3924,
  "   xiao ": 3925,
  "tai kong ": 3926,
  "long jiang ": 3927,
  "chuang jian ": 3928,
  "wan gong ": 3929,
  "xun zhao ": 3930,
  "pei he ": 3931,
  "she ding ": 3932,
  " han guo ": 3933,
  "cheng qu ": 3934,
  "xian you ": 3935,
  "bao shou ": 3936,
  "qi zhong yi zhong ": 3937,
  " ying yu ": 3938,
  " gong you ": 3939,
  "g ": 3940,
  "jiao huan ": 3941,
  "ying li ": 3942,
  "chang du ": 3943,
  " bing yi ": 3944,
  "cheng ke ": 3945,
  "xi shi ": 3946,
  "sheng chu ": 3947,
  "   192": 3948,
  " xin zeng ": 3949,
  "hei se ": 3950,
  "si da ": 3951,
  "zuo yi ": 3952,
  "zhe li ": 3953,
  "wai de ": 3954,
  " tie ": 3955,
  "zhe xue ": 3956,
  "bao li ": 3957,
  "1 hao ": 3958,
  "jiang ling ": 3959,
  "ping gu ": 3960,
  "kai she ": 3961,
  "as   ": 3962,
  "shang chang ": 3963,
  "jiu zhi ": 3964,
  "ji fu ": 3965,
  " mei nian ": 3966,
  "ke la ": 3967,
  " yue han ": 3968,
  " lie ": 3969,
  "xing ren ": 3970,
  "pai qian ": 3971,
  " xi wang ": 3972,
  "zi chan ": 3973,
  " guo min ": 3974,
  "yuan yi ": 3975,
  "yuan you ": 3976,
  "yuan he ": 3977,
  "fu mu ": 3978,
  "qing chao ": 3979,
  " fa xian ": 3980,
  "de yan jiu ": 3981,
  "00 ren ": 3982,
  "ti gong le ": 3983,
  "qi xi ": 3984,
  "chu shou ": 3985,
  "luo ke ": 3986,
  " you yi ": 3987,
  "   bei jing ": 3988,
  "wei xin ": 3989,
  "you yong ": 3990,
  "ge la ": 3991,
  "jia qiang ": 3992,
  "zhan lan ": 3993,
  "liu zai ": 3994,
  "fu jin de ": 3995,
  "huo ban ": 3996,
  "yuan gong ": 3997,
  " neng ": 3998,
  "huang hou ": 3999,
  "fa shi ": 4000,
  "fen lan ": 4001,
  " nian 1 yue 1 ri ": 4002,
  "zai 199": 4003,
  "tao tai ": 4004,
  "yu qi ta ": 4005,
  "li wu ": 4006,
  "gong jue ": 4007,
  "ma tou ": 4008,
  "33 ": 4009,
  "bei shi wei ": 4010,
  "guan jian ": 4011,
  "ran": 4012,
  " xuan bu ": 4013,
  "yan hai ": 4014,
  " yi ming ": 4015,
  "II": 4016,
  "ji si ": 4017,
  "jia zhou ": 4018,
  "sha si ": 4019,
  "mi": 4020,
  "zhua ": 4021,
  "er ci ": 4022,
  "quan zhang ": 4023,
  "hu shi ": 4024,
  "lin de ": 4025,
  "can xuan ": 4026,
  " li shu yu ": 4027,
  "zhong jian ": 4028,
  "zi wei ": 4029,
  "tic": 4030,
  "TV": 4031,
  " s   ": 4033,
  "shen du ": 4034,
  "yi ti ": 4035,
  "liang nian ": 4036,
  " 2001 nian ren kou ": 4037,
  "zai 198": 4038,
  " wen hua ": 4039,
  " jiao yu ": 4040,
  "hui gui ": 4041,
  "qing chu ": 4042,
  "geng xin ": 4043,
  "qian ting ": 4044,
  "nong cun ": 4045,
  "dai you ": 4046,
  "mian dui ": 4047,
  "an zhao ": 4048,
  "xing yu ": 4049,
  "biao ben ": 4050,
  "zhong wei ": 4051,
  "wu ji ": 4052,
  "an hui ": 4053,
  "tong xin ": 4054,
  "hai ba gao du ": 4055,
  "2001 nian ": 4056,
  "lei ji ": 4057,
  "de jiao ": 4058,
  "huo yue ": 4059,
  "  B": 4061,
  "qi he ": 4062,
  "ju ben ": 4063,
  " wu ke lan ": 4064,
  "yu 193": 4065,
  "us   ": 4066,
  "bo si ": 4067,
  "tou lu ": 4068,
  "shou xiang ": 4069,
  "liu yu ": 4070,
  "liao jie ": 4071,
  "da yu ": 4072,
  "gai cheng ": 4073,
  "nan hai ": 4074,
  "zhen de ": 4075,
  "di di ": 4076,
  "fei li ": 4077,
  " chu yu ": 4078,
  "zhong bei ": 4079,
  "fu zhu ": 4080,
  "guang dong sheng ": 4081,
  "yun nan ": 4082,
  "shi san ": 4083,
  "shou xi ": 4084,
  "mei li ": 4085,
  "xia yi ": 4086,
  "te lei ": 4087,
  "fu shu ": 4088,
  "qu le ": 4089,
  "ma": 4090,
  "dai ling ": 4091,
  " 2004 nian ": 4092,
  "zhang yu ": 4093,
  "dang nian ": 4094,
  "xia xia de yi ge ": 4095,
  "zeng zu ": 4096,
  "xi nan bu ": 4097,
  "yu mao qiu ": 4098,
  "xi er ": 4099,
  "47": 4100,
  "dian qi ": 4101,
  " hou zhe ": 4102,
  "que zhen bing li ": 4103,
  " C ": 4104,
  "bu la ": 4105,
  "jiang jin ": 4106,
  " jian zhu ": 4107,
  "bian ju ": 4108,
  " lu wa ": 4109,
  "ff": 4110,
  "   xian ": 4111,
  "yuan ze ": 4112,
  " er shui yu mian ji wei 0": 4113,
  "・": 4114,
  "36 ": 4115,
  "×": 4116,
  "shou zhang ": 4117,
  " xian ren ": 4118,
  "   mei guo ": 4119,
  "wei xian ": 4120,
  "fu she ": 4121,
  "shan de ": 4122,
  "ling yi ge ": 4123,
  " jing ji ": 4124,
  " 7 ": 4125,
  "jie ti ": 4126,
  "ling di ": 4127,
  "xiu zheng ": 4128,
  " jue ding ": 4129,
  "lian ren ": 4130,
  "deng deng ": 4131,
  "ji xie ": 4132,
  "jian ren ": 4133,
  " zui chu ": 4134,
  "yi liao ": 4135,
  "jiu hui ": 4136,
  "1 li ": 4137,
  "xin jiang ": 4138,
  " sui zhu ": 4139,
  "38 ": 4140,
  "cheng li de ": 4141,
  "all": 4142,
  "da ban ": 4143,
  "10 nian ": 4144,
  "zhuan huan ": 4145,
  "yue dui ": 4146,
  "hou bei ": 4147,
  "qing hua ": 4148,
  "ji er ": 4149,
  "gao jia ": 4150,
  "tian huang ": 4151,
  " lun ": 4152,
  "qi dong ": 4153,
  "bo de ": 4154,
  " er gai di ": 4155,
  " 8 ": 4156,
  "   ba ": 4157,
  "yuan li ": 4158,
  "chuan mei ": 4159,
  "sheng zhi ": 4160,
  " ji shi ": 4161,
  "ming que ": 4162,
  "fen de ": 4163,
  "mu ni ": 4164,
  "you li ": 4165,
  "ban shi chu ": 4166,
  " huai ": 4167,
  "   K": 4168,
  "qing qiu ": 4169,
  "suo de ": 4170,
  "kang ri ": 4171,
  " ping jun ": 4172,
  "gong yi ": 4173,
  "zai bei ": 4174,
  "55": 4175,
  "ay": 4176,
  "nan fang ": 4177,
  "zhong zu ": 4178,
  "chai chu ": 4179,
  "xiao li ": 4180,
  "zi shi ": 4181,
  "tuo li ": 4182,
  "AM": 4183,
  "qu": 4184,
  "ri zhi ": 4185,
  "zheng fu de ": 4186,
  "is   ": 4187,
  "ta shi ": 4188,
  " 2000 nian ": 4189,
  " zheng zhi ": 4190,
  "fa xing de ": 4191,
  "xin li ": 4192,
  " xing zheng ": 4193,
  "guo du ": 4194,
  "ST": 4195,
  "jia zhong ": 4196,
  "liang xiang ": 4197,
  "nei zhan ": 4198,
  "hui yu ": 4199,
  " huo zhe ": 4200,
  "ation ": 4201,
  "jun you ": 4202,
  " yong you ": 4203,
  "zhong yi yuan ": 4204,
  "he wei ": 4205,
  "si dun ": 4206,
  "yan se ": 4207,
  " she you ": 4208,
  "hou zai ": 4209,
  "tai de ": 4210,
  "yan yi ": 4211,
  "cuo wu ": 4212,
  "   O": 4213,
  " yi mei yuan ": 4214,
  "   2011 nian ": 4215,
  "gei le ": 4216,
  "2025 nian ": 4217,
  " shi yi ming ": 4218,
  "BC": 4219,
  "jie you ": 4221,
  "ju zhong ": 4222,
  "fu hao ": 4223,
  "yan zhi ": 4224,
  "ya de ": 4225,
  "hua ren ": 4226,
  "mian fei ": 4227,
  "huan zhe ": 4228,
  "tui guang ": 4229,
  "jian you ": 4230,
  "sheng ren ": 4231,
  "da zhong ": 4232,
  "dui ci ": 4233,
  "ming xing ": 4234,
  " yin qi ": 4235,
  " zhong de ": 4236,
  "hang tian ": 4237,
  " gen ": 4238,
  "xing mu ": 4239,
  "gu li ": 4240,
  "nuo wei ": 4241,
  "   ju qing ": 4242,
  "xian ru ": 4243,
  " dong bei ": 4244,
  "di zai ": 4245,
  "jiang xi ": 4246,
  "   2024 nian ": 4247,
  "ing   ": 4248,
  "shi bao ": 4249,
  "ke lai ": 4250,
  "wan zheng ": 4251,
  "ke xi ": 4252,
  "qian yi ": 4253,
  "G ": 4254,
  "gong an ": 4255,
  "sha hai ": 4256,
  "lu ying ": 4257,
  "ni xi ya ": 4258,
  "hen da ": 4259,
  "gan ran zhe ": 4260,
  " guan yu ": 4261,
  "34": 4262,
  "ST ": 4263,
  "bian xing ": 4264,
  "liu xia ": 4265,
  "ji yin ": 4266,
  "bei de ": 4267,
  "mei shu ": 4268,
  "zhu yi zhe ": 4269,
  "   gu ": 4270,
  "ge ju ": 4271,
  " yi jing ": 4272,
  " 15 ": 4273,
  "xian shang ": 4274,
  "ke lin ": 4275,
  "huo bi ": 4276,
  "qian ding ": 4277,
  "xie tiao ": 4278,
  "％": 4279,
  "   xiang gang ": 4280,
  "hou yi ": 4281,
  "bi yao ": 4282,
  "zhi lu ": 4283,
  "tu ran ": 4284,
  "ze wei ": 4285,
  "can ting ": 4286,
  "lian de ": 4287,
  "bu si ": 4288,
  "jue dui ": 4289,
  " er gai ": 4290,
  "shi yong yu ": 4291,
  "cheng zhong ": 4292,
  "hu yu ": 4293,
  "gen ting ": 4294,
  "nan yi ": 4295,
  "ke yi zai ": 4296,
  "zhi kong ": 4297,
  "sai de ": 4298,
  " li shi ": 4299,
  "─": 4300,
  "oh": 4301,
  "yuan xian ": 4302,
  "ri qi ": 4303,
  "tu xing ": 4304,
  "bai ren ": 4305,
  "   ci wai ": 4306,
  "wei ai ": 4307,
  "jian wei ": 4308,
  " mei ge ": 4309,
  "shan shi ": 4310,
  " 187": 4311,
  "er yuan ": 4312,
  "zong ren kou ": 4313,
  "   xia ": 4314,
  "zhi zheng ": 4315,
  "gong de ": 4316,
  "guo jia de ": 4317,
  "guan li ju ": 4318,
  "Window": 4319,
  "jia he ": 4320,
  "hu nan ": 4321,
  "shui ku ": 4322,
  "bu dian ying ": 4323,
  "dai bu ": 4324,
  "ben di ": 4325,
  "li chang ": 4326,
  "fa ting ": 4327,
  "lan de ": 4328,
  "zeng qiang ": 4329,
  " shun ": 4330,
  "H ": 4331,
  "li fang ": 4332,
  "xi xing bu ming ": 4333,
  " jia ru ": 4334,
  "yi jiao ": 4335,
  "zhang shi ": 4336,
  "deng chang ": 4337,
  "tian shi ": 4338,
  "tu zhong ": 4339,
  "bu shu ": 4340,
  "ji che ": 4341,
  "wei di ": 4342,
  "fa yan ": 4343,
  "hou xu ": 4344,
  " zhi shi ": 4345,
  "xun yang ": 4346,
  "na cui ": 4347,
  "bei ren wei shi ": 4348,
  " sheng huo xi xing bu ming ": 4349,
  "   zhong guo ": 4350,
  "huo xing ": 4351,
  "lian luo ": 4352,
  "mo ni ": 4353,
  " zha ": 4354,
  "yun yong ": 4355,
  "de yi xie ": 4356,
  " ci nian ": 4357,
  " 2002 nian ": 4358,
  "xi tong de ": 4359,
  " gong si ": 4360,
  "fan de ": 4361,
  "ji ya ": 4362,
  "chang wu ": 4363,
  "qing de ": 4364,
  "cui hui ": 4365,
  "zhuang shi ": 4366,
  "you xiu ": 4367,
  "   ma ": 4368,
  "wei he ": 4369,
  "ping min ": 4370,
  " 186": 4371,
  "ji xing ": 4372,
  "guo wu yuan ": 4373,
  "de fu qin ": 4374,
  "zhu ce ": 4375,
  "tian ti ": 4376,
  "ke shi ": 4377,
  "shi jie shang ": 4378,
  "shan xi sheng ": 4379,
  "ke yu ": 4380,
  "zuo biao wei ": 4381,
  "37 ": 4382,
  "lian he hui ": 4383,
  "mu si lin ": 4384,
  "ge zi ": 4385,
  "zheng bian ": 4386,
  "tong de ": 4387,
  "le ta de ": 4388,
  "ti yu chang ": 4389,
  "zhong gong zhong yang ": 4390,
  "feng fu ": 4391,
  "42 ": 4392,
  "qi xuan ": 4393,
  "shen cha ": 4394,
  "qiang du ": 4395,
  "di er ci shi jie da zhan ": 4396,
  "ear": 4397,
  "shi jiu ": 4398,
  "jin yi ": 4399,
  "jin dang ": 4400,
  "xiu fu ": 4401,
  " gong yuan ": 4402,
  "tu": 4403,
  "zhou qi ": 4404,
  "   sui ran ": 4405,
  "shou zhong ": 4406,
  "bian jing ": 4407,
  "   yin ": 4408,
  " can yu ": 4409,
  "mian dian ": 4410,
  "bing shi ": 4411,
  " Ch": 4412,
  "zhui su ": 4413,
  "jing gao ": 4414,
  "fang wei ": 4415,
  "wang wang ": 4416,
  " ji yu ": 4417,
  "yuan zhu min ": 4418,
  "he he ": 4419,
  "tian hou ": 4420,
  " wan jia ": 4421,
  "ling ren ": 4422,
  "te la ": 4423,
  "de er ": 4424,
  "zai ri ben ": 4425,
  "zhan xian ": 4426,
  " ta yi ": 4427,
  "et   ": 4428,
  "   zeng zu ": 4429,
  "bei ping ": 4430,
  "75 ": 4431,
  "xiang ying ": 4432,
  "xiu jian ": 4433,
  " shi yi wei ": 4434,
  " fa xing ": 4435,
  "   yue ": 4436,
  "ci zhi ": 4437,
  "34 ": 4438,
  "chang jian ": 4439,
  " 000": 4440,
  "wu zi ": 4441,
  "qing shi ": 4442,
  "ce lve ": 4443,
  "BS": 4444,
  "geng wei ": 4445,
  "you yi xie ": 4446,
  "lie de ": 4447,
  "li you ": 4448,
  "di dai ": 4449,
  "gao da ": 4450,
  " 2023 nian ": 4451,
  "ma de ": 4452,
  " ren men ": 4453,
  "shi jian de ": 4454,
  "zhi ye sheng ya ": 4455,
  "xiao fei ": 4456,
  "cun luo ": 4457,
  "shi yi ming ": 4458,
  "kao gu ": 4459,
  "zou xiang ": 4460,
  "12 nian ": 4461,
  " ou zhou ": 4462,
  "shi jia ": 4463,
  "shou quan ": 4464,
  "liang guo ": 4465,
  "jiu de ": 4466,
  "shen zhen ": 4467,
  "suo cai yong ": 4468,
  "nan fei ": 4469,
  " yong yu ": 4470,
  "zu qiu dui ": 4471,
  "da qi ": 4472,
  "wu dao ": 4473,
  "chang jing ": 4474,
  "ya jun ": 4475,
  "tian ran ": 4476,
  "et ": 4477,
  "zheng he ": 4478,
  "lai yin ": 4479,
  "xun huan ": 4480,
  "shi fen ": 4481,
  "si fa ": 4482,
  "che xiang ": 4483,
  "tian jing ": 4484,
  "zai ji ": 4485,
  "   6": 4486,
  "   wan ": 4487,
  "tiao li ": 4488,
  "shi wu nian ": 4489,
  "jiang de ": 4490,
  "zu gou ": 4491,
  "gang kou ": 4492,
  "guang xu ": 4493,
  "xun zhang ": 4494,
  "ill": 4495,
  "ai ji ": 4496,
  "ren yu ": 4497,
  "xie zuo ": 4498,
  "tu jing ": 4499,
  "da xue de ": 4500,
  "ang": 4501,
  "dui qi ": 4502,
  "75": 4503,
  "yi he ": 4504,
  "na xia ": 4505,
  "   di fang ": 4506,
  "da zhi ": 4507,
  "xian ji ": 4508,
  "jin bu ": 4509,
  "2003 nian ": 4510,
  " zui gao ": 4511,
  " sheng yu ": 4512,
  "ai": 4513,
  "jin ri ": 4514,
  "tong ming ": 4515,
  "zhe ci ": 4516,
  "ka la ": 4517,
  "188": 4518,
  " nan zhi ": 4519,
  " guang dong ": 4520,
  "46 ": 4521,
  "fa ming ": 4522,
  "bao luo ": 4523,
  " yan yuan ": 4524,
  "shi ba ": 4525,
  "li xi ": 4526,
  "shan feng ": 4527,
  "   2008 nian ": 4528,
  "CO": 4529,
  "fu xing ": 4530,
  "hai ping mian ": 4531,
  "si sheng ": 4532,
  "yuan jing ": 4533,
  "fu yin ": 4534,
  "hua sheng dun ": 4535,
  "jiang shu ": 4536,
  "mi ni ": 4537,
  "xie er ": 4538,
  "shao nv ": 4539,
  "zan ting ": 4540,
  "qu yi hui ": 4541,
  "ming zhi ": 4542,
  "dang yuan ": 4543,
  " dong nan ": 4544,
  "li cheng ": 4545,
  "zai xiang gang ": 4546,
  "qian shi ": 4547,
  "lei da ": 4548,
  "yi xiao shi ": 4549,
  "li gong ": 4550,
  "ju ti ": 4551,
  "chang suo ": 4552,
  "zhou ci shi ": 4553,
  "en sheng ": 4554,
  "si hou ": 4555,
  "zi sha ": 4556,
  " shi yan ": 4557,
  "xiao yuan ": 4558,
  "da jia ": 4559,
  "mei jun ": 4560,
  "jiu yuan ": 4561,
  "pei xun ": 4562,
  "dang di de ": 4563,
  "fei yan ": 4564,
  " luo ma ": 4565,
  "ke de qi zhong yi zhong ": 4566,
  "li bu ": 4567,
  "liang ming ": 4568,
  "suo chu de ": 4569,
  "ze dong ": 4570,
  "chang he ": 4571,
  " ju you ": 4572,
  "xiang guan de ": 4573,
  " zhong hua ren min gong he guo zheng zhi ren wu ": 4574,
  "da lian meng ": 4575,
  "jie ren ": 4576,
  "du li de ": 4577,
  "su de ": 4578,
  "qun ti ": 4579,
  "500 ": 4580,
  "fu you ": 4581,
  "ju da ": 4582,
  "chan sheng de ": 4583,
  "   4": 4584,
  "tai hou ": 4585,
  " ji hua ": 4586,
  "shang sheng ": 4587,
  "shen shi ": 4588,
  "gu lao ": 4589,
  "99": 4590,
  " kou ": 4591,
  "huang se ": 4592,
  "jin you ": 4593,
  "lai yue ": 4594,
  "1 ge ": 4595,
  " da bu fen ": 4596,
  "yi nan ": 4597,
  " 2003 nian ": 4598,
  "ji jin hui ": 4599,
  "shang xia ": 4600,
  "te xing ": 4601,
  "hao wei ": 4602,
  " zhi zuo ": 4603,
  "  T": 4604,
  "si he ": 4605,
  "xin guan ": 4606,
  "zhuan xie ": 4607,
  "ji du jiao ": 4608,
  "fu lei ": 4609,
  "mi qie ": 4610,
  " xi jie ": 4611,
  "shi bai ": 4612,
  "huo che ": 4613,
  "nter": 4614,
  "yi xing ": 4615,
  " shi de guo ": 4616,
  "gong yu ": 4617,
  "xin xing ": 4618,
  "lv se ": 4619,
  "zai gai ": 4620,
  "da bai ": 4621,
  "fu er ": 4622,
  "xiao fang ": 4623,
  "wai bu ": 4624,
  "zu qiu yun dong yuan ": 4625,
  "si ma ": 4626,
  " wei lian ": 4627,
  "feng wei ": 4628,
  " xiang nian ": 4629,
  " ma lai ": 4630,
  " ye jiu shi ": 4631,
  " sang ": 4632,
  " you shi ": 4633,
  "2 hao ": 4634,
  " lang ": 4635,
  "ke li si ": 4636,
  "zi ben ": 4637,
  "eri": 4638,
  "shu zhi ": 4639,
  " gai cun ": 4640,
  "xiong ya li ": 4641,
  "mi shu zhang ": 4642,
  "zhong hai ": 4643,
  " shi wu ke lan ": 4644,
  "jiang zai ": 4645,
  "chang jian de ": 4646,
  "liang ce ": 4647,
  "le yi xie ": 4648,
  "de cheng ": 4649,
  "jun yi ": 4650,
  "ling chen ": 4651,
  "Ch": 4652,
  "hui bei ": 4653,
  "shu mu ": 4654,
  "gong qing ": 4655,
  " yi da li ": 4656,
  "65 ": 4657,
  "qian ren ": 4658,
  "hu xiang ": 4659,
  "   5": 4660,
  "xin zeng ": 4661,
  "jiao you ": 4662,
  " ji zai ": 4663,
  "kong bu ": 4664,
  "qin zi ": 4665,
  "zui hou yi ": 4666,
  "zhan dui ": 4667,
  "guo hou ": 4668,
  "shou xian ": 4669,
  "fang jian ": 4670,
  "zhang fu ": 4671,
  "fei er ": 4672,
  "xing deng wei ": 4673,
  "yin xiang ": 4674,
  "de shi yong ": 4675,
  "bi ye hou ": 4676,
  "  R": 4677,
  "   ai ": 4678,
  "dao yuan ": 4679,
  "yun shi ": 4680,
  "pi fu ": 4681,
  "gang tie ": 4682,
  "1 yue ": 4683,
  "lu zhi ": 4684,
  "ni er ": 4685,
  " zhi yu ": 4686,
  "yin yong ": 4687,
  "ban jiang ": 4688,
  " you qi shi ": 4689,
  "2002 nian ": 4690,
  "chao shi ": 4691,
  "ke he ": 4692,
  "dui ying ": 4693,
  "gai ming wei ": 4694,
  "che chang ": 4695,
  "bu ru ": 4696,
  "jian chi ": 4697,
  " xing cheng ": 4698,
  "ge lun bi ya ": 4699,
  "nang ": 4700,
  "fen zhi yi ": 4701,
  "mai ke ": 4702,
  "zhong jiang ": 4703,
  "shang wang ": 4704,
  "shou cang ": 4705,
  "luo ji ": 4706,
  "guo ji ji chang ": 4707,
  "zha dan ": 4708,
  "zi sheng ": 4709,
  "ping heng ": 4710,
  "neng yuan ": 4711,
  "zheng zhuang gan ran zhe ": 4712,
  " ti gong ": 4713,
  "de jie ": 4714,
  "   V": 4715,
  "zhu bu ": 4716,
  " yi nian ": 4717,
  "nuo fu ": 4718,
  "gong kai sai ": 4719,
  "xia ling shi jian ": 4720,
  "shi bing ": 4721,
  "li shu yu ": 4722,
  "ge ji ": 4723,
  "ju yu ": 4724,
  "fang kong ": 4725,
  "chang jiang ": 4726,
  " yi shu ": 4727,
  "zao yu ": 4728,
  "yi da ": 4729,
  "dang wei ": 4730,
  "guang xi ": 4731,
  "chu ban she ": 4732,
  "ER": 4733,
  " tong shi gai di ": 4734,
  "zai 197": 4735,
  "IS": 4736,
  "li qi ": 4737,
  "zai zhong guo ": 4738,
  " yi bian ": 4739,
  "suo wei ": 4740,
  "yu 190": 4741,
  "   2009 nian ": 4742,
  "nei lu sheng fen ": 4743,
  "zuo shi ": 4744,
  "jiang hu ": 4745,
  "dui fang ": 4746,
  "lay": 4747,
  "ube ": 4748,
  " re ": 4749,
  "zai zhong ": 4750,
  "zheng qu ": 4751,
  " xi nan ": 4752,
  "ric": 4753,
  "55 ": 4754,
  "f ": 4755,
  "nuan ": 4756,
  "ren ji ": 4757,
  " bi sai ": 4758,
  " chao xian ": 4759,
  "an da ": 4760,
  "he yu ": 4761,
  "gong cheng shi ": 4762,
  "fu hua ": 4763,
  "shou bo ": 4764,
  "xiao liang ": 4765,
  " you qi ": 4766,
  "dong shi zhang ": 4767,
  " Z": 4768,
  "shi liu ": 4769,
  "wu si ": 4770,
  "zhang zi ": 4771,
  "de ji chu ": 4772,
  " a er ": 4773,
  "er yu ": 4774,
  "zhang zhuan ji ": 4775,
  "shang hai shi ": 4776,
  "fu ji ": 4777,
  "bei jing shi ": 4778,
  " xu yao ": 4779,
  "wen de ": 4780,
  "de yi shu ": 4781,
  "15 nian ": 4782,
  "29 ": 4783,
  "bu lai ": 4784,
  "da suan ": 4785,
  "jia li fu ": 4786,
  "han you ": 4787,
  "NA": 4788,
  "dan mai ": 4789,
  "tian qi ": 4790,
  "lin jin ": 4791,
  "gui fan ": 4792,
  "   jian jie ": 4793,
  "zhi 199": 4794,
  "bu bu zhang ": 4795,
  "zhan chang ": 4796,
  "yan zou ": 4797,
  "lu kou ": 4798,
  "qian xi ": 4799,
  " shi zhong guo ": 4800,
  "la ji ": 4801,
  "sai er wei ya ": 4802,
  "jing nei gong you ": 4803,
  "xi zang ": 4804,
  "ti yi ": 4805,
  "dou zai ": 4806,
  "ren min bi ": 4807,
  "fa lan xi ": 4808,
  "li jie ": 4809,
  "dan shui ": 4810,
  "tu sha ": 4811,
  "han yu ": 4812,
  "ta wei ": 4813,
  "chang di ": 4814,
  "qian yue ": 4815,
  "duo li ya ": 4816,
  "li le ": 4817,
  "dao shang ": 4818,
  "ming ren ": 4819,
  "19 ": 4820,
  " te bie shi ": 4821,
  "xue de ": 4822,
  "lun de ": 4823,
  "ji jie ": 4824,
  "chu zhang ": 4825,
  "she yu ": 4826,
  "wan mei yuan ": 4827,
  "xie dao ": 4828,
  "bi li shi ": 4829,
  "duan zan ": 4830,
  "zhu yao de ": 4831,
  "he zhong ": 4832,
  "er ren ": 4833,
  "jiao cha ": 4834,
  "fan zhi ": 4835,
  "   xiang ": 4836,
  "bu zhu ": 4837,
  "30 nian ": 4838,
  "shi gu ": 4839,
  "lian wang ": 4840,
  " 12 ": 4841,
  "   di fang zi liao ": 4842,
  " Y": 4843,
  "yan an ": 4844,
  "na zhou ": 4845,
  "50 nian ": 4846,
  " 10 yue ": 4847,
  "jing you ": 4848,
  "ti xing ": 4849,
  "chu ji ": 4850,
  "ju yuan ": 4851,
  " jie mu ": 4852,
  "sp": 4853,
  "shi ke ": 4854,
  "xian zhu ": 4855,
  "liang zi ": 4856,
  "yue you ": 4857,
  "he er ": 4858,
  "zheng que ": 4859,
  "chi you ": 4860,
  "ta": 4861,
  "   ran ": 4862,
  "que bao ": 4863,
  "ren min dai biao da hui ": 4864,
  "DT ": 4865,
  "yi tiao ": 4866,
  "bo jue ": 4867,
  "kuo zhang ": 4868,
  " zi you ": 4869,
  "187": 4870,
  "bo shi xue wei ": 4871,
  "ping yuan ": 4872,
  "gh": 4873,
  "nen ": 4874,
  "xiao ying ": 4875,
  "ari": 4876,
  "si ling bu ": 4877,
  "ti dai ": 4878,
  "she xian ": 4879,
  "ben ren ": 4880,
  "fei er de ": 4881,
  "zu xie ": 4882,
  " jie ke ": 4883,
  "wu han ": 4884,
  "sheng yin ": 4885,
  "ming chao ": 4886,
  "bu shou ": 4887,
  "hai de ": 4888,
  "hai ba wei ": 4889,
  "chu chang ": 4890,
  "shang zhen ": 4891,
  "suo zai di ": 4892,
  "ceng wei ": 4893,
  "qun zhong ": 4894,
  "xian cheng ": 4895,
  "jing guan ": 4896,
  "fen lie ": 4897,
  "shi si ": 4898,
  "ji da ": 4899,
  "li xiang ": 4900,
  "guo jun ": 4901,
  "fu nv ": 4902,
  "zhu dao ": 4903,
  "duo nian ": 4904,
  "er zai ": 4905,
  "jin zhan ": 4906,
  " shuang fang ": 4907,
  "lu yu ": 4908,
  "che dui ": 4909,
  "wu di ": 4910,
  "zheng mian ": 4911,
  "yan hua ": 4912,
  "fu zhu xi ": 4913,
  "ent   ": 4914,
  " A ": 4915,
  " zu fu ": 4916,
  "AP": 4917,
  "la te ": 4918,
  " ning ": 4919,
  "ge si ": 4920,
  "zhu ban ": 4921,
  "ci ke ": 4922,
  "   190": 4923,
  "guo gong ": 4924,
  "zhuang ji ": 4925,
  "68": 4926,
  "yp": 4927,
  "ou meng ": 4928,
  "you wei ": 4929,
  "qu nei ": 4930,
  " yuan ming ": 4931,
  " dao le ": 4932,
  "li fa hui ": 4933,
  "ke lei ": 4934,
  "men de ": 4935,
  "tu chu ": 4936,
  "nic": 4937,
  "shang pin ": 4938,
  "shi qi nian ": 4939,
  "zhong zui ": 4940,
  "ta yu ": 4941,
  "shang yu ": 4942,
  "duan pian ": 4943,
  "ation": 4944,
  "cheng zhang ": 4945,
  "sa er ": 4946,
  "yi se lie ": 4947,
  "   si ": 4948,
  "he di ": 4949,
  "jie yu ": 4950,
  "quan xian ": 4951,
  "gong jiao ": 4952,
  "ya mu ": 4953,
  "quan shi ": 4954,
  "mi si ": 4955,
  "fei yong ": 4956,
  "33": 4957,
  "   jiao tong ": 4958,
  "shu chu ": 4959,
  "bian shi ": 4960,
  " 1998 nian ": 4961,
  "xian zhi xian ": 4962,
  " cang ": 4963,
  " dan yin ": 4964,
  "niao lei ": 4965,
  "   liu ": 4966,
  "gong jin ": 4967,
  "zui gao de ": 4968,
  "yi ke ": 4969,
  " zai zhe ": 4970,
  " jia na da ": 4971,
  "47 ": 4972,
  "xing neng ": 4973,
  "ju chang ": 4974,
  "   8": 4975,
  "jue shi ": 4976,
  " cn ": 4977,
  "yuan wei ": 4978,
  "ju bu ": 4979,
  "che tui ": 4980,
  "zao de ": 4981,
  "AC": 4982,
  "you zhu ": 4983,
  "ye ke yi ": 4984,
  "lian zai ": 4985,
  "kuai yi xiao shi ": 4986,
  "1 nian 12 yue ": 4987,
  "yi lang ": 4988,
  "xue ke ": 4989,
  " wei UTC ": 4990,
  "chuan zhi ": 4991,
  " fu jian ": 4992,
  "zu qiu ju le bu ": 4993,
  "she ying ": 4994,
  " ji UTC ": 4995,
  "ceng yu ": 4996,
  "qiang de ": 4997,
  "she you xia ling shi jian ": 4998,
  "de shi qu wei UTC ": 4999,
  " diao kuai yi xiao shi ": 5000,
  "igh": 5001,
  " er gai di suo cai yong ": 5002,
  " tong shi gai di she you xia ling shi jian ": 5003,
  " er gai di suo cai yong de shi qu wei UTC ": 5004,
  "bao zhi ": 5005,
  "te dian ": 5006,
  "de ji lu ": 5007,
  "jian zhu wu ": 5008,
  "pai ming di ": 5009,
  "qi nian ": 5010,
  "gan bu ": 5011,
  "zei ": 5012,
  "zai nan ": 5013,
  "shen pan ": 5014,
  "huan cheng ": 5015,
  "our": 5016,
  "   mei ": 5017,
  "   10": 5018,
  "he tong ": 5019,
  "xing rong ": 5020,
  "hua jia ": 5021,
  "shan xian ": 5022,
  "yi chu ": 5023,
  "fu si ": 5024,
  "huo sheng ": 5025,
  "ya mei ni ya ": 5026,
  "kong xi ": 5027,
  " ling you ": 5028,
  "z ": 5029,
  "ren ci ": 5030,
  "tai ji ": 5031,
  "wei yuan hui wei yuan ": 5032,
  " shan dong ": 5033,
  "ver": 5034,
  "zu qun ": 5035,
  "bing qie ": 5036,
  "huan xing ": 5037,
  "gao yu hai ping mian ": 5038,
  "li ren ": 5039,
  "mian ti ": 5040,
  "gui de ": 5041,
  "liang shi ": 5042,
  "dang tian ": 5043,
  "tian tang ": 5044,
  "qu de mian ji wei ": 5045,
  "bu shi qu ": 5046,
  "hai ba wei gao yu hai ping mian ": 5047,
  "AN": 5048,
  "gao xiao ": 5049,
  "zan zhu ": 5050,
  "suo chu de hai ba wei gao yu hai ping mian ": 5051,
  "bu da ": 5052,
  "wu ran ": 5053,
  "44 ": 5054,
  "jia su ": 5055,
  "jian ji ": 5056,
  "jue yi ": 5057,
  "bei pan ": 5058,
  "ta er ": 5059,
  "shang le ": 5060,
  "zong shi ": 5061,
  "ya li shan da ": 5062,
  "yi ran ": 5063,
  "zong cai ": 5064,
  " si chuan ": 5065,
  "...": 5066,
  "cheng jiu ": 5067,
  "te qu ": 5068,
  "jing bao ": 5070,
  "xin ji ": 5071,
  " ying wen ": 5072,
  "hen shao ": 5073,
  "heng li ": 5074,
  "da er ": 5075,
  "pei bei ": 5076,
  "hang zhou ": 5077,
  "fa sheng zai ": 5078,
  "yu zhou ": 5079,
  "zai nei de ": 5080,
  "xiang zhen ": 5081,
  "guan kan ": 5082,
  "luo fa ": 5083,
  " ji bei mei ": 5084,
  "gong zuo shi ": 5085,
  " qian long ": 5086,
  " mu qin ": 5087,
  "au": 5088,
  "   7": 5089,
  "jing sai ": 5090,
  "huo zai ": 5091,
  "duo er ": 5092,
  "bang qiu ": 5093,
  "qing xing ": 5094,
  "hui zhi ": 5095,
  "18 nian ": 5096,
  "lu duan ": 5097,
  "qing jie ": 5098,
  "gu de ": 5099,
  "   dui ": 5100,
  " 8 yue ": 5101,
  "he ma ": 5102,
  "cheng hu ": 5103,
  "hang ye ": 5104,
  "wei hu ": 5105,
  "jin si ": 5106,
  "fu han ": 5107,
  "cai chan ": 5108,
  "6 ge ": 5109,
  "zhong duan ": 5110,
  " ta men de ": 5111,
  " cui ": 5112,
  " yi you ": 5113,
  "ter": 5114,
  "xi shou ": 5115,
  "kao jin ": 5116,
  "jiang ji ": 5117,
  "65": 5118,
  "fa dong ji ": 5119,
  "na ru ": 5120,
  " xian hou ": 5121,
  " 30": 5122,
  "ruan ti ": 5123,
  "chu zi ": 5124,
  "shen sheng ": 5125,
  "ark": 5126,
  "wu yi ": 5127,
  "chao ting ": 5128,
  "long de ": 5129,
  " zhui ": 5130,
  "jia yu ": 5131,
  " ji bai ": 5132,
  "li shu ": 5133,
  "zhu ru ": 5134,
  "zu jie ": 5135,
  "150 ": 5136,
  "wei da ": 5137,
  "shou shu ": 5138,
  "zhong guo ren min jie fang jun ": 5139,
  "yi zhou ": 5140,
  "wu yu ": 5141,
  "sheng dao ": 5142,
  "zhan mu si ": 5143,
  "gong yuan qian ": 5144,
  "ke you ": 5145,
  "tu xiang ": 5146,
  "300 ": 5147,
  "   an ": 5148,
  "mei de ": 5149,
  "   2007 nian ": 5150,
  "zai 196": 5151,
  "wei ye ": 5152,
  "jia xiang ": 5153,
  "luo cheng ": 5154,
  "fa ling ": 5155,
  "dan de ": 5156,
  "zhi xu ": 5157,
  "liang ji ": 5158,
  " 2024 nian ": 5159,
  " cai yong ": 5160,
  "shou fei ": 5161,
  "kong qi ": 5162,
  "ju bei ": 5163,
  "3 hao ": 5164,
  "zu zhi de ": 5165,
  "   tai wan ": 5166,
  " 11 ": 5167,
  "bin hai ": 5168,
  "tong wang ": 5169,
  "mian lin ": 5170,
  "xun qiu ": 5171,
  "qian hou ": 5172,
  "zhen qu de mian ji wei ": 5173,
  "shun li ": 5174,
  "dao he ": 5175,
  "hua yu ": 5176,
  "zhe wei ": 5177,
  "tan xian ": 5178,
  " shou ci ": 5179,
  "ji jiang ": 5180,
  "si la fu ": 5181,
  "xian zhang ": 5182,
  "zhan shu ": 5183,
  "du wei ": 5184,
  "shang xian ": 5185,
  "yan jiang ": 5186,
  " 1999 nian ": 5187,
  "   2025 nian ": 5188,
  "   zhu yao ": 5189,
  "zai 194": 5190,
  "qu fen ": 5191,
  "ou xiang ": 5192,
  "zi he ": 5193,
  "bao shi ": 5194,
  "ting kao ": 5195,
  " zhe yang ": 5196,
  "shuang da ": 5197,
  " 1949 nian ": 5198,
  "gu fen you xian gong si ": 5199,
  "64 ": 5200,
  "ef": 5201,
  "zhi bei ": 5202,
  " ren min ": 5203,
  " wei yu gai ": 5204,
  "   fan ": 5205,
  "xia de yi ge ": 5206,
  "bao xian ": 5207,
  "yue qiu ": 5208,
  "shi ti ": 5209,
  "   jie ": 5210,
  "ge guo ": 5211,
  "fu zai ": 5212,
  "le xu duo ": 5213,
  "jun ren ": 5214,
  "zhi zuo de ": 5215,
  " pian ": 5216,
  "li mi ": 5217,
  "bao an ": 5218,
  "shi ji shang ": 5219,
  " su lian ": 5220,
  "zi wo ": 5221,
  "zuo ye ": 5222,
  "she jiao ": 5223,
  "chuang xin ": 5224,
  "120": 5225,
  "ci": 5226,
  "ying dui ": 5227,
  "mao xian ": 5228,
  "jin shan ": 5229,
  "jiao da ": 5230,
  "wang hou ": 5231,
  " yu ci ": 5232,
  "186": 5233,
  "zhong shu ": 5234,
  "qu jian ": 5235,
  "chong ji ": 5236,
  "zhu yi de ": 5237,
  " gei ": 5238,
  "   9": 5239,
  "you xie ": 5240,
  "cheng nian ": 5241,
  "zao shang ": 5242,
  "59": 5243,
  "li ba ": 5244,
  "shou ren ": 5245,
  "yan zhong de ": 5246,
  " xi bei ": 5247,
  "NB": 5248,
  "zhi jing ": 5249,
  "da ge ming ": 5250,
  "si lan ": 5251,
  "wan de ": 5252,
  "ent ": 5253,
  "jia zhuang ": 5254,
  "lv de ": 5255,
  " niu yue ": 5256,
  "dong yuan ": 5257,
  "di yi wei ": 5258,
  "yu 192": 5259,
  "pai hang bang ": 5260,
  "ya ke ": 5261,
  "se   ": 5262,
  "5 ge ": 5263,
  "   zheng ": 5264,
  "li ao ": 5265,
  "can shu ": 5266,
  "huang jin ": 5267,
  " chu sheng yu ": 5268,
  "IC": 5269,
  "at   ": 5270,
  " ce ": 5271,
  "   shi yong ": 5272,
  "lao shi ": 5273,
  "da shi guan ": 5274,
  "gu dian ": 5275,
  "gu la ": 5276,
  "ba la ": 5277,
  "se fu ": 5278,
  "jian li le ": 5279,
  "pan luan ": 5280,
  "ar ": 5281,
  "   ri ben ": 5282,
  "yin ni ": 5283,
  "yue lai yue ": 5284,
  " li shu ": 5285,
  "   U": 5286,
  "bei ke ": 5287,
  "qian ru ": 5288,
  "te you ": 5289,
  " er fei ": 5290,
  "YouT": 5291,
  "   formula ": 5292,
  "bao yu ": 5293,
  "bian yuan ": 5294,
  " pu tao ": 5295,
  "shi ta ": 5296,
  "5 gong li ": 5297,
  "pei yang ": 5298,
  " xin wen ": 5299,
  "ah": 5300,
  "ich": 5301,
  "tui jian ": 5302,
  "kai shi zai ": 5303,
  "est": 5304,
  "she qun ": 5305,
  "de yi tiao ": 5306,
  "rong he ": 5307,
  "gen sui ": 5308,
  "lang pu ": 5309,
  "14 nian ": 5310,
  "   b": 5311,
  "zhong ye ": 5312,
  " rui ": 5313,
  "liu chuan ": 5314,
  "chao yue ": 5315,
  "   wang ": 5316,
  "qi yue ": 5317,
  "yang xing ": 5318,
  "tian fu ": 5319,
  " shan xi ": 5320,
  "le dui ": 5321,
  "xue ye ": 5322,
  "si xing ": 5323,
  "wu shu ": 5324,
  "jia er ": 5325,
  "ti chu le ": 5326,
  "xiao li yu ": 5327,
  "zheng shu ": 5328,
  "hai shang ": 5329,
  " yi qi ": 5330,
  " liang ge ": 5331,
  "  H": 5332,
  "luo shan ji ": 5333,
  "tie lu che zhan ": 5334,
  "dou zheng ": 5335,
  "   jia ting ": 5336,
  "   mu qian ": 5337,
  "jia she ": 5338,
  "qu he ": 5339,
  "zhuang de ": 5340,
  "rong na ": 5341,
  "you hui ": 5342,
  "xiao jie ": 5343,
  "qing zhu ": 5344,
  "xuan cheng ": 5345,
  " 16 ": 5346,
  "kuo jian ": 5347,
  "ti chu de ": 5348,
  "fu ka ": 5349,
  "xia le ": 5350,
  " ri jun ": 5351,
  "58": 5352,
  "qu zhu ": 5353,
  "shang dian ": 5354,
  "mei yuan de ": 5355,
  "ying jun ": 5356,
  " na me ": 5357,
  "ram": 5358,
  " 7 yue ": 5359,
  "zhi bo ": 5360,
  "bu yuan ": 5361,
  "bu lie ": 5362,
  "bu chong ": 5363,
  "wu yue ": 5364,
  "zhe zai ": 5365,
  "duo wei ": 5366,
  "hong jun ": 5367,
  "jia ru le ": 5368,
  "zhong xin de ": 5369,
  "lu": 5370,
  "you san ": 5371,
  "gai zhi wei ": 5372,
  "zao cheng de ": 5373,
  "cheng fen ": 5374,
  "er zhan ": 5375,
  "kai mu ": 5376,
  "tu de ": 5377,
  " zhi chi ": 5378,
  "zhi ze ": 5379,
  "ci shu ": 5380,
  "dai ma ": 5381,
  "ping deng ": 5382,
  "ba da ": 5383,
  "7 yue 1 ri ": 5384,
  " men ": 5385,
  " nong ": 5386,
  "you hua ": 5387,
  "lu yi si ": 5388,
  "zhang yue ": 5389,
  " yi xia ": 5390,
  "   huo ": 5391,
  "ran liao ": 5392,
  "he fa ": 5393,
  " 12 yue ": 5394,
  "bu jian ": 5395,
  "chu xian le ": 5396,
  " gou ": 5397,
  "si ka ": 5398,
  "art": 5399,
  "nve ": 5400,
  "yi er ": 5401,
  "   ge ren ": 5402,
  "xi he ": 5403,
  "zhu quan ": 5404,
  "xuan chu ": 5405,
  "tiao jie ": 5406,
  "13 nian ": 5407,
  "   jian ": 5408,
  "ji hou ": 5409,
  "xiang fa ": 5410,
  "nei di ": 5411,
  "ju ban de ": 5412,
  "tong wei ": 5413,
  "ban li ": 5414,
  "xie shang ": 5415,
  " zu zhi ": 5416,
  "da he ": 5417,
  "dan du ": 5418,
  "su song ": 5419,
  "  D": 5420,
  "shi xiang ": 5421,
  "zai de ": 5422,
  "qi fu ": 5423,
  "da di ": 5424,
  "si hu ": 5425,
  "ti zhi ": 5426,
  "de yi yuan ": 5427,
  "ection   ": 5428,
  "jiang ta ": 5429,
  "suo zhi ": 5430,
  "mou sha ": 5431,
  "ber": 5432,
  "   tian ": 5433,
  "xin yi ": 5434,
  "ti cai ": 5435,
  "ba he ": 5436,
  "shui mian ": 5437,
  "ju he ": 5438,
  "ci qu ": 5439,
  "zuo fa ": 5440,
  " 14 ": 5441,
  "omp": 5442,
  "52 ": 5443,
  "yan lun ": 5444,
  "xia xia yi xia ": 5445,
  " shi yi ge wei yu ": 5446,
  "xun yang jian ": 5447,
  "de zhong yao ": 5448,
  "zong hui ": 5449,
  " 18 ": 5450,
  "cai pan ": 5451,
  " lian he ": 5452,
  "43 ": 5453,
  "  G": 5454,
  "qi you ": 5455,
  "da jie ": 5456,
  "   zhang ": 5457,
  "qi yuan ": 5458,
  "fen si ": 5459,
  "fen qu ": 5460,
  "ban bu ": 5461,
  "lie chu ": 5462,
  " 1997 nian ": 5463,
  "xiang tong de ": 5464,
  " 00": 5465,
  "In": 5466,
  " hun ": 5467,
  "he suan ": 5468,
  "er wei ": 5469,
  "zhu liu ": 5470,
  "chu ru kou ": 5471,
  "su dan ": 5472,
  "cha de ": 5473,
  "79": 5474,
  "cheng nuo ": 5475,
  "jia gou ": 5476,
  "jia li ya ": 5477,
  "xiang bei ": 5478,
  " er": 5479,
  "di kang ": 5480,
  "luo ma ni ya ": 5481,
  "41 ": 5482,
  "69": 5483,
  "a gen ting ": 5484,
  "ke xue jia ": 5485,
  "chong zu ": 5486,
  "wai jiao bu ": 5487,
  " zhuo ": 5488,
  " tun ": 5489,
  "shi min ": 5490,
  "ren quan ": 5491,
  "ri chang ": 5492,
  "yin de ": 5493,
  "xie ding ": 5494,
  "11 nian ": 5495,
  "qing xu ": 5496,
  " bing wei ": 5497,
  "zhuan yong ": 5498,
  "gan jue ": 5499,
  "jiao gei ": 5500,
  "che de ": 5501,
  "de di san ": 5502,
  "pp": 5503,
  "di 1 ": 5504,
  "xiang you ": 5505,
  " shi zi ": 5506,
  "yan xi ": 5507,
  "qiang zhi ": 5508,
  " 9 yue ": 5509,
  "yi zhang ": 5510,
  "jiao zong ": 5511,
  "wen shi ": 5512,
  "zhong ji ": 5513,
  "ju luo ": 5514,
  "su li ": 5515,
  "ze zai ": 5516,
  "song dao ": 5517,
  "   2006 nian ": 5518,
  "er yi ": 5519,
  "fen xiao ": 5520,
  "17 nian ": 5521,
  " za zhi ": 5522,
  "jin qu ": 5523,
  "de xian ": 5524,
  "   chu le ": 5525,
  "suo xu ": 5526,
  "xuan xiu ": 5527,
  "gang yuan ": 5528,
  "chong man ": 5529,
  "miao hui ": 5530,
  "32": 5531,
  "ai qing ": 5532,
  "   dong ": 5533,
  "fa li ya ": 5534,
  "ming ci ": 5535,
  "mu zhi ": 5536,
  "de yuan yin ": 5537,
  "wei jian ": 5538,
  "tai zhong ": 5539,
  " ta you ": 5540,
  "ph": 5541,
  "huo wu ": 5542,
  "ma li ya ": 5543,
  " yu 199": 5544,
  "wa er ": 5545,
  " zou ": 5546,
  "hou fang ": 5547,
  "dui hua ": 5548,
  "tou xian ": 5549,
  "fang mian de ": 5550,
  "c ": 5551,
  "   you xi ": 5552,
  "lan se ": 5553,
  "que shi ": 5554,
  "zhe jiang sheng ": 5555,
  " 11 yue ": 5556,
  "4   ": 5557,
  "  L": 5558,
  "na sheng ": 5559,
  "e guo ": 5560,
  "   17": 5561,
  "mao dun ": 5562,
  "ren wei shi ": 5563,
  "de ji hua ": 5564,
  "ao er ": 5565,
  "hui hua ": 5566,
  "huo yun ": 5567,
  "ta ni ": 5568,
  "qi ren ": 5569,
  "wen yi ": 5570,
  "shi you yu ": 5571,
  " 1990 nian ": 5572,
  "ju le ": 5573,
  "ping jie ": 5574,
  "lian tong ": 5575,
  " 1994 nian ": 5576,
  "el ": 5577,
  "son ": 5578,
  " ruan ": 5579,
  "zu fu ": 5580,
  "hu po ": 5581,
  " xian dai ": 5582,
  "xi jie ": 5583,
  "shou duan ": 5584,
  "xia fang ": 5585,
  "qing dao ": 5586,
  " xi tong ": 5587,
  "qiao liang ": 5588,
  "xi lan ": 5589,
  "shang su ": 5590,
  "yin yu ": 5591,
  "zong jian ": 5592,
  " 1992 nian ": 5593,
  "de luo ": 5594,
  "ren zheng ": 5595,
  "pei zhi ": 5596,
  " Q": 5597,
  " X": 5598,
  "zai da ": 5599,
  "sheng mu ": 5600,
  "xin jie ": 5601,
  "qian jin ": 5602,
  "zui wei ": 5603,
  "han zi ": 5604,
  "can guan ": 5605,
  "dui zhen ": 5606,
  "bao zheng ": 5607,
  "yong jiu ": 5608,
  "ik": 5609,
  "guo dao ": 5610,
  "xin jian ": 5611,
  "zhou ji ": 5612,
  " 17 ": 5613,
  "se cai ": 5614,
  "16 nian ": 5615,
  "   dao ": 5616,
  "da dui ": 5617,
  "dong xian ": 5618,
  "rang ta ": 5619,
  "zhun que ": 5620,
  " jiang su ": 5621,
  " zhao he ": 5622,
  "shi zhe ": 5623,
  "zhan lie ": 5624,
  "ying zhan ": 5625,
  "gao yuan ": 5626,
  "suo you de ": 5627,
  "er lai ": 5628,
  "le yuan ": 5629,
  "quan shu ": 5630,
  "hu de ": 5631,
  " bi xu ": 5632,
  " ma lai xi ya ": 5633,
  "   s": 5634,
  "ge ci ": 5635,
  "jiao du ": 5636,
  "yue de ": 5637,
  "ard": 5638,
  "re dai feng bao ": 5639,
  "liang zhi ": 5640,
  "pin lv ": 5641,
  "wo de ": 5642,
  " er gai di de ": 5643,
  "jin xing de ": 5644,
  "guo min zheng fu ": 5645,
  "zhu dong ": 5646,
  "hu dong ": 5647,
  " de yu ": 5648,
  "   gai yao ": 5649,
  "zai xi ": 5650,
  "dou bei ": 5651,
  " ming zhi ": 5652,
  "ren tong ": 5653,
  "ting de ": 5654,
  "78": 5655,
  "zhi bu ": 5656,
  "wai guan ": 5657,
  "cheng li hou ": 5658,
  "di chan ": 5659,
  "dan xin ": 5660,
  "tian jia ": 5661,
  "   qi hou ": 5662,
  "xia you ": 5663,
  "kai gong ": 5664,
  "fei fa ": 5665,
  " zui jia ": 5666,
  " bo chu ": 5667,
  "can yu le ": 5668,
  "shi zheng ": 5669,
  "ma ke si ": 5670,
  "deng zhi ": 5671,
  "chan sheng le ": 5672,
  "da gong ": 5673,
  "jin wei ": 5674,
  "   luo ": 5676,
  "de shi wu ": 5677,
  "ON": 5678,
  "chuo ": 5679,
  "zheng yue ": 5680,
  "dian chi ": 5681,
  "shan dong sheng ": 5682,
  "he fu ": 5683,
  "he zi ": 5684,
  "jian dao ": 5685,
  "xia zai ": 5686,
  "qiu de ": 5687,
  "zong dui ": 5688,
  "chou bei ": 5689,
  "hao ping ": 5690,
  " 1996 nian ": 5691,
  "shi": 5692,
  "zhong zheng ": 5693,
  "ren jiao ": 5694,
  "xiang qi ": 5695,
  "ming jin shi ": 5696,
  " shi xiang gang ": 5697,
  "wang zi ": 5698,
  "guo jia gong yuan ": 5699,
  " tou guo ": 5700,
  " yue nan ": 5701,
  " tong yang ": 5702,
  "liao ning ": 5703,
  " 1950 nian ": 5704,
  "tai bei shi ": 5705,
  "qu bie ": 5706,
  "fa sheng le ": 5707,
  "th ": 5708,
  "ed ": 5709,
  "he jin ": 5710,
  "li an ": 5711,
  "ding qi ": 5712,
  "ba er ": 5713,
  " zhe ci ": 5714,
  " li ren ": 5715,
  " qi zhong nan xing ": 5716,
  "lu shang ": 5717,
  "dui ta ": 5718,
  " ji tuan ": 5719,
  "bian huan ": 5720,
  " zan ": 5721,
  "cheng hao ": 5722,
  "jiu zai ": 5723,
  " wei er ": 5724,
  "gui zhou ": 5725,
  "gan yu ": 5726,
  " pao ": 5727,
  "shai ": 5728,
  "   yan ": 5729,
  "58 ": 5730,
  "bu bian ": 5731,
  "wu ge ": 5732,
  "ye jian ": 5733,
  "liang da ": 5734,
  "zhou zhang ": 5735,
  " li yong ": 5736,
  "xi qu ": 5737,
  "zhen ya ": 5738,
  "   ran er ": 5739,
  " xue sheng ": 5740,
  "he hua ": 5741,
  "yue yu ": 5742,
  " zhong gong zhong yang ": 5743,
  "62 ": 5744,
  "shi fang ": 5745,
  "xing che ": 5746,
  "ban ci ": 5747,
  " fou ": 5748,
  "xiang jiao ": 5749,
  "ding le ": 5750,
  " ta ren wei ": 5751,
  "hu bu ": 5752,
  " cheng gong ": 5753,
  "  F": 5754,
  "   p": 5755,
  "sheng xia ": 5756,
  "xu shu ": 5757,
  "bing tuan ": 5758,
  " bing bei ": 5759,
  " zhi zai ": 5760,
  "shi jie mu ": 5761,
  "de fan ": 5762,
  "xu shi ": 5763,
  "zhuan wei ": 5764,
  "tion ": 5765,
  " 1993 nian ": 5766,
  " w": 5767,
  " zhuan ji ": 5768,
  "hua gui ": 5769,
  "mei mei ": 5770,
  "cai fang ": 5771,
  " St": 5772,
  "ca ": 5773,
  "de di yi ": 5774,
  "gong gao ": 5775,
  "xiang dao ": 5776,
  "jiang bei ": 5777,
  "he": 5778,
  "you cheng ": 5779,
  " f": 5780,
  "yi xian ": 5781,
  "ming ju ren ": 5782,
  " 13 ": 5783,
  " shou dao ": 5784,
  " 1985 nian ": 5785,
  "   ling wai ": 5786,
  "zhong li ": 5787,
  "wan cheng le ": 5788,
  "zhu guan ": 5789,
  "bian zhi ": 5790,
  "san ji ": 5791,
  "chong fan ": 5792,
  "di ren ": 5793,
  "xing hao ": 5794,
  "xiang lian ": 5795,
  "yan jing ": 5796,
  "zhuan yi ": 5797,
  "ay ": 5798,
  "xi jin ": 5799,
  "jing tou ": 5800,
  "mu er ": 5801,
  "xu lie ": 5802,
  " zhi yi ": 5803,
  "nv hai ": 5804,
  "res": 5805,
  "ji suan ji ": 5806,
  "53 ": 5807,
  "xiang yao ": 5808,
  "qu dong ": 5809,
  "zao shou ": 5810,
  "tan suo ": 5811,
  "he you ": 5812,
  "dang yu ": 5813,
  "zong yi ": 5814,
  " yu le ": 5815,
  " yuan ben ": 5816,
  " juan ": 5817,
  "   di yi ": 5818,
  "fen jie ": 5819,
  "du jiao ": 5820,
  "nv wang ": 5821,
  "huo li ": 5822,
  "zhuang bing du ": 5823,
  "reng zai ": 5824,
  " quan qiu ": 5825,
  "   nan ": 5826,
  "gang qin ": 5827,
  "shao jiang ": 5828,
  "67": 5829,
  "di ji ": 5830,
  "bu jia ": 5831,
  "lu yin ": 5832,
  "huai yi ": 5833,
  "zhong guo da lu de ": 5834,
  "of   the   ": 5835,
  "57": 5836,
  "64": 5837,
  "  K": 5838,
  "dong ya ": 5839,
  "tu er ": 5840,
  "6 mi ": 5841,
  "zhun jue sai ": 5842,
  "cheng shi de ": 5843,
  "zhan wei yu ": 5844,
  " shi shi ": 5845,
  "xiao xiang ": 5846,
  "qing xiang ": 5847,
  "zhen zheng ": 5848,
  "tiao kuan ": 5849,
  "de xiao xing xing ": 5850,
  "tai shi ": 5851,
  "bing de ": 5852,
  " zhi jin ": 5853,
  " er bu shi ": 5854,
  "shen ru ": 5856,
  " huo shi ": 5857,
  "   ming ": 5858,
  "zhen cha ": 5859,
  "ding li ": 5860,
  "lang zhong ": 5861,
  "zeng jia le ": 5862,
  "yang xian ": 5863,
  "su wei ai ": 5864,
  "2000 ": 5865,
  "kao shi ": 5866,
  "you xi de ": 5867,
  "lei si de ": 5868,
  "bo": 5869,
  "da po ": 5870,
  "gan su ": 5871,
  "meng de ": 5872,
  "hang ban ": 5873,
  "shi yong le ": 5874,
  "pan jue ": 5875,
  "ard   ": 5876,
  " 6 yue ": 5877,
  "yu mei guo ": 5878,
  "di ceng ": 5879,
  "cheng guo ": 5880,
  "fa jue ": 5881,
  "fu ze ren ": 5882,
  "fen bie wei ": 5883,
  "yu nan ": 5884,
  " cheng yuan ": 5885,
  "   jin guan ": 5886,
  " 2019": 5887,
  " section   ": 5888,
  "um ": 5889,
  "bei lu ": 5890,
  " chu ci ": 5891,
  " 1995 nian ": 5892,
  "   hong ": 5893,
  "xing zhuang ": 5894,
  "tao wan ": 5895,
  " han zu ": 5896,
  "luo ma di guo ": 5897,
  " mai ke ": 5898,
  "xian de yi ge fei jian zhi di qu ": 5899,
  " cun ": 5900,
  "shi ying ": 5901,
  "de shu ": 5902,
  "zhi xiang ": 5903,
  "gong she ": 5904,
  "ming lu ": 5905,
  "zhe yang de ": 5906,
  " yin fa ": 5907,
  " shi yi ke ": 5908,
  " tong shi ye ": 5909,
  " lian jie ": 5910,
  "bian yi ": 5911,
  " da xue ": 5912,
  "zheng duo ": 5913,
  "jin jun ": 5914,
  "yong le ": 5915,
  "nei you ": 5916,
  "cheng dan ": 5917,
  " ji xu ": 5918,
  " ceng jing ": 5919,
  "e de ": 5920,
  "li zai ": 5921,
  "shang ban ": 5922,
  " zai 199": 5923,
  "deng yu ": 5924,
  "gan xian ": 5925,
  "du hui ": 5926,
  "nan de ": 5927,
  "nv zhu jue ": 5928,
  "   gen ju 2020 nian mei guo ren kou pu cha de shu ju ": 5929,
  "IP": 5930,
  "li xian ": 5931,
  "jin qiu ": 5932,
  " bie ": 5933,
  "odi": 5934,
  "di ming ": 5936,
  "nan min ": 5937,
  "dang an ": 5938,
  " shi yi bu ": 5939,
  "chai you ji ": 5940,
  "qi le ": 5941,
  "dong ni ": 5942,
  "chuan tong de ": 5943,
  "if": 5944,
  "shou zhi ": 5945,
  " ai er ": 5946,
  "xuan ju zhong ": 5947,
  "yu dao ": 5948,
  "li nian ": 5949,
  "zhan zheng qi jian ": 5950,
  " yin wei ta ": 5951,
  "   qi zhong ": 5952,
  "si zai ": 5953,
  "mei tian ": 5954,
  "ru jing ": 5955,
  "qing shao nian ": 5956,
  "cong wei ": 5957,
  "51 ": 5958,
  "yuan qu ": 5959,
  "wan nian ": 5960,
  "suan fa ": 5961,
  " lu wa er sheng ": 5962,
  "wei fan ": 5963,
  "zi yi ": 5964,
  "le si tan ": 5965,
  "bing wu ": 5966,
  "tuan jie ": 5967,
  " pin ": 5968,
  "   chen ": 5969,
  "xi yu ": 5970,
  "ling de ": 5971,
  "dan yuan ": 5972,
  "dong ce ": 5973,
  "tu ji ": 5974,
  " jiu shi ": 5975,
  "   jing ji ": 5976,
  "   ping jia ": 5977,
  "dang dai ": 5978,
  "chuan qi ": 5979,
  " 1945 nian ": 5980,
  "lo": 5981,
  "   1": 5982,
  "dan yao ": 5983,
  "jue yu ": 5984,
  "cheng xiang ": 5985,
  "ju da de ": 5986,
  "jiao jie ": 5987,
  "yan xu ": 5988,
  "end": 5989,
  "yi bu fen ": 5990,
  "ji ke ": 5991,
  "di jiu ": 5992,
  "zhu shou ": 5993,
  "du du ": 5994,
  " 5 yue ": 5995,
  " guan fang ": 5996,
  "dan da ": 5997,
  "zong shu ": 5998,
  "   2005 nian ": 5999,
  "   san ": 6000,
  "ji li ": 6001,
  "you le ": 6002,
  "ti yan ": 6003,
  "wen he ": 6004,
  "bing zai ": 6005,
  "zhi zuo ren ": 6006,
  " hant ": 6007,
  "shang fang ": 6008,
  "bai yu ": 6009,
  "meng te ": 6010,
  "de ji hui ": 6011,
  "hang kong gong si ": 6012,
  "zi xing che ": 6013,
  " ling yi fang mian ": 6014,
  "54 ": 6015,
  "aw": 6016,
  "fu lu ": 6017,
  "sheng jing ": 6018,
  "56": 6019,
  "bu xing ": 6020,
  "yuan zhi ": 6021,
  "19 shi ji ": 6022,
  "zui you ": 6023,
  "ben xian ": 6024,
  "deng de ": 6025,
  "duan shi jian ": 6026,
  "tan ce ": 6027,
  " meng gu ": 6028,
  "sheng shi ": 6029,
  "she zai ": 6030,
  "2 mi ": 6031,
  " xian wei ": 6032,
  " liu yu ": 6033,
  "you zai ": 6034,
  "tong yong ": 6035,
  "zhan zhong ": 6036,
  " bi ye ": 6037,
  " hen ": 6038,
  "xi guan ": 6039,
  "mian shi ": 6040,
  "8 ge ": 6041,
  "shou dao le ": 6042,
  "rao tai yang ": 6043,
  "edi": 6044,
  "mei ri ": 6045,
  " er hou ": 6046,
  " ao men ": 6047,
  "ock": 6048,
  "ke hu ": 6049,
  "dong che ": 6050,
  "you tai ren ": 6051,
  "zhi 198": 6052,
  "sheng yi ": 6053,
  "dui zai ": 6054,
  "gao zhi ": 6055,
  "lei xing de ": 6056,
  "tuan zhang ": 6057,
  "mie jue ": 6058,
  "zhi min di ": 6059,
  " shi jian yu ": 6060,
  "shen shang ": 6061,
  "de yi mei ": 6062,
  "reng you ": 6063,
  "tian wen tai ": 6064,
  "44": 6065,
  "vi": 6066,
  "de jian ": 6067,
  "mo luo ": 6068,
  " zhi chu ": 6069,
  "can mou zhang ": 6070,
  "xin guan fei yan ": 6071,
  "e wei ": 6072,
  "bu di ": 6073,
  "fu lan ": 6074,
  "zi yu ": 6075,
  "jiang zhi ": 6076,
  "gai ming ": 6077,
  "pian de ": 6078,
  "tao wang ": 6079,
  "YouTube ": 6080,
  "wu wei ": 6081,
  "hao shi ": 6082,
  "tong xue ": 6083,
  "LE": 6084,
  "shou yi ": 6085,
  "chang sha ": 6086,
  "de shi ji ": 6087,
  "yu yu ": 6088,
  "zai yi qi ": 6089,
  "ge lu ": 6090,
  "zhan di ": 6091,
  "gu dong ": 6092,
  "hao you ": 6093,
  "01 ": 6094,
  " chan ": 6095,
  "an li ": 6096,
  "yuan ji ": 6097,
  "chang bei ": 6098,
  " shi e luo si ": 6099,
  "sai che ": 6100,
  " wei lai ": 6101,
  "3 mi ": 6102,
  "zhu ji ": 6103,
  "shu yi ": 6104,
  "ba ji ": 6105,
  " qian wang ": 6106,
  " 1991 nian ": 6107,
  " tian jin ": 6108,
  "hai ba gao du wei ": 6109,
  " n ": 6110,
  "jian le ": 6111,
  "shu he ": 6112,
  "fang cheng ": 6113,
  "nei meng gu ": 6114,
  "cai wu ": 6115,
  " he lan ": 6116,
  "fang song ": 6117,
  "yan fa ": 6118,
  " dan qi ": 6119,
  "da ying ": 6120,
  "bei si ": 6121,
  "shi nian ": 6122,
  "   quan ": 6123,
  "wei wei ": 6124,
  "bu qu ": 6125,
  "ta ren ": 6126,
  "hua he wu ": 6127,
  "qian yin ": 6128,
  " ji hu ": 6129,
  " ci ci ": 6130,
  "nong chang ": 6131,
  "ge ti ": 6132,
  "fu jia ": 6133,
  "shu niu ": 6134,
  "guan guang ": 6135,
  "ling dao de ": 6136,
  "lun tan ": 6137,
  "chen ji ": 6138,
  " da yue ": 6139,
  " pu tao ya ": 6140,
  " cu ": 6141,
  "zhu long ": 6142,
  "ju ju zhang ": 6143,
  "le gai ": 6144,
  "tai bi ": 6145,
  "luo yu ": 6146,
  "xie dai ": 6147,
  "zui di ": 6148,
  "ros": 6149,
  " kang xi ": 6150,
  "hong zha ji ": 6151,
  " 9 ": 6152,
  "shou fa ": 6153,
  "zhan zhi ": 6154,
  "luo xuan ": 6155,
  "sai zhong ": 6156,
  "hu lian wang ": 6157,
  "pai lie ": 6158,
  "00 nian ": 6159,
  "ch ": 6160,
  "zi cheng ": 6161,
  "le zhe ": 6162,
  "fang bian ": 6163,
  "bo ge ": 6164,
  "mei guo ren ": 6165,
  "25 nian ": 6166,
  "39 ": 6167,
  "xing xi ": 6168,
  "ke jian ": 6169,
  "liu liang ": 6170,
  "hu xi ": 6171,
  "   di er ": 6172,
  "di 2 ": 6173,
  "zhan wei ": 6174,
  "hai e ": 6175,
  "te ji ": 6176,
  "nuo man ": 6177,
  " 185": 6178,
  "xiao yu ": 6179,
  "ao si ka ": 6180,
  "gong he dang ": 6181,
  "jiang su sheng ": 6182,
  "88": 6183,
  "shu de zhi wu ": 6184,
  "qian ze ": 6185,
  "zhuan de xiao xing xing ": 6186,
  "zhi zhu ": 6187,
  "zhi pian ": 6188,
  "bu ju ": 6189,
  "shou ge qu ": 6190,
  "bian ma ": 6191,
  "ju min dian ": 6192,
  "AO": 6193,
  "az": 6194,
  "de la ": 6195,
  "yi xi lie ": 6196,
  "huo pao ": 6197,
  "ti shi ": 6198,
  "zu qiu lian sai ": 6199,
  "ren ke ": 6200,
  "he qi ": 6201,
  "he jie ": 6202,
  "dong nan ya ": 6203,
  "61 ": 6204,
  " k": 6205,
  "wei tuo ": 6206,
  "zai bei jing ": 6207,
  "lu yi ": 6208,
  "lu ying dai ": 6209,
  "W ": 6210,
  "   jing ": 6211,
  "wu zhong de ": 6212,
  "shou sun ": 6213,
  "chang shang ": 6214,
  "de dao le ": 6215,
  "zai ta ": 6216,
  "jin zhang ": 6217,
  "shang wei you ": 6218,
  "ye bu ": 6219,
  "yin jing ": 6220,
  "huan jie ": 6221,
  " jiang qi ": 6222,
  "tu an ": 6223,
  " quan zhang ": 6224,
  "bian hao wei ": 6225,
  "jiao fu ": 6226,
  "dun de ": 6227,
  " wu fa ": 6228,
  " ge qu ": 6229,
  "ye fu ": 6230,
  "duo xiang ": 6231,
  "dao fu ": 6232,
  "ort": 6233,
  "kang xi ": 6234,
  "re dai qi xuan ": 6235,
  "zhi jiao ": 6236,
  "gong shang ": 6237,
  "jin cheng ": 6238,
  "gu wu ": 6239,
  "mo qi ": 6240,
  " S ": 6241,
  "ping jun hai ba gao du wei ": 6242,
  "ren gong yin ": 6243,
  " qi xi zai ": 6244,
  " le ": 6245,
  "gong da ": 6246,
  "jiao zuo ": 6247,
  "dui yuan ": 6248,
  "ha la ": 6249,
  "zhong zai pei ": 6250,
  "xing zou ": 6251,
  "dao qian ": 6252,
  "gao di ": 6253,
  "7 ge ": 6254,
  " ta men zai ": 6255,
  "ken ding ": 6256,
  "shuo shi xue wei ": 6257,
  "bu lei ": 6258,
  "xi yuan ": 6259,
  "jie guan ": 6260,
  "zi li ": 6261,
  "dan yi ": 6262,
  "yun he ": 6263,
  "bai wan ": 6264,
  "8 mi ": 6265,
  "cheng li le ": 6266,
  "shun xu ": 6267,
  " 1988 nian ": 6268,
  " hua xue ": 6269,
  " er gai di de ping jun hai ba gao du wei ": 6270,
  "zen ": 6271,
  "   m": 6272,
  "   12": 6273,
  "hun luan ": 6274,
  " dong jing ": 6275,
  "   1 ": 6276,
  "ji bei ": 6277,
  "bu qiang ": 6278,
  " di si ": 6279,
  "2010 nian mei guo ren kou pu cha de shu ju ": 6280,
  " qiu dui ": 6281,
  "   ying ": 6282,
  "sheng cun ": 6283,
  "dian liu ": 6284,
  "quan ti ": 6285,
  "yao gun ": 6286,
  "72 ": 6287,
  "de li shi ": 6288,
  "   la ": 6289,
  "tui chu de ": 6290,
  "ka luo lai ": 6291,
  "luo fa ke ": 6292,
  "ren gong yin zhong zai pei ": 6293,
  "shi zong ": 6294,
  "du guo ": 6295,
  "xia ban ": 6296,
  "nv yan yuan ": 6297,
  "   fei ": 6298,
  "duo ming ": 6299,
  "geng duo de ": 6300,
  " lie che ": 6301,
  "xia shu ": 6302,
  "chuan de ": 6303,
  "geng huan ": 6304,
  " nei rong ": 6305,
  "yi zu ": 6306,
  "wei zai ": 6307,
  "yu suan ": 6308,
  "fu qi ": 6309,
  "bing yu ": 6310,
  "xi zhou ": 6311,
  "jian zai ": 6312,
  "xian qian ": 6313,
  "ye su ": 6314,
  "yin shua ": 6315,
  "dang ri ": 6316,
  " he nan ": 6317,
  "yan jiu sheng ": 6318,
  " chu ren ": 6319,
  " 1989 nian ": 6320,
  "li sha ": 6321,
  " wu lun ": 6322,
  "xia shi ": 6323,
  "po lun ": 6324,
  "40 nian ": 6325,
  "zhi bang ": 6326,
  "jiao tu ": 6327,
  "pian duan ": 6328,
  " gong tong ": 6329,
  " 000 ren ": 6330,
  "xia xia yi xia di qu ": 6331,
  "shou hui ": 6332,
  "dian he ": 6333,
  " yi zhong ": 6334,
  "shen wang ": 6335,
  "ceng de ": 6336,
  "she ji shi ": 6337,
  "ci ci ": 6338,
  "yin jin ": 6339,
  "jing ji xue ": 6340,
  "IT": 6341,
  "xin shi ": 6342,
  "liang hao ": 6343,
  "ba si ": 6344,
  "kao cha ": 6345,
  "56 ": 6346,
  "wen dai ": 6347,
  "sui zhi ": 6348,
  " ji ben ": 6349,
  "00 ming ": 6350,
  "98": 6351,
  "er bu ": 6352,
  "bei ge ": 6353,
  "jin tian ": 6354,
  "xue tang ": 6355,
  "fen qi ": 6356,
  "san wei ": 6357,
  "ook": 6358,
  "si yuan ": 6359,
  "jie ru ": 6360,
  "shou hai ": 6361,
  "dong gong ": 6362,
  "zhou zhi ": 6363,
  "ba yue ": 6364,
  " dang shi de ": 6365,
  " 1983 nian ": 6366,
  "huo che zhan ": 6367,
  "mu fu ": 6368,
  "san ren ": 6369,
  "na he ": 6370,
  "wu pin ": 6371,
  "ti jiao ": 6372,
  "liu qiu ": 6373,
  "che di ": 6374,
  "zhao gu ": 6375,
  "lang de ": 6376,
  " sheng zhang yu ": 6377,
  "di yi ci shi jie da zhan ": 6378,
  "tor": 6379,
  "bei yi ": 6380,
  "duo ren ": 6381,
  "gen ben ": 6382,
  "shi jian yu ": 6383,
  " bo lan ": 6384,
  "de dao lu ": 6385,
  " ー": 6386,
  "eam": 6387,
  "   2": 6388,
  "te lan ": 6389,
  "bo duo ": 6390,
  "ka fei ": 6391,
  " zhong guo da lu ": 6392,
  " a la ": 6393,
  "3 nian 1 yue ": 6394,
  "dian wei ": 6396,
  "mian shang ": 6397,
  "han gai ": 6398,
  "diao su ": 6399,
  "ly": 6400,
  "zai xin ": 6401,
  "hui xiang ": 6402,
  "jin dai ": 6403,
  "pu li ": 6404,
  "nan ji zhou de ": 6405,
  "xi bo ": 6406,
  "wai wei ": 6407,
  " B ": 6408,
  " wei yu gai sheng ": 6409,
  "ing": 6410,
  "jin sheng ": 6411,
  "jiao xiang ": 6412,
  "wang shang ": 6413,
  "na ge ": 6414,
  " xi la ": 6415,
  "fu luo li da ": 6416,
  "ji fen ": 6417,
  "he nan sheng ": 6418,
  " da duo shu ": 6419,
  "lai zi yu ": 6420,
  "ai de hua ": 6421,
  "ji ti ": 6422,
  "gai jin ": 6423,
  " fan dui ": 6424,
  " 1984 nian ": 6425,
  "  N": 6426,
  "zai hai ": 6427,
  "hui da ": 6428,
  " shi tai wan ": 6429,
  "ping wei ": 6430,
  "mei guo de ": 6431,
  "7 mi ": 6432,
  " 4 yue ": 6433,
  "chuang zuo de ": 6434,
  "jin hua ": 6435,
  " ke luo ": 6436,
  "chu xian de ": 6437,
  "nei zheng ": 6438,
  "lin sheng ": 6439,
  " gai bian ": 6440,
  "ast": 6441,
  "chu nian ": 6442,
  "jing wai ": 6443,
  "pi pan ": 6444,
  " hang ": 6445,
  "he chang ": 6446,
  "gong yue ": 6447,
  "jian guo ": 6448,
  "jiang nan ": 6449,
  "xuan min ": 6450,
  " qi shi ": 6451,
  " bu tong ": 6452,
  "zhan zheng zhong ": 6453,
  "66": 6454,
  "yu you ": 6455,
  "he da ": 6456,
  "gong zhi ": 6457,
  "jia ban ": 6458,
  "hou dai ": 6459,
  "long sheng ": 6460,
  "   gao ": 6461,
  " shi xi ban ya ": 6462,
  "bi er ": 6463,
  " ao da li ya ": 6464,
  "ke si tan ": 6465,
  "zhan dou ji ": 6466,
  "ta ji ": 6467,
  "liang an ": 6468,
  "zhou li ": 6469,
  " kuang ": 6470,
  "gong dian ": 6471,
  "xiang wei ": 6472,
  "huo qu ": 6473,
  "dui chen ": 6474,
  "qian long ": 6475,
  "luo bo te ": 6476,
  "bai ke ": 6477,
  "tui fan ": 6478,
  " jia jing ": 6479,
  " en ": 6480,
  "yi qie ": 6481,
  "bei wei ": 6482,
  "yin ying ": 6483,
  " you ci ": 6484,
  "qi zhong yi ge ": 6485,
  "zhu long cao ": 6486,
  "san da ": 6487,
  " jian li ": 6488,
  " fa biao ": 6489,
  " biao zhun ": 6490,
  "jiao gao ": 6491,
  " ta he ": 6492,
  "ceng shi ": 6493,
  " cong ci ": 6494,
  "yu 2010 nian ": 6495,
  "8 nian 1 yue ": 6496,
  "ne": 6497,
  "cheng shu ": 6498,
  "qian lai ": 6499,
  "lai si ": 6500,
  "jiu yi ": 6501,
  "bai nian ": 6502,
  " fu lang ": 6503,
  " hu nan ": 6504,
  "6 nian 1 yue ": 6505,
  "77": 6506,
  "   tang ": 6508,
  "ti qian ": 6509,
  "yue qi ": 6510,
  "dang ji ": 6511,
  "ba fa li ya ": 6512,
  "man de ": 6513,
  "inc": 6514,
  "shi yan shi ": 6515,
  "→": 6516,
  "1 nian 1 yue ": 6517,
  "tong bao ": 6518,
  "xiu ding ": 6519,
  "tuo luo ": 6520,
  "de ji shu ": 6521,
  " shi yi da li ": 6522,
  " 1980 nian ": 6523,
  "yi shang de ": 6524,
  "you zhi ": 6525,
  "zhe xiang ": 6526,
  "shen mi ": 6527,
  " zai ta ": 6528,
  "3 ming ": 6529,
  "mi de di qu ": 6530,
  "jia li fu ni ya zhou ": 6531,
  "er fei ": 6532,
  "jiu you ": 6533,
  "fa xian de ": 6534,
  " sheng zhang yu hai ba ": 6535,
  "oli": 6536,
  "shou ling ": 6537,
  "pin zhong ": 6538,
  "bang de ": 6539,
  "21 nian ": 6540,
  "xing shi de ": 6541,
  "jing yuan ": 6542,
  "shang jie ": 6543,
  "zhan sheng ": 6544,
  "ping ding ": 6545,
  "chi cun ": 6546,
  "hei long jiang ": 6547,
  " tiao ": 6548,
  "ji xiang ": 6549,
  "si di ": 6550,
  "zhen duan ": 6551,
  "mo si ": 6552,
  "man di guo ": 6553,
  "mu ni hei ": 6554,
  "ith": 6555,
  "er deng ": 6556,
  "ke kao ": 6557,
  "qu de le ": 6558,
  " yu ci tong shi ": 6559,
  "shi yue ": 6560,
  " shi tu ": 6561,
  "bo la ": 6562,
  "wu ke ": 6563,
  "jun yu ": 6564,
  "han lin ": 6565,
  " jie shou ": 6566,
  " suo xie ": 6567,
  "ai guo ": 6568,
  "he ge ": 6569,
  "bei da ": 6570,
  "gai zhuang ": 6571,
  "zu lian ": 6572,
  "luo zai ": 6573,
  "duo fu ": 6574,
  "ba de ": 6575,
  "lan ka ": 6576,
  "kong long ": 6577,
  "   zong ": 6578,
  "he fei ": 6579,
  "guan shi ": 6580,
  "ben zhan ": 6581,
  "ba ta ": 6582,
  "qie er ": 6583,
  "kan fa ": 6584,
  "xing zheng zhen qu ": 6585,
  " 2025 nian ": 6586,
  "km ": 6587,
  "gong zhan ": 6588,
  "jing qu ": 6589,
  "guang pu ": 6590,
  "fu jian sheng ": 6591,
  "2 yue 1 ri ": 6592,
  "cheng yi ": 6593,
  "cheng zhi ": 6594,
  "xi xi ": 6595,
  "bei mian ": 6596,
  "du te ": 6597,
  "wang wei ": 6598,
  " ji hou ": 6599,
  "00 duo ": 6600,
  "bei gao ": 6601,
  "zhan fang ": 6602,
  "bao fu ": 6603,
  "quan ji ": 6604,
  "xuan zhuan ": 6605,
  " gai wei ": 6606,
  "li shi xue jia ": 6607,
  " ban ben ": 6608,
  "   pu ": 6609,
  "   16": 6610,
  "he dong ": 6611,
  "jiao dao ": 6612,
  "kai ban ": 6613,
  "zui jin ": 6614,
  "san zhong ": 6615,
  "na er ": 6616,
  " zhi yao ": 6617,
  "huang shi ": 6618,
  "rong liang ": 6619,
  "   lu ": 6620,
  "   bai ": 6621,
  "sheng xiao ": 6622,
  "zi gong si ": 6623,
  "jiang you ": 6624,
  "shen yi ": 6625,
  "mi lan ": 6626,
  " guang xu ": 6627,
  "yi shu jia ": 6628,
  "he xian ": 6629,
  "he ren kou ": 6630,
  "cheng qiang ": 6631,
  "sheng ge wei ": 6632,
  "jie du shi ": 6633,
  "ri hou ": 6634,
  "ti wei ": 6635,
  "san yue ": 6636,
  "tan ding ": 6637,
  "xi ce ": 6638,
  "hui ji ": 6639,
  "zheng wu ": 6640,
  "guan lian ": 6641,
  "jiang zhe ": 6642,
  "‧": 6643,
  " zheng ge ": 6644,
  " 1986 nian ": 6645,
  "ti yu guan ": 6646,
  "st   ": 6647,
  "li er ": 6648,
  "xi jun ": 6649,
  "ri yi ": 6650,
  "fang zhen ": 6651,
  "shi yong zhe ": 6652,
  " ju qing ": 6653,
  " di er ci ": 6654,
  "5 nian 1 yue ": 6655,
  "xian le ": 6656,
  "xiao she ": 6657,
  "ha li ": 6658,
  " Al": 6659,
  "   w": 6660,
  "   jiu ": 6661,
  "fu lang ": 6662,
  "bei shang ": 6663,
  "yin mou ": 6664,
  " wei ci ": 6665,
  "feng de ": 6666,
  "si chuan sheng ": 6667,
  "bi": 6668,
  "zai ying guo ": 6669,
  "ge xiang ": 6670,
  "qu mu ": 6671,
  "ju zhen ": 6672,
  "gao ceng ": 6673,
  "san ci ": 6674,
  " dan ye ": 6675,
  " bi ye yu ": 6676,
  " ya li ": 6677,
  "xian de yi ge xing zheng zhen qu ": 6678,
  "   and   ": 6679,
  ".&": 6680,
  "   ye ": 6681,
  "   zhi zuo ": 6682,
  "ji bie ": 6683,
  "zai nei ": 6684,
  "xing cheng de ": 6685,
  "yin di ": 6686,
  "zhen rong ": 6687,
  "san ming ": 6688,
  " ying de ": 6689,
  "wei yuan hui zhu xi ": 6690,
  "fou ren ": 6691,
  "89": 6692,
  "chu sai ": 6693,
  "jiao ke ": 6694,
  "chang chang ": 6695,
  "dui you ": 6696,
  "ru qiu ": 6697,
  "yan jiu zhong xin ": 6698,
  "di qi ya ": 6699,
  "ay   ": 6700,
  "zai zhe ": 6701,
  "hua fen ": 6702,
  "zu ren ": 6703,
  "ant": 6704,
  " re": 6705,
  "a ji ": 6706,
  "fu fu ": 6707,
  "fu zhu ren ": 6708,
  "hua ji ": 6709,
  "zhan you ": 6710,
  "wang yuan jing ": 6711,
  "lie si ": 6712,
  " jian yu ": 6713,
  "9 mi ": 6714,
  "jiao yu bu ": 6715,
  "zan shi ": 6716,
  "dang xuan wei ": 6717,
  "dao ji ": 6718,
  "ban ji ": 6719,
  "wai jie ": 6720,
  "ceng ren ": 6721,
  "hang xing ": 6722,
  "shi yi wei ": 6723,
  " lei ji ": 6724,
  " kuai ": 6725,
  " luo si ": 6726,
  "xiang liang ": 6727,
  "fei dan ": 6728,
  "de yi ci ": 6729,
  "gong zuo ren yuan ": 6730,
  "str": 6731,
  " pang ": 6732,
  "qi guan ": 6733,
  "bei ren ming wei ": 6734,
  "luo te ": 6735,
  "shi jian wei ": 6736,
  "   2004 nian ": 6737,
  " chong xin ": 6738,
  "zhang wo ": 6739,
  "ben ke ": 6740,
  " you ren ": 6741,
  "ze er sheng ": 6742,
  "meng jun ": 6743,
  "zhu chi ren ": 6744,
  " shi ji de ": 6745,
  "wen ge ": 6746,
  "ting yun ": 6747,
  " ke li si ": 6748,
  "ku er ": 6749,
  "dian shi dong hua ": 6750,
  "Al": 6751,
  "   mo ": 6752,
  "yu   ": 6753,
  "bei ce ": 6754,
  "zhan ju ": 6755,
  "qian xian ": 6756,
  "bian zu ": 6757,
  "huan xiang ": 6758,
  "sa la ": 6759,
  "ren da dai biao ": 6760,
  "e wai ": 6761,
  "de jun ": 6762,
  "   zuo wei ": 6763,
  "bu yao ": 6764,
  "wen ben ": 6765,
  "chuan xian ": 6766,
  "hang xian ": 6767,
  "yu jia ": 6768,
  "zhu fang ": 6769,
  "tong bu ": 6770,
  "jiang pai ": 6771,
  "she ru ": 6772,
  "shen ke ": 6773,
  " zui da ": 6774,
  " chu ban ": 6775,
  " tai bei ": 6776,
  " mu qian shang wei you ": 6777,
  "HD": 6778,
  "yi gong ": 6779,
  "zhong jie ": 6780,
  "mei shi ": 6781,
  "liang tiao ": 6782,
  "bo yin ": 6783,
  "che dao ": 6784,
  "zhuan qu ": 6785,
  "de di yi ge ": 6786,
  "22 nian ": 6787,
  "e hai e ": 6788,
  "zai sheng ": 6789,
  "wu li xue ": 6790,
  "du jia ": 6791,
  "liang zhe ": 6792,
  "dai ti ": 6793,
  "bi lu ": 6794,
  "ma shi ": 6795,
  "zong jing li ": 6796,
  " zhong guo gong chan dang ": 6797,
  " 1958 nian ": 6798,
  "   sai ": 6799,
  "   dui yu ": 6800,
  "yu jing ": 6801,
  "zai ke ": 6802,
  "jie wei zhi ": 6803,
  "yan wu ": 6804,
  "ting zhang ": 6805,
  "   wei le ": 6806,
  "DV": 6807,
  "II ": 6808,
  "zai xiang ": 6809,
  "zai tai wan ": 6810,
  "su zhou ": 6811,
  " mu qian shang wei you ren gong yin zhong zai pei ": 6812,
  "jie lun ": 6813,
  "qu zi ": 6814,
  "jiong ": 6815,
  "dang zuo ": 6816,
  "shan di ": 6817,
  " 3 yue ": 6818,
  "oog": 6819,
  " r": 6820,
  "a li ": 6821,
  "   lin ": 6822,
  "yu li ": 6823,
  "fu chu ": 6824,
  "zi dan ": 6825,
  "shou huan ying ": 6826,
  "han mo de ": 6827,
  "gei ta ": 6828,
  " 1982 nian ": 6829,
  " JR": 6830,
  "zhu da ": 6831,
  "chang yi ": 6832,
  "yue du ": 6833,
  "xu gou ": 6834,
  "mian xiang ": 6835,
  " wei qi ": 6836,
  "feng suo ": 6837,
  "shui shen ": 6838,
  " tong ri ": 6839,
  "ke yi tong guo ": 6840,
  "yu 2016 nian ": 6841,
  "Windows   ": 6842,
  "MA": 6843,
  "he se ": 6844,
  "shu shu ": 6845,
  "cun min ": 6846,
  " he bei ": 6847,
  " zhong guo ren min jie fang jun ": 6848,
  "de dian ": 6849,
  "   jian zhu ": 6850,
  "zhong dui ": 6851,
  "jiao shao ": 6852,
  "sai bai ": 6853,
  "bing chuan ": 6854,
  "an xian ": 6855,
  "   ling ": 6856,
  "he shang ": 6857,
  "biao ji ": 6858,
  "de yi xiang ": 6859,
  "hui yi shang ": 6860,
  "000": 6861,
  "67 ": 6862,
  " chou ": 6863,
  "yu lin ": 6864,
  "xi fa ": 6865,
  "ke te ": 6866,
  "28 nian ": 6867,
  "shan ding ": 6868,
  "tian xia ": 6869,
  "shui liang ": 6870,
  " ha er ": 6871,
  "ju liu ": 6872,
  "fei de ": 6873,
  "lun si ": 6874,
  "4 mi ": 6875,
  "lao gong ": 6876,
  "zhi hui guan ": 6877,
  "35 nian ": 6878,
  "4 nian 1 yue ": 6879,
  "shi nei ": 6880,
  "guo wu ": 6881,
  "shang jiang ": 6882,
  "mu yu ": 6883,
  " de dao ": 6884,
  " gai di de ": 6885,
  "man zhou ": 6886,
  "ying xiang li ": 6887,
  " ya zhou ": 6888,
  "ne sheng ": 6889,
  "sa si zhou ": 6890,
  "ok": 6891,
  "sheng you ": 6892,
  "jiao zhi ": 6893,
  "mu jian ": 6894,
  " zai mei guo ": 6895,
  "fa sheng de ": 6896,
  "wei yi de ": 6897,
  "odice ": 6898,
  "   huang ": 6899,
  "si tuo ": 6900,
  "jing ling ": 6901,
  "jun ji ": 6902,
  "feng shi ": 6903,
  "zao qi de ": 6904,
  "meng jia la ": 6905,
  "ine ": 6906,
  "li fang mi ": 6907,
  "   ge ren sheng huo ": 6908,
  "he lu ": 6909,
  "zai 195": 6910,
  "di shi ni ": 6911,
  "℃": 6913,
  "ren dou ": 6914,
  "neng zai ": 6915,
  "de yi jian ": 6916,
  " tong yi ": 6917,
  " zhu chi ": 6918,
  " dian zi ": 6919,
  " ti chu ": 6920,
  "lei si yu ": 6921,
  "yu shang ": 6922,
  "li xin ": 6923,
  "ren cai ": 6924,
  "ci shan ": 6925,
  "qian shen ": 6926,
  "suo shi ": 6927,
  "mao ze dong ": 6928,
  " zi ran ": 6929,
  "laySt": 6930,
  "ers ": 6931,
  "ge chang ": 6932,
  "ri ji ": 6933,
  "tai er ": 6934,
  "bei bu de ": 6935,
  " 1987 nian ": 6936,
  "fen ji ": 6937,
  "jiang zui jia ": 6938,
  "lai shi ": 6939,
  "zui duo de ": 6940,
  "tan he ": 6941,
  "wei ta ": 6942,
  "wu er ": 6943,
  "zheng fa ": 6944,
  "luo shi ": 6945,
  " shi yi zuo ": 6946,
  "zheng xie wei yuan ": 6947,
  "Sp": 6948,
  "zhong yuan ": 6949,
  "ying er ": 6950,
  "wang fan ": 6951,
  "jiu yue ": 6952,
  "bai de ": 6953,
  " zhe ye shi ": 6954,
  "2 nian 1 yue ": 6955,
  "shi zhong guo ": 6956,
  "zai xian ": 6957,
  "da si ": 6958,
  "jie li ": 6959,
  "te luo ": 6960,
  "feng su ": 6961,
  "4 ming ": 6962,
  " xin jia po ": 6963,
  " yun nan ": 6964,
  "zhu di ": 6965,
  "fen xiang ": 6966,
  "min dang ": 6967,
  "gui lei ": 6968,
  " ji shu ": 6969,
  "tou shou ": 6970,
  "ri ben de ": 6971,
  "24 nian ": 6972,
  "43": 6973,
  "J ": 6974,
  " hui yi ": 6975,
  "yu qian ": 6976,
  "zhong xun ": 6977,
  "zhan qu ": 6978,
  "jiu bei ": 6979,
  "ping guo ": 6980,
  "gao shi ": 6981,
  "na si ": 6982,
  "zhuan bian ": 6983,
  "kong gu ": 6984,
  "tiao wen ": 6985,
  "gong gong jiao tong ": 6986,
  "ter ": 6987,
  " ken ": 6988,
  " ta jiang ": 6989,
  "pan duan ": 6990,
  "de ji ben ": 6991,
  "5   ": 6992,
  "id   ": 6993,
  "ud": 6994,
  " fa zhan ": 6995,
  " guan li ": 6996,
  "de fa zhan ": 6997,
  "ge sheng ": 6998,
  " shi zai ": 6999,
  "mian qian ": 7000,
  "zong zhi ": 7001,
  "qu shi hou ": 7002,
  "en   ": 7003,
  "you hao ": 7004,
  "suo yi ": 7005,
  "xu ni ": 7006,
  "87": 7007,
  "ji xing zheng ": 7008,
  "wei xiu ": 7009,
  "jia si ": 7010,
  "chu jing ": 7011,
  "le ji ": 7012,
  "hua he ": 7013,
  "hai zai ": 7014,
  "qing xi ": 7015,
  "chuan guo ": 7016,
  "wo er ": 7017,
  "mian ji he ren kou ": 7018,
  " ying xiang ": 7019,
  " qi zhong nan ": 7020,
  "DS": 7021,
  "TA": 7022,
  "shi jin ": 7023,
  "   bo ": 7024,
  "yu da ": 7025,
  "zhong shen ": 7026,
  "le qi ": 7027,
  "yin zi ": 7028,
  "hu nan sheng ": 7029,
  "su she ": 7030,
  "sha tian ": 7031,
  " ying li ": 7032,
  " dao yan ": 7033,
  "amp": 7034,
  "ha er bin ": 7035,
  " kai fa ": 7036,
  "shi jing ": 7037,
  "xiang cun ": 7038,
  "zheng wei ": 7039,
  "le si ": 7040,
  "shen yang ": 7041,
  " gai zhuang ": 7042,
  " jing fang ": 7043,
  "4 yue 1 ri ": 7044,
  "eli": 7045,
  "ve   ": 7046,
  "   gu shi ": 7047,
  "fu te ": 7048,
  "shou ming ": 7049,
  "ci hui ": 7050,
  "tai lang ": 7051,
  " shi yi ge wei yu mei guo ": 7052,
  "68 ": 7053,
  "ci wei ": 7054,
  " shi wu ": 7055,
  "qiu mi ": 7056,
  "san jia ": 7057,
  " di yi ci ": 7058,
  " 1946 nian ": 7059,
  "he liu yu ": 7060,
  " jun shi ": 7061,
  " kui ": 7062,
  "   jian li ": 7063,
  "yu xian ": 7064,
  "bei han ": 7065,
  "jin kou ": 7066,
  "ti cao ": 7067,
  "ru wei ": 7068,
  " bao dao ": 7069,
  "dian ying jie ": 7070,
  "cheng zhi wei ": 7071,
  "yuan xiao ": 7072,
  "yin er ": 7073,
  "suo xie ": 7074,
  "zong ju ": 7075,
  "mo fa ": 7076,
  " gong zuo ": 7077,
  " gai di de mian ji he ren kou ": 7078,
  " gai di de mian ji he ren kou jie wei zhi ": 7079,
  "66 ": 7080,
  "ool": 7081,
  "you xu duo ": 7082,
  "shu xie ": 7083,
  "hua mian ": 7084,
  "ding yu ": 7085,
  "dan sheng ": 7086,
  " 1920 nian ": 7087,
  "po er ": 7088,
  "   shang ": 7089,
  "   fa guo ": 7090,
  "   the   ": 7091,
  "he zhi ": 7092,
  "si yue ": 7093,
  "fen shu ": 7094,
  "yin dao ": 7095,
  "zhang wei ": 7096,
  "shen fu ": 7097,
  "ke neng xing ": 7098,
  "tong zhi zhe ": 7099,
  "las": 7100,
  "   2019": 7101,
  "zhong liang ": 7102,
  "dong qu ": 7103,
  "xin feng ": 7104,
  "deng dai ": 7105,
  "li shi hui ": 7106,
  " ye ke yi ": 7107,
  "di yi bai ": 7108,
  "an cha ": 7109,
  "   wen hua ": 7110,
  "hua ru ": 7111,
  "fen cheng ": 7112,
  "hai di ": 7113,
  "qing gan ": 7114,
  "liu xue ": 7115,
  "liu dong ": 7116,
  " yu ji ": 7117,
  "5 wan ": 7118,
  "gong li de ": 7119,
  "wei yu zhong guo ": 7120,
  "xi zhi ": 7122,
  "chuang shi ren ": 7123,
  "ont": 7124,
  "ying de le ": 7125,
  "qi ya ": 7126,
  "lian jun ": 7127,
  "ben shu ": 7128,
  "4 nian 12 yue ": 7129,
  "yi jie ": 7130,
  "qian zai ": 7131,
  "juan zeng ": 7132,
  "mo fang ": 7133,
  " gai pian ": 7134,
  "1000 ": 7135,
  " ma li ": 7136,
  "shi qing ": 7137,
  "   ri ": 7138,
  "   2 ": 7139,
  "da tong ": 7140,
  "ge la si ": 7141,
  "bei song ": 7142,
  "zuo le ": 7143,
  "yong shi ": 7144,
  "jiu ren ": 7145,
  "la duo ": 7146,
  "liu de ": 7147,
  " you guan ": 7148,
  " ying cun ": 7149,
  "kuang jia ": 7150,
  " ben pian ": 7151,
  "shun shi zhen ": 7152,
  "roun": 7153,
  " 157": 7154,
  "yi dui ": 7155,
  "   cheng ": 7156,
  "si jia ": 7157,
  " yi ri ": 7158,
  "nuo si ": 7159,
  " 1978 nian ": 7160,
  "PS": 7161,
  " kun ": 7162,
  "yi fen ": 7163,
  "you zhe ": 7164,
  "bei fa xian ": 7165,
  "gai jian ": 7166,
  "nan ce ": 7167,
  " dan reng ": 7168,
  "hei ren ": 7169,
  "1 zhi ": 7170,
  "54": 7171,
  " teng ": 7172,
  "qi su ": 7173,
  "tai shou ": 7174,
  "tou de ": 7175,
  "ran shao ": 7176,
  " ren lei ": 7177,
  "yun dong de ": 7178,
  "zhu yao shi ": 7179,
  "ye he ": 7180,
  " yi se lie ": 7181,
  " gong cheng ": 7182,
  "jian zhu shi ": 7183,
  "88 ": 7184,
  "lu jing ": 7185,
  "du zi ": 7186,
  "ding ji ": 7187,
  "zong zhan ": 7188,
  "chong fu ": 7189,
  "   che zhan jie gou ": 7190,
  " fou ze ": 7191,
  "ani": 7192,
  " shi di ": 7193,
  "ti qin ": 7194,
  "lin si ": 7195,
  "qiang ji ": 7196,
  "orl": 7197,
  "57 ": 7198,
  "shi bu ": 7199,
  "yu ta ": 7200,
  "guo you ": 7201,
  "da zhou ": 7202,
  "yuan shuai ": 7203,
  "jing fei ": 7204,
  " 184": 7205,
  "zhui qiu ": 7206,
  "sic": 7207,
  "guo qi ": 7208,
  "xi ni ": 7209,
  "lu mu ": 7210,
  "wan qi ": 7211,
  "bian xie ": 7212,
  "cha er si ": 7213,
  "qiang hua ": 7214,
  "kai fa de ": 7215,
  "liu ge ": 7216,
  "da xue jiao shou ": 7217,
  "4 nian 10 yue ": 7218,
  "os ": 7219,
  "zai jia ": 7220,
  "fu zhuang ": 7221,
  "jin hui ": 7222,
  "zhe he ": 7223,
  "jiang li ": 7224,
  " zi ci ": 7225,
  "cun zai de ": 7226,
  "   mu ": 7228,
  "ta he ": 7229,
  "bian geng ": 7230,
  "hang zhan ": 7231,
  " gong bu ": 7232,
  "   2003 nian ": 7233,
  "0 nian dai chu ": 7234,
  "   tong ": 7235,
  "   shen ": 7236,
  "jie du ": 7237,
  "ming xian de ": 7238,
  "xue tong ": 7239,
  "lie shi ": 7240,
  "tui xing ": 7241,
  "ji jian ": 7242,
  "cheng che ": 7243,
  "jiao di ": 7244,
  " 100 ": 7245,
  "chen mo ": 7246,
  "sou suo ": 7247,
  "da liang de ": 7248,
  " 200 ": 7249,
  "wu xian dian ": 7250,
  "37 nian ": 7251,
  "US": 7252,
  "er ge ": 7253,
  "zheng qi ": 7254,
  "ru yu ": 7255,
  "ban quan ": 7256,
  "chuan yue ": 7257,
  " yang hua ": 7258,
  "OM": 7259,
  "shang jia ": 7260,
  "zuo wu ": 7261,
  "ti an ": 7262,
  "ba le si tan ": 7263,
  " fei li ": 7264,
  " bang zhu ": 7265,
  " lv": 7266,
  " hen duo ": 7267,
  "shi gong ": 7268,
  "chuan di ": 7269,
  "zhuan zhi ": 7270,
  "78 ": 7271,
  " za ": 7272,
  "   can kao ": 7273,
  "you wu ": 7274,
  "fen ge ": 7275,
  "lun duo ": 7276,
  "gan qing ": 7277,
  "om ": 7278,
  "ke li mi ya ": 7279,
  "lan": 7280,
  "zhu sai ": 7281,
  "hu wei ": 7282,
  "de guo cheng ": 7283,
  "wen ti de ": 7284,
  " an hui ": 7285,
  "   11": 7286,
  "   yan ge ": 7287,
  "li xing ": 7288,
  "bu you ": 7289,
  "la ma ": 7290,
  "nei ya ": 7291,
  "mei you ren he ": 7292,
  " ka er ": 7293,
  "   lei ": 7294,
  "jia wei ": 7295,
  "xin qu ": 7296,
  "ying chao ": 7297,
  "na yang ": 7298,
  " shi wei yu wu ke lan ": 7299,
  "Sh": 7300,
  "ne   ": 7301,
  " se ": 7302,
  "   bi ": 7303,
  "chu jue ": 7304,
  "guo jia an quan ": 7305,
  "wen hua yi chan ": 7306,
  " zhan di ": 7307,
  "gong chan zhu yi ": 7308,
  "23 nian ": 7309,
  "ge   ": 7310,
  "zuo tang ": 7311,
  "ting zhan ": 7312,
  "xun luo ": 7313,
  "1999 nian ": 7314,
  "   gen ju 2010 nian mei guo ren kou pu cha de shu ju ": 7315,
  "2 shi ": 7316,
  "er jia ": 7317,
  "xi xian ": 7318,
  "zhu cheng ": 7319,
  "jin xiang ": 7320,
  "zong si ling ": 7321,
  "yu 2015 nian ": 7322,
  "zui zao de ": 7323,
  "e hua ": 7324,
  "   xing ": 7325,
  "yu yin ": 7326,
  "zhan che ": 7327,
  "mian yi ": 7328,
  "shui de ": 7329,
  "   2000 nian ": 7330,
  "Ar": 7331,
  " wan cheng ": 7332,
  "zai you ": 7333,
  "xiao mie ": 7334,
  "zu xian ": 7335,
  "1 jia ": 7336,
  " bu neng ": 7337,
  "tui chu le ": 7338,
  " 1948 nian ": 7339,
  "de he liu ": 7340,
  "tong xing lian ": 7341,
  "38 nian ": 7342,
  "ai li ": 7343,
  "yu ce ": 7344,
  "he shu ": 7345,
  "xing bu ": 7346,
  "shang chuan ": 7347,
  "chang an ": 7348,
  "she li de ": 7349,
  "wan qu ": 7350,
  "lan zhou ": 7351,
  "xiu dao yuan ": 7352,
  " guo wu yuan ": 7353,
  " nu ": 7354,
  "de de ": 7355,
  "hou guo ": 7356,
  "ci dian ": 7357,
  " shi ta ": 7358,
  "bing bei ": 7359,
  "dong jing du ": 7360,
  "ju zhu zai ": 7361,
  "   0": 7362,
  "   shou ": 7363,
  "wei bo ": 7364,
  "jian jin ": 7365,
  "ke qian wang ": 7366,
  "xiang nan ": 7367,
  "jiao xiao ": 7368,
  "ye lu ": 7369,
  "ba sai ": 7370,
  "pu lei ": 7371,
  "yu 2012 nian ": 7372,
  "   yong ": 7373,
  "gong feng ": 7374,
  "jian hua ": 7375,
  "jian qiao ": 7376,
  "ling yu de ": 7377,
  "bi ci ": 7378,
  "bing bu shi ": 7379,
  "xuan zhong ": 7380,
  " he dao ": 7381,
  "OR": 7382,
  "   tai ": 7383,
  "qu zhu jian ": 7384,
  "ri de ": 7385,
  "xuan yan ": 7386,
  " dan zhe ": 7387,
  "zhuan cheng ": 7388,
  "di yi jie ": 7389,
  " ke xue ": 7390,
  " hai jun ": 7391,
  "de di wei ": 7392,
  " ge lei ": 7393,
  " ba li ": 7394,
  " 1981 nian ": 7395,
  "oy": 7396,
  "ty   ": 7397,
  "yi jiu ": 7398,
  "zhi sheng ": 7399,
  "yu ming ": 7400,
  "yu ri ben ": 7401,
  "fa bu de ": 7402,
  "fang xing ": 7403,
  "yun hui ": 7404,
  "chan wu ": 7405,
  "82 ": 7406,
  "shi xi ": 7407,
  "   ya ": 7408,
  "yu gao ": 7409,
  "jian he ": 7410,
  "yuan chuang ": 7411,
  "lai kan ": 7412,
  "ben pian ": 7413,
  "zhuan ke ": 7414,
  " yan chang ": 7415,
  "179": 7416,
  "xun hui sai ": 7417,
  "EC": 7418,
  "yu zhong guo ": 7419,
  "qi chu ": 7420,
  "bei hai dao ": 7421,
  "ju dian ": 7422,
  "hou wei ": 7423,
  "bao lu ": 7424,
  " dan zui zhong ": 7425,
  "tui ce ": 7426,
  " fen bie wei ": 7427,
  " xi ban ya yu ": 7428,
  "5 nian 10 yue ": 7429,
  "7 nian 1 yue ": 7430,
  " chao guo ": 7431,
  "yi wan ": 7432,
  "   ka ": 7433,
  " ta shuo ": 7434,
  " zhi li ": 7435,
  "chu ban de ": 7436,
  "sheng chan de ": 7437,
  "zhong du ": 7438,
  "bu zuo pin ": 7439,
  "zheng lun ": 7440,
  "yue guo ": 7441,
  "xie ren ": 7442,
  "xu ji ": 7443,
  "tang qu ": 7444,
  "yu 2014 nian ": 7445,
  "3 nian 12 yue ": 7446,
  "63 ": 7447,
  " mou ": 7448,
  "shi cong ": 7449,
  "you si ": 7450,
  "you duo ": 7451,
  "zao xing ": 7452,
  "bai xing ": 7453,
  " zi ji ": 7454,
  "chui zhi ": 7455,
  "bao fa hou ": 7456,
  "76 ": 7457,
  "wu ju ": 7458,
  "wu ding ": 7459,
  "jie dian ": 7460,
  "hou bu ": 7461,
  "xin sheng ": 7462,
  " zai qi ": 7463,
  "wai xing ": 7464,
  " fa lan ": 7465,
  "cai yong le ": 7466,
  " liu yu mian ji ": 7467,
  "85 ": 7468,
  "zai jin ": 7469,
  "nan duan ": 7470,
  "wang ji ": 7471,
  " zhi neng ": 7472,
  " gai gong si ": 7473,
  " hai ba ": 7474,
  " 1979 nian ": 7475,
  "39 nian ": 7476,
  "xiao hua ": 7477,
  "lian dui ": 7478,
  "zhen ren ": 7479,
  "zhen di ": 7480,
  "yang ji ": 7481,
  "bu de bu ": 7482,
  " gen ju 2020 nian mei guo ren kou pu cha de shu ju ": 7483,
  "an hui sheng ": 7484,
  "a mi ": 7485,
  "pao dao ": 7486,
  "   189": 7487,
  "da dian ": 7488,
  "ye er ": 7489,
  "liang jia ": 7490,
  "ba ma ": 7491,
  "wei yuan hui de ": 7492,
  "zhu ti qu ": 7493,
  "yun shi keng ": 7494,
  "2 nian 12 yue ": 7495,
  "de guo jia ": 7496,
  "   zao qi ": 7497,
  "zi nv ": 7498,
  "ti zhong ": 7499,
  "jun bei ": 7500,
  "jiang xue ": 7501,
  "quan wei ": 7502,
  "ni su ": 7503,
  "1 mi ": 7504,
  "184": 7505,
  " 22 ": 7506,
  " tai ping ": 7507,
  "shi dai de ": 7508,
  "zhan jian ": 7509,
  "wai lang ": 7510,
  "tiao mu ": 7511,
  "2 nian 10 yue ": 7512,
  "ru": 7513,
  "ao de ": 7514,
  "di na ": 7515,
  "he gong ": 7516,
  "ci lie che ": 7517,
  " shi cheng ": 7518,
  "kai chu ": 7519,
  " zhi shao ": 7520,
  " xian jin ": 7521,
  "guang bo gong si ": 7522,
  "wit": 7523,
  "shu fa ": 7524,
  "ri yu ": 7525,
  "shou qiang ": 7526,
  "duo guan ": 7527,
  " jin shu ": 7528,
  "shi yi zuo ": 7529,
  " chu ci zhi wai ": 7530,
  "ge he ": 7531,
  "yan zheng ": 7532,
  "yin he ": 7533,
  "fan kang ": 7534,
  "4 hao ": 7535,
  " dang xuan ": 7536,
  " ke shi ": 7537,
  "36 nian ": 7538,
  "9 ge ": 7539,
  "yi tian ": 7540,
  "you bei ": 7541,
  "fu wei ": 7542,
  "wu ti ": 7543,
  "zhan guo ": 7544,
  "quan yi ": 7545,
  "gu zhang ": 7546,
  "shan hu ": 7547,
  "zao chuan ": 7548,
  "qiang da de ": 7549,
  "long ke ": 7550,
  "1996 nian ": 7551,
  " M ": 7552,
  "ji zhong xue ": 7553,
  "3   ": 7554,
  "dao qi ": 7555,
  "jing que ": 7556,
  "shang biao ": 7557,
  "ru le ": 7558,
  "huan qiu ": 7559,
  " bei cheng wei ": 7560,
  "di yi ren ": 7561,
  " 1947 nian ": 7562,
  "i   ": 7563,
  "zhi 197": 7564,
  "cheng zan ": 7565,
  "guan dao ": 7566,
  "1998 nian ": 7567,
  " 158": 7568,
  "250 ": 7569,
  "   kai ": 7570,
  "zai ren ": 7571,
  "che li ": 7572,
  "qin fan ": 7573,
  " cheng shi ": 7574,
  " lian bang ": 7575,
  "jiao yi suo ": 7576,
  "guo an ": 7577,
  "xian dao ": 7578,
  "ju yi ": 7579,
  "liang zuo ": 7580,
  "dai kuan ": 7581,
  "duo yuan ": 7582,
  "ceng bei ": 7583,
  "zhong dian wen wu bao hu dan wei ": 7584,
  "jiu du yu ": 7585,
  "KB": 7586,
  "   wu ke lan ": 7587,
  "he shui ": 7588,
  "xi yang ": 7589,
  "fu huo ": 7590,
  "wu ye ": 7591,
  "zhu you ": 7592,
  "mei er ": 7593,
  "yan yu ": 7594,
  "dian xin ": 7595,
  "yang zi ": 7596,
  "xuan gao ": 7597,
  "ord": 7598,
  "tuo fu ": 7599,
  "fa zhan de ": 7600,
  " gu shi ": 7601,
  "illi": 7602,
  "EN": 7603,
  "   hua ": 7604,
  "zhi da ": 7605,
  "shu li ": 7606,
  "fen san ": 7607,
  "xia xun ": 7608,
  "dian chang ": 7609,
  "te lie ": 7610,
  "ta men zai ": 7611,
  "rop": 7612,
  " P ": 7613,
  "zun zhong ": 7614,
  "   han ": 7615,
  "shu le ": 7616,
  "jing bei ": 7617,
  "wang you ": 7618,
  "xuan piao ": 7619,
  " er zhe ": 7620,
  "yu 2017 nian ": 7621,
  "27 nian ": 7622,
  "yi suo ": 7623,
  "wei ci ": 7624,
  "hui guo ": 7625,
  "shang bu ": 7626,
  "xin zhu ": 7627,
  "dian shi jie mu ": 7628,
  "shen yu ": 7629,
  "bian qu ": 7630,
  " bing biao shi ": 7631,
  "tan de ": 7632,
  "tuan de ": 7633,
  " wan li ": 7634,
  " mian ji 0": 7635,
  "kua yue ": 7636,
  "shi sheng ": 7637,
  "yi bai ": 7638,
  "gong dang ": 7639,
  "xiang dong ": 7640,
  "mei guo zong tong ": 7641,
  " hu bei ": 7642,
  "yi shou ": 7643,
  "ye zhan ": 7644,
  "yun nan sheng ": 7645,
  "pu luo ": 7646,
  "1 ming ": 7647,
  "chan liang ": 7648,
  "sha ren ": 7649,
  "3 nian 10 yue ": 7650,
  "yi xue yuan ": 7651,
  " shi yue ": 7652,
  "lv hua ": 7653,
  "geng gao ": 7654,
  "tian wen xue jia ": 7655,
  " shi dai ": 7656,
  "zhen ying ": 7657,
  "pai fang ": 7658,
  " bu lai ": 7659,
  "yu 2013 nian ": 7660,
  "ai hao ": 7661,
  "yi chuan ": 7662,
  "   d": 7663,
  "qi dao ": 7664,
  "zhan yi zhong ": 7665,
  "yan xian ": 7666,
  "zhou ren ": 7667,
  "bi shi ": 7668,
  "duo qu ": 7669,
  "feng mian ": 7670,
  " bing qie zai ": 7671,
  "86 ": 7672,
  "8 nian 10 yue ": 7673,
  "ek": 7674,
  "chu lai de ": 7675,
  "jin zai ": 7676,
  "jing yu ": 7677,
  "fang cheng shi ": 7678,
  "ye sheng ": 7679,
  "shen she ": 7680,
  "sen bao ": 7681,
  " an zhao ": 7682,
  " а": 7683,
  "bei sha ": 7684,
  "jing ti ": 7685,
  "shang ji ": 7686,
  "nan mei zhou ": 7687,
  "wang lai ": 7688,
  "quan shi jie ": 7689,
  "xun hao ": 7690,
  "yu 2018 nian ": 7691,
  "hang zhan lou ": 7692,
  "id ": 7693,
  " rou ": 7694,
  "   2020": 7695,
  "bu duo ": 7696,
  "qian shui ": 7697,
  "yin jie ": 7698,
  "wang ye ": 7699,
  "ba ge ": 7700,
  "ruo gan ": 7701,
  " 1956 nian ": 7702,
  "can sai zi ge ": 7703,
  "AL": 7704,
  " qu de ": 7705,
  "chu ju ": 7706,
  "qing yuan ": 7707,
  "gao shan ": 7708,
  "zhuan hui ": 7709,
  "tui li ": 7710,
  "hong shui ": 7711,
  "diu ": 7712,
  "de dian ying ": 7713,
  "wei jie ": 7714,
  "sheng dian ": 7715,
  "fa da ": 7716,
  "1900": 7717,
  "jun jian ": 7718,
  "xia tian ": 7719,
  "jiu ba ": 7720,
  "de yi jia ": 7721,
  "gong zuo de ": 7722,
  " 1970 nian ": 7723,
  "wu xian dian shi ": 7724,
  "jie quan guo ren min dai biao da hui ": 7725,
  "de ming ": 7726,
  "   fen lei ": 7727,
  "chu zai ": 7728,
  "wang si ": 7729,
  "mi te ": 7730,
  "jue ce ": 7731,
  "de shi li ": 7732,
  "zeng she ": 7733,
  "185": 7734,
  "xing zheng yuan ": 7735,
  " fen bie shi ": 7736,
  "33 nian ": 7737,
  " qiong ": 7738,
  "   sha ": 7739,
  "you lai ": 7740,
  "qi wen ": 7741,
  "ru xue ": 7742,
  "nan nv ": 7743,
  "jiu jing ": 7744,
  "ben di qu ": 7745,
  " xian shi you ": 7746,
  "   2002 nian ": 7747,
  "de li lun ": 7748,
  "zhi 2": 7749,
  "gao feng ": 7750,
  "bo chu de ": 7751,
  "fan fu ": 7752,
  "nei rui ": 7753,
  "zhuan ji de ": 7754,
  "pei chang ": 7755,
  " rui dian ": 7756,
  "ji long ": 7757,
  "he jia ": 7758,
  "fen bu zai ": 7759,
  "ling hun ": 7760,
  " qi zi ": 7761,
  "guang de ": 7762,
  "2 li ": 7763,
  "geng gai ": 7764,
  "9 ping fang gong li ": 7765,
  " zong tong ": 7766,
  " 1955 nian ": 7767,
  "29 nian ": 7768,
  "34 nian ": 7769,
  "AI": 7770,
  "he sheng ": 7771,
  "fu xian ": 7772,
  "chu bu ": 7773,
  "fang xian ": 7774,
  "mo nian ": 7775,
  "gou wu ": 7776,
  " 50": 7777,
  " guo li ": 7778,
  "zhui su dao ": 7779,
  "NH": 7780,
  "wei lin ": 7781,
  "ren dui ": 7782,
  "gong zi ": 7783,
  "jia bin ": 7784,
  "xiang xiang ": 7785,
  "ri shi ": 7786,
  "zhang dan qu ": 7787,
  "luo hou ": 7788,
  "zui xin ": 7789,
  "la ge ": 7790,
  "zhong guo ren min ": 7791,
  "1992 nian ": 7792,
  "de zhu ti ": 7793,
  " 1938 nian ": 7794,
  " lou ": 7795,
  "yu yuan ": 7796,
  "he mei guo ": 7797,
  "gong wei ": 7798,
  " shi xing deng wei ": 7799,
  "yan sheng ": 7800,
  "zu yi ": 7801,
  "kou jing ": 7802,
  "95": 7803,
  "guan shang ": 7804,
  "liang du ": 7805,
  "qiu yun dong yuan ": 7806,
  "cha ju ": 7807,
  "re men ": 7808,
  " an de ": 7809,
  "omm": 7810,
  "fa bu le ": 7811,
  " wei yu gai guo xi bu ": 7812,
  "wu ren ji ": 7813,
  "ES": 7814,
  "de fang shi ": 7815,
  "shou piao ": 7816,
  "yan yong ": 7817,
  "xiao lv ": 7818,
  "nan bu de ": 7819,
  "shen ye ": 7820,
  "la er ": 7821,
  "na   ": 7822,
  "de yi ti ": 7823,
  "ceng you ": 7824,
  "zeng zhi ": 7825,
  "77 ": 7826,
  "zhi qi ": 7827,
  "xing sheng ": 7828,
  "fa li ": 7829,
  "shu ge ": 7830,
  "de shi qing ": 7831,
  " jing chang ": 7832,
  " chi wei ": 7833,
  "26 nian ": 7834,
  "tong xiang ": 7836,
  "yan shen zhi ": 7837,
  "han de ": 7838,
  " 23 ": 7839,
  "li mian ": 7840,
  "sheng zai ": 7841,
  "zhou fu ze guan xia ": 7842,
  "shen qi ": 7843,
  " zhan hou ": 7844,
  "rom": 7845,
  "ey": 7846,
  "a fu han ": 7847,
  "di he ": 7848,
  "bei lie wei ": 7849,
  "shou er ": 7850,
  " shi xia xia de yi ge ": 7851,
  "fen zu ": 7852,
  "dui bi ": 7853,
  "ma zu ": 7854,
  "zong guan ": 7855,
  "guo jia zu qiu dui ": 7856,
  " gong ji ": 7857,
  "de zhi hui ": 7858,
  " guo qu ": 7859,
  "er de ming ": 7860,
  "IV": 7861,
  "xi bu de ": 7862,
  "chang chun ": 7863,
  "zhou kan ": 7864,
  "wang min ": 7865,
  " yi ju ": 7866,
  "hu zhao ": 7867,
  "cha li ": 7868,
  "shuo de ": 7869,
  "400 ": 7870,
  "h ": 7871,
  "nam": 7872,
  "zhen zhu ": 7873,
  "lan te ": 7874,
  "zhong guo guo min dang ": 7875,
  "gan de ": 7876,
  " gai dang ": 7877,
  " jie wei ": 7878,
  "zhi hou de ": 7879,
  " HR": 7880,
  "fa yan ren ": 7881,
  "en lai ": 7882,
  "jia shu ": 7883,
  "ming jiao ": 7884,
  "qian dao ": 7885,
  "wen ji ": 7886,
  "bao jia li ya ": 7887,
  "nei si ": 7888,
  "pian zhong ": 7889,
  "73 ": 7890,
  "you bu ": 7891,
  "yuan jian ": 7892,
  "xin tu ": 7893,
  "lai wu ": 7894,
  "han yi ": 7895,
  "pu ji ": 7896,
  "300": 7897,
  "5 nian 12 yue ": 7898,
  "xing cun ": 7899,
  "da kai ": 7900,
  "xi shu ": 7901,
  "jing nei de ": 7902,
  "wen quan ": 7903,
  " dan que ": 7904,
  "cun zai yu ": 7905,
  "xian zai de ": 7906,
  "zhong wu ": 7907,
  "jie jie ": 7908,
  "fa xue ": 7909,
  "ming cheng wei ": 7910,
  "chang gui ": 7911,
  "ban kuai ": 7912,
  "lei bie ": 7913,
  "yun suan ": 7914,
  " mei zhou ": 7915,
  "de zhi shi ": 7916,
  " ba yue ": 7917,
  " 1937 nian ": 7918,
  "31 nian ": 7919,
  "4 nian 11 yue ": 7920,
  "5 shi ": 7921,
  "96": 7922,
  "zhi xin ": 7923,
  "jian ding ": 7924,
  "huo qi ta ": 7925,
  "xia lai de ": 7926,
  "min jin dang ": 7927,
  "liu lang ": 7928,
  "zong shu ji ": 7929,
  "tu rang ": 7930,
  " you xian ": 7931,
  "zhuan li ": 7932,
  " dang nian ": 7933,
  " D ": 7934,
  " R ": 7935,
  "dan bai zhi ": 7936,
  "87 ": 7937,
  "ath": 7938,
  "zhi 194": 7940,
  "jie mian ": 7941,
  "jia ju ": 7942,
  "jin shen ": 7943,
  "fang shou ": 7944,
  "tian wen xue ": 7945,
  "chao de ": 7946,
  "de da bu fen ": 7947,
  "wei chi jing ": 7948,
  "6 nian 12 yue ": 7949,
  "span ": 7950,
  "yi di ": 7951,
  "   15": 7952,
  "ke yong ": 7953,
  "zheng jiao ": 7954,
  "qu dao ": 7955,
  "dian xing de ": 7956,
  "bing yuan ": 7957,
  "shan kou ": 7958,
  " wei yuan ": 7959,
  "xian de fei jian zhi di qu ": 7960,
  "76": 7961,
  "wei jing ": 7962,
  "ta dui ": 7963,
  "xue li ": 7964,
  "zhan bai ": 7965,
  " yu 198": 7966,
  "pin zhi ": 7967,
  "gou tong ": 7968,
  "wa duo ": 7969,
  " wei yu zhong guo ": 7970,
  " fei lv bin ": 7971,
  "yu 2011 nian ": 7972,
  "   jing li ": 7973,
  "ren shou ": 7974,
  "wu xu ": 7975,
  "yang he ": 7976,
  " qi B": 7977,
  "shui dao ": 7978,
  "5 hao ": 7979,
  "chong sheng ": 7980,
  "wo lun ": 7981,
  "guo ji sai ": 7982,
  "ku de ": 7983,
  " SAO": 7984,
  "jia ru zhong guo gong chan dang ": 7985,
  "jie shou le ": 7986,
  " 1940 nian ": 7987,
  "30 fen ": 7988,
  "sis ": 7989,
  "zhi yao ": 7990,
  "qi ti ": 7991,
  "gong xiang ": 7992,
  "jin gang ": 7993,
  "ju zai ": 7994,
  "dian lu ": 7995,
  "chuan shu ": 7996,
  " guan zhuang bing du ": 7997,
  "ke luo di ya ": 7998,
  "yst": 7999,
  "shi zheng fu ": 8000,
  "   6 ": 8001,
  "   st": 8002,
  "hui le ": 8003,
  "gai zu ": 8004,
  " dan shi zai ": 8005,
  "xiu xi ": 8006,
  "   2001 nian ": 8007,
  "zhi chi zhe ": 8008,
  "   nian   ": 8009,
  "7 nian 12 yue ": 8010,
  "xue guan ": 8011,
  "du shu ": 8012,
  "wan jian ": 8013,
  "kong zhi de ": 8014,
  "de shi yan ": 8015,
  "ork": 8016,
  " si wang ": 8017,
  " tai guo ": 8018,
  "quan guo zhong dian wen wu bao hu dan wei ": 8019,
  "he si ": 8020,
  "nan dao ": 8021,
  "yang zhou ": 8022,
  "shui shou ": 8023,
  "ren min fa yuan ": 8024,
  "   che zhan gou zao ": 8025,
  "ren zhong ": 8026,
  "ta bei ": 8027,
  "zhan qian ": 8028,
  " shi nan ji zhou de ": 8029,
  "wan zheng de ": 8030,
  "mi shi ": 8031,
  "bian lun ": 8032,
  "dan you ": 8033,
  "ceng shui yu ": 8034,
  "cheng gong de ": 8035,
  "min zu zhu yi ": 8036,
  "chao ji lian sai ": 8037,
  "ji xing zheng dan wei ": 8038,
  "ech": 8039,
  "ist": 8040,
  "dai lai de ": 8041,
  "0 zuo biao ": 8042,
  "tu jue ": 8043,
  "qin lve ": 8044,
  " wei yu yin jing ": 8045,
  "miao shu wei ": 8046,
  " qi B1900": 8047,
  "0 zuo biao wei chi jing ": 8048,
  "32 nian ": 8049,
  "ji xian ": 8050,
  "yu ke ": 8051,
  "ren ding ": 8052,
  "di zhong hai ": 8053,
  "da ma ": 8054,
  "xin zang ": 8055,
  " zhe zuo ": 8056,
  "miao xie ": 8057,
  "．": 8058,
  " qing chao zheng zhi ren wu ": 8059,
  "ao duo ": 8060,
  "   jiang ": 8061,
  "   zheng yi ": 8062,
  "yu zai ": 8063,
  "di xing ": 8064,
  "di 3 ": 8065,
  "bei yue ": 8066,
  "shou pi ": 8067,
  "xin tai bi ": 8068,
  "ding dian ": 8069,
  " zhi jian ": 8070,
  "shi shi zhang ": 8071,
  "zu cheng bu fen ": 8072,
  " 1960 nian ": 8073,
  " ン": 8074,
  "guang bo dian tai ": 8075,
  "zuo qu jia ": 8076,
  "huan xing shan ": 8077,
  "2 nian 11 yue ": 8078,
  "81 ": 8079,
  "de gu ": 8081,
  "   f": 8082,
  "   yin yue ": 8083,
  "jian li de ": 8084,
  "shou hu ": 8085,
  "hua xian ": 8086,
  "mei shu guan ": 8087,
  "te lang pu ": 8088,
  "feng yu ": 8089,
  "ting che chang ": 8090,
  " nan jing ": 8091,
  " she li ": 8092,
  "74 ": 8093,
  "da ni ": 8094,
  "bei hai ": 8095,
  "nv shen ": 8096,
  "hen da de ": 8097,
  "guo fang bu ": 8098,
  "yuan sheng ": 8099,
  "hui bao ": 8100,
  "jiao xing ": 8101,
  "ying she ": 8102,
  "yin li ": 8103,
  "nan lu ": 8104,
  "kai ye ": 8105,
  "sai na ": 8106,
  "fan gong ": 8107,
  "ze bei ": 8108,
  "de yi wei ": 8109,
  "pu la ": 8110,
  "ha de ": 8111,
  "huo dong de ": 8112,
  " tong shi ye shi ": 8113,
  "he bei sheng ": 8114,
  "an zhong ": 8115,
  "ren sheng ": 8116,
  "guan nian ": 8117,
  "zhen wang ": 8118,
  "he ta de ": 8119,
  "gong xue yuan ": 8120,
  "wu zheng zhuang gan ran zhe ": 8121,
  "ying bi ": 8122,
  "qian fang ": 8123,
  "sai ting ": 8124,
  " di xia ": 8125,
  " guang zhou ": 8126,
  "3 nian 11 yue ": 8127,
  "CD": 8128,
  "yi fang ": 8129,
  "ming zhong ": 8130,
  "lai wang ": 8131,
  "ling gan ": 8132,
  "yang guang ": 8133,
  "zhuan yi dao ": 8134,
  " zhi jie ": 8135,
  "xun fu ": 8136,
  "wei ji chu ": 8137,
  "b ": 8138,
  "an zhi ": 8139,
  "   hai ": 8140,
  "   ta de ": 8141,
  "gai liang ": 8142,
  "bian ru ": 8143,
  "liu yue ": 8144,
  "tian xin ": 8145,
  "chi dao ": 8146,
  "pu si ": 8147,
  " 24 ": 8148,
  "de zhi ye ": 8149,
  "ge ming jun ": 8150,
  "da jiang sai ": 8151,
  "ET": 8152,
  "se": 8153,
  "dong lu ": 8154,
  "xiao ping ": 8155,
  "zhen jun ": 8156,
  "dan shi ": 8157,
  "chi de ": 8158,
  " 25 ": 8159,
  "you xi zhong ": 8160,
  " E ": 8161,
  "Pro": 8162,
  "xian ming ": 8163,
  "zhan zai ": 8164,
  "zhan chu ": 8165,
  "fen kai ": 8166,
  "tai yu ": 8167,
  "gui ge ": 8168,
  "duan qi ": 8169,
  "xiang zhen ji xing zheng dan wei ": 8170,
  "   gong ": 8171,
  "jiang hua ": 8172,
  "qian ming ": 8173,
  "hai bao kuo ": 8174,
  "gu cheng ": 8175,
  " zai na li ": 8176,
  " dan wei ": 8177,
  " dong hua ": 8178,
  " fen bu zai ": 8179,
  "int": 8180,
  " fan ying ": 8181,
  "Vi": 8182,
  "a mu ": 8183,
  "   ao ": 8184,
  "ji dong ": 8185,
  "yang ben ": 8186,
  "ze yi ": 8187,
  "qin shi ": 8188,
  "ti gong de ": 8189,
  "31": 8190,
  "8 nian 12 yue ": 8191,
  "   zhong hua ren min gong he guo ": 8192,
  "da bu ": 8193,
  "jian guan ": 8194,
  "zhou mo ": 8195,
  "pu zhai ": 8196,
  " huo cheng ": 8197,
  "shan mai de yi bu fen ": 8198,
  "95 ": 8199,
  "UN": 8200,
  "ji bu ": 8201,
  "zhi dui ": 8202,
  "te shi ": 8203,
  "ting dao ": 8204,
  "yi shi dao ": 8205,
  " a er bei ": 8206,
  " 40": 8207,
  "er shi nian ": 8208,
  "er ke ": 8209,
  "sheng hui ": 8210,
  "lin chuang ": 8211,
  " yu yan ": 8212,
  " gai shu ": 8213,
  "suan ji ": 8214,
  "180": 8215,
  "wen hua de ": 8216,
  "pao bing ": 8217,
  "ug": 8218,
  "yi hao ": 8219,
  "ji ju ": 8220,
  "you liang ge ": 8221,
  "nan zhu jue ": 8222,
  "kuo san ": 8223,
  " sheng cheng ": 8224,
  "pen di ": 8225,
  "xin guan fei yan que zhen bing li ": 8226,
  "di biao ": 8227,
  "jie zou ": 8228,
  "jing wu ": 8229,
  "qing chun ": 8230,
  "qiu bi sai ": 8231,
  "1997 nian ": 8232,
  "ji lu pian ": 8233,
  "2 zhi ": 8234,
  "9 shi ": 8235,
  "Uni": 8236,
  "jia le ": 8237,
  "hou zhe ": 8238,
  "chang dao ": 8239,
  "ye cheng wei ": 8240,
  "zhou de yi ge shi zhen ": 8241,
  "dai dao ": 8242,
  "ban shi ": 8243,
  "pu dun ": 8244,
  "gen di ": 8245,
  " xiang guan ": 8246,
  " dui ci ": 8247,
  " 180": 8248,
  "tiao yue ti xi ": 8249,
  "wei wu er ": 8250,
  "VI": 8251,
  "  shi ": 8252,
  "di li ya ": 8253,
  "jian zheng ": 8254,
  "hui she ": 8255,
  "zheng si ": 8256,
  "tian xian ": 8257,
  " dan ta men ": 8258,
  "pin fan ": 8259,
  "chong fen ": 8260,
  " di fang ": 8261,
  "tao yuan ": 8262,
  "lang de sheng ": 8263,
  "yi shi de ": 8264,
  "wen shu ": 8265,
  "gai shi ": 8266,
  "fan mang ": 8267,
  "tun men ": 8268,
  "ban ben de ": 8269,
  "ong": 8270,
  "   ru ": 8271,
  "gong ting ": 8272,
  "jie qu ": 8273,
  "chu si ": 8274,
  "fang she ": 8275,
  "zui xiao ": 8276,
  "fei zhi ": 8277,
  " zhi ming ": 8278,
  "chong bai ": 8279,
  "guo jia ji ": 8280,
  "jing zhi ": 8281,
  "hou che ": 8282,
  "dong tai ": 8283,
  "ye mei you ": 8284,
  "jiang zhang ": 8285,
  "du zhe ": 8286,
  "la he ": 8287,
  "fan ji ": 8288,
  "sha mo ": 8289,
  "geng da de ": 8290,
  "zui hou yi ci ": 8291,
  "nan ji tiao yue ti xi ": 8292,
  "ach": 8293,
  "da zai ": 8294,
  "da dang ": 8295,
  "yuan ding ": 8296,
  "zi mei ": 8297,
  "hui ru ": 8298,
  "ying jiu ": 8299,
  "ma qi ": 8300,
  "bo ke ": 8301,
  " er bu ": 8302,
  "xun xi ": 8303,
  "ke yi sheng ": 8304,
  "miao de ": 8305,
  "ard ": 8306,
  " hei long jiang ": 8307,
  "8 shi ": 8308,
  "ry   ": 8309,
  " er yue ": 8310,
  "zhi jia ge ": 8311,
  "zhong deng ": 8312,
  "jian jian ": 8313,
  "jie yun ": 8314,
  " shi shi shang ": 8315,
  "zu zi zhi ": 8316,
  "zhen xian ": 8317,
  "shan chu ": 8318,
  "qiang da ": 8319,
  "zheng zhi ju ": 8320,
  " shi ji shang ": 8321,
  "ruan tiao ": 8322,
  " shi wei yu mei guo mi ": 8323,
  "an   ": 8324,
  "ge di de ": 8325,
  "fu shan ": 8326,
  "zhu wei ": 8327,
  "xia men ": 8328,
  "pin kun ": 8329,
  "diao xiang ": 8330,
  " guang xi ": 8331,
  " chao ting ": 8332,
  "biao xian chu ": 8333,
  "he bing wei ": 8334,
  "an na zhou ": 8335,
  "you you ": 8336,
  "bu liang ": 8337,
  "ge lin ": 8338,
  "jin jin ": 8339,
  "jiao zhan ": 8340,
  "ding yi wei ": 8341,
  "zhuan bo ": 8342,
  "shui shang ": 8343,
  "mai de ": 8344,
  "9 hao ": 8345,
  "shi wu suo ": 8346,
  "nv shi ": 8347,
  "   The   ": 8348,
  " qiang diao ": 8349,
  "xiao xing xing de ": 8350,
  "MV": 8351,
  "   zhe ge ": 8352,
  "zhi yong ": 8353,
  "zhong ren ": 8354,
  "ke che ": 8355,
  "ju hua ": 8356,
  "ya suo ": 8357,
  " zhi hui ": 8358,
  "huan rao ": 8359,
  " fu wu ": 8360,
  "ect": 8361,
  "84 ": 8362,
  "er ma ": 8363,
  "dao xian ": 8364,
  "jun fang ": 8365,
  "2 ming ": 8366,
  "zhao mu ": 8367,
  "gan rao ": 8368,
  " 164": 8369,
  " qu dai ": 8370,
  " 179": 8371,
  "fang xiang de ": 8372,
  "   1949 nian ": 8373,
  "xue shi xue wei ": 8374,
  "layStation   ": 8375,
  "yi dian ": 8376,
  "zhong lei ": 8377,
  "dai xie ": 8378,
  " zai yu ": 8379,
  "shui zhun ": 8380,
  "zheng zhi jia ": 8381,
  "sang shi ": 8382,
  " 159": 8383,
  "xin xi lan ": 8384,
  "nan ji tiao yue ti xi guan li ": 8385,
  "1 nian 11 yue ": 8386,
  "42": 8387,
  " neng gou ": 8388,
  "   he   ": 8389,
  "da da ": 8390,
  "yuan lai ": 8391,
  "guan zheng ": 8392,
  "suo wei de ": 8393,
  "sha ni ya ": 8394,
  " shang shu ": 8395,
  " xie zhu ": 8396,
  " 20 ": 8397,
  "yu 2021 nian ": 8398,
  " heng li ": 8399,
  "   dian ying ": 8400,
  "   zhi ye sheng ya ": 8401,
  "qi kan ": 8402,
  "sheng huo de ": 8403,
  "tu shu ": 8404,
  " zhi yuan ": 8405,
  "dou mei you ": 8406,
  "xun wen ": 8407,
  " bu zai ": 8408,
  "shi guan ": 8409,
  "shi zhong xin ": 8410,
  "you ke neng ": 8411,
  "shu bai ": 8412,
  "shen li ": 8413,
  "wan shan ": 8414,
  "yi zhi de ": 8415,
  "sheng huo zai ": 8416,
  " che xiao ": 8417,
  "bu fu bu zhang ": 8418,
  "af": 8419,
  " min zhu ": 8420,
  "e yu ": 8421,
  "gong wu ": 8422,
  "fu dan ": 8423,
  "ke huan ": 8424,
  "zu zi zhi qu ": 8425,
  "am ": 8426,
  " 1952 nian ": 8427,
  " 1975 nian ": 8428,
  "bo shi dun ": 8429,
  "wai bu lian jie ": 8430,
  "6 nian 10 yue ": 8431,
  "85": 8432,
  "de zong ": 8433,
  "yi deng ": 8434,
  "bu deng ": 8435,
  "da pi ": 8436,
  "fen fen ": 8437,
  "han jian ": 8438,
  "re   ": 8439,
  "jun shi tan ding ": 8440,
  "qu yi hui xuan ju ": 8441,
  "   fen bu ": 8442,
  "ji lv ": 8443,
  "bu xia ": 8444,
  "bu lun ": 8445,
  "sheng dan ": 8446,
  "zheng gui ": 8447,
  "huo jiang ": 8448,
  "xian dai hua ": 8449,
  " J ": 8450,
  "ip": 8451,
  "tt": 8452,
  "ren ren wei ": 8453,
  "jian yan ": 8454,
  "ke jia ": 8455,
  "chang yu ": 8456,
  "nan shi ": 8457,
  " yuan shi ": 8458,
  "ning tu ": 8459,
  " san yue ": 8460,
  "kun chong ": 8461,
  " ping cheng ": 8462,
  "de gong neng ": 8463,
  " 156": 8464,
  "li fa wei yuan ": 8465,
  " zeng jia ": 8466,
  "da pei ": 8467,
  "dian zhan ": 8468,
  " yi shang ": 8469,
  "luo bai ": 8470,
  "bi hua ": 8471,
  "shan lu ": 8472,
  "chuan yuan ": 8473,
  "pin de ": 8474,
  " da dao ": 8475,
  "enter ": 8476,
  "SS": 8477,
  " fa sheng ": 8478,
  "yi wang ": 8479,
  "   she hui ": 8480,
  "wei duo li ya ": 8481,
  "qi hua ": 8482,
  "he ta ": 8483,
  "jian xiao ": 8484,
  "hai guan ": 8485,
  "qing zhen ": 8486,
  "zui jin de ": 8487,
  "bo lei ": 8488,
  "cong zhong ": 8489,
  " he bing ": 8490,
  "song de ": 8491,
  "miao yu ": 8492,
  "da huo ": 8493,
  "dai wei ": 8494,
  "zhuang yuan ": 8495,
  "huan bao ": 8496,
  "xiao shi hou ": 8497,
  "ji qi ren ": 8498,
  " guan zhuang bing du bing ": 8499,
  " s ": 8500,
  "   she ji ": 8501,
  "   xiang guan ": 8502,
  "li ye ": 8503,
  "xing yun ": 8504,
  "chu cun ": 8505,
  "tai da ": 8506,
  "luo bo ": 8507,
  "bian liang ": 8508,
  "cai ding ": 8509,
  "se qing ": 8510,
  "gui dao jiao tong ": 8511,
  "li jia ": 8512,
  "zai wu ": 8513,
  "qi qi ": 8514,
  "lu ke ": 8515,
  "qian li ": 8516,
  "ni di ": 8517,
  "de yi ming ": 8518,
  "yi ge yue ": 8519,
  "tan tao ": 8520,
  "kao ru ": 8521,
  "JR": 8522,
  "hou qin ": 8523,
  "ci lei ": 8524,
  "ying wu ": 8525,
  " shi nian ": 8526,
  "du te de ": 8527,
  "wan mei ": 8528,
  "tao fa ": 8529,
  "shi jian zhu ": 8530,
  " du li ": 8531,
  "fa biao le ": 8532,
  "ick": 8533,
  "ka luo lai na zhou ": 8534,
  "1 nian 10 yue ": 8535,
  " zhan zheng ": 8536,
  "shi jiang ": 8537,
  "de guo ji ": 8538,
  "gong guo ": 8539,
  "da jin ": 8540,
  "jian ting ": 8541,
  "mu ji ": 8542,
  "pu lu ": 8543,
  "li shi zhang ": 8544,
  "tie lu gong si ": 8545,
  " 1954 nian ": 8546,
  "   zhe ke ": 8547,
  "5 nian 11 yue ": 8548,
  " jiao tong ": 8549,
  "yi cheng ": 8550,
  "   mi ": 8551,
  "you zheng ": 8552,
  "si tu ": 8553,
  "fu mian ": 8554,
  "jin nian ": 8555,
  "ming ming de ": 8556,
  " shi zhong hua ren min gong he guo ": 8557,
  "qian qi ": 8558,
  "qian xia ": 8559,
  "kai bo ": 8560,
  "zong mian ji ": 8561,
  "qi ta de ": 8562,
  " hua sheng dun ": 8563,
  "zang yu ": 8564,
  " zhen dui ": 8565,
  "ri zhi shi qi ": 8566,
  "pou ": 8567,
  " chai ": 8568,
  "   guo ": 8569,
  "   jiao yu ": 8570,
  "   min guo ": 8571,
  "le de ": 8572,
  "shang xiao ": 8573,
  "jiao da de ": 8574,
  " shi yin du ": 8575,
  "nan ren ": 8576,
  "zui xing ": 8577,
  "liu cheng ": 8578,
  " 19 ": 8579,
  "xiu xian ": 8580,
  "suan yan ": 8581,
  "ss": 8582,
  "zhong cheng ": 8583,
  "he she hui ": 8584,
  "er dun ": 8585,
  "yuan shou ": 8586,
  "bei li ": 8587,
  "dong hai ": 8588,
  "chang yong ": 8589,
  "tai yuan ": 8590,
  "nan si la fu ": 8591,
  "xuan ba ": 8592,
  " zhe shi de ": 8593,
  "di shi san ": 8594,
  "de wen ti ": 8595,
  "   ren ": 8596,
  "   zhe xie ": 8597,
  "ji neng ": 8598,
  "jie mei ": 8599,
  "chu bing ": 8600,
  "jiao dian ": 8601,
  "luo ni ": 8602,
  " zai 198": 8603,
  "shao liang ": 8604,
  " huo dong ": 8605,
  " xiang mu ": 8606,
  " shang ye ": 8607,
  "fa xing le ": 8608,
  " lun dun ": 8609,
  "ge xing ": 8610,
  "zhu guo ": 8611,
  "bei jie ": 8612,
  "chang wei hui ": 8613,
  "yin xing ": 8614,
  "sai guan jun ": 8615,
  "gan lan ": 8616,
  "yu xiang gang ": 8617,
  "si ming ": 8618,
  "chang zhu ": 8619,
  "yin yuan ": 8620,
  "ya chi ": 8621,
  "pai xi ": 8622,
  " xing shi ": 8623,
  " ceng zai ": 8624,
  "0 nian dai mo ": 8625,
  "de li zi ": 8626,
  " luan ": 8627,
  "di san ci ": 8628,
  "zhu jiao lian ": 8629,
  "adi": 8630,
  "en si ": 8631,
  "   ying guo ": 8632,
  "er wen ming ": 8633,
  "jie zhong ": 8634,
  "xiang qian ": 8635,
  "dian dong ": 8636,
  "zhuan shu ": 8637,
  " ke lai ": 8638,
  "gong zuo zhe ": 8639,
  "le yi xi lie ": 8640,
  "−": 8641,
  "ot   ": 8642,
  "yi jiang ": 8643,
  "   feng ": 8644,
  "yu xin ": 8645,
  "jian die ": 8646,
  "fa ding ": 8647,
  "zhou he ": 8648,
  "wan yan ": 8649,
  "cai de ": 8650,
  "00 ping fang qian mi ": 8651,
  "1994 nian ": 8652,
  "zun xun ": 8653,
  "71 ": 8654,
  "hui jiang ": 8656,
  " shi zhong ": 8657,
  "yin zhi ": 8658,
  "guang xue ": 8659,
  " zhe ye ": 8660,
  "nv ren ": 8661,
  " zui zao ": 8662,
  " nan bei ": 8663,
  " ben zhan ": 8664,
  "olspan ": 8665,
  " о": 8666,
  "da sheng ": 8667,
  "er hao ": 8668,
  "dian ya ": 8669,
  "gai shu ": 8670,
  "0 ren ": 8671,
  "shui li ": 8672,
  "zhao he ": 8673,
  "mou zhong ": 8674,
  "ohn   ": 8675,
  "fu zi ": 8676,
  "gu ba ": 8677,
  "tu si ": 8678,
  "end ": 8679,
  " T ": 8680,
  "dian zi you xi ": 8681,
  "24 xiao shi ": 8682,
  "gu lao de ": 8683,
  " xian shi you nan ji tiao yue ti xi guan li ": 8684,
  "   hou ": 8685,
  "fen hui ": 8686,
  "yin ji ": 8687,
  "wen di ": 8688,
  " bing bu ": 8689,
  " dan mei you ": 8690,
  "tou bu ": 8691,
  " he zuo ": 8692,
  " yin ci zai ": 8693,
  " lei si ": 8694,
  "de cheng yuan ": 8695,
  "bei an ": 8696,
  "tong hua ": 8697,
  "ya dian ": 8698,
  "dai yu ": 8699,
  "luo shan ": 8700,
  "zhen xiang ": 8701,
  " zai zhong guo ": 8702,
  " bing cheng wei ": 8703,
  "chuan jiao ": 8704,
  " zhong shi ": 8705,
  " zong bu ": 8706,
  " 500 ": 8707,
  " ha li ": 8708,
  "GB": 8709,
  "em ": 8710,
  " ming wei ": 8711,
  "an suan ": 8712,
  "ji su ": 8713,
  "you ming ": 8714,
  "wu jian ": 8715,
  "jin yu ": 8716,
  "dong bu shi qu ": 8717,
  "geng da ": 8718,
  " dai ma wei ": 8719,
  " IST": 8720,
  " gui zhou ": 8721,
  "ling shi guan ": 8722,
  "fei xing yuan ": 8723,
  "89 nian ": 8724,
  "93": 8725,
  "sk": 8726,
  " zu cheng ": 8727,
  "de qing kuang xia ": 8728,
  "zhi nan ": 8729,
  "zhi quan ": 8730,
  "dao shu ": 8731,
  "ping shen ": 8732,
  "ma chang ": 8733,
  "pei yue ": 8734,
  " he dao quan zhang ": 8735,
  "ro ": 8736,
  "ve ": 8737,
  " tui chu ": 8738,
  "di shang ": 8739,
  "jia ci ": 8740,
  "bei fu ": 8741,
  "xin zhong ": 8742,
  "ying bang ": 8743,
  "yong yuan ": 8744,
  "jiu ye ": 8745,
  "dai shu ": 8746,
  "zui chu de ": 8747,
  "cai hui ": 8748,
  "cun chu ": 8749,
  " 1939 nian ": 8750,
  "oci": 8751,
  "PC": 8752,
  "as ": 8753,
  "   duo ": 8754,
  "   ying xiang ": 8755,
  "ge jie ": 8756,
  "pu lu shi ": 8757,
  "huan man ": 8758,
  "tai wan de ": 8759,
  "oun": 8760,
  "fou jue ": 8761,
  " 1966 nian ": 8762,
  "lu wa er sheng ": 8763,
  "  di ": 8764,
  "   liang ": 8765,
  "zhi gong ": 8766,
  "qi shou ": 8767,
  "da lian ": 8768,
  "er duo ": 8769,
  "zhu zhong ": 8770,
  "ci xing ": 8771,
  "jiang zuo ": 8772,
  "qian wei ": 8773,
  "ma ding ": 8774,
  " ta dui ": 8775,
  "fei di ": 8776,
  "feng bi ": 8777,
  " gong kai ": 8778,
  "shi shi shang ": 8779,
  "reng wei ": 8780,
  "lian sai guan jun ": 8781,
  "zui gao fa yuan ": 8782,
  " F ": 8783,
  "rao tai yang gong ": 8784,
  "ji qi ta ": 8785,
  "yu wen ": 8786,
  "zai shang hai ": 8787,
  "yuan zheng ": 8788,
  "yue 2": 8789,
  " ren he ": 8790,
  "shi jie de ": 8791,
  "xing zheng zhang guan ": 8792,
  " ling yi ge ": 8793,
  " shi yi ke wei ": 8794,
  "yu 2009 nian ": 8795,
  "ib": 8796,
  " chuan tong ": 8797,
  "ao di ": 8798,
  "hui mian ": 8799,
  "jiang jie ": 8800,
  "dan dang ": 8801,
  "xuan de ": 8802,
  "tian jin shi ": 8803,
  "kong de ": 8804,
  "mai jia ": 8805,
  " su cheng ": 8806,
  "   guo ji ": 8807,
  "ke ke ": 8808,
  "zhu duo ": 8809,
  "fa lv": 8810,
  "ming e ": 8811,
  "dong bu de ": 8812,
  "xin cheng ": 8813,
  "ti huan ": 8814,
  "gai zhi ": 8815,
  "yue tan ": 8816,
  "dang pai ": 8817,
  "huan ying de ": 8818,
  "bao kuo yi xia ": 8819,
  "   St": 8820,
  " EST ": 8821,
  "yu 2023 nian ": 8822,
  "ren dao ": 8823,
  "lic": 8824,
  "chu guo ": 8825,
  "jing xiang ": 8826,
  "zuo pai ": 8827,
  "dai mu ": 8828,
  "gu yong ": 8829,
  "mo tuo ": 8830,
  "kou hao ": 8831,
  "ka li ": 8832,
  " hou you ": 8833,
  "sheng wu xue ": 8834,
  " wei yu fa guo ao ": 8835,
  "MP": 8836,
  "MS": 8837,
  "cen ": 8838,
  "xing ming ": 8839,
  "hou you ": 8840,
  "hua bei ": 8841,
  "zhe chang ": 8842,
  "lu yin shi ": 8843,
  "jun wang ": 8844,
  "dai shi ": 8845,
  "zui zhong yao de ": 8846,
  "hu tong ": 8847,
  " ji qi ": 8848,
  "pu sa ": 8849,
  "ce hua ": 8850,
  " leng ": 8851,
  "shuai jiao ": 8852,
  "   ben shu ": 8853,
  "cheng du shang ": 8854,
  "chang pian gong si ": 8855,
  "jue dui xing deng wei ": 8856,
  "nei rui la ": 8857,
  "86": 8858,
  "CT": 8859,
  "ain": 8860,
  "zhi guan ": 8861,
  "ren qun ": 8862,
  "he xiao ": 8863,
  "ke ta ": 8864,
  "qu yi yuan ": 8865,
  "ya er ": 8866,
  "5 ming ": 8867,
  " 5 diao kuai yi xiao shi ": 8868,
  " EDT ": 8869,
  " 1968 nian ": 8870,
  "lian xu ju ": 8871,
  "shao shu min zu ": 8872,
  "ban jiang dian li ": 8873,
  " ji bei mei dong bu shi qu ": 8874,
  "rao tai yang gong zhuan de xiao xing xing ": 8875,
  " shi yi ke wei rao tai yang gong zhuan de xiao xing xing ": 8876,
  "3 shi ": 8877,
  "CD ": 8878,
  "de zuo pin ": 8879,
  "   bao ": 8880,
  "le yu ": 8881,
  "guan li de ": 8882,
  "la mu ": 8883,
  "bian jiang ": 8884,
  "xuan shi ": 8885,
  "pei jue ": 8886,
  " jie fang ": 8887,
  "xue yuan de ": 8888,
  "ond": 8889,
  "xiao xing xing de jue dui xing deng wei ": 8890,
  "de bao ": 8891,
  "zai qian ": 8892,
  "cheng zai ": 8893,
  "jian jiao ": 8894,
  "fu da xue ": 8895,
  "ci di ": 8896,
  "ying yang ": 8897,
  " shi ying guo ": 8898,
  "wen zhong ": 8899,
  "ping an ": 8900,
  "ping ren ": 8901,
  "luo men ": 8902,
  "gao tie ": 8903,
  "fan she ": 8904,
  "hao wu ": 8905,
  "shuo fu ": 8906,
  "shi yi yuan ": 8907,
  "ren wei yuan ": 8908,
  "   gai shu ": 8909,
  "aceb": 8910,
  " yun dong ": 8911,
  " 000 ming ": 8912,
  "74": 8913,
  "ra ": 8914,
  "   t": 8915,
  "   3 ": 8916,
  "ke chuan ": 8917,
  "shu ming ": 8918,
  "ti nei ": 8919,
  "feng fu de ": 8920,
  "can yan ": 8921,
  " yin ni ": 8922,
  "shi jie yi chan ": 8923,
  "nong du ": 8924,
  " 50 ": 8925,
  "ba ji si tan ": 8926,
  " shi xia xia de yi ge xiang zhen ji xing zheng dan wei ": 8927,
  "   zhe ke xiao xing xing de jue dui xing deng wei ": 8928,
  "shi shou ": 8929,
  "yi liang ": 8930,
  "   shui ": 8931,
  "ji sheng ": 8932,
  "xiang jin ": 8933,
  "chu zhi ": 8934,
  "jiao duo ": 8935,
  "xin cun ": 8936,
  "min yong ": 8937,
  "suo en ": 8938,
  " zai ri ben ": 8939,
  "dou ke yi ": 8940,
  "xing zheng qu yu ": 8941,
  " U ": 8942,
  "hu bei sheng ": 8943,
  "7 nian 10 yue ": 8944,
  "Net": 8945,
  "   ni ": 8946,
  "   ha ": 8947,
  "jia gong ": 8948,
  "ri jian ": 8949,
  "ye yi ": 8950,
  "ping xing ": 8951,
  "mian 2 ": 8952,
  " wei you ": 8953,
  "mo te er ": 8954,
  "tao li ": 8955,
  "8 hao ": 8956,
  "di yi bu ": 8957,
  " jiang xi ": 8958,
  " ju xing ": 8959,
  "8 nian 11 yue ": 8960,
  "ire": 8961,
  "ai li si ": 8962,
  "zhi jia ": 8963,
  "he kou ": 8964,
  "zi fu ": 8965,
  "zheng li ": 8966,
  "hou lai de ": 8967,
  "le liang ": 8968,
  "jiang wei ": 8969,
  "tai shan ": 8970,
  "ling dui ": 8971,
  "biao ti ": 8972,
  "fan rong ": 8973,
  "na po lun ": 8974,
  " ji er ": 8975,
  "bai zhan ting ": 8976,
  "de di di ": 8977,
  "one ": 8978,
  "yi li nuo ": 8979,
  "83 ": 8980,
  "   ban ": 8981,
  "hui jia ": 8982,
  "ci tian ti ": 8983,
  "suo zhang ": 8984,
  " er ta ": 8985,
  "2 wan ": 8986,
  "sun hai ": 8987,
  "zhai wu ": 8988,
  "hang kong mu jian ": 8989,
  "guang fan de ": 8990,
  "li hun ": 8991,
  "ge bu ": 8992,
  "ge zhou ": 8993,
  "hui shou ": 8994,
  "hai wan ": 8995,
  "xun yan ": 8996,
  " xi zang ": 8997,
  "wa la ": 8998,
  "ary   ": 8999,
  " guan zhi ": 9000,
  " 1941 nian ": 9001,
  "sang sheng ": 9002,
  " 1935 nian ": 9003,
  "dong shi hui ": 9004,
  "xian bei ": 9005,
  "jia da ": 9006,
  "qu fu ze guan xia ": 9007,
  "zuo chu le ": 9008,
  "bing fa ": 9009,
  "che xing ": 9010,
  " wei zhu ": 9011,
  "chuan dao ": 9012,
  "ting bo ": 9013,
  " nan xing ": 9014,
  "inu": 9015,
  " zhan dou ": 9016,
  "zhu jiao zuo tang ": 9017,
  "ge yue hou ": 9018,
  "yi si lan jiao ": 9019,
  "8 yue 1 ri ": 9020,
  "ax": 9021,
  "is ": 9022,
  "   guan yu ": 9023,
  "zhi shou ": 9024,
  "zhi li yu ": 9025,
  "you ci ": 9026,
  "jie yi ": 9027,
  "hui qu ": 9028,
  "hui dao zhi ": 9029,
  "tong ku ": 9030,
  " wei neng ": 9031,
  " bing xiang ": 9032,
  "1990 nian ": 9033,
  " 1972 nian ": 9034,
  "53": 9035,
  "shi duan ": 9036,
  "da jun ": 9037,
  "fa jun ": 9038,
  "gai di qu ": 9039,
  "ping xian ": 9040,
  "bing qi ": 9041,
  " qi yue ": 9042,
  "zhuan ren ": 9043,
  "lie ning ": 9044,
  "ore ": 9045,
  "1995 nian ": 9046,
  "ping lun jia ": 9047,
  "  E": 9048,
  "de xiang ": 9049,
  "   Y": 9050,
  "yu tai ": 9051,
  "he dao ": 9052,
  "xing fu ": 9053,
  "da ting ": 9054,
  " shi ba ": 9055,
  "ba ni ya ": 9056,
  "shui zhong ": 9057,
  "gan shi ": 9058,
  "chen ke ": 9059,
  " 1976 nian ": 9060,
  "niu yue zhou ": 9061,
  "bi li niu ": 9062,
  "AD": 9063,
  "de mu ": 9064,
  "jie yan ": 9065,
  "shu xing ": 9066,
  "xin yong ": 9067,
  "wen ding de ": 9068,
  "zong e wei ": 9069,
  " zhe xiang ": 9070,
  "mei guo hai jun ": 9071,
  " zhong wen ": 9072,
  " ju shuo ": 9073,
  " hui fu ": 9074,
  " lian he guo ": 9075,
  "ji nian bei ": 9076,
  "zai xiao ": 9077,
  "guo zhong ": 9078,
  "he jian ": 9079,
  "da han ": 9080,
  "si la ": 9081,
  "fa gui ": 9082,
  "fan dian ": 9083,
  "yun song ": 9084,
  "dou bu ": 9085,
  "nv ge shou ": 9086,
  " ci zhan ": 9087,
  "de zhi zuo ": 9088,
  " qing hua ": 9089,
  "6 yue 30 ri ": 9090,
  "ming sheng ": 9091,
  "yin di an ": 9092,
  "yue ke ": 9093,
  "qing dai ": 9094,
  "zui hao de ": 9095,
  " H ": 9096,
  "mie wang ": 9097,
  "ji qiang ": 9098,
  "xian feng ": 9099,
  "shu lin ": 9100,
  "chu zhong ": 9101,
  "tong yu ": 9102,
  "gu ge ": 9103,
  "bing yi ": 9104,
  "tian di ": 9105,
  "hao yu ": 9106,
  "pu she ": 9107,
  " zhong shi yan ": 9108,
  "geng shi ": 9109,
  " wu yue ": 9110,
  " 1964 nian ": 9111,
  "er jie ": 9112,
  "xiang lin ": 9113,
  "zheng zhao ": 9114,
  "hou bu jiu ": 9115,
  "shang ke ": 9116,
  " shi mi si ": 9117,
  "xiao dao ": 9118,
  "ling shou ": 9119,
  "shan po ": 9120,
  "hao zai ": 9121,
  " bing fei ": 9122,
  "mao de ": 9123,
  "hun ning tu ": 9124,
  " shou xian ": 9125,
  "jiang yu liang ": 9126,
  "96 ": 9127,
  "de bi ": 9128,
  "wei   ": 9129,
  "shang ying de ": 9130,
  "ye xian ": 9131,
  "jiang xian ": 9132,
  "xia yu ": 9133,
  "yong yi ": 9134,
  "bing ren ": 9135,
  "san xing ": 9136,
  "nei wai ": 9137,
  " zhi cheng ": 9138,
  "tang chao ": 9139,
  "tuo ma si ": 9140,
  " ci ju ": 9141,
  " ru jin ": 9142,
  "shi wei zhe ": 9143,
  "1991 nian ": 9144,
  "yi wei zhe ": 9145,
  "ju xing le ": 9146,
  " 1959 nian ": 9147,
  "gao deng jiao yu ": 9148,
  "49 ": 9149,
  "   du ": 9150,
  "ji dian ": 9151,
  "ren xing ": 9152,
  "gong shu ": 9153,
  "si zhang ": 9154,
  "jia you ": 9155,
  " shi xian ": 9156,
  "bao he ": 9157,
  "lian bo ": 9158,
  "qiu fan ": 9159,
  "ba gong ": 9160,
  "che shou ": 9161,
  "chuan shang ": 9162,
  "guang zhou shi ": 9163,
  "rong huo ": 9164,
  "ning bo ": 9165,
  " xiao shi ": 9166,
  "   Ch": 9167,
  "shou shi lv ": 9168,
  " tun qi ": 9169,
  "ta ni da qu ": 9170,
  "7 nian 11 yue ": 9171,
  " i": 9172,
  "guo wai ": 9173,
  "qi xian ": 9174,
  "lia ": 9175,
  "xiang fan ": 9176,
  "shou yao ": 9177,
  "jiang yi ": 9178,
  "zhang   ": 9179,
  "per": 9180,
  " kua ": 9181,
  "   zhan hou ": 9182,
  "zhi 196": 9183,
  "xi lu ": 9184,
  "20 wan ": 9185,
  "hua dong ": 9186,
  "ci ju ": 9187,
  " shi hou ": 9188,
  "du he ": 9189,
  "yue 1": 9190,
  "min gan ": 9191,
  "zhuan yuan ": 9192,
  "huan guan ": 9193,
  "meng xiang ": 9194,
  " gai nian ": 9195,
  " bu shao ": 9196,
  "bu fen di qu ": 9197,
  "yi zhi shi ": 9198,
  "shi ji yu ": 9199,
  " ma ding ": 9200,
  " yun xu ": 9201,
  "gong bu wei ": 9202,
  "shi chu shen ": 9203,
  "   su ": 9204,
  "li mu ": 9205,
  "da zao ": 9206,
  "fen hua ": 9207,
  "fen nu ": 9208,
  "nan xia ": 9209,
  "de yi chang ": 9210,
  "kong tiao ": 9211,
  "zhui ji ": 9212,
  " Ar": 9213,
  " nian 10 yue 1 ri ": 9214,
  " 1942 nian ": 9215,
  " zhun bei ": 9216,
  "wu jie ": 9217,
  "shang di ": 9218,
  "fen bian ": 9219,
  "shui jing ": 9220,
  "1 wan ": 9221,
  " bei er ": 9222,
  " zuo pin ": 9223,
  "   yin wei ": 9224,
  "zi zhuan ": 9225,
  "ban qiu ": 9226,
  "tang de ": 9227,
  "ba shi lu xian ": 9228,
  " 20 shi ji ": 9229,
  "92 ": 9230,
  "9 yue 1 ri ": 9231,
  "shi yuan ": 9232,
  "   wei yu ": 9233,
  "   wai bu lian jie ": 9234,
  "zhong bu shi qu ": 9235,
  "er ye ": 9236,
  "ci qian ": 9237,
  "guan xian ": 9238,
  "xia lie ": 9239,
  "fan er ": 9240,
  " zhong xin ": 9241,
  "zheng fu zai ": 9242,
  " jie zhu ": 9243,
  "nuo bei er ": 9244,
  "zhu yao you ": 9245,
  " 1944 nian ": 9246,
  "97": 9247,
  " x ": 9248,
  "   tong nian ": 9250,
  "yu fu ": 9251,
  "li jing ": 9252,
  "ren wen ": 9253,
  "xing ge ": 9254,
  "jie xi ": 9255,
  " yi zuo ": 9256,
  "shen shou ": 9257,
  "mo te ": 9258,
  " dan hou lai ": 9259,
  "sha la ": 9260,
  " ying pian ": 9261,
  "yin yue hui ": 9262,
  " fa bu ": 9263,
  " 1973 nian ": 9264,
  "fen bie shi ": 9265,
  " gui ding ": 9266,
  "80 nian ": 9267,
  "ke zhi ": 9268,
  "ye ceng ": 9269,
  "qian feng ": 9270,
  "zhen xing ": 9271,
  " bi 2 ": 9272,
  " CST ": 9273,
  " CDT ": 9274,
  " 6 diao kuai yi xiao shi ": 9275,
  " 1953 nian ": 9276,
  "wei fu shu ji ": 9277,
  "jie quan guo zheng xie wei yuan ": 9278,
  " ji bei mei zhong bu shi qu ": 9279,
  "ata ": 9280,
  "   bi sai ": 9281,
  "bei duan ": 9282,
  "qu xian ": 9283,
  "jun zhi ": 9284,
  "jiu zhou ": 9285,
  "yan hai sheng fen ": 9286,
  "A de ": 9287,
  "   shi jian ": 9288,
  "you sheng ": 9289,
  "dao di ": 9290,
  "tai ren ": 9291,
  "zu zong ": 9292,
  "te shu de ": 9293,
  "fan chou ": 9294,
  "pai dui ": 9295,
  " xiang bi ": 9296,
  "de xiao xi ": 9297,
  "ban gong ting ": 9298,
  "de guan xi ": 9299,
  "   te zheng ": 9300,
  "bei qi ": 9301,
  "fen dian ": 9302,
  "zu zhang ": 9303,
  "kai qi ": 9304,
  "duo lun duo ": 9305,
  "bian fu ": 9306,
  "tou ying ": 9307,
  "de shi qi ": 9308,
  "kan de ": 9309,
  " liang zhe ": 9310,
  " jiu yue ": 9311,
  " 1974 nian ": 9312,
  "de da xing ": 9313,
  " tang chao ": 9314,
  "ess": 9315,
  "est   ": 9316,
  "re dai di qi ya ": 9317,
  "oni": 9318,
  "zhi gu ": 9319,
  "guo zhi ": 9320,
  "zheng jiu ": 9321,
  "ri sheng ": 9322,
  "ying di ": 9323,
  "jun he ": 9324,
  "jun zhang ": 9325,
  "dui yi ": 9326,
  "mu ban ": 9327,
  "wang zhi ": 9328,
  "suo zuo ": 9329,
  "mi ji ": 9330,
  "ma pi ": 9331,
  "lin na ": 9332,
  "li shi jian zhu ": 9333,
  "da xue sheng ": 9334,
  " ye cheng ": 9335,
  " fu lan ": 9336,
  "xiang gang de ": 9337,
  " bao luo ": 9338,
  " tai yang ": 9339,
  "   yi xie ": 9340,
  "   1999 nian ": 9341,
  "nuo man di ": 9342,
  "3 zhi ": 9343,
  "IR": 9344,
  "codice ": 9345,
  "   hu ": 9346,
  "xi ai ": 9347,
  "jian shu ": 9348,
  "bei ren ": 9349,
  "hou yu ": 9350,
  "yun zai ": 9351,
  "guang dian ": 9352,
  "di yi pi ": 9353,
  " zhu you ": 9354,
  "mou ge ": 9355,
  "2019 guan zhuang bing du bing ": 9356,
  "ust": 9357,
  "zheng shi qi ": 9358,
  "qu chu ": 9359,
  "shou huo ": 9360,
  "ben jie ": 9361,
  "tou ming ": 9362,
  "3 gong li ": 9363,
  "tong guo le ": 9364,
  " dao guang ": 9365,
  " 160": 9366,
  "yu 2022 nian ": 9367,
  "1 de ": 9368,
  "gong wu yuan ": 9369,
  "qu ji ": 9370,
  "ci yi ": 9371,
  "ying jie ": 9372,
  "jiang he ": 9373,
  "tai yin ": 9374,
  "tai zong ": 9375,
  "dai zhu ": 9376,
  "wan dao ": 9377,
  "shan gu ": 9378,
  "zhao ji ": 9379,
  "bang dan ": 9380,
  " huo de yi mei ": 9381,
  "cao an ": 9382,
  "de guo cheng zhong ": 9383,
  " 1977 nian ": 9384,
  "guo hui yi yuan ": 9385,
  "yi wai de ": 9386,
  "lv ke tie dao ": 9387,
  "zong yi jie mu ": 9388,
  "shi fu ": 9389,
  "wei dui ": 9390,
  "da gang ": 9391,
  "chu bei ": 9392,
  "xia wei yi ": 9393,
  "ba mian ": 9394,
  "cha bie ": 9395,
  " jin er ": 9396,
  "qu de fu ze guan xia ": 9397,
  "chu li qi ": 9398,
  "wai jiao guan ": 9399,
  "bao han le ": 9400,
  "oth": 9401,
  "wei zhong ": 9402,
  "xian li ": 9403,
  "zi ke ": 9404,
  "shu ren ": 9405,
  "shang ceng ": 9406,
  "lu zhan dui ": 9407,
  "bao dong ": 9408,
  "lai yuan yu ": 9409,
  "yue se fu ": 9410,
  "luo yang ": 9411,
  "fei yi ": 9412,
  " zhu zhang ": 9413,
  "one   ": 9414,
  "zhan zheng de ": 9415,
  "liang qi ": 9417,
  "shen chu ": 9418,
  "zhuan an ": 9419,
  " jin ri ": 9420,
  " si yue ": 9421,
  "xi tong zhong ": 9422,
  "zhi qian de ": 9423,
  "bu liao ": 9424,
  "ju hui ": 9425,
  "guan yin ": 9426,
  "xiao hao ": 9427,
  "shao de ": 9428,
  " fu luo ": 9429,
  "7 gong li ": 9430,
  "sa mo ": 9431,
  "110 ": 9432,
  " 60": 9433,
  " chong qing ": 9434,
  " a er bei si ": 9435,
  "yi pian ": 9436,
  "nian ji ": 9437,
  "bu dan ": 9438,
  "gong jian ": 9439,
  "xiang he ": 9440,
  "suo duan ": 9441,
  "ba sai er ": 9442,
  "tu lu ": 9443,
  "feng tian ": 9444,
  "han bao ": 9445,
  " ba xi ": 9446,
  " san shi ": 9447,
  "chu sheng zai ": 9448,
  " qiao zhi ": 9449,
  "60 nian ": 9450,
  "shi yin wei ": 9451,
  "de jin ": 9452,
  "   zhen ": 9453,
  "zhi cai ": 9454,
  "yu wu ": 9455,
  "ge guo jia ": 9456,
  "hui lai ": 9457,
  "le zai ": 9458,
  "xin xian ": 9459,
  "xin li xue ": 9460,
  "bo ji ": 9461,
  "zong zhang ": 9462,
  "pu sen ": 9463,
  " ju ti ": 9464,
  " shou lu ": 9465,
  " ben jie ": 9466,
  " L ": 9467,
  " zao qi ": 9468,
  "shi su ": 9469,
  "shen yuan ": 9470,
  "zui ming ": 9471,
  " zai zhong ": 9472,
  " qi chu ": 9473,
  " ji wei ": 9474,
  "te bie xing zheng qu ": 9475,
  " 1971 nian ": 9476,
  "jing wai shu ru ": 9477,
  "TE": 9478,
  "cuan ": 9479,
  "   ru guo ": 9480,
  "di bu ": 9481,
  "si qu ": 9482,
  "zhu gong ": 9483,
  "dao ta ": 9484,
  "zheng ji ": 9485,
  "jing yi ": 9486,
  "ming ni su ": 9487,
  "yao shi ": 9488,
  " hou yin ": 9489,
  " guo wang ": 9490,
  "icros": 9491,
  "e hai e zhou ": 9492,
  "di zi ": 9493,
  "ke   ": 9494,
  "tong qi ": 9495,
  "mei xiao shi ": 9496,
  " yi gong ": 9497,
  "ling mu ": 9498,
  "gu xi la ": 9499,
  "sai ma ": 9500,
  "fei qi ": 9501,
  "zong ti ": 9502,
  " dan bei ": 9503,
  " ye cheng wei ": 9504,
  "bao hu qu ": 9505,
  " 1951 nian ": 9506,
  "1988 nian ": 9507,
  "yu 2024 nian ": 9508,
  "yu 189": 9509,
  "AG": 9510,
  "Inter": 9511,
  "fa yin ": 9512,
  "jiu yi jing ": 9513,
  "qing hai ": 9514,
  "gu piao ": 9515,
  "kong ju ": 9516,
  "yi ge ren ": 9517,
  "tan hua ": 9518,
  "lang man ": 9519,
  " 1933 nian ": 9520,
  " N ": 9521,
  "a ji tan ": 9522,
  "6 yue 1 ri ": 9523,
  "6 nian 11 yue ": 9524,
  "gn ": 9525,
  " reng ran ": 9526,
  "an dong ni ": 9527,
  "a bu ": 9528,
  "ji wu ": 9529,
  "jin zhu ": 9530,
  "mei la ": 9531,
  "quan xin ": 9532,
  "san xiang ": 9533,
  " ji nian ": 9534,
  "kang zhan ": 9535,
  " wu xian ": 9536,
  "zhi zao shang ": 9537,
  "xiang dang yu ": 9538,
  " bei qi shun shi zhen ": 9539,
  "san jiao xing ": 9540,
  "3 nian 1": 9541,
  "83 nian ": 9542,
  "Ph": 9543,
  "ini": 9544,
  "e tu ": 9545,
  "ai na sheng ": 9546,
  "   hou lai ": 9547,
  "er yin ": 9548,
  "bei zhan ": 9549,
  "ying shu ": 9550,
  "dai er ": 9551,
  " yi si ": 9552,
  "cai fu ": 9553,
  "gui dian che ": 9554,
  "nv you ": 9555,
  "ore   ": 9556,
  " bao hu ": 9557,
  " gong gong ": 9558,
  " sheng chan ": 9559,
  " shi yi jia ": 9560,
  "xue xiao de ": 9561,
  "bin shi ": 9562,
  "ris": 9563,
  " 1930 nian ": 9564,
  "na cui de guo ": 9565,
  "52": 9566,
  "eor": 9567,
  "de chuan ": 9568,
  "you bao ": 9569,
  "er zhi ": 9570,
  "xi fu ": 9571,
  "hou shi ": 9572,
  "jiao wang ": 9573,
  "yan hu ": 9574,
  "tian qiao ": 9575,
  "tu xi ": 9576,
  "can zheng ": 9577,
  "gou ru ": 9578,
  "long lei ": 9579,
  "hun li ": 9580,
  "zhong yang wei yuan hui ": 9581,
  "ji hua he wu ": 9582,
  " fei chang ": 9583,
  " ping lun ": 9584,
  "ow ": 9585,
  "yu 2008 nian ": 9586,
  "zi ge sai ": 9587,
  "ā": 9588,
  "an ni ": 9589,
  "   xu ": 9590,
  "he zai ": 9591,
  "si jun ": 9592,
  "fang yi ": 9593,
  "xiao you ": 9594,
  "yong kang ": 9595,
  " yi jia ": 9596,
  "shen xue ": 9597,
  "wan li ": 9598,
  "lian shu ": 9599,
  "quan sheng ": 9600,
  "te ding de ": 9601,
  "bu fen de ": 9602,
  "lao ban ": 9603,
  " liang guo ": 9604,
  "SO": 9605,
  "chu qu ": 9606,
  "xiao shi de ": 9607,
  "mu hou ": 9608,
  "ling xing ": 9609,
  "cheng wei yi ge ": 9610,
  "de shi shi ": 9611,
  " da wei ": 9612,
  "kan jian ": 9613,
  "shuai xian ": 9614,
  "jue sai zhong ": 9615,
  "5 zhi ": 9616,
  "5 nian 1": 9617,
  "Y ": 9618,
  " zun ": 9619,
  "   X": 9620,
  "   fa zhan ": 9621,
  "zhi ren ": 9622,
  "zhong hui ": 9623,
  "jia re ": 9624,
  "ri er man ": 9625,
  "suo mu ": 9626,
  "bo kuan ": 9627,
  "gang de ": 9628,
  " da liang ": 9629,
  " gong ye ": 9630,
  " mei ri ": 9631,
  " fen wei ": 9632,
  "ying guo de ": 9633,
  " gu ci ": 9634,
  "tie lu ju ": 9635,
  "20 nian dai ": 9636,
  " I ": 9637,
  "zui hou yi ge ": 9638,
  "   lai ": 9639,
  "   guang xu ": 9640,
  "gong ke ": 9641,
  "fu shu ji ": 9642,
  "nan yan yuan ": 9643,
  "can ji ren ": 9644,
  "8 gong li ": 9645,
  "ann": 9646,
  "10 ge ": 9647,
  " ti yu ": 9648,
  "zhong guo de te you ": 9649,
  "liao ning sheng ": 9650,
  "ty ": 9651,
  "  W": 9652,
  "ge luo ": 9653,
  "sheng qian ": 9654,
  "jia qi ": 9655,
  "shou jie ": 9656,
  "yan bian ": 9657,
  "fen ju ": 9658,
  "jiang gai ": 9659,
  "gou de ": 9660,
  " 2 yue ": 9661,
  " 1943 nian ": 9662,
  " mian dian ": 9663,
  "fa lan xi da qu ": 9664,
  "6 nian 1": 9665,
  "yi bian ": 9666,
  "guo xiao ": 9667,
  "xi su ": 9668,
  "sheng di ": 9669,
  "zhu mu ": 9670,
  "zhan bi ": 9671,
  " ta cong ": 9672,
  "zong gong ": 9673,
  "che chu ": 9674,
  "cai ji ": 9675,
  "hong shi zi ": 9676,
  " wu han ": 9677,
  "nai er ": 9678,
  "63": 9679,
  "UR": 9680,
  "ee ": 9681,
  "zhi pin ": 9682,
  "li shi de ": 9683,
  "jian ju ": 9684,
  "jin men ": 9685,
  "ye na ": 9686,
  " you ji ": 9687,
  "lin yu ": 9688,
  "chuan zhu ": 9689,
  "han liang ": 9690,
  " er qi ": 9691,
  "tou yu ": 9692,
  "shao wei ": 9693,
  " xia wu ": 9694,
  " 1936 nian ": 9695,
  "1 nian 1": 9696,
  "BC ": 9697,
  "SM": 9698,
  "beg": 9699,
  "yi zhan ": 9700,
  "li wen ": 9701,
  "jian ruo ": 9702,
  "fu zong tong ": 9703,
  "ke yan ": 9704,
  "liu wang ": 9705,
  "bo gen di ": 9706,
  "fan xiang ": 9707,
  "xiu shi ": 9708,
  " G ": 9709,
  " qi xi zai di ": 9710,
  "icrosof": 9711,
  "at ": 9712,
  "yi lan ": 9713,
  "bu lang ": 9714,
  "gong bu de ": 9715,
  "da jiang jun ": 9716,
  "si miao ": 9717,
  "jiu ke yi ": 9718,
  "ban dian ": 9719,
  "quan zhou ": 9720,
  " ta cheng wei ": 9721,
  "ze yu ": 9722,
  "shi yi lai ": 9723,
  "bie shu ": 9724,
  "sa ke si tan ": 9725,
  "di er ge ": 9726,
  "zi you dang ": 9727,
  " lian xu ": 9728,
  " 150": 9729,
  "xing cheng le ": 9730,
  "yu 2007 nian ": 9731,
  "an fu ": 9732,
  "   yang ": 9733,
  "bu bei ": 9734,
  "zi zai ": 9735,
  "jing he ": 9736,
  "hou cai ": 9737,
  "ying hua ": 9738,
  "bo ying ": 9739,
  "de yi ji ": 9740,
  "rong ye ": 9741,
  " tong zhi ": 9742,
  "6 hao ": 9743,
  "tuo er ": 9744,
  " qi zhong you ": 9745,
  " jiang shu ": 9746,
  " fen lan ": 9747,
  "de he xin ": 9748,
  "si ling yuan ": 9749,
  "fa xian le ci tian ti ": 9750,
  "qing hua da xue ": 9751,
  "de lei ": 9752,
  "di hai ": 9753,
  "di shi yi ": 9754,
  "bu ke neng ": 9755,
  "cheng men ": 9756,
  "fu yuan ": 9757,
  "jin lai ": 9758,
  "xue he ": 9759,
  "jun zheng ": 9760,
  "lian ai ": 9761,
  "xun de ": 9762,
  "are   ": 9763,
  " zong jiao ": 9764,
  "guan xi de ": 9765,
  " ben ming ": 9766,
  "in   the   ": 9767,
  "beng kui ": 9768,
  "dian qi hua ": 9769,
  "gong ping ": 9770,
  "ju mian ": 9771,
  "shang hui ": 9772,
  "xin xin ": 9773,
  "geng ming ": 9774,
  "kan deng ": 9775,
  " zhu ti ": 9776,
  " xian yi ": 9777,
  "zuo pin zhong ": 9778,
  " mo xi ge ": 9779,
  "yin du ni xi ya ": 9780,
  "feng ge de ": 9781,
  "94": 9782,
  "ili": 9783,
  "ll": 9784,
  "bu ya ": 9785,
  "fu fei ": 9786,
  "xian ding ": 9787,
  "wu he ": 9788,
  "jie dai ": 9789,
  "fa zhi ": 9790,
  "fa zhong ": 9791,
  "shou ying ": 9792,
  "du cha ": 9793,
  "kai pi ": 9794,
  "gu si ": 9795,
  "ben zuo ": 9796,
  "liu jing ": 9797,
  "huan de ": 9798,
  " bu shi ": 9799,
  "​": 9800,
  " xiang dang yu ": 9801,
  "150": 9802,
  "   1945 nian ": 9803,
  "you yuan ": 9804,
  "bu huo ": 9805,
  "sheng qi ": 9806,
  "she xiang ": 9807,
  "dian ti ": 9808,
  "gai xiao ": 9809,
  "te he ": 9810,
  " 12": 9811,
  " bu lang ": 9812,
  " xi bao ": 9813,
  "cao yuan ": 9814,
  " jing nei ": 9815,
  "de sheng yin ": 9816,
  "ke ji da xue ": 9817,
  "kang ri zhan zheng ": 9818,
  "sai bai jiang ": 9819,
  "ate   ": 9820,
  "fli": 9821,
  "an sha ": 9822,
  "yi kai shi ": 9823,
  "li yuan ": 9824,
  "di ke ": 9825,
  "sheng yuan ": 9826,
  "zhu zha ": 9827,
  "ci zhan ": 9828,
  "fan pai ": 9829,
  "deng shi ": 9830,
  "sa leng ": 9831,
  " fan er ": 9832,
  "jian dan de ": 9833,
  "zhan lie jian ": 9834,
  "CP": 9835,
  " v": 9836,
  "   hui ": 9837,
  "   song ": 9838,
  "xi di ": 9839,
  "jie kou ": 9840,
  "zuo ci ": 9841,
  "ye ti ": 9842,
  "she tuan ": 9843,
  "zhang shi jian ": 9844,
  "ping shi ": 9845,
  "bi si ": 9846,
  "dan ni ": 9847,
  " qi xia ": 9848,
  "de yi ban ": 9849,
  " ji lu ": 9850,
  "tuo lei ": 9851,
  "de di tie ": 9852,
  "sun huai ": 9853,
  "pao ta ": 9854,
  "1993 nian ": 9855,
  "inclu": 9856,
  "92": 9857,
  "ern": 9858,
  "cheng fa ": 9859,
  "yan qi ": 9860,
  "ping pang ": 9861,
  "mian yu ": 9862,
  "shui wei ": 9863,
  " bo shi ": 9864,
  "1972 nian ": 9865,
  "jiao hui chu ": 9866,
  "ren kou shu liang wei ": 9867,
  "tou ru shi yong ": 9868,
  "DR": 9869,
  "a bo ": 9870,
  "zhi pai ": 9871,
  "xian chu ": 9872,
  "xian qu ": 9873,
  "jin xiu ": 9874,
  "hua fei ": 9875,
  "ye ke ": 9876,
  "jun fu ": 9877,
  "wan zai ": 9878,
  "luo na ": 9879,
  "fan di ": 9880,
  "feng ming ": 9881,
  " bing dui ": 9882,
  "mo li ": 9883,
  "cai shi ": 9884,
  "de yi si ": 9885,
  " di wu ": 9886,
  "ke yi yong ": 9887,
  "qiao chu ": 9888,
  "hen nan ": 9889,
  " sui ji ": 9890,
  "dao zhi le ": 9891,
  " 1962 nian ": 9892,
  "nian qing de ": 9893,
  "1 shi ": 9894,
  "4 zhi ": 9895,
  "6   ": 9896,
  "ly   ": 9897,
  "qi tu ": 9898,
  "bu gan ": 9899,
  "jie tou ": 9900,
  "dian xing ": 9901,
  "suo jian ": 9902,
  "te wei ": 9903,
  "fan chuan ": 9904,
  " dan yin wei ": 9905,
  "cai na ": 9906,
  "bai e luo si ": 9907,
  " jin ci yu ": 9908,
  "ke yi shi ": 9909,
  " dong fang ": 9910,
  " sheng ya ": 9911,
  "cheng yuan guo ": 9912,
  " shi ji mo ": 9913,
  " 1961 nian ": 9914,
  " 1969 nian ": 9915,
  "9 nian 12 yue ": 9916,
  "Z ": 9917,
  "ji zu ": 9918,
  "zhi an ": 9919,
  "zhi ling ": 9920,
  "zhi bi ": 9921,
  "zhong xiao ": 9922,
  "zhu she ": 9923,
  "ci zi ": 9924,
  "guan mu ": 9925,
  "yin cang ": 9926,
  "dai zhe ": 9927,
  "min zheng ": 9928,
  "pai wang ": 9929,
  "huang he ": 9930,
  " bu di ": 9931,
  "xiong zhang ": 9932,
  "you yi ding ": 9933,
  "dong bu da qu ": 9934,
  " 1927 nian ": 9935,
  "fu luo li da zhou ": 9936,
  "ji luo ": 9937,
  "ji li ya ": 9938,
  "zhi xi ": 9939,
  "he zhong guo ": 9940,
  "shang fa lan xi da qu ": 9941,
  "yin you ": 9942,
  " yi ren ": 9943,
  " yi shuo ": 9944,
  "biao zhang ": 9945,
  "dang nei ": 9946,
  " zhi ci ": 9947,
  " jin tian ": 9948,
  "cang ku ": 9949,
  " 1965 nian ": 9950,
  "fa dian chang ": 9951,
  " liao ning ": 9952,
  " nie ": 9953,
  "xiang wang ": 9954,
  "jing cheng ": 9955,
  "kai xing ": 9956,
  "liu fang ": 9957,
  " zai gai ": 9958,
  "ba lei ": 9959,
  "shui xian ": 9960,
  "pu er ": 9961,
  " zhe chang ": 9962,
  " ci qian ": 9963,
  "rui ke ": 9964,
  " xia xia ": 9965,
  "de li liang ": 9966,
  "ji zhong zai ": 9967,
  "rou shi xing ": 9968,
  "chai you ji che ": 9969,
  " a la bo ": 9970,
  "58 nian ": 9971,
  "93 ": 9972,
  "e jun ": 9973,
  "   14": 9974,
  "chu fang ": 9975,
  "shang kong ": 9976,
  "dong feng ": 9977,
  "tai he ": 9978,
  "zui ju ": 9979,
  "ze ren wei ": 9980,
  "de yi suo ": 9981,
  "qiang po ": 9982,
  "xiu si ": 9983,
  "6 ming ": 9984,
  "kai shi le ": 9985,
  "pa er ": 9986,
  " gao xiong ": 9987,
  "wei ji bai ke ": 9988,
  "50 wan ": 9989,
  "   1997 nian ": 9990,
  "huang jia hai jun ": 9991,
  "NBA": 9992,
  "shou hai zhe ": 9993,
  "CR": 9994,
  "yle ": 9995,
  " nong ye ": 9996,
  "bu qi ": 9997,
  "ge you ": 9998,
  "xiao zhen ": 9999,
  "hai yao ": 10000,
  "qing fu ": 10001,
  " yi yu ": 10002,
  "luo er ": 10003,
  "jue xin ": 10004,
  "lun shu ": 10005,
  "huan you ": 10006,
  "pin qing ": 10007,
  "geng hao ": 10008,
  " di shi ": 10009,
  " ge ren ": 10010,
  "ine   ": 10011,
  "jue se de ": 10012,
  "yu 2006 nian ": 10013,
  "ji yuan ": 10014,
  "ju zi ": 10015,
  "yong di ": 10016,
  "mu biao shi ": 10017,
  "qing xie ": 10018,
  "chuan fo jiao ": 10019,
  " yu qi ": 10020,
  "chong feng ": 10021,
  "tang na ": 10022,
  " zhu jian ": 10023,
  "   1998 nian ": 10024,
  "gao deng xue xiao ": 10025,
  "6 shi ": 10026,
  "wei la ": 10027,
  "zhi 195": 10028,
  "jian mian ": 10029,
  "jia na ": 10030,
  "jin le ": 10031,
  "dui li ": 10032,
  "dian li ji ": 10033,
  "hai bao ": 10034,
  "te zhong ": 10035,
  "ni ao ": 10036,
  "xun hui yan chang hui ": 10037,
  "98 ": 10038,
  "ID": 10039,
  "yu di ": 10040,
  "bu dong ": 10041,
  "fu la ": 10042,
  "ke lun ": 10043,
  "jin qi ": 10044,
  "tong hang ": 10045,
  "dai zhi ": 10046,
  "xie gen ": 10047,
  "ma lu ": 10048,
  "pai xu ": 10049,
  "sui pian ": 10050,
  "chong xiu ": 10051,
  "huang pu ": 10052,
  "zheng zhi bu ": 10053,
  "miao zhun ": 10054,
  " sheng ren ": 10055,
  "chou ke ": 10056,
  "luo ma tian zhu jiao ": 10057,
  "you guan de ": 10058,
  " mao ze dong ": 10059,
  "56 nian ": 10060,
  "ate ": 10061,
  "ail": 10062,
  "he yuan ": 10063,
  "jing jie ": 10064,
  "du xing ": 10065,
  "bao lei ": 10066,
  "san ceng ": 10067,
  "ba ba ": 10068,
  "ting liu ": 10069,
  "zhao hui ": 10070,
  " gai wu zhong de ": 10071,
  " li mi ": 10072,
  "po hai ": 10073,
  " xin jiang ": 10074,
  "olog": 10075,
  "50 mi ": 10076,
  "xiang ta ": 10077,
  "liang duan ": 10078,
  "ding lv ": 10079,
  "bai huo ": 10080,
  " xi lin ": 10081,
  "hei an ": 10082,
[...]
