{
  "!": 0,
  "\"": 1,
  "#": 2,
  "$": 3,
  "%": 4,
  "&": 5,
  "'": 6,
  "(": 7,
  ")": 8,
  "*": 9,
  "+": 10,
  ",": 11,
  "-": 12,
  ".": 13,
  "/": 14,
  "0": 15,
  "1": 16,
  "2": 17,
  "3": 18,
  "4": 19,
  "5": 20,
  "6": 21,
  "7": 22,
  "8": 23,
  "9": 24,
  ":": 25,
  ";": 26,
  "=": 27,
  "?": 28,
  "@": 29,
  "A": 30,
  "B": 31,
  "C": 32,
  "D": 33,
  "E": 34,
  "F": 35,
  "G": 36,
  "H": 37,
  "I": 38,
  "J": 39,
  "K": 40,
  "L": 41,
  "M": 42,
  "N": 43,
  "O": 44,
  "P": 45,
  "Q": 46,
  "R": 47,
  "S": 48,
  "T": 49,
  "U": 50,
  "V": 51,
  "W": 52,
  "X": 53,
  "Y": 54,
  "Z": 55,
  "[": 56,
  "\\": 57,
  "]": 58,
  "^": 59,
  "_": 60,
  "`": 61,
  "a": 62,
  "b": 63,
  "c": 64,
  "d": 65,
  "e": 66,
  "f": 67,
  "g": 68,
  "h": 69,
  "i": 70,
  "j": 71,
  "k": 72,
  "l": 73,
  "m": 74,
  "n": 75,
  "o": 76,
  "p": 77,
  "q": 78,
  "r": 79,
  "s": 80,
  "t": 81,
  "u": 82,
  "v": 83,
  "w": 84,
  "x": 85,
  "y": 86,
  "z": 87,
  "|": 88,
  "~": 89,
  "\n": 162,
  " ": 163,
  "": 164,
  "4 ": 199,
  "2 ": 200,
  "1 ": 201,
  "ng": 202,
  "3 ": 203,
  "i4 ": 204,
  "an": 205,
  "sh": 206,
  "zh": 207,
  "ng1 ": 208,
  "ji": 209,
  "u4 ": 210,
  "ng2 ": 211,
  "  ": 212,
  "i2 ": 213,
  "ao": 214,
  "xi": 215,
  "ng4 ": 216,
  "an2 ": 217,
  "i3 ": 218,
  "i1 ": 219,
  "de": 220,
  "u3 ": 221,
  "an4 ": 222,
  "e4 ": 223,
  "en": 224,
  "ch": 225,
  "uo": 226,
  "de ": 227,
  "u2 ": 228,
  "ng3 ": 229,
  "an1 ": 230,
  "e2 ": 231,
  "ai4 ": 232,
  "u1 ": 233,
  "ong1 ": 234,
  "a1 ": 235,
  "   ": 236,
  "shi4 ": 238,
  "ei4 ": 239,
  "ao4 ": 240,
  "ian2 ": 241,
  "a4 ": 242,
  "yu": 243,
  "ang1 ": 244,
  "yo": 245,
  "an3 ": 246,
  "n1 ": 247,
  "hu": 248,
  "ang4 ": 249,
  "nian2 ": 250,
  "en2 ": 251,
  "li": 252,
  "ang3 ": 253,
  "eng2 ": 254,
  "uo4 ": 255,
  "uo2 ": 256,
  "wei4 ": 257,
  "mi": 258,
  "ao3 ": 259,
  "zai4 ": 260,
  "、": 261,
  "bi": 262,
  "qi": 263,
  "ang2 ": 264,
  "e1 ": 265,
  "he2 ": 266,
  "yi": 267,
  "eng1 ": 268,
  "zhong1 ": 269,
  "er": 270,
  "bu4 ": 271,
  "ou4 ": 272,
  "a3 ": 273,
  "e3 ": 274,
  "n4 ": 275,
  "shi2 ": 276,
  "di4 ": 277,
  "guo2 ": 278,
  "ai2 ": 279,
  "ui4 ": 280,
  "ren2 ": 281,
  "ao1 ": 282,
  "xu": 283,
  "yi1 ": 284,
  "n2 ": 285,
  "ong2 ": 286,
  "yu2 ": 287,
  "gu": 288,
  "li4 ": 289,
  "zhi4 ": 290,
  "di": 291,
  "we": 292,
  "en4 ": 293,
  "cheng2 ": 294,
  "ong4 ": 295,
  "yi4 ": 296,
  "gong1 ": 297,
  "ji2 ": 298,
  "eng4 ": 299,
  "en1 ": 300,
  "yue4 ": 301,
  "you3 ": 302,
  " nian2 ": 303,
  "yuan2 ": 304,
  "da4 ": 305,
  "a2 ": 306,
  "le": 307,
  "ji4 ": 308,
  "20": 309,
  "yi3 ": 310,
  "ju": 311,
  "ai1 ": 312,
  "pi": 313,
  "xian4 ": 314,
  "ou1 ": 315,
  "jia1 ": 316,
  " t": 317,
  "si1 ": 318,
  "xing2 ": 319,
  "ei3 ": 320,
  " zh": 321,
  "yu3 ": 322,
  "ji1 ": 323,
  "ri4 ": 324,
  "hou4 ": 325,
  "li3 ": 326,
  "ou3 ": 327,
  "ai3 ": 328,
  " d": 329,
  "ti": 330,
  "wei2 ": 331,
  "hui4 ": 332,
  "19": 333,
  "ong3 ": 334,
  "zhi1 ": 335,
  "qi2 ": 336,
  "uan2 ": 337,
  "dao4 ": 338,
  "ming2 ": 339,
  "xi1 ": 340,
  "ao2 ": 341,
  "jian4 ": 342,
  "xue2 ": 343,
  "chu1 ": 344,
  "ge4 ": 345,
  "zuo4 ": 346,
  "zheng4 ": 347,
  "uo1 ": 348,
  "sheng1 ": 349,
  "you2 ": 350,
  "uo3 ": 351,
  "qu1 ": 352,
  "shang4 ": 353,
  "le ": 354,
  "en3 ": 355,
  "de2 ": 356,
  "bei4 ": 357,
  "shi3 ": 358,
  "dui4 ": 359,
  "n3 ": 360,
  " ji": 361,
  "zhan4 ": 362,
  "xin1 ": 363,
  "jun1 ": 364,
  "zhu": 365,
  "er3 ": 366,
  "she4 ": 367,
  "ren4 ": 368,
  "fa1 ": 369,
  "wu4 ": 370,
  "bing4 ": 371,
  "ke4 ": 372,
  "er2 ": 373,
  "lu4 ": 374,
  "yi2 ": 375,
  "shu4 ": 376,
  "ju4 ": 377,
  "zi4 ": 378,
  "yin1 ": 379,
  "fu4 ": 380,
  "fang1 ": 381,
  "nan2 ": 382,
  " g": 383,
  "hua4 ": 384,
  "dai4 ": 385,
  "ping2 ": 386,
  "xia4 ": 387,
  "ta1 ": 388,
  "lai2 ": 389,
  "yong4 ": 390,
  "0 ": 391,
  "jin4 ": 392,
  "guan1 ": 393,
  "yu4 ": 394,
  "zhu3 ": 395,
  "》": 396,
  "《": 397,
  "zhou1 ": 398,
  " shi4 ": 399,
  "fa3 ": 400,
  "mei3 ": 401,
  "jing1 ": 402,
  " b": 403,
  "·": 404,
  " h": 405,
  "zhu4 ": 406,
  "jian1 ": 407,
  "xiang1 ": 408,
  "xiang4 ": 409,
  "min2 ": 410,
  "dong4 ": 411,
  "qi1 ": 412,
  "fen1 ": 413,
  "shou3 ": 414,
  "quan2 ": 415,
  "wen2 ": 416,
  "yan2 ": 417,
  "suo3 ": 418,
  "qian2 ": 419,
  "dian4 ": 420,
  "bo": 421,
  "zui4 ": 422,
  " zai4 ": 423,
  "ben3 ": 424,
  "kai1 ": 425,
  "lian2 ": 426,
  " ta1 ": 427,
  "jiao4 ": 428,
  "zhi2 ": 429,
  "xi4 ": 430,
  "ke3 ": 431,
  "eng3 ": 432,
  "ei1 ": 433,
  "te4 ": 434,
  "mu4 ": 435,
  "ye4 ": 436,
  "shu": 437,
  "fu2 ": 438,
  "ma3 ": 439,
  "ye3 ": 440,
  "tong2 ": 441,
  "qiu2 ": 442,
  "「": 443,
  "」": 444,
  "jiang1 ": 445,
  "du4 ": 446,
  "duo1 ": 447,
  " yue4 ": 448,
  "ya4 ": 449,
  " c": 450,
  "ou2 ": 451,
  "huo4 ": 452,
  "un2 ": 453,
  "mian4 ": 454,
  "jie2 ": 455,
  "shi1 ": 456,
  "nei4 ": 457,
  " s": 458,
  "du": 459,
  "xing4 ": 460,
  "zhi3 ": 461,
  "201": 462,
  "deng3 ": 463,
  "yao4 ": 464,
  "zhang3 ": 465,
  "che1 ": 466,
  "sai4 ": 467,
  "guo4 ": 468,
  "mo": 469,
  "ru4 ": 470,
  "jie1 ": 471,
  "wu3 ": 472,
  "gao1 ": 473,
  "ku": 474,
  "ding4 ": 475,
  "chang2 ": 476,
  "bei3 ": 477,
  " ri4 ": 478,
  "dong1 ": 479,
  "la1 ": 480,
  "biao3 ": 481,
  "ge2 ": 482,
  "shou4 ": 483,
  "shan1 ": 484,
  "chang3 ": 485,
  "lv": 486,
  "ze2 ": 487,
  "hai3 ": 488,
  " bing4 ": 489,
  "ke1 ": 490,
  "ci4 ": 491,
  "neng2 ": 492,
  "er4 ": 493,
  "wai4 ": 494,
  "ei2 ": 495,
  " 19": 496,
  "chu": 497,
  "tai2 ": 498,
  "qi3 ": 499,
  "ti3 ": 500,
  "zi": 501,
  "jie4 ": 502,
  "kou3 ": 503,
  "san1 ": 504,
  "xiao3 ": 505,
  " de ": 506,
  "zu3 ": 507,
  "jue2 ": 508,
  "lin2 ": 509,
  "liu2 ": 510,
  "ni": 511,
  "sheng3 ": 512,
  "ying1 ": 513,
  "dao3 ": 514,
  "lan2 ": 515,
  "luo2 ": 516,
  "gong4 ": 517,
  " 1": 518,
  "jin1 ": 519,
  "ti2 ": 520,
  "zhe3 ": 521,
  "si4 ": 522,
  "shu3 ": 523,
  "yi2 ge4 ": 524,
  " dan4 ": 525,
  "200": 526,
  "lie4 ": 527,
  "qi4 ": 528,
  "cheng1 ": 529,
  "shu1 ": 530,
  "yuan4 ": 531,
  "zhong4 ": 532,
  "zhen4 ": 533,
  "dan1 ": 534,
  "fu3 ": 535,
  " wei4 ": 536,
  "zhong3 ": 537,
  "feng1 ": 538,
  "mi3 ": 539,
  "qing1 ": 540,
  "shen1 ": 541,
  "wang2 ": 542,
  "ci3 ": 543,
  "yun4 ": 544,
  "guan3 ": 545,
  "fei1 ": 546,
  "bi3 ": 547,
  "ba1 ": 548,
  "liang3 ": 549,
  "tong1 ": 550,
  "mei2 ": 551,
  "fen4 ": 552,
  "su": 553,
  "yan3 ": 554,
  "wei3 ": 555,
  "bao3 ": 556,
  "zong3 ": 557,
  "xuan3 ": 558,
  " qi2 ": 559,
  "xiao4 ": 560,
  "na4 ": 561,
  "tai4 ": 562,
  "liang4 ": 563,
  "tian1 ": 564,
  " er2 ": 565,
  "zu2 ": 566,
  "ni2 ": 567,
  "wu2 ": 568,
  "zhong1 guo2 ": 569,
  "hua2 ": 570,
  "da2 ": 571,
  "yue1 ": 572,
  "gu3 ": 573,
  "tong3 ": 574,
  "ying3 ": 575,
  "bian4 ": 576,
  " zhe4 ": 577,
  "xing1 ": 578,
  "zhe4 ": 579,
  "jing4 ": 580,
  "shui3 ": 581,
  "zi ": 582,
  "yang2 ": 583,
  "jiao1 ": 584,
  " yi3 ": 585,
  "men": 586,
  "bao4 ": 587,
  " r": 588,
  "su4 ": 589,
  "dian3 ": 590,
  "jiu4 ": 591,
  "bo1 ": 592,
  "bian1 ": 593,
  "wang3 ": 594,
  "qu3 ": 595,
  "0 nian2 ": 596,
  "hao4 ": 597,
  "chan3 ": 598,
  "mei3 guo2 ": 599,
  "zi1 ": 600,
  "qu": 601,
  "chuan2 ": 602,
  "ban4 ": 603,
  "nv": 604,
  "sheng4 ": 605,
  "ceng2 ": 606,
  "se4 ": 607,
  "5 ": 608,
  "xu4 ": 609,
  "pu3 ": 610,
  "ge1 ": 611,
  "dang1 ": 612,
  "nv3 ": 613,
  "ling4 ": 614,
  "luo4 ": 615,
  "bo2 ": 616,
  "1 nian2 ": 617,
  "you4 ": 618,
  "can1 ": 619,
  "gai1 ": 620,
  "cha2 ": 621,
  "bi4 ": 622,
  " you2 ": 623,
  "chi2 ": 624,
  "gang3 ": 625,
  "5 nian2 ": 626,
  "2 nian2 ": 627,
  "lv4 ": 628,
  "qian1 ": 629,
  "4 nian2 ": 630,
  "ren2 kou3 ": 631,
  "e ": 632,
  "tu2 ": 633,
  "li2 ": 634,
  "ce4 ": 635,
  "3 nian2 ": 636,
  "hu4 ": 637,
  "8 nian2 ": 638,
  "kuo4 ": 639,
  "lu": 640,
  "sha1 ": 641,
  "tou2 ": 642,
  "fan3 ": 643,
  "lei4 ": 644,
  "xi2 ": 645,
  "zheng1 ": 646,
  "wei1 ": 647,
  "xie1 ": 648,
  "dang3 ": 649,
  "6 nian2 ": 650,
  "ling3 ": 651,
  "long2 ": 652,
  "gou4 ": 653,
  "gui1 ": 654,
  "xian1 ": 655,
  "un1 ": 656,
  "gai3 ": 657,
  "huang2 ": 658,
  "xiang3 ": 659,
  "ying4 ": 660,
  " yin1 ": 661,
  "men2 ": 662,
  "shang1 ": 663,
  "shen2 ": 664,
  "7 nian2 ": 665,
  "ka3 ": 666,
  "tuan2 ": 667,
  "mu3 ": 668,
  "202": 669,
  " ch": 670,
  "zhang1 ": 671,
  "fu1 ": 672,
  "ju3 ": 673,
  "mo2 ": 674,
  "dou1 ": 675,
  "guang3 ": 676,
  "shuo1 ": 677,
  "qing2 ": 678,
  "rong2 ": 679,
  "cong2 ": 680,
  "jing3 ": 681,
  "ban1 ": 682,
  " he2 ": 683,
  "pin3 ": 684,
  "ban3 ": 685,
  "mo4 ": 686,
  " zhong1 ": 687,
  " bu4 ": 688,
  "ying2 ": 689,
  "wo": 690,
  "zhan3 ": 691,
  "po": 692,
  "ui1 ": 693,
  "hui2 ": 694,
  "zhuang1 ": 695,
  "mi4 ": 696,
  "bao1 ": 697,
  "jiu3 ": 698,
  "wan4 ": 699,
  "pai2 ": 700,
  "wan1 ": 701,
  "zao4 ": 702,
  "ci2 ": 703,
  "6 ": 704,
  "ran2 ": 705,
  " gai1 ": 706,
  "ting2 ": 707,
  "wan2 ": 708,
  "duan4 ": 709,
  "biao1 ": 710,
  "lun2 ": 711,
  "xie2 ": 712,
  "ju2 ": 713,
  "du2 ": 714,
  "fan4 ": 715,
  "fang2 ": 716,
  "ru2 ": 717,
  "ji3 ": 718,
  " ji2 ": 719,
  "kong1 ": 720,
  "tiao2 ": 721,
  "cai2 ": 722,
  "meng2 ": 723,
  "hang2 ": 724,
  "bie2 ": 725,
  "chao2 ": 726,
  "wu1 ": 727,
  "yin3 ": 728,
  "shi3 yong4 ": 729,
  "da4 xue2 ": 730,
  "xu1 ": 731,
  "huo2 ": 732,
  "cheng2 wei2 ": 733,
  "gong1 si1 ": 734,
  "zheng4 fu3 ": 735,
  "1 yue4 ": 736,
  "00 ": 737,
  "9 nian2 ": 738,
  "tang2 ": 739,
  "bing1 ": 740,
  "ming4 ": 741,
  "di4 qu1 ": 742,
  "ling2 ": 743,
  "tie3 ": 744,
  "8 ": 745,
  "10 ": 746,
  "jiang3 ": 747,
  " yi1 ": 748,
  "jie3 ": 749,
  "qin1 ": 750,
  "guo2 jia1 ": 751,
  "   19": 752,
  "zi3 ": 753,
  "lun4 ": 754,
  "kai1 shi3 ": 755,
  "2 yue4 ": 756,
  "or": 757,
  "xin4 ": 758,
  "xiu1 ": 759,
  " di4 ": 760,
  "a ": 761,
  "jian3 ": 762,
  "zong1 ": 763,
  "dan4 ": 764,
  "que4 ": 765,
  "han4 ": 766,
  "xiao1 ": 767,
  "chu4 ": 768,
  "jin3 ": 769,
  "ping2 fang1 ": 770,
  "jia4 ": 771,
  "qiang2 ": 772,
  "7 ": 773,
  "qu4 ": 774,
  "hai2 ": 775,
  "zhuan1 ": 776,
  "pian4 ": 777,
  "han2 ": 778,
  "chen2 ": 779,
  " yu2 ": 780,
  "zhen1 ": 781,
  "ke3 yi3 ": 782,
  "e   ": 783,
  "fang4 ": 784,
  " tong2 ": 785,
  "de yi1 ": 786,
  "jiu1 ": 787,
  " dang1 ": 788,
  "shou1 ": 789,
  "gong1 li3 ": 790,
  "cun1 ": 792,
  "jin4 xing2 ": 793,
  "guang1 ": 794,
  "xiang1 gang3 ": 795,
  "t ": 796,
  "bu4 fen4 ": 797,
  "ju1 ": 798,
  "chu3 ": 799,
  "gu4 ": 800,
  "chuang4 ": 801,
  "gen1 ": 802,
  "ren2 min2 ": 803,
  "mian4 ji1 ": 804,
  "xun4 ": 805,
  "man4 ": 806,
  "pai4 ": 807,
  "yan2 jiu1 ": 808,
  "hong2 ": 809,
  "fei4 ": 810,
  "wei4 yu2 ": 811,
  " yi4 ": 812,
  "18": 813,
  "pei4 ": 814,
  "guo3 ": 815,
  "ri4 ben3 ": 816,
  "xuan1 ": 817,
  "zhao4 ": 818,
  " huo4 ": 819,
  " 201": 820,
  "chong2 ": 821,
  "li4 shi3 ": 822,
  "on": 823,
  "su1 ": 824,
  " ye3 ": 825,
  "diao4 ": 826,
  "xia2 ": 827,
  "liu4 ": 828,
  "hu2 ": 829,
  "du1 ": 830,
  " yu3 ": 831,
  "hui1 ": 832,
  " hou4 ": 833,
  "mei2 you3 ": 834,
  " 200": 835,
  " da4 ": 836,
  "ren4 wei2 ": 837,
  "qie3 ": 838,
  "qiao2 ": 839,
  "shi4 jie4 ": 840,
  " zui4 ": 841,
  "zeng1 ": 842,
  "zhuan3 ": 843,
  " xi1 ": 844,
  "ar": 845,
  "xian3 ": 846,
  "mai4 ": 847,
  "huan2 ": 848,
  "xu3 ": 849,
  "di2 ": 850,
  "tuo1 ": 851,
  "wa3 ": 852,
  "wen4 ": 853,
  "ting1 ": 854,
  "jia3 ": 855,
  "geng4 ": 856,
  "liang2 ": 857,
  "da3 ": 858,
  "wei3 yuan2 ": 859,
  " you3 ": 860,
  "ya2 ": 861,
  " ci3 ": 862,
  "di4 yi1 ": 863,
  " shi2 ": 864,
  "shao3 ": 865,
  "gan3 ": 866,
  "yan4 ": 867,
  "qi2 ta1 ": 868,
  "lei2 ": 869,
  " l": 870,
  "huo4 de2 ": 871,
  "chuan1 ": 872,
  "tu3 ": 873,
  "yin4 ": 874,
  " li4 ": 875,
  "yun4 dong4 ": 876,
  "ta3 ": 877,
  "zao3 ": 878,
  "s ": 879,
  "yong3 ": 880,
  "1 ri4 ": 881,
  "deng1 ": 882,
  "fa3 guo2 ": 883,
  "cun2 ": 884,
  "zhuang4 ": 885,
  "bai2 ": 886,
  "xun2 ": 887,
  "jiao3 ": 888,
  "dian4 ying3 ": 889,
  "   201": 890,
  "nuo4 ": 891,
  "tian2 ": 892,
  "di3 ": 893,
  "   zai4 ": 894,
  "bai4 ": 895,
  "yu2 19": 896,
  "huan4 ": 897,
  "de yi2 ge4 ": 898,
  "gong1 zuo4 ": 899,
  "jiang4 ": 900,
  " qi2 zhong1 ": 901,
  "le4 ": 902,
  "tui1 ": 903,
  "bai3 ": 904,
  "zheng4 zhi4 ": 905,
  "cai3 ": 906,
  "zhun3 ": 907,
  "lv3 ": 908,
  "dai4 biao3 ": 909,
  "chao1 ": 910,
  "huo3 ": 911,
  "yang4 ": 912,
  "zhu1 ": 913,
  "9 ": 914,
  "qun2 ": 915,
  "zuo4 wei2 ": 916,
  "guo2 ji4 ": 917,
  "men ": 918,
  "si3 ": 919,
  "guan4 ": 920,
  "po4 ": 921,
  "gao4 ": 922,
  "sa4 ": 923,
  " ti": 924,
  "wo3 ": 925,
  "hua1 ": 926,
  "ke3 neng2 ": 927,
  "lei1 ": 928,
  "biao3 shi4 ": 929,
  " k": 930,
  "zhong1 xin1 ": 931,
  "bang1 ": 932,
  " xian4 ": 933,
  "lu3 ": 934,
  "kuang4 ": 935,
  " zhi1 ": 936,
  "dian4 shi4 ": 937,
  "zhu3 yao4 ": 938,
  "de shi4 ": 939,
  " p": 940,
  "chu2 ": 941,
  "xi4 tong3 ": 942,
  "nong2 ": 943,
  "shuang1 ": 944,
  " zi4 ": 945,
  "lian4 ": 946,
  "tai2 wan1 ": 947,
  "kuai4 ": 948,
  "in": 949,
  "ha1 ": 950,
  " wei4 yu2 ": 951,
  "dun4 ": 952,
  "he2 guo2 ": 953,
  "di4 er4 ": 954,
  "gang1 ": 955,
  " xin1 ": 956,
  "ying1 guo2 ": 957,
  "hao3 ": 958,
  " bei4 ": 959,
  "shi2 jian1 ": 960,
  "xie3 ": 961,
  "che1 zhan4 ": 962,
  "7 yue4 ": 963,
  "shi4 de ": 964,
  "fa1 xian4 ": 965,
  "xing2 zheng4 ": 966,
  "song4 ": 967,
  "sui2 ": 968,
  "9 yue4 ": 969,
  "s   ": 970,
  "hen3 ": 971,
  "wang4 ": 972,
  "pi1 ": 973,
  "liao4 ": 974,
  "zuo3 ": 975,
  "8 yue4 ": 976,
  "gei3 ": 977,
  "yang1 ": 978,
  " bao1 ": 979,
  "cheng2 li4 ": 980,
  "3 yue4 ": 981,
  "fa1 zhan3 ": 982,
  " jiang1 ": 983,
  "tao2 ": 984,
  "pan4 ": 985,
  "zi4 ji3 ": 986,
  "qi1 jian1 ": 987,
  "yin2 ": 988,
  "bao1 kuo4 ": 990,
  " nan2 ": 991,
  "she4 ji4 ": 992,
  " dui4 ": 993,
  " ru2 ": 994,
  "zhong1 de ": 995,
  "zheng3 ": 996,
  "ta1 de ": 997,
  "di1 ": 998,
  " yuan2 ": 999,
  "piao4 ": 1000,
  "ya1 ": 1001,
  "shi2 qi1 ": 1002,
  "5 yue4 ": 1003,
  "she4 hui4 ": 1004,
  "jian4 zhu4 ": 1005,
  "bin1 ": 1006,
  "—": 1007,
  "6 yue4 ": 1008,
  "kong4 ": 1009,
  " dong1 ": 1010,
  "jun4 ": 1011,
  "sai1 ": 1012,
  "zu3 zhi1 ": 1013,
  " yin1 ci3 ": 1014,
  "sui4 ": 1015,
  "yi3 ji2 ": 1016,
  "ul": 1017,
  "gai4 ": 1018,
  "sen1 ": 1019,
  "chang4 ": 1020,
  " zhi4 ": 1021,
  "re4 ": 1022,
  "4 yue4 ": 1023,
  "yang3 ": 1024,
  "xue2 yuan4 ": 1025,
  " 2": 1026,
  "yao1 ": 1027,
  "cheng2 shi4 ": 1028,
  "zhi1 yi1 ": 1029,
  " jin1 ": 1030,
  "bei1 ": 1031,
  "wei3 yuan2 hui4 ": 1032,
  "lou2 ": 1033,
  "kao3 ": 1034,
  "xian2 ": 1035,
  "wen2 hua4 ": 1036,
  " fu4 ": 1037,
  "ying3 xiang3 ": 1038,
  "12 yue4 ": 1039,
  "shu3 yu2 ": 1040,
  " zheng4 ": 1041,
  "xie4 ": 1042,
  "li4 ya4 ": 1043,
  "10 yue4 ": 1044,
  "nian4 ": 1045,
  "bu3 ": 1046,
  "for": 1047,
  "you1 ": 1048,
  "dan1 ren4 ": 1049,
  "ping2 fang1 gong1 li3 ": 1050,
  "you2 xi4 ": 1051,
  " zhu3 ": 1052,
  "bu4 tong2 ": 1053,
  "de di4 ": 1054,
  "15": 1055,
  "chong1 ": 1056,
  "he4 ": 1057,
  " shi3 ": 1058,
  "al": 1059,
  " jia1 ": 1060,
  "zhu3 yi4 ": 1061,
  " li3 ": 1062,
  "tong1 guo4 ": 1063,
  "ku4 ": 1064,
  " zhi3 ": 1065,
  "yun2 ": 1066,
  "zhu2 ": 1067,
  "gong4 he2 guo2 ": 1068,
  "ning2 ": 1069,
  " bao1 kuo4 ": 1070,
  " zhong1 guo2 ": 1071,
  "liao2 ": 1072,
  "shao4 ": 1073,
  " you4 ": 1074,
  "xue2 xiao4 ": 1075,
  " ju4 ": 1076,
  "qing3 ": 1077,
  "reng2 ": 1078,
  "bi3 sai4 ": 1079,
  " suo3 ": 1080,
  "chu1 xian4 ": 1081,
  "20 nian2 ": 1082,
  " C": 1083,
  " yi3 ji2 ": 1084,
  "uan3 ": 1085,
  "lao3 ": 1086,
  "luo2 si1 ": 1087,
  " gong1 ": 1088,
  "zuo4 pin3 ": 1089,
  "ji4 hua4 ": 1090,
  "mian3 ": 1091,
  "yong1 ": 1092,
  "fa1 sheng1 ": 1093,
  "wan3 ": 1094,
  "chi3 ": 1095,
  "tan2 ": 1096,
  "can1 jia1 ": 1097,
  "fan1 ": 1098,
  "hei1 ": 1099,
  "guan3 li3 ": 1100,
  " zhi2 ": 1101,
  " cong2 ": 1102,
  " a1 ": 1103,
  "rui4 ": 1104,
  "16": 1105,
  "dou4 ": 1106,
  " cheng2 ": 1107,
  "huo2 dong4 ": 1108,
  "11 yue4 ": 1109,
  " S": 1110,
  "ding1 ": 1111,
  "yuan3 ": 1112,
  "form": 1113,
  " jie2 ": 1114,
  "kan4 ": 1115,
  "wen1 ": 1116,
  "10": 1117,
  " fen1 ": 1118,
  "17": 1119,
  " ling4 ": 1120,
  " ma3 ": 1121,
  "cheng1 wei2 ": 1122,
  "tan3 ": 1123,
  "zheng4 shi4 ": 1124,
  "zhong1 yang1 ": 1125,
  "xiu4 ": 1126,
  "t   ": 1127,
  "man3 ": 1128,
  "30 ": 1129,
  "suan4 ": 1130,
  " bei3 ": 1131,
  "yin1 yue4 ": 1132,
  "tie3 lu4 ": 1133,
  " shang4 ": 1134,
  "jing1 ji4 ": 1135,
  "heng2 ": 1136,
  "ula ": 1137,
  "formula ": 1138,
  "d   ": 1139,
  " ceng2 ": 1140,
  "mao2 ": 1141,
  "lu2 ": 1142,
  "pian1 ": 1143,
  "hu1 ": 1144,
  " mei3 ": 1145,
  " ran2 ": 1146,
  "yi1 zhong3 ": 1147,
  " jing1 ": 1148,
  "de shi2 ": 1149,
  "shi4 zhen4 ": 1150,
  "mao4 ": 1151,
  "de2 guo2 ": 1152,
  "qin2 ": 1153,
  "zhi1 jian1 ": 1154,
  "bu2 ": 1155,
  "na2 ": 1156,
  "zan4 ": 1157,
  "gui3 ": 1158,
  " you2 yu2 ": 1159,
  "wen4 ti2 ": 1160,
  " 18": 1161,
  "th": 1162,
  "12 ": 1163,
  " 0": 1164,
  "tu1 ": 1165,
  " 199": 1166,
  "ba2 ": 1167,
  "ming2 wei4 ": 1168,
  "tui4 ": 1169,
  "xu3 duo1 ": 1170,
  "pi2 ": 1171,
  "xi3 ": 1172,
  " quan2 ": 1173,
  "ti2 gong1 ": 1174,
  "pin2 ": 1175,
  "wo4 ": 1176,
  "kang1 ": 1177,
  "cheng2 yuan2 ": 1178,
  "rang4 ": 1179,
  "xiong2 ": 1180,
  " sheng1 ": 1181,
  "zhong1 hua2 ": 1182,
  " jin4 ": 1183,
  "shan4 ": 1184,
  "   di4 ": 1185,
  "199": 1186,
  "lang3 ": 1187,
  "jiao4 yu4 ": 1188,
  "xiong1 ": 1189,
  " A": 1190,
  " bo": 1191,
  "shang4 de ": 1192,
  "shi2 de ": 1193,
  "4 ri4 ": 1194,
  "li4 de ": 1195,
  " su": 1196,
  " tong2 shi2 ": 1197,
  "kang4 ": 1198,
  "fu2 wu4 ": 1199,
  "   200": 1200,
  "gan1 ": 1201,
  "shen3 ": 1202,
  "qing4 ": 1203,
  "ni2 ya4 ": 1204,
  "miao2 ": 1205,
  "fang3 ": 1206,
  "xuan1 bu4 ": 1207,
  "a   ": 1208,
  "shi4 zai4 ": 1209,
  "ren2 de ": 1210,
  "zhi1 hou4 ": 1211,
  "3 ri4 ": 1212,
  " duo1 ": 1213,
  "zhi4 zuo4 ": 1214,
  "xing2 de ": 1215,
  "ta1 men": 1216,
  "yin4 du4 ": 1217,
  " ji1 ": 1218,
  "e2 luo2 si1 ": 1219,
  "am": 1220,
  " qian2 ": 1221,
  "guan1 xi4 ": 1222,
  "   202": 1223,
  "qiu1 ": 1224,
  " san1 ": 1225,
  "suo3 you3 ": 1226,
  "zhan4 zheng1 ": 1227,
  " liang3 ": 1228,
  " zong3 ": 1229,
  " mu4 ": 1230,
  "ji4 shu4 ": 1231,
  "ou": 1232,
  "qian1 mi3 ": 1233,
  "qiang1 ": 1234,
  "fa2 ": 1235,
  "da4 de ": 1236,
  "zao1 ": 1237,
  " ba1 ": 1238,
  "feng4 ": 1239,
  " M": 1240,
  "ba3 ": 1241,
  "fang1 mian4 ": 1242,
  " hai3 ": 1243,
  "jue2 ding4 ": 1244,
  "lang2 ": 1245,
  "zu2 qiu2 ": 1246,
  " fu2 ": 1248,
  " ming2 ": 1249,
  "gui4 ": 1250,
  "zhi1 chi2 ": 1251,
  "hui4 yi4 ": 1252,
  "2020 nian2 ": 1253,
  "   sheng1 ": 1254,
  "0 nian2 dai4 ": 1255,
  " ben3 ": 1256,
  "zou3 ": 1257,
  "jin4 ru4 ": 1258,
  "qie4 ": 1259,
  "ri": 1260,
  "ren2 wu4 ": 1261,
  "19 nian2 ": 1262,
  "shun4 ": 1263,
  " sui2 ": 1264,
  "xuan2 ": 1265,
  "ge ": 1266,
  "ni3 ": 1267,
  "hai4 ": 1268,
  "xue2 jia1 ": 1269,
  "guan4 jun1 ": 1270,
  "   S": 1271,
  "fu4 ze2 ": 1272,
  "gong1 cheng2 ": 1273,
  " hao4 ": 1274,
  " xia4 ": 1275,
  "ding3 ": 1276,
  "xue2 sheng1 ": 1277,
  "niu3 ": 1278,
  " 3": 1279,
  "zhang4 ": 1280,
  "shi4 jian4 ": 1281,
  "ren2 min2 gong4 he2 guo2 ": 1282,
  "zai3 ": 1283,
  " jiu4 ": 1284,
  "zhong4 yao4 ": 1285,
  "le yi1 ": 1286,
  "quan2 guo2 ": 1287,
  " chu1 ": 1288,
  "bu4 de ": 1289,
  " wu2 ": 1290,
  " dao4 ": 1291,
  "yi3 jing1 ": 1292,
  " tian1 ": 1293,
  " tai2 ": 1294,
  "she4 you3 ": 1295,
  "cheng2 de ": 1296,
  "lie4 che1 ": 1297,
  "C ": 1298,
  " zhan4 ": 1299,
  "xu1 yao4 ": 1300,
  "ou1 zhou1 ": 1301,
  "lve4 ": 1302,
  "chun1 ": 1303,
  "hun1 ": 1304,
  "gen1 ju4 ": 1305,
  "lai2 zi4 ": 1306,
  "ping2 fang1 qian1 mi3 ": 1307,
  "pao4 ": 1308,
  "song1 ": 1309,
  "shen4 ": 1310,
  " deng3 ": 1311,
  " wei2 ": 1312,
  "25": 1313,
  " 198": 1314,
  " 5": 1315,
  "xiang2 ": 1316,
  "can1 yu4 ": 1317,
  "dang4 ": 1318,
  "fa1 xing2 ": 1319,
  " qing1 ": 1320,
  " ta1 men": 1321,
  "shi4 wei4 ": 1322,
  "shi4 ji4 ": 1323,
  "ke4 lan2 ": 1324,
  "xi4 lie4 ": 1325,
  "shou4 dao4 ": 1326,
  " shi4 yi1 ": 1327,
  "tan4 ": 1328,
  "geng1 ": 1329,
  "bao3 hu4 ": 1330,
  "min2 guo2 ": 1331,
  "duan1 ": 1332,
  "st": 1333,
  "yin1 wei4 ": 1334,
  "si1 te4 ": 1335,
  "liang3 ge4 ": 1336,
  "y   ": 1337,
  "ro": 1338,
  " jian4 ": 1339,
  " tong1 ": 1340,
  " yin1 wei4 ": 1341,
  "yong4 yu2 ": 1342,
  " ta1 de ": 1343,
  " gao1 ": 1344,
  " T": 1345,
  "sheng1 huo2 ": 1346,
  "yao1 qiu2 ": 1347,
  "zong3 tong3 ": 1348,
  "dun1 ": 1349,
  " ji4 ": 1350,
  " 202": 1351,
  "kuan3 ": 1352,
  "za2 ": 1353,
  " jin3 ": 1354,
  "ren2 yuan2 ": 1355,
  "kai1 fa1 ": 1356,
  "yong1 you3 ": 1357,
  "xian4 de ": 1358,
  "ya3 ": 1359,
  "ye2 ": 1360,
  "   li4 shi3 ": 1361,
  "ju3 xing2 ": 1362,
  "el": 1363,
  " dai4 ": 1364,
  "ruo4 ": 1365,
  " I": 1366,
  " ren4 ": 1367,
  "xiang1 guan1 ": 1368,
  "wu1 ke4 lan2 ": 1369,
  "peng2 ": 1370,
  "qing2 kuang4 ": 1371,
  "jun1 shi4 ": 1372,
  "jie2 mu4 ": 1373,
  "po1 ": 1374,
  "dan1 wei4 ": 1375,
  " de2 ": 1376,
  "wan2 cheng2 ": 1377,
  " bi3 ": 1378,
  "you2 yu2 ": 1379,
  "   sheng1 ping2 ": 1380,
  "fang1 shi4 ": 1381,
  "qiu2 dui4 ": 1382,
  " zhu": 1383,
  "jia1 ru4 ": 1384,
  "si": 1385,
  "duan3 ": 1386,
  "kan1 ": 1387,
  " gen1 ": 1388,
  " liu2 ": 1389,
  "cun2 zai4 ": 1390,
  "lian2 meng2 ": 1391,
  "mi4 du4 ": 1392,
  "zhe ": 1393,
  "xuan3 ju3 ": 1394,
  "di4 de ": 1395,
  " m": 1396,
  " B": 1397,
  "fan2 ": 1398,
  "zhui1 ": 1399,
  " 4": 1400,
  " wo3 ": 1401,
  "che4 ": 1402,
  " si4 ": 1403,
  " hai2 ": 1404,
  "cheng2 gong1 ": 1405,
  "8 ri4 ": 1406,
  "00": 1407,
  "re": 1408,
  "gan4 ": 1409,
  " wu3 ": 1410,
  " zhang1 ": 1411,
  " dan1 ": 1412,
  "cao3 ": 1413,
  "yao2 ": 1414,
  "bei3 bu4 ": 1415,
  " ren2 ": 1416,
  "2019 nian2 ": 1417,
  " si1 ": 1418,
  "shi4 yi1 ": 1419,
  " li4 ru2 ": 1420,
  " shi4 ji4 ": 1421,
  " P": 1422,
  " xing2 ": 1423,
  "jue2 se4 ": 1424,
  "zai4 19": 1425,
  "gong1 yuan2 ": 1426,
  "bei3 jing1 ": 1427,
  "at": 1428,
  "zhi4 de ": 1429,
  "chu1 de ": 1430,
  "guo2 min2 ": 1431,
  "y ": 1432,
  "yi4 shu4 ": 1433,
  "zhi2 wu4 ": 1434,
  " ao4 ": 1435,
  "zha4 ": 1436,
  " 194": 1437,
  "cuo4 ": 1438,
  "zang4 ": 1439,
  "ji4 lu4 ": 1440,
  " 6": 1441,
  "da4 lu4 ": 1442,
  "pa4 ": 1443,
  "chan3 sheng1 ": 1444,
  "lian2 sai4 ": 1445,
  "er4 shi2 ": 1446,
  "yi4 yuan2 ": 1447,
  "shang4 hai3 ": 1448,
  "xiang4 mu4 ": 1449,
  "gu1 ": 1450,
  "shou3 ci4 ": 1451,
  " guan1 ": 1452,
  " ping2 ": 1453,
  "kong3 ": 1454,
  "pei2 ": 1455,
  "miao4 ": 1456,
  " ran2 er2 ": 1457,
  "lian2 he2 ": 1458,
  "suan1 ": 1459,
  " 1 ": 1460,
  "di4 san1 ": 1461,
  "lao2 ": 1462,
  "bu4 dui4 ": 1463,
  " mei3 guo2 ": 1464,
  "shu4 ju4 ": 1465,
  "he2 zuo4 ": 1466,
  "ac": 1467,
  "yu2 201": 1468,
  "ge4 ren2 ": 1469,
  " sui4 ": 1470,
  "yi1 xie1 ": 1471,
  "qu1 de ": 1472,
  "zi4 you2 ": 1473,
  "xi1 ya4 ": 1474,
  "cang2 ": 1475,
  " ying1 ": 1476,
  "huai2 ": 1477,
  "zhuan1 ji2 ": 1478,
  "nan2 bu4 ": 1479,
  "pai1 ": 1480,
  " D": 1481,
  "qian2 wang3 ": 1482,
  " ke3 ": 1483,
  "cha1 ": 1484,
  "hao2 ": 1485,
  " mian4 ji1 ": 1486,
  " zhe4 xie1 ": 1487,
  "7 ri4 ": 1488,
  "zhao1 ": 1489,
  "6 ri4 ": 1490,
  "duo2 ": 1491,
  "zhe4 xie1 ": 1492,
  "de ren2 ": 1493,
  "d ": 1494,
  "A ": 1495,
  "zui4 gao1 ": 1496,
  "qu1 yu4 ": 1497,
  "zhe2 ": 1498,
  "ren2 kou3 mi4 du4 ": 1499,
  "ke1 xue2 ": 1500,
  " bing4 qie3 ": 1501,
  "jiao1 tong1 ": 1502,
  "gao1 du4 ": 1503,
  "lai2 de ": 1504,
  "gong4 you3 ": 1505,
  "dang1 shi2 ": 1506,
  "qu3 de2 ": 1507,
  "tong2 shi2 ": 1508,
  " dan4 shi4 ": 1509,
  " ta1 zai4 ": 1510,
  "22 ": 1511,
  "mi2 ": 1512,
  "min2 zhu3 ": 1513,
  "zui4 hou4 ": 1514,
  "9 ri4 ": 1515,
  "fan3 ying4 ": 1516,
  "xue4 ": 1517,
  "ji2 tuan2 ": 1518,
  " luo2 ": 1519,
  "cai3 yong4 ": 1520,
  "chu1 ban3 ": 1521,
  "   C": 1522,
  "mian4 ji1 wei4 ": 1523,
  "ming2 de ": 1524,
  " gong4 ": 1525,
  "zeng1 jia1 ": 1526,
  "xing2 dong4 ": 1527,
  "yu3 yan2 ": 1528,
  " cheng2 wei2 ": 1529,
  "jian4 li4 ": 1530,
  " tong2 nian2 ": 1531,
  "ji1 gou4 ": 1532,
  "de2 dao4 ": 1533,
  " n": 1534,
  "ren4 he2 ": 1535,
  "jie2 gou4 ": 1536,
  " xiao3 ": 1537,
  " xue2 ": 1538,
  "ling3 dao3 ": 1539,
  " dang1 shi2 ": 1540,
  "sheng1 chan3 ": 1541,
  "zhu3 xi2 ": 1542,
  "11 ": 1543,
  "chuan2 tong3 ": 1544,
  "jie2 shu4 ": 1545,
  "zhao3 ": 1546,
  " 195": 1547,
  "zu3 cheng2 ": 1548,
  "xing2 shi4 ": 1549,
  "jian4 de ": 1550,
  "du2 li4 ": 1551,
  "ke4 si1 ": 1552,
  "ge1 qu3 ": 1553,
  "tou4 ": 1554,
  "ol": 1555,
  " an1 ": 1556,
  "zhu3 jiao4 ": 1557,
  "   M": 1558,
  "lei3 ": 1559,
  "bang3 ": 1560,
  " gen1 ju4 ": 1561,
  " ke4 ": 1562,
  " gt ": 1563,
  "di4 guo2 ": 1564,
  " ai4 ": 1565,
  " jie1 ": 1566,
  "chou2 ": 1567,
  "da4 li4 ": 1568,
  "tion": 1569,
  " 197": 1570,
  "biao1 zhun3 ": 1571,
  " ze2 ": 1572,
  " zui4 zhong1 ": 1573,
  " xiang1 ": 1574,
  "hun4 ": 1575,
  " hou4 lai2 ": 1576,
  "ji4 xu4 ": 1577,
  "ju4 you3 ": 1578,
  "mei2 ti3 ": 1579,
  "fu4 jin4 ": 1580,
  "nao3 ": 1581,
  " te4 ": 1582,
  " 15": 1583,
  "chi4 ": 1584,
  " lt ": 1585,
  "kuan1 ": 1586,
  "jie1 shou4 ": 1587,
  " bing4 zai4 ": 1588,
  "shu4 liang4 ": 1589,
  "niu2 ": 1590,
  "shi2 dai4 ": 1591,
  " gai3 ": 1592,
  "hai3 jun1 ": 1593,
  "ruan3 ": 1594,
  "nei4 de ": 1595,
  " zhi1 hou4 ": 1596,
  "die2 ": 1597,
  " zhou1 ": 1598,
  "fan4 wei2 ": 1599,
  "ta1 men ": 1600,
  "sun1 ": 1601,
  " 7": 1602,
  "yi3 xia4 ": 1603,
  " 2 ": 1604,
  "shu3 de ": 1605,
  "qi2 zhong1 ": 1606,
  " chen2 ": 1607,
  "ti4 ": 1608,
  "nv3 xing4 ": 1609,
  "qian3 ": 1610,
  "diao4 cha2 ": 1611,
  "mou2 ": 1612,
  " wang2 ": 1613,
  "yi4 hui4 ": 1614,
  " tai4 ": 1615,
  " E": 1616,
  "198": 1617,
  "de ji1 ": 1618,
  "chao1 guo4 ": 1619,
  "ye3 shi4 ": 1620,
  "dong4 wu4 ": 1621,
  "nei4 rong2 ": 1622,
  "que1 ": 1623,
  " gu4 ": 1624,
  " chu2 ": 1625,
  "fou3 ": 1626,
  " huang2 ": 1627,
  " ri4 ben3 ": 1628,
  "san4 ": 1629,
  "hang2 kong1 ": 1630,
  "zhuan4 ": 1631,
  "wu2 fa3 ": 1632,
  " shou3 ": 1633,
  "de da4 ": 1634,
  "ge2 ming4 ": 1635,
  " 16": 1636,
  "jun1 dui4 ": 1637,
  " ci3 wai4 ": 1638,
  "nv3 zi3 ": 1639,
  "kai3 ": 1640,
  " sui1 ": 1641,
  "a1 er3 ": 1642,
  "qu1 wei4 ": 1643,
  "hou4 de ": 1644,
  "ran3 ": 1645,
  "yun4 dong4 yuan2 ": 1646,
  " 8": 1647,
  " zhu3 yao4 ": 1648,
  "niao3 ": 1649,
  "ju1 min2 ": 1650,
  "er ": 1651,
  " H": 1652,
  "fo": 1653,
  "an1 quan2 ": 1654,
  "di4 fang1 ": 1655,
  "kong4 zhi4 ": 1656,
  "chuang4 zuo4 ": 1657,
  "ti2 chu1 ": 1658,
  "fen1 bie2 ": 1659,
  " chang2 ": 1660,
  "fa1 biao3 ": 1661,
  "ge2 lan2 ": 1662,
  "T ": 1663,
  "wei4 zhi4 ": 1664,
  "lian2 bang1 ": 1665,
  "zai1 ": 1666,
  "ming2 cheng1 ": 1667,
  "chang1 ": 1668,
  " bu4 guo4 ": 1669,
  " gu3 ": 1670,
  "fa1 bu4 ": 1671,
  "xue3 ": 1672,
  "hui3 ": 1673,
  "you3 xian4 ": 1674,
  "bi4 ye4 ": 1675,
  "tao3 ": 1676,
  "yuan2 de ": 1677,
  "dang1 di4 ": 1678,
  "zao4 cheng2 ": 1679,
  " shi4 wei4 yu2 ": 1680,
  "gu4 shi4 ": 1681,
  "lan3 ": 1682,
  "pi3 ": 1683,
  "sun3 ": 1684,
  " fei1 ": 1685,
  "ji1 chang3 ": 1686,
  "luan4 ": 1687,
  " shu3 yu2 ": 1688,
  "ban1 ya2 ": 1689,
  "xiao3 shi2 ": 1690,
  " 193": 1691,
  " L": 1692,
  " lin2 ": 1693,
  "xin1 de ": 1694,
  "fan3 dui4 ": 1695,
  " jian3 ": 1696,
  "zhi1 qian2 ": 1697,
  " 196": 1698,
  " ka3 ": 1699,
  "zun1 ": 1700,
  "zi4 ji3 de ": 1701,
  "min2 zu2 ": 1702,
  " R": 1703,
  "chu1 sheng1 ": 1704,
  " zhong1 hua2 ": 1705,
  " ge2 ": 1706,
  "guo4 cheng2 ": 1707,
  "mou3 ": 1708,
  "huan1 ": 1709,
  "luo2 ma3 ": 1710,
  " bo1 ": 1711,
  "xiao3 xing2 ": 1712,
  "huan2 jing4 ": 1713,
  " 9": 1714,
  "teng2 ": 1715,
  "yi4 de ": 1716,
  " yan2 ": 1717,
  "ju3 ban4 ": 1718,
  "rang3 ": 1719,
  "xuan3 ze2 ": 1720,
  " zhu4 ": 1721,
  "bian1 ma3 ": 1722,
  "gong1 lu4 ": 1723,
  " xiang4 ": 1724,
  " jiao4 ": 1725,
  "zui4 zhong1 ": 1726,
  "sou1 ": 1727,
  "xin1 wen2 ": 1728,
  "shui4 ": 1729,
  "   A": 1730,
  "ba4 ": 1731,
  " zh ": 1732,
  "min3 ": 1733,
  "yin2 hang2 ": 1734,
  "yan3 yuan2 ": 1735,
  "meng4 ": 1736,
  "kao4 ": 1737,
  "ken3 ": 1738,
  "zi1 liao4 ": 1739,
  "yu2 200": 1740,
  "jue2 sai4 ": 1741,
  "13": 1743,
  " ti2 ": 1744,
  " N": 1745,
  "tong1 chang2 ": 1746,
  "fo2 ": 1747,
  "jiu4 shi4 ": 1748,
  "gong4 chan3 ": 1749,
  "shu1 ji4 ": 1750,
  "fang1 fa3 ": 1751,
  "you3 guan1 ": 1752,
  "xie2 hui4 ": 1753,
  "ren2 shi4 ": 1754,
  "14": 1755,
  "zhong1 hua2 ren2 min2 gong4 he2 guo2 ": 1756,
  "ting3 ": 1757,
  " G": 1758,
  "S ": 1759,
  " ci4 ": 1760,
  "la4 ": 1761,
  "fen1 bu4 ": 1762,
  "wen3 ": 1763,
  "of": 1764,
  "yi4 zhi2 ": 1765,
  " er4 ": 1766,
  "dao4 le ": 1767,
  "r ": 1768,
  "chun2 ": 1769,
  "   di4 li3 ": 1770,
  "om": 1771,
  "20 ": 1772,
  "xing2 cheng2 ": 1773,
  "dao3 zhi4 ": 1774,
  " yu4 ": 1775,
  "zhi2 ye4 ": 1776,
  "qi3 ye4 ": 1777,
  "ji4 nian4 ": 1778,
  "jian4 she4 ": 1779,
  "il": 1780,
  "bang4 ": 1781,
  " sui1 ran2 ": 1782,
  "50 ": 1783,
  " guo2 ": 1784,
  " yue1 ": 1785,
  "bu4 zhang3 ": 1786,
  "fa3 lv4 ": 1787,
  "guan3 xia2 ": 1788,
  "jiao4 shou4 ": 1789,
  "zhong1 xue2 ": 1790,
  "13 ": 1791,
  "chong2 xin1 ": 1792,
  "er3 si1 ": 1793,
  "bing3 ": 1794,
  "she4 li4 ": 1795,
  " suo3 yi3 ": 1796,
  "wan2 quan2 ": 1797,
  " can1 ": 1798,
  " hui4 ": 1799,
  "sai4 shi4 ": 1800,
  "xing4 de ": 1801,
  "gong1 ye4 ": 1802,
  "－": 1803,
  "xian3 shi4 ": 1804,
  " dao3 ": 1805,
  "pan2 ": 1806,
  "   P": 1807,
  "   ben3 ": 1808,
  "ya4 zhou1 ": 1809,
  " F": 1810,
  "zi4 zhi4 ": 1811,
  "pu2 ": 1812,
  "you3 yi1 ": 1813,
  "fa3 yuan4 ": 1814,
  "   199": 1815,
  "shuai4 ": 1816,
  "12": 1817,
  "nie4 ": 1818,
  "xing2 wei2 ": 1819,
  " tai2 wan1 ": 1820,
  "yi4 qi3 ": 1821,
  "gong1 kai1 ": 1822,
  " qi1 ": 1823,
  " shou4 ": 1824,
  "14 ": 1825,
  "fei1 chang2 ": 1826,
  "san1 nian2 ": 1827,
  "shi2 er4 ": 1828,
  "shen4 zhi4 ": 1829,
  "ban3 ben3 ": 1830,
  "shao1 ": 1831,
  "zhu3 ren4 ": 1832,
  "cai4 ": 1833,
  "yi1 ci4 ": 1834,
  "cao1 ": 1835,
  "shen1 fen4 ": 1836,
  " lian2 ": 1837,
  "cang1 ": 1838,
  "ti3 yu4 ": 1839,
  "zhi2 jie1 ": 1840,
  " lu4 ": 1841,
  "   B": 1842,
  "da4 liang4 ": 1843,
  " 17": 1844,
  "jia1 zu2 ": 1845,
  "suo1 ": 1846,
  "yi4 ban1 ": 1847,
  "biao3 xian4 ": 1848,
  " bi4 ": 1849,
  " qie3 ": 1850,
  "xiao3 shuo1 ": 1851,
  "xian4 dai4 ": 1852,
  " ke1 ": 1853,
  "feng2 ": 1854,
  "mie4 ": 1855,
  "shi4 he2 ": 1856,
  "de yuan2 ": 1857,
  " mu4 qian2 ": 1858,
  "yun3 ": 1859,
  "yi3 lai2 ": 1860,
  "wen2 xue2 ": 1861,
  "et": 1862,
  "   T": 1863,
  "zhi3 hui1 ": 1864,
  " sheng4 ": 1865,
  "lai4 ": 1866,
  "chu3 li3 ": 1867,
  "wu4 zhong3 ": 1868,
  "shang1 ye4 ": 1869,
  "sheng3 fen4 ": 1870,
  " bao3 ": 1871,
  "D ": 1872,
  "zou4 ": 1873,
  "dong4 hua4 ": 1874,
  " na4 ": 1875,
  "zheng4 ce4 ": 1876,
  "mei4 ": 1877,
  "duo1 shu4 ": 1878,
  "shi4 shi4 ": 1879,
  " bo2 ": 1880,
  "huai4 ": 1881,
  "197": 1882,
  "lei4 si4 ": 1883,
  "pu3 cha2 ": 1884,
  "jia1 ting2 ": 1885,
  "nai4 ": 1886,
  "zhou1 de ": 1887,
  "ra": 1888,
  " hong2 ": 1889,
  "te4 bie2 ": 1890,
  " xiang1 gang3 ": 1891,
  "zao3 qi1 ": 1892,
  "qu4 shi4 ": 1893,
  "gui1 mo2 ": 1894,
  "dui4 yu2 ": 1895,
  "gong1 ji1 ": 1896,
  "un4 ": 1897,
  "yan1 ": 1898,
  "miao2 shu4 ": 1899,
  " dou1 ": 1900,
  " ren2 kou3 mi4 du4 ": 1901,
  "bu2 shi4 ": 1902,
  "sheng1 ya2 ": 1903,
  "   gai1 ": 1904,
  "k ": 1905,
  "li3 lun4 ": 1906,
  " ta1 men ": 1907,
  "ba2 gao1 du4 ": 1908,
  " shan1 ": 1909,
  "zhan4 dou4 ": 1910,
  "wai4 jiao1 ": 1911,
  "ping2 jun1 ": 1912,
  "de cheng2 ": 1913,
  "guang3 dong1 ": 1914,
  "pang2 ": 1915,
  " J": 1916,
  " su1 ": 1917,
  " 3 ": 1918,
  "neng2 gou4 ": 1919,
  " hu2 ": 1920,
  "ge": 1921,
  "xue2 xi2 ": 1922,
  "yi4 da4 li4 ": 1923,
  "   ren2 kou3 ": 1924,
  "shi4 wu4 ": 1925,
  "ow": 1926,
  " shi1 ": 1927,
  "sheng1 wu4 ": 1928,
  "shi4 you2 ": 1929,
  "li2 kai1 ": 1930,
  "yi1 nian2 ": 1931,
  "jiang1 jun1 ": 1932,
  "zong1 jiao4 ": 1933,
  "xia4 de ": 1934,
  " lai2 ": 1935,
  " jian1 ": 1936,
  " pu3 ": 1938,
  "mai3 ": 1939,
  "chi2 xu4 ": 1940,
  "zhe4 ge ": 1941,
  "zheng4 zhi4 ren2 wu4 ": 1942,
  "jie2 guo3 ": 1943,
  "m ": 1944,
  "ding4 de ": 1945,
  "15 ": 1946,
  "ji2 de ": 1947,
  "zi4 ran2 ": 1948,
  "gong4 tong2 ": 1949,
  "han2 guo2 ": 1950,
  "yi1 yuan4 ": 1951,
  "fu4 qin1 ": 1952,
  "zuo4 yong4 ": 1954,
  "kun1 ": 1955,
  "li4 yong4 ": 1956,
  "bian1 ma3 wei4 ": 1957,
  "kong1 jian1 ": 1958,
  " la1 ": 1959,
  "zhi2 xing2 ": 1960,
  "la": 1961,
  "de yi2 ge4 shi4 zhen4 ": 1962,
  " 000 ": 1963,
  "zhong1 gong4 ": 1964,
  "da4 hui4 ": 1965,
  "nu3 ": 1966,
  "ren2 lei4 ": 1967,
  " han2 ": 1968,
  " wei1 ": 1969,
  "sui1 ": 1970,
  "mei3 yuan2 ": 1971,
  "bo2 wu4 ": 1972,
  "jing4 nei4 ": 1973,
  "zhu2 jian4 ": 1974,
  " she4 ": 1975,
  "fang1 xiang4 ": 1976,
  "gai3 wei2 ": 1977,
  " xue2 ming2 ": 1978,
  " zhu1 ": 1979,
  "jie1 rang3 ": 1980,
  "wen2 wu4 ": 1981,
  "kua4 ": 1982,
  "   gen1 ju4 ": 1983,
  "yan3 chu1 ": 1984,
  " geng4 ": 1985,
  "hou2 ": 1986,
  "kui2 ": 1987,
  "na2 da4 ": 1988,
  "gai1 guo2 ": 1989,
  "n ": 1990,
  "   yu3 ": 1991,
  "〉": 1992,
  "〈": 1993,
  "niu3 yue1 ": 1994,
  "gong4 chan3 dang3 ": 1995,
  " ge1 ": 1996,
  "bu4 zai4 ": 1997,
  " ye3 shi4 ": 1998,
  "neng2 li4 ": 1999,
  " zhang3 ": 2000,
  "gong1 gong4 ": 2001,
  " ling4 wai4 ": 2002,
  " ha1 ": 2003,
  "fen1 wei2 ": 2004,
  "she4 shi1 ": 2005,
  "bian4 hua4 ": 2006,
  "qi2 shi4 ": 2007,
  "sang1 ": 2008,
  " mo4 ": 2009,
  "gong1 shi4 ": 2010,
  "o   ": 2011,
  "bao4 gao4 ": 2012,
  "su1 lian2 ": 2013,
  "jin3 biao1 ": 2014,
  "qiu2 yuan2 ": 2015,
  "yi4 wei4 ": 2016,
  "hou4 lai2 ": 2017,
  " shen1 ": 2018,
  "shan3 ": 2019,
  " feng1 ": 2020,
  "ren4 wu4 ": 2021,
  "yan2 zhong4 ": 2022,
  "zhen3 ": 2023,
  "si3 wang2 ": 2024,
  "da4 qu1 ": 2025,
  "guang3 bo1 ": 2026,
  "kai1 fang4 ": 2027,
  " zhe4 shi4 ": 2028,
  " zuo4 wei2 ": 2029,
  "zhi4 zao4 ": 2030,
  "tu": 2031,
  "diao1 ": 2032,
  " han4 ": 2033,
  "zha1 ": 2035,
  "xi1 ban1 ya2 ": 2036,
  "pai2 ming2 ": 2037,
  "ge4 zhong3 ": 2038,
  "zhi3 chu1 ": 2039,
  "o ": 2040,
  "dou1 shi4 ": 2041,
  " zuo4 ": 2042,
  " yang2 ": 2043,
  "wei2 yi1 ": 2044,
  "quan2 li4 ": 2045,
  "28 ri4 ": 2046,
  "ic": 2047,
  " ru2 guo3 ": 2048,
  "jing1 guo4 ": 2049,
  "pai1 she4 ": 2050,
  " zui4 hou4 ": 2051,
  "15 ri4 ": 2052,
  "gong1 neng2 ": 2053,
  "fa1 dong4 ": 2054,
  "es": 2055,
  "ren2 kou3 pu3 cha2 ": 2056,
  "zhi1 jian1 de ": 2057,
  "shi4 chang3 ": 2058,
  "tai2 bei3 ": 2059,
  "dong3 ": 2060,
  "ba1 shi4 ": 2061,
  "xu2 ": 2062,
  "de you2 ": 2063,
  "zhi3 you3 ": 2064,
  "xing2 zheng4 qu1 ": 2065,
  "zai4 ci4 ": 2066,
  "wei2 er3 ": 2067,
  "mu4 biao1 ": 2068,
  "san1 ge4 ": 2069,
  "si1 tan3 ": 2070,
  "dong1 bu4 ": 2071,
  " zhong4 ": 2072,
  " yi2 ": 2073,
  "lu4 xian4 ": 2074,
  "yun4 dong4 hui4 ": 2075,
  "zhong1 guo2 da4 lu4 ": 2076,
  "de guan1 ": 2077,
  " fa3 ": 2078,
  "di4 si4 ": 2079,
  "xun4 lian4 ": 2080,
  "juan3 ": 2081,
  "bei4 jing3 ": 2082,
  "xi4 bao1 ": 2083,
  " jun1 ": 2084,
  "dian1 ": 2085,
  "196": 2086,
  "yan3 chang4 ": 2087,
  " 4 ": 2088,
  "mu4 qian2 ": 2089,
  "p ": 2090,
  "tuan2 ti3 ": 2091,
  "la1 si1 ": 2092,
  " dang1 di4 ": 2093,
  "ec": 2094,
  " 10 ": 2095,
  "yu2 18": 2096,
  "gui1 ding4 ": 2097,
  "tao4 ": 2098,
  "gou1 ": 2099,
  "jie1 dao4 ": 2100,
  "tong3 zhi4 ": 2101,
  "dong1 bei3 ": 2102,
  "i ": 2103,
  " bao4 ": 2104,
  "30": 2105,
  " ke3 yi3 ": 2106,
  " sha1 ": 2107,
  "re4 dai4 ": 2108,
  "wan2 jia1 ": 2109,
  "xi1 bu4 ": 2110,
  "de he2 ": 2111,
  " K": 2112,
  "zui4 jia1 ": 2113,
  "de xin1 ": 2114,
  "   L": 2115,
  " ti3 ": 2116,
  "bi4 xu1 ": 2117,
  "40 ": 2118,
  "gong1 bu4 ": 2119,
  "194": 2120,
  "yue4 tai2 ": 2121,
  "leng3 ": 2122,
  " huo4 de2 ": 2123,
  "er3 sheng3 ": 2124,
  "20 ri4 ": 2125,
  "ju4 le4 ": 2126,
  " sui2 hou4 ": 2127,
  "gui3 dao4 ": 2128,
  "ru3 ": 2129,
  "zu1 ": 2130,
  "cui4 ": 2131,
  "21 ": 2132,
  "da2 dao4 ": 2133,
  "zhe4 zhong3 ": 2134,
  "–": 2135,
  "xian4 zai4 ": 2136,
  "chan3 pin3 ": 2137,
  "25 ri4 ": 2138,
  " jie4 ": 2139,
  " du4 ": 2140,
  "de yi1 bu4 fen4 ": 2141,
  "bo2 wu4 guan3 ": 2142,
  "si4 nian2 ": 2143,
  "30 ri4 ": 2144,
  "ji4 suan4 ": 2145,
  "si1 ling4 ": 2146,
  "jie1 duan4 ": 2147,
  "quan1 ": 2148,
  "zhe3 de ": 2149,
  "ao4 yun4 ": 2150,
  "hu3 ": 2151,
  "li3 si1 ": 2152,
  "bao1 han2 ": 2153,
  "rou4 ": 2154,
  "dan1 qu1 ": 2155,
  "xian4 zhi4 ": 2156,
  "tui1 chu1 ": 2157,
  "feng1 ge2 ": 2158,
  "zhuo2 ": 2159,
  "mo2 shi4 ": 2160,
  "10 ri4 ": 2161,
  " er2 qie3 ": 2162,
  " di4 er4 ": 2163,
  "hua4 de ": 2164,
  "xiang1 tong2 ": 2165,
  "zhuan1 ye4 ": 2166,
  "guo2 wang2 ": 2167,
  "hui1 fu4 ": 2168,
  " mai4 ": 2169,
  " bian4 ": 2170,
  "lun2 dun1 ": 2171,
  "da4 zhan4 ": 2172,
  " nei4 ": 2173,
  "shi4 zhang3 ": 2174,
  "quan2 qiu2 ": 2175,
  " zu3 ": 2176,
  "mu3 qin1 ": 2177,
  "you3 xian4 gong1 si1 ": 2178,
  "dao4 lu4 ": 2179,
  "ying4 yong4 ": 2180,
  " 192": 2181,
  "xiao3 xing2 xing1 ": 2182,
  "it": 2183,
  "zhe": 2184,
  "jie3 fang4 ": 2185,
  "kun4 ": 2186,
  "as": 2187,
  "cha4 ": 2188,
  "keng1 ": 2189,
  "ming4 ming2 ": 2190,
  "yu2 202": 2191,
  "nan2 zi ": 2192,
  " jin3 guan3 ": 2193,
  " xian1 ": 2194,
  "wang3 luo4 ": 2195,
  "bao4 fa1 ": 2196,
  "shi4 yi2 ge4 ": 2197,
  " tang2 ": 2198,
  "bi3 li4 ": 2199,
  "mang2 ": 2200,
  "lu4 jun1 ": 2201,
  "fen3 ": 2202,
  "   198": 2203,
  "…": 2204,
  " hua2 ": 2205,
  "ju4 li2 ": 2206,
  "   R": 2207,
  " que4 ": 2208,
  " dian4 ": 2209,
  "bei4 cheng1 wei2 ": 2210,
  "ge1 shou3 ": 2211,
  "the   ": 2212,
  "he2 bing4 ": 2213,
  "shang3 ": 2214,
  "guan1 yu2 ": 2215,
  "ta1 men de ": 2216,
  "hua4 xue2 ": 2217,
  "reng2 ran2 ": 2218,
  "zi1 ge2 ": 2219,
  " W": 2220,
  "bu4 men2 ": 2221,
  " zhen1 ": 2222,
  " yin3 ": 2223,
  "bu4 neng2 ": 2224,
  "cheng2 ji4 ": 2225,
  "ji2 qi2 ": 2226,
  "meng2 gu3 ": 2227,
  " zhuan1 ": 2228,
  " rang4 ": 2229,
  "zhu3 chi2 ": 2230,
  "100 ": 2231,
  "24 ": 2232,
  "2010 nian2 ": 2233,
  "bo1 chu1 ": 2234,
  "xun1 ": 2236,
  "yi1 ming2 ": 2237,
  "dian4 shi4 tai2 ": 2238,
  " ge4 ": 2239,
  "UT": 2240,
  "ji1 bai4 ": 2241,
  " bai2 ": 2242,
  " zhi2 dao4 ": 2243,
  "24 ri4 ": 2244,
  "deng3 ren2 ": 2245,
  " yu2 shi4 ": 2246,
  "..": 2247,
  "can2 ": 2248,
  " kai1 ": 2249,
  "shi2 nian2 ": 2250,
  "18 ri4 ": 2251,
  "16 ": 2252,
  "ji1 chu3 ": 2253,
  "dao4 de ": 2254,
  "chai1 ": 2255,
  "zhou1 shi4 ": 2256,
  "zhi4 du4 ": 2257,
  "P ": 2258,
  "yi1 yang4 ": 2259,
  "   G": 2260,
  "26 ri4 ": 2261,
  "   ci3 ": 2262,
  "zhong1 bu4 ": 2263,
  "qing1 nian2 ": 2264,
  "nong2 ye4 ": 2265,
  "pi1 ping2 ": 2266,
  "zhu3 ti2 ": 2267,
  "ye3 you3 ": 2268,
  "gai3 ge2 ": 2269,
  "lang4 ": 2270,
  "ming2 zi4 ": 2271,
  "qun2 dao3 ": 2272,
  "zhou4 ": 2273,
  "rao4 ": 2274,
  "ne4 ": 2275,
  "bu4 tong2 de ": 2276,
  "shi2 yan4 ": 2277,
  "gao1 su4 ": 2278,
  "fei1 ji1 ": 2279,
  "gui1 hua4 ": 2280,
  "me ": 2281,
  "jian4 zao4 ": 2282,
  "16 ri4 ": 2283,
  "lin2 pi3 ": 2284,
  "zhe4 yi1 ": 2285,
  "ling3 yu4 ": 2286,
  "   D": 2287,
  "ju4 le4 bu4 ": 2288,
  "yu2 199": 2289,
  " wen2 ": 2290,
  "ying2 de2 ": 2291,
  "wu3 nian2 ": 2292,
  "shu2 ": 2293,
  "nan4 ": 2294,
  "li4 fa3 ": 2295,
  "jiang1 qi2 ": 2296,
  "17 ri4 ": 2297,
  "bu2 hui4 ": 2298,
  " jiu3 ": 2299,
  "wu4 li3 ": 2300,
  "mei3 zhou1 ": 2301,
  "de shou3 ": 2302,
  "12 ri4 ": 2303,
  "195": 2304,
  "biao3 yan3 ": 2305,
  "she4 zhi4 ": 2306,
  "xia4 ji4 ": 2307,
  "5 ri4 ": 2308,
  " zhao4 ": 2309,
  "shui3 yu4 ": 2310,
  "2 ri4 ": 2311,
  " zhe4 zhong3 ": 2312,
  "yin1 ci3 ": 2313,
  " 5 ": 2314,
  "guang3 chang3 ": 2315,
  "cu4 ": 2316,
  "nai3 ": 2317,
  "ju1 zhu4 ": 2318,
  "a1 la1 ": 2319,
  "xiang1 dang1 ": 2320,
  " dan4 zai4 ": 2321,
  "di4 shi2 ": 2322,
  "yuan2 nian2 ": 2323,
  "zhong1 hua2 min2 guo2 ": 2324,
  "tai4 yang2 ": 2325,
  "jin4 shi4 ": 2326,
  "11 ri4 ": 2327,
  "tou2 zi1 ": 2328,
  "   H": 2329,
  "dong1 jing1 ": 2330,
  "ta1 zai4 ": 2331,
  " ta1 ceng2 ": 2332,
  "zao1 dao4 ": 2333,
  "si1 ji1 ": 2334,
  "xue2 zhe3 ": 2335,
  "fa1 she4 ": 2336,
  "ma2 ": 2337,
  "21 ri4 ": 2338,
  "gong1 chi3 ": 2339,
  "ti1 ": 2340,
  "you3 de ": 2341,
  "ji1 ben3 ": 2342,
  "   194": 2343,
  "te4 zheng1 ": 2344,
  "27 ri4 ": 2345,
  "60 ": 2346,
  "xi2 ji1 ": 2347,
  "23 ri4 ": 2348,
  "lin2 pi3 ke4 ": 2349,
  "dong1 nan2 ": 2350,
  "18 ": 2351,
  "22 ri4 ": 2352,
  "ji2 zhong1 ": 2353,
  " mo2 ": 2354,
  " lu2 ": 2355,
  "19 ri4 ": 2356,
  "xin4 xi1 ": 2357,
  " 2001 nian2 ": 2358,
  "tai4 ping2 ": 2359,
  " zhe4 ge ": 2360,
  " yong4 ": 2361,
  "da4 bu4 fen4 ": 2362,
  "cui1 ": 2363,
  "xue2 wei4 ": 2364,
  "guang3 fan4 ": 2365,
  "tong2 nian2 ": 2366,
  "tou4 guo4 ": 2367,
  "fen1 zhong1 ": 2368,
  " shi4 wei4 yu2 mei3 guo2 ": 2369,
  "ation": 2370,
  "lian2 jie1 ": 2371,
  "shi2 ji4 ": 2372,
  "jin3 biao1 sai4 ": 2373,
  "qian4 ": 2374,
  " cai2 ": 2375,
  "jia1 na2 da4 ": 2376,
  "chao2 xian1 ": 2377,
  " ying1 guo2 ": 2378,
  "da1 ": 2379,
  "yue1 han4 ": 2380,
  "14 ri4 ": 2381,
  "29 ri4 ": 2382,
  " hai3 ba2 gao1 du4 ": 2383,
  " chong2 ": 2384,
  "dui4 de ": 2385,
  "si1 de ": 2386,
  "bing4 bu4 ": 2387,
  "yuan2 yin1 ": 2388,
  "jing3 cha2 ": 2389,
  " jia3 ": 2390,
  "za2 zhi4 ": 2391,
  "jian4 yu2 ": 2392,
  "ge4 yue4 ": 2393,
  " ta1 shi4 ": 2394,
  "deng3 di4 ": 2395,
  " shu3 ": 2396,
  "li3 de ": 2397,
  "fen1 xi1 ": 2398,
  "tan1 ": 2399,
  "qu3 dai4 ": 2400,
  "er3 de2 ": 2401,
  " wai4 ": 2402,
  " shui3 ": 2403,
  "wei4 ren2 ": 2404,
  "guan1 fang1 ": 2405,
  " dang1 zhong1 ": 2406,
  "jing1 li4 ": 2407,
  "xia4 xia2 ": 2408,
  "ping2 lun4 ": 2409,
  " qi3 ": 2410,
  "she4 bei4 ": 2411,
  "ter": 2412,
  "ur": 2413,
  "13 ri4 ": 2414,
  "50": 2415,
  "xie2 zhu4 ": 2416,
  "sai4 ji4 ": 2417,
  "bi3 ya4 ": 2418,
  "zuo3 you4 ": 2419,
  "wang3 zhan4 ": 2420,
  "dang1 xuan3 ": 2421,
  "UTC ": 2422,
  "she4 qu1 ": 2423,
  "ren4 ming4 ": 2424,
  "ao4 lin2 pi3 ke4 ": 2425,
  "tu3 di4 ": 2426,
  "mu4 di4 ": 2427,
  "duo1 de ": 2428,
  "di4 qu1 de ": 2429,
  "I ": 2430,
  "bu4 yu2 ": 2431,
  "yun4 shu1 ": 2432,
  " hei1 ": 2433,
  "qiang3 ": 2434,
  "che1 liang4 ": 2435,
  "er4 nian2 ": 2436,
  "she2 ": 2437,
  "xi1 nan2 ": 2438,
  "pin2 dao4 ": 2439,
  "shuo4 ": 2440,
  " ran2 hou4 ": 2441,
  "hui4 de ": 2442,
  "hui4 zai4 ": 2443,
  "31 ri4 ": 2444,
  "on ": 2445,
  "xi1 la4 ": 2446,
  "ding4 yi4 ": 2447,
  " 14": 2448,
  "yuan2 zhu4 ": 2449,
  "wei2 zhu3 ": 2450,
  "   18": 2451,
  "si1 ke1 ": 2452,
  "zai4 di4 ": 2453,
  "zhan4 yi4 ": 2454,
  "de shi2 qu1 wei4 ": 2455,
  "xi1 bei3 ": 2456,
  "ying3 pian4 ": 2457,
  "man4 hua4 ": 2458,
  "ir": 2459,
  "su4 du4 ": 2460,
  "25 ": 2461,
  "yi1 wei4 ": 2462,
  " qi2 hou4 ": 2463,
  "ye4 wu4 ": 2464,
  "ma3 lai2 ": 2465,
  "bao3 chi2 ": 2466,
  " zhong1 hua2 ren2 min2 gong4 he2 guo2 ": 2467,
  " 191": 2468,
  "   F": 2469,
  "   ju4 ": 2470,
  "23 ": 2471,
  "yi4 yuan4 ": 2472,
  "he   ": 2473,
  "quan4 ": 2474,
  "han3 ": 2475,
  "su2 ": 2476,
  "zuo4 jia1 ": 2477,
  "wei4 le ": 2478,
  "ze2 shi4 ": 2479,
  " O": 2480,
  "mao4 yi4 ": 2481,
  "nan2 sheng3 ": 2482,
  "fen1 lei4 ": 2483,
  "xuan1 chuan2 ": 2484,
  "quan2 bu4 ": 2485,
  " yi2 ge4 ": 2486,
  "an ": 2487,
  " tong1 chang2 ": 2488,
  " 20": 2489,
  " ya4 ": 2490,
  "zhai2 ": 2491,
  " jing3 ": 2492,
  "deng4 ": 2493,
  "zhi3 shi4 ": 2494,
  "jian4 yi4 ": 2495,
  "qing2 kuang4 xia4 ": 2496,
  "ren2 zai4 ": 2497,
  " tou2 ": 2498,
  "zui4 da4 ": 2499,
  "wei4 mei3 ": 2500,
  " cheng1 ": 2501,
  " ruo4 ": 2502,
  "can1 sai4 ": 2503,
  "nan2 xing4 ": 2504,
  "zu": 2505,
  "zheng1 yi4 ": 2506,
  "shi2 shi1 ": 2507,
  "fang1 an4 ": 2508,
  "te": 2509,
  "tiao2 jian4 ": 2510,
  "zhuang4 tai4 ": 2511,
  " wei4 yu2 gai1 guo2 ": 2512,
  "E ": 2513,
  "zhan1 ": 2514,
  " bian1 ": 2515,
  "qi4 che1 ": 2516,
  "xuan3 shou3 ": 2517,
  " jian3 cheng1 ": 2518,
  " fen1 bie2 ": 2519,
  "zuo4 zhan4 ": 2520,
  " mei2 ": 2521,
  "sheng3 ji2 ": 2522,
  "dian4 shi4 ju4 ": 2523,
  "di4 wei4 ": 2524,
  "hui2 dao4 ": 2525,
  "lian2 xu4 ": 2526,
  " ren4 wei2 ": 2527,
  " wei4 le ": 2528,
  " shen2 ": 2529,
  " shuang1 ": 2530,
  "ng ": 2531,
  "zuo4 chu1 ": 2532,
  " dan1 ren4 ": 2533,
  "   I": 2534,
  "ren2 kou3 shu4 liang4 ": 2535,
  "er2 zi ": 2536,
  "ni1 ": 2537,
  "jiao4 tang2 ": 2538,
  "tong3 ji4 ": 2539,
  "bo2 shi4 ": 2540,
  "ju4 jue2 ": 2541,
  "po4 huai4 ": 2542,
  "wu3 qi4 ": 2543,
  "cao2 ": 2544,
  "zhu3 jue2 ": 2545,
  "ping2 jia4 ": 2546,
  "duo1 ci4 ": 2547,
  "ke1 ji4 ": 2548,
  "ti3 de ": 2549,
  " zhe4 yi1 ": 2550,
  "liu4 nian2 ": 2551,
  "ceng2 jing1 ": 2552,
  "zong1 he2 ": 2553,
  "she3 ": 2554,
  "bei4 er3 ": 2555,
  "gai3 bian4 ": 2556,
  " shi4 fa3 guo2 ": 2557,
  "17 ": 2558,
  "27": 2559,
  "zeng4 ": 2560,
  " 190": 2561,
  "sui1 ran2 ": 2562,
  "xi1 wang4 ": 2563,
  "ni4 ": 2564,
  "hai2 you3 ": 2565,
  "pao3 ": 2566,
  "guo2 de ": 2567,
  "gai4 nian4 ": 2568,
  "zui4 da4 de ": 2569,
  "un": 2570,
  "bang1 zhu4 ": 2571,
  " ai1 ": 2572,
  "er2 tong2 ": 2573,
  "hong1 ": 2574,
  "me": 2575,
  "guang3 zhou1 ": 2576,
  "hai3 ba2 ": 2577,
  "ding4 wei4 ": 2578,
  "dao3 yan3 ": 2579,
  " shu1 ": 2580,
  "shang4 wei4 ": 2581,
  "zhan3 kai1 ": 2582,
  " qi2 ta1 ": 2583,
  " fan3 ": 2584,
  "yi1 shi4 ": 2585,
  " fen1 bu4 yu2 ": 2586,
  "zhi1 wai4 ": 2587,
  "gao3 ": 2588,
  "de shu4 ju4 ": 2589,
  "yun4 ying2 ": 2590,
  "de yi4 ": 2591,
  "ping2 tai2 ": 2592,
  "jing1 ying2 ": 2593,
  "ji4 cheng2 ": 2594,
  "zhi4 liao2 ": 2595,
  "guan1 yuan2 ": 2596,
  "tun2 ": 2597,
  " ci3 hou4 ": 2598,
  "zhan4 ling3 ": 2599,
  "zu3 he2 ": 2600,
  "fei1 xing2 ": 2601,
  "zi1 yuan2 ": 2602,
  " tu2 ": 2603,
  "jian3 shao3 ": 2604,
  "kan3 ": 2605,
  "lu4 di4 ": 2606,
  "jie3 jue2 ": 2607,
  "  formula ": 2608,
  " fei4 ": 2609,
  "le yi2 ge4 ": 2610,
  "EE": 2611,
  "nei4 bu4 ": 2612,
  " shen4 zhi4 ": 2613,
  " mi3 ": 2614,
  "de qian2 ": 2615,
  "da4 li4 ya4 ": 2616,
  "tou2 piao4 ": 2617,
  "00 wan4 ": 2618,
  "guo1 ": 2619,
  "di4 tie3 ": 2620,
  "xing1 jian4 ": 2621,
  "193": 2622,
  "ji1 du1 ": 2623,
  "de shi4 zhen4 ": 2624,
  " da2 ": 2625,
  "jie2 he2 ": 2626,
  "fei2 ": 2627,
  " ye4 ": 2628,
  "hen3 duo1 ": 2629,
  "   zheng4 zhi4 ": 2630,
  "fu4 ze2 guan3 xia2 ": 2631,
  "xian4 lu4 ": 2632,
  "gai1 di4 ": 2633,
  "   zhe4 ": 2634,
  "bi3 jiao4 ": 2635,
  "zong4 ": 2636,
  "nian2 de ": 2637,
  "ce4 shi4 ": 2638,
  "xiang1 dui4 ": 2639,
  "xie2 yi4 ": 2640,
  "zai4 200": 2641,
  "liu2 xing2 ": 2642,
  "ba1 li2 ": 2643,
  "wu2 xian4 ": 2644,
  "qiong2 ": 2645,
  " sai4 ": 2646,
  "mei3 guo2 ren2 kou3 pu3 cha2 ": 2647,
  "kong1 jun1 ": 2648,
  "chuang2 ": 2649,
  "zhai4 ": 2650,
  "28": 2651,
  "li4 yu2 ": 2652,
  "di4 qiu2 ": 2653,
  " dao3 zhi4 ": 2654,
  "zai4 201": 2655,
  "mian4 de ": 2656,
  "ji1 jin1 ": 2657,
  "ying1 ge2 lan2 ": 2658,
  "nan2 jing1 ": 2659,
  "lai2 yuan2 ": 2660,
  "di4 xia4 ": 2661,
  "nv3 er2 ": 2662,
  "chu2 le ": 2663,
  "jian4 dui4 ": 2664,
  "chui2 ": 2665,
  "juan1 ": 2666,
  "jin4 gong1 ": 2667,
  " shu4 ": 2668,
  "   you2 yu2 ": 2669,
  "xiong1 di4 ": 2670,
  "da4 lou2 ": 2671,
  "miao3 ": 2672,
  "zhi4 jin1 ": 2673,
  "sheng3 de yi2 ge4 shi4 zhen4 ": 2674,
  " song4 ": 2675,
  " tong1 guo4 ": 2676,
  "ying1 chi3 ": 2677,
  "V ": 2678,
  "jia1 po1 ": 2679,
  "yi3 shang4 ": 2680,
  " 10": 2681,
  " chao2 ": 2682,
  "shi2 xian4 ": 2683,
  "da4 chen2 ": 2684,
  "suo3 shu3 de ": 2685,
  "ban4 dao3 ": 2686,
  " di2 ": 2687,
  "dian4 zi ": 2688,
  "lv3 you2 ": 2689,
  " yong3 ": 2690,
  "tian1 zhu3 jiao4 ": 2691,
  "zhen4 qu1 ": 2692,
  "   ta1 ": 2693,
  "li3 shi4 ": 2694,
  " di4 yi1 ": 2695,
  "mian2 ": 2696,
  "shu4 de ": 2697,
  "wang2 chao2 ": 2698,
  "B ": 2699,
  "xue1 ": 2700,
  "yan2 jiu1 suo3 ": 2701,
  "fo2 jiao4 ": 2702,
  "zui4 chu1 ": 2703,
  "di4 er4 ci4 ": 2704,
  "fei3 ": 2705,
  "40": 2706,
  "ming2 dan1 ": 2707,
  "NS": 2708,
  "ji1 de ": 2709,
  " 6 ": 2710,
  "zi de ": 2711,
  "chu1 qi1 ": 2712,
  "fen4 zi3 ": 2713,
  "shan1 dong1 ": 2714,
  "jia4 zhi2 ": 2715,
  "sheng1 yu2 ": 2716,
  " 2011 nian2 ": 2717,
  " jing4 ": 2718,
  "he2 xin1 ": 2719,
  " sa4 ": 2720,
  "chang2 qi1 ": 2721,
  "jin4 de ": 2722,
  "oc": 2723,
  "zhou2 ": 2724,
  "ji4 zai3 ": 2725,
  "yi2 bu4 ": 2726,
  "chan3 ye4 ": 2727,
  "guo2 min2 dang3 ": 2728,
  " min2 ": 2729,
  "er3 de ": 2730,
  "he2 ping2 ": 2731,
  " jiang3 ": 2732,
  "wo1 ": 2733,
  "di4 yi1 ci4 ": 2734,
  "ji1 che1 ": 2735,
  "yun4 xing2 ": 2736,
  "wen2 wu4 bao3 hu4 ": 2737,
  "   W": 2738,
  "shuai1 ": 2739,
  "ji4 zhe3 ": 2740,
  "ke4 de ": 2741,
  "jing1 chang2 ": 2742,
  "chuang1 ": 2743,
  "gan3 ran3 ": 2744,
  "huang2 di4 ": 2745,
  "huan3 ": 2746,
  "and   ": 2747,
  "shi4 zhong1 ": 2748,
  "zui4 zao3 ": 2749,
  "chang4 pian4 ": 2750,
  "qi4 hou4 ": 2751,
  "mi4 shu1 ": 2752,
  "de2 li3 ": 2753,
  "wan4 ren2 ": 2754,
  "xing1 qi1 ": 2755,
  "fang1 de ": 2756,
  "yin3 qi3 ": 2757,
  "gua1 ": 2758,
  "da4 xing2 ": 2759,
  " jiao1 ": 2760,
  "bei4 ren4 wei2 ": 2761,
  "qu3 xiao1 ": 2762,
  " pei4 ": 2763,
  " ni2 ": 2764,
  "xuan3 qu1 ": 2765,
  "duo1 ge4 ": 2766,
  "chong1 tu1 ": 2767,
  "xi1 yang2 ": 2768,
  "ji1 di4 ": 2769,
  "wei2 chi2 ": 2770,
  "shou1 ru4 ": 2771,
  "   197": 2772,
  "jing1 shen2 ": 2773,
  " wu1 ": 2774,
  "dao1 ": 2775,
  " fa3 guo2 ": 2776,
  "da4 shi3 ": 2777,
  "jia1 de ": 2778,
  "chu1 ren4 ": 2779,
  "bo1 lan2 ": 2780,
  "wei4 neng2 ": 2781,
  " chu3 ": 2782,
  "guo4 qu4 ": 2783,
  "tong3 yi1 ": 2784,
  "tong4 ": 2785,
  "shi4 jie4 da4 zhan4 ": 2786,
  "bo2 te4 ": 2787,
  " shi4 yi2 ge4 ": 2788,
  "kuai4 su4 ": 2789,
  "san1 shi2 ": 2790,
  "xiao3 zu3 ": 2791,
  "   195": 2792,
  "pan1 ": 2793,
  "shao4 nian2 ": 2794,
  "li4 liang4 ": 2795,
  " br ": 2796,
  "xian4 de yi2 ge4 ": 2797,
  "wei2 ya4 ": 2798,
  " zheng3 ": 2799,
  " ci2 ": 2800,
  "he2 wu4 ": 2801,
  "de yi1 zhong3 ": 2802,
  "ji1 guan1 ": 2803,
  "zhi4 202": 2804,
  "qi2 yu2 ": 2805,
  "ke3 da2 ": 2806,
  "gua4 ": 2807,
  "shi4 yan3 ": 2808,
  "pi1 zhun3 ": 2809,
  "xi1 sheng3 ": 2810,
  "is": 2811,
  " mei2 you3 ": 2812,
  "di4 wu3 ": 2813,
  "wen2 wu4 bao3 hu4 dan1 wei4 ": 2814,
  "xiao3 xue2 ": 2815,
  "yang4 de ": 2816,
  "sai1 er3 ": 2817,
  "yu3 de ": 2818,
  "se4 lie4 ": 2819,
  "zhi1 xian4 ": 2820,
  "26": 2821,
  " shi4 jie4 ": 2822,
  "jiao1 yi4 ": 2823,
  "si1 ke4 ": 2824,
  "cheng2 du4 ": 2825,
  "da4 yue1 ": 2826,
  "shi3 de ": 2827,
  "wa1 ": 2828,
  "zheng4 ming2 ": 2829,
  "29": 2830,
  "zhu4 ming2 ": 2831,
  "tong2 yi4 ": 2832,
  " 2010 nian2 ": 2833,
  "de bu4 ": 2834,
  "tie3 dao4 ": 2835,
  " U": 2836,
  "zheng4 zai4 ": 2837,
  "fang3 wen4 ": 2838,
  "ao4 lin2 pi3 ke4 yun4 dong4 hui4 ": 2839,
  "tuo2 ": 2840,
  "tai4 ping2 yang2 ": 2841,
  "   E": 2842,
  "bao3 liu2 ": 2843,
  "tu2 shu1 ": 2844,
  "shou1 lu4 ": 2845,
  "tie1 ": 2846,
  "shang4 shi4 ": 2847,
  " 2009 nian2 ": 2848,
  "heng1 ": 2849,
  "dai4 de ": 2850,
  "fan3 hui2 ": 2851,
  "zheng3 ge4 ": 2852,
  " yi4 ban1 ": 2853,
  " dong4 ": 2854,
  "yun3 xu3 ": 2855,
  " kai1 shi3 ": 2856,
  "wu3 zhuang1 ": 2857,
  "   shi4 ": 2858,
  "ji1 yu2 ": 2859,
  "shuo1 fa3 ": 2860,
  " luo4 ": 2861,
  "he2 de ": 2862,
  "zhun3 bei4 ": 2863,
  " chao1 ": 2864,
  "zhu4 zuo4 ": 2865,
  "qi1 zi3 ": 2866,
  "ig": 2867,
  " du2 ": 2868,
  "tian1 jin1 ": 2869,
  "nian2 qing1 ": 2870,
  "yi1 si1 ": 2871,
  "zhi1 shi2 ": 2872,
  " an4 ": 2873,
  "zong3 li3 ": 2874,
  " te4 bie2 ": 2875,
  "zhe4 jiang1 ": 2876,
  "wei4 de ": 2877,
  "you3 xiao4 ": 2878,
  "jun1 de ": 2879,
  " bu4 fen4 ": 2880,
  "qiao2 zhi4 ": 2881,
  "qian2 de ": 2882,
  "huang2 jia1 ": 2883,
  "yue4 nan2 ": 2884,
  "fu2 jian4 ": 2885,
  "zhang3 de ": 2886,
  "ren2 he2 ": 2887,
  "bao4 dao4 ": 2888,
  " shi4 zhen4 ": 2889,
  "80 ": 2890,
  "shi4 yi3 ": 2891,
  "li4 si1 ": 2892,
  "zuo4 biao1 ": 2893,
  "se4 de ": 2894,
  "yi4 zhi4 ": 2895,
  "qiu2 chang3 ": 2896,
  " chuang4 ": 2897,
  " lan2 ": 2898,
  "tiao2 yue1 ": 2899,
  "bian3 ": 2900,
  "jian4 zhi4 ": 2901,
  "lie4 wei4 ": 2902,
  "guo2 nei4 ": 2903,
  " dui4 yu2 ": 2904,
  "yao1 qing3 ": 2905,
  "tang1 ": 2906,
  "w ": 2907,
  "qi3 lai2 ": 2908,
  "mi3 er3 ": 2909,
  "tiao4 ": 2910,
  "xing2 zheng4 qu1 hua4 ": 2911,
  "ji2 wei4 ": 2912,
  "wei3 hui4 ": 2913,
  "zhong4 yao4 de ": 2914,
  " zhuan3 ": 2915,
  "ag": 2916,
  "ren2 shu4 ": 2917,
  "tou2 ru4 ": 2918,
  "shi3 yong4 de ": 2919,
  "hao3 de ": 2920,
  "jian4 cheng2 ": 2921,
  "lin2 shi2 ": 2922,
  "32 ": 2923,
  " guang1 ": 2924,
  "   196": 2925,
  "ru2 xia4 ": 2926,
  "yu2 198": 2927,
  "zhi4 201": 2928,
  "huo4 de2 le ": 2929,
  "hao4 xian4 ": 2930,
  "   N": 2931,
  " bing4 yu2 ": 2932,
  "wang2 guo2 ": 2933,
  "av": 2934,
  "ge4 di4 ": 2935,
  "shan1 mai4 ": 2936,
  "da4 dao4 ": 2937,
  "cheng2 xian4 ": 2938,
  "er3 te4 ": 2939,
  " hao2 ": 2940,
  "zheng4 dang3 ": 2941,
  "biao3 da2 ": 2942,
  " chu2 le ": 2943,
  "si4 chuan1 ": 2944,
  "gong1 fen1 ": 2945,
  "gao1 ji2 ": 2946,
  "guai4 ": 2947,
  "ru4 qin1 ": 2948,
  " xiang3 ": 2949,
  "op": 2950,
  " guo2 jia1 ": 2951,
  "200 ": 2952,
  "jian3 cha2 ": 2953,
  "chu1 shen1 ": 2954,
  "jiao4 hui4 ": 2955,
  "zhu3 yan3 ": 2956,
  "de zhu3 yao4 ": 2957,
  "ji1 hu1 ": 2958,
  "tao3 lun4 ": 2959,
  "shang4 ying4 ": 2960,
  "ke4 cheng2 ": 2961,
  "er3 qi2 ": 2962,
  "jian1 de ": 2963,
  "   che1 zhan4 ": 2964,
  "guan1 zhong4 ": 2965,
  "zhan4 shi4 ": 2966,
  "ren2 min2 zheng4 fu3 ": 2967,
  "xiao1 shou4 ": 2968,
  "cheng2 ren4 ": 2969,
  "   the   ": 2970,
  "xia4 ling4 ": 2971,
  "yi2 zhi4 ": 2972,
  "R ": 2973,
  "ni2 si1 ": 2974,
  "shi2 fen1 ": 2975,
  " han": 2976,
  "zi4 xing2 ": 2977,
  " you2 xi4 ": 2978,
  "lai2 shuo1 ": 2979,
  "xian4 xiang4 ": 2980,
  "xi1 ge1 ": 2981,
  "chai2 ": 2982,
  "de gong1 ": 2983,
  "chu1 le ": 2984,
  "pu2 tao2 ": 2985,
  "wen2 zhang1 ": 2986,
  "hai3 an4 ": 2987,
  "00 mi3 ": 2988,
  "wei2 qi2 ": 2989,
  "l ": 2990,
  " long2 ": 2991,
  "he2 lan2 ": 2992,
  "la1 ke4 ": 2993,
  "zao3 nian2 ": 2994,
  " jia4 ": 2995,
  "   2021 nian2 ": 2996,
  "chi1 ": 2997,
  "wei4 fa3 guo2 ": 2998,
  "yi3 hou4 ": 2999,
  "   xing2 zheng4 ": 3000,
  "fa1 dian4 ": 3001,
  "bu4 duan4 ": 3002,
  "tong2 yi1 ": 3003,
  "que4 ding4 ": 3004,
  "bing4 du2 ": 3005,
  " tiao2 ": 3006,
  "ao4 men2 ": 3007,
  " V": 3008,
  "de ying3 xiang3 ": 3009,
  "   yu2 ": 3010,
  "yuan2 su4 ": 3011,
  " da3 ": 3012,
  "an1 na4 ": 3013,
  "jiu4 shi4 zhen4 ": 3014,
  " kang1 ": 3015,
  "xian1 hou4 ": 3016,
  " xia4 ling4 ": 3017,
  "chan2 ": 3018,
  "hai2 shi4 ": 3019,
  "sheng4 li4 ": 3020,
  "gao1 deng3 ": 3021,
  "yong4 de ": 3022,
  "1   ": 3023,
  " ceng2 ren4 ": 3024,
  "dian4 tai2 ": 3025,
  "deng1 lu4 ": 3026,
  " you4 cheng1 ": 3027,
  "ka1 ": 3028,
  "yi4 shi4 ": 3029,
  "yi4 shi2 ": 3030,
  "   2019 nian2 ": 3031,
  "guo2 hui4 ": 3032,
  "guo4 cheng2 zhong1 ": 3033,
  " qian1 ": 3034,
  "   193": 3035,
  "ren2 gong1 ": 3036,
  "ov": 3037,
  "liu3 ": 3038,
  "ke1 de ": 3039,
  "zuo4 de ": 3040,
  "cai2 zheng4 ": 3041,
  "shou3 du1 ": 3042,
  "zhi2 min2 ": 3043,
  "tian1 wen2 ": 3044,
  "zhi1 yuan2 ": 3045,
  "xian4 shi2 ": 3046,
  " tui1 ": 3047,
  "zhong1 wen2 ": 3048,
  "bu4 shao3 ": 3049,
  "wen3 ding4 ": 3050,
  "gao1 de ": 3051,
  "xin4 hao4 ": 3052,
  "bu4 zu2 ": 3053,
  "you2 tai4 ": 3054,
  "ti3 xi4 ": 3055,
  " tu3 ": 3056,
  "bing4 wei4 ": 3057,
  "bu4 ming2 ": 3058,
  "zhou1 bian1 ": 3059,
  "guo2 fang2 ": 3060,
  "hou4 xuan3 ": 3061,
  "jin4 xing2 le ": 3062,
  "jie3 fang4 jun1 ": 3063,
  "zai4 ci3 ": 3064,
  " wei4 yu2 fa3 guo2 ": 3065,
  "gai3 bian1 ": 3066,
  " ping2 fang1 gong1 li3 ": 3067,
  "os": 3068,
  "M ": 3069,
  "de shi2 hou4 ": 3070,
  "shi4 fou3 ": 3071,
  "   2020 nian2 ": 3072,
  "nu2 ": 3073,
  "min2 zhong4 ": 3074,
  "te4 shu1 ": 3075,
  "shi4 li4 ": 3076,
  "liang4 de ": 3077,
  "mo2 xing2 ": 3078,
  "yang3 hua4 ": 3079,
  "he2 liu2 ": 3080,
  "tiao3 ": 3081,
  "si1 xiang3 ": 3082,
  "wen2 jian4 ": 3083,
  "pu3 tong1 ": 3084,
  "an1 pai2 ": 3085,
  "ren2 kou3 shu4 liang4 wei4 ren2 ": 3086,
  "de2 yi3 ": 3087,
  " bai3 ": 3088,
  " cai3 ": 3089,
  " hu4 ": 3090,
  "wai4 de ": 3091,
  "lei4 xing2 ": 3092,
  "zha2 ": 3093,
  "xiang1 si4 ": 3094,
  "jie3 shi4 ": 3095,
  "shen1 qing3 ": 3096,
  "ting2 zhi3 ": 3097,
  "jie1 rang3 de shi4 zhen4 ": 3098,
  "liao3 ": 3099,
  " INS": 3100,
  "dui4 shou3 ": 3101,
  " xian4 zai4 ": 3102,
  "xian4 fa3 ": 3103,
  "tiao2 zheng3 ": 3104,
  "   2018 nian2 ": 3105,
  "chao1 ji2 ": 3106,
  "60": 3107,
  " shi3 yong4 ": 3108,
  "20 shi4 ji4 ": 3109,
  " he4 ": 3110,
  "zi4 dong4 ": 3111,
  "ku3 ": 3112,
  "zheng4 bian1 ma3 wei4 ": 3113,
  "zhen1 dui4 ": 3114,
  "cong2 shi4 ": 3115,
  "guang3 gao4 ": 3116,
  "xiao4 zhang3 ": 3117,
  "pu4 ": 3118,
  " che1 zhan4 ": 3119,
  "sha4 ": 3120,
  "ke3 neng2 shi4 ": 3121,
  "chu1 sheng1 yu2 ": 3122,
  "37": 3123,
  "ru4 kou3 ": 3124,
  "zhong4 dian3 ": 3125,
  "xiao1 xi1 ": 3126,
  "dou1 you3 ": 3127,
  "chuan4 ": 3128,
  "heng2 xing1 ": 3129,
  " xu3 duo1 ": 3130,
  "de fu4 ": 3131,
  "guo2 li4 ": 3132,
  "ying1 wen2 ": 3133,
  "yi2 dong4 ": 3134,
  "lian2 xi4 ": 3135,
  "jin4 yi2 bu4 ": 3136,
  " pi2 ": 3137,
  "chu4 de ": 3138,
  "shao3 shu4 ": 3139,
  "mei3 ping2 fang1 gong1 li3 ": 3140,
  " 2013 nian2 ": 3141,
  " INSEE": 3142,
  "mu3 si1 ": 3143,
  " ming2 chao2 ": 3144,
  "min2 zhu3 dang3 ": 3145,
  "dan4 bai2 ": 3146,
  "yin1 su4 ": 3147,
  "ying1 yu3 ": 3148,
  "de di4 fang1 ": 3149,
  "gong1 chang3 ": 3150,
  "ri4 jun1 ": 3151,
  "yi2 min2 ": 3152,
  "ma3 li4 ": 3153,
  "feng1 bao4 ": 3154,
  "8 ren2 ": 3155,
  "gan3 dao4 ": 3156,
  "35": 3157,
  "zi4 zhi4 qu1 ": 3158,
  "zhuang4 kuang4 ": 3159,
  "ming2 xian3 ": 3160,
  "li4 shi3 shang4 ": 3161,
  "zhan4 de ": 3162,
  " ban4 ": 3163,
  "gong4 you3 ren2 kou3 ": 3164,
  "cai2 liao4 ": 3165,
  " 2019 nian2 ": 3166,
  " zong3 mian4 ji1 ": 3167,
  "nian2 du4 ": 3168,
  "biao3 ming2 ": 3169,
  "meng3 ": 3170,
  "og": 3171,
  "   c": 3172,
  "jie1 jin4 ": 3173,
  "ba1 nian2 ": 3174,
  " hen3 ": 3175,
  " fa1 ": 3176,
  "cheng2 xu4 ": 3177,
  " yu2 201": 3178,
  " 2008 nian2 ": 3179,
  "dian4 nao3 ": 3180,
  "sheng1 de ": 3181,
  "yi2 chan3 ": 3182,
  "fa3 lan2 ": 3183,
  "chong2 jian4 ": 3184,
  "huang1 ": 3185,
  "xue2 shu4 ": 3186,
  "ru4 xuan3 ": 3187,
  "   yi1 ": 3188,
  " cheng2 qu1 ": 3189,
  "kao3 lv4 ": 3190,
  "es ": 3191,
  " fan4 ": 3192,
  "pin3 pai2 ": 3193,
  "shou4 shang1 ": 3194,
  "yuan2 ben3 ": 3195,
  "ap": 3196,
  "gong1 min2 ": 3197,
  "zhi1 dao4 ": 3198,
  "yi2 zhi3 ": 3199,
  "yi2 ding4 ": 3200,
  "6 ren2 ": 3201,
  "li3 ya4 ": 3202,
  "bian4 cheng2 ": 3203,
  "du3 ": 3204,
  "ren2 kou3 mi4 du4 wei4 mei3 ": 3205,
  " shi4 zhen4 bian1 ma3 wei4 ": 3206,
  " INSEE shi4 zhen4 bian1 ma3 wei4 ": 3207,
  " ren2 kou3 mi4 du4 mei3 ping2 fang1 gong1 li3 ": 3208,
  " xiu1 ": 3209,
  "jiu4 du2 ": 3210,
  "ling4 yi1 ": 3211,
  " cong2 er2 ": 3212,
  " wan4 ": 3213,
  "『": 3214,
  "ping2 fang1 mi3 ": 3215,
  "』": 3216,
  "xuan3 qu1 wei4 ": 3217,
  " xia4 ling4 shi2 ": 3218,
  "biao1 zhi4 ": 3219,
  "2   ": 3220,
  "   K": 3221,
  "shi2 de ren2 kou3 shu4 liang4 wei4 ren2 ": 3222,
  "zong3 du1 ": 3223,
  "   2017 nian2 ": 3224,
  "mei3 guo2 ren2 kou3 pu3 cha2 de shu4 ju4 ": 3225,
  "xiang1 shi4 ": 3226,
  "xing2 tai4 ": 3227,
  " er2 ren2 kou3 mi4 du4 wei4 mei3 ": 3228,
  " dang1 di4 gong4 you3 ren2 kou3 ": 3229,
  " er2 ren2 kou3 mi4 du4 wei4 mei3 ping2 fang1 qian1 mi3 ": 3230,
  "zai4 mei3 guo2 ": 3231,
  "hun2 ": 3232,
  "5 ren2 ": 3233,
  "shui3 ping2 ": 3234,
  "wu4 zhi4 ": 3235,
  "de you2 zheng4 bian1 ma3 wei4 ": 3236,
  "di4 li4 ": 3237,
  "yue4 tuan2 ": 3238,
  "yan2 ge2 ": 3239,
  " huo4 jiu4 shi4 zhen4 ": 3240,
  " gai1 sheng3 fen4 ": 3241,
  "qiang2 diao4 ": 3242,
  " 2018 nian2 ": 3243,
  "wei4 xing1 ": 3244,
  " guo4 ": 3245,
  " hai2 you3 ": 3246,
  "xia4 wu3 ": 3247,
  "te4 de ": 3248,
  "sheng3 ji2 xuan3 qu1 wei4 ": 3249,
  "suo3 shu3 de sheng3 ji2 xuan3 qu1 wei4 ": 3250,
  "an1 zhuang1 ": 3251,
  "he2 nan2 ": 3252,
  " 2016 nian2 ": 3253,
  "ke4 li3 ": 3254,
  "wen2 ming2 ": 3255,
  "xun4 su4 ": 3256,
  "ma3 lai2 xi1 ya4 ": 3257,
  "bu4 ke3 ": 3258,
  "jiao1 liu2 ": 3259,
  "sui2 hou4 ": 3260,
  "ao4 da4 li4 ya4 ": 3261,
  "ji4 de ": 3262,
  "yi2 shi4 ": 3263,
  " reng2 ": 3264,
  " gai1 sheng3 fen4 wei4 fa3 guo2 ": 3265,
  "xian4 ren2 ": 3266,
  " zhong1 yang1 ": 3267,
  "70 ": 3268,
  "   nian2 ": 3269,
  "shi4 tu2 ": 3270,
  "dao3 de ": 3271,
  "2008 nian2 ": 3272,
  "wei4 yi1 ": 3273,
  "ba1 xi1 ": 3274,
  "sa1 ": 3275,
  "er4 shi4 ": 3276,
  "   2016 nian2 ": 3277,
  "di3 da2 ": 3278,
  "24": 3279,
  "fen2 ": 3280,
  "ai4 er3 ": 3281,
  "tuan2 dui4 ": 3282,
  "ju4 ji2 ": 3283,
  " shang4 hai3 ": 3284,
  "jin1 shu3 ": 3285,
  "ed   ": 3286,
  "ying2 yun4 ": 3287,
  "que1 fa2 ": 3288,
  "zhao4 kai1 ": 3289,
  "an4 jian4 ": 3290,
  "da4 duo1 shu4 ": 3291,
  "shi4 qu1 ": 3292,
  "wei1 xie2 ": 3293,
  "tai1 ": 3294,
  " hua1 ": 3295,
  "ming4 ling4 ": 3296,
  "7 ren2 ": 3297,
  " er2 shi4 ": 3298,
  " yin4 du4 ": 3299,
  "wu4 yuan4 ": 3300,
  "huan1 ying2 ": 3301,
  "fang4 qi4 ": 3302,
  " yao4 ": 3303,
  "shang4 shu1 ": 3304,
  "guan1 cha2 ": 3305,
  "xu1 qiu2 ": 3306,
  " tuo1 ": 3307,
  "yong4 lai2 ": 3308,
  "jie2 hun1 ": 3309,
  "ren2 da4 ": 3310,
  "jian4 kang1 ": 3311,
  "chu3 yu2 ": 3312,
  " 2014 nian2 ": 3313,
  "hai3 yu4 ": 3314,
  "ling4 wai4 ": 3315,
  " jie2 guo3 ": 3316,
  "ab": 3317,
  " lei2 ": 3318,
  "gui1 ze2 ": 3319,
  "bian1 hao4 ": 3320,
  " zhong1 gong4 ": 3321,
  "chu1 kou3 ": 3322,
  " nv3 ": 3323,
  "bei3 mei3 ": 3324,
  "zhan4 hou4 ": 3325,
  "nian2 jian1 ": 3326,
  "qi3 yong4 ": 3327,
  "zhi1 ming2 ": 3328,
  "tong2 yang4 ": 3329,
  "ub": 3330,
  "2022 nian2 ": 3331,
  "fei1 zhou1 ": 3332,
  "ad": 3333,
  "dao4 da2 ": 3334,
  "gao1 zhong1 ": 3335,
  "wu2 ren2 ": 3336,
  "ping2 mian4 ": 3337,
  " er2 zai4 ": 3338,
  "F ": 3339,
  " 2015 nian2 ": 3340,
  " e2 luo2 si1 ": 3341,
  "rao3 ": 3342,
  "ke3 neng2 hui4 ": 3343,
  "   2022 nian2 ": 3344,
  "N ": 3345,
  " li2 ": 3346,
  "ak": 3347,
  "peng2 you3 ": 3348,
  "1 ren2 ": 3349,
  "yan2 shen1 ": 3350,
  "shi1 bai4 ": 3351,
  " xiao4 ": 3352,
  " 2012 nian2 ": 3353,
  " zong3 ren2 kou3 ": 3354,
  "wei4 lai2 ": 3355,
  "zi4 mu3 ": 3356,
  "bu4 luo4 ": 3357,
  "xiang4 de ": 3358,
  " 10 yue4 ": 3359,
  "ao4 si1 ": 3360,
  "pu3 bian4 ": 3361,
  "O ": 3362,
  "di4 yi2 ge4 ": 3363,
  " zheng4 shi4 ": 3364,
  "38": 3365,
  " wang3 ": 3366,
  " 21 ": 3367,
  "yu2 le4 ": 3368,
  "chu1 zhan4 ": 3369,
  "chuan2 shuo1 ": 3370,
  " xiao1 ": 3371,
  " cheng2 li4 ": 3372,
  "xin4 yang3 ": 3373,
  "xi1 zai4 ": 3374,
  "shi1 qu4 ": 3375,
  "zi1 xun4 ": 3376,
  "a1 la1 bo2 ": 3377,
  "36": 3378,
  "zhi1 xia4 ": 3379,
  "yong4 hu4 ": 3380,
  "zheng4 zhuang4 ": 3381,
  " shi4 yi1 zhong3 ": 3382,
  "dong4 li4 ": 3383,
  " yi4 wei4 ": 3384,
  "ben3 tu3 ": 3385,
  "ti2 ming2 ": 3386,
  " de2 guo2 ": 3387,
  "er3 he2 ": 3388,
  "zheng4 quan2 ": 3389,
  "di4 liu4 ": 3390,
  "mei3 nian2 ": 3391,
  "ji1 hui4 ": 3392,
  "nan2 ji2 ": 3393,
  "4 ren2 ": 3394,
  " bei3 jing1 ": 3395,
  "33 ": 3396,
  "ru2 ci3 ": 3397,
  "de sheng1 ": 3398,
  "ti2 sheng1 ": 3399,
  "9 ren2 ": 3400,
  "de yi1 zuo4 ": 3401,
  "jiao4 qu1 ": 3402,
  " yi1 xie1 ": 3403,
  "cheng2 zhen4 ": 3404,
  "jin1 pai2 ": 3405,
  " zhuang1 ": 3406,
  "chen4 ": 3407,
  "fa1 qi3 ": 3408,
  " sun1 ": 3409,
  "xi3 huan1 ": 3410,
  "bing4 mei2 you3 ": 3411,
  "ji2 he2 ": 3412,
  "ying1 gai1 ": 3413,
  "yin3 fa1 ": 3414,
  "wei1 lian2 ": 3415,
  " 2007 nian2 ": 3416,
  "ing": 3417,
  " ba3 ": 3418,
  "jiao4 lian4 ": 3419,
  "au": 3420,
  " zhen4 ": 3421,
  "   jian3 ": 3422,
  "guan1 zhu4 ": 3423,
  " rong2 ": 3424,
  "pu1 ": 3425,
  "yi1 dai4 ": 3426,
  "jiu3 nian2 ": 3427,
  " 2021 nian2 ": 3428,
  " zhao1 ": 3429,
  "ka3 er3 ": 3430,
  "x ": 3431,
  "de zhu3 ": 3432,
  "   2014 nian2 ": 3433,
  "zhi4 shao3 ": 3434,
  "lv4 shi1 ": 3435,
  "   2015 nian2 ": 3436,
  "shi4 yi1 zhong3 ": 3437,
  " qu1 ": 3438,
  " biao3 shi4 ": 3439,
  "xue2 hui4 ": 3440,
  "zhong1 guo2 gong4 chan3 dang3 ": 3441,
  "shi2 zi4 ": 3442,
  "li4 shan1 ": 3443,
  "qiang2 lie4 ": 3444,
  " 2017 nian2 ": 3445,
  "tu2 shu1 guan3 ": 3446,
  "X ": 3447,
  "fen1 zhi1 ": 3448,
  "wei4 sheng1 ": 3449,
  "   jie2 ": 3450,
  "gun3 ": 3451,
  "gong3 ": 3452,
  "mou3 xie1 ": 3453,
  "zheng4 de ": 3454,
  " guang3 ": 3455,
  "wan2 zheng3 ": 3456,
  "shu4 zi4 ": 3457,
  " sai1 ": 3458,
  " dan4 ta1 ": 3459,
  "lv4 bin1 ": 3460,
  "zai4 du4 ": 3461,
  "tuo4 ": 3462,
  "jie4 quan2 guo2 ": 3463,
  "yun2 nan2 ": 3464,
  "cun4 ": 3465,
  " xing4 ": 3466,
  " guo2 ji4 ": 3467,
  "2 ren2 ": 3468,
  "yi1 sheng1 ": 3469,
  "shu4 wei4 ": 3470,
  "tou": 3471,
  " liu4 ": 3472,
  "pin4 ": 3473,
  "geng4 duo1 ": 3474,
  "yan3 chang4 hui4 ": 3475,
  "zhi4 liang4 ": 3476,
  "xian4 chang3 ": 3477,
  "er2 bei4 ": 3478,
  " zhong3 ": 3479,
  "gong4 xian4 ": 3480,
  "ban4 gong1 shi4 ": 3481,
  "yu2 197": 3482,
  " pa4 ": 3483,
  "you3 ren2 ": 3484,
  "xia4 lai2 ": 3485,
  "liang3 zhong3 ": 3486,
  "shi2 yi1 ": 3487,
  "jie2 shu4 hou4 ": 3488,
  " 2005 nian2 ": 3489,
  "xin1 jia1 po1 ": 3490,
  "ling3 tu3 ": 3491,
  "chuang4 ban4 ": 3492,
  "wei4 shi4 ": 3493,
  "   2013 nian2 ": 3494,
  "sen1 lin2 ": 3495,
  "cuo4 shi1 ": 3496,
  "tiao3 zhan4 ": 3498,
  "quan3 ": 3499,
  "cao1 zuo4 ": 3500,
  " jing1 guo4 ": 3501,
  "lv3 ke4 ": 3502,
  "yu3 mao2 ": 3503,
  "qi4 de ": 3504,
  "hao2 mi3 ": 3505,
  "he2 yi1 ": 3506,
  "ji2 bing4 ": 3507,
  " 2020 nian2 ": 3508,
  "qia4 ": 3509,
  "ya1 li4 ": 3510,
  "di4 qi1 ": 3511,
  "zheng4 ju4 ": 3512,
  " rui4 ": 3513,
  "de yan2 jiu1 ": 3514,
  "kan4 dao4 ": 3515,
  "yuan4 zhang3 ": 3516,
  "bu4 jiu3 ": 3517,
  "dui4 wu3 ": 3518,
  "   J": 3519,
  "da4 xi1 yang2 ": 3520,
  "biao3 mian4 ": 3521,
  "qiao3 ": 3522,
  "ot": 3523,
  "zong3 bu4 ": 3524,
  "hua4 shi2 ": 3525,
  "es   ": 3526,
  " zhi3 you3 ": 3527,
  "la1 fu1 ": 3528,
  "   he2 ": 3529,
  " xing1 ": 3530,
  "   O": 3531,
  "ou1 yuan2 ": 3532,
  "le ta1 ": 3533,
  "si4 ge4 ": 3534,
  "fu2 he2 ": 3535,
  "90 ": 3536,
  "suo3 zai4 ": 3537,
  "qi4 xiang4 ": 3538,
  "cun1 zhuang1 ": 3539,
  "kuang2 ": 3540,
  "jiu3 dian4 ": 3541,
  " liang2 ": 3542,
  "jue2 de ": 3543,
  "can1 kao3 ": 3544,
  " fu4 ze2 ": 3545,
  "chu1 xian4 zai4 ": 3546,
  "xun2 hui2 ": 3547,
  "yuan2 yu2 ": 3548,
  " ta3 ": 3549,
  " you4 ming2 ": 3550,
  " dai4 biao3 ": 3551,
  "yi1 tong2 ": 3552,
  "4   ": 3553,
  " cha2 ": 3554,
  "jiao4 xue2 ": 3555,
  "jiao4 shi1 ": 3556,
  "ling3 xiu4 ": 3557,
  "zi1 jin1 ": 3558,
  "ju3 xing2 de ": 3559,
  "xu4 li4 ya4 ": 3560,
  "de te4 ": 3561,
  "ceng2 zai4 ": 3562,
  "chuan2 bo1 ": 3563,
  " 8 yue4 ": 3564,
  " nv3 xing4 ": 3565,
  "shang4 you3 ": 3566,
  "yao4 wu4 ": 3567,
  "yi3 se4 lie4 ": 3568,
  "shou4 yu3 ": 3569,
  "gong1 zhong4 ": 3570,
  "xiao3 de ": 3571,
  "sui4 dao4 ": 3572,
  "fa3 an4 ": 3573,
  " suo3 you3 ": 3574,
  "St": 3575,
  "fan1 yi4 ": 3576,
  "   2023 nian2 ": 3577,
  "gou4 mai3 ": 3578,
  "°": 3579,
  "bing4 li4 ": 3580,
  " ban3 ": 3581,
  "xuan3 wei4 ": 3582,
  "run4 ": 3583,
  "xi4 ju4 ": 3584,
  "que4 zhen3 ": 3585,
  "ind": 3586,
  " zheng4 fu3 ": 3587,
  "wei1 er3 ": 3588,
  "chuang4 li4 ": 3589,
  "shu4 xue2 ": 3590,
  "   qi2 ": 3591,
  "geng1 ming2 wei4 ": 3593,
  " ren2 kou3 ": 3594,
  "lian2 he2 guo2 ": 3595,
  "jia1 li4 ": 3596,
  "yu2 194": 3597,
  "AT": 3598,
  "zhi2 dao4 ": 3599,
  "35 ": 3600,
  "L ": 3601,
  "san3 ": 3602,
  " tie3 ": 3603,
  "xiao4 guo3 ": 3604,
  " sheng1 huo2 ": 3605,
  "qiu2 hui4 ": 3606,
  "da2 cheng2 ": 3607,
  "31 ": 3608,
  "he2 qi2 ta1 ": 3609,
  "zhu4 yi4 ": 3610,
  "wen2 xian4 ": 3611,
  "shen1 ti3 ": 3612,
  "kou4 ": 3613,
  "zhuo1 ": 3614,
  "hou4 xuan3 ren2 ": 3615,
  " 2006 nian2 ": 3616,
  "2009 nian2 ": 3617,
  "ju3 ren2 ": 3618,
  "shi4 jie4 bei1 ": 3619,
  "chuang4 zao4 ": 3620,
  "80": 3621,
  "3 ren2 ": 3622,
  "zhi1 zhong1 ": 3623,
  "shi4 ye4 ": 3624,
  "mo4 xi1 ge1 ": 3625,
  "han2 shu4 ": 3626,
  "ev": 3627,
  "   zi4 ": 3628,
  "si1 ren2 ": 3629,
  "dian3 de ": 3630,
  " ji3 ": 3631,
  "er2 yan2 ": 3632,
  "jie4 shao4 ": 3633,
  "wang3 lu4 ": 3634,
  "jiang3 xiang4 ": 3635,
  "um": 3636,
  "bo1 fang4 ": 3637,
  "shen2 jing1 ": 3638,
  " e2 ": 3639,
  "ti2 gao1 ": 3640,
  " lao3 ": 3641,
  "yi4 yi4 ": 3642,
  "bei3 sheng3 ": 3643,
  "rui4 shi4 ": 3644,
  "lie4 ru4 ": 3645,
  "hui2 ying4 ": 3646,
  " ni3 ": 3647,
  "dong1 xi1 ": 3648,
  "in ": 3649,
  "wai4 guo2 ": 3650,
  "ke4 yun4 ": 3651,
  " ban1 ": 3652,
  "de zhong1 ": 3653,
  " di4 san1 ": 3654,
  "amp ": 3655,
  "kui4 ": 3656,
  " feng2 ": 3657,
  "shi1 fan4 ": 3658,
  "she4 hui4 zhu3 yi4 ": 3659,
  " shang1 ": 3660,
  "yi2 du4 ": 3661,
  "chang2 shi4 ": 3662,
  "jin4 zhi3 ": 3663,
  "ren2 min2 jie3 fang4 jun1 ": 3664,
  "shuai4 ling3 ": 3665,
  " zuo3 ": 3666,
  "jie1 chu4 ": 3667,
  "cai3 qu3 ": 3668,
  "you3 suo3 ": 3669,
  "ben3 shen1 ": 3670,
  "bi3 sai4 zhong1 ": 3671,
  " bing4 jiang1 ": 3672,
  "jing1 yan4 ": 3673,
  "si1 ta3 ": 3674,
  "ang": 3675,
  " xie4 ": 3676,
  "ming4 ming2 wei4 ": 3677,
  "You": 3678,
  "kang4 yi4 ": 3679,
  "xing2 xiang4 ": 3680,
  "hou4 qi1 ": 3681,
  "ye3 zai4 ": 3682,
  "lou4 ": 3683,
  "bian1 jie4 ": 3684,
  "qing2 bao4 ": 3685,
  "3   ": 3686,
  "bian1 ji2 ": 3687,
  "hong1 zha4 ": 3688,
  "2021 nian2 ": 3689,
  " tian2 ": 3690,
  "nan2 zi": 3691,
  "nei4 ge2 ": 3692,
  " che1 ": 3693,
  "chu1 lai2 ": 3694,
  " ta1 hai2 ": 3695,
  "wen2 zi4 ": 3696,
  "rong2 yi4 ": 3697,
  " tuan2 ": 3698,
  "hui4 shi4 ": 3699,
  "xi1 yin3 ": 3700,
  "ma1 ": 3701,
  "he2 shi4 ": 3702,
  "weng1 ": 3703,
  "chou1 ": 3704,
  "jia1 ren2 ": 3705,
  "zhu4 ming2 de ": 3706,
  "qi2 yu2 gang1 ": 3707,
  "shi2 you2 ": 3708,
  "yin3 qing2 ": 3709,
  "que4 ren4 ": 3710,
  "gong1 zhu3 ": 3711,
  " jie3 ": 3712,
  "jing4 zheng1 ": 3713,
  "bi4 mian3 ": 3714,
  "ye1 ": 3715,
  " lai2 zi4 ": 3716,
  " 00 ": 3717,
  "ju2 zhang3 ": 3718,
  "39": 3719,
  "de   ": 3720,
  " zheng1 ": 3721,
  "ji1 xie4 ": 3722,
  "huo4 zhe3 ": 3723,
  "zhong1 shi4 ": 3724,
  "xi1 fang1 ": 3725,
  "mian4 dui4 ": 3726,
  "jin1 rong2 ": 3727,
  " ta1 men de ": 3728,
  "you3 shi2 ": 3729,
  "gao1 yu2 ": 3730,
  "bao4 dao3 ": 3731,
  "shou1 gou4 ": 3732,
  "zeng1 zhang3 ": 3733,
  "ha1 er3 ": 3734,
  " mu3 ": 3735,
  " a1 er3 ": 3736,
  "2016 nian2 ": 3737,
  "wei3 shu1 ji4 ": 3738,
  " liang3 ren2 ": 3739,
  " ti3 zhang3 ": 3740,
  "fu4 za2 ": 3741,
  "lu4 di4 mian4 ji1 wei4 ": 3742,
  "shui3 yu4 mian4 ji1 wei4 ": 3743,
  "lie4 biao3 ": 3744,
  "fu2 qi2 yu2 gang1 ": 3745,
  "gong1 hui4 ": 3746,
  "zhuang1 jia3 ": 3747,
  "he2 yue1 ": 3748,
  " tao2 ": 3749,
  "ru2 he2 ": 3750,
  "xiong1 ya2 ": 3751,
  "70": 3752,
  "ye3 bei4 ": 3753,
  "hai3 dao4 ": 3754,
  "rong2 yu4 ": 3755,
  "mi4 mi4 ": 3756,
  " dian4 ying3 ": 3757,
  "quan2 mian4 ": 3758,
  "fan4 zui4 ": 3759,
  " huo3 ": 3760,
  "xing3 ": 3761,
  "wan3 shang4 ": 3762,
  "zuo4 biao1 wei4 ": 3763,
  "ph": 3764,
  "uo2 wei1 ": 3765,
  "na4 li3 ": 3766,
  "ku1 ": 3767,
  "li4 ji2 ": 3768,
  "juan4 ": 3769,
  "gu3 fen4 ": 3770,
  "zhai1 ": 3771,
  "wu3 tai2 ": 3772,
  "bai2 se4 ": 3773,
  "sun3 shi1 ": 3774,
  "sang4 ": 3775,
  "guang3 dong1 sheng3 ": 3776,
  " 9 yue4 ": 3777,
  "geng4 jia1 ": 3778,
  "ban4 shi4 ": 3779,
  "～": 3780,
  "zhong1 shan1 ": 3781,
  " bu4 jiu3 ": 3782,
  "   da4 ": 3783,
  "   2012 nian2 ": 3784,
  "mei3 shu4 ": 3785,
  "da3 ji1 ": 3786,
  "U ": 3787,
  " 0 ": 3788,
  "yi4 ren2 ": 3789,
  " 2022 nian2 ": 3790,
  " yao1 qiu2 ": 3791,
  " amp ": 3792,
  "guan1 bi4 ": 3793,
  "bu4 he2 ": 3794,
  "ying1 xiong2 ": 3795,
  "bao4 zha4 ": 3796,
  "cha1 yi4 ": 3797,
  "48": 3798,
  "ma": 3799,
  " yan3 ": 3800,
  "xiu1 gai3 ": 3801,
  " kai3 ": 3802,
  "piao4 fang2 ": 3803,
  "   yuan2 ": 3804,
  " dang1 zhong1 lu4 di4 mian4 ji1 wei4 ": 3805,
  " er2 shui3 yu4 mian4 ji1 wei4 ": 3806,
  "bu4 de2 ": 3807,
  "jiu3 long2 ": 3808,
  " hui2 ": 3809,
  " 7 yue4 ": 3810,
  "mao1 ": 3811,
  "tong1 che1 ": 3812,
  "yu2 195": 3813,
  "gou4 cheng2 ": 3814,
  " ou1 ": 3815,
  "yu2 196": 3816,
  " 189": 3817,
  " fang2 ": 3818,
  "fa1 shou4 ": 3819,
  "hai3 yang2 ": 3820,
  "bi4 ye4 yu2 ": 3821,
  "   gai4 ": 3822,
  "di4 zhen4 ": 3823,
  "oun": 3824,
  "yi1 xue2 ": 3825,
  "tui1 dong4 ": 3826,
  " zhong1 hua2 min2 guo2 ": 3827,
  "zhuan1 jia1 ": 3828,
  "mian3 dian1 ": 3830,
  " The   ": 3831,
  "shuo4 shi4 ": 3832,
  "jie2 ke4 ": 3833,
  "yue1 wei4 ": 3834,
  "bian4 de2 ": 3835,
  "guo2 jia1 dui4 ": 3836,
  "sa4 ke4 ": 3837,
  "an4 de ": 3838,
  " shi3 de ": 3839,
  "   bu4 ": 3840,
  "2007 nian2 ": 3841,
  " wei3 ": 3842,
  "ji1 ji2 ": 3843,
  "lai2 dao4 ": 3844,
  "shi2 san1 ": 3845,
  "xin1 li3 ": 3846,
  "100": 3847,
  "zui4 hou4 yi1 ": 3848,
  "xing4 zhi4 ": 3849,
  "jiang4 di1 ": 3850,
  "fa1 chu1 ": 3851,
  "yi1 si1 lan2 ": 3852,
  "dian4 li4 ": 3853,
  " qi2 yu2 ": 3854,
  "jian3 dan1 ": 3855,
  "ru": 3856,
  "zhong1 you3 ": 3857,
  " 12 yue4 ": 3858,
  "qing3 qiu2 ": 3859,
  " meng2 ": 3860,
  "sheng4 dun4 ": 3861,
  "gou3 ": 3862,
  "jiang1 su1 ": 3863,
  " yin1 er2 ": 3864,
  "gu4 wen4 ": 3865,
  "   xing2 zheng4 qu1 hua4 ": 3866,
  "en ": 3867,
  "ju4 feng1 ": 3868,
  "dao3 yu3 ": 3869,
  " ku4 ": 3870,
  " ta1 bei4 ": 3871,
  " jin4 xing2 ": 3872,
  "zhe4 ge": 3873,
  "rou2 ": 3874,
  " 11 yue4 ": 3875,
  "huo4 shi4 ": 3876,
  "ru2 guo3 ": 3877,
  "jun1 zai4 ": 3878,
  "zhi3 neng2 ": 3879,
  "she4 ji2 ": 3880,
  "nu4 ": 3881,
  " gan1 ": 3882,
  "gai3 zao4 ": 3883,
  "chang3 de ": 3884,
  "bi3 de2 ": 3885,
  "hai2 zi ": 3886,
  "zhu3 zhang1 ": 3887,
  "ban4 gong1 ": 3888,
  "jiao4 wei2 ": 3889,
  "du4 de ": 3890,
  "yuan2 xing2 ": 3891,
  "qian1 shu3 ": 3892,
  "si1 fa3 ": 3893,
  "ai": 3894,
  "gui4 zu2 ": 3895,
  "shuo1 ming2 ": 3896,
  " ling2 ": 3897,
  "can1 mou2 ": 3898,
  "gong1 si1 de ": 3899,
  "pen1 ": 3900,
  "192": 3901,
  "shi4 shi2 ": 3902,
  " si3 ": 3903,
  "sheng1 ming4 ": 3904,
  "mei3 ge4 ": 3905,
  " hao2 mi3 ": 3906,
  " min2 guo2 ": 3907,
  " chuan2 ": 3908,
  "wu4 de ": 3909,
  " ti3 zhang3 ke3 da2 ": 3910,
  " wo4 ": 3911,
  "hun4 he2 ": 3912,
  " can1 jia1 ": 3913,
  "tic": 3914,
  "nan2 bei3 ": 3915,
  "yong4 tu2 ": 3916,
  "dai4 biao3 da4 hui4 ": 3917,
  " formula ": 3918,
  "lun4 wen2 ": 3919,
  "tu3 er3 qi2 ": 3920,
  " shi4 mei3 guo2 ": 3921,
  "dang1 ju2 ": 3922,
  "bing4 fei1 ": 3923,
  "duo1 zhong3 ": 3924,
  "hai3 xia2 ": 3925,
  "gao1 su4 gong1 lu4 ": 3926,
  "   li4 ": 3927,
  "xi1 de ": 3928,
  "sheng3 he2 ": 3929,
  " bing4 yi3 ": 3930,
  "ao4 yun4 hui4 ": 3931,
  "wei2 zhi3 ": 3932,
  "zhu4 zhai2 ": 3933,
  "shi4 hui4 ": 3934,
  "shi4 bing1 ": 3935,
  "ji2 shi2 ": 3936,
  "ju4 qing2 ": 3937,
  "fen1 pei4 ": 3938,
  "yi4 jian4 ": 3939,
  "wei2 si1 ": 3940,
  "zu3 cheng2 de ": 3941,
  "man3 zu2 ": 3942,
  "hai3 wai4 ": 3943,
  "gu1 ji4 ": 3944,
  " lv4 ": 3945,
  " zhan3 ": 3946,
  "ran": 3947,
  "   cong2 ": 3948,
  "zheng4 chang2 ": 3949,
  "xiong1 ya2 li4 ": 3950,
  "wei4 shi2 ": 3951,
  "ren4 zhi2 ": 3952,
  "wa2 ": 3953,
  "gong1 ren2 ": 3954,
  "dian4 che1 ": 3955,
  "lian3 ": 3956,
  "xia4 jiang4 ": 3957,
  "kuo4 da4 ": 3958,
  "26 ": 3959,
  " wa3 ": 3960,
  "feng1 xian3 ": 3961,
  " 30 ": 3962,
  "yi1 zuo4 ": 3963,
  "hong2 se4 ": 3964,
  " kuan1 ": 3965,
  " ta1 ye3 ": 3966,
  "zu3 jian4 ": 3967,
  "gai3 shan4 ": 3968,
  "xia4 ji4 ao4 lin2 pi3 ke4 yun4 dong4 hui4 ": 3969,
  "ce4 liang2 ": 3970,
  " ju4 li2 ": 3971,
  "shi4 gu4 ": 3972,
  "191": 3973,
  "luan3 ": 3974,
  "tou2 xiang2 ": 3975,
  "er   ": 3976,
  "sheng1 ming2 ": 3977,
  "ji3 ge4 ": 3978,
  " qiao2 ": 3979,
  "dui4 xiang4 ": 3980,
  "yu4 shi3 ": 3981,
  "ze2 ren4 ": 3982,
  "ali": 3983,
  "2006 nian2 ": 3984,
  " kao3 ": 3985,
  "fu4 jin4 de ": 3986,
  "hi": 3987,
  "zhi1 fu4 ": 3988,
  "chu1 xi2 ": 3989,
  "2012 nian2 ": 3990,
  "kuang1 ": 3991,
  "shi2 qi1 de ": 3992,
  "45 ": 3993,
  "shi4 min2 ": 3994,
  "zhi2 wei4 ": 3995,
  " chi4 ": 3996,
  "qu2 ": 3997,
  " mao2 ": 3998,
  "yi4 qing2 ": 3999,
  "da4 gui1 mo2 ": 4000,
  "   2024 nian2 ": 4001,
  "liao3 jie3 ": 4002,
  "ce ": 4003,
  "la1 ding1 ": 4004,
  "ai4 er3 lan2 ": 4005,
  "48 ": 4006,
  "sui2 zhu4 ": 4007,
  "che4 xiao1 ": 4008,
  "28 ": 4009,
  "zai4 yu2 ": 4010,
  "kai1 tong1 ": 4011,
  "bing4 ru4 ": 4012,
  "zhang4 ai4 ": 4013,
  "xing4 qu4 ": 4014,
  "dao3 dan4 ": 4015,
  "indow": 4016,
  "3 ge4 ": 4017,
  "chu1 dao4 ": 4018,
  " bei3 qi3 ": 4019,
  "lv3 xing2 ": 4020,
  "de li4 ": 4021,
  "hun1 yin1 ": 4022,
  "zheng4 shi2 ": 4023,
  "fu1 ren2 ": 4024,
  "zhuang1 bei4 ": 4025,
  "seng1 ": 4026,
  "san1 jiao3 ": 4027,
  "bu4 man3 ": 4028,
  " ta1 yu3 ": 4029,
  " hans ": 4030,
  "er2 cheng2 ": 4031,
  " jue2 ": 4032,
  " tw ": 4033,
  "xing4 bie2 ": 4034,
  "   xi1 ": 4035,
  "yong4 zuo4 ": 4036,
  "zui3 ": 4037,
  "   you3 ": 4038,
  "11": 4039,
  "tong2 meng2 ": 4040,
  " fang1 ": 4041,
  "zhui4 ": 4042,
  " bu2 ": 4043,
  " 6 yue4 ": 4044,
  "zhong3 zu2 ": 4045,
  "jun1 zhu3 ": 4046,
  "ye3 hui4 ": 4047,
  " ye3 you3 ": 4048,
  "al ": 4049,
  " jin4 ru4 ": 4050,
  "min2 jian1 ": 4051,
  "jing1 li3 ": 4052,
  "pei4 yin1 ": 4053,
  "yi1 tiao2 ": 4054,
  "er3 man4 ": 4055,
  "zhuang1 zhi4 ": 4056,
  "duo3 ": 4057,
  "yi4 bai3 ": 4058,
  "wan4 yuan2 ": 4059,
  "4 ge4 ": 4060,
  "shi4 wei1 ": 4061,
  "2000 nian2 ": 4062,
  "wen1 du4 ": 4063,
  "ao4 di4 li4 ": 4064,
  "de2 de ": 4065,
  "lu4 yi4 ": 4066,
  " zhi2 zhi4 ": 4067,
  "／": 4068,
  " qi1 jian1 ": 4069,
  "ding4 ju1 ": 4070,
  "si1 lin2 ": 4071,
  "zhao3 dao4 ": 4072,
  "   wei4 ": 4073,
  "yi1 ji2 ": 4074,
  "niang2 ": 4075,
  " fu4 qin1 ": 4076,
  "duo2 de ": 4077,
  "gong4 he2 ": 4078,
  "gong1 ju4 ": 4079,
  "qiu2 ji4 ": 4080,
  " hua4 ": 4081,
  "shua1 ": 4082,
  "pai2 hang2 ": 4083,
  "shang4 wu3 ": 4084,
  "po2 ": 4085,
  "zhan4 tai2 ": 4086,
  " 5 yue4 ": 4087,
  "   de shi2 qu1 wei4 ": 4088,
  "   de you2 zheng4 bian1 ma3 wei4 ": 4089,
  "   suo3 shu3 de sheng3 ji2 xuan3 qu1 wei4 ": 4090,
  "   yu2 shi2 de ren2 kou3 shu4 liang4 wei4 ren2 ": 4091,
  "ming2 yi4 ": 4092,
  "tui4 xiu1 ": 4093,
  "yuan2 gong1 ": 4094,
  "   yu3 jie1 rang3 de shi4 zhen4 ": 4095,
  "27 ": 4096,
  "te4 se4 ": 4098,
  "1 yue4 1 ri4 ": 4099,
  " gang3 ": 4100,
  "liang3 ren2 ": 4101,
  " jia1 shang4 ": 4102,
  "tan2 pan4 ": 4103,
  "zhi1 de ": 4104,
  " hang2 ": 4105,
  "zai4 qi2 ": 4106,
  "   xin1 ": 4107,
  "2005 nian2 ": 4108,
  " ci3 shi2 ": 4109,
  "qi2 bing1 ": 4110,
  "gou4 zao4 ": 4111,
  "eg": 4112,
  "zheng4 xie2 ": 4113,
  "zhou1 wei2 ": 4114,
  " zai4 ci3 ": 4115,
  "ce4 de ": 4116,
  "yuan1 ": 4117,
  "zhi4 yu2 ": 4118,
  "dong4 zuo4 ": 4119,
  "wang1 ": 4120,
  "der": 4121,
  "zhan4 lve4 ": 4122,
  "men de ": 4123,
  "90": 4124,
  "cong1 ": 4125,
  "you3 yi2 ge4 ": 4126,
  "nei4 lu4 ": 4127,
  "dou1 hui4 ": 4128,
  "zhe2 xue2 ": 4129,
  " qi4 ": 4130,
  " ti2 gong1 ": 4131,
  "you2 ji1 ": 4132,
  "jie3 san4 ": 4133,
  "you1 xiu4 ": 4134,
  " qing1 chao2 ": 4135,
  "he2 cheng2 ": 4136,
  " you3 shi2 ": 4137,
  "kai1 she4 ": 4138,
  "ma3 la1 ": 4139,
  "jiang1 hui4 ": 4140,
  "yuan2 shi4 ": 4141,
  "2023 nian2 ": 4142,
  "qing1 chao2 ": 4143,
  "mo4 si1 ke1 ": 4144,
  "jia1 meng2 ": 4145,
  "fei1 jian4 zhi4 ": 4146,
  "yin3 ru4 ": 4147,
  "   2011 nian2 ": 4148,
  "dao3 shi4 ": 4149,
  "al   ": 4150,
  "tai2 nan2 ": 4151,
  "us": 4152,
  "di4 dian3 ": 4153,
  "feng1 fu4 ": 4154,
  "gu3 dai4 ": 4155,
  " kong3 ": 4156,
  "45": 4157,
  " man4 ": 4158,
  " hk ": 4159,
  "ne": 4160,
  "chu1 yan3 ": 4161,
  "zhi2 de ": 4162,
  "yin4 ni2 ": 4163,
  "nian2 hou4 ": 4164,
  "bao3 cun2 ": 4165,
  "   192": 4166,
  "pai4 qian3 ": 4167,
  "K ": 4168,
  " pu2 ": 4169,
  "fa1 xian4 le ": 4170,
  "ji1 du1 jiao4 ": 4171,
  "zai4 yi1 ": 4172,
  "ji2 shi4 ": 4173,
  "zhao4 pian1 ": 4174,
  "yi3 bei4 ": 4175,
  " zhe4 ge": 4176,
  "da4 sai4 ": 4177,
  "xun2 zhao3 ": 4178,
  "to   ": 4179,
  "shou3 wei4 ": 4180,
  "tui1 jin4 ": 4181,
  " ta1 ceng2 dai4 biao3 ": 4182,
  "li4 he2 ": 4183,
  "wang3 qiu2 ": 4184,
  "jing3 fang1 ": 4185,
  "   2010 nian2 ": 4186,
  "dong1 nan2 bu4 ": 4187,
  "tan3 ke4 ": 4188,
  "ke2 ": 4189,
  " zao4 cheng2 ": 4190,
  "iv": 4191,
  "yun4 zuo4 ": 4192,
  "deng1 shang4 ": 4193,
  "fei1 jian4 zhi4 di4 qu1 ": 4194,
  "fang1 yan2 ": 4195,
  "AS": 4196,
  "shi4 yu3 ": 4197,
  "fu4 mu3 ": 4198,
  "tao1 ": 4199,
  "jun1 qu1 ": 4200,
  "2014 nian2 ": 4201,
  "fa3 guan1 ": 4202,
  "34 ": 4203,
  " dong1 lin2 ": 4204,
  "chong2 qing4 ": 4205,
  "ni2 ya4 zhou1 ": 4206,
  "xue2 shi4 ": 4207,
  "ji3 yu3 ": 4208,
  "ent": 4209,
  "fa4 ": 4210,
  "zhong4 da4 ": 4211,
  "gao1 xiong2 ": 4212,
  "ren4 ming4 wei4 ": 4213,
  "de zhong4 yao4 ": 4214,
  "   yi3 xia4 ": 4215,
  " 4 yue4 ": 4216,
  " ce4 ": 4217,
  "de hua4 ": 4218,
  "xi1 lan2 ": 4219,
  "fu4 gai4 ": 4220,
  "2018 nian2 ": 4221,
  "zhou1 fu3 ": 4222,
  "ban4 yan3 ": 4223,
  "ling3 dao3 ren2 ": 4224,
  "G ": 4225,
  "zui4 duo1 ": 4226,
  " nuo4 ": 4227,
  "lv4 wei4 ": 4228,
  "xian1 sheng1 ": 4229,
  "shuang1 fang1 ": 4230,
  "le ta1 de ": 4231,
  "liang3 ci4 ": 4232,
  " zhe4 jiang1 ": 4233,
  "ri4 bao4 ": 4234,
  "dai4 lai2 ": 4235,
  "zhi4 wei4 ": 4236,
  "sheng1 cheng1 ": 4237,
  "an1 de2 ": 4238,
  "xi4 tong3 de ": 4239,
  "lao2 dong4 ": 4240,
  "dong1 bei3 bu4 ": 4241,
  "li3 ke4 ": 4242,
  "19 ": 4243,
  " zhu2 ": 4244,
  "2024 nian2 ": 4245,
  "di4 tu2 ": 4246,
  " dan4 you2 yu2 ": 4247,
  "tong1 dao4 ": 4248,
  " zui4 chu1 ": 4249,
  " huo4 zhe3 ": 4250,
  "rui4 dian3 ": 4251,
  "tui4 chu1 ": 4252,
  " quan2 guo2 ": 4253,
  "bei4 ren4 wei2 shi4 ": 4254,
  "yi1 liao2 ": 4255,
  "wei1 ji1 ": 4256,
  "shao4 nv3 ": 4257,
  "ti2 dao4 ": 4258,
  " xi1 wang4 ": 4259,
  "   jia1 zu2 ": 4260,
  "bu4 lu3 ": 4261,
  "yuan2 zi4 ": 4262,
  "zi1 chan3 ": 4263,
  "kuo4 zhan3 ": 4264,
  "ma3 er3 ": 4265,
  "tui4 yi4 ": 4266,
  "shu1 ru4 ": 4267,
  "tuo3 ": 4268,
  "2 ge4 ": 4269,
  "   b": 4270,
  "chang2 du4 ": 4271,
  " lu3 ": 4272,
  "you3 yi4 ": 4273,
  "zhi4 ding4 ": 4274,
  "2004 nian2 ": 4275,
  "   zh": 4276,
  " gang1 ": 4277,
  "xiang1 hu4 ": 4278,
  "zhuan1 men2 ": 4279,
  "he2 pan4 ": 4280,
  " cai4 ": 4281,
  "ke1 fu1 ": 4282,
  "yi3 qian2 ": 4283,
  "she4 ying3 ": 4284,
  " e4 ": 4285,
  "jun1 wei4 ": 4286,
  "zhi3 zai4 ": 4287,
  " wei4 fu2 qi2 yu2 gang1 ": 4288,
  " xi1 ban1 ya2 ": 4289,
  "yu3 mao2 qiu2 ": 4290,
  "dang1 shi2 de ": 4291,
  "zhan3 shi4 ": 4292,
  " bi4 ye4 ": 4293,
  "de fang1 shi4 ": 4294,
  " shi4 ri4 ben3 ": 4295,
  "zi4 shen1 ": 4296,
  "shou3 de ": 4297,
  "dui4 zhang3 ": 4298,
  "xi2 xing4 ": 4299,
  "cheng2 wei2 le ": 4300,
  "di4 ya4 ": 4301,
  "ma3 si1 ": 4302,
  "bo2 lin2 ": 4303,
  "lan2 qiu2 ": 4304,
  " jing1 ji4 ": 4305,
  " hou4 zhe3 ": 4306,
  "de2 zhi1 ": 4307,
  "dong1 ji4 ": 4308,
  "hui2 gui1 ": 4309,
  "lun2 bi3 ya4 ": 4310,
  "tou1 ": 4311,
  "cheng2 ben3 ": 4312,
  "zhi3 kong4 ": 4313,
  "di4 1 ": 4314,
  "   zh ": 4315,
  "ji1 zhi4 ": 4316,
  "dai4 biao3 tuan2 ": 4317,
  "bu4 bing1 ": 4318,
  " heng2 ": 4319,
  "shi4 ji2 ": 4320,
  "zhong1 bei4 ": 4321,
  "gong1 ying4 ": 4322,
  "nong2 min2 ": 4323,
  "ay": 4324,
  "tai2 feng1 ": 4325,
  "hou4 zai4 ": 4326,
  "qi3 yi4 ": 4327,
  "dan4 shui3 ": 4328,
  "de xiao3 ": 4329,
  "sheng1 tai4 ": 4330,
  "hua1 yuan2 ": 4331,
  " lv3 ": 4332,
  "zuo4 zhe3 ": 4333,
  "   V": 4334,
  "shi2 ba1 ": 4335,
  "cai2 neng2 ": 4336,
  "zhi1 zi ": 4337,
  " jian4 zhu4 ": 4338,
  "shi2 xing2 ": 4339,
  "yi1 jia1 ": 4340,
  "huo3 jian4 ": 4341,
  "te4 ding4 ": 4342,
  "dang1 zhong1 ": 4343,
  " 188": 4344,
  "xian4 jin1 ": 4345,
  " ying1 yu3 ": 4346,
  "em": 4347,
  "   a1 ": 4348,
  "ke4 luo2 ": 4349,
  "mei3 ni2 ya4 ": 4350,
  "2011 nian2 ": 4351,
  "you1 shi4 ": 4352,
  " yin2 ": 4353,
  "de di4 qu1 ": 4354,
  "xi2 wei4 ": 4355,
  "su1 ge2 lan2 ": 4356,
  "lo": 4357,
  "ji1 yin1 ": 4358,
  "shen1 zhen4 ": 4359,
  "xiang4 zheng1 ": 4360,
  "bu4 la1 ": 4361,
  "zhi2 dao3 ": 4362,
  "qi3 dong4 ": 4363,
  "da4 fu2 ": 4364,
  "5 mi3 ": 4365,
  "jia4 ge2 ": 4366,
  "zhi3 dao3 ": 4367,
  "yi4 fang1 mian4 ": 4368,
  " 2004 nian2 ": 4369,
  "da4 qiao2 ": 4370,
  "190": 4371,
  "guan1 dian3 ": 4372,
  "chuang4 jian4 ": 4373,
  " 2023 nian2 ": 4374,
  " han2 guo2 ": 4375,
  "li4 yi4 ": 4376,
  "zhi1 wei4 ": 4377,
  "jun1 guan1 ": 4378,
  " bi3 ru2 ": 4379,
  "sha1 si3 ": 4380,
  "xun1 zhang1 ": 4381,
  "di4 mian4 ": 4382,
  "zhu4 de ": 4383,
  "ma3 ke4 ": 4384,
  "shan3 xi1 ": 4385,
  " wu4 ": 4386,
  "nian2 ling2 ": 4387,
  "zuo4 qu3 ": 4388,
  "xiang1 guan1 de ": 4389,
  "da4 jiang3 ": 4390,
  "biao1 ben3 ": 4391,
  "or ": 4392,
  "pu2 tao2 ya2 ": 4393,
  " xue2 xiao4 ": 4394,
  "yan2 hai3 ": 4395,
  "yan2 se4 ": 4396,
  "tong2 pai2 ": 4397,
  " she4 hui4 ": 4398,
  "xing2 mu4 ": 4399,
  "xiang1 bi3 ": 4400,
  "ke1 xue2 yuan4 ": 4401,
  "mi3 ya4 ": 4402,
  "ri4 zhi4 ": 4403,
  "42 ": 4404,
  "yuan2 ze2 ": 4405,
  "ai1 er3 ": 4406,
  "yin4 di4 ": 4407,
  " gong4 you3 ": 4408,
  "kun4 nan2 ": 4409,
  "shan1 qu1 ": 4410,
  "2020 nian2 mei3 guo2 ren2 kou3 pu3 cha2 de shu4 ju4 ": 4411,
  "ai1 ji2 ": 4412,
  " neng2 ": 4413,
  "46": 4414,
  "qi2 xia4 ": 4415,
  "fei1 lv4 bin1 ": 4416,
  "ne ": 4417,
  "qie1 ": 4418,
  "shi2 duan4 ": 4419,
  "   de ": 4420,
  "yu3 qi2 ta1 ": 4421,
  "--": 4422,
  "In": 4423,
  "shi2 wu3 ": 4424,
  "da4 sha4 ": 4425,
  "bei4 po4 ": 4426,
  "dui4 wai4 ": 4427,
  "jie1 wei4 ": 4428,
  "sa4 si1 ": 4429,
  "shan1 ji1 ": 4430,
  " yin1 yue4 ": 4431,
  " you3 xie1 ": 4432,
  "as   ": 4433,
  "   zao3 nian2 ": 4434,
  "jia1 la1 ": 4435,
  "shen2 me ": 4436,
  "jian3 ce4 ": 4437,
  "zhong1 qi1 ": 4438,
  "zhi1 zhan4 ": 4439,
  "xi1 an1 ": 4440,
  "xi1 si1 ": 4441,
  "yin1 shi4 ": 4442,
  " ping2 jun1 ": 4443,
  "shi2 wu4 ": 4444,
  "xing1 deng3 ": 4445,
  "ber": 4446,
  " 3 yue4 ": 4447,
  "zhi4 yi2 ": 4448,
  "zheng4 fu3 de ": 4449,
  "zeng1 zu3 ": 4450,
  "2015 nian2 ": 4451,
  "liu2 yu4 ": 4452,
  "du1 shi4 ": 4453,
  "tu1 po4 ": 4454,
  "g ": 4455,
  "fan4 wei2 nei4 ": 4456,
  " gui4 ": 4457,
  "you2 yong3 ": 4458,
  "jun1 tuan2 ": 4459,
  "nan2 yi3 ": 4460,
  "tai4 guo2 ": 4461,
  " zhong1 de ": 4462,
  "ack": 4463,
  "fen1 li2 ": 4464,
  "pei4 he2 ": 4465,
  "zhuan3 yi2 ": 4466,
  "can1 jia1 le ": 4467,
  "dai4 li3 ": 4468,
  "de li4 shi3 ": 4469,
  "dui4 ying4 ": 4470,
  "di4 ba1 ": 4471,
  "huan4 zhe3 ": 4472,
  "shi3 shang4 ": 4473,
  "guan1 ce4 ": 4474,
  "dong1 fang1 ": 4475,
  "yi3 wai4 ": 4476,
  "bu4 er3 ": 4477,
  "tong1 xun4 ": 4478,
  "zai4 199": 4479,
  "jing1 dian3 ": 4480,
  "dian4 hua4 ": 4481,
  "pai4 chu1 ": 4482,
  " cheng1 wei2 ": 4483,
  "   of": 4484,
  "dai4 bu3 ": 4485,
  "cheng1 wei4 ": 4486,
  "ren2 kou3 wei4 ": 4487,
  "IN": 4488,
  "2017 nian2 ": 4489,
  "00 ren2 ": 4490,
  "li4 shan1 da4 ": 4491,
  "liu2 zai4 ": 4492,
  "xie2 tiao2 ": 4493,
  "hou4 bei4 ": 4494,
  "she4 de ": 4495,
  " bao1 han2 ": 4496,
  "qi2 zhong1 yi1 zhong3 ": 4497,
  "pin1 ": 4498,
  " zheng4 zhi4 ": 4499,
  "hui4 zhang3 ": 4500,
  "sheng1 zhang3 ": 4501,
  " qi2 zhong1 bao1 kuo4 ": 4502,
  "yu3 qi2 ": 4503,
  "xi1 bei3 bu4 ": 4504,
  " shi4 you2 ": 4505,
  "ka3 si1 ": 4506,
  "po3 ": 4507,
  "zheng3 ti3 ": 4508,
  " ming2 chao2 zheng4 zhi4 ren2 wu4 ": 4509,
  " lie4 ": 4510,
  "shi4 you3 ": 4511,
  "36 ": 4512,
  "chou3 ": 4513,
  "lu4 xu4 ": 4514,
  "guo2 jia1 de ": 4515,
  "zhu4 li3 ": 4516,
  "wa3 er3 sheng3 ": 4517,
  "de shi2 jian1 ": 4518,
  "AR": 4519,
  "   qi2 ta1 ": 4520,
  "yi4 you3 ": 4521,
  "tai4 kong1 ": 4522,
  "huo3 shan1 ": 4523,
  "   2008 nian2 ": 4524,
  "jian1 du1 ": 4525,
  " su4 ": 4526,
  "yu2 193": 4527,
  "ao4 zhou1 ": 4528,
  "shi2 si4 ": 4529,
  "yan2 chang2 ": 4530,
  "pi4 ": 4531,
  "de di4 yi1 ": 4532,
  "ji1 qi4 ": 4533,
  "zhan3 lan3 ": 4534,
  "xi1 nan2 bu4 ": 4535,
  "fang2 yu4 ": 4536,
  "guo2 wu4 yuan4 ": 4537,
  "jia1 qiang2 ": 4538,
  " xin1 zeng1 ": 4539,
  " nan2 zhi4 ": 4540,
  "mian3 fei4 ": 4541,
  "zhong4 duo1 ": 4542,
  "jiao1 hui4 ": 4543,
  "fen1 bu4 yu2 ": 4544,
  " qiu1 ": 4545,
  "xiang1 xin4 ": 4546,
  "fu2 yi4 ": 4547,
  " sui2 zhu4 ": 4548,
  " ru4 ": 4549,
  " qin2 ": 4550,
  "yi4 ming2 ": 4551,
  "shou3 ge4 ": 4552,
  "nong2 cun1 ": 4553,
  "ju4 yuan4 ": 4554,
  "2001 nian2 ": 4555,
  "sheng2 ": 4556,
  "ke4 la1 ": 4557,
  "li2 mi3 ": 4558,
  " xu2 ": 4559,
  "shi2 liu4 ": 4560,
  "yi1 li4 ": 4561,
  "shu1 yuan4 ": 4562,
  "fang2 wu1 ": 4563,
  "qin1 wang2 ": 4564,
  "si1 dun4 ": 4565,
  " yue1 han4 ": 4566,
  "ci4 shi3 ": 4567,
  "long2 jiang1 ": 4568,
  " Ch": 4569,
  "gong1 jue2 ": 4570,
  "shi2 ren4 ": 4571,
  "yin2 pai2 ": 4572,
  " mei3 nian2 ": 4573,
  "shi2 hou4 ": 4574,
  "dai4 you3 ": 4575,
  " 2002 nian2 ": 4576,
  "xi3 ju4 ": 4577,
  "ban4 shi4 chu4 ": 4578,
  " ke3 neng2 ": 4579,
  "jia1 shang4 ": 4580,
  "bei4 shi4 wei4 ": 4581,
  "   dang1 ": 4582,
  "de gao1 ": 4583,
  " xuan1 bu4 ": 4584,
  "da4 xuan3 ": 4585,
  "kai1 zhan3 ": 4586,
  "ze2 wei4 ": 4587,
  "ji1 jin1 hui4 ": 4588,
  "gu4 ding4 ": 4589,
  "ruan3 jian4 ": 4590,
  "jie1 ji2 ": 4591,
  "ell": 4592,
  "cheng2 le ": 4593,
  "yu3 zhong1 ": 4594,
  "189": 4595,
  "fen1 lan2 ": 4596,
  "ci4 shi4 jie4 da4 zhan4 ": 4597,
  "cheng2 ke4 ": 4598,
  "ji4 yi4 ": 4599,
  "kong1 zhong1 ": 4600,
  " fa1 xian4 ": 4601,
  "zhi3 ding4 ": 4602,
  "bian1 ju4 ": 4603,
  "wan2 gong1 ": 4604,
  "da4 xue2 de ": 4605,
  "hua4 he2 wu4 ": 4606,
  "neng2 liang4 ": 4607,
  "yu3 zhou4 ": 4608,
  " bai4 ": 4609,
  "hei1 se4 ": 4610,
  "yun4 yong4 ": 4611,
  "47": 4612,
  "hua2 ren2 ": 4613,
  "dai4 ling3 ": 4614,
  "hen3 kuai4 ": 4615,
  "que4 zhen3 bing4 li4 ": 4616,
  "yi1 duan4 ": 4617,
  "hui4 shang4 ": 4618,
  "zeng1 qiang2 ": 4619,
  " qu3 ": 4620,
  "de2 hua2 ": 4621,
  "can1 xuan3 ": 4622,
  "zhi2 ye4 sheng1 ya2 ": 4623,
  "kong1 qi4 ": 4624,
  " li4 shu3 yu2 ": 4625,
  "55": 4626,
  "shi1 de ": 4627,
  "she4 ding4 ": 4628,
  "guo4 du4 ": 4629,
  " yan2 jiu1 ": 4631,
  "zhuan3 xiang4 ": 4632,
  "mai4 ke4 ": 4633,
  " 2001 nian2 ren2 kou3 ": 4634,
  "per": 4635,
  " bing1 ": 4636,
  "1 hao4 ": 4637,
  "chu1 fa1 ": 4638,
  "dian3 li3 ": 4639,
  " ting2 ": 4640,
  "di4 li3 ": 4641,
  "zi1 ben3 ": 4642,
  "nu3 li4 ": 4643,
  "ok": 4644,
  "an1 hui1 ": 4645,
  "le zhe4 ": 4646,
  "an4 zhao4 ": 4647,
  "liang3 nian2 ": 4648,
  "zai4 198": 4649,
  "29 ": 4650,
  "cheng2 qu1 ": 4651,
  "shou1 shi4 ": 4652,
  "38 ": 4653,
  "ping2 gu1 ": 4654,
  "ma3 tou2 ": 4655,
  "deng1 chang2 ": 4656,
  "ming2 zhi4 ": 4657,
  "zhang1 zhuan1 ji2 ": 4658,
  "   2009 nian2 ": 4659,
  "gong1 yi4 ": 4660,
  "hai3 ba2 gao1 du4 ": 4661,
  " 12 ": 4662,
  " C ": 4663,
  "ming2 que4 ": 4664,
  "cheng1 zuo4 ": 4665,
  "ff": 4666,
  " xuan1 ": 4667,
  "you3 zhu4 ": 4668,
  "zhou1 qi1 ": 4669,
  "bo1 li2 ": 4670,
  " wu1 ke4 lan2 ": 4672,
  "yu3 he2 ": 4673,
  " zai4 zhe4 ": 4674,
  "zhen1 shi2 ": 4675,
  " dong1 bei3 ": 4676,
  "le dui4 ": 4677,
  "ri4 qi1 ": 4678,
  "cu4 jin4 ": 4679,
  "   2025 nian2 ": 4680,
  "wei2 ai1 ": 4681,
  " xian4 ren4 ": 4682,
  "2013 nian2 ": 4683,
  " shi4 yi1 ming2 ": 4684,
  " qi1 xi1 zai4 ": 4685,
  "ari": 4686,
  "xi1 zang4 ": 4687,
  "na2 xia4 ": 4688,
  "bi2 ": 4689,
  "ge4 zi4 ": 4690,
  "ST": 4691,
  "sheng1 wei4 ": 4692,
  "49": 4693,
  "nuo2 wei1 ": 4694,
  "dui4 kang4 ": 4695,
  " zu3 fu4 ": 4696,
  " wen2 hua4 ": 4697,
  "di4 2 ": 4698,
  "ju4 ben3 ": 4699,
  "liang3 ming2 ": 4700,
  " te4 bie2 shi4 ": 4701,
  "suo3 shu3 ": 4702,
  "jing4 de ": 4703,
  "10 nian2 ": 4704,
  " xun2 ": 4705,
  "jing4 xuan3 ": 4706,
  "dang3 de ": 4707,
  "tao2 tai4 ": 4708,
  "dan3 ": 4709,
  "zhi1 liu2 ": 4710,
  " meng4 ": 4711,
  " guan1 yu2 ": 4712,
  " shi4 zhong1 guo2 ": 4713,
  "jia4 shi3 ": 4714,
  " gui1 ": 4715,
  " guo1 ": 4716,
  "zhu4 ce4 ": 4717,
  "guan3 li3 ju2 ": 4718,
  "ren3 ": 4719,
  " feng4 ": 4720,
  "ge2 li2 ": 4721,
  "na4 xie1 ": 4722,
  " 11 ": 4723,
  "jin3 ji2 ": 4724,
  " yong1 you3 ": 4725,
  "dian4 qi4 ": 4726,
  "huang2 hou4 ": 4727,
  " er2 shui3 yu4 mian4 ji1 wei4 0": 4728,
  "・": 4729,
  "ST ": 4730,
  "×": 4731,
  "yi1 zhi1 ": 4732,
  "bin1 hai3 ": 4733,
  " shi4 yi1 ke1 ": 4734,
  " shuo1 ": 4735,
  "xian4 shang4 ": 4736,
  " she4 you3 ": 4737,
  "chui1 ": 4738,
  "ew": 4739,
  "   you2 ": 4740,
  "   mei3 guo2 ": 4741,
  "qiao1 ": 4742,
  "ga1 ": 4743,
  "zai4 zhe4 ": 4744,
  "he2 gu3 ": 4745,
  "geng1 xin1 ": 4746,
  " huan2 ": 4747,
  "bu4 dian4 ying3 ": 4748,
  "qi1 nian2 ": 4749,
  "ye4 de ": 4750,
  " jue2 ding4 ": 4751,
  "wei4 dui4 ": 4752,
  "   qian2 ": 4753,
  "shen1 du4 ": 4754,
  "huang2 jin1 ": 4755,
  " 2003 nian2 ": 4756,
  "liao2 ning2 ": 4757,
  "qiao4 ": 4758,
  "jin4 ji2 ": 4759,
  "ling4 yi2 ge4 ": 4760,
  "shi4 zheng4 fu3 ": 4761,
  " geng1 ": 4762,
  "duo1 nian2 ": 4763,
  " hao4 xian4 ": 4764,
  "de zuo4 pin3 ": 4765,
  "bao3 zhang4 ": 4766,
  "uan4 ": 4767,
  "fei4 chu2 ": 4768,
  "ci": 4769,
  "jia1 zhou1 ": 4770,
  " chong1 ": 4771,
  "chan3 sheng1 de ": 4772,
  "xia4 xia2 de yi2 ge4 ": 4773,
  "zai4 ri4 ben3 ": 4774,
  " tong3 ": 4775,
  "oh": 4776,
  "ke4 lai2 ": 4777,
  "zhang3 guan1 ": 4778,
  "lian2 he2 hui4 ": 4779,
  "shi2 shang4 ": 4780,
  " er2 gai1 di4 ": 4781,
  "fu1 ka3 ": 4782,
  "nan2 fang1 ": 4783,
  "guo2 min2 zheng4 fu3 ": 4784,
  "sp": 4785,
  "sao3 ": 4786,
  "cheng2 ren2 ": 4787,
  "yue4 dui4 ": 4788,
  "quan2 de ": 4789,
  " xing2 zheng4 ": 4790,
  "jian1 yu4 ": 4791,
  "wu3 han4 ": 4792,
  "wei2 hu4 ": 4793,
  "si1 la1 fu1 ": 4794,
  "hao4 de ": 4795,
  " gan3 ": 4796,
  "qian1 ding4 ": 4797,
  " ji2 shi3 ": 4798,
  " jiao4 yu4 ": 4799,
  "li4 fang1 ": 4800,
  "bei3 fang1 ": 4801,
  "fu4 nv3 ": 4802,
  "zhu3 chang3 ": 4803,
  " bang1 ": 4804,
  "lin2 de ": 4805,
  "shi4 yan4 ": 4806,
  "yi2 dai4 ": 4807,
  " yi3 jing1 ": 4808,
  "jie1 shou1 ": 4809,
  "kang4 ri4 ": 4810,
  "hua4 wei4 ": 4811,
  "tong2 xing4 ": 4812,
  "mu4 si1 lin2 ": 4813,
  "zhi4 199": 4814,
  " 2000 nian2 ": 4815,
  "shi4 zhong1 guo2 ": 4816,
  "chai1 chu2 ": 4817,
  "deng3 deng3 ": 4818,
  "xiao1 fei4 ": 4819,
  "qiang2 du4 ": 4820,
  "zhuan3 huan4 ": 4821,
  "chuan2 mei2 ": 4822,
  "65": 4823,
  "shi4 nei4 ": 4824,
  "qin1 zi4 ": 4825,
  " zu2 ": 4826,
  "wei4 you3 ": 4827,
  " dang3 ": 4828,
  "us ": 4829,
  "ge2 wei4 ": 4830,
  " wan2 jia1 ": 4831,
  "II": 4832,
  "co": 4833,
  "di4 dai4 ": 4835,
  "xing2 xing1 ": 4836,
  "fu4 zhu3 ren4 ": 4837,
  "shou1 cang2 ": 4838,
  " ju4 you3 ": 4839,
  "12 nian2 ": 4840,
  "man2 ": 4841,
  "xue2 de ": 4842,
  "75": 4843,
  "beng1 ": 4844,
  "shi4 fang4 ": 4845,
  "hui4 yuan2 ": 4846,
  "quan2 zhang3 ": 4847,
  "nei4 zhan4 ": 4848,
  "tai4 du4 ": 4849,
  "nian2 dai4 ": 4850,
  "dui4 ci3 ": 4851,
  "huo4 bi4 ": 4852,
  "tian1 huang2 ": 4853,
  "yu2 lei4 ": 4854,
  "li3 jie3 ": 4855,
  "and": 4856,
  "shi4 zhi3 ": 4857,
  "zai4 zhong1 guo2 ": 4858,
  " di1 ": 4859,
  "lie4 de ": 4860,
  "peng1 ": 4861,
  " ding1 ": 4862,
  "jie4 de ": 4863,
  "zhong1 yu2 ": 4864,
  "zhi1 jia1 ": 4865,
  "ze2 dong1 ": 4866,
  "   ju4 qing2 ": 4867,
  "zai4 gai1 ": 4868,
  "gan3 ran3 zhe3 ": 4869,
  "pen2 ": 4870,
  "yi4 mei3 yuan2 ": 4871,
  "xin1 jiang1 ": 4872,
  " gai4 ": 4873,
  "xiu1 jian4 ": 4874,
  "liu2 xia4 ": 4875,
  "shen1 wei4 ": 4876,
  "ni2 xi1 ya4 ": 4877,
  "yi3 you3 ": 4878,
  "zu3 zhi3 ": 4879,
  "huo2 yue4 ": 4880,
  " shi4 yi1 wei4 ": 4881,
  " can1 yu4 ": 4882,
  "44 ": 4883,
  "ed": 4884,
  "tu1 ran2 ": 4885,
  "AM": 4886,
  "fu4 xing1 ": 4887,
  "mi4 shu1 zhang3 ": 4888,
  " ruan3 ": 4889,
  "bu4 shi4 ": 4890,
  "lian2 ren4 ": 4891,
  "shen3 cha2 ": 4892,
  " wo3 men": 4893,
  " tou4 ": 4894,
  "yuan2 zhu4 min2 ": 4895,
  "   xiang1 gang3 ": 4896,
  "ge4 lei4 ": 4897,
  "bo1 luo2 ": 4898,
  "zhu3 yi4 zhe3 ": 4899,
  "％": 4900,
  "gong1 an1 ": 4901,
  "fu4 zhu3 xi2 ": 4902,
  " huo2 ": 4903,
  " ying2 ": 4904,
  "ming2 xing1 ": 4905,
  "zhi4 cheng2 ": 4906,
  " dun1 ": 4907,
  "jue2 dui4 ": 4908,
  "   xia4 ": 4909,
  "im": 4910,
  "li3 da2 ": 4911,
  "bao3 shou3 ": 4912,
  " chao2 xian1 ": 4913,
  "yi3 nan2 ": 4914,
  "xiao4 qu1 ": 4915,
  "sui4 shi2 ": 4916,
  " deng4 ": 4917,
  "shi4 bu4 ": 4918,
  "yan3 yi4 ": 4919,
  "H ": 4920,
  "   zhong1 guo2 ": 4921,
  "de2 er3 ": 4922,
  "tui1 guang3 ": 4923,
  "─": 4924,
  "Ch": 4925,
  "zai4 xiang1 gang3 ": 4926,
  "chang2 jian4 de ": 4927,
  "ling3 shi4 ": 4928,
  " mei3 ge4 ": 4929,
  "xiu1 fu4 ": 4930,
  "shi2 er4 nian2 ": 4931,
  " xu1 ": 4932,
  "geng4 wei2 ": 4933,
  "chang3 suo3 ": 4934,
  "ni2 ke4 ": 4935,
  "gen1 ting2 ": 4936,
  "   ci3 wai4 ": 4937,
  "you3 ji1 ": 4938,
  "shou3 xiang4 ": 4939,
  "zhou1 ci4 shi3 ": 4940,
  "dui1 ": 4941,
  "lei3 ji4 ": 4942,
  "shou3 ji1 ": 4943,
  "di4 er4 ci4 shi4 jie4 da4 zhan4 ": 4944,
  "lan4 ": 4945,
  "dang1 nian2 ": 4946,
  "wei1 xian3 ": 4947,
  "ke3 yi3 zai4 ": 4948,
  "shi4 wei4 le ": 4949,
  "zhong1 gong4 zhong1 yang1 ": 4950,
  "de2 zhu3 ": 4951,
  "jin4 bu4 ": 4952,
  "ben3 di4 ": 4953,
  "2003 nian2 ": 4954,
  "bi4 yao4 ": 4955,
  "zai4 nei4 de ": 4956,
  "shou3 ge1 ": 4957,
  "bao4 li4 ": 4958,
  " lao2 ": 4959,
  "64 ": 4960,
  "TV": 4961,
  "xiao1 liang4 ": 4962,
  " gong1 yuan2 ": 4963,
  " chuan1 ": 4964,
  "zhong1 zhi3 ": 4965,
  " chu3 yu2 ": 4966,
  "23": 4967,
  "er3 duo1 ": 4968,
  " 187": 4969,
  "fa1 dong4 ji1 ": 4970,
  "bi1 ": 4971,
  "si1 he2 ": 4972,
  "lian2 luo4 ": 4973,
  "shi2 qu1 ": 4974,
  "zi4 sha1 ": 4975,
  " shi2 ren4 ": 4976,
  "fa1 yan2 ": 4977,
  "cheng2 li4 de ": 4978,
  "ti3 yu4 chang3 ": 4979,
  "bu4 wei4 ": 4980,
  "tu2 zhong1 ": 4981,
  "shi4 jie4 shang4 ": 4982,
  " shun4 ": 4983,
  "bu4 jin3 ": 4984,
  "xi2 xing4 bu4 ming2 ": 4985,
  "chang3 jing3 ": 4986,
  "can1 ting1 ": 4987,
  "sha1 hai4 ": 4988,
  " deng1 ": 4989,
  "zhe4 yang4 ": 4990,
  "xian4 he2 ": 4991,
  "fa3 de ": 4992,
  "zong3 ren2 kou3 ": 4993,
  "ta": 4994,
  "   sheng4 ": 4995,
  "1 li4 ": 4996,
  "OS": 4997,
  "hu2 nan2 ": 4998,
  "hen3 da4 ": 4999,
  "bei3 jing1 shi4 ": 5000,
  "cuo4 wu4 ": 5001,
  "tian1 de ": 5002,
  "gao4 su4 ": 5003,
  "shang4 shu4 ": 5004,
  " sheng1 huo2 xi2 xing4 bu4 ming2 ": 5005,
  "xing2 shi3 ": 5006,
  "she4 ji1 ": 5007,
  "qian1 zhi4 ": 5008,
  "jia1 zhong1 ": 5009,
  "ping2 min2 ": 5010,
  "wei2 rao4 ": 5011,
  "wang3 wang3 ": 5012,
  "ge1 lun2 bi3 ya4 ": 5013,
  "jian1 ren4 ": 5014,
  "chang3 bi3 sai4 ": 5015,
  "na4 cui4 ": 5016,
  " ye3 jiu4 shi4 ": 5017,
  "shang4 hai3 shi4 ": 5018,
  "at   ": 5019,
  "id": 5020,
  " peng2 ": 5021,
  "Window": 5022,
  "si4 shi2 ": 5023,
  "all": 5024,
  "   2007 nian2 ": 5025,
  " er4 shi2 ": 5026,
  "bian4 wei4 ": 5027,
  "ji4 suan4 ji1 ": 5028,
  "si1 ma3 ": 5029,
  "hui4 you3 ": 5030,
  " ci4 nian2 ": 5031,
  "shou4 huan1 ying2 ": 5032,
  "shu1 ji2 ": 5033,
  "chi2 you3 ": 5034,
  "zhu3 yao4 de ": 5035,
  "   jia1 ": 5036,
  "yu2 ren2 ": 5037,
  "zhu3 ban4 ": 5038,
  " 7 ": 5039,
  "zhu4 zai4 ": 5040,
  "fu2 luo2 ": 5041,
  "xing4 neng2 ": 5042,
  "qi4 xuan2 ": 5043,
  " er2 gai1 ": 5044,
  "hua2 sheng4 dun4 ": 5045,
  "she4 yu2 ": 5046,
  "yang2 shi4 ": 5047,
  "che1 xiang1 ": 5048,
  "gong1 jin1 ": 5049,
  " 2024 nian2 ": 5050,
  "yi1 bu4 ": 5051,
  "xian4 ru4 ": 5052,
  "jiao1 huan4 ": 5053,
  "li4 shi2 ": 5054,
  "ling3 di4 ": 5055,
  "   sui1 ran2 ": 5056,
  "fa3 ting2 ": 5057,
  "ma3 li3 ": 5058,
  " you2 qi2 shi4 ": 5059,
  "ren2 min2 bi4 ": 5060,
  " xiong1 ": 5061,
  "da4 zhong4 ": 5062,
  " 186": 5063,
  "   bei4 jing3 ": 5064,
  "cheng2 bao3 ": 5065,
  "jiao1 gei3 ": 5066,
  "5 ge4 ": 5067,
  "46 ": 5068,
  "41 ": 5069,
  "   zeng1 zu3 ": 5070,
  "tong1 xin4 ": 5071,
  "da4 wei4 ": 5072,
  " ding4 ": 5073,
  "ji4 wei4 ": 5074,
  "dui4 qi2 ": 5075,
  "de yi1 xie1 ": 5076,
  "pai4 de ": 5077,
  "kao3 gu3 ": 5078,
  "qian2 ting3 ": 5079,
  "ao4 er3 ": 5080,
  "da4 duo1 ": 5081,
  "hou4 xu4 ": 5082,
  "qu1 yi4 hui4 ": 5083,
  " zui4 gao1 ": 5084,
  "   zhong1 ": 5085,
  "yi1 chang2 ": 5086,
  "de2 ming2 ": 5087,
  "ya4 jun1 ": 5088,
  "si1 ling4 bu4 ": 5089,
  "ex": 5090,
  "de guo2 jia1 ": 5091,
  "yu2 shi4 ": 5092,
  "xun2 yang2 ": 5093,
  "ying1 li3 ": 5094,
  "   ba1 ": 5095,
  "di4 3 ": 5096,
  "li4 shu3 yu2 ": 5097,
  "da4 lian2 meng2 ": 5098,
  "shui3 ku4 ": 5099,
  "zhang4 fu1 ": 5100,
  "xiu1 zheng4 ": 5101,
  " gong1 si1 ": 5102,
  " huai2 ": 5103,
  " xi4 ": 5104,
  " yun2 ": 5105,
  "yi3 bei3 ": 5106,
  " tian1 jin1 ": 5107,
  "zhuang1 shi4 ": 5108,
  " dong1 nan2 ": 5109,
  " shuang1 fang1 ": 5110,
  "jing3 gao4 ": 5111,
  "cai3 fang3 ": 5112,
  "xi1 er3 ": 5113,
  "wai4 bu4 ": 5114,
  "qing4 zhu4 ": 5115,
  "yi1 xiao3 shi2 ": 5116,
  " 14 ": 5117,
  "fa3 lan2 xi1 ": 5118,
  " ou1 zhou1 ": 5119,
  "gui1 fan4 ": 5120,
  "shi4 zheng4 ": 5121,
  "xi1 li3 ": 5122,
  "suo3 cai3 yong4 ": 5123,
  "lei4 de ": 5124,
  "hang2 tian1 ": 5125,
  "lei2 si1 ": 5126,
  "bu2 dao4 ": 5127,
  " xi4 lie4 ": 5128,
  "da4 xiao3 ": 5129,
  "er3 fu1 ": 5130,
  "ren4 shi2 ": 5131,
  "chang3 di4 ": 5132,
  " qi2 zhong1 nan2 xing4 ": 5133,
  "pin2 lv4 ": 5134,
  "si3 hou4 ": 5135,
  "gong1 cheng2 shi1 ": 5136,
  " qiang2 ": 5137,
  "ge2 la1 ": 5138,
  "cun1 luo4 ": 5139,
  "zhui1 su4 ": 5140,
  "CO": 5141,
  "fa1 xing2 de ": 5142,
  "zou3 xiang4 ": 5143,
  "kong3 bu4 ": 5144,
  " xu4 ": 5145,
  " wen1 ": 5146,
  "shi4 hou4 ": 5147,
  "shang4 xia4 ": 5148,
  " hao3 ": 5149,
  "xi4 de ": 5150,
  "wu3 shi2 ": 5151,
  "luo4 shan1 ji1 ": 5152,
  "gang3 kou3 ": 5153,
  "guang1 xu4 ": 5154,
  "gong1 kai1 sai4 ": 5155,
  "15 nian2 ": 5156,
  "43 ": 5157,
  "od": 5158,
  "ji2 bie2 ": 5159,
  "xiao4 yuan2 ": 5160,
  " yong4 yu2 ": 5161,
  "   er2 ": 5162,
  "hui4 he2 ": 5163,
  "nan2 fei1 ": 5164,
  "dang3 yuan2 ": 5165,
  "   di4 fang1 ": 5166,
  "de wen4 ti2 ": 5167,
  "xun2 huan2 ": 5168,
  " tan2 ": 5169,
  "jie2 de ": 5170,
  "tian1 ti3 ": 5171,
  "tian1 ran2 ": 5172,
  "xia2 qu1 ": 5173,
  "zhong1 guo2 da4 lu4 de ": 5174,
  "zhua1 ": 5175,
  "ar ": 5176,
  "shang4 sheng1 ": 5177,
  "xiao4 li4 ": 5178,
  "xie3 dao4 ": 5179,
  "bei4 bu3 ": 5180,
  "hai3 ping2 mian4 ": 5181,
  "zan4 ting2 ": 5182,
  "   li3 ": 5183,
  "mai2 ": 5184,
  " heng1 ": 5185,
  "ka3 luo2 ": 5186,
  " da4 bu4 fen4 ": 5187,
  "le yi1 xie1 ": 5188,
  " zao3 ": 5189,
  "ng   ": 5190,
  "xiao1 shi1 ": 5191,
  "long3 ": 5192,
  "yi1 ran2 ": 5193,
  "jin3 guan3 ": 5194,
  "bu4 ji2 ": 5195,
  " gei3 ": 5196,
  "ping2 yuan2 ": 5197,
  "hui4 yi4 yuan2 ": 5198,
  "ric": 5199,
  "kuo4 zhang1 ": 5200,
  "zan4 zhu4 ": 5201,
  "shi2 shi4 ": 5202,
  "shan1 feng1 ": 5203,
  "niao4 ": 5204,
  "yan3 zou4 ": 5205,
  "bian1 jing4 ": 5206,
  " xing2 cheng2 ": 5207,
  "wan4 mei3 yuan2 ": 5208,
  "de zui4 ": 5209,
  "zu2 gou4 ": 5210,
  "can3 ": 5211,
  "shi4 zhong1 xin1 ": 5212,
  "mei3 jun1 ": 5213,
  "ke1 de qi2 zhong1 yi1 zhong3 ": 5214,
  "zhong1 jian1 ": 5215,
  "neng2 yuan2 ": 5216,
  " zhong1 hua2 ren2 min2 gong4 he2 guo2 zheng4 zhi4 ren2 wu4 ": 5217,
  "de san1 ": 5218,
  "jiang4 ling3 ": 5219,
  "sui2 ji2 ": 5220,
  "fen1 lie4 ": 5221,
  "wu2 zheng4 zhuang4 ": 5222,
  "du2 li4 de ": 5223,
  " shi2 ji4 ": 5224,
  "zhuan4 xie3 ": 5225,
  "18 nian2 ": 5226,
  " 8 ": 5227,
  "bu4 bu4 zhang3 ": 5228,
  "qi2 wei4 ": 5229,
  "jin1 ri4 ": 5230,
  " 1998 nian2 ": 5231,
  "pei2 xun4 ": 5232,
  " xiong2 ": 5233,
  "en1 sheng3 ": 5234,
  "li3 gong1 ": 5235,
  "lu4 zhan4 ": 5236,
  "tong2 ming2 ": 5237,
  "zao1 yu4 ": 5238,
  "de gong1 zuo4 ": 5239,
  " shen3 ": 5240,
  "wu1 ran3 ": 5241,
  "dong3 shi4 zhang3 ": 5242,
  "chu1 ru4 kou3 ": 5243,
  "suo3 chu4 de ": 5244,
  "ver": 5245,
  " sheng3 ": 5246,
  "he2 xi1 ": 5247,
  "zu2 qiu2 yun4 dong4 yuan2 ": 5248,
  " luo2 ma3 ": 5249,
  " shi4 zhi3 ": 5250,
  "jiang1 xi1 ": 5251,
  "san1 shi4 ": 5252,
  " re4 ": 5253,
  " xi1 jie1 ": 5254,
  "zu1 jie4 ": 5255,
  "tu2 xing2 ": 5256,
  " yi4 da4 li4 ": 5257,
  "xing1 deng3 wei4 ": 5258,
  " fu3 ": 5259,
  " fan2 ": 5260,
  "ben3 ren2 ": 5261,
  " bing4 yu3 ": 5262,
  "qi3 yuan2 ": 5263,
  "37 ": 5264,
  "ji2 da4 ": 5265,
  "lai2 yue4 ": 5266,
  "shan1 xian4 ": 5267,
  " jie2 mu4 ": 5268,
  "bao3 luo2 ": 5269,
  " gai1 cun1 ": 5270,
  "lai2 yin1 ": 5271,
  "qun2 ti3 ": 5272,
  "   ma3 ": 5273,
  "le   ": 5274,
  "xing2 rong2 ": 5275,
  "shou4 quan2 ": 5276,
  "2002 nian2 ": 5277,
  " ma3 lai2 ": 5278,
  "zu2 qiu2 dui4 ": 5279,
  "sa4 er3 ": 5280,
  "ta4 ": 5281,
  "de2 la1 ": 5282,
  "sui4 de ": 5283,
  "zai1 pei2 ": 5284,
  "ling4 ren2 ": 5285,
  "ce4 lve4 ": 5286,
  " yi1 ming2 ": 5287,
  "fa1 hui1 ": 5288,
  "te4 la1 ": 5289,
  " 1949 nian2 ": 5290,
  "68": 5291,
  "zu2 xie2 ": 5292,
  "wo3 men ": 5293,
  " xiang3 nian2 ": 5294,
  "ping2 heng2 ": 5295,
  "huang2 se4 ": 5296,
  "di3 kang4 ": 5297,
  " xin4 ": 5298,
  "zai4 wei4 ": 5299,
  "yi1 ju4 ": 5300,
  "xin1 zeng1 ": 5301,
  "xie3 zuo4 ": 5302,
  "yan2 lun4 ": 5303,
  "lv4 se4 ": 5304,
  "gai3 ming2 wei4 ": 5305,
  "ah": 5306,
  "bu4 li3 ": 5307,
  "di4 zhi4 ": 5308,
  "dui4 fang1 ": 5309,
  "guan1 de ": 5310,
  " shi4 de2 guo2 ": 5311,
  "shou3 xi2 ": 5312,
  " shi4 wu1 ke4 lan2 ": 5313,
  "ban3 de ": 5314,
  " jian4 li4 ": 5315,
  " huan4 ": 5316,
  " xian2 ": 5317,
  "gong1 de ": 5318,
  "zhu3 shi4 ": 5319,
  " 15 ": 5320,
  " you2 qi2 ": 5321,
  "shao4 jiang4 ": 5322,
  " wei1 lian2 ": 5323,
  "cu1 ": 5324,
  "da3 suan4 ": 5325,
  "ik": 5326,
  "shou1 ji2 ": 5327,
  "bo2 shi4 xue2 wei4 ": 5328,
  "ge4 ge4 ": 5329,
  "ting2 kao4 ": 5330,
  "bi4 ye4 hou4 ": 5331,
  "yi1 zhi2 ": 5332,
  "xia4 ling4 shi2 jian1 ": 5333,
  "jia1 li4 fu2 ": 5334,
  "ben1 ": 5335,
  "f ": 5336,
  "1 ge4 ": 5337,
  "fa1 ming2 ": 5338,
  "tun1 ": 5339,
  "de fa1 zhan3 ": 5340,
  "shou3 bo1 ": 5341,
  "dang1 di4 de ": 5342,
  "jian4 zhu4 wu4 ": 5343,
  "cui1 hui3 ": 5344,
  "heng1 li4 ": 5345,
  " xu3 ": 5346,
  "guo2 jun1 ": 5347,
  "yi3 xi1 ": 5348,
  "   2006 nian2 ": 5349,
  "he2 zhong1 ": 5350,
  "jian1 cha2 ": 5351,
  "hui4 bei4 ": 5352,
  "chu1 shou4 ": 5353,
  "yan2 fa1 ": 5354,
  "ceng2 wei4 ": 5355,
  " jie2 ke4 ": 5356,
  "ming2 chao2 ": 5357,
  "shan1 shi4 ": 5358,
  "qi4 ya1 ": 5359,
  "yuan4 shi4 ": 5360,
  "jing4 sai4 ": 5361,
  " kang4 ": 5362,
  " xian4 shi2 ": 5363,
  "dan1 mai4 ": 5364,
  "feng1 wei4 ": 5365,
  " 1999 nian2 ": 5366,
  "li4 zi ": 5367,
  "bei1 si1 ": 5368,
  "ping2 wei4 ": 5369,
  "lian2 wang3 ": 5370,
  " bing4 you2 ": 5371,
  "guo2 ji4 ji1 chang3 ": 5372,
  "ling2 chen2 ": 5373,
  " z": 5374,
  "le duo1 ": 5375,
  "sheng1 yin1 ": 5376,
  "xiao4 ying4 ": 5377,
  "fen1 qu1 ": 5378,
  "quan2 xian4 ": 5379,
  " su1 lian2 ": 5380,
  " she4 ji4 ": 5381,
  "2025 nian2 ": 5382,
  "bao1 wei2 ": 5383,
  " xi1 nan2 ": 5384,
  " xie2 ": 5385,
  "ju4 da4 ": 5386,
  "ju4 ti3 ": 5387,
  " A ": 5388,
  " tong2 shi2 gai1 di4 ": 5389,
  "ea": 5390,
  "de gu3 ": 5391,
  "   qing1 ": 5392,
  "yi3 wei2 ": 5393,
  " 000": 5394,
  "chu1 ban3 she4 ": 5395,
  "ma ": 5396,
  "si1 li4 ": 5397,
  "fu2 hao4 ": 5398,
  "jue2 yi4 ": 5399,
  " 13 ": 5400,
  "ci2 zhi2 ": 5401,
  "xian3 zhu4 ": 5402,
  " dang4 ": 5403,
  "che1 chang3 ": 5404,
  "ill": 5405,
  "wu2 zheng4 zhuang4 gan3 ran3 zhe3 ": 5406,
  "de qing2 kuang4 xia4 ": 5407,
  "ou3 xiang4 ": 5408,
  "shen2 hua4 ": 5409,
  "shi2 jiu3 ": 5410,
  "hua4 fen1 ": 5411,
  "ta1 wei4 ": 5412,
  "zu3 zhi1 de ": 5413,
  "zai4 197": 5414,
  "nei4 lu4 sheng3 fen4 ": 5415,
  "guang3 xi1 ": 5416,
  "yin3 yong4 ": 5417,
  "500 ": 5418,
  "bo1 si1 ": 5419,
  " zhou1 nian2 ": 5420,
  "nang2 ": 5421,
  "he2 bei3 ": 5422,
  "suo3 zai4 di4 ": 5423,
  "ying3 xiang4 ": 5424,
  "qian1 yue1 ": 5425,
  "zuo4 wei4 ": 5426,
  "nuan3 ": 5427,
  "de xi1 ": 5428,
  "la1 te4 ": 5429,
  "5 gong1 li3 ": 5430,
  "ban1 fa1 ": 5431,
  "mi4 qie4 ": 5432,
  "de jia1 ": 5433,
  " zhui1 ": 5434,
  "zha4 dan4 ": 5435,
  "jing4 nei4 gong4 you3 ": 5436,
  " Z": 5437,
  " shan4 ": 5438,
  "de zhi2 ": 5439,
  "si1 ka3 ": 5440,
  "mian4 lin2 ": 5441,
  "bo2 jue2 ": 5442,
  " pi1 ": 5443,
  " ling4 you3 ": 5444,
  "ER": 5445,
  "   xian4 ": 5446,
  "yi4 wai4 ": 5447,
  "shou1 dao4 ": 5448,
  "mao4 xian3 ": 5449,
  "ju3 ban4 de ": 5450,
  "shan1 dong1 sheng3 ": 5451,
  " tu1 ": 5452,
  " yuan2 ming2 ": 5453,
  " zhi4 zuo4 ": 5454,
  "   U": 5455,
  "he2 tong2 ": 5456,
  "fu4 shu3 ": 5457,
  "liang3 guo2 ": 5458,
  "yu2 190": 5459,
  "   zhi4 ": 5460,
  "chang2 jian4 ": 5461,
  "liang4 zi3 ": 5462,
  "dou4 zheng1 ": 5463,
  "shang1 pin3 ": 5464,
  " zi4 you2 ": 5465,
  "ye1 su1 ": 5466,
  "igh": 5467,
  "qi1 xi1 ": 5468,
  "shan1 xi1 ": 5469,
  "que4 bao3 ": 5470,
  "fei4 yan2 ": 5471,
  "ti2 gong1 le ": 5472,
  "ll": 5473,
  "   dan4 ": 5474,
  "   yi3 ": 5475,
  "shi2 yan4 shi4 ": 5476,
  " cai3 yong4 ": 5477,
  "ut": 5478,
  " yao2 ": 5479,
  "de qing1 ": 5480,
  "jiu4 yuan2 ": 5481,
  "zhi2 min2 di4 ": 5482,
  " qin1 ": 5483,
  "lu4 ying3 ": 5484,
  "chang2 wei3 ": 5485,
  "ban1 jiang3 ": 5486,
  "shun4 li4 ": 5487,
  "58": 5488,
  "bu4 shu3 ": 5489,
  "yu4 suan4 ": 5490,
  "bao4 zhi3 ": 5491,
  "ye3 ke3 yi3 ": 5492,
  "che1 dui4 ": 5493,
  "tiao2 li4 ": 5494,
  "shuang1 da3 ": 5495,
  "zui4 gao1 de ": 5496,
  "qi1 de ": 5497,
  "dan1 du2 ": 5498,
  "ren2 min2 dai4 biao3 da4 hui4 ": 5499,
  "jiao3 du4 ": 5500,
  "   di4 fang1 zi1 liao4 ": 5501,
  "NB": 5502,
  "sheng1 ji2 ": 5503,
  "duo1 li4 ya4 ": 5504,
  "tou4 lu4 ": 5505,
  "de ji1 chu3 ": 5506,
  " di3 ": 5507,
  "you2 xing2 ": 5508,
  "man3 zhou1 ": 5509,
  " xu1 yao4 ": 5510,
  "kai1 mu4 ": 5511,
  "ni2 er3 ": 5512,
  " sheng1 yu2 ": 5513,
  "   jian3 jie4 ": 5514,
  "zan4 shi2 ": 5515,
  "DT ": 5516,
  "chang2 jiang1 ": 5517,
  "zhi1 shi4 ": 5518,
  "   190": 5519,
  " ceng2 jing1 ": 5520,
  "30 nian2 ": 5521,
  "IS": 5522,
  "ep": 5523,
  "ji2 lin2 ": 5524,
  "ya4 mei3 ni2 ya4 ": 5525,
  " cao2 ": 5526,
  "52 ": 5527,
  "is   ": 5528,
  "ta1 shi4 ": 5529,
  "ya4 mu4 ": 5530,
  "pei4 bei4 ": 5531,
  " nai3 ": 5532,
  "he2 fa3 ": 5533,
  "chu1 chang3 ": 5534,
  "sheng4 chu1 ": 5535,
  " bi3 sai4 ": 5536,
  "ce   ": 5537,
  "shi2 pin3 ": 5538,
  "zuo4 fa3 ": 5539,
  "ke1 xue2 jia1 ": 5540,
  "ming2 ren2 ": 5541,
  "jin4 dang3 ": 5542,
  "tian1 hou4 ": 5543,
  "jiang3 shu4 ": 5544,
  "xin1 guan1 ": 5545,
  "gu3 lao3 ": 5546,
  "han2 you3 ": 5547,
  "yan2 jiu1 yuan4 ": 5548,
  "li4 chang3 ": 5549,
  "yuan2 shi3 ": 5550,
  "xue2 ke1 ": 5551,
  "lu4 duan4 ": 5552,
  "wen2 yi4 ": 5553,
  "hai3 ba2 wei4 ": 5554,
  "AN": 5555,
  "ge4 guo2 ": 5556,
  " jiang4 ": 5557,
  "ke4 lin2 ": 5558,
  "shi2 qi1 nian2 ": 5559,
  " bi4 xu1 ": 5560,
  "22": 5561,
  "zu2 qun2 ": 5562,
  "lay": 5563,
  " jiu4 shi4 ": 5564,
  "zai4 yi4 qi3 ": 5565,
  "zhang3 zi3 ": 5566,
  "zhong3 zi ": 5567,
  "tu2 sha1 ": 5568,
  "meng2 te4 ": 5569,
  "de li3 ": 5570,
  "   s": 5571,
  "jie2 du4 ": 5572,
  " dan4 yin1 ": 5573,
  "wo3 men": 5574,
  "da4 zhi4 ": 5575,
  "6 ge4 ": 5576,
  "bei4 pan4 ": 5577,
  "zhan4 chang3 ": 5578,
  "huai2 yi2 ": 5579,
  "zhong1 zui4 ": 5580,
  "zhong4 zhi2 ": 5581,
  "wei4 qi2 ": 5582,
  "shi2 bao4 ": 5583,
  "yue4 qiu2 ": 5584,
  "luo2 de2 ": 5585,
  "duan3 zan4 ": 5586,
  "yi4 shu4 jia1 ": 5587,
  "   In": 5588,
  "de dian4 ying3 ": 5589,
  "da4 fu1 ": 5590,
  "ling3 xian1 ": 5591,
  "dang4 tian1 ": 5592,
  "dao4 de2 ": 5593,
  "suo3 de ": 5594,
  "lian2 jie2 ": 5595,
  "ti2 ji2 ": 5596,
  "dou1 zai4 ": 5597,
  "diao4 kuai4 ": 5598,
  "yu2 192": 5599,
  "ou1 meng2 ": 5600,
  "wa3 er3 ": 5601,
  "gh": 5602,
  "ren2 men": 5603,
  " yi1 ci2 ": 5604,
  "zao1 shou4 ": 5605,
  "wai4 jiao1 bu4 ": 5606,
  "c ": 5607,
  "   ran2 ": 5608,
  "wei4 xin1 ": 5609,
  " po4 ": 5610,
  "jian1 chi2 ": 5611,
  "ya4 li4 shan1 da4 ": 5612,
  "xu3 ke3 ": 5613,
  "shi4 ni2 ": 5614,
  "jiang1 zai4 ": 5615,
  "er4 yue4 ": 5616,
  "da2 er3 ": 5617,
  "ban4 li3 ": 5618,
  " jia1 na2 da4 ": 5619,
  "nen4 ": 5620,
  "de yi2 ": 5621,
  "huang3 ": 5622,
  "gong1 zuo4 shi4 ": 5623,
  " jia1 ru4 ": 5624,
  "99": 5625,
  "de wu3 ": 5626,
  "   jiao1 tong1 ": 5627,
  "xian4 cheng2 ": 5628,
  "tai4 zi ": 5629,
  "fei4 yong4 ": 5630,
  "fa1 sheng1 zai4 ": 5631,
  " diao4 ": 5632,
  "14 nian2 ": 5633,
  "gao1 da2 ": 5634,
  "che4 tui4 ": 5635,
  "   Ch": 5636,
  "yi1 mei2 ": 5637,
  "kong1 xi2 ": 5638,
  " wan3 ": 5639,
  "yi4 dian3 ": 5640,
  "shang4 zhen4 ": 5641,
  "fu2 de ": 5642,
  "shen3 pan4 ": 5643,
  " si4 chuan1 ": 5644,
  "AC": 5645,
  "te4 qu1 ": 5646,
  "qing2 xu4 ": 5647,
  "AP": 5648,
  " chun1 ": 5649,
  "le xu3 duo1 ": 5650,
  "zhi2 zheng4 ": 5651,
  "she4 ji4 de ": 5652,
  "xian4 shi4 ": 5653,
  " cn ": 5654,
  "sao1 ": 5655,
  "pa2 ": 5656,
  "shi2 yong4 ": 5657,
  "shu4 mu4 ": 5658,
  " tai2 bei3 ": 5659,
  "zhong1 wei4 ": 5660,
  "fu4 shu1 ji4 ": 5661,
  "diao4 kuai4 yi1 xiao3 shi2 ": 5662,
  "fu2 zhou1 ": 5663,
  " wei4 UTC ": 5664,
  "wei3 yuan2 hui4 wei3 yuan2 ": 5665,
  "da4 shi3 guan3 ": 5666,
  " mi4 ": 5667,
  "de guan1 xi4 ": 5668,
  "gong1 jiao1 ": 5669,
  "lu4 kou3 ": 5670,
  " che4 ": 5671,
  " ji2 UTC ": 5672,
  "she4 you3 xia4 ling4 shi2 jian1 ": 5673,
  "de shi2 qu1 wei4 UTC ": 5674,
  " er2 gai1 di4 suo3 cai3 yong4 ": 5675,
  " tong2 shi2 gai1 di4 she4 you3 xia4 ling4 shi2 jian1 ": 5676,
  " er2 gai1 di4 suo3 cai3 yong4 de shi2 qu1 wei4 UTC ": 5677,
  "47 ": 5678,
  "lu4 zhi4 ": 5679,
  "dai4 ma3 ": 5680,
  "jiao4 shi4 ": 5681,
  "niao3 lei4 ": 5682,
  "wei2 fan3 ": 5683,
  "shu4 yu3 ": 5684,
  "jie1 ren4 ": 5685,
  "yuan2 wei4 ": 5686,
  "qu1 jian1 ": 5687,
  "kuo4 jian4 ": 5688,
  " fu2 jian4 ": 5689,
  " fa1 xing2 ": 5690,
  "fang2 zhi3 ": 5691,
  " shan1 dong1 ": 5692,
  "ti2 yi4 ": 5693,
  " 1997 nian2 ": 5694,
  " sai4 ji4 ": 5695,
  "de wai4 ": 5696,
  "miao2 hui4 ": 5697,
  "de yuan2 yin1 ": 5698,
  "bing4 qie3 ": 5699,
  "fu2 de2 ": 5700,
  "zu2 qiu2 ju4 le4 bu4 ": 5701,
  "gan4 bu4 ": 5702,
  "gao1 yu2 hai3 ping2 mian4 ": 5703,
  "D   ": 5704,
  "pai2 hang2 bang3 ": 5705,
  "de dian4 ": 5706,
  " zhi1 chi2 ": 5707,
  "qu1 de mian4 ji1 wei4 ": 5708,
  "suo3 chu4 de hai3 ba2 wei4 ": 5709,
  "suo3 chu4 de hai3 ba2 wei4 gao1 yu2 hai3 ping2 mian4 ": 5710,
  "leng2 ": 5711,
  "sheng1 ji1 ": 5712,
  "bi3 li4 shi2 ": 5713,
  "50 nian2 ": 5714,
  "ke4 li3 si1 ": 5715,
  "te4 er3 ": 5716,
  " tang1 ": 5717,
  "xing2 zhuang4 ": 5718,
  " ri4 jun1 ": 5719,
  "zhu3 yi4 de ": 5720,
  "bang4 qiu2 ": 5721,
  "yi4 ti2 ": 5722,
  "chuang4 xin1 ": 5723,
  "wei2 ke4 ": 5724,
  "jiu4 hui4 ": 5725,
  "u ": 5726,
  " dan4 qi2 ": 5727,
  "hao4 wei4 ": 5728,
  "chuang4 shi3 ": 5729,
  "kao4 jin4 ": 5730,
  " za2 zhi4 ": 5731,
  "da4 shi1 ": 5732,
  "ke3 zai4 ": 5733,
  " sang1 ": 5734,
  " huo4 shi4 ": 5735,
  " wo3 men ": 5736,
  "...": 5737,
  "xie2 ding4 ": 5738,
  " liang3 ge4 ": 5739,
  "yi1 zhou1 ": 5740,
  "da4 ge2 ming4 ": 5741,
  "jia1 su4 ": 5742,
  "te4 dian3 ": 5743,
  "yan3 hua4 ": 5744,
  "zai4 194": 5745,
  "ren4 ke3 ": 5746,
  "kui1 ": 5747,
  "wang2 zi3 ": 5748,
  " ying1 wen2 ": 5749,
  "liang3 wei4 ": 5750,
  "67": 5751,
  "ich": 5752,
  "fu2 li4 ": 5753,
  "mian4 ti3 ": 5754,
  "wang2 shi4 ": 5755,
  " ji2 bei3 mei3 ": 5756,
  "188": 5757,
  " suo1 ": 5758,
  " qian2 long2 ": 5759,
  "300 ": 5760,
  " ning2 ": 5761,
  "de nan2 ": 5762,
  "xian4 yu2 ": 5763,
  "zhi1 chu4 ": 5764,
  "chao2 ting2 ": 5765,
  "150 ": 5766,
  "BC": 5767,
  "yi1 lang3 ": 5768,
  "fen1 zhi1 yi1 ": 5769,
  "long2 de ": 5770,
  "ark": 5771,
  "gong1 yuan2 qian2 ": 5772,
  "nian2 lai2 ": 5773,
  "yu4 de ": 5774,
  "tian1 tang2 ": 5775,
  "luan2 ": 5776,
  " mu3 qin1 ": 5777,
  "gong1 qing3 ": 5778,
  "zhi1 ji4 ": 5779,
  "shou3 shu4 ": 5780,
  "chuan2 zhi1 ": 5781,
  "chu1 xian4 le ": 5782,
  "bu4 bian4 ": 5783,
  " song1 ": 5784,
  "ge1 ci2 ": 5785,
  "cai2 chan3 ": 5786,
  " dao4 le ": 5787,
  " ya3 ": 5788,
  "2 hao4 ": 5789,
  "ji2 jiang1 ": 5790,
  " gou4 ": 5791,
  "bian1 de ": 5792,
  " 1994 nian2 ": 5793,
  "ti4 dai4 ": 5794,
  "piao1 ": 5795,
  " zhun3 ": 5796,
  "xiang1 tong2 de ": 5797,
  "dou3 ": 5798,
  "zhi1 di4 ": 5799,
  "xuan3 chu1 ": 5800,
  "na4 ru4 ": 5801,
  "gu3 dian3 ": 5802,
  "zhe4 jiang1 sheng3 ": 5803,
  "xun2 yang2 jian4 ": 5804,
  "di2 ren2 ": 5805,
  "   zheng4 ": 5806,
  "di4 zai4 ": 5807,
  " gu1 ": 5808,
  "zhang3 da2 ": 5809,
  "nuo4 fu1 ": 5810,
  " 1992 nian2 ": 5811,
  "shi4 pin2 ": 5812,
  "yi1 bu4 fen4 ": 5813,
  "cheng2 jiu4 ": 5814,
  "jin1 shan1 ": 5815,
  "cheng1 hu1 ": 5816,
  "hu4 xiang1 ": 5817,
  "tui1 jian4 ": 5818,
  "qie4 er3 ": 5819,
  "tui3 ": 5820,
  "11 nian2 ": 5821,
  "nd": 5822,
  " Y": 5823,
  " 2 yue4 ": 5824,
  " dong1 jing1 ": 5825,
  "zai4 196": 5826,
  " jiao3 ": 5827,
  " hu1 ": 5828,
  "qing1 xiang4 ": 5829,
  "he2 ma3 ": 5830,
  "er3 dun4 ": 5831,
  "she4 qun2 ": 5832,
  "ying3 shi4 ": 5833,
  "xing1 de ": 5834,
  "gen1 sui2 ": 5835,
  "ju4 chang3 ": 5836,
  "zao4 cheng2 de ": 5837,
  "pei4 zhi4 ": 5838,
  "xue2 xi4 ": 5839,
  "zhen4 qu1 de mian4 ji1 wei4 ": 5840,
  "rong2 he2 ": 5841,
  "jun4 gong1 ": 5842,
  "Tub": 5843,
  "qu1 fen1 ": 5844,
  "shu1 chu1 ": 5845,
  "kai1 shi3 zai4 ": 5846,
  "5   ": 5847,
  "da4 ban3 ": 5848,
  " zhan1 ": 5849,
  "ti2 chu1 de ": 5850,
  "suo3 you3 de ": 5851,
  "17 nian2 ": 5852,
  "xuan4 ": 5853,
  "guan3 zhi4 ": 5854,
  "de gu4 shi4 ": 5855,
  "yi1 xi4 lie4 ": 5856,
  "suo3 wei4 ": 5857,
  "bao3 xian3 ": 5858,
  "xuan1 cheng1 ": 5859,
  "zhi4 zuo4 de ": 5860,
  "pei2 yang3 ": 5861,
  "53 ": 5862,
  "yu4 ji4 ": 5863,
  " 1996 nian2 ": 5864,
  "shi2 ji4 shang4 ": 5865,
  " xia2 ": 5866,
  "bu4 lai2 ": 5867,
  "dong4 de ": 5868,
  "shui3 li4 ": 5869,
  "shang1 wang2 ": 5870,
  " xian1 hou4 ": 5871,
  " zheng3 ge4 ": 5872,
  "   ji2 ": 5873,
  "   tai2 wan1 ": 5874,
  "gong1 wu4 ": 5875,
  " cui1 ": 5876,
  "fang1 mian4 de ": 5877,
  " sui2 zhe ": 5878,
  "zi3 nv3 ": 5879,
  " jie2 zhi4 ": 5880,
  "ba ": 5881,
  "hua4 jia1 ": 5882,
  "yi3 dong1 ": 5883,
  "zong3 cai2 ": 5884,
  "di4 yi1 wei4 ": 5885,
  "shang4 xian4 ": 5886,
  "fei1 fa3 ": 5887,
  "zi1 zhu4 ": 5888,
  "shang1 dian4 ": 5889,
  "xun2 qiu2 ": 5890,
  "us   ": 5891,
  "chang2 wu4 ": 5892,
  "ge2 er3 ": 5893,
  " pei2 ": 5894,
  "xia1 ": 5895,
  "qu1 nei4 ": 5896,
  "fa3 ling4 ": 5897,
  "tu2 xiang4 ": 5898,
  "ai4 qing2 ": 5899,
  "shi4 ren2 ": 5900,
  "cheng2 nian2 ": 5901,
  "yan2 zhi4 ": 5902,
  "wei3 tuo1 ": 5903,
  "yue1 you3 ": 5904,
  "qun2 zhong4 ": 5905,
  "zui4 di1 ": 5906,
  "er4 zhan4 ": 5907,
  "zong3 jian1 ": 5908,
  " mai4 ke4 ": 5909,
  "ba1 la1 ": 5910,
  " er2 bu2 shi4 ": 5911,
  " wei4 yu2 gai1 ": 5912,
  " tou4 guo4 ": 5913,
  "shi2 xing4 ": 5914,
  "zi4 wo3 ": 5915,
  "shi": 5916,
  "   zhu3 yao4 ": 5917,
  "er4 ren2 ": 5918,
  "si4 hu1 ": 5919,
  "mo2 ni3 ": 5920,
  " xin1 wen2 ": 5921,
  "duo4 ": 5922,
  "jing3 guan1 ": 5923,
  " tong2 yang4 ": 5924,
  "lao3 shi1 ": 5925,
  "13 nian2 ": 5926,
  "ram": 5927,
  "cheng2 zhang3 ": 5928,
  "zhong1 guo2 ren2 min2 jie3 fang4 jun1 ": 5929,
  " zhe4 yang4 ": 5930,
  "zheng1 qu3 ": 5931,
  "man": 5932,
  "ti3 zhi4 ": 5933,
  "fu1 fu4 ": 5934,
  "NA": 5935,
  "te4 xing4 ": 5936,
  "dan1 yi1 ": 5937,
  "tong1 zhi1 ": 5938,
  "zhi4 pian4 ": 5939,
  "tiv": 5940,
  "qing2 jie2 ": 5941,
  "zhan1 mu3 si1 ": 5942,
  "gu3 fen4 you3 xian4 gong1 si1 ": 5943,
  "you3 xie1 ": 5944,
  "xing2 ren2 ": 5945,
  " ming2 zhi4 ": 5946,
  "01 ": 5947,
  "62 ": 5948,
  "zhong1 jiang4 ": 5949,
  "xiang1 zhen4 ": 5950,
  "shou3 xian1 ": 5951,
  "deng3 ji2 ": 5952,
  " 1993 nian2 ": 5953,
  "gu3 la1 ": 5954,
  "bo1 shi4 ": 5955,
  "qi2 de ": 5956,
  " xi1 bei3 ": 5957,
  "jiang1 su1 sheng3 ": 5958,
  " niu3 yue1 ": 5959,
  "yuan4 yi4 ": 5960,
  "fu3 zhu4 ": 5961,
  "7 yue4 1 ri4 ": 5962,
  "ection": 5963,
  "di4 jiu3 ": 5964,
  "can1 shu4 ": 5965,
  "rong2 na4 ": 5966,
  "yu4 ce4 ": 5967,
  " zhe4 ci4 ": 5968,
  "bian1 yuan2 ": 5969,
  "fang2 kong1 ": 5970,
  "pan4 luan4 ": 5971,
  "16 nian2 ": 5972,
  "ze2 zai4 ": 5973,
  "luo4 cheng2 ": 5974,
  "luo4 fa2 ": 5975,
  "zong1 yi4 ": 5976,
  " chu1 sheng1 yu2 ": 5977,
  " pai4 ": 5978,
  " li4 shi3 ": 5979,
  " yuan3 ": 5980,
  "qing1 chu3 ": 5981,
  "you2 xi4 de ": 5982,
  "   fu4 ": 5983,
  "mei3 yuan2 de ": 5984,
  "de2 dao4 le ": 5985,
  "ami": 5986,
  "ear": 5987,
  "   ri4 ben3 ": 5988,
  "zheng4 que4 ": 5989,
  "guan1 kan4 ": 5990,
  "duo1 wei4 ": 5991,
  "z ": 5992,
  "lie4 chu1 ": 5993,
  "YouTub": 5994,
  "39 ": 5995,
  "et   ": 5996,
  "   jin4 ": 5997,
  "ji2 ren2 ": 5998,
  "si1 bao3 ": 5999,
  "ren4 wei4 ": 6000,
  " pu2 tao2 ": 6001,
  "bao2 ": 6002,
  "hai3 shang4 ": 6003,
  "fang4 zai4 ": 6004,
  " ta1 men zai4 ": 6005,
  "b ": 6006,
  "di4 shi4 ": 6007,
  "yue4 lai2 yue4 ": 6008,
  "shang1 ren2 ": 6009,
  "you2 tai4 ren2 ": 6010,
  "se4 fu1 ": 6011,
  "bu3 chong1 ": 6012,
  "de hou4 ": 6013,
  "ren2 ci4 ": 6014,
  "de yi1 tiao2 ": 6015,
  "qiao2 liang2 ": 6016,
  " ji4 zai3 ": 6017,
  " 1945 nian2 ": 6018,
  " ji4 hua4 ": 6019,
  "he2 li3 ": 6020,
  "yi1 qie4 ": 6021,
  "187": 6022,
  "ren4 qi1 ": 6023,
  "lai2 na4 ": 6024,
  "shou3 duan4 ": 6025,
  "lang3 pu3 ": 6026,
  "tu4 ": 6027,
  "tong2 zhi4 ": 6028,
  "ban1 ci4 ": 6029,
  " ting1 ": 6030,
  "huo4 sheng4 ": 6031,
  "   2005 nian2 ": 6032,
  " bing4 wei4 ": 6033,
  "xiao4 li4 yu2 ": 6034,
  "tian1 qi4 ": 6035,
  "zhong1 guo2 de ": 6036,
  "yi1 xiang4 ": 6037,
  "mi4 si1 ": 6038,
  "zi3 dan4 ": 6039,
  "ss": 6040,
  " f": 6041,
  "yu2 lei2 ": 6042,
  "die1 ": 6043,
  "lin2 jin4 ": 6044,
  "wu3 ge4 ": 6045,
  " er2 fei1 ": 6046,
  "jin4 xing2 de ": 6047,
  "   mu4 qian2 ": 6048,
  "cheng2 fen4 ": 6049,
  "xing4 he2 ": 6050,
  "la1 ji1 ": 6051,
  "tan4 xian3 ": 6052,
  "chuan2 tong3 de ": 6053,
  "si4 chuan1 sheng3 ": 6054,
  "57": 6055,
  "guo2 dao4 ": 6056,
  "yi1 ren2 ": 6057,
  "bo1 er3 ": 6058,
  "su1 dan1 ": 6059,
  " gong4 tong2 ": 6060,
  "   jia1 ting2 ": 6061,
  "zhuan4 de ": 6062,
  "ji2 ti3 ": 6063,
  "liu2 chuan2 ": 6064,
  "61 ": 6065,
  " qiu2 ": 6066,
  "   fu2 ": 6067,
  "xi1 shou1 ": 6068,
  "sai4 de ": 6069,
  "yong3 jiu3 ": 6070,
  "jian4 li4 le ": 6071,
  "wu2 ren2 ji1 ": 6072,
  "huan4 cheng2 ": 6073,
  "gong4 he2 dang3 ": 6074,
  "BS": 6075,
  "ju4 bei4 ": 6076,
  "ju4 luo4 ": 6077,
  "ci4 yu2 ": 6078,
  "zhe4 shi4 ": 6079,
  " bu4 tong2 ": 6080,
  " lei1 ": 6081,
  "zhai3 ": 6082,
  "li4 ke4 ": 6083,
  "gong1 zhan4 ": 6084,
  "zhi4 zuo4 ren2 ": 6085,
  "   ge4 ren2 ": 6086,
  "ri4 chang2 ": 6087,
  "hang2 ye4 ": 6088,
  "gei3 le ": 6089,
  "nei4 di4 ": 6090,
  "51 ": 6091,
  "qi2 zai4 ": 6092,
  "lu4 shang4 ": 6093,
  " chu4 ": 6094,
  "chu4 zhang3 ": 6095,
  "wang4 yuan3 ": 6096,
  "ji1 fen1 ": 6097,
  "zheng4 mian4 ": 6098,
  "yi2 ci4 shi4 jie4 da4 zhan4 ": 6099,
  " shi4 wei4 ": 6100,
  "liang3 ce4 ": 6101,
  "ying2 ye4 ": 6102,
  "hong2 jun1 ": 6103,
  " mian4 ": 6104,
  " qing3 ": 6105,
  "fa3 yu3 ": 6106,
  "huo4 wu4 ": 6107,
  "chao1 yue4 ": 6108,
  "hao3 ping2 ": 6109,
  "tu1 chu1 ": 6110,
  "54 ": 6111,
  "IC": 6112,
  " shou3 ci4 ": 6113,
  "yan3 jiang3 ": 6114,
  "to": 6115,
  "zhi4 198": 6116,
  "qu1 zhu2 ": 6117,
  "ye3 bu4 ": 6118,
  "zei2 ": 6119,
  "ci3 tong2 shi2 ": 6120,
  "nve4 ": 6121,
  "hu1 yu4 ": 6122,
  "zhi1 chi2 zhe3 ": 6123,
  "lu4 de ": 6124,
  "yuan2 he2 ": 6125,
  "ren4 tong2 ": 6126,
  "zhi2 bo1 ": 6127,
  "gu3 li4 ": 6128,
  "ren4 wei2 shi4 ": 6129,
  "fen3 si1 ": 6130,
  " you1 ": 6131,
  "   and   ": 6132,
  "zhong1 shu1 ": 6133,
  "zhan4 shu4 ": 6134,
  "ren4 zheng4 ": 6135,
  "jin3 you3 ": 6136,
  "   ran2 er2 ": 6137,
  "   in": 6138,
  "she4 jiao1 ": 6139,
  "zhou1 zhang3 ": 6140,
  "pu3 lu3 ": 6141,
  "she4 xian2 ": 6142,
  "zhu4 shou3 ": 6143,
  "shang4 su4 ": 6144,
  "yang2 xian4 ": 6145,
  "   p": 6146,
  "   formula ": 6147,
  "da4 qi4 ": 6148,
  "wu3 yue4 ": 6149,
  "ka3 la1 ": 6150,
  "ping2 deng3 ": 6151,
  " zhao1 he2 ": 6152,
  "jue2 shi4 ": 6153,
  "zhe4 ci4 ": 6154,
  "xia4 xia2 yi3 xia4 ": 6155,
  "   dui4 ": 6156,
  "ren4 jiao4 ": 6157,
  "qian2 hou4 ": 6158,
  "qi4 ti3 ": 6159,
  "ta3 er3 ": 6160,
  " 1995 nian2 ": 6161,
  " ling3 ": 6162,
  "de shi1 ": 6163,
  "mo4 er3 ": 6164,
  "zao3 shang4 ": 6165,
  " shi4 yi2 ge4 wei4 yu2 ": 6166,
  "   jin1 ": 6167,
  "li4 te4 ": 6168,
  "zhu3 li4 ": 6169,
  "fu2 zhuang1 ": 6170,
  "tie3 lu4 che1 zhan4 ": 6171,
  "guan1 jian4 ": 6172,
  "fen1 xiao4 ": 6173,
  "na4 de2 ": 6174,
  "8 ge4 ": 6175,
  "zhu2 bu4 ": 6176,
  "yun3 shi2 ": 6177,
  "tai2 bei3 shi4 ": 6178,
  "a1 gen1 ting2 ": 6179,
  "zhong4 liang4 ": 6180,
  "nv3 hai2 ": 6181,
  "qian3 ze2 ": 6182,
  " lian2 he2 ": 6183,
  "de bu4 fen4 ": 6184,
  "e2 guo2 ": 6185,
  "jiao4 da4 ": 6186,
  "shou1 fei4 ": 6187,
  " cheng2 gong1 ": 6188,
  "luo2 ma3 ni2 ya4 ": 6189,
  "yi3 shang4 de ": 6190,
  "zuo4 ye4 ": 6191,
  "ping2 jie4 ": 6192,
  "xia4 zai4 ": 6193,
  "zhu4 yu2 ": 6194,
  "luo2 fu1 ": 6195,
  "xiang4 shi4 ": 6196,
  "jiao4 di1 ": 6197,
  "xiang3 fa3 ": 6198,
  "tian1 wen2 tai2 ": 6199,
  "zai4 xin1 ": 6200,
  "xing2 che1 ": 6201,
  "ben3 xian4 ": 6202,
  "cai2 pan4 ": 6203,
  " 1985 nian2 ": 6204,
  " 2025 nian2 ": 6205,
  "ay ": 6206,
  "ying4 dui4 ": 6207,
  "ju3 zhen4 ": 6208,
  " yu2 199": 6209,
  " kang1 xi1 ": 6210,
  "jia1 li4 ya4 ": 6211,
  "mu4 ni2 ": 6212,
  "zong3 hui4 ": 6213,
  "tuo1 li2 ": 6214,
  " pan1 ": 6215,
  "59": 6216,
  "et ": 6217,
  "si1 di4 ": 6218,
  "shou3 fu3 ": 6219,
  "han4 zi4 ": 6220,
  " zui4 jia1 ": 6221,
  "tian2 jing4 ": 6222,
  "75 ": 6223,
  "zhong1 hai3 ": 6224,
  "cheng2 nuo4 ": 6225,
  "mei3 guo2 de ": 6226,
  "xi2 guan4 ": 6227,
  "zhen1 cha2 ": 6228,
  "ju1 zhu4 zai4 ": 6229,
  "da4 dui4 ": 6230,
  "zhu3 quan2 ": 6231,
  "zhong4 yi4 yuan4 ": 6232,
  "zi1 xun2 ": 6233,
  "chong1 man3 ": 6234,
  "ruan3 ti3 ": 6235,
  "can1 yi4 yuan4 ": 6236,
  "zhi3 hui1 guan1 ": 6237,
  " guang3 dong1 ": 6238,
  "you2 ke4 ": 6239,
  "ren2 men ": 6240,
  "zhi1 yi4 ": 6241,
  "qu1 shi4 ": 6242,
  "ying1 jun1 ": 6243,
  "bing1 tuan2 ": 6244,
  "aw": 6245,
  " hua4 xue2 ": 6246,
  " ta1 yi3 ": 6247,
  "xuan3 xiu4 ": 6248,
  " jiang1 su1 ": 6249,
  "bu4 de cun1 zhuang1 ": 6250,
  "72 ": 6251,
  "he2 he2 ": 6252,
  "zhong1 duan4 ": 6253,
  "ming2 shi4 ": 6254,
  "sheng1 cheng2 ": 6255,
  "yin4 shua1 ": 6256,
  "0   ": 6257,
  "yi1 zhi4 ": 6258,
  "shan1 de ": 6259,
  " yi3 bian4 ": 6260,
  " yi4 shi4 ": 6261,
  "69": 6262,
  "19 shi4 ji4 ": 6263,
  "liu2 qiu2 ": 6264,
  " 1990 nian2 ": 6265,
  "rang4 ta1 ": 6266,
  "   gu4 shi4 ": 6267,
  "da4 di4 ": 6268,
  "shou3 zhong1 ": 6269,
  " zhi3 zai4 ": 6270,
  "fu2 jian4 sheng3 ": 6271,
  "cong2 wei4 ": 6272,
  " cheng2 yuan2 ": 6273,
  " ge1 qu3 ": 6274,
  "wei4 he2 ": 6275,
  "de2 si1 ": 6276,
  "ta3 ni2 ": 6277,
  "bai3 ke1 ": 6278,
  "fa2 li4 ya4 ": 6279,
  "xuan3 ju3 zhong1 ": 6280,
  "34": 6281,
  "de ji4 ": 6282,
  "xiu1 dao4 ": 6283,
  "gan3 jue2 ": 6284,
  "mao2 dun4 ": 6285,
  "zhi1 chu1 ": 6286,
  "shou3 ge1 qu3 ": 6287,
  "na4 de ": 6288,
  " 1991 nian2 ": 6289,
  "la3 ": 6290,
  " yan4 ": 6291,
  "li4 pu3 ": 6292,
  "shui2 ": 6293,
  "bian1 wei4 ": 6294,
  " Q": 6295,
  " shou4 dao4 ": 6296,
  "   17": 6297,
  "zhong1 fa1 xian4 ": 6298,
  "te4 li3 ": 6299,
  "huo4 yun4 ": 6300,
  "shang1 hai4 ": 6301,
  "cai2 wu4 ": 6302,
  "xiao1 fang2 ": 6303,
  "gan3 lan3 ": 6304,
  "tao2 wan3 ": 6305,
  "fan2 zhi2 ": 6306,
  "shi4 ge4 ": 6307,
  " tui4 ": 6308,
  " duo2 ": 6309,
  "guo4 de ": 6310,
  "qi3 su4 ": 6311,
  " zhi3 chu1 ": 6312,
  "yu2 2016 nian2 ": 6313,
  "nv3 wang2 ": 6315,
  "huo3 ban4 ": 6316,
  "63 ": 6317,
  "   shi3 yong4 ": 6318,
  "yi1 lai4 ": 6319,
  "ji2 er3 ": 6320,
  "yan2 xu4 ": 6321,
  " cun1 ": 6322,
  "zhe4 yang4 de ": 6323,
  "ming2 ci2 ": 6324,
  "le gai1 ": 6325,
  "xu4 lie4 ": 6326,
  "hui4 hua4 ": 6327,
  "jiang1 ta1 ": 6328,
  "2000 ": 6329,
  "luo4 si1 ": 6330,
  "hu4 dong4 ": 6331,
  " li4 shu3 ": 6332,
  "lu4 yi4 si1 ": 6333,
  " ma3 lai2 xi1 ya4 ": 6334,
  "bu4 fu4 ": 6335,
  "bu4 shang4 shu1 ": 6336,
  "sheng1 cun2 ": 6337,
  "sai4 zhong1 ": 6338,
  "jiao1 cha1 ": 6339,
  " yi3 xia4 ": 6340,
  "hui2 yi4 ": 6341,
  "xing2 hao4 ": 6342,
  "qu1 bie2 ": 6343,
  " xian4 dai4 ": 6344,
  " er2 gai1 di4 de ": 6345,
  "zheng4 bian4 ": 6346,
  "kai1 gong1 ": 6347,
  "jian3 jie4 ": 6348,
  "fen1 bie2 wei4 ": 6349,
  "zhan4 lie4 ": 6350,
  "bao3 zheng4 ": 6351,
  " li4 ren4 ": 6352,
  "lan": 6353,
  "ju4 de ": 6354,
  " yue4 nan2 ": 6355,
  "dou1 bei4 ": 6356,
  " zhi4 yu2 ": 6357,
  "wei2 xiu1 ": 6358,
  "lan2 se4 ": 6359,
  "gai3 zhi4 wei4 ": 6360,
  "dong3 shi4 ": 6361,
  " X": 6362,
  " men2 ": 6363,
  "zhe1 ": 6364,
  "ren2 quan2 ": 6365,
  "chang3 he2 ": 6366,
  "luo4 ke4 ": 6367,
  "ga2 ": 6368,
  "zhong4 shi4 ": 6369,
  "th ": 6370,
  " tan4 ": 6371,
  "zu2 de ": 6372,
  "por": 6373,
  "cheng2 li4 hou4 ": 6374,
  "   St": 6375,
  " 1988 nian2 ": 6376,
  " guan1 fang1 ": 6377,
  "st   ": 6378,
  " bu3 ": 6379,
  "shu1 niu3 ": 6380,
  "jia4 gou4 ": 6381,
  " yi4 zhi2 ": 6382,
  "kao3 shi4 ": 6383,
  "de cheng2 ji4 ": 6384,
  " zhuan1 ji2 ": 6385,
  "00 nian2 ": 6386,
  "bu4 lie4 ": 6387,
  "de2 li4 ": 6388,
  "lu4 yin1 ": 6389,
  "wu3 shi4 ": 6390,
  "xie2 shang1 ": 6391,
  " da4 duo1 shu4 ": 6392,
  "zi4 xing2 che1 ": 6393,
  "   gai4 yao4 ": 6394,
  "he2 suan1 ": 6395,
  "wu1 si1 ": 6396,
  " é": 6397,
  "78": 6398,
  "pao1 ": 6399,
  "yi1 tian1 ": 6400,
  "zui4 wei4 ": 6401,
  "zuo3 yi4 ": 6402,
  "ation ": 6403,
  "jie1 ti4 ": 6404,
  "er4 ji2 ": 6405,
  "est": 6406,
  " ren2 min2 ": 6407,
  " nong2 ": 6408,
  "xian4 zhi1 xian4 ": 6409,
  "jun1 ren2 ": 6410,
  "si4 shi4 ": 6411,
  "xian4 xing4 ": 6412,
  "xing2 wei4 ": 6413,
  "dong1 ya4 ": 6414,
  "kang1 xi1 ": 6415,
  " shi4 yi1 bu4 ": 6416,
  " 1950 nian2 ": 6417,
  "shi4 ying4 ": 6418,
  "cheng2 shi4 de ": 6419,
  "jia1 he2 ": 6420,
  "duo1 yang4 ": 6421,
  "shou4 hai4 ": 6422,
  "da4 li3 ": 6423,
  "ji4 hou4 ": 6424,
  "de2 jun1 ": 6425,
  "she4 zai4 ": 6426,
  " yu2 le4 ": 6427,
  " kong4 ": 6428,
  "hen4 ": 6429,
  " xuan3 ": 6430,
  "   jin3 guan3 ": 6431,
  "zheng4 quan4 ": 6432,
  "tong1 wang3 ": 6433,
  "186": 6434,
  " zhi4 jin1 ": 6435,
  "shan3 xi1 sheng3 ": 6436,
  "re4 dai4 feng1 bao4 ": 6437,
  "ong": 6438,
  "de qing2 kuang4 ": 6439,
  "ren2 dui4 ": 6440,
  "hou4 fang1 ": 6441,
  "hen3 shao3 ": 6442,
  " quan2 qiu2 ": 6443,
  "mou2 sha1 ": 6444,
  "fou3 ren4 ": 6445,
  "56": 6446,
  "   zhu4 ": 6447,
  "chong2 fan3 ": 6448,
  " kan4 ": 6449,
  " sheng1 zhang3 ": 6450,
  "gong1 gao4 ": 6451,
  "ke4 li4 ": 6452,
  "fu2 li3 ": 6453,
  "zu3 fu4 ": 6454,
  "gai3 cheng1 ": 6455,
  "geng4 duo1 de ": 6456,
  " jiang1 qi2 ": 6457,
  "si ": 6458,
  "zhu3 dao3 ": 6459,
  "ke1 hui4 shi4 ": 6460,
  "qing2 gan3 ": 6461,
  " di4 si4 ": 6462,
  "zhuang4 ji1 ": 6463,
  "33": 6464,
  "suo3 xu1 ": 6465,
  "wu3 dao3 ": 6466,
  "de di4 san1 ": 6467,
  "chong1 ji1 ": 6468,
  "jing1 you2 ": 6469,
  "quan2 shi4 ": 6470,
  "fu2 lei2 ": 6471,
  "qing1 hua2 ": 6472,
  "sai1 na4 ": 6473,
  " quan2 zhang3 ": 6474,
  " zhong1 gong4 zhong1 yang1 ": 6475,
  " ta1 ren4 wei2 ": 6476,
  "bian4 huan4 ": 6477,
  "luo4 fa2 ke4 ": 6478,
  " 9 ": 6479,
  " xue2 sheng1 ": 6480,
  "bu4 li4 ": 6481,
  "shi2 zai4 ": 6482,
  "dui4 zhen4 ": 6483,
  "12 yue4 31 ri4 ": 6484,
  "reng2 zai4 ": 6485,
  "zhu3 chi2 ren2 ": 6486,
  "nan4 min2 ": 6487,
  "chai2 you2 ": 6488,
  "xing2 zou3 ": 6489,
  "ming2 jin4 shi4 ": 6490,
  "te4 lan2 ": 6491,
  "bu4 jia1 ": 6492,
  "gong1 da3 ": 6493,
  "fa1 jue2 ": 6494,
  "ceng2 de ": 6495,
  " niu2 ": 6496,
  "tion ": 6497,
  " shi4 xiang1 gang3 ": 6498,
  "ying1 bang4 ": 6499,
  "zhen4 ya1 ": 6500,
  "xiang3 yao4 ": 6501,
  "zhen1 zheng4 ": 6502,
  "   nan2 ": 6503,
  "di4 chan3 ": 6504,
  "jing4 ji4 ": 6505,
  "pp": 6506,
  "ji3 nian2 ": 6507,
  "   tian1 ": 6508,
  "you3 xu3 duo1 ": 6509,
  " tun2 ": 6510,
  "tong2 wei4 ": 6511,
  "zhuang4 bing4 du2 ": 6512,
  "si1 li3 ": 6513,
  "xia4 yi1 ": 6514,
  "jing4 tou2 ": 6515,
  "si3 xing2 ": 6516,
  "88": 6517,
  "lian2 de ": 6518,
  "jiao4 zong1 ": 6519,
  "gao1 xiao4 ": 6520,
  "kua1 ": 6521,
  "ding4 qi1 ": 6522,
  "tai2 zhong1 ": 6523,
  "fang2 jian1 ": 6524,
  " 1989 nian2 ": 6525,
  " gai3 wei2 ": 6526,
  "jie2 du4 shi3 ": 6527,
  "O   ": 6528,
  " wu2 fa3 ": 6529,
  "wang4 yuan3 jing4 ": 6530,
  "   ling4 wai4 ": 6531,
  "da4 jie1 ": 6532,
  " duan4 ": 6533,
  "wei2 ji1 ": 6534,
  "dan1 yuan2 ": 6535,
  "bai3 wan4 ": 6536,
  "   bei4 ": 6537,
  "shi2 ke4 ": 6538,
  "jiang1 hu4 ": 6539,
  "ba1 er3 ": 6540,
  "xing1 xi4 ": 6541,
  "mo2 te4 ": 6542,
  "jiang4 yu3 ": 6543,
  "lu3 si1 ": 6544,
  "sheng1 ren4 ": 6545,
  "yu4 dao4 ": 6546,
  "zheng1 fu2 ": 6547,
  "su1 wei2 ai1 ": 6548,
  "de sheng4 ": 6549,
  "jun1 you3 ": 6550,
  "duo1 ren2 ": 6551,
  "dong1 xian4 ": 6552,
  "wu2 xian4 dian4 shi4 ": 6553,
  "fu2 luo2 li3 da2 ": 6554,
  " xuan2 ": 6555,
  "de shui3 ": 6556,
  "he2 shang4 ": 6557,
  "he2 ta1 de ": 6558,
  "zhu3 dong4 ": 6559,
  "zhu3 liu2 ": 6560,
  "xu4 shu4 ": 6561,
  "6 mi3 ": 6562,
  " li4 yong4 ": 6563,
  "sui2 zhe ": 6564,
  "di1 yu2 ": 6565,
  "he2 nan2 sheng3 ": 6566,
  "zhi1 fu3 ": 6567,
  "hu4 lian2 wang3 ": 6568,
  " gan4 ": 6569,
  "ma3 wei4 ": 6570,
  " bing4 bei4 ": 6571,
  "ran2 liao4 ": 6572,
  "on   ": 6573,
  "lang2 zhong1 ": 6574,
  "dui4 yuan2 ": 6575,
  "ju4 da4 de ": 6576,
  "ti2 jiao1 ": 6577,
  "dang4 an4 ": 6578,
  "hu2 po1 ": 6579,
  "xie3 de ": 6580,
  "pan4 jue2 ": 6581,
  " kou3 ": 6583,
  "   bei3 ": 6584,
  "li3 cheng2 ": 6585,
  "jiao1 jie4 ": 6586,
  "qing2 xing2 ": 6587,
  "luo2 ma3 di4 guo2 ": 6588,
  "sai1 er3 wei2 ya4 ": 6589,
  " guang1 xu4 ": 6590,
  "79": 6591,
  " zai4 199": 6592,
  "fu2 er3 ": 6593,
  "ma3 ke4 si1 ": 6594,
  "ying4 ji2 ": 6595,
  "xian4 de yi2 ge4 fei1 jian4 zhi4 di4 qu1 ": 6596,
  "dui4 zai4 ": 6597,
  "wu4 pin3 ": 6598,
  "00 ming2 ": 6599,
  "diao1 su4 ": 6600,
  "wai4 jie4 ": 6601,
  "fei1 er3 de2 ": 6602,
  "shi4 yi1 ming2 ": 6603,
  "zai4 bei3 jing1 ": 6604,
  "7 ge4 ": 6605,
  "he1 ": 6606,
  "wang2 wei4 ": 6607,
  "ard   ": 6608,
  "gang1 qin2 ": 6609,
  "ob": 6610,
  "yp": 6611,
  "li3 xiang3 ": 6612,
  "chu1 sai4 ": 6613,
  "xiang1 ying4 ": 6614,
  "gui4 zhou1 ": 6615,
  " 1983 nian2 ": 6616,
  "zhi4 xu4 ": 6617,
  " section": 6618,
  "liu2 liang4 ": 6619,
  "sheng3 dao4 ": 6620,
  "jiu4 zhi3 ": 6621,
  "gai3 jian4 ": 6622,
  " yuan2 ben3 ": 6623,
  "gan1 su4 ": 6624,
  "ON": 6625,
  "shi2 jian4 ": 6626,
  "guo2 yu3 ": 6627,
  "cheng2 du1 ": 6628,
  " jing3 fang1 ": 6629,
  "shi2 wei4 ": 6630,
  "dan1 xin1 ": 6631,
  "bao3 an1 ": 6632,
  "nv3 zhu3 jue2 ": 6633,
  "gan4 xian4 ": 6634,
  " han4 zu2 ": 6635,
  " zhe2 ": 6636,
  "yu3 yin1 ": 6637,
  "zhuan1 yong4 ": 6638,
  "6   ": 6639,
  " pai2 ": 6640,
  "de wei4 zhi4 ": 6641,
  "fu4 han4 ": 6642,
  "gao1 jia4 ": 6643,
  "zhu3 ti3 ": 6644,
  "sheng3 jie1 rang3 ": 6645,
  "shu1 zhong1 ": 6646,
  "mei4 mei4 ": 6647,
  "li4 fa3 hui4 ": 6648,
  " bin1 ": 6649,
  "yu2 ci3 ": 6650,
  "li3 xue2 ": 6651,
  "bei4 gao4 ": 6652,
  "W ": 6653,
  "   yin1 ": 6654,
  "xing2 cheng2 de ": 6655,
  "fu2 she4 ": 6656,
  "tou2 xian2 ": 6657,
  "jiang3 jin1 ": 6658,
  "chan3 sheng1 le ": 6659,
  "yu2 2014 nian2 ": 6660,
  "55 ": 6661,
  "ge4 ti3 ": 6662,
  "jing3 bao4 ": 6663,
  " wan2 ": 6664,
  "de jue2 se4 ": 6665,
  "zhan4 ji4 ": 6666,
  "san1 zhong3 ": 6667,
  " you2 ci3 ": 6668,
  "lei4 xing2 de ": 6669,
  "rong2 liang4 ": 6670,
  " ji1 hu1 ": 6671,
  "   gen1 ju4 2020 nian2 mei3 guo2 ren2 kou3 pu3 cha2 de shu4 ju4 ": 6672,
  "chong3 ": 6673,
  "yi2 ban4 ": 6674,
  "cheng1 hao4 ": 6675,
  "he4 se4 ": 6676,
  "C   ": 6677,
  "shi4 cong2 ": 6679,
  "di4 yu4 ": 6680,
  " cu4 ": 6681,
  "jia1 ru4 le ": 6682,
  "gun4 ": 6683,
  "yuan2 li3 ": 6684,
  "lian2 zai3 ": 6685,
  "fu4 ze2 ren2 ": 6686,
  "00 duo1 ": 6687,
  " ao4 men2 ": 6688,
  "dong1 nan2 ya4 ": 6689,
  "shi4 dui4 ": 6690,
  "jia1 yi3 ": 6691,
  "mo4 qi1 ": 6692,
  "hang2 ban1 ": 6693,
  "lian4 xi2 ": 6694,
  "qi2 hou4 ": 6695,
  "qing1 shao4 nian2 ": 6696,
  " lu2 wa3 er3 sheng3 ": 6697,
  "   you2 xi4 ": 6698,
  "wei2 duo1 li4 ya4 ": 6699,
  "hui2 he2 ": 6700,
  "deng1 ji4 ": 6701,
  "n   ": 6702,
  "yi4 xi2 ": 6703,
  "qiang2 zhi4 ": 6704,
  "pian4 de ": 6705,
  "zhi1 jia1 ge1 ": 6706,
  " zeng1 ": 6707,
  "wei4   ": 6708,
  "er2 lai2 ": 6709,
  "shi1 gong1 ": 6710,
  "ti2 cai2 ": 6711,
  "jia3 she4 ": 6712,
  "   2004 nian2 ": 6713,
  " 1984 nian2 ": 6714,
  "che4 di3 ": 6715,
  "cheng2 shu2 ": 6716,
  "fu2 hua4 ": 6717,
  "dong1 ni2 ": 6718,
  "ju2 ju2 zhang3 ": 6719,
  " yi1 zhong3 ": 6720,
  " jia1 jing4 ": 6721,
  "xiang2 xi4 ": 6722,
  "pai2 ming2 di4 ": 6723,
  "zhi4 shi4 ": 6724,
  "xian4 you3 ": 6725,
  "ben3 zhan4 ": 6726,
  "zhun3 que4 ": 6727,
  " tong2 shi2 ye3 ": 6728,
  " yin1 wei4 ta1 ": 6729,
  " da4 xue2 ": 6730,
  "fang1 bian4 ": 6731,
  "he": 6732,
  " cun2 ": 6733,
  "dong1 ce4 ": 6734,
  "pin3 zhong3 ": 6735,
  "pian4 duan4 ": 6736,
  "yu2 2015 nian2 ": 6737,
  "can1 mou2 zhang3 ": 6738,
  "da4 gong1 ": 6739,
  "jiao4 tu2 ": 6740,
  "ge1 er3 ": 6741,
  " dang1 shi2 de ": 6742,
  "nong2 chang3 ": 6743,
  "yu2 2017 nian2 ": 6744,
  "ai4 de2 hua2 ": 6745,
  "zhan4 ting2 ": 6746,
  "ge2 shi4 ": 6747,
  "chu1 xian4 de ": 6748,
  "yu2 2012 nian2 ": 6749,
  "zeng1 jia1 le ": 6750,
  "nan2 ji2 zhou1 de ": 6751,
  "long2 jiang1 sheng3 ": 6752,
  "   chen2 ": 6753,
  "shi4 jia1 ": 6754,
  "dong4 che1 ": 6755,
  "our": 6756,
  "hun4 luan4 ": 6757,
  "shu3 de zhi2 wu4 ": 6758,
  "   1 ": 6759,
  "yu3 ta1 ": 6760,
  "yan2 an4 ": 6761,
  "liang3 tiao2 ": 6762,
  "jian4 zhu4 shi1 ": 6763,
  " ling4 yi4 fang1 mian4 ": 6764,
  "zhan4 zheng1 qi1 jian1 ": 6765,
  "wei2 yi1 de ": 6766,
  " hant ": 6767,
  "ge2 lei1 ": 6768,
  "ti3 yan4 ": 6769,
  "tong1 yong4 ": 6770,
  "shang1 chang3 ": 6771,
  " 185": 6772,
  "   ping2 jia4 ": 6773,
  "zai4 zhong1 ": 6774,
  "ji2 si1 ": 6775,
  "dian4 zi": 6776,
  "wai4 guan1 ": 6777,
  "yu2 2018 nian2 ": 6778,
  "mi2 ni3 ": 6779,
  "mao3 ": 6780,
  "nong4 ": 6781,
  " bie2 ": 6782,
  "zhan4 ju4 ": 6783,
  "ke4 fu2 ": 6784,
  " he2 lan2 ": 6785,
  "chou2 bei4 ": 6786,
  "xin1 guan1 fei4 yan2 ": 6787,
  "peng4 ": 6788,
  "   hong2 ": 6789,
  "xi1 ce4 ": 6790,
  "sheng1 ge2 wei4 ": 6791,
  "jing1 du1 ": 6792,
  "chang2 sha1 ": 6793,
  "huan2 xing2 ": 6794,
  "le4 si1 tan3 ": 6795,
  "ming2 ju3 ren2 ": 6796,
  "zhu3 guan3 ": 6797,
  " se4 ": 6798,
  "lun4 tan2 ": 6799,
  "zhan4 zheng1 zhong1 ": 6800,
  "de quan2 ": 6801,
  "gong1 dian4 ": 6802,
  "de cheng2 zhen4 ": 6803,
  "lu4 ying3 dai4 ": 6804,
  "   san1 ": 6805,
  "er2 zi": 6806,
  "mei3 ri4 ": 6807,
  "shui3 liang4 ": 6808,
  "omp": 6809,
  "kuang1 jia4 ": 6810,
  "Pro": 6811,
  "xian4 ji2 ": 6812,
  "mei3 guo2 ren2 ": 6813,
  "po4 lun2 ": 6814,
  " pan4 ": 6815,
  "ming2 lu4 ": 6816,
  "jie1 guan3 ": 6817,
  "lei4 si4 de ": 6818,
  "25 nian2 ": 6819,
  "3 hao4 ": 6820,
  "   chu2 le ": 6821,
  "jia1 xiang1 ": 6822,
  "zhan4 zhong1 ": 6823,
  "wu3 di4 ": 6824,
  "chong2 fu4 ": 6825,
  "   gu3 ": 6826,
  "shi4 yin1 wei4 ": 6827,
  "si4 da4 ": 6828,
  "mo4 de2 ": 6829,
  "yin3 zhong3 ": 6830,
  " gong1 cheng2 ": 6831,
  "na2 po4 lun2 ": 6832,
  " xi3 ": 6833,
  "li4 wei4 ": 6834,
  "zheng4 shi3 ": 6835,
  " zai4 ci4 ": 6836,
  " pu2 tao2 ya2 ": 6837,
  "77": 6838,
  "shi2 ti3 ": 6839,
  "you2 qi2 ": 6840,
  "dian4 chi2 ": 6841,
  "duo1 er3 ": 6842,
  "hang2 zhou1 ": 6843,
  "8 mi3 ": 6844,
  "dan4 yao4 ": 6845,
  "du1 du1 ": 6846,
  " xian4 wei4 ": 6847,
  "yu4 bei4 ": 6848,
  "nei4 meng2 gu3 ": 6849,
  "luo2 bo2 te4 ": 6850,
  "ti2 chu1 le ": 6851,
  " w": 6852,
  "de cheng2 yuan2 ": 6853,
  "xia4 le ": 6854,
  "kai1 ban4 ": 6855,
  "guo2 jia1 gong1 yuan2 ": 6856,
  " chu1 ren4 ": 6857,
  "if": 6858,
  "wu4 ti3 ": 6859,
  "mo2 fa3 ": 6860,
  "da3 po4 ": 6861,
  " ti2 chu1 ": 6862,
  "cai1 ": 6863,
  "jia1 er3 ": 6864,
  "qu1 he2 ": 6865,
  "bei4 fa1 xian4 ": 6866,
  "fu4 shi3 ": 6867,
  "chi3 cun4 ": 6868,
  "yu2 2021 nian2 ": 6869,
  "sheng3 de ": 6870,
  "yan3 sheng1 ": 6871,
  "zong3 zhan4 ": 6872,
  "ceng2 shi4 ": 6873,
  "zhan4 dou4 ji1 ": 6874,
  "hai3 ba2 gao1 du4 wei4 ": 6875,
  "ast": 6876,
  " shao4 ": 6877,
  " fan3 dui4 ": 6878,
  "qian2 shen1 ": 6879,
  "ba1 he4 ": 6880,
  " 1986 nian2 ": 6881,
  "chui2 zhi2 ": 6882,
  "dui4 ta1 ": 6883,
  " gao4 ": 6884,
  "shou4 sun3 ": 6885,
  "shu1 de ": 6886,
  "ge1 ge1 ": 6887,
  "li4 fang1 mi3 ": 6888,
  " shi4 e2 luo2 si1 ": 6889,
  "ma3 li4 ya4 ": 6890,
  "yao2 gun3 ": 6891,
  "ju1 min2 dian3 ": 6892,
  "dang1 xuan3 wei4 ": 6893,
  "shi2 li4 ": 6894,
  "wei3 fu4 shu1 ji4 ": 6895,
  "shi3 yong4 zhe3 ": 6896,
  "fa1 sheng1 le ": 6897,
  "65 ": 6898,
  " xi2 ": 6899,
  "zai4 da4 ": 6900,
  " zhuo2 ": 6901,
  "zhong4 de ": 6902,
  "bian1 zu3 ": 6903,
  " liu2 yu4 ": 6904,
  "ji2 qi2 ta1 ": 6905,
  "bing4 shi4 ": 6906,
  "yun4 he2 ": 6907,
  "tiao2 kuan3 ": 6908,
  "LE": 6909,
  "zai4 xi1 ": 6910,
  "si1 lan2 ": 6911,
  "hua4 gui1 ": 6912,
  "ye3 na4 ": 6913,
  "tan4 ce4 ": 6914,
  "ling3 dao3 de ": 6915,
  "shuo4 shi4 xue2 wei4 ": 6916,
  "si1 tuo1 ": 6917,
  "shen1 shang4 ": 6918,
  "shen1 wang2 ": 6919,
  "gai3 zhuang1 ": 6920,
  "zhuan3 wei2 ": 6921,
  "song4 dao4 ": 6922,
  "hong1 zha4 ji1 ": 6923,
  "xiang1 ji4 ": 6924,
  "shun4 xu4 ": 6925,
  "ace": 6926,
  "qi2 zhong1 yi2 ge4 ": 6927,
  "chuang4 zuo4 de ": 6928,
  "ao4 si1 ka3 ": 6929,
  "ceng2 shui3 yu4 ": 6930,
  "zhan3 xian4 ": 6931,
  "zhuan3 hui4 ": 6932,
  "jiao4 yu4 bu4 ": 6933,
  "tan4 suo3 ": 6934,
  " 000 ren2 ": 6935,
  "yu2 2022 nian2 ": 6936,
  " fou3 ": 6937,
  "zai4 ying1 guo2 ": 6938,
  "ze2 you3 ": 6939,
  "liang4 xiang4 ": 6940,
  "bian1 hao4 wei4 ": 6941,
  "   3 yue4 ": 6942,
  "   jing1 ji4 ": 6943,
  "ji1 si1 tan3 ": 6944,
  " bei1 ": 6945,
  "qiang2 de ": 6946,
  " ci3 ci4 ": 6947,
  "zhuan4 de xiao3 xing2 xing1 ": 6948,
  "eb": 6949,
  "mer": 6950,
  "li3 you2 ": 6951,
  " su2 ": 6952,
  "qu3 mu4 ": 6953,
  "pai2 lie4 ": 6954,
  "suan4 fa3 ": 6955,
  "lai2 zi4 yu2 ": 6956,
  " B ": 6957,
  "ji4 si4 ": 6958,
  "qing1 dao3 ": 6959,
  "ci3 zhi1 wai4 ": 6960,
  "xiao4 lv4 ": 6961,
  "nv3 yan3 yuan2 ": 6962,
  " he2 nan2 ": 6963,
  "xie2 dai4 ": 6964,
  "huo3 che1 ": 6965,
  "huo3 zai1 ": 6966,
  " S ": 6967,
  "zu2 qiu2 lian2 sai4 ": 6968,
  "you2 ren2 gong1 ": 6969,
  "qian1 yin3 ": 6970,
  "gai3 jin4 ": 6971,
  "reng2 you3 ": 6972,
  "yu2 2013 nian2 ": 6973,
  "na3 ": 6974,
  "e2 wei4 ": 6975,
  "ke3 jian4 ": 6976,
  " wan4 li4 ": 6977,
  "ch ": 6978,
  "zai4 ta1 ": 6979,
  "shi2 zhen1 ": 6980,
  "shan1 xi1 sheng3 ": 6981,
  "long2 cao3 ": 6982,
  "jiu3 de ": 6983,
  "mao2 ze2 dong1 ": 6984,
  " 1958 nian2 ": 6985,
  "vi": 6986,
  "bu4 qiang1 ": 6987,
  "yu3 zhi1 ": 6988,
  "ke4 xi1 ": 6989,
  "dang1 ri4 ": 6990,
  "li2 zi ": 6991,
  "jian4 shi4 ": 6992,
  "ge2 de ": 6993,
  "ock": 6994,
  "la ": 6995,
  "jia1 yi4 ": 6996,
  "bing4 wu2 ": 6997,
  "kao3 cha2 ": 6998,
  "   2 ": 6999,
  "zhi4 li4 ": 7000,
  "zhan4 di4 ": 7001,
  "ding1 bao3 ": 7002,
  "mie4 jue2 ": 7003,
  "yu2 de ": 7004,
  "jia1 li3 ": 7005,
  "quan2 ti3 ": 7006,
  "sai4 che1 ": 7007,
  "biao1 ti2 ": 7008,
  "lei2 da2 ": 7009,
  " jing1 chang2 ": 7010,
  "fu4 he2 ": 7011,
  "nei4 you3 ": 7012,
  "xuan3 min2 ": 7013,
  "ping2 jun1 hai3 ba2 gao1 du4 wei4 ": 7014,
  "zhi4 hui4 ": 7015,
  "de2 yi4 zhi4 ": 7016,
  "jiang1 nan2 ": 7017,
  "na4 si1 ": 7018,
  "zi1 sheng3 ": 7019,
  " In": 7020,
  "120": 7021,
  "   5 yue4 ": 7022,
  "shan1 di4 ": 7023,
  "fei1 dan4 ": 7024,
  " zhan4 dou4 ": 7025,
  "lao2 gong1 ": 7026,
  "de2 luo2 ": 7027,
  "ke4 hu4 ": 7028,
  "shu4 shi2 ": 7029,
  "mei3 tian1 ": 7030,
  "duo1 ming2 ": 7031,
  "ge2 li3 ": 7032,
  "zhong1 xin1 de ": 7033,
  " er2 gai1 di4 de ping2 jun1 hai3 ba2 gao1 du4 wei4 ": 7034,
  "R   ": 7035,
  "   di4 er4 ": 7036,
  "yu2 hai3 ba2 ": 7037,
  "tong2 xue2 ": 7038,
  "ying1 cun4 ": 7039,
  "tai4 hou4 ": 7040,
  "yan2 jiu1 sheng1 ": 7041,
  " 1946 nian2 ": 7042,
  "yin3 zhong3 zai1 pei2 ": 7043,
  "yi4 miao2 ": 7044,
  " duan3 ": 7045,
  "zhun3 jue2 sai4 ": 7046,
  "2010 nian2 mei3 guo2 ren2 kou3 pu3 cha2 de shu4 ju4 ": 7047,
  "de jin4 ": 7048,
  " dong3 ": 7049,
  "xi1 zhou1 ": 7050,
  "zhi3 shu4 ": 7051,
  "su4 song4 ": 7052,
  "tu2 an4 ": 7053,
  "yu2 2023 nian2 ": 7054,
  "98": 7055,
  "di4 4 ": 7056,
  "yuan2 zi ": 7057,
  "chang2 de ": 7058,
  "ban4 nian2 ": 7059,
  "74 ": 7060,
  "   w": 7061,
  "zai4 tai2 wan1 ": 7062,
  "zhi2 bang4 ": 7063,
  "bian4 geng1 ": 7064,
  "ka3 luo2 lai2 na4 ": 7065,
  "IP": 7066,
  "shi4 qi2 ": 7067,
  "li3 nian4 ": 7068,
  "jiao4 gao1 ": 7069,
  "tai2 bi4 ": 7070,
  "e   S": 7071,
  "nuo4 man4 ": 7072,
  " lie4 che1 ": 7073,
  "de di4 er4 ": 7074,
  "bu4 zhi4 ": 7075,
  "shang4 le ": 7076,
  "wu2 er3 ": 7077,
  " ji4 xu4 ": 7078,
  "tou ": 7079,
  "you2 ren2 gong1 yin3 zhong3 zai1 pei2 ": 7080,
  "ming2 yu4 ": 7081,
  "dong4 ji1 ": 7082,
  "ros": 7083,
  " guan3 ": 7084,
  "de she4 ji4 ": 7085,
  "li4 xue2 ": 7086,
  "qian2 zai4 ": 7087,
  "yin3 jin4 ": 7088,
  "han2 gai4 ": 7089,
  "hai4 e2 ": 7090,
  " 1982 nian2 ": 7091,
  " 1987 nian2 ": 7092,
  " nei4 rong2 ": 7093,
  "lin": 7094,
  "zheng4 wu4 ": 7095,
  " shi4 yan3 ": 7096,
  "mian4 shang4 ": 7097,
  "gao1 yuan2 ": 7098,
  "wai4 wei2 ": 7099,
  "se4 cai3 ": 7100,
  "shi2 dai4 de ": 7101,
  "ain": 7102,
  "zhong1 yi3 ": 7103,
  "zhi4 neng2 ": 7104,
  "yi4 yu2 ": 7105,
  "zhan4 wei4 yu2 ": 7106,
  "san1 ci4 ": 7107,
  "dian4 shi4 dong4 hua4 ": 7108,
  " wan2 cheng2 ": 7109,
  "yi4 zai4 ": 7110,
  " zui4 da4 ": 7111,
  "jing1 ji4 xue2 ": 7112,
  "xia4 xia2 yi3 xia4 di4 qu1 ": 7113,
  "   shi2 ": 7114,
  "yi1 xue2 yuan4 ": 7115,
  "chu1 nian2 ": 7116,
  "ge2 lu3 ": 7117,
  "ha1 la1 ": 7118,
  "geng1 huan4 ": 7119,
  " lun2 ": 7120,
  "jian4 you3 ": 7121,
  "zhang3 yue1 ": 7122,
  "hua2 xue3 ": 7123,
  "pin3 zhi4 ": 7124,
  "zhu1 long2 cao3 ": 7125,
  " ken3 ": 7126,
  "ji4 lu4 pian4 ": 7127,
  "hang2 kong1 gong1 si1 ": 7128,
  "re4 dai4 qi4 xuan2 ": 7129,
  " qiu2 dui4 ": 7130,
  "de fang1 fa3 ": 7131,
  "qi3 le ": 7132,
  "san1 ren2 ": 7133,
  "gong1 gong4 jiao1 tong1 ": 7134,
  "   jie2 zhi4 202": 7135,
  " qu4 ": 7136,
  "ji2 lian2 sai4 ": 7137,
  "yu3 yi3 ": 7138,
  "el ": 7139,
  " chong2 xin1 ": 7140,
  "jia1 li4 fu2 ni2 ya4 zhou1 ": 7141,
  "73 ": 7142,
  "he2 da4 ": 7143,
  "2019": 7144,
  "zui4 duo1 de ": 7145,
  "guo4 yu2 ": 7146,
  "su1 li3 ": 7147,
  " zi4 ji3 ": 7148,
  " yu4 ji4 ": 7149,
  " dao3 yan3 ": 7150,
  "   quan2 ": 7151,
  "fu2 lang3 ": 7152,
  "zu3 xian1 ": 7153,
  "zhong3 lei4 ": 7154,
  "wang3 shang4 ": 7155,
  "luo4 fu1 ": 7156,
  "si1 zai4 ": 7157,
  "ben3 ke1 ": 7158,
  "huo4 qu3 ": 7159,
  "huo4 jiang3 ": 7160,
  "chang2 wei3 hui4 ": 7161,
  "tui1 fan1 ": 7162,
  "huo3 che1 zhan4 ": 7163,
  "huo3 pao4 ": 7164,
  "66": 7165,
  "de feng1 ": 7166,
  "yi1 de ": 7167,
  "yuan2 xian1 ": 7168,
  "ri4 yi4 ": 7169,
  "bei4 ren4 ming4 wei4 ": 7170,
  "yi2 ju1 ": 7171,
  "shen2 mi4 ": 7172,
  " cong2 ci3 ": 7173,
  "oo": 7174,
  "yi1 shi1 ": 7175,
  " qian2 wang3 ": 7176,
  "ye2 fu1 ": 7177,
  " ー": 7178,
  " ju1 ": 7179,
  "hou4 wei4 ": 7180,
  "zhan4 wei4 ": 7181,
  " zhong1 guo2 da4 lu4 ": 7182,
  " zhong1 guo2 gong4 chan3 dang3 ": 7183,
  "zhen3 duan4 ": 7184,
  "ru4 jing4 ": 7186,
  "xiu1 dao4 yuan4 ": 7187,
  "ai4 guo2 ": 7188,
  "shi2 bie2 ": 7189,
  "yuan2 shuai4 ": 7190,
  "tiao1 ": 7191,
  "xiu1 ding4 ": 7192,
  "yin4 xiang4 ": 7193,
  " 184": 7194,
  "yu2 2010 nian2 ": 7195,
  "dai4 ti4 ": 7196,
  "tui1 chu1 de ": 7197,
  " 1978 nian2 ": 7198,
  " wei4 yu2 gai1 sheng3 ": 7199,
  "82 ": 7200,
  " she4 li4 ": 7201,
  "   ming2 ": 7202,
  "xi1 ni2 ": 7203,
  "zhi2 li4 ": 7204,
  "de2 ke4 ": 7205,
  "zhan4 fang2 ": 7206,
  "niang4 ": 7207,
  "ju2 de ": 7208,
  "yun4 dong4 de ": 7209,
  " zhi3 shi4 ": 7210,
  " a1 la1 ": 7211,
  "21 nian2 ": 7212,
  " zu3 zhi1 ": 7213,
  "   dao4 ": 7214,
  "   10 yue4 ": 7215,
  "dui4 hua4 ": 7216,
  "di2 shi4 ni2 ": 7217,
  "dian4 shi4 jie2 mu4 ": 7218,
  "le zhong4 ": 7219,
  "xiang1 cun1 ": 7220,
  "han4 yu3 ": 7221,
  "ying2 de2 le ": 7222,
  "de mei3 guo2 ": 7223,
  "yue4 du2 ": 7224,
  "shi3 yong4 le ": 7225,
  "   2003 nian2 ": 7226,
  "ti3 yu4 guan3 ": 7227,
  "cheng2 guo3 ": 7228,
  "jian4 zai4 ": 7229,
  "guan1 guang1 ": 7230,
  "luo2 ji2 ": 7231,
  "ba1 fa2 li4 ya4 ": 7232,
  "hang2 xian4 ": 7233,
  "7 mi3 ": 7234,
  "yue4 sheng1 ": 7235,
  "bian1 cheng2 ": 7236,
  "de di4 wei4 ": 7237,
  " ling4 yi1 ": 7238,
  " wu2 lun4 ": 7239,
  "de xing2 shi4 ": 7240,
  "qi2 zhi4 ": 7241,
  "nei4 zheng4 ": 7242,
  "tian1 jia1 ": 7243,
  "dang1 dai4 ": 7244,
  "tur": 7245,
  "mu4 ni2 hei1 ": 7246,
  "hen2 ": 7247,
  "ren2 yu3 ": 7248,
  "mian4 xiang4 ": 7249,
  "zhang3 wo4 ": 7250,
  " ao4 da4 li4 ya4 ": 7251,
  " hu2 nan2 ": 7252,
  "fang1 cheng2 ": 7253,
  " shi4 xi1 ban1 ya2 ": 7254,
  "qian2 long2 ": 7255,
  " ta1 jiang1 ": 7256,
  "xing4 shi4 ": 7257,
  "san1 da4 ": 7258,
  " 17 ": 7259,
  "mi3 lan2 ": 7260,
  "pi1 pan4 ": 7261,
  " mou3 ": 7262,
  " shou1 ": 7263,
  " gui3 ": 7264,
  " qu3 de2 ": 7265,
  "zhi4 yuan4 ": 7266,
  "fu4 jia1 ": 7267,
  "zhi2 sheng1 ji1 ": 7268,
  "lang3 de2 ": 7269,
  "lei4 si4 yu2 ": 7270,
  "yue4 chu1 ": 7271,
  "qu1 zhu2 jian4 ": 7272,
  "shou3 du4 ": 7273,
  "ci3 ci4 ": 7274,
  "man4 di4 guo2 ": 7275,
  "di1 qi4 ya1 ": 7276,
  " 1948 nian2 ": 7277,
  " n ": 7278,
  "yan2 shi2 ": 7279,
  "dao3 shang4 ": 7280,
  "wei3 yuan2 hui4 zhu3 xi2 ": 7281,
  "luo3 ": 7282,
  "er2 bu4 ": 7283,
  " sui4 de ": 7284,
  "de ji1 hui4 ": 7285,
  "shu1 xie3 ": 7286,
  "wang2 de ": 7287,
  "gang3 yuan2 ": 7288,
  "shang1 wu4 ": 7289,
  " bu4 neng2 ": 7290,
  "liang2 hao3 ": 7291,
  "zheng3 he2 ": 7292,
  "you1 xian1 ": 7293,
  "yu2 2011 nian2 ": 7294,
  " fan1 ": 7296,
  "zhong1 dui4 ": 7297,
  "xian4 wei4 ": 7298,
  " shi4 tai2 wan1 ": 7299,
  " 16 ": 7300,
  "zhe3 zai4 ": 7301,
  "shen1 ru4 ": 7302,
  "chong2 zu3 ": 7303,
  " yu3 ci3 tong2 shi2 ": 7304,
  "fa1 sheng1 de ": 7305,
  " bi4 ye4 yu2 ": 7306,
  "→": 7307,
  "49 ": 7308,
  "81 ": 7309,
  "   la1 ": 7310,
  "deng3 zhi2 ": 7311,
  "zi gong1 si1 ": 7312,
  "ban4 fa3 ": 7313,
  " 1980 nian2 ": 7314,
  "an4 cha2 ": 7315,
  " shi4 yi4 da4 li4 ": 7316,
  "bei3 hai3 dao4 ": 7317,
  "xiao4 she4 ": 7318,
  "he4 er3 ": 7319,
  "an1 hui1 sheng3 ": 7320,
  "yuan2 qu1 ": 7321,
  "sheng1 xiao4 ": 7322,
  "mu4 fu3 ": 7323,
  " sheng1 zhang3 yu2 hai3 ba2 ": 7324,
  "ca1 ": 7325,
  "   liu2 ": 7326,
  "yu2 2020 nian2 ": 7327,
  "xiang1 lian2 ": 7328,
  "bo2 ge2 ": 7329,
  "e   C": 7330,
  "ke4 si1 tan3 ": 7331,
  "yu2 2009 nian2 ": 7332,
  "den": 7333,
  "   di4 yi1 ": 7334,
  "qian2 jin4 ": 7335,
  " sou1 ": 7336,
  "lan2 ka3 ": 7337,
  "gen1 ben3 ": 7338,
  "xuan2 zhuan3 ": 7339,
  "um ": 7340,
  "shi4 yi2 ": 7341,
  "xue2 yuan2 ": 7342,
  "ta1 yu3 ": 7343,
  "fen1 jie3 ": 7344,
  " chang4 ": 7345,
  "ji3 nan2 ": 7346,
  "zhi1 bu4 ": 7347,
  "xi1 bo2 ": 7348,
  "fu4 you3 ": 7349,
  "zhen4 rong2 ": 7350,
  "shen1 de ": 7351,
  "zong3 mian4 ji1 ": 7352,
  "km ": 7353,
  "ji2 xing2 zheng4 ": 7354,
  "ji1 qiang1 ": 7355,
  "xi1 shi4 ": 7356,
  "zhu4 fang2 ": 7357,
  "fen1 cheng2 ": 7358,
  "tong2 bu4 ": 7359,
  "qiu2 mi2 ": 7360,
  "shi1 ren2 ": 7361,
  "zong3 jing1 li3 ": 7362,
  "zheng1 duo2 ": 7363,
  "nuo4 si1 ": 7364,
  "hao3 you3 ": 7365,
  " zhan4 zheng1 ": 7366,
  " mu4 qian2 shang4 wei4 ": 7367,
  "wu4 li3 xue2 ": 7368,
  " chi2 ": 7369,
  "wei4 bei4 ": 7370,
  "he2 jin1 ": 7371,
  "dian4 liu2 ": 7372,
  "jie2 lun4 ": 7373,
  "ti2 qian2 ": 7374,
  "zong3 ju2 ": 7375,
  "chan3 liang4 ": 7376,
  "ri4 ben3 de ": 7377,
  "zai4 195": 7378,
  "ith": 7379,
  "shi4 lang2 ": 7380,
  " ta1 he2 ": 7381,
  "IT": 7382,
  " i": 7383,
  "de zhi1 chi2 ": 7384,
  "he2 ren2 kou3 ": 7385,
  "xing2 zheng4 zhen4 qu1 ": 7386,
  " 23 ": 7387,
  " fu2 lang3 ": 7388,
  " chu1 ban3 ": 7389,
  "yan2 zhong4 de ": 7390,
  "22 nian2 ": 7391,
  "gong1 yue1 ": 7392,
  "xin1 ren2 ": 7393,
  "te4 lei1 ": 7394,
  "ge1 chang4 ": 7395,
  "xin4 tu2 ": 7396,
  "zhu3 yao4 shi4 ": 7397,
  "Vi": 7398,
  "ef": 7399,
  "yi4 nian2 ": 7400,
  "zi4 cheng1 ": 7401,
  "fu4 shi4 ": 7402,
  "xia4 de yi2 ge4 ": 7403,
  "zui4 zao3 de ": 7404,
  "shu4 bai3 ": 7405,
  "wen2 de ": 7406,
  "zhi2 zhi4 ": 7407,
  "wu3 de2 ": 7408,
  " zhe4 ye3 shi4 ": 7409,
  "bu4 di2 ": 7410,
  "yuan2 you3 ": 7411,
  "zhi1 shang4 ": 7412,
  "dian4 ji1 ": 7413,
  "sha1 tian2 ": 7414,
  "xu1 ni3 ": 7415,
  "he2 dong1 ": 7416,
  "di4 ming2 ": 7417,
  "gong1 shang1 ": 7418,
  "cheng1 zhi1 wei4 ": 7419,
  "chan3 wu4 ": 7420,
  "ci2 shan4 ": 7421,
  "biao1 ji4 ": 7422,
  "art": 7423,
  "zao3 qi1 de ": 7424,
  "xian4 de yi2 ge4 xing2 zheng4 zhen4 qu1 ": 7425,
  "J ": 7426,
  "edi": 7427,
  "jiao4 zuo4 ": 7428,
  "shi1 di4 ": 7429,
  "liang3 an4 ": 7430,
  " bei4 qi2 ": 7431,
  " shi4 yi1 zuo4 ": 7432,
  " dian3 ": 7433,
  " fa1 biao3 ": 7434,
  "yi4 he2 ": 7435,
  "fu2 yin1 ": 7436,
  "‧": 7437,
  "gong4 chan3 zhu3 yi4 ": 7438,
  "jin4 cheng2 ": 7439,
  "shou3 ling3 ": 7440,
  "zu2 lian2 ": 7441,
  "dang4 zuo4 ": 7442,
  "ka1 fei1 ": 7443,
  "tt": 7444,
  "   xiang1 ": 7445,
  "shi4 bei4 ": 7446,
  "di4 di": 7447,
  "ri4 hou4 ": 7448,
  "suo3 yi3 ": 7449,
  "qu3 zi4 ": 7450,
  "cheng2 li4 le ": 7451,
  " suo1 xie3 ": 7452,
  "ru4 qiu2 ": 7453,
  "san1 ji2 ": 7454,
  "cha2 li3 ": 7455,
  "gong1 zuo4 de ": 7456,
  "bin1 shi4 ": 7457,
  "xi3 ai4 ": 7458,
  "wu4 zhong3 de ": 7459,
  "juan1 zeng4 ": 7460,
  "ren2 da4 dai4 biao3 ": 7461,
  "yu2 2019 nian2 ": 7462,
  "ru4 wei2 ": 7463,
  "shan1 ding3 ": 7464,
  " 1920 nian2 ": 7465,
  "jin3 zhang1 ": 7466,
  "fang4 song4 ": 7467,
  " 1979 nian2 ": 7468,
  "da4 liang4 de ": 7469,
  "sa4 si1 zhou1 ": 7470,
  " man3 ": 7471,
  " ha1 er3 ": 7472,
  "jiu4 you3 ": 7473,
  "han4 lin2 ": 7474,
  ".&": 7475,
  "DV": 7476,
  " chang3 ": 7477,
  "cheng2 dan1 ": 7478,
  "shang4 fang1 ": 7479,
  "fu4 de ": 7480,
  "xia4 lai2 de ": 7481,
  "san1 ming2 ": 7482,
  "jing4 wai4 ": 7483,
  "li4 shi3 xue2 jia1 ": 7484,
  "gong1 zuo4 ren2 yuan2 ": 7485,
  "she4 ji4 shi1 ": 7486,
  "han3 mo4 de2 ": 7487,
  "yin1 er2 ": 7488,
  "yin1 mou2 ": 7489,
  "chang2 chang2 ": 7490,
  "jiang3 pai2 ": 7491,
  "ke3 yi3 tong1 guo4 ": 7492,
  "zhu3 ti2 qu1 ": 7493,
  "geng3 ": 7494,
  " jun1 shi4 ": 7495,
  "wu4 zi1 ": 7496,
  "ying1 er2 ": 7497,
  " da4 yue1 ": 7498,
  "si3 yu2 ": 7499,
  "   zhi4 zuo4 ": 7500,
  "you3 hao3 ": 7501,
  "res": 7502,
  "shi1 fan4 da4 xue2 ": 7503,
  "rao2 ": 7504,
  "yu2 tong2 nian2 ": 7505,
  " teng2 ": 7506,
  "lian2 jun1 ": 7507,
  "jiu4 du2 yu2 ": 7508,
  "   dui4 yu2 ": 7509,
  "she4 ru4 ": 7510,
  "qian2 xian4 ": 7511,
  "jiao4 shao3 ": 7512,
  "ze2 er3 sheng3 ": 7513,
  "ceng2 ren4 ": 7514,
  "tuan2 zhang3 ": 7515,
  "can1 yu4 le ": 7516,
  "cheng2 qiang2 ": 7517,
  "pu3 luo2 ": 7518,
  " tong2 ri4 ": 7519,
  "hu2 nan2 sheng3 ": 7520,
  "gei3 ta1 ": 7521,
  "28 nian2 ": 7522,
  " yun2 nan2 ": 7523,
  "xin1 bei3 ": 7524,
  "zi shi4 ": 7525,
  "yan2 jiu1 zhong1 xin1 ": 7526,
  "xuan1 yan2 ": 7527,
  " cheng2 shi4 ": 7528,
  "3 mi3 ": 7529,
  "da4 bu4 ": 7530,
  "tian1 xia4 ": 7531,
  "gai3 ming2 ": 7532,
  "hu2 bei3 sheng3 ": 7533,
  "chuan1 xian4 ": 7534,
  " 22 ": 7535,
  " 1   ": 7536,
  "he2 chang4 ": 7537,
  "shi2 zhi4 ": 7538,
  " zai4 ta1 ": 7539,
  " zai4 mei3 guo2 ": 7540,
  "chuang3 ": 7541,
  "jiang3 zui4 jia1 ": 7542,
  "chen2 mo4 ": 7543,
  "ard": 7544,
  "hui4 yi4 shang4 ": 7545,
  " de2 yu3 ": 7546,
  "sheng1 chan3 de ": 7547,
  "meng4 jia1 la1 ": 7548,
  "yi3 1 ": 7549,
  "zhi2 lu4 ": 7550,
  " yin3 fa1 ": 7551,
  "de cheng2 shi4 ": 7552,
  "xi1 he2 ": 7553,
  "zuo4 luo4 ": 7554,
  "xi4 jun1 ": 7555,
  "shou4 ming4 ": 7556,
  "guang1 pu3 ": 7557,
  "ke3 neng2 xing4 ": 7558,
  " SA": 7559,
  "lu2 wa3 ": 7560,
  "   gao1 ": 7561,
  "gong1 li4 ": 7562,
  "yi2 chuan2 ": 7563,
  " shi4 tu2 ": 7564,
  "6 nian2 1 yue4 ": 7565,
  "tui1 xing2 ": 7566,
  "kong4 gu3 ": 7567,
  "wen1 dai4 ": 7568,
  "pi2 fu1 ": 7569,
  "tong2 xing4 lian4 ": 7570,
  "35 nian2 ": 7571,
  "feng3 ": 7572,
  " 1 yue4 ": 7573,
  "e2 hai4 e2 ": 7574,
  "wen2 ben3 ": 7575,
  "la1 de2 ": 7576,
  "ci4 shu4 ": 7577,
  "biao3 xian4 chu1 ": 7578,
  "yu2 2024 nian2 ": 7579,
  "24 nian2 ": 7580,
  "adi": 7581,
  "tor": 7582,
  "2 mi3 ": 7583,
  "   lin2 ": 7584,
  "li4 bu4 ": 7585,
  "jia1 si1 ": 7586,
  "xi4 jie2 ": 7587,
  "liang3 zhe3 ": 7588,
  "tai4 lang2 ": 7589,
  "cun1 min2 ": 7590,
  "wan3 qi1 ": 7591,
  " mi2 ": 7592,
  "84 ": 7593,
  "yue4 de ": 7594,
  " cao3 ": 7595,
  "ze2 you2 ": 7596,
  "4 yue4 1 ri4 ": 7597,
  " zhi3 yao4 ": 7598,
  "kong3 long2 ": 7599,
  " mu4 qian2 shang4 wei4 you2 ren2 gong1 yin3 zhong3 zai1 pei2 ": 7600,
  "zai4 bei3 ": 7601,
  "jiao4 ke1 ": 7602,
  "sheng4 jing1 ": 7603,
  "du1 hui4 ": 7604,
  " 24 ": 7605,
  " zhu3 chi2 ": 7606,
  "se": 7607,
  " yong1 ": 7608,
  "guo2 you3 ": 7609,
  "dice ": 7610,
  "yue4 qi4 ": 7611,
  "xin1 jian4 ": 7612,
  "luo2 la1 ": 7613,
  "ya1 suo1 ": 7614,
  "miao2 xie3 ": 7615,
  "yi3 2 ": 7616,
  "du4 guo4 ": 7617,
  "xing4 cun2 ": 7618,
  "tuan2 jie2 ": 7619,
  "   2002 nian2 ": 7620,
  "shi4 yi1 wei4 ": 7621,
  "76": 7622,
  "   jian4 zhu4 ": 7623,
  "yi1 ke1 ": 7624,
  "ji2 hui4 ": 7625,
  "hua4 mian4 ": 7626,
  " zhong1 guo2 ren2 min2 jie3 fang4 jun1 ": 7627,
  " bo1 lan2 ": 7628,
  "shi4 chu1 ": 7629,
  "gong1 she4 ": 7630,
  " dou4 ": 7631,
  "zhou1 nian2 ": 7632,
  "qian2 lai2 ": 7633,
  "ke1 er3 ": 7634,
  "meng2 jun1 ": 7635,
  "bu2 yao4 ": 7636,
  " 1938 nian2 ": 7637,
  " JR": 7638,
  " bang1 zhu4 ": 7639,
  "ath": 7640,
  " kuai4 ": 7641,
  "a1 ji1 ": 7642,
  "   chu2 ": 7643,
  "   st": 7644,
  "yu2   ": 7645,
  "ge4 da4 ": 7646,
  "dong1 qu1 ": 7647,
  "zu3 de ": 7648,
  "hui2 da2 ": 7649,
  "wan4 li4 ": 7650,
  "xu1 gou4 ": 7651,
  "ying3 xiang3 li4 ": 7652,
  "chong1 fen4 ": 7653,
  "dan4 bai2 zhi4 ": 7654,
  "oog": 7655,
  "chang2 an1 ": 7656,
  " fen1 bie2 wei4 ": 7657,
  "95": 7658,
  "zhe4 li3 ": 7659,
  "e   M": 7660,
  "chu1 ban3 de ": 7661,
  "ach": 7662,
  "   f": 7663,
  "ren2 cai2 ": 7664,
  "ci4 ji1 ": 7665,
  "chuan1 guo4 ": 7666,
  "II ": 7667,
  "   zuo4 wei2 ": 7668,
  "zhan4 che1 ": 7669,
  "shen2 sheng4 ": 7670,
  "zao4 xing2 ": 7671,
  "ji3 he2 ": 7672,
  "zi3 mei4 ": 7673,
  "   1949 nian2 ": 7674,
  " ban3 ben3 ": 7675,
  " luo2 si1 ": 7676,
  "xia4 fang1 ": 7677,
  "xiang4 bei3 ": 7678,
  "jing4 nei4 de ": 7679,
  " gai1 di4 de ": 7680,
  "si shi4 ": 7681,
  "li3 shi4 hui4 ": 7682,
  "de ming2 zi4 ": 7683,
  "   wei2 ": 7684,
  "   wu2 ": 7685,
  "zhi4 zai4 ": 7686,
  "ping2 guo3 ": 7687,
  "zui4 jin4 ": 7688,
  "jiang1 shi4 ": 7689,
  "chuan2 qi2 ": 7690,
  "sha1 bai2 ": 7691,
  "xin4 ren4 ": 7692,
  "ay   ": 7693,
  " 20 ": 7694,
  "hui2 guo2 ": 7695,
  "xun2 luo2 ": 7696,
  "pan4 duan4 ": 7697,
  "de di4 yi2 ge4 ": 7698,
  "qu4 shi4 hou4 ": 7699,
  "   ge4 ren2 sheng1 huo2 ": 7700,
  "ji4 ren4 ": 7701,
  "yu3 wen2 ": 7702,
  "ming2 jiao4 ": 7703,
  "ye4 jian1 ": 7704,
  "guan3 kong4 ": 7705,
  "ting2 yun4 ": 7706,
  " 1947 nian2 ": 7707,
  "yun3 shi2 keng1 ": 7709,
  "℃": 7710,
  "se ": 7711,
  "qu1 dong4 ": 7712,
  "ding4 li3 ": 7713,
  "5 wan4 ": 7714,
  " 30": 7715,
  " guo4 qu4 ": 7716,
  "yi1 si1 lan2 jiao4 ": 7717,
  "ele": 7718,
  "gen3 ": 7719,
  "wei2 qi1 ": 7720,
  "neng2 zai4 ": 7721,
  "ju1 liu2 ": 7722,
  "zhao4 gu4 ": 7723,
  "sen1 bao3 ": 7724,
  "zun1 zhong4 ": 7725,
  "Windows   ": 7726,
  "laySt": 7727,
  "jian4 guo2 ": 7728,
  "dong4 yuan2 ": 7729,
  "wang2 hou4 ": 7730,
  "sheng4 mu3 ": 7731,
  "hou4 zhe3 ": 7732,
  "zhan4 zhi4 ": 7733,
  "che1 dao4 ": 7734,
  "dan1 da3 ": 7735,
  "yan3 jing1 ": 7736,
  "xie1 er3 ": 7737,
  "tiao2 wen2 ": 7738,
  "dian4 ying3 jie2 ": 7739,
  " 1981 nian2 ": 7740,
  " jie1 shou4 ": 7741,
  "   3 ": 7742,
  "he2 shi2 ": 7743,
  "zhong1 dian3 ": 7744,
  "si1 tu2 ": 7745,
  "jin4 dai4 ": 7746,
  "tian1 fu3 ": 7747,
  "jing3 dian3 ": 7748,
  "jia3 ji1 ": 7749,
  "hei1 ren2 ": 7750,
  "zheng4 xie2 wei3 yuan2 ": 7751,
  " zi ": 7752,
  " zi1 ": 7753,
  " ju3 ": 7754,
  " zong1 ": 7755,
  " hui1 ": 7756,
  "yuan2 wai4 ": 7757,
  "xia4 shu3 ": 7758,
  "chang2 gui1 ": 7759,
  "ba1 nen4 ": 7760,
  " zhi1 jian1 ": 7761,
  "wen4 ti2 de ": 7762,
  "ken3 ding4 ": 7763,
  "fa1 da2 ": 7764,
  "nan2 hai2 ": 7765,
  "yu4 gao4 ": 7766,
  "duo1 xiang4 ": 7767,
  " an1 hui1 ": 7768,
  "fa1 dian4 chang3 ": 7769,
  "chuang4 shi3 ren2 ": 7770,
  "ren2 qun2 ": 7771,
  "yue4 yu3 ": 7772,
  "le qi2 ": 7773,
  "dui4 chen4 ": 7774,
  "ju4 zhong1 ": 7775,
  "nan2 nv3 ": 7776,
  "ci2 hui4 ": 7777,
  "liang2 shi2 ": 7778,
  "ta1 men zai4 ": 7779,
  "am ": 7780,
  "cun2 zai4 de ": 7781,
  "lai2 si1 ": 7782,
  "hu2 bei3 ": 7783,
  " xin1 jia1 po1 ": 7784,
  " ji1 ben3 ": 7785,
  "de yin1 yue4 ": 7786,
  "jing1 ying1 ": 7787,
  "wei1 bo2 ": 7788,
  "liu4 ge4 ": 7789,
  "cun2 chu3 ": 7790,
  "fa1 xian4 de ": 7791,
  " zhi2 jie1 ": 7792,
  " si1 zhi2 ": 7793,
  " gu4 shi4 ": 7794,
  "yu2 189": 7795,
  "a1 li3 ": 7796,
  "eri": 7797,
  "tou2 shou3 ": 7798,
  " zi4 ran2 ": 7799,
  " fen1 bie2 shi4 ": 7800,
  " fa1 zhan3 ": 7801,
  "de zheng4 zhi4 ": 7802,
  "zhi4 197": 7803,
  "jia1 zhuang1 ": 7804,
  "yin4 di4 an1 na4 ": 7805,
  "de zong3 ": 7806,
  " 18 ": 7807,
  "jie3 chu2 ": 7808,
  "mian4 ji1 he2 ren2 kou3 ": 7809,
  " yi4 you3 ": 7810,
  " nan2 jing1 ": 7811,
  " dou1 shi4 ": 7812,
  "gou1 tong1 ": 7813,
  "he2 liu2 yu4 ": 7814,
  " heng1 li4 ": 7815,
  " kai1 fa1 ": 7816,
  "li4 shu3 ": 7817,
  "jian4 dao4 ": 7818,
  " dan4 zhe4 ": 7819,
  "zu2 ren2 ": 7820,
  " shi3 jian4 ": 7821,
  "mian3 yi4 ": 7822,
  "1000 ": 7823,
  "yn": 7824,
  "de mu4 ": 7825,
  "   zhang1 ": 7826,
  "shi2 qi4 ": 7827,
  "hou4 lai2 de ": 7828,
  "zhan4 ting1 ": 7829,
  "qian2 feng1 ": 7830,
  "wang3 fan3 ": 7831,
  "gui1 lei4 ": 7832,
  " 1937 nian2 ": 7833,
  "MA": 7834,
  "TA": 7835,
  "son ": 7836,
  "   dong1 ": 7837,
  "   8 yue4 ": 7838,
  "di4 xing2 ": 7839,
  "xian4 zhang3 ": 7840,
  "yu4 ding4 ": 7841,
  "ge2 la1 si1 ": 7842,
  "xiao3 jie3 ": 7843,
  "dan4 sheng1 ": 7844,
  "sa4 la1 ": 7845,
  "jie1 wei4 zhi1 ": 7846,
  " shi4 yi2 ge4 wei4 yu2 mei3 guo2 ": 7847,
  " zan4 ": 7849,
  "bei4 lie4 wei4 ": 7850,
  "xin1 jie4 ": 7851,
  " you3 ren2 ": 7852,
  "9 mi3 ": 7853,
  "shen3 yang2 ": 7854,
  "shi4 wu4 suo3 ": 7855,
  "de mian4 ji1 wei4 ": 7856,
  "li4 shi4 ": 7857,
  "ji2 jie2 ": 7858,
  "zhan4 sheng4 ": 7859,
  "fu4 yu3 ": 7860,
  "jin4 jun1 ": 7861,
  "nei4 ya4 ": 7862,
  "tu2 jing4 ": 7863,
  "gong1 li3 de ": 7864,
  "hu1 xi1 ": 7865,
  "250 ": 7866,
  "58 ": 7867,
  "he2 bei3 sheng3 ": 7868,
  "zhou1 li4 ": 7869,
  "cheng1 zan4 ": 7870,
  "yin3 shi2 ": 7871,
  "zhuan3 bian4 ": 7872,
  "YouTube ": 7873,
  " gai1 di4 de mian4 ji1 he2 ren2 kou3 ": 7874,
  " gai1 di4 de mian4 ji1 he2 ren2 kou3 jie1 wei4 zhi1 ": 7875,
  "40 nian2 ": 7876,
  " en1 ": 7877,
  "xian1 wei2 ": 7878,
  "a1 er3 ba1 ": 7879,
  "yu2 2008 nian2 ": 7880,
  "he2 bing4 wei4 ": 7881,
  "ohn": 7882,
  "56 ": 7883,
  "wa4 ": 7884,
  "   fa3 guo2 ": 7885,
  "diu1 ": 7886,
  "yuan2 chuang4 ": 7887,
  "wei2 wu2 er3 ": 7888,
  "jian4 qiao2 ": 7889,
  "de2 yu3 ": 7890,
  "gao1 ceng2 ": 7891,
  "liang3 zuo4 ": 7892,
  "wei1 yi2 ": 7893,
  "xiang3 ying4 ": 7894,
  " ren2 lei4 ": 7895,
  " xiang1 dang1 ": 7896,
  "   16": 7897,
  "shi2 yi1 nian2 ": 7898,
  "da4 jia1 ": 7899,
  "shang4 jiang4 ": 7900,
  "xin1 zhu2 ": 7901,
  "nan2 hai3 ": 7902,
  "dong4 gong1 ": 7903,
  "bi4 lu3 ": 7904,
  " bu4 zai4 ": 7905,
  "de yi1 ci4 ": 7906,
  " lian4 ": 7907,
  "   huang2 ": 7908,
  "yi1 hao4 ": 7909,
  "fa1 bu4 de ": 7910,
  "shou3 qiang1 ": 7911,
  "mian4 shi4 ": 7912,
  "ge2 lin2 ": 7913,
  "qian1 yi2 ": 7914,
  "ying4 bi4 ": 7915,
  "bing1 li4 ": 7916,
  " ye3 ke3 yi3 ": 7917,
  "xing2 zheng4 yuan4 ": 7918,
  "dong1 jing1 du1 ": 7919,
  "xun2 hui2 sai4 ": 7920,
  "Ar": 7921,
  "   wang2 ": 7922,
  "jin4 ping2 ": 7923,
  "ye3 zhan4 ": 7924,
  "zhi3 yu2 ": 7925,
  "bao3 wei4 ": 7926,
  "dian3 shi4 ": 7927,
  " lu4 yi4 ": 7928,
  "zuan4 ": 7929,
  "ren2 da4 chang2 wei3 hui4 ": 7930,
  "nao4 ": 7931,
  "fan3 kang4 ": 7932,
  "tiao2 jie2 ": 7933,
  "wei4 yu2 zhong1 guo2 ": 7934,
  "sai1 bai4 ": 7935,
  "   ai4 ": 7936,
  "he2 shui3 ": 7937,
  "ji1 zhong4 ": 7938,
  "lei4 bie2 ": 7939,
  " gai1 zhuang1 ": 7940,
  "21": 7941,
  "de2 lan2 ": 7942,
  "ge1 ju4 ": 7943,
  "tu1 jue2 ": 7944,
  "   cheng2 ": 7945,
  "deng3 dai4 ": 7946,
  "zhang3 da4 ": 7947,
  "su4 she4 ": 7948,
  "bo1 yin1 ": 7949,
  "ran2 shao1 ": 7950,
  " le4 ": 7951,
  " pang2 ": 7952,
  " pai1 ": 7953,
  " tai4 ping2 ": 7954,
  " zhen1 dui4 ": 7955,
  "liao2 ning2 sheng3 ": 7956,
  "fa1 yan2 ren2 ": 7957,
  "ji2 wei2 ": 7958,
  " yi3 se4 lie4 ": 7959,
  "you4 cheng1 ": 7960,
  "long2 ke1 ": 7961,
  "lun2 duo1 ": 7962,
  "zhuan1 ke1 ": 7963,
  "om ": 7964,
  "   9 yue4 ": 7965,
  "yi1 dui4 ": 7966,
  "de2 fen1 ": 7967,
  "zhi2 jing4 ": 7968,
  "liu2 dong4 ": 7969,
  "dian3 wei4 ": 7970,
  " 200 ": 7971,
  "23 nian2 ": 7972,
  "pen": 7973,
  " ke1 xue2 ": 7974,
  "jiong3 ": 7975,
  "   7 yue4 ": 7976,
  "di4 zhong1 hai3 ": 7977,
  "ke3 kao4 ": 7978,
  "qi4 wen1 ": 7979,
  "can1 guan1 ": 7980,
  "xiao1 mie4 ": 7981,
  "hai2 zai4 ": 7982,
  " gong1 bu4 ": 7983,
  "che4 li2 ": 7984,
  "yan2 shen1 zhi4 ": 7985,
  "7   ": 7986,
  "   4 yue4 ": 7987,
  "zhong1 zheng4 ": 7988,
  "you3 ke3 neng2 ": 7989,
  "yi2 ji4 ": 7990,
  "lv4 de ": 7991,
  " bu4 jin3 ": 7992,
  "xuan1 gao4 ": 7993,
  "de zhong1 guo2 ": 7994,
  "lic": 7995,
  "bu4 zuo4 pin3 ": 7996,
  "chu1 lai2 de ": 7997,
  "zuo4 tang2 ": 7998,
  "bei4 ge2 ": 7999,
  "ben3 shu1 ": 8000,
  "di3 zhi4 ": 8001,
  "zhui1 qiu2 ": 8002,
  "   zao3 qi1 ": 8003,
  "chang2 zhu4 ": 8004,
  "yun4 suan4 ": 8005,
  "zheng1 qi4 ": 8006,
  "shun4 shi2 zhen1 ": 8007,
  "ye2 er3 ": 8008,
  "tong3 zhi4 zhe3 ": 8009,
  "   che1 zhan4 jie2 gou4 ": 8010,
  " fou3 ze2 ": 8011,
  "hou4 yi4 ": 8012,
  "yan2 xian4 ": 8013,
  "liu2 xue2 ": 8014,
  "feng1 suo3 ": 8015,
  "can1 yi4 yuan2 ": 8016,
  "wan1 qu1 ": 8017,
  "qiang2 hua4 ": 8018,
  "fa1 zhan3 de ": 8019,
  "miao2 shu4 wei4 ": 8020,
  "de he2 liu2 ": 8021,
  "71 ": 8022,
  "89": 8023,
  "ern": 8024,
  "ya2 chi3 ": 8025,
  "illi": 8026,
  "38 nian2 ": 8027,
  "de guo2 ji4 ": 8028,
  "di4 si1 ": 8029,
  "lu4 jing4 ": 8030,
  "cha2 er3 si1 ": 8031,
  "yun2 nan2 sheng3 ": 8032,
  "   2001 nian2 ": 8033,
  " 1955 nian2 ": 8034,
  "an1 ren2 ": 8035,
  "hua4 ru4 ": 8036,
  "jin4 qiu2 ": 8037,
  "jing1 fei4 ": 8038,
  "bi3 er3 ": 8039,
  "na4 yang4 ": 8040,
  " 29": 8041,
  " hai3 jun1 ": 8042,
  "kai1 fa1 de ": 8043,
  "pao3 dao4 ": 8044,
  "37 nian2 ": 8045,
  " meng2 gu3 ": 8046,
  "an   ": 8047,
  "xing2 shi4 de ": 8048,
  "jian4 le ": 8049,
  " wei4 ci3 ": 8050,
  " yi4 nian2 ": 8051,
  " sui4 shi2 ": 8052,
  " yin3 qi3 ": 8053,
  "ji1 dui4 ": 8054,
  "bei4 sha1 ": 8055,
  "zhu3 da3 ": 8056,
  "ba1 le4 si1 tan3 ": 8057,
  "wan2 cheng2 le ": 8058,
  " zhuang4 ": 8059,
  "yu2 2007 nian2 ": 8060,
  "nu2 li4 ": 8061,
  "e2 wai4 ": 8062,
  "   4 ": 8063,
  "   wen2 hua4 ": 8064,
  "li3 cha2 ": 8065,
  "xi1 de2 ": 8066,
  "ci2 qu4 ": 8067,
  "re4 men2 ": 8068,
  "zhi1 hou4 de ": 8069,
  "zhu3 jiao4 lian4 ": 8070,
  "oni": 8071,
  "roun": 8072,
  "ann": 8073,
  "zhan4 lou2 ": 8074,
  "duo1 yuan2 ": 8075,
  "gong4 ji4 ": 8076,
  "bi3 ci3 ": 8077,
  "su4 de ": 8078,
  "qiang2 da4 de ": 8079,
  "0 nian2 dai4 chu1 ": 8080,
  " 157": 8081,
  "ji4 nian4 bei1 ": 8082,
  "shi2 da4 ": 8083,
  "qiu2 yun4 dong4 yuan2 ": 8084,
  "zhi3 ze2 ": 8085,
  "lan2 zhou1 ": 8086,
  "di2 ya4 ": 8087,
  " zi4 ci3 ": 8088,
  " guan1 zhi4 ": 8089,
  "li1 ": 8090,
  "ke4 jia1 ": 8091,
  "min2 jin4 dang3 ": 8092,
  "jie2 chu1 ": 8093,
  "tai4 shou3 ": 8094,
  "du2 te4 de ": 8095,
  "bu4 de2 bu4 ": 8096,
  "layStation": 8097,
  "de ji2 ": 8098,
  "   can1 kao3 ": 8099,
  "wei4 ta1 ": 8100,
  "wei4 ji1 chu3 ": 8101,
  "he2 hua2 ": 8102,
  "guo2 an1 ": 8103,
  "li3 ao4 ": 8104,
  "tin": 8105,
  "zhi2 yuan2 ": 8106,
  "jie2 zou4 ": 8107,
  "mon": 8108,
  " bing4 biao3 shi4 ": 8109,
  "tang2 qu1 ": 8110,
  " zhan4 di4 ": 8111,
  "wei4 zai4 ": 8112,
  "lu4 yu3 ": 8113,
  "yi2 qi4 ": 8114,
  "jing1 que4 ": 8115,
  "la1 er3 ": 8116,
  "jiao1 you2 ": 8117,
  "chu3 cun2 ": 8118,
  "ke4 li3 mi3 ya4 ": 8119,
  " zhao3 ": 8120,
  "ke3 qian2 wang3 ": 8121,
  "bei3 ce4 ": 8122,
  " 100 ": 8123,
  "wor": 8124,
  "pai2 chu2 ": 8125,
  " lian2 jie1 ": 8126,
  "OM": 8127,
  "he2 mei3 guo2 ": 8128,
  "ji4 neng2 ": 8129,
  "xin1 shi4 ": 8130,
  " dan4 ye3 ": 8131,
  " dan4 reng2 ": 8132,
  "tang2 chao2 ": 8133,
  "de ji1 ben3 ": 8134,
  " wei1 er3 ": 8135,
  "de fei1 ": 8136,
  "ri4 ji4 ": 8137,
  "jin4 kou3 ": 8138,
  "xuan3 zhong1 ": 8139,
  "wu1 ding3 ": 8140,
  "chuan1 yue4 ": 8141,
  "1999 nian2 ": 8142,
  " shi4 wei4 yu2 wu1 ke4 lan2 ": 8143,
  "zhong4 dian3 wen2 wu4 bao3 hu4 dan1 wei4 ": 8144,
  "ID": 8145,
  "wei4 da4 ": 8146,
  "zhi4 194": 8147,
  "yi3 wai4 de ": 8148,
  " guo3 ": 8149,
  "xiang4 liang4 ": 8150,
  "jue2 yu2 ": 8151,
  " gai1 pian4 ": 8152,
  "zhen1 de ": 8153,
  "mei2 you3 ren4 he2 ": 8154,
  "bai3 xing4 ": 8155,
  "wen2 hua4 yi2 chan3 ": 8156,
  " guo2 wu4 yuan4 ": 8157,
  "zuan1 ": 8158,
  "shi4 yong4 ": 8159,
  "shang4 you2 ": 8160,
  "yan2 yong4 ": 8161,
  "jiu4 bei4 ": 8162,
  "zao4 chuan2 ": 8163,
  "zi3 you2 xi4 ": 8164,
  " you3 guan1 ": 8165,
  "sic": 8166,
  " shou3 xian1 ": 8167,
  "   gen1 ju4 2010 nian2 mei3 guo2 ren2 kou3 pu3 cha2 de shu4 ju4 ": 8168,
  "BC ": 8169,
  "Sh": 8170,
  "   6 yue4 ": 8171,
  "   yan2 ge2 ": 8172,
  "xi1 xi1 ": 8173,
  "ren4 zhi1 ": 8174,
  "fang1 cheng2 shi4 ": 8175,
  "gan3 qing2 ": 8176,
  "de da4 bu4 fen4 ": 8177,
  "az": 8178,
  " guan3 li3 ": 8179,
  " zeng4 ": 8180,
  "li4 zai4 ": 8181,
  "ji2 li4 ": 8182,
  "jun1 yi3 ": 8183,
  "jian1 shi4 ": 8184,
  "xuan3 ba2 ": 8185,
  " gai1 dang3 ": 8186,
  "ming4 ming2 de ": 8187,
  "   2000 nian2 ": 8188,
  "xue4 ye4 ": 8189,
  "guo2 fang2 bu4 ": 8190,
  "xin1 xing1 ": 8191,
  "fa1 yu4 ": 8192,
  "zhou1 fu4 ze2 guan3 xia2 ": 8193,
  "min2 dang3 ": 8194,
  "ye4 yu2 ": 8195,
  "shou4 piao4 ": 8196,
  "si4 yue4 ": 8197,
  "qian1 ren2 ": 8198,
  "xun4 hao4 ": 8199,
  "shi2 jian1 de ": 8200,
  "KB": 8201,
  " v": 8202,
  "she1 ": 8203,
  "de er2 zi ": 8204,
  "   qi2 zhong1 ": 8205,
  "shi4 jiang1 ": 8206,
  "di4 shang4 ": 8207,
  "zhi4 pin3 ": 8208,
  "yi4 chang2 ": 8209,
  "yi3 zhi1 ": 8210,
  "ke4 he2 ": 8211,
  "nan2 mei3 zhou1 ": 8212,
  " ta1 shuo1 ": 8213,
  "jiao4 yu2 ": 8214,
  "shen2 me": 8215,
  "di4 yi1 jie4 ": 8216,
  "huo2 dong4 de ": 8217,
  "kan4 fa3 ": 8218,
  " bing4 qie3 zai4 ": 8219,
  "kun1 chong2 ": 8220,
  "wei4 jun1 ": 8221,
  "cheng2 zuo4 ": 8222,
  "yu4 wei2 ": 8223,
  " zai4 qi2 ": 8224,
  " dan4 zui4 zhong1 ": 8225,
  "guan3 de ": 8226,
  " zui4 zao3 ": 8227,
  " 1956 nian2 ": 8228,
  "sk": 8229,
  " dian4 shi4 ": 8230,
  " liao2 ": 8231,
  "ji2 ke3 ": 8232,
  "chu1 bu4 ": 8233,
  "zhou1 he2 ": 8234,
  "kai1 ye4 ": 8235,
  "ceng2 bei4 ": 8236,
  " ji2 tuan2 ": 8237,
  "shi2 jian1 wei4 ": 8238,
  "10 yue4 1 ri4 ": 8239,
  "   189": 8240,
  " xue1 ": 8241,
  "ji1 long2 ": 8242,
  "chu1 shi3 ": 8243,
  " shi4 nan2 ji2 zhou1 de ": 8244,
  "ke1 huan4 ": 8245,
  "jin1 de ": 8246,
  "yuan4 xiao4 ": 8247,
  "lun2 si1 ": 8248,
  "huo3 xing1 ": 8249,
  "pin2 fan2 ": 8250,
  " de2 dao4 ": 8251,
  " chao1 guo4 ": 8252,
  "lai2 kan4 ": 8253,
  "ye3 sheng1 ": 8254,
  "na4 er3 ": 8255,
  "qian1 xi3 ": 8256,
  "tiao2 mu4 ": 8257,
  "179": 8258,
  "é": 8259,
  "san1 yue4 ": 8260,
  "gu3 dong1 ": 8261,
  "sha1 ren2 ": 8262,
  "ci2 de ": 8263,
  "pian4 zhong1 ": 8264,
  "bai3 nian2 ": 8265,
  " tai4 yang2 ": 8266,
  "85": 8267,
  "ri4 yu3 ": 8268,
  "xia4 you2 ": 8269,
  " hou2 ": 8270,
  "ti3 cao1 ": 8271,
  "ti2 qin2 ": 8272,
  "ying3 zhan3 ": 8273,
  "gai3 liang2 ": 8274,
  " he2 dao4 ": 8275,
  "ju2 shi4 ": 8276,
  "66 ": 8277,
  "US": 8278,
  "Uni": 8279,
  "zuan3 ": 8280,
  " lei3 ji4 ": 8281,
  "de xing2 wei2 ": 8282,
  "shi4 jue2 ": 8283,
  "nan2 ce4 ": 8284,
  "guan1 lian2 ": 8285,
  "lv2 ": 8286,
  "xing1 qi3 ": 8287,
  "sui2 zhi1 ": 8288,
  "kua4 yue4 ": 8289,
  "bao4 fa1 hou4 ": 8290,
  " xi1 ban1 ya2 yu3 ": 8291,
  "guo2 qi2 ": 8292,
  "ji1 he2 ": 8293,
  "mo4 nian2 ": 8294,
  " bei4 er3 ": 8295,
  "e4 hua4 ": 8296,
  "zhong1 xun2 ": 8297,
  "bu4 zhi1 ": 8298,
  "zhan4 shi2 ": 8299,
  "jun1 wei3 ": 8300,
  "she4 li4 de ": 8301,
  "zhu4 ru4 ": 8302,
  "shi1 zong1 ": 8303,
  "shui3 shen1 ": 8304,
  "pu3 la1 ": 8305,
  "hu4 bu4 ": 8306,
  "wei3 yuan2 hui4 de ": 8307,
  "30 fen1 ": 8308,
  " ji1 yu2 ": 8309,
  "8   ": 8310,
  "   luo2 ": 8311,
  "ren2 sheng1 ": 8312,
  "gong1 dang3 ": 8313,
  "lai2 wang3 ": 8314,
  "mu3 de ": 8315,
  " kan1 ": 8316,
  " zong3 tong3 ": 8317,
  "ge2 ming4 jun1 ": 8318,
  "   The   ": 8319,
  "jiao1 yi4 suo3 ": 8320,
  "rou": 8321,
  "ant": 8322,
  "zhi4 he2 ": 8323,
  "yu3 lin2 ": 8324,
  "wei2 ye3 na4 ": 8325,
  "lie4 shi4 ": 8326,
  " liu2 yu4 mian4 ji1 ": 8327,
  "ren2 suo3 ": 8328,
  "yi2 ding4 de ": 8329,
  "ya4 ke1 ": 8330,
  "ba1 da2 ": 8331,
  "sha1 mo4 ": 8332,
  "jiu3 ba1 ": 8333,
  "di2 si1 ": 8334,
  " hai3 ba2 ": 8335,
  " fa3 lan2 ": 8336,
  "id   ": 8337,
  " ding3 ": 8338,
  "bu4 lei2 ": 8339,
  "zhi4 li3 ": 8340,
  "ding4 le ": 8341,
  "ci3 shi2 ": 8342,
  "mi4 de ": 8343,
  "da4 xue2 jiao4 shou4 ": 8344,
  " dang1 nian2 ": 8345,
  " ben3 pian4 ": 8346,
  " gen1 ju4 2020 nian2 mei3 guo2 ren2 kou3 pu3 cha2 de shu4 ju4 ": 8347,
  "diao1 xiang4 ": 8348,
  "lan2 te4 ": 8349,
  "feng1 bi4 ": 8350,
  "zeng1 she4 ": 8351,
  " ben3 zhan4 ": 8352,
  " 2   ": 8353,
  " dong4 hua4 ": 8354,
  "zhui1 su4 dao4 ": 8355,
  "wit": 8356,
  "yi3 wang3 ": 8357,
  "hou4 dai4 ": 8358,
  "ma3 shi4 ": 8359,
  "shan1 hu2 ": 8360,
  "kou3 jing4 ": 8361,
  "xuan3 piao4 ": 8362,
  "bo1 li4 ": 8363,
  "ling2 hun2 ": 8364,
  " jian4 yu2 ": 8365,
  "000": 8366,
  " ke3 shi4 ": 8367,
  "a1 er3 bei1 si1 ": 8368,
  " lian2 bang1 ": 8369,
  " ya4 zhou1 ": 8370,
  "te4 lie4 ": 8371,
  " cang2 ": 8372,
  "gong4 feng4 ": 8373,
  "nv3 shen2 ": 8374,
  " gai1 gong1 si1 ": 8375,
  "yan2 jiu1 yuan2 ": 8376,
  "9 ge4 ": 8377,
  " shi3 qi2 ": 8378,
  "1998 nian2 ": 8379,
  " M ": 8380,
  "po1 er3 ": 8381,
  " min3 ": 8382,
  "yu2 shi2 de ren2 kou3 shu4 liang4 wei4 ren2 ": 8383,
  "gua3 ": 8384,
  "li4 ti3 ": 8385,
  "zhi4 cai2 ": 8386,
  "jia1 gong1 ": 8387,
  "ming2 e2 ": 8388,
  "xia4 men2 ": 8389,
  "xiang4 xi1 ": 8390,
  "bo1 chu1 de ": 8391,
  "li2 hun1 ": 8392,
  "ling2 de ": 8393,
  "39 nian2 ": 8394,
  "ao4 duo1 ": 8395,
  "ge2 lei2 ": 8396,
  "dao3 shi1 ": 8397,
  "gu3 ji4 ": 8398,
  "ying3 ping2 ": 8399,
  "gou4 wu4 ": 8400,
  " 158": 8401,
  "shou1 shi4 lv4 ": 8402,
  " yan1 ": 8403,
  "wei4 you2 ": 8404,
  "xin1 qu1 ": 8405,
  "ren4 ding4 ": 8406,
  "bing4 zai4 ": 8407,
  "lian2 dui4 ": 8408,
  " chu2 ci3 zhi1 wai4 ": 8409,
  "de suo3 you3 ": 8410,
  "chu1 ji2 ": 8411,
  "bao3 jia1 li4 ya4 ": 8412,
  "pu3 ji2 ": 8413,
  "su1 da2 ": 8414,
  " xi1 la4 ": 8415,
  "qu3 de2 le ": 8416,
  " tai4 guo2 ": 8417,
  "36 nian2 ": 8418,
  "bu4 yu3 ": 8419,
  "mu4 de ": 8420,
  "29 nian2 ": 8421,
  "ji1 fu3 ": 8422,
  "nan2 si1 la1 fu1 ": 8423,
  "deng3 yu2 ": 8424,
  "zong3 si1 ling4 ": 8425,
  "bing1 chuan1 ": 8426,
  "guo2 jia1 an1 quan2 ": 8427,
  "1996 nian2 ": 8428,
  "yu2 188": 8429,
  "xian4 zai4 de ": 8430,
  "27 nian2 ": 8431,
  "de liang3 ": 8432,
  "   ge4 ": 8433,
  "shi4 xin1 ": 8434,
  "shi3 di4 ": 8435,
  "ke4 che1 ": 8436,
  "dong4 tai4 ": 8437,
  "ban1 bu4 ": 8438,
  "qin1 fan4 ": 8439,
  " zhi4 shao3 ": 8440,
  "bu3 zhu4 ": 8441,
  " nai4 ": 8442,
  "de guan1 dian3 ": 8443,
  "jie4 quan2 guo2 ren2 min2 dai4 biao3 da4 hui4 ": 8444,
  "you3 liang3 ge4 ": 8446,
  "bing4 bu2 shi4 ": 8447,
  "zhou1 ren2 ": 8448,
  "long2 sheng3 ": 8449,
  " yi4 shu4 ": 8450,
  " jie2 zhi4 202": 8451,
  "ba3 ta1 ": 8452,
  "ji2 tuan2 jun1 ": 8453,
  " 1952 nian2 ": 8454,
  "guang3 bo1 gong1 si1 ": 8455,
  "de guan1 fang1 ": 8456,
  "87": 8457,
  "OR": 8458,
  "4 mi3 ": 8459,
  "ani": 8460,
  "   xiao3 ": 8461,
  "   ling4 ": 8462,
  "yi1 suo3 ": 8463,
  "zuo4 wu4 ": 8464,
  "zhe3 wei4 ": 8465,
  "zai1 nan4 ": 8466,
  "zuo4 qu3 jia1 ": 8467,
  "ty   ": 8468,
  "de jie2 guo3 ": 8469,
  "   huo4 ": 8470,
  "   wu1 ke4 lan2 ": 8471,
  " zha1 ": 8472,
  "qi1 kan1 ": 8473,
  "shou3 zhang1 ": 8474,
  "fu2 lu3 ": 8475,
  "bei3 ping2 ": 8476,
  "ment ": 8477,
  "da3 kai1 ": 8478,
  " jin1 shu3 ": 8479,
  "rui4 la1 ": 8480,
  " P ": 8481,
  "chao3 ": 8482,
  "he2 ji2 ": 8483,
  "yi3 zai4 ": 8484,
  "ping1 ": 8485,
  "jiu4 zai4 ": 8486,
  "you4 yi4 ": 8487,
  "shen2 she4 ": 8488,
  "tui1 ce4 ": 8489,
  " zhan4 hou4 ": 8490,
  " ka3 er3 ": 8491,
  "DS": 8492,
  "EN": 8493,
  " niu3 ": 8494,
  "zhi4 zhong1 ": 8495,
  "zuo4 le ": 8496,
  "mu4 shi1 ": 8497,
  "chang2 chun1 ": 8498,
  "jiao1 xiang3 ": 8499,
  "hong2 shui3 ": 8500,
  " bei4 cheng1 wei2 ": 8501,
  " jin4 er2 ": 8502,
  "shi4 yi1 zuo4 ": 8503,
  " reng2 ran2 ": 8504,
  "400 ": 8505,
  " fang4 ": 8506,
  " xie2 zhu4 ": 8507,
  "an4 li4 ": 8508,
  "bu4 xiang2 ": 8509,
  "chu3 jue2 ": 8510,
  " mian4 ji1 0": 8511,
  "duo2 qu3 ": 8512,
  "mou3 zhong3 ": 8513,
  "   wu3 ": 8514,
  "   wei4 le ": 8515,
  "shi2 bei4 ": 8516,
  "gong1 yu4 ": 8517,
  "shi3 zhong1 ": 8518,
  "fa3 xue2 ": 8519,
  "fen1 xiang3 ": 8520,
  "fu2 shi4 ": 8521,
  "ze2 yi3 ": 8522,
  "jin1 tian1 ": 8523,
  "mu3 jian4 ": 8524,
  " lai4 ": 8525,
  " an1 de2 ": 8526,
  "yu2 2006 nian2 ": 8527,
  "dai4 lai2 de ": 8528,
  "xiang1 fan3 ": 8529,
  "shou3 er3 ": 8530,
  "fu2 te4 ": 8531,
  "ding4 yi4 wei4 ": 8532,
  "ti3 xing2 ": 8533,
  "lv4 hua4 ": 8534,
  "huo2 xing4 ": 8535,
  "ku4 er3 ": 8536,
  "ate   ": 8537,
  "ren4 nei4 ": 8538,
  "ping2 ding4 ": 8539,
  "bei3 han2 ": 8540,
  "ge2 lai2 ": 8541,
  "qian1 ming2 ": 8542,
  "xue4 tong3 ": 8543,
  "wei4 zhong1 ": 8544,
  "yi1 fen4 ": 8545,
  "jia1 bin1 ": 8546,
  "xia4 xun2 ": 8547,
  "ze2 bei4 ": 8548,
  "ying1 chao1 ": 8549,
  " dan4 que4 ": 8550,
  "chong2 bai4 ": 8551,
  "hun1 li3 ": 8552,
  "ruo4 gan1 ": 8553,
  "tao3 fa2 ": 8554,
  " jiang3 shu4 ": 8555,
  "huan3 man4 ": 8556,
  " xie3 ": 8557,
  " wang4 ": 8558,
  "he2 she4 hui4 ": 8559,
  "zhan4 qian2 ": 8560,
  "qi4 he2 ": 8561,
  "mo2 fang3 ": 8562,
  "du2 te4 ": 8563,
  "du2 zhe3 ": 8564,
  "zhuan3 cheng2 ": 8565,
  "huan4 xiang3 ": 8566,
  "zang4 yu2 ": 8567,
  " D ": 8568,
  " а": 8569,
  " an4 zhao4 ": 8570,
  " rui4 dian3 ": 8571,
  "26 nian2 ": 8572,
  " xue3 ": 8573,
  "jia2 ": 8574,
  "zai4 nei4 ": 8575,
  "xing4 ge2 ": 8576,
  "fen4 nu4 ": 8577,
  "jing3 qu1 ": 8578,
  " kan3 ": 8579,
  " tong2 shi2 ye3 shi4 ": 8580,
  "zi4 zhu3 ": 8581,
  "che1 ren2 ci4 ": 8582,
  "ru4 le ": 8583,
  "shui3 dao4 ": 8584,
  "ti2 gong1 de ": 8585,
  " ren2 men": 8586,
  " guo2 li4 ": 8587,
  "tian1 wen2 xue2 jia1 ": 8588,
  "sang4 shi1 ": 8589,
  "31 nian2 ": 8590,
  "a1 fu4 han4 ": 8591,
  "   mei3 ": 8592,
  "shi4 da4 ": 8593,
  "wei4 jian4 ": 8594,
  "cheng2 xiang4 ": 8595,
  "ri4 yuan2 ": 8596,
  "ta1 ren2 ": 8597,
  "fen1 qi2 ": 8598,
  "mu4 zhi4 ": 8599,
  "zong3 shu1 ji4 ": 8600,
  "tian1 shi3 ": 8601,
  "wen2 hua4 de ": 8602,
  " zi3 ": 8603,
  " du1 ": 8604,
  "jue2 ce4 ": 8605,
  "ti2 an4 ": 8606,
  "mei3 guo2 zong3 tong3 ": 8607,
  "xun4 xi1 ": 8608,
  "1992 nian2 ": 8609,
  " huo2 dong4 ": 8610,
  "NH": 8611,
  "ma4 ": 8612,
  "shi4 zui4 ": 8613,
  "1900": 8614,
  "ba1 ma3 ": 8615,
  " 1970 nian2 ": 8616,
  " 1975 nian2 ": 8617,
  "shuai4 xian1 ": 8618,
  " chi4 wei3 ": 8619,
  "33 nian2 ": 8620,
  "   fen1 lei4 ": 8621,
  "ji2 ya4 ": 8622,
  "ji4 qiao3 ": 8623,
  "liu2 lang4 ": 8624,
  "ont": 8625,
  "kong4 zhi4 de ": 8626,
  " St": 8627,
  " ren4 he2 ": 8628,
  "guang3 bo1 dian4 tai2 ": 8629,
  "02 ": 8630,
  " wang1 ": 8631,
  "3 ming2 ": 8632,
  "ai4 hao4 ": 8633,
  "zai4 xian4 ": 8634,
  "luo2 xuan2 ": 8635,
  "zhong1 guo2 guo2 min2 dang3 ": 8636,
  " 1941 nian2 ": 8637,
  "fa1 bu4 le ": 8638,
  "   ta1 de ": 8639,
  "xue2 tang2 ": 8640,
  "guan1 shang3 ": 8641,
  "quan2 shi4 jie4 ": 8642,
  "dian4 lu4 ": 8643,
  "nei4 rui4 la1 ": 8644,
  "ming4 yun4 ": 8645,
  "chi4 jing1 ": 8646,
  "32 nian2 ": 8647,
  "34 nian2 ": 8648,
  "di4 yi4 bai3 ": 8649,
  "zhi1 nv3 ": 8650,
  "liu2 de ": 8651,
  "ci3 shi4 ": 8652,
  "tuan2 de ": 8653,
  "78 ": 8654,
  "eli": 8655,
  "shi4   ": 8656,
  "jian4 li4 de ": 8657,
  "ben3 di4 qu1 ": 8658,
  "wei3 chang2 wei3 ": 8659,
  "xiao4 you3 ": 8660,
  "xian1 qian2 ": 8661,
  " yi1 wei4 ": 8662,
  "can1 sai4 zi1 ge2 ": 8663,
  " du2 li4 ": 8664,
  "bu4 shou4 ": 8665,
  "li4 tao2 wan3 ": 8666,
  "ji4 shi4 ": 8667,
  "yan2 de ": 8668,
  "mu4 er2 ": 8669,
  "gong4 shi2 ": 8670,
  "si4 yuan4 ": 8671,
  "chuan2 shu1 ": 8672,
  "ting2 che1 chang3 ": 8673,
  "hang2 xing2 ": 8674,
  " huo4 cheng1 ": 8675,
  "de shi4 jian4 ": 8676,
  "cheng2 gong1 de ": 8677,
  " chang2 qi1 ": 8678,
  "   ka3 ": 8679,
  "ren2 dou1 ": 8680,
  "you3 liang3 ": 8681,
  "jun1 jian4 ": 8682,
  "zhou1 de yi2 ge4 shi4 zhen4 ": 8683,
  " shi4 xing1 deng3 wei4 ": 8684,
  "qi3 tu2 ": 8685,
  "shen1 shi4 ": 8686,
  "ci2 ke4 ": 8687,
  "ha1 de2 ": 8688,
  "wen1 quan2 ": 8689,
  "   n": 8690,
  "wei4 yuan2 ": 8691,
  "zhong1 shi4 ji4 ": 8692,
  "zhou1 mo4 ": 8693,
  "kai1 qi3 ": 8694,
  "de yi1 xiang4 ": 8695,
  "huan2 qiu2 ": 8696,
  " wei4 yu2 gai1 guo2 xi1 bu4 ": 8697,
  "wu2 xian4 dian4 ": 8698,
  "wan2 zheng3 de ": 8699,
  "lu4 de2 ": 8700,
  "jie2 yun4 ": 8701,
  "deng3 de ": 8702,
  "ban1 de ": 8703,
  " he2 zuo4 ": 8704,
  " qiong2 ": 8705,
  "1 mi3 ": 8706,
  "ji1 dong4 ": 8707,
  "ju4 dian3 ": 8708,
  "zhong1 guo2 ren2 min2 ": 8709,
  "luo4 hou4 ": 8710,
  "wa3 duo1 ": 8711,
  " 1954 nian2 ": 8712,
  "1988 nian2 ": 8713,
  " che4 xiao1 ": 8714,
  "68 ": 8715,
  "id ": 8716,
  "son": 8717,
  "zhi1 dui4 ": 8718,
  "dao4 qian4 ": 8719,
  "ming2 ni2 ": 8720,
  "shi3 ta1 ": 8721,
  "shu4 ge4 ": 8722,
  "shu1 fa3 ": 8723,
  "bian1 xing2 ": 8724,
  "ban3 quan2 ": 8725,
  " bu4 lai2 ": 8726,
  "ist": 8727,
  "shao2 ": 8728,
  "   fen1 bu4 ": 8729,
  "zhi1 cheng1 ": 8730,
  "dai4 zhu4 ": 8731,
  "feng1 de ": 8732,
  "tian1 wen2 xue2 ": 8733,
  "ling2 gan3 ": 8734,
  "jin3 jin3 ": 8735,
  " 1939 nian2 ": 8736,
  " qi1 xi1 ": 8737,
  "67 ": 8738,
  " guang3 zhou1 ": 8739,
  "jian4 die2 ": 8740,
  "zhan4 bai4 ": 8741,
  " shi4 xia4 xia2 de yi2 ge4 ": 8742,
  "chuan2 di4 ": 8743,
  "pin2 kun4 ": 8744,
  "min2 zu2 zhu3 yi4 ": 8745,
  "yst": 8746,
  " xi4 tong3 ": 8747,
  "xin1 zang4 ": 8748,
  "xin1 tai2 bi4 ": 8749,
  "fen1 zu3 ": 8750,
  "sheng3 zhang3 ": 8751,
  "zao4 de ": 8752,
  "ne4 sheng3 ": 8753,
  " tuan2 ti3 ": 8754,
  "shou4 hai4 zhe3 ": 8755,
  "yu3 shi4 ": 8756,
  "dui4 you3 ": 8757,
  " shi4 jian4 ": 8758,
  "jian1 guan3 ": 8759,
  "xi2 su2 ": 8760,
  "xin4 yong4 ": 8761,
  "92 ": 8762,
  "xi1 qu1 ": 8763,
  "shi3 jian4 yu2 ": 8764,
  "xia4 tian1 ": 8765,
  "xiang4 nan2 ": 8766,
  "fen1 fen1 ": 8767,
  "na4 sheng3 ": 8768,
  "44": 8769,
  "AL": 8770,
  "de ri4 ben3 ": 8771,
  "xian4 cun2 ": 8772,
  "ge4 di4 de ": 8773,
  " zhe4 zuo4 ": 8774,
  " Al": 8775,
  "sheng1 huo2 zai4 ": 8776,
  " R ": 8777,
  " zhun3 bei4 ": 8778,
  "ool": 8779,
  " li": 8781,
  "   ke1 ": 8782,
  "dao4 fu1 ": 8783,
  "xiang4 dong1 ": 8784,
  "quan2 wei1 ": 8785,
  "qiu2 bi3 sai4 ": 8786,
  "shi1 ti3 ": 8787,
  "hai3 guan1 ": 8788,
  "yang2 zhou1 ": 8789,
  "bian1 zhi4 ": 8790,
  "bian1 xie3 ": 8791,
  "yang4 ben3 ": 8792,
  "guang3 fan4 de ": 8793,
  "CD ": 8794,
  "x   ": 8795,
  "chuo4 ": 8796,
  "si1 sheng3 ": 8797,
  "zhi3 ling4 ": 8798,
  "zhen4 wang2 ": 8799,
  "zu2 zi4 zhi4 ": 8800,
  "gu3 ba1 ": 8801,
  "bian4 shi4 ": 8802,
  "bian4 lun4 ": 8803,
  "luo4 bai4 ": 8804,
  " wei4 yu2 yin2 ": 8805,
  "di4 er4 ge4 ": 8806,
  "tao2 yuan2 ": 8807,
  "xian4 de fei1 jian4 zhi4 di4 qu1 ": 8808,
  " 1944 nian2 ": 8809,
  "lei3 ji1 ": 8810,
  "sou1 suo3 ": 8811,
  "ini": 8812,
  " xian3 ": 8813,
  " shou1 lu4 ": 8814,
  "erv": 8815,
  "xing2 bu4 ": 8816,
  "shou3 ren4 ": 8817,
  " zai4 na4 li3 ": 8818,
  "luo4 te4 ": 8819,
  " chun2 ": 8820,
  "ju2 bu4 ": 8821,
  "ren2 min2 fa3 yuan4 ": 8822,
  " jin4 shi4 ": 8823,
  "   jian3 li4 ": 8824,
  "pang1 ": 8825,
  "shang4 bu4 ": 8826,
  "jin1 gang1 ": 8827,
  "ying3 ye4 ": 8828,
  "ha1 li3 ": 8829,
  "gang1 tie3 ": 8830,
  "sui2 ji1 ": 8831,
  " jie2 shu4 ": 8832,
  "pian1 xiao3 shuo1 ": 8833,
  "00   ": 8834,
  "ming2 cheng1 wei4 ": 8835,
  "las": 8836,
  "shun4 shi2 zhen1 yu3 ": 8837,
  "BS ": 8838,
  "uc": 8839,
  " kong1 ": 8840,
  "de fan3 ": 8841,
  "shi2 san1 nian2 ": 8842,
  "en1 lai2 ": 8843,
  "le liang3 ": 8844,
  "wang3 lai2 ": 8845,
  "hang2 zhan4 lou2 ": 8846,
  "tao2 li2 ": 8847,
  "jia1 ru4 zhong1 guo2 gong4 chan3 dang3 ": 8848,
  " ren2 men ": 8849,
  "de da4 xing2 ": 8850,
  " hong1 ": 8851,
  "shan1 chu2 ": 8852,
  "ying1 wu3 ": 8853,
  "shuo1 shi4 ": 8854,
  "hai2 bao1 kuo4 ": 8855,
  " wei4 yu2 zhong1 guo2 ": 8856,
  " fei1 lv4 bin1 ": 8857,
  "span ": 8858,
  "ji2 xing2 zheng4 dan1 wei4 ": 8859,
  "jiao4 xiao3 ": 8860,
  "che1 de ": 8861,
  "shan1 kou3 ": 8862,
  " dui4 ci3 ": 8863,
  " 1940 nian2 ": 8864,
  "an1 da3 ": 8865,
  "bu4 liang2 ": 8866,
  "zhi1 lu4 ": 8867,
  "hua4 he2 ": 8868,
  "qian1 wang3 ": 8869,
  "xiang3 you3 ": 8870,
  "reng2 wei4 ": 8871,
  "quan2 guo2 zhong4 dian3 wen2 wu4 bao3 hu4 dan1 wei4 ": 8872,
  " guan1 zhuang4 bing4 du2 ": 8873,
  " ke4 li3 si1 ": 8874,
  "xue2 shi4 xue2 wei4 ": 8875,
  "ge4 xiang4 ": 8876,
  "jun1 fang1 ": 8877,
  "ye3 mei2 you3 ": 8878,
  "huo4 qi2 ta1 ": 8879,
  " yi4 qi3 ": 8880,
  "diao4 yu2 ": 8881,
  "shou4 dao4 le ": 8882,
  " chong2 qing4 ": 8883,
  "yi4 shi2 dao4 ": 8884,
  " tui1 chu1 ": 8885,
  "ke4 luo2 di4 ya4 ": 8886,
  "ed ": 8887,
  "zhi4 li4 yu2 ": 8888,
  "zhi1 li3 ": 8889,
  "ge2 si1 ": 8890,
  "bian1 qu1 ": 8891,
  "sheng4 dan4 ": 8892,
  "zheng4 zhi4 ju2 ": 8893,
  "hen3 da4 de ": 8894,
  "fei2 te4 lie4 ": 8895,
  " er3 ": 8897,
  "   jing1 li4 ": 8898,
  "fang1 xing2 ": 8899,
  "jing1 ti3 ": 8900,
  "jie1 tou2 ": 8901,
  " qi2 B": 8902,
  "ci2 ji1 ": 8903,
  " dang1 xuan3 ": 8904,
  "de shi4 qing2 ": 8905,
  "pei2 chang2 ": 8906,
  "   che1 zhan4 gou4 zao4 ": 8907,
  " hen3 duo1 ": 8908,
  " yin2 wei3 ": 8909,
  "57 ": 8910,
  "83 ": 8911,
  "de jue2 dui4 ": 8912,
  "   sha1 ": 8913,
  "   guo2 ji4 ": 8914,
  "er2 wen2 ming2 ": 8915,
  "tong2 shi4 ": 8916,
  "qin1 lve4 ": 8917,
  " mei3 zhou1 ": 8918,
  "sis ": 8919,
  "chao1 ji2 lian2 sai4 ": 8920,
  "IV": 8921,
  "ji2 ju4 ": 8922,
  "da4 pi1 ": 8923,
  "ta1 dui4 ": 8924,
  "0 zuo4 biao1 wei4 ": 8925,
  "qiu2 de ": 8926,
  "bei3 bu4 de ": 8927,
  " dan4 shi4 zai4 ": 8928,
  "zu2 zi4 zhi4 qu1 ": 8929,
  "gui1 ge2 ": 8930,
  " 1942 nian2 ": 8931,
  " wei4 yu2 yin2 jing1 ": 8932,
  " qi2 B1900": 8933,
  "0 zuo4 biao1 wei4 chi4 jing1 ": 8934,
  "86": 8935,
  "Al": 8936,
  "af": 8937,
  "2 li4 ": 8938,
  "yi3 ci3 ": 8939,
  "ri4 de ": 8940,
  "zui4 zhong4 yao4 de ": 8941,
  "bao4 fu4 ": 8942,
  "zheng1 lun4 ": 8943,
  " di4 wu3 ": 8944,
  "．": 8945,
  "shao3 shu4 min2 zu2 ": 8946,
  " qing1 chao2 zheng4 zhi4 ren2 wu4 ": 8947,
  "beng4 ": 8948,
  "oy": 8949,
  "sheng1 yu4 ": 8950,
  "kai1 bo1 ": 8951,
  "wang3 min2 ": 8952,
  "yong3 yuan3 ": 8953,
  "wo4 er3 ": 8954,
  "pao4 bing1 ": 8955,
  "geng1 gai3 ": 8956,
  "duan1 de ": 8957,
  "zu3 cheng2 bu4 fen4 ": 8958,
  " 1960 nian2 ": 8959,
  " ン": 8960,
  "   zheng1 yi4 ": 8961,
  "da4 yu2 ": 8962,
  "lu4 shi4 ": 8963,
  "can1 yan3 ": 8964,
  "da3 bai4 ": 8965,
  "qi2 ta1 de ": 8966,
  "bu3 ji3 ": 8967,
  " shi3 jian4 yu2 ": 8968,
  " ceng2 zai4 ": 8969,
  "87 ": 8970,
  " yang3 ": 8971,
  "zhou1 kan1 ": 8972,
  "gu3 wu1 ": 8973,
  "fang2 xian4 ": 8974,
  " di4 xia4 ": 8975,
  "gong1 zuo4 zhe3 ": 8976,
  " bo1 chu1 ": 8977,
  "pu3 lu3 shi4 ": 8978,
  "ry   ": 8979,
  "nian2 qian2 ": 8980,
  "shi2 hui4 ": 8981,
  "de2 piao4 ": 8982,
  "ping2 shen3 ": 8983,
  "zhu4 di4 ": 8984,
  "jiao4 da4 de ": 8985,
  "ci4 de ": 8986,
  "si4 miao4 ": 8987,
  "geng4 gao1 ": 8988,
  "geng4 da4 de ": 8989,
  " lou2 ": 8990,
  "le4 yuan2 ": 8991,
  "kuang4 wu4 ": 8992,
  "jun1 shi4 tan3 ": 8993,
  " 1968 nian2 ": 8994,
  "96": 8995,
  " lei4 ": 8996,
  "   yin1 yue4 ": 8997,
  "wei4 zhi1 ": 8998,
  "you3 duo1 ": 8999,
  "chu1 tu3 ": 9000,
  "xiao3 ping2 ": 9001,
  "bian1 ru4 ": 9002,
  "fang2 shou3 ": 9003,
  "guo2 jia1 zu2 qiu2 dui4 ": 9004,
  "fan2 mang2 ": 9005,
  " 1935 nian2 ": 9006,
  " ti3 yu4 ": 9007,
  "mei3 shu4 guan3 ": 9008,
  "da4 jiang3 sai4 ": 9009,
  "bo1 shi4 dun4 ": 9010,
  "ren2 zhi4 ": 9012,
  "ji2 xian4 ": 9013,
  "zhen4 ying2 ": 9014,
  "zhuan3 bo1 ": 9015,
  "ying1 guo2 de ": 9016,
  "duan3 pian4 ": 9017,
  "gong1 bu4 wei4 ": 9018,
  "mo2 te4 er2 ": 9019,
  "CT": 9020,
  "at ": 9021,
  "de zheng4 ": 9022,
  "he2 di4 ": 9023,
  "ren2 cheng1 ": 9024,
  "yi4 zhang3 ": 9025,
  "er3 ci2 ": 9026,
  "nan2 bu4 de ": 9027,
  "ba1 bu4 ": 9028,
  "du2 shu1 ": 9029,
  " ma2 ": 9030,
  " E ": 9031,
  " 1966 nian2 ": 9032,
  "zhuan3 yi2 dao4 ": 9033,
  "ji1 qi4 ren2 ": 9034,
  "88 ": 9035,
  "PS": 9036,
  "de sheng1 huo2 ": 9037,
  "shi4 pai2 ": 9038,
  "qin3 ": 9039,
  "he2 kou3 ": 9040,
  "ren4 tian1 tang2 ": 9041,
  "shu4 zhi2 ": 9042,
  "duo1 fu1 ": 9043,
  "zhi3 biao1 ": 9044,
  "zhen1 zheng4 de ": 9045,
  "tu3 rang3 ": 9046,
  "xue4 guan3 ": 9047,
  "76 ": 9048,
  " gong1 zuo4 ": 9049,
  "   h": 9050,
  "jian4 zheng4 ": 9051,
  "dui4 bi3 ": 9052,
  "gao1 di4 ": 9053,
  "jiao1 fu4 ": 9054,
  "dian3 xing2 de ": 9055,
  "shi2 jian1 nei4 ": 9056,
  " yin1 ci3 zai4 ": 9057,
  "zhi4 zao4 shang1 ": 9058,
  "qiang3 po4 ": 9059,
  "ming2 xian3 de ": 9060,
  " shi2 ji4 shang4 ": 9061,
  "gu3 lao3 de ": 9062,
  "ts ": 9063,
  "shi2 chang2 ": 9064,
  "ren2 zhi1 ": 9065,
  "li4 wei3 ": 9066,
  "xin1 sheng1 ": 9067,
  "fa1 yin1 ": 9068,
  "qian2 fang1 ": 9069,
  " sen1 ": 9070,
  "jie1 shi4 ": 9071,
  "mi4 su1 li3 ": 9072,
  " jiang1 xi1 ": 9073,
  "ning2 tu3 ": 9074,
  "dang4 de ": 9075,
  " 000 ming2 ": 9076,
  "xiang1 zhen4 ji2 xing2 zheng4 dan1 wei4 ": 9077,
  " shao1 ": 9078,
  "he2   ": 9079,
  "ers ": 9080,
  "bu4 si1 ": 9081,
  "bu4 bei4 ": 9082,
  "shi3 guan3 ": 9083,
  "yue1 se4 fu1 ": 9084,
  "5 ming2 ": 9085,
  "jing3 yuan2 ": 9086,
  "zhen1 ren2 ": 9087,
  "e   of": 9088,
  " fen1 bu4 zai4 ": 9089,
  "   an1 ": 9090,
  "   zhong1 hua2 ren2 min2 gong4 he2 guo2 ": 9091,
  "shi2 si4 nian2 ": 9092,
  "yi4 wu4 ": 9093,
  "chang3 shang1 ": 9094,
  "san1 wei4 ": 9095,
  "ju1 bu3 ": 9096,
  "xun2 fu3 ": 9097,
  " xian4 shi2 you2 ": 9098,
  "ling3 shi4 guan3 ": 9099,
  "ES": 9100,
  "   11 yue4 ": 9101,
  "yi1 er3 ": 9102,
  "zuo4 shi4 ": 9103,
  "shi3 qi2 ": 9104,
  "suo3 wei4 de ": 9105,
  "jie2 shi2 ": 9106,
  "hai3 shi4 ": 9107,
  " di4 fang1 ": 9108,
  "xun2 yan3 ": 9109,
  "you2 xi4 zhong1 ": 9110,
  "xuan1 bu4 jiang1 ": 9111,
  "duo2 guan4 ": 9112,
  "shan1 mai4 de yi1 bu4 fen4 ": 9113,
  "xin1 guan1 fei4 yan2 que4 zhen3 bing4 li4 ": 9114,
  "   ao4 ": 9115,
  "yi1 fang1 ": 9116,
  "er2 fei1 ": 9117,
  "bei3 lu4 ": 9118,
  "ceng2 you3 ": 9119,
  "han4 guo2 ": 9120,
  "zhuan1 li4 ": 9121,
  "nong2 du4 ": 9122,
  "gan1 yu4 ": 9123,
  " jie1 zhu4 ": 9124,
  "1 ming2 ": 9125,
  "   zhi2 ": 9126,
  "zai4 shang4 hai3 ": 9127,
  "shi2 wu3 nian2 ": 9128,
  "yi1 zhang1 ": 9129,
  " tan3 ": 9130,
  "xiang4 ji1 ": 9131,
  "jian3 ruo4 ": 9132,
  "ban3 ben3 de ": 9133,
  "rin": 9134,
  "ter ": 9135,
  "zhi4 an1 ": 9136,
  "zhan4 you3 ": 9137,
  "wang3 you3 ": 9138,
  "ard ": 9139,
  "ting1 dao4 ": 9140,
  "geng4 shi4 ": 9141,
  " ru2 jin1 ": 9142,
  " An": 9143,
  "gui3 dao4 jiao1 tong1 ": 9144,
  "24 xiao3 shi2 ": 9145,
  " qiao2 zhi4 ": 9146,
  "shi2 yue4 ": 9147,
  "zui4 jin4 de ": 9148,
  "gao1 feng1 ": 9149,
  "dong1 lu4 ": 9150,
  "jie4 shi2 ": 9151,
  "pu3 zhai4 ": 9152,
  "luo4 yi1 ": 9153,
  " nan2 bei3 ": 9154,
  " 1959 nian2 ": 9155,
  " HR   ": 9156,
  "tun2 men2 ": 9157,
  "tiao2 yue1 ti3 xi4 ": 9158,
  "pen2 di4 ": 9159,
  "an1 xian4 ": 9160,
  "cheng2 zhong1 ": 9161,
  "yi4 bei4 ": 9162,
  "jiao1 dian3 ": 9163,
  "huan2 rao4 ": 9164,
  "ta3 ji1 ": 9165,
  " zhi3 neng2 ": 9166,
  "wan3 jian1 ": 9167,
  "yuan3 zheng1 ": 9168,
  "1997 nian2 ": 9169,
  " ai4 er3 ": 9170,
  "wen3 ding4 de ": 9171,
  "li4 fa3 wei3 yuan2 ": 9172,
  "jiang4 yu3 liang4 ": 9173,
  " xiu4 ": 9174,
  "guo2 ji2 ": 9175,
  "zhi4 196": 9176,
  "da4 jun1 ": 9177,
  "hui4 mian4 ": 9178,
  "sheng1 zai4 ": 9179,
  "ta1 bei4 ": 9180,
  "han4 bao3 ": 9181,
  "xue2 yuan4 de ": 9182,
  "pa4 er3 ": 9183,
  "fang1 xiang4 de ": 9184,
  " jiao1 tong1 ": 9185,
  "omi": 9186,
  " qiang1 ": 9187,
  " zhang4 ": 9188,
  "fa1 de ": 9189,
  "yu4 fang2 ": 9190,
  "wu2 xu1 ": 9191,
  "shuo1 fu2 ": 9192,
  "bai4 zhan4 ting2 ": 9193,
  "zhan4 yi4 zhong1 ": 9194,
  " chao2 ting2 ": 9195,
  " liu3 ": 9196,
  "an4 shi4 ": 9197,
  "zhan4 qu1 ": 9198,
  "ju4 he2 ": 9199,
  "lin2 chuang2 ": 9200,
  "gai3 zu3 ": 9201,
  "pei4 yue4 ": 9202,
  "de hai3 ": 9203,
  "de quan2 li4 ": 9204,
  "yi1 jian1 ": 9205,
  "ji4 you3 ": 9206,
  "dian4 ya1 ": 9207,
  "ke3 yong4 ": 9208,
  "jiu4 ren4 ": 9209,
  "10 ge4 ": 9210,
  "nan2 ji2 tiao2 yue1 ti3 xi4 ": 9211,
  "de zuo4 biao1 wei4 ": 9212,
  "zheng4 wei3 ": 9213,
  "gao1 shan1 ": 9214,
  "dan1 dang1 ": 9215,
  "ci3 lei4 ": 9216,
  "bo2 er3 ": 9217,
  "ying2 yang3 ": 9218,
  "jian3 yan4 ": 9219,
  "shi4 jie4 yi2 chan3 ": 9220,
  "jia3 ban3 ": 9221,
  "hun4 ning2 tu3 ": 9222,
  "   1999 nian2 ": 9223,
  "kun1 ming2 ": 9224,
  "si1 ling4 yuan2 ": 9225,
  " fan3 ying4 ": 9226,
  "zhong1 yuan2 ": 9227,
  "hou4 cai2 ": 9228,
  "xi1 xian4 ": 9229,
  "ge4 ji2 ": 9230,
  "you2 lai2 ": 9231,
  "shang4 ren4 ": 9232,
  "de2 lei1 ": 9233,
  "wu4 pu3 ": 9234,
  "fa3 gui1 ": 9235,
  "te4 ji2 ": 9236,
  "te4 lang3 pu3 ": 9237,
  "ti3 ji1 ": 9238,
  "ba1 li3 ": 9239,
  "tan2 he2 ": 9240,
  " 1953 nian2 ": 9241,
  " 1972 nian2 ": 9242,
  " 1976 nian2 ": 9243,
  " tang2 chao2 ": 9244,
  "huan2 xing2 shan1 ": 9245,
  "gen3 di4 ": 9246,
  "de xian4 ": 9247,
  "de ge1 qu3 ": 9248,
  "ping2 xing2 ": 9249,
  "fen1 de ": 9250,
  "dian3 xing2 ": 9251,
  "sheng4 di4 ": 9252,
  "se4 qing2 ": 9253,
  "gang3 tie3 ": 9254,
  "guo2 jia1 ji2 ": 9255,
  "meng4 xiang3 ": 9256,
  " 179": 9257,
  "yuan2 wai4 lang2 ": 9258,
  "la2 ": 9259,
  " hui4 yi4 ": 9260,
  " bing3 ": 9261,
  "   de": 9262,
  "hui4 yi3 ": 9263,
  "jing1 ling2 ": 9264,
  "e   B": 9265,
  "zui4 gao1 fa3 yuan4 ": 9266,
  "zui4 hou4 yi1 ci4 ": 9267,
  "cai3 yong4 le ": 9268,
  " nu3 ": 9269,
  "ruan3 tiao2 ": 9270,
  " 164": 9271,
  "fei1 xing2 yuan2 ": 9272,
  " guang3 xi1 ": 9273,
  "UN": 9274,
  " xiang1 guan1 ": 9275,
  "di4 an1 ": 9276,
  "li4 xian4 ": 9277,
  "dai4 xie4 ": 9278,
  "mei3 de ": 9279,
  "fen1 kai1 ": 9280,
  "ma3 chang3 ": 9281,
  "ya4 li4 ": 9282,
  "sai4 guan4 jun1 ": 9283,
  "zhe3 he2 ": 9284,
  "fu3 bai4 ": 9285,
  "tong1 xing2 ": 9286,
  "wei3 ren4 ": 9287,
  "jie3 mei4 ": 9288,
  "nuo4 bei4 er3 ": 9289,
  "xing2 zheng4 zhang3 guan1 ": 9290,
  "zen3 ": 9291,
  " kui2 ": 9292,
  " qiang2 diao4 ": 9293,
  "gong1 ru4 ": 9294,
  "gong1 ting2 ": 9295,
  "shi3 jian4 ": 9296,
  "qian1 ru4 ": 9297,
  "org": 9298,
  " T ": 9299,
  "guo2 min2 ge2 ming4 jun1 ": 9300,
  "zai4 jia1 ": 9302,
  "bu4 xia4 ": 9303,
  " da1 ": 9304,
  "shou3 hu4 ": 9305,
  "zui4 chu1 de ": 9306,
  "bo1 te4 ": 9307,
  "xian1 jin4 ": 9308,
  "xiang1 gang3 de ": 9309,
  "gu4 zhang4 ": 9310,
  "huo3 li4 ": 9311,
  "di4 san1 ci4 ": 9312,
  "nan2 ji2 tiao2 yue1 ti3 xi4 guan3 li3 ": 9313,
  "04 ": 9314,
  " xiang2 ": 9315,
  " zeng1 jia1 ": 9316,
  " neng2 gou4 ": 9317,
  "   pu3 ": 9318,
  "guo4 hou4 ": 9319,
  "ke1 xiao3 xing2 xing1 ": 9320,
  "tai2 de ": 9321,
  "yun4 song4 ": 9322,
  "na4 he2 ": 9323,
  " zhe4 shi2 ": 9324,
  "sha1 ni2 ya4 ": 9325,
  " fen1 wei2 ": 9326,
  "1994 nian2 ": 9327,
  " 1977 nian2 ": 9328,
  " J ": 9329,
  "ji4 cheng2 ren2 ": 9330,
  "   zhi2 ye4 sheng1 ya2 ": 9331,
  "shi2 liu4 nian2 ": 9332,
  "yi1 wan4 ": 9333,
  "jia1 shu3 ": 9334,
  " shi4 zai4 ": 9335,
  "zhen4 de ": 9336,
  "shui3 shang4 ": 9337,
  "zhuan1 qu1 ": 9338,
  " 1943 nian2 ": 9339,
  "miao4 yu3 ": 9340,
  "sai1 bai4 jiang1 ": 9341,
  "bu": 9342,
  "ren2 li4 ": 9343,
  "shi3 zhe3 ": 9344,
  "shi1 zhang3 ": 9345,
  "qi3 chu1 ": 9346,
  "lie4 si1 ": 9347,
  "zhan3 chu1 ": 9348,
  "184": 9349,
  "kao3 ru4 ": 9350,
  " shi3 mi4 si1 ": 9351,
  "xue2 xiao4 de ": 9352,
  " ping2 cheng2 ": 9353,
  "sun3 hai4 ": 9354,
  "da1 zai4 ": 9355,
  " guan1 zhuang4 bing4 du2 bing4 ": 9356,
  "nc": 9357,
  "jian4 jian4 ": 9358,
  "le zai4 ": 9359,
  "nan2 zhu3 jue2 ": 9360,
  "qi1 yue4 ": 9361,
  "xiao4 de ": 9362,
  "bo2 la1 ": 9363,
  "ji3 nei4 ya4 ": 9364,
  "cai2 ding4 ": 9365,
  "185": 9366,
  "xun2 wen4 ": 9367,
  "fang3 zhi1 ": 9368,
  "fen1 bie2 shi4 ": 9369,
  "  shi4 ": 9370,
  "an1 fu3 ": 9371,
  "bu4 yi1 ": 9372,
  "ben3 pian4 ": 9373,
  " bing4 you3 ": 9374,
  "kou3 hao4 ": 9375,
  "feng1 mian4 ": 9376,
  " er2 hou4 ": 9377,
  "jiao1 zhan4 ": 9378,
  "ding1 mu4 ": 9379,
  " 1964 nian2 ": 9380,
  "qu1 yi4 hui4 xuan3 ju3 ": 9381,
  "ET": 9382,
  "as ": 9383,
  "ren": 9384,
  "   mu4 ": 9385,
  "   dian4 ying3 ": 9386,
  "da4 lin2 ": 9387,
  "zhu4 zhong4 ": 9388,
  "hai3 nan2 ": 9389,
  "er4 ci4 ": 9390,
  "ba1 si1 ": 9391,
  "fang2 wei4 ": 9392,
  "9 ping2 fang1 gong1 li3 ": 9393,
  "gan1 rao3 ": 9394,
  " 159": 9395,
  "ts   ": 9396,
  " fu2 wu4 ": 9397,
  " min2 zhu3 ": 9398,
  " chuan2 tong3 ": 9399,
  "he2 yu3 ": 9400,
  "yuan2 lai2 ": 9401,
  "da4 ting1 ": 9402,
  "dian4 xin4 ": 9403,
  "te4 li4 ": 9404,
  "ba1 sai1 er3 ": 9405,
  "chuan2 jiao4 ": 9406,
  " zhuan4 ": 9407,
  "er4 shi2 nian2 ": 9408,
  "cha1 ju4 ": 9409,
  " 156": 9410,
  "dong3 shi4 hui4 ": 9411,
  "yi1 li4 nuo4 ": 9412,
  "qi2 shi2 ": 9413,
  "you2 zheng4 ": 9414,
  "yu4 qi1 ": 9415,
  " ba4 ": 9416,
  "si4 wei4 ": 9417,
  "bao3 yu4 ": 9418,
  " zhe4 li3 ": 9419,
  "shen2 fu4 ": 9420,
  " Sh": 9421,
  "cun2 zai4 yu2 ": 9422,
  "min3 gan3 ": 9423,
  "xian4 dai4 hua4 ": 9424,
  "cheng2 du4 shang4 ": 9425,
  " ying2 de2 ": 9426,
  "   she4 hui4 ": 9427,
  "lin4 ": 9428,
  "lai2 wu4 ": 9429,
  "jin4 zhan3 ": 9430,
  "orl": 9431,
  "hao2 wu2 ": 9432,
  "86 ": 9433,
  "  M": 9434,
  "zhong1 ye3 ": 9435,
  "zhe4 xiang4 ": 9436,
  "xu4 ji2 ": 9437,
  "di4 shi2 san1 ": 9438,
  "tai4 yang2 gong1 ": 9439,
  "ad   ": 9440,
  "ra ": 9441,
  " fa1 sheng1 ": 9442,
  "zhong1 li4 ": 9443,
  " shi4 zhong1 hua2 ren2 min2 gong4 he2 guo2 ": 9444,
  "jie4 you2 ": 9445,
  "yue1 ke4 ": 9446,
  "ment   ": 9447,
  "nv3 ren2 ": 9448,
  "tai2 wan1 de ": 9449,
  " sui2 ji2 ": 9450,
  "xiang1 dang1 yu2 ": 9451,
  "da1 pei4 ": 9452,
  "can4 ": 9453,
  " ying4 ": 9454,
  "1 jia1 ": 9455,
  "ren2 wen2 ": 9456,
  "dai4 kuan3 ": 9457,
  "mian4 qian2 ": 9458,
  "gong4 xiang3 ": 9459,
  "shen2 de ": 9460,
  "duan4 de ": 9461,
  "bao1 kuo4 yi3 xia4 ": 9462,
  " jie1 wei4 ": 9463,
  " gai3 bian1 ": 9464,
  "mou3 ge4 ": 9465,
  "GB": 9466,
  "ly   ": 9467,
  " qu3 dai4 ": 9468,
  "   m": 9469,
  "   xiang1 guan1 ": 9470,
  "guo2 hui4 yi4 yuan2 ": 9471,
  "chu1 zi4 ": 9472,
  "zhi2 ren2 yuan2 ": 9473,
  "ke1 li4 ": 9474,
  "jiao1 qu1 ": 9475,
  "pu3 lei1 ": 9476,
  "jiang3 de ": 9477,
  "jian3 cheng1 ": 9478,
  "zhen1 si4 ": 9479,
  "yu2 2005 nian2 ": 9480,
  "os ": 9481,
  "sti": 9482,
  "an4 sha1 ": 9483,
  "qie2 ": 9484,
  "yu2 lun4 ": 9485,
  "yuan2 sheng1 ": 9486,
  "jian4 ting3 ": 9487,
  "xin1 cheng2 ": 9488,
  "she4 shi4 ": 9489,
  "shou3 pi1 ": 9490,
  "zui4 xiao3 ": 9491,
  "qi4 guan1 ": 9492,
  "jiu4 ye4 ": 9493,
  "wei1 ni2 si1 ": 9494,
  " he2 bing4 ": 9495,
  "de yi1 jia1 ": 9496,
  "zheng4 zhi4 jia1 ": 9497,
  " zhi2 ye4 ": 9498,
  "03 ": 9499,
  "wei4 jing1 ": 9500,
  "ren2 ren4 wei2 ": 9501,
  "jun1 bei4 ": 9502,
  "hu4 zhao4 ": 9503,
  "shuo1 de ": 9504,
  " di4 yi1 ci4 ": 9505,
  "huan2 bao3 ": 9506,
  "bu3 ru3 ": 9507,
  "zhan4 zheng1 de ": 9508,
  " ba1 li2 ": 9509,
  "pao4 ta3 ": 9510,
  "de he2 xin1 ": 9511,
  "pin4 qing3 ": 9512,
  "ban1 jiang3 dian3 li3 ": 9513,
  " ying3 xiang3 ": 9514,
  "   min2 guo2 ": 9515,
  "gong1 ping2 ": 9516,
  "you3 li4 ": 9517,
  "jia1 ju4 ": 9518,
  "hou4 bu4 jiu3 ": 9519,
  "hui4 zhi4 ": 9520,
  "zhan4 dui4 ": 9521,
  "fu4 mian4 ": 9522,
  "dai4 dao4 ": 9523,
  " ta1 dui4 ": 9524,
  "que4 shi2 ": 9525,
  "bai2 ren2 ": 9526,
  "a   S": 9527,
  " zong3 bu4 ": 9528,
  "suan1 yan2 ": 9529,
  " hua2 sheng4 dun4 ": 9530,
  "lian2 xu4 ju4 ": 9531,
  "enter ": 9532,
  " su2 cheng1 ": 9533,
  "ale": 9534,
  "ei": 9535,
  " biao3 ": 9536,
  "   shang4 ": 9537,
  "fa3 ding4 ": 9538,
  "shou3 fa3 ": 9539,
  "zi he2 ": 9540,
  "ban4 lv3 ": 9541,
  "fan3 ji1 ": 9542,
  "fan4 dian4 ": 9543,
  "zhu1 duo1 ": 9544,
  "fan2 rong2 ": 9545,
  " 1951 nian2 ": 9546,
  "   1945 nian2 ": 9547,
  "zong4 dui4 ": 9548,
  "43": 9549,
  "ren2 wei2 ": 9550,
  "guan1 yin1 ": 9551,
  "shou3 ying4 ": 9552,
  "ding4 lv4 ": 9553,
[...]
