{
  "!": 0,
  "\"": 1,
  "#": 2,
  "$": 3,
  "%": 4,
  "&": 5,
  "'": 6,
  "(": 7,
  ")": 8,
  "*": 9,
  "+": 10,
  ",": 11,
  "-": 12,
  ".": 13,
  "/": 14,
  "0": 15,
  "1": 16,
  "2": 17,
  "3": 18,
  "4": 19,
  "5": 20,
  "6": 21,
  "7": 22,
  "8": 23,
  "9": 24,
  ":": 25,
  ";": 26,
  "=": 27,
  "?": 28,
  "@": 29,
  "A": 30,
  "B": 31,
  "C": 32,
  "D": 33,
  "E": 34,
  "F": 35,
  "G": 36,
  "H": 37,
  "I": 38,
  "J": 39,
  "K": 40,
  "L": 41,
  "M": 42,
  "N": 43,
  "O": 44,
  "P": 45,
  "Q": 46,
  "R": 47,
  "S": 48,
  "T": 49,
  "U": 50,
  "V": 51,
  "W": 52,
  "X": 53,
  "Y": 54,
  "Z": 55,
  "[": 56,
  "\\": 57,
  "]": 58,
  "^": 59,
  "_": 60,
  "`": 61,
  "a": 62,
  "b": 63,
  "c": 64,
  "d": 65,
  "e": 66,
  "f": 67,
  "g": 68,
  "h": 69,
  "i": 70,
  "j": 71,
  "k": 72,
  "l": 73,
  "m": 74,
  "n": 75,
  "o": 76,
  "p": 77,
  "q": 78,
  "r": 79,
  "s": 80,
  "t": 81,
  "u": 82,
  "v": 83,
  "w": 84,
  "x": 85,
  "y": 86,
  "z": 87,
  "|": 88,
  "~": 89,
  "\n": 162,
  " ": 163,
  "": 164,
  "�": 181,
  "n ": 199,
  "ng": 200,
  "ng ": 201,
  "h�": 202,
  "à": 203,
  "i ": 205,
  "ā": 206,
  "u�": 207,
  " y": 208,
  "ī": 209,
  " z": 210,
  " d": 211,
  " s": 212,
  "ǎ": 213,
  "á": 214,
  "è": 215,
  "ì ": 216,
  "í": 217,
  "ù": 218,
  "  ": 219,
  "é": 220,
  " j": 221,
  "ǐ": 222,
  "ō": 223,
  " l": 224,
  " x": 225,
  "ià": 226,
  "ē": 227,
  "án ": 228,
  "hì ": 229,
  " g": 230,
  "ě": 231,
  " b": 232,
  "ǔ": 233,
  " c": 234,
  "ú": 235,
  "ān ": 236,
  "ài ": 237,
  "ū": 238,
  "ōng ": 239,
  "ǒ": 240,
  " zh": 241,
  " t": 242,
  " n": 244,
  " w": 245,
  "èi ": 246,
  "ián ": 247,
  "hé": 248,
  " m": 249,
  " q": 250,
  "iàn ": 251,
  "zh": 252,
  "āng ": 253,
  "íng ": 254,
  " f": 255,
  "de": 256,
  "ì": 257,
  " r": 258,
  "ǎn ": 259,
  " de": 260,
  " sh": 261,
  "ó": 262,
  "uá": 263,
  "hè": 264,
  " ji": 265,
  "àn ": 266,
  "uì ": 267,
  "ò": 268,
  "ǎng ": 269,
  "hà": 270,
  "sh": 271,
  "hí": 272,
  "uò": 273,
  " nián ": 274,
  "én ": 275,
  " shì ": 276,
  "uán ": 277,
  " h": 278,
  "ǒu": 279,
  "ào": 280,
  "ìng ": 281,
  "uó": 282,
  "ji": 283,
  " k": 284,
  "ǎo": 285,
  "、": 286,
  "ēng ": 287,
  "īn ": 288,
  "shì ": 289,
  "īng ": 290,
  " 1": 291,
  "hò": 292,
  " ch": 293,
  "òng ": 294,
  "āo": 295,
  "hù": 296,
  "ch": 297,
  "uè": 298,
  " p": 299,
  "héng ": 300,
  " xi": 301,
  "   ": 302,
  "ái ": 303,
  "éi ": 304,
  "hòu": 305,
  "ěi ": 306,
  "há": 307,
  "ēn ": 308,
  "óng ": 309,
  "áng ": 310,
  " zài ": 311,
  "ù ": 312,
  "ué": 313,
  "ōu": 314,
  " wèi ": 315,
  "20": 316,
  "ǐ ": 317,
  "óu": 318,
  "āi ": 319,
  "hèng ": 320,
  "uān ": 321,
  " yuè": 322,
  "ūn ": 323,
  "iào": 324,
  "wèi ": 325,
  "guó": 326,
  "ī ": 327,
  "èn ": 328,
  "ǒng ": 329,
  "ín ": 330,
  " rén ": 331,
  " zhōng ": 332,
  "xi": 333,
  "ǎi ": 334,
  "éng ": 335,
  "hàn ": 336,
  "uà": 337,
  "uǎn ": 338,
  " dì ": 339,
  "hàng ": 340,
  " lì ": 341,
  " yǐ": 342,
  "iàng ": 343,
  "ìn ": 344,
  " bù": 345,
  "shí": 346,
  "zài ": 347,
  "yú": 348,
  "ěng ": 349,
  " shí": 350,
  "zhōng ": 351,
  " rì ": 352,
  "uō": 353,
  " yī": 354,
  "uàn ": 355,
  "iān ": 356,
  " jí": 357,
  " yú": 358,
  "uǒ": 359,
  "zhì ": 360,
  "iú": 361,
  " tā": 362,
  " hé": 363,
  "ěn ": 364,
  "dì ": 365,
  "yuán ": 366,
  "ùn ": 367,
  " chéng ": 368,
  "bù": 369,
  " yì ": 370,
  " gōng ": 371,
  " dà": 372,
  " gè": 373,
  "ēi ": 374,
  " xiàn ": 375,
  "ǐng ": 376,
  " 19": 377,
  "ěr": 378,
  "áo": 379,
  "yī": 380,
  "chéng ": 381,
  " yǒu": 382,
  "yǒu": 383,
  " zhì ": 384,
  "gōng ": 385,
  "yì ": 386,
  " jiā": 387,
  " jì ": 388,
  " qí": 389,
  "lì ": 390,
  "ér": 391,
  "rén ": 392,
  " dào": 393,
  " yǔ": 394,
  " guó": 395,
  "ū ": 396,
  " xíng ": 397,
  "wéi ": 398,
  "òu": 399,
  " xué": 400,
  "dà": 401,
  "jí": 402,
  " sī": 403,
  " yuè ": 404,
  "》": 405,
  "《": 406,
  "·": 407,
  "è ": 408,
  "àng ": 409,
  " míng ": 410,
  "jì ": 411,
  " li": 412,
  " shēng ": 413,
  " 20": 414,
  "háng ": 415,
  "uī": 416,
  " huì ": 417,
  " dé": 418,
  "ǔ ": 419,
  "le": 420,
  " bìng ": 421,
  " yóu": 422,
  " yuán ": 423,
  "hào": 424,
  "xíng ": 425,
  "ún ": 426,
  "zhèng ": 427,
  " zhè": 428,
  " zhī": 429,
  " le": 430,
  "jiā": 431,
  " xī": 432,
  "huì ": 433,
  "ǐn ": 434,
  " zhèng ": 435,
  "jiàn ": 436,
  " jiàn ": 437,
  "jūn ": 438,
  " bèi ": 439,
  "iǎo": 440,
  " zhàn ": 441,
  " duì ": 442,
  "fāng ": 443,
  "jī": 444,
  " jī": 445,
  " zuò": 446,
  " shàng ": 447,
  "li": 448,
  "「": 449,
  "」": 450,
  "zuò": 451,
  "uāng ": 452,
  " lǐ": 453,
  " chū": 454,
  "xiàn ": 455,
  "huà": 456,
  " dàn ": 457,
  " zhǔ": 458,
  "yǔ": 459,
  "duì ": 460,
  "hú": 461,
  "zhī": 462,
  " tóng ": 463,
  " kè": 464,
  " yīn ": 465,
  " wéi ": 466,
  "shàng ": 467,
  " lái ": 468,
  "míng ": 469,
  " ér": 470,
  "ǐ y": 471,
  " ěr": 472,
  " shè": 473,
  "xīn ": 474,
  " shù": 475,
  "hó": 476,
  " jiān ": 477,
  "zhè": 478,
  " zhōu": 479,
  "hòu ": 480,
  " jìn ": 481,
  "iǎn ": 482,
  " zì ": 483,
  "hén ": 484,
  "qū": 485,
  " fù": 486,
  "shè": 487,
  "èr": 488,
  " nán ": 489,
  " yí": 490,
  "uí": 491,
  "rèn ": 492,
  "bèi ": 493,
  " píng ": 494,
  "fā": 495,
  "yǐ": 496,
  "iáo": 497,
  "dào": 498,
  "xī": 499,
  " xīn ": 500,
  "sī": 501,
  " xià": 502,
  " dài ": 503,
  "chū": 504,
  "hòng ": 505,
  " fēn ": 506,
  "yóu": 507,
  " rèn ": 508,
  "nián ": 509,
  " fā": 510,
  "uàng ": 511,
  " xiāng ": 512,
  "shù": 513,
  " huò": 514,
  "dài ": 515,
  "ǚ": 516,
  " měi ": 517,
  " jīng ": 518,
  " guān ": 519,
  " qián ": 520,
  "zhàn ": 521,
  " lā": 522,
  "zhǔ": 523,
  " suǒ": 524,
  "jīng ": 525,
  "uē": 526,
  "shēng ": 527,
  "00": 528,
  " duō": 529,
  "běn ": 530,
  " zuì ": 531,
  " fǎ": 532,
  "qí": 533,
  " yán ": 534,
  " jiào": 535,
  " zhí": 536,
  "zhù": 537,
  " shǒu": 538,
  " lián ": 539,
  "xué": 540,
  "yí": 541,
  " gāi ": 542,
  " tè": 543,
  " kě": 544,
  " lù": 545,
  "uǐ": 546,
  "hóng ": 547,
  " jiāng ": 548,
  " mǎ": 549,
  "shǐ": 550,
  " lán ": 551,
  "jìn ": 552,
  "lǐ": 553,
  " hòu": 554,
  " diàn ": 555,
  " jù": 556,
  "xiàng ": 557,
  "wén ": 558,
  "dé": 559,
  "zì ": 560,
  " dòng ": 561,
  " yě": 562,
  "iě": 563,
  " zhù": 564,
  " xì ": 565,
  "huá": 566,
  " luó": 567,
  "nán ": 568,
  " cì ": 569,
  "mín ": 570,
  "fǎ": 571,
  "de ": 572,
  "guān ": 573,
  "xià": 574,
  " fú": 575,
  "kǒu": 576,
  "ǎo ": 577,
  "19": 578,
  "en ": 579,
  " mín ": 580,
  " quán ": 581,
  " jūn ": 582,
  " jié": 583,
  " zhǒng ": 584,
  "píng ": 585,
  "dòng ": 586,
  " qiú": 587,
  "yòng ": 588,
  "gè": 589,
  "quán ": 590,
  " dìng ": 591,
  " xiàng ": 592,
  "měi ": 593,
  " sài ": 594,
  "tā": 595,
  "   20": 596,
  " qī": 597,
  "zhōu": 598,
  " yào": 599,
  " dōng ": 600,
  "kāi ": 601,
  " wù": 602,
  " běi ": 603,
  " gāo": 604,
  "yīn ": 605,
  " kāi ": 606,
  " nián 1": 607,
  "wù": 608,
  " jīn ": 609,
  "zhí": 610,
  " kē": 611,
  "cháng ": 612,
  "jiāng ": 613,
  "chá": 614,
  " běn ": 615,
  "í ": 616,
  " wén ": 617,
  " mù": 618,
  "jù": 619,
  " bā": 620,
  " huá": 621,
  "zhèn ": 622,
  " néng ": 623,
  " dāng ": 624,
  "jié": 625,
  " de ": 626,
  " jiē": 627,
  " yù": 628,
  " chē": 629,
  " xìng ": 630,
  " liú": 631,
  " yà": 632,
  " yuàn ": 633,
  "lǐ ": 634,
  "miàn ": 635,
  "huò": 636,
  "hǎi ": 637,
  " sān ": 638,
  " zé": 639,
  " lín ": 640,
  "lù": 641,
  " 2": 642,
  " qū": 643,
  "dù": 644,
  "diàn ": 645,
  "gòng ": 646,
  " tōng ": 647,
  " zhǐ": 648,
  "fù": 649,
  "zi ": 650,
  " jué": 651,
  " yuè 1": 652,
  "shǒu": 653,
  "yè": 654,
  "ǜ": 655,
  "yuè": 656,
  "ú ": 657,
  "lái ": 658,
  "zhǎng ": 659,
  "tǒng ": 660,
  " huà": 661,
  "xiāng ": 662,
  " děng ": 663,
  "dōng ": 664,
  "iāo": 665,
  " yīng ": 666,
  "hái ": 667,
  "jiè": 668,
  " men ": 669,
  " zhǎng ": 670,
  " shī": 671,
  "nèi ": 672,
  "fǔ": 673,
  " xiǎo": 674,
  "tái ": 675,
  " gé": 676,
  " guò": 677,
  " yí gè": 678,
  " nèi ": 679,
  " liǎng ": 680,
  "běi ": 681,
  " fèn ": 682,
  "biǎo": 683,
  "jiào": 684,
  " 201": 685,
  "yù": 686,
  " hǎi ": 687,
  " miàn ": 688,
  "gé": 689,
  " tái ": 690,
  "jiē": 691,
  "guò": 692,
  " wài ": 693,
  "ié": 694,
  "rì ": 695,
  "uǎng ": 696,
  " dá": 697,
  "qiú": 698,
  "xì ": 699,
  "jiān ": 700,
  "1 nián ": 701,
  "yán ": 702,
  " qi": 703,
  " céng ": 704,
  "gāo": 705,
  "sì ": 706,
  "5 nián ": 707,
  "0 nián ": 708,
  " shān ": 709,
  "suǒ": 710,
  " shòu": 711,
  "2 nián ": 712,
  " shǐ": 713,
  " xiē": 714,
  "děng ": 715,
  " wáng ": 716,
  " fāng ": 717,
  " dān ": 718,
  " yuè 2": 719,
  "chǎng ": 720,
  " 3": 721,
  " cǐ": 722,
  "qī": 723,
  "4 nián ": 724,
  "tóng ": 725,
  "sān ": 726,
  " chǎng ": 727,
  " xiào": 728,
  "8 nián ": 729,
  "zuì ": 730,
  "chēng ": 731,
  " wǔ": 732,
  "zhǐ": 733,
  " rù": 734,
  "duō": 735,
  " chá": 736,
  " shěng ": 737,
  "qián ": 738,
  "shān ": 739,
  "fēn ": 740,
  "lián ": 741,
  " kuò": 742,
  " fēi ": 743,
  " sì ": 744,
  "xìng ": 745,
  " tiān ": 746,
  "3 nián ": 747,
  " yuē": 748,
  "yà": 749,
  "zhòng ": 750,
  "gǎng ": 751,
  " lìng ": 752,
  " zǒng ": 753,
  " biǎo": 754,
  "ǐ yòng ": 755,
  "jīn ": 756,
  "6 nián ": 757,
  " yùn ": 758,
  "fú": 759,
  " jiù": 760,
  " méi ": 761,
  " gē": 762,
  " qīng ": 763,
  "kě": 764,
  "qū ": 765,
  " zhōng guó": 766,
  " 200": 767,
  " guǎn ": 768,
  "yě": 769,
  "wěi ": 770,
  "dān ": 771,
  " yǎn ": 772,
  " zǔ": 773,
  " bǐ": 774,
  " bó": 775,
  "7 nián ": 776,
  " tài ": 777,
  "mǎ": 778,
  "zhě": 779,
  "chē": 780,
  " liàng ": 781,
  " yòng ": 782,
  " qì ": 783,
  "shěng ": 784,
  "kè": 785,
  " tí": 786,
  " gǔ": 787,
  " zhě": 788,
  "hán ": 789,
  "rù": 790,
  " shǔ": 791,
  "shí ": 792,
  "or": 793,
  "ào ": 794,
  "wài ": 795,
  "dǎo": 796,
  " zhòng ": 797,
  " fēng ": 798,
  " cóng ": 799,
  "xīng ": 800,
  "er": 801,
  " gòng ": 802,
  " nà": 803,
  " wú": 804,
  "yǐng ": 805,
  "wǔ": 806,
  " shēn ": 807,
  "uài ": 808,
  "sài ": 809,
  " yòu": 810,
  "cǐ": 811,
  "bìng ": 812,
  "qì ": 813,
  " dǎo": 814,
  "   19": 815,
  "qi": 816,
  "āo kuò": 817,
  " chí": 818,
  "tǐ": 819,
  " rén kǒu": 820,
  " xuǎn ": 821,
  "shēn ": 822,
  "qǐ": 823,
  "fēng ": 824,
  " nǚ": 825,
  " cháng ": 826,
  "zé": 827,
  " ní": 828,
  "wǎng ": 829,
  "tiān ": 830,
  " bàn ": 831,
  " rán ": 832,
  "yáng ": 833,
  "jìng ": 834,
  "tí": 835,
  "tài ": 836,
  " bō": 837,
  "zǔ": 838,
  " shí ": 839,
  " biàn ": 840,
  "liè": 841,
  " shèng ": 842,
  "chǎn ": 843,
  "mù": 844,
  "wān ": 845,
  " wàn ": 846,
  "diǎn ": 847,
  " zhāng ": 848,
  " hào": 849,
  "9 nián ": 850,
  " luò": 851,
  " wèi yú": 852,
  " gǎi ": 853,
  "jiāo": 854,
  " 4": 855,
  " dù": 856,
  " gòu": 857,
  "xuǎn ": 858,
  " měi guó": 859,
  " liè": 860,
  " lí": 861,
  " cān ": 862,
  " 5": 864,
  " chēng ": 865,
  "dāng ": 866,
  " 18": 867,
  " zhǎn ": 868,
  "shū": 869,
  "èng ": 870,
  "néng ": 871,
  " zi ": 872,
  "guǎn ": 873,
  "dìng ": 874,
  "qīng ": 875,
  "bō": 876,
  " zī": 877,
  " bì ": 878,
  " kǎ": 879,
  "yīng ": 880,
  " yè": 881,
  "jué": 882,
  " jiāo": 883,
  "dǎng ": 884,
  " mó": 885,
  " jìng ": 886,
  "kē": 887,
  "uā": 888,
  " shū": 889,
  " tuán ": 890,
  "zhēng ": 891,
  "a ": 892,
  " rú": 893,
  " pǔ": 894,
  "lín ": 895,
  " gēn ": 896,
  "nà": 897,
  "tè": 898,
  " chuán ": 899,
  "shòu": 900,
  " lǜ": 901,
  "biān ": 902,
  " qí zhōng ": 903,
  "jī ": 904,
  "yí gè": 905,
  "t ": 906,
  "liú": 907,
  " bǎn ": 908,
  "yùn ": 909,
  " xiān ": 910,
  "yìng ": 911,
  "shǔ": 912,
  "yào": 913,
  "xiǎo": 914,
  "biàn ": 915,
  " bǎo": 916,
  " lún ": 917,
  " jǐn ": 918,
  "fēi ": 919,
  " wěi ": 920,
  "bā": 921,
  "tōng ": 922,
  " wēi ": 923,
  "méi ": 924,
  "cì ": 925,
  "róng ": 926,
  " duàn ": 927,
  "xiǎng ": 928,
  "yǎn ": 929,
  " ā": 930,
  " biān ": 931,
  "cháo": 932,
  " mén ": 933,
  " bù fèn ": 934,
  " qǔ": 935,
  " tǐ": 936,
  " pǐn ": 937,
  "bào": 938,
  "bù ": 939,
  " tóu": 940,
  "wáng ": 941,
  " tiáo": 942,
  " tā men ": 943,
  "zú": 944,
  " jiè": 945,
  " zú": 946,
  "qiān ": 947,
  "ar": 948,
  " fū": 949,
  " fǎn ": 950,
  "cān ": 951,
  "gǔ": 952,
  " lóng ": 953,
  "bì ": 954,
  " shā": 955,
  " mì ": 956,
  "xù": 957,
  " 6": 958,
  "zǒng ": 959,
  "liàng ": 960,
  " guī": 961,
  "jiū": 962,
  " píng fāng ": 963,
  "jǐng ": 964,
  " shuō": 965,
  "bǎo": 966,
  " huáng ": 967,
  " qīn ": 968,
  " táng ": 969,
  " fáng ": 970,
  " sī ": 971,
  " hé ": 972,
  " chén ": 973,
  " yǐng ": 974,
  "pái ": 975,
  " guǎng ": 976,
  "jiù": 977,
  "an": 978,
  "wú": 979,
  "huó": 980,
  " shāng ": 981,
  " sù": 982,
  " diǎn ": 983,
  " yáng ": 984,
  " zhī ": 985,
  " xí": 986,
  "chuán ": 987,
  "lǐng ": 988,
  " shén ": 989,
  " bào": 990,
  "yíng ": 991,
  "tóu": 992,
  "shī": 993,
  "jǐ": 994,
  " jiǎn ": 995,
  " yǐ jí": 996,
  "bǐ": 997,
  "dōu": 998,
  " dōu": 999,
  " mǐ ": 1000,
  " lèi ": 1001,
  " xīng ": 1002,
  "shǐ ": 1003,
  " mò": 1004,
  "shuǐ": 1005,
  " bāo kuò": 1006,
  " biāo": 1007,
  "   201": 1008,
  " guó jiā": 1009,
  " shuǐ": 1010,
  "jǔ": 1011,
  " qǐ": 1012,
  " cái ": 1013,
  "   zài ": 1014,
  "xiào": 1015,
  "céng ": 1016,
  " guǒ": 1017,
  "zhōng guó": 1018,
  " tíng ": 1019,
  "sī ": 1020,
  "wù ": 1021,
  " qiān ": 1022,
  "kōng ": 1023,
  "e   ": 1024,
  "sù": 1025,
  " tú": 1026,
  " yī ": 1027,
  "cè": 1028,
  " qí tā": 1029,
  " 199": 1030,
  "měi guó": 1031,
  "bàn ": 1032,
  " sè": 1033,
  " jiǔ": 1034,
  "e ": 1035,
  " zhuāng ": 1036,
  " zhèn ": 1037,
  "201": 1038,
  " qíng ": 1039,
  " chéng wéi ": 1040,
  " bān ": 1041,
  " ān ": 1042,
  " chù": 1043,
  "huà ": 1044,
  " wán ": 1045,
  " wǎng ": 1046,
  " gù": 1047,
  " chǎn ": 1048,
  "lèi ": 1049,
  " rì běn ": 1050,
  " zhuān ": 1051,
  "zào": 1052,
  " rén mín ": 1053,
  "ní": 1054,
  "á ": 1055,
  " mǔ": 1056,
  "liǎng ": 1057,
  " dú": 1058,
  "bān ": 1059,
  " jiě": 1060,
  " dào ": 1061,
  " jí ": 1062,
  " chú": 1063,
  "s ": 1064,
  " cí": 1065,
  " suì ": 1066,
  " wǎ": 1067,
  " xiāo": 1068,
  "yuàn ": 1069,
  " wù ": 1070,
  " jiǎng ": 1071,
  "shā": 1072,
  " yǐn ": 1073,
  "zuò ": 1074,
  "gāi ": 1075,
  " shǐ yòng ": 1076,
  " shì yī": 1077,
  " fàn ": 1078,
  "shèng ": 1079,
  " 10": 1080,
  " mǐ": 1081,
  "tú": 1082,
  "gǎi ": 1083,
  "cóng ": 1084,
  "n   ": 1085,
  "fèn ": 1086,
  " qū ": 1087,
  " lǐng ": 1088,
  " suí": 1089,
  " lùn ": 1090,
  " zhēn ": 1091,
  " zhǔ yào": 1092,
  " léi ": 1093,
  "zhāng ": 1094,
  " yǔ ": 1095,
  " tā de": 1096,
  "lǜ": 1097,
  "fǎn ": 1098,
  "méng ": 1099,
  " jǐng ": 1100,
  "huí": 1101,
  "qíng ": 1102,
  " xié": 1103,
  "hé guó": 1104,
  " bié": 1105,
  " gèng ": 1106,
  " wū": 1107,
  "piàn ": 1108,
  "ti": 1109,
  " màn ": 1110,
  " huí": 1111,
  " kě yǐ": 1112,
  " yóu yú": 1113,
  "zhuāng ": 1114,
  "qǔ": 1115,
  " kǒu": 1116,
  "hé ": 1117,
  " zhǔn ": 1118,
  "zhèng fǔ": 1119,
  "rán ": 1120,
  " jià": 1121,
  "luò": 1122,
  "dà xué": 1123,
  "yuē": 1124,
  "huáng ": 1125,
  " 7": 1126,
  " hā": 1127,
  " lǐ ": 1128,
  " hái ": 1129,
  " 202": 1130,
  "lóng ": 1131,
  " xù": 1133,
  " sà": 1134,
  "tiě": 1135,
  "bó": 1136,
  "ul": 1137,
  " xiāng gǎng ": 1138,
  " shōu": 1139,
  "shāng ": 1140,
  "pǔ": 1141,
  "hóu": 1142,
  "shén ": 1143,
  " bù ": 1144,
  " 8": 1145,
  " shì zhèn ": 1146,
  " mìng ": 1147,
  "jù ": 1148,
  " zōng ": 1149,
  "2 ": 1150,
  " sū": 1151,
  " ào": 1152,
  "lù ": 1153,
  " bīng ": 1154,
  "rú": 1155,
  " tǎ": 1156,
  "yāng ": 1157,
  "—": 1158,
  " tiě": 1159,
  "gē": 1160,
  " C": 1161,
  "xié": 1162,
  " zhēng ": 1163,
  " xū": 1164,
  "líng ": 1165,
  "200": 1166,
  " tuō": 1167,
  "zī": 1168,
  "xìn ": 1169,
  "cái ": 1170,
  "yuán huì ": 1171,
  "wēi ": 1172,
  " bài ": 1173,
  "in": 1174,
  " chū ": 1175,
  " zhèng zhì ": 1176,
  " 15": 1177,
  "guǎng ": 1178,
  " jiā ": 1179,
  "dá": 1180,
  "mò": 1181,
  " qiáng ": 1182,
  "què": 1183,
  " shì jì ": 1184,
  "1 ": 1185,
  "cūn ": 1186,
  "nǚ": 1187,
  " S": 1188,
  " guāng ": 1189,
  " chóng ": 1190,
  "kuàng ": 1191,
  "tíng ": 1192,
  " jiǎ": 1193,
  " 198": 1194,
  " cè": 1195,
  " dà xué": 1196,
  "jí ": 1197,
  "jìn xíng ": 1198,
  "shuō": 1199,
  " chuàng ": 1200,
  "al": 1201,
  " hán ": 1202,
  " róng ": 1203,
  " èr": 1204,
  "bié": 1205,
  " xiǎng ": 1206,
  "wèi yú": 1207,
  "sè": 1208,
  " lēi ": 1209,
  " méng ": 1210,
  "fàn ": 1211,
  "wán ": 1212,
  " hàn ": 1213,
  " chǔ": 1214,
  "bīng ": 1215,
  "mén ": 1216,
  "jiǎng ": 1217,
  " pèi ": 1218,
  "   dì ": 1219,
  " líng ": 1220,
  " dǎng ": 1221,
  "xū": 1222,
  " fèi ": 1223,
  " lǔ": 1224,
  " A": 1225,
  " zhào": 1226,
  " qù": 1227,
  "mǐ ": 1228,
  "mìng ": 1229,
  "en": 1230,
  "xiān ": 1231,
  " lù ": 1232,
  "de yī": 1233,
  " fàng ": 1234,
  " 9": 1235,
  " dí": 1236,
  " shī ": 1237,
  " lè": 1238,
  "zhī ": 1239,
  "jià": 1240,
  "iào ": 1241,
  " liáng ": 1242,
  "0 ": 1243,
  "zhào": 1244,
  "dú": 1245,
  "hài ": 1246,
  " pài ": 1247,
  "gōng lǐ ": 1248,
  " xǔ": 1249,
  " jìn xíng ": 1250,
  "zhēn ": 1251,
  " xìn ": 1252,
  "tuán ": 1253,
  "luó": 1254,
  " tái wān ": 1255,
  "guī": 1256,
  " qiáo": 1257,
  " yīn cǐ": 1258,
  "jú": 1259,
  "jiǎn ": 1260,
  " zǐ": 1261,
  " de yī": 1262,
  " 16": 1263,
  "orm": 1264,
  " zhuǎn ": 1265,
  " chāo": 1266,
  " dì yī": 1267,
  " xíng zhèng ": 1268,
  "shǐ yòng ": 1269,
  "yǐn ": 1270,
  " yán jiū": 1271,
  " kè ": 1272,
  " yàng ": 1273,
  " jú": 1274,
  " xùn ": 1275,
  " cǎi ": 1276,
  " bǎi ": 1277,
  "jiě": 1278,
  "dù ": 1279,
  " lì yà": 1280,
  "chí": 1281,
  " què": 1282,
  " yìng ": 1283,
  "dǎ": 1284,
  " jǔ": 1285,
  " zhèng fǔ": 1286,
  "jǐn ": 1287,
  " yíng ": 1288,
  "fàng ": 1289,
  " liù": 1290,
  " zhū": 1291,
  "zhuàng ": 1292,
  " xiū": 1293,
  " ge": 1294,
  "táng ": 1295,
  "biāo": 1296,
  " yùn dòng ": 1297,
  "jiǔ": 1298,
  "zhuān ": 1299,
  " 12": 1300,
  " xuān ": 1301,
  "huò dé": 1302,
  "yòu": 1303,
  "qiáng ": 1304,
  " yīn wèi ": 1305,
  " fǔ": 1306,
  "chuān ": 1307,
  " bái ": 1308,
  "chén ": 1309,
  "bǎn ": 1310,
  " M": 1311,
  " tóng shí": 1312,
  " wǒ": 1313,
  "gòu": 1314,
  " xī ": 1315,
  "shì jiè": 1316,
  " diàn yǐng ": 1317,
  "am": 1318,
  "rén kǒu": 1319,
  " sāi ": 1320,
  " dì èr": 1321,
  "chóng ": 1322,
  "ula ": 1323,
  "zōng ": 1324,
  " cūn ": 1325,
  "tīng ": 1326,
  " huò dé": 1327,
  " yǒng ": 1328,
  "ormula ": 1329,
  "5 rì ": 1330,
  " kōng ": 1331,
  "3 ": 1332,
  " pái ": 1333,
  "yá": 1334,
  "on": 1335,
  " kāi shǐ": 1336,
  " tián ": 1337,
  "8 rì ": 1338,
  " yìn ": 1339,
  " 11": 1340,
  "chú": 1341,
  " zuò wéi ": 1342,
  " huī": 1343,
  " zēng ": 1344,
  "pǐn ": 1345,
  " huǒ": 1346,
  "zhǒng ": 1347,
  "niàn ": 1348,
  " zhōng huá": 1349,
  " nuò": 1350,
  "yǔ ": 1351,
  "rì běn ": 1352,
  " ài ": 1353,
  " hěn ": 1354,
  " tuī": 1355,
  " nián 12": 1356,
  " 17": 1357,
  "jū": 1358,
  "xī ": 1359,
  "wū": 1360,
  "xiǎn ": 1361,
  " huán ": 1362,
  " wàng ": 1363,
  " qī ": 1364,
  "tiáo": 1365,
  " 194": 1366,
  "gǎn ": 1367,
  " qiě": 1368,
  "zhuǎn ": 1369,
  "gòng hé guó": 1370,
  "chéng wéi ": 1371,
  " chē zhàn ": 1372,
  " kě néng ": 1373,
  "mì ": 1374,
  "lùn ": 1375,
  " lǚ": 1376,
  "mǔ": 1377,
  " tǒng ": 1378,
  " hēi ": 1379,
  " qún ": 1380,
  "xùn ": 1381,
  "bāo": 1382,
  "bāng ": 1383,
  " ni": 1384,
  "yè ": 1385,
  " mài ": 1386,
  " rèn wéi ": 1387,
  "xiū": 1388,
  " méi yǒu": 1389,
  "bái ": 1390,
  "   S": 1391,
  "gōng sī": 1392,
  " wèn ": 1393,
  "xuān ": 1394,
  " cháo": 1395,
  " luó sī": 1396,
  "guāng ": 1397,
  " píng fāng gōng lǐ ": 1398,
  " dū": 1399,
  " pò": 1400,
  " jī ": 1401,
  "ou": 1402,
  " zhè xiē": 1403,
  " tè ": 1404,
  " dǎ": 1405,
  " jù ": 1406,
  "20 nián ": 1407,
  "lā": 1408,
  " xún ": 1409,
  "kāi shǐ": 1410,
  "méi yǒu": 1411,
  "sū": 1412,
  "de yí gè": 1413,
  " jū": 1414,
  " gài ": 1415,
  " àn ": 1416,
  "6 rì ": 1417,
  " guó jì ": 1418,
  " nián 10": 1419,
  "4 rì ": 1420,
  "rèn wéi ": 1421,
  "5 ": 1422,
  " jiàng ": 1423,
  " pī": 1424,
  "1 rì ": 1425,
  "10": 1426,
  " 197": 1427,
  "7 rì ": 1428,
  " táo": 1429,
  "lán ": 1430,
  "   lì ": 1431,
  "ü": 1432,
  "chǔ": 1433,
  " dāng shí": 1434,
  "30": 1435,
  " huó": 1436,
  "háo": 1437,
  " dài biǎo": 1438,
  " zhěng ": 1439,
  " dēng ": 1440,
  "qiě": 1441,
  "le ": 1442,
  "pài ": 1443,
  " yàn ": 1444,
  " yǐ ": 1445,
  " hòu ": 1446,
  " cún ": 1447,
  "kǎ": 1448,
  "fáng ": 1449,
  "mó": 1450,
  "4 ": 1451,
  "   202": 1452,
  " shuāng ": 1453,
  "3 rì ": 1454,
  " shì jiè": 1455,
  " B": 1456,
  " zuò ": 1457,
  "s   ": 1458,
  " gǎn ": 1459,
  "yù ": 1460,
  "mài ": 1461,
  "duàn ": 1462,
  "chuàng ": 1463,
  " fǎ guó": 1464,
  " diào": 1465,
  "at": 1466,
  "cí": 1467,
  " gāng ": 1468,
  " zǎo": 1469,
  "   200": 1470,
  "shōu": 1471,
  " jǐ": 1472,
  "jiǎ": 1473,
  " 195": 1474,
  "ěr ": 1475,
  " tīng ": 1476,
  "zǐ": 1477,
  "wèn ": 1478,
  " chéng shì ": 1479,
  " xiǎn ": 1480,
  " bīn ": 1481,
  " yóu xì ": 1482,
  "000": 1483,
  " sòng ": 1484,
  " T": 1485,
  " yīng guó": 1486,
  " hú": 1487,
  "dàn ": 1488,
  " biǎo shì ": 1489,
  "huán ": 1491,
  " piàn ": 1492,
  " yǐng xiǎng ": 1493,
  " sēn ": 1494,
  " guàn ": 1495,
  "cún ": 1496,
  "   shēng ": 1497,
  " mù ": 1498,
  " fā zhǎn ": 1499,
  "st": 1500,
  "zēng ": 1501,
  "fèi ": 1502,
  "uǐ ": 1503,
  "18": 1504,
  "dài biǎo": 1505,
  " dùn ": 1506,
  "lí": 1507,
  " yù ": 1508,
  "xiāng gǎng ": 1509,
  " xiá": 1510,
  "pèi ": 1511,
  " nóng ": 1512,
  "gù": 1513,
  "diào": 1514,
  " I": 1515,
  " lóu": 1516,
  " lú": 1517,
  " nián 11": 1518,
  "fǎ ": 1519,
  " lǎng ": 1520,
  " tā zài ": 1521,
  "zhǎn ": 1522,
  "chù": 1523,
  " shè huì ": 1524,
  "shù ": 1525,
  "huàn ": 1526,
  "dì qū": 1527,
  " ràng ": 1528,
  " zào": 1529,
  " huàn ": 1530,
  " 196": 1531,
  "tuī": 1532,
  " hóng ": 1533,
  "ni": 1534,
  "ōu zhōu": 1535,
  " bēi ": 1536,
  "ǎo hù": 1537,
  "chū ": 1538,
  "fǎ guó": 1539,
  "0 nián dài ": 1540,
  "pàn ": 1541,
  "xiāo": 1542,
  " zuì zhōng ": 1543,
  "tǔ": 1544,
  " tóng nián ": 1545,
  "202": 1546,
  "tián ": 1547,
  "é luó sī": 1548,
  "bá": 1549,
  " tǎn ": 1550,
  "zhōng xīn ": 1551,
  " shè jì ": 1552,
  "qī jiān ": 1553,
  "jiàng ": 1554,
  " xià ": 1555,
  " gǎng ": 1556,
  " tōng guò": 1557,
  " kòng ": 1558,
  " zuǒ": 1559,
  "gèng ": 1560,
  "tā men ": 1561,
  " jiàn zhù": 1562,
  " zuò pǐn ": 1563,
  "dēng ": 1564,
  " P": 1565,
  " dān rèn ": 1566,
  "dì yī": 1567,
  "yǐ ": 1568,
  "kě yǐ": 1569,
  "ri": 1570,
  " diàn shì ": 1571,
  " huà ": 1572,
  " rén mín gòng hé guó": 1573,
  "dào ": 1574,
  " xiě": 1575,
  " huā": 1576,
  "lìng ": 1577,
  " dì qū": 1578,
  "   t": 1579,
  " suī": 1580,
  "bāo kuò": 1581,
  "tái wān ": 1582,
  " jiǎo": 1583,
  " xué yuàn ": 1584,
  "dū": 1585,
  " kuài ": 1586,
  " kè lán ": 1587,
  " jīng jì ": 1588,
  "āo qiú": 1589,
  "zǎo": 1590,
  " xì tǒng ": 1591,
  "liàn ": 1592,
  " piào": 1593,
  " dé ": 1594,
  "el": 1595,
  "qiáo": 1596,
  "sòng ": 1597,
  "suí": 1598,
  " gěi ": 1599,
  " yě shì ": 1600,
  " chōng ": 1601,
  "ǐ yù": 1602,
  " D": 1603,
  " gōng sī": 1604,
  " xǔ duō": 1605,
  " 14": 1606,
  "yàn ": 1607,
  " rè": 1608,
  " shǔ yú": 1609,
  "ro": 1610,
  "huā": 1611,
  "hào ": 1612,
  " ěr ": 1613,
  "shǎo": 1614,
  "xià ": 1615,
  "tuō": 1616,
  "lún ": 1617,
  " zhú": 1618,
  " rán ér": 1619,
  " shù ": 1620,
  " ná": 1621,
  " hòu lái ": 1622,
  " bù tóng ": 1623,
  "de dì ": 1624,
  "dòu": 1625,
  " yuè 1 rì ": 1626,
  "ōng yǒu": 1627,
  " 193": 1628,
  " miàn jī": 1629,
  "jiā ": 1630,
  " dīng ": 1631,
  " lǎo": 1632,
  "huǒ": 1633,
  "xún ": 1634,
  "6 ": 1635,
  " suǒ yǒu": 1636,
  " zhōng xīn ": 1637,
  " shòu ": 1638,
  "   C": 1639,
  " ruì ": 1640,
  " dàn shì ": 1641,
  " dǐ": 1642,
  "bǎi ": 1643,
  "qiān mǐ ": 1644,
  " tǔ": 1645,
  " gōng lǐ ": 1646,
  "gēn ": 1647,
  " 1 ": 1648,
  "liù": 1649,
  " de yí gè": 1650,
  " le ": 1651,
  "shí jiān ": 1652,
  "cǎi ": 1653,
  " zài 19": 1654,
  "tǐ ": 1655,
  "   shēng píng ": 1656,
  " bāo": 1657,
  " fā xiàn ": 1658,
  " chéng lì ": 1659,
  " bǐ sài ": 1660,
  " shǎo": 1661,
  " sǐ": 1662,
  "míng wèi ": 1663,
  "xí": 1664,
  " yīn yuè": 1665,
  " shí jiān ": 1666,
  " xián ": 1667,
  "jiǎo": 1668,
  " gēn jù": 1669,
  "üè": 1670,
  " hù": 1671,
  " pí": 1672,
  " yín ": 1673,
  "chāo": 1674,
  "chàng ": 1675,
  "12": 1676,
  " mín guó": 1677,
  "guàn ": 1678,
  " de dì ": 1679,
  "diàn shì ": 1680,
  " zhè ge": 1681,
  "gěi ": 1682,
  "xì tǒng ": 1683,
  " yī xiē": 1684,
  " kǎo": 1685,
  "dān rèn ": 1686,
  "zhū": 1687,
  " máo": 1688,
  "guó jiā": 1689,
  "yìn ": 1690,
  " zhuàng ": 1691,
  " dāng dì ": 1692,
  " zì jǐ": 1693,
  "dǐ": 1694,
  "   M": 1695,
  " zuì hòu": 1696,
  "qù": 1697,
  " chuān ": 1698,
  " liàn ": 1699,
  "liáng ": 1700,
  "ol": 1701,
  "fā xiàn ": 1702,
  " bìng qiě": 1703,
  "19 nián ": 1704,
  "huī": 1705,
  "réng ": 1706,
  "   de": 1707,
  "7 ": 1708,
  " zhèng shì ": 1709,
  "gào": 1710,
  "gāng ": 1711,
  " bú": 1712,
  " formula ": 1713,
  "zhě ": 1714,
  "jùn ": 1715,
  "yā": 1716,
  "yǒng ": 1717,
  "ic": 1718,
  " hǎo": 1719,
  "nuò": 1720,
  "kuài ": 1721,
  " réng ": 1722,
  "tí ": 1723,
  "yǎng ": 1724,
  "qīn ": 1725,
  "zhǔ yì ": 1726,
  " suī rán ": 1727,
  " wén huà": 1728,
  "   lì shǐ ": 1729,
  " kù": 1730,
  " wò": 1731,
  "ac": 1732,
  " fù zé": 1733,
  " ruò": 1734,
  " cǐ wài ": 1735,
  " ní yà": 1736,
  " zhī hòu": 1737,
  "de shì ": 1738,
  "re": 1739,
  "zǎi ": 1740,
  " xí ": 1741,
  "it": 1742,
  "màn ": 1743,
  "biǎo shì ": 1744,
  " bāng ": 1745,
  " 13": 1746,
  " dù ": 1747,
  "zhěng ": 1748,
  "tán ": 1749,
  " zhōng de": 1750,
  " wēn ": 1751,
  "chéng lì ": 1752,
  " bìng zài ": 1753,
  " mù qián ": 1754,
  "yùn dòng ": 1755,
  " gān ": 1756,
  " zhōng yāng ": 1757,
  " lì shǐ": 1758,
  "lǚ": 1759,
  " chàng ": 1760,
  " miàn jī ": 1761,
  "diàn yǐng ": 1762,
  " fù ": 1763,
  " mǎn ": 1764,
  " fān ": 1765,
  "yǐ jí": 1766,
  "fā shēng ": 1767,
  " dào le": 1768,
  "zhèng shì ": 1769,
  " bǎ": 1770,
  "dì èr": 1771,
  " sè ": 1772,
  "chēng wéi ": 1773,
  "11": 1774,
  " tí gōng ": 1775,
  " rén kǒu mì ": 1776,
  " kāng ": 1777,
  "xǔ": 1778,
  "wěi yuán huì ": 1779,
  "on ": 1780,
  "nóng ": 1781,
  " zh ": 1782,
  " wěi yuán huì ": 1783,
  " piān ": 1784,
  "zhī yī ": 1785,
  "2 rì ": 1786,
  "hǎo": 1787,
  " xiōng ": 1788,
  "xiě": 1789,
  " yōu": 1790,
  " zhōu ": 1791,
  " xiàn zài ": 1792,
  "tōng guò": 1793,
  " shuō ": 1794,
  " tuì ": 1795,
  " jùn ": 1796,
  "et": 1797,
  "dùn ": 1798,
  "qǐ ": 1799,
  " E": 1800,
  " quán guó": 1801,
  "tā de": 1802,
  "zhōng yāng ": 1803,
  "suàn ": 1804,
  " gòu ": 1805,
  "9 rì ": 1806,
  "shì de": 1807,
  "dī": 1808,
  " zhī chí": 1809,
  "50": 1810,
  " chéng yuán ": 1811,
  "pò": 1812,
  "kè ": 1813,
  "guó jì ": 1814,
  " pàn ": 1815,
  "qún ": 1816,
  " hū": 1817,
  "yín ": 1818,
  "dí": 1819,
  "zhōng de": 1820,
  " xué xiào": 1821,
  " píng fāng qiān mǐ ": 1822,
  " hè": 1823,
  " níng ": 1824,
  "kàn ": 1825,
  "   A": 1826,
  "dà de": 1827,
  "jiè ": 1828,
  "mù ": 1829,
  " yā": 1830,
  "uī ": 1831,
  "8 ": 1832,
  " yún ": 1833,
  "zì jǐ": 1834,
  " pà": 1835,
  " shì de": 1836,
  "tǎ": 1837,
  "kǎo": 1838,
  "il": 1839,
  " shǒu ": 1840,
  " gào": 1841,
  "yuǎn ": 1842,
  "huó dòng ": 1843,
  " yǎng ": 1844,
  "men ": 1845,
  "zhōu ": 1846,
  "guó ": 1847,
  "miǎn ": 1848,
  "y ": 1849,
  " bù guò": 1850,
  " gt ": 1851,
  " cān jiā": 1852,
  " H": 1853,
  " de shì ": 1854,
  " 0": 1855,
  "táo": 1856,
  "bào ": 1857,
  "dà lì ": 1858,
  "C ": 1859,
  "xué ": 1860,
  "yán jiū": 1861,
  "gé ": 1862,
  "hěn ": 1863,
  " liáo": 1864,
  "háng kōng ": 1865,
  " shào": 1866,
  " zhě ": 1867,
  " liǎng gè": 1868,
  " xué ": 1869,
  "om": 1870,
  " L": 1871,
  " shì zài ": 1872,
  "zhù ": 1873,
  " xiè": 1874,
  "qǐng ": 1875,
  " qǐng ": 1876,
  "shū ": 1877,
  " bǔ": 1878,
  " lt ": 1879,
  " bǎo hù": 1880,
  "ǔn ": 1881,
  "liáo": 1882,
  " N": 1883,
  " R": 1884,
  "zuò wéi ": 1885,
  "jǔ xíng ": 1886,
  "d ": 1887,
  "zuǒ": 1888,
  "chè": 1889,
  " wǎn ": 1890,
  "kòng ": 1891,
  "cān jiā": 1892,
  "kāng ": 1893,
  " qiāng ": 1894,
  " fēn bù": 1895,
  " dī": 1896,
  "zhǔ yào": 1897,
  "kě néng ": 1898,
  "00 nián ": 1899,
  " tán ": 1900,
  "on   ": 1901,
  "zhī jiān ": 1902,
  " hǎi bá": 1903,
  " kàn ": 1904,
  " shèn ": 1905,
  " shì wèi yú": 1906,
  " guì ": 1907,
  "rén mín ": 1908,
  " pō": 1909,
  " péng ": 1910,
  " gōng chéng ": 1911,
  "níng ": 1912,
  " lìng wài ": 1913,
  "yóu xì ": 1914,
  " G": 1915,
  " dé guó": 1916,
  "shè ": 1917,
  " cǐ ": 1918,
  "   P": 1919,
  "wǎn ": 1920,
  "shuāng ": 1921,
  " huó dòng ": 1922,
  "yōu": 1923,
  " gōng zuò": 1924,
  " qǔ ": 1925,
  " zhī jiān ": 1926,
  " nǐ": 1927,
  " shǐ ": 1928,
  " zhàng ": 1929,
  " xiáng ": 1930,
  "sǐ": 1931,
  " qī jiān ": 1932,
  "xué xiào": 1933,
  "zhú": 1934,
  "chōng ": 1935,
  " zhōng huá rén mín gòng hé guó": 1936,
  "yún ": 1937,
  "fū": 1938,
  " qín ": 1939,
  " fá": 1940,
  " kàng ": 1941,
  "gōng sī ": 1942,
  "xián ": 1943,
  " zú qiú": 1944,
  " fū ": 1945,
  " guǐ": 1946,
  " xióng ": 1947,
  "xiá": 1948,
  " zhe": 1949,
  "shè jì ": 1950,
  "dūn ": 1951,
  "zàn ": 1952,
  " F": 1953,
  " xué shēng ": 1954,
  "ruì ": 1955,
  " fēn bié": 1956,
  " miǎn ": 1957,
  " hūn ": 1958,
  " ēn ": 1959,
  " guān xì ": 1960,
  "shuō ": 1961,
  " yǒu ": 1962,
  "uě": 1963,
  " láo": 1964,
  " lián sài ": 1965,
  " tōng cháng ": 1966,
  " sōng ": 1967,
  " shùn ": 1968,
  "bǐ sài ": 1969,
  " yǐ jīng ": 1970,
  " 192": 1971,
  "qìng ": 1972,
  " shēng huó": 1973,
  " shàng hǎi ": 1974,
  "chū xiàn ": 1975,
  " jué dìng ": 1976,
  " niǔ": 1977,
  " zhǔ yì ": 1978,
  "píng fāng ": 1979,
  " fǎ ": 1980,
  " tiě lù": 1981,
  " shì jiàn ": 1982,
  "bài ": 1983,
  "hā": 1984,
  "d   ": 1985,
  "zhàn zhēng ": 1986,
  "bù tóng ": 1987,
  " běi jīng ": 1988,
  "as": 1989,
  " dà lù": 1990,
  " xiāng guān ": 1991,
  "bēi ": 1992,
  " shàng de": 1993,
  " kuǎn ": 1994,
  "sù ": 1995,
  "pín ": 1996,
  " yú 201": 1997,
  " xū yào": 1998,
  " qíng kuàng ": 1999,
  " dǎo ": 2000,
  " miáo": 2001,
  " wèi le": 2002,
  " é": 2003,
  "wàn ": 2004,
  " zhòng yào": 2005,
  " rén yuán ": 2006,
  "bǔ": 2007,
  " kān ": 2008,
  " zhuī": 2009,
  "yīng guó": 2010,
  "rén wù ": 2011,
  "199": 2012,
  "ǐ yà": 2013,
  "chǐ ": 2014,
  " zǒng tǒng ": 2015,
  "wǒ": 2016,
  "kàng ": 2017,
  "tí gōng ": 2018,
  " liào": 2019,
  " gàn ": 2020,
  " kǒng ": 2021,
  "fāng miàn ": 2022,
  "9 ": 2023,
  "láng ": 2024,
  "fā zhǎn ": 2025,
  "chūn ": 2026,
  " rén kǒu mì dù": 2027,
  " shēng yú": 2028,
  "xué yuàn ": 2029,
  " shàn ": 2030,
  "dǎo ": 2031,
  " jiào yù": 2032,
  "zǔ zhī": 2033,
  "of": 2034,
  "shào": 2035,
  "xiá ": 2036,
  " wān ": 2037,
  "gòng yǒu": 2038,
  " zhāo": 2039,
  " jié guǒ": 2040,
  "rè": 2041,
  "lǎo": 2042,
  " zhè zhǒng ": 2043,
  "shè huì ": 2044,
  "shàn ": 2045,
  "shǔ yú": 2046,
  "16": 2048,
  "mào": 2049,
  "yàng ": 2050,
  " yǐ xià": 2051,
  "shè yǒu": 2052,
  " dǎo zhì ": 2053,
  "r ": 2054,
  "zhǐ ": 2055,
  "bù fèn ": 2056,
  " suǒ yǐ": 2057,
  " yì bān ": 2058,
  " fā xíng ": 2059,
  "ràng ": 2060,
  "es": 2061,
  " shěn ": 2062,
  "15": 2063,
  " zhì zuò": 2064,
  "   T": 2065,
  "bù de": 2066,
  " jìn rù": 2067,
  " chā": 2068,
  "bú": 2069,
  "zhèng zhì ": 2070,
  " xì liè": 2071,
  " zá": 2072,
  "   B": 2073,
  " shì yí gè": 2074,
  "zhōng huá": 2075,
  " pín ": 2076,
  " dì sān ": 2077,
  " rèn hé": 2078,
  " zuì gāo": 2079,
  " bìng yú": 2080,
  " dú lì ": 2081,
  " yuǎn ": 2082,
  " gōng yuán ": 2083,
  " hào ": 2084,
  "cè ": 2085,
  " bān yá": 2086,
  " lái zì ": 2087,
  " dān wèi ": 2088,
  "fèng ": 2089,
  " yé": 2090,
  " gāi dì ": 2091,
  " rú guǒ": 2092,
  " zhī yī ": 2093,
  " zàn ": 2094,
  "   běn ": 2095,
  " 000": 2096,
  "   199": 2097,
  "mǐ": 2098,
  "－": 2099,
  " J": 2100,
  " zì yóu": 2101,
  "shī ": 2102,
  "tū": 2103,
  " fǎng ": 2104,
  " lián méng ": 2105,
  "fān ": 2106,
  " sūn ": 2107,
  " suàn ": 2108,
  " rǎng ": 2109,
  " yǎ": 2110,
  "yīn wèi ": 2111,
  " gè rén ": 2112,
  " jūn shì ": 2113,
  "qín ": 2114,
  "e  ": 2115,
  "sēn ": 2116,
  " zhí ": 2117,
  " liè chē": 2118,
  " yìn dù": 2119,
  "   dì lǐ ": 2120,
  "pī": 2121,
  "yīn yuè": 2122,
  "shí qī": 2123,
  " fāng shì ": 2124,
  "cǐ ": 2125,
  "yì yuán ": 2126,
  " yāo qiú": 2127,
  "lóu": 2128,
  "mǎ wèi ": 2129,
  "sà": 2130,
  " dàng ": 2131,
  "yī ": 2132,
  " gēn jù ": 2133,
  "duān ": 2134,
  " tàn ": 2135,
  " gēng ": 2136,
  " bǐ ": 2137,
  " fù qīn ": 2138,
  " duǎn ": 2139,
  " lì rú": 2140,
  "3 yuè ": 2141,
  "gài ": 2142,
  " tū": 2143,
  "fǎng ": 2144,
  " duì yú": 2145,
  " cǎi yòng ": 2146,
  "ati": 2147,
  " fā shēng ": 2148,
  "dé guó": 2149,
  " rù ": 2150,
  "ow": 2151,
  "er ": 2152,
  "zhǔ ": 2153,
  "yī zhǒng ": 2154,
  " āi ": 2155,
  "chéng yuán ": 2156,
  " shù liàng ": 2157,
  " zhàn zhēng ": 2158,
  "jié ": 2159,
  " tè bié": 2160,
  " kāi fā": 2161,
  "shěn ": 2162,
  "xiù": 2163,
  " xiàn de": 2164,
  " guó mín ": 2165,
  " gù shì ": 2166,
  "shǒu ": 2167,
  " là": 2168,
  " jiàn lì ": 2169,
  " zāo": 2170,
  "8 yuè ": 2171,
  "17": 2172,
  " rén de": 2173,
  "gān ": 2174,
  "qī ": 2175,
  " hǎi jūn ": 2176,
  " dǐng ": 2177,
  " cún zài ": 2178,
  "miàn jī": 2179,
  "xióng ": 2180,
  "5 yuè ": 2181,
  "hòu de": 2182,
  "guì ": 2183,
  " sī tè": 2184,
  "th": 2185,
  " zú ": 2186,
  " chè": 2187,
  "hùn ": 2188,
  "èr shí": 2189,
  " zǔ zhī": 2190,
  "7 yuè ": 2191,
  " zhù ": 2192,
  "de shí": 2193,
  " guǎn lǐ": 2194,
  " zhè yī": 2195,
  "zāo": 2196,
  " chēng wéi ": 2197,
  "fǔ ": 2198,
  "chéng shì ": 2199,
  " xíng xīng ": 2200,
  " chéng gōng ": 2201,
  "bīn ": 2202,
  " sàn ": 2203,
  "kuò": 2204,
  "is": 2205,
  " shì wèi ": 2206,
  " jiàn yú": 2207,
  " nián 1 yuè ": 2208,
  " 191": 2209,
  " gé ": 2210,
  "dàng ": 2211,
  " jǐn guǎn ": 2212,
  "gēng ": 2213,
  "sè ": 2214,
  " zhǐ ": 2215,
  "guǒ": 2216,
  "uáng ": 2217,
  "zǒu": 2218,
  "shì wèi ": 2219,
  "bǎ": 2220,
  "wēn ": 2221,
  " xuán ": 2222,
  "chē zhàn ": 2223,
  "zhe": 2224,
  " pào": 2225,
  " zǒu": 2226,
  " rén kǒu ": 2227,
  " chuán tǒng ": 2228,
  " kǎi ": 2229,
  "ur": 2230,
  " qiú duì ": 2231,
  " chú le": 2232,
  " wǔ ": 2234,
  " shǔ de": 2235,
  " jì shù": 2236,
  " jué ": 2237,
  " shí de": 2238,
  " xué míng ": 2239,
  " láng ": 2240,
  "fā xíng ": 2241,
  "T ": 2242,
  " nián 12 yuè ": 2243,
  " ná dà": 2244,
  " cān yù": 2245,
  " chì ": 2246,
  "9 yuè ": 2247,
  "mǎn ": 2248,
  "guàn jūn ": 2249,
  " yú ": 2250,
  "tuì ": 2251,
  "chē ": 2252,
  "o ": 2253,
  "miáo": 2254,
  " cuò": 2255,
  "hēi ": 2256,
  "40": 2257,
  " pǔ chá": 2258,
  "sāi ": 2259,
  " qiè": 2260,
  "rén de": 2261,
  "wǔ ": 2262,
  "jìn rù": 2263,
  " guàn jūn ": 2264,
  "zhí ": 2265,
  " huān ": 2266,
  " jiù shì ": 2268,
  " yè ": 2269,
  "13": 2270,
  "xuán ": 2271,
  " jiāo tōng ": 2272,
  " yōng yǒu": 2273,
  " mào": 2274,
  " fán ": 2275,
  "qí ": 2276,
  "yǐ jīng ": 2277,
  " chéng de": 2278,
  " xǐ": 2279,
  "   L": 2280,
  "6 yuè ": 2281,
  "gōng zuò": 2282,
  " xíng shì ": 2283,
  " dōng běi ": 2284,
  "dì qū ": 2285,
  " gòng chǎn ": 2286,
  " shǔ ": 2287,
  " chū xiàn ": 2288,
  "shēng huó": 2289,
  " fèng ": 2290,
  "shàng de": 2291,
  "zhǔ jiào": 2292,
  " xíng chéng ": 2293,
  " mí": 2294,
  " qìng ": 2295,
  "shì jiàn ": 2296,
  "móu": 2297,
  " K": 2298,
  "4 yuè ": 2299,
  "biān mǎ wèi ": 2300,
  "   yǔ": 2301,
  " qián wǎng ": 2302,
  "jīng jì ": 2303,
  "dà ": 2304,
  "   rén kǒu ": 2305,
  " wū kè lán ": 2306,
  " jù yǒu": 2307,
  " gōng zuò ": 2308,
  " lián hé": 2309,
  " ruǎn ": 2310,
  "suì ": 2311,
  " xué jiā": 2312,
  " chāo guò": 2313,
  " zhè shì ": 2314,
  "he   ": 2315,
  "25": 2316,
  " jì huà": 2317,
  " miàn jī wèi ": 2318,
  " lā ": 2319,
  "huì yì ": 2320,
  "lì de": 2321,
  "qí tā": 2322,
  " dòu": 2323,
  "liào": 2324,
  "yú ": 2325,
  " yì shù": 2326,
  " liú ": 2327,
  " yú shì ": 2328,
  "wán chéng ": 2329,
  "〉": 2330,
  "〈": 2331,
  " cáng ": 2332,
  " qiū": 2333,
  "piān ": 2334,
  "hū": 2335,
  "xù ": 2336,
  "òu guò": 2337,
  " xuān bù": 2338,
  " mèng ": 2339,
  "wén huà": 2340,
  " lěi ": 2341,
  "ra": 2342,
  "yǒu ": 2343,
  "lú": 2344,
  " 190": 2345,
  "14": 2346,
  " wù guǎn ": 2347,
  "dāng shí": 2348,
  " sōu": 2349,
  "xuān bù": 2350,
  " chū bǎn ": 2351,
  "wàng ": 2352,
  "dǐng ": 2353,
  " yáo": 2354,
  " zàng ": 2355,
  " suān ": 2356,
  " pāi ": 2357,
  " zhí dào": 2358,
  "de rén ": 2359,
  "tàn ": 2361,
  " tǐ ": 2362,
  " duō shù": 2363,
  " fǎn yìng ": 2364,
  " wèi zhì ": 2365,
  " yá": 2366,
  "xī yà": 2367,
  "   gāi ": 2368,
  "duó": 2369,
  "   D": 2370,
  " xíng dòng ": 2371,
  " fāng miàn ": 2372,
  "di": 2373,
  " péi ": 2374,
  " rán ér ": 2375,
  " W": 2376,
  "   R": 2377,
  "ǐ yè": 2378,
  "jiàn zhù": 2379,
  "ec": 2380,
  " nǚ xìng ": 2381,
  " shì yóu": 2382,
  "xǐ": 2383,
  "k ": 2384,
  " zhà": 2385,
  " yǔ yán ": 2386,
  " gū": 2387,
  " shēng chǎn ": 2388,
  " chù ": 2389,
  "   G": 2390,
  " xiù": 2391,
  " chǎn shēng ": 2392,
  "lè": 2393,
  "fù ": 2394,
  "yǐng xiǎng ": 2395,
  "guǎn lǐ": 2396,
  " zhèng zhì rén wù ": 2397,
  "guān xì ": 2398,
  " 100": 2399,
  " jí tuán ": 2400,
  " sī tǎn ": 2401,
  "xiè": 2402,
  "A ": 2403,
  " kǒu ": 2404,
  "   s": 2405,
  "   xíng zhèng ": 2406,
  " wán chéng ": 2407,
  " de rén ": 2408,
  " shí qī": 2409,
  "yòng yú": 2410,
  " suí hòu": 2411,
  " zì zhì ": 2412,
  " nèi róng ": 2413,
  "péi ": 2414,
  "rǎn ": 2415,
  "sōng ": 2416,
  "le yī": 2417,
  " wèi yú gāi ": 2418,
  " le yī": 2419,
  "chéng gōng ": 2420,
  " míng chēng ": 2421,
  " cài ": 2422,
  " kòng zhì ": 2423,
  "liè ": 2424,
  "qū de": 2425,
  " qí yú": 2426,
  " tā shì ": 2427,
  "èr nián ": 2428,
  " yùn dòng yuán ": 2429,
  "   jiā": 2430,
  "formula ": 2431,
  "ruò": 2432,
  "qiū": 2433,
  " dōng nán ": 2434,
  "tiě lù": 2435,
  "bǎng ": 2436,
  " guò chéng ": 2437,
  "iè": 2438,
  " shu": 2439,
  "cān yù": 2440,
  "yào ": 2441,
  "an ": 2442,
  " pú": 2443,
  " zhǐ yǒu": 2444,
  "běi jīng ": 2445,
  " yuè 28 rì ": 2446,
  " zhé": 2447,
  " dà liàng ": 2448,
  "pǐ": 2449,
  " xuè": 2450,
  " yì wèi ": 2451,
  "60": 2452,
  " kē ": 2453,
  " yuè 15 rì ": 2454,
  " xià lìng ": 2455,
  "tǐng ": 2456,
  "měi yuán ": 2457,
  " shèn zhì ": 2458,
  "gōng chéng ": 2459,
  " píng jūn ": 2460,
  "pí": 2461,
  " 30": 2462,
  " biāo zhǔn ": 2463,
  " zǔ ": 2464,
  "24": 2465,
  "fǒu": 2466,
  " ér qiě": 2467,
  " huì yì ": 2468,
  " 2 ": 2469,
  " shòu dào": 2470,
  " sǔn ": 2471,
  " jīng guò": 2472,
  " dāng zhōng ": 2473,
  " jiā rù": 2474,
  " chū de": 2475,
  " míng de": 2476,
  " kuān ": 2477,
  " dì fāng ": 2478,
  "jué dìng ": 2479,
  "–": 2480,
  "rú ": 2481,
  " luó mǎ": 2482,
  "bù duì ": 2483,
  "fù zé": 2484,
  "yá ": 2485,
  " wú fǎ": 2486,
  "ng   ": 2487,
  "ān quán ": 2488,
  " téng ": 2489,
  " jūn duì ": 2490,
  " nián 10 yuè ": 2491,
  "m ": 2492,
  " huái ": 2493,
  "zhǎo": 2494,
  " 2001 nián ": 2495,
  "tú ": 2496,
  "   c": 2497,
  "dì sān ": 2498,
  "198": 2499,
  "zhuàn ": 2500,
  " bāo kuò ": 2501,
  "ǔ ěr": 2502,
  " dàn zài ": 2503,
  " yuē ": 2504,
  " qiú ": 2505,
  "zhà": 2506,
  " fàn wéi ": 2507,
  "shǒu cì ": 2508,
  "nèi de": 2509,
  " yòng yú": 2510,
  " huài ": 2511,
  " xiàn dài ": 2512,
  "suǒ yǒu": 2513,
  " lì de": 2514,
  " yì huì ": 2515,
  "dāng dì ": 2516,
  "jiàn de": 2517,
  "liè chē": 2518,
  " tì ": 2519,
  "zhī chí": 2520,
  "   198": 2521,
  " lài ": 2522,
  "zú ": 2523,
  " duān ": 2524,
  "shàng hǎi ": 2525,
  " fǎn duì ": 2526,
  " shì yī zhǒng ": 2527,
  " jǔ xíng ": 2528,
  "an   ": 2529,
  " wǒ men ": 2530,
  " yì yuán ": 2531,
  "jiào yù": 2532,
  "30 rì ": 2533,
  " zhā": 2534,
  "20 rì ": 2535,
  "S ": 2536,
  "xiōng ": 2537,
  " dì qū ": 2538,
  "jì huà": 2539,
  " fù jìn ": 2540,
  " gòng chǎn dǎng ": 2541,
  "…": 2542,
  "2 yuè ": 2543,
  "0 rì ": 2544,
  " xīn wén ": 2545,
  " sù ": 2546,
  " yuè 25 rì ": 2547,
  " tā céng ": 2548,
  "p ": 2549,
  "quán guó": 2550,
  "zhāo": 2551,
  "dīng ": 2552,
  " dà bù fèn ": 2553,
  " zhī hòu ": 2554,
  "wū kè lán ": 2555,
  "è ěr": 2556,
  " yuè 10 rì ": 2557,
  "ay": 2558,
  " duó": 2559,
  " lián bāng ": 2560,
  " yì zhí": 2561,
  " wèn tí ": 2562,
  "duǎn ": 2563,
  "lái zì ": 2564,
  "shì zài ": 2565,
  " suō": 2566,
  " lǜ ": 2567,
  " hào xiàn ": 2568,
  "ěn dìng ": 2569,
  " zì rán ": 2570,
  " xī nán ": 2571,
  "de yí gè shì zhèn ": 2572,
  " jiǔ ": 2573,
  " qǐ ": 2574,
  " shū ": 2575,
  " suǒ ": 2576,
  "jué sài ": 2577,
  " guī mó": 2578,
  "jiā rù": 2579,
  "   I": 2580,
  "zhàng ": 2581,
  "   H": 2582,
  "UT": 2583,
  " niú": 2584,
  "máo": 2585,
  " qí hòu": 2586,
  "shòu dào": 2587,
  "jiū ": 2588,
  " de shù": 2589,
  " zài zhè": 2590,
  " tóng shí ": 2591,
  "..": 2592,
  "   F": 2593,
  " kē xué": 2594,
  " dūn ": 2595,
  " jì xù": 2596,
  "gōng yuán ": 2597,
  " fēn bù yú": 2598,
  " mǎi ": 2599,
  " chóu": 2600,
  " gāo dù": 2601,
  " sān nián ": 2602,
  "23": 2603,
  "ag": 2604,
  "lì shǐ": 2605,
  " nián 11 yuè ": 2606,
  " bù duì ": 2607,
  " yǒu guān ": 2608,
  "de jī": 2609,
  "wò": 2610,
  " lǐng dǎo": 2611,
  " fú wù": 2612,
  " xiǎn shì ": 2613,
  "dié": 2614,
  " xuě": 2615,
  "qǔ dé": 2616,
  " zǔ chéng ": 2617,
  " yī nián ": 2618,
  "cún zài ": 2619,
  " bǎn běn ": 2620,
  "qiāng ": 2621,
  " zhōng gòng ": 2622,
  " zuò yòng ": 2623,
  " zhí yè": 2624,
  "yǒu xiàn ": 2625,
  "cí ": 2626,
  "zuò pǐn ": 2627,
  "xuǎn jǔ": 2628,
  "fú ": 2629,
  "gé lán ": 2630,
  " zào chéng ": 2631,
  " bù zhǎng ": 2632,
  "shùn ": 2633,
  "jià ": 2634,
  " mǒu": 2635,
  " gōng sī ": 2636,
  "yìn dù": 2637,
  "ir": 2638,
  " bà": 2639,
  " yuán yīn ": 2640,
  " lüè": 2641,
  "   18": 2642,
  " huán jìng ": 2643,
  "lüè": 2644,
  " shǒu cì ": 2645,
  " jiǎn chēng ": 2646,
  "shí dài ": 2647,
  " cāo": 2648,
  " shè ": 2649,
  " yú 200": 2650,
  " de shí": 2651,
  "pāi ": 2652,
  "D ": 2653,
  "chāng ": 2654,
  " rén kǒu pǔ chá": 2655,
  "   nián ": 2656,
  "ent": 2657,
  " jié zhì ": 2658,
  " mín zú": 2659,
  " xī běi ": 2660,
  "bǎo ": 2661,
  "yú 201": 2662,
  "lēi ": 2663,
  " qū wèi ": 2664,
  "us": 2665,
  "biāo sài ": 2666,
  " guān yú": 2667,
  " chūn ": 2668,
  " yùn dòng huì ": 2669,
  " lín pǐ": 2670,
  " yuè 18 rì ": 2671,
  " mín zhǔ": 2672,
  "lǎn ": 2673,
  "wǎ": 2674,
  " qí ": 2675,
  "yōng yǒu": 2676,
  " yì dà lì ": 2677,
  " guǎn xiá ": 2678,
  " yǎn yuán ": 2679,
  " xié huì ": 2680,
  "shǔ ": 2681,
  " de jī": 2682,
  "ā ěr": 2683,
  " xíng wéi ": 2684,
  " liào ": 2685,
  " zhí jiē": 2686,
  "22": 2687,
  " lìng yī": 2688,
  "dé ": 2689,
  "   194": 2690,
  "nà ": 2691,
  " gé mìng ": 2692,
  "yáo": 2693,
  "qiú duì ": 2694,
  "zǒng tǒng ": 2695,
  "tǎn ": 2696,
  "cáng ": 2697,
  "qiǎn ": 2698,
  " chū le": 2699,
  "jī chǎng ": 2700,
  " yuè 24 rì ": 2701,
  " zhōng huá mín guó": 2702,
  " shè yǒu": 2703,
  " yuè 26 rì ": 2704,
  "ig": 2705,
  "kǒng ": 2706,
  " sāng ": 2707,
  " zhěn ": 2708,
  " 19 rì ": 2709,
  "qián wǎng ": 2710,
  "wěi yuán ": 2711,
  " xuǎn zé": 2712,
  "tǎo": 2713,
  " yuè 16 rì ": 2714,
  " yāo": 2715,
  "jiàn lì ": 2716,
  "xiàn de": 2717,
  " O": 2718,
  " quē": 2719,
  "   jù": 2720,
  " shì wèi yú měi guó": 2721,
  "xū yào": 2722,
  " zōng jiào": 2723,
  "oo": 2724,
  " yuè 17 rì ": 2725,
  " guān fāng ": 2726,
  " liè ": 2727,
  " nán zi ": 2728,
  "shì yī": 2729,
  " chún ": 2730,
  " yuè 12 rì ": 2731,
  " zhàn dòu": 2732,
  "guǐ": 2733,
  " zuì chū": 2734,
  "jí tuán ": 2735,
  "zhǔn ": 2736,
  " cǎo": 2737,
  " míng zì ": 2738,
  "hán guó": 2739,
  "xíng de": 2740,
  " yuè 11 rì ": 2741,
  "fán ": 2742,
  "jié shù": 2743,
  " lín pǐ kè": 2744,
  "hòu lái ": 2745,
  " ròu": 2746,
  " zūn ": 2747,
  "ed": 2748,
  "chì ": 2749,
  "shu": 2750,
  " ní ": 2751,
  " tā men de": 2752,
  " zài 201": 2753,
  "zú qiú": 2754,
  "luàn ": 2755,
  "80": 2756,
  "jì xù": 2757,
  "zhì zuò": 2758,
  "miào": 2759,
  " nài ": 2760,
  " shí dài ": 2761,
  " dà ": 2762,
  "qiú ": 2763,
  "em": 2764,
  "rù ": 2765,
  "zǔ chéng ": 2766,
  " cí ": 2767,
  "xué shēng ": 2768,
  " yuè 27 rì ": 2769,
  "kāi fā": 2770,
  "jiē ": 2771,
  " jú ": 2772,
  " zhōu de": 2773,
  " lí ": 2774,
  " tú ": 2775,
  "chū bǎn ": 2776,
  "huái ": 2777,
  " yuè 21 rì ": 2778,
  "UTC ": 2779,
  " gòng tóng ": 2780,
  " yuè 2 rì ": 2781,
  "zhè xiē": 2782,
  "00 ": 2783,
  " yuè 19 rì ": 2784,
  "shā ": 2785,
  "léi ": 2786,
  " zhī qián ": 2787,
  " tā ": 2788,
  " bāo hán ": 2789,
  "suān ": 2790,
  " duō ": 2791,
  " yuè 22 rì ": 2792,
  "   shì ": 2793,
  "2020 nián ": 2794,
  " kè sī": 2795,
  "péng ": 2796,
  " yuè 23 rì ": 2797,
  "dǎo zhì ": 2798,
  "   W": 2799,
  "cǎo": 2800,
  " mǔ ": 2801,
  "cuò": 2802,
  " páng ": 2803,
  "zhuī": 2804,
  "yóu yú": 2805,
  " sū lián ": 2806,
  " jué sè": 2807,
  " yuè 14 rì ": 2808,
  "31 rì ": 2809,
  "kù": 2810,
  " dà zhàn ": 2811,
  " fēn zhōng ": 2812,
  "chǎn shēng ": 2813,
  " gē ": 2814,
  " chóng xīn ": 2815,
  "70": 2816,
  " jié ": 2817,
  " yuè 29 rì ": 2818,
  " nǚ zǐ": 2819,
  "zàng ": 2820,
  "hù ": 2821,
  " yī míng ": 2822,
  " shǐ de": 2823,
  " mǐn ": 2824,
  "yǐ lái ": 2825,
  "21": 2826,
  "chóu": 2827,
  "piào": 2828,
  " zài dì ": 2829,
  " méi tǐ": 2830,
  " xuǎn qū": 2831,
  " fēi cháng ": 2832,
  " ā ěr": 2833,
  " diào chá": 2834,
  "gōng zuò ": 2835,
  " ér zi ": 2836,
  "gàn ": 2837,
  " yuē hàn ": 2838,
  " chǐ": 2839,
  " shì fǎ guó": 2840,
  " niǎo": 2841,
  "ter": 2842,
  " fā ": 2843,
  " lǐ lùn ": 2844,
  "xíng zhèng ": 2845,
  " yuè 13 rì ": 2846,
  "zhòng yào": 2847,
  " nǔ": 2848,
  " lā sī": 2849,
  "yāo qiú": 2850,
  "fā biǎo": 2851,
  " sài shì ": 2852,
  " U": 2853,
  "zhì de": 2854,
  " guǎng dōng ": 2855,
  " zī ": 2856,
  " mèi ": 2857,
  " yě yǒu": 2858,
  " bú shì ": 2859,
  " rán hòu": 2860,
  " zì jǐ de": 2861,
  " shuì ": 2862,
  " wài jiāo": 2863,
  "sūn ": 2864,
  " wù zhǒng ": 2865,
  " zhú jiàn ": 2866,
  " jiē shòu": 2867,
  "jì shù": 2868,
  " sài jì ": 2869,
  " shì hé": 2870,
  "bǐ ": 2871,
  "mín zhǔ": 2872,
  " xī bān yá": 2873,
  "ub": 2874,
  " lèi sì ": 2875,
  " bào ": 2876,
  " biǎo xiàn ": 2877,
  " gōng kāi ": 2878,
  " mǔ qīn ": 2879,
  "   E": 2880,
  "dān wèi ": 2881,
  " zuì jiā": 2882,
  "shū jì ": 2883,
  " wèi yú gāi guó": 2884,
  "ruǎn ": 2885,
  " féng ": 2886,
  " chéng jì ": 2887,
  "zào ": 2888,
  " qǔ dé": 2889,
  " dà huì ": 2890,
  "hūn ": 2891,
  " guó ": 2892,
  " yīn cǐ ": 2893,
  "zuì gāo": 2894,
  "fù jìn ": 2895,
  " bì xū": 2896,
  "un": 2897,
  " bàng ": 2898,
  "zì yóu": 2899,
  " qù ": 2900,
  "xíng chéng ": 2901,
  "jū mín ": 2902,
  "shí de": 2903,
  "os": 2904,
  " kěn ": 2905,
  "suǒ ": 2906,
  " rén lèi ": 2907,
  " tái běi ": 2908,
  "zuì zhōng ": 2909,
  " lái xī yà": 2910,
  "gōng shì ": 2911,
  "fēn bié": 2912,
  "ào yùn ": 2913,
  "jǔ bàn ": 2914,
  "jù yǒu": 2915,
  " zhǎo": 2916,
  "i   ": 2917,
  " sǐ ": 2918,
  "nǎo": 2919,
  "zhōng gòng ": 2920,
  " mù dì ": 2921,
  " rú ": 2922,
  "197": 2923,
  " V": 2924,
  " xī yà": 2925,
  " néng lì ": 2926,
  "kān ": 2927,
  " fó": 2928,
  " xī wàng ": 2929,
  " qí shì ": 2930,
  " guī dìng ": 2931,
  "fāng shì ": 2932,
  " dé dào": 2933,
  "jūn shì ": 2934,
  "ní yà": 2935,
  "diào chá": 2936,
  "um": 2937,
  "zhī hòu ": 2938,
  "zǔ ": 2939,
  "EE": 2940,
  " bìng wèi ": 2941,
  "dì guó": 2942,
  " kào": 2943,
  "yí ": 2944,
  "píng yáng ": 2945,
  "pán ": 2946,
  " cāng ": 2947,
  "kǎi ": 2948,
  "zhī qián ": 2949,
  "luò ": 2950,
  " zēng jiā": 2951,
  " dì guó": 2952,
  "pào": 2953,
  "yǔ yán ": 2954,
  " tài yáng ": 2955,
  "yì shù": 2956,
  "bō ": 2957,
  " ěr shěng ": 2958,
  " fēn wéi ": 2959,
  " zāi ": 2960,
  "yǎ": 2961,
  "ào lín pǐ kè": 2962,
  " yóu zhèng ": 2963,
  " yín háng ": 2964,
  "de gōng ": 2965,
  " 2009 nián ": 2966,
  " jì niàn ": 2967,
  "chǐ": 2968,
  "gū": 2969,
  "tè ": 2970,
  " huò ": 2971,
  " míng wèi ": 2972,
  " wěi yuán ": 2973,
  " jù lè": 2974,
  " cháo xiān ": 2975,
  " quán lì ": 2976,
  "lǔ": 2977,
  " sān gè": 2978,
  "oc": 2979,
  " jìng nèi ": 2980,
  "yí bù": 2981,
  " wán quán ": 2982,
  " jié mù": 2983,
  " dá ": 2984,
  "zhé": 2985,
  "shēng chǎn ": 2986,
  " fǎ lǜ": 2987,
  " bǐng ": 2988,
  " dǒng ": 2989,
  " gòng yǒu": 2990,
  "jiāo tōng ": 2991,
  " sì nián ": 2992,
  "wú fǎ": 2993,
  "cǎi yòng ": 2994,
  "zòu": 2995,
  "shuài ": 2996,
  " 2020 nián ": 2997,
  " xīn de": 2998,
  " shí jì ": 2999,
  " chuàng zuò": 3000,
  " liǎng rén ": 3001,
  "yǒu yī": 3002,
  "fǎ yuàn ": 3003,
  "me": 3004,
  "mǔ ": 3005,
  " gǎi wéi ": 3006,
  " tǐ yù": 3007,
  " zhè jiāng ": 3008,
  "xià jì ": 3009,
  "and": 3010,
  "yì huì ": 3011,
  "xuè": 3012,
  "   zhèng zhì ": 3013,
  " chē ": 3014,
  " dà lì yà": 3015,
  "9 yuè": 3016,
  "zāi ": 3017,
  " 3 ": 3018,
  "xiū ": 3019,
  " bèi jǐng ": 3020,
  "xíng dòng ": 3021,
  "jué ": 3022,
  "op": 3023,
  " zhōng shì ": 3024,
  " fú ": 3025,
  " míng cháo": 3026,
  " lǐ sī": 3027,
  " xiǎo ": 3028,
  "48": 3029,
  " shēn fèn ": 3030,
  " wèi měi ": 3031,
  "de dà": 3032,
  " xiàn zhì ": 3033,
  " nǎi ": 3034,
  "rén shì ": 3035,
  " nà ": 3036,
  "   p": 3037,
  " jiāng jūn ": 3038,
  "35": 3039,
  " tí ": 3040,
  "   yóu yú": 3041,
  "gé mìng ": 3042,
  " 189": 3043,
  " miè": 3044,
  "28": 3045,
  " lì yòng ": 3046,
  " qī xī": 3047,
  "ad": 3048,
  "shuǐ ": 3049,
  " jiè ": 3050,
  " zhǔ rèn ": 3051,
  " jū mín ": 3052,
  " jiā tíng ": 3053,
  " dìng yì ": 3054,
  "shí qī ": 3055,
  "dà xué ": 3056,
  " hěn duō": 3057,
  "kē xué": 3058,
  "NS": 3059,
  "pà": 3060,
  "xué wèi ": 3061,
  " diāo": 3062,
  "ot": 3063,
  " shù liàng wèi ": 3064,
  " de gōng ": 3065,
  " yóu ": 3066,
  " gé lán ": 3067,
  "ap": 3068,
  " diàn zi ": 3069,
  "měi guó rén kǒu pǔ chá": 3070,
  " 2019 nián ": 3071,
  "wù bǎo hù": 3072,
  " céng rèn ": 3073,
  " lì rú ": 3074,
  " 2021 nián ": 3075,
  "jì niàn ": 3076,
  " gāo ": 3077,
  "miàn jī ": 3078,
  "yuè ": 3079,
  " 5 ": 3080,
  " bǎng ": 3081,
  "hé zuò": 3082,
  "26": 3083,
  "tì ": 3084,
  "shè lì ": 3085,
  " jì suàn ": 3086,
  "chóng xīn ": 3087,
  " zǎo qī": 3088,
  " gè zhǒng ": 3089,
  " biāo ": 3090,
  " dì lì ": 3091,
  " guō": 3092,
  "jiā pō": 3093,
  " qū de": 3094,
  " yǔn ": 3095,
  " lù jūn ": 3096,
  " qū yù": 3097,
  " 2010 nián ": 3098,
  "lián méng ": 3099,
  " dì sì ": 3100,
  " 2008 nián ": 3101,
  "xíng shì ": 3102,
  " zhí xíng ": 3103,
  "xiáng ": 3104,
  " gāo dù ": 3105,
  " rǔ": 3106,
  "jiē shòu": 3107,
  "tōng cháng ": 3108,
  " wèn tí": 3109,
  " bó shì ": 3110,
  "27": 3111,
  " zài 200": 3112,
  "luó mǎ": 3113,
  "zhè ge": 3114,
  "shěng fèn ": 3115,
  "shì zhǎng ": 3116,
  "jiě fàng ": 3117,
  "   N": 3118,
  " jì zǎi ": 3119,
  " qiǎn ": 3120,
  "niǎo": 3121,
  " juǎn ": 3122,
  " jù lí": 3123,
  "mǒu": 3124,
  " de dà": 3125,
  " qiú yuán ": 3126,
  "xīn wén ": 3127,
  "yè yú": 3128,
  " shā ": 3129,
  " wǔ nián ": 3130,
  " shěng jí": 3131,
  " xiàn shí": 3132,
  " yòu chēng ": 3133,
  "dú lì ": 3134,
  " shāng yè": 3135,
  "   m": 3136,
  " jī chǎng ": 3137,
  " tǒng zhì ": 3138,
  "láo": 3139,
  " zhuó": 3140,
  "yì zhí": 3141,
  "quē": 3142,
  " jì lù": 3143,
  " fā biǎo": 3144,
  " gē qǔ": 3145,
  "ab": 3146,
  "shèn ": 3147,
  "de hé": 3148,
  "huà de": 3149,
  "wén xué": 3150,
  " zài cǐ": 3151,
  "in   ": 3152,
  " zài cì ": 3153,
  " gōu": 3154,
  " gè ": 3155,
  " kuàng ": 3156,
  "kòng zhì ": 3157,
  " jiē rǎng ": 3158,
  "29": 3159,
  " néng gòu": 3160,
  " nǚ ": 3161,
  " xiǎo shí ": 3162,
  " jiào ": 3163,
  " bèi chēng wéi ": 3164,
  " niǔ yuē": 3165,
  "P ": 3166,
  " dié": 3167,
  " dòng wù": 3168,
  " zhái ": 3169,
  " rén shì ": 3170,
  " zhì de": 3171,
  " jié gòu": 3172,
  "bǎo hù": 3173,
  " jiā ná dà": 3174,
  " fǔ ": 3175,
  "niǔ": 3176,
  " zhuàn ": 3177,
  " bó wù guǎn ": 3178,
  " gǔ ": 3179,
  "yì dà lì ": 3180,
  " shēng wù": 3181,
  "kuǎn ": 3182,
  "qù shì ": 3183,
  " kù ": 3184,
  "nán zi ": 3185,
  "niú": 3186,
  " rè dài ": 3187,
  "7 yuè": 3188,
  "   197": 3189,
  " kūn ": 3190,
  "rén yuán ": 3191,
  " zhēng yì ": 3192,
  " xī là": 3193,
  " br ": 3194,
  " yǒu yī": 3195,
  "lù dì ": 3196,
  " huà xué": 3197,
  " yǒu xiàn ": 3198,
  "sī lìng ": 3199,
  "   195": 3200,
  " bǎo ": 3201,
  " xià de": 3202,
  "shì jiè dà zhàn ": 3203,
  " xíng de": 3204,
  "fǎn yìng ": 3205,
  " cè ": 3206,
  "xiào ": 3207,
  "fú wù": 3208,
  " gōng lǐ": 3209,
  "yé": 3210,
  "194": 3211,
  "   yú": 3212,
  " chāng ": 3213,
  " bù zài ": 3214,
  " niè": 3215,
  "wù bǎo hù dān wèi ": 3216,
  " wán jiā": 3217,
  "zuì hòu": 3218,
  " yīng chǐ ": 3219,
  "av": 3220,
  "   3": 3221,
  " jí zhōng ": 3222,
  " nǎo": 3223,
  " lā bó": 3224,
  " dōu shì ": 3225,
  "dé dào": 3226,
  " bù néng ": 3227,
  " kuí": 3228,
  " 2022 nián ": 3229,
  " píng lùn ": 3230,
  "   formula ": 3231,
  " zhǐ shì ": 3232,
  " de hé": 3233,
  " wàn rén ": 3234,
  "xī shěng ": 3235,
  " zuì dà": 3236,
  " xú": 3237,
  " shǎn ": 3238,
  "yī yuàn ": 3239,
  "shāo": 3240,
  " zhè yàng ": 3241,
  "im": 3242,
  " gōng yè": 3243,
  " xiāng dāng ": 3244,
  "iē": 3245,
  " cáo": 3246,
  " 4 ": 3247,
  "qiè": 3248,
  "ào lín pǐ kè yùn dòng huì ": 3249,
  " pī píng ": 3250,
  "ov": 3251,
  "xiāng guān ": 3252,
  " yìng yòng ": 3253,
  " shè lì ": 3254,
  "guó mín ": 3255,
  "xīn de": 3256,
  " bā shì ": 3257,
  "lián hé": 3258,
  "gǔ ": 3259,
  " zhí wù ": 3260,
  " měi nián ": 3261,
  " xiàng mù": 3262,
  "zhōng huá rén mín gòng hé guó": 3263,
  " xī yáng ": 3264,
  " cì shì jiè dà zhàn ": 3265,
  "bàng ": 3266,
  " shí èr": 3267,
  " yān ": 3268,
  "kāi shǐ ": 3269,
  " dà xué ": 3270,
  "jǔ ": 3271,
  "qíng kuàng ": 3272,
  " tòu guò": 3273,
  "sǐ wáng ": 3274,
  " zhān ": 3275,
  "chún ": 3276,
  " kōng jiān ": 3277,
  "   f": 3278,
  " ōu": 3279,
  "dōng běi ": 3280,
  " xì bāo": 3281,
  " gōng fēn ": 3282,
  "yī xiē": 3283,
  "in ": 3284,
  "   b": 3285,
  " sī kē": 3286,
  " yōng ": 3287,
  " jiàn yì ": 3288,
  " dōng jīng ": 3289,
  "jí de": 3290,
  " céng jīng ": 3291,
  "ní ": 3292,
  "miàn jī wèi ": 3293,
  " lí kāi ": 3294,
  "3 yuè": 3295,
  "shì dì ": 3296,
  " kēng ": 3297,
  "měi zhōu": 3298,
  " jǔ bàn ": 3299,
  " quán qiú": 3300,
  " sī lán ": 3301,
  " lóu ": 3302,
  " jiē duàn ": 3303,
  " shān dōng ": 3304,
  " hái yǒu": 3305,
  " shí nián ": 3306,
  " rén kǒu shù liàng wèi ": 3307,
  " gōng gòng ": 3308,
  " bǐ lì ": 3309,
  "   196": 3310,
  " bèi ěr": 3311,
  " 2011 nián ": 3312,
  " zhǔ chí": 3313,
  "8 yuè": 3314,
  " luó ": 3315,
  " xìng de": 3316,
  " bù de": 3317,
  "45": 3318,
  "liǎng gè": 3319,
  "chù ": 3320,
  " chí xù": 3321,
  " gài niàn ": 3322,
  "gōng kāi ": 3323,
  " gē qǔ ": 3324,
  " yī shì ": 3325,
  "duō ": 3326,
  "196": 3327,
  "ná": 3328,
  " jī běn ": 3329,
  " lù xiàn ": 3330,
  "bà": 3331,
  " guó wáng ": 3332,
  "90": 3333,
  " kuà": 3334,
  "hú ": 3335,
  " hēng ": 3336,
  " wèi yú fǎ guó": 3337,
  "shǎng ": 3338,
  "pú": 3339,
  " shì chǎng ": 3340,
  " dà de": 3341,
  "yín háng ": 3342,
  " tóng yàng ": 3343,
  "sài shì ": 3344,
  " 2007 nián ": 3345,
  "   yī": 3346,
  "   chē zhàn ": 3347,
  " yì shì ": 3348,
  "jìn shì ": 3349,
  "yǒu guān ": 3350,
  "yì yuàn ": 3351,
  " xiāng duì ": 3352,
  " yà zhōu": 3353,
  " 50": 3354,
  "rào": 3355,
  "   gēn jù ": 3356,
  " làng ": 3357,
  "rèn wéi shì ": 3358,
  " luàn ": 3359,
  " fēn lèi ": 3360,
  " tí chū": 3361,
  " luò ": 3362,
  " 25": 3363,
  "zào chéng ": 3364,
  " shāo": 3365,
  " mǎ ": 3366,
  "xǔ duō": 3367,
  " han": 3368,
  " wéi ěr": 3369,
  " zǒng rén kǒu": 3370,
  "wéi yī": 3371,
  "fàn wéi ": 3372,
  " 188": 3373,
  " wù yuàn ": 3374,
  "I ": 3375,
  " tiān jīn ": 3376,
  " hǎn ": 3377,
  "de shì zhèn ": 3378,
  " cù": 3379,
  "jié mù": 3380,
  "biāo zhǔn ": 3381,
  " pái míng ": 3382,
  "6 yuè": 3383,
  "cāng ": 3384,
  " lái de": 3385,
  "mèng ": 3386,
  " jiàn shè": 3387,
  "yán zhòng ": 3388,
  " cuì ": 3389,
  " tè zhēng ": 3390,
  "fó": 3391,
  " de xīn ": 3392,
  " de shù jù ": 3393,
  "   zhè": 3394,
  "zé ": 3395,
  "cài ": 3396,
  " měi gè": 3397,
  " cuī": 3398,
  " běi bù": 3399,
  " qīng nián ": 3400,
  "zhōu shì ": 3401,
  "diān ": 3402,
  "00 wàn ": 3403,
  " tǎo": 3404,
  "lái de": 3405,
  " tǔ dì ": 3406,
  "kuān ": 3407,
  " niàn ": 3408,
  " mó shì ": 3409,
  " 2012 nián ": 3410,
  "zá": 3411,
  " rì jūn ": 3412,
  " pán ": 3413,
  " bìng jiāng ": 3414,
  " fú jiàn ": 3415,
  "gǎi wéi ": 3416,
  " yán jiū ": 3417,
  " mìng míng ": 3418,
  "bǐ yà": 3419,
  " lǎn ": 3420,
  "ak": 3421,
  " ér ": 3422,
  " chéng qū ": 3423,
  " wèi měi píng fāng ": 3424,
  "5 yuè": 3425,
  "yuán de": 3426,
  " guǒ ": 3427,
  " tào": 3428,
  "shuì ": 3429,
  " zhì zào": 3430,
  " jiù shì zhèn ": 3431,
  " huǐ": 3432,
  " suǒ shǔ de": 3433,
  "zǐ ": 3434,
  " lěng ": 3435,
  " chéng zhèn ": 3436,
  "fēi cháng ": 3437,
  "si": 3438,
  " zhōng guó dà lù": 3439,
  " jiào táng ": 3440,
  " qīng cháo": 3441,
  "kěn ": 3442,
  "háo mǐ ": 3443,
  " shuǐ ": 3444,
  "héng xīng ": 3445,
  " yī cì ": 3446,
  "gōng yè": 3447,
  "33": 3448,
  "zūn ": 3449,
  "4 yuè": 3450,
  " dà qū": 3451,
  " dìng de": 3452,
  "zhǔ rèn ": 3453,
  " rén kǒu mì dù wèi měi píng fāng ": 3454,
  " 2005 nián ": 3455,
  "yī cì ": 3456,
  " zhǐ huī": 3457,
  " rén men ": 3458,
  "kāi fàng ": 3459,
  " jǐn biāo sài ": 3460,
  "dōu shì ": 3461,
  " gè dì ": 3462,
  "chá ": 3463,
  "   2": 3464,
  "E ": 3465,
  " pān ": 3466,
  "2010 nián ": 3467,
  " měi píng fāng ": 3468,
  "w ": 3469,
  "hái yǒu": 3470,
  " shí yàn ": 3471,
  "rèn mìng ": 3472,
  "wèn tí": 3473,
  "tè bié": 3474,
  "zì jǐ de": 3475,
  " yǎn chàng ": 3476,
  " ér shì ": 3477,
  " xiǎo shí": 3478,
  " cóng ér": 3479,
  " chǔ lǐ": 3480,
  " rén kǒu shù liàng wèi rén ": 3481,
  " 2006 nián ": 3482,
  " shū jì ": 3483,
  "kào": 3484,
  " wéi yà": 3485,
  "   193": 3486,
  "de yī bù fèn ": 3487,
  " INS": 3488,
  "jú ": 3489,
  "mǐn ": 3490,
  "   tā": 3491,
  "195": 3492,
  "shòu ": 3493,
  " má": 3494,
  " 2013 nián ": 3495,
  "lǜ ": 3496,
  "bǐng ": 3497,
  " tún ": 3498,
  "shì shì ": 3499,
  " xuǎn jǔ": 3500,
  "chāo guò": 3501,
  " dí ": 3502,
  "   hé": 3503,
  " ān quán ": 3504,
  " sì chuān ": 3505,
  " yuè tái ": 3506,
  " nián 1 yuè": 3507,
  "shí èr": 3508,
  " 2016 nián ": 3509,
  " jī bài ": 3510,
  " dǎo yǎn ": 3511,
  "shǐ y": 3512,
  "wèn tí ": 3513,
  " INSEE": 3514,
  "de xiǎo": 3515,
  " wēi lián ": 3516,
  " sè liè": 3517,
  " dà yuē": 3518,
  " wén xué": 3519,
  "tí chū": 3520,
  " zhí zhì ": 3521,
  " qǐ yè": 3522,
  "de xīn ": 3523,
  "   K": 3524,
  " xùn liàn ": 3525,
  " yóu zhèng biān mǎ wèi ": 3526,
  "   O": 3527,
  " jī gòu": 3528,
  " de yuán ": 3529,
  " dāng xuǎn ": 3530,
  " hōng ": 3531,
  "wèi fǎ guó": 3532,
  "wán quán ": 3533,
  " sǐ wáng ": 3534,
  " gōng néng ": 3535,
  " jiě ": 3536,
  " huò zhě": 3537,
  " lún dūn ": 3538,
  " pú táo": 3539,
  "yì de": 3540,
  " 2000 nián ": 3541,
  " miào": 3542,
  "fāng xiàng ": 3543,
  " fǎ yuàn ": 3544,
  " kǎn ": 3545,
  " píng tái ": 3546,
  " 2014 nián ": 3547,
  " zhòu": 3548,
  " yì zhì ": 3549,
  "téng ": 3550,
  " miǎo": 3551,
  " liù nián ": 3552,
  "dì fāng ": 3553,
  " kǎ ": 3554,
  " cán ": 3555,
  " sī de": 3556,
  " yú 199": 3557,
  " fú wù ": 3558,
  " jì huà ": 3559,
  "tóng shí": 3560,
  " tāng ": 3561,
  " réng rán ": 3562,
  " gōng lù": 3563,
  "iǎo zhàn ": 3564,
  " jiāng qí": 3565,
  " jiàn zhù ": 3566,
  " yǒu shí": 3567,
  " lián jiē": 3568,
  " shū guǎn ": 3569,
  "chā": 3570,
  " é luó sī": 3571,
  " shì zhōng guó": 3572,
  "dì de": 3573,
  " 2018 nián ": 3574,
  " chǎn pǐn ": 3575,
  " yǐng piàn ": 3576,
  "zài cì ": 3577,
  " yīng wén ": 3578,
  " nè": 3579,
  "chāi ": 3580,
  "xuě": 3581,
  " fāng xiàng ": 3582,
  "gè ": 3583,
  " shuài ": 3584,
  " zé ": 3585,
  "yāo": 3586,
  " xué xí": 3587,
  "sū lián ": 3588,
  "gòng yǒu rén kǒu": 3589,
  "zhí xíng ": 3590,
  " bìng bù": 3591,
  "duō de": 3592,
  "38": 3593,
  "yì qǐ": 3594,
  "fā bù": 3595,
  "lěi ": 3596,
  " hé zuò": 3597,
  " dào de": 3598,
  " rén kǒu mì dù měi píng fāng ": 3599,
  "diàn shì tái ": 3600,
  "36": 3601,
  " shì zhèn biān mǎ wèi ": 3602,
  " INSEE shì zhèn biān mǎ wèi ": 3603,
  " wēi ěr": 3604,
  " yī zhǒng ": 3605,
  "『": 3606,
  "jīng guò": 3607,
  " 2015 nián ": 3608,
  " dàn tā": 3609,
  " xià lìng shí ": 3610,
  "zhí jiē": 3611,
  "gòng tóng ": 3612,
  "suō": 3613,
  "』": 3614,
  " zhuān yè": 3615,
  " yī yuàn ": 3616,
  " xiāng tóng ": 3617,
  " shuò": 3618,
  " shí de rén kǒu shù liàng wèi rén ": 3619,
  " xuǎn qū wèi ": 3620,
  "měi guó rén kǒu pǔ chá de shù jù ": 3621,
  "xìng de": 3622,
  " ér rén kǒu mì dù wèi měi píng fāng ": 3623,
  " dāng dì gòng yǒu rén kǒu": 3624,
  " gào ": 3625,
  " tiáo jiàn ": 3626,
  " wù lǐ": 3627,
  "tǐ yù": 3628,
  " xué zhě": 3629,
  " jīng cháng ": 3630,
  " dèng ": 3631,
  "lǐng dǎo": 3632,
  " guān yuán ": 3633,
  "máng ": 3634,
  " xī gē": 3635,
  " huò jiù shì zhèn ": 3636,
  " gāi shěng fèn ": 3637,
  "es ": 3638,
  " 2023 nián ": 3639,
  " shěng jí xuǎn qū wèi ": 3640,
  " yī yàng ": 3641,
  "shǎo ": 3642,
  " gōng chǐ ": 3643,
  " jiào shòu ": 3644,
  " me": 3645,
  " zá zhì ": 3646,
  " háng ": 3647,
  " hé nán ": 3648,
  "yuán nián ": 3649,
  "lì yòng ": 3650,
  "lián bāng ": 3651,
  " xiān hòu": 3652,
  "   J": 3653,
  " bō ": 3654,
  " hǎi bá gāo dù ": 3655,
  " guó huì ": 3656,
  " zǎo nián ": 3657,
  "   dà": 3658,
  "xué xiào ": 3659,
  " gāi shěng fèn wèi fǎ guó": 3660,
  "zhī hòu": 3661,
  "fá": 3662,
  " ér gāi dì ": 3663,
  "46": 3664,
  " tā hái ": 3665,
  " yīn ér": 3666,
  " ér zài ": 3667,
  "ut": 3668,
  " dòng huà": 3669,
  " tā bèi ": 3670,
  "de zhǔ": 3671,
  "75": 3672,
  "yì bān ": 3673,
  "mǎ ": 3674,
  " dā": 3675,
  "tái běi ": 3676,
  " dá dào": 3677,
  "gè rén ": 3678,
  " nián 10 yuè": 3679,
  " zhī jiān de": 3680,
  " guó mín dǎng ": 3681,
  "mí": 3682,
  " è": 3683,
  " zhuān jí": 3684,
  " bù shǎo": 3685,
  "jiàn zhì ": 3686,
  " lǐ yà": 3687,
  " jí de": 3688,
  "fā dòng ": 3689,
  " cǐ hòu": 3690,
  "xī bān yá": 3691,
  " cān sài ": 3692,
  "gāo ": 3693,
  "bǎn běn ": 3694,
  "zhī jiān de": 3695,
  " yuè nán ": 3696,
  " sāi ěr": 3697,
  " zuò biāo": 3698,
  "2 rén ": 3699,
  "   zhì ": 3700,
  "děng rén ": 3701,
  "kùn ": 3702,
  " yán zhòng ": 3703,
  "yuè tái ": 3704,
  " nì ": 3705,
  " shěng de yí gè shì zhèn ": 3706,
  "wèi zhì ": 3707,
  "píng jūn ": 3708,
  " de shǒu": 3709,
  "shēn fèn ": 3710,
  "quàn ": 3711,
  "xī nán ": 3712,
  " zhōng guó gòng chǎn dǎng ": 3713,
  " suí zhù": 3714,
  " yǒu xiē": 3715,
  "rén lèi ": 3716,
  "jiào ": 3717,
  " lǐ shì ": 3718,
  " yì de": 3719,
  "   of": 3720,
  "qū yù": 3721,
  " hán guó": 3722,
  "dōng nán ": 3723,
  "gēn jù": 3724,
  " bāng zhù": 3725,
  "jiě fàng jūn ": 3726,
  "é ": 3727,
  " bú huì ": 3728,
  "   1": 3729,
  " piào ": 3730,
  " yǐ lái ": 3731,
  "zhǐ yǒu": 3732,
  " tā yě": 3733,
  " duō gè": 3734,
  " yuán běn ": 3735,
  " shí qī ": 3736,
  "páng ": 3737,
  "ōu yuán ": 3738,
  " tǒng jì ": 3739,
  "lí kāi ": 3740,
  "od": 3741,
  " zhí wù": 3742,
  " fǒu": 3743,
  "yǎn yuán ": 3744,
  " shù jù": 3745,
  " jīng lì ": 3746,
  "nài ": 3747,
  "zhě de": 3748,
  " yòu míng ": 3749,
  " qù shì ": 3750,
  " yì qǐ": 3751,
  " 6 ": 3752,
  "děng dì ": 3753,
  "yà zhōu": 3754,
  " yóu tài ": 3755,
  " bō lán ": 3756,
  "réng rán ": 3757,
  "míng chēng ": 3758,
  "ind": 3759,
  " jīng yíng ": 3760,
  "zhàn dòu": 3761,
  " jué sè ": 3762,
  "ev": 3763,
  "hǎi jūn ": 3764,
  "quán qiú": 3765,
  " guǐ dào": 3766,
  "id": 3767,
  "sǔn ": 3768,
  "   th": 3769,
  " zòng ": 3770,
  " guǎng bō": 3771,
  " shí rèn ": 3772,
  " shěng fèn ": 3773,
  " 187": 3774,
  " qǔ dài ": 3775,
  "jié mù ": 3776,
  " xiào ": 3777,
  "zēng jiā": 3778,
  "yǔn ": 3779,
  "shì yóu": 3780,
  "yě yǒu": 3781,
  "   cǐ": 3782,
  " cháng qī": 3783,
  " fā dòng ": 3784,
  " 40": 3785,
  " zé shì ": 3786,
  "ěr lán ": 3787,
  "nán xìng ": 3788,
  "St": 3789,
  " jì lù ": 3790,
  "jìng nèi ": 3791,
  " fāng fǎ": 3792,
  " dì shí": 3794,
  " 2017 nián ": 3795,
  " jí qí": 3796,
  " chū rèn ": 3797,
  " shè zhì ": 3798,
  "37": 3799,
  " gǎi biàn ": 3800,
  "jiāng jūn ": 3801,
  " zǐ ": 3802,
  " yǐ shàng ": 3803,
  " jiā shàng ": 3804,
  " bù tóng de": 3805,
  "duì yú": 3806,
  "bāo hán ": 3807,
  " nián 12 yuè": 3808,
  "zhǐ huī": 3809,
  " chǔ yú": 3810,
  "mìng míng ": 3811,
  " 24": 3812,
  "kě dá": 3813,
  "chà": 3814,
  "l ": 3815,
  "huán jìng ": 3816,
  " rǎn ": 3817,
  " mǎ lì ": 3818,
  "hé nán ": 3819,
  "xiàn dài ": 3820,
  "shēng huó ": 3821,
  " jiē rǎng de shì zhèn ": 3822,
  "dá ": 3823,
  "xià xiá": 3824,
  " tiān zhǔ jiào": 3825,
  " guó jiā ": 3826,
  "zǔ zhī ": 3827,
  " 186": 3828,
  "R ": 3829,
  " gòng hé guó": 3830,
  " lú wǎ": 3831,
  "yān ": 3832,
  " fā bù": 3833,
  " jī hū": 3834,
  " wéi yī": 3835,
  "   jiǎn ": 3836,
  " bù mén ": 3837,
  " chū shēng ": 3838,
  " xuǎn rén ": 3839,
  "   gēn jù": 3840,
  " yī wèi ": 3841,
  " de zhǔ": 3842,
  "nèi róng ": 3843,
  "yì wèi ": 3844,
  " zhì liáo": 3845,
  " wǔ qì ": 3846,
  "   zì ": 3847,
  " zhōng wén ": 3848,
  " huáng jiā": 3849,
  " zhěng gè": 3850,
  "pō": 3851,
  "   wèi ": 3852,
  "kē ": 3853,
  " lì fǎ": 3854,
  "zhuān jí ": 3855,
  "yě shì ": 3856,
  "xūn ": 3857,
  "xiàng mù": 3858,
  "dǒng ": 3859,
  "bìng bù": 3860,
  " biǎo ": 3861,
  "lǜ bīn ": 3862,
  "nǚ zǐ": 3863,
  " quān ": 3864,
  " shí hòu ": 3865,
  " shuǐ yù": 3866,
  " qiàn ": 3867,
  "ob": 3868,
  "jūn duì ": 3869,
  " tǐ zhǎng ": 3870,
  " quán bù": 3871,
  " cái zhèng ": 3872,
  "yuē ": 3873,
  "üè ": 3874,
  " shuāng fāng ": 3875,
  " chū shēng yú": 3876,
  " de yì ": 3877,
  "gào ": 3878,
  "kōng jiān ": 3879,
  "TA": 3880,
  " chāo jí": 3881,
  "ǔ ěr qí": 3882,
  " zhì jīn ": 3883,
  " lā kè": 3884,
  "kuà": 3885,
  " lì shān ": 3886,
  "4 rén ": 3887,
  "bā shì ": 3888,
  "jiàn shè": 3889,
  " dōng bù": 3890,
  "néng gòu": 3891,
  " hǔ": 3892,
  " yún nán ": 3893,
  "chū de": 3894,
  " biǎo yǎn ": 3895,
  "mò ": 3896,
  " zuì zǎo": 3897,
  "   V": 3898,
  " fěn ": 3899,
  " zhī wài ": 3900,
  " sà kè": 3901,
  " liú xíng ": 3902,
  "B ": 3903,
  " zhài ": 3904,
  "de shǒu": 3905,
  " xué xiào ": 3906,
  " wú xiàn ": 3907,
  " shì měi guó": 3908,
  "jī dì ": 3909,
  "qū huà ": 3910,
  " bì yè ": 3911,
  "100": 3912,
  " chē liàng ": 3913,
  " fù zé guǎn xiá ": 3914,
  " nèi bù": 3915,
  " suǒ shǔ de shěng jí xuǎn qū wèi ": 3916,
  " jié shù": 3917,
  " kāi fàng ": 3918,
  "yà ": 3919,
  "dù de": 3920,
  "rén mín zhèng fǔ": 3921,
  "chuán tǒng ": 3922,
  " dài biǎo ": 3923,
  " móu": 3924,
  " huò shì ": 3925,
  "eg": 3926,
  "sī tè": 3927,
  "   w": 3928,
  "1 rén ": 3929,
  "jī de": 3930,
  " céng zài ": 3931,
  " fāng àn ": 3932,
  "xié huì ": 3933,
  " kōng jūn ": 3934,
  " kā": 3935,
  "chéng de": 3936,
  "ān pái ": 3937,
  "rèn hé": 3938,
  " wǎng luò": 3939,
  " nóng yè": 3940,
  "quān ": 3941,
  " 2024 nián ": 3942,
  "zhuó": 3943,
  "zhú jiàn ": 3944,
  "si ": 3945,
  "tóu ": 3946,
  " yǐn qǐ": 3947,
  "chú ": 3948,
  " wèi fú": 3949,
  "zhōng shì ": 3950,
  " jiē ": 3951,
  "liào ": 3952,
  " zhǔn bèi ": 3953,
  "bú huì ": 3954,
  "gōng bù": 3955,
  "shàng wèi ": 3956,
  " dà duō shù": 3957,
  " mǎ lái xī yà": 3958,
  "xī běi ": 3959,
  "zhǔ xí": 3960,
  "méi tǐ": 3961,
  "hǎo de": 3962,
  " chà": 3963,
  " dà xíng ": 3964,
  "gōng gòng ": 3965,
  "dāng xuǎn ": 3966,
  " wěn dìng ": 3967,
  "cháo ": 3968,
  "qù ": 3969,
  "bào fā": 3970,
  " jīng shén ": 3971,
  "fēn wéi ": 3972,
  " zhù míng ": 3973,
  "dōng jīng ": 3974,
  " xù ": 3975,
  " rén gōng ": 3976,
  " jiào yù ": 3977,
  " zǎi ": 3978,
  "og": 3979,
  " suí zhe": 3980,
  " zū": 3981,
  "fú wù ": 3982,
  " pāi shè": 3983,
  " chǔ ": 3984,
  "mèi ": 3985,
  "sǐ ": 3986,
  " 2004 nián ": 3987,
  "   xià": 3988,
  "sōu": 3989,
  " gāo sù": 3990,
  " zǔ zhī ": 3991,
  "xuǎn zé": 3992,
  " guài ": 3993,
  " zhù zài ": 3994,
  "fǎn duì ": 3995,
  "   2021 nián ": 3996,
  "yóu ": 3997,
  "pái míng ": 3998,
  " èr shí": 3999,
  "M ": 4000,
  "°": 4001,
  " zòu": 4002,
  " xiàn rèn ": 4003,
  "tān ": 4004,
  " nán jīng ": 4005,
  "gǎn rǎn ": 4006,
  " tā yǔ": 4007,
  " jiā zú": 4008,
  "guó de": 4009,
  "xì liè": 4010,
  " guā": 4012,
  "zhàn lǐng ": 4013,
  " zhòng diǎn ": 4014,
  " xuān chuán ": 4015,
  " xiàn de yí gè": 4016,
  "lǎng ": 4017,
  " tuán duì ": 4018,
  " quán zhǎng ": 4019,
  "tā ": 4020,
  " zhuàng tài ": 4021,
  "kūn ": 4022,
  "zhǔ chí": 4023,
  "lǐ lùn ": 4024,
  " huáng dì ": 4025,
  "xiāng tóng ": 4026,
  "gù ": 4027,
  "shì hé": 4028,
  "shì zhèn ": 4029,
  " gōng bù": 4030,
  "guò chéng ": 4031,
  " féi ": 4032,
  "jí qí": 4033,
  "zhī xiàn ": 4034,
  " xiāo ": 4035,
  "de yuán ": 4036,
  "bì xū": 4037,
  " jì chéng ": 4038,
  "u ": 4039,
  " máng ": 4040,
  " miáo shù": 4041,
  " zài zhōng guó": 4042,
  "bú shì ": 4043,
  " qiáo ": 4044,
  " lǐ de": 4045,
  "guǎng chǎng ": 4046,
  "shì zhōng ": 4047,
  "   yuán ": 4048,
  " děng rén ": 4049,
  "nǐ": 4050,
  " bǎo chí": 4051,
  "ǐ yù ": 4052,
  " de yī bù fèn ": 4053,
  "55": 4054,
  " guī ": 4055,
  "mù qián ": 4056,
  "   2019 nián ": 4057,
  " sān shí": 4058,
  "lù xiàn ": 4059,
  " xī bù": 4060,
  " běi shěng ": 4061,
  " nèi de": 4062,
  " jǐng chá": 4063,
  "2 yuè": 4064,
  "3 rén ": 4065,
  " lì zi ": 4066,
  "xùn liàn ": 4067,
  "jiù shì ": 4068,
  " tī": 4069,
  " shè bèi ": 4070,
  "méng gǔ": 4071,
  "bù zài ": 4072,
  "hǎi bá": 4073,
  " hòu zhě": 4074,
  " gǎi biān ": 4075,
  "bǐ lì ": 4076,
  "la": 4077,
  " jī dū": 4078,
  "shè zhì ": 4079,
  " héng ": 4080,
  " am": 4081,
  " nàn ": 4082,
  "shì chǎng ": 4083,
  "dì shí": 4084,
  "nǚ xìng ": 4085,
  "guó wáng ": 4086,
  " shì yī míng ": 4087,
  "zhuān jí": 4088,
  "jìn de": 4089,
  "sān nián ": 4090,
  "jì huà ": 4091,
  " rén mín jiě fàng jūn ": 4092,
  "zuǒ yòu": 4093,
  "   r": 4094,
  "àn jiàn ": 4095,
  " shēng zhǎng ": 4096,
  "You": 4097,
  " zhēn duì ": 4098,
  "féng ": 4099,
  "de yì ": 4100,
  "wù zhǒng ": 4101,
  "hái shì ": 4102,
  "míng dān ": 4103,
  "dào le": 4104,
  "bǔ ": 4105,
  " xuē": 4106,
  " fěi ": 4107,
  " zhàn yì ": 4108,
  "jī bài ": 4109,
  "9 rén ": 4110,
  "kuí": 4111,
  " lái yuán ": 4112,
  "guǎng bō": 4113,
  "oun": 4114,
  "bù míng ": 4115,
  "duō cì ": 4116,
  "us ": 4117,
  "V ": 4118,
  " dì qiú": 4119,
  " guó lì ": 4120,
  "   2020 nián ": 4121,
  "32": 4122,
  " shì wù": 4123,
  " yí chǎn ": 4124,
  "qí zhōng ": 4125,
  "zhí yè": 4126,
  "   2018 nián ": 4127,
  "cán ": 4128,
  " fēi xíng ": 4129,
  " ér tóng ": 4130,
  " qí yú gāng ": 4131,
  " wèi néng ": 4132,
  " guó fáng ": 4133,
  " ěr sī": 4134,
  "wén wù bǎo hù dān wèi ": 4135,
  "sān shí": 4136,
  " suì de": 4137,
  "47": 4138,
  "chéng jì ": 4139,
  "   10": 4140,
  " chàng piàn ": 4142,
  " xiōng dì ": 4143,
  " jié mù ": 4144,
  "chí xù": 4145,
  " 00": 4146,
  "   xīn ": 4147,
  " běi měi ": 4148,
  "shào nián ": 4149,
  "eb": 4150,
  " hé lán ": 4151,
  " pǔ tōng ": 4152,
  " huān yíng ": 4153,
  "   d": 4154,
  "kǒu ": 4155,
  "xíng wéi ": 4156,
  " zhǔ xí ": 4157,
  " lì yà ": 4158,
  "tòu": 4159,
  "xí ": 4160,
  " gòng xiàn ": 4161,
  " jìn yí bù": 4162,
  " bā nián ": 4163,
  "zhōng huá mín guó": 4164,
  " dàn bái ": 4165,
  " chù de": 4166,
  "lù dì miàn jī wèi ": 4167,
  "ào mén ": 4168,
  " shuǐ yù miàn jī wèi ": 4169,
  "zuì jiā": 4170,
  "65": 4171,
  "fěn ": 4172,
  "dì sì ": 4173,
  " yóu qí": 4174,
  "jǐ ": 4175,
  " zhèng zhuàng ": 4176,
  " duō cì ": 4177,
  "sāng ": 4178,
  " zhī míng ": 4179,
  " qián shēn ": 4180,
  " shì yī wèi ": 4181,
  " cūn zhuāng ": 4182,
  "hé bìng ": 4183,
  " tè de": 4184,
  "uó wēi ": 4185,
  "ep": 4186,
  " xíng tài ": 4187,
  "jiā ná dà": 4188,
  " shān mài ": 4189,
  "jiàn duì ": 4190,
  "dā": 4191,
  " hā ěr": 4192,
  " sā": 4193,
  " gǎi gé": 4194,
  "chū shēn ": 4195,
  " zuì dà de": 4196,
  " bā lí": 4197,
  " jué sài ": 4198,
  "yùn dòng yuán ": 4199,
  "bù mén ": 4200,
  "nàn ": 4201,
  " shì shì ": 4202,
  "dǐ ": 4203,
  "bù zhǎng ": 4204,
  "biǎo xiàn ": 4205,
  " mào yì ": 4206,
  "～": 4207,
  "cāo": 4208,
  " què dìng ": 4209,
  " huī fù": 4210,
  "uc": 4211,
  " jiàn zào": 4212,
  "jī gòu": 4213,
  "hún ": 4214,
  " amp ": 4215,
  "shì wù": 4216,
  "jiē rǎng ": 4217,
  "   2017 nián ": 4218,
  " zhǐ chū ": 4219,
  "yī yàng ": 4220,
  "tòu guò": 4221,
  " dāng zhōng lù dì miàn jī wèi ": 4222,
  " ér shuǐ yù miàn jī wèi ": 4223,
  "zhè zhǒng ": 4224,
  "qiú yuán ": 4225,
  "   gài ": 4226,
  " zōng hé": 4227,
  " huì zài ": 4228,
  "cuì ": 4229,
  " zhōu nián ": 4230,
  " jié guǒ ": 4231,
  "cuī": 4232,
  " shí xiàn ": 4233,
  " zhǔ ": 4234,
  " zǔ fù": 4235,
  " rén zài ": 4236,
  " shēng yá": 4237,
  " jié kè": 4238,
  "F ": 4239,
  " pò huài ": 4240,
  " mù biāo": 4241,
  " guǎng fàn ": 4242,
  "jí wèi ": 4243,
  " wén míng ": 4244,
  " yǐn fā": 4245,
  "shàng yìng ": 4246,
  "tǐ de": 4247,
  " yī shēng ": 4248,
  " jiā de": 4249,
  " yùn yíng ": 4250,
  " xié zhù": 4251,
  "suī": 4252,
  " sī tǎ": 4253,
  "chǎn pǐn ": 4254,
  " jiàn de": 4255,
  " cóng shì ": 4256,
  " shě": 4257,
  " zhí mín ": 4258,
  " lián xù": 4259,
  "193": 4260,
  "   the   ": 4261,
  "chū shēng ": 4262,
  " tǐng ": 4263,
  " zhǔ jiào": 4264,
  "dòng huà": 4265,
  " wén zhāng ": 4266,
  " shèng dùn ": 4267,
  " zhuān jí ": 4268,
  " shé": 4269,
  " shì zhǐ": 4270,
  " jī yú": 4271,
  "xiǎo xíng xīng ": 4272,
  " nán bù": 4273,
  " kāi shǐ ": 4274,
  "jì lù": 4275,
  " xīn zēng ": 4276,
  " zī yuán ": 4277,
  " jià ": 4278,
  " The   ": 4279,
  "shǎn ": 4280,
  "yǒu de": 4281,
  " qiǎng ": 4282,
  " nián 11 yuè": 4283,
  " yú lè": 4284,
  " cè shì ": 4285,
  " zì xíng ": 4286,
  " zǒng miàn jī ": 4287,
  " 60": 4288,
  "zī liào ": 4289,
  "   xíng zhèng qū huà ": 4290,
  " Ch": 4291,
  " kè lǐ": 4292,
  " zhèng zài ": 4293,
  " jiào huì ": 4294,
  " lì yú": 4295,
  " lì shǔ yú": 4296,
  " tǐ zhǎng kě dá": 4297,
  "zū": 4298,
  " tè shū": 4299,
  "bìng lì ": 4300,
  "iv": 4301,
  "jiāng qí": 4302,
  " shà": 4303,
  " bào gào": 4304,
  " wǎng zhàn ": 4305,
  " 2002 nián ": 4306,
  "X ": 4307,
  "zhǔ xí ": 4308,
  " dì tiě": 4309,
  "yǎn chàng ": 4310,
  "ew": 4311,
  "zhóu": 4312,
  "yíng dé": 4313,
  " guò chéng zhōng ": 4314,
  "34": 4315,
  " diān ": 4316,
  " mián ": 4317,
  " dì xià": 4318,
  "dà huì ": 4319,
  " kùn ": 4320,
  "zuò zhàn ": 4321,
  " wō": 4322,
  " yīng gé lán ": 4323,
  " zī liào": 4324,
  " ōu zhōu": 4325,
  "   2022 nián ": 4326,
  " wàn lì ": 4327,
  "yá lì ": 4328,
  " xūn ": 4329,
  " zhì yú": 4330,
  "shí jì ": 4331,
  " wéi chí": 4332,
  " jīn huì ": 4333,
  " yíng dé": 4334,
  " qióng ": 4335,
  "   St": 4336,
  " chāi ": 4337,
  " 185": 4338,
  " jǐng fāng ": 4339,
  " yí dìng ": 4340,
  "lǐ y": 4341,
  " chéng rèn ": 4342,
  "nǎi ": 4343,
  "   cóng ": 4344,
  " de guān ": 4345,
  "dà liàng ": 4346,
  "   2016 nián ": 4347,
  " sú": 4348,
  "yú 199": 4349,
  "miáo shù": 4350,
  " dì yī cì ": 4351,
  "O ": 4352,
  " fǎ lán ": 4353,
  "le yí gè": 4354,
  "lǐ shì ": 4355,
  "8 rén ": 4356,
  "sàn ": 4357,
  "zhí wù": 4358,
  "gōu": 4359,
  " biǎn ": 4360,
  " jī gòu ": 4361,
  "de guān ": 4362,
  "guǎng fàn ": 4363,
  " tòu": 4364,
  "hái zi ": 4365,
  " zài yī": 4366,
  " yuán zhù": 4367,
  "niè": 4368,
  " tuó": 4369,
  " jiào shòu": 4370,
  "en   ": 4371,
  "shāng yè": 4372,
  " 21 ": 4373,
  "   4": 4374,
  " zhèng míng ": 4375,
  " xīng jiàn ": 4376,
  "lèi sì ": 4377,
  " zāo dào": 4378,
  " gōng mín ": 4379,
  "shè bèi ": 4380,
  " zài 199": 4381,
  " shì rì běn ": 4382,
  " bù lā": 4383,
  "tū ": 4384,
  "bèi chēng wéi ": 4385,
  "lián sài ": 4386,
  "lài ": 4387,
  " 21": 4388,
  "chuàng zuò": 4389,
  " zuò biāo wèi ": 4390,
  " tóng yì ": 4391,
  "shú": 4392,
  "   5": 4393,
  " lǚ yóu": 4394,
  "xiù ": 4395,
  "cù": 4396,
  " dāo": 4397,
  " tóu zī": 4398,
  " shì yǎn ": 4399,
  " guǎng chǎng ": 4400,
  " huī ": 4401,
  "nán jīng ": 4402,
  "bó wù guǎn ": 4403,
  "zhì jīn ": 4404,
  " xiàn lù": 4405,
  " sī jī": 4406,
  " jǐ gè": 4407,
  "hào wèi ": 4408,
  " guò qù": 4409,
  "shòu shāng ": 4410,
  " biǎo míng ": 4411,
  " wèi fú qí yú gāng ": 4412,
  "zhí wù ": 4413,
  "qǐ yòng ": 4414,
  "   2014 nián ": 4415,
  "guān zhòng ": 4416,
  "indow": 4417,
  " huí dào": 4418,
  "jì suàn ": 4419,
  " zhǎn kāi ": 4420,
  "ào dà lì yà": 4421,
  "kē jì ": 4422,
  "ào yùn huì ": 4423,
  "dī ": 4424,
  " yì měi yuán ": 4425,
  "shì yí gè": 4426,
  "6 rén ": 4427,
  "dá dào": 4428,
  "chuáng ": 4429,
  " liǎng zhǒng ": 4430,
  "cháo xiān ": 4431,
  " hans ": 4432,
  " tw ": 4433,
  "bù hé": 4434,
  "liú ": 4435,
  "zhǎn kāi ": 4436,
  "NA": 4437,
  "ér tóng ": 4438,
  " lín shí": 4439,
  "zhè yī": 4440,
  " zhèng dǎng ": 4441,
  "lěng ": 4442,
  "gù shì ": 4443,
  " zhì liàng ": 4444,
  " chuí": 4445,
  " zhèng cè": 4446,
  "N ": 4447,
  "rén shù": 4448,
  " kē jì ": 4449,
  " xiǎo shuō": 4450,
  "   U": 4451,
  " zài měi guó": 4452,
  " hǎi àn ": 4453,
  "zāo dào": 4454,
  " dōng lín ": 4455,
  "gāo sù": 4456,
  "xiǎn shì ": 4457,
  " rén kǒu mì dù měi píng fāng gōng lǐ ": 4458,
  "jué sè": 4459,
  "tā men de": 4460,
  " zèng ": 4461,
  "   ā": 4462,
  " dì wǔ": 4463,
  " xiàng mù ": 4464,
  " biāo zhì ": 4465,
  " lǔ ": 4466,
  "ān zhuāng ": 4467,
  " dì wèi ": 4468,
  "bù néng ": 4469,
  " píng jià ": 4470,
  "yōng ": 4471,
  "xià de": 4472,
  " bié ": 4473,
  "yī míng ": 4474,
  "huì zài ": 4475,
  " gǔn ": 4476,
  "wǎng zhàn ": 4477,
  " guó nèi ": 4478,
  " zhī yuán ": 4479,
  "jiāo yì ": 4480,
  " wèi lái ": 4481,
  " míng zhì ": 4482,
  "ali": 4483,
  " yǒu rén ": 4484,
  " sī xiǎng ": 4485,
  "shēng wù": 4486,
  "guǎn lǐ ": 4487,
  "   2015 nián ": 4488,
  "   de shí": 4489,
  " jìn gōng ": 4490,
  "／": 4491,
  " fēng gé": 4492,
  " xué shù": 4493,
  "ǐ yè ": 4494,
  " jiǎo ": 4495,
  " fēi jī": 4496,
  " sù dù": 4497,
  " jiě shì ": 4498,
  " tiē": 4499,
  " tóu ": 4500,
  "hǔ": 4501,
  "jiǎo ": 4502,
  " lián xì ": 4503,
  "bǎo chí": 4504,
  " de yī zhǒng ": 4505,
  "lún dūn ": 4506,
  "jū ": 4507,
  " 2003 nián ": 4508,
  "   2013 nián ": 4509,
  "jī běn ": 4510,
  " zhōu biān ": 4511,
  " zhù yì ": 4512,
  "gē ": 4513,
  " zhī chí ": 4514,
  "ān nà": 4515,
  " měng ": 4516,
  "   suǒ shǔ de shěng jí xuǎn qū wèi ": 4517,
  " shì shí": 4518,
  "   de yóu zhèng biān mǎ wèi ": 4519,
  "   yú shí de rén kǒu shù liàng wèi rén ": 4520,
  "   de shí qū wèi ": 4521,
  " de qí zhōng ": 4522,
  " jìn shì ": 4523,
  "liè wèi ": 4524,
  "   yǔ jiē rǎng de shì zhèn ": 4526,
  " tān ": 4527,
  " chán ": 4528,
  "dì qū de": 4529,
  "zhèng fǔ ": 4530,
  "fā shè": 4531,
  " tiáo ": 4532,
  "lì fǎ": 4533,
  " lián hé guó": 4534,
  " zì zhì qū": 4535,
  "64": 4536,
  "2022 nián ": 4537,
  "shàng shì ": 4538,
  "chèn ": 4539,
  "zhǔ yǎn ": 4540,
  "píng miàn ": 4541,
  " qiáo zhì ": 4542,
  "fāng de": 4543,
  " jīn shǔ": 4544,
  "tǒng zhì ": 4545,
  "qí shì ": 4546,
  "diàn zi ": 4547,
  "xì bāo": 4548,
  "dòng wù": 4549,
  "biǎo yǎn ": 4550,
  "xié ": 4551,
  "dì xià": 4552,
  "céng jīng ": 4553,
  " jiāng sū": 4554,
  " wài de": 4555,
  " fǎn huí": 4556,
  " nián qīng ": 4557,
  " tiáo zhěng ": 4558,
  "ing   ": 4559,
  "qīng nián ": 4560,
  " lù yì ": 4561,
  " dāng nián ": 4562,
  "fā diàn ": 4563,
  " wén jiàn ": 4564,
  " sī lín ": 4565,
  "7 rén ": 4566,
  " sī kǎ": 4567,
  "xiāng dāng ": 4568,
  "qiǎng ": 4569,
  " zhǐ zài ": 4570,
  "wài jiāo": 4571,
  " zào ": 4572,
  " lì shǐ ": 4573,
  " xué jiā ": 4574,
  "xià jì ào lín pǐ kè yùn dòng huì ": 4575,
  "39": 4576,
  " kě néng shì ": 4577,
  "der": 4578,
  "al ": 4579,
  " tǒng yī": 4580,
  " rén dà": 4581,
  "xiàn zhì ": 4582,
  " jú zhǎng ": 4583,
  " xīn jiā pō": 4584,
  "qiú chǎng ": 4585,
  " huò dé le": 4586,
  " jí shǐ": 4587,
  " tǎo lùn ": 4588,
  " hk ": 4589,
  " pǔ ": 4590,
  " bù jiǔ": 4591,
  "xiàn rén ": 4592,
  "zhān ": 4593,
  " wèi xīng ": 4594,
  " jiě jué": 4595,
  " fēi jiàn zhì ": 4596,
  " xiàn xiàng ": 4597,
  " duō nián ": 4598,
  " bǐ jiào": 4599,
  "xiàn zài ": 4600,
  " jiě fàng ": 4601,
  "yuán yīn ": 4602,
  " tā céng dài biǎo": 4603,
  " hé píng ": 4604,
  " zhá": 4605,
  "rè dài ": 4606,
  " gōng lù ": 4607,
  " jù jué": 4608,
  "zé shì ": 4609,
  "ly": 4610,
  " yú 198": 4611,
  " diàn tái ": 4612,
  "xuǎn jǔ ": 4613,
  "   qí": 4614,
  " de chéng ": 4615,
  " qián lóng ": 4616,
  " bù kě": 4617,
  "jié gòu": 4618,
  " tuán tǐ": 4619,
  " bù lǔ": 4620,
  "wěi shū jì ": 4621,
  "hé píng ": 4622,
  "jù lí": 4623,
  " gāo zhōng ": 4624,
  " tài píng yáng ": 4625,
  " máo qiú": 4626,
  "xiǎo ": 4627,
  "mín zú": 4628,
  "qǐ yè": 4629,
  " 500": 4630,
  " ěr de": 4631,
  " rén kǒu mì dù ": 4632,
  " dú ": 4633,
  "gōng néng ": 4634,
  " shì tú": 4635,
  " fā shè": 4636,
  "yīng gé lán ": 4637,
  " jiā rén ": 4638,
  "pǔ ": 4639,
  " tǐ xì ": 4640,
  " jiǔ nián ": 4641,
  "BC": 4642,
  "kēng ": 4643,
  "zì rán ": 4644,
  "jiē duàn ": 4645,
  " shǎo shù": 4646,
  " 28": 4647,
  " guī huà": 4648,
  " ruì shì ": 4649,
  " jiē wèi ": 4650,
  " tí shēng ": 4651,
  " hé bìng ": 4652,
  "guǎng dōng ": 4653,
  " fāng fǎ ": 4654,
  " chóng jiàn ": 4655,
  "mó shì ": 4656,
  " gū jì ": 4657,
  " qī zǐ": 4658,
  "èr shì ": 4659,
  "hǎo ": 4660,
  " zuò zhàn ": 4661,
  " huá ": 4662,
  "huò dé le": 4663,
  " pǎo": 4664,
  "shí yàn ": 4665,
  " yuán yú": 4666,
  "zhàn yì ": 4667,
  "lǐ de": 4668,
  "jǐng chá": 4669,
  "ěr dé": 4670,
  " tè bié shì ": 4671,
  "àn de": 4672,
  " wèi shēng ": 4673,
  " yùn shū": 4674,
  " nǚ ér": 4675,
  " shēng mìng ": 4676,
  " nán xìng ": 4677,
  " fēi jiàn zhì dì qū ": 4678,
  "dū ": 4679,
  " bì miǎn ": 4680,
  " mó xíng ": 4681,
  " shì xué wèi ": 4682,
  " kè de": 4683,
  " cì nián ": 4684,
  " liú yù": 4685,
  " méng gǔ": 4686,
  "L ": 4687,
  "   yǐ xià": 4688,
  " jiàn duì ": 4689,
  " dòng lì ": 4690,
  " lǐng yù": 4691,
  " ruì diǎn ": 4692,
  " gōng jī": 4693,
  " xiàng zhēng ": 4694,
  " juān ": 4695,
  " fēn xī": 4696,
  " xiě ": 4697,
  " kè chéng ": 4698,
  " dìng wèi ": 4699,
  " bó tè ": 4700,
  " liǎo": 4701,
  " qī xī zài ": 4702,
  " wā": 4703,
  " jiǎng xiàng ": 4704,
  " bá": 4705,
  "jì chéng ": 4706,
  " jié gòu ": 4707,
  "zhòng yào de": 4708,
  "20 ": 4709,
  " hùn ": 4710,
  " nán zhì ": 4711,
  "es   ": 4712,
  " dà chén ": 4713,
  "jiàn chéng ": 4714,
  " chái ": 4715,
  " biǎo miàn ": 4716,
  "yuē hàn ": 4717,
  "kù ": 4718,
  "jiù ": 4719,
  "qiáo ": 4720,
  "ā lā bó": 4721,
  "ér yán ": 4722,
  " guó wù yuàn ": 4723,
  " 35": 4724,
  "95": 4725,
  "ex": 4726,
  "est": 4727,
  " jī guān ": 4728,
  "quán lì ": 4729,
  " nián 1 yuè 1 rì ": 4730,
  " bù duàn ": 4731,
  " xiào zhǎng ": 4732,
  " kǎ ěr": 4733,
  " shēng yá ": 4734,
  "huá ": 4735,
  "qǐ lái ": 4736,
  "wèi le": 4737,
  "tóng yī": 4738,
  "bù tóng de": 4739,
  "   xī": 4740,
  "de zhǔ yào": 4741,
  " sī rén ": 4742,
  " sī hé": 4743,
  " dàn yóu yú": 4744,
  " jiù ": 4745,
  "zhì zào": 4746,
  " gē shǒu": 4747,
  " xié yì ": 4748,
  " qún dǎo": 4749,
  "or ": 4750,
  " lún bǐ yà": 4751,
  "xiē": 4752,
  " shí fēn ": 4753,
  "   zh ": 4754,
  " zài qí": 4755,
  "zhǎng de": 4756,
  "31": 4757,
  " lā fū": 4758,
  " jiē dào": 4759,
  " diàn shì tái ": 4760,
  "xú": 4761,
  "shí xiàn ": 4762,
  " zuǒ yòu": 4763,
  " jiàn kāng ": 4764,
  "jìn gōng ": 4765,
  " cǐ shí": 4766,
  "fēi xíng ": 4767,
  "chū rèn ": 4768,
  " wèi yī": 4769,
  " zhì shǎo": 4770,
  "jiāo ": 4771,
  "xī wàng ": 4772,
  "   mǎ": 4773,
  " tòng ": 4774,
  " 10 ": 4775,
  "ation   ": 4776,
  "44": 4777,
  " yīng gāi ": 4778,
  " yòng hù": 4779,
  " zhǐ chū": 4780,
  " zhǐ néng ": 4781,
  " yǎng huà": 4782,
  "huī fù": 4783,
  "pī píng ": 4784,
  " měi ní yà": 4785,
  "yí zhì ": 4786,
  " sì gè": 4787,
  "jìn xíng le": 4788,
  " pín dào": 4789,
  " zhōng xué": 4790,
  "di ": 4791,
  "sú": 4792,
  " zhè cì ": 4793,
  " jìn xíng le": 4794,
  " yīng xióng ": 4795,
  " kòu": 4796,
  "ǐ yào": 4797,
  " nán běi ": 4798,
  "zì zhì ": 4799,
  "wèi néng ": 4800,
  " shí shī": 4801,
  " jiā lì ": 4802,
  " lìng yí gè": 4803,
  "guān yú": 4804,
  " liǎng nián ": 4805,
  " lèi xíng ": 4806,
  " běi qǐ": 4807,
  "jǔ rén ": 4808,
  "   6": 4809,
  " míng xiǎn ": 4810,
  "miàn de": 4811,
  " dào lù": 4812,
  " wàn yuán ": 4813,
  "què zhěn ": 4814,
  " yǒu xiào": 4815,
  " dòng wù ": 4816,
  " mǐ yà": 4817,
  "jié gòu ": 4818,
  " qí zhōng bāo kuò": 4819,
  " 2019": 4820,
  " 23": 4821,
  "85": 4822,
  "hé xīn ": 4823,
  " shù zì ": 4824,
  " rèn wù": 4825,
  " xí xìng ": 4826,
  "ia": 4827,
  " gǒu": 4828,
  " zài jiā": 4829,
  "jí zhōng ": 4830,
  "wěi huì ": 4831,
  "dǎo yǎn ": 4832,
  " hú nán ": 4833,
  "ik": 4834,
  " shén jīng ": 4835,
  "ack": 4836,
  "jiàn yú": 4837,
  " jié hūn ": 4838,
  "ran": 4839,
  "zhōng xué": 4840,
  "dì yī cì ": 4841,
  " liǔ": 4842,
  "tún ": 4843,
  "OS": 4844,
  "bìng dú": 4845,
  "diāo": 4846,
  "pāi shè": 4847,
  " xué huì ": 4848,
  " wù de": 4849,
  "zī yuán ": 4850,
  "chǔ lǐ": 4851,
  "tuī chū": 4852,
  " yǐ sè liè": 4853,
  "dà bù fèn ": 4854,
  " xià lái ": 4855,
  " yùn xíng ": 4856,
  " shēn qǐng ": 4857,
  "   jiā zú ": 4858,
  " wén huà ": 4859,
  " fēi zhōu": 4860,
  " bō chū ": 4861,
  "2020 nián měi guó rén kǒu pǔ chá de shù jù ": 4862,
  " yǔ de": 4863,
  " zhǔ tí": 4864,
  "   2012 nián ": 4865,
  " biàn huà": 4866,
  " měi guó ": 4867,
  "guà": 4868,
  " tiào": 4869,
  " ào mén ": 4870,
  "   2023 nián ": 4871,
  "dí ": 4872,
  "de qíng kuàng ": 4873,
  "   zǎo nián ": 4874,
  " kuài sù": 4875,
  "shuāi ": 4876,
  " yí mín ": 4877,
  "   h": 4878,
  "guān fāng ": 4879,
  " xìng bié": 4880,
  " zhě de": 4881,
  "dìng wèi ": 4882,
  "--": 4883,
  "jiē jìn ": 4884,
  " qì chē": 4885,
  "tào": 4886,
  "gāo yú": 4887,
  " wú rén ": 4888,
  "tic": 4889,
  "nī": 4890,
  "cè shì ": 4891,
  "2016 nián ": 4892,
  " sēn lín ": 4893,
  "   dāng ": 4894,
  "   qí tā": 4895,
  " gǒng ": 4896,
  "gè zhǒng ": 4897,
  " gāo děng ": 4898,
  " guǎn lǐ ": 4899,
  "tóu rù": 4900,
  " zhì zuò ": 4901,
  " mā": 4902,
  "2019 nián ": 4903,
  "jī yú": 4904,
  "zhī yī": 4905,
  " jì zhě": 4906,
  " wén xiàn ": 4907,
  " zhōng bù": 4908,
  " dì qū de": 4909,
  " bìng yǐ": 4910,
  " jiǎn shǎo": 4911,
  "guō": 4912,
  " jī huì ": 4913,
  " xiāng sì ": 4914,
  " guǎng zhōu": 4915,
  "shí zì ": 4916,
  "quán bù": 4917,
  " zhōng guó ": 4918,
  "   192": 4919,
  "2021 nián ": 4920,
  "dà chén ": 4921,
  "shù de": 4922,
  "zèng ": 4923,
  " chuāng ": 4924,
  "hé de": 4925,
  "ef": 4926,
  " bù jiǔ ": 4927,
  "jīng lì ": 4928,
  "pī zhǔn ": 4929,
  " chū rù": 4930,
  " shǐ jiàn yú": 4931,
  " yǔn xǔ": 4932,
  "hú nán ": 4933,
  "xiǎo shuō": 4934,
  " yīng yǔ": 4935,
  "lóu ": 4936,
  "ér bèi ": 4937,
  " shè shī ": 4938,
  "dōng bù": 4939,
  " shèng lì ": 4940,
  "de yǐng xiǎng ": 4941,
  " wǔ zhuāng ": 4942,
  "zuì zǎo": 4943,
  " sī lìng ": 4944,
  "guī huà": 4945,
  "hòu xuǎn rén ": 4946,
  "yǐ shàng ": 4947,
  " 27": 4948,
  " jué de": 4949,
  " jià zhí": 4950,
  " tuī chū": 4951,
  "cáo": 4952,
  " biàn huà ": 4953,
  "dì tiě": 4954,
  " shǒu dū": 4955,
  "de chéng ": 4956,
  "dì wèi ": 4957,
  " měi zhōu": 4958,
  " xìn yǎng ": 4959,
  "qiàn ": 4960,
  "mián ": 4961,
  " gè yuè": 4962,
  " tóng yī": 4963,
  " míng cháo zhèng zhì rén wù ": 4964,
  " huǎn ": 4965,
  " hé xīn ": 4966,
  " zuò jiā": 4967,
  " bù guò ": 4968,
  "jiǔ ": 4969,
  " pī zhǔn ": 4970,
  "bì yè ": 4971,
  "xié yì ": 4972,
  "lì liàng ": 4973,
  " chī": 4974,
  "fǎ lǜ": 4975,
  " xìng zhì ": 4976,
  "qián de": 4977,
  "fā ": 4978,
  " zhǔ xí": 4979,
  "tài píng yáng ": 4980,
  " mìng lìng ": 4981,
  " yāo qǐng ": 4982,
  " mài kè": 4983,
  "   yǒu": 4984,
  "  formula ": 4985,
  " de zhǔ yào": 4986,
  " zhǔ zhāng ": 4987,
  " píng fāng mǐ ": 4988,
  " bù dé": 4989,
  "zhèng cè": 4990,
  "zhā": 4991,
  " zhōu shì ": 4992,
  " C ": 4993,
  " zì dòng ": 4994,
  " xíng xiàng ": 4995,
  "làng ": 4996,
  "   n": 4997,
  " de tè": 4998,
  " shēn tǐ": 4999,
  " shōu lù": 5000,
  " 150": 5001,
  "tǔ ": 5002,
  "bèi jǐng ": 5003,
  "nì ": 5004,
  " xún huí": 5005,
  "ài ěr lán ": 5006,
  " kè lā": 5007,
  "néng lì ": 5008,
  "jūn de": 5009,
  "ea": 5010,
  "   bā": 5011,
  " gōng chǎng ": 5012,
  "jiā tíng ": 5013,
  " yí dòng ": 5014,
  " pú táo yá": 5015,
  " chuàn ": 5016,
  "shēng yá ": 5017,
  "lián xù": 5018,
  " pǐn pái ": 5019,
  "oh": 5020,
  " shì yǐ": 5021,
  " bù jǐn ": 5022,
  " hé de": 5023,
  "jiào huì ": 5024,
  "má": 5025,
  "hé zuò ": 5026,
  " fǎng wèn ": 5027,
  "AS": 5028,
  " tiě lù ": 5029,
  " hài ": 5030,
  " mín jiān ": 5031,
  " ér rén kǒu mì dù wèi měi píng fāng qiān mǐ ": 5032,
  " yuán míng ": 5033,
  " tiān wén ": 5034,
  "ell": 5035,
  "juǎn ": 5036,
  " shì fǒu": 5037,
  "děng wèi ": 5038,
  "shì lì ": 5039,
  "yīn cǐ": 5040,
  " shī de": 5041,
  "49": 5042,
  "U ": 5043,
  "ěr sī": 5044,
  "lù jūn ": 5045,
  " 26": 5046,
  "   xiàn ": 5047,
  "tion   ": 5048,
  " tǐ de": 5049,
  "dài biǎo dà huì ": 5050,
  " lì sī": 5051,
  "chū shēng yú": 5052,
  " 1998 nián ": 5053,
  "niǔ yuē": 5054,
  " qī de": 5055,
  " mò ": 5056,
  "zhèng zài ": 5057,
  " zhōng gòng zhōng yāng ": 5058,
  "fū ": 5059,
  " bì yè yú": 5060,
  " chā yì ": 5061,
  " jīn róng ": 5062,
  " wáng cháo": 5063,
  " 2001 nián rén kǒu": 5064,
  " jù lè bù": 5065,
  "mào yì ": 5066,
  "jiàn zào": 5067,
  "hùn hé": 5068,
  "yì fāng miàn ": 5069,
  " děng dì ": 5070,
  "wú xiàn ": 5071,
  " zhàn shì ": 5072,
  " zēng zǔ": 5073,
  " bìng méi yǒu": 5074,
  " hǎi yáng ": 5075,
  "zhuàng tài ": 5076,
  "tǔ dì ": 5077,
  "xiān hòu": 5078,
  "zuò chū": 5079,
  " xiǎo xíng xīng ": 5080,
  " diàn nǎo": 5081,
  " xìn xī": 5082,
  " zài dà": 5083,
  " 184": 5084,
  " kè lái ": 5085,
  "dōu yǒu": 5086,
  "rèn mìng wèi ": 5087,
  " shēng yīn ": 5088,
  " wàn měi yuán ": 5089,
  "qu": 5090,
  " tiǎo zhàn ": 5091,
  " chéng xiàn ": 5092,
  " mín zhòng ": 5093,
  "juān ": 5094,
  "wǔ zhuāng ": 5095,
  " xiǎo zǔ": 5096,
  "míng de": 5097,
  " fù mǔ": 5098,
  "xiāng duì ": 5099,
  " wài guó": 5100,
  " shǐ guǎn ": 5101,
  " dī ": 5102,
  " lì liàng ": 5103,
  "zhàn de": 5104,
  " nèi lù": 5105,
  "wǒ men ": 5106,
  "ph": 5107,
  " qià": 5108,
  " tí gāo": 5109,
  " jiǔ diàn ": 5110,
  "fǎn huí": 5111,
  " 2025 nián ": 5112,
  "zhì wèi ": 5113,
  "jīng cháng ": 5114,
  "tiē": 5115,
  " bìng fēi ": 5116,
  "shù liàng ": 5117,
  "biāo ": 5118,
  " bo": 5119,
  "jì lù ": 5120,
  " ēn shěng ": 5121,
  " hōng zhà": 5122,
  " 22": 5123,
  "ation ": 5124,
  "tòng ": 5125,
  "zhěng gè": 5126,
  "diào ": 5127,
  " yīng yǔ ": 5129,
  " zī xùn ": 5130,
  " zǒng bù": 5131,
  " shēng huó ": 5132,
  " mǒu xiē": 5133,
  " yì yǒu": 5134,
  "yóu jī": 5135,
  " jīng yàn ": 5136,
  "per": 5137,
  " yì yì ": 5138,
  "yī dài ": 5139,
  " yǒu de": 5140,
  " zhàn lǐng ": 5141,
  " wán zhěng ": 5142,
  "   yóu": 5143,
  " yuán de": 5144,
  "jī dū": 5145,
  "chē liàng ": 5146,
  "chuāng ": 5147,
  "ǐ yě": 5148,
  "zhèng míng ": 5149,
  "shān dōng ": 5150,
  "pò huài ": 5151,
  "jī chǔ": 5152,
  " měi yuán ": 5153,
  "xīng jiàn ": 5154,
  "yuàn zhǎng ": 5155,
  "chú le": 5156,
  "ta": 5157,
  " lòu": 5158,
  " cùn ": 5159,
  " chóng qìng ": 5160,
  " zuì hòu yī": 5161,
  " hǎi wài ": 5162,
  " gèng duō": 5163,
  "yǒu xiàn gōng sī ": 5164,
  "   shí": 5165,
  "lóng jiāng ": 5166,
  "chí ": 5167,
  "99": 5168,
  " yuán nián ": 5169,
  " yòng lái ": 5170,
  "huǎn ": 5171,
  " dāng shí de": 5172,
  "sān gè": 5173,
  " yǎn chàng huì ": 5174,
  "・": 5175,
  " ér shuǐ yù miàn jī wèi 0": 5176,
  "×": 5177,
  "de bù": 5178,
  " lā dīng ": 5179,
  " shuāi ": 5180,
  "shě": 5181,
  " zài dù": 5182,
  " jiè quán guó": 5183,
  " lì shǐ shàng ": 5184,
  "BA": 5185,
  "tiān jīn ": 5186,
  " zhóu": 5187,
  " kè luó": 5188,
  " duì xiàng ": 5189,
  "BS": 5190,
  "ver": 5191,
  "   7": 5192,
  " yī lì ": 5193,
  " rù qīn ": 5194,
  "sài jì ": 5195,
  "2000 nián ": 5196,
  " màn huà": 5197,
  "āo ": 5198,
  "nián qīng ": 5199,
  "sì nián ": 5200,
  " tā men zài ": 5201,
  "zhào kāi ": 5202,
  " qí xià": 5203,
  " zài gāi ": 5204,
  " zhàn hòu": 5205,
  " duō zhǒng ": 5206,
  " gǔ dài ": 5207,
  "   Ch": 5208,
  " fēi lǜ bīn ": 5209,
  "zhèng de": 5210,
  "zuì dà de": 5211,
  " rén kǒu wèi ": 5212,
  "yuè tuán ": 5213,
  "suí hòu": 5214,
  " jù lè bù ": 5215,
  "bào gào": 5216,
  " guān zhòng ": 5217,
  "biàn chéng ": 5218,
  "wèi duì ": 5219,
  " shēng míng ": 5220,
  "huáng dì ": 5221,
  " dào lù ": 5222,
  "zhōng bù": 5223,
  "hǎi dào": 5224,
  "   jié zhì ": 5225,
  " dū ": 5226,
  "xué xí": 5227,
  " jù qíng ": 5228,
  " tǎ ": 5229,
  " rén wù": 5230,
  " gōng shì ": 5231,
  " jiàn chéng ": 5232,
  "fēn bù": 5233,
  " zī jīn ": 5234,
  "jiē dào": 5235,
  "jīn pái ": 5236,
  " shǎng ": 5237,
  "zhǐ shì ": 5238,
  "   2011 nián ": 5239,
  " kě néng huì ": 5240,
  " kàng yì ": 5241,
  " biǎo dá": 5242,
  "pǎo": 5243,
  " dǔ": 5244,
  " tāi ": 5245,
  " ní yà zhōu": 5246,
  " hēng lì ": 5247,
  "gōng jī": 5248,
  "yǐn qǐ": 5249,
  " fó jiào": 5250,
  " de qián ": 5251,
  "shì jì ": 5252,
  " bìng yǔ": 5253,
  "bō lán ": 5254,
  " chéng wéi le": 5255,
  "xuān chuán ": 5256,
  "   shèng ": 5257,
  " wèi de": 5258,
  " xiàn chǎng ": 5259,
  "chái ": 5260,
  "dú ": 5261,
  " wū ": 5262,
  " gāo jí": 5263,
  "shū zhǎng ": 5264,
  "cān sài ": 5265,
  " shú": 5266,
  "   8": 5267,
  " rèn mìng ": 5268,
  " nián dù": 5269,
  " zài 18": 5270,
  " yí ": 5271,
  " ào dà lì yà": 5272,
  "   zhōng ": 5273,
  "   zhōng guó": 5274,
  " zhǔ yǎn ": 5275,
  " yě jiù shì ": 5276,
  " gǎi shàn ": 5277,
  " chuàng lì ": 5278,
  "68": 5279,
  "   2024 nián ": 5280,
  "hōng ": 5281,
  "bìng wèi ": 5282,
  "qǔ dài ": 5283,
  " lì rèn ": 5284,
  " huà de": 5285,
  "   2010 nián ": 5286,
  " 1949 nián ": 5287,
  "xiàng mù ": 5288,
  "háo mǐ": 5289,
  " wéi qí": 5290,
  " tóu piào": 5291,
  " shuǐ píng ": 5292,
  " jiǔ lóng ": 5293,
  " zhèng cháng ": 5294,
  " dōng fāng ": 5296,
  " dōng xī": 5297,
  " yǎn chū": 5298,
  " chuàng bàn ": 5299,
  " hǎi bá gāo dù": 5300,
  " dé lǐ": 5301,
  "jī guān ": 5302,
  " huà hé": 5303,
  " chuàng zào": 5304,
  "mín zhòng ": 5305,
  " zhuān mén ": 5306,
  " xī yǐn ": 5307,
  "zì dòng ": 5308,
  " bā ": 5309,
  " jìng zhēng ": 5310,
  " 1999 nián ": 5311,
  " tā yú": 5312,
  "   xiāng gǎng ": 5313,
  " huāng ": 5314,
  " bù lái ": 5315,
  " xíng zhèng qū": 5316,
  " tuī dòng ": 5317,
  "wū ": 5318,
  " fén ": 5319,
  "de qián ": 5320,
  "nián jiān ": 5321,
  "   jù qíng ": 5322,
  " zài nà": 5323,
  "chéng xiàn ": 5324,
  " míng yì ": 5325,
  "xué jiā": 5326,
  "huí dào": 5327,
  "nóng yè": 5328,
  "zī ": 5329,
  " sī fǎ": 5330,
  " mì mì ": 5331,
  "TV": 5332,
  "kǎn ": 5333,
  " zài tā": 5334,
  " yì shí": 5335,
  "de shí qū wèi ": 5336,
  "shì tú": 5337,
  "guó huì ": 5338,
  " zé dōng ": 5339,
  "yùn xíng ": 5340,
  "tóu zī": 5341,
  "ào dì lì ": 5342,
  " zuò chū": 5343,
  " pǐ": 5344,
  "2008 nián ": 5345,
  "jiǎn chá": 5346,
  "hēng ": 5347,
  "qiǎo": 5348,
  "   yán ": 5349,
  "ér ": 5350,
  "K ": 5351,
  " chuáng ": 5352,
  "qǔ ": 5353,
  " lìng yǒu": 5354,
  " yán jiū suǒ": 5355,
  "zhuàng kuàng ": 5356,
  " shì dé guó": 5357,
  " yuè tuán ": 5358,
  " de qíng kuàng ": 5359,
  " dé yǐ": 5360,
  "bǎo liú": 5361,
  " zhuāng jiǎ": 5362,
  " tuō ": 5363,
  " dì de": 5364,
  " jù fēng ": 5365,
  " dì yí gè": 5366,
  " guān chá": 5367,
  " huá shèng dùn ": 5368,
  "％": 5369,
  " xī fāng ": 5370,
  " gǎn dào": 5371,
  "   l": 5372,
  "zuì chū": 5373,
  " yì rén ": 5374,
  " chǎn yè": 5375,
  "   to": 5376,
  "tiào": 5377,
  "   cǐ wài ": 5378,
  "2012 nián ": 5379,
  "bo": 5380,
  "hé lán ": 5381,
  "shù jù": 5382,
  "yùn shū": 5383,
  " wěn ": 5384,
  " shì lì ": 5385,
  "zhōng shān ": 5386,
  "yuè nán ": 5387,
  " yíng yùn ": 5388,
  " xī ān ": 5389,
  " bù luò": 5390,
  " kǎo lǜ": 5391,
  "─": 5392,
  " jué duì ": 5393,
  " shī bài ": 5394,
  "2023 nián ": 5395,
  "fǎng wèn ": 5396,
  " pǔ biàn ": 5397,
  "chǔ yú": 5398,
  "ich": 5399,
  "wěn ": 5400,
  "chuí": 5401,
  " zhèng fǔ ": 5402,
  "shēng yú": 5403,
  "tā zài ": 5404,
  "lái yuán ": 5405,
  "wǎng luò": 5406,
  " gēn tíng ": 5407,
  " liè chē ": 5408,
  " zhōng jiān ": 5409,
  "ST ": 5410,
  "wèi shì ": 5411,
  " gè yuè ": 5412,
  "g ": 5413,
  "wéi chí": 5414,
  " wén zì ": 5415,
  " shī qù": 5416,
  "zī gé ": 5417,
  "42": 5418,
  " dān qū ": 5419,
  " diàn shì jù ": 5420,
  " yóu qí shì ": 5421,
  " gòu chéng ": 5422,
  "zōng hé": 5423,
  "tǎo lùn ": 5424,
  " pìn ": 5425,
  "yòng de": 5426,
  " xīng qī": 5427,
  " jī de": 5428,
  " fú hé": 5429,
  "chàng piàn ": 5430,
  " zhèng cè ": 5431,
  " tou": 5432,
  " zhì lì ": 5433,
  " xī zàng ": 5434,
  "tóu piào": 5435,
  " suì shí": 5436,
  "sì shí": 5437,
  "liú xíng ": 5438,
  " shēng huó xí xìng ": 5439,
  " zhōng yú": 5440,
  "jié shù ": 5441,
  "ric": 5442,
  " zhuō": 5443,
  "bù duàn ": 5444,
  " xiàn wèi ": 5445,
  " tóng méng ": 5446,
  " fàng qì ": 5447,
  "zhǔn bèi ": 5448,
  "zài měi guó": 5449,
  " duǒ": 5450,
  "tuò": 5451,
  " zhū ": 5452,
  " yù jì ": 5453,
  " yā lì ": 5454,
  " 1992 nián ": 5455,
  " cǐ hòu ": 5456,
  "jī chē": 5457,
  "00 mǐ": 5458,
  " yě kě yǐ": 5459,
  " dǎo de": 5460,
  " biàn chéng ": 5461,
  "shī fàn ": 5462,
  "20 shì jì ": 5463,
  "ah": 5464,
  " guǎng dōng shěng ": 5465,
  "zá zhì ": 5466,
  " gé lā": 5467,
  "bō chū ": 5468,
  "guī dìng ": 5469,
  " gǎo": 5470,
  " shēng huó xí xìng bù míng ": 5471,
  "78": 5472,
  " guà": 5473,
  " zhī dào": 5474,
  "jī hū": 5475,
  " zhǒng zi ": 5476,
  "and   ": 5477,
  "if": 5478,
  " quǎn ": 5479,
  " shè qū": 5480,
  "zhù míng ": 5481,
  "   12": 5482,
  " yī méi ": 5483,
  " jì shù ": 5484,
  "zhī wèi ": 5485,
  "fó jiào": 5486,
  "yòng lái ": 5487,
  "gǎi biàn ": 5488,
  " tiě dào": 5489,
  "lay": 5490,
  " zhù zuò ": 5491,
  " 29": 5492,
  " bǎo liú": 5493,
  "miào ": 5494,
  " chū zhàn ": 5495,
  "tóng nián ": 5496,
  "wǔ qì ": 5497,
  "bàn dǎo": 5498,
  "   dì èr": 5499,
  " A ": 5500,
  "tóng yì ": 5501,
  " shuō fǎ ": 5502,
  " guó jiā duì ": 5503,
  " jiào liàn ": 5504,
  "In": 5505,
  " de dì fāng ": 5506,
  " shì nán ": 5507,
  " jiāng huì ": 5508,
  "qióng ": 5509,
  " qiáng liè": 5510,
  "   suī rán ": 5511,
  " lì jí": 5512,
  "de dì fāng ": 5513,
  " chéng lì yú": 5514,
  "hé dǎng ": 5515,
  "yì qíng ": 5516,
  "sì chuān ": 5517,
  " tú shū guǎn ": 5518,
  " de qí zhōng yī zhǒng ": 5519,
  "hé shì ": 5520,
  " yuē wèi ": 5521,
  "sè de": 5522,
  "guǒ ": 5523,
  "gé wèi ": 5524,
  "76": 5525,
  " dǐ ": 5526,
  " 1996 nián ": 5527,
  "2015 nián ": 5528,
  " jiào xué": 5529,
  "mǎi ": 5530,
  "   bèi jǐng ": 5531,
  " shǎo ": 5532,
  " yī liáo": 5533,
  " zhōu wéi ": 5534,
  "ort": 5535,
  " 1945 nián ": 5536,
  "   fú": 5537,
  "hé qí tā": 5538,
  " zhì dìng ": 5539,
  " fēn lán ": 5540,
  "tí míng ": 5541,
  "art": 5542,
  " gāo de": 5543,
  " mǐ ěr": 5544,
  " xǐ huān ": 5545,
  "cháng qī": 5546,
  " wáng guó": 5547,
  "tuán tǐ": 5548,
  "zhēn duì ": 5549,
  "ér chéng ": 5550,
  "xī là": 5551,
  "gē shǒu": 5552,
  " guāng xù": 5553,
  "yǒu xiàn gōng sī": 5554,
  "yī wèi ": 5555,
  " luó sī ": 5556,
  "gē qǔ": 5557,
  " dào dá": 5558,
  " jūn wèi ": 5559,
  "shì fǒu": 5560,
  " yě bèi ": 5561,
  " bó lín ": 5562,
  "rǔ": 5563,
  " zhǔ jué": 5564,
  " 45": 5565,
  " de yǐng xiǎng ": 5566,
  "shuā": 5567,
  "2014 nián ": 5568,
  " mǎ ěr": 5569,
  " jūn zài ": 5570,
  "píng lùn ": 5571,
  "   měi guó": 5572,
  " bìng yóu": 5573,
  " kè yùn ": 5574,
  " jié hé": 5575,
  " gù ": 5576,
  " zuò zhě": 5577,
  " ān dé": 5578,
  "   duì ": 5579,
  "   ér": 5580,
  " yuán xíng ": 5581,
  "chū le": 5582,
  " gāi cūn ": 5583,
  " jù tǐ": 5584,
  " cān kǎo": 5585,
  "wán jiā": 5586,
  "jǐn biāo sài ": 5587,
  " shǐ yòng de": 5588,
  " kāng xī": 5589,
  "IN": 5590,
  " hé pàn ": 5591,
  " 20 shì jì ": 5592,
  " bìng bèi ": 5593,
  " gèng jiā": 5594,
  "fǎ lán ": 5595,
  "wù zhì ": 5596,
  "dài biǎo ": 5597,
  " běn zhàn ": 5598,
  "2018 nián ": 5599,
  "shèng lì ": 5600,
  "dào de": 5601,
  "gòng chǎn ": 5602,
  " wǔ tái ": 5603,
  "2024 nián ": 5604,
  " shēng chēng ": 5605,
  " wéi āi ": 5606,
  " 80": 5607,
  "2009 nián ": 5608,
  " wēng ": 5609,
  " xiǎo xíng ": 5610,
  " qí zhōng nán xìng ": 5611,
  "ing ": 5612,
  " rèn wù ": 5613,
  "rù qīn ": 5614,
  " 1988 nián ": 5615,
  "gǎi biān ": 5616,
  "huǐ": 5617,
  "zhū ": 5618,
  "yuán zhù": 5619,
  " wéi zhǔ ": 5620,
  "ant": 5621,
  " gēng míng wèi ": 5622,
  "igh": 5623,
  "G ": 5624,
  "H ": 5625,
  "   zēng zǔ": 5626,
  " jī chǔ": 5627,
  "xī bù": 5628,
  " pèi yīn ": 5629,
  "dǐ dá": 5630,
  "jù jué": 5631,
  "   dì fāng ": 5632,
  "de yī zhǒng ": 5633,
  "ry": 5634,
  " jīn rì ": 5635,
  " cǐ cì ": 5636,
  "lín shí": 5637,
  " yì nián ": 5638,
  "sī de": 5639,
  "xiǎo shuō ": 5640,
  " cái néng ": 5641,
  "43": 5642,
  "ast": 5643,
  "   jìn ": 5644,
  "dé yǐ": 5645,
  " mín zhǔ dǎng ": 5646,
  "IC": 5647,
  " cháng shì ": 5648,
  " bàn shì ": 5649,
  " jī xiè": 5650,
  "yìng yòng ": 5651,
  "   2008 nián ": 5652,
  "88": 5653,
  "zhè jiāng ": 5654,
  "yí dù": 5655,
  " 1997 nián ": 5656,
  " sū gé lán ": 5657,
  " zhào ": 5658,
  "tiáo jiàn ": 5659,
  "ey": 5660,
  " rén wù ": 5661,
  " lì shǔ": 5662,
  "běn tǔ": 5663,
  " běn shēn ": 5664,
  "yǐ xià": 5665,
  "rù xuǎn ": 5666,
  "tāng ": 5667,
  " fǎ guān ": 5668,
  "měi nián ": 5669,
  " jī jí": 5670,
  "lián jiē": 5671,
  " 1994 nián ": 5672,
  "2017 nián ": 5673,
  " zī liào ": 5674,
  "ard": 5675,
  "jù lè": 5676,
  " yà ": 5677,
  "ar ": 5678,
  "xié zhù": 5679,
  "bāo kuò ": 5680,
  " rén hé": 5681,
  "zhōng xué ": 5682,
  "guān yuán ": 5683,
  " qū yù ": 5684,
  " yī dài ": 5685,
  " gōng jīn ": 5686,
  "wéi zhǔ ": 5687,
  "róng yì ": 5688,
  "AM": 5689,
  "gōng zhòng ": 5690,
  " xiū gǎi ": 5691,
  "ed   ": 5692,
  "zhèn qū ": 5693,
  "céng zài ": 5694,
  "guó nèi ": 5695,
  "jīng yíng ": 5696,
  "zi de": 5697,
  "nǚ ": 5698,
  "guǎng zhōu": 5699,
  " bǐ sài zhōng ": 5700,
  " zhōng huá rén mín gòng hé guó zhèng zhì rén wù ": 5701,
  " xuǎn shǒu": 5702,
  " St": 5703,
  " jí shì ": 5705,
  "jì zhě": 5706,
  " zhōng guó rén mín jiě fàng jūn ": 5707,
  "kǎ ": 5708,
  " dé míng ": 5709,
  "fú jiàn ": 5710,
  " fēn bié wèi ": 5711,
  "gāo děng ": 5712,
  " duì yìng ": 5713,
  "píng tái ": 5714,
  "miè": 5715,
  " huǐ ": 5716,
  " cè liáng ": 5717,
  " bǐ rú": 5718,
  "41": 5719,
  "yī tóng ": 5720,
  " jīng diǎn ": 5721,
  " wěi huì ": 5722,
  " 1985 nián ": 5723,
  " quē fá": 5724,
  "ang": 5725,
  "xǐ ": 5726,
  " lì yì ": 5727,
  " gǔ fèn ": 5728,
  " huí yìng ": 5729,
  " shì wū kè lán ": 5730,
  "qì chē": 5731,
  "nú": 5732,
  " de fù": 5733,
  "fāng fǎ": 5734,
  "tiān zhǔ jiào": 5735,
  " zhèn qū ": 5736,
  " xiāo shòu": 5737,
  "de fù": 5738,
  " shàng shì ": 5739,
  " chū lái ": 5740,
  " hǎi píng miàn ": 5741,
  " tíng zhǐ": 5742,
  " hǎi bá wèi ": 5743,
  " Z": 5744,
  "mǔ sī ": 5745,
  "ber": 5746,
  " tǔ ěr qí": 5747,
  "yí shì ": 5748,
  " liǎng míng ": 5749,
  "   17": 5750,
  "ǒu xiàng ": 5751,
  "jiàn yì ": 5752,
  " shù wèi ": 5753,
  " néng liàng ": 5754,
  " bào gào ": 5755,
  " mò xī gē": 5756,
  "AR": 5757,
  " yǎn chū ": 5758,
  " xiàn jīn ": 5759,
  "shòu yǔ": 5760,
  " xǐng ": 5761,
  "mǎ lái xī yà": 5762,
  "fēi jī": 5763,
  " huáng jīn ": 5764,
  "màn huà": 5765,
  "sp": 5766,
  " jiē jìn ": 5767,
  " fèn zǐ": 5768,
  " xiǎng nián ": 5769,
  "bù kě": 5770,
  "rén zài ": 5771,
  " lǐ dá": 5772,
  "II": 5773,
  "yǒu suǒ": 5774,
  "nán bù": 5775,
  "yā ": 5776,
  " bù bīng ": 5777,
  " gòu mǎi ": 5778,
  " shí yī": 5779,
  " shí sān ": 5780,
  " gāo xióng ": 5781,
  "xīng děng wèi ": 5782,
  "yùn yíng ": 5783,
  " zhèng zhuàng gǎn rǎn ": 5784,
  "Ch": 5785,
  " xī jiē": 5786,
  "58": 5787,
  " jiū": 5788,
  " chá ": 5789,
  "bǐ jiào": 5790,
  "xià xiá de yí gè": 5791,
  " dì liù": 5792,
  "dān qū ": 5793,
  "shǔ de": 5794,
  "2011 nián ": 5795,
  "yì míng ": 5796,
  " yí shì ": 5797,
  "jié hūn ": 5798,
  "bìng méi yǒu": 5799,
  " shí xíng ": 5800,
  " yī tóng ": 5801,
  " zhèng quán ": 5802,
  " shàng wèi ": 5803,
  " sà ěr": 5804,
  "chuàng lì ": 5805,
  "   qīng ": 5806,
  "běi bù": 5807,
  "int": 5808,
  "sī tǎn ": 5809,
  " shǒu xiān ": 5810,
  " nuò ": 5811,
  " cù jìn ": 5812,
  " bèi rèn wéi shì ": 5813,
  " yě huì ": 5814,
  "tè zhēng ": 5815,
  " shēn zhèn ": 5816,
  " 180": 5817,
  "gē qǔ ": 5818,
  "fāng àn ": 5819,
  " shè shī": 5820,
  "jìn yí bù": 5821,
  " yī zuò": 5822,
  "tǒng jì ": 5823,
  " fēng gé ": 5824,
  "yǎn chū ": 5825,
  " duì de": 5826,
  "zhǔ tí": 5827,
  " kǎ sī": 5828,
  "au": 5829,
  " lái yuè": 5830,
  "yě ": 5831,
  " bó ": 5832,
  " suí jí": 5833,
  "67": 5834,
  " yē": 5835,
  "chǔ ": 5836,
  "āi jí": 5837,
  " yí zhì ": 5838,
  "wǔ nián ": 5839,
  "wā": 5840,
  "   lǐ": 5841,
  " yuán shì ": 5842,
  "yán shēn ": 5843,
  "ER": 5844,
  " xiàng shì ": 5845,
  "duō gè": 5846,
  " qiáng diào": 5847,
  " zēng zhǎng ": 5848,
  "ist": 5849,
  "   9": 5851,
  " shēng tài ": 5852,
  " cháo ": 5853,
  " nián dài ": 5854,
  " chōu": 5855,
  "mín zhǔ dǎng ": 5856,
  "kuì ": 5857,
  "lí ": 5858,
  "kāi tōng ": 5859,
  "tài yáng ": 5860,
  "yīng wén ": 5861,
  " qǐ lái ": 5862,
  "zhào ": 5863,
  "AT": 5864,
  " dà lù ": 5865,
  "jiā zú": 5866,
  "zhǐ chū ": 5867,
  " lìng yì fāng miàn ": 5868,
  " zhòng dà": 5869,
  " xù lì yà": 5870,
  " cāo zuò": 5871,
  " ér fēi ": 5872,
  " quán miàn ": 5873,
  " tái nán ": 5874,
  " fàn zuì ": 5875,
  "yì shì ": 5876,
  "dà qū": 5877,
  " bàn gōng shì ": 5878,
  " dì èr cì ": 5879,
  "yāo qǐng ": 5880,
  "měng ": 5881,
  "dà lóu": 5882,
  "jiān de": 5883,
  "nèi bù": 5884,
  "   bù": 5885,
  " pū": 5886,
  "gōng chǎng ": 5887,
  " miàn duì ": 5888,
  "   2009 nián ": 5889,
  "pú táo": 5890,
  "IS": 5891,
  " gōng chǐ": 5892,
  " xī de": 5893,
  " péng yǒu": 5894,
  "yí dài ": 5895,
  "all": 5896,
  " cǎi qǔ": 5897,
  "gēng míng wèi ": 5898,
  "xiōng dì ": 5899,
  "   191": 5900,
  "ān dé": 5901,
  " yǐn qíng ": 5902,
  " tóng shí gāi dì ": 5903,
  "zōng jiào": 5904,
  "shí shī": 5905,
  " yī sī lán ": 5906,
  " měi jūn ": 5907,
  " zǒng lǐ": 5908,
  " fēng xiǎn ": 5909,
  " 183": 5910,
  "gōng huì ": 5911,
  " yán hǎi ": 5912,
  " jīn shān ": 5913,
  "suǒ cǎi yòng ": 5914,
  " tā hé": 5915,
  "shēng de": 5916,
  " xià lìng shí jiān ": 5917,
  "   yǐ": 5918,
  " dì zhèn ": 5919,
  " zī gé": 5920,
  " zhuī sù": 5921,
  "dào dá": 5922,
  " nèi lù shěng fèn ": 5923,
  " yǔ qí tā": 5924,
  " zhī shí": 5925,
  " bō luó": 5926,
  " zhōng de ": 5927,
  "ǐ yán ": 5928,
  " měi shù": 5929,
  "shǒu wèi ": 5930,
  " shěng hé": 5931,
  " 70": 5932,
  "dá chéng ": 5933,
  "ill": 5934,
  "sī jī": 5935,
  "shǐ de": 5936,
  " fú lǎng ": 5937,
  " miǎn diān ": 5938,
  "dì wǔ": 5939,
  "zhī yuán ": 5940,
  " zhí wèi ": 5941,
  " lián wǎng ": 5942,
  "ip": 5943,
  " rùn ": 5944,
  " hǎo ": 5945,
  " dàn yīn ": 5946,
  " yà lì shān ": 5947,
  "gé de": 5948,
  " tài guó": 5949,
  " bào zhà": 5950,
  " 90": 5951,
  "ith": 5952,
  "pān ": 5953,
  " shān jī": 5954,
  "zhuān yè": 5955,
  "tī": 5956,
  " shì wēi ": 5957,
  "guò qù": 5958,
  " zài 198": 5959,
  " yāo qiú ": 5960,
  "guǐ dào": 5961,
  "kè chéng ": 5962,
  " zhǒng zú": 5963,
  "yī nián ": 5964,
  "xiāng sì ": 5965,
  "jiě jué": 5966,
  " shí zì ": 5967,
  "zǒng dū": 5968,
  " fēn bù ": 5969,
  "2013 nián ": 5970,
  "guī mó": 5971,
  "66": 5972,
  " shè jí": 5973,
  "jīng shén ": 5974,
  " mù biāo ": 5975,
  " biāo běn ": 5976,
  "mìng míng wèi ": 5977,
  "nd": 5978,
  " sēng ": 5979,
  " jì yì ": 5980,
  " liǎn ": 5981,
  " yú 197": 5982,
  " xīn lǐ": 5983,
  "jìn dǎng ": 5984,
  " rù xuǎn ": 5985,
  "gāo zhōng ": 5986,
  "cān móu": 5987,
  " dōu yǒu": 5988,
  " 1995 nián ": 5989,
  " suí hòu ": 5990,
  "shí fēn ": 5991,
  "jié hé": 5992,
  " fāng yán ": 5993,
  "bàn gōng shì ": 5994,
  " piào fáng ": 5995,
  " dì 1": 5996,
  " chū kǒu": 5997,
  " jiǎng shù": 5998,
  "hé chéng ": 5999,
  "shuò": 6000,
  "xiè ": 6001,
  " shuō míng ": 6002,
  " zhèng xié": 6003,
  " dàn qí": 6004,
  " ní xī yà": 6005,
  "chuàng bàn ": 6006,
  " nà xiē": 6007,
  "yáng jiàn ": 6008,
  "79": 6009,
  " chū shēn ": 6010,
  " nán jí": 6011,
  "rì jūn ": 6012,
  " shí qū ": 6013,
  "rén men ": 6014,
  " guì zú": 6015,
  " bó shì xué wèi ": 6016,
  "ty": 6017,
  "   11": 6018,
  " jǐ ": 6019,
  " pēn ": 6020,
  "hòu bèi ": 6021,
  "zhàn shì ": 6022,
  " sì shí": 6023,
  "qì xuán ": 6024,
  " 1984 nián ": 6025,
  " nián líng ": 6026,
  "chéng rèn ": 6027,
  "pǔ biàn ": 6028,
  "   dì fāng zī liào ": 6029,
  " sī kè": 6030,
  " jìn zhǐ": 6031,
  "zuò yòng ": 6032,
  " 300": 6033,
  "bó ": 6034,
  " shè huì zhǔ yì ": 6035,
  " fān yì ": 6036,
  " tuò": 6037,
  "xīn jiā pō": 6038,
  " jūn tuán ": 6039,
  "shēn qǐng ": 6040,
  " bō fàng ": 6041,
  "zǒng rén kǒu": 6042,
  "zǎo qī": 6043,
  "53": 6044,
  "yī shì ": 6045,
  " xí jī": 6046,
  "dǎ ": 6047,
  " xiōng yá lì ": 6048,
  "guī ": 6049,
  "x ": 6050,
  " jiā qiáng ": 6051,
  "chū zhàn ": 6052,
  " bàn dǎo": 6053,
  " 15 ": 6054,
  " shàng yǒu": 6055,
  "zhè yàng ": 6056,
  " dì qī": 6057,
  "chū xiàn zài ": 6058,
  "fù qīn ": 6059,
  "zuì dà": 6060,
  " 1989 nián ": 6061,
  " xiè ": 6062,
  " yǐ biàn ": 6063,
  " bù diàn yǐng ": 6064,
  " jù yuàn ": 6065,
  "xìng liàn ": 6066,
  " 1993 nián ": 6067,
  " nuó wēi ": 6068,
  "suǒ zài ": 6069,
  "   jiǎn jiè ": 6070,
  " yuán zì ": 6071,
  " ěr hé": 6072,
  " dān qū": 6073,
  "huā ": 6074,
  "   wài ": 6075,
  " nán fāng ": 6076,
  "yán jiū ": 6077,
  " nà me": 6078,
  " què rèn ": 6079,
  "gǎn dào": 6080,
  " de dì qū ": 6081,
  "a   ": 6082,
  "nǔ": 6083,
  "guó lì ": 6084,
  "qiú yùn dòng yuán ": 6085,
  "tóu xiáng ": 6086,
  "chán ": 6087,
  " tōu": 6088,
  " yǔ qí": 6089,
  " dǎ jī": 6090,
  " jí hé": 6091,
  "dì yí gè": 6092,
  " chǎng bǐ sài ": 6093,
  "bāng zhù": 6094,
  "72": 6095,
  " 00 ": 6096,
  "   jiāo tōng ": 6097,
  " quàn ": 6098,
  " zài rì běn ": 6099,
  "yǒu xiào": 6100,
  " zǔ jiàn ": 6101,
  " lí mǐ ": 6102,
  "shuǐ yù ": 6103,
  " míng dān ": 6104,
  "què dìng ": 6105,
  "yī xiǎo shí ": 6106,
  " xīn jiāng ": 6107,
  " jīn tiān ": 6108,
  " xiǎo de": 6109,
  "gāo jí": 6110,
  " guǎng gào": 6111,
  "sǎn ": 6112,
  "zhī zhōng ": 6113,
  " 1920 nián ": 6114,
  "DT ": 6115,
  "cǎo ": 6116,
  "zhěn ": 6117,
  " yī tiáo": 6118,
  " dà xī yáng ": 6119,
  " sān jiǎo": 6120,
  "tóng yàng ": 6121,
  " qǔ xiāo": 6122,
  "zǒu ": 6123,
  "tuó": 6124,
  "ark": 6125,
  " jiǎn chá": 6126,
  " huǒ shān ": 6127,
  " mǎ kè": 6128,
  "bì yè yú": 6129,
  " hěn kuài ": 6130,
  "wǎn shàng ": 6131,
  " wāng ": 6132,
  "huī ": 6133,
  " Y": 6134,
  " zhǔ shì ": 6135,
  " nán fēi ": 6136,
  " tái fēng ": 6137,
  "chēng wèi ": 6138,
  " tóu rù": 6139,
  "zhōng guó dà lù": 6140,
  " zhào piān ": 6141,
  "ation": 6142,
  "pì ": 6143,
  "zhī wài ": 6144,
  " 7 ": 6145,
  "AC": 6146,
  "rén hé": 6147,
  "zì xíng ": 6148,
  " zhù yú": 6149,
  "fù zhǔ rèn ": 6150,
  " bō ěr": 6151,
  "anc": 6152,
  " 0 ": 6153,
  " dé de": 6154,
  " zhàn dì ": 6155,
  " zhí de": 6156,
  " wù zhì ": 6157,
  "zhài ": 6158,
  " dì miàn ": 6159,
  " běi fāng ": 6160,
  " 30 ": 6161,
  "què zhěn bìng lì ": 6162,
  "huǐ ": 6163,
  " dà zhì ": 6164,
  "jí bìng ": 6165,
  "shù wèi ": 6166,
  "zhǎng guān ": 6167,
  " céng wèi ": 6168,
  " jiù dú": 6169,
  "5 rén ": 6170,
  " zuò wèi ": 6171,
  "rú xià ": 6172,
  "yì bǎi ": 6173,
  " nǔ lì ": 6174,
  "mǒu xiē": 6175,
  "   g": 6176,
  " ér bú shì ": 6177,
  " shè yǐng ": 6178,
  "jiào táng ": 6179,
  " bào dào": 6180,
  "shì jiè bēi ": 6181,
  " bīn hǎi ": 6182,
  "hào de": 6183,
  "fā bù ": 6184,
  "our": 6185,
  " shì zhǎng ": 6186,
  " bào dào ": 6187,
  "jié shù hòu ": 6188,
  "wō": 6189,
  "   zhèng ": 6190,
  " zhuì ": 6191,
  " yī jí": 6192,
  "huì de": 6193,
  "jiào liàn ": 6194,
  "rì zhì ": 6195,
  " xùn sù": 6196,
  " cháo tíng ": 6197,
  " cn ": 6198,
  "wéi ěr": 6199,
  " yìn dì ": 6200,
  "lu": 6201,
  " yǒu yì ": 6202,
  "zhèng quán ": 6203,
  " fǎ àn ": 6204,
  " qiú huì ": 6205,
  " 36": 6206,
  "chóng jiàn ": 6207,
  " diào kuài ": 6208,
  " shù xué": 6209,
  "yí dòng ": 6210,
  " zǔ hé": 6211,
  " wǎ ": 6212,
  " zhuàng kuàng ": 6213,
  "kǎo lǜ": 6214,
  " shì yí gè wèi yú": 6215,
  " shì ní": 6216,
  " wèi UTC ": 6217,
  " dà wèi ": 6218,
  "dōng jì ": 6219,
  " huǒ ": 6220,
  " shuài lǐng ": 6221,
  "77": 6222,
  " shù de": 6223,
  "tú shū guǎn ": 6224,
  "tǎ ": 6225,
  " zhāo hé": 6226,
  "   chéng ": 6227,
  " shì nèi ": 6228,
  "shì bīng ": 6229,
  " shàng shù": 6230,
  " lǐ lán ": 6231,
  " tí míng ": 6232,
  "shuǐ píng ": 6233,
  " jí UTC ": 6234,
  "shè yǒu xià lìng shí jiān ": 6235,
  "shèn zhì ": 6236,
  " ér gāi dì suǒ cǎi yòng ": 6237,
  "de shí qū wèi UTC ": 6238,
  " tóng shí gāi dì shè yǒu xià lìng shí jiān ": 6239,
  " diào kuài yī xiǎo shí ": 6240,
  " ér gāi dì suǒ cǎi yòng de shí qū wèi UTC ": 6241,
  "gōng lù": 6242,
  "zhù míng de": 6243,
  "fǎ àn ": 6244,
  " guò ": 6245,
  " duàn shí jiān ": 6246,
  "rùn ": 6247,
  "   qián ": 6248,
  "de zhōng ": 6249,
  " shì qū": 6250,
  " yī xué": 6251,
  "   k": 6252,
  "ào sī": 6253,
  "yǐ qián ": 6254,
  "dà xíng ": 6255,
  " jiāo yì ": 6256,
  " juàn ": 6257,
  "àn zhào": 6258,
  " guó de": 6259,
  " suǒ shǔ": 6260,
  " bù ěr": 6261,
  "rú cǐ ": 6262,
  " bù mǎn ": 6263,
  "192": 6264,
  " le yí gè": 6265,
  " tài kōng ": 6266,
  "háng bǎng ": 6267,
  "wén jiàn ": 6268,
  " 1991 nián ": 6269,
  "gāo yú hǎi píng miàn ": 6270,
  " yán shēn ": 6271,
  "shī qù": 6272,
  " gù wèn ": 6273,
  " 1958 nián ": 6274,
  "kuài sù": 6275,
  " chù de hǎi bá wèi ": 6276,
  " chù de hǎi bá wèi gāo yú hǎi píng miàn ": 6277,
  "52": 6278,
  "dà xī yáng ": 6279,
  " zhù zhái ": 6280,
  "diǎn de": 6281,
  " tā duì ": 6282,
  " xià jiàng ": 6283,
  " xì liè ": 6284,
  "zhá": 6285,
  "zài dù": 6286,
  " jí běi měi ": 6287,
  "duì de": 6288,
  " zēng jiā ": 6289,
  " zhěng tǐ": 6290,
  " X": 6291,
  "háng tiān ": 6292,
  " yě zài ": 6293,
  " shàng yìng ": 6294,
  "lǜ wèi ": 6295,
  "zhì liáo": 6296,
  " jù běn ": 6297,
  " kē ěr": 6298,
  " jiāo huì ": 6299,
  " cái liào": 6300,
  " míng què": 6301,
  "qū de miàn jī wèi ": 6302,
  "...": 6303,
  "jì de": 6304,
  "zhī zi ": 6305,
  "tài zi ": 6306,
  " pào ": 6307,
  "ér zi ": 6308,
  "yù de": 6309,
  "fēn xī": 6310,
  " xiù ": 6311,
  "dà yuē": 6312,
  "huà wèi ": 6313,
  " 38": 6314,
  "tiáo zhěng ": 6315,
  " wéi qí ": 6316,
  " kē xué yuàn ": 6317,
  " fū rén ": 6318,
  " 1950 nián ": 6319,
  " de yī zuò": 6320,
  "   zhǔ yào": 6321,
  " jī dì ": 6322,
  "   fù": 6323,
  "fā qǐ": 6324,
  " xī ěr": 6325,
  " wǔ hàn ": 6326,
  "56": 6327,
  " lüè ": 6328,
  " lì hé": 6329,
  " xiàn fǎ": 6330,
  " zhàn lüè": 6331,
  " shān fēng ": 6332,
  "   190": 6333,
  "bā lí": 6334,
  "2007 nián ": 6335,
  "jiě ": 6336,
  "73": 6337,
  "diàn lì ": 6338,
  " shì yī kē": 6339,
  "gǎi gé": 6340,
  "de yī zuò": 6341,
  " běi jīng shì ": 6342,
  "ON": 6343,
  " zì shēn ": 6344,
  "shè shī ": 6345,
  "jiào shòu ": 6346,
  " 1990 nián ": 6347,
  " ào yùn ": 6348,
  " cān jiā le": 6349,
  "54": 6350,
  " sǎn ": 6351,
  " bàn gōng ": 6352,
  " 10 yuè ": 6353,
  " gōng rén ": 6354,
  " dà gé mìng ": 6355,
  "zhǔ de": 6356,
  " suǒ wèi ": 6357,
  "191": 6358,
  " léi sī": 6359,
  "yǐn fā": 6360,
  " mǎ lā": 6361,
  " kē fū": 6362,
  " jiǎn dān ": 6363,
  "ss": 6364,
  "   16": 6365,
  " lè ": 6366,
  " hòu de": 6367,
  " lǚ xíng ": 6368,
  "fèi yán ": 6369,
  "az": 6370,
  "ram": 6371,
  "tāi ": 6372,
  "jì zǎi ": 6373,
  "diàn tái ": 6374,
  " liǎng cì ": 6375,
  " zhé xué": 6376,
  " kuáng ": 6377,
  "gōng lǐ": 6378,
  "aw": 6379,
  " qiú chǎng ": 6380,
  " dāng jú": 6381,
  " liú yù ": 6382,
  " xiǎo shuō ": 6383,
  " shǐ mì ": 6384,
  "lì shǐ shàng ": 6385,
  " dá chéng ": 6386,
  " zài zhōng ": 6387,
  "xuǎn wèi ": 6388,
  " shàng hǎi shì ": 6389,
  " shì xiāng gǎng ": 6390,
  "rèn wù ": 6391,
  "dìng yì ": 6392,
  " yè wù": 6393,
  " tiáo yuē": 6394,
  " shí jì shàng ": 6395,
  " lùn wén ": 6396,
  "   2007 nián ": 6397,
  "96": 6398,
  "   tái wān ": 6399,
  " yǐ qián ": 6400,
  " yuán wèi ": 6401,
  " ruǎn jiàn ": 6402,
  "98": 6403,
  "wěn dìng ": 6404,
  " tóng rì ": 6405,
  " wǎ ěr": 6406,
  " xiū zhèng ": 6407,
  "hǎn ": 6408,
  "huān ": 6409,
  " pó": 6410,
  " jiā jìng ": 6411,
  "shǐ shàng ": 6412,
  "ní sī": 6413,
  "Tub": 6414,
  "mó xíng ": 6415,
  "   the  ": 6416,
  "sàng ": 6417,
  "xuē": 6418,
  "   jí": 6419,
  "yǐng piàn ": 6420,
  "què rèn ": 6421,
  "jiàn zhù ": 6422,
  " bā xī": 6423,
  " dǐ dá": 6424,
  "zhāi ": 6425,
  "de píng jūn ": 6426,
  " wéi kè": 6427,
  " diàn chē": 6428,
  " qì xiàng ": 6429,
  "shī bài ": 6430,
  "rén mín bì ": 6431,
  "dào lù": 6432,
  " dān mài ": 6433,
  " yí dù": 6434,
  " dài yǒu": 6435,
  "cóng shì ": 6436,
  "   2025 nián ": 6437,
  " dì yà": 6438,
  " xiāng xìn ": 6439,
  "zhōu biān ": 6440,
  "qiū ": 6441,
  " qí zhōng yī": 6442,
  " 1986 nián ": 6443,
  "xí jī": 6444,
  " rào": 6445,
  " yì jiàn ": 6446,
  " jiā gē": 6447,
  "huà hé": 6448,
  "shēng wèi ": 6449,
  " bēi sī": 6450,
  "ing": 6451,
  " diào ": 6452,
  " zhāi ": 6453,
  "qún dǎo": 6454,
  " fēn bié shì ": 6455,
  "cōng ": 6456,
  " wǎng lù": 6457,
  "2001 nián ": 6458,
  " shì jiè bēi ": 6459,
  " shí sì ": 6460,
  " duì wǔ": 6461,
  "yè de": 6462,
  "xīng qī": 6463,
  "dāo": 6464,
  " zhào kāi ": 6465,
  "dì qiú": 6466,
  " fáng yù": 6467,
  "ath": 6468,
  "qiáo zhì ": 6469,
  " zhī zhōng ": 6470,
  "xià wǔ ": 6471,
  " shǐ qí": 6472,
  " zhǎn lǎn ": 6473,
  "shǐ yòng de": 6474,
  "AP": 6475,
  "qì de": 6476,
  "tiě lù ": 6477,
  "74": 6478,
  "féi ": 6479,
  " ā lā bó": 6480,
  "mò xī gē": 6481,
  " gǎn rǎn ": 6482,
  " kàng rì ": 6483,
  " liǎng guó": 6484,
  " hái shì ": 6485,
  "   rì běn ": 6486,
  " bǐ yà": 6487,
  "chī": 6488,
  "dà xuǎn ": 6489,
  " shēng rèn ": 6490,
  " tè dìng ": 6491,
  " zhǎn shì ": 6492,
  " lín jìn ": 6493,
  " xǐ ": 6494,
  " huì shì ": 6495,
  " miàn de": 6496,
  " pèi hé": 6497,
  " xué xí ": 6498,
  " rú hé": 6499,
  " láo dòng ": 6500,
  " kū": 6501,
  " jí wèi ": 6502,
  "bō fàng ": 6503,
  "jiù dú": 6504,
  " zhuāng shì ": 6505,
  " 1983 nián ": 6506,
  "   hòu": 6507,
  "dì 1": 6508,
  " zhèng jù": 6509,
  " bèi qí": 6510,
  "qì xiàng ": 6511,
  "liàng de": 6512,
  " sè de": 6513,
  "yuán běn ": 6514,
  " lù xù": 6515,
  " qǐ yuán ": 6516,
  "ròu": 6517,
  " shí xìng ": 6518,
  "zhōng yǒu": 6519,
  " jiāng xī": 6520,
  "kè lǐ": 6521,
  " 1980 nián ": 6522,
  "ff": 6523,
  "ào zhōu": 6524,
  "dì liù": 6525,
  "zhōu de": 6526,
  " děng děng ": 6527,
  " kàn dào": 6528,
  " zǒu ": 6529,
  "kā": 6530,
  "xiàn xiàng ": 6531,
  "líng chén ": 6532,
  " shào nián ": 6533,
  "   tiān ": 6534,
  " dài lǐng ": 6535,
  " luó lǐ dá": 6536,
  " jià gé": 6537,
  " lǐng dǎo rén ": 6538,
  " shí wǔ": 6539,
  " kǎo gǔ": 6540,
  "gh": 6541,
  "ào ěr": 6542,
  " tā jiāng ": 6543,
  " huì de": 6544,
  "zhèng dǎng ": 6545,
  " chū xiàn zài ": 6546,
  " dāng shí ": 6547,
  "hóu ": 6548,
  "inc": 6549,
  "huī shěng ": 6550,
  "jūn qū": 6551,
  "zuò de": 6552,
  " bó tè": 6553,
  "guān bì ": 6554,
  " bàn yǎn ": 6555,
  "xiǎo xué": 6556,
  " yìn dù ": 6557,
  "dèng ": 6558,
  "hè ": 6559,
  " tā rèn wéi ": 6560,
  " dǎo dàn ": 6561,
  " 1982 nián ": 6562,
  "duó de": 6563,
  " zuǐ": 6564,
  " luò fá": 6565,
  " tú xíng ": 6566,
  "yǔn xǔ": 6567,
  " zuò de": 6568,
  "fù de": 6569,
  "YouTub": 6570,
  "AN": 6571,
  "jiā lā": 6572,
  " zì mǔ": 6573,
  " fēi lì ": 6574,
  "ǐ yàn ": 6575,
  "xī lán ": 6576,
  "fēn pèi ": 6577,
  "zī liào": 6578,
  " bí": 6579,
  " dì diǎn ": 6580,
  " shí shì ": 6581,
  "dài de": 6582,
  "shōu lù": 6583,
  "huāng ": 6584,
  " xiū ": 6585,
  "jūn zài ": 6586,
  " bèi pò": 6587,
  " běn piàn ": 6588,
  "gāo de": 6589,
  "hǎi bá gāo dù": 6590,
  "   mù qián ": 6591,
  " jiāo liú": 6592,
  " dì 2": 6593,
  " shí liù": 6594,
  "dǎng yuán ": 6595,
  "fù zé guǎn xiá ": 6596,
  " zhèng zhuàng gǎn rǎn zhě": 6597,
  "51": 6598,
  " shì mín ": 6599,
  " dà dào": 6600,
  "sī xiǎng ": 6601,
  "tǒng yī": 6602,
  "ili": 6603,
  "mào ": 6604,
  " guó jūn ": 6605,
  "míng xiǎn ": 6606,
  " wú lùn ": 6607,
  "róu": 6608,
  " yī lǎng ": 6609,
  " xíng mù": 6610,
  " jī yīn ": 6611,
  " xià xiá": 6612,
  "sù dù": 6613,
  " pò ": 6614,
  "suī rán ": 6615,
  " dì lǐ": 6616,
  " xí wèi ": 6617,
  "gòu mǎi ": 6618,
  "ele": 6619,
  "iè ": 6620,
  "pù": 6621,
  " zī chǎn ": 6622,
  " zhēn shí": 6623,
  "shōu rù": 6624,
  " dàng tiān ": 6625,
  " sec": 6626,
  "jiā de": 6627,
  "xiàn chǎng ": 6628,
  "chū lái ": 6629,
  " suǒ zài ": 6630,
  " quán xiàn ": 6631,
  " rén mín dài biǎo dà huì ": 6632,
  " gōng kāi sài ": 6633,
  "fěi ": 6634,
  "huài ": 6635,
  "   zhàn ": 6636,
  "   gè rén ": 6637,
  " yī cí": 6638,
  " lù yǐng ": 6639,
  " xì jù": 6640,
  "quán miàn ": 6641,
  " nú": 6642,
  " qí bīng ": 6643,
  "jiào wéi ": 6644,
  "   jiā tíng ": 6645,
  "ōu méng ": 6646,
  " yǐ bèi ": 6647,
  "hóng sè": 6648,
  " zé rèn ": 6649,
  " 1946 nián ": 6650,
  "yóu tài ": 6651,
  " duō wèi ": 6652,
  " tóng shí yě": 6653,
  " 1948 nián ": 6654,
  " tè diǎn ": 6655,
  " chē xiāng ": 6656,
  "kǔ": 6657,
  " zhì dù ": 6658,
  "jī gòu ": 6659,
  " B ": 6660,
  " gā": 6661,
  " yuè de": 6662,
  " yuè duì ": 6663,
  "wù lǐ": 6664,
  " bō chū": 6665,
  "2006 nián ": 6666,
  " pō ": 6667,
  "guó fáng ": 6668,
  " dà sài ": 6669,
  " jī qì ": 6670,
  "nián dù": 6671,
  "yí mín ": 6672,
  "biàn wèi ": 6673,
  " biān jiè": 6674,
  " zhǔ yào shì ": 6675,
  " què bǎo": 6676,
  "huǒ ": 6677,
  "61": 6678,
  "fá ": 6679,
  " diào chá ": 6680,
  " chǒu": 6681,
  " yóu cǐ": 6682,
  "fēng bào": 6683,
  "shì yī zhǒng ": 6684,
  " jí bìng ": 6685,
  " jì de": 6686,
  " wéi rào": 6687,
  "shàng yǒu": 6688,
  "2025 nián ": 6689,
  " kāi fā ": 6690,
  "kuáng ": 6691,
  " qī nián ": 6692,
  " yà měi ní yà": 6693,
  " yú 196": 6694,
  "yí cì shì jiè dà zhàn ": 6695,
  " jǐ yǔ": 6696,
  "guā": 6697,
  "ne": 6698,
  " dōu huì ": 6699,
  "pǔ tōng ": 6700,
  " yīn yuè ": 6701,
  "gǒng ": 6702,
  " luǎn ": 6703,
  " qì hòu": 6704,
  " yīn wèi tā": 6705,
  "   shǐ yòng ": 6706,
  " róu": 6707,
  " hé qí tā": 6708,
  " xiāng hù": 6709,
  " kuò zhǎn ": 6710,
  "dāng jú": 6711,
  " guó jiā de": 6712,
  " bù hé": 6713,
  " kǔ": 6714,
  "yuán gōng ": 6715,
  " lái dào": 6716,
  "dié ": 6717,
  " Q": 6718,
  " yīn shì ": 6719,
  "chū yǎn ": 6720,
  "jīn shǔ": 6721,
  " biàn dé": 6722,
  "wáng cháo": 6723,
  " 1987 nián ": 6724,
  " nèn ": 6725,
  " xiāo xī": 6726,
  " jiàng dī": 6727,
  "omp": 6728,
  " lú wǎ ěr shěng ": 6729,
  " liǎng wèi ": 6730,
  "93": 6731,
  " zhàng ài ": 6732,
  "   míng ": 6733,
  " chéng běn ": 6734,
  " nán yǐ": 6735,
  " duō míng ": 6736,
  " liè wèi ": 6737,
  " chuàng jiàn ": 6738,
  " jiā lì fú": 6739,
  "63": 6740,
  " wéi sī": 6741,
  "zhàn tái ": 6742,
  " gè lèi ": 6743,
  "yì qǐ ": 6744,
  "duō lì yà": 6745,
  " tuì yì ": 6746,
  " 120": 6747,
  "lèi xíng ": 6748,
  "áo ": 6749,
  " jiān rèn ": 6750,
  "èr zhàn ": 6751,
  "wén zhāng ": 6752,
  "tiě dào": 6753,
  "zhōng wén ": 6754,
  "běn shēn ": 6755,
  "biǎo dá": 6756,
  "dān qū": 6757,
  "jiě shì ": 6758,
  "zhǎn shì ": 6759,
  " sū ": 6760,
  " cū": 6761,
  " pīn ": 6762,
  "fàng qì ": 6763,
  "yuǎn jìng ": 6764,
  " wá": 6765,
  " zhōng shān ": 6766,
  " yǐ wéi ": 6767,
  " sān shì ": 6768,
  " tiān rán ": 6769,
  "wú rén ": 6770,
  "xué zhě": 6771,
  "yīng gāi ": 6772,
  " 8 yuè ": 6773,
  " wò ěr": 6774,
  "   bèi ": 6775,
  " sī tuō": 6776,
  "tóng pái ": 6777,
  "dāng zhōng ": 6778,
  "bā xī": 6779,
  " biān jí": 6780,
  "2005 nián ": 6781,
  " dǎn ": 6782,
  " guǐ ": 6783,
  " fà": 6784,
  "chuàn ": 6785,
  " yī zhī": 6786,
  " jí lín ": 6787,
  "qí wèi ": 6788,
  "gǎo": 6789,
  "shéng ": 6790,
  " shí bā": 6791,
  "yòng zuò": 6792,
  "yīng yǔ": 6793,
  " mǎn zú": 6794,
  "lì shǐ ": 6795,
  " sī mǎ": 6796,
  "shí èr nián ": 6797,
  " wèi yú zhōng guó": 6798,
  " shōu shì ": 6799,
  " chuàng zuò ": 6800,
  "mǐ ěr": 6801,
  "   2006 nián ": 6802,
  " dà guī mó": 6803,
  " xiào yuán ": 6804,
  " fēng bào": 6805,
  " zhè yàng de": 6806,
  " kuāng ": 6807,
  " zài xī": 6808,
  "zài wèi ": 6809,
  " jiào wéi ": 6810,
  " shōu rù": 6811,
  "   chú le": 6812,
  "de shí jiān ": 6813,
  "huò shì ": 6814,
  " jiāo ": 6815,
  " jī dū jiào": 6816,
  "lüè ": 6817,
  " xiè ěr": 6818,
  " yóu yǒng ": 6819,
  " zhàn duì ": 6820,
  "lái dào": 6821,
  " gù dìng ": 6822,
  "fā xiàn le": 6823,
  " zài xiāng gǎng ": 6824,
  " zhè shǒu": 6825,
  "jiàn kāng ": 6826,
  " zhuāng bèi ": 6827,
  "lā ": 6828,
  "10 ": 6829,
  "shì zhèng fǔ": 6830,
  " liù ": 6831,
  "biǎo ": 6832,
  "liè rù": 6833,
  " bǎo cún ": 6834,
  "yǐ y": 6835,
  "xiàn de yí gè": 6836,
  " xiǎo xué": 6837,
  " háo": 6838,
  " gōng yuán qián ": 6839,
  "59": 6840,
  "pū": 6841,
  " huà shí": 6842,
  "xiāng shì ": 6843,
  " cǐ zhàn ": 6844,
  " mó ": 6845,
  " bǎi wàn ": 6846,
  "xùn sù": 6847,
  "yǐ hòu ": 6848,
  "yě bèi ": 6849,
  " bǎo shǒu": 6850,
  "zhuāng bèi ": 6851,
  " 12 yuè ": 6852,
  " zài xīn ": 6853,
  "zhōng hǎi ": 6854,
  " hé zuò ": 6855,
  " dà fú": 6856,
  " guān zhì ": 6857,
  "lái shuō ": 6858,
  " cǎi fǎng ": 6859,
  " hēi lóng jiāng ": 6860,
  " sàng ": 6861,
  "   rì ": 6862,
  " gōng zhòng ": 6863,
  " jiā zhōu": 6864,
  " shàng shū": 6865,
  " dàn bù": 6866,
  " huá rén ": 6867,
  " zhǐ dìng ": 6868,
  " jiù huì ": 6869,
  "tiān wén ": 6870,
  "xuǎn shǒu": 6871,
  " bì yè": 6872,
  " wǎng wǎng ": 6873,
  " shì yī zuò": 6874,
  "shǐ yán ": 6875,
  "   huò": 6876,
  " yǔ máo qiú": 6877,
  " kè lǐ sī": 6878,
  "jiào shòu": 6879,
  " róng yì ": 6880,
  " máo zé dōng ": 6881,
  " dǒng shì ": 6882,
  "zuǒ yòu ": 6883,
  "Window": 6884,
  "dǔ": 6885,
  "tiǎo zhàn ": 6886,
  " gè zì ": 6887,
  "dà dào": 6888,
  " zhí jìng ": 6889,
  " zhuāng zhì ": 6890,
  " huí ": 6891,
  "zāi péi ": 6892,
  "   1 ": 6893,
  "rén wù": 6894,
  "kè sī": 6895,
  "tiān táng ": 6896,
  "tāo": 6897,
  "   gù shì ": 6898,
  " shì zhōng ": 6899,
  "dé lǐ": 6900,
  " shí èr nián ": 6901,
  "dōu huì ": 6902,
  "ice ": 6903,
  " chè xiāo": 6904,
  "   In": 6905,
  "7 yuè 1 rì ": 6906,
  " 1 gè": 6907,
  "zhī míng ": 6908,
  " 160": 6909,
  "shì jiè shàng ": 6910,
  "   yuè": 6911,
  "de hòu": 6912,
  " shì é luó sī": 6913,
  " yì diǎn ": 6914,
  "yǒu yí gè": 6915,
  " yǔ cǐ": 6916,
  " sī dì ": 6917,
  " chuán shuō": 6918,
  " ràng tā": 6919,
  "de fāng shì ": 6920,
  " shì láng ": 6921,
  "dì qī": 6922,
  " jù jí": 6923,
  "wǎng lù": 6924,
  "tōng chē ": 6925,
  "500": 6926,
  " lǜ shī": 6927,
  "tion ": 6928,
  "kàn dào": 6929,
  "   yóu xì ": 6930,
  " sī tè ": 6931,
  "xī yǐn ": 6932,
  " 32": 6933,
  "mù dì ": 6934,
  "shén me": 6935,
  " 8 ": 6936,
  " lǔ shì ": 6937,
  " tū rán ": 6938,
  "oy": 6939,
  " nián jiān ": 6940,
  " tā yǐ": 6941,
  "jiāng sū": 6942,
  " 158": 6943,
  "is ": 6944,
  "zhōng bèi ": 6945,
  " nán bù ": 6946,
  " mù sī lín ": 6947,
  " 2011": 6948,
  " zú gòu": 6949,
  " 1956 nián ": 6950,
  "92": 6951,
  "shè qū": 6952,
  " tōng xùn ": 6953,
  " kōng zhōng ": 6954,
  " nóng mín ": 6955,
  "lǚ kè": 6956,
  " qǐng qiú": 6957,
  "rǎo": 6958,
  "xiàn shí": 6959,
  " guān bì ": 6960,
  " 1978 nián ": 6961,
  "nuò ": 6962,
  "fān yì ": 6963,
  " tǐ yù chǎng ": 6964,
  " dé zhī": 6965,
  " diàn lì ": 6966,
  " yà jūn ": 6967,
  "chē chǎng ": 6968,
  " mò sī kē": 6969,
  "fén ": 6970,
  " zǒng miàn jī": 6971,
  " gē shǒu ": 6972,
  "hán shù": 6973,
  "zǔ jiàn ": 6974,
  "bào fā ": 6975,
  "yǐn qíng ": 6976,
  "cǎi qǔ": 6977,
  "táo wǎn ": 6978,
  " shēng zhǎng yú": 6979,
  "ide": 6980,
  " hé běi ": 6981,
  "qū yù ": 6982,
  " rèn qī": 6983,
  " yīng guó ": 6984,
  " zú qiú duì ": 6985,
  " dài lái ": 6986,
  " lìng rén ": 6987,
  " yóu tài rén ": 6988,
  " tuī guǎng ": 6989,
  "huǒ jiàn ": 6990,
  " zài 197": 6991,
  "pín dào": 6992,
  " jiā méng ": 6993,
  " guān diǎn ": 6994,
  " shǒu fǔ": 6995,
  " nèi gé": 6996,
  "jiǎn dān ": 6997,
  "uǎ": 6998,
  "xiào zhǎng ": 6999,
  " 11 yuè ": 7000,
  "cùn ": 7001,
  " cǎo ": 7002,
  " gōng qǐng ": 7003,
  " cì shǐ ": 7004,
  " fú léi ": 7005,
  " liǎng zhě": 7006,
  "tǐ xì ": 7007,
  " méng tè": 7008,
  " 179": 7009,
  " dài biǎo tuán ": 7010,
  " lián hé huì ": 7011,
  " shān dōng shěng ": 7012,
  "wèi yī": 7013,
  "sī lā fū": 7014,
  "fēn lèi ": 7015,
  " chǐ ": 7016,
  "kè de": 7017,
  "kōng jūn ": 7018,
  " chú cǐ": 7019,
  " lǎng pǔ": 7020,
  " zhòng yào de": 7021,
  "62": 7022,
  "   nán ": 7023,
  " yǒu yí gè": 7024,
  " zuì duō": 7025,
  "yè wù ": 7026,
  "shé": 7027,
  "chōu": 7028,
  "bìng fēi ": 7029,
  " zhōng xué ": 7030,
  " fā qǐ": 7031,
  " mò ěr": 7032,
  " jiě sàn ": 7033,
  "dé zhǔ ": 7034,
  "cháng shì ": 7035,
  "ale": 7036,
  " xíng róng ": 7037,
  " jī jīn huì ": 7038,
  " tóng míng ": 7039,
  " xìng néng ": 7040,
  " 181": 7041,
  "biàn dé": 7042,
  " qiān dìng ": 7043,
  "kǎ luó": 7044,
  "zhuō": 7045,
  "shì wēi ": 7046,
  " zhù míng de": 7047,
  " chù zhǎng ": 7048,
  " sà sī": 7049,
  " In": 7050,
  " zhàng fū": 7051,
  " de fāng shì ": 7052,
  " shì jí": 7053,
  "shì mín ": 7054,
  " gōng yì ": 7055,
  " gāi dǎng ": 7056,
  " cān tīng ": 7057,
  " fù jìn de": 7058,
  "300": 7059,
  "57": 7060,
  "87": 7061,
  " 11 ": 7062,
  "zhī zhàn ": 7063,
  " jǐn jí": 7064,
  "yǎn chū": 7065,
  " dì bā": 7066,
  "shí nián ": 7067,
  "chéng dù": 7068,
  " zhì dù": 7069,
  " běi bù ": 7070,
  "fú yì ": 7071,
  " jū zhù": 7072,
  " yì si ": 7073,
  " gè guó": 7074,
  " dé jūn ": 7075,
  "jūn guān ": 7076,
  " jiē chù": 7077,
  " wēi xiǎn ": 7078,
  "huáng jiā": 7079,
  " 1979 nián ": 7080,
  "5 mǐ ": 7081,
  " māo": 7082,
  " 12 ": 7083,
  "zhèng cè ": 7084,
  " tè lā": 7085,
  " zhī xiàn ": 7086,
  "chū qī": 7087,
  "   jǐn guǎn ": 7088,
  " gōng yìng ": 7089,
  " zuò qǔ": 7090,
  "huà xué": 7091,
  "2004 nián ": 7092,
  " tuī jìn ": 7093,
  " IS": 7094,
  " yōu shì ": 7095,
  " yuán zhù mín ": 7096,
  " yī jiā": 7097,
  " zhè zuò": 7098,
  " měi rì ": 7099,
  " zhǐ kòng ": 7100,
  "chǎng de": 7101,
  "bìng rù": 7102,
  "qiān mǐ": 7103,
  " guǎng xī": 7104,
  " 157": 7105,
  "69": 7106,
  "son ": 7107,
  " cháng dù": 7108,
  " chuán bō": 7109,
  " bǎi kē": 7110,
  "   gài yào ": 7111,
  " zhè xiàng ": 7112,
  "sī kè": 7113,
  " běn dì ": 7114,
  " bǐ dé": 7115,
  " guī fàn ": 7116,
  "jiǎn shǎo": 7117,
  " liáo níng ": 7118,
  "xǐ huān ": 7119,
  "pp": 7120,
  " shì bù": 7121,
  "dài lái ": 7122,
  " zhǐ dǎo": 7123,
  " bō sī": 7124,
  " rú jīn ": 7125,
  " chuàng shǐ": 7126,
  " xiāng guān de": 7127,
  " yǒu xiàn gōng sī": 7128,
  "   chū": 7129,
  " duì wài ": 7130,
  " xiāo fèi ": 7131,
  " lǐng dì ": 7132,
  " Al": 7133,
  "quē fá": 7134,
  "   chén ": 7135,
  " bēn ": 7136,
  " shì tái wān ": 7137,
  " duì kàng ": 7138,
  " běn tǔ": 7139,
  "hǎi àn ": 7140,
  " gōng huì ": 7141,
  " dà duō": 7142,
  " xià jì ": 7143,
  "jìn zhǐ": 7144,
  "gè dì ": 7145,
  " bào fā": 7146,
  "ock": 7147,
  "wèi shēng ": 7148,
  " zhōng yǒu": 7149,
  " jīn pái ": 7150,
  "jiào yù ": 7151,
  " guī zé": 7152,
  "rú hé": 7153,
  " 1947 nián ": 7154,
  "CO": 7155,
  "ok": 7156,
  "shí qī de": 7157,
  " jì suàn jī": 7158,
  " tuǒ": 7159,
  " pēng ": 7160,
  " xíng zhuàng ": 7161,
  " zhù zuò": 7162,
  "diàn nǎo": 7163,
  "z ": 7164,
  " fù gài ": 7165,
  "guān chá": 7166,
  "huò zhě": 7167,
  "cái zhèng ": 7168,
  "diào chá ": 7169,
  "   lìng wài ": 7170,
  " wú ": 7171,
  " dào yuàn ": 7172,
  " bèi shì wèi ": 7173,
  "tí shēng ": 7174,
  "fèn zǐ": 7175,
  " xiá ": 7176,
  " zài běi ": 7177,
  "xiàng de": 7178,
  " yòu yì ": 7179,
  " biān jìng ": 7180,
  " táng cháo": 7181,
  " zhàn tái ": 7182,
  " gāi piàn ": 7183,
  " gē lún bǐ yà": 7184,
  " qiáo liáng ": 7185,
  "pǐn pái ": 7186,
  "lù yì ": 7187,
  " lǐng tǔ": 7188,
  " kōng qì ": 7189,
  " lǚ kè": 7190,
  "liè chē ": 7191,
  " shì bīng ": 7192,
  " yuán sù": 7193,
  "xíng wèi ": 7194,
  " wáng shì ": 7195,
  "gòu chéng ": 7196,
  " huā yuán ": 7197,
  "ear": 7198,
  "um ": 7199,
  "   běi ": 7200,
  "   sān ": 7201,
  " shì zhèng ": 7202,
  " jù dà": 7203,
  " dòng zuò": 7204,
  "190": 7205,
  "fù shū jì ": 7206,
  " nóng cūn ": 7207,
  "xiě ": 7208,
  "yín pái ": 7209,
  "as   ": 7210,
  "shǒu de": 7212,
  " yǎn yì ": 7213,
  " 162": 7214,
  "tuī jìn ": 7215,
  "is   ": 7216,
  "bào zhà": 7217,
  " mǐ de": 7218,
  " sà ": 7219,
  " bái sè": 7220,
  "zhǔ jué": 7221,
  " céng shì ": 7222,
  " cháng jiāng ": 7223,
  "mù biāo": 7224,
  " 182": 7225,
  " tán pàn ": 7226,
  " shì wèi le": 7227,
  "guò ": 7228,
  "gāo xióng ": 7229,
  " qì de": 7230,
  "qū yì huì ": 7231,
  " yě ": 7232,
  "kě ": 7233,
  "ont": 7234,
  " lěi jì ": 7235,
  "   hóng ": 7236,
  " shè yú": 7237,
  "   liú": 7238,
  " zài yú": 7239,
  "zhì dìng ": 7240,
  " yùn yòng ": 7241,
  " 9 yuè ": 7242,
  " yìn ní": 7243,
  " dēng lù": 7244,
  " wèi 2": 7245,
  "   yīn ": 7246,
  " qǐ yè ": 7247,
  " shí yòng ": 7248,
  " 19 shì jì ": 7249,
  "bèi ěr": 7250,
  " fēn pèi ": 7251,
  " kǒng bù": 7252,
  " zhǐ yào": 7253,
  " pén ": 7254,
  " yǐ wài ": 7255,
  " shù jù ": 7256,
  " qiú jì ": 7257,
  "tōng guò ": 7258,
  " shí hòu": 7259,
  "rèn wù": 7260,
  "enc": 7261,
  " xìn hào": 7262,
  " 1952 nián ": 7263,
  " xiàn shì ": 7264,
  " 1972 nián ": 7265,
  "biǎn ": 7266,
  " ér bèi ": 7267,
  "cì yú": 7268,
  "piào ": 7269,
  " bēng ": 7270,
  "yě huì ": 7271,
  " ní hēi ": 7272,
  " zhuǎn xiàng ": 7273,
  " zēng qiáng ": 7274,
  " zhí mín dì ": 7275,
  " fā diàn ": 7276,
  "měi shù": 7277,
  " wén wù bǎo hù dān wèi ": 7278,
  "hǎi yù ": 7279,
  " zhòng duō": 7280,
  " yǐ jí ": 7281,
  "yuàn shì ": 7282,
  " 1955 nián ": 7283,
  " de yán jiū": 7284,
  "hù xiāng ": 7285,
  "hòu qī": 7286,
  " tóng zhì ": 7287,
  " luó fū": 7288,
  "shēn zhèn ": 7289,
  " fá lì yà": 7290,
  "qǐ dòng ": 7291,
  "86": 7292,
  "dà jiǎng ": 7293,
  "   wéi ": 7294,
  "de dì yī": 7295,
  "dà shà": 7296,
  " 55": 7297,
  "hūn yīn ": 7298,
  "shì yǐ": 7299,
  " yī cháng ": 7300,
  " chéng dù": 7301,
  "huì zhǎng ": 7302,
  " fù shǔ": 7303,
  " kāi shè": 7304,
  "chǎn yè": 7305,
  " tǎ ní": 7306,
  " ér rén kǒu mì dù wèi měi píng fāng qiān mǐ": 7307,
  " section   ": 7308,
  "tíng zhǐ": 7309,
  "kě néng huì ": 7310,
  "lè ": 7311,
  " shì yì dà lì ": 7312,
  " dì zhì ": 7313,
  " bù liè": 7314,
  " dà bǎn ": 7315,
  "zhí de": 7316,
  "fù gài ": 7317,
  "zhǐ néng ": 7318,
  " S ": 7319,
  " àn zhào": 7320,
  " zài wèi ": 7321,
  " shēng cún ": 7322,
  " shè dìng ": 7323,
  "shè jí": 7324,
  "cháng de": 7325,
  " zī běn ": 7326,
  "cè de": 7327,
  " xiāo xī ": 7328,
  " 1981 nián ": 7329,
  " zhè jiāng shěng ": 7330,
  " pù": 7331,
  " chéng kè": 7332,
  "bù zú": 7333,
  " cǐ qián ": 7334,
  " shén me": 7335,
  "zhuāng zhì ": 7336,
  " tōng guò ": 7337,
  " de yí gè shì zhèn ": 7338,
  "de xiǎo xíng xīng ": 7339,
  "hōng zhà": 7340,
  " 20 ": 7341,
  "shuài lǐng ": 7342,
  "ài qíng ": 7343,
  "shì yǒu": 7344,
  " yù shǐ ": 7345,
  "jǐ yǔ": 7346,
  "tuī dòng ": 7347,
  "82": 7348,
  " lǒng ": 7349,
  " kè lì ": 7350,
  "jiē jí": 7351,
  "dà guī mó": 7353,
  " shǒu gè": 7354,
  " wǎng qiú": 7355,
  "tán pàn ": 7356,
  "sī dùn ": 7357,
  "zhàn tíng ": 7358,
  " kāi zhǎn ": 7359,
  " dá ěr": 7360,
  " gǔ lì ": 7361,
  " 7 yuè ": 7362,
  " èr shì ": 7363,
  " fù hàn ": 7364,
  "shuāng fāng ": 7365,
  "ruì shì ": 7366,
  "gài niàn ": 7367,
  " péi xùn ": 7368,
  "   gēn jù 2020 nián měi guó rén kǒu pǔ chá de shù jù ": 7369,
  " yǔ zhōng ": 7370,
  " 2020": 7371,
  "fēi zhōu": 7372,
  " 75": 7373,
  "zòng ": 7374,
  " háng kōng ": 7376,
  "   quán ": 7377,
  " zhì chéng ": 7378,
  " zé wèi ": 7379,
  " lǐng yù ": 7380,
  " 000 rén ": 7381,
  "zhī chí ": 7382,
  "   jīn ": 7383,
  " duō de": 7384,
  "guān fèi yán ": 7385,
  " chǎng jǐng ": 7386,
  "jiǔ diàn ": 7387,
  " 1937 nián ": 7388,
  " xíng rén ": 7389,
  "háng bān ": 7390,
  " yóu jī": 7391,
  "ài lì ": 7392,
  " lái nà": 7393,
  "huò ": 7394,
  " miáo shù ": 7395,
  " de dì yī": 7396,
  "dòng lì ": 7397,
  "lián hé guó": 7398,
  " tú zhōng ": 7399,
  "wēi lián ": 7400,
  "   dào": 7401,
  "yí dào": 7402,
  " gé léi ": 7403,
  "shū rù": 7404,
  " jiè shào": 7405,
  "gǔ fèn ": 7406,
  " fáng zhǐ": 7407,
  "qǔ xiāo": 7408,
  "   2005 nián ": 7409,
  " jiā lì yà": 7410,
  "èr ": 7411,
  " xiāng zhèn ": 7412,
  " zhù cè": 7413,
  "qiú huì ": 7414,
  " bì yào": 7415,
  " qǐ yì ": 7416,
  "suí zhù": 7417,
  "ook": 7418,
  " de zhòng yào": 7419,
  "chéng xù": 7420,
  " duì cǐ": 7421,
  " dài wéi ": 7422,
  " 33": 7423,
  "   0": 7424,
  "jiā méng ": 7425,
  " shàng shū ": 7426,
  "xià lìng ": 7427,
  "bǎo cún ": 7428,
  " yě bù": 7429,
  "tuán tǐ ": 7430,
  "89": 7431,
  "ay ": 7432,
  "de yán ": 7433,
  " hé dào": 7434,
  "lì yà": 7435,
  " jī zhì ": 7436,
  "shí duàn ": 7437,
  " 39": 7438,
  " kě yǐ zài ": 7439,
  "niáng ": 7440,
  " gěi le": 7441,
  "de zhòng yào": 7442,
  "gōng rén ": 7443,
  "jūn wèi ": 7444,
  " qíng bào": 7445,
  " ào dì lì ": 7446,
  "zài cǐ": 7447,
  "jì shù ": 7448,
  "xī fāng ": 7449,
  "mǎ lì ": 7450,
  "hán yǒu": 7451,
  "qǐ yì ": 7452,
  " suì dào": 7453,
  "zhì zuò ": 7454,
  "nán běi ": 7455,
  "kāi shè": 7456,
  " chí ": 7457,
  "zhèng fǔ de": 7458,
  "dū shì ": 7459,
  " gēng xīn ": 7460,
  " hant ": 7461,
  "zhì dù": 7462,
  " yǔ hé": 7463,
  " de zuò pǐn ": 7464,
  "shí yī": 7465,
  "zài rì běn ": 7466,
  "jī jí": 7467,
  " zuò jiā ": 7468,
  " gāi gōng sī": 7469,
  "shǐ jiàn yú": 7470,
  " guò dù": 7471,
  " 3 gè": 7472,
  " 1976 nián ": 7473,
  "tuī chū ": 7474,
  " cuò ": 7475,
  "de gāo": 7476,
  " yǐ yǒu": 7477,
  " wéi ěr ": 7478,
  "mù biāo ": 7479,
  "xìn xī": 7480,
  " 164": 7481,
  " liǎo jiě": 7482,
  "ode": 7483,
  "bù dé": 7484,
  " duì zhǎng ": 7485,
  " chū yǎn ": 7486,
  " jìn nián ": 7487,
  " lè sī tǎn ": 7488,
  " 1938 nián ": 7489,
  " hūn yīn ": 7490,
  "guò chéng zhōng ": 7491,
  " hòu bèi ": 7492,
  "zhí mín ": 7493,
  " guǎn xiá": 7494,
  " hēi sè": 7495,
  "sēn lín ": 7496,
  " xī bù ": 7497,
  " dōng jì ": 7498,
  "jué sè ": 7499,
  " xiān shēng ": 7500,
  " 156": 7501,
  "ib": 7502,
  "yì yǒu": 7503,
  " ěr sī ": 7504,
  "zhù zhái ": 7505,
  "jīn róng ": 7506,
  "wǔ tái ": 7507,
  "jiě sàn ": 7508,
  " zài 196": 7509,
  "et ": 7510,
  " zhī zi ": 7511,
  " jié shù ": 7512,
  "píng wèi ": 7513,
  " JR": 7514,
  "dì 2": 7515,
  "hóng jūn ": 7516,
  "bàn gōng ": 7517,
  " pò lún ": 7518,
  "zài yī": 7519,
  " zuì jìn ": 7520,
  " bō lí": 7521,
  " róng nà": 7522,
  "hù dòng ": 7523,
  "zhì 199": 7524,
  "fā chū": 7525,
  "ruò ": 7526,
  "oli": 7527,
  " shì dùn ": 7528,
  " jí shí": 7529,
  " yǒu suǒ": 7530,
  "lì shǔ yú": 7531,
  "duì wài ": 7532,
  " fā míng ": 7533,
  " xiàng de": 7534,
  " 34": 7535,
  " luò kè": 7536,
  " tóng shí yě shì ": 7537,
  "dàn bái ": 7538,
  "kàng yì ": 7539,
  "de nǚ": 7540,
  " yú 202": 7541,
  " dàn réng ": 7542,
  " jiē shōu": 7543,
  " 1954 nián ": 7544,
  " zhōng guó dà lù de": 7545,
  "dòng huà ": 7546,
  "zhuàng bìng dú": 7547,
  " de zhōng ": 7548,
  "dì zhèn ": 7549,
  "zǔ hé": 7550,
  "shū yuàn ": 7551,
  " kuì ": 7552,
  " gè gè": 7553,
  " zhī chēng ": 7554,
  " xī lǐ": 7555,
  "e   C": 7556,
  " xié tiáo": 7557,
  "ent ": 7558,
  " nī": 7559,
  "tái nán ": 7560,
  "lǐng shì ": 7561,
  " 1941 nián ": 7562,
  "liǔ": 7563,
  " suǒ zài dì ": 7564,
  "tā wèi ": 7565,
  "dǎo dàn ": 7566,
  " ān zhuāng ": 7567,
  " lā tè": 7568,
  "jiāng huì ": 7569,
  "zhǐ kòng ": 7570,
  "dǎo shì ": 7571,
  "cān xuǎn ": 7572,
  "zhuāng jiǎ": 7573,
  " ní yà ": 7574,
  " wèi shì ": 7575,
  "bù mǎn ": 7576,
  "jié guǒ": 7577,
  " bào dǎo": 7578,
  " chú ": 7579,
  " xìn xī ": 7580,
  "chuàng zào": 7581,
  " 1000": 7582,
  "wén huà ": 7583,
  " 1944 nián ": 7584,
  "gù wèn ": 7585,
  " n ": 7586,
  " zhè yě shì ": 7587,
  "qì hòu": 7588,
  " jià shǐ": 7589,
  " pài qiǎn ": 7590,
  " tiě lù chē zhàn ": 7591,
  " dōng běi bù": 7592,
  "30 nián ": 7593,
  "nè": 7594,
  "tǔ ěr qí": 7595,
  "   gǔ": 7596,
  "   jīng jì ": 7597,
  "guó jiā ": 7598,
  " hé mǎ": 7599,
  " yòng zuò": 7600,
  " liè de": 7601,
  "wán gōng ": 7602,
  "xiān shēng ": 7603,
  "yǐn zhǒng ": 7604,
  "yún nán ": 7605,
  "81": 7606,
  "yuán shì ": 7607,
  "zhī de": 7608,
  " fú lǐ": 7609,
  " qiān shǔ": 7610,
  "què ": 7611,
  " dēng shàng ": 7612,
  "lǚ yóu": 7613,
  " jí ěr": 7614,
  "dāng nián ": 7615,
  " niáng ": 7616,
  "shè huì zhǔ yì ": 7617,
  " yǐ xià dì qū ": 7618,
  " xiāng dāng yú": 7619,
  "yú lè": 7620,
  " yóu xíng ": 7621,
  " yuán gōng ": 7622,
  "jī xiè": 7623,
  "shǒu dū": 7624,
  "fàn zuì ": 7625,
  "zēng jiā ": 7626,
  "71": 7627,
  "2019": 7628,
  " jí dà": 7629,
  " guān zhù": 7630,
  " běn rén ": 7631,
  "zhēng yì ": 7632,
  " fā xiàn le": 7633,
  " jī sī tǎn ": 7634,
  " yào ": 7635,
  " tuán tǐ ": 7636,
  "nà shěng ": 7637,
  "chóng qìng ": 7638,
  " lǚ ": 7639,
  " 1960 nián ": 7640,
  "yp": 7641,
  "de zhèng ": 7642,
  " dàn zhè": 7643,
  " zuì hòu ": 7644,
  "kè yùn ": 7645,
  " miǎo ": 7646,
  "mer": 7647,
  "zuò jiā": 7648,
  " tè xìng ": 7649,
  " mì shū zhǎng ": 7650,
  " nián 12 yuè 31 rì ": 7651,
  "zhuàn de xiǎo xíng xīng ": 7652,
  " shì hòu": 7653,
  "xīn zēng ": 7654,
  "bèi rèn wéi shì ": 7655,
  " qián tǐng ": 7656,
  " zǔ chéng de": 7657,
  " tì dài ": 7658,
  " lù yǐng dài ": 7659,
  "diàn qì ": 7660,
  "chuán méi ": 7661,
  "e   S": 7662,
  "jiǔ lóng ": 7663,
  "yī sī lán ": 7664,
  " qiāo": 7665,
  " bù lǐ": 7666,
  " xiàn yǐ": 7667,
  "jí shí": 7668,
  "diàn shì jù ": 7669,
  " mèi mèi ": 7670,
  "gōng ān ": 7671,
  "xué shù": 7672,
  "bō chū": 7673,
  " gēn suí": 7674,
  " suǒ yǒu de": 7675,
  "ed ": 7676,
  "tuǒ": 7677,
  " shào ": 7678,
  "   v": 7679,
  " dì 3": 7680,
  " yī zhōu": 7681,
  " huì shàng ": 7682,
  " zhǔ bàn ": 7683,
  "zhǔ zhāng ": 7684,
  " zī gé ": 7685,
  "tú zhōng ": 7686,
  " xún zhǎo": 7687,
  " Th": 7688,
  " fá ": 7689,
  " bù dí": 7690,
  " zhōu zhǎng ": 7691,
  " jìng xuǎn ": 7692,
  "chōng tū ": 7693,
  " dà lóu": 7694,
  "jī zhì ": 7695,
  "chū qī ": 7696,
  " jǐn yǒu": 7697,
  " hǎn mò": 7698,
  " kùn nán ": 7699,
  " yǐ nán ": 7700,
  " gé lín ": 7701,
  " gèng wéi ": 7702,
  " 1939 nián ": 7703,
  "tu": 7704,
  " wèi yǒu": 7705,
  " bìng rù": 7706,
  " sān míng ": 7707,
  " shòu yǔ": 7708,
  "tí chū ": 7709,
  " wàn píng fāng ": 7710,
  " cái chǎn ": 7711,
  " xū qiú": 7712,
  "mìng lìng ": 7713,
  " zài nán ": 7714,
  "lì jí": 7715,
  "chū xí": 7716,
  " jué yì ": 7717,
  " xiāo liàng ": 7718,
  " xiū jiàn ": 7719,
  " dǎ suàn ": 7720,
  " 1968 nián ": 7721,
  "pìn ": 7722,
  "   píng jià ": 7723,
  "jí zhōu de": 7724,
  " bā lā": 7725,
  "jié dù": 7726,
  " chōng tū ": 7727,
  "de píng jūn hǎi bá gāo dù": 7728,
  " léng ": 7729,
  " wèi qí": 7730,
  " chǎn shēng de": 7731,
  "láo dòng ": 7732,
  "ach": 7733,
  "quǎn ": 7734,
  " rè ": 7735,
  "āi ěr": 7736,
  " zhè chǎng ": 7737,
  "lián xì ": 7738,
  " zhōng guó de": 7739,
  " cān móu": 7740,
  "shòu huān yíng ": 7741,
  " 159": 7742,
  " ér gāi dì de píng jūn hǎi bá gāo dù": 7743,
  "LE": 7744,
  "   xiāng ": 7745,
  " dài lǐ": 7746,
  " kě shì ": 7747,
  " zhǔ chí rén ": 7748,
  "de píng ": 7749,
  " xiàn rén ": 7750,
  " luó dé": 7751,
  " 5 yuè ": 7752,
  "pài qiǎn ": 7753,
  "   Th": 7754,
  "2010 nián měi guó rén kǒu pǔ chá de shù jù ": 7755,
  " rén gōng yǐn zhǒng ": 7756,
  "nuǎn ": 7757,
  " pí ": 7758,
  " yī bù": 7759,
  "cháng jiàn ": 7760,
  "miàn duì ": 7761,
  "e   M": 7762,
  "shēng chēng ": 7763,
  " qīng huá": 7764,
  " 400": 7765,
  " 1970 nián ": 7766,
  " hú ": 7767,
  " gōng sī de": 7768,
  " rén gōng yǐn zhǒng zāi péi ": 7769,
  " sǎo": 7770,
  "yì shí": 7771,
  " shēng de": 7772,
  "bèi pò": 7773,
  " liú xià": 7774,
  " shēn dù": 7775,
  "zé rèn ": 7776,
  " 6 yuè ": 7777,
  " fú jiàn shěng ": 7778,
  "fǎ lán xī": 7779,
  " gōng jué": 7780,
  " jiāo chā": 7781,
  " 1940 nián ": 7782,
  "dēng lù": 7783,
  "ost": 7784,
  " rén cì ": 7785,
  "zhì dù ": 7786,
  " dà zhòng ": 7787,
  " yuán lái ": 7788,
  "qiú jì ": 7789,
  " sū dān ": 7790,
  "dēng shàng ": 7791,
  "qīn wáng ": 7792,
  "   dōng ": 7793,
  " zài tái wān ": 7794,
  " bù sī": 7795,
  "xiàn jīn ": 7796,
  "èr rén ": 7797,
  " jūn zhǔ": 7798,
  " néng yuán ": 7799,
  " shān xī": 7800,
  "zhǐ chū": 7801,
  " 64": 7802,
  " xíng zhèng zhōng xīn ": 7803,
  "yǐn rù": 7804,
  " 1964 nián ": 7805,
  " fàn wéi nèi ": 7806,
  "AO": 7807,
  "eam": 7808,
  " jū ": 7809,
  "ài dé": 7810,
  "jī chǔ ": 7811,
  " duō ěr": 7812,
  "xià jiàng ": 7813,
  "shān mài ": 7814,
  "zī xùn ": 7815,
  "ang ": 7816,
  "juàn ": 7817,
  "dì diǎn ": 7818,
  "wù yuán ": 7819,
  " gē ěr": 7820,
  "qiān zhì ": 7821,
  " shāng pǐn ": 7822,
  " bú dào": 7823,
  "yǐ sè liè": 7824,
  "duō nián ": 7825,
  "84": 7826,
  "wéi zhǐ ": 7827,
  "duì zhǎng ": 7828,
  "shàng wǔ ": 7829,
  " jìn bù": 7830,
  " dān ní": 7831,
  "xuān bù ": 7832,
  "jǔ xíng de": 7833,
  "xū ": 7834,
  " yī zhì ": 7835,
  " zhí zhèng ": 7836,
  "xué huì ": 7837,
  " mìng míng wèi ": 7838,
  " chú cǐ zhī wài ": 7839,
  " zhí lì ": 7840,
  "hěn kuài ": 7841,
  "xūn zhāng ": 7842,
  "pēn ": 7843,
  " rén shù": 7844,
  "yú shì ": 7845,
  " yì rì ": 7846,
  " dàn yě": 7847,
  "měi gè": 7848,
  "cháng jiàn de": 7849,
  " 4 gè": 7850,
  " kǎ lā": 7851,
  " xì tǒng de": 7852,
  " lì chǎng ": 7853,
  "shí zhēn ": 7854,
  " yī qiè": 7855,
  "yǒu shí": 7856,
  " zì wǒ": 7857,
  "yǐ yǒu": 7858,
  " huò yùn ": 7859,
  "wén zì ": 7860,
  "bǎo zhàng ": 7861,
  " ào sī": 7862,
  " hàn zú ": 7863,
  "liù nián ": 7864,
  "yuān ": 7865,
  " yīn qí": 7866,
  "zhí dào": 7867,
  " yīng cùn ": 7868,
  " rú xià ": 7869,
  " shì yī bù": 7870,
  " shōu cáng ": 7871,
  " jìng nèi gòng yǒu": 7872,
  "   lā": 7873,
  "de yí": 7874,
  "jiān rèn ": 7875,
  " shuō fǎ": 7876,
  "xiào lì yú": 7877,
  "liǎng rén ": 7878,
  " fù zé ": 7879,
  "   gè": 7880,
  " de bù": 7881,
  "hòu zài ": 7882,
  "duì shǒu": 7883,
  " jiē tì ": 7884,
  " zhuān jiā": 7885,
  "zǎo shàng ": 7886,
  "dà lián méng ": 7887,
  " zuì dī": 7888,
  "cháng wù": 7889,
  "chāo jí": 7890,
  " miǎn fèi ": 7891,
  "zhàng ài ": 7892,
  "   for": 7893,
  "ne ": 7894,
  "de lǐ": 7895,
  " wèi zài ": 7896,
  " dào dé": 7897,
  " shè qū ": 7898,
  " qún dǎo ": 7899,
  "wǔ hàn ": 7900,
  " shì xī bān yá": 7901,
  " fù zá": 7902,
  " duō rén ": 7903,
  "cháng wěi ": 7904,
  " cóng cǐ": 7905,
  " mǎ lái ": 7907,
  " 65": 7908,
  " 1975 nián ": 7909,
  " de gāo": 7910,
  "shàng zhèn ": 7911,
  " fú ěr": 7912,
  "píng mín ": 7913,
  " wèi yú gāi shěng ": 7914,
  " zú qún ": 7915,
  "xiū gǎi ": 7916,
  " hóu": 7917,
  " shì yàn ": 7918,
  " tōng xìn ": 7919,
  "wǔ shí": 7920,
  "wáng guó": 7921,
  "wú ěr": 7922,
  "el ": 7923,
  "   gāo": 7924,
  " zhǎi ": 7925,
  " dà qū ": 7926,
  "xué jiā ": 7927,
  "ěr de": 7928,
  " sī zhí": 7929,
  " yuán xiān ": 7930,
  "zhī dào": 7931,
  " nà cuì ": 7932,
  " bào lì ": 7933,
  "yǎn chàng huì ": 7934,
  "zài yú": 7935,
  "zài dì ": 7936,
  " duì shǒu": 7937,
  " chū qī": 7938,
  " xié ": 7939,
  " 1959 nián ": 7940,
  "jiàng lǐng ": 7941,
  "YouTube": 7942,
  "nī ": 7943,
  "sēng ": 7944,
  " yuān ": 7945,
  " zài shì ": 7946,
  " zài tā de": 7947,
  " wéi hù": 7948,
  " suǒ chù de hǎi bá wèi gāo yú hǎi píng miàn ": 7949,
  " tè lǐ": 7950,
  " fú zhōu": 7951,
  "jù de": 7952,
  "cān yù ": 7953,
  " xiǎn zhù": 7954,
  " wǎn shàng ": 7955,
  "yǒu rén ": 7956,
  " jī jīn ": 7957,
  " dāng rì ": 7958,
  " qiè ěr": 7959,
  " 31": 7960,
  "yíng yùn ": 7961,
  " zhuǎn huàn ": 7962,
  " dǐ kàng ": 7963,
  " shí yàn shì ": 7964,
  "   qí zhōng ": 7965,
  "jù jí": 7966,
  "jù qíng ": 7967,
  " 46": 7968,
  " shén huà": 7969,
  " qǐ dòng ": 7970,
  "mǔ qīn ": 7971,
  " wēn dù": 7972,
  " yǒu xiàn gōng sī ": 7973,
  " shuò shì ": 7974,
  "liǎo": 7975,
  "hàn zì ": 7976,
  " lì bù": 7977,
  "zài qí": 7978,
  "bèi shì wèi ": 7979,
  " ā lā": 7980,
  " dāng dì de": 7981,
  "cān jiā le": 7982,
  " qú": 7983,
  " de fā zhǎn ": 7984,
  "zhōng qī": 7985,
  "jí shì ": 7986,
  " 48": 7987,
  " fáng wū": 7988,
  "jiǎn cè": 7989,
  "io": 7990,
  "ru": 7991,
  " de ā": 7992,
  " zhòng liàng ": 7993,
  " yǐn yòng ": 7994,
  " huǒ jiàn ": 7995,
  "sā": 7996,
  " qí shí": 7997,
  "dà lù": 7998,
  "xiàn fǎ": 7999,
  " tí gōng le": 8000,
  " bǐ lì shí": 8001,
  "ké": 8002,
  "kuāng ": 8003,
  " xià de yí gè": 8004,
  "jiāo liú": 8005,
  " zhōng shì yǎn ": 8006,
  " shí yóu": 8007,
  "yuán zì ": 8008,
  " sī lì ": 8009,
  " rèn zhōng gòng ": 8010,
  " ní kè": 8011,
  "zǔ chéng de": 8012,
  "tè shū": 8013,
  "gèng jiā": 8014,
  "huā yuán ": 8015,
  "shǎo shù": 8016,
  "bù de cūn zhuāng ": 8017,
  " kē héng xīng ": 8018,
  " luò fá kè": 8019,
  "de diàn yǐng ": 8020,
  "gōng jī ": 8021,
  "yǔ qí tā": 8022,
  " kě ": 8023,
  " wén yì ": 8024,
  " biān yuán ": 8025,
  " hái zi ": 8026,
  " guó mín zhèng fǔ": 8027,
  " de yán ": 8028,
  "háng xiàn ": 8029,
  " měi tiān ": 8030,
  "qiē": 8031,
  " wēi xié": 8032,
  "jǐng fāng ": 8033,
  " 1942 nián ": 8034,
  " mù qián shàng wèi ": 8035,
  " huǎng ": 8036,
  " fā bù ": 8037,
  "dōng xiàn ": 8038,
  "tái bì ": 8039,
  " rú cǐ": 8040,
  "xiǎo zǔ": 8041,
  "zhì shǎo": 8043,
  " chéng xù": 8044,
  "jī jīn huì ": 8045,
  " sān fēn ": 8046,
  " dí rén ": 8047,
  "→": 8048,
  " làn ": 8049,
  " rěn ": 8050,
  "   in   ": 8051,
  " chū xí": 8052,
  "yǐ bèi ": 8053,
  " jūn de": 8054,
  "yě zài ": 8055,
  " gǔ lā": 8056,
  " bào dǎo ": 8057,
  " 1936 nián ": 8058,
  " yōu xiù": 8059,
  "táo tài ": 8060,
  " cōng ": 8061,
  "yì yì ": 8062,
  " hòu zài ": 8063,
  " quán shì ": 8064,
  " gǔ diǎn ": 8065,
  "yáng shì ": 8066,
  " lǐng xiān ": 8067,
  " chuàng xīn ": 8068,
  " róng yù": 8069,
  "gòu zào ": 8070,
  " 178": 8071,
  "ros": 8072,
  "   duì yú": 8073,
  " qǐ yòng ": 8074,
  "yǔ de": 8075,
  " kè lín ": 8076,
  " tiān wén xué": 8077,
  " ài dé": 8078,
  "é wèi ": 8079,
  "lǐ gōng ": 8080,
  " shì huì ": 8081,
  " shì gè": 8082,
  " rèn zhí": 8083,
  " jiāng zài ": 8084,
  " zǒng dū": 8085,
  " Sh": 8086,
  " tā chéng wéi ": 8087,
  " wǔ gè": 8088,
  " dǎo shì ": 8089,
  " chǔ lǐ ": 8090,
  " le tā de": 8091,
  " kè xī": 8092,
  " yòng de": 8093,
  "chéng lì de": 8094,
  "cuò shī ": 8095,
  "kǎ luó lái nà": 8096,
  "c ": 8097,
  "wèi xīng ": 8098,
  "gōng mín ": 8099,
  " jī chē": 8100,
  " shàng shēng ": 8101,
  "ǐ yí": 8102,
  " gǎi míng wèi ": 8103,
  "jiǔ nián ": 8104,
  "dì èr cì ": 8105,
  " duó de": 8106,
  " zhǔ dǎ": 8107,
  "duō zhǒng ": 8108,
  " yǎn shēng ": 8109,
  " pǔ luó": 8110,
  "huí yìng ": 8111,
  " guì zhōu": 8112,
  "zhǎo dào": 8113,
  "94": 8114,
  "W ": 8115,
  "pào ": 8116,
  "é guó": 8117,
  " kē xué jiā": 8118,
  " nèi dì ": 8119,
  " ー": 8120,
  " jiāng sū shěng ": 8121,
  "50 nián ": 8122,
  " fù nǚ": 8123,
  " cháng wěi huì ": 8124,
  "lǐng xiù": 8125,
  " ào ěr": 8126,
  "tiáo lì ": 8127,
  "tiáo yuē ": 8128,
  " gōng lǐ de": 8129,
  "IP": 8130,
  "   huáng ": 8131,
  "shè qū ": 8132,
  "zhǔ chǎng ": 8133,
  " luò shān jī": 8134,
  " tú xiàng ": 8135,
  " 9 ": 8136,
  " xíng zhèng zhèn qū ": 8137,
  "pǒ": 8138,
  "   lín ": 8139,
  " fā chū": 8140,
  " chē duì ": 8141,
  "wěi fù shū jì ": 8142,
  " bō lì ": 8143,
  " xí jī ": 8144,
  " 1966 nián ": 8145,
  "kě néng shì ": 8146,
  " láng zhōng ": 8147,
  " hā ěr bīn ": 8148,
  " yuè qiú": 8149,
  "dà lóu ": 8150,
  " jiān chí": 8151,
  " zhù de": 8152,
  "zhōu fǔ": 8153,
  " tài píng ": 8154,
  " xuān bù ": 8155,
  "shì fàng ": 8156,
  "wèi lái ": 8157,
  " yì yú": 8158,
  "ěr màn ": 8159,
  " huì yuán ": 8160,
  " mǎ dīng ": 8161,
  " jié lùn ": 8162,
  "gāo dù": 8163,
  " chōng mǎn ": 8164,
  "gòng chǎn dǎng ": 8165,
  "3 gè": 8166,
  " qiào": 8167,
  " shì yǔ": 8168,
  " zài bù": 8169,
  " shí pǐn ": 8170,
  " gāi guó": 8171,
  "jié de": 8172,
  "jiè quán guó": 8173,
  "dǒng shì ": 8174,
  " ér gāi dì de píng jūn hǎi bá gāo dù wèi ": 8175,
  "   a": 8176,
  " dé yǔ ": 8177,
  "fù xīng ": 8178,
  "shān xiàn ": 8179,
  "xuǎn qū": 8180,
  "kòu": 8181,
  " bǔ ": 8182,
  "yī xué": 8183,
  " xī sī": 8184,
  "‧": 8185,
  " fèi yòng ": 8186,
  " bǎo hù ": 8187,
  " shěn pàn ": 8188,
  "lì fǎ huì ": 8189,
  " wèi hé": 8190,
  " yǐ běi ": 8191,
  "jī bǎi kē": 8192,
  "yuè duì ": 8193,
  " gē cí": 8194,
  " 1935 nián ": 8195,
  " zài 194": 8196,
  "eli": 8197,
  "   luó": 8198,
  " jiàn shè ": 8199,
  " zhàn liè": 8200,
  " wén wù": 8201,
  " 2 gè": 8202,
  "2003 nián ": 8203,
  " 1953 nián ": 8204,
  " xiàn shàng ": 8205,
  "jiào shì ": 8206,
  " wài guān ": 8207,
  " yǐn rù": 8208,
  " wū rǎn ": 8209,
  " pāi shè ": 8210,
  "gū ": 8211,
  "rěn ": 8212,
  " nèi zhàn ": 8213,
  " mán ": 8214,
  " yú lèi ": 8215,
  " sī shěng ": 8216,
  " duì fāng ": 8217,
  "shè shī": 8218,
  " yán rén ": 8219,
  " xiào guǒ ": 8220,
  " tí yì ": 8221,
  "xiǎo shí": 8222,
  "   2004 nián ": 8223,
  " gào sù": 8224,
  "ass": 8225,
  " gāi dì de": 8226,
  " sú chēng ": 8227,
  ".&": 8228,
  " shēng chéng ": 8229,
  " zhèng miàn ": 8230,
  " dài de": 8231,
  "kāi zhǎn ": 8232,
  "yě nà": 8233,
  "gǎi zhì wèi ": 8234,
  "yōu ": 8235,
  "kǎo ": 8236,
  "   wèi le": 8237,
  " miè ": 8238,
  " de xiǎo": 8239,
  "chéng rén ": 8240,
  " píng yuán ": 8241,
  " kuò zhāng ": 8242,
  "tiān huáng ": 8243,
  " jiāo huàn ": 8244,
  " pài chū": 8245,
  "   Pro": 8246,
  "hé rén kǒu": 8247,
  " dà shǐ guǎn ": 8248,
  " kē de qí zhōng yī zhǒng ": 8249,
  " luò fū": 8250,
  "fēi lǜ bīn ": 8251,
  "lùn wén ": 8252,
  " dēng cháng ": 8253,
  " bú yào": 8254,
  "97": 8255,
  "bī": 8256,
  "ct": 8257,
  " gōng jī ": 8258,
  "jí xíng zhèng ": 8259,
  " bìng dú": 8260,
  "fāng fǎ ": 8261,
  "míng xīng ": 8262,
  " qiē": 8263,
  "bào gào ": 8264,
  " lóng shěng ": 8265,
  "us   ": 8266,
  " píng héng ": 8267,
  "fǎ tíng ": 8268,
  "   wáng ": 8269,
  "hù bù": 8270,
  "hǎi wài ": 8271,
  " zé ěr shěng ": 8272,
  " dān dú": 8273,
  " qīng shào nián ": 8274,
  " tài zi ": 8275,
  " tài lēi ": 8276,
  " shèng jīng ": 8277,
  "luǎn ": 8278,
  " qiǎo": 8279,
  " lì kè": 8280,
  " lǐ chéng ": 8281,
  " 18 ": 8282,
  " shū zhōng ": 8283,
  " bǎo zhàng ": 8284,
  "chéng wéi le": 8285,
  "mái ": 8286,
  "hé suān ": 8287,
  "de jiā": 8288,
  " diàn huà": 8289,
  "oft": 8290,
  "shā hài ": 8291,
  "   kǎ": 8292,
  "   zuò wéi ": 8293,
  "fāng mǐ ": 8294,
  " lā jī": 8295,
  " lán qiú": 8296,
  "19 ": 8297,
  " shāng rén ": 8298,
  "qíng bào": 8299,
  " xūn zhāng ": 8300,
  "ire": 8301,
  "qǐ yè ": 8302,
  " zài nèi de": 8303,
  " 2000": 8304,
  " qiè ": 8305,
  " fēi fǎ": 8306,
  " xuǎn shǒu ": 8307,
  " ní sī": 8308,
  "gōng sī de": 8309,
  "MA": 8310,
  "ud": 8311,
  " diē": 8312,
  "shì yǎn ": 8313,
  " chéng zhǎng ": 8314,
  "gōng yìng ": 8315,
  " míng rén ": 8316,
  " fù bù zhǎng ": 8317,
  "shòu quán ": 8318,
  " zú xié": 8319,
  " zhàn dòu ": 8320,
  "HD": 8321,
  "yì jiàn ": 8322,
  "dà zhì ": 8323,
  "dòng wù ": 8324,
  " 37": 8325,
  " kào jìn ": 8326,
  "   wǔ": 8327,
  " nǐ ": 8328,
  "běi shì ": 8329,
  " huā ": 8330,
  " zhì zuò rén ": 8331,
  "   zhāng ": 8332,
  "bù luò": 8333,
  " yì wài ": 8334,
  " sān rén ": 8335,
  " tōng wǎng ": 8336,
  " 58": 8337,
  "qīng cháo": 8338,
  " zhǔ yào de": 8339,
  " fǎ guó ": 8340,
  "fā shēng zài ": 8341,
  "xuǎn jǔ zhōng ": 8342,
  "iz": 8343,
  "ile": 8344,
  " zhòu ": 8345,
  "hè ěr": 8346,
  " dà gōng ": 8347,
  "yóu rén gōng yǐn zhǒng zāi péi ": 8348,
  " lú ": 8349,
  " bù lǎng ": 8350,
  " dà qiáo": 8351,
  "yǔ liàng ": 8352,
  " kě jiàn ": 8353,
  "nèi gé": 8354,
  "tōng xùn ": 8355,
  " zhān mǔ sī ": 8356,
  " mù qián shàng wèi yóu rén gōng yǐn zhǒng zāi péi ": 8357,
  "IT": 8358,
  "àn chá": 8359,
  " tái zhōng ": 8360,
  "xiǎo de": 8361,
  "xìn yǎng ": 8362,
  " 1943 nián ": 8363,
  "zēng zhǎng ": 8364,
  " jiǎo dù": 8365,
  " chōng tū": 8366,
  "oog": 8367,
  " chū rù kǒu ": 8368,
  " bù zú": 8369,
  "dà duō shù": 8370,
  " jiāng tā": 8371,
  " jiàn lì le": 8372,
  " zhí yè shēng yá ": 8373,
  " tà": 8374,
  "wèi de": 8375,
  " huò bì ": 8376,
  " kě zài ": 8377,
  " liǎng tiáo": 8378,
  "shuǐ liàng ": 8379,
  "rú guǒ": 8380,
  "hùn luàn ": 8381,
  "qū nèi ": 8382,
  "rèn wèi ": 8383,
  "hǎi yáng ": 8384,
  "   dì yī": 8385,
  " mài kè ": 8386,
  " máo ": 8387,
  "sāi ěr": 8388,
  "ES": 8389,
  "zhuì ": 8390,
  " dà jiǎng ": 8391,
  " píng miàn ": 8392,
  "ann": 8393,
  "bàn yǎn ": 8394,
  " tàn xiǎn ": 8395,
  " huà hé wù ": 8396,
  " zéi ": 8397,
  " sī tú": 8398,
  "jiā rù ": 8399,
  "jī yīn ": 8400,
  "nèi zhàn ": 8401,
  " sì hū": 8402,
  " gòng hé dǎng ": 8403,
  " yǐng xiàng ": 8404,
  " wǒ de": 8405,
  " hǎo píng ": 8406,
  "illi": 8407,
  " yuè lái yuè": 8408,
  "shí kēng ": 8409,
  "dì zài ": 8410,
  " dà xiǎo": 8411,
  "yī liáo": 8412,
  " jìn ér": 8413,
  " píng děng ": 8414,
  "yòng hù": 8415,
  " běn xiàn ": 8416,
  " zhǎng de": 8417,
  "jiào yú": 8418,
  " dà xué de": 8419,
  "luó ": 8420,
  " fǔ zhù": 8421,
  " táo tài ": 8422,
  " yǐ cǐ": 8423,
  " zhǎng dá": 8424,
  " zhòng shì ": 8425,
  "jī hé": 8426,
  "wán zhěng ": 8427,
  " zàn tíng ": 8428,
  " wài jiāo bù": 8429,
  "ia ": 8430,
  "hé běi ": 8431,
  "zhōng jiàng ": 8432,
  " 19 ": 8433,
  "qū jiān ": 8434,
  "chū kǒu": 8435,
  "shù xué": 8436,
  "amp": 8437,
  " shuò shì xué wèi ": 8438,
  " zhàn de": 8439,
  "zhǔ bàn ": 8440,
  " dōng hǎi ": 8441,
  "mò sī kē": 8442,
  "qīn zì ": 8443,
  "piào fáng ": 8444,
  "fàn wéi nèi ": 8445,
  " wèi zhōng guó": 8446,
  "zhì liàng ": 8447,
  " zhī xià ": 8448,
  " bā ěr": 8449,
  " tōng yòng ": 8450,
  "org": 8451,
  " wēi xié ": 8452,
  "cān jiā ": 8453,
  " 1974 nián ": 8454,
  "dàn shuǐ": 8455,
  " zhǎo dào": 8456,
  "zòu ": 8457,
  "shí xíng ": 8458,
  " jù bèi ": 8459,
  "de ā": 8460,
  "xià lái ": 8461,
  "xià wǔ": 8462,
  " shī fàn ": 8463,
  "sì gè": 8464,
  " chóng zhēn ": 8465,
  " lǎo de": 8466,
  "hā ěr": 8467,
  " zhà dàn ": 8468,
  "tǎn dīng ": 8469,
  "odice ": 8470,
  "shì rén ": 8471,
  " pǒ": 8472,
  " gāo dá": 8473,
  " chēng hào ": 8474,
  " dōng nán bù": 8475,
  "ade": 8476,
  " yì zài ": 8477,
  "huì yuán ": 8478,
  " jiào shī": 8479,
  " shǒu xiàng ": 8480,
  "yí zhǐ": 8481,
  " yīng jūn ": 8482,
  "   Sh": 8483,
  "℃": 8485,
  "māo": 8486,
  "   ài ": 8487,
  " zhè lǐ": 8488,
  "huì shàng ": 8489,
  " duì qí": 8490,
  "jī huì ": 8491,
  "guān cè": 8492,
  " dìng jū": 8493,
  " yuē sè": 8494,
  " zhuān yè ": 8495,
  "shā bái ": 8496,
  "ect": 8497,
  "fù jìn de": 8498,
  " fǎ lán xī": 8499,
  "de yán jiū": 8500,
  "de gù shì ": 8501,
  "jī qì ": 8502,
  " jiān chá": 8503,
  "ord": 8504,
  " chí yǒu": 8505,
  "liǎng cì ": 8506,
  "pèi hé": 8507,
  "laySt": 8508,
  " zhe ": 8509,
  " rén quán ": 8510,
  " yī rán ": 8511,
  "dì bā": 8512,
  "qiān dìng ": 8513,
  " pái háng bǎng ": 8514,
  " xún huán ": 8515,
  "   gè rén shēng huó ": 8516,
  "mán ": 8517,
  "de xī": 8518,
  " yīn sù": 8519,
  "xīn lǐ": 8520,
  " kāi tōng ": 8521,
  " shā sǐ": 8522,
  " jiǎ ": 8523,
  "niào": 8524,
  "nuó wēi ": 8525,
  " de hòu": 8526,
  " shì yīn wèi ": 8527,
  " bìng yǒu": 8528,
  " guān jiàn ": 8529,
  "xiào lì ": 8530,
  "yā lì ": 8531,
  " tuì chū": 8532,
  " yuán yīn shì ": 8533,
  "kùn nán ": 8534,
  " lì tè": 8535,
  " fēn xī ": 8536,
  "xiāng hù": 8537,
  " hǎi nán ": 8538,
  " tiān huáng ": 8539,
  "gǎng yuán ": 8540,
  " dǎo yǔ ": 8541,
  " 163": 8542,
  "dī qì ": 8543,
  "   zhù": 8544,
  " zài yǔ": 8545,
  " hé liú": 8546,
  " mín jìn dǎng ": 8547,
  "jiào qū": 8548,
  " gǎi chēng ": 8549,
  " pài de": 8550,
  " 16 ": 8551,
  " M ": 8552,
  "rén kǒu pǔ chá": 8553,
  "ment": 8554,
  "yē": 8555,
  " 13 ": 8556,
  " dà shà": 8557,
  "huò bì ": 8558,
  "sān jiǎo": 8559,
  "guǎn xiá ": 8560,
  " tóng nián 12": 8561,
  " shì fàng ": 8562,
  "duì kàng ": 8563,
  " xiāng fǎn ": 8564,
  "qī nián ": 8565,
  " wěi tuō": 8566,
  " shōu gòu": 8567,
  " huǒ bàn ": 8568,
  " nuò màn ": 8569,
  "lìng yī": 8570,
  "shào jiàng ": 8571,
  " chèn ": 8572,
  "ǒu ": 8573,
  " lián zǎi ": 8574,
  " fú zhuāng ": 8575,
  "zhí wèi ": 8576,
  "děng děng ": 8577,
  "bàn shì ": 8578,
  " 152": 8579,
  "shuō míng ": 8580,
  " R ": 8581,
  " niǎo lèi ": 8582,
  "10 nián ": 8583,
  "EC": 8584,
  " tǔ ": 8585,
  "ér lái ": 8586,
  "xíng shān ": 8587,
  " shàng xià": 8588,
  "yǐ wài ": 8589,
  " lián luò": 8590,
  " bā nèn ": 8591,
  "zǒng lǐ": 8592,
  " 1951 nián ": 8593,
  "83": 8594,
  "ID": 8595,
  " shì zhōng huá rén mín gòng hé guó": 8596,
  "ōu ": 8597,
  "jié kè": 8598,
  "wài guó": 8599,
  " biān hào": 8600,
  " fáng kōng ": 8601,
  " Mar": 8602,
  "tuì yì ": 8603,
  "hé gǔ": 8604,
  "zài zhōng guó": 8605,
  " tā wèi ": 8606,
  " qí zài ": 8607,
  "zhī xià ": 8608,
  " jìn píng ": 8609,
  " píng jià": 8610,
  " yǎn jiǎng ": 8611,
  "qiáng liè": 8612,
  " xún yáng jiàn ": 8613,
  "gù dìng ": 8614,
  " miàn jī hé rén kǒu": 8615,
  "hěn duō": 8616,
  " yǔ cǐ tóng shí ": 8617,
  "tou": 8618,
  " yà mù": 8619,
  "gé lí": 8620,
  " dǒng shì zhǎng ": 8621,
  " v": 8622,
  "ān rén ": 8623,
  "shì zhèng ": 8624,
  "   2 ": 8625,
  "   and": 8626,
  " zǔ zhǐ": 8627,
  " 47": 8628,
  "biàn huà ": 8629,
  " xiàn zài de": 8630,
  " shùn lì ": 8631,
  " tū pò": 8632,
  " bù wèi ": 8633,
  "yuán xíng ": 8634,
  "fā huī": 8635,
  "yà lì shān ": 8636,
  "cè liáng ": 8637,
  " jiǔ de": 8638,
  " 177": 8639,
  " yā ": 8640,
  " mào xiǎn ": 8641,
  " shì yí gè wèi yú měi guó": 8642,
  "91": 8643,
  " zhuā": 8644,
  "zhì 2": 8645,
  " wéi fǎn ": 8646,
  "chū chǎng ": 8647,
  " lián rèn ": 8648,
  " tè lēi ": 8649,
  " jiē dào ": 8650,
  "zé wèi ": 8651,
  " màn dì guó": 8652,
  " bīng tuán ": 8653,
  "chuàng jiàn ": 8654,
  "sǎo": 8655,
  " mí ": 8656,
  " lǐ xiǎng ": 8657,
  "nián de": 8658,
  "shēng tài ": 8659,
  "xué xí ": 8660,
  " shòu quán ": 8661,
  " yòng tú ": 8662,
  " dǎo shàng ": 8663,
  "jìng zhēng ": 8664,
  " bān jiǎng ": 8665,
  " hā lì ": 8666,
  "jiǎn jiè ": 8667,
  "zhuǎn xiàng ": 8668,
  " 1973 nián ": 8669,
  "ruì diǎn ": 8670,
  "suì dào": 8671,
  " sāi ěr wéi yà": 8672,
  "Sh": 8673,
  " shì zhōng xīn ": 8674,
  "zài xiāng gǎng ": 8675,
  " shí jiǔ": 8676,
  " chéng rén ": 8677,
  " gōng zhǔ": 8678,
  " zhèng shí": 8679,
  " zuò táng ": 8680,
  " mǎ sī ": 8681,
  " céng yú": 8682,
  " 1971 nián ": 8683,
  " jiē wèi zhī ": 8684,
  " gāi dì de miàn jī hé rén kǒu": 8685,
  " gāi dì de miàn jī hé rén kǒu jiē wèi zhī ": 8686,
  "hū ": 8687,
  "   jiàn ": 8688,
  "yǒu jī": 8689,
  "jīng lǐ ": 8690,
  " gāi zhuāng ": 8691,
  "duō shù": 8692,
  " gòng jì ": 8693,
  " wú zhèng zhuàng gǎn rǎn zhě": 8694,
  " qiān mǐ ": 8695,
  "dài biǎo tuán ": 8696,
  "   Al": 8697,
  " tái běi shì ": 8698,
  "cǎn ": 8699,
  "xiàn lù": 8700,
  " yě chēng ": 8701,
  " shòu shāng ": 8702,
  " zhòng zhí": 8703,
  "zī gé": 8704,
  "què de": 8705,
  "zhuān mén ": 8706,
  " jiào yù bù": 8707,
  "de nán ": 8708,
  "jí rén ": 8709,
  "duì zhèn ": 8710,
  " jù chǎng ": 8711,
  " qū nèi ": 8712,
  " zǔ hé ": 8713,
  " tóu xiáng ": 8714,
  "sī lìng bù": 8715,
  "kào jìn ": 8716,
  " shí bào ": 8717,
  "bǐ dé": 8718,
  " hā lā": 8719,
  " sū wéi āi ": 8720,
  "tuán duì ": 8721,
  " 140": 8722,
  "miǎn diān ": 8723,
  " shēng zhǎng yú hǎi bá": 8724,
  "   shàng ": 8725,
  "hé zhōng ": 8726,
  " gōng ān ": 8727,
  " bìng biǎo shì ": 8728,
  " zhī liú ": 8729,
  " yīn c": 8730,
  "shè yǐng ": 8731,
  " zhǒng lèi ": 8732,
  " xìng qù ": 8733,
  " gé lǐ": 8734,
  " shǐ shàng ": 8735,
  " mó fǎ": 8736,
  " kě néng xìng ": 8737,
  " shuāng dǎ": 8738,
  " gāng qín ": 8739,
  " P ": 8740,
  "jù lè bù": 8741,
  "1 lì ": 8742,
  " de zuì ": 8743,
  " yǐ zhī": 8744,
  "ǐ yùn ": 8745,
  "qiè ": 8746,
  " shén mì ": 8747,
  "měi guó ": 8748,
  "shāng wáng ": 8749,
  " sāi bài ": 8750,
  " péi yǎng ": 8751,
  "tǎn kè": 8752,
  "nt": 8753,
  " yī jù": 8754,
  " diàn qì ": 8755,
  " hǎi shàng ": 8756,
  " fāng biàn ": 8757,
  " zǒng jiān ": 8758,
  " rú tóng ": 8759,
  "tè dìng ": 8760,
  " 1977 nián ": 8761,
  "shōu gòu": 8762,
  "zǐ yóu xì ": 8763,
  "rom": 8764,
  " gěn ": 8765,
  "dà duō": 8766,
  "èr jí": 8767,
  "wén míng ": 8768,
  " tiān qì ": 8769,
  " bān cì ": 8770,
  " xiāo fáng ": 8771,
  "lā dīng ": 8772,
  "pú táo yá": 8773,
  "chéng běn ": 8774,
  " zhī zhàn ": 8775,
  " jiān dū": 8776,
  "yí dìng ": 8777,
  " gāi wù zhǒng ": 8778,
  " lù shàng ": 8779,
  "rì bào ": 8780,
  " méi tǐ ": 8781,
  " dǎo yǔ": 8782,
  " 1957 nián ": 8783,
  "là": 8784,
  "tt": 8785,
  " dì dài ": 8787,
  "zhì piàn ": 8788,
  "yǒu yì ": 8789,
  " míng jìn shì ": 8790,
  "yǔ qí": 8791,
  " huò chēng ": 8792,
  " gāi xiào": 8793,
  " jiè de": 8794,
  "yuē wèi ": 8795,
  " 1933 nián ": 8796,
  " sì chuān shěng ": 8797,
  "OM": 8798,
  " rì zhì ": 8799,
  "qí xià": 8800,
  "liǎng zhǒng ": 8801,
  " gèng duō de": 8802,
  "cái néng ": 8803,
  " róng yù ": 8804,
  "ch ": 8805,
  "zhōng de ": 8806,
  "xiàn chéng ": 8807,
  "xiàn shàng ": 8808,
  "wǎng wǎng ": 8809,
  " dū shì ": 8810,
  " 1962 nián ": 8811,
  "gèng duō": 8812,
  "de sān ": 8813,
  " shì jiè ": 8814,
  "shí shàng ": 8815,
  " yí bàn ": 8816,
  "zhǐ zài ": 8817,
  " liàng zǐ": 8818,
  "qiān shǔ": 8819,
  "2002 nián ": 8820,
  "xún zhǎo": 8821,
  " xī běi bù": 8822,
  " zhuàn xiě": 8823,
  " shǎn xī": 8824,
  "xǐng ": 8825,
  "de zuò pǐn ": 8826,
  " 14 ": 8827,
  "yī shēng ": 8828,
  "dà fú": 8829,
  "dà sài ": 8830,
  "yóu yǒng ": 8831,
  " shī gōng ": 8832,
  " shēn dù ": 8833,
  " měi guó de": 8834,
  " liè chū": 8835,
  " mǎn zhōu": 8836,
  " shì nán jí zhōu de": 8837,
  "II ": 8838,
  " jí jiāng ": 8839,
  " yí zhǐ": 8840,
  "orl": 8841,
  " fǎn ér": 8842,
  "bì miǎn ": 8843,
  "xié shāng ": 8844,
  " xiǎng yào": 8845,
  "bāo wéi ": 8846,
  "ol ": 8847,
  "dì èr cì shì jiè dà zhàn ": 8848,
  "pēng ": 8849,
  "qú": 8850,
  " ké": 8851,
  "   X": 8852,
  " jiā zhōng ": 8853,
  "dài lǐng ": 8854,
  " qū fēn ": 8855,
  " zhòng yì yuàn ": 8856,
  "   chē zhàn jié gòu ": 8857,
  "hé fǎ": 8858,
  " de chéng yuán ": 8859,
  "hàn lín ": 8860,
  " hǎi yù ": 8861,
  " shū yuàn ": 8862,
  "gǎi míng wèi ": 8863,
  "   2003 nián ": 8864,
  "zhǔ yào de": 8865,
  "4 yuè 1 rì ": 8866,
  " la": 8867,
  " com": 8868,
  "de fēng ": 8869,
  "yán cháng ": 8870,
  " zhèn qū de miàn jī wèi ": 8871,
  "de yī xiē": 8872,
  "lǚ xíng ": 8873,
  "   běn zhàn ": 8874,
  "hù lián wǎng ": 8875,
  "jiē chù": 8876,
  " jiāo gěi ": 8877,
  "huí guī": 8878,
  " jǐ nián ": 8879,
  " chóu ": 8880,
  "dì 3": 8881,
  " yǒu zhù": 8882,
  " tè sè ": 8883,
  " bā hè": 8884,
  " cān xuǎn ": 8885,
  "nà cuì ": 8886,
  "xiǎo xíng ": 8887,
  "xù lì yà": 8888,
  "shén jīng ": 8889,
  "PS": 8890,
  " duī": 8891,
  " yǔ zhòu": 8892,
  " lù zhì ": 8893,
  "shǒu xiàng ": 8894,
  "e   of": 8895,
  "   rán ér ": 8896,
  "hé pàn ": 8897,
  "yī rán ": 8898,
  " jì wèi ": 8899,
  "dé zhī": 8900,
  " jūn guān ": 8901,
  "lí zi ": 8902,
  " jì lù piàn ": 8903,
  " pī ": 8904,
  "hòu sài ": 8905,
  " rén chēng ": 8906,
  "míng zhì ": 8907,
  " zhōu fǔ": 8908,
  "hǎi xiá": 8909,
  " 42": 8910,
  " cān yì yuàn ": 8911,
  "gāi guó": 8912,
  " yìng jí": 8913,
  " xiáng xì ": 8914,
  "zǒu xiàng ": 8915,
  "ust": 8916,
  "é zhōu": 8917,
  "zhuā": 8918,
  " zhí bàng ": 8919,
  " tè lán ": 8920,
  " 4 yuè ": 8921,
  " shāng diàn ": 8922,
  " xuān chēng ": 8923,
  "sū gé lán ": 8924,
  "tí gōng le": 8925,
  "f ": 8926,
  " chuī": 8927,
  " yú rén ": 8928,
  " yì qíng ": 8929,
  " zhè lèi ": 8930,
  "xiàn zhī xiàn ": 8931,
  "duì cǐ": 8932,
  " cān yù ": 8933,
  " bǎo luó ": 8934,
  "zī jīn ": 8935,
  "chǔ lǐ ": 8936,
  " ná xià": 8937,
  " mù dì shì ": 8938,
  " dāng xuǎn wèi ": 8939,
  "jù fēng ": 8940,
  " yuē yǒu": 8941,
  " zhōng guó guó mín dǎng ": 8942,
  "fēng bào ": 8943,
  " gǎi jìn ": 8944,
  "dǎng de": 8945,
  " xū qiú ": 8946,
  "làn ": 8947,
  "   jī": 8948,
  " shì dà": 8949,
  " dàn zuì zhōng ": 8950,
  " fù xīng ": 8951,
  " mǎ sī": 8952,
  "dōng fāng ": 8953,
  "lián rèn ": 8954,
  " èr rén ": 8955,
  "zhào piān ": 8956,
  "xī ān ": 8957,
  "lì chǎng ": 8958,
  " fēn zhī": 8959,
  "   2019": 8960,
  " yù suàn ": 8961,
  "lù xù": 8962,
  " huà miàn ": 8963,
  "xīng de": 8964,
  " nǚ hái ": 8965,
  " gǎi zào": 8966,
  "sī fǎ": 8967,
  "fēn lán ": 8968,
  " bàn lǐ": 8969,
  " pǔ lā": 8970,
  "guó jiā duì ": 8971,
  " ruò ": 8972,
  "miǎn fèi ": 8973,
  "shì wèi le": 8974,
  " chì wěi ": 8975,
  " jǔ xíng de": 8976,
  " xún huí sài ": 8977,
  "   wú": 8978,
  "hé tóng ": 8979,
  " dào guāng ": 8980,
  "huì yǒu": 8981,
  " rèn zhèng ": 8982,
  "zhōu wéi ": 8983,
  " shī rén ": 8984,
  "gē lún bǐ yà": 8985,
  "guǎng gào": 8986,
  " shì wèi yú wū kè lán ": 8987,
  "ná xià": 8988,
  " shì pín ": 8989,
  " shí zhì ": 8990,
  "zhì lì ": 8991,
  " hé chéng ": 8992,
  "dì dài ": 8993,
  " yǒu jī": 8994,
  "shè dìng ": 8995,
  "fā shòu ": 8996,
  " rèn tóng ": 8997,
  " liú qiú": 8998,
  " yòng yǐ": 8999,
  " nǚ ér ": 9000,
  "luò chéng ": 9001,
  " huó yuè": 9002,
  " 1965 nián ": 9003,
  " U ": 9004,
  "yú lèi ": 9005,
  " shí wù": 9006,
  " tā yòu": 9007,
  " xī yuán ": 9008,
  " lái sī": 9009,
  "zhǔ lì ": 9010,
  " jǐng guān ": 9011,
  "   gēn jù 2010 nián měi guó rén kǒu pǔ chá de shù jù ": 9012,
  " kā fēi ": 9013,
  "   shā": 9014,
  "de fā zhǎn ": 9015,
  " xī shōu": 9016,
  " bèi pàn ": 9017,
  " ér chéng ": 9018,
  " zì jǐ ": 9019,
  " cì rì ": 9020,
  "fǎ guān ": 9021,
  "   2000 nián ": 9022,
  "jiè shào": 9023,
  " tí chū ": 9024,
  "e   P": 9025,
  " shì yī jiā": 9026,
  "tiv": 9027,
  " zhèng fǔ de": 9028,
  "tū rán ": 9029,
  " xī bān yá yǔ ": 9030,
  "de guān xì ": 9031,
  " yuè shēng ": 9032,
  " zhōng diǎn ": 9033,
  " píng chéng ": 9034,
  "lín de": 9035,
  " hū yù": 9036,
  "fū rén ": 9037,
  " 1928 nián ": 9038,
  "sǔn shī": 9039,
  " jié kè xùn ": 9040,
  " náng ": 9041,
  " xiàn cún ": 9042,
  " xī lán ": 9043,
  " lǐ chá": 9044,
  " shǒu xí": 9045,
  " qiān yǐn ": 9046,
  "měi guó rén ": 9047,
  " dì èr cì shì jiè dà zhàn ": 9048,
  "DV": 9049,
  "US": 9050,
  "qià": 9051,
  "ǘ": 9052,
  "   fǎ guó": 9053,
  " cā": 9054,
  " tūn ": 9055,
  " chéng le": 9056,
  " xī zhōu": 9057,
  "zhī jì ": 9058,
  " bó ěr": 9059,
  "jiù huì ": 9060,
  " tóng nián 10": 9061,
  "jī dū jiào": 9062,
  "shì zhōng guó": 9063,
  " zài yīng guó": 9064,
  " yǐ zhì ": 9065,
  " dé dào le": 9066,
  "duì qí": 9067,
  " bǎo zhèng ": 9068,
  "bā nián ": 9069,
  "zhuǎn huàn ": 9070,
  " D ": 9071,
  "yǎng huà": 9072,
  " shì yè": 9073,
  "hòu fāng ": 9074,
  "nán yǐ": 9075,
  "   2020": 9076,
  "bù ěr": 9077,
  " qīn wáng ": 9078,
  " ài ěr lán ": 9079,
  "mǔ sī": 9080,
  " fù hé": 9081,
  "gēng xīn ": 9082,
  "ug": 9083,
  "gōng zhàn ": 9084,
  "gōng lù ": 9085,
  " zhī yī": 9086,
  " yán cháng ": 9087,
  " qīng chūn ": 9088,
  "fēng gé": 9089,
  " dī yú": 9090,
  "xiōng yá lì ": 9091,
  "duǎn zàn ": 9092,
  " rè dài qì xuán ": 9093,
  "OR": 9094,
  "zài 199": 9095,
  " xiàn yú": 9096,
  " qí zi ": 9097,
  " duō yàng ": 9098,
  " fǎ tíng ": 9099,
  "jiē shòu ": 9100,
  " dì èr gè": 9101,
  "dāng shí de": 9102,
  " yē sū": 9103,
  "   gōng ": 9104,
  "dì chǎn ": 9105,
  "xíng xiàng ": 9106,
  " zuò luò": 9107,
  " zì chēng ": 9108,
  "shù zì ": 9109,
  "xué de": 9110,
  " huà fēn ": 9111,
  " tiān tǐ ": 9112,
  "fàng zài ": 9113,
  "háo ": 9114,
  "yī jí": 9115,
  "jī jīn ": 9116,
  " kè sà sī": 9117,
  " ér bù": 9118,
  " shè de": 9119,
  "yè wù": 9120,
  " fū kǎ": 9121,
  " qíng gǎn ": 9122,
  "de wǔ": 9123,
  " huì zhǎng ": 9124,
  " dàn què": 9125,
  " rèn shí": 9126,
  "tài kōng ": 9127,
  " zhēn zhèng ": 9128,
  "bó shì ": 9129,
  "189": 9130,
  "pāi shè ": 9131,
  "   jié": 9132,
  "shì qū": 9133,
  " de M": 9134,
  " liú zài ": 9135,
  " shān xī shěng ": 9136,
  " tuī chū ": 9137,
  "yōu xiù": 9138,
  " gōng zuò shì ": 9139,
  " rén dà dài biǎo ": 9140,
  "wú ": 9141,
  " shì jiā": 9142,
  " hē": 9143,
  "shì yàn ": 9144,
  "gōng bù ": 9145,
  "yì rén ": 9146,
  "shàng xiàn ": 9147,
  " tè sè": 9148,
  " kuò dà": 9149,
  " zǒng huì ": 9150,
  "dà xué de": 9151,
  " tǎ ěr": 9152,
  " 1930 nián ": 9153,
  "shí qī nián ": 9154,
  " jiā rù ": 9155,
  " fú luó lǐ dá": 9156,
  "xiāng xìn ": 9157,
  "xì tǒng de": 9158,
  " kǎo shì ": 9159,
  "jùn gōng ": 9160,
  " miàn jī 0": 9161,
  "chè xiāo": 9162,
  " shā hài ": 9163,
  "cāo zuò": 9164,
  "   zhí": 9165,
  " yuè chū": 9166,
  " shí duàn ": 9167,
  " yì míng ": 9168,
  "háng zhàn ": 9169,
  " dāng dài ": 9170,
  " nǚ wáng ": 9171,
  " qí zhōng yí gè": 9172,
  "liú zài ": 9173,
  " tú jīng ": 9174,
  " tiě dào ": 9175,
  "zhōng gòng zhōng yāng ": 9176,
  " lǎ": 9177,
  "zhōng wèi ": 9178,
  " yú léi ": 9179,
  "shēng mìng ": 9180,
  "jìng de": 9181,
  "jìng xuǎn ": 9182,
  "bào lì ": 9183,
  " pín dào ": 9184,
  " xī nán bù": 9185,
  " fǒu zé": 9186,
  " dàn bái zhì ": 9187,
  "oogle": 9188,
  "DS": 9189,
  "fà": 9190,
  " chéng nián ": 9191,
  " jiào kē": 9192,
  " sān guó": 9193,
  "liàng xiàng ": 9194,
  " 1932 nián ": 9195,
  " bìng qiě zài ": 9196,
  " gēn jù 2020 nián měi guó rén kǒu pǔ chá de shù jù ": 9197,
  " zhì yuán ": 9198,
  "háng zhōu": 9199,
  "kāi gōng ": 9200,
  "yìng de": 9201,
  " xíng zhèng yuàn ": 9202,
  " 1931 nián ": 9203,
  "res": 9204,
  " shùn shí zhēn ": 9205,
  " shì gù": 9206,
  " zhǔ chǎng ": 9207,
  " qíng xíng ": 9208,
  "yú 202": 9209,
  "bù bù zhǎng ": 9210,
  "jiàn shè ": 9211,
  " zhàn jì ": 9212,
  " guān zhuàng bìng dú": 9213,
  "mín guó": 9214,
  "zhí zhèng ": 9215,
  " běn jiè": 9216,
  " jué shì ": 9217,
  "zuì duō": 9218,
  " tún qí": 9219,
  "   xiǎo": 9220,
  " gùn ": 9221,
  "le tā de": 9222,
  " wéi zhǔ": 9223,
  " zhú bù": 9224,
  " fǎ lán kè": 9225,
  "wēng ": 9226,
  " zhī jiā gē": 9227,
  " 2018": 9228,
  "qiáng diào": 9229,
  " 1912 nián ": 9230,
  "   jiāng ": 9231,
  "de gǔ": 9232,
  " zhōng bù ": 9233,
  " dì di ": 9234,
  " zhī yì ": 9235,
  "xīn jiāng ": 9236,
  " zhù lǐ": 9237,
  " luó bó tè ": 9238,
  "zuì wèi ": 9239,
  "fēng xiǎn ": 9240,
  "yào wù": 9241,
  "xìn hào": 9242,
  " chéng fèn ": 9243,
  " 43": 9244,
  "jué de": 9245,
  "zǒng bù": 9246,
  " zì yóu ": 9247,
  "tōu": 9248,
  "   ān ": 9249,
  " zài bā": 9250,
  "dà zhàn ": 9251,
  " lù duàn ": 9252,
  " 3 yuè ": 9253,
  "mǎ lā": 9254,
  " zhuān yòng ": 9255,
  " 1967 nián ": 9256,
  " sǐ xíng ": 9257,
  "11 ": 9258,
  "wit": 9259,
  "   zǎo qī": 9260,
  "shí yòng ": 9261,
  " yī tiān ": 9262,
  " jīng yóu": 9263,
  " pèi bèi ": 9264,
  " zhòng diǎn wén wù bǎo hù dān wèi ": 9265,
  " sāo": 9266,
  " pá": 9267,
  "jí hé": 9268,
  " 2016": 9269,
  " mó nǐ": 9270,
  "biāo zhì ": 9271,
  " huàn zhě": 9272,
  "   yán gé ": 9273,
  " kàng rì zhàn zhēng ": 9274,
  "400": 9275,
  "shì nán ": 9276,
  " 1 lì ": 9277,
  "chéng nián ": 9278,
  "háng yè": 9279,
  " fú dé": 9280,
  "1900": 9281,
  " xiào lì ": 9282,
  "chuán bō": 9283,
  " dà liàng de": 9284,
  " bàng qiú": 9285,
  " zuǒ yòu ": 9286,
  "guǐ ": 9287,
  "   wū kè lán ": 9288,
  " shì yīng guó": 9289,
  " zhōng bèi ": 9290,
  "hàn yǔ": 9291,
  " xiàn rù": 9292,
  " qí fù": 9293,
  " xué de": 9294,
  " sī lā": 9295,
  " yuán zi ": 9296,
  " fǎ lǜ ": 9297,
  " yuàn zhǎng ": 9298,
  "fù zá": 9299,
  " liǎng cè": 9300,
  " qiū ": 9301,
  " xiào guǒ": 9302,
  " liè rù": 9303,
  " huí yì ": 9304,
  " T ": 9305,
  " 1961 nián ": 9306,
  "ax": 9307,
  "zhōng fā xiàn ": 9308,
  " míng xīng ": 9309,
  "jīng yàn ": 9310,
  " luó lā": 9311,
  "shěng de yí gè shì zhèn ": 9312,
  "tiān fǔ": 9313,
  " máo dùn ": 9314,
  " F ": 9315,
  " zàn shí": 9316,
  " dòu ": 9317,
  "   měi ": 9318,
  "shì wù ": 9319,
  "yuán sù": 9320,
  " dé ěr": 9321,
  "zhèng shí": 9322,
  " tóng wèi ": 9323,
  "shēng zhǎng ": 9324,
  " jiào zōng ": 9325,
  " yě kě": 9326,
  " shǐ dì ": 9327,
  "wài láng ": 9328,
  "tōng xìn ": 9329,
  " qí tā de": 9330,
  " niè ": 9331,
  "kàng rì ": 9332,
  " zhèng xié wěi yuán ": 9333,
  "   tā de": 9334,
  "āi ěr ": 9335,
  " míng jǔ rén ": 9336,
  " zhàn chǎng ": 9337,
  "dài yǒu": 9338,
  "fù nǚ": 9339,
  "jiǎng xiàng ": 9340,
  " bǎi nián ": 9341,
  " 1927 nián ": 9342,
  "dǒng shì zhǎng ": 9343,
  " shì xià xiá de yí gè": 9344,
  " rì cháng ": 9345,
  "chéng zhèn ": 9346,
  "gōng yì ": 9347,
  " xué kē": 9348,
  "shàng xià": 9349,
  " shè qún ": 9350,
  "shēng míng ": 9351,
  "jiē shōu": 9352,
  "dǎo de": 9353,
  " rú xià": 9354,
  " yǐng shì ": 9355,
  " èr nián ": 9356,
  "xiū jiàn ": 9357,
  " dé guó ": 9358,
  " láo gōng ": 9359,
  " zuì gāo de": 9360,
  " zhé ": 9361,
  " wèi yuán ": 9362,
  " bù biàn ": 9363,
  "shí bā": 9364,
  "shè de": 9365,
  " sān zhǒng ": 9366,
  "yīng xióng ": 9367,
  "pèi bèi ": 9368,
  "gèng wéi ": 9369,
  "yōu shì ": 9370,
  "NBA": 9371,
  "yī tiáo": 9372,
  "dà wèi ": 9373,
  "dà zhòng ": 9374,
  " miàn xiàng ": 9375,
  "chǎng dì ": 9376,
  " fēng wèi ": 9377,
  "fēng wèi ": 9378,
  " qǐ chū": 9379,
  "pèi yīn ": 9380,
  "zhǎn lǎn ": 9381,
  " de gù shì ": 9382,
  " zài fǎ guó": 9383,
  " yǐ shàng de": 9384,
  " zhī fù": 9385,
  "zhī shì ": 9386,
  "jiē rèn ": 9387,
  " shuǐ lì ": 9388,
  "e   B": 9389,
  "ess": 9390,
  " zhí yè shēng yá": 9391,
  "12 nián ": 9392,
  "me ": 9393,
  " gè guó jiā": 9394,
  " zhī shí ": 9395,
  " dàn shuǐ": 9396,
  " huò ěr": 9397,
  " 53": 9398,
  "liú xià": 9399,
  " shōu jí": 9400,
  " sū dá": 9401,
  " dàng àn ": 9402,
  "ee": 9403,
  "up": 9404,
  "   fēn lèi ": 9405,
  " fǎ yǔ": 9406,
  " yīng lǐ ": 9407,
  "biǎo míng ": 9408,
  " cái pàn ": 9409,
  " E ": 9410,
  " dòu zhēng ": 9411,
  " а": 9412,
  " rén kǒu mì dù měi píng fāng gōng lǐ": 9413,
  "yì wài ": 9414,
  " yóu kè": 9415,
  "xíng róng ": 9416,
  "duì fāng ": 9417,
  "shè xián ": 9418,
  "guān kàn ": 9419,
  "bì yè": 9420,
  "gǎi shàn ": 9421,
  " 17 ": 9422,
  " jù hé": 9423,
  " J ": 9424,
  " ruǎn tiáo": 9425,
  "hé bìng wèi ": 9426,
  " shì xīng děng wèi ": 9427,
  " píng jiè": 9428,
  " zhǎng zǐ": 9429,
  " nèi zhèng ": 9430,
  " sì dà": 9431,
  " shēn wèi ": 9432,
  " biān jù ": 9433,
  " shāng chǎng ": 9434,
  " wèi míng ": 9435,
  " bù léi ": 9436,
  " dà shǐ ": 9437,
  " xiàn yǒu": 9438,
  "yī jiā": 9439,
  " yuán shǐ": 9440,
  "yǔ máo qiú": 9441,
  "xià le": 9442,
  "shǒu xí": 9443,
  "zhǐ yú": 9444,
  "fú hé": 9445,
  " yǎn jīng ": 9446,
  " jiǎ shè": 9447,
  "   2002 nián ": 9448,
  " tǎn kè": 9449,
  "shà": 9450,
  " jǔ ": 9451,
  " zhōng xún ": 9452,
  " dé lì ": 9453,
  " jué yú": 9454,
  " dān yī": 9455,
  "zhòng diǎn ": 9456,
  " zǒng cái ": 9457,
  "jìng sài ": 9458,
  "cái liào": 9459,
  "ational": 9460,
  "EN": 9461,
  "zhōng shū": 9462,
  " běn zuò": 9463,
  " bā fá lì yà": 9464,
  "nèi ruì ": 9465,
  "tài guó": 9466,
  " lǐ áng ": 9467,
  " zōng yì ": 9468,
  " bǔ chōng ": 9469,
  " dé yì zhì ": 9470,
  "qí bīng ": 9471,
  "tái fēng ": 9472,
  "kè luó": 9473,
  " sù dù ": 9474,
  " líng hún ": 9475,
  "   2021": 9476,
  " tiān wén tái ": 9477,
  "de diàn ": 9478,
  " zhōng guó rén mín ": 9479,
  " qīn zì ": 9480,
  " zhēng qǔ": 9481,
  " cūn luò ": 9482,
  " xún qiú": 9483,
  " 1963 nián ": 9484,
  " zuǒ yì ": 9485,
  "nóng mín ": 9486,
  "id ": 9487,
  "ā gēn tíng ": 9488,
  " zài jīn ": 9489,
  " zhè bù": 9490,
  " hòu yú": 9491,
  " fú lán ": 9492,
  " qū shì ": 9493,
  "18 ": 9494,
  " 1969 nián ": 9495,
  "ōu zhōu ": 9496,
  "xiāo liàng ": 9497,
  "KB": 9498,
  " jiàn shì ": 9499,
  "liǎn ": 9500,
  "wù de": 9501,
  "biǎo miàn ": 9502,
  "ork": 9503,
  "liú chuán ": 9504,
  " 110": 9505,
  " chéng lì hòu ": 9506,
  " zú qiú yùn dòng yuán ": 9507,
  "shào nǚ": 9508,
  " pín lǜ": 9509,
  "běi jīng shì ": 9510,
  "hé shàng ": 9511,
  "   ào": 9512,
  " yì bǎi ": 9513,
  " qí hòu ": 9514,
  " wéi duō lì yà": 9515,
  "shàng shū": 9516,
  " jù lí ": 9517,
  " jiē zhù": 9518,
  " liǎng gè ": 9519,
  "ert": 9520,
  " shā tián ": 9521,
  " gòng chǎn zhǔ yì ": 9522,
  "tern": 9523,
  " zhōng shì jì ": 9524,
  " hēi lóng jiāng shěng ": 9525,
  "lòu": 9526,
  "   kē": 9527,
  " zhōng duì ": 9528,
  " yī bù fèn ": 9529,
  " bìng xiàng ": 9530,
  " dàn méi yǒu": 9531,
  " cóng wèi ": 9532,
  "qīng xiàng ": 9533,
  " jìng jì ": 9534,
  " tóu xián ": 9535,
  "lǚ ": 9536,
  "de shèng ": 9537,
  " shí wèi ": 9538,
  " shēng jī": 9539,
  "xì liè ": 9540,
  " 155": 9541,
  "tū pò": 9542,
  "4 gè": 9543,
  "de chéng yuán ": 9544,
  " de shí jiān ": 9545,
  " dì yī ": 9546,
  " dà dì ": 9547,
  " lā ěr": 9548,
  "bìng shì ": 9549,
  "biān hào wèi ": 9550,
  " qí zhōng yǒu": 9551,
  " bǎo xiǎn ": 9552,
  " xí guàn ": 9553,
  " dū huì ": 9554,
  " gǎn lǎn ": 9555,
  " 1929 nián ": 9556,
  "de wài ": 9557,
  " xiàn lù ": 9558,
  "chéng kè": 9559,
  " jiā yì ": 9560,
  " píng guǒ": 9561,
  "gè zì ": 9562,
  " hǎi xiá": 9563,
  "guò dù": 9564,
  "zhǐ dìng ": 9565,
  " xuǎn qū ": 9566,
  " 600": 9567,
  "dǎ suàn ": 9568,
  " shì shí shàng ": 9569,
  " jiā lì fú ní yà zhōu": 9570,
  " de guān xì ": 9571,
  "yú rén ": 9572,
  " běn míng ": 9573,
  " wēi lì ": 9574,
  "e   A": 9575,
  " shōu fèi ": 9576,
  " lǎng dé": 9577,
  " 1934 nián ": 9578,
  " xǐ jù": 9579,
  " zài nà lǐ": 9580,
  "pó": 9581,
  " yǔ yīn ": 9582,
  "jiāo huàn ": 9583,
  "gǔ dài ": 9584,
  "lǐng yù": 9585,
  "pèi zhì ": 9586,
  "dì yī wèi ": 9587,
  " gān sù": 9588,
  "duǒ": 9589,
  "   guó jì ": 9590,
  "de zhí": 9591,
  "wéi fǎn ": 9592,
  "jiā qiáng ": 9593,
  " xī bó": 9594,
  " dàn tā men ": 9595,
  " lái yīn ": 9596,
  "lái yīn ": 9597,
  "dōng ní ": 9598,
  "shān shì ": 9599,
  "zhòng dà": 9600,
  " zhǎn xiàn ": 9601,
  " zàn zhù": 9602,
  " shí qī de": 9603,
  " gāo sù gōng lù": 9604,
  "pái míng dì ": 9605,
  "lo": 9606,
  " bī": 9607,
  "jì wèi ": 9608,
  " tóng pái ": 9609,
  " guān cè": 9610,
  "jìn jí": 9611,
  "zì shēn ": 9612,
  "mín jiān ": 9613,
  "hái zài ": 9614,
  " tuī jiàn ": 9615,
  "   189": 9616,
  "gé mìng jūn ": 9617,
  " suǒ de": 9618,
  "suǒ wèi ": 9619,
  " xuǎn wèi ": 9620,
  " wèi yú yín ": 9621,
  " kǎ ěr ": 9622,
  "   2018": 9623,
  "liǎng nián ": 9624,
  " xiū dào yuàn ": 9625,
  " 170": 9626,
  " HR": 9627,
  " dì míng ": 9628,
  " yóu jú": 9629,
  " xiāng bǐ": 9630,
  "dé dào le": 9631,
  " jiù yuán ": 9632,
  "tí dào": 9633,
  "biān jí": 9634,
  "ary": 9635,
  " gǎng kǒu": 9636,
  "yīn yuè ": 9637,
  "shí jì shàng ": 9638,
  "rou": 9639,
  "de jí": 9640,
  " jìn rù ": 9641,
  "de M": 9642,
  " 49": 9643,
  " tú shā": 9644,
  "sū lǐ": 9645,
  "xún huán ": 9646,
  " miáo huì ": 9647,
  "gū jì ": 9648,
  "guài ": 9649,
  "de zhì ": 9650,
  " jìn chéng ": 9651,
  " dōng bù ": 9652,
  "jiāng zài ": 9653,
  " tú jìng ": 9654,
  "chóu ": 9655,
  "kū": 9656,
  " zài nèi ": 9657,
  "yuán zi ": 9658,
  " xué wèi ": 9659,
  " měi guó hǎi jūn ": 9660,
  " ān pái ": 9661,
  " lù yì sī ": 9662,
  "15 nián ": 9663,
  " shì cóng ": 9664,
  "shì jiè ": 9665,
  "háng xíng ": 9666,
  "zhèng biàn ": 9667,
  " xià xún ": 9668,
  " lún duō": 9669,
  "   Sp": 9670,
  "chōng tū": 9671,
  "dàng tiān ": 9672,
  "shàng hǎi shì ": 9673,
  "   nián   ": 9674,
  "guó mín dǎng ": 9675,
  "hé nán shěng ": 9676,
  " shì duì ": 9677,
  "shì bù": 9678,
  " yǐ dōng ": 9679,
  "zhī yì ": 9680,
  " qū zhú jiàn ": 9681,
  " xiào yìng ": 9682,
  "chē de": 9683,
  " bàn nián ": 9684,
  " jìng sài ": 9685,
  " shū chū": 9686,
  " wán gōng ": 9687,
  " dí shì ní": 9688,
  "jǐn jí": 9689,
  "pài chū": 9690,
  " dǐ zhì ": 9691,
  " jí tuán jūn ": 9692,
  "   jiǎn lì ": 9693,
  "   yì ": 9694,
  " pì ": 9695,
  " dà duì ": 9696,
  " zhè liǎng gè": 9697,
  " lí zi ": 9698,
  " chuán méi ": 9699,
  "zú de": 9700,
  "   2016": 9701,
  "   2001 nián ": 9702,
  " shào nǚ": 9703,
  "jí xíng zhèng dān wèi ": 9704,
  "   zhēng yì ": 9705,
  " piāo": 9706,
  "   Y": 9707,
  " zhōng duàn ": 9708,
  " shí jiàn ": 9709,
  " jiāng nán ": 9710,
  " shì jì de": 9711,
  "gào sù": 9712,
  " yāng ": 9713,
  "   pǔ": 9714,
  " yī lài ": 9715,
  "xī de": 9716,
  " gē gē": 9717,
  " dàn shì zài ": 9718,
  " zhuàng jī": 9719,
  "ruǎn jiàn ": 9720,
  "span ": 9721,
  "ET": 9722,
  " báo": 9723,
  "ēn lái ": 9724,
  "zhì 198": 9725,
  " jù dà de": 9726,
  " 52": 9727,
  " SAO": 9728,
  " ài lì ": 9729,
  "mǔ jiàn ": 9730,
  " xì liè de": 9731,
  "kuò zhǎn ": 9732,
  "chì jīng ": 9733,
  "luó mǎ dì guó": 9734,
  " shǐ mì sī": 9735,
  "   jīng lì ": 9736,
  " 130": 9737,
  " yī duàn ": 9738,
  " bìng chéng wéi ": 9739,
  "zhù yú": 9740,
  " yín wěi ": 9741,
  "zhěng tǐ": 9742,
  "wěi yuán huì wěi yuán ": 9743,
  " xiàn shí yóu": 9744,
  " nù": 9745,
  " ma": 9746,
  " shì yìng ": 9747,
  "zhōng jiān ": 9748,
  " qí B": 9749,
  " shè jiāo": 9750,
  "quán xiàn ": 9751,
  "qī de": 9752,
  "hán gài ": 9753,
  " xuǎn jǔ ": 9754,
  " cháng cháng ": 9755,
  " shāng hài ": 9756,
  " 154": 9757,
  "bié ": 9758,
  " 000 míng ": 9759,
  "tái běi shì ": 9760,
  " bì yè hòu": 9761,
  " bù lán ": 9762,
  "huà fēn ": 9763,
  "běi bù ": 9764,
  " gēn běn ": 9765,
  "nà lǐ": 9766,
  " lóng cǎo": 9767,
  " xīng xì ": 9768,
  " 168": 9769,
  "ous": 9770,
  "J ": 9771,
  "zài jiā": 9772,
  " guó dào": 9773,
  " jī dòng ": 9774,
  "dōu zài ": 9775,
  "zhōng guó ": 9776,
  "xié dìng ": 9777,
  "lǐng dǎo rén ": 9778,
  "   dàn ": 9779,
  " miào ": 9780,
  " kǎo ": 9781,
  "   6 ": 9782,
  " rén qì ": 9783,
  "zhì chéng ": 9784,
  "wén xiàn ": 9785,
  "jìng wài ": 9786,
  " zhāng zhuān jí ": 9787,
  "zī chǎn ": 9788,
  " qiáng dù": 9789,
  " nuò fū": 9790,
  "yùn dòng huì ": 9791,
  " qīng cháo zhèng zhì rén wù ": 9792,
  "zū jiè": 9793,
  "0 zuò biāo wèi ": 9794,
  "6 mǐ ": 9795,
  "mā": 9796,
  "ài guó": 9797,
  "de zǒng ": 9798,
  " jì sì ": 9799,
  " yuán sù ": 9800,
  " zhǔ guǎn ": 9801,
  " xiāng bǐ ": 9802,
  " rù kǒu": 9803,
  " hào yuè tái ": 9804,
  "xiǎo xué ": 9805,
  " fáng jiān ": 9806,
  "xiāo fèi ": 9807,
  " diàn shì jù": 9808,
  "guó jì jī chǎng ": 9809,
  " wèi yú yín jīng ": 9810,
  " qí B1900": 9811,
  "0 zuò biāo wèi chì jīng ": 9812,
  "sū ": 9813,
  "ān xiàn ": 9814,
  "hèn ": 9815,
  " chuò": 9816,
  "bù bīng ": 9817,
  " yì yuàn ": 9818,
  " jiā hé": 9819,
  "．": 9820,
  "bǐ sài zhōng ": 9821,
  "hé dà": 9822,
  " kuā": 9823,
  "jūn wěi ": 9824,
  " měi cì ": 9825,
  " fǎ lìng ": 9826,
  " kě dá": 9827,
  " lán sè": 9828,
  "yīn sù ": 9829,
  " yuàn yì ": 9830,
  " wǔ dé": 9831,
  "ris": 9832,
  "guǎng dōng shěng ": 9833,
  "pí ": 9834,
  " x ": 9835,
  "zhē": 9836,
  " yī xiàng ": 9837,
  " chéng bǎo": 9838,
  " dàn wèi ": 9839,
  " kè sī ": 9840,
  " zhōu qī": 9841,
  "běn dì ": 9842,
  " jiào qū": 9843,
  "yīn sù": 9844,
  "shǒu gè": 9845,
  " tí chū le": 9846,
  " cái wù": 9847,
  " kǒu jìng ": 9848,
  "jià zhí": 9849,
  " zhú ": 9850,
  " chuàng shǐ rén ": 9851,
  " duò": 9852,
  " dàn bèi ": 9853,
  " fú huà": 9854,
  " shān dì ": 9855,
  " lǜ sè": 9856,
  "jiǎ ": 9857,
  "omm": 9858,
  "ā lā": 9859,
  " zá ": 9860,
  " gǎo ": 9861,
  "   3 ": 9862,
  " dì jiǔ": 9863,
  "zhì yú": 9864,
  " duì tā": 9865,
  " lái shuō ": 9866,
  " mǎ ēn shěng ": 9867,
  " běi hǎi dào": 9868,
  " cháng jiàn ": 9869,
  "jiù yuán ": 9870,
  " sè cǎi ": 9871,
  " lǐng dǎo ": 9872,
  " 149": 9873,
  " péng yǒu ": 9874,
  " dú lì de": 9875,
  "   chē zhàn gòu zào ": 9876,
  "de quán ": 9877,
  " shì yìn dù": 9878,
  " yǔ zhī": 9879,
  "bèi pàn ": 9880,
  " fēn lí": 9881,
  "jià shǐ": 9882,
  "huàn zhě": 9883,
  "xiāo shòu": 9884,
  " xuǎn zé ": 9885,
  "12 ": 9886,
  "lan": 9887,
  " luán ": 9888,
  "wèi jūn ": 9889,
  " jí hòu": 9890,
  "zhī fù": 9891,
  "dài lǐ": 9892,
  " cì liè chē": 9893,
  " kuò jiàn ": 9894,
  "dōu bèi ": 9895,
  "zāo shòu": 9896,
  "h ": 9897,
  "sk": 9898,
  " ǒu": 9899,
  " fěng ": 9900,
  "zhōng yú": 9901,
  " gōng diàn ": 9902,
  "huá rén ": 9903,
  "yù wéi ": 9904,
  " lìng yī zhǒng ": 9905,
  " yǎn huà": 9906,
  " yīn cǐ zài ": 9907,
  " yǒng jiǔ": 9908,
  " duǎn zàn ": 9909,
  " zhuī sù dào": 9910,
  "5 gōng lǐ ": 9911,
  "adi": 9912,
  " cǎn ": 9913,
  "cho": 9914,
  " gōng jiāo": 9915,
  " dà zì ": 9916,
  " xīn jiàn ": 9917,
  " běn dì qū": 9918,
  "wěi cháng wěi ": 9919,
  " bō yīn ": 9920,
  "ní sū dá": 9921,
  " cí huì ": 9922,
  " Ar": 9923,
  " hēi rén ": 9924,
  " shòu hài ": 9925,
  " pàn luàn ": 9926,
  " luó mǎ ní yà": 9927,
  "dǎn ": 9928,
  "   zhōng huá rén mín gòng hé guó": 9929,
  " shì bā": 9930,
  " bù lì ": 9931,
  " yī sī": 9932,
  " yuán cháo": 9933,
  " shǒu wèi ": 9934,
  " hào de": 9935,
  " jià zhí ": 9936,
  " méng jūn ": 9937,
  "tián jìng ": 9938,
  "shùn lì ": 9939,
  "   shuǐ": 9940,
  " qí zhì ": 9941,
  "yǔ hé": 9942,
  "guān diǎn ": 9943,
  " yào wù": 9944,
  " bā mǎ": 9945,
  " gǎi míng ": 9946,
  " ā gēn tíng ": 9947,
  " gèng shì ": 9948,
  "xún huí": 9949,
  " zhì liáo ": 9950,
  "fēn bù yú": 9951,
  " xiāng zhèn jí xíng zhèng dān wèi ": 9952,
  "shì pín ": 9953,
  " xī shì ": 9954,
  "xī zàng ": 9955,
  "nián líng ": 9956,
  " shǒu jī": 9957,
  "kè lín ": 9958,
  " biàn huàn ": 9959,
  " tián jìng ": 9960,
  " chōng fèn ": 9961,
  " yé ": 9962,
  " nàn mín ": 9963,
  "de zuì ": 9964,
  " de xíng shì ": 9965,
  " kěn dìng ": 9966,
  "yuán yú": 9967,
  " dà lín ": 9968,
  "měi jūn ": 9969,
  " tí qín ": 9970,
  "mù sī lín ": 9971,
  " tǐ zhì ": 9972,
  " yáng shì ": 9973,
  "chéng lì yú": 9974,
  " rǎo": 9975,
  "ěr tè": 9976,
  " zhì 199": 9977,
  " zhī fǔ ": 9978,
  "jī fēn ": 9979,
  "shān qū": 9980,
  "mǎ tóu": 9981,
  " tiáo wén ": 9982,
  "zǒng shū jì ": 9983,
  " shǐ yòng zhě": 9984,
  "gē shǒu ": 9985,
  "am ": 9986,
  " hú běi ": 9987,
  "yǐ hòu": 9988,
  "qìng zhù": 9989,
  " xiàn de yí gè fēi jiàn zhì dì qū ": 9990,
  "guān fèi yán què zhěn bìng lì ": 9991,
  "IV": 9992,
  " xǔ ": 9993,
  " de yīn yuè": 9994,
  "jí lín ": 9995,
  " mǎ kè sī": 9996,
  " yě méi yǒu": 9997,
  "nán bù ": 9998,
  "zhōu cì shǐ ": 9999,
  " wù pǐn ": 10000,
  " de hú": 10001,
  " nèi méng gǔ": 10002,
  " liǎng àn ": 10003,
  " chǎng dì ": 10004,
  " wēi yí": 10005,
  " huáng hòu": 10006,
  " nè ": 10007,
  " yuán dìng ": 10008,
  "yǔ zhōng ": 10009,
  "shàng wǔ": 10010,
  " zhí dǎo ": 10011,
  " gāi jù": 10012,
  "mǎ ěr": 10013,
  "hán shù ": 10014,
  "erv": 10015,
  " mǐ ěr ": 10016,
  " guó fáng bù": 10017,
  " bàn shì chù ": 10018,
  "tūn ": 10019,
  "   sī": 10020,
  " lǐ jiě": 10021,
  "míng shì ": 10022,
  "de hóng ": 10023,
  " fāng chéng shì ": 10024,
  " tí dào": 10025,
  "wǔ dì ": 10026,
  " xuǎn mín ": 10027,
  " 44": 10028,
  " cān jiā ": 10029,
  " zhuǎn rèn ": 10030,
  "dù hé": 10031,
  " yǐng xiǎng lì ": 10032,
  "suí jí": 10033,
  " zài 195": 10034,
  "gěi le": 10035,
  " zú qiú lián sài ": 10036,
  " nán jí tiáo yuē": 10037,
  " gěn dì ": 10038,
  "é luó sī ": 10040,
  " mái ": 10041,
  " lǐ sī ": 10042,
  " zhǔ dòng ": 10043,
  " běn shū": 10044,
  " gé shì ": 10045,
  "tóng méng ": 10046,
  " 59": 10047,
  "   2017": 10048,
  " qiān zhì ": 10049,
  "pǔ zhài ": 10050,
  " jū zhù zài ": 10051,
  " pà ěr": 10052,
  "chè tuì ": 10053,
  " 1918 nián ": 10054,
  " chū xiàn le": 10055,
  "uk": 10056,
  "zài zhè": 10057,
  "rén gōng ": 10058,
  " xué shì ": 10059,
  " jiān de": 10060,
  " jìn dài ": 10061,
  " zì cǐ": 10062,
  "yán zhì ": 10063,
  "dān mài ": 10064,
  "tí gāo": 10065,
  "nà xiē": 10066,
  "tuō ": 10067,
  " yún nán shěng ": 10068,
  "miǎo": 10069,
  " ěr fū": 10070,
  "xì jù": 10071,
  "ine ": 10072,
  " fù qīn shì ": 10073,
  " suō xiě ": 10074,
  "   diàn yǐng ": 10075,
  " gū ": 10076,
  "de chuán ": 10077,
  "de bù fèn ": 10078,
  "de jué duì ": 10079,
  " dì 4": 10080,
  " xī lín ": 10081,
  " lǐ kè": 10082,
  " yán sè": 10083,
  " liú jīng ": 10084,
  " jiù xiàng ": 10085,
  " huí guī": 10086,
  " 1924 nián ": 10087,
  " qíng kuàng xià ": 10088,
  " gēng huàn ": 10089,
  " 1909 nián ": 10090,
  "zú qiú yùn dòng yuán ": 10091,
  "liǎo jiě": 10092,
  " guān zhuàng bìng dú bìng ": 10093,
  "pāng ": 10094,
  "   táng ": 10096,
  "   zhè ge": 10097,
  " xiā": 10098,
  " yǔ wén ": 10099,
  " xíng shǐ": 10100,
  " xiāng cūn ": 10101,
  " lā mǔ": 10102,
  " jiào shī ": 10103,
  "jìn rù ": 10104,
  " yù cè": 10105,
  " shī zhǎng ": 10106,
  "shēn tǐ": 10107,
  "nà rù": 10108,
  " hā sà kè": 10109,
  "ity": 10110,
  "   qì ": 10111,
  "   xiāng guān ": 10112,
  " zài qián ": 10113,
  " jì rèn ": 10114,
  " huì yǒu": 10115,
  " le duì ": 10116,
  " rèn nèi ": 10117,
  "shēng yá": 10118,
  " shǐ zhōng ": 10119,
  " zī shěng ": 10120,
  "yīng bàng ": 10121,
  " wēi ruǎn ": 10122,
  "cān tīng ": 10123,
  " guó jiā gōng yuán ": 10124,
  "tíng yùn ": 10125,
  " de yī xiē": 10126,
  " pī pàn ": 10127,
  "2 gè": 10128,
  "af": 10129,
  "de měi guó": 10130,
  " bù shì ": 10131,
  "jí jiāng ": 10132,
  " rèn tiān táng ": 10133,
  " duō xiàng ": 10134,
  "zhù yì ": 10135,
  " lián duì ": 10136,
  " hòu yòu": 10137,
  " běn kē": 10138,
  " shǐ tā": 10139,
  "zhòng yào ": 10140,
  "fú de": 10141,
  " mó ěr": 10142,
  "shā sǐ": 10143,
  "end": 10144,
  " kāi shǐ zài ": 10145,
  " niǔ ": 10146,
  " tōng cháng shì ": 10147,
  " mín zú zhǔ yì ": 10148,
  " gāi cūn shǐ jiàn yú": 10149,
  "lic": 10150,
  "zhè shì ": 10151,
  " hòu wèi ": 10152,
  "biàn huà": 10153,
  " xìn rèn ": 10154,
  " yán jiū shēng ": 10155,
  " ン": 10156,
  " shì wèi yú měi guó mì ": 10157,
  " nán jí tiáo yuē tǐ xì ": 10158,
  "tè ěr": 10159,
  " jí bié": 10160,
  "yī cháng ": 10161,
  "yì zhì ": 10162,
  " dàn shēng ": 10163,
  "duì wǔ": 10164,
  " hòu yīn ": 10165,
  " dōng yà": 10166,
  " cǐ lèi ": 10167,
  "zhòng de": 10168,
  " gē chàng ": 10169,
  " pǔ lín ": 10170,
  " diǎn de": 10171,
  " wū dǐng ": 10172,
  " 166": 10173,
  " dǎ pò": 10174,
  " guó jì jī chǎng ": 10175,
  " bāo wéi ": 10176,
  " cuò shī ": 10177,
  "luó mǎ ní yà": 10178,
  "CD": 10179,
  " s ": 10180,
  "   cān kǎo": 10181,
  " zài bèi ": 10182,
  " bù zhèng ": 10183,
  "zài gāi ": 10184,
  "zhōng zuì ": 10185,
  "lì yì ": 10186,
  " zhè liǎng ": 10187,
  "xiàn rù": 10188,
  "děng zhí ": 10189,
  "zǔ hé ": 10190,
  " 56": 10191,
  " fèi chú": 10192,
  " fāng miàn de": 10193,
  " bà ": 10194,
  "18 nián ": 10195,
  "2 mǐ ": 10196,
  "   mù": 10197,
  "   shè huì ": 10198,
  " wèi jiàn ": 10199,
  "tā shì ": 10200,
  " kē xiǎo xíng xīng ": 10201,
  " qīng xiàng ": 10202,
  " rén mín fǎ yuàn ": 10203,
  " lǐ hé": 10204,
  "chuān xiàn ": 10205,
  " yǐ hòu ": 10206,
  "lìng rén ": 10207,
  "xí jī ": 10208,
  "zāo yù": 10209,
  "   1949 nián ": 10210,
  "hēng lì ": 10211,
  "CA": 10212,
  "nǎo ": 10213,
  "ong": 10214,
  "zhī dì ": 10215,
  "zhī shí": 10216,
  " dài mǎ wèi ": 10217,
  "chū dào ": 10218,
  " zuì wèi ": 10219,
  " kē huàn ": 10220,
  " zhǐ de shì ": 10221,
  " chǎng de": 10222,
  " zhuǎn huì ": 10223,
  " zuì zhōng zài ": 10224,
  " dōng nán bù ": 10225,
  "layStation   ": 10226,
  "it ": 10227,
  "zhōng zhèng ": 10228,
  " dà pī": 10229,
  " xué zhě ": 10230,
  "zhàn hòu": 10231,
  "jīng lǐ": 10232,
  " wèi yú zhōng huá rén mín gòng hé guó": 10233,
  "dǐ céng ": 10234,
  "yán jiū yuàn ": 10235,
  " nán jí tiáo yuē tǐ xì guǎn lǐ ": 10236,
  " shǒu de": 10237,
  " jūn rén ": 10238,
  "miàn lín ": 10239,
  " wáng wèi ": 10240,
  " yòng tú": 10241,
  " jǐn cì yú": 10242,
  "   2023": 10243,
  "yáo ": 10244,
  "qiāo": 10245,
  " de shè jì ": 10246,
  "àn lì ": 10247,
  "shí rèn ": 10248,
  " xīn xīng ": 10249,
  " miàn lín ": 10250,
  " cǐ shì ": 10251,
  " gǎi gé ": 10252,
  "yǐn yòng ": 10253,
  " lì shǐ xué jiā": 10254,
  " zú qiú jù lè bù ": 10255,
  " fǒu rèn ": 10256,
  "tà": 10257,
  " sú ": 10259,
  " cāi ": 10260,
  "hé yuē ": 10261,
  " zài yuán ": 10262,
  "nán fāng ": 10263,
  " mín zú ": 10264,
  "xiào yìng ": 10265,
  " jiā rù le": 10266,
  "jū mín diǎn ": 10267,
  "cù jìn ": 10268,
  "UN": 10269,
  "nù": 10270,
  "shàng shēng ": 10271,
  " zhōu kān ": 10272,
  "jiān dū": 10273,
  " zǔ xiān ": 10274,
  "gǎi zào": 10275,
  " èr ": 10276,
  " yǐ hòu": 10277,
  "ick": 10278,
  " chǎn shēng le": 10279,
  "ā jī": 10280,
  " de zhèng ": 10281,
  " yīn móu": 10282,
  " lián jūn ": 10283,
  " zǒng lǐ ": 10284,
  "xiǎo píng ": 10285,
  " tóng nián 11": 10286,
  " xiě dào ": 10287,
  " zài 193": 10288,
  " yī lì nuò": 10289,
  "ǐ yā": 10290,
  " lù yīn ": 10291,
  " jù shuō": 10292,
  " dìng qī": 10293,
  " xìng shì ": 10294,
  " qīng dài ": 10295,
  " nà de": 10296,
  " cān jiàn ": 10297,
  " pǐn zhì ": 10298,
  "ons": 10299,
  " yóu xì de": 10300,
  "xiě dào ": 10301,
  "zǔ zhī de": 10302,
  " zhì zuò de": 10303,
  " sāi bài jiāng ": 10304,
  "gā": 10305,
  " tuǐ": 10306,
  " wèi cǐ": 10307,
  " yuán hé": 10308,
  "xī xī": 10309,
  " qián zhě": 10310,
  " 57": 10311,
  " ào zhōu": 10312,
  " pí fū": 10313,
  "nóng cūn ": 10314,
  "   and   ": 10315,
  "guó wù yuàn ": 10316,
  " yǒu xǔ duō": 10317,
  "wéi wú ěr": 10318,
  "hú běi ": 10319,
  " guān zhù ": 10320,
  " xiàng dōng ": 10321,
  "jiè de": 10322,
  " shèng yú": 10323,
  " lǐng tǔ ": 10324,
  " róng liàng ": 10325,
  " yán jiū yuàn ": 10326,
  "rop": 10327,
  " ná pò lún ": 10328,
  " chè tuì ": 10329,
  " zǒu xiàng ": 10330,
  " sǔn shī": 10331,
  "měi guó rén kǒu pǔ chá ": 10332,
  "TAT": 10333,
  "luán ": 10334,
  "shì yè": 10335,
  "2000": 10336,
  "dà qì ": 10337,
  " dé piào": 10338,
  " fēn zhī ": 10339,
  " mǎ lǐ": 10340,
  "lù zhì ": 10341,
  "shǒu bō ": 10342,
  "jiē dào ": 10343,
  "ens": 10344,
  "zhēn sì ": 10345,
  " 1925 nián ": 10346,
  "AI": 10347,
  "man ": 10348,
  "hé hé": 10349,
  "wèi 1": 10350,
  "zài nèi de": 10351,
  " tā cóng ": 10352,
  " jì néng ": 10353,
  "duì xiàng ": 10354,
  " hòu xù": 10355,
  " cūn mín ": 10356,
  "bái sè": 10357,
  " 1914 nián ": 10358,
  " jiě fàng jūn ": 10359,
  "chái yóu jī": 10360,
  " xū ": 10361,
  " sān dà": 10362,
  "cháo tíng ": 10363,
  "mì mì ": 10364,
  "ech": 10365,
  "de shí hòu ": 10366,
  " zài xiàn ": 10367,
  "yī zhí ": 10368,
  " zhàn shèng ": 10369,
  " guān lián ": 10370,
  " suì shí ": 10371,
  "   yù": 10372,
  " yǐ wǎng ": 10373,
  " bèi rèn wéi ": 10374,
  " bó gé": 10375,
  " yè de": 10376,
  " 2021": 10377,
  " xiū fù": 10378,
  " huán qiú": 10379,
  "CT": 10380,
  "SS": 10381,
  "uni": 10382,
  "   mín guó": 10383,
  "wèi dì ": 10384,
  " huì bèi ": 10385,
  " bìng duì ": 10386,
  " zhàn zǒng rén kǒu": 10387,
  " xīn zhú": 10388,
  " sān jiǎ": 10389,
  " gé lái ": 10390,
  " wǔ shì ": 10391,
  " jiù zài ": 10392,
  "néng yuán ": 10393,
  " jiǎn shǎo ": 10394,
  " chóng fǎn ": 10395,
  "att": 10396,
  "zhōng xīn de": 10397,
  "suí zhe": 10398,
  "zhèng zhì jú": 10399,
  " tú àn ": 10400,
  "yst": 10401,
  "   zhè xiē": 10402,
  "hé yī": 10403,
  " bù qiāng ": 10404,
  "shí pǐn ": 10405,
  " zhì huì ": 10406,
  " jiāng yú": 10407,
  " fēi ěr dé": 10408,
  "bó lín ": 10409,
  "jiǎng shù": 10410,
  " о": 10411,
  "os ": 10412,
  "   13": 10413,
  " xuàn ": 10414,
  " de bù fèn ": 10415,
  " yuán yǒu": 10416,
  " shè xiàn ": 10417,
  " qián de": 10418,
  " shǒu duàn ": 10419,
  "lái shuō": 10420,
  " lèi de": 10421,
  " mǐ lán ": 10422,
  " shì jiè shàng ": 10423,
  "fāng miàn de": 10424,
  " zǔ chéng bù fèn ": 10425,
  " zhǐ huī guān ": 10426,
  "ān nà zhōu": 10427,
  " shì jué": 10428,
  " lì táo wǎn ": 10429,
  "shí sì ": 10430,
  "bù jǐn ": 10431,
  " dà zhèng ": 10432,
  " 1919 nián ": 10433,
  "yī zhī": 10434,
  " kè lǔ": 10435,
  " yán lùn ": 10436,
  " dān xīn ": 10437,
  " cháng zhù": 10438,
  " nián 10 yuè 1 rì ": 10439,
  "NH": 10440,
  " dì tú": 10442,
  " dà jiā": 10443,
  " dà lǐ": 10444,
  "yī zuò": 10445,
  "fāng yán ": 10446,
  " chū dào": 10447,
  " xiāng lián ": 10448,
  " qī zǐ ": 10449,
  " sù sòng ": 10450,
  "ond": 10451,
  "de shēng ": 10452,
  "zài běi jīng ": 10453,
  "bù jí": 10454,
  " tè lǎng pǔ": 10455,
  " dōng rì běn ": 10456,
  " gǔ dōng ": 10457,
  " dù de": 10458,
  "liǎng guó": 10459,
  " 153": 10460,
  " jǔ zhèn ": 10461,
  "shōu cáng ": 10462,
  " H ": 10463,
  " fēn bù zài ": 10464,
  " 1922 nián ": 10465,
  " huái yí": 10466,
  " dié ": 10467,
  "píng yuán ": 10468,
  "jié guǒ ": 10469,
  " shěng dào": 10470,
  " xiàn shí yóu nán jí tiáo yuē tǐ xì guǎn lǐ ": 10471,
  "náng ": 10472,
  "é wài ": 10473,
  " pèng ": 10474,
  " yí dàn ": 10475,
  "yǐ běi ": 10476,
  " dài tì ": 10477,
  " fú lì ": 10478,
  " měi guó guó jiā": 10479,
  " jiǎ jī": 10480,
  " fù zé rén ": 10481,
  "chà ": 10482,
  "−": 10483,
  "é jūn ": 10484,
  " de wài ": 10485,
  "chǒu": 10486,
  " zài běi jīng ": 10487,
  " yī rén ": 10488,
  " bèi rèn mìng wèi ": 10489,
  " xié dài ": 10490,
  "zī běn ": 10491,
  " dǎng zǔ": 10492,
  "jié shù hòu": 10493,
  " lèi sì de": 10494,
  " pái míng dì ": 10495,
  "   zhì zuò ": 10496,
  " chuí zhí": 10497,
  "edi": 10498,
  " rì bào ": 10499,
  "bù zú ": 10500,
  "gōng dǎ": 10501,
  "jī zhòng ": 10502,
  " yīn sù ": 10503,
  " xiāng jì ": 10504,
  "jīng diǎn ": 10505,
  " luó mén ": 10506,
  " 2015": 10507,
  " qǐ diǎn ": 10508,
  "bān jiǎng ": 10509,
  " 176": 10510,
  "zēng qiáng ": 10511,
[...]
