#version: 0.2
n g
h Ã
Ã ł
Ä ģ
Ã ¬
Ã ¡
Ä «
Ã ¨
Ç İ
Ġ Ġ
Ã ©
Ã Ń
s hÃ
Ã ¹
Ã¡ n
z h
Ç Ĳ
Å į
j i
d e
Ãł n
Ä ĵ
z hÃ
s h
Ä Ľ
Ã ³
Ç Ķ
x i
Ã ²
Ã º
Äģ n
ĠĠ Ġ
Ãł i
Å «
Åį ng
Ç Ĵ
ã Ģ
shÃ ¬
h u
Ã¨ i
g u
i Ã¡n
hÃ ©
Ãł o
Äģ ng
ÃŃ ng
y u
Çİ n
c h
n iÃ¡n
y Ä«
Çİ ng
Ã© n
ÇĴ u
Ã¬ ng
w Ã¨i
Çİ o
z Ãłi
ãĢ ģ
j Ä«
Äĵ ng
zh Åįng
x Ä«
b Ã¹
j Ã¬
Ãł ng
l i
zhÃ ¨
shÃ Ń
d Ã¬
gu Ã³
y Ãº
r Ã©n
Ã² ng
c hÃ
Äģ o
d u
c hÃ©
y ÇĲ
l Ã¬
Ã¡ ng
y Ã¬
u Ã²
Ã¡ i
zhÃ ¬
chÃ© ng
Ã© i
x u
g Åįng
j ÃŃ
² u
ÄĽ i
i Ãłn
Äĵ n
Ã³ ng
yu Ã¨
y ÇĴu
yu Ã¡n
d Ãł
q i
Åį u
l ÇĲ
2 0
Ã³ u
Äģ i
xi Ãłn
ji Äģ
s Ä«
Å« n
x ÃŃng
y ÇĶ
Ã¨ n
ÇĴ ng
ÃŃ n
t Äģ
r Ã¬
zh Ä«
hÃ ²u
Çİ i
g Ã¨
zhÃ ł
Ã© ng
l e
w Ã©i
hu Ã¬
d Ãło
1 9
b i
shÃ ł
q Ä«
q ÃŃ
shÃ ¨
s u
zhÃ¨ ng
m ÃŃng
ji Ãłn
xu Ã©
ch Å«
y Ã¹
ÄĽ ng
z uÃ²
sh Äĵng
du Ã¬
y Ã³u
q Å«
shÃł ng
ÄĽ n
d Ã©
l Ã¹
b Ã¨i
chÃ ¡
t i
sh ÇĲ
zhÃł n
zh ÇĶ
Äĵ i
q u
j Ã¹
xÄ« n
j Å«n
zh u
ÄĽ r
Ã¡ o
shÃ ¹
u Ã¬
r Ã¨n
f Äģ
w Ã¹
b Ã¬ng
k Ã¨
Ã© r
d Ãłi
y ÃŃ
jÃ¬ n
z Ã¬
yÄ« n
f Ã¹
f Äģng
jÄ« ng
n Ã¡n
hu Ãł
x Ã¬
zh Åįu
p ÃŃng
Ã² u
xi Ãł
l Ã¡i
y Ã²ng
sh u
gu Äģn
t Ã³ng
ãĢ ĭ
ãĢ Ĭ
f Çİ
zhÃ ¹
m ÄĽi
hÃ ¡
Â ·
ji Äģn
j ÇĲ
hu Ã²
d Ã¹
c hu
b ÄĽn
xi Äģng
zhÃ Ń
d Ã²ng
xi Ãłng
m ÃŃn
ji Äģng
f Äĵn
sh ÇĴu
qu Ã¡n
w Ã©n
y Ã¡n
hÃ ł
su ÇĴ
ji Ãło
q iÃ¡n
d iÃłn
t Ã¨
d i
du Åį
Ãº n
z uÃ¬
k Äģi
t u
ji Ã©
l iÃ¡n
zh ÇĲ
k ÄĽ
d Ãłn
m Ã¹
y Ã¨
f Ãº
m Çİ
y ÄĽ
d Åįng
qi Ãº
b ÄĽi
ãĢ Į
ãĢ į
g Äģo
y Ãł
q ÇĲ
ji Äĵ
m iÃłn
h Çİi
zh Çİng
sh Ä«
jÄ« n
c ÇĲ
l u
n Ã¨i
t ÇĲ
s Ãłi
s Äģn
t Ã¡i
g Ã©
x Ã¬ng
gu Ã²
r Ã¹
20 1
d ÄĽng
y Ãło
j u
ch Äĵ
c Ã¬
w ÇĶ
g Äģi
d Ã¬ng
chÃ¡ ng
bi Çİo
l Äģ
g Ã²ng
ji Ã¨
shÃ ²u
d Çİo
sh Äģn
ch Çİng
s Ã¬
b ÇĲ
z Ã©
t ÃŃ
k Äĵ
d Äģng
n Ã©ng
Ã¨ r
w Ãłi
d Äģn
x Ã¹
z i
k ÇĴu
xi Çİo
z ÇĶ
b Äģ
ju Ã©
l ÃŃn
li Ãº
sh ÄĽng
yÄ« ng
k u
l Ã¡n
lu Ã³
t Åįng
20 0
Ä« ng
² ng
m ÇĲ
zhÃ ²ng
e n
zh ÄĽ
sh ÇĶ
ti Äģn
zhÃ¨ n
Ç ļ
q Ã¬
zh ÇĴng
li Ã¨
ch Äĵng
sh Å«
yu Ãłn
b Çİo
t Ãłi
f ÇĶ
f Äĵng
g ÇĶ
qÄ« ng
sh Äĵn
w Ã¡ng
yÃ¹ n
gu Çİn
f Äĵi
ji Ã¹
li Çİng
c Ã©ng
m Ã©i
1 0
f Ã¨n
hÃł o
³ ng
y Çİn
w ÄĽi
z ÇĴng
xu Çİn
xi Ãło
d Ã¡
n Ãł
li Ãłng
b Åį
z Ãº
j Ã¬ng
b Ãło
n ÃŃ
w Ãº
t ÇĴng
hu Ã¡
ji Äģo
yu Äĵ
yÇĲ ng
b iÃłn
xÄ« ng
s Ã¹
shu ÇĲ
y Ã¡ng
hÃ ¹
m en
b Äģo
g Äĵ
b Ã³
c Äģn
c Ã³ng
di Çİn
b Ã¬
r Ãº
b Ãłn
bi Äģn
w Çİng
q ÇĶ
m i
ch Çİn
s Ã¨
z Ä«
chu Ã¡n
0 0
shÃ¨ ng
r Ã¡n
t Ãº
zh Äģng
p ÇĶ
g Çİi
g Çİng
n Çļ
l Ã¬ng
l uÃ²
y Ã²u
t Ã³u
c Ã¨
l Ç
chÃ Ń
1 8
lÇ ľ
qi Äģn
shÃ ©
l ÃŃ
d Åįu
p ÇĲ
1 2
zh Äĵng
n i
k uÃ²
sh Äģ
d Çİng
f Çİn
g Ã²u
l Ã¨i
x ÃŃ
jÇĲ ng
tu Ã¡n
w Äĵi
xi Äĵ
lÇĲ ng
l Ã³ng
gu Ä«
xi Äģn
r Ã³ng
hu Ã¡ng
xi Çİng
b Äģn
ji ÇĶ
y Ã¬ng
m Ã©n
sh Äģng
shÃ© n
20 2
b Çİn
k Çİ
m ÇĶ
jÇĲ n
f Å«
j ÇĶ
m Ã³
gu Çİng
c ÃŃ
shu Åį
q ÃŃng
zh Çİn
hÃ¡ i
zhu Äģng
m Ã²
c Ã¡i
d Ãº
1 1
pÇĲ n
t ÃŃng
chÃ¡ o
y ÃŃng
ti Ã¡o
ji Çİn
t Ã¡ng
hu ÃŃ
du Ãłn
chÃ© n
g Äĵn
m Ã¬
w Ãłn
p Ã¡i
w Äģn
z Ãło
hÃ¡ ng
w Ã¡n
bi Äģo
g Ã¹
l Ãºn
19 9
xi Ã©
ji Çİng
hÃł n
j Ãº
f Ãłn
f Ã¡ng
hu Ã³
hÃ¡ n
p i
k Åįng
o r
ti ÄĽ
m Ã©ng
bi Ã©
w Å«
ji ÄĽ
zhu Äģn
yÇĲ n
x Å«
zh Äĵn
d ÇĲ
e r
chÃ º
hÃ º
ji Ãł
b Ä«ng
m Ã¬ng
l ÃŃng
hÃ ³ng
qÄ« n
z ÇĲ
lÃ¹ n
xÃ¬ n
chÃ ¹
ch ÇĶ
s Å«
a n
xi Å«
z Åįng
1 5
qu Ã¨
xi Äģo
zhÃł o
qi Ã¡ng
q Ã¹
c Å«n
chÃ ³ng
p iÃłn
ji Å«
f Ãłng
su ÃŃ
sh Åįu
gÃ¨ ng
â Ģ
gu Äģng
Ã¨ ng
j Å«
o n
ji Çİ
chu Ãłng
d ÃŃ
1 6
zhu Çİn
gu ÇĴ
xÃ¹ n
m Ãłn
p Ãłi
f Ã¨i
p Ã¨i
19 8
d Çİ
tu Åį
l a
xu Äģn
b Ã¡i
zh Å«
d Å«
t ÇĶ
di Ãło
xi Ã¡
li Ã¹
1 7
su Ã¬
hu Ä«
t Ä«ng
qi ÄĽ
t Çİ
qi Ã¡o
h Äģ
g Çİn
z Äĵng
xi Çİn
m Ãłi
hu Ã¡n
x ÇĶ
w Çİ
tu Ä«
w Ã¨n
ch Äģo
t iÃ¡n
b Çİi
c Çİi
li Ã¡ng
y Ã¡
s Ãł
a r
b Ãłi
c Ãºn
ji Çİo
sh Çİo
y Ãłn
zhu Ãłng
hu ÇĴ
l Ã©i
1 4
z u
ji Ãłng
chu Äģn
yÃ¬ n
z Çİo
chÃ ł
y ÇĴng
s ÇĲ
d Äĵng
3 0
zhÇĶ n
l Ã¨
x Ãºn
n uÃ²
k Ã¹
hu Ãłn
s Ã²ng
g Ãło
l ÇĶ
1 3
19 4
b Äģng
l Çļ
p Ä«
y Ãłng
h ÄĽn
q Ãºn
zh ÄĽng
gu Ãłn
p Ã²
g Äģng
w ÇĴ
19 7
hu Äģ
l Äĵi
h Çİo
t Ã¡o
ku Ãłng
hÃ ¨
i n
dÃ¹ n
n Ã³ng
g ÄĽi
s Äģi
shu Äģng
li Ãłn
ku Ãłi
d Ä«
b Ä«
p Ãłn
xi ÄĽ
19 5
k Çİo
g Ãłi
h Äĵi
w Ãłng
li Ãło
r Ã¨
g e
zu ÇĴ
k Ã²ng
19 6
y Äģng
chÃł ng
y ÃŃn
³ u
r Ã©ng
s Äĵn
b Äĵi
l Ãº
pi Ãło
y Äģ
2 5
bÄ« n
âĢ Ķ
r Ãłng
ch Åįng
l Ã³u
b ÇĶ
l Çİo
zhÃ º
jÃ¹ n
y Çİng
r uÃ¬
y Äģo
xi Ã¡n
xi Ã¨
n iÃłn
f or
y Åįu
t Ã¡n
k Äģng
p ÃŃ
hÃ© ng
yÃº n
x ÇĲ
k Ãłn
n ÃŃng
li Ã¡o
shÃł o
b Ãº
2 4
qÇĲ ng
ch ÇĲ
m u
d Ã²u
mi Çİn
y Åįng
t Çİn
w Çİn
h Å«
f Äģn
a l
t Å«
g Äģn
su Ãłn
d Ä«ng
yu Çİn
w Äĵn
t uÃ¬
zh e
2 1
s t
xi Ã¹
b Çİ
m Çİn
19 3
2 3
mu la
k Ãłng
for mula
2 8
t h
m Ã¡o
r uÃ²
pi Äģn
chÃ ¨
m Ãło
l Çİng
q ÃŃn
b Ã¡
n Ã¡
z Ãłn
gu ÇĲ
gu Ã¬
o u
p ÃŃn
w Ã²
xi Ã³ng
shÃł n
r e
2 2
xi Åįng
m e
su Ä«
Ã ¼
2 6
sh ÄĽn
q Ã¬ng
mi Ã¡o
f Çİng
5 0
20 20
2 7
l Ã¡ng
r u
qi Å«
s Åįng
Ã¼ Ã¨
d Ãłng
g Äĵng
qi Äģng
r i
f Ã¡
z Äģo
f Ã¨ng
zhÃł ng
ï ¼
hÃ¡ o
d Å«n
z ÇĴu
hÃł i
qi Ã¨
2 9
t Ãłn
p Ãło
p Ãł
shÃ¹ n
p Ã©ng
xu Ã¡n
201 0
n ÇĲ
00 0
dÇĲ ng
ni ÇĶ
z Çİi
zh Äģo
zhu Ä«
l Ã¼Ã¨
ch Å«n
20 19
h Å«n
k ÇĴng
du Äģn
shÃ¨ n
xi Ã¡ng
du Çİn
g Ãłn
t e
r o
k Äģn
l Ã¡o
c Çİo
201 6
s i
g Å«
p Ã©i
201 8
ku Çİn
z Ã¡
s Å«n
y Ã©
y Çİ
p Åį
202 1
r a
chÃ ¬
du Ã³
201 4
f Ã¡n
201 1
201 5
c uÃ²
201 7
zhÃ ©
y Ã¡o
p Äģi
t Ã²u
c Ã¡ng
201 2
4 0
k Çİi
201 3
202 2
m ÃŃ
ru Çİn
su Äģn
ch Äģ
z Ãłng
mi Ãło
l t
200 9
zh Çİo
200 8
hu Ã¡i
ã ĥ
c e
6 0
a m
c u
xu Ã¨
chÃ ³u
s e
b Çİng
m Ã¨ng
10 0
t Ã¬
p Ãº
n Çİo
202 3
zhu Ãłn
g t
l ÄĽi
19 0
3 1
c Ãłi
c Ã¹
s Ãłn
m Ã³u
ti on
t a
hÃ¹ n
ÇĶ n
ku Äģn
200 7
ni Ãº
m ÇĴu
t Çİo
di Ã©
200 1
o l
t Ã©ng
s Åįu
k ÄĽn
qi Çİn
ch Äģng
r Çİn
qu Äĵ
f ÇĴu
s ÇĶn
e l
b Ãł
200 0
8 0
k Ãło
su Åį
200 6
ni Çİo
chÃº n
m a
202 4
l Çİn
ã ģ
z Äģi
zhÃ ¡
xu ÄĽ
hu ÇĲ
lu Ãłn
tÇĲ ng
200 5
z Å«n
b Ãłng
l Ãł
hu Äģn
r Çİng
sh uÃ¬
mÇĲ n
3 5
l Ãłi
c Äģng
7 0
f Ã³
p Ã¡n
o f
n Ãłi
w ÄĽn
e t
c Äģo
s Äģng
p Ã¡ng
9 0
bÇĲ ng
ï¼ į
zh Äģ
ã Ĥ
shu Ãłi
ni Ã¨
e s
hÃ ³u
m Ã¨i
sh Äģo
n ÇĶ
d ÇĴng
i l
a t
o w
f Ã©ng
mi Ã¨
yÇĶ n
z Ã²u
m Çİi
hu Ãłi
200 4
4 5
y Äģn
c o
4 8
th e
zhu Ã³
an d
t er
h e
t Ãło
n Çİi
k Å«n
202 5
zh ÄĽn
c k
r ÇĶ
ku Ãł
ku ÃŃ
ãĢ ī
ãĢ Ī
g Åįu
3 6
cu Ä«
3 8
sh Çİn
r Ã²u
di Äģo
200 3
h ÇĶ
gu Åį
3 7
c uÃ¬
n e
x Ãº
m Ã¡ng
ju Çİn
c Ã¡n
di Äģn
zh Äģn
c Ã¡o
18 9
I N
200 2
i s
b o
k Äĵng
T C
v e
3 4
m Ã¡
l ÄĽng
a s
z Å«
7 5
âĢ ĵ
s Ãº
qu Äģn
d Äģ
t o
ch Äģi
n u
l Ãłng
kÃ¹ n
4 6
t Ãºn
f ÄĽn
199 0
âĢ ¦
zhÃ ²u
sh Çİng
r Ãło
h Äĵng
t Ä«
x Å«n
3 9
n Ã¨
. .
p Ã¬
n Ãłn
p Äģn
6 5
h Åįng
shÃ º
t Äģn
C h
t Äģng
k Çİn
M a
n Ã¬
3 2
I n
S T
4 7
h Çİn
i t
U TC
q iÃłn
199 9
199 8
198 0
18 8
5 00
3 3
6 4
qi Çİng
sh uÃ²
p Çİo
l o
b e
k Äģ
zhÃ¡ i
S E
5 5
qu Ãłn
n Ä«
d Ã¨ng
199 7
T he
m iÃ¡n
4 9
g Çİo
I I
6 8
C o
v i
sh ÄĽ
z Ã¨ng
R e
h an
zhÃ ³u
zhÃł i
4 4
199 6
n a
ti Äĵ
d Äģo
a d
b r
199 4
v er
f Ã©i
z Ã²ng
qi Ã³ng
c i
ti Ãło
chu Ã¡ng
199 2
b a
chu ÃŃ
ju Äģn
chÃ¡ i
mi Çİo
gu Äģ
xu Äĵ
t Ã²ng
199 5
f ÄĽi
ch Ä«
o o
m ÄĽng
w Åį
6 7
i r
shu Äģi
tu Ã³
chu Äģng
hu Çİn
199 1
197 0
5 8
a y
195 0
c a
n d
gu Ãł
chÃ¡ n
3 00
w Äģ
199 3
18 7
194 9
p e
s Äģ
ti Çİo
A T
196 0
bi Çİn
4 2
194 5
i ng
gu Ãłi
a u
k ÇĶ
n Ãº
198 8
d ÇĶ
198 9
i g
p Ã¹
6 9
li ÇĶ
g ÇĴng
SE E
t uÃ²
am p
c t
li Çİo
IN SEE
5 9
t Äģi
4 3
6 6
chu Ãłn
o p
chÃ¨ n
o s
5 7
198 5
hu Äģng
9 9
S A
ãĢ İ
cÃ¹ n
ãĢ ı
198 4
hÃº n
4 1
p Å«
l y
u s
k Ã²u
f Ã©n
8 8
198 6
r Çİo
m p
S t
i d
rÃ¹ n
T V
15 0
zhu Åį
in d
4 00
s Çİn
198 7
7 8
u n
e d
h a
198 2
5 6
L i
u r
ar d
nu Ã³
198 3
N A
gÇĶ n
R o
D e
s s
m Äģ
t ou
pÃ¬ n
C D
ch Åįu
b er
g ÇĴu
qu Çİn
M i
7 7
zh Äģi
M e
qi Ãł
m Äģo
qi Çİo
M ar
t w
k Å«
ku Ã¡ng
r Ã³u
de r
7 9
l Ã²u
O S
Â °
k uÃ¬
s Ãłng
ï ½
A l
18 0
t y
B C
5 4
197 9
6 1
19 20
a ng
p Äĵn
9 8
s Äĵng
5 2
Y ou
a p
197 8
n Ã¹
w Äĵng
6 2
y Äĵ
du ÇĴ
L e
5 3
xÇĲ ng
ju Ãłn
ï½ ŀ
B A
k e
194 6
t s
C O
m o
c tion
5 1
195 8
198 1
V i
197 2
194 8
zhu Ã¬
c Åįng
t Åįu
A M
h i
6 3
m an
ow s
A R
r y
194 1
W ind
B S
w Ã¡
li Çİn
19 30
M o
P ro
lu Çİn
ku Äģng
q Ãº
tu ÇĴ
k Ã©
7 6
han s
v a
194 0
193 7
c on
197 6
zu ÇĲ
194 4
J o
8 9
197 5
u m
ï¼ ı
T e
196 8
ni Ã¡ng
p Ã³
shu Äģ
h k
yu Äģn
t Äģo
p er
w Äģng
g a
10 00
r an
Wind ows
9 5
N e
b ÃŃ
s Çİo
d a
8 7
196 6
8 5
f Ãł
p Äĵng
6 00
l Ãłn
S e
S ta
s p
1 20
194 7
G a
A r
o t
g Äģ
195 6
A C
196 4
d Çİn
c Å«
194 2
195 5
ch ÇĴu
la y
195 2
193 9
I S
193 8
7 2
7 4
h t
r ÄĽn
197 3
a ce
f i
197 4
195 4
qi Äĵ
E D
19 00
- -
B e
A P
or e
194 3
197 7
D a
197 1
pÄ« n
p ÇĴ
m Ã¡n
196 7
shÃ© ng
men t
I C
8 00
E R
L a
8 6
195 9
b Äĵng
s on
196 5
J R
196 9
R a
du Ä«
D i
o k
p Ã©n
ãĥ »
Ã Ĺ
qi Ãło
chu Ä«
I D
qi Äģo
S u
in e
193 6
16 0
9 7
b Äĵn
zhu Äģ
en t
195 3
S a
196 2
M A
T u
ti c
196 1
l ÇĴng
a tion
â Ķ
193 5
t Ãł
m Ã¡i
S h
9 6
O N
a k
ï¼ ħ
195 1
195 7
196 3
L o
âĶ Ģ
on e
r ou
8 4
J a
202 6
d o
c Çİn
8 2
g i
b u
m er
7 3
p o
9 4
t Å«n
9 2
S o
A N
I P
A n
h o
a li
193 3
M u
193 1
n Ã¡ng
ni Ãło
le s
7 1
b Ã¡o
nu Çİn
l Ã©ng
p Ã¡
8 3
9 3
a i
W e
8 1
d ÇĴu
19 18
st a
H D
B o
s Äģo
U ni
19 28
lu Ã¡n
k i
193 2
w i
n Ã¨n
c ol
in t
M V
S S
ou r
1 10
t Ã¹
I T
19 12
al l
19 29
tu ÇĲ
du Ã²
19 27
c n
193 4
ar e
P a
7 00
g Ã¡
ch e
b y
te d
st er
hu Çİng
S i
25 0
f f
9 1
m m
P ar
z Ã©i
R i
19 24
p p
p h
.. .
19 19
ku Ä«
H e
s o
xu Ãłn
1 30
pi Äģo
n o
19 25
P S
P lay
p Äģo
14 0
xi Äģ
B u
C a
S M
C on
S p
P C
19 14
b le
st e
zh Çİi
k m
D V
zh Äĵ
E n
me s
You Tu
co m
B a
h Äĵ
F i
T i
di Äĵ
el l
g ra
l Çİ
A S
i a
19 11
W i
sh i
en d
il l
n Ã¼Ã¨
an a
ar a
G e
19 26
de n
19 22
N a
n Çİ
si on
hÃ¨ n
19 17
E T
N BA
I V
shu ÃŃ
c Äģi
r Ã¡o
E N
19 23
ar t
19 21
f e
p Ã¨ng
s a
k a
ku Äģ
G oo
th er
ch ÇĴng
T o
17 0
à ¸
E C
l d
m Çİo
n Ã²ng
A L
H a
M S
se ction
N i
YouTu be
E P
h n
B L
19 13
ti Äģo
J u
H K
le r
â Ĩ
han t
gÃ¹ n
190 9
g in
In ter
c ro
S te
M P
A I
H o
g ÄĽng
W or
n Ãło
P o
f ÄĽng
D o
lu ÇĴ
U S
an t
g o
y a
DV D
or t
z Åįu
ri s
3 000
P i
c Äģ
C ar
19 10
R O
D S
T h
1 12
A K
M y
p en
R E
p ro
v en
19 16
Sta tion
ãĥ ¼
c huÃ²
N et
Î ±
K i
S ch
ol o
N o
ar i
tu re
g n
L in
C P
U N
g le
â Ī
er s
hÃ© n
19 15
ou n
ni Ãłng
190 5
F C
m y
L u
l l
W il
C N
â Ħ
âĨ Ĵ
190 1
F a
A u
ti ng
Ne w
D NA
E x
âĢ §
ar y
9 00
P h
si c
H R
di ce
si s
. &
C H
z ÄĽn
T A
di a
Q u
T O
190 6
le n
190 4
chu Çİng
A V
F or
g ÄĽn
Jo hn
w e
er e
A nd
M O
di ng
co dice
ch Çİo
ji ÇĴng
âĦ ĥ
T a
p a
p s
Play Station
f u
k o
w Ãł
b Ã¨ng
0 5
C C
t on
v o
er i
di Å«
190 7
190 8
Goo gle
A G
E ST
M I
zu Ãłn
S O
or y
te s
L E
G u
ji Ã¡
zu Çİn
c y
l Ä«
ch i
le y
B O
en ter
B BC
A D
I G
c al
II I
C u
c ri
of t
15 00
R u
li n
5 000
or i
zu Äģn
p u
G o
I ST
sh Äĵ
lÇ ĺ
F e
C ol
w or
S y
K a
M E
ti ve
C R
g en
3 D
w it
rou nd
I A
gu Çİ
10 5
j e
r on
m Ãł
Ð °
10 1
190 3
G B
p Ä«ng
ch a
shÃ ¡
l an
0 9
T E
re e
A d
H u
c Ãłn
c Ã©n
190 2
B D
N C
l and
c an
z e
ow n
es s
p Äģng
x t
3 50
w a
in a
SA O
shÃ¡ o
D C
n et
sp an
de s
Î ²
g ht
lÃ¬ n
en ce
B 1900
in c
bo ok
de l
E S
B M
ï¼ İ
d y
ãĥ ³
H i
189 8
0 6
1 18
P e
m s
ãģ ®
l Ã¡
p t
qÇĲ n
te l
3 60
D R
m on
0 1
D A
g h
O pen
189 5
l Ãło
y le
12 5
m Ãº
la r
b Ã¨n
H O
K o
M C
an ce
AT P
Mi cro
Ð ¾
10 8
g y
N G
p Åįu
ig h
s y
c or
t t
di o
K e
qi Ã©
z a
A pp
P u
ni ng
gra m
I F
F ran
f t
re s
Co m
ti n
âĪ Ĵ
0 7
0 8
2 30
F ace
10 4
D u
re f
O ne
Wor ld
ol d
S er
s oft
ED T
IST AT
M on
S tu
sh Äģi
s ÇĴng
à ¤
N O
n er
189 6
C or
L L
B i
g er
lu s
10 9
D P
y Å«
la s
A A
f li
Co mp
re a
g ÄĽ
R I
v el
r en
li ne
R T
su ÇĲ
S P
xi Ã¡o
qi Çİ
E X
r ÄĽ
B ar
B ri
li ng
ber t
B 48
10 6
18 90
ct or
C ST
S an
M L
CD T
Lo ve
it y
m ar
z Äģng
ro w
D O
wi th
H E
f a
P er
p Äĵi
w ard
H ar
M an
d s
tion al
ta in
j a
0 4
4 000
11 5
cu Ãłn
1 200
k y
u x
ou nd
ig ht
M 1
0 3
G P
p Ã¡o
C E
ba ck
188 9
be gin
J e
189 9
o ol
col span
187 1
ri ng
E d
R S
ow er
mi c
Face book
lu de
Wil li
Micro soft
âĢ ĭ
24 0
tu r
Ma c
16 00
L O
Li ve
B E
ck et
10 2
c c
k er
bo x
T T
189 7
G i
N H
E E
chÃ ²u
P re
T ri
11 7
O n
P P
qÃ¬ n
k s
I s
S C
0 2
v an
c m
shu Çİng
st yle
m b
10 3
AK B48
M D
y Çİo
10 7
G ra
b li
Mu sic
G re
oo d
c Ã²u
Lin ux
inc lude
D is
O r
T ra
P ri
t Çİng
w w
N or
p ha
mi n
O ri
y e
on ly
4 50
V ID
tu s
12 7
ma s
t ra
Da vi
qu e
an e
12 8
ali gn
l Äģo
li s
ou s
Ga me
fli x
C L
or a
Net flix
E l
189 4
2 20
r in
B er
Ð ½
s er
Willi am
I L
V o
S H
s ti
ro m
T wit
18 80
Re d
y i
R NA
z Ã¡o
13 6
P G
F u
Ð ¸
er o
ãģ Ħ
T R
st ra
Te am
18 00
W a
ãĤ ¹
Uni ver
g round
t or
188 5
ng e
li Çİ
11 4
an o
ãĤ ĵ
p iÃ¡n
ru s
H z
T y
Ch ar
col or
11 6
28 0
na me
St ar
E u
G en
U R
h y
Ð µ
11 3
er a
l la
188 6
si ng
ãĤ ¤
T S
t en
Sch ool
P O
m Çİng
la ss
189 3
ir l
B la
M c
e x
ni c
ou t
11 1
Mar k
S L
ir st
ã Ħ
ci al
Su per
D on
a c
W al
je ct
le x
m ÇĴ
an s
âĢ »
t ri
li a
i e
m Åį
13 5
Davi d
26 0
18 60
na tional
Ge or
M or
y s
n ÃŃn
gu e
t le
an y
P et
W TA
w ay
rou p
H C
M at
ni s
ce s
U A
U n
w as
ou se
h am
188 8
A c
te xt
S D
- .
ca tion
B ra
on y
ro id
back ground
y Å«n
d Çİi
re am
Sh ow
12 9
G O
o m
ch Äĵn
18 70
st ri
G N
ï ¹
C he
ni a
188 7
b ur
d on
p ri
shu Äģn
18 68
6 000
c le
Ã ¶
Ñ Ģ
188 3
C y
N F
V A
lu b
mer i
K u
an k
Me ta
3 20
A b
X box
C S
N HK
A F
D D
Twit ter
K P
n y
only include
T ho
en s
pi Ã¡o
+ +
bi t
t Ãłng
18 64
âĢ ¢
I ON
188 4
1 19
R C
U E
ti s
12 2
C l
25 00
189 2
2 10
A 1
o ng
in s
W h
c enter
le t
mi Ã¹
15 5
S ou
IS O
â ħ
14 5
189 1
6 50
p re
And roid
G irl
se l
N S
c ar
v il
ãĢ ķ
si l
O R
y o
A s
ãĢ Ķ
18 50
on a
cu Åį
ht t
re d
l ow
x y
en sis
Inter national
D ay
c er
m Ä«
18 67
ste m
I M
p Ãłng
ãĥ Ī
Al l
N ation
se d
187 9
m ber
Ja mes
En ter
W ar
f fi
3 80
A B
U P
di s
187 6
C oun
V er
Univer si
i m
v in
Geor ge
H er
18 75
18 61
27 0
D ra
t d
li e
si a
el d
A ir
G roup
I R
ch o
ti me
12 6
am a
N T
P au
l or
in ter
A ni
S pe
Ga mes
NG C
H y
st ru
ãĥ «
187 3
H ol
M G
12 3
ãĥ ©
E ng
P V
B en
H T
v al
Col le
d ay
M B
16 8
CO VID
cri tic
C lub
F M
H en
lu e
18 65
il d
A O
P L
th at
as s
A meri
D E
12 1
C enter
u t
cu s
B lo
17 5
ãģ Ĩ
We b
H 2
Y P
f rom
Ã ¤
14 00
A li
o d
MA X
wor k
p ar
13 8
2 28
T P
f er
18 48
chÃł n
a st
al d
ne y
li Å«
18 62
3 30
d ge
p ÄĽng
12 4
ãĤ ¢
188 1
188 2
7 37
a ge
C an
187 8
5 50
S ha
gu Çİi
ru ÇĲ
187 2
E le
L C
bÃ¬ n
IN K
Meta critic
Ori con
b or
n Ã¡o
15 6
M TV
U C
b ri
16 5
co mp
B oo
L ED
f o
18 40
ni Çİn
IV E
H igh
S pi
c ore
d Äģi
w an
7 50
I t
n s
t ro
shÃł i
ãĥ ĥ
olo gy
mi ng
13 00
ãģ Ĺ
13 7
sta gram
7 000
B ro
D OS
S Q
U B
22 9
I U
c re
z o
C hu
G DP
K ing
O K
Ñ ģ
en a
Le a
S he
r and
15 2
al s
St re
TV B
Mi cha
V a
li p
15 9
187 7
Ro bert
ty pe
S ur
â Ĺ
ku ÇĲ
18 66
ri st
Ch i
Ch ris
P at
i OS
Ð »
ol y
Pro du
S K
18 69
âĢ ²
sil ver
T HE
U p
C e
D M
g ar
h er
s en
xi ÇĶ
F ri
N ET
P la
Ð º
sh e
13 9
In stagram
Ph one
B I
st ar
BL AC
Ty pe
B ig
p or
Ð ²
D J
r Äĵng
is s
App le
C G
H el
W E
e w
ra y
ãĤ ¯
co de
Micha el
A t
D F
ï ¸
ar k
al k
1 100
15 8
on s
at or
Te ch
Pau l
2 25
30 5
13 3
IN E
ci a
R A
s Çİ
ãĥ ª
A ward
H I
Y O
13 2
Ste am
20 5
18 63
Par k
Nation al
B ill
Y e
tain ment
2 15
C i
b ra
st o
ne w
Universi ty
F O
r al
Me dia
C A
F 1
K BS
V al
14 8
13 1
L ou
S mi
16 6
ar ch
187 4
ss o
E F
M er
X X
b al
k g
n ow
18 58
F in
K ar
T ran
g on
v es
14 7
sp ace
Bla ck
T er
a ch
g an
Pet er
G ar
de o
25 6
ãģ ĭ
G A
I E
M 2
k ÇĶn
18 30
Ri ch
C BS
U T
18 51
Le e
B N
U I
19 2
z er
Î ¼
ad a
8 000
ch ÄĽ
Ja ck
Enter tainment
3 10
J ap
W in
lÇĲ n
bi n
mi ni
14 3
se t
C ity
M k
g Ãłng
18 55
ri e
at er
In tel
P ower
E M
I X
S am
h Çİ
Sp ace
R AM
ð «
18 5
18 59
zu Ã³
ST AR
shi p
Char les
b el
p y
13 4
Di re
A ng
A BC
F la
en e
18 54
14 6
30 1
en ti
17 00
Vi u
Ja va
3 70
i f
18 57
F ree
G M
P y
T ai
w hi
st ro
v s
Ø §
an n
29 0
ãģ ª
Li fe
ï¸ °
E r
P an
V e
Î ³
2 14
4 20
D ream
Y a
Ñ Ĥ
Re cor
Al pha
Comp any
sti tu
e k
f ang
f ace
Î ¿
ãĢ ľ
mi s
18 56
18 53
Pro ject
A m
H ouse
P op
f irst
di um
ãģ Ł
et y
Ti me
Tho mas
C al
M in
a e
o x
v on
v is
14 4
Sa int
F A
K en
O VA
C ent
T ru
V O
b Ã²
A 2
I O
16 7
Stre et
3 A
H S
S BS
sh Çİ
bi li
ku Çİ
18 41
ver y
A lex
B at
L P
L au
T or
di n
ri c
3 40
P M
P or
S hi
chu Çİn
ma t
ma tion
BLAC KP
M et
p le
z Äģ
20 8
18 15
17 8
CP U
BLACKP INK
2 23
B ur
c is
m Ã¨n
So ci
Stu dio
Eu ro
8 50
L GB
S ing
p la
ch er
zu Åį
se s
Ro ck
ww w
I BM
s pe
S F
20 7
di e
p lay
s g
ni e
17 1
23 5
ta tion
ãģ ¨
ãģ ¾
D ig
F er
L IVE
M r
P E
S U
V E
Y u
n Ã¬ng
20 3
B 2
W hi
n ot
Ar t
SQ L
P ad
18 46
16 4
for d
oo t
Colle ge
b re
c ra
15 7
vi ce
ber g
pu bli
B R
L T
N E
li t
14 1
IC E
B 1
C ro
C ap
S un
on d
17 6
th y
IN G
bo ard
In c
Te le
Ameri can
A sso
L S
h Äģn
y ou
Â ²
18 12
18 45
18 44
si gn
Ro ad
Girl s
sel f
Z e
s ch
mi t
23 1
O ffi
c ture
c lass
H F
L td
M 3
M il
R os
ãĤ Ĭ
wit ch
LGB T
A g
b all
20 9
ce ss
ãģ į
of f
NA SA
GN U
L A
w Äģi
de d
Jo se
Smi th
C la
G er
P A
P ra
am pi
IU CN
2 16
P N
Î º
18 49
15 3
te mp
ve d
Goo d
C T
F il
N BC
T our
w h
zh ÇĴu
sh a
20 4
23 8
au rus
Produ ction
B B
C ra
G al
H all
S ci
n al
o i
y n
vi sion
Vi deo
Ga la
G T
O 2
l Äĵ
p m
u e
Ï ĥ
mi ted
or ts
in o
tion s
E li
P R
S ky
t al
20 6
le a
qu i
ma c
4 60
a b
m al
w in
18 14
or g
2 18
a ni
f ra
eri es
Rich ard
S I
l ti
w ar
chÇĶ n
ri ch
ang e
IG N
A ct
L D
â ĸ
pi c
Bo y
F ar
T ur
W S
Ï Ģ
de f
18 47
15 4
tur n
5 80
A ma
F F
b un
e p
f ri
le d
18 43
man n
Be st
ph y
Sy stem
pt r
4 30
M as
M BC
P lan
z z
17 7
40 1
che m
4 10
B el
S al
ãĤ ·
NF L
Viu TV
S witch
W o
k ing
16 3
AM D
AP I
We st
Jap an
I CO
b ar
b us
u p
men ts
18 52
16 2
th on
es ti
Ch rist
cri pt
V II
18 20
or n
ge t
th is
ãģ ı
Ma x
F re
P rin
c il
14 2
23 4
ri a
Ro y
V R
17 2
ãģ Ĭ
ãģ ķ
Recor ds
6 40
D an
S qu
V ir
w ood
16 9
35 00
Li mited
C ore
K C
T 1
g s
p hi
Â ±
18 39
ar s
23 2
da ta
4 80
C M
c Ä«
17 9
th i
ca de
fu l
20 30
en i
14 9
ma x
36 5
In stitu
H ow
v ar
18 21
ãĥ Ń
ãģ ¿
Ch a
ay a
Uni code
RO M
CC TV
3 90
B U
R es
V ol
X P
n ess
t v
30 6
al o
22 2
60 1
un ch
F an
tu be
17 3
it ch
Bo b
E A
P F
24 7
it al
C amp
K K
li an
pi ng
17 90
der s
2 11
5 60
F un
O H
S N
k h
w id
or d
ãĥ ¬
ci ation
B F
E s
T op
V M
t ran
For ce
H ot
M U
P D
P H
S ir
shu Çİ
18 3
17 95
30 3
re w
âĹ ĭ
u se
lu m
23 3
se arch
ãģ ¡
180 1
2 13
T ok
w Ã¨ng
ãĥ ŀ
US B
d ra
su b
17 4
ru n
Ma g
MV P
C K
l li
z on
Ï ģ
á Ģ
ì Ŀ
18 6
18 38
or s
St ore
ke y
He art
Dire ct
5 20
B ank
D DR
G lo
Z i
z y
mi ly
ck er
Je an
6 10
F le
i Pad
r ÇĴng
bi le
16 1
50 1
ãĥ ī
Ho me
htt p
2 24
C F
P en
e le
m g
su r
ti a
18 13
ãĤ ī
Ph il
G E
L on
k in
t z
Ï Ħ
en se
18 2
18 32
18 42
la tion
25 5
it s
Soci ety
A E
G old
H an
S co
f ter
i Phone
18 4
ãĤ «
lo s
Mi ni
Da ta
7 20
K I
S cript
d d
i se
â ĺ
18 36
la te
17 93
ãĤ ª
Co mic
vi ng
Mu se
Ki Ha
bun tu
2 21
C ri
D r
H BO
M T
M el
T un
g re
h ÇĴu
ti an
18 33
ni ty
17 89
tic s
Ri ver
oun t
htt ps
Asso ciation
Gala xy
B ay
D AM
M 4
Q Q
c l
f in
ng a
ti es
18 35
15 1
th o
ãĤ ¿
ad y
2 19
2 17
3 38
C ry
F T
J YP
R ap
S R
U buntu
W A
f y
l on
ð Ĳ
sh ang
âĢ °
th a
Mar tin
180 4
ON E
CE O
wid th
4 70
7 40
8 30
n t
li ght
for m
To m
Hen ry
Lea gue
Y G
d ro
w ell
Ï Ĥ
Ð ´
â ī
Ch ampi
Ma ster
Gen er
E ar
F ra
L INE
P hi
V il
g Ãł
u ni
Î ½
ch el
mu s
am er
to p
AR T
Gre en
vil le
2 12
D K
c ti
h as
n m
Ñ ĥ
le ss
18 28
ãĤ ³
op er
AP AN
row n
D y
D ou
F R
M ana
N ight
P in
a g
h ar
o ni
19 1
di t
30 2
ta ble
Bill board
Offi ce
6 80
B r
B al
J an
M Hz
P I
S NH
b an
b ro
k ar
Î ¹
18 1
16 24
st s
23 7
si de
ma in
ãĤ ĭ
Ch ina
Co de
You ng
con d
No te
Jose ph
SNH 48
B ir
D es
F DA
J APAN
O b
P K
à ¹
á ¹
16 44
30 8
st on
St ra
CO M
tic al
Pa la
4 40
D B
G R
V an
hu n
tu ÃŃ
10 000
18 37
23 9
th an
ri ck
180 6
Lo ng
So ng
Uni ted
Par t
mac OS
C V
E ast
M W
U 21
Ã ¢
Ã ®
Î ´
à ¥
â ĳ
18 19
29 9
34 6
HT ML
ann el
7 80
H ill
T w
T en
T alk
j o
p ort
18 25
24 5
23 6
50 5
27 9
ãģ «
Ra dio
Dig ital
5 40
D own
E V
H 5
J i
r pm
w n
li c
chÃ ²ng
si an
el la
New s
3 25
C at
P as
00 1
17 76
ri ght
ãģ ĺ
lo ng
bu t
den t
NC AA
Ser ver
F AT
S il
18 18
26 5
ãģ ĵ
ne d
Qu e
Hel lo
B an
B ru
D ri
N u
V en
W at
18 24
18 31
202 7
Ch o
Hi st
Ko ng
E m
G S
R PG
p r
Ã §
Ã ´
tu m
me d
38 6
Ch ild
Ser vice
âħ ¡
U M
b et
hu r
su al
ro me
vi a
BS D
Fran k
Is land
Py thon
publi c
Sci ence
1 A
B lue
C W
F ore
X ML
c lo
Î »
27 5
27 00
and a
You tube
Ju mp
Ed ward
Un der
Whi te
3 12
5 G
7 30
B or
F irst
G rand
H L
O M
P oly
T BS
h Äģo
n es
re y
26 4
29 5
180 2
BL UE
Institu te
Champi on
6 30
H or
O ut
S um
T M
b en
f un
su s
18 22
ni Äĵ
28 8
ra tion
ãĤ ¸
ak a
En vi
C as
L an
L es
O s
o ther
p lo
p op
Ù Ħ
li st
la ng
ar ed
24 4
ãĥ ķ
va te
IT F
2 D
G ro
J T
S of
c ent
e m
x el
la unch
24 9
90 3
Nor th
Squ are
O T
P ID
S eries
u l
z ation
Å ¡
24 3
28 00
You r
Ho ng
Th is
Cu p
F X
L ang
N P
_ _
h r
18 10
16 22
17 92
30 7
re turn
ta s
70 1
SA RS
PO P
Tech n
9 60
C ur
H am
R ay
S ig
S HO
V V
o b
p Çİi
v y
Î µ
16 50
80 1
vi ew
Net work
MI UI
bur g
Tun es
2 100
P al
U r
p art
Ð ¼
18 26
an ti
15 73
ou d
as on
ci ng
ha ve
7 47
C le
J our
i mp
tu al
18 34
30 4
ou ld
22 6
27 8
lt a
ãĥ Ł
ãĤ Ĥ
37 5
ad d
180 5
AC T
AP P
AI R
olo gi
Blo ck
H A
L y
Y o
h el
i i
r d
ch en
00 7
or o
29 6
29 8
si g
38 5
AT A
Mo del
ga in
Da ni
Stu di
3 35
5 90
9 000
C U
N ow
R y
R am
W N
m l
n on
o c
Ï ī
â ĭ
or k
17 80
re ss
22 7
ãĥ ł
ol f
ma p
Ma y
Re al
Sp orts
ding s
IF A
3 15
G il
J on
O p
S c
h ad
i Tunes
k en
Â »
25 1
ou gh
27 7
at o
one y
CN N
2 A
D ar
G ran
O ver
R en
R us
R FC
p H
zi ne
15 82
17 99
25 9
24 6
24 8
180 9
Inter net
Sou th
Eng ine
4 G
5 30
C 2
D LC
S m
g Ã¨n
s Çİng
s in
Â «
li o
18 23
an der
16 21
27 2
ru m
40 5
AT ION
tw are
180 3
da e
Sta te
ste ms
EE E
pre ss
3 34
6 20
7 70
C lass
S G
di tion
lu tion
16 25
ge s
28 4
28 5
ãĤ µ
Au to
Pu bli
3 11
8 80
D ot
K h
S ony
V I
Ã ī
á »
25 8
27 6
cu r
ãģ Į
Al f
Mo bile
B us
K O
O per
S w
W ay
X T
p res
à ¦
25 3
al y
35 7
nu m
Mar ia
Mo on
Wi i
Pi er
6 60
C li
G et
N M
S V
U L
s m
Ð ¹
di an
ãĥ Ĺ
ck s
ST A
IP v
Uni x
Wh at
Euro pe
5 70
C er
U 19
W F
e e
m or
Ð ³
tu Äģn
18 27
15 70
ãģ Ĥ
ga zine
Be au
Lin k
vel op
Boo k
Tran s
3 14
3 DS
6 90
B re
B BS
C 6
D SM
I EEE
M en
S B
S ound
W WE
m ore
18 17
16 40
16 36
26 8
40 2
40 4
ãģ ¯
Re gi
Ra in
whi ch
A X
G ri
b lo
i ni
n or
ng er
la ris
17 75
25 4
ter s
46 5
Me di
Di e
Ti k
Fran cis
Com mu
3 23
A th
C ir
H P
O P
k Äģo
17 50
30 9
oo m
op le
Jo y
fi c
3 29
6 70
D ol
E nd
P lus
b on
p ur
sh ing
gu Äģi
18 16
pi n
la i
for e
ãĥ ģ
ãĤ £
45 00
Ch annel
ca st
ing s
CO N
per i
TO P
Cu be
Lou is
. -
7 10
9 10
9 50
D I
I mp
L it
M K
T ro
o me
de a
pi tal
la m
ar r
24 1
23 00
Re search
IS BN
fi eld
Po li
Fil m
tv N
3 26
A sia
B ou
C am
C lo
P T
T 2
i ce
r ch
t ry
à ½
15 92
34 7
75 8
St and
mo del
A ra
B on
D T
L is
16 28
17 88
25 2
24 2
26 9
ãĥ ĭ
and y
Le on
Vi ctor
La w
ff er
fe a
tur al
3 18
3 36
9 78
A do
C B
D L
D en
F esti
J en
M al
M US
N 2
O 3
T an
T re
á ĥ
ch ar
bi Äĵ
16 27
17 83
17 91
al th
28 9
ro s
40 6
ce d
35 4
IN N
Co mm
St an
ap p
Vi sta
gi c
Pi xel
Dis ney
âĸ ¡
A cade
C our
E L
F 4
I B
L AN
L TE
O F
i ch
p Äģ
t re
17 97
ï¼ »
ï¼ ½
Ma ch
55 6
Be at
ak er
Sof tware
A nge
D MS
T H
h is
n Çİn
17 79
17 96
te st
60 7
ãģ ¤
ãģ ł
35 2
Mar y
180 8
ER T
km 2
Ni co
NC T
Ali ce
âĭ ¯
3 21
3 37
A 4
A mi
S or
T 3
c s
g is
u ng
hu Ãłng
tu de
18 29
17 78
17 94
28 3
27 3
ãĥ £
ãĥ Ĳ
ãĤ ¨
ck y
Vi sual
ine se
YouTu ber
AS C
Wor ks
Ele ct
Bat tle
3 13
5 10
8 40
8 60
F oot
M net
P ho
l lo
p at
v et
v ance
Ã ±
Î ¸
shu Çİi
ni ca
ni ght
17 98
for mation
ãģ ¦
45 6
37 2
Jo han
EC T
sy stem
Spe cial
Award s
4 48
8 70
B lu
M F
P ay
i o
r or
s ca
15 80
16 12
16 34
17 87
28 1
26 7
ãĥ ĩ
ma d
ãģ £
ãĤ ¦
nu s
lo st
mm y
we b
Pre mi
Roy al
Glo bal
9 11
D G
F ro
M is
O li
S et
T N
W O
d or
e v
f la
â ĩ
sh Çİi
hu s
mi na
15 67
16 48
al le
27 1
te ch
lt ra
Ar ts
ff e
BO X
Envi ro
A H
E 3
L am
M M
M ur
Y ork
s or
chu Åį
26 2
ta i
36 7
ve st
pe dia
OS HI
Pro f
con st
AC E
EN T
AG A
Gre at
Tik Tok
- &
3 22
A h
M ON
N ot
O TT
S po
V B
bi an
15 50
15 68
on t
16 15
16 30
28 6
ãĥ ĸ
Ma gazine
ver n
CH 3
Comp u
Muse um
Dani el
Festi val
B rown
C ru
C AS
D ark
F BI
L G
S au
S IG
U SA
s tu
pi Äĵ
16 45
16 46
re ad
zhÃ¡ o
ãĤ Ń
33 3
CO LL
AR D
Se cre
ste in
En core
ture s
wor ld
On line
Cl oud
MUS IC
H un
L ar
L et
c as
o ver
t an
Ø ±
16 26
st al
26 1
29 7
35 5
Ch inese
ste a
Ki m
3 28
8 20
G or
H as
P RO
S 2
T ou
g al
o li
s ÇĴu
s co
qu es
16 37
24 00
70 5
90 1
36 4
38 4
37 8
ve y
44 2
ha i
con o
Po int
VID IA
Gener al
6 18
A U
C BC
H B
N VIDIA
T 48
a le
t r
Ð ¡
Ñ ĭ
16 10
16 42
25 7
28 2
th ing
26 00
Ma d
Sta dium
160 9
ali ty
ster n
Ex p
Go d
Red mi
Ye ar
Ado be
7 60
7 67
C AN
G ol
I l
O 4
O me
U 17
V C
b as
b ps
j or
s k
s che
Ñ Į
de on
ni or
15 85
15 83
hÃ¨ ng
ãĤ Ħ
58 3
ct ory
180 7
AR M
Te X
wi ki
ther n
Sy stems
por ation
9 30
D el
F IFA
J U
K E
O D
T own
T hun
W ho
c to
d ou
16 23
ge l
27 4
si ze
An to
Wi ki
ï¹ ĳ
H2 O
tro l
Tai wan
E OS
F IN
I ma
I EC
K in
K id
T ar
W on
a h
c at
e sta
k et
ti na
15 71
17 84
26 3
50 9
29 3
35 1
os aurus
99 9
De ep
mo d
va lue
Ar chi
Ca st
2 200
4 28
A J
G UN
T ay
x x
16 20
17 23
17 86
in te
st re
50 4
lt on
ãĥ ¥
35 3
39 5
be th
So laris
Po st
pri vate
Met ro
cl ol
Mana ge
Dot A
4 19
4 32
A 3
F N
F ly
G L
H ap
R on
b b
c ci
c ard
c tive
p ra
ì ķ
14 50
cu ri
ãģ Ļ
Ch an
ver s
Mi ke
our ce
Ke y
LO VE
Mark et
Studi os
Lit tle
4 27
B and
C ine
F E
H IV
K 6
L ine
R ou
V PN
z Ã¨
Ä į
li ke
zi lla
15 77
16 18
16 43
ro p
se y
38 7
39 9
ct s
ell ow
oun tain
Fle et
Techn ology
3 17
3 31
3 45
5 12
5 65
H 1
M Y
R 2
S 1
U 18
U SS
U ltra
b es
g g
l Å«
Ñ ı
15 86
la u
17 77
14 53
in to
st y
st an
si t
80 6
ba se
CD MA
Sta ge
Ra deon
ak i
Uni on
AL L
Val ve
Child ren
Secre t
3 27
4 11
4 90
4 45
4 46
5 35
A lt
A ven
F I
F ound
L and
M id
M 87
U 23
W ill
W OR
o la
r stea
y er
Ã ª
ch t
en do
15 21
17 65
17 74
si ble
ce l
se cond
39 8
49 9
oo k
Par a
Wi th
Ju nior
Ad am
BM W
mon d
Fri ed
Cent re
wh ere
Phi lip
Acade my
4 16
C rea
E MI
H TC
K B
S che
S oft
T W
b at
r ent
mi a
16 16
cu l
70 7
il y
ter i
36 9
39 7
Ma u
ver se
Jo e
Sta tes
Mu lti
Wi re
Ni ko
GP U
bili ty
Ome ga
6 13
A ri
C ou
N R
P ort
W I
Z A
h au
h ouse
p es
Î ·
Î Ķ
Ð Ĳ
li ve
15 64
17 85
36 8
lo t
TV BS
Me m
Ne xt
He a
so me
Fi re
My SQL
vo id
Ori gin
Ama zon
3 C
8 10
B T
H on
J r
R un
S ti
h l
m 3
Ð Ķ
16 62
26 6
29 1
si st
el le
he ad
58 8
os a
Di stri
Su b
rou gh
Ba se
MO D
vo lution
chi e
Cor poration
M1 A1
fer ence
mis sion
velop ment
GUN DAM
3 16
5 37
6 21
7 42
C I
E 48
E ric
F o
F al
S in
T I
W el
Ã «
Ù Ĩ
an na
15 40
15 74
17 72
st d
28 7
te e
60 5
45 4
38 8
34 3
op en
88 8
Su nd
po int
Dra w
Chu rch
Alex ander
Cro ss
Manage ment
4 25
4 75
L ady
N D
O ther
S W
S ar
c ted
k Ã¡ng
k an
v at
w ere
ji a
12 50
ni co
16 19
16 29
16 83
29 2
36 3
37 6
ST S
55 2
68 6
ig n
De mo
Ar c
Au gu
Cy clol
Lon don
Sco tt
6 27
B ad
B RT
D er
D un
F L
I r
K ir
M X
O ra
S to
S ara
T ony
h ard
t ru
Ð ±
ti sh
al ly
ï¼ Ĥ
ma tic
48 8
id a
De sign
ph en
Sp ot
Sp ring
And rew
ðĲ Ń
4 49
5 A
6 25
7 38
F ron
H ER
O f
P B
R ound
V ER
i re
u nd
Ð ļ
sh ared
15 90
15 79
16 33
ãĥ Ĭ
ãĤ °
150 7
Be ta
La ke
Si mon
CH 2
Cu l
Sy n
Ani max
Ear th
4 12
F ort
L F
L M
S ol
S ca
S ON
V 8
c oun
h Äģng
t to
Ð ¿
í ķ
mi r
mi x
16 31
16 80
17 73
29 4
40 7
ma te
ãĤ Į
bo dy
39 6
33 00
mp le
Se a
160 4
An der
Par ty
Ha mi
Fa mily
PG A
Ang el
Dri ve
Jour nal
9 80
A p
A re
C 4
F old
G C
L R
P ol
c en
n an
Ä ĩ
É Ļ
ni cal
15 75
16 97
17 55
14 92
si ve
cu m
80 5
36 00
as a
46 7
47 1
De f
Ne o
mic s
ï¹ Ĳ
SK E48
Dy na
Sum mer
Thun der
0 x
3 19
E pic
H al
J 2
K el
N ar
S we
X C
f b
h oo
p an
z en
ch y
li on
or ig
15 61
15 89
15 95
17 81
14 65
al an
50 8
ãĥ Ĩ
ãģ ²
34 4
58 9
op h
160 3
160 6
160 7
CN BLUE
Ru by
Coun cil
Chris tian
pr int
4 15
8 55
9 40
9 70
C re
C lar
K at
M ed
M iss
k es
p os
u age
x 86
Ã ¸
Ã ħ
Ã Ł
à ®
li na
ni o
15 22
15 26
15 56
16 13
16 60
50 2
50 6
ãĥ Ģ
ter a
37 7
to s
47 8
55 4
amp le
Mar i
Al li
sp ort
mer cial
TO UR
William s
cation s
Hy per
ìĿ ´
âĺ Ĩ
Ange la
Foot ball
4 17
5 25
9 20
9 25
A fter
H it
L U
U K
U RI
i te
l le
u d
Ù ħ
su re
15 25
15 91
16 67
in du
chÃ¨ ng
ro nic
40 8
48 5
64 3
ad o
ba by
op hi
AM O
Ba ck
Fi esta
Ste ve
Qu a
Ru e
pu t
Ad vance
DO HC
Ameri ca
3 24
4 22
5 15
5 38
5 34
K it
P ap
Q S
S 4
V T
V el
W ater
h en
m RNA
w ho
z zo
â Ĥ
li sh
ti ne
15 10
16 38
17 30
me dia
ãĥ ĳ
et te
34 2
39 3
47 9
mp h
St ory
150 8
Vi ta
Mo zilla
La st
HK T48
las sic
Ber n
Wal ter
Sou l
Sur face
Found ation
3 200
5 31
5 46
E G
G Hz
I TV
J er
J ane
M es
M BA
N I
S en
S on
T G
V S
b les
i PS
k W
p al
202 8
15 43
14 57
co me
36 6
38 1
39 2
In du
Ar ti
Bu il
Hist ory
1 st
4 13
4 26
A i
E du
F 3
G PS
L Z
L ight
M os
U 20
W nt
c la
d own
m ol
y l
z Çİn
z ar
Ù Ĭ
15 65
15 59
15 87
15 97
âĢ ł
16 35
16 88
17 33
17 82
al so
st ry
te x
60 6
ol low
ãģ ĳ
37 3
Al bert
Ti mes
len t
John son
Fin al
5 24
6 12
8 90
A sh
B y
F S
J im
T ol
U D
b s
e st
o v
s core
Â £
Ð Ł
Ñ ĩ
15 88
15 98
50 7
ce ll
am o
the w
64 1
49 5
68 2
Re p
66 6
Ro d
Ro se
Vi o
Po d
Au stra
Mon t
Bri an
CL A
Pla ce
Tele gram
tran s
Pier re
3 32
4 A
4 K
4 35
5 75
7 90
A le
B et
F l
M us
T MA
a te
p lan
s ky
ti Ã¨
ti al
en ts
15 23
15 35
16 49
16 61
17 70
14 99
th en
ãĤ ¬
ãĤ ı
36 1
nu mber
46 6
39 1
.. ..
55 1
vi ces
Mo der
160 1
Sh o
gi o
PC I
Ti m
Ho tel
TO K
Ac Fun
Fla sh
pla ce
cra ft
Won der
5 28
5 500
9 90
B ang
B ell
H ard
H TT
S ma
S mo
T han
e y
f is
g ni
shu Ãłn
mi ne
15 11
17 60
17 69
ri t
35 8
co s
37 1
46 9
it z
68 4
58 7
Vi ew
pp m
Bu t
SM AP
Ge o
Ed ge
tri bu
Exp lor
Gol den
5 48
A W
B il
L or
M ir
M AC
S han
a ir
e ven
p ara
v or
ti Çİn
200 00
10 80
15 000
15 76
15 94
16 89
36 2
38 3
TC P
34 1
NA SL
Pro gram
Be y
So me
Si ri
Qu i
Bri dge
ac tive
Europe an
vern ment
9 21
D ance
G un
L 1
M R
M ind
M MC
N EX
R B
T F
U FO
V F
V ar
b ow
k ins
r Ã¡ng
u ts
ð ª
hÃ ²ng
hu o
ch ÄĽng
le ft
ti ca
mi d
18 11
15 17
15 14
15 78
15 52
âĢ ķ
16 39
16 84
60 8
ma ster
34 9
Ma i
64 4
55 7
vi e
ir d
58 5
59 7
De velopment
Mo d
Te st
Se ven
Ra w
We ek
Fi ref
Ju st
ko v
Mat thew
temp late
Eli za
Comm on
sco pe
Tay lor
curi ty
3 48
4 36
5 49
A ST
B ai
B rand
D NS
F red
J am
K on
M itch
P res
R N
R et
b um
e a
e xt
o van
p l
ti o
er ing
17 63
13 50
in ess
ï¼ ĭ
si e
40 3
ce pt
cu Ã³
se ll
ma ni
90 8
es sion
65 00
ca se
150 5
ard o
tou r
77 7
Mar ie
ang er
fi ed
fi cation
Pa ck
wor th
San ta
MG 42
Christ op
Vil la
5 47
5 67
6 68
C 5
F AN
M ountain
N K
R ol
T 4
Y OSHI
b la
s Ãło
Â ³
Ñ ĸ
10 50
16 14
17 20
37 4
49 4
Co V
ID E
IP S
PS P
ther s
Wor k
UN IX
Pe ople
Com mit
âħ ł
Kar l
Fra me
IPv 4
Explor er
5 14
5 22
5 45
5 68
6 19
6 75
B au
C SS
D 1
E BU
K T
K w
O h
S hu
Z a
n Ã©
s pi
s al
y Ã³ng
le te
15 16
15 13
15 34
15 47
15 69
16 V
14 60
st one
cu la
ãģ §
35 9
75 7
64 2
58 1
au x
150 2
ction s
ga ni
ali s
Ge Force
à¸ £
SO HC
Jack son
Art hur
Que en
COLL AR
Sund ay
orig in
4 18
4 14
4 24
4 33
5 44
B os
C J
D TS
F 2
J O
J us
M MO
P EN
S and
T el
X IV
b Å«
c z
f lo
h ol
i th
p per
s ki
z ed
Ð Ĵ
17 31
17 68
17 71
14 90
me l
40 9
lt er
ãĥ ı
60 4
80 2
ãĤ ±
ãĤ ĩ
ãĤ į
38 9
75 00
39 4
47 6
be en
49 3
vi o
Vi sion
ER O
Bo x
Ri ft
AG E
Pri me
FO X
whi le
Tru e
JT BC
âĩ Ķ
Cine ma
Aven ue
4 31
5 39
7 45
A BS
B it
C lassic
E O
G in
G amer
K er
L ord
M it
S k
S olo
V 6
b n
b our
j q
z za
Ä ±
sh op
sh ed
ch ange
bi Ãło
ti l
ti ce
ti fy
15 93
17 24
17 52
14 69
14 98
13 70
si li
se a
ãģ Ī
il le
38 2
75 5
46 4
44 4
ci d
57 1
150 1
Ne ver
Ga ga
no va
PS 3
pro te
Ex press
Bri tish
td own
AGA SA
Kid s
Fried rich
6 46
6 67
C IA
D 2
E ver
G am
I RT
K an
M 6
P ass
T am
X F
Z J
a mi
h igh
p to
s ay
t ch
de x
li us
di es
15 20
15 60
15 53
16 51
17 40
14 93
60 2
90 4
49 6
49 8
44 3
na ment
Ra il
MA N
Bo ys
Ba by
Ha w
pro du
UN G
Fa mi
AG UE
LE AGUE
Gu ard
wor ks
mon t
Je ff
Don ald
Intel li
à¥ į
Commu ni
Ath lon
Mem ori
Firef ox
6 11
6 45
9 45
A gain
B as
C 1
C en
C BA
D EC
G W
H ay
O ld
Q U
T AM
U 2
v ol
Ã ¥
á º
ch an
di c
15 96
on o
16 32
16 79
17 18
17 35
17 45
17 58
25 G
ï¼ Ŀ
te c
ra m
ãĥ ¡
cu lus
ma de
90 7
ãĤ ģ
ãĤ Ĩ
58 4
150 6
De ar
ss on
tw o
ment al
160 5
Sa mu
gi a
An th
Si de
He alth
Fi sh
Na me
RE AM
Wil d
Cent ral
Dou g
Stand ard
Vio let
Christop her
YOSHI KI
0 50
4 39
5 33
7 31
7 32
7 41
7 62
9 62
A stro
C ree
E ye
F lor
H 3
I CD
K ra
N U
N um
O ff
R CP
T L
T hi
U CLA
W ood
a th
k it
n p
p he
v ari
w en
Ï ħ
á ¸
â Ļ
bi a
di na
12 60
15 66
la w
la de
17 25
17 48
ãĥ Ħ
70 6
ãĤ Ī
ãĤ Ĵ
45 7
ter y
37 9
as o
75 6
55 3
ci o
67 3
57 4
57 6
mp son
Li st
Al an
98 5
97 3
An na
Ca pital
Gre g
Alpha Fold
Oper ation
Fleet line
Angela baby
5 16
6 17
6 39
7 22
7 35
D U
E cono
H MS
K ha
P 2
T ower
b ble
n ers
s Ã²u
20 50
qu id
15 28
15 72
on al
16 52
17 27
17 61
13 68
ãĥ ¯
ãĥ İ
35 6
70 4
48 2
65 5
br ary
au lt
AR E
ga te
Ga on
end s
BL E
lin k
Col or
tel li
Har ry
Eng lish
Gar den
Tw o
Jon es
Ander son
Eliza beth
Commit tee
4 47
8 63
9 26
9 61
A na
A pa
B ow
D in
E a
E pi
L X
R ATP
T ha
V P
W W
e u
h al
p et
p as
de fea
sh an
li m
bi rd
en o
ni n
er gy
15 31
15 38
16 47
16 81
st or
ra t
80 3
70 8
ãĤ ĥ
45 2
45 3
the y
65 1
be d
Co ok
vi r
58 6
57 2
St ro
150 4
Ne u
ED G
AP G
IC A
do or
Con ne
Ba sic
170 1
Ste phen
Car l
Col span
wor d
ess or
HO ME
igh ts
App li
cc ff
cc ccff
Pre ss
Dis co
Twit ch
pri se
Pat rick
fra me
Wo men
FIN AL
Bey ond
3 M
4 38
5 11
9 33
B un
H ero
H ans
I LE
J es
R ad
S ay
S NC
a w
b and
d ÄĽi
g na
v ity
w er
Î ©
Ð ·
Ø ª
ì ļ
xu s
hÃł ng
mi e
15 30
15 37
la ti
17 36
ï¼ Ĩ
60 3
80 8
46 1
46 8
68 1
us er
ON G
sta te
170 9
Ke vin
Game Spot
Ab du
Sou thern
new s
Java Script
Prin ce
Direct X
Sil ver
fun ction
Moder n
3 G
5 41
6 29
6 48
7 25
A k
C AR
D or
E LE
L ow
N N
N an
N PC
P 4
U RE
V is
c ter
c ity
g as
g ent
v ent
Ñ ħ
su ch
su per
di re
zi ng
15 19
15 29
15 55
16 87
la st
17 28
ar di
in k
te am
ãĥ Ŀ
cu ÇĲ
90 5
es a
48 4
65 3
Ma ker
In fo
be fore
55 9
49 1
67 9
pe d
79 6
OS S
fi sh
Sa f
MA D
Par is
Con cer
Th at
Fa ir
mar k
cket t
UR L
AO A
Ya hoo
spe ci
cture s
Plan et
ASC II
Spo tify
Omega T
Mitch ell
4 23
5 36
6 32
7 15
8 25
8 33
A la
B 3
C AL
D 9
F low
G y
G RO
H au
I ta
K 2
M oney
M bps
R DS
Z o
e b
e i
i de
s an
s ci
w art
hu Åį
20 35
11 20
17 67
ck ing
Ch rome
Ma in
47 3
49 2
ca p
nd a
au to
66 1
56 2
Li ber
Ro bin
De ad
De bian
Me ga
Vi a
ga me
Se e
bu cket
An ne
ho st
PS 2
Fe de
Ed die
TR A
Coun tdown
Zi co
sig ned
TOK YO
Violet ta
3 39
4 29
5 32
6 65
7 75
7 69
A x
A rea
D 5
E ri
F ox
H and
J I
P ur
R 1
R F
S NS
l ler
Õ ¡
mi Äĵ
12 20
15 45
16 64
16 59
17 19
ar tic
14 95
14 96
13 88
re do
ce p
70 2
70 3
Ch ap
Ch art
Ma h
ST ATION
68 9
Re a
69 2
os p
Ro man
Mi x
79 8
hi m
sp lay
ot t
ment ary
ER S
Ja co
AN D
gra phy
Ju an
gin s
Ste ven
Ph y
IF F
Bi o
Dra gon
Ani me
Hen ri
Frame work
0 10
4 34
6 36
7 29
7 61
8 78
A us
A ction
E 1
E 231
G EN
J ay
L 2
P AGASA
R K
T oo
Z ERO
d as
e g
h at
i ra
Ð ĳ
Ð ľ
Ñ Ĩ
ì Ĺ
ti er
15 46
15 49
15 62
16 70
16 90
16 54
16 53
16 94
17 59
ar o
14 66
th or
si o
ãĥ ¢
80 7
70 9
45 8
46 3
lo g
55 5
59 6
66 2
St ri
un der
Li ke
Mi chel
con stru
ent al
gi e
po si
Bu ild
shi on
Inter active
Wil son
John ny
de Ġ
Ġ deĠ
shÃ¬ Ġ
Ġ shÃ¬Ġ
Ġ niÃ¡n
ĠniÃ¡n Ġ
wÃ¨i Ġ
zÃłi Ġ
Ġ wÃ¨iĠ
Ġ zÃłiĠ
hÃ© Ġ
Ġ hÃ©Ġ
zhÅįng Ġ
bÃ¹ Ġ
dÃ¬ Ġ
shÃŃ Ġ
guÃ³ Ġ
yÃº Ġ
rÃ©n Ġ
Ġ bÃ¹Ġ
yÄ« Ġ
Ġ zhÅįngĠ
lÃ¬ Ġ
zhÃ¬ Ġ
gÅįng Ġ
Ġ shÃŃĠ
yuÃ¨ Ġ
jÃŃ Ġ
chÃ©ng Ġ
yÃ¬ Ġ
yÇĴu Ġ
Ġ dÃ¬Ġ
Ġ yuÃ¨Ġ
Ġ yÃºĠ
Ġ rÃ©nĠ
Ġ zhÃ¬Ġ
dÃł Ġ
Ġ jÃŃĠ
yuÃ¡n Ġ
Ġ yÇĴuĠ
jÃ¬ Ġ
Ġ guÃ³Ġ
Ġ lÃ¬Ġ
Ġ gÅįngĠ
Ġ yÃ¬Ġ
Ġ yÇĲ
Ġ chÃ©ngĠ
jiÄģ Ġ
sÄ« Ġ
yÇĶ Ġ
Ġ xiÃłn
Ġ rÃ¬
Ġ yÄ«Ġ
Ġ xÃŃng
Ġ tÄģ
lÇĲ Ġ
jÄ« Ġ
Ġ dÃło
hÃ²u Ġ
wÃ©i Ġ
Ġ zhÄ«
Ġ dÃłĠ
Ġ yuÃ¡nĠ
xÄ« Ġ
ĠrÃ¬ Ġ
Ġ gÃ¨
ĠyÇĲ Ġ
xuÃ© Ġ
huÃ¬ Ġ
zuÃ² Ġ
le Ġ
Ġ yÇĶĠ
ĠdÃło Ġ
mÃŃng Ġ
Ġ jÃ¬Ġ
bÃ¨i Ġ
ĠxÃŃng Ġ
shÄĵng Ġ
Ġ jiÃłn
Ġ chÅ«
Ġ qÃŃ
Ġ sÄ«Ġ
Ġ dÃ©
zhÃ¨ng Ġ
ĠxiÃłn Ġ
Ġ hÃ²uĠ
Ġ jÄ«Ġ
duÃ¬ Ġ
shÃłng Ġ
qÅ« Ġ
shÇĲ Ġ
Ġ ÄĽr
Ġ jiÄģĠ
yÃ³u Ġ
ĠtÄģ Ġ
Ġ xÄ«Ġ
Ġ lÇĲĠ
Ġ Ã©r
zhÃłn Ġ
Ġ jÅ«n
Ġ bÃ¬ng
ĠzhÄ« Ġ
ĠgÃ¨ Ġ
zhÇĶ Ġ
rÃ¨n Ġ
fÃ¹ Ġ
zÃ¬ Ġ
wÃ¹ Ġ
xÄ«n Ġ
dÃłi Ġ
jÃ¹ Ġ
pÃŃng Ġ
ĠchÅ« Ġ
Ġ kÃ¨
Ġ zhÅįu
xiÄģng Ġ
Ġ huÃ¬Ġ
shÃ¹ Ġ
nÃ¡n Ġ
Ġ shÃ¨
Ġ bÃ¨iĠ
Ġ mÃŃngĠ
xiÃł Ġ
guÄģn Ġ
ĠÄĽr Ġ
ĠdÃ© Ġ
lÃ¹ Ġ
yÃ¹ Ġ
huÃł Ġ
ĠjiÃłn Ġ
jÄ«ng Ġ
yÃ¡n Ġ
fÄģng Ġ
Ġ yÄ«n
kÄģi Ġ
jiÄģn Ġ
jiÃło Ġ
fÄģ Ġ
yÃ²ng Ġ
Ġ dÃłn
ĠÃ©r Ġ
zhÃ¹ Ġ
lÃ¡i Ġ
mÃŃn Ġ
shÇĴu Ġ
zhÃ¨ Ġ
xiÃłng Ġ
wÃ©n Ġ
ĠjÅ«n Ġ
xÃ¬ Ġ
qiÃ¡n Ġ
bÄĽn Ġ
tÃ¨ Ġ
Ġ wÃ©iĠ
zhÃŃ Ġ
fÇİ Ġ
qÄ« Ġ
jiÃ© Ġ
liÃ¡n Ġ
ĠbÃ¬ng Ġ
dÃ²ng Ġ
diÃłn Ġ
ĠqÃŃ Ġ
ĠkÃ¨ Ġ
dÅįng Ġ
mÃ¹ Ġ
Ġ jÃ¬n
Ġ duÃ¬Ġ
Ġ huÃ²
Ġ zhÃłnĠ
fÄĵn Ġ
tÃ¡i Ġ
zhÇİng Ġ
dÃ¹ Ġ
jiÄģng Ġ
Ġ qiÃº
Ġ pÃŃngĠ
gÄģo Ġ
yÃ¨ Ġ
suÇĴ Ġ
bÄĽi Ġ
ĠzhÅįu Ġ
shÄ« Ġ
Ġ leĠ
duÅį Ġ
jiÄĵ Ġ
gÃ© Ġ
Ġ shÃłngĠ
jÄ«n Ġ
Ġ zhÃ¨ngĠ
fÃº Ġ
Ġ zuÃ²Ġ
Ġ yÃ³uĠ
Ġ fÃ¹Ġ
kÇĴu Ġ
guÃ² Ġ
zhÇĲ Ġ
Ġ tÃ³ng
hÇİi Ġ
Ġ rÃ¨nĠ
Ġ quÃ¡n
mÇİ Ġ
tÅįng Ġ
rÃ¹ Ġ
zuÃ¬ Ġ
Ġ shÄĵngĠ
Ġ xuÃ©Ġ
cÇĲ Ġ
xÃ¬ng Ġ
wÃłi Ġ
nÃ¨i Ġ
lÄģ Ġ
tÇĲ Ġ
juÃ© Ġ
kÄĽ Ġ
qÇĲ Ġ
shÄģn Ġ
tiÄģn Ġ
chÇİng Ġ
dÄĽng Ġ
zhÃ¨n Ġ
wÇĶ Ġ
chÃ¡ng Ġ
zi Ġ
yÃło Ġ
bÇĲ Ġ
Ġ jÃ¹Ġ
bÇİo Ġ
mÇĲ Ġ
yÃł Ġ
Ġ yÄĽ
gÄģi Ġ
ĠyÄ«n Ġ
Ġ dÃłiĠ
miÃłn Ġ
zhÃ²ng Ġ
ĠshÃ¨ Ġ
fÄĵng Ġ
Ġ zhÃ¨Ġ
zhÇĴng Ġ
cÃ¬ Ġ
yÃ¹n Ġ
yÃŃ Ġ
liÃº Ġ
chÄĵ Ġ
shÃ²u Ġ
lÃŃn Ġ
bÄģo Ġ
yÃŃ ĠgÃ¨Ġ
sÃłi Ġ
jiÃ¨ Ġ
dÃ¬ng Ġ
shÄĵn Ġ
shÄĽng Ġ
luÃ³ Ġ
mÄĽi ĠguÃ³Ġ
sÄģn Ġ
qÃ¬ Ġ
xiÇİo Ġ
ĠdÃłn Ġ
nÃ©ng Ġ
shÅ« Ġ
zÃ© Ġ
liÃ¨ Ġ
xuÇİn Ġ
sÃ¬ Ġ
qÄ«ng Ġ
zhÄĽ Ġ
ĠqiÃº Ġ
jÃ¬ng Ġ
yuÃłn Ġ
bÄģ Ġ
wÃ¡ng Ġ
kÄĵ Ġ
tÃłi Ġ
lÃ¡n Ġ
bÃło Ġ
Äģn Ġ
zÇĴng Ġ
yÇĲng Ġ
ĠhuÃ² Ġ
bÃ¬ Ġ
fÇĶ Ġ
dÇİo Ġ
Ġ xÄ«nĠ
gÇĶ Ġ
yÄ«ng Ġ
Ġ hÃło
Ġ xiÃłĠ
Ġ zÃ¬Ġ
gÄĵ Ġ
fÃ¨n Ġ
xiÃło Ġ
yuÄĵ Ġ
nÃŃ Ġ
jiÄģo Ġ
nÃł Ġ
Ġ yÃ¹Ġ
Ġ mÇĲĠ
zÄ« Ġ
Ã¨r Ġ
Ġ xiÄģngĠ
pÇĶ Ġ
dÄģn Ġ
Ġ zhÃ¹Ġ
biÇİo Ġ
guÇİn Ġ
tÃ³u Ġ
liÃłng Ġ
chuÃ¡n Ġ
Ġ lÃ¹Ġ
sÃ¹ Ġ
wÃº Ġ
Ġ dÄģng
bÅį Ġ
rÃº Ġ
yÇİn Ġ
nÇļ Ġ
bÃ³ Ġ
ĠzhÅįngĠ guÃ³Ġ
xÄ«ng Ġ
tÃŃ Ġ
fÄĵi Ġ
dÃ¡ Ġ
sÃ¨ Ġ
chÄĵng Ġ
mÄĽi Ġ
ĠwÃ¨iĠ yÃºĠ
ĠjÃ¬n Ġ
cÃ©ng Ġ
chÇİn Ġ
Ġ nÃ¡nĠ
shuÇĲ Ġ
tÃº Ġ
biÃłn Ġ
guÄ« Ġ
Ġ rÃ¡n
yÃ¡ng Ġ
Äģ Ġ
zhÄģng Ġ
gÇİi Ġ
diÇİn Ġ
cÃ³ng Ġ
jiÃ¹ Ġ
Ġ bÄĽnĠ
ĠquÃ¡n Ġ
shÄģ Ġ
bÄģoĠ kuÃ²
wÇİng Ġ
jiÇİn Ġ
shÃ¨ng Ġ
zÇĶ Ġ
shÇĶ Ġ
gÇİng Ġ
huÃ¡ Ġ
lÇľ Ġ
qÃŃng Ġ
jÇĲng Ġ
liÇİng Ġ
zÃº Ġ
bÃłn Ġ
tÇĴng Ġ
gÃ²ng Ġ
shÄģng Ġ
lÃŃ Ġ
hÃ¹ Ġ
tÃ³ng Ġ
biÄģn Ġ
jÃ¬n Ġ
lÃ³ng Ġ
luÃ² Ġ
Ãłn Ġ
xÃ¹ Ġ
chÃŃ Ġ
Ãło Ġ
mÃ©i Ġ
jÇĲn Ġ
bÄģn Ġ
guÇİng Ġ
chÅ« Ġ
cÃ¨ Ġ
mÃ¬ Ġ
shÃ©n Ġ
ĠtÄģĠ men
zhÄĵng Ġ
zhÄ« Ġ
lÇĲng Ġ
yÃ²u Ġ
fÇİn Ġ
wÄĵi Ġ
Ġ zhÇĶĠ
Ġ xiÃłngĠ
huÃ³ Ġ
xÃŃ Ġ
tÃŃng Ġ
kÇİ Ġ
chÃ¡ Ġ
Ġ gÄģiĠ
cÃ¡i Ġ
gÃ²u Ġ
shuÅį Ġ
mÃ©n Ġ
cÃŃ Ġ
xiÇİng Ġ
mÇĶ Ġ
lÃ¨i Ġ
wÄĽi Ġ
qÇĶ Ġ
ĠgÅįngĠ lÇĲĠ
yÃ¡nĠ jiÅ«
Ġ duÅįĠ
tuÃ¡n Ġ
yÇĲn Ġ
jiÃłn Ġ
ĠyÄĽ Ġ
chÃ¡o Ġ
yÃ¬ng Ġ
chÃ©n Ġ
Ġ wÃłn
tÃ¡ng Ġ
xiÄĵ Ġ
qÃŃ Ġ
pÇĲn Ġ
ĠyÇĲ ĠjÃŃĠ
jiÃł Ġ
shÇĲĠ yÃ²ngĠ
jiÄĽ Ġ
hÃ¡ng Ġ
yÇĲ Ġ
lÃºn Ġ
rÃ³ng Ġ
Ġ yÃ³u
jiÇİng Ġ
pÃ¡i Ġ
fÅ« Ġ
jiÇĶ Ġ
1 Ġ
lÃ¬ng Ġ
Ã© Ġ
tÃ¡iĠ wÄģn
ĠhÃło Ġ
ĠdeĠ dÃ¬Ġ
xÅ« Ġ
kÄĽ ĠyÇĲĠ
huÃ¡ng Ġ
xiÄģn Ġ
duÃłn Ġ
kÃ¨ Ġ
dÇİng Ġ
mÃ³ Ġ
cÄģn Ġ
yÃŃng Ġ
tiÃ¡o Ġ
biÄģo Ġ
ĠdeĠ yÄ«Ġ
kÄģiĠ shÇĲĠ
quÃ¡n Ġ
zhÇİn Ġ
ĠchÃ©ngĠ wÃ©iĠ
yÄĽ Ġ
hÃ³ng Ġ
mÃ©i ĠyÇĴuĠ
hÃłn Ġ
yÄ«n Ġ
wÄĽi ĠyuÃ¡nĠ
qiÄģn Ġ
bÇİn Ġ
xiÃłn Ġ
lÃŃng Ġ
xiÄģo Ġ
ĠtÃ³ng Ġ
huÃŃ Ġ
sÅ« Ġ
fÃ¡ng Ġ
mÃ©ng Ġ
zhuÄģng Ġ
kÅįng Ġ
jÃº Ġ
cÅ«n Ġ
bÄģoĠkuÃ² Ġ
rÃ©nĠ kÇĴuĠ
ĠqÃŃ ĠzhÅįngĠ
2 Ġ
ĠgÅįngĠ sÄ«Ġ
huÃ² Ġ
zÇĲ Ġ
xÃŃng Ġ
dÅįu Ġ
ĠdeĠ shÃ¬Ġ
ĠĠĠ zÃłiĠ
qiÃ¡ng Ġ
zhÃło Ġ
dÃº Ġ
zhÃ¨ng ĠzhÃ¬Ġ
yÃŃ ĠgÃ¨
mÃ² Ġ
Ġ fÄĵnĠ
cÇİi Ġ
bÄ«ng Ġ
fÇİ ĠguÃ³Ġ
Ġ gÄģoĠ
ĠdÃłĠ xuÃ©Ġ
ĠshÃ¬Ġ yÄ«Ġ
hÃ¡i Ġ
ĠtÄģ ĠdeĠ
hÃº Ġ
chÃ¹ Ġ
qÄ«n Ġ
lÃ¹n Ġ
fÃłn Ġ
zhÄĵn Ġ
guÄģng Ġ
wÃ¨n Ġ
mÃłn Ġ
Ġ jiÃ©Ġ
shÃ¨ Ġ
biÇİo ĠshÃ¬Ġ
Ãłi Ġ
zhÅįng ĠdeĠ
jÅ« Ġ
Ġ jiÃłoĠ
zhuÄģn Ġ
diÃło Ġ
bÃ¡i Ġ
dÇİ Ġ
quÃ¨ Ġ
diÃłn ĠshÃ¬Ġ
Ġ dÅįngĠ
Ġ dÃ¹Ġ
fÃ¨i Ġ
ĠshÃ¬Ġ wÃ¨iĠ
Ġ mÃ¹Ġ
hÃ¡n Ġ
shÃ¬ ĠdeĠ
Ġ tÃ¨Ġ
xÃ¹n Ġ
Ġ jÄ«nĠ
piÃłn Ġ
mÃ¬ng Ġ
jÇĶ Ġ
Ġ jiÄģngĠ
tuÅį Ġ
gÃ¹ Ġ
ĠrÃ©nĠ kÇĴuĠ
xiÅ« Ġ
ĠbÃ¹Ġ fÃ¨nĠ
xiÃ© Ġ
zÃło Ġ
ĠhÃ©Ġ guÃ³Ġ
zhÅįngĠ guÃ³Ġ
guÇĴ Ġ
10 ĠyuÃ¨Ġ
shÅįu Ġ
Ġ zuÃ¬
xÃ¬n Ġ
12 ĠyuÃ¨Ġ
7 ĠyuÃ¨Ġ
9 ĠyuÃ¨Ġ
Ġ shÄ«Ġ
zhuÇİn Ġ
tÄģ Ġ
dÄģng Ġ
miÃłn ĠjÄ«Ġ
ĠrÃ©nĠ mÃŃnĠ
8 ĠyuÃ¨Ġ
xÃºn Ġ
ĠdÃ¬Ġ qÅ«Ġ
wÅ« Ġ
3 ĠyuÃ¨Ġ
Ġ guÃ²Ġ
Ġ suÇĴĠ
1 ĠyuÃ¨Ġ
Ġ jÄ«ngĠ
Ġ shÇĴuĠ
gÇİn Ġ
huÃ¡n Ġ
dÃŃ Ġ
xiÃ¡ Ġ
jiÇİ Ġ
5 ĠyuÃ¨Ġ
yÄ«ng ĠguÃ³Ġ
Ġ cÇĲĠ
3 Ġ
dÃło Ġ
dÇĲ Ġ
zhÅ« Ġ
tÄ«ng Ġ
zhÃ¨ng ĠshÃ¬Ġ
chÃ³ng Ġ
huÇĴ Ġ
zhÅįu Ġ
6 ĠyuÃ¨Ġ
zhuÃłng Ġ
chÃ©ng ĠshÃ¬Ġ
4 ĠyuÃ¨Ġ
ĠguÃ³Ġ jiÄģĠ
tiÃ¡n Ġ
gÃ¨ng Ġ
ĠĠĠ dÃ¬Ġ
fÃłng Ġ
yÇĴng Ġ
shÇĶ ĠyÃºĠ
ĠpÃŃngĠ fÄģng
pÃ² Ġ
jÅ«n Ġ
ĠdÃ¬Ġ yÄ«Ġ
Ġ qiÃ¡nĠ
11 ĠyuÃ¨Ġ
Ġ dÄĽngĠ
qÃ¹ Ġ
qÃºn Ġ
jiÃłng Ġ
tÃ¡o Ġ
ĠshÃ¬Ġ jÃ¬Ġ
ĠpÃŃngĠfÄģng ĠgÅįngĠlÇĲĠ
ĠtÃ³ng ĠshÃŃĠ
Ġ mÇİĠ
dÄģn ĠrÃ¨nĠ
Ġ tiÄģnĠ
Ġ rÃºĠ
gÄĵn Ġ
biÃ© Ġ
Ġ suÃ¬
pÃłi Ġ
dÅ« Ġ
shÇİo Ġ
liÃ¡ng Ġ
huÄ« Ġ
tiÄĽ Ġ
nÃ³ng Ġ
jÇĲ Ġ
ĠniÃ¡nĠ 1ĠyuÃ¨Ġ
tÇİ Ġ
diÃłnĠ yÇĲngĠ
Ġ qÄ«Ġ
zÅįng Ġ
chÇĶ Ġ
Ġ zhÃ¨
sÇĲ Ġ
ÄĽr Ġ
ĠdeĠ shÃŃĠ
shuÄģng Ġ
tÃ¡iĠwÄģn Ġ
qiÃ¡o Ġ
gÄĵn ĠjÃ¹Ġ
lÃ¬Ġ shÇĲĠ
chÃº Ġ
ĠshÃ¬Ġ zhÃ¨nĠ
gÃło Ġ
bÃłi Ġ
cÄģn ĠjiÄģĠ
yÃ¹nĠ dÃ²ng
gÄģng Ġ
chÄĵ ĠzhÃłnĠ
guÃ³ ĠdeĠ
jiÇİo Ġ
ĠwÃłn Ġ
ĠyÄ«n ĠwÃ¨iĠ
ĠrÃ¬Ġ bÄĽnĠ
ĠpÃŃngĠ fÄģngĠ
lÃ¬ ĠdeĠ
ĠniÃ¡n ĠdeĠ
gÃłi Ġ
pÃłn Ġ
Ġ wÃ©nĠ
Ġ hÇİiĠ
zhÃ¨ngĠ fÇĶĠ
bÃ¬ng Ġ
zhÇĶn Ġ
ĠniÃ¡nĠ 12ĠyuÃ¨Ġ
wÇİ Ġ
yÃłn Ġ
wÇĴ Ġ
gÃ²ng ĠhÃ©ĠguÃ³Ġ
ĠxiÃłn ĠdeĠ
Ġ fÃºĠ
yÃ¡ Ġ
yÃŃn Ġ
fÄģ ĠxiÃłnĠ
formula Ġ
chuÃłng Ġ
hÄĵi Ġ
Ġ suÇĴ
qÅ« ĠdeĠ
sÃ²ng Ġ
huÃłn Ġ
hÄģ Ġ
hÄĽn Ġ
5 Ġ
tÃŃ ĠgÅįngĠ
4 Ġ
jÃ¬n ĠxÃŃngĠ
Ġ bÄĽiĠ
lÃ©i Ġ
2 ĠyuÃ¨Ġ
jÄ«ng ĠjÃ¬Ġ
tÅįngĠ guÃ²Ġ
ĠniÃ¡nĠ 3ĠyuÃ¨Ġ
suÃŃ Ġ
chuÄģn Ġ
qiÄĽ Ġ
ĠzhÅįngĠ yÄģng
ĠguÃ³Ġ jÃ¬Ġ
huÄģ Ġ
shÃłng ĠdeĠ
ĠyÃ³u ĠyÃºĠ
Ġ yÃ²uĠ
lÄĵi Ġ
wÄĽiĠyuÃ¡nĠ huÃ¬Ġ
kÇİo Ġ
ĠniÃ¡nĠ 7ĠyuÃ¨Ġ
wÃ¡n Ġ
chÄĵng ĠwÃ©iĠ
ĠniÃ¡nĠ 10ĠyuÃ¨Ġ
bÇİi Ġ
dÄĵng Ġ
Ġ yÄ«ngĠ
ĠshÃ¬Ġ jiÃ¨Ġ
ĠyÄ«nĠ cÇĲĠ
mÃŃng ĠwÃ¨iĠ
ĠjÃ¬n ĠxÃŃngĠ
nuÃ² Ġ
ĠshÃ¬Ġ zÃłiĠ
chÅįng Ġ
ĠrÃ¡n Ġ
zhÇĶ ĠyÃ¬Ġ
ĠniÃ¡nĠ 9ĠyuÃ¨Ġ
kuÃłi Ġ
tÇĶ Ġ
ĠzhÄ« ĠhÃ²uĠ
yÃ¡nĠjiÅ« Ġ
ĠtÄģĠmen Ġ
qiÃº Ġ
mÃłi Ġ
shÃŃ ĠdeĠ
liÃłn Ġ
hÃło Ġ
ĠniÃ¡nĠ 5ĠyuÃ¨Ġ
Ġ liÃ¡nĠ
sÃł Ġ
lÃº Ġ
xÃ¬Ġ tÇĴngĠ
Ġ zuÃ¬Ġ
pÃ¨i Ġ
lÇĶ Ġ
ĠniÃ¡nĠ 4ĠyuÃ¨Ġ
chÇĲ Ġ
liÃło Ġ
ĠdÄģng Ġ
ĠniÃ¡nĠ 8ĠyuÃ¨Ġ
ĠniÃ¡nĠ 6ĠyuÃ¨Ġ
ĠxÃŃng ĠdeĠ
zÄĵng Ġ
rÃ©n ĠdeĠ
Ġ shÇĲĠ
xiÄģngĠ gÇİngĠ
xuÄģn Ġ
qÄ«Ġ jiÄģnĠ
dÃ© Ġ
kuÃłng Ġ
guÇİn ĠlÇĲĠ
ĠgÅįngĠ zuÃ²Ġ
piÃło Ġ
ĠzhÄ« ĠyÄ«Ġ
xÇĶ Ġ
Äĵn Ġ
dÄ« Ġ
hÃ©ng Ġ
dÃł ĠdeĠ
bÇĶ Ġ
yÃłng Ġ
sÄĵn Ġ
ĠzhÅįngĠ xÄ«nĠ
xuÄģn ĠbÃ¹Ġ
tuÄ« Ġ
ĠniÃ¡nĠ 11ĠyuÃ¨Ġ
zÇĶ ĠzhÄ«Ġ
rÃ¬ Ġ
wÃłng Ġ
bÃ¹ ĠdeĠ
pÃŃ Ġ
men Ġ
Ġ bÄģoĠkuÃ²Ġ
chÃłng Ġ
yÇĲngĠ xiÇİngĠ
yÇİng Ġ
ĠtÄģ ĠzÃłiĠ
qiÄģn ĠmÇĲĠ
sÄģi Ġ
ĠĠĠ shÄĵngĠ
Ã©r Ġ
ĠhuÃ² ĠdÃ©Ġ
pÄ« Ġ
ĠshÃ¬Ġ jiÃ¨
luÃ³ ĠsÄ«Ġ
hÃ¨ Ġ
kÄĽĠ nÃ©ng
chÃ©ng ĠdeĠ
Ġ gÄģi
Ġ qÄ«ngĠ
Ġ mÄĽi
niÃłn Ġ
dÃ¹n Ġ
xiÃ¡n Ġ
Ġ ÄģĠ
lÃ³u Ġ
qÃŃ ĠtÄģĠ
ĠniÃ¡nĠ 2ĠyuÃ¨Ġ
ĠchÃ©ngĠ lÃ¬Ġ
le ĠyÄ«Ġ
bÄģng Ġ
huÃ³Ġ dÃ²ngĠ
Ġ lÃ¡iĠ
ĠrÃ¨nĠ wÃ©iĠ
Ġ fÄĵn
Ġ bÇĲĠ
yÅįu Ġ
liÃ¹ Ġ
Ġ shÃ¹Ġ
kÄĵ ĠxuÃ©Ġ
fÄģĠ zhÇİnĠ
huÃ² ĠdÃ©Ġ
jÃ¹n Ġ
Ġ luÃ³Ġ
ĠzuÃ²Ġ wÃ©iĠ
6 Ġ
yÄģ Ġ
ĠpÃŃngĠfÄģngĠ qiÄģnĠmÇĲĠ
huÃ¡ ĠrÃ©nĠmÃŃnĠ
Ġ wÃºĠ
rÃ¬ ĠbÄĽnĠ
bÄĵi Ġ
lÇİo Ġ
huÃ¬ ĠyÃ¬Ġ
rÃ¨ Ġ
Ġ zhÃŃ
Ġ liÃºĠ
tÃ¡n Ġ
jiÄģn ĠdeĠ
kÃ¹ Ġ
tiÄĽ ĠlÃ¹Ġ
ĠdeĠ rÃ©nĠ
yÃ²ng ĠyÃºĠ
liÃ¡o Ġ
nÃŃng Ġ
ĠshÃŃĠ jiÄģnĠ
ĠdeĠ gÅįngĠ
Ġ zhÄģngĠ
Ġ shÄģnĠ
gÃ¨ Ġ
miÇİn Ġ
Ġ yÃ¡nĠ
miÃłnĠ jÄ«
mÃŃn ĠguÃ³Ġ
ruÃ¬ Ġ
wÅ« ĠkÃ¨Ġ
yÃ¬n Ġ
xiÇİn Ġ
lÃ¨ Ġ
zuÇĴ Ġ
gÃ²ng ĠyÇĴuĠ
ĠĠĠ lÃ¬ĠshÇĲĠ
hÇİo Ġ
ĠĠĠshÄĵngĠ pÃŃngĠ
huÃ¡ĠrÃ©nĠmÃŃnĠ gÃ²ngĠhÃ©ĠguÃ³Ġ
fÄģng ĠshÃ¬Ġ
fÄģĠ shÄĵngĠ
gÄģn Ġ
Ġ zhÃŃĠ
Ġ cÃ³ngĠ
dÃ²u Ġ
wÃ¨nĠ tÃŃĠ
guÃłn ĠjÅ«nĠ
zhÇĶĠ yÃłoĠ
rÃ¡n Ġ
dÃ¬ ĠdeĠ
ĠdÃ¬Ġ Ã¨rĠ
dÇİo ĠzhÃ¬Ġ
Ġ xiÇİoĠ
guÄģnĠ xÃ¬Ġ
cÃºn Ġ
kÄģng Ġ
cÄģn ĠyÃ¹Ġ
Ġ jÇĲnĠ
yuÇİn Ġ
ĠbÃ¹Ġ fÃ¨n
zhÄĽng Ġ
ĠgÅįngĠ chÃ©ngĠ
wÃ¡n ĠchÃ©ngĠ
dÄģn ĠwÃ¨iĠ
kÄĽĠ nÃ©ngĠ
Ġ zhÇĲĠ
Ġ wÇĶĠ
yÄ« ĠwÃ¨iĠ
Ġ zÃ©Ġ
1 ĠrÃ¬Ġ
xiÃ¨ Ġ
Ġ zÇĴngĠ
suÇĴ ĠyÇĴuĠ
zhÃ¬ ĠdeĠ
wÃ©nĠ huÃłĠ
ĠchÃ©ngĠ yuÃ¡nĠ
ĠdeĠ chÃ©ngĠ
gÄĽi Ġ
lÇļ Ġ
Ġ bÄģĠ
Ġ tÅįngĠ
yuÃ¡n ĠdeĠ
yÅįng ĠyÇĴuĠ
cÃºn ĠzÃłiĠ
Ã¨r ĠshÃŃĠ
bÄĽi ĠbÃ¹Ġ
liÃ¡n ĠhÃ©Ġ
hÃ²u ĠdeĠ
niÇĶ Ġ
Ġ xÃ¬Ġ
ĠshÃ¬Ġ zhÅįngĠ
zhÃ¨ngĠ fÇĶ
yÃ³u ĠyÃºĠ
guÃ³Ġ jiÄģĠ
duÃ¬ ĠyÃºĠ
ĠniÃ¡nĠ zhÃ¬Ġ
fÄģ ĠxÃŃngĠ
yÃ¬ ĠdeĠ
jÃ¹ ĠyÇĴuĠ
Ġ zhÇĲ
ĠjiÃłnĠ zhÃ¹Ġ
bÇĲĠ sÃłiĠ
ĠbÃ¬ng ĠzÃłiĠ
ĠdÃłoĠ leĠ
xÄ«n ĠdeĠ
Åįu Ġ
sÄ« ĠdeĠ
shÄĽn Ġ
zÃ¬Ġ jÇĲ
yÃ¹nĠ dÃ²ngĠ
yÃºn Ġ
xÃŃng ĠzhÃ¨ngĠ
yÃ¬n ĠdÃ¹Ġ
Ã©Ġ luÃ³ĠsÄ«Ġ
bÄ«n Ġ
Ġ miÃłnĠjÄ«Ġ
dÃłiĠ biÇİoĠ
Ġ mÄĽiĠguÃ³Ġ
shÃło Ġ
ge Ġ
Ġ lÃ¬ngĠ
xÇĶ ĠduÅįĠ
Ã¨ Ġ
ĠdÃłn ĠshÃ¬Ġ
rÃ¨n ĠhÃ©Ġ
shÄĵng ĠyÃºĠ
tÅ« Ġ
guÃ¬ Ġ
mÇİn Ġ
ĠniÃ¡nĠ dÃłiĠ
Ġ jiÇİnĠ
dÄ«ng Ġ
liÇİng ĠgÃ¨Ġ
chÃ¨ Ġ
bÇİoĠ hÃ¹Ġ
ĠrÃ©nĠkÇĴuĠ mÃ¬Ġ
Ġ shÇĲ
zh Ġ
xiÃ¹ Ġ
xuÃ¡n Ġ
ĠdÄģng ĠshÃŃĠ
zhÃłng Ġ
ĠdeĠ yÃŃĠgÃ¨Ġ
nÃ¡n ĠbÃ¹Ġ
jÇĶ ĠxÃŃngĠ
Ġ diÃłnĠ
zhuÄģn ĠjÃŃĠ
miÃłnĠjÄ« ĠwÃ¨iĠ
lÃ¡i ĠdeĠ
Ġ guÄģnĠ
fÄģn Ġ
zÇİo Ġ
Ġ cÃ©ngĠ
ĠzhÃ¨ngĠ fÇĶĠ
dÃº ĠlÃ¬Ġ
fÃºĠ wÃ¹Ġ
juÃ©Ġ dÃ¬ngĠ
xiÄĽ Ġ
ĠchÅ« ĠdeĠ
ruÃ² Ġ
zhÇĶĠ yÃło
kÄģiĠ shÇĲ
ĠlÃ¬Ġ shÇĲĠ
qÇĲng Ġ
Ġ sÄģnĠ
ĠshÃ¨ ĠjÃ¬Ġ
Ġ wÃ¡ngĠ
Ġ mÄĽiĠ
mÃŃng ĠdeĠ
hÃłi Ġ
rÃłng Ġ
ĠshÃ¬ĠwÃ¨iĠ yÃºĠ
jiÃ¹ ĠshÃ¬Ġ
ĠyÇĴuĠ yÄ«Ġ
gÄĵng Ġ
Ġ jiÄģng
gt Ġ
Ġ cÇĲ
Ġ gtĠ
xÇĲ Ġ
tÃłn Ġ
ĠqÃŃ ĠtÄģĠ
Ġ fÇİĠ
ĠxÃŃngĠ zhÃ¨ngĠ
pÃ©i Ġ
jiÃłoĠ yÃ¹Ġ
shÃ²u ĠdÃłoĠ
Äģi Ġ
Ġ fÄĵngĠ
lt Ġ
rÃ¨nĠ wÃ©iĠ
fÇİng Ġ
kÄģn Ġ
wÇİn Ġ
Ġ jiÄĵĠ
ĠshÃ¬Ġ dÃ¬Ġ
fÄģĠ zhÇİn
shÃ¨ ĠhuÃ¬Ġ
Ġ ltĠ
yÃ¬ ĠwÃ¨iĠ
gÃ¹ ĠshÃ¬Ġ
shÃłn Ġ
piÄģn Ġ
fÄģngĠ miÃłnĠ
ĠxiÃłn ĠzÃłiĠ
qÅ« ĠwÃ¨iĠ
ĠzuÃ¬ ĠzhÅįngĠ
Ġ bÃ¬Ġ
qÃŃn Ġ
ĠzhÅįngĠyÄģng Ġ
pÃło Ġ
ĠshÃ¬Ġ shÃ¬Ġ
tuÃ¬ Ġ
zhe Ġ
nÃ¨i ĠdeĠ
Ġ jiÃ¹Ġ
shÇĶ ĠdeĠ
xiÄģngĠ gÇİng
xiÇİo ĠshÃŃĠ
dÃłn Ġ
Ġ qÅ«Ġ
ĠlÃ¬Ġ rÃºĠ
zÃº ĠqiÃºĠ
shÃ¹Ġ jÃ¹Ġ
ĠbÃ¹Ġ tÃ³ng
liÃ¨Ġ chÄĵĠ
xÅ«Ġ yÃłoĠ
huÃł ĠdeĠ
Ġ suÄ«
Ġ dÃ²ngĠ
zhÃŃĠ wÃ¹Ġ
rÃ©n ĠshÃ¬Ġ
qiÄģng Ġ
zuÃ² ĠdeĠ
shÇĲĠ yÃ²ng
zÄĵng ĠjiÄģĠ
ĠjÃ¬Ġ huÃłĠ
mÃŃnĠ zhÇĶĠ
ĠshÃŃĠ qÄ«Ġ
zuÃ²Ġ wÃ©iĠ
Ġ gÇĶĠ
Ġ cÃ©ng
kÃ²ng ĠzhÃ¬Ġ
ĠyÄĽ ĠshÃ¬Ġ
duÇİn Ġ
tÇİn Ġ
ĠjiÃłn ĠdeĠ
yÄ«n ĠyuÃ¨Ġ
ĠrÃ¡n ĠÃ©rĠ
Ġ ÄģnĠ
Ġ shÇĶĠyÃºĠ
ĠyÇĲĠ jÄ«ngĠ
lÃ¡ng Ġ
ĠhÃ©Ġ zuÃ²Ġ
ĠzÃłiĠ dÃ¬Ġ
rÃ©nĠ mÃŃnĠ
ĠshÃ¬Ġ jiÃłnĠ
ĠrÃ©nĠ yuÃ¡nĠ
Ġ yÃ²u
tÄģ ĠdeĠ
Ġ kÄĵĠ
ĠjiÃłn ĠyÃºĠ
xuÃ©Ġ yuÃłnĠ
zÇĶ ĠchÃ©ngĠ
Ġ mÇİ
chÄģo ĠguÃ²Ġ
Ġ gÃ©Ġ
zuÃ²Ġ pÇĲnĠ
ĠyÄ«n ĠyuÃ¨Ġ
mÃło Ġ
ĠquÃ¡n ĠguÃ³Ġ
xiÃ³ng Ġ
zÇİi Ġ
hÅ« Ġ
huÃ¬ ĠdeĠ
jÃ¬ ĠdeĠ
Ġ sÃ¬Ġ
zÇĴngĠ tÇĴngĠ
suÃłn Ġ
ĠzhÃ¨Ġ xiÄĵĠ
7 Ġ
ĠwÃ¨iĠ leĠ
ĠhÃ²uĠ lÃ¡iĠ
yÃº ĠshÃ¬Ġ
Ġ shÃ²uĠ
Ġ pÇĶĠ
Ġ zhÇİngĠ
Ġ tÃłiĠ
ĠchÃ©ngĠ gÅįngĠ
fÄģ ĠbÃ¹Ġ
dÃłĠ lÃ¬Ġ
tÃŃ ĠchÅ«Ġ
ĠsuÃ¬ Ġ
ĠlÃ¬Ġ yÃłĠ
Ġ 000
ĠyÃ¬Ġ yuÃ¡nĠ
ĠshÃ¨ ĠyÇĴuĠ
ĠĠĠ deĠ
ĠyÄ«nĠ cÇĲ
yÃ¹nĠdÃ²ng ĠyuÃ¡nĠ
yÄģo ĠqiÃºĠ
hÃ¡n ĠguÃ³Ġ
bÃ¹ ĠzÃłiĠ
nÃŃĠ yÃł
pÃŃn Ġ
yÇĴu ĠdeĠ
pÃº Ġ
zÃło ĠchÃ©ngĠ
Åįu ĠzhÅįuĠ
qiÅ« Ġ
cÇİiĠ yÃ²ngĠ
xiÇİo ĠxÃŃngĠ
ĠgÅįngĠ yuÃ¡nĠ
jiÄģ ĠdeĠ
xÃ¬ng ĠdeĠ
bÇİ Ġ
shÄĵng ĠdeĠ
ĠdeĠ yÃŃĠgÃ¨
ĠrÃ¬ ĠzÃłiĠ
dÄģng ĠshÃŃĠ
kÃ²ng Ġ
rÃ©nĠ wÃ¹Ġ
fÃ¨ng Ġ
ĠcÇĲĠ wÃłiĠ
Ġ suÃŃ
gÃ²ngĠ chÇİnĠ
Ġ lÄģĠ
kÃłn Ġ
Ġ zhĠ
Ġ cÃ³ng
Ġ wÇĴĠ
Ġ shÄģĠ
8 Ġ
wÄģn Ġ
ĠshÃ¬Ġ hÃ©Ġ
2010 ĠniÃ¡nĠ
Ġ lÃ¬ng
Ġ gÄĵnĠjÃ¹Ġ
ĠdeĠ bÃ¹Ġ
Ġ tÇĲĠ
mÇİ ĠwÃ¨iĠ
xuÃ©Ġ jiÄģĠ
yÃ³uĠ xÃ¬Ġ
sÅįng Ġ
fÃłn ĠwÃ©iĠ
ĠbÃ¹Ġ tÃ³ngĠ
mÃ¡o Ġ
dÅ«n Ġ
kÄģiĠ fÄģĠ
chÄģo Ġ
shÃ¨ ĠjÃ¬Ġ
Ġ kÄĽĠ
sÄģn ĠniÃ¡nĠ
qÇĶ ĠdÃ©Ġ
ĠdeĠ jÄ«Ġ
Ġ nÇļĠ
sÃłi ĠshÃ¬Ġ
xiÅįng Ġ
ĠĠĠ shÃ¬Ġ
ĠxÃŃng ĠchÃ©ngĠ
ĠĠĠdÃ¬Ġ lÇĲĠ
wÄĵn Ġ
zÃ¬ ĠzhÃ¬Ġ
Ġ yÃŃĠ
chÇİn ĠshÄĵngĠ
Ġ wÃ¹Ġ
Ġ jiÄģnĠ
Äģ ĠÄĽrĠ
yÃ¡o Ġ
ĠdeĠ jÃ¬Ġ
shÅ« ĠjÃ¬Ġ
jiÃ©Ġ mÃ¹Ġ
ĠbÃ¬ng ĠyÃºĠ
10 Ġ
dÅįu ĠshÃ¬Ġ
nÇĲ Ġ
Ġ liÇİngĠ
chÃ³ng ĠxÄ«nĠ
lÃ¼Ã¨ Ġ
chÅ«n Ġ
ĠshÃ¨ ĠhuÃ¬Ġ
zhÃ²ngĠ yÃło
lÇĲ ĠdeĠ
bÃº ĠshÃ¬Ġ
zÃłn Ġ
ĠdÃłiĠ biÇİoĠ
yÄ« ĠniÃ¡nĠ
ĠxiÄģngĠ gÇİngĠ
ĠsÄ«Ġ tÃ¨Ġ
diÃłnĠ yÇĲng
guÄģn ĠyÃºĠ
dÃłng Ġ
zhuÄ« Ġ
xÃ¬Ġ tÇĴng
Ġ nÃłĠ
juÃ©Ġ sÃ¨Ġ
Ġ fÃº
jiÄģoĠ tÅįngĠ
dÇĲng Ġ
lÇİng Ġ
ĠyÃ³uĠ xÃ¬Ġ
dÃłĠ xuÃ©Ġ
jÃŃ ĠdeĠ
gÄĵĠ qÇĶĠ
chÃº ĠleĠ
ĠchÅ« ĠxiÃłnĠ
Ġ jiÃ©
tÇİo Ġ
2020 ĠniÃ¡nĠ
mÃŃ Ġ
ĠzhÃ¬Ġ zuÃ²Ġ
ĠdÃłĠ xuÃ©
pÃŃng ĠjÅ«nĠ
Ġ chÃ©nĠ
ĠdÃ© ĠguÃ³Ġ
xiÇİn ĠshÃ¬Ġ
huÃ¡Ġ mÃŃnĠguÃ³Ġ
Ġ shÄĵnĠ
kuÃ² Ġ
ĠniÃ¡nĠ zÃłiĠ
ĠzhÅįngĠ huÃ¡ĠrÃ©nĠmÃŃnĠgÃ²ngĠhÃ©ĠguÃ³Ġ
kÇĴng Ġ
hÃ²u ĠzÃłiĠ
miÃ¡o Ġ
Ġ liÇİng
ĠniÃ¡nĠ dÃłi
Ã¨r ĠniÃ¡nĠ
xiÃł ĠdeĠ
yÇİn ĠyuÃ¡nĠ
ĠkÃ¨ ĠsÄ«Ġ
Ġ 0
dÃ© ĠguÃ³Ġ
xiÃ¡ng Ġ
qÃ¬ng Ġ
Ġ bÇİoĠ
wÃ©i ĠyÄ«Ġ
cÇİo Ġ
dÄģng ĠdÃ¬Ġ
guÃ³Ġ jÃ¬Ġ
duÃ¬ ĠdeĠ
bÃ³Ġ wÃ¹Ġ
Ġ fÄĵiĠ
ĠjiÃłn ĠlÃ¬Ġ
hÅ«n Ġ
ĠdÃ¬Ġ guÃ³Ġ
ĠbÃ¹Ġ yÃºĠ
Ġ 1Ġ
fÇİn ĠduÃ¬Ġ
zÇĴu Ġ
qÄ« ĠdeĠ
duÄģn Ġ
wÃ¹ ĠdeĠ
xuÃ¨ Ġ
yÄ«n ĠwÃ¨iĠ
qÅ«Ġ yÃ¹Ġ
qÃ¹ ĠshÃ¬Ġ
kuÇİn Ġ
yÄ« ĠbÃ¹ĠfÃ¨nĠ
wÃ² Ġ
bÃ¡ ĠgÄģoĠ
Ġ chÃ¡ngĠ
quÄĵ Ġ
2001 ĠniÃ¡nĠ
guÇİnĠ xiÃ¡Ġ
dÃ¹ ĠwÃ¨iĠ
zhÃ¨ngĠzhÃ¬Ġ rÃ©nĠwÃ¹Ġ
Ġ kÇİĠ
pÃ©ng Ġ
nÃŃĠ yÃłĠ
hÃ¡i ĠyÇĴuĠ
Ġ fÄģĠ
ĠĠĠ rÃ©nĠkÇĴuĠ
ĠdÄģng ĠdÃ¬Ġ
zuÃ¬ ĠzhÅįngĠ
ĠtÄģ ĠshÃ¬Ġ
Ġ dÄģnĠ
ĠbÃ¹Ġ duÃ¬Ġ
Ġ yuÄĵĠ
lÃ¡iĠ zÃ¬Ġ
chÃ¬ Ġ
ĠxÃŃng ĠshÃ¬Ġ
Ġ 1
bÇĲĠ sÃłi
qiÃ¡nĠ wÇİngĠ
Ġ wÄĵiĠ
zhÃŃĠ yÃ¨Ġ
dÃ¬ng ĠdeĠ
quÃ¡n ĠguÃ³Ġ
bÄģ ĠshÃ¬Ġ
yÄ« ĠbÃ¹Ġ
ĠdeĠ yuÃ¡nĠ
ĠzhÃ¨ngĠ fÇĶ
Ġ chÃºĠ
zhÃ²ngĠ yÃłoĠ
Ġ lÃŃnĠ
diÃłoĠ chÃ¡Ġ
ĠzhÄ«Ġ jiÄģnĠ
biÄģnĠ mÇİĠwÃ¨iĠ
Ġ huÃ¡ngĠ
ĠniÃ¡nĠ jiÄģnĠ
ĠxuÃ©Ġ mÃŃngĠ
xuÃ©Ġ xiÃłoĠ
zhÄģo Ġ
zhÇĶĠ xÃŃĠ
xuÇİnĠ jÇĶĠ
ĠrÃ¬ ĠzhÃ¬Ġ
gÇİi ĠwÃ©iĠ
zÇĶ ĠzhÄ«
Ġ mÃ©iĠ
Ġ nÃ¨iĠ
zhÇĶĠ jiÃłoĠ
fÃ¡ Ġ
zÄ«Ġ liÃłoĠ
Ġ jÃ¬ngĠ
hÇİi ĠjÅ«nĠ
gÅįng ĠshÃ¬Ġ
ĠjÅ«n ĠshÃ¬Ġ
ĠdeĠ dÃłĠ
ĠrÃ©nĠkÇĴuĠmÃ¬Ġ dÃ¹Ġ
chÇĶ ĠlÇĲĠ
kÃłng Ġ
zÄģi Ġ
sÅ«n Ġ
ĠdeĠ yÃ¬Ġ
fÄģngĠ fÇİĠ
fÃ¹Ġ zÃ©Ġ
ĠrÃ¬Ġ bÄĽn
wÅ«ĠkÃ¨Ġ lÃ¡nĠ
ĠĠĠ yÇĶĠ
Ġ duÅį
guÃłn Ġ
Ġ bÅįĠ
Ġ jiÃ¨Ġ
shÃ¹ ĠdeĠ
ĠyÇĴuĠ xiÃłn
Ġ shÃ¨ngĠ
dÃłiĠ biÇİo
Ġ qÇĲĠ
Ġ sÄģn
ĠgÃ¨ ĠrÃ©nĠ
Ġ huÃłĠ
wÃºĠ fÇİĠ
yÇĲngĠ xiÇİng
ĠjÃ¬Ġ shÃ¹Ġ
ĠshÃ¬Ġ yÃ³uĠ
jiÄĵĠ rÇİng
jÅ«Ġ mÃŃnĠ
zuÃ¬Ġ gÄģoĠ
Ġ kÄģiĠ
Ġ gÇİiĠ
pÃł Ġ
qÃŃ ĠzhÅįngĠ
lÃ¹ ĠdeĠ
Ġ cÃ¬Ġ
Ġ hÃ³ngĠ
Ġ zÃ©
xuÃ©Ġ shÄĵngĠ
ĠzhÄ«Ġ chÃŃĠ
zÃ¬Ġ yÃ³uĠ
wÄĽn Ġ
biÄģoĠ zhÇĶnĠ
xiÃ© ĠhuÃ¬Ġ
shÃ¹Ġ liÃłng
qiÃ¨ Ġ
Äģn ĠquÃ¡nĠ
fÇİnĠ yÃ¬ngĠ
kÄĽ ĠyÇĲ
huÃ¬ ĠzÃłiĠ
yÄģo Ġ
shÃ¨n ĠzhÃ¬Ġ
kÄĽn Ġ
yÃ© Ġ
bÇĲ ĠlÃ¬Ġ
tÇĴng ĠzhÃ¬Ġ
Ġ 2Ġ
xÃ¬Ġ liÃ¨Ġ
Ġ suÃŃĠ
chuÃłng ĠzuÃ²Ġ
zhÇĶĠ rÃ¨nĠ
Ġ xÄ«n
ĠĠĠ bÄĽnĠ
dÅįng ĠbÃ¹Ġ
ĠdeĠyÃŃĠgÃ¨ ĠshÃ¬ĠzhÃ¨nĠ
ĠshÃ¬Ġ yÃŃĠgÃ¨Ġ
Ġ nÃ¡n
liÃ¡nĠ mÃ©ngĠ
ĠgÅįngĠ sÄ«
gÄģi ĠguÃ³Ġ
kÇİi Ġ
ĠfÃ¹Ġ zÃ©Ġ
Ġ mÃŃng
fÃ¡n Ġ
yÇİ Ġ
ĠdÃ¬Ġ sÄģnĠ
ĠdÃ¬Ġ shÃŃĠ
ĠĠĠ xÃŃngĠzhÃ¨ngĠ
Ġ sÅ«Ġ
tÇĲĠ yÃ¹Ġ
ĠbÃ¹Ġ guÃ²Ġ
jiÃ©Ġ gÃ²uĠ
niÃº Ġ
ĠdÃło ĠdeĠ
shÃŃ ĠniÃ¡nĠ
qÃŃngĠ kuÃłngĠ
nÃ©ng ĠlÃ¬Ġ
nÃ¡nĠ ziĠ
Ġ shuÇĲĠ
zhÅįng ĠshÃ¬Ġ
qÃŃngĠ kuÃłng
sÃ¬ ĠniÃ¡nĠ
ĠĠĠ of
A Ġ
Ġ gÄĵĠ
Ġ yÃ¡ngĠ
xÄ« ĠbÃ¹Ġ
hÃ¡o Ġ
gÅįng ĠbÃ¹Ġ
shÄĵngĠ huÃ³Ġ
jiÄĵĠ shÃ²uĠ
mÇĴu Ġ
nÇļĠ zÇĲĠ
Ġ Ãło
lÃ¹ ĠxiÃłnĠ
chÃ©ngĠ lÃ¬Ġ
ĠĠĠ formulaĠ
suÅį Ġ
ĠzhÅįngĠ xuÃ©Ġ
gÅ« Ġ
huÄģn Ġ
9 Ġ
miÃłn ĠdeĠ
ĠjÃ¬nĠ rÃ¹Ġ
yÃ¬ ĠshÃ¬Ġ
ĠÄĽr ĠsÄ«Ġ
ĠĠĠof ĠĠĠ
ĠzhÇĶĠ yÃłoĠ
bÄĽiĠ jÄ«ngĠ
Ġ kÄĽĠyÇĲĠ
the ĠĠĠ
Ġ bÄģ
yÇĴu ĠshÃŃĠ
liÃ¡nĠ sÃłiĠ
ĠyÃ¬Ġ huÃ¬Ġ
guÇİngĠ dÅįngĠ
duÃ³ Ġ
Ġ ÃłoĠ
ĠĠĠ jiÄģĠ
lÃ¡o Ġ
Ġ tÃ¡iĠ
jiÃłn ĠzhÃ¹Ġ
yÃł ĠzhÅįuĠ
dÇİo ĠdeĠ
ĠguÃ³Ġ mÃŃnĠ
yÄĽ ĠshÃ¬Ġ
nÃ¡ ĠdÃłĠ
tÃłi ĠpÃŃngĠ
dÃ²ngĠ wÃ¹Ġ
ĠsuÇĴ ĠyÇĲĠ
dÃ¬ ĠwÃ¨iĠ
rÇİn Ġ
guÇĲ Ġ
ĠzhÃ¨ ĠshÃ¬Ġ
bÃ¡ĠgÄģoĠ dÃ¹Ġ
dÃ¡ ĠdÃłoĠ
zÃ¬ĠjÇĲ ĠdeĠ
lÇĲ ĠshÃ¬Ġ
zhÃº ĠjiÃłnĠ
zhuÃłn Ġ
ĠbÃ¬ngĠ qiÄĽ
dÃłi ĠdeĠ
bÇİn ĠbÄĽnĠ
xÇĶĠ duÅį
zhÄĽ ĠdeĠ
jiÃłoĠ shÃ²uĠ
Ġ hÃ¡iĠ
Ġ Ã¨rĠ
2008 ĠniÃ¡nĠ
xiÃłngĠ mÃ¹Ġ
ĠxuÃ©Ġ xiÃłoĠ
Ġ hÃºĠ
Ġ dÃł
wÅ«ĠkÃ¨Ġ lÃ¡n
Ġ mÇĶĠ
fÄĵiĠ chÃ¡ngĠ
2009 ĠniÃ¡nĠ
ĠxÄ«Ġ yÃłĠ
qÄ«ng ĠniÃ¡nĠ
Ġ zÇĴng
ĠbÃ¬ngĠ qiÄĽĠ
ĠzhÇĶĠ yÃło
lÄģ ĠsÄ«Ġ
ĠĠĠ gÄĵnĠjÃ¹Ġ
yÄ« ĠshÃ¬Ġ
ĠchÃ©ngĠ wÃ©i
rÃ¬Ġ bÄĽn
mÃ³ ĠshÃ¬Ġ
zhÃ© Ġ
niÇİo Ġ
wÃ©nĠ wÃ¹Ġ
ĠtÄģĠmen ĠdeĠ
ĠyÃ¬Ġ shÃ¹Ġ
zhÇĲ ĠyÇĴuĠ
chÄģ Ġ
kuÄģn Ġ
ĠjÃ¬Ġ lÃ¹Ġ
ĠzhÅįu ĠdeĠ
Ġ ÃłiĠ
Ġ mÃŃnĠ
hÃ¡ngĠ kÅįngĠ
Ġ yÃºĠshÃ¬Ġ
wÃ©nĠ xuÃ©Ġ
Ġ bÃ³Ġ
fÄĵn ĠwÃ©iĠ
suÄģn Ġ
huÇĲ Ġ
ĠqÃŃ ĠshÃ¬Ġ
ĠqÃŃ ĠyÃºĠ
dÄĽng ĠrÃ©nĠ
tÅįngĠ guÃ²
cÃ¡ng Ġ
zhÇĲ ĠchÅ«Ġ
s Ġ
shuÃłi Ġ
Ġ yÃ²ngĠ
28 ĠrÃ¬Ġ
rÃ©nĠkÇĴuĠ pÇĶĠ
cuÃ² Ġ
zhÃŃ ĠxÃŃngĠ
Ġ jÄ«n
tÃ³ng ĠshÃŃĠ
ĠqiÃº ĠduÃ¬Ġ
zhÃł Ġ
ĠlÃ¬Ġ yÃł
yÇİn ĠchÅ«Ġ
zhÃŃĠ jiÄĵĠ
gÄģi ĠdÃ¬Ġ
jÇĲnĠ biÄģoĠ
gÃ©Ġ lÃ¡nĠ
2016 ĠniÃ¡nĠ
huÃ³Ġ dÃ²ng
rÃ¨nĠ wÃ©i
zhÃ¨ ĠyÄ«Ġ
jÃ¬nĠ rÃ¹Ġ
ĠzhÄ«Ġ jiÄģnĠdeĠ
ĠgÅįngĠ kÄģiĠ
ĠdÄģng ĠzhÅįngĠ
hÃ¹n Ġ
gÃ²ng ĠtÃ³ngĠ
xiÃł ĠjÃ¬Ġ
ĠdÃłn ĠzÃłiĠ
Ġ 2
Ġ C
zhÃłnĠ zhÄĵngĠ
chÃ³u Ġ
wÇĶ ĠniÃ¡nĠ
jiÄģng ĠjÅ«nĠ
Ġ wÃº
lÃ¨ ĠbÃ¹Ġ
mÃ©iĠ tÇĲĠ
tÇĲ ĠdeĠ
chÄĵĠ zhÃłn
pÅį Ġ
15 ĠrÃ¬Ġ
mÃ¨ng Ġ
tÃ¬ Ġ
tuÄ« ĠchÅ«Ġ
diÃ© Ġ
jiÃłoĠ yÃ¹
yÇĶn Ġ
zhÃ¨Ġ xiÄĵĠ
ĠshÃ¬Ġ wÃ¹Ġ
miÃło Ġ
lÃŃĠ kÄģiĠ
Ġ yÇĲnĠ
ĠlÃ¬ngĠ wÃłiĠ
huÃ¡nĠ jÃ¬ngĠ
tÃ©ng Ġ
zhÃº Ġ
2012 ĠniÃ¡nĠ
lÃŃnĠ pÇĲ
ĠdÃ¬Ġ Ã¨r
shÄģngĠ yÃ¨Ġ
2011 ĠniÃ¡nĠ
chuÃ¡nĠ tÇĴngĠ
ĠĠĠ niÃ¡n
guÄģn ĠdeĠ
sÄģn ĠshÃŃĠ
jÅ«n ĠshÃ¬Ġ
dÄģnĠ qÅ«Ġ
liÃłng ĠdeĠ
jiÄĵ ĠdÃłoĠ
sÃłn Ġ
jÄ« ĠdeĠ
qiÃ¡n ĠdeĠ
rÃ©n ĠzÃłiĠ
zÃłng Ġ
nÃ¨iĠ rÃ³ngĠ
sÃłi ĠjÃ¬Ġ
gÄģo ĠdeĠ
dÃ²ngĠ huÃłĠ
bÃ³ ĠshÃ¬Ġ
dÃ¹ ĠdeĠ
ĠwÃ¨iĠ rÃ©nĠ
Ġ mÇĲ
yÃŃnĠ hÃ¡ngĠ
xuÇİnĠ jÇĶ
ĠwÃ¨iĠ zhÃ¬Ġ
Ġ gÃ¹Ġ
sÇĶn Ġ
chÃ©ng ĠzhÅįngĠ
mÃ¬ng ĠmÃŃngĠ
dÄĽng ĠdÃ¬Ġ
ĠgÅįngĠ lÃ¹Ġ
bÇİng Ġ
rÃ¨ ĠdÃłiĠ
bÄĽiĠ jÄ«ng
ĠzhÃ¨Ġ geĠ
ĠshÃŃĠ jÃ¬Ġ
yÃ¹nĠdÃ²ng ĠhuÃ¬Ġ
xuÇİnĠ zÃ©Ġ
ĠdÃłĠ lÃ¬Ġ
ĠÃ©r ĠzÃłiĠ
Ġ hÃłnĠ
yuÃ¡n ĠniÃ¡nĠ
bÃłoĠ gÃłoĠ
Ġ yÃ¨Ġ
ĠmÃ¹Ġ qiÃ¡nĠ
ĠdeĠ hÃ©Ġ
bÅį ĠchÅ«Ġ
zuÃ¬ ĠjiÄģĠ
ĠĠĠ jÃ¹Ġ
zÅįng ĠjiÃłoĠ
xuÃ© ĠwÃ¨iĠ
tÇĶ ĠdÃ¬Ġ
ĠdÃ© ĠdÃłoĠ
wÃ©nĠ huÃł
zuÃ¬ ĠhÃ²uĠ
tuÃ¡nĠ tÇĲĠ
25 ĠrÃ¬Ġ
ĠdÃ¬Ġ fÄģngĠ
guÇĲ ĠdÃłoĠ
luÃłn Ġ
ĠwÃ¨iĠ dÃ¬Ġ
Ġ mÃ³Ġ
Ġ zhÃłn
jÄ«ng ĠlÃ¬Ġ
xÃ¬ ĠdeĠ
ĠzhÄ«Ġ qiÃ¡nĠ
shÄĽng ĠdeĠyÃŃĠgÃ¨ĠshÃ¬ĠzhÃ¨nĠ
ĠshÃ¬ĠyÄ«Ġ zhÇĴngĠ
ĠshÃ¬ĠwÃ¨iĠyÃºĠ mÄĽiĠguÃ³Ġ
Ġ qÃ¬Ġ
suÃ¬ Ġ
Ġ xÃ¬ngĠ
jÃŃ ĠzhÅįngĠ
ĠgÃ¨ ĠyuÃ¨Ġ
ĠjÅ«n ĠdeĠ
sÇĲĠ wÃ¡ngĠ
xiÄģngĠ guÄģnĠ
Ġ bÄģoĠkuÃ²
30 ĠrÃ¬Ġ
fÄĵnĠ biÃ©
ĠjÄ«Ġ gÃ²uĠ
wÃ¨i ĠdeĠ
shÇĴuĠ cÃ¬Ġ
ÃłoĠ lÃŃnĠpÇĲ
Ġ 12
B Ġ
lÇĲngĠ dÇİoĠ
ĠyÇĴuĠ guÄģnĠ
ĠhÇİiĠ bÃ¡ĠgÄģoĠdÃ¹Ġ
ĠyÄ«Ġ xiÄĵĠ
Ġ zhÃ²ngĠ
ĠtÃ³ng ĠniÃ¡nĠ
Ġ juÃ©Ġ
yÃ²ng ĠdeĠ
2014 ĠniÃ¡nĠ
huÃ¡i Ġ
ĠĠĠ wÃ¨iĠ
20 ĠrÃ¬Ġ
ĠxÃŃngĠ dÃ²ngĠ
xuÄĽ Ġ
ĠzÃłiĠ yÄ«Ġ
jÄ« ĠyÃºĠ
ĠzhÅįngĠ huÃ¡ĠmÃŃnĠguÃ³Ġ
shuÇĲ ĠyÃ¹Ġ
Ġ 5Ġ
biÃłnĠ huÃłĠ
10 ĠrÃ¬Ġ
shÃłng ĠwÃ¨iĠ
ĠjÃŃĠ tuÃ¡n
2018 ĠniÃ¡nĠ
ĠjÃ¬Ġ xÃ¹Ġ
zhÄ« ĠyÄ«Ġ
ĠshÃŃĠ dÃłiĠ
chÇĶ ĠyÃºĠ
wÃłn Ġ
UTC Ġ
gÃ²ng ĠhÃ©Ġ
Ġ wÃłiĠ
Ġ bÃ¡iĠ
de ĠĠĠ
mÄĽi ĠyuÃ¡nĠ
ĠbÃ¹Ġ zhÇİngĠ
zÃ¬Ġ jÇĲĠ
jiÃ©Ġ shÃ¹Ġ
Ġ ziĠ
2019 ĠniÃ¡nĠ
Ġ 14
ĠzÃ¬Ġ jÇĲ
zhÄ«Ġ chÃŃĠ
2005 ĠniÃ¡nĠ
guÃ² ĠchÃ©ngĠ
ĠhÃ²uĠ lÃ¡i
mÃŃnĠ zÃºĠ
shÃ¹n Ġ
2015 ĠniÃ¡nĠ
kÅįngĠ jiÄģnĠ
shuÃ¬ Ġ
mÃ¨i Ġ
bÃº ĠhuÃ¬Ġ
yÃ¨ ĠyÃºĠ
Ġ rÃº
Ġ chÄĵngĠ
tÃ²u ĠguÃ²Ġ
nÃ¨i ĠbÃ¹Ġ
2013 ĠniÃ¡nĠ
Ġ sÃ¬
jiÄĽĠ fÃłng
ĠzhÃŃ ĠdÃłoĠ
ĠyÃ¬Ġ zhÃŃĠ
Ġ jÇĲngĠ
xÄ«nĠ wÃ©nĠ
fÄĵn ĠbÃ¹Ġ
gÄĵnĠ jÃ¹
Ġ Ãłi
ĠzhÅįu ĠshÃ¬Ġ
pÄ« ĠpÃŃngĠ
ĠjÃŃĠ tuÃ¡nĠ
2007 ĠniÃ¡nĠ
Ġ jiÃ¹
Ġ shÇĶĠ
dÃ¬Ġ qÅ«Ġ
ĠĠĠ zhÃ¨Ġ
ĠhÃ©Ġ nÃ¡nĠ
tÄģĠ men
ĠshÃ¬Ġ shÃŃĠ
ĠyÇĴuĠxiÃłn ĠgÅįngĠsÄ«Ġ
wÃ¡n ĠjiÄģĠ
guÄ«Ġ dÃ¬ngĠ
Ġ shÃ©nĠ
ĠjiÄģĠ rÃ¹Ġ
gÃ©Ġ mÃ¬ngĠ
wÃ¡n ĠquÃ¡nĠ
chÃ©ngĠ wÃ©iĠ
Ġ tÃ¡ngĠ
xÄ«Ġ bÄģnĠ
zÄ«Ġ gÃ©Ġ
26 ĠrÃ¬Ġ
dÃłĠ lÃ¹Ġ
ÃłoĠlÃŃnĠpÇĲ ĠkÃ¨Ġ
ĠĠĠ gÄģiĠ
18 ĠrÃ¬Ġ
2017 ĠniÃ¡nĠ
ĠdÃłĠ huÃ¬Ġ
24 ĠrÃ¬Ġ
Ġ mÃ²Ġ
zÃłi ĠdeĠ
zÃ¡ ĠzhÃ¬Ġ
ĠĠĠ yÄ«Ġ
ĠzhÃ¨Ġ zhÇĴngĠ
Ġ tÃ³uĠ
yÄ«ng ĠyÇĶĠ
lÃ¹ ĠdÃ¬Ġ
Ġ yÄ«ngĠguÃ³Ġ
Ġ kÄĽ
hÃ© ĠdeĠ
shÃłngĠ hÇİiĠ
hÃ¡o ĠmÇĲĠ
ĠyÇĶĠ yÃ¡nĠ
qÃŃ ĠtÄģ
qÇĲĠ yÃ¨Ġ
pÃºĠ tÃ¡oĠ
fÄģng ĠdeĠ
hÃ²u ĠyÄ«Ġ
luÃ³Ġ mÇİĠ
wÃ¨nĠ tÃŃ
ĠchÃ©ngĠ qÅ«Ġ
sÄģn ĠgÃ¨Ġ
sÃ¨ ĠdeĠ
2006 ĠniÃ¡nĠ
chuÃ¡nĠ tÇĴng
ĠshÃ¬Ġ fÇİĠguÃ³Ġ
yÄ« ĠdeĠ
wÃ¹Ġ zhÇĴngĠ
Ġ yÃłoĠ
11 Ġ
ĠwÃ¨iĠyÃºĠ gÄģiĠguÃ³Ġ
Ġ 3Ġ
Ġ tÃ¡iĠwÄģnĠ
Ġ hÄģĠ
ĠlÇĲĠ sÄ«Ġ
jÃ¬ngĠ nÃ¨iĠ
ĠbÃ¹ĠtÃ³ng ĠdeĠ
Ġ mÃ²
wÃ¹ ĠlÇĲĠ
duÅį ĠdeĠ
shÃ¹ ĠwÃ¨iĠ
ĠdÃłiĠ biÇİo
biÇİo ĠxiÃłnĠ
ĠshÃ¬ĠjiÃ¨ ĠdÃłĠ
shÄĽng ĠjÃŃĠ
miÃ¡o ĠshÃ¹Ġ
fÇİĠ lÇľĠ
Ġ Äģ
gÃłn Ġ
bÃł Ġ
guÄģn ĠyuÃ¡nĠ
jÄ«ngĠ guÃ²Ġ
Ġ lÃºĠ
chÄģng Ġ
16 ĠrÃ¬Ġ
17 ĠrÃ¬Ġ
ĠzuÃ¬ ĠhÃ²uĠ
ĠyÃ¬Ġ bÄģnĠ
pÃ²Ġ huÃłi
ĠguÃ³Ġ jiÄģ
yÃŃng ĠdÃ©Ġ
cÃłi Ġ
ĠsuÃŃ ĠhÃ²uĠ
zhÃ¨ng ĠzÃłiĠ
nÃ¡ Ġ
bÄģoĠ hÃ¡nĠ
ĠshÃ¬Ġ jiÃłn
bÃ³ĠwÃ¹Ġ guÇİnĠ
ĠgÅįngĠ jÄ«Ġ
shÃ¨n Ġ
cÃ¨ ĠshÃ¬Ġ
chÇİng ĠdeĠ
ĠwÃ¨iĠ zhÅįngĠ
chÃºn Ġ
ĠlÃ¬Ġ yÃ²ngĠ
Ġ chÃ¡oĠ
bÃ¹ ĠhÃ©Ġ
Ġ cÃ¬
niÃ¨ Ġ
8 ĠrÃ¬Ġ
zÃ© ĠshÃ¬Ġ
sÅįu Ġ
fÄĵi ĠjÄ«Ġ
ĠfÄĵn ĠbÃ¹ĠyÃºĠ
zhuÄģnĠ yÃ¨Ġ
zhÄĵng ĠyÃ¬Ġ
27 ĠrÃ¬Ġ
fÇİĠ yuÃłnĠ
shÇĲ ĠdeĠ
ĠdÃ¬Ġ qÅ«
Ġ 2001ĠniÃ¡nĠ
yÅįng Ġ
21 ĠrÃ¬Ġ
yÃ¬ ĠshÃŃĠ
zÄģo ĠdÃłoĠ
ĠsuÄ« ĠrÃ¡n
ĠshÃ¬Ġ yÃ¬Ġ
ĠshÄĵngĠ huÃ³Ġ
Ġ chÃ³ngĠ
12 ĠrÃ¬Ġ
ĠbÃ¨iĠ chÄĵngĠwÃ©iĠ
dÃ¬ng ĠyÃ¬Ġ
ĠzhÅįngĠ xÄ«n
ĠdÃłĠ qÅ«Ġ
zÅįng ĠhÃ©Ġ
ĠzhÃłnĠ zhÄĵngĠ
xuÃ© ĠdeĠ
ĠxiÃłn ĠshÃŃĠ
7 ĠrÃ¬Ġ
ĠzhÅįngĠ gÃ²ng
19 ĠrÃ¬Ġ
s ĠĠĠ
Ġ Ã©Ġ
jÃŃ ĠwÃ¨iĠ
23 ĠrÃ¬Ġ
2021 ĠniÃ¡nĠ
huÃ¡ng ĠdÃ¬Ġ
ĠdeĠ zuÃ²Ġ
Ġ zhÅ«Ġ
zhÇĲ ĠshÃ¬Ġ
2022 ĠniÃ¡nĠ
11 ĠrÃ¬Ġ
Åįu ĠzhÅįu
ÄģĠ lÄģĠ
jiÄģng ĠqÃŃĠ
ĠbÃ¬ng ĠbÃ¹Ġ
yuÃ¡n ĠyÃºĠ
fÄģngĠ xiÃłngĠ
9 ĠrÃ¬Ġ
liÃ¹ ĠniÃ¡nĠ
zhÃłn ĠdeĠ
ĠĠĠ yÃºĠ
chÅ« ĠxiÃłnĠ
liÃ¨Ġ chÄĵ
quÃ¡n ĠlÃ¬Ġ
nÇİo Ġ
guÄ«Ġ mÃ³Ġ
22 ĠrÃ¬Ġ
29 ĠrÃ¬Ġ
liÃ¨ ĠdeĠ
zuÃ¬Ġ dÃłĠdeĠ
duÅįĠ shÃ¹Ġ
xiÃłng ĠdeĠ
Ġ zhÄģng
Ġ lÃ¹
xÅ«Ġ yÃło
Ġ lÃ³ngĠ
hÃ¡i ĠshÃ¬Ġ
yÃ¹ ĠdeĠ
nÃ©ngĠ gÃ²uĠ
yuÄĵĠ hÃłnĠ
ĠzhÃ¨Ġ xiÄĵ
5 ĠrÃ¬Ġ
ĠĠĠ cÇĲĠ
dÃ¬ng ĠwÃ¨iĠ
tÇĴng ĠjÃ¬Ġ
ĠxiÄģngĠ gÇİng
ĠĠĠ zhÃ¨ngĠzhÃ¬Ġ
sÄģng Ġ
ĠzÃłiĠ zhÃ¨Ġ
xÃ¬n ĠxÄ«Ġ
ĠĠĠ theĠĠĠ
yÃłng ĠdeĠ
ĠxiÃłn ĠzhÃ¬Ġ
gÅįng ĠdeĠ
3 ĠrÃ¬Ġ
hÅįng Ġ
jÇĶĠ bÃłn
ĠfÄĵnĠ biÃ©
qiÃº ĠduÃ¬Ġ
liÃ¡nĠ mÃ©ng
chÃ¡ ĠdeĠ
lÃ¬ng ĠyÄ«Ġ
14 ĠrÃ¬Ġ
chÃ¡ng ĠshÃ¬Ġ
mÄĽiĠguÃ³Ġ rÃ©nĠkÇĴuĠpÇĶĠ
6 ĠrÃ¬Ġ
niÇĶĠ yuÄĵ
zÇĶ ĠhÃ©Ġ
ĠhuÃ² ĠdÃ©
lÃŃn ĠshÃŃĠ
31 ĠrÃ¬Ġ
ĠzhÅįngĠ bÃ¹Ġ
wÃ¨i ĠshÃ¬Ġ
dÇĴng ĠshÃ¬Ġ
Ġ jiÃłĠ
Ġ bÃłoĠ
jÄ« ĠdÃ¬Ġ
gÄĵĠ shÇĴuĠ
Ġ liÃº
ĠĠĠ zhÅįngĠ
Ġ rÃ¹Ġ
dÅįngĠ nÃ¡nĠ
hÇİiĠ bÃ¡
bÄģng ĠzhÃ¹Ġ
ĠdeĠshÃ¬Ġ zhÃ¨nĠ
Ġ huÃ¡Ġ
Ġ gÃ²ngĠ
21 Ġ
4 ĠrÃ¬Ġ
pÄģi ĠshÃ¨Ġ
mÃ³u Ġ
ĠyÃ¬Ġ dÃłĠlÃ¬Ġ
2000 ĠniÃ¡nĠ
ĠshÃ¨ ĠlÃ¬Ġ
13 ĠrÃ¬Ġ
ĠyÃ¬Ġ bÄģn
2 ĠrÃ¬Ġ
ĠrÃ©nĠ kÇĴu
gÃ¨ ĠrÃ©nĠ
shÃ¨ ĠyÇĴuĠ
ĠdeĠ zhÅįngĠ
bÇĲng Ġ
shÄĵngĠ yÃ¡Ġ
yuÃ¡n ĠhÃ©Ġ
Ġ dÇİoĠzhÃ¬Ġ
ĠdÃ¬Ġ qÅ«ĠdeĠ
2004 ĠniÃ¡nĠ
ĠxuÃ©Ġ shÄĵngĠ
tiÄĽĠ lÃ¹
fÃ©ng Ġ
zÃº ĠqiÃº
zÇİo ĠqÄ«Ġ
ĠqÃŃ ĠtÄģ
The ĠĠĠ
pÃ¡n Ġ
xiÅįng ĠdÃ¬Ġ
ruÇİn Ġ
shÄĵng ĠzÃłiĠ
cÄģng Ġ
dÅįngĠ bÄĽiĠ
Ġ 13
mÃ¹ ĠdÃ¬Ġ
Ġ wÇĴ
tÅįngĠ chÃ¡ngĠ
huÄ« ĠfÃ¹Ġ
Ġ biÃłnĠ
ĠzhÃ¨ ĠyÄ«Ġ
ĠshÃ¬Ġ chÇİngĠ
ĠxuÃ©Ġ yuÃłnĠ
shÄģo Ġ
Ġ mÃ©iĠyÇĴuĠ
Ġ 4Ġ
shÄĵnĠ fÃ¨nĠ
ĠĠĠ yÃ³uĠyÃºĠ
qÇĶ ĠdÃłiĠ
gÃ©Ġ mÃ¬ng
zhÇĲĠ huÄ«Ġ
qÃŃngĠkuÃłng ĠxiÃłĠ
sÅ«Ġ liÃ¡nĠ
yÃŃ ĠbÃ¹Ġ
xiÃ© ĠyÃ¬Ġ
huÃ¡ng ĠjiÄģĠ
Ġ fÃ¹
kÄĵ ĠjÃ¬Ġ
fÄģ ĠxiÃłn
pÃ¡ng Ġ
zhÄĽng ĠgÃ¨Ġ
Ġ hÄĵiĠ
rÃ©n ĠhÃ©Ġ
ĠgÅįngĠ chÇĲĠ
liÃ¡nĠ bÄģngĠ
yÄģo ĠqiÃº
yÄģn Ġ
zhÄģn Ġ
chÄģo ĠjÃŃĠ
mÃło ĠyÃ¬Ġ
yuÃ¨ ĠdeĠ
zhÇİng ĠdeĠ
xuÃ©Ġ yuÃłn
fÇİnĠ yÃ¬ng
jÇĶĠ bÃłnĠ
hÃ¡ngĠ kÅįng
cuÄ« Ġ
xÃŃ ĠjÄ«Ġ
ĠyÄĽ ĠyÇĴuĠ
nÇļĠ xÃ¬ngĠ
huÃł ĠhÃ©Ġ
xiÇİoĠ shuÅįĠ
ĠdÃ¬Ġ lÃ¬Ġ
Ġ shÅ«Ġ
tÇĲng Ġ
lÃ¬ ĠhÃ©Ġ
ĠxÄ«Ġ nÃ¡nĠ
tÃºĠ shÅ«Ġ
guÄģnĠ fÄģngĠ
xiÄģn ĠhÃ²uĠ
tÇĴng ĠyÄ«Ġ
bÃ¬Ġ yÃ¨Ġ
Ġ hÄģ
Ġ shuÄģngĠ
Ġ gÃ¹
zÃ¡ Ġ
Ġ dÅįng
Ġ wÄĵi
br Ġ
zÅ«n Ġ
Ġ 15
Ġ mÃłnĠ
Ġ quÃ¨Ġ
sÃłi ĠdeĠ
hÃ³u Ġ
ĠyÇĲĠ jÄ«ng
Ġ brĠ
lÇİn Ġ
xiÃ© ĠzhÃ¹Ġ
cÃ¬ ĠshÃ¬ĠjiÃ¨ĠdÃłĠ
ĠrÃºĠ guÇĴĠ
shÃłng ĠshÃ¬Ġ
qÅ«Ġ huÃłĠ
20 Ġ
fÄĵn ĠxÄ«Ġ
yÇĶ ĠdeĠ
ĠÄĽrĠ shÄĽngĠ
rÃ©nĠkÇĴuĠ shÃ¹ĠliÃłng
wÃ©nĠwÃ¹Ġ bÇİoĠhÃ¹Ġ
ĠhÃ©Ġ yÄ«Ġ
ĠbÃ¹Ġ nÃ©ngĠ
Ġ bÄĽn
zÃ¬ ĠxÃŃngĠ
Ġ cÃ¡iĠ
jiÄĵĠ duÃłnĠ
Ġ qiÄģnĠ
Ġ zÇĶĠ
Ġ qiÄĽĠ
guÇİngĠ bÅįĠ
Ġ 6Ġ
ĠyÇĲĠ lÃ¡iĠ
ĠxÄ«Ġ bÄģnĠ
dÄģnĠ rÃ¨n
Ġ wÇĶ
ĠtÄģĠ cÃ©ng
chÃŃĠ xÃ¹Ġ
tÃ¡iĠ bÄĽi
wÃº ĠxiÃłnĠ
Ġ 3
gÃ²ngĠchÇİnĠ dÇİngĠ
guÃ³ ĠhÃ©Ġ
me Ġ
ĠyÇĲĠ xiÃłĠ
qÄ« ĠniÃ¡nĠ
tÃ¨ ĠdeĠ
dÇİoĠ yÇİnĠ
hÃ²u ĠyÃºĠ
yÇİnĠ chÃłng
zhÃ¹ ĠzÃłiĠ
rÃ©ng Ġ
fÄģĠ biÇİo
lÃłi Ġ
xiÃłĠ xiÃ¡
tiÃ¡o ĠjiÃłnĠ
pÃŃn ĠdÃłoĠ
ĠgÅįngĠ zuÃ²
yÃ¨ ĠdeĠ
jiÄģo ĠyÃ¬Ġ
hÇĶ Ġ
ĠzÃłiĠ cÃ¬Ġ
Ġ jiÇĶĠ
shÃło ĠniÃ¡nĠ
jiÃ©Ġ shÃ¹
ĠshÃ¬Ġ zhÅįngĠguÃ³Ġ
zÄģo Ġ
bÃło ĠdÃłoĠ
ĠrÃ©nĠkÇĴuĠmÃ¬Ġ dÃ¹ĠwÃ¨iĠ
qiÃº ĠyuÃ¡nĠ
ĠshÃ¬Ġ lÃ¬Ġ
Ġ qiÄĽ
ĠĠĠ bÃ¹Ġ
ĠzhÃ¨Ġ ge
juÃ©Ġ sÃłiĠ
Ġ 8
Ġ yÃłĠ
yÃ¬ngĠ yÃ²ngĠ
wÃłi ĠdeĠ
yÃ³uĠ zhÃ¨ngĠ
jiÃłn ĠlÃ¬Ġ
zÄ« ĠyuÃ¡nĠ
sÄģi ĠÄĽrĠ
Ġ A
ĠqÃŃ ĠhÃ²uĠ
Ġ zhÃłoĠ
Ġ xÄ«
zuÃ¬ ĠdÃłĠ
ĠbÃ¬ng ĠwÃ¨iĠ
Ġ 17
huÃŃ ĠdÃłoĠ
sÃ¹Ġ dÃ¹Ġ
cÄģo Ġ
qÃ¬ ĠhÃ²uĠ
kÄĽĠ dÃ¡Ġ
Ġ luÃ²Ġ
ĠwÃ¨iĠyÃºĠ fÇİĠguÃ³Ġ
gÇİiĠ gÃ©Ġ
mÃ¬Ġ shÅ«Ġ
ĠyÄ«Ġ yuÃłnĠ
diÃłnĠshÃ¬Ġ jÃ¹Ġ
zhuÃłngĠ tÃłiĠ
zhÃ¹ ĠdeĠ
fÃ¨n ĠwÃ¨iĠ
Ġ lÃ¡nĠ
ĠgÅįngĠ yÃ¨Ġ
wÇİng ĠzhÃłnĠ
gÅįngĠ sÄ«Ġ
Ġ jiÄĽĠ
jiÃ©Ġ guÇĴĠ
suÇĴĠ shÇĶĠdeĠ
ĠdeĠdÃ¬Ġ yÄ«Ġ
hÃº ĠnÃ¡nĠ
ĠyÄ«Ġ sÄ«Ġ
Ġ mÃłi
yÃł ĠlÃ¬Ġ
ĠwÃ¨iĠ yÄ«Ġ
shÃłngĠ hÇİi
20 ĠshÃ¬ĠjÃ¬Ġ
ĠzuÃ²Ġ pÇĲnĠ
zuÇĴ ĠyÃ²uĠ
xiÇİo ĠxuÃ©Ġ
jiÃ© ĠhÃ©Ġ
shÃ¨ng ĠlÃ¬Ġ
ĠzhÅįngĠ gÃ²ngĠ
shÇĴuĠ cÃ¬
ĠsuÇĴ ĠyÇĴuĠ
ĠhÃło ĠxiÃłnĠ
zhÃ¨nĠ qÅ«Ġ
ĠdeĠ fÃ¹Ġ
wÃ©n ĠmÃŃngĠ
ĠjiÇİnĠ chÄĵngĠ
kÄģiĠ fÄģ
yÃŃ ĠzhÃ¬Ġ
jiÃło ĠhuÃ¬Ġ
shÄĽngĠ fÃ¨nĠ
zhÇİnĠ kÄģiĠ
yÃ¬nĠ dÃ¹
shÃŃĠ qÄ«Ġ
Ġ fÇİĠguÃ³Ġ
S Ġ
lÇĲngĠ dÇİo
mÃ¹Ġ biÄģoĠ
Ġ 10
ĠÃ©r ĠshÃ¬Ġ
gÄģo ĠjÃŃĠ
zhÇĶn ĠbÃ¨iĠ
wÇİngĠ luÃ²Ġ
Ġ fÄĵi
ĠjiÃłn ĠshÃ¨Ġ
xÃ¹nĠ liÃłnĠ
kÄĵ ĠdeĠ
juÇİn Ġ
ĠrÃ©nĠ wÃ¹Ġ
xuÇİnĠ shÇĴuĠ
jiÄģoĠ tÅįng
hÇİo ĠdeĠ
fÄģĠ biÇİoĠ
zÃ¬Ġ rÃ¡nĠ
zhÃ²ngĠyÃło ĠdeĠ
Ġ jiÇİĠ
dÅįngĠ jÄ«ngĠ
chÇİnĠ pÇĲnĠ
gÃ²ngĠyÇĴuĠ rÃ©nĠkÇĴuĠ
ĠxiÃłnĠ dÃłiĠ
ĠyÄ«Ġ mÃŃngĠ
ĠxÄ«Ġ bÄĽiĠ
lÄĽi Ġ
fÄĵngĠ gÃ©Ġ
ĠchÃ©ngĠ jÃ¬Ġ
zÃ²u Ġ
ĠhÃ©Ġ dÃ¬Ġ
xiÇİoĠxÃŃngĠ xÄ«ngĠ
yÃ¡nĠ zhÃ²ngĠ
zi ĠdeĠ
miÃ¨ Ġ
mÃ¹Ġ qiÃ¡nĠ
wÃ©nĠwÃ¹ĠbÇİoĠhÃ¹Ġ dÄģnĠwÃ¨iĠ
Ġ dÄģnĠrÃ¨nĠ
ĠjÄ«Ġ chÇİngĠ
liÃº ĠxÃŃngĠ
biÃłn ĠchÃ©ngĠ
Ġ guÄģngĠ
qiÃ¡o ĠzhÃ¬Ġ
Ġ 16
Ġ mÃłiĠ
lÃ¨iĠ sÃ¬
diÃłnĠshÃ¬Ġ tÃ¡iĠ
12 Ġ
jiÄĽ ĠshÃ¬Ġ
guÃ³Ġ mÃŃnĠ
ĠyÃ¬Ġ qÇĲĠ
Ġ yÇĴngĠ
kÄģiĠ fÃłngĠ
Ġ shÃ¨nĠzhÃ¬Ġ
Ġ D
ĠxiÃłĠ lÃ¬ng
Ġ yÃŃĠgÃ¨Ġ
kÇİ ĠÄĽrĠ
Ġ dÄĽng
2003 ĠniÃ¡nĠ
xÃŃng ĠshÃ¬Ġ
dÅįu ĠyÇĴuĠ
2002 ĠniÃ¡nĠ
Ġ chÃºĠleĠ
zhÄ« ĠhÃ²uĠ
huÃ¬ ĠhÃ©Ġ
mÄĽi ĠpÃŃngĠfÄģngĠgÅįngĠlÇĲĠ
rÃ¹ ĠleĠ
ĠyÄ«Ġ yÃłngĠ
30 Ġ
ĠgÅįngĠ fÄĵnĠ
ĠshÃ¨ ĠzhÃ¬Ġ
tÃ¨Ġ zhÄĵngĠ
cÄģnĠ sÃłiĠ
ĠsÄ«Ġ jÄ«Ġ
Ġ wÅ«Ġ
rÃº ĠxiÃłĠ
zhÄĵn ĠduÃ¬Ġ
ĠyÄ«ngĠ chÇĲĠ
jiÃ¹ ĠshÃ¬ĠzhÃ¨nĠ
ĠshÃ¬Ġ fÇĴu
bÃłng Ġ
ĠshÃŃĠ jiÄģn
gÄģo ĠzhÅįngĠ
ĠcÇĲ ĠhÃ²uĠ
ĠzÃłiĠ zhÅįngĠ
bÃ¬Ġ xÅ«Ġ
wÃ¡ng ĠguÃ³Ġ
bÇĲĠ jiÃłoĠ
Ġ chÄĵĠ
Ã¨r ĠshÃ¬Ġ
diÄģo Ġ
wÃłiĠ jiÄģo
guÄ«Ġ huÃłĠ
Ġ yÇĶ
Ġ biÇİoĠshÃ¬Ġ
ĠyÃ¬Ġ zhÃ¬Ġ
lÃ¨iĠ sÃ¬Ġ
zhÃ¨Ġ geĠ
shÄģnĠ dÅįngĠ
ĠrÃ¡n ĠhÃ²uĠ
ĠyÃ¬Ġ zhÃŃ
ĠlÃ¬Ġ shÇĶĠyÃºĠ
yuÃ¡n ĠshÃ¬Ġ
ĠsuÄ« ĠrÃ¡nĠ
duÃ¬ ĠzÃłiĠ
zhÃ¹ ĠmÃŃngĠ
yÃºn ĠnÃ¡nĠ
Ġ shÄģngĠ
hÄĽn ĠduÅįĠ
ĠÄĽr ĠdeĠ
huÃ² ĠdÃ©
shÄĵngĠ chÇİnĠ
Ġ 9
ĠĠĠ gÅįngĠ
zhÃłn ĠyÃ¬Ġ
Ġ bÄĽi
Ġ tÃºĠ
zhÃ²ng ĠdeĠ
diÃłnĠ ziĠ
ĠĠĠ dÃłĠ
ĠjiÃłn ĠzhÃ¬Ġ
xÄ«n ĠjiÄģĠ
lÃ¡iĠ zÃ¬
zhÃ¬Ġ zuÃ²Ġ
shÄģn ĠxÄ«Ġ
rÃ©nĠkÇĴuĠshÃ¹ĠliÃłng ĠwÃ¨iĠrÃ©nĠ
tÃło Ġ
Ġ gÇĶ
jÃ¹ ĠjÃŃĠ
ĠdeĠyÄ«Ġ zhÇĴngĠ
ĠdeĠ mÃŃngĠ
ĠwÃłn ĠrÃ©nĠ
Ġ E
jÃŃ ĠhÃ©Ġ
Ã©Ġ luÃ³Ġ
ĠxÄ«Ġ yÃł
lÇļ ĠyÃ³uĠ
ĠzhÃ¬Ġ zÃłoĠ
ĠxÃŃngĠ wÃ©iĠ
mÇİĠ lÃ¡i
bÃłoĠ fÄģĠ
nÇļ ĠÃ©rĠ
Ġ rÃ¨n
Ġ INSEE
zÇĴng ĠlÇĲĠ
quÃ¡n ĠqiÃºĠ
sÄ« ĠhÃ©Ġ
0 Ġ
Ġ zÇĶ
Ġ duÃ¬ĠyÃºĠ
ĠdeĠ zhÇĶĠ
sÃłi ĠzhÅįngĠ
ĠshÃłngĠ hÇİiĠ
fÄģ ĠshÃ¨Ġ
ruÃ¬ ĠshÃ¬Ġ
bÄģoĠ hÃ¡n
nÃ³ngĠ yÃ¨Ġ
chÃł Ġ
yÃ¨Ġ wÃ¹Ġ
lÃ¹ ĠjÅ«nĠ
tÃ³uĠ zÄ«Ġ
wÃ¹ ĠzhÃ¬Ġ
juÃ© ĠdeĠ
nÃłi Ġ
ĠfÄĵn ĠzhÅįngĠ
ĠjÃ¬n ĠshÃ¬Ġ
ĠdeĠshÃŃĠ hÃ²uĠ
ĠtÃ¨Ġ biÃ©
tÃ¨Ġ biÃ©Ġ
ÃłoĠlÃŃnĠpÇĲĠkÃ¨Ġ yÃ¹nĠdÃ²ngĠhuÃ¬Ġ
gÃ© ĠdeĠ
ĠzhÃ¬Ġ jÄ«nĠ
fÄģngĠ ÃłnĠ
sÄ« ĠrÃ©nĠ
huÃłĠ xuÃ©Ġ
ĠdÃłĠ liÃłngĠ
jÃŃ ĠshÃ¬Ġ
mÇĲn Ġ
Ġ nÃŃĠ
kÄĽĠnÃ©ng ĠshÃ¬Ġ
qiÇİn Ġ
ĠniÃ¡nĠ dÃ¹Ġ
jÃ¬n ĠdeĠ
ĠzhÄ«Ġ wÃłiĠ
sÃ¬ ĠshÃŃĠ
liÃ¡nĠ jiÄĵĠ
cÃ¡o Ġ
Ġ gÃ¨ngĠ
Ġ zhÃ¨ngĠshÃ¬Ġ
Ġ 00
xuÇİn ĠwÃ¨iĠ
ĠshÃ¨Ġ shÄ«Ġ
chÃ¹ ĠdeĠ
tÇĶ ĠÄĽr
ĠlÃ¬Ġ sÄ«Ġ
bÃ³Ġ tÃ¨Ġ
ĠzÇĴngĠ miÃłnĠjÄ«Ġ
fÄģĠ dÃ²ngĠ
luÃ³Ġ mÇİ
chuÃłng ĠlÃ¬Ġ
ĠdeĠ lÃ¬Ġ
ĠniÃ¡nĠ hÃ²uĠ
ĠdÃ© ĠlÇĲĠ
guÇİngĠ chÇİngĠ
liÃ¡n ĠhÃ©ĠguÃ³Ġ
jÃŃ ĠshÃŃĠ
gÄĵngĠ mÃŃngĠwÃ¨iĠ
zÇİo ĠniÃ¡nĠ
xiÃło ĠlÃ¬Ġ
qÃ¬ ĠdeĠ
biÇİoĠ yÇİnĠ
Ġ zhÄĵnĠ
yÃŃ ĠshÃ¬Ġ
ĠjÅ«n ĠzÃłiĠ
rÃ©ng ĠrÃ¡nĠ
fÄģngĠ miÃłn
juÃ©Ġ dÃ¬ng
ĠgÄģiĠ shÄĽngĠ
dÄģ Ġ
Ġ xiÄģnĠ
Ġ xiÃłng
zhÃ¬ ĠshÃ¬Ġ
ĠgÅįngĠ nÃ©ngĠ
Ġ hÃ¡nĠ
zÇĴngĠ tÇĴng
ĠrÃ©nĠkÇĴuĠmÃ¬ĠdÃ¹Ġ mÄĽiĠpÃŃngĠfÄģngĠgÅįngĠlÇĲĠ
Ġ 6
ĠrÃ©nĠkÇĴuĠmÃ¬ĠdÃ¹ĠwÃ¨iĠ mÄĽi
ĠxiÃłĠlÃ¬ng ĠshÃŃĠ
yÃ³uĠzhÃ¨ngĠ biÄģnĠmÇİĠwÃ¨iĠ
chÃ¡ĠdeĠ shÃ¹ĠjÃ¹Ġ
ĠĠĠ bÃ¨iĠ
ĠjÃ¹Ġ lÃ¨ĠbÃ¹Ġ
ĠshÃ¬ĠzhÃ¨nĠ biÄģnĠmÇİĠwÃ¨iĠ
ĠINSEE ĠshÃ¬ĠzhÃ¨nĠbiÄģnĠmÇİĠwÃ¨iĠ
biÄģoĠ zhÇĶn
ĠshÃ¨ ĠdeĠ
xuÇİnĠ qÅ«ĠwÃ¨iĠ
ĠzÃłiĠ cÇĲĠ
ĠbÃ¹Ġ guÃ²
Ġ xiÄģoĠ
pÃ¡i ĠmÃŃngĠ
ĠguÃ³Ġ wÃ¡ngĠ
dÃ²ng ĠlÃ¬Ġ
shÃŃĠdeĠ rÃ©nĠkÇĴuĠshÃ¹ĠliÃłngĠwÃ¨iĠrÃ©nĠ
2023 ĠniÃ¡nĠ
jiÄĵĠrÇİng ĠdeĠshÃ¬ĠzhÃ¨nĠ
Ġ P
Ġ qÄ«ng
mÄĽiĠguÃ³ĠrÃ©nĠkÇĴuĠpÇĶĠ chÃ¡ĠdeĠshÃ¹ĠjÃ¹Ġ
jiÄģ ĠlÃ¬Ġ
cÃ³ng ĠshÃ¬Ġ
ĠÃ©r ĠrÃ©nĠkÇĴuĠmÃ¬ĠdÃ¹ĠwÃ¨iĠmÄĽi
gÃ©Ġ lÃ¡n
ĠdÄģngĠdÃ¬Ġ gÃ²ngĠyÇĴuĠrÃ©nĠkÇĴuĠ
fÄĵnĠ lÃ¨iĠ
jiÄĽĠ juÃ©Ġ
zÃº ĠdeĠ
liÃ¡nĠ bÄģng
dÃł ĠbÃ¹ĠfÃ¨n
yÄ«Ġ zhÇĴngĠ
Ġ jiÇİngĠ
lÇĲng ĠyÃ¹Ġ
ĠhuÃ²Ġ jiÃ¹ĠshÃ¬ĠzhÃ¨nĠ
shÇĲĠyÃ²ng ĠdeĠ
ĠĠĠ lÃ¬Ġ
hÃ© ĠshÃ¬Ġ
ĠchÅ«Ġ bÇİnĠ
yÃ¹nĠ yÃŃngĠ
shÄĽngĠjÃŃĠ xuÇİnĠqÅ«ĠwÃ¨iĠ
Ġ kÄģiĠshÇĲĠ
jÄ« ĠjÃŃĠ
ĠdeĠ yÄ«ĠbÃ¹ĠfÃ¨nĠ
shÃŃ ĠshÃ¬Ġ
gÅįu Ġ
Ã©rĠ ziĠ
jiÇĶ ĠniÃ¡nĠ
zuÃ²Ġ pÇĲn
xuÇİn ĠrÃ©nĠ
gÃłiĠ niÃłnĠ
xÄ«ng ĠdeĠ
ĠÄĽr ĠdÃ©Ġ
shÄĽng ĠhÃ©Ġ
ĠjÇĲnĠ guÇİnĠ
jiÄĵĠ shÃ²u
tiÃ¡oĠ yuÄĵĠ
fÃ¨nĠwÃ¨iĠ fÇİĠguÃ³Ġ
ĠgÄģiĠshÄĽngĠ fÃ¨nĠwÃ¨iĠfÇİĠguÃ³Ġ
ĠchÅ«Ġ bÇİn
ĠzhÄ« ĠxiÃłnĠ
tiÄĽ ĠdÃłoĠ
ĠdÃ¬Ġ sÄģn
Ġ sÃ²ngĠ
ĠniÃ¡nĠ chÅ«Ġ
ĠÃ©rĠ qiÄĽĠ
ĠjÅ«nĠ duÃ¬Ġ
guÇİng ĠzhÅįuĠ
ĠbÃ¹Ġ jiÇĶĠ
Ġ duÃ¬
Ãło ĠdÃłĠlÃ¬Ġ
ĠwÃ¨iĠ shÃŃĠ
ĠxÄ«Ġ lÃł
fÃº ĠjiÃłnĠ
and ĠĠĠ
ĠhÃ©Ġ bÃ¬ng
Ġ 4
zhÃłnĠ zhÄĵng
ĠyÇĴuĠ rÃ©nĠ
pÃ¡iĠ mÃŃng
zhÃłn ĠshÃ¬Ġ
zuÃ¬Ġ hÃ²uĠyÄ«Ġ
tÃ¨Ġ biÃ©
qÃºnĠ dÇİoĠ
jÇĲnĠbiÄģoĠ sÃłiĠ
lÃ¡i ĠyuÃ¡nĠ
ĠtÄģĠ bÃ¨iĠ
jÇĲngĠ chÃ¡Ġ
xÄ«ng ĠjiÃłnĠ
ĠchÅ«Ġ shÄĵngĠyÃºĠ
Ġ ruÃ²Ġ
bÄģ ĠniÃ¡nĠ
shÃ¨ ĠlÃ¬Ġ
rÃ©ng ĠrÃ¡n
Ġ gÃ¨ng
Ġ yÃ¬ĠwÃ¨iĠ
dÃ¬Ġ yÄ«Ġ
ĠrÃ¬ ĠdeĠ
bÄĽn ĠdeĠ
wÄĽi ĠhuÃ¬Ġ
Ġ K
ĠyÃ³uĠ xÃ¬
lÃºnĠ dÅ«n
ĠrÃ©nĠ gÅįngĠ
xuÃ©Ġ xiÃło
shÇİn ĠxÄ«Ġ
ĠzhÃ¬Ġ yÃºĠ
liÃ¨ ĠwÃ¨iĠ
ĠbÃ¹Ġ mÃŃngĠ
Ġ fÃłnĠ
tÅįngĠ chÃ¡ng
Ġ jiÄģoĠ
mÇĶ ĠsÄ«Ġ
ĠmÃŃngĠ chÃ¡oĠ
yÃ¹n ĠxÃŃngĠ
cÃ©ng ĠzÃłiĠ
Ġ shÇĲĠyÃ²ngĠ
mÄĽi ĠzhÅįuĠ
cÇİiĠ yÃ²ng
ĠdÃ¬Ġ sÃ¬Ġ
yÃ¡nĠjiÅ« ĠsuÇĴĠ
guÇİngĠ fÃłnĠ
Ãło ĠsÄ«Ġ
ĠxiÃłnĠ lÃ¹Ġ
gÇİnĠ rÇİnĠ
rÃ²u Ġ
mÃ©ngĠ gÇĶĠ
ĠshÃ¬Ġ bÃ¹Ġ
yÇĲ ĠjÃŃĠ
ĠhÃ©Ġ pÃŃngĠ
ĠĠĠ tÄģ
huÃł ĠshÃŃĠ
U Ġ
zhÃłn ĠhÃ²uĠ
jiÄģĠ rÃ¹Ġ
tiÄģnĠ wÃ©nĠ
nÃ¡n ĠjÃŃĠ
shuÅįĠ fÇİĠ
Ġ fÃ¨iĠ
Ġ rÃłng
xÄ« ĠzÃłiĠ
ĠjÃ¬n ĠdeĠ
ĠrÃ¨nĠ wÃ©i
Ġ dÃŃĠ
ĠjÄ«Ġ bÄĽnĠ
ĠjÃ¹Ġ lÃŃĠ
Ġ cÄģnĠ
mÃ³ ĠxÃŃngĠ
Ġ chÃ©n
guÃ²Ġ chÃ©ngĠzhÅįngĠ
ĠdeĠdÃ¬Ġ fÄģngĠ
Ġ dÃ¡Ġ
ĠdeĠ xÄ«nĠ
jÃ¬Ġ shÃ¹Ġ
Ġ chÇİngĠ
ĠjiÃłn ĠyÃ¬Ġ
ĠtÄģ ĠyÇĶĠ
Ġ shÃ²u
yÃ¹nĠ shÅ«Ġ
gÃ²uĠ mÇİi
wÃ¡n ĠquÃ¡n
Ġ 5
wÇĶ ĠshÃŃĠ
ĠkÃ¨ ĠdeĠ
rÃ¨nĠwÃ©i ĠshÃ¬Ġ
ĠzÃłiĠ yÃ¬Ġ
ĠgÃ¨ ĠdÃ¬Ġ
duÅį ĠgÃ¨Ġ
bÃłnĠ gÅįngĠshÃ¬Ġ
Ġ 10ĠyuÃ¨Ġ
tÃ³ng ĠyÄ«Ġ
wÃłi ĠguÃ³Ġ
ĠzÇĴng ĠrÃ©nĠkÇĴuĠ
xuÃ© ĠshÃ¬Ġ
shÃłng ĠyÇĴuĠ
zhÇİo Ġ
Ġ T
yuÃ¡n ĠwÃ¨iĠ
gÅįngĠ zuÃ²Ġ
ĠzÃ¬Ġ jÇĲĠ
nÃŃ ĠsÄ«Ġ
ĠzÃłiĠ zhÅįngĠguÃ³Ġ
quÄģn Ġ
Ġ xÄ«ngĠ
Ġ Äģi
xuÃ©Ġ xÃŃĠ
yÇİngĠ huÃłĠ
fÄĵi ĠxÃŃngĠ
Ġ jiÃ¨
ĠyÄ«Ġ xiÄĵ
xuÄģnĠ chuÃ¡nĠ
mÃ² ĠxÄ«Ġ
xuÇİnĠ zÃ©
chÄĵng ĠwÃ¨iĠ
xiÄģo ĠxÄ«Ġ
ĠxiÃłn ĠrÃ©nĠ
ĠdeĠ guÄģnĠ
hÇİi ĠjÅ«n
biÄģo ĠzhÃ¬Ġ
ĠbÃ¹Ġ mÃ©nĠ
Ġ hÃ¹Ġ
zhÃ¬ ĠwÃ¨iĠ
qÇĲĠ lÃ¡iĠ
Ġ kÄĵ
yÃ³uĠ xÃ¬
huÃ¡nĠ jÃ¬ng
mÃ¡ Ġ
fÃ¹ĠzÃ©Ġ guÇİnĠxiÃ¡Ġ
ĠwÃ©iĠ zhÇĶĠ
ĠĠĠ yÇĲĠ
Ġ dÇİĠ
gÃ²u ĠchÃ©ngĠ
shÄ« ĠdeĠ
Ġ ÃłnĠ
chÄĵĠ liÃłngĠ
Ġ 7
zhÃ© ĠxuÃ©Ġ
Ġ M
xÃ¬Ġ bÄģoĠ
kÄĵng Ġ
ĠjÃ¬Ġ huÃł
Ġ lÃŃn
sÄ« ĠzÃłiĠ
zhÃ¨ng ĠdeĠ
Ã¡ng Ġ
dÇİng ĠdeĠ
Äģn ĠquÃ¡n
bÇĲ ĠdÃ©Ġ
ĠdÃłoĠ lÃ¹Ġ
Ġ G
jiÃ¨ ĠquÃ¡nĠguÃ³Ġ
chÃ¡oĠ xiÄģnĠ
Ġ huÄģĠ
yÃŃnĠ hÃ¡ng
Ġ dÅįuĠ
jiÃłĠ zhÃŃĠ
Ġ Ã¨r
xÄ« ĠdeĠ
ĠshÃ¬Ġ mÄĽiĠguÃ³Ġ
ĠshÃ¬Ġ tÃºĠ
zhÅįng ĠzÃłiĠ
ĠjÃ¬Ġ niÃłnĠ
zhÇĶĠ juÃ©Ġ
Ãłn ĠdeĠ
sÃ¬Ġ chuÄģnĠ
bÃ¹ ĠwÃ¨iĠ
pÃ©ng ĠyÇĴuĠ
1999 ĠniÃ¡nĠ
ĠjÃŃĠ qÃŃĠ
ĠĠĠ hÃ©Ġ
Ġ fÇİnĠ
chÃŃĠ xÃ¹
ĠĠĠ yÇĴuĠ
Ãłi ĠÄĽrĠ
m Ġ
ĠgÅįngĠ gÃ²ngĠ
ĠzhÄ«Ġ chÃŃ
kÃłng ĠyÃ¬Ġ
Ġ tÃ¡iĠwÄģn
yuÄĵ ĠwÃ¨iĠ
tÃłi ĠguÃ³Ġ
ĠÃ©rĠ qiÄĽ
jiÄĵ ĠwÃ¨iĠ
xuÇİnĠ qÅ«Ġ
shÃŃ ĠzÃłiĠ
yÃ¬ ĠhÃ©Ġ
huÃ¬ ĠyÇĴuĠ
shÄĵngĠ wÃ¹Ġ
xiÃłoĠ zhÇİngĠ
wÃ©n ĠjiÃłnĠ
ĠbÃ¨iĠ ÄĽrĠ
ĠjiÃ© ĠzhÃ¬Ġ
shÅįuĠ rÃ¹Ġ
gÄĵĠ qÇĶ
biÄģo ĠwÃ¨iĠ
fÃ³ ĠjiÃłoĠ
rÃ³ng ĠyÃ¬Ġ
ÃłoĠ yÃ¹n
ĠĠĠ shÃŃĠ
Ġ qiÃ¡ngĠ
ĠĠĠ chÄĵĠzhÃłnĠ
ĠshÄĵngĠ wÃ¹Ġ
suÇĴĠshÇĶĠdeĠ shÄĽngĠjÃŃĠxuÇİnĠqÅ«ĠwÃ¨iĠ
yÇİn ĠdeĠ
biÄģn ĠjÃŃĠ
ĠzhÃłnĠ zhÄĵng
sÄ« ĠdÃ¬Ġ
yÄĽ ĠyÇĴuĠ
qiÃłn Ġ
zhÃ¨ngĠ cÃ¨Ġ
qiÃ¡nĠ wÇİng
jÃ¬ ĠzhÅįngĠ
mÇĲ ĠÄĽrĠ
yÇĶĠ yÃ¡nĠ
Ġ ruÃ²
jÅ«n ĠduÃ¬Ġ
jiÄĽĠfÃłng ĠjÅ«nĠ
ÃłoĠ yÃ¹nĠ
ĠyÃ²uĠ chÄĵngĠ
tiÇİo ĠzhÃłnĠ
ĠyuÃ¡nĠ zhÃ¹Ġ
ĠchÅ«Ġ leĠ
Ġ yÇİnĠ
Ġ yÃ¹
ĠzhÃ¬Ġ dÃ¹Ġ
Ġ tÃŃĠ
gÄģo ĠyÃºĠ
ĠshÃ¬Ġ yÃŃĠgÃ¨
wÃº ĠrÃ©nĠ
ĠhuÃ² ĠshÃ¬Ġ
Ġ tÅįngĠguÃ²Ġ
gÇİn ĠdÃłoĠ
nÃ¡nĠ xÃ¬ngĠ
ĠyÇĲĠ shÃłngĠ
mÃłnĠ huÃłĠ
R Ġ
Ġ quÃ¨
gÇİiĠ biÃłnĠ
ĠĠĠ 2021
ĠdÃ¬Ġ xiÃłĠ
mÇİ ĠlÃ¬Ġ
Ġ zÃ¬
fÃ³ Ġ
jiÄĵĠrÇİng Ġ
pÃ¨i ĠhÃ©Ġ
kÅ«n Ġ
tÃ³uĠ rÃ¹Ġ
jiÄģ ĠrÃ©nĠ
wÄĽnĠ dÃ¬ngĠ
1998 ĠniÃ¡nĠ
zhÇĲĠ huÄ«
ĠzhÅįngĠ yÇĴuĠ
ĠzÃłiĠ bÃ¹Ġ
rÇĶ Ġ
a ĠĠĠ
tÃŃ ĠmÃŃngĠ
dÃ¡ ĠchÃ©ngĠ
ĠyÄ«Ġ zhÇĴngĠ
mÃ² ĠsÄ«Ġ
nÃ¨ Ġ
Ġ zhuÄģnĠ
zÃłi ĠshÃ¬Ġ
tÃ³ng ĠdeĠ
jiÇİnĠ jiÃ¨Ġ
ĠzhÅįngĠguÃ³Ġ rÃ©nĠmÃŃnĠ
biÇİo ĠmÃŃngĠ
duÃ³ ĠdeĠ
tÃŃngĠ zhÇĲĠ
Ġ F
Ġ pÃŃng
Ġ hÃ¡iĠyÇĴuĠ
zhÄģ Ġ
shÄĵnĠ fÃ¨n
ĠÃ©rĠrÃ©nĠkÇĴuĠmÃ¬ĠdÃ¹ĠwÃ¨iĠmÄĽi ĠpÃŃngĠfÄģngĠqiÄģnĠmÇĲĠ
Ġ lÃŃĠ
xiÇİo ĠdeĠ
zhÃ¨ng ĠshÃŃĠ
cÃ¨ ĠdeĠ
zÃło ĠdeĠ
ĠwÃ¨iĠ fÃº
juÄģn Ġ
fÄĵn ĠzhÄ«Ġ
quÃ¨Ġ zhÄĽn
Ġ I
Ġ hÃ¡oĠmÇĲĠ
ĠĠĠ andĠĠĠ
2024 ĠniÃ¡nĠ
ĠĠĠ 2020
ĠjÄ«Ġ bÃłiĠ
tiÄģnĠ zhÇĶĠjiÃłoĠ
Ġ pÃŃĠ
bÃłnĠ dÇİoĠ
Ġ bÅį
ĠĠĠ yuÃ¡nĠ
guÃ³ ĠzÃłiĠ
wÇĶĠ qÃ¬Ġ
tÄģĠ menĠ
ĠĠĠ in
Ġ biÄģnĠ
ĠjiÄģĠ nÃ¡ĠdÃłĠ
ĠpÃŃngĠfÄģngĠ mÇĲĠ
zÃ¬ĠzhÃ¬Ġ qÅ«Ġ
Ġ mÃ©nĠ
Ġ 8ĠyuÃ¨Ġ
lÄģ ĠkÃ¨Ġ
lÃ¨i ĠdeĠ
ĠĠĠ zÃ¬Ġ
hÃ¹n ĠhÃ©Ġ
ĠzÃ¬Ġ yÃ³uĠ
ĠzÃłiĠ mÄĽiĠguÃ³Ġ
ĠshÃŃĠ yÃłn
zuÃ¬Ġ zÇİo
jÇĶ ĠrÃ©nĠ
tuÃ¡n ĠduÃ¬Ġ
dÃ¬ ĠshÃ¬Ġ
kÄĽĠnÃ©ng ĠhuÃ¬Ġ
yÄģ ĠlÃ¬Ġ
quÃ¡n ĠbÃ¹Ġ
Ġ sÅ«
jÃ¬ ĠwÃ¨iĠ
ĠÃ©r ĠbÃ¨iĠ
ĠjÃ¬Ġ chÃ©ngĠ
gÃ²ng ĠxiÃłnĠ
xÄ«ĠbÄģnĠ yÃ¡Ġ
jÃ¬Ġ huÃłĠ
ĠshÃŃĠ shÄ«Ġ
jiÃ©Ġ mÃ¹
Ġ bÃ¨i
ĠjiÃ©Ġ guÇĴĠ
a Ġ
shÄĵngĠ chÇİn
lÃ¡iĠ shuÅįĠ
lÃ¬ ĠbÃ¹Ġ
zhÃ¨Ġ zhÇĴngĠ
chÇİnĠ yÃ¨Ġ
Ġ wÃ¡ng
Ġ chuÃ¡nĠ
xÃŃngĠ dÃ²ngĠ
Ġ hÃ¡i
ĠqÄ«Ġ jiÄģnĠ
fÄģn ĠyÃ¬Ġ
ĠdÃ¬Ġ tiÄĽĠ
ĠchÅ«Ġ rÃ¨nĠ
shÇİoĠ shÃ¹Ġ
cÄģo ĠzuÃ²Ġ
jiÇİnĠ chÃ¡Ġ
bÃłn ĠshÃ¬Ġ
jiÄģĠ nÃ¡ĠdÃłĠ
yÇĲngĠ piÃłnĠ
chÅįngĠ tÅ«Ġ
ĠzÃłiĠ dÃłĠ
ĠtÄģ ĠyÃºĠ
bÇİoĠ hÃ¹
Ãłn ĠjiÃłnĠ
jÃ¬Ġ niÃłnĠ
chÃ³ng ĠjiÃłnĠ
Ġ mÃ¹
shÇĴu ĠdeĠ
ĠjiÃłnĠ zhÃ¹
ĠshÃŃĠ fÄĵnĠ
Ġ Äģn
ĠshÃ¬Ġ yÇĲĠ
xÃŃng ĠwÃ©iĠ
xÄ«n ĠlÇĲĠ
cÃ©ngĠ jÄ«ngĠ
ĠshÇĲ ĠdeĠ
gÃ²ng ĠtÃ³ng
dÃ²ng ĠdeĠ
kÅįng ĠjÅ«nĠ
ĠzhÇĲ ĠyÇĴuĠ
bÃłn ĠgÅįngĠ
zhÃ¨Ġ ge
ĠxiÃłn ĠwÃ¨iĠ
dÃł ĠbÃ¹ĠfÃ¨nĠ
ĠzhÃ¬Ġ zuÃ²
qÄ«Ġ jiÄģn
jiÃ©Ġ gÃ²u
nÃłn Ġ
ĠyÃ¬Ġ yÇĴuĠ
ĠlÃ¬Ġ rÃº
liÃ¡nĠ xÃ¹Ġ
juÃ©Ġ sÃ¨
jÃŃ ĠzÃłiĠ
shÄĵn ĠdeĠ
yÄģng Ġ
ĠhÃ©Ġ bÄĽiĠ
ĠwÃ¨iĠ nÃ©ngĠ
amp Ġ
zhÇĶĠ tÃŃĠ
xiÄģngĠ duÃ¬Ġ
fÄĵnĠ biÃ©Ġ
ĠhÃ©Ġ liÃºĠ
gÅįngĠ yuÃ¡nĠ
mÃ©iĠ tÇĲ
liÃ¡nĠ sÃłi
jiÇİnĠ shÇİoĠ
tÃ²u Ġ
tÃ²ng Ġ
ĠyÃ²u ĠmÃŃngĠ
ĠyÇĲĠ sÃ¨Ġ
fÃ¨nĠ zÇĲĠ
xiÃłn ĠdÃłiĠ
ĠshÃ¬ĠyÄ«Ġ mÃŃngĠ
xiÇİoĠ zÇĶĠ
ĠtÇĲĠ zhÇİngĠ
ĠĠĠ 2019
ĠxÄ«Ġ wÃłngĠ
Ġ zhÃ¨nĠ
yÃ¬ng ĠdeĠ
wÄĽiĠyuÃ¡nĠ huÃ¬
C Ġ
mÃ¬ngĠ mÃŃngĠwÃ¨iĠ
Åįu ĠyuÃ¡nĠ
ĠgÅįngĠ sÄ«ĠdeĠ
ĠliÇİng ĠrÃ©nĠ
yÃ¬ ĠzÃłiĠ
dÃ²ng ĠjÄ«Ġ
dÇİ ĠjÄ«Ġ
ĠdeĠdÃ¬Ġ qÅ«Ġ
Ġ guÄ«Ġ
zhÇİn ĠshÃ¬Ġ
Ġ 19
ĠzhÃŃ ĠzhÃ¬Ġ
ĠshÃ¨Ġ qÅ«Ġ
Ġ lÃŃngĠ
ĠjÃ¬Ġ xÃ¹
Ġ N
shÇĴu ĠwÃ¨iĠ
xÃºnĠ huÃŃĠ
ĠsÄ«Ġ lÃ¬ng
shÃ¹Ġ liÃłngĠ
xiÃłĠ wÇĶĠ
24 Ġ
1996 ĠniÃ¡nĠ
lÃ¹ĠdÃ¬Ġ miÃłnĠjÄ«ĠwÃ¨iĠ
Ġ liÃ¨Ġ
yÃ²ngĠ lÃ¡iĠ
shuÇĲĠyÃ¹Ġ miÃłnĠjÄ«ĠwÃ¨iĠ
ĠlÃ¬Ġ jÃŃĠ
qÇĲĠ yÃ²ngĠ
lÃ¨i ĠxÃŃngĠ
rÃ¨nĠ wÃ¹Ġ
ĠguÃ³Ġ lÃ¬Ġ
ĠshÃŃĠ zÃ¬Ġ
ĠyÄ«Ġ cÃ¬Ġ
duÅįĠ cÃ¬Ġ
Ġ wÇİngĠ
pÃŃngĠ jiÃłĠ
bÃ¹ ĠshÃ¬Ġ
Ġ biÃłn
Ġ 2009ĠniÃ¡nĠ
ĠĠĠ 2018
ĠdeĠ shÇĴuĠ
ĠfÃ¹Ġ jÃ¬nĠ
jÇĶ ĠxÃŃngĠdeĠ
fÃº ĠhÃ©Ġ
zhuÃ³ Ġ
tÇĲĠ xÃ¬Ġ
wÃłiĠ jiÄģoĠ
ĠzhÃ¨Ġ jiÄģngĠ
1997 ĠniÃ¡nĠ
Ġ xiÃłoĠ
ĠdÃłĠ shÇĲĠ
zuÃ²Ġ jiÄģĠ
ĠshÃ¨ ĠbÃ¨iĠ
18 Ġ
mÄĽi ĠniÃ¡nĠ
liÇİng ĠgÃ¨
ĠlÃ¬Ġ fÇİĠ
zhÃ¹ ĠyÃ¬Ġ
Ġ ampĠ
diÃłn ĠlÃ¬Ġ
dÃ© ĠdÃłoĠ
ĠsÄ«Ġ lÃ¬ngĠ
ĠcÃ³ng ĠÃ©rĠ
fÇİĠ lÇľ
lÃºnĠ dÅ«nĠ
Ġ guÇİngĠ
kuÃŃ Ġ
jiÃłoĠ tÃ¡ngĠ
ĠdÄģngĠzhÅįngĠ lÃ¹ĠdÃ¬ĠmiÃłnĠjÄ«ĠwÃ¨iĠ
zhÃ¬ ĠhÃ©Ġ
ĠÃ©rĠ shuÇĲĠyÃ¹ĠmiÃłnĠjÄ«ĠwÃ¨iĠ
qÇĶĠ xiÄģoĠ
shÄĵngĠ huÃ³
fÃºĠ wÃ¹
zhÃŃ ĠdeĠ
jiÃ© ĠzhÃ¬Ġ
ĠĠĠ xÄ«Ġ
diÄģn Ġ
ĠĠĠ 2022
xuÃ©Ġ zhÄĽĠ
shuÇĲ ĠpÃŃngĠ
hÇİiĠ yÃ¹Ġ
nÃ¨iĠ rÃ³ng
ĠzhÄ« ĠshÃŃĠ
zhÃ¹Ġ zuÃ²Ġ
Ġ 9ĠyuÃ¨Ġ
yÄ«ngĠ gÃ©ĠlÃ¡nĠ
ĠdÃłĠ chÃ©nĠ
Ġ TheĠĠĠ
ĠchÃ©ngĠlÃ¬Ġ yÃºĠ
ĠĠĠ gÃłiĠ
lÇļ ĠkÃ¨Ġ
tuÃ² Ġ
zhÃ¬ ĠzÃłiĠ
Ġ zhÅįngĠdeĠ
jiÄĵ ĠjÃ¬nĠ
ĠxÄ«nĠ wÃ©nĠ
chÃ¡ngĠ qÄ«Ġ
ĠwÃ©iĠ ÄĽrĠ
lÃ¬ngĠ wÃłiĠ
Ġ huÃŃĠ
ĠĠĠxÃŃngĠzhÃ¨ngĠ qÅ«ĠhuÃłĠ
Ġ 11
rÃ¨nĠ mÃ¬ng
ĠjiÄģĠ shÃłngĠ
yuÃłnĠ zhÇİngĠ
bÇĲĠsÃłi ĠzhÅįngĠ
Ġ xuÄģnĠbÃ¹Ġ
jÇĲ ĠyÇĶĠ
diÇİn ĠdeĠ
xÄ«Ġ yÃ¡ngĠ
ĠyÇĲĠ hÃ²uĠ
guÄ«Ġ mÃ³
ĠjÅ«n ĠwÃ¨iĠ
mÃŃn ĠdeĠ
shuÃ² ĠshÃ¬Ġ
ĠdÃ© ĠdeĠ
wÄĵiĠ liÃ¡nĠ
wÄĽiĠ shÅ«ĠjÃ¬Ġ
ĠyÃ¬Ġ rÃ©nĠ
jiÄģ ĠhÃ©Ġ
1992 ĠniÃ¡nĠ
tÃłiĠ yÃ¡ngĠ
dÇİo ĠyÇĶĠ
pÄ«Ġ zhÇĶnĠ
dÃłi ĠyÇĴuĠ
hÄĵng ĠlÃ¬Ġ
ĠshÃ¬Ġ yÄ«ĠwÃ¨iĠ
ĠxuÃ©Ġ xiÃło
ĠwÃ¨iĠfÃº ĠqÃŃĠyÃºĠ
Ġ 7ĠyuÃ¨Ġ
guÅį Ġ
cÄģnĠ yÃ¹
cÃ¬ĠshÃ¬ĠjiÃ¨ĠdÃłĠ zhÃłnĠ
ĠshÃ¬Ġ qÅ«Ġ
fÄģ ĠchÅ«Ġ
gÄģoĠ sÃ¹
ĠĠĠ yÃ¬Ġ
xÃ¬ng ĠzhÃ¬Ġ
yÇİnĠchÃłng ĠhuÃ¬Ġ
ĠyuÃ¡nĠ yÄ«nĠ
quÃłn Ġ
tÇİoĠ lÃ¹nĠ
Ġ formulaĠ
tuÃ¬ ĠyÃ¬Ġ
Ġ mÃ©ngĠ
Ġ tuÅįĠ
Ġ huÇĴĠ
bÇĲĠ yÃłĠ
fÄĵngĠ bÃłoĠ
jÄ« ĠzhÃ¬Ġ
xÃ¬n ĠhÃłoĠ
yÃł ĠdeĠ
nÃ©ngĠ gÃ²u
shÃ²uĠ shÄģngĠ
Ġ cÃŃĠ
ĠĠĠ 2017
ĠjiÃłn ĠchÃ©ngĠ
wÃ¨iĠ zhÃ¬Ġ
liÃ¡nĠ xÃ¬Ġ
ĠrÃºĠ guÇĴ
rÃº ĠhÃ©Ġ
bÃ¬Ġ xÅ«
ĠtÇĲĠzhÇİngĠ kÄĽĠdÃ¡Ġ
ĠÄĽrĠ tÃ¨Ġ
bÇİoĠ chÃŃĠ
zhuÄģn ĠjiÄģĠ
fÅ« ĠrÃ©nĠ
jiÇİng ĠxiÃłngĠ
chÄģ ĠyÃ¬Ġ
ĠjÄ«ngĠ guÃ²Ġ
ĠjÄ«Ġ gÃ²u
ĠzÃłiĠ yÃºĠ
ĠdeĠyÄ«Ġ zuÃ²Ġ
ĠtÅįngĠ chÃ¡ngĠ
Ġ gÇİi
wÅį Ġ
shÃ²u ĠyÇĶĠ
miÇİo Ġ
Ġ 2010ĠniÃ¡nĠ
wÇİng ĠlÃ¹Ġ
jÄ«ngĠ yÃŃngĠ
Ġ H
Ġ 12ĠyuÃ¨Ġ
Ġ mÃŃnĠguÃ³Ġ
tÄģn Ġ
gÃ²ngĠchÇİnĠ dÇİng
ĠkÃ¨ ĠlÇĲĠ
ĠshÄĵngĠ chÇİnĠ
ĠbÃ¹Ġ lÇĲĠ
kÃło Ġ
ĠyÇĲĠ xiÃł
diÃłnĠ tÃ¡iĠ
cÅ«nĠ zhuÄģngĠ
Ġ 11ĠyuÃ¨Ġ
lÃ¡i ĠdÃłoĠ
suÃŃ ĠhÃ²uĠ
ĠzhÄ« ĠzhÅįngĠ
Ġ chÃ¡ng
bÃ¬Ġ yÃ¨ĠyÃºĠ
xÃ¹nĠ liÃłn
Ġ zhÅ«
Ġ 21Ġ
cuÃ² ĠshÄ«Ġ
fÇİ ĠdeĠ
ĠyÃ¬Ġ shÃ¹
zÇĴngĠ dÅ«Ġ
zhÃ¹Ġ mÃŃngĠdeĠ
ĠshÃ¬Ġ yÇĴuĠ
Ġ fÄģngĠ
ĠjiÃłnĠ duÃ¬Ġ
kuÃłiĠ sÃ¹Ġ
zhÃ¹ ĠyÃºĠ
dÅįng ĠxÄ«Ġ
Ġ zhÇĴngĠ
1994 ĠniÃ¡nĠ
Ġ rÃłngĠ
ĠshÃŃĠ rÃ¨nĠ
ĠyÄ«Ġ shÄĵngĠ
gÅ« ĠjÃ¬Ġ
ĠÄĽr ĠhÃ©Ġ
hÃ¡iĠ ziĠ
tÃłiĠpÃŃngĠ yÃ¡ngĠ
ĠĠĠ 2016
ĠjiÃ©Ġ mÃ¹Ġ
yÃ¡nĠ gÃ©Ġ
tÃ³ng ĠyÃ¬Ġ
shÇİng Ġ
shÄĵng ĠwÃ¨iĠ
dÇİo ĠshÃ¬Ġ
chÃ©ngĠ gÅįngĠ
le ĠdÃłĠ
lÃłng Ġ
fÄģĠ diÃłnĠ
ĠshÃłngĠ hÇİi
zhÃłn ĠzhÅįngĠ
shÃ© Ġ
ĠdeĠ qiÃ¡nĠ
ĠrÃ©nĠ lÃ¨iĠ
sÃ¬ ĠgÃ¨Ġ
jiÃ©ĠshÃ¹ ĠhÃ²uĠ
Ġ xiÇİng
ĠdÃ© ĠyÇĲĠ
pÇĶĠ tÅįngĠ
Ġ B
ĠdeĠshÃŃĠ qÅ«ĠwÃ¨iĠ
Ġ yÃ¬nĠdÃ¹Ġ
ĠmÃŃngĠ chÄĵngĠ
ĠzhÃ¨ngĠ cÃ¨Ġ
chÃ¨Ġ xiÄģoĠ
Ġ tw
yÇĶ ĠzhÅįngĠ
ĠĠĠ zhÃ¬Ġ
n Ġ
Ġ yÃ¡ng
Ġ shÃ¨ng
tÃ³uĠ piÃłoĠ
Ġ qÄ«
dÇĲĠ dÃ¡Ġ
fÄģ ĠdeĠ
xÃ¬Ġ liÃ¨
ĠjÇĲnĠ guÇİn
jÃºĠ zhÇİngĠ
ĠdeĠshÃŃĠ jiÄģnĠ
Ġ S
1995 ĠniÃ¡nĠ
zhÃ¨Ġ xiÄĵ
Ġ qiÃ¡n
gÃ¨ng ĠjiÄģĠ
ĠwÃ¨iĠ shÄĵngĠ
yuÃ¨Ġ tÃ¡iĠ
ĠpÃŃngĠ tÃ¡iĠ
fÇİnĠ huÃŃĠ
Ġ chÄĵng
guÇİng ĠxÄ«Ġ
fÄĽi Ġ
Ġ chuÃłngĠ
hans Ġ
kuÃ² ĠdÃłĠ
hÄģ ĠÄĽrĠ
zhÃ¡i Ġ
Ġ hansĠ
yÃ¬ ĠzhÅįngĠ
dÄĵng ĠlÃ¹Ġ
zÇĶĠ chÃ©ngĠdeĠ
rÃ³ng ĠyÃ¹Ġ
Ġtw Ġ
yuÃ¨ ĠshÃŃĠ
zhÃ²ng ĠdÃłĠ
lÃ¹ ĠyÃ¬Ġ
Ġ sÃłĠ
ĠshÃ¬Ġ yÇİnĠ
quÃ¨Ġ dÃ¬ngĠ
ĠĠĠ A
zhÇĲ ĠzÃłiĠ
yÃ¨ ĠhÃ²uĠ
ĠbÃ¹Ġ kÄĽĠ
Ġ xiÃł
ĠbÃ¬ngĠ mÃ©iĠyÇĴuĠ
ĠcÇĲ ĠshÃŃĠ
ĠĠĠdeĠ shÃŃĠ
Ġ lÇľĠ
jÃ¬n ĠxÃŃng
Ġ liÃłngĠ
Ġ ÄģĠÄĽrĠ
ĠĠĠ 2023
ĠmÃ¹Ġ qiÃ¡n
wÇİn ĠshÃłngĠ
jiÃłoĠ qÅ«Ġ
qÃ¬Ġ chÄĵĠ
yÃłĠlÃ¬Ġ shÄģn
mÃŃngĠ chÄĵngĠ
wÃ¹Ġ zhÇĴng
guÄģnĠ zhÃ²ngĠ
ĠxuÃ©Ġ xÃŃĠ
gÇİiĠ biÄģn
ĠguÃ³Ġ wÃ¹Ġ
ĠzhÄ« ĠyuÃ¡nĠ
yuÃłn ĠdeĠ
xiÄģoĠ shÃ²uĠ
ĠgÅįngĠ yÃ¨
bÄģ ĠxÄ«Ġ
ĠhuÃ²Ġ zhÄĽĠ
ĠĠĠ 2014
xiÄģngĠ tÃ³ngĠ
bÄģĠ lÃŃĠ
X Ġ
bÇİn ĠdeĠ
rÃ¹Ġ kÇĴuĠ
xuÃ© ĠhÃ©Ġ
sÇĶn ĠshÄ«Ġ
Ġ tiÄģn
biÇİo ĠxiÃłn
ĠshÃŃĠ xiÃłnĠ
xÄ«Ġ lÃł
fÄģĠxiÃłnĠ leĠ
pÃ²ĠhuÃłi Ġ
kÃłn ĠdÃłoĠ
pÄģn Ġ
qÄ«Ġ zÇĲĠ
guÄģnĠ zhÃ¹Ġ
ĠcÃ©ng ĠrÃ¨nĠ
Ġ L
ĠbÃ¬ng ĠyÇĲĠ
xiÅįngĠ yÃ¡
qiÇİng Ġ
Ġ 6ĠyuÃ¨Ġ
ĠĠĠ suÇĴĠshÇĶĠdeĠshÄĽngĠjÃŃĠxuÇİnĠqÅ«ĠwÃ¨iĠ
ĠĠĠdeĠ yÃ³uĠzhÃ¨ngĠbiÄģnĠmÇİĠwÃ¨iĠ
ĠĠĠyÇĶĠ jiÄĵĠrÇİngĠdeĠshÃ¬ĠzhÃ¨nĠ
ĠĠĠyÃºĠ shÃŃĠdeĠrÃ©nĠkÇĴuĠshÃ¹ĠliÃłngĠwÃ¨iĠrÃ©nĠ
ĠĠĠdeĠshÃŃĠ qÅ«ĠwÃ¨iĠ
ĠĠĠ jÄ«Ġ
zhuÄģng ĠzhÃ¬Ġ
nÇİi Ġ
zhÃŃ ĠwÃ¨iĠ
Ġ 2011
jÃ¬ ĠhÃ©Ġ
ĠzuÃ²Ġ yÃ²ngĠ
ĠquÃ¡nĠ zhÇİngĠ
Ġ zhuÇİnĠ
tÃº ĠzhÅįngĠ
sÅ«Ġ liÃ¡n
wÃ¨i ĠĠĠ
kÄģiĠ fÃłng
xÅ« ĠqiÃºĠ
ĠzhÄ«Ġ mÃŃngĠ
lÃŃn ĠdeĠ
ĠsÄ«Ġ lÄģĠ
shÃŃ ĠwÃ¨iĠ
ĠniÃ¡nĠ qÄ«ng
hÃ©ngĠ xÄ«ngĠ
ĠquÃ¡n ĠbÃ¹Ġ
tuÄ«Ġ dÃ²ngĠ
Ġ O
wÃ©i ĠdeĠ
ĠshÃ¬Ġ zhÇİngĠ
guÇİnĠ lÇĲ
Ġ 2019
Ġ gÄģnĠ
rÃ¹Ġ qÄ«nĠ
rÃºĠ cÇĲĠ
Ġ hk
ĠjiÄģĠ tÃŃngĠ
tÃ¡iĠ bÄĽiĠ
yÇĶ ĠhÃ©Ġ
ĠyÄ«Ġ dÃłiĠ
yÃŃĠ dÃ²ngĠ
Ġ jÇĲn
jÃ¬n ĠshÃ¬Ġ
ĠchÅ« ĠxiÃłnĠzÃłiĠ
zhÃ¨Ġ jiÄģngĠ
ĠĠĠ 2015
fÃ¹ ĠdeĠ
mÇĶĠ qÄ«nĠ
xiÅįngĠyÃ¡ ĠlÃ¬Ġ
ĠĠĠ K
mÃ¹ ĠsÄ«Ġ
1991 ĠniÃ¡nĠ
ĠrÃ©nĠ shÃ¹Ġ
fÃ¹Ġ qÄ«nĠ
ĠdÃłn ĠtÄģĠ
ĠxÄ«ĠbÄģnĠ yÃ¡
cÃ¡n Ġ
mÃŃnĠ zÃº
tÃ¡i ĠdeĠ
ĠdÃ¬Ġ qiÃºĠ
ĠshÃ¬Ġ zhÇĲĠ
Ġ miÃłnĠ
Ġ chÄĵĠzhÃłnĠ
tÃŃ ĠshÄĵngĠ
fÄĵi ĠjiÃłnĠzhÃ¬Ġ
Ġ duÃłnĠ
ĠĠĠ 2013
Ġ 5ĠyuÃ¨Ġ
xÃ¹nĠ sÃ¹Ġ
Ġhk Ġ
zuÃ¬ ĠchÅ«Ġ
shÃ¹Ġ xuÃ©Ġ
guÇİngĠ bÅį
ĠwÃ¨iĠ hÃ©Ġ
ĠbÃ¬ng ĠlÃ¬Ġ
ĠchÃ©ngĠwÃ©iĠ leĠ
ĠsÄ«Ġ tÇİnĠ
t Ġ
niÇĶĠ yuÄĵĠ
Ġ jÄ«ng
fÄģ ĠxÃŃng
ĠjÃ¬nĠ rÃ¹
tÃ¨ ĠlÇĲĠ
kÃłng ĠrÃ¬Ġ
ĠhÃ©Ġ xÄ«nĠ
ĠgÃ¨Ġ zhÇĴngĠ
gÇİo Ġ
ĠjÃŃĠ qÃŃ
fÄģĠ shÄĵng
zÇĴng ĠbÃ¹Ġ
shÅįu ĠlÃ¹Ġ
ĠshÃ¬Ġ rÃ©nĠ
jiÃło ĠdeĠ
lÃ¡n ĠkÃ¨Ġ
cÃ¡i ĠzhÃ¨ngĠ
mÃ¡ng Ġ
ĠjÃ¬Ġ zÇİiĠ
chÃłngĠ piÃłnĠ
ĠzuÃ²Ġ pÇĲn
ĠĠĠniÃ¡n Ġ
sÃł ĠkÃ¨Ġ
ĠzhÅįngĠ wÃ©nĠ
juÃ©Ġ sÃłi
mÃŃng ĠyÃ¬Ġ
jÃ¬n ĠgÅįngĠ
ĠshÃ¬Ġ jÃŃĠ
Ġ zÃłoĠchÃ©ngĠ
qÇĲ ĠyÃ¬Ġ
cÄģn ĠyÃ¬Ġ
zhuÃłngĠ kuÃłngĠ
ĠxiÃłn ĠyÃºĠ
lÇľ ĠwÃ¨iĠ
le ĠtÄģĠ
ĠĠĠ zhÅįngĠguÃ³Ġ
bÃ¡ Ġ
cÄģnĠ kÇİoĠ
zÄĵngĠ zhÇİngĠ
gÄģoĠ dÃ¹Ġ
chÇİnĠ pÇĲn
fÄĵiĠjiÃłnĠzhÃ¬Ġ dÃ¬ĠqÅ«Ġ
Ġ ÅįuĠ
Ġ huÃ¡ng
Ġ dÇİoĠ
dÅįu ĠhuÃ¬Ġ
ĠhÃ©Ġ bÃ¬ngĠ
ĠjÃ¬Ġ suÃłn
ĠshÄĵngĠ huÃ³
Ġ fÃ¡ngĠ
Ġ Ã©ĠluÃ³ĠsÄ«Ġ
wÃ¡ng ĠdeĠ
diÃłoĠ chÃ¡
zhÃ²ngĠ diÇİnĠ
zhÃłnĠ dÃ²uĠ
Ġ hÃ²u
ĠdÃłĠ lÃ³uĠ
hÇİi ĠdÃłoĠ
suÄ« ĠrÃ¡nĠ
chÃłngĠ piÃłn
chÄģi Ġ
ĠrÃ©nĠ menĠ
Ġ tiÃ¡oĠ
wÄĵiĠ xiÃ©Ġ
Ãło ĠdÃ¬ĠlÃ¬Ġ
ĠhÃ©Ġ zhÅįngĠ
shÃłngĠ shÅ«Ġ
ĠwÃ©iĠ qÃŃĠ
kÇİn Ġ
lÇĲngĠdÇİo ĠrÃ©nĠ
ĠxiÄģngĠ guÄģnĠ
jÄ«ngĠ shÃ©nĠ
jiÄģ ĠzhÅįngĠ
ĠyÄ«n ĠÃ©rĠ
yuÃ¨ ĠzÃłiĠ
liÇİng ĠrÃ©nĠ
ĠniÃ¡nĠ shÃŃĠ
ĠbÃ¹Ġ duÃłnĠ
cÄģnĠjiÄģĠ leĠ
yÃŃngĠ yÃ¹nĠ
huÃł ĠwÃ¨iĠ
jiÄģng ĠxÄ«Ġ
ĠdeĠchÃ©ngĠ yuÃ¡nĠ
jiÃ© ĠkÃ¨Ġ
tÃºĠshÅ«Ġ guÇİnĠ
ĠhÃ©Ġ chÃ©ngĠ
zhÇĶĠ chÃŃĠ
ĠzhÅįngĠguÃ³Ġ gÃ²ngĠchÇİnĠdÇİngĠ
Ġ huÃ¡
jÃ¹ ĠdeĠ
nÃł ĠlÇĲĠ
Ġ xiÇİo
Ġ 4ĠyuÃ¨Ġ
Ġ yÇĴuĠshÃŃĠ
zhÃłnĠ dÃ²u
Ġ yÄ«ng
jÃ¬nĠ rÃ¹
mÇĴuĠ xiÄĵĠ
shÄĵn ĠwÃ¨iĠ
jÅ« ĠzhÃ¹Ġ
to ĠĠĠ
zÃ¬Ġ dÃ²ngĠ
xiÃłĠjÃ¬Ġ ÃłoĠlÃŃnĠpÇĲĠkÃ¨ĠyÃ¹nĠdÃ²ngĠhuÃ¬Ġ
Ġ J
yÄ«n ĠshÃ¬Ġ
mÃŃnĠ zhÃ²ngĠ
Ġ zuÇĴĠ
1988 ĠniÃ¡nĠ
ĠxiÃłngĠ mÃ¹Ġ
chÇİnĠ shÄĵngĠdeĠ
Ġ biÄģn
ĠĠĠ zhĠ
ĠzÃłiĠ jiÄģĠ
shuÅį ĠmÃŃngĠ
Ġ wÄĽiĠ
ĠzhÃ¨ngĠ zhuÃłngĠ
yÇĲnĠ fÄģĠ
Ġ xuÇİnĠ
jiÄģngĠ sÅ«Ġ
ĠhuÃ²ĠdÃ©Ġ leĠ
dÄģo Ġ
ĠzhÄ«Ġ xiÃłĠ
ĠshÃ¬Ġ wÄĵiĠ
xiÇİoĠ shuÅį
Ġ zhuÄģngĠ
Ġ xÇĶĠduÅįĠ
ĠĠĠjiÄģĠ zÃºĠ
Ġ qiÃ¡oĠ
ĠshÃ¬Ġ zhÃ¨n
Ġ xiÃ©Ġ
ĠgÅįngĠ rÃ©nĠ
dÃ¬ng ĠleĠ
yÅįu ĠshÃ¬Ġ
lÃ¡n ĠqiÃºĠ
1993 ĠniÃ¡nĠ
ĠdÃłĠ duÅįĠ
zhÅįu ĠdeĠ
Ġ dÃºĠ
jÃ¬ ĠshÃŃĠ
ĠĠĠ S
ĠsuÃ¬ ĠdeĠ
Ġ pÃ¨iĠ
xiÇİn ĠdeĠ
zÄ«Ġ xÃ¹nĠ
ÃłoĠyÃ¹n ĠhuÃ¬Ġ
Ġ wÃ©n
sÃ¹ ĠdeĠ
ĠdÃłĠ xÃŃngĠ
Ġ 2018
ĠyuÃ¨Ġ nÃ¡nĠ
ĠjÃŃĠ lÃ¬Ġ
ĠzhÅįngĠ huÃ¡Ġ
ĠlÃ¡iĠ zÃ¬Ġ
qÇĶ ĠdÃ©
i Ġ
yuÃ¡n ĠzÃłiĠ
ĠbÃ¹Ġ mÃ©n
xiÄģngĠ dÄģngĠ
ĠdÃłnĠ yÃ³uĠyÃºĠ
fÇİngĠ wÃ¨nĠ
zhÃŃ ĠdÃłoĠ
suÄ« ĠrÃ¡n
jiÃłoĠ wÃ©iĠ
xiÃłngĠ mÃ¹
ĠshÃ¬ĠwÃ¨iĠ leĠ
jiÃ©Ġ hÅ«nĠ
Ġ shÃłng
ĠlÇĲĠ lÃ¹nĠ
pÇĲnĠ pÃ¡iĠ
Ġ tiÃ¡nĠ
chuÄģng Ġ
xÃŃ ĠwÃ¨iĠ
ĠdÃ¬Ġ wÇĶĠ
ĠyuÃ¨Ġ tÃ¡iĠ
zhÅįng ĠwÃ¨iĠ
cÄģnĠ jiÄģ
Ġ shÄ«
Ġ lÇİoĠ
zhÄĵn ĠshÃŃĠ
zhÅįngĠ huÃ¡ĠrÃ©nĠmÃŃnĠgÃ²ngĠhÃ©ĠguÃ³Ġ
yÇĴu ĠbÃ¹Ġ
yÃ¬n ĠdÃ¬Ġ
mÄĽiĠ shÃ¹Ġ
Ġ zhÃ¨ng
ĠĠĠ 2025
mÃ¬ngĠ lÃ¬ngĠ
xuÃ©Ġ shÃ¹Ġ
xÄ«ngĠ qÄ«Ġ
ĠdeĠgÅįngĠ zuÃ²Ġ
22 Ġ
2020ĠniÃ¡nĠ mÄĽiĠguÃ³ĠrÃ©nĠkÇĴuĠpÇĶĠchÃ¡ĠdeĠshÃ¹ĠjÃ¹Ġ
jiÃłn ĠshÃ¨Ġ
jÇĶ ĠxÃŃng
fÃ¡ng ĠyÃ¹Ġ
ĠrÃ¨nĠ wÃ¹Ġ
wÇĶĠ zhuÄģngĠ
Ġ zhuÇİn
ĠniÃ¡nĠ bÃ¨iĠ
yÃŃĠ chÇİnĠ
Ġ dÃ¬ngĠ
ĠshÃŃĠ yÄ«Ġ
ĠwÃłnĠ mÄĽiĠyuÃ¡nĠ
ÃłoĠ mÃ©nĠ
yÇĶnĠ xÇĶĠ
Ġ jiÇĶ
ĠzhÃ¬Ġ shÃŃĠ
ĠjiÄģĠ rÃ¹
ĠzhÄ«Ġ hÃ²u
tÃŃĠ gÄģoĠ
Ġ lÃŃ
zhÃ²u Ġ
fÄĵiĠ lÇľĠ
wÇİ ĠÄĽrĠ
bÃłoĠ dÇİoĠ
yÇĲĠ lÃ¡iĠ
le ĠtÄģĠdeĠ
huÃ¬ ĠyuÃ¡nĠ
ĠshÃŃĠ qÄ«
jÃ¬Ġ lÃ¹Ġ
ĠjÄ«Ġ guÄģnĠ
dÅ« ĠshÃ¬Ġ
leĠ yÃŃĠgÃ¨Ġ
Ġ chÄĵngĠwÃ©iĠ
huÃł ĠjiÄģĠ
cuÃ¬ Ġ
jÄ«Ġ chÇİngĠ
ĠfÃ¹Ġ zÃ©
yÃŃĠ mÃŃnĠ
shÅ« ĠdeĠ
jÃ¹Ġ lÃŃĠ
shÃ¹Ġ zÃ¬Ġ
ĠĠĠ 2024
ĠshÃ¬ĠyÄ«Ġ zhÇĴng
jÄ«n ĠdeĠ
ĠrÃ©nĠ lÃ¨i
ĠhÃ©Ġ shÃŃĠ
hÅįngĠ zhÃł
ĠC Ġ
ĠzÃ¬ĠjÇĲ ĠdeĠ
jiÄĵ ĠjÃŃĠ
duÃłn ĠdeĠ
dÅ« ĠjiÃłoĠ
Ġ hÃ³ng
lÃ¬ ĠshÃ¬Ġ
kÃ¨ ĠlÇĲĠ
yÃ¡n ĠdeĠ
yÃŃng ĠdeĠ
huÄģ ĠyuÃ¡nĠ
shÄģnĠ mÃłi
shÄĵng ĠjÃŃĠ
yuÄĵ ĠyÇĴuĠ
ĠshÃ¬Ġ dÃłĠ
wÃ©nĠ zÃ¬Ġ
Ġ xiÅ«Ġ
miÃłn ĠduÃ¬Ġ
ĠwÃłn ĠyuÃ¡nĠ
yÄģoĠ qÇĲngĠ
Ġ guÄģn
Ġ 2011ĠniÃ¡nĠ
yÃ²ngĠ hÃ¹Ġ
Ġ liÃ¡ngĠ
dÅįng ĠjÃ¬Ġ
zÄ«Ġ jÄ«nĠ
dÄĽng ĠwÃ¨iĠ
ĠlÃ¬Ġ shÇĲ
wÇĶĠ tÃ¡iĠ
Ġ xÃº
sÃº Ġ
ĠshÃ¨ ĠjÃŃĠ
hÃ¡nĠ shÃ¹Ġ
ĠzhÃ¬Ġ lÃ¬Ġ
gÄģoĠ dÄĽngĠ
Ġ 2016
ĠsuÇĴ ĠyÇĲ
yuÃ¡n ĠjÃŃĠ
ĠrÃ©nĠ mÃŃn
ĠhÃ©Ġ lÃ¡nĠ
shÄĵnĠ qÇĲngĠ
Ġ 2005ĠniÃ¡nĠ
dÃ²ngĠ zuÃ²Ġ
Ġ jÃ¹
Ġ hÃ¡nĠguÃ³Ġ
xiÃłoĠ guÇĴĠ
Ġ 3ĠyuÃ¨Ġ
mÄĽiĠ guÃ³ĠdeĠ
Ġ 2008ĠniÃ¡nĠ
ĠĠĠ G
ĠmÃŃngĠchÃ¡oĠ zhÃ¨ngĠzhÃ¬ĠrÃ©nĠwÃ¹Ġ
ĠĠĠ xÄ«nĠ
ĠĠĠ zÇİoĠniÃ¡nĠ
jiÃłoĠ liÃłnĠ
ĠxiÃłn ĠhÃ©Ġ
ĠrÃ¬Ġ jÅ«nĠ
xiÃłĠ lÃ¬ng
Ġ pÃ¨i
1990 ĠniÃ¡nĠ
ĠyuÃ¡nĠ mÃŃngĠ
liÇİngĠ zhÇĴngĠ
lÇĲngĠ tÇĶĠ
nÇĶ ĠlÃ¬Ġ
zhÃ¨ngĠ mÃŃngĠ
Ġ zhÄģo
ĠĠĠ hÃ²uĠ
lÃ¹ ĠjÅ«n
ĠzhÅįngĠ yÃºĠ
zuÃ²Ġ yÃ²ngĠ
ĠĠĠ yÃ³uĠ
qÅ«Ġ yÃ¹
jÄ«ngĠ chÃ¡ngĠ
liÃ¨Ġ biÇİoĠ
yÇĴu ĠzÃłiĠ
ĠyÃ¬Ġ yÃ¬Ġ
yÇĲngĠ piÃłn
ĠzhÅįu ĠniÃ¡nĠ
ĠjÃ¬n ĠxÃŃng
ĠnÃ¡n ĠzhÃ¬Ġ
ĠguÃ³Ġ huÃ¬Ġ
ĠgÅįngĠ huÃ¬Ġ
guÄģnĠ xÃ¬
Ġ bÇĲ
Ġ juÃ©
Ġ W
ĠjÃ¬Ġ zhÄĽĠ
ĠyuÃ¡nĠ gÅįngĠ
nÃ¨iĠ lÃ¹Ġ
Ġ hÄĽnĠ
zhÇİo ĠdÃłoĠ
wÃ¡ngĠ chÃ¡o
Ġ lÇĲ
jÄ«ng ĠlÇĲĠ
lÇļ ĠxÃŃngĠ
shÃ©nĠ jÄ«ngĠ
Ġ bÃ³
Ġ chÃ¬Ġ
ĠshÃ¬Ġ hÃ²uĠ
yÃ²ngĠ zuÃ²Ġ
lÇĲĠ lÃ¹nĠ
ĠgÅįngĠ chÇİngĠ
fÃ¹Ġ jÃ¬nĠ
huÃŃĠ yÃ¬ngĠ
Ġ zhÃ¹
yÃº ĠzÃłiĠ
Ġ gÃ©
tÃłi ĠrÃ©nĠ
ĠhÃ©Ġ gÅįngĠ
kÄĽĠyÇĲ ĠzÃłiĠ
e Ġ
Ġ luÃ³
zhÄ«Ġ jiÄģnĠ
tÃŃ ĠdÃłoĠ
bÇİoĠ chÃŃ
Ġ bÄģnĠ
ĠchÃ©ngĠ xiÃłnĠ
chÅ«Ġ bÇİnĠ
ĠniÃ¡nĠ1ĠyuÃ¨Ġ 1ĠrÃ¬Ġ
Ġ bÇİnĠ
ĠjÄ«Ġ chÄĵĠ
ĠshÃŃĠ Ã¨rĠ
jiÇĶĠ diÃłnĠ
Äģi ĠjÃŃĠ
Ġ fÇİn
qÃ¬Ġ xiÃłngĠ
ĠĠĠ P
shÇĴu ĠjÄ«Ġ
ĠguÃ³Ġ fÃ¡ng
kÅįng ĠzhÅįngĠ
ĠniÃ¡n ĠshÃ¬ĠjiÃ¨Ġ
Ġ lÃ©iĠ
guÄ«Ġ zÃ©Ġ
tÅįng ĠdÃłoĠ
kÇĴng ĠbÃ¹Ġ
tÄ« Ġ
qÃŃĠzhÅįngĠ yÄ«ĠzhÇĴngĠ
zuÃ² ĠwÃ¨iĠ
wÇĴĠ men
bÃ¨i ĠshÃ¬ĠwÃ¨iĠ
ĠdeĠ zhÃ¬Ġ
ĠwÇĴĠ menĠ
lÃ¬ ĠwÃ¨iĠ
shÅ« ĠjÃŃĠ
15 Ġ
ĠÃ©r ĠchÃ©ngĠ
shÇĴuĠ dÅ«Ġ
Ġ tÃŃĠgÅįngĠ
1984 ĠniÃ¡nĠ
dÅįngĠ nÃ¡nĠbÃ¹Ġ
yÇĲ ĠxiÃłĠ
yÇİn ĠyÃ¬Ġ
ĠxÄ«Ġ wÃłng
jÄ« ĠhÃ©Ġ
dÃłĠ lÃ¹ĠdeĠ
qÇĲĠ yÃ¨
suÃ¬ ĠdÃłoĠ
ĠdeĠ jiÄģĠ
ĠzuÃ²Ġ wÃ©i
dÃłi ĠlÇĲĠ
mÄĽng Ġ
jÄ«nĠ shÇĶĠ
jÃ¬nĠ yÃŃĠbÃ¹Ġ
gÃ© ĠwÃ¨iĠ
lÃ¡o ĠdÃ²ngĠ
zhÇĶĠ chÃŃ
jiÃłoĠ xuÃ©Ġ
biÇİoĠ miÃłnĠ
gÃ¹Ġ wÃ¨nĠ
Ġ yÄ«ngĠyÇĶĠ
nÄ« Ġ
ĠxÃ¬Ġ liÃ¨Ġ
xÄ«nĠjiÄģĠ pÅį
ĠhÃ©Ġ xÄ«Ġ
ĠbÃ¹Ġ bÃ¹Ġ
Ġ yÅįngĠyÇĴuĠ
ĠyÇĴuĠ jÄ«Ġ
chÃ¡oĠ xiÄģn
Ġ2001ĠniÃ¡nĠ rÃ©nĠkÇĴuĠ
dÃło ĠlÃ¹Ġ
huÃ¡ ĠrÃ©nĠ
cÃ¡iĠ liÃłoĠ
Ġ tÇĶĠ
ĠzÃłiĠ wÃ¨iĠ
ĠbÄĽiĠ qÇĲĠ
jÃ¬ng ĠdeĠ
sÇĲ ĠhÃ²uĠ
bÅįĠ lÃ¡n
tÅįngĠ chÄĵĠ
sÄ« ĠlÃ¬Ġ
1989 ĠniÃ¡nĠ
ĠzhÅįngĠguÃ³Ġ dÃłĠlÃ¹Ġ
bÃ¡iĠ sÃ¨Ġ
yÃłĠlÃ¬ĠshÄģn ĠdÃłĠ
Ġ sÃłiĠjÃ¬Ġ
huÃ¬ ĠshÃ¬Ġ
ĠyÇĲĠ bÃ¨iĠ
bÇİoĠ liÃºĠ
nÇļĠ zÇĲ
tiÃ¡oĠ zhÄĽngĠ
jÅ«Ġ mÃŃn
Ġ hÇİi
Ġ jÃ¹ĠyÇĴuĠ
zhÇĶ ĠlÃ¬Ġ
ĠpÃŃngĠ miÃłnĠ
ĠĠĠ E
nÃŃ ĠkÃ¨Ġ
ĠtÄģ ĠwÃ¨iĠ
Ġ 2021
zhÇĶ ĠdeĠ
ĠzhÄ«Ġ jiÄģn
Ġ chÃ¡Ġ
ĠsÄ«Ġ tÃ¨
Ġ gÇİngĠ
Ġ qÇĶĠ
ĠxiÃłnĠdeĠ yÃŃĠgÃ¨Ġ
T Ġ
ĠdÃłoĠ dÃ¡Ġ
fÇİĠ ÃłnĠ
yÇĲnĠ qÇĲĠ
ĠdÅįngĠ nÃ¡nĠ
yÇĲnĠ qÇĲ
ĠĠĠ 2012
yÃ¹n ĠzuÃ²Ġ
zhÃłoĠ kÄģiĠ
jiÄģo ĠhuÃ¬Ġ
shÇĴu ĠgÃ¨Ġ
tuÃ¬ ĠchÅ«Ġ
dÃ¬Ġ Ã¨rĠ
ĠÃ©rĠ yÃ¡nĠ
ĠxiÃłnĠdeĠ yÃŃĠgÃ¨
ĠbÃ¨iĠ rÃ¨nĠwÃ©iĠshÃ¬Ġ
lÃ¬ ĠzÃłiĠ
ĠjÄ«Ġ hÅ«
ĠkÃ¨ ĠchÃ©ngĠ
wÃ©nĠ zhÄģngĠ
jÇĲ ĠgÃ¨Ġ
ĠshÃ¬Ġ jiÄģĠ
ĠyÇĴuĠ yÃ¬Ġ
tÃ¨Ġ shÅ«Ġ
ĠxÄ«Ġ sÄ«Ġ
xiÄģngĠ guÄģn
shÄ«Ġ fÃłn
ĠfÃ¹Ġ qÄ«nĠ
wÃºĠ fÇİ
Ġ qÇĲ
Ġ lÇļĠ
jÄ«n ĠhuÃ¬Ġ
jiÃ¨ ĠdeĠ
jiÃłoĠ shÄ«Ġ
cÃ©ngĠ jÄ«ng
cÄģnĠ mÃ³u
ĠĠĠ xiÃłĠ
zhÃłi Ġ
lÇľĠ shÄ«Ġ
ĠshÃ¬Ġ yÇĶĠ
ĠnÇļĠ xÃ¬ngĠ
fÄĵi ĠzhÅįuĠ
zhÃ¡ Ġ
xÄ«ĠbÄģnĠ yÃ¡
dÃł ĠwÃ¨iĠ
ĠyÄ«Ġ jÃŃĠ
Ġ fÃ©ngĠ
chÃ¡ng ĠdeĠ
ĠbÃ¹Ġ dÃ©
ĠtÄģĠmen ĠzÃłiĠ
Ġ sĠĠĠ
wÄĵi ĠjÄ«Ġ
ĠyÃ¬Ġ fÄģngĠmiÃłnĠ
fÇİĠ yuÃłn
yÃŃĠ zhÇĲĠ
ĠÃ©rĠshuÇĲĠyÃ¹ĠmiÃłnĠjÄ«ĠwÃ¨iĠ 0
ĠguÃ³Ġ jiÄģĠdeĠ
zhÄĽ ĠzÃłiĠ
ĠhÃ©Ġ qÃŃĠtÄģĠ
yÃł ĠzhÅįu
ĠzhÇĶĠ xÃŃĠ
jÄ«nĠ pÃ¡iĠ
chÄĵ ĠdeĠ
ĠzhÄ« ĠwÃ¨iĠ
ĠbÃ¬ngĠ jiÄģngĠ
16 Ġ
kÄģng ĠxÄ«Ġ
ĠchÃ©ngĠ xÃ¹Ġ
yÃłoĠ wÃ¹Ġ
ĠwÃ¨iĠ yÇĴuĠ
biÇİoĠ dÃ¡
ĠĠĠ chÃ©ngĠ
ĠchÃ©ngĠ rÃ¨nĠ
guÃ²Ġ qÃ¹Ġ
pÃºĠtÃ¡oĠ yÃ¡
Ġ shÅįuĠ
dÃł ĠdÃ¬Ġ
biÃłn ĠdÃ©Ġ
ĠzhÃ¬Ġ liÃ¡oĠ
huÄģnĠ yÃŃngĠ
Ġ gÄģo
wÃ©n ĠxiÃłnĠ
Ġ bÃłnĠ
Ġ bÇİiĠ
duÅį ĠniÃ¡nĠ
ĠsÄ«Ġ kÃ¨Ġ
ĠjÃ¬nĠxÃŃngĠ leĠ
mÃ¹Ġ biÄģo
Ġ Ã©
Ġ fÃ¨i
Ġ guÄģnĠyÃºĠ
zhuÄģng ĠshÃ¬Ġ
zhÃŃĠ mÃŃn
dÅįngĠ bÄĽiĠbÃ¹Ġ
gÃ²uĠ zÃłoĠ
huÃ²ĠdÃ©Ġ leĠ
bÃ³ĠwÃ¹Ġ guÇİn
ÃłoĠdÃłĠlÃ¬Ġ yÃłĠ
zhÃ¹ ĠlÇĲĠ
ĠqiÃº ĠyuÃ¡nĠ
xÃ¬ĠtÇĴng ĠdeĠ
Ġ00 Ġ
Ġ 100
ĠĠĠ F
jiÄģng ĠhuÃ¬Ġ
fÃº ĠyÃ¬Ġ
bÄĽn ĠdÃ¬Ġ
lÄĽng Ġ
ĠÃ©rĠ gÄģiĠdÃ¬Ġ
xiÄģn ĠshÄĵngĠ
ĠbÃ¹Ġ lÄģĠ
bÅįĠ lÃ¡nĠ
ĠyÃºĠ lÃ¨Ġ
jiÄģĠ rÃ¹
fÃłngĠ qÃ¬Ġ
jiÃłn ĠyÃ¬Ġ
Ġ 2015
dÄģngĠ shÃŃĠdeĠ
ĠqÄ«Ġ xÄ«ĠzÃłiĠ
mÃ¡o ĠzÃ©Ġ
xiÃło ĠdeĠ
sÃł ĠsÄ«Ġ
yÃ¬Ġ dÃłĠlÃ¬Ġ
ĠbÃ¬ng ĠyÇĶĠ
ĠdÃłĠ lÃ¹Ġ
1985 ĠniÃ¡nĠ
fÃ¹Ġ qÄ«n
zÃ© ĠwÃ¨iĠ
Ġ cÃ¨Ġ
ĠwÃ¨iĠ lÃ¡iĠ
Ġ 2007ĠniÃ¡nĠ
ĠĠĠ cÃ³ngĠ
zÃ¬Ġ yÃ³u
ĠjiÃłnĠ zÃłoĠ
D Ġ
ĠjÃ¬nĠ yÃŃĠbÃ¹Ġ
chÄĵng ĠzuÃ²Ġ
shÅįu ĠshÃ¬Ġ
ĠdeĠ zhÃ¨ngĠ
ĠniÃ¡n ĠĠĠ
liÃº ĠzÃłiĠ
nÃ¡nĠ jÄ«ngĠ
ĠjÃ¬n ĠgÅįngĠ
guÇİngĠ gÃłoĠ
sÃł ĠÄĽrĠ
luÃ³ ĠdÃ¬Ġ
ĠshÃ¬Ġ zhÃ¨ngĠ
ĠfÃ¹Ġ qÄ«n
shÃ¬ ĠĠĠ
ĠjÃ¬Ġ shÃ¹
ĠhÃło ĠwÃ¨iĠ
jÃ¬Ġ xÃ¹Ġ
tÇİn ĠkÃ¨Ġ
1949 ĠniÃ¡nĠ
ĠdeĠ shÄĵngĠ
ĠrÃ©nĠ men
ĠrÃ¬Ġ jÅ«n
ĠyÃ¬Ġ mÄĽiĠyuÃ¡nĠ
cÃ¬Ġ shÇĲĠ
jÇĲn ĠjÃŃĠ
xÃ¬Ġ jÃ¹Ġ
Ġ 2013
ĠzÃłiĠ cÇĲ
ĠsÄ«Ġ tÇİn
ĠtÃ¨ĠbiÃ© ĠshÃ¬Ġ
Ġ sÃłiĠ
huÇĴ ĠjiÃłnĠ
ĠjiÄģĠ zÃºĠ
piÃłoĠ fÃ¡ngĠ
bÇĲĠlÃ¬Ġ shÃŃĠ
Ġ bÄ«ngĠ
qÇĲng ĠqiÃºĠ
jÇĲngĠ fÄģngĠ
kÇİoĠ lÇľ
Ġ hÃ¨Ġ
ĠshÃ¬Ġ rÃ¬ĠbÄĽnĠ
ĠjiÃ©Ġ guÇĴ
tÃłiĠpÃŃngĠ yÃ¡ng
zhÄģnĠ mÇĶĠsÄ«Ġ
Ġ 2014
ĠchÅ«Ġ shÄĵngĠ
ĠmÄĽi ĠniÃ¡nĠ
dÃ¬ ĠzÃłiĠ
ĠyÇĲ ĠyÇĴuĠ
shÃłngĠ wÇĶĠ
Ġ zhÃło
bÄģĠ lÃŃ
wÃ¡ngĠ chÃ¡oĠ
tÃ³uĠ piÃło
ĠĠĠ jiÃ©ĠzhÃ¬Ġ
nÃ¨i ĠyÇĴuĠ
biÄģn ĠdeĠ
wÃ¡n ĠgÅįngĠ
shÃŃĠ jiÄģnĠ
ĠzhÃ¬Ġ chÃ©ngĠ
guÇİngĠdÅįngĠ shÄĽngĠ
fÄĵn ĠzhÅįngĠ
pÄģi ĠshÃ¨
ĠyuÃ¡nĠ bÄĽnĠ
quÃ¨ ĠrÃ¨nĠ
chÇİng ĠhÃ©Ġ
ĠqÃŃ ĠzÃłiĠ
ĠzhÄ«Ġ ziĠ
mÇĶĠ qÄ«n
shÄĵnĠ tÇĲĠ
ĠdÃłĠ yuÄĵĠ
ĠzhÄ« ĠdeĠ
mÃ©ngĠ gÇĶ
Ġ Ã¨Ġ
gÇĶĠ fÃ¨n
Ġ cÄģnĠjiÄģĠ
Ġ jÄ«ngĠjÃ¬Ġ
ĠzhÃłnĠ dÃ²uĠ
xÃŃĠ xÃ¬ng
gÃ¨ng ĠduÅįĠ
hÃºĠ bÄĽiĠ
ĠyuÄĵĠ hÃłnĠ
dÄĵng ĠshÃłngĠ
ĠxiÃłnĠ chÇİngĠ
Ġ dÃ¨ng
ĠĠĠ zÄĵngĠ
suÇĴ ĠzÃłiĠ
mÃŃnĠ jiÄģnĠ
qÃŃngĠ bÃłoĠ
ĠyÄ«ngĠ wÃ©nĠ
Ġ xiÇİngĠ
wÃłi ĠbÃ¹Ġ
zhÃ²ng ĠyÃ¬Ġ
mÃ¬Ġ mÃ¬Ġ
Ġ xÃºnĠ
Ġ hÃ©ngĠ
xiÃło ĠyuÃ¡nĠ
ĠshÃ¬Ġ yÃ¨Ġ
ĠzÃłiĠ qÃŃĠ
guÄģnĠ bÃ¬Ġ
guÇİngĠ fÃłn
le ĠĠĠ
kÇİoĠ lÇľĠ
fÄĽn Ġ
tÃ¨Ġ sÃ¨Ġ
ĠyÇĴuĠ xiÃłnĠ
sÄĵnĠ lÃŃnĠ
Ġ yÃ¡n
mÇİ ĠsÄ«Ġ
Ġ wÃ²
Ġ 2020
wÃ¹ ĠyuÃ¡nĠ
cÃ¹n Ġ
Ġ hÃłn
ÄģnĠ pÃ¡iĠ
ĠwÇĴĠ men
Ġ ÄģiĠ
ĠquÃ¡n ĠqiÃºĠ
xiÃł ĠyÄ«Ġ
mÄĽi ĠgÃ¨Ġ
Ã¨r ĠyuÃ¨Ġ
23 Ġ
ĠdÃłĠ duÅįĠshÃ¹Ġ
Ġ AĠ
chÃ©ng ĠniÃ¡nĠ
zÃ¨ng Ġ
ĠbÃ¹Ġ jiÇĶ
zhuÄģng ĠbÃ¨iĠ
ĠdÃłĠ dÃłoĠ
liÇİng ĠniÃ¡nĠ
ĠzuÃ¬Ġ gÄģoĠ
nÃ©ng ĠzÃłiĠ
ĠjÄ«Ġ bÃłi
yÇİnĠ chÃłngĠ
tÇĶĠÄĽr ĠqÃŃĠ
Ġ gÄģngĠ
qiÄģn ĠzhÃ¬Ġ
huÇİn Ġ
1986 ĠniÃ¡nĠ
ĠdÃ¬ĠyÄ«Ġ cÃ¬Ġ
chÇİng ĠdÃ¬Ġ
mÃŃnĠzhÇĶĠ dÇİngĠ
k Ġ
Ġ zhÅįngĠshÃ¬Ġ
Ġ kÇİ
ĠshÃŃĠ yÃłnĠ
zuÃ²Ġ zhÃłnĠ
Ġ 10Ġ
nÃ¡n ĠyÇĲĠ
ĠjÃŃĠ bÄĽiĠ
ĠchÅ«Ġ lÃ¡iĠ
tÃ¡iĠ fÄĵngĠ
ĠtÅįngĠ chÃ¡ng
Ġ 2017
bÃłn ĠlÇĲĠ
13 Ġ
ĠzhÄ« ĠdÃłoĠ
xÃ¬ngĠ qÃ¹Ġ
tiÄģnĠ jÄ«n
lÃ³ngĠ jiÄģngĠ
lÇĲng ĠshÃ¬Ġ
ĠbÃ¹Ġ zÃºĠ
yÃ²ngĠ tÃºĠ
lÇĲ ĠgÅįngĠ
Ġ kÄģngĠ
tiÄģn ĠdeĠ
tiÄģnĠ jÄ«nĠ
ĠyuÃ¡nĠ sÃ¹Ġ
wÄĵi ĠÄĽrĠ
nÃ³ngĠ yÃ¨
ĠqÄ«ngĠ chÃ¡oĠ
Ġ xuÄģnĠ
Äģi ĠÄĽrĠ
ĠyuÃ¨Ġ tuÃ¡nĠ
ĠchÃ©ngĠ dÃ¹Ġ
zhÃłnĠ lÇĲngĠ
chÃ¡ng ĠjiÃłnĠdeĠ
jÃ¬nĠxÃŃngĠ leĠ
ĠshÇĲ ĠjiÃłnĠyÃºĠ
M Ġ
ĠĠĠ xiÃłn
dÇİo ĠdÃłnĠ
xiÅ« ĠzhÃ¨ngĠ
mÃŃngĠ zÃ¬Ġ
guÃ¬ ĠzhÅįuĠ
fÄĵn ĠbÃ¹ĠyÃºĠ
xÇĲ ĠjÃ¹Ġ
ĠgÅįngĠ zhÇĶĠ
ĠtÄģĠ hÃ¡iĠ
ĠzhÃłnĠ dÃ²u
mÇİĠlÃ¡i ĠxÄ«ĠyÃłĠ
xÃŃĠxÃ¬ng ĠbÃ¹ĠmÃŃngĠ
V Ġ
Ġ R
ĠshÃŃĠ dÃłi
ĠwÃ©nĠ huÃłĠ
zhÃłngĠ ÃłiĠ
x Ġ
25 Ġ
ĠchÅ«Ġ qÄ«Ġ
xiÃłng ĠshÃ¬Ġ
huÃ¡Ġ shÃ¨ngĠ
shÄĵng ĠchÃ©ngĠ
ĠyÇĴuĠ xiÄĵĠ
ĠshÄĵngĠ chÇİn
rÃ¨nĠmÃ¬ng ĠwÃ¨iĠ
Ġ rÃ³ngĠ
ĠyÃ¬Ġ qÇĲ
ĠwÃłn ĠlÃ¬Ġ
Ġ tÃ¡oĠ
fÇİĠ guÄģnĠ
ĠyÄĽĠ jiÃ¹ĠshÃ¬Ġ
ĠdeĠ fÄģngĠshÃ¬Ġ
ĠhÃ©Ġ hÃ©Ġ
Ġ gÃ²ng
ĠĠĠ tÄģĠ
zÇĶ ĠjiÃłnĠ
ĠshÄĵngĠhuÃ³Ġ xÃŃĠxÃ¬ngĠbÃ¹ĠmÃŃngĠ
Ġ chÇĶĠyÃºĠ
shÃ¨ ĠzhÃ¬Ġ
tÃŃ ĠchÅ«
ma Ġ
jiÄģoĠ liÃºĠ
shÃ²u ĠdÃło
jÄ«Ġ chÇĶĠ
ĠtÄģĠ yÄĽĠ
d Ġ
Ġ gÄĵnĠjÃ¹
Ġ luÃ²
Ġ gÃ²ngĠyÇĴuĠ
hÄĽn ĠdÃłĠ
ĠsuÃ¬ ĠshÃŃĠ
Ġ yÃŃnĠ
zhÃ¬ ĠzhÅįngĠ
chÄ« Ġ
bÃłoĠ fÄģ
hÃ© ĠĠĠ
zhÇĶ ĠshÃ¬Ġ
kÇĶ Ġ
ĠĠĠ mÄĽiĠguÃ³Ġ
lÇĲngĠ xiÃ¹Ġ
jÃ¹Ġ juÃ©Ġ
lÄģĠ dÄ«ng
rÃ¨n ĠshÃŃĠ
ĠÃ©rĠ bÃºĠshÃ¬Ġ
chuÃ¡nĠ shuÅįĠ
huÃłĠhÃ©Ġ wÃ¹Ġ
Ġ kÇĴngĠ
Ġ ruÃ¬Ġ
Ġ diÃłnĠyÇĲngĠ
bÃło ĠlÃ¬Ġ
ÄģnĠ nÃłĠ
ĠyÄ«Ġ xuÃ©Ġ
ÄģnĠ zhuÄģng
wÇĴĠ menĠ
Ġ pÃł
zhÃ¬ ĠbÃ¹Ġ
jiÄģĠlÃ¬Ġ fÃºĠ
Ġ fÇİ
ĠyÇĴuĠ yÃŃĠgÃ¨Ġ
ĠxiÃłnĠ xiÃłngĠ
shÃłngĠ yÃ¬ngĠ
ĠĠĠ lÇĲĠ
wÃ©n ĠyÃ¬Ġ
shÃº Ġ
ĠzÃłiĠ nÃ¨iĠdeĠ
gÄģoĠ sÃ¹Ġ
qiÃ³ng Ġ
1987 ĠniÃ¡nĠ
ĠzÃłiĠ dÃ¹Ġ
ĠÃ©r ĠbÃ¹Ġ
jÃ¬ ĠshÃ¬Ġ
yuÃłn ĠshÃ¬Ġ
ĠwÃ¨iĠ xÄ«ngĠ
ĠlÇĲĠ lÃ¹n
chuÃłngĠ bÃłn
yÃ¡nĠ shÄĵn
hÇİiĠ ÃłnĠ
nÇļĠ xÃ¬ng
chuÃłng ĠjiÃłnĠ
bÄ«n ĠhÇİiĠ
shÃ¹n ĠlÃ¬Ġ
ĠdÅįngĠ bÄĽiĠ
ĠĠĠcÇĲĠ wÃłiĠ
Ġ 2013ĠniÃ¡nĠ
lÃ©i ĠsÄ«Ġ
ruÇİn ĠjiÃłnĠ
ĠshÄĵngĠ zhÇİng
ĠyÃ³u ĠqÃŃĠshÃ¬Ġ
Ġ shÇĶ
tuÄ« ĠjÃ¬nĠ
ĠhÃ©Ġ bÃ¹Ġ
hÇİiĠ wÃłiĠ
shÅ«Ġ rÃ¹Ġ
zÄ«Ġ chÇİnĠ
lÃ¹nĠ wÃ©nĠ
zÅ« Ġ
ĠxÃŃngĠ zhÃ¨ng
wÇİng ĠqiÃºĠ
Ġ wÇİĠ
Ġ nÃł
ĠbÃ¹Ġ luÃ²Ġ
ĠdÃłĠ shÃł
1980 ĠniÃ¡nĠ
zhÇĶĠ yÃ¬ĠdeĠ
pÃŃngĠ lÃ¹nĠ
zuÃ¬Ġ gÄģo
ĠshÃ¬Ġ yÃºĠ
yÃ¬ngĠ yÃ²ng
cÇİiĠ qÇĶĠ
Ġ 2010
Ġ 2012
pÃ¡iĠmÃŃng ĠdÃ¬Ġ
Ġ tÇİĠ
Ġ sÄģiĠ
Ġ 2006ĠniÃ¡nĠ
Ġ yÃŃngĠ
biÃłn ĠwÃ¨iĠ
ĠbÄĽiĠ jÄ«ngĠ
Ġ xÃŃĠ
yÃº ĠdeĠ
c Ġ
jÃ¹ ĠhÃ©Ġ
ĠzÃłiĠ xÄ«Ġ
rÃ©nĠ dÃłĠ
ĠdÃ© ĠÄĽrĠ
ĠhÃ²uĠ xuÇİnĠrÃ©nĠ
bÃłoĠ gÃło
bÅįĠ fÃłngĠ
jiÃło ĠshÃ¬Ġ
tÃ³uĠ zÄ«
mÇİ ĠlÇĲĠ
zÃ© ĠrÃ¨nĠ
rÇİo Ġ
Ġ yÃ²ngĠyÃºĠ
ĠĠĠ qÃŃĠ
fÄģngĠ miÃłnĠdeĠ
gÃ¨Ġ zhÇĴngĠ
ĠshÃ¬Ġ mÃŃnĠ
ĠhÃ©Ġ dÃłĠ
Ġ lÃ¡i
lÇĲng ĠdÃ¬Ġ
ĠzÃłiĠ cÃ¬
fÃłnĠwÃ©iĠ nÃ¨iĠ
ĠĠĠjÃ¹Ġ qÃŃngĠ
ĠĠĠ qiÃ¡nĠ
zhÃ¨ ĠlÇĲĠ
xiÄģng ĠshÃ¬ĠdÃ¬Ġ
ĠyÃºĠ rÃ©nĠ
zhÃ¨ngĠ dÇİngĠ
ĠrÃ¬Ġ bÃłoĠ
xÃŃng ĠchÃ©ngĠ
fÄģ ĠxÃŃngĠdeĠ
ĠjÄ«Ġ hÅ«Ġ
ĠlÃ¬ng ĠyÄ«Ġ
Ġ shuÅįĠ
ĠĠĠ B
ĠshÃ¬Ġ gÃ¹Ġ
zhÃŃĠ jiÄĵ
fÄĵng ĠwÃ¨iĠ
pÃłi ĠdeĠ
1982 ĠniÃ¡nĠ
ĠzhÃ¬Ġ shÇİoĠ
biÇİoĠ dÃ¡Ġ
ĠĠĠ C
yuÃłn ĠyÃ¬Ġ
ĠtÄģ ĠhÃ©Ġ
jÃ¹Ġ lÃ¨ĠbÃ¹Ġ
diÃłnĠ zi
ĠĠĠ chÅ«Ġ
wÇİngĠ luÃ²
dÃºĠ lÃ¬ĠdeĠ
Ġ fÄģnĠ
ĠĠĠ xiÃłnĠ
ĠzhÄ«Ġ fÃ¹Ġ
jiÇĶĠ lÃ³ngĠ
dÄģngĠ xuÇİnĠ
hÃ¨ ĠÄĽrĠ
ĠyÇĴuĠ xiÃłoĠ
zÃ¬Ġ rÃ¡n
xÃ¬Ġ bÄģo
bÃº Ġ
wÄĵn ĠdÃ¹Ġ
1945 ĠniÃ¡nĠ
1983 ĠniÃ¡nĠ
jÃ¬Ġ chÃ©ngĠ
diÃłnĠ nÇİo
yÇĶnĠ xÇĶ
ĠĠĠ deĠĠĠ
ĠyÄ«Ġ xiÇİoĠshÃŃĠ
jÇĲngĠ chÃ¡
ĠdÃłĠ xÄ«ĠyÃ¡ngĠ
guÃ²Ġ qÃ¹
pÃ¡iĠ hÃ¡ngĠ
huÇĴĠ shÄģnĠ
Äģn ĠdÃ©Ġ
19 ĠshÃ¬ĠjÃ¬Ġ
jiÃ¹Ġ dÃº
ĠdÅįngĠ lÃŃnĠ
ĠĠĠ mÃŃngĠ
zhÄ«Ġ chÃŃ
fÇİngĠ wÃ¨n
Ġ jiÃ¹ĠshÃ¬Ġ
ĠzuÃ²Ġ jiÄģĠ
dÇİng ĠyuÃ¡nĠ
miÃ¡n Ġ
ĠdÃłĠ fÃºĠ
yÇĲnĠ qÃŃngĠ
qÅ« ĠyÃ¬ĠhuÃ¬Ġ
ĠdÃ©Ġ huÃ¡Ġ
Ġ 2012ĠniÃ¡nĠ
huÃłn ĠchÃ©ngĠ
biÇİoĠ yÇİn
dÅįu ĠzÃłiĠ
ĠdÃ¬Ġ yÃŃĠgÃ¨Ġ
xiÃłn ĠzhÃ¬Ġ
ĠyÇĶĠ mÃ¡o
ĠĠĠ toĠĠĠ
ĠchÅ«Ġ zhÃłnĠ
bÇĲĠ yÃł
ĠĠĠdÃ¬Ġ fÄģngĠ
xÇĲĠ huÄģn
xiÄģngĠ dÄģng
Ġ rÃ©ng
ĠbÃ¬ng ĠbÃ¨iĠ
fÄģngĠ yÃ¡nĠ
qÅ« ĠhÃ©Ġ
ĠyÄ«Ġ tÃ³ngĠ
xÃºnĠ yÃ¡ng
ĠzhÅįngĠhuÃ¡ĠrÃ©nĠmÃŃnĠgÃ²ngĠhÃ©ĠguÃ³Ġ zhÃ¨ngĠzhÃ¬ĠrÃ©nĠwÃ¹Ġ
sÄģn ĠshÃ¬Ġ
jÄ«ngĠ yÃłnĠ
ĠjÃ¬Ġ suÃłnĠ
pÇĶĠ biÃłnĠ
Ġ shÄĵngĠyÃºĠ
ĠzhÅįngĠ bÃ¨iĠ
guÄģnĠ diÇİnĠ
jiÃłngĠ dÄ«Ġ
kÄĵĠdeĠ qÃŃĠzhÅįngĠyÄ«ĠzhÇĴngĠ
ĠgÅįngĠ yÃ¬Ġ
hÃ¡n ĠyÇĴuĠ
Ġ nÃ©ngĠ
liÇİng ĠmÃŃngĠ
diÇİn ĠlÇĲĠ
ĠshÃ¬Ġ gÅįngĠ
zhÃ²ngĠ duÅįĠ
dÃł ĠzhÃ¬Ġ
ĠbÃ¬ngĠ dÃº
ĠqÃŃĠzhÅįngĠ yÄ«Ġ
ĠĠĠ 2011
yÃł ĠjÅ«nĠ
shÃ¨Ġ qÅ«Ġ
kÇĴu ĠwÃ¨iĠ
chÃ©ngĠ yuÃ¡nĠ
ĠxiÃłn ĠshÃ¬Ġ
zhÄ«Ġ qiÃ¡nĠ
mÃ¬ĠshÅ«Ġ zhÇİngĠ
ĠdÃ¬Ġ sÃ¬
Ġ liÃ¹
zuÃ² ĠshÃ¬Ġ
tiÃ¡o ĠlÃ¬Ġ
14 Ġ
nÃ¨iĠ gÃ©Ġ
Ġ wÃ¡nĠ
Ġ pÃŃngĠjÅ«nĠ
shÃ¹ ĠyÇĶĠ
wÃº ĠzhÃ¨ngĠzhuÃłngĠ
ĠxiÃłnĠ rÃ¨nĠ
tÅ«Ġ pÃ²Ġ
xiÄĽ ĠdÃłoĠ
dÃłng ĠtiÄģnĠ
yÃŃĠ dÃ¹Ġ
ĠzÇĶ ĠfÃ¹Ġ
ĠxÃŃng ĠwÃ¨iĠ
ĠbÇĲĠ sÃłiĠ
ĠgÅįngĠ mÃŃnĠ
xÄ«ngĠ dÄĽngĠwÃ¨iĠ
P Ġ
ĠtÃ³ng ĠyÃ¬Ġ
ĠĠĠ jÃŃĠ
ĠzuÃ¬ ĠchÅ«Ġ
shÄģn ĠshÃ¬Ġ
ĠniÃ¡nĠ hÃ©Ġ
hÃ³ngĠ sÃ¨Ġ
kÄģiĠshÇĲ ĠzÃłiĠ
Ġ xÃ¬nĠ
tuÃ¡n ĠdeĠ
gÄĽi ĠleĠ
ĠjÄ«Ġ jÄ«nĠ
sÇĲĠ wÃ¡ng
zhÄĽngĠ tÇĲĠ
Ġ 500
lÇĶ ĠsÄ«Ġ
shÄĽ Ġ
ĠĠĠ H
juÃ© ĠduÃ¬Ġ
ĠquÃ¡n ĠlÃ¬Ġ
dÃłiĠbiÇİo ĠdÃłĠhuÃ¬Ġ
chÃŃ ĠyÇĴuĠ
yÄ«ngĠ wÃ©nĠ
Ġ sÅ«n
ĠĠĠ 2010
zhÃ¨ng ĠbÃ¹Ġ
gÃłiĠ niÃłn
F Ġ
Ġ dÃ¡
ĠgÅįngĠ jÃ¹Ġ
fÄģngĠ fÇİ
shÃ¨Ġ shÄ«Ġ
yÃ¡ng ĠshÃ¬Ġ
ĠshÃ¬Ġ bÄ«ngĠ
ĠzhÃ¨Ġ zhÇĴng
xiÃłĠxiÃ¡ ĠdeĠyÃŃĠgÃ¨Ġ
ĠĠĠ ÄģĠ
bÄĽn ĠrÃ©nĠ
ĠĠĠ 2Ġ
Ġ0 Ġ
nÃŃ ĠÄĽrĠ
ĠdeĠchÃ©ngĠ jÃ¬Ġ
o Ġ
ĠĠĠ 1Ġ
ĠjÃŃĠ rÃ©nĠ
lÃ¡i ĠyuÃ¨Ġ
bÇİoĠ shÇĴuĠ
yÃŃĠ dÃ¬ngĠ
tÃ³uĠ xiÃ¡ngĠ
guÃ¬Ġ zÃºĠ
y Ġ
yuÃ¨ ĠzhÅįngĠ
zhÃŃĠ dÇİoĠ
zhÃ¨nĠ qÅ«ĠdeĠ
jiÃ¨Ġ shÃłoĠ
zÇİoĠ qÄ«
bÃ³ĠshÃ¬Ġ xuÃ©ĠwÃ¨iĠ
I Ġ
ĠĠĠ qÃŃĠtÄģĠ
shÄģn ĠjÄ«Ġ
huÃ¡ng ĠhÃ²uĠ
guÃł Ġ
qÇĲĠ dÃ²ngĠ
ĠmÄĽi ĠgÃ¨Ġ
tÄģng Ġ
ĠwÃ©iĠ ÄĽr
yÄģoĠ qÇĲng
gÇĶ ĠdÃłiĠ
ĠmÃŃngĠ dÄģnĠ
ĠdÃ© ĠyÇĶĠ
yÃ¬ ĠniÃ¡nĠ
ĠlÃ¬Ġ fÇİ
ĠyÄ«Ġ zuÃ²Ġ
ĠyÇĲĠ jÃŃ
ĠÃ©rĠ gÄģiĠ
zhÇĴngĠ zÃºĠ
hÄĵiĠ sÃ¨Ġ
1 ĠlÃ¬Ġ
zhÄĽn Ġ
ĠrÃ©nĠmÃŃnĠ zhÃ¨ngĠfÇĶĠ
ÄĵnĠ shÄĽngĠ
tÃ²uĠ guÃ²
kuÃ¬ Ġ
ĠxiÇİng ĠniÃ¡nĠ
wÃºĠzhÃ¨ngĠzhuÃłngĠ gÇİnĠrÇİnĠ
Ġ 30Ġ
suÃŃ ĠzhÃ¹Ġ
mÃŃng ĠrÃ©nĠ
duÅį ĠrÃ©nĠ
huÃ³ ĠyuÃ¨Ġ
mÃ¹Ġ qiÃ¡n
chÃ¡ngĠ wÃ¹Ġ
chÃ¡ngĠ wÄĽiĠ
quÃ¨ĠzhÄĽn ĠbÃ¬ngĠlÃ¬Ġ
Ġ yÃ²ng
Ġ Ã¨rĠshÃŃĠ
sÄģ Ġ
ĠrÃ¬ ĠyÃºĠ
gÇİiĠ mÃŃngĠwÃ¨iĠ
chÅ«Ġ shÄĵnĠ
diÃłnĠ huÃłĠ
Ġ 2022
ĠbÃ¹Ġ sÄ«Ġ
ĠjÄ«Ġ sÄ«Ġ
tÃłiĠ ziĠ
Ġ 7Ġ
ĠbÇĲĠ rÃºĠ
ĠĠĠ gÄģi
mÃŃng ĠzhÃ¬Ġ
kÃ¨ ĠchÃ©ngĠ
kÃ¹n ĠnÃ¡nĠ
ĠbÃ¹Ġ lÃ¬Ġ
dÄģn ĠdeĠ
lÃ³ng ĠdeĠ
al ĠĠĠ
tÃºn Ġ
zuÃ¬Ġ duÅįĠ
ĠmÄĽi ĠyuÃ¡nĠ
quÄĵĠ fÃ¡
tÃŃ ĠjÃŃĠ
ĠwÃ¨iĠyÃºĠ zhÅįngĠguÃ³Ġ
yÇĲĠ jÄ«ngĠ
sÄģiĠÄĽrĠ wÃ©iĠ
huÃ¬ ĠzhÅįngĠ
shÅįu ĠjÃŃĠ
gÃ¨ng ĠwÃ©iĠ
xuÃ©Ġ huÃ¬Ġ
ĠbÃ¬ngĠ fÄĵiĠ
hÇİiĠ xiÃ¡Ġ
rÃ¹Ġ xuÇİnĠ
gÃ²u ĠdeĠ
gÅįngĠ chÃ©ngĠ
ĠxÄ«Ġ jiÄĵĠ
gÄĵĠ lÃºnĠ
pÄģi Ġ
ĠjÄ«Ġ chÇİng
jÃ¹ ĠdÃłĠ
ĠchÃ©ngĠ rÃ©nĠ
fÃ¹Ġ zÃ©
ÄģnĠ nÃł
zÃºĠqiÃºĠ yÃ¹nĠdÃ²ngĠyuÃ¡nĠ
Ġ yÄģoĠqiÃºĠ
xiÄĽ ĠdeĠ
zhuÄ«Ġ sÃ¹
Ġ 2014ĠniÃ¡nĠ
ĠĠĠ 2
ĠtÃ³ngĠshÃŃĠ gÄģiĠdÃ¬Ġ
zuÃ²Ġ chÅ«Ġ
bÄĵi ĠsÄ«Ġ
ĠyÄĽ ĠzÃłiĠ
tÃ³ng ĠniÃ¡nĠ
shÄĽng ĠdeĠ
lÃ¬ng ĠrÃ©nĠ
huÃ¬ ĠzhÃ¬Ġ
ĠdÃ©Ġ zhÇĶĠ
tÇİoĠ lÃ¹n
Ġ yuÄĵ
ĠjÃŃĠ dÃ¬Ġ
fÃłnĠ zuÃ¬Ġ
gÄģoĠsÃ¹ ĠgÅįngĠlÃ¹Ġ
nÃ¨iĠlÃ¹Ġ shÄĽngĠfÃ¨nĠ
ÄģnĠ huÄ«Ġ
kÄĵĠxuÃ©Ġ jiÄģĠ
tÃº ĠxÃŃngĠ
ĠguÃ³Ġ nÃ¨iĠ
pÄ«Ġ zhÇĶn
ĠbÃ¬ngĠ dÃºĠ
Ġ pÃ²Ġ
dÄ« ĠyÃºĠ
Ġ diÃłnĠshÃ¬Ġ
jiÄģng ĠzÃłiĠ
zhÃº ĠbÃ¹Ġ
jiÇİnĠ shÇİo
ĠdeĠdÃ¬Ġ Ã¨rĠ
Ġ ÅįuĠyuÃ¡nĠ
shÃ²u ĠdeĠ
shÄģn ĠdeĠ
ĠshÃ¬Ġ yÄ«nĠwÃ¨iĠ
ĠkÃ¨ ĠxÄ«Ġ
liÃ¡nĠhÃ©Ġ huÃ¬Ġ
Ġ chÃ¡
chÄģo ĠyuÃ¨Ġ
jiÃ©Ġ guÇĴ
tÃ¡iĠ nÃ¡n
qiÃ¡ngĠ liÃ¨Ġ
xiÃłĠlÃ¬ng ĠshÃŃĠjiÄģnĠ
Ġ wÃ¡nĠjiÄģĠ
hÇİi ĠpÃŃngĠmiÃłnĠ
bÃº ĠdÃłoĠ
ĠshÃŃĠ qÄ«ĠdeĠ
ĠyuÃ¡nĠ xÃŃngĠ
yÃŃĠ dÃ¬ng
Ġ jiÇİ
yÄĽ ĠzÃłiĠ
ĠjÄ«Ġ huÃ¬Ġ
ĠxuÃ©Ġ yuÃłn
huÄ«Ġ fÃ¹
guÃ² ĠdeĠ
yÃłĠ mÄĽiĠ
cÃ¬ ĠdeĠ
biÄģnĠ jiÃ¨Ġ
dÇĴngĠshÃ¬Ġ zhÇİngĠ
Ġ mÃ©i
ĠjiÃłoĠ yÃ¹Ġ
Ġ 20
tÃŃ ĠyÃ¬Ġ
shÅ« ĠzhÅįngĠ
xÅ«n ĠzhÄģngĠ
jiÃłĠ gÃ©Ġ
zhÇĶĠ jiÃło
shÄ«Ġ bÃłiĠ
ĠhÃło ĠdeĠ
pÃłiĠ qiÇİn
zhÇĶĠyÃło ĠdeĠ
nÃŃĠyÃł ĠzhÅįuĠ
ĠhÃ²uĠ bÃ¨iĠ
ĠxuÃ©Ġ jiÄģĠ
liÃºĠ xiÃłĠ
shuÄģngĠ fÄģngĠ
ĠĠĠbÃ¨iĠ jÇĲngĠ
Ã©r ĠtÃ³ngĠ
ĠyÄ«Ġ lÃ¬Ġ
guÄģnĠ chÃ¡Ġ
jiÄģ ĠyÃ¬Ġ
ĠbÃ¹Ġ duÃ¬
ĠyÇĲĠ wÃ©iĠ
Ġ shÇĴu
ĠzÃłiĠ shÃŃĠ
Ġ bÇİi
liÃ¡nĠ xÃ¹
tÃŃĠgÅįngĠ leĠ
xiÃłn ĠdeĠ
qÄ«n ĠzÃ¬Ġ
ĠÃ©rĠ ziĠ
bÄĽiĠjÄ«ng ĠshÃ¬Ġ
Ġ 1950
ĠyÇĴuĠ suÇĴĠ
zuÃ¬Ġ gÄģoĠdeĠ
huÃ¬ĠyÃ¬Ġ yuÃ¡nĠ
ĠĠĠ W
sÄģnĠ jiÇİo
ĠĠĠdÃ¬ĠfÄģngĠ zÄ«ĠliÃłoĠ
rÃ¨n ĠwÃ¨iĠ
mÇİ ĠÄĽrĠ
lÃ¡n ĠdeĠ
nÃ¡ ĠxiÃłĠ
pÃŃngĠ tÃ¡iĠ
fÄĵiĠ chÃ¡ng
ĠĠĠ jiÇİnĠjiÃ¨Ġ
duÅį ĠwÃ¨iĠ
zÇĶ ĠfÃ¹Ġ
ĠhÃ©Ġ yuÄĵĠ
1978 ĠniÃ¡nĠ
le ĠzÃłiĠ
ĠlÃ¬Ġ liÃłngĠ
ĠchÅ«Ġ kÇĴuĠ
ĠtÄģĠcÃ©ng ĠdÃłiĠbiÇİoĠ
ĠdÃ¬Ġ lÇĲĠ
nÃ¡nĠ bÄĽiĠ
Ġ hÃ¹
nÃ©ng ĠyuÃ¡nĠ
ĠdÃ¬Ġ qÄ«Ġ
ĠxiÃłnĠ fÇİĠ
gÇİiĠ biÃłn
bÃ¨i ĠdeĠ
ĠhÃ²uĠ zhÄĽĠ
tÃ¡i ĠzhÅįngĠ
dÃŃ ĠshÃ¬Ġ
ĠzhÃ¨ngĠ mÃŃngĠ
bÇİnĠ bÄĽn
quÄĵĠ fÃ¡Ġ
ĠshÃŃĠjÃ¬Ġ shÃłngĠ
g Ġ
Ġ kuÄģnĠ
liÇİo Ġ
ĠchÃ©ngĠ zhÃ¨nĠ
Ġ 2015ĠniÃ¡nĠ
xuÇİn ĠzhÅįngĠ
dÃŃ ĠrÃ©nĠ
1979 ĠniÃ¡nĠ
ĠlÃ¬Ġ yÃ¬Ġ
Ġ sÃ¹Ġ
Ġ lÇĶĠ
lÇĲ ĠhÃ©Ġ
zÃ¬ ĠdeĠ
pÃłi ĠchÅ«Ġ
ĠniÃ¡nĠ lÃ¡iĠ
ĠzhÅįngĠguÃ³ĠrÃ©nĠmÃŃnĠ jiÄĽĠfÃłngĠjÅ«nĠ
duÅįĠ zhÇĴngĠ
tÃ¡nĠ pÃłnĠ
liÃ¡oĠ nÃŃngĠ
Ġ zÄ«Ġ
ĠsÄ«Ġ tÇİĠ
tÃŃ ĠchÅ«ĠdeĠ
suÃŃ ĠjÃŃĠ
wÃ¡nĠ zhÄĽng
tuÃ¬Ġ xiÅ«Ġ
ĠdÃłĠxuÃ© ĠdeĠ
hÇİiĠbÃ¡ ĠwÃ¨iĠ
pÃŃng ĠwÃ¨iĠ
gÃłn ĠbÃ¹Ġ
lÄĽi ĠjÃ¬Ġ
ĠbÃ¹Ġ shÇİoĠ
ĠshÃŃĠ xÃŃngĠ
yÄ«ngĠ gÃ©ĠlÃ¡n
L Ġ
dÄģng ĠzhÅįngĠ
xÃ¹ ĠlÃ¬ĠyÃłĠ
shÄģng ĠrÃ©nĠ
biÄģo ĠbÄĽnĠ
fÄģĠ shÄĵngĠzÃłiĠ
suÇĴĠ cÇİiĠyÃ²ng
zhÇĲĠ dÇİoĠ
ĠjÃ¹Ġ juÃ©Ġ
miÇİnĠ diÄģn
huÃł ĠzhÅįngĠ
zÃłn ĠshÃŃĠ
1972 ĠniÃ¡nĠ
ĠfÃ¹Ġ jÃ¬n
mÄĽi ĠzhÅįu
ĠzhÅįngĠgÃ²ng ĠzhÅįngĠyÄģngĠ
tiÃło Ġ
ĠyÃ¬Ġ qÃŃngĠ
nÃ³ngĠ mÃŃnĠ
ĠmÃŃng ĠzhÃ¬Ġ
cÃ¬ ĠyÃºĠ
juÃ© ĠyÃ¬Ġ
ĠĠĠ yÄ«nĠ
yÃŃ ĠdÃłiĠ
ĠdÃ© ĠmÃŃngĠ
zhuÄģngĠ jiÇİĠ
Ġ chÃº
shuÇĲ ĠlÃ¬Ġ
rÃ³ng ĠhÃ©Ġ
ĠzhÅįngĠ guÃ³ĠdeĠ
3 ĠgÃ¨Ġ
Ġ bÇİ
fÄģ ĠmÃŃngĠ
ĠqÃŃ ĠwÃ¨iĠ
zhÇĲĠ nÃ©ngĠ
xiÅ«Ġ gÇİiĠ
ĠĠĠin ĠĠĠ
ĠgÅįngĠ zhÃ²ngĠ
ĠĠĠ 1
zhÇĶĠ yÇİnĠ
ÄģĠlÄģĠ bÃ³
xiÄģngĠ sÃ¬Ġ
guÄģnĠ chÃ¡
jiÄĵĠ chÃ¹Ġ
ĠbÄĽiĠ jÄ«ng
kÄģi ĠshÃ¨Ġ
an ĠĠĠ
xiÅ« ĠjiÃłnĠ
zhÇĴngĠ ziĠ
jÃ¬ng ĠjÃ¬Ġ
ĠyÇĶĠ qÃŃĠtÄģĠ
jiÄĽĠ sÃłnĠ
ĠdeĠshÃ¬Ġ jiÃ¨Ġ
Ġ 2016ĠniÃ¡nĠ
wÇĶĠ zhuÄģng
diÃłn ĠjÄ«Ġ
chÄģi ĠchÃºĠ
cn Ġ
kÄģiĠ tÅįngĠ
bÃłoĠ zhÃłĠ
jÇĶĠbÃłn ĠdeĠ
fÄģĠ qÇĲĠ
shÄĵnĠ dÃ¹Ġ
ÄģnĠ pÃ¡i
Ġ tÃ¡ng
qÅ« ĠshÃ¬Ġ
wÃ©iĠ sÄ«Ġ
tuÃ¡nĠ tÇĲ
1958 ĠniÃ¡nĠ
jÄ«Ġ gÃ²uĠ
fÃ¹Ġ zhÇĶĠrÃ¨nĠ
fÄģĠ shÃ²uĠ
zÇĶĠzhÄ« ĠdeĠ
Ġ tÃŃngĠ
ĠĠĠ qÃŃ
ĠĠĠ duÃ¬Ġ
ĠwÃ¨iĠ dÃłĠ
fÄĵngĠ xiÇİnĠ
diÃłoĠ kuÃłi
Ġ zhÄĵngĠ
chÃ©ng ĠhÃ©Ġ
zhuÇİn ĠxiÃłngĠ
nÃ©ngĠ liÃłngĠ
zhÄģngĠ zhuÄģnĠjÃŃĠ
Ġ dÄģn
Ġ cnĠ
zÃło ĠleĠ
ĠwÃ¨iĠ UTCĠ
ĠbÃ¹Ġ jÃŃĠ
ĠzhÅįngĠ shÄģnĠ
shuÃłiĠ lÇĲng
Ġ gÄĵ
jiÃ© ĠdeĠ
biÄģn ĠjÃ¹Ġ
yÄ«ngĠ gÄģiĠ
bÃłnĠshÃ¬Ġ chÃ¹Ġ
Ġ bÃłiĠ
qiÃº ĠjÃ¬Ġ
nÇĶ Ġ
ĠxÄ«ĠbÄģnĠ yÃ¡Ġ
luÃ³ ĠlÇĲĠ
gÃ©Ġ lÄģĠ
jiÃ¹Ġ dÃºĠ
diÃłoĠkuÃłi ĠyÄ«ĠxiÇİoĠshÃŃĠ
zÃ© ĠzÃłiĠ
ĠdeĠ yÇĲngĠxiÇİngĠ
yÄ«ngĠ xiÃ³ngĠ
shÄģngĠ yÃ¨
shÃ©nĠ meĠ
tiÃ¡oĠ zhÄĽng
qiÃ¡ngĠ diÃłoĠ
Ġ fÄģĠxÃŃngĠ
ĠjÃŃĠ UTCĠ
kÄĵĠxuÃ©Ġ yuÃłnĠ
shÃ¨ĠyÇĴuĠ xiÃłĠlÃ¬ngĠshÃŃĠjiÄģnĠ
ĠdeĠshÃŃĠqÅ«ĠwÃ¨iĠ UTCĠ
ĠÃ©rĠgÄģiĠdÃ¬Ġ suÇĴĠcÇİiĠyÃ²ng
ĠtÃ³ngĠshÃŃĠgÄģiĠdÃ¬Ġ shÃ¨ĠyÇĴuĠxiÃłĠlÃ¬ngĠshÃŃĠjiÄģnĠ
ĠÃ©rĠgÄģiĠdÃ¬ĠsuÇĴĠcÇİiĠyÃ²ng ĠdeĠshÃŃĠqÅ«ĠwÃ¨iĠUTCĠ
2025 ĠniÃ¡nĠ
xiÄģoĠ fÃ¨iĠ
ĠtÃ³ngĠ yÃłng
xÃ¬nĠ yÇİngĠ
tÄģĠmen ĠdeĠ
ĠdÃłĠ jiÇİngĠ
jiÃłoĠ tÃ¡ng
ĠlÃ¬ng ĠyÇĴuĠ
ĠyÄ«ĠsÄ«Ġ lÃ¡nĠ
yÃ³u ĠjÄ«Ġ
yuÃ¡nĠ zhÃ¹Ġ
tÃłiĠ dÃ¹Ġ
ĠgÄģiĠ cÅ«nĠ
Ġ huÃłnĠ
quÃ¨ ĠdeĠ
chuÃ¡nĠ bÅįĠ
zhÄ«Ġ jiÄģnĠdeĠ
ĠĠĠ jiÄģoĠtÅįngĠ
fÄģ ĠshÃ¨
suÇĴ ĠzÃłiĠdÃ¬Ġ
ĠshÃŃĠ wÃ¹Ġ
bÇİoĠ liÃº
ĠmÇİĠ lÃ¡i
ĠlÃ¬ĠshÇĲĠ shÃłngĠ
gÄģoĠyÃºĠ hÇİiĠpÃŃngĠmiÃłnĠ
ĠqÃŃĠ xiÃłĠ
dÃ¬ngĠ jÅ«Ġ
ĠwÃ¨iĠfÃºĠqÃŃĠyÃºĠ gÄģngĠ
ĠĠĠ qÄ«ngĠ
xÃ¬ng ĠwÃ¨iĠ
zhÃº ĠjiÃłn
1976 ĠniÃ¡nĠ
ĠbÃ¹Ġ nÃ©ng
ĠgÅįngĠ juÃ©Ġ
ĠÄĽrĠ duÅįĠ
Ġ liÃ¡nĠhÃ©Ġ
wÃ¹ ĠhÃ©Ġ
pÃ¨i ĠzhÃ¬Ġ
huÃ¬ ĠyÃºĠ
chÃ¹ĠdeĠ hÇİiĠbÃ¡ĠwÃ¨iĠ
chÃ¹ĠdeĠhÇİiĠbÃ¡ĠwÃ¨iĠ gÄģoĠyÃºĠhÇİiĠpÃŃngĠmiÃłnĠ
ĠyÄ«nĠ sÃ¹Ġ
tÇĲ ĠzhÃ¬Ġ
kÃ¹n Ġ
jÃ¬ngĠ xuÇİnĠ
Ġ 30
wÃ¹ ĠshÃ¬Ġ
ĠyÃºĠ lÃ¨
chÇİngĠ suÇĴĠ
hÃ²u ĠwÃ¨iĠ
ĠzhÄ« ĠyÃ¬Ġ
Ġ dÃłi
Ġ nÇĲĠ
ĠhÃ©Ġ pÃłnĠ
ĠbÃ¹Ġ jÇĲnĠ
ĠyÇĲĠ xÄ«Ġ
fÄģ ĠxiÃłnĠdeĠ
zhÃ²ng ĠshÃ¬Ġ
kuÃ¡ng Ġ
ĠqÃŃ ĠshÃŃĠ
ĠsuÃŃ ĠzhÃ¹Ġ
Ġ xÅ«Ġ
nÃ¡nĠ jÄ«ng
zhÇİngĠ dÃ¡Ġ
yÃ¹nĠ shÅ«
Ġ 2008
Ġ xiÃ¨Ġ
Ġ 2017ĠniÃ¡nĠ
ĠĠĠ mÇİĠ
shÃ¹ ĠshÃŃĠ
nÃ¨i ĠdÃ¬Ġ
Ġ hÃº
Ġ zhÃ¨ngĠzhÃ¬Ġ
shÃŃĠ qÅ«Ġ
gÄģoĠ xiÃ³ng
3 ĠniÃ¡nĠ
jiÃłn ĠchÃ©ngĠ
lÃ¹ ĠzhÃ¬Ġ
gÄĵng ĠxÄ«nĠ
ĠyÄ«Ġ jiÄģĠ
ĠxÄ«Ġ lÃ¡nĠ
yÃ¹nĠ yÃ²ngĠ
ĠzÃ¬Ġ rÃ¡nĠ
zÄ«Ġ liÃło
chÃ³ngĠ qÃ¬ng
bÃ¬Ġ yÃ¨ĠhÃ²uĠ
Ġ yÃŃ
ĠĠĠ rÃ¡n
Ã¨r ĠjÃŃĠ
qiÃł Ġ
ĠlÃ¬Ġ rÃ¨nĠ
shÄģnĠ fÄĵngĠ
ĠwÃ¨iĠyÃºĠ gÄģiĠ
Ġ xiÇİoĠshÃŃĠ
wÃ©iĠ ÄĽrĠ
zhÃŃĠ zhÃ¨ngĠ
diÃłnĠ qÃ¬Ġ
zhÄĽ ĠshÃ¬Ġ
wÃ¡ng ĠshÃ¬Ġ
ĠzuÃ²Ġ chÅ«Ġ
Ġ kÇĴuĠ
biÄģn ĠhÃłoĠ
xiÃ¡Ġ qÅ«Ġ
ĠĠĠ bÄĽn
bÄģo ĠwÃ©iĠ
bÃłng ĠqiÃºĠ
xuÃ© ĠyuÃ¡nĠ
cuÃ² ĠwÃ¹Ġ
ĠdÃ¬Ġ qiÃº
jÄ«nĠ rÃ³ngĠ
ĠyÃ¹Ġ shÇĲĠ
xuÄģnĠ chuÃ¡n
dÅįngĠ fÄģngĠ
Ġ nuÃ²Ġ
hÃ²u ĠyÃ¬Ġ
bÄĽi ĠshÃ¬Ġ
jÄ«ngĠ chÃ¡ng
xiÃłoĠ qÅ«Ġ
ĠrÃ¡n ĠÃ©r
Ġ shÄģ
jiÃ¹ ĠhuÃ¬Ġ
ĠjiÃ© ĠkÃ¨Ġ
Ġ fÄģĠxiÃłnĠ
ĠsÄ«Ġ kÄĵĠ
ĠduÃ¬Ġ shÇĴuĠ
ĠxÃŃngĠzhÃ¨ngĠ qÅ«Ġ
zhÃ¨nĠqÅ«ĠdeĠ miÃłnĠjÄ«ĠwÃ¨iĠ
Ġ qÄ«nĠ
ĠĠĠ R
ĠzhÅįuĠ cÃ¬ĠshÇĲĠ
ĠshÄĵngĠ yÃ¡Ġ
jiÄģ ĠyÇĲĠ
cÃ©ng ĠwÃ¨iĠ
jÃº ĠdeĠ
fÃº ĠdeĠ
mÇİ ĠkÃ¨Ġ
ĠtÄģ ĠyÇĲĠ
ĠyuÃ¡nĠ zÃ¬Ġ
ĠlÇĲĠ xÄ«Ġ
zÃłoĠ chÃ©ngĠdeĠ
Ġ 8Ġ
ĠfÃºĠ wÃ¹Ġ
Ġ 2023
17 Ġ
pÃŃngĠ lÃ¹n
zhÃŃĠ mÃŃnĠ
fÅ«Ġ kÇİĠ
ĠdÄģngĠ shÃŃĠdeĠ
Ġ gÇİnĠ
Ãło ĠzhÅįuĠ
shuÄģi Ġ
ĠyÄ«Ġ jÃ¹Ġ
shÃ©nĠ me
jÃ¬ ĠyÇĴuĠ
shÇĲ ĠjiÃłnĠyÃºĠ
rÃ¨n ĠdeĠ
yÄĽ ĠbÃ¨iĠ
miÃłn ĠshÃłngĠ
bÃłn ĠdeĠ
gÅįngĠ gÃ²ngĠ
ĠsÄ«Ġ kÃ¨
ĠÃ©rĠ tÃ³ngĠ
Ġ 2018ĠniÃ¡nĠ
jiÄģ ĠzÃłiĠ
kÄĽ ĠzÃłiĠ
pÇİo Ġ
ĠxuÃ©Ġ zhÄĽĠ
ĠjiÃłn ĠshÃ¨
ĠwÃ©iĠ rÃło
ĠyÄĽ ĠbÃ¨iĠ
qiÄģnĠ shÇĶĠ
ĠqÃŃĠzhÅįngĠ bÄģoĠkuÃ²Ġ
Ġ 2009
on Ġ
hÇİiĠ yÃ¡ngĠ
lÃ¡i ĠyÄ«nĠ
jÄ« ĠzÃłiĠ
jÃ¹n ĠgÅįngĠ
tÅ« ĠrÃ¡nĠ
ĠjÃŃĠ dÃłĠ
jÃ¬Ġ niÃłn
ĠdÃ© ĠzhÄ«Ġ
ĠjÄ«Ġ jÄ«nĠhuÃ¬Ġ
xiÃłoĠlÃ¬Ġ yÃºĠ
Ġ 2019ĠniÃ¡nĠ
qÃ¬Ġ chÄĵ
lÃ¬ngĠ yÃŃĠgÃ¨Ġ
xiÄģoĠ shÄ«Ġ
Ġ xÄ«ng
Ġ chÅįngĠ
Ġ yÃºnĠ
mÃŃng ĠshÃ¬Ġ
ĠwÃ¨iĠ duÃ¬Ġ
rÃºĠ guÇĴĠ
dÄģngĠ dÃ¬ĠdeĠ
jiÃłngĠ lÇĲngĠ
chÃ¡n Ġ
yÃ¡nĠ hÇİiĠ
tÃ¡oĠ tÃłiĠ
wÄĽiĠyuÃ¡nĠhuÃ¬Ġ wÄĽiĠyuÃ¡nĠ
ĠdÃ¬Ġ tiÄĽ
ĠlÇĲĠ yÃłĠ
Ġ 2ĠyuÃ¨Ġ
ĠĠĠ shÃ¨ngĠ
ĠĠĠ jÇĲnĠ
pÃŃng ĠyuÃ¡nĠ
bÃ¨iĠ jÇĲngĠ
kÇİĠ luÃ³Ġ
19 Ġ
jÃ¬n ĠbÃ¹Ġ
dÃ¬ng ĠyÃºĠ
liÇİng ĠguÃ³Ġ
tÃ¨Ġ dÃ¬ngĠ
fÃ¨nĠ zÇĲ
dÃł ĠbÃ¹Ġ
duÃ¬ ĠqÃŃĠ
ĠqÃŃ ĠdeĠ
ĠdeĠbÃ¹Ġ fÃ¨nĠ
ĠcÃ¬ ĠniÃ¡nĠ
Ġ xiÄģn
Ã¨r ĠrÃ©nĠ
jiÃło ĠdÃłĠ
dÄĽng ĠjÃŃĠ
ĠzhÃ¬Ġ zuÃ²ĠdeĠ
ĠjÄ«Ġ dÅ«Ġ
diÃłnĠ nÇİoĠ
gÇİiĠ zÃłoĠ
chuÃ¡nĠtÇĴng ĠdeĠ
Ġ gÄĵnĠ
Ġ zÃ¡ĠzhÃ¬Ġ
ĠĠĠ for
shÄĵngĠ yÃ¡
ĠbÃ¹ĠbÃ¹Ġ zhÇİngĠ
shÇĴu ĠzhÅįngĠ
on ĠĠĠ
jÄ«ngĠ shÃ©n
ĠqiÃ¡nĠ wÇİngĠ
zhÃŃĠmÃŃn ĠdÃ¬Ġ
diÇİn ĠshÃ¬Ġ
yÃ¬Ġ shÃ¹Ġ
quÃ¡nĠ miÃłnĠ
tiÃ¡nĠ jÃ¬ngĠ
ĠdiÃłnĠ yÇĲng
mÃ²ĠxÄ«Ġ gÄĵĠ
Ġ xiÃ¡nĠ
zhÃ¨n ĠdeĠ
tuÄ« ĠchÅ«
guÃ³Ġ jiÄģ
ĠxiÃłn ĠyÇĲĠ
ĠjÄ«Ġ chÇĶ
ĠjÃ¹Ġ lÃŃ
guÄģn ĠjiÃłnĠ
mÃ¹ ĠdeĠ
lÃŃĠ kÄģi
ĠluÃ³Ġ mÇİĠ
ĠĠĠ nÃ¡nĠ
ĠshÃŃĠ duÃłnĠ
liÇİngĠ cÃ¬Ġ
ÃłiĠÄĽrĠ lÃ¡nĠ
sÄģn ĠmÃŃngĠ
hÅ«n ĠyÄ«nĠ
dÃłĠ lÃ¹
ĠyÃ¬Ġ yÃºĠ
jiÄĵĠ duÃłn
shÅ«Ġ yuÃłnĠ
ĠyÃ³u ĠjÄ«Ġ
ĠshÄģnĠ dÅįngĠ
ÄģĠlÄģĠ bÃ³Ġ
Ġ liÃ¹Ġ
tou Ġ
bÅį ĠsÄ«Ġ
huÃ¬Ġ zhÇİngĠ
mÇİnĠ zÃºĠ
qÄ« ĠwÃ¨iĠ
wÃ©n ĠdeĠ
ĠdÃ¬Ġ diÇİnĠ
b Ġ
xÄ«n ĠchÃ©ngĠ
liÇİng ĠwÃ¨iĠ
pÃ¨i ĠyÄ«nĠ
zhÃ¨ngĠ jÃ¹Ġ
jÃ¬ngĠ zhÄĵngĠ
ĠwÃºĠ fÇİĠ
liÃ¡n ĠdeĠ
xiÅ« ĠfÃ¹Ġ
ĠbÃ¬ngĠ yÃ³uĠ
cÃ¡iĠ nÃ©ngĠ
lÄģ ĠjÄ«Ġ
kÃło ĠjÃ¬nĠ
ĠdÃ¬Ġ dÃłiĠ
ĠlÃ¬Ġ shÃŃĠ
jiÄĽĠ fÃłngĠ
Ã©ĠluÃ³Ġ sÄ«
nÃ¨i ĠzhÃłnĠ
bÅį ĠshÃ¬Ġ
ĠwÃ©iĠ chÃŃ
chÅ«Ġ bÇİn
zÄģiĠ pÃ©iĠ
ĠshÃ¬Ġ dÃ©ĠguÃ³Ġ
duÃ¬Ġ zhÇİngĠ
fÄģĠ qÇĲ
hÃ¹Ġ liÃ¡nĠ
jÅ«Ġ zhÃ¹ĠzÃłiĠ
p Ġ
ĠĠĠ T
zÇİo ĠzÃłiĠ
Ġ cÄģnĠyÃ¹Ġ
bÃ¬ng ĠbÃ¹Ġ
shÇĴuĠ xiÃłngĠ
shÄģnĠ qÅ«Ġ
zÃºĠqiÃº ĠjÃ¹ĠlÃ¨ĠbÃ¹Ġ
jiÄģoĠ liÃº
ĠguÃ³ĠwÃ¹Ġ yuÃłnĠ
Ġ bÇİo
Ġ piÃłoĠ
lÇĲ ĠchÃ©ngĠ
wÄĽi ĠfÃ¹Ġ
zhÃ¨ ĠshÃ¬Ġ
yÃº ĠĠĠ
qÇĲ ĠyuÃ¡nĠ
cÅ«nĠ luÃ²Ġ
fÅ« ĠdeĠ
jÄ«Ġ chÇĶ
ĠdÃłĠ lÃ³u
ĠyÇĶĠ yÃ¡n
yÃ¡nĠ sÃ¨Ġ
xiÃłngĠ zhÄĵngĠ
ĠwÃ©iĠ sÄ«Ġ
tiÄģnĠ tÇĲĠ
dÅįu ĠbÃ¨iĠ
ĠbÃ¹Ġ bÄ«ngĠ
ĠĠĠdÃ¬Ġ Ã¨rĠ
Ġ BĠ
Ġ 2004ĠniÃ¡nĠ
liÃ¹ ĠshÃŃĠ
ĠzhÃ¬Ġ liÃłngĠ
ĠzhÅįuĠ fÇĶĠ
Ġ dÄ«ngĠ
lÃ¡ng ĠzhÅįngĠ
gÇĴu Ġ
ĠyÄ«Ġ yuÃłn
ĠxÃŃngĠ mÃ¹Ġ
xÃ¬ng ĠhÃ©Ġ
juÃłn Ġ
ĠyÇĲĠ wÃłiĠ
ĠyÇĶĠ yÄ«Ġ
chÃ¡ngĠ dÃ¹Ġ
luÃ²Ġ fÃ¡
e ĠĠĠ
ĠzhÃ¬Ġ dÃ¬Ġ
wÃºĠzhÃ¨ngĠzhuÃłngĠgÇİnĠrÇİnĠ zhÄĽĠ
Ġ yÃ¬ĠshÃ¬Ġ
liÃłng ĠwÃ¨iĠ
mÇĶ ĠdeĠ
ĠdÃ© ĠsÄ«Ġ
Ġ 2020ĠniÃ¡nĠ
xiÄĽ ĠzuÃ²Ġ
mÃ¨ng ĠjiÄģĠ
zÃłi ĠĠĠ
zuÃ¬ ĠchÅ«
tÃ¨Ġ xÃ¬ngĠ
shÄ«Ġ qÃ¹
ĠwÃ¨iĠyÃºĠ mÄĽiĠguÃ³Ġ
jiÇİ ĠdÃ¬Ġ
ĠzuÃ¬ ĠjiÄģĠ
fÃ¹ ĠhÃ©Ġ
chuÃ¡ng Ġ
tÃłiĠ yÃ¡ng
ÃłoĠ mÃ©n
fÃº ĠlÃ¬Ġ
ĠxiÃłn ĠjÃŃĠ
zhuÃłn ĠdeĠ
r Ġ
Ġ dÇİngĠ
zÅįng ĠyÃ¬Ġ
1970 ĠniÃ¡nĠ
zÃ¬Ġ mÇĶĠ
lÃŃngĠ chÃ©nĠ
zhÃŃĠyÃ¨Ġ shÄĵngĠyÃ¡Ġ
Ġ yÃŃĠgÃ¨
Ġ kÃ¹Ġ
suÇĴ ĠdeĠ
suÇĴ ĠwÃ¨iĠ
tÃ²u ĠlÃ¹Ġ
dÅįngĠ bÄĽi
Ġ diÃłoĠ
ÇĴu ĠxiÃłngĠ
kÇİo ĠshÃ¬Ġ
ĠfÃº ĠjiÃłnĠ
ĠĠĠ gÃ¨ĠrÃ©nĠ
zÇĴng ĠrÃ©nĠkÇĴuĠ
ĠdÃ¬Ġ fÄģng
ĠxiÃłn ĠchÃ©ngĠ
ĠlÇĲĠ kÃ¨Ġ
shÅįuĠ gÃ²uĠ
juÃ© ĠshÃ¬Ġ
ĠdÃ©Ġ lÄģĠ
kÅįngĠ qÃ¬Ġ
nÃł ĠdeĠ
fÃ©n Ġ
zuÃ²Ġ wÃ©i
zhÇĶĠ zhÄģngĠ
xÄ« ĠhÃ©Ġ
xÄ«Ġ nÃ¡nĠ
Ġ tÃłi
ĠĠĠ 2008
pÃŃng ĠdeĠ
huÃŃ ĠyÃ¬Ġ
ĠyÇĲ ĠzÃłiĠ
ĠyÄĽĠ kÄĽĠyÇĲĠ
pÃºĠtÃ¡oĠ yÃ¡Ġ
Ġ zhÄĵn
ĠĠĠ rÃ©nĠ
si Ġ
ĠzuÃ²Ġ zhÃłnĠ
Ġ xiÃ¨
qÄ« ĠshÃŃĠ
gÃ© ĠshÃ¬Ġ
zÇĴu ĠxiÃłngĠ
ĠyÇĲ ĠyÃºĠ
ĠchÃ©ngĠ kÃ¨Ġ
sÅ«Ġ gÃ©ĠlÃ¡nĠ
Ġ 18
Ġ sÃ¨Ġ
guÃ² ĠleĠ
chÄĵ ĠduÃ¬Ġ
ĠÄĽr ĠshÃ¬Ġ
nÃ¡n ĠdeĠ
ĠdÃ¬Ġ tÃºĠ
ĠyuÃ¡nĠ bÄĽn
ĠchÅ« ĠdÃłoĠ
yÃ¬nĠ nÃŃĠ
Ġ 2007
Ġ sÅ«nĠ
Ġ 2021ĠniÃ¡nĠ
wÇĶ ĠshÃ¬Ġ
shÅįu ĠdÃłoĠ
wÇİ ĠÄĽrĠshÄĽngĠ
guÇİn ĠzhÃ¬Ġ
ĠgÅįngĠ lÇĲĠdeĠ
xÃ¬nĠ yÇİng
zhÇĶĠyÃ¬Ġ zhÄĽĠ
gÇĶ ĠlÃ¬Ġ
fÃ©i Ġ
ba Ġ
ĠwÃ¨iĠ yuÃ¡nĠ
guÃ²Ġ dÃ¹Ġ
Ġ kÇİi
Ġ zÃºĠ
yÃ¡n ĠrÃ©nĠ
luÃ² ĠchÃ©ngĠ
er Ġ
xiÇİn ĠzhÃ¹Ġ
tÅįu Ġ
guÃ³Ġ wÃ¹Ġ
shÇĲĠ shÃłngĠ
guÇİngĠ chÇİng
ĠshÃŃĠyÃłn ĠshÃ¬Ġ
ĠsÄ«ĠlÃ¬ng ĠbÃ¹Ġ
Ġ xÃ¹Ġ
shÇĲ ĠrÃ©nĠ
bÃ¬ ĠdeĠ
mÃłi ĠkÃ¨Ġ
50 Ġ
hÃºn Ġ
shÇĴuĠ dÅ«
ĠfÃ¹Ġ jÃ¬nĠdeĠ
xÃºnĠ zhÇİo
wÃłngĠ yuÇİnĠ
ĠĠĠ yuÃ¨Ġ
xÄ« ĠdÃ¬Ġ
xiÅ« ĠdÃłoĠ
ĠdÃłĠ gÅįngĠ
sÃ¬ ĠdeĠ
1968 ĠniÃ¡nĠ
gÃ©Ġ lÃŃĠ
shÃłoĠ nÇļĠ
2 ĠniÃ¡nĠ
yÃº ĠhÃ©Ġ
jiÄģng ĠyÃºĠ
1981 ĠniÃ¡nĠ
dÅįngĠ jÄ«ng
zhuÄģnĠ yÃ¨
Ġ cÇİiĠ
dÃ¬ ĠhÃ©Ġ
dÃ¹ ĠhÃ©Ġ
cÃ©ng ĠyÃºĠ
fÃłng ĠzÃłiĠ
ĠjÃŃĠ shÇĲĠ
jiÄģnĠ yÃ¹Ġ
miÇİnĠ fÃ¨iĠ
yÃ¡n ĠzhÃ¬Ġ
jiÇİo ĠdÃ¹Ġ
zuÇĴ ĠyÃ¬Ġ
ĠdÃ¬Ġ liÃ¹Ġ
ĠchÃ©ngĠ bÄĽnĠ
wÃ©iĠ zhÇĶĠ
bÃ¨iĠ chÄĵngĠwÃ©iĠ
ĠxÃŃngĠ dÃ²ng
fÇİnĠ huÃŃ
guÇİnĠlÇĲĠ jÃºĠ
Ġ juÃ©ĠdÃ¬ngĠ
1956 ĠniÃ¡nĠ
ĠyuÃ¨Ġ duÃ¬Ġ
zÄ«Ġ bÄĽnĠ
tÃ¡iĠbÄĽi ĠshÃ¬Ġ
ĠshÃ¨ ĠyÃºĠ
ĠjÅ«nĠ qÅ«Ġ
bÃ¬Ġ miÇİn
kÅįngĠ jiÄģn
xÃŃngĠ tÃłiĠ
ĠĠĠ dÄģngĠ
shÃ¨ ĠbÃ¨iĠ
xiÄģng ĠshÃ¬Ġ
kÇİ ĠsÄ«Ġ
1920 ĠniÃ¡nĠ
Ġ shÃ©n
shÄģn ĠxiÃłnĠ
ĠÃ©rĠ fÄĵiĠ
gÇİiĠ shÃłnĠ
es Ġ
lÇĲĠ lÃ¹n
xÄ«Ġ bÄĽiĠ
fÃ¨iĠ chÃºĠ
zhÃ¨ngĠfÇĶ ĠdeĠ
Ġ fÃ¨ngĠ
shÃłng ĠdÃ¬Ġ
dÇİo ĠshÃłngĠ
ĠzÃłiĠ hÃ©Ġ
ĠkÃ¨ ĠÄĽrĠ
dÄĽngĠ dÄĽngĠ
ĠĠĠ sÄ«Ġ
cÇĲ ĠtÃ³ngĠshÃŃĠ
luÃ²Ġ shÄģnĠjÄ«Ġ
Ġ 2002ĠniÃ¡nĠ
kÄģi ĠgÅįngĠ
tÅįng ĠzhÄ«Ġ
xiÄģngĠ guÄģnĠdeĠ
bÅįĠ lÃŃĠ
Ġ yÇĴng
1960 ĠniÃ¡nĠ
ĠfÄĵnĠ biÃ©Ġ
Ġ cÃłi
jiÃ¹ ĠyuÃ¡nĠ
ĠdeĠ jÃ¹Ġ
Ġ pÇĶ
ĠĠĠ zhÃ¨ngĠ
ĠdÃ¬ĠyÄ«Ġ cÃ¬
ĠĠĠ 2009
hÃ© ĠzÃłiĠ
yÄĽ ĠhuÃ¬Ġ
wÃ¡ Ġ
ĠzhÄ« ĠshÃ¬Ġ
hÇİiĠ Ãłn
cÃŃĠ zhÃŃĠ
Windows ĠĠĠ
ĠrÃ©nĠ dÃłĠ
ĠyÃ¬Ġ jiÃłnĠ
hÄĽnĠ kuÃłiĠ
sÄ« ĠshÃ¬Ġ
1975 ĠniÃ¡nĠ
ĠwÃ¨iĠ zÃłiĠ
Ġ mÃ¬Ġ
shÃłng ĠxiÃłnĠ
jiÃłĠ shÇĲĠ
Ġ cÇİiĠyÃ²ngĠ
ĠĠĠ bÄģĠ
kÇĴu ĠdeĠ
zhÄĵng ĠyuÃ¨Ġ
tÃ¬ ĠdÃłiĠ
chÃ¹Ġ zhÇİngĠ
chÅįngĠ tÅ«
xÇĲĠ huÄģnĠ
Ġ kÇİiĠ
qiÃ¡ng ĠzhÃ¬Ġ
ĠshÃŃĠ xiÃłn
yÇĲng ĠshÃ¬Ġ
cÃŃ ĠdeĠ
1948 ĠniÃ¡nĠ
1964 ĠniÃ¡nĠ
jiÄģnĠ dÅ«Ġ
tÃŃĠchÅ«Ġ leĠ
wÃłiĠjiÄģo ĠbÃ¹Ġ
Ġ suÅįĠ
xuÃ© ĠzhÅįngĠ
huÃłi Ġ
ĠgÃ¨ ĠguÃ³Ġ
yÇĲnĠ yÃ²ngĠ
mÃŃnĠzhÇĶĠ dÇİng
Ġ lÃ©i
shÄģn ĠdÃ¬Ġ
jiÇĶ ĠdeĠ
jÇĲn ĠyÇĴuĠ
fÄĵng ĠfÃ¹Ġ
jÃ¬Ġ suÃłn
ĠzhÇĶĠ yÇİnĠ
Ġ bÇİĠ
nuÃ³ ĠwÄĵi
ĠĠĠ gÃ¹ĠshÃ¬Ġ
ĠsÄ«Ġ mÇİĠ
ĠgÃ¨Ġ zhÇĴng
ĠhÃło ĠxiÃłn
ĠĠĠ M
zhÇİngĠ guÄģnĠ
zÅįngĠ jiÃło
xiÇİoĠxÃŃngĠ xÄ«ng
ĠĠĠ fÃ¹Ġ
mÃ²ĠxÄ«Ġ gÄĵ
Ã© ĠguÃ³Ġ
hÃ¹ ĠxiÄģngĠ
qiÃ¡ng ĠdeĠ
ĠshÃŃĠ hÃ²uĠ
ĠyÇĴuĠ xiÄĵ
pÇĶĠ biÃłn
bÃ¹ĠdeĠ cÅ«nĠzhuÄģngĠ
ĠĠĠyÇĲĠ xiÃł
Ġ chuÄģnĠ
guÇİn ĠdeĠ
zÃłn ĠzhÃ¹Ġ
yÃ¬nĠ shuÄģ
Ġ zÃº
Ġ pÃłĠ
cÃ¹ ĠjÃ¬nĠ
ĠyuÃ¨Ġ lÃ¡iĠyuÃ¨Ġ
liÃºĠ yÃ¹Ġ
gÇĶĠ lÇİo
mÇİĠlÃ¡i ĠxÄ«ĠyÃł
Ġ mÃ³
ĠĠĠ wÃ©iĠ
tÄģ ĠzÃłiĠ
jiÃłng ĠyÇĶĠ
liÇİo ĠjiÄĽĠ
ĠbÃ¹Ġ shÇİo
jiÄģĠ tÃŃngĠ
fÃ¹ ĠshÃ¬Ġ
liÃ¨ ĠchÅ«Ġ
ĠchÃ©ngĠ xiÃłn
ĠzhÄ« ĠdÃ¬Ġ
jÄ«ngĠ diÇİnĠ
chÄĵĠ xiÄģngĠ
ĠdÃłnĠ bÃ¡iĠ
ÄģĠ gÄĵnĠ
Ġ nÇĲ
yÇĶn ĠshÃŃĠ
ĠxiÃłnĠ shÃłngĠ
qiÃ¡ngĠ dÃ¹Ġ
tiÄģn ĠhÃ²uĠ
sÅ« ĠwÃ©iĠ
guÃłn ĠjÅ«n
pÃ¹ Ġ
ĠzhÄ« ĠjiÄģĠ
cÄģnĠ xuÇİnĠ
ĠbÃ¹Ġ mÇİnĠ
ĠkÃ¨ ĠhÃ©Ġ
liÃ¨Ġ rÃ¹Ġ
bÃ¬Ġ miÇİnĠ
1952 ĠniÃ¡nĠ
ĠxiÄģngĠ dÄģng
tÃ³ngĠ xÃ¬ngĠ
cÃ¨Ġ liÃ¡ngĠ
tÃŃngĠ chÄĵĠ
zÇİo ĠshÃłngĠ
zhÇĶĠ tÃŃ
sÄĵnĠ lÃŃn
ĠfÃ¹ĠzÃ©Ġ guÇİnĠxiÃ¡Ġ
Ãło ĠÄĽrĠ
lÄģ ĠdeĠ
mÃŃngĠ dÄģnĠ
zhÃłnĠ tÃ¡iĠ
guÃ³ ĠshÃ¬Ġ
hÅ« ĠyÃ¹Ġ
kÃ²u Ġ
ĠgÅįngĠ yÃ¬ngĠ
xuÇİnĠjÇĶ ĠzhÅįngĠ
Ġ kÇİoĠ
ĠyÄ«Ġ zhÃŃĠ
guÄģnĠ fÄģng
jiÃłnĠ zhÃ¹
dÄ«Ġ qÃ¬Ġ
Ġ jiÄĵ
jiÄģnĠ rÃ¨nĠ
suÇĴĠ yÇĴuĠdeĠ
cÃ¡iĠ liÃło
ĠĠĠzÄĵngĠ zÇĶĠ
sÄģo Ġ
nÃ¡nĠ zi
bÃ³Ġ lÃŃnĠ
jÇĲngĠ gÃłoĠ
guÇİng ĠzhÅįu
Ġ yÃ¨
lÄģ ĠdÃ©Ġ
shÅ« ĠchÅ«Ġ
ĠniÃ¡nĠ qÄ«ngĠ
ĠgÅįngĠ nÃ©ng
tÇĲĠyÃ¹Ġ chÇİngĠ
Ġ shÃ¹n
lÃ¡n ĠxÄ«Ġ
dÃ¹n ĠdeĠ
ĠqiÃº ĠdeĠ
yÃŃnĠ pÃ¡iĠ
yÃ¡oĠ gÇĶn
ĠyÇĶĠ qÃŃĠ
yÇĲnĠ rÃ¹Ġ
ĠÃ©rĠgÄģiĠ dÃ¬ĠdeĠ
hÃ¡i ĠzÃłiĠ
nuÃ³ ĠwÄĵiĠ
guÃ³Ġ wÃ¡ngĠ
qÄ«Ġ zÇĲ
liÃ¡nĠ jiÄĵ
zhÃłoĠ piÄģnĠ
nÃ¹ Ġ
xÃ¹ ĠlÃ¬ĠyÃł
zÇİoĠ qÄ«ĠdeĠ
shÃŃ ĠhÃ©Ġ
tÃº ĠdeĠ
yÅįuĠ xiÃ¹
mÇĴuĠ xiÄĵ
la Ġ
1937 ĠniÃ¡nĠ
ĠjÃ¬Ġ lÃ¹
ĠchÅ«Ġ yÇİnĠ
ĠbÃ¨iĠ ÄĽr
ÄģnĠ zhuÄģngĠ
chuÃłngĠ zuÃ²ĠdeĠ
zhÄ« ĠshÃŃĠ
qiÃº ĠhuÃ¬Ġ
1966 ĠniÃ¡nĠ
l Ġ
zhÃłn ĠdÃ¬Ġ
zÄģo ĠyÃ¹Ġ
ĠwÃ¨iĠ nÃ©ng
ĠjiÄģĠ tÃŃng
xiÃłĠ lÃ¡iĠ
shÄĵnĠ qÇĲng
zhÃłn ĠshÃŃĠ
niÃ¡ng Ġ
ĠhÃ©Ġ gÇĶĠ
ĠchÃ©ngĠ leĠ
ĠyÇĲĠ qiÃ¡nĠ
ĠjÃ¬Ġ yÃ¬Ġ
ĠkÃ¨ ĠlÃ¬Ġ
gÇĶĠ lÄģĠ
cÃ©ng ĠdeĠ
mÃ² ĠÄĽrĠ
fÄģĠ shÄĵngĠdeĠ
ĠxiÄģngĠ tÃ³ngĠ
ĠyÇĲĠsÃ¨Ġ liÃ¨Ġ
Ġ fÇĴu
tÃ¨ ĠlÃ¬Ġ
fÄĵi ĠxÃŃng
biÄģn ĠyuÃ¡nĠ
ĠshÃŃĠ bÃłoĠ
xÄ«ngĠ qÄ«
Ġ qÇĲngĠ
qiÃ¡n ĠhÃ²uĠ
zÇĶ ĠdeĠ
shÄģnĠdÅįngĠ shÄĽngĠ
ĠzhÄģo ĠhÃ©Ġ
Ġ sÃ²ng
ĠĠĠ 3
1946 ĠniÃ¡nĠ
zhÅįngĠ yÄģngĠ
ĠduÃ¬Ġ cÇĲĠ
ĠzhÇĲ ĠzÃłiĠ
ĠĠĠgÃłiĠ yÃłoĠ
Ġ wÃłi
Ġ 2006
sÄģn ĠdÃłĠ
ĠdeĠ zhÇĶĠyÃłoĠ
ĠyuÃ¡nĠ yÄ«n
shÄ«Ġ qÃ¹Ġ
tÃłiĠ kÅįngĠ
ĠzÃ¬Ġ yÃ³u
Ġ 2000ĠniÃ¡nĠ
xiÃł ĠzÃłiĠ
ĠjÅ«n ĠdÃ¬Ġ
ĠshÄĵngĠ mÃŃngĠ
Ġ cÃ¡i
zhÃł ĠdÃłnĠ
zhÃŃĠ shÄĵngĠ
Ġ guÇİnĠ
wÇİng ĠshÃłngĠ
tÇİ ĠÄĽrĠ
ĠdÃ¬Ġ zhÃ¨nĠ
ĠshÇĴuĠ cÃ¬Ġ
lÇĲngĠ dÇİoĠdeĠ
yÃ¡nĠjiÅ« ĠshÄĵngĠ
h Ġ
tÃ¨ ĠÄĽrĠ
ĠxiÃłn ĠyÇĴuĠ
Ġ xiÄģnĠhÃ²uĠ
duÃ¬ ĠyuÃ¡nĠ
wÅ« ĠsÄ«Ġ
hÇİo ĠpÃŃngĠ
ĠzhÅįngĠ jiÄģnĠ
xiÃłĠ jiÃłngĠ
pÇĶĠ chÃ¡Ġ
bÇİo ĠdeĠ
duÅįĠ cÃ¬
zhÄģi Ġ
ĠjÃŃĠ bÃ¬ngĠ
tÃ³ng ĠmÃŃngĠ
tÃ¨ ĠyÇĴuĠ
biÄģn ĠwÃ¨iĠ
bÃ³Ġ juÃ©Ġ
ĠwÄĵiĠ liÃ¡nĠ
Ġ tuÄ«Ġ
ĠxÃŃng ĠbÃ¹Ġ
fÄģĠ dÃ²ngĠjÄ«Ġ
qÄ«nĠ wÃ¡ngĠ
kuÃłiĠ sÃ¹
K Ġ
cÃºn ĠdeĠ
1974 ĠniÃ¡nĠ
huÃŃĠ guÄ«Ġ
Ã©ĠluÃ³Ġ sÄ«ĠdeĠ
5 ĠniÃ¡nĠ
Ġ Z
Ġ guÇİngĠdÅįngĠ
qÃŃng ĠdeĠ
ĠshÃ¬Ġ yÄ«ĠbÃ¹Ġ
ĠxÄ«nĠ zÄĵngĠ
gÇİiĠ zhÃ¬ĠwÃ¨iĠ
ĠĠĠdÃ¬Ġ yÄ«Ġ
gÇİng ĠyuÃ¡nĠ
zhuÃ¬ Ġ
ĠniÃ¡nĠ lÃŃngĠ
fÃ¨iĠ yÃ¡nĠ
t ĠĠĠ
Ġ guÅį
shÄ« ĠgÅįngĠ
fÄĽn ĠsÄ«Ġ
zhÇĲĠ kÃ²ngĠ
2 ĠgÃ¨Ġ
mÃ¬ ĠdeĠ
xÅ«n Ġ
bÄĵng Ġ
chÄĵĠ liÃłng
diÃłnĠshÃ¬Ġ tÃ¡i
zÃłnĠ tÃŃngĠ
shÄĵn ĠshÃ¬Ġ
dÃ¡ ĠzhÅįuĠ
yÇĲngĠ xiÃłngĠ
Ġ zhÃ²ng
Ġ mÃ¡oĠ
ĠĠĠ 3Ġ
1954 ĠniÃ¡nĠ
ĠdeĠ huÃłĠ
fÄģngĠ mÇĲĠ
ĠzÃ¬Ġ dÃ²ngĠ
4 ĠniÃ¡nĠ
dÃłĠ qÅ«Ġ
shÄĽngĠ jiÄĵĠrÇİngĠ
sÄģn ĠrÃ©nĠ
tÃ¨Ġ zhÄĵng
ĠzuÃ¬ ĠdÃłĠ
zhÄĽ ĠhÃ©Ġ
ĠjiÃ©Ġ shÃ¹Ġ
sÄģn ĠgÃ¨
wÇĶ ĠgÃ¨Ġ
ĠzhÃ¨Ġ yÃłngĠ
ĠjÃ¬nĠ zhÇĲĠ
ruÃ¬Ġ diÇİnĠ
ĠmÃłi ĠkÃ¨Ġ
Ġ shuÇĲ
ĠbÃ¹Ġ yÄ«Ġ
ĠpÃŃngĠ lÃ¹nĠ
zhÇİnĠ lÇİnĠ
jÃ¬ngĠnÃ¨iĠ gÃ²ngĠyÇĴuĠ
lÃ¹ĠyÃ¬Ġ sÄ«Ġ
sÃ¬ ĠshÃ¬Ġ
tÃłi ĠdeĠ
Ġ guÄģng
Ġ kÄĽĠnÃ©ngĠ
Ġ shÃłnĠ
ĠĠĠ jÄ«nĠ
ĠshÃ¨ĠhuÃ¬Ġ zhÇĶĠyÃ¬Ġ
Ġ lÃ¨iĠ
yÃ³u ĠxÃŃngĠ
zhÄĽ ĠhuÃ¬Ġ
pÃ¨i ĠbÃ¨iĠ
1955 ĠniÃ¡nĠ
cÄģnĠ shÃ¹Ġ
ĠshÃ¬ĠyÄ«Ġ kÄĵĠ
ĠshuÄģngĠ fÄģngĠ
ĠzÃłiĠyÃ¬Ġ qÇĲĠ
4 ĠgÃ¨Ġ
shÇĲ ĠyÃºĠ
fÇİ ĠyÇĶĠ
lÄģ ĠhÃ©Ġ
huÃŃ ĠguÃ³Ġ
ĠbÃ¹Ġ lÃ¡iĠ
ĠshÃŃĠ xÃ¬ngĠ
xÄ«nĠ wÃ©n
bÇİoĠ luÃ³Ġ
jÃ¬ngĠ zhÄĵng
ĠjÃŃĠ hÃ²uĠ
lÇľĠ sÃ¨Ġ
ĠjiÄģngĠ sÅ«Ġ
wÃºĠxiÃłnĠ diÃłnĠshÃ¬Ġ
shÃ¨ng ĠchÅ«Ġ
ĠdÃ¬Ġ zhÃ¬Ġ
ĠzhÃ¬Ġ yÃŃĠ
ĠjÃ¬Ġ zÇİi
ĠxÄ«Ġ ÄĽrĠ
ĠdÃ²ngĠ wÃ¹Ġ
Ġ qiÄģn
ĠĠĠ O
yÃ¬ng ĠjÃŃĠ
ĠbÃ¨iĠ pÃ²Ġ
dÃ¹Ġ shÇĲĠ
chÇİnĠshÄĵngĠ leĠ
ĠĠĠ 2019ĠniÃ¡nĠ
mÇİ ĠkÃ¨ĠsÄ«Ġ
dÄģng ĠniÃ¡nĠ
ĠguÃ³ĠjiÄģĠ duÃ¬Ġ
tiÄĽĠlÃ¹Ġ chÄĵĠzhÃłnĠ
Ġ SĠ
huÄģng Ġ
fÃ¨iĠ yÃ²ngĠ
G Ġ
Ġ hÃºĠnÃ¡nĠ
kÅ« Ġ
ĠgÅįngĠ qÇĲngĠ
ĠjiÄģĠ zÃº
ĠĠĠ In
wÃ¡ng ĠwÃ¨iĠ
tuÄ« ĠjiÃłnĠ
liÃ¡nĠ rÃ¨nĠ
lÃ¨i ĠxÃŃngĠdeĠ
an Ġ
sÇĲ ĠyÃºĠ
zhuÅį Ġ
ĠtÄģĠ cÃ©ngĠ
zhÇİngĠ zÇĲĠ
bÄĽiĠ fÄģngĠ
ĠcÃ©ngĠ rÃ¨n
ĠgÅįngĠ gÃ²ng
ĠdÃłĠ dÃło
fÃºĠ luÃ³ĠlÇĲĠ
nÃ³ngĠ cÅ«nĠ
ĠshÃ¬ĠzhÅįngĠ huÃ¡ĠrÃ©nĠmÃŃnĠgÃ²ngĠhÃ©ĠguÃ³Ġ
yÇĲngĠxiÇİng ĠlÃ¬Ġ
ĠĠĠofĠĠĠ theĠĠĠ
ĠdeĠzuÃ²Ġ biÄģoĠwÃ¨iĠ
Ġ fÇĶĠ
chÅįng ĠjÄ«Ġ
section ĠĠĠ
ĠshÃ¬Ġ huÃ¬Ġ
qÃºnĠ dÇİo
Ġ qiÅ«Ġ
Ġ 2022ĠniÃ¡nĠ
ĠĠĠ I
sÄģn ĠjÃŃĠ
ĠzÃłiĠ xÄ«nĠ
tÃ¨Ġ diÇİnĠ
ĠĠĠjiÄģĠ tÃŃngĠ
Ġ shÄĽnĠ
lÇľ ĠdeĠ
ĠzÃłiĠ tÄģĠdeĠ
chÅ«Ġ qÄ«Ġ
fÃ¡ngĠ wÅ«Ġ
shÃ¨Ġ huÃ¬
Ġ nÇİi
jÃŃ ĠbÃ¹Ġ
shÄĵng ĠzhÃ¬Ġ
biÇİn Ġ
tÃ¨Ġ lÄģĠ
qÄ«ngĠ chÃ¡oĠ
jÃ¬ngĠ nÃ¨i
gÃ¹Ġ dÃ¬ngĠ
gÃ¨ngĠ duÅįĠdeĠ
chuÃłngĠ zÃłoĠ
ĠĠĠ shÇĲĠyÃ²ngĠ
cÃ³ng ĠwÃ¨iĠ
ĠyÄ«Ġ rÃ©nĠ
ĠdÃło ĠhÃ©Ġ
fÃ¹Ġ jÃ¬n
fÄģngĠ xiÃłng
gÄģoĠ dÃ¡Ġ
Ġ 200
Ġ sectionĠĠĠ
mÄģ Ġ
zhÅįngĠ yÄģng
ĠshÃŃĠ zhÃ¬Ġ
ĠdÃło ĠyÄ«Ġ
qÃ¬Ġ xuÃ¡nĠ
Ġ chÇĶĠ
xÄ«n ĠshÃ¬Ġ
bÄģn ĠdeĠ
zÃ²ng Ġ
tiÄģnĠ rÃ¡nĠ
xuÇİn ĠchÅ«Ġ
cÇİiĠ qÇĶ
wÃ¡nĠ zhÄĽngĠ
Ġ tiÄĽĠ
ĠĠĠ D
yÃŃ ĠdÃłoĠ
guÄģnĠ cÃ¨Ġ
ĠyÄĽ ĠbÃ¹Ġ
qÄ«ngĠ shÃłoĠniÃ¡nĠ
Ġ xÇĶĠduÅį
ĠshÃ¬Ġ jÃ¬ĠdeĠ
ĠyÇĴuĠ dÃłĠ
Ġ 2024
jiÄģ ĠgÅįngĠ
mÇĲ ĠdeĠ
luÃ² ĠsÄ«Ġ
ĠshÃ¬Ġ yÃ³u
mÄĽiĠguÃ³Ġ rÃ©nĠ
ĠzhÇĲ ĠshÃ¬Ġ
zhÃłngĠ fÅ«Ġ
Ġ Ãłn
xuÃ© ĠbÃ¹Ġ
ĠyÇĴuĠ zhÃ¹Ġ
fÃ¹Ġ jÃ¬nĠdeĠ
Ġ bÄģoĠhÃ¡nĠ
yÃ¬ ĠbÃ¹Ġ
guÃ³Ġ huÃ¬Ġ
xÄ«Ġ bÄĽiĠbÃ¹Ġ
ĠtÄģĠ rÃ¨nĠwÃ©iĠ
mÃ¹Ġ nÃŃĠ
ĠtÃ³ngĠ pÃ¡iĠ
kuÃ²Ġ zhÇİn
ĠĠĠ N
sÇĲ ĠxÃŃngĠ
qÃ¬ng ĠzhÃ¹Ġ
ĠdeĠ gÃ¹ĠshÃ¬Ġ
zhÃłnĠ lÇĲng
ĠtÃ³ngĠ yÃłngĠ
ĠĠĠgÄĵnĠjÃ¹Ġ 2020ĠniÃ¡nĠmÄĽiĠguÃ³ĠrÃ©nĠkÇĴuĠpÇĶĠchÃ¡ĠdeĠshÃ¹ĠjÃ¹Ġ
Ġ dÄĵngĠ
zuÃ¬ ĠwÃ¨iĠ
guÃ³Ġ lÃ¬Ġ
nÃłĠ cuÃ¬
qÇĶĠ xiÄģo
huÃ¡ngĠ sÃ¨Ġ
zÄĵngĠjiÄģĠ leĠ
bÃ¬ng ĠwÃ¨iĠ
guÃ² ĠyÃºĠ
fÄĵnĠ pÃ¨iĠ
shÃłngĠhÇİi ĠshÃ¬Ġ
quÃ¡n ĠdeĠ
hÇİi ĠshÃłngĠ
zÇĴng ĠhuÃ¬Ġ
huÃŃ ĠhÃ©Ġ
lÇİo ĠshÄ«Ġ
ĠzÃłiĠ tÄģĠ
ĠyÄ«Ġ zhÃ¬Ġ
ĠchÅ«Ġ fÄģĠ
sÃ¨Ġ fÅ«Ġ
xiÄģng ĠjÃ¬Ġ
sÃ¬ ĠdÃłĠ
qiÃ¨ ĠÄĽrĠ
jÄ«ngĠ jÃ¬
liÃ¡nĠ jiÃ©Ġ
Ġ kÃ¹
dÄĽng ĠdeĠ
fÃ¡ng ĠwÃ¨iĠ
40 Ġ
zhÃ³u Ġ
Ġ 2003ĠniÃ¡nĠ
rÃ©ng ĠzÃłiĠ
1947 ĠniÃ¡nĠ
ĠlÃ¬Ġ shÇĶĠ
ĠbÃ¬ngĠ rÃ¹Ġ
xÃ¬ng ĠshÃ¬Ġ
duÃ¬Ġ shÇĴuĠ
zhuÄģnĠ mÃ©nĠ
ĠdeĠjÃ¬Ġ lÃ¹Ġ
shÃ²u ĠquÃ¡nĠ
ĠjÃŃĠ xÃŃngĠzhÃ¨ngĠ
ĠlÃ¬Ġ ziĠ
ĠyÄĽ ĠhuÃ¬Ġ
bÄģnĠ jiÇİngĠ
ĠÄģĠ lÄģĠ
Ãłi ĠdeĠ
piÃłn ĠdeĠ
lÃ¡iĠzÃ¬ ĠyÃºĠ
Ġ bÃ¡i
fÃº ĠlÇĲĠ
tiÄĵ Ġ
ĠxiÄģngĠ duÃ¬Ġ
jiÇİngĠ shÃ¹Ġ
zhÃłoĠ kÄģi
Ġ000 ĠrÃ©nĠ
1973 ĠniÃ¡nĠ
1971 ĠniÃ¡nĠ
yÄ«Ġ xiÄĵĠ
ĠyÇĲ ĠzhÃ¬Ġ
zhÃŃĠ yÃ¨
hÇİiĠ bÃ¡ĠgÄģoĠ
xiÃ©Ġ dÃ¬ngĠ
Ġ tuÃ¡nĠ
ÇĴu Ġ
fÃłngĠ qÃ¬
cÃºnĠ zÃłiĠdeĠ
zhuÃłng ĠjÄ«Ġ
ĠniÃ¡nĠ qiÃ¡nĠ
ĠjiÃłnĠ kÄģngĠ
Ġ dÅįu
hÃ© ĠwÃ¨iĠ
shÄĽng ĠdÃłoĠ
lÃ¡o ĠgÅįngĠ
hant Ġ
xÄ«Ġ nÃ¡nĠbÃ¹Ġ
ĠkÃ¨Ġ yÃ¹nĠ
mÇİĠ lÄģĠ
gÇİiĠ gÃ©
cÄģnĠ sÃłi
nÃ¡nĠjÃŃĠ zhÅįuĠdeĠ
fÃ¹ ĠjiÄģĠ
dÄģn ĠyuÃ¡nĠ
wÇĶĠ qÃ¬
lÃ¨iĠsÃ¬ ĠdeĠ
E Ġ
Ġ hantĠ
mÄĽi ĠjÅ«nĠ
bÄģ ĠÄĽrĠ
chuÃłng ĠxÄ«nĠ
qiÇİo Ġ
ĠyÇĴuĠ guÄģn
zhÃ¨ngĠ xiÃ©Ġ
ĠtÄģĠ duÃ¬Ġ
shÄģnĠ mÃłiĠ
xiÄģoĠ liÃłngĠ
ĠsÃ¬Ġ chuÄģnĠ
hÅįngĠzhÃł ĠjÄ«Ġ
ĠĠĠrÃ¡n ĠÃ©rĠ
chÃ¡ng ĠjiÃłnĠ
chuÃ¡n ĠzhÄ«Ġ
lÃ²u Ġ
ĠzhÄ«Ġ zhÃłnĠ
xÃ¬ngĠ nÃ©ngĠ
shÄģĠ sÇĲĠ
ĠxiÇİoĠ shuÅįĠ
yÄ« ĠbÃ¹ĠfÃ¨n
fÄĵi ĠzhÅįu
tuÃ³ Ġ
1977 ĠniÃ¡nĠ
ĠxiÃłn ĠzhÄ«ĠxiÃłnĠ
shÇĴuĠ bÅįĠ
fÄģĠshÄĵngĠ leĠ
ĠxÃ¬Ġ tÇĴng
shÇĶĠdeĠ zhÃŃĠwÃ¹Ġ
Ġ chÄĵĠzhÃłn
ĠĠĠ dÃłn
zhÃŃ ĠzhÃ¬Ġ
diÃłn ĠdeĠ
yÃło ĠdeĠ
yÃ¡nĠ zhÃ²ngĠdeĠ
ĠlÃ¬ngĠ wÃłi
lÇĲ ĠbÃ¹Ġ
mÃ¬ ĠsÄ«Ġ
ĠjiÃłn ĠshÃ¬Ġ
suÇĴĠ shÇĶ
Ġ bÃło
tÃ³u ĠbÃ¹Ġ
ne Ġ
ĠyÃ³uĠ cÇĲĠ
zÇĶĠ zhÇĲĠ
ĠdÅįngĠ jÄ«ngĠ
yÃ¹nĠdÃ²ng ĠdeĠ
ĠĠĠ Re
xÄ« ĠshÃ¬Ġ
jiÄģn ĠshÃ¬Ġ
nÃ¬ Ġ
duÃ¬Ġ wÇĶĠ
zhÇĶĠ xÃŃ
bÄģngĠ zhÃ¹
Ġ lÇĲngĠ
jiÄģng ĠtÄģĠ
nÃł ĠdÃ©Ġ
jiÃłngĠ dÄ«
ĠshÃ¬ĠyÃ¬Ġ dÃłĠlÃ¬Ġ
huÃ¬ ĠyÇĲĠ
te Ġ
hÄĵi ĠrÃ©nĠ
quÇİn Ġ
jÄ«Ġ bÄĽnĠ
ĠzhÄ«Ġ liÃºĠ
ĠshÃ¨Ġ jÃ¬ĠdeĠ
shuÃłiĠ lÇĲngĠ
tÇĶĠÄĽr ĠqÃŃ
huÃ¬ ĠshÃ¬ĠdÃ¬Ġ
huÃ¡n ĠxÃŃngĠ
ĠzÃłiĠ yÇĶĠ
ĠgÅįngĠ lÃ¹
ĠdÃ© ĠdÃłoĠleĠ
bÃ¹Ġ fÃ¨nĠ
ĠmÇİ ĠlÃ¬Ġ
nÃ¡Ġ pÃ²Ġ
Ġ liÇİngĠgÃ¨Ġ
Ġ xÅ«ĠyÃłoĠ
zhÄĽng ĠgÃ¨
al Ġ
xiÄģngĠ bÇĲĠ
cÄģnĠ tÄ«ngĠ
ĠshÃ¬ĠyÄ«Ġ zuÃ²Ġ
zhÅįuĠ biÄģnĠ
ĠshÃ¬ĠjiÃ¨Ġ bÄĵiĠ
xiÃłĠxiÃ¡ ĠyÇĲĠxiÃł
ĠĠĠ L
ĠxiÃłnĠ jÄ«nĠ
hÃ¡ngĠ tiÄģnĠ
ĠĠĠ 3ĠyuÃ¨Ġ
ĠĠĠ aĠĠĠ
zhÇİng ĠdÃłĠ
luÃ³ ĠdÃ©Ġ
ĠdÃłĠ liÃłng
shuÄģngĠ dÇİĠ
ĠguÄģnĠ fÄģngĠ
zÃ¬ ĠwÃ¨iĠ
wÄģ Ġ
yÃŃĠ chÇİn
shÃłng ĠbÃ¹Ġ
yÃ¡n ĠshÃŃĠ
ĠlÃ¬Ġ yÃ²ng
ĠxÃŃngĠ shÇĲĠ
Ġ lÇļ
Ġ huÃ¡nĠ
ĠĠĠ J
100 Ġ
zÇĴngĠ cÃ¡iĠ
gÃ© ĠÄĽrĠ
ĠnÃ¡nĠ ziĠ
ĠshÄĵngĠzhÇİng ĠyÃºĠ
Ġ qÃŃnĠ
ĠĠĠ 2007
zhÇĲ ĠdeĠ
lÃł Ġ
ĠgÅįngĠ chÇĲ
ĠqiÃº ĠhuÃ¬Ġ
chuÃ¡nĠ mÃ©iĠ
hÇİiĠbÃ¡ĠgÄģoĠ dÃ¹ĠwÃ¨iĠ
Ġ zhuÄģnĠjÃŃĠ
ĠĠĠ 2018ĠniÃ¡nĠ
jÃ¬ ĠzÃłiĠ
xÄ«n ĠrÃ©nĠ
bÄĽn ĠxiÃłnĠ
cÇĲ ĠshÃŃĠ
zhÄĽ ĠwÃ¨iĠ
nuÃ² ĠyÄ«Ġ
ĠhÃ©Ġ lÇĲĠ
ĠjÃŃĠ lÃŃnĠ
xiÄģngĠ tÃ³ngĠdeĠ
ĠzhÅįngĠguÃ³Ġ guÃ³ĠmÃŃnĠ
2 ĠrÃ©nĠ
Ġ hÃ¡n
ĠzhÃ¨Ġ shÇĴuĠ
yÄ«ngĠ gÄģi
guÄģngĠ xÃ¹Ġ
wÇĶ ĠyuÃ¨Ġ
dÄģn ĠyÄ«Ġ
yÄ«ng ĠlÇĲĠ
biÃ© ĠdeĠ
yÃ³uĠ tÃłiĠrÃ©nĠ
yÃłĠ mÃ¹Ġ
ĠdeĠchÃ©ngĠ zhÃ¨nĠ
Ġ bÄģoĠ
lÄģ ĠÄĽrĠ
xÃºn ĠqiÃºĠ
ĠbÃ¹Ġ ÄĽrĠ
ĠxÃŃngĠ xiÃłngĠ
ĠwÃ©iĠ chÃŃĠ
yÇĲnĠ zhÇĴngĠ
1 ĠgÃ¨Ġ
bÃº ĠyÃłoĠ
shÄģng ĠdeĠ
cÅįng Ġ
ĠbÃ¹Ġ dÃŃĠ
ĠyÃºĠ lÃ¨iĠ
ĠjiÄģng ĠqÃŃĠ
ĠĠĠ 5ĠyuÃ¨Ġ
28 Ġ
ĠzÃłiĠ gÄģiĠ
ĠguÃ³Ġ mÃŃn
yÃŃngĠ yÃ¨Ġ
dÇĲĠ kÃłngĠ
wÄĽiĠfÃ¹Ġ shÅ«ĠjÃ¬Ġ
Ġ V
wÇĶ ĠdÃ¬Ġ
sÄ«Ġ lÃ¡nĠ
ĠkÃ¨Ġ lÄģĠ
qiÄģnĠ yuÄĵĠ
ĠjiÃłoĠ yÃ¹
cÄģnĠyÃ¹Ġ leĠ
Ġ yÅįuĠ
zhÃŃ ĠyuÃ¡nĠ
1962 ĠniÃ¡nĠ
ĠyÄ«Ġ cÃŃĠ
ĠyÄ«Ġ liÃ¡oĠ
qiÄģnĠ dÃ¬ngĠ
ĠliÃºĠ yÃ¹Ġ
Ġ000 Ġ
ĠwÃ¨iĠ cÇĲĠ
ĠhÃ©Ġ jÃŃĠ
ĠqÃŃĠzhÅįngĠ nÃ¡nĠxÃ¬ngĠ
Ã© ĠwÃ¨iĠ
jiÃło ĠyÃºĠ
gÄĵ ĠdeĠ
huÃ¡i ĠyÃŃĠ
ĠdÃ¬Ġ miÃłnĠ
tÇĲĠ yÃ¹
mÄĽiĠ yuÃ¡nĠdeĠ
cÃ©ngĠ shuÇĲĠyÃ¹Ġ
rÃ³ngĠ nÃłĠ
ĠjiÃ©Ġ gÃ²uĠ
gÇĶĠfÃ¨n ĠyÇĴuĠxiÃłnĠgÅįngĠsÄ«Ġ
zhuÃłnĠdeĠ xiÇİoĠxÃŃngĠxÄ«ngĠ
ĠĠĠ pÃŃngĠjiÃłĠ
ĠhÃ²uĠ qÄ«Ġ
ĠkÃ¨Ġ lÃ¡iĠ
jiÄĵĠ rÃ¨nĠ
zhÇĲĠ dÃ¬ngĠ
xiÃłoĠ yÃ¬ngĠ
z Ġ
yÃ³u ĠqÃŃĠ
liÃ¡ng ĠshÃŃĠ
ĠshÃ¬Ġ nÃ¨iĠ
yuÃ¨Ġ nÃ¡nĠ
ĠdÃ¬Ġ 1Ġ
jÃ¬ngĠ sÃłiĠ
ĠdeĠdÃ¬Ġ Ã¨r
mÃ²ĠsÄ«Ġ kÄĵĠ
Ġ xÇĶĠ
yÃ³u ĠrÃ©nĠgÅįngĠ
zhÇİng ĠwÃ¨iĠ
gÄĵ ĠjÃ¹Ġ
ĠshÃ¬Ġ xÄ«Ġ
ĠyÄ«Ġ zhÄ«Ġ
ĠshÃ¨ ĠjÄ«Ġ
ĠjiÃłnĠlÃ¬Ġ leĠ
Ġ jÇĲĠ
Ġ wÅ«ĠkÃ¨ĠlÃ¡nĠ
ĠĠĠ chÃºĠleĠ
chÃ¡o ĠdeĠ
tuÄ« ĠchÅ«ĠdeĠ
ruÇİn ĠtÇĲĠ
gÇİnĠ lÇİn
Ġ sÃº
mÃ©n ĠdeĠ
ĠshÃŃĠ yÃ²ngĠ
tuÄ«Ġ guÇİngĠ
zhÅįngĠ xÄ«nĠ
Ġ qÇĲng
Ġ chÃ©ngĠshÃ¬Ġ
shÃ¹ ĠshÃ¬Ġ
ĠjiÃłn ĠwÃ¨iĠ
bÄģĠ lÄģĠ
ĠchÃ¡oĠ xiÄģnĠ
ĠÄĽr ĠdÃ©
shuÃ²ĠshÃ¬Ġ xuÃ©ĠwÃ¨iĠ
huÃ¡ĠshÃ¨ngĠ dÃ¹n
yÃ¹n ĠhÃ©Ġ
yÃ¡ng ĠxiÃłnĠ
wÃ©iĠ zhÇĲĠ
cÇİiĠ fÇİng
ĠtÅįngĠ guÃ²
zhÄ« ĠyuÃ¡nĠ
gÃ¨ ĠdÃ¬Ġ
biÄģn ĠhÃłoĠwÃ¨iĠ
ĠzhÃ¬Ġ zÃło
ĠyÄ«Ġ tiÃ¡oĠ
kÄģiĠ zhÇİnĠ
fÇİĠ tÃŃngĠ
ĠqiÃºĠ chÇİngĠ
qÃºnĠ tÇĲĠ
leĠyÄ«Ġ xiÄĵĠ
ĠgÅįngĠchÃ©ngĠ shÄ«Ġ
wÃ¹ ĠzhÅįngĠ
lÃŃ ĠmÇĲĠ
mÃ©ng ĠjÅ«nĠ
1938 ĠniÃ¡nĠ
luÃ³Ġ bÃ³ĠtÃ¨Ġ
zÇĴngĠ jiÄģnĠ
ĠzÃłiĠdÃ¬Ġ Ã¨rĠ
pÃŃngĠjÅ«nĠ hÇİiĠbÃ¡ĠgÄģoĠdÃ¹ĠwÃ¨iĠ
Ġ mÇİn
Ġ wÃ¡nĠchÃ©ngĠ
Ġ 11Ġ
ĠĠĠ jÄ«ngĠjÃ¬Ġ
zhÃŃ ĠlÃ¬Ġ
ĠwÃ¨iĠ mÃŃngĠ
ĠwÃ¨iĠyÃºĠ zhÅįngĠhuÃ¡ĠrÃ©nĠmÃŃnĠgÃ²ngĠhÃ©ĠguÃ³Ġ
lÃŃĠ ziĠ
ĠrÃ©nĠmÃŃnĠ bÃ¬Ġ
dÅ«Ġ dÅ«Ġ
Ġ wÅ«
ĠxÄ«Ġ yÇĲnĠ
jiÇİnĠ dÄģnĠ
dÄĵngĠ chÃ¡ngĠ
m ĠĠĠ
Ġ pÃ¡iĠ
yÃ¡ng ĠgÅįngĠ
gÅįngĠ kÄģiĠ
ĠyÇĴuĠ lÃ¬Ġ
ĠtÄģĠ yÄĽ
bÄĽnĠ tÇĶĠ
ĠÃ©rĠgÄģiĠdÃ¬ĠdeĠ pÃŃngĠjÅ«nĠhÇİiĠbÃ¡ĠgÄģoĠdÃ¹ĠwÃ¨iĠ
Ġ 9Ġ
Äģ ĠÄĽr
shÄ« ĠrÃ©nĠ
fÄĵng ĠdeĠ
nÃŃ ĠxÄ«ĠyÃłĠ
cÃ¹ ĠjÃ¬n
hÇİn ĠmÃ²
1939 ĠniÃ¡nĠ
ĠzÃłiĠ rÃ¬ĠbÄĽnĠ
lÃ¹Ġ zhÃłnĠ
jiÄĵĠ shÅįuĠ
ĠĠĠ tiÄģnĠ
lÃ¬ ĠzhÅįngĠ
2010ĠniÃ¡nĠ mÄĽiĠguÃ³ĠrÃ©nĠkÇĴuĠpÇĶĠchÃ¡ĠdeĠshÃ¹ĠjÃ¹Ġ
jÄ« ĠshÃ¬Ġ
chÅ« ĠdÃłoĠ
yÇİn ĠchÅ«
yÃ¬ng ĠduÃ¬Ġ
1965 ĠniÃ¡nĠ
xuÃ©Ġ xÃŃ
ĠzhÄ«Ġ qiÃ¡n
fÇİĠ lÃ¡nĠ
miÃłnĠ lÃŃnĠ
yÇĲnĠzhÇĴngĠ zÄģiĠpÃ©iĠ
Ġ sÃł
Ġ pÃłiĠ
Ġ yÃºnĠnÃ¡nĠ
qÇĲ ĠleĠ
liÃ¨ ĠshÃ¬Ġ
zÃº ĠqiÃºĠduÃ¬Ġ
ĠdÃłĠ qiÃ¡oĠ
huÃłnĠ zhÄĽĠ
chÅ« ĠrÃ¨nĠ
shuÅį ĠshÃ¬Ġ
km Ġ
ĠjÃŃĠ shÇĲ
rÃ¹Ġ qÄ«n
shÄĽngĠ wÄĽiĠ
ĠxÄ«nĠ zÄĵng
xÃºnĠ huÃ¡nĠ
ĠzhÇĲ ĠchÅ«Ġ
shÄĽnĠ chÃ¡Ġ
fÄĵiĠlÇľĠ bÄ«n
kÇİĠluÃ³Ġ lÃ¡iĠ
3 ĠrÃ©nĠ
Ġ zhÄĽngĠ
Ġ ÅįuĠzhÅįuĠ
yuÃ¡n ĠdÃ¬Ġ
shÄĵn ĠshÃłngĠ
pÇĲ Ġ
ĠzÃłiĠ bÄĽiĠ
wÃ©iĠ ÄĽr
ĠxÄ«Ġ xÄ«Ġ
hÄĽnĠ duÅį
Ġ shÃ¨nĠ
zhÄĽng ĠhÃ©Ġ
1936 ĠniÃ¡nĠ
jÄ«Ġ bÇİiĠ
ĠjÄ«Ġ yÄ«nĠ
dÃ²ngĠ huÃł
zhÇİngĠ yuÄĵĠ
suÇĴĠ chÃ¹ĠdeĠhÇİiĠbÃ¡ĠwÃ¨iĠgÄģoĠyÃºĠhÇİiĠpÃŃngĠmiÃłnĠ
nÃłĠ xiÄĵĠ
chuÃ¡nĠ bÅį
gÇİngĠ kÇĴuĠ
zhÇİnĠ kÄģi
xÄ«nĠjiÄģĠ pÅįĠ
yÃ³uĠrÃ©nĠgÅįngĠ yÇĲnĠzhÇĴngĠzÄģiĠpÃ©iĠ
ĠĠĠ jÃ¬Ġ
qÃŃng ĠxÃŃngĠ
bo Ġ
tÄģi Ġ
qÃŃngĠ xÃ¹Ġ
yÇĴngĠ jiÇĶĠ
rÃ¨ĠdÃłiĠ fÄĵngĠbÃłoĠ
Ġ hÃ¨
1959 ĠniÃ¡nĠ
tÅįngĠ xÃ¹nĠ
jÅ«ĠmÃŃnĠ diÇİnĠ
1 ĠrÃ©nĠ
Ġ jÇĲ
jÃ¬ ĠjÃŃĠ
ĠzhÄ«Ġ fÇĶĠ
ĠshÃ¨Ġ huÃ¬
ĠzhÇĶĠ chÃŃĠ
ĠhÃłnĠ zÃºĠ
ĠĠĠ 2017ĠniÃ¡nĠ
yÇĶ ĠshÃ¬Ġ
dÃ²ng ĠgÅįngĠ
lÇĶ ĠkÃ¨Ġ
ĠbÃ¹Ġ jiÄģĠ
ĠyÇĲĠ shÃłngĠdeĠ
ĠyÇĶĠ cÇĲĠtÃ³ngĠshÃŃĠ
mÇĲĠ yÃłĠ
cÃ¨Ġ liÃ¡ng
fÄĵnĠbiÃ© ĠwÃ¨iĠ
sÃ¬ ĠmÃŃngĠ
bÄ«ng ĠbÃ¹Ġ
35 Ġ
ĠdeĠyÄ«Ġ xiÄĵĠ
dÇĲĠ dÃ¡
ĠsuÃŃĠ zhe
ĠsÅ«Ġ liÃ¡nĠ
liÇİoĠ jiÄĽ
zhÇĲ ĠyÃºĠ
cÃ¬ ĠwÃ¨iĠ
guÃłi Ġ
gÇĴng Ġ
1935 ĠniÃ¡nĠ
zÇĶĠ chÃ©ng
gÃłoĠ sÃ¹Ġ
fÄģĠzhÇİn ĠdeĠ
ĠĠĠ TheĠĠĠ
yÇĲ ĠhÃ²uĠ
duÃ¬ ĠhÃ©Ġ
gÃ© ĠlÃ¬Ġ
dÄĵng ĠjÃ¬Ġ
1967 ĠniÃ¡nĠ
ĠsÄ«Ġ kÇİĠ
ĠwÃ©iĠ yÃłĠ
jiÃ¨Ġ shÃło
ĠzhÅįngĠguÃ³Ġ dÃłĠlÃ¹ĠdeĠ
xiÃłĠxiÃ¡ĠyÇĲĠxiÃł ĠdÃ¬ĠqÅ«Ġ
chÅ« ĠshÄĵngĠ
en Ġ
yÇİn ĠshÄĵngĠ
dÃłĠ shÇĲĠ
ĠxÄ«Ġ ÄģnĠ
jÃ¹Ġ qÃŃngĠ
fÄĵiĠ fÇİĠ
ĠjiÃłoĠ shÃ²uĠ
chuÃłngĠ bÃłnĠ
bÃ¡i ĠzhÃ¬Ġ
ĠzhÃ¬Ġ liÃ¡o
zhuÄģngĠ jiÇİ
zhuÃłngĠ kuÃłng
ĠbÃ¬Ġ yÃ¨ĠyÃºĠ
ĠÃło ĠdÃłĠlÃ¬Ġ
xÃºnĠyÃ¡ng ĠjiÃłnĠ
liÃº ĠdeĠ
mÄģo Ġ
ĠbÃ¹Ġ biÃłnĠ
shÇĴuĠ xÃŃĠ
wÃ©nĠ huÃłĠdeĠ
H Ġ
ĠĠĠ 2016ĠniÃ¡nĠ
kÅįng ĠjÅ«n
shÃ¹n ĠshÃŃĠ
ĠchÅ«Ġ xÃŃĠ
wÄĵiĠ xiÇİnĠ
ĠzhÃ¨ ĠbÃ¹Ġ
ĠniÃ¡nĠ7ĠyuÃ¨Ġ 1ĠrÃ¬Ġ
wÃ¨nĠtÃŃ ĠdeĠ
ĠjÃ¬nĠshÃ¬Ġ chÅ«ĠshÄĵnĠ
Ġ gÃłiĠ
hÃ¹ ĠbÃ¹Ġ
ĠzhÃ¬Ġ shÇİo
ĠxiÃłnĠ rÃ¹Ġ
nÃ¡nĠ fÄģngĠ
ĠbÃ¨iĠ qÃŃĠ
ĠqÃŃĠzhÅįngĠ nÃ¡nĠ
mÃ¡oĠzÃ©Ġ dÅįngĠ
zi ĠhÃ©Ġ
dÃ¡ ĠÄĽrĠ
lÇĶ ĠshÃ¬Ġ
hÇİn Ġ
ĠbÃ¹Ġ zhÃ¬Ġ
ĠdÃ¬Ġ sÄ«Ġ
zÄ«Ġ shÄĽngĠ
tÃºĠ xiÃłngĠ
guÄ«Ġ fÃłnĠ
pÃŃnĠ lÇľĠ
Ġ tÄģng
Ġ ãĥ¼
ĠĠĠ 10ĠyuÃ¨Ġ
ĠzhÅįngĠ zuÃ¬Ġ
ĠjÃ¬Ġ niÃłn
pÃłnĠ juÃ©Ġ
gÃ²ngĠchÇİnĠ zhÇĶĠyÃ¬Ġ
ĠyÇĲĠsÃ¨Ġ liÃ¨
ĠĠĠ bÄĽiĠ
yÃ¹ ĠjÃ¬Ġ
duÅį ĠgÃ¨
qÇĶ ĠjiÄģĠ
jÃºĠ jÃºĠzhÇİngĠ
fÃ¡n ĠzhÃŃĠ
liÇĶ Ġ
gÄģnĠ sÃ¹Ġ
ĠdÄģnĠ rÃ¨n
zÃ¬ĠxÃŃngĠ chÄĵĠ
Ġ 2005
miÃ¡o ĠhuÃ¬Ġ
HD ĠĠĠ
ĠyÄ«Ġ mÃ©iĠ
fÄĵnĠ lÃ¨i
ĠpÃŃngĠ jiÃłĠ
duÅįĠ yÃłngĠ
ĠnÃ¡nĠ bÄĽiĠ
fÄĵi ĠlÃ¬Ġ
1963 ĠniÃ¡nĠ
ĠsÄ«Ġ xiÇİngĠ
yÃ¡nĠ zhÃ²ng
dÄģngĠ jÃºĠ
ĠshÃ¬ĠzhÅįngĠ xÄ«nĠ
shÃłoĠ jiÃłngĠ
ĠĠĠ lÃ¬ngĠwÃłiĠ
hÃ²u ĠshÃ¬Ġ
zhÃ¹ ĠdÃ¬Ġ
yÇĲn ĠshÃŃĠ
1953 ĠniÃ¡nĠ
ĠshÃ¬Ġ wÅ«ĠkÃ¨ĠlÃ¡n
zhÇĶĠ chÇİngĠ
ÃłnĠ zhÃłoĠ
ĠgÅįngĠzuÃ² ĠshÃ¬Ġ
cÄģnĠmÃ³u ĠzhÇİngĠ
Ġ chÅ«nĠ
xiÃłng ĠxÄ«Ġ
Ã¨r ĠzhÃłnĠ
ĠchÃ©ngĠ shÃ¬ĠdeĠ
ĠzhÄ« ĠjÃ¬Ġ
ĠdÃłĠ jiÄģĠ
ĠmÃŃngĠ chÄĵng
ĠtÃ³ng ĠyÄ«Ġ
jiÄģoĠ huÃłnĠ
ĠhÃ©ĠbÃ¬ng ĠwÃ¨iĠ
ĠĠĠ zhÃ¹Ġ
yÇĶ ĠyÇĲĠ
zÃ© ĠyÇĴuĠ
luÃ² ĠdeĠ
lÃŃng ĠdeĠ
kÄĵĠ fÅ«
gÇİiĠ shÃłn
dÄģngĠ xuÇİn
ĠgÅįngĠkÄģiĠ sÃłiĠ
hÅįngĠ zhÃłĠ
ĠfÄĵnĠbiÃ© ĠwÃ¨iĠ
Ġ nÃ¨i
zhÃ¨ ĠbÃ¹Ġ
bÇİo ĠzhÃ¨ngĠ
xuÄĵ Ġ
ĠyÃºĠ dÃ¬Ġ
rÃ¹Ġ xuÇİn
shÄģngĠ wÃ¡ngĠ
biÄģnĠ jÃ¬ngĠ
ÄģiĠ nÃłĠ
cÃ¬ ĠdÃłĠ
shÄĵnĠ zhÃ¨n
chÅ«Ġ shÄĵngĠyÃºĠ
ĠĠĠ 4
ĠdÃ¬Ġ guÃ³ĠdeĠ
bÃłoĠ zhÇĲĠ
gÇİiĠ biÄģnĠ
guÇİngĠ gÃło
zÄĵngĠ qiÃ¡ngĠ
qÃºn ĠdeĠ
ĠzÃłiĠ jÄ«Ġ
ĠjiÃłn ĠhÃ©Ġ
bÇİoĠ cÃºnĠ
Ġ rÃ¨Ġ
jÄ« ĠbÃ¹Ġ
zhÄ« ĠmÃŃngĠ
rÃ¹ ĠdeĠ
guÃ³Ġ nÃ¨iĠ
ĠgÅįngĠ zhÃłnĠ
ĠyÇĲĠ nÃ¡nĠ
xiÃłnĠ fÇİĠ
zÇĲĠ nÇļĠ
wÃºĠrÃ©nĠ jÄ«Ġ
chuÃłn Ġ
1941 ĠniÃ¡nĠ
ĠxÃŃngĠ chÃ©ngĠdeĠ
qÅ«Ġ fÄĵnĠ
bÄģĠ fÃ¡
bÃłnĠ yÇİnĠ
Ġ15 Ġ
Ġ chÃ¹Ġ
Ġ bÇĶĠ
Ġ 1998ĠniÃ¡nĠ
cÇĲ ĠzhÄ«ĠwÃłiĠ
sÄ«Ġ xiÇİngĠ
ĠdÃłĠ shÄ«Ġ
ĠchÅ«ĠxiÃłnĠ leĠ
miÃ¡oĠ shÃ¹
ĠdeĠmÃŃngĠ zÃ¬Ġ
Ġ gÇİiĠwÃ©iĠ
1969 ĠniÃ¡nĠ
ĠdÃłn ĠyÄ«nĠ
shÄģĠ hÃłiĠ
Ġ xiÃ¡Ġ
xiÃł ĠdeĠyÃŃĠgÃ¨Ġ
huÃ² ĠshÃ¬Ġ
wÃłi ĠwÃ©iĠ
chuÃŃ Ġ
ĠdÃłĠ zhÃ²ngĠ
shÃ²uĠ hÃłiĠ
ĠfÄĵnĠbiÃ© ĠshÃ¬Ġ
zhÇĲĠhuÄ«Ġ guÄģnĠ
wÃ©n ĠzhÅįngĠ
bÅį ĠÄĽrĠ
ĠyuÃ¨Ġ tÃ¡i
ĠnÃ¡nĠ jÄ«ngĠ
bÃ¬ngĠ mÃ©iĠyÇĴuĠ
jiÃłoĠyÃ¹ ĠbÃ¹Ġ
Y Ġ
gÃ²ng ĠshÃŃĠ
bÇİi ĠniÃ¡nĠ
ĠwÃ¨iĠ yÃ³uĠ
miÃłnĠ tÇĲĠ
yÄ«ngĠ guÃ³ĠdeĠ
cÃ¡iĠ wÃ¹Ġ
yÃ¡nĠjiÅ«Ġ yuÃłnĠ
fÄĵn ĠzhÄ«ĠyÄ«Ġ
ĠyuÃ¡nĠ shÇĲĠ
ĠÄĽr ĠzÃłiĠ
fÇİĠ lÃ¬ngĠ
jÇĲngĠ guÄģnĠ
Ġ yÃłnĠ
Ġ pÃ©iĠ
Ġ niÇĶĠyuÄĵ
ĠĠĠ 2006
nuÃ² ĠsÄ«Ġ
26 Ġ
1980 ĠniÃ¡nĠdÃłiĠ
ĠshÄĵngĠzhÇİngĠyÃºĠ hÇİiĠbÃ¡
Ġ piÃłnĠ
ĠdeĠ xiÇİoĠ
mÇİĠ tÃ³uĠ
bÃłn ĠniÃ¡nĠ
shÃ¨ng ĠdÃ¬Ġ
ĠdÃło ĠshÃ¬Ġ
ĠdÃłĠ xÃŃng
jÄ«ngĠ yÃŃng
zhÇİnĠ lÇİn
ĠmÇĲ ĠdeĠdÃ¬ĠqÅ«Ġ
gÄģo ĠyuÃ¡nĠ
chÄĵng ĠhÃłoĠ
cÃ©ng ĠshÃ¬Ġ
tÃ¡o ĠyuÃ¡nĠ
ĠzÃłiĠ yÄ«ngĠguÃ³Ġ
hÃ²uĠ lÃ¡iĠ
ĠzhÃ¨Ġ yÃłngĠdeĠ
Ġ nÃŃngĠ
diÇİn ĠwÃ¨iĠ
ĠwÃ¨iĠ bÃ¨iĠ
ĠhÃ©Ġ fÇİĠ
ĠyÃ¬Ġ si
ĠpÃŃngĠ lÃ¹n
ĠshÃłngĠ shÅ«Ġ
hÃ¡ngĠ yÃ¨Ġ
pÃłnĠ luÃłnĠ
ĠxÄ«n ĠjiÄģĠ
Ġ 1990
mÇİ ĠdeĠ
qÃŃngĠ jiÃ©Ġ
ĠmÃ¹ĠqiÃ¡nĠ shÃłngĠwÃ¨iĠ
Ġ 2000
Ġ kÅįngĠ
Ġ yÃ¡oĠ
tÅ« ĠchÅ«Ġ
ĠdÃło ĠbÃ¹Ġ
pÃŃngĠ mÃŃnĠ
guÄģnĠ fÃ¨iĠyÃ¡nĠ
ĠzuÃ²Ġ chÅ«
ĠyÃ¬Ġ mÃŃngĠ
ĠyÇĲ ĠshÃ¬Ġ
ĠxiÃłnĠdeĠyÃŃĠgÃ¨Ġ fÄĵiĠjiÃłnĠzhÃ¬ĠdÃ¬ĠqÅ«Ġ
Ãłi ĠguÃ³Ġ
ĠyÃ¬Ġ jÃŃĠ
fÃ¡ngĠ zhÇĲĠ
dÃ²uĠ zhÄĵngĠ
wÃ¹ĠzhÇĴng ĠdeĠ
f Ġ
Ġ chÄģo
shÃłng ĠyÄ«Ġ
ĠhÃ©Ġ tÄģĠdeĠ
ĠyÇĶĠ dÃłĠ
jÄ«ngĠ guÃ²
jiÃłoĠ shÃ²u
y ĠĠĠ
luÃ³ ĠjÃŃĠ
hÃ³ng ĠjÅ«nĠ
kÄģ ĠfÄĵiĠ
ĠrÃ¨nĠ mÃ¬ng
tiÄģnĠ huÃ¡ngĠ
sÄģiĠ nÃłĠ
lÃ¡i ĠsÄ«Ġ
hÇİo ĠyÇĴuĠ
ĠzhÅįngĠgÃ²ng ĠzhÅįngĠyÄģng
miÃłn ĠshÃ¬Ġ
chÃ³u ĠbÃ¨iĠ
lÇĲngĠ yÃ¹
shÇĲĠyÃ²ngĠ leĠ
yuÃ¡n ĠzhÅįngĠ
te ĠĠĠ
ĠyuÃ¡nĠ zÃ©Ġ
zuÃ²Ġ chÅ«
dÅįngĠ nÃŃĠ
chÃ¡ngĠ qÄ«
xiÇİngĠ fÇİĠ
pÇĲnĠ pÃ¡i
mÃ¬ngĠ lÃ¬ng
tiÄģn ĠjiÄģĠ
nÃŃ ĠdeĠ
ĠzhÄ«Ġ chÃ¹Ġ
dÃłiĠ lÃ¡iĠ
ĠdÄģngĠ xuÇİn
Ġ zhÇĶ
Ġ mÃŃn
Ġ niÃºĠ
Ġ 20Ġ
fÃº ĠÄĽrĠ
dÃ¬ng ĠzÃłiĠ
hÃ¡ng ĠxiÃłnĠ
ĠjÄ«Ġ dÅ«ĠjiÃłoĠ
ĠtÃ³ng ĠrÃ¬Ġ
ĠxÃŃngĠzhÃ¨ngĠ zhÃ¨nĠqÅ«Ġ
ĠĠĠ 2021ĠniÃ¡nĠ
hÄĵng Ġ
ĠdeĠ lÇĲĠ
ĠdeĠ xÄ«Ġ
ĠshÃ¬Ġ nÃ¡nĠjÃŃĠzhÅįuĠdeĠ
ĠwÃ¨iĠ qÃŃĠ
ĠhÃ©Ġ dÃło
Ġ wÃ©i
Ġ tÃºn
Ġ 1999ĠniÃ¡nĠ
ĠĠĠ suÃŃĠ
1961 ĠniÃ¡nĠ
ĠshÃŃĠ dÃłiĠdeĠ
ĠzuÃ²Ġ biÄģoĠwÃ¨iĠ
xÃ¬ngĠ biÃ©Ġ
chÃ¡ngĠ jiÄģngĠ
ĠzuÃ¬ ĠchÅ«
ĠĠĠ 6Ġ
ĠbÃ¹Ġ dÃ©Ġ
lÃ¬Ġ yÃ²ngĠ
qÃ¬Ġ tÇĲĠ
chÇİnĠ yÃ¨
ĠdÃ¬ĠÃ¨rĠ cÃ¬Ġ
ÃłoĠsÄ«Ġ kÇİĠ
Ġ jiÇİoĠ
Ġ xiÃ³ngĠ
ĠĠĠ zhÃłnĠ
huÃ¬ ĠjÃŃĠ
zuÃ² ĠzhÅįngĠ
pÇĲn ĠzhÃ¬Ġ
bÄ«n ĠshÃ¬Ġ
ĠgÅįngĠ jÄ«nĠ
shÄ«Ġ bÃłi
fÃºĠ hÃłoĠ
ĠĠĠ Ã©r
ĠĠĠ zhÇĶĠyÃłoĠ
gÄĵ ĠÄĽrĠ
chÄĵngĠ wÃ©i
shÃ¨ĠhuÃ¬Ġ zhÇĶĠyÃ¬Ġ
dÃłngĠ ÃłnĠ
yÃŃngĠdÃ©Ġ leĠ
Ġ shÃ²uĠdÃłoĠ
29 Ġ
1957 ĠniÃ¡nĠ
ĠgÅįngĠ zuÃ²ĠdeĠ
ĠyÇĶĠ zhÃ²u
chÇİngĠ jÇĲngĠ
ĠzhÃ¨Ġ cÃ¬Ġ
ĠniÃ¡nĠ12ĠyuÃ¨Ġ 31ĠrÃ¬Ġ
ĠcÃ©ng ĠzÃłiĠ
zhÃłn ĠzhÃ¬Ġ
zhÃłn ĠjÃ¬Ġ
wÇĶ ĠmÃŃngĠ
chÇİng ĠshÃłngĠ
dÇĲ ĠzhÃ¬Ġ
1944 ĠniÃ¡nĠ
ĠsÄģn ĠshÃŃĠ
niÇİoĠ lÃ¨iĠ
lÃ¨iĠsÃ¬ ĠyÃºĠ
Ġ fÄģ
dÅįng ĠxiÃłnĠ
jiÄĵ ĠjÃ¬n
ĠbÃ¹Ġ ÄĽr
ĠzhÃ¬Ġ dÃ¬ngĠ
shÄģngĠ diÃłnĠ
xiÅ«Ġ gÇİi
jÄ«ngĠjÃ¬Ġ xuÃ©Ġ
Ġ dÅ«nĠ
ĠĠĠ duÃ¬ĠyÃºĠ
zhÅįng ĠshÃ¬ĠjÃ¬Ġ
yÃ¹ ĠdÃłoĠ
dÃ²ng ĠyuÃ¡nĠ
kuÃ² ĠzhÄģngĠ
nÃłn ĠmÃŃnĠ
ĠmÃŃngĠ zÃ¬Ġ
jiÄĵĠ chÃ¹
rÃ©nĠmÃŃnĠ dÃłiĠbiÇİoĠdÃłĠhuÃ¬Ġ
fÄĵn ĠchÃ©ngĠ
ĠjÄ«Ġ xiÃ¨Ġ
yÃ¡nĠjiÅ« ĠsuÇĴ
jiÄģngĠsÅ«Ġ shÄĽngĠ
Ġ nĠ
fÃº ĠdÃ©Ġ
yÇĲn ĠlÃ¬Ġ
guÄģ Ġ
ĠxiÃłnĠ dÃłi
liÃ¨Ġ rÃ¹
ĠĠĠ kÃ¨Ġ
jiÇİng ĠdeĠ
in Ġ
ĠzhÅįngĠ shÅ«Ġ
ĠtÄģĠ shuÅįĠ
Ġ 1ĠyuÃ¨Ġ
Ġ xiÅįngĠ
hÃ²uĠ xuÇİnĠrÃ©nĠ
yÃ¡nĠ shÄĵnĠ
ĠdÃłn ĠbÃ¹Ġ
ĠwÃ©iĠ zhÇĲĠ
gÇİnĠ rÇİn
zhÅ«Ġ lÃ³ngĠ
ĠtÃłiĠ yÃ¡ngĠ
mÃ¹ĠsÄ«Ġ lÃŃnĠ
fÄģng ĠchÃ©ngĠ
chÄĵ ĠdÃłoĠ
sÅ« ĠlÇĲĠ
zhÃ²ngĠ zhÃŃĠ
gÃ¨ngĠ duÅį
hÃłiĠ Ã©
zÅ« ĠjiÃ¨Ġ
chÃ¨n Ġ
shÄĵngĠ mÃŃngĠ
ĠjiÄģĠ jÃ¬ngĠ
jÃ¹Ġ fÄĵngĠ
zhÃ¹Ġ cÃ¨Ġ
ĠyÃ³uĠ yÇĴngĠ
dÄĽngĠ zhÃŃĠ
bÄģnĠ fÄģĠ
ĠbÃ¬ngĠqiÄĽ ĠzÃłiĠ
o ĠĠĠ
v Ġ
rÃ©n ĠwÃ¨iĠ
duÃ¬ ĠyÇĴuĠ
tÇĲ ĠxÃŃngĠ
yÄĵ ĠsÅ«
ĠjÄ«Ġ chÇĶĠ
ĠchÅ«Ġ shÄĵnĠ
bÇİoĠ cÃºn
gÃ²ngĠhÃ©Ġ guÃ³ĠdeĠ
ĠwÃ¨iĠfÃºĠqÃŃĠyÃºĠ gÄģng
lÇİng ĠdÃ©Ġ
ĠchÅ«Ġ rÃ¹ĠkÇĴuĠ
yÃ¡nĠjiÅ« ĠyuÃ¡nĠ
ĠshÃ¬ĠdÃ¬Ġ yÄ«Ġ
Ġ JR
Ãłi ĠdÃ©ĠhuÃ¡Ġ
xiÃłn ĠshÃŃĠ
qÇĲ ĠdeĠ
bÄģn ĠbÃ¹Ġ
hÃ¡ng ĠzhÅįuĠ
nÃº Ġ
nÇļĠ yÇİnĠyuÃ¡nĠ
kÇİoĠ gÇĶĠ
miÃłnĠjÄ« ĠhÃ©Ġ
zuÃ¬ĠzÇİo ĠdeĠ
Ġ wÄĵn
ĠĠĠ V
shÇĲ ĠzhÅįngĠ
qÃ¬ ĠhÃ©Ġ
chÄĵng ĠzhÄ«ĠwÃ¨iĠ
pÃ¡i ĠdÃ©ĠzhÇĶĠ
bÄ«ng ĠlÃ¬Ġ
ĠjiÄģĠ mÃ©ngĠ
jiÃłoĠ zuÃ²Ġ
fÄĵnĠ qÅ«Ġ
tÅįngĠ xÃ¬nĠ
zÄ«Ġ zhÃ¹Ġ
huÇĴĠ bÃłnĠ
chÃ¨Ġ dÇĲĠ
jÇĲnĠbiÄģoĠ sÃłi
guÄ«ĠmÃ³ ĠdeĠ
xÄ« ĠyuÃ¡nĠ
chÃ©ng ĠzÃłiĠ
quÃ¡n ĠxiÃłnĠ
bÃłi ĠzhÃłnĠ
rÃ©ng ĠyÇĴuĠ
ĠchÃ©ngĠ xÃ¹
ĠjiÃłn ĠyÇĴuĠ
shÇĴuĠ duÃłnĠ
lÇĲngĠ xiÃ¹
miÇİnĠ diÄģnĠ
quÃ¡n ĠqiÃº
ĠzhÅįngĠ fÄģĠxiÃłnĠ
zÃºĠ xiÃ©Ġ
Ġ tÃ²uĠguÃ²Ġ
zÃº ĠrÃ©nĠ
zÄģo ĠshÃ²uĠ
shÇĴuĠ fÇĶĠ
mÇİĠ lÃ¡iĠ
ĠzhÅįngĠguÃ³Ġ gÃ²ngĠchÇİnĠdÇİng
jÃº ĠyÃºĠ
ĠhÃ©Ġ lÃ¡n
ĠgÄģiĠ dÃ¬ĠdeĠ
ĠgÅįngĠyuÃ¡nĠ qiÃ¡nĠ
ĠdÃ¬ĠshÃŃĠ yÄ«Ġ
4 ĠrÃ©nĠ
Ġ qiÅ«
Ġ biÇİoĠ
ĠĠĠ fÃºĠ
ĠĠĠ 2015ĠniÃ¡nĠ
yÇĲ ĠshÃłngĠ
jiÄģng ĠshÃ¬Ġ
hÃłn ĠyÇĶĠ
ĠwÃ¨iĠ zhÅįngĠguÃ³Ġ
fÄĵnĠ lÃŃĠ
ĠqiÃºĠ yÃ¹nĠdÃ²ngĠyuÃ¡nĠ
ÃłiĠ qÃŃngĠ
tuÃ¬Ġ xiÅ«
ĠlÃ¬ng ĠyÃ¬ĠfÄģngĠmiÃłnĠ
ĠbÃ¹ĠdÃ© ĠbÃ¹Ġ
ĠmÃ¹ĠqiÃ¡nĠshÃłngĠwÃ¨iĠ yÃ³uĠrÃ©nĠgÅįngĠyÇĲnĠzhÇĴngĠzÄģiĠpÃ©iĠ
jiÄģn ĠzhÃ¬Ġ
huÃ¡ ĠdÃłĠxuÃ©Ġ
xiÃ©Ġ tiÃ¡o
wÃ¹ĠlÇĲĠ xuÃ©Ġ
ĠĠĠ 4ĠyuÃ¨Ġ
tÃ³u ĠdeĠ
ĠzhÃ¨Ġ yÄĽĠshÃ¬Ġ
bÃłoĠ zhÃł
jiÄģoĠ chÄģĠ
cÃ¡iĠ chÇİnĠ
gÇİnĠ juÃ©Ġ
ĠfÄĵn ĠwÃ©iĠ
Ġ yÄģoĠqiÃº
fÄĵn ĠwÃ¨iĠ
dÃ¡ ĠdeĠ
wÇİng ĠdeĠ
mÃ³u ĠshÄģĠ
1930 ĠniÃ¡nĠ
ĠzÃłiĠ gÅįngĠ
ĠjiÃłnĠ zÃło
ĠyÄ«n ĠdeĠ
dÇİoĠ yÇİn
ĠxÄ«ĠbÄģnĠyÃ¡ ĠyÇĶĠ
Ġ fÄĵng
Ãłn ĠzhÅįngĠ
yuÃ¡n ĠshÃŃĠ
lÃŃn ĠsÄ«Ġ
xuÃ©Ġ shÄĵng
ĠsuÃŃĠ zheĠ
kÇİĠluÃ³ĠlÃ¡iĠ nÃł
Ġ 2025
fÇİ ĠshÃ¬Ġ
jÄ«n ĠrÃ¬Ġ
1951 ĠniÃ¡nĠ
ĠjÃŃĠ yÄ«Ġ
ĠchÅ« ĠyÄ«Ġ
Ġ rÃ¨nĠhÃ©Ġ
jÃ¬ ĠyÃºĠ
tÃ¨ ĠhÃ©Ġ
rÃłng ĠtÄģĠ
zhÅįngĠ bÃ¹Ġ
ĠdÃłĠ yuÄĵ
shÄĵngĠ tÃłiĠ
wÄĽiĠyuÃ¡nĠ huÃ¬ĠdeĠ
ĠdÄģngĠ xuÇİnĠ
ĠD Ġ
ĠzhÃ¬ĠzuÃ² ĠrÃ©nĠ
xiÃłĠxiÃ¡ĠdeĠyÃŃĠgÃ¨Ġ xiÄģngĠ
nÃ¡n ĠsÄ«ĠlÄģĠ
tÃłi ĠhÃ²uĠ
gÃłn ĠxiÃłnĠ
1931 ĠniÃ¡nĠ
ĠshÃ¬Ġ nÃ¡nĠ
ĠyuÃ¨Ġ tuÃ¡n
zÃºĠ zÃ¬ĠzhÃ¬Ġ
ĠwÃ©nĠ huÃł
zi ĠgÅįngĠsÄ«Ġ
ĠyÃ¬Ġ diÇİnĠ
duÃ¬Ġ wÃłiĠ
ĠhuÃ¬Ġ bÃ¨iĠ
yÃ¡nĠ chÃ¡ng
zhÃ²ngĠ diÇİn
shuÇĲĠ kÃ¹Ġ
ĠmÇİĠlÃ¡i ĠxÄ«ĠyÃłĠ
ĠĠĠfor ĠĠĠ
tÃ¨ ĠjÃŃĠ
ĠshÃ¬Ġ xiÄģngĠgÇİngĠ
qÇĲĠ sÃ¹Ġ
shÄĵnĠ zhÃ¨nĠ
tÃŃĠ gÅįngĠdeĠ
xÃ¹Ġ shÃ¹Ġ
mÃ¹ ĠshÃ¬Ġ
ĠzÃłiĠ nÃ¡nĠ
ĠhÃ©Ġ tÃ³ngĠ
shÃłngĠ shÃ¹Ġ
wÇĶĠ hÃłn
ĠĠĠgÃ¨ĠrÃ©nĠ shÄĵngĠhuÃ³Ġ
Ġ 45
Ġ kÄģngĠxÄ«Ġ
jÃ¬n ĠjÃŃĠ
1940 ĠniÃ¡nĠ
cÅ« Ġ
ĠshÃ¬Ġ gÃ¨Ġ
sÄģnĠ cÃ¬Ġ
gÇİiĠ wÃ©i
qiÄģnĠ shÇĶ
ĠnÃłĠ me
ĠhÄģ ĠÄĽrĠ
ĠjÃ¬ĠsuÃłn ĠjÄ«Ġ
Ġ dÃŃ
Ġ tÇİ
Ġ gÅįngĠbÃ¹Ġ
ĠĠĠ 7ĠyuÃ¨Ġ
zhÃłn ĠwÃ¨iĠ
fÃ¹ ĠzhÃ¬Ġ
rÃ¹ ĠwÃ©iĠ
qÃ¬ ĠrÃ©nĠ
xiÃ© ĠdÃłiĠ
hÃłn ĠzÃ¬Ġ
wÃ² ĠÄĽrĠ
tÃłn ĠsuÇĴĠ
sÇİo Ġ
rÄĽn Ġ
codice Ġ
ĠgÃ¨Ġ zÃ¬Ġ
dÃ¬ngĠ qÄ«Ġ
bÅįĠ fÃłng
miÃ¡oĠ shÃ¹ĠwÃ¨iĠ
Ġ U
Ġ fÇİnĠduÃ¬Ġ
ĠĠĠ dÅįngĠ
xiÅ« ĠsÄ«Ġ
II Ġ
ĠchÃ©ngĠ bÇİoĠ
ĠyuÃ¡nĠ yÇĴuĠ
duÃ¬Ġ xiÃłngĠ
ĠdeĠjÄ«Ġ huÃ¬Ġ
ĠĠĠ zhÃ¬ĠzuÃ²Ġ
mÄĽi ĠrÃ¬Ġ
ĠguÃ³Ġ gÅįngĠ
ĠgÃ¨ ĠdÃłĠ
ĠkÃ¨ ĠlÇĲĠsÄ«Ġ
dÃ²ngĠ chÄĵĠ
tÃ¡iĠ bÃ¬Ġ
zhÇĶĠchÃŃ ĠrÃ©nĠ
shÃ¹ ĠhÃ©Ġ
juÃ© ĠleĠ
ĠbÃ¹Ġ zhÃ¨ngĠ
ĠlÃ¬Ġ kÃ¨Ġ
ĠgÅįngĠ kÄģi
lÃ¹Ġ shÃłngĠ
bÄģnĠ cÃ¬Ġ
mÃ²ĠsÄ«Ġ kÄĵ
fÃ¹ ĠyÇĴuĠ
fÅ« ĠfÃ¹Ġ
zhuÃłng ĠbÃ¬ngĠdÃº
dÇĶ Ġ
mÃŃnĠ jÃ¬nĠ
Ġ cÃŃ
ĠĠĠ xiÄģngĠgÇİngĠ
ĠĠĠ 2020ĠniÃ¡nĠ
qÃŃ ĠshÃ¬Ġ
shÄ« ĠhÃ©Ġ
nÃł ĠsÄ«Ġ
hÃ¡ng ĠzhÃłnĠ
zhuÇİn ĠwÃ©iĠ
tÃ¡iĠwÄģn ĠdeĠ
pÄ«Ġ pÃŃng
Ġ pÃŃ
Ġ gÃ¹ĠshÃ¬Ġ
Äģn ĠrÃ©nĠ
jÄ«ng ĠdeĠ
ĠzhÅįngĠ zhÇĲĠ
zhÃ¨ngĠ quÃ¡nĠ
jiÃłnĠ zÃłoĠ
Ġãĥ¼ Ġ
Ġ dÃ¹
bÄĵn Ġ
ĠrÃ©nĠ bÃ¨iĠ
ĠchÃ©ngĠ wÃ©iĠyÄ«Ġ
qÅ«Ġ jiÄģnĠ
ĠyÇĴuĠyÄ«Ġ xiÄĵĠ
kuÃ²Ġ zhÇİnĠ
jiÃ¹ĠdÃº ĠyÃºĠ
bÃ¨i ĠshÃ¬Ġ
shÇĴu ĠbÃ¹Ġ
dÅįng ĠdeĠ
ĠguÃ³Ġ yÇĶĠ
bÄģĠ nÃ¨n
ĠxiÄģngĠ dÄģngĠ
fÃłnĠ wÃ©i
ĠguÃ³ĠmÃŃnĠ dÇİngĠ
ĠĠĠ 2014ĠniÃ¡nĠ
kÄĵ ĠÄĽrĠ
wÃº ĠÄĽrĠ
ĠniÃ¡n ĠniÃ¡nĠ
kÄģiĠ mÃ¹Ġ
mÃŃnĠ zhÇĶ
zhÃ¨Ġ zhÇĴng
ĠzhÃłnĠ lÇĲngĠ
tiÄģnĠ tÃ¡ngĠ
yÃŃĠ mÃŃn
jiÇİngĠ zuÃ¬ĠjiÄģĠ
dÃºĠ tÃ¨ĠdeĠ
qiÃºĠ duÃ¬
zuÇĴĠ yÃ²u
ĠĠĠ lÄģĠ
xiÃłn ĠxiÃłngĠ
ĠhuÃ¬Ġ shÃłngĠ
fÄĵngĠ gÃ©
tÃ³ngĠ yÃłng
huÃ³ĠdÃ²ng ĠdeĠ
yÃ¬n ĠxiÃłngĠ
1933 ĠniÃ¡nĠ
ĠmÃŃngĠ xÄ«ngĠ
cÃ¨Ġ lÃ¼Ã¨Ġ
ĠqiÃ¡nĠ lÃ³ngĠ
Ġ huÄģ
Ġ lÃº
Ġ shÇİnĠxÄ«Ġ
ĠĠĠ 2010ĠniÃ¡nĠ
shÅ« ĠshÃ¬Ġ
27 Ġ
ĠzÃłiĠ yuÃ¡nĠ
ĠdÃ¬Ġ 2Ġ
ĠrÃ¬Ġ qÄ«Ġ
diÃłnĠ chÄĵĠ
nÃ¨iĠ mÃ©ngĠgÇĶĠ
zhÃłoĠ piÄģn
xiÃ©Ġ shÄģngĠ
Ġ yÃ¡nĠjiÅ«Ġ
ĠdÃ¬Ġ bÄģĠ
ĠjÃŃĠ yÇĲĠ
lÇĲngĠ xiÄģnĠ
Ġ kÄģiĠfÄģĠ
Ġ lÃ¡oĠ
ĠĠĠ 8ĠyuÃ¨Ġ
duÅį ĠmÃŃngĠ
pÇĲn ĠdeĠ
1942 ĠniÃ¡nĠ
ĠzhÅįu ĠrÃ©nĠ
fÇĶĠ zhÃ¹Ġ
guÄ«Ġ huÃł
Ġ cÅ«nĠ
chuÄģn ĠyuÃ¨Ġ
xÃ¬Ġ liÃ¨ĠdeĠ
ĠqÃŃĠ bÄ«ngĠ
jÃ¬nĠ zhÇĲĠ
Ġ nÃ³ngĠ
Ġ hÃ¡oĠ
Ã¨ ĠÄĽrĠ
lÃ¹ ĠyÇĶĠ
jÅ« ĠyÃºĠ
rÃ¹n Ġ
dÃłĠ xuÃ©
ĠrÃ¬ ĠyÃ¬Ġ
xÄ«Ġ wÃłngĠ
shÄĵngĠ mÃ¬ngĠ
yÃ³uĠ tÃłiĠ
tÃ¨Ġ qÅ«Ġ
ĠbÃ¬ngĠ biÇİoĠshÃ¬Ġ
zuÃ¬Ġ duÅįĠdeĠ
jiÃłoĠ kÄĵĠ
ĠhÃ©ĠliÃºĠ yÃ¹Ġ
ĠĠĠ suÄ«ĠrÃ¡nĠ
chÃ©ng ĠshÃŃĠ
gÃ© ĠsÄ«Ġ
jiÅ« Ġ
ĠshÃ¬Ġ yuÃ¡nĠ
jÃ¹Ġ dÃłĠdeĠ
bÇİoĠ zhÃłng
jiÄĵĠwÃ¨iĠ zhÄ«Ġ
ĠshÃ¬ĠyÃŃĠgÃ¨ ĠwÃ¨iĠyÃºĠmÄĽiĠguÃ³Ġ
miÃłnĠjÄ«ĠhÃ©Ġ rÃ©nĠkÇĴuĠ
Ġ yuÇİnĠ
fÄģng ĠwÃ¨iĠ
cÇĲ ĠshÃ¬Ġ
ĠtÄģĠ jiÄģngĠ
zÇĴngĠ jÄ«ngĠlÇĲĠ
kÇİĠ lÄģĠ
ĠtÃ³ngĠshÃŃĠ yÄĽĠ
mÃŃĠ nÇĲĠ
ĠzhÃłn ĠdÃ¬Ġ
Ġ dÅįuĠshÃ¬Ġ
xiÄģng ĠdeĠ
jiÇİ ĠjÄ«Ġ
1928 ĠniÃ¡nĠ
shÃłngĠ xiÃłĠ
zhÃ¹Ġ zhÃ¡i
fÄĵnĠ lÃ¡nĠ
bÃłnĠ yÇİn
biÄģnĠ mÇİĠ
Ġ Ma
ĠĠĠ mÃ¹ĠqiÃ¡nĠ
di Ġ
bÅį ĠlÃ¬Ġ
se Ġ
nÃº ĠlÃ¬Ġ
ĠguÃ³Ġ wÃ¡ng
ĠchÅ«Ġ rÃ¨n
ĠjÅ«nĠ guÄģnĠ
tÃŃngĠ kÃło
huÃ¡ngĠ jÄ«n
ĠqÃŃĠzhÅįngĠ yÇĴuĠ
ĠyÄ«nĠcÇĲ ĠzÃłiĠ
hÃ¡ngĠkÅįng ĠgÅįngĠsÄ«Ġ
ĠgÄģiĠdÃ¬ĠdeĠ miÃłnĠjÄ«ĠhÃ©ĠrÃ©nĠkÇĴuĠ
ĠgÄģiĠdÃ¬ĠdeĠmiÃłnĠjÄ«ĠhÃ©ĠrÃ©nĠkÇĴuĠ jiÄĵĠwÃ¨iĠzhÄ«Ġ
Ġ jÄ«ĠyÃºĠ
Ġ cÃłiĠ
yuÃ¨ ĠhÃ©Ġ
qÅ« ĠjÃŃĠ
chÃ¡i Ġ
hÃłnĠ lÃŃnĠ
ĠzhÃ¬ĠlÃ¬Ġ yÃºĠ
ĠrÃ©nĠ cÃ¬Ġ
dÃłiĠ bÇĶĠ
gÄģoĠ dÄĽng
jiÃłnĠ kÄģngĠ
Ġ 25
yÃŃ ĠjÃ¬Ġ
zÃº ĠyÇĲĠ
ĠshÃŃĠ yuÃ¨Ġ
ĠyÄ«Ġ tiÄģnĠ
hÃ¨Ġ sÃ¨Ġ
cuÄ«Ġ huÇĲ
Ġ huÃ¡i
fÃ¹ ĠyÇĶĠ
guÃ³Ġ fÃ¡ng
ĠchÅ« ĠxiÃłn
ĠjiÄģĠ rÃ¹ĠleĠ
ĠtÃ¨Ġ biÃ©Ġ
huÃ¬ĠyÃ¬Ġ shÃłngĠ
cÃºnĠzÃłiĠ yÃºĠ
duÇİnĠ zÃłn
5 ĠgÃ¨Ġ
Ġ 21
dÄģn ĠxÄ«nĠ
yÄ«ng ĠjÅ«nĠ
diÇİn ĠxÃŃngĠdeĠ
tÃ¡ng ĠdeĠ
biÄģo ĠjÃ¬Ġ
1943 ĠniÃ¡nĠ
ĠyÄ«Ġ chÃ¡ngĠ
ĠdÃ© ĠlÃ¬Ġ
ĠdÃłiĠ lÃ¡iĠ
ĠcÃ©ngĠ jÄ«ngĠ
Ġ mÃ¨ngĠ
ĠĠĠ 9ĠyuÃ¨Ġ
jÃ¹ ĠzhÅįngĠ
sÄģn ĠwÃ¨iĠ
jiÃ¹ ĠyÇĴuĠ
biÄģn ĠchÃ©ngĠ
tÄ«ng ĠdeĠ
zhuÃłng ĠdeĠ
jÃ¬Ġ xÃ¹
ĠkÃ¨Ġ luÃ³Ġ
ĠjÃ¬n ĠjÃŃĠ
gÄģoĠ jiÃłĠ
ĠĠĠwÃ¨iĠ leĠ
Ġ 2004
Äģ ĠjÄ«Ġ
ĠĠĠ 2012ĠniÃ¡nĠ
ĠĠĠ 2013ĠniÃ¡nĠ
xÃ¬ ĠjÅ«nĠ
mÃ¹ ĠzhÃ¬Ġ
fÃº ĠshÃ¨Ġ
ĠyÃ¬Ġ wÃłiĠ
ĠdÃłĠ guÄ«ĠmÃ³Ġ
chÇİnĠ shÄĵng
shÄģngĠ pÇĲnĠ
ĠzhÇĶĠ chÃŃ
ĠshÇĲĠ yÃ²ng
ruÃ¬Ġ diÇİn
zhÃŃĠshÄĵngĠ jÄ«Ġ
chÃ¡ ĠlÇĲĠ
quÃ¨Ġ bÇİoĠ
ĠdeĠjÃ¬Ġ huÃłĠ
ĠguÃ³ĠmÃŃnĠ dÇİng
ĠĠĠ qÃŃĠzhÅįngĠ
bÅį ĠchÅ«
jiÇİn ĠlÃ¬Ġ
gÄĽi ĠtÄģĠ
yÃŃĠ zhÇĲ
mÃ©ngĠ tÃ¨Ġ
ĠguÃ³ĠmÃŃnĠ zhÃ¨ngĠfÇĶĠ
ĠzhÇĶĠyÃło ĠshÃ¬Ġ
Ġ kÄĽĠnÃ©ng
Ġ shÃłoĠ
ĠĠĠ 10
jiÄģ ĠshÃ¬Ġ
bÇĲ ĠÄĽrĠ
ĠhÃ©Ġ lÃ¬Ġ
ĠshÃŃĠ jiÄģnĠdeĠ
lÃ¹Ġ xÃ¹Ġ
ĠxuÃ©Ġ xÃŃ
juÃ©Ġ sÃłiĠzhÅįngĠ
ĠfÄĵnĠ bÃ¹ĠzÃłiĠ
hÄĵiĠ lÃ³ngĠjiÄģngĠ
Ġ qÃŃn
pÃŃng ĠjÅ«n
qiÃ¡n ĠzÃłiĠ
duÃłn ĠshÃŃĠjiÄģnĠ
zÄĽn Ġ
ĠxÄ«Ġ lÇĲĠ
fÄģĠ huÄ«
ĠwÃ©iĠ qÃŃ
dÄģnĠ dÇİĠ
ĠzhÇĶĠ rÃ¨nĠ
Ġ jiÇİng
diÃło ĠyÃºĠ
1929 ĠniÃ¡nĠ
ĠchÅ«Ġ shÃ²uĠ
fÄģĠ yÃ¡nĠrÃ©nĠ
tÃŃngĠ yÃ¹nĠ
fÃº ĠzhÅįuĠ
guÄģnĠ cÃ¨
tÇİĠ nÃŃ
n ĠĠĠ
Ġ kÄĽnĠ
Ġ 1997ĠniÃ¡nĠ
xÃ¹ ĠjÃŃĠ
juÃ© ĠyÃºĠ
suÃ¬ ĠshÃŃĠ
chuÄģn ĠguÃ²Ġ
fÃ¹Ġ zhÇĶĠxÃŃĠ
ĠzhÅįu ĠwÃ©iĠ
ĠzÇĴngĠ tÇĴngĠ
ĠdeĠyuÃ¡nĠ yÄ«nĠ
Ġ zÇĲĠ
zhÅįng ĠhÃ©Ġ
wÃ¹ ĠyÇĶĠ
wÃ¡ng ĠhÃ²uĠ
1912 ĠniÃ¡nĠ
ĠzhÄ«Ġ chÄĵngĠ
ĠdÃłn ĠqÃŃĠ
qÃºnĠ zhÃ²ngĠ
ĠshÃ¬ĠjiÃ¨ ĠdeĠ
tÃłnĠ xiÇİn
nÃŃĠyÃł ĠdeĠ
ĠĠĠchÄĵĠzhÃłnĠ jiÃ©ĠgÃ²uĠ
ĠĠĠ cÄģnĠkÇİoĠ
xÃŃng ĠxiÃłngĠ
shÇĲ ĠdÃ¬Ġ
suÃłn ĠfÇİĠ
shÃ¹Ġ mÃ¹Ġ
ĠÃ©rĠ lÃ¡iĠ
ĠfÃ¹Ġ gÃłiĠ
quÃ¨Ġ dÃ¬ng
gÃłoĠ sÃ¹
ĠniÃ¡nĠdÃłi ĠchÅ«Ġ
cÃ¬ ĠjÄ«Ġ
yÇĴuĠ guÄģnĠ
zhÃŃĠ bÅįĠ
hÇİiĠ yÃ¡ng
chuÃłngĠ shÇĲĠrÃ©nĠ
ĠchÃ©ngĠlÃ¬Ġ leĠ
qÃ¹ĠshÃ¬Ġ hÃ²uĠ
ÃłoĠdÃłĠlÃ¬Ġ yÃł
Ġ lÃ¡n
Ġ dÄĵng
shÃ©n ĠdeĠ
chÃ³ng ĠfÃ¹Ġ
tuÄ« ĠxÃŃngĠ
duÇĴ Ġ
ĠshÃ¬Ġ bÃ¨iĠ
ĠdÃło ĠzhÅįngĠ
ĠyÄ«n ĠqÃŃĠ
ĠdeĠdÃ¬Ġ yÃŃĠgÃ¨Ġ
chuÃłngĠ zuÃ²
ĠM Ġ
Ġ kuÄģn
Ġ fÄģĠbÃ¹Ġ
zhÇİn ĠxiÃłnĠ
ĠdÃ¬Ġ zhÅįngĠ
ĠyÇĲĠ 1Ġ
ĠyÄ«n ĠyuÃ¡nĠ
jÃ¬ngĠ nÃ¨iĠdeĠ
gÄĵĠ cÃŃĠ
lÇĲngĠ yÃ¹ĠdeĠ
ĠliÃ¡nĠ jiÄĵĠ
ĠliÃ¡nĠ mÃ©ngĠ
ĠlÃ¹ ĠyÃ¬Ġ
Ġ sÇĲĠ
liÃ¨ ĠsÄ«Ġ
dÅ« ĠhuÃ¬Ġ
1927 ĠniÃ¡nĠ
xÄ«Ġ yÃłĠ
fÃºĠ huÃłĠ
zuÃ¬Ġ zÇİoĠ
wÇĶĠ dÇİoĠ
jÃ¬ngĠ wÃłiĠ
Ġ jiÃł
ĠĠĠ 6ĠyuÃ¨Ġ
yÃ¹ ĠbÃ¨iĠ
duÅį ĠyuÃ¡nĠ
zhÄĽ ĠrÃ¨nĠwÃ©iĠ
sÃ²ng ĠdÃłoĠ
ĠdÃłĠ qiÃ¡o
ĠtÄģĠ hÃ¡i
zhÃ¹Ġ zhÃ¡iĠ
Ã©Ġ hÃłiĠÃ©
guÃ³ĠjiÄģĠ duÃ¬Ġ
zhÃ¨ĠjiÄģngĠ shÄĽngĠ
Ġ xuÃ¡nĠ
zhÄ« ĠdÃłoĠ
xiÇİng ĠdeĠ
ĠxÃŃng ĠyÃºĠ
ĠyÇĲĠ lÃ¡i
ĠshÄĵngĠ chÄĵngĠ
shÄĵnĠ wÃ¡ngĠ
mÃ¬Ġ qiÃ¨
fÇİnĠ duÃ¬
tÃłnĠ cÃ¨Ġ
Ġ RĠ
ĠĠĠ 12
shÃ¹ ĠrÃ©nĠ
duÄģn ĠdeĠ
ĠjÃŃĠ ÄĽrĠ
jÄ«ngĠ yÃ³uĠ
Ġ pÃ©ngĠ
Äģn ĠshÃ¬Ġ
jÇĲ ĠhÃ©Ġ
shÄ« ĠdÃ¬Ġ
kuÃł Ġ
ĠyÄ«Ġ tÃ³ng
cÃ¡iĠ zhÃ¨ng
mÇİnĠ zÃº
Ġ dÃ²uĠ
jÃ¬n ĠxÃŃngĠdeĠ
ĠÄĽr ĠyÇĶĠ
fÃ¡ngĠ jiÄģnĠ
pÃ¡iĠhÃ¡ngĠ bÇİng
Ġ yÇİ
Ġ zÄĵngĠ
hÃ²u ĠbÃ¹ĠjiÇĶĠ
chÅ« ĠzhÃłnĠ
zhÃłn ĠzÃłiĠ
fÃ¹ ĠbÃ¹ĠzhÇİngĠ
ĠlÃ¬Ġ shÇĶ
lÄģĠ tÃ¨Ġ
bÄģĠ lÃ¨
tuÃ¡nĠ zhÇİngĠ
qiÃ¡ngĠ dÃłĠdeĠ
Ġ yÄ«ĠwÃ¨iĠ
ĠĠĠ xiÄģngĠ
wÇİng ĠqiÃº
kuÃ² ĠjiÃłnĠ
chÃ©ngĠ jÃ¬Ġ
ĠjÃŃĠ sÄ«Ġ
ĠjiÄģĠ sÄ«Ġ
ĠbÃ¬ng ĠyÇĴuĠ
bÇİnĠ bÄĽnĠdeĠ
ĠshÇĴuĠ cÃ¬
d ĠĠĠ
Ġ kuÃłiĠ
Ġ miÇİoĠ
ĠĠĠ 2011ĠniÃ¡nĠ
ĠhÃ©Ġ dÅįngĠ
yÄ«Ġ lÃ¬Ġ
kÄĵĠ fÅ«Ġ
tÃ³uĠ xiÃ¡nĠ
Ġ ruÇİn
ĠĠĠ gÄĵnĠjÃ¹
ĠxuÃ©Ġ huÃ¬Ġ
sÃłiĠ guÃłnĠjÅ«nĠ
ĠĠĠ cÇĲ
qÄ« ĠshÃ¬Ġ
shuÅį ĠdeĠ
zhÄĵn ĠzhÃ¨ngĠ
ĠqÃŃ ĠtÄģĠdeĠ
chÃ¡ngĠ wÄĽiĠhuÃ¬Ġ
bÃłnĠ dÇİo
hÃ¡ngĠ bÄģnĠ
wÃ¡nĠchÃ©ngĠ leĠ
ĠÃ©Ġ luÃ³Ġ
5 ĠrÃ©nĠ
Ãłn ĠshÃ¬Ġ
ĠĠĠ rÃ¬ĠbÄĽnĠ
ĠĠĠ jiÃłnĠzhÃ¹Ġ
dÄ« ĠdeĠ
zÃ¡ ĠdeĠ
1934 ĠniÃ¡nĠ
ĠzhÅįngĠ duÃ¬Ġ
dÃłĠ liÃłngĠ
ĠrÃ¬Ġ yÇĶĠ
zhÃŃĠ wÃ¹
shÅįuĠ lÃ¹
ĠguÄģn ĠzhÃ¬Ġ
Ġ chuÃłng
Ġ yÃ¹nĠ
dÃ¬ng ĠlÇĲĠ
xiÃło ĠshÃ¨Ġ
xiÄĽ ĠleĠ
1932 ĠniÃ¡nĠ
ĠjÃŃĠ jiÄģngĠ
chÇİngĠ bÇĲĠsÃłiĠ
pÇĶĠ tÅįng
guÄ«Ġ zÃ©
ĠguÃ³ĠjÃ¬Ġ jÄ«ĠchÇİngĠ
ĠĠĠgÄĵnĠjÃ¹Ġ 2010ĠniÃ¡nĠmÄĽiĠguÃ³ĠrÃ©nĠkÇĴuĠpÇĶĠchÃ¡ĠdeĠshÃ¹ĠjÃ¹Ġ
Ġ 2003
bÄģ ĠshÃŃĠ
shÄĽng ĠzhÃ¨ngĠfÇĶĠ
bÇİo ĠwÃ¨iĠ
ĠzÃłiĠ xiÃłnĠ
zhÃłnĠ lÃ¼Ã¨Ġ
chÃ¨Ġ tuÃ¬Ġ
Ġ wÇİnĠ
Ġ zhÄģoĠ
rÃ¨n ĠyÃ¬Ġ
xiÃ¡ng ĠxÃ¬Ġ
chuÃŃ ĠzhÃŃĠ
ĠchÅ« ĠxiÃłnĠdeĠ
sÄģnĠ zhÇĴngĠ
xiÇİoĠ zÇĶ
kÄĵĠ xuÃ©
nuÃ²Ġ mÃłnĠ
Ġ hÄĵi
Ġ 50
ĠhÃ©Ġ jÄ«Ġ
ĠyÄ«Ġ zhÇĴng
ĠxÃŃng ĠhÃ©Ġ
hÃ¹Ġ dÃ²ngĠ
dÇİĠ suÃłnĠ
chÃ³ngĠ xÄ«n
xuÃ©ĠshÃ¬Ġ xuÃ©ĠwÃ¨iĠ
Ġ qÇĶ
ĠĠĠ 4Ġ
bÃ¹ ĠwÃ¨iĠyÃºĠ
fÄĵn ĠdeĠ
xiÃło ĠyÇĴuĠ
dÅįu ĠbÃ¹Ġ
zÃłng ĠyÃºĠ
ĠhÃ©ĠnÃ¡nĠ shÄĽngĠ
hÇİnĠmÃ² ĠdÃ©Ġ
Ġ tÄ«ngĠ
ĠĠĠ fÇİĠguÃ³Ġ
dÇİng ĠjÃŃĠ
is ĠĠĠ
ĠxiÃłn ĠyÇĶĠ
ĠyÄ«Ġ lÇİng
ĠxiÃłnĠ zÃłiĠdeĠ
xiÄģngĠ hÃ¹Ġ
ĠkÃ¨Ġ sÃłĠsÄ«Ġ
chÃ¡oĠ tÃŃngĠ
Äģ ĠlÇĲĠ
ĠĠĠ tÃ³ng
hÃ²u ĠtÄģĠ
rÃ©nĠ mÃŃn
yÃ¡nĠ chÃ¡ngĠ
yÅįuĠ xiÃ¹Ġ
tÃ¡nĠ pÃłn
Äģ ĠfÃ¹Ġ
zhÄĵn ĠyÇĶĠ
1924 ĠniÃ¡nĠ
ĠtÄģ ĠchÃ©ngĠwÃ©iĠ
ĠzhÅįu ĠhÃ©Ġ
jiÃ©Ġ dÃ¹ĠshÇĲĠ
ĠrÃ¨nĠ zhÃŃĠ
bÃłnĠ fÇİĠ
fÃ¡ngĠ kÅįngĠ
wÅ«Ġ rÇİn
Ġ guÃ¬Ġ
liÃº ĠxuÃ©Ġ
zhÄģng ĠdeĠ
gÇİi ĠmÃŃngĠ
ĠshÃ¬Ġ duÃ¬Ġ
ĠzÃłiĠ qÃŃ
ĠbÃ¹Ġ jÇĲn
ĠdÃłĠ chÃ©ngĠ
ĠrÃ¬Ġ hÃ²uĠ
bÇİoĠ zhÃłngĠ
ĠquÃ¡nĠ miÃłnĠ
pÃłnĠ chÇĶĠ
ĠshÃ¬ĠshÃ¬Ġ jiÃ¨
mÃłoĠ xiÇİnĠ
lÇĲĠshÃ¬Ġ huÃ¬Ġ
ĠrÃ©nĠkÇĴu ĠdeĠ
tÃºĠshÅ«Ġ guÇİn
Ġ X
Ã©r ĠtÃ³ng
zÇĴng ĠzhÃłnĠ
sÃ¹ ĠshÃ¨Ġ
chuÃ¡n ĠqÃŃĠ
qÃ¹ ĠdeĠ
liÇİn Ġ
ĠshÃ¬Ġ zhÃ¨ngĠfÇĶĠ
ĠsÄ«Ġ fÇİĠ
ĠbÃ¬ngĠ jiÄģng
nÃłĠ rÃ¹Ġ
kÃ¨Ġ yÃ¹nĠ
qÇĶĠdÃ©Ġ leĠ
Ġ12 Ġ
Ġ shuÄģng
bÄĽn ĠbÃ¹Ġ
qiÃ¡n ĠxiÃłnĠ
cÄģn ĠyÃ¬ĠyuÃ¡nĠ
ĠzhÄ« ĠbÃ¹Ġ
fÄģĠ bÃ¹ĠdeĠ
ĠdÄģng ĠniÃ¡nĠ
hÃºĠ pÅįĠ
mÃ¬ngĠ mÃŃngĠdeĠ
zhuÇİnĠ yÃŃĠ
ĠjiÄģng ĠxÄ«Ġ
rÃ©nĠdÃłĠ dÃłiĠbiÇİoĠ
Ġ 24
ĠĠĠ Co
ĠĠĠ gÄģoĠ
ĠĠĠ chÃ©nĠ
cÃŃ ĠhuÃ¬Ġ
xÇĲng Ġ
rÃ¨nĠ zhÃŃĠ
mÃŃnĠ zhÃ²ng
wÃłiĠ guÄģnĠ
biÄģnĠ jiÃ¨
Ġ 1992ĠniÃ¡nĠ
duÅį ĠbÃ¹Ġ
sÄģn ĠyuÃ¨Ġ
liÃ¹ ĠgÃ¨Ġ
bÇİi ĠwÃłnĠ
dÃłng ĠzuÃ²Ġ
fÇĴu ĠrÃ¨nĠ
ĠshÃ¬Ġ yÃłnĠ
wÇİngĠ wÇİngĠ
dÄĵngĠ lÃ¹
ĠrÃ¬ĠbÄĽn ĠdeĠ
luÃ³ĠmÇİ ĠdÃ¬ĠguÃ³Ġ
ĠxiÃłnĠdeĠyÃŃĠgÃ¨ ĠxÃŃngĠzhÃ¨ngĠzhÃ¨nĠqÅ«Ġ
Ġ shÄĵng
Ġ chÃ³ngĠxÄ«nĠ
le ĠdÃ¬Ġ
wÃ©i ĠrÃ©nĠ
yÇĲng ĠdÃłiĠ
ĠwÃ¨iĠ wÃ¨iĠ
fÄģngĠ chÃ©ngĠshÃ¬Ġ
ĠxiÄģngĠ sÃ¬Ġ
dÄģnĠ mÃłi
yÇİnĠ zÃ²u
rÃ©nĠkÇĴuĠpÇĶĠ chÃ¡Ġ
Ġ wÄģng
ĠjiÃłn ĠzÃłiĠ
ĠzhÄ«Ġ hÃ²uĠzÃłiĠ
fÇİĠ guÃ³ĠdeĠ
liÃłngĠ xiÃłngĠ
rÃºĠ guÇĴ
xÄ«ngĠ xÃ¬Ġ
mÃ¬Ġ dÃ¹Ġ
ĠqÄ«Ġ jiÄģn
shÄģnĠxÄ«Ġ shÄĽngĠ
6 ĠgÃ¨Ġ
Ġ 1994ĠniÃ¡nĠ
ĠĠĠ yÃ¡nĠgÃ©Ġ
miÇİn ĠyÃ¬Ġ
ĠbÃ¨iĠ jÇĲngĠ
ĠquÃ¡n ĠdeĠ
nÇļĠ hÃ¡iĠ
ĠtÃ³ngĠshÃŃĠ yÄĽĠshÃ¬Ġ
ĠdÃł ĠbÃ¹ĠfÃ¨n
cuÄ«Ġ huÇĲĠ
ĠĠĠ 2008ĠniÃ¡nĠ
ĠĠĠ yÇĲĠxiÃłĠ
tÇĲ ĠjÄ«Ġ
nÃł ĠhÃ©Ġ
ĠshÃ¬Ġ zhÇĲ
ĠyÇĲĠ 2Ġ
zhÃ¨Ġ yÃłngĠdeĠ
gÇİiĠ chÄĵngĠ
huÃŃĠ guÄ«
ĠdÅįngĠ bÄĽi
ĠP Ġ
ĠliÃºĠyÃ¹Ġ miÃłnĠjÄ«Ġ
Ġ qÃ¬
chuÃ¡n ĠdÃ¬Ġ
cÅ«n ĠdeĠ
kÄģ Ġ
ĠxiÃłn ĠzhÅįngĠ
ĠdÃłĠ fÅ«Ġ
ĠdÃłn ĠdeĠ
wÄĽiĠyuÃ¡nĠhuÃ¬Ġ zhÇĶĠxÃŃĠ
ĠgÄĵnĠjÃ¹Ġ 2020ĠniÃ¡nĠmÄĽiĠguÃ³ĠrÃ©nĠkÇĴuĠpÇĶĠchÃ¡ĠdeĠshÃ¹ĠjÃ¹Ġ
guÇİngĠfÃłn ĠdeĠ
Ġ bÃ¹ĠzÃłiĠ
yÇĴu ĠhÃ©Ġ
lÃŃ ĠshÃ¬Ġ
chÃ¡o ĠshÃŃĠ
jÃº ĠshÃ¬Ġ
jiÇİ ĠshÃ¨Ġ
zÇĴngĠ miÃłnĠjÄ«Ġ
Ġ yÃło
Ġ à¸
Ġ hÄĵngĠlÃ¬Ġ
xÄ«n ĠxÃŃngĠ
zÇĲ ĠdÃłnĠ
dÃłng ĠdeĠ
xuÃ©Ġ xÃ¬Ġ
gÇİiĠ zÃło
ĠÄģn ĠdÃ©Ġ
Ġ fÃ©ng
Ġ 400
Ġ chÄģoĠ
zhÄĵn ĠdeĠ
ĠchÃ©ngĠ lÃ¬ĠdeĠ
xÄ«Ġ yÃ¡ng
ĠbÃ¬ngĠ fÄĵi
tiÄģnĠ qÃ¬Ġ
ĠzÃ¬Ġ mÇĶĠ
ĠbÃ¬Ġ xÅ«Ġ
hÃ¡ngĠkÅįngĠ mÇĶ
fÄĵiĠlÇľĠ bÄ«nĠ
tÃ¨ ĠzÃłiĠ
kÄģi ĠshÃ¨
gÃ© ĠlÇĲĠ
jÇĲng ĠyuÃ¡nĠ
qiÇİn ĠzÃ©Ġ
bÃ¹Ġ tÃ³ngĠ
ĠshÃŃĠ kÃ¨Ġ
yÃ¬Ġ bÇİiĠ
ĠjÄ«Ġ xiÃ¨
diÃłnĠ zÇĲ
ĠmÇĲ ĠzhÃ¬Ġ
chÃ¡ ĠÄĽrĠsÄ«Ġ
zhÇİng ĠhÃ©Ġ
chÃ¡ng ĠbÃ¨iĠ
jiÄģo ĠdeĠ
qiÄģn ĠrÃ©nĠ
ĠshÃŃĠ yÃ³uĠ
jiÄģoĠ jiÃ¨Ġ
6 ĠniÃ¡nĠ
Ġ 300
Ġ zÃłoĠ
ĠĠĠ tÃ¡iĠwÄģnĠ
jÇĲ ĠniÃ¡nĠ
fÃº ĠshÃ¬Ġ
ĠxÄ«Ġ fÄģngĠ
ĠqÃŃĠ hÃ²uĠyÃºĠ
yÃŃĠ dÃ¹
Ġ 1996ĠniÃ¡nĠ
gÄĵn ĠbÄĽnĠ
pÇİo ĠdÃłoĠ
ĠzhÅįngĠ qÄ«Ġ
ĠshÃŃĠ lÃ¬Ġ
zhÃ¨ngĠ chÃ¡ngĠ
ĠzhÄ«Ġ shÃłngĠ
bÇİoĠ jiÄģ
yÃŃĠ cÃ¬ĠshÃ¬ĠjiÃ¨ĠdÃłĠzhÃłnĠ
dÃ©Ġ guÃ³ĠdeĠ
fÃºĠjiÃłnĠ shÄĽngĠ
Ġ luÃ³ĠsÄ«Ġ
Ġ tÃŃĠchÅ«Ġ
ĠĠĠ xiÄģngĠgÇİng
xÄ«ng ĠjiÃłn
ĠzÃłiĠ bÃ¨iĠ
ĠgÃ¨ ĠbÃ¹Ġ
ĠĠĠ liÃºĠ
hÃło ĠdeĠ
ĠyÇĴuĠ liÇİngĠ
lÇĲĠ lÃ¡nĠ
ĠzhÅįu ĠlÃ¬Ġ
ĠduÃ¬Ġ wÃłiĠ
fÄĵnĠ pÃ¨i
jÄ«nĠ rÃ³ng
shÃ²uĠ huÄģnĠ
qiÃ¡ngĠ diÃło
ĠlÃ¬ĠshÇĲĠ xuÃ©ĠjiÄģĠ
diÃłnĠyÇĲng ĠdeĠ
ĠyÃ¬ĠshÃ¹ ĠjiÄģĠ
Ġ s
Ġ xÃ¬ĠtÇĴngĠ
Ġ hÇİoĠ
sÄģn ĠbÃ¹Ġ
sÃ¬ ĠyuÃ¨Ġ
shÇĴuĠ shÃ¹Ġ
ĠduÃ¬Ġ wÇĶĠ
fÄĵnĠ liÃ¨Ġ
jÄ«nĠ shÄģnĠ
ĠxiÄģngĠ bÇĲĠ
qÃŃngĠ bÃło
yÄ«nĠ sÃ¹Ġ
shÅįuĠ cÃ¡ng
ĠguÄģngĠ xÃ¹Ġ
yÇİnĠ jiÇİngĠ
guÄ«Ġ lÃ¨i
bÇĶĠ chÅįngĠ
ÄģĠÄĽrĠ bÄĵiĠsÄ«Ġ
fÃ³Ġ jiÃło
24Ġ xiÇİoĠshÃŃĠ
Ġ Åįu
Ġ Re
Ġ zhuÃłngĠ
ĠhÃ©Ġ shÃłngĠ
ĠguÃ³Ġ shÃŃĠ
shÄĵngĠ yÄ«nĠ
yÃ¡nĠ lÃ¹nĠ
ĠjÃ¬n ĠÃ©rĠ
luÃ³Ġ lÄģĠ
wÄĵiĠ xiÃ©
sÃłĠ lÄģĠ
ĠmiÃłnĠjÄ«Ġ 0
gÇĶĠlÇİo ĠdeĠ
5 ĠmÇĲĠ
gÇĶ ĠjÃ¬Ġ
bÅį ĠchÅ«ĠdeĠ
ĠshÃŃĠ dÃłĠ
ĠrÃ©nĠ yÇĶĠ
wÃ¡ngĠ zÇĲĠ
shuÇĲĠ shÄĵnĠ
shÄģngĠ chÇİngĠ
yÇĲĠ sÃ¨Ġ
ĠjÄ«nĠ shÇĶĠ
gÃ¨Ġ zhÇĴng
zhÃ²ngĠdiÇİnĠ wÃ©nĠwÃ¹ĠbÇİoĠhÃ¹ĠdÄģnĠwÃ¨iĠ
jiÄģĠlÃ¬ĠfÃºĠ nÃŃĠyÃłĠzhÅįuĠ
dÄ«ĠqÃ¬Ġ yÄģĠ
ĠĠĠ 2005
duÃ¬ ĠtÄģĠ
ck Ġ
ĠshÃ¬Ġ xÄ«ĠbÄģnĠyÃ¡Ġ
ĠhÃ©Ġ jÃ¬Ġ
ĠbÃ¹Ġ shÃŃĠ
rÃ¨nĠ mÃ¬ngĠ
ĠkÄĽ ĠshÃ¬Ġ
Ġ liÃ¡ng
Ġ com
ĠĠĠ hÃ©ĠĠĠ
lÃ¡i ĠkÃ¨Ġ
fÃº ĠyÄ«nĠ
yÃł ĠsÄ«Ġ
ĠyÃ¬Ġ dÃłĠ
ĠyuÃ¡nĠ ziĠ
xÄ«nĠ jiÄģngĠ
qiÃ¡nĠ jÃ¬nĠ
ĠshÃ¨Ġ yÇĲngĠ
tÃºĠ shÄģĠ
kÅįngĠ xÃŃĠ
qiÃ¡oĠ liÃ¡ngĠ
tÇİnĠ dÄ«ngĠ
kÄģiĠfÄģ ĠdeĠ
Ġ 2023ĠniÃ¡nĠ
shÄģ ĠdeĠ
jÃº ĠbÃ¹Ġ
ta Ġ
tÄģo Ġ
ĠjÅ«nĠ tuÃ¡nĠ
nÇļĠ zhÇĶĠjuÃ©Ġ
ĠjÇĲngĠ fÄģngĠ
Ġ qÃ¹Ġ
luÃ² ĠkÃ¨Ġ
huÃŃ ĠjiÄģĠ
ĠgÅįngĠ gÃłoĠ
ĠzhÄ«Ġ hÃ²uĠdeĠ
mÃ³Ġ tÃ¨
ĠshÃ¬ĠyÄ«Ġ kÄĵ
shÅįuĠ rÃ¹
guÇİng ĠzhÅįuĠshÃ¬Ġ
shuÃ² Ġ
ĠrÃ©nĠ duÃ¬Ġ
ĠguÃ³Ġ jÅ«nĠ
fÃºĠ lÃ©i
jÃ¬ngĠ tÃ³uĠ
ĠtiÄģnĠ jÄ«nĠ
chÃ©ngĠlÃ¬Ġ hÃ²uĠ
1970 ĠniÃ¡nĠdÃłiĠ
ĠshÃ¬Ġ xÄ«ngĠdÄĽngĠwÃ¨iĠ
pÄ«n Ġ
lÇİ Ġ
yÄ«Ġ yuÃłnĠ
ĠyÇĲĠ bÄĽiĠ
ĠxiÃłnĠ mÃŃngĠ
xÃ¹Ġ liÃ¨Ġ
yÃ¡nĠjiÅ« ĠzhÅįngĠxÄ«nĠ
ĠniÃ¡nĠqÄ«ng ĠdeĠ
dÃŃĠshÃ¬Ġ nÃŃĠ
Ġ pÃ©ng
Ġ Ð°
dÃł ĠyÃºĠ
zhuÄģn ĠlÃ¬Ġ
zhuÇİn ĠchÃ©ngĠ
rÃło Ġ
sÃłiĠ chÄĵĠ
ĠxiÃłĠ leĠ
pÇĶĠ luÃ³Ġ
gÃ²uĠmÇİi Ġ
gÃ²ng ĠjÃ¬Ġ
lÃºn ĠsÄ«Ġ
shÃ©nĠ huÃłĠ
ĠĠĠ X
jiÄĵ ĠdeĠ
wÇĶ ĠdÃ©Ġ
nÇļ ĠrÃ©nĠ
luÃ² ĠzÃłiĠ
31 Ġ
ĠzhÃ¨ngĠ quÃ¡nĠ
yÃŃĠ dÃ¬ngĠdeĠ
xuÇİnĠ qÅ«
lÃ¡nĠ sÃ¨Ġ
yÄ«ngĠ xiÃ³ng
zhuÄģnĠ mÃ©n
fÇİĠlÃ¡nĠ xÄ«
O Ġ
x ĠĠĠ
duÅį ĠlÃ¬ĠyÃłĠ
jiÃ¹ ĠzÃłiĠ
tÃŃng ĠdeĠ
kuÃłi ĠdeĠ
ĠshÃ¬Ġ yÄ«ngĠguÃ³Ġ
zhÃ¬Ġ dÃ¹Ġ
ĠjÃŃĠ bÃ¬ng
yÇĶĠ mÃ¡o
fÄģngĠ xiÃłngĠdeĠ
pÃ©iĠ xÃ¹nĠ
wÃ¡nĠzhÄĽng ĠdeĠ
gÅįng ĠhÃ©Ġ
fÃ©i ĠtÃ¨Ġ
ĠmÃŃngĠ xiÇİnĠ
diÃłnĠyÇĲngĠ jiÃ©Ġ
Ġ 60
ĠĠĠ 8
zhÄ« ĠjiÄģĠ
gÇĶ ĠdeĠ
jiÃ¹ ĠbÃ¨iĠ
gÃło ĠshÃ¬Ġ
ĠxÃŃngĠ rÃ³ng
nÃ¨iĠ ruÃ¬Ġ
ĠshÃ¬ĠshÃŃĠ shÃłngĠ
Ġ wÃ²Ġ
1925 ĠniÃ¡nĠ
zhÃ¬Ġ zuÃ²
ĠjÃŃĠ xiÃłnĠ
ĠrÃ¬ ĠhÃ©Ġ
ĠjÅ«n ĠyÇĴuĠ
fÃ¹Ġ shÇĲĠ
bÄĽnĠ shÄĵnĠ
ĠzhÅįuĠ qÄ«Ġ
ĠyÃ³uĠ xÃ¬ĠdeĠ
tÃ³uĠ shÇĴuĠ
mÃ³Ġ fÇİĠ
zhÇĶnĠ bÃ¨i
Ġ xiÅįng
Ġ zÅįngĠ
Ġ liÃ¨ĠchÄĵĠ
dÃł ĠhÃ©Ġ
biÃłn ĠshÃ¬Ġ
ĠwÃ¨iĠ lÃ¬Ġ
ĠshÃŃĠ pÇĲnĠ
ĠbÃ¬ng ĠshÃ¬Ġ
zhÇĲĠ kÃ²ng
ĠtÃ³ng ĠzhÃ¬Ġ
qÄ«ngĠ chÇĶĠ
chÇİnĠ wÃ¹Ġ
zhuÃłnĠ xiÄĽĠ
rÃ¬ĠbÄĽn ĠdeĠ
Ġ ãģ
Ġ 2002
ĠĠĠ dÃłoĠ
shuÇĲ ĠdeĠ
wÇİng ĠyÇĴuĠ
qÅ«Ġ zhÃº
zhÄĵngĠ qÇĶĠ
ĠmÄĽi ĠzhÅįuĠ
mÄĽiĠguÃ³ĠrÃ©nĠkÇĴuĠpÇĶĠ chÃ¡Ġ
sÄģiĠÄĽrĠwÃ©iĠ yÃłĠ
Ġ 1949
zhÃłn ĠhÃ©Ġ
kÃ¨ ĠsÄ«Ġ
rÃ¹ ĠqiÃºĠ
biÃłn ĠdeĠ
shuÇĲ ĠhÃ©Ġ
dÇİn Ġ
jÃ¬Ġ zÇİiĠ
ĠwÃ¨iĠyÃºĠ yÃŃn
ÃłnĠ zhÃło
sÅ«Ġ dÄģnĠ
zhuÇİnĠ huÃłn
kÄĽĠnÃ©ngĠ xÃ¬ngĠ
shÃ¹nĠ xÃ¹Ġ
ĠlÃºĠ wÇİĠÄĽrĠshÄĽngĠ
sÃ¬ĠchuÄģnĠ shÄĽngĠ
ĠxÃŃngĠ rÃ³ngĠ
ĠbÃ¨iĠ rÃ¨nĠmÃ¬ngĠwÃ¨iĠ
ĠzhÇĶĠ tÃŃĠ
qiÃºĠ chÇİngĠ
ĠshÃ¬ĠjiÃ¨ ĠshÃłngĠ
fÄģng ĠzÃłiĠ
gÄģo ĠdÃ¬Ġ
chuÄģn ĠxiÃłnĠ
ĠyÃºĠ tÃ³ng
ĠyÃºĠ shÃŃĠdeĠrÃ©nĠkÇĴuĠshÃ¹ĠliÃłngĠwÃ¨iĠrÃ©nĠ
gÇĶĠ diÇİnĠ
zÄ«Ġ xÃ¹n
liÃłngĠ zÇĲĠ
chÃ¨Ġ xiÄģo
Ġ wÄĵnĠ
Ġ kÇİĠÄĽrĠ
huÃł ĠshÃ¬Ġ
tÃ¡n ĠhÃ©Ġ
ĠshÃłngĠ leĠ
ĠhuÃ²Ġ zhÄĽ
jiÇİnĠ dÄģnĠdeĠ
yÃŃngĠ yÃ¹n
dÃłiĠbiÇİoĠ tuÃ¡nĠ
tÇĲĠyÃ¹Ġ guÇİnĠ
ĠwÃ¨iĠyÃºĠgÄģiĠguÃ³Ġ xÄ«ĠbÃ¹Ġ
bÄģoĠhÃ¡n ĠleĠ
ĠyÃ¹ ĠjÃ¬Ġ
ĠĠĠ hÃ³ngĠ
bÄģ ĠbÃ¹Ġ
wÇİn ĠniÃ¡nĠ
chÃ¬ ĠjÄ«ngĠ
ĠshÃ¬Ġ jÃ¬ĠzhÅįngĠ
ĠyÃºĠ 2021
ĠlÃ¬Ġ tÃ¡oĠ
ĠxÃŃng ĠrÃ©nĠ
ĠfÄĵiĠ lÇľĠ
ĠyuÃ¡nĠzhÃ¹Ġ mÃŃnĠ
sÅ«ĠwÃ©iĠ Äģi
mÇİ ĠlÃ¬ĠyÃłĠ
bÇĶ ĠzhÃ¹Ġ
1909 ĠniÃ¡nĠ
bÃ¨iĠ jÇĲng
zhÄĵngĠ fÃºĠ
lÇĲngĠ tÇĶ
wÄĽiĠ tuÅįĠ
ruÇİnĠ tiÃ¡oĠ
Ġ lÃºnĠ
Ġ 1949ĠniÃ¡nĠ
hÃ²u ĠyÇĲĠ
hÃło ĠwÃ¨iĠ
pÇĶ ĠjÃŃĠ
ĠdÃłĠ sÃłiĠ
kÄģiĠ zhÇİn
jiÄģngĠ hÃ¹
ĠxuÃ©Ġ shÃ¹Ġ
zhuÇİnĠ huÃłnĠ
ĠtiÄģnĠ jÄ«n
Ġ pÄģn
ĠĠĠ wÃłn
ĠĠĠ yÃ³uĠxÃ¬Ġ
zuÃ²Ġ zhÄĽĠ
yÃ³uĠ yÇĴngĠ
ĠdÃ©Ġ wÃ©iĠ
tÅįngĠ xÃ¹n
nÃ¡n ĠrÃ©nĠ
jiÄģn ĠwÃ¨iĠ
kÄĽ ĠjiÃłnĠ
bÅį ĠdeĠ
dÃº ĠdeĠ
qÇĶĠ mÃ¹Ġ
mÃ©iĠyÇĴuĠ rÃ¨nĠhÃ©Ġ
yÃ¡nĠshÄĵn ĠzhÃ¬Ġ
Ġ 1995ĠniÃ¡nĠ
zhÅįng ĠdeĠyÄ«Ġ
qÇĶ ĠdeĠ
pÃŃn ĠdÃło
ĠtÄģ ĠrÃ©nĠ
jÄ«Ġ guÄģnĠ
bÄĽiĠ bÃ¹ĠdeĠ
jiÄĵĠ xiÃłĠ
zhÃ¨nĠ rÃ³ngĠ
bÃ¬ngĠ rÃ¹Ġ
zhÇĶĠyÃło ĠshÃ¬Ġ
ĠyÇĴuĠxiÃłn ĠgÅįngĠsÄ«
gÄĵĠlÃºnĠ bÇĲĠyÃłĠ
ĠshÃŃĠ Ã¨rĠniÃ¡nĠ
kÄģiĠ tÅįng
tÃłiĠ shÇĴuĠ
ĠzuÃ¬Ġ zÇİo
ĠchÃºĠ cÇĲĠzhÄ«ĠwÃłiĠ
qÃŃĠzhÅįngĠ yÄ«Ġ
jiÃ¨ĠquÃ¡nĠguÃ³Ġ zhÃ¨ngĠxiÃ©Ġ
bÃłoĠfÄģ ĠhÃ²uĠ
Ġ huÃ¡n
Ġ HR
Ġ kÄĵĠxuÃ©Ġ
shÃ¹ ĠjiÄģĠ
fÃ¨n ĠdeĠ
piÃłn ĠzhÅįngĠ
jiÇİ ĠjÃŃĠ
mÇİi Ġ
ĠzÃłiĠ xiÄģngĠgÇİngĠ
ĠshÃŃĠ yÄ«ĠniÃ¡nĠ
ĠjÃŃĠ wÃ©iĠ
ĠyÇĲĠ biÃłnĠ
wÇĶĠ hÃłnĠ
liÃºĠ liÃłngĠ
sÃ¬Ġ hÅ«
gÄĵĠ gÄĵĠ
fÃłnĠ zuÃ¬
diÃłnĠshÃ¬Ġ dÃ²ngĠhuÃłĠ
xiÃ©Ġ tiÃ¡oĠ
Ġ ë
ĠĠĠ kÇİĠ
yuÃ¡n ĠbÃ¹Ġ
ĠzhÅįngĠ xÄ«nĠdeĠ
ĠdÃłĠ xiÇİoĠ
gÃ©Ġ lÄģĠsÄ«Ġ
ĠE Ġ
ĠĠĠ shÃłngĠ
hÅ« ĠxÄ«Ġ
ĠdÃłĠ lÇĲĠ
jÃ¹Ġ lÃŃ
fÇİĠ lÃ¡nĠkÃ¨Ġ
tÅįngĠ wÇİngĠ
ĠdeĠdÃ¬Ġ sÄģnĠ
hÄĽnĠ dÃłĠdeĠ
Ġ fÃ¡n
Ġ 1993ĠniÃ¡nĠ
ĠĠĠ Ma
jÃ¬ ĠzhÃ¬Ġ
chÄĵ ĠxÃŃngĠ
jiÃ¨ ĠshÃŃĠ
hÄģ ĠlÇĲĠ
huÇĴ ĠlÃ¬Ġ
rÃ©ng ĠwÃ¨iĠ
kuÃł ĠyuÃ¨Ġ
kÃ© Ġ
ĠshÃ¬Ġ Ã©ĠluÃ³ĠsÄ«Ġ
liÃ¡nĠ luÃ²Ġ
dÃ²ngĠ wÃ¹
shuÇĲĠ liÃłngĠ
huÃ¡ngĠ jÄ«nĠ
huÇĴĠ chÄĵĠzhÃłnĠ
xuÄģnĠ yÃ¡nĠ
ĠchÃ¬Ġ wÄĽiĠ
Ġ 18Ġ
ĠĠĠ 5
ĠĠĠ Ã¨rĠ
ĠĠĠ jiÇİnĠlÃ¬Ġ
zhÃłn ĠyÇĴuĠ
chÄĵng ĠshÃ¬Ġ
gÇĶ ĠxÄ«ĠlÃł
yÃ¬Ġ mÃŃngĠ
wÃ¹Ġ pÇĲnĠ
duÅįĠ zhÇĴng
ĠyÃ³uĠ tÃłiĠ
hÇİiĠ nÃ¡nĠ
shÄĽngĠ zhÇİngĠ
tiÃ¡oĠ wÃ©nĠ
ĠxÃ¬Ġ bÄģoĠ
ĠxiÃłnĠshÃŃĠ yÃ³uĠ
ĠĠĠjÇĲnĠ guÇİnĠ
Ġ xiÇİnĠshÃ¬Ġ
hÇİi ĠdeĠ
gÃ¨ng ĠshÃ¬Ġ
tÅ« ĠjÄ«Ġ
ĠjÃŃĠ gÅįngĠ
ĠyÇĲ ĠbÃ¹Ġ
qÅ«Ġ nÃ¨iĠ
ĠjÄ«ngĠ chÃ¡ngĠ
chuÃłngĠ zÃło
Ġ SAO
Ġ gÃ²ngĠtÃ³ngĠ
qÄ« ĠzhÃ¬Ġ
jiÄĵ ĠshÃ¬Ġ
jÃ¹n ĠdeĠ
1923 ĠniÃ¡nĠ
ĠrÃ©nĠ zhÃ¬Ġ
ĠdÃłoĠ dÃ¡
ĠdÃ© ĠdÃło
zhÃŃĠ bÃłng
ĠzhÃ¨Ġ zuÃ²Ġ
nÃŃĠ sÅ«Ġ
mÄĽiĠ xiÇİoĠshÃŃĠ
zhÅįuĠ biÄģn
nÃ³ngĠ chÇİngĠ
ĠjiÃłnĠzhÃ¹Ġ wÃ¹Ġ
mÃ¡oĠ dÃ¹nĠ
ĠĠĠ 2022ĠniÃ¡nĠ
xÄ«n ĠjiÃłnĠ
zÃło ĠxÃŃngĠ
pÅ« Ġ
ĠdÃ© ĠjÅ«nĠ
shÅįuĠ fÃ¨iĠ
ĠzhÃ¨ ĠshÃŃĠ
ĠzÃ© ĠshÃ¬Ġ
wÃłngĠyuÇİnĠ jÃ¬ngĠ
7 ĠniÃ¡nĠ
xÃ¹ ĠdeĠ
ĠdÃłĠ bÇİnĠ
ĠchÅ«Ġ chÇİngĠ
shÄĵnĠ tÇĲ
lÃ³ngĠ shÄĽngĠ
xiÅ«Ġ dÃ¬ngĠ
N Ġ
ĠĠĠ jÄ«ngĠlÃ¬Ġ
dÄĽng ĠyÃºĠ
liÃ¹ ĠmÃŃngĠ
ĠdÃ¬Ġ yÄ«ĠwÃ¨iĠ
ĠjÃŃĠ huÃ¬Ġ
ĠjÃŃĠ qÃŃĠtÄģĠ
jÇĶĠ zhÃ¨nĠ
zhÅįngĠguÃ³Ġ dÃłĠlÃ¹Ġ
sÄĵng Ġ
ĠguÃ³Ġ yÇĴuĠ
ĠchÅ«Ġ xÃŃ
liÃ¡nĠ luÃ²
ĠshÄĵngĠ tÃłiĠ
nuÃ²Ġ fÅ«Ġ
chÅįngĠ mÇİnĠ
ĠguÄģnĠ zhuÃłngĠbÃ¬ngĠdÃº
Ġ 2001
Ġ cÃ¡oĠ
Ġ pÃºĠtÃ¡oĠyÃ¡
cÃ©ng ĠbÃ¨iĠ
fÃł Ġ
ĠdeĠ gÄģoĠ
ĠchÃ©ngĠ yÄ«Ġ
yÃ²ngĠ hÃ¹
xÃ¬Ġ jiÃ©Ġ
qiÃ¡nĠ tÇĲng
ĠduÃ¬Ġ xiÃłngĠ
shÃ²uĠ huÄģnĠyÃŃngĠ
mÄĽiĠ tiÄģnĠ
cÃ¡iĠ pÃłnĠ
jiÇİngĠ jÄ«nĠ
cÄģnĠyÃ¬Ġ yuÃłnĠ
ĠlÃ¬ĠfÇİ ĠhuÃ¬Ġ
ĠxiÄģngĠdÄģng ĠyÃºĠ
Ġ wÄĽi
ĠĠĠ pÃŃngĠ
ĠĠĠ lÃŃnĠ
yÃł ĠhÃ©Ġ
nÃł ĠÄĽrĠ
chÃ³ng ĠjiÃłn
ĠzÃłiĠ fÇİĠguÃ³Ġ
jiÄģoĠ gÄĽiĠ
zÄ«Ġ xÃºnĠ
Ġ kÄģiĠshÇĲ
Ġ mÃŃĠ
ng Ġ
guÃ² ĠyÄ«Ġ
32 Ġ
ĠshÃŃĠ rÃ¨n
ĠshÃŃĠ sÄģnĠ
yÃ¡nĠ fÄģĠ
zhÇĲĠ shÃ¹Ġ
ĠrÃ¨nĠ mÃ¬ngĠ
guÄ«Ġ dÃ¬ng
shÇĲĠyÃ²ngĠ zhÄĽĠ
tuÅįĠ lÃŃĠ
biÇİoĠxiÃłn ĠchÅ«Ġ
ĠjÃŃĠxÃŃngĠzhÃ¨ngĠ dÄģnĠwÃ¨iĠ
ĠÃłoĠdÃłĠlÃ¬Ġ yÃłĠ
Ġ 23
fÄģng ĠxÃŃngĠ
zhuÄģng ĠwÃ¨iĠ
ĠÃ©r ĠhÃ²uĠ
zhÇĶĠ dÃ²ngĠ
jiÃłoĠ gÄģoĠ
bÃ¬Ġ yÃłoĠ
pÃ¡iĠ liÃ¨Ġ
ĠyÃŃnĠ wÄĽiĠ
0 ĠzuÃ²ĠbiÄģoĠwÃ¨iĠ
xÃŃng ĠdeĠ
zi ĠshÃ¬Ġ
wÃ©iĠ yÄ«ĠdeĠ
ĠdÃłn ĠshÃ¬ĠzÃłiĠ
ĠqÃŃĠ B1900
ĠdÃłnĠ zuÃ¬ĠzhÅįngĠ
xÃ¹nĠ sÃ¹
rÃ©nĠmÃŃnĠ zhÃ¨ngĠfÇĶĠ
ĠhÃºĠ bÄĽiĠ
ĠwÃ¨iĠyÃºĠyÃŃn ĠjÄ«ngĠ
0ĠzuÃ²ĠbiÄģoĠwÃ¨iĠ chÃ¬ĠjÄ«ngĠ
W Ġ
Ġ sÅįngĠ
ĠĠĠ sÄģnĠ
ĠĠĠ 11ĠyuÃ¨Ġ
xiÃłng ĠyÃºĠ
liÃ¡n ĠjÅ«nĠ
lÄģ ĠwÃ©iĠ
zÃ© ĠbÃ¨iĠ
fÄĵi ĠdÃłnĠ
shÃ¨ng ĠdÃłnĠ
lÃºn ĠdeĠ
ĠzhÅįngĠ huÃ¡
jÄ«Ġ dÅ«Ġ
ĠxÃŃngĠ tÃłiĠ
tÇĶĠ rÇİng
ĠjiÃłnĠzhÃ¹Ġ miÃłnĠjÄ«Ġ
kÃ²ngĠ zhÃ¬ĠdeĠ
gÃ²ngĠhÃ©Ġ dÇİngĠ
Ġ Q
Ġ wÅ«ĠkÃ¨ĠlÃ¡n
ĠĠĠ fÄĵnĠbÃ¹Ġ
huÃł ĠyÇĶĠ
suÇĴ ĠyÇĲĠ
jiÄģo ĠzhÃłnĠ
bÃ³ ĠÄĽrĠ
bÇİ ĠtÄģĠ
ĠsÄ«Ġ zhÃŃĠ
guÄģnĠ xÃ¬ĠdeĠ
xiÄģoĠ fÃ¡ngĠ
gÃ¨ngĠ dÃłĠdeĠ
ĠT Ġ
ĠqÄ«ngĠchÃ¡oĠ zhÃ¨ngĠzhÃ¬ĠrÃ©nĠwÃ¹Ġ
Ġ huÄ«Ġ
jiÄģng ĠjÅ«n
sÇĲ ĠleĠ
ĠyÃºĠ 2019
yÃ³uĠ xÃ¬ĠdeĠ
xiÃłoĠ lÇľĠ
xuÄģnĠ chÄĵngĠ
ĠĠĠ xiÇİoĠ
shÄģ ĠrÃ©nĠ
zhÅįngĠ huÃ¡ĠmÃŃnĠguÃ³Ġ
ĠjÃŃĠ tÇĲĠ
bÃ¨iĠ ÄĽrĠ
ĠmÇĶĠ qÄ«n
ĠĠĠchÄĵĠzhÃłnĠ gÃ²uĠzÃłoĠ
luÃ²ĠfÃ¡ ĠkÃ¨Ġ
Ġ zÇĶĠzhÄ«Ġ
ĠĠĠ chÃºĠ
mÃŃng ĠhÃ©Ġ
biÄģn ĠzhÃ¬Ġ
zhÄĵn ĠrÃ©nĠ
lÃ¹n ĠshÃ¬Ġ
xiÄĽ ĠwÃ¨iĠ
dÄģ ĠzÃłiĠ
ĠshÃŃĠ bÄģĠ
ĠdÃłĠ jiÄĵĠ
jÄ«nĠ shÇĶ
ĠjÃ¹Ġ qÃŃngĠ
ÅįuĠ mÃ©ngĠ
jiÄĽĠfÃłng ĠjÅ«n
8 ĠniÃ¡nĠ
Ġ zhÄĽngĠgÃ¨Ġ
dÇİo ĠhÃ©Ġ
mÃłn ĠdeĠ
kÃłng ĠzhÃłnĠ
1919 ĠniÃ¡nĠ
1911 ĠniÃ¡nĠ
ĠjÃŃĠ chÃ©ngĠ
jÄ«Ġ chÄĵĠ
yÃŃĠ bÃłnĠ
tuÃ¡nĠ jiÃ©Ġ
huÇĴĠ chÄĵĠ
ÃłiĠÄĽrĠ lÃ¡n
1922 ĠniÃ¡nĠ
zhÇĶĠ quÃ¡nĠ
wÃ¹Ġ tÇĲĠ
ĠqiÃºĠ duÃ¬
ĠdÃł ĠbÃ¹ĠfÃ¨nĠ
Ġ lÃ³ng
ĠhÃ©Ġ yuÃ¡nĠ
zhÇĲĠ dÃ¬ng
jÇĲnĠ zhÄģngĠ
zhÄĵnĠ zhÃ¨ngĠdeĠ
shÃ¹nĠshÃŃĠ zhÄĵnĠyÇĶĠ
Ġ bÄ«nĠ
ĠĠĠ Ã©rĠ
ĠĠĠ guÃ³ĠjÃ¬Ġ
mÃŃng ĠyÃºĠ
zhÃŃ ĠxÃŃng
bÄģ ĠsÄ«Ġ
cÄģn ĠjiÃłnĠ
kÃłn ĠfÇİĠ
wÄĵn ĠdÃłiĠ
hÅ«n ĠyÄ«n
tiÄĵ ĠmÃ¹
ĠdeĠ xÃŃngĠ
ĠyÄ«Ġ shÃŃĠ
ĠyÇĲĠ dÅįngĠ
ĠxiÃłnĠ zhÇİngĠ
zÃ¬Ġ wÇĴĠ
fÄģngĠ Ãłn
fÄĵngĠ gÃ©ĠdeĠ
tÃŃĠ qiÃ¡nĠ
zÃºĠ qÃºnĠ
shÅįuĠ gÃ²u
ĠyÇĲnĠ fÄģĠ
ĠJ Ġ
Ġ biÄģoĠ
Ġ dÃºĠlÃ¬Ġ
Ġ tÃłiĠguÃ³Ġ
ĠĠĠ 2009ĠniÃ¡nĠ
nÃ¨i ĠsÄ«Ġ
zÃ© ĠyÃ³uĠ
ĠshÃ¬Ġ tÃ¡iĠwÄģnĠ
ĠbÃ¹Ġ chÃ©ngĠ
ĠdÃłĠ duÃ¬Ġ
zhÇĶĠ dÇİĠ
ĠxiÄģngĠ guÄģnĠdeĠ
pÇĶĠ lÄģĠ
liÃ¡nĠmÃ©ng ĠdeĠ
lÃ¡i ĠshÃ¬Ġ
zhÃ¨n ĠjÃŃĠxÃŃngĠzhÃ¨ngĠdÄģnĠwÃ¨iĠ
nÃ¡ng Ġ
ĠyÃ³uĠ zhÃ¨ngĠ
ĠzÃ¬Ġ rÃ¡n
i ĠĠĠ
ĠĠĠ gÇĶĠ
ĠĠĠ tÄģĠdeĠ
lÃŃn ĠjÃ¬nĠ
ĠzhÅįngĠ yÄ«Ġ
ĠzhÃ¬Ġ yuÃ¡nĠ
shÄĵngĠ gÃ©ĠwÃ¨iĠ
ĠjiÃłnĠ kÄģng
fÄģngĠ biÃłnĠ
ĠquÃ¡n ĠxiÃłnĠ
zuÃ¬Ġ zhÃ²ngĠyÃłoĠdeĠ
ĠzhÃ¨Ġ yÃłng
tÃºĠ ÃłnĠ
chÃ³ngĠ fÇİnĠ
ĠwÄĵi ĠÄĽrĠ
Ġ nÃŃ
duÅį ĠÄĽrĠ
qÃ¹ ĠleĠ
wÇĴ ĠdeĠ
ĠshÃ¬Ġ lÃ¡ngĠ
ĠzÃłiĠ qiÃ¡nĠ
ĠzhÅįngĠ jiÃłngĠ
ĠjÃŃĠ biÃ©Ġ
ĠÃ©rĠ tÃ³ng
suÇĴĠ xÅ«
ĠshÃłngĠ yÃ¬ngĠ
tÃ³ngĠ yÃłngĠ
cÄģnĠ guÄģnĠ
ĠxÃ¬Ġ liÃ¨
ĠrÃ©nĠkÇĴu ĠwÃ¨iĠ
shÃ¨ng ĠdeĠ
jÇĲng ĠwÃ¨iĠ
xiÄģn ĠwÃ©iĠ
ed ĠĠĠ
ĠyÄ«Ġ liÃ¡o
guÄģnĠ kÃłnĠ
ĠyÄ«n ĠÃ©r
juÃ©Ġ sÃ¨ĠdeĠ
dÃ¬ngĠ yÃ¬ĠwÃ¨iĠ
ĠH Ġ
9 ĠniÃ¡nĠ
yÃ¬Ġ huÃ¬Ġ
ĠyÇĶĠ xÄ«Ġ
ĠzhÅįuĠ zhÇİngĠ
jiÇİnĠ chÃ¡
shÄĽnĠ pÃłnĠ
hÃ¹nĠ nÃŃngĠ
Ġ shÃ¹
Ãłn ĠlÃ¬Ġ
shÄĵn ĠyÃºĠ
xÃ¹n ĠxÄ«Ġ
dÇĴng Ġ
ĠgÃ¨ ĠguÃ³ĠjiÄģĠ
jiÄģnĠ chÃŃĠ
dÄģnĠ dÃºĠ
wÇİngĠ wÇİng
xÇĶĠ kÄĽĠ
Ġ ì
ĠĠĠ wÃ¡ngĠ
ĠĠĠ zuÃ²ĠwÃ©iĠ
shÄ« ĠjÃŃĠ
lÃ¹n ĠdeĠ
ĠzhÅįngĠ duÃłnĠ
ĠyÃºĠ 2016
ĠdÃłĠ chÃ©n
cÅ«nĠ mÃŃnĠ
qÃºnĠ dÇİoĠdeĠ
ĠzhÃŃĠ jiÄĵĠ
ĠzhÃ¨ngĠfÇĶ ĠdeĠ
k ĠĠĠ
Ġ 22
Ġ guÇİngĠxÄ«Ġ
ĠĠĠ luÃ³Ġ
xÃ¬ng ĠmÃŃngĠ
shÃ²u ĠdÃłoĠleĠ
ĠyÇĶĠ wÃ©nĠ
jiÃłoĠ liÃłn
zhÃ¹Ġ shÇĴuĠ
zhÇĴngĠ lÃ¨iĠ
ĠyÃ³u ĠqÃŃĠ
Ã¨Ġ huÃłĠ
ĠĠĠ 6
bÄģ ĠjÄ«ĠsÄ«Ġ
xiÄģn ĠdeĠ
1926 ĠniÃ¡nĠ
EST Ġ
ĠshÃ¬Ġ chÃ©ngĠ
ĠshÃ¬Ġ chÅ«Ġ
ĠyÇĴuĠ mÃŃngĠ
ĠdÃło ĠshÃŃĠ
ĠyÇĲĠ cÇĲĠ
jiÄģnĠ chÃ¡
ĠzhÅįuĠ fÃ¹ĠzÃ©ĠguÇİnĠxiÃ¡Ġ
wÃłiĠ lÃ¡ngĠ
miÃłnĠ xiÃłngĠ
jiÇİngĠ pÃ¡iĠ
ĠzhÃłn ĠhÃ²uĠ
ĠÃłi ĠÄĽrĠ
tiÃ¡oĠyuÄĵĠ tÇĲĠxÃ¬Ġ
Ġ 40
Ġ dÄ«Ġ
Ġ zÇĶĠchÃ©ngĠ
wÄĵng Ġ
ĠzhÅįngĠ shÄģn
ĠrÃ©nĠ quÃ¡nĠ
tiÄģnĠ wÃ©nĠxuÃ©Ġ
cÇİiĠyÃ²ngĠ leĠ
Ġ17 Ġ
ĠpÃŃng ĠchÃ©ngĠ
Ġ ãĥ³
Ġ 1988ĠniÃ¡nĠ
ĠĠĠ re
ĠĠĠ quÃ¡nĠ
jÃ¬ ĠbÃ¹Ġ
duÃ¬ ĠdÃ¬Ġ
wÃ¹ ĠbÃ¹Ġ
jÄ«Ġ huÃ¬Ġ
hÃ²uĠ qÄ«Ġ
zhÇĶĠ bÃłnĠ
fÃ¹Ġ mÇĶĠ
jÄ«ngĠ yÃłn
sÃ¹Ġ dÃ¹
jiÃłĠ gÃ²uĠ
gÄĵnĠ suÃŃĠ
Ġ 1985ĠniÃ¡nĠ
Äģn ĠxiÃłnĠ
tÅ« ĠrÃ¡n
suÄģn ĠjiÇİnĠ
1918 ĠniÃ¡nĠ
ĠjÄ«Ġ fÄĵnĠ
xuÇİnĠ mÃŃnĠ
kÄĵĠ huÃ¬ĠshÃ¬ĠdÃ¬Ġ
gÄĵĠ shÇĴu
Ã¨rĠ shÃŃĠniÃ¡nĠ
chÄĵngĠ hÅ«Ġ
ĠdeĠshÃŃĠ jiÄģn
ĠlÃ¡iĠ zÃ¬
ĠF Ġ
ĠguÃ³ĠfÃ¡ng ĠbÃ¹Ġ
7 ĠrÃ©nĠ
Ġ rÃ³ng
Ġ jÅ«Ġ
Ġ guÇİnĠlÇĲĠ
ĠĠĠ huÃ²Ġ
ĠĠĠ 2007ĠniÃ¡nĠ
ĠshÃ¬Ġ pÃŃnĠ
ĠchÅ« ĠyÃºĠ
qiÃ¡nĠ shÄĵnĠ
duÅįĠ shÃ¹
ĠzhÃŃ ĠxÃŃngĠ
nÃ¡nĠjÃŃĠ tiÃ¡oĠyuÄĵĠtÇĲĠxÃ¬Ġ
Ġ mÃ¡o
Ġ 600
suÇĴ ĠshÃ¬Ġ
tÃ¡ng ĠhÃ©Ġ
tÄ«ng ĠdÃłoĠ
cÃ¡n ĠjÃŃĠrÃ©nĠ
ĠbÃ¹Ġ lÇĶĠ
ĠgÅįngĠ dÇİĠ
zÃ¬Ġ shÄģĠ
xiÇİngĠ yÃłoĠ
pÇĲnĠ zhÇĴngĠ
shÅįuĠ cÃ¡ngĠ
jÇĲĠ nÃ¨iĠ
pÃ©iĠ xÃ¹n
ĠgÄģiĠcÅ«nĠ shÇĲĠjiÃłnĠyÃºĠ
6 ĠrÃ©nĠ
Ġ fÃłn
Ġ yÃ¡nĠjiÅ«
Ġ zhuÄ«Ġ
ĠĠĠ Pro
yÃº ĠwÃ¨iĠ
yÃŃn ĠhÃ©Ġ
ĠzÃłiĠ nÃ¨iĠ
wÃ©iĠ yÄĽĠ
cÃ¬Ġ shÃ¹Ġ
sÃ¨Ġ cÇİiĠ
ĠtiÄģnĠ wÃ©nĠ
rÃ¨Ġ dÃłi
ĠxÃŃngĠchÃ©ngĠ leĠ
ĠjÃ¬ngĠ nÃ¨iĠ
qÃŃĠzhÅįngĠ yÃŃĠgÃ¨Ġ
xiÃłĠxiÃ¡ĠdeĠyÃŃĠgÃ¨ĠxiÄģngĠ zhÃ¨nĠjÃŃĠxÃŃngĠzhÃ¨ngĠdÄģnĠwÃ¨iĠ
ĠĠĠ suÄ«ĠrÃ¡n
zhÃłn ĠwÃ¨iĠyÃºĠ
zhÃ¹ ĠyÇĴuĠ
mÇİ ĠshÃ¬Ġ
zhÃ¨n ĠdÃ¬Ġ
10 ĠniÃ¡nĠ
ĠshÃŃĠ yÇĴuĠ
wÃ©iĠ chÃŃ
ĠĠĠ 0
ĠĠĠ jÃ¬n
xiÇİng ĠyÇĴuĠ
tÇİ ĠjÄ«Ġ
1914 ĠniÃ¡nĠ
gÅįngĠ mÃŃnĠ
ĠchÃ©ngĠ gÅįngĠdeĠ
ĠrÃ¬ ĠyÇĲĠ
ĠsÄ«Ġ dÃ¹nĠ
ĠjÄ«Ġ bÄĽn
ĠjiÄģĠ lÇĲĠ
ĠkÃ¨ ĠyÇĶĠ
ĠdÃ©Ġ luÃ³Ġ
diÃłnĠ chÃŃĠ
fÃºĠ zhuÄģngĠ
sÃ¹Ġ sÃ²ngĠ
qÃŃngĠ gÇİnĠ
piÃłnĠ duÃłnĠ
pÄ«Ġ pÃłnĠ
ĠsÄ«ĠlÃ¬ng ĠyuÃ¡nĠ
Ġ cÃ¡o
Ġ 1945
zhÃ¨ng ĠyÃ¬Ġ
nÃ³ng ĠlÃ¬Ġ
us Ġ
mÃ¡i Ġ
ĠzÃłiĠ nÃłĠ
ĠyÃ¬Ġ xÃŃĠ
ĠjiÃłn ĠdÃłoĠ
ĠhÃ²uĠ zhÄĽ
ĠkÃ¨ ĠzÃłiĠ
huÃłĠ guÄ«Ġ
jiÃłoĠ dÃłĠdeĠ
wÃ©nĠ zhÄģng
ĠwÃ©iĠ wÃºĠÄĽrĠ
jiÄģngĠ nÃ¡nĠ
ĠzuÃ²Ġ zhÄĽĠ
zhÃ¨nĠ yÄģĠ
bÅįĠ tÃ¨Ġ
ĠjiÃ©Ġ hÅ«nĠ
ĠÄģnĠ huÄ«Ġ
Ġ tÃ¡i
liÇİng ĠzuÃ²Ġ
ĠshÃŃĠ tÇĲĠ
ĠyuÃ¨Ġ yÇĶĠ
qÇĲĠ yuÃ¡nĠyÃºĠ
biÄģnĠ zÇĶĠ
ĠtÇĲĠ yÃ¹Ġ
tÃ¨ ĠshÃ¬Ġ
yÃ²u ĠyÃ¬Ġ
fÃ¡ng ĠxiÃłnĠ
1990 ĠniÃ¡nĠdÃłiĠ
kuÄģng ĠjiÃłĠ
ĠxÄ«Ġ tÃ¨Ġ
ĠbÃ¬ngĠ bÃºĠshÃ¬Ġ
qÄ«ngĠ xiÃłngĠ
ĠxiÃłĠ lÃ¡iĠ
rÃ³ngĠ liÃłngĠ
mÃ²Ġ qÄ«Ġ
kÇİoĠ chÃ¡Ġ
ĠniÃ¡nĠ4ĠyuÃ¨Ġ 1ĠrÃ¬Ġ
yÃ¬nĠ nÃŃ
xiÇİoĠxÃŃngĠ xÄ«ngĠdeĠ
ĠmÇĲ ĠdeĠ
nÃ¡nĠjÃŃĠtiÃ¡oĠyuÄĵĠtÇĲĠxÃ¬Ġ guÇİnĠlÇĲĠ
Ġ jiÄĵĠwÃ¨iĠ
ĠĠĠ zhÃŃĠyÃ¨ĠshÄĵngĠyÃ¡Ġ
wÃ©i ĠgÅįngĠ
yÃ²ng ĠzÃłiĠ
mÃ©i ĠtÃ³ngĠpÃ¡iĠ
luÃ² ĠyÄ«Ġ
cÃŃ ĠjÄ«Ġ
st Ġ
ĠzÃłiĠ chÃ©ngĠ
ĠdÃłĠ qÃ¬Ġ
huÃ¬Ġ shÃłngĠ
fÇİĠ lÃ¡nĠxÄ«Ġ
fÄĵnĠ lÃŃ
ĠliÃ¡nĠ bÄģng
shÃłoĠ nÇļ
ĠjiÄĵĠ shÃ²uĠ
Ġ tÃ¡nĠ
shÄĽng ĠfÃ¹ĠzÃ©ĠguÇİnĠxiÃ¡Ġ
lÄĽi ĠjÄ«Ġ
gÄĽn ĠdÃ¬Ġ
ĠwÃ¨iĠ jÃŃĠ
wÃ©iĠ chÃŃĠ
qiÃ¡nĠ lÃ¡iĠ
shÄģngĠ hÃłiĠ
yÃŃĠgÃ¨ ĠyuÃ¨Ġ
dÄģngĠ xuÇİnĠwÃ¨iĠ
ĠjÃŃĠbÄĽiĠ mÄĽiĠ
Ġ 1984ĠniÃ¡nĠ
yÇĶ ĠĠĠ
rÃ¬ ĠjÅ«nĠ
miÃ¨ ĠjuÃ©Ġ
shÇİn Ġ
bÃŃ Ġ
ĠdeĠ zhÄ«ĠchÃŃĠ
ĠshÃ¬Ġ zhÃ¬Ġ
ĠchÃ©ngĠ fÃ¨nĠ
ĠzhÄ« ĠlÇĲĠ
ĠyuÃ¡nĠ yÄ«nĠshÃ¬Ġ
xÄ«Ġ wÃłng
ĠdÃłn ĠyÄĽĠ
ĠfÃ¹Ġ zhÇĶĠxÃŃĠ
ĠdiÃłnĠ ziĠ
wÃ©iĠyÄ«Ġ yÄ«Ġ
ĠĠĠ De
ĠĠĠ wÃłiĠbÃ¹Ġ
Ãłi ĠhÃłoĠ
le ĠzhÅįngĠguÃ³Ġ
zuÃ¬ ĠyÇĴuĠ
kÄĵ ĠlÃ¬Ġ
jiÇİn ĠyÃ¬Ġ
sÃł ĠkÃ¨ĠsÄ«Ġ
CD Ġ
pÃ©n ĠdÃ¬Ġ
pÄ«ng Ġ
ĠgÃ¨Ġ lÃ¨iĠ
ĠzhÃ¨ngĠ cÃ¨
zhÃ²ngĠ liÃłngĠ
yÇİnĠ huÃłĠ
tÃ³ngĠ mÃ©ng
ĠshÃ¬ĠjiÃ¨Ġ bÄĵi
ĠdÃ²ngĠ huÃłĠ
tiÄģnĠwÃ©nĠ tÃ¡iĠ
Ġ chÄģoĠguÃ²Ġ
ĠĠĠ jiÃ©Ġ
fÄĵi ĠÄĽrĠdÃ©Ġ
biÄģn ĠxÃŃngĠ
ĠxÄ«Ġ zÃłngĠ
xiÃłĠ lÃ¬ngĠ
fÇİĠ xuÃ©Ġ
shÄģĠ bÃ¡iĠ
jiÇĶĠ lÃ³ng
ĠniÃ¡nĠdÃłi ĠdeĠ
2 ĠlÃ¬Ġ
Ġ 800
Ġ lÄĽiĠjÃ¬Ġ
xÄ« ĠyÃºĠ
yÇĶ ĠdÃ¬Ġ
jiÃłn ĠshÃ¨
hÃ¹ ĠwÃ¨iĠ
1913 ĠniÃ¡nĠ
ĠdeĠ qÃŃngĠkuÃłngĠxiÃłĠ
ĠchÃ©ngĠ jiÃ¹Ġ
ĠyÄ«Ġ lÃłi
ĠyÄ«Ġ shÄ«Ġ
jiÃłoĠ zÅįngĠ
jiÄĽĠ sÃłn
ĠrÃ©nĠmÃŃnĠ zhÃ¨ngĠfÇĶ
chÇĲĠ cÃ¹n
ĠĠĠzhÅįngĠ huÃ¡ĠrÃ©nĠmÃŃnĠgÃ²ngĠhÃ©ĠguÃ³Ġ
ĠhuÃ¡Ġ shÃ¨ngĠ
cÄģnĠsÃłiĠ zÄ«ĠgÃ©Ġ
shÄģnĠmÃłi ĠdeĠyÄ«ĠbÃ¹ĠfÃ¨nĠ
ĠĠĠ 7
sÃ¬ ĠwÃ¨iĠ
shuÇĲ ĠdÃłoĠ
suÃŃ ĠjÄ«Ġ
luÇİn Ġ
rÃ©nĠ kÇĴuĠwÃ¨iĠ
jÃ¬Ġ huÃł
ĠyuÃ¡nĠ lÇĲĠ
ĠxiÃłnĠ xÃ¬ngĠ
qÅ«Ġ biÃ©Ġ
tÅįngĠ yÃ²ngĠ
shÃ²uĠ sÇĶnĠ
ĠzhÇĶĠ zhÄģngĠ
tÃŃngĠ zhÇĲ
zhÃ¨ngĠzhÃ¬Ġ jiÄģĠ
rÃ¨ĠdÃłiĠ qÃ¬ĠxuÃ¡nĠ
ĠgÃ¨ĠyuÃ¨Ġ hÃ²uĠ
Ġ yÇĲn
Ġ 1991ĠniÃ¡nĠ
huÃ¬ ĠwÃ¨iĠ
xÃ¬n ĠrÃ¨nĠ
ĠzÃłiĠ shÃłngĠ
ĠguÃ³Ġ ÄģnĠ
ĠzhÅįuĠ kÄģnĠ
tÃ³uĠ xiÃ¡ng
ĠdeĠgÅįngĠ nÃ©ngĠ
fÄģĠbÃ¹Ġ leĠ
Ġ bÄģngĠzhÃ¹Ġ
hÇİi ĠshÃ¬Ġ
juÃ© ĠwÃ¨iĠ
1960 ĠniÃ¡nĠdÃłiĠ
ĠyÄ«Ġ rÃ¡n
hÇİiĠ bÃ¡ĠgÄģoĠdÃ¹Ġ
jiÇİnĠ cÃ¨Ġ
tÃ¡ngĠ qÅ«Ġ
tiÃ¡oĠ jiÃ©Ġ
ĠtÃ³ngĠ xÃ¬ngĠ
huÃŃĠ dÃ¡Ġ
ĠdeĠjÃ¬Ġ shÃ¹Ġ
wÄĽnĠ dÃ¬ngĠdeĠ
Ġ sÄģng
Ġ yÇİngĠ
jiÃ© ĠchÅ«Ġ
bÄ«ng ĠdeĠ
1950 ĠniÃ¡nĠ
ĠhÃ©Ġ yÃ¬Ġ
ĠdÃ¬Ġ chÇİnĠ
ĠyÃºĠ 2024
ĠtÄģ ĠyÇĴuĠ
guÄģnĠ liÃ¡nĠ
qiÃ¡nĠ fÄĵngĠ
suÇĴĠ wÃ¨iĠdeĠ
bÇİoĠ xiÇİnĠ
ĠhuÃ²Ġ chÄĵngĠ
yÄ«nĠ cÇĲĠ
dÅ«Ġ chÃ¡Ġ
lÃ©iĠ dÃ¡Ġ
ĠjiÇİnĠ chÄĵng
J Ġ
Ġ wÇİ
Ġ kÄģng
Ġ 1989ĠniÃ¡nĠ
ĠĠĠ 2006ĠniÃ¡nĠ
cÃ©ng ĠrÃ¨nĠ
mÃ² ĠniÃ¡nĠ
ĠduÃ¬Ġ fÄģngĠ
ĠquÃ¡n ĠshÃ¬Ġ
cÃŃĠ diÇİnĠ
fÄģĠbiÇİo ĠdeĠ
yÃłĠmÄĽiĠ nÃŃĠyÃłĠ
Ġ shÄĽngĠ
nÃ¡n ĠshÃ¬Ġ
xiÃłng ĠwÃ¨iĠ
gÇİi ĠjÃ¬nĠ
zÄĵng ĠshÃ¨Ġ
tuÄ« ĠlÇĲĠ
ĠlÃ¬Ġ ÃłoĠ
ĠzhÃ¨ngĠ chÃ¡ngĠ
pÇĶĠ lÇĶĠshÃ¬Ġ
diÃłnĠshÃ¬Ġ jiÃ©ĠmÃ¹Ġ
ĠdÄĽngĠ dÄĽngĠ
tuÄ«ĠchÅ«Ġ leĠ
hÃ¹ĠliÃ¡nĠ wÇİngĠ
xiÅ«ĠdÃłoĠ yuÃłnĠ
Ġ qÇĶĠdÃ©Ġ
Ġ qiÃ¡oĠzhÃ¬Ġ
Ġ 1990ĠniÃ¡nĠ
ĠĠĠ zhÄģngĠ
yÇĶ ĠyÃ¬Ġ
bÄĽi ĠjÃŃĠ
ĠyÃºĠ 2018
ĠyÇĶĠ qÃŃ
dÇİoĠ shÄ«Ġ
ĠdeĠshÃ¬Ġ jiÃ¨
ĠcÇĲĠ cÃ¬Ġ
ĠĠĠ mÃŃnĠguÃ³Ġ
ĠĠĠ yÄ«nĠyuÃ¨Ġ
qÇĶ ĠzÃ¬Ġ
hÅ«n ĠlÇĲĠ
ĠchÃ©ngĠ zuÃ²Ġ
sÅ«Ġ gÃ©ĠlÃ¡n
Ġ lÇİo
Ġ chÃŃĠ
duÃ¬ ĠzhÅįngĠ
lÃ¹ ĠshÃ¬Ġ
ĠhÃ©Ġ zhÃ¬Ġ
ĠtÄģ ĠbÃ¹Ġ
ĠxÃŃngĠ chÃ¡i
ĠxÃŃngĠ shÃ¬ĠdeĠ
zhÃ¨ngĠ cÃ¨
dÃłiĠ mÇİĠ
ĠleĠ yÃŃĠgÃ¨Ġ
ĠxiÄģngĠ guÄģn
ĠxÃŃngĠzhÃ¨ngĠ yuÃłnĠ
ĠyÃ²u ĠyÃ¬Ġ
ĠÐ° Ġ
1 ĠmÃŃngĠ
Ġ shÅ«
Ġ zhuÄģn
Ġ zÇİoĠ
ĠĠĠ wÇĶĠ
ĠĠĠ chÄĵĠzhÃłn
mÄĽi ĠdeĠ
liÃº ĠqiÃºĠ
cÃ©ng ĠyÇĴuĠ
chuÃ¡n ĠdeĠ
luÃ² ĠyÃºĠ
tÃŃng ĠzhÃłnĠ
nÃ¡ ĠdÃł
man Ġ
jÄ«Ġ bÃłiĠ
ĠyÇĶĠ zhÄ«Ġ
ĠdÃłiĠ mÇİĠwÃ¨iĠ
liÃ¡ngĠ hÇİoĠ
lÃ¬ĠshÇĲĠ shÃłngĠ
ĠxiÃłnĠshÃŃĠyÃ³uĠ nÃ¡nĠjÃŃĠtiÃ¡oĠyuÄĵĠtÇĲĠxÃ¬ĠguÇİnĠlÇĲĠ
ĠĠĠ shÄģĠ
bÃ¡i ĠrÃ©nĠ
dÇĲng ĠjÃŃĠ
zÅ« ĠjiÃ¨
ĠdÃ¬Ġ yÃ¹Ġ
ĠzhÃ¬Ġ dÃ¹
ĠchÅ«Ġ lÃ¡iĠdeĠ
tÃ¨Ġ shÅ«
ĠduÅįĠ cÃ¬Ġ
chÃ³ngĠ qÃ¬ngĠ
Ġ UĠ
jiÃ© ĠshÃŃĠ
st ĠĠĠ
ĠdeĠ yÇĴuĠ
ĠyÃºĠ 2015
ĠgÅįngĠ chÇİng
ĠchÃ©ngĠ dÅ«Ġ
lÃ¹Ġ yÇĲngĠdÃłiĠ
ĠbÄĽnĠ zhÃłnĠ
ĠbÄĽnĠ tÇĶĠ
piÃłn ĠrÃ©nĠ
33 Ġ
ĠyÃºĠ lÃ©iĠ
miÃłnĠ 2
liÃºĠ dÃ²ngĠ
liÇİngĠ ÃłnĠ
shÃ©nĠ shÃ¨ngĠ
ĠzÃłiĠdÃ¬Ġ yÄ«Ġ
Ġ19 Ġ
guÄģnĠfÃ¨iĠyÃ¡nĠ quÃ¨ĠzhÄĽnĠbÃ¬ngĠlÃ¬Ġ
bÄĽi ĠdeĠ
jiÄģo ĠyÃ³uĠ
mÃłn ĠdÃ¬ĠguÃ³Ġ
zhÄĽng ĠlÇĲĠ
ĠdeĠ xÃŃngĠshÃ¬Ġ
ĠyÃºĠ 2020
ĠrÃ©nĠ lÃ¬Ġ
dÃłĠ xÃŃngĠ
ĠyÇĴuĠ guÄģnĠdeĠ
ĠgÅįngĠ ÄģnĠ
yÇĲĠ jÄ«ng
fÃ¡ngĠ wÅ«
ĠzhÃŃ ĠlÃ¬Ġ
pÃ©iĠ yÇİng
ĠĠĠzhÃ¨Ġ kÄĵĠ
rÃ¬ ĠzhÃ¬Ġ
tÃ³ng ĠwÃ¨iĠ
huÃŃ ĠdÃło
ĠdÃ¬Ġ shÃłngĠ
ĠdÃ¬Ġ jiÇĶĠ
ĠyÄ«Ġ rÃ¡nĠ
nÃ¨iĠ gÃ©
tÃŃĠ gÄģo
ĠyÃ³u ĠqÃŃ
ĠdeĠjÄ«Ġ chÇĶ
mÃŃn ĠyÃ¬Ġ
yÃ²u ĠzÃłiĠ
zhuÄ« ĠqiÃºĠ
ĠshÃ¬Ġ chÇİng
rÃ©nĠ yuÃ¡nĠ
ĠyÃºĠ 2013
ĠguÃ³Ġ dÃłoĠ
dÄģnĠ mÃłiĠ
chuÃ¡nĠ shuÅį
ĠnÃ¡nĠ xÃ¬ngĠ
jiÃ¹Ġ zhÇĲĠ
jÇĲngĠ qÅ«Ġ
jÇĲngĠ diÇİnĠ
yÃ¨ ĠhÃ©Ġ
shÄĽng ĠhuÃ¬Ġ
tÅįng ĠxÃŃngĠ
bÇİo ĠhÃ©Ġ
lÃ¨ ĠyuÃ¡nĠ
ĠdeĠ yÃ³uĠ
ĠdeĠ zuÃ¬Ġ
ĠshÃ¬Ġ xiÃłĠxiÃ¡ĠdeĠyÃŃĠgÃ¨ĠxiÄģngĠzhÃ¨nĠjÃŃĠxÃŃngĠzhÃ¨ngĠdÄģnĠwÃ¨iĠ
ĠyÃºĠ 2012
jÃ¬Ġ shÃ¹
ĠyÇĲĠ biÃłn
ĠxÃŃngĠ hÃłoĠ
huÃłĠ miÃłnĠ
yÃ¨Ġ jiÄģnĠ
rÃ¹Ġ jÃ¬ngĠ
shÃ¨Ġ yÇĲngĠ
9 ĠrÃ©nĠ
Ġ xuÃ©
Ġ gÄĽi
Ġ Ð¾
Ġ mÃŃngĠwÃ¨iĠ
Ġ yÃ¬ĠniÃ¡nĠ
ĠĠĠ wÃºĠ
ĠĠĠ fÄĵnĠlÃ¨iĠ
Ãłi ĠlÃ¬Ġ
jÃŃ ĠzhÅįngĠxuÃ©Ġ
zÃ© ĠxÄ«Ġ
bÄģ ĠlÇĲĠ
lÃŃn ĠzhÅįngĠ
jiÃłng ĠjÃŃĠ
1901 ĠniÃ¡nĠ
gÅįngĠ jÄ«Ġ
ĠjÃ¬Ġ huÃłĠdeĠ
fÄģĠ juÃ©Ġ
ĠqÃŃĠ xiÃłĠdeĠ
bÃ³Ġ lÄģĠ
guÃ¬Ġ zÃº
mÃ¨iĠ mÃ¨iĠ
Ġ yÇĴu
Ġ 1999
zÇĴng ĠsÄ«ĠlÃ¬ngĠ
luÃ² ĠshÃŃĠ
xiÄĵ ĠÄĽrĠ
bÇİn ĠquÃ¡nĠ
se ĠĠĠ
ĠzhÅįngĠ zhÃ¨ngĠ
zhÇĶĠ dÇİoĠ
nÃ¡nĠ bÃ¹ĠdeĠ
ĠbÃ¨iĠ bÇĶĠ
guÄģnĠ guÄģngĠ
yÃŃĠ miÃłnĠ
ĠdÃłnĠ mÃ©iĠyÇĴuĠ
zhÄĵnĠ chÃ¡Ġ
ĠsÄģn ĠyuÃ¨Ġ
tÇĴngĠzhÃ¬Ġ zhÄĽĠ
fÃ¡nĠ mÃ¡ng
ĠhÄĵiĠ lÃ³ngĠjiÄģngĠ
5 ĠgÅįngĠlÇĲĠ
ĠĠĠ dÃło
kÃ¹ ĠÄĽrĠ
34 Ġ
ly ĠĠĠ
ĠyÇĲĠ jÃŃĠzÃłiĠ
zhÇĶĠ liÃºĠ
liÃ¡nĠ sÃłiĠdeĠ
tÇĲĠ yÃłnĠ
ĠxiÃłĠ wÇĶĠ
tÃ³ngĠ mÃ©ngĠ
tiÃ¡oĠ kuÇİnĠ
lÃ¹nĠ tÃ¡nĠ
ĠsuÃŃ ĠjÃŃĠ
Ġ liÃłnĠ
zuÃ² ĠzÃłiĠ
pÃŃng ĠrÃ©nĠ
er ĠĠĠ
gÃ¨ng ĠgÄģoĠ
qiÅ« ĠjÃ¬Ġ
yÃ© ĠÄĽrĠ
dÇĴu Ġ
ĠshÃ¬Ġ xÄ«nĠ
ĠqÃŃ ĠzhÃ¬Ġ
huÃłĠ rÃ¹Ġ
yÇİnĠ zÃ²uĠ
mÃ¬Ġ sÅ«ĠlÇĲĠ
kÃłngĠrÃ¬Ġ zhÃłnĠzhÄĵngĠ
ĠhÃ©ĠdÃło ĠquÃ¡nĠzhÇİngĠ
ĠĠĠ zhÄĵngĠyÃ¬Ġ
tÃ¨ ĠrÃ©nĠ
qiÄģn ĠmÃŃngĠ
ĠbÃ¹Ġ duÃłn
ĠyÄ«Ġ cÃ¬
ĠyÄ«Ġ ÄĽrĠ
ĠdÃło ĠjÃŃĠ
ĠxÄ«Ġ yÇĲn
fÄĵngĠ suÇĴĠ
ĠyÄĽĠ mÃ©iĠyÇĴuĠ
dÅįngĠbÃ¹Ġ shÃŃĠqÅ«Ġ
Ġ nuÃ²
Ġ hÃ²uĠyÃºĠ
yÃ¹n ĠzÃłiĠ
tuÅį ĠÄĽrĠ
end Ġ
gÅįngĠ yÃ¨Ġ
ĠgÅįngĠ jiÄģoĠ
ĠchÃ©ngĠ zhÇİngĠ
ĠchÅ« ĠniÃ¡nĠ
ĠjÅ«n ĠrÃ©nĠ
dÅįngĠ qÅ«Ġ
lÃŃĠ bÄģĠnÃ¨n
luÃ²Ġ tÃ¨Ġ
ĠmÇİĠ lÄģĠ
ĠtÃłiĠ yÃ¡ngĠgÅįngĠ
kÃ¨ ĠlÇĲĠsÄ«Ġ
sÃ¬ ĠrÃ©nĠ
rÃ³ng ĠdeĠ
guÇİng ĠyÃ¬Ġ
wÃłn ĠrÃ©nĠ
xuÄģn ĠshÃ¬Ġ
dÃ¬Ġ guÃ³Ġ
ĠyÃºĠ 2014
bÄĽiĠ hÇİiĠdÃłoĠ
xiÄģngĠgÇİng ĠdeĠ
lÄģĠsÄ«Ġ jiÄģĠ
Ġ jiÄģn
xiÃłng ĠjÄ«Ġ
duÅį ĠsÄ«Ġ
wÄģn ĠqÅ«Ġ
liÃ¹ ĠshÃ¬Ġ
niÃº ĠsÄ«Ġ
ĠdÃłĠ liÃ¡nĠmÃ©ngĠ
jiÃłoĠ dÄ«Ġ
diÃłnĠ tÃ¡i
bÄģoĠkuÃ² ĠyÇĲĠxiÃłĠ
ĠnÃ¨iĠ rÃ³ngĠ
gÅįngĠyuÃ¡nĠ qiÃ¡nĠ
zhuÄ«ĠsÃ¹ ĠdÃłoĠ
Ġ fÃ¨ng
Ġ yÇİĠ
Ġ sĠ
shÄĵng ĠhÃ©Ġ
zhuÄģng ĠdeĠ
yuÇİn ĠdeĠ
chÅ«n ĠjÃ¬Ġ
ĠyÇĴuĠ xÇĶĠduÅįĠ
ĠyÄ«Ġ qiÃ¨
jiÄģnĠ chÃ¡Ġ
yÃ¹nĠ yÃŃng
lÇľĠ huÃłĠ
zhuÄģnĠ yÃ²ngĠ
ĠdÄģngĠ dÃ¬ĠdeĠ
guÃ³ĠwÃ¹Ġ yuÃłnĠ
ÄģiĠnÃłĠ shÄĽngĠ
c ĠĠĠ
Ġ lÃ¨i
yÇĶ ĠzhÅįngĠguÃ³Ġ
tÃ¨ ĠgÅįngĠ
fÄĵi ĠdeĠ
liÃłng ĠjÃŃĠ
dÇİng ĠzÃłiĠ
bÄĽnĠ kÄĵĠ
dÅįngĠ cÃ¨Ġ
guÇİnĠ xiÃ¡
shÄģngĠ wÃ¹Ġ
dÅįuĠ mÃ©iĠyÇĴuĠ
zhÇĶnĠ quÃ¨Ġ
8 ĠrÃ©nĠ
8 ĠgÃ¨Ġ
Ġ tiÃ¡n
Ġ ISTAT
Ġ ESTĠ
qÄ« ĠyuÃ¨Ġ
zÃ© ĠyÇĲĠ
sÇİn Ġ
nÃłĠ xiÄĵ
guÇİnĠ kÃ²ng
zhÅįngĠguÃ³Ġ dÃłĠlÃ¹ĠdeĠ
ĠĠĠ rÃ¬Ġ
fÃ¹ ĠyÃºĠ
ĠdeĠ hÃ²uĠ
ĠxÄ«Ġ ÄĽr
jÃ¹Ġ fÄĵng
nÃ¡nĠ mÄĽiĠzhÅįuĠ
ĠmÃ² ĠxÄ«Ġ
zhÃ²ngĠyÃ¬Ġ yuÃłnĠ
ĠshÃ¬ĠyÄ«ĠkÄĵ ĠwÃ©iĠrÃło
Ġ 1998
Ġ EDT
Äģ ĠbÃ¹Ġ
ĠĠĠ guÃ³Ġ
shÃ¨ ĠjÃŃĠ
rÃ¨n ĠzhÄ«Ġ
shÄĽng ĠlÃ¬Ġ
fÇİn ĠjÄ«Ġ
ĠzhÅįngĠ yuÃ¡nĠ
guÄģnĠ zhÃ²ng
guÄģnĠ zhÃ¨ngĠ
ĠpÃŃngĠ jiÃ¨Ġ
fÄĵngĠ fÃ¹ĠdeĠ
kÄĽĠyÇĲĠ tÅįngĠguÃ²Ġ
ĠshÃ¬ĠyÄ«Ġ zuÃ²
ĠdÃł ĠzhÃ¬Ġ
shÅįuĠshÃ¬Ġ lÇľĠ
jiÃ¨ĠquÃ¡nĠguÃ³ĠzhÃ¨ngĠxiÃ©Ġ wÄĽiĠyuÃ¡nĠ
pÄ«ngĠ pÄģng
Ġ xÇĲĠ
ch Ġ
lÇĲ ĠshÃŃĠ
huÃ¡ ĠdeĠ
chuÃ¡n ĠyuÃ¡nĠ
zhÇİn ĠchÅ«Ġ
yÃŃng ĠlÃ¬Ġ
biÄģo ĠshÃ¬Ġ
yÅįu ĠhuÃ¬Ġ
ĠlÃ¬Ġ xuÃ©Ġ
yÃ¹Ġ wÃ©iĠ
liÃ¡nĠ zÇİiĠ
ĠbÃ¬ngĠ huÃ²ĠdÃ©Ġ
ĠjÃ¹Ġ bÄĽnĠ
shÅ«Ġ niÇĶĠ
tÃ³uĠ rÃ¹
xÃŃĠ jÄ«
hÃ©ngĠ xÄ«ng
dÃłnĠ shuÇĲ
bÇĲĠsÃłi ĠdeĠ
juÃ©ĠduÃ¬Ġ xÄ«ngĠdÄĽngĠwÃ¨iĠ
ĠĠĠ yÃ¹Ġ
lÇĲ ĠrÃ©nĠ
dÃ© ĠyÃ¬ĠzhÃ¬Ġ
zuÃ¬ ĠchÅ«ĠdeĠ
xÃ¬n ĠhÃło
gÅįu ĠtÅįngĠ
yuÄģn Ġ
1921 ĠniÃ¡nĠ
ĠshÃ¬Ġ xiÃłĠ
ĠhÃ©Ġ yÇĶĠ
ĠyÃºĠ 2022
pÃŃngĠ hÃ©ngĠ
ĠbÃ¨iĠ jÇĲng
duÅįĠ xiÃłngĠ
jiÄĵĠ guÇİnĠ
Ġ5Ġ diÃłoĠkuÃłiĠyÄ«ĠxiÇİoĠshÃŃĠ
ĠG Ġ
ĠjÃŃĠbÄĽiĠmÄĽiĠ dÅįngĠbÃ¹ĠshÃŃĠqÅ«Ġ
ĠtÃłiĠyÃ¡ngĠgÅįngĠ zhuÃłnĠdeĠxiÇİoĠxÃŃngĠxÄ«ngĠ
ĠshÃ¬ĠyÄ«ĠkÄĵĠwÃ©iĠrÃło ĠtÃłiĠyÃ¡ngĠgÅįngĠzhuÃłnĠdeĠxiÇİoĠxÃŃngĠxÄ«ngĠ
ĠEDT Ġ
Ġ bÄĵiĠ
ĠĠĠ wÃ©nĠhuÃłĠ
ĠĠĠ 2005ĠniÃ¡nĠ
Ãło ĠkÃ¨Ġ
jiÃłn ĠdeĠ
jiÃł ĠdeĠ
jÃ¹Ġ bÄĽnĠ
ĠgÄģoĠ sÃ¹
dÇİĠ suÃłn
Ġ16 Ġ
ĠdÃłĠshÃł Ġ
xiÇİoĠxÃŃngĠxÄ«ngĠdeĠ juÃ©ĠduÃ¬ĠxÄ«ngĠdÄĽngĠwÃ¨iĠ
Ġ yÃ¬ngĠ
lÇĲng ĠduÃ¬Ġ
hÃ¡n ĠyÃ¬Ġ
pÄģi ĠshÃ¨ĠdeĠ
ĠzÃłiĠ lÃ¬Ġ
ĠzhÅįngĠ lÃ¬Ġ
ĠgÅįngĠ shÃ¨Ġ
ĠyÄ«Ġ qiÃ¨Ġ
ĠzhÄ« ĠchÅ«Ġ
shÄĵngĠ chÄĵngĠ
ĠzuÃ²Ġ qÇĶĠ
rÃ¹Ġ kÇĴu
ĠshÃ¬ĠwÃ¹Ġ suÇĴĠ
fÄģĠbiÇİo ĠleĠ
Ġ dÇİoĠyÇİnĠ
ĠĠĠ gÃ¨Ġ
fÃº ĠjÃŃĠ
ĠshÃ¬Ġ zuÃ¬Ġ
ĠxÃŃngĠ xÄ«ngĠ
ĠdÃłn ĠbÃ¨iĠ
zÃºĠ liÃ¡nĠ
wÃºĠxiÃłnĠ diÃłnĠ
ĠĠĠzhÃ¨ĠkÄĵĠ xiÇİoĠxÃŃngĠxÄ«ngĠdeĠjuÃ©ĠduÃ¬ĠxÄ«ngĠdÄĽngĠwÃ¨iĠ
Ġ zuÇĴ
ĠĠĠ huÃ¡ngĠ
zhÇĲ ĠchÅ«
miÃło ĠyÇĶĠ
ĠtÃ³ng ĠniÃ¡nĠ12ĠyuÃ¨Ġ
ĠdeĠyÄ«Ġ xiÃłngĠ
wÅ«Ġ rÇİnĠ
bÇĲĠlÃ¬Ġ niÃºĠsÄ«Ġ
nÃ¨Ġ shÄĽngĠ
shÄĵngĠchÇİn ĠdeĠ
Ġ sÃłi
Ġ In
Ġ Le
Ġ dÃłngĠ
guÃ² ĠhÃ²uĠ
yÃło ĠzÃłiĠ
en ĠĠĠ
ĠxÄ«Ġ cÃ¨Ġ
kÄĽĠ yÃ²ngĠ
ĠxiÃłĠ lÃ¬ngĠ
ĠdeĠyÄ«Ġ tiÃ¡oĠ
tiÄģnĠwÃ©nĠ xuÃ©ĠjiÄģĠ
zÇĶĠchÃ©ng ĠbÃ¹ĠfÃ¨nĠ
Ġ chÄģoĠjÃŃĠ
ĠĠĠ 5Ġ
ĠĠĠ guÄģnĠyÃºĠ
ĠĠĠ zÇİoĠqÄ«Ġ
xÄ« ĠxiÃłnĠ
lÃ¡i ĠÄĽrĠ
zhÇĴng ĠdeĠ
jiÇĶ ĠshÃŃĠ
lÃ¹Ġ duÃłnĠ
diÃłnĠ liÃºĠ
ĠfÃ¹Ġ mÇĶĠ
zÇĴngĠ lÇĲngĠshÃ¬Ġ
yÃ¡nĠjiÅ« ĠdeĠ
zhuÃłngĠ tÃłi
ĠyÄ«nĠwÃ¨iĠ tÄģĠ
ĠhÃ²uĠlÃ¡i ĠzÃłiĠ
1 ĠniÃ¡nĠ
3 ĠmÃŃngĠ
Ġ tÇĴngĠ
liÇİng ĠdÃłĠ
men ĠdeĠ
ar Ġ
ĠwÃ¨iĠ guÃ³Ġ
ĠyÄ«Ġ xiÃłngĠ
ĠyuÃ¡nĠ lÃ¡iĠ
xuÃ©Ġ kÄĵĠ
qÅ«Ġ fÃ¹ĠzÃ©ĠguÇİnĠxiÃ¡Ġ
ĠjiÄģĠ qiÃ¡ngĠ
shÇĴuĠ xiÄģnĠ
cÇĲĠ tiÄģnĠtÇĲĠ
shÃ¨ngĠ jÄ«ngĠ
liÇİngĠ cÃ¨Ġ
kÄĽĠnÃ©ng ĠdeĠ
ĠdÃ¬ĠshÃŃĠ sÄģnĠ
ĠÃłoĠ mÃ©nĠ
Ġ kÃ²ngĠzhÃ¬Ġ
chÃ¡ ĠdÃ©Ġ
yÃ²ng ĠdÃ¬Ġ
qiÃ¡n ĠxÄ«Ġ
nÃŃ ĠxÄ«ĠyÃł
lÄĵi ĠsÄ«Ġ
ĠzÃłiĠ yÇĴuĠ
ĠzÃłiĠ dÄģngĠshÃŃĠ
ĠshÃŃĠ liÃ¹ĠniÃ¡nĠ
shÃłngĠ yÃ¬ngĠdeĠ
qiÃ¡nĠ tÇĲngĠ
qÄ«Ġ jiÄģnĠdeĠ
qÇĶĠ juÃ©ĠyÃºĠ
hÃ¹nĠ luÃłnĠ
Ġ sÄģngĠ
Ġ shÄģnĠxÄ«Ġ
shÃ¨ng ĠyÃºĠ
mÇİn ĠyÃ¬Ġ
gÄĵng ĠmÃŃngĠ
1905 ĠniÃ¡nĠ
jÃ¹Ġ yuÃłnĠ
bÄĽnĠ tÇĶ
shÄĵnĠ rÃ¹Ġ
ĠzÃ¬Ġ cÇĲĠ
zhuÄģnĠ jÃŃĠdeĠ
hÄĽnĠ shÇİoĠ
mÃŃnĠzÃºĠ zhÇĶĠyÃ¬Ġ
Ġãĥ³ Ġ
Ġ kÄģnĠ
Ġ guÅįĠ
ĠĠĠ yÄ«nĠwÃ¨iĠ
cÇĲ ĠdÃ¬Ġ
kÄĵ ĠyÄ«ĠshÄĵngĠ
wÄĵi ĠlÃ¬Ġ
hÇİo ĠlÃ¡iĠ
sÃłng ĠshÄ«Ġ
mÃ¡n Ġ
hÃ©Ġ liÃºĠ
shÃŃĠ yÄ«Ġ
ĠshÃŃĠ bÃ¨iĠ
ĠyÇĲĠ wÃłiĠdeĠ
ĠlÇĲĠ xuÃ©Ġ
tÃ¨Ġ dÃ¬ng
zhÃ¨nĠ wÃ¡ngĠ
ĠshÃ¨Ġ shÄ«
shÃ¨Ġ jiÄģoĠ
Ġ pÃŃnĠdÃłoĠ
Ġ 2024ĠniÃ¡nĠ
bÄĽn ĠdÃ¬ĠqÅ«Ġ
quÃ¡n ĠshÃ¬Ġ
zi ĠlÇĲĠ
fÇĶ ĠzhÄ«ĠfÇĶĠ
jiÇİng ĠxuÃ©Ġ
la ĠĠĠ
wÇİn ĠqÄ«Ġ
ĠwÃ¨iĠ xÄ«nĠ
ĠzÃłiĠ rÃ©nĠ
ĠdÃłĠ duÅį
ĠchÅ« ĠbÃ¹Ġ
shÃ¹Ġ jÃ¹
lÃ¡iĠ kÃłnĠ
tÃŃĠ cÃ¡iĠ
ĠdeĠzuÃ²Ġ yÃ²ngĠ
ĠĠĠ dÄģng
zÅįng ĠdeĠ
ĠhÃ©Ġ jÄ«nĠ
ĠdÃ© ĠhÃ©Ġ
tÃºĠ jÃ¬ngĠ
yÃ²uĠ chÄĵngĠ
qiÄģnĠ yÇĲnĠ
pÃ©iĠ chÃ¡ngĠ
ĠjÃŃĠtuÃ¡n ĠjÅ«nĠ
Ġ bÃłi
Ġ lÇĶ
Ġ huÃ¡iĠ
ĠĠĠ jiÃłnĠ
nÇļ ĠÃ©r
ĠniÃ¡n ĠshÃ¬Ġ
ĠzÃłiĠ tÄģ
ĠyuÃ¡nĠ qÅ«Ġ
ĠqÃŃĠ zhÅįngĠdeĠ
zÇĴngĠ Ã©ĠwÃ¨iĠ
ĠnÃ¡nĠ jÄ«ng
qiÃ¡ngĠ huÃłĠ
ĠSAO ĠĠĠ
1 ĠhÃłoĠ
Ġ tiÃ¡o
Ġ tÃłnĠ
Ġ guÃ¬ĠzhÅįuĠ
Ġ 1983ĠniÃ¡nĠ
fÇİ ĠÄĽrĠ
fÄĵn ĠqÃŃĠ
tÃŃ ĠwÃ¨iĠ
bÄģ ĠmÃŃngĠ
pÃł ĠÄĽrĠ
ĠwÃ¨iĠ sÄ«Ġ
ĠzhÅįngĠ wÃ©n
ĠjÃŃĠ ÄĽr
ĠqÃŃ ĠyÇĶĠ
ĠshÃ¨ ĠzÃłiĠ
jiÃ©Ġ lÃ¹nĠ
fÄĵngĠ xiÇİn
yÃŃĠ dÃ²ng
liÇİngĠ tiÃ¡oĠ
mÃ³Ġ nÇĲ
tiÃ¡oĠ mÃ¹Ġ
ĠsuÇĴĠ yÇĴuĠdeĠ
ĠfÃºĠ lÇİngĠ
ĠL Ġ
ĠsuÅįĠ xiÄĽĠ
Ġ xuÄĵ
mÄĽi ĠzhÅįngĠbÃ¹Ġ
shuÇĲ ĠzhÅįngĠ
chÄģ ĠjÃ¹Ġ
ĠshÃ¬Ġ yÇĲ
bÃ¹Ġ fÃ¨n
ĠyÃºĠ 2017
ĠjiÃłn ĠzhÅįngĠ
ĠzhÄ«Ġ qiÃ¡nĠdeĠ
zhÇĶĠ juÃ©
ĠbÃ¨iĠ rÃ¨nĠwÃ©iĠ
ĠjÃ¹Ġ tÇĲĠ
biÃłnĠ huÃłnĠ
xiÄģoĠ shÃ²u
lÇĲĠshÃ¬Ġ zhÇİngĠ
gÃ²ngĠhÃ©Ġ dÇİng
jiÄģoĠyÃ¬Ġ suÇĴĠ
jiÃ¨ĠquÃ¡nĠguÃ³Ġ rÃ©nĠmÃŃnĠdÃłiĠbiÇİoĠdÃłĠhuÃ¬Ġ
ĠN Ġ
fÄĵiĠxÃŃng ĠyuÃ¡nĠ
Ġ 1986ĠniÃ¡nĠ
tÃ¨ ĠsÄ«Ġ
ĠwÃ¨iĠ mÄĽiĠguÃ³Ġ
ĠyÇĴuĠ xiÃło
ĠchÃ©ngĠ nuÃ²Ġ
ĠyÄ«Ġ yÃłng
ĠgÃ¨ ĠgÃ¨Ġ
ĠbÃ¬ngĠ wÃºĠ
ĠshÃ¨Ġ xiÃ¡nĠ
xÃŃĠ guÃłnĠ
ĠwÃłn ĠpÃŃngĠfÄģngĠmÇĲĠ
ĠdeĠgÅįngĠ sÄ«Ġ
duÇİnĠ zÃłnĠ
chÃłngĠpiÃłn ĠgÅįngĠsÄ«Ġ
1 ĠrÃ¬
bÄĽn ĠzhÃ¬Ġ
tÇĲ ĠxiÃłnĠ
dÇİng ĠbÃ¹Ġ
suÃŃ ĠzhÄ«Ġ
fÇĴu Ġ
ĠdeĠ jÃŃĠ
ĠyÃ¬Ġ mÄĽiĠguÃ³ĠrÃ©nĠ
ĠjÅ«n ĠyÇĲĠ
zhuÇİnĠ yÃŃĠdÃłoĠ
chÇĶĠ juÃ©Ġ
tuÄ«Ġ guÇİng
ĠÄģĠÄĽrĠ bÄĵiĠsÄ«Ġ
guÇİngĠbÅį ĠgÅįngĠsÄ«Ġ
ĠÐ¾ Ġ
Ġ lÃŃng
Ġ tÅ«Ġ
sÄ« ĠdÃ¬ĠlÃ¬Ġ
qÄ«ng ĠdÃłiĠ
mÇĶ ĠsÄ«ĠtÃ¨Ġ
ĠshÃŃĠ shÄ«
ĠxÄ«Ġ fÇİĠ
yÃ¹Ġ cÃ¨Ġ
ĠdÄģng ĠrÃ¬Ġ
jiÄĽĠ juÃ©
ĠdeĠyÄ«Ġ jiÄģĠ
ĠcÇĲĠ wÃłi
dÇĲĠ cÃ©ngĠshuÇĲĠyÃ¹Ġ
lÇİngĠ pÇĶ
mÃ¹ĠsÄ«Ġ lÃŃn
Ġ cÃ¹
Ġ hÃ¡ngĠ
Ġ zÄĵngĠjiÄģĠ
jiÃłn ĠyÃºĠ
duÃ¬ ĠlÃ¬Ġ
nÃ¡n ĠxÄ«Ġ
chÄĵ ĠshÃ¬Ġ
00 ĠpÃŃngĠfÄģngĠqiÄģnĠmÇĲĠ
qÃ¬ng ĠxiÃłĠ
bÃł ĠgÅįngĠ
zuÇĲ Ġ
qÄ«ngĠ zhÄĵnĠ
ĠtÄģĠmen ĠshÃ¬Ġ
ĠchÃ¡ngĠ qÄ«Ġ
xÃŃng ĠrÃ©nĠ
jÅ«n ĠzhÇĶĠ
dÃłi ĠdÃłoĠ
xiÃł ĠshÃ¬Ġ
cÃ¡i ĠdeĠ
shÇİo ĠdeĠ
ĠsÄ«Ġ dÃłĠ
rÃ¨nĠ zhÃ¨ngĠ
ĠzhÅįu ĠdeĠyÃŃĠgÃ¨ĠshÃ¬ĠzhÃ¨nĠ
dÃłnĠ shuÇĲĠ
yÃ¬nĠdÃ¬Ġ ÄģnĠnÃł
Ġ 80
Ġ diÇİnĠ
Ġ gÄĽiĠ
Ġ ruÃ¬ĠshÃ¬Ġ
Ġ xiÅįngĠyÃ¡ĠlÃ¬Ġ
chÃ©ng ĠwÃ¨iĠ
yuÃ¡n ĠrÃ©nĠmÃŃnĠbÃ¬Ġ
jiÃłn ĠduÃ¬Ġ
qÅ« ĠzhÅįngĠ
fÅ« ĠsÄ«Ġ
ĠzÃłiĠ duÃ¬Ġ
ĠbÃ¹Ġ zhÄ«Ġ
ĠyÃºĠ 2023
ĠyÃ¬Ġ bÃ¨iĠ
ĠÄĽr ĠbÃ¨iĠ
zhÃłnĠ shÃ¹Ġ
ĠbÃ¬ng ĠchÃ©ngĠwÃ©iĠ
zÃ¬Ġ shÄĵnĠ
shÃ¹Ġ bÇİi
shÄ«Ġ tÇĲĠ
qÄ«ngĠ dÇİoĠ
bÃ³Ġ gÃ©Ġ
zhÃ²ngĠyÃłoĠ xÃ¬ngĠ
1 ĠjiÄģĠ
7 ĠgÃ¨Ġ
Ġ xĠ
zhÇİng ĠjÃŃĠ
ĠshÃ¬Ġ yÃ¬nĠdÃ¹Ġ
ĠhÃ©Ġ chÃłngĠ
ĠguÃ³Ġ nÃ¨i
chuÃ¡nĠ mÃ©i
dÅįuĠ kÄĽĠyÇĲĠ
zhuÇİnĠ biÃłnĠ
xÃºnĠ fÇĶĠ
ĠcÃ©ngĠ jÄ«ng
ĠtÄģĠcÃ©ng ĠdÃłiĠbiÇİo
ĠshÃłngĠhÇİi ĠshÃ¬Ġ
jiÃłngĠyÇĶĠ liÃłngĠ
Ġ kÄģi
Ġ mÃ¬ngĠ
yÇĶ ĠwÃ¨iĠ
xÄ«n ĠyÄ«Ġ
yÃ¹n ĠxÃŃng
ĠshÃŃĠ sÄģnĠniÃ¡nĠ
ĠdÃ¬Ġ 2
fÃ¹Ġ xÄ«ngĠ
ĠkÃ¨ ĠjiÄģĠ
yÃ¹Ġ suÃłnĠ
shÇĴuĠ lÇĲngĠ
yÄĽĠ kÄĽĠyÇĲĠ
liÃ¡ngĠ hÇİoĠdeĠ
ĠtÃºn ĠqÃŃĠ
yÃŃ ĠdeĠ
30 ĠfÄĵnĠ
sÅįu ĠsuÇĴĠ
jÄ«Ġ dÅ«ĠjiÃłoĠ
zuÃ¬Ġ hÃ²uĠdeĠ
jiÄģoĠ gÄĽi
shÃ¨ngĠ mÇĶĠ
kÇİoĠ gÇĶ
ĠmÇĶĠ qÄ«nĠ
jÃ¬ĠsuÃłn ĠjÄ«Ġ
Ġ yÄģĠ
Ġ bÃºĠshÃ¬Ġ
yuÃ¨ ĠĠĠ
cÃ¨ ĠwÃ¨iĠ
jiÇİng ĠlÃ¬Ġ
zhuÄ« ĠjÄ«Ġ
rÃ²u ĠshÃŃĠxÃ¬ngĠ
ĠyuÃ¡nĠ zÃ¬
yÃ¡nĠ ÃłnĠ
fÄĵnĠ bÃ¹ĠzÃłiĠ
ĠzhÃ¨ngĠ jÃ¹Ġ
ĠzuÃ²Ġ yÃ¨Ġ
ĠdeĠyÄ«Ġ cÃ¬Ġ
ĠdeĠshÃ¬Ġ qÃŃngĠ
duÇİnĠ piÃłnĠ
ĠyÇĲĠjÃŃ ĠzhÅįngĠguÃ³ĠdÃłĠlÃ¹ĠdeĠ
mÄĽiĠzhÅįngĠbÃ¹Ġ shÃŃĠqÅ«Ġ
Ġ 1994
Ġ CST
Ġ liÃ¡nĠhÃ©ĠguÃ³Ġ
ĠĠĠ kÄĵĠ
zÃ© ĠÄĽrĠshÄĽngĠ
bÄģ ĠyuÃ¨Ġ
qÇĶ ĠleĠ
hÄģ ĠlÃ¬Ġ
ĠdÃło ĠtÄģĠ
ĠÃ©rĠ wÃ©nĠmÃŃngĠ
shÇĴuĠ rÃ¨nĠ
tÃ¡iĠ zhÅįngĠshÃ¬Ġ
jÄ«nĠ xiÃłngĠ
yuÄĵĠ sÃ¨ĠfÅ«Ġ
zÃłoĠ chuÃ¡nĠ
ĠdeĠjÄ«Ġ chÇĶĠ
ĠI Ġ
Ġ 75
Ġ CDT
Ġ 1987ĠniÃ¡nĠ
mÄĽi ĠlÃ¬Ġ
qiÃ¡ng ĠdÃłĠ
th ĠĠĠ
2019 ĠguÄģnĠzhuÃłngĠbÃ¬ngĠdÃº
chuÄ« Ġ
ĠshÃŃĠ wÇĶĠniÃ¡nĠ
jÄ«Ġ chÇİng
ĠjÃ¬n ĠxÃŃngĠdeĠ
tÅįngĠ xÃ¬n
nÇļĠ wÃ¡ngĠ
ĠshÃ¬ĠyÄ«Ġ jiÄģĠ
ĠcÃ³ngĠ cÇĲĠ
ÅįuĠ mÃ©ng
Ġ6Ġ diÃłoĠkuÃłiĠyÄ«ĠxiÇİoĠshÃŃĠ
ĠjÃŃĠbÄĽiĠ mÄĽiĠzhÅįngĠbÃ¹ĠshÃŃĠqÅ«Ġ
ĠCST Ġ
ĠCDT Ġ
Ġ mÇĲn
ĠĠĠ Me
duÃ¬ ĠshÃ¬Ġ
mÇĲ ĠÄĽr
zuÃłn ĠshÃŃĠ
ĠshÃ¬Ġ yÃŃĠ
ĠdÃ¬Ġ mÃŃngĠ
fÄĵnĠ xiÃłoĠ
liÃºĠ chuÃ¡nĠ
xuÇİnĠ shÇĴu
tuÅįĠ mÇİĠsÄ«Ġ
ĠliÃ¡nĠ sÃłiĠ
ĠshÇĲĠ mÃ¬ĠsÄ«Ġ
yÃ¬nĠ dÃ¹ĠdeĠ
Ġ14 Ġ
ĠÄģ ĠlÇĲĠ
ĠdÅįng ĠxÄ«Ġ
Ġ Ch
Ġ lÄĵiĠ
Ġ 1958ĠniÃ¡nĠ
jÄ« ĠshÃŃĠ
jÃŃ ĠĠĠ
mÃ©i ĠÄĽrĠ
fÅ« ĠsÄ«ĠjÄ«Ġ
zhuÄģn ĠyuÃ¡nĠ
ĠwÃ¨iĠ jÄ«ngĠ
ĠchÃ©ngĠ kÃ¨
qÅ«Ġ zhÃºĠjiÃłnĠ
zhÃ¨Ġ shÇĴuĠ
ĠqiÃºĠ bÇĲĠsÃłiĠ
liÇİngĠ zhÇĴng
zhÃ©ĠxuÃ©Ġ jiÄģĠ
ĠqÄ« ĠxÄ«Ġ
fÃ©iĠtÃ¨Ġ liÃ¨Ġ
Z Ġ
Ġ duÃłn
jiÃło ĠyÇĴuĠ
jiÄģo ĠfÃ¹Ġ
1917 ĠniÃ¡nĠ
lÃ¬Ġ shÇĲ
dÅįngĠ yÃłĠ
ĠshÃłngĠ shÃ¹Ġ
zÇĴngĠ jÃºĠ
wÄĽiĠ nÃ¨iĠruÃ¬Ġ
bÄ«ngĠ tuÃ¡nĠ
ĠsÃº ĠchÄĵngĠ
Ġ jiÃłngĠ
Ã¡ Ġ
ĠĠĠ 12ĠyuÃ¨Ġ
ĠĠĠ yÄ«ngĠguÃ³Ġ
shÃŃ ĠshÃ¬ĠjÃ¬Ġ
12 ĠniÃ¡nĠ
quÃ¨ ĠlÃ¬Ġ
pÃ¨i ĠyuÃ¨Ġ
ĠwÃ¨iĠ chÃ©ngĠ
qÅ«Ġ dÃ²ngĠ
gÃ©Ġ lÃ©iĠ
xÃ¬ngĠ biÃ©
chÃ¡ngĠ ÄģnĠ
bÃ³Ġ gÄĽnĠdÃ¬Ġ
wÇİngĠ lÃ¡iĠ
zÇĶĠ xiÄģnĠ
ĠyÄ«nĠwÃ¨iĠ tÄģ
ĠwÃ©nĠ zhÄģngĠ
rÃ¡nĠ liÃłoĠ
ĠÃło ĠsÄ«Ġ
hÃºĠbÄĽiĠ shÄĽngĠ
yÃ¡nĠhÇİiĠ shÄĽngĠfÃ¨nĠ
Ġ 1996
Äģ ĠsÄ«Ġ
ĠĠĠ mÃ¹Ġ
Äĵn ĠsÄ«Ġ
le ĠbÃ¹Ġ
dÃŃ ĠsÄ«Ġ
tuÄ« ĠjÃ¬n
diÄģo ĠxiÃłngĠ
zhÃłi ĠwÃ¹Ġ
ĠrÃ©nĠ shÄĵngĠ
ĠqÃŃĠ fÃ¹Ġ
gÄģoĠ xiÃłoĠ
ĠhuÃ²Ġ wÃ¹Ġ
bÃ³Ġ lÃŃn
chÇİnĠ liÃłngĠ
cÃ¡iĠ nÃ©ng
bÇİiĠ xÃ¬ngĠ
ĠdÃ¬ĠÃ¨rĠ cÃ¬
ĠshÃ¬ĠfÇĴu Ġ
Ġ guÇĲĠ
Ġ gÃłnĠ
ĠĠĠ gÄģiĠdÃ¬Ġ
lÃ¹ ĠhÃ©Ġ
xÃ¹n ĠhÃłoĠ
ĠniÃ¡nĠ shÃ¨ĠlÃ¬Ġ
ĠdÃ¬Ġ 3Ġ
ĠgÅįngĠ diÃłnĠ
ĠyÄ«Ġ lÃ¹Ġ
ĠtÃ³ng ĠniÃ¡nĠ10ĠyuÃ¨Ġ
lÃŃngĠ gÇİnĠ
zhuÄģnĠ qÅ«Ġ
ĠyÃ²uĠ chÄĵng
chÅįngĠ shÃ©ng
zÄĵngĠ qiÃ¡ng
ÄģĠÄĽrĠ bÄģĠ
cÇİoĠ ÃłnĠ
ĠshÃ¬ĠjiÃłn ĠdeĠ
Ġ jÇĲng
Ġ 1945ĠniÃ¡nĠ
shÃ¹ ĠgÃ¨Ġ
pÃŃng ĠxiÃłnĠ
bÃło ĠfÃ¹Ġ
jiÇİo ĠdeĠ
hÄĽn ĠnÃ¡nĠ
yÃ¬Ġ qÇĲĠ
ĠyÇĴuĠ leĠ
ĠgÅįngĠ lÃ¬Ġ
shÄĵngĠ rÃ¨nĠ
fÄģĠ shÄĵngĠyÃºĠ
zhÃŃĠ jÃ¬ngĠ
ĠzhÅįuĠ biÄģnĠ
mÃ³Ġ tuÅįĠ
ĠshÇĴuĠ xiÄģnĠ
ĠlÃŃ ĠmÇĲĠ
Ġ dÄ«ng
Ġ yÃŃngĠdÃ©Ġ
Ġ zhÄĵnĠduÃ¬Ġ
ĠĠĠ 2023ĠniÃ¡nĠ
zhÄģng ĠshÃ¬Ġ
huÃ¡ng ĠshÃ¬Ġ
huÃłn ĠyÇĴuĠ
sÃłng ĠshÄĵngĠ
ĠdeĠ wÃ¨iĠ
ĠyÇĶĠ yuÃ¡nĠ
ĠÄĽr ĠxÄ«Ġ
zhÃłnĠ lÃ¼Ã¨
xiÄģngĠ xÃ¬nĠ
dÃ²ngĠ tÃłiĠ
ĠshÄĵngĠ mÃ¬ngĠ
zhÃ¨ngĠzhÃ¬Ġ jÃºĠ
qÅ«ĠdeĠ fÃ¹ĠzÃ©ĠguÇİnĠxiÃ¡Ġ
ĠjÇĲnĠ cÃ¬ĠyÃºĠ
zhÄĽngĠ tÇĲ
yÃłĠmÄĽiĠ nÃŃĠyÃł
Ġ xiÄģng
Ġ zhuÃ³
Ġ yÃ¬nĠdÃ¹
ĠĠĠ tÃ¨ĠzhÄĵngĠ
xuÇİn ĠdeĠ
kÃłn ĠjiÃłnĠ
guÇĲ ĠdiÃłnĠ
dÃ¬Ġ fÄģngĠ
ĠdÃ¬Ġ Ã¨rĠshÃŃĠ
ĠyÇĲ ĠzhÄ«Ġ
wÃ©iĠ jÄ«ĠbÇİiĠ
jÄ«ngĠ dÅ«Ġ
bÄĽnĠ zhÃłnĠ
ĠzhÃłnĠ tÃ¡iĠ
huÃ²Ġ zhÄĽĠ
ĠrÃ¡nĠ hÃ²uĠzÃłiĠ
ÄģnĠhuÄ«Ġ shÄĽngĠ
Ġ 1997
Ġ fÅ«Ġ
Ġ huÃ¬ĠyÃ¬Ġ
Ġ gÄĵngĠ
ĠĠĠ e
ĠĠĠ tÃ¡ngĠ
xiÇİo ĠyÃºĠ
mÃ² ĠdeĠ
dÃº ĠzÃ¬Ġ
ĠshÃ¬Ġ qÃŃĠ
chÃ©ngĠ wÃ©i
ĠzhÃ¬Ġ jÄ«n
ĠjÃŃĠ kÄĽĠ
huÃłĠ fÄĵnĠ
fÃºĠ wÃ¹ĠdeĠ
sÃ¬Ġ chuÄģn
bÃ¬Ġ lÇĶ
guÇİngĠ dÅįng
zhÇĶĠjiÃłoĠ liÃłnĠ
Ġ hÃ²uĠzÃłiĠ
qÅ« ĠxiÃłnĠ
yÄ«ng ĠÃ©rĠ
hÃ¹ ĠshÃ¬Ġ
diÇİn ĠxÃŃngĠ
bÄģn ĠdÃłoĠ
hÃłn ĠguÃ³Ġ
pÄ« ĠfÃ¹Ġ
ce Ġ
ĠshÃŃĠ sÃ¬ĠniÃ¡nĠ
ĠlÃ¬Ġ yÃºĠ
yÃ¡nĠ xÃ¹
ĠzhÃ¨Ġ xiÃłngĠ
xiÇİoĠ jiÄĽĠ
shÄģĠ tiÃ¡nĠ
guÄģngĠ pÇĶĠ
pÃŃĠ fÅ«Ġ
yÃ¬ ĠdeĠshÃ¬Ġ
xiÃ¨ ĠÄĽrĠ
kuÄ« Ġ
ĠshÃ¬Ġ yÃ²ngĠyÃºĠ
ĠdÃłĠ zhÃ¨ngĠ
tÃ¨Ġ dÃ¬ngĠdeĠ
xÃ¬ngĠ gÃ©Ġ
fÄĵngĠ bÃło
mÄĽiĠguÃ³Ġ zÇĴngĠtÇĴngĠ
tÄ«ngĠ zhÇİngĠ
kuÃłngĠ wÃ¹Ġ
wÃ¹ĠlÇĲĠ xuÃ©ĠjiÄģĠ
Ġ13 Ġ
shÄĽngĠdÃłoĠ tÃ¡iĠ
jÄ« ĠlÃ¬Ġ
jÄ«n ĠsÄ«Ġ
gÇĶ ĠsÄ«Ġ
wÄĽi ĠdeĠ
pÇĶ ĠÄĽrĠ
dÃ¬Ġ Ã¨r
ĠjÃŃĠ zhÅįngĠzÃłiĠ
ĠchÅ«Ġ kÇĴu
lÃ¡iĠ yuÃ¡nĠyÃºĠ
guÇİnĠ lÇĲĠdeĠ
bÄģoĠkuÃ² ĠleĠ
huÃ³Ġ xÃ¬ngĠ
ĠgÄģoĠ xiÃ³ng
jÅ«nĠ guÄģnĠ
tiÄĽĠ lÃ¹ĠdeĠ
ĠbÇĲĠ sÃłi
ĠbÃ¹ĠfÃ¨n ĠdeĠ
ĠdeĠyÃ¬Ġ siĠ
yÇĲngĠxiÇİng ĠdeĠ
Ġ 1920ĠniÃ¡nĠ
Äģn ĠdeĠ
ĠĠĠ 2004ĠniÃ¡nĠ
zuÃ² ĠyÇĲĠ
qiÃ¡n ĠwÃ¨iĠ
jÄ«n ĠrÃ¬
lÇİng ĠpÇĶĠ
pÅį ĠÄĽrĠ
ĠshÃ¬Ġ fÃłngĠ
ĠhÃ©Ġ kÇĴuĠ
ĠlÃ¬Ġ chÇİngĠ
ĠyÄ«Ġ kÄģiĠshÇĲĠ
yÃ²ngĠ leĠ
ĠyÃ³uĠ tÃłiĠrÃ©nĠ
xÃ¬nĠ tÃºĠ
ÄĵnĠ lÃ¡iĠ
fÄģĠxiÃłn ĠyÃºĠ
gÄĵĠlÃºnĠ bÇĲĠyÃł
Ġ1950 ĠniÃ¡nĠ
Ġ yÃº
Ġ tÇĶ
Ġ biÄģoĠzhÇĶnĠ
Ġ shÃŃĠniÃ¡nĠ
Ġ 1982ĠniÃ¡nĠ
ĠĠĠ yÄ«ngĠ
le ĠyuÃ¡nĠ
mÇİ ĠqÃŃĠ
liÃ¡ng ĠdeĠ
gÃło ĠzhÄ«Ġ
Î± Ġ
1904 ĠniÃ¡nĠ
ĠdÃłĠ zhÃłnĠ
fÄģĠ dÃ²ng
sÄģnĠ jiÇİoĠ
ĠguÃ³ĠjiÄģ ĠgÅįngĠyuÃ¡nĠ
hÃºĠnÃ¡nĠ shÄĽngĠ
ĠdeĠfÃ¹Ġ qÄ«nĠ
lÇļĠkÃ¨Ġ tiÄĽĠdÃłoĠ
ÄģĠgÄĵnĠ tÃŃngĠ
Ġ shÄĵn
Ġ 1992
shÃ¨ ĠyÃºĠ
shÄĵng ĠbÃ¹Ġ
tÃ³ng ĠxuÃ©Ġ
bÅį ĠyÄ«nĠ
luÃ² ĠhÃ²uĠ
lÇļ ĠyÃ³u
1910 ĠniÃ¡nĠ
ĠdÃ¬Ġ xÃŃngĠ
ĠrÃ©nĠ shÃ²uĠshÄģngĠ
ĠÃ©r ĠyuÃ¡nĠ
zhÃ¨Ġ yÃłngĠ
tiÄģnĠ huÃ¡ng
xiÃłoĠ guÇĴ
biÃłnĠ huÃł
miÇİnĠ fÃ¨i
pÃ©iĠ yÇİngĠ
wÇİnĠ jiÄģnĠ
Ġ xiÃ³ng
Ġ zhÄģ
Ġ xiÃ©ĠzhÃ¹Ġ
ĠĠĠ jiÃłoĠyÃ¹Ġ
mÃŃng ĠzÃłiĠ
guÄģng ĠdeĠ
zÄĵng ĠzhÃ¬Ġ
ĠshÃŃĠ xÃŃng
ĠjÃŃĠ jÃ¹Ġ
ĠjÃ¬Ġ hÃ²uĠ
ĠsÄ«Ġ fÇİ
ĠÃ©r ĠyÇĲĠ
ĠjiÃłnĠ duÃ¬
ĠjÅ«nĠ zhÇĶĠ
zhÇİngĠ wÃ²
kÄĵĠ huÃłnĠ
nÃłĠ yÃłngĠ
xiÇİngĠ yÃ¬ngĠ
xiÃ©Ġ huÃ¬
ĠzuÃ¬Ġ zhÅįngĠzÃłiĠ
diÄģoĠ sÃ¹Ġ
Ġ pÃłnĠ
ĠĠĠ pÇĶĠ
dÄģng ĠrÃ¬Ġ
nÃł ĠxÄ«Ġ
hÄģ ĠdÃ©Ġ
yÇĶĠ yÃ¡n
xÄ«Ġ zÃłngĠ
ĠbÃ¨iĠ kÃ¨Ġ
ĠdÃłn ĠwÃ¨iĠ
zuÃ¬Ġ dÄ«Ġ
chÃ¡ngĠ guÄ«Ġ
ĠxiÃłnĠdeĠ fÄĵiĠjiÃłnĠzhÃ¬ĠdÃ¬ĠqÅ«Ġ
jÇĶĠxÃŃngĠ leĠ
Ġ sÅįng
Ġ 90
Ġ 1993
Ġ yÄ«ĠniÃ¡nĠ
Ġ XĠ
hÃ¡ng ĠxÃŃngĠ
ĠguÃ³Ġ zhÅįngĠ
ĠdÃłĠ dÃłĠ
fÃ¹Ġ nÇļĠ
fÄģĠ huÄ«Ġ
ĠzhÃłnĠ lÇĲng
huÇĴĠ zÄģiĠ
huÃłnĠ xiÇİngĠ
ĠshÃ¬ĠwÃ¨iĠyÃºĠ wÅ«ĠkÃ¨ĠlÃ¡nĠ
ĠchÃ¡oĠ xiÄģn
ĠĠĠ a
ĠĠĠ jÃ¬nĠ
ĠshÃŃĠ jiÃłnĠ
jÃ¬Ġ zhÄĽĠ
rÃ¨nĠ kÄĽĠ
jiÃłoĠ tÃºĠ
zhÃ¹Ġ mÃŃng
ĠjÅ«nĠ duÃ¬
zhÇĲĠ nÃ©ng
dÄĽngĠ dÃłiĠ
bÇİoĠ ÄģnĠ
zhÇĴngĠ zÃº
gÇĶĠ dÅįngĠ
yuÄĵĠ 1
Ã¨rĠ bÇİiĠ
ĠgÄģiĠ zhuÄģngĠ
chÃ©nĠ mÃ²Ġ
ĠnÇļĠ zÇĲĠ
jiÄģĠrÃ¹ ĠzhÅįngĠguÃ³ĠgÃ²ngĠchÇİnĠdÇİngĠ
Ġ shÄģn
Ġ diÃło
Ġ yÃłĠzhÅįuĠ
ĠĠĠ mÄĽiĠ
zhÅįng ĠniÃ¡nĠ
guÃ³ ĠwÃ¨iĠ
qiÄģn ĠzhÃ¨ngĠ
shÅįu ĠfÃ¹Ġ
gÃ¨ng ĠdÃłĠ
ĠshÃ¬Ġ cÃ³ngĠ
shÃŃĠ qÄ«
ĠyÇĴuĠ liÇİngĠgÃ¨Ġ
guÄģnĠ diÇİn
ĠzhÃłnĠ jÃ¹Ġ
fÄĵnĠ lÃ¡n
shÄ«Ġ zhÇİngĠ
ĠbÄĽnĠ piÃłn
Ġ 65
Ġ hÇİiĠjÅ«nĠ
Ġ qÇĶĠdÃłiĠ
qÇĲ ĠshÃ¬Ġ
th Ġ
ing ĠĠĠ
son Ġ
ĠdeĠ Ã©rĠziĠ
xiÃłngĠ bÄĽiĠ
tÃ¨Ġ sÃ¨
ĠwÃ©iĠ qÄ«Ġ
bÄĽiĠ mÄĽiĠ
ĠshÃłngĠ zhÃ¨nĠ
tiÄģnĠ zhÇĶĠjiÃło
yÃŃĠgÃ¨ ĠrÃ©nĠ
cÃºnĠ chÇĶĠ
ÄģĠjÄ«Ġ tÇİn
Ġ zhÇİnĠ
liÃ¹ ĠyuÃ¨Ġ
ter Ġ
ĠzÃłiĠ jÄ«nĠ
xuÃ©Ġ zhÄĽ
rÃ¨nĠ qÄ«Ġ
dÃłiĠ lÇĲng
ĠqÃŃĠ ziĠ
tÃ¡iĠ nÃ¡nĠ
fÅ«Ġ lÄĵiĠ
dÃºĠ zhÄĽĠ
zhÃłngĠ fÅ«
Ġ gÅ«Ġ
15 ĠniÃ¡nĠ
hÄĽn ĠyÇĴuĠ
shÄĵngĠ mÃ¬ng
qÄ«Ġ tÃºĠxÃŃngĠ
yÇİnĠ jÄ«ngĠ
ĠguÃ²Ġ qÃ¹Ġ
guÃ³ĠdeĠ tÃ¨ĠyÇĴuĠ
ĠwÇĶ ĠyuÃ¨Ġ
ĠjiÇİngĠ shÃ¹Ġ
jiÄĵĠshÃ²u ĠleĠ
ĠzhÃłnĠdÃ²u ĠjÄ«Ġ
bÄģnĠjiÇİngĠ diÇİnĠlÇĲĠ
Ġ sÄģi
Ġ bÇĲĠdÃ©Ġ
Ġ 1978ĠniÃ¡nĠ
ĠĠĠ f
jiÄģ ĠjÃŃĠ
dÃ© ĠyÇĲĠ
huÃł ĠgÅįngĠ
pÇĶ ĠlÇĲĠ
fÃłng ĠzhÃ¬Ġ
fÃłng ĠshÃ¨Ġ
gÄģn ĠyÃ¹Ġ
ĠshÃ¬Ġ yÃ²ngĠ
ĠjiÄģĠ sÃ¹Ġ
ĠÄĽrĠ fÅ«
tÃŃngĠ kÃłoĠ
xÃ¬ĠtÇĴng ĠzhÅįngĠ
liÃ¨ĠchÄĵ ĠdeĠ
qÅ«ĠyÃ¬ĠhuÃ¬Ġ xuÇİnĠjÇĶĠ
ĠyÇĶĠmÃ¡o ĠqiÃº
Ġ zi
cÄģn ĠzhÃ¨ngĠ
xÅ« ĠqiÃº
cÇİo ĠyuÃ¡nĠ
ve Ġ
ĠbÃ¹Ġ liÃ¨Ġ
ĠgÃ¨Ġ dÃ¬ĠdeĠ
luÃ²Ġ bÃłiĠ
xiÃ©Ġ zhÃ¹
ĠniÃ¡nĠ10ĠyuÃ¨Ġ 1ĠrÃ¬Ġ
xuÃ¡nĠ zhuÇİnĠ
Ġ tÃ©ngĠ
sÄ« ĠyÃºĠ
diÃłn ĠyuÃ¡nĠ
liÃº ĠchÃ©ngĠ
cÃ©ng ĠyÇĶĠ
yÃ¡ng ĠzhÅįuĠ
nÃ³ng ĠdÃ¹Ġ
hÃ¡o ĠwÃºĠ
colspan Ġ
ĠchÃ©ngĠ rÃ¨n
ĠzhÄ«Ġ duÃ¬Ġ
jiÄģnĠ dÅ«
rÃ¹Ġ yÃ¹Ġ
jiÄģoĠ huÃłn
fÃ¡ngĠ shÇĴuĠ
ĠdeĠshÃ¬Ġ jiÃłnĠ
dÇİĠ kÄģiĠ
ĠgÄģi ĠdÃ¬Ġ
mÃ¨ngĠjiÄģĠ lÄģĠ
ĠĠĠ shÃ¨ĠjÃ¬Ġ
guÄģn ĠhÃ©Ġ
fÄĵn ĠjÃŃĠ
liÃº ĠshÃ¬Ġ
shÄĽng ĠrÃ©nĠmÃŃnĠzhÃ¨ngĠfÇĶĠ
lÄĵi ĠdeĠ
ĠhÃ©Ġ jiÄģĠ
mÃŃngĠ chÄĵng
ĠÃ©rĠ zhÃ¨Ġ
suÇĴĠ zhÇİngĠ
gÃ©Ġ lÃŃnĠ
zuÃ¬Ġ hÇİoĠdeĠ
ĠshÄĵngĠ rÃ¨nĠ
jiÇİnĠ chÄĵngĠ
ĠyÄĽĠ chÄĵngĠ
xÃºnĠ zhÇİoĠ
pÃ¨iĠ juÃ©Ġ
dÃłnĠ bÃ¡iĠ
dÇĴngĠshÃ¬Ġ huÃ¬Ġ
Ġ zÃłnĠ
Ġ 20ĠshÃ¬ĠjÃ¬Ġ
chÅ« ĠxiÃłnĠzÃłiĠ
shuÇĲ ĠshÃłngĠ
xiÄĽ ĠchÃ©ngĠ
ĠzhÅįngĠ yÃ¬Ġ
ĠyÃºĠ 2011
ĠdÃ© ĠyÃ¬ĠzhÃ¬Ġ
zhÇĶĠ chÇİng
shÄģnĠ hÃºĠ
tiÄģnĠ shÇĲĠ
miÃłnĠ qiÃ¡nĠ
biÄģnĠ qÅ«Ġ
qiÃ¡ngĠ liÃ¨ĠdeĠ
ĠzuÃ¬Ġ hÃ²uĠyÄ«Ġ
ĠjÇĲnĠ biÄģoĠ
zhÇĶĠjiÃłoĠ zuÃ²Ġ
ĠfÇĴu ĠzÃ©Ġ
Ġ lÄģ
Ġ xiÅ«
Ġ 1980
Ġ De
ĠĠĠ 2000
ĠĠĠ Mo
ĠĠĠ shÇĲĠ
xiÃłng ĠhÃ©Ġ
shÄģ ĠshÃ¬Ġ
wÄĵi ĠdeĠ
pÃłi ĠrÃ©nĠ
1915 ĠniÃ¡nĠ
ĠyuÃ¨Ġ nÃ¡n
ĠzhÃ¬Ġ cÇĲĠ
dÃ¹Ġ guÃ²Ġ
ĠtÃ³ng ĠwÃ¨iĠ
ĠzhÃ¨Ġ chÇİngĠ
gÇĶĠ fÃ¨nĠ
fÄģĠxÃŃngĠ leĠ
kÇĴngĠ lÃ³ngĠ
ĠfÄĵiĠ chÃ¡ngĠ
ĠhuÃ²ĠdÃ© ĠdÃ¬Ġ
fÄģĠxiÃłnĠleĠ cÇĲĠtiÄģnĠtÇĲĠ
fÇİĠlÃ¡nĠxÄ« ĠdÃłĠqÅ«Ġ
4 ĠmÃŃngĠ
Ġ xÃ¬n
Ġ dÇĲĠ
jÄ« ĠxÃŃngĠ
xiÃł ĠyÃ¬Ġ
suÇĴ ĠbÃ¹Ġ
jiÇĶ ĠyuÃ¨Ġ
quÃ¨ ĠshÃŃĠ
ĠyÇĶĠ xÄ«nĠ
xÄ«nĠ qÅ«Ġ
ĠwÃ©iĠ fÇİnĠ
ĠjÃ¬n ĠniÃ¡nĠ
ĠzhÃ¨Ġ cÃ¬
yÃŃĠ qÃ¬Ġ
tÃŃĠ ÃłnĠ
ĠdeĠgÅįngĠ jÄ«Ġ
ĠgÃ©Ġ lÃ¡nĠ
zÅįngĠyÃ¬Ġ jiÃ©ĠmÃ¹Ġ
jÃ¬ngĠwÃłiĠ shÅ«ĠrÃ¹Ġ
Ġ La
yÄĽ ĠbÃ¹Ġ
gÇĶ ĠchÃ©ngĠ
fÃ¨i ĠÄĽrĠ
zhÅ« ĠshÃ¬ĠhuÃ¬Ġ
yÃ© ĠlÃ¹Ġ
ĠshÃ¬Ġ pÃŃn
ĠchÃ©ngĠ xiÃłngĠ
ĠrÃ¬ ĠshÃŃĠ
ĠdÃłoĠ fÅ«Ġ
fÃ¹Ġ xÄ«ng
Ġ Ã¨
Ġ zhÃº
Ġ jÇĶĠ
bÃ¨i ĠyÄ«Ġ
xÄ«n ĠjÄ«Ġ
shÄ« ĠxÃŃngĠ
yuÄĵ ĠdeĠ
yÃŃng ĠdÃ©
xiÃ¡ ĠshÃ¬Ġ
kÅ«n ĠmÃŃngĠ
ĠchÃ©ngĠ dÄģnĠ
ĠÃ©r ĠdÃ©ĠmÃŃngĠ
wÃ¹Ġ zÄ«Ġ
kÄģiĠ yÃ¨Ġ
tÅįngĠ chÃ¡ngĠshÃ¬Ġ
luÃ³Ġ xuÃ¡nĠ
xÃ¬nĠ yÃ²ngĠ
huÇĴĠ pÃłoĠ
ĠwÃ©nĠ xuÃ©Ġ
ĠliÃ¡nĠ xÃ¹Ġ
chÃ¨Ġ tuÃ¬
ĠshÃŃĠjiÄģn ĠwÃ¨iĠ
huÃ³ĠyuÃ¨Ġ yÃºĠ
tÇİĠnÃŃ ĠdÃłĠqÅ«Ġ
Ġ 1980ĠniÃ¡nĠ
zhÅįu ĠwÃ©iĠ
ĠyÄ«Ġ cÃŃ
ĠjiÄģĠ ÄĽrĠ
yÃ³uĠ kÃ¨Ġ
ĠxÄ«Ġ bÄĽiĠbÃ¹Ġ
zhÇĶĠ tÇĲĠ
ĠzhÃ¨Ġ shÇĲĠdeĠ
shÃ¨Ġ jÃ¬ĠdeĠ
gÄĵnĠ suÃŃ
Ġ wÇİng
Ġ qÃŃngĠ
Ġ hÃ¡iĠshÃ¬Ġ
yÇĶ ĠrÃ©nĠ
chÇİn ĠdeĠ
lÇľ ĠbÃ¹Ġ
dÄ«ng ĠmÃ¹Ġ
dÃłĠ huÃ¬Ġ
ĠzhÄ«Ġ lÃ¹Ġ
ĠhuÃ¬Ġ dÇİoĠzhÃ¬Ġ
kÄģiĠ pÃ¬
tiÄģnĠ xiÃłĠ
ÄģnĠ dÅįngĠnÃŃĠ
ĠjiÃ©Ġ mÃ¹
nÃ³ngĠ cÅ«n
liÃ¡nĠsÃłiĠ guÃłnĠjÅ«nĠ
ĠwÃº ĠxiÃłnĠ
ĠbÄĽiĠqÇĲĠ shÃ¹nĠshÃŃĠzhÄĵnĠyÇĶĠ
Ġ nÃ¨iĠbÃ¹Ġ
zhÃ¨ng ĠsÄ«Ġ
dÃ© ĠzhÄ«Ġ
bÄĽi ĠpÃŃngĠ
wÇĶ ĠgÅįngĠ
jiÃ¨ ĠxiÃłnĠ
shÃ©n ĠshÃ¨Ġ
yÇĲn ĠjÃ¬nĠ
1908 ĠniÃ¡nĠ
xiÃłngĠ dÅįngĠ
shÅ«Ġ xiÄĽĠ
ĠgÄģiĠ piÃłn
xuÃ¨Ġ yÃ¨Ġ
ĠdÃł ĠwÃ¨iĠ
xÃºnĠhuÃŃĠ sÃłiĠ
Ġ 1991
Ġ 22Ġ
le ĠdÃ¬ĠyÄ«Ġ
shÃłng ĠjÃŃĠ
huÃł ĠchÃ©ngĠ
tÃ³ng ĠshÃ¬Ġ
yÃ¹n ĠhuÃ¬Ġ
1906 ĠniÃ¡nĠ
ĠzÃłiĠ nÃłĠlÇĲĠ
lÃ¬Ġ liÃłngĠ
ĠmÃŃngĠ quÃ¨Ġ
xiÃłĠ xÃºnĠ
ĠjÃ¬n ĠleĠ
gÃ©Ġ luÃ³Ġ
lÃŃĠ hÅ«nĠ
ĠyÇĲnĠ qÇĲĠ
bÄģĠfÃ¡ ĠlÃ¬ĠyÃł
Ġ cuÄ«
Ġ 59
Ġ chÇĲĠ
zhuÇİn ĠhuÃ¬Ġ
ĠzÃłiĠ dÄģngĠdÃ¬Ġ
ĠchÅ«Ġ zÃ¬Ġ
wÃłiĠ jiÃ¨Ġ
jiÄģoĠ qÅ«Ġ
yÃ¬ngĠ yÃ²ngĠyÃºĠ
jiÇĶĠ diÃłn
huÃ²Ġ bÃ¬Ġ
zhÃłoĠ gÃ¹Ġ
xÇĶĠ kÄĽ
ĠzhÃŃ ĠdeĠ
chÄģoĠ guÃ²
kÄĽĠyÇĲ ĠshÃ¬Ġ
dÄģĠ pÃ¨iĠ
yÃ©ĠlÃ¹Ġ sÄģĠ
Ġ 26
wÃ©i ĠlÃ¬Ġ
zhÇĶ ĠrÃ©nĠ
yÇİn ĠleĠ
yÃ²u ĠbÃ¨iĠ
or ĠĠĠ
cÇİo ĠdÃ¬Ġ
ĠbÃ¹Ġ lÃ¡nĠ
ĠxÃŃng ĠzhÅįngĠ
jÄ«nĠ pÃ¡i
Ã¨rĠ yÇİngĠhuÃłĠ
chuÃ¡nĠ shÅ«Ġ
hÃ¡ngĠ tiÄģn
mÃ³Ġ nÇĲĠ
huÃ²Ġ yÃ¹nĠ
ĠyÃ¡nĠ zhÃ²ngĠ
ĠgÄĵĠ shÇĴuĠ
tÃŃngĠchÄĵĠ chÇİngĠ
Ġ aĠ
yÇĶ ĠjÃŃĠ
nÃ¨i ĠshÃ¨ĠyÇĴuĠ
zhÃ¨n ĠxiÃłnĠ
yÄģ ĠzhÃ¬Ġ
ĠzÃłiĠ hÃ²uĠ
ĠshÃŃĠ qÃ¬
ĠrÃ©nĠ sÇĲĠwÃ¡ngĠ
ĠlÇĲĠ ÃłoĠ
zÇĴngĠ dÅ«
jiÄĽĠ chÃºĠ
ĠliÃ¡nĠ bÄģngĠ
yÅįuĠ xiÄģnĠ
ĠshÇĲ ĠqÃŃĠ
ĠyÃ¬Ġsi ĠshÃ¬Ġ
Ġ nÃ¬
Ġ bÄģoĠhÃ¡n
jiÄģng ĠwÃ©iĠwÃºĠÄĽrĠ
shÄ« ĠshÃ¬Ġ
wÇĶ ĠlÃ¬Ġ
hÃłn ĠdeĠ
kuÃłi ĠjÃ¬Ġ
shÃłngĠ fÇİĠlÃ¡nĠxÄ«ĠdÃłĠqÅ«Ġ
ĠxÄ«Ġ nÃ¡nĠbÃ¹Ġ
nÃ¡nĠ fÄĵiĠ
ĠshÃ¨ ĠxiÃłnĠ
ĠjiÃłnĠ leĠ
ĠbÃ¬ngĠ duÃ¬Ġ
qÇĲĠ tÃºĠ
wÃ¡ngĠ guÃ³ĠdeĠ
Ġ ruÇİnĠ
Äģn ĠzhÃ¬Ġ
ĠĠĠ yÇĲngĠxiÇİngĠ
guÄģn ĠzhÃ¬Ġ
Ã¨r ĠmÃŃngĠ
bÇİo ĠshÃŃĠ
chÃ©n ĠjÄ«Ġ
tÃ²u ĠmÃŃngĠ
ĠshÃŃĠ biÇİoĠshÃ¬Ġ
ĠyÃºĠ yÄ«Ġ
shÄĵngĠ wÃ¹
ĠkÃ¨ ĠrÃ©nĠ
zhÃŃĠ dÇİoĠdeĠ
cÇĲĠ cÃ¬Ġ
lÄģĠ fÅ«Ġ
tiÄģnĠ zhÇĶĠ
ÃłiĠ shÄģĠ
dÃłnĠ bÃ¡iĠzhÃ¬Ġ
kÃ²ngĠ gÇĶ
zhÃŃĠyÃ¨Ġ shÄĵngĠyÃ¡
wÄĽnĠ dÃ¬ng
ĠĠĠwÃ¨iĠ yÃºĠ
ĠwÇĴ ĠdeĠ
shÄĵng ĠrÃ¬Ġ
jiÃ¨ ĠyÃ³uĠ
xÃ¹ ĠshÃ¬Ġ
liÃłng ĠhÃ©Ġ
ĠzhÅįngĠ jÃŃĠ
yÇĴuĠ yÃ¬Ġ
ĠgÅįngĠ shÄģngĠ
guÄģnĠ shÇİng
ĠjiÃłnĠ lÃ¬ĠdeĠ
ĠdÃłn ĠyÄ«nĠwÃ¨iĠ
gÄģoĠ shÄģnĠ
ĠyÃ³uĠ kÃ¨Ġ
ĠdÃłnĠ shuÇĲĠ
jiÇİnĠ dÄģn
zÇĶĠ zhÇĲ
ĠdÃłĠxuÃ©Ġ jiÃłoĠshÃ²uĠ
ĠgÄģi ĠgÅįngĠsÄ«Ġ
tÅįngĠguÃ² ĠleĠ
ĠbÄĽn ĠmÃŃngĠ
ĠgÅįngĠzuÃ² ĠrÃ©nĠyuÃ¡nĠ
ĠK Ġ
Ġ qiÄģngĠ
ĠĠĠ 2004
ĠĠĠ 1949
tÇĲ ĠhÃ©Ġ
tÃŃ ĠshÃ¬Ġ
tÃº ĠÄĽrĠ
gÇİi ĠzhÃ¬Ġ
1900 ĠniÃ¡nĠ
1907 ĠniÃ¡nĠ
ĠdeĠ yÄ«nĠyuÃ¨Ġ
ĠhÃ©Ġ shuÇĲĠ
ĠshÃŃĠ yÃ¬Ġ
ĠjÃŃĠ yÃºĠ
ĠjÃŃĠ yÇĶĠ
ĠlÃ¬Ġ chÃ©ngĠ
ĠjiÃłn ĠguÃ³Ġ
qÄ«Ġ xÄ«ĠdÃ¬Ġ
hÇİiĠ guÄģnĠ
nÇļĠ shÃ©nĠ
zÃºĠ xiÃ©
zÄĵngĠ jiÄģ
xiÇİoĠshÃŃĠ hÃ²uĠ
ĠhuÃłĠ xuÃ©
ĠsÃ¬ ĠyuÃ¨Ġ
ĠhÃ©ĠbÄĽiĠ shÄĽngĠ
ĠzhÃ¹ ĠyÇĴuĠ
9 ĠshÃŃĠ
Ġ ÇĴu
Ġ tÃ¡n
Ġ 36
yÇĶ ĠzÃłiĠ
fÇĶ ĠdeĠ
ĠwÃ¨iĠ tÄģĠ
ĠdÃło ĠzÃłiĠ
ĠjÃ¬Ġ gÅįngĠ
ĠjÃ¬n ĠpÃŃngĠ
tÃłiĠ kÅįng
jiÇİnĠ huÃłĠ
zÃºĠ zÃ¬ĠzhÃ¬ĠqÅ«Ġ
Ã©Ġ wÃłiĠ
jÅ«Ġ liÃºĠ
fÃłngĠ sÃ²ngĠ
chÃ¨Ġ lÃŃĠ
ĠgÄĵĠ qÇĶ
ĠÃ¨r ĠrÃ©nĠ
yuÃ¡n ĠzhÃ¬Ġ
shÄĵng ĠyuÃ¡nĠ
yuÃłn ĠyÃ¬ĠyuÃ¡nĠ
bÄ«n ĠxÄ«ĠfÇİĠ
ĠhÃ©Ġ pÃŃng
ĠtÄģ ĠyÃ¬Ġ
ĠjÃ¬Ġ shÃ¹ĠdeĠ
ĠxÄ«Ġ bÄĽi
gÄģngĠ qÃŃnĠ
xuÃ¨Ġ tÇĴngĠ
ĠĠĠ shuÇĲĠ
le ĠshÃŃĠ
yÃ¹ ĠzhÅįngĠ
fÃ¹ ĠchÅ«Ġ
fÇİn ĠshÃ¨Ġ
biÃ© ĠmÃŃngĠ
guÄģng ĠxuÃ©Ġ
yÃłn ĠzhÃ¨ngĠ
ĠzÃłiĠ yuÃ¨Ġ
ĠguÃ³Ġ jÅ«n
ĠyÄ«Ġ duÃłnĠ
ĠyÇĲĠ qÃŃĠ
ĠyÇĶĠ yÃ¡nĠdeĠ
xiÃłĠ wÄĵiĠ
zhÃŃĠ zÃ©Ġ
zhÃ²ngĠ shÄģngĠ
yÃŃĠ chuÃ¡nĠ
lÇĲngĠ xiÃ¡n
ĠgÄģiĠ wÃ¹ĠzhÇĴngĠdeĠ
Ġ000 ĠmÃŃngĠ
mÃ³ĠshÃ¬Ġ chÇİnĠ
yuÃ¨ĠzhÅįngĠ xÃºnĠ
hÃ¡ngĠkÅįngĠmÇĶ ĠjiÃłnĠ
Ġ xÄ«nĠdeĠ
Ġ mÃŃnĠzhÇĶĠ
ĠĠĠ xÃŃngĠ
zhÃ²ng ĠrÃ©nĠ
60 Ġ
as ĠĠĠ
ĠchÃ©ngĠ jÃŃĠ
ĠxÄ«Ġ zÃłng
ĠdÅįngĠ fÄģngĠ
pÃłnĠ duÃłnĠ
ĠzhÅįngĠyÄģng ĠjÅ«nĠ
liÃłnĠ xÃŃĠ
dÅįngĠbÃ¹Ġ dÃłĠqÅ«Ġ
ĠgÅįngĠsÄ« ĠzÃłiĠ
ĠbÄģ ĠyuÃ¨Ġ
ĠchÅ«ĠbÇİn ĠshÃ¨Ġ
ĠHR ĠĠĠ
Ġ yÇĲngĠ
ĠĠĠ 2003
yÃ¡n ĠxiÃłnĠ
ĠshÃ¬Ġ wÅ«ĠkÃ¨ĠlÃ¡nĠ
ĠgÅįngĠ Äģn
ĠdÃłnĠ rÃ©ng
chÅ«Ġ kÇĴuĠ
ĠmÄĽi ĠrÃ¬Ġ
biÄģoĠzhÇĶn ĠdeĠ
Ġ tiÄĽ
Ġ pÃºĠ
ĠĠĠ gÃ¨
ĠĠĠ Ch
yÃ¹ ĠhÃ©Ġ
jÇĲ ĠgÃ¨
cÇĲ ĠzhÃłnĠ
liÇİng ĠbÃ¹Ġ
sÄĵn ĠdeĠ
piÄģn ĠxiÇİoĠshuÅįĠ
lÃłng ĠmÃłnĠ
ĠniÃ¡nĠ dÃ¹
ĠzhÅįngĠ shÃŃĠ
ĠguÃ³Ġ jÃŃĠ
ĠzhÄ« ĠhÃ©Ġ
jÃ¹Ġ bÃ¨iĠ
lÃ³ngĠ kÄĵĠ
ĠdeĠyÄ«Ġ tiÃ¡o
hÄĽnĠ kuÃłi
ĠdeĠbÃ¹Ġ fÃ¨n
chÇĶĠlÇĲĠ qÃ¬Ġ
kÄĽnĠ dÃ¬ngĠ
ĠĠĠ huÃ²
gÃ© ĠhÃ©Ġ
tÃłi ĠyuÃ¡nĠ
wÃº ĠyÃ¬Ġ
ĠwÃ¨iĠ zhÄ«Ġ
zhÇĲĠ zÃ©Ġ
tÇĲĠ xÃ¬
gÇĶĠ diÇİn
gÄĵĠ chÃłng
wÄĵiĠ nÃŃĠsÄ«Ġ
dÄģngĠ jÃº
ĠqÄ« ĠyuÃ¨Ġ
Ġ liÃ¡oĠ
Ãło ĠdÃ¬Ġ
gÃ¹ ĠyÃ¬Ġ
zhÄĵn ĠjÅ«nĠ
shÄĽn ĠlÇĲĠ
pÅ« ĠshÃ¨Ġ
ĠdeĠ qÃŃngĠkuÃłngĠ
ĠhÃ©Ġ mÄĽiĠguÃ³Ġ
ĠyÇĴuĠ zhÃ¹ĠyÃºĠ
wÃ©iĠ kÃ¨Ġ
mÃŃngĠ nÃŃĠsÅ«Ġ
ĠÄĽr ĠdÃ¬Ġ
ĠtÄģĠ biÇİoĠshÃ¬Ġ
zhÃ¨Ġ cÃ¬Ġ
zhÃŃĠ lÃ¹
wÅ«Ġ lÇĶĠ
ĠjÄ«ngĠ chÃ¡ng
yÃ¡Ġ chÇĲĠ
ĠbÃ¹ĠjiÇĶ ĠhÃ²uĠ
ĠwÃ¨iĠyÃºĠgÄģiĠ shÄĽngĠ
Ġ rÃ¹
hÃ²u ĠchÃ©ngĠwÃ©iĠ
wÇĶ ĠdeĠ
yÃ¬Ġ yuÃ¡nĠ
ĠjÅ«n ĠjÃŃĠ
ĠjÅ«n ĠbÃ¨iĠ
ĠkÃ¨ ĠshÃ¬Ġ
xiÃłngĠ nÃ¡nĠ
bÄĽiĠ cÃ¨Ġ
ĠjÃ¹Ġ lÃ¨Ġ
yÃłĠ kÄĵĠ
hÃ³ngĠ shuÇĲĠ
wÃ¡nĠ chÃ©ngĠdeĠ
bÃłiĠzhÃłnĠ tÃŃng
Ġ 1985
shÄĵng ĠyÃ¬Ġ
xÃ¬ng ĠyÇĶĠ
zÃ© ĠÄĽrĠ
lÃ¡n ĠzhÅįuĠ
huÃ¡n ĠyuÃ¡nĠ
gÃło ĠzhÅįngĠ
suÄģn ĠyÃ¡nĠ
dÃłĠ yuÄĵĠ
ĠguÃ³Ġ gÃ²ngĠ
ĠguÃ³Ġ fÃ¡ngĠ
ĠyÃ¬Ġ qÃŃng
ĠqÃŃ ĠyÃ¬Ġ
pÃŃngĠ gÅ«Ġ
suÇĴĠ shÇĶĠ
yÄ«ngĠ wÇĶĠ
qÇĶĠ dÃłi
yÄ«nĠ cÇĲ
ĠdeĠmÃŃngĠ chÄĵngĠ
luÃ³ĠdÃ¬Ġ yÃłĠ
liÃ¡oĠnÃŃngĠ shÄĽngĠ
Ġ bÃ³ĠshÃ¬Ġ
qÅ« ĠyÃ¬ĠyuÃ¡nĠ
jiÄĵ ĠlÃ¬Ġ
zÇĶ ĠwÃ¨iĠ
jiÇĶ ĠmÃŃngĠ
ĠdÃ¬Ġ liÃ¹
ĠyÇĲ ĠchÃ©ngĠwÃ©iĠ
kÄĽĠ kÃło
huÇĴĠ xÄ«ngĠ
ĠrÃºĠ cÇĲĠ
ĠzhÃŃĠ wÃ¹Ġ
Ġ xiÄģo
ĠĠĠ 2ĠyuÃ¨Ġ
ĠĠĠ 2003ĠniÃ¡nĠ
yÃ²ng ĠyÇĲĠ
fÇİ ĠzhÅįngĠ
wÇĶ ĠwÃ¨iĠ
lÃ³u ĠdeĠ
ĠshÃŃĠ huÃ¬Ġ
ĠrÃ©nĠ bÃ¹Ġ
ĠÄĽr ĠkÃ¨Ġ
ĠjiÄģĠ qiÃ¡ng
ĠchÅ«Ġ sÃłiĠ
jiÄĵĠ shÅįu
chÄĵngĠ hÅ«
cÃ¨Ġ lÃ¼Ã¨
jÇĲĠ zhuÄ«
ĠshÃ¹Ġ jÃ¹Ġ
xuÃ©ĠyuÃłn ĠdeĠ
zhÇĲĠhuÄ« ĠbÃ¹Ġ
Ġ shÃłn
Ġ mÃ¨ng
Ġ 64
Ġ Co
Ġ kÃłnĠ
mÃŃng ĠzhÅįngĠ
duÃ¬ ĠtÄģĠdeĠ
dÃ²ng ĠshÃ¬Ġ
zuÃ¬ ĠxÃŃngĠ
fÃłn ĠdeĠ
mÃ©ng ĠdÃ©Ġ
gÄĽi ĠshÃ¬ĠzhÅįngĠ
zÅ«n ĠzhÃ²ngĠ
chÃ©ngĠ dÃ¹Ġ
ĠjÃŃĠ zhÃ¬Ġ
sÄ«Ġ tÃ¨Ġ
xiÃłĠ tiÄģnĠ
jiÄģnĠ chÃŃ
ĠtÃ³ng ĠyuÃ¨Ġ
dÃ¡Ġ nÃŃ
chÃ³ngĠ zÇĶĠ
ĠshÃ¬ĠshÃ¬Ġ jiÃ¨Ġ
ĠmÇİ ĠÄĽrĠ
ĠfÄģĠ biÇİoĠ
ĠyÃ²ng ĠyÇĲĠ
Ġ zhÃ¨n
Ġ 1995
ĠĠĠ jiÄģngĠ
yÃ¡ng ĠdeĠ
yÅįng ĠzhÃ¨ngĠ
begin Ġ
ĠdÃłĠ gÃ©ĠmÃ¬ngĠ
shÃłngĠ shÄĵngĠ
ĠzhÄ«Ġ qiÃºĠduÃ¬Ġ
xiÄģngĠ xÃ¬n
hÇİiĠ xiÃ¡
ĠduÅįĠ shÃ¹Ġ
yÇĲĠ qiÃ¡nĠ
fÄĵnĠbiÃ© ĠshÃ¬Ġ
fÄģĠdiÃłnĠ chÇİngĠ
8 ĠshÃŃĠ
Ġ 1989
Ġ Al
Ġ fÃ¨nĠ
ĠĠĠ cÃ³ng
ĠĠĠ 1ĠyuÃ¨Ġ
zhÃ¹ ĠshÃ¬Ġ
duÅį ĠlÃ¬ĠyÃł
kÄģi ĠxÃŃngĠ
lÃº ĠxÃŃngĠmÃ¹Ġ
yuÃ¡nĠ yÄ«nĠ
ĠsÄ«Ġ xiÇİng
xÄ«nĠ zÄĵngĠ
xiÄģngĠ hÃ¹
nÃ¡nĠ zhÇĶĠjuÃ©Ġ
kÄģiĠ bÃłnĠ
mÃŃnĠ zhÃ¨ngĠ
kÇĴuĠ hÃłoĠ
ĠjÃ¹Ġ chÇİngĠ
chÄĵĠ shÇĴuĠ
tÃŃĠ jiÄģoĠ
zÃºĠ gÃ²uĠ
ĠdeĠyÄ«Ġ xiÄĵ
ĠdeĠchÃ©ngĠ gÅįngĠ
duÃ³Ġ qÇĶĠ
Ġ 48
ĠĠĠ lÃ¬ng
ĠĠĠ Se
yÃ¹ ĠshÃ¬Ġ
fÇİ ĠzhÃ¬Ġ
lÃŃn ĠjÃ¬n
zhÅ« ĠduÅįĠ
wÄĵn ĠquÃ¡nĠ
38 Ġ
ĠdeĠ guÄģnĠxÃ¬Ġ
ĠdeĠ shuÅįĠfÇİĠ
yÄ«Ġ mÃŃngĠ
jiÄģĠ zÃºĠ
ĠrÃ¬ ĠyuÃ¡nĠ
xÄ«nĠ zÄĵng
ĠdÃ©Ġ lÃ¡nĠ
bÄĽnĠ shÄĵn
mÃ¬Ġ qiÃ¨Ġ
ĠbÃ¹ĠtÃ³ng ĠyÃºĠ
ĠjiÃ© ĠhÃ©Ġ
bÄģĠshÃ¬Ġ lÃ¹ĠxiÃłnĠ
ĠgÄĵĠ lÃºnĠ
ĠĠĠgÃłiĠ shÃ¹Ġ
ĠshÃ¬ĠwÄĵiĠ zhÄĽĠ
Ġ yÃł
sÄ« ĠjÃŃĠ
xuÃ© ĠjÃŃĠ
zÇĴng ĠshÃ¬Ġ
BD Ġ
ĠyuÃ¡nĠ sÃ¹
ĠrÃ¬Ġ ÄĽrĠ
ĠjiÄģĠ shÃłng
ĠmÃŃngĠ lÃ¹Ġ
ĠdÃ©Ġ fÄĵnĠ
yÃ¹Ġ gÃłoĠ
mÃ¹Ġ dÃ¬ĠshÃ¬Ġ
juÃ©Ġ sÃłiĠdeĠ
kÄĽĠ qiÃ¡nĠwÇİngĠ
ĠjÃ¹Ġ bÃ¨iĠ
kÄĽnĠ tÇİĠjÄ«Ġ
ĠdÃłĠshÇĲĠ guÇİnĠ
Ġ 1946
Ġ 700
Ġ yuÃ¡nĠwÃ¨iĠ
dÃłi ĠÄĽrĠ
tÃ³ng ĠbÃ¹Ġ
zhÃŃ ĠrÃ©nĠyuÃ¡nĠ
tÃ¨ ĠyÇĶĠ
shÃ©n ĠfÃ¹Ġ
lÃ¨ ĠbÇĲĠ
nÃŃng ĠxiÃłĠ
ĠniÃ¡nĠ lÃŃng
ĠrÃ©nĠ jÃŃĠ
ĠdÃłoĠ lÃ¹
ĠjÄ«Ġ zhÃ²ngĠ
xiÄģnĠ qiÃ¡nĠ
guÇİngĠbÅįĠ diÃłnĠtÃ¡iĠ
ĠsectionĠĠĠ beginĠ
1 ĠhÃło
ĠĠĠ jÄ«ngĠ
yÃ¹ ĠwÃ¨iĠ
liÃ¡n ĠxiÃłnĠ
lÃŃn ĠjÃ¬nĠdeĠ
guÇİn ĠdÃłoĠ
qiÄģn ĠxiÃłĠ
tuÅį ĠkÃ¨Ġ
ĠwÃ¨iĠ bÃ¹Ġ
ĠzÃłiĠ jÃŃĠ
ĠbÃ¹Ġ dÃłĠ
ĠyÃºĠ 2010
ĠyÇĴuĠ hÇİoĠ
fÃ¹Ġ gÃłiĠ
jiÃłoĠ shÇİoĠ
ĠhuÃ²Ġ yÃ¹nĠ
kÇİĠ sÄ«ĠdÃ¬ĠlÃ¬Ġ
biÄģoĠ tÃŃĠ
mÃłoĠ xiÇİn
hÃ¹nĠ xiÃ¡o
sÄģnĠjiÇİo ĠxÃŃngĠ
Ġ fÃ¡nĠ
ĠĠĠ ÄģnĠ
wÃ©n ĠdÃ¬Ġ
zuÃ¬ ĠjÃ¬nĠdeĠ
es ĠĠĠ
ĠbÃ¹Ġ luÃ²
ĠyÃºĠ 2009
ĠchÃ©ngĠ zhÃ¨n
ĠhÃ²uĠ fÄģngĠ
ĠqiÃº ĠjÃ¬Ġ
suÇĴĠ zÃłiĠdeĠ
jiÄĵĠ tÃ¬
jiÄĵĠ tÃ³uĠ
shÃ©nĠ mÃ¬Ġ
kÄģiĠshÇĲĠ leĠ
ĠĠĠbÄĽnĠ shÇĶĠ
ĠdeĠzhÇĶĠ tÃŃĠ
ĠĠĠqÃŃ ĠhÃ²uĠ
Ġ qiÃ¡o
Ġ zÃ¨ng
Ġ ÅįuĠzhÅįu
shÇĴu ĠshÃ¬Ġ
guÃ² ĠshÃ¬Ġ
wÇĶ ĠdÃłĠ
kÃłn ĠdÃło
re Ġ
zÇİi ĠxiÃłngĠ
ĠjiÃłn ĠjiÃłnĠ
ĠyÄ«n ĠhÃ©Ġ
tÃ¨Ġ shÅ«ĠdeĠ
bÇİoĠhÃ¹Ġ qÅ«Ġ
ĠdeĠjÄ«Ġ bÄĽnĠ
xÃºnĠhuÃŃĠ yÇİnĠchÃłngĠhuÃ¬Ġ
jiÄĵĠxiÃłĠ lÃ¡iĠdeĠ
Ġ xiÃ©
Ġ ÄĵnĠ
zhÃŃ ĠyÃºĠ
shÇĴu ĠÄĽrĠ
bÇĲ ĠdeĠ
liÃº ĠyÃ¬Ġ
qÃ¬ ĠzhÅįngĠ
jiÃ¹ ĠrÃ¨nĠ
shÃ©n ĠxuÃ©Ġ
ĠhÃ©Ġ rÃ©nĠ
ĠyÃ¬Ġ chÃ©ngĠ
ĠrÃ¨nĠ qÄ«Ġ
jiÃ¨Ġ sÃłiĠshÃ¬Ġ
ĠhuÃ²Ġ shÃ¨ngĠ
tuÄ«Ġ cÃ¨Ġ
ĠhÃ²uĠlÃ¡i ĠbÃ¨iĠ
mÃŃĠnÇĲĠ zhuÄģnĠjÃŃĠ
Ġ sÄģnĠniÃ¡nĠ
Ġ gÄĵĠqÇĶĠ
bÄģ ĠkÃ¨Ġ
liÃ¨ ĠjiÃłnĠ
bÃłn ĠbÃ¹Ġ
suÃ¬ ĠdeĠ
huÃ¡n ĠqiÃºĠ
duÃ² Ġ
ĠbÃ¹Ġ bÄ«ng
ĠyÄ«Ġ gÃ²ngĠ
ĠjÃ¬Ġ sÃ¬Ġ
mÃ¹Ġ shÄ«Ġ
fÃºĠ lÇİng
lÃŃnĠ chuÃ¡ng
xuÇİnĠ xiÃ¹
cÃ¨Ġ huÃłĠ
zhÃ¨ngĠshÃ¬Ġ chÃ©ngĠlÃ¬Ġ
dÅįngĠnÃ¡nĠ yÃłĠ
ĠĠĠin ĠĠĠtheĠĠĠ
Ġ zhÇİng
ĠĠĠ Z
20 ĠniÃ¡nĠ
le ĠyÇĲĠ
jiÄģng ĠbÃ¨iĠ
wÃ©n ĠsÄ«Ġ
yÃ¨ ĠzhÅįngĠ
lÄģ ĠkÃ¨
dÇİo ĠxiÃłnĠ
shÃ©n ĠqÃŃĠ
cÃºn ĠyÃºĠ
guÃłn ĠmÃ¹Ġ
kÇĴng ĠjÃ¹Ġ
duÄ« Ġ
ĠbÃ¹Ġ gÅįngĠ
jÃ¬Ġ suÃłnĠ
ĠyÃ¬Ġ zuÃ²Ġ
duÃ¬Ġ kÃłngĠ
shÇĴuĠ dÃ¹Ġ
jiÄĵĠ tÃ¬Ġ
ĠshÄĵngĠ chÄĵng
yÃłĠ tÃ¨Ġ
jiÄģoĠ diÇİnĠ
dÇİĠ pÃ²Ġ
ĠyÇĴuĠyÄ«Ġ xiÄĵ
ĠdÃłĠduÅįĠ shÃ¹
fÃ¹ĠzÃ© ĠrÃ©nĠ
nÃ¡ĠpÃ²Ġ lÃºnĠ
Ġ kÇİo
Ġ 46
lÇĲ ĠzÃłiĠ
fÇİ ĠrÃ©nĠ
xÃŃ ĠjÃ¬nĠpÃŃngĠ
chuÃłng ĠyÃ¬Ġ
yÄ«Ġ xiÄĵ
ĠguÃ³Ġ jÃ¬
ĠyÄ«Ġ duÃ¬Ġ
ĠdÃłoĠ dÃ©Ġ
ĠxÃŃngĠ wÃ©i
ĠjiÄģĠ lÄģĠ
yÃ¡nĠ sÃ¨
ĠÃ©rĠ fÄĵi
ĠjÅ«nĠ zhÇİngĠ
fÄĵnĠ zÇĶĠ
xÃ¬ngĠ cÃºnĠ
shÄģnĠ dÇĲngĠ
chÃ¡ngĠ shÄģĠ
shÃ²uĠ mÃ¬ngĠ
ĠxÄ«nĠ jiÄģngĠ
xÄ«ngĠ qÇĲĠ
pÃłiĠ qiÇİnĠ
kÄģnĠ wÃ¹Ġ
ĠduÅį ĠmÃŃngĠ
ĠqÇĲĠ yÃ¨Ġ
tiÄĽĠlÃ¹ ĠgÅįngĠsÄ«Ġ
sÄ«ĠdÃ¬Ġ ÄģnĠ
Ġ yÇİn
Ġ bÃ¬
Ġ qÃºnĠ
ĠĠĠ dÃłiĠ
yÇĴu ĠbÃ¹ĠtÃ³ngĠ
cÃ¬ ĠquÃ¡nĠguÃ³Ġ
lÃ¡n ĠdÃ©Ġ
yÃŃng ĠdÃ¬Ġ
hÃº ĠdeĠ
guÃ¬ ĠdeĠ
zhuÃłn ĠjÃ¬Ġ
ĠchÃ©ngĠ guÇĴĠ
mÃŃngĠ xiÇİnĠ
chÇİngĠ jÇĲng
ĠshÃ¨Ġ bÃ¨i
luÃ²Ġ shÄģnĠ
ĠzhÃ¨ ĠlÇĲĠ
ĠzhÇĲĠ nÃ©ngĠ
liÃ¡nĠxÃ¹ ĠjÃ¹Ġ
Ġ chÃ¨ĠxiÄģoĠ
shÃł Ġ
kÇİ ĠdeĠ
yÃłng ĠbÄĽnĠ
1916 ĠniÃ¡nĠ
ĠxÃŃngĠ zÇĴuĠ
shÄĵngĠ zhÇİngĠ
shuÇĲĠ kÃ¹
jiÇĶĠ bÄģĠ
ĠdÄģngĠ jÃºĠ
dÇİoĠzhÃ¬Ġ leĠ
ĠjiÄģng ĠjÅ«nĠ
ĠfÄģĠ biÇİo
Ġ1 ĠĠĠ
yÃ©Ġ fÅ«Ġ
Ġ 28
shuÇĲ ĠyuÃ¡nĠ
zhuÄģng ĠyÇĴuĠ
1903 ĠniÃ¡nĠ
ĠzÃłiĠ yÃŃĠgÃ¨Ġ
jÃ¹Ġ tÇĲĠ
shÃ¹Ġ zhÃŃĠ
chÃ¡ngĠ zhÃ¹
bÇİoĠ yÃ¹Ġ
nÃŃĠ gÇĶĠlÄģĠ
ĠxiÄģngĠ fÇİnĠ
cÃŃĠ shÃłn
dÃºĠ tÃ¨Ġ
ĠhÇİiĠ bÃ¡
Ã©rĠ zi
ĠtÃ¡iĠ bÄĽi
ĠÃ¨r ĠyuÃ¨Ġ
mÄĽiĠshÃ¹Ġ guÇİnĠ
zhuÄ«ĠsÃ¹ ĠzhÃ¬Ġ
ĠsectionĠĠĠ endĠ
hÃłnĠlÃŃnĠ yuÃłnĠ
Ġ p
Ġ tÃ¡o
Ġ gÃłi
Ġ wÃłngĠ
Ġ jÇĶĠxÃŃngĠ
Ġ hÅ«Ġ
Ġ kÄĽĠnÃ©ngĠshÃ¬Ġ
ĠĠĠ zhÃ¹ĠzuÃ²Ġ
dÃ© ĠkÃ¨ĠsÃłĠsÄ«Ġ
tÃ³ng ĠzhÃ¬Ġ
kÄĽ ĠyÃ³uĠ
hÇİi ĠjÅ«nĠdeĠ
dÇİo ĠdÃłn
mÃ¬ ĠxÄ«ĠxÄ«Ġ
ĠdeĠ wÃ¨nĠtÃŃĠ
zhÃ¬Ġ zÃłoĠ
ĠlÃ¬Ġ jÄ«ngĠ
ĠdÃłĠ liÃłngĠdeĠ
ĠjÅ«n ĠgÅįngĠ
ĠwÃ©iĠ yÄ«ĠdeĠ
bÇİoĠ xiÇİn
sÃ¬Ġ yuÃłnĠ
chuÃ¡nĠ jiÃłoĠshÃ¬Ġ
wÇİngĠ mÃŃnĠ
jiÇİnĠ pÇĶĠ
jÇĲngĠ bÃłoĠ
ĠwÃłnĠ mÄĽiĠyuÃ¡nĠdeĠ
ĠhuÃ²ĠdÃ© ĠyÄ«ĠmÃ©iĠ
mÃ¨ngĠjiÄģĠ lÄģ
Ġ 47
Ġ yuÃłnĠ
Ġ pÃłoĠ
shÃłng ĠyÇĶĠ
dÃ¹ ĠshÃ¬Ġ
tÃ¡i ĠjÃŃĠ
shÄģn ĠhÃ©Ġ
biÃłn ĠlÃ¬Ġ
huÃ¡ng ĠhÃ©Ġ
chuÄģn ĠzhÃ¹Ġ
mÄģ ĠzÇĶĠ
ĠyÃ¬Ġ tÃŃĠ
ĠyÇĲ ĠgÅįngĠ
ĠyÄ«Ġ xÃ¬ĠliÃ¨Ġ
ĠtÄģĠ yÄĽĠshÃ¬Ġ
ĠchÅ«Ġ shÄĵngĠzÃłiĠ
lÃ¹Ġ kÇĴuĠ
ĠjÅ«nĠ tuÃ¡n
cÃ¬Ġ ziĠ
zÃ©Ġ rÃ¨n
zÄ«Ġ jÄ«n
cÄģnĠ kÇİo
quÃ¨Ġ bÇİo
gÇİnĠ qÃŃngĠ
ĠzhÇĲĠ yÃłoĠ
ĠbÇİoĠ luÃ³Ġ
biÃłnĠchÃ©ngĠ leĠ
gÃłoĠshÃ¬Ġ pÃ¡iĠ
Ġ zÅįngĠjiÃłoĠ
ĠĠĠ ÃłiĠ
kÄĵ ĠjÃ¬nĠshÃ¬Ġ
liÃº ĠxÃŃngĠdeĠ
ruÃ¬ ĠkÃ¨Ġ
ĠbÃ¹Ġ zÃº
ĠshÃŃĠ qÄ«ĠniÃ¡nĠ
sÄ«Ġ fÇİĠ
ĠjiÃłnĠ zhÃ¨ngĠ
ĠzhÅįuĠ biÄģn
yÃŃĠ jÅ«Ġ
qÃ¬Ġ guÄģnĠ
dÃŃĠ yÃłĠ
xiÃ¡Ġ zhÇİi
shÄĽnĠ yÃ¡ngĠ
Ã¨Ġ tÃºĠ
Ġ shuÅį
Ġ 23Ġ
Ġ 1979ĠniÃ¡nĠ
qiÃ¡n ĠyÄ«Ġ
zhÃ²ng ĠyÃ¬ĠyuÃ¡nĠ
yuÄĵ ĠkÃ¨Ġ
nÇļ ĠshÃ¬Ġ
mÇĶ ĠshÃ¬Ġ
ĠbÃ¹Ġ yÇĶĠ
xÄ«Ġ fÄģngĠ
ĠjÄ«Ġ qÃ¬Ġ
kÄģiĠ qÇĲĠ
fÄģĠ yÃ¡nĠ
ĠshÃ¨Ġ dÃ¬ngĠ
ĠxiÃłĠ xiÃ¡Ġ
jÇĲngĠ bÃło
zhÄĵngĠ qÇĶ
zhuÄģnĠ kÄĵĠxuÃ©Ġ
ĠrÃ©nĠkÇĴuĠ pÇĶĠchÃ¡Ġ
ĠxÃ¬ngĠ biÃ©Ġ
zhÃłnĠzhÄĵng ĠzhÅįngĠ
ĠkÄĵ ĠÄĽrĠ
mÃ¡oĠzÃ©Ġ dÅįng
ĠjiÄĵĠwÃ¨iĠ lÃ¹ĠdÃ¬Ġ
ĠĠĠ zhÃłnĠhÃ²uĠ
yÇĴu ĠshÃ¬Ġ
yÃ³u ĠdeĠ
lÃŃn ĠshÃ¬Ġ
yÃ¡ng ĠjÄ«Ġ
mÇĶ ĠyÇĶĠ
ĠwÃ¨iĠ gÄģiĠ
ĠzÃłiĠ tÃ¡iĠwÄģnĠ
xiÃłngĠ liÃłngĠ
ĠtÃ³ng ĠniÃ¡nĠ9ĠyuÃ¨Ġ
tÃºĠ jÄ«ngĠ
qiÄģnĠ wÇİngĠ
mÃłnĠ huÃł
ĠcÃ©ng ĠyÃºĠ
ĠliÇİng ĠguÃ³Ġ
ĠduÅį ĠrÃ©nĠ
ĠÃło ĠdÃ¬ĠlÃ¬Ġ
ĠzÃłiĠzhÅįngĠguÃ³Ġ dÃłĠlÃ¹Ġ
wÃ¡ngĠchÃ¡o ĠdeĠ
Ġ Y
Ġ huÃ³ĠdÃ²ngĠ
xiÃłn ĠzÃłiĠ
bÃ¨i ĠrÃ©nĠ
yÄĽ ĠshÄĵngĠ
dÄģng ĠdÃłiĠ
zhÇĴng ĠjiÄģĠ
qiÄģn ĠshÃ¬Ġ
dÇİ ĠjÃ¬nĠ
bÄĵi ĠdeĠ
ĠshÃŃĠ shÃŃĠ
ĠyuÃ¨Ġ qÃ¬Ġ
ĠzhÄ« ĠyÃºĠ
ĠtÄģĠ cÃ³ngĠ
jiÃ©Ġ hÅ«n
ĠduÃ¬Ġ yÃ¬ngĠ
ĠjÃ¹Ġ fÄĵngĠ
yÇİnĠ huÃł
zhÄĵngĠ qÃ¬Ġ
cÇİiĠ fÇİngĠ
suÃŃĠ zhe
zÃºĠqiÃºĠ liÃ¡nĠsÃłiĠ
ĠzÃłiĠcÇĲĠ qÄ«ĠjiÄģnĠ
yÃ³uĠxÃ¬ ĠzhÅįngĠ
lÇĲĠgÅįngĠ dÃłĠxuÃ©Ġ
ĠshÃ¬ĠshÃ¬ĠjiÃ¨ ĠshÃłngĠ
Ġ piÃło
Ġ 1956ĠniÃ¡nĠ
lÃ¡i ĠdÃ©Ġ
hÃ³ng ĠshÃŃĠzÃ¬Ġ
wÃ² ĠsÄ«Ġ
at ĠĠĠ
ĠwÃ¨iĠ rÃ¨ĠdÃłiĠ
ĠhÃ©Ġ mÇİĠ
duÃ¬Ġ fÄģngĠ
ĠwÃ©iĠ kÃ¨Ġ
ĠrÃ¡n ĠÃ©rĠzÃłiĠ
huÃ¡Ġ xuÄĽĠ
cÃ¡iĠ dÃ¬ngĠ
dÃºĠ shÅ«Ġ
ĠguÃ²Ġ chÃ©ngĠzhÅįngĠ
ĠmÇİĠ dÄ«ngĠ
pÃŃnĠ kÃ¹n
Ġ 27
ĠĠĠ 2002ĠniÃ¡nĠ
yÇĴu ĠbÃ¹ĠtÃ³ngĠdeĠ
duÃ¬ ĠchÃ©ngĠyuÃ¡nĠ
sÃłi ĠshÃ¬ĠzhÅįngĠ
tÃłi ĠÄĽrĠ
gÇİn ĠdeĠ
rÃ©ng ĠshÃ¬Ġ
shÃ¹n ĠtiÄģnĠ
ts Ġ
dÃ¬Ġ sÄģnĠ
chÃ©ngĠ zhÃ¨nĠ
ĠyÄ«Ġ xuÃ©ĠyuÃłnĠ
ĠdÃłĠ yÇĶĠ
ĠjÄ«Ġ qÃ¬ĠrÃ©nĠ
fÃ¹Ġ zÃ¡Ġ
ĠzhÃ¨ngĠ dÇİngĠ
ĠtÃ³ng ĠniÃ¡nĠ11ĠyuÃ¨Ġ
zÄ«Ġ biÃ©
zÃºĠ gÃ²uĠdeĠ
ĠjiÃ©Ġ shÃ¹
gÄģngĠ qÃŃn
suÃŃĠ zhÃ¹
ĠĠĠlÃ¬ĠshÇĲĠ yÃ¡nĠgÃ©Ġ
fÄģĠshÄĵngĠ hÃ²uĠ
gÄĵngĠ huÃłn
ĠdÃ¬ĠshÃŃĠ Ã¨rĠ
yÃºnĠnÃ¡nĠ shÄĽngĠ
Ġ tÃ³u
gÃ¨ ĠgÃ¨Ġ
fÃ¹ ĠbÃ¹Ġ
tÃłi ĠjÃŃĠ
ce ĠĠĠ
jÄ«ngĠ yÄ«ngĠ
jÄ«nĠ qÇĶĠ
ĠrÃ¨nĠ zhÃ¨ngĠ
nÇļĠ gÄĵĠshÇĴuĠ
jÃºĠ miÃłnĠ
chÇĶĠ lÇĲ
ĠshÃ¬ĠjiÃ¨ ĠgÃ¨ĠdÃ¬Ġ
dÅįngĠjÄ«ngĠ dÅ«Ġ
tÃ³uĠrÃ¹Ġ shÇĲĠyÃ²ngĠ
ĠlÃ¬ĠfÇİĠ wÄĽiĠyuÃ¡nĠ
ĠjiÇĶ ĠyuÃ¨Ġ
ĠISTAT ĠdÃłiĠmÇİĠwÃ¨iĠ
Ġ Mar
Ġ 1981ĠniÃ¡nĠ
ĠĠĠ U
ĠĠĠ zuÃ²Ġ
ĠĠĠ duÅįĠ
shÇĲ ĠsÄ«Ġ
fÄģ ĠyÄ«nĠ
xiÃłng ĠtÄģĠ
huÃŃ ĠfÃ¹Ġ
lÃºn ĠlÇĲĠ
yÃ¬Ġ bÄģnĠ
ĠyuÃ¨Ġ qiÃºĠ
dÃłĠ dÅįngĠbÃ¹ĠdÃłĠqÅ«Ġ
ĠgÅįngĠ zhÃ²ng
ĠyÇĶĠ lÇĲĠ
ĠhÃ²uĠ lÃ¡iĠdeĠ
guÄģnĠ yÄ«nĠ
yÃ¹Ġ shÇĲĠ
ĠbÃ¬ngĠ jiÄģngĠqÃŃĠ
kÄĽĠ fÄĵnĠwÃ©iĠ
bÄģĠ hÃ¨Ġ
dÇİngĠ wÄĽiĠ
qiÄģnĠ rÃ¹Ġ
ĠhÃ©ĠguÃ³Ġ jiÄģĠ
ĠniÃ¡nĠshÃ¬ĠjiÃ¨Ġ bÄĵiĠ
Ġ qiÃ³ng
Ġ biÃ©Ġ
Ġ 1948ĠniÃ¡nĠ
yÃ¹ ĠyÇĴuĠ
xiÄģng ĠdÃłoĠ
cÇĲ ĠyÄ«Ġ
shÄĽn ĠyÃ¬Ġ
xuÃłn Ġ
ĠwÃ¨iĠ gÅįngĠ
ĠyuÃ¨Ġ dÃºĠ
diÃłnĠ rÃ³ngĠ
hÇİiĠ wÃłi
ĠbÄĽnĠ tÇĶ
ĠrÃºĠ jÄ«nĠ
ĠzuÃ¬Ġ hÃ²u
mÃ¨iĠ mÃ¨i
shÇİnĠxÄ«Ġ shÄĽngĠ
liÃ¡nĠsÃłi ĠqiÃºĠduÃ¬Ġ
jiÄģĠlÃ¬ĠfÃºĠ nÃŃĠyÃł
Ġ guÇİngĠzhÅįuĠ
Ġ 1955ĠniÃ¡nĠ
ĠĠĠ 9
huÃ¬ ĠchÃ©ngĠyuÃ¡nĠ
shÃ¨ ĠjÄ«Ġ
jiÃło ĠyÃ¬Ġ
jÄ«n ĠzhÅįngĠ
18 ĠshÃ¬ĠjÃ¬Ġ
qÃº Ġ
ĠdeĠ shÃ¨ĠjÃ¬Ġ
ĠzÃłiĠ bÄĽiĠjÄ«ngĠ
jÃ¬Ġ hÃ²uĠ
dÃłiĠ lÃ¡iĠdeĠ
diÃłnĠ lÃ¹Ġ
nÃ©ngĠ lÃ¬ĠdeĠ
biÄģnĠ fÃºĠ
xiÄģnĠ fÄģĠ
sÄģiĠ bÃłi
shÄĽnĠ pÃłn
kÄĵĠjÃ¬Ġ dÃłĠxuÃ©Ġ
jÃ¹ ĠrÃ©nĠ
pÃŃng ĠxÄ«Ġ
fÃº ĠkÃ¨Ġ
fÇİng ĠzhÄ«Ġ
45 Ġ
id Ġ
ĠshÃŃĠ zÃ¬
ĠzhÄ«Ġ nÇļĠ
jÄ«ngĠ fÃ¨iĠ
lÃ¡iĠ wÇİngĠ
ĠbÃ¬ngĠ xiÃłngĠ
ĠkÃ¨Ġ lÇĶĠ
ĠshÃłngĠ shÄĵngĠ
Ġ2 ĠĠĠ
ĠshÃ¬ĠyÄ«ĠkÄĵĠ hÃ©ngĠxÄ«ngĠ
mÃ³ĠtÃ¨ ĠÃ©rĠ
Ġ xÇĲ
Ġ lÃ¨Ġ
huÃł ĠxiÃłnĠ
pÃŃng ĠjÃŃĠ
fÇİ ĠhÃ©Ġ
rÃłng ĠrÃ©nĠ
42 Ġ
os Ġ
lÃ¬Ġ ziĠ
chÃ©ngĠ rÃ¨nĠ
zhÇĶĠ guÇİnĠ
kÇĴuĠ jÃ¬ngĠ
qÇĲĠ fÄģĠ
lÇľĠ shÄ«
ĠqÃŃĠzhÅįngĠ bÄģoĠkuÃ²
hÃ¡nĠ gÃłiĠ
bÇĶĠ rÇĶ
ĠjiÄĵĠ zhÃ¹Ġ
ĠbÅįĠ luÃ³Ġ
niÇĶĠyuÄĵ ĠshÃ¬Ġ
Ġ zhÇĶnĠbÃ¨iĠ
ĠĠĠ Le
ĠĠĠ qÃ¬ĠhÃ²uĠ
zuÃ² ĠhÃ©Ġ
nÃ¡n ĠzhÃ¬Ġ
dÃ¡ ĠhÃ©Ġ
ĠshÃ¬Ġ jiÄģngĠ
zhÃ¬Ġ liÃ¡oĠ
ĠrÃ©nĠ shÃ¹
ĠgÅįngĠ guÃ³Ġ
ĠyÄ«Ġ lÇİngĠ
gÃ²uĠ wÃ¹Ġ
ĠfÃº ĠlÇĲĠ
ĠdÃ¬ĠÃ¨r ĠgÃ¨Ġ
ĠyÃłĠ mÄĽiĠ
Ġ jÃ¬ng
Ġ zhÄĵngĠyuÃ¨Ġ
dÅįu ĠyÇĲĠ
dÅįu ĠyÃ¹ĠshÇĲĠ
zÃłn ĠchÃ©ngĠ
2026 ĠniÃ¡nĠ
ĠxiÃłn ĠlÃ¬Ġ
ĠqÃŃ ĠdÃ¬Ġ
ĠdÃłn ĠzhÃ¨Ġ
wÃ©nĠ bÄĽnĠ
ĠdÃłiĠ lÇĲngĠ
yuÃłnĠ xiÃłoĠ
yÇĲnĠ qÃŃng
tiÃ¡nĠ xÃ¬nĠ
sÃłĠ zhÅ«Ġ
rÃ¨Ġ mÃ©nĠ
jiÃłnĠzhÃ¹Ġ wÃ¹Ġ
gÄĵĠqÇĶ ĠdeĠ
mÃ¹ĠnÃŃĠ hÄĵiĠ
ĠqÄ«ĠxÄ«Ġ shÄĵnĠdÃ¹Ġ
Ġ jiÄģ
Ġ 1983
Ã¡i Ġ
bÃ¨i ĠbÃ¹Ġ
jÃ¬n ĠchÃ©ngĠ
diÇİn ĠwÃ¨iĠyÃºĠ
shÄģ ĠleĠ
lÇĶ ĠjÃŃĠ
style Ġ
ĠshÃ¬Ġ dÃłiĠ
ĠdÃłoĠ guÄģngĠ
qÄ«Ġ kÄģnĠ
dÃ²ngĠ wÃ¹ĠdeĠ
dÅįngĠ bÃ¹ĠdeĠ
juÃ©Ġ cÃ¨Ġ
lÃŃnĠ nÃłĠ
xuÇİnĠ piÃłoĠ
guÄ«Ġ gÃ©Ġ
ĠxiÃłngĠ zhÄĵngĠ
pÃ¡iĠ hÃ¡ng
ĠdeĠyÄ«Ġ zhÇĴng
fÃłnĠ diÃłnĠ
ĠwÃłnĠ yÄ«ngĠ
shÄĽnĠ chÃ¡
duÃ³Ġ guÃłnĠ
ĠwÃº ĠrÃ©nĠ
miÃ¡oĠshÃ¹Ġ leĠ
ĠfÄĵi ĠlÃ¬Ġ
ĠliÃ¹ ĠyuÃ¨Ġ
Ġ 1937ĠniÃ¡nĠ
Ġ 1947ĠniÃ¡nĠ
jÅ«n ĠrÃ©nĠ
wÃłi ĠxÃŃngĠ
huÃ¡ ĠyÇĶĠ
zÄ« ĠdeĠ
tuÇĲ Ġ
ĠshÃ¬Ġ rÃ¬ĠbÄĽn
ĠjÃ¬Ġ zhÄĽĠhuÃ¬Ġ
ĠdÃ© ĠyÃ¬Ġ
ĠzhÃłnĠ lÃ¼Ã¨Ġ
gÄģoĠ fÄĵngĠ
bÇĲĠ cÇĲĠ
qÄ«ngĠ hÇİiĠ
biÃłnĠ gÄĵng
biÄģnĠ jÃ¬ng
xiÄĵĠ gÄĵn
chÅįngĠ fÃ¨nĠ
zhÃłnĠdÃ²u ĠjÄ«Ġ
ĠyÄ«ng ĠlÇĲĠ
chuÃłngĠbÃłn ĠrÃ©nĠ
Ġ 1988
Ġ liÇĶ
Ġ tuÄ«ĠchÅ«Ġ
qÅ« ĠyÃºĠ
qÅ« ĠyÃ¬Ġ
shÃłng ĠyÇĲĠ
jÇĲ ĠnÃ¡nĠ
shÄ« ĠlÃ¬Ġ
shÄĽng ĠzhÃ¨ngĠ
10 ĠgÃ¨Ġ
qÄ«n ĠshÃŃĠ
ted ĠĠĠ
xÄ«nĠ shÄĵngĠ
lÃ¹Ġ yÇĲngĠ
jÄ«ngĠ tÇĲĠ
jiÃłoĠ xiÇİoĠ
shÃ¨Ġ dÃ¬ngĠ
ĠwÃłnĠ zhÄģngĠ
ĠxÃŃngĠzhÃ¨ng ĠzhÅįngĠxÄ«n
u Ġ
Ġ 1946ĠniÃ¡nĠ
zuÃ² ĠyÇĴuĠ
shÃłng ĠhÃ©Ġ
shÇĴu ĠbÃ¨iĠ
zhÇİng ĠlÇĲĠ
sÄģn ĠguÃ³Ġ
yuÃłn ĠhÃ©Ġ
bÇİo ĠshÃ¬Ġ
jiÃ¹ ĠyÇĲĠ
mÃ©ng ĠyÇĴuĠ
cÃ¹ Ġ
zhÄĽn ĠduÃłnĠ
chÃ¡i ĠyÃ³uĠ
shÃŃĠ dÃłiĠ
ĠshÃŃĠ shÃłngĠ
ĠgÅįngĠ jÄ«n
ĠgÅįngĠ bÃ¹ĠdeĠ
ĠchÃ©ngĠ qiÃ¡ngĠ
ĠyuÃ¡nĠ lÃ¡iĠdeĠ
jiÄĵĠ qÅ«Ġ
liÇİngĠ cÃ¬
shÃ©nĠ jÄ«ng
ĠbÃ¬Ġ yÃ¨ĠhÃ²uĠ
ĠgÄģiĠshÄĽngĠfÃ¨nĠwÃ¨iĠfÇİĠguÃ³Ġ bÄĽiĠbÃ¹Ġ
sÄģiĠÄĽrĠwÃ©iĠ yÃł
guÃ³ĠdeĠtÃ¨ĠyÇĴuĠ zhÃŃĠwÃ¹Ġ
Ġ fÇĶ
Ġ gÃłn
yÄ« ĠzÃłiĠ
xÄ«n ĠhÃ©Ġ
kÄĽ ĠxÃŃngĠ
bÃłi ĠdeĠ
yÇĴng ĠshÃ¬Ġ
zÄģo ĠdÃło
ĠbÃ¨iĠ pÃłnĠ
jiÃłoĠ gÄģoĠdeĠ
fÄģĠ yÃ¹Ġ
ĠxÄ«nĠ wÃ©n
bÄģnĠ diÇİnĠ
lÃ¹nĠ shÃ¹Ġ
shÇİoĠ liÃłngĠ
suÃŃĠ zheĠ
tuÄ«Ġ fÄģnĠ
niÃ¨Ġ cÃŃ
ĠshÄĵngĠhuÃ³ ĠzÃłiĠ
huÃ¡ĠshÃ¨ngĠ dÃ¹nĠ
Ġ qÄ«ngĠniÃ¡nĠ
Ãłi ĠhÃ©Ġ
lÇĲ ĠyÇĴuĠ
gÄģi ĠdÃ¬ĠqÅ«Ġ
nuÃ² ĠbÃ¨iĠÄĽrĠ
ĠyuÃ¡nĠ xÃŃng
ĠÃ©r ĠyÇĴuĠ
ĠzhÅįu ĠguÃ³Ġ
yÃ¡nĠ lÃ¹n
fÄĵnĠ shÃ¹Ġ
xiÇİoĠ xiÃłngĠ
ĠzhÃŃĠ jÃ¬ngĠ
ĠsÄģn ĠguÃ³Ġ
ĠbÄģ ĠxÄ«Ġ
rÇİnĠ sÃ¨Ġ
ĠO Ġ
Ġ guÇĴĠ
xÄ«n ĠxÄ«ĠlÃ¡nĠ
Ã©r ĠchÃ©ngĠ
in ĠĠĠ
nÃŃng ĠxiÃłnĠ
us ĠĠĠ
ĠdeĠ pÃŃngĠ
ĠzÃłiĠ xiÃłĠ
ĠshÃŃĠ chÃ¡ngĠ
shÄĵngĠ xiÃłoĠ
ĠjÄ«Ġ dÃ²ngĠ
yÃ¡nĠ hÇİi
liÃ¡nĠ bÅįĠ
bÄĽiĠ kÇİĠluÃ³ĠlÃ¡iĠnÃł
ĠshÄĵngĠ mÃ¬ng
jiÃ¨Ġ miÃłnĠ
ĠdÃłnĠ bÃ¡i
qÄ«ngĠ chÃ¡o
zÃºĠ zÇĴngĠ
pÃ¡iĠ fÃłngĠ
xiÃłnĠ chÇİngĠ
ĠdÅįngĠ lÃŃn
diÃłnĠzÇĲ ĠyÃ³uĠxÃ¬Ġ
guÇİnĠkÃ²ng ĠzhÅįngĠfÄģĠxiÃłnĠ
Ġ chuÃ¡n
Ġ ãĤ
Ġ xuÄĽĠ
ĠĠĠ shÃ¨ĠhuÃ¬Ġ
dÃło ĠdÃ©Ġ
wÃłi ĠjÃŃĠ
yÃ¹n ĠdeĠ
fÇİn ĠgÅįngĠ
shÄģng ĠhuÃ¬Ġ
qÃŃng ĠrÃ©nĠ
dÄĵng ĠjÄ«Ġ
align Ġ
dÃłĠ chÃ©nĠ
ĠyÃ¬Ġ miÃ¡o
ĠxÃŃng ĠzhÃ¬Ġ
ĠkÃ¨Ġ lÃºnĠ
ĠzhÃ¹Ġ mÃŃngĠdeĠ
xÃŃngĠ dÃ²ng
bÃłnĠshÃ¬Ġ chÃ¹
2 ĠĠĠ
Ġ a
Ġ e
ĠĠĠ 2000ĠniÃ¡nĠ
ĠĠĠ 2024ĠniÃ¡nĠ
pÃŃng ĠxÃŃngĠ
mÃŃn ĠshÃ¬Ġ
nÃ¨i ĠhÃ©Ġ
mÃ©i ĠlÃ¬Ġ
guÄ« ĠdeĠ
or Ġ
70 Ġ
huÇİn ĠmÃłnĠ
ĠbÃ¹Ġ shÇĶĠ
ĠdÃłĠ jiÄģngĠjÅ«nĠ
zÃ¬Ġ zhÇĶĠ
ĠzhÃłnĠ yÃ¬ĠzhÅįngĠ
ĠtÃ³ng ĠbÃ¹Ġ
ĠxuÃ©Ġ shÄĵng
sÃ¨Ġ qÃŃngĠ
jiÇİnĠ cÃ¨
zhÄĵngĠ lÃ¹nĠ
xÃºnĠ luÃ³Ġ
ĠqiÃ¡nĠ wÇİng
diÃłnĠyÇĲng ĠzhÅįngĠ
ĠjÃŃĠtuÃ¡n ĠyÇĴuĠxiÃłnĠgÅįngĠsÄ«Ġ
luÃ³ĠmÇİĠ nÃŃĠyÃłĠ
ĠyÇĶĠmÃ¡o ĠqiÃºĠ
Ġ bÃłn
zhÃ¬ ĠĠĠ
yÇĴu ĠĠĠ
yÇĴu ĠbÃ¹ĠfÃ¨nĠ
le ĠtÄģ
xiÃłng ĠyÇĶĠ
biÃłn ĠxÃŃngĠ
Ã¼ Ġ
pÃ³ Ġ
ĠshÃ¬Ġ xiÄģngĠgÇİng
ĠshÃ¬Ġ dÄģngĠdÃ¬Ġ
ĠzÃłiĠ kÃ¨Ġ
ĠchÃ©ngĠ yuÃ¡nĠdeĠ
ĠdÃłĠ zÃ¬Ġ
zhÃ¹Ġ fÃ¡ngĠ
shÇĴuĠ fÇİĠ
yÃ¨Ġ wÃ¹
liÇİngĠ zhÄĽĠ
xÃŃngĠ zhÃ¨ng
hÃ¡iĠ zi
zhÄĵnĠ chÃ¡
zhuÄģnĠ zhÃ¹ĠyÃºĠ
ĠbÃ¬Ġ xÅ«
ĠdeĠbÃ¹Ġ tÃ³ngĠ
ĠshÄĵnĠ dÃ¹Ġ
shÅįuĠlÃ¹Ġ leĠ
Ġ xiÇİn
Ġ guÇĲ
Ġ 98
Ġ Se
Ġ 1952ĠniÃ¡nĠ
shÇĲ ĠqÃŃĠ
mÇİ ĠdÃ©ĠlÇĲĠ
um Ġ
qiÄģo ĠchÅ«Ġ
ĠzÃłiĠ bÄģĠ
ĠyÃ¬Ġ lÃ¬Ġ
zhÇĶĠ zhÄģng
ĠjiÃłnĠ zÃłoĠdeĠ
ĠquÃ¡n ĠqiÃº
juÃ©Ġ xÄ«nĠ
kÄĽĠ yÃ²ngĠyÃºĠ
liÇİngĠ cÃ¨
zhÄĵngĠ duÃ³
lÃºĠ wÇİĠ
ĠshÃ¨ĠjÃ¬Ġ shÄ«Ġ
xÇĲĠ ÃłiĠ
2010ĠniÃ¡nĠ mÄĽiĠguÃ³ĠrÃ©nĠkÇĴuĠpÇĶĠchÃ¡Ġ
ĠguÃ³ĠjiÄģ ĠjÃŃĠ
ĠwÃ¨iĠzhÅįngĠ xÄ«nĠ
ĠchÃ¡oĠ tÃŃngĠ
zhÇĶĠtÃŃĠ qÅ«Ġ
ĠmÃŃn ĠjÃŃĠ
jÇĲĠnÃ¨iĠ yÃłĠ
chÃ¡ ĠsÄ«Ġ
yÃ¡n ĠhÃ©Ġ
duÅį ĠjiÄģĠ
qÇĲ ĠchÅ«Ġ
luÃ³ ĠdeĠ
chÄĵng ĠdeĠ
11 ĠniÃ¡nĠ
ĠbÃ¹Ġ yÃ¬Ġ
ĠzhÅįngĠ xuÃ©
ĠshÃŃĠ Ã¨r
ĠrÃ©nĠ lÃ¨iĠdeĠ
ĠsÄ«Ġ tÇİ
ĠjÄ«Ġ qiÄģngĠ
ĠxÄ«Ġ dÃ©Ġ
ĠzhÄ«Ġ yÄ«ĠdeĠ
ĠbÃ¬ngĠ kÄģiĠshÇĲĠ
zhÇĲĠ lÃ¬ngĠ
gÇĶĠ dÃłi
ĠzhÅįngĠguÃ³Ġ guÃ³ĠjiÄģĠ
kÄĽĠyÇĲĠ yÃ²ngĠ
ĠdeĠlÃ¬Ġ shÇĲ
zhÄĽnĠ duÃłn
2 ĠmÃŃngĠ
Ġ xÇĶ
Ġ bÃłoĠdÃłoĠ
ng ĠĠĠ
wÇĶ ĠrÃ©nĠ
qÄ«ng ĠxÄ«Ġ
zhÄĽng ĠshÃ¹Ġ
ĠshÃ¬Ġ tÃº
ĠshÃ¬Ġ hÃ¡nĠguÃ³Ġ
ĠdÃ¬Ġ chÇĶĠ
jiÄģĠ qiÃ¡ngĠ
xiÄģngĠ liÃ¡nĠ
ĠmÃŃngĠ dÄģn
fÃºĠ tÃ¨Ġ
zhÇĲĠ biÄģoĠ
wÃłiĠ jiÃ¨
ĠjÃ¹Ġ qÃ¬ngĠxiÃłĠ
liÃ¨Ġ biÇİo
zhÄĵnĠ duÃ¬
tÇİoĠ fÃ¡Ġ
guÇĲĠdÃłoĠ jiÄģoĠtÅįngĠ
xÄ«nĠlÇĲĠ xuÃ©Ġ
ĠwÃ¨iĠfÃºĠqÃŃĠyÃºĠgÄģngĠ lÃºĠxÃŃngĠmÃ¹Ġ
ĠpÃºĠtÃ¡oĠyÃ¡ ĠyÇĶĠ
Ġ 1982
Ġ rÃ©ngĠ
shÃłng ĠzÃłiĠ
bÃ³ ĠkÃ¨Ġ
sÃ¨ ĠhuÃ²Ġ
kÅ«n ĠchÃ³ngĠ
ĠhÃ©Ġ zhÅįngĠguÃ³Ġ
ĠbÃ¹Ġ xiÃ¡ngĠ
ĠzhÃ¬Ġ piÃłnĠ
ĠyÃ¬Ġ chÃ¡ngĠ
wÃ©iĠ hÃ¹Ġ
ĠjÄ«Ġ guÄģn
kÄģiĠ bÅįĠ
dÅįngĠ lÃ¹Ġ
ĠleĠ duÃ¬Ġ
mÄĽiĠ guÃ³ĠhÃ©Ġ
ĠnÃ¡nĠ fÄģngĠ
fÃ¨iĠ chÃº
huÃ¡nĠ bÇİoĠ
ĠqiÃ¡nĠ lÃ³ng
ĠyÄ«ngĠ gÄģiĠ
ĠqÅ«Ġ yÃ¹Ġ
kÇİoĠlÇľ ĠdÃłoĠ
zhÅ«ĠlÃ³ngĠ cÇİo
Ġ xiÃ¹Ġ
Ġ zhÃºĠ
ĠĠĠ fÇİnĠ
gÅįng ĠwÃ¨iĠ
jÃ¬n ĠdÃłiĠ
yÃ¡n ĠshÃ¬Ġ
yÇĲng ĠjÃŃĠ
hÃ¹ ĠdeĠ
nÇļ ĠdeĠ
xÃŃ ĠdeĠ
mÃ©n ĠshÃ¬Ġ
tiÃ¡o ĠjiÃłn
gÃ¹ ĠdeĠ
sÇĲ ĠdeĠ
ĠhÃ²uĠ yÄ«nĠ
ĠxÄ«Ġ lÃ¡n
ĠmÃŃngĠ chÃ¡o
jiÃłoĠ duÅįĠ
fÄĵnĠ liÃ¨
wÄĽiĠ tuÅį
jiÃłnĠ zÃło
quÃ¡nĠ wÄĵiĠ
lÃŃngĠ mÃ¹Ġ
leĠyÄ«Ġ xiÄĵ
dÃ²uĠ zhÄĵng
Ġ guÄ«
Ġ gÄģn
xiÃł ĠxÃŃngĠ
tÃ¨ ĠzhÃ¬Ġ
jiÄĵ ĠyÇĴuĠ
tÇĲ ĠzhÅįngĠ
cÃ¬ ĠrÃ¬Ġ
shÃ²u ĠleĠ
fÃ¡ng ĠdeĠ
zÃ©i Ġ
ĠdeĠ wÃ¨iĠzhÃ¬Ġ
ĠyÃºĠ zhÅįngĠ
ĠyÄ«Ġ shÇĴuĠ
hÃ²uĠ lÃ¡i
ĠdÃłĠ mÃŃngĠ
jÃ¹Ġ chÇİngĠ
jiÃłoĠ xiÇİoĠdeĠ
diÃłnĠ chÄĵ
tÇĲĠ nÃ¨iĠ
mÄĽiĠguÃ³Ġ guÃ³ĠjiÄģĠ
qÃ¬Ġ xuÃ¡n
bÅįĠ luÃ³ĠdÃ¬Ġ
ĠzhÅįngĠguÃ³Ġ dÃłĠlÃ¹
huÃ²Ġ shÃ¨ngĠ
ĠdeĠshÃ¬Ġ lÃ¬Ġ
xÃºnĠ huÃ¡n
qÅ«ĠdeĠ yÃŃĠgÃ¨Ġ
Ã©rĠ yÃ¡nĠ
huÃ¡nĠxÃŃngĠ shÄģnĠ
hÇİoĠlÃ¡iĠ wÃ¹Ġ
Ġ re
sÄ« ĠyÇĴuĠ
gÄģo ĠjiÄģĠ
sÅ« ĠzhÅįuĠ
zÅįng ĠzuÃ²Ġ
tÇİn ĠkÃ¨
Î² Ġ
ĠxÄ«Ġ shÅįuĠ
ĠbÃ¨iĠ rÃ¨nĠwÃ©i
dÃ¬ngĠ lÇľĠ
ĠzÃ¬Ġ shÄģĠ
jiÇĶĠ jÄ«ngĠ
lÃŃngĠ shÃ²uĠ
tiÄĽĠlÃ¹Ġ jÃºĠ
wÃ©nĠhuÃłĠ yÃŃĠchÇİnĠ
mÃŃnĠzhÇĶĠ zhÇĶĠyÃ¬Ġ
wÄĵnĠ gÄĵĠ
chÃ©ngĠlÃ¬Ġ yÃºĠ
pÃ¡iĠhÃ¡ngĠ bÇİngĠ
yÇĶnĠshÃŃĠ kÄĵngĠ
yÅįuĠxiÃ¹ ĠdeĠ
ĠgÄģiĠwÃ¹ĠzhÇĴngĠdeĠ mÃ³ĠshÃ¬ĠchÇİnĠ
Ġ ãĤĵ
Ġ yÇİnĠyuÃ¡nĠ
Ġ iĠ
Ãło ĠlÃ¬Ġ
mÃ¹ ĠhÃ²uĠ
zhÃ²ng ĠxÃŃngĠ
zhÃło ĠjÃŃĠ
guÃłn ĠjÅ«nĠdeĠ
sÄģi ĠsÄ«Ġ
gÃłi ĠleĠ
21 ĠshÃ¬ĠjÃ¬Ġ
1902 ĠniÃ¡nĠ
ĠwÃ¨iĠ jÄ«ĠchÇĶĠ
ĠyÃ¬Ġ bÇİiĠ
fÄģngĠ zhÄĵnĠ
ĠqÃŃĠ bÄ«ng
gÃ©Ġ lÄĵiĠ
ÄģnĠ fÇĶĠ
yÇĲngĠ zhÇİnĠ
shuÇĲĠ zhÇĶnĠ
cÄģnĠ mÃ³uĠ
xiÃłnĠ dÃłi
jÅ«Ġ bÇĶĠ
ĠbÅįĠ lÃ¡nĠ
ĠzhÃłnĠzhÄĵng ĠzhÅįngĠ
shÃ²uĠhuÄģnĠ yÃŃngĠdeĠ
Ġ ãĥ
xiÃłng ĠqÃŃĠ
lÄģ ĠlÃ¬Ġ
sÃ¬ ĠgÃ¨
dÄģn ĠrÃ©nĠ
pÃ² ĠleĠ
miÃ¨ ĠwÃ¡ngĠ
37 Ġ
shÇĲĠ guÇİnĠ
guÄģnĠ bÃ¬
jÄ«ngĠ diÇİn
suÇĴĠ ÄĵnĠ
bÄĽiĠ lÃ¹Ġ
gÃ©Ġ lÃŃ
ĠzuÃ²Ġ leĠ
yÃłĠ zhÇĴngĠ
fÄĵngĠ miÃłnĠ
sÄģnĠ shÃŃĠniÃ¡nĠ
ĠxiÄģngĠ xÃ¬nĠ
shÄģĠ hÃłi
zhuÇİnĠ bÅįĠ
xÃºnĠ yÇİnĠ
ĠdÃ¬ĠÃ¨rĠ cÃ¬ĠshÃ¬ĠjiÃ¨ĠdÃłĠzhÃłnĠ
ĠzhÇĲ ĠdeĠshÃ¬Ġ
ĠzhÅįngĠshÃ¬Ġ yÇİnĠ
ĠĠĠbÄĽn ĠyÃºĠ
Ġ chÃ¡o
Ġ chuÃłngĠzuÃ²Ġ
ĠĠĠ fÄģĠxÃŃngĠ
biÃłn ĠdÃ©
12 ĠgÃ¨Ġ
yÄĵ ĠsÅ«Ġ
suÇĴĠ mÇĶĠ
shÄģnĠ chÃºĠ
qÄ«ngĠ huÃ¡ĠdÃłĠxuÃ©Ġ
fÄĵiĠ jÄ«
qiÄģnĠ xÇĲ
guÄģngĠ xÃ¹
gÃ¹Ġ dÃ¬ng
ĠyÄ«ngĠ cÃ¹nĠ
zhÃ¨ngĠfÇĶ ĠzÃłiĠ
Ġ 55
Ġ bÅįĠchÅ«Ġ
Ġ guÄ«ĠdÃ¬ngĠ
ĠĠĠ AĠ
xuÃ© ĠlÃ¬Ġ
wÃ©n ĠjÃŃĠ
jiÄĵ ĠdÃło
yÃłn ĠdeĠ
les Ġ
ĠwÃ¨iĠ qÃŃ
ĠyÃºĠ 2025
ĠlÃ¬Ġ ÄģnĠ
jÄ«Ġ gÃ²u
jÄ«Ġ hÅ«
ĠdÃłĠ jÅ«nĠ
ĠyÇĶĠ qiÃ¡nĠ
ĠjÃ¬Ġ rÃ¨nĠ
fÃ¹Ġ shÇĶ
jÃ¹Ġ diÇİnĠ
huÃłĠ xuÃ©
zhÃ¨Ġ yÃłng
diÃłnĠ dÃ²ngĠ
ĠfÃ¹Ġ nÇļĠ
ĠshÃ¨Ġ lÃ¬ĠdeĠ
ĠdÃłnĠ yÃłoĠ
sÃ¬Ġ hÅ«Ġ
wÄĵiĠ bÃ³Ġ
ĠgÅįngĠzuÃ²Ġ zhÄĽĠ
hÇİiĠjÅ«nĠ lÃ¹ĠzhÃłnĠ
ĠwÃ¨iĠdÃ¬Ġ yÄ«Ġ
ĠbiÄģn ĠhÃłoĠ
ĠgÃ²ng ĠjÃ¬Ġ
ĠzhÅįngĠguÃ³ĠguÃ³ĠmÃŃnĠ dÇİngĠ
Ġ chÃ¬
Ġ 1970ĠniÃ¡nĠ
hÃ²u ĠjÃŃĠ
qÄ« ĠgÃ¨Ġ
fÃ¹ ĠyuÃ¡nĠ
zhÃ¹ ĠgÅįngĠ
jiÄģng ĠxiÃłnĠ
zhÃ²ng ĠzhÃ¬Ġ
cÃ³ng ĠzhÅįngĠ
jiÃłng ĠzhÃ¬Ġ
xÅ«n ĠzhÄģng
qiÄģo Ġ
ĠshÃŃĠ bÄģĠniÃ¡nĠ
ĠzhÃ¬Ġ huÃ¬Ġ
jiÄģĠ mÃ©ngĠ
ĠyÄ«Ġ hÃłoĠ
zhÃ¨ngĠ wÃ¹Ġ
ĠhuÃ¬Ġ huÃłĠ
suÇĴĠ xiÃ¡
mÇİĠ chÇİngĠ
mÇİĠ ÄĵnĠshÄĽngĠ
yÄ«ngĠ chÄģo
jiÃ¹Ġ kÄĽĠyÇĲĠ
zÃºĠ qÃºn
kÅįngĠ tiÃ¡oĠ
guÇİngĠbÅįĠ diÃłnĠshÃ¬Ġ
ĠĠĠtÄģ ĠzÃłiĠ
juÄģnĠ zÃ¨ngĠ
diÃłnĠqÃ¬Ġ huÃłĠ
le ĠdÃłĠliÃłngĠ
zhÇĲ ĠwÃ¨iĠ
dÄĽng ĠzhÃłnĠ
dÃ¡ ĠdÃłoĠleĠ
lÃºn ĠduÅįĠ
39 Ġ
ĠzhÃ¬Ġ lÇĲĠ
pÃŃngĠ gÅ«
diÃłnĠ xÃ¬nĠ
hÇİiĠ dÇĲĠ
ĠdÃłiĠ wÃ©iĠ
bÃłoĠ dÃ²ngĠ
mÃ©iĠ tÇĲĠdeĠ
fÄģnĠ chuÃ¡nĠ
yÅįngĠ yÇĴuĠdeĠ
bÃ¬ĠyÃ¨Ġ shÄĵngĠ
Ġ huÇĴ
Ġ sÃłiĠshÃ¬Ġ
Ġ pÄģnĠ
zhÄ« ĠxiÃłĠ
bÃ³ ĠlÃ¬ĠyÃłĠ
xiÅ« ĠshÃ¬Ġ
cÇİi ĠjÃŃĠ
gÄĽi ĠchÅ«Ġ
zÃ²ng ĠduÃ¬Ġ
ĠdeĠ zuÃ²ĠpÇĲnĠ
ĠzhÅįngĠ jiÃ©Ġ
ĠshÃŃĠ yÃºĠ
ĠyÄ«Ġ yÄ«Ġ
ĠjÅ«n ĠhÃ©Ġ
xÄ«nĠ zhÃº
qÇĲĠ huÃłĠ
dÇİoĠ zhÃ¬ĠdeĠ
ĠzhÃ¹Ġ zuÃ²Ġ
liÇİngĠ cÃ©ngĠ
luÃ²Ġ fÅ«Ġ
lÃ¬ngĠ wÃłi
ĠjÄ«ngĠ guÃ²
jiÇİĠ zÇĶĠ
ĠniÃ¡nĠ11ĠyuÃ¨Ġ 1ĠrÃ¬Ġ
Ġ xiÃ¡ng
Ġ 1986
Ġ 1954ĠniÃ¡nĠ
ĠĠĠ bÃ¡iĠ
Åįu ĠzhÅįuĠdeĠ
qÃŃ ĠtÄģĠdeĠ
liÃ¡n ĠsÄ«Ġ
zhÃ²ng ĠlÃ¬Ġ
huÃ¡ ĠwÃ¨iĠ
chÃłng ĠyÃ¬Ġ
qiÄģng ĠjÄ«Ġ
ĠrÃ©nĠ yÃ¬Ġ
ĠrÃ©nĠ wÃ©iĠ
ĠrÃ©nĠ cÃ¡iĠ
ĠÃ©r ĠwÃ¨iĠ
fÄĵnĠ fÄĵnĠ
ĠshÃłngĠ wÇĶĠ
tÃłiĠ luÃ³Ġ
ĠxiÃłĠ jiÃłngĠ
dÇĲĠ kÃłng
kÇİoĠ rÃ¹Ġ
dÃ¹nĠ niÃ¨ĠcÃŃ
ĠhÃ³ngĠ sÃ¨Ġ
yÇĲnĠqÇĲ ĠdeĠ
lÃ¹ ĠdÃ©Ġ
nÃ¡n ĠdÃłoĠ
zhÇĲ ĠdeĠshÃ¬Ġ
bÃło ĠdeĠ
pÇĶ ĠlÃ¬Ġ
zÅįng ĠshÃ¬Ġ
dÇĲng ĠbÃ¹Ġ
III Ġ
ĠzÃłiĠ dÅįngĠ
lÃ¬Ġ yÃ¬Ġ
duÃ¬Ġ yÃ¬ngĠ
ĠjiÄģĠ mÃ©ng
fÄģĠ dÃ¡Ġ
ĠduÃ¬Ġ kÃłngĠ
zhÄģngĠ dÄģnĠqÅ«Ġ
jÇĲnĠ cÃ¬ĠyÃºĠ
kuÃ²Ġ zhÄģng
shuÃłiĠ xiÄģnĠ
Ġ cÃ¨
Ġ 1948
Ġ gÄĵngĠmÃŃngĠwÃ¨iĠ
zhÄģng ĠjiÄģĠ
mÃłi ĠkÃ¨ĠÄĽrĠ
zÇİo ĠyÃºĠ
lÇİo ĠhuÃ¬Ġ
ĠbÃ¹Ġ xiÃłĠ
ĠbÃ¹Ġ lÇİngĠ
ĠdÃłĠ xuÇİnĠ
shÃłngĠ sÃ¹Ġ
pÃŃngĠ miÃłnĠ
nÃ¡nĠ xÃ¬ng
lÃ¹Ġ xÃ¹
ĠshÄĵngĠ yÃ¡
sÃłiĠ shÃ¬ĠdeĠ
biÄģnĠ rÃ¹Ġ
wÄĵiĠ fÅ«Ġ
yÄĽĠ mÃ©iĠyÇĴuĠ
ĠfÄĵnĠ lÃ¡nĠ
leĠyÄ«Ġ zhÇĴngĠ
ĠtÃ¡iĠ bÄĽiĠ
xiÄģngĠdÄģng ĠyÃºĠ
shuÃłiĠlÇĲng ĠdeĠ
Ġ 35
Ġ zÃ¡Ġ
ĠĠĠ 2001ĠniÃ¡nĠ
Ãłi ĠlÃ¬ĠsÄ«Ġ
zhÃ¨ng ĠhÃ©Ġ
zhÃłn ĠjÃŃĠ
lÃŃn ĠxiÃłnĠ
rÃ³ng ĠyÃºĠ
hÃ¡i ĠhuÃ¬Ġ
jiÄĽ ĠdeĠ
xiÅ« ĠxÄ«Ġ
ĠshÃŃĠ biÃ©Ġ
ĠyÃºĠ jiÄģĠ
ĠlÃ¬Ġ wÄĽiĠ
xiÃłĠ lÇİngĠdÃ©Ġ
mÃŃnĠ dÇİngĠ
ĠhuÃ² ĠÄĽrĠ
wÇİngĠ fÇİnĠ
mÃ¬Ġ mÇİĠ
zhÄĵngĠ duÃ³Ġ
cÄģnĠ yÇİnĠ
mÃłnĠ huÃłĠjiÄģĠ
huÃ¡nĠ rÃło
ĠluÃ³Ġ bÃ³Ġ
ĠdeĠrÃ©nĠ wÃ¹Ġ
ĠmÇİ ĠkÃ¨Ġ
ĠshÇĶĠ rÃ²uĠshÃŃĠxÃ¬ngĠ
ĠÄģi ĠÄĽrĠ
shÄ«ĠfÃłn ĠdÃłĠxuÃ©Ġ
jiÄģnĠchÃ¡ ĠyÃ¹ĠshÇĲĠ
Ġ chÇĶ
Ġ kÇĴng
Ġ niÇĶĠ
ĠĠĠ tÃ¡iĠwÄģn
wÄĵi ĠÄĽrĠsÄ«Ġ
tÃ¹ Ġ
nÇİ Ġ
ĠwÃ¨iĠ xÄ«ng
ĠjÃŃĠ yÇĴuĠ
mÃŃngĠ chÃ¡oĠ
ĠxiÃłnĠ rÃ¨n
ĠjiÄģĠ jÃ¹Ġ
wÃ©nĠ shÅ«Ġ
qiÃ¡nĠ lÃ³ngĠ
zÇĴngĠ jiÃłoĠqÅ«Ġ
ĠzhÇĶĠ jiÃłoĠ
ĠdeĠdÃ¬Ġ tiÄĽĠ
ĠgÄģoĠ dÄĽngĠ
ĠxiÇİoĠ shuÅį
huÃ³ĠdÃ²ng ĠzhÅįngĠ
ĠbÃ¹ĠguÃ² ĠzÃłiĠ
yÄ«ĠlÃ¬Ġ nuÃ²ĠyÄ«Ġ
Ġ mÃ¬ngĠmÃŃngĠ
Ġ huÄ«ĠfÃ¹Ġ
Ġ 1938ĠniÃ¡nĠ
ĠĠĠ xiÃłoĠ
zuÃ² ĠchÃ©ngĠ
bÃło ĠyÇĶĠ
zhÇİn ĠxiÃłn
zhuÄģng ĠyuÃ¡nĠ
lÇİo ĠrÃ©nĠ
bo ĠdÃ¹Ġ
pÃ©n Ġ
ĠhÃ©Ġ zuÃ²ĠdeĠ
ĠdÃ¬Ġ 1
ĠxiÃłn ĠyÃ¬Ġ
zuÃ²Ġ qÇĶĠjiÄģĠ
zhÃ¨ngĠ dÇİng
zhÃ¨ngĠ biÃłnĠ
ĠjiÄģĠ zÃºĠdeĠ
ĠtÄģĠ kÄĽĠyÇĲĠ
jÃ¹Ġ juÃ©
ĠbÃ¨iĠ jÄ«Ġ
yÃ¡nĠ fÄģ
zhÃŃĠ wÃ¹ĠdeĠ
ĠzhÃ¨ngĠ quÃłnĠ
zuÃ¬Ġ xÄ«nĠ
ĠzhÃ¨Ġ yÃ¬ĠwÃ¨iĠ
yÃ¹nĠ suÃłnĠ
ĠxiÄģngĠ jiÃłoĠyÃºĠ
mÃ¬Ġ mÃ¬
lÃ¨iĠ ÃłnĠjiÃłnĠ
jiÃłĠ zhÃŃĠdeĠ
Ã©Ġ wÃłiĠdeĠ
xiÄģnĠ qÅ«Ġ
lÃŃngĠ hÃºn
ĠjiÃłnĠzhÃ¹Ġ shÄ«Ġ
ĠxÃŃngĠzhÃ¨ngĠ zhÇİngĠguÄģnĠ
ĠdeĠbÃ¹Ġ duÃ¬Ġ
ĠhÄģ ĠlÃ¬Ġ
ĠhuÃłĠxuÃ© ĠshÃ¬ĠwÃ¨iĠ
Ġ tuÅį
Ġ nÃłi
Ġ huÃ¡ngĠjiÄģĠ
ĠĠĠ xiÄģngĠguÄģnĠ
ĠĠĠ miÃ¡oĠshÃ¹Ġ
fÃ¹ ĠwÃ¨iĠ
fÄģng ĠjÃ¬Ġ
pÃŃng ĠshÃ¬Ġ
bÄĽn ĠshÃ¬Ġ
tÃ¡i ĠyÇĶĠ
zÇĴu ĠleĠ
ĠchÃ©ngĠ shÃº
shÃłngĠ zhÃ¨nĠ
shÇĲĠ zhÄĽĠ
zuÃ¬Ġ zhÃ¹ĠmÃŃngĠdeĠ
shÅ«Ġ niÇĶ
jiÄģoĠ wÇİngĠ
zÇĶĠ zhÇİngĠ
ĠcÇĲ ĠzhÃłnĠ
ĠdeĠyÃ¬Ġ shÃ¹Ġ
niÇĶĠyuÄĵ ĠzhÅįuĠ
ĠxiÃłnĠlÃ¹Ġ kÇĴuĠ
wÇĴĠmen ĠdeĠ
shÃ²uĠhÃłiĠ zhÄĽĠ
Ġ kÇİn
Ġ Ð¸
Ġ hÄĽnĠduÅįĠ
Ġ biÄģoĠzhÃ¬Ġ
Ġ mĠ
ĠĠĠ Con
ĠĠĠ 20ĠshÃ¬ĠjÃ¬Ġ
wÃ©i ĠjÃŃĠ
zuÃ¬ ĠmÃŃngĠ
cÃ¡i ĠhuÃ¬Ġ
Microsoft ĠĠĠ
ĠqÃŃ ĠrÃ©nĠ
rÃ¨nĠ jiÃłoĠ
yÃ¡nĠ xÃ¹Ġ
gÄģoĠ cÃ©ngĠ
shÄ«Ġ zÅįngĠ
jiÄĵĠ shÃłngĠ
ĠtÃ³ng ĠniÃ¡nĠ8ĠyuÃ¨Ġ
ĠhuÃ²Ġ bÃ¬Ġ
biÇİoĠ miÃłn
ĠbÄĽnĠ shÄĵnĠ
zhÄ«Ġ hÃ²uĠdeĠ
ĠhÃłoĠ zhÇĴngĠziĠ
zhuÃłnĠ xiÄĽ
tiÃ¡oĠjiÃłnĠ xiÃłĠ
ĠyÃ¬ĠzhÃŃ ĠzÃłiĠ
shÄ«ĠqÃ¹ ĠleĠ
nÃłĠcuÃ¬ ĠdÃ©ĠguÃ³Ġ
Ã©ĠhÃłiĠÃ© ĠzhÅįuĠ
Ġ miÃ¡oĠ
Ġ huÃ¡ngĠdÃ¬Ġ
ĠĠĠ 13
shÄĵng ĠdÃłoĠ
kÃ¨ ĠdeĠ
zhÃŃ ĠgÅįngĠ
zhÃŃ ĠbÃ¨iĠ
zÇĶ ĠchÃ©ngĠyuÃ¡nĠ
yÄ«ng ĠshÃ¬Ġ
mÇĶ ĠhÃ©Ġ
zhÅįngĠ xuÃ©Ġ
jÄ«nĠ tiÄģnĠ
chÃ¡ngĠ chÃ¡ngĠ
tuÄ«Ġ fÄģn
ĠzhÃŃ ĠdÃło
ĠcÃ¬Ġ liÃ¨ĠchÄĵĠ
lÇľĠwÃ¨iĠ 0
Ġ zÃłi
Ġ liÃ¡n
Ġ nÃ©ng
Ġ ref
Ġ chuÃłngĠlÃ¬Ġ
Ġ 1966ĠniÃ¡nĠ
ĠĠĠ yÃ¡ngĠ
pÇĶ ĠdeĠ
kÃ¹ ĠdeĠ
zhÄģo ĠhÃ©Ġ
kÃło ĠjÃ¬n
rÃ©nĠ lÃ¨i
chÃ©ngĠ lÃ¬ĠdeĠ
ĠdÃ¬Ġ 4Ġ
jÃ¬Ġ lÃ¹
xÄ«Ġ lÇĲĠ
fÇİĠ Ãłn
mÃ¹Ġ hÇİnĠmÃ²ĠdÃ©Ġ
ĠyÄ«nĠ sÃ¹
jiÃ¨Ġ rÃ¹Ġ
zÇĴngĠ tÇĲĠ
gÇĶĠ bÄģĠ
ĠlÃ¹Ġ yÄ«nĠshÃ¬Ġ
huÃŃĠ lÃ¡iĠ
fÃ¨iĠ qÃ¬Ġ
sÄģiĠ Ã©Ġ
ĠmÃ©ngĠ gÇĶ
Ġ zhÄĽng
Ã© ĠjÅ«nĠ
ĠĠĠ rÃ¬
ĠĠĠ 7Ġ
qÄ« ĠmÃŃngĠ
zhÃłn ĠlÃ¬Ġ
fÃ¹ ĠyÃ¬Ġ
xÃ¬ng ĠdÃ¬Ġ
xiÃło ĠzhÅįngĠ
lÃ³ng ĠshÃ¬Ġ
pÃ¡i ĠqiÃºĠ
ĠbÃ¹Ġ bÃ¨iĠ
ĠbÃ¹Ġ shÃ²uĠ
ĠchÃ©ngĠ dÃ¹ĠdeĠ
ĠxiÃłnĠ dÃ¬ngĠ
ĠbÃ¨iĠ xuÇİnĠwÃ¨iĠ
zuÃ¬Ġ duÅį
ĠzhÃ¨Ġ yÄĽĠ
bÄģĠ dÃ¡Ġ
biÃłnĠ gÄĵngĠ
jiÃłĠ shÇĲ
ĠchÃ©ngĠyuÃ¡nĠ guÃ³Ġ
jÄ«ngĠlÃ¬Ġ leĠ
Ġ Ðµ
Ġ 1935ĠniÃ¡nĠ
tÃŃ ĠdeĠ
11 ĠshÃŃĠ
jiÃł ĠrÃ¬Ġ
xÃ¹n ĠdeĠ
quÄĵ ĠxiÃłnĠ
rÃ©nĠ lÃ¨iĠ
ĠbÃ¹Ġ lÇİng
ĠyÃºĠ 2008
ĠyÃºĠ 9ĠyuÃ¨Ġ
jiÄģĠ tÃŃng
ĠyÇĶĠ zhÄ«
ĠxÄ«Ġ lÃŃnĠ
ĠchÅ«Ġ jÃºĠ
ĠwÃ©iĠ lÃ¡iĠ
ĠdÃłiĠ lÇĲng
jiÄĽĠ jiÄĽĠ
jiÇİngĠ shÄ«Ġ
chÃ¹Ġ chÃ¹ĠzhÇİngĠ
chÇĶĠ cÃºnĠ
ĠdeĠshÃŃĠ jÃ¬Ġ
ĠwÃłnĠ dÅ«nĠ
lÃºĠ sÄĵnĠ
ĠxÃ¬Ġ bÄģo
gÄĵngĠ gÇİiĠ
mÃ¹ĠdÃ¬Ġ dÃ¬Ġ
ĠĠĠhÃ²uĠ lÃ¡iĠ
xiÃ©ĠshÄģngĠ huÃ¬ĠyÃ¬Ġ
Ġ bÇĲng
Ġ Sa
Ġ guÃłnĠ
Ġ 1975ĠniÃ¡nĠ
ĠĠĠ Mar
wÃ¹ ĠjÃŃĠ
dÃłi ĠshÃŃĠ
bÇİo ĠjiÃłnĠ
qÄ«ng ĠdeĠ
qiÃ¡ng ĠxÃŃngĠ
guÃłn ĠlÃ¬Ġ
gÃłn ĠshÃ¬Ġ
ĠshÃ¬Ġ juÃ©Ġ
ĠyÇĶĠ tÄģ
ĠlÇĲĠ chÃ¡Ġ
zhÃłnĠ chÇİngĠ
ĠzhÄ«Ġ yÃ²ngĠ
kÄģiĠ pÇĶĠ
sÄģnĠ cÃ©ngĠ
mÄĽiĠ lÄģĠ
zhÅįuĠ qÄ«Ġ
ĠtÃ³ngĠshÃŃĠ yÄĽ
kÄģiĠshÇĲ ĠhÃ²uĠ
ĠbÃ¬Ġ yÃ¨Ġ
zÄģiĠ hÃłiĠ
shÃ¹ĠliÃłng ĠdeĠ
kÄĽnĠ sÃ¨
5 ĠshÃŃĠ
hÃ²u ĠgÅįngĠ
chÅ« ĠxiÃłnĠdeĠ
qÅ« ĠwÃ¨iĠyÃºĠ
fÇİ ĠjÅ«nĠ
fÃº ĠdÃłĠxuÃ©Ġ
pÇĶ ĠsÄ«Ġ
zhuÄģng ĠzÃłiĠ
shuÃłi ĠjÅ«nĠ
ler Ġ
ĠhÃ©Ġ dÃłoĠ
ĠjÃŃĠ tÄģĠ
ĠyuÃ¡nĠ yÇĴuĠdeĠ
ĠdÃ© ĠshÃ¬Ġ
ĠdÃ© ĠzÃłiĠ
ĠlÇĲĠ jiÄģĠ
zuÃ¬Ġ jÃ¹Ġ
zÇĴngĠ guÇİnĠ
ĠguÃ²Ġ qÃ¹
kÄĽĠnÃ©ng ĠzÃłiĠ
ĠcÃ©ng ĠwÃ¨iĠ
lÃ¬ngĠyÄ«Ġ zhÇĴngĠ
ĠgÄģnĠ sÃ¹Ġ
ĠshÃŃĠyÄ«Ġ yuÃ¨Ġ
fÃºĠluÃ³ĠlÇĲĠ dÃ¡ĠzhÅįuĠ
ĠĠĠ mÇĲĠ
yÄ« ĠniÃ¡nĠdeĠ
shÃłng ĠyÃ¬Ġ
Ã©r ĠbÃ¨iĠ
nÃł ĠzÃłiĠ
wÄģn ĠdÃłoĠ
wÇİ ĠÄĽr
miÃło ĠdeĠ
tion Ġ
rÃ©nĠ kÇĴu
yÃ¬Ġ yÃ¬Ġ
ĠyÇĶĠ mÄĽiĠguÃ³Ġ
ĠxÃŃngĠ chÄĵĠ
rÃ¨nĠ tiÄģnĠtÃ¡ngĠ
xÄ«nĠ ÄģĠjÄ«ĠtÇİn
mÃŃnĠ jiÄģn
nÃ¨iĠ bÃ¹ĠdeĠ
ĠzhÃ¨Ġ liÇİngĠgÃ¨Ġ
yÄ«ngĠ chÇĲĠ
biÃłnĠ lÃ¹nĠ
liÇİngĠ xiÃłngĠ
ĠsuÃ¬ ĠrÃ©nĠkÇĴuĠ
ĠtÅįngĠ chÃ¡ngĠshÃ¬Ġ
suÅįĠ xiÄĽĠ
ĠyÃ²ngĠ lÃ¡iĠ
bÄĽiĠjÄ«ng ĠdÃłĠxuÃ©Ġ
lÃ¬ĠhÃ©Ġ wÃºĠzhÃ¨ngĠzhuÃłngĠgÇİnĠrÇİnĠzhÄĽĠ
ĠyÃ²uĠmÃŃngĠ BDĠ
ĠxÄ«nĠjiÄģĠ pÅį
hÃ¡ngĠzhÃłnĠ lÃ³uĠ
suÇĴĠxÅ« ĠdeĠ
Ġ hÇİo
Ġ dÇĲngĠ
Ġ nÃ©ngĠgÃ²uĠ
gÅįng ĠzhÅįngĠ
yÃ¡n ĠlÃ¬Ġ
suÇĴ ĠbÃ¹ĠtÃ³ngĠ
17 ĠniÃ¡nĠ
sÃ²ng ĠzhÃ¬Ġ
dÄģ ĠchÃ©ngĠ
ĠbÃ¹Ġ lÇĶĠkÃ¨Ġ
ĠgÃ¨ ĠyÇĴuĠ
ĠgÃ¨ ĠxiÃłnĠ
huÃ¬Ġ huÃłĠ
shÄĵngĠ zhÇİng
guÄģnĠ kÃłn
lÃ¹Ġ yÄ«nĠ
shÇĴuĠ hÃ¹Ġ
chuÃ¡nĠ jiÃłoĠ
ÃłnĠ chÃ¡Ġ
fÇİnĠ kÃłngĠ
mÃłnĠ hÄģĠ
ĠcÇĲĠ qiÃ¡nĠ
mÃłiĠ ÄģĠ
xuÄģnĠ gÃłoĠ
tÅ«Ġ juÃ©Ġ
ĠquÃ¡nĠguÃ³Ġ zhÃ²ngĠdiÇİnĠwÃ©nĠwÃ¹ĠbÇİoĠhÃ¹ĠdÄģnĠwÃ¨iĠ
ĠmÃŃnĠ zÃºĠ
ĠwÃ¨iĠyÃºĠgÄģiĠguÃ³Ġ bÄĽiĠbÃ¹Ġ
ĠxÄ« ĠyuÃ¡nĠ
mÇĲnĠ gÇİnĠ
ĠgÄģiĠwÃ¹ĠzhÇĴngĠdeĠmÃ³ĠshÃ¬ĠchÇİnĠ dÃ¬ĠzÃłiĠ
Ġ f
Ġ jÇĶ
Ġ yuÇİn
Ġ kÄĽĠyÇĲ
Ġ 1976ĠniÃ¡nĠ
hÃ²u ĠzhÃ¬Ġ
xiÃłng ĠzÃłiĠ
mÃ¬ ĠjÃŃĠ
gÃ¨ng ĠyÇĴuĠ
lÃ¡ng ĠdeĠ
ment Ġ
ĠshÃ¬Ġ xiÃłnĠ
ĠshÃŃĠ sÃ¬Ġ
zhÃłnĠ jÃ¹Ġ
zhÃ¨nĠ yÃŃngĠ
wÃºĠ guÄģnĠ
zhÄ«Ġ wÃłiĠ
zhuÄģngĠ bÃ¨i
hÄģĠ lÄģĠ
xuÄģnĠ chÄĵng
lÇİoĠ bÇİnĠ
ĠmÃ©iĠ tÇĲĠ
ĠsuÃŃĠ zhÃ¹
jiÄĵĠdÃłoĠ bÃłnĠshÃ¬ĠchÃ¹Ġ
ĠzÃłiĠzhÃ¨Ġ ge
ĠxiÃłng ĠshÃ¬Ġ
ĠÃłnĠ zhÃłoĠ
ĠkÃ¨ĠxÄ«Ġ tÇİĠnÃŃĠdÃłĠqÅ«Ġ
Ġ xÅ«
Ġ 1938
ĠĠĠ suÇĴĠ
ĠĠĠ wÅ«ĠkÃ¨ĠlÃ¡nĠ
qÅ« ĠyÇĶĠ
lÃ¹ ĠsÄ«Ġ
zuÃ¬ ĠjÃ¬nĠ
shuÇĲ ĠxiÃłnĠ
nÇļ ĠyÇĴuĠ
mÃ¬ ĠÄĽrĠ
zhÄĵn ĠxiÃłngĠ
ĠrÃ¬ ĠĠĠ
ĠsÄ«Ġ lÇĲĠlÃ¡nĠ
ĠwÃ©iĠ hÃ¹Ġ
ĠwÃ©iĠ xiÅ«Ġ
ĠdÃłiĠ bÇĶĠ
sÃłiĠ jÅ«Ġ
ĠhÃło ĠhÃ©Ġ
dÃ¡Ġ kÄĵ
xÃŃĠ sÃºĠ
yÇĲnĠ fÄģ
huÃŃĠ yÃ¬ng
hÃ¡iĠ bÄģoĠkuÃ²Ġ
xÃºnĠ hÃ¡ngĠ
chÃ³ngĠ xiÅ«Ġ
biÃ©Ġ shÃ¹Ġ
zÄģiĠ nÃłnĠ
ĠÃłi ĠdÃ©ĠhuÃ¡Ġ
jiÄģoĠhuÃ¬Ġ chÃ¹Ġ
1 ĠĠĠ
Ġ ãĤ¤
Ġ lÃ³uĠ
Ġ yÃ¹nĠdÃ²ngĠ
Ġ bÇİnĠbÄĽnĠ
ĠĠĠ bÇĲĠsÃłiĠ
yÄ«n ĠdeĠ
miÃłn ĠwÃ¨iĠ
cÃ¬ ĠshÃ¬Ġ
nÃ©ng ĠdeĠ
lÇľ ĠdÃ¬Ġ
qiÄģn ĠdÃłoĠ
tiÄĽ ĠdÃło
hÄĽn ĠgÄģoĠ
John ĠĠĠ
qÅ«Ġ yÃ¹ĠdeĠ
nÃłĠ cuÃ¬Ġ
shÇĶĠ xÃ¬ngĠ
quÃ¨Ġ rÃ¨n
mÃ¬ngĠ yÃ¹nĠ
gÃ¹Ġ wÃ¨n
wÇİĠ shÄĽngĠ
ĠniÃ¡nĠ6ĠyuÃ¨Ġ 30ĠrÃ¬Ġ
ĠcÃ³ng ĠshÃ¬Ġ
Ġ 88
ĠĠĠ 2002
lÇĲ ĠzhÃ¬Ġ
zhÅįu ĠniÃ¡nĠ
biÃ© ĠrÃ©nĠ
zÇİo ĠyÇĲĠ
13 ĠniÃ¡nĠ
mÇĴu ĠgÃ¨Ġ
by ĠĠĠ
ĠshÃŃĠ Ã¨rĠyuÃ¨Ġ
ĠyÄ«Ġ fÃºĠ
ĠgÃ¨ ĠchÅ«ĠrÃ¹ĠkÇĴuĠ
guÄģnĠ qiÇİ
yÃ¨Ġ tÇĲĠ
mÇİĠ dÄ«ngĠ
ĠjiÃ©Ġ gÃ²u
ĠtiÄģnĠ zhÇĶĠjiÃłoĠ
ĠshÃ¬ĠzhÃ¨nĠ fÃłnĠwÃ©iĠnÃ¨iĠ
bÇĶĠ jÇĲĠ
kÄĵĠxuÃ©Ġ yuÃłn
ĠguÄģnĠ zhÃ²ngĠ
ĠchÃºĠ le
ĠduÅį ĠgÃ¨Ġ
yÇĶnĠ kÄĵng
rÃ¨ĠdÃłiĠ dÄ«ĠqÃ¬ĠyÄģĠ
zuÃ¬ĠhÃ²uĠ yÃŃĠgÃ¨Ġ
Ġ lÄĵi
Ġ dÇĴng
Ġ yÄģnĠ
Ġ pÃ¨iĠhÃ©Ġ
ĠĠĠ shÃ¨Ġ
yÃº ĠniÃ¡nĠ
duÃ¬ ĠzhÃ¬Ġ
bÇĲ ĠsÄ«Ġ
biÃłn ĠhÃ²uĠ
rÃ³ng ĠhuÃ²Ġ
dÇĲ ĠbÃ¹Ġ
kÇİi ĠÄĽrĠ
rÃ¡o Ġ
lÇĲĠ yÃ³uĠ
mÃŃngĠ quÃ¨Ġ
shÄĵngĠ yÃ¹Ġ
ĠtÄģĠ dÄģnĠrÃ¨nĠ
nÃ¡nĠ hÇİiĠ
jiÄģnĠ guÇİnĠ
ĠquÃ¡n ĠchÃ©ngĠ
liÃłngĠ zÇĲ
jÇĲngĠ wÃ¹Ġ
pÃ¡iĠ chÃº
ĠwÃ©nĠ wÃ¹Ġ
ĠbÇĲĠ rÃº
ĠshÃ¬ĠzhÅįngĠ xÄ«n
ÅįuĠzhÅįu ĠguÃ³ĠjiÄģĠ
Ġ zÇİoĠniÃ¡nĠ
dÃł ĠshÃ¬Ġ
yÇĶ ĠshÃŃĠ
el Ġ
yÇĴuĠ xiÃłnĠ
ĠyÄ«Ġ zhÃłoĠ
ĠtÄģĠ yÃ²uĠ
fÇİĠ guÄ«Ġ
ĠshÃłngĠ xiÃłĠ
chÄĵngĠ zÃłn
ĠtÃ³ngĠ shÃŃĠzÃłiĠ
wÃ¡nĠ fÇİĠ
ĠfÄĵn ĠbÃ¹Ġ
ĠshÃ¬ĠshÃ¬Ġ zhÇİngĠ
ĠgÃ©Ġ lÃ©iĠ
ĠtÃ¨ĠbiÃ© ĠshÃ¬ĠzÃłiĠ
zhÃłnĠdÃ²u ĠzhÅįngĠ
tÃ¡iĠnÃ¡n ĠshÃ¬Ġ
Ġ Ð
Ġ jÃºĠ
ĠĠĠ zhÃ¨ĠxiÄĵĠ
xiÃłn ĠlÃ¹Ġ
huÃ¬ ĠchÃ©ngĠ
zhÃłn ĠyÇĶĠ
duÅį ĠlÃ¬Ġ
yÄĽ ĠzhÃłnĠ
shÄ« ĠzÃłiĠ
chÄĵ ĠzÃłiĠ
liÃº ĠdÃłnĠ
qÇĲng ĠqiÃº
bÇİng ĠdÄģnĠ
zÅ«n ĠshÇĴuĠ
kuÃŃ ĠbÄĽi
New ĠĠĠ
ĠrÃ¬ ĠshÃ¬Ġ
zuÃ²Ġ yÃ²ng
zhÇĶĠ yÃ¬ĠhÃ©Ġ
ĠbÃ¨iĠ sÄ«Ġ
diÃłnĠ cÃŃĠ
ĠkÃ¨Ġ lÃŃnĠ
bÄģĠ sÄģiĠ
zÇĶĠ shÅ«ĠjÃ¬Ġ
cÃŃĠ xÃ¬ngĠ
zhuÄģngĠ cÅ«nĠ
huÃ²Ġ wÃ¹Ġ
ĠgÄģoĠ sÃ¹Ġ
qÄ«nĠ wÃ¡ng
xÃ¬nĠ fÃ¨ng
ĠsuÃ¬ ĠdÃłoĠ
ĠshÇĲĠ chÄĵngĠ
ĠyÄ«ĠsÄ«Ġ lÃ¡n
jiÃłoĠkÄĵĠ wÃ©nĠ
bÄģĠlÃ¨ ĠsÄ«ĠtÇİn
mÃ¬ĠxÄ«ĠxÄ«Ġ bÇĲ
Ġ fÄģĠzhÇİn
jÃ¬ng ĠwÃ¨iĠ
cÄģn ĠjÅ«nĠ
ra Ġ
el ĠĠĠ
ĠdeĠ guÇĲĠdÃłoĠ
ĠgÅįngĠ bÃ¹
ĠyuÃ¡nĠ shÄĵngĠ
duÃ¬Ġ huÃłĠ
guÄģnĠ zhÃ¹
zhÇĲĠ dÇİo
luÃ³Ġ fÅ«
gÃ²uĠ chÃ©ngĠdeĠ
bÄ«ngĠ chuÄģnĠ
ĠgÄģoĠ dÃ¹Ġ
tuÄ«Ġ dÃ²ng
ĠniÃ¡nĠzÃłiĠ wÃ¨iĠ
yÇĲngĠxiÇİng ĠleĠ
ĠguÃ³ĠmÃŃnĠ zhÃ¨ngĠfÇĶ
ĠwÃ¨iĠyÃºĠgÄģiĠguÃ³Ġ dÅįngĠnÃ¡nĠbÃ¹Ġ
ĠdeĠjÄ«ĠchÇĶ ĠshÃłngĠ
Ġ Li
Ġ 1909ĠniÃ¡nĠ
gÅįng ĠzÃłiĠ
guÄģn ĠjiÃłn
liÃ¨ ĠdÃ¬Ġ
bÅį ĠxÄ«Ġ
hÃłn ĠrÃ©nĠ
wÃłng ĠdeĠ
1980 ĠniÃ¡nĠdÃłi
ĠbÃ¹Ġ xÃŃngĠ
ĠxiÃłnĠ lÃ¹
bÄĽnĠ shÅ«Ġ
gÃ©Ġ lÃ¡iĠ
jÃ¬nĠ zhÇİnĠ
wÄĽiĠ dÃłĠdeĠ
quÃ¡nĠ zhÇİngĠ
ĠlÃ¬ngĠ yÃŃĠgÃ¨Ġ
gÄĵngĠ huÃłnĠ
ĠdÅįng ĠrÃ¬ĠbÄĽnĠ
dÅįngĠjÃ¬Ġ ÃłoĠlÃŃnĠpÇĲĠkÃ¨ĠyÃ¹nĠdÃ²ngĠhuÃ¬Ġ
pÃŃngĠlÃ¹n ĠjiÄģĠ
2019ĠguÄģnĠzhuÃłngĠbÃ¬ngĠdÃº ĠbÃ¬ng
Ġ 99
Ġ duÇİnĠ
Ãło ĠdÃ©Ġ
lÇĲ ĠjÃŃĠ
jiÄģ ĠshÃŃĠ
jÄ«ng ĠchÃ©ngĠ
yÃ¨ ĠshÃ¬Ġ
tÃ¡i ĠshÃ¬Ġ
tÃ¡i ĠhÃ©Ġ
nÃŃ ĠjÄ«Ġ
dÇĲ ĠdeĠ
fÃ¨i ĠchÃ©ngĠ
shÃŃĠ jÃ¬Ġ
ĠshÃŃĠ jiÄģĠ
ĠzhÃ¬Ġ shÇĲĠ
ĠgÅįngĠ yÃ¹Ġ
ĠzhÅįu ĠzhÄ«Ġ
xiÄģngĠ tÃ³ng
shÇĴuĠ yÃ¬ngĠ
ĠkÃ¨Ġ hÃ¹Ġ
huÃ¡Ġ xuÄĽ
luÃ²Ġ yÃ¡ngĠ
gÃ¨ngĠ gÄģoĠdeĠ
ĠxiÃłnĠdeĠ chÃ©ngĠshÃ¬Ġ
hÄģĠ sÃłĠkÃ¨ĠsÄ«Ġ
pÃŃnĠ fÃ¡nĠ
xuÃ¨Ġ guÇİnĠ
mÃ¨ngĠ xiÇİngĠ
ĠĠĠzhÃ¨Ġ geĠ
zÄ«ĠgÃ©Ġ sÃłiĠ
lÃ¡nĠqiÃºĠ yÃ¹nĠdÃ²ngĠyuÃ¡nĠ
yÇĲnĠqÇĲ ĠleĠ
ĠkÇĴngĠ tÃłi
3 ĠlÃ¬Ġ
Ġ Ø
Ġ 1970
Ġ yÅįngĠ
Ġ zÇİoĠqÄ«Ġ
Ġ gÄģoĠzhÅįngĠ
Ġ 1977ĠniÃ¡nĠ
ĠĠĠ dÄģngĠshÃŃĠ
sÄ« ĠwÃ¨iĠ
jÃ¬n ĠqiÃºĠ
huÃł ĠjÃ¬Ġ
tÇĲ ĠwÃ¨iĠ
sÃłi ĠshÃłngĠ
sÄģi ĠÄĽr
liÃło ĠlÇĲĠ
xiÃ¨ ĠrÃ¨nĠ
chÅ«n ĠjiÃ©Ġ
ĠbÃ¹Ġ fÃ¹ĠbÃ¹ĠzhÇİngĠ
gÅįngĠ zuÃ²
ĠyuÃ¨Ġ kÄģnĠ
ĠqÃŃĠ xiÃł
yuÄĵĠ hÃłn
ÃłnĠ chÃ¡ĠsÄ«Ġ
cÃ¡iĠ zhÃ¨ngĠbÃ¹Ġ
yÇĲnĠ rÃ¹
jiÇİĠ bÇİnĠ
ĠpÃŃngĠfÄģngĠ yÄ«ngĠlÇĲĠ
jiÃ©ĠshÃ¹ ĠshÃŃĠ
ĠyÃ¬ĠzhÃŃ ĠshÃ¬Ġ
ĠniÇĶĠyuÄĵ ĠshÃŃĠbÃłoĠ
9 ĠgÃ¨Ġ
Ġ 1987
Ġ 1941
Ġ cuÄ«Ġ
suÇĴ ĠzhÃ¬Ġ
bÃ¡i ĠgÅįngĠ
color Ġ
wÃ©iĠ qÄ«Ġ
ĠjÅ«nĠ qÅ«
wÇĶĠ shÃ¹Ġ
ĠjÃ¹Ġ juÃ©
shÅ«Ġ fÇİĠ
yÇİnĠ xÃŃĠ
lÃ¨iĠ biÃ©Ġ
xÅ«Ġ nÇĲ
huÃłnĠ zhÄĽ
liÃłnĠ ÃłiĠ
ĠluÃ³Ġ mÇİ
ĠxÃŃngĠzhÃ¨ngĠ qÅ«ĠhuÃłĠ
ĠzuÃ¬ĠzhÅįngĠ yÃºĠ
ĠhuÃłĠ xuÃ©Ġ
ĠmÃŃnĠ jÃ¬nĠ
diÄģoĠ sÃ¹
dÄģĠ dÃłngĠ
ÄģĠgÄĵnĠ tÃŃng
1 ĠyÃ¬Ġ
ĠĠĠ Li
gÄģi ĠshÃ¬Ġ
wÄĽi ĠrÃ¨nĠ
lÇľ ĠhÃ©Ġ
xiÄģn ĠshÃ¬Ġ
jiÇİng ĠzuÃ²Ġ
zhÃ¬Ġ shÇİoĠ
sÄ«Ġ xiÇİng
ĠÃ©r ĠyÇĶĠ
ĠshÃ¨ ĠshÃ¬Ġ
qiÃ¡nĠ fÄģngĠ
ĠzhÃłnĠ shÃ¨ngĠ
zuÃ¬Ġ zhÇİngĠdeĠ
ĠhÃło ĠshÃ¬Ġ
gÇİiĠ zhuÄģngĠ
mÃ¬Ġ xiÄĵĠgÄĵn
yÃ¬ngĠ bÃ¬Ġ
dÇİĠ bÃłiĠ
hÃ¡nĠ shÃ¹
shÇĶĠdeĠ dÃ²ngĠwÃ¹Ġ
qÃ¬ngĠ zhÃ¹
yÇİĠ diÇİnĠ
wÅ«ĠkÃ¨ĠlÃ¡n ĠdeĠ
ĠjuÃ©Ġ dÃ¬ng
yÃ¬ĠshÃŃĠ dÃło
Ġ yÃ¡o
Ġ 1979
Ġ pÄ«ĠpÃŃngĠ
Ġ 1964ĠniÃ¡nĠ
ĠĠĠ 2001
ĠĠĠ styleĠ
hÃ²u ĠbÃ¹Ġ
shÇĴu ĠgÃ¨
zÃ© ĠrÃ¨nĠwÃ©iĠ
bÄģ ĠgÃ¨Ġ
wÃ¡ng ĠgÅįngĠ
shÃ¨ng ĠxiÃłĠ
bÇİi ĠwÃłn
yÃłn ĠshÃ¬Ġ
wÃłng ĠsÄ«Ġ
xiÅįng ĠzhÇİngĠ
ĠbÃ¹Ġ lÃ©iĠ
ĠguÃ³ĠjiÄģĠ ÄģnĠquÃ¡nĠ
yÄģĠ suÅįĠ
ĠzhÃ¬ĠzÃłoĠ shÄģngĠ
xuÃ©ĠxiÃło ĠdeĠ
5 ĠmÃŃngĠ
6 ĠshÃŃĠ
Ġ fÃłngĠ
Ġ fÄģĠzhÇİnĠ
Ġ duÃ³ĠdeĠ
Ġ 1968ĠniÃ¡nĠ
ĠĠĠ fÄĵiĠ
chÅ« ĠxiÃłn
shÄĵng ĠshÃŃĠ
shÇĲ ĠtÄģĠ
chÄĵ ĠrÃ©nĠcÃ¬Ġ
zÇĶ ĠjiÃłn
gÃ²u ĠjiÃłnĠ
wÄĵi ĠÄĽrĠshÃ¬Ġ
kÃ¹n ĠnÃ¡n
ke Ġ
nuÇİn Ġ
ĠdeĠ niÃ¡n
ĠshÃ¬Ġ qiÃ¡nĠ
dÃ¬Ġ shÃŃĠ
ĠyÇĴuĠ duÅįĠ
ĠyÇĴuĠ zheĠ
ĠgÅįngĠ yuÄĵĠ
ĠyÇĲĠ 3Ġ
bÄģĠ xÄ«
jiÄĽĠ mÃ¨iĠ
zhÃ¨ngĠzhÃ¬Ġ xiÃ©ĠshÄģngĠhuÃ¬ĠyÃ¬Ġ
shÃ¨Ġ huÃ¬ĠdeĠ
ĠjÄ«ngĠ yÃŃngĠ
xÃŃngĠzhÃ¨ngĠ qÅ«Ġ
lÄĽiĠ dÇİĠ
jiÃ©ĠmÃ¹ ĠzhÅįngĠ
Ġ 29
Ġ 1984
Ġ Ar
ĠĠĠ zhÇĲĠ
ĠĠĠ sÃ¬Ġ
ĠĠĠ dÃ©Ġ
Ãło ĠzhÅįu
Ã¡i ĠzhÃ¨ngĠ
mÄĽi ĠrÃ©nĠ
18 ĠniÃ¡nĠ
wÇİ ĠsÄ«Ġ
14 ĠniÃ¡nĠ
mÇİn ĠzhÅįuĠ
qiÄģng ĠdeĠ
mÇİi ĠjiÄģĠ
ck ĠĠĠ
lÃłn Ġ
ĠdeĠ chÃ©ngĠshÃ¬Ġ
ĠbÃ¹Ġ luÃ³Ġ
yÄ«Ġ yÃłngĠ
ĠzhÃ¬Ġ xÃ¹Ġ
ĠjÃŃĠ xÃ¬ngĠ
ĠlÃ¬Ġ xÄ«Ġ
ĠlÃ¬Ġ xiÃłnĠ
ĠyÇĶĠ duÅįĠ
ĠhÃ²uĠ xÃ¹Ġ
ĠduÃ¬Ġ zhÇİngĠ
ĠrÃ¨nĠ jiÃłoĠ
yÃŃĠ lÃ¡n
wÃºĠ xÅ«Ġ
jiÃłĠ zhÃŃ
jiÇİngĠ zhÄģngĠ
bÇĶĠ chÅįng
yÇĲngĠxiÇİngĠ lÃ¬ĠdeĠ
bÄģngĠzhÃ¹Ġ xiÃłĠ
cÄģngĠ kÃ¹Ġ
liÃºĠxÃŃngĠ yÄ«nĠyuÃ¨Ġ
wÅįĠ lÃºnĠ
ĠlÃ¬ĠtÃ¡oĠ wÇİn
Ġ pÃ¡ngĠ
sh Ġ
ĠĠĠ shÇĴuĠ
yÄ« ĠhÃ©Ġ
yÇĴu ĠwÃ¨iĠ
zhÃłn ĠjiÃłnĠ
dÃłi ĠzÃłiĠ
fÃ¹ ĠlÇĲĠ
jiÄģng ĠqÃŃ
duÅį ĠyÃºĠ
kÄģi ĠyuÃ¡nĠ
dÄģn ĠshÃ¬Ġ
xiÄģn ĠzÃłiĠ
cÃ¡i ĠfÃ¹Ġ
zÃłn ĠwÃºĠ
der Ġ
yÄ«Ġ jÃŃĠ
ĠrÃ©nĠ qÃºnĠ
ĠyÄ«Ġ jiÇİoĠ
lÇĲĠ sÄ«Ġ
duÃ¬Ġ kÃłng
yÃ³uĠ lÃ¡iĠ
ĠbÃ¨iĠ gÃ©Ġ
huÃłĠ tÃŃĠ
lÄģĠ dÄ«ngĠ
kÄĵĠ tÃ¨Ġ
gÇĶĠ gÃ©Ġ
ĠquÃ¡nĠ tÇĲĠ
gÃ²ngĠ xiÇİngĠ
hÃ¹Ġ zhÃłoĠ
ĠtÃ³ngĠ mÃ©ng
zhuÄģnĠ ÃłnĠ
shuÄģngĠ fÄģng
wÇİĠ lÄģĠ
lÃŃĠkÄģiĠ leĠ
wÃłiĠguÃ³Ġ rÃ©nĠ
gÇİiĠbiÄģn ĠwÃ¨iĠ
qiÇİngĠ pÃ²Ġ
Ġ tÃº
Ġ cÇİoĠ
mÇİ ĠdÃ©Ġ
tÃłi ĠhÃ©Ġ
wÃº ĠshÃ¬Ġ
tÃ¡ng ĠdÃłiĠ
16 ĠniÃ¡nĠ
kuÄģn ĠdÃ¹Ġ
qiÃło Ġ
ĠdeĠ gÄĵĠqÇĶĠ
ĠrÃ¬ ĠjÃŃĠ
ĠyuÃ¡nĠ xiÄģnĠ
ĠxÄ«Ġ fÄģng
shÃ¹Ġ xuÃ©ĠjiÄģĠ
lÃ¹Ġ duÃłn
gÃ©Ġ lÄĵi
jÄ«nĠ gÄģngĠ
yÃŃĠ bÃ¹ĠdeĠ
xuÇİnĠ bÃ¡
bÄģĠ hÃ¨
ÃłoĠ fÃºĠ
gÃ²uĠ rÃ¹Ġ
tuÅįĠ lÃŃ
ĠshÃ¬ĠdÃ¬Ġ Ã¨rĠ
ĠdeĠdÃłĠ xÃŃngĠ
ĠgÇİiĠ biÄģn
fÃ¡nĠ rÃ³ngĠ
ĠshÃ¬ĠwÃ¨iĠyÃºĠmÄĽiĠguÃ³Ġ mÃ¬ĠsÅ«ĠlÇĲĠ
tiÄģnĠjÄ«n ĠshÃ¬Ġ
Ġ yÇĴuĠdeĠ
Ġ 1972ĠniÃ¡nĠ
shÃ¹ ĠlÃ¬Ġ
zhÃ¹ ĠshÃ¨Ġ
mÇĲ ĠrÃ©nĠ
huÃ¡ ĠyÃ¬Ġ
bÃłi ĠhÃ²uĠ
background Ġ
ĠzÃłiĠ dÃ¹
ĠrÃ¬Ġ jÃ¬Ġ
mÃŃngĠ yÃ¹Ġ
ĠchÅ« ĠwÃ¨iĠ
ĠshÃłngĠ sÃ¹Ġ
nÃ¨iĠ zhÃ¨ngĠbÃ¹Ġ
yÃłĠ mÇİĠ
fÄĵngĠ bÃ¬Ġ
ĠzhÃ¹Ġ cÃ¨Ġ
shÇĶĠ wÃ¹ĠzhÇĴngĠ
ĠxiÃłngĠ mÃ¹
zÇĲĠ mÃ¨iĠ
ĠjÄ«nĠ tiÄģnĠ
ĠniÃ¡nĠ3ĠyuÃ¨Ġ 1ĠrÃ¬Ġ
leĠyÄ«Ġ zuÃ²Ġ
ĠzhÇĲĠ huÄ«Ġ
chuÃ¡nĠtÇĴng ĠshÃłngĠ
cÄģnĠsÃłiĠ zhÄĽĠ
jiÃ¨ĠquÃ¡nĠguÃ³Ġ rÃ©nĠdÃłĠdÃłiĠbiÇİoĠ
ĠxiÇİo ĠpÃŃngĠ
mÃ¹ĠbiÄģo ĠshÃ¬Ġ
fÄĵiĠlÃ¬Ġ pÇĶĠ
Ġ 69
Ġ Ra
Ġ lÃŃnĠshÃŃĠ
ĠĠĠ yÇĲ
ĠĠĠ zhÇĶĠ
ĠĠĠ colspanĠ
jiÃłn ĠguÃ³Ġ
bÃłn ĠxuÃ©Ġ
tÃ³u ĠyÃºĠ
pÃło ĠjÄ«Ġ
cuÄ« ĠhuÃłĠ
ĠwÃ¨iĠ 2
ĠgÅįngĠ wÃ¹ĠyuÃ¡nĠ
ĠyÃ¬Ġ miÃ¡oĠ
ĠchÃ©ngĠ nuÃ²
ĠdÃło ĠwÃ¨iĠ
ĠyuÃ¡nĠ yÃ¬Ġ
ĠlÇĲĠ yÃł
sÄģnĠ fÄĵnĠzhÄ«Ġ
nÃŃĠ ÃłoĠ
bÃłnĠ chÇİngĠ
shÄģngĠ hÃłi
yÃ¡nĠjiÅ« ĠzhÅįngĠ
xÅ«Ġ nÇĲĠ
dÃºĠ xÃ¬ngĠ
huÃ¡ĠrÃ©nĠmÃŃnĠ gÃ²ngĠhÃ©Ġ
ĠzhÅįngĠyÄģngĠ wÄĽiĠyuÃ¡nĠhuÃ¬Ġ
yÃ¬ngĠyÃ²ngĠ chÃ©ngĠshÃ¬Ġ
ĠdeĠguÄģnĠ diÇİnĠ
ĠxÄ«nĠjiÄģĠ pÅįĠ
w Ġ
Ġ VĠ
ĠĠĠ with
qiÃ¡n ĠlÃ¬Ġ
lÃŃn ĠhÃ©Ġ
xÄ«ng ĠrÃ©nĠ
sÃ¨ ĠhÃ©Ġ
ĠbÃ¹Ġ duÃ¬ĠdeĠ
ĠzhÃ¬Ġ dÃłĠ
hÃ²uĠ bÃ¨iĠ
zhÃ¨ngĠ jiÃłoĠ
ĠhÃ²uĠ yÃ²uĠ
duÃ¬Ġ bÇĲĠ
ĠÄĽr ĠjiÄģĠ
jÄ«ngĠ lÃŃngĠ
lÃ¡iĠ shuÅį
ĠkÃ¨Ġ lÃ©iĠ
ĠshÄĵngĠ yÄ«nĠ
shÄģnĠ lÃ¹Ġ
liÃ¨Ġ nÃŃngĠ
xiÃłoĠ xiÃłngĠ
biÄģnĠ jiÄģngĠ
dÇİngĠ wÄĽiĠshÅ«ĠjÃ¬Ġ
tiÃ¡oĠ yuÄĵ
jÅ«nĠ duÃ¬
dÄĵngĠ chÃ¡ng
ĠĠĠzhÅįngĠ huÃ¡ĠmÃŃnĠguÃ³Ġ
ĠyÇĲĠjÄ«ng ĠbÃ¨iĠ
ĠdÃ¬ĠzhÅįngĠ hÇİiĠ
ĠfÃºĠlÇİngĠ shÃ©nĠ
kÇİĠsÄ«ĠdÃ¬ĠlÃ¬Ġ yÃłĠ
Ġ dÃº
Ġ An
Ġ cÃºnĠzÃłiĠ
Ġ backgroundĠ
Äģn ĠdÃłĠ
wÃ©n ĠjiÃłn
jiÃ© ĠrÃ¬Ġ
dÄĽng ĠshÃ¬Ġ
huÃ¡ ĠnÃ¡nĠ
shuÄģng ĠxiÃłngĠ
bÇĶ ĠshÃŃĠ
is Ġ
yuÃ¡nĠ wÃłiĠlÃ¡ngĠ
ĠguÃ³Ġ huÃ¬ĠyÃ¬ĠyuÃ¡nĠ
ĠdÃ© ĠchÅ«Ġ
dÃłiĠ lÇĲngĠ
ĠjÅ«nĠ xiÃ¡nĠ
diÃłnĠ zhÃłnĠ
zÇĴngĠ zhÇİngĠ
ĠlÃ¹Ġ xÃ¹Ġ
nÇļĠ xÃ¬ngĠdeĠ
yÃ¡ngĠ xÃ¬ngĠ
tÃ³ngĠ pÃ¡iĠ
ĠdeĠyÄ«Ġ zuÃ²
kÅįngĠ xÃŃ
ĠyÄ«nĠwÃ¨iĠ zÃłiĠ
hÄĽnĠ shÇİo
ĠniÃ¡nĠ8ĠyuÃ¨Ġ 1ĠrÃ¬Ġ
ĠzhÃŃĠ yÃ¨Ġ
ĠdeĠhÃ©Ġ xÄ«nĠ
ÃłoĠlÃŃnĠpÇĲĠkÃ¨Ġ yÃ¹nĠdÃ²ngĠ
sÃłĠzhÅ«Ġ sÄģi
2 ĠshÃŃĠ
Ġ g
Ġ chÃ³ng
Ġ rÇĶ
Ġ chÇİnĠ
Ġ bÃºĠhuÃ¬Ġ
ĠĠĠ cÃ©ngĠ
ch ĠĠĠ
duÃ¬ ĠzhÅįngĠguÃ³Ġ
mÇİ ĠzhÅįuĠ
qÃ¬ ĠshÃ¬Ġ
yÃ¡ng ĠrÃ©nĠ
chÄģo ĠshÃ¬Ġ
43 Ġ
ĠzÃłiĠ xiÄģngĠgÇİng
bÃ¹Ġ duÃ¬Ġ
ĠdÃ¬Ġ zhÇĲĠ
ĠdÃłoĠ qiÃłnĠ
ĠjiÄģĠ zhÅįu
ĠtÄģĠ kÄģiĠshÇĲĠ
yÃ¹Ġ suÃłn
shÇĴuĠ qiÄģngĠ
zhÃŃĠ jiÃłoĠ
zhÃŃĠ tÅįngĠ
dÅįngĠ fÄĵngĠ
yÃŃĠ dÇİoĠ
dÃ¬ngĠ jÅ«
jÅ«Ġ zhÃ¹
gÃłiĠ yÃłoĠ
dÇĲngĠ diÇİnĠ
dÃłiĠbiÇİo ĠdÃłĠ
ĠzÃłiĠyÄ«Ġ cÃ¬Ġ
ĠbÅį ĠsÄ«Ġ
ĠzÃłiĠjiÄģĠ shÃłngĠ
Ġ 1960
zhÃ¨ng ĠrÃ©nĠ
rÃº ĠtÃ³ngĠ
pÃ¡i ĠdeĠ
17 ĠshÃ¬ĠjÃ¬Ġ
xÃº Ġ
ing Ġ
ĠbÃ¹Ġ lÃºnĠ
fÃºĠ lÇĶĠ
ĠzuÃ²Ġ yÃ²ng
ĠlÃ¹Ġ kÇĴuĠ
tÃºĠ shÄģ
ĠqÃŃĠzhÅįngĠ yÃŃĠgÃ¨Ġ
huÄ«Ġ sÃ¨Ġ
ĠdeĠshÃŃĠ dÃłiĠ
kÄģiĠshÇĲ ĠdeĠ
ĠmÇİ ĠsÄ«Ġ
zhuÄ«Ġ suÃŃĠ
ĠwÃłnĠrÃ©nĠ cÃ¬Ġ
ĠrÃ¨nĠwÃ©i ĠshÃ¬Ġ
ĠjÄ«ĠbÃłi ĠleĠ
xÄ«nĠchÃ©ngĠ lÃ¬ĠdeĠ
ĠfÄĵiĠlÇľĠ bÄ«nĠ
Ġ shÄģng
Ġ hÄĵng
Ġ 1940
Ġ miÃłnĠduÃ¬Ġ
Ġ 1960ĠniÃ¡nĠ
ĠĠĠ 14
Ãło ĠbÃ¹Ġ
zhÃłn ĠxiÃłnĠ
quÃ¡n ĠyÃ¬Ġ
hÇİi ĠzhÃłnĠ
shÄĵn ĠkÃ¨Ġ
sÃ¹ ĠwÃ¨iĠ
jiÄĽ ĠxÄ«Ġ
pÄ« ĠquÃ¡nĠguÃ³ĠzhÃ²ngĠdiÇİnĠwÃ©nĠwÃ¹ĠbÇİoĠhÃ¹ĠdÄģnĠwÃ¨iĠ
rÃ³u Ġ
ers Ġ
ĠzhÃ¬Ġ suÇĴĠzÃłiĠ
ĠdÃłĠ tÄ«ngĠ
ĠchÅ« ĠshÃ¬Ġ
guÄģnĠ zhÃŃĠ
ĠyÄ«n ĠzÃłiĠ
shÇĴuĠ xÃŃ
ĠrÃ¨nĠ nÃ¨iĠ
zuÃ¬Ġ xiÇİoĠ
bÃ¬Ġ huÃłĠ
ĠniÃ¡nĠ9ĠyuÃ¨Ġ 1ĠrÃ¬Ġ
pÃłoĠ bÄ«ngĠ
yÃ¬ĠshÃŃĠ dÃłoĠ
ĠdeĠzuÃ²Ġ pÇĲn
ĠjÃ¬ĠhuÃł ĠzÃłiĠ
ĠqiÃ¡ngĠ diÃłoĠ
qÇĲĠyÃ¨ ĠjiÄģĠ
ĠkÇĴngĠtÃłi ĠdÃłĠqÅ«Ġ
Ġ 1978
fÃº ĠsÄ«Ġ
fÄĵng ĠlÃ¬Ġ
jiÃ¹ ĠdeĠ
gÇİi ĠyÃ³uĠ
ni Ġ
cÃŃ ĠyÇĶĠ
dÄ« ĠdÃ¬Ġ
yÇİng ĠhÃ©Ġ
pÃło ĠdeĠ
DVD Ġ
ĠwÃ¨iĠ fÃ¹Ġ
ĠbÃ¹Ġ lÃ©i
ĠshÃŃĠ liÃ¹
ĠyÄ«Ġ dÃłi
ĠyÄ«Ġ kÃło
ĠjÃ¬Ġ jiÃ©Ġ
zhÃ¹Ġ rÃ¹Ġ
fÄĵnĠ wÃ©i
bÃ³Ġ lÇİn
bÃłnĠ jÃ¬ngĠ
xÃŃĠ guÃłn
ĠyÄĽĠ kÄĽĠ
cÄģnĠ tÄ«ng
qÄ«nĠ lÃ¼Ã¨Ġ
wÃłiĠjiÄģoĠ guÄģnĠxÃ¬Ġ
Ġ yÃ¬
suÇĴ ĠzhÄ«Ġ
liÃ¡n ĠsÄ«ĠjÄ«Ġ
miÃłn ĠyÇĴuĠ
sÃłi ĠhÃ©Ġ
tÅįng ĠdeĠ
chuÃ¡n ĠchÃ©ngĠ
ĠshÃ¬Ġ yÃ¬ngĠ
ĠniÃ¡nĠ yÃ³uĠ
ĠdÃ¬Ġ di
ĠxÄ«Ġ yÇĶĠ
rÃ¨nĠ nÃ¨iĠ
pÃŃngĠ jiÃ¨Ġ
nÃ¡nĠ yÇİnĠyuÃ¡nĠ
ĠdÃłn ĠyÃºĠ
yÃłoĠ sÃłiĠ
shÄģĠ tÃ¨Ġ
ĠwÃłn ĠmÃŃngĠ
yÇĲĠ lÃ¡i
tÃ¡oĠ lÃŃĠ
ĠdeĠrÃ©nĠ kÇĴuĠwÃ¨iĠ
yÃ¬nĠdÃ¹Ġ jiÃłoĠ
juÃ©ĠsÃ¨Ġ bÃłnĠyÇİn
juÄģnĠ zÃ¨ng
guÃ²ĠqÃ¹ ĠdeĠ
Ġ lÃ¹nĠ
ĠĠĠ huÃ¬Ġ
ĠĠĠ tÃ¨Ġ
ĠĠĠ hÇİiĠ
ĠĠĠ rÃºĠguÇĴĠ
le ĠdeĠ
qÅ« ĠzÃłiĠ
wÃ©n ĠhÃ©Ġ
zhÇİng ĠshÃŃĠjiÄģnĠ
chÃ¹ ĠzÃłiĠ
pÃ¨i ĠsÄ«Ġ
ĠniÃ¡n ĠshÃ¬ĠjiÃ¨
yuÃ¡nĠ sÃ¹Ġ
jÃ¬Ġ yÃ¬Ġ
jÄ«Ġ hÅ«Ġ
ĠgÃ¨ ĠshÃ¬Ġ
ĠjÅ«n ĠjiÃłnĠ
zhÃ¨Ġ zuÃ²Ġ
liÃ¡nĠ xÃ¬
fÄĵnĠ kÄģiĠ
shÄģnĠ kÇĴuĠ
dÄģnĠ dÄģngĠ
biÃłnĠ huÃłĠdeĠ
jiÇİnĠ yÃłnĠ
shÃ¨ngĠ diÃłnĠ
yÃ¡nĠjiÅ« ĠshÃ¬Ġ
jiÃłnĠ kÄģng
jiÄĽĠ pÅįu
ĠdeĠshÃ¬Ġ wÃ¹Ġ
ĠbÇĲĠ jiÃłoĠ
jÃ¹nĠ wÃ¡ngĠ
wÃ¡nĠchÃ©ngĠ hÃ²uĠ
sÅ«nĠ ziĠ
ĠwÃłiĠ jiÄģo
ĠrÃ¨n ĠzhÅįngĠgÃ²ngĠ
Ġ 78
Ġ gÅ«ĠjÃ¬Ġ
ĠĠĠ guÇĲĠdÃłoĠ
ĠĠĠ 1999ĠniÃ¡nĠ
lÇĲ ĠwÃ¨iĠ
mÄĽi ĠshÃŃĠ
fÄĵn ĠhuÃ¬Ġ
sÃłi ĠhuÃ¬Ġ
wÇĶ ĠjÃŃĠ
wÇĶ ĠrÃ¬Ġ
shÄģn ĠshÃłngĠ
lÃŃn ĠzÃłiĠ
gÇĶ ĠjÃŃĠ
wÄĵi ĠsÄ«Ġ
lÃŃng ĠshÃŃĠ
wÄĵn ĠhÃ©Ġ
chÃ¨ ĠchÅ«Ġ
ĠniÃ¡nĠ jiÄģn
ĠzhÅįngĠ wÇĶĠ
ĠyÇĲĠ cÇĲ
zhÃ¨ngĠ wÄĽiĠ
fÇİĠ tÃŃng
fÄĵnĠ xÄ«
liÃºĠ chuÃ¡n
xiÃ©Ġ huÃ¬ĠdeĠ
dÃłiĠbiÇİoĠ tuÃ¡n
xuÃ¡nĠ lÇľĠ
zhÃłngĠ Ãłi
ĠguÃ³ĠmÃŃnĠ gÃ©ĠmÃ¬ng
ĠtÃ¡ngĠ chÃ¡oĠ
ĠqÃŃĠtÄģ ĠrÃ©nĠ
ĠxÄ«ĠlÃł Ġ
jiÄģoĠliÃº ĠdÃłoĠ
Ġ zhuÃłng
Ġ 1981
ĠĠĠ quÃ¡n
li Ġ
kÄģi ĠdeĠ
luÃ³ ĠyÄ«Ġ
gÇİng ĠdeĠ
at Ġ
ĠshÃ¬Ġ tÃ¡iĠwÄģn
ĠjÃŃĠ jiÃ©Ġ
ĠxiÃłn ĠxÃŃngĠ
ĠdÃłĠ xiÇİo
ĠyÇĶĠ yÄ«nĠ
ĠchÅ«Ġ shÇĲĠ
bÇİoĠ Äģn
bÃłoĠ dÇİo
chuÃ¡nĠ fÃ³ĠjiÃłoĠ
biÃłnĠ huÃłn
gÇİngĠ kÇĴu
ĠyÄĽĠ chÄĵngĠwÃ©iĠ
xiÄģoĠ miÃ¨
wÅ«Ġ dÇĲngĠ
ĠluÃ³Ġ nÃ¨Ġ
ĠpÇĶĠ tÅįngĠ
ĠÃło ĠzhÅįuĠ
sÇĶnĠ shÄģngĠ
ĠwÃ¨iĠyÃºĠgÄģiĠguÃ³Ġ zhÅįngĠbÃ¹Ġ
zuÃ¬ĠhÃ²uĠyÄ«Ġ cÃ¬Ġ
ĠpÃŃng ĠjÅ«n
yÃ¬nĠdÃ¬Ġ ÄģnĠrÃ©nĠ
ĠqÇĲ ĠchÅ«Ġ
chÃ³ngĠqÃ¬ng ĠshÃ¬Ġ
ĠzhÄ«ĠjiÄģĠ gÄĵĠ
ĠÐµ Ġ
Ġ i
Ġ tÅįng
Ġ shÇİn
Ġ 1944
Ġ 140
fÃ¹ ĠzÃłiĠ
fÇİ ĠlÃ¬Ġ
mÃ¹ ĠjÄ«Ġ
bÄĽi ĠwÃ¨iĠ
gÄĵ ĠsÄ«Ġ
jiÃł ĠwÃ¨iĠ
bÄģng ĠdeĠ
ĠzÃłiĠ jÃ¹Ġ
ĠhÃ©Ġ yÇĲĠ
ĠyÄ«Ġ shÅ«Ġ
zuÃ²Ġ biÄģoĠ
ĠÃ©rĠ sÇĲĠ
ĠbÃ¬ngĠ zhÇĲĠyÃºĠ
jiÄĵĠ cÃ©ngĠ
tÇĲĠ cÄģoĠ
gÇİiĠ liÃ¡ngĠ
ĠchÃ©ngĠwÃ©iĠ yÃŃĠgÃ¨Ġ
ĠĠĠdÃ¬Ġ mÃŃngĠ
chÅįngĠ mÇİn
ĠniÃ¡nĠ6ĠyuÃ¨Ġ 1ĠrÃ¬Ġ
guÇİnĠlÇĲĠ jÃº
dÃłnĠ yÃłoĠ
zÃłoĠchÃ©ngĠ leĠ
tÃ¡iĠfÄĵngĠ jÇĲngĠbÃło
ĠruÃ¬Ġ diÇİnĠ
Ġ 1958
Ġ yÃłĠlÃ¬ĠshÄģnĠdÃłĠ
qÅ« ĠzhÄ«ĠyÄ«Ġ
bÃ³ ĠdeĠ
fÇİn ĠfÃ¹Ġ
zhuÇİn ĠrÃ¨nĠ
pÃłi ĠchÅ«
rÃ¨ ĠhÃ©Ġ
tuÃ¬ ĠchÅ«
1990 ĠniÃ¡nĠdÃłi
1950 ĠniÃ¡nĠdÃłiĠ
chÇĴu ĠkÄĵĠ
mm Ġ
ĠshÃŃĠ bÃ¹Ġ
ĠdÃ¬Ġ 3
ĠguÃ³Ġ dÃłĠ
zhÃłnĠ tÄ«ngĠ
nÃ¡nĠ cÃ¨Ġ
ĠbÃ¨iĠ shÄģĠ
shÇĴuĠ gÄĵĠqÇĶĠ
ĠpÃŃngĠ gÅ«Ġ
zhÃ¨nĠ yÄģ
bÃ¬Ġ yÃ¨
bÃ¬Ġ yÃło
tÃŃĠ jiÄģo
ĠdeĠdÃ¬Ġ xiÃłĠ
gÃ¹Ġ zhÃłngĠ
chÇĶĠ sÇĲĠ
ĠnÃ¨iĠ rÃ³ng
jiÄģoĠtÅįng ĠbÃ¹Ġ
dÃ²ngĠlÃ¬Ġ xuÃ©Ġ
xiÃłngĠmÃ¹ ĠdeĠ
gÇİnĠlÇİn ĠqiÃºĠ
Ġ bÄģn
Ġ xÅ«ĠyÃło
Ã© ĠdeĠ
Ãło ĠkÃ¨ĠxÄ«ĠtÇİĠnÃŃĠdÃłĠqÅ«Ġ
lÇĲ ĠyÃºĠ
mÃŃng ĠyÇĶĠ
zhÃłn ĠjÄ«Ġ
ÄĽr ĠsÄ«Ġ
shÃ¹ ĠniÃ¡nĠ
shÃ¹ ĠzhÄ«Ġ
sÄģn ĠhÃ©Ġ
zhÄĽ ĠzhÄ«ĠyÄ«Ġ
fÃłng ĠdeĠ
ĠwÃ¨iĠ rÃ¬ĠbÄĽnĠ
ĠhÃ©Ġ sÄ«Ġ
ĠzhÅįngĠ chÇİngĠ
ĠyÃ¬Ġ rÃ¬Ġ
ĠÄĽrĠ fÅ«Ġ
ĠbÃ¬ngĠ dÄģnĠrÃ¨nĠ
ĠqÃŃĠ jiÄģnĠ
ĠjÃ¬n ĠchÃ©ngĠ
ĠzhÃłnĠ chÇİngĠ
fÃºĠ lÄģĠ
cÇĲĠ qiÃ¡nĠ
lÃŃnĠ qÅ«Ġ
zÄ«Ġ gÃ©
ĠgÄģiĠ dÇİng
cÃ¡iĠ pÃłn
fÃłnĠ chÃ³uĠ
zhÅįngĠdeĠ yÃŃĠgÃ¨Ġ
ĠshÃ¹Ġ zÃ¬Ġ
ĠbÅįĠ lÃ¡n
ĠsÄģn ĠgÃ¨Ġ
chÄģĠ biÃ©Ġ
sÇĶnĠ hÃłiĠ
ĠshÃ¬ĠyÃ¬Ġ yuÃ¡nĠ
gÇİiĠbiÄģn ĠzÃ¬Ġ
bÅįĠshÃ¬Ġ dÃ¹nĠ
2 ĠmÇĲĠ
4 ĠĠĠ
Ġ gÄĵn
Ġ bÄ«ng
Ġ pÃ¡ng
Ġ onlyinclude
Ġ 1974ĠniÃ¡nĠ
ĠĠĠ di
hÃ²u ĠrÃ©nĠ
Ã¨r ĠhÃłoĠ
zÇĴng ĠrÃ©nĠkÇĴuĠdeĠ
gÄĵng ĠdÃ¬Ġ
zhÄģo ĠmÃ¹Ġ
text Ġ
ĠshÃ¬Ġ jÃ¬
ĠhÃ©Ġ hÃ²uĠ
ĠshÃŃĠ wÇĶĠ
yÃ¬Ġ jiÃłnĠ
ĠdÃłn ĠdÃłoĠ
mÃ©iĠ yÇĴuĠzÃłiĠ
tÃŃngĠ liÃºĠ
ĠdeĠyÄ«Ġ yuÃ¡nĠ
yÄ«nĠ mÃ³uĠ
zhÄĵnĠ zhÅ«Ġ
ĠsuÇĴĠ shÇĶĠdeĠ
chÃ³ngĠ bÃłiĠ
ĠdeĠshÃŃĠ wÃ¹Ġ
sÃ²ngĠ wÇİngĠ
ĠqÄ«ngĠ chÃ¡o
ĠnÇļĠ xÃ¬ngĠwÃ¨iĠ
ĠdeĠjÃ¬Ġ zÇİiĠ
xiÃłĠjÃ¬Ġ ÃłoĠyÃ¹nĠhuÃ¬Ġ
shuÃ¬Ġ miÃ¡n
zhÃłnĠzhÄĵng ĠdeĠ
huÃ¡nĠjÃ¬ng ĠzhÅįngĠ
gÄģoĠdÄĽng ĠxuÃ©ĠxiÃłoĠ
fÃºĠlÃ©i ĠdÃ©Ġ
Ġonlyinclude Ġ
Ġ jÅ«
Ġ juÇİn
Ġ 34
Ġ shÄģngĠyÃ¨Ġ
Ġ fÄģĠxÃŃng
jÄ« ĠwÃ¨iĠ
qÃŃ ĠxiÃłĠ
bÃ¨i ĠlÃ¬Ġ
jiÄģng ĠdeĠ
cÃ¡i ĠshÃ¬Ġ
30 ĠniÃ¡nĠ
hÇİn ĠjiÃłnĠ
jÄ«Ġ xiÃ¨Ġ
ĠzhÄ« ĠrÃ©nĠ
ĠgÃ¨ ĠjÃŃĠ
ĠzhÅįu ĠzhÃ¬Ġ
jiÄģnĠ jÃ¬nĠ
fÄģĠ diÃłnĠjÄ«Ġ
yÃ¨Ġ zhÄĽĠ
ĠtÃ³ng ĠzhÄ«Ġ
rÃ¹Ġ xuÃ©Ġ
chÃ¡ngĠ chÅ«n
qÃ¬Ġ wÄĵnĠ
qÄ«ngĠ chÇĶ
yÃ¡nĠjiÅ« ĠrÃ©nĠyuÃ¡nĠ
kÅįngĠ jiÄģnĠdeĠ
hÃ¡nĠ mÃŃnĠguÃ³Ġ
wÄĽiĠyuÃ¡nĠhuÃ¬Ġ zhÇĶĠrÃ¨nĠ
nÃŃngĠ bÅįĠ
Ã¨Ġ liÃ¨Ġ
tÅįngĠguÃ² ĠdeĠ
ĠyÃ¬ĠzhÃŃ ĠdÃłoĠ
ĠhÄģĠÄĽrĠ bÄ«nĠshÃ¬Ġ
tÃłnĠxiÇİn ĠduÃ¬Ġ
0 ĠbÇĲĠ
Ġ huÃ³Ġ
Ġ huÃŃĠdÃłoĠ
yuÃ¡n ĠĠĠ
zhÃŃ ĠxiÃłnĠ
chÄĵ ĠshÃłngĠ
shÄģn ĠjÃŃĠ
qÄ«ng ĠlÇĲĠ
kÃ¹ ĠsÄ«Ġ
1898 ĠniÃ¡nĠ
ĠzÃłiĠ gÄģoĠ
ĠÄĽrĠ bÄģĠ
ĠfÃ¹Ġ zÃ¡Ġ
zuÃ¬Ġ dÃł
zÇĴngĠ jiÃ©Ġ
ĠhÇİiĠ bÃ¡Ġ
liÃłnĠ jiÄĵĠ
ruÃ¬Ġ shÃ¬ĠdeĠ
mÇĴuĠ zhÇĴngĠ
ĠÄĽrĠsÄ«Ġ kÃ¨Ġ
ĠdÃ©ĠlÇĲĠ kÃ¨Ġ
ĠchÅ«ĠbÇİn ĠleĠ
ĠxÄ«nĠzÄĵngĠ jÃ¬ngĠwÃłiĠshÅ«ĠrÃ¹Ġ
Ġ Mo
Ġ pÄ«Ġ
Ġ fÄģĠshÄĵngĠ
Ġ mÇİnĠ
Ġ piÄģnĠ
ĠĠĠ s
ĠĠĠ tÃłiĠ
ĠĠĠ ÃłnĠ
jÇĲ ĠwÃ¨iĠ
yÃł ĠÄĽrĠ
Ã¨r ĠgÃ¨Ġ
tiÄģn ĠdÃ¬Ġ
yÃ²u ĠyÇĴuĠ
mÃ³ ĠÄĽrĠ
gÇİn ĠjÅ«nĠ
dÅ«n ĠdeĠ
sÃłng Ġ
MV Ġ
ĠyÃºĠ 2007
ĠyÇĴuĠ gÅįngĠ
jÃ¬Ġ zÇİi
ĠlÃ¬Ġ fÄģngĠ
zhÃ¨Ġ xiÃłngĠ
tiÄģnĠ qiÃ¡oĠ
ĠzhÃ¨Ġ lÃ¨iĠ
nÃłĠ rÃ¹
bÅįĠ luÃ³Ġ
zhÄĵngĠ yÃ¬ĠdeĠ
shuÅįĠ fÃºĠ
ĠgÄĵnĠjÃ¹Ġ 2010ĠniÃ¡nĠmÄĽiĠguÃ³ĠrÃ©nĠkÇĴuĠpÇĶĠchÃ¡Ġ
ĠgÅįngĠsÄ« ĠhÃ©Ġ
ĠwÃ¨iĠyÃºĠgÄģiĠguÃ³Ġ nÃ¡nĠbÃ¹Ġ
ĠshÃ¬ĠjiÃłn ĠzhÅįngĠ
sÄģngĠ nÃł
xiÅ«ĠzhÃ¨ngĠ ÃłnĠ
nÃ¡ĠpÃ²Ġ lÃºn
mÃŃnĠjÃ¬nĠ dÇİngĠ
Ġ Na
Ġ zhÄģnĠmÇĶĠsÄ«Ġ
zhÇĶ ĠjÄ«Ġ
rÃ¨n ĠhÃ²uĠ
guÄģn ĠyÇĶĠ
shÇĴu ĠzhÄ«Ġ
kÄĽ ĠgÅįngĠ
liÃº ĠqiÃº
kuÃ² ĠjiÃłn
mÃ³ ĠsÄ«Ġ
cÃ¡i ĠbÃ¨iĠ
ĠyÃ¬Ġ kÄĽĠ
ĠyÇĲĠ wÃłi
ĠjiÃłn ĠzhÄ«Ġ
duÃ¬Ġ cÇĲĠ
ĠxÄ«Ġ bÃ¹ĠdeĠ
xiÄģngĠ cÅ«nĠ
zhÃ¹Ġ yÃ¬ĠdeĠshÃ¬Ġ
ĠhuÃ² ĠqÃŃĠtÄģĠ
wÃ¡ngĠ zÇĲ
fÇĶĠ bÃłiĠ
ĠduÅįĠ cÃ¬
ĠhÃ©ĠguÃ³Ġ jÃ¬Ġ
pÃłiĠ xÃ¬Ġ
bÃ¬ngĠ fÄĵiĠ
leĠyÄ«Ġ chÃ¡ngĠ
ĠyÄ«nĠyuÃ¨Ġ huÃ¬Ġ
pÃŃnĠ lÇľ
Ġ2011 ĠniÃ¡nĠ12ĠyuÃ¨Ġ31ĠrÃ¬Ġ
chÄģiĠ chÃº
yÇĴuĠbÃ¹Ġ shÇİoĠ
zhuÄģngĠwÃ¨iĠ lÃŃnĠ
Ġ jiÄģo
Ġ bÄģngĠ
Ġ yuÃ¡nĠshÃ¬Ġ
Ġ 2025ĠniÃ¡nĠ
Ġ 1934ĠniÃ¡nĠ
ĠĠĠ Al
Äģi ĠdÃ©Ġ
yÇĶ ĠgÅįngĠ
le ĠhÃ©Ġ
nÃ¡n ĠdÃłĠxuÃ©Ġ
shÇĶ ĠdeĠyÄ«ĠzhÇĴngĠ
nuÃ² ĠkÃ¨Ġ
44 Ġ
shÃŃĠ qÄ«ĠdeĠ
lÃ¬Ġ chÇİngĠ
yÃ¬Ġ zhÃŃĠ
jÄ«Ġ xiÃ¨
ĠbÃ¨iĠ yÃ¹ĠwÃ©iĠ
zhÃŃĠ nÃ©ngĠ
zhÃŃĠ quÃ¡nĠ
dÅįngĠ hÇİiĠ
zhÇİngĠ zhÃ³u
qÇĲĠ fÄĵiĠ
mÇĲĠ yÃł
ÄģnĠ dÇİĠ
ĠzhÅįngĠguÃ³Ġ gÅįngĠ
mÃ³Ġ fÇİngĠ
xiÄģoĠ liÃłng
zhÇĶnĠ juÃ©ĠsÃłiĠ
ĠniÃ¡nĠ12ĠyuÃ¨Ġ 28ĠrÃ¬Ġ
shÄģoĠ huÇĲĠ
ĠĠĠyÇĲĠxiÃł ĠwÃ¨iĠ
ÄģĠÄĽr ĠjÃŃĠlÃ¬Ġ
ĠÐ¸ Ġ
Ġ bÄĵi
Ġ cÃ¡ng
Ġ shÃłngĠdeĠ
Ġ 24Ġ
Ġ 1927ĠniÃ¡nĠ
ĠĠĠ zhÃ¨
yÇĴu ĠzhÅįngĠ
fÇİ ĠhuÃ¬Ġ
hÇİi ĠdÃ¬Ġ
fÄĵi ĠÄĽrĠ
nÇĲ ĠdeĠ
ĠzhÅįngĠ yÇĲĠ
ĠyÃ¬Ġ fÄģngĠmiÃłn
fÃ¹Ġ zÃ¡
nÃ¡nĠ hÃ¡iĠ
ĠshÃ¨ ĠwÃ¨iĠ
huÃłĠ fÄĵnĠwÃ¨iĠ
ĠjiÃłnĠ zhÃ¹ĠdeĠ
ĠqÃŃĠ shÇĴuĠ
ĠzhÃłnĠ bÇĲĠ
jiÄĵĠ duÃłnĠdeĠ
yÃŃĠ cÃ¬ĠshÃ¬ĠjiÃ¨ĠdÃłĠ
ĠdÃłnĠ quÃ¨
ĠxiÄģngĠ bÇĲ
zhÄ«Ġ liÃºĠ
ĠnÃ¡n ĠyÇĶĠ
ĠÃłoĠ mÃ©n
ĠdeĠzhÅįngĠ xÄ«nĠ
ĠshÃŃĠzÃ¬Ġ lÇľĠ
wÃłiĠjiÄģoĠ guÄģnĠ
bÇİoĠjiÄģ ĠlÃ¬ĠyÃł
bÄģoĠkuÃ²ĠyÇĲĠxiÃłĠ wÃ¹ĠzhÇĴngĠ
j Ġ
Ġ n
Ġ qiÇİn
Ġ 1939
Ġ tÇĶĠdÃ¬Ġ
Ġ jÇĲĠyÇĶĠ
Ġ 1933ĠniÃ¡nĠ
ĠĠĠ fÄĵngĠ
ĠĠĠ diÃłnĠyÇĲngĠ
yÃ³u ĠshÃ¬Ġ
bÇİn ĠhÃ©Ġ
tÃºn ĠmÃ©nĠ
bÃ¡o Ġ
tiÄģo Ġ
ĠjÃ¬Ġ jÅ«nĠ
ĠxÃŃngĠ diÃłnĠlÃ¬Ġ
ĠchÅ« ĠxiÃłnĠyÃºĠ
ĠÃ©r ĠchÅ«Ġ
qÇĲĠ diÇİnĠ
chÅ«Ġ lÃ¡iĠ
zhÄ«Ġ jiÄģn
jiÇİngĠ huÃłĠ
hÃ¡iĠ mÃ©iĠyÇĴuĠ
ĠzuÃ¬ĠzhÅįngĠ yÇĲĠ
zÃºĠqiÃºĠ jiÇİĠjÃŃĠ
ĠdeĠyÃ¬Ġ jiÃłnĠ
ĠyÃ²ngĠ hÃ¹Ġ
sÄģnĠshÃŃĠ sÃ¬ĠniÃ¡nĠ
yÃ¬ĠshÃŃĠ xÃŃngĠtÃłiĠ
ĠguÃ³ĠwÃ¹Ġ yuÃłn
sÅ«ĠliÃ¡n ĠdeĠ
ĠyÄ«ĠlÃ¬Ġ shÄģĠbÃ¡iĠ
ĠyÄ«ĠsÄ«ĠlÃ¡nĠ jiÃłoĠ
tÃ³ngĠxÃ¬ngĠ liÃłnĠ
ĠhÄĵiĠlÃ³ngĠjiÄģngĠ shÄĽngĠ
zhÇĶĠjiÃłoĠzuÃ²Ġ tÃ¡ngĠ
dÃ¡ĠkÄĵ ĠtÄģĠ
Ġ hÃ³u
mÃŃng ĠdÃ¬Ġ
mÃŃng ĠchÃ©ngĠ
yÃ¹ ĠmÃŃngĠ
yÃ³u ĠhÃ©Ġ
xÄ«n ĠyÃ¬Ġ
mÄĽi ĠyÄ«Ġ
fÄĵn ĠzhÃ¬Ġ
tÃ¨ ĠshÃ¨Ġ
qÃ¬ ĠjÄ«Ġ
qiÄģn ĠniÃ¡nĠ
chÃ©n ĠshÃ¬Ġ
tÇİ ĠlÃ¬Ġ
liÃłn ĠdeĠ
41 Ġ
ĠshÃ¬Ġ bÄ«ng
ĠbÃ¹Ġ jiÃłnĠ
ĠbÃ¹Ġ yÇĲĠ
ĠqÃŃ ĠhÃ©Ġ
ĠtÄģĠ huÃ¬Ġ
ĠxÄ«Ġ lÃ¹Ġ
ĠlÇĲĠ jiÄĽĠ
shÇĴuĠ pÄ«Ġ
jiÃ©Ġ yÃ¹nĠ
fÄĵnĠ jiÄĽĠ
jiÄĵĠ bÃ³Ġ
ĠyÄ«nĠ ziĠ
ĠdÃłiĠ mÇİĠ
yÃŃĠ chÃºĠ
shÄģĠ mÃ²Ġ
chÅ«Ġ xÃŃĠ
cÃŃĠ qÃ¹Ġ
hÃ¡iĠ yÃłoĠ
ĠbÄģĠ lÃŃĠ
ĠrÃ¬ĠbÄĽn ĠrÃ©nĠ
yÃłĠlÃ¬Ġ sÄģngĠnÃł
dÇİoĠshÃ¬Ġ yuÃ¨ĠtÃ¡iĠ
ĠfÃ¹ĠzÃ© ĠrÃ©nĠ
chÃ©ngĠniÃ¡nĠ rÃ©nĠ
ĠĠĠwÃłn ĠlÃ¬Ġ
6 ĠmÇĲĠ
Ġ xuÄģn
Ġ zÄĵng
Ġ kuÃł
Ġ 38
Ġ nÃ¡nĠbÃ¹Ġ
Ġ hÃ¨ĠÄĽrĠ
Ġ 1971ĠniÃ¡nĠ
ĠĠĠ c
ĠĠĠ Be
liÃ¨ ĠrÃ©nĠ
10 ĠshÃŃĠ
dÃ¡ ĠlÃ¬Ġ
zhÄģng ĠchÃ©ngĠ
gÇİi ĠchÃ©ngĠ
tuÃ¡n ĠyuÃ¡nĠ
pÃłi ĠduÃ¬Ġ
dÇİ ĠchÅ«Ġ
bÇİi ĠrÃ©nĠ
hÅ«n ĠhÃ²uĠ
52 Ġ
yÄ«Ġ cÃ¬Ġ
jÃŃĠ tuÃ¡nĠ
ĠlÃ¬Ġ wÃ¹Ġ
ĠyÄ«Ġ shÃ¬ĠdeĠ
mÃŃngĠ xiÇİnĠdeĠ
ĠjiÄģĠ ÄĽr
xiÃłĠ shÇĶ
xiÃłĠ xiÃ¡Ġ
ĠjÃ¬n ĠjÅ«nĠ
cÇĲĠ lÃ¨iĠ
yÇĲngĠ yÃ¨Ġ
bÅįĠ lÃŃ
jiÇİnĠ ruÃ²Ġ
tÃ¡ngĠ chÃ¡oĠ
fÃ¡ngĠ hÃ¹Ġ
zhuÄģnĠ yÃ²ng
gÄģngĠ tiÄĽ
ĠmÄĽi ĠjÅ«nĠ
ĠĠĠyÄ«Ġ xiÄĵĠ
zhÇĴngĠjiÄģĠ cÃŃĠ
Ġ xiÃło
Ġ yÄģn
dÃ© ĠjÅ«nĠ
mÇİ ĠshÃłngĠ
liÃło ĠdeĠ
wÇİn ĠhuÃ¬Ġ
80 Ġ
kuÄģng Ġ
1896 ĠniÃ¡nĠ
ĠgÅįngĠ zhÇĶ
ĠyÄ«Ġ liÃłngĠ
zhÃ¨Ġ chÇİngĠ
ĠduÃ¬Ġ zhÃ¨nĠ
bÄĽiĠ fÄģng
bÄĽiĠ shÃłngĠ
shÄ«Ġ gÄĵĠ
mÇĲĠ lÃ¡nĠ
dÄģnĠ nÃŃĠÄĽrĠ
cÃ©ngĠ dÄģnĠrÃ¨nĠ
wÇİngĠ yÃ¨Ġ
wÄĵiĠ ruÇİn
ĠyÃ³u ĠjÄ«ĠchÄĵĠ
xiÄģoĠ fÃ¡ng
ĠmÃ¹Ġ biÄģoĠ
ĠĠĠdÃ¬Ġ sÄģnĠ
gÃ¨Ġ lÃ¨i
ĠyÇĴuĠyÄ«Ġ zuÃ²Ġ
tÃłnĠ xiÇİnĠ
ĠcÃ³ng ĠÃ©r
ĠsÅ«Ġ liÃ¡n
zhÅįngĠshÃ¬Ġ yÇİnĠ
zhÄ«ĠchÃŃĠ zhÄĽĠ
dÃŃĠshÃ¬Ġ nÃŃ
nÃ¡nĠsÄ«ĠlÄģĠ fÅ«Ġ
ĠhuÃ¡ĠshÃ¨ngĠ dÃ¹n
Ġ lÃ¡o
Ġ 1947
Ġ ãĤ¹
Ġ 1936ĠniÃ¡nĠ
Ġ 1931ĠniÃ¡nĠ
ĠĠĠ yÃ¡nĠ
ĠĠĠ isĠĠĠ
lÃ¬ ĠniÃ¡nĠ
hÃ²u ĠyÇĴuĠ
wÃ©i ĠshÃ¬Ġ
jÃ¹ ĠshÃ¬Ġ
zhÇĲ ĠhuÃ¬Ġ
nÇļ ĠshÄĵngĠ
bÇİn ĠshÃłngĠ
guÇĴ ĠshÃŃĠ
tÃ©ng ĠyuÃ¡nĠ
as Ġ
ry Ġ
ĠwÃ¨iĠ zhÃ¨ngĠ
ĠjÃŃĠ bÃ¨iĠ
ĠlÃ¬Ġ liÃłng
ĠlÃ¬Ġ yuÃ¡nĠ
yÃ¹Ġ nÃłnĠ
mÃŃnĠ yÃ²ngĠ
jiÄĵĠ dÃłiĠ
mÇİĠ lÃ¹Ġ
yÃŃĠ jÅ«
lÃŃnĠ shÄĽngĠ
ÃłoĠ duÅįĠ
tÃŃngĠ huÇĴĠ
kÄĽĠyÇĲĠ bÃ¨iĠ
kÃ¨Ġ lÃ¡iĠ
ĠjiÃłoĠ tÃ¡ngĠ
fÃ¨iĠ zhÇĲĠ
gÃ¹Ġ shÃ¬ĠdeĠ
nuÃ²Ġ fÅ«
ĠwÃ¨iĠdÃ¬Ġ xiÃłĠ
ĠfÄĵnĠbÃ¹ĠyÃºĠ nÃ¡nĠmÄĽiĠzhÅįuĠ
ÄģnĠdÃ©Ġ liÃ¨Ġ
ĠwÃ¨iĠyÃºĠgÄģiĠ shÄĽng
zÄ«ĠbÄĽnĠ zhÇĶĠyÃ¬Ġ
Ġcom Ġ
Ġ ãģĦ
Ġ bÄģĠshÃ¬Ġ
Ġ zhÃºĠjiÃłnĠ
Ġ zÇİoĠzÃłiĠ
ĠĠĠ lÃ³ngĠ
ĠĠĠ BĠ
xÄ« ĠrÃ¬Ġ
mÃ¹ ĠhÃ©Ġ
dÃ¬ng ĠshÃ¬Ġ
jiÃ¨ ĠyÃºĠ
zÃ© ĠyÃºĠ
jiÇĶ ĠzhÅįuĠ
hÃ¨n Ġ
ĠshÃ¬Ġ yÄ«nĠ
ĠzÃłiĠ tÃ¡iĠwÄģn
ĠlÃ¬Ġ rÃ¨n
ĠyÇĲ ĠshÃŃĠ
ĠyÄ«Ġ tiÃ¡o
ĠjÃ¬Ġ nÃ©ngĠ
ĠÃ©r ĠqÃŃĠ
chÇİngĠ shÄģngĠ
tÃłiĠ lÃ¡ngĠ
Ã¨rĠ shÃ¬ĠdeĠ
gÇİiĠ yÃ²ngĠ
qiÄģnĠ yÃŃĠ
ĠdÃłĠxuÃ©Ġ shÄĵngĠ
huÇĴĠ zÄģi
wÄĽiĠyuÃ¡nĠhuÃ¬Ġ fÃ¹ĠzhÇĶĠrÃ¨nĠ
gÄĵnĠjÃ¹ ĠdÃ¬Ġ
ĠbÄĽn ĠyÃºĠ
ĠĠĠzÇİoĠniÃ¡nĠ shÄĵngĠhuÃ³Ġ
zhÅ«ĠshÃ¬ĠhuÃ¬Ġ shÃ¨Ġ
Ġ zhuÄ«
Ġ 32
Ġ My
Ġ 1959ĠniÃ¡nĠ
Ġ 1940ĠniÃ¡nĠ
Äģ ĠkÃ¨Ġ
dÃ¬ ĠĠĠ
qÃŃ ĠzhÃ¬Ġ
wÃ©n ĠshÃ¬Ġ
wÃłi ĠdÃ¬Ġ
zi ĠzÃłiĠ
gÄĵ ĠhÃ©Ġ
diÇİn ĠzhÃłnĠ
xiÄģo ĠhÃłoĠ
xÃºn ĠqiÃº
ve ĠĠĠ
guÃłi ĠwÃ¹Ġ
yÃºĠ lÃ¨Ġ
ĠbÃ¹Ġ shÇĶ
yÇĶĠ zhÃ²u
rÃ¨nĠ tÃ³ngĠ
zhÇİngĠ guÄģn
ĠzuÃ²Ġ wÃ©iĠyÄ«Ġ
zuÃ¬Ġ dÄ«
ĠzÃ¬Ġ chÄĵngĠ
ĠxiÄģngĠ xÃ¬n
dÄģnĠ dÃº
tÃŃĠ qÃŃn
ĠnÃ¡nĠ fÄĵiĠ
sÇĲĠ qÃ¹Ġ
ĠĠĠshÃ¬Ġ jiÃ¨Ġ
fÃ¡Ġ kuÇİnĠ
niÇİoĠ lÃ¨i
cuÃ²Ġ wÃ¹ĠdeĠ
zhÃłnĠzhÄĵngĠ qÄ«ĠjiÄģnĠ
ĠjÄ«ĠbÄĽnĠ shÃłngĠ
bÃºĠ huÃ¬ĠzÃłiĠ
[...]
