{"!":0,"\"":1,"#":2,"$":3,"%":4,"&":5,"'":6,"(":7,")":8,"*":9,"+":10,",":11,"-":12,".":13,"/":14,"0":15,"1":16,"2":17,"3":18,"4":19,"5":20,"6":21,"7":22,"8":23,"9":24,":":25,";":26,"=":27,"?":28,"@":29,"A":30,"B":31,"C":32,"D":33,"E":34,"F":35,"G":36,"H":37,"I":38,"J":39,"K":40,"L":41,"M":42,"N":43,"O":44,"P":45,"Q":46,"R":47,"S":48,"T":49,"U":50,"V":51,"W":52,"X":53,"Y":54,"Z":55,"[":56,"\\":57,"]":58,"^":59,"_":60,"`":61,"a":62,"b":63,"c":64,"d":65,"e":66,"f":67,"g":68,"h":69,"i":70,"j":71,"k":72,"l":73,"m":74,"n":75,"o":76,"p":77,"q":78,"r":79,"s":80,"t":81,"u":82,"v":83,"w":84,"x":85,"y":86,"z":87,"|":88,"~":89,"¡":90,"¢":91,"£":92,"¤":93,"¥":94,"¦":95,"§":96,"¨":97,"©":98,"ª":99,"«":100,"¬":101,"®":102,"¯":103,"°":104,"±":105,"²":106,"³":107,"´":108,"µ":109,"¶":110,"·":111,"¸":112,"¹":113,"º":114,"»":115,"¼":116,"½":117,"¾":118,"¿":119,"Â":120,"Ã":121,"Ä":122,"Å":123,"Æ":124,"Ç":125,"È":126,"É":127,"Ê":128,"Ë":129,"Ì":130,"Í":131,"Î":132,"Ï":133,"Ð":134,"Ñ":135,"Ò":136,"Ó":137,"Ô":138,"Õ":139,"Ö":140,"×":141,"Ø":142,"Ù":143,"Ú":144,"Û":145,"Ü":146,"Þ":147,"ß":148,"à":149,"á":150,"â":151,"ã":152,"ä":153,"ê":154,"ë":155,"ì":156,"í":157,"î":158,"ï":159,"ð":160,"ñ":161,"Ċ":162,"Ġ":163,"ġ":164,"Ģ":165,"ģ":166,"Ĥ":167,"ĥ":168,"Ħ":169,"ħ":170,"Ĩ":171,"ĩ":172,"Ī":173,"ī":174,"Ĭ":175,"ĭ":176,"Į":177,"į":178,"İ":179,"ı":180,"Ĳ":181,"ĳ":182,"Ĵ":183,"ĵ":184,"Ķ":185,"ķ":186,"ĸ":187,"Ĺ":188,"ĺ":189,"Ļ":190,"ļ":191,"Ľ":192,"ľ":193,"Ŀ":194,"ŀ":195,"Ł":196,"ł":197,"Ń":198,"ng":199,"hÃ":200,"Ãł":201,"Äģ":202,"Ã¬":203,"Ã¡":204,"Ä«":205,"Ã¨":206,"Çİ":207,"ĠĠ":208,"Ã©":209,"ÃŃ":210,"shÃ":211,"Ã¹":212,"Ã¡n":213,"zh":214,"ÇĲ":215,"Åį":216,"ji":217,"de":218,"Ãłn":219,"Äĵ":220,"zhÃ":221,"sh":222,"ÄĽ":223,"Ã³":224,"ÇĶ":225,"xi":226,"Ã²":227,"Ãº":228,"Äģn":229,"ĠĠĠ":230,"Ãłi":231,"Å«":232,"Åįng":233,"ÇĴ":234,"ãĢ":235,"shÃ¬":236,"hu":237,"Ã¨i":238,"gu":239,"iÃ¡n":240,"hÃ©":241,"Ãło":242,"Äģng":243,"ÃŃng":244,"yu":245,"Çİn":246,"ch":247,"niÃ¡n":248,"yÄ«":249,"Çİng":250,"Ã©n":251,"ÇĴu":252,"Ã¬ng":253,"wÃ¨i":254,"Çİo":255,"zÃłi":256,"ãĢģ":257,"jÄ«":258,"Äĵng":259,"zhÅįng":260,"xÄ«":261,"bÃ¹":262,"jÃ¬":263,"Ãłng":264,"li":265,"zhÃ¨":266,"shÃŃ":267,"dÃ¬":268,"guÃ³":269,"yÃº":270,"rÃ©n":271,"Ã²ng":272,"chÃ":273,"Äģo":274,"du":275,"chÃ©":276,"yÇĲ":277,"lÃ¬":278,"Ã¡ng":279,"yÃ¬":280,"uÃ²":281,"Ã¡i":282,"zhÃ¬":283,"chÃ©ng":284,"Ã©i":285,"xu":286,"gÅįng":287,"jÃŃ":288,"²u":289,"ÄĽi":290,"iÃłn":291,"Äĵn":292,"Ã³ng":293,"yuÃ¨":294,"yÇĴu":295,"yuÃ¡n":296,"dÃł":297,"qi":298,"Åįu":299,"lÇĲ":300,"20":301,"Ã³u":302,"Äģi":303,"xiÃłn":304,"jiÄģ":305,"sÄ«":306,"Å«n":307,"xÃŃng":308,"yÇĶ":309,"Ã¨n":310,"ÇĴng":311,"ÃŃn":312,"tÄģ":313,"rÃ¬":314,"zhÄ«":315,"hÃ²u":316,"Çİi":317,"gÃ¨":318,"zhÃł":319,"Ã©ng":320,"le":321,"wÃ©i":322,"huÃ¬":323,"dÃło":324,"19":325,"bi":326,"shÃł":327,"qÄ«":328,"qÃŃ":329,"shÃ¨":330,"su":331,"zhÃ¨ng":332,"mÃŃng":333,"jiÃłn":334,"xuÃ©":335,"chÅ«":336,"yÃ¹":337,"ÄĽng":338,"zuÃ²":339,"shÄĵng":340,"duÃ¬":341,"yÃ³u":342,"qÅ«":343,"shÃłng":344,"ÄĽn":345,"dÃ©":346,"lÃ¹":347,"bÃ¨i":348,"chÃ¡":349,"ti":350,"shÇĲ":351,"zhÃłn":352,"zhÇĶ":353,"Äĵi":354,"qu":355,"jÃ¹":356,"xÄ«n":357,"jÅ«n":358,"zhu":359,"ÄĽr":360,"Ã¡o":361,"shÃ¹":362,"uÃ¬":363,"rÃ¨n":364,"fÄģ":365,"wÃ¹":366,"bÃ¬ng":367,"kÃ¨":368,"Ã©r":369,"dÃłi":370,"yÃŃ":371,"jÃ¬n":372,"zÃ¬":373,"yÄ«n":374,"fÃ¹":375,"fÄģng":376,"jÄ«ng":377,"nÃ¡n":378,"huÃł":379,"xÃ¬":380,"zhÅįu":381,"pÃŃng":382,"Ã²u":383,"xiÃł":384,"lÃ¡i":385,"yÃ²ng":386,"shu":387,"guÄģn":388,"tÃ³ng":389,"ãĢĭ":390,"ãĢĬ":391,"fÇİ":392,"zhÃ¹":393,"mÄĽi":394,"hÃ¡":395,"Â·":396,"jiÄģn":397,"jÇĲ":398,"huÃ²":399,"dÃ¹":400,"chu":401,"bÄĽn":402,"xiÄģng":403,"zhÃŃ":404,"dÃ²ng":405,"xiÃłng":406,"mÃŃn":407,"jiÄģng":408,"fÄĵn":409,"shÇĴu":410,"quÃ¡n":411,"wÃ©n":412,"yÃ¡n":413,"hÃł":414,"suÇĴ":415,"jiÃło":416,"qiÃ¡n":417,"diÃłn":418,"tÃ¨":419,"di":420,"duÅį":421,"Ãºn":422,"zuÃ¬":423,"kÄģi":424,"tu":425,"jiÃ©":426,"liÃ¡n":427,"zhÇĲ":428,"kÄĽ":429,"dÃłn":430,"mÃ¹":431,"yÃ¨":432,"fÃº":433,"mÇİ":434,"yÄĽ":435,"dÅįng":436,"qiÃº":437,"bÄĽi":438,"ãĢĮ":439,"ãĢį":440,"gÄģo":441,"yÃł":442,"qÇĲ":443,"jiÄĵ":444,"miÃłn":445,"hÇİi":446,"zhÇİng":447,"shÄ«":448,"jÄ«n":449,"cÇĲ":450,"lu":451,"nÃ¨i":452,"tÇĲ":453,"sÃłi":454,"sÄģn":455,"tÃ¡i":456,"gÃ©":457,"xÃ¬ng":458,"guÃ²":459,"rÃ¹":460,"201":461,"dÄĽng":462,"yÃło":463,"ju":464,"chÄĵ":465,"cÃ¬":466,"wÇĶ":467,"gÄģi":468,"dÃ¬ng":469,"chÃ¡ng":470,"biÇİo":471,"lÄģ":472,"gÃ²ng":473,"jiÃ¨":474,"shÃ²u":475,"dÇİo":476,"shÄģn":477,"chÇİng":478,"sÃ¬":479,"bÇĲ":480,"zÃ©":481,"tÃŃ":482,"kÄĵ":483,"dÄģng":484,"nÃ©ng":485,"Ã¨r":486,"wÃłi":487,"dÄģn":488,"xÃ¹":489,"zi":490,"kÇĴu":491,"xiÇİo":492,"zÇĶ":493,"bÄģ":494,"juÃ©":495,"lÃŃn":496,"liÃº":497,"shÄĽng":498,"yÄ«ng":499,"ku":500,"lÃ¡n":501,"luÃ³":502,"tÅįng":503,"200":504,"Ä«ng":505,"²ng":506,"mÇĲ":507,"zhÃ²ng":508,"en":509,"zhÄĽ":510,"shÇĶ":511,"tiÄģn":512,"zhÃ¨n":513,"Çļ":514,"qÃ¬":515,"zhÇĴng":516,"liÃ¨":517,"chÄĵng":518,"shÅ«":519,"yuÃłn":520,"bÇİo":521,"tÃłi":522,"fÇĶ":523,"fÄĵng":524,"gÇĶ":525,"qÄ«ng":526,"shÄĵn":527,"wÃ¡ng":528,"yÃ¹n":529,"guÇİn":530,"fÄĵi":531,"jiÃ¹":532,"liÇİng":533,"cÃ©ng":534,"mÃ©i":535,"10":536,"fÃ¨n":537,"hÃło":538,"³ng":539,"yÇİn":540,"wÄĽi":541,"zÇĴng":542,"xuÇİn":543,"xiÃło":544,"dÃ¡":545,"nÃł":546,"liÃłng":547,"bÅį":548,"zÃº":549,"jÃ¬ng":550,"bÃło":551,"nÃŃ":552,"wÃº":553,"tÇĴng":554,"huÃ¡":555,"jiÄģo":556,"yuÄĵ":557,"yÇĲng":558,"biÃłn":559,"xÄ«ng":560,"sÃ¹":561,"shuÇĲ":562,"yÃ¡ng":563,"hÃ¹":564,"men":565,"bÄģo":566,"gÄĵ":567,"bÃ³":568,"cÄģn":569,"cÃ³ng":570,"diÇİn":571,"bÃ¬":572,"rÃº":573,"bÃłn":574,"biÄģn":575,"wÇİng":576,"qÇĶ":577,"mi":578,"chÇİn":579,"sÃ¨":580,"zÄ«":581,"chuÃ¡n":582,"00":583,"shÃ¨ng":584,"rÃ¡n":585,"tÃº":586,"zhÄģng":587,"pÇĶ":588,"gÇİi":589,"gÇİng":590,"nÇļ":591,"lÃ¬ng":592,"luÃ²":593,"yÃ²u":594,"tÃ³u":595,"cÃ¨":596,"lÇ":597,"chÃŃ":598,"18":599,"lÇľ":600,"qiÄģn":601,"shÃ©":602,"lÃŃ":603,"dÅįu":604,"pÇĲ":605,"12":606,"zhÄĵng":607,"ni":608,"kuÃ²":609,"shÄģ":610,"dÇİng":611,"fÇİn":612,"gÃ²u":613,"lÃ¨i":614,"xÃŃ":615,"jÇĲng":616,"tuÃ¡n":617,"wÄĵi":618,"xiÄĵ":619,"lÇĲng":620,"lÃ³ng":621,"guÄ«":622,"xiÄģn":623,"rÃ³ng":624,"huÃ¡ng":625,"xiÇİng":626,"bÄģn":627,"jiÇĶ":628,"yÃ¬ng":629,"mÃ©n":630,"shÄģng":631,"shÃ©n":632,"202":633,"bÇİn":634,"kÇİ":635,"mÇĶ":636,"jÇĲn":637,"fÅ«":638,"jÇĶ":639,"mÃ³":640,"guÇİng":641,"cÃŃ":642,"shuÅį":643,"qÃŃng":644,"zhÇİn":645,"hÃ¡i":646,"zhuÄģng":647,"mÃ²":648,"cÃ¡i":649,"dÃº":650,"11":651,"pÇĲn":652,"tÃŃng":653,"chÃ¡o":654,"yÃŃng":655,"tiÃ¡o":656,"jiÇİn":657,"tÃ¡ng":658,"huÃŃ":659,"duÃłn":660,"chÃ©n":661,"gÄĵn":662,"mÃ¬":663,"wÃłn":664,"pÃ¡i":665,"wÄģn":666,"zÃło":667,"hÃ¡ng":668,"wÃ¡n":669,"biÄģo":670,"gÃ¹":671,"lÃºn":672,"199":673,"xiÃ©":674,"jiÇİng":675,"hÃłn":676,"jÃº":677,"fÃłn":678,"fÃ¡ng":679,"huÃ³":680,"hÃ¡n":681,"pi":682,"kÅįng":683,"or":684,"tiÄĽ":685,"mÃ©ng":686,"biÃ©":687,"wÅ«":688,"jiÄĽ":689,"zhuÄģn":690,"yÇĲn":691,"xÅ«":692,"zhÄĵn":693,"dÇĲ":694,"er":695,"chÃº":696,"hÃº":697,"jiÃł":698,"bÄ«ng":699,"mÃ¬ng":700,"lÃŃng":701,"hÃ³ng":702,"qÄ«n":703,"zÇĲ":704,"lÃ¹n":705,"xÃ¬n":706,"chÃ¹":707,"chÇĶ":708,"sÅ«":709,"an":710,"xiÅ«":711,"zÅįng":712,"15":713,"quÃ¨":714,"xiÄģo":715,"zhÃło":716,"qiÃ¡ng":717,"qÃ¹":718,"cÅ«n":719,"chÃ³ng":720,"piÃłn":721,"jiÅ«":722,"fÃłng":723,"suÃŃ":724,"shÅįu":725,"gÃ¨ng":726,"âĢ":727,"guÄģng":728,"Ã¨ng":729,"jÅ«":730,"on":731,"jiÇİ":732,"chuÃłng":733,"dÃŃ":734,"16":735,"zhuÇİn":736,"guÇĴ":737,"xÃ¹n":738,"mÃłn":739,"pÃłi":740,"fÃ¨i":741,"pÃ¨i":742,"198":743,"dÇİ":744,"tuÅį":745,"la":746,"xuÄģn":747,"bÃ¡i":748,"zhÅ«":749,"dÅ«":750,"tÇĶ":751,"diÃło":752,"xiÃ¡":753,"liÃ¹":754,"17":755,"suÃ¬":756,"huÄ«":757,"tÄ«ng":758,"qiÄĽ":759,"tÇİ":760,"qiÃ¡o":761,"hÄģ":762,"gÇİn":763,"zÄĵng":764,"xiÇİn":765,"mÃłi":766,"huÃ¡n":767,"xÇĶ":768,"wÇİ":769,"tuÄ«":770,"wÃ¨n":771,"chÄģo":772,"tiÃ¡n":773,"bÇİi":774,"cÇİi":775,"liÃ¡ng":776,"yÃ¡":777,"sÃł":778,"ar":779,"bÃłi":780,"cÃºn":781,"jiÇİo":782,"shÇİo":783,"yÃłn":784,"zhuÃłng":785,"huÇĴ":786,"lÃ©i":787,"14":788,"zu":789,"jiÃłng":790,"chuÄģn":791,"yÃ¬n":792,"zÇİo":793,"chÃł":794,"yÇĴng":795,"sÇĲ":796,"dÄĵng":797,"30":798,"zhÇĶn":799,"lÃ¨":800,"xÃºn":801,"nuÃ²":802,"kÃ¹":803,"huÃłn":804,"sÃ²ng":805,"gÃło":806,"lÇĶ":807,"13":808,"194":809,"bÄģng":810,"lÇļ":811,"pÄ«":812,"yÃłng":813,"hÄĽn":814,"qÃºn":815,"zhÄĽng":816,"guÃłn":817,"pÃ²":818,"gÄģng":819,"wÇĴ":820,"197":821,"huÄģ":822,"lÄĵi":823,"hÇİo":824,"tÃ¡o":825,"kuÃłng":826,"hÃ¨":827,"in":828,"dÃ¹n":829,"nÃ³ng":830,"gÄĽi":831,"sÄģi":832,"shuÄģng":833,"liÃłn":834,"kuÃłi":835,"dÄ«":836,"bÄ«":837,"pÃłn":838,"xiÄĽ":839,"195":840,"kÇİo":841,"gÃłi":842,"hÄĵi":843,"wÃłng":844,"liÃło":845,"rÃ¨":846,"ge":847,"zuÇĴ":848,"kÃ²ng":849,"196":850,"yÄģng":851,"chÃłng":852,"yÃŃn":853,"³u":854,"rÃ©ng":855,"sÄĵn":856,"bÄĵi":857,"lÃº":858,"piÃło":859,"yÄģ":860,"25":861,"bÄ«n":862,"âĢĶ":863,"rÃłng":864,"chÅįng":865,"lÃ³u":866,"bÇĶ":867,"lÇİo":868,"zhÃº":869,"jÃ¹n":870,"yÇİng":871,"ruÃ¬":872,"yÄģo":873,"xiÃ¡n":874,"xiÃ¨":875,"niÃłn":876,"for":877,"yÅįu":878,"tÃ¡n":879,"kÄģng":880,"pÃŃ":881,"hÃ©ng":882,"yÃºn":883,"xÇĲ":884,"kÃłn":885,"nÃŃng":886,"liÃ¡o":887,"shÃło":888,"bÃº":889,"24":890,"qÇĲng":891,"chÇĲ":892,"mu":893,"dÃ²u":894,"miÇİn":895,"yÅįng":896,"tÇİn":897,"wÇİn":898,"hÅ«":899,"fÄģn":900,"al":901,"tÅ«":902,"gÄģn":903,"suÃłn":904,"dÄ«ng":905,"yuÇİn":906,"wÄĵn":907,"tuÃ¬":908,"zhe":909,"21":910,"st":911,"xiÃ¹":912,"bÇİ":913,"mÇİn":914,"193":915,"23":916,"mula":917,"kÃłng":918,"formula":919,"28":920,"th":921,"mÃ¡o":922,"ruÃ²":923,"piÄģn":924,"chÃ¨":925,"mÃło":926,"lÇİng":927,"qÃŃn":928,"bÃ¡":929,"nÃ¡":930,"zÃłn":931,"guÇĲ":932,"guÃ¬":933,"ou":934,"pÃŃn":935,"wÃ²":936,"xiÃ³ng":937,"shÃłn":938,"re":939,"22":940,"xiÅįng":941,"me":942,"suÄ«":943,"Ã¼":944,"26":945,"shÄĽn":946,"qÃ¬ng":947,"miÃ¡o":948,"fÇİng":949,"50":950,"2020":951,"27":952,"lÃ¡ng":953,"ru":954,"qiÅ«":955,"sÅįng":956,"Ã¼Ã¨":957,"dÃłng":958,"gÄĵng":959,"qiÄģng":960,"ri":961,"fÃ¡":962,"zÄģo":963,"fÃ¨ng":964,"zhÃłng":965,"ï¼":966,"hÃ¡o":967,"dÅ«n":968,"zÇĴu":969,"hÃłi":970,"qiÃ¨":971,"29":972,"tÃłn":973,"pÃło":974,"pÃł":975,"shÃ¹n":976,"pÃ©ng":977,"xuÃ¡n":978,"2010":979,"nÇĲ":980,"000":981,"dÇĲng":982,"niÇĶ":983,"zÇİi":984,"zhÄģo":985,"zhuÄ«":986,"lÃ¼Ã¨":987,"chÅ«n":988,"2019":989,"hÅ«n":990,"kÇĴng":991,"duÄģn":992,"shÃ¨n":993,"xiÃ¡ng":994,"duÇİn":995,"gÃłn":996,"te":997,"ro":998,"kÄģn":999,"lÃ¡o":1000,"cÇİo":1001,"2016":1002,"si":1003,"gÅ«":1004,"pÃ©i":1005,"2018":1006,"kuÇİn":1007,"zÃ¡":1008,"sÅ«n":1009,"yÃ©":1010,"yÇİ":1011,"pÅį":1012,"2021":1013,"ra":1014,"chÃ¬":1015,"duÃ³":1016,"2014":1017,"fÃ¡n":1018,"2011":1019,"2015":1020,"cuÃ²":1021,"2017":1022,"zhÃ©":1023,"yÃ¡o":1024,"pÄģi":1025,"tÃ²u":1026,"cÃ¡ng":1027,"2012":1028,"40":1029,"kÇİi":1030,"2013":1031,"2022":1032,"mÃŃ":1033,"ruÇİn":1034,"suÄģn":1035,"chÄģ":1036,"zÃłng":1037,"miÃło":1038,"lt":1039,"2009":1040,"zhÇİo":1041,"2008":1042,"huÃ¡i":1043,"ãĥ":1044,"ce":1045,"60":1046,"am":1047,"cu":1048,"xuÃ¨":1049,"chÃ³u":1050,"se":1051,"bÇİng":1052,"mÃ¨ng":1053,"100":1054,"tÃ¬":1055,"pÃº":1056,"nÇİo":1057,"2023":1058,"zhuÃłn":1059,"gt":1060,"lÄĽi":1061,"190":1062,"31":1063,"cÃłi":1064,"cÃ¹":1065,"sÃłn":1066,"mÃ³u":1067,"tion":1068,"ta":1069,"hÃ¹n":1070,"ÇĶn":1071,"kuÄģn":1072,"2007":1073,"niÃº":1074,"mÇĴu":1075,"tÇİo":1076,"diÃ©":1077,"2001":1078,"ol":1079,"tÃ©ng":1080,"sÅįu":1081,"kÄĽn":1082,"qiÇİn":1083,"chÄģng":1084,"rÇİn":1085,"quÄĵ":1086,"fÇĴu":1087,"sÇĶn":1088,"el":1089,"bÃł":1090,"2000":1091,"80":1092,"kÃło":1093,"suÅį":1094,"2006":1095,"niÇİo":1096,"chÃºn":1097,"ma":1098,"2024":1099,"lÇİn":1100,"ãģ":1101,"zÄģi":1102,"zhÃ¡":1103,"xuÄĽ":1104,"huÇĲ":1105,"luÃłn":1106,"tÇĲng":1107,"2005":1108,"zÅ«n":1109,"bÃłng":1110,"lÃł":1111,"huÄģn":1112,"rÇİng":1113,"shuÃ¬":1114,"mÇĲn":1115,"35":1116,"lÃłi":1117,"cÄģng":1118,"70":1119,"fÃ³":1120,"pÃ¡n":1121,"of":1122,"nÃłi":1123,"wÄĽn":1124,"et":1125,"cÄģo":1126,"sÄģng":1127,"pÃ¡ng":1128,"90":1129,"bÇĲng":1130,"ï¼į":1131,"zhÄģ":1132,"ãĤ":1133,"shuÃłi":1134,"niÃ¨":1135,"es":1136,"hÃ³u":1137,"mÃ¨i":1138,"shÄģo":1139,"nÇĶ":1140,"dÇĴng":1141,"il":1142,"at":1143,"ow":1144,"fÃ©ng":1145,"miÃ¨":1146,"yÇĶn":1147,"zÃ²u":1148,"mÇİi":1149,"huÃłi":1150,"2004":1151,"45":1152,"yÄģn":1153,"co":1154,"48":1155,"the":1156,"zhuÃ³":1157,"and":1158,"ter":1159,"he":1160,"tÃło":1161,"nÇİi":1162,"kÅ«n":1163,"2025":1164,"zhÄĽn":1165,"ck":1166,"rÇĶ":1167,"kuÃł":1168,"kuÃŃ":1169,"ãĢī":1170,"ãĢĪ":1171,"gÅįu":1172,"36":1173,"cuÄ«":1174,"38":1175,"shÇİn":1176,"rÃ²u":1177,"diÄģo":1178,"2003":1179,"hÇĶ":1180,"guÅį":1181,"37":1182,"cuÃ¬":1183,"ne":1184,"xÃº":1185,"mÃ¡ng":1186,"juÇİn":1187,"cÃ¡n":1188,"diÄģn":1189,"zhÄģn":1190,"cÃ¡o":1191,"189":1192,"IN":1193,"2002":1194,"is":1195,"bo":1196,"kÄĵng":1197,"TC":1198,"ve":1199,"34":1200,"mÃ¡":1201,"lÄĽng":1202,"as":1203,"zÅ«":1204,"75":1205,"âĢĵ":1206,"sÃº":1207,"quÄģn":1208,"dÄģ":1209,"to":1210,"chÄģi":1211,"nu":1212,"lÃłng":1213,"kÃ¹n":1214,"46":1215,"tÃºn":1216,"fÄĽn":1217,"1990":1218,"âĢ¦":1219,"zhÃ²u":1220,"shÇİng":1221,"rÃło":1222,"hÄĵng":1223,"tÄ«":1224,"xÅ«n":1225,"39":1226,"nÃ¨":1227,"..":1228,"pÃ¬":1229,"nÃłn":1230,"pÄģn":1231,"65":1232,"hÅįng":1233,"shÃº":1234,"tÄģn":1235,"Ch":1236,"tÄģng":1237,"kÇİn":1238,"Ma":1239,"nÃ¬":1240,"32":1241,"In":1242,"ST":1243,"47":1244,"hÇİn":1245,"it":1246,"UTC":1247,"qiÃłn":1248,"1999":1249,"1998":1250,"1980":1251,"188":1252,"500":1253,"33":1254,"64":1255,"qiÇİng":1256,"shuÃ²":1257,"pÇİo":1258,"lo":1259,"be":1260,"kÄģ":1261,"zhÃ¡i":1262,"SE":1263,"55":1264,"quÃłn":1265,"nÄ«":1266,"dÃ¨ng":1267,"1997":1268,"The":1269,"miÃ¡n":1270,"49":1271,"gÇİo":1272,"II":1273,"68":1274,"Co":1275,"vi":1276,"shÄĽ":1277,"zÃ¨ng":1278,"Re":1279,"han":1280,"zhÃ³u":1281,"zhÃłi":1282,"44":1283,"1996":1284,"na":1285,"tiÄĵ":1286,"dÄģo":1287,"ad":1288,"br":1289,"1994":1290,"ver":1291,"fÃ©i":1292,"zÃ²ng":1293,"qiÃ³ng":1294,"ci":1295,"tiÃło":1296,"chuÃ¡ng":1297,"1992":1298,"ba":1299,"chuÃŃ":1300,"juÄģn":1301,"chÃ¡i":1302,"miÇİo":1303,"guÄģ":1304,"xuÄĵ":1305,"tÃ²ng":1306,"1995":1307,"fÄĽi":1308,"chÄ«":1309,"oo":1310,"mÄĽng":1311,"wÅį":1312,"67":1313,"ir":1314,"shuÄģi":1315,"tuÃ³":1316,"chuÄģng":1317,"huÇİn":1318,"1991":1319,"1970":1320,"58":1321,"ay":1322,"1950":1323,"ca":1324,"nd":1325,"guÃł":1326,"chÃ¡n":1327,"300":1328,"wÄģ":1329,"1993":1330,"187":1331,"1949":1332,"pe":1333,"sÄģ":1334,"tiÇİo":1335,"AT":1336,"1960":1337,"biÇİn":1338,"42":1339,"1945":1340,"ing":1341,"guÃłi":1342,"au":1343,"kÇĶ":1344,"nÃº":1345,"1988":1346,"dÇĶ":1347,"1989":1348,"ig":1349,"pÃ¹":1350,"69":1351,"liÇĶ":1352,"gÇĴng":1353,"SEE":1354,"tuÃ²":1355,"amp":1356,"ct":1357,"liÇİo":1358,"INSEE":1359,"59":1360,"tÄģi":1361,"43":1362,"66":1363,"chuÃłn":1364,"op":1365,"chÃ¨n":1366,"os":1367,"57":1368,"1985":1369,"huÄģng":1370,"99":1371,"SA":1372,"ãĢİ":1373,"cÃ¹n":1374,"ãĢı":1375,"1984":1376,"hÃºn":1377,"41":1378,"pÅ«":1379,"ly":1380,"us":1381,"kÃ²u":1382,"fÃ©n":1383,"88":1384,"1986":1385,"rÇİo":1386,"mp":1387,"St":1388,"id":1389,"rÃ¹n":1390,"TV":1391,"150":1392,"zhuÅį":1393,"ind":1394,"400":1395,"sÇİn":1396,"1987":1397,"78":1398,"un":1399,"ed":1400,"ha":1401,"1982":1402,"56":1403,"Li":1404,"ur":1405,"ard":1406,"nuÃ³":1407,"1983":1408,"NA":1409,"gÇĶn":1410,"Ro":1411,"De":1412,"ss":1413,"mÄģ":1414,"tou":1415,"pÃ¬n":1416,"CD":1417,"chÅįu":1418,"ber":1419,"gÇĴu":1420,"quÇİn":1421,"Mi":1422,"77":1423,"zhÄģi":1424,"Me":1425,"qiÃł":1426,"mÄģo":1427,"qiÇİo":1428,"Mar":1429,"tw":1430,"kÅ«":1431,"kuÃ¡ng":1432,"rÃ³u":1433,"der":1434,"79":1435,"lÃ²u":1436,"OS":1437,"Â°":1438,"kuÃ¬":1439,"sÃłng":1440,"ï½":1441,"Al":1442,"180":1443,"ty":1444,"BC":1445,"54":1446,"1979":1447,"61":1448,"1920":1449,"ang":1450,"pÄĵn":1451,"98":1452,"sÄĵng":1453,"52":1454,"You":1455,"ap":1456,"1978":1457,"nÃ¹":1458,"wÄĵng":1459,"62":1460,"yÄĵ":1461,"duÇĴ":1462,"Le":1463,"53":1464,"xÇĲng":1465,"juÃłn":1466,"ï½ŀ":1467,"BA":1468,"ke":1469,"1946":1470,"ts":1471,"CO":1472,"mo":1473,"ction":1474,"51":1475,"1958":1476,"1981":1477,"Vi":1478,"1972":1479,"1948":1480,"zhuÃ¬":1481,"cÅįng":1482,"tÅįu":1483,"AM":1484,"hi":1485,"63":1486,"man":1487,"ows":1488,"AR":1489,"ry":1490,"1941":1491,"Wind":1492,"BS":1493,"wÃ¡":1494,"liÇİn":1495,"1930":1496,"Mo":1497,"Pro":1498,"luÇİn":1499,"kuÄģng":1500,"qÃº":1501,"tuÇĴ":1502,"kÃ©":1503,"76":1504,"hans":1505,"va":1506,"1940":1507,"1937":1508,"con":1509,"1976":1510,"zuÇĲ":1511,"1944":1512,"Jo":1513,"89":1514,"1975":1515,"um":1516,"ï¼ı":1517,"Te":1518,"1968":1519,"niÃ¡ng":1520,"pÃ³":1521,"shuÄģ":1522,"hk":1523,"yuÄģn":1524,"tÄģo":1525,"per":1526,"wÄģng":1527,"ga":1528,"1000":1529,"ran":1530,"Windows":1531,"95":1532,"Ne":1533,"bÃŃ":1534,"sÇİo":1535,"da":1536,"87":1537,"1966":1538,"85":1539,"fÃł":1540,"pÄĵng":1541,"600":1542,"lÃłn":1543,"Se":1544,"Sta":1545,"sp":1546,"120":1547,"1947":1548,"Ga":1549,"Ar":1550,"ot":1551,"gÄģ":1552,"1956":1553,"AC":1554,"1964":1555,"dÇİn":1556,"cÅ«":1557,"1942":1558,"1955":1559,"chÇĴu":1560,"lay":1561,"1952":1562,"1939":1563,"IS":1564,"1938":1565,"72":1566,"74":1567,"ht":1568,"rÄĽn":1569,"1973":1570,"ace":1571,"fi":1572,"1974":1573,"1954":1574,"qiÄĵ":1575,"ED":1576,"1900":1577,"--":1578,"Be":1579,"AP":1580,"ore":1581,"1943":1582,"1977":1583,"Da":1584,"1971":1585,"pÄ«n":1586,"pÇĴ":1587,"mÃ¡n":1588,"1967":1589,"shÃ©ng":1590,"ment":1591,"IC":1592,"800":1593,"ER":1594,"La":1595,"86":1596,"1959":1597,"bÄĵng":1598,"son":1599,"1965":1600,"JR":1601,"1969":1602,"Ra":1603,"duÄ«":1604,"Di":1605,"ok":1606,"pÃ©n":1607,"ãĥ»":1608,"ÃĹ":1609,"qiÃło":1610,"chuÄ«":1611,"ID":1612,"qiÄģo":1613,"Su":1614,"ine":1615,"1936":1616,"160":1617,"97":1618,"bÄĵn":1619,"zhuÄģ":1620,"ent":1621,"1953":1622,"Sa":1623,"1962":1624,"MA":1625,"Tu":1626,"tic":1627,"1961":1628,"lÇĴng":1629,"ation":1630,"âĶ":1631,"1935":1632,"tÃł":1633,"mÃ¡i":1634,"Sh":1635,"96":1636,"ON":1637,"ak":1638,"ï¼ħ":1639,"1951":1640,"1957":1641,"1963":1642,"Lo":1643,"âĶĢ":1644,"one":1645,"rou":1646,"84":1647,"Ja":1648,"2026":1649,"do":1650,"cÇİn":1651,"82":1652,"gi":1653,"bu":1654,"mer":1655,"73":1656,"po":1657,"94":1658,"tÅ«n":1659,"92":1660,"So":1661,"AN":1662,"IP":1663,"An":1664,"ho":1665,"ali":1666,"1933":1667,"Mu":1668,"1931":1669,"nÃ¡ng":1670,"niÃło":1671,"les":1672,"71":1673,"bÃ¡o":1674,"nuÇİn":1675,"lÃ©ng":1676,"pÃ¡":1677,"83":1678,"93":1679,"ai":1680,"We":1681,"81":1682,"dÇĴu":1683,"1918":1684,"sta":1685,"HD":1686,"Bo":1687,"sÄģo":1688,"Uni":1689,"1928":1690,"luÃ¡n":1691,"ki":1692,"1932":1693,"wi":1694,"nÃ¨n":1695,"col":1696,"int":1697,"MV":1698,"SS":1699,"our":1700,"110":1701,"tÃ¹":1702,"IT":1703,"1912":1704,"all":1705,"1929":1706,"tuÇĲ":1707,"duÃ²":1708,"1927":1709,"cn":1710,"1934":1711,"are":1712,"Pa":1713,"700":1714,"gÃ¡":1715,"che":1716,"by":1717,"ted":1718,"ster":1719,"huÇİng":1720,"Si":1721,"250":1722,"ff":1723,"91":1724,"mm":1725,"Par":1726,"zÃ©i":1727,"Ri":1728,"1924":1729,"pp":1730,"ph":1731,"...":1732,"1919":1733,"kuÄ«":1734,"He":1735,"so":1736,"xuÃłn":1737,"130":1738,"piÄģo":1739,"no":1740,"1925":1741,"PS":1742,"Play":1743,"pÄģo":1744,"140":1745,"xiÄģ":1746,"Bu":1747,"Ca":1748,"SM":1749,"Con":1750,"Sp":1751,"PC":1752,"1914":1753,"ble":1754,"ste":1755,"zhÇİi":1756,"km":1757,"DV":1758,"zhÄĵ":1759,"En":1760,"mes":1761,"YouTu":1762,"com":1763,"Ba":1764,"hÄĵ":1765,"Fi":1766,"Ti":1767,"diÄĵ":1768,"ell":1769,"gra":1770,"lÇİ":1771,"AS":1772,"ia":1773,"1911":1774,"Wi":1775,"shi":1776,"end":1777,"ill":1778,"nÃ¼Ã¨":1779,"ana":1780,"ara":1781,"Ge":1782,"1926":1783,"den":1784,"1922":1785,"Na":1786,"nÇİ":1787,"sion":1788,"hÃ¨n":1789,"1917":1790,"ET":1791,"NBA":1792,"IV":1793,"shuÃŃ":1794,"cÄģi":1795,"rÃ¡o":1796,"EN":1797,"1923":1798,"art":1799,"1921":1800,"fe":1801,"pÃ¨ng":1802,"sa":1803,"ka":1804,"kuÄģ":1805,"Goo":1806,"ther":1807,"chÇĴng":1808,"To":1809,"170":1810,"à¸":1811,"EC":1812,"ld":1813,"mÇİo":1814,"nÃ²ng":1815,"AL":1816,"Ha":1817,"MS":1818,"section":1819,"Ni":1820,"YouTube":1821,"EP":1822,"hn":1823,"BL":1824,"1913":1825,"tiÄģo":1826,"Ju":1827,"HK":1828,"ler":1829,"âĨ":1830,"hant":1831,"gÃ¹n":1832,"1909":1833,"gin":1834,"Inter":1835,"cro":1836,"Ste":1837,"MP":1838,"AI":1839,"Ho":1840,"gÄĽng":1841,"Wor":1842,"nÃło":1843,"Po":1844,"fÄĽng":1845,"Do":1846,"luÇĴ":1847,"US":1848,"ant":1849,"go":1850,"ya":1851,"DVD":1852,"ort":1853,"zÅįu":1854,"ris":1855,"3000":1856,"Pi":1857,"cÄģ":1858,"Car":1859,"1910":1860,"RO":1861,"DS":1862,"Th":1863,"112":1864,"AK":1865,"My":1866,"pen":1867,"RE":1868,"pro":1869,"ven":1870,"1916":1871,"Station":1872,"ãĥ¼":1873,"chuÃ²":1874,"Net":1875,"Î±":1876,"Ki":1877,"Sch":1878,"olo":1879,"No":1880,"ari":1881,"ture":1882,"gn":1883,"Lin":1884,"CP":1885,"UN":1886,"gle":1887,"âĪ":1888,"ers":1889,"hÃ©n":1890,"1915":1891,"oun":1892,"niÃłng":1893,"1905":1894,"FC":1895,"my":1896,"Lu":1897,"ll":1898,"Wil":1899,"CN":1900,"âĦ":1901,"âĨĴ":1902,"1901":1903,"Fa":1904,"Au":1905,"ting":1906,"New":1907,"DNA":1908,"Ex":1909,"âĢ§":1910,"ary":1911,"900":1912,"Ph":1913,"sic":1914,"HR":1915,"dice":1916,"sis":1917,".&":1918,"CH":1919,"zÄĽn":1920,"TA":1921,"dia":1922,"Qu":1923,"TO":1924,"1906":1925,"len":1926,"1904":1927,"chuÇİng":1928,"AV":1929,"For":1930,"gÄĽn":1931,"John":1932,"we":1933,"ere":1934,"And":1935,"MO":1936,"ding":1937,"codice":1938,"chÇİo":1939,"jiÇĴng":1940,"âĦĥ":1941,"Ta":1942,"pa":1943,"ps":1944,"PlayStation":1945,"fu":1946,"ko":1947,"wÃł":1948,"bÃ¨ng":1949,"05":1950,"CC":1951,"ton":1952,"vo":1953,"eri":1954,"diÅ«":1955,"1907":1956,"1908":1957,"Google":1958,"AG":1959,"EST":1960,"MI":1961,"zuÃłn":1962,"SO":1963,"ory":1964,"tes":1965,"LE":1966,"Gu":1967,"jiÃ¡":1968,"zuÇİn":1969,"cy":1970,"lÄ«":1971,"chi":1972,"ley":1973,"BO":1974,"enter":1975,"BBC":1976,"AD":1977,"IG":1978,"cal":1979,"III":1980,"Cu":1981,"cri":1982,"oft":1983,"1500":1984,"Ru":1985,"lin":1986,"5000":1987,"ori":1988,"zuÄģn":1989,"pu":1990,"Go":1991,"IST":1992,"shÄĵ":1993,"lÇĺ":1994,"Fe":1995,"Col":1996,"wor":1997,"Sy":1998,"Ka":1999,"ME":2000,"tive":2001,"CR":2002,"gen":2003,"3D":2004,"wit":2005,"round":2006,"IA":2007,"guÇİ":2008,"105":2009,"je":2010,"ron":2011,"mÃł":2012,"Ð°":2013,"101":2014,"1903":2015,"GB":2016,"pÄ«ng":2017,"cha":2018,"shÃ¡":2019,"lan":2020,"09":2021,"TE":2022,"ree":2023,"Ad":2024,"Hu":2025,"cÃłn":2026,"cÃ©n":2027,"1902":2028,"BD":2029,"NC":2030,"land":2031,"can":2032,"ze":2033,"own":2034,"ess":2035,"pÄģng":2036,"xt":2037,"350":2038,"wa":2039,"ina":2040,"SAO":2041,"shÃ¡o":2042,"DC":2043,"net":2044,"span":2045,"des":2046,"Î²":2047,"ght":2048,"lÃ¬n":2049,"ence":2050,"B1900":2051,"inc":2052,"book":2053,"del":2054,"ES":2055,"BM":2056,"ï¼İ":2057,"dy":2058,"ãĥ³":2059,"Hi":2060,"1898":2061,"06":2062,"118":2063,"Pe":2064,"ms":2065,"ãģ®":2066,"lÃ¡":2067,"pt":2068,"qÇĲn":2069,"tel":2070,"360":2071,"DR":2072,"mon":2073,"01":2074,"DA":2075,"gh":2076,"Open":2077,"1895":2078,"lÃło":2079,"yle":2080,"125":2081,"mÃº":2082,"lar":2083,"bÃ¨n":2084,"HO":2085,"Ko":2086,"MC":2087,"ance":2088,"ATP":2089,"Micro":2090,"Ð¾":2091,"108":2092,"gy":2093,"NG":2094,"pÅįu":2095,"igh":2096,"sy":2097,"cor":2098,"tt":2099,"dio":2100,"Ke":2101,"qiÃ©":2102,"za":2103,"App":2104,"Pu":2105,"ning":2106,"gram":2107,"IF":2108,"Fran":2109,"ft":2110,"res":2111,"Com":2112,"tin":2113,"âĪĴ":2114,"07":2115,"08":2116,"230":2117,"Face":2118,"104":2119,"Du":2120,"ref":2121,"One":2122,"World":2123,"old":2124,"Ser":2125,"soft":2126,"EDT":2127,"ISTAT":2128,"Mon":2129,"Stu":2130,"shÄģi":2131,"sÇĴng":2132,"à¤":2133,"NO":2134,"ner":2135,"1896":2136,"Cor":2137,"LL":2138,"Bi":2139,"ger":2140,"lus":2141,"109":2142,"DP":2143,"yÅ«":2144,"las":2145,"AA":2146,"fli":2147,"Comp":2148,"rea":2149,"gÄĽ":2150,"RI":2151,"vel":2152,"ren":2153,"line":2154,"RT":2155,"suÇĲ":2156,"SP":2157,"xiÃ¡o":2158,"qiÇİ":2159,"EX":2160,"rÄĽ":2161,"Bar":2162,"Bri":2163,"ling":2164,"bert":2165,"B48":2166,"106":2167,"1890":2168,"ctor":2169,"CST":2170,"San":2171,"ML":2172,"CDT":2173,"Love":2174,"ity":2175,"mar":2176,"zÄģng":2177,"row":2178,"DO":2179,"with":2180,"HE":2181,"fa":2182,"Per":2183,"pÄĵi":2184,"ward":2185,"Har":2186,"Man":2187,"ds":2188,"tional":2189,"tain":2190,"ja":2191,"04":2192,"4000":2193,"115":2194,"cuÃłn":2195,"1200":2196,"ky":2197,"ux":2198,"ound":2199,"ight":2200,"M1":2201,"03":2202,"GP":2203,"pÃ¡o":2204,"CE":2205,"back":2206,"1889":2207,"begin":2208,"Je":2209,"1899":2210,"ool":2211,"colspan":2212,"1871":2213,"ring":2214,"Ed":2215,"RS":2216,"ower":2217,"mic":2218,"Facebook":2219,"lude":2220,"Willi":2221,"Microsoft":2222,"âĢĭ":2223,"240":2224,"tur":2225,"Mac":2226,"1600":2227,"LO":2228,"Live":2229,"BE":2230,"cket":2231,"102":2232,"cc":2233,"ker":2234,"box":2235,"TT":2236,"1897":2237,"Gi":2238,"NH":2239,"EE":2240,"chÃ²u":2241,"Pre":2242,"Tri":2243,"117":2244,"On":2245,"PP":2246,"qÃ¬n":2247,"ks":2248,"Is":2249,"SC":2250,"02":2251,"van":2252,"cm":2253,"shuÇİng":2254,"style":2255,"mb":2256,"103":2257,"AKB48":2258,"MD":2259,"yÇİo":2260,"107":2261,"Gra":2262,"bli":2263,"Music":2264,"Gre":2265,"ood":2266,"cÃ²u":2267,"Linux":2268,"include":2269,"Dis":2270,"Or":2271,"Tra":2272,"Pri":2273,"tÇİng":2274,"ww":2275,"Nor":2276,"pha":2277,"min":2278,"Ori":2279,"ye":2280,"only":2281,"450":2282,"VID":2283,"tus":2284,"127":2285,"mas":2286,"tra":2287,"Davi":2288,"que":2289,"ane":2290,"128":2291,"align":2292,"lÄģo":2293,"lis":2294,"ous":2295,"Game":2296,"flix":2297,"CL":2298,"ora":2299,"Netflix":2300,"El":2301,"1894":2302,"220":2303,"rin":2304,"Ber":2305,"Ð½":2306,"ser":2307,"William":2308,"IL":2309,"Vo":2310,"SH":2311,"sti":2312,"rom":2313,"Twit":2314,"1880":2315,"Red":2316,"yi":2317,"RNA":2318,"zÃ¡o":2319,"136":2320,"PG":2321,"Fu":2322,"Ð¸":2323,"ero":2324,"ãģĦ":2325,"TR":2326,"stra":2327,"Team":2328,"1800":2329,"Wa":2330,"ãĤ¹":2331,"Univer":2332,"ground":2333,"tor":2334,"1885":2335,"nge":2336,"liÇİ":2337,"114":2338,"ano":2339,"ãĤĵ":2340,"piÃ¡n":2341,"rus":2342,"Hz":2343,"Ty":2344,"Char":2345,"color":2346,"116":2347,"280":2348,"name":2349,"Star":2350,"Eu":2351,"Gen":2352,"UR":2353,"hy":2354,"Ðµ":2355,"113":2356,"era":2357,"lla":2358,"1886":2359,"sing":2360,"ãĤ¤":2361,"TS":2362,"ten":2363,"School":2364,"PO":2365,"mÇİng":2366,"lass":2367,"1893":2368,"irl":2369,"Bla":2370,"Mc":2371,"ex":2372,"nic":2373,"out":2374,"111":2375,"Mark":2376,"SL":2377,"irst":2378,"ãĦ":2379,"cial":2380,"Super":2381,"Don":2382,"ac":2383,"Wal":2384,"ject":2385,"lex":2386,"mÇĴ":2387,"ans":2388,"âĢ»":2389,"tri":2390,"lia":2391,"ie":2392,"mÅį":2393,"135":2394,"David":2395,"260":2396,"1860":2397,"national":2398,"Geor":2399,"Mor":2400,"ys":2401,"nÃŃn":2402,"gue":2403,"tle":2404,"any":2405,"Pet":2406,"WTA":2407,"way":2408,"roup":2409,"HC":2410,"Mat":2411,"nis":2412,"ces":2413,"UA":2414,"Un":2415,"was":2416,"ouse":2417,"ham":2418,"1888":2419,"Ac":2420,"text":2421,"SD":2422,"-.":2423,"cation":2424,"Bra":2425,"ony":2426,"roid":2427,"background":2428,"yÅ«n":2429,"dÇİi":2430,"ream":2431,"Show":2432,"129":2433,"GO":2434,"om":2435,"chÄĵn":2436,"1870":2437,"stri":2438,"GN":2439,"ï¹":2440,"Che":2441,"nia":2442,"1887":2443,"bur":2444,"don":2445,"pri":2446,"shuÄģn":2447,"1868":2448,"6000":2449,"cle":2450,"Ã¶":2451,"ÑĢ":2452,"1883":2453,"Cy":2454,"NF":2455,"VA":2456,"lub":2457,"meri":2458,"Ku":2459,"ank":2460,"Meta":2461,"320":2462,"Ab":2463,"Xbox":2464,"CS":2465,"NHK":2466,"AF":2467,"DD":2468,"Twitter":2469,"KP":2470,"ny":2471,"onlyinclude":2472,"Tho":2473,"ens":2474,"piÃ¡o":2475,"++":2476,"bit":2477,"tÃłng":2478,"1864":2479,"âĢ¢":2480,"ION":2481,"1884":2482,"119":2483,"RC":2484,"UE":2485,"tis":2486,"122":2487,"Cl":2488,"2500":2489,"1892":2490,"210":2491,"A1":2492,"ong":2493,"ins":2494,"Wh":2495,"center":2496,"let":2497,"miÃ¹":2498,"155":2499,"Sou":2500,"ISO":2501,"âħ":2502,"145":2503,"1891":2504,"650":2505,"pre":2506,"Android":2507,"Girl":2508,"sel":2509,"NS":2510,"car":2511,"vil":2512,"ãĢķ":2513,"sil":2514,"OR":2515,"yo":2516,"As":2517,"ãĢĶ":2518,"1850":2519,"ona":2520,"cuÅį":2521,"htt":2522,"red":2523,"low":2524,"xy":2525,"ensis":2526,"International":2527,"Day":2528,"cer":2529,"mÄ«":2530,"1867":2531,"stem":2532,"IM":2533,"pÃłng":2534,"ãĥĪ":2535,"All":2536,"Nation":2537,"sed":2538,"1879":2539,"mber":2540,"James":2541,"Enter":2542,"War":2543,"ffi":2544,"380":2545,"AB":2546,"UP":2547,"dis":2548,"1876":2549,"Coun":2550,"Ver":2551,"Universi":2552,"im":2553,"vin":2554,"George":2555,"Her":2556,"1875":2557,"1861":2558,"270":2559,"Dra":2560,"td":2561,"lie":2562,"sia":2563,"eld":2564,"Air":2565,"Group":2566,"IR":2567,"cho":2568,"time":2569,"126":2570,"ama":2571,"NT":2572,"Pau":2573,"lor":2574,"inter":2575,"Ani":2576,"Spe":2577,"Games":2578,"NGC":2579,"Hy":2580,"stru":2581,"ãĥ«":2582,"1873":2583,"Hol":2584,"MG":2585,"123":2586,"ãĥ©":2587,"Eng":2588,"PV":2589,"Ben":2590,"HT":2591,"val":2592,"Colle":2593,"day":2594,"MB":2595,"168":2596,"COVID":2597,"critic":2598,"Club":2599,"FM":2600,"Hen":2601,"lue":2602,"1865":2603,"ild":2604,"AO":2605,"PL":2606,"that":2607,"ass":2608,"Ameri":2609,"DE":2610,"121":2611,"Center":2612,"ut":2613,"cus":2614,"Blo":2615,"175":2616,"ãģĨ":2617,"Web":2618,"H2":2619,"YP":2620,"from":2621,"Ã¤":2622,"1400":2623,"Ali":2624,"od":2625,"MAX":2626,"work":2627,"par":2628,"138":2629,"228":2630,"TP":2631,"fer":2632,"1848":2633,"chÃłn":2634,"ast":2635,"ald":2636,"ney":2637,"liÅ«":2638,"1862":2639,"330":2640,"dge":2641,"pÄĽng":2642,"124":2643,"ãĤ¢":2644,"1881":2645,"1882":2646,"737":2647,"age":2648,"Can":2649,"1878":2650,"550":2651,"Sha":2652,"guÇİi":2653,"ruÇĲ":2654,"1872":2655,"Ele":2656,"LC":2657,"bÃ¬n":2658,"INK":2659,"Metacritic":2660,"Oricon":2661,"bor":2662,"nÃ¡o":2663,"156":2664,"MTV":2665,"UC":2666,"bri":2667,"165":2668,"comp":2669,"Boo":2670,"LED":2671,"fo":2672,"1840":2673,"niÇİn":2674,"IVE":2675,"High":2676,"Spi":2677,"core":2678,"dÄģi":2679,"wan":2680,"750":2681,"It":2682,"ns":2683,"tro":2684,"shÃłi":2685,"ãĥĥ":2686,"ology":2687,"ming":2688,"1300":2689,"ãģĹ":2690,"137":2691,"stagram":2692,"7000":2693,"Bro":2694,"DOS":2695,"SQ":2696,"UB":2697,"229":2698,"IU":2699,"cre":2700,"zo":2701,"Chu":2702,"GDP":2703,"King":2704,"OK":2705,"Ñģ":2706,"ena":2707,"Lea":2708,"She":2709,"rand":2710,"152":2711,"als":2712,"Stre":2713,"TVB":2714,"Micha":2715,"Va":2716,"lip":2717,"159":2718,"1877":2719,"Robert":2720,"type":2721,"Sur":2722,"âĹ":2723,"kuÇĲ":2724,"1866":2725,"rist":2726,"Chi":2727,"Chris":2728,"Pat":2729,"iOS":2730,"Ð»":2731,"oly":2732,"Produ":2733,"SK":2734,"1869":2735,"âĢ²":2736,"silver":2737,"THE":2738,"Up":2739,"Ce":2740,"DM":2741,"gar":2742,"her":2743,"sen":2744,"xiÇĶ":2745,"Fri":2746,"NET":2747,"Pla":2748,"Ðº":2749,"she":2750,"139":2751,"Instagram":2752,"Phone":2753,"BI":2754,"star":2755,"BLAC":2756,"Type":2757,"Big":2758,"por":2759,"Ð²":2760,"DJ":2761,"rÄĵng":2762,"iss":2763,"Apple":2764,"CG":2765,"Hel":2766,"WE":2767,"ew":2768,"ray":2769,"ãĤ¯":2770,"code":2771,"Michael":2772,"At":2773,"DF":2774,"ï¸":2775,"ark":2776,"alk":2777,"1100":2778,"158":2779,"ons":2780,"ator":2781,"Tech":2782,"Paul":2783,"225":2784,"305":2785,"133":2786,"INE":2787,"cia":2788,"RA":2789,"sÇİ":2790,"ãĥª":2791,"Award":2792,"HI":2793,"YO":2794,"132":2795,"Steam":2796,"205":2797,"1863":2798,"Park":2799,"National":2800,"Bill":2801,"Ye":2802,"tainment":2803,"215":2804,"Ci":2805,"bra":2806,"sto":2807,"new":2808,"University":2809,"FO":2810,"ral":2811,"Media":2812,"CA":2813,"F1":2814,"KBS":2815,"Val":2816,"148":2817,"131":2818,"Lou":2819,"Smi":2820,"166":2821,"arch":2822,"1874":2823,"sso":2824,"EF":2825,"Mer":2826,"XX":2827,"bal":2828,"kg":2829,"now":2830,"1858":2831,"Fin":2832,"Kar":2833,"Tran":2834,"gon":2835,"ves":2836,"147":2837,"space":2838,"Black":2839,"Ter":2840,"ach":2841,"gan":2842,"Peter":2843,"Gar":2844,"deo":2845,"256":2846,"ãģĭ":2847,"GA":2848,"IE":2849,"M2":2850,"kÇĶn":2851,"1830":2852,"Rich":2853,"CBS":2854,"UT":2855,"1851":2856,"Lee":2857,"BN":2858,"UI":2859,"192":2860,"zer":2861,"Î¼":2862,"ada":2863,"8000":2864,"chÄĽ":2865,"Jack":2866,"Entertainment":2867,"310":2868,"Jap":2869,"Win":2870,"lÇĲn":2871,"bin":2872,"mini":2873,"143":2874,"set":2875,"City":2876,"Mk":2877,"gÃłng":2878,"1855":2879,"rie":2880,"ater":2881,"Intel":2882,"Power":2883,"EM":2884,"IX":2885,"Sam":2886,"hÇİ":2887,"Space":2888,"RAM":2889,"ð«":2890,"185":2891,"1859":2892,"zuÃ³":2893,"STAR":2894,"ship":2895,"Charles":2896,"bel":2897,"py":2898,"134":2899,"Dire":2900,"Ang":2901,"ABC":2902,"Fla":2903,"ene":2904,"1854":2905,"146":2906,"301":2907,"enti":2908,"1700":2909,"Viu":2910,"Java":2911,"370":2912,"if":2913,"1857":2914,"Free":2915,"GM":2916,"Py":2917,"Tai":2918,"whi":2919,"stro":2920,"vs":2921,"Ø§":2922,"ann":2923,"290":2924,"ãģª":2925,"Life":2926,"ï¸°":2927,"Er":2928,"Pan":2929,"Ve":2930,"Î³":2931,"214":2932,"420":2933,"Dream":2934,"Ya":2935,"ÑĤ":2936,"Recor":2937,"Alpha":2938,"Company":2939,"stitu":2940,"ek":2941,"fang":2942,"face":2943,"Î¿":2944,"ãĢľ":2945,"mis":2946,"1856":2947,"1853":2948,"Project":2949,"Am":2950,"House":2951,"Pop":2952,"first":2953,"dium":2954,"ãģŁ":2955,"ety":2956,"Time":2957,"Thomas":2958,"Cal":2959,"Min":2960,"ae":2961,"ox":2962,"von":2963,"vis":2964,"144":2965,"Saint":2966,"FA":2967,"Ken":2968,"OVA":2969,"Cent":2970,"Tru":2971,"VO":2972,"bÃ²":2973,"A2":2974,"IO":2975,"167":2976,"Street":2977,"3A":2978,"HS":2979,"SBS":2980,"shÇİ":2981,"bili":2982,"kuÇİ":2983,"1841":2984,"very":2985,"Alex":2986,"Bat":2987,"LP":2988,"Lau":2989,"Tor":2990,"din":2991,"ric":2992,"340":2993,"PM":2994,"Por":2995,"Shi":2996,"chuÇİn":2997,"mat":2998,"mation":2999,"BLACKP":3000,"Met":3001,"ple":3002,"zÄģ":3003,"208":3004,"1815":3005,"178":3006,"CPU":3007,"BLACKPINK":3008,"223":3009,"Bur":3010,"cis":3011,"mÃ¨n":3012,"Soci":3013,"Studio":3014,"Euro":3015,"850":3016,"LGB":3017,"Sing":3018,"pla":3019,"cher":3020,"zuÅį":3021,"ses":3022,"Rock":3023,"www":3024,"IBM":3025,"spe":3026,"SF":3027,"207":3028,"die":3029,"play":3030,"sg":3031,"nie":3032,"171":3033,"235":3034,"tation":3035,"ãģ¨":3036,"ãģ¾":3037,"Dig":3038,"Fer":3039,"LIVE":3040,"Mr":3041,"PE":3042,"SU":3043,"VE":3044,"Yu":3045,"nÃ¬ng":3046,"203":3047,"B2":3048,"Whi":3049,"not":3050,"Art":3051,"SQL":3052,"Pad":3053,"1846":3054,"164":3055,"ford":3056,"oot":3057,"College":3058,"bre":3059,"cra":3060,"157":3061,"vice":3062,"berg":3063,"publi":3064,"BR":3065,"LT":3066,"NE":3067,"lit":3068,"141":3069,"ICE":3070,"B1":3071,"Cro":3072,"Cap":3073,"Sun":3074,"ond":3075,"176":3076,"thy":3077,"ING":3078,"board":3079,"Inc":3080,"Tele":3081,"American":3082,"Asso":3083,"LS":3084,"hÄģn":3085,"you":3086,"Â²":3087,"1812":3088,"1845":3089,"1844":3090,"sign":3091,"Road":3092,"Girls":3093,"self":3094,"Ze":3095,"sch":3096,"mit":3097,"231":3098,"Offi":3099,"cture":3100,"class":3101,"HF":3102,"Ltd":3103,"M3":3104,"Mil":3105,"Ros":3106,"ãĤĬ":3107,"witch":3108,"LGBT":3109,"Ag":3110,"ball":3111,"209":3112,"cess":3113,"ãģį":3114,"off":3115,"NASA":3116,"GNU":3117,"LA":3118,"wÄģi":3119,"ded":3120,"Jose":3121,"Smith":3122,"Cla":3123,"Ger":3124,"PA":3125,"Pra":3126,"ampi":3127,"IUCN":3128,"216":3129,"PN":3130,"Îº":3131,"1849":3132,"153":3133,"temp":3134,"ved":3135,"Good":3136,"CT":3137,"Fil":3138,"NBC":3139,"Tour":3140,"wh":3141,"zhÇĴu":3142,"sha":3143,"204":3144,"238":3145,"aurus":3146,"Production":3147,"BB":3148,"Cra":3149,"Gal":3150,"Hall":3151,"Sci":3152,"nal":3153,"oi":3154,"yn":3155,"vision":3156,"Video":3157,"Gala":3158,"GT":3159,"O2":3160,"lÄĵ":3161,"pm":3162,"ue":3163,"Ïĥ":3164,"mited":3165,"orts":3166,"ino":3167,"tions":3168,"Eli":3169,"PR":3170,"Sky":3171,"tal":3172,"206":3173,"lea":3174,"qui":3175,"mac":3176,"460":3177,"ab":3178,"mal":3179,"win":3180,"1814":3181,"org":3182,"218":3183,"ani":3184,"fra":3185,"eries":3186,"Richard":3187,"SI":3188,"lti":3189,"war":3190,"chÇĶn":3191,"rich":3192,"ange":3193,"IGN":3194,"Act":3195,"LD":3196,"âĸ":3197,"pic":3198,"Boy":3199,"Far":3200,"Tur":3201,"WS":3202,"ÏĢ":3203,"def":3204,"1847":3205,"154":3206,"turn":3207,"580":3208,"Ama":3209,"FF":3210,"bun":3211,"ep":3212,"fri":3213,"led":3214,"1843":3215,"mann":3216,"Best":3217,"phy":3218,"System":3219,"ptr":3220,"430":3221,"Mas":3222,"MBC":3223,"Plan":3224,"zz":3225,"177":3226,"401":3227,"chem":3228,"410":3229,"Bel":3230,"Sal":3231,"ãĤ·":3232,"NFL":3233,"ViuTV":3234,"Switch":3235,"Wo":3236,"king":3237,"163":3238,"AMD":3239,"API":3240,"West":3241,"Japan":3242,"ICO":3243,"bar":3244,"bus":3245,"up":3246,"ments":3247,"1852":3248,"162":3249,"thon":3250,"esti":3251,"Christ":3252,"cript":3253,"VII":3254,"1820":3255,"orn":3256,"get":3257,"this":3258,"ãģı":3259,"Max":3260,"Fre":3261,"Prin":3262,"cil":3263,"142":3264,"234":3265,"ria":3266,"Roy":3267,"VR":3268,"172":3269,"ãģĬ":3270,"ãģķ":3271,"Records":3272,"640":3273,"Dan":3274,"Squ":3275,"Vir":3276,"wood":3277,"169":3278,"3500":3279,"Limited":3280,"Core":3281,"KC":3282,"T1":3283,"gs":3284,"phi":3285,"Â±":3286,"1839":3287,"ars":3288,"232":3289,"data":3290,"480":3291,"CM":3292,"cÄ«":3293,"179":3294,"thi":3295,"cade":3296,"ful":3297,"2030":3298,"eni":3299,"149":3300,"max":3301,"365":3302,"Institu":3303,"How":3304,"var":3305,"1821":3306,"ãĥŃ":3307,"ãģ¿":3308,"Cha":3309,"aya":3310,"Unicode":3311,"ROM":3312,"CCTV":3313,"390":3314,"BU":3315,"Res":3316,"Vol":3317,"XP":3318,"ness":3319,"tv":3320,"306":3321,"alo":3322,"222":3323,"601":3324,"unch":3325,"Fan":3326,"tube":3327,"173":3328,"itch":3329,"Bob":3330,"EA":3331,"PF":3332,"247":3333,"ital":3334,"Camp":3335,"KK":3336,"lian":3337,"ping":3338,"1790":3339,"ders":3340,"211":3341,"560":3342,"Fun":3343,"OH":3344,"SN":3345,"kh":3346,"wid":3347,"ord":3348,"ãĥ¬":3349,"ciation":3350,"BF":3351,"Es":3352,"Top":3353,"VM":3354,"tran":3355,"Force":3356,"Hot":3357,"MU":3358,"PD":3359,"PH":3360,"Sir":3361,"shuÇİ":3362,"183":3363,"1795":3364,"303":3365,"rew":3366,"âĹĭ":3367,"use":3368,"lum":3369,"233":3370,"search":3371,"ãģ¡":3372,"1801":3373,"213":3374,"Tok":3375,"wÃ¨ng":3376,"ãĥŀ":3377,"USB":3378,"dra":3379,"sub":3380,"174":3381,"run":3382,"Mag":3383,"MVP":3384,"CK":3385,"lli":3386,"zon":3387,"Ïģ":3388,"áĢ":3389,"ìĿ":3390,"186":3391,"1838":3392,"ors":3393,"Store":3394,"key":3395,"Heart":3396,"Direct":3397,"520":3398,"Bank":3399,"DDR":3400,"Glo":3401,"Zi":3402,"zy":3403,"mily":3404,"cker":3405,"Jean":3406,"610":3407,"Fle":3408,"iPad":3409,"rÇĴng":3410,"bile":3411,"161":3412,"501":3413,"ãĥī":3414,"Home":3415,"http":3416,"224":3417,"CF":3418,"Pen":3419,"ele":3420,"mg":3421,"sur":3422,"tia":3423,"1813":3424,"ãĤī":3425,"Phil":3426,"GE":3427,"Lon":3428,"kin":3429,"tz":3430,"ÏĦ":3431,"ense":3432,"182":3433,"1832":3434,"1842":3435,"lation":3436,"255":3437,"its":3438,"Society":3439,"AE":3440,"Gold":3441,"Han":3442,"Sco":3443,"fter":3444,"iPhone":3445,"184":3446,"ãĤ«":3447,"los":3448,"Mini":3449,"Data":3450,"720":3451,"KI":3452,"Script":3453,"dd":3454,"ise":3455,"âĺ":3456,"1836":3457,"late":3458,"1793":3459,"ãĤª":3460,"Comic":3461,"ving":3462,"Muse":3463,"KiHa":3464,"buntu":3465,"221":3466,"Cri":3467,"Dr":3468,"HBO":3469,"MT":3470,"Mel":3471,"Tun":3472,"gre":3473,"hÇĴu":3474,"tian":3475,"1833":3476,"nity":3477,"1789":3478,"tics":3479,"River":3480,"ount":3481,"https":3482,"Association":3483,"Galaxy":3484,"Bay":3485,"DAM":3486,"M4":3487,"QQ":3488,"cl":3489,"fin":3490,"nga":3491,"ties":3492,"1835":3493,"151":3494,"tho":3495,"ãĤ¿":3496,"ady":3497,"219":3498,"217":3499,"338":3500,"Cry":3501,"FT":3502,"JYP":3503,"Rap":3504,"SR":3505,"Ubuntu":3506,"WA":3507,"fy":3508,"lon":3509,"ðĲ":3510,"shang":3511,"âĢ°":3512,"tha":3513,"Martin":3514,"1804":3515,"ONE":3516,"CEO":3517,"width":3518,"470":3519,"740":3520,"830":3521,"nt":3522,"light":3523,"form":3524,"Tom":3525,"Henry":3526,"League":3527,"YG":3528,"dro":3529,"well":3530,"ÏĤ":3531,"Ð´":3532,"âī":3533,"Champi":3534,"Master":3535,"Gener":3536,"Ear":3537,"Fra":3538,"LINE":3539,"Phi":3540,"Vil":3541,"gÃł":3542,"uni":3543,"Î½":3544,"chel":3545,"mus":3546,"amer":3547,"top":3548,"ART":3549,"Green":3550,"ville":3551,"212":3552,"DK":3553,"cti":3554,"has":3555,"nm":3556,"Ñĥ":3557,"less":3558,"1828":3559,"ãĤ³":3560,"oper":3561,"APAN":3562,"rown":3563,"Dy":3564,"Dou":3565,"FR":3566,"Mana":3567,"Night":3568,"Pin":3569,"ag":3570,"har":3571,"oni":3572,"191":3573,"dit":3574,"302":3575,"table":3576,"Billboard":3577,"Office":3578,"680":3579,"Br":3580,"Bal":3581,"Jan":3582,"MHz":3583,"PI":3584,"SNH":3585,"ban":3586,"bro":3587,"kar":3588,"Î¹":3589,"181":3590,"1624":3591,"sts":3592,"237":3593,"side":3594,"main":3595,"ãĤĭ":3596,"China":3597,"Code":3598,"Young":3599,"cond":3600,"Note":3601,"Joseph":3602,"SNH48":3603,"Bir":3604,"Des":3605,"FDA":3606,"JAPAN":3607,"Ob":3608,"PK":3609,"à¹":3610,"á¹":3611,"1644":3612,"308":3613,"ston":3614,"Stra":3615,"COM":3616,"tical":3617,"Pala":3618,"440":3619,"DB":3620,"GR":3621,"Van":3622,"hun":3623,"tuÃŃ":3624,"10000":3625,"1837":3626,"239":3627,"than":3628,"rick":3629,"1806":3630,"Long":3631,"Song":3632,"United":3633,"Part":3634,"macOS":3635,"CV":3636,"East":3637,"MW":3638,"U21":3639,"Ã¢":3640,"Ã®":3641,"Î´":3642,"à¥":3643,"âĳ":3644,"1819":3645,"299":3646,"346":3647,"HTML":3648,"annel":3649,"780":3650,"Hill":3651,"Tw":3652,"Ten":3653,"Talk":3654,"jo":3655,"port":3656,"1825":3657,"245":3658,"236":3659,"505":3660,"279":3661,"ãģ«":3662,"Radio":3663,"Digital":3664,"540":3665,"Down":3666,"EV":3667,"H5":3668,"Ji":3669,"rpm":3670,"wn":3671,"lic":3672,"chÃ²ng":3673,"sian":3674,"ella":3675,"News":3676,"325":3677,"Cat":3678,"Pas":3679,"001":3680,"1776":3681,"right":3682,"ãģĺ":3683,"long":3684,"but":3685,"dent":3686,"NCAA":3687,"Server":3688,"FAT":3689,"Sil":3690,"1818":3691,"265":3692,"ãģĵ":3693,"ned":3694,"Que":3695,"Hello":3696,"Ban":3697,"Bru":3698,"Dri":3699,"Nu":3700,"Ven":3701,"Wat":3702,"1824":3703,"1831":3704,"2027":3705,"Cho":3706,"Hist":3707,"Kong":3708,"Em":3709,"GS":3710,"RPG":3711,"pr":3712,"Ã§":3713,"Ã´":3714,"tum":3715,"med":3716,"386":3717,"Child":3718,"Service":3719,"âħ¡":3720,"UM":3721,"bet":3722,"hur":3723,"sual":3724,"rome":3725,"via":3726,"BSD":3727,"Frank":3728,"Island":3729,"Python":3730,"public":3731,"Science":3732,"1A":3733,"Blue":3734,"CW":3735,"Fore":3736,"XML":3737,"clo":3738,"Î»":3739,"275":3740,"2700":3741,"anda":3742,"Youtube":3743,"Jump":3744,"Edward":3745,"Under":3746,"White":3747,"312":3748,"5G":3749,"730":3750,"Bor":3751,"First":3752,"Grand":3753,"HL":3754,"OM":3755,"Poly":3756,"TBS":3757,"hÄģo":3758,"nes":3759,"rey":3760,"264":3761,"295":3762,"1802":3763,"BLUE":3764,"Institute":3765,"Champion":3766,"630":3767,"Hor":3768,"Out":3769,"Sum":3770,"TM":3771,"ben":3772,"fun":3773,"sus":3774,"1822":3775,"niÄĵ":3776,"288":3777,"ration":3778,"ãĤ¸":3779,"aka":3780,"Envi":3781,"Cas":3782,"Lan":3783,"Les":3784,"Os":3785,"other":3786,"plo":3787,"pop":3788,"ÙĦ":3789,"list":3790,"lang":3791,"ared":3792,"244":3793,"ãĥķ":3794,"vate":3795,"ITF":3796,"2D":3797,"Gro":3798,"JT":3799,"Sof":3800,"cent":3801,"em":3802,"xel":3803,"launch":3804,"249":3805,"903":3806,"North":3807,"Square":3808,"OT":3809,"PID":3810,"Series":3811,"ul":3812,"zation":3813,"Å¡":3814,"243":3815,"2800":3816,"Your":3817,"Hong":3818,"This":3819,"Cup":3820,"FX":3821,"Lang":3822,"NP":3823,"__":3824,"hr":3825,"1810":3826,"1622":3827,"1792":3828,"307":3829,"return":3830,"tas":3831,"701":3832,"SARS":3833,"POP":3834,"Techn":3835,"960":3836,"Cur":3837,"Ham":3838,"Ray":3839,"Sig":3840,"SHO":3841,"VV":3842,"ob":3843,"pÇİi":3844,"vy":3845,"Îµ":3846,"1650":3847,"801":3848,"view":3849,"Network":3850,"MIUI":3851,"burg":3852,"Tunes":3853,"2100":3854,"Pal":3855,"Ur":3856,"part":3857,"Ð¼":3858,"1826":3859,"anti":3860,"1573":3861,"oud":3862,"ason":3863,"cing":3864,"have":3865,"747":3866,"Cle":3867,"Jour":3868,"imp":3869,"tual":3870,"1834":3871,"304":3872,"ould":3873,"226":3874,"278":3875,"lta":3876,"ãĥŁ":3877,"ãĤĤ":3878,"375":3879,"add":3880,"1805":3881,"ACT":3882,"APP":3883,"AIR":3884,"ologi":3885,"Block":3886,"HA":3887,"Ly":3888,"Yo":3889,"hel":3890,"ii":3891,"rd":3892,"chen":3893,"007":3894,"oro":3895,"296":3896,"298":3897,"sig":3898,"385":3899,"ATA":3900,"Model":3901,"gain":3902,"Dani":3903,"Studi":3904,"335":3905,"590":3906,"9000":3907,"CU":3908,"Now":3909,"Ry":3910,"Ram":3911,"WN":3912,"ml":3913,"non":3914,"oc":3915,"Ïī":3916,"âĭ":3917,"ork":3918,"1780":3919,"ress":3920,"227":3921,"ãĥł":3922,"olf":3923,"map":3924,"May":3925,"Real":3926,"Sports":3927,"dings":3928,"IFA":3929,"315":3930,"Gil":3931,"Jon":3932,"Op":3933,"Sc":3934,"had":3935,"iTunes":3936,"ken":3937,"Â»":3938,"251":3939,"ough":3940,"277":3941,"ato":3942,"oney":3943,"CNN":3944,"2A":3945,"Dar":3946,"Gran":3947,"Over":3948,"Ren":3949,"Rus":3950,"RFC":3951,"pH":3952,"zine":3953,"1582":3954,"1799":3955,"259":3956,"246":3957,"248":3958,"1809":3959,"Internet":3960,"South":3961,"Engine":3962,"4G":3963,"530":3964,"C2":3965,"DLC":3966,"Sm":3967,"gÃ¨n":3968,"sÇİng":3969,"sin":3970,"Â«":3971,"lio":3972,"1823":3973,"ander":3974,"1621":3975,"272":3976,"rum":3977,"405":3978,"ATION":3979,"tware":3980,"1803":3981,"dae":3982,"State":3983,"stems":3984,"EEE":3985,"press":3986,"334":3987,"620":3988,"770":3989,"Class":3990,"SG":3991,"dition":3992,"lution":3993,"1625":3994,"ges":3995,"284":3996,"285":3997,"ãĤµ":3998,"Auto":3999,"Publi":4000,"311":4001,"880":4002,"Dot":4003,"Kh":4004,"Sony":4005,"VI":4006,"Ãī":4007,"á»":4008,"258":4009,"276":4010,"cur":4011,"ãģĮ":4012,"Alf":4013,"Mobile":4014,"Bus":4015,"KO":4016,"Oper":4017,"Sw":4018,"Way":4019,"XT":4020,"pres":4021,"à¦":4022,"253":4023,"aly":4024,"357":4025,"num":4026,"Maria":4027,"Moon":4028,"Wii":4029,"Pier":4030,"660":4031,"Cli":4032,"Get":4033,"NM":4034,"SV":4035,"UL":4036,"sm":4037,"Ð¹":4038,"dian":4039,"ãĥĹ":4040,"cks":4041,"STA":4042,"IPv":4043,"Unix":4044,"What":4045,"Europe":4046,"570":4047,"Cer":4048,"U19":4049,"WF":4050,"ee":4051,"mor":4052,"Ð³":4053,"tuÄģn":4054,"1827":4055,"1570":4056,"ãģĤ":4057,"gazine":4058,"Beau":4059,"Link":4060,"velop":4061,"Book":4062,"Trans":4063,"314":4064,"3DS":4065,"690":4066,"Bre":4067,"BBS":4068,"C6":4069,"DSM":4070,"IEEE":4071,"Men":4072,"SB":4073,"Sound":4074,"WWE":4075,"more":4076,"1817":4077,"1640":4078,"1636":4079,"268":4080,"402":4081,"404":4082,"ãģ¯":4083,"Regi":4084,"Rain":4085,"which":4086,"AX":4087,"Gri":4088,"blo":4089,"ini":4090,"nor":4091,"nger":4092,"laris":4093,"1775":4094,"254":4095,"ters":4096,"465":4097,"Medi":4098,"Die":4099,"Tik":4100,"Francis":4101,"Commu":4102,"323":4103,"Ath":4104,"Cir":4105,"HP":4106,"OP":4107,"kÄģo":4108,"1750":4109,"309":4110,"oom":4111,"ople":4112,"Joy":4113,"fic":4114,"329":4115,"670":4116,"Dol":4117,"End":4118,"Plus":4119,"bon":4120,"pur":4121,"shing":4122,"guÄģi":4123,"1816":4124,"pin":4125,"lai":4126,"fore":4127,"ãĥģ":4128,"ãĤ£":4129,"4500":4130,"Channel":4131,"cast":4132,"ings":4133,"CON":4134,"peri":4135,"TOP":4136,"Cube":4137,"Louis":4138,".-":4139,"710":4140,"910":4141,"950":4142,"DI":4143,"Imp":4144,"Lit":4145,"MK":4146,"Tro":4147,"ome":4148,"dea":4149,"pital":4150,"lam":4151,"arr":4152,"241":4153,"2300":4154,"Research":4155,"ISBN":4156,"field":4157,"Poli":4158,"Film":4159,"tvN":4160,"326":4161,"Asia":4162,"Bou":4163,"Cam":4164,"Clo":4165,"PT":4166,"T2":4167,"ice":4168,"rch":4169,"try":4170,"à½":4171,"1592":4172,"347":4173,"758":4174,"Stand":4175,"model":4176,"Ara":4177,"Bon":4178,"DT":4179,"Lis":4180,"1628":4181,"1788":4182,"252":4183,"242":4184,"269":4185,"ãĥĭ":4186,"andy":4187,"Leon":4188,"Victor":4189,"Law":4190,"ffer":4191,"fea":4192,"tural":4193,"318":4194,"336":4195,"978":4196,"Ado":4197,"CB":4198,"DL":4199,"Den":4200,"Festi":4201,"Jen":4202,"Mal":4203,"MUS":4204,"N2":4205,"O3":4206,"Tan":4207,"Tre":4208,"áĥ":4209,"char":4210,"biÄĵ":4211,"1627":4212,"1783":4213,"1791":4214,"alth":4215,"289":4216,"ros":4217,"406":4218,"ced":4219,"354":4220,"INN":4221,"Comm":4222,"Stan":4223,"app":4224,"Vista":4225,"gic":4226,"Pixel":4227,"Disney":4228,"âĸ¡":4229,"Acade":4230,"Cour":4231,"EL":4232,"F4":4233,"IB":4234,"LAN":4235,"LTE":4236,"OF":4237,"ich":4238,"pÄģ":4239,"tre":4240,"1797":4241,"ï¼»":4242,"ï¼½":4243,"Mach":4244,"556":4245,"Beat":4246,"aker":4247,"Software":4248,"Ange":4249,"DMS":4250,"TH":4251,"his":4252,"nÇİn":4253,"1779":4254,"1796":4255,"test":4256,"607":4257,"ãģ¤":4258,"ãģł":4259,"352":4260,"Mary":4261,"1808":4262,"ERT":4263,"km2":4264,"Nico":4265,"NCT":4266,"Alice":4267,"âĭ¯":4268,"321":4269,"337":4270,"A4":4271,"Ami":4272,"Sor":4273,"T3":4274,"cs":4275,"gis":4276,"ung":4277,"huÃłng":4278,"tude":4279,"1829":4280,"1778":4281,"1794":4282,"283":4283,"273":4284,"ãĥ£":4285,"ãĥĲ":4286,"ãĤ¨":4287,"cky":4288,"Visual":4289,"inese":4290,"YouTuber":4291,"ASC":4292,"Works":4293,"Elect":4294,"Battle":4295,"313":4296,"510":4297,"840":4298,"860":4299,"Foot":4300,"Mnet":4301,"Pho":4302,"llo":4303,"pat":4304,"vet":4305,"vance":4306,"Ã±":4307,"Î¸":4308,"shuÇİi":4309,"nica":4310,"night":4311,"1798":4312,"formation":4313,"ãģ¦":4314,"456":4315,"372":4316,"Johan":4317,"ECT":4318,"system":4319,"Special":4320,"Awards":4321,"448":4322,"870":4323,"Blu":4324,"MF":4325,"Pay":4326,"io":4327,"ror":4328,"sca":4329,"1580":4330,"1612":4331,"1634":4332,"1787":4333,"281":4334,"267":4335,"ãĥĩ":4336,"mad":4337,"ãģ£":4338,"ãĤ¦":4339,"nus":4340,"lost":4341,"mmy":4342,"web":4343,"Premi":4344,"Royal":4345,"Global":4346,"911":4347,"DG":4348,"Fro":4349,"Mis":4350,"Oli":4351,"Set":4352,"TN":4353,"WO":4354,"dor":4355,"ev":4356,"fla":4357,"âĩ":4358,"shÇİi":4359,"hus":4360,"mina":4361,"1567":4362,"1648":4363,"alle":4364,"271":4365,"tech":4366,"ltra":4367,"Arts":4368,"ffe":4369,"BOX":4370,"Enviro":4371,"AH":4372,"E3":4373,"Lam":4374,"MM":4375,"Mur":4376,"York":4377,"sor":4378,"chuÅį":4379,"262":4380,"tai":4381,"367":4382,"vest":4383,"pedia":4384,"OSHI":4385,"Prof":4386,"const":4387,"ACE":4388,"ENT":4389,"AGA":4390,"Great":4391,"TikTok":4392,"-&":4393,"322":4394,"Ah":4395,"MON":4396,"Not":4397,"OTT":4398,"Spo":4399,"VB":4400,"bian":4401,"1550":4402,"1568":4403,"ont":4404,"1615":4405,"1630":4406,"286":4407,"ãĥĸ":4408,"Magazine":4409,"vern":4410,"CH3":4411,"Compu":4412,"Museum":4413,"Daniel":4414,"Festival":4415,"Brown":4416,"Cru":4417,"CAS":4418,"Dark":4419,"FBI":4420,"LG":4421,"Sau":4422,"SIG":4423,"USA":4424,"stu":4425,"piÄĵ":4426,"1645":4427,"1646":4428,"read":4429,"zhÃ¡o":4430,"ãĤŃ":4431,"333":4432,"COLL":4433,"ARD":4434,"Secre":4435,"stein":4436,"Encore":4437,"tures":4438,"world":4439,"Online":4440,"Cloud":4441,"MUSIC":4442,"Hun":4443,"Lar":4444,"Let":4445,"cas":4446,"over":4447,"tan":4448,"Ø±":4449,"1626":4450,"stal":4451,"261":4452,"297":4453,"355":4454,"Chinese":4455,"stea":4456,"Kim":4457,"328":4458,"820":4459,"Gor":4460,"Has":4461,"PRO":4462,"S2":4463,"Tou":4464,"gal":4465,"oli":4466,"sÇĴu":4467,"sco":4468,"ques":4469,"1637":4470,"2400":4471,"705":4472,"901":4473,"364":4474,"384":4475,"378":4476,"vey":4477,"442":4478,"hai":4479,"cono":4480,"Point":4481,"VIDIA":4482,"General":4483,"618":4484,"AU":4485,"CBC":4486,"HB":4487,"NVIDIA":4488,"T48":4489,"ale":4490,"tr":4491,"Ð¡":4492,"Ñĭ":4493,"1610":4494,"1642":4495,"257":4496,"282":4497,"thing":4498,"2600":4499,"Mad":4500,"Stadium":4501,"1609":4502,"ality":4503,"stern":4504,"Exp":4505,"God":4506,"Redmi":4507,"Year":4508,"Adobe":4509,"760":4510,"767":4511,"CAN":4512,"Gol":4513,"Il":4514,"O4":4515,"Ome":4516,"U17":4517,"VC":4518,"bas":4519,"bps":4520,"jor":4521,"sk":4522,"sche":4523,"ÑĮ":4524,"deon":4525,"nior":4526,"1585":4527,"1583":4528,"hÃ¨ng":4529,"ãĤĦ":4530,"583":4531,"ctory":4532,"1807":4533,"ARM":4534,"TeX":4535,"wiki":4536,"thern":4537,"Systems":4538,"poration":4539,"930":4540,"Del":4541,"FIFA":4542,"JU":4543,"KE":4544,"OD":4545,"Town":4546,"Thun":4547,"Who":4548,"cto":4549,"dou":4550,"1623":4551,"gel":4552,"274":4553,"size":4554,"Anto":4555,"Wiki":4556,"ï¹ĳ":4557,"H2O":4558,"trol":4559,"Taiwan":4560,"EOS":4561,"FIN":4562,"Ima":4563,"IEC":4564,"Kin":4565,"Kid":4566,"Tar":4567,"Won":4568,"ah":4569,"cat":4570,"esta":4571,"ket":4572,"tina":4573,"1571":4574,"1784":4575,"263":4576,"509":4577,"293":4578,"351":4579,"osaurus":4580,"999":4581,"Deep":4582,"mod":4583,"value":4584,"Archi":4585,"Cast":4586,"2200":4587,"428":4588,"AJ":4589,"GUN":4590,"Tay":4591,"xx":4592,"1620":4593,"1723":4594,"1786":4595,"inte":4596,"stre":4597,"504":4598,"lton":4599,"ãĥ¥":4600,"353":4601,"395":4602,"beth":4603,"Solaris":4604,"Post":4605,"private":4606,"Metro":4607,"clol":4608,"Manage":4609,"DotA":4610,"419":4611,"432":4612,"A3":4613,"FN":4614,"Fly":4615,"GL":4616,"Hap":4617,"Ron":4618,"bb":4619,"cci":4620,"card":4621,"ctive":4622,"pra":4623,"ìķ":4624,"1450":4625,"curi":4626,"ãģĻ":4627,"Chan":4628,"vers":4629,"Mike":4630,"ource":4631,"Key":4632,"LOVE":4633,"Market":4634,"Studios":4635,"Little":4636,"427":4637,"Band":4638,"Cine":4639,"FE":4640,"HIV":4641,"K6":4642,"Line":4643,"Rou":4644,"VPN":4645,"zÃ¨":4646,"Äį":4647,"like":4648,"zilla":4649,"1577":4650,"1618":4651,"1643":4652,"rop":4653,"sey":4654,"387":4655,"399":4656,"cts":4657,"ellow":4658,"ountain":4659,"Fleet":4660,"Technology":4661,"317":4662,"331":4663,"345":4664,"512":4665,"565":4666,"H1":4667,"MY":4668,"R2":4669,"S1":4670,"U18":4671,"USS":4672,"Ultra":4673,"bes":4674,"gg":4675,"lÅ«":4676,"Ñı":4677,"1586":4678,"lau":4679,"1777":4680,"1453":4681,"into":4682,"sty":4683,"stan":4684,"sit":4685,"806":4686,"base":4687,"CDMA":4688,"Stage":4689,"Radeon":4690,"aki":4691,"Union":4692,"ALL":4693,"Valve":4694,"Children":4695,"Secret":4696,"327":4697,"411":4698,"490":4699,"445":4700,"446":4701,"535":4702,"Alt":4703,"Aven":4704,"FI":4705,"Found":4706,"Land":4707,"Mid":4708,"M87":4709,"U23":4710,"Will":4711,"WOR":4712,"ola":4713,"rstea":4714,"yer":4715,"Ãª":4716,"cht":4717,"endo":4718,"1521":4719,"1765":4720,"1774":4721,"sible":4722,"cel":4723,"second":4724,"398":4725,"499":4726,"ook":4727,"Para":4728,"With":4729,"Junior":4730,"Adam":4731,"BMW":4732,"mond":4733,"Fried":4734,"Centre":4735,"where":4736,"Philip":4737,"Academy":4738,"416":4739,"Crea":4740,"EMI":4741,"HTC":4742,"KB":4743,"Sche":4744,"Soft":4745,"TW":4746,"bat":4747,"rent":4748,"mia":4749,"1616":4750,"cul":4751,"707":4752,"ily":4753,"teri":4754,"369":4755,"397":4756,"Mau":4757,"verse":4758,"Joe":4759,"States":4760,"Multi":4761,"Wire":4762,"Niko":4763,"GPU":4764,"bility":4765,"Omega":4766,"613":4767,"Ari":4768,"Cou":4769,"NR":4770,"Port":4771,"WI":4772,"ZA":4773,"hau":4774,"house":4775,"pes":4776,"Î·":4777,"ÎĶ":4778,"ÐĲ":4779,"live":4780,"1564":4781,"1785":4782,"368":4783,"lot":4784,"TVBS":4785,"Mem":4786,"Next":4787,"Hea":4788,"some":4789,"Fire":4790,"MySQL":4791,"void":4792,"Origin":4793,"Amazon":4794,"3C":4795,"810":4796,"BT":4797,"Hon":4798,"Jr":4799,"Run":4800,"Sti":4801,"hl":4802,"m3":4803,"ÐĶ":4804,"1662":4805,"266":4806,"291":4807,"sist":4808,"elle":4809,"head":4810,"588":4811,"osa":4812,"Distri":4813,"Sub":4814,"rough":4815,"Base":4816,"MOD":4817,"volution":4818,"chie":4819,"Corporation":4820,"M1A1":4821,"ference":4822,"mission":4823,"velopment":4824,"GUNDAM":4825,"316":4826,"537":4827,"621":4828,"742":4829,"CI":4830,"E48":4831,"Eric":4832,"Fo":4833,"Fal":4834,"Sin":4835,"TI":4836,"Wel":4837,"Ã«":4838,"ÙĨ":4839,"anna":4840,"1540":4841,"1574":4842,"1772":4843,"std":4844,"287":4845,"tee":4846,"605":4847,"454":4848,"388":4849,"343":4850,"open":4851,"888":4852,"Sund":4853,"point":4854,"Draw":4855,"Church":4856,"Alexander":4857,"Cross":4858,"Management":4859,"425":4860,"475":4861,"Lady":4862,"ND":4863,"Other":4864,"SW":4865,"Sar":4866,"cted":4867,"kÃ¡ng":4868,"kan":4869,"vat":4870,"were":4871,"jia":4872,"1250":4873,"nico":4874,"1619":4875,"1629":4876,"1683":4877,"292":4878,"363":4879,"376":4880,"STS":4881,"552":4882,"686":4883,"ign":4884,"Demo":4885,"Arc":4886,"Augu":4887,"Cyclol":4888,"London":4889,"Scott":4890,"627":4891,"Bad":4892,"BRT":4893,"Der":4894,"Dun":4895,"FL":4896,"Ir":4897,"Kir":4898,"MX":4899,"Ora":4900,"Sto":4901,"Sara":4902,"Tony":4903,"hard":4904,"tru":4905,"Ð±":4906,"tish":4907,"ally":4908,"ï¼Ĥ":4909,"matic":4910,"488":4911,"ida":4912,"Design":4913,"phen":4914,"Spot":4915,"Spring":4916,"Andrew":4917,"ðĲŃ":4918,"449":4919,"5A":4920,"625":4921,"738":4922,"Fron":4923,"HER":4924,"Of":4925,"PB":4926,"Round":4927,"VER":4928,"ire":4929,"und":4930,"Ðļ":4931,"shared":4932,"1590":4933,"1579":4934,"1633":4935,"ãĥĬ":4936,"ãĤ°":4937,"1507":4938,"Beta":4939,"Lake":4940,"Simon":4941,"CH2":4942,"Cul":4943,"Syn":4944,"Animax":4945,"Earth":4946,"412":4947,"Fort":4948,"LF":4949,"LM":4950,"Sol":4951,"Sca":4952,"SON":4953,"V8":4954,"coun":4955,"hÄģng":4956,"tto":4957,"Ð¿":4958,"íķ":4959,"mir":4960,"mix":4961,"1631":4962,"1680":4963,"1773":4964,"294":4965,"407":4966,"mate":4967,"ãĤĮ":4968,"body":4969,"396":4970,"3300":4971,"mple":4972,"Sea":4973,"1604":4974,"Ander":4975,"Party":4976,"Hami":4977,"Family":4978,"PGA":4979,"Angel":4980,"Drive":4981,"Journal":4982,"980":4983,"Ap":4984,"Are":4985,"C4":4986,"Fold":4987,"GC":4988,"LR":4989,"Pol":4990,"cen":4991,"nan":4992,"Äĩ":4993,"ÉĻ":4994,"nical":4995,"1575":4996,"1697":4997,"1755":4998,"1492":4999,"sive":5000,"cum":5001,"805":5002,"3600":5003,"asa":5004,"467":5005,"471":5006,"Def":5007,"Neo":5008,"mics":5009,"ï¹Ĳ":5010,"SKE48":5011,"Dyna":5012,"Summer":5013,"Thunder":5014,"0x":5015,"319":5016,"Epic":5017,"Hal":5018,"J2":5019,"Kel":5020,"Nar":5021,"Swe":5022,"XC":5023,"fb":5024,"hoo":5025,"pan":5026,"zen":5027,"chy":5028,"lion":5029,"orig":5030,"1561":5031,"1589":5032,"1595":5033,"1781":5034,"1465":5035,"alan":5036,"508":5037,"ãĥĨ":5038,"ãģ²":5039,"344":5040,"589":5041,"oph":5042,"1603":5043,"1606":5044,"1607":5045,"CNBLUE":5046,"Ruby":5047,"Council":5048,"Christian":5049,"print":5050,"415":5051,"855":5052,"940":5053,"970":5054,"Cre":5055,"Clar":5056,"Kat":5057,"Med":5058,"Miss":5059,"kes":5060,"pos":5061,"uage":5062,"x86":5063,"Ã¸":5064,"Ãħ":5065,"ÃŁ":5066,"à®":5067,"lina":5068,"nio":5069,"1522":5070,"1526":5071,"1556":5072,"1613":5073,"1660":5074,"502":5075,"506":5076,"ãĥĢ":5077,"tera":5078,"377":5079,"tos":5080,"478":5081,"554":5082,"ample":5083,"Mari":5084,"Alli":5085,"sport":5086,"mercial":5087,"TOUR":5088,"Williams":5089,"cations":5090,"Hyper":5091,"ìĿ´":5092,"âĺĨ":5093,"Angela":5094,"Football":5095,"417":5096,"525":5097,"920":5098,"925":5099,"After":5100,"Hit":5101,"LU":5102,"UK":5103,"URI":5104,"ite":5105,"lle":5106,"ud":5107,"Ùħ":5108,"sure":5109,"1525":5110,"1591":5111,"1667":5112,"indu":5113,"chÃ¨ng":5114,"ronic":5115,"408":5116,"485":5117,"643":5118,"ado":5119,"baby":5120,"ophi":5121,"AMO":5122,"Back":5123,"Fiesta":5124,"Steve":5125,"Qua":5126,"Rue":5127,"put":5128,"Advance":5129,"DOHC":5130,"America":5131,"324":5132,"422":5133,"515":5134,"538":5135,"534":5136,"Kit":5137,"Pap":5138,"QS":5139,"S4":5140,"VT":5141,"Vel":5142,"Water":5143,"hen":5144,"mRNA":5145,"who":5146,"zzo":5147,"âĤ":5148,"lish":5149,"tine":5150,"1510":5151,"1638":5152,"1730":5153,"media":5154,"ãĥĳ":5155,"ette":5156,"342":5157,"393":5158,"479":5159,"mph":5160,"Story":5161,"1508":5162,"Vita":5163,"Mozilla":5164,"Last":5165,"HKT48":5166,"lassic":5167,"Bern":5168,"Walter":5169,"Soul":5170,"Surface":5171,"Foundation":5172,"3200":5173,"531":5174,"546":5175,"EG":5176,"GHz":5177,"ITV":5178,"Jer":5179,"Jane":5180,"Mes":5181,"MBA":5182,"NI":5183,"Sen":5184,"Son":5185,"TG":5186,"VS":5187,"bles":5188,"iPS":5189,"kW":5190,"pal":5191,"2028":5192,"1543":5193,"1457":5194,"come":5195,"366":5196,"381":5197,"392":5198,"Indu":5199,"Arti":5200,"Buil":5201,"History":5202,"1st":5203,"413":5204,"426":5205,"Ai":5206,"Edu":5207,"F3":5208,"GPS":5209,"LZ":5210,"Light":5211,"Mos":5212,"U20":5213,"Wnt":5214,"cla":5215,"down":5216,"mol":5217,"yl":5218,"zÇİn":5219,"zar":5220,"ÙĬ":5221,"1565":5222,"1559":5223,"1587":5224,"1597":5225,"âĢł":5226,"1635":5227,"1688":5228,"1733":5229,"1782":5230,"also":5231,"stry":5232,"tex":5233,"606":5234,"ollow":5235,"ãģĳ":5236,"373":5237,"Albert":5238,"Times":5239,"lent":5240,"Johnson":5241,"Final":5242,"524":5243,"612":5244,"890":5245,"Ash":5246,"By":5247,"FS":5248,"Jim":5249,"Tol":5250,"UD":5251,"bs":5252,"est":5253,"ov":5254,"score":5255,"Â£":5256,"ÐŁ":5257,"Ñĩ":5258,"1588":5259,"1598":5260,"507":5261,"cell":5262,"amo":5263,"thew":5264,"641":5265,"495":5266,"682":5267,"Rep":5268,"666":5269,"Rod":5270,"Rose":5271,"Vio":5272,"Pod":5273,"Austra":5274,"Mont":5275,"Brian":5276,"CLA":5277,"Place":5278,"Telegram":5279,"trans":5280,"Pierre":5281,"332":5282,"4A":5283,"4K":5284,"435":5285,"575":5286,"790":5287,"Ale":5288,"Bet":5289,"Fl":5290,"Mus":5291,"TMA":5292,"ate":5293,"plan":5294,"sky":5295,"tiÃ¨":5296,"tial":5297,"ents":5298,"1523":5299,"1535":5300,"1649":5301,"1661":5302,"1770":5303,"1499":5304,"then":5305,"ãĤ¬":5306,"ãĤı":5307,"361":5308,"number":5309,"466":5310,"391":5311,"....":5312,"551":5313,"vices":5314,"Moder":5315,"1601":5316,"Sho":5317,"gio":5318,"PCI":5319,"Tim":5320,"Hotel":5321,"TOK":5322,"AcFun":5323,"Flash":5324,"place":5325,"craft":5326,"Wonder":5327,"528":5328,"5500":5329,"990":5330,"Bang":5331,"Bell":5332,"Hard":5333,"HTT":5334,"Sma":5335,"Smo":5336,"Than":5337,"ey":5338,"fis":5339,"gni":5340,"shuÃłn":5341,"mine":5342,"1511":5343,"1760":5344,"1769":5345,"rit":5346,"358":5347,"cos":5348,"371":5349,"469":5350,"itz":5351,"684":5352,"587":5353,"View":5354,"ppm":5355,"But":5356,"SMAP":5357,"Geo":5358,"Edge":5359,"tribu":5360,"Explor":5361,"Golden":5362,"548":5363,"AW":5364,"Bil":5365,"Lor":5366,"Mir":5367,"MAC":5368,"Shan":5369,"air":5370,"even":5371,"para":5372,"vor":5373,"tiÇİn":5374,"20000":5375,"1080":5376,"15000":5377,"1576":5378,"1594":5379,"1689":5380,"362":5381,"383":5382,"TCP":5383,"341":5384,"NASL":5385,"Program":5386,"Bey":5387,"Some":5388,"Siri":5389,"Qui":5390,"Bridge":5391,"active":5392,"European":5393,"vernment":5394,"921":5395,"Dance":5396,"Gun":5397,"L1":5398,"MR":5399,"Mind":5400,"MMC":5401,"NEX":5402,"RB":5403,"TF":5404,"UFO":5405,"VF":5406,"Var":5407,"bow":5408,"kins":5409,"rÃ¡ng":5410,"uts":5411,"ðª":5412,"hÃ²ng":5413,"huo":5414,"chÄĽng":5415,"left":5416,"tica":5417,"mid":5418,"1811":5419,"1517":5420,"1514":5421,"1578":5422,"1552":5423,"âĢķ":5424,"1639":5425,"1684":5426,"608":5427,"master":5428,"349":5429,"Mai":5430,"644":5431,"557":5432,"vie":5433,"ird":5434,"585":5435,"597":5436,"Development":5437,"Mod":5438,"Test":5439,"Seven":5440,"Raw":5441,"Week":5442,"Firef":5443,"Just":5444,"kov":5445,"Matthew":5446,"template":5447,"Eliza":5448,"Common":5449,"scope":5450,"Taylor":5451,"curity":5452,"348":5453,"436":5454,"549":5455,"AST":5456,"Bai":5457,"Brand":5458,"DNS":5459,"Fred":5460,"Jam":5461,"Kon":5462,"Mitch":5463,"Pres":5464,"RN":5465,"Ret":5466,"bum":5467,"ea":5468,"ext":5469,"ovan":5470,"pl":5471,"tio":5472,"ering":5473,"1763":5474,"1350":5475,"iness":5476,"ï¼ĭ":5477,"sie":5478,"403":5479,"cept":5480,"cuÃ³":5481,"sell":5482,"mani":5483,"908":5484,"ession":5485,"6500":5486,"case":5487,"1505":5488,"ardo":5489,"tour":5490,"777":5491,"Marie":5492,"anger":5493,"fied":5494,"fication":5495,"Pack":5496,"worth":5497,"Santa":5498,"MG42":5499,"Christop":5500,"Villa":5501,"547":5502,"567":5503,"668":5504,"C5":5505,"FAN":5506,"Mountain":5507,"NK":5508,"Rol":5509,"T4":5510,"YOSHI":5511,"bla":5512,"sÃło":5513,"Â³":5514,"Ñĸ":5515,"1050":5516,"1614":5517,"1720":5518,"374":5519,"494":5520,"CoV":5521,"IDE":5522,"IPS":5523,"PSP":5524,"thers":5525,"Work":5526,"UNIX":5527,"People":5528,"Commit":5529,"âħł":5530,"Karl":5531,"Frame":5532,"IPv4":5533,"Explorer":5534,"514":5535,"522":5536,"545":5537,"568":5538,"619":5539,"675":5540,"Bau":5541,"CSS":5542,"D1":5543,"EBU":5544,"KT":5545,"Kw":5546,"Oh":5547,"Shu":5548,"Za":5549,"nÃ©":5550,"spi":5551,"sal":5552,"yÃ³ng":5553,"lete":5554,"1516":5555,"1513":5556,"1534":5557,"1547":5558,"1569":5559,"16V":5560,"1460":5561,"stone":5562,"cula":5563,"ãģ§":5564,"359":5565,"757":5566,"642":5567,"581":5568,"aux":5569,"1502":5570,"ctions":5571,"gani":5572,"alis":5573,"GeForce":5574,"à¸£":5575,"SOHC":5576,"Jackson":5577,"Arthur":5578,"Queen":5579,"COLLAR":5580,"Sunday":5581,"origin":5582,"418":5583,"414":5584,"424":5585,"433":5586,"544":5587,"Bos":5588,"CJ":5589,"DTS":5590,"F2":5591,"JO":5592,"Jus":5593,"MMO":5594,"PEN":5595,"Sand":5596,"Tel":5597,"XIV":5598,"bÅ«":5599,"cz":5600,"flo":5601,"hol":5602,"ith":5603,"pper":5604,"ski":5605,"zed":5606,"ÐĴ":5607,"1731":5608,"1768":5609,"1771":5610,"1490":5611,"mel":5612,"409":5613,"lter":5614,"ãĥı":5615,"604":5616,"802":5617,"ãĤ±":5618,"ãĤĩ":5619,"ãĤį":5620,"389":5621,"7500":5622,"394":5623,"476":5624,"been":5625,"493":5626,"vio":5627,"Vision":5628,"ERO":5629,"Box":5630,"Rift":5631,"AGE":5632,"Prime":5633,"FOX":5634,"while":5635,"True":5636,"JTBC":5637,"âĩĶ":5638,"Cinema":5639,"Avenue":5640,"431":5641,"539":5642,"745":5643,"ABS":5644,"Bit":5645,"Classic":5646,"EO":5647,"Gin":5648,"Gamer":5649,"Ker":5650,"Lord":5651,"Mit":5652,"Sk":5653,"Solo":5654,"V6":5655,"bn":5656,"bour":5657,"jq":5658,"zza":5659,"Ä±":5660,"shop":5661,"shed":5662,"change":5663,"biÃło":5664,"til":5665,"tice":5666,"tify":5667,"1593":5668,"1724":5669,"1752":5670,"1469":5671,"1498":5672,"1370":5673,"sili":5674,"sea":5675,"ãģĪ":5676,"ille":5677,"382":5678,"755":5679,"464":5680,"444":5681,"cid":5682,"571":5683,"1501":5684,"Never":5685,"Gaga":5686,"nova":5687,"PS3":5688,"prote":5689,"Express":5690,"British":5691,"tdown":5692,"AGASA":5693,"Kids":5694,"Friedrich":5695,"646":5696,"667":5697,"CIA":5698,"D2":5699,"Ever":5700,"Gam":5701,"IRT":5702,"Kan":5703,"M6":5704,"Pass":5705,"Tam":5706,"XF":5707,"ZJ":5708,"ami":5709,"high":5710,"pto":5711,"say":5712,"tch":5713,"dex":5714,"lius":5715,"dies":5716,"1520":5717,"1560":5718,"1553":5719,"1651":5720,"1740":5721,"1493":5722,"602":5723,"904":5724,"496":5725,"498":5726,"443":5727,"nament":5728,"Rail":5729,"MAN":5730,"Boys":5731,"Baby":5732,"Haw":5733,"produ":5734,"UNG":5735,"Fami":5736,"AGUE":5737,"LEAGUE":5738,"Guard":5739,"works":5740,"mont":5741,"Jeff":5742,"Donald":5743,"Intelli":5744,"à¥į":5745,"Communi":5746,"Athlon":5747,"Memori":5748,"Firefox":5749,"611":5750,"645":5751,"945":5752,"Again":5753,"Bas":5754,"C1":5755,"Cen":5756,"CBA":5757,"DEC":5758,"GW":5759,"Hay":5760,"Old":5761,"QU":5762,"TAM":5763,"U2":5764,"vol":5765,"Ã¥":5766,"áº":5767,"chan":5768,"dic":5769,"1596":5770,"ono":5771,"1632":5772,"1679":5773,"1718":5774,"1735":5775,"1745":5776,"1758":5777,"25G":5778,"ï¼Ŀ":5779,"tec":5780,"ram":5781,"ãĥ¡":5782,"culus":5783,"made":5784,"907":5785,"ãĤģ":5786,"ãĤĨ":5787,"584":5788,"1506":5789,"Dear":5790,"sson":5791,"two":5792,"mental":5793,"1605":5794,"Samu":5795,"gia":5796,"Anth":5797,"Side":5798,"Health":5799,"Fish":5800,"Name":5801,"REAM":5802,"Wild":5803,"Central":5804,"Doug":5805,"Standard":5806,"Violet":5807,"Christopher":5808,"YOSHIKI":5809,"050":5810,"439":5811,"533":5812,"731":5813,"732":5814,"741":5815,"762":5816,"962":5817,"Astro":5818,"Cree":5819,"Eye":5820,"Flor":5821,"H3":5822,"ICD":5823,"Kra":5824,"NU":5825,"Num":5826,"Off":5827,"RCP":5828,"TL":5829,"Thi":5830,"UCLA":5831,"Wood":5832,"ath":5833,"kit":5834,"np":5835,"phe":5836,"vari":5837,"wen":5838,"Ïħ":5839,"á¸":5840,"âĻ":5841,"bia":5842,"dina":5843,"1260":5844,"1566":5845,"law":5846,"lade":5847,"1725":5848,"1748":5849,"ãĥĦ":5850,"706":5851,"ãĤĪ":5852,"ãĤĴ":5853,"457":5854,"tery":5855,"379":5856,"aso":5857,"756":5858,"553":5859,"cio":5860,"673":5861,"574":5862,"576":5863,"mpson":5864,"List":5865,"Alan":5866,"985":5867,"973":5868,"Anna":5869,"Capital":5870,"Greg":5871,"AlphaFold":5872,"Operation":5873,"Fleetline":5874,"Angelababy":5875,"516":5876,"617":5877,"639":5878,"722":5879,"735":5880,"DU":5881,"Econo":5882,"HMS":5883,"Kha":5884,"P2":5885,"Tower":5886,"bble":5887,"ners":5888,"sÃ²u":5889,"2050":5890,"quid":5891,"1528":5892,"1572":5893,"onal":5894,"1652":5895,"1727":5896,"1761":5897,"1368":5898,"ãĥ¯":5899,"ãĥİ":5900,"356":5901,"704":5902,"482":5903,"655":5904,"brary":5905,"ault":5906,"ARE":5907,"gate":5908,"Gaon":5909,"ends":5910,"BLE":5911,"link":5912,"Color":5913,"telli":5914,"Harry":5915,"English":5916,"Garden":5917,"Two":5918,"Jones":5919,"Anderson":5920,"Elizabeth":5921,"Committee":5922,"447":5923,"863":5924,"926":5925,"961":5926,"Ana":5927,"Apa":5928,"Bow":5929,"Din":5930,"Ea":5931,"Epi":5932,"LX":5933,"RATP":5934,"Tha":5935,"VP":5936,"WW":5937,"eu":5938,"hal":5939,"pet":5940,"pas":5941,"defea":5942,"shan":5943,"lim":5944,"bird":5945,"eno":5946,"nin":5947,"ergy":5948,"1531":5949,"1538":5950,"1647":5951,"1681":5952,"stor":5953,"rat":5954,"803":5955,"708":5956,"ãĤĥ":5957,"452":5958,"453":5959,"they":5960,"651":5961,"bed":5962,"Cook":5963,"vir":5964,"586":5965,"572":5966,"Stro":5967,"1504":5968,"Neu":5969,"EDG":5970,"APG":5971,"ICA":5972,"door":5973,"Conne":5974,"Basic":5975,"1701":5976,"Stephen":5977,"Carl":5978,"Colspan":5979,"word":5980,"essor":5981,"HOME":5982,"ights":5983,"Appli":5984,"ccff":5985,"ccccff":5986,"Press":5987,"Disco":5988,"Twitch":5989,"prise":5990,"Patrick":5991,"frame":5992,"Women":5993,"FINAL":5994,"Beyond":5995,"3M":5996,"438":5997,"511":5998,"933":5999,"Bun":6000,"Hero":6001,"Hans":6002,"ILE":6003,"Jes":6004,"Rad":6005,"Say":6006,"SNC":6007,"aw":6008,"band":6009,"dÄĽi":6010,"gna":6011,"vity":6012,"wer":6013,"Î©":6014,"Ð·":6015,"Øª":6016,"ìļ":6017,"xus":6018,"hÃłng":6019,"mie":6020,"1530":6021,"1537":6022,"lati":6023,"1736":6024,"ï¼Ĩ":6025,"603":6026,"808":6027,"461":6028,"468":6029,"681":6030,"user":6031,"ONG":6032,"state":6033,"1709":6034,"Kevin":6035,"GameSpot":6036,"Abdu":6037,"Southern":6038,"news":6039,"JavaScript":6040,"Prince":6041,"DirectX":6042,"Silver":6043,"function":6044,"Modern":6045,"3G":6046,"541":6047,"629":6048,"648":6049,"725":6050,"Ak":6051,"CAR":6052,"Dor":6053,"ELE":6054,"Low":6055,"NN":6056,"Nan":6057,"NPC":6058,"P4":6059,"URE":6060,"Vis":6061,"cter":6062,"city":6063,"gas":6064,"gent":6065,"vent":6066,"Ñħ":6067,"such":6068,"super":6069,"dire":6070,"zing":6071,"1519":6072,"1529":6073,"1555":6074,"1687":6075,"last":6076,"1728":6077,"ardi":6078,"ink":6079,"team":6080,"ãĥĿ":6081,"cuÇĲ":6082,"905":6083,"esa":6084,"484":6085,"653":6086,"Maker":6087,"Info":6088,"before":6089,"559":6090,"491":6091,"679":6092,"ped":6093,"796":6094,"OSS":6095,"fish":6096,"Saf":6097,"MAD":6098,"Paris":6099,"Concer":6100,"That":6101,"Fair":6102,"mark":6103,"ckett":6104,"URL":6105,"AOA":6106,"Yahoo":6107,"speci":6108,"ctures":6109,"Planet":6110,"ASCII":6111,"Spotify":6112,"OmegaT":6113,"Mitchell":6114,"423":6115,"536":6116,"632":6117,"715":6118,"825":6119,"833":6120,"Ala":6121,"B3":6122,"CAL":6123,"D9":6124,"Flow":6125,"Gy":6126,"GRO":6127,"Hau":6128,"Ita":6129,"K2":6130,"Money":6131,"Mbps":6132,"RDS":6133,"Zo":6134,"eb":6135,"ei":6136,"ide":6137,"san":6138,"sci":6139,"wart":6140,"huÅį":6141,"2035":6142,"1120":6143,"1767":6144,"cking":6145,"Chrome":6146,"Main":6147,"473":6148,"492":6149,"cap":6150,"nda":6151,"auto":6152,"661":6153,"562":6154,"Liber":6155,"Robin":6156,"Dead":6157,"Debian":6158,"Mega":6159,"Via":6160,"game":6161,"See":6162,"bucket":6163,"Anne":6164,"host":6165,"PS2":6166,"Fede":6167,"Eddie":6168,"TRA":6169,"Countdown":6170,"Zico":6171,"signed":6172,"TOKYO":6173,"Violetta":6174,"339":6175,"429":6176,"532":6177,"665":6178,"775":6179,"769":6180,"Ax":6181,"Area":6182,"D5":6183,"Eri":6184,"Fox":6185,"Hand":6186,"JI":6187,"Pur":6188,"R1":6189,"RF":6190,"SNS":6191,"ller":6192,"Õ¡":6193,"miÄĵ":6194,"1220":6195,"1545":6196,"1664":6197,"1659":6198,"1719":6199,"artic":6200,"1495":6201,"1496":6202,"1388":6203,"redo":6204,"cep":6205,"702":6206,"703":6207,"Chap":6208,"Chart":6209,"Mah":6210,"STATION":6211,"689":6212,"Rea":6213,"692":6214,"osp":6215,"Roman":6216,"Mix":6217,"798":6218,"him":6219,"splay":6220,"ott":6221,"mentary":6222,"ERS":6223,"Jaco":6224,"AND":6225,"graphy":6226,"Juan":6227,"gins":6228,"Steven":6229,"Phy":6230,"IFF":6231,"Bio":6232,"Dragon":6233,"Anime":6234,"Henri":6235,"Framework":6236,"010":6237,"434":6238,"636":6239,"729":6240,"761":6241,"878":6242,"Aus":6243,"Action":6244,"E1":6245,"E231":6246,"GEN":6247,"Jay":6248,"L2":6249,"PAGASA":6250,"RK":6251,"Too":6252,"ZERO":6253,"das":6254,"eg":6255,"hat":6256,"ira":6257,"Ðĳ":6258,"Ðľ":6259,"ÑĨ":6260,"ìĹ":6261,"tier":6262,"1546":6263,"1549":6264,"1562":6265,"1670":6266,"1690":6267,"1654":6268,"1653":6269,"1694":6270,"1759":6271,"aro":6272,"1466":6273,"thor":6274,"sio":6275,"ãĥ¢":6276,"807":6277,"709":6278,"458":6279,"463":6280,"log":6281,"555":6282,"596":6283,"662":6284,"Stri":6285,"under":6286,"Like":6287,"Michel":6288,"constru":6289,"ental":6290,"gie":6291,"posi":6292,"Build":6293,"shion":6294,"Interactive":6295,"Wilson":6296,"Johnny":6297,"della":6298,"Voice":6299,"FAST":6300,"Kenne":6301,"Court":6302,"Happy":6303,"HTTP":6304,"Samuel":6305,"12000":6306,"527":6307,"638":6308,"669":6309,"712":6310,"711":6311,"BP":6312,"Dal":6313,"DREAM":6314,"Hos":6315,"IMAX":6316,"Jos":6317,"K11":6318,"LV":6319,"Lind":6320,"M5":6321,"Nam":6322,"NCC":6323,"RSA":6324,"Sr":6325,"dan":6326,"ef":6327,"flu":6328,"ska":6329,"wy":6330,"Î¬":6331,"shell":6332,"xis":6333,"qiÅįng":6334,"lem":6335,"sung":6336,"tura":6337,"niÅ«":6338,"1558":6339,"1581":6340,"1738":6341,"1474":6342,"1375":6343,"cular":6344,"elli":6345,"neu":6346,"vement":6347,"STAT":6348,"477":6349,"love":6350,"68000":6351,"Cos":6352,"ATE":6353,"595":6354,"598":6355,"599":6356,"578":6357,"1608":6358,"Jac":6359,"Hein":6360,"dence":6361,"EPA":6362,"program":6363,"ween":6364,"gene":6365,"syn":6366,"flight":6367,"EXILE":6368,"Person":6369,"GPL":6370,"Stars":6371,"stars":6372,"Galant":6373,"import":6374,"NMB48":6375,"521":6376,"628":6377,"622":6378,"721":6379,"867":6380,"877":6381,"965":6382,"Aer":6383,"BY":6384,"Care":6385,"F5":6386,"Jet":6387,"Mount":6388,"Ner":6389,"OST":6390,"RX":6391,"Sus":6392,"SUP":6393,"Source":6394,"VEN":6395,"WP":6396,"ZZ":6397,"cli":6398,"cin":6399,"fre":6400,"gli":6401,"ui":6402,"will":6403,"yd":6404,"guÃłng":6405,"yun":6406,"life":6407,"bio":6408,"1280":6409,"âĢ³":6410,"1665":6411,"lat":6412,"1732":6413,"1744":6414,"1756":6415,"1489":6416,"1487":6417,"1340":6418,"oul":6419,"met":6420,"000rpm":6421,"ãĥĵ":6422,"906":6423,"ãĤº":6424,"451":6425,"Chill":6426,"997":6427,"Stru":6428,"idae":6429,"Security":6430,"Dave":6431,"Shar":6432,"wick":6433,"Player":6434,"Feli":6435,"ghts":6436,"Forever":6437,"SHOW":6438,"Business":6439,"2nd":6440,"519":6441,"517":6442,"624":6443,"623":6444,"835":6445,"876":6446,"938":6447,"954":6448,"951":6449,"Abu":6450,"B9":6451,"CAP":6452,"D3":6453,"Fw":6454,"Flo":6455,"GDDR":6456,"Hil":6457,"Hop":6458,"IMD":6459,"Kur":6460,"LCD":6461,"NIC":6462,"Pon":6463,"Qt":6464,"Sel":6465,"YF":6466,"eng":6467,"fan":6468,"mou":6469,"mos":6470,"ude":6471,"vas":6472,"would":6473,"xa":6474,"Ðĺ":6475,"ð¤":6476,"sum":6477,"qua":6478,"chuÃłi":6479,"1524":6480,"1532":6481,"1584":6482,"1658":6483,"1657":6484,"1699":6485,"lad":6486,"1762":6487,"1337":6488,"mum":6489,"ï¼ŀ":6490,"rai":6491,"seed":6492,"472":6493,"474":6494,"649":6495,"497":6496,"687":6497,"688":6498,"698":6499,"579":6500,"784":6501,"Rober":6502,"Proto":6503,"html":6504,"1406":6505,"Carlos":6506,"DSP":6507,"à¤¾":6508,"Bike":6509,"year":6510,"SHIN":6511,"Holly":6512,"Christmas":6513,"âĺħ":6514,"Public":6515,"scape":6516,"MONSTA":6517,"Computer":6518,"Touch":6519,"Smack":6520,"Smosh":6521,"Apache":6522,"054":6523,"616":6524,"719":6525,"865":6526,"946":6527,"988":6528,"Bran":6529,"DH":6530,"Dur":6531,"Esp":6532,"G1":6533,"Gau":6534,"H4":6535,"H10":6536,"Hat":6537,"Jona":6538,"More":6539,"S3":6540,"Sb":6541,"Sense":6542,"Wit":6543,"WHO":6544,"XG":6545,"jan":6546,"kra":6547,"used":6548,"Ã¦":6549,"ÏĨ":6550,"dus":6551,"tie":6552,"luÅį":6553,"enne":6554,"micro":6555,"pia":6556,"1668":6557,"1739":6558,"1764":6559,"format":6560,"mail":6561,"30000":6562,"787":6563,"Library":6564,"Socket":6565,"Ann":6566,"sock":6567,"PSV":6568,"Control":6569,"1702":6570,"There":6571,"Take":6572,"Human":6573,"LLVM":6574,"rowspan":6575,"ways":6576,"break":6577,"Fanta":6578,"Ryan":6579,"SmackDown":6580,"052":6581,"421":6582,"437":6583,"614":6584,"626":6585,"637":6586,"815":6587,"816":6588,"975":6589,"Card":6590,"Echo":6591,"GF":6592,"If":6593,"Ice":6594,"JP":6595,"Rh":6596,"Wing":6597,"Wolf":6598,"YA":6599,"ZO":6600,"after":6601,"cine":6602,"free":6603,"hp":6604,"kha":6605,"won":6606,"wri":6607,"Ðł":6608,"ë°":6609,"depen":6610,"dig":6611,"0000":6612,"1275":6613,"1536":6614,"1675":6615,"1464":6616,"rad":6617,"may":6618,"major":6619,"455":6620,"IND":6621,"lock":6622,"671":6623,"678":6624,"ops":6625,"most":6626,"ARP":6627,"Tex":6628,"Sher":6629,"Anti":6630,"1705":6631,"Liner":6632,"Fashion":6633,"TOWN":6634,"erial":6635,"Giovan":6636,"Sheet":6637,"lease":6638,"KKBOX":6639,"Championship":6640,"Language":6641,"Alfredo":6642,"alysis":6643,"Professor":6644,"542":6645,"634":6646,"821":6647,"912":6648,"CIT":6649,"Cfb":6650,"DX":6651,"HPV":6652,"MOS":6653,"MIT":6654,"NXT":6655,"Ol":6656,"Pr":6657,"SY":6658,"Ster":6659,"SIM":6660,"Tig":6661,"WH":6662,"Wer":6663,"Well":6664,"Wong":6665,"count":6666,"df":6667,"dle":6668,"done":6669,"glo":6670,"ima":6671,"mme":6672,"nst":6673,"ois":6674,"pon":6675,"wind":6676,"Ïĩ":6677,"âģ":6678,"ãħ":6679,"ìĦ":6680,"ches":6681,"lib":6682,"leu":6683,"lein":6684,"miÄģo":6685,"1563":6686,"1617":6687,"1663":6688,"1685":6689,"1753":6690,"1477":6691,"1380":6692,"multi":6693,"stance":6694,"503":6695,"ras":6696,"see":6697,"809":6698,"ãģİ":6699,"ãĤ½":6700,"atan":6701,"483":6702,"486":6703,"asy":6704,"754":6705,"656":6706,"Mate":6707,"beat":6708,"beca":6709,"Theat":6710,"676":6711,"ATX":6712,"SAN":6713,"785":6714,"561":6715,"NAS":6716,"Mei":6717,"ARK":6718,"Second":6719,"ACH":6720,"okia":6721,"ANG":6722,"IPTV":6723,"Western":6724,"Board":6725,"File":6726,"Field":6727,"there":6728,"à¸²":6729,"UNES":6730,"gency":6731,"Frances":6732,"Morning":6733,"Brad":6734,"RCA":6735,"Collection":6736,"SpaceX":6737,"Melon":6738,"Circle":6739,"Mission":6740,"Creative":6741,"TWICE":6742,"Clark":6743,"Industri":6744,"SUPER":6745,"2DS":6746,"518":6747,"526":6748,"566":6749,"716":6750,"714":6751,"765":6752,"764":6753,"744":6754,"826":6755,"847":6756,"918":6757,"936":6758,"Afri":6759,"BNO":6760,"EU":6761,"Eve":6762,"Every":6763,"GI":6764,"Here":6765,"Ia":6766,"MRI":6767,"Pere":6768,"RP":6769,"Right":6770,"Rank":6771,"SUN":6772,"Vin":6773,"VIP":6774,"Wri":6775,"Ware":6776,"WTT":6777,"cam":6778,"cta":6779,"group":6780,"hÄģi":6781,"pho":6782,"town":6783,"ÅĤ":6784,"ÙĪ":6785,"âĬ":6786,"ë¦":6787,"ð¬":6788,"ngth":6789,"show":6790,"chin":6791,"ched":6792,"lity":6793,"chus":6794,"1024":6795,"1669":6796,"1656":6797,"1672":6798,"1692":6799,"1754":6800,"1420":6801,"1480":6802,"teen":6803,"ilo":6804,"their":6805,"751":6806,"658":6807,"Chang":6808,"Maki":6809,"Inte":6810,"594":6811,"Stone":6812,"791":6813,"AMC":6814,"AMP":6815,"Moore":6816,"Shine":6817,"ITA":6818,"Bug":6819,"1704":6820,"1708":6821,"Nick":6822,"Pie":6823,"ario":6824,"AGP":6825,"MLB":6826,"Manu":6827,"Vogue":6828,"Future":6829,"DMR":6830,"Front":6831,"RepRap":6832,"2B":6833,"713":6834,"727":6835,"748":6836,"768":6837,"875":6838,"915":6839,"929":6840,"947":6841,"Ace":6842,"BIG":6843,"Cr":6844,"CYP":6845,"Dam":6846,"Emp":6847,"EBS":6848,"Fai":6849,"From":6850,"ISA":6851,"NICO":6852,"OME":6853,"R3":6854,"Ring":6855,"UF":6856,"VIS":6857,"XIII":6858,"kon":6859,"xc":6860,"zÄģn":6861,"Ð¢":6862,"Ø³":6863,"lev":6864,"bie":6865,"bis":6866,"1075":6867,"1277":6868,"1279":6869,"1276":6870,"1111":6871,"ante":6872,"1440":6873,"1488":6874,"1472":6875,"1371":6876,"allo":6877,"story":6878,"rian":6879,"rice":6880,"road":6881,"ãĥ§":6882,"902":6883,"489":6884,"vier":6885,"699":6886,"ophy":6887,"992":6888,"881":6889,"986":6890,"Lew":6891,"contribu":6892,"APM":6893,"1602":6894,"dom":6895,"commercial":6896,"Interplay":6897,"cross":6898,"AIM":6899,"REAS":6900,"Wilhel":6901,"Audio":6902,"CRH5":6903,"Gene":6904,"Walker":6905,"Version":6906,"Films":6907,"Jimmy":6908,"District":6909,"Sweet":6910,"Building":6911,"030":6912,"633":6913,"778":6914,"812":6915,"955":6916,"957":6917,"Azu":6918,"Asian":6919,"C3":6920,"C14":6921,"EY":6922,"Im":6923,"Ian":6924,"Iso":6925,"Jalan":6926,"LNG":6927,"LIF":6928,"MIC":6929,"NY":6930,"Nint":6931,"POS":6932,"Rand":6933,"RSS":6934,"SAT":6935,"Sid":6936,"Stop":6937,"Ts":6938,"TNT":6939,"Yi":6940,"Yan":6941,"bÇĴ":6942,"cÃº":6943,"cÄĵn":6944,"d4":6945,"iro":6946,"rs":6947,"ute":6948,"Ã½":6949,"Ø¨":6950,"Ø¯":6951,"ledge":6952,"sul":6953,"tury":6954,"kuÇİi":6955,"002":6956,"004":6957,"1230":6958,"pis":6959,"1527":6960,"1611":6961,"array":6962,"rela":6963,"rix":6964,"rish":6965,"ols":6966,"ely":6967,"ãģĽ":6968,"487":6969,"nest":6970,"bov":6971,"Chro":6972,"Information":6973,"558":6974,"685":6975,"vich":6976,"osau":6977,"577":6978,"781":6979,"792":6980,"794":6981,"Album":6982,"981":6983,"Lei":6984,"CO2":6985,"ARC":6986,"Dick":6987,"Shop":6988,"gion":6989,"poli":6990,"Six":6991,"Energy":6992,"WiMAX":6993,"shire":6994,"Gemini":6995,"Stewart":6996,"1122":6997,"RES":6998,"Tac":6999,"ories":7000,"ESPN":7001,"Trickett":7002,"minal":7003,"Wave":7004,"Thompson":7005,"Where":7006,"Portable":7007,"elect":7008,"ìķĦ":7009,"Thunderbird":7010,"Velvet":7011,"Jonathan":7012,"ð¬ĵ":7013,"Nintendo":7014,"070":7015,"543":7016,"615":7017,"717":7018,"828":7019,"839":7020,"939":7021,"Bin":7022,"E2":7023,"Edi":7024,"FD":7025,"G2":7026,"GG":7027,"Gr":7028,"Len":7029,"Lun":7030,"MED":7031,"N1":7032,"RY":7033,"S7":7034,"TD":7035,"UFC":7036,"V1":7037,"V2":7038,"ala":7039,"ic":7040,"kai":7041,"nar":7042,"poly":7043,"tar":7044,"wel":7045,"zzi":7046,"ãİ":7047,"ê°":7048,"lee":7049,"tinu":7050,"tiful":7051,"quali":7052,"dine":7053,"nig":7054,"1512":7055,"1541":7056,"1666":7057,"lak":7058,"1721":7059,"1726":7060,"1737":7061,"1747":7062,"1743":7063,"1741":7064,"archi":7065,"1430":7066,"25000":7067,"former":7068,"teau":7069,"site":7070,"481":7071,"ism":7072,"boy":7073,"nation":7074,"adox":7075,"based":7076,"674":7077,"cate":7078,"697":7079,"889":7080,"Liquid":7081,"Deuts":7082,"Allen":7083,"982":7084,"989":7085,"apu":7086,"pert":7087,"fini":7088,"post":7089,"Page":7090,"Sport":7091,"PCR":7092,"à¸Ļ":7093,"AVE":7094,"NHS":7095,"Grace":7096,"hyth":7097,"Match":7098,"bury":7099,"Enterprise":7100,"Surf":7101,"Productions":7102,"about":7103,"Bruce":7104,"Douglas":7105,"2TV":7106,"513":7107,"846":7108,"866":7109,"857":7110,"B12":7111,"Ball":7112,"Gary":7113,"HY":7114,"J1":7115,"JXG":7116,"Kill":7117,"Oculus":7118,"Penti":7119,"WM":7120,"Zen":7121,"again":7122,"ever":7123,"kHz":7124,"power":7125,"wat":7126,"xe":7127,"zÃ¡n":7128,"dera":7129,"gus":7130,"zhuÇİ":7131,"mium":7132,"1217":7133,"1274":7134,"1515":7135,"1542":7136,"1712":7137,"1711":7138,"1715":7139,"1435":7140,"1456":7141,"1328":7142,"1385":7143,"forman":7144,"room":7145,"sele":7146,"elo":7147,"ãģ¶":7148,"4800":7149,"INT":7150,"ison":7151,"3400":7152,"bach":7153,"pei":7154,"Stor":7155,"1509":7156,"Roger":7157,"Window":7158,"Motor":7159,"dale":7160,"Staff":7161,"ISC":7162,"971":7163,"Lock":7164,"ASH":7165,"fect":7166,"Netscape":7167,"IGHT":7168,"gener":7169,"GP40":7170,"hydro":7171,"brid":7172,"bridge":7173,"facebook":7174,"Princess":7175,"Pink":7176,"Tennis":7177,"SHINee":7178,"Pentium":7179,"055":7180,"647":7181,"728":7182,"726":7183,"811":7184,"913":7185,"CZ":7186,"CCD":7187,"COS":7188,"Ing":7189,"KS":7190,"Mg":7191,"Snow":7192,"TAI":7193,"Zero":7194,"fit":7195,"fig":7196,"fts":7197,"ila":7198,"sw":7199,"tta":7200,"uk":7201,"vad":7202,"yan":7203,"Î¯":7204,"Î¶":7205,"shark":7206,"lik":7207,"tit":7208,"chuÇİi":7209,"nik":7210,"1150":7211,"orbit":7212,"1544":7213,"1757":7214,"1424":7215,"1470":7216,"1454":7217,"str":7218,"thal":7219,"through":7220,"ril":7221,"rier":7222,"2900":7223,"amba":7224,"sets":7225,"909":7226,"459":7227,"3700":7228,"iser":7229,"759":7230,"STER":7231,"IIT":7232,"Cong":7233,"cision":7234,"672":7235,"582":7236,"ATS":7237,"591":7238,"993":7239,"SAP":7240,"Mars":7241,"Division":7242,"Lost":7243,"Buzz":7244,"DSL":7245,"project":7246,"tten":7247,"France":7248,"Universal":7249,"hammad":7250,"Chee":7251,"âħ¢":7252,"IMF":7253,"Drama":7254,"struct":7255,"England":7256,"CGTN":7257,"Louise":7258,"Mercu":7259,"addr":7260,"Antonio":7261,"Archite":7262,"CDMA2000":7263,"WORLD":7264,"Alliance":7265,"Hollywood":7266,"823":7267,"829":7268,"927":7269,"935":7270,"A5":7271,"Emi":7272,"F7":7273,"Four":7274,"GIS":7275,"Hart":7276,"JC":7277,"Jason":7278,"KN":7279,"Know":7280,"LMS":7281,"LPL":7282,"Oly":7283,"Sang":7284,"TB":7285,"USE":7286,"WD":7287,"Zu":7288,"cca":7289,"feld":7290,"mpic":7291,"ole":7292,"ova":7293,"ppe":7294,"gun":7295,"tup":7296,"mical":7297,"1235":7298,"1264":7299,"order":7300,"1554":7301,"1722":7302,"1734":7303,"1766":7304,"1471":7305,"1330":7306,"1390":7307,"iner":7308,"range":7309,"ãĥį":7310,"cei":7311,"609":7312,"them":7313,"ando":7314,"652":7315,"659":7316,"Maxi":7317,"Make":7318,"Remix":7319,"695":7320,"573":7321,"lyn":7322,"783":7323,"ssa":7324,"berry":7325,"771":7326,"kee":7327,"Gate":7328,"Arena":7329,"Shot":7330,"meral":7331,"Unit":7332,"sters":7333,"Paradox":7334,"âĪĪ":7335,"Adven":7336,"Hugh":7337,"Peace":7338,"ttle":7339,"AAA":7340,"DOCO":7341,"Reddit":7342,"Active":7343,"ensor":7344,"Benja":7345,"Spin":7346,"Brook":7347,"Brothers":7348,"AlphaGo":7349,"llion":7350,"unique":7351,"partment":7352,"Engineering":7353,"Opera":7354,"small":7355,"ECTION":7356,"Kelly":7357,"tournament":7358,"Creek":7359,"defeated":7360,"Concert":7361,"Makiyo":7362,"Surfshark":7363,"1180":7364,"3100":7365,"529":7366,"724":7367,"736":7368,"832":7369,"932":7370,"967":7371,"976":7372,"Ay":7373,"Ave":7374,"BEST":7375,"DN":7376,"Drop":7377,"Ey":7378,"F6":7379,"FG":7380,"Flu":7381,"Fall":7382,"Gon":7383,"HM":7384,"HQ":7385,"KA":7386,"Ky":7387,"Kor":7388,"Los":7389,"N3":7390,"NON":7391,"OL":7392,"Pia":7393,"PRE":7394,"RAD":7395,"SRAM":7396,"U16":7397,"VCD":7398,"Wol":7399,"XY":7400,"act":7401,"follow":7402,"gran":7403,"good":7404,"hd":7405,"mary":7406,"nch":7407,"nel":7408,"rence":7409,"tent":7410,"wo":7411,"Â½":7412,"Ã£":7413,"ÏĮ":7414,"Ðŀ":7415,"×Ļ":7416,"ð¡":7417,"deri":7418,"1557":7419,"1551":7420,"1655":7421,"1678":7422,"1696":7423,"lav":7424,"1746":7425,"1749":7426,"1475":7427,"1441":7428,"1484":7429,"1399":7430,"string":7431,"rison":7432,"teo":7433,"eter":7434,"iller":7435,"andra":7436,"boot":7437,"752":7438,"being":7439,"683":7440,"Rev":7441,"Str":7442,"Rob":7443,"Marsh":7444,"vation":7445,"874":7446,"ACS":7447,"static":7448,"1402":7449,"à¸¡":7450,"wei":7451,"CRH":7452,"Hulu":7453,"nett":7454,"BMT":7455,"Disc":7456,"Allstars":7457,"Holdings":7458,"Broad":7459,"Valley":7460,"GMMTV":7461,"VOCAL":7462,"Miller":7463,"Palazzo":7464,"ological":7465,"IPv6":7466,"Rainbow":7467,"Electronic":7468,"Premier":7469,"PENOME":7470,"Mercury":7471,"DOCOMO":7472,"PENOMECO":7473,"635":7474,"864":7475,"931":7476,"937":7477,"956":7478,"972":7479,"Edition":7480,"Fren":7481,"FIR":7482,"Git":7483,"Had":7484,"Mou":7485,"Mol":7486,"Mill":7487,"NL":7488,"NAT":7489,"PRI":7490,"Ted":7491,"Tang":7492,"Wid":7493,"crea":7494,"exi":7495,"flow":7496,"gos":7497,"kn":7498,"prin":7499,"sort":7500,"xon":7501,"Ãĸ":7502,"Åĭ":7503,"ÑĪ":7504,"ð°":7505,"big":7506,"tig":7507,"distri":7508,"1020":7509,"1010":7510,"1266":7511,"1261":7512,"pid":7513,"1641":7514,"1751":7515,"arma":7516,"1346":7517,"mur":7518,"three":7519,"rest":7520,"seu":7521,"ãģŃ":7522,"cken":7523,"bot":7524,"TCH":7525,"beta":7526,"virus":7527,"995":7528,"884":7529,"885":7530,"886":7531,"Dean":7532,"Delta":7533,"Mira":7534,"YouBike":7535,"motion":7536,"Sele":7537,"Arm":7538,"ISP":7539,"ISS":7540,"Davis":7541,"Daily":7542,"Diam":7543,"poem":7544,"kie":7545,"Paci":7546,"Sie":7547,"Head":7548,"socket":7549,"Word":7550,"AGM":7551,"crip":7552,"Hip":7553,"M1A2":7554,"Prize":7555,"Nord":7556,"CLOS":7557,"Access":7558,"CSI":7559,"County":7560,"parti":7561,"YOU":7562,"Samsung":7563,"match":7564,"Ross":7565,"Bird":7566,"Twins":7567,"longi":7568,"Beautiful":7569,"Original":7570,"August":7571,"username":7572,"Theatre":7573,"Wilhelm":7574,"Benjamin":7575,"060":7576,"564":7577,"664":7578,"817":7579,"831":7580,"853":7581,"919":7582,"958":7583,"942":7584,"959":7585,"979":7586,"Acc":7587,"Cali":7588,"FK":7589,"FNC":7590,"Gas":7591,"GUI":7592,"Hg":7593,"IATA":7594,"JB":7595,"Kore":7596,"Nel":7597,"PU":7598,"PX":7599,"Pit":7600,"Pha":7601,"PDF":7602,"QR":7603,"Schu":7604,"UCC":7605,"Winter":7606,"camp":7607,"cry":7608,"fran":7609,"gb":7610,"hÇĴng":7611,"hor":7612,"hon":7613,"ist":7614,"lf":7615,"rÅįng":7616,"Î£":7617,"ÐĿ":7618,"det":7619,"lier":7620,"tium":7621,"differ":7622,"1284":7623,"2029":7624,"1673":7625,"1713":7626,"aria":7627,"1425":7628,"1468":7629,"1382":7630,"member":7631,"lty":7632,"ãĥľ":7633,"seo":7634,"804":7635,"ãģ©":7636,"cola":7637,"3800":7638,"657":7639,"Made":7640,"Invest":7641,"nature":7642,"cious":7643,"bai":7644,"cau":7645,"ATI":7646,"Lip":7647,"Department":7648,"CONC":7649,"AMX":7650,"ARI":7651,"Mode":7652,"873":7653,"1204":7654,"ICC":7655,"mers":7656,"graph":7657,"fee":7658,"à¸±":7659,"Nicho":7660,"Docu":7661,"Luis":7662,"Factory":7663,"CR400":7664,"ences":7665,"Services":7666,"SPA":7667,"family":7668,"Whit":7669,"creen":7670,"Flag":7671,"Trust":7672,"phic":7673,"Howard":7674,"ordan":7675,"final":7676,"Watch":7677,"Smart":7678,"presen":7679,"LAND":7680,"Metropo":7681,"Education":7682,"essional":7683,"Federation":7684,"Giovanni":7685,"contributor":7686,"569":7687,"631":7688,"788":7689,"827":7690,"845":7691,"852":7692,"A330":7693,"B7":7694,"Bol":7695,"Bak":7696,"Bour":7697,"BMP":7698,"Dau":7699,"Ess":7700,"Evan":7701,"G6":7702,"GIR":7703,"IQ":7704,"Lane":7705,"Lyn":7706,"Nokia":7707,"RER":7708,"TTC":7709,"Xi":7710,"YS":7711,"af":7712,"bber":7713,"cour":7714,"fal":7715,"ibn":7716,"nell":7717,"phan":7718,"pus":7719,"ular":7720,"water":7721,"your":7722,"Äĥ":7723,"ìĭ":7724,"ngi":7725,"quet":7726,"1227":7727,"1283":7728,"1291":7729,"piÄĽ":7730,"1539":7731,"1695":7732,"1682":7733,"1710":7734,"1481":7735,"1356":7736,"music":7737,"stamp":7738,"mea":7739,"rue":7740,"ãĥĻ":7741,"tau":7742,"tail":7743,"ãģµ":7744,"Cher":7745,"Regu":7746,"441":7747,"677":7748,"aun":7749,"iga":7750,"691":7751,"991":7752,"Style":7753,"edom":7754,"March":7755,"797":7756,"897":7757,"Sep":7758,"ACG":7759,"APS":7760,"bye":7761,"song":7762,"1405":7763,"SMO":7764,"denti":7765,"END":7766,"1707":7767,"Nike":7768,"lers":7769,"1124":7770,"Kiwi":7771,"Extra":7772,"path":7773,"MIR":7774,"Guy":7775,"chaft":7776,"à¤°":7777,"EXO":7778,"Berg":7779,"Morgan":7780,"Valen":7781,"HSCR":7782,"Associa":7783,"what":7784,"Virtual":7785,"DKZ":7786,"Double":7787,"Songs":7788,"Russell":7789,"Premium":7790,"WireGuard":7791,"counter":7792,"Number":7793,"Discovery":7794,"Nicholas":7795,"020":7796,"2K":7797,"3166":7798,"523":7799,"842":7800,"841":7801,"977":7802,"AY":7803,"A320":7804,"Cow":7805,"Cau":7806,"Call":7807,"D4":7808,"EB":7809,"Gru":7810,"Got":7811,"GRE":7812,"Ini":7813,"Jin":7814,"JDG":7815,"Kun":7816,"Nat":7817,"O305":7818,"P10":7819,"RMS":7820,"TEP":7821,"VHS":7822,"WC":7823,"Wright":7824,"W3C":7825,"XM":7826,"Zn":7827,"aes":7828,"cou":7829,"dri":7830,"ela":7831,"fl":7832,"fle":7833,"ls":7834,"m2":7835,"ody":7836,"pol":7837,"pay":7838,"Âµ":7839,"Ã°":7840,"Ã»":7841,"Ðĵ":7842,"jito":7843,"sho":7844,"lid":7845,"1066":7846,"1241":7847,"1295":7848,"nium":7849,"1130":7850,"later":7851,"1433":7852,"1449":7853,"1376":7854,"stad":7855,"third":7856,"mem":7857,"meo":7858,"simo":7859,"1001":7860,"tax":7861,"ãģ°":7862,"ãģĶ":7863,"ãĤ»":7864,"462":7865,"Chin":7866,"Change":7867,"Challe":7868,"Maj":7869,"India":7870,"vic":7871,"vid":7872,"696":7873,"SAE":7874,"786":7875,"563":7876,"mothy":7877,"owski":7878,"Neil":7879,"Array":7880,"Wei":7881,"PCS":7882,"feat":7883,"1703":7884,"ECE":7885,"Hope":7886,"gov":7887,"Pictures":7888,"arius":7889,"CHO":7890,"Andy":7891,"ADA":7892,"lines":7893,"Government":7894,"Hub":7895,"Cl2":7896,"timestamp":7897,"Blood":7898,"typedef":7899,"ential":7900,"FreeBSD":7901,"Taipei":7902,"Single":7903,"Esmeral":7904,"Talking":7905,"between":7906,"Stadiums":7907,"Advanced":7908,"Memorial":7909,"Anthony":7910,"Jacob":7911,"Esmeralda":7912,"4D":7913,"749":7914,"766":7915,"799":7916,"838":7917,"844":7918,"843":7919,"854":7920,"968":7921,"Apo":7922,"B6":7923,"BW":7924,"Colo":7925,"Candy":7926,"Ep":7927,"FB":7928,"Fr":7929,"Fit":7930,"Faker":7931,"G3":7932,"Hig":7933,"IZ":7934,"Isa":7935,"Iron":7936,"Kam":7937,"Kiss":7938,"Loo":7939,"Mn":7940,"Non":7941,"OBE":7942,"Pl":7943,"Rd":7944,"RIA":7945,"Sat":7946,"Score":7947,"Tr":7948,"Tas":7949,"Tit":7950,"TREAS":7951,"Vinc":7952,"WB":7953,"Woo":7954,"ata":7955,"edu":7956,"emp":7957,"far":7958,"fil":7959,"gger":7960,"series":7961,"¸©":7962,"ÅĦ":7963,"ìĤ":7964,"zhÇİ":7965,"sult":7966,"dical":7967,"1290":7968,"1265":7969,"1262":7970,"1286":7971,"pit":7972,"1729":7973,"1742":7974,"1438":7975,"1459":7976,"ret":7977,"ï¼ĳ":7978,"sir":7979,"ãĤ§":7980,"ãĤħ":7981,"height":7982,"Cole":7983,"ReMi":7984,"663":7985,"Mee":7986,"Alber":7987,"ARS":7988,"Mojito":7989,"APEC":7990,"Diplo":7991,"Rick":7992,"Nature":7993,"Nik":7994,"DoReMi":7995,"ROR":7996,"march":7997,"Order":7998,"service":7999,"Fund":8000,"Country":8001,"âĹı":8002,"BLACK":8003,"Ship":8004,"friDay":8005,"Ville":8006,"Swing":8007,"Lisa":8008,"Johann":8009,"Hunter":8010,"double":8011,"true":8012,"Australian":8013,"ðª¸©":8014,"protein":8015,"SNCF":8016,"Jacques":8017,"B9TL":8018,"seudo":8019,"TREASURE":8020,"1190":8021,"718":8022,"733":8023,"837":8024,"879":8025,"928":8026,"922":8027,"948":8028,"966":8029,"A9":8030,"AZ":8031,"B5":8032,"Blen":8033,"C7":8034,"CBD":8035,"FOR":8036,"His":8037,"Jordan":8038,"KL":8039,"Kaka":8040,"LSA":8041,"Ny":8042,"Ness":8043,"NRA":8044,"OC":8045,"Ou":8046,"Oce":8047,"OBC":8048,"Pil":8049,"PET":8050,"Psy":8051,"PDP":8052,"RED":8053,"S22":8054,"Sant":8055,"Tin":8056,"Ul":8057,"UHF":8058,"cÄĵng":8059,"fx":8060,"got":8061,"girl":8062,"nam":8063,"wal":8064,"âŁ":8065,"ìł":8066,"lips":8067,"title":8068,"zie":8069,"1040":8070,"1240":8071,"1270":8072,"1599":8073,"1717":8074,"1447":8075,"1369":8076,"1373":8077,"muse":8078,"mund":8079,"stand":8080,"station":8081,"sity":8082,"ãĥļ":8083,"amber":8084,"senger":8085,"tang":8086,"ãĤ¶":8087,"753":8088,"Map":8089,"Malay":8090,"look":8091,"Revolution":8092,"882":8093,"Living":8094,"983":8095,"Level":8096,"BAS":8097,"BANG":8098,"valu":8099,"conne":8100,"date":8101,"aceae":8102,"fire":8103,"---":8104,"oko":8105,"MAG":8106,"pointer":8107,"Helen":8108,"1403":8109,"Conference":8110,"ASP":8111,"MPEG":8112,"1121":8113,"lins":8114,"gence":8115,"IFPI":8116,"Price":8117,"exe":8118,"YOUNG":8119,"PEG":8120,"Craig":8121,"Farms":8122,"ICOCA":8123,"green":8124,"DAMP":8125,"Ventures":8126,"asonic":8127,"dependent":8128,"Lewis":8129,"1x":8130,"1198":8131,"4x":8132,"746":8133,"819":8134,"814":8135,"813":8136,"824":8137,"851":8138,"964":8139,"Cel":8140,"CERT":8141,"Eid":8142,"Emer":8143,"Gay":8144,"Hur":8145,"Kis":8146,"Khan":8147,"Kap":8148,"Kara":8149,"Las":8150,"Llo":8151,"Mun":8152,"Mbit":8153,"Ped":8154,"Ran":8155,"Ral":8156,"Swi":8157,"Tes":8158,"Us":8159,"VL":8160,"ave":8161,"ech":8162,"ear":8163,"fly":8164,"gÇİ":8165,"gor":8166,"gge":8167,"gil":8168,"ik":8169,"ides":8170,"pot":8171,"sar":8172,"wai":8173,"ware":8174,"áŀ":8175,"ê¸":8176,"ìŀ":8177,"dec":8178,"chang":8179,"1219":8180,"1254":8181,"oria":8182,"anus":8183,"1676":8184,"lah":8185,"lace":8186,"1714":8187,"1429":8188,"1434":8189,"1444":8190,"1462":8191,"1451":8192,"1483":8193,"1364":8194,"sten":8195,"rio":8196,"ï¼¡":8197,"tek":8198,"cut":8199,"sequ":8200,"comm":8201,"Mak":8202,"Inf":8203,"losing":8204,"SEN":8205,"IIc":8206,"Cooper":8207,"cir":8208,"593":8209,"996":8210,"883":8211,"Lite":8212,"Deli":8213,"CDR":8214,"774":8215,"apore":8216,"892":8217,"895":8218,"peria":8219,"ISIL":8220,"colo":8221,"1407":8222,"Spy":8223,"commu":8224,"Wise":8225,"Gem":8226,"à¸Ń":8227,"provi":8228,"Form":8229,"HiME":8230,"Franz":8231,"refer":8232,"Display":8233,"anese":8234,"single":8235,"example":8236,"nics":8237,"ãĦ§":8238,"ãĦĽ":8239,"DD53":8240,"structure":8241,"Spirit":8242,"Karen":8243,"ministra":8244,"Captain":8245,"PHP":8246,"Object":8247,"mapframe":8248,"Getchu":8249,"Gordon":8250,"integer":8251,"NEXT":8252,"Abdul":8253,"Azure":8254,"VOCALO":8255,"Pacific":8256,"3rd":8257,"862":8258,"Az":8259,"Ass":8260,"E5":8261,"Jar":8262,"JAK":8263,"K10":8264,"Kai":8265,"N64":8266,"Our":8267,"Pow":8268,"RD":8269,"SOS":8270,"Sophi":8271,"T7":8272,"Tal":8273,"Twi":8274,"VG":8275,"Wu":8276,"cco":8277,"dÇĶn":8278,"gro":8279,"ile":8280,"osu":8281,"dei":8282,"human":8283,"1086":8284,"miR":8285,"1225":8286,"1224":8287,"1258":8288,"orus":8289,"1686":8290,"lae":8291,"1486":8292,"1497":8293,"1310":8294,"1329":8295,"1391":8296,"ï¼Ĵ":8297,"tage":8298,"theory":8299,"andro":8300,"hed":8301,"Indian":8302,"Republic":8303,"nap":8304,"cip":8305,"people":8306,"ATH":8307,"693":8308,"Death":8309,"Mart":8310,"987":8311,"Leg":8312,"BAC":8313,"hicle":8314,"ARA":8315,"control":8316,"896":8317,"Nexus":8318,"Sean":8319,"Gaming":8320,"Rab":8321,"1108":8322,"1404":8323,"comment":8324,"Nova":8325,"âĪŀ":8326,"mys":8327,"Experi":8328,"AVC":8329,"Formation":8330,"Fea":8331,"rono":8332,"DCT":8333,"Dual":8334,"Mono":8335,"NOME":8336,"Prix":8337,"Matt":8338,"SDK":8339,"clear":8340,"villa":8341,"Cele":8342,"Plat":8343,"Virgi":8344,"âī¥":8345,"Urban":8346,"Francisco":8347,"Lisp":8348,"Victoria":8349,"Photo":8350,"Professional":8351,"Castle":8352,"Scala":8353,"Nerf":8354,"LIFE":8355,"French":8356,"VOCALOID":8357,"040":8358,"080":8359,"2S":8360,"6A":8361,"723":8362,"8500":8363,"858":8364,"859":8365,"914":8366,"934":8367,"944":8368,"969":8369,"953":8370,"Ade":8371,"Bli":8372,"BGM":8373,"Crown":8374,"EMD":8375,"FRAM":8376,"GNOME":8377,"HIG":8378,"Kre":8379,"Kas":8380,"N4":8381,"OG":8382,"OZ":8383,"PST":8384,"PAL":8385,"RR":8386,"Rit":8387,"RGB":8388,"Slo":8389,"Scor":8390,"Tau":8391,"Tot":8392,"Xperia":8393,"Yellow":8394,"ZICO":8395,"ais":8396,"bol":8397,"fur":8398,"hand":8399,"jk":8400,"pter":8401,"sv":8402,"uint":8403,"Ã¯":8404,"ÅĽ":8405,"Ëĭ":8406,"á¼":8407,"times":8408,"dica":8409,"ency":8410,"003":8411,"1236":8412,"1278":8413,"1263":8414,"1140":8415,"error":8416,"âĢĮ":8417,"1716":8418,"1442":8419,"1478":8420,"1360":8421,"1365":8422,"1333":8423,"1341":8424,"sted":8425,"stream":8426,"semi":8427,"tab":8428,"els":8429,"cole":8430,"como":8431,"Math":8432,"STEM":8433,"local":8434,"Theod":8435,"adow":8436,"version":8437,"ATM":8438,"opera":8439,"782":8440,"Roth":8441,"772":8442,"779":8443,"Leo":8444,"891":8445,"Sex":8446,"1208":8447,"ISIS":8448,"Racing":8449,"Shell":8450,"Social":8451,"Body":8452,"à¸ŀ":8453,"Have":8454,"AIL":8455,"Carter":8456,"Kiii":8457,"Quin":8458,"Andrea":8459,"SO3":8460,"BORN":8461,"TEEN":8462,"Add":8463,"cans":8464,"Pear":8465,"Bili":8466,"Presi":8467,"PPP":8468,"mbH":8469,"Blair":8470,"Days":8471,"Hybrid":8472,"OKA":8473,"BIOS":8474,"Atlan":8475,"Terry":8476,"Ernst":8477,"LGBTQ":8478,"varia":8479,"Partners":8480,"Forest":8481,"Alfred":8482,"Frollo":8483,"doubles":8484,"WISE":8485,"sistant":8486,"Billy":8487,"Retrie":8488,"Century":8489,"Fantasy":8490,"1a":8491,"1194":8492,"834":8493,"849":8494,"941":8495,"Ae":8496,"Bap":8497,"Bye":8498,"BWF":8499,"BOSS":8500,"CAT":8501,"DAI":8502,"Ec":8503,"Fon":8504,"FRE":8505,"FIA":8506,"GU":8507,"JJ":8508,"Look":8509,"Pb":8510,"Plu":8511,"Pun":8512,"Ras":8513,"Tap":8514,"Tak":8515,"Tensor":8516,"Uta":8517,"Wang":8518,"WAN":8519,"aa":8520,"ash":8521,"adi":8522,"bell":8523,"ctu":8524,"gri":8525,"gne":8526,"ging":8527,"how":8528,"kir":8529,"nn":8530,"osi":8531,"omp":8532,"pass":8533,"vant":8534,"wing":8535,"×ķ":8536,"Ø©":8537,"à¼":8538,"ëĭ":8539,"ìĺ":8540,"zhÅ«n":8541,"dez":8542,"1030":8543,"1099":8544,"1221":8545,"1272":8546,"1533":8547,"1698":8548,"1671":8549,"1413":8550,"1443":8551,"1358":8552,"1396":8553,"ines":8554,"recor":8555,"etti":8556,"atory":8557,"load":8558,"Come":8559,"Cool":8560,"998":8561,"789":8562,"CDK":8563,"773":8564,"1206":8565,"Arch":8566,"figu":8567,"Rai":8568,"Razer":8569,"Suite":8570,"ources":8571,"chester":8572,"sole":8573,"ships":8574,"EPHE":8575,"HKIFF":8576,"MPI":8577,"proper":8578,"Schi":8579,"inae":8580,"dyna":8581,"lard":8582,"Kota":8583,"sys":8584,"Commission":8585,"SCI":8586,"Full":8587,"Charlie":8588,"UTF":8589,"Minute":8590,"Singapore":8591,"litary":8592,"Bobby":8593,"ðĲ°":8594,"drop":8595,"âī¤":8596,"operator":8597,"Stanley":8598,"Sorana":8599,"event":8600,"íķľ":8601,"Dynamics":8602,"AMOLED":8603,"Quick":8604,"Application":8605,"UNESCO":8606,"OBCs":8607,"1189":8608,"818":8609,"848":8610,"869":8611,"899":8612,"916":8613,"917":8614,"949":8615,"Adi":8616,"Bis":8617,"Cs":8618,"Cream":8619,"D7":8620,"Dcard":8621,"GSM":8622,"GmbH":8623,"Hou":8624,"Ivan":8625,"Lol":8626,"M24":8627,"Mine":8628,"NEC":8629,"Ore":8630,"RM":8631,"RID":8632,"Swan":8633,"Screen":8634,"TER":8635,"VAL":8636,"Wall":8637,"X2":8638,"acid":8639,"bad":8640,"care":8641,"ctus":8642,"dol":8643,"gau":8644,"jour":8645,"kt":8646,"kle":8647,"lk":8648,"oke":8649,"Â¥":8650,"ÅŁ":8651,"ÛĮ":8652,"à¨":8653,"ê¹":8654,"ëĤ":8655,"ëŀ":8656,"ì§":8657,"chÄģn":8658,"length":8659,"tino":8660,"1060":8661,"1211":8662,"1234":8663,"1246":8664,"1110":8665,"1147":8666,"orum":8667,"erra":8668,"1548":8669,"lao":8670,"laus":8671,"1458":8672,"inus":8673,"ries":8674,"tem":8675,"ãĤ¡":8676,"Chen":8677,"Chat":8678,"Choi":8679,"500rpm":8680,"SEM":8681,"Review":8682,"Reich":8683,"cipal":8684,"887":8685,"Stray":8686,"ido":8687,"1503":8688,"793":8689,"hibi":8690,"many":8691,"BSI":8692,"Movie":8693,"Arn":8694,"finity":8695,"ED79":8696,"----":8697,"Dale":8698,"ICS":8699,"Lab":8700,"IDS":8701,"Sui":8702,"Logic":8703,"bug":8704,"ITZ":8705,"Sili":8706,"à¸´":8707,"Julia":8708,"ROCK":8709,"1123":8710,"myTV":8711,"Lud":8712,"Lucas":8713,"Excel":8714,"Quar":8715,"lence":8716,"Andr":8717,"MOON":8718,"CR300":8719,"BDSM":8720,"large":8721,"Keith":8722,"PPTP":8723,"burn":8724,"1192":8725,"Boom":8726,"Panasonic":8727,"Calli":8728,"Fern":8729,"Mrs":8730,"NEWS":8731,"Hills":8732,"Empi":8733,"Clear":8734,"ologies":8735,"shington":8736,"Machine":8737,"Amiga":8738,"sorted":8739,"haus":8740,"Culture":8741,"Quake":8742,"ospace":8743,"ð¬ĵĭ":8744,"ãİ¡":8745,"formance":8746,"Retrieved":8747,"012":8748,"868":8749,"974":8750,"Aff":8751,"Astra":8752,"BV":8753,"Bb":8754,"Bam":8755,"Blan":8756,"Baker":8757,"C96":8758,"Dass":8759,"E9":8760,"Fay":8761,"G4":8762,"G9":8763,"KF":8764,"Kry":8765,"KEN":8766,"Lay":8767,"LMP":8768,"PER":8769,"RG":8770,"VEn":8771,"VIE":8772,"Yang":8773,"ZE":8774,"Zone":8775,"dn":8776,"eV":8777,"fs":8778,"four":8779,"gang":8780,"gers":8781,"jn":8782,"lÇĴu":8783,"lÅ«n":8784,"rt":8785,"squ":8786,"ua":8787,"âĴ":8788,"ngo":8789,"dem":8790,"xin":8791,"lei":8792,"zhuÄģi":8793,"1027":8794,"1070":8795,"1049":8796,"mento":8797,"mili":8798,"006":8799,"1232":8800,"nian":8801,"ants":8802,"1674":8803,"lamb":8804,"arn":8805,"1448":8806,"1439":8807,"1467":8808,"1345":8809,"1386":8810,"1392":8811,"1393":8812,"reg":8813,"ï¼ľ":8814,"tember":8815,"sii":8816,"rang":8817,"ãģļ":8818,"ats":8819,"cover":8820,"thema":8821,"tom":8822,"654":8823,"Chie":8824,"Magic":8825,"Reg":8826,"nah":8827,"994":8828,"String":8829,"Lie":8830,"LiTV":8831,"Devil":8832,"angle":8833,"Leop":8834,"Lega":8835,"Vilade":8836,"AMR":8837,"vage":8838,"Army":8839,"ISH":8840,"ISM":8841,"file":8842,"Labor":8843,"Raja":8844,"Sue":8845,"Supp":8846,"akh":8847,"IPA":8848,"IPO":8849,"kien":8850,"PS4":8851,"à¸ª":8852,"ALA":8853,"MP3":8854,"USH":8855,"orton":8856,"Three":8857,"Exchange":8858,"wee":8859,"MIL":8860,"TEE":8861,"BMG":8862,"DR2700":8863,"10646":8864,"marker":8865,"Harold":8866,"Washington":8867,"TSB":8868,"Morris":8869,"Holland":8870,"LCK":8871,"born":8872,"UCI":8873,"Patri":8874,"ports":8875,"LPDDR":8876,"LTTE":8877,"LSST":8878,"Turbo":8879,"Grant":8880,"reads":8881,"schema":8882,"street":8883,"Scheme":8884,"Village":8885,"ELEVEn":8886,"Infocom":8887,"article":8888,"GDDR5":8889,"F7F":8890,"NONO":8891,"Strv":8892,"Silicon":8893,"Viladecans":8894,"4200":8895,"963":8896,"ATC":8897,"Avi":8898,"Brow":8899,"CAM":8900,"Cell":8901,"Cana":8902,"CBE":8903,"H6":8904,"H9":8905,"Hus":8906,"JK":8907,"JIS":8908,"KV":8909,"Klein":8910,"Ling":8911,"M60":8912,"Ng":8913,"NTT":8914,"ORI":8915,"Own":8916,"P5":8917,"R9":8918,"VY":8919,"VCR":8920,"Wen":8921,"ating":8922,"cles":8923,"cator":8924,"dar":8925,"foot":8926,"obov":8927,"pap":8928,"ula":8929,"vre":8930,"xml":8931,"zone":8932,"zoom":8933,"ëĿ":8934,"jin":8935,"quar":8936,"1012":8937,"1017":8938,"1063":8939,"1214":8940,"1229":8941,"1268":8942,"1242":8943,"1253":8944,"1271":8945,"nier":8946,"1160":8947,"1135":8948,"1677":8949,"1691":8950,"ares":8951,"1419":8952,"1324":8953,"stel":8954,"store":8955,"thod":8956,"root":8957,"rap":8958,"ãĥ´":8959,"ãĥĴ":8960,"cepha":8961,"tale":8962,"male":8963,"make":8964,"cogni":8965,"both":8966,"3900":8967,"Mala":8968,"Major":8969,"SET":8970,"pex":8971,"oso":8972,"Margar":8973,"deral":8974,"Jois":8975,"rance":8976,"871":8977,"872":8978,"spon":8979,"EDA":8980,"Beach":8981,"ANSI":8982,"home":8983,"ITU":8984,"1307":8985,"1409":8986,"Natural":8987,"therine":8988,"à¸ģ":8989,"Doctor":8990,"Ther":8991,"Nov":8992,"arian":8993,"Quali":8994,"Andre":8995,"MOMO":8996,"pul":8997,"Feed":8998,"Kate":8999,"DR2800":9000,"CEMS":9001,"Graphi":9002,"Norman":9003,"nism":9004,"Canada":9005,"Singh":9006,"litan":9007,"DirectShow":9008,"Scot":9009,"fying":9010,"Obser":9011,"Raymond":9012,"Certi":9013,"Break":9014,"Medical":9015,"Oliver":9016,"JUMP":9017,"Bernard":9018,"ganization":9019,"Radar":9020,"Safari":9021,"Hospital":9022,"Tiger":9023,"ë¦¬":9024,"Olympic":9025,"following":9026,"Vincent":9027,"HIGH":9028,"à¼ĭ":9029,"2n":9030,"734":9031,"9K":9032,"943":9033,"952":9034,"A7":9035,"Af":9036,"Aar":9037,"Age":9038,"Ast":9039,"Apri":9040,"A380":9041,"Bf":9042,"C9":9043,"D6":9044,"EI":9045,"Flip":9046,"Ground":9047,"JS":9048,"JY":9049,"Jun":9050,"KM":9051,"Kal":9052,"M9":9053,"Ms":9054,"M10":9055,"Mall":9056,"NFC":9057,"Ox":9058,"Otto":9059,"SBL":9060,"Ut":9061,"Vla":9062,"XI":9063,"YE":9064,"Yes":9065,"ame":9066,"ava":9067,"aster":9068,"able":9069,"bg":9070,"dos":9071,"fai":9072,"fron":9073,"hman":9074,"here":9075,"ining":9076,"jp":9077,"oid":9078,"plex":9079,"rint":9080,"solo":9081,"x2":9082,"Åł":9083,"ÎĽ":9084,"êµ":9085,"ë¹":9086,"Ĭ¸":9087,"chs":9088,"dule":9089,"bil":9090,"supp":9091,"kun":9092,"1059":9093,"1056":9094,"1054":9095,"005":9096,"1259":9097,"1252":9098,"1282":9099,"piÇİo":9100,"arning":9101,"1415":9102,"1426":9103,"1476":9104,"1349":9105,"1363":9106,"1397":9107,"sik":9108,"sec":9109,"offi":9110,"ett":9111,"cki":9112,"ckers":9113,"nei":9114,"neo":9115,"Mail":9116,"Macro":9117,"Indie":9118,"bear":9119,"bang":9120,"694":9121,"Dem":9122,"Marcus":9123,"ï½£":9124,"AMA":9125,"AMG":9126,"Teach":9127,"Temple":9128,"gation":9129,"spor":9130,"Gabri":9131,"ICT":9132,"ations":9133,"ANN":9134,"Muni":9135,"1308":9136,"Cathe":9137,"Five":9138,"sage":9139,"Intermarch":9140,"Dog":9141,"Thorn":9142,"CNJ":9143,"Example":9144,"Quan":9145,"Quad":9146,"Table":9147,"MIX":9148,"Gusta":9149,"cyclo":9150,"Kath":9151,"vely":9152,"Harris":9153,"240ZJ":9154,"Give":9155,"EEZ":9156,"SHIP":9157,"Genie":9158,"acti":9159,"ffici":9160,"Speed":9161,"Shang":9162,"complex":9163,"Kingdom":9164,"Friends":9165,"stock":9166,"strong":9167,"IOC":9168,"á¹£":9169,"plot":9170,"Scrum":9171,"Schema":9172,"livedoor":9173,"Heaven":9174,"TGV":9175,"Tolkien":9176,"Fisher":9177,"ebly":9178,"Kenneth":9179,"mouth":9180,"Roberts":9181,"relative":9182,"Chromium":9183,"Eidos":9184,"Virginia":9185,"Legacy":9186,"1195":9187,"898":9188,"Aero":9189,"Bart":9190,"Cin":9191,"CAD":9192,"CBN":9193,"Dir":9194,"Hell":9195,"JD":9196,"KTV":9197,"KSK":9198,"M12":9199,"MET":9200,"Nf":9201,"Om":9202,"Roo":9203,"Rau":9204,"Rant":9205,"Room":9206,"Rhyth":9207,"UG":9208,"UH":9209,"U15":9210,"Vu":9211,"Vas":9212,"Wai":9213,"WDF":9214,"bara":9215,"foo":9216,"fus":9217,"g4":9218,"git":9219,"hara":9220,"ita":9221,"pad":9222,"sc":9223,"sat":9224,"ÂŃ":9225,"ðł":9226,"dell":9227,"child":9228,"lica":9229,"bino":9230,"tius":9231,"tiger":9232,"zio":9233,"1019":9234,"1011":9235,"1015":9236,"1016":9237,"1032":9238,"1047":9239,"008":9240,"1212":9241,"1297":9242,"niÄģn":9243,"pine":9244,"1412":9245,"1314":9246,"1313":9247,"1394":9248,"gee":9249,"start":9250,"rett":9251,"meta":9252,"methy":9253,"cure":9254,"1006":9255,"ãģ³":9256,"ãģ»":9257,"ãĤĢ":9258,"atten":9259,"4600":9260,"STD":9261,"Cover":9262,"cian":9263,"Rocket":9264,"Marc":9265,"9800":9266,"Victory":9267,"manu":9268,"Temp":9269,"Dai":9270,"Soda":9271,"Anni":9272,"Anton":9273,"Weebly":9274,"area":9275,"Bul":9276,"Today":9277,"à¸Ķ":9278,"Nice":9279,"Hoy":9280,"Domini":9281,"1127":9282,"AKE":9283,"proto":9284,"Lucky":9285,"Lumia":9286,"Fate":9287,"Forth":9288,"SO2":9289,"TE1":9290,"TEAM":9291,"lands":9292,"Monte":9293,"NO2":9294,"market":9295,"years":9296,"GameCube":9297,"ILD":9298,"280ZJ":9299,"Bracket":9300,"Cyber":9301,"AFI":9302,"1191":9303,"yoga":9304,"lipse":9305,"Produce":9306,"Plaza":9307,"Porta":9308,"Television":9309,"Crazy":9310,"Farm":9311,"Frede":9312,"Danny":9313,"à¹Ģ":9314,"Histori":9315,"VVVF":9316,"Ryona":9317,"modore":9318,"Flying":9319,"Orange":9320,"Sarah":9321,"16V280ZJ":9322,"float":9323,"Strong":9324,"latitude":9325,"Heinrich":9326,"IMDb":9327,"ê°Ģ":9328,"known":9329,"longitude":9330,"TTCN":9331,"Blender":9332,"Margaret":9333,"+.":9334,"7100":9335,"822":9336,"836":9337,"861":9338,"924":9339,"923":9340,"AIC":9341,"Agency":9342,"B4":9343,"B8":9344,"Evolution":9345,"FPS":9346,"Glen":9347,"HH":9348,"Hoo":9349,"Jere":9350,"Krist":9351,"KING":9352,"LW":9353,"M1895":9354,"Pak":9355,"Pris":9356,"PART":9357,"Seni":9358,"Vul":9359,"Wes":9360,"X1":9361,"XS":9362,"ZFC":9363,"ase":9364,"aign":9365,"bson":9366,"brea":9367,"call":9368,"cchi":9369,"ees":9370,"found":9371,"gr":9372,"hof":9373,"jap":9374,"kV":9375,"lÃ²ng":9376,"t2":9377,"wig":9378,"wang":9379,"x3":9380,"Ïį":9381,"Ð£":9382,"à§":9383,"à¯":9384,"ð£":9385,"design":9386,"delta":9387,"during":9388,"2031":9389,"bir":9390,"lute":9391,"zin":9392,"zip":9393,"enberg":9394,"1018":9395,"1035":9396,"1072":9397,"mentation":9398,"1244":9399,"1299":9400,"1170":9401,"1139":9402,"pio":9403,"ery":9404,"aris":9405,"1421":9406,"1455":9407,"1461":9408,"1485":9409,"13000":9410,"1355":9411,"1343":9412,"1387":9413,"1372":9414,"alpha":9415,"rel":9416,"rung":9417,"rid":9418,"rock":9419,"sica":9420,"rate":9421,"else":9422,"ãģĿ":9423,"hea":9424,"asons":9425,"Chamber":9426,"STs":9427,"logy":9428,"bei":9429,"SEP":9430,"They":9431,"4400":9432,"4217":9433,"eds":9434,"hang":9435,"mote":9436,"AME":9437,"Prote":9438,"Proper":9439,"ACP":9440,"Dawn":9441,"ICAO":9442,"ICHI":9443,"alism":9444,"colle":9445,"allow":9446,"Sim":9447,"1304":9448,"PSY":9449,"1408":9450,"Wide":9451,"ETS":9452,"ENU":9453,"Juli":9454,"Dong":9455,"government":9456,"1125":9457,"Forum":9458,"Taste":9459,"Kaiser":9460,"Adrian":9461,"wave":9462,"Commodore":9463,"Duke":9464,"Stuart":9465,"à¤®":9466,"EXIT":9467,"micron":9468,"Only":9469,"MDT":9470,"minor":9471,"URN":9472,"Asse":9473,"Alive":9474,"compon":9475,"Friend":9476,"nowledge":9477,"EMU":9478,"Director":9479,"GMM":9480,"Calvin":9481,"Claude":9482,"when":9483,"Freedom":9484,"finals":9485,"Rapper":9486,"PIECE":9487,"Pascal":9488,"Sciences":9489,"Horse":9490,"Technologies":9491,"Haml":9492,"object":9493,"Dolby":9494,"Illu":9495,"styles":9496,"Kirk":9497,"UCLASS":9498,"GROUP":9499,"Austin":9500,"Aerospace":9501,"Protocol":9502,"FashionTV":9503,"BIGBANG":9504,"Storm":9505,"Dropbox":9506,"Diamond":9507,"September":9508,"Kakao":9509,"Ralph":9510,"Bilibili":9511,"ëĿ¼":9512,"090":9513,"067":9514,"11000":9515,"9F":9516,"Agu":9517,"Aur":9518,"AFC":9519,"Bes":9520,"Cm":9521,"Est":9522,"Fur":9523,"Fine":9524,"Fellow":9525,"GTE":9526,"Ghost":9527,"HSD":9528,"Joo":9529,"K3":9530,"Kol":9531,"Kang":9532,"Kali":9533,"Kris":9534,"KAD":9535,"KDE":9536,"LI":9537,"Lid":9538,"MST":9539,"NTSB":9540,"OE":9541,"P1":9542,"Pel":9543,"PBS":9544,"PIE":9545,"RET":9546,"Smal":9547,"Ton":9548,"TARD":9549,"Vor":9550,"Vali":9551,"WRC":9552,"Wings":9553,"Wanna":9554,"YES":9555,"bru":9556,"c4":9557,"clu":9558,"eh":9559,"eli":9560,"each":9561,"every":9562,"effe":9563,"gly":9564,"gori":9565,"hill":9566,"js":9567,"jar":9568,"jay":9569,"nas":9570,"pti":9571,"pak":9572,"xys":9573,"zel":9574,"Åļ":9575,"Ëĩ":9576,"ÎŃ":9577,"ÙĤ":9578,"â¼":9579,"ðĴ":9580,"sher":9581,"chro":9582,"2040":9583,"2047":9584,"sun":9585,"tif":9586,"tii":9587,"dier":9588,"lun":9589,"lung":9590,"1046":9591,"1218":9592,"1215":9593,"1247":9594,"1243":9595,"1256":9596,"nit":9597,"1138":9598,"1137":9599,"1168":9600,"ordina":9601,"1693":9602,"1414":9603,"1427":9604,"1432":9605,"1491":9606,"zuo":9607,"1378":9608,"1351":9609,"fornia":9610,"stris":9611,"recei":9612,"2758":9613,"ï¼ķ":9614,"roy":9615,"ãĥĺ":9616,"1002":9617,"atta":9618,"cke":9619,"nez":9620,"Magi":9621,"Instru":9622,"SEC":9623,"Cosplay":9624,"peti":9625,"auri":9626,"592":9627,"opo":9628,"SAS":9629,"ards":9630,"Roma":9631,"Robo":9632,"Miami":9633,"Marco":9634,"Marine":9635,"ï½¢":9636,"984":9637,"Youth":9638,"mode":9639,"move":9640,"1207":9641,"Ark":9642,"Sul":9643,"Savage":9644,"Tuber":9645,"Local":9646,"bution":9647,"IPCC":9648,"Ansible":9649,"Boi":9650,"wide":9651,"wich":9652,"1106":9653,"1309":9654,"Spen":9655,"Navi":9656,"sions":9657,"1706":9658,"à¸§":9659,"à¸µ":9660,"ALX":9661,"âĨĲ":9662,"gina":9663,"Caro":9664,"Thor":9665,"1129":9666,"Exe":9667,"Exten":9668,"SO4":9669,"BOT":9670,"Feel":9671,"1185":9672,"IFT":9673,"à¤¿":9674,"NOW":9675,"Cortex":9676,"LLC":9677,"Precision":9678,"mbly":9679,"Northern":9680,"Superia":9681,"tric":9682,"Georg":9683,"Abra":9684,"Speci":9685,"Spiri":9686,"XXX":9687,"Japanese":9688,"ð«ļ":9689,"SUV":9690,"oire":9691,"Boyz":9692,"SNK":9693,"Zip":9694,"Masters":9695,"âĳł":9696,"Championships":9697,"Palmer":9698,"Yoshi":9699,"Niconico":9700,"Larry":9701,"Democra":9702,"Quasimo":9703,"Artists":9704,"Intelligent":9705,"tellite":9706,"Connect":9707,"ìļ°":9708,"Faith":9709,"Investment":9710,"MIRROR":9711,"ìĤ¬":9712,"OKAWA":9713,"bgcolor":9714,"Frederick":9715,"TARDIS":9716,"Quasimodo":9717,"013":9718,"065":9719,"1N":9720,"1202":9721,"4B":9722,"5100":9723,"5400":9724,"743":9725,"9600":9726,"A8":9727,"Abi":9728,"Amp":9729,"CSP":9730,"CUB":9731,"CIE":9732,"Dru":9733,"Dum":9734,"Exi":9735,"Even":9736,"Emily":9737,"Easy":9738,"Fol":9739,"Fis":9740,"Food":9741,"FIL":9742,"Gap":9743,"Gia":9744,"GHC":9745,"Hori":9746,"JM":9747,"KW":9748,"Kent":9749,"Mw":9750,"Mand":9751,"MPC":9752,"Nit":9753,"NIST":9754,"OLED":9755,"PW":9756,"PAS":9757,"PDA":9758,"Q3":9759,"Rid":9760,"T5":9761,"Wy":9762,"Xe":9763,"ade":9764,"bby":9765,"fera":9766,"gren":9767,"hop":9768,"horn":9769,"kas":9770,"og":9771,"pta":9772,"sr":9773,"tty":9774,"tja":9775,"wald":9776,"ÄĮ":9777,"Å¾":9778,"ËĬ":9779,"ìĸ":9780,"lich":9781,"lini":9782,"qiÄģ":9783,"lery":9784,"dise":9785,"tua":9786,"tun":9787,"1037":9788,"1067":9789,"009":9790,"1216":9791,"1226":9792,"1255":9793,"1155":9794,"1158":9795,"1142":9796,"1143":9797,"1154":9798,"pita":9799,"ornis":9800,"lari":9801,"1418":9802,"1494":9803,"1347":9804,"1367":9805,"1374":9806,"index":9807,"gether":9808,"force":9809,"ï¼Ĳ":9810,"rot":9811,"sier":9812,"amar":9813,"ãģĲ":9814,"etro":9815,"etra":9816,"ãĤ®":9817,"att":9818,"SEL":9819,"Reference":9820,"vere":9821,"ATENU":9822,"Moni":9823,"Search":9824,"Stadia":9825,"Belie":9826,"Sala":9827,"Shin":9828,"Unity":9829,"1107":9830,"Path":9831,"Pari":9832,"Riot":9833,"phone":9834,"Bull":9835,"Sprint":9836,"aracter":9837,"Naver":9838,"ETF":9839,"Nix":9840,"Pocket":9841,"Carol":9842,"Kick":9843,"UND":9844,"âĪ¶":9845,"tings":9846,"AVBW":9847,"ADHD":9848,"orium":9849,"DAY":9850,"OpenMP":9851,"Pul":9852,"Comman":9853,"Commercial":9854,"Biz":9855,"Complex":9856,"velo":9857,"Barry":9858,"Performance":9859,"jave":9860,"SCs":9861,"Vocal":9862,"Universe":9863,"Eugene":9864,"llah":9865,"Markdown":9866,"WTA1000":9867,"Brain":9868,"ï¹Ķ":9869,"YPE":9870,"Canon":9871,"STARSHIP":9872,"vsky":9873,"Lauren":9874,"special":9875,"NEW":9876,"school":9877,"Rosa":9878,"Mason":9879,"Belle":9880,"Crye":9881,"Studies":9882,"Dennis":9883,"Phoe":9884,"culture":9885,"TIME":9886,"ArcGIS":9887,"Synthe":9888,"LUNA":9889,"Paper":9890,"Podcast":9891,"16V240ZJ":9892,"Economic":9893,"Susan":9894,"yunnan":9895,"Isoxys":9896,"Congress":9897,"tuplet":9898,"CRH380":9899,"California":9900,"Challenge":9901,"film":9902,"Ocean":9903,"Empire":9904,"Cathed":9905,"KADOKAWA":9906,"023":9907,"062":9908,"1B":9909,"739":9910,"763":9911,"AIT":9912,"Eva":9913,"Gl":9914,"Hindu":9915,"Jor":9916,"K1":9917,"KCON":9918,"Knight":9919,"Nak":9920,"Pt":9921,"Ple":9922,"Pot":9923,"Row":9924,"Rho":9925,"Sad":9926,"SVO":9927,"VAR":9928,"VTuber":9929,"Wan":9930,"WTO":9931,"WRK":9932,"d8":9933,"pf":9934,"pel":9935,"pora":9936,"uu":9937,"v2":9938,"ËĲ":9939,"Ìģ":9940,"ØŃ":9941,"ê³":9942,"lium":9943,"leh":9944,"level":9945,"tik":9946,"quin":9947,"did":9948,"tung":9949,"lur":9950,"jun":9951,"10H":9952,"1014":9953,"1228":9954,"1285":9955,"1273":9956,"1119":9957,"1162":9958,"ert":9959,"1428":9960,"1445":9961,"1320":9962,"1312":9963,"1377":9964,"1352":9965,"1389":9966,"ints":9967,"information":9968,"regi":9969,"rocket":9970,"sim":9971,"race":9972,"ltalk":9973,"1008":9974,"tak":9975,"maxi":9976,"offee":9977,"etta":9978,"tern":9979,"tero":9980,"cked":9981,"INA":9982,"Maple":9983,"SEA":9984,"Ready":9985,"ATR":9986,"cty":9987,"optera":9988,"unsigned":9989,"Lili":9990,"Dee":9991,"776":9992,"Lec":9993,"filter":9994,"APT":9995,"Dash":9996,"Dame":9997,"pool":9998,"1102":9999,"1103":10000,"ITS":10001,"1401":10002,"Case":10003,"Spor":10004,"blem":10005,"ToHeart":10006,"Tommy":10007,"MSP":10008,"Nim":10009,"June":10010,"DSR":10011,"REAL":10012,"psy":10013,"Federal":10014,"Collins":10015,"Peak":10016,"OpenGL":10017,"Kee":10018,"Dura":10019,"à¤¤":10020,"rene":10021,"SPARC":10022,"Perry":10023,"GPT":10024,"ccer":10025,"Trade":10026,"Private":10027,"orage":10028,"WTA125":10029,"Showcase":10030,"About":10031,"Herbert":10032,"days":10033,"DEET":10034,"Shah":10035,"Leader":10036,"CGI":10037,"spaceflight":10038,"ð«Ł":10039,"belle":10040,"bilibili":10041,"Laura":10042,"Magnum":10043,"CF3":10044,"Generation":10045,"Emma":10046,"Islands":10047,"Foreign":10048,"close":10049,"Environ":10050,"Grove":10051,"INNER":10052,"JUST":10053,"Ronald":10054,"Alto":10055,"XC60":10056,"Shane":10057,"C5H5":10058,"Justice":10059,"MMORPG":10060,"BLEACH":10061,"Physic":10062,"Texas":10063,"Francesco":10064,"Bradley":10065,"allocator":10066,"archive":10067,"STEREO":10068,"Hughes":10069,"Korea":10070,"Documentary":10071,"Lloyd":10072,"hedron":10073,"svg":10074,"figuration":10075,"lambda":10076,"ORICON":10077,"Graphics":10078,"Senior":10079,"Smalltalk":10080,"CUBRID":10081,"ToHeart2":10082,"021":10083,"033":10084,"043":10085,"053":10086,"1b":10087,"4300":10088,"8X":10089,"A6":10090,"Aw":10091,"Amy":10092,"BG":10093,"Born":10094,"C8":10095,"C13":10096,"Cit":10097,"Cara":10098,"Dhar":10099,"Danger":10100,"DASH":10101,"Eat":10102,"FU":10103,"Figh":10104,"FAA":10105,"Ire":10106,"Kay":10107,"Kau":10108,"LET":10109,"MH":10110,"NER":10111,"OO":10112,"Ober":10113,"Owen":10114,"Peri":10115,"PAD":10116,"PTT":10117,"Ptr":10118,"QT":10119,"Qi":10120,"Rin":10121,"S6":10122,"S26":10123,"Scu":10124,"SDR":10125,"THC":10126,"TOSHI":10127,"Vit":10128,"Veri":10129,"VWF":10130,"WG":10131,"ack":10132,"bl":10133,"c2":10134,"fol":10135,"gamer":10136,"ix":10137,"ln":10138,"nen":10139,"oh":10140,"tton":10141,"Ð¶":10142,"Ø´":10143,"ë³":10144,"ëı":10145,"zhi":10146,"channel":10147,"lix":10148,"dun":10149,"lene":10150,"lena":10151,"tico":10152,"tique":10153,"kus":10154,"1076":10155,"1095":10156,"mind":10157,"miss":10158,"mistry":10159,"1248":10160,"1118":10161,"1131":10162,"1145":10163,"1178":10164,"lac":10165,"arti":10166,"aran":10167,"1423":10168,"1422":10169,"1479":10170,"1482":10171,"1327":10172,"1357":10173,"1398":10174,"1383":10175,"1381":10176,"fort":10177,"thes":10178,"regu":10179,"ï¼¢":10180,"teur":10181,"1003":10182,"math":10183,"ets":10184,"ils":10185,"coc":10186,"cock":10187,"ternal":10188,"heim":10189,"near":10190,"asso":10191,"Mack":10192,"Indi":10193,"best":10194,"Report":10195,"bran":10196,"veri":10197,"bac":10198,"bau":10199,"aud":10200,"SAAB":10201,"idal":10202,"Libre":10203,"Member":10204,"moni":10205,"AMMA":10206,"Mojave":10207,"continu":10208,"Josh":10209,"Joint":10210,"893":10211,"Gag":10212,"Bee":10213,"Beam":10214,"Shir":10215,"bul":10216,"Ant":10217,"Any":10218,"Analysis":10219,"aire":10220,"MVV":10221,"SSP":10222,"1101":10223,"1109":10224,"Rio":10225,"pher":10226,"Hei":10227,"Hey":10228,"Bubble":10229,"Cale":10230,"ASO":10231,"WiFi":10232,"endy":10233,"IVER":10234,"Tong":10235,"BLS":10236,"vention":10237,"Factor":10238,"weak":10239,"Rush":10240,"orio":10241,"Pure":10242,"à¤¨":10243,"à¤Ĥ":10244,"NO3":10245,"Perl":10246,"Perfect":10247,"Harrison":10248,"EEEE":10249,"Graph":10250,"hyn":10251,"ï¹ķ":10252,"Thom":10253,"Warri":10254,"Universit":10255,"737MAX":10256,"crew":10257,"Chuck":10258,"Christi":10259,"sheng":10260,"ï¸ģ":10261,"Smile":10262,"Finan":10263,"Agri":10264,"Elite":10265,"Turtle":10266,"Plane":10267,"Woman":10268,"CMOS":10269,"Reser":10270,"Melody":10271,"gregate":10272,"âīĪ":10273,"Desk":10274,"á¹Ń":10275,"FAT32":10276,"Opti":10277,"Medicine":10278,"Community":10279,"Standings":10280,"Blues":10281,"mination":10282,"CASH":10283,"COLLECTION":10284,"Middle":10285,"Cultural":10286,"Australia":10287,"Loren":10288,"Package":10289,"Visa":10290,"position":10291,"Esports":10292,"Integra":10293,"watch":10294,"GitHub":10295,"Evans":10296,"TEP70":10297,"Plant":10298,"Kotaku":10299,"availa":10300,"Shanghai":10301,"Execu":10302,"Cathedral":10303,"018":10304,"046":10305,"032":10306,"073":10307,"093":10308,"2O":10309,"2PM":10310,"2O3":10311,"5200":10312,"Aki":10313,"Bed":10314,"Bot":10315,"Clay":10316,"Cant":10317,"DIN":10318,"Das":10319,"E6":10320,"Ev":10321,"ESA":10322,"EH10":10323,"Fat":10324,"Fitz":10325,"G7":10326,"G10":10327,"G11":10328,"Io":10329,"Ide":10330,"IMI":10331,"JST":10332,"JUN":10333,"KG":10334,"Kr":10335,"Kamp":10336,"Lil":10337,"LPGA":10338,"M8":10339,"Moo":10340,"Octo":10341,"R4":10342,"Rat":10343,"Rang":10344,"Root":10345,"Range":10346,"S8":10347,"Sri":10348,"Ski":10349,"SIL":10350,"Trou":10351,"Tree":10352,"VIII":10353,"WAVE":10354,"YU":10355,"ZIP":10356,"ati":10357,"bank":10358,"could":10359,"dB":10360,"fas":10361,"kDa":10362,"kell":10363,"kara":10364,"using":10365,"ÄŁ":10366,"á½":10367,"ë§":10368,"ìĨ":10369,"lization":10370,"kura":10371,"mÇĲng":10372,"1065":10373,"1055":10374,"1057":10375,"1094":10376,"1238":10377,"1239":10378,"1293":10379,"1115":10380,"1157":10381,"1179":10382,"pie":10383,"ancy":10384,"anensis":10385,"1518":10386,"ones":10387,"lab":10388,"1452":10389,"1325":10390,"mun":10391,"real":10392,"rell":10393,"requi":10394,"respon":10395,"metery":10396,"rup":10397,"roe":10398,"rote":10399,"ãĥ¤":10400,"cuÃ¡n":10401,"cube":10402,"mag":10403,"mai":10404,"mato":10405,"ãĤ²":10406,"hei":10407,"next":10408,"Maya":10409,"Manga":10410,"Intro":10411,"bee":10412,"SEVEN":10413,"Cohen":10414,"Rela":10415,"nae":10416,"ndrome":10417,"ATT":10418,"opsis":10419,"edge":10420,"Lic":10421,"Dece":10422,"Destru":10423,"Mela":10424,"mans":10425,"Promotion":10426,"cone":10427,"contra":10428,"config":10429,"rane":10430,"Semi":10431,"Stay":10432,"ISL":10433,"fier":10434,"fishing":10435,"JRA":10436,"ako":10437,"Sonic":10438,"ANET":10439,"IPC":10440,"Muhammad":10441,"Parti":10442,"som":10443,"Bush":10444,"Cape":10445,"SMRT":10446,"Conser":10447,"Gear":10448,"Nate":10449,"IVB":10450,"Julius":10451,"Step":10452,"Stein":10453,"1126":10454,"AKB":10455,"REM":10456,"Nove":10457,"Ford":10458,"full":10459,"SOLO":10460,"Cold":10461,"Symp":10462,"IAU":10463,"Administra":10464,"Huang":10465,"inclu":10466,"1184":10467,"OpenAI":10468,"HOL":10469,"Duo":10470,"Corne":10471,"RISE":10472,"EXID":10473,"Jesus":10474,"NHL":10475,"Disk":10476,"Elli":10477,"ãĦľ":10478,"Walk":10479,"GamesRadar":10480,"Hydro":10481,"Holmes":10482,"odd":10483,"troff":10484,"âĹİ":10485,"Freestyle":10486,"Truth":10487,"GTX":10488,"WoRMS":10489,"CMAMMA":10490,"Tokyo":10491,"Hanteo":10492,"Comics":10493,"Earl":10494,"âĳ¡":10495,"language":10496,"partner":10497,"since":10498,"OPEN":10499,"Lawrence":10500,"âĩĴ":10501,"techn":10502,"Image":10503,"practi":10504,"intosh":10505,"Falcom":10506,"Fortran":10507,"âĤ¬":10508,"LZ77":10509,"Flower":10510,"Wonderful":10511,"Butter":10512,"Justin":10513,"sease":10514,"P2P":10515,"WHIP":10516,"Wells":10517,"African":10518,"Rankings":10519,"PXA":10520,"Associates":10521,"Higgins":10522,"1xEV":10523,"Chief":10524,"April":10525,"japoni":10526,"016":10527,"056":10528,"1D":10529,"1199":10530,"BK":10531,"Bry":10532,"BET":10533,"BTR":10534,"BERT":10535,"Clu":10536,"Cris":10537,"Deri":10538,"DATA":10539,"Ei":10540,"ETC":10541,"Fed":10542,"Gard":10543,"Gang":10544,"Gill":10545,"Gring":10546,"Glass":10547,"Ich":10548,"IAL":10549,"JSON":10550,"Kum":10551,"KON":10552,"M110":10553,"Mamba":10554,"NSA":10555,"NTO":10556,"NME":10557,"OMG":10558,"OEM":10559,"Pine":10560,"Pitch":10561,"Pseudo":10562,"RV":10563,"Rig":10564,"Rare":10565,"RLE":10566,"RNC":10567,"Ranger":10568,"Rights":10569,"SNA":10570,"SCP":10571,"SING":10572,"TX":10573,"TAS":10574,"WR":10575,"Was":10576,"WINNER":10577,"XL":10578,"YON":10579,"a2":10580,"bh":10581,"bou":10582,"blue":10583,"dal":10584,"eis":10585,"fr":10586,"hind":10587,"kk":10588,"lva":10589,"mÄĵng":10590,"vu":10591,"yr":10592,"Ðķ":10593,"ÐĽ":10594,"Õ¶":10595,"Ø¹":10596,"Ùĩ":10597,"ð¨":10598,"jing":10599,"xiv":10600,"yung":10601,"lil":10602,"dum":10603,"20S":10604,"lez":10605,"bine":10606,"bike":10607,"bins":10608,"div":10609,"dial":10610,"tuÇİn":10611,"ener":10612,"1022":10613,"1090":10614,"1085":10615,"1213":10616,"1257":10617,"1294":10618,"1292":10619,"nion":10620,"pical":10621,"anth":10622,"1431":10623,"1323":10624,"1362":10625,"gem":10626,"thia":10627,"oura":10628,"rei":10629,"mei":10630,"ï¼Ĭ":10631,"ltz":10632,"cuit":10633,"sex":10634,"1004":10635,"mae":10636,"ãģ¸":10637,"ãĤ´":10638,"illa":10639,"owa":10640,"hee":10641,"never":10642,"INAX":10643,"vector":10644,"Champ":10645,"Independent":10646,"50000":10647,"6400":10648,"lov":10649,"bey":10650,"6800":10651,"Cop":10652,"Colum":10653,"vian":10654,"ador":10655,"ayo":10656,"Rot":10657,"Dev":10658,"Mii":10659,"795":10660,"OSI":10661,"apy":10662,"Lepto":10663,"COUN":10664,"Moham":10665,"Tea":10666,"person":10667,"Need":10668,"60000":10669,"ACM":10670,"Sugar":10671,"entry":10672,"Saba":10673,"Sales":10674,"Logo":10675,"Another":10676,"alia":10677,"stage":10678,"ITE":10679,"ITY":10680,"ITIL":10681,"ITION":10682,"Param":10683,"ppen":10684,"1305":10685,"Content":10686,"Spark":10687,"Enri":10688,"Bahn":10689,"ASV":10690,"Toyo":10691,"Tonight":10692,"à¸¥":10693,"à¸Ħ":10694,"EPROM":10695,"Dota":10696,"RECO":10697,"Scho":10698,"Luci":10699,"Luke":10700,"MOVIE":10701,"pack":10702,"SOHR":10703,"Gui":10704,"Ruth":10705,"liner":10706,"NGO":10707,"Compi":10708,"vella":10709,"Harvey":10710,"Willie":10711,"Gior":10712,"Travis":10713,"services":10714,"URR":10715,"hypo":10716,"Chey":10717,"Kura":10718,"ensen":10719,"Animation":10720,"PLUS":10721,"Eleven":10722,"Survey":10723,"Transit":10724,"GAINAX":10725,"white":10726,"Ernest":10727,"Metal":10728,"Digi":10729,"SUMM":10730,"Agda":10731,"Gerald":10732,"tempor":10733,"friend":10734,"Virgin":10735,"Crystal":10736,"formos":10737,"à¹Ī":10738,"OMON":10739,"Signature":10740,"Russian":10741,"Beauty":10742,"Linked":10743,"Regional":10744,"Police":10745,"Command":10746,"scale":10747,"dorf":10748,"Ahmad":10749,"Crush":10750,"versary":10751,"Secretary":10752,"FIBA":10753,"Paradise":10754,"Philippe":10755,"Maurice":10756,"íķĺ":10757,"Rodri":10758,"Bailey":10759,"CinemaScore":10760,"Gregory":10761,"because":10762,"Perez":10763,"Manuel":10764,"NICONICO":10765,"levard":10766,"POSIX":10767,"Piazza":10768,"Pedro":10769,"DisplayPort":10770,"Sophie":10771,"TensorFlow":10772,"Utada":10773,"ê¹Ģ":10774,"Calligra":10775,"Affair":10776,"yunnanensis":10777,"October":10778,"December":10779,"Gringoire":10780,"015":10781,"024":10782,"048":10783,"047":10784,"058":10785,"069":10786,"3S":10787,"BED":10788,"Bron":10789,"CY":10790,"Cum":10791,"Crew":10792,"DONG":10793,"Fau":10794,"Fos":10795,"Ft2":10796,"FIVB":10797,"Gig":10798,"Gare":10799,"GTA":10800,"GCC":10801,"GLP":10802,"HU":10803,"Hum":10804,"Hai":10805,"IK":10806,"JA":10807,"Kri":10808,"Kno":10809,"K230":10810,"Lot":10811,"LSD":10812,"Lama":10813,"M113":10814,"MENT":10815,"N6":10816,"PAC":10817,"QF":10818,"Ryu":10819,"Sli":10820,"Tat":10821,"Tess":10822,"UV":10823,"Ukra":10824,"Xa":10825,"XDC":10826,"Zy":10827,"Zim":10828,"a4":10829,"aq":10830,"ax":10831,"az":10832,"action":10833,"c3":10834,"club":10835,"dt":10836,"echo":10837,"kre":10838,"kel":10839,"mble":10840,"plus":10841,"sam":10842,"sse":10843,"sol":10844,"tsu":10845,"vit":10846,"zas":10847,"zero":10848,"Â®":10849,"â½":10850,"ëª":10851,"dev":10852,"gui":10853,"dult":10854,"duction":10855,"2032":10856,"lett":10857,"sue":10858,"surance":10859,"shua":10860,"chuÄģi":10861,"ditional":10862,"tune":10863,"tuber":10864,"enos":10865,"1034":10866,"1044":10867,"1087":10868,"1093":10869,"meni":10870,"mil":10871,"1210":10872,"1249":10873,"1251":10874,"nii":10875,"nish":10876,"1152":10877,"anne":10878,"onso":10879,"lash":10880,"1410":10881,"1411":10882,"1336":10883,"1344":10884,"1359":10885,"1361":10886,"1395":10887,"indi":10888,"instru":10889,"geome":10890,"25K":10891,"25T":10892,"stol":10893,"rex":10894,"reus":10895,"revision":10896,"ï¼ĥ":10897,"cea":10898,"ceo":10899,"1007":10900,"1009":10901,"tanic":10902,"mah":10903,"35000":10904,"cohol":10905,"isen":10906,"nung":10907,"null":10908,"46A":10909,"Chow":10910,"Chas":10911,"Ching":10912,"Insi":10913,"Index":10914,"4700":10915,"Theo":10916,"Rei":10917,"Rein":10918,"nay":10919,"bay":10920,"5800":10921,"40000":10922,"Lion":10923,"ury":10924,"CDC":10925,"98A":10926,"apo":10927,"COO":10928,"ctionary":10929,"Most":10930,"Provin":10931,"Tee":10932,"1205":10933,"1209":10934,"APH":10935,"Dio":10936,"oka":10937,"Sult":10938,"Soccer":10939,"alist":10940,"HDR":10941,"SSD":10942,"Pata":10943,"SMTOWN":10944,"Spa":10945,"step":10946,"stead":10947,"Basili":10948,"dens":10949,"dents":10950,"ENCE":10951,"à¸¢":10952,"Interface":10953,"Think":10954,"MyRadio":10955,"process":10956,"aries":10957,"Luck":10958,"AGB":10959,"Sym":10960,"DRT":10961,"DAO":10962,"MCA":10963,"cording":10964,"à¤¦":10965,"Baron":10966,"lington":10967,"Macintosh":10968,"Triple":10969,"Isra":10970,"Grey":10971,"Normal":10972,"track":10973,"Ella":10974,"cessing":10975,"ï¹ŀ":10976,"Cheng":10977,"Chemical":10978,"UEFA":10979,"Speak":10980,"compu":10981,"company":10982,"vesti":10983,"Panzer":10984,"Official":10985,"Scienti":10986,"FFT":10987,"Dancing":10988,"Phillips":10989,"SRP":10990,"Palace":10991,"Silva":10992,"OMR":10993,"Casa":10994,"Gilbert":10995,"AXN":10996,"DIY":10997,"Clostri":10998,"Johannes":10999,"Bandar":11000,"standing":11001,"vatory":11002,"Stock":11003,"S4N4":11004,"Mitchie":11005,"Jeffrey":11006,"Communications":11007,"Kennedy":11008,"Industries":11009,"VISION":11010,"Lunar":11011,"Adventure":11012,"Eyes":11013,"Nelson":11014,"Total":11015,"Arnold":11016,"Aaron":11017,"Vladi":11018,"Spencer":11019,"AVBWU":11020,"Phoebus":11021,"Ireland":11022,"coccus":11023,"Financial":11024,"available":11025,"COUNT":11026,"LinkedIn":11027,"035":11028,"086":11029,"1201":11030,"5300":11031,"6K":11032,"856":11033,"BER":11034,"Brea":11035,"C12":11036,"Ces":11037,"Cano":11038,"Coffee":11039,"DMA":11040,"Dere":11041,"Ek":11042,"ENA":11043,"Ery":11044,"Estate":11045,"FW":11046,"Fen":11047,"FAD":11048,"FDG":11049,"H8":11050,"H12":11051,"Hang":11052,"Honey":11053,"ILO":11054,"Irish":11055,"JIT":11056,"Kind":11057,"Lat":11058,"M7":11059,"M16":11060,"M41":11061,"Meri":11062,"NV":11063,"Ok":11064,"PQ":11065,"PAO":11066,"Pont":11067,"RAC":11068,"Sandy":11069,"Tsu":11070,"Ulti":11071,"Ves":11072,"Ward":11073,"Why":11074,"Y2":11075,"Yama":11076,"a1":11077,"bha":11078,"cp":11079,"cana":11080,"d3":11081,"db":11082,"dam":11083,"eo":11084,"fir":11085,"gl":11086,"gat":11087,"glio":11088,"mpe":11089,"nos":11090,"pth":11091,"psi":11092,"qÅ«n":11093,"tree":11094,"uis":11095,"ws":11096,"ÄĹ":11097,"ÉĽ":11098,"Î¦":11099,"Î¾":11100,"Îļ":11101,"Ø¬":11102,"ãĪ":11103,"ì¤":11104,"ìĬ":11105,"íĺ":11106,"ï»":11107,"deli":11108,"dead":11109,"demo":11110,"shin":11111,"lipp":11112,"least":11113,"bing":11114,"titude":11115,"dil":11116,"miya":11117,"nix":11118,"1116":11119,"1141":11120,"1177":11121,"arts":11122,"1416":11123,"1335":11124,"1338":11125,"1332":11126,"1384":11127,"reti":11128,"reau":11129,"result":11130,"mela":11131,"meter":11132,"rite":11133,"0001":11134,"rose":11135,"roll":11136,"rostris":11137,"sile":11138,"ãĥĶ":11139,"tape":11140,"tanga":11141,"elds":11142,"mab":11143,"ãĤ¼":11144,"cott":11145,"terator":11146,"ckey":11147,"iso":11148,"numeri":11149,"Maz":11150,"Mang":11151,"Informer":11152,"STEP":11153,"64BV":11154,"Coast":11155,"video":11156,"Reed":11157,"hana":11158,"cale":11159,"igne":11160,"Stream":11161,"Deb":11162,"Mile":11163,"Military":11164,"Alpert":11165,"appe":11166,"COP":11167,"hist":11168,"rys":11169,"rant":11170,"8700":11171,"Gale":11172,"Arcade":11173,"EDM":11174,"ED60":11175,"ERA":11176,"Sulli":11177,"posed":11178,"Mull":11179,"aic":11180,"SSR":11181,"PaK":11182,"stery":11183,"Parker":11184,"noinclude":11185,"PS5":11186,"Cafe":11187,"Concept":11188,"commit":11189,"graphic":11190,"dential":11191,"ETSI":11192,"EPUB":11193,"âĨĶ":11194,"Pool":11195,"1128":11196,"CNBC":11197,"TAG":11198,"fume":11199,"kom":11200,"volu":11201,"AGC":11202,"Guide":11203,"called":11204,"orian":11205,"Admi":11206,"Hua":11207,"NCE":11208,"Hide":11209,"1181":11210,"HOUSE":11211,"NOAA":11212,"lings":11213,"Perfume":11214,"Edwin":11215,"Gibson":11216,"NH2":11217,"Gray":11218,"Graham":11219,"Track":11220,"Davies":11221,"CLI":11222,"Tyler":11223,"Schools":11224,"ãĦı":11225,"Wally":11226,"ï¹Ŀ":11227,"Nations":11228,"Count":11229,"Georges":11230,"Hermann":11231,"AO3":11232,"Leaf":11233,"DMZ":11234,"senet":11235,"3A4":11236,"Launch":11237,"Ferdin":11238,"anies":11239,"database":11240,"GEO":11241,"Critic":11242,"Oblast":11243,"à¥ģ":11244,"EVER":11245,"BanG":11246,"launches":11247,"Render":11248,"sinensis":11249,"Publishing":11250,"NMDA":11251,"SVT":11252,"Whats":11253,"Cervo":11254,"Leonard":11255,"THQ":11256,"Computing":11257,"Haskell":11258,"PRODU":11259,"ctoid":11260,"Oracle":11261,"Roundcube":11262,"Railway":11263,"Intelligence":11264,"Gym":11265,"GROW":11266,"science":11267,"buckets":11268,"articles":11269,"sockaddr":11270,"HYBE":11271,"Architecture":11272,"exit":11273,"district":11274,"GIRL":11275,"Malaysia":11276,"Atlantic":11277,"Eclipse":11278,"Ludwig":11279,"Canadian":11280,"9K37":11281,"methyl":11282,"Anniversary":11283,"Jeremy":11284,"Executive":11285,"Destructoid":11286,"XDCAM":11287,"PRODUCE":11288,"017":11289,"029":11290,"088":11291,"094":11292,"091":11293,"2C":11294,"4C":11295,"4Minute":11296,"7k":11297,"Amen":11298,"Asp":11299,"ADV":11300,"AES":11301,"Amb":11302,"Bing":11303,"Brew":11304,"CX":11305,"C15":11306,"C60":11307,"Clin":11308,"CES":11309,"C10H":11310,"Dry":11311,"DIS":11312,"E4":11313,"EVA":11314,"E233":11315,"FP":11316,"Foo":11317,"FTT":11318,"Gos":11319,"Gur":11320,"GSh":11321,"GHQ":11322,"HIDE":11323,"Id":11324,"Ira":11325,"IRES":11326,"J48":11327,"L5":11328,"LUS":11329,"LIM":11330,"LAB":11331,"MID":11332,"MWe":11333,"MRT":11334,"MBE":11335,"NBS":11336,"OW":11337,"Ole":11338,"OAD":11339,"Omar":11340,"Omicron":11341,"Pos":11342,"PDC":11343,"PINK":11344,"Sn":11345,"Tum":11346,"TED":11347,"TFT":11348,"U22":11349,"UAL":11350,"Vari":11351,"WNBA":11352,"YZ":11353,"cow":11354,"cara":11355,"d6":11356,"dson":11357,"f8":11358,"fz":11359,"fall":11360,"fford":11361,"goo":11362,"grou":11363,"kat":11364,"ktor":11365,"lb":11366,"llar":11367,"mL":11368,"mara":11369,"omi":11370,"send":11371,"yang":11372,"ÏĪ":11373,"ê·":11374,"ð§":11375,"guel":11376,"chia":11377,"lies":11378,"2077":11379,"sula":11380,"dish":11381,"lutions":11382,"ente":11383,"1021":11384,"1069":11385,"1088":11386,"1061":11387,"1062":11388,"1097":11389,"1096":11390,"1237":11391,"1267":11392,"1287":11393,"1175":11394,"1133":11395,"anor":11396,"1417":11397,"1446":11398,"1348":11399,"invest":11400,"formes":11401,"aland":11402,"stle":11403,"thro":11404,"research":11405,"tele":11406,"rol":11407,"six":11408,"rage":11409,"cedu":11410,"cele":11411,"sexu":11412,"sein":11413,"tative":11414,"elma":11415,"ãģĴ":11416,"ãģĸ":11417,"coin":11418,"coordina":11419,"heart":11420,"INI":11421,"isse":11422,"tok":11423,"Maha":11424,"STOR":11425,"loe":11426,"CoA":11427,"Cox":11428,"Coin":11429,"visi":11430,"vities":11431,"Ree":11432,"Reco":11433,"veral":11434,"cili":11435,"irs":11436,"Start":11437,"7800":11438,"5600":11439,"MeV":11440,"Mecha":11441,"Meyer":11442,"Marty":11443,"Mario":11444,"Alcohol":11445,"BABY":11446,"dain":11447,"ACAF":11448,"APA":11449,"ICK":11450,"Lami":11451,"Latin":11452,"Raj":11453,"Sac":11454,"buil":11455,"Boe":11456,"Bom":11457,"SS2":11458,"ITH":11459,"ITX":11460,"ffy":11461,"mmons":11462,"noon":11463,"Bud":11464,"Confe":11465,"Filter":11466,"Ticket":11467,"Wiz":11468,"ENG":11469,"Nich":11470,"Dogs":11471,"Luna":11472,"CHI":11473,"Tag":11474,"SOAP":11475,"Cut":11476,"Rule":11477,"orien":11478,"Fee":11479,"jective":11480,"Him":11481,"Hipp":11482,"mony":11483,"ghter":11484,"MCT":11485,"systems":11486,"Put":11487,"Serge":11488,"reached":11489,"Bright":11490,"Santos":11491,"fast":11492,"factor":11493,"Edmund":11494,"Giu":11495,"Giuse":11496,"cm3":11497,"Train":11498,"Travel":11499,"stice":11500,"PO4":11501,"output":11502,"Petro":11503,"lette":11504,"ORF":11505,"Counter":11506,"Aircraft":11507,"Chiesa":11508,"Cemetery":11509,"starter":11510,"WEB":11511,"Atta":11512,"stoma":11513,"ð«Ĭ¸":11514,"Eurogamer":11515,"Croquet":11516,"youtube":11517,"LAY":11518,"German":11519,"âĸ³":11520,"default":11521,"PDT":11522,"Maggie":11523,"ìĿĺ":11524,"DDR3":11525,"tiative":11526,"Minix":11527,"broad":11528,"à¹ī":11529,"Catalo":11530,"Franklin":11531,"launched":11532,"Journey":11533,"Models":11534,"C6H5":11535,"Treo":11536,"Electric":11537,"WOW":11538,"DeepMind":11539,"hausen":11540,"Hamilton":11541,"Ashley":11542,"extra":11543,"black":11544,"KwK":11545,"Boss":11546,"Hawai":11547,"âĻ¯":11548,"Dinosau":11549,"Robinson":11550,"ception":11551,"Michelle":11552,"Felix":11553,"Self":11554,"against":11555,"cription":11556,"CONCACAF":11557,"CR400AF":11558,"BASIC":11559,"avex":11560,"early":11561,"Legend":11562,"BACnet":11563,"Rabbit":11564,"Platform":11565,"Theodore":11566,"Bapti":11567,"Choice":11568,"Oxford":11569,"front":11570,"Gustav":11571,"Nf6":11572,"OECD":11573,"ALX500":11574,"Caroline":11575,"Abraham":11576,"FILM":11577,"CheyTac":11578,"039":11579,"066":11580,"077":11581,"1G":11582,"22000":11583,"7400":11584,"9100":11585,"9500":11586,"Av":11587,"AAC":11588,"ADS":11589,"C16":11590,"CID":11591,"CET":11592,"Dit":11593,"Effe":11594,"Fm":11595,"FAM":11596,"FAC":11597,"FAI":11598,"FRS":11599,"GY":11600,"G20":11601,"Gree":11602,"Grow":11603,"HIS":11604,"HIT":11605,"HSPA":11606,"IUP":11607,"Ibra":11608,"JW":11609,"JScript":11610,"KU":11611,"Kil":11612,"Lily":11613,"MJ":11614,"MN":11615,"MAR":11616,"MIPS":11617,"Nou":11618,"Nes":11619,"Nas":11620,"OV":11621,"OUT":11622,"PTC":11623,"PDS":11624,"Plas":11625,"R7":11626,"Ris":11627,"Rhi":11628,"Race":11629,"S5":11630,"Sort":11631,"SDO":11632,"TRI":11633,"Trin":11634,"TBF":11635,"UDP":11636,"VMS":11637,"X100":11638,"Yau":11639,"Z99":11640,"alu":11641,"achie":11642,"bound":11643,"bring":11644,"dad":11645,"epi":11646,"equi":11647,"fold":11648,"iPod":11649,"jang":11650,"o3":11651,"ppi":11652,"rk":11653,"tam":11654,"ure":11655,"uri":11656,"umph":11657,"vard":11658,"vine":11659,"whe":11660,"wall":11661,"ylent":11662,"Ãģ":11663,"ÎĴ":11664,"×¨":11665,"×ľ":11666,"Ùģ":11667,"Ùĥ":11668,"á¿":11669,"ãĨ":11670,"ê²":11671,"ìľ":11672,"deca":11673,"delete":11674,"hui":11675,"guar":11676,"chr":11677,"ching":11678,"chard":11679,"liday":11680,"dur":11681,"1023":11682,"1036":11683,"1033":11684,"mik":11685,"minu":11686,"18000":11687,"1298":11688,"nite":11689,"1117":11690,"1134":11691,"1132":11692,"1149":11693,"1172":11694,"16000":11695,"16GB":11696,"lach":11697,"17000":11698,"arg":11699,"argu":11700,"1437":11701,"1334":11702,"input":11703,"stes":11704,"tham":11705,"ought":11706,"method":11707,"rod":11708,"simi":11709,"sizer":11710,"ãĥĽ":11711,"culty":11712,"tag":11713,"elf":11714,"ello":11715,"copy":11716,"these":11717,"term":11718,"TCHA":11719,"today":11720,"Mathema":11721,"Inno":11722,"Indone":11723,"STAGE":11724,"iten":11725,"Theory":11726,"Resi":11727,"Return":11728,"bacter":11729,"cape":11730,"ospha":11731,"78X":11732,"hack":11733,"urs":11734,"NAD":11735,"NAL":11736,"Miguel":11737,"derma":11738,"ï½ľ":11739,"Alle":11740,"COMP":11741,"Vic":11742,"Joshua":11743,"pers":11744,"gade":11745,"dak":11746,"Season":11747,"ACC":11748,"Bear":11749,"Beck":11750,"orem":11751,"Lai":11752,"Radi":11753,"Dictionary":11754,"Same":11755,"Shaun":11756,"Shadow":11757,"Jake":11758,"Jazz":11759,"bubble":11760,"IPB":11761,"Mul":11762,"Mule":11763,"inten":11764,"1104":11765,"chez":11766,"node":11767,"PSR":11768,"Buck":11769,"Bump":11770,"Cash":11771,"Console":11772,"MSI":11773,"EPR":11774,"Julie":11775,"MP5":11776,"rism":11777,"Thelma":11778,"prof":11779,"myr":11780,"Expo":11781,"Pharma":11782,"Taq":11783,"SOHO":11784,"Guin":11785,"Guil":11786,"cycle":11787,"often":11788,"orial":11789,"Fears":11790,"MCB":11791,"cord":11792,"Franco":11793,"ression":11794,"Monkey":11795,"Study":11796,"NOAH":11797,"SPE":11798,"Barbara":11799,"DOWN":11800,"BEJ48":11801,"Organization":11802,"phase":11803,"trax":11804,"Berry":11805,"URA":11806,"Supernova":11807,"accu":11808,"access":11809,"Acti":11810,"GOT7":11811,"Check":11812,"donna":11813,"âħ£":11814,"NSF":11815,"img":11816,"Airport":11817,"parenti":11818,"Shake":11819,"Spir":11820,"229E":11821,"Chung":11822,"Value":11823,"Chica":11824,"DMM":11825,"GABA":11826,"LTD":11827,"Clau":11828,"Turner":11829,"Resort":11830,"Resources":11831,"KKTV":11832,"Function":11833,"AEG":11834,"KIZ":11835,"unit":11836,"CodeCamp":11837,"Partner":11838,"Venus":11839,"UMTS":11840,"Lantis":11841,"Register":11842,"Diego":11843,"death":11844,"Jennie":11845,"appli":11846,"Spoon":11847,"CANopen":11848,"KEY":11849,"ìķ¼":11850,"Adams":11851,"MultiCam":11852,"Welcome":11853,"Jerry":11854,"ELEVEN":11855,"species":11856,"freeCodeCamp":11857,"âģµ":11858,"VISUAL":11859,"orbital":11860,"Marshall":11861,"FIRST":11862,"Widget":11863,"B7RLE":11864,"Initiative":11865,"stadt":11866,"Apogee":11867,"Titan":11868,"values":11869,"connect":11870,"Swift":11871,"reference":11872,"President":11873,"hibition":11874,"Suica":11875,"Patricia":11876,"Hoyts":11877,"Lidl":11878,"gorith":11879,"LUNAR":11880,"bacteri":11881,"technology":11882,"RECORDS":11883,"Basilica":11884,"Clostridium":11885,"Ferdinand":11886,"Giuseppe":11887,"Hawaii":11888,"parentid":11889,"011":11890,"014":11891,"025":11892,"028":11893,"026":11894,"084":11895,"082":11896,"1197":11897,"1mple":11898,"5D":11899,"6200":11900,"Apex":11901,"BJ":11902,"BEC":11903,"Cp":11904,"CRE":11905,"CSL":11906,"DY":11907,"Did":11908,"DSS":11909,"Eo":11910,"Eth":11911,"EAS":11912,"Fru":11913,"FSB":11914,"Follow":11915,"GQ":11916,"Ges":11917,"Gren":11918,"HG":11919,"HV":11920,"Hin":11921,"Icon":11922,"IES":11923,"Igna":11924,"JE":11925,"JIN":11926,"Khu":11927,"Kru":11928,"Lap":11929,"MAT":11930,"NX":11931,"Pig":11932,"Pai":11933,"RW":11934,"Rum":11935,"SIV":11936,"SCN":11937,"SHR":11938,"Scar":11939,"TZ":11940,"Tg":11941,"Tank":11942,"TYPE":11943,"UART":11944,"Usenet":11945,"WEC":11946,"WCT":11947,"WWF":11948,"XR":11949,"X200":11950,"YC":11951,"Yun":11952,"Z17":11953,"bÄģi":11954,"bass":11955,"ctic":11956,"d2":11957,"equ":11958,"edi":11959,"f1":11960,"gla":11961,"hood":11962,"ius":11963,"jer":11964,"ked":11965,"money":11966,"mAh":11967,"nh":11968,"rh":11969,"rine":11970,"sent":11971,"source":11972,"s1mple":11973,"talk":11974,"v1":11975,"wÇİi":11976,"woo":11977,"Äħ":11978,"ÅĻ":11979,"ÑĦ":11980,"Ñĳ":11981,"ë¬":11982,"ìĽ":11983,"zhou":11984,"lico":11985,"dual":11986,"bic":11987,"bilis":11988,"suc":11989,"tima":11990,"tizen":11991,"quo":11992,"diÃ¨":11993,"display":11994,"just":11995,"zil":11996,"1031":11997,"1073":11998,"1071":11999,"1091":12000,"1222":12001,"1245":12002,"1113":12003,"1148":12004,"1161":12005,"1171":12006,"eror":12007,"online":12008,"around":12009,"1366":12010,"formed":12011,"much":12012,"rez":12013,"restri":12014,"mex":12015,"ridge":12016,"ï¼ĵ":12017,"rau":12018,"6061":12019,"seg":12020,"1005":12021,"tato":12022,"mak":12023,"coe":12024,"Chau":12025,"Chorus":12026,"Into":12027,"Innova":12028,"33A":12029,"Colt":12030,"viri":12031,"vita":12032,"brand":12033,"igo":12034,"6600":12035,"SAD":12036,"8800":12037,"Lim":12038,"NADP":12039,"Miz":12040,"Meh":12041,"apon":12042,"appro":12043,"Leu":12044,"CO3":12045,"mana":12046,"Mohammad":12047,"JoJo":12048,"894":12049,"rano":12050,"600V":12051,"Sei":12052,"spar":12053,"1203":12054,"120km":12055,"Begin":12056,"ERM":12057,"Rachel":12058,"Diana":12059,"IDC":12060,"IDF":12061,"Sula":12062,"Sham":12063,"Share":12064,"Lover":12065,"docu":12066,"given":12067,"hoc":12068,"alization":12069,"SSL":12070,"Pale":12071,"Sierra":12072,"Ride":12073,"soci":12074,"1302":12075,"Budd":12076,"Bala":12077,"Titanic":12078,"saw":12079,"à¸Ľ":12080,"lerc":12081,"Dome":12082,"yah":12083,"Piano":12084,"Pietro":12085,"Carlo":12086,"Thin":12087,"UNO":12088,"Phen":12089,"CHILD":12090,"TOG":12091,"Format":12092,"erie":12093,"AG600":12094,"Gul":12095,"Kabu":12096,"1183":12097,"Pew":12098,"Combat":12099,"à¤µ":12100,"Corp":12101,"Bishop":12102,"reaming":12103,"DOI":12104,"Jeans":12105,"PPT":12106,"SCAR":12107,"SCAP":12108,"Pride":12109,"lism":12110,"oustic":12111,"Fuji":12112,"Starship":12113,"tents":12114,"When":12115,"Assistant":12116,"Warren":12117,"Spect":12118,"Blog":12119,"Canal":12120,"borough":12121,"folia":12122,"Spike":12123,"Chun":12124,"Years":12125,"Transport":12126,"Terra":12127,"Vevo":12128,"Vehicle":12129,"Torrent":12130,"played":12131,"Rosen":12132,"Josef":12133,"Claire":12134,"oides":12135,"Skype":12136,"warm":12137,"Fresh":12138,"thic":12139,"Campus":12140,"PHA":12141,"USB4":12142,"Philos":12143,"AEW":12144,"Database":12145,"Janet":12146,"Bruno":12147,"Leslie":12148,"Palm":12149,"current":12150,"Troy":12151,"Boulevard":12152,"models":12153,"treme":12154,"Nicolas":12155,"Frost":12156,"Murray":12157,"Murphy":12158,"ENTER":12159,"Cruz":12160,"wikitext":12161,"Antoine":12162,"sistance":12163,"niconico":12164,"HERE":12165,"Defense":12166,"industri":12167,"á¸¥":12168,"Eagle":12169,"virtual":12170,"Italia":12171,"Deadline":12172,"TRAIN":12173,"thority":12174,"syntax":12175,"Sharp":12176,"EchoLink":12177,"CYP3A4":12178,"xc3":12179,"create":12180,"presentation":12181,"false":12182,"museum":12183,"Powell":12184,"ëĤĺ":12185,"Aviation":12186,"cephalus":12187,"Qualifying":12188,"Observatory":12189,"à¯į":12190,"Protection":12191,"Assembly":12192,"WRKY":12193,"acknowledge":12194,"Affairs":12195,"Sullivan":12196,"Ticketmaster":12197,"Chicago":12198,"022":12199,"036":12200,"037":12201,"034":12202,"049":12203,"042":12204,"098":12205,"085":12206,"097":12207,"2P":12208,"7A":12209,"9M":12210,"A24":12211,"Aru":12212,"Ato":12213,"Away":12214,"Blow":12215,"DQ":12216,"DKP":12217,"Et":12218,"EGO":12219,"Fas":12220,"FET":12221,"FUN":12222,"FTA":12223,"FRI":12224,"Flex":12225,"Gad":12226,"GAS":12227,"GTO":12228,"Hes":12229,"HAR":12230,"Horn":12231,"Identi":12232,"Jas":12233,"JVC":12234,"KH":12235,"KID":12236,"Kine":12237,"Kari":12238,"KHL":12239,"LTS":12240,"L129":12241,"Ming":12242,"Mora":12243,"MHC":12244,"M686":12245,"Nut":12246,"Norton":12247,"PJ":12248,"Phu":12249,"Pru":12250,"Pand":12251,"Phan":12252,"PAG":12253,"Q4":12254,"QTE":12255,"RISC":12256,"Sd":12257,"S10":12258,"Samp":12259,"Snap":12260,"T6":12261,"Thu":12262,"Tell":12263,"TION":12264,"User":12265,"V3":12266,"VK":12267,"Want":12268,"Zin":12269,"Zoo":12270,"ZIS":12271,"Zoom":12272,"ao":12273,"aver":12274,"away":12275,"bÄĽng":12276,"cru":12277,"cere":12278,"e5":12279,"econo":12280,"fro":12281,"hir":12282,"hot":12283,"kor":12284,"kal":12285,"nals":12286,"ost":12287,"pun":12288,"r2":12289,"sn":12290,"sper":12291,"ulation":12292,"vul":12293,"wu":12294,"zÇİng":12295,"¹¬":12296,"Â¬":12297,"Äĳ":12298,"×Ł":12299,"àª":12300,"ëĮ":12301,"ì£":12302,"íĥ":12303,"ngu":12304,"shir":12305,"should":12306,"ãĢħ":12307,"hua":12308,"gues":12309,"lien":12310,"2038":12311,"19S":12312,"quad":12313,"chung":12314,"dion":12315,"juÄĵ":12316,"zia":12317,"kul":12318,"ening":12319,"shÇĶn":12320,"10A":12321,"1028":12322,"1089":12323,"mens":12324,"mile":12325,"mise":12326,"mino":12327,"minus":12328,"1223":12329,"1231":12330,"nial":12331,"1176":12332,"1174":12333,"ores":12334,"analysis":12335,"lal":12336,"lator":12337,"1321":12338,"geon":12339,"alla":12340,"ths":12341,"relation":12342,"mee":12343,"rik":12344,"ride":12345,"rion":12346,"tea":12347,"sition":12348,"sius":12349,"sium":12350,"ceae":12351,"season":12352,"eller":12353,"mali":12354,"mala":12355,"mass":12356,"mator":12357,"atro":12358,"owi":12359,"cost":12360,"thea":12361,"INLW":12362,"too":12363,"STAF":12364,"64DD":12365,"Colin":12366,"Rex":12367,"Rey":12368,"advance":12369,"cional":12370,"ooting":12371,"ayan":12372,"Stories":12373,"havi":12374,"Liver":12375,"ural":12376,"Miche":12377,"Mika":12378,"Marce":12379,"Alfa":12380,"BCG":12381,"Learning":12382,"AML":12383,"ARTS":12384,"Teen":12385,"Text":12386,"games":12387,"rana":12388,"dah":12389,"Gaz":12390,"Arrow":12391,"APER":12392,"âĶģ":12393,"Lobo":12394,"domain":12395,"buty":12396,"ANGE":12397,"Weverse":12398,"wicz":12399,"1105":12400,"Pain":12401,"Pablo":12402,"check":12403,"Simple":12404,"ffin":12405,"Rivella":12406,"1301":12407,"1303":12408,"SME":12409,"SMP":12410,"Spar":12411,"PCA":12412,"Ensign":12413,"Geoff":12414,"same":12415,"à¸¸":12416,"à¸ĩ":12417,"Nie":12418,"Jung":12419,"âĨĳ":12420,"MP7":12421,"USD":12422,"AKS":12423,"Schmid":12424,"Notes":12425,"UNIQ":12426,"Audi":12427,"AVO":12428,"MIME":12429,"SOD":12430,"LEI":12431,"cyc":12432,"Runa":12433,"Rubber":12434,"puk":12435,"CR200":12436,"reement":12437,"Adap":12438,"delle":12439,"Openstreet":12440,"NOT":12441,"RTX":12442,"EXR":12443,"Santo":12444,"HELL":12445,"Harper":12446,"java":12447,"rington":12448,"LOW":12449,"Giba":12450,"Tribu":12451,"Trinity":12452,"Triumph":12453,"PPI":12454,"Voya":12455,"POVM":12456,"exp":12457,"Showtime":12458,"clef":12459,"Abel":12460,"tism":12461,"ABCD":12462,"Aniplex":12463,"Holy":12464,"PLG":12465,"Books":12466,"foglio":12467,"zog":12468,"Vale":12469,"Heller":12470,"ators":12471,"Blackbear":12472,"GAZ":12473,"ð«Ľ":12474,"bella":12475,"GMRES":12476,"stitution":12477,"Rocky":12478,"spect":12479,"Million":12480,"Elisa":12481,"Chase":12482,"BUM":12483,"element":12484,"KILL":12485,"MTU":12486,"chelys":12487,"aggregate":12488,"karu":12489,"Destin":12490,"closed":12491,"Outlook":12492,"Gross":12493,"SHOOT":12494,"address":12495,"Wayne":12496,"Joyce":12497,"Policy":12498,"Leonardo":12499,"DLU":12500,"Treat":12501,"Beatles":12502,"wikipedia":12503,"sizeof":12504,"Without":12505,"Create":12506,"cultural":12507,"Still":12508,"Frontier":12509,"Scale":12510,"Afternoon":12511,"ITV4":12512,"Shock":12513,"Sirius":12514,"plc":12515,"BitTorrent":12516,"Taman":12517,"highlight":12518,"half":12519,"Heroes":12520,"Italian":12521,"Strike":12522,"constructor":12523,"country":12524,"camatan":12525,"Deutsch":12526,"Matchday":12527,"NATO":12528,"Teddy":12529,"ð°¹¬":12530,"Armstrong":12531,"Feature":12532,"properties":12533,"quarter":12534,"sportation":12535,"Gabriel":12536,"Municipal":12537,"src":12538,"Synthesizer":12539,"Leclerc":12540,"hynchus":12541,"Integrated":12542,"SEVENTEEN":12543,"License":12544,"Derived":12545,"DONGKIZ":12546,"Israel":12547,"Vladimir":12548,"numeric":12549,"Mullvad":12550,"cedure":12551,"Lamigo":12552,"Confedera":12553,"Ibrahim":12554,"SHRDLU":12555,"syntaxhighlight":12556,"Openstreetmap":12557,"019":12558,"044":12559,"059":12560,"092":12561,"2M":12562,"8A":12563,"Alu":12564,"Azi":12565,"Aid":12566,"Aka":12567,"Actor":12568,"Amar":12569,"Acid":12570,"CMP":12571,"Clan":12572,"Camer":12573,"DW":12574,"ECO":12575,"Fir":12576,"G5":12577,"GJ":12578,"GPa":12579,"Glas":12580,"Grea":12581,"GCM":12582,"GDB":12583,"HAP":12584,"Holo":12585,"HAPP":12586,"IETF":12587,"Jak":12588,"KR":12589,"Kyle":12590,"LJ":12591,"Mig":12592,"MCO":12593,"MIP":12594,"NW":12595,"Nau":12596,"OB":12597,"Oak":12598,"OFF":12599,"PSA":12600,"Pana":12601,"PH2":12602,"PFA":12603,"Q2":12604,"RH":12605,"R16":12606,"RNG":12607,"RAF":12608,"S9":12609,"Swa":12610,"Skin":12611,"TK":12612,"Til":12613,"Trea":12614,"Tidal":12615,"UTA":12616,"UFS":12617,"W3":12618,"Wool":12619,"Xin":12620,"acu":12621,"bore":12622,"c1":12623,"cd":12624,"d1":12625,"eth":12626,"eHow":12627,"f2":12628,"fel":12629,"fare":12630,"fps":12631,"festi":12632,"g2":12633,"gam":12634,"gara":12635,"gart":12636,"hm":12637,"hall":12638,"ior":12639,"jara":12640,"kind":12641,"kill":12642,"mÄĵn":12643,"nÃ²u":12644,"och":12645,"px":12646,"pour":12647,"qa":12648,"sou":12649,"tti":12650,"tter":12651,"wd":12652,"xton":12653,"yam":12654,"yet":12655,"É£":12656,"×ĳ":12657,"ë¡":12658,"ë¯":12659,"ì²":12660,"hub":12661,"gul":12662,"chor":12663,"duce":12664,"2033":12665,"lec":12666,"sup":12667,"dir":12668,"tula":12669,"kur":12670,"1048":12671,"1058":12672,"1077":12673,"1098":12674,"1084":12675,"million":12676,"1233":12677,"nifer":12678,"1112":12679,"1146":12680,"1164":12681,"1167":12682,"1156":12683,"ordin":12684,"erry":12685,"lain":12686,"latt":12687,"aru":12688,"14000":12689,"1436":12690,"1473":12691,"1322":12692,"1339":12693,"1379":12694,"1353":12695,"inha":12696,"gebra":12697,"fork":12698,"mul":12699,"stant":12700,"stom":12701,"thin":12702,"mess":12703,"rica":12704,"rak":12705,"100m":12706,"take":12707,"talis":12708,"mati":12709,"mage":12710,"macro":12711,"mania":12712,"eto":12713,"INV":12714,"nucle":12715,"Mali":12716,"Male":12717,"Mani":12718,"STUD":12719,"SEGA":12720,"These":12721,"vivo":12722,"Rebel":12723,"cata":12724,"caster":12725,"42V":12726,"auf":12727,"5700":12728,"SAC":12729,"lys":12730,"ids":12731,"hab":12732,"Liu":12733,"Role":12734,"DeO":12735,"berger":12736,"MiG":12737,"Allan":12738,"typen":12739,"angu":12740,"9860":12741,"apple":12742,"BAE":12743,"COB":12744,"history":12745,"Moto":12746,"Jolin":12747,"Joker":12748,"100000":12749,"dai":12750,"Section":12751,"Sexy":12752,"ACA":12753,"Bever":12754,"ICLEI":12755,"Late":12756,"Ladies":12757,"Rafa":12758,"Sung":12759,"Saga":12760,"Shen":12761,"ONT":12762,"gium":12763,"giving":12764,"merce":12765,"Weber":12766,"stack":12767,"wish":12768,"SSRI":12769,"ours":12770,"ppy":12771,"Bag":12772,"Baba":12773,"Figu":12774,"shift":12775,"Nathan":12776,"IVPP":12777,"ENS":12778,"Todd":12779,"ALBUM":12780,"Haven":12781,"BLG":12782,"July":12783,"Jules":12784,"Dock":12785,"ROCm":12786,"AKA":12787,"Myki":12788,"REAPER":12789,"gnat":12790,"âĪĩ":12791,"ounced":12792,"Lucy":12793,"llon":12794,"Fav":12795,"Aud":12796,"CHA":12797,"Qual":12798,"lensis":12799,"Tawan":12800,"eric":12801,"SOI":12802,"ADP":12803,"Gover":12804,"Fei":12805,"Syd":12806,"GBU":12807,"ownCloud":12808,"network":12809,"BMC":12810,"Hikaru":12811,"Petit":12812,"Kei":12813,"nings":12814,"Combi":12815,"Monu":12816,"à¤ª":12817,"à¤¸":12818,"Corps":12819,"SPEC":12820,"Barth":12821,"Barnes":12822,"Bring":12823,"Santhal":12824,"within":12825,"without":12826,"EEG":12827,"Trilogy":12828,"Isla":12829,"mbol":12830,"blio":12831,"included":12832,"Prison":12833,"12747":12834,"CLR":12835,"Bert":12836,"Berlin":12837,"server":12838,"Ful":12839,"Fusion":12840,"anov":12841,"experi":12842,"Wallace":12843,"trix":12844,"Peters":12845,"Matters":12846,"Chemistry":12847,"bital":12848,"ABB":12849,"PVC":12850,"FMEDA":12851,"UCIL":12852,"complete":12853,"Highway":12854,"Spider":12855,"herty":12856,"Atlas":12857,"KBS2":12858,"Jackie":12859,"WinZip":12860,"EMBA":12861,"PyQt":12862,"TimeSignature":12863,"VOD":12864,"Porter":12865,"Ferr":12866,"SUGO":12867,"Prai":12868,"Tournament":12869,"frag":12870,"WSBL":12871,"Amazing":12872,"zzle":12873,"Bella":12874,"Virtua":12875,"However":12876,"Campbell":12877,"Campaign":12878,"KKday":12879,"MUK":12880,"áĢº":12881,"surface":12882,"Phillip":12883,"LonWorks":12884,"Crime":12885,"Manager":12886,"Birth":12887,"Objective":12888,"à¹Į":12889,"Passion":12890,"Oscar":12891,"Curtis":12892,"Blockberry":12893,"occur":12894,"Really":12895,"Grande":12896,"Small":12897,"Regiment":12898,"DiePie":12899,"Athle":12900,"Tanfoglio":12901,"áĥĲ":12902,"Sorry":12903,"WOWOW":12904,"Ahmed":12905,"CASP":12906,"studio":12907,"KELT":12908,"Wikipedia":12909,"Imagin":12910,"MarketAx":12911,"Route":12912,"Wireless":12913,"Heath":12914,"Rounds":12915,"printf":12916,"Kitty":12917,"âĤĤ":12918,"Messenger":12919,"Builder":12920,"Standards":12921,"Florence":12922,"Cookie":12923,"direct":12924,"MakerVille":12925,"Safety":12926,"specific":12927,"Hands":12928,"Structure":12929,"IMDB":12930,"052D":12931,"Morningstar":12932,"Industrial":12933,"Writer":12934,"Adventures":12935,"ð°¾":12936,"different":12937,"CR400BF":12938,"Metropolitan":12939,"court":12940,"Alberto":12941,"âŁ¨":12942,"âŁ©":12943,"ê¸°":12944,"Blind":12945,"ashtanga":12946,"ëĭ¤":12947,"Minecraft":12948,"Kryo":12949,"Scotland":12950,"PARTY":12951,"ð«ļª":12952,"Kickstarter":12953,"BizTalk":12954,"JUSTHIS":12955,"Fighter":12956,"Toyota":12957,"Giorgio":12958,"Kuraki":12959,"Sultan":12960,"Admiral":12961,"building":12962,"Yautja":12963,"PewDiePie":12964,"ëĮĢ":12965,"Runaway":12966,"numericTimeSignature":12967,"typename":12968,"VirtuaReal":12969,"MarketAxess":12970,"027":12971,"031":12972,"1196":12973,"1193":12974,"1187":12975,"1UP":12976,"2G":12977,"2H":12978,"7200":12979,"8300":12980,"9200":12981,"A10":12982,"Ate":12983,"Aber":12984,"AQU":12985,"Bles":12986,"BMI":12987,"Bhar":12988,"Bc4":12989,"C20":12990,"C79":12991,"CSM":12992,"Dana":12993,"DARK":12994,"Equ":12995,"Ere":12996,"EAC":12997,"EMC":12998,"Fing":12999,"FEC":13000,"FTP":13001,"GAR":13002,"GAME":13003,"Jing":13004,"K12":13005,"Kyi":13006,"Korn":13007,"LY":13008,"M20":13009,"M14":13010,"MPa":13011,"MEN":13012,"NTV":13013,"Nano":13014,"NVS":13015,"OBS":13016,"OLE":13017,"OVER":13018,"Pz":13019,"PON":13020,"P450":13021,"Q1":13022,"Rhe":13023,"RAIL":13024,"Sla":13025,"SDP":13026,"Sight":13027,"Sons":13028,"Session":13029,"TAP":13030,"Twin":13031,"UBA":13032,"WIN":13033,"WMI":13034,"WCF":13035,"WADA":13036,"XII":13037,"XHTML":13038,"Yam":13039,"Ying":13040,"Z1":13041,"Z48":13042,"ZK6":13043,"a8":13044,"av":13045,"ather":13046,"cit":13047,"cout":13048,"d5":13049,"dh":13050,"dru":13051,"e4":13052,"eX":13053,"ez":13054,"fMRI":13055,"glu":13056,"hPa":13057,"hold":13058,"iu":13059,"kaya":13060,"mÄģn":13061,"nc":13062,"ndez":13063,"pc":13064,"pai":13065,"rn":13066,"ske":13067,"thu":13068,"tmp":13069,"wl":13070,"wara":13071,"yy":13072,"yasa":13073,"zor":13074,"ÄĲ":13075,"ÄĻ":13076,"Æ°":13077,"Éĳ":13078,"Ê°":13079,"Î®":13080,"Îĳ":13081,"×ª":13082,"Øµ":13083,"Ùī":13084,"ìĥ":13085,"ìĪ":13086,"ð©":13087,"ngen":13088,"dee":13089,"dest":13090,"dere":13091,"short":13092,"champi":13093,"2048":13094,"bies":13095,"tivo":13096,"church":13097,"dini":13098,"dilla":13099,"disease":13100,"1013":13101,"1039":13102,"1068":13103,"1053":13104,"1083":13105,"mier":13106,"12V":13107,"1288":13108,"nine":13109,"1136":13110,"1169":13111,"anto":13112,"labor":13113,"1316":13114,"1326":13115,"1331":13116,"gets":13117,"forms":13118,"24K":13119,"stown":13120,"meda":13121,"rule":13122,"rim":13123,"teng":13124,"rale":13125,"sep":13126,"tat":13127,"taan":13128,"offer":13129,"bove":13130,"Chal":13131,"Chess":13132,"Madonna":13133,"Infinity":13134,"STE":13135,"loon":13136,"loop":13137,"loss":13138,"beck":13139,"SES":13140,"Regina":13141,"capa":13142,"opus":13143,"mper":13144,"Sty":13145,"Storage":13146,"until":13147,"habi":13148,"Rogers":13149,"Devel":13150,"ssen":13151,"touch":13152,"CDRI":13153,"Meg":13154,"Meli":13155,"twa":13156,"OSCAR":13157,"ango":13158,"Lev":13159,"BAR":13160,"COLO":13161,"mov":13162,"mong":13163,"modu":13164,"modi":13165,"AMPV":13166,"manage":13167,"BSAT":13168,"Moha":13169,"condu":13170,"contain":13171,"content":13172,"Teng":13173,"Tears":13174,"NeXT":13175,"Nexon":13176,"Sebas":13177,"Around":13178,"otri":13179,"Daw":13180,"oki":13181,"Sumo":13182,"enton":13183,"MAO":13184,"Tul":13185,"Short":13186,"route":13187,"mera":13188,"SoC":13189,"hong":13190,"Wee":13191,"HDMI":13192,"SSH":13193,"Pac":13194,"chei":13195,"mmol":13196,"Ricky":13197,"sode":13198,"solute":13199,"Bugs":13200,"Caf":13201,"Cami":13202,"Cake":13203,"DVB":13204,"Encyclo":13205,"Bab":13206,"Timothy":13207,"graci":13208,"ASIA":13209,"endl":13210,"illon":13211,"Nata":13212,"IVA":13213,"à¸ļ":13214,"Nipp":13215,"crown":13216,"Stefa":13217,"AIBA":13218,"Homo":13219,"Doc":13220,"USGS":13221,"Carr":13222,"Things":13223,"Mystery":13224,"Networks":13225,"gnes":13226,"Luc":13227,"CNS":13228,"CNET":13229,"Phra":13230,"weight":13231,"week":13232,"Rud":13233,"orie":13234,"IAST":13235,"TEA":13236,"DRM":13237,"Koh":13238,"sylla":13239,"symbol":13240,"Pub":13241,"tinental":13242,"Monta":13243,"nerf":13244,"Corner":13245,"flights":13246,"Complete":13247,"RTM":13248,"SPO":13249,"DOM":13250,"GP2":13251,"BEA":13252,"PPA":13253,"Greene":13254,"Orche":13255,"minton":13256,"CLUB":13257,"Morph":13258,"guez":13259,"GOOD":13260,"GNZ48":13261,"CSX":13262,"predi":13263,"onale":13264,"Wars":13265,"ABP":13266,"PLAY":13267,"SQU":13268,"Kings":13269,"enable":13270,"Christine":13271,"Upper":13272,"garh":13273,"Fritz":13274,"Civil":13275,"EF52":13276,"announced":13277,"Vector":13278,"Minor":13279,"Laurent":13280,"published":13281,"Include":13282,"Telecom":13283,"shaw":13284,"Gallery":13285,"league":13286,"physic":13287,"BUG":13288,"PDW":13289,"ddle":13290,"âī¡":13291,"á¹ĥ":13292,"Strate":13293,"COMIC":13294,"âĳ¢":13295,"ChoCo":13296,"VVV":13297,"morph":13298,"Imperial":13299,"PTFE":13300,"Beats":13301,"Amir":13302,"Frog":13303,"flag":13304,"FINA":13305,"Alter":13306,"Kirara":13307,"SONY":13308,"possible":13309,"Artist":13310,"1080p":13311,"Bauer":13312,"Eastern":13313,"Jessica":13314,"Chapter":13315,"Namco":13316,"write":13317,"CITY":13318,"CITES":13319,"BugBug":13320,"xcb":13321,"CRH5A":13322,"Albums":13323,"MEDLINE":13324,"Cheems":13325,"Brooks":13326,"CONCERT":13327,"GIRLS":13328,"aespa":13329,"education":13330,"ìŀĲ":13331,"variable":13332,"kirche":13333,"Schiff":13334,"CR300AF":13335,"E9E9":13336,"plotlib":13337,"Property":13338,"received":13339,"Spirits":13340,"Believe":13341,"Leadership":13342,"Libreboot":13343,"Shirley":13344,"including":13345,"Elliott":13346,"SUMMER":13347,"geometry":13348,"COUNTDOWN":13349,"Ultimate":13350,"ìĬ¤":13351,"WhatsApp":13352,"ENGINE":13353,"Guinness":13354,"MCBMSP":13355,"bacterium":13356,"Phenom":13357,"ì£¼":13358,"Schmidt":13359,"ð«Ľļ":13360,"HAPPY":13361,"message":13362,"Kyiv":13363,"NVSRAM":13364,"Developer":13365,"075":13366,"057":13367,"051":13368,"074":13369,"1da":13370,"2250":13371,"2GB":13372,"4S":13373,"6300":13374,"8600":13375,"Ain":13376,"Alo":13377,"Ada":13378,"Avery":13379,"Adult":13380,"Bound":13381,"CTC":13382,"CRO":13383,"Crow":13384,"Dro":13385,"Dil":13386,"D32":13387,"DAC":13388,"DIC":13389,"Eun":13390,"E130":13391,"EPS":13392,"FBC":13393,"Font":13394,"FVP":13395,"Gli":13396,"Gir":13397,"Ging":13398,"Gly":13399,"Gent":13400,"HAL":13401,"HMC":13402,"HALL":13403,"IWI":13404,"Jou":13405,"JAS":13406,"Kro":13407,"Kwan":13408,"Krish":13409,"Kfz":13410,"LCS":13411,"M50":13412,"MAM":13413,"MRS":13414,"Mama":13415,"Mass":13416,"NZ":13417,"Nap":13418,"NDS":13419,"Nina":13420,"NSC":13421,"Nero":13422,"O5":13423,"Ola":13424,"OUR":13425,"P3":13426,"P6":13427,"PZ":13428,"Pf":13429,"Ping":13430,"PTS":13431,"Please":13432,"PTCH":13433,"Sas":13434,"Sap":13435,"SPS":13436,"Scan":13437,"TJ":13438,"Try":13439,"TON":13440,"Tari":13441,"Tsing":13442,"TASC":13443,"Tetra":13444,"UZ":13445,"USM":13446,"Von":13447,"VAD":13448,"Wig":13449,"XSD":13450,"Yer":13451,"Zach":13452,"ZARD":13453,"award":13454,"acc":13455,"bly":13456,"clas":13457,"fine":13458,"gow":13459,"gore":13460,"ggle":13461,"hin":13462,"hra":13463,"hart":13464,"held":13465,"iHeart":13466,"idea":13467,"kJ":13468,"kl":13469,"kla":13470,"kil":13471,"kos":13472,"kina":13473,"nÄĽi":13474,"nana":13475,"odon":13476,"pace":13477,"pler":13478,"pton":13479,"rina":13480,"vn":13481,"vus":13482,"xs":13483,"xd4":13484,"yÅį":13485,"zai":13486,"Ãĩ":13487,"Ãľ":13488,"Îł":13489,"Ð¤":13490,"ÐĹ":13491,"ÑĬ":13492,"Ñį":13493,"×Ķ":13494,"à¶":13495,"ëĵ":13496,"ìĻ":13497,"íĻ":13498,"deg":13499,"dele":13500,"gur":13501,"chts":13502,"little":13503,"due":13504,"2046":13505,"bind":13506,"sui":13507,"tite":13508,"tiali":13509,"tista":13510,"tilla":13511,"turing":13512,"env":13513,"ento":13514,"10W":13515,"1045":13516,"mension":13517,"mimi":13518,"mian":13519,"mira":13520,"mies":13521,"mill":13522,"18F":13523,"1289":13524,"1296":13525,"1281":13526,"1151":13527,"oral":13528,"organi":13529,"lax":13530,"lations":13531,"1354":13532,"ined":13533,"gedit":13534,"muni":13535,"album":13536,"stay":13537,"reli":13538,"reich":13539,"release":13540,"remove":13541,"2222":13542,"rise":13543,"rain":13544,"rail":13545,"ãĥ¦":13546,"amy":13547,"amor":13548,"sector":13549,"tata":13550,"mau":13551,"matrix":13552,"cope":13553,"coding":13554,"INET":13555,"INAH":13556,"bolt":13557,"vehicle":13558,"asse":13559,"toon":13560,"Inside":13561,"Instal":13562,"64BM":13563,"logo":13564,"belie":13565,"becca":13566,"Theater":13567,"Coon":13568,"Coco":13569,"Release":13570,"nati":13571,"ooth":13572,"cali":13573,"cated":13574,"peu":13575,"aus":13576,"eda":13577,"Miles":13578,"Mea":13579,"Marvel":13580,"derson":13581,"BCI":13582,"anga":13583,"Levi":13584,"53K":13585,"Viktor":13586,"hio":13587,"hide":13588,"Movi":13589,"Mother":13590,"Movement":13591,"vali":13592,"conds":13593,"Joan":13594,"Secure":13595,"Seasons":13596,"Stat":13597,"Being":13598,"ICEF":13599,"sons":13600,"Rapid":13601,"Rahman":13602,"Save":13603,"Som":13604,"Solutions":13605,"hom":13606,"Much":13607,"tÃ¹n":13608,"ITER":13609,"Paolo":13610,"byte":13611,"mmar":13612,"soap":13613,"Catherine":13614,"SMN":13615,"Continu":13616,"comb":13617,"Filip":13618,"Tibet":13619,"graphi":13620,"Naval":13621,"said":13622,"kawas":13623,"kawai":13624,"à¸ķ":13625,"Nigel":13626,"BLO":13627,"BLITZ":13628,"Julian":13629,"MPA":13630,"AIK":13631,"anthus":13632,"Thing":13633,"MyVideo":13634,"Kiha":13635,"KiRo":13636,"Scha":13637,"Schwei":13638,"Node":13639,"CPAP":13640,"UNICEF":13641,"myces":13642,"Faculty":13643,"Audition":13644,"NewJeans":13645,"Exhibition":13646,"AVN":13647,"CCC":13648,"LEE":13649,"LEO":13650,"BOYS":13651,"IGM":13652,"Syl":13653,"Kala":13654,"IANA":13655,"jection":13656,"Advis":13657,"Hudson":13658,"zeu":13659,"BMNH":13660,"Pete":13661,"tella":13662,"mono":13663,"OpenNIC":13664,"Koch":13665,"Commerce":13666,"Mona":13667,"à¤¯":13668,"LLM":13669,"Bristol":13670,"LOV":13671,"Giant":13672,"NH3":13673,"PPPo":13674,"Orga":13675,"Tracker":13676,"minary":13677,"CLC":13678,"VoLTE":13679,"SHISH":13680,"still":13681,"eroy":13682,"Wadi":13683,"tens":13684,"ãĦ¨":13685,"trie":13686,"HCl":13687,"Matter":13688,"Material":13689,"VAX":13690,"DDK":13691,"KPL":13692,"xygen":13693,"AllMusic":13694,"Warner":13695,"ABBA":13696,"disc":13697,"Webb":13698,"park":13699,"party":13700,"fox":13701,"mington":13702,"Brother":13703,"SKT":13704,"SKY":13705,"FOMA":13706,"UT1":13707,"Record":13708,"Centro":13709,"Alexa":13710,"Alexand":13711,"Shining":13712,"Shift":13713,"player":13714,"LTM":13715,"NEO":13716,"young":13717,"frastructure":13718,"Richardson":13719,"fried":13720,"Massa":13721,"Freak":13722,"varman":13723,"ìĿ¸":13724,"kinson":13725,"ðĲİ":13726,"Early":13727,"CVT":13728,"à¥Ģ":13729,"HTML5":13730,"Queendo":13731,"Watson":13732,"Choco":13733,"Edwards":13734,"tastic":13735,"Signal":13736,"Transform":13737,"blog":13738,"Cambridge":13739,"DLSS":13740,"DMSO":13741,"Electro":13742,"Phoeni":13743,"paten":13744,"Olivia":13745,"sortium":13746,"Darkness":13747,"KinKi":13748,"strel":13749,"WORD":13750,"Honor":13751,"Honoura":13752,"Badminton":13753,"PBPK":13754,"0x5":13755,"Half":13756,"mediate":13757,"EGFR":13758,"Mosaic":13759,"Retro":13760,"Roll":13761,"cularia":13762,"Gambas":13763,"Economics":13764,"shanensis":13765,"Abdullah":13766,"Nancy":13767,"Wolfgang":13768,"Stern":13769,"window":13770,"MICH":13771,"Random":13772,"Sidney":13773,"general":13774,"Gonza":13775,"Kappa":13776,"Experience":13777,"KiiiKiii":13778,"FREE":13779,"Fernando":13780,"Quake3":13781,"LMP1":13782,"square":13783,"Leopold":13784,"Laboratory":13785,"Feedly":13786,"Astrono":13787,"B8L":13788,"à§į":13789,"Arkane":13790,"Species":13791,"Jorge":13792,"Dangerous":13793,"Verizon":13794,"Thomson":13795,"required":13796,"Conservation":13797,"Bryan":13798,"Gardner":13799,"Pitchfork":13800,"ð¨¥":13801,"Canonical":13802,"Boeing":13803,"IUPAC":13804,"Kabupaten":13805,"advanced":13806,"Destiny":13807,"Cameron":13808,"STUDIO":13809,"SUGOCA":13810,"gracilis":13811,"kawaii":13812,"SHISHAMO":13813,"Queendom":13814,"Honourable":13815,"064":13816,"063":13817,"089":13818,"072":13819,"1s":13820,"2187":13821,"3B":13822,"3E":13823,"4th":13824,"6LX":13825,"Aya":13826,"Bond":13827,"C11":13828,"CIS":13829,"CTO":13830,"Cres":13831,"DLE":13832,"DIG":13833,"D3D":13834,"Eco":13835,"EAN":13836,"Edit":13837,"ESET":13838,"Fel":13839,"FIS":13840,"FSS":13841,"GX":13842,"Gle":13843,"Gone":13844,"Gott":13845,"H7":13846,"HTV":13847,"Hak":13848,"Hour":13849,"Hari":13850,"Hold":13851,"Hoff":13852,"I2":13853,"IMP":13854,"Ivy":13855,"Jig":13856,"KY":13857,"KAT":13858,"Kaki":13859,"Killer":13860,"Ln":13861,"LIT":13862,"LTR":13863,"Lys":13864,"LINK":13865,"M18":13866,"Mint":13867,"MNH":13868,"Nin":13869,"Nine":13870,"NBL":13871,"OX":13872,"Oz":13873,"Oil":13874,"OIC":13875,"PIN":13876,"Pir":13877,"Pry":13878,"PUA":13879,"PUSH":13880,"Q6":13881,"QAM":13882,"RST":13883,"RAR":13884,"SJ":13885,"Sit":13886,"SMA":13887,"SIP":13888,"SBD":13889,"Tc":13890,"TGM":13891,"Vig":13892,"VAN":13893,"Whe":13894,"Wed":13895,"WBC":13896,"XV":13897,"Z4":13898,"ated":13899,"acade":13900,"bene":13901,"css":13902,"cera":13903,"dding":13904,"eBay":13905,"eMule":13906,"f3":13907,"food":13908,"gÃ©n":13909,"gold":13910,"hlen":13911,"identi":13912,"kau":13913,"kker":13914,"know":13915,"lou":13916,"mpi":13917,"mals":13918,"nders":13919,"plu":13920,"r4":13921,"sq":13922,"stin":13923,"tRNA":13924,"wx":13925,"winter":13926,"x64":13927,"yas":13928,"Åĵ":13929,"ÊĤ":13930,"Ìį":13931,"Ñİ":13932,"à·":13933,"àº":13934,"â¾":13935,"ë©":13936,"ëĬ":13937,"deter":13938,"deus":13939,"demon":13940,"sham":13941,"shot":13942,"shine":13943,"hum":13944,"lig":13945,"lii":13946,"liÄĽ":13947,"lite":13948,"lind":13949,"libre":13950,"sume":13951,"quency":13952,"lume":13953,"1029":13954,"1038":13955,"1064":13956,"1041":13957,"1052":13958,"1074":13959,"1092":13960,"nius":13961,"11Z":13962,"1165":13963,"1144":13964,"lag":13965,"lated":13966,"lazy":13967,"arin":13968,"arna":13969,"zum":13970,"1318":13971,"1311":13972,"mura":13973,"stop":13974,"resi":13975,"recur":13976,"recogni":13977,"rig":13978,"ï¼£":13979,"ï¼¯":13980,"ï¼ĸ":13981,"tei":13982,"rong":13983,"sid":13984,"siw":13985,"sibility":13986,"raw":13987,"radi":13988,"ambi":13989,"seseo":13990,"100km":13991,"ãģ¼":13992,"etc":13993,"etz":13994,"owe":13995,"coming":13996,"andler":13997,"cko":13998,"3750":13999,"asana":14000,"token":14001,"Chel":14002,"Chance":14003,"Mash":14004,"Madi":14005,"Mada":14006,"Machi":14007,"Macross":14008,"Int":14009,"STO":14010,"64GB":14011,"lose":14012,"vii":14013,"Reve":14014,"Rebecca":14015,"bry":14016,"cion":14017,"ciple":14018,"cident":14019,"bag":14020,"pect":14021,"peak":14022,"59A":14023,"hain":14024,"Rome":14025,"Rogue":14026,"Dec":14027,"Desi":14028,"Depu":14029,"7700":14030,"Mexi":14031,"Marti":14032,"Lecture":14033,"BAD":14034,"BAND":14035,"COR":14036,"mobile":14037,"Vice":14038,"AMN":14039,"ARIN":14040,"vale":14041,"persky":14042,"gata":14043,"gaard":14044,"dacty":14045,"Sey":14046,"Seat":14047,"spot":14048,"Arg":14049,"Ars":14050,"Argen":14051,"five":14052,"Laz":14053,"Label":14054,"Rag":14055,"Diver":14056,"Supre":14057,"Sumade":14058,"Sav":14059,"dog":14060,"gical":14061,"pose":14062,"Sock":14063,"Solid":14064,"Sobol":14065,"kia":14066,"chee":14067,"steri":14068,"Rising":14069,"phin":14070,"Heat":14071,"note":14072,"Cata":14073,"Casio":14074,"Capit":14075,"SMS":14076,"Configuration":14077,"PCB":14078,"Bac":14079,"ETA":14080,"satellite":14081,"Toys":14082,"ECS":14083,"Hash":14084,"MSN":14085,"Steel":14086,"MPLS":14087,"Doherty":14088,"yava":14089,"Pick":14090,"Cars":14091,"Threads":14092,"REFL":14093,"Novel":14094,"arium":14095,"Fame":14096,"Fabri":14097,"Exping":14098,"CH4":14099,"TAIN":14100,"Tales":14101,"kova":14102,"BOY":14103,"ADD":14104,"ADL":14105,"Fe2":14106,"Kaz":14107,"Hugo":14108,"ESB":14109,"1186":14110,"ptor":14111,"gher":14112,"OpenCritic":14113,"Koha":14114,"ATP500":14115,"ATP250":14116,"Competi":14117,"à¤Ĺ":14118,"veland":14119,"linear":14120,"Britain":14121,"Harmo":14122,"CESS":14123,"NH4":14124,"NHMUK":14125,"PPD":14126,"SCSI":14127,"Graf":14128,"Gram":14129,"Orl":14130,"Orni":14131,"Tram":14132,"Orien":14133,"Davichi":14134,"128GB":14135,"strate":14136,"Wales":14137,"POW":14138,"Donut":14139,"Walking":14140,"triple":14141,"anyon":14142,"Cheer":14143,"primary":14144,"enschaft":14145,"RC5":14146,"Airlines":14147,"IRAL":14148,"Hyde":14149,"MGH":14150,"Benz":14151,"MBT":14152,"Bloom":14153,"TPU":14154,"Shaw":14155,"borg":14156,"companies":14157,"Vani":14158,"Pattab":14159,"Product":14160,"Cevio":14161,"Friday":14162,"issan":14163,"Technical":14164,"Cider":14165,"spacecraft":14166,"Teresa":14167,"Garcia":14168,"WinWin":14169,"Saman":14170,"ifconfig":14171,"Portu":14172,"placed":14173,"SF2":14174,"B2B":14175,"BRB":14176,"signs":14177,"signal":14178,"PASS":14179,"Goodbye":14180,"CTU":14181,"shape":14182,"Galli":14183,"GTK":14184,"PRISM":14185,"frac":14186,"Turn":14187,"cillus":14188,"VRDK":14189,"Respon":14190,"khof":14191,"MUD":14192,"áĢ¯":14193,"Scope":14194,"union":14195,"á¹ĩ":14196,"joy":14197,"Watcha":14198,"Boris":14199,"JTB":14200,"hrer":14201,"SHOCK":14202,"âĭħ":14203,"Overture":14204,"normal":14205,"Dollar":14206,"castle":14207,"Arab":14208,"CBT":14209,"charge":14210,"IBNS":14211,"techni":14212,"Lamb":14213,"study":14214,"Hunt":14215,"Township":14216,"PostScript":14217,"Router":14218,"laume":14219,"Baseball":14220,"Foster":14221,"Since":14222,"Apol":14223,"Dynamic":14224,"terature":14225,"Allison":14226,"Jersey":14227,"Better":14228,"Thank":14229,"eventual":14230,"Seventeen":14231,"templatestyles":14232,"exten":14233,"Roland":14234,"Shuttle":14235,"bourne":14236,"production":14237,"Communication":14238,"defeating":14239,"scienti":14240,"Heinz":14241,"engine":14242,"ìĦ±":14243,"became":14244,"âĬĨ":14245,"Editor":14246,"Ayyava":14247,"XYZ":14248,"Electronics":14249,"Selection":14250,"Lynn":14251,"Cherry":14252,"Regular":14253,"flora":14254,"Majlis":14255,"girls":14256,"sequence":14257,"common":14258,"Infant":14259,"Formosa":14260,"Kaspersky":14261,"Pearson":14262,"Oreo":14263,"ITZY":14264,"xmlns":14265,"Certified":14266,"êµŃ":14267,"fficient":14268,"component":14269,"Pelkey":14270,"effect":14271,"Pulse":14272,"Lilith":14273,"Reserve":14274,"Trouble":14275,"fascia":14276,"November":14277,"Administration":14278,"japonica":14279,"YONEX":14280,"Columbia":14281,"Enrique":14282,"formosana":14283,"Zimmer":14284,"Derek":14285,"ï»¿":14286,"Amend":14287,"CR200J":14288,"Elisabeth":14289,"SHOOTER":14290,"Jakob":14291,"gnathus":14292,"Sydney":14293,"SPECIAL":14294,"Orchestra":14295,"Coonley":14296,"Pattabhi":14297,"068":14298,"071":14299,"1C":14300,"4100":14301,"7300":14302,"8400":14303,"Ach":14304,"ASM":14305,"Att":14306,"Amuse":14307,"Bere":14308,"BPM":14309,"Brun":14310,"Brough":14311,"Cd":14312,"C17":14313,"C24":14314,"CSA":14315,"Cun":14316,"Crist":14317,"Canyon":14318,"D8":14319,"Dat":14320,"Dow":14321,"DTC":14322,"DAN":14323,"DBE":14324,"Doro":14325,"EH":14326,"Esta":14327,"Eight":14328,"EWS":14329,"FNA":14330,"FAR":14331,"Gan":14332,"G41":14333,"Gara":14334,"Glor":14335,"Hf":14336,"Hr":14337,"Hof":14338,"HIP":14339,"HSS":14340,"Hass":14341,"Hook":14342,"ILL":14343,"Idea":14344,"Iterator":14345,"JED":14346,"Kt":14347,"KST":14348,"KAN":14349,"K101":14350,"Kane":14351,"Klaus":14352,"L3":14353,"LAC":14354,"Lance":14355,"Ligh":14356,"Lens":14357,"MQ":14358,"Mt":14359,"MAP":14360,"MER":14361,"MSM":14362,"M1917":14363,"MTA":14364,"Mental":14365,"Ngu":14366,"Nun":14367,"Nc3":14368,"O6":14369,"RJ":14370,"R11":14371,"Rel":14372,"REC":14373,"Rous":14374,"Rene":14375,"Sna":14376,"Sed":14377,"Ska":14378,"SWE":14379,"TWh":14380,"T3A":14381,"TLS":14382,"TUNES":14383,"Um":14384,"Utri":14385,"V60":14386,"VIA":14387,"Witch":14388,"WASP":14389,"X3":14390,"YY":14391,"Z3":14392,"ZF":14393,"api":14394,"b8":14395,"bt":14396,"bbe":14397,"bone":14398,"cence":14399,"dora":14400,"e1":14401,"egel":14402,"fau":14403,"fone":14404,"gha":14405,"gwick":14406,"ip":14407,"itu":14408,"imi":14409,"iKON":14410,"kN":14411,"kw":14412,"kap":14413,"kok":14414,"kine":14415,"mba":14416,"nter":14417,"oe":14418,"pseudo":14419,"sound":14420,"tte":14421,"txt":14422,"v3":14423,"vna":14424,"vot":14425,"wc":14426,"yx":14427,"yen":14428,"yama":14429,"zd":14430,"zers":14431,"Â¹":14432,"Âº":14433,"Å½":14434,"Ð¦":14435,"Õµ":14436,"dend":14437,"development":14438,"xie":14439,"gung":14440,"chara":14441,"lift":14442,"duk":14443,"2036":14444,"bill":14445,"suchus":14446,"tiva":14447,"tika":14448,"ticus":14449,"tienne":14450,"dich":14451,"died":14452,"diff":14453,"dino":14454,"lund":14455,"enig":14456,"enia":14457,"10th":14458,"1026":14459,"1079":14460,"1082":14461,"miRNA":14462,"1269":14463,"1159":14464,"1163":14465,"pina":14466,"pilot":14467,"orang":14468,"orrow":14469,"eron":14470,"onto":14471,"onka":14472,"lago":14473,"aring":14474,"1463":14475,"zur":14476,"1342":14477,"inson":14478,"forming":14479,"alli":14480,"alter":14481,"stler":14482,"stanti":14483,"threads":14484,"retrie":14485,"ricum":14486,"ï¼ĺ":14487,"sip":14488,"sien":14489,"racy":14490,"sei":14491,"tah":14492,"tact":14493,"oll":14494,"olan":14495,"elong":14496,"mach":14497,"mata":14498,"macula":14499,"ãģľ":14500,"etero":14501,"illu":14502,"illy":14503,"attribu":14504,"atops":14505,"owel":14506,"theorem":14507,"ckle":14508,"nee":14509,"boo":14510,"Chong":14511,"Chronic":14512,"Character":14513,"Mae":14514,"Insurance":14515,"loa":14516,"began":14517,"Their":14518,"Copy":14519,"vidence":14520,"Ref":14521,"Reid":14522,"Reality":14523,"ads":14524,"adows":14525,"cie":14526,"6700":14527,"3001":14528,"pez":14529,"ATV":14530,"NAVER":14531,"Deck":14532,"beri":14533,"Mikha":14534,"Meet":14535,"Martha":14536,"OSD":14537,"OSPF":14538,"Allo":14539,"types":14540,"Leary":14541,"53E":14542,"moi":14543,"mole":14544,"moon":14545,"Vivi":14546,"Moment":14547,"Monica":14548,"Motif":14549,"dacity":14550,"Se2":14551,"ISN":14552,"filt":14553,"EDITION":14554,"Bei":14555,"Beth":14556,"Beit":14557,"Laf":14558,"Rao":14559,"Radical":14560,"Sai":14561,"Saw":14562,"Shel":14563,"Jaguar":14564,"does":14565,"gian":14566,"gift":14567,"pomo":14568,"ANT":14569,"Annu":14570,"Wein":14571,"Boston":14572,"wire":14573,"Sisters":14574,"Simmons":14575,"ffen":14576,"pple":14577,"phra":14578,"phere":14579,"1306":14580,"notes":14581,"Bukit":14582,"Cath":14583,"SMART":14584,"Contra":14585,"Contents":14586,"Consortium":14587,"Tian":14588,"Naz":14589,"Natura":14590,"feel":14591,"therapy":14592,"Tools":14593,"à¸«":14594,"Hav":14595,"Stella":14596,"Words":14597,"Does":14598,"yani":14599,"Mys":14600,"problem":14601,"Schlatt":14602,"gner":14603,"UNIVER":14604,"FCS":14605,"Lux":14606,"âĦ¢":14607,"Fast":14608,"Authority":14609,"Audacity":14610,"MORE":14611,"MOVE":14612,"Taku":14613,"page":14614,"MIM":14615,"SOV":14616,"SOUND":14617,"LESS":14618,"cyto":14619,"Fear":14620,"rond":14621,"TEU":14622,"Adolf":14623,"Hung":14624,"1182":14625,"Peer":14626,"DAHL":14627,"OpenCL":14628,"OpenSolaris":14629,"HOY":14630,"ATP1000":14631,"Kecamatan":14632,"Kepler":14633,"Dutch":14634,"Stur":14635,"à¤ķ":14636,"NOC":14637,"Corn":14638,"EXE":14639,"MLS":14640,"margin":14641,"DOME":14642,"Haru":14643,"jah":14644,"Jeep":14645,"Edgar":14646,"Willis":14647,"turns":14648,"MacBook":14649,"Gian":14650,"mbar":14651,"Grade":14652,"Gravity":14653,"quez":14654,"quest":14655,"GameSpy":14656,"GameRankings":14657,"Berkhof":14658,"another":14659,"McKen":14660,"WTA250":14661,"HCV":14662,"Matrix":14663,"stria":14664,"AFS":14665,"AFT":14666,"Whis":14667,"cargo":14668,"AllStar":14669,"Hydra":14670,"MG34":14671,"Engel":14672,"Henderson":14673,"Bloo":14674,"TPMT":14675,"astrome":14676,"Eleanor":14677,"crete":14678,"olyn":14679,"Frie":14680,"issenschaft":14681,"RAID":14682,"HIRO":14683,"bration":14684,"CASE":14685,"256GB":14686,"M2A4":14687,"ð«Ħ":14688,"ð«ĵ":14689,"Angular":14690,"GMT":14691,"Torre":14692,"Burn":14693,"Burger":14694,"Burns":14695,"Singles":14696,"Capcon":14697,"Officer":14698,"Gerard":14699,"Prada":14700,"PRIN":14701,"2186":14702,"Amaz":14703,"Salvad":14704,"XPCOM":14705,"VMware":14706,"transport":14707,"draco":14708,"subject":14709,"Zion":14710,"Penn":14711,"Criminal":14712,"Tomorrow":14713,"Fraser":14714,"Philips":14715,"Ballad":14716,"Janus":14717,"Birds":14718,"GRAIL":14719,"CVS":14720,"better":14721,"hurst":14722,"Borland":14723,"Polygon":14724,"Lancer":14725,"Curry":14726,"Currie":14727,"help":14728,"hello":14729,"pression":14730,"Climate":14731,"Circuit":14732,"Political":14733,"Close":14734,"featuring":14735,"Denis":14736,"Jenkins":14737,"Nicole":14738,"patch":14739,"Setting":14740,"minate":14741,"Kinder":14742,"Coup":14743,"Distribution":14744,"Focus":14745,"Duncan":14746,"ðĲŃł":14747,"85512":14748,"Clarke":14749,"Medal":14750,"Message":14751,"Montju":14752,"plane":14753,"PCIe":14754,"Somewhere":14755,"RBW":14756,"TestB":14757,"original":14758,"bourg":14759,"Memories":14760,"Basin":14761,"Neuro":14762,"Applications":14763,"Jesse":14764,"capsu":14765,"Liberty":14766,"Liberation":14767,"Erik":14768,"Dallas":14769,"Linda":14770,"RSASS":14771,"Cosmic":14772,"Sharon":14773,"CAPCOM":14774,"Kurt":14775,"SocketFD":14776,"Africa":14777,"âĬĹ":14778,"Emperor":14779,"finition":14780,"hydroxy":14781,"swap":14782,"measure":14783,"Numbers":14784,"Isaac":14785,"Task":14786,"Psych":14787,"gged":14788,"ê¸Ģ":14789,"Delicious":14790,"Assault":14791,"Celebri":14792,"ìĺ¤":14793,"paper":14794,"MOMOLAND":14795,"Historical":14796,"Fischer":14797,"Giacomo":14798,"ìĸ´":14799,"Commander":14800,"Glory":14801,"Duratec":14802,"Environment":14803,"Physics":14804,"associa":14805,"Warriors":14806,"Lorenzo":14807,"HOLBORN":14808,"SINGLE":14809,"Mohammed":14810,"MIDI":14811,"coordinates":14812,"Baptiste":14813,"Spoonz":14814,"TOGAF":14815,"ENTERTAIN":14816,"ARTSVISION":14817,"butyricum":14818,"Voyage":14819,"ë¡ľ":14820,"Figure":14821,"Audrey":14822,"Mohamed":14823,"Gentle":14824,"PPPoE":14825,"Deputy":14826,"REFLECTION":14827,"Ayyavazhi":14828,"Utricularia":14829,"DAHLIA":14830,"ENTERTAINMENT":14831,"038":14832,"095":14833,"0641":14834,"1188":14835,"2185":14836,"2H2O":14837,"4GB":14838,"7R":14839,"A27":14840,"Abe":14841,"ASA":14842,"ABL":14843,"Asy":14844,"AWS":14845,"ADSL":14846,"Bj":14847,"Bard":14848,"BMA":14849,"BTO":14850,"Bren":14851,"BTS":14852,"Bass":14853,"Bhd":14854,"Cay":14855,"Cly":14856,"CTV":14857,"Cai":14858,"CEN":14859,"Cort":14860,"Cald":14861,"DBC":14862,"Droid":14863,"DNF":14864,"Drum":14865,"EW":14866,"Eh":14867,"Ela":14868,"Ein":14869,"Era":14870,"E40":14871,"Evil":14872,"Fig":14873,"Fant":14874,"Fans":14875,"FPGA":14876,"Gb":14877,"Grou":14878,"GMP":14879,"Gbit":14880,"H14":14881,"Hmm":14882,"Hend":14883,"Heri":14884,"HMG":14885,"Hits":14886,"HONG":14887,"Ib":14888,"Iu":14889,"IMS":14890,"Item":14891,"Jess":14892,"Jero":14893,"JECT":14894,"K5":14895,"K7":14896,"K8":14897,"Kni":14898,"K15":14899,"Knu":14900,"KAI":14901,"KBE":14902,"K232":14903,"K308":14904,"KISS":14905,"LLE":14906,"Lunch":14907,"Mb":14908,"M1911":14909,"MCP":14910,"Mene":14911,"MISL":14912,"NII":14913,"Nvi":14914,"Nai":14915,"Opi":14916,"ORO":14917,"OCP":14918,"Pv":14919,"P15":14920,"Pis":14921,"Pok":14922,"PME":14923,"Pren":14924,"PABP":14925,"RL":14926,"RIF":14927,"RPM":14928,"Scri":14929,"SIX":14930,"Slate":14931,"SATA":14932,"Sket":14933,"Slot":14934,"Till":14935,"TMS":14936,"Uti":14937,"VJ":14938,"Vau":14939,"Vera":14940,"W52":14941,"WAP":14942,"Wendy":14943,"WITH":14944,"YR":14945,"Yar":14946,"Yum":14947,"YLE":14948,"Zr":14949,"Zeni":14950,"Zhang":14951,"bling":14952,"cv":14953,"clay":14954,"cina":14955,"cens":14956,"dana":14957,"dance":14958,"eva":14959,"eight":14960,"eye":14961,"fru":14962,"fony":14963,"gine":14964,"gby":14965,"gory":14966,"ggy":14967,"mbo":14968,"pÃ³u":14969,"rr":14970,"rhyth":14971,"s2":14972,"sau":14973,"tone":14974,"uer":14975,"wak":14976,"why":14977,"wild":14978,"yar":14979,"zc":14980,"zam":14981,"Ãĺ":14982,"Ãŀ":14983,"Å©":14984,"ÆĴ":14985,"Ê»":14986,"ÎŁ":14987,"Ð§":14988,"ÖĢ":14989,"à¾":14990,"âķ":14991,"ì°":14992,"ð¥":14993,"deci":14994,"develop":14995,"deuts":14996,"develo":14997,"shall":14998,"hut":14999,"chÇİ":15000,"chat":15001,"chka":15002,"dua":15003,"qiÃłng":15004,"suo":15005,"suit":15006,"tiz":15007,"tisti":15008,"tivity":15009,"quer":15010,"quir":15011,"kup":15012,"enko":15013,"1043":15014,"1081":15015,"mith":15016,"1153":15017,"piter":15018,"pipe":15019,"orf":15020,"err":15021,"lani":15022,"lata":15023,"lato":15024,"lava":15025,"arte":15026,"arayo":15027,"1319":15028,"1315":15029,"inos":15030,"geme":15031,"fora":15032,"formis":15033,"mut":15034,"alone":15035,"stral":15036,"2350":15037,"mulator":15038,"think":15039,"rect":15040,"rection":15041,"mecha":15042,"means":15043,"rill":15044,"rical":15045,"ï¼Ķ":15046,"0002":15047,"tet":15048,"teach":15049,"sini":15050,"rah":15051,"cult":15052,"security":15053,"several":15054,"tate":15055,"elsen":15056,"mated":15057,"magazine":15058,"esome":15059,"colum":15060,"thesis":15061,"terms":15062,"botto":15063,"32GB":15064,"Inspi":15065,"beau":15066,"SECL":15067,"4900":15068,"Coo":15069,"Cock":15070,"Covid":15071,"Rest":15072,"Replay":15073,"nad":15074,"naya":15075,"adal":15076,"baba":15077,"baum":15078,"capi":15079,"ndar":15080,"pee":15081,"peta":15082,"auts":15083,"igi":15084,"uss":15085,"Liz":15086,"Lips":15087,"Rovio":15088,"Rozas":15089,"Devi":15090,"Mich":15091,"Miya":15092,"Marina":15093,"ï½¡":15094,"BCR":15095,"BASE":15096,"Viet":15097,"Viva":15098,"AMI":15099,"BSP":15100,"Motion":15101,"Molina":15102,"Process":15103,"Proleague":15104,"7600":15105,"vain":15106,"cons":15107,"concer":15108,"Joa":15109,"Jong":15110,"dation":15111,"Sect":15112,"Arche":15113,"Arms":15114,"otro":15115,"ACK":15116,"fia":15117,"Beng":15118,"Beast":15119,"Date":15120,"80000":15121,"Dior":15122,"Diet":15123,"9700":15124,"ently":15125,"Sale":15126,"Sainte":15127,"docomo":15128,"bula":15129,"bull":15130,"mere":15131,"mero":15132,"ANY":15133,"Annie":15134,"SSB":15135,"ITED":15136,"Papi":15137,"bytes":15138,"Size":15139,"SiO2":15140,"php":15141,"phil":15142,"Heyo":15143,"soli":15144,"sola":15145,"social":15146,"Buenos":15147,"Bureau":15148,"SMG":15149,"Constru":15150,"Connor":15151,"Conrad":15152,"Wish":15153,"shima":15154,"endra":15155,"Gecko":15156,"Nagar":15157,"sae":15158,"saf":15159,"à¸Ĺ":15160,"ALn":15161,"HKU":15162,"MPK":15163,"goni":15164,"Cari":15165,"Carver":15166,"Carthy":15167,"MySpace":15168,"Myself":15169,"Kiev":15170,"Novo":15171,"Father":15172,"Auth":15173,"Newrite":15174,"External":15175,"MOA":15176,"Tale":15177,"paid":15178,"SOA":15179,"SOFT":15180,"IGP":15181,"cribed":15182,"Rub":15183,"push":15184,"Gov":15185,"Colon":15186,"wagen":15187,"DC600V":15188,"ESI":15189,"DRS":15190,"OpenEXR":15191,"MCU":15192,"tinction":15193,"Monster":15194,"gery":15195,"lask":15196,"lastic":15197,"RTS":15198,"Sans":15199,"Santi":15200,"DOALA":15201,"HEY":15202,"HEART":15203,"beginning":15204,"turer":15205,"BEV":15206,"BEAT":15207,"MDB":15208,"oodle":15209,"includeonly":15210,"Ordin":15211,"Tracy":15212,"minster":15213,"CLAN":15214,"orah":15215,"Vox":15216,"straat":15217,"Wake":15218,"hyper":15219,"singles":15220,"McCan":15221,"acfun":15222,"Georgia":15223,"WTA500":15224,"Unter":15225,"Abdel":15226,"DDI":15227,"ensation":15228,"Cl3":15229,"Ask":15230,"sedamo":15231,"Herzog":15232,"interface":15233,"Speech":15234,"Hypo":15235,"Holding":15236,"PLANET":15237,"Shape":15238,"Elements":15239,"IUAV":15240,"creation":15241,"Plate":15242,"DFT":15243,"Terminal":15244,"Garrett":15245,"adain":15246,"Winnie":15247,"setz":15248,"PowerBook":15249,"ð«Ķ":15250,"Alphabet":15251,"VOL":15252,"rics":15253,"Porsche":15254,"SF3":15255,"SFX":15256,"Yuri":15257,"litz":15258,"Sunny":15259,"Zealand":15260,"oise":15261,"PRPP":15262,"Sally":15263,"Maxwell":15264,"fully":15265,"KKA":15266,"BFG":15267,"Siren":15268,"Hannah":15269,"Museo":15270,"gress":15271,"Champions":15272,"DK1":15273,"operation":15274,"Dylan":15275,"Br2":15276,"Codex":15277,"GRAPH":15278,"âĳ£":15279,"FAT16":15280,"Choerry":15281,"RPGFan":15282,"bench":15283,"____":15284,"Sigma":15285,"CUDA":15286,"Gillian":15287,"Automatic":15288,"ULAS":15289,"Transformer":15290,"AXA":15291,"Grill":15292,"init":15293,"Dolce":15294,"period":15295,"Clopin":15296,"feature":15297,"Jenny":15298,"Jennifer":15299,"Course":15300,"technical":15301,"Murder":15302,"casting":15303,"FIRE":15304,"Couch":15305,"Memory":15306,"Angels":15307,"XC40":15308,"Marion":15309,"Papa":15310,"NIH":15311,"Toll":15312,"cells":15313,"Betty":15314,"Between":15315,"TOKIO":15316,"Mirror":15317,"KTX":15318,"Skous":15319,"product":15320,"QUAKE":15321,"Lowe":15322,"glise":15323,"Felipe":15324,"Sterling":15325,"chinensis":15326,"ð¬ĵĳ":15327,"nationale":15328,"GP40PH":15329,"Architects":15330,"Knowledge":15331,"FIRA":15332,"particular":15333,"Korean":15334,"Phase":15335,"crystal":15336,"cauda":15337,"Whitney":15338,"RIAA":15339,"standard":15340,"changed":15341,"communi":15342,"village":15343,"Scorpio":15344,"Address":15345,"LGBTQIA":15346,"osium":15347,"ëŀĺ":15348,"Quantum":15349,"Robertson":15350,"Glenn":15351,"components":15352,"cluster":15353,"Nimtz":15354,"Rootkit":15355,"heimer":15356,"Paramount":15357,"temporary":15358,"Insider":15359,"Scientific":15360,"FTTH":15361,"STORY":15362,"Nichol":15363,"Catalogue":15364,"Ditto":15365,"CpG":15366,"success":15367,"EGOIST":15368,"STAFF":15369,"Glasgow":15370,"INVECS":15371,"Favori":15372,"Imagination":15373,"Bharat":15374,"PzB":15375,"management":15376,"PubMed":15377,"SQUARE":15378,"MRSWS":15379,"Kakitaan":15380,"Supreme":15381,"Apollo":15382,"JEDEC":15383,"Nvidia":15384,"079":15385,"076":15386,"096":15387,"1K":15388,"1R":15389,"2N":15390,"4WD":15391,"5V":15392,"6G":15393,"8100":15394,"9A":15395,"Ame":15396,"Aes":15397,"Anu":15398,"A95":15399,"Amber":15400,"Azer":15401,"B0":15402,"Bl":15403,"B10":15404,"Bok":15405,"BON":15406,"Bare":15407,"CMA":15408,"CIP":15409,"CEST":15410,"Clip":15411,"Cater":15412,"Dus":15413,"DTV":15414,"DBA":15415,"Dell":15416,"DAV":15417,"Deni":15418,"DENCE":15419,"Ene":15420,"Emo":15421,"Egy":15422,"Edie":15423,"Ethi":15424,"EEPROM":15425,"F8":15426,"FH":15427,"Fli":15428,"Find":15429,"Fang":15430,"FAS":15431,"Fara":15432,"FAL":15433,"Feld":15434,"Flight":15435,"GV":15436,"Gh":15437,"Gla":15438,"Gel":15439,"GIA":15440,"GCS":15441,"GDF":15442,"GEM":15443,"H11":15444,"Hamp":15445,"Hana":15446,"HBL":15447,"HHT":15448,"HYP":15449,"IY":15450,"ISE":15451,"IMA":15452,"JF":15453,"Jis":15454,"J300":15455,"JET":15456,"Jaya":15457,"J1120":15458,"Kn":15459,"Kp":15460,"Kad":15461,"Kot":15462,"KIC":15463,"KBM":15464,"Lamp":15465,"LTA":15466,"LCR":15467,"LHC":15468,"Lights":15469,"M198":15470,"M13":15471,"M32":15472,"MBS":15473,"M73":15474,"MDS":15475,"Mouse":15476,"Nh":15477,"NSM":15478,"NECT":15479,"Oude":15480,"Ohio":15481,"OCLC":15482,"Pse":15483,"Pter":15484,"PBA":15485,"PAR":15486,"PPC":15487,"Palo":15488,"PWM":15489,"Q5":15490,"RAP":15491,"RAN":15492,"Rena":15493,"Rolf":15494,"SX":15495,"Sv":15496,"Sis":15497,"Sop":15498,"Seri":15499,"Slim":15500,"Tse":15501,"Tow":15502,"TAC":15503,"TEC":15504,"Tina":15505,"Thai":15506,"Ubi":15507,"Vos":15508,"VGA":15509,"Vene":15510,"Wis":15511,"Wha":15512,"WIM":15513,"WLAN":15514,"X5":15515,"XB":15516,"Xpress":15517,"Xposed":15518,"Zh":15519,"Zha":15520,"above":15521,"bc":15522,"c8":15523,"cari":15524,"cena":15525,"dg":15526,"dry":15527,"dark":15528,"ec":15529,"fd":15530,"fred":15531,"font":15532,"g1":15533,"hay":15534,"hler":15535,"kb":15536,"kr":15537,"kru":15538,"kri":15539,"kbit":15540,"kasa":15541,"mari":15542,"nÇİng":15543,"nya":15544,"oxi":15545,"opi":15546,"ppo":15547,"scu":15548,"schaft":15549,"trun":15550,"tario":15551,"uil":15552,"una":15553,"uary":15554,"ulus":15555,"vell":15556,"vka":15557,"vowel":15558,"walk":15559,"wski":15560,"Â´":15561,"ÃĦ":15562,"Îķ":15563,"Îĺ":15564,"ÐŃ":15565,"ÑĹ":15566,"Õ«":15567,"×©":15568,"Ú©":15569,"à°":15570,"ì¹":15571,"ngel":15572,"deep":15573,"xia":15574,"xing":15575,"ãĢĸ":15576,"ãĢĹ":15577,"ãĢĿ":15578,"ãĢŀ":15579,"hue":15580,"gua":15581,"chis":15582,"chai":15583,"china":15584,"lici":15585,"limited":15586,"duin":15587,"dura":15588,"qiÇĶ":15589,"2060":15590,"leg":15591,"bid":15592,"suri":15593,"sues":15594,"chule":15595,"dity":15596,"turo":15597,"lure":15598,"200m":15599,"mena":15600,"nice":15601,"1173":15602,"erk":15603,"ern":15604,"anta":15605,"once":15606,"instance":15607,"geo":15608,"aldo":15609,"sthe":15610,"ready":15611,"reverse":15612,"meng":15613,"melo":15614,"melan":15615,"metal":15616,"ï¼¸":15617,"ï¼Ļ":15618,"000K":15619,"teer":15620,"roi":15621,"rame":15622,"ceceo":15623,"aman":15624,"cuÄģn":15625,"culi":15626,"culation":15627,"sella":15628,"tani":15629,"elve":15630,"80km":15631,"magi":15632,"maker":15633,"making":15634,"materi":15635,"etto":15636,"iland":15637,"coo":15638,"cot":15639,"need":15640,"INS":15641,"bool":15642,"TCB":15643,"asay":15644,"total":15645,"numer":15646,"Chad":15647,"Chai":15648,"Mamiya":15649,"STR":15650,"location":15651,"bec":15652,"behavi":15653,"SER":15654,"SENS":15655,"Comi":15656,"Cost":15657,"Cosm":15658,"vious":15659,"Reason":15660,"Recht":15661,"Remember":15662,"Remote":15663,"bao":15664,"basis":15665,"cause":15666,"pedi":15667,"opa":15668,"opro":15669,"opter":15670,"optional":15671,"SAR":15672,"SANA":15673,"SASS":15674,"TV4":15675,"LiC":15676,"Lia":15677,"NAMCO":15678,"Defrag":15679,"CDM":15680,"Mith":15681,"Memo":15682,"MeToo":15683,"Marcel":15684,"Alma":15685,"Alvin":15686,"BCA":15687,"Leung":15688,"Legal":15689,"keV":15690,"keley":15691,"tsa":15692,"tsch":15693,"mother":15694,"motive":15695,"hicles":15696,"Mong":15697,"Modi":15698,"vacc":15699,"conside":15700,"condition":15701,"gae":15702,"Nep":15703,"Seng":15704,"Armen":15705,"Armi":15706,"Arte":15707,"ISU":15708,"fif":15709,"Before":15710,"Dae":15711,"ICU":15712,"Lao":15713,"Lala":15714,"Labs":15715,"sonant":15716,"Rate":15717,"Divi":15718,"IDTM":15719,"Satellite":15720,"Tune":15721,"ticle":15722,"Shara":15723,"Lomb":15724,"gifts":15725,"pod":15726,"pole":15727,"polis":15728,"points":15729,"Anten":15730,"Anders":15731,"aling":15732,"stable":15733,"Boa":15734,"Both":15735,"SSM":15736,"Simpson":15737,"ffany":15738,"Rie":15739,"Rider":15740,"Ricci":15741,"phon":15742,"Hemi":15743,"Heights":15744,"Helena":15745,"Buy":15746,"Cable":15747,"Continental":15748,"PCV":15749,"DVI":15750,"Entre":15751,"Bach":15752,"Tiffany":15753,"iao":15754,"Wiener":15755,"Gee":15756,"Nacional":15757,"ETtoday":15758,"Toy":15759,"Toon":15760,"Together":15761,"à¸Ĭ":15762,"Hae":15763,"Jupiter":15764,"lert":15765,"Stephan":15766,"Stellar":15767,"Holiday":15768,"Poe":15769,"Carbon":15770,"DSLR":15771,"Myco":15772,"MyClass":15773,"penter":15774,"Schwar":15775,"Nothing":15776,"CPL":15777,"UNB":15778,"UNI":15779,"âĪ¼":15780,"ounts":15781,"FCC":15782,"tingui":15783,"Newman":15784,"Newtype":15785,"Extreme":15786,"Phys":15787,"TOW":15788,"lens":15789,"Forge":15790,"Formula":15791,"MOR":15792,"kovi":15793,"SOM":15794,"SOCK":15795,"SOUL":15796,"LEED":15797,"BOOK":15798,"BOCU":15799,"ADE":15800,"ADO":15801,"IGO":15802,"Going":15803,"Fest":15804,"Katherine":15805,"MEA":15806,"CRM":15807,"CRT":15808,"CRIS":15809,"chae":15810,"TEMP":15811,"Addi":15812,"3501":15813,"nette":15814,"books":15815,"dys":15816,"OpenType":15817,"HOLiC":15818,"syndrome":15819,"Pura":15820,"à¤ħ":15821,"Cortin":15822,"LLION":15823,"AAAA":15824,"Compag":15825,"Barn":15826,"Barrett":15827,"famili":15828,"Harmony":15829,"Jewel":15830,"Edna":15831,"TTL":15832,"Presto":15833,"Pretty":15834,"Trip":15835,"PPIs":15836,"SCUM":15837,"mbas":15838,"mbus":15839,"Ortho":15840,"Trail":15841,"Trading":15842,"Primary":15843,"Nordic":15844,"phanie":15845,"Else":15846,"sert":15847,"ILY":15848,"VoIP":15849,"SHI":15850,"PGC":15851,"straight":15852,"Wagon":15853,"Charlot":15854,"Starry":15855,"PORT":15856,"SL9":15857,"ãĦĩ":15858,"Wald":15859,"nisation":15860,"Brachy":15861,"GND":15862,"GNS":15863,"DDT":15864,"ceratops":15865,"Very":15866,"immu":15867,"vinyasa":15868,"NTFS":15869,"Animal":15870,"strum":15871,"Cancer":15872,"Elena":15873,"Boot":15874,"fotable":15875,"mingham":15876,"Survi":15877,"porter":15878,"Atarayo":15879,"stoire":15880,"Lounge":15881,"EF15":15882,"Finance":15883,"Term":15884,"Winchester":15885,"PowerPC":15886,"Freeman":15887,"vski":15888,"annon":15889,"Dreams":15890,"Dreamcast":15891,"Amman":15892,"Mink":15893,"Alexandra":15894,"Shield":15895,"plat":15896,"Fergu":15897,"brevi":15898,"NESS":15899,"Capri":15900,"ondor":15901,"LAST":15902,"temps":15903,"Craw":15904,"SIMD":15905,"ICOMOS":15906,"thias":15907,"Institut":15908,"Volks":15909,"alog":15910,"Fantastic":15911,"Escape":15912,"subsp":15913,"Maggi":15914,"Minister":15915,"Crying":15916,"CryENGINE":15917,"âīł":15918,"Philipp":15919,"Codemaster":15920,"à¹ģ":15921,"Palais":15922,"Catch":15923,"Quest":15924,"Nuclear":15925,"TMX":15926,"Landing":15927,"Hammer":15928,"Lyco":15929,"Mayer":15930,"Darren":15931,"á»ĩ":15932,"Alfonso":15933,"MobileMe":15934,"Swiss":15935,"ULTRA":15936,"STAYC":15937,"Griffi":15938,"Griffin":15939,"norm":15940,"Trophy":15941,"pattern":15942,"Enviro500":15943,"Cruise":15944,"PROJECT":15945,"HBX":15946,"ODAP":15947,"Target":15948,"mod7":15949,"Fleetwood":15950,"Nikola":15951,"Ariel":15952,"Honne":15953,"Solstice":15954,"XCX":15955,"industry":15956,"âĤĩ":15957,"Bernardo":15958,"NIKE":15959,"Aires":15960,"Alexis":15961,"Flora":15962,"Button":15963,"ASTRO":15964,"sellschaft":15965,"Solomon":15966,"Evergreen":15967,"Password":15968,"Babylon":15969,"Basket":15970,"DECA":15971,"H3O":15972,"NULL":15973,"âĻŃ":15974,"WWC":15975,"Connection":15976,"Reading":15977,"Romance":15978,"Stevens":15979,"positive":15980,"NCCs":15981,"Personal":15982,"important":15983,"client":15984,"DHCP":15985,"Witt":15986,"Sherman":15987,"image":15988,"imagin":15989,"Everybody":15990,"Integer":15991,"Genesis":15992,"Tactical":15993,"electro":15994,"Binding":15995,"qualifier":15996,"Motorola":15997,"TAIJI":15998,"Emil":15999,"Gonz":16000,"ð¡İ":16001,"Mills":16002,"ìĭľ":16003,"DKZ4":16004,"Pilot":16005,"PETA":16006,"Priceline":16007,"provide":16008,"ciples":16009,"PSTN":16010,"Quinn":16011,"property":16012,"ì§Ģ":16013,"Excellence":16014,"CR300BF":16015,"KENTA":16016,"covered":16017,"LPDDR5":16018,"failed":16019,"neider":16020,"Macromedia":16021,"manuel":16022,"Illustra":16023,"â¼Ģ":16024,"Horizon":16025,"Ridge":16026,"porate":16027,"ð«Ł»":16028,"EEEEEE":16029,"crewed":16030,"PackageReference":16031,"ìĨĮ":16032,"Symposium":16033,"practice":16034,"Compiler":16035,"ì¤ĳ":16036,"RenderWare":16037,"groups":16038,"sexual":16039,"Feeling":16040,"decahedron":16041,"similar":16042,"Indonesia":16043,"Guillaume":16044,"SPEED":16045,"industrial":16046,"Liverpool":16047,"Gazette":16048,"Ensignbus":16049,"Greatest":16050,"champion":16051,"Rudolf":16052,"physical":16053,"BLOOD":16054,"0x5f":16055,"Brougham":16056,"Salvador":16057,"BTOB":16058,"Skousen":16059,"SCUMM":16060,"087":16061,"083":16062,"081":16063,"1S":16064,"1MDB":16065,"21000":16066,"2ZZ":16067,"3mm":16068,"3GP":16069,"6D":16070,"8P":16071,"9C":16072,"9x":16073,"AQ":16074,"Aa":16075,"A11":16076,"Aver":16077,"A300":16078,"AIS":16079,"Asa":16080,"A350":16081,"Aless":16082,"Achie":16083,"Axis":16084,"Aqua":16085,"BZ":16086,"Bhu":16087,"Ble":16088,"BCD":16089,"Boun":16090,"Bree":16091,"Bald":16092,"Cis":16093,"CER":16094,"CMS":16095,"CFC":16096,"CALL":16097,"D50":16098,"DAR":16099,"DBS":16100,"Dend":16101,"DHC":16102,"Drew":16103,"Drey":16104,"DHA":16105,"DISC":16106,"E7":16107,"EMA":16108,"Equi":16109,"Event":16110,"Fou":16111,"Fand":16112,"FACE":16113,"Flask":16114,"Gs":16115,"G48":16116,"GII":16117,"GIG":16118,"Golf":16119,"GANG":16120,"H20":16121,"Hed":16122,"HON":16123,"HAN":16124,"Hare":16125,"HCC":16126,"Hood":16127,"Hank":16128,"Ig":16129,"Iz":16130,"Ibn":16131,"Irene":16132,"JES":16133,"K4":16134,"K9":16135,"Kle":16136,"Klu":16137,"KAR":16138,"KBL":16139,"K105":16140,"KNO":16141,"KUNO":16142,"LAP":16143,"Lara":16144,"LIV":16145,"LEC":16146,"Lapu":16147,"M80":16148,"M76":16149,"M1919":16150,"Mori":16151,"Mina":16152,"MDA":16153,"MTR":16154,"MARK":16155,"MISS":16156,"MSSR":16157,"Nig":16158,"Ngin":16159,"NIA":16160,"NPO":16161,"NIGHT":16162,"O7":16163,"Oo":16164,"Ow":16165,"Odd":16166,"Polo":16167,"PES":16168,"PMC":16169,"Pony":16170,"PARK":16171,"PANG":16172,"R8":16173,"Rama":16174,"Randy":16175,"Sle":16176,"SSA":16177,"SIS":16178,"Sven":16179,"Scra":16180,"Sino":16181,"Slee":16182,"TY":16183,"Tamp":16184,"TEN":16185,"TLD":16186,"Thur":16187,"TDI":16188,"U7":16189,"Ura":16190,"UIC":16191,"UPC":16192,"UCP":16193,"Vy":16194,"VLC":16195,"VH1":16196,"VBCI":16197,"W2":16198,"WAR":16199,"Were":16200,"WIST":16201,"XD":16202,"XPS":16203,"YB":16204,"ZX":16205,"b0":16206,"b1":16207,"b2":16208,"b3":16209,"bhu":16210,"bart":16211,"blin":16212,"c6":16213,"cb":16214,"dz":16215,"eShop":16216,"f4":16217,"g3":16218,"gol":16219,"gma":16220,"ghi":16221,"jd":16222,"jon":16223,"jal":16224,"jaya":16225,"k1":16226,"kÃłi":16227,"lower":16228,"mt":16229,"nat":16230,"ose":16231,"oil":16232,"pari":16233,"sof":16234,"vare":16235,"vara":16236,"wyn":16237,"willer":16238,"yin":16239,"yya":16240,"Ãµ":16241,"Å¼":16242,"Éķ":16243,"ÊĶ":16244,"ËĻ":16245,"Ïİ":16246,"Ð¨":16247,"Ñī":16248,"Ò¯":16249,"Ø®":16250,"âĿ":16251,"ë£":16252,"ë²":16253,"ë¶":16254,"ëĦ":16255,"ì¡":16256,"jiang":16257,"deu":16258,"delity":16259,"character":16260,"lima":16261,"liga":16262,"2034":16263,"2099":16264,"20mm":16265,"lear":16266,"learning":16267,"bitt":16268,"bicolor":16269,"tiv":16270,"tide":16271,"tives":16272,"tinum":16273,"dius":16274,"tuk":16275,"tul":16276,"turi":16277,"jury":16278,"zione":16279,"enty":16280,"enson":16281,"energy":16282,"1025":16283,"10500":16284,"1078":16285,"1051":16286,"mented":16287,"mio":16288,"nil":16289,"nina":16290,"1114":16291,
[...]
