{"!":0,"\"":1,"#":2,"$":3,"%":4,"&":5,"'":6,"(":7,")":8,"*":9,"+":10,",":11,"-":12,".":13,"/":14,"0":15,"1":16,"2":17,"3":18,"4":19,"5":20,"6":21,"7":22,"8":23,"9":24,":":25,";":26,"=":27,"?":28,"@":29,"A":30,"B":31,"C":32,"D":33,"E":34,"F":35,"G":36,"H":37,"I":38,"J":39,"K":40,"L":41,"M":42,"N":43,"O":44,"P":45,"Q":46,"R":47,"S":48,"T":49,"U":50,"V":51,"W":52,"X":53,"Y":54,"Z":55,"[":56,"\\":57,"]":58,"^":59,"_":60,"`":61,"a":62,"b":63,"c":64,"d":65,"e":66,"f":67,"g":68,"h":69,"i":70,"j":71,"k":72,"l":73,"m":74,"n":75,"o":76,"p":77,"q":78,"r":79,"s":80,"t":81,"u":82,"v":83,"w":84,"x":85,"y":86,"z":87,"|":88,"~":89,"¡":90,"¢":91,"£":92,"¤":93,"¥":94,"¦":95,"§":96,"¨":97,"©":98,"ª":99,"«":100,"¬":101,"®":102,"¯":103,"°":104,"±":105,"²":106,"³":107,"´":108,"µ":109,"¶":110,"·":111,"¸":112,"¹":113,"º":114,"»":115,"¼":116,"½":117,"¾":118,"¿":119,"Â":120,"Ã":121,"Ä":122,"Å":123,"Æ":124,"Ç":125,"È":126,"É":127,"Ê":128,"Ë":129,"Ì":130,"Í":131,"Î":132,"Ï":133,"Ð":134,"Ñ":135,"Ò":136,"Ó":137,"Ô":138,"Õ":139,"Ö":140,"×":141,"Ø":142,"Ù":143,"Ú":144,"Û":145,"Ü":146,"Þ":147,"ß":148,"à":149,"á":150,"â":151,"ã":152,"ä":153,"ê":154,"ë":155,"ì":156,"í":157,"î":158,"ï":159,"ð":160,"ñ":161,"Ċ":162,"Ġ":163,"ġ":164,"Ģ":165,"ģ":166,"Ĥ":167,"ĥ":168,"Ħ":169,"ħ":170,"Ĩ":171,"ĩ":172,"Ī":173,"ī":174,"Ĭ":175,"ĭ":176,"Į":177,"į":178,"İ":179,"ı":180,"Ĳ":181,"ĳ":182,"Ĵ":183,"ĵ":184,"Ķ":185,"ķ":186,"ĸ":187,"Ĺ":188,"ĺ":189,"Ļ":190,"ļ":191,"Ľ":192,"ľ":193,"Ŀ":194,"ŀ":195,"Ł":196,"ł":197,"Ń":198,"ng":199,"hÃ":200,"Ãł":201,"Äģ":202,"Ã¬":203,"Ã¡":204,"Ä«":205,"Ã¨":206,"Çİ":207,"ĠĠ":208,"Ã©":209,"ÃŃ":210,"shÃ":211,"Ã¹":212,"Ã¡n":213,"zh":214,"ÇĲ":215,"Åį":216,"ji":217,"de":218,"Ãłn":219,"Äĵ":220,"zhÃ":221,"sh":222,"ÄĽ":223,"Ã³":224,"ÇĶ":225,"xi":226,"Ã²":227,"Ãº":228,"Äģn":229,"ĠĠĠ":230,"Ãłi":231,"Å«":232,"Åįng":233,"ÇĴ":234,"ãĢ":235,"shÃ¬":236,"hu":237,"Ã¨i":238,"gu":239,"iÃ¡n":240,"hÃ©":241,"Ãło":242,"Äģng":243,"ÃŃng":244,"yu":245,"Çİn":246,"ch":247,"niÃ¡n":248,"yÄ«":249,"Çİng":250,"Ã©n":251,"ÇĴu":252,"Ã¬ng":253,"wÃ¨i":254,"Çİo":255,"zÃłi":256,"ãĢģ":257,"jÄ«":258,"Äĵng":259,"zhÅįng":260,"xÄ«":261,"bÃ¹":262,"jÃ¬":263,"Ãłng":264,"li":265,"zhÃ¨":266,"shÃŃ":267,"dÃ¬":268,"guÃ³":269,"yÃº":270,"rÃ©n":271,"Ã²ng":272,"chÃ":273,"Äģo":274,"du":275,"chÃ©":276,"yÇĲ":277,"lÃ¬":278,"Ã¡ng":279,"yÃ¬":280,"uÃ²":281,"Ã¡i":282,"zhÃ¬":283,"chÃ©ng":284,"Ã©i":285,"xu":286,"gÅįng":287,"jÃŃ":288,"²u":289,"ÄĽi":290,"iÃłn":291,"Äĵn":292,"Ã³ng":293,"yuÃ¨":294,"yÇĴu":295,"yuÃ¡n":296,"dÃł":297,"qi":298,"Åįu":299,"lÇĲ":300,"20":301,"Ã³u":302,"Äģi":303,"xiÃłn":304,"jiÄģ":305,"sÄ«":306,"Å«n":307,"xÃŃng":308,"yÇĶ":309,"Ã¨n":310,"ÇĴng":311,"ÃŃn":312,"tÄģ":313,"rÃ¬":314,"zhÄ«":315,"hÃ²u":316,"Çİi":317,"gÃ¨":318,"zhÃł":319,"Ã©ng":320,"le":321,"wÃ©i":322,"huÃ¬":323,"dÃło":324,"19":325,"bi":326,"shÃł":327,"qÄ«":328,"qÃŃ":329,"shÃ¨":330,"su":331,"zhÃ¨ng":332,"mÃŃng":333,"jiÃłn":334,"xuÃ©":335,"chÅ«":336,"yÃ¹":337,"ÄĽng":338,"zuÃ²":339,"shÄĵng":340,"duÃ¬":341,"yÃ³u":342,"qÅ«":343,"shÃłng":344,"ÄĽn":345,"dÃ©":346,"lÃ¹":347,"bÃ¨i":348,"chÃ¡":349,"ti":350,"shÇĲ":351,"zhÃłn":352,"zhÇĶ":353,"Äĵi":354,"qu":355,"jÃ¹":356,"xÄ«n":357,"jÅ«n":358,"zhu":359,"ÄĽr":360,"Ã¡o":361,"shÃ¹":362,"uÃ¬":363,"rÃ¨n":364,"fÄģ":365,"wÃ¹":366,"bÃ¬ng":367,"kÃ¨":368,"Ã©r":369,"dÃłi":370,"yÃŃ":371,"jÃ¬n":372,"zÃ¬":373,"yÄ«n":374,"fÃ¹":375,"fÄģng":376,"jÄ«ng":377,"nÃ¡n":378,"huÃł":379,"xÃ¬":380,"zhÅįu":381,"pÃŃng":382,"Ã²u":383,"xiÃł":384,"lÃ¡i":385,"yÃ²ng":386,"shu":387,"guÄģn":388,"tÃ³ng":389,"ãĢĭ":390,"ãĢĬ":391,"fÇİ":392,"zhÃ¹":393,"mÄĽi":394,"hÃ¡":395,"Â·":396,"jiÄģn":397,"jÇĲ":398,"huÃ²":399,"dÃ¹":400,"chu":401,"bÄĽn":402,"xiÄģng":403,"zhÃŃ":404,"dÃ²ng":405,"xiÃłng":406,"mÃŃn":407,"jiÄģng":408,"fÄĵn":409,"shÇĴu":410,"quÃ¡n":411,"wÃ©n":412,"yÃ¡n":413,"hÃł":414,"suÇĴ":415,"jiÃło":416,"qiÃ¡n":417,"diÃłn":418,"tÃ¨":419,"di":420,"duÅį":421,"Ãºn":422,"zuÃ¬":423,"kÄģi":424,"tu":425,"jiÃ©":426,"liÃ¡n":427,"zhÇĲ":428,"kÄĽ":429,"dÃłn":430,"mÃ¹":431,"yÃ¨":432,"fÃº":433,"mÇİ":434,"yÄĽ":435,"dÅįng":436,"qiÃº":437,"bÄĽi":438,"ãĢĮ":439,"ãĢį":440,"gÄģo":441,"yÃł":442,"qÇĲ":443,"jiÄĵ":444,"miÃłn":445,"hÇİi":446,"zhÇİng":447,"shÄ«":448,"jÄ«n":449,"cÇĲ":450,"lu":451,"nÃ¨i":452,"tÇĲ":453,"sÃłi":454,"sÄģn":455,"tÃ¡i":456,"gÃ©":457,"xÃ¬ng":458,"guÃ²":459,"rÃ¹":460,"201":461,"dÄĽng":462,"yÃło":463,"ju":464,"chÄĵ":465,"cÃ¬":466,"wÇĶ":467,"gÄģi":468,"dÃ¬ng":469,"chÃ¡ng":470,"biÇİo":471,"lÄģ":472,"gÃ²ng":473,"jiÃ¨":474,"shÃ²u":475,"dÇİo":476,"shÄģn":477,"chÇİng":478,"sÃ¬":479,"bÇĲ":480,"zÃ©":481,"tÃŃ":482,"kÄĵ":483,"dÄģng":484,"nÃ©ng":485,"Ã¨r":486,"wÃłi":487,"dÄģn":488,"xÃ¹":489,"zi":490,"kÇĴu":491,"xiÇİo":492,"zÇĶ":493,"bÄģ":494,"juÃ©":495,"lÃŃn":496,"liÃº":497,"shÄĽng":498,"yÄ«ng":499,"ku":500,"lÃ¡n":501,"luÃ³":502,"tÅįng":503,"200":504,"Ä«ng":505,"²ng":506,"mÇĲ":507,"zhÃ²ng":508,"en":509,"zhÄĽ":510,"shÇĶ":511,"tiÄģn":512,"zhÃ¨n":513,"Çļ":514,"qÃ¬":515,"zhÇĴng":516,"liÃ¨":517,"chÄĵng":518,"shÅ«":519,"yuÃłn":520,"bÇİo":521,"tÃłi":522,"fÇĶ":523,"fÄĵng":524,"gÇĶ":525,"qÄ«ng":526,"shÄĵn":527,"wÃ¡ng":528,"yÃ¹n":529,"guÇİn":530,"fÄĵi":531,"jiÃ¹":532,"liÇİng":533,"cÃ©ng":534,"mÃ©i":535,"10":536,"fÃ¨n":537,"hÃło":538,"³ng":539,"yÇİn":540,"wÄĽi":541,"zÇĴng":542,"xuÇİn":543,"xiÃło":544,"dÃ¡":545,"nÃł":546,"liÃłng":547,"bÅį":548,"zÃº":549,"jÃ¬ng":550,"bÃło":551,"nÃŃ":552,"wÃº":553,"tÇĴng":554,"huÃ¡":555,"jiÄģo":556,"yuÄĵ":557,"yÇĲng":558,"biÃłn":559,"xÄ«ng":560,"sÃ¹":561,"shuÇĲ":562,"yÃ¡ng":563,"hÃ¹":564,"men":565,"bÄģo":566,"gÄĵ":567,"bÃ³":568,"cÄģn":569,"cÃ³ng":570,"diÇİn":571,"bÃ¬":572,"rÃº":573,"bÃłn":574,"biÄģn":575,"wÇİng":576,"qÇĶ":577,"mi":578,"chÇİn":579,"sÃ¨":580,"zÄ«":581,"chuÃ¡n":582,"00":583,"shÃ¨ng":584,"rÃ¡n":585,"tÃº":586,"zhÄģng":587,"pÇĶ":588,"gÇİi":589,"gÇİng":590,"nÇļ":591,"lÃ¬ng":592,"luÃ²":593,"yÃ²u":594,"tÃ³u":595,"cÃ¨":596,"lÇ":597,"chÃŃ":598,"18":599,"lÇľ":600,"qiÄģn":601,"shÃ©":602,"lÃŃ":603,"dÅįu":604,"pÇĲ":605,"12":606,"zhÄĵng":607,"ni":608,"kuÃ²":609,"shÄģ":610,"dÇİng":611,"fÇİn":612,"gÃ²u":613,"lÃ¨i":614,"xÃŃ":615,"jÇĲng":616,"tuÃ¡n":617,"wÄĵi":618,"xiÄĵ":619,"lÇĲng":620,"lÃ³ng":621,"guÄ«":622,"xiÄģn":623,"rÃ³ng":624,"huÃ¡ng":625,"xiÇİng":626,"bÄģn":627,"jiÇĶ":628,"yÃ¬ng":629,"mÃ©n":630,"shÄģng":631,"shÃ©n":632,"202":633,"bÇİn":634,"kÇİ":635,"mÇĶ":636,"jÇĲn":637,"fÅ«":638,"jÇĶ":639,"mÃ³":640,"guÇİng":641,"cÃŃ":642,"shuÅį":643,"qÃŃng":644,"zhÇİn":645,"hÃ¡i":646,"zhuÄģng":647,"mÃ²":648,"cÃ¡i":649,"dÃº":650,"11":651,"pÇĲn":652,"tÃŃng":653,"chÃ¡o":654,"yÃŃng":655,"tiÃ¡o":656,"jiÇİn":657,"tÃ¡ng":658,"huÃŃ":659,"duÃłn":660,"chÃ©n":661,"gÄĵn":662,"mÃ¬":663,"wÃłn":664,"pÃ¡i":665,"wÄģn":666,"zÃło":667,"hÃ¡ng":668,"wÃ¡n":669,"biÄģo":670,"gÃ¹":671,"lÃºn":672,"199":673,"xiÃ©":674,"jiÇİng":675,"hÃłn":676,"jÃº":677,"fÃłn":678,"fÃ¡ng":679,"huÃ³":680,"hÃ¡n":681,"pi":682,"kÅįng":683,"or":684,"tiÄĽ":685,"mÃ©ng":686,"biÃ©":687,"wÅ«":688,"jiÄĽ":689,"zhuÄģn":690,"yÇĲn":691,"xÅ«":692,"zhÄĵn":693,"dÇĲ":694,"er":695,"chÃº":696,"hÃº":697,"jiÃł":698,"bÄ«ng":699,"mÃ¬ng":700,"lÃŃng":701,"hÃ³ng":702,"qÄ«n":703,"zÇĲ":704,"lÃ¹n":705,"xÃ¬n":706,"chÃ¹":707,"chÇĶ":708,"sÅ«":709,"an":710,"xiÅ«":711,"zÅįng":712,"15":713,"quÃ¨":714,"xiÄģo":715,"zhÃło":716,"qiÃ¡ng":717,"qÃ¹":718,"cÅ«n":719,"chÃ³ng":720,"piÃłn":721,"jiÅ«":722,"fÃłng":723,"suÃŃ":724,"shÅįu":725,"gÃ¨ng":726,"âĢ":727,"guÄģng":728,"Ã¨ng":729,"jÅ«":730,"on":731,"jiÇİ":732,"chuÃłng":733,"dÃŃ":734,"16":735,"zhuÇİn":736,"guÇĴ":737,"xÃ¹n":738,"mÃłn":739,"pÃłi":740,"fÃ¨i":741,"pÃ¨i":742,"198":743,"dÇİ":744,"tuÅį":745,"la":746,"xuÄģn":747,"bÃ¡i":748,"zhÅ«":749,"dÅ«":750,"tÇĶ":751,"diÃło":752,"xiÃ¡":753,"liÃ¹":754,"17":755,"suÃ¬":756,"huÄ«":757,"tÄ«ng":758,"qiÄĽ":759,"tÇİ":760,"qiÃ¡o":761,"hÄģ":762,"gÇİn":763,"zÄĵng":764,"xiÇİn":765,"mÃłi":766,"huÃ¡n":767,"xÇĶ":768,"wÇİ":769,"tuÄ«":770,"wÃ¨n":771,"chÄģo":772,"tiÃ¡n":773,"bÇİi":774,"cÇİi":775,"liÃ¡ng":776,"yÃ¡":777,"sÃł":778,"ar":779,"bÃłi":780,"cÃºn":781,"jiÇİo":782,"shÇİo":783,"yÃłn":784,"zhuÃłng":785,"huÇĴ":786,"lÃ©i":787,"14":788,"zu":789,"jiÃłng":790,"chuÄģn":791,"yÃ¬n":792,"zÇİo":793,"chÃł":794,"yÇĴng":795,"sÇĲ":796,"dÄĵng":797,"30":798,"zhÇĶn":799,"lÃ¨":800,"xÃºn":801,"nuÃ²":802,"kÃ¹":803,"huÃłn":804,"sÃ²ng":805,"gÃło":806,"lÇĶ":807,"13":808,"194":809,"bÄģng":810,"lÇļ":811,"pÄ«":812,"yÃłng":813,"hÄĽn":814,"qÃºn":815,"zhÄĽng":816,"guÃłn":817,"pÃ²":818,"gÄģng":819,"wÇĴ":820,"197":821,"huÄģ":822,"lÄĵi":823,"hÇİo":824,"tÃ¡o":825,"kuÃłng":826,"hÃ¨":827,"in":828,"dÃ¹n":829,"nÃ³ng":830,"gÄĽi":831,"sÄģi":832,"shuÄģng":833,"liÃłn":834,"kuÃłi":835,"dÄ«":836,"bÄ«":837,"pÃłn":838,"xiÄĽ":839,"195":840,"kÇİo":841,"gÃłi":842,"hÄĵi":843,"wÃłng":844,"liÃło":845,"rÃ¨":846,"ge":847,"zuÇĴ":848,"kÃ²ng":849,"196":850,"yÄģng":851,"chÃłng":852,"yÃŃn":853,"³u":854,"rÃ©ng":855,"sÄĵn":856,"bÄĵi":857,"lÃº":858,"piÃło":859,"yÄģ":860,"25":861,"bÄ«n":862,"âĢĶ":863,"rÃłng":864,"chÅįng":865,"lÃ³u":866,"bÇĶ":867,"lÇİo":868,"zhÃº":869,"jÃ¹n":870,"yÇİng":871,"ruÃ¬":872,"yÄģo":873,"xiÃ¡n":874,"xiÃ¨":875,"niÃłn":876,"for":877,"yÅįu":878,"tÃ¡n":879,"kÄģng":880,"pÃŃ":881,"hÃ©ng":882,"yÃºn":883,"xÇĲ":884,"kÃłn":885,"nÃŃng":886,"liÃ¡o":887,"shÃło":888,"bÃº":889,"24":890,"qÇĲng":891,"chÇĲ":892,"mu":893,"dÃ²u":894,"miÇİn":895,"yÅįng":896,"tÇİn":897,"wÇİn":898,"hÅ«":899,"fÄģn":900,"al":901,"tÅ«":902,"gÄģn":903,"suÃłn":904,"dÄ«ng":905,"yuÇİn":906,"wÄĵn":907,"tuÃ¬":908,"zhe":909,"21":910,"st":911,"xiÃ¹":912,"bÇİ":913,"mÇİn":914,"193":915,"23":916,"mula":917,"kÃłng":918,"formula":919,"28":920,"th":921,"mÃ¡o":922,"ruÃ²":923,"piÄģn":924,"chÃ¨":925,"mÃło":926,"lÇİng":927,"qÃŃn":928,"bÃ¡":929,"nÃ¡":930,"zÃłn":931,"guÇĲ":932,"guÃ¬":933,"ou":934,"pÃŃn":935,"wÃ²":936,"xiÃ³ng":937,"shÃłn":938,"re":939,"22":940,"xiÅįng":941,"me":942,"suÄ«":943,"Ã¼":944,"26":945,"shÄĽn":946,"qÃ¬ng":947,"miÃ¡o":948,"fÇİng":949,"50":950,"2020":951,"27":952,"lÃ¡ng":953,"ru":954,"qiÅ«":955,"sÅįng":956,"Ã¼Ã¨":957,"dÃłng":958,"gÄĵng":959,"qiÄģng":960,"ri":961,"fÃ¡":962,"zÄģo":963,"fÃ¨ng":964,"zhÃłng":965,"ï¼":966,"hÃ¡o":967,"dÅ«n":968,"zÇĴu":969,"hÃłi":970,"qiÃ¨":971,"29":972,"tÃłn":973,"pÃło":974,"pÃł":975,"shÃ¹n":976,"pÃ©ng":977,"xuÃ¡n":978,"2010":979,"nÇĲ":980,"000":981,"dÇĲng":982,"niÇĶ":983,"zÇİi":984,"zhÄģo":985,"zhuÄ«":986,"lÃ¼Ã¨":987,"chÅ«n":988,"2019":989,"hÅ«n":990,"kÇĴng":991,"duÄģn":992,"shÃ¨n":993,"xiÃ¡ng":994,"duÇİn":995,"gÃłn":996,"te":997,"ro":998,"kÄģn":999,"lÃ¡o":1000,"cÇİo":1001,"2016":1002,"si":1003,"gÅ«":1004,"pÃ©i":1005,"2018":1006,"kuÇİn":1007,"zÃ¡":1008,"sÅ«n":1009,"yÃ©":1010,"yÇİ":1011,"pÅį":1012,"2021":1013,"ra":1014,"chÃ¬":1015,"duÃ³":1016,"2014":1017,"fÃ¡n":1018,"2011":1019,"2015":1020,"cuÃ²":1021,"2017":1022,"zhÃ©":1023,"yÃ¡o":1024,"pÄģi":1025,"tÃ²u":1026,"cÃ¡ng":1027,"2012":1028,"40":1029,"kÇİi":1030,"2013":1031,"2022":1032,"mÃŃ":1033,"ruÇİn":1034,"suÄģn":1035,"chÄģ":1036,"zÃłng":1037,"miÃło":1038,"lt":1039,"2009":1040,"zhÇİo":1041,"2008":1042,"huÃ¡i":1043,"ãĥ":1044,"ce":1045,"60":1046,"am":1047,"cu":1048,"xuÃ¨":1049,"chÃ³u":1050,"se":1051,"bÇİng":1052,"mÃ¨ng":1053,"100":1054,"tÃ¬":1055,"pÃº":1056,"nÇİo":1057,"2023":1058,"zhuÃłn":1059,"gt":1060,"lÄĽi":1061,"190":1062,"31":1063,"cÃłi":1064,"cÃ¹":1065,"sÃłn":1066,"mÃ³u":1067,"tion":1068,"ta":1069,"hÃ¹n":1070,"ÇĶn":1071,"kuÄģn":1072,"2007":1073,"niÃº":1074,"mÇĴu":1075,"tÇİo":1076,"diÃ©":1077,"2001":1078,"ol":1079,"tÃ©ng":1080,"sÅįu":1081,"kÄĽn":1082,"qiÇİn":1083,"chÄģng":1084,"rÇİn":1085,"quÄĵ":1086,"fÇĴu":1087,"sÇĶn":1088,"el":1089,"bÃł":1090,"2000":1091,"80":1092,"kÃło":1093,"suÅį":1094,"2006":1095,"niÇİo":1096,"chÃºn":1097,"ma":1098,"2024":1099,"lÇİn":1100,"ãģ":1101,"zÄģi":1102,"zhÃ¡":1103,"xuÄĽ":1104,"huÇĲ":1105,"luÃłn":1106,"tÇĲng":1107,"2005":1108,"zÅ«n":1109,"bÃłng":1110,"lÃł":1111,"huÄģn":1112,"rÇİng":1113,"shuÃ¬":1114,"mÇĲn":1115,"35":1116,"lÃłi":1117,"cÄģng":1118,"70":1119,"fÃ³":1120,"pÃ¡n":1121,"of":1122,"nÃłi":1123,"wÄĽn":1124,"et":1125,"cÄģo":1126,"sÄģng":1127,"pÃ¡ng":1128,"90":1129,"bÇĲng":1130,"ï¼į":1131,"zhÄģ":1132,"ãĤ":1133,"shuÃłi":1134,"niÃ¨":1135,"es":1136,"hÃ³u":1137,"mÃ¨i":1138,"shÄģo":1139,"nÇĶ":1140,"dÇĴng":1141,"il":1142,"at":1143,"ow":1144,"fÃ©ng":1145,"miÃ¨":1146,"yÇĶn":1147,"zÃ²u":1148,"mÇİi":1149,"huÃłi":1150,"2004":1151,"45":1152,"yÄģn":1153,"co":1154,"48":1155,"the":1156,"zhuÃ³":1157,"and":1158,"ter":1159,"he":1160,"tÃło":1161,"nÇİi":1162,"kÅ«n":1163,"2025":1164,"zhÄĽn":1165,"ck":1166,"rÇĶ":1167,"kuÃł":1168,"kuÃŃ":1169,"ãĢī":1170,"ãĢĪ":1171,"gÅįu":1172,"36":1173,"cuÄ«":1174,"38":1175,"shÇİn":1176,"rÃ²u":1177,"diÄģo":1178,"2003":1179,"hÇĶ":1180,"guÅį":1181,"37":1182,"cuÃ¬":1183,"ne":1184,"xÃº":1185,"mÃ¡ng":1186,"juÇİn":1187,"cÃ¡n":1188,"diÄģn":1189,"zhÄģn":1190,"cÃ¡o":1191,"189":1192,"IN":1193,"2002":1194,"is":1195,"bo":1196,"kÄĵng":1197,"TC":1198,"ve":1199,"34":1200,"mÃ¡":1201,"lÄĽng":1202,"as":1203,"zÅ«":1204,"75":1205,"âĢĵ":1206,"sÃº":1207,"quÄģn":1208,"dÄģ":1209,"to":1210,"chÄģi":1211,"nu":1212,"lÃłng":1213,"kÃ¹n":1214,"46":1215,"tÃºn":1216,"fÄĽn":1217,"1990":1218,"âĢ¦":1219,"zhÃ²u":1220,"shÇİng":1221,"rÃło":1222,"hÄĵng":1223,"tÄ«":1224,"xÅ«n":1225,"39":1226,"nÃ¨":1227,"..":1228,"pÃ¬":1229,"nÃłn":1230,"pÄģn":1231,"65":1232,"hÅįng":1233,"shÃº":1234,"tÄģn":1235,"Ch":1236,"tÄģng":1237,"kÇİn":1238,"Ma":1239,"nÃ¬":1240,"32":1241,"In":1242,"ST":1243,"47":1244,"hÇİn":1245,"it":1246,"UTC":1247,"qiÃłn":1248,"1999":1249,"1998":1250,"1980":1251,"188":1252,"500":1253,"33":1254,"64":1255,"qiÇİng":1256,"shuÃ²":1257,"pÇİo":1258,"lo":1259,"be":1260,"kÄģ":1261,"zhÃ¡i":1262,"SE":1263,"55":1264,"quÃłn":1265,"nÄ«":1266,"dÃ¨ng":1267,"1997":1268,"The":1269,"miÃ¡n":1270,"49":1271,"gÇİo":1272,"II":1273,"68":1274,"Co":1275,"vi":1276,"shÄĽ":1277,"zÃ¨ng":1278,"Re":1279,"han":1280,"zhÃ³u":1281,"zhÃłi":1282,"44":1283,"1996":1284,"na":1285,"tiÄĵ":1286,"dÄģo":1287,"ad":1288,"br":1289,"1994":1290,"ver":1291,"fÃ©i":1292,"zÃ²ng":1293,"qiÃ³ng":1294,"ci":1295,"tiÃło":1296,"chuÃ¡ng":1297,"1992":1298,"ba":1299,"chuÃŃ":1300,"juÄģn":1301,"chÃ¡i":1302,"miÇİo":1303,"guÄģ":1304,"xuÄĵ":1305,"tÃ²ng":1306,"1995":1307,"fÄĽi":1308,"chÄ«":1309,"oo":1310,"mÄĽng":1311,"wÅį":1312,"67":1313,"ir":1314,"shuÄģi":1315,"tuÃ³":1316,"chuÄģng":1317,"huÇİn":1318,"1991":1319,"1970":1320,"58":1321,"ay":1322,"1950":1323,"ca":1324,"nd":1325,"guÃł":1326,"chÃ¡n":1327,"300":1328,"wÄģ":1329,"1993":1330,"187":1331,"1949":1332,"pe":1333,"sÄģ":1334,"tiÇİo":1335,"AT":1336,"1960":1337,"biÇİn":1338,"42":1339,"1945":1340,"ing":1341,"guÃłi":1342,"au":1343,"kÇĶ":1344,"nÃº":1345,"1988":1346,"dÇĶ":1347,"1989":1348,"ig":1349,"pÃ¹":1350,"69":1351,"liÇĶ":1352,"gÇĴng":1353,"SEE":1354,"tuÃ²":1355,"amp":1356,"ct":1357,"liÇİo":1358,"INSEE":1359,"59":1360,"tÄģi":1361,"43":1362,"66":1363,"chuÃłn":1364,"op":1365,"chÃ¨n":1366,"os":1367,"57":1368,"1985":1369,"huÄģng":1370,"99":1371,"SA":1372,"ãĢİ":1373,"cÃ¹n":1374,"ãĢı":1375,"1984":1376,"hÃºn":1377,"41":1378,"pÅ«":1379,"ly":1380,"us":1381,"kÃ²u":1382,"fÃ©n":1383,"88":1384,"1986":1385,"rÇİo":1386,"mp":1387,"St":1388,"id":1389,"rÃ¹n":1390,"TV":1391,"150":1392,"zhuÅį":1393,"ind":1394,"400":1395,"sÇİn":1396,"1987":1397,"78":1398,"un":1399,"ed":1400,"ha":1401,"1982":1402,"56":1403,"Li":1404,"ur":1405,"ard":1406,"nuÃ³":1407,"1983":1408,"NA":1409,"gÇĶn":1410,"Ro":1411,"De":1412,"ss":1413,"mÄģ":1414,"tou":1415,"pÃ¬n":1416,"CD":1417,"chÅįu":1418,"ber":1419,"gÇĴu":1420,"quÇİn":1421,"Mi":1422,"77":1423,"zhÄģi":1424,"Me":1425,"qiÃł":1426,"mÄģo":1427,"qiÇİo":1428,"Mar":1429,"tw":1430,"kÅ«":1431,"kuÃ¡ng":1432,"rÃ³u":1433,"der":1434,"79":1435,"lÃ²u":1436,"OS":1437,"Â°":1438,"kuÃ¬":1439,"sÃłng":1440,"ï½":1441,"Al":1442,"180":1443,"ty":1444,"BC":1445,"54":1446,"1979":1447,"61":1448,"1920":1449,"ang":1450,"pÄĵn":1451,"98":1452,"sÄĵng":1453,"52":1454,"You":1455,"ap":1456,"1978":1457,"nÃ¹":1458,"wÄĵng":1459,"62":1460,"yÄĵ":1461,"duÇĴ":1462,"Le":1463,"53":1464,"xÇĲng":1465,"juÃłn":1466,"ï½ŀ":1467,"BA":1468,"ke":1469,"1946":1470,"ts":1471,"CO":1472,"mo":1473,"ction":1474,"51":1475,"1958":1476,"1981":1477,"Vi":1478,"1972":1479,"1948":1480,"zhuÃ¬":1481,"cÅįng":1482,"tÅįu":1483,"AM":1484,"hi":1485,"63":1486,"man":1487,"ows":1488,"AR":1489,"ry":1490,"1941":1491,"Wind":1492,"BS":1493,"wÃ¡":1494,"liÇİn":1495,"1930":1496,"Mo":1497,"Pro":1498,"luÇİn":1499,"kuÄģng":1500,"qÃº":1501,"tuÇĴ":1502,"kÃ©":1503,"76":1504,"hans":1505,"va":1506,"1940":1507,"1937":1508,"con":1509,"1976":1510,"zuÇĲ":1511,"1944":1512,"Jo":1513,"89":1514,"1975":1515,"um":1516,"ï¼ı":1517,"Te":1518,"1968":1519,"niÃ¡ng":1520,"pÃ³":1521,"shuÄģ":1522,"hk":1523,"yuÄģn":1524,"tÄģo":1525,"per":1526,"wÄģng":1527,"ga":1528,"1000":1529,"ran":1530,"Windows":1531,"95":1532,"Ne":1533,"bÃŃ":1534,"sÇİo":1535,"da":1536,"87":1537,"1966":1538,"85":1539,"fÃł":1540,"pÄĵng":1541,"600":1542,"lÃłn":1543,"Se":1544,"Sta":1545,"sp":1546,"120":1547,"1947":1548,"Ga":1549,"Ar":1550,"ot":1551,"gÄģ":1552,"1956":1553,"AC":1554,"1964":1555,"dÇİn":1556,"cÅ«":1557,"1942":1558,"1955":1559,"chÇĴu":1560,"lay":1561,"1952":1562,"1939":1563,"IS":1564,"1938":1565,"72":1566,"74":1567,"ht":1568,"rÄĽn":1569,"1973":1570,"ace":1571,"fi":1572,"1974":1573,"1954":1574,"qiÄĵ":1575,"ED":1576,"1900":1577,"--":1578,"Be":1579,"AP":1580,"ore":1581,"1943":1582,"1977":1583,"Da":1584,"1971":1585,"pÄ«n":1586,"pÇĴ":1587,"mÃ¡n":1588,"1967":1589,"shÃ©ng":1590,"ment":1591,"IC":1592,"800":1593,"ER":1594,"La":1595,"86":1596,"1959":1597,"bÄĵng":1598,"son":1599,"1965":1600,"JR":1601,"1969":1602,"Ra":1603,"duÄ«":1604,"Di":1605,"ok":1606,"pÃ©n":1607,"ãĥ»":1608,"ÃĹ":1609,"qiÃło":1610,"chuÄ«":1611,"ID":1612,"qiÄģo":1613,"Su":1614,"ine":1615,"1936":1616,"160":1617,"97":1618,"bÄĵn":1619,"zhuÄģ":1620,"ent":1621,"1953":1622,"Sa":1623,"1962":1624,"MA":1625,"Tu":1626,"tic":1627,"1961":1628,"lÇĴng":1629,"ation":1630,"âĶ":1631,"1935":1632,"tÃł":1633,"mÃ¡i":1634,"Sh":1635,"96":1636,"ON":1637,"ak":1638,"ï¼ħ":1639,"1951":1640,"1957":1641,"1963":1642,"Lo":1643,"âĶĢ":1644,"one":1645,"rou":1646,"84":1647,"Ja":1648,"2026":1649,"do":1650,"cÇİn":1651,"82":1652,"gi":1653,"bu":1654,"mer":1655,"73":1656,"po":1657,"94":1658,"tÅ«n":1659,"92":1660,"So":1661,"AN":1662,"IP":1663,"An":1664,"ho":1665,"ali":1666,"1933":1667,"Mu":1668,"1931":1669,"nÃ¡ng":1670,"niÃło":1671,"les":1672,"71":1673,"bÃ¡o":1674,"nuÇİn":1675,"lÃ©ng":1676,"pÃ¡":1677,"83":1678,"93":1679,"ai":1680,"We":1681,"81":1682,"dÇĴu":1683,"1918":1684,"sta":1685,"HD":1686,"Bo":1687,"sÄģo":1688,"Uni":1689,"1928":1690,"luÃ¡n":1691,"ki":1692,"1932":1693,"wi":1694,"nÃ¨n":1695,"col":1696,"int":1697,"MV":1698,"SS":1699,"our":1700,"110":1701,"tÃ¹":1702,"IT":1703,"1912":1704,"all":1705,"1929":1706,"tuÇĲ":1707,"duÃ²":1708,"1927":1709,"cn":1710,"1934":1711,"are":1712,"Pa":1713,"700":1714,"gÃ¡":1715,"che":1716,"by":1717,"ted":1718,"ster":1719,"huÇİng":1720,"Si":1721,"250":1722,"ff":1723,"91":1724,"mm":1725,"Par":1726,"zÃ©i":1727,"Ri":1728,"1924":1729,"pp":1730,"ph":1731,"...":1732,"1919":1733,"kuÄ«":1734,"He":1735,"so":1736,"xuÃłn":1737,"130":1738,"piÄģo":1739,"no":1740,"1925":1741,"PS":1742,"Play":1743,"pÄģo":1744,"140":1745,"xiÄģ":1746,"Bu":1747,"Ca":1748,"SM":1749,"Con":1750,"Sp":1751,"PC":1752,"1914":1753,"ble":1754,"ste":1755,"zhÇİi":1756,"km":1757,"DV":1758,"zhÄĵ":1759,"En":1760,"mes":1761,"YouTu":1762,"com":1763,"Ba":1764,"hÄĵ":1765,"Fi":1766,"Ti":1767,"diÄĵ":1768,"ell":1769,"gra":1770,"lÇİ":1771,"AS":1772,"ia":1773,"1911":1774,"Wi":1775,"shi":1776,"end":1777,"ill":1778,"nÃ¼Ã¨":1779,"ana":1780,"ara":1781,"Ge":1782,"1926":1783,"den":1784,"1922":1785,"Na":1786,"nÇİ":1787,"sion":1788,"hÃ¨n":1789,"1917":1790,"ET":1791,"NBA":1792,"IV":1793,"shuÃŃ":1794,"cÄģi":1795,"rÃ¡o":1796,"EN":1797,"1923":1798,"art":1799,"1921":1800,"fe":1801,"pÃ¨ng":1802,"sa":1803,"ka":1804,"kuÄģ":1805,"Goo":1806,"ther":1807,"chÇĴng":1808,"To":1809,"170":1810,"à¸":1811,"EC":1812,"ld":1813,"mÇİo":1814,"nÃ²ng":1815,"AL":1816,"Ha":1817,"MS":1818,"section":1819,"Ni":1820,"YouTube":1821,"EP":1822,"hn":1823,"BL":1824,"1913":1825,"tiÄģo":1826,"Ju":1827,"HK":1828,"ler":1829,"âĨ":1830,"hant":1831,"gÃ¹n":1832,"1909":1833,"gin":1834,"Inter":1835,"cro":1836,"Ste":1837,"MP":1838,"AI":1839,"Ho":1840,"gÄĽng":1841,"Wor":1842,"nÃło":1843,"Po":1844,"fÄĽng":1845,"Do":1846,"luÇĴ":1847,"US":1848,"ant":1849,"go":1850,"ya":1851,"DVD":1852,"ort":1853,"zÅįu":1854,"ris":1855,"3000":1856,"Pi":1857,"cÄģ":1858,"Car":1859,"1910":1860,"RO":1861,"DS":1862,"Th":1863,"112":1864,"AK":1865,"My":1866,"pen":1867,"RE":1868,"pro":1869,"ven":1870,"1916":1871,"Station":1872,"ãĥ¼":1873,"chuÃ²":1874,"Net":1875,"Î±":1876,"Ki":1877,"Sch":1878,"olo":1879,"No":1880,"ari":1881,"ture":1882,"gn":1883,"Lin":1884,"CP":1885,"UN":1886,"gle":1887,"âĪ":1888,"ers":1889,"hÃ©n":1890,"1915":1891,"oun":1892,"niÃłng":1893,"1905":1894,"FC":1895,"my":1896,"Lu":1897,"ll":1898,"Wil":1899,"CN":1900,"âĦ":1901,"âĨĴ":1902,"1901":1903,"Fa":1904,"Au":1905,"ting":1906,"New":1907,"DNA":1908,"Ex":1909,"âĢ§":1910,"ary":1911,"900":1912,"Ph":1913,"sic":1914,"HR":1915,"dice":1916,"sis":1917,".&":1918,"CH":1919,"zÄĽn":1920,"TA":1921,"dia":1922,"Qu":1923,"TO":1924,"1906":1925,"len":1926,"1904":1927,"chuÇİng":1928,"AV":1929,"For":1930,"gÄĽn":1931,"John":1932,"we":1933,"ere":1934,"And":1935,"MO":1936,"ding":1937,"codice":1938,"chÇİo":1939,"jiÇĴng":1940,"âĦĥ":1941,"Ta":1942,"pa":1943,"ps":1944,"PlayStation":1945,"fu":1946,"ko":1947,"wÃł":1948,"bÃ¨ng":1949,"05":1950,"CC":1951,"ton":1952,"vo":1953,"eri":1954,"diÅ«":1955,"1907":1956,"1908":1957,"Google":1958,"AG":1959,"EST":1960,"MI":1961,"zuÃłn":1962,"SO":1963,"ory":1964,"tes":1965,"LE":1966,"Gu":1967,"jiÃ¡":1968,"zuÇİn":1969,"cy":1970,"lÄ«":1971,"chi":1972,"ley":1973,"BO":1974,"enter":1975,"BBC":1976,"AD":1977,"IG":1978,"cal":1979,"III":1980,"Cu":1981,"cri":1982,"oft":1983,"1500":1984,"Ru":1985,"lin":1986,"5000":1987,"ori":1988,"zuÄģn":1989,"pu":1990,"Go":1991,"IST":1992,"shÄĵ":1993,"lÇĺ":1994,"Fe":1995,"Col":1996,"wor":1997,"Sy":1998,"Ka":1999,"ME":2000,"tive":2001,"CR":2002,"gen":2003,"3D":2004,"wit":2005,"round":2006,"IA":2007,"guÇİ":2008,"105":2009,"je":2010,"ron":2011,"mÃł":2012,"Ð°":2013,"101":2014,"1903":2015,"GB":2016,"pÄ«ng":2017,"cha":2018,"shÃ¡":2019,"lan":2020,"09":2021,"TE":2022,"ree":2023,"Ad":2024,"Hu":2025,"cÃłn":2026,"cÃ©n":2027,"1902":2028,"BD":2029,"NC":2030,"land":2031,"can":2032,"ze":2033,"own":2034,"ess":2035,"pÄģng":2036,"xt":2037,"350":2038,"wa":2039,"ina":2040,"SAO":2041,"shÃ¡o":2042,"DC":2043,"net":2044,"span":2045,"des":2046,"Î²":2047,"ght":2048,"lÃ¬n":2049,"ence":2050,"B1900":2051,"inc":2052,"book":2053,"del":2054,"ES":2055,"BM":2056,"ï¼İ":2057,"dy":2058,"ãĥ³":2059,"Hi":2060,"1898":2061,"06":2062,"118":2063,"Pe":2064,"ms":2065,"ãģ®":2066,"lÃ¡":2067,"pt":2068,"qÇĲn":2069,"tel":2070,"360":2071,"DR":2072,"mon":2073,"01":2074,"DA":2075,"gh":2076,"Open":2077,"1895":2078,"lÃło":2079,"yle":2080,"125":2081,"mÃº":2082,"lar":2083,"bÃ¨n":2084,"HO":2085,"Ko":2086,"MC":2087,"ance":2088,"ATP":2089,"Micro":2090,"Ð¾":2091,"108":2092,"gy":2093,"NG":2094,"pÅįu":2095,"igh":2096,"sy":2097,"cor":2098,"tt":2099,"dio":2100,"Ke":2101,"qiÃ©":2102,"za":2103,"App":2104,"Pu":2105,"ning":2106,"gram":2107,"IF":2108,"Fran":2109,"ft":2110,"res":2111,"Com":2112,"tin":2113,"âĪĴ":2114,"07":2115,"08":2116,"230":2117,"Face":2118,"104":2119,"Du":2120,"ref":2121,"One":2122,"World":2123,"old":2124,"Ser":2125,"soft":2126,"EDT":2127,"ISTAT":2128,"Mon":2129,"Stu":2130,"shÄģi":2131,"sÇĴng":2132,"à¤":2133,"NO":2134,"ner":2135,"1896":2136,"Cor":2137,"LL":2138,"Bi":2139,"ger":2140,"lus":2141,"109":2142,"DP":2143,"yÅ«":2144,"las":2145,"AA":2146,"fli":2147,"Comp":2148,"rea":2149,"gÄĽ":2150,"RI":2151,"vel":2152,"ren":2153,"line":2154,"RT":2155,"suÇĲ":2156,"SP":2157,"xiÃ¡o":2158,"qiÇİ":2159,"EX":2160,"rÄĽ":2161,"Bar":2162,"Bri":2163,"ling":2164,"bert":2165,"B48":2166,"106":2167,"1890":2168,"ctor":2169,"CST":2170,"San":2171,"ML":2172,"CDT":2173,"Love":2174,"ity":2175,"mar":2176,"zÄģng":2177,"row":2178,"DO":2179,"with":2180,"HE":2181,"fa":2182,"Per":2183,"pÄĵi":2184,"ward":2185,"Har":2186,"Man":2187,"ds":2188,"tional":2189,"tain":2190,"ja":2191,"04":2192,"4000":2193,"115":2194,"cuÃłn":2195,"1200":2196,"ky":2197,"ux":2198,"ound":2199,"ight":2200,"M1":2201,"03":2202,"GP":2203,"pÃ¡o":2204,"CE":2205,"back":2206,"1889":2207,"begin":2208,"Je":2209,"1899":2210,"ool":2211,"colspan":2212,"1871":2213,"ring":2214,"Ed":2215,"RS":2216,"ower":2217,"mic":2218,"Facebook":2219,"lude":2220,"Willi":2221,"Microsoft":2222,"âĢĭ":2223,"240":2224,"tur":2225,"Mac":2226,"1600":2227,"LO":2228,"Live":2229,"BE":2230,"cket":2231,"102":2232,"cc":2233,"ker":2234,"box":2235,"TT":2236,"1897":2237,"Gi":2238,"NH":2239,"EE":2240,"chÃ²u":2241,"Pre":2242,"Tri":2243,"117":2244,"On":2245,"PP":2246,"qÃ¬n":2247,"ks":2248,"Is":2249,"SC":2250,"02":2251,"van":2252,"cm":2253,"shuÇİng":2254,"style":2255,"mb":2256,"103":2257,"AKB48":2258,"MD":2259,"yÇİo":2260,"107":2261,"Gra":2262,"bli":2263,"Music":2264,"Gre":2265,"ood":2266,"cÃ²u":2267,"Linux":2268,"include":2269,"Dis":2270,"Or":2271,"Tra":2272,"Pri":2273,"tÇİng":2274,"ww":2275,"Nor":2276,"pha":2277,"min":2278,"Ori":2279,"ye":2280,"only":2281,"450":2282,"VID":2283,"tus":2284,"127":2285,"mas":2286,"tra":2287,"Davi":2288,"que":2289,"ane":2290,"128":2291,"align":2292,"lÄģo":2293,"lis":2294,"ous":2295,"Game":2296,"flix":2297,"CL":2298,"ora":2299,"Netflix":2300,"El":2301,"1894":2302,"220":2303,"rin":2304,"Ber":2305,"Ð½":2306,"ser":2307,"William":2308,"IL":2309,"Vo":2310,"SH":2311,"sti":2312,"rom":2313,"Twit":2314,"1880":2315,"Red":2316,"yi":2317,"RNA":2318,"zÃ¡o":2319,"136":2320,"PG":2321,"Fu":2322,"Ð¸":2323,"ero":2324,"ãģĦ":2325,"TR":2326,"stra":2327,"Team":2328,"1800":2329,"Wa":2330,"ãĤ¹":2331,"Univer":2332,"ground":2333,"tor":2334,"1885":2335,"nge":2336,"liÇİ":2337,"114":2338,"ano":2339,"ãĤĵ":2340,"piÃ¡n":2341,"rus":2342,"Hz":2343,"Ty":2344,"Char":2345,"color":2346,"116":2347,"280":2348,"name":2349,"Star":2350,"Eu":2351,"Gen":2352,"UR":2353,"hy":2354,"Ðµ":2355,"113":2356,"era":2357,"lla":2358,"1886":2359,"sing":2360,"ãĤ¤":2361,"TS":2362,"ten":2363,"School":2364,"PO":2365,"mÇİng":2366,"lass":2367,"1893":2368,"irl":2369,"Bla":2370,"Mc":2371,"ex":2372,"nic":2373,"out":2374,"111":2375,"Mark":2376,"SL":2377,"irst":2378,"ãĦ":2379,"cial":2380,"Super":2381,"Don":2382,"ac":2383,"Wal":2384,"ject":2385,"lex":2386,"mÇĴ":2387,"ans":2388,"âĢ»":2389,"tri":2390,"lia":2391,"ie":2392,"mÅį":2393,"135":2394,"David":2395,"260":2396,"1860":2397,"national":2398,"Geor":2399,"Mor":2400,"ys":2401,"nÃŃn":2402,"gue":2403,"tle":2404,"any":2405,"Pet":2406,"WTA":2407,"way":2408,"roup":2409,"HC":2410,"Mat":2411,"nis":2412,"ces":2413,"UA":2414,"Un":2415,"was":2416,"ouse":2417,"ham":2418,"1888":2419,"Ac":2420,"text":2421,"SD":2422,"-.":2423,"cation":2424,"Bra":2425,"ony":2426,"roid":2427,"background":2428,"yÅ«n":2429,"dÇİi":2430,"ream":2431,"Show":2432,"129":2433,"GO":2434,"om":2435,"chÄĵn":2436,"1870":2437,"stri":2438,"GN":2439,"ï¹":2440,"Che":2441,"nia":2442,"1887":2443,"bur":2444,"don":2445,"pri":2446,"shuÄģn":2447,"1868":2448,"6000":2449,"cle":2450,"Ã¶":2451,"ÑĢ":2452,"1883":2453,"Cy":2454,"NF":2455,"VA":2456,"lub":2457,"meri":2458,"Ku":2459,"ank":2460,"Meta":2461,"320":2462,"Ab":2463,"Xbox":2464,"CS":2465,"NHK":2466,"AF":2467,"DD":2468,"Twitter":2469,"KP":2470,"ny":2471,"onlyinclude":2472,"Tho":2473,"ens":2474,"piÃ¡o":2475,"++":2476,"bit":2477,"tÃłng":2478,"1864":2479,"âĢ¢":2480,"ION":2481,"1884":2482,"119":2483,"RC":2484,"UE":2485,"tis":2486,"122":2487,"Cl":2488,"2500":2489,"1892":2490,"210":2491,"A1":2492,"ong":2493,"ins":2494,"Wh":2495,"center":2496,"let":2497,"miÃ¹":2498,"155":2499,"Sou":2500,"ISO":2501,"âħ":2502,"145":2503,"1891":2504,"650":2505,"pre":2506,"Android":2507,"Girl":2508,"sel":2509,"NS":2510,"car":2511,"vil":2512,"ãĢķ":2513,"sil":2514,"OR":2515,"yo":2516,"As":2517,"ãĢĶ":2518,"1850":2519,"ona":2520,"cuÅį":2521,"htt":2522,"red":2523,"low":2524,"xy":2525,"ensis":2526,"International":2527,"Day":2528,"cer":2529,"mÄ«":2530,"1867":2531,"stem":2532,"IM":2533,"pÃłng":2534,"ãĥĪ":2535,"All":2536,"Nation":2537,"sed":2538,"1879":2539,"mber":2540,"James":2541,"Enter":2542,"War":2543,"ffi":2544,"380":2545,"AB":2546,"UP":2547,"dis":2548,"1876":2549,"Coun":2550,"Ver":2551,"Universi":2552,"im":2553,"vin":2554,"George":2555,"Her":2556,"1875":2557,"1861":2558,"270":2559,"Dra":2560,"td":2561,"lie":2562,"sia":2563,"eld":2564,"Air":2565,"Group":2566,"IR":2567,"cho":2568,"time":2569,"126":2570,"ama":2571,"NT":2572,"Pau":2573,"lor":2574,"inter":2575,"Ani":2576,"Spe":2577,"Games":2578,"NGC":2579,"Hy":2580,"stru":2581,"ãĥ«":2582,"1873":2583,"Hol":2584,"MG":2585,"123":2586,"ãĥ©":2587,"Eng":2588,"PV":2589,"Ben":2590,"HT":2591,"val":2592,"Colle":2593,"day":2594,"MB":2595,"168":2596,"COVID":2597,"critic":2598,"Club":2599,"FM":2600,"Hen":2601,"lue":2602,"1865":2603,"ild":2604,"AO":2605,"PL":2606,"that":2607,"ass":2608,"Ameri":2609,"DE":2610,"121":2611,"Center":2612,"ut":2613,"cus":2614,"Blo":2615,"175":2616,"ãģĨ":2617,"Web":2618,"H2":2619,"YP":2620,"from":2621,"Ã¤":2622,"1400":2623,"Ali":2624,"od":2625,"MAX":2626,"work":2627,"par":2628,"138":2629,"228":2630,"TP":2631,"fer":2632,"1848":2633,"chÃłn":2634,"ast":2635,"ald":2636,"ney":2637,"liÅ«":2638,"1862":2639,"330":2640,"dge":2641,"pÄĽng":2642,"124":2643,"ãĤ¢":2644,"1881":2645,"1882":2646,"737":2647,"age":2648,"Can":2649,"1878":2650,"550":2651,"Sha":2652,"guÇİi":2653,"ruÇĲ":2654,"1872":2655,"Ele":2656,"LC":2657,"bÃ¬n":2658,"INK":2659,"Metacritic":2660,"Oricon":2661,"bor":2662,"nÃ¡o":2663,"156":2664,"MTV":2665,"UC":2666,"bri":2667,"165":2668,"comp":2669,"Boo":2670,"LED":2671,"fo":2672,"1840":2673,"niÇİn":2674,"IVE":2675,"High":2676,"Spi":2677,"core":2678,"dÄģi":2679,"wan":2680,"750":2681,"It":2682,"ns":2683,"tro":2684,"shÃłi":2685,"ãĥĥ":2686,"ology":2687,"ming":2688,"1300":2689,"ãģĹ":2690,"137":2691,"stagram":2692,"7000":2693,"Bro":2694,"DOS":2695,"SQ":2696,"UB":2697,"229":2698,"IU":2699,"cre":2700,"zo":2701,"Chu":2702,"GDP":2703,"King":2704,"OK":2705,"Ñģ":2706,"ena":2707,"Lea":2708,"She":2709,"rand":2710,"152":2711,"als":2712,"Stre":2713,"TVB":2714,"Micha":2715,"Va":2716,"lip":2717,"159":2718,"1877":2719,"Robert":2720,"type":2721,"Sur":2722,"âĹ":2723,"kuÇĲ":2724,"1866":2725,"rist":2726,"Chi":2727,"Chris":2728,"Pat":2729,"iOS":2730,"Ð»":2731,"oly":2732,"Produ":2733,"SK":2734,"1869":2735,"âĢ²":2736,"silver":2737,"THE":2738,"Up":2739,"Ce":2740,"DM":2741,"gar":2742,"her":2743,"sen":2744,"xiÇĶ":2745,"Fri":2746,"NET":2747,"Pla":2748,"Ðº":2749,"she":2750,"139":2751,"Instagram":2752,"Phone":2753,"BI":2754,"star":2755,"BLAC":2756,"Type":2757,"Big":2758,"por":2759,"Ð²":2760,"DJ":2761,"rÄĵng":2762,"iss":2763,"Apple":2764,"CG":2765,"Hel":2766,"WE":2767,"ew":2768,"ray":2769,"ãĤ¯":2770,"code":2771,"Michael":2772,"At":2773,"DF":2774,"ï¸":2775,"ark":2776,"alk":2777,"1100":2778,"158":2779,"ons":2780,"ator":2781,"Tech":2782,"Paul":2783,"225":2784,"305":2785,"133":2786,"INE":2787,"cia":2788,"RA":2789,"sÇİ":2790,"ãĥª":2791,"Award":2792,"HI":2793,"YO":2794,"132":2795,"Steam":2796,"205":2797,"1863":2798,"Park":2799,"National":2800,"Bill":2801,"Ye":2802,"tainment":2803,"215":2804,"Ci":2805,"bra":2806,"sto":2807,"new":2808,"University":2809,"FO":2810,"ral":2811,"Media":2812,"CA":2813,"F1":2814,"KBS":2815,"Val":2816,"148":2817,"131":2818,"Lou":2819,"Smi":2820,"166":2821,"arch":2822,"1874":2823,"sso":2824,"EF":2825,"Mer":2826,"XX":2827,"bal":2828,"kg":2829,"now":2830,"1858":2831,"Fin":2832,"Kar":2833,"Tran":2834,"gon":2835,"ves":2836,"147":2837,"space":2838,"Black":2839,"Ter":2840,"ach":2841,"gan":2842,"Peter":2843,"Gar":2844,"deo":2845,"256":2846,"ãģĭ":2847,"GA":2848,"IE":2849,"M2":2850,"kÇĶn":2851,"1830":2852,"Rich":2853,"CBS":2854,"UT":2855,"1851":2856,"Lee":2857,"BN":2858,"UI":2859,"192":2860,"zer":2861,"Î¼":2862,"ada":2863,"8000":2864,"chÄĽ":2865,"Jack":2866,"Entertainment":2867,"310":2868,"Jap":2869,"Win":2870,"lÇĲn":2871,"bin":2872,"mini":2873,"143":2874,"set":2875,"City":2876,"Mk":2877,"gÃłng":2878,"1855":2879,"rie":2880,"ater":2881,"Intel":2882,"Power":2883,"EM":2884,"IX":2885,"Sam":2886,"hÇİ":2887,"Space":2888,"RAM":2889,"ð«":2890,"185":2891,"1859":2892,"zuÃ³":2893,"STAR":2894,"ship":2895,"Charles":2896,"bel":2897,"py":2898,"134":2899,"Dire":2900,"Ang":2901,"ABC":2902,"Fla":2903,"ene":2904,"1854":2905,"146":2906,"301":2907,"enti":2908,"1700":2909,"Viu":2910,"Java":2911,"370":2912,"if":2913,"1857":2914,"Free":2915,"GM":2916,"Py":2917,"Tai":2918,"whi":2919,"stro":2920,"vs":2921,"Ø§":2922,"ann":2923,"290":2924,"ãģª":2925,"Life":2926,"ï¸°":2927,"Er":2928,"Pan":2929,"Ve":2930,"Î³":2931,"214":2932,"420":2933,"Dream":2934,"Ya":2935,"ÑĤ":2936,"Recor":2937,"Alpha":2938,"Company":2939,"stitu":2940,"ek":2941,"fang":2942,"face":2943,"Î¿":2944,"ãĢľ":2945,"mis":2946,"1856":2947,"1853":2948,"Project":2949,"Am":2950,"House":2951,"Pop":2952,"first":2953,"dium":2954,"ãģŁ":2955,"ety":2956,"Time":2957,"Thomas":2958,"Cal":2959,"Min":2960,"ae":2961,"ox":2962,"von":2963,"vis":2964,"144":2965,"Saint":2966,"FA":2967,"Ken":2968,"OVA":2969,"Cent":2970,"Tru":2971,"VO":2972,"bÃ²":2973,"A2":2974,"IO":2975,"167":2976,"Street":2977,"3A":2978,"HS":2979,"SBS":2980,"shÇİ":2981,"bili":2982,"kuÇİ":2983,"1841":2984,"very":2985,"Alex":2986,"Bat":2987,"LP":2988,"Lau":2989,"Tor":2990,"din":2991,"ric":2992,"340":2993,"PM":2994,"Por":2995,"Shi":2996,"chuÇİn":2997,"mat":2998,"mation":2999,"BLACKP":3000,"Met":3001,"ple":3002,"zÄģ":3003,"208":3004,"1815":3005,"178":3006,"CPU":3007,"BLACKPINK":3008,"223":3009,"Bur":3010,"cis":3011,"mÃ¨n":3012,"Soci":3013,"Studio":3014,"Euro":3015,"850":3016,"LGB":3017,"Sing":3018,"pla":3019,"cher":3020,"zuÅį":3021,"ses":3022,"Rock":3023,"www":3024,"IBM":3025,"spe":3026,"SF":3027,"207":3028,"die":3029,"play":3030,"sg":3031,"nie":3032,"171":3033,"235":3034,"tation":3035,"ãģ¨":3036,"ãģ¾":3037,"Dig":3038,"Fer":3039,"LIVE":3040,"Mr":3041,"PE":3042,"SU":3043,"VE":3044,"Yu":3045,"nÃ¬ng":3046,"203":3047,"B2":3048,"Whi":3049,"not":3050,"Art":3051,"SQL":3052,"Pad":3053,"1846":3054,"164":3055,"ford":3056,"oot":3057,"College":3058,"bre":3059,"cra":3060,"157":3061,"vice":3062,"berg":3063,"publi":3064,"BR":3065,"LT":3066,"NE":3067,"lit":3068,"141":3069,"ICE":3070,"B1":3071,"Cro":3072,"Cap":3073,"Sun":3074,"ond":3075,"176":3076,"thy":3077,"ING":3078,"board":3079,"Inc":3080,"Tele":3081,"American":3082,"Asso":3083,"LS":3084,"hÄģn":3085,"you":3086,"Â²":3087,"1812":3088,"1845":3089,"1844":3090,"sign":3091,"Road":3092,"Girls":3093,"self":3094,"Ze":3095,"sch":3096,"mit":3097,"231":3098,"Offi":3099,"cture":3100,"class":3101,"HF":3102,"Ltd":3103,"M3":3104,"Mil":3105,"Ros":3106,"ãĤĬ":3107,"witch":3108,"LGBT":3109,"Ag":3110,"ball":3111,"209":3112,"cess":3113,"ãģį":3114,"off":3115,"NASA":3116,"GNU":3117,"LA":3118,"wÄģi":3119,"ded":3120,"Jose":3121,"Smith":3122,"Cla":3123,"Ger":3124,"PA":3125,"Pra":3126,"ampi":3127,"IUCN":3128,"216":3129,"PN":3130,"Îº":3131,"1849":3132,"153":3133,"temp":3134,"ved":3135,"Good":3136,"CT":3137,"Fil":3138,"NBC":3139,"Tour":3140,"wh":3141,"zhÇĴu":3142,"sha":3143,"204":3144,"238":3145,"aurus":3146,"Production":3147,"BB":3148,"Cra":3149,"Gal":3150,"Hall":3151,"Sci":3152,"nal":3153,"oi":3154,"yn":3155,"vision":3156,"Video":3157,"Gala":3158,"GT":3159,"O2":3160,"lÄĵ":3161,"pm":3162,"ue":3163,"Ïĥ":3164,"mited":3165,"orts":3166,"ino":3167,"tions":3168,"Eli":3169,"PR":3170,"Sky":3171,"tal":3172,"206":3173,"lea":3174,"qui":3175,"mac":3176,"460":3177,"ab":3178,"mal":3179,"win":3180,"1814":3181,"org":3182,"218":3183,"ani":3184,"fra":3185,"eries":3186,"Richard":3187,"SI":3188,"lti":3189,"war":3190,"chÇĶn":3191,"rich":3192,"ange":3193,"IGN":3194,"Act":3195,"LD":3196,"âĸ":3197,"pic":3198,"Boy":3199,"Far":3200,"Tur":3201,"WS":3202,"ÏĢ":3203,"def":3204,"1847":3205,"154":3206,"turn":3207,"580":3208,"Ama":3209,"FF":3210,"bun":3211,"ep":3212,"fri":3213,"led":3214,"1843":3215,"mann":3216,"Best":3217,"phy":3218,"System":3219,"ptr":3220,"430":3221,"Mas":3222,"MBC":3223,"Plan":3224,"zz":3225,"177":3226,"401":3227,"chem":3228,"410":3229,"Bel":3230,"Sal":3231,"ãĤ·":3232,"NFL":3233,"ViuTV":3234,"Switch":3235,"Wo":3236,"king":3237,"163":3238,"AMD":3239,"API":3240,"West":3241,"Japan":3242,"ICO":3243,"bar":3244,"bus":3245,"up":3246,"ments":3247,"1852":3248,"162":3249,"thon":3250,"esti":3251,"Christ":3252,"cript":3253,"VII":3254,"1820":3255,"orn":3256,"get":3257,"this":3258,"ãģı":3259,"Max":3260,"Fre":3261,"Prin":3262,"cil":3263,"142":3264,"234":3265,"ria":3266,"Roy":3267,"VR":3268,"172":3269,"ãģĬ":3270,"ãģķ":3271,"Records":3272,"640":3273,"Dan":3274,"Squ":3275,"Vir":3276,"wood":3277,"169":3278,"3500":3279,"Limited":3280,"Core":3281,"KC":3282,"T1":3283,"gs":3284,"phi":3285,"Â±":3286,"1839":3287,"ars":3288,"232":3289,"data":3290,"480":3291,"CM":3292,"cÄ«":3293,"179":3294,"thi":3295,"cade":3296,"ful":3297,"2030":3298,"eni":3299,"149":3300,"max":3301,"365":3302,"Institu":3303,"How":3304,"var":3305,"1821":3306,"ãĥŃ":3307,"ãģ¿":3308,"Cha":3309,"aya":3310,"Unicode":3311,"ROM":3312,"CCTV":3313,"390":3314,"BU":3315,"Res":3316,"Vol":3317,"XP":3318,"ness":3319,"tv":3320,"306":3321,"alo":3322,"222":3323,"601":3324,"unch":3325,"Fan":3326,"tube":3327,"173":3328,"itch":3329,"Bob":3330,"EA":3331,"PF":3332,"247":3333,"ital":3334,"Camp":3335,"KK":3336,"lian":3337,"ping":3338,"1790":3339,"ders":3340,"211":3341,"560":3342,"Fun":3343,"OH":3344,"SN":3345,"kh":3346,"wid":3347,"ord":3348,"ãĥ¬":3349,"ciation":3350,"BF":3351,"Es":3352,"Top":3353,"VM":3354,"tran":3355,"Force":3356,"Hot":3357,"MU":3358,"PD":3359,"PH":3360,"Sir":3361,"shuÇİ":3362,"183":3363,"1795":3364,"303":3365,"rew":3366,"âĹĭ":3367,"use":3368,"lum":3369,"233":3370,"search":3371,"ãģ¡":3372,"1801":3373,"213":3374,"Tok":3375,"wÃ¨ng":3376,"ãĥŀ":3377,"USB":3378,"dra":3379,"sub":3380,"174":3381,"run":3382,"Mag":3383,"MVP":3384,"CK":3385,"lli":3386,"zon":3387,"Ïģ":3388,"áĢ":3389,"ìĿ":3390,"186":3391,"1838":3392,"ors":3393,"Store":3394,"key":3395,"Heart":3396,"Direct":3397,"520":3398,"Bank":3399,"DDR":3400,"Glo":3401,"Zi":3402,"zy":3403,"mily":3404,"cker":3405,"Jean":3406,"610":3407,"Fle":3408,"iPad":3409,"rÇĴng":3410,"bile":3411,"161":3412,"501":3413,"ãĥī":3414,"Home":3415,"http":3416,"224":3417,"CF":3418,"Pen":3419,"ele":3420,"mg":3421,"sur":3422,"tia":3423,"1813":3424,"ãĤī":3425,"Phil":3426,"GE":3427,"Lon":3428,"kin":3429,"tz":3430,"ÏĦ":3431,"ense":3432,"182":3433,"1832":3434,"1842":3435,"lation":3436,"255":3437,"its":3438,"Society":3439,"AE":3440,"Gold":3441,"Han":3442,"Sco":3443,"fter":3444,"iPhone":3445,"184":3446,"ãĤ«":3447,"los":3448,"Mini":3449,"Data":3450,"720":3451,"KI":3452,"Script":3453,"dd":3454,"ise":3455,"âĺ":3456,"1836":3457,"late":3458,"1793":3459,"ãĤª":3460,"Comic":3461,"ving":3462,"Muse":3463,"KiHa":3464,"buntu":3465,"221":3466,"Cri":3467,"Dr":3468,"HBO":3469,"MT":3470,"Mel":3471,"Tun":3472,"gre":3473,"hÇĴu":3474,"tian":3475,"1833":3476,"nity":3477,"1789":3478,"tics":3479,"River":3480,"ount":3481,"https":3482,"Association":3483,"Galaxy":3484,"Bay":3485,"DAM":3486,"M4":3487,"QQ":3488,"cl":3489,"fin":3490,"nga":3491,"ties":3492,"1835":3493,"151":3494,"tho":3495,"ãĤ¿":3496,"ady":3497,"219":3498,"217":3499,"338":3500,"Cry":3501,"FT":3502,"JYP":3503,"Rap":3504,"SR":3505,"Ubuntu":3506,"WA":3507,"fy":3508,"lon":3509,"ðĲ":3510,"shang":3511,"âĢ°":3512,"tha":3513,"Martin":3514,"1804":3515,"ONE":3516,"CEO":3517,"width":3518,"470":3519,"740":3520,"830":3521,"nt":3522,"light":3523,"form":3524,"Tom":3525,"Henry":3526,"League":3527,"YG":3528,"dro":3529,"well":3530,"ÏĤ":3531,"Ð´":3532,"âī":3533,"Champi":3534,"Master":3535,"Gener":3536,"Ear":3537,"Fra":3538,"LINE":3539,"Phi":3540,"Vil":3541,"gÃł":3542,"uni":3543,"Î½":3544,"chel":3545,"mus":3546,"amer":3547,"top":3548,"ART":3549,"Green":3550,"ville":3551,"212":3552,"DK":3553,"cti":3554,"has":3555,"nm":3556,"Ñĥ":3557,"less":3558,"1828":3559,"ãĤ³":3560,"oper":3561,"APAN":3562,"rown":3563,"Dy":3564,"Dou":3565,"FR":3566,"Mana":3567,"Night":3568,"Pin":3569,"ag":3570,"har":3571,"oni":3572,"191":3573,"dit":3574,"302":3575,"table":3576,"Billboard":3577,"Office":3578,"680":3579,"Br":3580,"Bal":3581,"Jan":3582,"MHz":3583,"PI":3584,"SNH":3585,"ban":3586,"bro":3587,"kar":3588,"Î¹":3589,"181":3590,"1624":3591,"sts":3592,"237":3593,"side":3594,"main":3595,"ãĤĭ":3596,"China":3597,"Code":3598,"Young":3599,"cond":3600,"Note":3601,"Joseph":3602,"SNH48":3603,"Bir":3604,"Des":3605,"FDA":3606,"JAPAN":3607,"Ob":3608,"PK":3609,"à¹":3610,"á¹":3611,"1644":3612,"308":3613,"ston":3614,"Stra":3615,"COM":3616,"tical":3617,"Pala":3618,"440":3619,"DB":3620,"GR":3621,"Van":3622,"hun":3623,"tuÃŃ":3624,"10000":3625,"1837":3626,"239":3627,"than":3628,"rick":3629,"1806":3630,"Long":3631,"Song":3632,"United":3633,"Part":3634,"macOS":3635,"CV":3636,"East":3637,"MW":3638,"U21":3639,"Ã¢":3640,"Ã®":3641,"Î´":3642,"à¥":3643,"âĳ":3644,"1819":3645,"299":3646,"346":3647,"HTML":3648,"annel":3649,"780":3650,"Hill":3651,"Tw":3652,"Ten":3653,"Talk":3654,"jo":3655,"port":3656,"1825":3657,"245":3658,"236":3659,"505":3660,"279":3661,"ãģ«":3662,"Radio":3663,"Digital":3664,"540":3665,"Down":3666,"EV":3667,"H5":3668,"Ji":3669,"rpm":3670,"wn":3671,"lic":3672,"chÃ²ng":3673,"sian":3674,"ella":3675,"News":3676,"325":3677,"Cat":3678,"Pas":3679,"001":3680,"1776":3681,"right":3682,"ãģĺ":3683,"long":3684,"but":3685,"dent":3686,"NCAA":3687,"Server":3688,"FAT":3689,"Sil":3690,"1818":3691,"265":3692,"ãģĵ":3693,"ned":3694,"Que":3695,"Hello":3696,"Ban":3697,"Bru":3698,"Dri":3699,"Nu":3700,"Ven":3701,"Wat":3702,"1824":3703,"1831":3704,"2027":3705,"Cho":3706,"Hist":3707,"Kong":3708,"Em":3709,"GS":3710,"RPG":3711,"pr":3712,"Ã§":3713,"Ã´":3714,"tum":3715,"med":3716,"386":3717,"Child":3718,"Service":3719,"âħ¡":3720,"UM":3721,"bet":3722,"hur":3723,"sual":3724,"rome":3725,"via":3726,"BSD":3727,"Frank":3728,"Island":3729,"Python":3730,"public":3731,"Science":3732,"1A":3733,"Blue":3734,"CW":3735,"Fore":3736,"XML":3737,"clo":3738,"Î»":3739,"275":3740,"2700":3741,"anda":3742,"Youtube":3743,"Jump":3744,"Edward":3745,"Under":3746,"White":3747,"312":3748,"5G":3749,"730":3750,"Bor":3751,"First":3752,"Grand":3753,"HL":3754,"OM":3755,"Poly":3756,"TBS":3757,"hÄģo":3758,"nes":3759,"rey":3760,"264":3761,"295":3762,"1802":3763,"BLUE":3764,"Institute":3765,"Champion":3766,"630":3767,"Hor":3768,"Out":3769,"Sum":3770,"TM":3771,"ben":3772,"fun":3773,"sus":3774,"1822":3775,"niÄĵ":3776,"288":3777,"ration":3778,"ãĤ¸":3779,"aka":3780,"Envi":3781,"Cas":3782,"Lan":3783,"Les":3784,"Os":3785,"other":3786,"plo":3787,"pop":3788,"ÙĦ":3789,"list":3790,"lang":3791,"ared":3792,"244":3793,"ãĥķ":3794,"vate":3795,"ITF":3796,"2D":3797,"Gro":3798,"JT":3799,"Sof":3800,"cent":3801,"em":3802,"xel":3803,"launch":3804,"249":3805,"903":3806,"North":3807,"Square":3808,"OT":3809,"PID":3810,"Series":3811,"ul":3812,"zation":3813,"Å¡":3814,"243":3815,"2800":3816,"Your":3817,"Hong":3818,"This":3819,"Cup":3820,"FX":3821,"Lang":3822,"NP":3823,"__":3824,"hr":3825,"1810":3826,"1622":3827,"1792":3828,"307":3829,"return":3830,"tas":3831,"701":3832,"SARS":3833,"POP":3834,"Techn":3835,"960":3836,"Cur":3837,"Ham":3838,"Ray":3839,"Sig":3840,"SHO":3841,"VV":3842,"ob":3843,"pÇİi":3844,"vy":3845,"Îµ":3846,"1650":3847,"801":3848,"view":3849,"Network":3850,"MIUI":3851,"burg":3852,"Tunes":3853,"2100":3854,"Pal":3855,"Ur":3856,"part":3857,"Ð¼":3858,"1826":3859,"anti":3860,"1573":3861,"oud":3862,"ason":3863,"cing":3864,"have":3865,"747":3866,"Cle":3867,"Jour":3868,"imp":3869,"tual":3870,"1834":3871,"304":3872,"ould":3873,"226":3874,"278":3875,"lta":3876,"ãĥŁ":3877,"ãĤĤ":3878,"375":3879,"add":3880,"1805":3881,"ACT":3882,"APP":3883,"AIR":3884,"ologi":3885,"Block":3886,"HA":3887,"Ly":3888,"Yo":3889,"hel":3890,"ii":3891,"rd":3892,"chen":3893,"007":3894,"oro":3895,"296":3896,"298":3897,"sig":3898,"385":3899,"ATA":3900,"Model":3901,"gain":3902,"Dani":3903,"Studi":3904,"335":3905,"590":3906,"9000":3907,"CU":3908,"Now":3909,"Ry":3910,"Ram":3911,"WN":3912,"ml":3913,"non":3914,"oc":3915,"Ïī":3916,"âĭ":3917,"ork":3918,"1780":3919,"ress":3920,"227":3921,"ãĥł":3922,"olf":3923,"map":3924,"May":3925,"Real":3926,"Sports":3927,"dings":3928,"IFA":3929,"315":3930,"Gil":3931,"Jon":3932,"Op":3933,"Sc":3934,"had":3935,"iTunes":3936,"ken":3937,"Â»":3938,"251":3939,"ough":3940,"277":3941,"ato":3942,"oney":3943,"CNN":3944,"2A":3945,"Dar":3946,"Gran":3947,"Over":3948,"Ren":3949,"Rus":3950,"RFC":3951,"pH":3952,"zine":3953,"1582":3954,"1799":3955,"259":3956,"246":3957,"248":3958,"1809":3959,"Internet":3960,"South":3961,"Engine":3962,"4G":3963,"530":3964,"C2":3965,"DLC":3966,"Sm":3967,"gÃ¨n":3968,"sÇİng":3969,"sin":3970,"Â«":3971,"lio":3972,"1823":3973,"ander":3974,"1621":3975,"272":3976,"rum":3977,"405":3978,"ATION":3979,"tware":3980,"1803":3981,"dae":3982,"State":3983,"stems":3984,"EEE":3985,"press":3986,"334":3987,"620":3988,"770":3989,"Class":3990,"SG":3991,"dition":3992,"lution":3993,"1625":3994,"ges":3995,"284":3996,"285":3997,"ãĤµ":3998,"Auto":3999,"Publi":4000,"311":4001,"880":4002,"Dot":4003,"Kh":4004,"Sony":4005,"VI":4006,"Ãī":4007,"á»":4008,"258":4009,"276":4010,"cur":4011,"ãģĮ":4012,"Alf":4013,"Mobile":4014,"Bus":4015,"KO":4016,"Oper":4017,"Sw":4018,"Way":4019,"XT":4020,"pres":4021,"à¦":4022,"253":4023,"aly":4024,"357":4025,"num":4026,"Maria":4027,"Moon":4028,"Wii":4029,"Pier":4030,"660":4031,"Cli":4032,"Get":4033,"NM":4034,"SV":4035,"UL":4036,"sm":4037,"Ð¹":4038,"dian":4039,"ãĥĹ":4040,"cks":4041,"STA":4042,"IPv":4043,"Unix":4044,"What":4045,"Europe":4046,"570":4047,"Cer":4048,"U19":4049,"WF":4050,"ee":4051,"mor":4052,"Ð³":4053,"tuÄģn":4054,"1827":4055,"1570":4056,"ãģĤ":4057,"gazine":4058,"Beau":4059,"Link":4060,"velop":4061,"Book":4062,"Trans":4063,"314":4064,"3DS":4065,"690":4066,"Bre":4067,"BBS":4068,"C6":4069,"DSM":4070,"IEEE":4071,"Men":4072,"SB":4073,"Sound":4074,"WWE":4075,"more":4076,"1817":4077,"1640":4078,"1636":4079,"268":4080,"402":4081,"404":4082,"ãģ¯":4083,"Regi":4084,"Rain":4085,"which":4086,"AX":4087,"Gri":4088,"blo":4089,"ini":4090,"nor":4091,"nger":4092,"laris":4093,"1775":4094,"254":4095,"ters":4096,"465":4097,"Medi":4098,"Die":4099,"Tik":4100,"Francis":4101,"Commu":4102,"323":4103,"Ath":4104,"Cir":4105,"HP":4106,"OP":4107,"kÄģo":4108,"1750":4109,"309":4110,"oom":4111,"ople":4112,"Joy":4113,"fic":4114,"329":4115,"670":4116,"Dol":4117,"End":4118,"Plus":4119,"bon":4120,"pur":4121,"shing":4122,"guÄģi":4123,"1816":4124,"pin":4125,"lai":4126,"fore":4127,"ãĥģ":4128,"ãĤ£":4129,"4500":4130,"Channel":4131,"cast":4132,"ings":4133,"CON":4134,"peri":4135,"TOP":4136,"Cube":4137,"Louis":4138,".-":4139,"710":4140,"910":4141,"950":4142,"DI":4143,"Imp":4144,"Lit":4145,"MK":4146,"Tro":4147,"ome":4148,"dea":4149,"pital":4150,"lam":4151,"arr":4152,"241":4153,"2300":4154,"Research":4155,"ISBN":4156,"field":4157,"Poli":4158,"Film":4159,"tvN":4160,"326":4161,"Asia":4162,"Bou":4163,"Cam":4164,"Clo":4165,"PT":4166,"T2":4167,"ice":4168,"rch":4169,"try":4170,"à½":4171,"1592":4172,"347":4173,"758":4174,"Stand":4175,"model":4176,"Ara":4177,"Bon":4178,"DT":4179,"Lis":4180,"1628":4181,"1788":4182,"252":4183,"242":4184,"269":4185,"ãĥĭ":4186,"andy":4187,"Leon":4188,"Victor":4189,"Law":4190,"ffer":4191,"fea":4192,"tural":4193,"318":4194,"336":4195,"978":4196,"Ado":4197,"CB":4198,"DL":4199,"Den":4200,"Festi":4201,"Jen":4202,"Mal":4203,"MUS":4204,"N2":4205,"O3":4206,"Tan":4207,"Tre":4208,"áĥ":4209,"char":4210,"biÄĵ":4211,"1627":4212,"1783":4213,"1791":4214,"alth":4215,"289":4216,"ros":4217,"406":4218,"ced":4219,"354":4220,"INN":4221,"Comm":4222,"Stan":4223,"app":4224,"Vista":4225,"gic":4226,"Pixel":4227,"Disney":4228,"âĸ¡":4229,"Acade":4230,"Cour":4231,"EL":4232,"F4":4233,"IB":4234,"LAN":4235,"LTE":4236,"OF":4237,"ich":4238,"pÄģ":4239,"tre":4240,"1797":4241,"ï¼»":4242,"ï¼½":4243,"Mach":4244,"556":4245,"Beat":4246,"aker":4247,"Software":4248,"Ange":4249,"DMS":4250,"TH":4251,"his":4252,"nÇİn":4253,"1779":4254,"1796":4255,"test":4256,"607":4257,"ãģ¤":4258,"ãģł":4259,"352":4260,"Mary":4261,"1808":4262,"ERT":4263,"km2":4264,"Nico":4265,"NCT":4266,"Alice":4267,"âĭ¯":4268,"321":4269,"337":4270,"A4":4271,"Ami":4272,"Sor":4273,"T3":4274,"cs":4275,"gis":4276,"ung":4277,"huÃłng":4278,"tude":4279,"1829":4280,"1778":4281,"1794":4282,"283":4283,"273":4284,"ãĥ£":4285,"ãĥĲ":4286,"ãĤ¨":4287,"cky":4288,"Visual":4289,"inese":4290,"YouTuber":4291,"ASC":4292,"Works":4293,"Elect":4294,"Battle":4295,"313":4296,"510":4297,"840":4298,"860":4299,"Foot":4300,"Mnet":4301,"Pho":4302,"llo":4303,"pat":4304,"vet":4305,"vance":4306,"Ã±":4307,"Î¸":4308,"shuÇİi":4309,"nica":4310,"night":4311,"1798":4312,"formation":4313,"ãģ¦":4314,"456":4315,"372":4316,"Johan":4317,"ECT":4318,"system":4319,"Special":4320,"Awards":4321,"448":4322,"870":4323,"Blu":4324,"MF":4325,"Pay":4326,"io":4327,"ror":4328,"sca":4329,"1580":4330,"1612":4331,"1634":4332,"1787":4333,"281":4334,"267":4335,"ãĥĩ":4336,"mad":4337,"ãģ£":4338,"ãĤ¦":4339,"nus":4340,"lost":4341,"mmy":4342,"web":4343,"Premi":4344,"Royal":4345,"Global":4346,"911":4347,"DG":4348,"Fro":4349,"Mis":4350,"Oli":4351,"Set":4352,"TN":4353,"WO":4354,"dor":4355,"ev":4356,"fla":4357,"âĩ":4358,"shÇİi":4359,"hus":4360,"mina":4361,"1567":4362,"1648":4363,"alle":4364,"271":4365,"tech":4366,"ltra":4367,"Arts":4368,"ffe":4369,"BOX":4370,"Enviro":4371,"AH":4372,"E3":4373,"Lam":4374,"MM":4375,"Mur":4376,"York":4377,"sor":4378,"chuÅį":4379,"262":4380,"tai":4381,"367":4382,"vest":4383,"pedia":4384,"OSHI":4385,"Prof":4386,"const":4387,"ACE":4388,"ENT":4389,"AGA":4390,"Great":4391,"TikTok":4392,"-&":4393,"322":4394,"Ah":4395,"MON":4396,"Not":4397,"OTT":4398,"Spo":4399,"VB":4400,"bian":4401,"1550":4402,"1568":4403,"ont":4404,"1615":4405,"1630":4406,"286":4407,"ãĥĸ":4408,"Magazine":4409,"vern":4410,"CH3":4411,"Compu":4412,"Museum":4413,"Daniel":4414,"Festival":4415,"Brown":4416,"Cru":4417,"CAS":4418,"Dark":4419,"FBI":4420,"LG":4421,"Sau":4422,"SIG":4423,"USA":4424,"stu":4425,"piÄĵ":4426,"1645":4427,"1646":4428,"read":4429,"zhÃ¡o":4430,"ãĤŃ":4431,"333":4432,"COLL":4433,"ARD":4434,"Secre":4435,"stein":4436,"Encore":4437,"tures":4438,"world":4439,"Online":4440,"Cloud":4441,"MUSIC":4442,"Hun":4443,"Lar":4444,"Let":4445,"cas":4446,"over":4447,"tan":4448,"Ø±":4449,"1626":4450,"stal":4451,"261":4452,"297":4453,"355":4454,"Chinese":4455,"stea":4456,"Kim":4457,"328":4458,"820":4459,"Gor":4460,"Has":4461,"PRO":4462,"S2":4463,"Tou":4464,"gal":4465,"oli":4466,"sÇĴu":4467,"sco":4468,"ques":4469,"1637":4470,"2400":4471,"705":4472,"901":4473,"364":4474,"384":4475,"378":4476,"vey":4477,"442":4478,"hai":4479,"cono":4480,"Point":4481,"VIDIA":4482,"General":4483,"618":4484,"AU":4485,"CBC":4486,"HB":4487,"NVIDIA":4488,"T48":4489,"ale":4490,"tr":4491,"Ð¡":4492,"Ñĭ":4493,"1610":4494,"1642":4495,"257":4496,"282":4497,"thing":4498,"2600":4499,"Mad":4500,"Stadium":4501,"1609":4502,"ality":4503,"stern":4504,"Exp":4505,"God":4506,"Redmi":4507,"Year":4508,"Adobe":4509,"760":4510,"767":4511,"CAN":4512,"Gol":4513,"Il":4514,"O4":4515,"Ome":4516,"U17":4517,"VC":4518,"bas":4519,"bps":4520,"jor":4521,"sk":4522,"sche":4523,"ÑĮ":4524,"deon":4525,"nior":4526,"1585":4527,"1583":4528,"hÃ¨ng":4529,"ãĤĦ":4530,"583":4531,"ctory":4532,"1807":4533,"ARM":4534,"TeX":4535,"wiki":4536,"thern":4537,"Systems":4538,"poration":4539,"930":4540,"Del":4541,"FIFA":4542,"JU":4543,"KE":4544,"OD":4545,"Town":4546,"Thun":4547,"Who":4548,"cto":4549,"dou":4550,"1623":4551,"gel":4552,"274":4553,"size":4554,"Anto":4555,"Wiki":4556,"ï¹ĳ":4557,"H2O":4558,"trol":4559,"Taiwan":4560,"EOS":4561,"FIN":4562,"Ima":4563,"IEC":4564,"Kin":4565,"Kid":4566,"Tar":4567,"Won":4568,"ah":4569,"cat":4570,"esta":4571,"ket":4572,"tina":4573,"1571":4574,"1784":4575,"263":4576,"509":4577,"293":4578,"351":4579,"osaurus":4580,"999":4581,"Deep":4582,"mod":4583,"value":4584,"Archi":4585,"Cast":4586,"2200":4587,"428":4588,"AJ":4589,"GUN":4590,"Tay":4591,"xx":4592,"1620":4593,"1723":4594,"1786":4595,"inte":4596,"stre":4597,"504":4598,"lton":4599,"ãĥ¥":4600,"353":4601,"395":4602,"beth":4603,"Solaris":4604,"Post":4605,"private":4606,"Metro":4607,"clol":4608,"Manage":4609,"DotA":4610,"419":4611,"432":4612,"A3":4613,"FN":4614,"Fly":4615,"GL":4616,"Hap":4617,"Ron":4618,"bb":4619,"cci":4620,"card":4621,"ctive":4622,"pra":4623,"ìķ":4624,"1450":4625,"curi":4626,"ãģĻ":4627,"Chan":4628,"vers":4629,"Mike":4630,"ource":4631,"Key":4632,"LOVE":4633,"Market":4634,"Studios":4635,"Little":4636,"427":4637,"Band":4638,"Cine":4639,"FE":4640,"HIV":4641,"K6":4642,"Line":4643,"Rou":4644,"VPN":4645,"zÃ¨":4646,"Äį":4647,"like":4648,"zilla":4649,"1577":4650,"1618":4651,"1643":4652,"rop":4653,"sey":4654,"387":4655,"399":4656,"cts":4657,"ellow":4658,"ountain":4659,"Fleet":4660,"Technology":4661,"317":4662,"331":4663,"345":4664,"512":4665,"565":4666,"H1":4667,"MY":4668,"R2":4669,"S1":4670,"U18":4671,"USS":4672,"Ultra":4673,"bes":4674,"gg":4675,"lÅ«":4676,"Ñı":4677,"1586":4678,"lau":4679,"1777":4680,"1453":4681,"into":4682,"sty":4683,"stan":4684,"sit":4685,"806":4686,"base":4687,"CDMA":4688,"Stage":4689,"Radeon":4690,"aki":4691,"Union":4692,"ALL":4693,"Valve":4694,"Children":4695,"Secret":4696,"327":4697,"411":4698,"490":4699,"445":4700,"446":4701,"535":4702,"Alt":4703,"Aven":4704,"FI":4705,"Found":4706,"Land":4707,"Mid":4708,"M87":4709,"U23":4710,"Will":4711,"WOR":4712,"ola":4713,"rstea":4714,"yer":4715,"Ãª":4716,"cht":4717,"endo":4718,"1521":4719,"1765":4720,"1774":4721,"sible":4722,"cel":4723,"second":4724,"398":4725,"499":4726,"ook":4727,"Para":4728,"With":4729,"Junior":4730,"Adam":4731,"BMW":4732,"mond":4733,"Fried":4734,"Centre":4735,"where":4736,"Philip":4737,"Academy":4738,"416":4739,"Crea":4740,"EMI":4741,"HTC":4742,"KB":4743,"Sche":4744,"Soft":4745,"TW":4746,"bat":4747,"rent":4748,"mia":4749,"1616":4750,"cul":4751,"707":4752,"ily":4753,"teri":4754,"369":4755,"397":4756,"Mau":4757,"verse":4758,"Joe":4759,"States":4760,"Multi":4761,"Wire":4762,"Niko":4763,"GPU":4764,"bility":4765,"Omega":4766,"613":4767,"Ari":4768,"Cou":4769,"NR":4770,"Port":4771,"WI":4772,"ZA":4773,"hau":4774,"house":4775,"pes":4776,"Î·":4777,"ÎĶ":4778,"ÐĲ":4779,"live":4780,"1564":4781,"1785":4782,"368":4783,"lot":4784,"TVBS":4785,"Mem":4786,"Next":4787,"Hea":4788,"some":4789,"Fire":4790,"MySQL":4791,"void":4792,"Origin":4793,"Amazon":4794,"3C":4795,"810":4796,"BT":4797,"Hon":4798,"Jr":4799,"Run":4800,"Sti":4801,"hl":4802,"m3":4803,"ÐĶ":4804,"1662":4805,"266":4806,"291":4807,"sist":4808,"elle":4809,"head":4810,"588":4811,"osa":4812,"Distri":4813,"Sub":4814,"rough":4815,"Base":4816,"MOD":4817,"volution":4818,"chie":4819,"Corporation":4820,"M1A1":4821,"ference":4822,"mission":4823,"velopment":4824,"GUNDAM":4825,"316":4826,"537":4827,"621":4828,"742":4829,"CI":4830,"E48":4831,"Eric":4832,"Fo":4833,"Fal":4834,"Sin":4835,"TI":4836,"Wel":4837,"Ã«":4838,"ÙĨ":4839,"anna":4840,"1540":4841,"1574":4842,"1772":4843,"std":4844,"287":4845,"tee":4846,"605":4847,"454":4848,"388":4849,"343":4850,"open":4851,"888":4852,"Sund":4853,"point":4854,"Draw":4855,"Church":4856,"Alexander":4857,"Cross":4858,"Management":4859,"425":4860,"475":4861,"Lady":4862,"ND":4863,"Other":4864,"SW":4865,"Sar":4866,"cted":4867,"kÃ¡ng":4868,"kan":4869,"vat":4870,"were":4871,"jia":4872,"1250":4873,"nico":4874,"1619":4875,"1629":4876,"1683":4877,"292":4878,"363":4879,"376":4880,"STS":4881,"552":4882,"686":4883,"ign":4884,"Demo":4885,"Arc":4886,"Augu":4887,"Cyclol":4888,"London":4889,"Scott":4890,"627":4891,"Bad":4892,"BRT":4893,"Der":4894,"Dun":4895,"FL":4896,"Ir":4897,"Kir":4898,"MX":4899,"Ora":4900,"Sto":4901,"Sara":4902,"Tony":4903,"hard":4904,"tru":4905,"Ð±":4906,"tish":4907,"ally":4908,"ï¼Ĥ":4909,"matic":4910,"488":4911,"ida":4912,"Design":4913,"phen":4914,"Spot":4915,"Spring":4916,"Andrew":4917,"ðĲŃ":4918,"449":4919,"5A":4920,"625":4921,"738":4922,"Fron":4923,"HER":4924,"Of":4925,"PB":4926,"Round":4927,"VER":4928,"ire":4929,"und":4930,"Ðļ":4931,"shared":4932,"1590":4933,"1579":4934,"1633":4935,"ãĥĬ":4936,"ãĤ°":4937,"1507":4938,"Beta":4939,"Lake":4940,"Simon":4941,"CH2":4942,"Cul":4943,"Syn":4944,"Animax":4945,"Earth":4946,"412":4947,"Fort":4948,"LF":4949,"LM":4950,"Sol":4951,"Sca":4952,"SON":4953,"V8":4954,"coun":4955,"hÄģng":4956,"tto":4957,"Ð¿":4958,"íķ":4959,"mir":4960,"mix":4961,"1631":4962,"1680":4963,"1773":4964,"294":4965,"407":4966,"mate":4967,"ãĤĮ":4968,"body":4969,"396":4970,"3300":4971,"mple":4972,"Sea":4973,"1604":4974,"Ander":4975,"Party":4976,"Hami":4977,"Family":4978,"PGA":4979,"Angel":4980,"Drive":4981,"Journal":4982,"980":4983,"Ap":4984,"Are":4985,"C4":4986,"Fold":4987,"GC":4988,"LR":4989,"Pol":4990,"cen":4991,"nan":4992,"Äĩ":4993,"ÉĻ":4994,"nical":4995,"1575":4996,"1697":4997,"1755":4998,"1492":4999,"sive":5000,"cum":5001,"805":5002,"3600":5003,"asa":5004,"467":5005,"471":5006,"Def":5007,"Neo":5008,"mics":5009,"ï¹Ĳ":5010,"SKE48":5011,"Dyna":5012,"Summer":5013,"Thunder":5014,"0x":5015,"319":5016,"Epic":5017,"Hal":5018,"J2":5019,"Kel":5020,"Nar":5021,"Swe":5022,"XC":5023,"fb":5024,"hoo":5025,"pan":5026,"zen":5027,"chy":5028,"lion":5029,"orig":5030,"1561":5031,"1589":5032,"1595":5033,"1781":5034,"1465":5035,"alan":5036,"508":5037,"ãĥĨ":5038,"ãģ²":5039,"344":5040,"589":5041,"oph":5042,"1603":5043,"1606":5044,"1607":5045,"CNBLUE":5046,"Ruby":5047,"Council":5048,"Christian":5049,"print":5050,"415":5051,"855":5052,"940":5053,"970":5054,"Cre":5055,"Clar":5056,"Kat":5057,"Med":5058,"Miss":5059,"kes":5060,"pos":5061,"uage":5062,"x86":5063,"Ã¸":5064,"Ãħ":5065,"ÃŁ":5066,"à®":5067,"lina":5068,"nio":5069,"1522":5070,"1526":5071,"1556":5072,"1613":5073,"1660":5074,"502":5075,"506":5076,"ãĥĢ":5077,"tera":5078,"377":5079,"tos":5080,"478":5081,"554":5082,"ample":5083,"Mari":5084,"Alli":5085,"sport":5086,"mercial":5087,"TOUR":5088,"Williams":5089,"cations":5090,"Hyper":5091,"ìĿ´":5092,"âĺĨ":5093,"Angela":5094,"Football":5095,"417":5096,"525":5097,"920":5098,"925":5099,"After":5100,"Hit":5101,"LU":5102,"UK":5103,"URI":5104,"ite":5105,"lle":5106,"ud":5107,"Ùħ":5108,"sure":5109,"1525":5110,"1591":5111,"1667":5112,"indu":5113,"chÃ¨ng":5114,"ronic":5115,"408":5116,"485":5117,"643":5118,"ado":5119,"baby":5120,"ophi":5121,"AMO":5122,"Back":5123,"Fiesta":5124,"Steve":5125,"Qua":5126,"Rue":5127,"put":5128,"Advance":5129,"DOHC":5130,"America":5131,"324":5132,"422":5133,"515":5134,"538":5135,"534":5136,"Kit":5137,"Pap":5138,"QS":5139,"S4":5140,"VT":5141,"Vel":5142,"Water":5143,"hen":5144,"mRNA":5145,"who":5146,"zzo":5147,"âĤ":5148,"lish":5149,"tine":5150,"1510":5151,"1638":5152,"1730":5153,"media":5154,"ãĥĳ":5155,"ette":5156,"342":5157,"393":5158,"479":5159,"mph":5160,"Story":5161,"1508":5162,"Vita":5163,"Mozilla":5164,"Last":5165,"HKT48":5166,"lassic":5167,"Bern":5168,"Walter":5169,"Soul":5170,"Surface":5171,"Foundation":5172,"3200":5173,"531":5174,"546":5175,"EG":5176,"GHz":5177,"ITV":5178,"Jer":5179,"Jane":5180,"Mes":5181,"MBA":5182,"NI":5183,"Sen":5184,"Son":5185,"TG":5186,"VS":5187,"bles":5188,"iPS":5189,"kW":5190,"pal":5191,"2028":5192,"1543":5193,"1457":5194,"come":5195,"366":5196,"381":5197,"392":5198,"Indu":5199,"Arti":5200,"Buil":5201,"History":5202,"1st":5203,"413":5204,"426":5205,"Ai":5206,"Edu":5207,"F3":5208,"GPS":5209,"LZ":5210,"Light":5211,"Mos":5212,"U20":5213,"Wnt":5214,"cla":5215,"down":5216,"mol":5217,"yl":5218,"zÇİn":5219,"zar":5220,"ÙĬ":5221,"1565":5222,"1559":5223,"1587":5224,"1597":5225,"âĢł":5226,"1635":5227,"1688":5228,"1733":5229,"1782":5230,"also":5231,"stry":5232,"tex":5233,"606":5234,"ollow":5235,"ãģĳ":5236,"373":5237,"Albert":5238,"Times":5239,"lent":5240,"Johnson":5241,"Final":5242,"524":5243,"612":5244,"890":5245,"Ash":5246,"By":5247,"FS":5248,"Jim":5249,"Tol":5250,"UD":5251,"bs":5252,"est":5253,"ov":5254,"score":5255,"Â£":5256,"ÐŁ":5257,"Ñĩ":5258,"1588":5259,"1598":5260,"507":5261,"cell":5262,"amo":5263,"thew":5264,"641":5265,"495":5266,"682":5267,"Rep":5268,"666":5269,"Rod":5270,"Rose":5271,"Vio":5272,"Pod":5273,"Austra":5274,"Mont":5275,"Brian":5276,"CLA":5277,"Place":5278,"Telegram":5279,"trans":5280,"Pierre":5281,"332":5282,"4A":5283,"4K":5284,"435":5285,"575":5286,"790":5287,"Ale":5288,"Bet":5289,"Fl":5290,"Mus":5291,"TMA":5292,"ate":5293,"plan":5294,"sky":5295,"tiÃ¨":5296,"tial":5297,"ents":5298,"1523":5299,"1535":5300,"1649":5301,"1661":5302,"1770":5303,"1499":5304,"then":5305,"ãĤ¬":5306,"ãĤı":5307,"361":5308,"number":5309,"466":5310,"391":5311,"....":5312,"551":5313,"vices":5314,"Moder":5315,"1601":5316,"Sho":5317,"gio":5318,"PCI":5319,"Tim":5320,"Hotel":5321,"TOK":5322,"AcFun":5323,"Flash":5324,"place":5325,"craft":5326,"Wonder":5327,"528":5328,"5500":5329,"990":5330,"Bang":5331,"Bell":5332,"Hard":5333,"HTT":5334,"Sma":5335,"Smo":5336,"Than":5337,"ey":5338,"fis":5339,"gni":5340,"shuÃłn":5341,"mine":5342,"1511":5343,"1760":5344,"1769":5345,"rit":5346,"358":5347,"cos":5348,"371":5349,"469":5350,"itz":5351,"684":5352,"587":5353,"View":5354,"ppm":5355,"But":5356,"SMAP":5357,"Geo":5358,"Edge":5359,"tribu":5360,"Explor":5361,"Golden":5362,"548":5363,"AW":5364,"Bil":5365,"Lor":5366,"Mir":5367,"MAC":5368,"Shan":5369,"air":5370,"even":5371,"para":5372,"vor":5373,"tiÇİn":5374,"20000":5375,"1080":5376,"15000":5377,"1576":5378,"1594":5379,"1689":5380,"362":5381,"383":5382,"TCP":5383,"341":5384,"NASL":5385,"Program":5386,"Bey":5387,"Some":5388,"Siri":5389,"Qui":5390,"Bridge":5391,"active":5392,"European":5393,"vernment":5394,"921":5395,"Dance":5396,"Gun":5397,"L1":5398,"MR":5399,"Mind":5400,"MMC":5401,"NEX":5402,"RB":5403,"TF":5404,"UFO":5405,"VF":5406,"Var":5407,"bow":5408,"kins":5409,"rÃ¡ng":5410,"uts":5411,"ðª":5412,"hÃ²ng":5413,"huo":5414,"chÄĽng":5415,"left":5416,"tica":5417,"mid":5418,"1811":5419,"1517":5420,"1514":5421,"1578":5422,"1552":5423,"âĢķ":5424,"1639":5425,"1684":5426,"608":5427,"master":5428,"349":5429,"Mai":5430,"644":5431,"557":5432,"vie":5433,"ird":5434,"585":5435,"597":5436,"Development":5437,"Mod":5438,"Test":5439,"Seven":5440,"Raw":5441,"Week":5442,"Firef":5443,"Just":5444,"kov":5445,"Matthew":5446,"template":5447,"Eliza":5448,"Common":5449,"scope":5450,"Taylor":5451,"curity":5452,"348":5453,"436":5454,"549":5455,"AST":5456,"Bai":5457,"Brand":5458,"DNS":5459,"Fred":5460,"Jam":5461,"Kon":5462,"Mitch":5463,"Pres":5464,"RN":5465,"Ret":5466,"bum":5467,"ea":5468,"ext":5469,"ovan":5470,"pl":5471,"tio":5472,"ering":5473,"1763":5474,"1350":5475,"iness":5476,"ï¼ĭ":5477,"sie":5478,"403":5479,"cept":5480,"cuÃ³":5481,"sell":5482,"mani":5483,"908":5484,"ession":5485,"6500":5486,"case":5487,"1505":5488,"ardo":5489,"tour":5490,"777":5491,"Marie":5492,"anger":5493,"fied":5494,"fication":5495,"Pack":5496,"worth":5497,"Santa":5498,"MG42":5499,"Christop":5500,"Villa":5501,"547":5502,"567":5503,"668":5504,"C5":5505,"FAN":5506,"Mountain":5507,"NK":5508,"Rol":5509,"T4":5510,"YOSHI":5511,"bla":5512,"sÃło":5513,"Â³":5514,"Ñĸ":5515,"1050":5516,"1614":5517,"1720":5518,"374":5519,"494":5520,"CoV":5521,"IDE":5522,"IPS":5523,"PSP":5524,"thers":5525,"Work":5526,"UNIX":5527,"People":5528,"Commit":5529,"âħł":5530,"Karl":5531,"Frame":5532,"IPv4":5533,"Explorer":5534,"514":5535,"522":5536,"545":5537,"568":5538,"619":5539,"675":5540,"Bau":5541,"CSS":5542,"D1":5543,"EBU":5544,"KT":5545,"Kw":5546,"Oh":5547,"Shu":5548,"Za":5549,"nÃ©":5550,"spi":5551,"sal":5552,"yÃ³ng":5553,"lete":5554,"1516":5555,"1513":5556,"1534":5557,"1547":5558,"1569":5559,"16V":5560,"1460":5561,"stone":5562,"cula":5563,"ãģ§":5564,"359":5565,"757":5566,"642":5567,"581":5568,"aux":5569,"1502":5570,"ctions":5571,"gani":5572,"alis":5573,"GeForce":5574,"à¸£":5575,"SOHC":5576,"Jackson":5577,"Arthur":5578,"Queen":5579,"COLLAR":5580,"Sunday":5581,"origin":5582,"418":5583,"414":5584,"424":5585,"433":5586,"544":5587,"Bos":5588,"CJ":5589,"DTS":5590,"F2":5591,"JO":5592,"Jus":5593,"MMO":5594,"PEN":5595,"Sand":5596,"Tel":5597,"XIV":5598,"bÅ«":5599,"cz":5600,"flo":5601,"hol":5602,"ith":5603,"pper":5604,"ski":5605,"zed":5606,"ÐĴ":5607,"1731":5608,"1768":5609,"1771":5610,"1490":5611,"mel":5612,"409":5613,"lter":5614,"ãĥı":5615,"604":5616,"802":5617,"ãĤ±":5618,"ãĤĩ":5619,"ãĤį":5620,"389":5621,"7500":5622,"394":5623,"476":5624,"been":5625,"493":5626,"vio":5627,"Vision":5628,"ERO":5629,"Box":5630,"Rift":5631,"AGE":5632,"Prime":5633,"FOX":5634,"while":5635,"True":5636,"JTBC":5637,"âĩĶ":5638,"Cinema":5639,"Avenue":5640,"431":5641,"539":5642,"745":5643,"ABS":5644,"Bit":5645,"Classic":5646,"EO":5647,"Gin":5648,"Gamer":5649,"Ker":5650,"Lord":5651,"Mit":5652,"Sk":5653,"Solo":5654,"V6":5655,"bn":5656,"bour":5657,"jq":5658,"zza":5659,"Ä±":5660,"shop":5661,"shed":5662,"change":5663,"biÃło":5664,"til":5665,"tice":5666,"tify":5667,"1593":5668,"1724":5669,"1752":5670,"1469":5671,"1498":5672,"1370":5673,"sili":5674,"sea":5675,"ãģĪ":5676,"ille":5677,"382":5678,"755":5679,"464":5680,"444":5681,"cid":5682,"571":5683,"1501":5684,"Never":5685,"Gaga":5686,"nova":5687,"PS3":5688,"prote":5689,"Express":5690,"British":5691,"tdown":5692,"AGASA":5693,"Kids":5694,"Friedrich":5695,"646":5696,"667":5697,"CIA":5698,"D2":5699,"Ever":5700,"Gam":5701,"IRT":5702,"Kan":5703,"M6":5704,"Pass":5705,"Tam":5706,"XF":5707,"ZJ":5708,"ami":5709,"high":5710,"pto":5711,"say":5712,"tch":5713,"dex":5714,"lius":5715,"dies":5716,"1520":5717,"1560":5718,"1553":5719,"1651":5720,"1740":5721,"1493":5722,"602":5723,"904":5724,"496":5725,"498":5726,"443":5727,"nament":5728,"Rail":5729,"MAN":5730,"Boys":5731,"Baby":5732,"Haw":5733,"produ":5734,"UNG":5735,"Fami":5736,"AGUE":5737,"LEAGUE":5738,"Guard":5739,"works":5740,"mont":5741,"Jeff":5742,"Donald":5743,"Intelli":5744,"à¥į":5745,"Communi":5746,"Athlon":5747,"Memori":5748,"Firefox":5749,"611":5750,"645":5751,"945":5752,"Again":5753,"Bas":5754,"C1":5755,"Cen":5756,"CBA":5757,"DEC":5758,"GW":5759,"Hay":5760,"Old":5761,"QU":5762,"TAM":5763,"U2":5764,"vol":5765,"Ã¥":5766,"áº":5767,"chan":5768,"dic":5769,"1596":5770,"ono":5771,"1632":5772,"1679":5773,"1718":5774,"1735":5775,"1745":5776,"1758":5777,"25G":5778,"ï¼Ŀ":5779,"tec":5780,"ram":5781,"ãĥ¡":5782,"culus":5783,"made":5784,"907":5785,"ãĤģ":5786,"ãĤĨ":5787,"584":5788,"1506":5789,"Dear":5790,"sson":5791,"two":5792,"mental":5793,"1605":5794,"Samu":5795,"gia":5796,"Anth":5797,"Side":5798,"Health":5799,"Fish":5800,"Name":5801,"REAM":5802,"Wild":5803,"Central":5804,"Doug":5805,"Standard":5806,"Violet":5807,"Christopher":5808,"YOSHIKI":5809,"050":5810,"439":5811,"533":5812,"731":5813,"732":5814,"741":5815,"762":5816,"962":5817,"Astro":5818,"Cree":5819,"Eye":5820,"Flor":5821,"H3":5822,"ICD":5823,"Kra":5824,"NU":5825,"Num":5826,"Off":5827,"RCP":5828,"TL":5829,"Thi":5830,"UCLA":5831,"Wood":5832,"ath":5833,"kit":5834,"np":5835,"phe":5836,"vari":5837,"wen":5838,"Ïħ":5839,"á¸":5840,"âĻ":5841,"bia":5842,"dina":5843,"1260":5844,"1566":5845,"law":5846,"lade":5847,"1725":5848,"1748":5849,"ãĥĦ":5850,"706":5851,"ãĤĪ":5852,"ãĤĴ":5853,"457":5854,"tery":5855,"379":5856,"aso":5857,"756":5858,"553":5859,"cio":5860,"673":5861,"574":5862,"576":5863,"mpson":5864,"List":5865,"Alan":5866,"985":5867,"973":5868,"Anna":5869,"Capital":5870,"Greg":5871,"AlphaFold":5872,"Operation":5873,"Fleetline":5874,"Angelababy":5875,"516":5876,"617":5877,"639":5878,"722":5879,"735":5880,"DU":5881,"Econo":5882,"HMS":5883,"Kha":5884,"P2":5885,"Tower":5886,"bble":5887,"ners":5888,"sÃ²u":5889,"2050":5890,"quid":5891,"1528":5892,"1572":5893,"onal":5894,"1652":5895,"1727":5896,"1761":5897,"1368":5898,"ãĥ¯":5899,"ãĥİ":5900,"356":5901,"704":5902,"482":5903,"655":5904,"brary":5905,"ault":5906,"ARE":5907,"gate":5908,"Gaon":5909,"ends":5910,"BLE":5911,"link":5912,"Color":5913,"telli":5914,"Harry":5915,"English":5916,"Garden":5917,"Two":5918,"Jones":5919,"Anderson":5920,"Elizabeth":5921,"Committee":5922,"447":5923,"863":5924,"926":5925,"961":5926,"Ana":5927,"Apa":5928,"Bow":5929,"Din":5930,"Ea":5931,"Epi":5932,"LX":5933,"RATP":5934,"Tha":5935,"VP":5936,"WW":5937,"eu":5938,"hal":5939,"pet":5940,"pas":5941,"defea":5942,"shan":5943,"lim":5944,"bird":5945,"eno":5946,"nin":5947,"ergy":5948,"1531":5949,"1538":5950,"1647":5951,"1681":5952,"stor":5953,"rat":5954,"803":5955,"708":5956,"ãĤĥ":5957,"452":5958,"453":5959,"they":5960,"651":5961,"bed":5962,"Cook":5963,"vir":5964,"586":5965,"572":5966,"Stro":5967,"1504":5968,"Neu":5969,"EDG":5970,"APG":5971,"ICA":5972,"door":5973,"Conne":5974,"Basic":5975,"1701":5976,"Stephen":5977,"Carl":5978,"Colspan":5979,"word":5980,"essor":5981,"HOME":5982,"ights":5983,"Appli":5984,"ccff":5985,"ccccff":5986,"Press":5987,"Disco":5988,"Twitch":5989,"prise":5990,"Patrick":5991,"frame":5992,"Women":5993,"FINAL":5994,"Beyond":5995,"3M":5996,"438":5997,"511":5998,"933":5999,"Bun":6000,"Hero":6001,"Hans":6002,"ILE":6003,"Jes":6004,"Rad":6005,"Say":6006,"SNC":6007,"aw":6008,"band":6009,"dÄĽi":6010,"gna":6011,"vity":6012,"wer":6013,"Î©":6014,"Ð·":6015,"Øª":6016,"ìļ":6017,"xus":6018,"hÃłng":6019,"mie":6020,"1530":6021,"1537":6022,"lati":6023,"1736":6024,"ï¼Ĩ":6025,"603":6026,"808":6027,"461":6028,"468":6029,"681":6030,"user":6031,"ONG":6032,"state":6033,"1709":6034,"Kevin":6035,"GameSpot":6036,"Abdu":6037,"Southern":6038,"news":6039,"JavaScript":6040,"Prince":6041,"DirectX":6042,"Silver":6043,"function":6044,"Modern":6045,"3G":6046,"541":6047,"629":6048,"648":6049,"725":6050,"Ak":6051,"CAR":6052,"Dor":6053,"ELE":6054,"Low":6055,"NN":6056,"Nan":6057,"NPC":6058,"P4":6059,"URE":6060,"Vis":6061,"cter":6062,"city":6063,"gas":6064,"gent":6065,"vent":6066,"Ñħ":6067,"such":6068,"super":6069,"dire":6070,"zing":6071,"1519":6072,"1529":6073,"1555":6074,"1687":6075,"last":6076,"1728":6077,"ardi":6078,"ink":6079,"team":6080,"ãĥĿ":6081,"cuÇĲ":6082,"905":6083,"esa":6084,"484":6085,"653":6086,"Maker":6087,"Info":6088,"before":6089,"559":6090,"491":6091,"679":6092,"ped":6093,"796":6094,"OSS":6095,"fish":6096,"Saf":6097,"MAD":6098,"Paris":6099,"Concer":6100,"That":6101,"Fair":6102,"mark":6103,"ckett":6104,"URL":6105,"AOA":6106,"Yahoo":6107,"speci":6108,"ctures":6109,"Planet":6110,"ASCII":6111,"Spotify":6112,"OmegaT":6113,"Mitchell":6114,"423":6115,"536":6116,"632":6117,"715":6118,"825":6119,"833":6120,"Ala":6121,"B3":6122,"CAL":6123,"D9":6124,"Flow":6125,"Gy":6126,"GRO":6127,"Hau":6128,"Ita":6129,"K2":6130,"Money":6131,"Mbps":6132,"RDS":6133,"Zo":6134,"eb":6135,"ei":6136,"ide":6137,"san":6138,"sci":6139,"wart":6140,"huÅį":6141,"2035":6142,"1120":6143,"1767":6144,"cking":6145,"Chrome":6146,"Main":6147,"473":6148,"492":6149,"cap":6150,"nda":6151,"auto":6152,"661":6153,"562":6154,"Liber":6155,"Robin":6156,"Dead":6157,"Debian":6158,"Mega":6159,"Via":6160,"game":6161,"See":6162,"bucket":6163,"Anne":6164,"host":6165,"PS2":6166,"Fede":6167,"Eddie":6168,"TRA":6169,"Countdown":6170,"Zico":6171,"signed":6172,"TOKYO":6173,"Violetta":6174,"339":6175,"429":6176,"532":6177,"665":6178,"775":6179,"769":6180,"Ax":6181,"Area":6182,"D5":6183,"Eri":6184,"Fox":6185,"Hand":6186,"JI":6187,"Pur":6188,"R1":6189,"RF":6190,"SNS":6191,"ller":6192,"Õ¡":6193,"miÄĵ":6194,"1220":6195,"1545":6196,"1664":6197,"1659":6198,"1719":6199,"artic":6200,"1495":6201,"1496":6202,"1388":6203,"redo":6204,"cep":6205,"702":6206,"703":6207,"Chap":6208,"Chart":6209,"Mah":6210,"STATION":6211,"689":6212,"Rea":6213,"692":6214,"osp":6215,"Roman":6216,"Mix":6217,"798":6218,"him":6219,"splay":6220,"ott":6221,"mentary":6222,"ERS":6223,"Jaco":6224,"AND":6225,"graphy":6226,"Juan":6227,"gins":6228,"Steven":6229,"Phy":6230,"IFF":6231,"Bio":6232,"Dragon":6233,"Anime":6234,"Henri":6235,"Framework":6236,"010":6237,"434":6238,"636":6239,"729":6240,"761":6241,"878":6242,"Aus":6243,"Action":6244,"E1":6245,"E231":6246,"GEN":6247,"Jay":6248,"L2":6249,"PAGASA":6250,"RK":6251,"Too":6252,"ZERO":6253,"das":6254,"eg":6255,"hat":6256,"ira":6257,"Ðĳ":6258,"Ðľ":6259,"ÑĨ":6260,"ìĹ":6261,"tier":6262,"1546":6263,"1549":6264,"1562":6265,"1670":6266,"1690":6267,"1654":6268,"1653":6269,"1694":6270,"1759":6271,"aro":6272,"1466":6273,"thor":6274,"sio":6275,"ãĥ¢":6276,"807":6277,"709":6278,"458":6279,"463":6280,"log":6281,"555":6282,"596":6283,"662":6284,"Stri":6285,"under":6286,"Like":6287,"Michel":6288,"constru":6289,"ental":6290,"gie":6291,"posi":6292,"Build":6293,"shion":6294,"Interactive":6295,"Wilson":6296,"Johnny":6297,"deĠ":6298,"ĠdeĠ":6299,"shÃ¬Ġ":6300,"ĠshÃ¬Ġ":6301,"ĠniÃ¡n":6302,"ĠniÃ¡nĠ":6303,"wÃ¨iĠ":6304,"zÃłiĠ":6305,"ĠwÃ¨iĠ":6306,"ĠzÃłiĠ":6307,"hÃ©Ġ":6308,"ĠhÃ©Ġ":6309,"zhÅįngĠ":6310,"bÃ¹Ġ":6311,"dÃ¬Ġ":6312,"shÃŃĠ":6313,"guÃ³Ġ":6314,"yÃºĠ":6315,"rÃ©nĠ":6316,"ĠbÃ¹Ġ":6317,"yÄ«Ġ":6318,"ĠzhÅįngĠ":6319,"lÃ¬Ġ":6320,"zhÃ¬Ġ":6321,"gÅįngĠ":6322,"ĠshÃŃĠ":6323,"yuÃ¨Ġ":6324,"jÃŃĠ":6325,"chÃ©ngĠ":6326,"yÃ¬Ġ":6327,"yÇĴuĠ":6328,"ĠdÃ¬Ġ":6329,"ĠyuÃ¨Ġ":6330,"ĠyÃºĠ":6331,"ĠrÃ©nĠ":6332,"ĠzhÃ¬Ġ":6333,"dÃłĠ":6334,"ĠjÃŃĠ":6335,"yuÃ¡nĠ":6336,"ĠyÇĴuĠ":6337,"jÃ¬Ġ":6338,"ĠguÃ³Ġ":6339,"ĠlÃ¬Ġ":6340,"ĠgÅįngĠ":6341,"ĠyÃ¬Ġ":6342,"ĠyÇĲ":6343,"ĠchÃ©ngĠ":6344,"jiÄģĠ":6345,"sÄ«Ġ":6346,"yÇĶĠ":6347,"ĠxiÃłn":6348,"ĠrÃ¬":6349,"ĠyÄ«Ġ":6350,"ĠxÃŃng":6351,"ĠtÄģ":6352,"lÇĲĠ":6353,"jÄ«Ġ":6354,"ĠdÃło":6355,"hÃ²uĠ":6356,"wÃ©iĠ":6357,"ĠzhÄ«":6358,"ĠdÃłĠ":6359,"ĠyuÃ¡nĠ":6360,"xÄ«Ġ":6361,"ĠrÃ¬Ġ":6362,"ĠgÃ¨":6363,"ĠyÇĲĠ":6364,"xuÃ©Ġ":6365,"huÃ¬Ġ":6366,"zuÃ²Ġ":6367,"leĠ":6368,"ĠyÇĶĠ":6369,"ĠdÃłoĠ":6370,"mÃŃngĠ":6371,"ĠjÃ¬Ġ":6372,"bÃ¨iĠ":6373,"ĠxÃŃngĠ":6374,"shÄĵngĠ":6375,"ĠjiÃłn":6376,"ĠchÅ«":6377,"ĠqÃŃ":6378,"ĠsÄ«Ġ":6379,"ĠdÃ©":6380,"zhÃ¨ngĠ":6381,"ĠxiÃłnĠ":6382,"ĠhÃ²uĠ":6383,"ĠjÄ«Ġ":6384,"duÃ¬Ġ":6385,"shÃłngĠ":6386,"qÅ«Ġ":6387,"shÇĲĠ":6388,"ĠÄĽr":6389,"ĠjiÄģĠ":6390,"yÃ³uĠ":6391,"ĠtÄģĠ":6392,"ĠxÄ«Ġ":6393,"ĠlÇĲĠ":6394,"ĠÃ©r":6395,"zhÃłnĠ":6396,"ĠjÅ«n":6397,"ĠbÃ¬ng":6398,"ĠzhÄ«Ġ":6399,"ĠgÃ¨Ġ":6400,"zhÇĶĠ":6401,"rÃ¨nĠ":6402,"fÃ¹Ġ":6403,"zÃ¬Ġ":6404,"wÃ¹Ġ":6405,"xÄ«nĠ":6406,"dÃłiĠ":6407,"jÃ¹Ġ":6408,"pÃŃngĠ":6409,"ĠchÅ«Ġ":6410,"ĠkÃ¨":6411,"ĠzhÅįu":6412,"xiÄģngĠ":6413,"ĠhuÃ¬Ġ":6414,"shÃ¹Ġ":6415,"nÃ¡nĠ":6416,"ĠshÃ¨":6417,"ĠbÃ¨iĠ":6418,"ĠmÃŃngĠ":6419,"xiÃłĠ":6420,"guÄģnĠ":6421,"ĠÄĽrĠ":6422,"ĠdÃ©Ġ":6423,"lÃ¹Ġ":6424,"yÃ¹Ġ":6425,"huÃłĠ":6426,"ĠjiÃłnĠ":6427,"jÄ«ngĠ":6428,"yÃ¡nĠ":6429,"fÄģngĠ":6430,"ĠyÄ«n":6431,"kÄģiĠ":6432,"jiÄģnĠ":6433,"jiÃłoĠ":6434,"fÄģĠ":6435,"yÃ²ngĠ":6436,"ĠdÃłn":6437,"ĠÃ©rĠ":6438,"zhÃ¹Ġ":6439,"lÃ¡iĠ":6440,"mÃŃnĠ":6441,"shÇĴuĠ":6442,"zhÃ¨Ġ":6443,"xiÃłngĠ":6444,"wÃ©nĠ":6445,"ĠjÅ«nĠ":6446,"xÃ¬Ġ":6447,"qiÃ¡nĠ":6448,"bÄĽnĠ":6449,"tÃ¨Ġ":6450,"ĠwÃ©iĠ":6451,"zhÃŃĠ":6452,"fÇİĠ":6453,"qÄ«Ġ":6454,"jiÃ©Ġ":6455,"liÃ¡nĠ":6456,"ĠbÃ¬ngĠ":6457,"dÃ²ngĠ":6458,"diÃłnĠ":6459,"ĠqÃŃĠ":6460,"ĠkÃ¨Ġ":6461,"dÅįngĠ":6462,"mÃ¹Ġ":6463,"ĠjÃ¬n":6464,"ĠduÃ¬Ġ":6465,"ĠhuÃ²":6466,"ĠzhÃłnĠ":6467,"fÄĵnĠ":6468,"tÃ¡iĠ":6469,"zhÇİngĠ":6470,"dÃ¹Ġ":6471,"jiÄģngĠ":6472,"ĠqiÃº":6473,"ĠpÃŃngĠ":6474,"gÄģoĠ":6475,"yÃ¨Ġ":6476,"suÇĴĠ":6477,"bÄĽiĠ":6478,"ĠzhÅįuĠ":6479,"shÄ«Ġ":6480,"ĠleĠ":6481,"duÅįĠ":6482,"jiÄĵĠ":6483,"gÃ©Ġ":6484,"ĠshÃłngĠ":6485,"jÄ«nĠ":6486,"ĠzhÃ¨ngĠ":6487,"fÃºĠ":6488,"ĠzuÃ²Ġ":6489,"ĠyÃ³uĠ":6490,"ĠfÃ¹Ġ":6491,"kÇĴuĠ":6492,"guÃ²Ġ":6493,"zhÇĲĠ":6494,"ĠtÃ³ng":6495,"hÇİiĠ":6496,"ĠrÃ¨nĠ":6497,"ĠquÃ¡n":6498,"mÇİĠ":6499,"tÅįngĠ":6500,"rÃ¹Ġ":6501,"zuÃ¬Ġ":6502,"ĠshÄĵngĠ":6503,"ĠxuÃ©Ġ":6504,"cÇĲĠ":6505,"xÃ¬ngĠ":6506,"wÃłiĠ":6507,"nÃ¨iĠ":6508,"lÄģĠ":6509,"tÇĲĠ":6510,"juÃ©Ġ":6511,"kÄĽĠ":6512,"qÇĲĠ":6513,"shÄģnĠ":6514,"tiÄģnĠ":6515,"chÇİngĠ":6516,"dÄĽngĠ":6517,"zhÃ¨nĠ":6518,"wÇĶĠ":6519,"chÃ¡ngĠ":6520,"ziĠ":6521,"yÃłoĠ":6522,"bÇĲĠ":6523,"ĠjÃ¹Ġ":6524,"bÇİoĠ":6525,"mÇĲĠ":6526,"yÃłĠ":6527,"ĠyÄĽ":6528,"gÄģiĠ":6529,"ĠyÄ«nĠ":6530,"ĠdÃłiĠ":6531,"miÃłnĠ":6532,"zhÃ²ngĠ":6533,"ĠshÃ¨Ġ":6534,"fÄĵngĠ":6535,"ĠzhÃ¨Ġ":6536,"zhÇĴngĠ":6537,"cÃ¬Ġ":6538,"yÃ¹nĠ":6539,"yÃŃĠ":6540,"liÃºĠ":6541,"chÄĵĠ":6542,"shÃ²uĠ":6543,"lÃŃnĠ":6544,"bÄģoĠ":6545,"yÃŃĠgÃ¨Ġ":6546,"sÃłiĠ":6547,"jiÃ¨Ġ":6548,"dÃ¬ngĠ":6549,"shÄĵnĠ":6550,"shÄĽngĠ":6551,"luÃ³Ġ":6552,"mÄĽiĠguÃ³Ġ":6553,"sÄģnĠ":6554,"qÃ¬Ġ":6555,"xiÇİoĠ":6556,"ĠdÃłnĠ":6557,"nÃ©ngĠ":6558,"shÅ«Ġ":6559,"zÃ©Ġ":6560,"liÃ¨Ġ":6561,"xuÇİnĠ":6562,"sÃ¬Ġ":6563,"qÄ«ngĠ":6564,"zhÄĽĠ":6565,"ĠqiÃºĠ":6566,"jÃ¬ngĠ":6567,"yuÃłnĠ":6568,"bÄģĠ":6569,"wÃ¡ngĠ":6570,"kÄĵĠ":6571,"tÃłiĠ":6572,"lÃ¡nĠ":6573,"bÃłoĠ":6574,"ÄģnĠ":6575,"zÇĴngĠ":6576,"yÇĲngĠ":6577,"ĠhuÃ²Ġ":6578,"bÃ¬Ġ":6579,"fÇĶĠ":6580,"dÇİoĠ":6581,"ĠxÄ«nĠ":6582,"gÇĶĠ":6583,"yÄ«ngĠ":6584,"ĠhÃło":6585,"ĠxiÃłĠ":6586,"ĠzÃ¬Ġ":6587,"gÄĵĠ":6588,"fÃ¨nĠ":6589,"xiÃłoĠ":6590,"yuÄĵĠ":6591,"nÃŃĠ":6592,"jiÄģoĠ":6593,"nÃłĠ":6594,"ĠyÃ¹Ġ":6595,"ĠmÇĲĠ":6596,"zÄ«Ġ":6597,"Ã¨rĠ":6598,"ĠxiÄģngĠ":6599,"pÇĶĠ":6600,"dÄģnĠ":6601,"ĠzhÃ¹Ġ":6602,"biÇİoĠ":6603,"guÇİnĠ":6604,"tÃ³uĠ":6605,"liÃłngĠ":6606,"chuÃ¡nĠ":6607,"ĠlÃ¹Ġ":6608,"sÃ¹Ġ":6609,"wÃºĠ":6610,"ĠdÄģng":6611,"bÅįĠ":6612,"rÃºĠ":6613,"yÇİnĠ":6614,"nÇļĠ":6615,"bÃ³Ġ":6616,"ĠzhÅįngĠguÃ³Ġ":6617,"xÄ«ngĠ":6618,"tÃŃĠ":6619,"fÄĵiĠ":6620,"dÃ¡Ġ":6621,"sÃ¨Ġ":6622,"chÄĵngĠ":6623,"mÄĽiĠ":6624,"ĠwÃ¨iĠyÃºĠ":6625,"ĠjÃ¬nĠ":6626,"cÃ©ngĠ":6627,"chÇİnĠ":6628,"ĠnÃ¡nĠ":6629,"shuÇĲĠ":6630,"tÃºĠ":6631,"biÃłnĠ":6632,"guÄ«Ġ":6633,"ĠrÃ¡n":6634,"yÃ¡ngĠ":6635,"ÄģĠ":6636,"zhÄģngĠ":6637,"gÇİiĠ":6638,"diÇİnĠ":6639,"cÃ³ngĠ":6640,"jiÃ¹Ġ":6641,"ĠbÄĽnĠ":6642,"ĠquÃ¡nĠ":6643,"shÄģĠ":6644,"bÄģoĠkuÃ²":6645,"wÇİngĠ":6646,"jiÇİnĠ":6647,"shÃ¨ngĠ":6648,"zÇĶĠ":6649,"shÇĶĠ":6650,"gÇİngĠ":6651,"huÃ¡Ġ":6652,"lÇľĠ":6653,"qÃŃngĠ":6654,"jÇĲngĠ":6655,"liÇİngĠ":6656,"zÃºĠ":6657,"bÃłnĠ":6658,"tÇĴngĠ":6659,"gÃ²ngĠ":6660,"shÄģngĠ":6661,"lÃŃĠ":6662,"hÃ¹Ġ":6663,"tÃ³ngĠ":6664,"biÄģnĠ":6665,"jÃ¬nĠ":6666,"lÃ³ngĠ":6667,"luÃ²Ġ":6668,"ÃłnĠ":6669,"xÃ¹Ġ":6670,"chÃŃĠ":6671,"ÃłoĠ":6672,"mÃ©iĠ":6673,"jÇĲnĠ":6674,"bÄģnĠ":6675,"guÇİngĠ":6676,"chÅ«Ġ":6677,"cÃ¨Ġ":6678,"mÃ¬Ġ":6679,"shÃ©nĠ":6680,"ĠtÄģĠmen":6681,"zhÄĵngĠ":6682,"zhÄ«Ġ":6683,"lÇĲngĠ":6684,"yÃ²uĠ":6685,"fÇİnĠ":6686,"wÄĵiĠ":6687,"ĠzhÇĶĠ":6688,"ĠxiÃłngĠ":6689,"huÃ³Ġ":6690,"xÃŃĠ":6691,"tÃŃngĠ":6692,"kÇİĠ":6693,"chÃ¡Ġ":6694,"ĠgÄģiĠ":6695,"cÃ¡iĠ":6696,"gÃ²uĠ":6697,"shuÅįĠ":6698,"mÃ©nĠ":6699,"cÃŃĠ":6700,"xiÇİngĠ":6701,"mÇĶĠ":6702,"lÃ¨iĠ":6703,"wÄĽiĠ":6704,"qÇĶĠ":6705,"ĠgÅįngĠlÇĲĠ":6706,"yÃ¡nĠjiÅ«":6707,"ĠduÅįĠ":6708,"tuÃ¡nĠ":6709,"yÇĲnĠ":6710,"jiÃłnĠ":6711,"ĠyÄĽĠ":6712,"chÃ¡oĠ":6713,"yÃ¬ngĠ":6714,"chÃ©nĠ":6715,"ĠwÃłn":6716,"tÃ¡ngĠ":6717,"xiÄĵĠ":6718,"qÃŃĠ":6719,"pÇĲnĠ":6720,"ĠyÇĲĠjÃŃĠ":6721,"jiÃłĠ":6722,"shÇĲĠyÃ²ngĠ":6723,"jiÄĽĠ":6724,"hÃ¡ngĠ":6725,"yÇĲĠ":6726,"lÃºnĠ":6727,"rÃ³ngĠ":6728,"ĠyÃ³u":6729,"jiÇİngĠ":6730,"pÃ¡iĠ":6731,"fÅ«Ġ":6732,"jiÇĶĠ":6733,"1Ġ":6734,"lÃ¬ngĠ":6735,"Ã©Ġ":6736,"tÃ¡iĠwÄģn":6737,"ĠhÃłoĠ":6738,"ĠdeĠdÃ¬Ġ":6739,"xÅ«Ġ":6740,"kÄĽĠyÇĲĠ":6741,"huÃ¡ngĠ":6742,"xiÄģnĠ":6743,"duÃłnĠ":6744,"kÃ¨Ġ":6745,"dÇİngĠ":6746,"mÃ³Ġ":6747,"cÄģnĠ":6748,"yÃŃngĠ":6749,"tiÃ¡oĠ":6750,"biÄģoĠ":6751,"ĠdeĠyÄ«Ġ":6752,"kÄģiĠshÇĲĠ":6753,"quÃ¡nĠ":6754,"zhÇİnĠ":6755,"ĠchÃ©ngĠwÃ©iĠ":6756,"yÄĽĠ":6757,"hÃ³ngĠ":6758,"mÃ©iĠyÇĴuĠ":6759,"hÃłnĠ":6760,"yÄ«nĠ":6761,"wÄĽiĠyuÃ¡nĠ":6762,"qiÄģnĠ":6763,"bÇİnĠ":6764,"xiÃłnĠ":6765,"lÃŃngĠ":6766,"xiÄģoĠ":6767,"ĠtÃ³ngĠ":6768,"huÃŃĠ":6769,"sÅ«Ġ":6770,"fÃ¡ngĠ":6771,"mÃ©ngĠ":6772,"zhuÄģngĠ":6773,"kÅįngĠ":6774,"jÃºĠ":6775,"cÅ«nĠ":6776,"bÄģoĠkuÃ²Ġ":6777,"rÃ©nĠkÇĴuĠ":6778,"ĠqÃŃĠzhÅįngĠ":6779,"2Ġ":6780,"ĠgÅįngĠsÄ«Ġ":6781,"huÃ²Ġ":6782,"zÇĲĠ":6783,"xÃŃngĠ":6784,"dÅįuĠ":6785,"ĠdeĠshÃ¬Ġ":6786,"ĠĠĠzÃłiĠ":6787,"qiÃ¡ngĠ":6788,"zhÃłoĠ":6789,"dÃºĠ":6790,"zhÃ¨ngĠzhÃ¬Ġ":6791,"yÃŃĠgÃ¨":6792,"mÃ²Ġ":6793,"ĠfÄĵnĠ":6794,"cÇİiĠ":6795,"bÄ«ngĠ":6796,"fÇİĠguÃ³Ġ":6797,"ĠgÄģoĠ":6798,"ĠdÃłĠxuÃ©Ġ":6799,"ĠshÃ¬ĠyÄ«Ġ":6800,"hÃ¡iĠ":6801,"ĠtÄģĠdeĠ":6802,"hÃºĠ":6803,"chÃ¹Ġ":6804,"qÄ«nĠ":6805,"lÃ¹nĠ":6806,"fÃłnĠ":6807,"zhÄĵnĠ":6808,"guÄģngĠ":6809,"wÃ¨nĠ":6810,"mÃłnĠ":6811,"ĠjiÃ©Ġ":6812,"shÃ¨Ġ":6813,"biÇİoĠshÃ¬Ġ":6814,"ÃłiĠ":6815,"zhÅįngĠdeĠ":6816,"jÅ«Ġ":6817,"ĠjiÃłoĠ":6818,"zhuÄģnĠ":6819,"diÃłoĠ":6820,"bÃ¡iĠ":6821,"dÇİĠ":6822,"quÃ¨Ġ":6823,"diÃłnĠshÃ¬Ġ":6824,"ĠdÅįngĠ":6825,"ĠdÃ¹Ġ":6826,"fÃ¨iĠ":6827,"ĠshÃ¬ĠwÃ¨iĠ":6828,"ĠmÃ¹Ġ":6829,"hÃ¡nĠ":6830,"shÃ¬ĠdeĠ":6831,"ĠtÃ¨Ġ":6832,"xÃ¹nĠ":6833,"ĠjÄ«nĠ":6834,"piÃłnĠ":6835,"mÃ¬ngĠ":6836,"jÇĶĠ":6837,"ĠjiÄģngĠ":6838,"tuÅįĠ":6839,"gÃ¹Ġ":6840,"ĠrÃ©nĠkÇĴuĠ":6841,"xiÅ«Ġ":6842,"ĠbÃ¹ĠfÃ¨nĠ":6843,"xiÃ©Ġ":6844,"zÃłoĠ":6845,"ĠhÃ©ĠguÃ³Ġ":6846,"zhÅįngĠguÃ³Ġ":6847,"guÇĴĠ":6848,"10ĠyuÃ¨Ġ":6849,"shÅįuĠ":6850,"ĠzuÃ¬":6851,"xÃ¬nĠ":6852,"12ĠyuÃ¨Ġ":6853,"7ĠyuÃ¨Ġ":6854,"9ĠyuÃ¨Ġ":6855,"ĠshÄ«Ġ":6856,"zhuÇİnĠ":6857,"tÄģĠ":6858,"dÄģngĠ":6859,"miÃłnĠjÄ«Ġ":6860,"ĠrÃ©nĠmÃŃnĠ":6861,"8ĠyuÃ¨Ġ":6862,"xÃºnĠ":6863,"ĠdÃ¬ĠqÅ«Ġ":6864,"wÅ«Ġ":6865,"3ĠyuÃ¨Ġ":6866,"ĠguÃ²Ġ":6867,"ĠsuÇĴĠ":6868,"1ĠyuÃ¨Ġ":6869,"ĠjÄ«ngĠ":6870,"ĠshÇĴuĠ":6871,"gÇİnĠ":6872,"huÃ¡nĠ":6873,"dÃŃĠ":6874,"xiÃ¡Ġ":6875,"jiÇİĠ":6876,"5ĠyuÃ¨Ġ":6877,"yÄ«ngĠguÃ³Ġ":6878,"ĠcÇĲĠ":6879,"3Ġ":6880,"dÃłoĠ":6881,"dÇĲĠ":6882,"zhÅ«Ġ":6883,"tÄ«ngĠ":6884,"zhÃ¨ngĠshÃ¬Ġ":6885,"chÃ³ngĠ":6886,"huÇĴĠ":6887,"zhÅįuĠ":6888,"6ĠyuÃ¨Ġ":6889,"zhuÃłngĠ":6890,"chÃ©ngĠshÃ¬Ġ":6891,"4ĠyuÃ¨Ġ":6892,"ĠguÃ³ĠjiÄģĠ":6893,"tiÃ¡nĠ":6894,"gÃ¨ngĠ":6895,"ĠĠĠdÃ¬Ġ":6896,"fÃłngĠ":6897,"yÇĴngĠ":6898,"shÇĶĠyÃºĠ":6899,"ĠpÃŃngĠfÄģng":6900,"pÃ²Ġ":6901,"jÅ«nĠ":6902,"ĠdÃ¬ĠyÄ«Ġ":6903,"ĠqiÃ¡nĠ":6904,"11ĠyuÃ¨Ġ":6905,"ĠdÄĽngĠ":6906,"qÃ¹Ġ":6907,"qÃºnĠ":6908,"jiÃłngĠ":6909,"tÃ¡oĠ":6910,"ĠshÃ¬ĠjÃ¬Ġ":6911,"ĠpÃŃngĠfÄģngĠgÅįngĠlÇĲĠ":6912,"ĠtÃ³ngĠshÃŃĠ":6913,"ĠmÇİĠ":6914,"dÄģnĠrÃ¨nĠ":6915,"ĠtiÄģnĠ":6916,"ĠrÃºĠ":6917,"gÄĵnĠ":6918,"biÃ©Ġ":6919,"ĠsuÃ¬":6920,"pÃłiĠ":6921,"dÅ«Ġ":6922,"shÇİoĠ":6923,"liÃ¡ngĠ":6924,"huÄ«Ġ":6925,"tiÄĽĠ":6926,"nÃ³ngĠ":6927,"jÇĲĠ":6928,"ĠniÃ¡nĠ1ĠyuÃ¨Ġ":6929,"tÇİĠ":6930,"diÃłnĠyÇĲngĠ":6931,"ĠqÄ«Ġ":6932,"zÅįngĠ":6933,"chÇĶĠ":6934,"ĠzhÃ¨":6935,"sÇĲĠ":6936,"ÄĽrĠ":6937,"ĠdeĠshÃŃĠ":6938,"shuÄģngĠ":6939,"tÃ¡iĠwÄģnĠ":6940,"qiÃ¡oĠ":6941,"gÄĵnĠjÃ¹Ġ":6942,"lÃ¬ĠshÇĲĠ":6943,"chÃºĠ":6944,"ĠshÃ¬ĠzhÃ¨nĠ":6945,"gÃłoĠ":6946,"bÃłiĠ":6947,"cÄģnĠjiÄģĠ":6948,"yÃ¹nĠdÃ²ng":6949,"gÄģngĠ":6950,"chÄĵĠzhÃłnĠ":6951,"guÃ³ĠdeĠ":6952,"jiÇİoĠ":6953,"ĠwÃłnĠ":6954,"ĠyÄ«nĠwÃ¨iĠ":6955,"ĠrÃ¬ĠbÄĽnĠ":6956,"ĠpÃŃngĠfÄģngĠ":6957,"lÃ¬ĠdeĠ":6958,"ĠniÃ¡nĠdeĠ":6959,"gÃłiĠ":6960,"pÃłnĠ":6961,"ĠwÃ©nĠ":6962,"ĠhÇİiĠ":6963,"zhÃ¨ngĠfÇĶĠ":6964,"bÃ¬ngĠ":6965,"zhÇĶnĠ":6966,"ĠniÃ¡nĠ12ĠyuÃ¨Ġ":6967,"wÇİĠ":6968,"yÃłnĠ":6969,"wÇĴĠ":6970,"gÃ²ngĠhÃ©ĠguÃ³Ġ":6971,"ĠxiÃłnĠdeĠ":6972,"ĠfÃºĠ":6973,"yÃ¡Ġ":6974,"yÃŃnĠ":6975,"fÄģĠxiÃłnĠ":6976,"formulaĠ":6977,"chuÃłngĠ":6978,"hÄĵiĠ":6979,"ĠsuÇĴ":6980,"qÅ«ĠdeĠ":6981,"sÃ²ngĠ":6982,"huÃłnĠ":6983,"hÄģĠ":6984,"hÄĽnĠ":6985,"5Ġ":6986,"tÃŃĠgÅįngĠ":6987,"4Ġ":6988,"jÃ¬nĠxÃŃngĠ":6989,"ĠbÄĽiĠ":6990,"lÃ©iĠ":6991,"2ĠyuÃ¨Ġ":6992,"jÄ«ngĠjÃ¬Ġ":6993,"tÅįngĠguÃ²Ġ":6994,"ĠniÃ¡nĠ3ĠyuÃ¨Ġ":6995,"suÃŃĠ":6996,"chuÄģnĠ":6997,"qiÄĽĠ":6998,"ĠzhÅįngĠyÄģng":6999,"ĠguÃ³ĠjÃ¬Ġ":7000,"huÄģĠ":7001,"shÃłngĠdeĠ":7002,"ĠyÃ³uĠyÃºĠ":7003,"ĠyÃ²uĠ":7004,"lÄĵiĠ":7005,"wÄĽiĠyuÃ¡nĠhuÃ¬Ġ":7006,"kÇİoĠ":7007,"ĠniÃ¡nĠ7ĠyuÃ¨Ġ":7008,"wÃ¡nĠ":7009,"chÄĵngĠwÃ©iĠ":7010,"ĠniÃ¡nĠ10ĠyuÃ¨Ġ":7011,"bÇİiĠ":7012,"dÄĵngĠ":7013,"ĠyÄ«ngĠ":7014,"ĠshÃ¬ĠjiÃ¨Ġ":7015,"ĠyÄ«nĠcÇĲĠ":7016,"mÃŃngĠwÃ¨iĠ":7017,"ĠjÃ¬nĠxÃŃngĠ":7018,"nuÃ²Ġ":7019,"ĠshÃ¬ĠzÃłiĠ":7020,"chÅįngĠ":7021,"ĠrÃ¡nĠ":7022,"zhÇĶĠyÃ¬Ġ":7023,"ĠniÃ¡nĠ9ĠyuÃ¨Ġ":7024,"kuÃłiĠ":7025,"tÇĶĠ":7026,"ĠzhÄ«ĠhÃ²uĠ":7027,"yÃ¡nĠjiÅ«Ġ":7028,"ĠtÄģĠmenĠ":7029,"qiÃºĠ":7030,"mÃłiĠ":7031,"shÃŃĠdeĠ":7032,"liÃłnĠ":7033,"hÃłoĠ":7034,"ĠniÃ¡nĠ5ĠyuÃ¨Ġ":7035,"ĠliÃ¡nĠ":7036,"sÃłĠ":7037,"lÃºĠ":7038,"xÃ¬ĠtÇĴngĠ":7039,"ĠzuÃ¬Ġ":7040,"pÃ¨iĠ":7041,"lÇĶĠ":7042,"ĠniÃ¡nĠ4ĠyuÃ¨Ġ":7043,"chÇĲĠ":7044,"liÃłoĠ":7045,"ĠdÄģngĠ":7046,"ĠniÃ¡nĠ8ĠyuÃ¨Ġ":7047,"ĠniÃ¡nĠ6ĠyuÃ¨Ġ":7048,"ĠxÃŃngĠdeĠ":7049,"zÄĵngĠ":7050,"rÃ©nĠdeĠ":7051,"ĠshÇĲĠ":7052,"xiÄģngĠgÇİngĠ":7053,"xuÄģnĠ":7054,"qÄ«ĠjiÄģnĠ":7055,"dÃ©Ġ":7056,"kuÃłngĠ":7057,"guÇİnĠlÇĲĠ":7058,"ĠgÅįngĠzuÃ²Ġ":7059,"piÃłoĠ":7060,"ĠzhÄ«ĠyÄ«Ġ":7061,"xÇĶĠ":7062,"ÄĵnĠ":7063,"dÄ«Ġ":7064,"hÃ©ngĠ":7065,"dÃłĠdeĠ":7066,"bÇĶĠ":7067,"yÃłngĠ":7068,"sÄĵnĠ":7069,"ĠzhÅįngĠxÄ«nĠ":7070,"xuÄģnĠbÃ¹Ġ":7071,"tuÄ«Ġ":7072,"ĠniÃ¡nĠ11ĠyuÃ¨Ġ":7073,"zÇĶĠzhÄ«Ġ":7074,"rÃ¬Ġ":7075,"wÃłngĠ":7076,"bÃ¹ĠdeĠ":7077,"pÃŃĠ":7078,"menĠ":7079,"ĠbÄģoĠkuÃ²Ġ":7080,"chÃłngĠ":7081,"yÇĲngĠxiÇİngĠ":7082,"yÇİngĠ":7083,"ĠtÄģĠzÃłiĠ":7084,"qiÄģnĠmÇĲĠ":7085,"sÄģiĠ":7086,"ĠĠĠshÄĵngĠ":7087,"Ã©rĠ":7088,"ĠhuÃ²ĠdÃ©Ġ":7089,"pÄ«Ġ":7090,"ĠshÃ¬ĠjiÃ¨":7091,"luÃ³ĠsÄ«Ġ":7092,"hÃ¨Ġ":7093,"kÄĽĠnÃ©ng":7094,"chÃ©ngĠdeĠ":7095,"ĠgÄģi":7096,"ĠqÄ«ngĠ":7097,"ĠmÄĽi":7098,"niÃłnĠ":7099,"dÃ¹nĠ":7100,"xiÃ¡nĠ":7101,"ĠÄģĠ":7102,"lÃ³uĠ":7103,"qÃŃĠtÄģĠ":7104,"ĠniÃ¡nĠ2ĠyuÃ¨Ġ":7105,"ĠchÃ©ngĠlÃ¬Ġ":7106,"leĠyÄ«Ġ":7107,"bÄģngĠ":7108,"huÃ³ĠdÃ²ngĠ":7109,"ĠlÃ¡iĠ":7110,"ĠrÃ¨nĠwÃ©iĠ":7111,"ĠfÄĵn":7112,"ĠbÇĲĠ":7113,"yÅįuĠ":7114,"liÃ¹Ġ":7115,"ĠshÃ¹Ġ":7116,"kÄĵĠxuÃ©Ġ":7117,"fÄģĠzhÇİnĠ":7118,"huÃ²ĠdÃ©Ġ":7119,"jÃ¹nĠ":7120,"ĠluÃ³Ġ":7121,"ĠzuÃ²ĠwÃ©iĠ":7122,"6Ġ":7123,"yÄģĠ":7124,"ĠpÃŃngĠfÄģngĠqiÄģnĠmÇĲĠ":7125,"huÃ¡ĠrÃ©nĠmÃŃnĠ":7126,"ĠwÃºĠ":7127,"rÃ¬ĠbÄĽnĠ":7128,"bÄĵiĠ":7129,"lÇİoĠ":7130,"huÃ¬ĠyÃ¬Ġ":7131,"rÃ¨Ġ":7132,"ĠzhÃŃ":7133,"ĠliÃºĠ":7134,"tÃ¡nĠ":7135,"jiÄģnĠdeĠ":7136,"kÃ¹Ġ":7137,"tiÄĽĠlÃ¹Ġ":7138,"ĠdeĠrÃ©nĠ":7139,"yÃ²ngĠyÃºĠ":7140,"liÃ¡oĠ":7141,"nÃŃngĠ":7142,"ĠshÃŃĠjiÄģnĠ":7143,"ĠdeĠgÅįngĠ":7144,"ĠzhÄģngĠ":7145,"ĠshÄģnĠ":7146,"gÃ¨Ġ":7147,"miÇİnĠ":7148,"ĠyÃ¡nĠ":7149,"miÃłnĠjÄ«":7150,"mÃŃnĠguÃ³Ġ":7151,"ruÃ¬Ġ":7152,"wÅ«ĠkÃ¨Ġ":7153,"yÃ¬nĠ":7154,"xiÇİnĠ":7155,"lÃ¨Ġ":7156,"zuÇĴĠ":7157,"gÃ²ngĠyÇĴuĠ":7158,"ĠĠĠlÃ¬ĠshÇĲĠ":7159,"hÇİoĠ":7160,"ĠĠĠshÄĵngĠpÃŃngĠ":7161,"huÃ¡ĠrÃ©nĠmÃŃnĠgÃ²ngĠhÃ©ĠguÃ³Ġ":7162,"fÄģngĠshÃ¬Ġ":7163,"fÄģĠshÄĵngĠ":7164,"gÄģnĠ":7165,"ĠzhÃŃĠ":7166,"ĠcÃ³ngĠ":7167,"dÃ²uĠ":7168,"wÃ¨nĠtÃŃĠ":7169,"guÃłnĠjÅ«nĠ":7170,"zhÇĶĠyÃłoĠ":7171,"rÃ¡nĠ":7172,"dÃ¬ĠdeĠ":7173,"ĠdÃ¬ĠÃ¨rĠ":7174,"dÇİoĠzhÃ¬Ġ":7175,"ĠxiÇİoĠ":7176,"guÄģnĠxÃ¬Ġ":7177,"cÃºnĠ":7178,"kÄģngĠ":7179,"cÄģnĠyÃ¹Ġ":7180,"ĠjÇĲnĠ":7181,"yuÇİnĠ":7182,"ĠbÃ¹ĠfÃ¨n":7183,"zhÄĽngĠ":7184,"ĠgÅįngĠchÃ©ngĠ":7185,"wÃ¡nĠchÃ©ngĠ":7186,"dÄģnĠwÃ¨iĠ":7187,"kÄĽĠnÃ©ngĠ":7188,"ĠzhÇĲĠ":7189,"ĠwÇĶĠ":7190,"yÄ«ĠwÃ¨iĠ":7191,"ĠzÃ©Ġ":7192,"1ĠrÃ¬Ġ":7193,"xiÃ¨Ġ":7194,"ĠzÇĴngĠ":7195,"suÇĴĠyÇĴuĠ":7196,"zhÃ¬ĠdeĠ":7197,"wÃ©nĠhuÃłĠ":7198,"ĠchÃ©ngĠyuÃ¡nĠ":7199,"ĠdeĠchÃ©ngĠ":7200,"gÄĽiĠ":7201,"lÇļĠ":7202,"ĠbÄģĠ":7203,"ĠtÅįngĠ":7204,"yuÃ¡nĠdeĠ":7205,"yÅįngĠyÇĴuĠ":7206,"cÃºnĠzÃłiĠ":7207,"Ã¨rĠshÃŃĠ":7208,"bÄĽiĠbÃ¹Ġ":7209,"liÃ¡nĠhÃ©Ġ":7210,"hÃ²uĠdeĠ":7211,"niÇĶĠ":7212,"ĠxÃ¬Ġ":7213,"ĠshÃ¬ĠzhÅįngĠ":7214,"zhÃ¨ngĠfÇĶ":7215,"yÃ³uĠyÃºĠ":7216,"guÃ³ĠjiÄģĠ":7217,"duÃ¬ĠyÃºĠ":7218,"ĠniÃ¡nĠzhÃ¬Ġ":7219,"fÄģĠxÃŃngĠ":7220,"yÃ¬ĠdeĠ":7221,"jÃ¹ĠyÇĴuĠ":7222,"ĠzhÇĲ":7223,"ĠjiÃłnĠzhÃ¹Ġ":7224,"bÇĲĠsÃłiĠ":7225,"ĠbÃ¬ngĠzÃłiĠ":7226,"ĠdÃłoĠleĠ":7227,"xÄ«nĠdeĠ":7228,"ÅįuĠ":7229,"sÄ«ĠdeĠ":7230,"shÄĽnĠ":7231,"zÃ¬ĠjÇĲ":7232,"yÃ¹nĠdÃ²ngĠ":7233,"yÃºnĠ":7234,"xÃŃngĠzhÃ¨ngĠ":7235,"yÃ¬nĠdÃ¹Ġ":7236,"Ã©ĠluÃ³ĠsÄ«Ġ":7237,"bÄ«nĠ":7238,"ĠmiÃłnĠjÄ«Ġ":7239,"dÃłiĠbiÇİoĠ":7240,"ĠmÄĽiĠguÃ³Ġ":7241,"shÃłoĠ":7242,"geĠ":7243,"ĠlÃ¬ngĠ":7244,"xÇĶĠduÅįĠ":7245,"Ã¨Ġ":7246,"ĠdÃłnĠshÃ¬Ġ":7247,"rÃ¨nĠhÃ©Ġ":7248,"shÄĵngĠyÃºĠ":7249,"tÅ«Ġ":7250,"guÃ¬Ġ":7251,"mÇİnĠ":7252,"ĠniÃ¡nĠdÃłiĠ":7253,"ĠjiÇİnĠ":7254,"dÄ«ngĠ":7255,"liÇİngĠgÃ¨Ġ":7256,"chÃ¨Ġ":7257,"bÇİoĠhÃ¹Ġ":7258,"ĠrÃ©nĠkÇĴuĠmÃ¬Ġ":7259,"ĠshÇĲ":7260,"zhĠ":7261,"xiÃ¹Ġ":7262,"xuÃ¡nĠ":7263,"ĠdÄģngĠshÃŃĠ":7264,"zhÃłngĠ":7265,"ĠdeĠyÃŃĠgÃ¨Ġ":7266,"nÃ¡nĠbÃ¹Ġ":7267,"jÇĶĠxÃŃngĠ":7268,"ĠdiÃłnĠ":7269,"zhuÄģnĠjÃŃĠ":7270,"miÃłnĠjÄ«ĠwÃ¨iĠ":7271,"lÃ¡iĠdeĠ":7272,"ĠguÄģnĠ":7273,"fÄģnĠ":7274,"zÇİoĠ":7275,"ĠcÃ©ngĠ":7276,"ĠzhÃ¨ngĠfÇĶĠ":7277,"dÃºĠlÃ¬Ġ":7278,"fÃºĠwÃ¹Ġ":7279,"juÃ©ĠdÃ¬ngĠ":7280,"xiÄĽĠ":7281,"ĠchÅ«ĠdeĠ":7282,"ruÃ²Ġ":7283,"zhÇĶĠyÃło":7284,"kÄģiĠshÇĲ":7285,"ĠlÃ¬ĠshÇĲĠ":7286,"qÇĲngĠ":7287,"ĠsÄģnĠ":7288,"ĠshÃ¨ĠjÃ¬Ġ":7289,"ĠwÃ¡ngĠ":7290,"ĠmÄĽiĠ":7291,"mÃŃngĠdeĠ":7292,"hÃłiĠ":7293,"rÃłngĠ":7294,"ĠshÃ¬ĠwÃ¨iĠyÃºĠ":7295,"jiÃ¹ĠshÃ¬Ġ":7296,"ĠyÇĴuĠyÄ«Ġ":7297,"gÄĵngĠ":7298,"ĠjiÄģng":7299,"gtĠ":7300,"ĠcÇĲ":7301,"ĠgtĠ":7302,"xÇĲĠ":7303,"tÃłnĠ":7304,"ĠqÃŃĠtÄģĠ":7305,"ĠfÇİĠ":7306,"ĠxÃŃngĠzhÃ¨ngĠ":7307,"pÃ©iĠ":7308,"jiÃłoĠyÃ¹Ġ":7309,"shÃ²uĠdÃłoĠ":7310,"ÄģiĠ":7311,"ĠfÄĵngĠ":7312,"ltĠ":7313,"rÃ¨nĠwÃ©iĠ":7314,"fÇİngĠ":7315,"kÄģnĠ":7316,"wÇİnĠ":7317,"ĠjiÄĵĠ":7318,"ĠshÃ¬ĠdÃ¬Ġ":7319,"fÄģĠzhÇİn":7320,"shÃ¨ĠhuÃ¬Ġ":7321,"ĠltĠ":7322,"yÃ¬ĠwÃ¨iĠ":7323,"gÃ¹ĠshÃ¬Ġ":7324,"shÃłnĠ":7325,"piÄģnĠ":7326,"fÄģngĠmiÃłnĠ":7327,"ĠxiÃłnĠzÃłiĠ":7328,"qÅ«ĠwÃ¨iĠ":7329,"ĠzuÃ¬ĠzhÅįngĠ":7330,"ĠbÃ¬Ġ":7331,"qÃŃnĠ":7332,"ĠzhÅįngĠyÄģngĠ":7333,"pÃłoĠ":7334,"ĠshÃ¬ĠshÃ¬Ġ":7335,"tuÃ¬Ġ":7336,"zheĠ":7337,"nÃ¨iĠdeĠ":7338,"ĠjiÃ¹Ġ":7339,"shÇĶĠdeĠ":7340,"xiÄģngĠgÇİng":7341,"xiÇİoĠshÃŃĠ":7342,"dÃłnĠ":7343,"ĠqÅ«Ġ":7344,"ĠlÃ¬ĠrÃºĠ":7345,"zÃºĠqiÃºĠ":7346,"shÃ¹ĠjÃ¹Ġ":7347,"ĠbÃ¹ĠtÃ³ng":7348,"liÃ¨ĠchÄĵĠ":7349,"xÅ«ĠyÃłoĠ":7350,"huÃłĠdeĠ":7351,"ĠsuÄ«":7352,"ĠdÃ²ngĠ":7353,"zhÃŃĠwÃ¹Ġ":7354,"rÃ©nĠshÃ¬Ġ":7355,"qiÄģngĠ":7356,"zuÃ²ĠdeĠ":7357,"shÇĲĠyÃ²ng":7358,"zÄĵngĠjiÄģĠ":7359,"ĠjÃ¬ĠhuÃłĠ":7360,"mÃŃnĠzhÇĶĠ":7361,"ĠshÃŃĠqÄ«Ġ":7362,"zuÃ²ĠwÃ©iĠ":7363,"ĠgÇĶĠ":7364,"ĠcÃ©ng":7365,"kÃ²ngĠzhÃ¬Ġ":7366,"ĠyÄĽĠshÃ¬Ġ":7367,"duÇİnĠ":7368,"tÇİnĠ":7369,"ĠjiÃłnĠdeĠ":7370,"yÄ«nĠyuÃ¨Ġ":7371,"ĠrÃ¡nĠÃ©rĠ":7372,"ĠÄģnĠ":7373,"ĠshÇĶĠyÃºĠ":7374,"ĠyÇĲĠjÄ«ngĠ":7375,"lÃ¡ngĠ":7376,"ĠhÃ©ĠzuÃ²Ġ":7377,"ĠzÃłiĠdÃ¬Ġ":7378,"rÃ©nĠmÃŃnĠ":7379,"ĠshÃ¬ĠjiÃłnĠ":7380,"ĠrÃ©nĠyuÃ¡nĠ":7381,"ĠyÃ²u":7382,"tÄģĠdeĠ":7383,"ĠkÄĵĠ":7384,"ĠjiÃłnĠyÃºĠ":7385,"xuÃ©ĠyuÃłnĠ":7386,"zÇĶĠchÃ©ngĠ":7387,"ĠmÇİ":7388,"chÄģoĠguÃ²Ġ":7389,"ĠgÃ©Ġ":7390,"zuÃ²ĠpÇĲnĠ":7391,"ĠyÄ«nĠyuÃ¨Ġ":7392,"mÃłoĠ":7393,"ĠquÃ¡nĠguÃ³Ġ":7394,"xiÃ³ngĠ":7395,"zÇİiĠ":7396,"hÅ«Ġ":7397,"huÃ¬ĠdeĠ":7398,"jÃ¬ĠdeĠ":7399,"ĠsÃ¬Ġ":7400,"zÇĴngĠtÇĴngĠ":7401,"suÃłnĠ":7402,"ĠzhÃ¨ĠxiÄĵĠ":7403,"7Ġ":7404,"ĠwÃ¨iĠleĠ":7405,"ĠhÃ²uĠlÃ¡iĠ":7406,"yÃºĠshÃ¬Ġ":7407,"ĠshÃ²uĠ":7408,"ĠpÇĶĠ":7409,"ĠzhÇİngĠ":7410,"ĠtÃłiĠ":7411,"ĠchÃ©ngĠgÅįngĠ":7412,"fÄģĠbÃ¹Ġ":7413,"dÃłĠlÃ¬Ġ":7414,"tÃŃĠchÅ«Ġ":7415,"ĠsuÃ¬Ġ":7416,"ĠlÃ¬ĠyÃłĠ":7417,"Ġ000":7418,"ĠyÃ¬ĠyuÃ¡nĠ":7419,"ĠshÃ¨ĠyÇĴuĠ":7420,"ĠĠĠdeĠ":7421,"ĠyÄ«nĠcÇĲ":7422,"yÃ¹nĠdÃ²ngĠyuÃ¡nĠ":7423,"yÄģoĠqiÃºĠ":7424,"hÃ¡nĠguÃ³Ġ":7425,"bÃ¹ĠzÃłiĠ":7426,"nÃŃĠyÃł":7427,"pÃŃnĠ":7428,"yÇĴuĠdeĠ":7429,"pÃºĠ":7430,"zÃłoĠchÃ©ngĠ":7431,"ÅįuĠzhÅįuĠ":7432,"qiÅ«Ġ":7433,"cÇİiĠyÃ²ngĠ":7434,"xiÇİoĠxÃŃngĠ":7435,"ĠgÅįngĠyuÃ¡nĠ":7436,"jiÄģĠdeĠ":7437,"xÃ¬ngĠdeĠ":7438,"bÇİĠ":7439,"shÄĵngĠdeĠ":7440,"ĠdeĠyÃŃĠgÃ¨":7441,"ĠrÃ¬ĠzÃłiĠ":7442,"dÄģngĠshÃŃĠ":7443,"kÃ²ngĠ":7444,"rÃ©nĠwÃ¹Ġ":7445,"fÃ¨ngĠ":7446,"ĠcÇĲĠwÃłiĠ":7447,"ĠsuÃŃ":7448,"gÃ²ngĠchÇİnĠ":7449,"ĠlÄģĠ":7450,"kÃłnĠ":7451,"ĠzhĠ":7452,"ĠcÃ³ng":7453,"ĠwÇĴĠ":7454,"ĠshÄģĠ":7455,"8Ġ":7456,"wÄģnĠ":7457,"ĠshÃ¬ĠhÃ©Ġ":7458,"2010ĠniÃ¡nĠ":7459,"ĠlÃ¬ng":7460,"ĠgÄĵnĠjÃ¹Ġ":7461,"ĠdeĠbÃ¹Ġ":7462,"ĠtÇĲĠ":7463,"mÇİĠwÃ¨iĠ":7464,"xuÃ©ĠjiÄģĠ":7465,"yÃ³uĠxÃ¬Ġ":7466,"sÅįngĠ":7467,"fÃłnĠwÃ©iĠ":7468,"ĠbÃ¹ĠtÃ³ngĠ":7469,"mÃ¡oĠ":7470,"dÅ«nĠ":7471,"kÄģiĠfÄģĠ":7472,"chÄģoĠ":7473,"shÃ¨ĠjÃ¬Ġ":7474,"ĠkÄĽĠ":7475,"sÄģnĠniÃ¡nĠ":7476,"qÇĶĠdÃ©Ġ":7477,"ĠdeĠjÄ«Ġ":7478,"ĠnÇļĠ":7479,"sÃłiĠshÃ¬Ġ":7480,"xiÅįngĠ":7481,"ĠĠĠshÃ¬Ġ":7482,"ĠxÃŃngĠchÃ©ngĠ":7483,"ĠĠĠdÃ¬ĠlÇĲĠ":7484,"wÄĵnĠ":7485,"zÃ¬ĠzhÃ¬Ġ":7486,"ĠyÃŃĠ":7487,"chÇİnĠshÄĵngĠ":7488,"ĠwÃ¹Ġ":7489,"ĠjiÄģnĠ":7490,"ÄģĠÄĽrĠ":7491,"yÃ¡oĠ":7492,"ĠdeĠjÃ¬Ġ":7493,"shÅ«ĠjÃ¬Ġ":7494,"jiÃ©ĠmÃ¹Ġ":7495,"ĠbÃ¬ngĠyÃºĠ":7496,"10Ġ":7497,"dÅįuĠshÃ¬Ġ":7498,"nÇĲĠ":7499,"ĠliÇİngĠ":7500,"chÃ³ngĠxÄ«nĠ":7501,"lÃ¼Ã¨Ġ":7502,"chÅ«nĠ":7503,"ĠshÃ¨ĠhuÃ¬Ġ":7504,"zhÃ²ngĠyÃło":7505,"lÇĲĠdeĠ":7506,"bÃºĠshÃ¬Ġ":7507,"zÃłnĠ":7508,"ĠdÃłiĠbiÇİoĠ":7509,"yÄ«ĠniÃ¡nĠ":7510,"ĠxiÄģngĠgÇİngĠ":7511,"ĠsÄ«ĠtÃ¨Ġ":7512,"diÃłnĠyÇĲng":7513,"guÄģnĠyÃºĠ":7514,"dÃłngĠ":7515,"zhuÄ«Ġ":7516,"xÃ¬ĠtÇĴng":7517,"ĠnÃłĠ":7518,"juÃ©ĠsÃ¨Ġ":7519,"ĠfÃº":7520,"jiÄģoĠtÅįngĠ":7521,"dÇĲngĠ":7522,"lÇİngĠ":7523,"ĠyÃ³uĠxÃ¬Ġ":7524,"dÃłĠxuÃ©Ġ":7525,"jÃŃĠdeĠ":7526,"gÄĵĠqÇĶĠ":7527,"chÃºĠleĠ":7528,"ĠchÅ«ĠxiÃłnĠ":7529,"ĠjiÃ©":7530,"tÇİoĠ":7531,"2020ĠniÃ¡nĠ":7532,"mÃŃĠ":7533,"ĠzhÃ¬ĠzuÃ²Ġ":7534,"ĠdÃłĠxuÃ©":7535,"pÃŃngĠjÅ«nĠ":7536,"ĠchÃ©nĠ":7537,"ĠdÃ©ĠguÃ³Ġ":7538,"xiÇİnĠshÃ¬Ġ":7539,"huÃ¡ĠmÃŃnĠguÃ³Ġ":7540,"ĠshÄĵnĠ":7541,"kuÃ²Ġ":7542,"ĠniÃ¡nĠzÃłiĠ":7543,"ĠzhÅįngĠhuÃ¡ĠrÃ©nĠmÃŃnĠgÃ²ngĠhÃ©ĠguÃ³Ġ":7544,"kÇĴngĠ":7545,"hÃ²uĠzÃłiĠ":7546,"miÃ¡oĠ":7547,"ĠliÇİng":7548,"ĠniÃ¡nĠdÃłi":7549,"Ã¨rĠniÃ¡nĠ":7550,"xiÃłĠdeĠ":7551,"yÇİnĠyuÃ¡nĠ":7552,"ĠkÃ¨ĠsÄ«Ġ":7553,"Ġ0":7554,"dÃ©ĠguÃ³Ġ":7555,"xiÃ¡ngĠ":7556,"qÃ¬ngĠ":7557,"ĠbÇİoĠ":7558,"wÃ©iĠyÄ«Ġ":7559,"cÇİoĠ":7560,"dÄģngĠdÃ¬Ġ":7561,"guÃ³ĠjÃ¬Ġ":7562,"duÃ¬ĠdeĠ":7563,"bÃ³ĠwÃ¹Ġ":7564,"ĠfÄĵiĠ":7565,"ĠjiÃłnĠlÃ¬Ġ":7566,"hÅ«nĠ":7567,"ĠdÃ¬ĠguÃ³Ġ":7568,"ĠbÃ¹ĠyÃºĠ":7569,"Ġ1Ġ":7570,"fÇİnĠduÃ¬Ġ":7571,"zÇĴuĠ":7572,"qÄ«ĠdeĠ":7573,"duÄģnĠ":7574,"wÃ¹ĠdeĠ":7575,"xuÃ¨Ġ":7576,"yÄ«nĠwÃ¨iĠ":7577,"qÅ«ĠyÃ¹Ġ":7578,"qÃ¹ĠshÃ¬Ġ":7579,"kuÇİnĠ":7580,"yÄ«ĠbÃ¹ĠfÃ¨nĠ":7581,"wÃ²Ġ":7582,"bÃ¡ĠgÄģoĠ":7583,"ĠchÃ¡ngĠ":7584,"quÄĵĠ":7585,"2001ĠniÃ¡nĠ":7586,"guÇİnĠxiÃ¡Ġ":7587,"dÃ¹ĠwÃ¨iĠ":7588,"zhÃ¨ngĠzhÃ¬ĠrÃ©nĠwÃ¹Ġ":7589,"ĠkÇİĠ":7590,"pÃ©ngĠ":7591,"nÃŃĠyÃłĠ":7592,"hÃ¡iĠyÇĴuĠ":7593,"ĠfÄģĠ":7594,"ĠĠĠrÃ©nĠkÇĴuĠ":7595,"ĠdÄģngĠdÃ¬Ġ":7596,"zuÃ¬ĠzhÅįngĠ":7597,"ĠtÄģĠshÃ¬Ġ":7598,"ĠdÄģnĠ":7599,"ĠbÃ¹ĠduÃ¬Ġ":7600,"ĠyuÄĵĠ":7601,"lÃ¡iĠzÃ¬Ġ":7602,"chÃ¬Ġ":7603,"ĠxÃŃngĠshÃ¬Ġ":7604,"Ġ1":7605,"bÇĲĠsÃłi":7606,"qiÃ¡nĠwÇİngĠ":7607,"ĠwÄĵiĠ":7608,"zhÃŃĠyÃ¨Ġ":7609,"dÃ¬ngĠdeĠ":7610,"quÃ¡nĠguÃ³Ġ":7611,"bÄģĠshÃ¬Ġ":7612,"yÄ«ĠbÃ¹Ġ":7613,"ĠdeĠyuÃ¡nĠ":7614,"ĠzhÃ¨ngĠfÇĶ":7615,"ĠchÃºĠ":7616,"zhÃ²ngĠyÃłoĠ":7617,"ĠlÃŃnĠ":7618,"diÃłoĠchÃ¡Ġ":7619,"ĠzhÄ«ĠjiÄģnĠ":7620,"biÄģnĠmÇİĠwÃ¨iĠ":7621,"ĠhuÃ¡ngĠ":7622,"ĠniÃ¡nĠjiÄģnĠ":7623,"ĠxuÃ©ĠmÃŃngĠ":7624,"xuÃ©ĠxiÃłoĠ":7625,"zhÄģoĠ":7626,"zhÇĶĠxÃŃĠ":7627,"xuÇİnĠjÇĶĠ":7628,"ĠrÃ¬ĠzhÃ¬Ġ":7629,"gÇİiĠwÃ©iĠ":7630,"zÇĶĠzhÄ«":7631,"ĠmÃ©iĠ":7632,"ĠnÃ¨iĠ":7633,"zhÇĶĠjiÃłoĠ":7634,"fÃ¡Ġ":7635,"zÄ«ĠliÃłoĠ":7636,"ĠjÃ¬ngĠ":7637,"hÇİiĠjÅ«nĠ":7638,"gÅįngĠshÃ¬Ġ":7639,"ĠjÅ«nĠshÃ¬Ġ":7640,"ĠdeĠdÃłĠ":7641,"ĠrÃ©nĠkÇĴuĠmÃ¬ĠdÃ¹Ġ":7642,"chÇĶĠlÇĲĠ":7643,"kÃłngĠ":7644,"zÄģiĠ":7645,"sÅ«nĠ":7646,"ĠdeĠyÃ¬Ġ":7647,"fÄģngĠfÇİĠ":7648,"fÃ¹ĠzÃ©Ġ":7649,"ĠrÃ¬ĠbÄĽn":7650,"wÅ«ĠkÃ¨ĠlÃ¡nĠ":7651,"ĠĠĠyÇĶĠ":7652,"ĠduÅį":7653,"guÃłnĠ":7654,"ĠbÅįĠ":7655,"ĠjiÃ¨Ġ":7656,"shÃ¹ĠdeĠ":7657,"ĠyÇĴuĠxiÃłn":7658,"ĠshÃ¨ngĠ":7659,"dÃłiĠbiÇİo":7660,"ĠqÇĲĠ":7661,"ĠsÄģn":7662,"ĠgÃ¨ĠrÃ©nĠ":7663,"ĠhuÃłĠ":7664,"wÃºĠfÇİĠ":7665,"yÇĲngĠxiÇİng":7666,"ĠjÃ¬ĠshÃ¹Ġ":7667,"ĠshÃ¬ĠyÃ³uĠ":7668,"jiÄĵĠrÇİng":7669,"jÅ«ĠmÃŃnĠ":7670,"zuÃ¬ĠgÄģoĠ":7671,"ĠkÄģiĠ":7672,"ĠgÇİiĠ":7673,"pÃłĠ":7674,"qÃŃĠzhÅįngĠ":7675,"lÃ¹ĠdeĠ":7676,"ĠcÃ¬Ġ":7677,"ĠhÃ³ngĠ":7678,"ĠzÃ©":7679,"xuÃ©ĠshÄĵngĠ":7680,"ĠzhÄ«ĠchÃŃĠ":7681,"zÃ¬ĠyÃ³uĠ":7682,"wÄĽnĠ":7683,"biÄģoĠzhÇĶnĠ":7684,"xiÃ©ĠhuÃ¬Ġ":7685,"shÃ¹ĠliÃłng":7686,"qiÃ¨Ġ":7687,"ÄģnĠquÃ¡nĠ":7688,"fÇİnĠyÃ¬ngĠ":7689,"kÄĽĠyÇĲ":7690,"huÃ¬ĠzÃłiĠ":7691,"yÄģoĠ":7692,"shÃ¨nĠzhÃ¬Ġ":7693,"kÄĽnĠ":7694,"yÃ©Ġ":7695,"bÇĲĠlÃ¬Ġ":7696,"tÇĴngĠzhÃ¬Ġ":7697,"Ġ2Ġ":7698,"xÃ¬ĠliÃ¨Ġ":7699,"ĠsuÃŃĠ":7700,"chuÃłngĠzuÃ²Ġ":7701,"zhÇĶĠrÃ¨nĠ":7702,"ĠxÄ«n":7703,"ĠĠĠbÄĽnĠ":7704,"dÅįngĠbÃ¹Ġ":7705,"ĠdeĠyÃŃĠgÃ¨ĠshÃ¬ĠzhÃ¨nĠ":7706,"ĠshÃ¬ĠyÃŃĠgÃ¨Ġ":7707,"ĠnÃ¡n":7708,"liÃ¡nĠmÃ©ngĠ":7709,"ĠgÅįngĠsÄ«":7710,"gÄģiĠguÃ³Ġ":7711,"kÇİiĠ":7712,"ĠfÃ¹ĠzÃ©Ġ":7713,"ĠmÃŃng":7714,"fÃ¡nĠ":7715,"yÇİĠ":7716,"ĠdÃ¬ĠsÄģnĠ":7717,"ĠdÃ¬ĠshÃŃĠ":7718,"ĠĠĠxÃŃngĠzhÃ¨ngĠ":7719,"ĠsÅ«Ġ":7720,"tÇĲĠyÃ¹Ġ":7721,"ĠbÃ¹ĠguÃ²Ġ":7722,"jiÃ©ĠgÃ²uĠ":7723,"niÃºĠ":7724,"ĠdÃłoĠdeĠ":7725,"shÃŃĠniÃ¡nĠ":7726,"qÃŃngĠkuÃłngĠ":7727,"nÃ©ngĠlÃ¬Ġ":7728,"nÃ¡nĠziĠ":7729,"ĠshuÇĲĠ":7730,"zhÅįngĠshÃ¬Ġ":7731,"qÃŃngĠkuÃłng":7732,"sÃ¬ĠniÃ¡nĠ":7733,"ĠĠĠof":7734,"AĠ":7735,"ĠgÄĵĠ":7736,"ĠyÃ¡ngĠ":7737,"xÄ«ĠbÃ¹Ġ":7738,"hÃ¡oĠ":7739,"gÅįngĠbÃ¹Ġ":7740,"shÄĵngĠhuÃ³Ġ":7741,"jiÄĵĠshÃ²uĠ":7742,"mÇĴuĠ":7743,"nÇļĠzÇĲĠ":7744,"ĠÃło":7745,"lÃ¹ĠxiÃłnĠ":7746,"chÃ©ngĠlÃ¬Ġ":7747,"ĠĠĠformulaĠ":7748,"suÅįĠ":7749,"ĠzhÅįngĠxuÃ©Ġ":7750,"gÅ«Ġ":7751,"huÄģnĠ":7752,"9Ġ":7753,"miÃłnĠdeĠ":7754,"ĠjÃ¬nĠrÃ¹Ġ":7755,"yÃ¬ĠshÃ¬Ġ":7756,"ĠÄĽrĠsÄ«Ġ":7757,"ĠĠĠofĠĠĠ":7758,"ĠzhÇĶĠyÃłoĠ":7759,"bÄĽiĠjÄ«ngĠ":7760,"ĠkÄĽĠyÇĲĠ":7761,"theĠĠĠ":7762,"ĠbÄģ":7763,"yÇĴuĠshÃŃĠ":7764,"liÃ¡nĠsÃłiĠ":7765,"ĠyÃ¬ĠhuÃ¬Ġ":7766,"guÇİngĠdÅįngĠ":7767,"duÃ³Ġ":7768,"ĠÃłoĠ":7769,"ĠĠĠjiÄģĠ":7770,"lÃ¡oĠ":7771,"ĠtÃ¡iĠ":7772,"jiÃłnĠzhÃ¹Ġ":7773,"yÃłĠzhÅįuĠ":7774,"dÇİoĠdeĠ":7775,"ĠguÃ³ĠmÃŃnĠ":7776,"yÄĽĠshÃ¬Ġ":7777,"nÃ¡ĠdÃłĠ":7778,"tÃłiĠpÃŃngĠ":7779,"dÃ²ngĠwÃ¹Ġ":7780,"ĠsuÇĴĠyÇĲĠ":7781,"dÃ¬ĠwÃ¨iĠ":7782,"rÇİnĠ":7783,"guÇĲĠ":7784,"ĠzhÃ¨ĠshÃ¬Ġ":7785,"bÃ¡ĠgÄģoĠdÃ¹Ġ":7786,"dÃ¡ĠdÃłoĠ":7787,"zÃ¬ĠjÇĲĠdeĠ":7788,"lÇĲĠshÃ¬Ġ":7789,"zhÃºĠjiÃłnĠ":7790,"zhuÃłnĠ":7791,"ĠbÃ¬ngĠqiÄĽ":7792,"dÃłiĠdeĠ":7793,"bÇİnĠbÄĽnĠ":7794,"xÇĶĠduÅį":7795,"zhÄĽĠdeĠ":7796,"jiÃłoĠshÃ²uĠ":7797,"ĠhÃ¡iĠ":7798,"ĠÃ¨rĠ":7799,"2008ĠniÃ¡nĠ":7800,"xiÃłngĠmÃ¹Ġ":7801,"ĠxuÃ©ĠxiÃłoĠ":7802,"ĠhÃºĠ":7803,"ĠdÃł":7804,"wÅ«ĠkÃ¨ĠlÃ¡n":7805,"ĠmÇĶĠ":7806,"fÄĵiĠchÃ¡ngĠ":7807,"2009ĠniÃ¡nĠ":7808,"ĠxÄ«ĠyÃłĠ":7809,"qÄ«ngĠniÃ¡nĠ":7810,"ĠzÇĴng":7811,"ĠbÃ¬ngĠqiÄĽĠ":7812,"ĠzhÇĶĠyÃło":7813,"lÄģĠsÄ«Ġ":7814,"ĠĠĠgÄĵnĠjÃ¹Ġ":7815,"yÄ«ĠshÃ¬Ġ":7816,"ĠchÃ©ngĠwÃ©i":7817,"rÃ¬ĠbÄĽn":7818,"mÃ³ĠshÃ¬Ġ":7819,"zhÃ©Ġ":7820,"niÇİoĠ":7821,"wÃ©nĠwÃ¹Ġ":7822,"ĠtÄģĠmenĠdeĠ":7823,"ĠyÃ¬ĠshÃ¹Ġ":7824,"zhÇĲĠyÇĴuĠ":7825,"chÄģĠ":7826,"kuÄģnĠ":7827,"ĠjÃ¬ĠlÃ¹Ġ":7828,"ĠzhÅįuĠdeĠ":7829,"ĠÃłiĠ":7830,"ĠmÃŃnĠ":7831,"hÃ¡ngĠkÅįngĠ":7832,"ĠyÃºĠshÃ¬Ġ":7833,"wÃ©nĠxuÃ©Ġ":7834,"ĠbÃ³Ġ":7835,"fÄĵnĠwÃ©iĠ":7836,"suÄģnĠ":7837,"huÇĲĠ":7838,"ĠqÃŃĠshÃ¬Ġ":7839,"ĠqÃŃĠyÃºĠ":7840,"dÄĽngĠrÃ©nĠ":7841,"tÅįngĠguÃ²":7842,"cÃ¡ngĠ":7843,"zhÇĲĠchÅ«Ġ":7844,"sĠ":7845,"shuÃłiĠ":7846,"ĠyÃ²ngĠ":7847,"28ĠrÃ¬Ġ":7848,"rÃ©nĠkÇĴuĠpÇĶĠ":7849,"cuÃ²Ġ":7850,"zhÃŃĠxÃŃngĠ":7851,"ĠjÄ«n":7852,"tÃ³ngĠshÃŃĠ":7853,"ĠqiÃºĠduÃ¬Ġ":7854,"zhÃłĠ":7855,"ĠlÃ¬ĠyÃł":7856,"yÇİnĠchÅ«Ġ":7857,"zhÃŃĠjiÄĵĠ":7858,"gÄģiĠdÃ¬Ġ":7859,"jÇĲnĠbiÄģoĠ":7860,"gÃ©ĠlÃ¡nĠ":7861,"2016ĠniÃ¡nĠ":7862,"huÃ³ĠdÃ²ng":7863,"rÃ¨nĠwÃ©i":7864,"zhÃ¨ĠyÄ«Ġ":7865,"jÃ¬nĠrÃ¹Ġ":7866,"ĠzhÄ«ĠjiÄģnĠdeĠ":7867,"ĠgÅįngĠkÄģiĠ":7868,"ĠdÄģngĠzhÅįngĠ":7869,"hÃ¹nĠ":7870,"gÃ²ngĠtÃ³ngĠ":7871,"xiÃłĠjÃ¬Ġ":7872,"ĠdÃłnĠzÃłiĠ":7873,"Ġ2":7874,"ĠC":7875,"zhÃłnĠzhÄĵngĠ":7876,"chÃ³uĠ":7877,"wÇĶĠniÃ¡nĠ":7878,"jiÄģngĠjÅ«nĠ":7879,"ĠwÃº":7880,"lÃ¨ĠbÃ¹Ġ":7881,"mÃ©iĠtÇĲĠ":7882,"tÇĲĠdeĠ":7883,"chÄĵĠzhÃłn":7884,"pÅįĠ":7885,"15ĠrÃ¬Ġ":7886,"mÃ¨ngĠ":7887,"tÃ¬Ġ":7888,"tuÄ«ĠchÅ«Ġ":7889,"diÃ©Ġ":7890,"jiÃłoĠyÃ¹":7891,"yÇĶnĠ":7892,"zhÃ¨ĠxiÄĵĠ":7893,"ĠshÃ¬ĠwÃ¹Ġ":7894,"miÃłoĠ":7895,"lÃŃĠkÄģiĠ":7896,"ĠyÇĲnĠ":7897,"ĠlÃ¬ngĠwÃłiĠ":7898,"huÃ¡nĠjÃ¬ngĠ":7899,"tÃ©ngĠ":7900,"zhÃºĠ":7901,"2012ĠniÃ¡nĠ":7902,"lÃŃnĠpÇĲ":7903,"ĠdÃ¬ĠÃ¨r":7904,"shÄģngĠyÃ¨Ġ":7905,"2011ĠniÃ¡nĠ":7906,"chuÃ¡nĠtÇĴngĠ":7907,"ĠĠĠniÃ¡n":7908,"guÄģnĠdeĠ":7909,"sÄģnĠshÃŃĠ":7910,"jÅ«nĠshÃ¬Ġ":7911,"dÄģnĠqÅ«Ġ":7912,"liÃłngĠdeĠ":7913,"jiÄĵĠdÃłoĠ":7914,"sÃłnĠ":7915,"jÄ«ĠdeĠ":7916,"qiÃ¡nĠdeĠ":7917,"rÃ©nĠzÃłiĠ":7918,"zÃłngĠ":7919,"nÃ¨iĠrÃ³ngĠ":7920,"sÃłiĠjÃ¬Ġ":7921,"gÄģoĠdeĠ":7922,"dÃ²ngĠhuÃłĠ":7923,"bÃ³ĠshÃ¬Ġ":7924,"dÃ¹ĠdeĠ":7925,"ĠwÃ¨iĠrÃ©nĠ":7926,"ĠmÇĲ":7927,"yÃŃnĠhÃ¡ngĠ":7928,"xuÇİnĠjÇĶ":7929,"ĠwÃ¨iĠzhÃ¬Ġ":7930,"ĠgÃ¹Ġ":7931,"sÇĶnĠ":7932,"chÃ©ngĠzhÅįngĠ":7933,"mÃ¬ngĠmÃŃngĠ":7934,"dÄĽngĠdÃ¬Ġ":7935,"ĠgÅįngĠlÃ¹Ġ":7936,"bÇİngĠ":7937,"rÃ¨ĠdÃłiĠ":7938,"bÄĽiĠjÄ«ng":7939,"ĠzhÃ¨ĠgeĠ":7940,"ĠshÃŃĠjÃ¬Ġ":7941,"yÃ¹nĠdÃ²ngĠhuÃ¬Ġ":7942,"xuÇİnĠzÃ©Ġ":7943,"ĠdÃłĠlÃ¬Ġ":7944,"ĠÃ©rĠzÃłiĠ":7945,"ĠhÃłnĠ":7946,"yuÃ¡nĠniÃ¡nĠ":7947,"bÃłoĠgÃłoĠ":7948,"ĠyÃ¨Ġ":7949,"ĠmÃ¹ĠqiÃ¡nĠ":7950,"ĠdeĠhÃ©Ġ":7951,"bÅįĠchÅ«Ġ":7952,"zuÃ¬ĠjiÄģĠ":7953,"ĠĠĠjÃ¹Ġ":7954,"zÅįngĠjiÃłoĠ":7955,"xuÃ©ĠwÃ¨iĠ":7956,"tÇĶĠdÃ¬Ġ":7957,"ĠdÃ©ĠdÃłoĠ":7958,"wÃ©nĠhuÃł":7959,"zuÃ¬ĠhÃ²uĠ":7960,"tuÃ¡nĠtÇĲĠ":7961,"25ĠrÃ¬Ġ":7962,"ĠdÃ¬ĠfÄģngĠ":7963,"guÇĲĠdÃłoĠ":7964,"luÃłnĠ":7965,"ĠwÃ¨iĠdÃ¬Ġ":7966,"ĠmÃ³Ġ":7967,"ĠzhÃłn":7968,"jÄ«ngĠlÃ¬Ġ":7969,"xÃ¬ĠdeĠ":7970,"ĠzhÄ«ĠqiÃ¡nĠ":7971,"shÄĽngĠdeĠyÃŃĠgÃ¨ĠshÃ¬ĠzhÃ¨nĠ":7972,"ĠshÃ¬ĠyÄ«ĠzhÇĴngĠ":7973,"ĠshÃ¬ĠwÃ¨iĠyÃºĠmÄĽiĠguÃ³Ġ":7974,"ĠqÃ¬Ġ":7975,"suÃ¬Ġ":7976,"ĠxÃ¬ngĠ":7977,"jÃŃĠzhÅįngĠ":7978,"ĠgÃ¨ĠyuÃ¨Ġ":7979,"ĠjÅ«nĠdeĠ":7980,"sÇĲĠwÃ¡ngĠ":7981,"xiÄģngĠguÄģnĠ":7982,"ĠbÄģoĠkuÃ²":7983,"30ĠrÃ¬Ġ":7984,"fÄĵnĠbiÃ©":7985,"ĠjÄ«ĠgÃ²uĠ":7986,"wÃ¨iĠdeĠ":7987,"shÇĴuĠcÃ¬Ġ":7988,"ÃłoĠlÃŃnĠpÇĲ":7989,"Ġ12":7990,"BĠ":7991,"lÇĲngĠdÇİoĠ":7992,"ĠyÇĴuĠguÄģnĠ":7993,"ĠhÇİiĠbÃ¡ĠgÄģoĠdÃ¹Ġ":7994,"ĠyÄ«ĠxiÄĵĠ":7995,"ĠzhÃ²ngĠ":7996,"ĠtÃ³ngĠniÃ¡nĠ":7997,"ĠjuÃ©Ġ":7998,"yÃ²ngĠdeĠ":7999,"2014ĠniÃ¡nĠ":8000,"huÃ¡iĠ":8001,"ĠĠĠwÃ¨iĠ":8002,"20ĠrÃ¬Ġ":8003,"ĠxÃŃngĠdÃ²ngĠ":8004,"xuÄĽĠ":8005,"ĠzÃłiĠyÄ«Ġ":8006,"jÄ«ĠyÃºĠ":8007,"ĠzhÅįngĠhuÃ¡ĠmÃŃnĠguÃ³Ġ":8008,"shuÇĲĠyÃ¹Ġ":8009,"Ġ5Ġ":8010,"biÃłnĠhuÃłĠ":8011,"10ĠrÃ¬Ġ":8012,"shÃłngĠwÃ¨iĠ":8013,"ĠjÃŃĠtuÃ¡n":8014,"2018ĠniÃ¡nĠ":8015,"ĠjÃ¬ĠxÃ¹Ġ":8016,"zhÄ«ĠyÄ«Ġ":8017,"ĠshÃŃĠdÃłiĠ":8018,"chÇĶĠyÃºĠ":8019,"wÃłnĠ":8020,"UTCĠ":8021,"gÃ²ngĠhÃ©Ġ":8022,"ĠwÃłiĠ":8023,"ĠbÃ¡iĠ":8024,"deĠĠĠ":8025,"mÄĽiĠyuÃ¡nĠ":8026,"ĠbÃ¹ĠzhÇİngĠ":8027,"zÃ¬ĠjÇĲĠ":8028,"jiÃ©ĠshÃ¹Ġ":8029,"ĠziĠ":8030,"2019ĠniÃ¡nĠ":8031,"Ġ14":8032,"ĠzÃ¬ĠjÇĲ":8033,"zhÄ«ĠchÃŃĠ":8034,"2005ĠniÃ¡nĠ":8035,"guÃ²ĠchÃ©ngĠ":8036,"ĠhÃ²uĠlÃ¡i":8037,"mÃŃnĠzÃºĠ":8038,"shÃ¹nĠ":8039,"2015ĠniÃ¡nĠ":8040,"kÅįngĠjiÄģnĠ":8041,"shuÃ¬Ġ":8042,"mÃ¨iĠ":8043,"bÃºĠhuÃ¬Ġ":8044,"yÃ¨ĠyÃºĠ":8045,"ĠrÃº":8046,"ĠchÄĵngĠ":8047,"tÃ²uĠguÃ²Ġ":8048,"nÃ¨iĠbÃ¹Ġ":8049,"2013ĠniÃ¡nĠ":8050,"ĠsÃ¬":8051,"jiÄĽĠfÃłng":8052,"ĠzhÃŃĠdÃłoĠ":8053,"ĠyÃ¬ĠzhÃŃĠ":8054,"ĠjÇĲngĠ":8055,"xÄ«nĠwÃ©nĠ":8056,"fÄĵnĠbÃ¹Ġ":8057,"gÄĵnĠjÃ¹":8058,"ĠÃłi":8059,"ĠzhÅįuĠshÃ¬Ġ":8060,"pÄ«ĠpÃŃngĠ":8061,"ĠjÃŃĠtuÃ¡nĠ":8062,"2007ĠniÃ¡nĠ":8063,"ĠjiÃ¹":8064,"ĠshÇĶĠ":8065,"dÃ¬ĠqÅ«Ġ":8066,"ĠĠĠzhÃ¨Ġ":8067,"ĠhÃ©ĠnÃ¡nĠ":8068,"tÄģĠmen":8069,"ĠshÃ¬ĠshÃŃĠ":8070,"ĠyÇĴuĠxiÃłnĠgÅįngĠsÄ«Ġ":8071,"wÃ¡nĠjiÄģĠ":8072,"guÄ«ĠdÃ¬ngĠ":8073,"ĠshÃ©nĠ":8074,"ĠjiÄģĠrÃ¹Ġ":8075,"gÃ©ĠmÃ¬ngĠ":8076,"wÃ¡nĠquÃ¡nĠ":8077,"chÃ©ngĠwÃ©iĠ":8078,"ĠtÃ¡ngĠ":8079,"xÄ«ĠbÄģnĠ":8080,"zÄ«ĠgÃ©Ġ":8081,"26ĠrÃ¬Ġ":8082,"dÃłĠlÃ¹Ġ":8083,"ÃłoĠlÃŃnĠpÇĲĠkÃ¨Ġ":8084,"ĠĠĠgÄģiĠ":8085,"18ĠrÃ¬Ġ":8086,"2017ĠniÃ¡nĠ":8087,"ĠdÃłĠhuÃ¬Ġ":8088,"24ĠrÃ¬Ġ":8089,"ĠmÃ²Ġ":8090,"zÃłiĠdeĠ":8091,"zÃ¡ĠzhÃ¬Ġ":8092,"ĠĠĠyÄ«Ġ":8093,"ĠzhÃ¨ĠzhÇĴngĠ":8094,"ĠtÃ³uĠ":8095,"yÄ«ngĠyÇĶĠ":8096,"lÃ¹ĠdÃ¬Ġ":8097,"ĠyÄ«ngĠguÃ³Ġ":8098,"ĠkÄĽ":8099,"hÃ©ĠdeĠ":8100,"shÃłngĠhÇİiĠ":8101,"hÃ¡oĠmÇĲĠ":8102,"ĠyÇĶĠyÃ¡nĠ":8103,"qÃŃĠtÄģ":8104,"qÇĲĠyÃ¨Ġ":8105,"pÃºĠtÃ¡oĠ":8106,"fÄģngĠdeĠ":8107,"hÃ²uĠyÄ«Ġ":8108,"luÃ³ĠmÇİĠ":8109,"wÃ¨nĠtÃŃ":8110,"ĠchÃ©ngĠqÅ«Ġ":8111,"sÄģnĠgÃ¨Ġ":8112,"sÃ¨ĠdeĠ":8113,"2006ĠniÃ¡nĠ":8114,"chuÃ¡nĠtÇĴng":8115,"ĠshÃ¬ĠfÇİĠguÃ³Ġ":8116,"yÄ«ĠdeĠ":8117,"wÃ¹ĠzhÇĴngĠ":8118,"ĠyÃłoĠ":8119,"11Ġ":8120,"ĠwÃ¨iĠyÃºĠgÄģiĠguÃ³Ġ":8121,"Ġ3Ġ":8122,"ĠtÃ¡iĠwÄģnĠ":8123,"ĠhÄģĠ":8124,"ĠlÇĲĠsÄ«Ġ":8125,"jÃ¬ngĠnÃ¨iĠ":8126,"ĠbÃ¹ĠtÃ³ngĠdeĠ":8127,"ĠmÃ²":8128,"wÃ¹ĠlÇĲĠ":8129,"duÅįĠdeĠ":8130,"shÃ¹ĠwÃ¨iĠ":8131,"ĠdÃłiĠbiÇİo":8132,"biÇİoĠxiÃłnĠ":8133,"ĠshÃ¬ĠjiÃ¨ĠdÃłĠ":8134,"shÄĽngĠjÃŃĠ":8135,"miÃ¡oĠshÃ¹Ġ":8136,"fÇİĠlÇľĠ":8137,"ĠÄģ":8138,"gÃłnĠ":8139,"bÃłĠ":8140,"guÄģnĠyuÃ¡nĠ":8141,"jÄ«ngĠguÃ²Ġ":8142,"ĠlÃºĠ":8143,"chÄģngĠ":8144,"16ĠrÃ¬Ġ":8145,"17ĠrÃ¬Ġ":8146,"ĠzuÃ¬ĠhÃ²uĠ":8147,"ĠyÃ¬ĠbÄģnĠ":8148,"pÃ²ĠhuÃłi":8149,"ĠguÃ³ĠjiÄģ":8150,"yÃŃngĠdÃ©Ġ":8151,"cÃłiĠ":8152,"ĠsuÃŃĠhÃ²uĠ":8153,"zhÃ¨ngĠzÃłiĠ":8154,"nÃ¡Ġ":8155,"bÄģoĠhÃ¡nĠ":8156,"ĠshÃ¬ĠjiÃłn":8157,"bÃ³ĠwÃ¹ĠguÇİnĠ":8158,"ĠgÅįngĠjÄ«Ġ":8159,"shÃ¨nĠ":8160,"cÃ¨ĠshÃ¬Ġ":8161,"chÇİngĠdeĠ":8162,"ĠwÃ¨iĠzhÅįngĠ":8163,"chÃºnĠ":8164,"ĠlÃ¬ĠyÃ²ngĠ":8165,"ĠchÃ¡oĠ":8166,"bÃ¹ĠhÃ©Ġ":8167,"ĠcÃ¬":8168,"niÃ¨Ġ":8169,"8ĠrÃ¬Ġ":8170,"zÃ©ĠshÃ¬Ġ":8171,"sÅįuĠ":8172,"fÄĵiĠjÄ«Ġ":8173,"ĠfÄĵnĠbÃ¹ĠyÃºĠ":8174,"zhuÄģnĠyÃ¨Ġ":8175,"zhÄĵngĠyÃ¬Ġ":8176,"27ĠrÃ¬Ġ":8177,"fÇİĠyuÃłnĠ":8178,"shÇĲĠdeĠ":8179,"ĠdÃ¬ĠqÅ«":8180,"Ġ2001ĠniÃ¡nĠ":8181,"yÅįngĠ":8182,"21ĠrÃ¬Ġ":8183,"yÃ¬ĠshÃŃĠ":8184,"zÄģoĠdÃłoĠ":8185,"ĠsuÄ«ĠrÃ¡n":8186,"ĠshÃ¬ĠyÃ¬Ġ":8187,"ĠshÄĵngĠhuÃ³Ġ":8188,"ĠchÃ³ngĠ":8189,"12ĠrÃ¬Ġ":8190,"ĠbÃ¨iĠchÄĵngĠwÃ©iĠ":8191,"dÃ¬ngĠyÃ¬Ġ":8192,"ĠzhÅįngĠxÄ«n":8193,"ĠdÃłĠqÅ«Ġ":8194,"zÅįngĠhÃ©Ġ":8195,"ĠzhÃłnĠzhÄĵngĠ":8196,"xuÃ©ĠdeĠ":8197,"ĠxiÃłnĠshÃŃĠ":8198,"7ĠrÃ¬Ġ":8199,"ĠzhÅįngĠgÃ²ng":8200,"19ĠrÃ¬Ġ":8201,"sĠĠĠ":8202,"ĠÃ©Ġ":8203,"jÃŃĠwÃ¨iĠ":8204,"23ĠrÃ¬Ġ":8205,"2021ĠniÃ¡nĠ":8206,"huÃ¡ngĠdÃ¬Ġ":8207,"ĠdeĠzuÃ²Ġ":8208,"ĠzhÅ«Ġ":8209,"zhÇĲĠshÃ¬Ġ":8210,"2022ĠniÃ¡nĠ":8211,"11ĠrÃ¬Ġ":8212,"ÅįuĠzhÅįu":8213,"ÄģĠlÄģĠ":8214,"jiÄģngĠqÃŃĠ":8215,"ĠbÃ¬ngĠbÃ¹Ġ":8216,"yuÃ¡nĠyÃºĠ":8217,"fÄģngĠxiÃłngĠ":8218,"9ĠrÃ¬Ġ":8219,"liÃ¹ĠniÃ¡nĠ":8220,"zhÃłnĠdeĠ":8221,"ĠĠĠyÃºĠ":8222,"chÅ«ĠxiÃłnĠ":8223,"liÃ¨ĠchÄĵ":8224,"quÃ¡nĠlÃ¬Ġ":8225,"nÇİoĠ":8226,"guÄ«ĠmÃ³Ġ":8227,"22ĠrÃ¬Ġ":8228,"29ĠrÃ¬Ġ":8229,"liÃ¨ĠdeĠ":8230,"zuÃ¬ĠdÃłĠdeĠ":8231,"duÅįĠshÃ¹Ġ":8232,"xiÃłngĠdeĠ":8233,"ĠzhÄģng":8234,"ĠlÃ¹":8235,"xÅ«ĠyÃło":8236,"ĠlÃ³ngĠ":8237,"hÃ¡iĠshÃ¬Ġ":8238,"yÃ¹ĠdeĠ":8239,"nÃ©ngĠgÃ²uĠ":8240,"yuÄĵĠhÃłnĠ":8241,"ĠzhÃ¨ĠxiÄĵ":8242,"5ĠrÃ¬Ġ":8243,"ĠĠĠcÇĲĠ":8244,"dÃ¬ngĠwÃ¨iĠ":8245,"tÇĴngĠjÃ¬Ġ":8246,"ĠxiÄģngĠgÇİng":8247,"ĠĠĠzhÃ¨ngĠzhÃ¬Ġ":8248,"sÄģngĠ":8249,"ĠzÃłiĠzhÃ¨Ġ":8250,"xÃ¬nĠxÄ«Ġ":8251,"ĠĠĠtheĠĠĠ":8252,"yÃłngĠdeĠ":8253,"ĠxiÃłnĠzhÃ¬Ġ":8254,"gÅįngĠdeĠ":8255,"3ĠrÃ¬Ġ":8256,"hÅįngĠ":8257,"jÇĶĠbÃłn":8258,"ĠfÄĵnĠbiÃ©":8259,"qiÃºĠduÃ¬Ġ":8260,"liÃ¡nĠmÃ©ng":8261,"chÃ¡ĠdeĠ":8262,"lÃ¬ngĠyÄ«Ġ":8263,"14ĠrÃ¬Ġ":8264,"chÃ¡ngĠshÃ¬Ġ":8265,"mÄĽiĠguÃ³ĠrÃ©nĠkÇĴuĠpÇĶĠ":8266,"6ĠrÃ¬Ġ":8267,"niÇĶĠyuÄĵ":8268,"zÇĶĠhÃ©Ġ":8269,"ĠhuÃ²ĠdÃ©":8270,"lÃŃnĠshÃŃĠ":8271,"31ĠrÃ¬Ġ":8272,"ĠzhÅįngĠbÃ¹Ġ":8273,"wÃ¨iĠshÃ¬Ġ":8274,"dÇĴngĠshÃ¬Ġ":8275,"ĠjiÃłĠ":8276,"ĠbÃłoĠ":8277,"jÄ«ĠdÃ¬Ġ":8278,"gÄĵĠshÇĴuĠ":8279,"ĠliÃº":8280,"ĠĠĠzhÅįngĠ":8281,"ĠrÃ¹Ġ":8282,"dÅįngĠnÃ¡nĠ":8283,"hÇİiĠbÃ¡":8284,"bÄģngĠzhÃ¹Ġ":8285,"ĠdeĠshÃ¬ĠzhÃ¨nĠ":8286,"ĠhuÃ¡Ġ":8287,"ĠgÃ²ngĠ":8288,"21Ġ":8289,"4ĠrÃ¬Ġ":8290,"pÄģiĠshÃ¨Ġ":8291,"mÃ³uĠ":8292,"ĠyÃ¬ĠdÃłĠlÃ¬Ġ":8293,"2000ĠniÃ¡nĠ":8294,"ĠshÃ¨ĠlÃ¬Ġ":8295,"13ĠrÃ¬Ġ":8296,"ĠyÃ¬ĠbÄģn":8297,"2ĠrÃ¬Ġ":8298,"ĠrÃ©nĠkÇĴu":8299,"gÃ¨ĠrÃ©nĠ":8300,"shÃ¨ĠyÇĴuĠ":8301,"ĠdeĠzhÅįngĠ":8302,"bÇĲngĠ":8303,"shÄĵngĠyÃ¡Ġ":8304,"yuÃ¡nĠhÃ©Ġ":8305,"ĠdÇİoĠzhÃ¬Ġ":8306,"ĠdÃ¬ĠqÅ«ĠdeĠ":8307,"2004ĠniÃ¡nĠ":8308,"ĠxuÃ©ĠshÄĵngĠ":8309,"tiÄĽĠlÃ¹":8310,"fÃ©ngĠ":8311,"zÃºĠqiÃº":8312,"zÇİoĠqÄ«Ġ":8313,"ĠqÃŃĠtÄģ":8314,"TheĠĠĠ":8315,"pÃ¡nĠ":8316,"xiÅįngĠdÃ¬Ġ":8317,"ruÇİnĠ":8318,"shÄĵngĠzÃłiĠ":8319,"cÄģngĠ":8320,"dÅįngĠbÄĽiĠ":8321,"Ġ13":8322,"mÃ¹ĠdÃ¬Ġ":8323,"ĠwÇĴ":8324,"tÅįngĠchÃ¡ngĠ":8325,"huÄ«ĠfÃ¹Ġ":8326,"ĠbiÃłnĠ":8327,"ĠzhÃ¨ĠyÄ«Ġ":8328,"ĠshÃ¬ĠchÇİngĠ":8329,"ĠxuÃ©ĠyuÃłnĠ":8330,"shÄģoĠ":8331,"ĠmÃ©iĠyÇĴuĠ":8332,"Ġ4Ġ":8333,"shÄĵnĠfÃ¨nĠ":8334,"ĠĠĠyÃ³uĠyÃºĠ":8335,"qÇĶĠdÃłiĠ":8336,"gÃ©ĠmÃ¬ng":8337,"zhÇĲĠhuÄ«Ġ":8338,"qÃŃngĠkuÃłngĠxiÃłĠ":8339,"sÅ«ĠliÃ¡nĠ":8340,"yÃŃĠbÃ¹Ġ":8341,"xiÃ©ĠyÃ¬Ġ":8342,"huÃ¡ngĠjiÄģĠ":8343,"ĠfÃ¹":8344,"kÄĵĠjÃ¬Ġ":8345,"fÄģĠxiÃłn":8346,"pÃ¡ngĠ":8347,"zhÄĽngĠgÃ¨Ġ":8348,"ĠhÄĵiĠ":8349,"rÃ©nĠhÃ©Ġ":8350,"ĠgÅįngĠchÇĲĠ":8351,"liÃ¡nĠbÄģngĠ":8352,"yÄģoĠqiÃº":8353,"yÄģnĠ":8354,"zhÄģnĠ":8355,"chÄģoĠjÃŃĠ":8356,"mÃłoĠyÃ¬Ġ":8357,"yuÃ¨ĠdeĠ":8358,"zhÇİngĠdeĠ":8359,"xuÃ©ĠyuÃłn":8360,"fÇİnĠyÃ¬ng":8361,"jÇĶĠbÃłnĠ":8362,"hÃ¡ngĠkÅįng":8363,"cuÄ«Ġ":8364,"xÃŃĠjÄ«Ġ":8365,"ĠyÄĽĠyÇĴuĠ":8366,"nÇļĠxÃ¬ngĠ":8367,"huÃłĠhÃ©Ġ":8368,"xiÇİoĠshuÅįĠ":8369,"ĠdÃ¬ĠlÃ¬Ġ":8370,"ĠshÅ«Ġ":8371,"tÇĲngĠ":8372,"lÃ¬ĠhÃ©Ġ":8373,"ĠxÄ«ĠnÃ¡nĠ":8374,"tÃºĠshÅ«Ġ":8375,"guÄģnĠfÄģngĠ":8376,"xiÄģnĠhÃ²uĠ":8377,"tÇĴngĠyÄ«Ġ":8378,"bÃ¬ĠyÃ¨Ġ":8379,"ĠhÄģ":8380,"ĠshuÄģngĠ":8381,"ĠgÃ¹":8382,"zÃ¡Ġ":8383,"ĠdÅįng":8384,"ĠwÄĵi":8385,"brĠ":8386,"zÅ«nĠ":8387,"Ġ15":8388,"ĠmÃłnĠ":8389,"ĠquÃ¨Ġ":8390,"sÃłiĠdeĠ":8391,"hÃ³uĠ":8392,"ĠyÇĲĠjÄ«ng":8393,"ĠbrĠ":8394,"lÇİnĠ":8395,"xiÃ©ĠzhÃ¹Ġ":8396,"cÃ¬ĠshÃ¬ĠjiÃ¨ĠdÃłĠ":8397,"ĠrÃºĠguÇĴĠ":8398,"shÃłngĠshÃ¬Ġ":8399,"qÅ«ĠhuÃłĠ":8400,"20Ġ":8401,"fÄĵnĠxÄ«Ġ":8402,"yÇĶĠdeĠ":8403,"ĠÄĽrĠshÄĽngĠ":8404,"rÃ©nĠkÇĴuĠshÃ¹ĠliÃłng":8405,"wÃ©nĠwÃ¹ĠbÇİoĠhÃ¹Ġ":8406,"ĠhÃ©ĠyÄ«Ġ":8407,"ĠbÃ¹ĠnÃ©ngĠ":8408,"ĠbÄĽn":8409,"zÃ¬ĠxÃŃngĠ":8410,"ĠcÃ¡iĠ":8411,"jiÄĵĠduÃłnĠ":8412,"ĠqiÄģnĠ":8413,"ĠzÇĶĠ":8414,"ĠqiÄĽĠ":8415,"guÇİngĠbÅįĠ":8416,"Ġ6Ġ":8417,"ĠyÇĲĠlÃ¡iĠ":8418,"ĠxÄ«ĠbÄģnĠ":8419,"dÄģnĠrÃ¨n":8420,"ĠwÇĶ":8421,"ĠtÄģĠcÃ©ng":8422,"chÃŃĠxÃ¹Ġ":8423,"tÃ¡iĠbÄĽi":8424,"wÃºĠxiÃłnĠ":8425,"Ġ3":8426,"gÃ²ngĠchÇİnĠdÇİngĠ":8427,"guÃ³ĠhÃ©Ġ":8428,"meĠ":8429,"ĠyÇĲĠxiÃłĠ":8430,"qÄ«ĠniÃ¡nĠ":8431,"tÃ¨ĠdeĠ":8432,"dÇİoĠyÇİnĠ":8433,"hÃ²uĠyÃºĠ":8434,"yÇİnĠchÃłng":8435,"zhÃ¹ĠzÃłiĠ":8436,"rÃ©ngĠ":8437,"fÄģĠbiÇİo":8438,"lÃłiĠ":8439,"xiÃłĠxiÃ¡":8440,"tiÃ¡oĠjiÃłnĠ":8441,"pÃŃnĠdÃłoĠ":8442,"ĠgÅįngĠzuÃ²":8443,"yÃ¨ĠdeĠ":8444,"jiÄģoĠyÃ¬Ġ":8445,"hÇĶĠ":8446,"ĠzÃłiĠcÃ¬Ġ":8447,"ĠjiÇĶĠ":8448,"shÃłoĠniÃ¡nĠ":8449,"jiÃ©ĠshÃ¹":8450,"ĠshÃ¬ĠzhÅįngĠguÃ³Ġ":8451,"zÄģoĠ":8452,"bÃłoĠdÃłoĠ":8453,"ĠrÃ©nĠkÇĴuĠmÃ¬ĠdÃ¹ĠwÃ¨iĠ":8454,"qiÃºĠyuÃ¡nĠ":8455,"ĠshÃ¬ĠlÃ¬Ġ":8456,"ĠqiÄĽ":8457,"ĠĠĠbÃ¹Ġ":8458,"ĠzhÃ¨Ġge":8459,"juÃ©ĠsÃłiĠ":8460,"Ġ8":8461,"ĠyÃłĠ":8462,"yÃ¬ngĠyÃ²ngĠ":8463,"wÃłiĠdeĠ":8464,"yÃ³uĠzhÃ¨ngĠ":8465,"jiÃłnĠlÃ¬Ġ":8466,"zÄ«ĠyuÃ¡nĠ":8467,"sÄģiĠÄĽrĠ":8468,"ĠA":8469,"ĠqÃŃĠhÃ²uĠ":8470,"ĠzhÃłoĠ":8471,"ĠxÄ«":8472,"zuÃ¬ĠdÃłĠ":8473,"ĠbÃ¬ngĠwÃ¨iĠ":8474,"Ġ17":8475,"huÃŃĠdÃłoĠ":8476,"sÃ¹ĠdÃ¹Ġ":8477,"cÄģoĠ":8478,"qÃ¬ĠhÃ²uĠ":8479,"kÄĽĠdÃ¡Ġ":8480,"ĠluÃ²Ġ":8481,"ĠwÃ¨iĠyÃºĠfÇİĠguÃ³Ġ":8482,"gÇİiĠgÃ©Ġ":8483,"mÃ¬ĠshÅ«Ġ":8484,"ĠyÄ«ĠyuÃłnĠ":8485,"diÃłnĠshÃ¬ĠjÃ¹Ġ":8486,"zhuÃłngĠtÃłiĠ":8487,"zhÃ¹ĠdeĠ":8488,"fÃ¨nĠwÃ¨iĠ":8489,"ĠlÃ¡nĠ":8490,"ĠgÅįngĠyÃ¨Ġ":8491,"wÇİngĠzhÃłnĠ":8492,"gÅįngĠsÄ«Ġ":8493,"ĠjiÄĽĠ":8494,"jiÃ©ĠguÇĴĠ":8495,"suÇĴĠshÇĶĠdeĠ":8496,"ĠdeĠdÃ¬ĠyÄ«Ġ":8497,"hÃºĠnÃ¡nĠ":8498,"ĠyÄ«ĠsÄ«Ġ":8499,"ĠmÃłi":8500,"yÃłĠlÃ¬Ġ":8501,"ĠwÃ¨iĠyÄ«Ġ":8502,"shÃłngĠhÇİi":8503,"20ĠshÃ¬ĠjÃ¬Ġ":8504,"ĠzuÃ²ĠpÇĲnĠ":8505,"zuÇĴĠyÃ²uĠ":8506,"xiÇİoĠxuÃ©Ġ":8507,"jiÃ©ĠhÃ©Ġ":8508,"shÃ¨ngĠlÃ¬Ġ":8509,"ĠzhÅįngĠgÃ²ngĠ":8510,"shÇĴuĠcÃ¬":8511,"ĠsuÇĴĠyÇĴuĠ":8512,"ĠhÃłoĠxiÃłnĠ":8513,"zhÃ¨nĠqÅ«Ġ":8514,"ĠdeĠfÃ¹Ġ":8515,"wÃ©nĠmÃŃngĠ":8516,"ĠjiÇİnĠchÄĵngĠ":8517,"kÄģiĠfÄģ":8518,"yÃŃĠzhÃ¬Ġ":8519,"jiÃłoĠhuÃ¬Ġ":8520,"shÄĽngĠfÃ¨nĠ":8521,"zhÇİnĠkÄģiĠ":8522,"yÃ¬nĠdÃ¹":8523,"shÃŃĠqÄ«Ġ":8524,"ĠfÇİĠguÃ³Ġ":8525,"SĠ":8526,"lÇĲngĠdÇİo":8527,"mÃ¹ĠbiÄģoĠ":8528,"Ġ10":8529,"ĠÃ©rĠshÃ¬Ġ":8530,"gÄģoĠjÃŃĠ":8531,"zhÇĶnĠbÃ¨iĠ":8532,"wÇİngĠluÃ²Ġ":8533,"ĠfÄĵi":8534,"ĠjiÃłnĠshÃ¨Ġ":8535,"xÃ¹nĠliÃłnĠ":8536,"kÄĵĠdeĠ":8537,"juÇİnĠ":8538,"ĠrÃ©nĠwÃ¹Ġ":8539,"xuÇİnĠshÇĴuĠ":8540,"jiÄģoĠtÅįng":8541,"hÇİoĠdeĠ":8542,"fÄģĠbiÇİoĠ":8543,"zÃ¬ĠrÃ¡nĠ":8544,"zhÃ²ngĠyÃłoĠdeĠ":8545,"ĠjiÇİĠ":8546,"dÅįngĠjÄ«ngĠ":8547,"chÇİnĠpÇĲnĠ":8548,"gÃ²ngĠyÇĴuĠrÃ©nĠkÇĴuĠ":8549,"ĠxiÃłnĠdÃłiĠ":8550,"ĠyÄ«ĠmÃŃngĠ":8551,"ĠxÄ«ĠbÄĽiĠ":8552,"lÄĽiĠ":8553,"fÄĵngĠgÃ©Ġ":8554,"ĠchÃ©ngĠjÃ¬Ġ":8555,"zÃ²uĠ":8556,"ĠhÃ©ĠdÃ¬Ġ":8557,"xiÇİoĠxÃŃngĠxÄ«ngĠ":8558,"yÃ¡nĠzhÃ²ngĠ":8559,"ziĠdeĠ":8560,"miÃ¨Ġ":8561,"mÃ¹ĠqiÃ¡nĠ":8562,"wÃ©nĠwÃ¹ĠbÇİoĠhÃ¹ĠdÄģnĠwÃ¨iĠ":8563,"ĠdÄģnĠrÃ¨nĠ":8564,"ĠjÄ«ĠchÇİngĠ":8565,"liÃºĠxÃŃngĠ":8566,"biÃłnĠchÃ©ngĠ":8567,"ĠguÄģngĠ":8568,"qiÃ¡oĠzhÃ¬Ġ":8569,"Ġ16":8570,"ĠmÃłiĠ":8571,"lÃ¨iĠsÃ¬":8572,"diÃłnĠshÃ¬ĠtÃ¡iĠ":8573,"12Ġ":8574,"jiÄĽĠshÃ¬Ġ":8575,"guÃ³ĠmÃŃnĠ":8576,"ĠyÃ¬ĠqÇĲĠ":8577,"ĠyÇĴngĠ":8578,"kÄģiĠfÃłngĠ":8579,"ĠshÃ¨nĠzhÃ¬Ġ":8580,"ĠD":8581,"ĠxiÃłĠlÃ¬ng":8582,"ĠyÃŃĠgÃ¨Ġ":8583,"kÇİĠÄĽrĠ":8584,"ĠdÄĽng":8585,"2003ĠniÃ¡nĠ":8586,"xÃŃngĠshÃ¬Ġ":8587,"dÅįuĠyÇĴuĠ":8588,"2002ĠniÃ¡nĠ":8589,"ĠchÃºĠleĠ":8590,"zhÄ«ĠhÃ²uĠ":8591,"huÃ¬ĠhÃ©Ġ":8592,"mÄĽiĠpÃŃngĠfÄģngĠgÅįngĠlÇĲĠ":8593,"rÃ¹ĠleĠ":8594,"ĠyÄ«ĠyÃłngĠ":8595,"30Ġ":8596,"ĠgÅįngĠfÄĵnĠ":8597,"ĠshÃ¨ĠzhÃ¬Ġ":8598,"tÃ¨ĠzhÄĵngĠ":8599,"cÄģnĠsÃłiĠ":8600,"ĠsÄ«ĠjÄ«Ġ":8601,"ĠwÅ«Ġ":8602,"rÃºĠxiÃłĠ":8603,"zhÄĵnĠduÃ¬Ġ":8604,"ĠyÄ«ngĠchÇĲĠ":8605,"jiÃ¹ĠshÃ¬ĠzhÃ¨nĠ":8606,"ĠshÃ¬ĠfÇĴu":8607,"bÃłngĠ":8608,"ĠshÃŃĠjiÄģn":8609,"gÄģoĠzhÅįngĠ":8610,"ĠcÇĲĠhÃ²uĠ":8611,"ĠzÃłiĠzhÅįngĠ":8612,"bÃ¬ĠxÅ«Ġ":8613,"wÃ¡ngĠguÃ³Ġ":8614,"bÇĲĠjiÃłoĠ":8615,"ĠchÄĵĠ":8616,"Ã¨rĠshÃ¬Ġ":8617,"diÄģoĠ":8618,"wÃłiĠjiÄģo":8619,"guÄ«ĠhuÃłĠ":8620,"ĠyÇĶ":8621,"ĠbiÇİoĠshÃ¬Ġ":8622,"ĠyÃ¬ĠzhÃ¬Ġ":8623,"lÃ¨iĠsÃ¬Ġ":8624,"zhÃ¨ĠgeĠ":8625,"shÄģnĠdÅįngĠ":8626,"ĠrÃ¡nĠhÃ²uĠ":8627,"ĠyÃ¬ĠzhÃŃ":8628,"ĠlÃ¬ĠshÇĶĠyÃºĠ":8629,"yuÃ¡nĠshÃ¬Ġ":8630,"ĠsuÄ«ĠrÃ¡nĠ":8631,"duÃ¬ĠzÃłiĠ":8632,"zhÃ¹ĠmÃŃngĠ":8633,"yÃºnĠnÃ¡nĠ":8634,"ĠshÄģngĠ":8635,"hÄĽnĠduÅįĠ":8636,"ĠÄĽrĠdeĠ":8637,"huÃ²ĠdÃ©":8638,"shÄĵngĠchÇİnĠ":8639,"Ġ9":8640,"ĠĠĠgÅįngĠ":8641,"zhÃłnĠyÃ¬Ġ":8642,"ĠbÄĽi":8643,"ĠtÃºĠ":8644,"zhÃ²ngĠdeĠ":8645,"diÃłnĠziĠ":8646,"ĠĠĠdÃłĠ":8647,"ĠjiÃłnĠzhÃ¬Ġ":8648,"xÄ«nĠjiÄģĠ":8649,"lÃ¡iĠzÃ¬":8650,"zhÃ¬ĠzuÃ²Ġ":8651,"shÄģnĠxÄ«Ġ":8652,"rÃ©nĠkÇĴuĠshÃ¹ĠliÃłngĠwÃ¨iĠrÃ©nĠ":8653,"tÃłoĠ":8654,"ĠgÇĶ":8655,"jÃ¹ĠjÃŃĠ":8656,"ĠdeĠyÄ«ĠzhÇĴngĠ":8657,"ĠdeĠmÃŃngĠ":8658,"ĠwÃłnĠrÃ©nĠ":8659,"ĠE":8660,"jÃŃĠhÃ©Ġ":8661,"Ã©ĠluÃ³Ġ":8662,"ĠxÄ«ĠyÃł":8663,"lÇļĠyÃ³uĠ":8664,"ĠzhÃ¬ĠzÃłoĠ":8665,"ĠxÃŃngĠwÃ©iĠ":8666,"mÇİĠlÃ¡i":8667,"bÃłoĠfÄģĠ":8668,"nÇļĠÃ©rĠ":8669,"ĠrÃ¨n":8670,"ĠINSEE":8671,"zÇĴngĠlÇĲĠ":8672,"quÃ¡nĠqiÃºĠ":8673,"sÄ«ĠhÃ©Ġ":8674,"0Ġ":8675,"ĠzÇĶ":8676,"ĠduÃ¬ĠyÃºĠ":8677,"ĠdeĠzhÇĶĠ":8678,"sÃłiĠzhÅįngĠ":8679,"ĠshÃłngĠhÇİiĠ":8680,"fÄģĠshÃ¨Ġ":8681,"ruÃ¬ĠshÃ¬Ġ":8682,"bÄģoĠhÃ¡n":8683,"nÃ³ngĠyÃ¨Ġ":8684,"chÃłĠ":8685,"yÃ¨ĠwÃ¹Ġ":8686,"lÃ¹ĠjÅ«nĠ":8687,"tÃ³uĠzÄ«Ġ":8688,"wÃ¹ĠzhÃ¬Ġ":8689,"juÃ©ĠdeĠ":8690,"nÃłiĠ":8691,"ĠfÄĵnĠzhÅįngĠ":8692,"ĠjÃ¬nĠshÃ¬Ġ":8693,"ĠdeĠshÃŃĠhÃ²uĠ":8694,"ĠtÃ¨ĠbiÃ©":8695,"tÃ¨ĠbiÃ©Ġ":8696,"ÃłoĠlÃŃnĠpÇĲĠkÃ¨ĠyÃ¹nĠdÃ²ngĠhuÃ¬Ġ":8697,"gÃ©ĠdeĠ":8698,"ĠzhÃ¬ĠjÄ«nĠ":8699,"fÄģngĠÃłnĠ":8700,"sÄ«ĠrÃ©nĠ":8701,"huÃłĠxuÃ©Ġ":8702,"ĠdÃłĠliÃłngĠ":8703,"jÃŃĠshÃ¬Ġ":8704,"mÇĲnĠ":8705,"ĠnÃŃĠ":8706,"kÄĽĠnÃ©ngĠshÃ¬Ġ":8707,"qiÇİnĠ":8708,"ĠniÃ¡nĠdÃ¹Ġ":8709,"jÃ¬nĠdeĠ":8710,"ĠzhÄ«ĠwÃłiĠ":8711,"sÃ¬ĠshÃŃĠ":8712,"liÃ¡nĠjiÄĵĠ":8713,"cÃ¡oĠ":8714,"ĠgÃ¨ngĠ":8715,"ĠzhÃ¨ngĠshÃ¬Ġ":8716,"Ġ00":8717,"xuÇİnĠwÃ¨iĠ":8718,"ĠshÃ¨ĠshÄ«Ġ":8719,"chÃ¹ĠdeĠ":8720,"tÇĶĠÄĽr":8721,"ĠlÃ¬ĠsÄ«Ġ":8722,"bÃ³ĠtÃ¨Ġ":8723,"ĠzÇĴngĠmiÃłnĠjÄ«Ġ":8724,"fÄģĠdÃ²ngĠ":8725,"luÃ³ĠmÇİ":8726,"chuÃłngĠlÃ¬Ġ":8727,"ĠdeĠlÃ¬Ġ":8728,"ĠniÃ¡nĠhÃ²uĠ":8729,"ĠdÃ©ĠlÇĲĠ":8730,"guÇİngĠchÇİngĠ":8731,"liÃ¡nĠhÃ©ĠguÃ³Ġ":8732,"jÃŃĠshÃŃĠ":8733,"gÄĵngĠmÃŃngĠwÃ¨iĠ":8734,"zÇİoĠniÃ¡nĠ":8735,"xiÃłoĠlÃ¬Ġ":8736,"qÃ¬ĠdeĠ":8737,"biÇİoĠyÇİnĠ":8738,"ĠzhÄĵnĠ":8739,"yÃŃĠshÃ¬Ġ":8740,"ĠjÅ«nĠzÃłiĠ":8741,"rÃ©ngĠrÃ¡nĠ":8742,"fÄģngĠmiÃłn":8743,"juÃ©ĠdÃ¬ng":8744,"ĠgÄģiĠshÄĽngĠ":8745,"dÄģĠ":8746,"ĠxiÄģnĠ":8747,"ĠxiÃłng":8748,"zhÃ¬ĠshÃ¬Ġ":8749,"ĠgÅįngĠnÃ©ngĠ":8750,"ĠhÃ¡nĠ":8751,"zÇĴngĠtÇĴng":8752,"ĠrÃ©nĠkÇĴuĠmÃ¬ĠdÃ¹ĠmÄĽiĠpÃŃngĠfÄģngĠgÅįngĠlÇĲĠ":8753,"Ġ6":8754,"ĠrÃ©nĠkÇĴuĠmÃ¬ĠdÃ¹ĠwÃ¨iĠmÄĽi":8755,"ĠxiÃłĠlÃ¬ngĠshÃŃĠ":8756,"yÃ³uĠzhÃ¨ngĠbiÄģnĠmÇİĠwÃ¨iĠ":8757,"chÃ¡ĠdeĠshÃ¹ĠjÃ¹Ġ":8758,"ĠĠĠbÃ¨iĠ":8759,"ĠjÃ¹ĠlÃ¨ĠbÃ¹Ġ":8760,"ĠshÃ¬ĠzhÃ¨nĠbiÄģnĠmÇİĠwÃ¨iĠ":8761,"ĠINSEEĠshÃ¬ĠzhÃ¨nĠbiÄģnĠmÇİĠwÃ¨iĠ":8762,"biÄģoĠzhÇĶn":8763,"ĠshÃ¨ĠdeĠ":8764,"xuÇİnĠqÅ«ĠwÃ¨iĠ":8765,"ĠzÃłiĠcÇĲĠ":8766,"ĠbÃ¹ĠguÃ²":8767,"ĠxiÄģoĠ":8768,"pÃ¡iĠmÃŃngĠ":8769,"ĠguÃ³ĠwÃ¡ngĠ":8770,"dÃ²ngĠlÃ¬Ġ":8771,"shÃŃĠdeĠrÃ©nĠkÇĴuĠshÃ¹ĠliÃłngĠwÃ¨iĠrÃ©nĠ":8772,"2023ĠniÃ¡nĠ":8773,"jiÄĵĠrÇİngĠdeĠshÃ¬ĠzhÃ¨nĠ":8774,"ĠP":8775,"ĠqÄ«ng":8776,"mÄĽiĠguÃ³ĠrÃ©nĠkÇĴuĠpÇĶĠchÃ¡ĠdeĠshÃ¹ĠjÃ¹Ġ":8777,"jiÄģĠlÃ¬Ġ":8778,"cÃ³ngĠshÃ¬Ġ":8779,"ĠÃ©rĠrÃ©nĠkÇĴuĠmÃ¬ĠdÃ¹ĠwÃ¨iĠmÄĽi":8780,"gÃ©ĠlÃ¡n":8781,"ĠdÄģngĠdÃ¬ĠgÃ²ngĠyÇĴuĠrÃ©nĠkÇĴuĠ":8782,"fÄĵnĠlÃ¨iĠ":8783,"jiÄĽĠjuÃ©Ġ":8784,"zÃºĠdeĠ":8785,"liÃ¡nĠbÄģng":8786,"dÃłĠbÃ¹ĠfÃ¨n":8787,"yÄ«ĠzhÇĴngĠ":8788,"ĠjiÇİngĠ":8789,"lÇĲngĠyÃ¹Ġ":8790,"ĠhuÃ²ĠjiÃ¹ĠshÃ¬ĠzhÃ¨nĠ":8791,"shÇĲĠyÃ²ngĠdeĠ":8792,"ĠĠĠlÃ¬Ġ":8793,"hÃ©ĠshÃ¬Ġ":8794,"ĠchÅ«ĠbÇİnĠ":8795,"yÃ¹nĠyÃŃngĠ":8796,"shÄĽngĠjÃŃĠxuÇİnĠqÅ«ĠwÃ¨iĠ":8797,"ĠkÄģiĠshÇĲĠ":8798,"jÄ«ĠjÃŃĠ":8799,"ĠdeĠyÄ«ĠbÃ¹ĠfÃ¨nĠ":8800,"shÃŃĠshÃ¬Ġ":8801,"gÅįuĠ":8802,"Ã©rĠziĠ":8803,"jiÇĶĠniÃ¡nĠ":8804,"zuÃ²ĠpÇĲn":8805,"xuÇİnĠrÃ©nĠ":8806,"gÃłiĠniÃłnĠ":8807,"xÄ«ngĠdeĠ":8808,"ĠÄĽrĠdÃ©Ġ":8809,"shÄĽngĠhÃ©Ġ":8810,"ĠjÇĲnĠguÇİnĠ":8811,"jiÄĵĠshÃ²u":8812,"tiÃ¡oĠyuÄĵĠ":8813,"fÃ¨nĠwÃ¨iĠfÇİĠguÃ³Ġ":8814,"ĠgÄģiĠshÄĽngĠfÃ¨nĠwÃ¨iĠfÇİĠguÃ³Ġ":8815,"ĠchÅ«ĠbÇİn":8816,"ĠzhÄ«ĠxiÃłnĠ":8817,"tiÄĽĠdÃłoĠ":8818,"ĠdÃ¬ĠsÄģn":8819,"ĠsÃ²ngĠ":8820,"ĠniÃ¡nĠchÅ«Ġ":8821,"ĠÃ©rĠqiÄĽĠ":8822,"ĠjÅ«nĠduÃ¬Ġ":8823,"guÇİngĠzhÅįuĠ":8824,"ĠbÃ¹ĠjiÇĶĠ":8825,"ĠduÃ¬":8826,"ÃłoĠdÃłĠlÃ¬Ġ":8827,"ĠwÃ¨iĠshÃŃĠ":8828,"ĠxÄ«ĠlÃł":8829,"fÃºĠjiÃłnĠ":8830,"andĠĠĠ":8831,"ĠhÃ©ĠbÃ¬ng":8832,"Ġ4":8833,"zhÃłnĠzhÄĵng":8834,"ĠyÇĴuĠrÃ©nĠ":8835,"pÃ¡iĠmÃŃng":8836,"zhÃłnĠshÃ¬Ġ":8837,"zuÃ¬ĠhÃ²uĠyÄ«Ġ":8838,"tÃ¨ĠbiÃ©":8839,"qÃºnĠdÇİoĠ":8840,"jÇĲnĠbiÄģoĠsÃłiĠ":8841,"lÃ¡iĠyuÃ¡nĠ":8842,"ĠtÄģĠbÃ¨iĠ":8843,"jÇĲngĠchÃ¡Ġ":8844,"xÄ«ngĠjiÃłnĠ":8845,"ĠchÅ«ĠshÄĵngĠyÃºĠ":8846,"ĠruÃ²Ġ":8847,"bÄģĠniÃ¡nĠ":8848,"shÃ¨ĠlÃ¬Ġ":8849,"rÃ©ngĠrÃ¡n":8850,"ĠgÃ¨ng":8851,"ĠyÃ¬ĠwÃ¨iĠ":8852,"dÃ¬ĠyÄ«Ġ":8853,"ĠrÃ¬ĠdeĠ":8854,"bÄĽnĠdeĠ":8855,"wÄĽiĠhuÃ¬Ġ":8856,"ĠK":8857,"ĠyÃ³uĠxÃ¬":8858,"lÃºnĠdÅ«n":8859,"ĠrÃ©nĠgÅįngĠ":8860,"xuÃ©ĠxiÃło":8861,"shÇİnĠxÄ«Ġ":8862,"ĠzhÃ¬ĠyÃºĠ":8863,"liÃ¨ĠwÃ¨iĠ":8864,"ĠbÃ¹ĠmÃŃngĠ":8865,"ĠfÃłnĠ":8866,"tÅįngĠchÃ¡ng":8867,"ĠjiÄģoĠ":8868,"mÇĶĠsÄ«Ġ":8869,"ĠmÃŃngĠchÃ¡oĠ":8870,"yÃ¹nĠxÃŃngĠ":8871,"cÃ©ngĠzÃłiĠ":8872,"ĠshÇĲĠyÃ²ngĠ":8873,"mÄĽiĠzhÅįuĠ":8874,"cÇİiĠyÃ²ng":8875,"ĠdÃ¬ĠsÃ¬Ġ":8876,"yÃ¡nĠjiÅ«ĠsuÇĴĠ":8877,"guÇİngĠfÃłnĠ":8878,"ÃłoĠsÄ«Ġ":8879,"ĠxiÃłnĠlÃ¹Ġ":8880,"gÇİnĠrÇİnĠ":8881,"rÃ²uĠ":8882,"mÃ©ngĠgÇĶĠ":8883,"ĠshÃ¬ĠbÃ¹Ġ":8884,"yÇĲĠjÃŃĠ":8885,"ĠhÃ©ĠpÃŃngĠ":8886,"ĠĠĠtÄģ":8887,"huÃłĠshÃŃĠ":8888,"UĠ":8889,"zhÃłnĠhÃ²uĠ":8890,"jiÄģĠrÃ¹Ġ":8891,"tiÄģnĠwÃ©nĠ":8892,"nÃ¡nĠjÃŃĠ":8893,"shuÅįĠfÇİĠ":8894,"ĠfÃ¨iĠ":8895,"ĠrÃłng":8896,"xÄ«ĠzÃłiĠ":8897,"ĠjÃ¬nĠdeĠ":8898,"ĠrÃ¨nĠwÃ©i":8899,"ĠdÃŃĠ":8900,"ĠjÄ«ĠbÄĽnĠ":8901,"ĠjÃ¹ĠlÃŃĠ":8902,"ĠcÄģnĠ":8903,"mÃ³ĠxÃŃngĠ":8904,"ĠchÃ©n":8905,"guÃ²ĠchÃ©ngĠzhÅįngĠ":8906,"ĠdeĠdÃ¬ĠfÄģngĠ":8907,"ĠdÃ¡Ġ":8908,"ĠdeĠxÄ«nĠ":8909,"jÃ¬ĠshÃ¹Ġ":8910,"ĠchÇİngĠ":8911,"ĠjiÃłnĠyÃ¬Ġ":8912,"ĠtÄģĠyÇĶĠ":8913,"ĠshÃ²u":8914,"yÃ¹nĠshÅ«Ġ":8915,"gÃ²uĠmÇİi":8916,"wÃ¡nĠquÃ¡n":8917,"Ġ5":8918,"wÇĶĠshÃŃĠ":8919,"ĠkÃ¨ĠdeĠ":8920,"rÃ¨nĠwÃ©iĠshÃ¬Ġ":8921,"ĠzÃłiĠyÃ¬Ġ":8922,"ĠgÃ¨ĠdÃ¬Ġ":8923,"duÅįĠgÃ¨Ġ":8924,"bÃłnĠgÅįngĠshÃ¬Ġ":8925,"Ġ10ĠyuÃ¨Ġ":8926,"tÃ³ngĠyÄ«Ġ":8927,"wÃłiĠguÃ³Ġ":8928,"ĠzÇĴngĠrÃ©nĠkÇĴuĠ":8929,"xuÃ©ĠshÃ¬Ġ":8930,"shÃłngĠyÇĴuĠ":8931,"zhÇİoĠ":8932,"ĠT":8933,"yuÃ¡nĠwÃ¨iĠ":8934,"gÅįngĠzuÃ²Ġ":8935,"ĠzÃ¬ĠjÇĲĠ":8936,"nÃŃĠsÄ«Ġ":8937,"ĠzÃłiĠzhÅįngĠguÃ³Ġ":8938,"quÄģnĠ":8939,"ĠxÄ«ngĠ":8940,"ĠÄģi":8941,"xuÃ©ĠxÃŃĠ":8942,"yÇİngĠhuÃłĠ":8943,"fÄĵiĠxÃŃngĠ":8944,"ĠjiÃ¨":8945,"ĠyÄ«ĠxiÄĵ":8946,"xuÄģnĠchuÃ¡nĠ":8947,"mÃ²ĠxÄ«Ġ":8948,"xuÇİnĠzÃ©":8949,"chÄĵngĠwÃ¨iĠ":8950,"xiÄģoĠxÄ«Ġ":8951,"ĠxiÃłnĠrÃ©nĠ":8952,"ĠdeĠguÄģnĠ":8953,"hÇİiĠjÅ«n":8954,"biÄģoĠzhÃ¬Ġ":8955,"ĠbÃ¹ĠmÃ©nĠ":8956,"ĠhÃ¹Ġ":8957,"zhÃ¬ĠwÃ¨iĠ":8958,"qÇĲĠlÃ¡iĠ":8959,"ĠkÄĵ":8960,"yÃ³uĠxÃ¬":8961,"huÃ¡nĠjÃ¬ng":8962,"mÃ¡Ġ":8963,"fÃ¹ĠzÃ©ĠguÇİnĠxiÃ¡Ġ":8964,"ĠwÃ©iĠzhÇĶĠ":8965,"ĠĠĠyÇĲĠ":8966,"ĠdÇİĠ":8967,"gÃ²uĠchÃ©ngĠ":8968,"shÄ«ĠdeĠ":8969,"ĠÃłnĠ":8970,"chÄĵĠliÃłngĠ":8971,"Ġ7":8972,"zhÃ©ĠxuÃ©Ġ":8973,"ĠM":8974,"xÃ¬ĠbÄģoĠ":8975,"kÄĵngĠ":8976,"ĠjÃ¬ĠhuÃł":8977,"ĠlÃŃn":8978,"sÄ«ĠzÃłiĠ":8979,"zhÃ¨ngĠdeĠ":8980,"Ã¡ngĠ":8981,"dÇİngĠdeĠ":8982,"ÄģnĠquÃ¡n":8983,"bÇĲĠdÃ©Ġ":8984,"ĠdÃłoĠlÃ¹Ġ":8985,"ĠG":8986,"jiÃ¨ĠquÃ¡nĠguÃ³Ġ":8987,"chÃ¡oĠxiÄģnĠ":8988,"ĠhuÄģĠ":8989,"yÃŃnĠhÃ¡ng":8990,"ĠdÅįuĠ":8991,"jiÃłĠzhÃŃĠ":8992,"ĠÃ¨r":8993,"xÄ«ĠdeĠ":8994,"ĠshÃ¬ĠmÄĽiĠguÃ³Ġ":8995,"ĠshÃ¬ĠtÃºĠ":8996,"zhÅįngĠzÃłiĠ":8997,"ĠjÃ¬ĠniÃłnĠ":8998,"zhÇĶĠjuÃ©Ġ":8999,"ÃłnĠdeĠ":9000,"sÃ¬ĠchuÄģnĠ":9001,"bÃ¹ĠwÃ¨iĠ":9002,"pÃ©ngĠyÇĴuĠ":9003,"1999ĠniÃ¡nĠ":9004,"ĠjÃŃĠqÃŃĠ":9005,"ĠĠĠhÃ©Ġ":9006,"ĠfÇİnĠ":9007,"chÃŃĠxÃ¹":9008,"ĠĠĠyÇĴuĠ":9009,"ÃłiĠÄĽrĠ":9010,"mĠ":9011,"ĠgÅįngĠgÃ²ngĠ":9012,"ĠzhÄ«ĠchÃŃ":9013,"kÃłngĠyÃ¬Ġ":9014,"ĠtÃ¡iĠwÄģn":9015,"yuÄĵĠwÃ¨iĠ":9016,"tÃłiĠguÃ³Ġ":9017,"ĠÃ©rĠqiÄĽ":9018,"jiÄĵĠwÃ¨iĠ":9019,"xuÇİnĠqÅ«Ġ":9020,"shÃŃĠzÃłiĠ":9021,"yÃ¬ĠhÃ©Ġ":9022,"huÃ¬ĠyÇĴuĠ":9023,"shÄĵngĠwÃ¹Ġ":9024,"xiÃłoĠzhÇİngĠ":9025,"wÃ©nĠjiÃłnĠ":9026,"ĠbÃ¨iĠÄĽrĠ":9027,"ĠjiÃ©ĠzhÃ¬Ġ":9028,"shÅįuĠrÃ¹Ġ":9029,"gÄĵĠqÇĶ":9030,"biÄģoĠwÃ¨iĠ":9031,"fÃ³ĠjiÃłoĠ":9032,"rÃ³ngĠyÃ¬Ġ":9033,"ÃłoĠyÃ¹n":9034,"ĠĠĠshÃŃĠ":9035,"ĠqiÃ¡ngĠ":9036,"ĠĠĠchÄĵĠzhÃłnĠ":9037,"ĠshÄĵngĠwÃ¹Ġ":9038,"suÇĴĠshÇĶĠdeĠshÄĽngĠjÃŃĠxuÇİnĠqÅ«ĠwÃ¨iĠ":9039,"yÇİnĠdeĠ":9040,"biÄģnĠjÃŃĠ":9041,"ĠzhÃłnĠzhÄĵng":9042,"sÄ«ĠdÃ¬Ġ":9043,"yÄĽĠyÇĴuĠ":9044,"qiÃłnĠ":9045,"zhÃ¨ngĠcÃ¨Ġ":9046,"qiÃ¡nĠwÇİng":9047,"jÃ¬ĠzhÅįngĠ":9048,"mÇĲĠÄĽrĠ":9049,"yÇĶĠyÃ¡nĠ":9050,"ĠruÃ²":9051,"jÅ«nĠduÃ¬Ġ":9052,"jiÄĽĠfÃłngĠjÅ«nĠ":9053,"ÃłoĠyÃ¹nĠ":9054,"ĠyÃ²uĠchÄĵngĠ":9055,"tiÇİoĠzhÃłnĠ":9056,"ĠyuÃ¡nĠzhÃ¹Ġ":9057,"ĠchÅ«ĠleĠ":9058,"ĠyÇİnĠ":9059,"ĠyÃ¹":9060,"ĠzhÃ¬ĠdÃ¹Ġ":9061,"ĠtÃŃĠ":9062,"gÄģoĠyÃºĠ":9063,"ĠshÃ¬ĠyÃŃĠgÃ¨":9064,"wÃºĠrÃ©nĠ":9065,"ĠhuÃ²ĠshÃ¬Ġ":9066,"ĠtÅįngĠguÃ²Ġ":9067,"gÇİnĠdÃłoĠ":9068,"nÃ¡nĠxÃ¬ngĠ":9069,"ĠyÇĲĠshÃłngĠ":9070,"mÃłnĠhuÃłĠ":9071,"RĠ":9072,"ĠquÃ¨":9073,"gÇİiĠbiÃłnĠ":9074,"ĠĠĠ2021":9075,"ĠdÃ¬ĠxiÃłĠ":9076,"mÇİĠlÃ¬Ġ":9077,"ĠzÃ¬":9078,"fÃ³Ġ":9079,"jiÄĵĠrÇİngĠ":9080,"pÃ¨iĠhÃ©Ġ":9081,"kÅ«nĠ":9082,"tÃ³uĠrÃ¹Ġ":9083,"jiÄģĠrÃ©nĠ":9084,"wÄĽnĠdÃ¬ngĠ":9085,"1998ĠniÃ¡nĠ":9086,"zhÇĲĠhuÄ«":9087,"ĠzhÅįngĠyÇĴuĠ":9088,"ĠzÃłiĠbÃ¹Ġ":9089,"rÇĶĠ":9090,"aĠĠĠ":9091,"tÃŃĠmÃŃngĠ":9092,"dÃ¡ĠchÃ©ngĠ":9093,"ĠyÄ«ĠzhÇĴngĠ":9094,"mÃ²ĠsÄ«Ġ":9095,"nÃ¨Ġ":9096,"ĠzhuÄģnĠ":9097,"zÃłiĠshÃ¬Ġ":9098,"tÃ³ngĠdeĠ":9099,"jiÇİnĠjiÃ¨Ġ":9100,"ĠzhÅįngĠguÃ³ĠrÃ©nĠmÃŃnĠ":9101,"biÇİoĠmÃŃngĠ":9102,"duÃ³ĠdeĠ":9103,"tÃŃngĠzhÇĲĠ":9104,"ĠF":9105,"ĠpÃŃng":9106,"ĠhÃ¡iĠyÇĴuĠ":9107,"zhÄģĠ":9108,"shÄĵnĠfÃ¨n":9109,"ĠÃ©rĠrÃ©nĠkÇĴuĠmÃ¬ĠdÃ¹ĠwÃ¨iĠmÄĽiĠpÃŃngĠfÄģngĠqiÄģnĠmÇĲĠ":9110,"ĠlÃŃĠ":9111,"xiÇİoĠdeĠ":9112,"zhÃ¨ngĠshÃŃĠ":9113,"cÃ¨ĠdeĠ":9114,"zÃłoĠdeĠ":9115,"ĠwÃ¨iĠfÃº":9116,"juÄģnĠ":9117,"fÄĵnĠzhÄ«Ġ":9118,"quÃ¨ĠzhÄĽn":9119,"ĠI":9120,"ĠhÃ¡oĠmÇĲĠ":9121,"ĠĠĠandĠĠĠ":9122,"2024ĠniÃ¡nĠ":9123,"ĠĠĠ2020":9124,"ĠjÄ«ĠbÃłiĠ":9125,"tiÄģnĠzhÇĶĠjiÃłoĠ":9126,"ĠpÃŃĠ":9127,"bÃłnĠdÇİoĠ":9128,"ĠbÅį":9129,"ĠĠĠyuÃ¡nĠ":9130,"guÃ³ĠzÃłiĠ":9131,"wÇĶĠqÃ¬Ġ":9132,"tÄģĠmenĠ":9133,"ĠĠĠin":9134,"ĠbiÄģnĠ":9135,"ĠjiÄģĠnÃ¡ĠdÃłĠ":9136,"ĠpÃŃngĠfÄģngĠmÇĲĠ":9137,"zÃ¬ĠzhÃ¬ĠqÅ«Ġ":9138,"ĠmÃ©nĠ":9139,"Ġ8ĠyuÃ¨Ġ":9140,"lÄģĠkÃ¨Ġ":9141,"lÃ¨iĠdeĠ":9142,"ĠĠĠzÃ¬Ġ":9143,"hÃ¹nĠhÃ©Ġ":9144,"ĠzÃ¬ĠyÃ³uĠ":9145,"ĠzÃłiĠmÄĽiĠguÃ³Ġ":9146,"ĠshÃŃĠyÃłn":9147,"zuÃ¬ĠzÇİo":9148,"jÇĶĠrÃ©nĠ":9149,"tuÃ¡nĠduÃ¬Ġ":9150,"dÃ¬ĠshÃ¬Ġ":9151,"kÄĽĠnÃ©ngĠhuÃ¬Ġ":9152,"yÄģĠlÃ¬Ġ":9153,"quÃ¡nĠbÃ¹Ġ":9154,"ĠsÅ«":9155,"jÃ¬ĠwÃ¨iĠ":9156,"ĠÃ©rĠbÃ¨iĠ":9157,"ĠjÃ¬ĠchÃ©ngĠ":9158,"gÃ²ngĠxiÃłnĠ":9159,"xÄ«ĠbÄģnĠyÃ¡Ġ":9160,"jÃ¬ĠhuÃłĠ":9161,"ĠshÃŃĠshÄ«Ġ":9162,"jiÃ©ĠmÃ¹":9163,"ĠbÃ¨i":9164,"ĠjiÃ©ĠguÇĴĠ":9165,"aĠ":9166,"shÄĵngĠchÇİn":9167,"lÃ¡iĠshuÅįĠ":9168,"lÃ¬ĠbÃ¹Ġ":9169,"zhÃ¨ĠzhÇĴngĠ":9170,"chÇİnĠyÃ¨Ġ":9171,"ĠwÃ¡ng":9172,"ĠchuÃ¡nĠ":9173,"xÃŃngĠdÃ²ngĠ":9174,"ĠhÃ¡i":9175,"ĠqÄ«ĠjiÄģnĠ":9176,"fÄģnĠyÃ¬Ġ":9177,"ĠdÃ¬ĠtiÄĽĠ":9178,"ĠchÅ«ĠrÃ¨nĠ":9179,"shÇİoĠshÃ¹Ġ":9180,"cÄģoĠzuÃ²Ġ":9181,"jiÇİnĠchÃ¡Ġ":9182,"bÃłnĠshÃ¬Ġ":9183,"jiÄģĠnÃ¡ĠdÃłĠ":9184,"yÇĲngĠpiÃłnĠ":9185,"chÅįngĠtÅ«Ġ":9186,"ĠzÃłiĠdÃłĠ":9187,"ĠtÄģĠyÃºĠ":9188,"bÇİoĠhÃ¹":9189,"ÃłnĠjiÃłnĠ":9190,"jÃ¬ĠniÃłnĠ":9191,"chÃ³ngĠjiÃłnĠ":9192,"ĠmÃ¹":9193,"shÇĴuĠdeĠ":9194,"ĠjiÃłnĠzhÃ¹":9195,"ĠshÃŃĠfÄĵnĠ":9196,"ĠÄģn":9197,"ĠshÃ¬ĠyÇĲĠ":9198,"xÃŃngĠwÃ©iĠ":9199,"xÄ«nĠlÇĲĠ":9200,"cÃ©ngĠjÄ«ngĠ":9201,"ĠshÇĲĠdeĠ":9202,"gÃ²ngĠtÃ³ng":9203,"dÃ²ngĠdeĠ":9204,"kÅįngĠjÅ«nĠ":9205,"ĠzhÇĲĠyÇĴuĠ":9206,"bÃłnĠgÅįngĠ":9207,"zhÃ¨Ġge":9208,"ĠxiÃłnĠwÃ¨iĠ":9209,"dÃłĠbÃ¹ĠfÃ¨nĠ":9210,"ĠzhÃ¬ĠzuÃ²":9211,"qÄ«ĠjiÄģn":9212,"jiÃ©ĠgÃ²u":9213,"nÃłnĠ":9214,"ĠyÃ¬ĠyÇĴuĠ":9215,"ĠlÃ¬ĠrÃº":9216,"liÃ¡nĠxÃ¹Ġ":9217,"juÃ©ĠsÃ¨":9218,"jÃŃĠzÃłiĠ":9219,"shÄĵnĠdeĠ":9220,"yÄģngĠ":9221,"ĠhÃ©ĠbÄĽiĠ":9222,"ĠwÃ¨iĠnÃ©ngĠ":9223,"ampĠ":9224,"zhÇĶĠtÃŃĠ":9225,"xiÄģngĠduÃ¬Ġ":9226,"fÄĵnĠbiÃ©Ġ":9227,"ĠhÃ©ĠliÃºĠ":9228,"gÅįngĠyuÃ¡nĠ":9229,"mÃ©iĠtÇĲ":9230,"liÃ¡nĠsÃłi":9231,"jiÇİnĠshÇİoĠ":9232,"tÃ²uĠ":9233,"tÃ²ngĠ":9234,"ĠyÃ²uĠmÃŃngĠ":9235,"ĠyÇĲĠsÃ¨Ġ":9236,"fÃ¨nĠzÇĲĠ":9237,"xiÃłnĠdÃłiĠ":9238,"ĠshÃ¬ĠyÄ«ĠmÃŃngĠ":9239,"xiÇİoĠzÇĶĠ":9240,"ĠtÇĲĠzhÇİngĠ":9241,"ĠĠĠ2019":9242,"ĠxÄ«ĠwÃłngĠ":9243,"ĠzhÃ¨nĠ":9244,"yÃ¬ngĠdeĠ":9245,"wÄĽiĠyuÃ¡nĠhuÃ¬":9246,"CĠ":9247,"mÃ¬ngĠmÃŃngĠwÃ¨iĠ":9248,"ÅįuĠyuÃ¡nĠ":9249,"ĠgÅįngĠsÄ«ĠdeĠ":9250,"ĠliÇİngĠrÃ©nĠ":9251,"yÃ¬ĠzÃłiĠ":9252,"dÃ²ngĠjÄ«Ġ":9253,"dÇİĠjÄ«Ġ":9254,"ĠdeĠdÃ¬ĠqÅ«Ġ":9255,"ĠguÄ«Ġ":9256,"zhÇİnĠshÃ¬Ġ":9257,"Ġ19":9258,"ĠzhÃŃĠzhÃ¬Ġ":9259,"ĠshÃ¨ĠqÅ«Ġ":9260,"ĠlÃŃngĠ":9261,"ĠjÃ¬ĠxÃ¹":9262,"ĠN":9263,"shÇĴuĠwÃ¨iĠ":9264,"xÃºnĠhuÃŃĠ":9265,"ĠsÄ«ĠlÃ¬ng":9266,"shÃ¹ĠliÃłngĠ":9267,"xiÃłĠwÇĶĠ":9268,"24Ġ":9269,"1996ĠniÃ¡nĠ":9270,"lÃ¹ĠdÃ¬ĠmiÃłnĠjÄ«ĠwÃ¨iĠ":9271,"ĠliÃ¨Ġ":9272,"yÃ²ngĠlÃ¡iĠ":9273,"shuÇĲĠyÃ¹ĠmiÃłnĠjÄ«ĠwÃ¨iĠ":9274,"ĠlÃ¬ĠjÃŃĠ":9275,"qÇĲĠyÃ²ngĠ":9276,"lÃ¨iĠxÃŃngĠ":9277,"rÃ¨nĠwÃ¹Ġ":9278,"ĠguÃ³ĠlÃ¬Ġ":9279,"ĠshÃŃĠzÃ¬Ġ":9280,"ĠyÄ«ĠcÃ¬Ġ":9281,"duÅįĠcÃ¬Ġ":9282,"ĠwÇİngĠ":9283,"pÃŃngĠjiÃłĠ":9284,"bÃ¹ĠshÃ¬Ġ":9285,"ĠbiÃłn":9286,"Ġ2009ĠniÃ¡nĠ":9287,"ĠĠĠ2018":9288,"ĠdeĠshÇĴuĠ":9289,"ĠfÃ¹ĠjÃ¬nĠ":9290,"jÇĶĠxÃŃngĠdeĠ":9291,"fÃºĠhÃ©Ġ":9292,"zhuÃ³Ġ":9293,"tÇĲĠxÃ¬Ġ":9294,"wÃłiĠjiÄģoĠ":9295,"ĠzhÃ¨ĠjiÄģngĠ":9296,"1997ĠniÃ¡nĠ":9297,"ĠxiÃłoĠ":9298,"ĠdÃłĠshÇĲĠ":9299,"zuÃ²ĠjiÄģĠ":9300,"ĠshÃ¨ĠbÃ¨iĠ":9301,"18Ġ":9302,"mÄĽiĠniÃ¡nĠ":9303,"liÇİngĠgÃ¨":9304,"ĠlÃ¬ĠfÇİĠ":9305,"zhÃ¹ĠyÃ¬Ġ":9306,"ĠampĠ":9307,"diÃłnĠlÃ¬Ġ":9308,"dÃ©ĠdÃłoĠ":9309,"ĠsÄ«ĠlÃ¬ngĠ":9310,"ĠcÃ³ngĠÃ©rĠ":9311,"fÇİĠlÇľ":9312,"lÃºnĠdÅ«nĠ":9313,"ĠguÇİngĠ":9314,"kuÃŃĠ":9315,"jiÃłoĠtÃ¡ngĠ":9316,"ĠdÄģngĠzhÅįngĠlÃ¹ĠdÃ¬ĠmiÃłnĠjÄ«ĠwÃ¨iĠ":9317,"zhÃ¬ĠhÃ©Ġ":9318,"ĠÃ©rĠshuÇĲĠyÃ¹ĠmiÃłnĠjÄ«ĠwÃ¨iĠ":9319,"qÇĶĠxiÄģoĠ":9320,"shÄĵngĠhuÃ³":9321,"fÃºĠwÃ¹":9322,"zhÃŃĠdeĠ":9323,"jiÃ©ĠzhÃ¬Ġ":9324,"ĠĠĠxÄ«Ġ":9325,"diÄģnĠ":9326,"ĠĠĠ2022":9327,"xuÃ©ĠzhÄĽĠ":9328,"shuÇĲĠpÃŃngĠ":9329,"hÇİiĠyÃ¹Ġ":9330,"nÃ¨iĠrÃ³ng":9331,"ĠzhÄ«ĠshÃŃĠ":9332,"zhÃ¹ĠzuÃ²Ġ":9333,"Ġ9ĠyuÃ¨Ġ":9334,"yÄ«ngĠgÃ©ĠlÃ¡nĠ":9335,"ĠdÃłĠchÃ©nĠ":9336,"ĠTheĠĠĠ":9337,"ĠchÃ©ngĠlÃ¬ĠyÃºĠ":9338,"ĠĠĠgÃłiĠ":9339,"lÇļĠkÃ¨Ġ":9340,"tuÃ²Ġ":9341,"zhÃ¬ĠzÃłiĠ":9342,"ĠzhÅįngĠdeĠ":9343,"jiÄĵĠjÃ¬nĠ":9344,"ĠxÄ«nĠwÃ©nĠ":9345,"chÃ¡ngĠqÄ«Ġ":9346,"ĠwÃ©iĠÄĽrĠ":9347,"lÃ¬ngĠwÃłiĠ":9348,"ĠhuÃŃĠ":9349,"ĠĠĠxÃŃngĠzhÃ¨ngĠqÅ«ĠhuÃłĠ":9350,"Ġ11":9351,"rÃ¨nĠmÃ¬ng":9352,"ĠjiÄģĠshÃłngĠ":9353,"yuÃłnĠzhÇİngĠ":9354,"bÇĲĠsÃłiĠzhÅįngĠ":9355,"ĠxuÄģnĠbÃ¹Ġ":9356,"jÇĲĠyÇĶĠ":9357,"diÇİnĠdeĠ":9358,"xÄ«ĠyÃ¡ngĠ":9359,"ĠyÇĲĠhÃ²uĠ":9360,"guÄ«ĠmÃ³":9361,"ĠjÅ«nĠwÃ¨iĠ":9362,"mÃŃnĠdeĠ":9363,"shuÃ²ĠshÃ¬Ġ":9364,"ĠdÃ©ĠdeĠ":9365,"wÄĵiĠliÃ¡nĠ":9366,"wÄĽiĠshÅ«ĠjÃ¬Ġ":9367,"ĠyÃ¬ĠrÃ©nĠ":9368,"jiÄģĠhÃ©Ġ":9369,"1992ĠniÃ¡nĠ":9370,"tÃłiĠyÃ¡ngĠ":9371,"dÇİoĠyÇĶĠ":9372,"pÄ«ĠzhÇĶnĠ":9373,"dÃłiĠyÇĴuĠ":9374,"hÄĵngĠlÃ¬Ġ":9375,"ĠshÃ¬ĠyÄ«ĠwÃ¨iĠ":9376,"ĠxuÃ©ĠxiÃło":9377,"ĠwÃ¨iĠfÃºĠqÃŃĠyÃºĠ":9378,"Ġ7ĠyuÃ¨Ġ":9379,"guÅįĠ":9380,"cÄģnĠyÃ¹":9381,"cÃ¬ĠshÃ¬ĠjiÃ¨ĠdÃłĠzhÃłnĠ":9382,"ĠshÃ¬ĠqÅ«Ġ":9383,"fÄģĠchÅ«Ġ":9384,"gÄģoĠsÃ¹":9385,"ĠĠĠyÃ¬Ġ":9386,"xÃ¬ngĠzhÃ¬Ġ":9387,"yÇİnĠchÃłngĠhuÃ¬Ġ":9388,"ĠyuÃ¡nĠyÄ«nĠ":9389,"quÃłnĠ":9390,"tÇİoĠlÃ¹nĠ":9391,"ĠformulaĠ":9392,"tuÃ¬ĠyÃ¬Ġ":9393,"ĠmÃ©ngĠ":9394,"ĠtuÅįĠ":9395,"ĠhuÇĴĠ":9396,"bÇĲĠyÃłĠ":9397,"fÄĵngĠbÃłoĠ":9398,"jÄ«ĠzhÃ¬Ġ":9399,"xÃ¬nĠhÃłoĠ":9400,"yÃłĠdeĠ":9401,"nÃ©ngĠgÃ²u":9402,"shÃ²uĠshÄģngĠ":9403,"ĠcÃŃĠ":9404,"ĠĠĠ2017":9405,"ĠjiÃłnĠchÃ©ngĠ":9406,"wÃ¨iĠzhÃ¬Ġ":9407,"liÃ¡nĠxÃ¬Ġ":9408,"ĠrÃºĠguÇĴ":9409,"rÃºĠhÃ©Ġ":9410,"bÃ¬ĠxÅ«":9411,"ĠtÇĲĠzhÇİngĠkÄĽĠdÃ¡Ġ":9412,"ĠÄĽrĠtÃ¨Ġ":9413,"bÇİoĠchÃŃĠ":9414,"zhuÄģnĠjiÄģĠ":9415,"fÅ«ĠrÃ©nĠ":9416,"jiÇİngĠxiÃłngĠ":9417,"chÄģĠyÃ¬Ġ":9418,"ĠjÄ«ngĠguÃ²Ġ":9419,"ĠjÄ«ĠgÃ²u":9420,"ĠzÃłiĠyÃºĠ":9421,"ĠdeĠyÄ«ĠzuÃ²Ġ":9422,"ĠtÅįngĠchÃ¡ngĠ":9423,"ĠgÇİi":9424,"wÅįĠ":9425,"shÃ²uĠyÇĶĠ":9426,"miÇİoĠ":9427,"Ġ2010ĠniÃ¡nĠ":9428,"wÇİngĠlÃ¹Ġ":9429,"jÄ«ngĠyÃŃngĠ":9430,"ĠH":9431,"Ġ12ĠyuÃ¨Ġ":9432,"ĠmÃŃnĠguÃ³Ġ":9433,"tÄģnĠ":9434,"gÃ²ngĠchÇİnĠdÇİng":9435,"ĠkÃ¨ĠlÇĲĠ":9436,"ĠshÄĵngĠchÇİnĠ":9437,"ĠbÃ¹ĠlÇĲĠ":9438,"kÃłoĠ":9439,"ĠyÇĲĠxiÃł":9440,"diÃłnĠtÃ¡iĠ":9441,"cÅ«nĠzhuÄģngĠ":9442,"Ġ11ĠyuÃ¨Ġ":9443,"lÃ¡iĠdÃłoĠ":9444,"suÃŃĠhÃ²uĠ":9445,"ĠzhÄ«ĠzhÅįngĠ":9446,"ĠchÃ¡ng":9447,"bÃ¬ĠyÃ¨ĠyÃºĠ":9448,"xÃ¹nĠliÃłn":9449,"ĠzhÅ«":9450,"Ġ21Ġ":9451,"cuÃ²ĠshÄ«Ġ":9452,"fÇİĠdeĠ":9453,"ĠyÃ¬ĠshÃ¹":9454,"zÇĴngĠdÅ«Ġ":9455,"zhÃ¹ĠmÃŃngĠdeĠ":9456,"ĠshÃ¬ĠyÇĴuĠ":9457,"ĠfÄģngĠ":9458,"ĠjiÃłnĠduÃ¬Ġ":9459,"kuÃłiĠsÃ¹Ġ":9460,"zhÃ¹ĠyÃºĠ":9461,"dÅįngĠxÄ«Ġ":9462,"ĠzhÇĴngĠ":9463,"1994ĠniÃ¡nĠ":9464,"ĠrÃłngĠ":9465,"ĠshÃŃĠrÃ¨nĠ":9466,"ĠyÄ«ĠshÄĵngĠ":9467,"gÅ«ĠjÃ¬Ġ":9468,"ĠÄĽrĠhÃ©Ġ":9469,"hÃ¡iĠziĠ":9470,"tÃłiĠpÃŃngĠyÃ¡ngĠ":9471,"ĠĠĠ2016":9472,"ĠjiÃ©ĠmÃ¹Ġ":9473,"yÃ¡nĠgÃ©Ġ":9474,"tÃ³ngĠyÃ¬Ġ":9475,"shÇİngĠ":9476,"shÄĵngĠwÃ¨iĠ":9477,"dÇİoĠshÃ¬Ġ":9478,"chÃ©ngĠgÅįngĠ":9479,"leĠdÃłĠ":9480,"lÃłngĠ":9481,"fÄģĠdiÃłnĠ":9482,"ĠshÃłngĠhÇİi":9483,"zhÃłnĠzhÅįngĠ":9484,"shÃ©Ġ":9485,"ĠdeĠqiÃ¡nĠ":9486,"ĠrÃ©nĠlÃ¨iĠ":9487,"sÃ¬ĠgÃ¨Ġ":9488,"jiÃ©ĠshÃ¹ĠhÃ²uĠ":9489,"ĠxiÇİng":9490,"ĠdÃ©ĠyÇĲĠ":9491,"pÇĶĠtÅįngĠ":9492,"ĠB":9493,"ĠdeĠshÃŃĠqÅ«ĠwÃ¨iĠ":9494,"ĠyÃ¬nĠdÃ¹Ġ":9495,"ĠmÃŃngĠchÄĵngĠ":9496,"ĠzhÃ¨ngĠcÃ¨Ġ":9497,"chÃ¨ĠxiÄģoĠ":9498,"Ġtw":9499,"yÇĶĠzhÅįngĠ":9500,"ĠĠĠzhÃ¬Ġ":9501,"nĠ":9502,"ĠyÃ¡ng":9503,"ĠshÃ¨ng":9504,"tÃ³uĠpiÃłoĠ":9505,"ĠqÄ«":9506,"dÇĲĠdÃ¡Ġ":9507,"fÄģĠdeĠ":9508,"xÃ¬ĠliÃ¨":9509,"ĠjÇĲnĠguÇİn":9510,"jÃºĠzhÇİngĠ":9511,"ĠdeĠshÃŃĠjiÄģnĠ":9512,"ĠS":9513,"1995ĠniÃ¡nĠ":9514,"zhÃ¨ĠxiÄĵ":9515,"ĠqiÃ¡n":9516,"gÃ¨ngĠjiÄģĠ":9517,"ĠwÃ¨iĠshÄĵngĠ":9518,"yuÃ¨ĠtÃ¡iĠ":9519,"ĠpÃŃngĠtÃ¡iĠ":9520,"fÇİnĠhuÃŃĠ":9521,"ĠchÄĵng":9522,"guÇİngĠxÄ«Ġ":9523,"fÄĽiĠ":9524,"ĠchuÃłngĠ":9525,"hansĠ":9526,"kuÃ²ĠdÃłĠ":9527,"hÄģĠÄĽrĠ":9528,"zhÃ¡iĠ":9529,"ĠhansĠ":9530,"yÃ¬ĠzhÅįngĠ":9531,"dÄĵngĠlÃ¹Ġ":9532,"zÇĶĠchÃ©ngĠdeĠ":9533,"rÃ³ngĠyÃ¹Ġ":9534,"ĠtwĠ":9535,"yuÃ¨ĠshÃŃĠ":9536,"zhÃ²ngĠdÃłĠ":9537,"lÃ¹ĠyÃ¬Ġ":9538,"ĠsÃłĠ":9539,"ĠshÃ¬ĠyÇİnĠ":9540,"quÃ¨ĠdÃ¬ngĠ":9541,"ĠĠĠA":9542,"zhÇĲĠzÃłiĠ":9543,"yÃ¨ĠhÃ²uĠ":9544,"ĠbÃ¹ĠkÄĽĠ":9545,"ĠxiÃł":9546,"ĠbÃ¬ngĠmÃ©iĠyÇĴuĠ":9547,"ĠcÇĲĠshÃŃĠ":9548,"ĠĠĠdeĠshÃŃĠ":9549,"ĠlÇľĠ":9550,"jÃ¬nĠxÃŃng":9551,"ĠliÃłngĠ":9552,"ĠÄģĠÄĽrĠ":9553,"ĠĠĠ2023":9554,"ĠmÃ¹ĠqiÃ¡n":9555,"wÇİnĠshÃłngĠ":9556,"jiÃłoĠqÅ«Ġ":9557,"qÃ¬ĠchÄĵĠ":9558,"yÃłĠlÃ¬ĠshÄģn":9559,"mÃŃngĠchÄĵngĠ":9560,"wÃ¹ĠzhÇĴng":9561,"guÄģnĠzhÃ²ngĠ":9562,"ĠxuÃ©ĠxÃŃĠ":9563,"gÇİiĠbiÄģn":9564,"ĠguÃ³ĠwÃ¹Ġ":9565,"ĠzhÄ«ĠyuÃ¡nĠ":9566,"yuÃłnĠdeĠ":9567,"xiÄģoĠshÃ²uĠ":9568,"ĠgÅįngĠyÃ¨":9569,"bÄģĠxÄ«Ġ":9570,"ĠhuÃ²ĠzhÄĽĠ":9571,"ĠĠĠ2014":9572,"xiÄģngĠtÃ³ngĠ":9573,"bÄģĠlÃŃĠ":9574,"XĠ":9575,"bÇİnĠdeĠ":9576,"rÃ¹ĠkÇĴuĠ":9577,"xuÃ©ĠhÃ©Ġ":9578,"sÇĶnĠshÄ«Ġ":9579,"ĠtiÄģn":9580,"biÇİoĠxiÃłn":9581,"ĠshÃŃĠxiÃłnĠ":9582,"xÄ«ĠlÃł":9583,"fÄģĠxiÃłnĠleĠ":9584,"pÃ²ĠhuÃłiĠ":9585,"kÃłnĠdÃłoĠ":9586,"pÄģnĠ":9587,"qÄ«ĠzÇĲĠ":9588,"guÄģnĠzhÃ¹Ġ":9589,"ĠcÃ©ngĠrÃ¨nĠ":9590,"ĠL":9591,"ĠbÃ¬ngĠyÇĲĠ":9592,"xiÅįngĠyÃ¡":9593,"qiÇİngĠ":9594,"Ġ6ĠyuÃ¨Ġ":9595,"ĠĠĠsuÇĴĠshÇĶĠdeĠshÄĽngĠjÃŃĠxuÇİnĠqÅ«ĠwÃ¨iĠ":9596,"ĠĠĠdeĠyÃ³uĠzhÃ¨ngĠbiÄģnĠmÇİĠwÃ¨iĠ":9597,"ĠĠĠyÇĶĠjiÄĵĠrÇİngĠdeĠshÃ¬ĠzhÃ¨nĠ":9598,"ĠĠĠyÃºĠshÃŃĠdeĠrÃ©nĠkÇĴuĠshÃ¹ĠliÃłngĠwÃ¨iĠrÃ©nĠ":9599,"ĠĠĠdeĠshÃŃĠqÅ«ĠwÃ¨iĠ":9600,"ĠĠĠjÄ«Ġ":9601,"zhuÄģngĠzhÃ¬Ġ":9602,"nÇİiĠ":9603,"zhÃŃĠwÃ¨iĠ":9604,"Ġ2011":9605,"jÃ¬ĠhÃ©Ġ":9606,"ĠzuÃ²ĠyÃ²ngĠ":9607,"ĠquÃ¡nĠzhÇİngĠ":9608,"ĠzhuÇİnĠ":9609,"tÃºĠzhÅįngĠ":9610,"sÅ«ĠliÃ¡n":9611,"wÃ¨iĠĠĠ":9612,"kÄģiĠfÃłng":9613,"xÅ«ĠqiÃºĠ":9614,"ĠzhÄ«ĠmÃŃngĠ":9615,"lÃŃnĠdeĠ":9616,"ĠsÄ«ĠlÄģĠ":9617,"shÃŃĠwÃ¨iĠ":9618,"ĠniÃ¡nĠqÄ«ng":9619,"hÃ©ngĠxÄ«ngĠ":9620,"ĠquÃ¡nĠbÃ¹Ġ":9621,"tuÄ«ĠdÃ²ngĠ":9622,"ĠO":9623,"wÃ©iĠdeĠ":9624,"ĠshÃ¬ĠzhÇİngĠ":9625,"guÇİnĠlÇĲ":9626,"Ġ2019":9627,"ĠgÄģnĠ":9628,"rÃ¹ĠqÄ«nĠ":9629,"rÃºĠcÇĲĠ":9630,"Ġhk":9631,"ĠjiÄģĠtÃŃngĠ":9632,"tÃ¡iĠbÄĽiĠ":9633,"yÇĶĠhÃ©Ġ":9634,"ĠyÄ«ĠdÃłiĠ":9635,"yÃŃĠdÃ²ngĠ":9636,"ĠjÇĲn":9637,"jÃ¬nĠshÃ¬Ġ":9638,"ĠchÅ«ĠxiÃłnĠzÃłiĠ":9639,"zhÃ¨ĠjiÄģngĠ":9640,"ĠĠĠ2015":9641,"fÃ¹ĠdeĠ":9642,"mÇĶĠqÄ«nĠ":9643,"xiÅįngĠyÃ¡ĠlÃ¬Ġ":9644,"ĠĠĠK":9645,"mÃ¹ĠsÄ«Ġ":9646,"1991ĠniÃ¡nĠ":9647,"ĠrÃ©nĠshÃ¹Ġ":9648,"fÃ¹ĠqÄ«nĠ":9649,"ĠdÃłnĠtÄģĠ":9650,"ĠxÄ«ĠbÄģnĠyÃ¡":9651,"cÃ¡nĠ":9652,"mÃŃnĠzÃº":9653,"tÃ¡iĠdeĠ":9654,"ĠdÃ¬ĠqiÃºĠ":9655,"ĠshÃ¬ĠzhÇĲĠ":9656,"ĠmiÃłnĠ":9657,"ĠchÄĵĠzhÃłnĠ":9658,"tÃŃĠshÄĵngĠ":9659,"fÄĵiĠjiÃłnĠzhÃ¬Ġ":9660,"ĠduÃłnĠ":9661,"ĠĠĠ2013":9662,"Ġ5ĠyuÃ¨Ġ":9663,"xÃ¹nĠsÃ¹Ġ":9664,"ĠhkĠ":9665,"zuÃ¬ĠchÅ«Ġ":9666,"shÃ¹ĠxuÃ©Ġ":9667,"guÇİngĠbÅį":9668,"ĠwÃ¨iĠhÃ©Ġ":9669,"ĠbÃ¬ngĠlÃ¬Ġ":9670,"ĠchÃ©ngĠwÃ©iĠleĠ":9671,"ĠsÄ«ĠtÇİnĠ":9672,"tĠ":9673,"niÇĶĠyuÄĵĠ":9674,"ĠjÄ«ng":9675,"fÄģĠxÃŃng":9676,"ĠjÃ¬nĠrÃ¹":9677,"tÃ¨ĠlÇĲĠ":9678,"kÃłngĠrÃ¬Ġ":9679,"ĠhÃ©ĠxÄ«nĠ":9680,"ĠgÃ¨ĠzhÇĴngĠ":9681,"gÇİoĠ":9682,"ĠjÃŃĠqÃŃ":9683,"fÄģĠshÄĵng":9684,"zÇĴngĠbÃ¹Ġ":9685,"shÅįuĠlÃ¹Ġ":9686,"ĠshÃ¬ĠrÃ©nĠ":9687,"jiÃłoĠdeĠ":9688,"lÃ¡nĠkÃ¨Ġ":9689,"cÃ¡iĠzhÃ¨ngĠ":9690,"mÃ¡ngĠ":9691,"ĠjÃ¬ĠzÇİiĠ":9692,"chÃłngĠpiÃłnĠ":9693,"ĠzuÃ²ĠpÇĲn":9694,"ĠĠĠniÃ¡nĠ":9695,"sÃłĠkÃ¨Ġ":9696,"ĠzhÅįngĠwÃ©nĠ":9697,"juÃ©ĠsÃłi":9698,"mÃŃngĠyÃ¬Ġ":9699,"jÃ¬nĠgÅįngĠ":9700,"ĠshÃ¬ĠjÃŃĠ":9701,"ĠzÃłoĠchÃ©ngĠ":9702,"qÇĲĠyÃ¬Ġ":9703,"cÄģnĠyÃ¬Ġ":9704,"zhuÃłngĠkuÃłngĠ":9705,"ĠxiÃłnĠyÃºĠ":9706,"lÇľĠwÃ¨iĠ":9707,"leĠtÄģĠ":9708,"ĠĠĠzhÅįngĠguÃ³Ġ":9709,"bÃ¡Ġ":9710,"cÄģnĠkÇİoĠ":9711,"zÄĵngĠzhÇİngĠ":9712,"gÄģoĠdÃ¹Ġ":9713,"chÇİnĠpÇĲn":9714,"fÄĵiĠjiÃłnĠzhÃ¬ĠdÃ¬ĠqÅ«Ġ":9715,"ĠÅįuĠ":9716,"ĠhuÃ¡ng":9717,"ĠdÇİoĠ":9718,"dÅįuĠhuÃ¬Ġ":9719,"ĠhÃ©ĠbÃ¬ngĠ":9720,"ĠjÃ¬ĠsuÃłn":9721,"ĠshÄĵngĠhuÃ³":9722,"ĠfÃ¡ngĠ":9723,"ĠÃ©ĠluÃ³ĠsÄ«Ġ":9724,"wÃ¡ngĠdeĠ":9725,"diÃłoĠchÃ¡":9726,"zhÃ²ngĠdiÇİnĠ":9727,"zhÃłnĠdÃ²uĠ":9728,"ĠhÃ²u":9729,"ĠdÃłĠlÃ³uĠ":9730,"hÇİiĠdÃłoĠ":9731,"suÄ«ĠrÃ¡nĠ":9732,"chÃłngĠpiÃłn":9733,"chÄģiĠ":9734,"ĠrÃ©nĠmenĠ":9735,"ĠtiÃ¡oĠ":9736,"wÄĵiĠxiÃ©Ġ":9737,"ÃłoĠdÃ¬ĠlÃ¬Ġ":9738,"ĠhÃ©ĠzhÅįngĠ":9739,"shÃłngĠshÅ«Ġ":9740,"ĠwÃ©iĠqÃŃĠ":9741,"kÇİnĠ":9742,"lÇĲngĠdÇİoĠrÃ©nĠ":9743,"ĠxiÄģngĠguÄģnĠ":9744,"jÄ«ngĠshÃ©nĠ":9745,"jiÄģĠzhÅįngĠ":9746,"ĠyÄ«nĠÃ©rĠ":9747,"yuÃ¨ĠzÃłiĠ":9748,"liÇİngĠrÃ©nĠ":9749,"ĠniÃ¡nĠshÃŃĠ":9750,"ĠbÃ¹ĠduÃłnĠ":9751,"cÄģnĠjiÄģĠleĠ":9752,"yÃŃngĠyÃ¹nĠ":9753,"huÃłĠwÃ¨iĠ":9754,"jiÄģngĠxÄ«Ġ":9755,"ĠdeĠchÃ©ngĠyuÃ¡nĠ":9756,"jiÃ©ĠkÃ¨Ġ":9757,"tÃºĠshÅ«ĠguÇİnĠ":9758,"ĠhÃ©ĠchÃ©ngĠ":9759,"zhÇĶĠchÃŃĠ":9760,"ĠzhÅįngĠguÃ³ĠgÃ²ngĠchÇİnĠdÇİngĠ":9761,"ĠhuÃ¡":9762,"jÃ¹ĠdeĠ":9763,"nÃłĠlÇĲĠ":9764,"ĠxiÇİo":9765,"Ġ4ĠyuÃ¨Ġ":9766,"ĠyÇĴuĠshÃŃĠ":9767,"zhÃłnĠdÃ²u":9768,"ĠyÄ«ng":9769,"jÃ¬nĠrÃ¹":9770,"mÇĴuĠxiÄĵĠ":9771,"shÄĵnĠwÃ¨iĠ":9772,"jÅ«ĠzhÃ¹Ġ":9773,"toĠĠĠ":9774,"zÃ¬ĠdÃ²ngĠ":9775,"xiÃłĠjÃ¬ĠÃłoĠlÃŃnĠpÇĲĠkÃ¨ĠyÃ¹nĠdÃ²ngĠhuÃ¬Ġ":9776,"ĠJ":9777,"yÄ«nĠshÃ¬Ġ":9778,"mÃŃnĠzhÃ²ngĠ":9779,"ĠzuÇĴĠ":9780,"1988ĠniÃ¡nĠ":9781,"ĠxiÃłngĠmÃ¹Ġ":9782,"chÇİnĠshÄĵngĠdeĠ":9783,"ĠbiÄģn":9784,"ĠĠĠzhĠ":9785,"ĠzÃłiĠjiÄģĠ":9786,"shuÅįĠmÃŃngĠ":9787,"ĠwÄĽiĠ":9788,"ĠzhÃ¨ngĠzhuÃłngĠ":9789,"yÇĲnĠfÄģĠ":9790,"ĠxuÇİnĠ":9791,"jiÄģngĠsÅ«Ġ":9792,"ĠhuÃ²ĠdÃ©ĠleĠ":9793,"dÄģoĠ":9794,"ĠzhÄ«ĠxiÃłĠ":9795,"ĠshÃ¬ĠwÄĵiĠ":9796,"xiÇİoĠshuÅį":9797,"ĠzhuÄģngĠ":9798,"ĠxÇĶĠduÅįĠ":9799,"ĠĠĠjiÄģĠzÃºĠ":9800,"ĠqiÃ¡oĠ":9801,"ĠshÃ¬ĠzhÃ¨n":9802,"ĠxiÃ©Ġ":9803,"ĠgÅįngĠrÃ©nĠ":9804,"dÃ¬ngĠleĠ":9805,"yÅįuĠshÃ¬Ġ":9806,"lÃ¡nĠqiÃºĠ":9807,"1993ĠniÃ¡nĠ":9808,"ĠdÃłĠduÅįĠ":9809,"zhÅįuĠdeĠ":9810,"ĠdÃºĠ":9811,"jÃ¬ĠshÃŃĠ":9812,"ĠĠĠS":9813,"ĠsuÃ¬ĠdeĠ":9814,"ĠpÃ¨iĠ":9815,"xiÇİnĠdeĠ":9816,"zÄ«ĠxÃ¹nĠ":9817,"ÃłoĠyÃ¹nĠhuÃ¬Ġ":9818,"ĠwÃ©n":9819,"sÃ¹ĠdeĠ":9820,"ĠdÃłĠxÃŃngĠ":9821,"Ġ2018":9822,"ĠyuÃ¨ĠnÃ¡nĠ":9823,"ĠjÃŃĠlÃ¬Ġ":9824,"ĠzhÅįngĠhuÃ¡Ġ":9825,"ĠlÃ¡iĠzÃ¬Ġ":9826,"qÇĶĠdÃ©":9827,"iĠ":9828,"yuÃ¡nĠzÃłiĠ":9829,"ĠbÃ¹ĠmÃ©n":9830,"xiÄģngĠdÄģngĠ":9831,"ĠdÃłnĠyÃ³uĠyÃºĠ":9832,"fÇİngĠwÃ¨nĠ":9833,"zhÃŃĠdÃłoĠ":9834,"suÄ«ĠrÃ¡n":9835,"jiÃłoĠwÃ©iĠ":9836,"xiÃłngĠmÃ¹":9837,"ĠshÃ¬ĠwÃ¨iĠleĠ":9838,"jiÃ©ĠhÅ«nĠ":9839,"ĠshÃłng":9840,"ĠlÇĲĠlÃ¹nĠ":9841,"pÇĲnĠpÃ¡iĠ":9842,"ĠtiÃ¡nĠ":9843,"chuÄģngĠ":9844,"xÃŃĠwÃ¨iĠ":9845,"ĠdÃ¬ĠwÇĶĠ":9846,"ĠyuÃ¨ĠtÃ¡iĠ":9847,"zhÅįngĠwÃ¨iĠ":9848,"cÄģnĠjiÄģ":9849,"ĠshÄ«":9850,"ĠlÇİoĠ":9851,"zhÄĵnĠshÃŃĠ":9852,"zhÅįngĠhuÃ¡ĠrÃ©nĠmÃŃnĠgÃ²ngĠhÃ©ĠguÃ³Ġ":9853,"yÇĴuĠbÃ¹Ġ":9854,"yÃ¬nĠdÃ¬Ġ":9855,"mÄĽiĠshÃ¹Ġ":9856,"ĠzhÃ¨ng":9857,"ĠĠĠ2025":9858,"mÃ¬ngĠlÃ¬ngĠ":9859,"xuÃ©ĠshÃ¹Ġ":9860,"xÄ«ngĠqÄ«Ġ":9861,"ĠdeĠgÅįngĠzuÃ²Ġ":9862,"22Ġ":9863,"2020ĠniÃ¡nĠmÄĽiĠguÃ³ĠrÃ©nĠkÇĴuĠpÇĶĠchÃ¡ĠdeĠshÃ¹ĠjÃ¹Ġ":9864,"jiÃłnĠshÃ¨Ġ":9865,"jÇĶĠxÃŃng":9866,"fÃ¡ngĠyÃ¹Ġ":9867,"ĠrÃ¨nĠwÃ¹Ġ":9868,"wÇĶĠzhuÄģngĠ":9869,"ĠzhuÇİn":9870,"ĠniÃ¡nĠbÃ¨iĠ":9871,"yÃŃĠchÇİnĠ":9872,"ĠdÃ¬ngĠ":9873,"ĠshÃŃĠyÄ«Ġ":9874,"ĠwÃłnĠmÄĽiĠyuÃ¡nĠ":9875,"ÃłoĠmÃ©nĠ":9876,"yÇĶnĠxÇĶĠ":9877,"ĠjiÇĶ":9878,"ĠzhÃ¬ĠshÃŃĠ":9879,"ĠjiÄģĠrÃ¹":9880,"ĠzhÄ«ĠhÃ²u":9881,"tÃŃĠgÄģoĠ":9882,"ĠlÃŃ":9883,"zhÃ²uĠ":9884,"fÄĵiĠlÇľĠ":9885,"wÇİĠÄĽrĠ":9886,"bÃłoĠdÇİoĠ":9887,"yÇĲĠlÃ¡iĠ":9888,"leĠtÄģĠdeĠ":9889,"huÃ¬ĠyuÃ¡nĠ":9890,"ĠshÃŃĠqÄ«":9891,"jÃ¬ĠlÃ¹Ġ":9892,"ĠjÄ«ĠguÄģnĠ":9893,"dÅ«ĠshÃ¬Ġ":9894,"leĠyÃŃĠgÃ¨Ġ":9895,"ĠchÄĵngĠwÃ©iĠ":9896,"huÃłĠjiÄģĠ":9897,"cuÃ¬Ġ":9898,"jÄ«ĠchÇİngĠ":9899,"ĠfÃ¹ĠzÃ©":9900,"yÃŃĠmÃŃnĠ":9901,"shÅ«ĠdeĠ":9902,"jÃ¹ĠlÃŃĠ":9903,"shÃ¹ĠzÃ¬Ġ":9904,"ĠĠĠ2024":9905,"ĠshÃ¬ĠyÄ«ĠzhÇĴng":9906,"jÄ«nĠdeĠ":9907,"ĠrÃ©nĠlÃ¨i":9908,"ĠhÃ©ĠshÃŃĠ":9909,"hÅįngĠzhÃł":9910,"ĠCĠ":9911,"ĠzÃ¬ĠjÇĲĠdeĠ":9912,"jiÄĵĠjÃŃĠ":9913,"duÃłnĠdeĠ":9914,"dÅ«ĠjiÃłoĠ":9915,"ĠhÃ³ng":9916,"lÃ¬ĠshÃ¬Ġ":9917,"kÃ¨ĠlÇĲĠ":9918,"yÃ¡nĠdeĠ":9919,"yÃŃngĠdeĠ":9920,"huÄģĠyuÃ¡nĠ":9921,"shÄģnĠmÃłi":9922,"shÄĵngĠjÃŃĠ":9923,"yuÄĵĠyÇĴuĠ":9924,"ĠshÃ¬ĠdÃłĠ":9925,"wÃ©nĠzÃ¬Ġ":9926,"ĠxiÅ«Ġ":9927,"miÃłnĠduÃ¬Ġ":9928,"ĠwÃłnĠyuÃ¡nĠ":9929,"yÄģoĠqÇĲngĠ":9930,"ĠguÄģn":9931,"Ġ2011ĠniÃ¡nĠ":9932,"yÃ²ngĠhÃ¹Ġ":9933,"ĠliÃ¡ngĠ":9934,"dÅįngĠjÃ¬Ġ":9935,"zÄ«ĠjÄ«nĠ":9936,"dÄĽngĠwÃ¨iĠ":9937,"ĠlÃ¬ĠshÇĲ":9938,"wÇĶĠtÃ¡iĠ":9939,"ĠxÃº":9940,"sÃºĠ":9941,"ĠshÃ¨ĠjÃŃĠ":9942,"hÃ¡nĠshÃ¹Ġ":9943,"ĠzhÃ¬ĠlÃ¬Ġ":9944,"gÄģoĠdÄĽngĠ":9945,"Ġ2016":9946,"ĠsuÇĴĠyÇĲ":9947,"yuÃ¡nĠjÃŃĠ":9948,"ĠrÃ©nĠmÃŃn":9949,"ĠhÃ©ĠlÃ¡nĠ":9950,"shÄĵnĠqÇĲngĠ":9951,"Ġ2005ĠniÃ¡nĠ":9952,"dÃ²ngĠzuÃ²Ġ":9953,"ĠjÃ¹":9954,"ĠhÃ¡nĠguÃ³Ġ":9955,"xiÃłoĠguÇĴĠ":9956,"Ġ3ĠyuÃ¨Ġ":9957,"mÄĽiĠguÃ³ĠdeĠ":9958,"Ġ2008ĠniÃ¡nĠ":9959,"ĠĠĠG":9960,"ĠmÃŃngĠchÃ¡oĠzhÃ¨ngĠzhÃ¬ĠrÃ©nĠwÃ¹Ġ":9961,"ĠĠĠxÄ«nĠ":9962,"ĠĠĠzÇİoĠniÃ¡nĠ":9963,"jiÃłoĠliÃłnĠ":9964,"ĠxiÃłnĠhÃ©Ġ":9965,"ĠrÃ¬ĠjÅ«nĠ":9966,"xiÃłĠlÃ¬ng":9967,"ĠpÃ¨i":9968,"1990ĠniÃ¡nĠ":9969,"ĠyuÃ¡nĠmÃŃngĠ":9970,"liÇİngĠzhÇĴngĠ":9971,"lÇĲngĠtÇĶĠ":9972,"nÇĶĠlÃ¬Ġ":9973,"zhÃ¨ngĠmÃŃngĠ":9974,"ĠzhÄģo":9975,"ĠĠĠhÃ²uĠ":9976,"lÃ¹ĠjÅ«n":9977,"ĠzhÅįngĠyÃºĠ":9978,"zuÃ²ĠyÃ²ngĠ":9979,"ĠĠĠyÃ³uĠ":9980,"qÅ«ĠyÃ¹":9981,"jÄ«ngĠchÃ¡ngĠ":9982,"liÃ¨ĠbiÇİoĠ":9983,"yÇĴuĠzÃłiĠ":9984,"ĠyÃ¬ĠyÃ¬Ġ":9985,"yÇĲngĠpiÃłn":9986,"ĠzhÅįuĠniÃ¡nĠ":9987,"ĠjÃ¬nĠxÃŃng":9988,"ĠnÃ¡nĠzhÃ¬Ġ":9989,"ĠguÃ³ĠhuÃ¬Ġ":9990,"ĠgÅįngĠhuÃ¬Ġ":9991,"guÄģnĠxÃ¬":9992,"ĠbÇĲ":9993,"ĠjuÃ©":9994,"ĠW":9995,"ĠjÃ¬ĠzhÄĽĠ":9996,"ĠyuÃ¡nĠgÅįngĠ":9997,"nÃ¨iĠlÃ¹Ġ":9998,"ĠhÄĽnĠ":9999,"zhÇİoĠdÃłoĠ":10000,"wÃ¡ngĠchÃ¡o":10001,"ĠlÇĲ":10002,"jÄ«ngĠlÇĲĠ":10003,"lÇļĠxÃŃngĠ":10004,"shÃ©nĠjÄ«ngĠ":10005,"ĠbÃ³":10006,"ĠchÃ¬Ġ":10007,"ĠshÃ¬ĠhÃ²uĠ":10008,"yÃ²ngĠzuÃ²Ġ":10009,"lÇĲĠlÃ¹nĠ":10010,"ĠgÅįngĠchÇİngĠ":10011,"fÃ¹ĠjÃ¬nĠ":10012,"huÃŃĠyÃ¬ngĠ":10013,"ĠzhÃ¹":10014,"yÃºĠzÃłiĠ":10015,"ĠgÃ©":10016,"tÃłiĠrÃ©nĠ":10017,"ĠhÃ©ĠgÅįngĠ":10018,"kÄĽĠyÇĲĠzÃłiĠ":10019,"eĠ":10020,"ĠluÃ³":10021,"zhÄ«ĠjiÄģnĠ":10022,"tÃŃĠdÃłoĠ":10023,"bÇİoĠchÃŃ":10024,"ĠbÄģnĠ":10025,"ĠchÃ©ngĠxiÃłnĠ":10026,"chÅ«ĠbÇİnĠ":10027,"ĠniÃ¡nĠ1ĠyuÃ¨Ġ1ĠrÃ¬Ġ":10028,"ĠbÇİnĠ":10029,"ĠjÄ«ĠchÄĵĠ":10030,"ĠshÃŃĠÃ¨rĠ":10031,"jiÇĶĠdiÃłnĠ":10032,"ÄģiĠjÃŃĠ":10033,"ĠfÇİn":10034,"qÃ¬ĠxiÃłngĠ":10035,"ĠĠĠP":10036,"shÇĴuĠjÄ«Ġ":10037,"ĠguÃ³ĠfÃ¡ng":10038,"kÅįngĠzhÅįngĠ":10039,"ĠniÃ¡nĠshÃ¬ĠjiÃ¨Ġ":10040,"ĠlÃ©iĠ":10041,"guÄ«ĠzÃ©Ġ":10042,"tÅįngĠdÃłoĠ":10043,"kÇĴngĠbÃ¹Ġ":10044,"tÄ«Ġ":10045,"qÃŃĠzhÅįngĠyÄ«ĠzhÇĴngĠ":10046,"zuÃ²ĠwÃ¨iĠ":10047,"wÇĴĠmen":10048,"bÃ¨iĠshÃ¬ĠwÃ¨iĠ":10049,"ĠdeĠzhÃ¬Ġ":10050,"ĠwÇĴĠmenĠ":10051,"lÃ¬ĠwÃ¨iĠ":10052,"shÅ«ĠjÃŃĠ":10053,"15Ġ":10054,"ĠÃ©rĠchÃ©ngĠ":10055,"shÇĴuĠdÅ«Ġ":10056,"ĠtÃŃĠgÅįngĠ":10057,"1984ĠniÃ¡nĠ":10058,"dÅįngĠnÃ¡nĠbÃ¹Ġ":10059,"yÇĲĠxiÃłĠ":10060,"yÇİnĠyÃ¬Ġ":10061,"ĠxÄ«ĠwÃłng":10062,"jÄ«ĠhÃ©Ġ":10063,"dÃłĠlÃ¹ĠdeĠ":10064,"qÇĲĠyÃ¨":10065,"suÃ¬ĠdÃłoĠ":10066,"ĠdeĠjiÄģĠ":10067,"ĠzuÃ²ĠwÃ©i":10068,"dÃłiĠlÇĲĠ":10069,"mÄĽngĠ":10070,"jÄ«nĠshÇĶĠ":10071,"jÃ¬nĠyÃŃĠbÃ¹Ġ":10072,"gÃ©ĠwÃ¨iĠ":10073,"lÃ¡oĠdÃ²ngĠ":10074,"zhÇĶĠchÃŃ":10075,"jiÃłoĠxuÃ©Ġ":10076,"biÇİoĠmiÃłnĠ":10077,"gÃ¹ĠwÃ¨nĠ":10078,"ĠyÄ«ngĠyÇĶĠ":10079,"nÄ«Ġ":10080,"ĠxÃ¬ĠliÃ¨Ġ":10081,"xÄ«nĠjiÄģĠpÅį":10082,"ĠhÃ©ĠxÄ«Ġ":10083,"ĠbÃ¹ĠbÃ¹Ġ":10084,"ĠyÅįngĠyÇĴuĠ":10085,"ĠyÇĴuĠjÄ«Ġ":10086,"chÃ¡oĠxiÄģn":10087,"Ġ2001ĠniÃ¡nĠrÃ©nĠkÇĴuĠ":10088,"dÃłoĠlÃ¹Ġ":10089,"huÃ¡ĠrÃ©nĠ":10090,"cÃ¡iĠliÃłoĠ":10091,"ĠtÇĶĠ":10092,"ĠzÃłiĠwÃ¨iĠ":10093,"ĠbÄĽiĠqÇĲĠ":10094,"jÃ¬ngĠdeĠ":10095,"sÇĲĠhÃ²uĠ":10096,"bÅįĠlÃ¡n":10097,"tÅįngĠchÄĵĠ":10098,"sÄ«ĠlÃ¬Ġ":10099,"1989ĠniÃ¡nĠ":10100,"ĠzhÅįngĠguÃ³ĠdÃłĠlÃ¹Ġ":10101,"bÃ¡iĠsÃ¨Ġ":10102,"yÃłĠlÃ¬ĠshÄģnĠdÃłĠ":10103,"ĠsÃłiĠjÃ¬Ġ":10104,"huÃ¬ĠshÃ¬Ġ":10105,"ĠyÇĲĠbÃ¨iĠ":10106,"bÇİoĠliÃºĠ":10107,"nÇļĠzÇĲ":10108,"tiÃ¡oĠzhÄĽngĠ":10109,"jÅ«ĠmÃŃn":10110,"ĠhÇİi":10111,"ĠjÃ¹ĠyÇĴuĠ":10112,"zhÇĶĠlÃ¬Ġ":10113,"ĠpÃŃngĠmiÃłnĠ":10114,"ĠĠĠE":10115,"nÃŃĠkÃ¨Ġ":10116,"ĠtÄģĠwÃ¨iĠ":10117,"Ġ2021":10118,"zhÇĶĠdeĠ":10119,"ĠzhÄ«ĠjiÄģn":10120,"ĠchÃ¡Ġ":10121,"ĠsÄ«ĠtÃ¨":10122,"ĠgÇİngĠ":10123,"ĠqÇĶĠ":10124,"ĠxiÃłnĠdeĠyÃŃĠgÃ¨Ġ":10125,"TĠ":10126,"ĠdÃłoĠdÃ¡Ġ":10127,"fÇİĠÃłnĠ":10128,"yÇĲnĠqÇĲĠ":10129,"ĠdÅįngĠnÃ¡nĠ":10130,"yÇĲnĠqÇĲ":10131,"ĠĠĠ2012":10132,"yÃ¹nĠzuÃ²Ġ":10133,"zhÃłoĠkÄģiĠ":10134,"jiÄģoĠhuÃ¬Ġ":10135,"shÇĴuĠgÃ¨Ġ":10136,"tuÃ¬ĠchÅ«Ġ":10137,"dÃ¬ĠÃ¨rĠ":10138,"ĠÃ©rĠyÃ¡nĠ":10139,"ĠxiÃłnĠdeĠyÃŃĠgÃ¨":10140,"ĠbÃ¨iĠrÃ¨nĠwÃ©iĠshÃ¬Ġ":10141,"lÃ¬ĠzÃłiĠ":10142,"ĠjÄ«ĠhÅ«":10143,"ĠkÃ¨ĠchÃ©ngĠ":10144,"wÃ©nĠzhÄģngĠ":10145,"jÇĲĠgÃ¨Ġ":10146,"ĠshÃ¬ĠjiÄģĠ":10147,"ĠyÇĴuĠyÃ¬Ġ":10148,"tÃ¨ĠshÅ«Ġ":10149,"ĠxÄ«ĠsÄ«Ġ":10150,"xiÄģngĠguÄģn":10151,"shÄ«ĠfÃłn":10152,"ĠfÃ¹ĠqÄ«nĠ":10153,"wÃºĠfÇİ":10154,"ĠqÇĲ":10155,"ĠlÇļĠ":10156,"jÄ«nĠhuÃ¬Ġ":10157,"jiÃ¨ĠdeĠ":10158,"jiÃłoĠshÄ«Ġ":10159,"cÃ©ngĠjÄ«ng":10160,"cÄģnĠmÃ³u":10161,"ĠĠĠxiÃłĠ":10162,"zhÃłiĠ":10163,"lÇľĠshÄ«Ġ":10164,"ĠshÃ¬ĠyÇĶĠ":10165,"ĠnÇļĠxÃ¬ngĠ":10166,"fÄĵiĠzhÅįuĠ":10167,"zhÃ¡Ġ":10168,"xÄ«ĠbÄģnĠyÃ¡":10169,"dÃłĠwÃ¨iĠ":10170,"ĠyÄ«ĠjÃŃĠ":10171,"ĠfÃ©ngĠ":10172,"chÃ¡ngĠdeĠ":10173,"ĠbÃ¹ĠdÃ©":10174,"ĠtÄģĠmenĠzÃłiĠ":10175,"ĠsĠĠĠ":10176,"wÄĵiĠjÄ«Ġ":10177,"ĠyÃ¬ĠfÄģngĠmiÃłnĠ":10178,"fÇİĠyuÃłn":10179,"yÃŃĠzhÇĲĠ":10180,"ĠÃ©rĠshuÇĲĠyÃ¹ĠmiÃłnĠjÄ«ĠwÃ¨iĠ0":10181,"ĠguÃ³ĠjiÄģĠdeĠ":10182,"zhÄĽĠzÃłiĠ":10183,"ĠhÃ©ĠqÃŃĠtÄģĠ":10184,"yÃłĠzhÅįu":10185,"ĠzhÇĶĠxÃŃĠ":10186,"jÄ«nĠpÃ¡iĠ":10187,"chÄĵĠdeĠ":10188,"ĠzhÄ«ĠwÃ¨iĠ":10189,"ĠbÃ¬ngĠjiÄģngĠ":10190,"16Ġ":10191,"kÄģngĠxÄ«Ġ":10192,"ĠchÃ©ngĠxÃ¹Ġ":10193,"yÃłoĠwÃ¹Ġ":10194,"ĠwÃ¨iĠyÇĴuĠ":10195,"biÇİoĠdÃ¡":10196,"ĠĠĠchÃ©ngĠ":10197,"ĠchÃ©ngĠrÃ¨nĠ":10198,"guÃ²ĠqÃ¹Ġ":10199,"pÃºĠtÃ¡oĠyÃ¡":10200,"ĠshÅįuĠ":10201,"dÃłĠdÃ¬Ġ":10202,"biÃłnĠdÃ©Ġ":10203,"ĠzhÃ¬ĠliÃ¡oĠ":10204,"huÄģnĠyÃŃngĠ":10205,"ĠgÄģo":10206,"wÃ©nĠxiÃłnĠ":10207,"ĠbÃłnĠ":10208,"ĠbÇİiĠ":10209,"duÅįĠniÃ¡nĠ":10210,"ĠsÄ«ĠkÃ¨Ġ":10211,"ĠjÃ¬nĠxÃŃngĠleĠ":10212,"mÃ¹ĠbiÄģo":10213,"ĠÃ©":10214,"ĠfÃ¨i":10215,"ĠguÄģnĠyÃºĠ":10216,"zhuÄģngĠshÃ¬Ġ":10217,"zhÃŃĠmÃŃn":10218,"dÅįngĠbÄĽiĠbÃ¹Ġ":10219,"gÃ²uĠzÃłoĠ":10220,"huÃ²ĠdÃ©ĠleĠ":10221,"bÃ³ĠwÃ¹ĠguÇİn":10222,"ÃłoĠdÃłĠlÃ¬ĠyÃłĠ":10223,"zhÃ¹ĠlÇĲĠ":10224,"ĠqiÃºĠyuÃ¡nĠ":10225,"xÃ¬ĠtÇĴngĠdeĠ":10226,"Ġ00Ġ":10227,"Ġ100":10228,"ĠĠĠF":10229,"jiÄģngĠhuÃ¬Ġ":10230,"fÃºĠyÃ¬Ġ":10231,"bÄĽnĠdÃ¬Ġ":10232,"lÄĽngĠ":10233,"ĠÃ©rĠgÄģiĠdÃ¬Ġ":10234,"xiÄģnĠshÄĵngĠ":10235,"ĠbÃ¹ĠlÄģĠ":10236,"bÅįĠlÃ¡nĠ":10237,"ĠyÃºĠlÃ¨Ġ":10238,"jiÄģĠrÃ¹":10239,"fÃłngĠqÃ¬Ġ":10240,"jiÃłnĠyÃ¬Ġ":10241,"Ġ2015":10242,"dÄģngĠshÃŃĠdeĠ":10243,"ĠqÄ«ĠxÄ«ĠzÃłiĠ":10244,"mÃ¡oĠzÃ©Ġ":10245,"xiÃłoĠdeĠ":10246,"sÃłĠsÄ«Ġ":10247,"yÃ¬ĠdÃłĠlÃ¬Ġ":10248,"ĠbÃ¬ngĠyÇĶĠ":10249,"ĠdÃłĠlÃ¹Ġ":10250,"1985ĠniÃ¡nĠ":10251,"fÃ¹ĠqÄ«n":10252,"zÃ©ĠwÃ¨iĠ":10253,"ĠcÃ¨Ġ":10254,"ĠwÃ¨iĠlÃ¡iĠ":10255,"Ġ2007ĠniÃ¡nĠ":10256,"ĠĠĠcÃ³ngĠ":10257,"zÃ¬ĠyÃ³u":10258,"ĠjiÃłnĠzÃłoĠ":10259,"DĠ":10260,"ĠjÃ¬nĠyÃŃĠbÃ¹Ġ":10261,"chÄĵngĠzuÃ²Ġ":10262,"shÅįuĠshÃ¬Ġ":10263,"ĠdeĠzhÃ¨ngĠ":10264,"ĠniÃ¡nĠĠĠ":10265,"liÃºĠzÃłiĠ":10266,"nÃ¡nĠjÄ«ngĠ":10267,"ĠjÃ¬nĠgÅįngĠ":10268,"guÇİngĠgÃłoĠ":10269,"sÃłĠÄĽrĠ":10270,"luÃ³ĠdÃ¬Ġ":10271,"ĠshÃ¬ĠzhÃ¨ngĠ":10272,"ĠfÃ¹ĠqÄ«n":10273,"shÃ¬ĠĠĠ":10274,"ĠjÃ¬ĠshÃ¹":10275,"ĠhÃłoĠwÃ¨iĠ":10276,"jÃ¬ĠxÃ¹Ġ":10277,"tÇİnĠkÃ¨Ġ":10278,"1949ĠniÃ¡nĠ":10279,"ĠdeĠshÄĵngĠ":10280,"ĠrÃ©nĠmen":10281,"ĠrÃ¬ĠjÅ«n":10282,"ĠyÃ¬ĠmÄĽiĠyuÃ¡nĠ":10283,"cÃ¬ĠshÇĲĠ":10284,"jÇĲnĠjÃŃĠ":10285,"xÃ¬ĠjÃ¹Ġ":10286,"Ġ2013":10287,"ĠzÃłiĠcÇĲ":10288,"ĠsÄ«ĠtÇİn":10289,"ĠtÃ¨ĠbiÃ©ĠshÃ¬Ġ":10290,"ĠsÃłiĠ":10291,"huÇĴĠjiÃłnĠ":10292,"ĠjiÄģĠzÃºĠ":10293,"piÃłoĠfÃ¡ngĠ":10294,"bÇĲĠlÃ¬ĠshÃŃĠ":10295,"ĠbÄ«ngĠ":10296,"qÇĲngĠqiÃºĠ":10297,"jÇĲngĠfÄģngĠ":10298,"kÇİoĠlÇľ":10299,"ĠhÃ¨Ġ":10300,"ĠshÃ¬ĠrÃ¬ĠbÄĽnĠ":10301,"ĠjiÃ©ĠguÇĴ":10302,"tÃłiĠpÃŃngĠyÃ¡ng":10303,"zhÄģnĠmÇĶĠsÄ«Ġ":10304,"Ġ2014":10305,"ĠchÅ«ĠshÄĵngĠ":10306,"ĠmÄĽiĠniÃ¡nĠ":10307,"dÃ¬ĠzÃłiĠ":10308,"ĠyÇĲĠyÇĴuĠ":10309,"shÃłngĠwÇĶĠ":10310,"ĠzhÃło":10311,"bÄģĠlÃŃ":10312,"wÃ¡ngĠchÃ¡oĠ":10313,"tÃ³uĠpiÃło":10314,"ĠĠĠjiÃ©ĠzhÃ¬Ġ":10315,"nÃ¨iĠyÇĴuĠ":10316,"biÄģnĠdeĠ":10317,"wÃ¡nĠgÅįngĠ":10318,"shÃŃĠjiÄģnĠ":10319,"ĠzhÃ¬ĠchÃ©ngĠ":10320,"guÇİngĠdÅįngĠshÄĽngĠ":10321,"fÄĵnĠzhÅįngĠ":10322,"pÄģiĠshÃ¨":10323,"ĠyuÃ¡nĠbÄĽnĠ":10324,"quÃ¨ĠrÃ¨nĠ":10325,"chÇİngĠhÃ©Ġ":10326,"ĠqÃŃĠzÃłiĠ":10327,"ĠzhÄ«ĠziĠ":10328,"mÇĶĠqÄ«n":10329,"shÄĵnĠtÇĲĠ":10330,"ĠdÃłĠyuÄĵĠ":10331,"ĠzhÄ«ĠdeĠ":10332,"mÃ©ngĠgÇĶ":10333,"ĠÃ¨Ġ":10334,"gÇĶĠfÃ¨n":10335,"ĠcÄģnĠjiÄģĠ":10336,"ĠjÄ«ngĠjÃ¬Ġ":10337,"ĠzhÃłnĠdÃ²uĠ":10338,"xÃŃĠxÃ¬ng":10339,"gÃ¨ngĠduÅįĠ":10340,"hÃºĠbÄĽiĠ":10341,"ĠyuÄĵĠhÃłnĠ":10342,"dÄĵngĠshÃłngĠ":10343,"ĠxiÃłnĠchÇİngĠ":10344,"ĠdÃ¨ng":10345,"ĠĠĠzÄĵngĠ":10346,"suÇĴĠzÃłiĠ":10347,"mÃŃnĠjiÄģnĠ":10348,"qÃŃngĠbÃłoĠ":10349,"ĠyÄ«ngĠwÃ©nĠ":10350,"ĠxiÇİngĠ":10351,"wÃłiĠbÃ¹Ġ":10352,"zhÃ²ngĠyÃ¬Ġ":10353,"mÃ¬ĠmÃ¬Ġ":10354,"ĠxÃºnĠ":10355,"ĠhÃ©ngĠ":10356,"xiÃłoĠyuÃ¡nĠ":10357,"ĠshÃ¬ĠyÃ¨Ġ":10358,"ĠzÃłiĠqÃŃĠ":10359,"guÄģnĠbÃ¬Ġ":10360,"guÇİngĠfÃłn":10361,"leĠĠĠ":10362,"kÇİoĠlÇľĠ":10363,"fÄĽnĠ":10364,"tÃ¨ĠsÃ¨Ġ":10365,"ĠyÇĴuĠxiÃłnĠ":10366,"sÄĵnĠlÃŃnĠ":10367,"ĠyÃ¡n":10368,"mÇİĠsÄ«Ġ":10369,"ĠwÃ²":10370,"Ġ2020":10371,"wÃ¹ĠyuÃ¡nĠ":10372,"cÃ¹nĠ":10373,"ĠhÃłn":10374,"ÄģnĠpÃ¡iĠ":10375,"ĠwÇĴĠmen":10376,"ĠÄģiĠ":10377,"ĠquÃ¡nĠqiÃºĠ":10378,"xiÃłĠyÄ«Ġ":10379,"mÄĽiĠgÃ¨Ġ":10380,"Ã¨rĠyuÃ¨Ġ":10381,"23Ġ":10382,"ĠdÃłĠduÅįĠshÃ¹Ġ":10383,"ĠAĠ":10384,"chÃ©ngĠniÃ¡nĠ":10385,"zÃ¨ngĠ":10386,"ĠbÃ¹ĠjiÇĶ":10387,"zhuÄģngĠbÃ¨iĠ":10388,"ĠdÃłĠdÃłoĠ":10389,"liÇİngĠniÃ¡nĠ":10390,"ĠzuÃ¬ĠgÄģoĠ":10391,"nÃ©ngĠzÃłiĠ":10392,"ĠjÄ«ĠbÃłi":10393,"yÇİnĠchÃłngĠ":10394,"tÇĶĠÄĽrĠqÃŃĠ":10395,"ĠgÄģngĠ":10396,"qiÄģnĠzhÃ¬Ġ":10397,"huÇİnĠ":10398,"1986ĠniÃ¡nĠ":10399,"ĠdÃ¬ĠyÄ«ĠcÃ¬Ġ":10400,"chÇİngĠdÃ¬Ġ":10401,"mÃŃnĠzhÇĶĠdÇİngĠ":10402,"kĠ":10403,"ĠzhÅįngĠshÃ¬Ġ":10404,"ĠkÇİ":10405,"ĠshÃŃĠyÃłnĠ":10406,"zuÃ²ĠzhÃłnĠ":10407,"Ġ10Ġ":10408,"nÃ¡nĠyÇĲĠ":10409,"ĠjÃŃĠbÄĽiĠ":10410,"ĠchÅ«ĠlÃ¡iĠ":10411,"tÃ¡iĠfÄĵngĠ":10412,"ĠtÅįngĠchÃ¡ng":10413,"Ġ2017":10414,"bÃłnĠlÇĲĠ":10415,"13Ġ":10416,"ĠzhÄ«ĠdÃłoĠ":10417,"xÃ¬ngĠqÃ¹Ġ":10418,"tiÄģnĠjÄ«n":10419,"lÃ³ngĠjiÄģngĠ":10420,"lÇĲngĠshÃ¬Ġ":10421,"ĠbÃ¹ĠzÃºĠ":10422,"yÃ²ngĠtÃºĠ":10423,"lÇĲĠgÅįngĠ":10424,"ĠkÄģngĠ":10425,"tiÄģnĠdeĠ":10426,"tiÄģnĠjÄ«nĠ":10427,"ĠyuÃ¡nĠsÃ¹Ġ":10428,"wÄĵiĠÄĽrĠ":10429,"nÃ³ngĠyÃ¨":10430,"ĠqÄ«ngĠchÃ¡oĠ":10431,"ĠxuÄģnĠ":10432,"ÄģiĠÄĽrĠ":10433,"ĠyuÃ¨ĠtuÃ¡nĠ":10434,"ĠchÃ©ngĠdÃ¹Ġ":10435,"zhÃłnĠlÇĲngĠ":10436,"chÃ¡ngĠjiÃłnĠdeĠ":10437,"jÃ¬nĠxÃŃngĠleĠ":10438,"ĠshÇĲĠjiÃłnĠyÃºĠ":10439,"MĠ":10440,"ĠĠĠxiÃłn":10441,"dÇİoĠdÃłnĠ":10442,"xiÅ«ĠzhÃ¨ngĠ":10443,"mÃŃngĠzÃ¬Ġ":10444,"guÃ¬ĠzhÅįuĠ":10445,"fÄĵnĠbÃ¹ĠyÃºĠ":10446,"xÇĲĠjÃ¹Ġ":10447,"ĠgÅįngĠzhÇĶĠ":10448,"ĠtÄģĠhÃ¡iĠ":10449,"ĠzhÃłnĠdÃ²u":10450,"mÇİĠlÃ¡iĠxÄ«ĠyÃłĠ":10451,"xÃŃĠxÃ¬ngĠbÃ¹ĠmÃŃngĠ":10452,"VĠ":10453,"ĠR":10454,"ĠshÃŃĠdÃłi":10455,"ĠwÃ©nĠhuÃłĠ":10456,"zhÃłngĠÃłiĠ":10457,"xĠ":10458,"25Ġ":10459,"ĠchÅ«ĠqÄ«Ġ":10460,"xiÃłngĠshÃ¬Ġ":10461,"huÃ¡ĠshÃ¨ngĠ":10462,"shÄĵngĠchÃ©ngĠ":10463,"ĠyÇĴuĠxiÄĵĠ":10464,"ĠshÄĵngĠchÇİn":10465,"rÃ¨nĠmÃ¬ngĠwÃ¨iĠ":10466,"ĠrÃ³ngĠ":10467,"ĠyÃ¬ĠqÇĲ":10468,"ĠwÃłnĠlÃ¬Ġ":10469,"ĠtÃ¡oĠ":10470,"fÇİĠguÄģnĠ":10471,"ĠyÄĽĠjiÃ¹ĠshÃ¬Ġ":10472,"ĠdeĠfÄģngĠshÃ¬Ġ":10473,"ĠhÃ©ĠhÃ©Ġ":10474,"ĠgÃ²ng":10475,"ĠĠĠtÄģĠ":10476,"zÇĶĠjiÃłnĠ":10477,"ĠshÄĵngĠhuÃ³ĠxÃŃĠxÃ¬ngĠbÃ¹ĠmÃŃngĠ":10478,"ĠchÇĶĠyÃºĠ":10479,"shÃ¨ĠzhÃ¬Ġ":10480,"tÃŃĠchÅ«":10481,"maĠ":10482,"jiÄģoĠliÃºĠ":10483,"shÃ²uĠdÃło":10484,"jÄ«ĠchÇĶĠ":10485,"ĠtÄģĠyÄĽĠ":10486,"dĠ":10487,"ĠgÄĵnĠjÃ¹":10488,"ĠluÃ²":10489,"ĠgÃ²ngĠyÇĴuĠ":10490,"hÄĽnĠdÃłĠ":10491,"ĠsuÃ¬ĠshÃŃĠ":10492,"ĠyÃŃnĠ":10493,"zhÃ¬ĠzhÅįngĠ":10494,"chÄ«Ġ":10495,"bÃłoĠfÄģ":10496,"hÃ©ĠĠĠ":10497,"zhÇĶĠshÃ¬Ġ":10498,"kÇĶĠ":10499,"ĠĠĠmÄĽiĠguÃ³Ġ":10500,"lÇĲngĠxiÃ¹Ġ":10501,"jÃ¹ĠjuÃ©Ġ":10502,"lÄģĠdÄ«ng":10503,"rÃ¨nĠshÃŃĠ":10504,"ĠÃ©rĠbÃºĠshÃ¬Ġ":10505,"chuÃ¡nĠshuÅįĠ":10506,"huÃłĠhÃ©ĠwÃ¹Ġ":10507,"ĠkÇĴngĠ":10508,"ĠruÃ¬Ġ":10509,"ĠdiÃłnĠyÇĲngĠ":10510,"bÃłoĠlÃ¬Ġ":10511,"ÄģnĠnÃłĠ":10512,"ĠyÄ«ĠxuÃ©Ġ":10513,"ÄģnĠzhuÄģng":10514,"wÇĴĠmenĠ":10515,"ĠpÃł":10516,"zhÃ¬ĠbÃ¹Ġ":10517,"jiÄģĠlÃ¬ĠfÃºĠ":10518,"ĠfÇİ":10519,"ĠyÇĴuĠyÃŃĠgÃ¨Ġ":10520,"ĠxiÃłnĠxiÃłngĠ":10521,"shÃłngĠyÃ¬ngĠ":10522,"ĠĠĠlÇĲĠ":10523,"wÃ©nĠyÃ¬Ġ":10524,"shÃºĠ":10525,"ĠzÃłiĠnÃ¨iĠdeĠ":10526,"gÄģoĠsÃ¹Ġ":10527,"qiÃ³ngĠ":10528,"1987ĠniÃ¡nĠ":10529,"ĠzÃłiĠdÃ¹Ġ":10530,"ĠÃ©rĠbÃ¹Ġ":10531,"jÃ¬ĠshÃ¬Ġ":10532,"yuÃłnĠshÃ¬Ġ":10533,"ĠwÃ¨iĠxÄ«ngĠ":10534,"ĠlÇĲĠlÃ¹n":10535,"chuÃłngĠbÃłn":10536,"yÃ¡nĠshÄĵn":10537,"hÇİiĠÃłnĠ":10538,"nÇļĠxÃ¬ng":10539,"chuÃłngĠjiÃłnĠ":10540,"bÄ«nĠhÇİiĠ":10541,"shÃ¹nĠlÃ¬Ġ":10542,"ĠdÅįngĠbÄĽiĠ":10543,"ĠĠĠcÇĲĠwÃłiĠ":10544,"Ġ2013ĠniÃ¡nĠ":10545,"lÃ©iĠsÄ«Ġ":10546,"ruÇİnĠjiÃłnĠ":10547,"ĠshÄĵngĠzhÇİng":10548,"ĠyÃ³uĠqÃŃĠshÃ¬Ġ":10549,"ĠshÇĶ":10550,"tuÄ«ĠjÃ¬nĠ":10551,"ĠhÃ©ĠbÃ¹Ġ":10552,"hÇİiĠwÃłiĠ":10553,"shÅ«ĠrÃ¹Ġ":10554,"zÄ«ĠchÇİnĠ":10555,"lÃ¹nĠwÃ©nĠ":10556,"zÅ«Ġ":10557,"ĠxÃŃngĠzhÃ¨ng":10558,"wÇİngĠqiÃºĠ":10559,"ĠwÇİĠ":10560,"ĠnÃł":10561,"ĠbÃ¹ĠluÃ²Ġ":10562,"ĠdÃłĠshÃł":10563,"1980ĠniÃ¡nĠ":10564,"zhÇĶĠyÃ¬ĠdeĠ":10565,"pÃŃngĠlÃ¹nĠ":10566,"zuÃ¬ĠgÄģo":10567,"ĠshÃ¬ĠyÃºĠ":10568,"yÃ¬ngĠyÃ²ng":10569,"cÇİiĠqÇĶĠ":10570,"Ġ2010":10571,"Ġ2012":10572,"pÃ¡iĠmÃŃngĠdÃ¬Ġ":10573,"ĠtÇİĠ":10574,"ĠsÄģiĠ":10575,"Ġ2006ĠniÃ¡nĠ":10576,"ĠyÃŃngĠ":10577,"biÃłnĠwÃ¨iĠ":10578,"ĠbÄĽiĠjÄ«ngĠ":10579,"ĠxÃŃĠ":10580,"yÃºĠdeĠ":10581,"cĠ":10582,"jÃ¹ĠhÃ©Ġ":10583,"ĠzÃłiĠxÄ«Ġ":10584,"rÃ©nĠdÃłĠ":10585,"ĠdÃ©ĠÄĽrĠ":10586,"ĠhÃ²uĠxuÇİnĠrÃ©nĠ":10587,"bÃłoĠgÃło":10588,"bÅįĠfÃłngĠ":10589,"jiÃłoĠshÃ¬Ġ":10590,"tÃ³uĠzÄ«":10591,"mÇİĠlÇĲĠ":10592,"zÃ©ĠrÃ¨nĠ":10593,"rÇİoĠ":10594,"ĠyÃ²ngĠyÃºĠ":10595,"ĠĠĠqÃŃĠ":10596,"fÄģngĠmiÃłnĠdeĠ":10597,"gÃ¨ĠzhÇĴngĠ":10598,"ĠshÃ¬ĠmÃŃnĠ":10599,"ĠhÃ©ĠdÃłĠ":10600,"ĠlÃ¡i":10601,"lÇĲngĠdÃ¬Ġ":10602,"ĠzÃłiĠcÃ¬":10603,"fÃłnĠwÃ©iĠnÃ¨iĠ":10604,"ĠĠĠjÃ¹ĠqÃŃngĠ":10605,"ĠĠĠqiÃ¡nĠ":10606,"zhÃ¨ĠlÇĲĠ":10607,"xiÄģngĠshÃ¬ĠdÃ¬Ġ":10608,"ĠyÃºĠrÃ©nĠ":10609,"zhÃ¨ngĠdÇİngĠ":10610,"ĠrÃ¬ĠbÃłoĠ":10611,"xÃŃngĠchÃ©ngĠ":10612,"fÄģĠxÃŃngĠdeĠ":10613,"ĠjÄ«ĠhÅ«Ġ":10614,"ĠlÃ¬ngĠyÄ«Ġ":10615,"ĠshuÅįĠ":10616,"ĠĠĠB":10617,"ĠshÃ¬ĠgÃ¹Ġ":10618,"zhÃŃĠjiÄĵ":10619,"fÄĵngĠwÃ¨iĠ":10620,"pÃłiĠdeĠ":10621,"1982ĠniÃ¡nĠ":10622,"ĠzhÃ¬ĠshÇİoĠ":10623,"biÇİoĠdÃ¡Ġ":10624,"ĠĠĠC":10625,"yuÃłnĠyÃ¬Ġ":10626,"ĠtÄģĠhÃ©Ġ":10627,"jÃ¹ĠlÃ¨ĠbÃ¹Ġ":10628,"diÃłnĠzi":10629,"ĠĠĠchÅ«Ġ":10630,"wÇİngĠluÃ²":10631,"dÃºĠlÃ¬ĠdeĠ":10632,"ĠfÄģnĠ":10633,"ĠĠĠxiÃłnĠ":10634,"ĠzhÄ«ĠfÃ¹Ġ":10635,"jiÇĶĠlÃ³ngĠ":10636,"dÄģngĠxuÇİnĠ":10637,"hÃ¨ĠÄĽrĠ":10638,"ĠyÇĴuĠxiÃłoĠ":10639,"zÃ¬ĠrÃ¡n":10640,"xÃ¬ĠbÄģo":10641,"bÃºĠ":10642,"wÄĵnĠdÃ¹Ġ":10643,"1945ĠniÃ¡nĠ":10644,"1983ĠniÃ¡nĠ":10645,"jÃ¬ĠchÃ©ngĠ":10646,"diÃłnĠnÇİo":10647,"yÇĶnĠxÇĶ":10648,"ĠĠĠdeĠĠĠ":10649,"ĠyÄ«ĠxiÇİoĠshÃŃĠ":10650,"jÇĲngĠchÃ¡":10651,"ĠdÃłĠxÄ«ĠyÃ¡ngĠ":10652,"guÃ²ĠqÃ¹":10653,"pÃ¡iĠhÃ¡ngĠ":10654,"huÇĴĠshÄģnĠ":10655,"ÄģnĠdÃ©Ġ":10656,"19ĠshÃ¬ĠjÃ¬Ġ":10657,"jiÃ¹ĠdÃº":10658,"ĠdÅįngĠlÃŃnĠ":10659,"ĠĠĠmÃŃngĠ":10660,"zhÄ«ĠchÃŃ":10661,"fÇİngĠwÃ¨n":10662,"ĠjiÃ¹ĠshÃ¬Ġ":10663,"ĠzuÃ²ĠjiÄģĠ":10664,"dÇİngĠyuÃ¡nĠ":10665,"miÃ¡nĠ":10666,"ĠdÃłĠfÃºĠ":10667,"yÇĲnĠqÃŃngĠ":10668,"qÅ«ĠyÃ¬ĠhuÃ¬Ġ":10669,"ĠdÃ©ĠhuÃ¡Ġ":10670,"Ġ2012ĠniÃ¡nĠ":10671,"huÃłnĠchÃ©ngĠ":10672,"biÇİoĠyÇİn":10673,"dÅįuĠzÃłiĠ":10674,"ĠdÃ¬ĠyÃŃĠgÃ¨Ġ":10675,"xiÃłnĠzhÃ¬Ġ":10676,"ĠyÇĶĠmÃ¡o":10677,"ĠĠĠtoĠĠĠ":10678,"ĠchÅ«ĠzhÃłnĠ":10679,"bÇĲĠyÃł":10680,"ĠĠĠdÃ¬ĠfÄģngĠ":10681,"xÇĲĠhuÄģn":10682,"xiÄģngĠdÄģng":10683,"ĠrÃ©ng":10684,"ĠbÃ¬ngĠbÃ¨iĠ":10685,"fÄģngĠyÃ¡nĠ":10686,"qÅ«ĠhÃ©Ġ":10687,"ĠyÄ«ĠtÃ³ngĠ":10688,"xÃºnĠyÃ¡ng":10689,"ĠzhÅįngĠhuÃ¡ĠrÃ©nĠmÃŃnĠgÃ²ngĠhÃ©ĠguÃ³ĠzhÃ¨ngĠzhÃ¬ĠrÃ©nĠwÃ¹Ġ":10690,"sÄģnĠshÃ¬Ġ":10691,"jÄ«ngĠyÃłnĠ":10692,"ĠjÃ¬ĠsuÃłnĠ":10693,"pÇĶĠbiÃłnĠ":10694,"ĠshÄĵngĠyÃºĠ":10695,"ĠzhÅįngĠbÃ¨iĠ":10696,"guÄģnĠdiÇİnĠ":10697,"jiÃłngĠdÄ«Ġ":10698,"kÄĵĠdeĠqÃŃĠzhÅįngĠyÄ«ĠzhÇĴngĠ":10699,"ĠgÅįngĠyÃ¬Ġ":10700,"hÃ¡nĠyÇĴuĠ":10701,"ĠnÃ©ngĠ":10702,"liÇİngĠmÃŃngĠ":10703,"diÇİnĠlÇĲĠ":10704,"ĠshÃ¬ĠgÅįngĠ":10705,"zhÃ²ngĠduÅįĠ":10706,"dÃłĠzhÃ¬Ġ":10707,"ĠbÃ¬ngĠdÃº":10708,"ĠqÃŃĠzhÅįngĠyÄ«Ġ":10709,"ĠĠĠ2011":10710,"yÃłĠjÅ«nĠ":10711,"shÃ¨ĠqÅ«Ġ":10712,"kÇĴuĠwÃ¨iĠ":10713,"chÃ©ngĠyuÃ¡nĠ":10714,"ĠxiÃłnĠshÃ¬Ġ":10715,"zhÄ«ĠqiÃ¡nĠ":10716,"mÃ¬ĠshÅ«ĠzhÇİngĠ":10717,"ĠdÃ¬ĠsÃ¬":10718,"ĠliÃ¹":10719,"zuÃ²ĠshÃ¬Ġ":10720,"tiÃ¡oĠlÃ¬Ġ":10721,"14Ġ":10722,"nÃ¨iĠgÃ©Ġ":10723,"ĠwÃ¡nĠ":10724,"ĠpÃŃngĠjÅ«nĠ":10725,"shÃ¹ĠyÇĶĠ":10726,"wÃºĠzhÃ¨ngĠzhuÃłngĠ":10727,"ĠxiÃłnĠrÃ¨nĠ":10728,"tÅ«ĠpÃ²Ġ":10729,"xiÄĽĠdÃłoĠ":10730,"dÃłngĠtiÄģnĠ":10731,"yÃŃĠdÃ¹Ġ":10732,"ĠzÇĶĠfÃ¹Ġ":10733,"ĠxÃŃngĠwÃ¨iĠ":10734,"ĠbÇĲĠsÃłiĠ":10735,"ĠgÅįngĠmÃŃnĠ":10736,"xÄ«ngĠdÄĽngĠwÃ¨iĠ":10737,"PĠ":10738,"ĠtÃ³ngĠyÃ¬Ġ":10739,"ĠĠĠjÃŃĠ":10740,"ĠzuÃ¬ĠchÅ«Ġ":10741,"shÄģnĠshÃ¬Ġ":10742,"ĠniÃ¡nĠhÃ©Ġ":10743,"hÃ³ngĠsÃ¨Ġ":10744,"kÄģiĠshÇĲĠzÃłiĠ":10745,"ĠxÃ¬nĠ":10746,"tuÃ¡nĠdeĠ":10747,"gÄĽiĠleĠ":10748,"ĠjÄ«ĠjÄ«nĠ":10749,"sÇĲĠwÃ¡ng":10750,"zhÄĽngĠtÇĲĠ":10751,"Ġ500":10752,"lÇĶĠsÄ«Ġ":10753,"shÄĽĠ":10754,"ĠĠĠH":10755,"juÃ©ĠduÃ¬Ġ":10756,"ĠquÃ¡nĠlÃ¬Ġ":10757,"dÃłiĠbiÇİoĠdÃłĠhuÃ¬Ġ":10758,"chÃŃĠyÇĴuĠ":10759,"yÄ«ngĠwÃ©nĠ":10760,"ĠsÅ«n":10761,"ĠĠĠ2010":10762,"zhÃ¨ngĠbÃ¹Ġ":10763,"gÃłiĠniÃłn":10764,"FĠ":10765,"ĠdÃ¡":10766,"ĠgÅįngĠjÃ¹Ġ":10767,"fÄģngĠfÇİ":10768,"shÃ¨ĠshÄ«Ġ":10769,"yÃ¡ngĠshÃ¬Ġ":10770,"ĠshÃ¬ĠbÄ«ngĠ":10771,"ĠzhÃ¨ĠzhÇĴng":10772,"xiÃłĠxiÃ¡ĠdeĠyÃŃĠgÃ¨Ġ":10773,"ĠĠĠÄģĠ":10774,"bÄĽnĠrÃ©nĠ":10775,"ĠĠĠ2Ġ":10776,"Ġ0Ġ":10777,"nÃŃĠÄĽrĠ":10778,"ĠdeĠchÃ©ngĠjÃ¬Ġ":10779,"oĠ":10780,"ĠĠĠ1Ġ":10781,"ĠjÃŃĠrÃ©nĠ":10782,"lÃ¡iĠyuÃ¨Ġ":10783,"bÇİoĠshÇĴuĠ":10784,"yÃŃĠdÃ¬ngĠ":10785,"tÃ³uĠxiÃ¡ngĠ":10786,"guÃ¬ĠzÃºĠ":10787,"yĠ":10788,"yuÃ¨ĠzhÅįngĠ":10789,"zhÃŃĠdÇİoĠ":10790,"zhÃ¨nĠqÅ«ĠdeĠ":10791,"jiÃ¨ĠshÃłoĠ":10792,"zÇİoĠqÄ«":10793,"bÃ³ĠshÃ¬ĠxuÃ©ĠwÃ¨iĠ":10794,"IĠ":10795,"ĠĠĠqÃŃĠtÄģĠ":10796,"shÄģnĠjÄ«Ġ":10797,"huÃ¡ngĠhÃ²uĠ":10798,"guÃłĠ":10799,"qÇĲĠdÃ²ngĠ":10800,"ĠmÄĽiĠgÃ¨Ġ":10801,"tÄģngĠ":10802,"ĠwÃ©iĠÄĽr":10803,"yÄģoĠqÇĲng":10804,"gÇĶĠdÃłiĠ":10805,"ĠmÃŃngĠdÄģnĠ":10806,"ĠdÃ©ĠyÇĶĠ":10807,"yÃ¬ĠniÃ¡nĠ":10808,"ĠlÃ¬ĠfÇİ":10809,"ĠyÄ«ĠzuÃ²Ġ":10810,"ĠyÇĲĠjÃŃ":10811,"ĠÃ©rĠgÄģiĠ":10812,"zhÇĴngĠzÃºĠ":10813,"hÄĵiĠsÃ¨Ġ":10814,"1ĠlÃ¬Ġ":10815,"zhÄĽnĠ":10816,"ĠrÃ©nĠmÃŃnĠzhÃ¨ngĠfÇĶĠ":10817,"ÄĵnĠshÄĽngĠ":10818,"tÃ²uĠguÃ²":10819,"kuÃ¬Ġ":10820,"ĠxiÇİngĠniÃ¡nĠ":10821,"wÃºĠzhÃ¨ngĠzhuÃłngĠgÇİnĠrÇİnĠ":10822,"Ġ30Ġ":10823,"suÃŃĠzhÃ¹Ġ":10824,"mÃŃngĠrÃ©nĠ":10825,"duÅįĠrÃ©nĠ":10826,"huÃ³ĠyuÃ¨Ġ":10827,"mÃ¹ĠqiÃ¡n":10828,"chÃ¡ngĠwÃ¹Ġ":10829,"chÃ¡ngĠwÄĽiĠ":10830,"quÃ¨ĠzhÄĽnĠbÃ¬ngĠlÃ¬Ġ":10831,"ĠyÃ²ng":10832,"ĠÃ¨rĠshÃŃĠ":10833,"sÄģĠ":10834,"ĠrÃ¬ĠyÃºĠ":10835,"gÇİiĠmÃŃngĠwÃ¨iĠ":10836,"chÅ«ĠshÄĵnĠ":10837,"diÃłnĠhuÃłĠ":10838,"Ġ2022":10839,"ĠbÃ¹ĠsÄ«Ġ":10840,"ĠjÄ«ĠsÄ«Ġ":10841,"tÃłiĠziĠ":10842,"Ġ7Ġ":10843,"ĠbÇĲĠrÃºĠ":10844,"ĠĠĠgÄģi":10845,"mÃŃngĠzhÃ¬Ġ":10846,"kÃ¨ĠchÃ©ngĠ":10847,"kÃ¹nĠnÃ¡nĠ":10848,"ĠbÃ¹ĠlÃ¬Ġ":10849,"dÄģnĠdeĠ":10850,"lÃ³ngĠdeĠ":10851,"alĠĠĠ":10852,"tÃºnĠ":10853,"zuÃ¬ĠduÅįĠ":10854,"ĠmÄĽiĠyuÃ¡nĠ":10855,"quÄĵĠfÃ¡":10856,"tÃŃĠjÃŃĠ":10857,"ĠwÃ¨iĠyÃºĠzhÅįngĠguÃ³Ġ":10858,"yÇĲĠjÄ«ngĠ":10859,"sÄģiĠÄĽrĠwÃ©iĠ":10860,"huÃ¬ĠzhÅįngĠ":10861,"shÅįuĠjÃŃĠ":10862,"gÃ¨ngĠwÃ©iĠ":10863,"xuÃ©ĠhuÃ¬Ġ":10864,"ĠbÃ¬ngĠfÄĵiĠ":10865,"hÇİiĠxiÃ¡Ġ":10866,"rÃ¹ĠxuÇİnĠ":10867,"gÃ²uĠdeĠ":10868,"gÅįngĠchÃ©ngĠ":10869,"ĠxÄ«ĠjiÄĵĠ":10870,"gÄĵĠlÃºnĠ":10871,"pÄģiĠ":10872,"ĠjÄ«ĠchÇİng":10873,"jÃ¹ĠdÃłĠ":10874,"ĠchÃ©ngĠrÃ©nĠ":10875,"fÃ¹ĠzÃ©":10876,"ÄģnĠnÃł":10877,"zÃºĠqiÃºĠyÃ¹nĠdÃ²ngĠyuÃ¡nĠ":10878,"ĠyÄģoĠqiÃºĠ":10879,"xiÄĽĠdeĠ":10880,"zhuÄ«ĠsÃ¹":10881,"Ġ2014ĠniÃ¡nĠ":10882,"ĠĠĠ2":10883,"ĠtÃ³ngĠshÃŃĠgÄģiĠdÃ¬Ġ":10884,"zuÃ²ĠchÅ«Ġ":10885,"bÄĵiĠsÄ«Ġ":10886,"ĠyÄĽĠzÃłiĠ":10887,"tÃ³ngĠniÃ¡nĠ":10888,"shÄĽngĠdeĠ":10889,"lÃ¬ngĠrÃ©nĠ":10890,"huÃ¬ĠzhÃ¬Ġ":10891,"ĠdÃ©ĠzhÇĶĠ":10892,"tÇİoĠlÃ¹n":10893,"ĠyuÄĵ":10894,"ĠjÃŃĠdÃ¬Ġ":10895,"fÃłnĠzuÃ¬Ġ":10896,"gÄģoĠsÃ¹ĠgÅįngĠlÃ¹Ġ":10897,"nÃ¨iĠlÃ¹ĠshÄĽngĠfÃ¨nĠ":10898,"ÄģnĠhuÄ«Ġ":10899,"kÄĵĠxuÃ©ĠjiÄģĠ":10900,"tÃºĠxÃŃngĠ":10901,"ĠguÃ³ĠnÃ¨iĠ":10902,"pÄ«ĠzhÇĶn":10903,"ĠbÃ¬ngĠdÃºĠ":10904,"ĠpÃ²Ġ":10905,"dÄ«ĠyÃºĠ":10906,"ĠdiÃłnĠshÃ¬Ġ":10907,"jiÄģngĠzÃłiĠ":10908,"zhÃºĠbÃ¹Ġ":10909,"jiÇİnĠshÇİo":10910,"ĠdeĠdÃ¬ĠÃ¨rĠ":10911,"ĠÅįuĠyuÃ¡nĠ":10912,"shÃ²uĠdeĠ":10913,"shÄģnĠdeĠ":10914,"ĠshÃ¬ĠyÄ«nĠwÃ¨iĠ":10915,"ĠkÃ¨ĠxÄ«Ġ":10916,"liÃ¡nĠhÃ©ĠhuÃ¬Ġ":10917,"ĠchÃ¡":10918,"chÄģoĠyuÃ¨Ġ":10919,"jiÃ©ĠguÇĴ":10920,"tÃ¡iĠnÃ¡n":10921,"qiÃ¡ngĠliÃ¨Ġ":10922,"xiÃłĠlÃ¬ngĠshÃŃĠjiÄģnĠ":10923,"ĠwÃ¡nĠjiÄģĠ":10924,"hÇİiĠpÃŃngĠmiÃłnĠ":10925,"bÃºĠdÃłoĠ":10926,"ĠshÃŃĠqÄ«ĠdeĠ":10927,"ĠyuÃ¡nĠxÃŃngĠ":10928,"yÃŃĠdÃ¬ng":10929,"ĠjiÇİ":10930,"yÄĽĠzÃłiĠ":10931,"ĠjÄ«ĠhuÃ¬Ġ":10932,"ĠxuÃ©ĠyuÃłn":10933,"huÄ«ĠfÃ¹":10934,"guÃ²ĠdeĠ":10935,"yÃłĠmÄĽiĠ":10936,"cÃ¬ĠdeĠ":10937,"biÄģnĠjiÃ¨Ġ":10938,"dÇĴngĠshÃ¬ĠzhÇİngĠ":10939,"ĠmÃ©i":10940,"ĠjiÃłoĠyÃ¹Ġ":10941,"Ġ20":10942,"tÃŃĠyÃ¬Ġ":10943,"shÅ«ĠzhÅįngĠ":10944,"xÅ«nĠzhÄģngĠ":10945,"jiÃłĠgÃ©Ġ":10946,"zhÇĶĠjiÃło":10947,"shÄ«ĠbÃłiĠ":10948,"ĠhÃłoĠdeĠ":10949,"pÃłiĠqiÇİn":10950,"zhÇĶĠyÃłoĠdeĠ":10951,"nÃŃĠyÃłĠzhÅįuĠ":10952,"ĠhÃ²uĠbÃ¨iĠ":10953,"ĠxuÃ©ĠjiÄģĠ":10954,"liÃºĠxiÃłĠ":10955,"shuÄģngĠfÄģngĠ":10956,"ĠĠĠbÃ¨iĠjÇĲngĠ":10957,"Ã©rĠtÃ³ngĠ":10958,"ĠyÄ«ĠlÃ¬Ġ":10959,"guÄģnĠchÃ¡Ġ":10960,"jiÄģĠyÃ¬Ġ":10961,"ĠbÃ¹ĠduÃ¬":10962,"ĠyÇĲĠwÃ©iĠ":10963,"ĠshÇĴu":10964,"ĠzÃłiĠshÃŃĠ":10965,"ĠbÇİi":10966,"liÃ¡nĠxÃ¹":10967,"tÃŃĠgÅįngĠleĠ":10968,"xiÃłnĠdeĠ":10969,"qÄ«nĠzÃ¬Ġ":10970,"ĠÃ©rĠziĠ":10971,"bÄĽiĠjÄ«ngĠshÃ¬Ġ":10972,"Ġ1950":10973,"ĠyÇĴuĠsuÇĴĠ":10974,"zuÃ¬ĠgÄģoĠdeĠ":10975,"huÃ¬ĠyÃ¬ĠyuÃ¡nĠ":10976,"ĠĠĠW":10977,"sÄģnĠjiÇİo":10978,"ĠĠĠdÃ¬ĠfÄģngĠzÄ«ĠliÃłoĠ":10979,"rÃ¨nĠwÃ¨iĠ":10980,"mÇİĠÄĽrĠ":10981,"lÃ¡nĠdeĠ":10982,"nÃ¡ĠxiÃłĠ":10983,"pÃŃngĠtÃ¡iĠ":10984,"fÄĵiĠchÃ¡ng":10985,"ĠĠĠjiÇİnĠjiÃ¨Ġ":10986,"duÅįĠwÃ¨iĠ":10987,"zÇĶĠfÃ¹Ġ":10988,"ĠhÃ©ĠyuÄĵĠ":10989,"1978ĠniÃ¡nĠ":10990,"leĠzÃłiĠ":10991,"ĠlÃ¬ĠliÃłngĠ":10992,"ĠchÅ«ĠkÇĴuĠ":10993,"ĠtÄģĠcÃ©ngĠdÃłiĠbiÇİoĠ":10994,"ĠdÃ¬ĠlÇĲĠ":10995,"nÃ¡nĠbÄĽiĠ":10996,"ĠhÃ¹":10997,"nÃ©ngĠyuÃ¡nĠ":10998,"ĠdÃ¬ĠqÄ«Ġ":10999,"ĠxiÃłnĠfÇİĠ":11000,"gÇİiĠbiÃłn":11001,"bÃ¨iĠdeĠ":11002,"ĠhÃ²uĠzhÄĽĠ":11003,"tÃ¡iĠzhÅįngĠ":11004,"dÃŃĠshÃ¬Ġ":11005,"ĠzhÃ¨ngĠmÃŃngĠ":11006,"bÇİnĠbÄĽn":11007,"quÄĵĠfÃ¡Ġ":11008,"ĠshÃŃĠjÃ¬ĠshÃłngĠ":11009,"gĠ":11010,"ĠkuÄģnĠ":11011,"liÇİoĠ":11012,"ĠchÃ©ngĠzhÃ¨nĠ":11013,"Ġ2015ĠniÃ¡nĠ":11014,"xuÇİnĠzhÅįngĠ":11015,"dÃŃĠrÃ©nĠ":11016,"1979ĠniÃ¡nĠ":11017,"ĠlÃ¬ĠyÃ¬Ġ":11018,"ĠsÃ¹Ġ":11019,"ĠlÇĶĠ":11020,"lÇĲĠhÃ©Ġ":11021,"zÃ¬ĠdeĠ":11022,"pÃłiĠchÅ«Ġ":11023,"ĠniÃ¡nĠlÃ¡iĠ":11024,"ĠzhÅįngĠguÃ³ĠrÃ©nĠmÃŃnĠjiÄĽĠfÃłngĠjÅ«nĠ":11025,"duÅįĠzhÇĴngĠ":11026,"tÃ¡nĠpÃłnĠ":11027,"liÃ¡oĠnÃŃngĠ":11028,"ĠzÄ«Ġ":11029,"ĠsÄ«ĠtÇİĠ":11030,"tÃŃĠchÅ«ĠdeĠ":11031,"suÃŃĠjÃŃĠ":11032,"wÃ¡nĠzhÄĽng":11033,"tuÃ¬ĠxiÅ«Ġ":11034,"ĠdÃłĠxuÃ©ĠdeĠ":11035,"hÇİiĠbÃ¡ĠwÃ¨iĠ":11036,"pÃŃngĠwÃ¨iĠ":11037,"gÃłnĠbÃ¹Ġ":11038,"lÄĽiĠjÃ¬Ġ":11039,"ĠbÃ¹ĠshÇİoĠ":11040,"ĠshÃŃĠxÃŃngĠ":11041,"yÄ«ngĠgÃ©ĠlÃ¡n":11042,"LĠ":11043,"dÄģngĠzhÅįngĠ":11044,"xÃ¹ĠlÃ¬ĠyÃłĠ":11045,"shÄģngĠrÃ©nĠ":11046,"biÄģoĠbÄĽnĠ":11047,"fÄģĠshÄĵngĠzÃłiĠ":11048,"suÇĴĠcÇİiĠyÃ²ng":11049,"zhÇĲĠdÇİoĠ":11050,"ĠjÃ¹ĠjuÃ©Ġ":11051,"miÇİnĠdiÄģn":11052,"huÃłĠzhÅįngĠ":11053,"zÃłnĠshÃŃĠ":11054,"1972ĠniÃ¡nĠ":11055,"ĠfÃ¹ĠjÃ¬n":11056,"mÄĽiĠzhÅįu":11057,"ĠzhÅįngĠgÃ²ngĠzhÅįngĠyÄģngĠ":11058,"tiÃłoĠ":11059,"ĠyÃ¬ĠqÃŃngĠ":11060,"nÃ³ngĠmÃŃnĠ":11061,"ĠmÃŃngĠzhÃ¬Ġ":11062,"cÃ¬ĠyÃºĠ":11063,"juÃ©ĠyÃ¬Ġ":11064,"ĠĠĠyÄ«nĠ":11065,"yÃŃĠdÃłiĠ":11066,"ĠdÃ©ĠmÃŃngĠ":11067,"zhuÄģngĠjiÇİĠ":11068,"ĠchÃº":11069,"shuÇĲĠlÃ¬Ġ":11070,"rÃ³ngĠhÃ©Ġ":11071,"ĠzhÅįngĠguÃ³ĠdeĠ":11072,"3ĠgÃ¨Ġ":11073,"ĠbÇİ":11074,"fÄģĠmÃŃngĠ":11075,"ĠqÃŃĠwÃ¨iĠ":11076,"zhÇĲĠnÃ©ngĠ":11077,"xiÅ«ĠgÇİiĠ":11078,"ĠĠĠinĠĠĠ":11079,"ĠgÅįngĠzhÃ²ngĠ":11080,"ĠĠĠ1":11081,"zhÇĶĠyÇİnĠ":11082,"ÄģĠlÄģĠbÃ³":11083,"xiÄģngĠsÃ¬Ġ":11084,"guÄģnĠchÃ¡":11085,"jiÄĵĠchÃ¹Ġ":11086,"ĠbÄĽiĠjÄ«ng":11087,"kÄģiĠshÃ¨Ġ":11088,"anĠĠĠ":11089,"xiÅ«ĠjiÃłnĠ":11090,"zhÇĴngĠziĠ":11091,"jÃ¬ngĠjÃ¬Ġ":11092,"ĠyÇĶĠqÃŃĠtÄģĠ":11093,"jiÄĽĠsÃłnĠ":11094,"ĠdeĠshÃ¬ĠjiÃ¨Ġ":11095,"Ġ2016ĠniÃ¡nĠ":11096,"wÇĶĠzhuÄģng":11097,"diÃłnĠjÄ«Ġ":11098,"chÄģiĠchÃºĠ":11099,"cnĠ":11100,"kÄģiĠtÅįngĠ":11101,"bÃłoĠzhÃłĠ":11102,"jÇĶĠbÃłnĠdeĠ":11103,"fÄģĠqÇĲĠ":11104,"shÄĵnĠdÃ¹Ġ":11105,"ÄģnĠpÃ¡i":11106,"ĠtÃ¡ng":11107,"qÅ«ĠshÃ¬Ġ":11108,"wÃ©iĠsÄ«Ġ":11109,"tuÃ¡nĠtÇĲ":11110,"1958ĠniÃ¡nĠ":11111,"jÄ«ĠgÃ²uĠ":11112,"fÃ¹ĠzhÇĶĠrÃ¨nĠ":11113,"fÄģĠshÃ²uĠ":11114,"zÇĶĠzhÄ«ĠdeĠ":11115,"ĠtÃŃngĠ":11116,"ĠĠĠqÃŃ":11117,"ĠĠĠduÃ¬Ġ":11118,"ĠwÃ¨iĠdÃłĠ":11119,"fÄĵngĠxiÇİnĠ":11120,"diÃłoĠkuÃłi":11121,"ĠzhÄĵngĠ":11122,"chÃ©ngĠhÃ©Ġ":11123,"zhuÇİnĠxiÃłngĠ":11124,"nÃ©ngĠliÃłngĠ":11125,"zhÄģngĠzhuÄģnĠjÃŃĠ":11126,"ĠdÄģn":11127,"ĠcnĠ":11128,"zÃłoĠleĠ":11129,"ĠwÃ¨iĠUTCĠ":11130,"ĠbÃ¹ĠjÃŃĠ":11131,"ĠzhÅįngĠshÄģnĠ":11132,"shuÃłiĠlÇĲng":11133,"ĠgÄĵ":11134,"jiÃ©ĠdeĠ":11135,"biÄģnĠjÃ¹Ġ":11136,"yÄ«ngĠgÄģiĠ":11137,"bÃłnĠshÃ¬ĠchÃ¹Ġ":11138,"ĠbÃłiĠ":11139,"qiÃºĠjÃ¬Ġ":11140,"nÇĶĠ":11141,"ĠxÄ«ĠbÄģnĠyÃ¡Ġ":11142,"luÃ³ĠlÇĲĠ":11143,"gÃ©ĠlÄģĠ":11144,"jiÃ¹ĠdÃºĠ":11145,"diÃłoĠkuÃłiĠyÄ«ĠxiÇİoĠshÃŃĠ":11146,"zÃ©ĠzÃłiĠ":11147,"ĠdeĠyÇĲngĠxiÇİngĠ":11148,"yÄ«ngĠxiÃ³ngĠ":11149,"shÄģngĠyÃ¨":11150,"shÃ©nĠmeĠ":11151,"tiÃ¡oĠzhÄĽng":11152,"qiÃ¡ngĠdiÃłoĠ":11153,"ĠfÄģĠxÃŃngĠ":11154,"ĠjÃŃĠUTCĠ":11155,"kÄĵĠxuÃ©ĠyuÃłnĠ":11156,"shÃ¨ĠyÇĴuĠxiÃłĠlÃ¬ngĠshÃŃĠjiÄģnĠ":11157,"ĠdeĠshÃŃĠqÅ«ĠwÃ¨iĠUTCĠ":11158,"ĠÃ©rĠgÄģiĠdÃ¬ĠsuÇĴĠcÇİiĠyÃ²ng":11159,"ĠtÃ³ngĠshÃŃĠgÄģiĠdÃ¬ĠshÃ¨ĠyÇĴuĠxiÃłĠlÃ¬ngĠshÃŃĠjiÄģnĠ":11160,"ĠÃ©rĠgÄģiĠdÃ¬ĠsuÇĴĠcÇİiĠyÃ²ngĠdeĠshÃŃĠqÅ«ĠwÃ¨iĠUTCĠ":11161,"2025ĠniÃ¡nĠ":11162,"xiÄģoĠfÃ¨iĠ":11163,"ĠtÃ³ngĠyÃłng":11164,"xÃ¬nĠyÇİngĠ":11165,"tÄģĠmenĠdeĠ":11166,"ĠdÃłĠjiÇİngĠ":11167,"jiÃłoĠtÃ¡ng":11168,"ĠlÃ¬ngĠyÇĴuĠ":11169,"ĠyÄ«ĠsÄ«ĠlÃ¡nĠ":11170,"yÃ³uĠjÄ«Ġ":11171,"yuÃ¡nĠzhÃ¹Ġ":11172,"tÃłiĠdÃ¹Ġ":11173,"ĠgÄģiĠcÅ«nĠ":11174,"ĠhuÃłnĠ":11175,"quÃ¨ĠdeĠ":11176,"chuÃ¡nĠbÅįĠ":11177,"zhÄ«ĠjiÄģnĠdeĠ":11178,"ĠĠĠjiÄģoĠtÅįngĠ":11179,"fÄģĠshÃ¨":11180,"suÇĴĠzÃłiĠdÃ¬Ġ":11181,"ĠshÃŃĠwÃ¹Ġ":11182,"bÇİoĠliÃº":11183,"ĠmÇİĠlÃ¡i":11184,"ĠlÃ¬ĠshÇĲĠshÃłngĠ":11185,"gÄģoĠyÃºĠhÇİiĠpÃŃngĠmiÃłnĠ":11186,"ĠqÃŃĠxiÃłĠ":11187,"dÃ¬ngĠjÅ«Ġ":11188,"ĠwÃ¨iĠfÃºĠqÃŃĠyÃºĠgÄģngĠ":11189,"ĠĠĠqÄ«ngĠ":11190,"xÃ¬ngĠwÃ¨iĠ":11191,"zhÃºĠjiÃłn":11192,"1976ĠniÃ¡nĠ":11193,"ĠbÃ¹ĠnÃ©ng":11194,"ĠgÅįngĠjuÃ©Ġ":11195,"ĠÄĽrĠduÅįĠ":11196,"ĠliÃ¡nĠhÃ©Ġ":11197,"wÃ¹ĠhÃ©Ġ":11198,"pÃ¨iĠzhÃ¬Ġ":11199,"huÃ¬ĠyÃºĠ":11200,"chÃ¹ĠdeĠhÇİiĠbÃ¡ĠwÃ¨iĠ":11201,"chÃ¹ĠdeĠhÇİiĠbÃ¡ĠwÃ¨iĠgÄģoĠyÃºĠhÇİiĠpÃŃngĠmiÃłnĠ":11202,"ĠyÄ«nĠsÃ¹Ġ":11203,"tÇĲĠzhÃ¬Ġ":11204,"kÃ¹nĠ":11205,"jÃ¬ngĠxuÇİnĠ":11206,"Ġ30":11207,"wÃ¹ĠshÃ¬Ġ":11208,"ĠyÃºĠlÃ¨":11209,"chÇİngĠsuÇĴĠ":11210,"hÃ²uĠwÃ¨iĠ":11211,"ĠzhÄ«ĠyÃ¬Ġ":11212,"ĠdÃłi":11213,"ĠnÇĲĠ":11214,"ĠhÃ©ĠpÃłnĠ":11215,"ĠbÃ¹ĠjÇĲnĠ":11216,"ĠyÇĲĠxÄ«Ġ":11217,"fÄģĠxiÃłnĠdeĠ":11218,"zhÃ²ngĠshÃ¬Ġ":11219,"kuÃ¡ngĠ":11220,"ĠqÃŃĠshÃŃĠ":11221,"ĠsuÃŃĠzhÃ¹Ġ":11222,"ĠxÅ«Ġ":11223,"nÃ¡nĠjÄ«ng":11224,"zhÇİngĠdÃ¡Ġ":11225,"yÃ¹nĠshÅ«":11226,"Ġ2008":11227,"ĠxiÃ¨Ġ":11228,"Ġ2017ĠniÃ¡nĠ":11229,"ĠĠĠmÇİĠ":11230,"shÃ¹ĠshÃŃĠ":11231,"nÃ¨iĠdÃ¬Ġ":11232,"ĠhÃº":11233,"ĠzhÃ¨ngĠzhÃ¬Ġ":11234,"shÃŃĠqÅ«Ġ":11235,"gÄģoĠxiÃ³ng":11236,"3ĠniÃ¡nĠ":11237,"jiÃłnĠchÃ©ngĠ":11238,"lÃ¹ĠzhÃ¬Ġ":11239,"gÄĵngĠxÄ«nĠ":11240,"ĠyÄ«ĠjiÄģĠ":11241,"ĠxÄ«ĠlÃ¡nĠ":11242,"yÃ¹nĠyÃ²ngĠ":11243,"ĠzÃ¬ĠrÃ¡nĠ":11244,"zÄ«ĠliÃło":11245,"chÃ³ngĠqÃ¬ng":11246,"bÃ¬ĠyÃ¨ĠhÃ²uĠ":11247,"ĠyÃŃ":11248,"ĠĠĠrÃ¡n":11249,"Ã¨rĠjÃŃĠ":11250,"qiÃłĠ":11251,"ĠlÃ¬ĠrÃ¨nĠ":11252,"shÄģnĠfÄĵngĠ":11253,"ĠwÃ¨iĠyÃºĠgÄģiĠ":11254,"ĠxiÇİoĠshÃŃĠ":11255,"wÃ©iĠÄĽrĠ":11256,"zhÃŃĠzhÃ¨ngĠ":11257,"diÃłnĠqÃ¬Ġ":11258,"zhÄĽĠshÃ¬Ġ":11259,"wÃ¡ngĠshÃ¬Ġ":11260,"ĠzuÃ²ĠchÅ«Ġ":11261,"ĠkÇĴuĠ":11262,"biÄģnĠhÃłoĠ":11263,"xiÃ¡ĠqÅ«Ġ":11264,"ĠĠĠbÄĽn":11265,"bÄģoĠwÃ©iĠ":11266,"bÃłngĠqiÃºĠ":11267,"xuÃ©ĠyuÃ¡nĠ":11268,"cuÃ²ĠwÃ¹Ġ":11269,"ĠdÃ¬ĠqiÃº":11270,"jÄ«nĠrÃ³ngĠ":11271,"ĠyÃ¹ĠshÇĲĠ":11272,"xuÄģnĠchuÃ¡n":11273,"dÅįngĠfÄģngĠ":11274,"ĠnuÃ²Ġ":11275,"hÃ²uĠyÃ¬Ġ":11276,"bÄĽiĠshÃ¬Ġ":11277,"jÄ«ngĠchÃ¡ng":11278,"xiÃłoĠqÅ«Ġ":11279,"ĠrÃ¡nĠÃ©r":11280,"ĠshÄģ":11281,"jiÃ¹ĠhuÃ¬Ġ":11282,"ĠjiÃ©ĠkÃ¨Ġ":11283,"ĠfÄģĠxiÃłnĠ":11284,"ĠsÄ«ĠkÄĵĠ":11285,"ĠduÃ¬ĠshÇĴuĠ":11286,"ĠxÃŃngĠzhÃ¨ngĠqÅ«Ġ":11287,"zhÃ¨nĠqÅ«ĠdeĠmiÃłnĠjÄ«ĠwÃ¨iĠ":11288,"ĠqÄ«nĠ":11289,"ĠĠĠR":11290,"ĠzhÅįuĠcÃ¬ĠshÇĲĠ":11291,"ĠshÄĵngĠyÃ¡Ġ":11292,"jiÄģĠyÇĲĠ":11293,"cÃ©ngĠwÃ¨iĠ":11294,"jÃºĠdeĠ":11295,"fÃºĠdeĠ":11296,"mÇİĠkÃ¨Ġ":11297,"ĠtÄģĠyÇĲĠ":11298,"ĠyuÃ¡nĠzÃ¬Ġ":11299,"ĠlÇĲĠxÄ«Ġ":11300,"zÃłoĠchÃ©ngĠdeĠ":11301,"Ġ8Ġ":11302,"ĠfÃºĠwÃ¹Ġ":11303,"Ġ2023":11304,"17Ġ":11305,"pÃŃngĠlÃ¹n":11306,"zhÃŃĠmÃŃnĠ":11307,"fÅ«ĠkÇİĠ":11308,"ĠdÄģngĠshÃŃĠdeĠ":11309,"ĠgÇİnĠ":11310,"ÃłoĠzhÅįuĠ":11311,"shuÄģiĠ":11312,"ĠyÄ«ĠjÃ¹Ġ":11313,"shÃ©nĠme":11314,"jÃ¬ĠyÇĴuĠ":11315,"shÇĲĠjiÃłnĠyÃºĠ":11316,"rÃ¨nĠdeĠ":11317,"yÄĽĠbÃ¨iĠ":11318,"miÃłnĠshÃłngĠ":11319,"bÃłnĠdeĠ":11320,"gÅįngĠgÃ²ngĠ":11321,"ĠsÄ«ĠkÃ¨":11322,"ĠÃ©rĠtÃ³ngĠ":11323,"Ġ2018ĠniÃ¡nĠ":11324,"jiÄģĠzÃłiĠ":11325,"kÄĽĠzÃłiĠ":11326,"pÇİoĠ":11327,"ĠxuÃ©ĠzhÄĽĠ":11328,"ĠjiÃłnĠshÃ¨":11329,"ĠwÃ©iĠrÃło":11330,"ĠyÄĽĠbÃ¨iĠ":11331,"qiÄģnĠshÇĶĠ":11332,"ĠqÃŃĠzhÅįngĠbÄģoĠkuÃ²Ġ":11333,"Ġ2009":11334,"onĠ":11335,"hÇİiĠyÃ¡ngĠ":11336,"lÃ¡iĠyÄ«nĠ":11337,"jÄ«ĠzÃłiĠ":11338,"jÃ¹nĠgÅįngĠ":11339,"tÅ«ĠrÃ¡nĠ":11340,"ĠjÃŃĠdÃłĠ":11341,"jÃ¬ĠniÃłn":11342,"ĠdÃ©ĠzhÄ«Ġ":11343,"ĠjÄ«ĠjÄ«nĠhuÃ¬Ġ":11344,"xiÃłoĠlÃ¬ĠyÃºĠ":11345,"Ġ2019ĠniÃ¡nĠ":11346,"qÃ¬ĠchÄĵ":11347,"lÃ¬ngĠyÃŃĠgÃ¨Ġ":11348,"xiÄģoĠshÄ«Ġ":11349,"ĠxÄ«ng":11350,"ĠchÅįngĠ":11351,"ĠyÃºnĠ":11352,"mÃŃngĠshÃ¬Ġ":11353,"ĠwÃ¨iĠduÃ¬Ġ":11354,"rÃºĠguÇĴĠ":11355,"dÄģngĠdÃ¬ĠdeĠ":11356,"jiÃłngĠlÇĲngĠ":11357,"chÃ¡nĠ":11358,"yÃ¡nĠhÇİiĠ":11359,"tÃ¡oĠtÃłiĠ":11360,"wÄĽiĠyuÃ¡nĠhuÃ¬ĠwÄĽiĠyuÃ¡nĠ":11361,"ĠdÃ¬ĠtiÄĽ":11362,"ĠlÇĲĠyÃłĠ":11363,"Ġ2ĠyuÃ¨Ġ":11364,"ĠĠĠshÃ¨ngĠ":11365,"ĠĠĠjÇĲnĠ":11366,"pÃŃngĠyuÃ¡nĠ":11367,"bÃ¨iĠjÇĲngĠ":11368,"kÇİĠluÃ³Ġ":11369,"19Ġ":11370,"jÃ¬nĠbÃ¹Ġ":11371,"dÃ¬ngĠyÃºĠ":11372,"liÇİngĠguÃ³Ġ":11373,"tÃ¨ĠdÃ¬ngĠ":11374,"fÃ¨nĠzÇĲ":11375,"dÃłĠbÃ¹Ġ":11376,"duÃ¬ĠqÃŃĠ":11377,"ĠqÃŃĠdeĠ":11378,"ĠdeĠbÃ¹ĠfÃ¨nĠ":11379,"ĠcÃ¬ĠniÃ¡nĠ":11380,"ĠxiÄģn":11381,"Ã¨rĠrÃ©nĠ":11382,"jiÃłoĠdÃłĠ":11383,"dÄĽngĠjÃŃĠ":11384,"ĠzhÃ¬ĠzuÃ²ĠdeĠ":11385,"ĠjÄ«ĠdÅ«Ġ":11386,"diÃłnĠnÇİoĠ":11387,"gÇİiĠzÃłoĠ":11388,"chuÃ¡nĠtÇĴngĠdeĠ":11389,"ĠgÄĵnĠ":11390,"ĠzÃ¡ĠzhÃ¬Ġ":11391,"ĠĠĠfor":11392,"shÄĵngĠyÃ¡":11393,"ĠbÃ¹ĠbÃ¹ĠzhÇİngĠ":11394,"shÇĴuĠzhÅįngĠ":11395,"onĠĠĠ":11396,"jÄ«ngĠshÃ©n":11397,"ĠqiÃ¡nĠwÇİngĠ":11398,"zhÃŃĠmÃŃnĠdÃ¬Ġ":11399,"diÇİnĠshÃ¬Ġ":11400,"yÃ¬ĠshÃ¹Ġ":11401,"quÃ¡nĠmiÃłnĠ":11402,"tiÃ¡nĠjÃ¬ngĠ":11403,"ĠdiÃłnĠyÇĲng":11404,"mÃ²ĠxÄ«ĠgÄĵĠ":11405,"ĠxiÃ¡nĠ":11406,"zhÃ¨nĠdeĠ":11407,"tuÄ«ĠchÅ«":11408,"guÃ³ĠjiÄģ":11409,"ĠxiÃłnĠyÇĲĠ":11410,"ĠjÄ«ĠchÇĶ":11411,"ĠjÃ¹ĠlÃŃ":11412,"guÄģnĠjiÃłnĠ":11413,"mÃ¹ĠdeĠ":11414,"lÃŃĠkÄģi":11415,"ĠluÃ³ĠmÇİĠ":11416,"ĠĠĠnÃ¡nĠ":11417,"ĠshÃŃĠduÃłnĠ":11418,"liÇİngĠcÃ¬Ġ":11419,"ÃłiĠÄĽrĠlÃ¡nĠ":11420,"sÄģnĠmÃŃngĠ":11421,"hÅ«nĠyÄ«nĠ":11422,"dÃłĠlÃ¹":11423,"ĠyÃ¬ĠyÃºĠ":11424,"jiÄĵĠduÃłn":11425,"shÅ«ĠyuÃłnĠ":11426,"ĠyÃ³uĠjÄ«Ġ":11427,"ĠshÄģnĠdÅįngĠ":11428,"ÄģĠlÄģĠbÃ³Ġ":11429,"ĠliÃ¹Ġ":11430,"touĠ":11431,"bÅįĠsÄ«Ġ":11432,"huÃ¬ĠzhÇİngĠ":11433,"mÇİnĠzÃºĠ":11434,"qÄ«ĠwÃ¨iĠ":11435,"wÃ©nĠdeĠ":11436,"ĠdÃ¬ĠdiÇİnĠ":11437,"bĠ":11438,"xÄ«nĠchÃ©ngĠ":11439,"liÇİngĠwÃ¨iĠ":11440,"pÃ¨iĠyÄ«nĠ":11441,"zhÃ¨ngĠjÃ¹Ġ":11442,"jÃ¬ngĠzhÄĵngĠ":11443,"ĠwÃºĠfÇİĠ":11444,"liÃ¡nĠdeĠ":11445,"xiÅ«ĠfÃ¹Ġ":11446,"ĠbÃ¬ngĠyÃ³uĠ":11447,"cÃ¡iĠnÃ©ngĠ":11448,"lÄģĠjÄ«Ġ":11449,"kÃłoĠjÃ¬nĠ":11450,"ĠdÃ¬ĠdÃłiĠ":11451,"ĠlÃ¬ĠshÃŃĠ":11452,"jiÄĽĠfÃłngĠ":11453,"Ã©ĠluÃ³ĠsÄ«":11454,"nÃ¨iĠzhÃłnĠ":11455,"bÅįĠshÃ¬Ġ":11456,"ĠwÃ©iĠchÃŃ":11457,"chÅ«ĠbÇİn":11458,"zÄģiĠpÃ©iĠ":11459,"ĠshÃ¬ĠdÃ©ĠguÃ³Ġ":11460,"duÃ¬ĠzhÇİngĠ":11461,"fÄģĠqÇĲ":11462,"hÃ¹ĠliÃ¡nĠ":11463,"jÅ«ĠzhÃ¹ĠzÃłiĠ":11464,"pĠ":11465,"ĠĠĠT":11466,"zÇİoĠzÃłiĠ":11467,"ĠcÄģnĠyÃ¹Ġ":11468,"bÃ¬ngĠbÃ¹Ġ":11469,"shÇĴuĠxiÃłngĠ":11470,"shÄģnĠqÅ«Ġ":11471,"zÃºĠqiÃºĠjÃ¹ĠlÃ¨ĠbÃ¹Ġ":11472,"jiÄģoĠliÃº":11473,"ĠguÃ³ĠwÃ¹ĠyuÃłnĠ":11474,"ĠbÇİo":11475,"ĠpiÃłoĠ":11476,"lÇĲĠchÃ©ngĠ":11477,"wÄĽiĠfÃ¹Ġ":11478,"zhÃ¨ĠshÃ¬Ġ":11479,"yÃºĠĠĠ":11480,"qÇĲĠyuÃ¡nĠ":11481,"cÅ«nĠluÃ²Ġ":11482,"fÅ«ĠdeĠ":11483,"jÄ«ĠchÇĶ":11484,"ĠdÃłĠlÃ³u":11485,"ĠyÇĶĠyÃ¡n":11486,"yÃ¡nĠsÃ¨Ġ":11487,"xiÃłngĠzhÄĵngĠ":11488,"ĠwÃ©iĠsÄ«Ġ":11489,"tiÄģnĠtÇĲĠ":11490,"dÅįuĠbÃ¨iĠ":11491,"ĠbÃ¹ĠbÄ«ngĠ":11492,"ĠĠĠdÃ¬ĠÃ¨rĠ":11493,"ĠBĠ":11494,"Ġ2004ĠniÃ¡nĠ":11495,"liÃ¹ĠshÃŃĠ":11496,"ĠzhÃ¬ĠliÃłngĠ":11497,"ĠzhÅįuĠfÇĶĠ":11498,"ĠdÄ«ngĠ":11499,"lÃ¡ngĠzhÅįngĠ":11500,"gÇĴuĠ":11501,"ĠyÄ«ĠyuÃłn":11502,"ĠxÃŃngĠmÃ¹Ġ":11503,"xÃ¬ngĠhÃ©Ġ":11504,"juÃłnĠ":11505,"ĠyÇĲĠwÃłiĠ":11506,"ĠyÇĶĠyÄ«Ġ":11507,"chÃ¡ngĠdÃ¹Ġ":11508,"luÃ²ĠfÃ¡":11509,"eĠĠĠ":11510,"ĠzhÃ¬ĠdÃ¬Ġ":11511,"wÃºĠzhÃ¨ngĠzhuÃłngĠgÇİnĠrÇİnĠzhÄĽĠ":11512,"ĠyÃ¬ĠshÃ¬Ġ":11513,"liÃłngĠwÃ¨iĠ":11514,"mÇĶĠdeĠ":11515,"ĠdÃ©ĠsÄ«Ġ":11516,"Ġ2020ĠniÃ¡nĠ":11517,"xiÄĽĠzuÃ²Ġ":11518,"mÃ¨ngĠjiÄģĠ":11519,"zÃłiĠĠĠ":11520,"zuÃ¬ĠchÅ«":11521,"tÃ¨ĠxÃ¬ngĠ":11522,"shÄ«ĠqÃ¹":11523,"ĠwÃ¨iĠyÃºĠmÄĽiĠguÃ³Ġ":11524,"jiÇİĠdÃ¬Ġ":11525,"ĠzuÃ¬ĠjiÄģĠ":11526,"fÃ¹ĠhÃ©Ġ":11527,"chuÃ¡ngĠ":11528,"tÃłiĠyÃ¡ng":11529,"ÃłoĠmÃ©n":11530,"fÃºĠlÃ¬Ġ":11531,"ĠxiÃłnĠjÃŃĠ":11532,"zhuÃłnĠdeĠ":11533,"rĠ":11534,"ĠdÇİngĠ":11535,"zÅįngĠyÃ¬Ġ":11536,"1970ĠniÃ¡nĠ":11537,"zÃ¬ĠmÇĶĠ":11538,"lÃŃngĠchÃ©nĠ":11539,"zhÃŃĠyÃ¨ĠshÄĵngĠyÃ¡Ġ":11540,"ĠyÃŃĠgÃ¨":11541,"ĠkÃ¹Ġ":11542,"suÇĴĠdeĠ":11543,"suÇĴĠwÃ¨iĠ":11544,"tÃ²uĠlÃ¹Ġ":11545,"dÅįngĠbÄĽi":11546,"ĠdiÃłoĠ":11547,"ÇĴuĠxiÃłngĠ":11548,"kÇİoĠshÃ¬Ġ":11549,"ĠfÃºĠjiÃłnĠ":11550,"ĠĠĠgÃ¨ĠrÃ©nĠ":11551,"zÇĴngĠrÃ©nĠkÇĴuĠ":11552,"ĠdÃ¬ĠfÄģng":11553,"ĠxiÃłnĠchÃ©ngĠ":11554,"ĠlÇĲĠkÃ¨Ġ":11555,"shÅįuĠgÃ²uĠ":11556,"juÃ©ĠshÃ¬Ġ":11557,"ĠdÃ©ĠlÄģĠ":11558,"kÅįngĠqÃ¬Ġ":11559,"nÃłĠdeĠ":11560,"fÃ©nĠ":11561,"zuÃ²ĠwÃ©i":11562,"zhÇĶĠzhÄģngĠ":11563,"xÄ«ĠhÃ©Ġ":11564,"xÄ«ĠnÃ¡nĠ":11565,"ĠtÃłi":11566,"ĠĠĠ2008":11567,"pÃŃngĠdeĠ":11568,"huÃŃĠyÃ¬Ġ":11569,"ĠyÇĲĠzÃłiĠ":11570,"ĠyÄĽĠkÄĽĠyÇĲĠ":11571,"pÃºĠtÃ¡oĠyÃ¡Ġ":11572,"ĠzhÄĵn":11573,"ĠĠĠrÃ©nĠ":11574,"siĠ":11575,"ĠzuÃ²ĠzhÃłnĠ":11576,"ĠxiÃ¨":11577,"qÄ«ĠshÃŃĠ":11578,"gÃ©ĠshÃ¬Ġ":11579,"zÇĴuĠxiÃłngĠ":11580,"ĠyÇĲĠyÃºĠ":11581,"ĠchÃ©ngĠkÃ¨Ġ":11582,"sÅ«ĠgÃ©ĠlÃ¡nĠ":11583,"Ġ18":11584,"ĠsÃ¨Ġ":11585,"guÃ²ĠleĠ":11586,"chÄĵĠduÃ¬Ġ":11587,"ĠÄĽrĠshÃ¬Ġ":11588,"nÃ¡nĠdeĠ":11589,"ĠdÃ¬ĠtÃºĠ":11590,"ĠyuÃ¡nĠbÄĽn":11591,"ĠchÅ«ĠdÃłoĠ":11592,"yÃ¬nĠnÃŃĠ":11593,"Ġ2007":11594,"ĠsÅ«nĠ":11595,"Ġ2021ĠniÃ¡nĠ":11596,"wÇĶĠshÃ¬Ġ":11597,"shÅįuĠdÃłoĠ":11598,"wÇİĠÄĽrĠshÄĽngĠ":11599,"guÇİnĠzhÃ¬Ġ":11600,"ĠgÅįngĠlÇĲĠdeĠ":11601,"xÃ¬nĠyÇİng":11602,"zhÇĶĠyÃ¬ĠzhÄĽĠ":11603,"gÇĶĠlÃ¬Ġ":11604,"fÃ©iĠ":11605,"baĠ":11606,"ĠwÃ¨iĠyuÃ¡nĠ":11607,"guÃ²ĠdÃ¹Ġ":11608,"ĠkÇİi":11609,"ĠzÃºĠ":11610,"yÃ¡nĠrÃ©nĠ":11611,"luÃ²ĠchÃ©ngĠ":11612,"erĠ":11613,"xiÇİnĠzhÃ¹Ġ":11614,"tÅįuĠ":11615,"guÃ³ĠwÃ¹Ġ":11616,"shÇĲĠshÃłngĠ":11617,"guÇİngĠchÇİng":11618,"ĠshÃŃĠyÃłnĠshÃ¬Ġ":11619,"ĠsÄ«ĠlÃ¬ngĠbÃ¹Ġ":11620,"ĠxÃ¹Ġ":11621,"shÇĲĠrÃ©nĠ":11622,"bÃ¬ĠdeĠ":11623,"mÃłiĠkÃ¨Ġ":11624,"50Ġ":11625,"hÃºnĠ":11626,"shÇĴuĠdÅ«":11627,"ĠfÃ¹ĠjÃ¬nĠdeĠ":11628,"xÃºnĠzhÇİo":11629,"wÃłngĠyuÇİnĠ":11630,"ĠĠĠyuÃ¨Ġ":11631,"xÄ«ĠdÃ¬Ġ":11632,"xiÅ«ĠdÃłoĠ":11633,"ĠdÃłĠgÅįngĠ":11634,"sÃ¬ĠdeĠ":11635,"1968ĠniÃ¡nĠ":11636,"gÃ©ĠlÃŃĠ":11637,"shÃłoĠnÇļĠ":11638,"2ĠniÃ¡nĠ":11639,"yÃºĠhÃ©Ġ":11640,"jiÄģngĠyÃºĠ":11641,"1981ĠniÃ¡nĠ":11642,"dÅįngĠjÄ«ng":11643,"zhuÄģnĠyÃ¨":11644,"ĠcÇİiĠ":11645,"dÃ¬ĠhÃ©Ġ":11646,"dÃ¹ĠhÃ©Ġ":11647,"cÃ©ngĠyÃºĠ":11648,"fÃłngĠzÃłiĠ":11649,"ĠjÃŃĠshÇĲĠ":11650,"jiÄģnĠyÃ¹Ġ":11651,"miÇİnĠfÃ¨iĠ":11652,"yÃ¡nĠzhÃ¬Ġ":11653,"jiÇİoĠdÃ¹Ġ":11654,"zuÇĴĠyÃ¬Ġ":11655,"ĠdÃ¬ĠliÃ¹Ġ":11656,"ĠchÃ©ngĠbÄĽnĠ":11657,"wÃ©iĠzhÇĶĠ":11658,"bÃ¨iĠchÄĵngĠwÃ©iĠ":11659,"ĠxÃŃngĠdÃ²ng":11660,"fÇİnĠhuÃŃ":11661,"guÇİnĠlÇĲĠjÃºĠ":11662,"ĠjuÃ©ĠdÃ¬ngĠ":11663,"1956ĠniÃ¡nĠ":11664,"ĠyuÃ¨ĠduÃ¬Ġ":11665,"zÄ«ĠbÄĽnĠ":11666,"tÃ¡iĠbÄĽiĠshÃ¬Ġ":11667,"ĠshÃ¨ĠyÃºĠ":11668,"ĠjÅ«nĠqÅ«Ġ":11669,"bÃ¬ĠmiÇİn":11670,"kÅįngĠjiÄģn":11671,"xÃŃngĠtÃłiĠ":11672,"ĠĠĠdÄģngĠ":11673,"shÃ¨ĠbÃ¨iĠ":11674,"xiÄģngĠshÃ¬Ġ":11675,"kÇİĠsÄ«Ġ":11676,"1920ĠniÃ¡nĠ":11677,"ĠshÃ©n":11678,"shÄģnĠxiÃłnĠ":11679,"ĠÃ©rĠfÄĵiĠ":11680,"gÇİiĠshÃłnĠ":11681,"esĠ":11682,"lÇĲĠlÃ¹n":11683,"xÄ«ĠbÄĽiĠ":11684,"fÃ¨iĠchÃºĠ":11685,"zhÃ¨ngĠfÇĶĠdeĠ":11686,"ĠfÃ¨ngĠ":11687,"shÃłngĠdÃ¬Ġ":11688,"dÇİoĠshÃłngĠ":11689,"ĠzÃłiĠhÃ©Ġ":11690,"ĠkÃ¨ĠÄĽrĠ":11691,"dÄĽngĠdÄĽngĠ":11692,"ĠĠĠsÄ«Ġ":11693,"cÇĲĠtÃ³ngĠshÃŃĠ":11694,"luÃ²ĠshÄģnĠjÄ«Ġ":11695,"Ġ2002ĠniÃ¡nĠ":11696,"kÄģiĠgÅįngĠ":11697,"tÅįngĠzhÄ«Ġ":11698,"xiÄģngĠguÄģnĠdeĠ":11699,"bÅįĠlÃŃĠ":11700,"ĠyÇĴng":11701,"1960ĠniÃ¡nĠ":11702,"ĠfÄĵnĠbiÃ©Ġ":11703,"ĠcÃłi":11704,"jiÃ¹ĠyuÃ¡nĠ":11705,"ĠdeĠjÃ¹Ġ":11706,"ĠpÇĶ":11707,"ĠĠĠzhÃ¨ngĠ":11708,"ĠdÃ¬ĠyÄ«ĠcÃ¬":11709,"ĠĠĠ2009":11710,"hÃ©ĠzÃłiĠ":11711,"yÄĽĠhuÃ¬Ġ":11712,"wÃ¡Ġ":11713,"ĠzhÄ«ĠshÃ¬Ġ":11714,"hÇİiĠÃłn":11715,"cÃŃĠzhÃŃĠ":11716,"WindowsĠĠĠ":11717,"ĠrÃ©nĠdÃłĠ":11718,"ĠyÃ¬ĠjiÃłnĠ":11719,"hÄĽnĠkuÃłiĠ":11720,"sÄ«ĠshÃ¬Ġ":11721,"1975ĠniÃ¡nĠ":11722,"ĠwÃ¨iĠzÃłiĠ":11723,"ĠmÃ¬Ġ":11724,"shÃłngĠxiÃłnĠ":11725,"jiÃłĠshÇĲĠ":11726,"ĠcÇİiĠyÃ²ngĠ":11727,"ĠĠĠbÄģĠ":11728,"kÇĴuĠdeĠ":11729,"zhÄĵngĠyuÃ¨Ġ":11730,"tÃ¬ĠdÃłiĠ":11731,"chÃ¹ĠzhÇİngĠ":11732,"chÅįngĠtÅ«":11733,"xÇĲĠhuÄģnĠ":11734,"ĠkÇİiĠ":11735,"qiÃ¡ngĠzhÃ¬Ġ":11736,"ĠshÃŃĠxiÃłn":11737,"yÇĲngĠshÃ¬Ġ":11738,"cÃŃĠdeĠ":11739,"1948ĠniÃ¡nĠ":11740,"1964ĠniÃ¡nĠ":11741,"jiÄģnĠdÅ«Ġ":11742,"tÃŃĠchÅ«ĠleĠ":11743,"wÃłiĠjiÄģoĠbÃ¹Ġ":11744,"ĠsuÅįĠ":11745,"xuÃ©ĠzhÅįngĠ":11746,"huÃłiĠ":11747,"ĠgÃ¨ĠguÃ³Ġ":11748,"yÇĲnĠyÃ²ngĠ":11749,"mÃŃnĠzhÇĶĠdÇİng":11750,"ĠlÃ©i":11751,"shÄģnĠdÃ¬Ġ":11752,"jiÇĶĠdeĠ":11753,"jÇĲnĠyÇĴuĠ":11754,"fÄĵngĠfÃ¹Ġ":11755,"jÃ¬ĠsuÃłn":11756,"ĠzhÇĶĠyÇİnĠ":11757,"ĠbÇİĠ":11758,"nuÃ³ĠwÄĵi":11759,"ĠĠĠgÃ¹ĠshÃ¬Ġ":11760,"ĠsÄ«ĠmÇİĠ":11761,"ĠgÃ¨ĠzhÇĴng":11762,"ĠhÃłoĠxiÃłn":11763,"ĠĠĠM":11764,"zhÇİngĠguÄģnĠ":11765,"zÅįngĠjiÃło":11766,"xiÇİoĠxÃŃngĠxÄ«ng":11767,"ĠĠĠfÃ¹Ġ":11768,"mÃ²ĠxÄ«ĠgÄĵ":11769,"Ã©ĠguÃ³Ġ":11770,"hÃ¹ĠxiÄģngĠ":11771,"qiÃ¡ngĠdeĠ":11772,"ĠshÃŃĠhÃ²uĠ":11773,"ĠyÇĴuĠxiÄĵ":11774,"pÇĶĠbiÃłn":11775,"bÃ¹ĠdeĠcÅ«nĠzhuÄģngĠ":11776,"ĠĠĠyÇĲĠxiÃł":11777,"ĠchuÄģnĠ":11778,"guÇİnĠdeĠ":11779,"zÃłnĠzhÃ¹Ġ":11780,"yÃ¬nĠshuÄģ":11781,"ĠzÃº":11782,"ĠpÃłĠ":11783,"cÃ¹ĠjÃ¬nĠ":11784,"ĠyuÃ¨ĠlÃ¡iĠyuÃ¨Ġ":11785,"liÃºĠyÃ¹Ġ":11786,"gÇĶĠlÇİo":11787,"mÇİĠlÃ¡iĠxÄ«ĠyÃł":11788,"ĠmÃ³":11789,"ĠĠĠwÃ©iĠ":11790,"tÄģĠzÃłiĠ":11791,"jiÃłngĠyÇĶĠ":11792,"liÇİoĠjiÄĽĠ":11793,"ĠbÃ¹ĠshÇİo":11794,"jiÄģĠtÃŃngĠ":11795,"fÃ¹ĠshÃ¬Ġ":11796,"liÃ¨ĠchÅ«Ġ":11797,"ĠchÃ©ngĠxiÃłn":11798,"ĠzhÄ«ĠdÃ¬Ġ":11799,"jÄ«ngĠdiÇİnĠ":11800,"chÄĵĠxiÄģngĠ":11801,"ĠdÃłnĠbÃ¡iĠ":11802,"ÄģĠgÄĵnĠ":11803,"ĠnÇĲ":11804,"yÇĶnĠshÃŃĠ":11805,"ĠxiÃłnĠshÃłngĠ":11806,"qiÃ¡ngĠdÃ¹Ġ":11807,"tiÄģnĠhÃ²uĠ":11808,"sÅ«ĠwÃ©iĠ":11809,"guÃłnĠjÅ«n":11810,"pÃ¹Ġ":11811,"ĠzhÄ«ĠjiÄģĠ":11812,"cÄģnĠxuÇİnĠ":11813,"ĠbÃ¹ĠmÇİnĠ":11814,"ĠkÃ¨ĠhÃ©Ġ":11815,"liÃ¨ĠrÃ¹Ġ":11816,"bÃ¬ĠmiÇİnĠ":11817,"1952ĠniÃ¡nĠ":11818,"ĠxiÄģngĠdÄģng":11819,"tÃ³ngĠxÃ¬ngĠ":11820,"cÃ¨ĠliÃ¡ngĠ":11821,"tÃŃngĠchÄĵĠ":11822,"zÇİoĠshÃłngĠ":11823,"zhÇĶĠtÃŃ":11824,"sÄĵnĠlÃŃn":11825,"ĠfÃ¹ĠzÃ©ĠguÇİnĠxiÃ¡Ġ":11826,"ÃłoĠÄĽrĠ":11827,"lÄģĠdeĠ":11828,"mÃŃngĠdÄģnĠ":11829,"zhÃłnĠtÃ¡iĠ":11830,"guÃ³ĠshÃ¬Ġ":11831,"hÅ«ĠyÃ¹Ġ":11832,"kÃ²uĠ":11833,"ĠgÅįngĠyÃ¬ngĠ":11834,"xuÇİnĠjÇĶĠzhÅįngĠ":11835,"ĠkÇİoĠ":11836,"ĠyÄ«ĠzhÃŃĠ":11837,"guÄģnĠfÄģng":11838,"jiÃłnĠzhÃ¹":11839,"dÄ«ĠqÃ¬Ġ":11840,"ĠjiÄĵ":11841,"jiÄģnĠrÃ¨nĠ":11842,"suÇĴĠyÇĴuĠdeĠ":11843,"cÃ¡iĠliÃło":11844,"ĠĠĠzÄĵngĠzÇĶĠ":11845,"sÄģoĠ":11846,"nÃ¡nĠzi":11847,"bÃ³ĠlÃŃnĠ":11848,"jÇĲngĠgÃłoĠ":11849,"guÇİngĠzhÅįu":11850,"ĠyÃ¨":11851,"lÄģĠdÃ©Ġ":11852,"shÅ«ĠchÅ«Ġ":11853,"ĠniÃ¡nĠqÄ«ngĠ":11854,"ĠgÅįngĠnÃ©ng":11855,"tÇĲĠyÃ¹ĠchÇİngĠ":11856,"ĠshÃ¹n":11857,"lÃ¡nĠxÄ«Ġ":11858,"dÃ¹nĠdeĠ":11859,"ĠqiÃºĠdeĠ":11860,"yÃŃnĠpÃ¡iĠ":11861,"yÃ¡oĠgÇĶn":11862,"ĠyÇĶĠqÃŃĠ":11863,"yÇĲnĠrÃ¹Ġ":11864,"ĠÃ©rĠgÄģiĠdÃ¬ĠdeĠ":11865,"hÃ¡iĠzÃłiĠ":11866,"nuÃ³ĠwÄĵiĠ":11867,"guÃ³ĠwÃ¡ngĠ":11868,"qÄ«ĠzÇĲ":11869,"liÃ¡nĠjiÄĵ":11870,"zhÃłoĠpiÄģnĠ":11871,"nÃ¹Ġ":11872,"xÃ¹ĠlÃ¬ĠyÃł":11873,"zÇİoĠqÄ«ĠdeĠ":11874,"shÃŃĠhÃ©Ġ":11875,"tÃºĠdeĠ":11876,"yÅįuĠxiÃ¹":11877,"mÇĴuĠxiÄĵ":11878,"laĠ":11879,"1937ĠniÃ¡nĠ":11880,"ĠjÃ¬ĠlÃ¹":11881,"ĠchÅ«ĠyÇİnĠ":11882,"ĠbÃ¨iĠÄĽr":11883,"ÄģnĠzhuÄģngĠ":11884,"chuÃłngĠzuÃ²ĠdeĠ":11885,"zhÄ«ĠshÃŃĠ":11886,"qiÃºĠhuÃ¬Ġ":11887,"1966ĠniÃ¡nĠ":11888,"lĠ":11889,"zhÃłnĠdÃ¬Ġ":11890,"zÄģoĠyÃ¹Ġ":11891,"ĠwÃ¨iĠnÃ©ng":11892,"ĠjiÄģĠtÃŃng":11893,"xiÃłĠlÃ¡iĠ":11894,"shÄĵnĠqÇĲng":11895,"zhÃłnĠshÃŃĠ":11896,"niÃ¡ngĠ":11897,"ĠhÃ©ĠgÇĶĠ":11898,"ĠchÃ©ngĠleĠ":11899,"ĠyÇĲĠqiÃ¡nĠ":11900,"ĠjÃ¬ĠyÃ¬Ġ":11901,"ĠkÃ¨ĠlÃ¬Ġ":11902,"gÇĶĠlÄģĠ":11903,"cÃ©ngĠdeĠ":11904,"mÃ²ĠÄĽrĠ":11905,"fÄģĠshÄĵngĠdeĠ":11906,"ĠxiÄģngĠtÃ³ngĠ":11907,"ĠyÇĲĠsÃ¨ĠliÃ¨Ġ":11908,"ĠfÇĴu":11909,"tÃ¨ĠlÃ¬Ġ":11910,"fÄĵiĠxÃŃng":11911,"biÄģnĠyuÃ¡nĠ":11912,"ĠshÃŃĠbÃłoĠ":11913,"xÄ«ngĠqÄ«":11914,"ĠqÇĲngĠ":11915,"qiÃ¡nĠhÃ²uĠ":11916,"zÇĶĠdeĠ":11917,"shÄģnĠdÅįngĠshÄĽngĠ":11918,"ĠzhÄģoĠhÃ©Ġ":11919,"ĠsÃ²ng":11920,"ĠĠĠ3":11921,"1946ĠniÃ¡nĠ":11922,"zhÅįngĠyÄģngĠ":11923,"ĠduÃ¬ĠcÇĲĠ":11924,"ĠzhÇĲĠzÃłiĠ":11925,"ĠĠĠgÃłiĠyÃłoĠ":11926,"ĠwÃłi":11927,"Ġ2006":11928,"sÄģnĠdÃłĠ":11929,"ĠdeĠzhÇĶĠyÃłoĠ":11930,"ĠyuÃ¡nĠyÄ«n":11931,"shÄ«ĠqÃ¹Ġ":11932,"tÃłiĠkÅįngĠ":11933,"ĠzÃ¬ĠyÃ³u":11934,"Ġ2000ĠniÃ¡nĠ":11935,"xiÃłĠzÃłiĠ":11936,"ĠjÅ«nĠdÃ¬Ġ":11937,"ĠshÄĵngĠmÃŃngĠ":11938,"ĠcÃ¡i":11939,"zhÃłĠdÃłnĠ":11940,"zhÃŃĠshÄĵngĠ":11941,"ĠguÇİnĠ":11942,"wÇİngĠshÃłngĠ":11943,"tÇİĠÄĽrĠ":11944,"ĠdÃ¬ĠzhÃ¨nĠ":11945,"ĠshÇĴuĠcÃ¬Ġ":11946,"lÇĲngĠdÇİoĠdeĠ":11947,"yÃ¡nĠjiÅ«ĠshÄĵngĠ":11948,"hĠ":11949,"tÃ¨ĠÄĽrĠ":11950,"ĠxiÃłnĠyÇĴuĠ":11951,"ĠxiÄģnĠhÃ²uĠ":11952,"duÃ¬ĠyuÃ¡nĠ":11953,"wÅ«ĠsÄ«Ġ":11954,"hÇİoĠpÃŃngĠ":11955,"ĠzhÅįngĠjiÄģnĠ":11956,"xiÃłĠjiÃłngĠ":11957,"pÇĶĠchÃ¡Ġ":11958,"bÇİoĠdeĠ":11959,"duÅįĠcÃ¬":11960,"zhÄģiĠ":11961,"ĠjÃŃĠbÃ¬ngĠ":11962,"tÃ³ngĠmÃŃngĠ":11963,"tÃ¨ĠyÇĴuĠ":11964,"biÄģnĠwÃ¨iĠ":11965,"bÃ³ĠjuÃ©Ġ":11966,"ĠwÄĵiĠliÃ¡nĠ":11967,"ĠtuÄ«Ġ":11968,"ĠxÃŃngĠbÃ¹Ġ":11969,"fÄģĠdÃ²ngĠjÄ«Ġ":11970,"qÄ«nĠwÃ¡ngĠ":11971,"kuÃłiĠsÃ¹":11972,"KĠ":11973,"cÃºnĠdeĠ":11974,"1974ĠniÃ¡nĠ":11975,"huÃŃĠguÄ«Ġ":11976,"Ã©ĠluÃ³ĠsÄ«ĠdeĠ":11977,"5ĠniÃ¡nĠ":11978,"ĠZ":11979,"ĠguÇİngĠdÅįngĠ":11980,"qÃŃngĠdeĠ":11981,"ĠshÃ¬ĠyÄ«ĠbÃ¹Ġ":11982,"ĠxÄ«nĠzÄĵngĠ":11983,"gÇİiĠzhÃ¬ĠwÃ¨iĠ":11984,"ĠĠĠdÃ¬ĠyÄ«Ġ":11985,"gÇİngĠyuÃ¡nĠ":11986,"zhuÃ¬Ġ":11987,"ĠniÃ¡nĠlÃŃngĠ":11988,"fÃ¨iĠyÃ¡nĠ":11989,"tĠĠĠ":11990,"ĠguÅį":11991,"shÄ«ĠgÅįngĠ":11992,"fÄĽnĠsÄ«Ġ":11993,"zhÇĲĠkÃ²ngĠ":11994,"2ĠgÃ¨Ġ":11995,"mÃ¬ĠdeĠ":11996,"xÅ«nĠ":11997,"bÄĵngĠ":11998,"chÄĵĠliÃłng":11999,"diÃłnĠshÃ¬ĠtÃ¡i":12000,"zÃłnĠtÃŃngĠ":12001,"shÄĵnĠshÃ¬Ġ":12002,"dÃ¡ĠzhÅįuĠ":12003,"yÇĲngĠxiÃłngĠ":12004,"ĠzhÃ²ng":12005,"ĠmÃ¡oĠ":12006,"ĠĠĠ3Ġ":12007,"1954ĠniÃ¡nĠ":12008,"ĠdeĠhuÃłĠ":12009,"fÄģngĠmÇĲĠ":12010,"ĠzÃ¬ĠdÃ²ngĠ":12011,"4ĠniÃ¡nĠ":12012,"dÃłĠqÅ«Ġ":12013,"shÄĽngĠjiÄĵĠrÇİngĠ":12014,"sÄģnĠrÃ©nĠ":12015,"tÃ¨ĠzhÄĵng":12016,"ĠzuÃ¬ĠdÃłĠ":12017,"zhÄĽĠhÃ©Ġ":12018,"ĠjiÃ©ĠshÃ¹Ġ":12019,"sÄģnĠgÃ¨":12020,"wÇĶĠgÃ¨Ġ":12021,"ĠzhÃ¨ĠyÃłngĠ":12022,"ĠjÃ¬nĠzhÇĲĠ":12023,"ruÃ¬ĠdiÇİnĠ":12024,"ĠmÃłiĠkÃ¨Ġ":12025,"ĠshuÇĲ":12026,"ĠbÃ¹ĠyÄ«Ġ":12027,"ĠpÃŃngĠlÃ¹nĠ":12028,"zhÇİnĠlÇİnĠ":12029,"jÃ¬ngĠnÃ¨iĠgÃ²ngĠyÇĴuĠ":12030,"lÃ¹ĠyÃ¬ĠsÄ«Ġ":12031,"sÃ¬ĠshÃ¬Ġ":12032,"tÃłiĠdeĠ":12033,"ĠguÄģng":12034,"ĠkÄĽĠnÃ©ngĠ":12035,"ĠshÃłnĠ":12036,"ĠĠĠjÄ«nĠ":12037,"ĠshÃ¨ĠhuÃ¬ĠzhÇĶĠyÃ¬Ġ":12038,"ĠlÃ¨iĠ":12039,"yÃ³uĠxÃŃngĠ":12040,"zhÄĽĠhuÃ¬Ġ":12041,"pÃ¨iĠbÃ¨iĠ":12042,"1955ĠniÃ¡nĠ":12043,"cÄģnĠshÃ¹Ġ":12044,"ĠshÃ¬ĠyÄ«ĠkÄĵĠ":12045,"ĠshuÄģngĠfÄģngĠ":12046,"ĠzÃłiĠyÃ¬ĠqÇĲĠ":12047,"4ĠgÃ¨Ġ":12048,"shÇĲĠyÃºĠ":12049,"fÇİĠyÇĶĠ":12050,"lÄģĠhÃ©Ġ":12051,"huÃŃĠguÃ³Ġ":12052,"ĠbÃ¹ĠlÃ¡iĠ":12053,"ĠshÃŃĠxÃ¬ngĠ":12054,"xÄ«nĠwÃ©n":12055,"bÇİoĠluÃ³Ġ":12056,"jÃ¬ngĠzhÄĵng":12057,"ĠjÃŃĠhÃ²uĠ":12058,"lÇľĠsÃ¨Ġ":12059,"ĠjiÄģngĠsÅ«Ġ":12060,"wÃºĠxiÃłnĠdiÃłnĠshÃ¬Ġ":12061,"shÃ¨ngĠchÅ«Ġ":12062,"ĠdÃ¬ĠzhÃ¬Ġ":12063,"ĠzhÃ¬ĠyÃŃĠ":12064,"ĠjÃ¬ĠzÇİi":12065,"ĠxÄ«ĠÄĽrĠ":12066,"ĠdÃ²ngĠwÃ¹Ġ":12067,"ĠqiÄģn":12068,"ĠĠĠO":12069,"yÃ¬ngĠjÃŃĠ":12070,"ĠbÃ¨iĠpÃ²Ġ":12071,"dÃ¹ĠshÇĲĠ":12072,"chÇİnĠshÄĵngĠleĠ":12073,"ĠĠĠ2019ĠniÃ¡nĠ":12074,"mÇİĠkÃ¨ĠsÄ«Ġ":12075,"dÄģngĠniÃ¡nĠ":12076,"ĠguÃ³ĠjiÄģĠduÃ¬Ġ":12077,"tiÄĽĠlÃ¹ĠchÄĵĠzhÃłnĠ":12078,"ĠSĠ":12079,"huÄģngĠ":12080,"fÃ¨iĠyÃ²ngĠ":12081,"GĠ":12082,"ĠhÃºĠnÃ¡nĠ":12083,"kÅ«Ġ":12084,"ĠgÅįngĠqÇĲngĠ":12085,"ĠjiÄģĠzÃº":12086,"ĠĠĠIn":12087,"wÃ¡ngĠwÃ¨iĠ":12088,"tuÄ«ĠjiÃłnĠ":12089,"liÃ¡nĠrÃ¨nĠ":12090,"lÃ¨iĠxÃŃngĠdeĠ":12091,"anĠ":12092,"sÇĲĠyÃºĠ":12093,"zhuÅįĠ":12094,"ĠtÄģĠcÃ©ngĠ":12095,"zhÇİngĠzÇĲĠ":12096,"bÄĽiĠfÄģngĠ":12097,"ĠcÃ©ngĠrÃ¨n":12098,"ĠgÅįngĠgÃ²ng":12099,"ĠdÃłĠdÃło":12100,"fÃºĠluÃ³ĠlÇĲĠ":12101,"nÃ³ngĠcÅ«nĠ":12102,"ĠshÃ¬ĠzhÅįngĠhuÃ¡ĠrÃ©nĠmÃŃnĠgÃ²ngĠhÃ©ĠguÃ³Ġ":12103,"yÇĲngĠxiÇİngĠlÃ¬Ġ":12104,"ĠĠĠofĠĠĠtheĠĠĠ":12105,"ĠdeĠzuÃ²ĠbiÄģoĠwÃ¨iĠ":12106,"ĠfÇĶĠ":12107,"chÅįngĠjÄ«Ġ":12108,"sectionĠĠĠ":12109,"ĠshÃ¬ĠhuÃ¬Ġ":12110,"qÃºnĠdÇİo":12111,"ĠqiÅ«Ġ":12112,"Ġ2022ĠniÃ¡nĠ":12113,"ĠĠĠI":12114,"sÄģnĠjÃŃĠ":12115,"ĠzÃłiĠxÄ«nĠ":12116,"tÃ¨ĠdiÇİnĠ":12117,"ĠĠĠjiÄģĠtÃŃngĠ":12118,"ĠshÄĽnĠ":12119,"lÇľĠdeĠ":12120,"ĠzÃłiĠtÄģĠdeĠ":12121,"chÅ«ĠqÄ«Ġ":12122,"fÃ¡ngĠwÅ«Ġ":12123,"shÃ¨ĠhuÃ¬":12124,"ĠnÇİi":12125,"jÃŃĠbÃ¹Ġ":12126,"shÄĵngĠzhÃ¬Ġ":12127,"biÇİnĠ":12128,"tÃ¨ĠlÄģĠ":12129,"qÄ«ngĠchÃ¡oĠ":12130,"jÃ¬ngĠnÃ¨i":12131,"gÃ¹ĠdÃ¬ngĠ":12132,"gÃ¨ngĠduÅįĠdeĠ":12133,"chuÃłngĠzÃłoĠ":12134,"ĠĠĠshÇĲĠyÃ²ngĠ":12135,"cÃ³ngĠwÃ¨iĠ":12136,"ĠyÄ«ĠrÃ©nĠ":12137,"ĠdÃłoĠhÃ©Ġ":12138,"fÃ¹ĠjÃ¬n":12139,"fÄģngĠxiÃłng":12140,"gÄģoĠdÃ¡Ġ":12141,"Ġ200":12142,"ĠsectionĠĠĠ":12143,"mÄģĠ":12144,"zhÅįngĠyÄģng":12145,"ĠshÃŃĠzhÃ¬Ġ":12146,"ĠdÃłoĠyÄ«Ġ":12147,"qÃ¬ĠxuÃ¡nĠ":12148,"ĠchÇĶĠ":12149,"xÄ«nĠshÃ¬Ġ":12150,"bÄģnĠdeĠ":12151,"zÃ²ngĠ":12152,"tiÄģnĠrÃ¡nĠ":12153,"xuÇİnĠchÅ«Ġ":12154,"cÇİiĠqÇĶ":12155,"wÃ¡nĠzhÄĽngĠ":12156,"ĠtiÄĽĠ":12157,"ĠĠĠD":12158,"yÃŃĠdÃłoĠ":12159,"guÄģnĠcÃ¨Ġ":12160,"ĠyÄĽĠbÃ¹Ġ":12161,"qÄ«ngĠshÃłoĠniÃ¡nĠ":12162,"ĠxÇĶĠduÅį":12163,"ĠshÃ¬ĠjÃ¬ĠdeĠ":12164,"ĠyÇĴuĠdÃłĠ":12165,"Ġ2024":12166,"jiÄģĠgÅįngĠ":12167,"mÇĲĠdeĠ":12168,"luÃ²ĠsÄ«Ġ":12169,"ĠshÃ¬ĠyÃ³u":12170,"mÄĽiĠguÃ³ĠrÃ©nĠ":12171,"ĠzhÇĲĠshÃ¬Ġ":12172,"zhÃłngĠfÅ«Ġ":12173,"ĠÃłn":12174,"xuÃ©ĠbÃ¹Ġ":12175,"ĠyÇĴuĠzhÃ¹Ġ":12176,"fÃ¹ĠjÃ¬nĠdeĠ":12177,"ĠbÄģoĠhÃ¡nĠ":12178,"yÃ¬ĠbÃ¹Ġ":12179,"guÃ³ĠhuÃ¬Ġ":12180,"xÄ«ĠbÄĽiĠbÃ¹Ġ":12181,"ĠtÄģĠrÃ¨nĠwÃ©iĠ":12182,"mÃ¹ĠnÃŃĠ":12183,"ĠtÃ³ngĠpÃ¡iĠ":12184,"kuÃ²ĠzhÇİn":12185,"ĠĠĠN":12186,"sÇĲĠxÃŃngĠ":12187,"qÃ¬ngĠzhÃ¹Ġ":12188,"ĠdeĠgÃ¹ĠshÃ¬Ġ":12189,"zhÃłnĠlÇĲng":12190,"ĠtÃ³ngĠyÃłngĠ":12191,"ĠĠĠgÄĵnĠjÃ¹Ġ2020ĠniÃ¡nĠmÄĽiĠguÃ³ĠrÃ©nĠkÇĴuĠpÇĶĠchÃ¡ĠdeĠshÃ¹ĠjÃ¹Ġ":12192,"ĠdÄĵngĠ":12193,"zuÃ¬ĠwÃ¨iĠ":12194,"guÃ³ĠlÃ¬Ġ":12195,"nÃłĠcuÃ¬":12196,"qÇĶĠxiÄģo":12197,"huÃ¡ngĠsÃ¨Ġ":12198,"zÄĵngĠjiÄģĠleĠ":12199,"bÃ¬ngĠwÃ¨iĠ":12200,"guÃ²ĠyÃºĠ":12201,"fÄĵnĠpÃ¨iĠ":12202,"shÃłngĠhÇİiĠshÃ¬Ġ":12203,"quÃ¡nĠdeĠ":12204,"hÇİiĠshÃłngĠ":12205,"zÇĴngĠhuÃ¬Ġ":12206,"huÃŃĠhÃ©Ġ":12207,"lÇİoĠshÄ«Ġ":12208,"ĠzÃłiĠtÄģĠ":12209,"ĠyÄ«ĠzhÃ¬Ġ":12210,"ĠchÅ«ĠfÄģĠ":12211,"sÃ¨ĠfÅ«Ġ":12212,"xiÄģngĠjÃ¬Ġ":12213,"sÃ¬ĠdÃłĠ":12214,"qiÃ¨ĠÄĽrĠ":12215,"jÄ«ngĠjÃ¬":12216,"liÃ¡nĠjiÃ©Ġ":12217,"ĠkÃ¹":12218,"dÄĽngĠdeĠ":12219,"fÃ¡ngĠwÃ¨iĠ":12220,"40Ġ":12221,"zhÃ³uĠ":12222,"Ġ2003ĠniÃ¡nĠ":12223,"rÃ©ngĠzÃłiĠ":12224,"1947ĠniÃ¡nĠ":12225,"ĠlÃ¬ĠshÇĶĠ":12226,"ĠbÃ¬ngĠrÃ¹Ġ":12227,"xÃ¬ngĠshÃ¬Ġ":12228,"duÃ¬ĠshÇĴuĠ":12229,"zhuÄģnĠmÃ©nĠ":12230,"ĠdeĠjÃ¬ĠlÃ¹Ġ":12231,"shÃ²uĠquÃ¡nĠ":12232,"ĠjÃŃĠxÃŃngĠzhÃ¨ngĠ":12233,"ĠlÃ¬ĠziĠ":12234,"ĠyÄĽĠhuÃ¬Ġ":12235,"bÄģnĠjiÇİngĠ":12236,"ĠÄģĠlÄģĠ":12237,"ÃłiĠdeĠ":12238,"piÃłnĠdeĠ":12239,"lÃ¡iĠzÃ¬ĠyÃºĠ":12240,"ĠbÃ¡i":12241,"fÃºĠlÇĲĠ":12242,"tiÄĵĠ":12243,"ĠxiÄģngĠduÃ¬Ġ":12244,"jiÇİngĠshÃ¹Ġ":12245,"zhÃłoĠkÄģi":12246,"Ġ000ĠrÃ©nĠ":12247,"1973ĠniÃ¡nĠ":12248,"1971ĠniÃ¡nĠ":12249,"yÄ«ĠxiÄĵĠ":12250,"ĠyÇĲĠzhÃ¬Ġ":12251,"zhÃŃĠyÃ¨":12252,"hÇİiĠbÃ¡ĠgÄģoĠ":12253,"xiÃ©ĠdÃ¬ngĠ":12254,"ĠtuÃ¡nĠ":12255,"ÇĴuĠ":12256,"fÃłngĠqÃ¬":12257,"cÃºnĠzÃłiĠdeĠ":12258,"zhuÃłngĠjÄ«Ġ":12259,"ĠniÃ¡nĠqiÃ¡nĠ":12260,"ĠjiÃłnĠkÄģngĠ":12261,"ĠdÅįu":12262,"hÃ©ĠwÃ¨iĠ":12263,"shÄĽngĠdÃłoĠ":12264,"lÃ¡oĠgÅįngĠ":12265,"hantĠ":12266,"xÄ«ĠnÃ¡nĠbÃ¹Ġ":12267,"ĠkÃ¨ĠyÃ¹nĠ":12268,"mÇİĠlÄģĠ":12269,"gÇİiĠgÃ©":12270,"cÄģnĠsÃłi":12271,"nÃ¡nĠjÃŃĠzhÅįuĠdeĠ":12272,"fÃ¹ĠjiÄģĠ":12273,"dÄģnĠyuÃ¡nĠ":12274,"wÇĶĠqÃ¬":12275,"lÃ¨iĠsÃ¬ĠdeĠ":12276,"EĠ":12277,"ĠhantĠ":12278,"mÄĽiĠjÅ«nĠ":12279,"bÄģĠÄĽrĠ":12280,"chuÃłngĠxÄ«nĠ":12281,"qiÇİoĠ":12282,"ĠyÇĴuĠguÄģn":12283,"zhÃ¨ngĠxiÃ©Ġ":12284,"ĠtÄģĠduÃ¬Ġ":12285,"shÄģnĠmÃłiĠ":12286,"xiÄģoĠliÃłngĠ":12287,"ĠsÃ¬ĠchuÄģnĠ":12288,"hÅįngĠzhÃłĠjÄ«Ġ":12289,"ĠĠĠrÃ¡nĠÃ©rĠ":12290,"chÃ¡ngĠjiÃłnĠ":12291,"chuÃ¡nĠzhÄ«Ġ":12292,"lÃ²uĠ":12293,"ĠzhÄ«ĠzhÃłnĠ":12294,"xÃ¬ngĠnÃ©ngĠ":12295,"shÄģĠsÇĲĠ":12296,"ĠxiÇİoĠshuÅįĠ":12297,"yÄ«ĠbÃ¹ĠfÃ¨n":12298,"fÄĵiĠzhÅįu":12299,"tuÃ³Ġ":12300,"1977ĠniÃ¡nĠ":12301,"ĠxiÃłnĠzhÄ«ĠxiÃłnĠ":12302,"shÇĴuĠbÅįĠ":12303,"fÄģĠshÄĵngĠleĠ":12304,"ĠxÃ¬ĠtÇĴng":12305,"shÇĶĠdeĠzhÃŃĠwÃ¹Ġ":12306,"ĠchÄĵĠzhÃłn":12307,"ĠĠĠdÃłn":12308,"zhÃŃĠzhÃ¬Ġ":12309,"diÃłnĠdeĠ":12310,"yÃłoĠdeĠ":12311,"yÃ¡nĠzhÃ²ngĠdeĠ":12312,"ĠlÃ¬ngĠwÃłi":12313,"lÇĲĠbÃ¹Ġ":12314,"mÃ¬ĠsÄ«Ġ":12315,"ĠjiÃłnĠshÃ¬Ġ":12316,"suÇĴĠshÇĶ":12317,"ĠbÃło":12318,"tÃ³uĠbÃ¹Ġ":12319,"neĠ":12320,"ĠyÃ³uĠcÇĲĠ":12321,"zÇĶĠzhÇĲĠ":12322,"ĠdÅįngĠjÄ«ngĠ":12323,"yÃ¹nĠdÃ²ngĠdeĠ":12324,"ĠĠĠRe":12325,"xÄ«ĠshÃ¬Ġ":12326,"jiÄģnĠshÃ¬Ġ":12327,"nÃ¬Ġ":12328,"duÃ¬ĠwÇĶĠ":12329,"zhÇĶĠxÃŃ":12330,"bÄģngĠzhÃ¹":12331,"ĠlÇĲngĠ":12332,"jiÄģngĠtÄģĠ":12333,"nÃłĠdÃ©Ġ":12334,"jiÃłngĠdÄ«":12335,"ĠshÃ¬ĠyÃ¬ĠdÃłĠlÃ¬Ġ":12336,"huÃ¬ĠyÇĲĠ":12337,"teĠ":12338,"hÄĵiĠrÃ©nĠ":12339,"quÇİnĠ":12340,"jÄ«ĠbÄĽnĠ":12341,"ĠzhÄ«ĠliÃºĠ":12342,"ĠshÃ¨ĠjÃ¬ĠdeĠ":12343,"shuÃłiĠlÇĲngĠ":12344,"tÇĶĠÄĽrĠqÃŃ":12345,"huÃ¬ĠshÃ¬ĠdÃ¬Ġ":12346,"huÃ¡nĠxÃŃngĠ":12347,"ĠzÃłiĠyÇĶĠ":12348,"ĠgÅįngĠlÃ¹":12349,"ĠdÃ©ĠdÃłoĠleĠ":12350,"bÃ¹ĠfÃ¨nĠ":12351,"ĠmÇİĠlÃ¬Ġ":12352,"nÃ¡ĠpÃ²Ġ":12353,"ĠliÇİngĠgÃ¨Ġ":12354,"ĠxÅ«ĠyÃłoĠ":12355,"zhÄĽngĠgÃ¨":12356,"alĠ":12357,"xiÄģngĠbÇĲĠ":12358,"cÄģnĠtÄ«ngĠ":12359,"ĠshÃ¬ĠyÄ«ĠzuÃ²Ġ":12360,"zhÅįuĠbiÄģnĠ":12361,"ĠshÃ¬ĠjiÃ¨ĠbÄĵiĠ":12362,"xiÃłĠxiÃ¡ĠyÇĲĠxiÃł":12363,"ĠĠĠL":12364,"ĠxiÃłnĠjÄ«nĠ":12365,"hÃ¡ngĠtiÄģnĠ":12366,"ĠĠĠ3ĠyuÃ¨Ġ":12367,"ĠĠĠaĠĠĠ":12368,"zhÇİngĠdÃłĠ":12369,"luÃ³ĠdÃ©Ġ":12370,"ĠdÃłĠliÃłng":12371,"shuÄģngĠdÇİĠ":12372,"ĠguÄģnĠfÄģngĠ":12373,"zÃ¬ĠwÃ¨iĠ":12374,"wÄģĠ":12375,"yÃŃĠchÇİn":12376,"shÃłngĠbÃ¹Ġ":12377,"yÃ¡nĠshÃŃĠ":12378,"ĠlÃ¬ĠyÃ²ng":12379,"ĠxÃŃngĠshÇĲĠ":12380,"ĠlÇļ":12381,"ĠhuÃ¡nĠ":12382,"ĠĠĠJ":12383,"100Ġ":12384,"zÇĴngĠcÃ¡iĠ":12385,"gÃ©ĠÄĽrĠ":12386,"ĠnÃ¡nĠziĠ":12387,"ĠshÄĵngĠzhÇİngĠyÃºĠ":12388,"ĠqÃŃnĠ":12389,"ĠĠĠ2007":12390,"zhÇĲĠdeĠ":12391,"lÃłĠ":12392,"ĠgÅįngĠchÇĲ":12393,"ĠqiÃºĠhuÃ¬Ġ":12394,"chuÃ¡nĠmÃ©iĠ":12395,"hÇİiĠbÃ¡ĠgÄģoĠdÃ¹ĠwÃ¨iĠ":12396,"ĠzhuÄģnĠjÃŃĠ":12397,"ĠĠĠ2018ĠniÃ¡nĠ":12398,"jÃ¬ĠzÃłiĠ":12399,"xÄ«nĠrÃ©nĠ":12400,"bÄĽnĠxiÃłnĠ":12401,"cÇĲĠshÃŃĠ":12402,"zhÄĽĠwÃ¨iĠ":12403,"nuÃ²ĠyÄ«Ġ":12404,"ĠhÃ©ĠlÇĲĠ":12405,"ĠjÃŃĠlÃŃnĠ":12406,"xiÄģngĠtÃ³ngĠdeĠ":12407,"ĠzhÅįngĠguÃ³ĠguÃ³ĠmÃŃnĠ":12408,"2ĠrÃ©nĠ":12409,"ĠhÃ¡n":12410,"ĠzhÃ¨ĠshÇĴuĠ":12411,"yÄ«ngĠgÄģi":12412,"guÄģngĠxÃ¹Ġ":12413,"wÇĶĠyuÃ¨Ġ":12414,"dÄģnĠyÄ«Ġ":12415,"yÄ«ngĠlÇĲĠ":12416,"biÃ©ĠdeĠ":12417,"yÃ³uĠtÃłiĠrÃ©nĠ":12418,"yÃłĠmÃ¹Ġ":12419,"ĠdeĠchÃ©ngĠzhÃ¨nĠ":12420,"ĠbÄģoĠ":12421,"lÄģĠÄĽrĠ":12422,"xÃºnĠqiÃºĠ":12423,"ĠbÃ¹ĠÄĽrĠ":12424,"ĠxÃŃngĠxiÃłngĠ":12425,"ĠwÃ©iĠchÃŃĠ":12426,"yÇĲnĠzhÇĴngĠ":12427,"1ĠgÃ¨Ġ":12428,"bÃºĠyÃłoĠ":12429,"shÄģngĠdeĠ":12430,"cÅįngĠ":12431,"ĠbÃ¹ĠdÃŃĠ":12432,"ĠyÃºĠlÃ¨iĠ":12433,"ĠjiÄģngĠqÃŃĠ":12434,"ĠĠĠ5ĠyuÃ¨Ġ":12435,"28Ġ":12436,"ĠzÃłiĠgÄģiĠ":12437,"ĠguÃ³ĠmÃŃn":12438,"yÃŃngĠyÃ¨Ġ":12439,"dÇĲĠkÃłngĠ":12440,"wÄĽiĠfÃ¹ĠshÅ«ĠjÃ¬Ġ":12441,"ĠV":12442,"wÇĶĠdÃ¬Ġ":12443,"sÄ«ĠlÃ¡nĠ":12444,"ĠkÃ¨ĠlÄģĠ":12445,"qiÄģnĠyuÄĵĠ":12446,"ĠjiÃłoĠyÃ¹":12447,"cÄģnĠyÃ¹ĠleĠ":12448,"ĠyÅįuĠ":12449,"zhÃŃĠyuÃ¡nĠ":12450,"1962ĠniÃ¡nĠ":12451,"ĠyÄ«ĠcÃŃĠ":12452,"ĠyÄ«ĠliÃ¡oĠ":12453,"qiÄģnĠdÃ¬ngĠ":12454,"ĠliÃºĠyÃ¹Ġ":12455,"Ġ000Ġ":12456,"ĠwÃ¨iĠcÇĲĠ":12457,"ĠhÃ©ĠjÃŃĠ":12458,"ĠqÃŃĠzhÅįngĠnÃ¡nĠxÃ¬ngĠ":12459,"Ã©ĠwÃ¨iĠ":12460,"jiÃłoĠyÃºĠ":12461,"gÄĵĠdeĠ":12462,"huÃ¡iĠyÃŃĠ":12463,"ĠdÃ¬ĠmiÃłnĠ":12464,"tÇĲĠyÃ¹":12465,"mÄĽiĠyuÃ¡nĠdeĠ":12466,"cÃ©ngĠshuÇĲĠyÃ¹Ġ":12467,"rÃ³ngĠnÃłĠ":12468,"ĠjiÃ©ĠgÃ²uĠ":12469,"gÇĶĠfÃ¨nĠyÇĴuĠxiÃłnĠgÅįngĠsÄ«Ġ":12470,"zhuÃłnĠdeĠxiÇİoĠxÃŃngĠxÄ«ngĠ":12471,"ĠĠĠpÃŃngĠjiÃłĠ":12472,"ĠhÃ²uĠqÄ«Ġ":12473,"ĠkÃ¨ĠlÃ¡iĠ":12474,"jiÄĵĠrÃ¨nĠ":12475,"zhÇĲĠdÃ¬ngĠ":12476,"xiÃłoĠyÃ¬ngĠ":12477,"zĠ":12478,"yÃ³uĠqÃŃĠ":12479,"liÃ¡ngĠshÃŃĠ":12480,"ĠshÃ¬ĠnÃ¨iĠ":12481,"yuÃ¨ĠnÃ¡nĠ":12482,"ĠdÃ¬Ġ1Ġ":12483,"jÃ¬ngĠsÃłiĠ":12484,"ĠdeĠdÃ¬ĠÃ¨r":12485,"mÃ²ĠsÄ«ĠkÄĵĠ":12486,"ĠxÇĶĠ":12487,"yÃ³uĠrÃ©nĠgÅįngĠ":12488,"zhÇİngĠwÃ¨iĠ":12489,"gÄĵĠjÃ¹Ġ":12490,"ĠshÃ¬ĠxÄ«Ġ":12491,"ĠyÄ«ĠzhÄ«Ġ":12492,"ĠshÃ¨ĠjÄ«Ġ":12493,"ĠjiÃłnĠlÃ¬ĠleĠ":12494,"ĠjÇĲĠ":12495,"ĠwÅ«ĠkÃ¨ĠlÃ¡nĠ":12496,"ĠĠĠchÃºĠleĠ":12497,"chÃ¡oĠdeĠ":12498,"tuÄ«ĠchÅ«ĠdeĠ":12499,"ruÇİnĠtÇĲĠ":12500,"gÇİnĠlÇİn":12501,"ĠsÃº":12502,"mÃ©nĠdeĠ":12503,"ĠshÃŃĠyÃ²ngĠ":12504,"tuÄ«ĠguÇİngĠ":12505,"zhÅįngĠxÄ«nĠ":12506,"ĠqÇĲng":12507,"ĠchÃ©ngĠshÃ¬Ġ":12508,"shÃ¹ĠshÃ¬Ġ":12509,"ĠjiÃłnĠwÃ¨iĠ":12510,"bÄģĠlÄģĠ":12511,"ĠchÃ¡oĠxiÄģnĠ":12512,"ĠÄĽrĠdÃ©":12513,"shuÃ²ĠshÃ¬ĠxuÃ©ĠwÃ¨iĠ":12514,"huÃ¡ĠshÃ¨ngĠdÃ¹n":12515,"yÃ¹nĠhÃ©Ġ":12516,"yÃ¡ngĠxiÃłnĠ":12517,"wÃ©iĠzhÇĲĠ":12518,"cÇİiĠfÇİng":12519,"ĠtÅįngĠguÃ²":12520,"zhÄ«ĠyuÃ¡nĠ":12521,"gÃ¨ĠdÃ¬Ġ":12522,"biÄģnĠhÃłoĠwÃ¨iĠ":12523,"ĠzhÃ¬ĠzÃło":12524,"ĠyÄ«ĠtiÃ¡oĠ":12525,"kÄģiĠzhÇİnĠ":12526,"fÇİĠtÃŃngĠ":12527,"ĠqiÃºĠchÇİngĠ":12528,"qÃºnĠtÇĲĠ":12529,"leĠyÄ«ĠxiÄĵĠ":12530,"ĠgÅįngĠchÃ©ngĠshÄ«Ġ":12531,"wÃ¹ĠzhÅįngĠ":12532,"lÃŃĠmÇĲĠ":12533,"mÃ©ngĠjÅ«nĠ":12534,"1938ĠniÃ¡nĠ":12535,"luÃ³ĠbÃ³ĠtÃ¨Ġ":12536,"zÇĴngĠjiÄģnĠ":12537,"ĠzÃłiĠdÃ¬ĠÃ¨rĠ":12538,"pÃŃngĠjÅ«nĠhÇİiĠbÃ¡ĠgÄģoĠdÃ¹ĠwÃ¨iĠ":12539,"ĠmÇİn":12540,"ĠwÃ¡nĠchÃ©ngĠ":12541,"Ġ11Ġ":12542,"ĠĠĠjÄ«ngĠjÃ¬Ġ":12543,"zhÃŃĠlÃ¬Ġ":12544,"ĠwÃ¨iĠmÃŃngĠ":12545,"ĠwÃ¨iĠyÃºĠzhÅįngĠhuÃ¡ĠrÃ©nĠmÃŃnĠgÃ²ngĠhÃ©ĠguÃ³Ġ":12546,"lÃŃĠziĠ":12547,"ĠrÃ©nĠmÃŃnĠbÃ¬Ġ":12548,"dÅ«ĠdÅ«Ġ":12549,"ĠwÅ«":12550,"ĠxÄ«ĠyÇĲnĠ":12551,"jiÇİnĠdÄģnĠ":12552,"dÄĵngĠchÃ¡ngĠ":12553,"mĠĠĠ":12554,"ĠpÃ¡iĠ":12555,"yÃ¡ngĠgÅįngĠ":12556,"gÅįngĠkÄģiĠ":12557,"ĠyÇĴuĠlÃ¬Ġ":12558,"ĠtÄģĠyÄĽ":12559,"bÄĽnĠtÇĶĠ":12560,"ĠÃ©rĠgÄģiĠdÃ¬ĠdeĠpÃŃngĠjÅ«nĠhÇİiĠbÃ¡ĠgÄģoĠdÃ¹ĠwÃ¨iĠ":12561,"Ġ9Ġ":12562,"ÄģĠÄĽr":12563,"shÄ«ĠrÃ©nĠ":12564,"fÄĵngĠdeĠ":12565,"nÃŃĠxÄ«ĠyÃłĠ":12566,"cÃ¹ĠjÃ¬n":12567,"hÇİnĠmÃ²":12568,"1939ĠniÃ¡nĠ":12569,"ĠzÃłiĠrÃ¬ĠbÄĽnĠ":12570,"lÃ¹ĠzhÃłnĠ":12571,"jiÄĵĠshÅįuĠ":12572,"ĠĠĠtiÄģnĠ":12573,"lÃ¬ĠzhÅįngĠ":12574,"2010ĠniÃ¡nĠmÄĽiĠguÃ³ĠrÃ©nĠkÇĴuĠpÇĶĠchÃ¡ĠdeĠshÃ¹ĠjÃ¹Ġ":12575,"jÄ«ĠshÃ¬Ġ":12576,"chÅ«ĠdÃłoĠ":12577,"yÇİnĠchÅ«":12578,"yÃ¬ngĠduÃ¬Ġ":12579,"1965ĠniÃ¡nĠ":12580,"xuÃ©ĠxÃŃ":12581,"ĠzhÄ«ĠqiÃ¡n":12582,"fÇİĠlÃ¡nĠ":12583,"miÃłnĠlÃŃnĠ":12584,"yÇĲnĠzhÇĴngĠzÄģiĠpÃ©iĠ":12585,"ĠsÃł":12586,"ĠpÃłiĠ":12587,"ĠyÃºnĠnÃ¡nĠ":12588,"qÇĲĠleĠ":12589,"liÃ¨ĠshÃ¬Ġ":12590,"zÃºĠqiÃºĠduÃ¬Ġ":12591,"ĠdÃłĠqiÃ¡oĠ":12592,"huÃłnĠzhÄĽĠ":12593,"chÅ«ĠrÃ¨nĠ":12594,"shuÅįĠshÃ¬Ġ":12595,"kmĠ":12596,"ĠjÃŃĠshÇĲ":12597,"rÃ¹ĠqÄ«n":12598,"shÄĽngĠwÄĽiĠ":12599,"ĠxÄ«nĠzÄĵng":12600,"xÃºnĠhuÃ¡nĠ":12601,"ĠzhÇĲĠchÅ«Ġ":12602,"shÄĽnĠchÃ¡Ġ":12603,"fÄĵiĠlÇľĠbÄ«n":12604,"kÇİĠluÃ³ĠlÃ¡iĠ":12605,"3ĠrÃ©nĠ":12606,"ĠzhÄĽngĠ":12607,"ĠÅįuĠzhÅįuĠ":12608,"yuÃ¡nĠdÃ¬Ġ":12609,"shÄĵnĠshÃłngĠ":12610,"pÇĲĠ":12611,"ĠzÃłiĠbÄĽiĠ":12612,"wÃ©iĠÄĽr":12613,"ĠxÄ«ĠxÄ«Ġ":12614,"hÄĽnĠduÅį":12615,"ĠshÃ¨nĠ":12616,"zhÄĽngĠhÃ©Ġ":12617,"1936ĠniÃ¡nĠ":12618,"jÄ«ĠbÇİiĠ":12619,"ĠjÄ«ĠyÄ«nĠ":12620,"dÃ²ngĠhuÃł":12621,"zhÇİngĠyuÄĵĠ":12622,"suÇĴĠchÃ¹ĠdeĠhÇİiĠbÃ¡ĠwÃ¨iĠgÄģoĠyÃºĠhÇİiĠpÃŃngĠmiÃłnĠ":12623,"nÃłĠxiÄĵĠ":12624,"chuÃ¡nĠbÅį":12625,"gÇİngĠkÇĴuĠ":12626,"zhÇİnĠkÄģi":12627,"xÄ«nĠjiÄģĠpÅįĠ":12628,"yÃ³uĠrÃ©nĠgÅįngĠyÇĲnĠzhÇĴngĠzÄģiĠpÃ©iĠ":12629,"ĠĠĠjÃ¬Ġ":12630,"qÃŃngĠxÃŃngĠ":12631,"boĠ":12632,"tÄģiĠ":12633,"qÃŃngĠxÃ¹Ġ":12634,"yÇĴngĠjiÇĶĠ":12635,"rÃ¨ĠdÃłiĠfÄĵngĠbÃłoĠ":12636,"ĠhÃ¨":12637,"1959ĠniÃ¡nĠ":12638,"tÅįngĠxÃ¹nĠ":12639,"jÅ«ĠmÃŃnĠdiÇİnĠ":12640,"1ĠrÃ©nĠ":12641,"ĠjÇĲ":12642,"jÃ¬ĠjÃŃĠ":12643,"ĠzhÄ«ĠfÇĶĠ":12644,"ĠshÃ¨ĠhuÃ¬":12645,"ĠzhÇĶĠchÃŃĠ":12646,"ĠhÃłnĠzÃºĠ":12647,"ĠĠĠ2017ĠniÃ¡nĠ":12648,"yÇĶĠshÃ¬Ġ":12649,"dÃ²ngĠgÅįngĠ":12650,"lÇĶĠkÃ¨Ġ":12651,"ĠbÃ¹ĠjiÄģĠ":12652,"ĠyÇĲĠshÃłngĠdeĠ":12653,"ĠyÇĶĠcÇĲĠtÃ³ngĠshÃŃĠ":12654,"mÇĲĠyÃłĠ":12655,"cÃ¨ĠliÃ¡ng":12656,"fÄĵnĠbiÃ©ĠwÃ¨iĠ":12657,"sÃ¬ĠmÃŃngĠ":12658,"bÄ«ngĠbÃ¹Ġ":12659,"35Ġ":12660,"ĠdeĠyÄ«ĠxiÄĵĠ":12661,"dÇĲĠdÃ¡":12662,"ĠsuÃŃĠzhe":12663,"ĠsÅ«ĠliÃ¡nĠ":12664,"liÇİoĠjiÄĽ":12665,"zhÇĲĠyÃºĠ":12666,"cÃ¬ĠwÃ¨iĠ":12667,"guÃłiĠ":12668,"gÇĴngĠ":12669,"1935ĠniÃ¡nĠ":12670,"zÇĶĠchÃ©ng":12671,"gÃłoĠsÃ¹Ġ":12672,"fÄģĠzhÇİnĠdeĠ":12673,"ĠĠĠTheĠĠĠ":12674,"yÇĲĠhÃ²uĠ":12675,"duÃ¬ĠhÃ©Ġ":12676,"gÃ©ĠlÃ¬Ġ":12677,"dÄĵngĠjÃ¬Ġ":12678,"1967ĠniÃ¡nĠ":12679,"ĠsÄ«ĠkÇİĠ":12680,"ĠwÃ©iĠyÃłĠ":12681,"jiÃ¨ĠshÃło":12682,"ĠzhÅįngĠguÃ³ĠdÃłĠlÃ¹ĠdeĠ":12683,"xiÃłĠxiÃ¡ĠyÇĲĠxiÃłĠdÃ¬ĠqÅ«Ġ":12684,"chÅ«ĠshÄĵngĠ":12685,"enĠ":12686,"yÇİnĠshÄĵngĠ":12687,"dÃłĠshÇĲĠ":12688,"ĠxÄ«ĠÄģnĠ":12689,"jÃ¹ĠqÃŃngĠ":12690,"fÄĵiĠfÇİĠ":12691,"ĠjiÃłoĠshÃ²uĠ":12692,"chuÃłngĠbÃłnĠ":12693,"bÃ¡iĠzhÃ¬Ġ":12694,"ĠzhÃ¬ĠliÃ¡o":12695,"zhuÄģngĠjiÇİ":12696,"zhuÃłngĠkuÃłng":12697,"ĠbÃ¬ĠyÃ¨ĠyÃºĠ":12698,"ĠÃłoĠdÃłĠlÃ¬Ġ":12699,"xÃºnĠyÃ¡ngĠjiÃłnĠ":12700,"liÃºĠdeĠ":12701,"mÄģoĠ":12702,"ĠbÃ¹ĠbiÃłnĠ":12703,"shÇĴuĠxÃŃĠ":12704,"wÃ©nĠhuÃłĠdeĠ":12705,"HĠ":12706,"ĠĠĠ2016ĠniÃ¡nĠ":12707,"kÅįngĠjÅ«n":12708,"shÃ¹nĠshÃŃĠ":12709,"ĠchÅ«ĠxÃŃĠ":12710,"wÄĵiĠxiÇİnĠ":12711,"ĠzhÃ¨ĠbÃ¹Ġ":12712,"ĠniÃ¡nĠ7ĠyuÃ¨Ġ1ĠrÃ¬Ġ":12713,"wÃ¨nĠtÃŃĠdeĠ":12714,"ĠjÃ¬nĠshÃ¬ĠchÅ«ĠshÄĵnĠ":12715,"ĠgÃłiĠ":12716,"hÃ¹ĠbÃ¹Ġ":12717,"ĠzhÃ¬ĠshÇİo":12718,"ĠxiÃłnĠrÃ¹Ġ":12719,"nÃ¡nĠfÄģngĠ":12720,"ĠbÃ¨iĠqÃŃĠ":12721,"ĠqÃŃĠzhÅįngĠnÃ¡nĠ":12722,"mÃ¡oĠzÃ©ĠdÅįngĠ":12723,"ziĠhÃ©Ġ":12724,"dÃ¡ĠÄĽrĠ":12725,"lÇĶĠshÃ¬Ġ":12726,"hÇİnĠ":12727,"ĠbÃ¹ĠzhÃ¬Ġ":12728,"ĠdÃ¬ĠsÄ«Ġ":12729,"zÄ«ĠshÄĽngĠ":12730,"tÃºĠxiÃłngĠ":12731,"guÄ«ĠfÃłnĠ":12732,"pÃŃnĠlÇľĠ":12733,"ĠtÄģng":12734,"Ġãĥ¼":12735,"ĠĠĠ10ĠyuÃ¨Ġ":12736,"ĠzhÅįngĠzuÃ¬Ġ":12737,"ĠjÃ¬ĠniÃłn":12738,"pÃłnĠjuÃ©Ġ":12739,"gÃ²ngĠchÇİnĠzhÇĶĠyÃ¬Ġ":12740,"ĠyÇĲĠsÃ¨ĠliÃ¨":12741,"ĠĠĠbÄĽiĠ":12742,"yÃ¹ĠjÃ¬Ġ":12743,"duÅįĠgÃ¨":12744,"qÇĶĠjiÄģĠ":12745,"jÃºĠjÃºĠzhÇİngĠ":12746,"fÃ¡nĠzhÃŃĠ":12747,"liÇĶĠ":12748,"gÄģnĠsÃ¹Ġ":12749,"ĠdÄģnĠrÃ¨n":12750,"zÃ¬ĠxÃŃngĠchÄĵĠ":12751,"Ġ2005":12752,"miÃ¡oĠhuÃ¬Ġ":12753,"HDĠĠĠ":12754,"ĠyÄ«ĠmÃ©iĠ":12755,"fÄĵnĠlÃ¨i":12756,"ĠpÃŃngĠjiÃłĠ":12757,"duÅįĠyÃłngĠ":12758,"ĠnÃ¡nĠbÄĽiĠ":12759,"fÄĵiĠlÃ¬Ġ":12760,"1963ĠniÃ¡nĠ":12761,"ĠsÄ«ĠxiÇİngĠ":12762,"yÃ¡nĠzhÃ²ng":12763,"dÄģngĠjÃºĠ":12764,"ĠshÃ¬ĠzhÅįngĠxÄ«nĠ":12765,"shÃłoĠjiÃłngĠ":12766,"ĠĠĠlÃ¬ngĠwÃłiĠ":12767,"hÃ²uĠshÃ¬Ġ":12768,"zhÃ¹ĠdÃ¬Ġ":12769,"yÇĲnĠshÃŃĠ":12770,"1953ĠniÃ¡nĠ":12771,"ĠshÃ¬ĠwÅ«ĠkÃ¨ĠlÃ¡n":12772,"zhÇĶĠchÇİngĠ":12773,"ÃłnĠzhÃłoĠ":12774,"ĠgÅįngĠzuÃ²ĠshÃ¬Ġ":12775,"cÄģnĠmÃ³uĠzhÇİngĠ":12776,"ĠchÅ«nĠ":12777,"xiÃłngĠxÄ«Ġ":12778,"Ã¨rĠzhÃłnĠ":12779,"ĠchÃ©ngĠshÃ¬ĠdeĠ":12780,"ĠzhÄ«ĠjÃ¬Ġ":12781,"ĠdÃłĠjiÄģĠ":12782,"ĠmÃŃngĠchÄĵng":12783,"ĠtÃ³ngĠyÄ«Ġ":12784,"jiÄģoĠhuÃłnĠ":12785,"ĠhÃ©ĠbÃ¬ngĠwÃ¨iĠ":12786,"ĠĠĠzhÃ¹Ġ":12787,"yÇĶĠyÇĲĠ":12788,"zÃ©ĠyÇĴuĠ":12789,"luÃ²ĠdeĠ":12790,"lÃŃngĠdeĠ":12791,"kÄĵĠfÅ«":12792,"gÇİiĠshÃłn":12793,"dÄģngĠxuÇİn":12794,"ĠgÅįngĠkÄģiĠsÃłiĠ":12795,"hÅįngĠzhÃłĠ":12796,"ĠfÄĵnĠbiÃ©ĠwÃ¨iĠ":12797,"ĠnÃ¨i":12798,"zhÃ¨ĠbÃ¹Ġ":12799,"bÇİoĠzhÃ¨ngĠ":12800,"xuÄĵĠ":12801,"ĠyÃºĠdÃ¬Ġ":12802,"rÃ¹ĠxuÇİn":12803,"shÄģngĠwÃ¡ngĠ":12804,"biÄģnĠjÃ¬ngĠ":12805,"ÄģiĠnÃłĠ":12806,"cÃ¬ĠdÃłĠ":12807,"shÄĵnĠzhÃ¨n":12808,"chÅ«ĠshÄĵngĠyÃºĠ":12809,"ĠĠĠ4":12810,"ĠdÃ¬ĠguÃ³ĠdeĠ":12811,"bÃłoĠzhÇĲĠ":12812,"gÇİiĠbiÄģnĠ":12813,"guÇİngĠgÃło":12814,"zÄĵngĠqiÃ¡ngĠ":12815,"qÃºnĠdeĠ":12816,"ĠzÃłiĠjÄ«Ġ":12817,"ĠjiÃłnĠhÃ©Ġ":12818,"bÇİoĠcÃºnĠ":12819,"ĠrÃ¨Ġ":12820,"jÄ«ĠbÃ¹Ġ":12821,"zhÄ«ĠmÃŃngĠ":12822,"rÃ¹ĠdeĠ":12823,"guÃ³ĠnÃ¨iĠ":12824,"ĠgÅįngĠzhÃłnĠ":12825,"ĠyÇĲĠnÃ¡nĠ":12826,"xiÃłnĠfÇİĠ":12827,"zÇĲĠnÇļĠ":12828,"wÃºĠrÃ©nĠjÄ«Ġ":12829,"chuÃłnĠ":12830,"1941ĠniÃ¡nĠ":12831,"ĠxÃŃngĠchÃ©ngĠdeĠ":12832,"qÅ«ĠfÄĵnĠ":12833,"bÄģĠfÃ¡":12834,"bÃłnĠyÇİnĠ":12835,"Ġ15Ġ":12836,"ĠchÃ¹Ġ":12837,"ĠbÇĶĠ":12838,"Ġ1998ĠniÃ¡nĠ":12839,"cÇĲĠzhÄ«ĠwÃłiĠ":12840,"sÄ«ĠxiÇİngĠ":12841,"ĠdÃłĠshÄ«Ġ":12842,"ĠchÅ«ĠxiÃłnĠleĠ":12843,"miÃ¡oĠshÃ¹":12844,"ĠdeĠmÃŃngĠzÃ¬Ġ":12845,"ĠgÇİiĠwÃ©iĠ":12846,"1969ĠniÃ¡nĠ":12847,"ĠdÃłnĠyÄ«nĠ":12848,"shÄģĠhÃłiĠ":12849,"ĠxiÃ¡Ġ":12850,"xiÃłĠdeĠyÃŃĠgÃ¨Ġ":12851,"huÃ²ĠshÃ¬Ġ":12852,"wÃłiĠwÃ©iĠ":12853,"chuÃŃĠ":12854,"ĠdÃłĠzhÃ²ngĠ":12855,"shÃ²uĠhÃłiĠ":12856,"ĠfÄĵnĠbiÃ©ĠshÃ¬Ġ":12857,"zhÇĲĠhuÄ«ĠguÄģnĠ":12858,"wÃ©nĠzhÅįngĠ":12859,"bÅįĠÄĽrĠ":12860,"ĠyuÃ¨ĠtÃ¡i":12861,"ĠnÃ¡nĠjÄ«ngĠ":12862,"bÃ¬ngĠmÃ©iĠyÇĴuĠ":12863,"jiÃłoĠyÃ¹ĠbÃ¹Ġ":12864,"YĠ":12865,"gÃ²ngĠshÃŃĠ":12866,"bÇİiĠniÃ¡nĠ":12867,"ĠwÃ¨iĠyÃ³uĠ":12868,"miÃłnĠtÇĲĠ":12869,"yÄ«ngĠguÃ³ĠdeĠ":12870,"cÃ¡iĠwÃ¹Ġ":12871,"yÃ¡nĠjiÅ«ĠyuÃłnĠ":12872,"fÄĵnĠzhÄ«ĠyÄ«Ġ":12873,"ĠyuÃ¡nĠshÇĲĠ":12874,"ĠÄĽrĠzÃłiĠ":12875,"fÇİĠlÃ¬ngĠ":12876,"jÇĲngĠguÄģnĠ":12877,"ĠyÃłnĠ":12878,"ĠpÃ©iĠ":12879,"ĠniÇĶĠyuÄĵ":12880,"ĠĠĠ2006":12881,"nuÃ²ĠsÄ«Ġ":12882,"26Ġ":12883,"1980ĠniÃ¡nĠdÃłiĠ":12884,"ĠshÄĵngĠzhÇİngĠyÃºĠhÇİiĠbÃ¡":12885,"ĠpiÃłnĠ":12886,"ĠdeĠxiÇİoĠ":12887,"mÇİĠtÃ³uĠ":12888,"bÃłnĠniÃ¡nĠ":12889,"shÃ¨ngĠdÃ¬Ġ":12890,"ĠdÃłoĠshÃ¬Ġ":12891,"ĠdÃłĠxÃŃng":12892,"jÄ«ngĠyÃŃng":12893,"zhÇİnĠlÇİn":12894,"ĠmÇĲĠdeĠdÃ¬ĠqÅ«Ġ":12895,"gÄģoĠyuÃ¡nĠ":12896,"chÄĵngĠhÃłoĠ":12897,"cÃ©ngĠshÃ¬Ġ":12898,"tÃ¡oĠyuÃ¡nĠ":12899,"ĠzÃłiĠyÄ«ngĠguÃ³Ġ":12900,"hÃ²uĠlÃ¡iĠ":12901,"ĠzhÃ¨ĠyÃłngĠdeĠ":12902,"ĠnÃŃngĠ":12903,"diÇİnĠwÃ¨iĠ":12904,"ĠwÃ¨iĠbÃ¨iĠ":12905,"ĠhÃ©ĠfÇİĠ":12906,"ĠyÃ¬Ġsi":12907,"ĠpÃŃngĠlÃ¹n":12908,"ĠshÃłngĠshÅ«Ġ":12909,"hÃ¡ngĠyÃ¨Ġ":12910,"pÃłnĠluÃłnĠ":12911,"ĠxÄ«nĠjiÄģĠ":12912,"Ġ1990":12913,"mÇİĠdeĠ":12914,"qÃŃngĠjiÃ©Ġ":12915,"ĠmÃ¹ĠqiÃ¡nĠshÃłngĠwÃ¨iĠ":12916,"Ġ2000":12917,"ĠkÅįngĠ":12918,"ĠyÃ¡oĠ":12919,"tÅ«ĠchÅ«Ġ":12920,"ĠdÃłoĠbÃ¹Ġ":12921,"pÃŃngĠmÃŃnĠ":12922,"guÄģnĠfÃ¨iĠyÃ¡nĠ":12923,"ĠzuÃ²ĠchÅ«":12924,"ĠyÃ¬ĠmÃŃngĠ":12925,"ĠyÇĲĠshÃ¬Ġ":12926,"ĠxiÃłnĠdeĠyÃŃĠgÃ¨ĠfÄĵiĠjiÃłnĠzhÃ¬ĠdÃ¬ĠqÅ«Ġ":12927,"ÃłiĠguÃ³Ġ":12928,"ĠyÃ¬ĠjÃŃĠ":12929,"fÃ¡ngĠzhÇĲĠ":12930,"dÃ²uĠzhÄĵngĠ":12931,"wÃ¹ĠzhÇĴngĠdeĠ":12932,"fĠ":12933,"ĠchÄģo":12934,"shÃłngĠyÄ«Ġ":12935,"ĠhÃ©ĠtÄģĠdeĠ":12936,"ĠyÇĶĠdÃłĠ":12937,"jÄ«ngĠguÃ²":12938,"jiÃłoĠshÃ²u":12939,"yĠĠĠ":12940,"luÃ³ĠjÃŃĠ":12941,"hÃ³ngĠjÅ«nĠ":12942,"kÄģĠfÄĵiĠ":12943,"ĠrÃ¨nĠmÃ¬ng":12944,"tiÄģnĠhuÃ¡ngĠ":12945,"sÄģiĠnÃłĠ":12946,"lÃ¡iĠsÄ«Ġ":12947,"hÇİoĠyÇĴuĠ":12948,"ĠzhÅįngĠgÃ²ngĠzhÅįngĠyÄģng":12949,"miÃłnĠshÃ¬Ġ":12950,"chÃ³uĠbÃ¨iĠ":12951,"lÇĲngĠyÃ¹":12952,"shÇĲĠyÃ²ngĠleĠ":12953,"yuÃ¡nĠzhÅįngĠ":12954,"teĠĠĠ":12955,"ĠyuÃ¡nĠzÃ©Ġ":12956,"zuÃ²ĠchÅ«":12957,"dÅįngĠnÃŃĠ":12958,"chÃ¡ngĠqÄ«":12959,"xiÇİngĠfÇİĠ":12960,"pÇĲnĠpÃ¡i":12961,"mÃ¬ngĠlÃ¬ng":12962,"tiÄģnĠjiÄģĠ":12963,"nÃŃĠdeĠ":12964,"ĠzhÄ«ĠchÃ¹Ġ":12965,"dÃłiĠlÃ¡iĠ":12966,"ĠdÄģngĠxuÇİn":12967,"ĠzhÇĶ":12968,"ĠmÃŃn":12969,"ĠniÃºĠ":12970,"Ġ20Ġ":12971,"fÃºĠÄĽrĠ":12972,"dÃ¬ngĠzÃłiĠ":12973,"hÃ¡ngĠxiÃłnĠ":12974,"ĠjÄ«ĠdÅ«ĠjiÃłoĠ":12975,"ĠtÃ³ngĠrÃ¬Ġ":12976,"ĠxÃŃngĠzhÃ¨ngĠzhÃ¨nĠqÅ«Ġ":12977,"ĠĠĠ2021ĠniÃ¡nĠ":12978,"hÄĵngĠ":12979,"ĠdeĠlÇĲĠ":12980,"ĠdeĠxÄ«Ġ":12981,"ĠshÃ¬ĠnÃ¡nĠjÃŃĠzhÅįuĠdeĠ":12982,"ĠwÃ¨iĠqÃŃĠ":12983,"ĠhÃ©ĠdÃło":12984,"ĠwÃ©i":12985,"ĠtÃºn":12986,"Ġ1999ĠniÃ¡nĠ":12987,"ĠĠĠsuÃŃĠ":12988,"1961ĠniÃ¡nĠ":12989,"ĠshÃŃĠdÃłiĠdeĠ":12990,"ĠzuÃ²ĠbiÄģoĠwÃ¨iĠ":12991,"xÃ¬ngĠbiÃ©Ġ":12992,"chÃ¡ngĠjiÄģngĠ":12993,"ĠzuÃ¬ĠchÅ«":12994,"ĠĠĠ6Ġ":12995,"ĠbÃ¹ĠdÃ©Ġ":12996,"lÃ¬ĠyÃ²ngĠ":12997,"qÃ¬ĠtÇĲĠ":12998,"chÇİnĠyÃ¨":12999,"ĠdÃ¬ĠÃ¨rĠcÃ¬Ġ":13000,"ÃłoĠsÄ«ĠkÇİĠ":13001,"ĠjiÇİoĠ":13002,"ĠxiÃ³ngĠ":13003,"ĠĠĠzhÃłnĠ":13004,"huÃ¬ĠjÃŃĠ":13005,"zuÃ²ĠzhÅįngĠ":13006,"pÇĲnĠzhÃ¬Ġ":13007,"bÄ«nĠshÃ¬Ġ":13008,"ĠgÅįngĠjÄ«nĠ":13009,"shÄ«ĠbÃłi":13010,"fÃºĠhÃłoĠ":13011,"ĠĠĠÃ©r":13012,"ĠĠĠzhÇĶĠyÃłoĠ":13013,"gÄĵĠÄĽrĠ":13014,"chÄĵngĠwÃ©i":13015,"shÃ¨ĠhuÃ¬ĠzhÇĶĠyÃ¬Ġ":13016,"dÃłngĠÃłnĠ":13017,"yÃŃngĠdÃ©ĠleĠ":13018,"ĠshÃ²uĠdÃłoĠ":13019,"29Ġ":13020,"1957ĠniÃ¡nĠ":13021,"ĠgÅįngĠzuÃ²ĠdeĠ":13022,"ĠyÇĶĠzhÃ²u":13023,"chÇİngĠjÇĲngĠ":13024,"ĠzhÃ¨ĠcÃ¬Ġ":13025,"ĠniÃ¡nĠ12ĠyuÃ¨Ġ31ĠrÃ¬Ġ":13026,"ĠcÃ©ngĠzÃłiĠ":13027,"zhÃłnĠzhÃ¬Ġ":13028,"zhÃłnĠjÃ¬Ġ":13029,"wÇĶĠmÃŃngĠ":13030,"chÇİngĠshÃłngĠ":13031,"dÇĲĠzhÃ¬Ġ":13032,"1944ĠniÃ¡nĠ":13033,"ĠsÄģnĠshÃŃĠ":13034,"niÇİoĠlÃ¨iĠ":13035,"lÃ¨iĠsÃ¬ĠyÃºĠ":13036,"ĠfÄģ":13037,"dÅįngĠxiÃłnĠ":13038,"jiÄĵĠjÃ¬n":13039,"ĠbÃ¹ĠÄĽr":13040,"ĠzhÃ¬ĠdÃ¬ngĠ":13041,"shÄģngĠdiÃłnĠ":13042,"xiÅ«ĠgÇİi":13043,"jÄ«ngĠjÃ¬ĠxuÃ©Ġ":13044,"ĠdÅ«nĠ":13045,"ĠĠĠduÃ¬ĠyÃºĠ":13046,"zhÅįngĠshÃ¬ĠjÃ¬Ġ":13047,"yÃ¹ĠdÃłoĠ":13048,"dÃ²ngĠyuÃ¡nĠ":13049,"kuÃ²ĠzhÄģngĠ":13050,"nÃłnĠmÃŃnĠ":13051,"ĠmÃŃngĠzÃ¬Ġ":13052,"jiÄĵĠchÃ¹":13053,"rÃ©nĠmÃŃnĠdÃłiĠbiÇİoĠdÃłĠhuÃ¬Ġ":13054,"fÄĵnĠchÃ©ngĠ":13055,"ĠjÄ«ĠxiÃ¨Ġ":13056,"yÃ¡nĠjiÅ«ĠsuÇĴ":13057,"jiÄģngĠsÅ«ĠshÄĽngĠ":13058,"ĠnĠ":13059,"fÃºĠdÃ©Ġ":13060,"yÇĲnĠlÃ¬Ġ":13061,"guÄģĠ":13062,"ĠxiÃłnĠdÃłi":13063,"liÃ¨ĠrÃ¹":13064,"ĠĠĠkÃ¨Ġ":13065,"jiÇİngĠdeĠ":13066,"inĠ":13067,"ĠzhÅįngĠshÅ«Ġ":13068,"ĠtÄģĠshuÅįĠ":13069,"Ġ1ĠyuÃ¨Ġ":13070,"ĠxiÅįngĠ":13071,"hÃ²uĠxuÇİnĠrÃ©nĠ":13072,"yÃ¡nĠshÄĵnĠ":13073,"ĠdÃłnĠbÃ¹Ġ":13074,"ĠwÃ©iĠzhÇĲĠ":13075,"gÇİnĠrÇİn":13076,"zhÅ«ĠlÃ³ngĠ":13077,"ĠtÃłiĠyÃ¡ngĠ":13078,"mÃ¹ĠsÄ«ĠlÃŃnĠ":13079,"fÄģngĠchÃ©ngĠ":13080,"chÄĵĠdÃłoĠ":13081,"sÅ«ĠlÇĲĠ":13082,"zhÃ²ngĠzhÃŃĠ":13083,"gÃ¨ngĠduÅį":13084,"hÃłiĠÃ©":13085,"zÅ«ĠjiÃ¨Ġ":13086,"chÃ¨nĠ":13087,"shÄĵngĠmÃŃngĠ":13088,"ĠjiÄģĠjÃ¬ngĠ":13089,"jÃ¹ĠfÄĵngĠ":13090,"zhÃ¹ĠcÃ¨Ġ":13091,"ĠyÃ³uĠyÇĴngĠ":13092,"dÄĽngĠzhÃŃĠ":13093,"bÄģnĠfÄģĠ":13094,"ĠbÃ¬ngĠqiÄĽĠzÃłiĠ":13095,"oĠĠĠ":13096,"vĠ":13097,"rÃ©nĠwÃ¨iĠ":13098,"duÃ¬ĠyÇĴuĠ":13099,"tÇĲĠxÃŃngĠ":13100,"yÄĵĠsÅ«":13101,"ĠjÄ«ĠchÇĶĠ":13102,"ĠchÅ«ĠshÄĵnĠ":13103,"bÇİoĠcÃºn":13104,"gÃ²ngĠhÃ©ĠguÃ³ĠdeĠ":13105,"ĠwÃ¨iĠfÃºĠqÃŃĠyÃºĠgÄģng":13106,"lÇİngĠdÃ©Ġ":13107,"ĠchÅ«ĠrÃ¹ĠkÇĴuĠ":13108,"yÃ¡nĠjiÅ«ĠyuÃ¡nĠ":13109,"ĠshÃ¬ĠdÃ¬ĠyÄ«Ġ":13110,"ĠJR":13111,"ÃłiĠdÃ©ĠhuÃ¡Ġ":13112,"xiÃłnĠshÃŃĠ":13113,"qÇĲĠdeĠ":13114,"bÄģnĠbÃ¹Ġ":13115,"hÃ¡ngĠzhÅįuĠ":13116,"nÃºĠ":13117,"nÇļĠyÇİnĠyuÃ¡nĠ":13118,"kÇİoĠgÇĶĠ":13119,"miÃłnĠjÄ«ĠhÃ©Ġ":13120,"zuÃ¬ĠzÇİoĠdeĠ":13121,"ĠwÄĵn":13122,"ĠĠĠV":13123,"shÇĲĠzhÅįngĠ":13124,"qÃ¬ĠhÃ©Ġ":13125,"chÄĵngĠzhÄ«ĠwÃ¨iĠ":13126,"pÃ¡iĠdÃ©ĠzhÇĶĠ":13127,"bÄ«ngĠlÃ¬Ġ":13128,"ĠjiÄģĠmÃ©ngĠ":13129,"jiÃłoĠzuÃ²Ġ":13130,"fÄĵnĠqÅ«Ġ":13131,"tÅįngĠxÃ¬nĠ":13132,"zÄ«ĠzhÃ¹Ġ":13133,"huÇĴĠbÃłnĠ":13134,"chÃ¨ĠdÇĲĠ":13135,"jÇĲnĠbiÄģoĠsÃłi":13136,"guÄ«ĠmÃ³ĠdeĠ":13137,"xÄ«ĠyuÃ¡nĠ":13138,"chÃ©ngĠzÃłiĠ":13139,"quÃ¡nĠxiÃłnĠ":13140,"bÃłiĠzhÃłnĠ":13141,"rÃ©ngĠyÇĴuĠ":13142,"ĠchÃ©ngĠxÃ¹":13143,"ĠjiÃłnĠyÇĴuĠ":13144,"shÇĴuĠduÃłnĠ":13145,"lÇĲngĠxiÃ¹":13146,"miÇİnĠdiÄģnĠ":13147,"quÃ¡nĠqiÃº":13148,"ĠzhÅįngĠfÄģĠxiÃłnĠ":13149,"zÃºĠxiÃ©Ġ":13150,"ĠtÃ²uĠguÃ²Ġ":13151,"zÃºĠrÃ©nĠ":13152,"zÄģoĠshÃ²uĠ":13153,"shÇĴuĠfÇĶĠ":13154,"mÇİĠlÃ¡iĠ":13155,"ĠzhÅįngĠguÃ³ĠgÃ²ngĠchÇİnĠdÇİng":13156,"jÃºĠyÃºĠ":13157,"ĠhÃ©ĠlÃ¡n":13158,"ĠgÄģiĠdÃ¬ĠdeĠ":13159,"ĠgÅįngĠyuÃ¡nĠqiÃ¡nĠ":13160,"ĠdÃ¬ĠshÃŃĠyÄ«Ġ":13161,"4ĠrÃ©nĠ":13162,"ĠqiÅ«":13163,"ĠbiÇİoĠ":13164,"ĠĠĠfÃºĠ":13165,"ĠĠĠ2015ĠniÃ¡nĠ":13166,"yÇĲĠshÃłngĠ":13167,"jiÄģngĠshÃ¬Ġ":13168,"hÃłnĠyÇĶĠ":13169,"ĠwÃ¨iĠzhÅįngĠguÃ³Ġ":13170,"fÄĵnĠlÃŃĠ":13171,"ĠqiÃºĠyÃ¹nĠdÃ²ngĠyuÃ¡nĠ":13172,"ÃłiĠqÃŃngĠ":13173,"tuÃ¬ĠxiÅ«":13174,"ĠlÃ¬ngĠyÃ¬ĠfÄģngĠmiÃłnĠ":13175,"ĠbÃ¹ĠdÃ©ĠbÃ¹Ġ":13176,"ĠmÃ¹ĠqiÃ¡nĠshÃłngĠwÃ¨iĠyÃ³uĠrÃ©nĠgÅįngĠyÇĲnĠzhÇĴngĠzÄģiĠpÃ©iĠ":13177,"jiÄģnĠzhÃ¬Ġ":13178,"huÃ¡ĠdÃłĠxuÃ©Ġ":13179,"xiÃ©ĠtiÃ¡o":13180,"wÃ¹ĠlÇĲĠxuÃ©Ġ":13181,"ĠĠĠ4ĠyuÃ¨Ġ":13182,"tÃ³uĠdeĠ":13183,"ĠzhÃ¨ĠyÄĽĠshÃ¬Ġ":13184,"bÃłoĠzhÃł":13185,"jiÄģoĠchÄģĠ":13186,"cÃ¡iĠchÇİnĠ":13187,"gÇİnĠjuÃ©Ġ":13188,"ĠfÄĵnĠwÃ©iĠ":13189,"ĠyÄģoĠqiÃº":13190,"fÄĵnĠwÃ¨iĠ":13191,"dÃ¡ĠdeĠ":13192,"wÇİngĠdeĠ":13193,"mÃ³uĠshÄģĠ":13194,"1930ĠniÃ¡nĠ":13195,"ĠzÃłiĠgÅįngĠ":13196,"ĠjiÃłnĠzÃło":13197,"ĠyÄ«nĠdeĠ":13198,"dÇİoĠyÇİn":13199,"ĠxÄ«ĠbÄģnĠyÃ¡ĠyÇĶĠ":13200,"ĠfÄĵng":13201,"ÃłnĠzhÅįngĠ":13202,"yuÃ¡nĠshÃŃĠ":13203,"lÃŃnĠsÄ«Ġ":13204,"xuÃ©ĠshÄĵng":13205,"ĠsuÃŃĠzheĠ":13206,"kÇİĠluÃ³ĠlÃ¡iĠnÃł":13207,"Ġ2025":13208,"fÇİĠshÃ¬Ġ":13209,"jÄ«nĠrÃ¬Ġ":13210,"1951ĠniÃ¡nĠ":13211,"ĠjÃŃĠyÄ«Ġ":13212,"ĠchÅ«ĠyÄ«Ġ":13213,"ĠrÃ¨nĠhÃ©Ġ":13214,"jÃ¬ĠyÃºĠ":13215,"tÃ¨ĠhÃ©Ġ":13216,"rÃłngĠtÄģĠ":13217,"zhÅįngĠbÃ¹Ġ":13218,"ĠdÃłĠyuÄĵ":13219,"shÄĵngĠtÃłiĠ":13220,"wÄĽiĠyuÃ¡nĠhuÃ¬ĠdeĠ":13221,"ĠdÄģngĠxuÇİnĠ":13222,"ĠDĠ":13223,"ĠzhÃ¬ĠzuÃ²ĠrÃ©nĠ":13224,"xiÃłĠxiÃ¡ĠdeĠyÃŃĠgÃ¨ĠxiÄģngĠ":13225,"nÃ¡nĠsÄ«ĠlÄģĠ":13226,"tÃłiĠhÃ²uĠ":13227,"gÃłnĠxiÃłnĠ":13228,"1931ĠniÃ¡nĠ":13229,"ĠshÃ¬ĠnÃ¡nĠ":13230,"ĠyuÃ¨ĠtuÃ¡n":13231,"zÃºĠzÃ¬ĠzhÃ¬Ġ":13232,"ĠwÃ©nĠhuÃł":13233,"ziĠgÅįngĠsÄ«Ġ":13234,"ĠyÃ¬ĠdiÇİnĠ":13235,"duÃ¬ĠwÃłiĠ":13236,"ĠhuÃ¬ĠbÃ¨iĠ":13237,"yÃ¡nĠchÃ¡ng":13238,"zhÃ²ngĠdiÇİn":13239,"shuÇĲĠkÃ¹Ġ":13240,"ĠmÇİĠlÃ¡iĠxÄ«ĠyÃłĠ":13241,"ĠĠĠforĠĠĠ":13242,"tÃ¨ĠjÃŃĠ":13243,"ĠshÃ¬ĠxiÄģngĠgÇİngĠ":13244,"qÇĲĠsÃ¹Ġ":13245,"shÄĵnĠzhÃ¨nĠ":13246,"tÃŃĠgÅįngĠdeĠ":13247,"xÃ¹ĠshÃ¹Ġ":13248,"mÃ¹ĠshÃ¬Ġ":13249,"ĠzÃłiĠnÃ¡nĠ":13250,"ĠhÃ©ĠtÃ³ngĠ":13251,"shÃłngĠshÃ¹Ġ":13252,"wÇĶĠhÃłn":13253,"ĠĠĠgÃ¨ĠrÃ©nĠshÄĵngĠhuÃ³Ġ":13254,"Ġ45":13255,"ĠkÄģngĠxÄ«Ġ":13256,"jÃ¬nĠjÃŃĠ":13257,"1940ĠniÃ¡nĠ":13258,"cÅ«Ġ":13259,"ĠshÃ¬ĠgÃ¨Ġ":13260,"sÄģnĠcÃ¬Ġ":13261,"gÇİiĠwÃ©i":13262,"qiÄģnĠshÇĶ":13263,"ĠnÃłĠme":13264,"ĠhÄģĠÄĽrĠ":13265,"ĠjÃ¬ĠsuÃłnĠjÄ«Ġ":13266,"ĠdÃŃ":13267,"ĠtÇİ":13268,"ĠgÅįngĠbÃ¹Ġ":13269,"ĠĠĠ7ĠyuÃ¨Ġ":13270,"zhÃłnĠwÃ¨iĠ":13271,"fÃ¹ĠzhÃ¬Ġ":13272,"rÃ¹ĠwÃ©iĠ":13273,"qÃ¬ĠrÃ©nĠ":13274,"xiÃ©ĠdÃłiĠ":13275,"hÃłnĠzÃ¬Ġ":13276,"wÃ²ĠÄĽrĠ":13277,"tÃłnĠsuÇĴĠ":13278,"sÇİoĠ":13279,"rÄĽnĠ":13280,"codiceĠ":13281,"ĠgÃ¨ĠzÃ¬Ġ":13282,"dÃ¬ngĠqÄ«Ġ":13283,"bÅįĠfÃłng":13284,"miÃ¡oĠshÃ¹ĠwÃ¨iĠ":13285,"ĠU":13286,"ĠfÇİnĠduÃ¬Ġ":13287,"ĠĠĠdÅįngĠ":13288,"xiÅ«ĠsÄ«Ġ":13289,"IIĠ":13290,"ĠchÃ©ngĠbÇİoĠ":13291,"ĠyuÃ¡nĠyÇĴuĠ":13292,"duÃ¬ĠxiÃłngĠ":13293,"ĠdeĠjÄ«ĠhuÃ¬Ġ":13294,"ĠĠĠzhÃ¬ĠzuÃ²Ġ":13295,"mÄĽiĠrÃ¬Ġ":13296,"ĠguÃ³ĠgÅįngĠ":13297,"ĠgÃ¨ĠdÃłĠ":13298,"ĠkÃ¨ĠlÇĲĠsÄ«Ġ":13299,"dÃ²ngĠchÄĵĠ":13300,"tÃ¡iĠbÃ¬Ġ":13301,"zhÇĶĠchÃŃĠrÃ©nĠ":13302,"shÃ¹ĠhÃ©Ġ":13303,"juÃ©ĠleĠ":13304,"ĠbÃ¹ĠzhÃ¨ngĠ":13305,"ĠlÃ¬ĠkÃ¨Ġ":13306,"ĠgÅįngĠkÄģi":13307,"lÃ¹ĠshÃłngĠ":13308,"bÄģnĠcÃ¬Ġ":13309,"mÃ²ĠsÄ«ĠkÄĵ":13310,"fÃ¹ĠyÇĴuĠ":13311,"fÅ«ĠfÃ¹Ġ":13312,"zhuÃłngĠbÃ¬ngĠdÃº":13313,"dÇĶĠ":13314,"mÃŃnĠjÃ¬nĠ":13315,"ĠcÃŃ":13316,"ĠĠĠxiÄģngĠgÇİngĠ":13317,"ĠĠĠ2020ĠniÃ¡nĠ":13318,"qÃŃĠshÃ¬Ġ":13319,"shÄ«ĠhÃ©Ġ":13320,"nÃłĠsÄ«Ġ":13321,"hÃ¡ngĠzhÃłnĠ":13322,"zhuÇİnĠwÃ©iĠ":13323,"tÃ¡iĠwÄģnĠdeĠ":13324,"pÄ«ĠpÃŃng":13325,"ĠpÃŃ":13326,"ĠgÃ¹ĠshÃ¬Ġ":13327,"ÄģnĠrÃ©nĠ":13328,"jÄ«ngĠdeĠ":13329,"ĠzhÅįngĠzhÇĲĠ":13330,"zhÃ¨ngĠquÃ¡nĠ":13331,"jiÃłnĠzÃłoĠ":13332,"Ġãĥ¼Ġ":13333,"ĠdÃ¹":13334,"bÄĵnĠ":13335,"ĠrÃ©nĠbÃ¨iĠ":13336,"ĠchÃ©ngĠwÃ©iĠyÄ«Ġ":13337,"qÅ«ĠjiÄģnĠ":13338,"ĠyÇĴuĠyÄ«ĠxiÄĵĠ":13339,"kuÃ²ĠzhÇİnĠ":13340,"jiÃ¹ĠdÃºĠyÃºĠ":13341,"bÃ¨iĠshÃ¬Ġ":13342,"shÇĴuĠbÃ¹Ġ":13343,"dÅįngĠdeĠ":13344,"ĠguÃ³ĠyÇĶĠ":13345,"bÄģĠnÃ¨n":13346,"ĠxiÄģngĠdÄģngĠ":13347,"fÃłnĠwÃ©i":13348,"ĠguÃ³ĠmÃŃnĠdÇİngĠ":13349,"ĠĠĠ2014ĠniÃ¡nĠ":13350,"kÄĵĠÄĽrĠ":13351,"wÃºĠÄĽrĠ":13352,"ĠniÃ¡nĠniÃ¡nĠ":13353,"kÄģiĠmÃ¹Ġ":13354,"mÃŃnĠzhÇĶ":13355,"zhÃ¨ĠzhÇĴng":13356,"ĠzhÃłnĠlÇĲngĠ":13357,"tiÄģnĠtÃ¡ngĠ":13358,"yÃŃĠmÃŃn":13359,"jiÇİngĠzuÃ¬ĠjiÄģĠ":13360,"dÃºĠtÃ¨ĠdeĠ":13361,"qiÃºĠduÃ¬":13362,"zuÇĴĠyÃ²u":13363,"ĠĠĠlÄģĠ":13364,"xiÃłnĠxiÃłngĠ":13365,"ĠhuÃ¬ĠshÃłngĠ":13366,"fÄĵngĠgÃ©":13367,"tÃ³ngĠyÃłng":13368,"huÃ³ĠdÃ²ngĠdeĠ":13369,"yÃ¬nĠxiÃłngĠ":13370,"1933ĠniÃ¡nĠ":13371,"ĠmÃŃngĠxÄ«ngĠ":13372,"cÃ¨ĠlÃ¼Ã¨Ġ":13373,"ĠqiÃ¡nĠlÃ³ngĠ":13374,"ĠhuÄģ":13375,"ĠlÃº":13376,"ĠshÇİnĠxÄ«Ġ":13377,"ĠĠĠ2010ĠniÃ¡nĠ":13378,"shÅ«ĠshÃ¬Ġ":13379,"27Ġ":13380,"ĠzÃłiĠyuÃ¡nĠ":13381,"ĠdÃ¬Ġ2Ġ":13382,"ĠrÃ¬ĠqÄ«Ġ":13383,"diÃłnĠchÄĵĠ":13384,"nÃ¨iĠmÃ©ngĠgÇĶĠ":13385,"zhÃłoĠpiÄģn":13386,"xiÃ©ĠshÄģngĠ":13387,"ĠyÃ¡nĠjiÅ«Ġ":13388,"ĠdÃ¬ĠbÄģĠ":13389,"ĠjÃŃĠyÇĲĠ":13390,"lÇĲngĠxiÄģnĠ":13391,"ĠkÄģiĠfÄģĠ":13392,"ĠlÃ¡oĠ":13393,"ĠĠĠ8ĠyuÃ¨Ġ":13394,"duÅįĠmÃŃngĠ":13395,"pÇĲnĠdeĠ":13396,"1942ĠniÃ¡nĠ":13397,"ĠzhÅįuĠrÃ©nĠ":13398,"fÇĶĠzhÃ¹Ġ":13399,"guÄ«ĠhuÃł":13400,"ĠcÅ«nĠ":13401,"chuÄģnĠyuÃ¨Ġ":13402,"xÃ¬ĠliÃ¨ĠdeĠ":13403,"ĠqÃŃĠbÄ«ngĠ":13404,"jÃ¬nĠzhÇĲĠ":13405,"ĠnÃ³ngĠ":13406,"ĠhÃ¡oĠ":13407,"Ã¨ĠÄĽrĠ":13408,"lÃ¹ĠyÇĶĠ":13409,"jÅ«ĠyÃºĠ":13410,"rÃ¹nĠ":13411,"dÃłĠxuÃ©":13412,"ĠrÃ¬ĠyÃ¬Ġ":13413,"xÄ«ĠwÃłngĠ":13414,"shÄĵngĠmÃ¬ngĠ":13415,"yÃ³uĠtÃłiĠ":13416,"tÃ¨ĠqÅ«Ġ":13417,"ĠbÃ¬ngĠbiÇİoĠshÃ¬Ġ":13418,"zuÃ¬ĠduÅįĠdeĠ":13419,"jiÃłoĠkÄĵĠ":13420,"ĠhÃ©ĠliÃºĠyÃ¹Ġ":13421,"ĠĠĠsuÄ«ĠrÃ¡nĠ":13422,"chÃ©ngĠshÃŃĠ":13423,"gÃ©ĠsÄ«Ġ":13424,"jiÅ«Ġ":13425,"ĠshÃ¬ĠyuÃ¡nĠ":13426,"jÃ¹ĠdÃłĠdeĠ":13427,"bÇİoĠzhÃłng":13428,"jiÄĵĠwÃ¨iĠzhÄ«Ġ":13429,"ĠshÃ¬ĠyÃŃĠgÃ¨ĠwÃ¨iĠyÃºĠmÄĽiĠguÃ³Ġ":13430,"miÃłnĠjÄ«ĠhÃ©ĠrÃ©nĠkÇĴuĠ":13431,"ĠyuÇİnĠ":13432,"fÄģngĠwÃ¨iĠ":13433,"cÇĲĠshÃ¬Ġ":13434,"ĠtÄģĠjiÄģngĠ":13435,"zÇĴngĠjÄ«ngĠlÇĲĠ":13436,"kÇİĠlÄģĠ":13437,"ĠtÃ³ngĠshÃŃĠyÄĽĠ":13438,"mÃŃĠnÇĲĠ":13439,"ĠzhÃłnĠdÃ¬Ġ":13440,"ĠdÅįuĠshÃ¬Ġ":13441,"xiÄģngĠdeĠ":13442,"jiÇİĠjÄ«Ġ":13443,"1928ĠniÃ¡nĠ":13444,"shÃłngĠxiÃłĠ":13445,"zhÃ¹ĠzhÃ¡i":13446,"fÄĵnĠlÃ¡nĠ":13447,"bÃłnĠyÇİn":13448,"biÄģnĠmÇİĠ":13449,"ĠMa":13450,"ĠĠĠmÃ¹ĠqiÃ¡nĠ":13451,"diĠ":13452,"bÅįĠlÃ¬Ġ":13453,"seĠ":13454,"nÃºĠlÃ¬Ġ":13455,"ĠguÃ³ĠwÃ¡ng":13456,"ĠchÅ«ĠrÃ¨n":13457,"ĠjÅ«nĠguÄģnĠ":13458,"tÃŃngĠkÃło":13459,"huÃ¡ngĠjÄ«n":13460,"ĠqÃŃĠzhÅįngĠyÇĴuĠ":13461,"ĠyÄ«nĠcÇĲĠzÃłiĠ":13462,"hÃ¡ngĠkÅįngĠgÅįngĠsÄ«Ġ":13463,"ĠgÄģiĠdÃ¬ĠdeĠmiÃłnĠjÄ«ĠhÃ©ĠrÃ©nĠkÇĴuĠ":13464,"ĠgÄģiĠdÃ¬ĠdeĠmiÃłnĠjÄ«ĠhÃ©ĠrÃ©nĠkÇĴuĠjiÄĵĠwÃ¨iĠzhÄ«Ġ":13465,"ĠjÄ«ĠyÃºĠ":13466,"ĠcÃłiĠ":13467,"yuÃ¨ĠhÃ©Ġ":13468,"qÅ«ĠjÃŃĠ":13469,"chÃ¡iĠ":13470,"hÃłnĠlÃŃnĠ":13471,"ĠzhÃ¬ĠlÃ¬ĠyÃºĠ":13472,"ĠrÃ©nĠcÃ¬Ġ":13473,"dÃłiĠbÇĶĠ":13474,"gÄģoĠdÄĽng":13475,
[...]
