#version: 0.2
n g
h Ã
Ã ł
Ä ģ
Ã ¬
Ã ¡
Ä «
Ã ¨
Ç İ
Ġ Ġ
Ã ©
Ã Ń
s hÃ
Ã ¹
Ã¡ n
z h
Ç Ĳ
Å į
j i
d e
Ãł n
Ä ĵ
z hÃ
s h
Ä Ľ
Ã ³
Ç Ķ
x i
Ã ²
Ã º
Äģ n
ĠĠ Ġ
Ãł i
Å «
Åį ng
Ç Ĵ
ã Ģ
shÃ ¬
h u
Ã¨ i
g u
i Ã¡n
hÃ ©
Ãł o
Äģ ng
ÃŃ ng
y u
Çİ n
c h
n iÃ¡n
y Ä«
Çİ ng
Ã© n
ÇĴ u
Ã¬ ng
w Ã¨i
Çİ o
z Ãłi
ãĢ ģ
j Ä«
Äĵ ng
zh Åįng
x Ä«
b Ã¹
j Ã¬
Ãł ng
l i
zhÃ ¨
shÃ Ń
d Ã¬
gu Ã³
y Ãº
r Ã©n
Ã² ng
c hÃ
Äģ o
d u
c hÃ©
y ÇĲ
l Ã¬
Ã¡ ng
y Ã¬
u Ã²
Ã¡ i
zhÃ ¬
chÃ© ng
Ã© i
x u
g Åįng
j ÃŃ
² u
ÄĽ i
i Ãłn
Äĵ n
Ã³ ng
yu Ã¨
y ÇĴu
yu Ã¡n
d Ãł
q i
Åį u
l ÇĲ
2 0
Ã³ u
Äģ i
xi Ãłn
ji Äģ
s Ä«
Å« n
x ÃŃng
y ÇĶ
Ã¨ n
ÇĴ ng
ÃŃ n
t Äģ
r Ã¬
zh Ä«
hÃ ²u
Çİ i
g Ã¨
zhÃ ł
Ã© ng
l e
w Ã©i
hu Ã¬
d Ãło
1 9
b i
shÃ ł
q Ä«
q ÃŃ
shÃ ¨
s u
zhÃ¨ ng
m ÃŃng
ji Ãłn
xu Ã©
ch Å«
y Ã¹
ÄĽ ng
z uÃ²
sh Äĵng
du Ã¬
y Ã³u
q Å«
shÃł ng
ÄĽ n
d Ã©
l Ã¹
b Ã¨i
chÃ ¡
t i
sh ÇĲ
zhÃł n
zh ÇĶ
Äĵ i
q u
j Ã¹
xÄ« n
j Å«n
zh u
ÄĽ r
Ã¡ o
shÃ ¹
u Ã¬
r Ã¨n
f Äģ
w Ã¹
b Ã¬ng
k Ã¨
Ã© r
d Ãłi
y ÃŃ
jÃ¬ n
z Ã¬
yÄ« n
f Ã¹
f Äģng
jÄ« ng
n Ã¡n
hu Ãł
x Ã¬
zh Åįu
p ÃŃng
Ã² u
xi Ãł
l Ã¡i
y Ã²ng
sh u
gu Äģn
t Ã³ng
ãĢ ĭ
ãĢ Ĭ
f Çİ
zhÃ ¹
m ÄĽi
hÃ ¡
Â ·
ji Äģn
j ÇĲ
hu Ã²
d Ã¹
c hu
b ÄĽn
xi Äģng
zhÃ Ń
d Ã²ng
xi Ãłng
m ÃŃn
ji Äģng
f Äĵn
sh ÇĴu
qu Ã¡n
w Ã©n
y Ã¡n
hÃ ł
su ÇĴ
ji Ãło
q iÃ¡n
d iÃłn
t Ã¨
d i
du Åį
Ãº n
z uÃ¬
k Äģi
t u
ji Ã©
l iÃ¡n
zh ÇĲ
k ÄĽ
d Ãłn
m Ã¹
y Ã¨
f Ãº
m Çİ
y ÄĽ
d Åįng
qi Ãº
b ÄĽi
ãĢ Į
ãĢ į
g Äģo
y Ãł
q ÇĲ
ji Äĵ
m iÃłn
h Çİi
zh Çİng
sh Ä«
jÄ« n
c ÇĲ
l u
n Ã¨i
t ÇĲ
s Ãłi
s Äģn
t Ã¡i
g Ã©
x Ã¬ng
gu Ã²
r Ã¹
20 1
d ÄĽng
y Ãło
j u
ch Äĵ
c Ã¬
w ÇĶ
g Äģi
d Ã¬ng
chÃ¡ ng
bi Çİo
l Äģ
g Ã²ng
ji Ã¨
shÃ ²u
d Çİo
sh Äģn
ch Çİng
s Ã¬
b ÇĲ
z Ã©
t ÃŃ
k Äĵ
d Äģng
n Ã©ng
Ã¨ r
w Ãłi
d Äģn
x Ã¹
z i
k ÇĴu
xi Çİo
z ÇĶ
b Äģ
ju Ã©
l ÃŃn
li Ãº
sh ÄĽng
yÄ« ng
k u
l Ã¡n
lu Ã³
t Åįng
20 0
Ä« ng
² ng
m ÇĲ
zhÃ ²ng
e n
zh ÄĽ
sh ÇĶ
ti Äģn
zhÃ¨ n
Ç ļ
q Ã¬
zh ÇĴng
li Ã¨
ch Äĵng
sh Å«
yu Ãłn
b Çİo
t Ãłi
f ÇĶ
f Äĵng
g ÇĶ
qÄ« ng
sh Äĵn
w Ã¡ng
yÃ¹ n
gu Çİn
f Äĵi
ji Ã¹
li Çİng
c Ã©ng
m Ã©i
1 0
f Ã¨n
hÃł o
³ ng
y Çİn
w ÄĽi
z ÇĴng
xu Çİn
xi Ãło
d Ã¡
n Ãł
li Ãłng
b Åį
z Ãº
j Ã¬ng
b Ãło
n ÃŃ
w Ãº
t ÇĴng
hu Ã¡
ji Äģo
yu Äĵ
yÇĲ ng
b iÃłn
xÄ« ng
s Ã¹
shu ÇĲ
y Ã¡ng
hÃ ¹
m en
b Äģo
g Äĵ
b Ã³
c Äģn
c Ã³ng
di Çİn
b Ã¬
r Ãº
b Ãłn
bi Äģn
w Çİng
q ÇĶ
m i
ch Çİn
s Ã¨
z Ä«
chu Ã¡n
0 0
shÃ¨ ng
r Ã¡n
t Ãº
zh Äģng
p ÇĶ
g Çİi
g Çİng
n Çļ
l Ã¬ng
l uÃ²
y Ã²u
t Ã³u
c Ã¨
l Ç
chÃ Ń
1 8
lÇ ľ
qi Äģn
shÃ ©
l ÃŃ
d Åįu
p ÇĲ
1 2
zh Äĵng
n i
k uÃ²
sh Äģ
d Çİng
f Çİn
g Ã²u
l Ã¨i
x ÃŃ
jÇĲ ng
tu Ã¡n
w Äĵi
xi Äĵ
lÇĲ ng
l Ã³ng
gu Ä«
xi Äģn
r Ã³ng
hu Ã¡ng
xi Çİng
b Äģn
ji ÇĶ
y Ã¬ng
m Ã©n
sh Äģng
shÃ© n
20 2
b Çİn
k Çİ
m ÇĶ
jÇĲ n
f Å«
j ÇĶ
m Ã³
gu Çİng
c ÃŃ
shu Åį
q ÃŃng
zh Çİn
hÃ¡ i
zhu Äģng
m Ã²
c Ã¡i
d Ãº
1 1
pÇĲ n
t ÃŃng
chÃ¡ o
y ÃŃng
ti Ã¡o
ji Çİn
t Ã¡ng
hu ÃŃ
du Ãłn
chÃ© n
g Äĵn
m Ã¬
w Ãłn
p Ã¡i
w Äģn
z Ãło
hÃ¡ ng
w Ã¡n
bi Äģo
g Ã¹
l Ãºn
19 9
xi Ã©
ji Çİng
hÃł n
j Ãº
f Ãłn
f Ã¡ng
hu Ã³
hÃ¡ n
p i
k Åįng
o r
ti ÄĽ
m Ã©ng
bi Ã©
w Å«
ji ÄĽ
zhu Äģn
yÇĲ n
x Å«
zh Äĵn
d ÇĲ
e r
chÃ º
hÃ º
ji Ãł
b Ä«ng
m Ã¬ng
l ÃŃng
hÃ ³ng
qÄ« n
z ÇĲ
lÃ¹ n
xÃ¬ n
chÃ ¹
ch ÇĶ
s Å«
a n
xi Å«
z Åįng
1 5
qu Ã¨
xi Äģo
zhÃł o
qi Ã¡ng
q Ã¹
c Å«n
chÃ ³ng
p iÃłn
ji Å«
f Ãłng
su ÃŃ
sh Åįu
gÃ¨ ng
â Ģ
gu Äģng
Ã¨ ng
j Å«
o n
ji Çİ
chu Ãłng
d ÃŃ
1 6
zhu Çİn
gu ÇĴ
xÃ¹ n
m Ãłn
p Ãłi
f Ã¨i
p Ã¨i
19 8
d Çİ
tu Åį
l a
xu Äģn
b Ã¡i
zh Å«
d Å«
t ÇĶ
di Ãło
xi Ã¡
li Ã¹
1 7
su Ã¬
hu Ä«
t Ä«ng
qi ÄĽ
t Çİ
qi Ã¡o
h Äģ
g Çİn
z Äĵng
xi Çİn
m Ãłi
hu Ã¡n
x ÇĶ
w Çİ
tu Ä«
w Ã¨n
ch Äģo
t iÃ¡n
b Çİi
c Çİi
li Ã¡ng
y Ã¡
s Ãł
a r
b Ãłi
c Ãºn
ji Çİo
sh Çİo
y Ãłn
zhu Ãłng
hu ÇĴ
l Ã©i
1 4
z u
ji Ãłng
chu Äģn
yÃ¬ n
z Çİo
chÃ ł
y ÇĴng
s ÇĲ
d Äĵng
3 0
zhÇĶ n
l Ã¨
x Ãºn
n uÃ²
k Ã¹
hu Ãłn
s Ã²ng
g Ãło
l ÇĶ
1 3
19 4
b Äģng
l Çļ
p Ä«
y Ãłng
h ÄĽn
q Ãºn
zh ÄĽng
gu Ãłn
p Ã²
g Äģng
w ÇĴ
19 7
hu Äģ
l Äĵi
h Çİo
t Ã¡o
ku Ãłng
hÃ ¨
i n
dÃ¹ n
n Ã³ng
g ÄĽi
s Äģi
shu Äģng
li Ãłn
ku Ãłi
d Ä«
b Ä«
p Ãłn
xi ÄĽ
19 5
k Çİo
g Ãłi
h Äĵi
w Ãłng
li Ãło
r Ã¨
g e
zu ÇĴ
k Ã²ng
19 6
y Äģng
chÃł ng
y ÃŃn
³ u
r Ã©ng
s Äĵn
b Äĵi
l Ãº
pi Ãło
y Äģ
2 5
bÄ« n
âĢ Ķ
r Ãłng
ch Åįng
l Ã³u
b ÇĶ
l Çİo
zhÃ º
jÃ¹ n
y Çİng
r uÃ¬
y Äģo
xi Ã¡n
xi Ã¨
n iÃłn
f or
y Åįu
t Ã¡n
k Äģng
p ÃŃ
hÃ© ng
yÃº n
x ÇĲ
k Ãłn
n ÃŃng
li Ã¡o
shÃł o
b Ãº
2 4
qÇĲ ng
ch ÇĲ
m u
d Ã²u
mi Çİn
y Åįng
t Çİn
w Çİn
h Å«
f Äģn
a l
t Å«
g Äģn
su Ãłn
d Ä«ng
yu Çİn
w Äĵn
t uÃ¬
zh e
2 1
s t
xi Ã¹
b Çİ
m Çİn
19 3
2 3
mu la
k Ãłng
for mula
2 8
t h
m Ã¡o
r uÃ²
pi Äģn
chÃ ¨
m Ãło
l Çİng
q ÃŃn
b Ã¡
n Ã¡
z Ãłn
gu ÇĲ
gu Ã¬
o u
p ÃŃn
w Ã²
xi Ã³ng
shÃł n
r e
2 2
xi Åįng
m e
su Ä«
Ã ¼
2 6
sh ÄĽn
q Ã¬ng
mi Ã¡o
f Çİng
5 0
20 20
2 7
l Ã¡ng
r u
qi Å«
s Åįng
Ã¼ Ã¨
d Ãłng
g Äĵng
qi Äģng
r i
f Ã¡
z Äģo
f Ã¨ng
zhÃł ng
ï ¼
hÃ¡ o
d Å«n
z ÇĴu
hÃł i
qi Ã¨
2 9
t Ãłn
p Ãło
p Ãł
shÃ¹ n
p Ã©ng
xu Ã¡n
201 0
n ÇĲ
00 0
dÇĲ ng
ni ÇĶ
z Çİi
zh Äģo
zhu Ä«
l Ã¼Ã¨
ch Å«n
20 19
h Å«n
k ÇĴng
du Äģn
shÃ¨ n
xi Ã¡ng
du Çİn
g Ãłn
t e
r o
k Äģn
l Ã¡o
c Çİo
201 6
s i
g Å«
p Ã©i
201 8
ku Çİn
z Ã¡
s Å«n
y Ã©
y Çİ
p Åį
202 1
r a
chÃ ¬
du Ã³
201 4
f Ã¡n
201 1
201 5
c uÃ²
201 7
zhÃ ©
y Ã¡o
p Äģi
t Ã²u
c Ã¡ng
201 2
4 0
k Çİi
201 3
202 2
m ÃŃ
ru Çİn
su Äģn
ch Äģ
z Ãłng
mi Ãło
l t
200 9
zh Çİo
200 8
hu Ã¡i
ã ĥ
c e
6 0
a m
c u
xu Ã¨
chÃ ³u
s e
b Çİng
m Ã¨ng
10 0
t Ã¬
p Ãº
n Çİo
202 3
zhu Ãłn
g t
l ÄĽi
19 0
3 1
c Ãłi
c Ã¹
s Ãłn
m Ã³u
ti on
t a
hÃ¹ n
ÇĶ n
ku Äģn
200 7
ni Ãº
m ÇĴu
t Çİo
di Ã©
200 1
o l
t Ã©ng
s Åįu
k ÄĽn
qi Çİn
ch Äģng
r Çİn
qu Äĵ
f ÇĴu
s ÇĶn
e l
b Ãł
200 0
8 0
k Ãło
su Åį
200 6
ni Çİo
chÃº n
m a
202 4
l Çİn
ã ģ
z Äģi
zhÃ ¡
xu ÄĽ
hu ÇĲ
lu Ãłn
tÇĲ ng
200 5
z Å«n
b Ãłng
l Ãł
hu Äģn
r Çİng
sh uÃ¬
mÇĲ n
3 5
l Ãłi
c Äģng
7 0
f Ã³
p Ã¡n
o f
n Ãłi
w ÄĽn
e t
c Äģo
s Äģng
p Ã¡ng
9 0
bÇĲ ng
ï¼ į
zh Äģ
ã Ĥ
shu Ãłi
ni Ã¨
e s
hÃ ³u
m Ã¨i
sh Äģo
n ÇĶ
d ÇĴng
i l
a t
o w
f Ã©ng
mi Ã¨
yÇĶ n
z Ã²u
m Çİi
hu Ãłi
200 4
4 5
y Äģn
c o
4 8
th e
zhu Ã³
an d
t er
h e
t Ãło
n Çİi
k Å«n
202 5
zh ÄĽn
c k
r ÇĶ
ku Ãł
ku ÃŃ
ãĢ ī
ãĢ Ī
g Åįu
3 6
cu Ä«
3 8
sh Çİn
r Ã²u
di Äģo
200 3
h ÇĶ
gu Åį
3 7
c uÃ¬
n e
x Ãº
m Ã¡ng
ju Çİn
c Ã¡n
di Äģn
zh Äģn
c Ã¡o
18 9
I N
200 2
i s
b o
k Äĵng
T C
v e
3 4
m Ã¡
l ÄĽng
a s
z Å«
7 5
âĢ ĵ
s Ãº
qu Äģn
d Äģ
t o
ch Äģi
n u
l Ãłng
kÃ¹ n
4 6
t Ãºn
f ÄĽn
199 0
âĢ ¦
zhÃ ²u
sh Çİng
r Ãło
h Äĵng
t Ä«
x Å«n
3 9
n Ã¨
. .
p Ã¬
n Ãłn
p Äģn
6 5
h Åįng
shÃ º
t Äģn
C h
t Äģng
k Çİn
M a
n Ã¬
3 2
I n
S T
4 7
h Çİn
i t
U TC
q iÃłn
199 9
199 8
198 0
18 8
5 00
3 3
6 4
qi Çİng
sh uÃ²
p Çİo
l o
b e
k Äģ
zhÃ¡ i
S E
5 5
qu Ãłn
n Ä«
d Ã¨ng
199 7
T he
m iÃ¡n
4 9
g Çİo
I I
6 8
C o
v i
sh ÄĽ
z Ã¨ng
R e
h an
zhÃ ³u
zhÃł i
4 4
199 6
n a
ti Äĵ
d Äģo
a d
b r
199 4
v er
f Ã©i
z Ã²ng
qi Ã³ng
c i
ti Ãło
chu Ã¡ng
199 2
b a
chu ÃŃ
ju Äģn
chÃ¡ i
mi Çİo
gu Äģ
xu Äĵ
t Ã²ng
199 5
f ÄĽi
ch Ä«
o o
m ÄĽng
w Åį
6 7
i r
shu Äģi
tu Ã³
chu Äģng
hu Çİn
199 1
197 0
5 8
a y
195 0
c a
n d
gu Ãł
chÃ¡ n
3 00
w Äģ
199 3
18 7
194 9
p e
s Äģ
ti Çİo
A T
196 0
bi Çİn
4 2
194 5
i ng
gu Ãłi
a u
k ÇĶ
n Ãº
198 8
d ÇĶ
198 9
i g
p Ã¹
6 9
li ÇĶ
g ÇĴng
SE E
t uÃ²
am p
c t
li Çİo
IN SEE
5 9
t Äģi
4 3
6 6
chu Ãłn
o p
chÃ¨ n
o s
5 7
198 5
hu Äģng
9 9
S A
ãĢ İ
cÃ¹ n
ãĢ ı
198 4
hÃº n
4 1
p Å«
l y
u s
k Ã²u
f Ã©n
8 8
198 6
r Çİo
m p
S t
i d
rÃ¹ n
T V
15 0
zhu Åį
in d
4 00
s Çİn
198 7
7 8
u n
e d
h a
198 2
5 6
L i
u r
ar d
nu Ã³
198 3
N A
gÇĶ n
R o
D e
s s
m Äģ
t ou
pÃ¬ n
C D
ch Åįu
b er
g ÇĴu
qu Çİn
M i
7 7
zh Äģi
M e
qi Ãł
m Äģo
qi Çİo
M ar
t w
k Å«
ku Ã¡ng
r Ã³u
de r
7 9
l Ã²u
O S
Â °
k uÃ¬
s Ãłng
ï ½
A l
18 0
t y
B C
5 4
197 9
6 1
19 20
a ng
p Äĵn
9 8
s Äĵng
5 2
Y ou
a p
197 8
n Ã¹
w Äĵng
6 2
y Äĵ
du ÇĴ
L e
5 3
xÇĲ ng
ju Ãłn
ï½ ŀ
B A
k e
194 6
t s
C O
m o
c tion
5 1
195 8
198 1
V i
197 2
194 8
zhu Ã¬
c Åįng
t Åįu
A M
h i
6 3
m an
ow s
A R
r y
194 1
W ind
B S
w Ã¡
li Çİn
19 30
M o
P ro
lu Çİn
ku Äģng
q Ãº
tu ÇĴ
k Ã©
7 6
han s
v a
194 0
193 7
c on
197 6
zu ÇĲ
194 4
J o
8 9
197 5
u m
ï¼ ı
T e
196 8
ni Ã¡ng
p Ã³
shu Äģ
h k
yu Äģn
t Äģo
p er
w Äģng
g a
10 00
r an
Wind ows
9 5
N e
b ÃŃ
s Çİo
d a
8 7
196 6
8 5
f Ãł
p Äĵng
6 00
l Ãłn
S e
S ta
s p
1 20
194 7
G a
A r
o t
g Äģ
195 6
A C
196 4
d Çİn
c Å«
194 2
195 5
ch ÇĴu
la y
195 2
193 9
I S
193 8
7 2
7 4
h t
r ÄĽn
197 3
a ce
f i
197 4
195 4
qi Äĵ
E D
19 00
- -
B e
A P
or e
194 3
197 7
D a
197 1
pÄ« n
p ÇĴ
m Ã¡n
196 7
shÃ© ng
men t
I C
8 00
E R
L a
8 6
195 9
b Äĵng
s on
196 5
J R
196 9
R a
du Ä«
D i
o k
p Ã©n
ãĥ »
Ã Ĺ
qi Ãło
chu Ä«
I D
qi Äģo
S u
in e
193 6
16 0
9 7
b Äĵn
zhu Äģ
en t
195 3
S a
196 2
M A
T u
ti c
196 1
l ÇĴng
a tion
â Ķ
193 5
t Ãł
m Ã¡i
S h
9 6
O N
a k
ï¼ ħ
195 1
195 7
196 3
L o
âĶ Ģ
on e
r ou
8 4
J a
202 6
d o
c Çİn
8 2
g i
b u
m er
7 3
p o
9 4
t Å«n
9 2
S o
A N
I P
A n
h o
a li
193 3
M u
193 1
n Ã¡ng
ni Ãło
le s
7 1
b Ã¡o
nu Çİn
l Ã©ng
p Ã¡
8 3
9 3
a i
W e
8 1
d ÇĴu
19 18
st a
H D
B o
s Äģo
U ni
19 28
lu Ã¡n
k i
193 2
w i
n Ã¨n
c ol
in t
M V
S S
ou r
1 10
t Ã¹
I T
19 12
al l
19 29
tu ÇĲ
du Ã²
19 27
c n
193 4
ar e
P a
7 00
g Ã¡
ch e
b y
te d
st er
hu Çİng
S i
25 0
f f
9 1
m m
P ar
z Ã©i
R i
19 24
p p
p h
.. .
19 19
ku Ä«
H e
s o
xu Ãłn
1 30
pi Äģo
n o
19 25
P S
P lay
p Äģo
14 0
xi Äģ
B u
C a
S M
C on
S p
P C
19 14
b le
st e
zh Çİi
k m
D V
zh Äĵ
E n
me s
You Tu
co m
B a
h Äĵ
F i
T i
di Äĵ
el l
g ra
l Çİ
A S
i a
19 11
W i
sh i
en d
il l
n Ã¼Ã¨
an a
ar a
G e
19 26
de n
19 22
N a
n Çİ
si on
hÃ¨ n
19 17
E T
N BA
I V
shu ÃŃ
c Äģi
r Ã¡o
E N
19 23
ar t
19 21
f e
p Ã¨ng
s a
k a
ku Äģ
G oo
th er
ch ÇĴng
T o
17 0
à ¸
E C
l d
m Çİo
n Ã²ng
A L
H a
M S
se ction
N i
YouTu be
E P
h n
B L
19 13
ti Äģo
J u
H K
le r
â Ĩ
han t
gÃ¹ n
190 9
g in
In ter
c ro
S te
M P
A I
H o
g ÄĽng
W or
n Ãło
P o
f ÄĽng
D o
lu ÇĴ
U S
an t
g o
y a
DV D
or t
z Åįu
ri s
3 000
P i
c Äģ
C ar
19 10
R O
D S
T h
1 12
A K
M y
p en
R E
p ro
v en
19 16
Sta tion
ãĥ ¼
c huÃ²
N et
Î ±
K i
S ch
ol o
N o
ar i
tu re
g n
L in
C P
U N
g le
â Ī
er s
hÃ© n
19 15
ou n
ni Ãłng
190 5
F C
m y
L u
l l
W il
C N
â Ħ
âĨ Ĵ
190 1
F a
A u
ti ng
Ne w
D NA
E x
âĢ §
ar y
9 00
P h
si c
H R
di ce
si s
. &
C H
z ÄĽn
T A
di a
Q u
T O
190 6
le n
190 4
chu Çİng
A V
F or
g ÄĽn
Jo hn
w e
er e
A nd
M O
di ng
co dice
ch Çİo
ji ÇĴng
âĦ ĥ
T a
p a
p s
Play Station
f u
k o
w Ãł
b Ã¨ng
0 5
C C
t on
v o
er i
di Å«
190 7
190 8
Goo gle
A G
E ST
M I
zu Ãłn
S O
or y
te s
L E
G u
ji Ã¡
zu Çİn
c y
l Ä«
ch i
le y
B O
en ter
B BC
A D
I G
c al
II I
C u
c ri
of t
15 00
R u
li n
5 000
or i
zu Äģn
p u
G o
I ST
sh Äĵ
lÇ ĺ
F e
C ol
w or
S y
K a
M E
ti ve
C R
g en
3 D
w it
rou nd
I A
gu Çİ
10 5
j e
r on
m Ãł
Ð °
10 1
190 3
G B
p Ä«ng
ch a
shÃ ¡
l an
0 9
T E
re e
A d
H u
c Ãłn
c Ã©n
190 2
B D
N C
l and
c an
z e
ow n
es s
p Äģng
x t
3 50
w a
in a
SA O
shÃ¡ o
D C
n et
sp an
de s
Î ²
g ht
lÃ¬ n
en ce
B 1900
in c
bo ok
de l
E S
B M
ï¼ İ
d y
ãĥ ³
H i
189 8
0 6
1 18
P e
m s
ãģ ®
l Ã¡
p t
qÇĲ n
te l
3 60
D R
m on
0 1
D A
g h
O pen
189 5
l Ãło
y le
12 5
m Ãº
la r
b Ã¨n
H O
K o
M C
an ce
AT P
Mi cro
Ð ¾
10 8
g y
N G
p Åįu
ig h
s y
c or
t t
di o
K e
qi Ã©
z a
A pp
P u
ni ng
gra m
I F
F ran
f t
re s
Co m
ti n
âĪ Ĵ
0 7
0 8
2 30
F ace
10 4
D u
re f
O ne
Wor ld
ol d
S er
s oft
ED T
IST AT
M on
S tu
sh Äģi
s ÇĴng
à ¤
N O
n er
189 6
C or
L L
B i
g er
lu s
10 9
D P
y Å«
la s
A A
f li
Co mp
re a
g ÄĽ
R I
v el
r en
li ne
R T
su ÇĲ
S P
xi Ã¡o
qi Çİ
E X
r ÄĽ
B ar
B ri
li ng
ber t
B 48
10 6
18 90
ct or
C ST
S an
M L
CD T
Lo ve
it y
m ar
z Äģng
ro w
D O
wi th
H E
f a
P er
p Äĵi
w ard
H ar
M an
d s
tion al
ta in
j a
0 4
4 000
11 5
cu Ãłn
1 200
k y
u x
ou nd
ig ht
M 1
0 3
G P
p Ã¡o
C E
ba ck
188 9
be gin
J e
189 9
o ol
col span
187 1
ri ng
E d
R S
de Ġ
Ġ deĠ
shÃ¬ Ġ
Ġ shÃ¬Ġ
Ġ niÃ¡n
ĠniÃ¡n Ġ
wÃ¨i Ġ
zÃłi Ġ
Ġ wÃ¨iĠ
Ġ zÃłiĠ
hÃ© Ġ
Ġ hÃ©Ġ
zhÅįng Ġ
bÃ¹ Ġ
dÃ¬ Ġ
shÃŃ Ġ
guÃ³ Ġ
yÃº Ġ
rÃ©n Ġ
Ġ bÃ¹Ġ
yÄ« Ġ
Ġ zhÅįngĠ
lÃ¬ Ġ
zhÃ¬ Ġ
gÅįng Ġ
Ġ shÃŃĠ
yuÃ¨ Ġ
jÃŃ Ġ
chÃ©ng Ġ
yÃ¬ Ġ
yÇĴu Ġ
Ġ dÃ¬Ġ
Ġ yuÃ¨Ġ
Ġ yÃºĠ
Ġ rÃ©nĠ
Ġ zhÃ¬Ġ
dÃł Ġ
Ġ jÃŃĠ
yuÃ¡n Ġ
Ġ yÇĴuĠ
jÃ¬ Ġ
Ġ guÃ³Ġ
Ġ lÃ¬Ġ
Ġ gÅįngĠ
Ġ yÃ¬Ġ
Ġ yÇĲ
Ġ chÃ©ngĠ
jiÄģ Ġ
sÄ« Ġ
yÇĶ Ġ
Ġ xiÃłn
Ġ rÃ¬
Ġ yÄ«Ġ
Ġ xÃŃng
Ġ tÄģ
lÇĲ Ġ
jÄ« Ġ
Ġ dÃło
hÃ²u Ġ
wÃ©i Ġ
Ġ zhÄ«
Ġ dÃłĠ
Ġ yuÃ¡nĠ
xÄ« Ġ
ĠrÃ¬ Ġ
Ġ gÃ¨
ĠyÇĲ Ġ
xuÃ© Ġ
huÃ¬ Ġ
le Ġ
zuÃ² Ġ
Ġ yÇĶĠ
ĠdÃło Ġ
mÃŃng Ġ
Ġ jÃ¬Ġ
bÃ¨i Ġ
ĠxÃŃng Ġ
shÄĵng Ġ
Ġ jiÃłn
Ġ chÅ«
Ġ qÃŃ
Ġ sÄ«Ġ
Ġ dÃ©
zhÃ¨ng Ġ
ĠxiÃłn Ġ
Ġ hÃ²uĠ
Ġ jÄ«Ġ
duÃ¬ Ġ
shÃłng Ġ
qÅ« Ġ
shÇĲ Ġ
Ġ ÄĽr
Ġ jiÄģĠ
yÃ³u Ġ
ĠtÄģ Ġ
Ġ xÄ«Ġ
Ġ lÇĲĠ
Ġ Ã©r
zhÃłn Ġ
Ġ jÅ«n
Ġ bÃ¬ng
ĠzhÄ« Ġ
ĠgÃ¨ Ġ
zhÇĶ Ġ
rÃ¨n Ġ
fÃ¹ Ġ
zÃ¬ Ġ
wÃ¹ Ġ
xÄ«n Ġ
dÃłi Ġ
jÃ¹ Ġ
pÃŃng Ġ
ĠchÅ« Ġ
Ġ kÃ¨
Ġ zhÅįu
xiÄģng Ġ
Ġ huÃ¬Ġ
shÃ¹ Ġ
nÃ¡n Ġ
Ġ shÃ¨
Ġ bÃ¨iĠ
Ġ mÃŃngĠ
xiÃł Ġ
guÄģn Ġ
ĠÄĽr Ġ
ĠdÃ© Ġ
lÃ¹ Ġ
yÃ¹ Ġ
huÃł Ġ
ĠjiÃłn Ġ
jÄ«ng Ġ
yÃ¡n Ġ
fÄģng Ġ
Ġ yÄ«n
kÄģi Ġ
jiÄģn Ġ
jiÃło Ġ
fÄģ Ġ
yÃ²ng Ġ
Ġ dÃłn
ĠÃ©r Ġ
zhÃ¹ Ġ
lÃ¡i Ġ
mÃŃn Ġ
shÇĴu Ġ
zhÃ¨ Ġ
xiÃłng Ġ
wÃ©n Ġ
ĠjÅ«n Ġ
xÃ¬ Ġ
qiÃ¡n Ġ
bÄĽn Ġ
tÃ¨ Ġ
Ġ wÃ©iĠ
zhÃŃ Ġ
fÇİ Ġ
qÄ« Ġ
jiÃ© Ġ
liÃ¡n Ġ
ĠbÃ¬ng Ġ
dÃ²ng Ġ
diÃłn Ġ
ĠqÃŃ Ġ
ĠkÃ¨ Ġ
dÅįng Ġ
mÃ¹ Ġ
Ġ jÃ¬n
Ġ duÃ¬Ġ
Ġ huÃ²
Ġ zhÃłnĠ
fÄĵn Ġ
tÃ¡i Ġ
zhÇİng Ġ
dÃ¹ Ġ
jiÄģng Ġ
Ġ qiÃº
Ġ pÃŃngĠ
gÄģo Ġ
yÃ¨ Ġ
suÇĴ Ġ
bÄĽi Ġ
ĠzhÅįu Ġ
shÄ« Ġ
Ġ leĠ
duÅį Ġ
jiÄĵ Ġ
gÃ© Ġ
Ġ shÃłngĠ
jÄ«n Ġ
Ġ zhÃ¨ngĠ
fÃº Ġ
Ġ zuÃ²Ġ
Ġ yÃ³uĠ
Ġ fÃ¹Ġ
kÇĴu Ġ
guÃ² Ġ
zhÇĲ Ġ
Ġ tÃ³ng
hÇİi Ġ
Ġ rÃ¨nĠ
Ġ quÃ¡n
mÇİ Ġ
tÅįng Ġ
rÃ¹ Ġ
zuÃ¬ Ġ
Ġ shÄĵngĠ
Ġ xuÃ©Ġ
cÇĲ Ġ
xÃ¬ng Ġ
wÃłi Ġ
nÃ¨i Ġ
lÄģ Ġ
tÇĲ Ġ
juÃ© Ġ
kÄĽ Ġ
qÇĲ Ġ
shÄģn Ġ
tiÄģn Ġ
chÇİng Ġ
dÄĽng Ġ
zhÃ¨n Ġ
wÇĶ Ġ
chÃ¡ng Ġ
zi Ġ
yÃło Ġ
bÇĲ Ġ
Ġ jÃ¹Ġ
bÇİo Ġ
mÇĲ Ġ
yÃł Ġ
Ġ yÄĽ
gÄģi Ġ
ĠyÄ«n Ġ
Ġ dÃłiĠ
miÃłn Ġ
zhÃ²ng Ġ
ĠshÃ¨ Ġ
fÄĵng Ġ
Ġ zhÃ¨Ġ
zhÇĴng Ġ
cÃ¬ Ġ
yÃ¹n Ġ
yÃŃ Ġ
liÃº Ġ
chÄĵ Ġ
shÃ²u Ġ
lÃŃn Ġ
bÄģo Ġ
yÃŃ ĠgÃ¨Ġ
sÃłi Ġ
jiÃ¨ Ġ
dÃ¬ng Ġ
shÄĵn Ġ
shÄĽng Ġ
luÃ³ Ġ
mÄĽi ĠguÃ³Ġ
sÄģn Ġ
qÃ¬ Ġ
xiÇİo Ġ
ĠdÃłn Ġ
nÃ©ng Ġ
shÅ« Ġ
zÃ© Ġ
liÃ¨ Ġ
xuÇİn Ġ
sÃ¬ Ġ
qÄ«ng Ġ
zhÄĽ Ġ
ĠqiÃº Ġ
jÃ¬ng Ġ
yuÃłn Ġ
bÄģ Ġ
wÃ¡ng Ġ
kÄĵ Ġ
tÃłi Ġ
lÃ¡n Ġ
bÃło Ġ
Äģn Ġ
zÇĴng Ġ
yÇĲng Ġ
ĠhuÃ² Ġ
bÃ¬ Ġ
fÇĶ Ġ
dÇİo Ġ
Ġ xÄ«nĠ
gÇĶ Ġ
yÄ«ng Ġ
Ġ hÃło
Ġ xiÃłĠ
Ġ zÃ¬Ġ
gÄĵ Ġ
fÃ¨n Ġ
xiÃło Ġ
yuÄĵ Ġ
nÃŃ Ġ
jiÄģo Ġ
nÃł Ġ
Ġ yÃ¹Ġ
Ġ mÇĲĠ
zÄ« Ġ
Ã¨r Ġ
Ġ xiÄģngĠ
pÇĶ Ġ
dÄģn Ġ
Ġ zhÃ¹Ġ
biÇİo Ġ
guÇİn Ġ
tÃ³u Ġ
liÃłng Ġ
chuÃ¡n Ġ
Ġ lÃ¹Ġ
sÃ¹ Ġ
wÃº Ġ
Ġ dÄģng
bÅį Ġ
rÃº Ġ
yÇİn Ġ
nÇļ Ġ
bÃ³ Ġ
ĠzhÅįngĠ guÃ³Ġ
xÄ«ng Ġ
tÃŃ Ġ
fÄĵi Ġ
dÃ¡ Ġ
sÃ¨ Ġ
chÄĵng Ġ
mÄĽi Ġ
ĠwÃ¨iĠ yÃºĠ
ĠjÃ¬n Ġ
cÃ©ng Ġ
chÇİn Ġ
Ġ nÃ¡nĠ
shuÇĲ Ġ
tÃº Ġ
biÃłn Ġ
guÄ« Ġ
Ġ rÃ¡n
Äģ Ġ
yÃ¡ng Ġ
zhÄģng Ġ
gÇİi Ġ
diÇİn Ġ
cÃ³ng Ġ
jiÃ¹ Ġ
Ġ bÄĽnĠ
ĠquÃ¡n Ġ
shÄģ Ġ
bÄģoĠ kuÃ²
wÇİng Ġ
jiÇİn Ġ
shÃ¨ng Ġ
zÇĶ Ġ
shÇĶ Ġ
gÇİng Ġ
huÃ¡ Ġ
lÇľ Ġ
qÃŃng Ġ
jÇĲng Ġ
liÇİng Ġ
zÃº Ġ
bÃłn Ġ
tÇĴng Ġ
gÃ²ng Ġ
shÄģng Ġ
lÃŃ Ġ
hÃ¹ Ġ
tÃ³ng Ġ
biÄģn Ġ
jÃ¬n Ġ
Ãłn Ġ
lÃ³ng Ġ
luÃ² Ġ
xÃ¹ Ġ
chÃŃ Ġ
Ãło Ġ
mÃ©i Ġ
jÇĲn Ġ
1 Ġ
bÄģn Ġ
guÇİng Ġ
chÅ« Ġ
cÃ¨ Ġ
mÃ¬ Ġ
shÃ©n Ġ
ĠtÄģĠ men
zhÄĵng Ġ
zhÄ« Ġ
lÇĲng Ġ
yÃ²u Ġ
fÇİn Ġ
wÄĵi Ġ
Ġ zhÇĶĠ
huÃ³ Ġ
xÃŃ Ġ
tÃŃng Ġ
kÇİ Ġ
chÃ¡ Ġ
Ġ gÄģiĠ
Ġ xiÃłngĠ
cÃ¡i Ġ
gÃ²u Ġ
shuÅį Ġ
mÃ©n Ġ
cÃŃ Ġ
2 Ġ
xiÇİng Ġ
mÇĶ Ġ
lÃ¨i Ġ
wÄĽi Ġ
qÇĶ Ġ
ĠgÅįngĠ lÇĲĠ
yÃ¡nĠ jiÅ«
Ġ duÅįĠ
tuÃ¡n Ġ
yÇĲn Ġ
jiÃłn Ġ
ĠyÄĽ Ġ
chÃ¡o Ġ
yÃ¬ng Ġ
chÃ©n Ġ
tÃ¡ng Ġ
xiÄĵ Ġ
qÃŃ Ġ
pÇĲn Ġ
ĠyÇĲ ĠjÃŃĠ
jiÃł Ġ
shÇĲĠ yÃ²ngĠ
jiÄĽ Ġ
hÃ¡ng Ġ
yÇĲ Ġ
lÃºn Ġ
rÃ³ng Ġ
jiÇİng Ġ
Ġ yÃ³u
pÃ¡i Ġ
fÅ« Ġ
jiÇĶ Ġ
Ã© Ġ
lÃ¬ng Ġ
tÃ¡iĠ wÄģn
ĠhÃło Ġ
Ġ wÃłn
ĠdeĠ dÃ¬Ġ
xÅ« Ġ
kÄĽ ĠyÇĲĠ
huÃ¡ng Ġ
xiÄģn Ġ
duÃłn Ġ
kÃ¨ Ġ
dÇİng Ġ
mÃ³ Ġ
cÄģn Ġ
yÃŃng Ġ
tiÃ¡o Ġ
biÄģo Ġ
ĠdeĠ yÄ«Ġ
kÄģiĠ shÇĲĠ
quÃ¡n Ġ
zhÇİn Ġ
ĠchÃ©ngĠ wÃ©iĠ
yÄĽ Ġ
hÃ³ng Ġ
mÃ©i ĠyÇĴuĠ
hÃłn Ġ
yÄ«n Ġ
wÄĽi ĠyuÃ¡nĠ
qiÄģn Ġ
bÇİn Ġ
xiÃłn Ġ
lÃŃng Ġ
xiÄģo Ġ
ĠtÃ³ng Ġ
huÃŃ Ġ
sÅ« Ġ
fÃ¡ng Ġ
mÃ©ng Ġ
zhuÄģng Ġ
kÅįng Ġ
jÃº Ġ
cÅ«n Ġ
bÄģoĠkuÃ² Ġ
rÃ©nĠ kÇĴuĠ
ĠqÃŃ ĠzhÅįngĠ
ĠgÅįngĠ sÄ«Ġ
huÃ² Ġ
zÇĲ Ġ
xÃŃng Ġ
dÅįu Ġ
ĠdeĠ shÃ¬Ġ
ĠĠĠ zÃłiĠ
qiÃ¡ng Ġ
zhÃło Ġ
dÃº Ġ
zhÃ¨ng ĠzhÃ¬Ġ
yÃŃ ĠgÃ¨
mÃ² Ġ
bÄ«ng Ġ
cÇİi Ġ
fÇİ ĠguÃ³Ġ
Ġ fÄĵnĠ
Ġ gÄģoĠ
ĠdÃłĠ xuÃ©Ġ
ĠshÃ¬Ġ yÄ«Ġ
hÃ¡i Ġ
ĠtÄģ ĠdeĠ
hÃº Ġ
chÃ¹ Ġ
qÄ«n Ġ
lÃ¹n Ġ
fÃłn Ġ
3 Ġ
zhÄĵn Ġ
guÄģng Ġ
wÃ¨n Ġ
mÃłn Ġ
Ġ jiÃ©Ġ
shÃ¨ Ġ
biÇİo ĠshÃ¬Ġ
Ãłi Ġ
zhÅįng ĠdeĠ
jÅ« Ġ
Ġ jiÃłoĠ
zhuÄģn Ġ
diÃło Ġ
bÃ¡i Ġ
dÇİ Ġ
quÃ¨ Ġ
diÃłn ĠshÃ¬Ġ
Ġ dÅįngĠ
fÃ¨i Ġ
ĠshÃ¬Ġ wÃ¨iĠ
Ġ dÃ¹Ġ
Ġ mÃ¹Ġ
hÃ¡n Ġ
shÃ¬ ĠdeĠ
Ġ tÃ¨Ġ
xÃ¹n Ġ
Ġ jÄ«nĠ
piÃłn Ġ
mÃ¬ng Ġ
jÇĶ Ġ
Ġ jiÄģngĠ
tuÅį Ġ
gÃ¹ Ġ
ĠrÃ©nĠ kÇĴuĠ
xiÅ« Ġ
ĠbÃ¹Ġ fÃ¨nĠ
xiÃ© Ġ
zÃło Ġ
ĠhÃ©Ġ guÃ³Ġ
zhÅįngĠ guÃ³Ġ
guÇĴ Ġ
10 ĠyuÃ¨Ġ
shÅįu Ġ
Ġ zuÃ¬
xÃ¬n Ġ
12 ĠyuÃ¨Ġ
7 ĠyuÃ¨Ġ
9 ĠyuÃ¨Ġ
zhuÇİn Ġ
tÄģ Ġ
Ġ shÄ«Ġ
dÄģng Ġ
miÃłn ĠjÄ«Ġ
ĠrÃ©nĠ mÃŃnĠ
8 ĠyuÃ¨Ġ
xÃºn Ġ
ĠdÃ¬Ġ qÅ«Ġ
wÅ« Ġ
3 ĠyuÃ¨Ġ
Ġ guÃ²Ġ
1 ĠyuÃ¨Ġ
Ġ jÄ«ngĠ
Ġ suÇĴĠ
Ġ shÇĴuĠ
gÇİn Ġ
huÃ¡n Ġ
dÃŃ Ġ
xiÃ¡ Ġ
jiÇİ Ġ
5 ĠyuÃ¨Ġ
yÄ«ng ĠguÃ³Ġ
Ġ cÇĲĠ
dÃło Ġ
dÇĲ Ġ
zhÅ« Ġ
tÄ«ng Ġ
zhÃ¨ng ĠshÃ¬Ġ
chÃ³ng Ġ
huÇĴ Ġ
zhÅįu Ġ
6 ĠyuÃ¨Ġ
zhuÃłng Ġ
4 Ġ
5 Ġ
chÃ©ng ĠshÃ¬Ġ
4 ĠyuÃ¨Ġ
ĠguÃ³Ġ jiÄģĠ
tiÃ¡n Ġ
gÃ¨ng Ġ
ĠĠĠ dÃ¬Ġ
fÃłng Ġ
yÇĴng Ġ
shÇĶ ĠyÃºĠ
ĠpÃŃngĠ fÄģng
pÃ² Ġ
jÅ«n Ġ
ĠdÃ¬Ġ yÄ«Ġ
Ġ qiÃ¡nĠ
11 ĠyuÃ¨Ġ
qÃºn Ġ
qÃ¹ Ġ
jiÃłng Ġ
tÃ¡o Ġ
ĠshÃ¬Ġ jÃ¬Ġ
ĠpÃŃngĠfÄģng ĠgÅįngĠlÇĲĠ
ĠtÃ³ng ĠshÃŃĠ
dÄģn ĠrÃ¨nĠ
gÄĵn Ġ
Ġ mÇİĠ
Ġ rÃºĠ
Ġ dÄĽngĠ
jÇĲ Ġ
biÃ© Ġ
pÃłi Ġ
dÅ« Ġ
liÃ¡ng Ġ
shÇİo Ġ
huÄ« Ġ
tiÄĽ Ġ
nÃ³ng Ġ
ĠniÃ¡nĠ 1ĠyuÃ¨Ġ
tÇİ Ġ
diÃłnĠ yÇĲngĠ
zÅįng Ġ
chÇĶ Ġ
Ġ qÄ«Ġ
Ġ zhÃ¨
sÇĲ Ġ
Ġ tiÄģnĠ
ÄĽr Ġ
ĠdeĠ shÃŃĠ
shuÄģng Ġ
qiÃ¡o Ġ
tÃ¡iĠwÄģn Ġ
Ġ suÃ¬
gÄĵn ĠjÃ¹Ġ
lÃ¬Ġ shÇĲĠ
chÃº Ġ
ĠshÃ¬Ġ zhÃ¨nĠ
gÃło Ġ
bÃłi Ġ
cÄģn ĠjiÄģĠ
yÃ¹nĠ dÃ²ng
gÄģng Ġ
chÄĵ ĠzhÃłnĠ
guÃ³ ĠdeĠ
jiÇİo Ġ
ĠyÄ«n ĠwÃ¨iĠ
ĠrÃ¬Ġ bÄĽnĠ
ĠpÃŃngĠ fÄģngĠ
lÃ¬ ĠdeĠ
ĠniÃ¡n ĠdeĠ
gÃłi Ġ
pÃłn Ġ
Ġ wÃ©nĠ
Ġ hÇİiĠ
zhÃ¨ngĠ fÇĶĠ
bÃ¬ng Ġ
zhÇĶn Ġ
ĠniÃ¡nĠ 12ĠyuÃ¨Ġ
wÇİ Ġ
yÃłn Ġ
wÇĴ Ġ
Ġ fÃºĠ
gÃ²ng ĠhÃ©ĠguÃ³Ġ
ĠxiÃłn ĠdeĠ
yÃ¡ Ġ
yÃŃn Ġ
fÄģ ĠxiÃłnĠ
formula Ġ
chuÃłng Ġ
hÄĵi Ġ
huÃłn Ġ
qÅ« ĠdeĠ
sÃ²ng Ġ
hÄģ Ġ
hÄĽn Ġ
Ġ suÇĴ
tÃŃ ĠgÅįngĠ
jÃ¬n ĠxÃŃngĠ
Ġ bÄĽiĠ
lÃ©i Ġ
2 ĠyuÃ¨Ġ
jÄ«ng ĠjÃ¬Ġ
tÅįngĠ guÃ²Ġ
ĠniÃ¡nĠ 3ĠyuÃ¨Ġ
Ġ mÄĽi
suÃŃ Ġ
chuÄģn Ġ
ĠzhÅįngĠ yÄģng
ĠguÃ³Ġ jÃ¬Ġ
huÄģ Ġ
6 Ġ
shÃłng ĠdeĠ
ĠyÃ³u ĠyÃºĠ
Ġ yÃ²uĠ
lÄĵi Ġ
wÄĽiĠyuÃ¡nĠ huÃ¬Ġ
qiÄĽ Ġ
kÇİo Ġ
ĠniÃ¡nĠ 7ĠyuÃ¨Ġ
chÄĵng ĠwÃ©iĠ
ĠniÃ¡nĠ 10ĠyuÃ¨Ġ
dÄĵng Ġ
bÇİi Ġ
ĠshÃ¬Ġ jiÃ¨Ġ
Ġ yÄ«ngĠ
ĠyÄ«nĠ cÇĲĠ
mÃŃng ĠwÃ¨iĠ
ĠjÃ¬n ĠxÃŃngĠ
nuÃ² Ġ
ĠshÃ¬Ġ zÃłiĠ
chÅįng Ġ
zhÇĶ ĠyÃ¬Ġ
wÃ¡n Ġ
ĠrÃ¡n Ġ
ĠniÃ¡nĠ 9ĠyuÃ¨Ġ
kuÃłi Ġ
tÇĶ Ġ
ĠzhÄ« ĠhÃ²uĠ
yÃ¡nĠjiÅ« Ġ
qiÃº Ġ
ĠtÄģĠmen Ġ
mÃłi Ġ
shÃŃ ĠdeĠ
liÃłn Ġ
hÃło Ġ
ĠniÃ¡nĠ 5ĠyuÃ¨Ġ
sÃł Ġ
lÃº Ġ
xÃ¬Ġ tÇĴngĠ
Ġ zuÃ¬Ġ
pÃ¨i Ġ
lÇĶ Ġ
ĠniÃ¡nĠ 4ĠyuÃ¨Ġ
chÇĲ Ġ
liÃło Ġ
ĠdÄģng Ġ
ĠniÃ¡nĠ 8ĠyuÃ¨Ġ
Ġ liÃ¡nĠ
ĠniÃ¡nĠ 6ĠyuÃ¨Ġ
ĠxÃŃng ĠdeĠ
zÄĵng Ġ
rÃ©n ĠdeĠ
Ġ shÇĲĠ
xiÄģngĠ gÇİngĠ
qÄ«Ġ jiÄģnĠ
xuÄģn Ġ
Äĵn Ġ
dÃ© Ġ
kuÃłng Ġ
guÇİn ĠlÇĲĠ
ĠgÅįngĠ zuÃ²Ġ
piÃło Ġ
ĠzhÄ« ĠyÄ«Ġ
xÇĶ Ġ
dÄ« Ġ
hÃ©ng Ġ
dÃł ĠdeĠ
bÇĶ Ġ
yÃłng Ġ
ĠzhÅįngĠ xÄ«nĠ
xuÄģn ĠbÃ¹Ġ
sÄĵn Ġ
tuÄ« Ġ
ĠniÃ¡nĠ 11ĠyuÃ¨Ġ
zÇĶ ĠzhÄ«Ġ
rÃ¬ Ġ
wÃłng Ġ
bÃ¹ ĠdeĠ
pÃŃ Ġ
men Ġ
Ġ bÄģoĠkuÃ²Ġ
chÃłng Ġ
yÇĲngĠ xiÇİngĠ
yÇİng Ġ
ĠtÄģ ĠzÃłiĠ
qiÄģn ĠmÇĲĠ
sÄģi Ġ
ĠĠĠ shÄĵngĠ
ĠhuÃ² ĠdÃ©Ġ
Ã©r Ġ
pÄ« Ġ
ĠshÃ¬Ġ jiÃ¨
ĠwÃłn Ġ
luÃ³ ĠsÄ«Ġ
hÃ¨ Ġ
kÄĽĠ nÃ©ng
chÃ©ng ĠdeĠ
Ġ gÄģi
Ġ qÄ«ngĠ
niÃłn Ġ
dÃ¹n Ġ
xiÃ¡n Ġ
Ġ ÄģĠ
lÃ³u Ġ
qÃŃ ĠtÄģĠ
ĠniÃ¡nĠ 2ĠyuÃ¨Ġ
ĠchÃ©ngĠ lÃ¬Ġ
le ĠyÄ«Ġ
bÄģng Ġ
huÃ³Ġ dÃ²ngĠ
ĠrÃ¨nĠ wÃ©iĠ
liÃ¹ Ġ
Ġ lÃ¡iĠ
yÅįu Ġ
Ġ bÇĲĠ
Ġ shÃ¹Ġ
s Ġ
kÄĵ ĠxuÃ©Ġ
Ġ fÄĵn
fÄģĠ zhÇİnĠ
huÃ² ĠdÃ©Ġ
jÃ¹n Ġ
Ġ luÃ³Ġ
ĠzuÃ²Ġ wÃ©iĠ
yÄģ Ġ
ĠpÃŃngĠfÄģngĠ qiÄģnĠmÇĲĠ
huÃ¡ ĠrÃ©nĠmÃŃnĠ
Ġ wÃºĠ
rÃ¬ ĠbÄĽnĠ
bÄĵi Ġ
lÇİo Ġ
huÃ¬ ĠyÃ¬Ġ
rÃ¨ Ġ
Ġ zhÃŃ
kÃ¹ Ġ
tÃ¡n Ġ
jiÄģn ĠdeĠ
tiÄĽ ĠlÃ¹Ġ
Ġ liÃºĠ
ĠdeĠ rÃ©nĠ
yÃ²ng ĠyÃºĠ
liÃ¡o Ġ
nÃŃng Ġ
ĠshÃŃĠ jiÄģnĠ
ĠdeĠ gÅįngĠ
gÃ¨ Ġ
Ġ shÄģnĠ
Ġ zhÄģngĠ
miÇİn Ġ
Ġ yÃ¡nĠ
miÃłnĠ jÄ«
mÃŃn ĠguÃ³Ġ
ruÃ¬ Ġ
wÅ« ĠkÃ¨Ġ
yÃ¬n Ġ
xiÇİn Ġ
lÃ¨ Ġ
zuÇĴ Ġ
gÃ²ng ĠyÇĴuĠ
ĠĠĠ lÃ¬ĠshÇĲĠ
hÇİo Ġ
ĠĠĠshÄĵngĠ pÃŃngĠ
huÃ¡ĠrÃ©nĠmÃŃnĠ gÃ²ngĠhÃ©ĠguÃ³Ġ
fÄģng ĠshÃ¬Ġ
fÄģĠ shÄĵngĠ
gÄģn Ġ
Ġ cÃ³ngĠ
dÃ²u Ġ
wÃ¨nĠ tÃŃĠ
Ġ zhÃŃĠ
guÃłn ĠjÅ«nĠ
zhÇĶĠ yÃłoĠ
rÃ¡n Ġ
dÃ¬ ĠdeĠ
ĠdÃ¬Ġ Ã¨rĠ
dÇİo ĠzhÃ¬Ġ
guÄģnĠ xÃ¬Ġ
cÃºn Ġ
Ġ xiÇİoĠ
kÄģng Ġ
cÄģn ĠyÃ¹Ġ
yuÇİn Ġ
ĠbÃ¹Ġ fÃ¨n
Ġ jÇĲnĠ
zhÄĽng Ġ
ĠgÅįngĠ chÃ©ngĠ
wÃ¡n ĠchÃ©ngĠ
dÄģn ĠwÃ¨iĠ
kÄĽĠ nÃ©ngĠ
Ġ wÇĶĠ
yÄ« ĠwÃ¨iĠ
Ġ zhÇĲĠ
7 Ġ
1 ĠrÃ¬Ġ
Ġ zÃ©Ġ
ge Ġ
xiÃ¨ Ġ
suÇĴ ĠyÇĴuĠ
zhÃ¬ ĠdeĠ
Ġ zÇĴngĠ
wÃ©nĠ huÃłĠ
ĠchÃ©ngĠ yuÃ¡nĠ
ĠdeĠ chÃ©ngĠ
gÄĽi Ġ
lÇļ Ġ
Ġ bÄģĠ
yuÃ¡n ĠdeĠ
yÅįng ĠyÇĴuĠ
cÃºn ĠzÃłiĠ
Ã¨r ĠshÃŃĠ
Ġ tÅįngĠ
bÄĽi ĠbÃ¹Ġ
liÃ¡n ĠhÃ©Ġ
hÃ²u ĠdeĠ
niÇĶ Ġ
ĠshÃ¬Ġ zhÅįngĠ
zhÃ¨ngĠ fÇĶ
yÃ³u ĠyÃºĠ
guÃ³Ġ jiÄģĠ
duÃ¬ ĠyÃºĠ
ĠniÃ¡nĠ zhÃ¬Ġ
fÄģ ĠxÃŃngĠ
yÃ¬ ĠdeĠ
Ġ 18
jÃ¹ ĠyÇĴuĠ
ĠjiÃłnĠ zhÃ¹Ġ
bÇĲĠ sÃłiĠ
ĠbÃ¬ng ĠzÃłiĠ
Ġ zhÇĲ
ĠdÃłoĠ leĠ
Åįu Ġ
Ã¨ Ġ
xÄ«n ĠdeĠ
sÄ« ĠdeĠ
shÄĽn Ġ
yÃºn Ġ
zÃ¬Ġ jÇĲ
yÃ¹nĠ dÃ²ngĠ
xÃŃng ĠzhÃ¨ngĠ
yÃ¬n ĠdÃ¹Ġ
Ã©Ġ luÃ³ĠsÄ«Ġ
bÄ«n Ġ
Ġ miÃłnĠjÄ«Ġ
dÃłiĠ biÇİoĠ
shÃło Ġ
s ĠĠĠ
Ġ mÄĽiĠguÃ³Ġ
Ġ lÃ¬ngĠ
xÇĶ ĠduÅįĠ
ĠdÃłn ĠshÃ¬Ġ
rÃ¨n ĠhÃ©Ġ
shÄĵng ĠyÃºĠ
tÅ« Ġ
guÃ¬ Ġ
Ġ 15
8 Ġ
ĠniÃ¡nĠ dÃłiĠ
Ġ jiÇİnĠ
dÄ«ng Ġ
liÇİng ĠgÃ¨Ġ
chÃ¨ Ġ
bÇİoĠ hÃ¹Ġ
ĠrÃ©nĠkÇĴuĠ mÃ¬Ġ
xiÃ¹ Ġ
Ġ shÇĲ
mÇİn Ġ
zh Ġ
xuÃ¡n Ġ
ĠdÄģng ĠshÃŃĠ
zhÃłng Ġ
ĠdeĠ yÃŃĠgÃ¨Ġ
nÃ¡n ĠbÃ¹Ġ
jÇĶ ĠxÃŃngĠ
zhuÄģn ĠjÃŃĠ
miÃłnĠjÄ« ĠwÃ¨iĠ
Ġ diÃłnĠ
Ġ xÃ¬Ġ
lÃ¡i ĠdeĠ
Ġ C
Äģi Ġ
fÄģn Ġ
Ġ guÄģnĠ
zÇİo Ġ
ĠzhÃ¨ngĠ fÇĶĠ
dÃº ĠlÃ¬Ġ
fÃºĠ wÃ¹Ġ
juÃ©Ġ dÃ¬ngĠ
ĠchÅ« ĠdeĠ
xiÄĽ Ġ
ruÃ² Ġ
zhÇĶĠ yÃło
kÄģiĠ shÇĲ
ĠlÃ¬Ġ shÇĲĠ
qÇĲng Ġ
Ġ cÃ©ngĠ
ĠshÃ¨ ĠjÃ¬Ġ
Ġ sÄģnĠ
rÃłng Ġ
mÃŃng ĠdeĠ
Ġ wÃ¡ngĠ
Ġ mÄĽiĠ
hÃłi Ġ
ĠshÃ¬ĠwÃ¨iĠ yÃºĠ
jiÃ¹ ĠshÃ¬Ġ
ĠyÇĴuĠ yÄ«Ġ
gÄĵng Ġ
gt Ġ
Ġ cÇĲ
Ġ gtĠ
xÇĲ Ġ
Ġ jiÄģng
tÃłn Ġ
ĠqÃŃ ĠtÄģĠ
ĠxÃŃngĠ zhÃ¨ngĠ
Ġ fÇİĠ
pÃ©i Ġ
jiÃłoĠ yÃ¹Ġ
Ġ 16
shÃ²u ĠdÃłoĠ
lt Ġ
Ġ A
Ġ fÄĵngĠ
rÃ¨nĠ wÃ©iĠ
fÇİng Ġ
ĠshÃ¬Ġ dÃ¬Ġ
fÄģĠ zhÇİn
wÇİn Ġ
kÄģn Ġ
shÃ¨ ĠhuÃ¬Ġ
Ġ ltĠ
shÃłn Ġ
yÃ¬ ĠwÃ¨iĠ
gÃ¹ ĠshÃ¬Ġ
piÄģn Ġ
fÄģngĠ miÃłnĠ
ĠxiÃłn ĠzÃłiĠ
Ġ jiÄĵĠ
qÅ« ĠwÃ¨iĠ
ĠzuÃ¬ ĠzhÅįngĠ
qÃŃn Ġ
Ġ bÃ¬Ġ
ĠzhÅįngĠyÄģng Ġ
ĠshÃ¬Ġ shÃ¬Ġ
tuÃ¬ Ġ
pÃło Ġ
zhe Ġ
nÃ¨i ĠdeĠ
Ġ jiÃ¹Ġ
shÇĶ ĠdeĠ
xiÄģngĠ gÇİng
xiÇİo ĠshÃŃĠ
dÃłn Ġ
ĠlÃ¬Ġ rÃºĠ
zÃº ĠqiÃºĠ
shÃ¹Ġ jÃ¹Ġ
ĠbÃ¹Ġ tÃ³ng
liÃ¨Ġ chÄĵĠ
xÅ«Ġ yÃłoĠ
huÃł ĠdeĠ
zhÃŃĠ wÃ¹Ġ
qiÄģng Ġ
Ġ suÄ«
rÃ©n ĠshÃ¬Ġ
zuÃ² ĠdeĠ
shÇĲĠ yÃ²ng
zÄĵng ĠjiÄģĠ
Ġ qÅ«Ġ
Ġ dÃ²ngĠ
ĠjÃ¬Ġ huÃłĠ
mÃŃnĠ zhÇĶĠ
ĠshÃŃĠ qÄ«Ġ
zuÃ²Ġ wÃ©iĠ
Ġ gÇĶĠ
kÃ²ng ĠzhÃ¬Ġ
ĠyÄĽ ĠshÃ¬Ġ
duÇİn Ġ
tÇİn Ġ
ĠjiÃłn ĠdeĠ
yÄ«n ĠyuÃ¨Ġ
Ġ ÄģnĠ
ĠrÃ¡n ĠÃ©rĠ
lÃ¡ng Ġ
ĠyÇĲĠ jÄ«ngĠ
Ġ shÇĶĠyÃºĠ
ĠhÃ©Ġ zuÃ²Ġ
ĠzÃłiĠ dÃ¬Ġ
rÃ©nĠ mÃŃnĠ
ĠshÃ¬Ġ jiÃłnĠ
ĠrÃ©nĠ yuÃ¡nĠ
Ġ yÃ²u
tÄģ ĠdeĠ
ĠjiÃłn ĠyÃºĠ
xuÃ©Ġ yuÃłnĠ
Ġ cÃ©ng
zÇĶ ĠchÃ©ngĠ
chÄģo ĠguÃ²Ġ
zuÃ²Ġ pÇĲnĠ
Ġ mÇİ
Ġ gÃ©Ġ
ĠyÄ«n ĠyuÃ¨Ġ
Ġ kÄĵĠ
mÃło Ġ
ĠquÃ¡n ĠguÃ³Ġ
xiÃ³ng Ġ
Ġ S
zÇİi Ġ
hÅ« Ġ
huÃ¬ ĠdeĠ
jÃ¬ ĠdeĠ
Ġ sÃ¬Ġ
zÇĴngĠ tÇĴngĠ
ĠzhÃ¨Ġ xiÄĵĠ
suÃłn Ġ
ĠwÃ¨iĠ leĠ
ĠhÃ²uĠ lÃ¡iĠ
yÃº ĠshÃ¬Ġ
Ġ pÇĶĠ
Ġ zhÇİngĠ
Ġ tÃłiĠ
10 Ġ
Ġ shÃ²uĠ
ĠchÃ©ngĠ gÅįngĠ
fÄģ ĠbÃ¹Ġ
dÃłĠ lÃ¬Ġ
tÃŃ ĠchÅ«Ġ
ĠlÃ¬Ġ yÃłĠ
Ġ 000
ĠyÃ¬Ġ yuÃ¡nĠ
ĠshÃ¨ ĠyÇĴuĠ
ĠyÄ«nĠ cÇĲ
yÃ¹nĠdÃ²ng ĠyuÃ¡nĠ
yÄģo ĠqiÃºĠ
hÃ¡n ĠguÃ³Ġ
bÃ¹ ĠzÃłiĠ
nÃŃĠ yÃł
yÇĴu ĠdeĠ
ĠĠĠ deĠ
pÃŃn Ġ
pÃº Ġ
zÃło ĠchÃ©ngĠ
Ġ 17
Åįu ĠzhÅįuĠ
qiÅ« Ġ
cÇİiĠ yÃ²ngĠ
xiÇİo ĠxÃŃngĠ
ĠĠĠ S
ĠgÅįngĠ yuÃ¡nĠ
jiÄģ ĠdeĠ
xÃ¬ng ĠdeĠ
shÄĵng ĠdeĠ
9 Ġ
ĠdeĠ yÃŃĠgÃ¨
ĠrÃ¬ ĠzÃłiĠ
dÄģng ĠshÃŃĠ
bÇİ Ġ
kÃ²ng Ġ
rÃ©nĠ wÃ¹Ġ
fÃ¨ng Ġ
ĠcÇĲĠ wÃłiĠ
Ġ suÃŃ
gÃ²ngĠ chÇİnĠ
Ġ lÄģĠ
Ġ zhĠ
kÃłn Ġ
Ġ cÃ³ng
Ġ wÇĴĠ
Ġ shÄģĠ
ĠshÃ¬Ġ hÃ©Ġ
wÄģn Ġ
2010 ĠniÃ¡nĠ
Ġ lÃ¬ng
Ġ gÄĵnĠjÃ¹Ġ
Ġ B
ĠdeĠ bÃ¹Ġ
mÇİ ĠwÃ¨iĠ
xuÃ©Ġ jiÄģĠ
yÃ³uĠ xÃ¬Ġ
Ġ nÇļĠ
Ġ tÇĲĠ
sÅįng Ġ
fÃłn ĠwÃ©iĠ
ĠbÃ¹Ġ tÃ³ngĠ
kÄģiĠ fÄģĠ
dÅ«n Ġ
shÃ¨ ĠjÃ¬Ġ
mÃ¡o Ġ
sÄģn ĠniÃ¡nĠ
chÄģo Ġ
qÇĶ ĠdÃ©Ġ
Ġ kÄĽĠ
ĠdeĠ jÄ«Ġ
ĠĠĠ C
sÃłi ĠshÃ¬Ġ
xiÅįng Ġ
ĠxÃŃng ĠchÃ©ngĠ
ĠĠĠdÃ¬Ġ lÇĲĠ
ĠĠĠ shÃ¬Ġ
Ġ yÃŃĠ
zÃ¬ ĠzhÃ¬Ġ
chÇİn ĠshÄĵngĠ
Ġ wÃ¹Ġ
Äģ ĠÄĽrĠ
ĠsuÃ¬ Ġ
yÃ¡o Ġ
dÇĲng Ġ
wÄĵn Ġ
ĠdeĠ jÃ¬Ġ
jiÃ©Ġ mÃ¹Ġ
shÅ« ĠjÃ¬Ġ
ĠbÃ¬ng ĠyÃºĠ
ĠĠĠ A
Ġ 0
dÅįu ĠshÃ¬Ġ
nÇĲ Ġ
chÃ³ng ĠxÄ«nĠ
xÃ¬Ġ tÇĴng
zÃłn Ġ
lÃ¼Ã¨ Ġ
ĠshÃ¨ ĠhuÃ¬Ġ
Ġ liÇİngĠ
zhÃ²ngĠ yÃło
chÅ«n Ġ
lÇĲ ĠdeĠ
bÃº ĠshÃ¬Ġ
ĠdÃłiĠ biÇİoĠ
yÄ« ĠniÃ¡nĠ
ĠxiÄģngĠ gÇİngĠ
diÃłnĠ yÇĲng
ĠsÄ«Ġ tÃ¨Ġ
guÄģn ĠyÃºĠ
zhuÄ« Ġ
dÃłng Ġ
Ġ nÃłĠ
juÃ©Ġ sÃ¨Ġ
Ġ fÃº
jiÄģoĠ tÅįngĠ
lÇİng Ġ
ĠyÃ³uĠ xÃ¬Ġ
dÃłĠ xuÃ©Ġ
jÃŃ ĠdeĠ
mÃŃ Ġ
gÄĵĠ qÇĶĠ
chÃº ĠleĠ
ĠchÅ« ĠxiÃłnĠ
2020 ĠniÃ¡nĠ
tÇİo Ġ
Ġ jiÃ©
ĠzhÃ¬Ġ zuÃ²Ġ
ĠdÃłĠ xuÃ©
pÃŃng ĠjÅ«nĠ
Ġ P
ĠdÃ© ĠguÃ³Ġ
xiÇİn ĠshÃ¬Ġ
Ġ chÃ©nĠ
huÃ¡Ġ mÃŃnĠguÃ³Ġ
Ġ shÄĵnĠ
ĠniÃ¡nĠ zÃłiĠ
ĠzhÅįngĠ huÃ¡ĠrÃ©nĠmÃŃnĠgÃ²ngĠhÃ©ĠguÃ³Ġ
kuÃ² Ġ
kÇĴng Ġ
hÃ²u ĠzÃłiĠ
miÃ¡o Ġ
ĠniÃ¡nĠ dÃłi
Ġ jiÄģnĠ
Ġ liÇİng
Ã¨r ĠniÃ¡nĠ
xiÃł ĠdeĠ
yÇİn ĠyuÃ¡nĠ
ĠkÃ¨ ĠsÄ«Ġ
dÃ© ĠguÃ³Ġ
xiÃ¡ng Ġ
Ġ 1Ġ
wÃ©i ĠyÄ«Ġ
qÃ¬ng Ġ
cÇİo Ġ
Ġ bÇİoĠ
dÄģng ĠdÃ¬Ġ
guÃ³Ġ jÃ¬Ġ
duÃ¬ ĠdeĠ
bÃ³Ġ wÃ¹Ġ
hÅ«n Ġ
ĠjiÃłn ĠlÃ¬Ġ
ĠdÃ¬Ġ guÃ³Ġ
Ġ fÄĵiĠ
ĠbÃ¹Ġ yÃºĠ
fÇİn ĠduÃ¬Ġ
qÄ« ĠdeĠ
duÄģn Ġ
wÃ¹ ĠdeĠ
zÇĴu Ġ
xuÃ¨ Ġ
yÄ«n ĠwÃ¨iĠ
qÅ«Ġ yÃ¹Ġ
Ġ 1
qÃ¹ ĠshÃ¬Ġ
yÄ« ĠbÃ¹ĠfÃ¨nĠ
bÃ¡ ĠgÄģoĠ
wÃ² Ġ
quÄĵ Ġ
Ġ chÃ¡ngĠ
2001 ĠniÃ¡nĠ
guÇİnĠ xiÃ¡Ġ
dÃ¹ ĠwÃ¨iĠ
kuÇİn Ġ
zhÃ¨ngĠzhÃ¬Ġ rÃ©nĠwÃ¹Ġ
nÃŃĠ yÃłĠ
Ġ kÇİĠ
hÃ¡i ĠyÇĴuĠ
pÃ©ng Ġ
ĠĠĠ rÃ©nĠkÇĴuĠ
ĠdÄģng ĠdÃ¬Ġ
zuÃ¬ ĠzhÅįngĠ
Ġ ãĤ
Ġ 2
ĠtÄģ ĠshÃ¬Ġ
chÃ¬ Ġ
ĠbÃ¹Ġ duÃ¬Ġ
lÃ¡iĠ zÃ¬Ġ
Ġ yuÄĵĠ
Ġ dÄģnĠ
bÇĲĠ sÃłi
ĠxÃŃng ĠshÃ¬Ġ
zhÃŃĠ yÃ¨Ġ
qiÃ¡nĠ wÇİngĠ
Ġ wÄĵiĠ
dÃ¬ng ĠdeĠ
Ġ T
Ġ fÄģĠ
quÃ¡n ĠguÃ³Ġ
bÄģ ĠshÃ¬Ġ
yÄ« ĠbÃ¹Ġ
ĠdeĠ yuÃ¡nĠ
ĠzhÃ¨ngĠ fÇĶ
ĠĠĠ B
Ġ chÃºĠ
zhÃ²ngĠ yÃłoĠ
diÃłoĠ chÃ¡Ġ
Ġ lÃŃnĠ
ĠzhÄ«Ġ jiÄģnĠ
biÄģnĠ mÇİĠwÃ¨iĠ
Ġ huÃ¡ngĠ
Ġ D
ĠniÃ¡nĠ jiÄģnĠ
ĠxuÃ©Ġ mÃŃngĠ
Ġ 14
xuÃ©Ġ xiÃłoĠ
zhÄģo Ġ
zhÇĶĠ xÃŃĠ
xuÇİnĠ jÇĶĠ
ĠrÃ¬ ĠzhÃ¬Ġ
gÇİi ĠwÃ©iĠ
zÇĶ ĠzhÄ«
Ġ nÃ¨iĠ
zhÇĶĠ jiÃłoĠ
fÃ¡ Ġ
zÄ«Ġ liÃłoĠ
hÇİi ĠjÅ«nĠ
Ġ jÃ¬ngĠ
gÅįng ĠshÃ¬Ġ
ĠjÅ«n ĠshÃ¬Ġ
ĠdeĠ dÃłĠ
ĠrÃ©nĠkÇĴuĠmÃ¬Ġ dÃ¹Ġ
chÇĶ ĠlÇĲĠ
sÅ«n Ġ
zÄģi Ġ
ĠdeĠ yÃ¬Ġ
ĠĠĠ P
kÃłng Ġ
fÄģngĠ fÇİĠ
Ġ duÅį
Ġ ãģ
fÃ¹Ġ zÃ©Ġ
ĠrÃ¬Ġ bÄĽn
wÅ«ĠkÃ¨Ġ lÃ¡nĠ
ĠĠĠ yÇĶĠ
Ġ bÅįĠ
guÃłn Ġ
shÃ¹ ĠdeĠ
ĠyÇĴuĠ xiÃłn
dÃłiĠ biÇİo
ĠgÃ¨ ĠrÃ©nĠ
Ġ sÄģn
wÃºĠ fÇİĠ
yÇĲngĠ xiÇİng
ĠjÃ¬Ġ shÃ¹Ġ
Ġ shÃ¨ngĠ
ĠshÃ¬Ġ yÃ³uĠ
jiÄĵĠ rÇİng
zuÃ¬Ġ gÄģoĠ
jÅ«Ġ mÃŃnĠ
Ġ mÃ©iĠ
Ġ huÃłĠ
Ġ kÄģiĠ
xÃ¬Ġ liÃ¨Ġ
pÃł Ġ
qÃŃ ĠzhÅįngĠ
Ġ gÇİiĠ
lÃ¹ ĠdeĠ
Ġ jiÃ¨Ġ
Ġ hÃ³ngĠ
Ġ 2Ġ
xuÃ©Ġ shÄĵngĠ
ĠzhÄ«Ġ chÃŃĠ
zÃ¬Ġ yÃ³uĠ
wÄĽn Ġ
biÄģoĠ zhÇĶnĠ
Ġ zÃ©
xiÃ© ĠhuÃ¬Ġ
shÃ¹Ġ liÃłng
Äģn ĠquÃ¡nĠ
fÇİnĠ yÃ¬ngĠ
kÄĽ ĠyÇĲ
qiÃ¨ Ġ
huÃ¬ ĠzÃłiĠ
yÄģo Ġ
kÄĽn Ġ
shÃ¨n ĠzhÃ¬Ġ
bÇĲ ĠlÃ¬Ġ
yÃ© Ġ
tÇĴng ĠzhÃ¬Ġ
Ġ M
liÃ¡nĠ mÃ©ngĠ
chuÃłng ĠzuÃ²Ġ
zhÇĶĠ rÃ¨nĠ
Ġ suÃŃĠ
ĠĠĠ bÄĽnĠ
Ġ xÄ«n
dÅįng ĠbÃ¹Ġ
ĠdeĠyÃŃĠgÃ¨ ĠshÃ¬ĠzhÃ¨nĠ
Ġ ãĥ
ĠshÃ¬Ġ yÃŃĠgÃ¨Ġ
Ġ nÃ¡n
ĠgÅįngĠ sÄ«
gÄģi ĠguÃ³Ġ
ĠfÃ¹Ġ zÃ©Ġ
kÇİi Ġ
fÃ¡n Ġ
yÇİ Ġ
ĠdÃ¬Ġ sÄģnĠ
Ġ qÇĲĠ
ĠdÃ¬Ġ shÃŃĠ
tÇĲĠ yÃ¹Ġ
Ġ 12
ĠĠĠ xÃŃngĠzhÃ¨ngĠ
Ġ sÅ«Ġ
jiÃ©Ġ gÃ²uĠ
ĠbÃ¹Ġ guÃ²Ġ
Ġ 3
ĠdÃło ĠdeĠ
shÃŃ ĠniÃ¡nĠ
qÃŃngĠ kuÃłngĠ
nÃ©ng ĠlÃ¬Ġ
niÃº Ġ
mÇĴu Ġ
nÃ¡nĠ ziĠ
zhÅįng ĠshÃ¬Ġ
qÃŃngĠ kuÃłng
Ġ shuÇĲĠ
sÃ¬ ĠniÃ¡nĠ
xÄ« ĠbÃ¹Ġ
gÅįng ĠbÃ¹Ġ
shÄĵngĠ huÃ³Ġ
jiÄĵĠ shÃ²uĠ
Ġ gÄĵĠ
suÅį Ġ
nÇļĠ zÇĲĠ
Ġ Ãło
lÃ¹ ĠxiÃłnĠ
chÃ©ngĠ lÃ¬Ġ
Ġ yÃ¡ngĠ
ĠzhÅįngĠ xuÃ©Ġ
ĠĠĠ formulaĠ
gÅ« Ġ
wÃłn Ġ
miÃłn ĠdeĠ
huÄģn Ġ
ĠjÃ¬nĠ rÃ¹Ġ
A Ġ
yÃ¬ ĠshÃ¬Ġ
ĠÄĽr ĠsÄ«Ġ
ĠzhÇĶĠ yÃłoĠ
liÃ¡nĠ sÃłiĠ
bÄĽiĠ jÄ«ngĠ
ĠĠĠ G
Ġ bÄģ
yÇĴu ĠshÃŃĠ
Ġ ÃłoĠ
Ġ E
ĠyÃ¬Ġ huÃ¬Ġ
Ġ mÃŃng
Ġ kÄĽĠyÇĲĠ
guÇİngĠ dÅįngĠ
duÃ³ Ġ
hÃ¡o Ġ
ĠĠĠ jiÄģĠ
lÃ¡o Ġ
jiÃłn ĠzhÃ¹Ġ
ĠĠĠ the
Ġ G
yÃł ĠzhÅįuĠ
dÇİo ĠdeĠ
ĠguÃ³Ġ mÃŃnĠ
yÄĽ ĠshÃ¬Ġ
ĠbÃ¬ngĠ qiÄĽ
Ġ tÃ¡iĠ
nÃ¡ ĠdÃłĠ
dÃ²ngĠ wÃ¹Ġ
tÃłi ĠpÃŃngĠ
ĠsuÇĴ ĠyÇĲĠ
dÃ¬ ĠwÃ¨iĠ
ĠzhÃ¨ ĠshÃ¬Ġ
bÃ¡ĠgÄģoĠ dÃ¹Ġ
dÃ¡ ĠdÃłoĠ
zÃ¬ĠjÇĲ ĠdeĠ
lÇĲ ĠshÃ¬Ġ
zhÃº ĠjiÃłnĠ
zhuÃłn Ġ
rÇİn Ġ
dÃłi ĠdeĠ
guÇĲ Ġ
bÇİn ĠbÄĽnĠ
xiÃłngĠ mÃ¹Ġ
a Ġ
xÇĶĠ duÅį
zhÄĽ ĠdeĠ
jiÃłoĠ shÃ²uĠ
2008 ĠniÃ¡nĠ
Ġ hÃ¡iĠ
ĠxuÃ©Ġ xiÃłoĠ
Ġ dÃł
fÄĵiĠ chÃ¡ngĠ
wÅ«ĠkÃ¨Ġ lÃ¡n
2009 ĠniÃ¡nĠ
ĠxÄ«Ġ yÃłĠ
qÄ«ng ĠniÃ¡nĠ
Ġ F
m Ġ
Ġ Ã¨rĠ
Ġ zÇĴng
ĠzhÇĶĠ yÃło
lÄģ ĠsÄ«Ġ
Ġ hÃºĠ
ĠĠĠ gÄĵnĠjÃ¹Ġ
yÄ« ĠshÃ¬Ġ
ĠchÃ©ngĠ wÃ©i
rÃ¬Ġ bÄĽn
ĠĠĠ T
mÃ³ ĠshÃ¬Ġ
zhÃ© Ġ
niÇİo Ġ
wÃ©nĠ wÃ¹Ġ
ĠtÄģĠmen ĠdeĠ
suÃ¬ Ġ
ĠyÃ¬Ġ shÃ¹Ġ
ĠbÃ¬ngĠ qiÄĽĠ
Ġ mÇĶĠ
zhÇĲ ĠyÇĴuĠ
Ġ 4
chÄģ Ġ
ĠjÃ¬Ġ lÃ¹Ġ
ĠzhÅįu ĠdeĠ
Ġ ÃłiĠ
ĠĠĠ of
hÃ¡ngĠ kÅįngĠ
Ġ yÃºĠshÃ¬Ġ
wÃ©nĠ xuÃ©Ġ
fÄĵn ĠwÃ©iĠ
Ġ bÃ³Ġ
Ġ mÃŃnĠ
ĠqÃŃ ĠshÃ¬Ġ
ĠqÃŃ ĠyÃºĠ
suÄģn Ġ
tÅįngĠ guÃ²
dÄĽng ĠrÃ©nĠ
zhÇĲ ĠchÅ«Ġ
huÇĲ Ġ
28 ĠrÃ¬Ġ
cÃ¡ng Ġ
cuÃ² Ġ
shuÃłi Ġ
ĠĠĠ M
rÃ©nĠkÇĴuĠ pÇĶĠ
zhÃŃ ĠxÃŃngĠ
tÃ³ng ĠshÃŃĠ
hÃ¹n Ġ
zhÃł Ġ
zhÃŃĠ jiÄĵĠ
ĠqiÃº ĠduÃ¬Ġ
ĠlÃ¬Ġ yÃł
yÇİn ĠchÅ«Ġ
jÇĲnĠ biÄģoĠ
Ġ jÄ«n
gÄģi ĠdÃ¬Ġ
Ġ 13
gÃ©Ġ lÃ¡nĠ
2016 ĠniÃ¡nĠ
ĠĠĠ F
huÃ³Ġ dÃ²ng
zhÃ¨ ĠyÄ«Ġ
rÃ¨nĠ wÃ©i
jÃ¬nĠ rÃ¹Ġ
ĠzhÄ«Ġ jiÄģnĠdeĠ
ĠgÅįngĠ kÄģiĠ
ĠdÄģng ĠzhÅįngĠ
gÃ²ng ĠtÃ³ngĠ
Ġ cÃ¬Ġ
Ġ yÃ²ngĠ
xiÃł ĠjÃ¬Ġ
ĠdÃłn ĠzÃłiĠ
zhÃłnĠ zhÄĵngĠ
wÇĶ ĠniÃ¡nĠ
jiÄģng ĠjÅ«nĠ
chÃ³u Ġ
lÃ¨ ĠbÃ¹Ġ
mÃ©iĠ tÇĲĠ
tÇĲ ĠdeĠ
chÄĵĠ zhÃłn
Ġ 5
tuÄ« ĠchÅ«Ġ
jiÃłoĠ yÃ¹
yÇĶn Ġ
zhÃ¨Ġ xiÄĵĠ
mÃ¨ng Ġ
diÃ© Ġ
ĠshÃ¬Ġ wÃ¹Ġ
tÃ¬ Ġ
pÅį Ġ
miÃło Ġ
lÃŃĠ kÄģiĠ
ĠlÃ¬ngĠ wÃłiĠ
Ġ 6
huÃ¡nĠ jÃ¬ngĠ
2012 ĠniÃ¡nĠ
lÃŃnĠ pÇĲ
tÃ©ng Ġ
ĠdÃ¬Ġ Ã¨r
shÄģngĠ yÃ¨Ġ
zhÃº Ġ
2011 ĠniÃ¡nĠ
chuÃ¡nĠ tÇĴngĠ
ĠĠĠ niÃ¡n
15 ĠrÃ¬Ġ
guÄģn ĠdeĠ
Ġ yÇĲnĠ
sÄģn ĠshÃŃĠ
jÅ«n ĠshÃ¬Ġ
dÄģnĠ qÅ«Ġ
liÃłng ĠdeĠ
jiÄĵ ĠdÃłoĠ
sÃłn Ġ
ĠzhÃ¨Ġ geĠ
jÄ« ĠdeĠ
qiÃ¡n ĠdeĠ
rÃ©n ĠzÃłiĠ
nÃ¨iĠ rÃ³ngĠ
zÃłng Ġ
dÃ²ngĠ huÃłĠ
sÃłi ĠjÃ¬Ġ
gÄģo ĠdeĠ
bÃ³ ĠshÃ¬Ġ
dÃ¹ ĠdeĠ
me Ġ
ĠwÃ¨iĠ rÃ©nĠ
yÃŃnĠ hÃ¡ngĠ
xuÇİnĠ jÇĶ
ĠwÃ¨iĠ zhÃ¬Ġ
chÃ©ng ĠzhÅįngĠ
mÃ¬ng ĠmÃŃngĠ
dÄĽng ĠdÃ¬Ġ
ĠgÅįngĠ lÃ¹Ġ
Ġ gÃ¹Ġ
sÇĶn Ġ
rÃ¨ ĠdÃłiĠ
bÄĽiĠ jÄ«ng
ĠshÃŃĠ jÃ¬Ġ
yÃ¹nĠdÃ²ng ĠhuÃ¬Ġ
xuÇİnĠ zÃ©Ġ
ĠdÃłĠ lÃ¬Ġ
ĠÃ©r ĠzÃłiĠ
yuÃ¡n ĠniÃ¡nĠ
Ġ hÃłnĠ
bÃłoĠ gÃłoĠ
ĠmÃ¹Ġ qiÃ¡nĠ
bÇİng Ġ
ĠdeĠ hÃ©Ġ
Ġ wÃº
bÅį ĠchÅ«Ġ
zuÃ¬ ĠjiÄģĠ
ĠĠĠ jÃ¹Ġ
zÅįng ĠjiÃłoĠ
xuÃ© ĠwÃ¨iĠ
tÇĶ ĠdÃ¬Ġ
ĠdÃ© ĠdÃłoĠ
Ġ H
zuÃ¬ ĠhÃ²uĠ
wÃ©nĠ huÃł
tuÃ¡nĠ tÇĲĠ
25 ĠrÃ¬Ġ
ĠdÃ¬Ġ fÄģngĠ
guÇĲ ĠdÃłoĠ
luÃłn Ġ
ĠwÃ¨iĠ dÃ¬Ġ
jÄ«ng ĠlÃ¬Ġ
xÃ¬ ĠdeĠ
ĠzhÄ«Ġ qiÃ¡nĠ
Ġ 5Ġ
shÄĽng ĠdeĠyÃŃĠgÃ¨ĠshÃ¬ĠzhÃ¨nĠ
Ġ zhÃłn
Ġ yÃ¨Ġ
ĠshÃ¬ĠyÄ«Ġ zhÇĴngĠ
ĠshÃ¬ĠwÃ¨iĠyÃºĠ mÄĽiĠguÃ³Ġ
Ġ mÃ³Ġ
Ġ qÃ¬Ġ
jÃŃ ĠzhÅįngĠ
ĠgÃ¨ ĠyuÃ¨Ġ
ĠjÅ«n ĠdeĠ
sÇĲĠ wÃ¡ngĠ
ĠĠĠ H
xiÄģngĠ guÄģnĠ
Ġ mÇĲ
fÄĵnĠ biÃ©
30 ĠrÃ¬Ġ
Ġ bÄģoĠkuÃ²
ĠjÄ«Ġ gÃ²uĠ
wÃ¨i ĠdeĠ
shÇĴuĠ cÃ¬Ġ
Ġ xÃ¬ngĠ
ÃłoĠ lÃŃnĠpÇĲ
lÇĲngĠ dÇİoĠ
ĠyÇĴuĠ guÄģnĠ
ĠhÇİiĠ bÃ¡ĠgÄģoĠdÃ¹Ġ
ĠyÄ«Ġ xiÄĵĠ
ĠtÃ³ng ĠniÃ¡nĠ
huÃ¡i Ġ
2014 ĠniÃ¡nĠ
yÃ²ng ĠdeĠ
ĠĠĠ wÃ¨iĠ
Ġ juÃ©Ġ
20 ĠrÃ¬Ġ
ĠxÃŃngĠ dÃ²ngĠ
ĠzÃłiĠ yÄ«Ġ
jÄ« ĠyÃºĠ
xuÄĽ Ġ
Ġ zhÃ²ngĠ
ĠzhÅįngĠ huÃ¡ĠmÃŃnĠguÃ³Ġ
shuÇĲ ĠyÃ¹Ġ
11 Ġ
10 ĠrÃ¬Ġ
biÃłnĠ huÃłĠ
shÃłng ĠwÃ¨iĠ
ĠjÃŃĠ tuÃ¡n
2018 ĠniÃ¡nĠ
ĠjÃ¬Ġ xÃ¹Ġ
zhÄ« ĠyÄ«Ġ
ĠshÃŃĠ dÃłiĠ
chÇĶ ĠyÃºĠ
UTC Ġ
gÃ²ng ĠhÃ©Ġ
e Ġ
ĠbÃ¹Ġ zhÇİngĠ
zÃ¬Ġ jÇĲĠ
jiÃ©Ġ shÃ¹Ġ
2019 ĠniÃ¡nĠ
ĠzÃ¬Ġ jÇĲ
zhÄ«Ġ chÃŃĠ
2005 ĠniÃ¡nĠ
guÃ² ĠchÃ©ngĠ
ĠhÃ²uĠ lÃ¡i
Ġ bÃ¡iĠ
Ġ wÃłiĠ
shÃ¹n Ġ
mÃŃnĠ zÃºĠ
2015 ĠniÃ¡nĠ
kÅįngĠ jiÄģnĠ
Ġ 8
shuÃ¬ Ġ
bÃº ĠhuÃ¬Ġ
yÃ¨ ĠyÃºĠ
Ġ ziĠ
Ġ rÃº
tÃ²u ĠguÃ²Ġ
nÃ¨i ĠbÃ¹Ġ
mÃ¨i Ġ
2013 ĠniÃ¡nĠ
Ġ chÄĵngĠ
jiÄĽĠ fÃłng
Ġ sÃ¬
ĠzhÃŃ ĠdÃłoĠ
ĠyÃ¬Ġ zhÃŃĠ
xÄ«nĠ wÃ©nĠ
fÄĵn ĠbÃ¹Ġ
Ġ jÇĲngĠ
gÄĵnĠ jÃ¹
ĠĠĠthe ĠĠĠ
ĠzhÅįu ĠshÃ¬Ġ
pÄ« ĠpÃŃngĠ
Ġ N
ĠjÃŃĠ tuÃ¡nĠ
2007 ĠniÃ¡nĠ
Ġ Ãłi
Ġ 7
dÃ¬Ġ qÅ«Ġ
Ġ jiÃ¹
ĠĠĠ zhÃ¨Ġ
tÄģĠ men
Ġ shÇĶĠ
ĠhÃ©Ġ nÃ¡nĠ
ĠshÃ¬Ġ shÃŃĠ
ĠyÇĴuĠxiÃłn ĠgÅįngĠsÄ«Ġ
wÃ¡n ĠjiÄģĠ
20 Ġ
guÄ«Ġ dÃ¬ngĠ
gÃ©Ġ mÃ¬ngĠ
ĠjiÄģĠ rÃ¹Ġ
wÃ¡n ĠquÃ¡nĠ
Ġ shÃ©nĠ
chÃ©ngĠ wÃ©iĠ
Ġ tÃ¡ngĠ
xÄ«Ġ bÄģnĠ
zÄ«Ġ gÃ©Ġ
Ġ Ð
26 ĠrÃ¬Ġ
Ġ K
dÃłĠ lÃ¹Ġ
ĠĠĠ gÄģiĠ
2017 ĠniÃ¡nĠ
ÃłoĠlÃŃnĠpÇĲ ĠkÃ¨Ġ
ĠdÃłĠ huÃ¬Ġ
24 ĠrÃ¬Ġ
kuÄģn Ġ
zÃłi ĠdeĠ
zÃ¡ ĠzhÃ¬Ġ
Ġ mÃ²Ġ
ĠzhÃ¨Ġ zhÇĴngĠ
yÄ«ng ĠyÇĶĠ
pÃºĠ tÃ¡oĠ
d ĠĠĠ
lÃ¹ ĠdÃ¬Ġ
ĠĠĠ yÄ«Ġ
hÃ© ĠdeĠ
shÃłngĠ hÇİiĠ
Ġ yÄ«ngĠguÃ³Ġ
hÃ¡o ĠmÇĲĠ
ĠyÇĶĠ yÃ¡nĠ
qÇĲĠ yÃ¨Ġ
qÃŃ ĠtÄģ
n Ġ
fÄģng ĠdeĠ
Ġ 3Ġ
hÃ²u ĠyÄ«Ġ
luÃ³Ġ mÇİĠ
wÃ¨nĠ tÃŃ
Ġ kÄĽ
sÄģn ĠgÃ¨Ġ
ĠchÃ©ngĠ qÅ«Ġ
sÃ¨ ĠdeĠ
2006 ĠniÃ¡nĠ
chuÃ¡nĠ tÇĴng
Ġ L
ĠshÃ¬Ġ fÇİĠguÃ³Ġ
yÄ« ĠdeĠ
Ġ tÃ³uĠ
18 ĠrÃ¬Ġ
wÃ¹Ġ zhÇĴngĠ
ĠwÃ¨iĠyÃºĠ gÄģiĠguÃ³Ġ
a ĠĠĠ
ĠlÇĲĠ sÄ«Ġ
Ġ tÃ¡iĠwÄģnĠ
jÃ¬ngĠ nÃ¨iĠ
Ġ hÄģĠ
ĠbÃ¹ĠtÃ³ng ĠdeĠ
Ġ 9
wÃ¹ ĠlÇĲĠ
Ġ mÃ²
duÅį ĠdeĠ
shÃ¹ ĠwÃ¨iĠ
ĠdÃłiĠ biÇİo
biÇİo ĠxiÃłnĠ
ĠshÃ¬ĠjiÃ¨ ĠdÃłĠ
Ġ yÃłoĠ
shÄĽng ĠjÃŃĠ
fÇİĠ lÇľĠ
miÃ¡o ĠshÃ¹Ġ
guÄģn ĠyuÃ¡nĠ
gÃłn Ġ
jÄ«ngĠ guÃ²Ġ
Ġ Äģ
Ġ lÃºĠ
bÃł Ġ
chÄģng Ġ
ĠzuÃ¬ ĠhÃ²uĠ
ĠyÃ¬Ġ bÄģnĠ
pÃ²Ġ huÃłi
ĠguÃ³Ġ jiÄģ
yÃŃng ĠdÃ©Ġ
ĠsuÃŃ ĠhÃ²uĠ
cÃłi Ġ
zhÃ¨ng ĠzÃłiĠ
bÄģoĠ hÃ¡nĠ
ĠshÃ¬Ġ jiÃłn
bÃ³ĠwÃ¹Ġ guÇİnĠ
ĠgÅįngĠ jÄ«Ġ
21 Ġ
shÃ¨n Ġ
cÃ¨ ĠshÃ¬Ġ
chÇİng ĠdeĠ
ĠwÃ¨iĠ zhÅįngĠ
ĠlÃ¬Ġ yÃ²ngĠ
bÃ¹ ĠhÃ©Ġ
nÃ¡ Ġ
zÃ© ĠshÃ¬Ġ
Ġ chÃ¡oĠ
niÃ¨ Ġ
fÄĵi ĠjÄ«Ġ
ĠfÄĵn ĠbÃ¹ĠyÃºĠ
chÃºn Ġ
zhuÄģnĠ yÃ¨Ġ
shÇĲ ĠdeĠ
zhÄĵng ĠyÃ¬Ġ
27 ĠrÃ¬Ġ
16 ĠrÃ¬Ġ
fÇİĠ yuÃłnĠ
ĠsuÄ« ĠrÃ¡n
Ġ 2001ĠniÃ¡nĠ
ĠdÃ¬Ġ qÅ«
21 ĠrÃ¬Ġ
yÃ¬ ĠshÃŃĠ
yÅįng Ġ
17 ĠrÃ¬Ġ
zÄģo ĠdÃłoĠ
ĠshÃ¬Ġ yÃ¬Ġ
ĠshÄĵngĠ huÃ³Ġ
t Ġ
12 ĠrÃ¬Ġ
Ġ chÃ³ngĠ
ĠbÃ¨iĠ chÄĵngĠwÃ©iĠ
dÃ¬ng ĠyÃ¬Ġ
ĠzhÅįngĠ xÄ«n
ĠdÃłĠ qÅ«Ġ
8 ĠrÃ¬Ġ
zÅįng ĠhÃ©Ġ
ĠzhÃłnĠ zhÄĵngĠ
d Ġ
xuÃ© ĠdeĠ
ĠxiÃłn ĠshÃŃĠ
ĠĠĠ D
ĠzhÅįngĠ gÃ²ng
19 ĠrÃ¬Ġ
jÃŃ ĠwÃ¨iĠ
sÅįu Ġ
23 ĠrÃ¬Ġ
2021 ĠniÃ¡nĠ
huÃ¡ng ĠdÃ¬Ġ
ĠdeĠ zuÃ²Ġ
zhÇĲ ĠshÃ¬Ġ
2022 ĠniÃ¡nĠ
11 ĠrÃ¬Ġ
ÄģĠ lÄģĠ
Åįu ĠzhÅįu
jiÄģng ĠqÃŃĠ
Ġ zhÅ«Ġ
ĠbÃ¬ng ĠbÃ¹Ġ
yuÃ¡n ĠyÃºĠ
fÄģngĠ xiÃłngĠ
liÃ¹ ĠniÃ¡nĠ
zhÃłn ĠdeĠ
Ã©Ġ luÃ³Ġ
ĠĠĠ yÃºĠ
chÅ« ĠxiÃłnĠ
quÃ¡n ĠlÃ¬Ġ
nÇİo Ġ
liÃ¨Ġ chÄĵ
guÄ«Ġ mÃ³Ġ
22 ĠrÃ¬Ġ
7 ĠrÃ¬Ġ
29 ĠrÃ¬Ġ
liÃ¨ ĠdeĠ
zuÃ¬Ġ dÃłĠdeĠ
duÅįĠ shÃ¹Ġ
xiÃłng ĠdeĠ
Ġ cÃ¬
xÅ«Ġ yÃło
hÃ¡i ĠshÃ¬Ġ
Ġ lÃ³ngĠ
yÃ¹ ĠdeĠ
nÃ©ngĠ gÃ²uĠ
yuÄĵĠ hÃłnĠ
ĠĠĠ cÇĲĠ
ĠzhÃ¨Ġ xiÄĵ
dÃ¬ng ĠwÃ¨iĠ
9 ĠrÃ¬Ġ
tÇĴng ĠjÃ¬Ġ
ĠxiÄģngĠ gÇİng
Ġ zÇĶĠ
sÄģng Ġ
ĠĠĠ zhÃ¨ngĠzhÃ¬Ġ
ĠzÃłiĠ zhÃ¨Ġ
xÃ¬n ĠxÄ«Ġ
liÃ¡nĠ mÃ©ng
yÃłng ĠdeĠ
ĠxiÃłn ĠzhÃ¬Ġ
gÅįng ĠdeĠ
jÇĶĠ bÃłn
qiÃº ĠduÃ¬Ġ
hÅįng Ġ
ĠfÄĵnĠ biÃ©
de ĠĠĠ
chÃ¡ ĠdeĠ
14 ĠrÃ¬Ġ
lÃ¬ng ĠyÄ«Ġ
chÃ¡ng ĠshÃ¬Ġ
y Ġ
mÄĽiĠguÃ³Ġ rÃ©nĠkÇĴuĠpÇĶĠ
Ġ zhÄģng
5 ĠrÃ¬Ġ
niÇĶĠ yuÄĵ
zÇĶ ĠhÃ©Ġ
ĠhuÃ² ĠdÃ©
Ġ lÃ¹
Ġ 10
lÃŃn ĠshÃŃĠ
3 ĠrÃ¬Ġ
31 ĠrÃ¬Ġ
ĠzhÅįngĠ bÃ¹Ġ
wÃ¨i ĠshÃ¬Ġ
dÇĴng ĠshÃ¬Ġ
jÄ« ĠdÃ¬Ġ
gÄĵĠ shÇĴuĠ
dÅįngĠ nÃ¡nĠ
hÇİiĠ bÃ¡
bÄģng ĠzhÃ¹Ġ
ĠdeĠshÃ¬Ġ zhÃ¨nĠ
ĠĠĠ zhÅįngĠ
Ġ rÃ¹Ġ
6 ĠrÃ¬Ġ
mÃ³u Ġ
pÄģi ĠshÃ¨Ġ
Ġ bÃłoĠ
Ġ huÃ¡Ġ
Ġ gÃ²ngĠ
ĠyÃ¬Ġ dÃłĠlÃ¬Ġ
2000 ĠniÃ¡nĠ
ĠshÃ¨ ĠlÃ¬Ġ
2 ĠrÃ¬Ġ
Ġ liÃº
ĠyÃ¬Ġ bÄģn
ĠrÃ©nĠ kÇĴu
gÃ¨ ĠrÃ©nĠ
shÃ¨ ĠyÇĴuĠ
ĠdeĠ zhÅįngĠ
4 ĠrÃ¬Ġ
Ġ 4Ġ
30 Ġ
shÄĵngĠ yÃ¡Ġ
Ġ O
yuÃ¡n ĠhÃ©Ġ
2004 ĠniÃ¡nĠ
ĠdÃ¬Ġ qÅ«ĠdeĠ
ĠxuÃ©Ġ shÄĵngĠ
Ġ dÇİoĠzhÃ¬Ġ
tiÄĽĠ lÃ¹
zÃº ĠqiÃº
zÇİo ĠqÄ«Ġ
ĠqÃŃ ĠtÄģ
fÃ©ng Ġ
cÄģng Ġ
B Ġ
13 ĠrÃ¬Ġ
al ĠĠĠ
xiÅįng ĠdÃ¬Ġ
shÄĵng ĠzÃłiĠ
dÅįngĠ bÄĽiĠ
mÃ¹ ĠdÃ¬Ġ
tÅįngĠ chÃ¡ngĠ
huÄ« ĠfÃ¹Ġ
ruÇİn Ġ
Ġ wÇĴ
ĠshÃ¬Ġ chÇİngĠ
ĠxuÃ©Ġ yuÃłnĠ
ĠzhÃ¨ ĠyÄ«Ġ
shÄģo Ġ
shÄĵnĠ fÃ¨nĠ
ĠĠĠ yÃ³uĠyÃºĠ
qÇĶ ĠdÃłiĠ
gÃ©Ġ mÃ¬ng
zhÇĲĠ huÄ«Ġ
qÃŃngĠkuÃłng ĠxiÃłĠ
Ġ mÃ©iĠyÇĴuĠ
sÅ«Ġ liÃ¡nĠ
Ġ biÃłnĠ
yÃŃ ĠbÃ¹Ġ
Ġ fÃ¹
xiÃ© ĠyÃ¬Ġ
huÃ¡ng ĠjiÄģĠ
kÄĵ ĠjÃ¬Ġ
Ġ I
fÄģ ĠxiÃłn
bÇĲng Ġ
zhÄĽng ĠgÃ¨Ġ
Ġ hÄĵiĠ
rÃ©n ĠhÃ©Ġ
ĠgÅįngĠ chÇĲĠ
liÃ¡nĠ bÄģngĠ
yÄģo ĠqiÃº
pÃ¡ng Ġ
zhÄģn Ġ
yÄģn Ġ
chÄģo ĠjÃŃĠ
pÃ¡n Ġ
mÃło ĠyÃ¬Ġ
yuÃ¨ ĠdeĠ
zhÇİng ĠdeĠ
xuÃ©Ġ yuÃłn
fÇİnĠ yÃ¬ng
jÇĶĠ bÃłnĠ
hÃ¡ngĠ kÅįng
Ġ R
xÃŃ ĠjÄ«Ġ
cuÄ« Ġ
ĠyÄĽ ĠyÇĴuĠ
huÃł ĠhÃ©Ġ
xiÇİoĠ shuÅįĠ
ĠdÃ¬Ġ lÃ¬Ġ
guÄģnĠ fÄģngĠ
lÃ¬ ĠhÃ©Ġ
0 Ġ
nÇļĠ xÃ¬ngĠ
ĠxÄ«Ġ nÃ¡nĠ
tÃºĠ shÅ«Ġ
xiÄģn ĠhÃ²uĠ
bÃ¬Ġ yÃ¨Ġ
tÇĴng ĠyÄ«Ġ
Ġ hÄģ
Ġ shÅ«Ġ
br Ġ
Ġ gÃ¹
sÃłi ĠdeĠ
hÃ³u Ġ
ĠyÇĲĠ jÄ«ng
zÃ¡ Ġ
zÅ«n Ġ
Ġ mÃłnĠ
Ġ wÄĵi
Ġ shuÄģngĠ
Ġ quÃ¨Ġ
Ġ brĠ
ĠĠĠ E
xiÃ© ĠzhÃ¹Ġ
Ġ dÅįng
cÃ¬ ĠshÃ¬ĠjiÃ¨ĠdÃłĠ
lÇİn Ġ
ĠrÃºĠ guÇĴĠ
shÃłng ĠshÃ¬Ġ
Ġ 6Ġ
qÅ«Ġ huÃłĠ
fÄĵn ĠxÄ«Ġ
yÇĶ ĠdeĠ
ĠÄĽrĠ shÄĽngĠ
rÃ©nĠkÇĴuĠ shÃ¹ĠliÃłng
wÃ©nĠwÃ¹Ġ bÇİoĠhÃ¹Ġ
ĠhÃ©Ġ yÄ«Ġ
ĠbÃ¹Ġ nÃ©ngĠ
zÃ¬ ĠxÃŃngĠ
tÇĲng Ġ
12 Ġ
jiÄĵĠ duÃłnĠ
wÃº ĠxiÃłnĠ
guÇİngĠ bÅįĠ
Ġ bÄĽn
ĠyÇĲĠ lÃ¡iĠ
ĠxÄ«Ġ bÄģnĠ
dÄģnĠ rÃ¨n
ĠtÄģĠ cÃ©ng
chÃŃĠ xÃ¹Ġ
tÃ¡iĠ bÄĽi
Ġ wÇĶ
Ġ cÃ¡iĠ
gÃ²ngĠchÇİnĠ dÇİngĠ
guÃ³ ĠhÃ©Ġ
ĠyÇĲĠ xiÃłĠ
qÄ« ĠniÃ¡nĠ
tÃ¨ ĠdeĠ
dÇİoĠ yÇİnĠ
Ġ qiÄĽ
rÃ©ng Ġ
hÃ²u ĠyÃºĠ
fÄģĠ biÇİo
yÇİnĠ chÃłng
zhÃ¹ ĠzÃłiĠ
xiÃłĠ xiÃ¡
tiÃ¡o ĠjiÃłnĠ
Ġ qiÄĽĠ
pÃŃn ĠdÃłoĠ
ĠgÅįngĠ zuÃ²
yÃ¨ ĠdeĠ
jiÄģo ĠyÃ¬Ġ
hÇĶ Ġ
ĠzÃłiĠ cÃ¬Ġ
shÃło ĠniÃ¡nĠ
lÃłi Ġ
jiÃ©Ġ shÃ¹
ĠshÃ¬Ġ zhÅįngĠguÃ³Ġ
Ġ jiÇĶĠ
bÃło ĠdÃłoĠ
ĠrÃ©nĠkÇĴuĠmÃ¬Ġ dÃ¹ĠwÃ¨iĠ
qiÃº ĠyuÃ¡nĠ
ĠshÃ¬Ġ lÃ¬Ġ
ĠĠĠ bÃ¹Ġ
zÄģo Ġ
juÃ©Ġ sÃłiĠ
yÃ¬ngĠ yÃ²ngĠ
wÃłi ĠdeĠ
yÃ³uĠ zhÃ¨ngĠ
jiÃłn ĠlÃ¬Ġ
zÄ« ĠyuÃ¡nĠ
sÄģi ĠÄĽrĠ
Ġ yÃłĠ
ĠqÃŃ ĠhÃ²uĠ
Ġ qiÄģnĠ
zuÃ¬ ĠdÃłĠ
Ġ xÄ«
ĠbÃ¬ng ĠwÃ¨iĠ
huÃŃ ĠdÃłoĠ
cÄģo Ġ
sÃ¹Ġ dÃ¹Ġ
qÃ¬ ĠhÃ²uĠ
kÄĽĠ dÃ¡Ġ
ĠwÃ¨iĠyÃºĠ fÇİĠguÃ³Ġ
gÇİiĠ gÃ©Ġ
mÃ¬Ġ shÅ«Ġ
Ġ luÃ²Ġ
ĠyÄ«Ġ yuÃłnĠ
diÃłnĠshÃ¬Ġ jÃ¹Ġ
zhuÃłngĠ tÃłiĠ
zhÃ¹ ĠdeĠ
fÃ¨n ĠwÃ¨iĠ
ĠgÅįngĠ yÃ¨Ġ
wÇİng ĠzhÃłnĠ
Ġ zhÃłoĠ
gÅįngĠ sÄ«Ġ
Ġ W
jiÃ©Ġ guÇĴĠ
suÇĴĠ shÇĶĠdeĠ
ĠdeĠdÃ¬Ġ yÄ«Ġ
Ġ jiÄĽĠ
ĠĠĠ L
Ġ lÃ¡nĠ
hÃº ĠnÃ¡nĠ
ĠyÄ«Ġ sÄ«Ġ
Ġ mÃłi
yÃł ĠlÃ¬Ġ
ĠwÃ¨iĠ yÄ«Ġ
shÃłngĠ hÇİi
20 ĠshÃ¬ĠjÃ¬Ġ
jiÃ© ĠhÃ©Ġ
ĠzhÃ¨Ġ ge
ĠzuÃ²Ġ pÇĲnĠ
zuÇĴ ĠyÃ²uĠ
xiÇİo ĠxuÃ©Ġ
shÃ¨ng ĠlÃ¬Ġ
ĠzhÅįngĠ gÃ²ngĠ
shÇĴuĠ cÃ¬
U Ġ
ĠhÃło ĠxiÃłnĠ
zhÃ¨nĠ qÅ«Ġ
ĠdeĠ fÃ¹Ġ
kÄģiĠ fÄģ
wÃ©n ĠmÃŃngĠ
ĠjiÇİnĠ chÄĵngĠ
ĠsuÇĴ ĠyÇĴuĠ
yÃŃ ĠzhÃ¬Ġ
jiÃło ĠhuÃ¬Ġ
shÄĽngĠ fÃ¨nĠ
zhÇİnĠ kÄģiĠ
yÃ¬nĠ dÃ¹
shÃŃĠ qÄ«Ġ
Ġ fÇİĠguÃ³Ġ
lÇĲngĠ dÇİo
mÃ¹Ġ biÄģoĠ
ĠÃ©r ĠshÃ¬Ġ
gÄģo ĠjÃŃĠ
zhÇĶn ĠbÃ¨iĠ
wÇİngĠ luÃ²Ġ
ĠmÄĽi ĠyuÃ¡nĠ
ĠjiÃłn ĠshÃ¨Ġ
xÃ¹nĠ liÃłnĠ
fÄģĠ biÇİoĠ
kÄĵ ĠdeĠ
ĠrÃ©nĠ wÃ¹Ġ
xuÇİnĠ shÇĴuĠ
jiÄģoĠ tÅįng
Ġ fÄĵi
hÇİo ĠdeĠ
zÃ¬Ġ rÃ¡nĠ
zhÃ²ngĠyÃło ĠdeĠ
dÅįngĠ jÄ«ngĠ
chÇİnĠ pÇĲnĠ
gÃ²ngĠyÇĴuĠ rÃ©nĠkÇĴuĠ
ĠxiÃłnĠ dÃłiĠ
ĠyÄ«Ġ mÃŃngĠ
Ġ jiÇİĠ
ĠxÄ«Ġ bÄĽiĠ
fÄĵngĠ gÃ©Ġ
ĠchÃ©ngĠ jÃ¬Ġ
lÄĽi Ġ
ĠhÃ©Ġ dÃ¬Ġ
zÃ²u Ġ
xiÇİoĠxÃŃngĠ xÄ«ngĠ
yÃ¡nĠ zhÃ²ngĠ
juÇİn Ġ
zi ĠdeĠ
mÃ¹Ġ qiÃ¡nĠ
wÃ©nĠwÃ¹ĠbÇİoĠhÃ¹Ġ dÄģnĠwÃ¨iĠ
liÃº ĠxÃŃngĠ
ĠjÄ«Ġ chÇİngĠ
ĠĠĠ K
biÃłn ĠchÃ©ngĠ
qiÃ¡o ĠzhÃ¬Ġ
miÃ¨ Ġ
Ġ guÄģngĠ
lÃ¨iĠ sÃ¬
diÃłnĠshÃ¬Ġ tÃ¡iĠ
jiÄĽ ĠshÃ¬Ġ
guÃ³Ġ mÃŃnĠ
ĠyÃ¬Ġ qÇĲĠ
Ġ yÇĴngĠ
kÄģiĠ fÃłngĠ
Ġ mÃłiĠ
Ġ shÃ¨nĠzhÃ¬Ġ
Ġ dÄģnĠrÃ¨nĠ
ĠxiÃłĠ lÃ¬ng
Ġ yÃŃĠgÃ¨Ġ
kÇİ ĠÄĽrĠ
2003 ĠniÃ¡nĠ
xÃŃng ĠshÃ¬Ġ
dÅįu ĠyÇĴuĠ
2002 ĠniÃ¡nĠ
Ġ chÃºĠleĠ
zhÄ« ĠhÃ²uĠ
huÃ¬ ĠhÃ©Ġ
mÄĽi ĠpÃŃngĠfÄģngĠgÅįngĠlÇĲĠ
ĠĠĠ W
rÃ¹ ĠleĠ
ĠyÄ«Ġ yÃłngĠ
ĠgÅįngĠ fÄĵnĠ
ĠshÃ¨ ĠzhÃ¬Ġ
tÃ¨Ġ zhÄĵngĠ
cÄģnĠ sÃłiĠ
ĠsÄ«Ġ jÄ«Ġ
Ġ jiÃłĠ
Ġ wÅ«Ġ
rÃº ĠxiÃłĠ
zhÄĵn ĠduÃ¬Ġ
zhÃ¨Ġ geĠ
jiÃ¹ ĠshÃ¬ĠzhÃ¨nĠ
ĠshÃ¬Ġ fÇĴu
ĠshÃŃĠ jiÄģn
gÄģo ĠzhÅįngĠ
ĠcÇĲ ĠhÃ²uĠ
bÃłng Ġ
bÃ¬Ġ xÅ«Ġ
ĠzÃłiĠ zhÅįngĠ
wÃ¡ng ĠguÃ³Ġ
bÇĲĠ jiÃłoĠ
Ġ 00
Ã¨r ĠshÃ¬Ġ
wÃłiĠ jiÄģo
guÄ«Ġ huÃłĠ
diÄģo Ġ
ĠyÃ¬Ġ zhÃ¬Ġ
lÃ¨iĠ sÃ¬Ġ
shÄģnĠ dÅįngĠ
ĠrÃ¡n ĠhÃ²uĠ
Ġ yÇĶ
ĠyÃ¬Ġ zhÃŃ
ĠlÃ¬Ġ shÇĶĠyÃºĠ
yuÃ¡n ĠshÃ¬Ġ
duÃ¬ ĠzÃłiĠ
zhÃ¹ ĠmÃŃngĠ
yÃºn ĠnÃ¡nĠ
hÄĽn ĠduÅįĠ
ĠÄĽr ĠdeĠ
huÃ² ĠdÃ©
shÄĵngĠ chÇİnĠ
Ġ dÄĽng
ĠĠĠ gÅįngĠ
zhÃłn ĠyÃ¬Ġ
ĠsuÄ« ĠrÃ¡nĠ
Ġ chÄĵĠ
Ġ bÄĽi
diÃłnĠ ziĠ
Ġ biÇİoĠshÃ¬Ġ
zhÃ²ng ĠdeĠ
Ġ shÄģngĠ
ĠjiÃłn ĠzhÃ¬Ġ
ĠĠĠ dÃłĠ
xÄ«n ĠjiÄģĠ
lÃ¡iĠ zÃ¬
Ġ tÃºĠ
zhÃ¬Ġ zuÃ²Ġ
shÄģn ĠxÄ«Ġ
rÃ©nĠkÇĴuĠshÃ¹ĠliÃłng ĠwÃ¨iĠrÃ©nĠ
jÃ¹ ĠjÃŃĠ
ĠdeĠyÄ«Ġ zhÇĴngĠ
Ġ gÇĶ
ĠdeĠ mÃŃngĠ
Ġ zÇĶ
jÃŃ ĠhÃ©Ġ
ĠxÄ«Ġ yÃł
lÇļ ĠyÃ³uĠ
ĠzhÃ¬Ġ zÃłoĠ
ĠxÃŃngĠ wÃ©iĠ
mÇİĠ lÃ¡i
Ġ rÃ¨n
bÃłoĠ fÄģĠ
nÇļ ĠÃ©rĠ
Ġ INSEE
tÃło Ġ
zÇĴng ĠlÇĲĠ
quÃ¡n ĠqiÃºĠ
sÄ« ĠhÃ©Ġ
ĠdeĠ zhÇĶĠ
ĠshÃłngĠ hÇİiĠ
sÃłi ĠzhÅįngĠ
fÄģ ĠshÃ¨Ġ
ruÃ¬ ĠshÃ¬Ġ
Ġ duÃ¬ĠyÃºĠ
bÄģoĠ hÃ¡n
nÃ³ngĠ yÃ¨Ġ
yÃ¨Ġ wÃ¹Ġ
tÃ³uĠ zÄ«Ġ
lÃ¹ ĠjÅ«nĠ
wÃ¹ ĠzhÃ¬Ġ
juÃ© ĠdeĠ
nÃłi Ġ
tÃ¨Ġ biÃ©Ġ
ĠjÃ¬n ĠshÃ¬Ġ
ĠdeĠshÃŃĠ hÃ²uĠ
ÃłoĠlÃŃnĠpÇĲĠkÃ¨Ġ yÃ¹nĠdÃ²ngĠhuÃ¬Ġ
gÃ© ĠdeĠ
ĠzhÃ¬Ġ jÄ«nĠ
fÄģngĠ ÃłnĠ
sÄ« ĠrÃ©nĠ
huÃłĠ xuÃ©Ġ
ĠtÃ¨Ġ biÃ©
ĠdÃłĠ liÃłngĠ
jÃŃ ĠshÃ¬Ġ
mÇĲn Ġ
kÄĽĠnÃ©ng ĠshÃ¬Ġ
Ġ nÃŃĠ
T Ġ
chÃł Ġ
ĠniÃ¡nĠ dÃ¹Ġ
liÃ¡nĠ jiÄĵĠ
jÃ¬n ĠdeĠ
ĠzhÄ«Ġ wÃłiĠ
sÃ¬ ĠshÃŃĠ
cÃ¡o Ġ
fÄģĠ dÃ²ngĠ
Ġ V
qiÇİn Ġ
ĠĠĠ O
ĠĠĠ R
xuÇİn ĠwÃ¨iĠ
ĠshÃ¨Ġ shÄ«Ġ
chÃ¹ ĠdeĠ
tÇĶ ĠÄĽr
ĠlÃ¬Ġ sÄ«Ġ
bÃ³Ġ tÃ¨Ġ
ĠzÇĴngĠ miÃłnĠjÄ«Ġ
luÃ³Ġ mÇİ
chuÃłng ĠlÃ¬Ġ
ĠdeĠ lÃ¬Ġ
Ġ gÃ¨ngĠ
ĠniÃ¡nĠ hÃ²uĠ
ĠdÃ© ĠlÇĲĠ
guÇİngĠ chÇİngĠ
liÃ¡n ĠhÃ©ĠguÃ³Ġ
jÃŃ ĠshÃŃĠ
gÄĵngĠ mÃŃngĠwÃ¨iĠ
zÇİo ĠniÃ¡nĠ
Ġ 11
xiÃło ĠlÃ¬Ġ
qÃ¬ ĠdeĠ
biÇİoĠ yÇİnĠ
Ġ zhÃ¨ngĠshÃ¬Ġ
yÃŃ ĠshÃ¬Ġ
ĠjÅ«n ĠzÃłiĠ
fÄģngĠ miÃłn
juÃ©Ġ dÃ¬ng
ĠgÄģiĠ shÄĽngĠ
Ġ zhÄĵnĠ
rÃ©ng ĠrÃ¡nĠ
dÄģ Ġ
zhÃ¬ ĠshÃ¬Ġ
ĠgÅįngĠ nÃ©ngĠ
zÇĴngĠ tÇĴng
ĠrÃ©nĠkÇĴuĠmÃ¬ĠdÃ¹Ġ mÄĽiĠpÃŃngĠfÄģngĠgÅįngĠlÇĲĠ
ĠrÃ©nĠkÇĴuĠmÃ¬ĠdÃ¹ĠwÃ¨iĠ mÄĽi
ĠxiÃłĠlÃ¬ng ĠshÃŃĠ
yÃ³uĠzhÃ¨ngĠ biÄģnĠmÇİĠwÃ¨iĠ
o Ġ
chÃ¡ĠdeĠ shÃ¹ĠjÃ¹Ġ
ĠjÃ¹Ġ lÃ¨ĠbÃ¹Ġ
ĠshÃ¬ĠzhÃ¨nĠ biÄģnĠmÇİĠwÃ¨iĠ
ĠINSEE ĠshÃ¬ĠzhÃ¨nĠbiÄģnĠmÇİĠwÃ¨iĠ
Ġ xiÄģnĠ
ĠĠĠ bÃ¨iĠ
biÄģoĠ zhÇĶn
Ġ hÃ¡nĠ
ĠshÃ¨ ĠdeĠ
xuÇİnĠ qÅ«ĠwÃ¨iĠ
ĠzÃłiĠ cÇĲĠ
ĠbÃ¹Ġ guÃ²
pÃ¡i ĠmÃŃngĠ
ĠguÃ³Ġ wÃ¡ngĠ
dÃ²ng ĠlÃ¬Ġ
shÃŃĠdeĠ rÃ©nĠkÇĴuĠshÃ¹ĠliÃłngĠwÃ¨iĠrÃ©nĠ
ĠfÄĵn ĠzhÅįngĠ
2023 ĠniÃ¡nĠ
jiÄĵĠrÇİng ĠdeĠshÃ¬ĠzhÃ¨nĠ
mÄĽiĠguÃ³ĠrÃ©nĠkÇĴuĠpÇĶĠ chÃ¡ĠdeĠshÃ¹ĠjÃ¹Ġ
cÃ³ng ĠshÃ¬Ġ
er Ġ
jiÄģ ĠlÃ¬Ġ
ĠÃ©r ĠrÃ©nĠkÇĴuĠmÃ¬ĠdÃ¹ĠwÃ¨iĠmÄĽi
gÃ©Ġ lÃ¡n
ĠdÄģngĠdÃ¬Ġ gÃ²ngĠyÇĴuĠrÃ©nĠkÇĴuĠ
jiÄĽĠ juÃ©Ġ
Ġ xiÃłng
fÄĵnĠ lÃ¨iĠ
zÃº ĠdeĠ
liÃ¡nĠ bÄģng
3 ĠniÃ¡nĠ
shÇĲĠyÃ²ng ĠdeĠ
Ġ xiÄģoĠ
dÃł ĠbÃ¹ĠfÃ¨n
yÄ«Ġ zhÇĴngĠ
lÇĲng ĠyÃ¹Ġ
ĠhuÃ²Ġ jiÃ¹ĠshÃ¬ĠzhÃ¨nĠ
hÃ© ĠshÃ¬Ġ
ĠĠĠ lÃ¬Ġ
ĠchÅ«Ġ bÇİnĠ
gÅįu Ġ
yÃ¹nĠ yÃŃngĠ
shÄĽngĠjÃŃĠ xuÇİnĠqÅ«ĠwÃ¨iĠ
jÄ« ĠjÃŃĠ
ĠdeĠ yÄ«ĠbÃ¹ĠfÃ¨nĠ
C Ġ
S Ġ
Ġ jiÇİngĠ
shÃŃ ĠshÃ¬Ġ
Ã©rĠ ziĠ
jiÇĶ ĠniÃ¡nĠ
zuÃ²Ġ pÇĲn
xuÇİn ĠrÃ©nĠ
gÃłiĠ niÃłnĠ
xÄ«ng ĠdeĠ
ĠÄĽr ĠdÃ©Ġ
shÄĽng ĠhÃ©Ġ
jiÄĵĠ shÃ²u
tiÃ¡oĠ yuÄĵĠ
ĠjÇĲnĠ guÇİnĠ
fÃ¨nĠwÃ¨iĠ fÇİĠguÃ³Ġ
ĠgÄģiĠshÄĽngĠ fÃ¨nĠwÃ¨iĠfÇİĠguÃ³Ġ
ĠchÅ«Ġ bÇİn
ĠzhÄ« ĠxiÃłnĠ
tiÄĽ ĠdÃłoĠ
Ġ qÄ«ng
ĠdÃ¬Ġ sÄģn
Ġ sÃ²ngĠ
ĠjÅ«nĠ duÃ¬Ġ
guÇİng ĠzhÅįuĠ
ĠbÃ¹Ġ jiÇĶĠ
Ãło ĠdÃłĠlÃ¬Ġ
ĠwÃ¨iĠ shÃŃĠ
ĠxÄ«Ġ lÃł
Ġ kÄģiĠshÇĲĠ
fÃº ĠjiÃłnĠ
ĠhÃ©Ġ bÃ¬ng
E Ġ
zhÃłnĠ zhÄĵng
ĠyÇĴuĠ rÃ©nĠ
pÃ¡iĠ mÃŃng
Ġ duÃ¬
zhÃłn ĠshÃ¬Ġ
jÇĲnĠbiÄģoĠ sÃłiĠ
Ġ J
ĠniÃ¡nĠ chÅ«Ġ
zuÃ¬Ġ hÃ²uĠyÄ«Ġ
jÇĲngĠ chÃ¡Ġ
qÃºnĠ dÇİoĠ
lÃ¡i ĠyuÃ¡nĠ
i Ġ
tÃ¨Ġ biÃ©
e ĠĠĠ
ĠtÄģĠ bÃ¨iĠ
ĠÃ©rĠ qiÄĽĠ
xÄ«ng ĠjiÃłnĠ
ĠwÃłn ĠrÃ©nĠ
rÃ©ng ĠrÃ¡n
bÄģ ĠniÃ¡nĠ
ĠchÅ«Ġ shÄĵngĠyÃºĠ
shÃ¨ ĠlÃ¬Ġ
y ĠĠĠ
F Ġ
4 ĠniÃ¡nĠ
Ġ ruÃ²Ġ
dÃ¬Ġ yÄ«Ġ
ĠrÃ¬ ĠdeĠ
lÃºnĠ dÅ«n
bÄĽn ĠdeĠ
wÄĽi ĠhuÃ¬Ġ
X Ġ
Ġ yÃ¬ĠwÃ¨iĠ
ĠyÃ³uĠ xÃ¬
ĠrÃ©nĠ gÅįngĠ
xuÃ©Ġ xiÃło
shÇİn ĠxÄ«Ġ
tÅįngĠ chÃ¡ng
ĠzhÃ¬Ġ yÃºĠ
Ġ gÃ¨ng
liÃ¨ ĠwÃ¨iĠ
ĠbÃ¹Ġ mÃŃngĠ
cÃ©ng ĠzÃłiĠ
mÇĶ ĠsÄ«Ġ
ĠmÃŃngĠ chÃ¡oĠ
tiÄģnĠ wÃ©nĠ
yÃ¹n ĠxÃŃngĠ
Ġ Ã©Ġ
cÇİiĠ yÃ²ng
ĠdÃ¬Ġ sÃ¬Ġ
Ã¡ng Ġ
rÃ²u Ġ
yÃ¡nĠjiÅ« ĠsuÇĴĠ
guÇİngĠ fÃłnĠ
ĠĠĠ 18
Ãło ĠsÄ«Ġ
ĠxiÃłnĠ lÃ¹Ġ
mÄĽi ĠzhÅįuĠ
mÃ©ngĠ gÇĶĠ
ĠshÃ¬Ġ bÃ¹Ġ
gÇİnĠ rÇİnĠ
yÇĲ ĠjÃŃĠ
ĠhÃ©Ġ pÃŃngĠ
huÃł ĠshÃŃĠ
jiÄģĠ rÃ¹Ġ
Ġ fÃłnĠ
zhÃłn ĠhÃ²uĠ
ĠĠĠ tÄģ
Ġ jiÄģoĠ
nÃ¡n ĠjÃŃĠ
shuÅįĠ fÇİĠ
xÄ« ĠzÃłiĠ
ĠjÃ¬n ĠdeĠ
ĠrÃ¨nĠ wÃ©i
k Ġ
ĠjÄ«Ġ bÄĽnĠ
ĠjÃ¹Ġ lÃŃĠ
Ġ fÃ¨iĠ
Ġ dÃŃĠ
P Ġ
mÃ³ ĠxÃŃngĠ
guÃ²Ġ chÃ©ngĠzhÅįngĠ
ĠdeĠdÃ¬Ġ fÄģngĠ
wÃº ĠrÃ©nĠ
ĠdeĠ xÄ«nĠ
jÃ¬Ġ shÃ¹Ġ
Ġ rÃłng
ĠjiÃłn ĠyÃ¬Ġ
Ġ dÃ¡Ġ
ĠtÄģ ĠyÇĶĠ
yÃ¹nĠ shÅ«Ġ
gÃ²uĠ mÇİi
wÃ¡n ĠquÃ¡n
wÇĶ ĠshÃŃĠ
ĠkÃ¨ ĠdeĠ
rÃ¨nĠwÃ©i ĠshÃ¬Ġ
ĠzÃłiĠ yÃ¬Ġ
ĠgÃ¨ ĠdÃ¬Ġ
2 ĠniÃ¡nĠ
Ġ chÃ©n
bÃłnĠ gÅįngĠshÃ¬Ġ
Ġ cÄģnĠ
Ġ 10ĠyuÃ¨Ġ
tÃ³ng ĠyÄ«Ġ
duÅį ĠgÃ¨Ġ
wÃłi ĠguÃ³Ġ
ĠzÇĴng ĠrÃ©nĠkÇĴuĠ
ĠĠĠof ĠĠĠ
xuÃ© ĠshÃ¬Ġ
shÃłng ĠyÇĴuĠ
Ġ shÃ²u
yuÃ¡n ĠwÃ¨iĠ
Ġ shÇĲĠyÃ²ngĠ
jiÃłĠ zhÃŃĠ
gÅįngĠ zuÃ²Ġ
ĠzÃ¬Ġ jÇĲĠ
nÃŃ ĠsÄ«Ġ
ĠzÃłiĠ zhÅįngĠguÃ³Ġ
xuÃ©Ġ xÃŃĠ
zhÇİo Ġ
fÄĵi ĠxÃŃngĠ
yÇİngĠ huÃłĠ
quÄģn Ġ
Ġ Äģi
xuÄģnĠ chuÃ¡nĠ
mÃ² ĠxÄ«Ġ
ĠyÄ«Ġ xiÄĵ
xuÇİnĠ zÃ©
chÄĵng ĠwÃ¨iĠ
xiÄģo ĠxÄ«Ġ
ĠxiÃłn ĠrÃ©nĠ
ĠdeĠ guÄģnĠ
Ġ xÄ«ngĠ
hÇİi ĠjÅ«n
biÄģo ĠzhÃ¬Ġ
ĠbÃ¹Ġ mÃ©nĠ
zhÃ¬ ĠwÃ¨iĠ
qÇĲĠ lÃ¡iĠ
ĠĠĠ V
yÃ³uĠ xÃ¬
mÃ¡ Ġ
huÃ¡nĠ jÃ¬ng
fÃ¹ĠzÃ©Ġ guÇİnĠxiÃ¡Ġ
xÃ¬Ġ bÄģoĠ
19 Ġ
ĠwÃ©iĠ zhÇĶĠ
jiÃ¨ ĠquÃ¡nĠguÃ³Ġ
gÃ²u ĠchÃ©ngĠ
shÄ« ĠdeĠ
chÄĵĠ liÃłngĠ
ĠĠĠ yÇĲĠ
zhÃ© ĠxuÃ©Ġ
kÄĵng Ġ
ĠjÃ¬Ġ huÃł
Ġ ÃłnĠ
sÄ« ĠzÃłiĠ
Ġ kÄĵ
zhÃ¨ng ĠdeĠ
Ġ lÃŃn
Äģn ĠquÃ¡n
dÇİng ĠdeĠ
bÇĲ ĠdÃ©Ġ
ĠdÃłoĠ lÃ¹Ġ
chÃ¡oĠ xiÄģnĠ
ĠÃ©rĠ qiÄĽ
Ġ dÇİĠ
yÃŃnĠ hÃ¡ng
on Ġ
ĠyÄ«ngĠ chÇĲĠ
xÄ« ĠdeĠ
ĠshÃ¬Ġ mÄĽiĠguÃ³Ġ
ĠshÃ¬Ġ tÃºĠ
Ġ huÄģĠ
zhÅįng ĠzÃłiĠ
ĠjÃ¬Ġ niÃłnĠ
zhÇĶĠ juÃ©Ġ
Ġ Ã¨r
x Ġ
Ãłn ĠdeĠ
sÃ¬Ġ chuÄģnĠ
bÃ¹ ĠwÃ¨iĠ
ĠjÃŃĠ qÃŃĠ
pÃ©ng ĠyÇĴuĠ
1999 ĠniÃ¡nĠ
chÃŃĠ xÃ¹
24 Ġ
Ãłi ĠÄĽrĠ
g Ġ
ĠĠĠ yÇĴuĠ
ĠgÅįngĠ gÃ²ngĠ
ĠzhÄ«Ġ chÃŃ
kÃłng ĠyÃ¬Ġ
yuÄĵ ĠwÃ¨iĠ
tÃłi ĠguÃ³Ġ
Ġ dÅįuĠ
Ġ fÇİnĠ
jiÄĵ ĠwÃ¨iĠ
xuÇİnĠ qÅ«Ġ
ĠĠĠ hÃ©Ġ
shÃŃ ĠzÃłiĠ
yÃ¬ ĠhÃ©Ġ
huÃ¬ ĠyÇĴuĠ
shÄĵngĠ wÃ¹Ġ
xiÃłoĠ zhÇİngĠ
wÃ©n ĠjiÃłnĠ
Ġ tÃ¡iĠwÄģn
ĠbÃ¨iĠ ÄĽrĠ
gÄĵĠ qÇĶ
shÅįuĠ rÃ¹Ġ
ĠjiÃ© ĠzhÃ¬Ġ
biÄģo ĠwÃ¨iĠ
fÃ³ ĠjiÃłoĠ
rÃ³ng ĠyÃ¬Ġ
Ġ jiÃ¨
ĠĠĠ shÃŃĠ
ÃłoĠ yÃ¹n
ĠĠĠ chÄĵĠzhÃłnĠ
ĠshÄĵngĠ wÃ¹Ġ
suÇĴĠshÇĶĠdeĠ shÄĽngĠjÃŃĠxuÇİnĠqÅ«ĠwÃ¨iĠ
yÇİn ĠdeĠ
biÄģn ĠjÃŃĠ
ĠyuÃ¡nĠ zhÃ¹Ġ
ĠzhÃłnĠ zhÄĵng
sÄ« ĠdÃ¬Ġ
yÄĽ ĠyÇĴuĠ
qiÃłn Ġ
qiÃ¡nĠ wÇİng
Ġ qiÃ¡ngĠ
yÇĶĠ yÃ¡nĠ
zhÃ¨ngĠ cÃ¨Ġ
Ġ ruÃ²
jÃ¬ ĠzhÅįngĠ
mÇĲ ĠÄĽrĠ
jÅ«n ĠduÃ¬Ġ
jiÄĽĠfÃłng ĠjÅ«nĠ
tiÇİo ĠzhÃłnĠ
ĠchÅ«Ġ leĠ
ĠyÃ²uĠ chÄĵngĠ
ÃłoĠ yÃ¹nĠ
ĠzhÃ¬Ġ dÃ¹Ġ
Ġ chÇİngĠ
gÄģo ĠyÃºĠ
ĠshÃ¬Ġ yÃŃĠgÃ¨
ĠhuÃ² ĠshÃ¬Ġ
mÃłnĠ huÃłĠ
gÇİn ĠdÃłoĠ
nÃ¡nĠ xÃ¬ngĠ
7 ĠniÃ¡nĠ
kÅ«n Ġ
ĠyÇĲĠ shÃłngĠ
gÇİiĠ biÃłnĠ
mÇİ ĠlÃ¬Ġ
ĠĠĠ 2021
ĠdÃ¬Ġ xiÃłĠ
fÃ³ Ġ
jiÄĵĠrÇİng Ġ
pÃ¨i ĠhÃ©Ġ
tÃ³uĠ rÃ¹Ġ
Ġ yÃ¹
mÄĽi ĠyuÃ¡nĠ
zhÇĲĠ huÄ«
jiÄģ ĠrÃ©nĠ
wÄĽnĠ dÃ¬ngĠ
1998 ĠniÃ¡nĠ
zhÄģ Ġ
ĠzhÅįngĠ yÇĴuĠ
ĠzÃłiĠ bÃ¹Ġ
Ġ quÃ¨
tÃŃ ĠmÃŃngĠ
dÃ¡ ĠchÃ©ngĠ
ĠyÄ«Ġ zhÇĴngĠ
Ġ yÇİnĠ
rÇĶ Ġ
nÃ¨ Ġ
mÃ² ĠsÄ«Ġ
fÄĵn ĠzhÄ«Ġ
zÃłi ĠshÃ¬Ġ
tÃ³ng ĠdeĠ
jiÇİnĠ jiÃ¨Ġ
Ġ tÅįngĠguÃ²Ġ
shÄĵnĠ fÃ¨n
tiÄģnĠ zhÇĶĠjiÃłoĠ
ĠzhÅįngĠguÃ³Ġ rÃ©nĠmÃŃnĠ
Ġ zÃ¬
biÇİo ĠmÃŃngĠ
duÃ³ ĠdeĠ
tÃŃngĠ zhÇĲĠ
Ġ hÃ¡iĠyÇĴuĠ
ĠÃ©rĠrÃ©nĠkÇĴuĠmÃ¬ĠdÃ¹ĠwÃ¨iĠmÄĽi ĠpÃŃngĠfÄģngĠqiÄģnĠmÇĲĠ
xiÇİo ĠdeĠ
Ġ tÃŃĠ
zhÃ¨ng ĠshÃŃĠ
cÃ¨ ĠdeĠ
zÃło ĠdeĠ
ĠwÃ¨iĠ fÃº
Ġ pÃŃng
juÄģn Ġ
quÃ¨Ġ zhÄĽn
2024 ĠniÃ¡nĠ
ĠjÄ«Ġ bÃłiĠ
ĠĠĠ 2020
bÃłnĠ dÇİoĠ
ĠĠĠ yuÃ¡nĠ
guÃ³ ĠzÃłiĠ
wÇĶĠ qÃ¬Ġ
ĠjiÄģĠ nÃ¡ĠdÃłĠ
ĠpÃŃngĠfÄģngĠ mÇĲĠ
zÃ¬ĠzhÃ¬Ġ qÅ«Ġ
Ġ lÃŃĠ
Ġ 8ĠyuÃ¨Ġ
lÄģ ĠkÃ¨Ġ
lÃ¨i ĠdeĠ
tÄģĠ menĠ
Ġ pÃŃĠ
hÃ¹n ĠhÃ©Ġ
ĠzÃ¬Ġ yÃ³uĠ
ĠĠĠ zÃ¬Ġ
ĠzÃłiĠ mÄĽiĠguÃ³Ġ
ĠshÃŃĠ yÃłn
zuÃ¬Ġ zÇİo
jÇĶ ĠrÃ©nĠ
tuÃ¡n ĠduÃ¬Ġ
dÃ¬ ĠshÃ¬Ġ
Ġ bÅį
kÄĽĠnÃ©ng ĠhuÃ¬Ġ
yÄģ ĠlÃ¬Ġ
quÃ¡n ĠbÃ¹Ġ
c Ġ
Ġ sÅ«
jÃ¬ ĠwÃ¨iĠ
ĠÃ©r ĠbÃ¨iĠ
p Ġ
Ġ zhuÄģnĠ
ĠjÃ¬Ġ chÃ©ngĠ
gÃ²ng ĠxiÃłnĠ
jÃ¬Ġ huÃłĠ
xÄ«ĠbÄģnĠ yÃ¡Ġ
ĠĠĠ in
ĠshÃŃĠ shÄ«Ġ
jiÃ©Ġ mÃ¹
ĠjiÃ©Ġ guÇĴĠ
ĠdÃ¬Ġ tiÄĽĠ
Ġ The
shÄĵngĠ chÇİn
lÃ¡iĠ shuÅįĠ
lÃ¬ ĠbÃ¹Ġ
zhÃ¨Ġ zhÇĴngĠ
chÇİnĠ yÃ¨Ġ
Ġ wÃ¡ng
xÃŃngĠ dÃ²ngĠ
fÄģn ĠyÃ¬Ġ
ĠqÄ«Ġ jiÄģnĠ
ĠchÅ«Ġ rÃ¨nĠ
shÇİoĠ shÃ¹Ġ
Ġ bÃ¨i
cÄģo ĠzuÃ²Ġ
jiÇİnĠ chÃ¡Ġ
bÃłn ĠshÃ¬Ġ
jiÄģĠ nÃ¡ĠdÃłĠ
yÇĲngĠ piÃłnĠ
chÅįngĠ tÅ«Ġ
ĠzÃłiĠ dÃłĠ
ĠtÄģ ĠyÃºĠ
bÇİoĠ hÃ¹
Ãłn ĠjiÃłnĠ
jÃ¬Ġ niÃłnĠ
D Ġ
chÃ³ng ĠjiÃłnĠ
shÇĴu ĠdeĠ
amp Ġ
r Ġ
cÃ©ngĠ jÄ«ngĠ
ĠjiÃłnĠ zhÃ¹
Ġ mÃ¹
ĠshÃŃĠ fÄĵnĠ
ĠshÃ¬Ġ yÇĲĠ
Ġ hÃ¡i
xÃŃng ĠwÃ©iĠ
xÄ«n ĠlÇĲĠ
gÃ²ng ĠtÃ³ng
dÃ²ng ĠdeĠ
kÅįng ĠjÅ«nĠ
nÃłn Ġ
ĠshÇĲ ĠdeĠ
bÃłn ĠgÅįngĠ
ĠzhÇĲ ĠyÇĴuĠ
Ġ mÃ©nĠ
ĠxiÃłn ĠwÃ¨iĠ
qÄ«Ġ jiÄģn
dÃł ĠbÃ¹ĠfÃ¨nĠ
ĠzhÃ¬Ġ zuÃ²
jiÃ©Ġ gÃ²u
fÄĵnĠ biÃ©Ġ
yÄģng Ġ
liÃ¡nĠ sÃłi
juÃ©Ġ sÃ¨
ĠyÃ¬Ġ yÇĴuĠ
t ĠĠĠ
Ġ Äģn
Ġ hÃ¹Ġ
ĠlÃ¬Ġ rÃº
liÃ¡nĠ xÃ¹Ġ
jÃŃ ĠzÃłiĠ
shÄĵn ĠdeĠ
ĠhÃ©Ġ bÄĽiĠ
ĠwÃ¨iĠ nÃ©ngĠ
xiÄģngĠ duÃ¬Ġ
mÃ©iĠ tÇĲ
zhÇĶĠ tÃŃĠ
Ġ chuÃ¡nĠ
jiÇİnĠ shÇİoĠ
ĠhÃ©Ġ liÃºĠ
gÅįngĠ yuÃ¡nĠ
xiÇİoĠ zÇĶĠ
tÃ²u Ġ
Ġ biÄģnĠ
ĠyÃ²u ĠmÃŃngĠ
tÃ²ng Ġ
ĠyÇĲĠ sÃ¨Ġ
fÃ¨nĠ zÇĲĠ
xiÃłn ĠdÃłiĠ
ĠshÃ¬ĠyÄ«Ġ mÃŃngĠ
ĠtÇĲĠ zhÇİngĠ
ĠĠĠ 2019
ĠxÄ«Ġ wÃłngĠ
yÃ¬ng ĠdeĠ
wÄĽiĠyuÃ¡nĠ huÃ¬
mÃ¬ngĠ mÃŃngĠwÃ¨iĠ
Åįu ĠyuÃ¡nĠ
ĠgÅįngĠ sÄ«ĠdeĠ
ĠliÇİng ĠrÃ©nĠ
yÃ¬ ĠzÃłiĠ
dÃ²ng ĠjÄ«Ġ
dÇİ ĠjÄ«Ġ
ĠdeĠdÃ¬Ġ qÅ«Ġ
zhÇİn ĠshÃ¬Ġ
an ĠĠĠ
zhÃ¨Ġ ge
zhuÃ³ Ġ
ĠzhÃŃ ĠzhÃ¬Ġ
ĠshÃ¨Ġ qÅ«Ġ
ĠjÃ¬Ġ xÃ¹
guÄ«Ġ mÃ³
shÇĴu ĠwÃ¨iĠ
xÃºnĠ huÃŃĠ
M Ġ
ĠsÄ«Ġ lÃ¬ng
shÃ¹Ġ liÃłngĠ
xiÃłĠ wÇĶĠ
1996 ĠniÃ¡nĠ
lÃ¹ĠdÃ¬Ġ miÃłnĠjÄ«ĠwÃ¨iĠ
yÃ²ngĠ lÃ¡iĠ
shuÇĲĠyÃ¹Ġ miÃłnĠjÄ«ĠwÃ¨iĠ
ĠlÃ¬Ġ jÃŃĠ
qÇĲĠ yÃ²ngĠ
lÃ¨i ĠxÃŃngĠ
rÃ¨nĠ wÃ¹Ġ
ĠguÃ³Ġ lÃ¬Ġ
ĠshÃŃĠ zÃ¬Ġ
ĠyÄ«Ġ cÃ¬Ġ
duÅįĠ cÃ¬Ġ
pÃŃngĠ jiÃłĠ
bÃ¹ ĠshÃ¬Ġ
Ġ zhÃ¨nĠ
Ġ lÃŃngĠ
Ġ 2009ĠniÃ¡nĠ
ĠdeĠ shÇĴuĠ
ĠfÃ¹Ġ jÃ¬nĠ
jÇĶ ĠxÃŃngĠdeĠ
ĠĠĠ 2018
fÃº ĠhÃ©Ġ
wÃłiĠ jiÄģoĠ
tÇĲĠ xÃ¬Ġ
ĠĠĠ and
ĠzhÃ¨Ġ jiÄģngĠ
1997 ĠniÃ¡nĠ
ĠdÃłĠ shÇĲĠ
zuÃ²Ġ jiÄģĠ
ĠshÃ¨ ĠbÃ¨iĠ
I Ġ
liÇİng ĠgÃ¨
ĠlÃ¬Ġ fÇİĠ
Ġ liÃ¨Ġ
zhÃ¹ ĠyÃ¬Ġ
Ġ ampĠ
diÃłn ĠlÃ¬Ġ
dÃ© ĠdÃłoĠ
kÃło Ġ
kuÃŃ Ġ
ĠsÄ«Ġ lÃ¬ngĠ
ĠcÃ³ng ĠÃ©rĠ
an Ġ
Ġ biÃłn
fÇİĠ lÇľ
jiÃłoĠ tÃ¡ngĠ
ĠdÄģngĠzhÅįngĠ lÃ¹ĠdÃ¬ĠmiÃłnĠjÄ«ĠwÃ¨iĠ
zhÃ¬ ĠhÃ©Ġ
zhÃŃ ĠdeĠ
ĠÃ©rĠ shuÇĲĠyÃ¹ĠmiÃłnĠjÄ«ĠwÃ¨iĠ
qÇĶĠ xiÄģoĠ
jiÃ© ĠzhÃ¬Ġ
shÄĵngĠ huÃ³
fÃºĠ wÃ¹
xuÃ©Ġ zhÄĽĠ
lÃºnĠ dÅ«nĠ
ĠĠĠ xÄ«Ġ
diÄģn Ġ
ĠĠĠ 2022
shuÇĲ ĠpÃŃngĠ
hÇİiĠ yÃ¹Ġ
nÃ¨iĠ rÃ³ng
ĠzhÄ« ĠshÃŃĠ
zhÃ¹Ġ zuÃ²Ġ
Ġ 9ĠyuÃ¨Ġ
yÄ«ngĠ gÃ©ĠlÃ¡nĠ
Ġ xiÃłoĠ
ĠdÃłĠ chÃ©nĠ
ĠchÃ©ngĠlÃ¬Ġ yÃºĠ
ĠĠĠ gÃłiĠ
tuÃ² Ġ
lÇļ ĠkÃ¨Ġ
Ġ guÇİngĠ
zhÃ¬ ĠzÃłiĠ
jiÄĵ ĠjÃ¬nĠ
ĠxÄ«nĠ wÃ©nĠ
chÃ¡ngĠ qÄ«Ġ
ĠwÃ©iĠ ÄĽrĠ
lÃ¬ngĠ wÃłiĠ
ĠĠĠxÃŃngĠzhÃ¨ngĠ qÅ«ĠhuÃłĠ
rÃ¨nĠ mÃ¬ng
gÄģoĠ sÃ¹
ĠjiÄģĠ shÃłngĠ
bÇĲĠsÃłi ĠzhÅįngĠ
yuÃłnĠ zhÇİngĠ
jÇĲ ĠyÇĶĠ
diÇİn ĠdeĠ
xÄ«Ġ yÃ¡ngĠ
ĠyÇĲĠ hÃ²uĠ
ĠjÅ«n ĠwÃ¨iĠ
mÃŃn ĠdeĠ
shuÃ² ĠshÃ¬Ġ
ĠdÃ© ĠdeĠ
wÄĵiĠ liÃ¡nĠ
wÄĽiĠ shÅ«ĠjÃ¬Ġ
ĠyÃ¬Ġ rÃ©nĠ
jiÄģ ĠhÃ©Ġ
tÃłiĠ yÃ¡ngĠ
1992 ĠniÃ¡nĠ
dÇİo ĠyÇĶĠ
pÄ«Ġ zhÇĶnĠ
dÃłi ĠyÇĴuĠ
guÅį Ġ
hÄĵng ĠlÃ¬Ġ
ĠshÃ¬Ġ yÄ«ĠwÃ¨iĠ
ĠxuÃ©Ġ xiÃło
cÄģnĠ yÃ¹
ĠwÃ¨iĠfÃº ĠqÃŃĠyÃºĠ
Ġ 7ĠyuÃ¨Ġ
6 ĠniÃ¡nĠ
cÃ¬ĠshÃ¬ĠjiÃ¨ĠdÃłĠ zhÃłnĠ
mÄĽi ĠniÃ¡nĠ
ĠshÃ¬Ġ qÅ«Ġ
fÄģ ĠchÅ«Ġ
quÃłn Ġ
xÃ¬ng ĠzhÃ¬Ġ
yÇİnĠchÃłng ĠhuÃ¬Ġ
ĠyuÃ¡nĠ yÄ«nĠ
tÇİoĠ lÃ¹nĠ
Ġ formulaĠ
tuÃ¬ ĠyÃ¬Ġ
fÄĵngĠ bÃłoĠ
ĠĠĠ yÃ¬Ġ
bÇĲĠ yÃłĠ
jÄ« ĠzhÃ¬Ġ
xÃ¬n ĠhÃłoĠ
yÃł ĠdeĠ
nÃ©ngĠ gÃ²u
Ġ huÃŃĠ
shÃ²uĠ shÄģngĠ
ĠjiÃłn ĠchÃ©ngĠ
Ġ mÃ©ngĠ
liÃ¡nĠ xÃ¬Ġ
Ġ tuÅįĠ
ĠĠĠ N
wÃ¨iĠ zhÃ¬Ġ
ĠĠĠ 2017
bÃ¬Ġ xÅ«
ĠrÃºĠ guÇĴ
rÃº ĠhÃ©Ġ
ĠtÇĲĠzhÇİngĠ kÄĽĠdÃ¡Ġ
ĠÄĽrĠ tÃ¨Ġ
bÇİoĠ chÃŃĠ
Ġ cÃŃĠ
zhuÄģn ĠjiÄģĠ
fÅ« ĠrÃ©nĠ
jiÇİng ĠxiÃłngĠ
chÄģ ĠyÃ¬Ġ
wÅį Ġ
ĠjÄ«ngĠ guÃ²Ġ
shÃ²u ĠyÇĶĠ
ĠjÄ«Ġ gÃ²u
ĠzÃłiĠ yÃºĠ
ĠdeĠyÄ«Ġ zuÃ²Ġ
ĠtÅįngĠ chÃ¡ngĠ
Ġ guÄ«Ġ
R Ġ
Ġ 2010ĠniÃ¡nĠ
wÇİng ĠlÃ¹Ġ
jÄ«ngĠ yÃŃngĠ
Ġ 12ĠyuÃ¨Ġ
Ġ mÃŃnĠguÃ³Ġ
gÃ²ngĠchÇİnĠ dÇİng
diÃłnĠ tÃ¡iĠ
Ġ 21Ġ
dÅįng ĠxÄ«Ġ
ĠkÃ¨ ĠlÇĲĠ
ĠshÄĵngĠ chÇİnĠ
ĠbÃ¹Ġ lÇĲĠ
tÄģn Ġ
ĠyÇĲĠ xiÃł
cÅ«nĠ zhuÄģngĠ
Ġ 11ĠyuÃ¨Ġ
Ġ rÃłngĠ
lÃ¡i ĠdÃłoĠ
suÃŃ ĠhÃ²uĠ
ĠzhÄ« ĠzhÅįngĠ
Ġ gÇİi
bÃ¬Ġ yÃ¨ĠyÃºĠ
xÃ¹nĠ liÃłn
cuÃ² ĠshÄ«Ġ
lÃłng Ġ
fÇİ ĠdeĠ
miÇİo Ġ
ĠyÃ¬Ġ shÃ¹
zÇĴngĠ dÅ«Ġ
zhÃ¹Ġ mÃŃngĠdeĠ
xÃ¬Ġ liÃ¨
ĠshÃ¬Ġ yÇĴuĠ
ĠjiÃłnĠ duÃ¬Ġ
kuÃłiĠ sÃ¹Ġ
5 ĠniÃ¡nĠ
zhÃ¹ ĠyÃºĠ
Ġ chÃ¡ng
shÃ© Ġ
1994 ĠniÃ¡nĠ
ĠshÃŃĠ rÃ¨nĠ
ĠyÄ«Ġ shÄĵngĠ
gÅ« ĠjÃ¬Ġ
hÃ¡iĠ ziĠ
ĠÄĽr ĠhÃ©Ġ
tÃłiĠpÃŃngĠ yÃ¡ngĠ
Ġ zhÅ«
yÃ¡nĠ gÃ©Ġ
Ġ huÇĴĠ
ĠĠĠ 2016
tÃ³ng ĠyÃ¬Ġ
le ĠdÃłĠ
shÄĵng ĠwÃ¨iĠ
dÇİo ĠshÃ¬Ġ
chÃ©ngĠ gÅįngĠ
Ġ zhÅįngĠdeĠ
Ġ tw
ĠjiÃ©Ġ mÃ¹Ġ
sÃ¬ ĠgÃ¨Ġ
fÄģĠ diÃłnĠ
ĠshÃłngĠ hÇİi
zhÃłn ĠzhÅįngĠ
ĠdeĠ qiÃ¡nĠ
ĠrÃ©nĠ lÃ¨iĠ
jiÃ©ĠshÃ¹ ĠhÃ²uĠ
ĠdÃ© ĠyÇĲĠ
pÇĶĠ tÅįngĠ
shÇİng Ġ
ĠdeĠshÃŃĠ qÅ«ĠwÃ¨iĠ
Ġ xiÇİng
ĠzhÃ¨ngĠ cÃ¨Ġ
15 Ġ
ĠmÃŃngĠ chÄĵngĠ
chÃ¨Ġ xiÄģoĠ
Ġ Ã
yÇĶ ĠzhÅįngĠ
Ġ shÃ¨ng
ĠĠĠ zhÃ¬Ġ
tÃ³uĠ piÃłoĠ
dÇĲĠ dÃ¡Ġ
Ġ yÃ¬nĠdÃ¹Ġ
ĠjÇĲnĠ guÇİn
Ġ wÇİngĠ
fÄģ ĠdeĠ
jÃºĠ zhÇİngĠ
ĠdeĠshÃŃĠ jiÄģnĠ
Ġ fÄģngĠ
gÃ¨ng ĠjiÄģĠ
1995 ĠniÃ¡nĠ
zhÃ¨Ġ xiÄĵ
ĠwÃ¨iĠ shÄĵngĠ
fÇİnĠ huÃŃĠ
yuÃ¨Ġ tÃ¡iĠ
ĠpÃŃngĠ tÃ¡iĠ
guÇİng ĠxÄ«Ġ
Ġ yÃ¡ng
zhÃ¡i Ġ
fÄĽi Ġ
hans Ġ
kuÃ² ĠdÃłĠ
hÄģ ĠÄĽrĠ
Ġ hansĠ
yÃ¬ ĠzhÅįngĠ
dÄĵng ĠlÃ¹Ġ
rÃ³ng ĠyÃ¹Ġ
Ġtw Ġ
yuÃ¨ ĠshÃŃĠ
Ġ qÄ«
Ġ qiÃ¡n
zhÃ²ng ĠdÃłĠ
lÃ¹ ĠyÃ¬Ġ
zÇĶĠ chÃ©ngĠdeĠ
zhÇĲ ĠzÃłiĠ
25 Ġ
ĠshÃ¬Ġ yÇİnĠ
quÃ¨Ġ dÃ¬ngĠ
yÃ¨ ĠhÃ²uĠ
ĠbÃ¹Ġ kÄĽĠ
Ġ sÃłĠ
ĠbÃ¬ngĠ mÃ©iĠyÇĴuĠ
ĠcÇĲ ĠshÃŃĠ
ĠĠĠdeĠ shÃŃĠ
Ġ chÄĵng
jÃ¬n ĠxÃŃng
Ġ ÄģĠÄĽrĠ
ĠxuÃ©Ġ xÃŃĠ
qÃ¬Ġ chÄĵĠ
wÇİn ĠshÃłngĠ
jiÃłoĠ qÅ«Ġ
ĠmÃ¹Ġ qiÃ¡n
mÃŃngĠ chÄĵngĠ
yÃłĠlÃ¬Ġ shÄģn
Ġ lÇľĠ
gÇİiĠ biÄģn
wÃ¹Ġ zhÇĴng
guÄģnĠ zhÃ²ngĠ
xiÄģoĠ shÃ²uĠ
ĠguÃ³Ġ wÃ¹Ġ
ĠzhÄ« ĠyuÃ¡nĠ
ĠĠĠ 2023
yuÃłn ĠdeĠ
bÄģ ĠxÄ«Ġ
ĠgÅįngĠ yÃ¨
ĠhuÃ²Ġ zhÄĽĠ
rÃ¹Ġ kÇĴuĠ
xiÄģngĠ tÃ³ngĠ
bÄģĠ lÃŃĠ
bÇİn ĠdeĠ
Ġ xiÃł
xuÃ© ĠhÃ©Ġ
sÇĶn ĠshÄ«Ġ
pÃ²ĠhuÃłi Ġ
biÇİo ĠxiÃłn
pÄģn Ġ
ĠshÃŃĠ xiÃłnĠ
xÄ«Ġ lÃł
fÄģĠxiÃłnĠ leĠ
ĠĠĠ 2014
kÃłn ĠdÃłoĠ
nÇİi Ġ
qÄ«Ġ zÇĲĠ
guÄģnĠ zhÃ¹Ġ
ĠcÃ©ng ĠrÃ¨nĠ
Ġ Ñ
ĠbÃ¬ng ĠyÇĲĠ
qiÇİng Ġ
xiÅįngĠ yÃ¡
Ġ 6ĠyuÃ¨Ġ
Ġ chuÃłngĠ
ĠĠĠ suÇĴĠshÇĶĠdeĠshÄĽngĠjÃŃĠxuÇİnĠqÅ«ĠwÃ¨iĠ
ĠĠĠdeĠ yÃ³uĠzhÃ¨ngĠbiÄģnĠmÇİĠwÃ¨iĠ
ĠĠĠyÇĶĠ jiÄĵĠrÇİngĠdeĠshÃ¬ĠzhÃ¨nĠ
ĠĠĠyÃºĠ shÃŃĠdeĠrÃ©nĠkÇĴuĠshÃ¹ĠliÃłngĠwÃ¨iĠrÃ©nĠ
ĠĠĠdeĠshÃŃĠ qÅ«ĠwÃ¨iĠ
zhuÄģng ĠzhÃ¬Ġ
Ġ xuÄģnĠbÃ¹Ġ
zhÃŃ ĠwÃ¨iĠ
22 Ġ
Ġ 2011
Ġ U
jÃ¬ ĠhÃ©Ġ
ĠzuÃ²Ġ yÃ²ngĠ
ĠquÃ¡nĠ zhÇİngĠ
tÃº ĠzhÅįngĠ
sÅ«Ġ liÃ¡n
kÄģiĠ fÃłng
ĠĠĠ jÄ«Ġ
xÅ« ĠqiÃºĠ
ĠzhÄ«Ġ mÃŃngĠ
lÃŃn ĠdeĠ
ĠsÄ«Ġ lÄģĠ
shÃŃ ĠwÃ¨iĠ
hÃ©ngĠ xÄ«ngĠ
tuÄ«Ġ dÃ²ngĠ
wÃ©i ĠdeĠ
ĠshÃ¬Ġ zhÇİngĠ
ĠquÃ¡n ĠbÃ¹Ġ
ĠniÃ¡nĠ qÄ«ng
guÇİnĠ lÇĲ
Ġ 2019
ĠjiÄģĠ tÃŃngĠ
rÃ¹Ġ qÄ«nĠ
rÃºĠ cÇĲĠ
Ġ hk
cÃ¡n Ġ
tÃ¡iĠ bÄĽiĠ
yÇĶ ĠhÃ©Ġ
yÃŃĠ dÃ²ngĠ
ĠyÄ«Ġ dÃłiĠ
jÃ¬n ĠshÃ¬Ġ
fÃ¹ ĠdeĠ
ĠchÅ« ĠxiÃłnĠzÃłiĠ
zhÃ¨Ġ jiÄģngĠ
mÇĶĠ qÄ«nĠ
xiÅįngĠyÃ¡ ĠlÃ¬Ġ
Ġ miÃłnĠ
le ĠĠĠ
mÃ¹ ĠsÄ«Ġ
1991 ĠniÃ¡nĠ
ĠrÃ©nĠ shÃ¹Ġ
fÃ¹Ġ qÄ«nĠ
ĠdÃłn ĠtÄģĠ
ĠxÄ«ĠbÄģnĠ yÃ¡
ĠĠĠ 2015
mÃŃnĠ zÃº
guÇİngĠ bÅį
zuÃ¬ ĠchÅ«Ġ
tÃ¡i ĠdeĠ
ĠdÃ¬Ġ qiÃºĠ
Ġ gÄģnĠ
ĠshÃ¬Ġ zhÇĲĠ
1 ĠniÃ¡nĠ
tÃŃ ĠshÄĵngĠ
fÄĵi ĠjiÃłnĠzhÃ¬Ġ
Ġ duÃłnĠ
Ġ chÄĵĠzhÃłnĠ
Ġ Î
Ġ 5ĠyuÃ¨Ġ
xÃ¹nĠ sÃ¹Ġ
Ġhk Ġ
on ĠĠĠ
shÃ¹Ġ xuÃ©Ġ
ĠĠĠ 2013
ĠsÄ«Ġ tÇİnĠ
Ġ jÇĲn
ĠwÃ¨iĠ hÃ©Ġ
ĠbÃ¬ng ĠlÃ¬Ġ
ĠchÃ©ngĠwÃ©iĠ leĠ
niÇĶĠ yuÄĵĠ
Ġ jÄ«ng
Ġ zhuÇİnĠ
fÄģ ĠxÃŃng
ĠjÃ¬nĠ rÃ¹
tÃ¨ ĠlÇĲĠ
kÃłng ĠrÃ¬Ġ
ĠhÃ©Ġ xÄ«nĠ
ĠgÃ¨Ġ zhÇĴngĠ
zÇĴng ĠbÃ¹Ġ
ĠjÃŃĠ qÃŃ
fÄģĠ shÄĵng
shÅįu ĠlÃ¹Ġ
ĠshÃ¬Ġ rÃ©nĠ
jiÃło ĠdeĠ
gÇİo Ġ
lÃ¡n ĠkÃ¨Ġ
mÃ¡ng Ġ
mÃŃng ĠyÃ¬Ġ
cÃ¡i ĠzhÃ¨ngĠ
8 ĠniÃ¡nĠ
chÃłngĠ piÃłnĠ
ĠzuÃ²Ġ pÇĲn
ĠĠĠniÃ¡n Ġ
sÃł ĠkÃ¨Ġ
ĠjÃ¬Ġ zÇİiĠ
ĠzhÅįngĠ wÃ©nĠ
50 Ġ
juÃ©Ġ sÃłi
jÃ¬n ĠgÅįngĠ
16 Ġ
ĠshÃ¬Ġ jÃŃĠ
qÇĲ ĠyÃ¬Ġ
cÄģn ĠyÃ¬Ġ
zhuÃłngĠ kuÃłngĠ
Ġ zÃłoĠchÃ©ngĠ
ĠxiÃłn ĠyÃºĠ
lÇľ ĠwÃ¨iĠ
ĠĠĠ zhÅįngĠguÃ³Ġ
le ĠtÄģĠ
zÄĵngĠ zhÇİngĠ
gÄģoĠ dÃ¹Ġ
chÇİnĠ pÇĲn
cÄģnĠ kÇİoĠ
fÄĵiĠjiÃłnĠzhÃ¬Ġ dÃ¬ĠqÅ«Ġ
ĠjÃ¬Ġ suÃłn
zhÃłnĠ dÃ²uĠ
dÅįu ĠhuÃ¬Ġ
ĠhÃ©Ġ bÃ¬ngĠ
ĠshÄĵngĠ huÃ³
wÃ¡ng ĠdeĠ
Ġ huÃ¡ng
Ġ Ã©ĠluÃ³ĠsÄ«Ġ
zhÃ²ngĠ diÇİnĠ
diÃłoĠ chÃ¡
chÄģi Ġ
ĠdÃłĠ lÃ³uĠ
hÇİi ĠdÃłoĠ
chÃłngĠ piÃłn
ĠrÃ©nĠ menĠ
ĠĠĠ J
wÄĵiĠ xiÃ©Ġ
Ãło ĠdÃ¬ĠlÃ¬Ġ
ĠhÃ©Ġ zhÅįngĠ
shÃłngĠ shÅ«Ġ
ĠwÃ©iĠ qÃŃĠ
lÇĲngĠdÇİo ĠrÃ©nĠ
kÇİn Ġ
Ġ hÃ²u
Ġ dÇİoĠ
jÄ«ngĠ shÃ©nĠ
ĠxiÄģngĠ guÄģnĠ
jiÄģ ĠzhÅįngĠ
suÄ« ĠrÃ¡nĠ
ĠyÄ«n ĠÃ©rĠ
yuÃ¨ ĠzÃłiĠ
liÇİng ĠrÃ©nĠ
ĠĠĠ I
ĠbÃ¹Ġ duÃłnĠ
cÄģnĠjiÄģĠ leĠ
Ġ fÃ¡ngĠ
yÃŃngĠ yÃ¹nĠ
l Ġ
huÃł ĠwÃ¨iĠ
jiÄģng ĠxÄ«Ġ
ĠdeĠchÃ©ngĠ yuÃ¡nĠ
jiÃ© ĠkÃ¨Ġ
23 Ġ
tÃºĠshÅ«Ġ guÇİnĠ
ĠhÃ©Ġ chÃ©ngĠ
zhÇĶĠ chÃŃĠ
ĠzhÅįngĠguÃ³Ġ gÃ²ngĠchÇİnĠdÇİngĠ
jÃ¹ ĠdeĠ
nÃł ĠlÇĲĠ
Ġ 4ĠyuÃ¨Ġ
mÃŃnĠ zhÃ²ngĠ
1988 ĠniÃ¡nĠ
jÃ¬nĠ rÃ¹
mÇĴuĠ xiÄĵĠ
Ġ huÃ¡
shÄĵn ĠwÃ¨iĠ
jÅ« ĠzhÃ¹Ġ
zÃ¬Ġ dÃ²ngĠ
xiÃłĠjÃ¬Ġ ÃłoĠlÃŃnĠpÇĲĠkÃ¨ĠyÃ¹nĠdÃ²ngĠhuÃ¬Ġ
yÄ«n ĠshÃ¬Ġ
al Ġ
Ġ xiÇİo
zhÃłnĠ dÃ²u
shÃŃĠ jiÄģnĠ
Ġ yÇĴuĠshÃŃĠ
chÇİnĠ shÄĵngĠdeĠ
ĠĠĠ zhĠ
ĠzÃłiĠ jiÄģĠ
shuÅį ĠmÃŃngĠ
Ġ tiÄģn
ĠzhÃ¨ngĠ zhuÃłngĠ
yÇĲnĠ fÄģĠ
Ġ qiÃ¡oĠ
dÄģo Ġ
jiÄģngĠ sÅ«Ġ
1993 ĠniÃ¡nĠ
ĠhuÃ²ĠdÃ©Ġ leĠ
Ġ 20
es Ġ
ĠzhÄ«Ġ xiÃłĠ
ĠshÃ¬Ġ wÄĵiĠ
xiÇİoĠ shuÅį
ĠĠĠjiÄģĠ zÃºĠ
Ġ xÇĶĠduÅįĠ
ĠshÃ¬Ġ zhÃ¨n
ĠgÅįngĠ rÃ©nĠ
Ġ wÄĽiĠ
dÃ¬ng ĠleĠ
yÅįu ĠshÃ¬Ġ
lÃ¡n ĠqiÃºĠ
ĠdÃłĠ duÅįĠ
Ġ zuÇĴĠ
zhÅįu ĠdeĠ
suÄ« ĠrÃ¡n
jÃ¬ ĠshÃŃĠ
ĠxiÃłngĠ mÃ¹Ġ
xiÇİn ĠdeĠ
zÄ«Ġ xÃ¹nĠ
ÃłoĠyÃ¹n ĠhuÃ¬Ġ
cuÃ¬ Ġ
sÃ¹ ĠdeĠ
ĠdÃłĠ xÃŃngĠ
Ġ 2018
13 Ġ
ĠyuÃ¨Ġ nÃ¡nĠ
chuÄģng Ġ
xiÃłngĠ mÃ¹
ĠjÃŃĠ lÃ¬Ġ
ĠzhÅįngĠ huÃ¡Ġ
qÇĶ ĠdÃ©
ĠlÃ¡iĠ zÃ¬Ġ
yuÃ¡n ĠzÃłiĠ
ĠbÃ¹Ġ mÃ©n
xiÄģngĠ dÄģngĠ
ĠdÃłnĠ yÃ³uĠyÃºĠ
fÇİngĠ wÃ¨nĠ
zhÃŃ ĠdÃłoĠ
jiÃłoĠ wÃ©iĠ
jiÃ©Ġ hÅ«nĠ
ĠshÃ¬ĠwÃ¨iĠ leĠ
Ġ dÃºĠ
ĠlÇĲĠ lÃ¹nĠ
pÇĲnĠ pÃ¡iĠ
Ġ xuÇİnĠ
Ġ lÇĲ
xÃŃ ĠwÃ¨iĠ
ĠdÃ¬Ġ wÇĶĠ
cÄģnĠ jiÄģ
Ġ pÃ¨iĠ
ĠyuÃ¨Ġ tÃ¡iĠ
zhÅįng ĠwÃ¨iĠ
zhÄĵn ĠshÃŃĠ
L Ġ
zhÅįngĠ huÃ¡ĠrÃ©nĠmÃŃnĠgÃ²ngĠhÃ©ĠguÃ³Ġ
b Ġ
yÇĴu ĠbÃ¹Ġ
yÃ¬n ĠdÃ¬Ġ
mÄĽiĠ shÃ¹Ġ
zhÃ²u Ġ
xÄ«ngĠ qÄ«Ġ
mÃ¬ngĠ lÃ¬ngĠ
xuÃ©Ġ shÃ¹Ġ
ĠdeĠgÅįngĠ zuÃ²Ġ
2020ĠniÃ¡nĠ mÄĽiĠguÃ³ĠrÃ©nĠkÇĴuĠpÇĶĠchÃ¡ĠdeĠshÃ¹ĠjÃ¹Ġ
Ġ biÄģn
Ġ lÇİoĠ
jiÃłn ĠshÃ¨Ġ
jÇĶ ĠxÃŃng
fÃ¡ng ĠyÃ¹Ġ
ĠrÃ¨nĠ wÃ¹Ġ
wÇĶĠ zhuÄģngĠ
ĠĠĠ 2025
yÃŃĠ chÇİnĠ
bÃłoĠ dÇİoĠ
ÃłoĠ mÃ©nĠ
tiÃ¡oĠ zhÄĽngĠ
ĠC Ġ
Ġ zhÃ¨ng
Ġ wÃ©n
ĠshÃŃĠ yÄ«Ġ
tÃŃĠ gÄģoĠ
m ĠĠĠ
bÃ¡ Ġ
ĠjiÄģĠ rÃ¹
ĠzhÄ«Ġ hÃ²u
1990 ĠniÃ¡nĠ
fÄĵiĠ lÇľĠ
wÇİ ĠÄĽrĠ
yÇĲĠ lÃ¡iĠ
Ġ tiÃ¡nĠ
le ĠtÄģĠdeĠ
huÃ¬ ĠyuÃ¡nĠ
ĠshÃŃĠ qÄ«
jÃ¬Ġ lÃ¹Ġ
ĠjÄ«Ġ guÄģnĠ
shÃ¹Ġ zÃ¬Ġ
yÇĶnĠ xÇĶĠ
dÅ« ĠshÃ¬Ġ
leĠ yÃŃĠgÃ¨Ġ
huÃł ĠjiÄģĠ
jÄ«Ġ chÇİngĠ
yÃŃĠ mÃŃnĠ
shÅ« ĠdeĠ
jÃ¹Ġ lÃŃĠ
ĠfÃ¹Ġ zÃ©
Ġ zhuÄģngĠ
ĠshÃ¬ĠyÄ«Ġ zhÇĴng
jÄ«n ĠdeĠ
ĠrÃ©nĠ lÃ¨i
Ġ jiÇĶ
ĠĠĠ 2024
ĠzhÅįu ĠniÃ¡nĠ
ĠzÃ¬ĠjÇĲ ĠdeĠ
jiÄĵ ĠjÃŃĠ
duÃłn ĠdeĠ
dÅ« ĠjiÃłoĠ
hÅįngĠ zhÃł
lÃ¬ ĠshÃ¬Ġ
kÃ¨ ĠlÇĲĠ
yÃ¡n ĠdeĠ
yÄģoĠ qÇĲngĠ
Ġ xiÃ©Ġ
yÃŃng ĠdeĠ
huÄģ ĠyuÃ¡nĠ
yÃ²ngĠ hÃ¹Ġ
shÄģnĠ mÃłi
Ġ hÃ³ng
shÄĵng ĠjÃŃĠ
yuÄĵ ĠyÇĴuĠ
ĠshÃ¬Ġ dÃłĠ
wÃ©nĠ zÃ¬Ġ
Ġ dÃ¬ngĠ
miÃłn ĠduÃ¬Ġ
Ġ liÃ¡ngĠ
Ġ 2011ĠniÃ¡nĠ
dÅįng ĠjÃ¬Ġ
hÃ¡nĠ shÃ¹Ġ
Ġ chÄĵngĠwÃ©iĠ
zÄ«Ġ jÄ«nĠ
dÄĽng ĠwÃ¨iĠ
sÃº Ġ
ĠlÃ¬Ġ shÇĲ
wÇĶĠ tÃ¡iĠ
ĠsuÃ¬ ĠdeĠ
Ġ zhuÇİn
Ġ xÃº
ĠshÃ¨ ĠjÃŃĠ
ĠzhÃ¬Ġ shÃŃĠ
Ġ shÃłng
Ġ guÄģn
ĠzhÃ¬Ġ lÃ¬Ġ
gÄģoĠ dÄĽngĠ
xiÃłoĠ guÇĴĠ
Ġ 2016
ĠsuÇĴ ĠyÇĲ
yuÃ¡n ĠjÃŃĠ
ĠrÃ©nĠ mÃŃn
shÄĵnĠ qÇĲngĠ
ĠhÃ©Ġ lÃ¡nĠ
Ġ 2005ĠniÃ¡nĠ
dÃ²ngĠ zuÃ²Ġ
Ġ ÅįuĠ
ĠxiÃłn ĠhÃ©Ġ
Ġ 3ĠyuÃ¨Ġ
mÄĽiĠ guÃ³ĠdeĠ
Ġ 2008ĠniÃ¡nĠ
19 ĠshÃ¬ĠjÃ¬Ġ
ĠmÃŃngĠchÃ¡oĠ zhÃ¨ngĠzhÃ¬ĠrÃ©nĠwÃ¹Ġ
ĠĠĠ xÄ«nĠ
ĠĠĠ zÇİoĠniÃ¡nĠ
liÇİngĠ zhÇĴngĠ
ĠwÃłn ĠmÄĽiĠyuÃ¡nĠ
Ġ hÃ¡nĠguÃ³Ġ
ĠrÃ¬Ġ jÅ«nĠ
xiÃłĠ lÃ¬ng
jiÃłoĠ liÃłnĠ
lÇĲngĠ tÇĶĠ
Ġ jÃ¹
Ġ shÄ«
nÇĶ ĠlÃ¬Ġ
ĠyuÃ¡nĠ mÃŃngĠ
zhÃ¨ngĠ mÃŃngĠ
Ġ s
ĠĠĠ hÃ²uĠ
Ġ 30
Ġ zhÄģo
liÃ¨Ġ biÇİoĠ
wÃ¨i ĠĠĠ
lÃ¹ ĠjÅ«n
ĠzhÅįngĠ yÃºĠ
zuÃ²Ġ yÃ²ngĠ
jÄ«ngĠ chÃ¡ngĠ
qÅ«Ġ yÃ¹
yÇĴu ĠzÃłiĠ
ĠyÃ¬Ġ yÃ¬Ġ
yÇĲngĠ piÃłn
G Ġ
Ġ xiÅ«Ġ
ĠjÃ¬n ĠxÃŃng
ĠnÃ¡n ĠzhÃ¬Ġ
ĠĠĠ yÃ³uĠ
ĠguÃ³Ġ huÃ¬Ġ
ĠgÅįngĠ huÃ¬Ġ
ĠyuÃ¡nĠ gÅįngĠ
guÄģnĠ xÃ¬
ĠjÃ¬Ġ zhÄĽĠ
Ġ chÃ¬Ġ
nÃ¨iĠ lÃ¹Ġ
2 ĠrÃ©nĠ
Ġ pÃ¨i
zhÇİo ĠdÃłoĠ
1984 ĠniÃ¡nĠ
wÃ¡ngĠ chÃ¡o
huÃŃĠ yÃ¬ngĠ
jÄ«ng ĠlÇĲĠ
lÇļ ĠxÃŃngĠ
yÃ²ngĠ zuÃ²Ġ
shÃ©nĠ jÄ«ngĠ
ĠshÃ¬Ġ hÃ²uĠ
Ġ yÄ«ng
Ġ Ch
lÇĲĠ lÃ¹nĠ
ĠgÅįngĠ chÇİngĠ
fÃ¹Ġ jÃ¬nĠ
yÃº ĠzÃłiĠ
Ġ juÃ©
Ġ bÃ³
tÃłi ĠrÃ©nĠ
ĠhÃ©Ġ gÅįngĠ
chÅ«Ġ bÇİnĠ
kÄĽĠyÇĲ ĠzÃłiĠ
suÃ¬ ĠdÃłoĠ
bÇİoĠ chÃŃ
zhÄ«Ġ jiÄģnĠ
jiÇĶĠ diÃłnĠ
tÃŃ ĠdÃłoĠ
ĠchÃ©ngĠ xiÃłnĠ
ĠniÃ¡nĠ1ĠyuÃ¨Ġ 1ĠrÃ¬Ġ
ĠjÄ«Ġ chÄĵĠ
ĠshÃŃĠ Ã¨rĠ
guÄ«Ġ zÃ©Ġ
wÇĴĠ men
Ġ luÃ³
Äģi ĠjÃŃĠ
1989 ĠniÃ¡nĠ
Ġ bÇĲ
gÃ© ĠwÃ¨iĠ
tÄ« Ġ
qÃ¬Ġ xiÃłngĠ
shÇĴu ĠjÄ«Ġ
ĠguÃ³Ġ fÃ¡ng
kÅįng ĠzhÅįngĠ
ĠniÃ¡n ĠshÃ¬ĠjiÃ¨Ġ
Ġ zhÇĴngĠ
zhÃ¹ ĠlÇĲĠ
ĠyÃºĠ 18
bÃ¨i ĠshÃ¬ĠwÃ¨iĠ
tÅįng ĠdÃłoĠ
kÇĴng ĠbÃ¹Ġ
qÃŃĠzhÅįngĠ yÄ«ĠzhÇĴngĠ
Ġ hÄĽnĠ
zuÃ² ĠwÃ¨iĠ
shÇĴuĠ dÅ«Ġ
ĠdeĠ zhÃ¬Ġ
lÃ¬ ĠwÃ¨iĠ
shÅ« ĠjÃŃĠ
ĠÃ©r ĠchÃ©ngĠ
jÄ« ĠhÃ©Ġ
dÅįngĠ nÃ¡nĠbÃ¹Ġ
ĠwÇĴĠ menĠ
yÇĲ ĠxiÃłĠ
ĠxÄ«Ġ wÃłng
ĠmÄĽi ĠniÃ¡nĠ
Ġ fÇİn
yÇİn ĠyÃ¬Ġ
xÄ«nĠjiÄģĠ pÅį
dÃłĠ lÃ¹ĠdeĠ
Ġ lÃ©iĠ
qÇĲĠ yÃ¨
ĠzuÃ²Ġ wÃ©i
dÃłi ĠlÇĲĠ
mÄĽng Ġ
ĠdeĠ jiÄģĠ
jÄ«nĠ shÇĶĠ
jÃ¬nĠ yÃŃĠbÃ¹Ġ
lÃ¡o ĠdÃ²ngĠ
to ĠĠĠ
zhÇĶĠ chÃŃ
jiÃłoĠ xuÃ©Ġ
biÇİoĠ miÃłnĠ
gÃ¹Ġ wÃ¨nĠ
Ġ yÄ«ngĠyÇĶĠ
nÄ« Ġ
ĠhÃ©Ġ xÄ«Ġ
ĠbÃ¹Ġ bÃ¹Ġ
cÃ¡iĠ liÃłoĠ
ĠhÃ©Ġ shÃŃĠ
ĠyÇĴuĠ jÄ«Ġ
chÃ¡oĠ xiÄģn
Ġ2001ĠniÃ¡nĠ rÃ©nĠkÇĴuĠ
dÃło ĠlÃ¹Ġ
fÄĵn ĠzhÅįngĠ
huÃ¡ ĠrÃ©nĠ
or Ġ
ĠzÃłiĠ wÃ¨iĠ
ĠbÄĽiĠ qÇĲĠ
jÃ¬ng ĠdeĠ
sÇĲ ĠhÃ²uĠ
bÇİoĠ liÃºĠ
bÅįĠ lÃ¡n
14 Ġ
tÅįngĠ chÄĵĠ
Ġ tÇĶĠ
sÄ« ĠlÃ¬Ġ
ĠzhÅįngĠguÃ³Ġ dÃłĠlÃ¹Ġ
bÃ¡iĠ sÃ¨Ġ
yÃłĠlÃ¬ĠshÄģn ĠdÃłĠ
huÃ¬ ĠshÃ¬Ġ
ĠyÇĲĠ bÃ¨iĠ
K Ġ
ĠwÃłn ĠyuÃ¡nĠ
jÅ«Ġ mÃŃn
zhÇĶ ĠlÃ¬Ġ
ĠpÃŃngĠ miÃłnĠ
nÃŃ ĠkÃ¨Ġ
ĠtÄģ ĠwÃ¨iĠ
Ġ 2021
zhÇĶ ĠdeĠ
ĠzhÄ«Ġ jiÄģn
ĠsÄ«Ġ tÃ¨
fÇİĠ ÃłnĠ
yÇĲnĠ qÇĲĠ
o ĠĠĠ
zhÃłi Ġ
nÇļĠ zÇĲ
yÇĲnĠ qÇĲ
ĠxiÃłnĠdeĠ yÃŃĠgÃ¨Ġ
ĠdÃłoĠ dÃ¡Ġ
zhÃłoĠ kÄģiĠ
ĠnÇļĠ xÃ¬ngĠ
Ġ chÃ¡Ġ
ĠdÅįngĠ nÃ¡nĠ
yÃ¹n ĠzuÃ²Ġ
ng Ġ
jiÄģo ĠhuÃ¬Ġ
shÇĴu ĠgÃ¨Ġ
tuÃ¬ ĠchÅ«Ġ
dÃ¬Ġ Ã¨rĠ
ĠÃ©rĠ yÃ¡nĠ
ĠxiÃłnĠdeĠ yÃŃĠgÃ¨
ĠbÃ¨iĠ rÃ¨nĠwÃ©iĠshÃ¬Ġ
ĠĠĠ 2012
lÃ¬ ĠzÃłiĠ
zhÃ¡ Ġ
ĠjÄ«Ġ hÅ«
ĠkÃ¨ ĠchÃ©ngĠ
wÃ©nĠ zhÄģngĠ
cÃ©ngĠ jÄ«ng
jÇĲ ĠgÃ¨Ġ
jiÃ¨ ĠdeĠ
ĠshÃ¬Ġ jiÄģĠ
ĠyÇĴuĠ yÃ¬Ġ
tÃ¨Ġ shÅ«Ġ
ĠxÄ«Ġ sÄ«Ġ
xiÄģngĠ guÄģn
shÄ«Ġ fÃłn
ĠfÃ¹Ġ qÄ«nĠ
wÃºĠ fÇİ
cÄģnĠ mÃ³u
3 ĠrÃ©nĠ
Ġ p
Ġ sĠĠĠ
jÄ«n ĠhuÃ¬Ġ
1985 ĠniÃ¡nĠ
jiÃłoĠ shÄ«Ġ
O Ġ
ĠĠĠ xiÃłĠ
lÇľĠ shÄ«Ġ
Ġ gÇİngĠ
fÄĵi ĠzhÅįuĠ
ĠshÃ¬Ġ yÇĶĠ
xÄ«ĠbÄģnĠ yÃ¡
Ġ jÃ¹ĠyÇĴuĠ
dÃł ĠwÃ¨iĠ
ĠyÄ«Ġ jÃŃĠ
chÃ¡ng ĠdeĠ
ĠbÃ¹Ġ dÃ©
ĠtÄģĠmen ĠzÃłiĠ
Ġ qÇĶĠ
wÄĵi ĠjÄ«Ġ
Ġ gÃ©
ĠyÃ¬Ġ fÄģngĠmiÃłnĠ
fÇİĠ yuÃłn
yÃŃĠ zhÇĲĠ
ĠÃ©rĠshuÇĲĠyÃ¹ĠmiÃłnĠjÄ«ĠwÃ¨iĠ 0
Ġ fÃ©ngĠ
lÄĽng Ġ
ĠguÃ³Ġ jiÄģĠdeĠ
Ġ lÃŃ
zhÄĽ ĠzÃłiĠ
ĠhÃ©Ġ qÃŃĠtÄģĠ
xÃ¬ĠtÇĴng ĠdeĠ
yÃł ĠzhÅįu
chÄĵ ĠdeĠ
jÄ«nĠ pÃ¡iĠ
duÅį ĠniÃ¡nĠ
ĠzhÄ« ĠwÃ¨iĠ
ĠbÃ¬ngĠ jiÄģngĠ
ĠzhÇĶĠ xÃŃĠ
kÄģng ĠxÄ«Ġ
yÃłoĠ wÃ¹Ġ
Ġ hÇİi
Ġ bÄģnĠ
Ġ yÅįngĠyÇĴuĠ
ĠchÃ©ngĠ xÃ¹Ġ
ĠwÃ¨iĠ yÇĴuĠ
biÇİoĠ dÃ¡
Ġ00 Ġ
dÃł ĠdÃ¬Ġ
biÃłn ĠdÃ©Ġ
ĠchÃ©ngĠ rÃ¨nĠ
zhÃŃĠ mÃŃn
guÃ²Ġ qÃ¹Ġ
pÃºĠtÃ¡oĠ yÃ¡
ĠzhÃ¬Ġ liÃ¡oĠ
huÄģnĠ yÃŃngĠ
ĠĠĠ chÃ©ngĠ
wÃ©n ĠxiÃłnĠ
ĠsÄ«Ġ kÃ¨Ġ
ĠjÃ¬nĠxÃŃngĠ leĠ
mÃ¹Ġ biÄģo
fÃº ĠyÃ¬Ġ
zhuÄģng ĠshÃ¬Ġ
dÅįngĠ bÄĽiĠbÃ¹Ġ
gÃ²uĠ zÃłoĠ
huÃ²ĠdÃ©Ġ leĠ
bÃ³ĠwÃ¹Ġ guÇİn
ÃłoĠdÃłĠlÃ¬Ġ yÃłĠ
Ġ fÃ¨i
Ġ guÄģnĠyÃºĠ
ĠqiÃº ĠyuÃ¡nĠ
Ġ 100
jiÄģng ĠhuÃ¬Ġ
bÄĽn ĠdÃ¬Ġ
ĠÃ©rĠ gÄģiĠdÃ¬Ġ
Ġ bÇİiĠ
xiÄģn ĠshÄĵngĠ
ĠbÃ¹Ġ lÄģĠ
bÅįĠ lÃ¡nĠ
1949 ĠniÃ¡nĠ
ĠyÃºĠ lÃ¨Ġ
jiÄģĠ rÃ¹
fÃłngĠ qÃ¬Ġ
jiÃłn ĠyÃ¬Ġ
Ġ 2015
yÃ¬Ġ dÃłĠlÃ¬Ġ
Ġ bÃłnĠ
dÄģngĠ shÃŃĠdeĠ
ĠqÄ«Ġ xÄ«ĠzÃłiĠ
Ġ zhÃ¹
zÃ© ĠwÃ¨iĠ
in Ġ
mÃ¡o ĠzÃ©Ġ
liÇİng ĠniÃ¡nĠ
xiÃło ĠdeĠ
sÃł ĠsÄ«Ġ
ĠbÃ¬ng ĠyÇĶĠ
Ġ tÃŃĠgÅįngĠ
ĠdÃłĠ lÃ¹Ġ
Ġ qÇĲ
fÃ¹Ġ qÄ«n
ĠwÃ¨iĠ lÃ¡iĠ
Ġ 2007ĠniÃ¡nĠ
zÃ¬Ġ yÃ³u
ĠĠĠ cÃ³ngĠ
chÄĵng ĠzuÃ²Ġ
ĠjiÃłnĠ zÃłoĠ
ĠjÃ¬nĠ yÃŃĠbÃ¹Ġ
liÃº ĠzÃłiĠ
shÅįu ĠshÃ¬Ġ
ĠdeĠ zhÃ¨ngĠ
guÇİngĠ gÃłoĠ
nÃ¡nĠ jÄ«ngĠ
ĠjÃ¬n ĠgÅįngĠ
en Ġ
st ĠĠĠ
jÇĲn ĠjÃŃĠ
sÃł ĠÄĽrĠ
luÃ³ ĠdÃ¬Ġ
ĠshÃ¬Ġ zhÃ¨ngĠ
ĠfÃ¹Ġ qÄ«n
ĠjÃ¬Ġ shÃ¹
ĠhÃło ĠwÃ¨iĠ
jÃ¬Ġ xÃ¹Ġ
xÃ¬Ġ jÃ¹Ġ
tÇİn ĠkÃ¨Ġ
ĠdeĠ shÄĵngĠ
ĠrÃ©nĠ men
ĠrÃ¬Ġ jÅ«n
9 ĠniÃ¡nĠ
ĠyÃ¬Ġ mÄĽiĠyuÃ¡nĠ
cÃ¬Ġ shÇĲĠ
Ġ 2013
ĠzÃłiĠ cÇĲ
Ġ gÄģo
ĠtÃ¨ĠbiÃ© ĠshÃ¬Ġ
huÇĴ ĠjiÃłnĠ
ĠjiÄģĠ zÃºĠ
piÃłoĠ fÃ¡ngĠ
qÇĲng ĠqiÃºĠ
jÇĲngĠ fÄģngĠ
kÇİoĠ lÇľ
bÇĲĠlÃ¬Ġ shÃŃĠ
1986 ĠniÃ¡nĠ
ĠshÃ¬Ġ rÃ¬ĠbÄĽnĠ
ĠsÄ«Ġ tÇİn
ĠjiÃ©Ġ guÇĴ
tÃłiĠpÃŃngĠ yÃ¡ng
zhÄģnĠ mÇĶĠsÄ«Ġ
Ġ bÄ«ngĠ
Ġ 2014
quÃ¨ ĠrÃ¨nĠ
ĠchÅ«Ġ shÄĵngĠ
dÃ¬ ĠzÃłiĠ
tiÄģn ĠdeĠ
ĠyÇĲ ĠyÇĴuĠ
ĠĠĠ 2
biÄģn ĠdeĠ
pÄģi Ġ
shÃłngĠ wÇĶĠ
tÃ³uĠ piÃło
bÄģĠ lÃŃ
wÃ¡ngĠ chÃ¡oĠ
ĠxÃ¬Ġ liÃ¨Ġ
ĠĠĠ jiÃ©ĠzhÃ¬Ġ
nÃ¨i ĠyÇĴuĠ
wÃ¡n ĠgÅįngĠ
ĠzhÃ¬Ġ chÃ©ngĠ
guÇİngĠdÅįngĠ shÄĽngĠ
pÄģi ĠshÃ¨
fÄĽn Ġ
ĠyuÃ¡nĠ bÄĽnĠ
chÃ©ng ĠniÃ¡nĠ
chÇİng ĠhÃ©Ġ
ĠqÃŃ ĠzÃłiĠ
ĠzhÄ«Ġ ziĠ
mÇĶĠ qÄ«n
shÄĵnĠ tÇĲĠ
mÃ©ngĠ gÇĶ
Ġ sÃłiĠjÃ¬Ġ
ĠdÃłĠ yuÄĵĠ
ĠzhÃłnĠ dÃ²uĠ
ĠzhÄ« ĠdeĠ
gÇĶĠ fÃ¨n
xÃŃĠ xÃ¬ng
gÃ¨ng ĠduÅįĠ
hÃºĠ bÄĽiĠ
ĠyuÄĵĠ hÃłnĠ
dÄĵng ĠshÃłngĠ
ĠxiÃłnĠ chÇİngĠ
Ġ hÃ¨Ġ
ĠĠĠ zÄĵngĠ
suÇĴ ĠzÃłiĠ
yÇİnĠ chÃłngĠ
qÃŃngĠ bÃłoĠ
ĠyÄ«ngĠ wÃ©nĠ
Ġ dÃ¨ng
wÃłi ĠbÃ¹Ġ
zhÃ²ng ĠyÃ¬Ġ
mÃŃnĠ jiÄģnĠ
mÃ¬Ġ mÃ¬Ġ
Ġ jÄ«ngĠjÃ¬Ġ
guÄģnĠ bÃ¬Ġ
guÇİngĠ fÃłn
Ġ cÃ¨Ġ
xiÃło ĠyuÃ¡nĠ
ĠshÃ¬Ġ yÃ¨Ġ
ĠzÃłiĠ qÃŃĠ
1 ĠrÃ©nĠ
Ġ shÅįuĠ
ĠĠĠ U
kÇİoĠ lÇľĠ
Ã©ĠluÃ³Ġ sÄ«
ĠniÃ¡n ĠĠĠ
tÃ¨Ġ sÃ¨Ġ
ĠwÇĴĠ men
ĠyÇĴuĠ xiÃłnĠ
sÄĵnĠ lÃŃnĠ
mÇİ ĠsÄ«Ġ
Ġ 2020
Ġ lÇļĠ
Ġ ÄģiĠ
wÃ¹ ĠyuÃ¡nĠ
ÄģnĠ pÃ¡iĠ
Ġ liÃłngĠ
ĠquÃ¡n ĠqiÃºĠ
Ġ xiÇİngĠ
Ġ xÃºnĠ
xiÃł ĠyÄ«Ġ
Ã¨r ĠyuÃ¨Ġ
ĠdÃłĠ duÅįĠshÃ¹Ġ
ĠbÃ¹Ġ jiÇĶ
zhuÄģng ĠbÃ¨iĠ
chÄ« Ġ
Ġ hÃ©ngĠ
huÇİn Ġ
ĠdÃłĠ dÃłoĠ
Ġ wÃ²
nÃ©ng ĠzÃłiĠ
ĠjÄ«Ġ bÃłi
tÇĶĠÄĽr ĠqÃŃĠ
qiÄģn ĠzhÃ¬Ġ
zÃ¨ng Ġ
ĠdÃ¬ĠyÄ«Ġ cÃ¬Ġ
ĠzuÃ¬Ġ gÄģoĠ
Ġ yÃ¡n
Ġ cÄģnĠjiÄģĠ
Ġ 10Ġ
chÇİng ĠdÃ¬Ġ
mÃŃnĠzhÇĶĠ dÇİngĠ
xÃ¬ngĠ qÃ¹Ġ
ĠshÃŃĠ yÃłnĠ
zuÃ²Ġ zhÃłnĠ
nÃ¡n ĠyÇĲĠ
cÃ¹n Ġ
ĠjÃŃĠ bÄĽiĠ
ĠchÅ«Ġ lÃ¡iĠ
tÃ¡iĠ fÄĵngĠ
tiÄģnĠ jÄ«nĠ
Ġ Ã©
Ġ zhÅįngĠshÃ¬Ġ
Ġ 2017
bÃłn ĠlÇĲĠ
ĠzhÄ« ĠdÃłoĠ
tiÄģnĠ jÄ«n
lÃ³ngĠ jiÄģngĠ
Ġ gÄģngĠ
lÇĲng ĠshÃ¬Ġ
ĠbÃ¹Ġ zÃºĠ
yÃ²ngĠ tÃºĠ
lÇĲ ĠgÅįngĠ
ĠtÅįngĠ chÃ¡ng
n ĠĠĠ
Ġ kÄģngĠ
ĠyuÃ¡nĠ sÃ¹Ġ
wÄĵi ĠÄĽrĠ
nÃ³ngĠ yÃ¨
ĠqÄ«ngĠ chÃ¡oĠ
Äģi ĠÄĽrĠ
Ġ hÃ¡oĠmÇĲĠ
chÃ¡ng ĠjiÃłnĠdeĠ
ĠchÃ©ngĠ dÃ¹Ġ
zhÃłnĠ lÇĲngĠ
ĠniÃ¡nĠ bÃ¨iĠ
jÃ¬nĠxÃŃngĠ leĠ
ĠshÇĲ ĠjiÃłnĠyÃºĠ
ĠĠĠ mÃŃngĠ
dÇİo ĠdÃłnĠ
xiÅ« ĠzhÃ¨ngĠ
ĠyuÃ¨Ġ tuÃ¡nĠ
guÃ¬ ĠzhÅįuĠ
fÄĵn ĠbÃ¹ĠyÃºĠ
mÇİĠlÃ¡i ĠxÄ«ĠyÃłĠ
ĠĠĠ xiÃłn
zÇĶ ĠjiÃłnĠ
xÇĲ ĠjÃ¹Ġ
ma Ġ
ĠgÅįngĠ zhÇĶĠ
ĠtÄģĠ hÃ¡iĠ
xÃŃĠxÃ¬ng ĠbÃ¹ĠmÃŃngĠ
ĠshÃŃĠ dÃłi
zhÃłngĠ ÃłiĠ
ĠwÃ©nĠ huÃłĠ
c ĠĠĠ
xiÃłng ĠshÃ¬Ġ
ĠchÅ«Ġ qÄ«Ġ
ĠzhÃłnĠ dÃ²u
huÃ¡Ġ shÃ¨ngĠ
shÄĵng ĠchÃ©ngĠ
te Ġ
ĠyÇĴuĠ xiÄĵĠ
jiÄģoĠ liÃºĠ
rÃ¨nĠmÃ¬ng ĠwÃ¨iĠ
ĠshÄĵngĠ chÇİn
ĠĠĠ tÄģĠ
ĠyÃ¬Ġ qÇĲ
fÇİĠ guÄģnĠ
ĠyÄĽĠ jiÃ¹ĠshÃ¬Ġ
ĠdeĠ fÄģngĠshÃ¬Ġ
ĠhÃ©Ġ hÃ©Ġ
ĠshÄĵngĠhuÃ³Ġ xÃŃĠxÃ¬ngĠbÃ¹ĠmÃŃngĠ
shÃ¨ ĠzhÃ¬Ġ
shÃ²u ĠdÃło
tÃŃ ĠchÅ«
Ġ chÇĶĠyÃºĠ
jÄ«Ġ chÇĶĠ
ĠtÄģĠ yÄĽĠ
Ġ luÃ²
Ġ tÃ¡oĠ
hÄĽn ĠdÃłĠ
4 ĠrÃ©nĠ
zhÃ¬ ĠzhÅįngĠ
kÇĶ Ġ
bÃłoĠ fÄģ
zhÇĶ ĠshÃ¬Ġ
ĠwÃłn ĠlÃ¬Ġ
Ġ gÄĵnĠjÃ¹
ĠĠĠ mÄĽiĠguÃ³Ġ
se Ġ
jÃ¹Ġ juÃ©Ġ
chuÃ¡nĠ shuÅįĠ
lÇĲngĠ xiÃ¹Ġ
Ġ yÃŃnĠ
Ġ gÃ²ngĠyÇĴuĠ
lÄģĠ dÄ«ng
huÃłĠhÃ©Ġ wÃ¹Ġ
er ĠĠĠ
ĠÃ©rĠ bÃºĠshÃ¬Ġ
ÄģnĠ zhuÄģng
Ġ hÃłn
Ġ zhÃło
Ġ ruÃ¬Ġ
rÃ¨n ĠshÃŃĠ
1987 ĠniÃ¡nĠ
chuÃłngĠ bÃłn
Ġ xuÄģnĠ
Ġ kÇĴngĠ
bÃło ĠlÃ¬Ġ
ÄģnĠ nÃłĠ
ĠyÄ«Ġ xuÃ©Ġ
Ġ gÃ²ng
Ġ pÃł
zhÃ¬ ĠbÃ¹Ġ
ĠA Ġ
jiÄģĠlÃ¬Ġ fÃºĠ
qiÃ³ng Ġ
ĠyÇĴuĠ yÃŃĠgÃ¨Ġ
ĠxiÃłnĠ xiÃłngĠ
shÃłngĠ yÃ¬ngĠ
ĠĠĠ lÇĲĠ
fÇİ ĠyÇĶĠ
wÃ©n ĠyÃ¬Ġ
shÃº Ġ
ĠzÃłiĠ nÃ¨iĠdeĠ
gÄģoĠ sÃ¹Ġ
Ġ rÃ³ngĠ
ĠzÃłiĠ dÃ¹Ġ
ĠÃ©r ĠbÃ¹Ġ
jÃ¬ ĠshÃ¬Ġ
yuÃłn ĠshÃ¬Ġ
ĠwÃ¨iĠ xÄ«ngĠ
ĠlÇĲĠ lÃ¹n
wÇĴĠ menĠ
Ġ kÇİ
yÃ¡nĠ shÄĵn
hÇİiĠ ÃłnĠ
chuÃłng ĠjiÃłnĠ
bÄ«n ĠhÇİiĠ
shÃ¹n ĠlÃ¬Ġ
1980 ĠniÃ¡nĠ
ĠdÅįngĠ bÄĽiĠ
ĠĠĠcÇĲĠ wÃłiĠ
Ġ 2013ĠniÃ¡nĠ
mÄĽi ĠgÃ¨Ġ
lÃ©i ĠsÄ«Ġ
ruÇİn ĠjiÃłnĠ
ĠshÄĵngĠ zhÇİng
shÅ«Ġ rÃ¹Ġ
ĠyÃ³u ĠqÃŃĠshÃ¬Ġ
tuÄ« ĠjÃ¬nĠ
ĠhÃ©Ġ bÃ¹Ġ
zÄ«Ġ chÇİnĠ
lÃ¹nĠ wÃ©nĠ
ĠxÃŃngĠ zhÃ¨ng
nÇļĠ xÃ¬ng
wÇİng ĠqiÃºĠ
hÇİiĠ wÃłiĠ
tÃ³ng ĠniÃ¡nĠ
Ġ shÇĶ
Ġ nÃł
Ġ tÇİĠ
ĠbÃ¹Ġ luÃ²Ġ
ĠdÃłĠ shÃł
zhÇĶĠ yÃ¬ĠdeĠ
pÃŃngĠ lÃ¹nĠ
Ġ 2010
zuÃ¬Ġ gÄģo
yÃ¬ngĠ yÃ²ng
cÇİiĠ qÇĶĠ
Ġ 2012
Ġ wÇİĠ
jiÃło ĠshÃ¬Ġ
bÇİnĠ bÄĽn
pÃ¡iĠmÃŃng ĠdÃ¬Ġ
Ġ sÄģiĠ
biÃłn ĠwÃ¨iĠ
Ġ 2006ĠniÃ¡nĠ
zÅ« Ġ
bÃłoĠ gÃło
ĠbÄĽiĠ jÄ«ngĠ
yÃº ĠdeĠ
jÃ¹ ĠhÃ©Ġ
bÅįĠ fÃłngĠ
ĠĠĠ qÃŃĠ
sÄģn ĠshÃ¬Ġ
ĠzÃłiĠ xÄ«Ġ
rÃ©nĠ dÃłĠ
ĠdÃ© ĠÄĽrĠ
ĠhÃ²uĠ xuÇİnĠrÃ©nĠ
tÃ³uĠ zÄ«
wÇİngĠ luÃ²
1982 ĠniÃ¡nĠ
mÇİ ĠlÇĲĠ
zÃ© ĠrÃ¨nĠ
fÄģngĠ miÃłnĠdeĠ
gÃ¨Ġ zhÇĴngĠ
Ġ Ma
Ġ sÃłiĠ
ĠshÃ¬Ġ mÃŃnĠ
ĠhÃ©Ġ dÃłĠ
diÃłnĠ zi
lÇĲng ĠdÃ¬Ġ
rÇİo Ġ
ĠzÃłiĠ cÃ¬
fÃłnĠwÃ©iĠ nÃ¨iĠ
ĠĠĠ qiÃ¡nĠ
ĠĠĠjÃ¹Ġ qÃŃngĠ
zhÃ¨ ĠlÇĲĠ
xiÄģng ĠshÃ¬ĠdÃ¬Ġ
ĠyÃºĠ rÃ©nĠ
zhÃ¨ngĠ dÇİngĠ
yÇĲnĠ qÃŃngĠ
ĠĠĠand ĠĠĠ
ĠrÃ¬Ġ bÃłoĠ
ĠlÃ¬ng ĠyÄ«Ġ
xÃŃng ĠchÃ©ngĠ
fÄģ ĠxÃŃngĠdeĠ
1983 ĠniÃ¡nĠ
ĠjÄ«Ġ hÅ«Ġ
Ġ 188
zhÃŃĠ jiÄĵ
fÄĵng ĠwÃ¨iĠ
pÃłi ĠdeĠ
ĠshÃ¬Ġ gÃ¹Ġ
xÃ¬Ġ bÄģo
ĠmÄĽi ĠgÃ¨Ġ
ĠzhÃ¬Ġ shÇİoĠ
biÇİoĠ dÃ¡Ġ
yuÃłn ĠyÃ¬Ġ
17 Ġ
1945 ĠniÃ¡nĠ
ĠtÄģ ĠhÃ©Ġ
jÃ¹Ġ lÃ¨ĠbÃ¹Ġ
dÃºĠ lÃ¬ĠdeĠ
ĠzhÄ«Ġ fÃ¹Ġ
diÃłnĠ nÇİo
jiÇĶĠ lÃ³ngĠ
dÄģngĠ xuÇİnĠ
yÇĶnĠ xÇĶ
ĠĠĠ chÅ«Ġ
hÃ¨ ĠÄĽrĠ
miÃ¡n Ġ
zÃ¬Ġ rÃ¡n
ĠyÇĴuĠ xiÃłoĠ
Ġ lÃ¡i
ĠĠĠ xiÃłnĠ
Ġ Ã¨Ġ
bÃº Ġ
wÄĵn ĠdÃ¹Ġ
jÃ¬Ġ chÃ©ngĠ
huÇĴĠ shÄģnĠ
Ġ yÃŃngĠ
Ġ yÃ²ngĠyÃºĠ
ĠyÄ«Ġ xiÇİoĠshÃŃĠ
ĠdÃłĠ xÄ«ĠyÃ¡ngĠ
guÃ²Ġ qÃ¹
pÃ¡iĠ hÃ¡ngĠ
Äģn ĠdÃ©Ġ
jiÃ¹Ġ dÃº
ĠdÅįngĠ lÃŃnĠ
zhÄ«Ġ chÃŃ
fÇİngĠ wÃ¨n
mÃŃngĠ zÃ¬Ġ
ĠzuÃ²Ġ jiÄģĠ
jÇĲngĠ chÃ¡
dÇİng ĠyuÃ¡nĠ
xÇĲĠ huÄģn
qÅ« ĠyÃ¬ĠhuÃ¬Ġ
ĠdÃłĠ fÃºĠ
ĠdÃ©Ġ huÃ¡Ġ
Ġ 2012ĠniÃ¡nĠ
huÃłn ĠchÃ©ngĠ
biÇİoĠ yÇİn
xiÃłn ĠzhÃ¬Ġ
yÃ¡ng ĠshÃ¬Ġ
dÅįu ĠzÃłiĠ
ĠdÃ¬Ġ yÃŃĠgÃ¨Ġ
fÄģngĠ yÃ¡nĠ
ĠyÇĶĠ mÃ¡o
ĠchÅ«Ġ zhÃłnĠ
bÇĲĠ yÃł
ĠĠĠdÃ¬Ġ fÄģngĠ
xiÄģngĠ dÄģng
1 ĠlÃ¬Ġ
ĠbÃ¬ng ĠbÃ¨iĠ
tiÃ¡oĠ zhÄĽng
qÅ« ĠhÃ©Ġ
40 Ġ
ĠyÄ«Ġ tÃ³ngĠ
ĠzhÅįngĠhuÃ¡ĠrÃ©nĠmÃŃnĠgÃ²ngĠhÃ©ĠguÃ³Ġ zhÃ¨ngĠzhÃ¬ĠrÃ©nĠwÃ¹Ġ
ĠxiÃłn ĠshÃ¬Ġ
jÄ«ngĠ yÃłnĠ
pÇĶĠ biÃłnĠ
Ġ diÃłnĠyÇĲngĠ
zuÃ² ĠshÃ¬Ġ
ĠzhÅįngĠ bÃ¨iĠ
guÄģnĠ diÇİnĠ
kÄĵĠdeĠ qÃŃĠzhÅįngĠyÄ«ĠzhÇĴngĠ
Ġ shuÅįĠ
ĠgÅįngĠ yÃ¬Ġ
hÃ¡n ĠyÇĴuĠ
ĠjÃ¬Ġ suÃłnĠ
xÃºnĠ yÃ¡ng
Ġ shÄĵngĠyÃºĠ
liÇİng ĠmÃŃngĠ
diÇİn ĠlÇĲĠ
zhÃ²ngĠ duÅįĠ
jiÃłngĠ dÄ«Ġ
dÃł ĠzhÃ¬Ġ
ĠbÃ¬ngĠ dÃº
ĠqÃŃĠzhÅįngĠ yÄ«Ġ
yÃł ĠjÅ«nĠ
shÃ¨Ġ qÅ«Ġ
Ġ fÄģnĠ
ĠĠĠ 3
kÇĴu ĠwÃ¨iĠ
chÃ©ngĠ yuÃ¡nĠ
zhÄ«Ġ qiÃ¡nĠ
mÃ¬ĠshÅ«Ġ zhÇİngĠ
Ġ 7Ġ
Ġ jiÃ¹ĠshÃ¬Ġ
ĠdÃ¬Ġ sÃ¬
Ġ rÃ©ng
tiÃ¡o ĠlÃ¬Ġ
nÃ¨iĠ gÃ©Ġ
shÃ¹ ĠyÇĶĠ
shÄģn ĠshÃ¬Ġ
wÃº ĠzhÃ¨ngĠzhuÃłngĠ
ĠxiÃłnĠ rÃ¨nĠ
tÅ«Ġ pÃ²Ġ
xiÄĽ ĠdÃłoĠ
dÃłng ĠtiÄģnĠ
shÄĽ Ġ
yÃŃĠ dÃ¹Ġ
ĠzÇĶ ĠfÃ¹Ġ
Ġ nÃ©ngĠ
Ġ pÃŃngĠjÅ«nĠ
guÃł Ġ
ĠxÃŃng ĠwÃ¨iĠ
ĠgÅįngĠ mÃŃnĠ
xÄ«ngĠ dÄĽngĠwÃ¨iĠ
ĠshÃ¬Ġ yÃºĠ
ĠtÃ³ng ĠyÃ¬Ġ
Ġ liÃ¹
is ĠĠĠ
hÃ³ngĠ sÃ¨Ġ
ĠbÇĲĠ sÃłiĠ
kÄģiĠshÇĲ ĠzÃłiĠ
Ġ0 Ġ
ĠĠĠ jÃŃĠ
tuÃ¡n ĠdeĠ
gÄĽi ĠleĠ
ĠjÄ«Ġ jÄ«nĠ
sÇĲĠ wÃ¡ng
zhÄĽngĠ tÇĲĠ
z Ġ
Ġ c
Ġ 500
lÇĶ ĠsÄ«Ġ
wÃ¡nĠ zhÄĽng
ĠĠĠ 2011
juÃ© ĠduÃ¬Ġ
ĠquÃ¡n ĠlÃ¬Ġ
dÃłiĠbiÇİo ĠdÃłĠhuÃ¬Ġ
chÃŃ ĠyÇĴuĠ
yÄ«ngĠ wÃ©nĠ
5 ĠrÃ©nĠ
zhÃ¨ng ĠbÃ¹Ġ
ĠshÃ¬Ġ bÄ«ngĠ
gÃłiĠ niÃłn
bÄĽn ĠrÃ©nĠ
ĠgÅįngĠ jÃ¹Ġ
shÃ¨Ġ shÄ«Ġ
ĠzuÃ¬ ĠchÅ«Ġ
Ġ sÅ«n
Ġ 30Ġ
gÅįngĠ chÃ©ngĠ
ĠzhÃ¨Ġ zhÇĴng
xiÃłĠxiÃ¡ ĠdeĠyÃŃĠgÃ¨Ġ
huÃ¡ng ĠhÃ²uĠ
ĠĠĠ ÄģĠ
zhÇĴngĠ zÃºĠ
ĠsuÃ¬ ĠshÃŃĠ
Ġ xÃ¬nĠ
ĠĠĠ 2010
ĠĠĠ 1Ġ
nÃŃ ĠÄĽrĠ
zhÃŃĠ dÇİoĠ
ĠdeĠchÃ©ngĠ jÃ¬Ġ
ĠjÃŃĠ rÃ©nĠ
yÃŃĠ dÃ¬ngĠ
Ġ dÃ¡
lÃ¡i ĠyuÃ¨Ġ
bÇİoĠ shÇĴuĠ
jiÃ¨Ġ shÃłoĠ
tÃ³uĠ xiÃ¡ngĠ
guÃ¬Ġ zÃºĠ
yÃ¬ ĠniÃ¡nĠ
yuÃ¨ ĠzhÅįngĠ
zhÃ¨nĠ qÅ«ĠdeĠ
zÇİoĠ qÄ«
bÃ³ĠshÃ¬Ġ xuÃ©ĠwÃ¨iĠ
ĠĠĠ qÃŃĠtÄģĠ
shÄģn ĠjÄ«Ġ
qÇĲĠ dÃ²ngĠ
tÄģng Ġ
kuÃ¬ Ġ
ĠwÃ©iĠ ÄĽr
gÇĶ ĠdÃłiĠ
ĠmÃŃngĠ dÄģnĠ
mÃŃng ĠrÃ©nĠ
zhÄĽn Ġ
ĠdÃ© ĠyÇĶĠ
shÃ©nĠ meĠ
ĠyÄ«Ġ zuÃ²Ġ
ĠyÇĲĠ jÃŃ
ĠÃ©rĠ gÄģiĠ
hÄĵiĠ sÃ¨Ġ
yÄģoĠ qÇĲng
te ĠĠĠ
ĠrÃ©nĠmÃŃnĠ zhÃ¨ngĠfÇĶĠ
ÄĵnĠ shÄĽngĠ
tÃ²uĠ guÃ²
3 ĠgÃ¨Ġ
ĠxiÇİng ĠniÃ¡nĠ
wÃºĠzhÃ¨ngĠzhuÃłngĠ gÇİnĠrÇİnĠ
suÃŃ ĠzhÃ¹Ġ
sÄģ Ġ
mÃ¹Ġ qiÃ¡n
huÃ³ ĠyuÃ¨Ġ
chÃ¡ngĠ wÃ¹Ġ
chÃ¡ngĠ wÄĽiĠ
bÄĽiĠjÄ«ng ĠshÃ¬Ġ
quÃ¨ĠzhÄĽn ĠbÃ¬ngĠlÃ¬Ġ
mÃŃng ĠzhÃ¬Ġ
ĠrÃ¬ ĠyÃºĠ
gÇİiĠ mÃŃngĠwÃ¨iĠ
chÅ«Ġ shÄĵnĠ
diÃłnĠ huÃłĠ
Ġ 2022
tÃºn Ġ
ĠbÃ¹Ġ sÄ«Ġ
ĠjÄ«Ġ sÄ«Ġ
tÃłiĠ ziĠ
18 Ġ
ĠbÇĲĠ rÃºĠ
gÄģoĠsÃ¹ ĠgÅįngĠlÃ¹Ġ
ĠĠĠ gÄģi
kÃ¨ ĠchÃ©ngĠ
kÃ¹n ĠnÃ¡nĠ
ĠbÃ¹Ġ lÃ¬Ġ
zuÃ¬Ġ duÅįĠ
quÄĵĠ fÃ¡
dÄģn ĠdeĠ
lÃ³ng ĠdeĠ
gÃ¨ng ĠwÃ©iĠ
yÇĲĠ jÄ«ngĠ
Ġ Ã¨rĠshÃŃĠ
tÃŃ ĠjÃŃĠ
rÃ¹Ġ xuÇİnĠ
ĠwÃ¨iĠyÃºĠ zhÅįngĠguÃ³Ġ
sÄģiĠÄĽrĠ wÃ©iĠ
7 ĠrÃ©nĠ
huÃ¬ ĠzhÅįngĠ
shÅįu ĠjÃŃĠ
ĠlÃ¬Ġ fÇİ
xuÃ©Ġ huÃ¬Ġ
ĠbÃ¬ngĠ fÄĵiĠ
hÇİiĠ xiÃ¡Ġ
gÃ²u ĠdeĠ
ĠxÄ«Ġ jiÄĵĠ
gÄĵĠ lÃºnĠ
ĠjÄ«Ġ chÇİng
jÃ¹ ĠdÃłĠ
duÅį ĠrÃ©nĠ
ĠchÃ©ngĠ rÃ©nĠ
fÃ¹Ġ zÃ©
ÄģnĠ nÃł
zÃºĠqiÃºĠ yÃ¹nĠdÃ²ngĠyuÃ¡nĠ
xiÄĽ ĠdeĠ
zhuÄ«Ġ sÃ¹
k ĠĠĠ
Ġ yÃ²ng
Ġ 2014ĠniÃ¡nĠ
ĠtÃ³ngĠshÃŃĠ gÄģiĠdÃ¬Ġ
zuÃ²Ġ chÅ«Ġ
bÄĵi ĠsÄ«Ġ
ĠyÄĽ ĠzÃłiĠ
shÄĽng ĠdeĠ
lÃ¬ng ĠrÃ©nĠ
fÃłnĠ zuÃ¬Ġ
huÃ¬ ĠzhÃ¬Ġ
ĠdÃ©Ġ zhÇĶĠ
tÇİoĠ lÃ¹n
Ġ yuÄĵ
tiÃło Ġ
ĠjÃŃĠ dÃ¬Ġ
nÃ¨iĠlÃ¹Ġ shÄĽngĠfÃ¨nĠ
ÄģnĠ huÄ«Ġ
kÄĵĠxuÃ©Ġ jiÄģĠ
Ġ Z
Ġ yÄģoĠqiÃºĠ
tÃº ĠxÃŃngĠ
ĠguÃ³Ġ nÃ¨iĠ
pÄ«Ġ zhÇĶn
jiÄģng ĠzÃłiĠ
ĠbÃ¬ngĠ dÃºĠ
shÃ¬ ĠĠĠ
Ġ h
cÃ¬ ĠdeĠ
zhÃº ĠbÃ¹Ġ
ĠdeĠdÃ¬Ġ Ã¨rĠ
shÃ²u ĠdeĠ
shÄģn ĠdeĠ
ĠshÃ¬Ġ yÄ«nĠwÃ¨iĠ
ĠkÃ¨ ĠxÄ«Ġ
qiÃ¡ngĠ liÃ¨Ġ
liÃ¡nĠhÃ©Ġ huÃ¬Ġ
Ġ pÃ²Ġ
chÄģo ĠyuÃ¨Ġ
1972 ĠniÃ¡nĠ
jiÃ©Ġ guÇĴ
tÃ¡iĠ nÃ¡n
jiÇİnĠ shÇİo
ĠĠĠ Ch
dÄ« ĠyÃºĠ
xiÃłĠlÃ¬ng ĠshÃŃĠjiÄģnĠ
H Ġ
hÇİi ĠpÃŃngĠmiÃłnĠ
bÃº ĠdÃłoĠ
ĠshÃŃĠ qÄ«ĠdeĠ
ĠyuÃ¡nĠ xÃŃngĠ
Ġ wÃ¡nĠjiÄģĠ
yÄĽ ĠzÃłiĠ
ĠjÄ«Ġ huÃ¬Ġ
ĠxuÃ©Ġ yuÃłn
yÃŃĠ dÃ¬ng
huÄ«Ġ fÃ¹
Ġ chÃ¡
guÃ² ĠdeĠ
yÃłĠ mÄĽiĠ
pÃłiĠ qiÇİn
tÃŃĠgÅįngĠ leĠ
biÄģnĠ jiÃ¨Ġ
dÇĴngĠshÃ¬Ġ zhÇİngĠ
N Ġ
1978 ĠniÃ¡nĠ
tÅįu Ġ
jiÃłĠ gÃ©Ġ
tÃŃ ĠyÃ¬Ġ
shÅ« ĠzhÅįngĠ
xÅ«n ĠzhÄģngĠ
fÄģngĠ fÇİ
shÄ«Ġ bÃłiĠ
ĠjiÃłoĠ yÃ¹Ġ
zhÇĶĠyÃło ĠdeĠ
zhÇĶĠ jiÃło
ĠhÃło ĠdeĠ
nÃŃĠyÃł ĠzhÅįuĠ
1979 ĠniÃ¡nĠ
ĠhÃ²uĠ bÃ¨iĠ
guÄģnĠ chÃ¡Ġ
ĠxuÃ©Ġ jiÄģĠ
liÃºĠ xiÃłĠ
shuÄģngĠ fÄģngĠ
ĠĠĠbÃ¨iĠ jÇĲngĠ
Ã©r ĠtÃ³ngĠ
ĠyÄ«Ġ lÃ¬Ġ
jiÄģ ĠyÃ¬Ġ
ĠbÃ¹Ġ duÃ¬
ĠyÇĲĠ wÃ©iĠ
ĠzÃłiĠ shÃŃĠ
liÃ¡nĠ xÃ¹
xiÃłn ĠdeĠ
qÄ«n ĠzÃ¬Ġ
ĠÃ©rĠ ziĠ
Ġ 1950
ĠyÇĴuĠ suÇĴĠ
zuÃ¬Ġ gÄģoĠdeĠ
huÃ¬ĠyÃ¬Ġ yuÃ¡nĠ
ĠĠĠ 2Ġ
sÄģnĠ jiÇİo
zhuÄģngĠ jiÇİĠ
ĠĠĠdÃ¬ĠfÄģngĠ zÄ«ĠliÃłoĠ
6 ĠrÃ©nĠ
le ĠzÃłiĠ
rÃ¨n ĠwÃ¨iĠ
mÇİ ĠÄĽrĠ
lÃ¡n ĠdeĠ
nÃ¡ ĠxiÃłĠ
pÃŃngĠ tÃ¡iĠ
fÄĵiĠ chÃ¡ng
ĠĠĠ jiÇİnĠjiÃ¨Ġ
duÅį ĠwÃ¨iĠ
zÇĶ ĠfÃ¹Ġ
ĠhÃ©Ġ yuÄĵĠ
bÃ¨i ĠdeĠ
1976 ĠniÃ¡nĠ
ĠlÃ¬Ġ liÃłngĠ
ĠchÅ«Ġ kÇĴuĠ
ĠtÄģĠcÃ©ng ĠdÃłiĠbiÇİoĠ
ĠĠĠ Ma
ĠdÃ¬Ġ lÇĲĠ
nÃ¡nĠ bÄĽiĠ
gÇİiĠ biÃłn
nÃ©ng ĠyuÃ¡nĠ
la Ġ
ĠdÃ¬Ġ qÄ«Ġ
ĠxiÃłnĠ fÇİĠ
dÃŃ ĠshÃ¬Ġ
st Ġ
ĠhÃ²uĠ zhÄĽĠ
zÃ¬ ĠdeĠ
tÃ¡i ĠzhÅįngĠ
ĠzhÃ¨ngĠ mÃŃngĠ
ĠshÃŃĠjÃ¬Ġ shÃłngĠ
ĠchÃ©ngĠ zhÃ¨nĠ
quÄĵĠ fÃ¡Ġ
Ġ mÃ©i
Ġ 28
Ġ 2015ĠniÃ¡nĠ
ĠĠĠ Re
xuÇİn ĠzhÅįngĠ
dÃŃ ĠrÃ©nĠ
ĠlÃ¬Ġ yÃ¬Ġ
lÇĲ ĠhÃ©Ġ
liÇİo Ġ
pÃłi ĠchÅ«Ġ
ĠzhÅįngĠguÃ³ĠrÃ©nĠmÃŃnĠ jiÄĽĠfÃłngĠjÅ«nĠ
Ġ lÇĶĠ
duÅįĠ zhÇĴngĠ
tÃ¡nĠ pÃłnĠ
liÃ¡oĠ nÃŃngĠ
pÃŃng ĠwÃ¨iĠ
ĠshÃ¬Ġ gÅįngĠ
ĠbÃ¹Ġ shÇİoĠ
ĠsÄ«Ġ tÇİĠ
tÃŃ ĠchÅ«ĠdeĠ
suÃŃ ĠjÃŃĠ
Ġ sÃ¹Ġ
miÇİnĠ diÄģn
tuÃ¬Ġ xiÅ«Ġ
ĠdÃłĠxuÃ© ĠdeĠ
hÇİiĠbÃ¡ ĠwÃ¨iĠ
gÃłn ĠbÃ¹Ġ
lÄĽi ĠjÃ¬Ġ
ĠshÃŃĠ xÃŃngĠ
yÄ«ngĠ gÃ©ĠlÃ¡n
dÄģng ĠzhÅįngĠ
xÃ¹ ĠlÃ¬ĠyÃłĠ
juÃ© ĠyÃ¬Ġ
pÇĲ Ġ
shÄģng ĠrÃ©nĠ
biÄģo ĠbÄĽnĠ
fÄģĠ shÄĵngĠzÃłiĠ
suÇĴĠ cÇİiĠyÃ²ng
zhÇĲĠ dÇİoĠ
ĠjÃ¹Ġ juÃ©Ġ
huÃł ĠzhÅįngĠ
zÃłn ĠshÃŃĠ
1958 ĠniÃ¡nĠ
ĠfÃ¹Ġ jÃ¬n
ĠzhÅįngĠgÃ²ng ĠzhÅįngĠyÄģngĠ
ĠyÃ¬Ġ qÃŃngĠ
nÃ³ngĠ mÃŃnĠ
cÃ¬ ĠyÃºĠ
cÃ©ng ĠwÃ¨iĠ
yÃŃ ĠdÃłiĠ
ĠdÃ© ĠmÃŃngĠ
xiÅ«Ġ gÇİiĠ
ĠĠĠ yÄ«nĠ
shuÇĲ ĠlÃ¬Ġ
rÃ³ng ĠhÃ©Ġ
ĠzhÅįngĠ guÃ³ĠdeĠ
fÄģ ĠmÃŃngĠ
mÄĽi ĠzhÅįu
ĠqÃŃ ĠwÃ¨iĠ
zhÇĲĠ nÃ©ngĠ
zÄ«Ġ liÃło
ĠmÃŃng ĠzhÃ¬Ġ
1 ĠĠĠ
Ġ chÃº
zhuÇİn ĠxiÃłngĠ
ĠgÅįngĠ zhÃ²ngĠ
zhÇĴngĠ ziĠ
zhÇĶĠ yÇİnĠ
zÄ«Ġ bÄĽnĠ
ÄģĠlÄģĠ bÃ³
xiÄģngĠ sÃ¬Ġ
jiÄĵĠ chÃ¹Ġ
ĠbÄĽiĠ jÄ«ng
kÄģi ĠshÃ¨Ġ
xiÅ« ĠjiÃłnĠ
guÄģnĠ chÃ¡
Ġ bÇİ
jÃ¬ng ĠjÃ¬Ġ
jiÄĽĠ sÃłnĠ
ĠdeĠshÃ¬Ġ jiÃ¨Ġ
Ġ 2016ĠniÃ¡nĠ
wÇĶĠ zhuÄģng
bÃłoĠ zhÃłĠ
diÃłn ĠjÄ«Ġ
chÄģi ĠchÃºĠ
cn Ġ
kÄģiĠ tÅįngĠ
fÄģĠ qÇĲĠ
fÄģĠ shÃ²uĠ
jÇĶĠbÃłn ĠdeĠ
ng ĠĠĠ
shÄĵnĠ dÃ¹Ġ
ÄģnĠ pÃ¡i
Ġ diÃłnĠshÃ¬Ġ
qÅ« ĠshÃ¬Ġ
nÇĶ Ġ
2025 ĠniÃ¡nĠ
Ġ tÃ¡ng
wÃ©iĠ sÄ«Ġ
tuÃ¡nĠ tÇĲ
x ĠĠĠ
jÄ«Ġ gÃ²uĠ
fÃ¹Ġ zhÇĶĠrÃ¨nĠ
zÇĶĠzhÄ« ĠdeĠ
fÄĵngĠ xiÇİnĠ
diÃłoĠ kuÃłi
ĠĠĠ qÃŃ
chÃ©ng ĠhÃ©Ġ
biÄģn ĠjÃ¹Ġ
ĠyÇĶĠ qÃŃĠtÄģĠ
zhÄģngĠ zhuÄģnĠjÃŃĠ
Ġ jiÇİ
Ġ cnĠ
ĠĠĠ duÃ¬Ġ
jiÃ© ĠdeĠ
zÃło ĠleĠ
ĠwÃ¨iĠ UTCĠ
ĠbÃ¹Ġ jÃŃĠ
ĠzhÅįngĠ shÄģnĠ
nÃ©ngĠ liÃłngĠ
shuÃłiĠ lÇĲng
shÇĴu ĠzhÅįngĠ
bÃłnĠshÃ¬Ġ chÃ¹Ġ
ĠĠĠ w
qiÃº ĠjÃ¬Ġ
yÄ«ngĠ gÄģiĠ
ĠxÄ«ĠbÄģnĠ yÃ¡Ġ
yÃ³u ĠjÄ«Ġ
luÃ³ ĠlÇĲĠ
gÃ©Ġ lÄģĠ
jiÃ¹Ġ dÃºĠ
shÄģngĠ yÃ¨
diÃłoĠkuÃłi ĠyÄ«ĠxiÇİoĠshÃŃĠ
Ġ gÄĵ
zÃ© ĠzÃłiĠ
ĠdeĠ yÇĲngĠxiÇİngĠ
ĠniÃ¡nĠ lÃ¡iĠ
qiÃ¡ngĠ diÃłoĠ
Ġ 19
ĠwÃ¨iĠ dÃłĠ
ĠjÃŃĠ UTCĠ
yÄ«ngĠ xiÃ³ngĠ
ĠtÃ³ngĠ yÃłng
kÄĵĠxuÃ©Ġ yuÃłnĠ
shÃ¨ĠyÇĴuĠ xiÃłĠlÃ¬ngĠshÃŃĠjiÄģnĠ
ĠdeĠshÃŃĠqÅ«ĠwÃ¨iĠ UTCĠ
ĠÃ©rĠgÄģiĠdÃ¬Ġ suÇĴĠcÇİiĠyÃ²ng
ĠtÃ³ngĠshÃŃĠgÄģiĠdÃ¬Ġ shÃ¨ĠyÇĴuĠxiÃłĠlÃ¬ngĠshÃŃĠjiÄģnĠ
ĠÃ©rĠgÄģiĠdÃ¬ĠsuÇĴĠcÇİiĠyÃ²ng ĠdeĠshÃŃĠqÅ«ĠwÃ¨iĠUTCĠ
shuÄģi Ġ
xiÄģoĠ fÃ¨iĠ
xÃ¬nĠ yÇİngĠ
tÄģĠmen ĠdeĠ
ĠdÃłĠ jiÇİngĠ
jiÃłoĠ tÃ¡ng
bÇİoĠ liÃº
ĠlÃ¬ng ĠyÇĴuĠ
ĠyÄ«ĠsÄ«Ġ lÃ¡nĠ
ar Ġ
kÃ¹n Ġ
yuÃ¡nĠ zhÃ¹Ġ
tÃłiĠ dÃ¹Ġ
chuÃ¡nĠ bÅįĠ
ĠgÄģiĠ cÅ«nĠ
suÇĴ ĠzÃłiĠdÃ¬Ġ
quÃ¨ ĠdeĠ
pÃ¨i ĠzhÃ¬Ġ
zhÄ«Ġ jiÄģnĠdeĠ
ĠĠĠ jiÄģoĠtÅįngĠ
fÄģ ĠshÃ¨
ĠshÃŃĠ wÃ¹Ġ
dÃ¬ngĠ jÅ«Ġ
ĠlÃ¬ĠshÇĲĠ shÃłngĠ
gÄģoĠyÃºĠ hÇİiĠpÃŃngĠmiÃłnĠ
Ġ zhÄĵngĠ
ÇĴu Ġ
ĠmÇİĠ lÃ¡i
ĠwÃ¨iĠfÃºĠqÃŃĠyÃºĠ gÄģngĠ
xÃ¬ng ĠwÃ¨iĠ
zhÃº ĠjiÃłn
ĠbÃ¹Ġ nÃ©ng
ĠgÅįngĠ juÃ©Ġ
ĠÄĽrĠ duÅįĠ
wÃ¹ ĠhÃ©Ġ
hÃ¹ ĠxiÄģngĠ
ĠqÃŃĠ xiÃłĠ
8 ĠrÃ©nĠ
chÃ¹ĠdeĠ hÇİiĠbÃ¡ĠwÃ¨iĠ
chÃ¹ĠdeĠhÇİiĠbÃ¡ĠwÃ¨iĠ gÄģoĠyÃºĠhÇİiĠpÃŃngĠmiÃłnĠ
hÃ²u ĠwÃ¨iĠ
ĠyÃºĠ lÃ¨
ĠyÄ«nĠ sÃ¹Ġ
Ġ 23
Ġ kuÄģn
ĠĠĠ qÄ«ngĠ
tÇĲ ĠzhÃ¬Ġ
jÃ¬ngĠ xuÇİnĠ
Ġ dÄģn
wÃ¹ ĠshÃ¬Ġ
chÇİngĠ suÇĴĠ
ĠzhÄ« ĠyÃ¬Ġ
kuÃ¡ng Ġ
ĠhÃ©Ġ pÃłnĠ
ĠbÃ¹Ġ jÇĲnĠ
ĠyÇĲĠ xÄ«Ġ
fÄģ ĠxiÃłnĠdeĠ
zhÃ²ng ĠshÃ¬Ġ
ĠqÃŃ ĠshÃŃĠ
ĠsuÃŃ ĠzhÃ¹Ġ
ĠĠĠ 17
lÃ¹ ĠzhÃ¬Ġ
nÃ¡nĠ jÄ«ng
zhÇİngĠ dÃ¡Ġ
yÃ¹nĠ shÅ«
Ġ 2008
Ġ 2017ĠniÃ¡nĠ
shÃ¹ ĠshÃŃĠ
nÃ¨i ĠdÃ¬Ġ
Ġ 8Ġ
Ġ nÇĲĠ
ĠĠĠ In
shÃŃĠ qÅ«Ġ
gÄģoĠ xiÃ³ng
chÃ³ngĠ qÃ¬ng
ĠĠĠ mÇİĠ
jiÃłn ĠchÃ©ngĠ
gÄĵng ĠxÄ«nĠ
ĠyÄ«Ġ jiÄģĠ
ĠxÄ«Ġ lÃ¡nĠ
yÃ¹nĠ yÃ²ngĠ
ĠzÃ¬Ġ rÃ¡nĠ
Ġ hÃº
Ġ xiÃ¨Ġ
bÃ¬Ġ yÃ¨ĠhÃ²uĠ
Ġ 24
ĠĠĠ rÃ¡n
Ã¨r ĠjÃŃĠ
biÄģn ĠhÃłoĠ
ĠlÃ¬Ġ rÃ¨nĠ
diÃłnĠ qÃ¬Ġ
shÄģnĠ fÄĵngĠ
ĠwÃ¨iĠyÃºĠ gÄģiĠ
Ġ xÅ«Ġ
Ġ zhÃ¨ngĠzhÃ¬Ġ
qiÃł Ġ
wÃ©iĠ ÄĽrĠ
zhÃŃĠ zhÃ¨ngĠ
Ġ huÃłnĠ
zhÄĽ ĠshÃ¬Ġ
wÃ¡ng ĠshÃ¬Ġ
ĠzuÃ²Ġ chÅ«Ġ
xiÃłoĠ qÅ«Ġ
xiÃ¡Ġ qÅ«Ġ
ĠĠĠ p
ĠĠĠ bÄĽn
bÄģo ĠwÃ©iĠ
bÃłng ĠqiÃºĠ
ĠdÃ¬Ġ qiÃº
xuÄģnĠ chuÃ¡n
xuÃ© ĠyuÃ¡nĠ
jiÃ¹ ĠhuÃ¬Ġ
cuÃ² ĠwÃ¹Ġ
jÄ«nĠ rÃ³ngĠ
ĠyÃ¹Ġ shÇĲĠ
Ġ liÃ¡nĠhÃ©Ġ
dÅįngĠ fÄģngĠ
hÃ²u ĠyÃ¬Ġ
bÄĽi ĠshÃ¬Ġ
jÄ«ngĠ chÃ¡ng
ĠrÃ¡n ĠÃ©r
Ġ dÃłi
Ġ yÃŃ
ĠjiÃ© ĠkÃ¨Ġ
huÃ¬ ĠyÃºĠ
ĠsÄ«Ġ kÄĵĠ
ĠduÃ¬Ġ shÇĴuĠ
ĠxÃŃngĠzhÃ¨ngĠ qÅ«Ġ
zhÃ¨nĠqÅ«ĠdeĠ miÃłnĠjÄ«ĠwÃ¨iĠ
mÃŃng ĠshÃ¬Ġ
ĠzhÅįuĠ cÃ¬ĠshÇĲĠ
ĠshÄĵngĠ yÃ¡Ġ
jiÄģ ĠyÇĲĠ
jÃº ĠdeĠ
pÇİo Ġ
Ġ shÄģ
fÃº ĠdeĠ
mÇİ ĠkÃ¨Ġ
ĠtÄģ ĠyÇĲĠ
ĠyuÃ¡nĠ zÃ¬Ġ
zÃłoĠ chÃ©ngĠdeĠ
Ġ Y
kÄĽ ĠzÃłiĠ
ĠlÇĲĠ xÄ«Ġ
zhÃŃĠ mÃŃnĠ
Ġ 2023
chÃ¡n Ġ
gÅįngĠ gÃ²ngĠ
pÃŃngĠ lÃ¹n
fÅ«Ġ kÇİĠ
ĠfÃºĠ wÃ¹Ġ
ĠdÄģngĠ shÃŃĠdeĠ
Ãło ĠzhÅįuĠ
ĠyÄ«Ġ jÃ¹Ġ
jÃ¬ ĠyÇĴuĠ
shÇĲ ĠjiÃłnĠyÃºĠ
rÃ¨n ĠdeĠ
yÄĽ ĠbÃ¨iĠ
miÃłn ĠshÃłngĠ
ĠsÄ«Ġ kÃ¨
ĠÃ©rĠ tÃ³ngĠ
ĠcÃ¬ ĠniÃ¡nĠ
Ġ qÄ«nĠ
Ġ 2018ĠniÃ¡nĠ
ĠxuÃ©Ġ zhÄĽĠ
ĠjiÃłn ĠshÃ¨
ĠwÃ©iĠ rÃło
ĠyÄĽ ĠbÃ¨iĠ
qiÄģnĠ shÇĶĠ
ĠqÃŃĠzhÅįngĠ bÄģoĠkuÃ²Ġ
Ġ tÃŃngĠ
Ġ bÇİnĠ
jiÄģ ĠzÃłiĠ
bÃłn ĠdeĠ
Ġ 2009
hÇİiĠ yÃ¡ngĠ
f Ġ
Ġ bÇİi
jÄ« ĠzÃłiĠ
lÃ¡i ĠyÄ«nĠ
jÃ¹n ĠgÅįngĠ
tÅ« ĠrÃ¡nĠ
ĠjÃŃĠ dÃłĠ
jÃ¬Ġ niÃłn
ĠdÃ© ĠzhÄ«Ġ
ĠjÄ«Ġ jÄ«nĠhuÃ¬Ġ
qÃ¬Ġ chÄĵ
xiÃłoĠlÃ¬Ġ yÃºĠ
Ġ 2019ĠniÃ¡nĠ
rÃºĠ guÇĴĠ
lÃ¬ngĠ yÃŃĠgÃ¨Ġ
xiÄģoĠ shÄ«Ġ
tiÃ¡nĠ jÃ¬ngĠ
tÃ¡oĠ tÃłiĠ
ĠwÃ¨iĠ duÃ¬Ġ
dÄģngĠ dÃ¬ĠdeĠ
jiÃłngĠ lÇĲngĠ
yÃ¡nĠ hÇİiĠ
wÄĽiĠyuÃ¡nĠhuÃ¬Ġ wÄĽiĠyuÃ¡nĠ
Ġ gÇİnĠ
1968 ĠniÃ¡nĠ
ĠlÇĲĠ yÃłĠ
Ġ 2ĠyuÃ¨Ġ
ĠĠĠ jÇĲnĠ
pÃŃng ĠyuÃ¡nĠ
dÄĽng ĠjÃŃĠ
Ã¨r ĠrÃ©nĠ
bÃ¨iĠ jÇĲngĠ
kÇİĠ luÃ³Ġ
Ġ bÃłiĠ
ĠĠĠ shÃ¨ngĠ
duÃ¬ ĠqÃŃĠ
jÃ¬n ĠbÃ¹Ġ
liÇİng ĠguÃ³Ġ
tÃ¨Ġ dÃ¬ngĠ
fÃ¨nĠ zÇĲ
Ġ yÃºnĠ
dÃł ĠbÃ¹Ġ
dÃ¬ng ĠyÃºĠ
ĠqÃŃ ĠdeĠ
ĠdeĠbÃ¹Ġ fÃ¨nĠ
zhÃŃĠmÃŃn ĠdÃ¬Ġ
Ġ 26
Ġ fÄģĠxiÃłnĠ
jiÃło ĠdÃłĠ
ĠzhÃ¬Ġ zuÃ²ĠdeĠ
ĠjÄ«Ġ dÅ«Ġ
gÇİiĠ zÃłoĠ
chuÃ¡nĠtÇĴng ĠdeĠ
shÄĵngĠ yÃ¡
diÃłnĠ nÇİoĠ
ĠbÃ¹ĠbÃ¹Ġ zhÇİngĠ
guÄģn ĠjiÃłnĠ
jÄ«ngĠ shÃ©n
ĠqiÃ¡nĠ wÇİngĠ
diÇİn ĠshÃ¬Ġ
yÃ¬Ġ shÃ¹Ġ
lÃŃĠ kÄģi
quÃ¡nĠ miÃłnĠ
mÃ²ĠxÄ«Ġ gÄĵĠ
Ġ shÇĴu
zhÃ¨n ĠdeĠ
tuÄ« ĠchÅ«
gÇĴu Ġ
guÃ³Ġ jiÄģ
ĠdÃ¬Ġ tiÄĽ
ĠxiÃłn ĠyÇĲĠ
ĠjÄ«Ġ chÇĶ
ĠjÃ¹Ġ lÃŃ
Ġ xiÃ¡nĠ
ĠluÃ³Ġ mÇİĠ
gÃ© ĠshÃ¬Ġ
tou Ġ
ĠshÃŃĠ duÃłnĠ
jiÄĵĠ duÃłn
liÇİngĠ cÃ¬Ġ
ÃłiĠÄĽrĠ lÃ¡nĠ
wÃ©n ĠdeĠ
sÄģn ĠmÃŃngĠ
hÅ«n ĠyÄ«nĠ
dÃłĠ lÃ¹
ĠyÃ¬Ġ yÃºĠ
shÅ«Ġ yuÃłnĠ
ĠshÄģnĠ dÅįngĠ
ÄģĠlÄģĠ bÃ³Ġ
Ġ xiÄģn
ĠĠĠ nÃ¡nĠ
mÃ¹ ĠdeĠ
bÅį ĠsÄ«Ġ
huÃ¬Ġ zhÇİngĠ
mÇİnĠ zÃºĠ
ĠdiÃłnĠ yÇĲng
Ġ xÄ«ng
qÄ« ĠwÃ¨iĠ
pÃ¨i ĠyÄ«nĠ
ĠdÃ¬Ġ diÇİnĠ
jÃ¬ngĠ zhÄĵngĠ
cÃ¡iĠ nÃ©ngĠ
xÄ«n ĠchÃ©ngĠ
liÇİng ĠwÃ¨iĠ
1970 ĠniÃ¡nĠ
zhÃ¨ngĠ jÃ¹Ġ
liÃ¡n ĠdeĠ
xiÅ« ĠfÃ¹Ġ
ĠbÃ¬ngĠ yÃ³uĠ
hÃ¹Ġ liÃ¡nĠ
chÅ«Ġ bÇİn
ĠyÃ³u ĠjÄ«Ġ
ĠwÃºĠ fÇİĠ
lÄģ ĠjÄ«Ġ
kÃło ĠjÃ¬nĠ
ĠdÃ¬Ġ dÃłiĠ
ĠlÃ¬Ġ shÃŃĠ
jiÄĽĠ fÃłngĠ
nÃ¨i ĠzhÃłnĠ
bÅį ĠshÃ¬Ġ
ĠwÃ©iĠ chÃŃ
zÄģiĠ pÃ©iĠ
Ġ liÃ¹Ġ
duÃ¬Ġ zhÇİngĠ
fÄģĠ qÇĲ
jÅ«Ġ zhÃ¹ĠzÃłiĠ
shÅįuĠ gÃ²uĠ
Ġ wÃ¡nĠ
zhÃ¨ ĠshÃ¬Ġ
zÇİo ĠzÃłiĠ
Ġ chÅįngĠ
bÃ¬ng ĠbÃ¹Ġ
shÇĴuĠ xiÃłngĠ
shÄģnĠ qÅ«Ġ
zÃºĠqiÃº ĠjÃ¹ĠlÃ¨ĠbÃ¹Ġ
lÇĲ ĠchÃ©ngĠ
jiÄģoĠ liÃº
ĠguÃ³ĠwÃ¹Ġ yuÃłnĠ
Ġ gÄĵnĠ
qÇĲ ĠyuÃ¡nĠ
wÄĽi ĠfÃ¹Ġ
ne Ġ
ĠshÃ¬Ġ dÃ©ĠguÃ³Ġ
cÅ«nĠ luÃ²Ġ
fÅ« ĠdeĠ
jÄ«Ġ chÇĶ
ĠdÃłĠ lÃ³u
yÃ¡nĠ sÃ¨Ġ
xiÃłngĠ zhÄĵngĠ
ĠwÃ©iĠ sÄ«Ġ
tiÄģnĠ tÇĲĠ
dÅįu ĠbÃ¨iĠ
ĠbÃ¹Ġ bÄ«ngĠ
ĠyÇĶĠ yÃ¡n
ĠĠĠdÃ¬Ġ Ã¨rĠ
V Ġ
Ġ 2004ĠniÃ¡nĠ
liÃ¹ ĠshÃŃĠ
ĠzhÃ¬Ġ liÃłngĠ
ĠzhÅįuĠ fÇĶĠ
lÃ¡ng ĠzhÅįngĠ
ĠyÄ«Ġ yuÃłn
ĠxÃŃngĠ mÃ¹Ġ
chÃ¡ngĠ dÃ¹Ġ
Ġ dÄ«ngĠ
xÃ¬ng ĠhÃ©Ġ
ĠyÇĲĠ wÃłiĠ
luÃ²Ġ fÃ¡
1956 ĠniÃ¡nĠ
ĠzhÃ¬Ġ dÃ¬Ġ
ĠyÇĶĠ yÄ«Ġ
wÃºĠzhÃ¨ngĠzhuÃłngĠgÇİnĠrÇİnĠ zhÄĽĠ
ĠĠĠ 2008
liÃłng ĠwÃ¨iĠ
mÇĶ ĠdeĠ
juÃłn Ġ
ĠdÃ© ĠsÄ«Ġ
shÄ«Ġ qÃ¹
Ġ 2020ĠniÃ¡nĠ
zuÃ¬ ĠchÅ«
Ġ yÃ¬ĠshÃ¬Ġ
ĠĠĠ 4
xiÄĽ ĠzuÃ²Ġ
mÃ¨ng ĠjiÄģĠ
Ġ bÇİo
tÃ¨Ġ xÃ¬ngĠ
ĠwÃ¨iĠyÃºĠ mÄĽiĠguÃ³Ġ
Ġ zÃ¡ĠzhÃ¬Ġ
jiÇİ ĠdÃ¬Ġ
tÃłiĠ yÃ¡ng
ÃłoĠ mÃ©n
ĠzuÃ¬ ĠjiÄģĠ
2 ĠgÃ¨Ġ
1981 ĠniÃ¡nĠ
zhÃŃĠyÃ¨Ġ shÄĵngĠyÃ¡Ġ
fÃº ĠlÃ¬Ġ
1920 ĠniÃ¡nĠ
ĠxiÃłn ĠjÃŃĠ
fÃ¹ ĠhÃ©Ġ
suÇĴ ĠdeĠ
zhuÃłn ĠdeĠ
1960 ĠniÃ¡nĠ
zÅįng ĠyÃ¬Ġ
zÃ¬Ġ mÇĶĠ
lÃŃngĠ chÃ©nĠ
Ġ cÄģnĠyÃ¹Ġ
suÇĴ ĠwÃ¨iĠ
tÃ²u ĠlÃ¹Ġ
chuÃ¡ng Ġ
dÅįngĠ bÄĽi
juÃ© ĠshÃ¬Ġ
Ġ yÃŃĠgÃ¨
ÇĴu ĠxiÃłngĠ
kÇİo ĠshÃ¬Ġ
ĠfÃº ĠjiÃłnĠ
9 ĠrÃ©nĠ
ĠĠĠ gÃ¨ĠrÃ©nĠ
zÇĴng ĠrÃ©nĠkÇĴuĠ
1964 ĠniÃ¡nĠ
ĠdÃ¬Ġ fÄģng
ĠxiÃłn ĠchÃ©ngĠ
ĠlÇĲĠ kÃ¨Ġ
ch Ġ
ĠdÃ©Ġ lÄģĠ
kÅįngĠ qÃ¬Ġ
Ġ 50
Ġ nuÃ²Ġ
pÃŃng ĠdeĠ
nÃł ĠdeĠ
zuÃ²Ġ wÃ©i
zhÇĶĠ zhÄģngĠ
xÄ« ĠhÃ©Ġ
xÄ«Ġ nÃ¡nĠ
huÃŃ ĠyÃ¬Ġ
fÃ©n Ġ
ĠyÇĲ ĠzÃłiĠ
ĠyÄĽĠ kÄĽĠyÇĲĠ
pÃºĠtÃ¡oĠ yÃ¡Ġ
Ġ fÄģĠxÃŃngĠ
si Ġ
ĠzuÃ²Ġ zhÃłnĠ
Ġ tÃłi
qÄ« ĠshÃŃĠ
zÇĴu ĠxiÃłngĠ
ĠchÃ©ngĠ kÃ¨Ġ
sÅ«Ġ gÃ©ĠlÃ¡nĠ
xÃºnĠ zhÇİo
Ġ kÃ¹Ġ
ĠĠĠ rÃ©nĠ
chÄĵ ĠduÃ¬Ġ
ĠÄĽr ĠshÃ¬Ġ
nÃ¡n ĠdeĠ
guÃ² ĠleĠ
hÃ¹ ĠbÃ¹Ġ
ĠdÃ¬Ġ tÃºĠ
ĠyuÃ¡nĠ bÄĽn
ĠchÅ« ĠdÃłoĠ
yÃ¬nĠ nÃŃĠ
Ġ 2007
Ġ 35
Ġ 2021ĠniÃ¡nĠ
wÇĶ ĠshÃ¬Ġ
shÅįu ĠdÃłoĠ
wÇİ ĠÄĽrĠshÄĽngĠ
xÃ¬nĠ yÇİng
Ġ sÅ«nĠ
gÇĶ ĠlÃ¬Ġ
guÇİn ĠzhÃ¬Ġ
ĠgÅįngĠ lÇĲĠdeĠ
shÇĲĠ shÃłngĠ
zhÇĶĠyÃ¬Ġ zhÄĽĠ
Ġ zhÄĵn
1948 ĠniÃ¡nĠ
ĠwÃ¨iĠ yuÃ¡nĠ
ĠyÇĲ ĠyÃºĠ
guÃ²Ġ dÃ¹Ġ
ĠshÃŃĠyÃłn ĠshÃ¬Ġ
Ġ kÇİi
yÃ¡n ĠrÃ©nĠ
luÃ² ĠchÃ©ngĠ
xiÇİn ĠzhÃ¹Ġ
1975 ĠniÃ¡nĠ
guÃ³Ġ wÃ¹Ġ
guÇİngĠ chÇİng
ĠsÄ«ĠlÃ¬ng ĠbÃ¹Ġ
5 ĠmÇĲĠ
shÇĲ ĠrÃ©nĠ
dÃ¹ ĠhÃ©Ġ
jiÄģng ĠyÃºĠ
bÃ¬ ĠdeĠ
mÃłi ĠkÃ¨Ġ
ĠdÃ¬Ġ liÃ¹Ġ
wÃłngĠ yuÇİnĠ
xÄ« ĠdÃ¬Ġ
xiÅ« ĠdÃłoĠ
ba Ġ
ĠdÃłĠ gÅįngĠ
ĠfÃ¹Ġ jÃ¬nĠdeĠ
zhuÄģnĠ yÃ¨
Ġ kÇĴuĠ
sÃ¬ ĠdeĠ
shÇĴuĠ dÅ«
gÃ©Ġ lÃŃĠ
shÃłoĠ nÇļĠ
shÃłng ĠxiÃłnĠ
yÃ¡n ĠzhÃ¬Ġ
Ġ diÃłoĠ
yÃº ĠhÃ©Ġ
xiÄģngĠ guÄģnĠdeĠ
dÅįngĠ jÄ«ng
dÄĽngĠ dÄĽngĠ
dÃ¬ ĠhÃ©Ġ
fÃłng ĠzÃłiĠ
ĠjÃŃĠ shÇĲĠ
jiÄģnĠ yÃ¹Ġ
miÇİnĠ fÃ¨iĠ
Ġ dÇİngĠ
jiÇİo ĠdÃ¹Ġ
zuÇĴ ĠyÃ¬Ġ
ĠchÃ©ngĠ bÄĽnĠ
wÃ©iĠ zhÇĶĠ
fÇİnĠ huÃŃ
Ġ tiÃ¡oĠ
bÃ¨iĠ chÄĵngĠwÃ©iĠ
ĠxÃŃngĠ dÃ²ng
cÇİiĠ qÇĶ
guÇİnĠlÇĲĠ jÃºĠ
Ġ xiÇİoĠshÃŃĠ
hÃºn Ġ
1952 ĠniÃ¡nĠ
tÃ¡iĠbÄĽi ĠshÃ¬Ġ
Ġ 29
ĠyuÃ¨Ġ duÃ¬Ġ
ĠjÅ«nĠ qÅ«Ġ
bÃ¬Ġ miÇİn
kÅįngĠ jiÄģn
xÃŃngĠ tÃłiĠ
ĠĠĠ 2009
ĠĠĠ dÄģngĠ
shÃ¨ ĠbÃ¨iĠ
xiÄģng ĠshÃ¬Ġ
kÇİ ĠsÄ«Ġ
cÇİiĠ fÇİng
Ġ 25
Ġ sÃ¨Ġ
shÄģn ĠxiÃłnĠ
lÇĲĠ lÃ¹n
ĠÃ©rĠ fÄĵiĠ
gÇİiĠ shÃłnĠ
fÃ¨iĠ chÃºĠ
Ġ xiÃ¨
Ġ zÃºĠ
xÄ«Ġ bÄĽiĠ
jiÃłĠ shÇĲĠ
zhÃ¨ngĠfÇĶ ĠdeĠ
shÃłng ĠdÃ¬Ġ
dÇİo ĠshÃłngĠ
ĠzÃłiĠ hÃ©Ġ
ĠkÃ¨ ĠÄĽrĠ
ĠshÃ¨ ĠyÃºĠ
luÃ²Ġ shÄģnĠjÄ«Ġ
Ġ shÃ©n
Ġ 27
cÇĲ ĠtÃ³ngĠshÃŃĠ
tion Ġ
Ġ fÃ¨ngĠ
Ġ 2002ĠniÃ¡nĠ
kÄģi ĠgÅįngĠ
tÅįng ĠzhÄ«Ġ
bÅįĠ lÃŃĠ
ĠĠĠ sÄ«Ġ
hÄĽnĠ kuÃłiĠ
Ġ yÇĴng
Ġ cÃłi
Ġ juÃ©ĠdÃ¬ngĠ
jiÃ¹ ĠyuÃ¡nĠ
cÃŃ ĠdeĠ
ĠdÃ¬ĠyÄ«Ġ cÃ¬
hÃ© ĠzÃłiĠ
yÄĽ ĠhuÃ¬Ġ
huÃłi Ġ
ĠzhÄ« ĠshÃ¬Ġ
hÇİiĠ Ãłn
cÃŃĠ zhÃŃĠ
Ã©ĠluÃ³Ġ sÄ«ĠdeĠ
Ġ pÇĶ
kÇĴu ĠdeĠ
wÃ¡ Ġ
ĠyÃ¬Ġ jiÃłnĠ
ĠĠĠ zhÃ¨ngĠ
ĠwÃ¨iĠ zÃłiĠ
shÃ©nĠ me
Ġ suÅįĠ
Ġ 60
zhÄĵng ĠyuÃ¨Ġ
tÃ¬ ĠdÃłiĠ
ĠrÃ©nĠ dÃłĠ
ĠfÄĵnĠ biÃ©Ġ
chÃ¹Ġ zhÇİngĠ
chÅįngĠ tÅ«
jiÇĶ ĠdeĠ
qiÃ¡ng ĠzhÃ¬Ġ
ĠshÃŃĠ xiÃłn
jiÄģnĠ dÅ«Ġ
yÇĲng ĠshÃ¬Ġ
yÇĲnĠ yÃ²ngĠ
tÃŃĠchÅ«Ġ leĠ
wÃłiĠjiÄģo ĠbÃ¹Ġ
4 ĠgÃ¨Ġ
Ġ xÃ¹Ġ
Ġ kÇİiĠ
xuÃ© ĠzhÅįngĠ
qiÃ¡ng ĠdeĠ
ĠgÃ¨ ĠguÃ³Ġ
mÃŃnĠzhÇĶĠ dÇİng
shÄģn ĠdÃ¬Ġ
jÇĲn ĠyÇĴuĠ
jÃ¬Ġ suÃłn
fÄĵng ĠfÃ¹Ġ
ĠzhÇĶĠ yÇİnĠ
xÇĲĠ huÄģnĠ
ĠĠĠ bÄģĠ
sÄ« ĠshÃ¬Ġ
nuÃ³ ĠwÄĵi
ĠĠĠ gÃ¹ĠshÃ¬Ġ
ĠsÄ«Ġ mÇİĠ
ĠhÃło ĠxiÃłn
Ġ xÃŃĠ
ĠĠĠ yuÃ¨Ġ
tiÄģn ĠhÃ²uĠ
cÃ©ng ĠyÃºĠ
ĠgÃ¨Ġ zhÇĴng
zhÇİngĠ guÄģnĠ
zÅįngĠ jiÃło
xiÇİoĠxÃŃngĠ xÄ«ng
ĠshÃŃĠ hÃ²uĠ
mÃ²ĠxÄ«Ġ gÄĵ
Ġ mÃ¬Ġ
Ã© ĠguÃ³Ġ
ĠyÇĴuĠ xiÄĵ
pÇĶĠ biÃłn
bÃ¹ĠdeĠ cÅ«nĠzhuÄģngĠ
ĠĠĠyÇĲĠ xiÃł
Ġ chuÄģnĠ
ĠĠĠ fÃ¹Ġ
guÇİn ĠdeĠ
zÃłn ĠzhÃ¹Ġ
yÃ¬nĠ shuÄģ
cÃ¹ ĠjÃ¬nĠ
ĠyuÃ¨Ġ lÃ¡iĠyuÃ¨Ġ
liÃºĠ yÃ¹Ġ
Ġ fÇİ
1966 ĠniÃ¡nĠ
gÇĶĠ lÇİo
ÄģĠ gÄĵnĠ
mÇİĠlÃ¡i ĠxÄ«ĠyÃł
Ġ lÃ©i
Ġ pÃłĠ
tÄģ ĠzÃłiĠ
jiÃłng ĠyÇĶĠ
liÇİo ĠjiÄĽĠ
kÃ²u Ġ
jiÄģĠ tÃŃngĠ
cÃ¨Ġ liÃ¡ngĠ
ĠĠĠ wÃ©iĠ
fÃ¹ ĠshÃ¬Ġ
liÃ¨ ĠchÅ«Ġ
th Ġ
ĠdeĠ jÃ¹Ġ
ĠchÃ©ngĠ xiÃłn
ĠzhÄ« ĠdÃ¬Ġ
jÄ«ngĠ diÇİnĠ
chÄĵĠ xiÄģngĠ
ĠdÃłnĠ bÃ¡iĠ
liÃ¨Ġ rÃ¹Ġ
yÇĶn ĠshÃŃĠ
ĠxiÃłnĠ shÃłngĠ
qiÃ¡ngĠ dÃ¹Ġ
Ġ nÇĲ
sÅ« ĠwÃ©iĠ
guÃłn ĠjÅ«n
ĠbÃ¹Ġ shÇİo
ĠzhÄ« ĠjiÄģĠ
fÄģĠ dÃ²ngĠjÄ«Ġ
cÄģnĠ xuÇİnĠ
Ġ zÃº
ĠkÃ¨ ĠhÃ©Ġ
bÃ¬Ġ miÇİnĠ
tÃŃngĠ chÄĵĠ
ĠxiÄģngĠ dÄģng
tÃ³ngĠ xÃ¬ngĠ
zÇİo ĠshÃłngĠ
1937 ĠniÃ¡nĠ
zhÇĶĠ tÃŃ
chuÃłngĠ zuÃ²ĠdeĠ
sÄĵnĠ lÃŃn
ĠfÃ¹ĠzÃ©Ġ guÇİnĠxiÃ¡Ġ
Ġ ì
Ãło ĠÄĽrĠ
lÄģ ĠdeĠ
1974 ĠniÃ¡nĠ
mÃŃngĠ dÄģnĠ
zhÃłnĠ tÃ¡iĠ
guÃ³ ĠshÃ¬Ġ
hÅ« ĠyÃ¹Ġ
ĠgÅįngĠ yÃ¬ngĠ
jiÄģnĠ rÃ¨nĠ
xuÇİnĠjÇĶ ĠzhÅįngĠ
1946 ĠniÃ¡nĠ
ĠyÄ«Ġ zhÃŃĠ
guÄģnĠ fÄģng
suÇĴĠ yÇĴuĠdeĠ
bÃ³Ġ lÃŃnĠ
jiÃłnĠ zhÃ¹
dÄ«Ġ qÃ¬Ġ
lÃŃ ĠmÇĲĠ
jÇĲngĠ gÃłoĠ
cÃ¡iĠ liÃło
ĠĠĠzÄĵngĠ zÇĶĠ
Ġ kÇİoĠ
sÄģo Ġ
nÃ¡nĠ zi
tÇĲĠyÃ¹Ġ chÇİngĠ
guÇİng ĠzhÅįu
liÃ¡nĠ jiÄĵ
lÄģ ĠdÃ©Ġ
shÅ« ĠchÅ«Ġ
ĠbÃ¹Ġ mÇİnĠ
ĠgÅįngĠ nÃ©ng
zhÃłoĠ piÄģnĠ
xiÃł ĠzÃłiĠ
lÃ¡n ĠxÄ«Ġ
hÃ¡i ĠzÃłiĠ
dÃ¹n ĠdeĠ
ĠqiÃº ĠdeĠ
yÇĲnĠ rÃ¹Ġ
yÃŃnĠ pÃ¡iĠ
yÃ¡oĠ gÇĶn
ĠÃ©rĠgÄģiĠ dÃ¬ĠdeĠ
yÄ«ng ĠlÇĲĠ
nuÃ³ ĠwÄĵiĠ
guÃ³Ġ wÃ¡ngĠ
ĠyÇĶĠ qÃŃĠ
qÄ«Ġ zÇĲ
ÄģnĠ zhuÄģngĠ
xÃ¹ ĠlÃ¬ĠyÃł
zÇİoĠ qÄ«ĠdeĠ
shÃŃ ĠhÃ©Ġ
tÃº ĠdeĠ
1954 ĠniÃ¡nĠ
mÇĴuĠ xiÄĵ
Ġ mÃ³
cÃ©ng ĠdeĠ
ĠjÃ¬Ġ lÃ¹
ĠchÅ«Ġ yÇİnĠ
Ġ jiÄĵ
Ġ bÇİĠ
zhÄ« ĠshÃŃĠ
zhÃłn ĠdÃ¬Ġ
qiÃº ĠhuÃ¬Ġ
fÄĵi ĠxÃŃng
ĠbÃ¨iĠ ÄĽr
Ġ shÃ¹n
zhÃłn ĠshÃŃĠ
zÄģo ĠyÃ¹Ġ
ĠniÃ¡nĠ qÄ«ngĠ
ĠwÃ¨iĠ nÃ©ng
xiÃłĠ lÃ¡iĠ
shÄĵnĠ qÇĲng
Ġ t
ĠhÃ©Ġ gÇĶĠ
ĠchÃ©ngĠ leĠ
ĠyÇĲĠ qiÃ¡nĠ
ĠjÃ¬Ġ yÃ¬Ġ
ĠkÃ¨ ĠlÃ¬Ġ
fÄģĠ shÄĵngĠdeĠ
shÄ«Ġ qÃ¹Ġ
gÇĶĠ lÄģĠ
Ġ n
qiÃ¡n ĠhÃ²uĠ
10 ĠniÃ¡nĠ
biÄģn ĠyuÃ¡nĠ
mÃ² ĠÄĽrĠ
zhÅįngĠ yÄģngĠ
ĠjiÄģĠ tÃŃng
ĠxiÄģngĠ tÃ³ngĠ
yÅįuĠ xiÃ¹
ĠyÇĲĠsÃ¨Ġ liÃ¨Ġ
tÃ¨ ĠlÃ¬Ġ
ĠshÃŃĠ bÃłoĠ
xÄ«ngĠ qÄ«
Ġ Re
Ġ qÇĲngĠ
shÄģnĠdÅįngĠ shÄĽngĠ
ĠzhÄģo ĠhÃ©Ġ
Ġ yÃ¨
duÃ¬ ĠyuÃ¡nĠ
zÇĶ ĠdeĠ
ĠduÃ¬Ġ cÇĲĠ
ĠĠĠgÃłiĠ yÃłoĠ
Ġ 2006
sÄģn ĠdÃłĠ
ĠdeĠ zhÇĶĠyÃłoĠ
tÃłiĠ kÅįngĠ
ĠzÃ¬Ġ yÃ³u
ĠB Ġ
Ġ fÇĴu
Ġ 2000ĠniÃ¡nĠ
ĠjÅ«n ĠdÃ¬Ġ
ĠshÄĵngĠ mÃŃngĠ
ĠzhÇĲ ĠzÃłiĠ
1 ĠgÃ¨Ġ
zhÃł ĠdÃłnĠ
niÃ¡ng Ġ
Ġ sÃ²ng
wÇİng ĠshÃłngĠ
tÇİ ĠÄĽrĠ
ĠdÃ¬Ġ zhÃ¨nĠ
xiÃłĠ jiÃłngĠ
Ġ wÃłi
lÇĲngĠ dÇİoĠdeĠ
yÃ¡nĠjiÅ« ĠshÄĵngĠ
Ġ cÇİiĠyÃ²ngĠ
tÃ¨ ĠÄĽrĠ
bÇİo ĠdeĠ
ĠxiÃłn ĠyÇĴuĠ
ĠyuÃ¡nĠ yÄ«n
diÃłnĠshÃ¬Ġ tÃ¡i
Ġ000 Ġ
Ġ 40
wÅ« ĠsÄ«Ġ
hÇİo ĠpÃŃngĠ
zhÄģi Ġ
1955 ĠniÃ¡nĠ
ĠzhÅįngĠ jiÄģnĠ
pÇĶĠ chÃ¡Ġ
ĠshÇĴuĠ cÃ¬Ġ
Ġ cÃ¡i
duÅįĠ cÃ¬
huÃŃĠ guÄ«Ġ
qÄ«nĠ wÃ¡ngĠ
ĠĠĠ The
tÃ³ng ĠmÃŃngĠ
tÃ¨ ĠyÇĴuĠ
biÄģn ĠwÃ¨iĠ
ĠjÃŃĠ bÃ¬ngĠ
bÃ³Ġ juÃ©Ġ
ĠwÄĵiĠ liÃ¡nĠ
mÇĲ ĠdeĠ
ĠxÃŃng ĠbÃ¹Ġ
kuÃłiĠ sÃ¹
zÃłnĠ tÃŃngĠ
cÃºn ĠdeĠ
Ġ guÇİngĠdÅįngĠ
Ġ xiÄģnĠhÃ²uĠ
qÃŃng ĠdeĠ
ĠshÃ¬Ġ yÄ«ĠbÃ¹Ġ
