{
  "!": 0,
  "\"": 1,
  "#": 2,
  "$": 3,
  "%": 4,
  "&": 5,
  "'": 6,
  "(": 7,
  ")": 8,
  "*": 9,
  "+": 10,
  ",": 11,
  "-": 12,
  ".": 13,
  "/": 14,
  "0": 15,
  "1": 16,
  "2": 17,
  "3": 18,
  "4": 19,
  "5": 20,
  "6": 21,
  "7": 22,
  "8": 23,
  "9": 24,
  ":": 25,
  ";": 26,
  "=": 27,
  "?": 28,
  "@": 29,
  "A": 30,
  "B": 31,
  "C": 32,
  "D": 33,
  "E": 34,
  "F": 35,
  "G": 36,
  "H": 37,
  "I": 38,
  "J": 39,
  "K": 40,
  "L": 41,
  "M": 42,
  "N": 43,
  "O": 44,
  "P": 45,
  "Q": 46,
  "R": 47,
  "S": 48,
  "T": 49,
  "U": 50,
  "V": 51,
  "W": 52,
  "X": 53,
  "Y": 54,
  "Z": 55,
  "[": 56,
  "\\": 57,
  "]": 58,
  "^": 59,
  "_": 60,
  "`": 61,
  "a": 62,
  "b": 63,
  "c": 64,
  "d": 65,
  "e": 66,
  "f": 67,
  "g": 68,
  "h": 69,
  "i": 70,
  "j": 71,
  "k": 72,
  "l": 73,
  "m": 74,
  "n": 75,
  "o": 76,
  "p": 77,
  "q": 78,
  "r": 79,
  "s": 80,
  "t": 81,
  "u": 82,
  "v": 83,
  "w": 84,
  "x": 85,
  "y": 86,
  "z": 87,
  "|": 88,
  "~": 89,
  "\n": 162,
  " ": 163,
  "": 164,
  "ng": 199,
  "an": 200,
  "sh": 201,
  "zh": 202,
  "ji": 203,
  "ang": 204,
  "  ": 205,
  "ong": 206,
  "xi": 207,
  "ao": 208,
  "ai": 209,
  "de": 210,
  "ei": 211,
  "shi": 212,
  "yu": 213,
  "ou": 214,
  "yi": 215,
  "en": 216,
  "ch": 217,
  "ian": 218,
  "uo": 219,
  "eng": 220,
  "li": 221,
  "   ": 222,
  "ing": 224,
  "ui": 225,
  "wei": 226,
  "uan": 227,
  "zhi": 228,
  "qi": 229,
  "nian": 230,
  "zhong": 231,
  "you": 232,
  "ren": 233,
  "un": 234,
  "zai": 235,
  "di": 236,
  "guo": 237,
  "、": 238,
  "he": 239,
  "bu": 240,
  "er": 241,
  "gong": 242,
  "xing": 243,
  "cheng": 244,
  "da": 245,
  "zhu": 246,
  "hu": 247,
  "yuan": 248,
  "si": 249,
  "jian": 250,
  "yue": 251,
  "ge": 252,
  "fu": 253,
  "xian": 254,
  "ue": 255,
  "ke": 256,
  "wu": 257,
  "chu": 258,
  "shu": 259,
  "sheng": 260,
  "jie": 261,
  "jia": 262,
  "bi": 263,
  "dao": 264,
  "zi": 265,
  "bei": 266,
  "hui": 267,
  "fa": 268,
  "xiang": 269,
  "ti": 270,
  "zheng": 271,
  "mi": 272,
  "ta": 273,
  "jin": 274,
  "qu": 275,
  "20": 276,
  "tong": 277,
  "ri": 278,
  "ju": 279,
  "jing": 280,
  "ming": 281,
  "le": 282,
  "hou": 283,
  "shang": 284,
  "shou": 285,
  "dong": 286,
  "ci": 287,
  "fang": 288,
  "19": 289,
  "hua": 290,
  "yin": 291,
  "xue": 292,
  "guan": 293,
  "zhan": 294,
  "ye": 295,
  "ying": 296,
  "zuo": 297,
  "zhe": 298,
  "yan": 299,
  "mei": 300,
  "jiao": 301,
  "gu": 302,
  "chang": 303,
  "xin": 304,
  "dui": 305,
  "lu": 306,
  "bing": 307,
  "bao": 308,
  "fen": 309,
  "dan": 310,
  "huo": 311,
  "jun": 312,
  "jiang": 313,
  "du": 314,
  "xiao": 315,
  "dian": 316,
  "yong": 317,
  "qian": 318,
  "she": 319,
  "tai": 320,
  "xia": 321,
  "mu": 322,
  "wen": 323,
  "gai": 324,
  "zhang": 325,
  "liang": 326,
  "ya": 327,
  "ru": 328,
  "dai": 329,
  "hai": 330,
  "nan": 331,
  "zhou": 332,
  "zu": 333,
  "wang": 334,
  "lai": 335,
  "ban": 336,
  "jiu": 337,
  "dang": 338,
  "qing": 339,
  "ping": 340,
  "shen": 341,
  "》": 342,
  "《": 343,
  "wan": 344,
  "lian": 345,
  "ling": 346,
  "luo": 347,
  "·": 348,
  "min": 349,
  "quan": 350,
  "pi": 351,
  "ni": 352,
  "bo": 353,
  "duo": 354,
  "te": 355,
  "ben": 356,
  "gao": 357,
  "biao": 358,
  "suo": 359,
  "la": 360,
  "ma": 361,
  "kai": 362,
  "ba": 363,
  "xie": 364,
  "xu": 365,
  "bian": 366,
  "deng": 367,
  "yao": 368,
  "yang": 369,
  "mian": 370,
  "zhen": 371,
  "ding": 372,
  "qiu": 373,
  "zui": 374,
  "sai": 375,
  "liu": 376,
  "fan": 377,
  "xuan": 378,
  "fei": 379,
  "san": 380,
  "shan": 381,
  "che": 382,
  "zong": 383,
  "men": 384,
  "「": 385,
  "」": 386,
  "tu": 387,
  "tian": 388,
  "hao": 389,
  "su": 390,
  "lei": 391,
  "nei": 392,
  "yun": 393,
  "201": 394,
  "lan": 395,
  "feng": 396,
  "mo": 397,
  "na": 398,
  "ze": 399,
  "lv": 400,
  "han": 401,
  "kou": 402,
  "wai": 403,
  "neng": 404,
  "lin": 405,
  "chuan": 406,
  "chi": 407,
  "jue": 408,
  "bai": 409,
  "pai": 410,
  "200": 411,
  "ku": 412,
  "cai": 413,
  "zao": 414,
  "ting": 415,
  "zhuan": 416,
  "gang": 417,
  "lie": 418,
  "guang": 419,
  "gui": 420,
  "lun": 421,
  "sui": 422,
  "pu": 423,
  "ceng": 424,
  "kong": 425,
  "shui": 426,
  "10": 427,
  "chao": 428,
  "zhuang": 429,
  "cha": 430,
  "dou": 431,
  "can": 432,
  "tou": 433,
  "ran": 434,
  "se": 435,
  "duan": 436,
  "cun": 437,
  "huan": 438,
  "cong": 439,
  "pin": 440,
  "ce": 441,
  "chan": 442,
  "xun": 443,
  "gou": 444,
  "00": 445,
  "nv": 446,
  "zhao": 447,
  "gan": 448,
  "chong": 449,
  "sha": 450,
  "tan": 451,
  "18": 452,
  "qin": 453,
  "ka": 454,
  "meng": 455,
  "qiang": 456,
  "huang": 457,
  "xiu": 458,
  "12": 459,
  "tiao": 460,
  "man": 461,
  "shao": 462,
  "kuo": 463,
  "long": 464,
  "pian": 465,
  "shuo": 466,
  "tuan": 467,
  "tang": 468,
  "rong": 469,
  "geng": 470,
  "202": 471,
  "chen": 472,
  "tui": 473,
  "gen": 474,
  "que": 475,
  "tie": 476,
  "11": 477,
  "qie": 478,
  "wo": 479,
  "po": 480,
  "pei": 481,
  "hang": 482,
  "hong": 483,
  "199": 484,
  "bang": 485,
  "liao": 486,
  "chuang": 487,
  "bie": 488,
  "re": 489,
  "tuo": 490,
  "tao": 491,
  "song": 492,
  "wa": 493,
  "mai": 494,
  "ha": 495,
  "15": 496,
  "pan": 497,
  "dun": 498,
  "diao": 499,
  "qiao": 500,
  "sa": 501,
  "mao": 502,
  "lang": 503,
  "kan": 504,
  "kang": 505,
  "or": 507,
  "lao": 508,
  "zeng": 509,
  "16": 510,
  "198": 511,
  "kao": 512,
  "xiong": 513,
  "17": 514,
  "on": 515,
  "nuo": 516,
  "miao": 517,
  "rang": 518,
  "kuang": 519,
  "hen": 520,
  "suan": 521,
  "14": 522,
  "30": 523,
  "zhun": 524,
  "13": 525,
  "194": 526,
  "cao": 527,
  "hun": 528,
  "qun": 529,
  "nong": 530,
  "197": 531,
  "heng": 532,
  "shuang": 533,
  "lou": 534,
  "gei": 535,
  "kuai": 536,
  "piao": 537,
  "zha": 538,
  "hei": 539,
  "niu": 540,
  "195": 541,
  "sen": 542,
  "bin": 543,
  "reng": 544,
  "zou": 545,
  "196": 546,
  "chun": 547,
  "kuan": 548,
  "25": 549,
  "—": 550,
  "rui": 551,
  "sun": 552,
  "pao": 553,
  "ning": 554,
  "for": 555,
  "pa": 556,
  "cang": 557,
  "mou": 558,
  "24": 559,
  "peng": 560,
  "huai": 561,
  "21": 562,
  "193": 563,
  "23": 564,
  "mula": 565,
  "formula": 566,
  "28": 567,
  "zan": 568,
  "ruo": 569,
  "in": 570,
  "22": 571,
  "chou": 572,
  "zhui": 573,
  "ar": 574,
  "me": 575,
  "26": 576,
  "50": 577,
  "2020": 578,
  "27": 579,
  "nai": 580,
  "nu": 581,
  "29": 583,
  "shun": 584,
  "2010": 585,
  "za": 586,
  "000": 587,
  "lve": 588,
  "zhai": 589,
  "2019": 590,
  "ne": 591,
  "ro": 592,
  "juan": 593,
  "st": 594,
  "ra": 595,
  "cui": 596,
  "kun": 597,
  "2016": 598,
  "luan": 599,
  "2018": 600,
  "cuo": 601,
  "2021": 602,
  "zang": 603,
  "2014": 604,
  "shuai": 605,
  "2011": 606,
  "2015": 607,
  "2017": 608,
  "2012": 609,
  "40": 610,
  "2013": 611,
  "nao": 612,
  "2022": 613,
  "die": 614,
  "ruan": 615,
  "kui": 616,
  "lt": 617,
  "rou": 618,
  "cu": 619,
  "sang": 620,
  "2009": 621,
  "2008": 622,
  "60": 624,
  "niao": 625,
  "al": 626,
  "rao": 627,
  "chai": 628,
  "100": 629,
  "zhuo": 630,
  "2023": 631,
  "gt": 632,
  "sou": 633,
  "190": 634,
  "31": 635,
  "ken": 636,
  "2007": 637,
  "2001": 638,
  "teng": 639,
  "pang": 640,
  "fou": 641,
  "co": 642,
  "fo": 643,
  "gua": 644,
  "2000": 645,
  "80": 646,
  "2006": 647,
  "2024": 648,
  "2005": 650,
  "zun": 651,
  "tion": 652,
  "kua": 653,
  "the": 654,
  "35": 655,
  "70": 656,
  "nie": 657,
  "lo": 658,
  "of": 659,
  "90": 660,
  "leng": 661,
  "－": 662,
  "am": 664,
  "tun": 665,
  "ter": 666,
  "mie": 667,
  "2004": 668,
  "th": 669,
  "to": 670,
  "45": 671,
  "48": 672,
  "mang": 673,
  "2025": 674,
  "ve": 675,
  "ga": 676,
  "〉": 677,
  "〈": 678,
  "36": 679,
  "38": 680,
  "2003": 681,
  "37": 682,
  "Ma": 683,
  "chui": 684,
  "pen": 685,
  "ll": 686,
  "189": 687,
  "IN": 688,
  "2002": 689,
  "keng": 690,
  "TC": 691,
  "do": 692,
  "34": 693,
  "75": 694,
  "–": 695,
  "Co": 696,
  "46": 697,
  "ca": 698,
  "1990": 699,
  "…": 700,
  "ck": 701,
  "39": 702,
  "..": 703,
  "be": 704,
  "65": 705,
  "32": 706,
  "ST": 707,
  "47": 708,
  "UTC": 709,
  "1999": 710,
  "1998": 711,
  "1980": 712,
  "188": 713,
  "500": 714,
  "33": 715,
  "In": 716,
  "64": 717,
  "ss": 718,
  "The": 719,
  "vi": 720,
  "SE": 721,
  "55": 722,
  "1997": 723,
  "Re": 724,
  "hi": 725,
  "49": 726,
  "II": 727,
  "el": 728,
  "68": 729,
  "et": 730,
  "44": 731,
  "1996": 732,
  "oo": 733,
  "qiong": 734,
  "1994": 735,
  "gun": 736,
  "br": 737,
  "guai": 738,
  "1992": 739,
  "1995": 740,
  "Mi": 741,
  "67": 742,
  "and": 743,
  "sao": 744,
  "es": 745,
  "1991": 746,
  "1970": 747,
  "58": 748,
  "1950": 749,
  "300": 750,
  "1993": 751,
  "187": 752,
  "1949": 753,
  "at": 754,
  "AT": 755,
  "pe": 756,
  "1960": 757,
  "42": 758,
  "1945": 759,
  "Li": 760,
  "ver": 761,
  "qia": 762,
  "1988": 763,
  "ty": 764,
  "1989": 765,
  "69": 766,
  "Ro": 767,
  "is": 768,
  "run": 769,
  "SEE": 770,
  "niang": 771,
  "INSEE": 772,
  "ho": 773,
  "59": 774,
  "43": 775,
  "66": 776,
  "57": 777,
  "1985": 778,
  "99": 779,
  "SA": 780,
  "『": 781,
  "』": 782,
  "ct": 783,
  "1984": 784,
  "41": 785,
  "88": 786,
  "1986": 787,
  "wi": 788,
  "ol": 789,
  "ws": 790,
  "TV": 791,
  "ry": 792,
  "150": 793,
  "Me": 794,
  "nd": 795,
  "400": 796,
  "1987": 797,
  "78": 798,
  "1982": 799,
  "56": 800,
  "beng": 801,
  "Vi": 802,
  "Pa": 803,
  "ts": 804,
  "1983": 805,
  "amp": 806,
  "NA": 807,
  "De": 808,
  "CD": 809,
  "gh": 810,
  "fi": 811,
  "weng": 812,
  "ber": 813,
  "77": 814,
  "Win": 815,
  "per": 816,
  "zuan": 817,
  "Sta": 818,
  "79": 819,
  "OS": 820,
  "Wi": 821,
  "°": 822,
  "der": 824,
  "180": 825,
  "BC": 826,
  "54": 827,
  "1979": 828,
  "61": 829,
  "1920": 830,
  "as": 831,
  "Mo": 832,
  "seng": 833,
  "98": 834,
  "52": 835,
  "You": 836,
  "1978": 837,
  "no": 838,
  "62": 839,
  "53": 840,
  "ly": 841,
  "shua": 842,
  "La": 843,
  "～": 844,
  "BA": 845,
  "1946": 846,
  "CO": 847,
  "51": 848,
  "1958": 849,
  "gi": 850,
  "Jo": 851,
  "1981": 852,
  "1972": 853,
  "1948": 854,
  "Le": 855,
  "tw": 856,
  "AM": 857,
  "63": 858,
  "AR": 859,
  "ction": 860,
  "1941": 861,
  "BS": 862,
  "Ga": 863,
  "1930": 864,
  "Da": 865,
  "Pro": 866,
  "Te": 867,
  "76": 868,
  "hans": 869,
  "1940": 870,
  "1937": 871,
  "1976": 872,
  "1944": 873,
  "Ja": 874,
  "89": 875,
  "us": 876,
  "Di": 877,
  "Windo": 878,
  "1975": 879,
  "／": 880,
  "1968": 881,
  "hk": 882,
  "con": 883,
  "Fi": 884,
  "um": 885,
  "Si": 886,
  "1000": 887,
  "Windows": 888,
  "95": 889,
  "87": 890,
  "nal": 891,
  "Mar": 892,
  "1966": 893,
  "rd": 894,
  "85": 895,
  "Ne": 896,
  "Ra": 897,
  "ki": 898,
  "600": 899,
  "120": 900,
  "1947": 901,
  "Se": 902,
  "AC": 903,
  "1956": 904,
  "1964": 905,
  "Be": 906,
  "1942": 907,
  "é": 908,
  "1955": 909,
  "1952": 910,
  "IS": 911,
  "ad": 912,
  "1939": 913,
  "1938": 914,
  "72": 915,
  "ur": 916,
  "74": 917,
  "Ca": 918,
  "va": 919,
  "1973": 920,
  "1974": 921,
  "1954": 922,
  "Ar": 923,
  "Al": 924,
  "ED": 925,
  "1900": 926,
  "--": 927,
  "AP": 928,
  "1943": 929,
  "To": 930,
  "1977": 931,
  "ld": 932,
  "1971": 933,
  "cen": 934,
  "lay": 935,
  "1967": 936,
  "Ba": 937,
  "IC": 938,
  "800": 939,
  "Po": 940,
  "Lo": 941,
  "ER": 942,
  "zhua": 943,
  "sta": 944,
  "86": 945,
  "1959": 946,
  "Bo": 947,
  "tt": 948,
  "1965": 949,
  "JR": 950,
  "1969": 951,
  "Fa": 952,
  "・": 953,
  "×": 954,
  "ID": 955,
  "Bi": 956,
  "son": 957,
  "1936": 958,
  "160": 959,
  "97": 960,
  "1953": 961,
  "Sa": 962,
  "MA": 963,
  "1962": 964,
  "1961": 965,
  "nen": 966,
  "Na": 967,
  "So": 969,
  "1935": 970,
  "com": 971,
  "Ho": 972,
  "tic": 973,
  "96": 974,
  "ON": 975,
  "％": 976,
  "1951": 977,
  "St": 978,
  "1957": 979,
  "1963": 980,
  "Tu": 981,
  "─": 982,
  "fe": 983,
  "so": 984,
  "shi ": 985,
  "de ": 986,
  " shi ": 987,
  " de ": 988,
  "yi ": 989,
  " yi ": 990,
  "ji ": 991,
  "wei ": 992,
  "zhi ": 993,
  "yu ": 994,
  " wei ": 995,
  " ji ": 996,
  " nian": 997,
  " zhi ": 998,
  " yu ": 999,
  " li": 1000,
  " nian ": 1001,
  "zhong ": 1002,
  " li ": 1003,
  "zai ": 1004,
  "ren ": 1005,
  "you ": 1006,
  "guo ": 1007,
  "he ": 1008,
  "qi ": 1009,
  "bu ": 1010,
  "di ": 1011,
  " you ": 1012,
  " zai ": 1013,
  " ren ": 1014,
  " yue": 1015,
  " zhong ": 1016,
  " he ": 1017,
  "da ": 1018,
  "xi ": 1019,
  "xing ": 1020,
  "yuan ": 1021,
  "er ": 1022,
  "gong ": 1023,
  " yue ": 1024,
  "fu ": 1025,
  "si ": 1026,
  "ge ": 1027,
  "jian ": 1028,
  " guo ": 1029,
  "wu ": 1030,
  "jia ": 1031,
  " bu ": 1032,
  "jie ": 1033,
  "ke ": 1034,
  "cheng ": 1035,
  "zhu ": 1036,
  "sheng ": 1037,
  "xiang ": 1038,
  "xian ": 1039,
  "dao ": 1040,
  "bei ": 1041,
  "zi ": 1042,
  " qi ": 1043,
  "fa ": 1044,
  "hui ": 1045,
  "chu ": 1046,
  "jin ": 1047,
  " di ": 1048,
  "shu ": 1049,
  " er ": 1050,
  "ri ": 1051,
  " xi ": 1052,
  "ju ": 1053,
  "qu ": 1054,
  "zheng ": 1055,
  "hou ": 1056,
  "shou ": 1057,
  "ming ": 1058,
  "shang ": 1059,
  "dong ": 1060,
  "le ": 1061,
  "ta ": 1062,
  "jing ": 1063,
  "xue ": 1064,
  "fang ": 1065,
  "yan ": 1066,
  "zhan ": 1067,
  "ci ": 1068,
  "bao ": 1069,
  "hua ": 1070,
  "ying ": 1071,
  "ye ": 1072,
  "tong ": 1073,
  "zuo ": 1074,
  "zhe ": 1075,
  "guan ": 1076,
  " da ": 1077,
  " ri ": 1078,
  "yin ": 1079,
  "chang ": 1080,
  "xin ": 1081,
  "jiao ": 1082,
  "lu ": 1083,
  "dui ": 1084,
  "wen ": 1085,
  "ti ": 1086,
  "fen ": 1087,
  "qian ": 1088,
  "tai ": 1089,
  "jiang ": 1090,
  "xiao ": 1091,
  "bing ": 1092,
  " si ": 1093,
  "jun ": 1094,
  "dian ": 1095,
  "zhang ": 1096,
  "ping ": 1097,
  "xia ": 1098,
  "du ": 1099,
  "huo ": 1100,
  "yong ": 1101,
  "dan ": 1102,
  " ke ": 1103,
  " jia ": 1104,
  "hai ": 1105,
  "gai ": 1106,
  "wang ": 1107,
  "dai ": 1108,
  "nan ": 1109,
  "ru ": 1110,
  "qing ": 1111,
  "mu ": 1112,
  "bi ": 1113,
  "ban ": 1114,
  "liang ": 1115,
  "lai ": 1116,
  "mei ": 1117,
  "ya ": 1118,
  "shen ": 1119,
  "zu ": 1120,
  " xing ": 1121,
  " fu ": 1122,
  "wan ": 1123,
  "she ": 1124,
  "lian ": 1125,
  "min ": 1126,
  "mi ": 1127,
  "zhou ": 1128,
  "an ": 1129,
  "jiu ": 1130,
  "qiu ": 1131,
  "zhen ": 1132,
  "ben ": 1133,
  "xu ": 1134,
  "gao ": 1135,
  "bo ": 1136,
  " ta ": 1137,
  "xie ": 1138,
  "te ": 1139,
  "bian ": 1140,
  "ling ": 1141,
  "luo ": 1142,
  "yao ": 1143,
  "deng ": 1144,
  "duo ": 1145,
  "yang ": 1146,
  "quan ": 1147,
  "che ": 1148,
  "suo ": 1149,
  "zui ": 1150,
  "tian ": 1151,
  "gu ": 1152,
  "biao ": 1153,
  "fan ": 1154,
  "hu ": 1155,
  "yun ": 1156,
  "xuan ": 1157,
  "su ": 1158,
  "shan ": 1159,
  "fei ": 1160,
  "ding ": 1161,
  "liu ": 1162,
  "zong ": 1163,
  "sai ": 1164,
  "dang ": 1165,
  "ma ": 1166,
  "kai ": 1167,
  "ba ": 1168,
  "hao ": 1169,
  " de yi ": 1170,
  " bing ": 1171,
  " dao ": 1172,
  "feng ": 1173,
  "kou ": 1174,
  "tu ": 1175,
  "mian ": 1176,
  "men ": 1177,
  "nei ": 1178,
  "la ": 1179,
  "lei ": 1180,
  "san ": 1181,
  "cai ": 1182,
  "wai ": 1183,
  "chuan ": 1184,
  "jue ": 1185,
  "pai ": 1186,
  "chi ": 1187,
  " dan ": 1188,
  " jin ": 1189,
  " bei ": 1190,
  " gong ": 1191,
  " jian ": 1192,
  "guang ": 1193,
  " shi yi ": 1194,
  "lan ": 1195,
  "ni ": 1196,
  "gui ": 1197,
  "bai ": 1198,
  " zi ": 1199,
  "lin ": 1200,
  "ting ": 1201,
  " zhe ": 1202,
  "pu ": 1203,
  " xiang ": 1204,
  "na ": 1205,
  "gang ": 1206,
  "lun ": 1207,
  "neng ": 1208,
  "han ": 1209,
  "lie ": 1210,
  "ze ": 1211,
  " zhu ": 1212,
  "cheng wei ": 1213,
  "mo ": 1214,
  " yin ": 1215,
  " ge ": 1216,
  " xian ": 1217,
  " chu ": 1218,
  " shi de ": 1219,
  "mei guo ": 1220,
  "chan ": 1221,
  "shui ": 1222,
  " ju ": 1223,
  " cheng ": 1224,
  " de shi ": 1225,
  " jie ": 1226,
  " gai ": 1227,
  " wu ": 1228,
  "sui ": 1229,
  "xun ": 1230,
  "zhuan ": 1231,
  " bao ": 1232,
  "lv ": 1233,
  " ping ": 1234,
  " ta": 1235,
  "e ": 1236,
  "ao ": 1237,
  "li ": 1238,
  "zhuang ": 1239,
  "tou ": 1240,
  "duan ": 1241,
  "1 ": 1242,
  " yi ji ": 1243,
  "se ": 1244,
  "huan ": 1245,
  "chong ": 1246,
  " wei yu ": 1247,
  "ceng ": 1248,
  "pin ": 1249,
  "a ": 1250,
  "cong ": 1251,
  "cha ": 1252,
  "di yi ": 1253,
  "cun ": 1254,
  "dou ": 1255,
  "zao ": 1256,
  " hou ": 1257,
  "kong ": 1258,
  "zhao ": 1259,
  "gou ": 1260,
  "2 ": 1261,
  "gan ": 1262,
  "sha ": 1263,
  " ci ": 1264,
  "qiang ": 1265,
  "ce ": 1266,
  " shi ji ": 1267,
  "chao ": 1268,
  "ai ": 1269,
  "meng ": 1270,
  "kai shi ": 1271,
  "man ": 1272,
  " ye ": 1273,
  "tang ": 1274,
  "long ": 1275,
  "kuo ": 1276,
  " dan": 1277,
  "ke yi ": 1278,
  " fa ": 1279,
  " yi ge ": 1280,
  " yuan ": 1281,
  "tan ": 1282,
  "tuan ": 1283,
  " sheng ": 1284,
  " shi wei ": 1285,
  "ka ": 1286,
  "gong li ": 1287,
  " zhong guo ": 1288,
  "qin ": 1289,
  " tong": 1290,
  "tie ": 1291,
  " shi shi ": 1292,
  " bing": 1293,
  "zheng fu ": 1294,
  " ming ": 1295,
  "shao ": 1296,
  "can ": 1297,
  "pian ": 1298,
  " you": 1299,
  "huo de ": 1300,
  "mian ji ": 1301,
  "hang ": 1302,
  "hong ": 1303,
  "geng ": 1304,
  " huo ": 1305,
  "ji de ": 1306,
  " shi yong ": 1307,
  "tiao ": 1308,
  "xiu ": 1309,
  "chen ": 1310,
  "shuo ": 1311,
  "pi ": 1312,
  "3 ": 1313,
  " dong ": 1314,
  "ren wei ": 1315,
  " shi jian ": 1316,
  "tao ": 1317,
  "zhi yi ": 1318,
  "ran ": 1319,
  "zhong de ": 1320,
  "zheng zhi ": 1321,
  "huang ": 1322,
  " yi zhi ": 1323,
  " shi jie ": 1324,
  "zhong guo ": 1325,
  "yue ": 1326,
  "chuang ": 1327,
  "nv ": 1328,
  "qu de ": 1329,
  "guo ji ": 1330,
  " ri": 1331,
  "yi shi ": 1332,
  " ping fang ": 1333,
  "wo ": 1334,
  "ren kou ": 1335,
  "xing de ": 1336,
  "po ": 1337,
  "ou ": 1338,
  "jin xing ": 1339,
  "rong ": 1340,
  " shou ": 1341,
  "liao ": 1342,
  "tuo ": 1343,
  "diao ": 1344,
  "mei you ": 1345,
  "song ": 1346,
  " li de ": 1347,
  "nian ": 1348,
  " sui ": 1349,
  " li shi ": 1350,
  " dang": 1351,
  " wei yuan ": 1352,
  "pei ": 1353,
  "pan ": 1354,
  " qi zhong ": 1355,
  " mi ": 1356,
  " fen ": 1357,
  "zuo wei ": 1358,
  "gong si ": 1359,
  "fa guo ": 1360,
  "biao shi ": 1361,
  " hao ": 1362,
  "   zai ": 1363,
  " wan ": 1364,
  "yan jiu ": 1365,
  " er": 1366,
  "zheng shi ": 1367,
  " hai ": 1368,
  " yin": 1369,
  " shang ": 1370,
  " de ji ": 1371,
  "tui ": 1372,
  "que ": 1373,
  " zhe": 1374,
  "dian shi ": 1375,
  "yun dong ": 1376,
  " xin ": 1377,
  "qie ": 1378,
  "bang ": 1379,
  " mei ": 1380,
  " de di ": 1381,
  " tai ": 1382,
  "cheng shi ": 1383,
  "zhi shi ": 1384,
  " jiang ": 1385,
  " jing ": 1386,
  " shu ": 1387,
  "jian de ": 1388,
  "ta de ": 1389,
  "gong he ": 1390,
  "shu yu ": 1391,
  "she ji ": 1392,
  "lang ": 1393,
  " qian ": 1394,
  " ren min ": 1395,
  "dun ": 1396,
  " ren kou ": 1397,
  "zhi de ": 1398,
  "qiao ": 1399,
  "10 yue ": 1400,
  "12 yue ": 1401,
  " de zhi ": 1402,
  "jing ji ": 1403,
  "7 yue ": 1404,
  "dian ying ": 1405,
  " ying ": 1406,
  " xia ": 1407,
  " nan ": 1408,
  "zu zhi ": 1409,
  "9 yue ": 1410,
  " mu ": 1411,
  " zhang ": 1412,
  "8 yue ": 1413,
  "zhu yi ": 1414,
  "4 ": 1415,
  "3 yue ": 1416,
  " zui ": 1417,
  "1 yue ": 1418,
  "mao ": 1419,
  " shi qi ": 1420,
  "dai biao ": 1421,
  "wa ": 1422,
  "ri ben ": 1423,
  "5 ": 1424,
  "s ": 1425,
  "ying guo ": 1426,
  "5 yue ": 1427,
  "you yi ": 1428,
  "ji shi ": 1429,
  "kao ": 1430,
  "6 yue ": 1431,
  "re ": 1432,
  "guo de ": 1433,
  "kan ": 1434,
  "4 yue ": 1435,
  " shi zhen ": 1436,
  " hui ": 1437,
  "hen ": 1438,
  "mai ": 1439,
  "xian de ": 1440,
  "wei yi ": 1441,
  "11 yue ": 1442,
  "che zhan ": 1443,
  "jiao yu ": 1444,
  "gen ju ": 1445,
  " tong ": 1446,
  "bu fen ": 1447,
  "yi de ": 1448,
  "da xue ": 1449,
  "yu shi ": 1450,
  " bi ": 1451,
  "xiang gang ": 1452,
  "ming wei ": 1453,
  "xue yuan ": 1454,
  " de guo ": 1455,
  " yi yuan ": 1456,
  "li shi ": 1457,
  " de yi ge ": 1458,
  " zhi hou ": 1459,
  " ru ": 1460,
  "dan ren ": 1461,
  "gen ": 1462,
  " nian 1 yue ": 1463,
  "can jia ": 1464,
  " deng ": 1465,
  " yi wei ": 1466,
  "cao ": 1467,
  "kang ": 1468,
  "she hui ": 1469,
  "xian shi ": 1470,
  " ti ": 1471,
  " di qu ": 1472,
  "sa ": 1473,
  " qing ": 1474,
  "ying xiang ": 1475,
  "tai wan ": 1476,
  "s   ": 1477,
  "shu de ": 1478,
  " ran": 1479,
  "bie ": 1480,
  " you yu ": 1481,
  "shang de ": 1482,
  "xing shi ": 1483,
  "ye shi ": 1484,
  "qi shi ": 1485,
  " yin ci ": 1486,
  "formula ": 1487,
  "guan li ": 1488,
  "lao ": 1489,
  " yan ": 1490,
  "zeng ": 1491,
  "gong zuo ": 1492,
  "tong guo ": 1493,
  "le yi ": 1494,
  " xue ": 1495,
  " nian 12 yue ": 1496,
  "6 ": 1497,
  " xiao ": 1498,
  " ling ": 1499,
  "xing zheng ": 1500,
  "bu de ": 1501,
  "gong he guo ": 1502,
  "wei shi ": 1503,
  " li ya ": 1504,
  "er shi ": 1505,
  " nian de ": 1506,
  "ren de ": 1507,
  "zhun ": 1508,
  "zi ji ": 1509,
  "da de ": 1510,
  "xiong ": 1511,
  "2 yue ": 1512,
  " guo jia ": 1513,
  "zui zhong ": 1514,
  " nian 3 yue ": 1515,
  "hui yi ": 1516,
  "kuang ": 1517,
  "   sheng ": 1518,
  "nong ": 1519,
  "cheng li ": 1520,
  " ping fang gong li ": 1521,
  " liang ": 1522,
  "luo si ": 1523,
  "ku ": 1524,
  " nian 7 yue ": 1525,
  " jiao ": 1526,
  " nian 10 yue ": 1527,
  "fa xian ": 1528,
  "chu de ": 1529,
  "miao ": 1530,
  "ha ": 1531,
  " wang ": 1532,
  " zhan ": 1533,
  " bao kuo ": 1534,
  "qi de ": 1535,
  "fa zhan ": 1536,
  " nian 9 yue ": 1537,
  " C": 1538,
  "hei ": 1539,
  "yuan de ": 1540,
  " shi you ": 1541,
  " shi zhi ": 1542,
  "qi ta ": 1543,
  " nian 5 yue ": 1544,
  " qi jian ": 1545,
  "piao ": 1546,
  "kuai ": 1547,
  "suo you ": 1548,
  "si de ": 1549,
  " bo ": 1550,
  " tian ": 1551,
  " nian 4 yue ": 1552,
  " nian 6 yue ": 1553,
  "en ": 1554,
  " nian 8 yue ": 1555,
  "you yu ": 1556,
  "tie lu ": 1557,
  " da xue ": 1558,
  "quan guo ": 1559,
  " shi zai ": 1560,
  "dao zhi ": 1561,
  " luo ": 1562,
  "dao de ": 1563,
  "tong de ": 1564,
  "zhu yao ": 1565,
  "cheng de ": 1566,
  "can yu ": 1567,
  "lou ": 1568,
  "nuo ": 1569,
  "shuang ": 1570,
  " 19": 1571,
  "wen hua ": 1572,
  " zheng ": 1573,
  " ma ": 1574,
  " hua ": 1575,
  "di li ": 1576,
  "zhong yi ": 1577,
  " ta men ": 1578,
  " dui ": 1579,
  "lian he ": 1580,
  "di de ": 1581,
  " zhi dao ": 1582,
  " lu ": 1583,
  " nian 11 yue ": 1584,
  "bao kuo ": 1585,
  " dang ": 1586,
  " tong shi ": 1587,
  " gu ": 1588,
  " shen ": 1589,
  "bu shi ": 1590,
  "   S": 1591,
  " zhong xin ": 1592,
  "yin yue ": 1593,
  "   shi ": 1594,
  "bei bu ": 1595,
  "sen ": 1596,
  "shu ji ": 1597,
  "yong yu ": 1598,
  " jiu ": 1599,
  "   yi ": 1600,
  "ti gong ": 1601,
  "zai yi ": 1602,
  " quan ": 1603,
  "xuan bu ": 1604,
  "guo jia ": 1605,
  " zong ": 1606,
  " wei yuan hui ": 1607,
  "zu qiu ": 1608,
  "wen ti ": 1609,
  " nian zhi ": 1610,
  " sui": 1611,
  "kuan ": 1612,
  "xue xiao ": 1613,
  " yin wei ": 1614,
  "sheng yu ": 1615,
  " shi wu ": 1616,
  "jian yu ": 1617,
  "zi you ": 1618,
  " zuo ": 1619,
  "qian mi ": 1620,
  " A": 1621,
  "gong you ": 1622,
  "guan xi ": 1623,
  "fang shi ": 1624,
  " wei zhi ": 1625,
  " shi zhong ": 1626,
  "hun ": 1627,
  " nian 2 yue ": 1628,
  " xu ": 1629,
  "bi sai ": 1630,
  "hua ren min ": 1631,
  "cheng yuan ": 1632,
  "ying de ": 1633,
  "rang ": 1634,
  "jian zhu ": 1635,
  "huo dong ": 1636,
  "jian li ": 1637,
  " gai": 1638,
  "heng ": 1639,
  "suan ": 1640,
  "yu yi ": 1641,
  "t ": 1642,
  "   li shi ": 1643,
  "ji yi ": 1644,
  "fen wei ": 1645,
  " de ren ": 1646,
  "zuo pin ": 1647,
  "she you ": 1648,
  "ren shi ": 1649,
  "tong shi ": 1650,
  "guan jun ": 1651,
  " dian ": 1652,
  " S": 1653,
  " ben ": 1654,
  " chang ": 1655,
  "   C": 1656,
  "da li ": 1657,
  "ge ren ": 1658,
  "   sheng ping ": 1659,
  " cheng wei ": 1660,
  "zhuan ji ": 1661,
  " an ": 1662,
  " jie": 1663,
  "yu de ": 1664,
  " di er ": 1665,
  "bei jing ": 1666,
  " xian": 1667,
  " ji hua ": 1668,
  " you xi ": 1669,
  "jiu shi ": 1670,
  "xiao shi ": 1671,
  " liu ": 1672,
  "hua ren min gong he guo ": 1673,
  "yin wei ": 1674,
  " ta de ": 1675,
  " ba ": 1676,
  "men de ": 1677,
  " li yu ": 1678,
  "qun ": 1679,
  " nian dai ": 1680,
  "dui yu ": 1681,
  " a ": 1682,
  "xi de ": 1683,
  "ming de ": 1684,
  "jun shi ": 1685,
  "di shi ": 1686,
  "tong yi ": 1687,
  " cong ": 1688,
  "gei ": 1689,
  "di er ": 1690,
  "xin de ": 1691,
  "xue jia ": 1692,
  "qu yu ": 1693,
  " bu fen ": 1694,
  "e luo si ": 1695,
  "zou ": 1696,
  "t   ": 1697,
  "ta men ": 1698,
  "er de ": 1699,
  "chun ": 1700,
  " duo ": 1701,
  "wei de ": 1702,
  "shou dao ": 1703,
  "min guo ": 1704,
  "hou de ": 1705,
  "sheng de ": 1706,
  "lai de ": 1707,
  "fang mian ": 1708,
  "fa sheng ": 1709,
  "zheng fu": 1710,
  "gong ji ": 1711,
  "dan wei ": 1712,
  "xing wei ": 1713,
  " shi ren ": 1714,
  " yi jing ": 1715,
  " feng ": 1716,
  "yong you ": 1717,
  " hu ": 1718,
  " fan ": 1719,
  " 18": 1720,
  "zhong shi ": 1721,
  "jin shi ": 1722,
  " xi tong ": 1723,
  "jue ding ": 1724,
  "bu yu ": 1725,
  " zhong yang ": 1726,
  "ju you ": 1727,
  " lian ": 1728,
  " mian ji ": 1729,
  "1 ri ": 1730,
  "tong zhi ": 1731,
  " qu ": 1732,
  "di qu ": 1733,
  "ni ya ": 1734,
  "liang ge ": 1735,
  "fa xing ": 1736,
  "7 ": 1737,
  "qu wei ": 1738,
  " ri ben ": 1739,
  " guan ": 1740,
  " fei ": 1741,
  " gao ": 1742,
  "you de ": 1743,
  "chu xian ": 1744,
  "sheng ji ": 1745,
  "   A": 1746,
  " wen ": 1747,
  " te ": 1748,
  "zh ": 1749,
  "hua de ": 1750,
  " ren kou mi ": 1751,
  "ci shi ": 1752,
  " 15": 1753,
  "qi yu ": 1754,
  "zi zhi ": 1755,
  "wu de ": 1756,
  "ju xing ": 1757,
  "lai zi ": 1758,
  " ta zai ": 1759,
  "ling yi ": 1760,
  "jia de ": 1761,
  " suo ": 1762,
  " ji yu ": 1763,
  "xian zhi ": 1764,
  " wei ji ": 1765,
  "mian ji wei ": 1766,
  " suo": 1767,
  "hui de ": 1768,
  " su ": 1769,
  "bao hu ": 1770,
  " san ": 1771,
  "nan bu ": 1772,
  "du li ": 1773,
  " ping fang qian mi ": 1774,
  "shu ju ": 1775,
  "kong zhi ": 1776,
  " shi yu ": 1777,
  "zong tong ": 1778,
  "jin ru ": 1779,
  " shi wei yu ": 1780,
  " li ru ": 1781,
  "ren wu ": 1782,
  "qu shi ": 1783,
  "ke li ": 1784,
  "yao qiu ": 1785,
  "mou ": 1786,
  " 0": 1787,
  "8 ": 1788,
  " wo ": 1789,
  " mei guo ": 1790,
  "gt ": 1791,
  " gt ": 1792,
  "gu shi ": 1793,
  "   de ": 1794,
  "cheng ji ": 1795,
  " a": 1796,
  " ran er ": 1797,
  "d   ": 1798,
  " guang ": 1799,
  "lt ": 1800,
  " ru": 1801,
  "xue sheng ": 1802,
  "   yu ": 1803,
  "jin de ": 1804,
  " dan shi ": 1805,
  "wan cheng ": 1806,
  " bian ": 1807,
  "min zhu ": 1808,
  "gong shi ": 1809,
  " yi qi ": 1810,
  "lie che ": 1811,
  " P": 1812,
  "you ji ": 1813,
  "ke neng ": 1814,
  " cai ": 1815,
  " lt ": 1816,
  " yi bu ": 1817,
  " 16": 1818,
  "shen zhi ": 1819,
  " bing yu ": 1820,
  "zha ": 1821,
  "ren zhi ": 1822,
  "ping fang ": 1823,
  "you shi ": 1824,
  " bing zai ": 1825,
  " ji shu ": 1826,
  "chao guo ": 1827,
  "ti yu ": 1828,
  " yong ": 1829,
  "yuan shi ": 1830,
  "cang ": 1831,
  "cun zai ": 1832,
  "qian wang ": 1833,
  "ke de ": 1834,
  "ya li ": 1835,
  "dang shi ": 1836,
  "si shi ": 1837,
  "xue xi ": 1838,
  "yong de ": 1839,
  " de yi ge": 1840,
  "jing guo ": 1841,
  "nei de ": 1842,
  "fa bu ": 1843,
  "zuo de ": 1844,
  " zhi wei ": 1845,
  " shan ": 1846,
  " ceng": 1847,
  "jian yi ": 1848,
  "guan yu ": 1849,
  " han ": 1850,
  " wan": 1851,
  " B": 1852,
  "wu ke ": 1853,
  "   di ": 1854,
  "xiang gang": 1855,
  "wu shi ": 1856,
  "zhu ren ": 1857,
  " zhi jian ": 1858,
  "yin du ": 1859,
  " pu ": 1860,
  " kai ": 1861,
  "zhan shi ": 1862,
  "zhan zheng ": 1863,
  " qi ta ": 1864,
  "guo shi ": 1865,
  "sun ": 1866,
  "pao ": 1867,
  " ba": 1868,
  "zhu yao": 1869,
  "sheng huo ": 1870,
  "zhou de ": 1871,
  "xu duo ": 1872,
  "jian zhi ": 1873,
  " ji wei ": 1874,
  " gong li ": 1875,
  "fan wei ": 1876,
  " yi shu ": 1877,
  " ji qi ": 1878,
  " wei er ": 1879,
  "bin ": 1880,
  "cheng gong ": 1881,
  "han guo ": 1882,
  " 17": 1883,
  "ou zhou ": 1884,
  "zhu xi ": 1885,
  "lu de ": 1886,
  "fu wu ": 1887,
  "jie shou ": 1888,
  "qiu dui ": 1889,
  " zhi you ": 1890,
  " shu yu ": 1891,
  "dai biao": 1892,
  " ji zhong ": 1893,
  " zai": 1894,
  " jin": 1895,
  "zeng jia ": 1896,
  " bu guo ": 1897,
  "ban de ": 1898,
  "gong yuan ": 1899,
  " you xian ": 1900,
  " M": 1901,
  "xiao xing ": 1902,
  " 000": 1903,
  " mo ": 1904,
  "xia de ": 1905,
  "   gai ": 1906,
  " zhe xie ": 1907,
  "shang hai ": 1908,
  " zhi chu ": 1909,
  "he yi ": 1910,
  "duo de ": 1911,
  " ao ": 1912,
  "   P": 1913,
  "hou yi ": 1914,
  "san shi ": 1915,
  "   zhi ": 1916,
  " bai ": 1917,
  " ci wai ": 1918,
  "fu de ": 1919,
  "ju li ": 1920,
  "si ji ": 1921,
  " H": 1922,
  "zu cheng ": 1923,
  "huai ": 1924,
  " gen ju ": 1925,
  "ning ": 1926,
  "yun dong yuan ": 1927,
  "jiao tong ": 1928,
  " zhi zuo ": 1929,
  " zhi chi ": 1930,
  "y ": 1931,
  " E": 1932,
  "ma wei ": 1933,
  "gao du ": 1934,
  "chang de ": 1935,
  " nian qi ": 1936,
  "m ": 1937,
  "zhu jiao ": 1938,
  " zh ": 1939,
  " D": 1940,
  "zhe xie ": 1941,
  "niu ": 1942,
  "d ": 1943,
  "ge zhong ": 1944,
  "xu yao ": 1945,
  " zhi wu ": 1946,
  " zai ci ": 1948,
  "jue se ": 1949,
  "chong xin ": 1950,
  "chu le ": 1951,
  "y   ": 1952,
  "ti de ": 1953,
  "tui chu ": 1954,
  " li ji ": 1955,
  "zhe ge ": 1956,
  "jing li ": 1957,
  " ceng ": 1958,
  "xiang de ": 1959,
  " zui zhong ": 1960,
  "gong cheng ": 1961,
  " dang shi ": 1962,
  "n ": 1963,
  "qi yi ": 1964,
  "da shi ": 1965,
  "chu yu ": 1966,
  " ren he ": 1967,
  "wu zhong ": 1968,
  "du wei ": 1969,
  "ren min ": 1970,
  "zi de ": 1971,
  " T": 1972,
  "xuan ju ": 1973,
  " ai": 1974,
  " she ": 1975,
  "lian sai ": 1976,
  "   di li ": 1977,
  "zi ji de ": 1978,
  "kai fa ": 1979,
  " wei le ": 1980,
  " ren wu ": 1981,
  "ge qu ": 1982,
  " ye": 1983,
  " nian jian ": 1984,
  " du ": 1985,
  "dang di ": 1986,
  " huo": 1987,
  "fu ze ": 1988,
  " ma": 1989,
  "xian zai ": 1990,
  " wei qi ": 1991,
  "gong chan ": 1992,
  "   wei ": 1993,
  " zhi yu ": 1994,
  " ren yuan ": 1995,
  "zhe yi ": 1996,
  " lai ": 1997,
  "liang wei ": 1998,
  "jie shu ": 1999,
  "ya de ": 2000,
  "chu li ": 2001,
  "jie mu ": 2002,
  "guan de ": 2003,
  "nv zi ": 2004,
  "sai shi ": 2005,
  " lei ": 2006,
  "2010 nian ": 2007,
  "ding de ": 2008,
  "rui ": 2009,
  "dui de ": 2010,
  "fan ying ": 2011,
  " 1": 2012,
  "ri ben": 2013,
  " hou lai ": 2014,
  "chu ban ": 2015,
  "jie de ": 2016,
  "chan sheng ": 2017,
  "shou ci ": 2018,
  "juan ": 2019,
  "she shi ": 2020,
  "lei si ": 2021,
  " shi yi ge ": 2022,
  "ba shi ": 2023,
  "dong wu ": 2024,
  " G": 2025,
  "jing shi ": 2026,
  " ji xu ": 2027,
  "le bu ": 2028,
  "jie shi ": 2029,
  " zu ": 2030,
  "xiang shi ": 2031,
  " ban ": 2032,
  " na ": 2033,
  "bo shi ": 2034,
  "an de ": 2035,
  "ke neng": 2036,
  "ruo ": 2037,
  "nan zi ": 2038,
  "du de ": 2039,
  "guan xia ": 2040,
  "san nian ": 2041,
  " ai ": 2042,
  "zao cheng ": 2043,
  "hai shi ": 2044,
  "yang de ": 2045,
  "dong shi ": 2046,
  " mei": 2047,
  " jiang": 2048,
  "she li ": 2049,
  "10 ": 2050,
  " 1 ": 2051,
  "yan jiu": 2052,
  " yang ": 2053,
  "zhong zhi ": 2054,
  "dao le ": 2055,
  "shan xi ": 2056,
  "guo yi ": 2057,
  "9 ": 2058,
  " ji zhi ": 2059,
  " suo yi ": 2060,
  "zhong yu ": 2061,
  "fen bu ": 2062,
  "nv xing ": 2063,
  " he zuo ": 2064,
  " zhen ": 2065,
  "dou shi ": 2066,
  " ya ": 2067,
  "jun de ": 2068,
  "guo yu ": 2069,
  "   qi ": 2070,
  "dong de ": 2071,
  "lian meng ": 2072,
  "dai de ": 2073,
  "zheng de ": 2074,
  "fang fa ": 2075,
  " zhi zhi ": 2076,
  " 14": 2077,
  "2020 nian ": 2078,
  "cai yong ": 2079,
  " yi si ": 2080,
  "jiao shou ": 2081,
  "wu li ": 2082,
  "xiang mu ": 2083,
  "fang de ": 2084,
  "mei ping fang ": 2085,
  "zheng zhi ren wu ": 2086,
  "di wei ": 2087,
  "liang de ": 2088,
  " zai di ": 2089,
  " cong": 2090,
  "   ren kou ": 2091,
  " tu ": 2092,
  "chuan tong ": 2093,
  "yuan yu ": 2094,
  "zhan de ": 2095,
  "zhu de ": 2096,
  "hua min guo ": 2098,
  "   you ": 2099,
  "xi tong ": 2100,
  "cheng ren ": 2101,
  "A ": 2102,
  "   B": 2103,
  "jia ru ": 2105,
  "fa de ": 2106,
  "ge shi ": 2107,
  "2001 nian ": 2108,
  "   G": 2109,
  " nian yi ": 2110,
  "yan yuan ": 2111,
  "xin wen ": 2112,
  " dai ": 2113,
  " ran ": 2114,
  "hao de ": 2115,
  " gui ": 2116,
  " ze ": 2117,
  " li si ": 2118,
  " ji ji ": 2119,
  "fu shi ": 2120,
  " yi hui ": 2121,
  "   ji ": 2122,
  "xiang guan ": 2123,
  "ying yu ": 2124,
  "dao shi ": 2125,
  "bian ma wei ": 2126,
  "bei ren ": 2127,
  "tai wan": 2128,
  "he shi ": 2129,
  " ji lu ": 2130,
  "   M": 2131,
  " xuan ": 2132,
  " ta men": 2133,
  "bo wu ": 2134,
  "xue de ": 2135,
  "hou zai ": 2136,
  "lian jie ": 2137,
  " wei fu ": 2138,
  " de yi ge shi zhen ": 2139,
  " yi yi ": 2140,
  " ri zai ": 2141,
  " xue ming ": 2142,
  "ti chu ": 2143,
  "ming cheng ": 2144,
  "xi ji ": 2145,
  "zui jia ": 2146,
  " xi ya ": 2147,
  "mu si ": 2148,
  "bao kuo": 2149,
  "er nian ": 2150,
  "ling shi ": 2151,
  " zhe shi ": 2152,
  "xiao de ": 2153,
  "hai you ": 2154,
  "mian de ": 2155,
  " wei zhu ": 2156,
  " ren kou mi du ": 2157,
  "ge de ": 2158,
  " li yi ": 2159,
  " zhi jie ": 2160,
  "zui gao ": 2161,
  " la ": 2162,
  " xie ": 2163,
  "dong ji ": 2164,
  " zong": 2165,
  "   H": 2166,
  "   jia ": 2167,
  "   T": 2168,
  " shi yi zhong ": 2169,
  " ye shi ": 2170,
  "bei shi ": 2171,
  "yan de ": 2172,
  "xia ji ": 2173,
  " yu shi ": 2174,
  "ye yu ": 2175,
  "ge ming ": 2176,
  " zhou ": 2177,
  " nian zai ": 2178,
  "yao de ": 2179,
  "gai wei ": 2180,
  " gong si ": 2181,
  " yi xie ": 2182,
  "zai de ": 2183,
  "hai jun ": 2184,
  "shu shi ": 2185,
  " ci": 2186,
  "jia zhi ": 2187,
  " fang ": 2189,
  "zhe zhong ": 2190,
  "sheng wu ": 2191,
  "chang shi ": 2192,
  "hui shi ": 2193,
  "yan zhong ": 2194,
  "gai guo ": 2195,
  "na da ": 2196,
  " ka ": 2197,
  "zhu shi ": 2198,
  "luan ": 2199,
  "zheng yi ": 2200,
  "bian de ": 2201,
  " qiu ": 2202,
  "qing kuang": 2203,
  "ke ji ": 2204,
  "hui fu ": 2205,
  " zhi qian ": 2206,
  " N": 2207,
  "chou ": 2208,
  " liang": 2209,
  "zai yu ": 2210,
  "mei ti ": 2211,
  "min zu ": 2212,
  "xin xi ": 2213,
  "zhai ": 2214,
  " F": 2215,
  "jie guo ": 2216,
  " yi zhong ": 2217,
  " jun ": 2218,
  "gao de ": 2219,
  "wen wu ": 2220,
  " 2 ": 2221,
  " zuo wei ": 2222,
  " 2": 2223,
  " 3": 2224,
  "jian shi ": 2225,
  "qi zhi ": 2226,
  " ji zai ": 2227,
  "yan chang ": 2228,
  "shui yu ": 2229,
  "qian de ": 2230,
  "he de ": 2231,
  "zhu jian ": 2232,
  " ni ": 2233,
  "fan dui ": 2234,
  "neng li ": 2235,
  " wei you ": 2236,
  " ke si ": 2237,
  " 12": 2238,
  "   xing zheng ": 2239,
  "gong kai ": 2240,
  "ge li ": 2241,
  "hua shi ": 2242,
  " bu tong ": 2243,
  "xing zhi ": 2244,
  "3 nian ": 2245,
  "si yu ": 2246,
  "lei de ": 2247,
  " zhu yao ": 2248,
  " chong ": 2249,
  "jie gou ": 2250,
  "huan jing ": 2251,
  "jiang jun ": 2252,
  "zhang de ": 2253,
  "xian yu ": 2254,
  " ke yi ": 2255,
  "gao su ": 2256,
  " xiang gang ": 2257,
  "chuang zuo ": 2258,
  "shang ye ": 2259,
  "zan ": 2260,
  "   ben ": 2261,
  " K": 2262,
  "peng ": 2263,
  "   formula ": 2264,
  "sai ji ": 2265,
  " zhe ge ": 2266,
  "mo shi ": 2267,
  "a er ": 2268,
  " I": 2269,
  " mi": 2270,
  "zhe de ": 2271,
  "biao xian ": 2272,
  " di yi ": 2273,
  "tong ji ": 2274,
  " zhong hua ren min gong he guo ": 2275,
  "jun dui ": 2276,
  " ling": 2277,
  " li wei ": 2278,
  "da lu ": 2279,
  " chen ": 2280,
  "sheng ya ": 2281,
  "zhu li ": 2282,
  "ge yue ": 2283,
  "sheng li ": 2284,
  " hong ": 2285,
  "wu fa ": 2286,
  "quan li ": 2287,
  "zong jiao ": 2288,
  " 7": 2289,
  " 9": 2290,
  "dong bu ": 2291,
  " tang ": 2292,
  "zhou shi ": 2293,
  "ge lan ": 2294,
  " nian shi ": 2295,
  "diao cha ": 2296,
  "si nian ": 2297,
  "tou guo ": 2298,
  " yi ban ": 2299,
  "bu fen": 2300,
  " yun ": 2301,
  "biao zhun ": 2302,
  "   gen ju ": 2303,
  "hang kong ": 2304,
  "bi ye ": 2305,
  "hui zai ": 2306,
  "shen fen ": 2307,
  "   ci ": 2308,
  " yi ci ": 2309,
  " dang di ": 2310,
  "di zhi ": 2311,
  "gong lu ": 2312,
  " 8": 2313,
  "fa yuan ": 2314,
  " de yi bu fen ": 2315,
  "   E": 2316,
  " yao ": 2317,
  "bu yi ": 2318,
  " nei ": 2319,
  "di yu ": 2320,
  "jia li ": 2321,
  "gong zuo": 2322,
  "jin ji ": 2323,
  "cheng zhong ": 2324,
  "bing bu ": 2325,
  "sai de ": 2326,
  "quan bu ": 2327,
  " tai wan ": 2328,
  "ba gao du ": 2329,
  "xie hui ": 2330,
  " ji tuan ": 2331,
  "fei chang ": 2332,
  "jiao shi ": 2333,
  "an quan ": 2334,
  "dong hua ": 2335,
  " zhi xing ": 2336,
  "bi de ": 2337,
  " huang ": 2338,
  "cha de ": 2339,
  " bing qie": 2340,
  "   F": 2341,
  " lin ": 2342,
  "sheng chan ": 2343,
  "zi liao ": 2344,
  "fu he ": 2345,
  "jing de ": 2346,
  "tuan ti ": 2347,
  " 4": 2348,
  "jie zhi ": 2349,
  "luo ma ": 2350,
  " 10": 2351,
  "chao xian ": 2352,
  "gai di ": 2353,
  "fen bie": 2354,
  "1 nian ": 2355,
  "xing dong ": 2356,
  "ping jun ": 2357,
  "ding yi ": 2358,
  "xia yi ": 2359,
  "jin biao ": 2360,
  " liu": 2361,
  "wen xue ": 2362,
  " jin xing ": 2363,
  "qing kuang ": 2364,
  "   19": 2365,
  "du shi ": 2366,
  " 5": 2367,
  "ren kou pu ": 2368,
  " ru guo ": 2369,
  "la si ": 2370,
  " ming": 2371,
  "jia ji ": 2372,
  " zhuan ": 2373,
  "gong gong ": 2374,
  "4 nian ": 2375,
  "jie fang ": 2376,
  " zhi yuan ": 2377,
  "ju min ": 2378,
  " zhi hui ": 2379,
  " qi hou ": 2380,
  "dong bei ": 2381,
  "shou de ": 2382,
  " gu": 2383,
  "shang shi ": 2384,
  "yan chu ": 2385,
  " wo": 2386,
  "S ": 2387,
  " ji di ": 2388,
  "she zhi ": 2389,
  " bao kuo": 2390,
  "2 nian ": 2391,
  "qiu yuan ": 2392,
  "yuan yi ": 2393,
  " yu ji ": 2394,
  "sai zhong ": 2395,
  "ke xue ": 2396,
  "yan shi ": 2397,
  "gong tong ": 2398,
  "ling dao ": 2399,
  " da": 2400,
  "ren yi ": 2401,
  " 13": 2402,
  "zuo pin": 2403,
  " chuan ": 2404,
  "er ji ": 2405,
  "zuo you ": 2406,
  " si": 2407,
  " nan": 2408,
  "fa biao ": 2409,
  "T ": 2410,
  "zai shi ": 2411,
  " de zhu ": 2412,
  "28 ri ": 2413,
  "san ge ": 2414,
  "ao yun ": 2415,
  "ye you ": 2416,
  "kong jian ": 2417,
  "xing ji ": 2418,
  "gai bian ": 2419,
  "wu zhi ": 2420,
  "deng di ": 2421,
  " ling wai ": 2422,
  "l ": 2423,
  "jia shi ": 2424,
  " di guo ": 2425,
  "you xi ": 2426,
  "yuan he ": 2427,
  "fang zhi ": 2428,
  "deng ren ": 2429,
  " er shi ": 2430,
  " jiu": 2431,
  "xue shi ": 2432,
  "guan zhong ": 2433,
  "lan de ": 2434,
  " zhao ": 2435,
  "lu xian ": 2436,
  "xue wei ": 2437,
  "fen zhong ": 2438,
  "shu wei ": 2439,
  "ze shi ": 2440,
  "ju de ": 2441,
  "bao dao ": 2442,
  " dan ren ": 2443,
  " li zhi ": 2444,
  " R": 2445,
  "qi wei ": 2446,
  "he ji ": 2447,
  "lve ": 2448,
  "chu ren ": 2449,
  "zhui ": 2450,
  "bu tong ": 2451,
  "qing nian ": 2452,
  "2008 nian ": 2453,
  "   the": 2454,
  "guo li ": 2455,
  "zuo yong ": 2456,
  "ao lin ": 2457,
  "bang zhu ": 2458,
  "pi ke ": 2459,
  "2016 nian ": 2460,
  "gong de ": 2461,
  "ai er ": 2462,
  "zao dao ": 2463,
  " yu qi ": 2464,
  " ke neng ": 2465,
  "   zhong ": 2466,
  "ban ben ": 2467,
  "jiang qi ": 2468,
  "zu de ": 2469,
  "dan qu ": 2470,
  "ta men": 2471,
  " huo de ": 2472,
  " yu yan ": 2473,
  "ju ji ": 2474,
  "lu di ": 2475,
  "tong chang ": 2476,
  "gui dao ": 2477,
  " you guan ": 2478,
  " da dao ": 2479,
  "15 ri ": 2480,
  " fu ze ": 2481,
  "shou ji ": 2482,
  "C ": 2483,
  " yi you ": 2484,
  "fei ji ": 2485,
  " yi yu ": 2486,
  " che ": 2487,
  "   D": 2488,
  "tu di ": 2489,
  "xian dai ": 2490,
  "yuan nian ": 2491,
  " zhi jian de ": 2492,
  " bing qie ": 2493,
  "2009 nian ": 2494,
  "ma li ": 2495,
  "ya zhou ": 2496,
  "sheng de yi ge shi zhen ": 2497,
  "xi ban ": 2498,
  "bian hua ": 2499,
  " mu qian ": 2500,
  " L": 2501,
  "jie he ": 2502,
  "jing nei ": 2503,
  "   ju ": 2504,
  "gong ye ": 2505,
  " shi xing ": 2506,
  "hui he ": 2507,
  "jue sai ": 2508,
  "wu nian ": 2509,
  "tai ping ": 2510,
  " shui ": 2511,
  "jia yi ": 2512,
  "zheng ce ": 2513,
  "hou yu ": 2514,
  "pa ": 2515,
  "2011 nian ": 2516,
  " si ke ": 2517,
  "nei rong ": 2518,
  "2012 nian ": 2519,
  "zao qi ": 2520,
  "mei yuan ": 2521,
  " ri zhi ": 2522,
  "guang bo ": 2523,
  "P ": 2524,
  " wei zhong ": 2525,
  "zhan yi ": 2526,
  "xian ren ": 2527,
  "ta zai ": 2528,
  "xing cheng ": 2529,
  "jiao yi ": 2530,
  "pi ping ": 2531,
  " ha": 2532,
  " ding ": 2533,
  " hai ba gao du ": 2534,
  "25 ri ": 2535,
  "jiao hui ": 2536,
  "miao shu ": 2537,
  " bu dui ": 2538,
  "wan quan ": 2539,
  " zhi ye ": 2540,
  " er si ": 2541,
  " mo": 2542,
  "xuan ze ": 2543,
  " dan zai ": 2544,
  "yuan yin ": 2545,
  " si te ": 2546,
  " bei": 2547,
  " ta yu ": 2548,
  "UTC ": 2549,
  "bo li ": 2550,
  "zao de ": 2551,
  " he wu ": 2552,
  "jian she ": 2553,
  " pai ": 2554,
  "r ": 2555,
  " yue de ": 2556,
  "xie yi ": 2557,
  "chu shi ": 2558,
  "xiao shuo ": 2559,
  "wu ke lan ": 2560,
  "chang qi ": 2561,
  "yun dong hui ": 2562,
  "bei cheng wei ": 2563,
  "lian bang ": 2564,
  " 6": 2565,
  " di san ": 2566,
  " wei di ": 2567,
  "30 ri ": 2568,
  " jian cheng ": 2569,
  " dang zhong ": 2570,
  " shi yan ": 2571,
  " de dao ": 2572,
  "chi xu ": 2573,
  "zui da ": 2574,
  "wen hua": 2575,
  "20 ri ": 2576,
  "ming ming ": 2577,
  " e ": 2578,
  "zu he ": 2579,
  "yuan zhu ": 2580,
  "dian zi ": 2581,
  "duo shu ": 2582,
  "se de ": 2583,
  "zhuan ye ": 2584,
  " ta shi ": 2585,
  "xing yu ": 2586,
  " yi ming ": 2587,
  "hou lai ": 2588,
  "2014 nian ": 2589,
  "10 ri ": 2590,
  "gong si": 2591,
  " qie": 2592,
  "lin shi ": 2593,
  "er wei ": 2594,
  "sheng he ": 2595,
  " you cheng ": 2596,
  "bu li ": 2597,
  "wu yuan ": 2598,
  "jie dao ": 2599,
  "fu zhi ": 2600,
  "ba li ": 2601,
  "zi ge ": 2602,
  "chu qi ": 2603,
  " ren wei ": 2604,
  "2018 nian ": 2605,
  "bu ji ": 2606,
  "2019 nian ": 2607,
  " 5 ": 2608,
  "er zi ": 2609,
  "dong nan ": 2610,
  "fa lv ": 2611,
  "gao zhong ": 2612,
  "ta men de ": 2613,
  " ji gou ": 2614,
  "za zhi ": 2615,
  " di si ": 2616,
  " ji jin ": 2617,
  " meng ": 2618,
  " 11": 2619,
  " shi wei yu mei guo ": 2620,
  "da dao ": 2621,
  "ye de ": 2622,
  " jin guan ": 2623,
  "2013 nian ": 2624,
  "kui ": 2625,
  " wei yu gai guo ": 2626,
  " guo min ": 2627,
  "fa zhan": 2628,
  " yue zhi ": 2629,
  "a la ": 2630,
  "30 ": 2631,
  " 3 ": 2632,
  " li ke ": 2633,
  "tu er ": 2634,
  "sheng wei ": 2635,
  " shi jie da ": 2636,
  "bao gao ": 2637,
  " mian ": 2638,
  "   K": 2639,
  "zhong ji ": 2640,
  "24 ri ": 2641,
  "dao yi ": 2642,
  "2015 nian ": 2643,
  " li yong ": 2644,
  " li kai ": 2645,
  "fang xiang ": 2646,
  "gui ding ": 2647,
  "nei bu ": 2648,
  " yu zhong ": 2649,
  "guo min ": 2650,
  "guang dong ": 2651,
  "wang de ": 2652,
  " sui hou ": 2653,
  " san": 2654,
  "bo wu guan ": 2655,
  "   W": 2656,
  "luo de ": 2657,
  "26 ri ": 2658,
  "can sai ": 2659,
  " yue shi ": 2660,
  " ying guo ": 2661,
  " zhe zhong ": 2662,
  "2007 nian ": 2663,
  "mu biao ": 2664,
  " wei si ": 2665,
  "she qu ": 2666,
  " yu zhi ": 2667,
  "guan zhi ": 2668,
  "dian li ": 2669,
  " tong nian ": 2670,
  "2005 nian ": 2671,
  "20 ": 2672,
  "gong chan dang ": 2673,
  " geng ": 2674,
  "18 ri ": 2675,
  " ke": 2676,
  " you qi ": 2677,
  "xian yi ": 2678,
  " xi lie ": 2679,
  " O": 2680,
  "die ": 2681,
  " fen bu yu ": 2682,
  "ao lin pi ke ": 2683,
  "bing wei ": 2684,
  "lian xi ": 2685,
  "gong bu ": 2686,
  " ji chang ": 2687,
  "ju ban ": 2688,
  "fu li ": 2689,
  " wai ": 2690,
  "mu de ": 2691,
  " chu le ": 2692,
  " 2001 nian ": 2693,
  "lie de ": 2694,
  " shi he ": 2695,
  "chang wei ": 2696,
  "quan qiu ": 2697,
  "wu xian ": 2698,
  " er sheng ": 2699,
  "bi li ": 2700,
  "D ": 2701,
  "shen de ": 2702,
  "tou zi ": 2703,
  "te bie": 2704,
  " shi zi ": 2705,
  " sha ": 2706,
  "2017 nian ": 2707,
  "mu di ": 2708,
  "yin hang ": 2709,
  "16 ri ": 2710,
  " ji he ": 2711,
  "guan fang ": 2712,
  "ding wei ": 2713,
  "xun lian ": 2714,
  "shang shu ": 2715,
  "dong jing ": 2716,
  " gan ": 2717,
  "fen zhi ": 2718,
  "fu yi ": 2719,
  "dao yu ": 2720,
  "dang de ": 2721,
  "a   ": 2722,
  "pai she ": 2723,
  "guo zhi ": 2724,
  "17 ri ": 2725,
  "zi yu ": 2727,
  "hua xue ": 2728,
  "kai fang ": 2729,
  "shou yu ": 2730,
  " you xian gong si ": 2731,
  "   zheng zhi ": 2732,
  "21 ri ": 2733,
  "bu zhi ": 2734,
  " de shi zhen ": 2735,
  "gai nian ": 2736,
  "27 ri ": 2737,
  "zhe shi ": 2738,
  "bao fa ": 2739,
  "ka er ": 2740,
  " zhong xue ": 2741,
  " min ": 2742,
  "ying yong ": 2743,
  "2006 nian ": 2744,
  "8 ri ": 2745,
  "   of": 2746,
  "ming zi ": 2747,
  "jun wei ": 2748,
  " li fa ": 2749,
  "12 ri ": 2750,
  "23 ri ": 2751,
  "shang you ": 2752,
  " song ": 2753,
  "ce shi ": 2754,
  " yin ci": 2755,
  "xian wei ": 2756,
  "su lian ": 2757,
  "mei guo ren kou pu ": 2758,
  " de wei ": 2759,
  "7 ri ": 2760,
  "fei xing ": 2761,
  "shu liang wei ": 2762,
  "qi jian ": 2763,
  " qie ": 2764,
  "ju le bu ": 2765,
  " que": 2766,
  "fu yu ": 2767,
  "bo chu ": 2768,
  "yin shi ": 2769,
  "6 nian ": 2770,
  "fen xi ": 2771,
  "xue zhe ": 2772,
  "huang di ": 2773,
  "hui yu ": 2774,
  "xi lie ": 2775,
  "qi ji ": 2776,
  "2021 nian ": 2777,
  "ban shi ": 2778,
  "11 ri ": 2779,
  " de zhong ": 2780,
  "22 ri ": 2781,
  "gui mo ": 2782,
  " shi fa guo ": 2783,
  " 6 ": 2784,
  "21 ": 2785,
  "bi xu ": 2786,
  "9 ri ": 2787,
  "ling yu ": 2788,
  "19 ri ": 2789,
  "shan dong ": 2790,
  "gong neng ": 2791,
  "29 ri ": 2792,
  "chu yi ": 2793,
  " fu wu ": 2794,
  "ting zhi ": 2795,
  "kun ": 2796,
  " 190": 2797,
  "yin qi ": 2798,
  "me ": 2799,
  "guan yuan ": 2800,
  "ying shi ": 2801,
  "te de ": 2802,
  "zui da de ": 2803,
  "zheng zai ": 2804,
  "fu jin ": 2805,
  "feng ge ": 2806,
  " yue han ": 2807,
  " ji bai ": 2808,
  "jing ying ": 2809,
  " W": 2810,
  "2022 nian ": 2811,
  "jin zhi ": 2812,
  "3 ri ": 2813,
  "ping jia ": 2814,
  "suo shu de ": 2815,
  "neng gou ": 2816,
  "sheng ming ": 2817,
  "14 ri ": 2818,
  "ge di ": 2819,
  "zhu zai ": 2820,
  "qing kuang xia ": 2821,
  "yuan ji ": 2822,
  "shou shi ": 2823,
  "tiao jian ": 2824,
  "0 ": 2825,
  "5 ri ": 2826,
  "jiao de ": 2827,
  "sheng zai ": 2828,
  "qu hua ": 2829,
  "sheng chan": 2830,
  "yuan zhi ": 2831,
  "tai de ": 2832,
  "xi shi ": 2833,
  "   R": 2834,
  "shang wei ": 2835,
  "   you yu ": 2836,
  "she de ": 2837,
  "mai ke ": 2838,
  "ya yu ": 2839,
  "31 ri ": 2840,
  " bu jiu ": 2841,
  "jie chu ": 2842,
  " xun ": 2843,
  " dao zhi ": 2844,
  " da hui ": 2845,
  "lian meng": 2846,
  "xiao xing xing ": 2847,
  "4 ri ": 2848,
  "2 ri ": 2849,
  "chao ji ": 2850,
  "da ji ": 2851,
  " lv ": 2852,
  " ren zhong ": 2853,
  " zui hou ": 2854,
  "6 ri ": 2855,
  "zang ": 2856,
  "dian de ": 2857,
  "te zheng ": 2858,
  "hai yu ": 2859,
  " gong chi ": 2860,
  "ge ji ": 2861,
  "liu xing ": 2862,
  "13 ri ": 2863,
  "nan xing ": 2864,
  " sai ": 2865,
  "bo te ": 2866,
  "wen wu bao hu ": 2867,
  " nian dai": 2868,
  " sui ran ": 2869,
  "ge wei ": 2870,
  "ren he ": 2871,
  "wu ji ": 2872,
  "ren ji ": 2873,
  "man hua ": 2874,
  "lv you ": 2875,
  " duo": 2876,
  "zuo jia ": 2877,
  "ke da ": 2878,
  "E ": 2879,
  "si ren ": 2880,
  "ge shou ": 2881,
  " tong guo ": 2882,
  "xiong di ": 2883,
  "yin ci ": 2884,
  "huang jia ": 2885,
  " shen zhi ": 2886,
  "zong he ": 2887,
  "ou zhou": 2888,
  "B ": 2889,
  "jian wei ": 2890,
  "sheng fen ": 2891,
  " hao mi ": 2892,
  " ling yi ": 2893,
  " br": 2894,
  " pi ": 2895,
  "xu duo": 2896,
  " xin": 2897,
  " U": 2898,
  " jue ": 2899,
  "lie che": 2900,
  " kai shi ": 2901,
  "ju ren ": 2902,
  "niu yue ": 2903,
  " br ": 2904,
  "   jin ": 2905,
  "ci shi jie da ": 2906,
  "ban dao ": 2907,
  "zhu ti ": 2908,
  "zhong wei ": 2909,
  " qiang ": 2910,
  "cheng yi ": 2911,
  " zhi ji ": 2912,
  "zai wei ": 2913,
  "zhuang tai ": 2914,
  " you ming ": 2915,
  "qi nian ": 2916,
  " ta ceng ": 2917,
  " sui ran": 2918,
  "ben de ": 2919,
  "bian wei ": 2920,
  "fen zi ": 2921,
  "   O": 2922,
  "pin dao ": 2923,
  "you yi ge ": 2924,
  " zai qi ": 2925,
  "ju zhong ": 2926,
  "he li ": 2927,
  "mao yi ": 2928,
  "20 shi ji ": 2929,
  "wang luo ": 2930,
  "bu zhang ": 2931,
  "ren kou shu liang wei ": 2932,
  "hui you ": 2933,
  "   zi ": 2934,
  "qian yi ": 2935,
  "ao si ": 2936,
  "2004 nian ": 2937,
  "xuan shou ": 2938,
  "shuo shi ": 2939,
  "jie duan ": 2940,
  "ci de ": 2941,
  "gao ji ": 2942,
  "zhun bei ": 2943,
  " han": 2944,
  "fa shi ": 2945,
  "bei de ": 2946,
  " he nan ": 2947,
  "fang an ": 2948,
  "fang yu ": 2949,
  "mi er ": 2950,
  " 4 ": 2951,
  "wai de ": 2952,
  "da xing ": 2953,
  "duo ci ": 2954,
  " geng": 2955,
  "ci zhi ": 2956,
  "bing li ": 2957,
  " chen": 2958,
  "gong zhong ": 2959,
  "hui dao ": 2960,
  "   li ": 2961,
  "mo de ": 2962,
  " yi lai ": 2963,
  " zhi zhong ": 2964,
  " chi ": 2965,
  "   L": 2966,
  "cheng du ": 2967,
  "bu wei ": 2968,
  "2000 nian ": 2969,
  "on ": 2970,
  "shu guan ": 2971,
  "liu nian ": 2972,
  "wu qi ": 2973,
  "jie ji ": 2974,
  "le yi ge ": 2975,
  "yuan wei ": 2976,
  "bao han ": 2977,
  "jun zai ": 2978,
  " di fang ": 2979,
  "dian shi tai ": 2980,
  "you zhi ": 2981,
  "zi shi ": 2982,
  " de yi zhong ": 2983,
  "xing he ": 2984,
  " lan ": 2985,
  " ren kou": 2986,
  " ren kou mi du wei ": 2987,
  "ju shi ": 2988,
  "deng ji ": 2989,
  " zhong bu ": 2990,
  "lu jun ": 2991,
  "xiang tong ": 2992,
  "   N": 2993,
  "xuan wei ": 2994,
  " fan": 2995,
  "zhe jiang ": 2996,
  "zui hou ": 2997,
  "biao yan ": 2998,
  " yi shi ": 2999,
  "qiu ji ": 3000,
  " gang ": 3001,
  "she bei ": 3002,
  "si wang ": 3003,
  "gai ge ": 3004,
  " zhu yao": 3005,
  " wei yu fa guo ": 3006,
  "ai de ": 3007,
  "mei zhou ": 3008,
  "da liang ": 3009,
  "nong ye ": 3010,
  "duo ge ": 3011,
  "gu ji ": 3012,
  " dou ": 3013,
  " zhi jin ": 3014,
  "dian shi ju ": 3015,
  "hou you ": 3016,
  " shi dai ": 3017,
  " xi ban ": 3018,
  " chao ": 3019,
  "shang yi ": 3020,
  "yang shi ": 3021,
  "zhu yu ": 3022,
  "zhan dou ": 3023,
  "guang chang ": 3024,
  "liu shi ": 3025,
  "zai ji ": 3026,
  " zhao": 3027,
  "mi de ": 3028,
  " ri qi ": 3029,
  "fa yu ": 3030,
  "p ": 3031,
  "zhan kai ": 3032,
  "wen wu bao hu dan wei ": 3033,
  " fei": 3034,
  "   da ": 3035,
  " zhi li ": 3036,
  "jia he ": 3037,
  "nu ": 3038,
  "tiao yue ": 3039,
  " jia ru ": 3040,
  "fu jian ": 3041,
  "xie zhu ": 3042,
  " yi bei ": 3043,
  " xiang": 3044,
  " bu zai ": 3045,
  "chan pin ": 3046,
  "mu qian ": 3047,
  "jiang yu ": 3048,
  "bian cheng ": 3049,
  "huo de le ": 3050,
  "hang kong": 3051,
  "nai ": 3052,
  "you zheng ": 3053,
  " ze": 3054,
  "ren yu ": 3055,
  "fen lei ": 3056,
  "dao lu ": 3057,
  "gong you ren kou ": 3058,
  "5 nian ": 3059,
  "ying ji ": 3060,
  "duan de ": 3061,
  " tou ": 3062,
  "qun dao ": 3063,
  " zhi zai ": 3064,
  "qing de ": 3065,
  " fen bie": 3066,
  "biao zhun": 3067,
  "zhen qu ": 3068,
  " bei qi ": 3069,
  "hai ba ": 3070,
  " mei you ": 3071,
  " zhe yi ": 3072,
  " J": 3073,
  "bi jiao ": 3074,
  "   jian ": 3075,
  "nao ": 3076,
  " qi ye ": 3077,
  " xian shi ": 3078,
  "zhan zheng": 3079,
  "gui hua ": 3080,
  "shou du ": 3081,
  "9 nian ": 3082,
  "cuo ": 3083,
  " li zi ": 3084,
  " ke neng": 3085,
  "su du ": 3086,
  "ju yu ": 3087,
  "nv er ": 3088,
  "xi bu ": 3089,
  " xi wang ": 3090,
  "xi wei ": 3091,
  " zhong hua min guo ": 3092,
  " xing zheng ": 3093,
  " bu hui ": 3094,
  " yi ren ": 3095,
  " fa guo ": 3096,
  "qiao zhi ": 3097,
  " gong fen ": 3098,
  " zai zhong ": 3099,
  "mei ping fang gong li ": 3100,
  "rong yu ": 3101,
  "de   ": 3102,
  "dong xi ": 3103,
  "jiu shi zhen ": 3104,
  "dong li ": 3105,
  " yi yang ": 3106,
  " de shi jian ": 3107,
  "jin gong ": 3108,
  "di yi ge ": 3109,
  "dou you ": 3110,
  "k ": 3111,
  "si he ": 3112,
  "   xi ": 3113,
  " cheng qu ": 3114,
  "la de ": 3115,
  "ken ": 3116,
  "si wei ": 3117,
  "xian de yi ge ": 3118,
  "ma lai": 3119,
  "hen duo ": 3120,
  " 00": 3121,
  "tai bei ": 3122,
  "ru xia ": 3123,
  "qu dai ": 3124,
  "ze ren ": 3125,
  "fu ren ": 3126,
  "la ke ": 3127,
  "jin biao sai ": 3128,
  " ci hou ": 3129,
  " yi xia ": 3130,
  "ang ": 3131,
  "shang wu ": 3132,
  "   the   ": 3133,
  " nv ": 3134,
  "yu shi de ": 3135,
  " yu wei ": 3136,
  "I ": 3137,
  "jian you ": 3138,
  " er bei ": 3139,
  "zong li ": 3140,
  "wang guo ": 3141,
  "lian xu ": 3142,
  "xiang dui ": 3143,
  "   fu ": 3144,
  "qu yi ": 3145,
  "min zhong ": 3146,
  "jie rang": 3147,
  "reng ran": 3148,
  "xiao xi ": 3149,
  "mi shu ": 3150,
  " ruo": 3151,
  "tie dao ": 3152,
  " zhou": 3153,
  "zheng ge ": 3154,
  "ci ji ": 3155,
  "zui hou yi ": 3156,
  "   zhe ": 3157,
  "7 nian ": 3158,
  "jue de ": 3159,
  "ren kou shu liang wei ren ": 3160,
  "niao ": 3161,
  "8 nian ": 3162,
  " zhong xin": 3163,
  "quan de ": 3164,
  " hei ": 3165,
  "   zhu ": 3166,
  "fen de ": 3167,
  "zhan ling ": 3168,
  " man ": 3169,
  "xin jia ": 3170,
  "wai jiao ": 3171,
  "di san ": 3172,
  "jia na da ": 3173,
  " li shu yu ": 3174,
  "tian zhu jiao ": 3175,
  "zhen shi ": 3176,
  " ren zai ": 3177,
  "ye wu ": 3178,
  " INSEE": 3179,
  "cheng zhen ": 3180,
  "ci yu ": 3181,
  "qi ta": 3182,
  " tian": 3183,
  " nian ji ": 3184,
  " ran hou ": 3185,
  "ceng zai ": 3186,
  "yuan you ": 3187,
  "da xue": 3188,
  " wu": 3189,
  "jian cha ": 3190,
  " you yi ": 3191,
  "zheng quan ": 3192,
  "sheng cheng ": 3193,
  "zuo chu ": 3194,
  "ne ": 3195,
  "shou ge ": 3196,
  "nan ji ": 3197,
  " de shi hou ": 3198,
  " he bei ": 3199,
  "ni si ": 3200,
  "ju jue ": 3201,
  "wang zhan ": 3202,
  " kong ": 3203,
  "lu shi ": 3204,
  "jiao wei ": 3205,
  "qu xiao ": 3206,
  "ti ji ": 3207,
  "l   ": 3208,
  "che liang ": 3209,
  "dian ji ": 3210,
  " jie zhi ": 3211,
  " rang": 3212,
  "sheng zhi ": 3213,
  "le ji ": 3214,
  " gai sheng ": 3215,
  "he wei ": 3216,
  " ying chi ": 3217,
  "da li ya ": 3218,
  "zhong xin ": 3219,
  "dui zai ": 3220,
  "tian wen ": 3221,
  "zhen de ": 3222,
  "xian fa ": 3223,
  "zi xing ": 3224,
  "yun ying ": 3225,
  "he zhi ": 3226,
  "di fang ": 3227,
  "lan xi ": 3228,
  " qi ta": 3229,
  " er zai ": 3230,
  " zong mian ji ": 3231,
  "V ": 3232,
  " de yu ": 3233,
  "jie jue ": 3234,
  "o ": 3235,
  "ye zai ": 3236,
  "2002 nian ": 3237,
  " ri ben": 3238,
  "2003 nian ": 3239,
  "er zai ": 3240,
  "mo xi ": 3241,
  "gong yi ": 3242,
  "shu zhi ": 3243,
  " shi chang ": 3244,
  " de li ": 3245,
  " di qi ": 3246,
  " jian zhu ": 3247,
  " dui yu ": 3248,
  "shou wei ": 3249,
  "dian ying": 3250,
  " ren kou mi du mei ping fang gong li ": 3251,
  "xiao xue ": 3252,
  "ying xiang": 3253,
  "cha de shu ju ": 3254,
  "you zheng bian ma wei ": 3255,
  "pu tao ": 3256,
  "hui zhi ": 3257,
  "gan dao ": 3258,
  " shi zhen bian ma wei ": 3259,
  " INSEE shi zhen bian ma wei ": 3260,
  "qing shi ": 3261,
  "te li ": 3262,
  " ren kou mi du wei mei ping fang ": 3263,
  "zhuo ": 3264,
  "ruan ": 3265,
  "meng gu ": 3266,
  "di yi ci ": 3267,
  "mu shi ": 3268,
  "zuo zhan ": 3269,
  " xing cheng ": 3270,
  "   bu ": 3271,
  " xia ling shi ": 3272,
  "xi li ": 3273,
  "xuan qu wei ": 3274,
  "lei ji ": 3275,
  "gao yu ": 3276,
  "ni ya": 3277,
  "yu shi de ren kou shu liang wei ren ": 3278,
  "bao de ": 3279,
  "mei guo ren kou pu cha de shu ju ": 3280,
  "si zai ": 3281,
  "zuo yi ": 3282,
  "lu yi ": 3283,
  " er ren kou mi du wei mei ping fang ": 3284,
  " dang di gong you ren kou ": 3285,
  "xi yu ": 3286,
  "yun xing ": 3287,
  "jing chang ": 3288,
  " te bie": 3289,
  " huo jiu shi zhen ": 3290,
  "xin li ": 3291,
  "yuan zi ": 3292,
  "jiang shi ": 3293,
  "sheng ji xuan qu wei ": 3294,
  "   nian ": 3295,
  "fa dong ": 3296,
  "kuai su ": 3297,
  "ming yi ": 3298,
  "zhang da ": 3299,
  "shao nian ": 3300,
  "sheng ren ": 3301,
  " c": 3302,
  "bian ji ": 3303,
  " zhong yang": 3304,
  "chong jian ": 3305,
  "fen wei fa guo ": 3306,
  " gai sheng fen wei fa guo ": 3307,
  "fa qi ": 3308,
  "yang hua ": 3309,
  " bai": 3310,
  "gao deng ": 3311,
  "cong shi ": 3312,
  "shuo fa ": 3313,
  " you ren ": 3314,
  " nian yu ": 3315,
  " huan ": 3316,
  "cheng li yu ": 3317,
  "2023 nian ": 3318,
  " shuang ": 3319,
  "jia zhong ": 3320,
  "jin yi bu ": 3321,
  "na de ": 3322,
  "lian he guo ": 3323,
  "yan jiu suo ": 3324,
  "zheng ming ": 3325,
  "   18": 3326,
  "fang qi ": 3327,
  "da qu ": 3328,
  "tai guo ": 3329,
  "er he ": 3330,
  " zheng shi ": 3331,
  "gong xian ": 3332,
  "gou de ": 3333,
  "12 ": 3334,
  "lun dun": 3335,
  "fan hui ": 3336,
  "ao lin pi ke yun dong hui ": 3337,
  "xiang ji ": 3338,
  "jie rang de shi zhen ": 3339,
  "zi wei ": 3340,
  "yun shu ": 3341,
  "gong ren ": 3342,
  "huo shi ": 3343,
  "suo shu de sheng ji xuan qu wei ": 3344,
  " bo": 3345,
  "zi ran": 3346,
  "yuan li ": 3347,
  "si li ": 3348,
  "zhan dou": 3349,
  "ti xi ": 3350,
  "ce de ": 3351,
  "jian cheng ": 3352,
  "cui ": 3353,
  "xing qi ": 3354,
  "biao wei ": 3355,
  "   he ": 3356,
  " er qie": 3357,
  "na li ": 3358,
  "zhu chi ": 3359,
  "zi yuan ": 3360,
  "zhong hua ren min gong he guo ": 3361,
  "ming dan ": 3362,
  "bo lan ": 3363,
  "xi zai ": 3364,
  "bei yi ": 3365,
  "dao ren ": 3366,
  "re dai ": 3367,
  "xi ban ya ": 3368,
  "fu qin ": 3369,
  "hua wei ": 3370,
  "luo fu ": 3371,
  " xi bei ": 3372,
  "xia wu ": 3373,
  "pai de ": 3374,
  "fa she ": 3375,
  " huang": 3376,
  " di qu de ": 3377,
  "ni ke ": 3378,
  "xiao zu ": 3379,
  "wen ming ": 3380,
  " ha ": 3381,
  " zhi cheng ": 3382,
  "   che zhan ": 3383,
  "wan jia ": 3384,
  " he bing ": 3385,
  "diao cha": 3386,
  "chan ye ": 3387,
  "F ": 3388,
  "an shi ": 3389,
  " shi yi ming ": 3390,
  "xiang dang ": 3391,
  " you shi ": 3392,
  "sheng shi ": 3393,
  "   chu ": 3394,
  "chao zheng zhi ren wu ": 3395,
  "jin xing le ": 3396,
  "bei ji ": 3397,
  "su de ": 3398,
  " wei sheng ": 3399,
  "xuan chuan ": 3400,
  "jian ji ": 3401,
  "jin yi ": 3402,
  " bu neng ": 3403,
  "nan sheng ": 3404,
  "   ta ": 3405,
  "hao wei ": 3406,
  " shi yi wei ": 3407,
  "ying li ": 3408,
  "jing shen ": 3409,
  "pai ming ": 3410,
  "lv shi ": 3411,
  "xian xiang ": 3412,
  "shou shang ": 3413,
  " guo ji ": 3414,
  "hu shi ": 3415,
  "shu zhong ": 3416,
  " kang": 3417,
  "zi he ": 3418,
  "xi yang ": 3419,
  "guan zhu ": 3421,
  "fu ze guan xia ": 3422,
  " bi": 3423,
  "lian de ": 3424,
  "qi zhong yi ": 3425,
  "mie ": 3426,
  "ba nian ": 3427,
  " zao ": 3428,
  "lan qiu ": 3429,
  "jia ting ": 3430,
  "za ": 3431,
  "tong xing ": 3432,
  "lie wei ": 3433,
  "shuai ": 3434,
  " pei ": 3435,
  "sai er ": 3436,
  " yue zai ": 3437,
  "zhan hou ": 3438,
  "xuan ren ": 3439,
  "liu yu ": 3440,
  "shu liang ": 3441,
  "fo jiao ": 3442,
  "ke wei ": 3443,
  "jie yi ": 3444,
  " chuang ": 3445,
  "dao yan ": 3446,
  "zheng ju ": 3447,
  "zao nian ": 3448,
  " er qie ": 3449,
  "da wei ": 3450,
  "qiu de ": 3451,
  " xi nan ": 3452,
  "tao lun ": 3453,
  " biao shi ": 3454,
  "wang shi ": 3455,
  "du jiao ": 3456,
  "yan yi ": 3457,
  " 193": 3458,
  "re dai": 3459,
  "ming shi ": 3460,
  "zheng dang ": 3461,
  "lai yuan ": 3462,
  "   bei ": 3463,
  "wen jian ": 3464,
  " long ": 3465,
  "gen ju": 3466,
  "bao chi ": 3467,
  "X ": 3468,
  " zhong gong ": 3469,
  "tiao zhan ": 3470,
  " yi jian ": 3471,
  "ping lun ": 3472,
  "hou qi ": 3473,
  "zhong yang ": 3474,
  "rui shi ": 3475,
  " zhi xian ": 3476,
  "reng ran ": 3477,
  " dao le ": 3478,
  " tuo ": 3479,
  " 10 yue ": 3480,
  " yi xi ": 3481,
  "lv ke ": 3482,
  "   U": 3483,
  " ji si ": 3484,
  " zong ren kou ": 3485,
  "zi dong ": 3486,
  "xia de yi ge ": 3487,
  "fan de ": 3488,
  " wu ke ": 3489,
  "di si ": 3490,
  " ben": 3491,
  "biao ming ": 3492,
  " shi xian ": 3493,
  "ping tai ": 3494,
  "M ": 3495,
  "xu de ": 3496,
  "lu yu ": 3497,
  " zhi ming ": 3498,
  "hai de ": 3499,
  "ceng jing ": 3500,
  "luo ma": 3501,
  "ke li si ": 3502,
  " ji hu ": 3503,
  " shi jian yu ": 3504,
  "xu yao": 3505,
  "mo xing ": 3506,
  "peng you ": 3507,
  " li ren ": 3508,
  " hao": 3509,
  "da yue ": 3510,
  "yin hang": 3511,
  "e luo ": 3512,
  "feng xian ": 3513,
  "nan jing ": 3514,
  " can ": 3515,
  " bei jing ": 3516,
  " de di fang ": 3517,
  "sheng yi ": 3518,
  "xuan qu ": 3519,
  " ci shi ": 3520,
  "rao ": 3521,
  " lin": 3522,
  "gong zhong yang ": 3523,
  "jiao tang ": 3524,
  "tai ping yang ": 3525,
  "ke zai ": 3526,
  "x ": 3527,
  "zheng bu ": 3528,
  "jiao bu ": 3529,
  "lian bang": 3530,
  " que ": 3531,
  "xing bu ": 3532,
  "jing you ": 3533,
  "yan ge ": 3534,
  "ri qi ": 3535,
  "yuan zai ": 3536,
  " guo wang ": 3537,
  "dao da ": 3538,
  "shen wei ": 3539,
  "jian dui ": 3540,
  "chong tu ": 3541,
  "wu ren ": 3542,
  "   xian ": 3543,
  "jian ren ": 3544,
  "tui yi ": 3545,
  "biao zhi ": 3546,
  "hua yu ": 3547,
  "ru he ": 3548,
  " e": 3549,
  "   2021": 3550,
  "ke shi ": 3551,
  "qian shi ": 3552,
  " nian du ": 3553,
  "qian zhi ": 3554,
  "g ": 3555,
  "xian he ": 3556,
  "shang ying ": 3557,
  "xiao guo ": 3558,
  "sou ": 3559,
  "dao he ": 3560,
  " yi shang ": 3561,
  "ke si ": 3562,
  "jing wei ": 3563,
  " gong yuan ": 3564,
  "lei xing ": 3565,
  " yi li ": 3566,
  "   sui ": 3567,
  " da xue": 3568,
  "zhou wei ": 3569,
  "xian ji ": 3570,
  "dang xuan ": 3571,
  "ye bu ": 3572,
  "feng bao ": 3573,
  "biao da ": 3574,
  "guang zhou ": 3575,
  "xia shi ": 3576,
  "pang ": 3577,
  "   2020": 3578,
  "liang zhong ": 3579,
  "zhang shi ": 3580,
  "xie de ": 3581,
  " ou ": 3582,
  "bi ya ": 3583,
  "chu sheng ": 3584,
  "sheng huo": 3585,
  "ding yu ": 3586,
  "tiao zheng ": 3587,
  "qi ye ": 3588,
  " ceng ren ": 3589,
  "shen qing ": 3590,
  "jiu nian ": 3591,
  "ping mian ": 3592,
  "rou ": 3593,
  " ji bei ": 3594,
  "jiao qu ": 3595,
  "n   ": 3596,
  "an jian ": 3597,
  "cheng xian ": 3598,
  "lu si ": 3599,
  "xing yi ": 3600,
  " zhi fu ": 3601,
  "fen bie ": 3602,
  "tuan dui ": 3603,
  " er ren kou mi du wei mei ping fang qian mi ": 3604,
  " The": 3605,
  " li da ": 3606,
  "yao qing ": 3607,
  " jin ru ": 3608,
  "cha yi ": 3609,
  " li lun ": 3610,
  "ying ge lan ": 3611,
  "pu tong ": 3612,
  "yuan zhang ": 3613,
  "yuan su ": 3614,
  "xing ren ": 3615,
  " qin ": 3616,
  "xi he ": 3617,
  "xiao shou ": 3618,
  "qiu chang ": 3619,
  " ta men de ": 3620,
  "te bie ": 3621,
  "zhong yao ": 3622,
  "chu sheng yu ": 3623,
  "yan zhi ": 3624,
  "heng xing ": 3625,
  "nei rong": 3626,
  "zi yi ": 3627,
  "ru ci ": 3628,
  "que zhen ": 3629,
  "dui shou ": 3630,
  "   a": 3631,
  "la fu ": 3632,
  " jie guo ": 3633,
  "11 ": 3634,
  " nian hou ": 3635,
  " zhong you ": 3636,
  " zheng": 3637,
  "zuo shi ": 3638,
  "bao wei ": 3639,
  "lai shuo ": 3640,
  "xue shu ": 3641,
  "cheng yu ": 3642,
  "shu yi ": 3643,
  "hui ji ": 3644,
  "bei ren wei shi ": 3645,
  " qi yu ": 3646,
  "ru guo ": 3647,
  " yue yu ": 3648,
  " zhi zao ": 3649,
  "24 ": 3650,
  "he yu ": 3651,
  "2024 nian ": 3652,
  "wang lu ": 3653,
  " gao": 3654,
  "an na ": 3655,
  "shun ": 3656,
  " zhong hua ": 3657,
  " tan ": 3658,
  "lun de ": 3659,
  "nu li ": 3660,
  "ni de ": 3661,
  "wu yi ": 3662,
  "ta shi ": 3663,
  " nian you ": 3664,
  "duo zhong ": 3665,
  " 8 yue ": 3666,
  "cai yong": 3667,
  "jia ren ": 3668,
  "quan shi ": 3669,
  "zheng zhuang ": 3670,
  "ting de ": 3671,
  "neng gou": 3672,
  "zi zhi qu ": 3673,
  "xiao zhang ": 3674,
  "dian tai ": 3675,
  "jie fang jun ": 3676,
  "geng ming wei ": 3677,
  "min de ": 3678,
  "shu zi ": 3679,
  "hai zi ": 3680,
  "xiang yu ": 3681,
  "you li ": 3682,
  "lan ke ": 3683,
  " tong chang ": 3684,
  "qu he ": 3685,
  "chuang li ": 3686,
  "chu shen ": 3687,
  "xu shi ": 3688,
  "fan yi ": 3689,
  "xin shi ": 3690,
  "zong du ": 3691,
  "e   ": 3692,
  " mai ": 3693,
  "fu qin": 3694,
  "   2019": 3695,
  "ge you ": 3696,
  "zhu yan ": 3697,
  "she yu ": 3698,
  "L ": 3699,
  "jia ge ": 3700,
  "xun hui ": 3701,
  "bo de ": 3702,
  "huo dong": 3703,
  "jiang xi ": 3704,
  "1999 nian ": 3705,
  "ming yu ": 3706,
  "sun shi ": 3707,
  "ban gong shi ": 3708,
  "shou ru ": 3709,
  "jiang xiang ": 3710,
  "dan de ": 3711,
  "jie wei ": 3712,
  "lin de ": 3713,
  "le   ": 3714,
  "ju xing de ": 3715,
  " hu": 3716,
  "jing cha ": 3717,
  "dui yi ": 3718,
  "sa ke ": 3719,
  "   wu ": 3720,
  "jie jin ": 3721,
  " suo you ": 3722,
  " wei lian ": 3723,
  " ji ben ": 3724,
  "jie yu ": 3725,
  "ka si ": 3726,
  "guan dian ": 3727,
  "   xia ": 3728,
  " de yi zuo ": 3729,
  "   2018": 3730,
  " li he ": 3731,
  "sang ": 3732,
  " lao ": 3733,
  "jiang di ": 3734,
  "shao shu ": 3735,
  "wen zhang ": 3736,
  "kan dao ": 3737,
  " ji zhe ": 3738,
  "lun dun ": 3739,
  " zai yi ": 3740,
  "dai you ": 3741,
  "tou xiang ": 3742,
  "lu di mian ji wei ": 3743,
  " deng": 3744,
  " xiong ": 3745,
  "   ge ": 3746,
  "zhang yu ": 3747,
  "amp ": 3748,
  "shui yu mian ji wei ": 3749,
  "xing jian ": 3750,
  "jie quan guo ": 3751,
  " da qu ": 3752,
  "wen zi ": 3753,
  "zhan ji ": 3754,
  " de di qu ": 3755,
  "ao men ": 3756,
  "zai zhi ": 3757,
  "wen yi ": 3758,
  "kang yi ": 3759,
  " miao ": 3760,
  " che zhan ": 3761,
  "1998 nian ": 3762,
  "xi bei ": 3763,
  "hai an ": 3764,
  "pai ming": 3765,
  "ru kou ": 3766,
  "R ": 3767,
  " pei": 3768,
  "wai guo ": 3769,
  " shi di ": 3770,
  "wen de ": 3771,
  "jiao liu ": 3772,
  "xing xing ": 3773,
  "zhen dui ": 3774,
  " V": 3775,
  "xi zhi ": 3776,
  "xin ren ": 3777,
  " ji tuan": 3778,
  "   ke ": 3779,
  "tian jin ": 3780,
  "du yu ": 3781,
  " amp ": 3782,
  "   2022": 3783,
  "cuo shi ": 3784,
  "zhang ke da ": 3785,
  "fang zai ": 3786,
  "xuan ze": 3787,
  " zhuan": 3788,
  "jun di ": 3789,
  "ti ming ": 3790,
  " dang zhong lu di mian ji wei ": 3791,
  "chu fa ": 3792,
  " er shui yu mian ji wei ": 3793,
  "po huai ": 3794,
  "hui shang ": 3795,
  "rong yi ": 3796,
  "teng ": 3797,
  "tai yang ": 3798,
  " bei er ": 3799,
  "jing dian ": 3800,
  " xian zai ": 3801,
  "zao yu ": 3802,
  "O ": 3803,
  "chi de ": 3804,
  "ba xi ": 3805,
  " zhong yao ": 3806,
  " pa": 3807,
  "guang xi ": 3808,
  "bian jie ": 3809,
  "luo di ": 3810,
  "gou cheng ": 3811,
  "xian you ": 3812,
  "ou yuan ": 3813,
  "xian chang ": 3814,
  " ju li ": 3815,
  " hai you ": 3816,
  "xi yi ": 3817,
  "shan ji ": 3818,
  " xiang gang": 3819,
  "fu ji ": 3820,
  "dao ji ": 3821,
  "ha er ": 3822,
  "tou ru ": 3823,
  "que ding ": 3824,
  " de zhi chi ": 3825,
  " yue you ": 3826,
  "si chuan ": 3827,
  "yue tai ": 3828,
  "   xing zheng qu hua ": 3829,
  " fa xian ": 3830,
  " ji shi ": 3831,
  "keng ": 3832,
  " zai zhe ": 3833,
  "dui wu ": 3834,
  "cun zhuang ": 3835,
  " cong er ": 3836,
  "da zhong ": 3837,
  "   I": 3838,
  "jia yu ": 3839,
  "ming zhi ": 3840,
  " ao": 3841,
  "you wei ": 3842,
  " jing guo ": 3843,
  "cun de ": 3844,
  "da zhi ": 3845,
  "deng lu ": 3846,
  " 9 yue ": 3847,
  "tou piao ": 3848,
  "   2017": 3849,
  "15 ": 3850,
  "ge lei ": 3851,
  "yuan hui ": 3852,
  "chang yi ": 3853,
  " yue wei ": 3854,
  "gong yu ": 3855,
  " shi li ": 3856,
  " zhi xia ": 3857,
  "gong min ": 3858,
  "yin fa ": 3859,
  "bi ye yu ": 3860,
  "jian zhong ": 3861,
  "nuo wei ": 3862,
  " hou": 3863,
  "er yu ": 3864,
  "dai li ": 3865,
  "tu er qi ": 3866,
  "fang wei ": 3867,
  "tu de ": 3868,
  "tui dong ": 3869,
  " shi zhong guo ": 3870,
  "ge yi ": 3871,
  "zhan di ": 3872,
  "ke yu ": 3873,
  "hun he ": 3874,
  "pi zhun ": 3875,
  "ju zhu ": 3876,
  "bao liu ": 3877,
  "qian shu ": 3878,
  "wu yu ": 3879,
  "er ren ": 3880,
  "jin ru": 3881,
  " zai bei ": 3882,
  "wen ding ": 3883,
  "hai dao ": 3884,
  "le si ": 3885,
  "yong hu ": 3886,
  "gan ran": 3887,
  "shu he ": 3888,
  "bi sai zhong ": 3889,
  " ti zhang ke da ": 3890,
  " formula ": 3891,
  " shou": 3892,
  "zi ran ": 3893,
  "xi zhong ": 3894,
  "   in": 3895,
  "da fu ": 3896,
  "   V": 3897,
  " 7 yue ": 3898,
  "zi li ": 3899,
  "nan bei ": 3900,
  "jun yi ": 3901,
  " ren men ": 3902,
  "chu ji ": 3903,
  "qi zi ": 3904,
  " wei fu qi yu ": 3905,
  "heng li ": 3906,
  "fang wen ": 3907,
  " sa ": 3908,
  "zhuang jia ": 3909,
  "ti gao ": 3910,
  " you ji ": 3911,
  "   2016": 3912,
  " ting ": 3913,
  " wo men ": 3914,
  "di ji ": 3915,
  "ma ke ": 3916,
  "1996 nian ": 3917,
  " shi qu ": 3918,
  "cheng zuo ": 3919,
  " yu ci ": 3920,
  "xun su ": 3921,
  "jian he ": 3922,
  " yi da li ": 3923,
  "xin hao ": 3924,
  " yin du ": 3925,
  "jin shu ": 3926,
  "ben tu ": 3927,
  "hou xuan ren ": 3928,
  "mo er ": 3929,
  "zhan zhong ": 3930,
  "xiao li ": 3931,
  "xian lu ": 3932,
  "xian hou ": 3933,
  "zi jin ": 3934,
  "ci wei ": 3935,
  "jie shu hou ": 3936,
  " 12 yue ": 3937,
  "xin yi ": 3938,
  "pin pai ": 3939,
  "ge ge ": 3940,
  " ta yi ": 3941,
  "N ": 3942,
  " an": 3943,
  "guang fan ": 3944,
  " zhang": 3945,
  "zhu ming de ": 3946,
  "zui chu ": 3947,
  "zhong li ": 3948,
  "shang ren ": 3949,
  "yong yi ": 3950,
  "ceng yu ": 3951,
  "ying pian ": 3952,
  "zhu ming ": 3953,
  "1997 nian ": 3954,
  "he zuo ": 3955,
  "mou xie ": 3956,
  "cheng zhi ": 3957,
  " 11 yue ": 3958,
  " de yi zhi ": 3959,
  "wu wei ": 3960,
  "jian zao ": 3961,
  "chu zhan ": 3962,
  "jie you ": 3963,
  "mei nian ": 3964,
  "jian zai ": 3965,
  "ling wai ": 3966,
  " xiu ": 3967,
  " de shi qu wei ": 3968,
  " 21 ": 3969,
  "jia zu ": 3970,
  "xia lai ": 3971,
  "xue hui ": 3972,
  " zhi neng ": 3973,
  "bu tong de ": 3974,
  "   de shi ": 3975,
  " tw": 3976,
  "zhu bu ": 3977,
  "jiang su ": 3978,
  " bing yi ": 3979,
  "sa er ": 3980,
  "shui ping ": 3981,
  " zhong guo gong chan dang ": 3982,
  "bu dui ": 3983,
  " di qu": 3984,
  " jia shang ": 3985,
  "   er ": 3986,
  "dang shi de ": 3987,
  "shan da ": 3988,
  "reng ": 3989,
  "bo er ": 3990,
  "hans ": 3991,
  " hans ": 3992,
  "ke he ": 3993,
  "xu qiu ": 3994,
  " ji cheng ": 3995,
  "jian shao ": 3996,
  "te shu ": 3997,
  " tw ": 3998,
  " hong": 3999,
  "da cheng ": 4000,
  "shan de ": 4001,
  "i ": 4002,
  " bian": 4003,
  " 2011": 4004,
  "biao mian ": 4005,
  " zhe xie": 4006,
  "mei ge ": 4007,
  "   qing ": 4008,
  "lv wei ": 4009,
  "pai chu ": 4010,
  "   2014": 4011,
  "xiao shuo": 4012,
  "ao da li ya ": 4013,
  "nan yi ": 4014,
  " bu fen": 4015,
  "jie rang ": 4016,
  "   2023": 4017,
  "1992 nian ": 4018,
  " ren lei ": 4019,
  "jue ding": 4020,
  "gong chang ": 4021,
  "si ke ": 4022,
  "c ": 4023,
  "chang he ": 4024,
  " yu ren ": 4025,
  "jie ke ": 4026,
  " dan ta ": 4027,
  " ji guan ": 4028,
  " zai zhong guo ": 4029,
  "   li": 4030,
  "she hui zhu yi ": 4031,
  "zhu you ": 4032,
  "zhuang zhi ": 4033,
  " cheng yuan ": 4034,
  " hao xian ": 4035,
  "bei zhi ": 4036,
  " xi bao ": 4037,
  "jing yan ": 4038,
  "U ": 4039,
  " 189": 4040,
  " 2010 nian ": 4041,
  "wan ren ": 4042,
  "fa chu ": 4043,
  "zi xun ": 4044,
  "suo de ": 4045,
  "wa er ": 4046,
  " ji ren ": 4047,
  "yin su ": 4048,
  " jie mu ": 4049,
  "ti shi ": 4050,
  "ying wen ": 4051,
  "   2015": 4052,
  "   yuan ": 4053,
  "lu zhi ": 4054,
  " hou lai": 4055,
  " hai": 4056,
  " xu duo ": 4057,
  " e luo si ": 4058,
  "   J": 4059,
  "tu zhong ": 4060,
  "kong zhong ": 4061,
  "sui dao ": 4062,
  "hua he ": 4063,
  "sha si ": 4064,
  " ri yu ": 4065,
  "yong shi ": 4066,
  "fo ": 4067,
  "ling tu ": 4068,
  "geng jia ": 4070,
  "min jian ": 4071,
  "   yu shi de ren kou shu liang wei ren ": 4072,
  "   suo shu de sheng ji xuan qu wei ": 4073,
  "xiang si ": 4074,
  "   de you zheng bian ma wei ": 4075,
  "   yu jie rang de shi zhen ": 4076,
  "   de shi qu wei ": 4077,
  " guo cheng ": 4078,
  " 2019": 4079,
  "le shi ": 4080,
  " feng": 4081,
  "zeng zhang ": 4082,
  "er yi ": 4083,
  "nan de ": 4084,
  " zai da ": 4085,
  "jiang de ": 4086,
  "ke cheng ": 4087,
  "hui ying ": 4088,
  "kong jun ": 4089,
  " jing ji ": 4090,
  " 2009 nian ": 4091,
  "ci yi ": 4092,
  " di da ": 4093,
  "gu wen ": 4094,
  " he xi ": 4095,
  " ta ye ": 4096,
  "guang gao ": 4097,
  "jue se": 4098,
  " fa xing ": 4099,
  " wang": 4100,
  "te er ": 4101,
  " shi mei guo ": 4102,
  "han shu ": 4103,
  "   2013": 4104,
  " hk": 4105,
  "zhou fu ": 4106,
  "tian de ": 4107,
  "ti yi ": 4108,
  "zong bu ": 4109,
  " sheng huo": 4110,
  " 30": 4111,
  " ji you ": 4112,
  "guan bi ": 4113,
  "an pai ": 4114,
  "xian xing ": 4115,
  " bing jiang ": 4116,
  "chao shi ": 4117,
  " men ": 4118,
  "ti sheng ": 4119,
  "fei jian zhi ": 4120,
  "wo men ": 4121,
  "da yu ": 4122,
  "fang bu ": 4123,
  "xu ke ": 4124,
  "   xin ": 4125,
  "lang de ": 4126,
  "zheng fu de ": 4127,
  "min zhu dang ": 4128,
  " 6 yue ": 4129,
  "zhuang shi ": 4130,
  "jia ru": 4131,
  "quan mian ": 4132,
  " bing you ": 4133,
  " hk ": 4134,
  "xing tai ": 4135,
  "ban gong ": 4136,
  " de guo jia ": 4137,
  "jun ji ": 4138,
  "che zhan": 4139,
  " er gai ": 4140,
  " he er ": 4141,
  "di guo ": 4142,
  "bao li ": 4143,
  "jie gou": 4144,
  "dui shi ": 4145,
  "shan mai": 4146,
  " zhi shi ": 4147,
  "ju bu ": 4148,
  "ling de ": 4149,
  "zhuan jia ": 4150,
  "rui dian ": 4151,
  "dang yu ": 4152,
  "luo ke ": 4153,
  " ji nian ": 4154,
  "wei yi ge ": 4155,
  "jun gong ": 4156,
  "tu shu guan ": 4157,
  "dang zhong ": 4158,
  "wei zhi ": 4159,
  "nei lu ": 4160,
  "hua zhong ": 4161,
  "cheng xu ": 4162,
  " yue tai ": 4163,
  "3 ren ": 4164,
  "yun xu ": 4165,
  "hui bei ": 4166,
  "jiu dian ": 4167,
  "se lie ": 4168,
  " lai zi ": 4169,
  "shan shi ": 4170,
  "dian nao": 4171,
  "dai bu ": 4172,
  "bing mei you ": 4173,
  "ge zhi ": 4174,
  " ke xue ": 4175,
  " na": 4176,
  "   xiang ": 4177,
  " qi zhong yi ": 4178,
  "zu cheng de ": 4179,
  "si xiang ": 4180,
  "fei jian zhi di qu ": 4181,
  " 5 yue ": 4182,
  "   Co": 4183,
  "   and": 4184,
  "1995 nian ": 4185,
  " zhuang ": 4186,
  "fen li ": 4187,
  "ba wei ": 4188,
  " xi jie ": 4189,
  "1994 nian ": 4190,
  "san jiao ": 4191,
  "jing zheng ": 4192,
  "guo wei ": 4193,
  " yi jia ": 4194,
  "chang yu ": 4195,
  "tan ke ": 4196,
  " you qi shi ": 4197,
  "mu qin ": 4198,
  " zhong de ": 4199,
  "tong yu ": 4200,
  "bing shi ": 4201,
  "huan ying ": 4202,
  "fa lv": 4203,
  " 2018": 4204,
  "ma er ": 4205,
  " di xia ": 4206,
  "mo xi ge ": 4207,
  "ge lan": 4208,
  "que fa ": 4209,
  "gong si de ": 4210,
  "jin pai ": 4211,
  "yan jiu yuan ": 4212,
  " zheng fu ": 4213,
  "zhuan yi ": 4214,
  "25 ": 4215,
  "xia jiang ": 4216,
  "shu xue ": 4217,
  "nei ge ": 4218,
  " shi jie bei ": 4219,
  "jiu de ": 4220,
  " li ya": 4221,
  "hua ren ": 4222,
  "ming ming wei ": 4223,
  "lai dao ": 4224,
  "jun you ": 4225,
  "jiu zhi ": 4226,
  " he di ": 4227,
  "2 ren ": 4228,
  " gong zuo ": 4229,
  "   jia zu ": 4230,
  "wei   ": 4231,
  "sheng zhang ": 4232,
  "deng wei ": 4233,
  " ji chu ": 4234,
  " li bu ": 4235,
  "xiu gai ": 4236,
  "hui zhang ": 4237,
  "ming ling ": 4238,
  "ying yun ": 4239,
  "shuo ming ": 4240,
  "hu de ": 4241,
  "yong lai ": 4242,
  "1 ren ": 4243,
  " mao ": 4244,
  "dui qi ": 4245,
  " chu yu ": 4246,
  "zi mu ": 4247,
  "shou fu ": 4248,
  " 20": 4249,
  " zai mei guo ": 4250,
  " dan you yu ": 4251,
  "wen shi ": 4252,
  "   zh ": 4253,
  " bu tong de ": 4254,
  "mao qiu ": 4255,
  " min guo ": 4256,
  "gong ju ": 4257,
  " shi yi ge": 4258,
  " de di er ": 4259,
  " wei wei ": 4260,
  "K ": 4261,
  "zhu ji ": 4262,
  "que ren ": 4263,
  "leng ": 4264,
  "cheng wei le ": 4265,
  "ta yu ": 4266,
  "ye bei ": 4267,
  " 4 yue ": 4268,
  "liao jie ": 4269,
  "gua ": 4270,
  " ta bei ": 4271,
  "bei er ": 4272,
  "fei lv ": 4273,
  " rang ": 4274,
  "yin de ": 4275,
  "chang di ": 4276,
  "fa an ": 4277,
  "ju zhang ": 4278,
  "cai qu ": 4279,
  "lie biao ": 4280,
  " qian": 4281,
  "shou zhong ": 4282,
  "   jie zhi ": 4283,
  "chang pian ": 4284,
  "shen ti ": 4285,
  " ta hai ": 4286,
  " zhong guo ren min ": 4287,
  "22 ": 4288,
  "che xiao ": 4289,
  " yin yue ": 4290,
  " shang hai ": 4291,
  "can jia le ": 4292,
  "chu xi ": 4293,
  "chuan bo ": 4294,
  " 2016": 4295,
  "chan pin": 4296,
  "1991 nian ": 4297,
  " yi nian ": 4298,
  " er fu ": 4299,
  "jiao lian ": 4300,
  "ban fa ": 4301,
  "xie ren ": 4302,
  "che de ": 4303,
  "zhu zuo ": 4304,
  "bo fang ": 4305,
  "fu you ": 4306,
  "su wei ": 4307,
  "sui ji ": 4308,
  " 23": 4309,
  "zhe li ": 4310,
  " yi ju ": 4311,
  "ma si ": 4312,
  "16 ": 4313,
  " wei ren ": 4314,
  " kang ": 4315,
  "   zhong guo ": 4316,
  "ze you ": 4317,
  " li ru": 4318,
  "qiu hui ": 4319,
  "tie lu": 4320,
  "dian qi ": 4321,
  "liang shi ": 4322,
  "1 hao ": 4323,
  " wei yuan hui": 4324,
  " di tie ": 4325,
  "wang qiu ": 4326,
  "ma de ": 4327,
  " qi lai ": 4328,
  "fa dian ": 4329,
  " shi yi nian ": 4330,
  "gu de ": 4331,
  "bai se ": 4332,
  "shen jing ": 4333,
  "yue han ": 4334,
  "ju he ": 4335,
  "tai ji ": 4336,
  "zhan tai ": 4337,
  "hua yuan ": 4338,
  "tion ": 4339,
  "jie hun ": 4340,
  "wan shang ": 4341,
  " quan guo ": 4342,
  "ling bu ": 4343,
  " zhi di ": 4344,
  "zi zhu ": 4345,
  "huo jian ": 4346,
  "zu jian ": 4347,
  "ye he ": 4348,
  " yi zai ": 4349,
  " you xie ": 4350,
  "hua sheng ": 4351,
  "ling xian ": 4352,
  "liang ren ": 4353,
  "chan sheng de ": 4354,
  "zhao kai ": 4355,
  " ren min zheng fu ": 4356,
  "yan chang hui ": 4357,
  " wei neng ": 4358,
  "2020 nian mei guo ren kou pu cha de shu ju ": 4359,
  "ma lai xi ya ": 4360,
  "xue he ": 4361,
  " you xiao ": 4362,
  "or ": 4363,
  " xing dong ": 4364,
  " Ma": 4365,
  "chao de ": 4366,
  " zai xi ": 4367,
  " er bu ": 4368,
  "tong che ": 4369,
  "   2025": 4370,
  "xu li ya ": 4371,
  "le ta ": 4372,
  "chu xian zai ": 4373,
  "yao wu ": 4374,
  " kuan ": 4375,
  "qin shi ": 4376,
  "ru xuan ": 4377,
  "ti zhong ": 4378,
  "1988 nian ": 4379,
  "chang pian": 4380,
  "r   ": 4381,
  "chang zai ": 4382,
  "kuo da ": 4383,
  " xi la ": 4384,
  "m   ": 4385,
  "   2024": 4386,
  "yin du": 4387,
  "ge er ": 4388,
  "xue xiao": 4389,
  "ge da ": 4390,
  "xiang xi ": 4391,
  " ying yu ": 4392,
  "xin ji ": 4393,
  " li shu ": 4394,
  " gong cheng ": 4395,
  "   qian ": 4396,
  "zhuang kuang ": 4397,
  " da bu fen ": 4398,
  "shan xi sheng ": 4399,
  "xing zhong ": 4400,
  "tai shi ": 4401,
  "si te ": 4402,
  "kong bu ": 4403,
  " zhi du ": 4404,
  " shi de yi ": 4405,
  "hu bei ": 4406,
  "lv xing ": 4407,
  "tuo li ": 4408,
  "gong hui ": 4409,
  "shen shi ": 4410,
  "cheng li de ": 4411,
  "da bu fen ": 4412,
  " fu jin ": 4413,
  "gui ze ": 4414,
  "   nian": 4415,
  " wei li ": 4416,
  "ao di li ": 4417,
  "shang hai": 4418,
  "da lu de ": 4419,
  " liang ren ": 4420,
  "lao dong ": 4421,
  " dai biao ": 4422,
  "zhou bian ": 4423,
  "jing yu ": 4424,
  "zhuang de ": 4425,
  "pei yin ": 4426,
  "cu jin ": 4427,
  " yi tong ": 4428,
  "er   ": 4429,
  "tong bu ": 4430,
  "xing xiang ": 4431,
  " cao ": 4432,
  "ci zai ": 4433,
  " ka": 4434,
  " li shi shang ": 4435,
  "yu   ": 4436,
  "w ": 4437,
  "ze wei ": 4438,
  "long de ": 4439,
  "suan ji ": 4440,
  "1993 nian ": 4441,
  "xing qu ": 4442,
  " C ": 4443,
  " ming chao zheng zhi ren wu ": 4444,
  "sui hou ": 4445,
  "pei he ": 4446,
  "wu ke lan": 4447,
  "4 ren ": 4448,
  "jin bu ": 4449,
  "bao shi ": 4450,
  "dai biao da hui ": 4451,
  "wu he ": 4452,
  "zhu chang ": 4453,
  "nan shi ": 4454,
  " qiao ": 4455,
  " zhi zi ": 4456,
  " zhe jiang ": 4457,
  "ping wei ": 4458,
  "te se ": 4459,
  "xia ji ao lin pi ke yun dong hui ": 4460,
  "12 nian ": 4461,
  "jiao xue ": 4462,
  " ji er ": 4463,
  "b ": 4464,
  "da he ": 4465,
  "xie shi ": 4466,
  "pu bian ": 4467,
  "zhe zai ": 4468,
  " pan ": 4469,
  "zhuan xiang ": 4470,
  "piao fang ": 4471,
  "la ji ": 4472,
  "50 ": 4473,
  "   xiao ": 4474,
  " shi tu ": 4475,
  "G ": 4476,
  " 3 yue ": 4477,
  "wen xian ": 4478,
  "she ji de ": 4479,
  "luo ji ": 4480,
  "fei zhou ": 4481,
  "lian ren ": 4482,
  " xi ju ": 4483,
  "sa si ": 4484,
  "an quan": 4485,
  " she ji ": 4486,
  " 2011 nian ": 4487,
  "dao zhong ": 4488,
  "kao lv ": 4489,
  " lu": 4490,
  " wei he ": 4491,
  " fu jian ": 4492,
  "13 ": 4493,
  "wang chao ": 4494,
  "jie ren ": 4495,
  "ming xian ": 4496,
  "zhu zhang ": 4497,
  " yao qiu ": 4498,
  "gong zhi ": 4499,
  "zheng he ": 4500,
  " wei wu ": 4501,
  " xi bu ": 4502,
  "hu yu ": 4503,
  " bu ke ": 4504,
  "tong dao ": 4505,
  "mei guo de ": 4506,
  "xu zai ": 4507,
  "ST ": 4508,
  " wei xing ": 4509,
  "f ": 4510,
  " sun": 4511,
  " 188": 4512,
  " nv xing ": 4513,
  "   guo ": 4514,
  "kou wei ": 4515,
  "ling dao ren ": 4516,
  "bi sai": 4517,
  "18 ": 4518,
  " wei lai ": 4519,
  "qi zhong yi zhong ": 4520,
  " 2021": 4521,
  "zhao dao ": 4522,
  "hong se ": 4523,
  "yuan gong ": 4524,
  "si ling ": 4525,
  "jing cha": 4526,
  "fang wu ": 4527,
  " tao ": 4528,
  " s   ": 4529,
  " li mi ": 4530,
  "   cong ": 4531,
  "zui hou": 4532,
  "yun dong": 4533,
  "cai liao ": 4534,
  " shi wei le ": 4535,
  " de zhi wu ": 4536,
  "hun yin ": 4537,
  " yu le ": 4538,
  " cheng gong ": 4539,
  " mai": 4540,
  " wei hui ": 4541,
  "1990 nian ": 4542,
  " xi ya": 4543,
  " ji hui ": 4544,
  " 2001 nian ren kou ": 4545,
  " ni": 4546,
  "dong nan bu ": 4547,
  "bian shi ": 4548,
  " you bu ": 4549,
  "dong bei bu ": 4550,
  " 2015": 4551,
  "shou zhi ": 4552,
  "hua ji ": 4553,
  "fen bu yu ": 4554,
  "   2012": 4555,
  "jun yu ": 4556,
  " nai": 4557,
  "ying gai ": 4558,
  " biao ": 4559,
  "ge he ": 4560,
  " ren shu ": 4561,
  "fu zai ": 4562,
  "ti zhi ": 4563,
  "da chen ": 4564,
  "bao zhi ": 4566,
  "re   ": 4567,
  "si ge ": 4568,
  "fei chu ": 4569,
  "ri zhi ": 4570,
  " xing qi ": 4571,
  " 2005 nian ": 4572,
  "jin you ": 4573,
  "dian hua ": 4574,
  " lie ": 4575,
  " jiao yu ": 4576,
  "sao ": 4577,
  " bu men ": 4578,
  "qian wang": 4579,
  "bao yu ": 4580,
  " yi ban": 4581,
  "yuan xing ": 4582,
  "ruan jian ": 4583,
  "   zao nian ": 4584,
  "duo ren ": 4585,
  "wu tai ": 4586,
  "ling di ": 4587,
  "chi you ": 4588,
  "dui zhang ": 4589,
  "fa xian le ": 4590,
  " guan yu ": 4591,
  " han guo ": 4592,
  "shi   ": 4593,
  "tui jin ": 4594,
  "geng duo ": 4595,
  "zhu jue ": 4596,
  " yin er ": 4597,
  "chu lai ": 4598,
  "ti dao ": 4599,
  "on   ": 4600,
  "yong zuo ": 4601,
  "suo zai ": 4602,
  "zheng chang ": 4603,
  "ben di ": 4604,
  "jue shi ": 4605,
  " nian bei ": 4606,
  "wu zhuang ": 4607,
  "guo ji ji ": 4608,
  "mei de ": 4609,
  "bian xing ": 4610,
  "dou hui ": 4611,
  "ya li shan da ": 4612,
  "jiao da ": 4613,
  "gui de ": 4614,
  " er shui yu mian ji wei 0": 4615,
  "ri jun ": 4616,
  "po huai": 4617,
  " ti gong ": 4618,
  "bo si ": 4619,
  " zhong": 4620,
  " zao cheng ": 4621,
  "yin di ": 4622,
  "jiao you ": 4623,
  "dong fang ": 4624,
  "tong yang ": 4625,
  "3 ge ": 4626,
  "tai ren ": 4627,
  "huo zhe ": 4628,
  " zai jia ": 4629,
  "qing bao ": 4630,
  " ping fang mi ": 4631,
  "cao zuo ": 4632,
  " quan": 4633,
  "ming xing ": 4634,
  " da cheng ": 4635,
  "hai wai ": 4636,
  " zu": 4637,
  "ye hui ": 4638,
  "tuan de ": 4639,
  "an hui ": 4640,
  " cha ": 4641,
  "nei you ": 4642,
  "jie shao ": 4643,
  "chu kou ": 4644,
  "dui wai ": 4645,
  " sui de ": 4646,
  " da liang ": 4647,
  " sui zhe ": 4648,
  " 2017": 4649,
  "jie mu": 4650,
  "xia you ": 4651,
  " he ping ": 4652,
  " er gai di ": 4653,
  "can mou": 4654,
  " 2020": 4655,
  " 2014": 4656,
  "xiang yi ": 4657,
  "yong tu ": 4658,
  " 2013": 4659,
  "la he ": 4660,
  "qiang de ": 4661,
  " yi du ": 4662,
  " zhi ding ": 4663,
  "dui xiang ": 4664,
  "gai shan ": 4665,
  "ao yun hui ": 4666,
  "biao de ": 4667,
  "san ji ": 4668,
  " yu he ": 4669,
  "yan shen ": 4670,
  " de shi jie ": 4671,
  "gao jia ": 4672,
  " yue nan ": 4673,
  " xi tong": 4674,
  " tui ": 4675,
  "xi nan ": 4676,
  "xian jin ": 4677,
  " wan ren ": 4678,
  "zuo qu ": 4679,
  "dun de ": 4680,
  " jia na da ": 4681,
  " bao han ": 4682,
  " xuan bu ": 4683,
  "mei li ": 4684,
  "1984 nian ": 4685,
  "deng shang ": 4686,
  "guan shi ": 4687,
  "le da ": 4688,
  "gao su gong lu ": 4689,
  "xiao qu ": 4690,
  "jun qu ": 4691,
  "zheng ti ": 4692,
  "zeng zu ": 4693,
  "jia zai ": 4694,
  "chang you ": 4695,
  "le ta de ": 4696,
  "xia xia de yi ge ": 4697,
  "long jiang ": 4698,
  " reng": 4699,
  "yun shi ": 4700,
  "ge lun ": 4701,
  "jue yi ": 4702,
  "shu ru ": 4703,
  "hai xia ": 4704,
  "fa shou ": 4705,
  "sui zhu ": 4706,
  " xian ren ": 4707,
  " sheng yu ": 4708,
  "nie ": 4709,
  " qi zai ": 4710,
  "yun zuo ": 4711,
  " ye you ": 4712,
  "que zhen bing li ": 4713,
  "   In": 4714,
  "ju yi ": 4715,
  "14 ": 4716,
  "gou zao ": 4717,
  "ban shi chu ": 4718,
  " xiu": 4719,
  "liu zai ": 4720,
  " wei ke ": 4721,
  " er yan ": 4722,
  " nan zhi ": 4723,
  " po": 4724,
  "zhan zhi ": 4725,
  "1989 nian ": 4726,
  "zuo ren ": 4727,
  "dian che ": 4728,
  "mi mi ": 4729,
  " shi da ": 4730,
  "kang ri ": 4731,
  "shu yuan ": 4732,
  "jun guan ": 4733,
  " dou": 4734,
  "jia you ": 4735,
  "du he ": 4736,
  "fei li ": 4737,
  "kai zhan ": 4738,
  " shi wu ke ": 4739,
  "10 nian ": 4740,
  "ren da ": 4741,
  " zhong zai ": 4742,
  " 100": 4743,
  "shang yu ": 4744,
  "bin hai ": 4745,
  " dong lin ": 4746,
  " 2010": 4747,
  "duo nian ": 4748,
  "jiang hui ": 4749,
  "liang ci ": 4750,
  "ling xiu ": 4751,
  "chuang jian ": 4752,
  "chu dao ": 4753,
  "shou zhang ": 4754,
  "xia ling": 4755,
  "tian shi ": 4756,
  "zhuang bei ": 4757,
  "dong zuo ": 4758,
  "shou yi ": 4759,
  "chuan zhi ": 4760,
  "chai chu ": 4761,
  "tou piao": 4762,
  "sen lin ": 4763,
  "an da ": 4764,
  " qi xiang ": 4765,
  "shou lu ": 4766,
  "cai zheng ": 4767,
  " tai wan": 4768,
  " niu": 4769,
  "   3": 4770,
  "ya ke ": 4771,
  "bi mian ": 4772,
  "gu li ": 4773,
  " qi zi ": 4774,
  "hui yuan ": 4775,
  "shan qu ": 4776,
  " shao ": 4777,
  "bei shi wei ": 4778,
  "deng de ": 4779,
  " di wu ": 4780,
  " zheng zhi ": 4781,
  " jian yu ": 4782,
  "tu xing ": 4783,
  "qin zi ": 4784,
  " er tong ": 4785,
  "ju qing ": 4786,
  "ka luo ": 4787,
  "   si ": 4788,
  " nian 1 yue 1 ri ": 4789,
  "hou shi ": 4790,
  "zhe bu ": 4791,
  "dai wei ": 4792,
  "zui gao": 4793,
  " ju xing ": 4794,
  "zun ": 4795,
  "1985 nian ": 4796,
  "wai jiao bu ": 4797,
  " wan mei yuan ": 4798,
  " yi mei yuan ": 4799,
  " qi": 4800,
  "liu de ": 4801,
  " si ling ": 4802,
  "ce liang ": 4803,
  "shou xi ": 4804,
  "jing xuan ": 4805,
  "hui zhong ": 4806,
  "suo shi ": 4807,
  "zhang guan ": 4808,
  "fan zui ": 4809,
  "fu wei ": 4810,
  "ban li ": 4811,
  "dai lai ": 4812,
  " jie shou ": 4813,
  " heng ": 4814,
  " 2007 nian ": 4815,
  "   dang ": 4816,
  "geng wei ": 4817,
  "bing ru ": 4818,
  "si yi ": 4819,
  " er zi ": 4820,
  "tong nian ": 4821,
  " you ke ": 4822,
  "xiang zheng ": 4823,
  "bao shou ": 4824,
  " dong bei ": 4825,
  "fan wei nei ": 4826,
  "pian de ": 4827,
  "mian shi ": 4828,
  "meng de ": 4829,
  "guo wang ": 4830,
  "tai feng ": 4831,
  " tai yang ": 4832,
  " cheng li ": 4833,
  " er cheng ": 4834,
  "hu nan ": 4835,
  " 2008 nian ": 4836,
  " zai du ": 4837,
  " s": 4838,
  " qi xia ": 4839,
  " ri de ": 4840,
  "fang mian de ": 4841,
  " yi hou ": 4842,
  " jie ke ": 4843,
  " sheng huo xi ": 4844,
  "H ": 4845,
  "yan xi ": 4846,
  "ren li ": 4847,
  "can yi yuan ": 4848,
  "jun zhu ": 4849,
  "kai tong ": 4850,
  "tai zi ": 4851,
  "qing chu ": 4852,
  "ding ju ": 4853,
  " she hui ": 4854,
  "gong zhu ": 4855,
  "sheng yin ": 4856,
  "jin wei ": 4857,
  "hua he wu ": 4858,
  "zhan qi jian ": 4859,
  "huan cheng ": 4860,
  " 2012": 4861,
  "zhou qi ": 4862,
  " dian ying ": 4863,
  "jian jie ": 4864,
  "ying ye ": 4865,
  " si wang ": 4866,
  "liang ji ": 4867,
  "pi fu ": 4868,
  "fei de ": 4869,
  "wai bu ": 4870,
  "xiang hu ": 4871,
  "guan cha ": 4872,
  "xing bu ming ": 4873,
  "5 ren ": 4874,
  " she you ": 4875,
  "dui you ": 4876,
  "28 nian ": 4877,
  "zhu yao de ": 4878,
  "lei da ": 4879,
  "du li de ": 4880,
  "er yue ": 4881,
  "zhuan de ": 4882,
  "tou lu ": 4883,
  " se": 4884,
  "lv de ": 4885,
  "xi ju ": 4886,
  "   ming ": 4887,
  "bing de ": 4888,
  "jiang ji ": 4889,
  "wu si ": 4890,
  "ma la ": 4891,
  "h ": 4892,
  "chang zhi ": 4893,
  "fa xing de ": 4894,
  "gou mai ": 4895,
  " sheng huo xi xing bu ming ": 4896,
  "to   ": 4897,
  " lao": 4898,
  "tian qi ": 4899,
  " yi dai ": 4900,
  "que de ": 4901,
  "ter ": 4902,
  "xin yang ": 4903,
  " can jia ": 4904,
  "tong pai ": 4905,
  "zuo biao wei ": 4906,
  "jiang ling ": 4907,
  " mei ge ": 4908,
  "an zhuang ": 4909,
  "jiu long ": 4910,
  " sha": 4911,
  "   bei jing ": 4912,
  "liang xiang ": 4913,
  " wu fa ": 4914,
  "jia li fu ": 4915,
  "xin xing ": 4916,
  "huo shan ": 4917,
  "guan jian ": 4918,
  "zu zhi de ": 4919,
  "ke neng shi ": 4920,
  "jing zhong ": 4921,
  "lu ji ": 4922,
  "25 nian ": 4923,
  "cheng he ": 4924,
  "tai bei shi ": 4925,
  "jiu du ": 4926,
  "   Ma": 4927,
  "er zhi ": 4928,
  "   ci wai ": 4929,
  "1 li ": 4930,
  " yong you ": 4931,
  "jie san ": 4932,
  "ru qin ": 4933,
  "liang zhi ": 4934,
  "hou bei ": 4935,
  "ke yi zai ": 4936,
  " dong": 4937,
  "kong qi ": 4938,
  " yue zhong ": 4939,
  "bai ren ": 4940,
  " zai ci": 4941,
  "fang yan ": 4942,
  "lun wen ": 4943,
  "shang bu ": 4944,
  "zhu yi de ": 4945,
  "gui zu ": 4946,
  " zhong guo da lu ": 4947,
  " di": 4948,
  "zhang ai ": 4949,
  "ai ji ": 4950,
  "zhe xie": 4951,
  "chuan shuo ": 4952,
  "2 hao ": 4953,
  "kao gu ": 4954,
  " ju you ": 4955,
  "cheng nian ": 4956,
  "1949 nian ": 4957,
  "fu jin de ": 4958,
  " chu xian ": 4959,
  " gong you ": 4960,
  " 2009": 4961,
  "chu bu ": 4962,
  "qu ji ": 4963,
  "yu yan ": 4964,
  " yin qi ": 4965,
  " yong yu ": 4966,
  "man de ": 4967,
  "jing fang ": 4968,
  " shi shi jie ": 4969,
  "xin jia po ": 4970,
  " zhong shi ": 4971,
  "mo si ke ": 4972,
  "ge ming": 4973,
  "   ju qing ": 4974,
  "lian zai ": 4975,
  " bi ru ": 4976,
  "huan zhe ": 4977,
  "kao jin ": 4978,
  "shen me": 4979,
  "suo shu ": 4980,
  "qian ren ": 4981,
  "1980 nian ": 4982,
  "   2010": 4983,
  " wei ci ": 4984,
  "zhan ting ": 4985,
  " shi ji shang ": 4986,
  "   2011": 4987,
  "4 ge ": 4988,
  "yun nan ": 4989,
  " di shi ": 4990,
  "ming ren ": 4991,
  "le yu ": 4992,
  "zuo zhe ": 4993,
  "zhou ji ": 4994,
  "zhong dian ": 4995,
  "guang dong sheng ": 4996,
  "gao da ": 4997,
  " shi ri ben ": 4998,
  "mu qin": 4999,
  " xiao": 5000,
  "   ben": 5001,
  " si chuan ": 5002,
  " 2008": 5003,
  "qu le ": 5004,
  "zhe wei ": 5005,
  " guo cheng zhong ": 5006,
  "bao zhang ": 5007,
  "tai du ": 5008,
  " gong tong ": 5009,
  " te bie shi ": 5010,
  " qi shi ": 5011,
  " 2013 nian ": 5012,
  "zong shi ": 5013,
  " chu sheng yu ": 5014,
  "yang ji ": 5015,
  "chu yan ": 5016,
  "jiang zai ": 5017,
  "yin qing ": 5018,
  "shuang fang ": 5019,
  "24 nian ": 5020,
  "chang jian de ": 5021,
  " kai": 5022,
  "   17": 5023,
  "qu yi hui ": 5024,
  "yin he ": 5025,
  " you ci ": 5026,
  "quan zhang ": 5027,
  " can yu ": 5028,
  "40 ": 5029,
  "xun yang ": 5030,
  "fa hui ": 5031,
  "wan gong ": 5032,
  " ren ming ": 5033,
  "hua yi ": 5034,
  "ying xiong ": 5035,
  "xiu zheng ": 5036,
  "hua zhi ": 5037,
  "gan bu ": 5038,
  "you xian ": 5039,
  " shi de guo ": 5040,
  "1   ": 5041,
  "fang yi ": 5042,
  "sui shi ": 5043,
  " qi xi ": 5044,
  "tiao li ": 5045,
  "1986 nian ": 5046,
  "xiang guan de ": 5047,
  "chu zai ": 5048,
  "cuo wu ": 5049,
  " jia ting ": 5050,
  "bian ju ": 5051,
  "   di fang ": 5052,
  " re": 5053,
  " guo hui ": 5054,
  "ban bu ": 5055,
  " yi xiao shi ": 5056,
  "sheng tai ": 5057,
  "shou xiang ": 5058,
  " bing du ": 5059,
  "tao tai ": 5060,
  "   qi ta ": 5061,
  "hu bu ": 5062,
  "neng liang ": 5063,
  "   mei guo ": 5064,
  "yuan ze ": 5065,
  "fa lan xi ": 5066,
  " wu ke lan ": 5067,
  " su": 5068,
  "lao de ": 5069,
  " yue tuan ": 5070,
  "zhou ci shi ": 5071,
  "shu li ": 5072,
  " xue xiao ": 5073,
  " cai": 5074,
  "chu zhi ": 5075,
  "zui you ": 5076,
  "feng wei ": 5077,
  "lu ying ": 5078,
  "lu kou ": 5079,
  "   di er ": 5080,
  "qing hua ": 5081,
  "yao qiu": 5082,
  "gu fen": 5083,
  "ke de qi zhong yi zhong ": 5084,
  " duan ": 5085,
  "hui bu ": 5086,
  "huo xing ": 5087,
  "qing qiu ": 5088,
  "kai she ": 5089,
  "zhi de shi ": 5090,
  "si zhi ": 5091,
  "fa guan ": 5092,
  "mei shu ": 5093,
  "dang di de ": 5094,
  " wei chi ": 5095,
  " zhong hua ren min gong he guo zheng zhi ren wu ": 5096,
  "he xin ": 5097,
  "gai cheng ": 5098,
  "nuan": 5099,
  " he xin ": 5100,
  " cha": 5101,
  "dai shi ": 5102,
  "ling ren ": 5103,
  "han yu ": 5104,
  " 2022": 5105,
  "hen da ": 5106,
  "fou ": 5107,
  " he zhong ": 5108,
  " ping jun ": 5109,
  "dao bu ": 5110,
  "   Re": 5111,
  "zhuang ji ": 5112,
  "cui hui ": 5113,
  " ji nian": 5114,
  "lu ke ": 5115,
  "han you ": 5116,
  "cheng ke ": 5117,
  "qiang diao ": 5118,
  "1945 nian ": 5119,
  "   dan ": 5120,
  "xia wei ": 5121,
  " dui": 5122,
  "en sheng ": 5123,
  "lai shi ": 5124,
  "dang wei ": 5125,
  " 25": 5126,
  " 2006 nian ": 5127,
  "bei wei ": 5128,
  "huan xing ": 5129,
  "ya jun ": 5130,
  "can kao ": 5131,
  " wan jia ": 5132,
  "zheng wei ": 5133,
  "1987 nian ": 5134,
  "tian jing ": 5135,
  "bei ren ming wei ": 5136,
  "yuan zhong ": 5137,
  "huan de ": 5138,
  "gong ying ": 5139,
  "zui gao de ": 5140,
  "ni ya zhou ": 5141,
  " mai ke ": 5142,
  "ri de ": 5143,
  "neng zai ": 5144,
  " yi zuo ": 5145,
  "xi la ": 5146,
  " A ": 5147,
  "deng deng ": 5148,
  "liang nian ": 5149,
  "22 nian ": 5150,
  "xia qu ": 5151,
  "suo chu de ": 5152,
  "dang ju ": 5153,
  "ya yi ": 5154,
  "suo zhi ": 5155,
  "xiu fu ": 5156,
  "27 nian ": 5157,
  "cheng ben ": 5158,
  "qing xing ": 5159,
  "xie dao ": 5160,
  "ti yu chang ": 5161,
  " xiong": 5162,
  "xie er ": 5163,
  "shang hai shi ": 5164,
  "tu po ": 5165,
  "sheng you ": 5166,
  "bai de ": 5167,
  "21 nian ": 5168,
  "xian sheng ": 5169,
  " ye jiu shi ": 5170,
  "18 nian ": 5171,
  " da duo ": 5172,
  "te ding ": 5173,
  "kun nan ": 5174,
  "ren yuan ": 5175,
  " da xing ": 5176,
  "yin ru ": 5177,
  "xiang wei ": 5178,
  "tai zhong ": 5179,
  " shi yong": 5180,
  "a la bo ": 5181,
  "xiang you ": 5182,
  " yi fu ": 5183,
  " ji bu ": 5184,
  "kai fa": 5185,
  "jing zhi ": 5186,
  "ke xue yuan ": 5187,
  "huo ban ": 5188,
  "19 nian ": 5189,
  "duo wei ": 5190,
  "tan de ": 5191,
  "shun li ": 5192,
  "1982 nian ": 5193,
  "fen bu zai ": 5194,
  "le qi ": 5195,
  "la ding ": 5196,
  " sui zhu ": 5197,
  "le zai ": 5198,
  "xi bao ": 5199,
  "hong zha": 5200,
  "7 ren ": 5201,
  "cheng guo ": 5202,
  "jun zhi ": 5203,
  "zhan xian ": 5204,
  " da fu ": 5205,
  " xi ban ya ": 5206,
  " meng": 5207,
  "da hui ": 5208,
  " xiang nian ": 5209,
  "15 nian ": 5210,
  "chui ": 5211,
  "wang yuan ": 5212,
  "ke you ": 5213,
  "6 ren ": 5214,
  " xi er ": 5215,
  "ru qin": 5216,
  "qiang lie ": 5217,
  "ze zai ": 5218,
  "13 nian ": 5219,
  "shou gou ": 5220,
  " ke er ": 5221,
  "hen kuai ": 5222,
  " qing": 5223,
  " 2012 nian ": 5224,
  "wu zi ": 5225,
  "man zu ": 5226,
  " p": 5227,
  " wen hua ": 5228,
  "chuan de ": 5229,
  " bu jin ": 5230,
  "hai yang ": 5231,
  "jing he ": 5232,
  "gai shi ": 5233,
  "zhong guo da lu de ": 5234,
  "   2": 5235,
  "xiao yuan ": 5236,
  "hai ping mian ": 5237,
  " 00 ": 5238,
  "suo wei ": 5239,
  "xiu jian ": 5240,
  "sheng chu ": 5241,
  " ta ceng dai biao ": 5242,
  "gan ran zhe ": 5243,
  "11 nian ": 5244,
  "1983 nian ": 5245,
  " shi ge ": 5246,
  " he lan ": 5247,
  "tong meng ": 5248,
  "hei se ": 5249,
  "zu yi ": 5250,
  " ri jun ": 5251,
  "li yu ": 5252,
  "   yin ": 5253,
  "bei yu ": 5254,
  "xue yu ": 5255,
  "lai yue ": 5256,
  " te": 5257,
  "ci shi jie da zhan ": 5258,
  "   a ": 5259,
  "jia wei ": 5260,
  "tai yu ": 5261,
  "zui wei ": 5262,
  "huang hou ": 5263,
  "zhao pian ": 5264,
  "yin li ": 5265,
  "beng ": 5266,
  "ya mei ": 5267,
  "zhou zhi ": 5268,
  " zu fu ": 5269,
  "jiang zhi ": 5270,
  "zhen yu ": 5271,
  "pai ming di ": 5272,
  "jing yi ": 5273,
  "hao shi ": 5274,
  "gu dai ": 5275,
  "gei le ": 5276,
  "zhu zhi ": 5277,
  "zhang wei ": 5278,
  "ren lei ": 5279,
  "dang yuan ": 5280,
  " wan yuan ": 5281,
  " tong shi gai di ": 5282,
  "hou wei ": 5283,
  "da jiang ": 5284,
  " de ji chu ": 5285,
  " guang dong ": 5286,
  "ding qi ": 5287,
  " ji du ": 5288,
  "shang chang ": 5289,
  "ben shen ": 5290,
  "zu qiu yun dong yuan ": 5291,
  "bo shi xue wei ": 5292,
  "2 ge ": 5293,
  "xiang he ": 5294,
  "qiang zhi ": 5295,
  "bei jing shi ": 5296,
  "jiu hui ": 5297,
  "nong min ": 5298,
  "nei lu sheng fen ": 5299,
  "cheng bao ": 5300,
  " mei nian ": 5301,
  "jiao zhi ": 5302,
  "liang guo ": 5303,
  " zhong zi ": 5304,
  " a er ": 5305,
  "cheng shi de ": 5306,
  "zhen ji ": 5307,
  "ke fu ": 5308,
  "chu you ": 5309,
  "chuang ban ": 5310,
  "bang de ": 5311,
  " huo zhe ": 5312,
  "o   ": 5313,
  "chu shou ": 5314,
  "xun zhang ": 5315,
  "xia ling shi jian ": 5316,
  "tong wei ": 5317,
  "jing zai ": 5318,
  "le you ": 5319,
  "duan shi ": 5320,
  " Z": 5321,
  "te xing ": 5322,
  "mo si ": 5323,
  "8 ren ": 5324,
  " pu": 5325,
  "bian hao ": 5326,
  "tan pan ": 5327,
  " liao ": 5328,
  " ku ": 5329,
  "14 nian ": 5330,
  " sai ji ": 5331,
  "ke zhi ": 5332,
  " bu di ": 5333,
  "kuo zhan ": 5334,
  " mu qian": 5335,
  "tang de ": 5336,
  "xiang xin ": 5337,
  "shang xia ": 5338,
  "lu xu ": 5339,
  " 10 ": 5340,
  "wan de ": 5341,
  "min di ": 5342,
  "di qiu ": 5343,
  "jiu yi ": 5344,
  "zao zai ": 5345,
  "wo de ": 5346,
  "wu dao ": 5347,
  " bu luo ": 5348,
  "19 shi ji ": 5349,
  "pai hang ": 5350,
  "ta wei ": 5351,
  "jun he ": 5352,
  "chi ren ": 5353,
  "ju da ": 5354,
  "   jian jie ": 5355,
  "mu zhi ": 5356,
  "gao zhi ": 5357,
  "fan zhi ": 5358,
  "ren gong ": 5359,
  "xi wang ": 5360,
  "tian ti ": 5361,
  "kai shi shi ": 5362,
  " tie ": 5363,
  "xuan de ": 5364,
  "wei yi yi ": 5365,
  " ji fu ": 5366,
  "mu ni ": 5367,
  " 500": 5368,
  " ren qi ": 5369,
  "wu zheng zhuang ": 5370,
  "zhe xue ": 5371,
  "suo you de ": 5372,
  " shi yi ge wei yu ": 5373,
  " kan ": 5374,
  "hui guo ": 5375,
  "ni er ": 5376,
  " qi che ": 5377,
  "nan fang ": 5378,
  "liang ming ": 5379,
  "mi ya ": 5380,
  " xian hou ": 5381,
  "zi zhong ": 5382,
  "29 nian ": 5383,
  " 1950": 5384,
  "xi ya ": 5385,
  "xiang bi ": 5386,
  "jiang jin ": 5387,
  "sha hai ": 5388,
  "kai shi zai ": 5389,
  "yue nan ": 5390,
  "   di fang zi liao ": 5391,
  "qu zhi ": 5392,
  "dian he ": 5393,
  "ya he ": 5394,
  "rong he ": 5395,
  "di yi wei ": 5396,
  " 2014 nian ": 5397,
  "bing yi ": 5398,
  "ling yi ge ": 5399,
  "fei er ": 5400,
  "feng fu ": 5401,
  " nian   ": 5402,
  "wen du ": 5403,
  "   zeng zu ": 5404,
  "yan yu ": 5405,
  "dui ci ": 5406,
  "fang jian ": 5407,
  " tiao ": 5408,
  " zhi yi ": 5409,
  "ping de ": 5410,
  "nuo fu ": 5411,
  " guo qu ": 5412,
  "zi zai ": 5413,
  "ceng wei ": 5414,
  "   i": 5415,
  "chang jian ": 5416,
  "ao zhou ": 5417,
  " wa ": 5418,
  "yin pai ": 5419,
  "gao xiong": 5420,
  " song": 5421,
  "ye ji ": 5422,
  " yi si lan ": 5423,
  "   jie ": 5424,
  "zhou he ": 5425,
  "san jia ": 5426,
  "shen du ": 5427,
  " yi wu ": 5428,
  " nian wei ": 5429,
  "qin wang ": 5430,
  " 0 ": 5431,
  "nv zhu ": 5432,
  "   1 ": 5433,
  "ding shi ": 5434,
  "xiu de ": 5435,
  " zhong da ": 5436,
  " jia zu ": 5437,
  "na cui": 5438,
  "guan li ju ": 5439,
  "hu wei ": 5440,
  "yang xing ": 5441,
  "pei zhi ": 5442,
  "hai ba wei ": 5443,
  "z ": 5444,
  " Co": 5445,
  "ti wei ": 5446,
  " ke xi ": 5447,
  "shan feng ": 5448,
  "ye yi ": 5449,
  " ji hou ": 5450,
  "tong ming ": 5451,
  "dong shi zhang ": 5452,
  " jiu shi ": 5453,
  "zou xiang ": 5454,
  "xiao fang ": 5455,
  "   zheng ": 5456,
  "zai li ": 5457,
  "zhu wei ": 5458,
  "te   ": 5459,
  " you zhong ": 5460,
  "da xi yang ": 5461,
  " xu": 5462,
  "liang da ": 5463,
  "suo cai yong": 5464,
  " bing wei ": 5465,
  " zeng ": 5466,
  "   ying ": 5467,
  " bu duan ": 5468,
  "zhan lve": 5469,
  " shi yi bu ": 5470,
  " xi lie": 5471,
  " da duo shu ": 5472,
  "gai zao ": 5473,
  "neng yuan ": 5474,
  "shou ren ": 5475,
  "er tong ": 5476,
  "19 ": 5477,
  "jun ren ": 5478,
  "ce   ": 5479,
  "gong cheng shi ": 5480,
  "23 nian ": 5481,
  "zhan lan ": 5482,
  "zhi shi qi ": 5483,
  "kao lv": 5484,
  "5 mi ": 5485,
  "han de ": 5486,
  "jie ti ": 5487,
  "gan ran ": 5488,
  "zei": 5489,
  "gu ding ": 5490,
  "meng gu": 5491,
  "ba he ": 5492,
  "man di ": 5493,
  " bu er ": 5494,
  "wen zhong ": 5495,
  " zai you ": 5496,
  "ge ju ": 5497,
  "   jing ": 5498,
  "tai he ": 5499,
  "lun shi ": 5500,
  "le zhe ": 5501,
  " ruo ": 5502,
  " ku": 5503,
  "jun zhong ": 5504,
  " guo nei ": 5505,
  "shang sheng ": 5506,
  "bo lin ": 5507,
  " wei yu gai ": 5508,
  "ge yu ": 5509,
  "jie li ": 5510,
  "mu qian": 5511,
  "jue dui ": 5512,
  "jie zhong ": 5513,
  "hui yi yuan ": 5514,
  "zheng xie": 5515,
  "gong li de ": 5516,
  "kou de ": 5517,
  " shi ye ": 5518,
  " er fei ": 5519,
  "diao kuai": 5520,
  "ai er lan ": 5521,
  "c   ": 5522,
  "dao wei ": 5523,
  "xiao fei ": 5524,
  " fu qin ": 5525,
  "mian dui ": 5526,
  " 187": 5527,
  "qian ding ": 5528,
  "xia ling ": 5529,
  " de yi shu ": 5530,
  " dong nan ": 5531,
  "san wei ": 5532,
  " wei UTC ": 5533,
  "sheng di ": 5534,
  "zhu yi zhe ": 5535,
  "xiong ya li ": 5536,
  "lian he hui ": 5537,
  " 28": 5538,
  "zhou yi ": 5539,
  "san da ": 5540,
  "yan hai ": 5541,
  " cn ": 5542,
  "   jiao tong ": 5543,
  "zhu he ": 5544,
  "wen he ": 5545,
  " er qi ": 5546,
  "zi shen ": 5547,
  "diao kuai yi xiao shi ": 5548,
  " gen ": 5549,
  "   ma ": 5550,
  "cheng you ": 5551,
  "zhang yue ": 5552,
  "chong ji ": 5553,
  "1978 nian ": 5554,
  "guo hui ": 5555,
  "liu xia ": 5556,
  "chuang zao ": 5557,
  "luo shi ": 5558,
  "bian yi ": 5559,
  "lao shi ": 5560,
  " ji UTC ": 5561,
  "pai qian ": 5562,
  "she you xia ling shi jian ": 5563,
  " de shi qu wei UTC ": 5564,
  " er gai di suo cai yong": 5565,
  " tong shi gai di she you xia ling shi jian ": 5566,
  " er gai di suo cai yong de shi qu wei UTC ": 5567,
  "shu ren ": 5568,
  "nan hai ": 5569,
  " ling you ": 5570,
  "jing gao ": 5571,
  "jian li le ": 5572,
  "mi shu zhang ": 5573,
  "ming zhong ": 5574,
  "xiang tong de ": 5575,
  "bing fei ": 5576,
  "lie ru ": 5577,
  "guan he ": 5578,
  "zhang he ": 5579,
  "cai de ": 5580,
  "in ": 5581,
  "bi ye hou ": 5582,
  "gao yu hai ping mian ": 5583,
  "dang ji ": 5584,
  " zhong gong zhong yang ": 5585,
  "ru de ": 5586,
  " qi fu ": 5587,
  "biao ben ": 5588,
  " chi": 5589,
  " sa": 5590,
  " zhong shan ": 5591,
  "gai ming wei ": 5592,
  "qu de mian ji wei ": 5593,
  " qi zhong bao kuo ": 5594,
  "hai ba wei gao yu hai ping mian ": 5595,
  "jin xing de ": 5596,
  "fa zhi ": 5597,
  "mang ": 5598,
  "jing du ": 5599,
  "guan cha": 5600,
  "chang suo ": 5601,
  "tan xian ": 5602,
  "shou xian ": 5603,
  " ge qu ": 5604,
  "zhan yu ": 5605,
  " shi bei ": 5606,
  "bu shi qu ": 5607,
  " zi you ": 5608,
  "fang ji ": 5609,
  "da lou ": 5610,
  "zheng ce": 5611,
  "ban ben": 5612,
  "da yi ": 5613,
  "st ": 5614,
  "...": 5615,
  " yue yi ": 5616,
  " shan xi ": 5617,
  "shang di ": 5618,
  "chao yue ": 5619,
  "qun zhong ": 5620,
  "26 nian ": 5621,
  "al   ": 5622,
  " 2025": 5623,
  " 2015 nian ": 5624,
  "ben ren ": 5625,
  "dou zai ": 5626,
  "ping gu ": 5627,
  "tiao jie ": 5628,
  "yan se ": 5629,
  "zhang fu ": 5630,
  "cun luo ": 5631,
  "st   ": 5632,
  "tu jing ": 5633,
  "yi shi de ": 5634,
  "suo zai di ": 5635,
  "shuang da ": 5636,
  "1972 nian ": 5637,
  "che xiang ": 5638,
  " huo dong ": 5639,
  " luo ma ": 5640,
  "li de ": 5641,
  "deng zhi ": 5642,
  " da lu ": 5643,
  " 24": 5644,
  "dan bai ": 5645,
  " rong ": 5646,
  "gong wei ": 5647,
  "17 ": 5648,
  "gong neng": 5649,
  "suo chu de hai ba wei gao yu hai ping mian ": 5650,
  "chang jing ": 5651,
  "3 hao ": 5652,
  "tui xiu ": 5653,
  "she xian ": 5654,
  "fei er de ": 5655,
  "xiao yu ": 5656,
  " bu xiang ": 5657,
  "   190": 5658,
  "duan shi jian ": 5659,
  "lai si ": 5660,
  "jian kang ": 5661,
  "shen hua ": 5662,
  "luo fa ": 5663,
  " er de ": 5664,
  "ou xiang ": 5665,
  "san ren ": 5666,
  "di xia ": 5667,
  " zai ta ": 5668,
  "hui gui ": 5669,
  " er bu shi ": 5670,
  "ti xing ": 5671,
  "yin xiang ": 5672,
  "cai neng ": 5673,
  " de ji lu ": 5674,
  "   an ": 5675,
  "le de ": 5676,
  "yan ren ": 5677,
  "da bu fen": 5678,
  " shuo ": 5679,
  "yan he ": 5680,
  "ction   ": 5681,
  "qu zhu ": 5682,
  " mei yuan ": 5683,
  "yin yu ": 5684,
  "luo yu ": 5685,
  "ju le ": 5686,
  "na xie ": 5687,
  " Y": 5688,
  "zu qiu dui ": 5689,
  "   4": 5690,
  "mian yi ": 5691,
  "shuai ling ": 5692,
  " qi xuan ": 5693,
  "zai yi qi ": 5694,
  "   2 ": 5695,
  "xuan zhong ": 5696,
  "1979 nian ": 5697,
  "bo lan": 5698,
  "ke neng hui ": 5699,
  "qian yue ": 5700,
  "yan zhong de ": 5701,
  "yong le ": 5702,
  " lu wa": 5703,
  " Mi": 5704,
  " yi sheng ": 5705,
  " he dao ": 5706,
  "zu cheng": 5707,
  " wan li ": 5708,
  "can xuan ": 5709,
  "kong xi ": 5710,
  " zhong dian ": 5711,
  " sui shi ": 5712,
  "   di yi ": 5713,
  " nian shi jie ": 5714,
  "hu xiang ": 5715,
  "quan yi ": 5716,
  "se fu ": 5717,
  "fu xing ": 5718,
  "chang shang ": 5719,
  "lian luo ": 5720,
  "zhou li ": 5721,
  "qing jie ": 5722,
  "9 ren ": 5723,
  "dan shi ": 5724,
  " 2016 nian ": 5725,
  "tu ji ": 5726,
  "1958 nian ": 5727,
  "ti gong le ": 5728,
  "que shi ": 5729,
  "bei fang ": 5730,
  "dai ling ": 5731,
  "kai de ": 5732,
  "bei si ": 5733,
  "guan yi ": 5734,
  "mu er ": 5735,
  "17 nian ": 5736,
  "hua jia ": 5737,
  " ma lai": 5738,
  " 2007": 5739,
  " 7 ": 5740,
  " chao xian ": 5741,
  "shu bu ": 5742,
  "fa yi ": 5743,
  "ding li ": 5744,
  "60 ": 5745,
  "xian zhu ": 5746,
  "dui ying ": 5747,
  "zhen qu de mian ji wei ": 5748,
  " 2023": 5749,
  "   mei ": 5750,
  "23 ": 5751,
  " zhi shu ": 5752,
  "zi chan ": 5753,
  "fa sheng zai ": 5754,
  "1 ge ": 5755,
  "zhong yi yuan ": 5756,
  "nei di ": 5757,
  "he liu ": 5758,
  "ceng de ": 5759,
  "di qu de ": 5760,
  "zheng bian ": 5761,
  "mian fei ": 5762,
  "u ": 5763,
  "eri": 5764,
  "di wu ": 5765,
  "zui duo ": 5766,
  "zhuan men ": 5767,
  "zu qiu ju le bu ": 5768,
  "   2008": 5769,
  "qian xi ": 5770,
  "kao shi ": 5771,
  "ge guo ": 5772,
  "bao luo ": 5773,
  "su ge lan ": 5774,
  " shou dao ": 5775,
  "ti he ": 5776,
  "shang ji ": 5777,
  "yan ji ": 5778,
  "bing yu ": 5779,
  "she zai ": 5780,
  "zi xun": 5781,
  "guan ce ": 5782,
  "mu si lin ": 5783,
  "ru wei ": 5784,
  "ka la ": 5785,
  " yuan ming ": 5786,
  "shen yi ": 5787,
  "she ji shi ": 5788,
  " shou ci ": 5789,
  " 2 yue ": 5790,
  "san bu ": 5791,
  "zhong yao": 5792,
  "bao cun ": 5793,
  "tian hou ": 5794,
  "   yan ": 5795,
  " yu xi ": 5796,
  "wu guan ": 5797,
  "   xing ": 5798,
  " bu la ": 5799,
  "fei yan ": 5800,
  "zao shang ": 5801,
  "zhong guo da lu ": 5802,
  "k   ": 5803,
  "onal": 5804,
  "ll ": 5805,
  "16 nian ": 5806,
  "mian dian ": 5807,
  "geng xin ": 5808,
  "qing ren ": 5809,
  "1976 nian ": 5810,
  "   ran": 5811,
  "chu wei ": 5812,
  "ping guo ": 5813,
  "tui jian ": 5814,
  "liao de ": 5815,
  "cu ": 5816,
  "quan xian ": 5817,
  "gao shi ": 5818,
  "chai ": 5819,
  "guo nei ": 5820,
  "chuan tong de ": 5821,
  " bei cheng wei ": 5822,
  "1960 nian ": 5823,
  "ju feng ": 5824,
  "wan zheng ": 5825,
  "shou quan ": 5826,
  " xiang guan ": 5827,
  "zhu zhong ": 5828,
  "shu zai ": 5829,
  "lang zhong ": 5830,
  "tong xun ": 5831,
  "hua zai ": 5832,
  "bian jing ": 5833,
  "shan xian ": 5834,
  "jue yu ": 5835,
  "00 ": 5836,
  "miao hui ": 5837,
  "yuan xian ": 5838,
  "xie zuo ": 5839,
  " kan": 5840,
  "fu zhu ": 5841,
  "zan zhu ": 5842,
  " di di ": 5843,
  "tu shu ": 5844,
  "lli": 5845,
  " shao": 5846,
  "cheng zai ": 5847,
  "mu yu ": 5848,
  "gui mo": 5849,
  "ju zai ": 5850,
  "ba si ": 5851,
  "pian zhong ": 5852,
  "ge la ": 5853,
  "fa ming ": 5854,
  " di qiu ": 5855,
  "luo shan ji ": 5856,
  "che chang ": 5857,
  " peng": 5858,
  " 2019 nian ": 5859,
  "li zi ": 5860,
  "feng de ": 5861,
  "ve ": 5862,
  "YouTu": 5863,
  " zhong xing ": 5864,
  "pi zhun": 5865,
  "pp": 5866,
  " 50": 5867,
  "   gong ": 5868,
  " shi jia ": 5869,
  " zhi wai ": 5870,
  " li cheng ": 5871,
  "   of   ": 5872,
  "ba da ": 5873,
  "tun ": 5874,
  "xing mu ": 5875,
  "xian ru ": 5876,
  "jin ri ": 5877,
  "qu jian ": 5878,
  "zhang zhuan ji ": 5879,
  " zui gao ": 5880,
  " lv": 5881,
  "xing zai ": 5882,
  "xue zhong ": 5883,
  " nian lai ": 5884,
  " bi sai ": 5885,
  " nuo ": 5886,
  "yin yue": 5887,
  "zhou ren ": 5888,
  "ping lun": 5889,
  "jiang yi ": 5890,
  " shan dong ": 5891,
  "guo min dang ": 5892,
  " hei": 5893,
  " 26": 5894,
  " xiao shi ": 5895,
  " jue ding ": 5896,
  "liang he ": 5897,
  "bian zhi ": 5898,
  "jiu yuan ": 5899,
  "   ren ": 5900,
  "chu zhang ": 5901,
  " de shi yong ": 5902,
  " ci nian ": 5903,
  "gai zhi wei ": 5904,
  " li liang ": 5905,
  " you zai ": 5906,
  "luo li da ": 5907,
  "lin si ": 5908,
  " shi ta ": 5909,
  " yu bei ": 5910,
  "ju ben ": 5911,
  "jiao du ": 5912,
  "tian zhu ": 5913,
  "zao cheng de ": 5914,
  " 2017 nian ": 5915,
  "xiao ying ": 5916,
  "gra": 5917,
  "ao er ": 5918,
  "shou bo ": 5919,
  "su li ": 5920,
  " shi jian zhu ": 5921,
  "ban ji ": 5922,
  "1920 nian ": 5923,
  "shang xian ": 5924,
  "zhang zi ": 5925,
  "hu lian ": 5926,
  " 2018 nian ": 5927,
  "   dong ": 5928,
  "di qi ": 5929,
  " huo shi ": 5930,
  " i": 5931,
  "fu shu ": 5932,
  "zhan mu si ": 5933,
  "ai li ": 5934,
  " tang": 5935,
  " lian he ": 5936,
  "yun de ": 5937,
  "lie shi ": 5938,
  "tou xian ": 5939,
  "lu zhan ": 5940,
  " hou zhe ": 5941,
  "ji   ": 5942,
  "   ge ren ": 5943,
  "ding ji ": 5944,
  " wei bei ": 5945,
  "yun yong ": 5946,
  "ma shi ": 5947,
  "col": 5948,
  "na xia ": 5949,
  "   nan ": 5950,
  "huai yi ": 5951,
  " pu tao ": 5952,
  "   dui ": 5953,
  "xia zai ": 5954,
  "xu ji ": 5955,
  " yi dong ": 5956,
  " wei yu zhong guo ": 5957,
  "   ba ": 5958,
  "chu zhong ": 5959,
  "guan ji ": 5960,
  "mi ni ": 5961,
  " ying wen ": 5962,
  " sang": 5963,
  "can yi ": 5964,
  " di ya ": 5965,
  "huo che ": 5966,
  "qiang du ": 5967,
  "yao shi ": 5968,
  "bao hu": 5969,
  "lei si de ": 5970,
  " ai er ": 5971,
  "shao de ": 5972,
  "xin guan ": 5973,
  "huo bi ": 5974,
  " shuang": 5975,
  "zha dan ": 5976,
  "jiao cha ": 5977,
  "ba er ": 5978,
  " zhi bu ": 5979,
  "ju ban de ": 5980,
  "xue ke ": 5981,
  "chuan mei ": 5982,
  " gai bian ": 5983,
  "can ting ": 5984,
  " za zhi ": 5985,
  "dao zai ": 5986,
  "dui zhong ": 5987,
  " nian di ": 5988,
  "bing du ": 5989,
  "xing zheng qu ": 5990,
  " xu yao ": 5991,
  " zu zhi ": 5992,
  "ch ": 5993,
  " shi cheng ": 5994,
  "xi nan bu ": 5995,
  "zui zao": 5996,
  "tai hou ": 5997,
  " ming zhi ": 5998,
  "xin jia po": 5999,
  "wu yue ": 6000,
  "zheng ji ": 6001,
  "luo yi ": 6002,
  "fa xian de ": 6003,
  "ti chu de ": 6004,
  " shi yi ke ": 6005,
  " xin wen ": 6006,
  "gan yu ": 6007,
  " 35": 6008,
  " kou ": 6009,
  " 30 ": 6010,
  "fa li ": 6011,
  " da bu fen": 6012,
  "zhuan xie ": 6013,
  " yang": 6014,
  "   2009": 6015,
  "zong yi ": 6016,
  "ju ban": 6017,
  "tai kong ": 6018,
  " 2006": 6019,
  "xi you ": 6020,
  "chu guo ": 6021,
  "xue li ": 6022,
  "zhe he ": 6023,
  "bai yu ": 6024,
  "pin de ": 6025,
  " shi er ": 6026,
  "jue sai": 6027,
  " shi shi yong ": 6028,
  "zong ren kou ": 6029,
  "te qu ": 6030,
  "sui ran": 6031,
  " lun ": 6032,
  "   10": 6033,
  "dai yi ": 6034,
  " bing bei ": 6035,
  " hang ": 6036,
  "zhu dao ": 6037,
  "xiang fa ": 6038,
  " xi yin ": 6039,
  "qing zhu ": 6040,
  "jiang li ": 6041,
  "mei jun ": 6042,
  "   hou ": 6043,
  "xue ji ": 6044,
  "al ": 6045,
  " di zai ": 6046,
  "tong xin ": 6047,
  " chun ": 6048,
  " 2004 nian ": 6049,
  "shang wang ": 6050,
  "ba de ": 6051,
  " nian qian ": 6052,
  "jin rong": 6053,
  "jiao huan ": 6054,
  "wu zheng zhuang gan ran zhe ": 6055,
  " yan jiu ": 6056,
  " 2021 nian ": 6057,
  "xing shi de ": 6058,
  "su zhi ": 6059,
  "tou de ": 6060,
  "fu mu ": 6061,
  "he   ": 6062,
  "mi si ": 6063,
  "te ji ": 6064,
  "cheng le ": 6065,
  "she jiao ": 6066,
  "duan pian ": 6067,
  " ma li ": 6068,
  " chu ban ": 6069,
  "a gen ": 6070,
  "sui zhe ": 6071,
  "xin jian ": 6072,
  "shen yu ": 6073,
  "ve   ": 6074,
  "ge zi ": 6075,
  " de yi yuan ": 6076,
  "ju zhi ": 6077,
  "dui ji ": 6078,
  "dian wei ": 6079,
  "min yi ": 6080,
  "1968 nian ": 6081,
  "qi zhong ": 6082,
  "zu jie ": 6083,
  " shi ren min ": 6084,
  "xian zhi xian ": 6085,
  " 29": 6086,
  "   liu ": 6087,
  "xian li ": 6088,
  "ta yi ": 6089,
  "che di ": 6090,
  "fang mian": 6091,
  "min zu": 6092,
  " shui": 6093,
  "shou bu ": 6094,
  "chuan qi ": 6095,
  "1964 nian ": 6096,
  "fa sheng": 6097,
  "gu la ": 6098,
  "huang se ": 6099,
  "   tian ": 6100,
  "dang nian ": 6101,
  "1956 nian ": 6102,
  "bi xu": 6103,
  "yong zai ": 6104,
  "te he ": 6105,
  " de hua ": 6106,
  "da xiao ": 6107,
  "zheng qu ": 6108,
  "huo sheng ": 6109,
  "te dian ": 6110,
  " ta he ": 6111,
  "   shi yong ": 6112,
  " 2020 nian ": 6113,
  "du guo ": 6114,
  "zhang zhi ": 6115,
  "zan shi ": 6116,
  " mao": 6117,
  "qi lai ": 6118,
  "xi bei bu ": 6119,
  "si da ": 6120,
  " shun": 6121,
  "zui di ": 6122,
  "lin jin ": 6123,
  "le yuan ": 6124,
  "luo cheng ": 6125,
  "zui zao ": 6126,
  "yun dong de ": 6127,
  "bang qiu ": 6128,
  "bu de cun zhuang ": 6129,
  " huan": 6130,
  "gao du wei ": 6131,
  " you zhu ": 6132,
  "lai yu ": 6133,
  "chang bi sai ": 6134,
  "gang kou ": 6135,
  "xun lian": 6136,
  "gong yuan qian ": 6137,
  " ge": 6138,
  "ci di ": 6139,
  "cheng jiu ": 6140,
  "xin jiang ": 6141,
  "gong zuo shi ": 6142,
  "an zhi ": 6143,
  "dan da ": 6144,
  "wu di ": 6145,
  " wei yi ": 6146,
  "yong ji ": 6147,
  " gong ye ": 6148,
  " shuang fang ": 6149,
  "qi che ": 6150,
  "ling chen ": 6151,
  "1980 nian dai ": 6152,
  "xian cheng ": 6153,
  "fa ting ": 6154,
  "e de ": 6155,
  " 27": 6156,
  " shi hou ": 6157,
  "zhong hua min guo ": 6158,
  "shan mai ": 6159,
  " de yi xie ": 6160,
  "chu ban she ": 6161,
  "jing nei gong you ": 6162,
  " Q": 6163,
  "xian zhong ": 6164,
  "sheng dao ": 6165,
  "hui wei ": 6167,
  "xian shang ": 6168,
  "jiang shu ": 6169,
  "san ming ": 6170,
  "dao you ": 6171,
  "hou ji ": 6172,
  "han zi ": 6173,
  " yi gong ": 6174,
  "xin jie ": 6175,
  " xiang mu ": 6176,
  " ge shou ": 6177,
  " Jo": 6178,
  "xiao li yu ": 6179,
  "hai zai ": 6180,
  "qi hou ": 6181,
  " jia la ": 6182,
  "le zhong ": 6183,
  "lie chu ": 6184,
  "cheng zhi wei ": 6185,
  "san zhong ": 6186,
  "xiu dao ": 6187,
  " hen ": 6188,
  " da jia ": 6189,
  "qian jin ": 6190,
  " he liu ": 6191,
  "da di ": 6192,
  "lai yin ": 6193,
  "zan ting ": 6194,
  "bi li shi ": 6195,
  "bai ke ": 6196,
  " yi bian ": 6197,
  " zhao he ": 6198,
  "w   ": 6199,
  "ruan ti ": 6200,
  "th ": 6201,
  "jian du ": 6202,
  "ye fu ": 6203,
  " ta you ": 6204,
  " er gai di de ": 6205,
  "   dao ": 6206,
  "tong he ": 6207,
  " da jiang ": 6208,
  " dan yin ": 6209,
  "jin yu ": 6210,
  "fen qi ": 6211,
  "dui he ": 6212,
  "huo zai ": 6213,
  "qian ting ": 6214,
  " tong yi ": 6215,
  " liang ge ": 6216,
  "ti dai ": 6217,
  "   gai yao ": 6218,
  " bu dao ": 6219,
  "xiang ying ": 6220,
  " wei fu qi yu gang": 6221,
  "ao de ": 6222,
  "dui di ": 6223,
  "ya ren ": 6224,
  "1990 nian dai ": 6225,
  "cheng qu ": 6226,
  "jing guan ": 6227,
  "wang wang ": 6228,
  " ta men zai ": 6229,
  "fa ji ": 6230,
  "tan he ": 6231,
  "fa dong ji ": 6232,
  " dian shi ": 6233,
  "an li ": 6234,
  "que bao ": 6235,
  "ma tou ": 6236,
  " zui chu ": 6237,
  " cai yong ": 6238,
  "xing you ": 6239,
  "qun ti ": 6240,
  "1970 nian ": 6241,
  " qi bing ": 6242,
  "bian yuan ": 6243,
  " X": 6244,
  "dan yi ": 6245,
  "bu men ": 6246,
  "chuo": 6247,
  "yun he ": 6248,
  "na he ": 6249,
  "pin zhong ": 6250,
  "1981 nian ": 6251,
  " li li ": 6252,
  "fu hao ": 6253,
  "ping yuan ": 6254,
  " de shi ji ": 6255,
  "wan li ": 6256,
  "shu chu ": 6257,
  " ce ": 6258,
  " jin shi ": 6259,
  "chang ji ": 6260,
  "jiu zai ": 6261,
  "kuo jian ": 6262,
  " ta ren wei ": 6263,
  "dian shi jie ": 6264,
  "si lan ": 6265,
  "ye ke yi ": 6266,
  "fen pei ": 6267,
  "   jia ting ": 6268,
  " yue dui ": 6269,
  " xi tong de ": 6270,
  "ju yuan ": 6271,
  "gui fan ": 6272,
  " neng ": 6273,
  " 2002 nian ": 6274,
  "1948 nian ": 6275,
  "fu za": 6276,
  "she ding ": 6277,
  "can shu ": 6278,
  "chuang zuo de ": 6279,
  "pei bei ": 6280,
  "wu shu ": 6281,
  "le yi xie ": 6282,
  "bei jing": 6283,
  "tui guang ": 6284,
  "da shi guan ": 6285,
  "ri ben de ": 6286,
  "qu fen ": 6287,
  "jiao tang": 6288,
  "sui ran ": 6289,
  "sen lin": 6290,
  "e guo ": 6291,
  " Ro": 6292,
  "   shou ": 6293,
  "ma ke si ": 6294,
  "qiu shi ": 6295,
  "jie duan": 6296,
  " zhong guo ren min jie fang jun ": 6297,
  "D   ": 6298,
  "xuan shi ": 6299,
  "1952 nian ": 6300,
  "wu zhuang": 6301,
  "qian shen ": 6302,
  "sai er wei ": 6303,
  "geng duo de ": 6304,
  " xian wei ": 6305,
  " 40": 6306,
  " Re": 6307,
  "la wei ": 6308,
  "chang du ": 6309,
  "tie lu che zhan ": 6310,
  " zhong jian ": 6311,
  "bei da ": 6312,
  "ya mu ": 6313,
  "duo er ": 6314,
  " qi zhong": 6315,
  "zhong bu ": 6316,
  " you liang ": 6317,
  "deng yu ": 6318,
  " li fu ": 6319,
  " qi he ": 6320,
  "shang zhen ": 6321,
  "bao han": 6322,
  "ye jian ": 6323,
  "dui fang ": 6324,
  " nong ": 6325,
  " zhuan ji ": 6326,
  "   wang ": 6327,
  "le di ": 6328,
  "dou bei ": 6329,
  " bu si ": 6330,
  "chu zi ": 6331,
  "ye sheng ya ": 6332,
  "5 ge ": 6333,
  "wang wei ": 6334,
  "mai de ": 6335,
  "cheng wei yi ": 6336,
  "yan jing ": 6337,
  "ze dong ": 6338,
  "zhang ji ": 6339,
  "ceng shi ": 6340,
  "ban jiang ": 6341,
  "deng chang ": 6342,
  "bu de bu ": 6343,
  " zai nei de ": 6344,
  "tu xiang ": 6345,
  " sun ": 6346,
  "an ji ": 6347,
  "shan di ": 6348,
  " yi mei ": 6349,
  "qing chao ": 6350,
  "ste": 6351,
  "wen ji ": 6352,
  "tou bu ": 6353,
  "cong wei ": 6354,
  "ke yun ": 6355,
  "zu fu ": 6356,
  " gong qing ": 6357,
  "jun bu ": 6358,
  "huang jin ": 6359,
  "ye sheng ": 6360,
  "te la ": 6361,
  "su lian": 6362,
  " 8 ": 6363,
  "ze yu ": 6364,
  "kai gong ": 6365,
  " jie shu ": 6366,
  "lv se ": 6367,
  "YouTube": 6368,
  "xing li ": 6369,
  "hao you ": 6370,
  "100 ": 6371,
  "zhe yang ": 6372,
  "ban yan ": 6373,
  "bei li ": 6374,
  "du ji ": 6375,
  "nan si ": 6376,
  " tao": 6377,
  " 45": 6378,
  "1975 nian ": 6379,
  "zhu ce ": 6380,
  "xie shang ": 6381,
  "chi xu": 6382,
  " shi shi shang ": 6383,
  " cun ": 6384,
  "   193": 6385,
  "shen ke ": 6386,
  "chen ji ": 6387,
  "1946 nian ": 6388,
  "1966 nian ": 6389,
  "ri bao ": 6390,
  "dang tian ": 6391,
  " zi yuan ": 6392,
  "zhe zhi ": 6393,
  "che shi ": 6394,
  " zai he ": 6395,
  " xi an ": 6396,
  "a la bo": 6397,
  "jin qu ": 6398,
  "fen zhi yi ": 6399,
  "xiao jie ": 6400,
  "che dui ": 6401,
  " de ji hua ": 6402,
  " tun": 6403,
  "qu you ": 6404,
  "quan ji ": 6405,
  "zhuan wei ": 6406,
  "é ": 6407,
  "lu shang ": 6408,
  "shen me ": 6409,
  " fu ze guan xia ": 6410,
  "mu he ": 6411,
  "deng shi ": 6412,
  "wai wei ": 6413,
  "dong xian ": 6414,
  "se lie": 6415,
  " shi shi ji ": 6416,
  "sha de ": 6418,
  "wei yuan ": 6419,
  " qi dong ": 6420,
  "bai wan ": 6421,
  "dui zhi ": 6422,
  " yi qian ": 6423,
  "xiang qi ": 6424,
  "hao ping ": 6425,
  "mp": 6426,
  "   cheng ": 6427,
  "bao he ": 6428,
  "fu er ": 6429,
  "zheng shu ": 6430,
  "shou shu ": 6431,
  "fan ying": 6432,
  " fen bie ": 6433,
  " guang": 6434,
  "ss ": 6435,
  "xuan cheng ": 6436,
  "zong jian ": 6437,
  "   gu ": 6438,
  "bing zai ": 6439,
  " zhong qi ": 6440,
  "mian ti ": 6441,
  "dai biao tuan ": 6442,
  "fei lv bin": 6443,
  " wa": 6444,
  " qi xi zai ": 6445,
  "xiao liang ": 6446,
  "qu zhong ": 6447,
  "hang ye ": 6448,
  "te lei ": 6449,
  " bao hu ": 6450,
  "ir": 6451,
  "   de": 6452,
  "biao ji ": 6453,
  "lie si ": 6454,
  "yuan ben ": 6455,
  "lai na ": 6456,
  "can jia": 6457,
  " section   ": 6458,
  "   zhang ": 6459,
  "zhan wei yu ": 6460,
  "feng shi ": 6461,
  " yi nian": 6462,
  " ge lei ": 6463,
  " bing bu ": 6464,
  "   ran er ": 6465,
  "lu he ": 6466,
  "zong zhi ": 6467,
  " yu 19": 6468,
  "chu xian de ": 6469,
  "hai shang ": 6470,
  "chang da ": 6471,
  "jiang you ": 6472,
  "bai zhi ": 6473,
  "niao lei ": 6474,
  " yi ke ": 6475,
  "fen si ": 6476,
  "tu chu ": 6477,
  " gong kai ": 6478,
  "zhan you ": 6479,
  "duo shi ": 6480,
  " qi zhong nan xing ": 6481,
  " jiang su ": 6482,
  " pi": 6483,
  "   guang ": 6484,
  "liang bu ": 6485,
  "hai di ": 6486,
  "ni xi ya ": 6487,
  "1947 nian ": 6488,
  "jin zhan ": 6489,
  "bao zha": 6490,
  " si da ": 6491,
  "xie wei ": 6492,
  "gong da ": 6493,
  "mo ni ": 6494,
  "shao nv ": 6495,
  "zhong guo ren min ": 6496,
  " jian li ": 6497,
  "bi er ": 6498,
  "zhang yi ": 6499,
  "dai yu ": 6500,
  "yan an ": 6501,
  "shen zhen ": 6502,
  "pu tao ya ": 6503,
  "xing dong": 6504,
  "ge bu ": 6505,
  "   gen ju 2020 nian mei guo ren kou pu cha de shu ju ": 6506,
  "� ": 6507,
  "ju wei ": 6508,
  "hou zhi ": 6509,
  "lu yi si ": 6510,
  "xia di qu ": 6511,
  "ding xing ": 6512,
  "tion   ": 6513,
  "chang jiang ": 6514,
  " lian jie ": 6515,
  "zai yi ge ": 6517,
  "zhan wei ": 6518,
  " guo wu yuan ": 6519,
  "dao dan ": 6520,
  "lai zi yu ": 6521,
  "fei yong ": 6522,
  " liu yu ": 6523,
  " fou": 6524,
  "   jing ji ": 6525,
  "da duo ": 6526,
  "fu zhou ": 6527,
  "xiao xiang ": 6528,
  "   2019 nian ": 6529,
  "gong yue ": 6530,
  "jiao di ": 6531,
  "zheng mian ": 6532,
  "fa he ": 6533,
  "ha li ": 6534,
  "1937 nian ": 6535,
  " you suo ": 6536,
  "gong kai sai ": 6537,
  " 2000 nian ": 6538,
  "zu ren ": 6539,
  "tian jia ": 6540,
  "qiong ": 6541,
  " shi xi ": 6542,
  " guo jia de ": 6543,
  "zi ben ": 6544,
  " jin shu ": 6545,
  "kuo zhang ": 6546,
  "AN": 6547,
  "   The": 6548,
  "dang zai ": 6549,
  " 2005": 6550,
  "hou bu ": 6551,
  " shi bu ": 6552,
  "xue ye ": 6553,
  "yuan zhu min ": 6554,
  "ke er ": 6555,
  "bei po ": 6556,
  " wei yuan hui wei yuan ": 6557,
  " 200": 6558,
  " 2024": 6559,
  "shu de zhi wu ": 6560,
  "bei yue ": 6561,
  "wang ji ": 6562,
  "yang he ": 6563,
  "cha shi ": 6564,
  "1954 nian ": 6565,
  " zai bu ": 6566,
  "le dui ": 6567,
  "yan jiang ": 6568,
  "tai nan ": 6569,
  "xuan ju zhong ": 6570,
  " B ": 6571,
  "   0": 6572,
  "huo li ": 6573,
  "shui de ": 6574,
  "gan xian ": 6575,
  " nian qing ": 6576,
  "ju min": 6577,
  " shi yi zuo ": 6578,
  " SA": 6579,
  " zui jia ": 6580,
  "zhan shu ": 6581,
  " shi de shi ": 6582,
  "   qi zhong ": 6583,
  " In": 6584,
  "lai ke ": 6585,
  "chu chang ": 6586,
  "zhe yang de ": 6587,
  "cheng li hou ": 6588,
  " ji jin hui ": 6589,
  "nan ji zhou de ": 6590,
  "gu fen you xian gong si ": 6591,
  " sai": 6592,
  "gan de ": 6593,
  "wo er ": 6594,
  "gu dian ": 6595,
  "ri yi ": 6596,
  "jian kang": 6597,
  "hui da ": 6598,
  "wen ti de ": 6599,
  "mei guo": 6600,
  "zong cai ": 6601,
  " wei fu qi yu gang ": 6602,
  "ta ren ": 6603,
  "duo li ya ": 6604,
  "da gui mo ": 6605,
  "gong an ": 6606,
  " guo gong ": 6607,
  " hant ": 6608,
  "nuo yi ": 6609,
  "ke luo ": 6610,
  "re dai feng bao ": 6611,
  " kao ": 6612,
  "ing ": 6613,
  "hu xi ": 6614,
  "ri yu ": 6615,
  "zuo zhi ": 6616,
  "shuai ling": 6617,
  "1974 nian ": 6618,
  " ta ji ": 6619,
  "can kao": 6620,
  " S ": 6621,
  " niu ": 6622,
  "   zhu yao ": 6623,
  "bie de ": 6624,
  " yu di ": 6625,
  "xin tai ": 6626,
  "men shi ": 6627,
  " zhong wen ": 6628,
  "gong jiao ": 6629,
  "zhu ban ": 6630,
  " di tu ": 6631,
  "xuan chu ": 6632,
  " shi yi zhi ": 6633,
  "cun zai de ": 6634,
  " qian wang ": 6635,
  " he qi ta ": 6636,
  "zuo fa ": 6637,
  " da er ": 6638,
  "na sheng ": 6639,
  "zhuan yong ": 6640,
  "hang tian ": 6641,
  "ru yi ": 6642,
  "mei guo ren ": 6643,
  "xian de yi ge fei jian zhi di qu ": 6644,
  " 2022 nian ": 6645,
  "ya zhong ": 6646,
  " zhi shao ": 6647,
  "fang mi ": 6648,
  " bao": 6649,
  " lei": 6650,
  "   fan ": 6651,
  "xue bu ": 6652,
  "qun de ": 6653,
  " shi fa ": 6654,
  "you yi xie ": 6655,
  " ling wai": 6656,
  "mei shi ": 6657,
  "ban ren ": 6658,
  "ding zai ": 6659,
  " zhi jing ": 6660,
  "lu wa": 6661,
  "liang zi ": 6662,
  "lan yu ": 6663,
  "ck ": 6664,
  "dui kang ": 6665,
  "e wei ": 6666,
  "rao tai yang ": 6667,
  "1955 nian ": 6668,
  "ci qu ": 6669,
  "ma lai ": 6670,
  " nian yi lai ": 6671,
  " dun ": 6672,
  "shang wei you ": 6673,
  "jiu you ": 6674,
  " xing jian ": 6675,
  "xie ding ": 6676,
  " luo": 6677,
  " 2003 nian ": 6678,
  "ge zai ": 6679,
  "ying er ": 6680,
  "niang ": 6681,
  " tou guo ": 6682,
  "   16": 6683,
  " yue he ": 6684,
  "du hui ": 6685,
  "chuan guo ": 6686,
  "wu ge ": 6687,
  "san ci ": 6688,
  " zhe yang ": 6689,
  "cro": 6690,
  " yong": 6691,
  "   2007": 6692,
  "shang he ": 6693,
  "II ": 6694,
  "zong hui ": 6695,
  " fa zhan ": 6696,
  "   3 yue ": 6697,
  "bo jue ": 6698,
  " xin zeng ": 6699,
  "guo jia dui ": 6700,
  " guan fang ": 6701,
  "   qi hou ": 6702,
  "jiao jie ": 6703,
  " shi yong le ": 6704,
  "hai ba gao du wei ": 6705,
  "guang de ": 6706,
  "gong jue ": 6707,
  "lei xing de ": 6708,
  " dang shi de ": 6709,
  "jiao yu bu ": 6710,
  "wu you ": 6711,
  "xing zheng": 6712,
  "wen ti": 6713,
  " fu qin": 6714,
  " jin ru": 6715,
  " dan qi ": 6716,
  "   jiang ": 6717,
  "ta he ": 6718,
  "wai xing ": 6719,
  "gen sui ": 6720,
  " di liu ": 6721,
  "yan lun ": 6722,
  " si ta ": 6723,
  " ren min bi ": 6724,
  "fen bie wei ": 6725,
  "jin zai ": 6726,
  "wang zhi ": 6727,
  " dao yan ": 6728,
  "nong cun": 6729,
  " ou zhou ": 6730,
  " yi da ": 6731,
  "dai ma ": 6732,
  "she ying ": 6733,
  "lian sai": 6734,
  "gao xiao ": 6735,
  "jian zhu wu ": 6736,
  "v ": 6737,
  "wang yu ": 6738,
  "zhan chang ": 6739,
  "xuan ju": 6740,
  " de ji hui ": 6741,
  "qiao liang ": 6742,
  "a fu ": 6743,
  "   luo ": 6744,
  "   yue ": 6745,
  "   ping jia ": 6746,
  "fen ji ": 6747,
  " di dian ": 6748,
  "jing sai ": 6749,
  " dan wei ": 6750,
  "xun yang jian ": 6751,
  "W ": 6752,
  "tuan jie ": 6753,
  "song dao ": 6754,
  " shi bing ": 6755,
  "guo cheng ": 6756,
  "shu mu ": 6757,
  "shou fa ": 6758,
  "fen jie ": 6759,
  "quan shu ": 6760,
  " de yi mei ": 6761,
  " shi yi da li ": 6762,
  "bei he ": 6763,
  " yi wai ": 6764,
  " ke luo ": 6765,
  "zui zao de ": 6766,
  "ceng shui yu ": 6767,
  "   fa ": 6768,
  "guai ": 6769,
  " yi chan ": 6770,
  "shou duan ": 6771,
  "duan zan": 6772,
  "xia yi xia di qu ": 6773,
  "ying xiang li ": 6774,
  "   chu le ": 6775,
  "guo shi qi ": 6776,
  "pu li ": 6777,
  " yi he ": 6778,
  "ping jie ": 6779,
  "xun zhao ": 6780,
  "zhuan de xiao xing xing ": 6781,
  "fa wei ": 6782,
  "xin zhong ": 6783,
  " yi xiang ": 6784,
  "jia meng ": 6785,
  "jiang bei ": 6786,
  " jiang qi ": 6787,
  "guo ji ji chang ": 6788,
  "hua er ": 6789,
  "guo wu yuan ": 6790,
  "wu zhong de ": 6791,
  "ju da de ": 6792,
  "wang zi ": 6793,
  " ping tai ": 6794,
  " chao": 6795,
  " fen zhong ": 6796,
  " cheng li yu ": 6797,
  "wang si ": 6798,
  " de shi wu ": 6799,
  "pin lv ": 6800,
  "zhe jiang sheng ": 6801,
  "   5 yue ": 6802,
  "ru yu ": 6803,
  " li gong ": 6804,
  "ti chu le ": 6805,
  "zheng shi qi ": 6806,
  "zheng qi ": 6807,
  "zhe yu ": 6808,
  "huang shi ": 6809,
  "2026": 6810,
  " yi er ": 6811,
  "wang shang ": 6812,
  " zi ji ": 6813,
  "ya zhi ": 6814,
  " ji xing ": 6815,
  " zai jin ": 6816,
  "ming ju ren ": 6817,
  "zu xie ": 6818,
  "guang fan": 6819,
  "shan dong sheng ": 6820,
  " shen": 6821,
  "1977 nian ": 6822,
  "qian hou ": 6823,
  "yao gun": 6824,
  "a li ": 6825,
  " min": 6826,
  " ke li ": 6827,
  "gao di ": 6828,
  "30 nian ": 6829,
  " shi ba ": 6830,
  "yin yong ": 6831,
  "an zhuang": 6832,
  "f   ": 6833,
  " chu ren ": 6834,
  "sheng bu ": 6835,
  "xiao you ": 6836,
  "song de ": 6837,
  " nian ling ": 6838,
  "huo yun ": 6839,
  " ri you ": 6840,
  " huai": 6841,
  "la er ": 6842,
  "xian zhang ": 6843,
  "fa sheng de ": 6844,
  "bao zha ": 6845,
  "lian tong ": 6846,
  " san shi ": 6847,
  " shi ji de ": 6848,
  "ping min ": 6849,
  "zhuang kuang": 6850,
  "zeng qiang ": 6851,
  "ping jun hai ba gao du wei ": 6852,
  "du du ": 6853,
  "xun qiu ": 6854,
  "li lun ": 6855,
  "zao shou ": 6856,
  "shao jiang ": 6857,
  "6 ge ": 6858,
  "oun": 6859,
  "si you ": 6860,
  "zhan zai ": 6861,
  "yang zhi ": 6862,
  "dan shui ": 6863,
  "yang xian ": 6864,
  "nei zhan ": 6865,
  "   shen ": 6866,
  "yin zhong zai ": 6867,
  "tai er ": 6868,
  "ru shi ": 6869,
  "shuo de ": 6870,
  "ty ": 6871,
  "gu fen ": 6872,
  " zhe ci ": 6873,
  "gan su ": 6874,
  "tui chu de ": 6875,
  " nian qi jian ": 6876,
  " er gai di de ping jun hai ba gao du wei ": 6877,
  "go": 6878,
  "da zai ": 6879,
  "shun shi ": 6880,
  " li xue ": 6881,
  "shang dian ": 6882,
  "bao xian ": 6883,
  "   and   ": 6884,
  "luo zai ": 6885,
  "ma li ya ": 6886,
  "chai you ji ": 6887,
  "cheng hu ": 6888,
  "qing xiang ": 6889,
  " han zu ": 6890,
  "2010 nian mei guo ren kou pu cha de shu ju ": 6891,
  "shuo shi xue wei ": 6892,
  "yin zhong zai pei ": 6893,
  "qie er ": 6894,
  "ju ti ": 6895,
  "jiao fu ": 6896,
  "wen hua de ": 6897,
  "bo luo ": 6898,
  "an zhong ": 6899,
  "ying di ": 6900,
  "mao xian ": 6901,
  "fa ling ": 6902,
  "ying zhan ": 6903,
  "xun huan ": 6904,
  " fa sheng ": 6905,
  "5 gong li ": 6906,
  "ri ji ": 6907,
  "qing yi ": 6908,
  "su shi ": 6909,
  "1971 nian ": 6910,
  " bu neng": 6911,
  " da xi yang ": 6912,
  " bi ye ": 6913,
  " gai wei ": 6914,
  " an de ": 6915,
  "   2018 nian ": 6916,
  "na ru ": 6917,
  "ren gong yin zhong zai pei ": 6918,
  " qu de ": 6919,
  "yi shi yong ": 6920,
  "jiang zhong ": 6921,
  "suo yi ": 6922,
  "hao yu ": 6923,
  "zhu zhai": 6924,
  "jiang ta ": 6925,
  "ling dao de ": 6926,
  " gong bu ": 6927,
  " kang xi ": 6928,
  " 2000": 6929,
  "ming jin shi ": 6930,
  "xiang shi di ": 6931,
  " 60": 6932,
  " yi xue ": 6933,
  "jiao zuo ": 6934,
  "ban ci ": 6935,
  "NBA": 6936,
  " mu": 6937,
  "tional": 6938,
  "ye zhi ": 6939,
  " he yue ": 6940,
  "dian ying de ": 6941,
  " bao dao ": 6942,
  "pan jue ": 6943,
  " xue sheng ": 6944,
  " quan zhang ": 6945,
  "qu zai ": 6946,
  "zhang zai ": 6947,
  "reng you ": 6948,
  "cheng fen ": 6949,
  " da lou ": 6950,
  "gui zhou ": 6951,
  " xian dai ": 6952,
  "we": 6953,
  "   tai wan ": 6954,
  "zheng yue ": 6955,
  "bao chi": 6956,
  "di yi ren ": 6957,
  "yan jiu sheng ": 6958,
  "km ": 6959,
  " chun": 6960,
  "fu gai ": 6961,
  "fa zhan de ": 6962,
  "O   ": 6963,
  " cui": 6964,
  "xiang zhi ": 6965,
  "50 nian ": 6966,
  " he pan ": 6967,
  "dui yuan ": 6968,
  "cai chan ": 6969,
  " sheng zhang yu ": 6970,
  "can guan ": 6971,
  " yu ci tong shi ": 6972,
  "zheng yu ": 6973,
  "duo fu ": 6974,
  "zhen ren ": 6975,
  "zhu ru ": 6976,
  "jun tuan ": 6977,
  "ben xian ": 6978,
  " ju min ": 6979,
  "hong jun ": 6980,
  "chan sheng le ": 6981,
  " cu": 6982,
  "bi shi ": 6983,
  "1938 nian ": 6984,
  "fu ze": 6985,
  "xu shu ": 6986,
  "20 nian ": 6987,
  "zhan he ": 6988,
  "xia zhi ": 6989,
  "1962 nian ": 6990,
  "huo wu ": 6991,
  " diao ": 6992,
  "   2006": 6993,
  "mian yu ": 6994,
  "dian zi you ": 6995,
  "wan quan": 6996,
  "te lang ": 6997,
  "tan ding ": 6998,
  "zuo yu ": 6999,
  "ya shi ": 7000,
  "zhen he ": 7001,
  "rang ta ": 7002,
  "sheng mu ": 7003,
  "ti jiao ": 7004,
  "dou zheng ": 7005,
  "su wei ai ": 7006,
  "x   ": 7007,
  "shu qi ": 7008,
  "lu zai ": 7009,
  "por": 7010,
  "zhi chi ": 7011,
  "chang bei ": 7012,
  "   10 yue ": 7013,
  "zhuang bing du ": 7014,
  "jie du shi ": 7015,
  "fen qu ": 7016,
  " bei ke ": 7017,
  " 000 ren ": 7018,
  " ー": 7019,
  "ke ren ": 7020,
  "le wei ": 7021,
  "ci you ": 7022,
  "qiang ji ": 7023,
  "yin jing ": 7024,
  "shang zhi ": 7026,
  "ping shi ": 7027,
  " ji li ": 7028,
  "jian she": 7029,
  "yan hua ": 7030,
  "ying dui ": 7031,
  " jia jing ": 7032,
  " ju qing ": 7033,
  " su lian ": 7034,
  "ai guo ": 7035,
  "zheng li ": 7036,
  "ban yu ": 7037,
  "xian dai": 7038,
  "dong ni ": 7039,
  "jiao ke ": 7040,
  " fu lei ": 7041,
  "chu xian le ": 7042,
  "hua sheng dun ": 7043,
  "zu yu ": 7044,
  "ku de ": 7045,
  "da bu ": 7046,
  "dong che ": 7047,
  " gong ji ": 7048,
  "huan jie ": 7049,
  "fu she ": 7050,
  "dui hua ": 7051,
  "gong he dang ": 7052,
  " bang ": 7053,
  "jian zao": 7054,
  "dao shang ": 7055,
  "chu ru kou ": 7056,
  "bao zheng ": 7057,
  "ai qing ": 7058,
  "ci zhi wai ": 7059,
  "zhu guo ": 7060,
  " you tai ": 7061,
  " ren zhong gong ": 7062,
  "shou he ": 7063,
  "ba yue ": 7064,
  "mo qi ": 7065,
  "you guan ": 7066,
  " zai gai ": 7067,
  "yuan ben": 7068,
  "jin qiu ": 7069,
  "chong qing ": 7070,
  "ju bei ": 7071,
  " yin fa ": 7072,
  " shi zhong hua ren min gong he guo ": 7073,
  "zeng jia le ": 7074,
  "ren min dai biao da hui ": 7075,
  " na me": 7076,
  "sheng chan de ": 7077,
  " 80": 7078,
  "   ling wai ": 7079,
  "yin er ": 7080,
  "te yu ": 7081,
  "bu luo ": 7082,
  " he qi ": 7083,
  "shen sheng ": 7084,
  " fa biao ": 7085,
  "ul": 7086,
  "   p": 7087,
  "di yi ji ": 7088,
  "1973 nian ": 7089,
  "xia fang ": 7090,
  " guo jia dui ": 7091,
  "xia yu ": 7092,
  "chuan di ": 7093,
  "si tan ": 7094,
  "shen wang ": 7095,
  "gou mai": 7096,
  "ai de hua ": 7097,
  " le ": 7098,
  "la yu ": 7099,
  "lei wei ": 7100,
  "kang xi ": 7101,
  "chao ting ": 7102,
  "ko": 7103,
  "   2017 nian ": 7104,
  "yue wei ": 7105,
  "kan de ": 7106,
  "xiang mu": 7107,
  "shou hai ": 7108,
  "shou fei ": 7109,
  "dong gong ": 7110,
  " zhu jian ": 7111,
  "wang you ": 7112,
  "hang xian ": 7113,
  " shi yue ": 7114,
  " nian li ": 7115,
  "ci da ": 7116,
  "zong tong": 7117,
  "ba la ": 7118,
  "han mo de ": 7119,
  " a la ": 7120,
  "duan yu ": 7121,
  " yi xing ": 7122,
  "xie tiao": 7123,
  "luo bo te ": 7124,
  "   xiang gang ": 7125,
  "ding zhi ": 7126,
  " yi ri ": 7127,
  "ge si ": 7128,
  "jiao dao ": 7129,
  "2 mi ": 7130,
  "te shi ": 7131,
  "long shi ": 7132,
  "cheng hao ": 7133,
  "zhu di ": 7134,
  "zi liao": 7135,
  " er hou ": 7136,
  " ke neng shi ": 7137,
  "93": 7138,
  "   2016 nian ": 7139,
  "nve ": 7140,
  "can mou zhang ": 7141,
  "�": 7142,
  "   12": 7143,
  "ci zhong ": 7144,
  "xun fu ": 7145,
  "pen ": 7146,
  " you you ": 7147,
  "jian guo ": 7148,
  " bi ye yu ": 7149,
  "→": 7150,
  " n ": 7151,
  "1936 nian ": 7152,
  "mei zhou": 7153,
  "cai liao": 7154,
  " xin jia ": 7155,
  " ling yi fang mian ": 7156,
  " li xin ": 7157,
  " ju": 7158,
  " lang ": 7159,
  "   zhan ": 7160,
  "kong de ": 7161,
  " zhi lu ": 7162,
  "ming lu ": 7163,
  "gang yuan ": 7164,
  "hua ren min gong he ": 7165,
  "nv zhu jue ": 7166,
  "ph": 7167,
  "jiao he ": 7168,
  "na si ": 7169,
  "1941 nian ": 7170,
  "1959 nian ": 7171,
  " xi huan ": 7172,
  "shang jia ": 7173,
  "long sheng ": 7174,
  " sheng zhang yu hai ba ": 7175,
  "pin zhi ": 7176,
  "zhui su ": 7177,
  "jie guan ": 7178,
  "hui xiang ": 7179,
  "dong yuan ": 7180,
  "chang wu": 7181,
  "gao yuan ": 7182,
  "qian zai ": 7183,
  "pai de zhu ": 7184,
  "3 mi ": 7185,
  "   sui ran ": 7186,
  " qiao": 7187,
  " cao": 7188,
  "du da ": 7189,
  "ben ke ": 7190,
  "lou de ": 7191,
  "bin shi ": 7192,
  "ming que ": 7193,
  "shang pin ": 7194,
  "qing xu ": 7195,
  "zai ci ": 7196,
  " zhong bei ": 7197,
  "fu yin ": 7198,
  " qi chu ": 7199,
  "qing dao ": 7200,
  " mi de di qu ": 7201,
  " pian ": 7202,
  " he cheng ": 7203,
  "fen xiao ": 7204,
  "hai e ": 7205,
  "hu po ": 7206,
  " jian she ": 7207,
  " zai yu ": 7208,
  "ye er ": 7209,
  "1939 nian ": 7210,
  "zhu liu ": 7211,
  "mo luo ": 7212,
  "rong na ": 7213,
  " cheng shi ": 7214,
  "zhong de yi ": 7215,
  "yin zhi ": 7216,
  "lei shi ": 7217,
  "1963 nian ": 7218,
  "guo qu ": 7219,
  "xing zheng zhen qu ": 7220,
  " tian jin ": 7221,
  "han yi ": 7222,
  "an zhao ": 7223,
  "quan wei ": 7224,
  " li shi de ": 7225,
  " bu da ": 7226,
  " dong wu ": 7227,
  "e luo si de ": 7228,
  " ma lai xi ya ": 7229,
  "IP": 7230,
  "R   ": 7231,
  "   tai ": 7232,
  "bu ke ": 7233,
  "hu dong ": 7234,
  "ven": 7235,
  " shi jing ": 7236,
  "dui zhen ": 7237,
  " shi yong zhe ": 7238,
  " gen ju": 7239,
  "shang le ": 7240,
  "ying jun ": 7241,
  "qian ru ": 7242,
  "zhou zhang ": 7243,
  "zen ": 7244,
  "xun de ": 7245,
  "1967 nian ": 7246,
  "fu zhu ren ": 7247,
  "fen lie ": 7248,
  "xiang zai ": 7249,
  "yong zhi ": 7250,
  "bo ke ": 7251,
  "fei yi ": 7252,
  "ceng ren ": 7253,
  "‧": 7254,
  "sheng jing ": 7255,
  "shang su ": 7256,
  "ti yan ": 7257,
  "liang ce ": 7258,
  "AS": 7259,
  "   zong ": 7260,
  "chu nian ": 7261,
  "hou bu jiu ": 7262,
  "1953 nian ": 7263,
  "gong gao ": 7264,
  " wu xian ": 7265,
  "nv hai ": 7266,
  "pei yang ": 7267,
  "   e": 7268,
  "ye wei ": 7269,
  "jiu ren ": 7270,
  "zao xing ": 7271,
  "da qi ": 7272,
  "zheng duo ": 7273,
  "gui mo de ": 7274,
  "tuan zhang ": 7275,
  "ri shi ": 7276,
  "qing xi ": 7277,
  " wei ya ": 7278,
  "zhu dong ": 7279,
  "xiang guan": 7280,
  "hui hua ": 7281,
  "zhen di ": 7282,
  "1965 nian ": 7283,
  "gong shang ": 7284,
  "sheng fu ": 7285,
  "le gai ": 7286,
  "shui ku ": 7287,
  "IT": 7288,
  " ning": 7289,
  " pin ": 7290,
  "fa li ya ": 7291,
  "suan fa ": 7292,
  "yin shua": 7293,
  "fen lan ": 7294,
  "mian lin ": 7295,
  " qi zhong nan ": 7296,
  " quan qiu ": 7297,
  "tai wan de ": 7298,
  ".&": 7299,
  "er you ": 7300,
  "mei ri ": 7301,
  "miao de ": 7302,
  "1970 nian dai ": 7303,
  " qi you ": 7304,
  "tong wang ": 7305,
  "tian tang ": 7306,
  " de ren wu ": 7307,
  " 15 ": 7308,
  " ke shi ": 7309,
  " pan": 7310,
  "dong yi ": 7311,
  "huo yue ": 7312,
  "xia er ": 7313,
  "cheng zhang ": 7314,
  "yan wu ": 7315,
  "she hui": 7316,
  " shi yi ji ": 7317,
  " hu nan ": 7318,
  "a ji ": 7319,
  "hou ren ": 7320,
  "qing shao nian ": 7321,
  "gan jue ": 7322,
  "du yi ": 7323,
  " bu lai ": 7324,
  " bu zu ": 7325,
  "zhen ya ": 7326,
  "ti yu guan ": 7327,
  "yi shi jian ": 7328,
  "jian li de ": 7329,
  "ye zhong ": 7330,
  "1944 nian ": 7331,
  "su dan ": 7332,
  " xi ban ya yu ": 7333,
  "ming you ": 7334,
  "dang he ": 7335,
  "na er ": 7336,
  "fou ren ": 7337,
  "90 nian ": 7338,
  " yu qi ta ": 7339,
  " he he ": 7340,
  "mei mei ": 7341,
  "shen cha ": 7342,
  "mian ji he ": 7343,
  " dong jing ": 7344,
  " bo chu ": 7345,
  "jie zai ": 7346,
  "dui li ": 7347,
  "es ": 7348,
  " she li ": 7349,
  " 1998 nian ": 7350,
  "an ren ": 7351,
  "   ri ": 7352,
  "   lu ": 7353,
  "   fei ": 7354,
  "jie wei zhi ": 7355,
  "tong zhong ": 7356,
  "sui de ": 7357,
  "sheng xia ": 7358,
  "duo ming ": 7359,
  "quan qiu": 7360,
  "kai fa de ": 7361,
  "nv yan yuan ": 7362,
  " guo min dang ": 7363,
  "xia xia de yi ge xiang ": 7364,
  " dai": 7365,
  " 2004": 7366,
  " zui da ": 7367,
  "   3 ": 7368,
  "zuo zhong ": 7369,
  "ze yi ": 7370,
  "cha li ": 7371,
  "wei yu ": 7372,
  "shou ling ": 7373,
  "gu dong ": 7374,
  "kai mu ": 7375,
  " de yi si ": 7376,
  "mou sha ": 7377,
  " JR": 7378,
  "shu you ": 7379,
  "chan de ": 7380,
  "ts ": 7381,
  "ke xue": 7382,
  "yong jiu ": 7383,
  "3000": 7384,
  "nan fei ": 7385,
  " mu qian shang wei you ": 7386,
  " lai": 7387,
  " 36": 7388,
  "yuan ren ": 7389,
  "la li ": 7390,
  "su da ": 7391,
  "jian dao ": 7392,
  "dan yuan ": 7393,
  " nian 12 yue 31 ri ": 7394,
  "can yu le ": 7395,
  " shi zhong xin ": 7396,
  "xiang gang de ": 7397,
  "2   ": 7398,
  " 1 yue ": 7399,
  "   2021 nian ": 7400,
  "chuang shi ren ": 7401,
  "da duo shu ": 7402,
  "xi si ": 7403,
  "sheng ge wei ": 7404,
  "chu ban de ": 7405,
  "tian ran": 7406,
  "chong man ": 7407,
  " ou": 7408,
  " chan ": 7409,
  " gu shi ": 7410,
  "ted   ": 7411,
  " zhi zheng ": 7412,
  "le liang ": 7413,
  "huo dong de ": 7414,
  "hai jun": 7415,
  " bao gao ": 7416,
  " shi gu ": 7417,
  " you xing ": 7418,
  "shen shang ": 7419,
  "la te ": 7420,
  "wai guan ": 7421,
  "han lin ": 7422,
  "di yi bu ": 7423,
  "shai ": 7424,
  "   tong ": 7425,
  " yu you ": 7426,
  "fu luo li da ": 7427,
  " ba li ": 7428,
  " mu qian shang wei you ren gong yin zhong zai pei ": 7429,
  " xie": 7430,
  " po ": 7431,
  " re ": 7432,
  "sheng zhong ": 7433,
  "zhang li ": 7434,
  "shen ji ": 7435,
  " zi liao ": 7436,
  " ti chu ": 7437,
  "xian de yi ge xing zheng zhen qu ": 7438,
  "jiong": 7439,
  "dice ": 7440,
  "fa zhong ": 7441,
  "31 ": 7442,
  " yi cheng ": 7443,
  "fang cheng ": 7444,
  "bi ya": 7445,
  "chuang xin ": 7446,
  "   shang ": 7447,
  "an pai": 7448,
  "tian huang ": 7449,
  "cai wu ": 7450,
  "wu zai ": 7451,
  " zai na li ": 7452,
  "zhu da ": 7453,
  " qi qi ": 7454,
  "bian hao wei ": 7455,
  "wu li xue ": 7456,
  "fen shi ": 7457,
  "chou bei ": 7458,
  "1930 nian ": 7459,
  "dao qian ": 7460,
  "jiao zong ": 7461,
  " can": 7462,
  "   gao ": 7463,
  "   4 yue ": 7464,
  "zhou fu ze guan xia ": 7465,
  "he ping ": 7466,
  "ming ci ": 7467,
  "he yi ge ": 7468,
  "bian yu ": 7469,
  "tui xing ": 7470,
  "yuan qu ": 7471,
  "ju chang ": 7472,
  "du jia ": 7473,
  " gai di de ": 7474,
  " zhe bu ": 7475,
  "   bo ": 7476,
  "xun shi ": 7477,
  " yi xie": 7478,
  "che dao ": 7479,
  " zhe ye shi ": 7480,
  "zao qi de ": 7481,
  " ha er ": 7482,
  "lian meng de ": 7483,
  " diao": 7484,
  "   pu ": 7485,
  "mi shi ": 7486,
  "ming he ": 7487,
  "tai da ": 7488,
  "kan fa ": 7489,
  " xi jin ": 7490,
  "gu wu ": 7491,
  "sai bai ": 7492,
  "jing ji xue ": 7493,
  " 1999 nian ": 7494,
  "yin ji ": 7495,
  " zai ren ": 7496,
  " da chen ": 7497,
  "yin zi ": 7498,
  "mian shang ": 7499,
  "nei meng gu ": 7500,
  "la ge ": 7501,
  " ke neng hui ": 7502,
  " bu": 7503,
  " ren min": 7504,
  " er zhe ": 7505,
  "shou hui ": 7506,
  "ru jing ": 7507,
  " gong jin ": 7508,
  "   ge ren sheng huo ": 7509,
  "zeng zhi ": 7510,
  "codice ": 7511,
  "1935 nian ": 7512,
  "bu man ": 7513,
  " dan ye ": 7514,
  "   s": 7515,
  "lun si ": 7516,
  "1969 nian ": 7517,
  "xiang bei ": 7518,
  "ti gong de ": 7519,
  "jiao yu ji ": 7520,
  " nian 7 yue 1 ri ": 7521,
  " gan": 7522,
  " CD": 7523,
  "   7 yue ": 7524,
  "tuo fu ": 7525,
  "1942 nian ": 7526,
  "wang chao": 7527,
  " kai fa ": 7528,
  "zhan zheng zhong ": 7529,
  " �": 7530,
  "℃": 7531,
  " 22": 7532,
  " 34": 7533,
  " 20 ": 7534,
  " ka er ": 7535,
  " ke li si ": 7536,
  "bu wei yu ": 7537,
  "tian fu ": 7538,
  "niu si ": 7539,
  "ne sheng ": 7540,
  "1961 nian ": 7541,
  "sheng xiao ": 7542,
  "xue yuan de ": 7543,
  "xin zeng ": 7544,
  "duan qi ": 7545,
  "zhu yao shi ": 7546,
  " gui": 7547,
  " bu shi ": 7548,
  "fang he ": 7549,
  "1940 nian ": 7550,
  " li you ": 7551,
  "ting yun ": 7552,
  "xiang zhong ": 7553,
  "dian yu ": 7554,
  "han shi ": 7555,
  "laySta": 7556,
  " shi xiang gang ": 7557,
  "dui ta ": 7558,
  " bing mei you ": 7559,
  "   jin guan ": 7560,
  "jiang he ": 7561,
  "32 ": 7562,
  " zhi yao ": 7563,
  "fu hua ": 7564,
  " xi yuan ": 7565,
  "xin sheng ": 7566,
  "shui shen ": 7567,
  "DV": 7568,
  "nuo si ": 7569,
  "oog": 7570,
  " li qi ": 7571,
  "gai ming ": 7572,
  "ba nen": 7573,
  "ka luo lai na ": 7574,
  "xin yu ": 7575,
  "qian wei ": 7576,
  "lao gong ": 7577,
  "jin xing": 7578,
  "1957 nian ": 7579,
  " shi nan ji zhou de ": 7580,
  "zhu long ": 7581,
  " qing chao ": 7582,
  "zhong shi ji ": 7583,
  " zai ta de ": 7584,
  "gong zuo de ": 7585,
  "fu jia ": 7586,
  "xiang lian ": 7587,
  "ci hui ": 7588,
  "hou guo ": 7589,
  "liang jia ": 7590,
  " zhi chi": 7591,
  " yue lai yue ": 7592,
  "zhan zheng de ": 7593,
  "ya zhou": 7594,
  "min jin ": 7595,
  "zong dui ": 7596,
  "sai che ": 7597,
  "li yong ": 7598,
  " dan yi ": 7599,
  "pei xun ": 7600,
  "shou dao le ": 7601,
  "110": 7602,
  " Ja": 7603,
  "jin zhong ": 7604,
  "yan li ": 7605,
  "huo yi ": 7606,
  "wai ji ": 7607,
  "huan xiang ": 7608,
  "si xing ": 7609,
  "si fa ": 7610,
  "ni ya de ": 7611,
  " 55": 7612,
  " pa ": 7613,
  "   8 yue ": 7614,
  "ban nian ": 7615,
  "1951 nian ": 7616,
  "jia zhou ": 7617,
  "jing xi ": 7618,
  "cha ju ": 7619,
  "ha de ": 7620,
  "fa biao": 7621,
  "jin shan ": 7622,
  "zui duo de ": 7623,
  "se cai ": 7624,
  " li shi xue jia ": 7625,
  " 9 ": 7626,
  "   gu shi ": 7627,
  "du zhi ": 7628,
  "feng yu ": 7629,
  "zi gong si ": 7630,
  "hou fang ": 7631,
  "dian chi ": 7632,
  "   la ": 7633,
  "qian yu ": 7634,
  "Game": 7635,
  "bo la ": 7636,
  "ling yu de ": 7637,
  " gong gong ": 7638,
  "hui yi shang ": 7639,
  "zhan zheng qi jian ": 7640,
  "mian ji he ren kou ": 7641,
  "8 ge ": 7642,
  " zha": 7643,
  "dao li ": 7644,
  "qian li ": 7645,
  "she li de ": 7646,
  "ni shi ": 7647,
  "yan xu ": 7648,
  " yuan xing ": 7649,
  "nian dai ": 7650,
  "   ye ": 7652,
  "   jiu ": 7653,
  "shou er ": 7654,
  "nan ren ": 7655,
  "duo bu ": 7656,
  "da xue de ": 7657,
  "ge ci ": 7658,
  "ba sai ": 7659,
  " de ji shu ": 7660,
  "ying de le ": 7661,
  "jiang su sheng ": 7662,
  "lla": 7663,
  " 38": 7664,
  "wang yi ": 7665,
  "la di ": 7666,
  " shi zhang ": 7667,
  "C   ": 7668,
  " 75": 7669,
  " Pa": 7670,
  "   quan ": 7671,
  "   dui yu ": 7672,
  "gai zhi ": 7673,
  "che li ": 7674,
  "ce qi ": 7675,
  "hang xing ": 7676,
  "er bei ": 7677,
  " da bu ": 7678,
  "lan se ": 7679,
  " gai cun": 7680,
  " jing nei ": 7681,
  " bo luo ": 7682,
  " gai di de mian ji he ren kou ": 7683,
  " gai di de mian ji he ren kou jie wei zhi ": 7684,
  "sui zhi ": 7685,
  "pei de ": 7686,
  "wei ji ": 7687,
  "di liu ": 7688,
  "ci shu ": 7689,
  "xuan chuan": 7690,
  "dang xuan wei ": 7691,
  "hei long jiang ": 7692,
  " yi shu jia ": 7693,
  "   you xi ": 7694,
  " ruan": 7695,
  " Li": 7696,
  "   mu qian ": 7697,
  "zhong xue ": 7698,
  "hou lai": 7699,
  "   2015 nian ": 7700,
  "wei shi jie ": 7701,
  "lu wei ": 7702,
  "lei he ": 7703,
  "80 nian ": 7704,
  "2025 nian ": 7705,
  "zong jing li ": 7706,
  " ming chao ": 7707,
  " La": 7708,
  "an fu ": 7709,
  " zai 19": 7710,
  "jiang zui jia ": 7711,
  "dian nao ": 7712,
  "dang an ": 7713,
  "tu an ": 7714,
  "ting kao ": 7715,
  " qian long ": 7716,
  " 90": 7717,
  "zhuang wei ": 7718,
  "ra ": 7719,
  "chui zhi ": 7720,
  "qu dong ": 7721,
  "tong chang": 7722,
  " fu ze": 7723,
  " jie wei ": 7724,
  "zheng xie wei yuan ": 7725,
  "6 mi ": 7726,
  " guan zhi ": 7727,
  "   X": 7728,
  "jia qiang ": 7729,
  "jiang zhe ": 7730,
  "mei er ": 7731,
  " zai 18": 7732,
  "qu zi ": 7733,
  "zong shu ": 7734,
  " tong ri ": 7735,
  "   yi xia ": 7736,
  " fan dui ": 7737,
  " fen bie wei ": 7738,
  "jia li fu ni ya zhou ": 7739,
  " com": 7740,
  " lei ji ": 7741,
  "   jian li ": 7742,
  " yi ti ": 7743,
  "yan sheng ": 7744,
  "gai jin ": 7745,
  "an xian ": 7746,
  "jiu du yu ": 7747,
  " zhan di ": 7748,
  "   2014 nian ": 7749,
  "chuan yue ": 7750,
  "lu duan ": 7751,
  " ci ci ": 7752,
  "nong chang ": 7753,
  "92": 7754,
  " 2003": 7755,
  "dong zhi ": 7756,
  "mei yi ": 7757,
  "kuai de ": 7758,
  "jia na ": 7759,
  "fen cheng ": 7760,
  " shi ji yu ": 7761,
  "hang zhan ": 7762,
  "xiu ding ": 7763,
  "fa sheng le ": 7764,
  "   jian zhu ": 7765,
  "ing   ": 7766,
  "si zhong ": 7767,
  "jin nian ": 7768,
  "xin he ": 7769,
  "har": 7770,
  " zai ri ben ": 7771,
  "tong xue ": 7772,
  "zhou bian": 7773,
  "gu lao de ": 7774,
  " hai jun ": 7775,
  "zi xing che ": 7776,
  "our": 7777,
  "li yi ": 7778,
  "cheng yi ge ": 7779,
  "jiao ji ": 7780,
  "jian dan ": 7781,
  " bu lu ": 7782,
  "xiang dao ": 7783,
  " qi yong ": 7784,
  " ke lai ": 7785,
  "liu liang ": 7786,
  "pu cha ": 7787,
  "ka fei ": 7788,
  " yan chang ": 7789,
  "zui zhong yao de ": 7790,
  "ping fang mi ": 7791,
  " 70": 7792,
  " Vi": 7793,
  "   9 yue ": 7794,
  "zhe ji ": 7795,
  "ba ta ": 7796,
  "zhu shou ": 7797,
  "xiang jiao ": 7798,
  "nan min ": 7799,
  " tong zhi ": 7800,
  "ge yue hou ": 7801,
  "   2020 nian ": 7802,
  "28 ": 7803,
  "jing qu ": 7804,
  "du te de ": 7805,
  "mi du ": 7806,
  " wan mei ": 7807,
  " bi xu ": 7808,
  " hua sheng ": 7809,
  "suan de ": 7810,
  "run ": 7811,
  "zhu guan ": 7812,
  "jin rong ": 7813,
  "ping heng ": 7814,
  "chi jing ": 7815,
  "e hai e ": 7816,
  "tou ru": 7817,
  " wan cheng ": 7818,
  " 000 ": 7819,
  "   che zhan jie gou ": 7820,
  " Wi": 7821,
  "   Li": 7822,
  "si yue ": 7823,
  "fu zhong ": 7824,
  "dai zhi ": 7825,
  "zheng jiao ": 7826,
  "yin ni ": 7827,
  "lin sheng ": 7828,
  "J ": 7829,
  "vo": 7830,
  " jun shi ": 7831,
  "jin cheng ": 7832,
  "shang fang ": 7833,
  "130": 7834,
  "shan yu ": 7835,
  "wit": 7836,
  "zi sha ": 7837,
  " qian mi ": 7838,
  "zheng fu yu ": 7839,
  "fang di ": 7840,
  "mu ji ": 7841,
  "ka de ": 7842,
  "ying ge lan": 7843,
  " da qiao ": 7844,
  "chong zu ": 7845,
  " sheng cheng ": 7846,
  " er he ": 7847,
  " li fa hui ": 7848,
  "   mu ": 7849,
  "sheng ren min zheng fu ": 7850,
  "zuo he ": 7851,
  " zai nan ": 7852,
  "jian chi ": 7853,
  "jiu bei ": 7854,
  " ding": 7855,
  "ya si ": 7856,
  "fu bu zhang ": 7857,
  "bao fu ": 7858,
  "mian qian ": 7859,
  "cheng li le ": 7860,
  "luo fa ke ": 7861,
  " hui yi ": 7862,
  " bu he ": 7863,
  "ju feng": 7864,
  "fang xing ": 7865,
  " qi zhong you ": 7866,
  "   zhi zuo ": 7867,
  " ceng jing ": 7868,
  " ga": 7869,
  "   c": 7870,
  "zhuan zhi ": 7871,
  "kuang jia ": 7872,
  "jin zhang ": 7873,
  "yan fa ": 7874,
  "ying guo de ": 7875,
  " de shi shi ": 7876,
  "hang ban ": 7877,
  " heng": 7878,
  " 21": 7879,
  "   yue": 7880,
  "   ri ben ": 7881,
  "   6 yue ": 7882,
  "jin qi ": 7883,
  "ci he ": 7884,
  "dui wei ": 7885,
  "bao ji ": 7886,
  "hui jia ": 7887,
  "ju zhu zai ": 7888,
  "ju ju zhang ": 7889,
  "tui fan ": 7890,
  " 2002": 7891,
  "   2013 nian ": 7892,
  "lu xi ": 7893,
  "li liang ": 7894,
  "gong chan zhu yi ": 7895,
  "li ke ": 7896,
  "   2010 nian ": 7897,
  "luo wei ": 7898,
  "ku er ": 7899,
  "26 ": 7900,
  " shi tai wan ": 7901,
  " de yi jian ": 7902,
  " zheng ge ": 7903,
  " 46": 7904,
  "fei zhi ": 7905,
  "yan shen zhi ": 7906,
  "zhan ju ": 7907,
  "zuo le ": 7908,
  "luo xuan ": 7909,
  " zhu xi ": 7910,
  " tai ping ": 7911,
  " mi zhi ": 7912,
  "wu xian dian shi ": 7913,
  "tai wei ": 7914,
  "lai er ": 7915,
  "pan de ": 7916,
  "ke xue jia ": 7917,
  "fang bian ": 7918,
  " da xue de ": 7919,
  "jun bei ": 7920,
  " fu gai ": 7921,
  "wan zheng de ": 7922,
  "EN": 7923,
  " 150": 7924,
  "reng zai ": 7925,
  "wen ge ": 7926,
  " bing qie zai ": 7927,
  "shou li ": 7928,
  "yan qi ": 7929,
  "te zai ": 7930,
  "nei si ": 7931,
  "hei ren ": 7932,
  " you he ": 7933,
  " guo fang ": 7934,
  "mei tian ": 7935,
  " man": 7936,
  "   yong ": 7937,
  "zu wei ": 7938,
  "yao zai ": 7939,
  "hao ji ": 7940,
  "round": 7941,
  "1943 nian ": 7942,
  "guo fang bu ": 7943,
  "yuan wai ": 7944,
  " ke la ": 7945,
  "mu jian ": 7946,
  "zhen zheng ": 7947,
  "che tui ": 7948,
  "fei chang": 7949,
  " zhuo": 7950,
  "ka li ": 7951,
  " shi si ": 7952,
  " yue ren ": 7953,
  "shu shu ": 7954,
  " xi xi ": 7955,
  "meng te ": 7956,
  "   gen ju 2010 nian mei guo ren kou pu cha de shu ju ": 7957,
  "   huo ": 7958,
  "   2012 nian ": 7959,
  "mei zhong ": 7960,
  "shen li ": 7961,
  "boo": 7962,
  "ben zhi ": 7963,
  "po er ": 7964,
  "liu xue ": 7965,
  "ba le si ": 7966,
  " xing shi ": 7967,
  "jiang wei ": 7968,
  "qian qi ": 7969,
  "wang hou ": 7970,
  "dai ti ": 7971,
  "zu zi zhi ": 7972,
  " xian jin ": 7973,
  "tui li ": 7974,
  "son ": 7975,
  "sheng jie rang ": 7976,
  "bei mei ": 7977,
  "qian xian ": 7978,
  "tu ran ": 7979,
  "e er ": 7980,
  "mi ji ": 7981,
  "ta er ": 7982,
  "chong fu ": 7983,
  " li nian ": 7984,
  "qian lai ": 7985,
  "tai shou ": 7986,
  "zhuan huan ": 7987,
  " M ": 7988,
  " fei li ": 7989,
  "ssi": 7990,
  "xiao yi ": 7991,
  "duo li ": 7992,
  "chen de ": 7993,
  "27 ": 7994,
  " ri bao ": 7995,
  "liu chuan ": 7996,
  "qu shi hou ": 7997,
  " jiang xi ": 7998,
  " long": 7999
}