{
  "!": 0,
  "\"": 1,
  "#": 2,
  "$": 3,
  "%": 4,
  "&": 5,
  "'": 6,
  "(": 7,
  ")": 8,
  "*": 9,
  "+": 10,
  ",": 11,
  "-": 12,
  ".": 13,
  "/": 14,
  "0": 15,
  "1": 16,
  "2": 17,
  "3": 18,
  "4": 19,
  "5": 20,
  "6": 21,
  "7": 22,
  "8": 23,
  "9": 24,
  ":": 25,
  ";": 26,
  "=": 27,
  "?": 28,
  "@": 29,
  "A": 30,
  "B": 31,
  "C": 32,
  "D": 33,
  "E": 34,
  "F": 35,
  "G": 36,
  "H": 37,
  "I": 38,
  "J": 39,
  "K": 40,
  "L": 41,
  "M": 42,
  "N": 43,
  "O": 44,
  "P": 45,
  "Q": 46,
  "R": 47,
  "S": 48,
  "T": 49,
  "U": 50,
  "V": 51,
  "W": 52,
  "X": 53,
  "Y": 54,
  "Z": 55,
  "[": 56,
  "\\": 57,
  "]": 58,
  "^": 59,
  "_": 60,
  "`": 61,
  "a": 62,
  "b": 63,
  "c": 64,
  "d": 65,
  "e": 66,
  "f": 67,
  "g": 68,
  "h": 69,
  "i": 70,
  "j": 71,
  "k": 72,
  "l": 73,
  "m": 74,
  "n": 75,
  "o": 76,
  "p": 77,
  "q": 78,
  "r": 79,
  "s": 80,
  "t": 81,
  "u": 82,
  "v": 83,
  "w": 84,
  "x": 85,
  "y": 86,
  "z": 87,
  "|": 88,
  "~": 89,
  "�": 100,
  "\n": 162,
  " ": 163,
  "": 164,
  "ng": 199,
  "an": 200,
  "sh": 201,
  "zh": 202,
  "ji": 203,
  "ang": 204,
  "  ": 205,
  "ong": 206,
  "xi": 207,
  "ao": 208,
  "ai": 209,
  "de": 210,
  "ei": 211,
  "shi": 212,
  "yu": 213,
  "ou": 214,
  "yi": 215,
  "en": 216,
  "ch": 217,
  "ian": 218,
  "uo": 219,
  "eng": 220,
  "li": 221,
  "   ": 222,
  "ing": 224,
  "ui": 225,
  "wei": 226,
  "uan": 227,
  "zhi": 228,
  "qi": 229,
  "nian": 230,
  "zhong": 231,
  "you": 232,
  "ren": 233,
  "un": 234,
  "zai": 235,
  "di": 236,
  "guo": 237,
  "、": 238,
  "he": 239,
  "bu": 240,
  "er": 241,
  "gong": 242,
  "xing": 243,
  "cheng": 244,
  "da": 245,
  "zhu": 246,
  "hu": 247,
  "yuan": 248,
  "si": 249,
  "jian": 250,
  "yue": 251,
  "ge": 252,
  "fu": 253,
  "xian": 254,
  "ue": 255,
  "ke": 256,
  "wu": 257,
  "chu": 258,
  "shu": 259,
  "sheng": 260,
  "jie": 261,
  "jia": 262,
  "bi": 263,
  "dao": 264,
  "zi": 265,
  "bei": 266,
  "hui": 267,
  "fa": 268,
  "xiang": 269,
  "ti": 270,
  "zheng": 271,
  "mi": 272,
  "ta": 273,
  "jin": 274,
  "qu": 275,
  "20": 276,
  "tong": 277,
  "ri": 278,
  "ju": 279,
  "jing": 280,
  "ming": 281,
  "le": 282,
  "hou": 283,
  "shang": 284,
  "shou": 285,
  "dong": 286,
  "ci": 287,
  "fang": 288,
  "19": 289,
  "hua": 290,
  "yin": 291,
  "xue": 292,
  "guan": 293,
  "zhan": 294,
  "ye": 295,
  "ying": 296,
  "zuo": 297,
  "zhe": 298,
  "yan": 299,
  "mei": 300,
  "jiao": 301,
  "gu": 302,
  "chang": 303,
  "xin": 304,
  "dui": 305,
  "lu": 306,
  "bing": 307,
  "bao": 308,
  "fen": 309,
  "dan": 310,
  "huo": 311,
  "jun": 312,
  "jiang": 313,
  "du": 314,
  "xiao": 315,
  "dian": 316,
  "yong": 317,
  "qian": 318,
  "she": 319,
  "tai": 320,
  "xia": 321,
  "mu": 322,
  "wen": 323,
  "gai": 324,
  "zhang": 325,
  "liang": 326,
  "ya": 327,
  "ru": 328,
  "dai": 329,
  "hai": 330,
  "nan": 331,
  "zhou": 332,
  "zu": 333,
  "wang": 334,
  "lai": 335,
  "ban": 336,
  "jiu": 337,
  "dang": 338,
  "qing": 339,
  "ping": 340,
  "shen": 341,
  "》": 342,
  "《": 343,
  "wan": 344,
  "lian": 345,
  "ling": 346,
  "luo": 347,
  "·": 348,
  "min": 349,
  "quan": 350,
  "pi": 351,
  "ni": 352,
  "bo": 353,
  "duo": 354,
  "te": 355,
  "ben": 356,
  "gao": 357,
  "biao": 358,
  "suo": 359,
  "la": 360,
  "ma": 361,
  "kai": 362,
  "ba": 363,
  "xie": 364,
  "xu": 365,
  "bian": 366,
  "deng": 367,
  "yao": 368,
  "yang": 369,
  "mian": 370,
  "zhen": 371,
  "ding": 372,
  "qiu": 373,
  "zui": 374,
  "sai": 375,
  "liu": 376,
  "fan": 377,
  "xuan": 378,
  "fei": 379,
  "san": 380,
  "shan": 381,
  "che": 382,
  "zong": 383,
  "men": 384,
  "「": 385,
  "」": 386,
  "tu": 387,
  "tian": 388,
  "hao": 389,
  "su": 390,
  "lei": 391,
  "nei": 392,
  "yun": 393,
  "201": 394,
  "lan": 395,
  "feng": 396,
  "mo": 397,
  "na": 398,
  "ze": 399,
  "lv": 400,
  "han": 401,
  "kou": 402,
  "wai": 403,
  "neng": 404,
  "lin": 405,
  "chuan": 406,
  "chi": 407,
  "jue": 408,
  "bai": 409,
  "pai": 410,
  "200": 411,
  "ku": 412,
  "cai": 413,
  "zao": 414,
  "ting": 415,
  "zhuan": 416,
  "gang": 417,
  "lie": 418,
  "guang": 419,
  "gui": 420,
  "lun": 421,
  "sui": 422,
  "pu": 423,
  "ceng": 424,
  "kong": 425,
  "shui": 426,
  "10": 427,
  "chao": 428,
  "zhuang": 429,
  "cha": 430,
  "dou": 431,
  "can": 432,
  "tou": 433,
  "ran": 434,
  "se": 435,
  "duan": 436,
  "cun": 437,
  "huan": 438,
  "cong": 439,
  "pin": 440,
  "ce": 441,
  "chan": 442,
  "xun": 443,
  "gou": 444,
  "00": 445,
  "nv": 446,
  "zhao": 447,
  "gan": 448,
  "chong": 449,
  "sha": 450,
  "tan": 451,
  "18": 452,
  "qin": 453,
  "ka": 454,
  "meng": 455,
  "qiang": 456,
  "huang": 457,
  "xiu": 458,
  "12": 459,
  "tiao": 460,
  "man": 461,
  "shao": 462,
  "kuo": 463,
  "long": 464,
  "pian": 465,
  "shuo": 466,
  "tuan": 467,
  "tang": 468,
  "rong": 469,
  "geng": 470,
  "202": 471,
  "chen": 472,
  "tui": 473,
  "gen": 474,
  "que": 475,
  "tie": 476,
  "11": 477,
  "qie": 478,
  "wo": 479,
  "po": 480,
  "pei": 481,
  "hang": 482,
  "hong": 483,
  "199": 484,
  "bang": 485,
  "liao": 486,
  "chuang": 487,
  "bie": 488,
  "re": 489,
  "tuo": 490,
  "tao": 491,
  "song": 492,
  "wa": 493,
  "mai": 494,
  "ha": 495,
  "15": 496,
  "pan": 497,
  "dun": 498,
  "diao": 499,
  "qiao": 500,
  "sa": 501,
  "mao": 502,
  "lang": 503,
  "kan": 504,
  "kang": 505,
  "or": 507,
  "lao": 508,
  "zeng": 509,
  "16": 510,
  "198": 511,
  "kao": 512,
  "xiong": 513,
  "17": 514,
  "on": 515,
  "nuo": 516,
  "miao": 517,
  "rang": 518,
  "kuang": 519,
  "hen": 520,
  "suan": 521,
  "14": 522,
  "30": 523,
  "zhun": 524,
  "13": 525,
  "194": 526,
  "cao": 527,
  "hun": 528,
  "qun": 529,
  "nong": 530,
  "197": 531,
  "heng": 532,
  "shuang": 533,
  "lou": 534,
  "gei": 535,
  "kuai": 536,
  "piao": 537,
  "zha": 538,
  "hei": 539,
  "niu": 540,
  "195": 541,
  "sen": 542,
  "bin": 543,
  "reng": 544,
  "zou": 545,
  "196": 546,
  "chun": 547,
  "kuan": 548,
  "25": 549,
  "—": 550,
  "rui": 551,
  "sun": 552,
  "pao": 553,
  "ning": 554,
  "for": 555,
  "pa": 556,
  "cang": 557,
  "mou": 558,
  "24": 559,
  "peng": 560,
  "huai": 561,
  "21": 562,
  "193": 563,
  "23": 564,
  "mula": 565,
  "formula": 566,
  "28": 567,
  "zan": 568,
  "ruo": 569,
  "in": 570,
  "22": 571,
  "chou": 572,
  "zhui": 573,
  "ar": 574,
  "me": 575,
  "26": 576,
  "50": 577,
  "2020": 578,
  "27": 579,
  "nai": 580,
  "nu": 581,
  "29": 583,
  "shun": 584,
  "2010": 585,
  "za": 586,
  "000": 587,
  "lve": 588,
  "zhai": 589,
  "2019": 590,
  "ne": 591,
  "ro": 592,
  "juan": 593,
  "st": 594,
  "ra": 595,
  "cui": 596,
  "kun": 597,
  "2016": 598,
  "luan": 599,
  "2018": 600,
  "cuo": 601,
  "2021": 602,
  "zang": 603,
  "2014": 604,
  "shuai": 605,
  "2011": 606,
  "2015": 607,
  "2017": 608,
  "2012": 609,
  "40": 610,
  "2013": 611,
  "nao": 612,
  "2022": 613,
  "die": 614,
  "ruan": 615,
  "kui": 616,
  "lt": 617,
  "rou": 618,
  "cu": 619,
  "sang": 620,
  "2009": 621,
  "2008": 622,
  "60": 624,
  "niao": 625,
  "al": 626,
  "rao": 627,
  "chai": 628,
  "100": 629,
  "zhuo": 630,
  "2023": 631,
  "gt": 632,
  "sou": 633,
  "190": 634,
  "31": 635,
  "ken": 636,
  "2007": 637,
  "2001": 638,
  "teng": 639,
  "pang": 640,
  "fou": 641,
  "co": 642,
  "fo": 643,
  "gua": 644,
  "2000": 645,
  "80": 646,
  "2006": 647,
  "2024": 648,
  "2005": 650,
  "zun": 651,
  "tion": 652,
  "kua": 653,
  "the": 654,
  "35": 655,
  "70": 656,
  "nie": 657,
  "lo": 658,
  "of": 659,
  "90": 660,
  "leng": 661,
  "－": 662,
  "am": 664,
  "tun": 665,
  "ter": 666,
  "mie": 667,
  "2004": 668,
  "th": 669,
  "to": 670,
  "45": 671,
  "48": 672,
  "mang": 673,
  "2025": 674,
  "ve": 675,
  "ga": 676,
  "〉": 677,
  "〈": 678,
  "36": 679,
  "38": 680,
  "2003": 681,
  "37": 682,
  "Ma": 683,
  "chui": 684,
  "pen": 685,
  "ll": 686,
  "189": 687,
  "IN": 688,
  "2002": 689,
  "keng": 690,
  "TC": 691,
  "do": 692,
  "34": 693,
  "75": 694,
  "–": 695,
  "Co": 696,
  "46": 697,
  "ca": 698,
  "1990": 699,
  "…": 700,
  "ck": 701,
  "39": 702,
  "..": 703,
  "be": 704,
  "65": 705,
  "32": 706,
  "ST": 707,
  "47": 708,
  "UTC": 709,
  "1999": 710,
  "1998": 711,
  "1980": 712,
  "188": 713,
  "500": 714,
  "33": 715,
  "In": 716,
  "64": 717,
  "ss": 718,
  "The": 719,
  "vi": 720,
  "SE": 721,
  "55": 722,
  "1997": 723,
  "Re": 724,
  "hi": 725,
  "49": 726,
  "II": 727,
  "el": 728,
  "68": 729,
  "et": 730,
  "44": 731,
  "1996": 732,
  "oo": 733,
  "qiong": 734,
  "1994": 735,
  "gun": 736,
  "br": 737,
  "guai": 738,
  "1992": 739,
  "1995": 740,
  "Mi": 741,
  "67": 742,
  "and": 743,
  "sao": 744,
  "es": 745,
  "1991": 746,
  "1970": 747,
  "58": 748,
  "1950": 749,
  "300": 750,
  "1993": 751,
  "187": 752,
  "1949": 753,
  "at": 754,
  "AT": 755,
  "pe": 756,
  "1960": 757,
  "42": 758,
  "1945": 759,
  "Li": 760,
  "ver": 761,
  "qia": 762,
  "1988": 763,
  "ty": 764,
  "1989": 765,
  "69": 766,
  "Ro": 767,
  "is": 768,
  "run": 769,
  "SEE": 770,
  "niang": 771,
  "INSEE": 772,
  "ho": 773,
  "59": 774,
  "43": 775,
  "66": 776,
  "57": 777,
  "1985": 778,
  "99": 779,
  "SA": 780,
  "『": 781,
  "』": 782,
  "ct": 783,
  "1984": 784,
  "41": 785,
  "88": 786,
  "1986": 787,
  "wi": 788,
  "ol": 789,
  "ws": 790,
  "TV": 791,
  "ry": 792,
  "150": 793,
  "Me": 794,
  "nd": 795,
  "400": 796,
  "1987": 797,
  "78": 798,
  "1982": 799,
  "56": 800,
  "beng": 801,
  "Vi": 802,
  "Pa": 803,
  "ts": 804,
  "1983": 805,
  "amp": 806,
  "NA": 807,
  "De": 808,
  "CD": 809,
  "gh": 810,
  "fi": 811,
  "weng": 812,
  "ber": 813,
  "77": 814,
  "Win": 815,
  "per": 816,
  "zuan": 817,
  "Sta": 818,
  "79": 819,
  "OS": 820,
  "Wi": 821,
  "°": 822,
  "der": 824,
  "180": 825,
  "BC": 826,
  "54": 827,
  "1979": 828,
  "61": 829,
  "1920": 830,
  "as": 831,
  "Mo": 832,
  "seng": 833,
  "98": 834,
  "52": 835,
  "You": 836,
  "1978": 837,
  "no": 838,
  "62": 839,
  "53": 840,
  "ly": 841,
  "shua": 842,
  "La": 843,
  "～": 844,
  "BA": 845,
  "1946": 846,
  "CO": 847,
  "51": 848,
  "1958": 849,
  "gi": 850,
  "Jo": 851,
  "1981": 852,
  "1972": 853,
  "1948": 854,
  "Le": 855,
  "tw": 856,
  "AM": 857,
  "63": 858,
  "AR": 859,
  "ction": 860,
  "1941": 861,
  "BS": 862,
  "Ga": 863,
  "1930": 864,
  "Da": 865,
  "Pro": 866,
  "Te": 867,
  "76": 868,
  "hans": 869,
  "1940": 870,
  "1937": 871,
  "1976": 872,
  "1944": 873,
  "Ja": 874,
  "89": 875,
  "us": 876,
  "Di": 877,
  "Windo": 878,
  "1975": 879,
  "／": 880,
  "1968": 881,
  "hk": 882,
  "con": 883,
  "Fi": 884,
  "um": 885,
  "Si": 886,
  "1000": 887,
  "Windows": 888,
  "95": 889,
  "87": 890,
  "nal": 891,
  "Mar": 892,
  "1966": 893,
  "rd": 894,
  "85": 895,
  "Ne": 896,
  "Ra": 897,
  "ki": 898,
  "600": 899,
  "120": 900,
  "1947": 901,
  "Se": 902,
  "AC": 903,
  "1956": 904,
  "1964": 905,
  "Be": 906,
  "1942": 907,
  "é": 908,
  "1955": 909,
  "1952": 910,
  "IS": 911,
  "ad": 912,
  "1939": 913,
  "1938": 914,
  "72": 915,
  "ur": 916,
  "74": 917,
  "Ca": 918,
  "va": 919,
  "1973": 920,
  "1974": 921,
  "1954": 922,
  "Ar": 923,
  "Al": 924,
  "ED": 925,
  "1900": 926,
  "--": 927,
  "AP": 928,
  "1943": 929,
  "To": 930,
  "1977": 931,
  "ld": 932,
  "1971": 933,
  "cen": 934,
  "lay": 935,
  "1967": 936,
  "Ba": 937,
  "IC": 938,
  "800": 939,
  "Po": 940,
  "Lo": 941,
  "ER": 942,
  "zhua": 943,
  "sta": 944,
  "86": 945,
  "1959": 946,
  "Bo": 947,
  "tt": 948,
  "1965": 949,
  "JR": 950,
  "1969": 951,
  "Fa": 952,
  "・": 953,
  "×": 954,
  "ID": 955,
  "Bi": 956,
  "son": 957,
  "1936": 958,
  "160": 959,
  "97": 960,
  "1953": 961,
  "Sa": 962,
  "MA": 963,
  "1962": 964,
  "1961": 965,
  "nen": 966,
  "Na": 967,
  "So": 969,
  "1935": 970,
  "com": 971,
  "Ho": 972,
  "tic": 973,
  "96": 974,
  "ON": 975,
  "％": 976,
  "1951": 977,
  "St": 978,
  "1957": 979,
  "1963": 980,
  "Tu": 981,
  "─": 982,
  "fe": 983,
  "so": 984,
  "ment": 985,
  "84": 986,
  "Hi": 987,
  "2026": 988,
  "82": 989,
  "Do": 990,
  "mer": 991,
  "Ri": 992,
  "73": 993,
  "nt": 994,
  "94": 995,
  "92": 996,
  "Ki": 997,
  "Ha": 998,
  "nang": 999,
  "one": 1000,
  "IP": 1001,
  "AN": 1002,
  "ls": 1003,
  "1933": 1004,
  "1931": 1005,
  "les": 1006,
  "71": 1007,
  "nuan": 1008,
  "Com": 1009,
  "83": 1010,
  "93": 1011,
  "ted": 1012,
  "Su": 1013,
  "81": 1014,
  "Ti": 1015,
  "Mu": 1016,
  "1918": 1017,
  "Ni": 1018,
  "HD": 1019,
  "Uni": 1020,
  "1928": 1021,
  "pp": 1022,
  "1932": 1023,
  "Cha": 1024,
  "We": 1025,
  "ys": 1026,
  "MV": 1027,
  "SS": 1028,
  "110": 1029,
  "IT": 1030,
  "1912": 1031,
  "No": 1032,
  "1929": 1033,
  "1927": 1034,
  "1934": 1035,
  "cn": 1036,
  "700": 1037,
  "go": 1038,
  "zei": 1039,
  "ght": 1040,
  "ster": 1041,
  "250": 1042,
  "91": 1043,
  "rt": 1044,
  "lli": 1045,
  "1924": 1046,
  "ris": 1047,
  "...": 1048,
  "1919": 1049,
  "nve": 1050,
  "130": 1051,
  "Pi": 1052,
  "1925": 1053,
  "Gi": 1054,
  "PS": 1055,
  "by": 1056,
  "ed": 1057,
  "mes": 1058,
  "An": 1059,
  "PC": 1060,
  "140": 1061,
  "AS": 1062,
  "Play": 1063,
  "1914": 1064,
  "km": 1065,
  "DV": 1066,
  "tio": 1067,
  "YouTu": 1068,
  "SM": 1069,
  "ble": 1070,
  "gra": 1071,
  "ko": 1072,
  "1911": 1073,
  "Con": 1074,
  "Ch": 1075,
  "lla": 1076,
  "1926": 1077,
  "lle": 1078,
  "Ge": 1079,
  "Par": 1080,
  "id": 1081,
  "Ta": 1082,
  "1922": 1083,
  "Lin": 1084,
  "mp": 1085,
  "1917": 1086,
  "He": 1087,
  "Ka": 1088,
  "ET": 1089,
  "NBA": 1090,
  "wn": 1091,
  "IV": 1092,
  "EN": 1093,
  "1923": 1094,
  "1921": 1095,
  "shai": 1096,
  "Goo": 1097,
  "chuo": 1098,
  "170": 1099,
  "EC": 1101,
  "MS": 1102,
  "ali": 1103,
  "AL": 1104,
  "ph": 1105,
  "section": 1106,
  "YouTube": 1107,
  "EP": 1108,
  "BL": 1109,
  "1913": 1110,
  "Car": 1111,
  "Bu": 1112,
  "zen": 1113,
  "HK": 1114,
  "we": 1115,
  "hn": 1116,
  "mm": 1117,
  "ven": 1118,
  "hant": 1119,
  "1909": 1121,
  "sion": 1122,
  "Inter": 1123,
  "cro": 1124,
  "MP": 1125,
  "AI": 1126,
  "Wor": 1127,
  "Pe": 1128,
  "ds": 1129,
  "US": 1130,
  "pro": 1131,
  "DVD": 1132,
  "ok": 1133,
  "3000": 1134,
  "En": 1135,
  "1910": 1136,
  "DS": 1137,
  "RO": 1138,
  "cou": 1139,
  "Ste": 1140,
  "sis": 1141,
  "112": 1142,
  "Go": 1143,
  "rk": 1144,
  "AK": 1145,
  "RE": 1146,
  "1916": 1147,
  "Wa": 1148,
  "lia": 1149,
  "ー": 1150,
  "Station": 1151,
  "For": 1152,
  "Net": 1153,
  "ff": 1154,
  "α": 1155,
  "oft": 1156,
  "ine": 1157,
  "den": 1158,
  "lor": 1159,
  "rea": 1160,
  "tional": 1161,
  "gn": 1162,
  "ture": 1163,
  "gle": 1164,
  "CP": 1165,
  "UN": 1166,
  "ard": 1168,
  "1915": 1169,
  "gin": 1170,
  "1905": 1171,
  "ps": 1172,
  "FC": 1173,
  "cal": 1174,
  "vo": 1175,
  "dia": 1176,
  "My": 1177,
  "CN": 1178,
  "→": 1180,
  "our": 1181,
  "ers": 1182,
  "1901": 1183,
  "ent": 1184,
  "Au": 1185,
  "DNA": 1186,
  "Ex": 1187,
  "‧": 1188,
  "900": 1189,
  "end": 1190,
  "HR": 1191,
  "dice": 1192,
  ".&": 1193,
  "ther": 1194,
  "tal": 1195,
  "CH": 1196,
  "TA": 1197,
  "TO": 1198,
  "1906": 1199,
  "1904": 1200,
  "AV": 1201,
  "tes": 1202,
  "MO": 1203,
  "jiong": 1204,
  "John": 1205,
  "my": 1206,
  "eri": 1207,
  "codice": 1208,
  "Man": 1209,
  "℃": 1210,
  "dy": 1211,
  "PlayStation": 1212,
  "Chi": 1213,
  "05": 1214,
  "CC": 1215,
  "tive": 1216,
  "diu": 1217,
  "And": 1218,
  "1907": 1219,
  "dio": 1220,
  "1908": 1221,
  "Google": 1222,
  "AG": 1223,
  "Ci": 1224,
  "EST": 1225,
  "MI": 1226,
  "SO": 1227,
  "LE": 1228,
  "sic": 1229,
  "ree": 1230,
  "BO": 1231,
  "int": 1232,
  "wit": 1233,
  "BBC": 1234,
  "Sch": 1235,
  "AD": 1236,
  "IG": 1237,
  "land": 1238,
  "III": 1239,
  "cri": 1240,
  "ton": 1241,
  "1500": 1242,
  "5000": 1243,
  "cy": 1244,
  "round": 1245,
  "wer": 1246,
  "IST": 1247,
  "ms": 1248,
  "ron": 1249,
  "ME": 1250,
  "CR": 1251,
  "ul": 1252,
  "3D": 1253,
  "je": 1254,
  "IA": 1255,
  "ley": 1256,
  "105": 1257,
  "au": 1258,
  "а": 1259,
  "ria": 1260,
  "101": 1261,
  "1903": 1262,
  "tor": 1263,
  "GB": 1264,
  "van": 1265,
  "09": 1266,
  "TE": 1267,
  "Lu": 1268,
  "1902": 1269,
  "BD": 1270,
  "NC": 1271,
  "Pri": 1272,
  "Fe": 1273,
  "xt": 1274,
  "350": 1275,
  "pou": 1276,
  "á": 1277,
  "SAO": 1278,
  "des": 1279,
  "DC": 1280,
  "ja": 1281,
  "β": 1282,
  "cke": 1283,
  "B1900": 1284,
  "book": 1285,
  "hat": 1286,
  "ES": 1287,
  "all": 1288,
  "BM": 1289,
  "．": 1290,
  "ン": 1291,
  "Ru": 1292,
  "ner": 1293,
  "1898": 1294,
  "res": 1295,
  "06": 1296,
  "118": 1297,
  "op": 1298,
  "の": 1299,
  "360": 1300,
  "DR": 1301,
  "New": 1302,
  "01": 1303,
  "DA": 1304,
  "Hu": 1305,
  "Open": 1306,
  "1895": 1307,
  "ger": 1308,
  "125": 1309,
  "Sho": 1310,
  "HO": 1311,
  "MC": 1312,
  "San": 1313,
  "ATP": 1314,
  "Micro": 1315,
  "ctor": 1316,
  "о": 1317,
  "108": 1318,
  "ft": 1319,
  "cor": 1320,
  "os": 1321,
  "NG": 1322,
  "Ke": 1323,
  "clu": 1324,
  "gy": 1325,
  "gram": 1326,
  "pri": 1327,
  "ward": 1328,
  "sty": 1329,
  "IF": 1330,
  "Cu": 1331,
  "Fran": 1332,
  "One": 1333,
  "net": 1334,
  "soft": 1335,
  "ker": 1336,
  "pt": 1337,
  "−": 1338,
  "07": 1339,
  "08": 1340,
  "230": 1341,
  "Face": 1342,
  "104": 1343,
  "pace": 1344,
  "lspan": 1345,
  "Cor": 1346,
  "Per": 1347,
  "Bar": 1348,
  "World": 1349,
  "App": 1350,
  "EDT": 1351,
  "ISTAT": 1352,
  "cuan": 1353,
  "Love": 1354,
  "Ko": 1355,
  "Har": 1357,
  "NO": 1358,
  "Stu": 1359,
  "1896": 1360,
  "LL": 1361,
  "ux": 1362,
  "109": 1363,
  "DP": 1364,
  "las": 1365,
  "AA": 1366,
  "fli": 1367,
  "RI": 1368,
  "Ju": 1369,
  "pha": 1370,
  "Ser": 1371,
  "lus": 1372,
  "line": 1373,
  "RT": 1374,
  "tri": 1375,
  "SP": 1376,
  "EX": 1377,
  "B48": 1378,
  "106": 1379,
  "1890": 1380,
  "rai": 1381,
  "sti": 1382,
  "mon": 1383,
  "CST": 1384,
  "ML": 1385,
  "od": 1386,
  "uni": 1387,
  "CDT": 1388,
  "bert": 1389,
  "Je": 1390,
  "rs": 1391,
  "rus": 1392,
  "red": 1393,
  "DO": 1394,
  "Pu": 1395,
  "ky": 1396,
  "HE": 1397,
  "Cou": 1398,
  "ation": 1399,
  "Mon": 1400,
  "04": 1401,
  "4000": 1402,
  "115": 1403,
  "1200": 1404,
  "M1": 1405,
  "Pre": 1406,
  "03": 1407,
  "ler": 1408,
  "GP": 1409,
  "del": 1410,
  "CE": 1411,
  "ā": 1412,
  "Live": 1413,
  "begin": 1414,
  "1889": 1415,
  "ool": 1416,
  "Davi": 1417,
  "with": 1418,
  "ara": 1419,
  "1899": 1420,
  "colspan": 1421,
  "tain": 1422,
  "back": 1423,
  "1871": 1424,
  "RS": 1425,
  "sto": 1426,
  "Facebook": 1427,
  "Ed": 1428,
  "Sha": 1429,
  "Microsoft": 1430,
  "mic": 1431,
  "tem": 1432,
  "​": 1433,
  "240": 1434,
  "1600": 1435,
  "LO": 1436,
  "Tri": 1437,
  "ten": 1438,
  "tin": 1439,
  "BE": 1440,
  "low": 1441,
  "102": 1442,
  "box": 1443,
  "clude": 1444,
  "Ad": 1445,
  "TT": 1446,
  "1897": 1447,
  "Sou": 1448,
  "ser": 1449,
  "NH": 1450,
  "EE": 1451,
  "Du": 1452,
  "ces": 1453,
  "PP": 1454,
  "117": 1455,
  "SC": 1456,
  "val": 1457,
  "02": 1458,
  "por": 1459,
  "cm": 1460,
  "Mac": 1461,
  "style": 1462,
  "Che": 1463,
  "rst": 1464,
  "103": 1465,
  "AKB48": 1466,
  "Dan": 1467,
  "MD": 1468,
  "Nor": 1469,
  "Ph": 1470,
  "107": 1471,
  "ral": 1472,
  "Her": 1473,
  "On": 1474,
  "pre": 1475,
  "ring": 1476,
  "As": 1477,
  "are": 1478,
  "Willi": 1479,
  "tel": 1480,
  "Linux": 1481,
  "lis": 1482,
  "Ori": 1483,
  "ww": 1484,
  "Dis": 1485,
  "shuan": 1486,
  "gue": 1487,
  "mas": 1488,
  "450": 1489,
  "Ber": 1490,
  "VID": 1491,
  "127": 1492,
  "Music": 1493,
  "Is": 1494,
  "Ai": 1495,
  "Gre": 1496,
  "cer": 1497,
  "ü": 1498,
  "tus": 1499,
  "Vo": 1500,
  "tra": 1501,
  "128": 1502,
  "flix": 1503,
  "CL": 1504,
  "Netflix": 1505,
  "Bro": 1506,
  "yo": 1507,
  "1894": 1508,
  "Game": 1509,
  "220": 1510,
  "Can": 1511,
  "Gra": 1512,
  "nin": 1513,
  "ref": 1514,
  "н": 1515,
  "William": 1516,
  "Bri": 1517,
  "IL": 1518,
  "align": 1519,
  "SH": 1520,
  "bli": 1521,
  "ory": 1522,
  "Or": 1523,
  "Twit": 1524,
  "1880": 1525,
  "Red": 1526,
  "old": 1527,
  "í": 1528,
  "RNA": 1529,
  "136": 1530,
  "PG": 1531,
  "и": 1532,
  "い": 1533,
  "rom": 1534,
  "TR": 1535,
  "Team": 1536,
  "1800": 1537,
  "ス": 1538,
  "Univer": 1539,
  "ground": 1540,
  "ia": 1541,
  "1885": 1542,
  "len": 1543,
  "114": 1544,
  "ん": 1545,
  "Hz": 1546,
  "color": 1547,
  "Gen": 1548,
  "Ty": 1549,
  "116": 1550,
  "280": 1551,
  "UR": 1552,
  "ple": 1553,
  "е": 1554,
  "113": 1555,
  "1886": 1556,
  "ein": 1557,
  "イ": 1558,
  "TS": 1559,
  "PO": 1560,
  "1893": 1561,
  "lar": 1562,
  "ex": 1563,
  "rn": 1564,
  "yn": 1565,
  "Mc": 1566,
  "name": 1567,
  "111": 1568,
  "SL": 1569,
  "Super": 1571,
  "She": 1572,
  "stra": 1573,
  "All": 1574,
  "Gu": 1575,
  "cial": 1576,
  "lass": 1577,
  "※": 1578,
  "David": 1579,
  "135": 1580,
  "ject": 1581,
  "Ac": 1582,
  "260": 1583,
  "Cen": 1584,
  "Eu": 1585,
  "lf": 1586,
  "1860": 1587,
  "port": 1588,
  "ham": 1589,
  "Geor": 1590,
  "cho": 1591,
  "national": 1592,
  "Char": 1593,
  "Un": 1594,
  "WTA": 1595,
  "lver": 1596,
  "dge": 1597,
  "work": 1598,
  "HC": 1599,
  "Th": 1600,
  "tro": 1601,
  "School": 1602,
  "Ban": 1603,
  "ks": 1604,
  "sso": 1605,
  "tch": 1606,
  "tis": 1607,
  "1888": 1608,
  "Mor": 1609,
  "qui": 1610,
  "text": 1611,
  "SD": 1612,
  "ó": 1613,
  "-.": 1614,
  "UA": 1615,
  "roup": 1616,
  "lly": 1617,
  "cation": 1618,
  "ony": 1619,
  "background": 1620,
  "Meta": 1621,
  "roid": 1622,
  "ac": 1623,
  "meri": 1624,
  "Tra": 1625,
  "129": 1626,
  "GO": 1627,
  "Sto": 1628,
  "dis": 1629,
  "1870": 1630,
  "GN": 1631,
  "ream": 1633,
  "1887": 1634,
  "Show": 1635,
  "Qu": 1636,
  "cle": 1637,
  "1868": 1638,
  "6000": 1639,
  "ö": 1640,
  "р": 1641,
  "1883": 1642,
  "NF": 1643,
  "VA": 1644,
  "mar": 1645,
  "Ver": 1646,
  "day": 1647,
  "320": 1648,
  "Xbox": 1649,
  "CS": 1650,
  "was": 1651,
  "Ang": 1652,
  "NHK": 1653,
  "Tho": 1654,
  "AF": 1655,
  "Fo": 1656,
  "Twitter": 1657,
  "DD": 1658,
  "lyin": 1659,
  "onlyin": 1660,
  "onlyinclude": 1661,
  "++": 1662,
  "KP": 1663,
  "don": 1664,
  "1864": 1665,
  "•": 1666,
  "Gir": 1667,
  "ION": 1668,
  "1884": 1669,
  "119": 1670,
  "Bla": 1671,
  "RC": 1672,
  "UE": 1673,
  "ain": 1674,
  "miu": 1675,
  "122": 1676,
  "Va": 1677,
  "2500": 1678,
  "1892": 1679,
  "210": 1680,
  "A1": 1681,
  "center": 1682,
  "cket": 1683,
  "155": 1684,
  "ISO": 1685,
  "145": 1687,
  "stri": 1688,
  "1891": 1689,
  "650": 1690,
  "way": 1691,
  "Android": 1692,
  "NS": 1693,
  "Clu": 1694,
  "〕": 1695,
  "OR": 1696,
  "ffi": 1697,
  "htt": 1698,
  "mber": 1699,
  "〔": 1700,
  "1850": 1701,
  "Fu": 1702,
  "Phi": 1703,
  "age": 1704,
  "mb": 1705,
  "win": 1706,
  "xy": 1707,
  "Cy": 1708,
  "Ku": 1709,
  "king": 1710,
  "International": 1711,
  "sia": 1712,
  "1867": 1713,
  "logy": 1714,
  "Ce": 1715,
  "IM": 1716,
  "ト": 1717,
  "1879": 1718,
  "Star": 1719,
  "rie": 1720,
  "James": 1721,
  "Enter": 1722,
  "cc": 1723,
  "ller": 1724,
  "380": 1725,
  "AB": 1726,
  "UP": 1727,
  "ney": 1728,
  "Eng": 1729,
  "1876": 1730,
  "Spe": 1731,
  "War": 1732,
  "ny": 1733,
  "Studio": 1734,
  "zo": 1735,
  "George": 1736,
  "Ab": 1737,
  "shi ": 1738,
  "de ": 1739,
  " shi ": 1740,
  " de ": 1741,
  "yi ": 1742,
  " yi ": 1743,
  "ji ": 1744,
  "wei ": 1745,
  "zhi ": 1746,
  "yu ": 1747,
  " wei ": 1748,
  " ji ": 1749,
  " nian": 1750,
  " zhi ": 1751,
  " yu ": 1752,
  " li": 1753,
  " nian ": 1754,
  "zhong ": 1755,
  " li ": 1756,
  "zai ": 1757,
  "ren ": 1758,
  "you ": 1759,
  "guo ": 1760,
  "he ": 1761,
  "qi ": 1762,
  "bu ": 1763,
  "di ": 1764,
  " you ": 1765,
  " zai ": 1766,
  " ren ": 1767,
  " yue": 1768,
  " zhong ": 1769,
  " he ": 1770,
  "da ": 1771,
  "xi ": 1772,
  "xing ": 1773,
  "yuan ": 1774,
  "er ": 1775,
  "gong ": 1776,
  " yue ": 1777,
  "fu ": 1778,
  "si ": 1779,
  "ge ": 1780,
  "jian ": 1781,
  " guo ": 1782,
  "wu ": 1783,
  "jia ": 1784,
  " bu ": 1785,
  "jie ": 1786,
  "ke ": 1787,
  "cheng ": 1788,
  "zhu ": 1789,
  "sheng ": 1790,
  "xiang ": 1791,
  "xian ": 1792,
  "dao ": 1793,
  "bei ": 1794,
  "zi ": 1795,
  " qi ": 1796,
  "fa ": 1797,
  "hui ": 1798,
  "chu ": 1799,
  "jin ": 1800,
  " di ": 1801,
  "shu ": 1802,
  " er ": 1803,
  "ri ": 1804,
  " xi ": 1805,
  "ju ": 1806,
  "qu ": 1807,
  "zheng ": 1808,
  "hou ": 1809,
  "shou ": 1810,
  "ming ": 1811,
  "shang ": 1812,
  "dong ": 1813,
  "ta ": 1814,
  "jing ": 1815,
  "le ": 1816,
  "xue ": 1817,
  "fang ": 1818,
  "yan ": 1819,
  "zhan ": 1820,
  "ci ": 1821,
  "bao ": 1822,
  "hua ": 1823,
  "ying ": 1824,
  "ye ": 1825,
  "tong ": 1826,
  "zuo ": 1827,
  "zhe ": 1828,
  "guan ": 1829,
  " da ": 1830,
  " ri ": 1831,
  "yin ": 1832,
  "chang ": 1833,
  "xin ": 1834,
  "jiao ": 1835,
  "lu ": 1836,
  "dui ": 1837,
  "wen ": 1838,
  "ti ": 1839,
  "fen ": 1840,
  "qian ": 1841,
  "tai ": 1842,
  "jiang ": 1843,
  "xiao ": 1844,
  "bing ": 1845,
  " si ": 1846,
  "jun ": 1847,
  "dian ": 1848,
  "zhang ": 1849,
  "ping ": 1850,
  "xia ": 1851,
  "du ": 1852,
  "huo ": 1853,
  "yong ": 1854,
  "dan ": 1855,
  " ke ": 1856,
  " jia ": 1857,
  "hai ": 1858,
  "gai ": 1859,
  "wang ": 1860,
  "dai ": 1861,
  "nan ": 1862,
  "ru ": 1863,
  "qing ": 1864,
  "mu ": 1865,
  "bi ": 1866,
  "ban ": 1867,
  "liang ": 1868,
  "lai ": 1869,
  "mei ": 1870,
  "ya ": 1871,
  "shen ": 1872,
  " fu ": 1873,
  " xing ": 1874,
  "zu ": 1875,
  "wan ": 1876,
  "she ": 1877,
  "lian ": 1878,
  "min ": 1879,
  "mi ": 1880,
  "zhou ": 1881,
  "jiu ": 1882,
  "qiu ": 1883,
  "an ": 1884,
  "zhen ": 1885,
  "ben ": 1886,
  "xu ": 1887,
  "gao ": 1888,
  " ta ": 1889,
  "bo ": 1890,
  "xie ": 1891,
  "te ": 1892,
  "bian ": 1893,
  "ling ": 1894,
  "luo ": 1895,
  "yao ": 1896,
  "deng ": 1897,
  "duo ": 1898,
  "yang ": 1899,
  "quan ": 1900,
  "che ": 1901,
  "suo ": 1902,
  "zui ": 1903,
  "tian ": 1904,
  "gu ": 1905,
  "biao ": 1906,
  "fan ": 1907,
  "hu ": 1908,
  "yun ": 1909,
  "xuan ": 1910,
  "su ": 1911,
  "shan ": 1912,
  "fei ": 1913,
  "ding ": 1914,
  "liu ": 1915,
  "zong ": 1916,
  "sai ": 1917,
  "dang ": 1918,
  "ma ": 1919,
  "kai ": 1920,
  "ba ": 1921,
  "hao ": 1922,
  " de yi ": 1923,
  " bing ": 1924,
  " dao ": 1925,
  "feng ": 1926,
  "kou ": 1927,
  "tu ": 1928,
  "mian ": 1929,
  "men ": 1930,
  "nei ": 1931,
  "la ": 1932,
  "lei ": 1933,
  "san ": 1934,
  "cai ": 1935,
  "wai ": 1936,
  "chuan ": 1937,
  "jue ": 1938,
  "pai ": 1939,
  "chi ": 1940,
  " dan ": 1941,
  " jin ": 1942,
  " bei ": 1943,
  " gong ": 1944,
  " jian ": 1945,
  "guang ": 1946,
  " shi yi ": 1947,
  "lan ": 1948,
  "ni ": 1949,
  "gui ": 1950,
  "bai ": 1951,
  " zi ": 1952,
  "lin ": 1953,
  "ting ": 1954,
  " zhe ": 1955,
  "pu ": 1956,
  " xiang ": 1957,
  "na ": 1958,
  "gang ": 1959,
  "lun ": 1960,
  "neng ": 1961,
  "han ": 1962,
  "lie ": 1963,
  "ze ": 1964,
  " zhu ": 1965,
  "cheng wei ": 1966,
  "mo ": 1967,
  " yin ": 1968,
  " ge ": 1969,
  " xian ": 1970,
  " chu ": 1971,
  " shi de ": 1972,
  "mei guo ": 1973,
  "chan ": 1974,
  "shui ": 1975,
  " ju ": 1976,
  " cheng ": 1977,
  " de shi ": 1978,
  " jie ": 1979,
  " gai ": 1980,
  " wu ": 1981,
  "sui ": 1982,
  "xun ": 1983,
  "zhuan ": 1984,
  " bao ": 1985,
  " ping ": 1986,
  "lv ": 1987,
  " ta": 1988,
  "ao ": 1989,
  "zhuang ": 1990,
  "li ": 1991,
  "tou ": 1992,
  "duan ": 1993,
  " yi ji ": 1994,
  "se ": 1995,
  "e ": 1996,
  "huan ": 1997,
  "chong ": 1998,
  " wei yu ": 1999,
  "ceng ": 2000,
  "pin ": 2001,
  "cong ": 2002,
  "cha ": 2003,
  "1 ": 2004,
  "a ": 2005,
  "di yi ": 2006,
  "cun ": 2007,
  "dou ": 2008,
  "zao ": 2009,
  " hou ": 2010,
  "kong ": 2011,
  "zhao ": 2012,
  "gou ": 2013,
  "gan ": 2014,
  " ci ": 2015,
  "sha ": 2016,
  "qiang ": 2017,
  " shi ji ": 2018,
  "chao ": 2019,
  "meng ": 2020,
  " ye ": 2021,
  "kai shi ": 2022,
  "man ": 2023,
  "ce ": 2024,
  "tang ": 2025,
  "long ": 2026,
  "2 ": 2027,
  "ai ": 2028,
  " dan": 2029,
  "kuo ": 2030,
  "ke yi ": 2031,
  " fa ": 2032,
  " yuan ": 2033,
  " yi ge ": 2034,
  "tan ": 2035,
  "tuan ": 2036,
  " sheng ": 2037,
  " shi wei ": 2038,
  "ka ": 2039,
  "gong li ": 2040,
  " zhong guo ": 2041,
  "qin ": 2042,
  " tong": 2043,
  "tie ": 2044,
  " shi shi ": 2045,
  " bing": 2046,
  "zheng fu ": 2047,
  " ming ": 2048,
  "shao ": 2049,
  "can ": 2050,
  "pian ": 2051,
  " you": 2052,
  "huo de ": 2053,
  "mian ji ": 2054,
  "hang ": 2055,
  "hong ": 2056,
  "geng ": 2057,
  " huo ": 2058,
  "ji de ": 2059,
  " shi yong ": 2060,
  "tiao ": 2061,
  "xiu ": 2062,
  "chen ": 2063,
  "shuo ": 2064,
  "pi ": 2065,
  " dong ": 2066,
  "ren wei ": 2067,
  " shi jian ": 2068,
  "tao ": 2069,
  "zhi yi ": 2070,
  "zhong de ": 2071,
  "zheng zhi ": 2072,
  "huang ": 2073,
  "ran ": 2074,
  " yi zhi ": 2075,
  " shi jie ": 2076,
  "zhong guo ": 2077,
  " ri": 2078,
  "yue ": 2079,
  "chuang ": 2080,
  "nv ": 2081,
  "qu de ": 2082,
  "guo ji ": 2083,
  "yi shi ": 2084,
  " ping fang ": 2085,
  "wo ": 2086,
  "ren kou ": 2087,
  "xing de ": 2088,
  "po ": 2089,
  " shou ": 2090,
  "jin xing ": 2091,
  "rong ": 2092,
  " sui ": 2093,
  "liao ": 2094,
  "diao ": 2095,
  "tuo ": 2096,
  "mei you ": 2097,
  " hao ": 2098,
  "song ": 2099,
  "ou ": 2100,
  " li de ": 2101,
  " mi ": 2102,
  " li shi ": 2103,
  "nian ": 2104,
  " dang": 2105,
  " wei yuan ": 2106,
  " fen ": 2107,
  " wan ": 2108,
  "pei ": 2109,
  " qi zhong ": 2110,
  "zuo wei ": 2111,
  "gong si ": 2112,
  "fa guo ": 2113,
  "biao shi ": 2114,
  "   zai ": 2115,
  "yan jiu ": 2116,
  " er": 2117,
  "zheng shi ": 2118,
  " shang ": 2119,
  " hai ": 2120,
  " yin": 2121,
  "pan ": 2122,
  " de ji ": 2123,
  "tui ": 2124,
  " mei ": 2125,
  " xin ": 2126,
  " zhe": 2127,
  "dian shi ": 2128,
  "yun dong ": 2129,
  "que ": 2130,
  "bang ": 2131,
  "qie ": 2132,
  " tai ": 2133,
  " de di ": 2134,
  "cheng shi ": 2135,
  "3 ": 2136,
  "zhi shi ": 2137,
  " jiang ": 2138,
  " jing ": 2139,
  " shu ": 2140,
  "jian de ": 2141,
  "ta de ": 2142,
  "gong he ": 2143,
  "shu yu ": 2144,
  "she ji ": 2145,
  " qian ": 2146,
  "lang ": 2147,
  " ren min ": 2148,
  "dun ": 2149,
  " ren kou ": 2150,
  "zhi de ": 2151,
  "qiao ": 2152,
  "10 yue ": 2153,
  "12 yue ": 2154,
  " de zhi ": 2155,
  " ying ": 2156,
  "jing ji ": 2157,
  "dian ying ": 2158,
  "7 yue ": 2159,
  " xia ": 2160,
  " nan ": 2161,
  "zu zhi ": 2162,
  " mu ": 2163,
  "9 yue ": 2164,
  " zhang ": 2165,
  "8 yue ": 2166,
  "zhu yi ": 2167,
  "3 yue ": 2168,
  " zui ": 2169,
  "1 yue ": 2170,
  "mao ": 2171,
  " shi qi ": 2172,
  "dai biao ": 2173,
  "wa ": 2174,
  "ri ben ": 2175,
  "ying guo ": 2176,
  "5 yue ": 2177,
  "you yi ": 2178,
  "ji shi ": 2179,
  "kao ": 2180,
  "6 yue ": 2181,
  "guo de ": 2182,
  "kan ": 2183,
  "4 yue ": 2184,
  " hui ": 2185,
  " shi zhen ": 2186,
  "re ": 2187,
  "hen ": 2188,
  "mai ": 2189,
  "xian de ": 2190,
  " bi ": 2191,
  "wei yi ": 2192,
  "11 yue ": 2193,
  "che zhan ": 2194,
  "jiao yu ": 2195,
  " tong ": 2196,
  "gen ju ": 2197,
  "bu fen ": 2198,
  "yi de ": 2199,
  "da xue ": 2200,
  "yu shi ": 2201,
  "4 ": 2202,
  "xiang gang ": 2203,
  "ming wei ": 2204,
  "xue yuan ": 2205,
  " de guo ": 2206,
  "5 ": 2207,
  " yi yuan ": 2208,
  "li shi ": 2209,
  " de yi ge ": 2210,
  " zhi hou ": 2211,
  " ru ": 2212,
  "gen ": 2213,
  "dan ren ": 2214,
  " nian 1 yue ": 2215,
  " deng ": 2216,
  "can jia ": 2217,
  " yi wei ": 2218,
  "cao ": 2219,
  "kang ": 2220,
  "she hui ": 2221,
  " ti ": 2222,
  "xian shi ": 2223,
  " di qu ": 2224,
  " qing ": 2225,
  "sa ": 2226,
  "ying xiang ": 2227,
  "tai wan ": 2228,
  "shu de ": 2229,
  " ran": 2230,
  " yan ": 2231,
  " you yu ": 2232,
  "shang de ": 2233,
  "xing shi ": 2234,
  "ye shi ": 2235,
  " xue ": 2236,
  "qi shi ": 2237,
  " yin ci ": 2238,
  "formula ": 2239,
  "bie ": 2240,
  "guan li ": 2241,
  "lao ": 2242,
  "zeng ": 2243,
  "gong zuo ": 2244,
  "tong guo ": 2245,
  "le yi ": 2246,
  " nian 12 yue ": 2247,
  " xiao ": 2248,
  " ling ": 2249,
  "xing zheng ": 2250,
  "bu de ": 2251,
  "gong he guo ": 2252,
  "wei shi ": 2253,
  " li ya ": 2254,
  " nian de ": 2255,
  "er shi ": 2256,
  "ren de ": 2257,
  "zhun ": 2258,
  "zi ji ": 2259,
  "da de ": 2260,
  "2 yue ": 2261,
  "xiong ": 2262,
  " guo jia ": 2263,
  "zui zhong ": 2264,
  " liang ": 2265,
  " nian 3 yue ": 2266,
  "hui yi ": 2267,
  "kuang ": 2268,
  "   sheng ": 2269,
  "cheng li ": 2270,
  "nong ": 2271,
  " ping fang gong li ": 2272,
  "luo si ": 2273,
  "ku ": 2274,
  " nian 7 yue ": 2275,
  " jiao ": 2276,
  " nian 10 yue ": 2277,
  "fa xian ": 2278,
  " wang ": 2279,
  "chu de ": 2280,
  "miao ": 2281,
  " zhan ": 2282,
  "ha ": 2283,
  "6 ": 2284,
  "qi de ": 2285,
  " bao kuo ": 2286,
  "fa zhan ": 2287,
  " nian 9 yue ": 2288,
  "hei ": 2289,
  "yuan de ": 2290,
  " shi you ": 2291,
  " shi zhi ": 2292,
  "qi ta ": 2293,
  " nian 5 yue ": 2294,
  " qi jian ": 2295,
  " tian ": 2296,
  "piao ": 2297,
  "suo you ": 2298,
  "kuai ": 2299,
  "si de ": 2300,
  " bo ": 2301,
  " nian 4 yue ": 2302,
  " nian 6 yue ": 2303,
  " nian 8 yue ": 2304,
  "you yu ": 2305,
  " luo ": 2306,
  "tie lu ": 2307,
  " da xue ": 2308,
  "quan guo ": 2309,
  " shi zai ": 2310,
  "dao zhi ": 2311,
  "dao de ": 2312,
  "tong de ": 2313,
  "zhu yao ": 2314,
  "cheng de ": 2315,
  "can yu ": 2316,
  "lou ": 2317,
  "nuo ": 2318,
  "shuang ": 2319,
  " zheng ": 2320,
  "wen hua ": 2321,
  " ma ": 2322,
  " hua ": 2323,
  "di li ": 2324,
  " dui ": 2325,
  " ta men ": 2326,
  " lu ": 2327,
  "zhong yi ": 2328,
  "lian he ": 2329,
  "di de ": 2330,
  " zhi dao ": 2331,
  " dang ": 2332,
  " gu ": 2333,
  " nian 11 yue ": 2334,
  " tong shi ": 2335,
  " shen ": 2336,
  "bao kuo ": 2337,
  "bu shi ": 2338,
  " zhong xin ": 2339,
  "   shi ": 2340,
  "yin yue ": 2341,
  "bei bu ": 2342,
  " jiu ": 2343,
  "shu ji ": 2344,
  "yong yu ": 2345,
  "sen ": 2346,
  "   yi ": 2347,
  "ti gong ": 2348,
  " quan ": 2349,
  "zai yi ": 2350,
  "xuan bu ": 2351,
  " zong ": 2352,
  "guo jia ": 2353,
  " wei yuan hui ": 2354,
  "zu qiu ": 2355,
  " sui": 2356,
  "wen ti ": 2357,
  "kuan ": 2358,
  " nian zhi ": 2359,
  " zuo ": 2360,
  " yin wei ": 2361,
  "xue xiao ": 2362,
  "sheng yu ": 2363,
  " shi wu ": 2364,
  "jian yu ": 2365,
  "zi you ": 2366,
  "qian mi ": 2367,
  "gong you ": 2368,
  "guan xi ": 2369,
  "fang shi ": 2370,
  " wei zhi ": 2371,
  "en ": 2372,
  " shi zhong ": 2373,
  "hun ": 2374,
  " nian 2 yue ": 2375,
  " xu ": 2376,
  "bi sai ": 2377,
  "hua ren min ": 2378,
  "ying de ": 2379,
  "rang ": 2380,
  "cheng yuan ": 2381,
  "jian zhu ": 2382,
  "huo dong ": 2383,
  "jian li ": 2384,
  " gai": 2385,
  "heng ": 2386,
  "suan ": 2387,
  "yu yi ": 2388,
  "   li shi ": 2389,
  "ji yi ": 2390,
  "fen wei ": 2391,
  " de ren ": 2392,
  "zuo pin ": 2393,
  "she you ": 2394,
  "ren shi ": 2395,
  " dian ": 2396,
  "tong shi ": 2397,
  "guan jun ": 2398,
  " chang ": 2399,
  " ben ": 2400,
  "da li ": 2401,
  "ge ren ": 2402,
  " cheng wei ": 2403,
  "   sheng ping ": 2404,
  " jie": 2405,
  " an ": 2406,
  "zhuan ji ": 2407,
  " xian": 2408,
  "yu de ": 2409,
  " di er ": 2410,
  "bei jing ": 2411,
  " ji hua ": 2412,
  " you xi ": 2413,
  "jiu shi ": 2414,
  "xiao shi ": 2415,
  " liu ": 2416,
  "hua ren min gong he guo ": 2417,
  "yin wei ": 2418,
  "gei ": 2419,
  " ta de ": 2420,
  "men de ": 2421,
  " li yu ": 2422,
  "qun ": 2423,
  " nian dai ": 2424,
  " ba ": 2425,
  "dui yu ": 2426,
  "xi de ": 2427,
  "ming de ": 2428,
  " a ": 2429,
  "jun shi ": 2430,
  " cong ": 2431,
  "di shi ": 2432,
  "tong yi ": 2433,
  "di er ": 2434,
  "xin de ": 2435,
  "qu yu ": 2436,
  " bu fen ": 2437,
  "xue jia ": 2438,
  "e luo si ": 2439,
  "zou ": 2440,
  "ta men ": 2441,
  "s ": 2442,
  "chun ": 2443,
  " duo ": 2444,
  "wei de ": 2445,
  "shou dao ": 2446,
  "min guo ": 2447,
  "hou de ": 2448,
  "er de ": 2449,
  "sheng de ": 2450,
  "lai de ": 2451,
  "fang mian ": 2452,
  "fa sheng ": 2453,
  "zheng fu": 2454,
  "gong ji ": 2455,
  "dan wei ": 2456,
  "xing wei ": 2457,
  " shi ren ": 2458,
  " yi jing ": 2459,
  " feng ": 2460,
  " hu ": 2461,
  "yong you ": 2462,
  " fan ": 2463,
  "zhong shi ": 2464,
  "jin shi ": 2465,
  " xi tong ": 2466,
  " lian ": 2467,
  "jue ding ": 2468,
  "bu yu ": 2469,
  " zhong yang ": 2470,
  "ju you ": 2471,
  " mian ji ": 2472,
  " qu ": 2473,
  "1 ri ": 2474,
  "tong zhi ": 2475,
  "di qu ": 2476,
  "ni ya ": 2477,
  "liang ge ": 2478,
  "fa xing ": 2479,
  " guan ": 2480,
  "qu wei ": 2481,
  " ri ben ": 2482,
  " gong li ": 2483,
  " gao ": 2484,
  " fei ": 2485,
  "you de ": 2486,
  "chu xian ": 2487,
  "sheng ji ": 2488,
  " wen ": 2489,
  " te ": 2490,
  " suo ": 2491,
  "zh ": 2492,
  "hua de ": 2493,
  " ren kou mi ": 2494,
  "ci shi ": 2495,
  "qi yu ": 2496,
  "zi zhi ": 2497,
  "wu de ": 2498,
  "ju xing ": 2499,
  "lai zi ": 2500,
  " ta zai ": 2501,
  "ling yi ": 2502,
  "jia de ": 2503,
  " ji yu ": 2504,
  "xian zhi ": 2505,
  " suo": 2506,
  " wei ji ": 2507,
  "mian ji wei ": 2508,
  " su ": 2509,
  "hui de ": 2510,
  " 15": 2511,
  "bao hu ": 2512,
  " san ": 2513,
  "nan bu ": 2514,
  "du li ": 2515,
  " ping fang qian mi ": 2516,
  "shu ju ": 2517,
  "kong zhi ": 2518,
  " shi yu ": 2519,
  "s   ": 2520,
  "zong tong ": 2521,
  "jin ru ": 2522,
  " shi wei yu ": 2523,
  " li ru ": 2524,
  "ren wu ": 2525,
  "qu shi ": 2526,
  "ke li ": 2527,
  "yao qiu ": 2528,
  "mou ": 2529,
  " wo ": 2530,
  "   de ": 2531,
  " mei guo ": 2532,
  "gt ": 2533,
  " gt ": 2534,
  "gu shi ": 2535,
  "cheng ji ": 2536,
  " ran er ": 2537,
  " guang ": 2538,
  "lt ": 2539,
  " ru": 2540,
  "xue sheng ": 2541,
  "   yu ": 2542,
  " bian ": 2543,
  "jin de ": 2544,
  " dan shi ": 2545,
  " wan": 2546,
  "min zhu ": 2547,
  "gong shi ": 2548,
  "wan cheng ": 2549,
  " cai ": 2550,
  " yi qi ": 2551,
  "lie che ": 2552,
  "you ji ": 2553,
  "ke neng ": 2554,
  " lt ": 2555,
  " yi bu ": 2556,
  "shen zhi ": 2557,
  " bing yu ": 2558,
  "zha ": 2559,
  "ren zhi ": 2560,
  "ping fang ": 2561,
  "you shi ": 2562,
  " yong ": 2563,
  " bing zai ": 2564,
  " ji shu ": 2565,
  "chao guo ": 2566,
  "ti yu ": 2567,
  "yuan shi ": 2568,
  " 16": 2569,
  "cang ": 2570,
  "cun zai ": 2571,
  "qian wang ": 2572,
  "ke de ": 2573,
  "ya li ": 2574,
  "dang shi ": 2575,
  "si shi ": 2576,
  "xue xi ": 2577,
  "yong de ": 2578,
  " de yi ge": 2579,
  " 18": 2580,
  "jing guo ": 2581,
  " ceng": 2582,
  "nei de ": 2583,
  " kai ": 2584,
  "fa bu ": 2585,
  " shan ": 2586,
  " a": 2587,
  "zuo de ": 2588,
  " zhi wei ": 2589,
  "jian yi ": 2590,
  " han ": 2591,
  "guan yu ": 2592,
  "   di ": 2593,
  "wu ke ": 2594,
  "wu shi ": 2595,
  "xiang gang": 2596,
  "zhu ren ": 2597,
  " zhi jian ": 2598,
  "yin du ": 2599,
  " pu ": 2600,
  "zhan shi ": 2601,
  "zhan zheng ": 2602,
  " qi ta ": 2603,
  "guo shi ": 2604,
  "sun ": 2605,
  "pao ": 2606,
  "zhu yao": 2607,
  "sheng huo ": 2608,
  "zhou de ": 2609,
  "xu duo ": 2610,
  "jian zhi ": 2611,
  " ji wei ": 2612,
  "fan wei ": 2613,
  "bin ": 2614,
  " yi shu ": 2615,
  " ji qi ": 2616,
  " wei er ": 2617,
  "cheng gong ": 2618,
  "han guo ": 2619,
  "   S": 2620,
  "ou zhou ": 2621,
  "zhu xi ": 2622,
  "lu de ": 2623,
  "jie shou ": 2624,
  "7 ": 2625,
  "qiu dui ": 2626,
  " zhi you ": 2627,
  " shu yu ": 2628,
  "dai biao": 2629,
  " zai": 2630,
  " ji zhong ": 2631,
  "fu wu ": 2632,
  " jin": 2633,
  "zeng jia ": 2634,
  " bu guo ": 2635,
  "ban de ": 2636,
  "gong yuan ": 2637,
  " A": 2638,
  " you xian ": 2639,
  " C": 2640,
  " mo ": 2641,
  " 000": 2642,
  "xiao xing ": 2643,
  "xia de ": 2644,
  "   gai ": 2645,
  " bai ": 2646,
  " zhe xie ": 2647,
  " zhi chu ": 2648,
  "he yi ": 2649,
  "shang hai ": 2650,
  "duo de ": 2651,
  " ao ": 2652,
  "hou yi ": 2653,
  "san shi ": 2654,
  "   zhi ": 2655,
  "ning ": 2656,
  " ci wai ": 2657,
  "fu de ": 2658,
  "ju li ": 2659,
  "huai ": 2660,
  "si ji ": 2661,
  "zu cheng ": 2662,
  " ba": 2663,
  " gen ju ": 2664,
  "yun dong yuan ": 2665,
  "jiao tong ": 2666,
  " zhi zuo ": 2667,
  " zhi chi ": 2668,
  "ma wei ": 2669,
  "gao du ": 2670,
  "chang de ": 2671,
  " nian qi ": 2672,
  "zhu jiao ": 2673,
  " zh ": 2674,
  " 17": 2675,
  "zhe xie ": 2676,
  "niu ": 2677,
  "ge zhong ": 2678,
  " ceng ": 2679,
  " zhi wu ": 2680,
  "xu yao ": 2681,
  " zai ci ": 2682,
  "jue se ": 2683,
  "chong xin ": 2684,
  "chu le ": 2685,
  " S": 2686,
  "ti de ": 2687,
  "tui chu ": 2688,
  " li ji ": 2689,
  "zhe ge ": 2690,
  "jing li ": 2691,
  "xiang de ": 2692,
  " zui zhong ": 2693,
  "gong cheng ": 2694,
  " dang shi ": 2695,
  "qi yi ": 2696,
  "da shi ": 2697,
  "chu yu ": 2698,
  " ren he ": 2699,
  " ai": 2700,
  "wu zhong ": 2701,
  "du wei ": 2702,
  "ren min ": 2703,
  " she ": 2704,
  "zi de ": 2705,
  "xuan ju ": 2706,
  " du ": 2707,
  "lian sai ": 2708,
  "   di li ": 2709,
  "zi ji de ": 2710,
  "8 ": 2711,
  " ye": 2712,
  " wei le ": 2713,
  " ren wu ": 2714,
  "ge qu ": 2715,
  " huo": 2716,
  " nian jian ": 2717,
  "dang di ": 2718,
  "kai fa ": 2719,
  " lai ": 2720,
  "fu ze ": 2721,
  "   wei ": 2722,
  " wei qi ": 2723,
  "gong chan ": 2724,
  "xian zai ": 2725,
  " zhi yu ": 2726,
  " ren yuan ": 2727,
  " ma": 2728,
  "zhe yi ": 2729,
  "liang wei ": 2730,
  "jie shu ": 2731,
  "ya de ": 2732,
  "chu li ": 2733,
  "jie mu ": 2734,
  "guan de ": 2735,
  " lei ": 2736,
  "nv zi ": 2737,
  "sai shi ": 2738,
  "2010 nian ": 2739,
  "ding de ": 2740,
  "rui ": 2741,
  "dui de ": 2742,
  " ban ": 2743,
  "ri ben": 2744,
  " hou lai ": 2745,
  "fan ying ": 2746,
  "chu ban ": 2747,
  "jie de ": 2748,
  "chan sheng ": 2749,
  "shou ci ": 2750,
  "juan ": 2751,
  "she shi ": 2752,
  "lei si ": 2753,
  " shi yi ge ": 2754,
  "ba shi ": 2755,
  "dong wu ": 2756,
  " yang ": 2757,
  "jing shi ": 2758,
  " ji xu ": 2759,
  "le bu ": 2760,
  " na ": 2761,
  "jie shi ": 2762,
  "xiang shi ": 2763,
  "bo shi ": 2764,
  "ruo ": 2765,
  "an de ": 2766,
  "ke neng": 2767,
  " dai ": 2768,
  "nan zi ": 2769,
  "du de ": 2770,
  " jiang": 2771,
  "guan xia ": 2772,
  "san nian ": 2773,
  " ai ": 2774,
  "zao cheng ": 2775,
  " mei": 2776,
  "hai shi ": 2777,
  "yang de ": 2778,
  "dong shi ": 2779,
  "she li ": 2780,
  " 1 ": 2781,
  "zhong zhi ": 2782,
  "yan jiu": 2783,
  "dao le ": 2784,
  "shan xi ": 2785,
  " 0": 2786,
  "guo yi ": 2787,
  " zhen ": 2788,
  " ya ": 2789,
  " suo yi ": 2790,
  " ji zhi ": 2791,
  "zhong yu ": 2792,
  "fen bu ": 2793,
  "nv xing ": 2794,
  " he zuo ": 2795,
  "dou shi ": 2796,
  "jun de ": 2797,
  "   qi ": 2798,
  "guo yu ": 2799,
  "dong de ": 2800,
  "lian meng ": 2801,
  "dai de ": 2802,
  "zheng de ": 2803,
  "fang fa ": 2804,
  " zhi zhi ": 2805,
  "2020 nian ": 2806,
  " yi si ": 2807,
  "wu li ": 2808,
  "xiang mu ": 2809,
  "jiao shou ": 2810,
  "fang de ": 2811,
  "mei ping fang ": 2812,
  "zheng zhi ren wu ": 2813,
  "cai yong ": 2814,
  "di wei ": 2815,
  " tu ": 2816,
  " cong": 2817,
  "liang de ": 2818,
  " zai di ": 2819,
  "   ren kou ": 2820,
  " xuan ": 2821,
  "chuan tong ": 2822,
  "yuan yu ": 2823,
  "zhan de ": 2824,
  "zhu de ": 2825,
  "   you ": 2826,
  "hua min guo ": 2827,
  "xi tong ": 2828,
  "cheng ren ": 2829,
  " ri zai ": 2830,
  " ze ": 2831,
  " gui ": 2832,
  "jia ru ": 2833,
  "   A": 2834,
  "fa de ": 2835,
  "2001 nian ": 2836,
  "ge shi ": 2837,
  " nian yi ": 2838,
  "xin wen ": 2839,
  " ran ": 2840,
  "yan yuan ": 2841,
  "hao de ": 2842,
  "10 ": 2843,
  " li si ": 2844,
  "   ji ": 2845,
  " ji ji ": 2846,
  "fu shi ": 2847,
  " yi hui ": 2848,
  "xiang guan ": 2849,
  " bei": 2850,
  "ying yu ": 2851,
  "dao shi ": 2852,
  "bian ma wei ": 2853,
  "tai wan": 2854,
  "he shi ": 2855,
  " ji lu ": 2856,
  "bo wu ": 2857,
  "xue de ": 2858,
  "hou zai ": 2859,
  " wei fu ": 2860,
  " ta men": 2861,
  "lian jie ": 2862,
  " de yi ge shi zhen ": 2863,
  "bao kuo": 2864,
  " yi yi ": 2865,
  " xue ming ": 2866,
  "xi ji ": 2867,
  "zui jia ": 2868,
  "ming cheng ": 2869,
  " xi ya ": 2870,
  "ti chu ": 2871,
  "mu si ": 2872,
  " xie ": 2873,
  "ling shi ": 2874,
  " zhe shi ": 2875,
  "er nian ": 2876,
  "xiao de ": 2877,
  "hai you ": 2878,
  "mian de ": 2879,
  " wei zhu ": 2880,
  " ren kou mi du ": 2881,
  " li yi ": 2882,
  " zong": 2883,
  "ge de ": 2884,
  " zhi jie ": 2885,
  "zui gao ": 2886,
  " la ": 2887,
  "dong ji ": 2888,
  " zhou ": 2889,
  "   jia ": 2890,
  " ye shi ": 2891,
  " shi yi zhong ": 2892,
  " 14": 2893,
  "yan de ": 2894,
  "xia ji ": 2895,
  " yu shi ": 2896,
  "ge ming ": 2897,
  "ye yu ": 2898,
  " ci": 2899,
  " gong si ": 2900,
  " nian zai ": 2901,
  "yao de ": 2902,
  " fang ": 2903,
  " qiu ": 2904,
  "gai wei ": 2905,
  " B": 2906,
  " yi xie ": 2907,
  "zai de ": 2908,
  "shu shi ": 2909,
  "hai jun ": 2910,
  " jun ": 2911,
  " ka ": 2912,
  "jia zhi ": 2913,
  "sheng wu ": 2914,
  "zhe zhong ": 2915,
  "chang shi ": 2916,
  "hui shi ": 2917,
  " liang": 2918,
  "yan zhong ": 2919,
  "gai guo ": 2920,
  "na da ": 2921,
  "zhu shi ": 2922,
  "qing kuang": 2923,
  "zheng yi ": 2924,
  "zhai ": 2925,
  "bian de ": 2926,
  "ke ji ": 2927,
  "hui fu ": 2928,
  " zuo wei ": 2929,
  " zhi qian ": 2930,
  "mei ti ": 2931,
  "zai yu ": 2932,
  "luan ": 2933,
  "xin xi ": 2934,
  " yi zhong ": 2935,
  "jie guo ": 2936,
  "gao de ": 2937,
  "wen wu ": 2938,
  "jian shi ": 2939,
  "qi zhi ": 2940,
  " ji zai ": 2941,
  "min zu ": 2942,
  "shui yu ": 2943,
  "qian de ": 2944,
  "he de ": 2945,
  "yan chang ": 2946,
  " ni ": 2947,
  " 2 ": 2948,
  "zhu jian ": 2949,
  "chou ": 2950,
  "fan dui ": 2951,
  "neng li ": 2952,
  " wei you ": 2953,
  " ke si ": 2954,
  "   xing zheng ": 2955,
  " ke yi ": 2956,
  "ge li ": 2957,
  "gong kai ": 2958,
  "hua shi ": 2959,
  " bu tong ": 2960,
  "xing zhi ": 2961,
  "si yu ": 2962,
  "lei de ": 2963,
  " zhu yao ": 2964,
  "peng ": 2965,
  "bei shi ": 2966,
  "huan jing ": 2967,
  " mi": 2968,
  "jie gou ": 2969,
  "jiang jun ": 2970,
  "zhang de ": 2971,
  "t ": 2972,
  " chong ": 2973,
  " xiang gang ": 2974,
  "chuang zuo ": 2975,
  "xian yu ": 2976,
  "shang ye ": 2977,
  "   ben ": 2978,
  "zan ": 2979,
  "gao su ": 2980,
  "   formula ": 2981,
  " zhe ge ": 2983,
  "sai ji ": 2984,
  "mo shi ": 2985,
  "a er ": 2986,
  " di yi ": 2987,
  "zhe de ": 2988,
  "biao xian ": 2989,
  "9 ": 2990,
  " 2": 2991,
  " zhong hua ren min gong he guo ": 2992,
  "tong ji ": 2993,
  "jun dui ": 2994,
  " ling": 2995,
  " hong ": 2996,
  " li wei ": 2997,
  "da lu ": 2998,
  " chen ": 2999,
  "sheng ya ": 3000,
  "zhu li ": 3001,
  "ge yue ": 3002,
  "sheng li ": 3003,
  " yun ": 3004,
  "quan li ": 3005,
  "wu fa ": 3006,
  " tang ": 3007,
  "dong bu ": 3008,
  "zhou shi ": 3009,
  "zong jiao ": 3010,
  "ge lan ": 3011,
  " nian shi ": 3012,
  "diao cha ": 3013,
  "si nian ": 3014,
  "tou guo ": 3015,
  "   the": 3016,
  " 1": 3017,
  " yi ban ": 3018,
  "bu fen": 3019,
  " D": 3020,
  "biao zhun ": 3021,
  "   gen ju ": 3022,
  "hang kong ": 3023,
  "bi ye ": 3024,
  "hui zai ": 3025,
  "   ci ": 3026,
  " yi ci ": 3027,
  " dang di ": 3028,
  "shen fen ": 3029,
  " yao ": 3030,
  "di zhi ": 3031,
  " 3": 3032,
  "gong lu ": 3033,
  "fa yuan ": 3034,
  " nei ": 3035,
  " de yi bu fen ": 3036,
  "bu yi ": 3037,
  "di yu ": 3039,
  "jia li ": 3040,
  "gong zuo": 3041,
  "jin ji ": 3042,
  "cheng zhong ": 3043,
  "bing bu ": 3044,
  "sai de ": 3045,
  " tai wan ": 3046,
  "quan bu ": 3047,
  "ba gao du ": 3048,
  " bing qie": 3049,
  " ji tuan ": 3050,
  "xie hui ": 3051,
  "fei chang ": 3052,
  "jiao shi ": 3053,
  "dong hua ": 3054,
  "an quan ": 3055,
  " zhi xing ": 3056,
  "bi de ": 3057,
  " huang ": 3058,
  "cha de ": 3059,
  "   of": 3060,
  " lin ": 3061,
  "sheng chan ": 3062,
  "zi liao ": 3063,
  "fu he ": 3064,
  "jing de ": 3065,
  "tuan ti ": 3066,
  "jie zhi ": 3067,
  "luo ma ": 3068,
  "bei ren ": 3069,
  "fen bie": 3070,
  " ming": 3071,
  "chao xian ": 3072,
  "   C": 3073,
  "gai di ": 3074,
  " zhuan ": 3075,
  "ding yi ": 3076,
  "xing dong ": 3077,
  "xia yi ": 3078,
  "jin biao ": 3079,
  "ping jun ": 3080,
  " liu": 3081,
  " jin xing ": 3082,
  "wen xue ": 3083,
  "du shi ": 3084,
  " ru guo ": 3085,
  "ren kou pu ": 3086,
  "la si ": 3087,
  "qing kuang ": 3088,
  "jia ji ": 3089,
  "gong gong ": 3090,
  "jie fang ": 3091,
  " zhi yuan ": 3092,
  " E": 3093,
  "ju min ": 3094,
  " P": 3095,
  " zhi hui ": 3096,
  " qi hou ": 3097,
  "dong bei ": 3098,
  " gu": 3099,
  "shou de ": 3100,
  " zu ": 3101,
  " bao kuo": 3102,
  " 5": 3103,
  " 12": 3104,
  "shang shi ": 3105,
  " 4": 3106,
  " ji di ": 3107,
  "she zhi ": 3108,
  "d   ": 3109,
  " wo": 3110,
  "yan chu ": 3111,
  "qiu yuan ": 3112,
  "yuan yi ": 3113,
  " yu ji ": 3114,
  "sai zhong ": 3115,
  "ke xue ": 3116,
  "yan shi ": 3117,
  " da": 3118,
  "gong tong ": 3119,
  "ling dao ": 3120,
  " chuan ": 3121,
  "ren yi ": 3122,
  "t   ": 3123,
  "zuo pin": 3124,
  "zuo you ": 3125,
  " nan": 3126,
  " T": 3127,
  "er ji ": 3128,
  " si": 3129,
  " de zhu ": 3130,
  "fa biao ": 3131,
  "zai shi ": 3132,
  "28 ri ": 3133,
  "ao yun ": 3134,
  "kong jian ": 3135,
  "xing ji ": 3136,
  "gai bian ": 3137,
  "ye you ": 3138,
  "san ge ": 3139,
  "wu zhi ": 3140,
  "deng di ": 3141,
  " ling wai ": 3142,
  "jia shi ": 3143,
  " di guo ": 3144,
  " fen": 3145,
  "you xi ": 3146,
  "   the   ": 3147,
  "yuan he ": 3148,
  "fang zhi ": 3149,
  " jiu": 3150,
  " zhao ": 3151,
  "deng ren ": 3152,
  " er shi ": 3153,
  "xue shi ": 3154,
  "guan zhong ": 3155,
  "lan de ": 3157,
  "lu xian ": 3158,
  " dan ren ": 3159,
  "m ": 3160,
  "xue wei ": 3161,
  "shu wei ": 3162,
  "ze shi ": 3163,
  "ju de ": 3164,
  "bao dao ": 3165,
  " li zhi ": 3166,
  "qi wei ": 3167,
  " huo de ": 3168,
  "he ji ": 3169,
  "chu ren ": 3170,
  "zhui ": 3171,
  "bu tong ": 3172,
  "qing nian ": 3173,
  "2008 nian ": 3174,
  "lve ": 3175,
  "guo li ": 3176,
  "zuo yong ": 3177,
  "ao lin ": 3178,
  "bang zhu ": 3179,
  "pi ke ": 3180,
  " che ": 3181,
  "de   ": 3182,
  "2016 nian ": 3183,
  "gong de ": 3184,
  "zao dao ": 3185,
  " ke neng ": 3186,
  "ai er ": 3187,
  " yu qi ": 3188,
  " ri zhi ": 3189,
  " fu ze ": 3190,
  "   zhong ": 3191,
  "zu de ": 3192,
  "dan qu ": 3193,
  "jiang qi ": 3194,
  " yu yan ": 3195,
  " M": 3196,
  "ju ji ": 3197,
  "lu di ": 3198,
  " da dao ": 3199,
  "gui dao ": 3200,
  " you guan ": 3201,
  "tong chang ": 3202,
  "15 ri ": 3203,
  "shou ji ": 3204,
  "ban ben ": 3205,
  " yi you ": 3206,
  "ta men": 3207,
  "fei ji ": 3208,
  " yi yu ": 3209,
  "tu di ": 3210,
  "xian dai ": 3211,
  "yuan nian ": 3212,
  "2009 nian ": 3213,
  "ma li ": 3214,
  "sheng de yi ge shi zhen ": 3215,
  " zhi jian de ": 3216,
  "ya zhou ": 3217,
  "xi ban ": 3218,
  " mu qian ": 3219,
  "bian hua ": 3220,
  "   ju ": 3221,
  " shui ": 3222,
  "jing nei ": 3223,
  "jie he ": 3224,
  " shi xing ": 3225,
  "gong ye ": 3226,
  "hui he ": 3227,
  "jue sai ": 3228,
  "wu nian ": 3229,
  "tai ping ": 3230,
  "jia yi ": 3231,
  " ding ": 3232,
  "hou yu ": 3233,
  " bing qie ": 3234,
  "2011 nian ": 3235,
  " si ke ": 3236,
  " pai ": 3237,
  "2012 nian ": 3238,
  "zao qi ": 3239,
  "nei rong ": 3240,
  "zheng ce ": 3241,
  " 8": 3242,
  " wei zhong ": 3243,
  "guang bo ": 3244,
  "zhan yi ": 3245,
  " 13": 3246,
  " mo": 3247,
  "xian ren ": 3248,
  " ha": 3249,
  "ta zai ": 3250,
  "mei yuan ": 3251,
  "jiao yi ": 3252,
  "pi ping ": 3253,
  "xing cheng ": 3254,
  " hai ba gao du ": 3255,
  "25 ri ": 3256,
  "jiao hui ": 3257,
  "miao shu ": 3258,
  " bu dui ": 3259,
  " zhi ye ": 3260,
  " er si ": 3261,
  "wan quan ": 3262,
  " dan zai ": 3263,
  "xuan ze ": 3264,
  "yuan yin ": 3265,
  " si te ": 3266,
  " F": 3267,
  " ta yu ": 3268,
  "UTC ": 3269,
  "pa ": 3270,
  " 7": 3271,
  "bo li ": 3272,
  "zao de ": 3273,
  " he wu ": 3274,
  "jian she ": 3275,
  " yue de ": 3276,
  "xie yi ": 3277,
  "chu shi ": 3278,
  "xiao shuo ": 3279,
  "wu ke lan ": 3280,
  "chang qi ": 3281,
  "yun dong hui ": 3282,
  "bei cheng wei ": 3283,
  "lian bang ": 3284,
  " di san ": 3285,
  " wei di ": 3286,
  "30 ri ": 3287,
  " jian cheng ": 3288,
  " dang zhong ": 3289,
  "10 ri ": 3290,
  " shi yan ": 3291,
  " de dao ": 3292,
  "chi xu ": 3293,
  "A ": 3294,
  "zui da ": 3295,
  "wen hua": 3296,
  " ren wei ": 3297,
  " qie": 3298,
  " e ": 3299,
  "20 ri ": 3300,
  "ming ming ": 3301,
  "zu he ": 3302,
  "yuan zhu ": 3303,
  "duo shu ": 3304,
  "se de ": 3305,
  "dian zi ": 3306,
  "zhuan ye ": 3307,
  " 9": 3308,
  " ta shi ": 3309,
  "xing yu ": 3310,
  " yi ming ": 3311,
  "2014 nian ": 3312,
  "hou lai ": 3313,
  "lin shi ": 3314,
  "gong si": 3315,
  " xun ": 3316,
  "sheng he ": 3317,
  " you cheng ": 3318,
  "er wei ": 3319,
  "wu yuan ": 3320,
  "bu li ": 3321,
  "jie dao ": 3322,
  "fu zhi ": 3323,
  "ba li ": 3324,
  "zi ge ": 3325,
  "chu qi ": 3326,
  "2018 nian ": 3327,
  "bu ji ": 3328,
  "2019 nian ": 3329,
  "er zi ": 3330,
  " 5 ": 3331,
  "dong nan ": 3332,
  "gao zhong ": 3333,
  " 6": 3334,
  "fa lv ": 3335,
  "ta men de ": 3336,
  " meng ": 3337,
  " ji gou ": 3338,
  "za zhi ": 3339,
  " ji jin ": 3340,
  " di si ": 3341,
  " mian ": 3342,
  " shi wei yu mei guo ": 3343,
  "da dao ": 3344,
  "ye de ": 3345,
  " jin guan ": 3346,
  "2013 nian ": 3347,
  " wei yu gai guo ": 3348,
  " guo min ": 3349,
  "fa zhan": 3350,
  "a la ": 3351,
  "kui ": 3352,
  " yue zhi ": 3353,
  " li ke ": 3354,
  " G": 3355,
  "d ": 3356,
  "tu er ": 3357,
  "sheng wei ": 3358,
  " shi jie da ": 3359,
  "bao gao ": 3360,
  "zhong ji ": 3361,
  "24 ri ": 3362,
  " san": 3363,
  "dao yi ": 3364,
  "2015 nian ": 3365,
  " li yong ": 3366,
  " li kai ": 3367,
  "fang xiang ": 3368,
  " sui hou ": 3369,
  "gui ding ": 3370,
  "nei bu ": 3371,
  " yu zhong ": 3372,
  "guo min ": 3373,
  "guang dong ": 3374,
  "wang de ": 3375,
  "bo wu guan ": 3376,
  "luo de ": 3377,
  " ke": 3378,
  "26 ri ": 3379,
  " geng ": 3380,
  "can sai ": 3381,
  " yue shi ": 3382,
  " zhe zhong ": 3383,
  " ying guo ": 3384,
  "2007 nian ": 3385,
  "mu biao ": 3386,
  " wei si ": 3387,
  "she qu ": 3388,
  " yu zhi ": 3389,
  "guan zhi ": 3390,
  " tong nian ": 3391,
  "dian li ": 3392,
  "2005 nian ": 3393,
  "gong chan dang ": 3394,
  "   B": 3395,
  "18 ri ": 3396,
  "die ": 3397,
  " you qi ": 3398,
  "xian yi ": 3399,
  " xi lie ": 3400,
  " wai ": 3401,
  "te bie": 3402,
  " fen bu yu ": 3403,
  "ao lin pi ke ": 3404,
  "bing wei ": 3405,
  "lian xi ": 3406,
  "gong bu ": 3407,
  " ji chang ": 3408,
  "fu li ": 3409,
  "ju ban ": 3410,
  " sha ": 3411,
  "mu de ": 3412,
  " chu le ": 3413,
  " 2001 nian ": 3414,
  "lie de ": 3415,
  " shi he ": 3416,
  " gan ": 3417,
  "chang wei ": 3418,
  "wu xian ": 3419,
  " er sheng ": 3420,
  "bi li ": 3421,
  "quan qiu ": 3422,
  "shen de ": 3423,
  "tou zi ": 3424,
  " shi zi ": 3425,
  "2017 nian ": 3426,
  "mu di ": 3427,
  "y ": 3428,
  "16 ri ": 3429,
  " ji he ": 3430,
  "yin hang ": 3431,
  "ding wei ": 3432,
  " duo": 3433,
  "dong jing ": 3434,
  "shang shu ": 3435,
  " que": 3436,
  "guan fang ": 3437,
  "fu yi ": 3438,
  "dao yu ": 3439,
  "dang de ": 3440,
  "guo zhi ": 3441,
  "17 ri ": 3442,
  "   P": 3443,
  "pai she ": 3444,
  "zi yu ": 3445,
  "hua xue ": 3446,
  "shou yu ": 3447,
  "kai fang ": 3448,
  " you xian gong si ": 3449,
  "   zheng zhi ": 3450,
  " min ": 3451,
  "21 ri ": 3452,
  "bu zhi ": 3453,
  " de shi zhen ": 3454,
  "gai nian ": 3455,
  "   F": 3456,
  "27 ri ": 3457,
  "bao fa ": 3458,
  " zhong xue ": 3459,
  "zhe shi ": 3460,
  "ka er ": 3461,
  "19 ri ": 3462,
  "2006 nian ": 3463,
  "8 ri ": 3464,
  "ming zi ": 3465,
  "jun wei ": 3466,
  "11 ri ": 3467,
  " li fa ": 3468,
  "ying yong ": 3469,
  "12 ri ": 3470,
  "23 ri ": 3471,
  "shang you ": 3472,
  "ce shi ": 3473,
  " song ": 3474,
  " H": 3475,
  " fu wu ": 3476,
  " yin ci": 3477,
  "su lian ": 3478,
  "mei guo ren kou pu ": 3479,
  "xian wei ": 3480,
  " de wei ": 3481,
  "fei xing ": 3482,
  " zhi ji ": 3483,
  "shu liang wei ": 3484,
  "   T": 3485,
  "7 ri ": 3486,
  "qi jian ": 3487,
  " hao mi ": 3488,
  "ju le bu ": 3489,
  "fu yu ": 3490,
  "yin shi ": 3491,
  "xue zhe ": 3492,
  "huang di ": 3493,
  "bo chu ": 3494,
  "hui yu ": 3495,
  "qi ji ": 3496,
  "2021 nian ": 3497,
  "ban shi ": 3498,
  "xi lie ": 3499,
  " de zhong ": 3500,
  "22 ri ": 3501,
  "gui mo ": 3502,
  " qie ": 3503,
  " shi fa guo ": 3504,
  " 3 ": 3505,
  "r ": 3506,
  "bi xu ": 3507,
  "9 ri ": 3508,
  "ling yu ": 3509,
  "shan dong ": 3510,
  " 6 ": 3511,
  "gong neng ": 3512,
  " sai ": 3513,
  "29 ri ": 3514,
  "chu yi ": 3515,
  "yin qi ": 3516,
  "guan yuan ": 3517,
  "ying shi ": 3518,
  "te de ": 3519,
  "zui da de ": 3520,
  "zheng zai ": 3521,
  "xun lian ": 3522,
  " yue han ": 3523,
  "feng ge ": 3524,
  "kun ": 3525,
  " ji bai ": 3526,
  "jing ying ": 3527,
  "2022 nian ": 3528,
  "fu jin ": 3529,
  "ting zhi ": 3530,
  "suo shu de ": 3531,
  "neng gou ": 3532,
  "ping jia ": 3533,
  "3 ri ": 3534,
  "sheng ming ": 3535,
  "14 ri ": 3536,
  "ge di ": 3537,
  "zhu zai ": 3538,
  "qing kuang xia ": 3539,
  "yuan ji ": 3540,
  "shou shi ": 3541,
  "tiao jian ": 3542,
  "jiao de ": 3543,
  "21 ": 3544,
  "5 ri ": 3545,
  "sheng zai ": 3546,
  "qu hua ": 3547,
  "sheng chan": 3548,
  "tai de ": 3549,
  "xi shi ": 3550,
  "shang wei ": 3551,
  "she de ": 3552,
  "mai ke ": 3553,
  "   you yu ": 3554,
  "ya yu ": 3555,
  "jin zhi ": 3556,
  " dao zhi ": 3557,
  "31 ri ": 3558,
  " bu jiu ": 3559,
  "jie chu ": 3560,
  " K": 3561,
  "yuan zhi ": 3562,
  " pi ": 3563,
  " da hui ": 3564,
  "lian meng": 3565,
  " lv ": 3566,
  "xiao xing xing ": 3567,
  "4 ri ": 3568,
  " kai shi ": 3569,
  "chao ji ": 3570,
  "2 ri ": 3571,
  "xiong di ": 3572,
  "da ji ": 3573,
  " ren zhong ": 3574,
  " zui hou ": 3575,
  "dian de ": 3576,
  "6 ri ": 3577,
  "   G": 3578,
  "hai yu ": 3579,
  "zang ": 3580,
  "bo te ": 3581,
  " gong chi ": 3582,
  "liu xing ": 3583,
  "ge ji ": 3584,
  "13 ri ": 3585,
  "nan xing ": 3586,
  " sui ran ": 3587,
  "wen wu bao hu ": 3588,
  " nian dai": 3589,
  "te zheng ": 3590,
  "ren he ": 3591,
  "wu ji ": 3592,
  "ge wei ": 3593,
  "ren ji ": 3594,
  " qiang ": 3595,
  "man hua ": 3596,
  "lv you ": 3597,
  "zuo jia ": 3598,
  "ke da ": 3599,
  "si ren ": 3600,
  " tong guo ": 3601,
  "ge shou ": 3602,
  " xin": 3603,
  " jue ": 3604,
  " shen zhi ": 3605,
  "yin ci ": 3606,
  "fen xi ": 3607,
  "huang jia ": 3608,
  "ou zhou": 3609,
  "br ": 3610,
  "jian wei ": 3611,
  "sheng fen ": 3612,
  " L": 3613,
  " ling yi ": 3614,
  "zong he ": 3615,
  "xu duo": 3616,
  "lie che": 3617,
  "ju ren ": 3618,
  "niu yue ": 3619,
  " br ": 3620,
  "   jin ": 3621,
  "ci shi jie da ": 3622,
  "ban dao ": 3623,
  "zhu ti ": 3624,
  "zhong wei ": 3625,
  "cheng yi ": 3626,
  " 10": 3627,
  "zai wei ": 3628,
  "zhuang tai ": 3629,
  " sui ran": 3630,
  " you ming ": 3631,
  "qi nian ": 3632,
  " ta ceng ": 3633,
  "ben de ": 3634,
  "bian wei ": 3635,
  "pin dao ": 3636,
  " zai qi ": 3637,
  "you yi ge ": 3638,
  "fen zi ": 3639,
  "ju zhong ": 3640,
  "he li ": 3641,
  "mao yi ": 3642,
  " dou ": 3643,
  "20 shi ji ": 3644,
  " zhi zhong ": 3645,
  "bu zhang ": 3646,
  "ren kou shu liang wei ": 3647,
  "wang luo ": 3648,
  " chi ": 3649,
  "hui you ": 3650,
  "qian yi ": 3651,
  " I": 3652,
  "ao si ": 3653,
  "2004 nian ": 3654,
  "shuo shi ": 3655,
  "   zi ": 3656,
  "jie duan ": 3657,
  "xuan shou ": 3658,
  " geng": 3659,
  "gao ji ": 3660,
  "zhun bei ": 3661,
  "fa shi ": 3662,
  "ci de ": 3663,
  " he nan ": 3664,
  "fang an ": 3665,
  "fang yu ": 3666,
  "mi er ": 3667,
  "wai de ": 3668,
  "da xing ": 3669,
  "bei de ": 3670,
  "duo ci ": 3671,
  " chen": 3672,
  "bing li ": 3673,
  "gong zhong ": 3674,
  " zhou": 3675,
  "hui dao ": 3676,
  "   li ": 3677,
  " 4 ": 3678,
  "mo de ": 3679,
  " yi lai ": 3680,
  "fen zhi ": 3681,
  " ri qi ": 3682,
  "cheng du ": 3683,
  "ci zhi ": 3684,
  " lan ": 3685,
  "bu wei ": 3686,
  "2000 nian ": 3687,
  " gang ": 3688,
  "shu guan ": 3689,
  "liu nian ": 3690,
  "11 ": 3691,
  " zhong bu ": 3692,
  "wu qi ": 3693,
  "jie ji ": 3694,
  "le yi ge ": 3695,
  "yuan wei ": 3696,
  "bao han ": 3697,
  "jun zai ": 3698,
  " di fang ": 3699,
  "dian shi tai ": 3700,
  " fan": 3701,
  "you zhi ": 3702,
  "zi shi ": 3703,
  " de yi zhong ": 3704,
  "xing he ": 3705,
  " ren kou": 3706,
  " ren kou mi du wei ": 3707,
  "ju shi ": 3708,
  "deng ji ": 3709,
  " yi shi ": 3710,
  "lu jun ": 3711,
  "xuan wei ": 3712,
  "xiang tong ": 3713,
  "a   ": 3714,
  " chao ": 3715,
  "l ": 3716,
  "zhe jiang ": 3717,
  "   of   ": 3718,
  "zui hou ": 3719,
  "biao yan ": 3720,
  "qiu ji ": 3721,
  " ze": 3722,
  "si wang ": 3723,
  "gai ge ": 3724,
  " zhu yao": 3725,
  " wei yu fa guo ": 3726,
  "she bei ": 3727,
  "nong ye ": 3728,
  "da liang ": 3729,
  "duo ge ": 3730,
  "mei zhou ": 3731,
  " tou ": 3732,
  " zhi jin ": 3733,
  "dian shi ju ": 3734,
  "hou you ": 3735,
  " shi dai ": 3736,
  " zu": 3737,
  " xi ban ": 3738,
  " zhao": 3739,
  "gu ji ": 3740,
  "shang yi ": 3741,
  "ai de ": 3742,
  "yang shi ": 3743,
  " xian shi ": 3744,
  "zhu yu ": 3745,
  "guang chang ": 3746,
  "y   ": 3747,
  "liu shi ": 3748,
  "zai ji ": 3749,
  "zhan dou ": 3750,
  " xiang": 3751,
  " N": 3752,
  "fa yu ": 3753,
  " fei": 3754,
  "wen wu bao hu dan wei ": 3755,
  "   da ": 3756,
  "zhan kai ": 3757,
  " zhi li ": 3758,
  " mei you ": 3759,
  "jia he ": 3760,
  "tiao yue ": 3761,
  " jia ru ": 3762,
  "fu jian ": 3763,
  "xie zhu ": 3764,
  " yi bei ": 3765,
  " bu zai ": 3766,
  "chan pin ": 3767,
  "mu qian ": 3768,
  "bian cheng ": 3769,
  "hang kong": 3770,
  "nu ": 3771,
  " 30": 3772,
  "jiang yu ": 3773,
  "you zheng ": 3774,
  "mi de ": 3775,
  "huo de le ": 3776,
  " fen bie": 3777,
  "ren yu ": 3778,
  "20 ": 3779,
  "fen lei ": 3780,
  "dao lu ": 3781,
  "gong you ren kou ": 3782,
  "ying ji ": 3783,
  "duan de ": 3784,
  " zhi zai ": 3785,
  "qun dao ": 3786,
  "qing de ": 3787,
  "nai ": 3788,
  "biao zhun": 3789,
  "zhen qu ": 3790,
  " bei qi ": 3791,
  " zhe yi ": 3792,
  "hai ba ": 3793,
  "nao ": 3794,
  "   jian ": 3795,
  "bi jiao ": 3796,
  " qi ye ": 3797,
  " R": 3798,
  "gui hua ": 3799,
  "zhan zheng": 3800,
  "cuo ": 3801,
  " O": 3802,
  " li zi ": 3803,
  " ke neng": 3804,
  " xi wang ": 3805,
  " xing zheng ": 3806,
  "su du ": 3807,
  "ju yu ": 3808,
  "nv er ": 3809,
  "xi bu ": 3810,
  " zhong hua min guo ": 3811,
  "shou du ": 3812,
  "xi wei ": 3813,
  " bu hui ": 3814,
  " fa guo ": 3815,
  " yi ren ": 3816,
  "B ": 3817,
  "qiao zhi ": 3818,
  " gong fen ": 3819,
  " zai zhong ": 3820,
  " zhang": 3821,
  "mei ping fang gong li ": 3822,
  "rong yu ": 3823,
  "dong xi ": 3824,
  "jiu shi zhen ": 3825,
  "dong li ": 3826,
  " yi yang ": 3827,
  " de shi jian ": 3828,
  "jin gong ": 3829,
  "di yi ge ": 3830,
  "dou you ": 3831,
  "U ": 3832,
  "si he ": 3833,
  "   xi ": 3834,
  " cheng qu ": 3835,
  "ma lai": 3836,
  "hen duo ": 3837,
  "si wei ": 3838,
  "la de ": 3839,
  " 00": 3840,
  " nv ": 3841,
  "ken ": 3842,
  "ru xia ": 3843,
  "tai bei ": 3844,
  "ze ren ": 3845,
  "fu ren ": 3846,
  "la ke ": 3847,
  "qu dai ": 3848,
  "xian de yi ge ": 3849,
  " ci hou ": 3850,
  "jin biao sai ": 3851,
  " yi xia ": 3852,
  "shang wu ": 3853,
  "yu shi de ": 3854,
  " yu wei ": 3855,
  "jian you ": 3856,
  "The   ": 3857,
  " er bei ": 3858,
  "zong li ": 3859,
  " kong ": 3860,
  "wang guo ": 3861,
  "lian xu ": 3862,
  " tian": 3863,
  "xiang dui ": 3864,
  "n ": 3865,
  " man ": 3866,
  "   fu ": 3867,
  "qu yi ": 3868,
  "min zhong ": 3869,
  "jie rang": 3870,
  "reng ran": 3871,
  "xiao xi ": 3872,
  "mi shu ": 3873,
  "tie dao ": 3874,
  "zheng ge ": 3875,
  "   zhe ": 3876,
  "zui hou yi ": 3877,
  "ci ji ": 3878,
  " ruo": 3879,
  "jue de ": 3880,
  "ren kou shu liang wei ren ": 3881,
  " hei ": 3882,
  " zhong xin": 3883,
  "quan de ": 3884,
  "   zhu ": 3885,
  "zhan ling ": 3886,
  "xin jia ": 3887,
  "wai jiao ": 3888,
  "di san ": 3889,
  "jia na da ": 3890,
  " li shu yu ": 3891,
  " ren zai ": 3892,
  "tian zhu jiao ": 3893,
  "zhen shi ": 3894,
  " INSEE": 3895,
  "ye wu ": 3896,
  "me ": 3897,
  "cheng zhen ": 3898,
  " ying chi ": 3899,
  "ci yu ": 3900,
  "qi ta": 3901,
  "niao ": 3902,
  " nian ji ": 3903,
  " ran hou ": 3904,
  "   E": 3905,
  " wu": 3906,
  "yuan you ": 3907,
  " you yi ": 3908,
  "   M": 3909,
  "ceng zai ": 3910,
  "da xue": 3911,
  "jian cha ": 3912,
  "zheng quan ": 3913,
  "sheng cheng ": 3914,
  "shou ge ": 3915,
  "zuo chu ": 3916,
  "nan ji ": 3917,
  " de shi hou ": 3918,
  " he bei ": 3919,
  "ni si ": 3920,
  "ju jue ": 3921,
  "lu shi ": 3922,
  " hao": 3923,
  "jiao wei ": 3924,
  "qu xiao ": 3925,
  "ti ji ": 3926,
  " tiao ": 3927,
  " de yu ": 3928,
  " jie zhi ": 3929,
  "dian ji ": 3930,
  " rang": 3931,
  "sheng zhi ": 3932,
  "che liang ": 3933,
  " gai sheng ": 3934,
  "wang zhan ": 3935,
  "he wei ": 3936,
  "da li ya ": 3937,
  "zhong xin ": 3938,
  "dui zai ": 3939,
  "xian fa ": 3940,
  "le ji ": 3941,
  " bai": 3942,
  "he zhi ": 3943,
  "di fang ": 3944,
  "zi xing ": 3945,
  "zhen de ": 3946,
  "lan xi ": 3947,
  " qi ta": 3948,
  " er zai ": 3949,
  " zong mian ji ": 3950,
  "tian wen ": 3951,
  "yun ying ": 3952,
  " de li ": 3953,
  "jie jue ": 3954,
  "2002 nian ": 3955,
  " zheng shi ": 3956,
  " ri ben": 3957,
  "2003 nian ": 3958,
  " dui yu ": 3959,
  "mo xi ": 3960,
  " shi chang ": 3961,
  "gong yi ": 3962,
  "shu zhi ": 3963,
  "ye zai ": 3964,
  " di qi ": 3965,
  " jian zhu ": 3966,
  "shou wei ": 3967,
  "dian ying": 3968,
  " ren kou mi du mei ping fang gong li ": 3969,
  "xiao xue ": 3970,
  "ying xiang": 3971,
  "cha de shu ju ": 3972,
  "you zheng bian ma wei ": 3973,
  "hui zhi ": 3974,
  "pu tao ": 3975,
  "gan dao ": 3976,
  " xing cheng ": 3977,
  " shi zhen bian ma wei ": 3978,
  " INSEE shi zhen bian ma wei ": 3979,
  "qing shi ": 3980,
  "te li ": 3981,
  " ren kou mi du wei mei ping fang ": 3982,
  "meng gu ": 3983,
  "   bu ": 3984,
  "mu shi ": 3985,
  " xia ling shi ": 3986,
  "di yi ci ": 3987,
  "xi li ": 3988,
  "er zai ": 3989,
  "zhuo ": 3990,
  "xuan qu wei ": 3991,
  "lei ji ": 3992,
  "zuo zhan ": 3993,
  "gao yu ": 3994,
  "ni ya": 3995,
  "yu shi de ren kou shu liang wei ren ": 3996,
  "bao de ": 3997,
  "si zai ": 3998,
  "mei guo ren kou pu cha de shu ju ": 3999,
  "zuo yi ": 4000,
  "lu yi ": 4001,
  " er ren kou mi du wei mei ping fang ": 4002,
  " dang di gong you ren kou ": 4003,
  "xi yu ": 4004,
  " te bie": 4005,
  "yun xing ": 4006,
  " huo jiu shi zhen ": 4007,
  " huan ": 4008,
  "jing chang ": 4009,
  "xin li ": 4010,
  "yuan zi ": 4011,
  "sheng ji xuan qu wei ": 4012,
  "jiang shi ": 4013,
  " shuang ": 4014,
  "fa dong ": 4015,
  "kuai su ": 4016,
  "   H": 4017,
  " zhong yang": 4018,
  " bo": 4019,
  "shao nian ": 4020,
  "sheng ren ": 4021,
  "bian ji ": 4022,
  "chong jian ": 4023,
  "fen wei fa guo ": 4024,
  " gai sheng fen wei fa guo ": 4025,
  "fa qi ": 4026,
  "   nian ": 4027,
  "ming yi ": 4028,
  "gao deng ": 4029,
  "cong shi ": 4030,
  "yang hua ": 4031,
  "shuo fa ": 4032,
  " nian chu ": 4033,
  " you ren ": 4034,
  " nian yu ": 4035,
  "cheng li yu ": 4036,
  "jia zhong ": 4037,
  "jin yi bu ": 4038,
  "na de ": 4039,
  "lian he guo ": 4040,
  " er qie": 4041,
  "yan jiu suo ": 4042,
  "zheng ming ": 4043,
  "fang qi ": 4044,
  "da qu ": 4045,
  "tai guo ": 4046,
  " biao shi ": 4047,
  "gong xian ": 4048,
  "gou de ": 4049,
  "   D": 4050,
  "lun dun": 4051,
  "fan hui ": 4052,
  "ao lin pi ke yun dong hui ": 4053,
  "   he ": 4054,
  "jie rang de shi zhen ": 4055,
  "zi wei ": 4056,
  "gong ren ": 4057,
  "yun shu ": 4058,
  "suo shu de sheng ji xuan qu wei ": 4059,
  "xiang ji ": 4060,
  "huo shi ": 4061,
  " guo ji ": 4062,
  "ne ": 4063,
  "zi ran": 4064,
  "yuan li ": 4065,
  "2023 nian ": 4066,
  "si li ": 4067,
  "ti xi ": 4068,
  "jian cheng ": 4069,
  "biao wei ": 4070,
  "na li ": 4071,
  "zhu chi ": 4072,
  "zi yuan ": 4073,
  "xing qi ": 4074,
  "zhong hua ren min gong he guo ": 4075,
  "ming dan ": 4076,
  "bo lan ": 4077,
  "ce de ": 4078,
  " huang": 4079,
  "xi zai ": 4080,
  "dao ren ": 4081,
  "re dai ": 4082,
  "xi ban ya ": 4083,
  "hua wei ": 4084,
  "cui ": 4085,
  "luo fu ": 4086,
  "fu qin ": 4087,
  " xi bei ": 4088,
  "xia wu ": 4089,
  "fen de ": 4090,
  "zhan dou": 4091,
  "er he ": 4092,
  "bei yi ": 4093,
  "pai de ": 4094,
  " nian you ": 4095,
  "fa she ": 4096,
  " di qu de ": 4097,
  "ni ke ": 4098,
  " ha ": 4099,
  "wen ming ": 4100,
  " hu": 4101,
  "   che zhan ": 4102,
  " zhi cheng ": 4103,
  " he bing ": 4104,
  "diao cha": 4105,
  "chan ye ": 4106,
  " nian hou ": 4107,
  " bi": 4108,
  " shi yi ming ": 4109,
  "an shi ": 4110,
  "wan jia ": 4111,
  "xiang dang ": 4112,
  " you shi ": 4113,
  "   chu ": 4114,
  "sheng shi ": 4115,
  "chao zheng zhi ren wu ": 4116,
  " kang": 4117,
  "su de ": 4118,
  "jin xing le ": 4119,
  " wei sheng ": 4120,
  " zao ": 4121,
  "   ta ": 4122,
  "jian ji ": 4123,
  " bu neng ": 4124,
  "nan sheng ": 4125,
  "jin yi ": 4126,
  "xuan chuan ": 4127,
  " shi yi wei ": 4128,
  " chuang ": 4129,
  " pei ": 4130,
  "ying li ": 4131,
  "jing shen ": 4132,
  "bei ji ": 4133,
  "lv shi ": 4134,
  "xian xiang ": 4135,
  "za ": 4136,
  "shou shang ": 4137,
  "shu zhong ": 4138,
  "p ": 4139,
  "zi he ": 4140,
  "xi yang ": 4141,
  "guan zhu ": 4142,
  "fu ze guan xia ": 4143,
  "lian de ": 4144,
  "qi zhong yi ": 4145,
  "pai ming ": 4146,
  "mie ": 4147,
  "jia ting ": 4148,
  "tong xing ": 4149,
  "lie wei ": 4150,
  "sai er ": 4152,
  " yue zai ": 4153,
  "zhan hou ": 4154,
  "xuan ren ": 4155,
  "k ": 4156,
  "liu yu ": 4157,
  "shu liang ": 4158,
  "xiao zu ": 4159,
  "fo jiao ": 4160,
  "lan qiu ": 4161,
  "ke wei ": 4162,
  "shuai ": 4163,
  "jie yi ": 4164,
  "dao yan ": 4165,
  "zheng ju ": 4166,
  "qiu de ": 4167,
  " xi nan ": 4168,
  "da wei ": 4169,
  "tao lun ": 4170,
  "ba nian ": 4171,
  "wang shi ": 4172,
  "du jiao ": 4173,
  "yan yi ": 4174,
  " W": 4175,
  " long ": 4176,
  "re dai": 4177,
  " zhong gong ": 4178,
  "zheng dang ": 4179,
  "   bei ": 4180,
  "lai yuan ": 4181,
  "ming shi ": 4182,
  "gen ju": 4183,
  "wen jian ": 4184,
  "g ": 4185,
  "bao chi ": 4186,
  " tuo ": 4187,
  "0 ": 4188,
  " yi jian ": 4189,
  "hou qi ": 4190,
  " nian du ": 4191,
  " er qie ": 4192,
  "zhong yang ": 4193,
  " zhi xian ": 4194,
  "rui shi ": 4195,
  " ben": 4196,
  " dao le ": 4197,
  "reng ran ": 4198,
  " 10 yue ": 4199,
  " yi xi ": 4200,
  "lv ke ": 4201,
  "   K": 4202,
  " ji si ": 4203,
  "ping lun ": 4204,
  " J": 4205,
  " shi xian ": 4206,
  " can ": 4207,
  "zi dong ": 4208,
  " zong ren kou ": 4209,
  "xia de yi ge ": 4210,
  "fan de ": 4211,
  " wu ke ": 4212,
  "di si ": 4213,
  "zao nian ": 4214,
  "biao ming ": 4215,
  "xu de ": 4216,
  "lu yu ": 4217,
  " zhi ming ": 4218,
  "   L": 4219,
  "hai de ": 4220,
  " ji hu ": 4221,
  "ping tai ": 4222,
  "luo ma": 4223,
  "ke li si ": 4224,
  " shi jian yu ": 4225,
  "hao wei ": 4226,
  "ceng jing ": 4227,
  "xu yao": 4228,
  "peng you ": 4229,
  " li ren ": 4230,
  "da yue ": 4231,
  "rao ": 4232,
  "yin hang": 4233,
  "feng xian ": 4234,
  "e luo ": 4235,
  "nan jing ": 4236,
  " bei jing ": 4237,
  " de di fang ": 4238,
  " ci shi ": 4239,
  "sheng yi ": 4240,
  "gong zhong yang ": 4241,
  "tai ping yang ": 4242,
  "jiao tang ": 4243,
  "zheng bu ": 4244,
  "lian bang": 4245,
  "ke zai ": 4246,
  "jiao bu ": 4247,
  "xuan qu ": 4248,
  "xing bu ": 4249,
  "jing you ": 4250,
  "yan ge ": 4251,
  "que ding ": 4252,
  "yuan zai ": 4253,
  " guo wang ": 4254,
  "dao da ": 4255,
  "shen wei ": 4256,
  "jian dui ": 4257,
  "chong tu ": 4258,
  " ou ": 4259,
  "sou ": 4260,
  "   xian ": 4261,
  "wu ren ": 4262,
  "jian ren ": 4263,
  "mo xing ": 4264,
  "tui yi ": 4265,
  "   2021": 4266,
  "biao zhi ": 4267,
  "hua yu ": 4268,
  "ru he ": 4269,
  "qian shi ": 4270,
  "ke shi ": 4271,
  " lin": 4272,
  "qian zhi ": 4273,
  "T ": 4274,
  "xiao guo ": 4275,
  "zhang da ": 4276,
  "shang ying ": 4277,
  "X ": 4278,
  " yi shang ": 4279,
  "dao he ": 4280,
  "ke si ": 4281,
  " gong yuan ": 4282,
  " miao ": 4283,
  "jing wei ": 4284,
  "   sui ": 4285,
  "lei xing ": 4286,
  " yi li ": 4287,
  " da xue": 4288,
  "zhou wei ": 4289,
  "xian ji ": 4290,
  "que zhen ": 4291,
  "ye bu ": 4292,
  "biao da ": 4293,
  "feng bao ": 4294,
  "guang zhou ": 4295,
  "   2020": 4296,
  "xia shi ": 4297,
  "dang xuan ": 4298,
  "xie de ": 4299,
  "xian he ": 4300,
  "bi ya ": 4301,
  "sheng huo": 4302,
  "liang zhong ": 4303,
  "ding yu ": 4304,
  "pang ": 4305,
  "qi ye ": 4306,
  " ceng ren ": 4307,
  " tan ": 4308,
  " ji bei ": 4309,
  "jiao qu ": 4310,
  "ping mian ": 4311,
  "shen qing ": 4312,
  "an jian ": 4313,
  "cheng xian ": 4314,
  "lu si ": 4315,
  "xing yi ": 4316,
  " zhi fu ": 4317,
  "tuan dui ": 4318,
  " er ren kou mi du wei mei ping fang qian mi ": 4319,
  " jin ru ": 4320,
  " li da ": 4321,
  "cha yi ": 4322,
  " li lun ": 4323,
  "ying ge lan ": 4324,
  "yao qing ": 4325,
  "nei rong": 4326,
  "pu tong ": 4327,
  " qin ": 4328,
  "yuan zhang ": 4329,
  "yuan su ": 4330,
  " zhong you ": 4331,
  "xing ren ": 4332,
  "jiu nian ": 4333,
  "xi he ": 4334,
  " ta men de ": 4335,
  " jie guo ": 4336,
  "ri qi ": 4337,
  "rou ": 4338,
  "qiu chang ": 4339,
  "l   ": 4340,
  "xiao shou ": 4341,
  " zheng": 4342,
  " gao": 4343,
  "zhong yao ": 4344,
  "yan zhi ": 4345,
  "heng xing ": 4346,
  "zi yi ": 4347,
  "ru ci ": 4348,
  "dui shou ": 4349,
  "la fu ": 4350,
  "fen bie ": 4351,
  "tiao zhan ": 4352,
  "zuo shi ": 4353,
  "bao wei ": 4354,
  "cheng yu ": 4355,
  "lai shuo ": 4356,
  "shu yi ": 4357,
  "F ": 4358,
  " qi yu ": 4359,
  "hui ji ": 4360,
  " yue yu ": 4361,
  " 19": 4362,
  "ru guo ": 4363,
  " zhi zao ": 4364,
  " deng": 4365,
  "xue shu ": 4366,
  "he yu ": 4367,
  "an na ": 4368,
  "12 ": 4369,
  " zhong hua ": 4370,
  "wang lu ": 4371,
  "   in": 4372,
  "lun de ": 4373,
  "nu li ": 4374,
  "ni de ": 4375,
  " shi di ": 4376,
  "wu yi ": 4377,
  "shun ": 4378,
  " 8 yue ": 4379,
  "zheng zhuang ": 4380,
  "cai yong": 4381,
  "jia ren ": 4382,
  "ting de ": 4383,
  "neng gou": 4384,
  "zi zhi qu ": 4385,
  " 11": 4386,
  "jie fang jun ": 4387,
  "xiao zhang ": 4388,
  "dian tai ": 4389,
  "te bie ": 4390,
  " hao xian ": 4391,
  " mai ": 4392,
  "   and": 4393,
  "min de ": 4394,
  "hai zi ": 4395,
  " tong chang ": 4396,
  "you li ": 4397,
  "ta shi ": 4398,
  "lan ke ": 4399,
  "shu zi ": 4400,
  "geng ming wei ": 4401,
  "xiang yu ": 4402,
  "qu he ": 4403,
  "chuang li ": 4404,
  "quan shi ": 4405,
  "fan yi ": 4406,
  "2024 nian ": 4407,
  "zong du ": 4408,
  "   2019": 4409,
  "xu shi ": 4410,
  "duo zhong ": 4411,
  "fu qin": 4412,
  "zhu yan ": 4413,
  "ge you ": 4414,
  "she yu ": 4415,
  "jia ge ": 4416,
  "chu shen ": 4417,
  " e": 4418,
  "huo dong": 4419,
  "jiang xi ": 4420,
  "xin shi ": 4421,
  "bo de ": 4422,
  "hu shi ": 4423,
  " dai": 4424,
  " zai yi ": 4425,
  "ming yu ": 4426,
  "jiang xiang ": 4427,
  "ban gong shi ": 4428,
  "dan de ": 4429,
  "sun shi ": 4430,
  "shou ru ": 4431,
  "lin de ": 4432,
  " zhong yao ": 4433,
  "ju xing de ": 4434,
  " suo you ": 4435,
  "   wu ": 4436,
  "C ": 4437,
  "dui yi ": 4438,
  "jing cha ": 4439,
  "sa ke ": 4440,
  "jie jin ": 4441,
  " wei lian ": 4442,
  " ji ben ": 4443,
  "jie wei ": 4444,
  "jie yu ": 4445,
  "ka si ": 4446,
  "   xia ": 4447,
  "guan dian ": 4448,
  " pei": 4449,
  " lao ": 4450,
  " de yi zuo ": 4451,
  "   2018": 4452,
  "1999 nian ": 4453,
  " li he ": 4454,
  "   R": 4455,
  "jiang di ": 4456,
  "shao shu ": 4457,
  "wen zhang ": 4458,
  "kan dao ": 4459,
  " ji zhe ": 4460,
  "lun dun ": 4461,
  "tou xiang ": 4462,
  "hui shang ": 4463,
  "lu di mian ji wei ": 4464,
  "   ge ": 4465,
  "amp ": 4466,
  "shui yu mian ji wei ": 4467,
  " han": 4468,
  "jie quan guo ": 4469,
  " da qu ": 4470,
  "wen zi ": 4471,
  "zhan ji ": 4472,
  "xing jian ": 4473,
  " de di qu ": 4474,
  "sang ": 4475,
  " zhuan": 4476,
  "ao men ": 4477,
  "zai zhi ": 4478,
  "wen yi ": 4479,
  " che zhan ": 4480,
  "zhang shi ": 4481,
  "kang yi ": 4482,
  "leng ": 4483,
  "xi bei ": 4484,
  "hai an ": 4485,
  "ru kou ": 4486,
  "wai guo ": 4487,
  "wen de ": 4488,
  "chu sheng ": 4489,
  "jiao liu ": 4490,
  " xiong ": 4491,
  "   ke ": 4492,
  "ming di ": 4493,
  "24 ": 4494,
  " ji tuan": 4495,
  "xing xing ": 4496,
  "xi zhi ": 4497,
  "zhen dui ": 4498,
  "tiao zheng ": 4499,
  " pa": 4500,
  "xin ren ": 4501,
  "du yu ": 4502,
  "tian jin ": 4503,
  " amp ": 4504,
  "   2022": 4505,
  "cuo shi ": 4506,
  "zhang ke da ": 4507,
  " xian zai ": 4508,
  "fang zai ": 4509,
  "po huai ": 4510,
  "jun di ": 4511,
  "ti ming ": 4512,
  "xuan ze": 4513,
  " dang zhong lu di mian ji wei ": 4514,
  " er shui yu mian ji wei ": 4515,
  "1998 nian ": 4516,
  "rong yi ": 4517,
  "chu fa ": 4518,
  " bei er ": 4519,
  "zao yu ": 4520,
  "jing dian ": 4521,
  "chi de ": 4522,
  "ba xi ": 4523,
  " ju li ": 4524,
  " hai you ": 4525,
  "guang xi ": 4526,
  "yu   ": 4527,
  "luo di ": 4528,
  "gou cheng ": 4529,
  "bian jie ": 4530,
  " ji shi ": 4531,
  "ou yuan ": 4532,
  "xian you ": 4533,
  "xian chang ": 4534,
  " xiang gang": 4535,
  "xi yi ": 4536,
  "shan ji ": 4537,
  "tai yang ": 4538,
  "fu ji ": 4539,
  "dao ji ": 4540,
  " fa xian ": 4541,
  " de zhi chi ": 4542,
  " yue you ": 4543,
  " V": 4544,
  "ming zhi ": 4545,
  "si chuan ": 4546,
  "yue tai ": 4547,
  "   xing zheng qu hua ": 4548,
  " ao": 4549,
  " yu ci ": 4550,
  " zai zhe ": 4551,
  "dui wu ": 4552,
  "teng ": 4553,
  "tou ru ": 4554,
  "cun zhuang ": 4555,
  " jing guo ": 4556,
  " cong er ": 4557,
  "P ": 4558,
  "da zhong ": 4559,
  "keng ": 4560,
  "ha er ": 4561,
  " nian bei ": 4562,
  " fen zhong ": 4563,
  " shou": 4564,
  "you wei ": 4565,
  "cun de ": 4566,
  " sa ": 4567,
  "deng lu ": 4568,
  " 9 yue ": 4569,
  " hou": 4570,
  "da zhi ": 4571,
  "tou piao ": 4572,
  " shi li ": 4573,
  "ge lei ": 4574,
  "yuan hui ": 4575,
  "chang yi ": 4576,
  " yue wei ": 4577,
  "   2017": 4578,
  " zhi xia ": 4579,
  "gong min ": 4580,
  "yin fa ": 4581,
  "bi ye yu ": 4582,
  "jian zhong ": 4583,
  "zhang yu ": 4584,
  "nuo wei ": 4585,
  "on ": 4586,
  "tu er qi ": 4587,
  "jia yu ": 4588,
  "fang wei ": 4589,
  "tu de ": 4590,
  "tui dong ": 4591,
  " shi zhong guo ": 4592,
  "gong yu ": 4593,
  "ge yi ": 4594,
  "zhan di ": 4595,
  "hun he ": 4596,
  " ren men ": 4597,
  "ju zhu ": 4598,
  "bao liu ": 4599,
  "qian shu ": 4600,
  "jin ru": 4601,
  "wen ding ": 4602,
  "hai dao ": 4603,
  "le si ": 4604,
  "gan ran": 4605,
  "shu he ": 4606,
  "bi sai zhong ": 4607,
  " ti zhang ke da ": 4608,
  " formula ": 4609,
  "er ren ": 4610,
  "S ": 4611,
  " zai bei ": 4612,
  "zi ran ": 4613,
  "xi zhong ": 4614,
  " bu fen": 4615,
  "da fu ": 4616,
  "2 nian ": 4617,
  " 7 yue ": 4618,
  "   O": 4619,
  "wu yu ": 4620,
  "zi li ": 4621,
  "nan bei ": 4622,
  "jun yi ": 4623,
  "   18": 4624,
  "pi zhun ": 4625,
  "yong hu ": 4626,
  "ke yu ": 4627,
  "chu ji ": 4628,
  "qi zi ": 4629,
  " wei fu qi yu ": 4630,
  "heng li ": 4631,
  "fang wen ": 4632,
  "zhuang jia ": 4633,
  "ti gao ": 4634,
  " you ji ": 4635,
  " wo men ": 4636,
  "di ji ": 4637,
  "ma ke ": 4638,
  " shi qu ": 4639,
  "cheng zuo ": 4640,
  "   2016": 4641,
  "er yu ": 4642,
  "jian he ": 4643,
  "ang ": 4644,
  " yi da li ": 4645,
  " yin du ": 4646,
  "xun su ": 4647,
  "ben tu ": 4648,
  " bian": 4649,
  "zi jin ": 4650,
  "hou xuan ren ": 4651,
  "xin hao ": 4652,
  "zhan zhong ": 4653,
  " an": 4654,
  "xiao li ": 4655,
  "wei   ": 4656,
  "xian lu ": 4657,
  "pin pai ": 4658,
  "mo er ": 4659,
  "jin shu ": 4660,
  "ci wei ": 4661,
  " nian he ": 4662,
  "jie shu hou ": 4663,
  " 12 yue ": 4664,
  "ge ge ": 4665,
  " ta yi ": 4666,
  "guang fan ": 4667,
  "E ": 4668,
  "xin yi ": 4669,
  "zhu ming de ": 4670,
  "zhong li ": 4671,
  "shang ren ": 4672,
  "yong yi ": 4673,
  "xian hou ": 4674,
  "zui chu ": 4675,
  "ying pian ": 4676,
  "zhu ming ": 4677,
  "ceng yu ": 4678,
  "mou xie ": 4679,
  " xiu ": 4680,
  "cheng zhi ": 4681,
  " biao ": 4682,
  " 11 yue ": 4683,
  " de yi zhi ": 4684,
  "c ": 4685,
  " ting ": 4686,
  "wu wei ": 4687,
  "jian zao ": 4688,
  "jian zai ": 4689,
  "jie you ": 4690,
  "ling wai ": 4691,
  " de shi qu wei ": 4692,
  "chu zhan ": 4693,
  "xia lai ": 4694,
  "   de shi ": 4695,
  " zhi neng ": 4696,
  "xue hui ": 4697,
  " hai": 4698,
  " hong": 4699,
  "bu tong de ": 4700,
  " bing yi ": 4701,
  " tw": 4702,
  "he zuo ": 4703,
  "jiang su ": 4704,
  "sa er ": 4705,
  " zhong guo gong chan dang ": 4706,
  "bu dui ": 4707,
  " jia shang ": 4708,
  "fen zhong ": 4709,
  "dang shi de ": 4710,
  "shui ping ": 4711,
  "zhu bu ": 4712,
  "shan da ": 4713,
  " 21 ": 4714,
  "hans ": 4715,
  "   er ": 4716,
  "bo er ": 4717,
  " hans ": 4718,
  "ke he ": 4719,
  " di qu": 4720,
  "   li": 4721,
  "mei nian ": 4722,
  "xu qiu ": 4723,
  " ji cheng ": 4724,
  "jian shao ": 4725,
  "te shu ": 4726,
  " tw ": 4727,
  "da cheng ": 4728,
  "x ": 4729,
  "shan de ": 4730,
  "jia zu ": 4731,
  " 2011": 4732,
  " zhe xie": 4733,
  "lv wei ": 4734,
  " ren lei ": 4735,
  "pai chu ": 4736,
  " zhong de ": 4737,
  "   qing ": 4738,
  "xiao shuo": 4739,
  "ao da li ya ": 4740,
  " ri yu ": 4741,
  "nan yi ": 4742,
  "jie rang ": 4743,
  "gong chang ": 4744,
  "si ke ": 4745,
  " dan ta ": 4746,
  " cheng yuan ": 4747,
  "chang he ": 4748,
  "jie ke ": 4749,
  "zi xun ": 4750,
  " ji guan ": 4751,
  "jue ding": 4752,
  " zai zhong guo ": 4753,
  "she hui zhu yi ": 4754,
  "   2023": 4755,
  " yu ren ": 4756,
  "zhu you ": 4757,
  "M ": 4758,
  "   W": 4759,
  "zhuang zhi ": 4760,
  "fa chu ": 4761,
  " xi bao ": 4762,
  "jing yan ": 4763,
  " 2010 nian ": 4764,
  "   2014": 4765,
  "wa er ": 4766,
  " ji ren ": 4767,
  "yin su ": 4768,
  "suo de ": 4769,
  "reng ": 4770,
  " jie mu ": 4771,
  "ti shi ": 4772,
  "1997 nian ": 4773,
  "ying wen ": 4774,
  "lu zhi ": 4775,
  " hou lai": 4776,
  " e luo si ": 4777,
  "bei zhi ": 4778,
  " xu duo ": 4779,
  "   yuan ": 4780,
  "tu zhong ": 4781,
  "kong zhong ": 4782,
  "chu sheng yu ": 4783,
  "sui dao ": 4784,
  "hua he ": 4785,
  "sha si ": 4786,
  "yong shi ": 4787,
  "ling tu ": 4788,
  "mei ge ": 4789,
  "   yu shi de ren kou shu liang wei ren ": 4791,
  "   suo shu de sheng ji xuan qu wei ": 4792,
  "min jian ": 4793,
  "   de you zheng bian ma wei ": 4794,
  "   yu jie rang de shi zhen ": 4795,
  "   de shi qu wei ": 4796,
  "3 nian ": 4797,
  "geng jia ": 4798,
  " guo cheng ": 4799,
  "xiang si ": 4800,
  " 2019": 4801,
  " jing ji ": 4802,
  "   2015": 4803,
  " men ": 4804,
  "zeng zhang ": 4805,
  "nan de ": 4806,
  " zai da ": 4807,
  "ke cheng ": 4808,
  "jiang de ": 4809,
  "kong jun ": 4810,
  "hui ying ": 4811,
  " fa xing ": 4812,
  " 2009 nian ": 4813,
  "le shi ": 4814,
  "   V": 4815,
  "er yi ": 4816,
  "gu wen ": 4817,
  " he xi ": 4818,
  " ta ye ": 4819,
  "ci yi ": 4820,
  "guang gao ": 4821,
  "te er ": 4822,
  " shi mei guo ": 4823,
  "1996 nian ": 4824,
  " hk": 4825,
  "zhou fu ": 4826,
  " sheng huo": 4827,
  " wang": 4828,
  "ti yi ": 4829,
  " ji you ": 4830,
  " di da ": 4831,
  "jue se": 4832,
  "an pai ": 4833,
  "xian xing ": 4834,
  "guan bi ": 4835,
  " bing jiang ": 4836,
  "chao shi ": 4837,
  "zong bu ": 4838,
  "han shu ": 4839,
  "   2013": 4840,
  "ti sheng ": 4841,
  "fei jian zhi ": 4842,
  "wo men ": 4843,
  "   xin ": 4844,
  "fang bu ": 4845,
  "da yu ": 4846,
  "xu ke ": 4847,
  " zhuang ": 4848,
  "lang de ": 4849,
  "zheng fu de ": 4850,
  "min zhu dang ": 4851,
  " 6 yue ": 4852,
  "zhuang shi ": 4853,
  "jia ru": 4854,
  " bing you ": 4855,
  "quan mian ": 4856,
  " hk ": 4857,
  "ban gong ": 4858,
  " de guo jia ": 4859,
  "jun ji ": 4860,
  "xing tai ": 4861,
  "che zhan": 4862,
  " er gai ": 4863,
  " feng": 4864,
  " zhi shi ": 4865,
  " he er ": 4866,
  "bao li ": 4867,
  "di guo ": 4868,
  "jie gou": 4869,
  "tian de ": 4870,
  "dui shi ": 4871,
  "shan mai": 4872,
  "ju bu ": 4873,
  "ling de ": 4874,
  "fo ": 4875,
  "rui dian ": 4876,
  "dang yu ": 4877,
  "luo ke ": 4878,
  "I ": 4879,
  "wei yi ge ": 4880,
  "jun gong ": 4881,
  "dang zhong ": 4882,
  "wei zhi ": 4883,
  "tu shu guan ": 4884,
  "nei lu ": 4885,
  "hua zhong ": 4886,
  "zhuan jia ": 4887,
  " ji nian ": 4888,
  "cheng xu ": 4889,
  " yue tai ": 4890,
  " lai zi ": 4892,
  "hui bei ": 4893,
  "se lie ": 4894,
  "shan shi ": 4895,
  "yun xu ": 4896,
  "4 nian ": 4897,
  "le   ": 4898,
  "bing mei you ": 4899,
  "jiu dian ": 4900,
  "ge zhi ": 4901,
  " ke xue ": 4902,
  " 20": 4903,
  "   xiang ": 4904,
  " qi zhong yi ": 4905,
  "1992 nian ": 4906,
  "si xiang ": 4907,
  "fei jian zhi di qu ": 4908,
  " 5 yue ": 4909,
  "dai you ": 4910,
  "zu cheng de ": 4911,
  "ba wei ": 4912,
  "fa lv": 4913,
  " xi jie ": 4914,
  "dian nao": 4915,
  "jing zheng ": 4916,
  "san jiao ": 4917,
  " mao ": 4918,
  " yi jia ": 4919,
  "guo wei ": 4920,
  "xun hui ": 4921,
  "jin pai ": 4922,
  "chang yu ": 4923,
  "tan ke ": 4924,
  " li bu ": 4925,
  " you qi shi ": 4926,
  "mu qin ": 4927,
  "tong yu ": 4928,
  "bing shi ": 4929,
  "huan ying ": 4930,
  " 2018": 4931,
  "ma er ": 4932,
  "xia jiang ": 4933,
  "mo xi ge ": 4934,
  "ge lan": 4935,
  " zheng fu ": 4936,
  "yan jiu yuan ": 4937,
  "shu xue ": 4938,
  "jiu de ": 4939,
  "zhuan yi ": 4940,
  "nei ge ": 4941,
  " shi jie bei ": 4942,
  " li ya": 4943,
  "gong si de ": 4944,
  "hua ren ": 4945,
  " gong zuo ": 4946,
  " qian": 4947,
  "jun you ": 4948,
  "jiu zhi ": 4949,
  " he di ": 4950,
  "ming ming wei ": 4951,
  "   jia zu ": 4952,
  " ji chu ": 4953,
  "sheng zhang ": 4954,
  "lai dao ": 4955,
  "deng wei ": 4956,
  " di xia ": 4957,
  "bei ren wei shi ": 4958,
  "ying yun ": 4959,
  "xiu gai ": 4960,
  "ming ling ": 4961,
  "shuo ming ": 4962,
  "que fa ": 4963,
  "hui zhang ": 4964,
  " chu yu ": 4965,
  "yong lai ": 4966,
  " wan ren ": 4967,
  " lie ": 4968,
  " na": 4969,
  "hu de ": 4970,
  "dui qi ": 4971,
  "ruan ": 4972,
  "   J": 4973,
  "zi mu ": 4974,
  "shou fu ": 4975,
  " cha ": 4976,
  "dai li ": 4977,
  " dan you yu ": 4978,
  "wen shi ": 4979,
  " bu tong de ": 4980,
  "   zh ": 4981,
  "mao qiu ": 4982,
  " min guo ": 4983,
  " zai mei guo ": 4984,
  " shi yi ge": 4985,
  " de di er ": 4986,
  " wei wei ": 4987,
  "zhu ji ": 4988,
  " rang ": 4989,
  "gong ju ": 4990,
  "shi   ": 4991,
  "ta yu ": 4992,
  "cheng wei le ": 4993,
  " 4 yue ": 4994,
  "liao jie ": 4995,
  " ta bei ": 4996,
  "que ren ": 4997,
  "15 ": 4998,
  "ye bei ": 4999,
  " yin yue ": 5000,
  "yin de ": 5001,
  "chang di ": 5002,
  "fa an ": 5003,
  "fei lv ": 5004,
  " xuan bu ": 5005,
  "ju zhang ": 5006,
  "   jie zhi ": 5007,
  "cai qu ": 5008,
  "shen ti ": 5009,
  "bei er ": 5010,
  "chang pian ": 5011,
  " ta hai ": 5012,
  " shang hai ": 5013,
  " zhong guo ren min ": 5014,
  " The   ": 5015,
  "che xiao ": 5016,
  "shou zhong ": 5017,
  "can jia le ": 5018,
  " kang ": 5019,
  "on   ": 5020,
  "1995 nian ": 5021,
  " 2016": 5022,
  " kuan ": 5023,
  "bo fang ": 5024,
  "chan pin": 5025,
  " er fu ": 5026,
  "jiao lian ": 5027,
  "xie ren ": 5028,
  "che de ": 5029,
  "zhu zuo ": 5030,
  "ban fa ": 5031,
  "chuan bo ": 5032,
  "fu you ": 5033,
  "su wei ": 5034,
  " 23": 5035,
  " yi ju ": 5036,
  " yi nian ": 5037,
  "zhe li ": 5038,
  "ma si ": 5039,
  "1994 nian ": 5040,
  " wei ren ": 5041,
  " quan guo ": 5042,
  "   zhong guo ": 5043,
  "sui ji ": 5044,
  " li ru": 5045,
  "tie lu": 5046,
  "dian qi ": 5047,
  "liang shi ": 5048,
  "qiu hui ": 5049,
  " wei yuan hui": 5050,
  "ma de ": 5051,
  " qi lai ": 5052,
  "fa dian ": 5053,
  "wang qiu ": 5054,
  "ze you ": 5055,
  "bai se ": 5056,
  " shi yi nian ": 5057,
  "yue han ": 5058,
  "ju he ": 5059,
  "gu de ": 5060,
  "tai ji ": 5061,
  "jie hun ": 5062,
  "hua yuan ": 5063,
  "shen jing ": 5064,
  "chu xi ": 5065,
  "zhan tai ": 5066,
  "wan shang ": 5067,
  "m   ": 5068,
  " di tie ": 5069,
  "ling bu ": 5070,
  " zhi di ": 5071,
  " you xie ": 5072,
  " yi zai ": 5073,
  "zi zhu ": 5074,
  " que ": 5075,
  "ye he ": 5076,
  "hua sheng ": 5077,
  " xing dong ": 5078,
  "zu jian ": 5079,
  " wei neng ": 5080,
  "chan sheng de ": 5081,
  " ren min zheng fu ": 5082,
  "liang ren ": 5083,
  " you xiao ": 5084,
  "ling xian ": 5085,
  "zhao kai ": 5086,
  "2020 nian mei guo ren kou pu cha de shu ju ": 5087,
  "ma lai xi ya ": 5088,
  "xue he ": 5089,
  "le ta ": 5090,
  "huo jian ": 5091,
  "chao de ": 5092,
  " er bu ": 5093,
  "tong che ": 5094,
  "yan chang hui ": 5095,
  " ka": 5096,
  "xu li ya ": 5097,
  "chang zai ": 5098,
  "yao wu ": 5099,
  "qin shi ": 5100,
  "R ": 5101,
  "ti zhong ": 5102,
  "ru xuan ": 5103,
  " she ji ": 5104,
  " cao ": 5105,
  "kuo da ": 5106,
  " zai xi ": 5107,
  " xi la ": 5108,
  "lie biao ": 5109,
  " dai biao ": 5110,
  "chu xian zai ": 5111,
  "yin du": 5112,
  " ying yu ": 5113,
  "   nian": 5114,
  "   2025": 5115,
  "to   ": 5116,
  " li shu ": 5117,
  "ge da ": 5118,
  "ge er ": 5119,
  "xue xiao": 5120,
  "xiang xi ": 5121,
  "   2024": 5122,
  " gong cheng ": 5123,
  "xin ji ": 5124,
  " fu jin ": 5125,
  "   qian ": 5126,
  " da bu fen ": 5127,
  "shan xi sheng ": 5128,
  "xing zhong ": 5129,
  "dai bu ": 5130,
  "gua ": 5131,
  "tai shi ": 5132,
  "si te ": 5133,
  "chang pian": 5134,
  "kong bu ": 5135,
  " shi de yi ": 5136,
  " tao ": 5137,
  " zhi du ": 5138,
  "hu bei ": 5139,
  "lv xing ": 5140,
  "tuo li ": 5141,
  "gong hui ": 5142,
  "shen shi ": 5143,
  "cheng li de ": 5144,
  "da bu fen ": 5145,
  " wei li ": 5146,
  "ao di li ": 5147,
  "gui ze ": 5148,
  " liang ren ": 5149,
  "da lu de ": 5150,
  "shang hai": 5151,
  "lao dong ": 5152,
  "1991 nian ": 5153,
  " yi tong ": 5154,
  "zhou bian ": 5155,
  "jing yu ": 5156,
  "zhuang de ": 5157,
  "pei yin ": 5158,
  "cu jin ": 5159,
  "tong bu ": 5160,
  " qiao ": 5161,
  "xing xiang ": 5162,
  "ci zai ": 5163,
  "fen li ": 5164,
  "zhuang kuang ": 5165,
  " li shi shang ": 5166,
  "wan ren ": 5167,
  " C ": 5168,
  "long de ": 5169,
  "suan ji ": 5170,
  "xing qu ": 5171,
  " ming chao zheng zhi ren wu ": 5172,
  " lu": 5173,
  "wu ke lan": 5174,
  "jin bu ": 5175,
  "bao shi ": 5176,
  "dai biao da hui ": 5177,
  "wu he ": 5178,
  "ze wei ": 5179,
  " zhi zi ": 5180,
  "nan shi ": 5181,
  "pei he ": 5182,
  "zhu chang ": 5183,
  " zhe jiang ": 5184,
  "ping wei ": 5185,
  "te se ": 5186,
  "sui hou ": 5187,
  "xia ji ao lin pi ke yun dong hui ": 5188,
  "22 ": 5189,
  "jiao xue ": 5190,
  "D ": 5191,
  " ji er ": 5192,
  "xie shi ": 5193,
  "pu bian ": 5194,
  "da he ": 5195,
  "zhe zai ": 5196,
  "b ": 5197,
  "piao fang ": 5198,
  "   a": 5199,
  "la ji ": 5200,
  " shi tu ": 5201,
  " 3 yue ": 5202,
  "wen xian ": 5203,
  "luo ji ": 5204,
  "fei zhou ": 5205,
  " yao qiu ": 5206,
  "   xiao ": 5207,
  "lian ren ": 5208,
  "zhuan xiang ": 5209,
  " xi ju ": 5210,
  "sa si ": 5211,
  "25 ": 5212,
  " wei he ": 5213,
  "an quan": 5214,
  " 2011 nian ": 5215,
  "dao zhong ": 5216,
  "i ": 5217,
  " fu jian ": 5218,
  "she ji de ": 5219,
  "kao lv ": 5220,
  "wang chao ": 5221,
  "te   ": 5222,
  "jie ren ": 5223,
  "ming xian ": 5224,
  " wei wu ": 5225,
  " pan ": 5226,
  "zhu zhang ": 5227,
  "gong zhi ": 5228,
  "16 ": 5229,
  " bu ke ": 5230,
  " xi bu ": 5231,
  "zheng he ": 5232,
  "tong dao ": 5233,
  " sun": 5234,
  " wei xing ": 5235,
  "xu zai ": 5236,
  "biao mian ": 5237,
  " mai": 5238,
  " nv xing ": 5239,
  " nai": 5240,
  "   guo ": 5241,
  "kou wei ": 5242,
  "mei guo de ": 5243,
  "ling dao ren ": 5244,
  "bi sai": 5245,
  "hu yu ": 5246,
  " wei lai ": 5247,
  "qi zhong yi zhong ": 5248,
  " 2021": 5249,
  "zhao dao ": 5250,
  "si ling ": 5251,
  "hong se ": 5252,
  "1993 nian ": 5253,
  "jing cha": 5254,
  "fang wu ": 5255,
  " s   ": 5256,
  "1988 nian ": 5257,
  " li mi ": 5258,
  " jiao yu ": 5259,
  " yu le ": 5260,
  "yuan gong ": 5261,
  "zui hou": 5262,
  "1 hao ": 5263,
  " shi wei le ": 5264,
  " de zhi wu ": 5265,
  "   cong ": 5266,
  "hun yin ": 5267,
  "yun dong": 5268,
  "cai liao ": 5269,
  " cheng gong ": 5270,
  " wei hui ": 5271,
  " xi ya": 5272,
  " ji hui ": 5273,
  " 2001 nian ren kou ": 5274,
  "dong nan bu ": 5275,
  " you bu ": 5276,
  "dong bei bu ": 5277,
  " 2015": 5278,
  "hua ji ": 5279,
  "fen bu yu ": 5280,
  "jun yu ": 5281,
  "shou zhi ": 5282,
  "bian shi ": 5283,
  "ying gai ": 5284,
  " xing qi ": 5285,
  "fu zai ": 5286,
  "ti zhi ": 5287,
  " nian qian ": 5288,
  "   2012": 5289,
  " ren shu ": 5290,
  "da chen ": 5291,
  "bao zhi ": 5292,
  "si ge ": 5293,
  "fei chu ": 5294,
  " han guo ": 5295,
  " 2005 nian ": 5296,
  "jin you ": 5297,
  "dian hua ": 5298,
  " ti gong ": 5299,
  " tui ": 5300,
  "ge he ": 5301,
  " bu men ": 5302,
  "bao yu ": 5303,
  " yi ban": 5304,
  " Ma": 5305,
  "ruan jian ": 5306,
  "sao ": 5307,
  "yuan xing ": 5308,
  " guan yu ": 5309,
  "wu tai ": 5310,
  " zhong": 5311,
  "ling di ": 5312,
  "chi you ": 5313,
  "dui zhang ": 5314,
  "tui jin ": 5315,
  "zhu jue ": 5316,
  "geng duo ": 5317,
  " yin er ": 5318,
  "fa xian le ": 5319,
  " sui de ": 5320,
  " quan": 5321,
  "chu lai ": 5322,
  "ti dao ": 5323,
  "yong zuo ": 5324,
  "suo zai ": 5325,
  "zheng chang ": 5326,
  "jue shi ": 5327,
  " nian di ": 5328,
  "wu zhuang ": 5329,
  "guo ji ji ": 5330,
  "r   ": 5331,
  "mei de ": 5332,
  "ya li shan da ": 5333,
  "ben di ": 5334,
  "bian xing ": 5335,
  " da cheng ": 5336,
  "gui de ": 5337,
  "   and   ": 5338,
  " er shui yu mian ji wei 0": 5339,
  "ri jun ": 5340,
  "o ": 5341,
  " zao cheng ": 5342,
  "yin di ": 5343,
  "jiao you ": 5344,
  "dou hui ": 5345,
  "bo si ": 5346,
  "po huai": 5347,
  "tai ren ": 5348,
  "dong fang ": 5349,
  "tong yang ": 5350,
  "jiao da ": 5351,
  "huo zhe ": 5352,
  " ping fang mi ": 5353,
  " zai jia ": 5354,
  " da liang ": 5355,
  "hai wai ": 5356,
  "ming xing ": 5357,
  "tuan de ": 5358,
  "qing bao ": 5359,
  "an hui ": 5360,
  "cao zuo ": 5361,
  "nei you ": 5362,
  "dui wai ": 5363,
  "qian wang": 5364,
  "jie shao ": 5365,
  " sui zhe ": 5366,
  " U": 5367,
  " reng": 5368,
  " 2017": 5369,
  "jie mu": 5370,
  "ye hui ": 5371,
  "xia you ": 5372,
  " he ping ": 5373,
  " er gai di ": 5374,
  "can mou": 5375,
  " 2020": 5376,
  " 2014": 5377,
  "   zao nian ": 5378,
  "xiang yi ": 5379,
  "yong tu ": 5380,
  "7 nian ": 5381,
  " 2013": 5382,
  "qiang de ": 5383,
  " yu he ": 5384,
  "chu kou ": 5385,
  " yi du ": 5386,
  " zhi ding ": 5387,
  " dou": 5388,
  "gai shan ": 5389,
  "ao yun hui ": 5390,
  "biao de ": 5391,
  "la he ": 5392,
  " xi tong": 5393,
  " de shi jie ": 5394,
  "gao jia ": 5395,
  "xi nan ": 5396,
  " yue nan ": 5397,
  "dui xiang ": 5398,
  "san ji ": 5399,
  "xian jin ": 5400,
  "yan shen ": 5401,
  "zuo qu ": 5402,
  "que zhen bing li ": 5403,
  "dun de ": 5404,
  " jia na da ": 5405,
  " bao han ": 5406,
  "mei li ": 5407,
  " shi da ": 5408,
  "le da ": 5409,
  "xiao qu ": 5410,
  "jun qu ": 5411,
  "deng shang ": 5412,
  "zheng ti ": 5413,
  " xiu": 5414,
  " sheng yu ": 5415,
  "jia zai ": 5416,
  "chang you ": 5417,
  "le ta de ": 5418,
  "xia xia de yi ge ": 5419,
  "long jiang ": 5420,
  "duo ren ": 5421,
  "ge lun ": 5422,
  " ye you ": 5423,
  "jue yi ": 5424,
  "shu ru ": 5425,
  "hai xia ": 5426,
  "guan shi ": 5427,
  "sui zhu ": 5428,
  "nie ": 5429,
  " xian ren ": 5430,
  "5 nian ": 5431,
  "yun shi ": 5432,
  " qi zai ": 5433,
  "yun zuo ": 5434,
  "k   ": 5435,
  "19 shi ji ": 5436,
  " ri de ": 5437,
  "gao su gong lu ": 5438,
  "ju yi ": 5439,
  "gou zao ": 5440,
  "13 ": 5441,
  " wei ke ": 5442,
  "ban shi chu ": 5443,
  " er yan ": 5444,
  " nan zhi ": 5445,
  "zhan zhi ": 5446,
  "liu zai ": 5447,
  "   zeng ": 5448,
  "zuo ren ": 5449,
  "fa shou ": 5450,
  "dian che ": 5451,
  " dian ying ": 5452,
  "kang ri ": 5453,
  "1990 nian ": 5454,
  "shu yuan ": 5455,
  " sai ji ": 5456,
  "jia you ": 5457,
  "du he ": 5458,
  "fei li ": 5459,
  "jun guan ": 5460,
  "mi mi ": 5461,
  "kai zhan ": 5462,
  " shi wu ke ": 5463,
  "ren da ": 5464,
  " zhong zai ": 5465,
  " 100": 5466,
  "shang yu ": 5467,
  "re   ": 5468,
  "bin hai ": 5469,
  " dong lin ": 5470,
  " 2010": 5471,
  " shao ": 5473,
  "jiang hui ": 5474,
  "xia ling": 5475,
  "liang ci ": 5476,
  "tian shi ": 5477,
  "chuang jian ": 5478,
  "ling xiu ": 5479,
  " wan mei yuan ": 5480,
  "zhuang bei ": 5481,
  " nian lai ": 5482,
  "dong zuo ": 5483,
  " niu": 5484,
  "chuan zhi ": 5485,
  "chai chu ": 5486,
  "sen lin ": 5487,
  "an da ": 5488,
  "shou yi ": 5489,
  " qi xiang ": 5490,
  "shou zhang ": 5491,
  " tai wan": 5492,
  "cai zheng ": 5493,
  "ya ke ": 5494,
  "bi mian ": 5495,
  "tou piao": 5496,
  "3 ge ": 5497,
  "gu li ": 5498,
  " qi zi ": 5499,
  "shen me": 5500,
  "shan qu ": 5501,
  "2 ren ": 5502,
  " zheng zhi ": 5503,
  " cheng li ": 5504,
  "hui yuan ": 5505,
  "   si ": 5506,
  " jian yu ": 5507,
  "bei shi wei ": 5508,
  " ju xing ": 5509,
  "tu xing ": 5510,
  "qin zi ": 5511,
  " er tong ": 5512,
  "ju qing ": 5513,
  "shou lu ": 5514,
  "ka luo ": 5515,
  " qi": 5516,
  " po": 5517,
  " nian 1 yue 1 ri ": 5518,
  " heng ": 5519,
  "wu si ": 5520,
  " tai yang ": 5521,
  "deng de ": 5522,
  "zui gao": 5523,
  "hou shi ": 5524,
  "zhe bu ": 5525,
  "wai jiao bu ": 5526,
  " yi mei yuan ": 5527,
  "liu de ": 5528,
  " si ling ": 5529,
  "ce liang ": 5530,
  "1989 nian ": 5531,
  "jing xuan ": 5532,
  " mei ge ": 5533,
  "hui zhong ": 5534,
  "zhang guan ": 5535,
  "fan zui ": 5536,
  " jie shou ": 5537,
  "3 ren ": 5538,
  "ban li ": 5539,
  " 2007 nian ": 5540,
  "   dang ": 5541,
  "fu wei ": 5542,
  "suo shi ": 5543,
  "bing ru ": 5544,
  " huan": 5545,
  "si yi ": 5546,
  "ming zhong ": 5547,
  " you ke ": 5548,
  "xiang zheng ": 5549,
  " er zi ": 5550,
  "e   ": 5551,
  "shou xi ": 5552,
  "geng wei ": 5553,
  "dai lai ": 5554,
  "bao shou ": 5555,
  " dong bei ": 5556,
  "fan wei nei ": 5557,
  "pian de ": 5558,
  "mian shi ": 5559,
  "meng de ": 5560,
  "guo wang ": 5561,
  "tai feng ": 5562,
  "ri zhi ": 5563,
  " er cheng ": 5564,
  "hu nan ": 5565,
  " 2008 nian ": 5566,
  " qi xia ": 5567,
  "chu dao ": 5568,
  "zun ": 5569,
  " zai du ": 5570,
  " she hui ": 5571,
  " yi hou ": 5572,
  " jie ke ": 5573,
  " sheng huo xi ": 5574,
  "yan xi ": 5575,
  "fang mian de ": 5576,
  "ren li ": 5577,
  "can yi yuan ": 5578,
  "kai tong ": 5579,
  "tai zi ": 5580,
  "jun zhu ": 5581,
  "qing chu ": 5582,
  "ding ju ": 5583,
  "gong zhu ": 5584,
  "sheng yin ": 5585,
  " she you ": 5586,
  "hua he wu ": 5587,
  "zhan qi jian ": 5588,
  " 2012": 5589,
  " yong you ": 5590,
  "jin wei ": 5591,
  "1984 nian ": 5592,
  "zhou qi ": 5593,
  "zu fu ": 5594,
  "jian jie ": 5595,
  "ying ye ": 5596,
  " si wang ": 5597,
  "liang ji ": 5598,
  "pi fu ": 5599,
  "fei de ": 5600,
  "wai bu ": 5601,
  "xiang hu ": 5602,
  "guan cha ": 5603,
  "xing bu ming ": 5604,
  "dui you ": 5605,
  "zhu yao de ": 5606,
  "lei da ": 5607,
  " ni": 5608,
  "ce   ": 5609,
  "30 ": 5610,
  "du li de ": 5611,
  " sha": 5612,
  "zhuan de ": 5613,
  " lao": 5614,
  "lv de ": 5615,
  "xi ju ": 5616,
  " can jia ": 5617,
  "   ming ": 5618,
  "bing de ": 5619,
  "jiang ji ": 5620,
  "ma la ": 5621,
  "er yue ": 5622,
  "chang zhi ": 5623,
  "gou mai ": 5624,
  " sheng huo xi xing bu ming ": 5625,
  " yi dai ": 5626,
  "tian qi ": 5627,
  " ju you ": 5628,
  "que de ": 5629,
  "tong pai ": 5630,
  "xin yang ": 5631,
  "fa xing de ": 5632,
  "zuo biao wei ": 5633,
  "jiang ling ": 5634,
  "tou lu ": 5635,
  "jiu long ": 5636,
  "an zhuang ": 5637,
  " wu fa ": 5638,
  "   bei jing ": 5639,
  "liang xiang ": 5640,
  "8 nian ": 5641,
  "jia li fu ": 5642,
  "1 nian ": 5643,
  "xin xing ": 5644,
  "huo shan ": 5645,
  "zu zhi de ": 5646,
  "ke neng shi ": 5647,
  "jing zhong ": 5648,
  "cheng he ": 5649,
  "lu ji ": 5650,
  "guan jian ": 5651,
  "tai bei shi ": 5652,
  "jiu du ": 5653,
  "   ci wai ": 5654,
  " dong": 5655,
  " nian   ": 5656,
  "jie san ": 5657,
  "ru qin ": 5658,
  " gong you ": 5659,
  " yong yu ": 5660,
  "   Ma": 5661,
  "kong qi ": 5662,
  " zai ci": 5663,
  " yue zhong ": 5664,
  "liang zhi ": 5665,
  "bai ren ": 5666,
  "fang yan ": 5667,
  "lun wen ": 5668,
  " xiao": 5669,
  "er zhi ": 5670,
  "zhu yi de ": 5671,
  " zhong guo da lu ": 5672,
  " zhong shi ": 5673,
  "shang bu ": 5674,
  "zhe xie": 5675,
  "chuan shuo ": 5676,
  "ke yi zai ": 5677,
  "1985 nian ": 5678,
  "kao gu ": 5679,
  "hou bei ": 5680,
  " chu xian ": 5681,
  " s": 5682,
  "qu ji ": 5683,
  "fu jin de ": 5684,
  " 2009": 5685,
  "zhang ai ": 5686,
  " yang": 5687,
  " cha": 5688,
  "ai ji ": 5689,
  "chu bu ": 5690,
  " yin qi ": 5691,
  "tong nian ": 5692,
  "man de ": 5693,
  "jing fang ": 5694,
  " shi shi jie ": 5695,
  "xin jia po ": 5696,
  "1 li ": 5697,
  "mo si ke ": 5698,
  "   ju qing ": 5699,
  "lian zai ": 5700,
  "yu yan ": 5701,
  " bi ru ": 5702,
  "   I": 5703,
  "cheng nian ": 5704,
  "kao jin ": 5705,
  "ming ren ": 5706,
  "qian ren ": 5707,
  " can yu ": 5708,
  " wei ci ": 5709,
  "zhan ting ": 5710,
  "gui zu ": 5711,
  " kai": 5712,
  " duan ": 5713,
  " di shi ": 5714,
  "yun nan ": 5715,
  "zhong dian ": 5716,
  "zuo zhe ": 5717,
  "guang dong sheng ": 5718,
  " shi ri ben ": 5719,
  "mu qin": 5720,
  " qi shi ": 5721,
  " si chuan ": 5722,
  " gong tong ": 5723,
  " 2008": 5724,
  "qu le ": 5725,
  "zhe wei ": 5726,
  " guo cheng zhong ": 5727,
  "bao zhang ": 5728,
  "tai du ": 5729,
  "suo shu ": 5730,
  "14 ": 5731,
  " te bie shi ": 5732,
  " 1949": 5733,
  " 2013 nian ": 5734,
  "zhou ji ": 5735,
  "gao da ": 5736,
  " ren ming ": 5737,
  " chu sheng yu ": 5738,
  "   ben": 5739,
  "zong shi ": 5740,
  " shi ji shang ": 5741,
  "yin qing ": 5742,
  "chang jian de ": 5743,
  "shuang fang ": 5744,
  "qu yi hui ": 5745,
  "yin he ": 5746,
  "jiang zai ": 5747,
  " you ci ": 5748,
  "quan zhang ": 5749,
  "   Re": 5750,
  "xun yang ": 5751,
  "fa hui ": 5752,
  " di wu ": 5753,
  "ying xiong ": 5754,
  " 50": 5755,
  "   3": 5756,
  "hua yi ": 5757,
  "xiu zheng ": 5758,
  "1 ren ": 5759,
  "le yu ": 5760,
  "hua zhi ": 5761,
  "gan bu ": 5762,
  " shi de guo ": 5763,
  "fang yi ": 5764,
  "you xian ": 5765,
  " qi xi ": 5766,
  "tiao li ": 5767,
  "chu zai ": 5768,
  "xiang guan de ": 5769,
  "cuo wu ": 5770,
  " jia ting ": 5771,
  "chu yan ": 5772,
  "   di fang ": 5773,
  " guo hui ": 5774,
  "bian ju ": 5775,
  " cai": 5776,
  "sui shi ": 5777,
  " yi xiao shi ": 5778,
  " zeng ": 5779,
  "sheng tai ": 5780,
  " bing du ": 5781,
  " xue xiao ": 5782,
  "shou xiang ": 5783,
  "4 ren ": 5784,
  "6 nian ": 5785,
  "wan gong ": 5786,
  "neng liang ": 5787,
  "tao tai ": 5788,
  "hu bu ": 5789,
  "ban bu ": 5790,
  "yuan ze ": 5791,
  "fa lan xi ": 5792,
  " wu ke lan ": 5793,
  " su": 5794,
  "lao de ": 5795,
  " yue tuan ": 5796,
  "zhou ci shi ": 5797,
  "   qi ta ": 5798,
  "shu li ": 5799,
  "chu zhi ": 5800,
  "zui you ": 5801,
  "feng wei ": 5802,
  "K ": 5803,
  "lu kou ": 5804,
  " dui": 5805,
  "lu ying ": 5806,
  "qing hua ": 5807,
  " ping jun ": 5808,
  "w ": 5809,
  "   di er ": 5810,
  "gu fen": 5811,
  " wan yuan ": 5812,
  "ke de qi zhong yi zhong ": 5813,
  "   mei guo ": 5814,
  "hui bu ": 5815,
  " wei chi ": 5816,
  "qing qiu ": 5817,
  "zhi de shi ": 5818,
  "fa guan ": 5819,
  "yao qiu": 5820,
  "dang di de ": 5821,
  "kai she ": 5822,
  "   2010": 5823,
  "huan cheng ": 5824,
  "18 ": 5825,
  " zhong hua ren min gong he guo zheng zhi ren wu ": 5826,
  "si zhi ": 5827,
  " ji nian": 5828,
  "huo xing ": 5829,
  "gai cheng ": 5830,
  " shi yong": 5831,
  " he xin ": 5832,
  "ling ren ": 5833,
  "he xin ": 5834,
  "han yu ": 5835,
  " 2022": 5836,
  "han you ": 5837,
  "hen da ": 5838,
  " he zhong ": 5839,
  "mei shu ": 5840,
  "dao bu ": 5841,
  "zhuang ji ": 5842,
  "cui hui ": 5843,
  "lu ke ": 5844,
  "   dan ": 5845,
  "cheng ke ": 5846,
  " wan jia ": 5847,
  " shi ge ": 5848,
  "pai ming di ": 5849,
  "   2011": 5850,
  "xia wei ": 5851,
  "qiang diao ": 5852,
  " 2006 nian ": 5853,
  "en sheng ": 5854,
  "dang wei ": 5855,
  " mai ke ": 5856,
  "zheng wei ": 5857,
  "xi la ": 5858,
  "ya jun ": 5859,
  "yuan zhong ": 5860,
  "bei wei ": 5861,
  " yi zuo ": 5862,
  "zui gao de ": 5863,
  "tian jing ": 5864,
  "ni ya zhou ": 5865,
  " xiong": 5866,
  "neng zai ": 5867,
  "gong ying ": 5868,
  "can kao ": 5869,
  " nian kai shi ": 5870,
  "xia qu ": 5871,
  "suo chu de ": 5872,
  "ya yi ": 5873,
  "cheng ben ": 5874,
  "qing xing ": 5875,
  "dang ju ": 5876,
  "ti yu chang ": 5877,
  " hen ": 5878,
  "   17": 5879,
  "suo zhi ": 5880,
  "xie er ": 5881,
  "shang hai shi ": 5882,
  "   2": 5883,
  "sheng you ": 5884,
  " ji bu ": 5885,
  "deng deng ": 5886,
  "tu po ": 5887,
  " ye jiu shi ": 5888,
  " A ": 5889,
  " da duo ": 5890,
  "te ding ": 5891,
  "kun nan ": 5892,
  "ren yuan ": 5893,
  "xian sheng ": 5894,
  " da xing ": 5895,
  "yin ru ": 5896,
  "a la bo ": 5897,
  " qing": 5898,
  "   1 ": 5899,
  "tai zhong ": 5900,
  "bai de ": 5901,
  "xie dao ": 5902,
  "xiang you ": 5903,
  "fou ": 5904,
  " yi fu ": 5905,
  " meng": 5906,
  "jing zhi ": 5907,
  " ji du ": 5908,
  "ke xue yuan ": 5909,
  "xiang wei ": 5910,
  "tan de ": 5911,
  "shun li ": 5912,
  "huo ban ": 5913,
  "fen bu zai ": 5914,
  " wen hua ": 5915,
  "huan de ": 5916,
  "xiu fu ": 5917,
  "st   ": 5918,
  " da fu ": 5919,
  "la ding ": 5920,
  " sui zhu ": 5921,
  "xi bao ": 5922,
  "zhan xian ": 5923,
  "cheng guo ": 5924,
  "le qi ": 5925,
  "jun zhi ": 5926,
  " xi ban ya ": 5927,
  "lai shi ": 5928,
  "da hui ": 5929,
  " xiang nian ": 5930,
  "G ": 5931,
  "wang yuan ": 5932,
  "4 ge ": 5933,
  " xi er ": 5934,
  "ru qin": 5935,
  "   a ": 5936,
  " bu jin ": 5937,
  " ke er ": 5938,
  " 2012 nian ": 5939,
  "wu zi ": 5940,
  "ke you ": 5941,
  "duo wei ": 5942,
  "chuan de ": 5943,
  "hai yang ": 5944,
  "jing he ": 5945,
  "xiao yuan ": 5946,
  "kai fa": 5947,
  "zhong guo da lu de ": 5948,
  "hai ping mian ": 5949,
  "gai shi ": 5950,
  "suo wei ": 5951,
  "xiu jian ": 5952,
  "sheng chu ": 5953,
  " ta ceng dai biao ": 5954,
  "gan ran zhe ": 5955,
  "   yin ": 5956,
  "ze zai ": 5957,
  " he lan ": 5958,
  "tong meng ": 5959,
  "qiang lie ": 5960,
  "hei se ": 5961,
  "shou gou ": 5962,
  " ri jun ": 5963,
  "hong zha": 5964,
  "xue yu ": 5965,
  "lai yue ": 5966,
  "1980 nian ": 5967,
  " zu fu ": 5968,
  " 00 ": 5969,
  "ci shi jie da zhan ": 5970,
  "jia wei ": 5971,
  "le zai ": 5972,
  "tai yu ": 5973,
  "zui wei ": 5974,
  "zhao pian ": 5975,
  "li yu ": 5976,
  "yin li ": 5977,
  "chui ": 5978,
  "ya mei ": 5979,
  "zhou zhi ": 5980,
  "zhen yu ": 5981,
  "jing yi ": 5982,
  "gu dai ": 5983,
  "man zu ": 5984,
  "gei le ": 5985,
  "zhu zhi ": 5986,
  "jiang zhi ": 5987,
  "zu yi ": 5988,
  "huang hou ": 5989,
  "1986 nian ": 5990,
  "ren lei ": 5991,
  "dang yuan ": 5992,
  " tong shi gai di ": 5993,
  "bei yu ": 5994,
  "zhang wei ": 5995,
  "te xing ": 5996,
  "da jiang ": 5997,
  " de ji chu ": 5998,
  " guang dong ": 5999,
  "hou wei ": 6000,
  "ding qi ": 6001,
  " liao ": 6002,
  "zu qiu yun dong yuan ": 6003,
  "bo shi xue wei ": 6004,
  "qiang zhi ": 6005,
  "beng ": 6006,
  "bei jing shi ": 6007,
  "shang chang ": 6008,
  "nong min ": 6009,
  "nei lu sheng fen ": 6010,
  " ku ": 6011,
  "xiang he ": 6012,
  "jiao zhi ": 6013,
  "liang guo ": 6014,
  "cheng bao ": 6015,
  "jiu hui ": 6016,
  "ben shen ": 6017,
  "cheng shi de ": 6018,
  "zhen ji ": 6019,
  "ke fu ": 6020,
  " a er ": 6021,
  "chu you ": 6022,
  " huo zhe ": 6023,
  "h ": 6024,
  "bang de ": 6025,
  "L ": 6026,
  " zhong zi ": 6027,
  "xun zhang ": 6028,
  "chuang ban ": 6029,
  "xia ling shi jian ": 6030,
  " pu": 6031,
  "tong wei ": 6032,
  "jing zai ": 6033,
  "duan shi ": 6034,
  " Z": 6035,
  " tie ": 6036,
  "le you ": 6037,
  "bian hao ": 6038,
  " mu qian": 6039,
  " bu di ": 6040,
  "ke zhi ": 6041,
  "ri de ": 6042,
  "2 hao ": 6043,
  "kuo zhan ": 6044,
  " mei nian ": 6045,
  "tang de ": 6046,
  "xiang xin ": 6047,
  "lu xu ": 6048,
  "19 ": 6049,
  "min di ": 6050,
  "mo si ": 6051,
  " ren qi ": 6052,
  "shang xia ": 6053,
  " 10 ": 6054,
  "jiu yi ": 6055,
  "zao zai ": 6056,
  "di qiu ": 6057,
  " di": 6058,
  "wo de ": 6059,
  "wu dao ": 6060,
  " bu luo ": 6061,
  "ta wei ": 6062,
  "jun he ": 6063,
  "wan de ": 6064,
  "ju da ": 6065,
  "   jian jie ": 6066,
  "mu zhi ": 6067,
  "gao zhi ": 6068,
  " ji fu ": 6069,
  "ren gong ": 6070,
  "tian ti ": 6071,
  " zhi yi ": 6072,
  "fan zhi ": 6073,
  "xuan de ": 6074,
  "xi wang ": 6075,
  "wei yi yi ": 6076,
  " kan ": 6077,
  "chi ren ": 6078,
  "mu ni ": 6079,
  " 500": 6080,
  "1945 nian ": 6081,
  "   jie ": 6082,
  "ge ming": 6083,
  "wu zheng zhuang ": 6084,
  " qi che ": 6085,
  "zhe xue ": 6086,
  "suo you de ": 6087,
  "tan pan ": 6088,
  " shi yi ge wei yu ": 6089,
  "hui guo ": 6090,
  "ni er ": 6091,
  "nan fang ": 6092,
  "liang ming ": 6093,
  "mi ya ": 6094,
  " xian hou ": 6095,
  "zi zhong ": 6096,
  "hao shi ": 6097,
  "tion ": 6098,
  " 1950": 6099,
  "qu zhi ": 6100,
  "xi ya ": 6101,
  "jiang jin ": 6102,
  "yue nan ": 6103,
  "   di fang zi liao ": 6104,
  "dian he ": 6105,
  "ya he ": 6106,
  "rong he ": 6107,
  "xiang bi ": 6108,
  "sha hai ": 6109,
  " 2014 nian ": 6110,
  "ling yi ge ": 6111,
  "fei er ": 6112,
  "feng fu ": 6113,
  "wen du ": 6114,
  "di yi wei ": 6115,
  "ji   ": 6116,
  "yan yu ": 6117,
  "bing yi ": 6118,
  " wa ": 6119,
  "dui ci ": 6120,
  "N ": 6121,
  " song": 6122,
  "dai shi ": 6123,
  "ping de ": 6124,
  "nuo fu ": 6125,
  " guo qu ": 6126,
  "chu shou ": 6127,
  "fang jian ": 6128,
  "zi zai ": 6129,
  "yin pai ": 6130,
  "chang jian ": 6131,
  "ao zhou ": 6132,
  "ceng wei ": 6133,
  "gao xiong": 6134,
  "pai hang ": 6135,
  "he   ": 6136,
  "40 ": 6137,
  " yi si lan ": 6138,
  " jiu shi ": 6139,
  "ye ji ": 6140,
  " yi wu ": 6141,
  "shen du ": 6142,
  "n   ": 6143,
  "liang nian ": 6144,
  " nian wei ": 6145,
  "qin wang ": 6146,
  "san jia ": 6147,
  "nv zhu ": 6148,
  " 0 ": 6149,
  "   ying ": 6150,
  "zhou he ": 6151,
  "xiu de ": 6152,
  "1987 nian ": 6153,
  "na cui": 6154,
  "guan li ju ": 6155,
  "ding shi ": 6156,
  "da xi yang ": 6157,
  " xu": 6158,
  "hai ba wei ": 6159,
  "ti wei ": 6160,
  " ji hou ": 6161,
  "zheng ce": 6162,
  " ke xi ": 6163,
  "shan feng ": 6164,
  "tong ming ": 6165,
  " jia zu ": 6166,
  "dong shi zhang ": 6167,
  "ye yi ": 6168,
  "pei zhi ": 6169,
  "zou xiang ": 6170,
  " you zhong ": 6171,
  "xiao fang ": 6172,
  "zai li ": 6173,
  "zhu wei ": 6174,
  " ruo ": 6175,
  "liang da ": 6176,
  "han de ": 6177,
  " xi lie": 6178,
  "suo cai yong": 6179,
  "jie zhong ": 6180,
  " bing wei ": 6181,
  " bu duan ": 6182,
  " shi yi bu ": 6183,
  "huan zhe ": 6184,
  " bu er ": 6185,
  " da duo shu ": 6186,
  "gai zao ": 6187,
  "neng yuan ": 6188,
  "le zhong ": 6189,
  "zhan lve": 6190,
  "hu wei ": 6191,
  "shou ren ": 6192,
  "jun ren ": 6193,
  "1983 nian ": 6194,
  "kao lv": 6195,
  "1982 nian ": 6196,
  "zhi shi qi ": 6197,
  "wen zhong ": 6198,
  "mang ": 6199,
  "jie ti ": 6200,
  "zhan lan ": 6201,
  "gong cheng shi ": 6202,
  " ku": 6203,
  "jun zhong ": 6204,
  "gan ran ": 6205,
  "meng gu": 6206,
  "ba he ": 6207,
  "man di ": 6208,
  " shi ye ": 6209,
  "er tong ": 6210,
  "gu ding ": 6211,
  "   jing ": 6212,
  " zai you ": 6213,
  "ge ju ": 6214,
  " gen ": 6215,
  "tai he ": 6216,
  " cn": 6217,
  "le zhe ": 6218,
  "2 ge ": 6219,
  "huan xing ": 6220,
  " guo nei ": 6221,
  " wei yu gai ": 6222,
  "lun shi ": 6223,
  "zheng xie": 6224,
  "shang sheng ": 6225,
  "bo lin ": 6226,
  "jue dui ": 6227,
  "ge yu ": 6228,
  "jie li ": 6229,
  "hui yi yuan ": 6230,
  "gong li de ": 6231,
  "kou de ": 6232,
  " er fei ": 6233,
  "mu qian": 6234,
  "diao kuai": 6235,
  "ai er lan ": 6236,
  "dao wei ": 6237,
  "xiao fei ": 6238,
  "xia ling ": 6239,
  " fu qin ": 6240,
  " de yi shu ": 6241,
  "mian dui ": 6242,
  "kai shi shi ": 6243,
  " dong nan ": 6244,
  " wei UTC ": 6245,
  "sheng di ": 6246,
  "zhu yi zhe ": 6247,
  "lian he hui ": 6248,
  "yan hai ": 6249,
  "xiong ya li ": 6250,
  " cn ": 6251,
  "   zheng ": 6252,
  "   jiao tong ": 6253,
  "zhu he ": 6254,
  "wen he ": 6255,
  "san wei ": 6256,
  "san da ": 6257,
  " er qi ": 6258,
  "   ma ": 6259,
  "zhou yi ": 6260,
  "zi shen ": 6261,
  "diao kuai yi xiao shi ": 6262,
  " luo": 6263,
  "cheng you ": 6264,
  "chong ji ": 6265,
  "guo hui ": 6266,
  "liu xia ": 6267,
  "lao shi ": 6268,
  " ji UTC ": 6269,
  "pai qian ": 6270,
  " mei yuan ": 6271,
  "she you xia ling shi jian ": 6272,
  " de shi qu wei UTC ": 6273,
  " er gai di suo cai yong": 6274,
  " tong shi gai di she you xia ling shi jian ": 6275,
  " er gai di suo cai yong de shi qu wei UTC ": 6276,
  "shu ren ": 6277,
  "zhang yue ": 6278,
  "jing gao ": 6279,
  "nan hai ": 6280,
  " ling you ": 6281,
  " chi": 6282,
  "chuang zao ": 6283,
  "jian li le ": 6284,
  "   2 ": 6285,
  "mi shu zhang ": 6286,
  "xiang tong de ": 6287,
  "bing fei ": 6288,
  "guan he ": 6289,
  "cai de ": 6290,
  "bi ye hou ": 6291,
  "gao yu hai ping mian ": 6292,
  "   In": 6293,
  "dang ji ": 6294,
  "qun zhong ": 6295,
  "ru de ": 6296,
  " qi fu ": 6297,
  " sa": 6298,
  " shi bei ": 6299,
  "qu de mian ji wei ": 6300,
  "hai ba wei gao yu hai ping mian ": 6301,
  "zhang he ": 6302,
  "jin xing de ": 6303,
  "gai ming wei ": 6304,
  "fa zhi ": 6305,
  "xuan zhong ": 6306,
  "jing du ": 6307,
  "chang suo ": 6308,
  "lie ru ": 6309,
  " ge qu ": 6310,
  " zi you ": 6311,
  "tan xian ": 6312,
  " zhong shan ": 6313,
  "da bu fen": 6314,
  "guan cha": 6315,
  " qi zhong bao kuo ": 6316,
  " wan li ": 6317,
  "zhan yu ": 6318,
  "bu shi qu ": 6319,
  "fang ji ": 6320,
  "da lou ": 6321,
  "biao ben ": 6322,
  "5 ren ": 6323,
  " rong ": 6324,
  "da yi ": 6325,
  " yue yi ": 6326,
  " shan xi ": 6327,
  "shang di ": 6328,
  "chao yue ": 6329,
  " 2025": 6330,
  " shuo ": 6331,
  " 2015 nian ": 6332,
  "   4": 6333,
  "ping gu ": 6334,
  "   yan ": 6335,
  "bian yi ": 6336,
  "tiao jie ": 6337,
  "zhang fu ": 6338,
  "cun luo ": 6339,
  "kai shi zai ": 6340,
  " huo dong ": 6341,
  "shou xian ": 6342,
  "tu jing ": 6343,
  "yi shi de ": 6344,
  "te ji ": 6345,
  "suo zai di ": 6346,
  "dou zai ": 6347,
  "shuang da ": 6348,
  " luo ma ": 6349,
  " da lu ": 6350,
  "ban ben": 6351,
  "che xiang ": 6352,
  "7 ren ": 6353,
  "li de ": 6354,
  "ben ren ": 6355,
  "gong wei ": 6356,
  "gong neng": 6357,
  "suo chu de hai ba wei gao yu hai ping mian ": 6358,
  " xiao shi ": 6359,
  "chang jing ": 6360,
  "dan bai ": 6361,
  "6 ren ": 6362,
  "qian ding ": 6363,
  "fei er de ": 6364,
  "deng zhi ": 6365,
  " bu xiang ": 6366,
  "she xian ": 6367,
  "duan shi jian ": 6368,
  " zai ta ": 6369,
  "tui xiu ": 6370,
  "xiao yu ": 6371,
  "lai si ": 6372,
  "yang ji ": 6373,
  "se fu ": 6374,
  "jian kang ": 6375,
  "shen hua ": 6376,
  "luo fa ": 6377,
  " er de ": 6378,
  "8 ren ": 6379,
  "   an ": 6380,
  "san ren ": 6381,
  "hui gui ": 6382,
  " er bu shi ": 6383,
  "ti xing ": 6384,
  "yin xiang ": 6385,
  " de ji lu ": 6386,
  "ou xiang ": 6387,
  "yan ren ": 6388,
  "yan he ": 6389,
  "cai neng ": 6390,
  "ju le ": 6391,
  "qu zhu ": 6392,
  "yong le ": 6393,
  "na xie ": 6394,
  " sui shi ": 6395,
  " Y": 6396,
  "yin yu ": 6397,
  "zu qiu dui ": 6398,
  "mian yi ": 6399,
  "shuai ling ": 6400,
  " qi xuan ": 6401,
  "di xia ": 6402,
  "zu cheng": 6403,
  "bo lan": 6404,
  "9 nian ": 6405,
  " kou ": 6406,
  "   Co": 6407,
  " yi sheng ": 6408,
  " lu wa": 6409,
  "ke neng hui ": 6410,
  " he dao ": 6411,
  "can xuan ": 6412,
  " ge": 6413,
  "   di yi ": 6414,
  "chu zhong ": 6415,
  "kong xi ": 6416,
  " nian shi jie ": 6417,
  "quan yi ": 6418,
  "lian luo ": 6419,
  "hu xiang ": 6420,
  " 2023": 6421,
  "qing jie ": 6422,
  "dan shi ": 6423,
  "zhou li ": 6424,
  " zhong gong zhong yang ": 6425,
  "chang shang ": 6426,
  " 2016 nian ": 6427,
  "tu ji ": 6428,
  "st ": 6429,
  "zai yi qi ": 6430,
  "yan zhong de ": 6431,
  " yu bei ": 6432,
  " chao xian ": 6433,
  "guan yi ": 6434,
  "mu er ": 6435,
  "kai de ": 6436,
  "hua jia ": 6437,
  " ma lai": 6438,
  "ti gong le ": 6439,
  " 2007": 6440,
  "   mei ": 6441,
  "shu bu ": 6442,
  "fa yi ": 6443,
  "ding li ": 6444,
  "dui ying ": 6445,
  "zhen qu de mian ji wei ": 6446,
  "H ": 6447,
  " zhi shu ": 6448,
  "zi chan ": 6449,
  "fa sheng zai ": 6450,
  " shou dao ": 6451,
  " shou ci ": 6452,
  "   2008": 6453,
  "zhong yi yuan ": 6454,
  "zhu zhong ": 6455,
  "dai wei ": 6456,
  "nei di ": 6457,
  "   xing ": 6458,
  "que shi ": 6459,
  "zheng bian ": 6460,
  "1978 nian ": 6461,
  " yu xi ": 6462,
  "he liu ": 6463,
  "fu xing ": 6464,
  "xian zhu ": 6465,
  "bei si ": 6466,
  "yan se ": 6467,
  "zu qiu ju le bu ": 6468,
  "qian xi ": 6469,
  "kao shi ": 6470,
  "di qu de ": 6471,
  "ge guo ": 6472,
  "bao luo ": 6473,
  "zui duo ": 6474,
  "su ge lan ": 6475,
  "ti he ": 6476,
  "shang ji ": 6477,
  "yan ji ": 6478,
  "she zai ": 6479,
  "zi xun": 6480,
  "mian fei ": 6481,
  "mu si lin ": 6482,
  "dai ling ": 6483,
  "zhuan men ": 6484,
  "ka la ": 6485,
  "ru wei ": 6486,
  " shi jia ": 6487,
  " yuan ming ": 6488,
  "shen yi ": 6489,
  "wu guan ": 6490,
  "guan ce ": 6491,
  "she ji shi ": 6492,
  " 2 yue ": 6493,
  "qian yue ": 6494,
  "san bu ": 6495,
  "zhong yao": 6496,
  "bei fang ": 6497,
  "bao cun ": 6498,
  "tian hou ": 6499,
  "zhong guo da lu ": 6500,
  "yang xing ": 6501,
  " bu la ": 6502,
  "fei yan ": 6503,
  "zao shang ": 6504,
  "mian dian ": 6505,
  "ceng de ": 6506,
  "1   ": 6507,
  " kan": 6508,
  "   ran": 6509,
  "xue zhong ": 6510,
  " 24": 6511,
  "chu wei ": 6512,
  "bing yu ": 6513,
  "qing ren ": 6514,
  "ping guo ": 6515,
  "tui jian ": 6516,
  "liao de ": 6517,
  "quan xian ": 6518,
  "guo nei ": 6519,
  "chuan tong de ": 6520,
  " bei cheng wei ": 6521,
  " lv": 6522,
  "le de ": 6523,
  "ju feng ": 6524,
  "geng xin ": 6525,
  " shao": 6526,
  " jue ding ": 6527,
  "duo nian ": 6528,
  "lang zhong ": 6529,
  "di wu ": 6530,
  " xiang guan ": 6531,
  "shu zai ": 6532,
  "gao shi ": 6533,
  "pian zhong ": 6534,
  "tong xun ": 6535,
  "wan zheng ": 6536,
  "hua zai ": 6537,
  "bian jing ": 6538,
  "shan xian ": 6539,
  " lian he ": 6540,
  "feng de ": 6541,
  "miao hui ": 6542,
  "yuan xian ": 6543,
  "xie zuo ": 6544,
  "shou quan ": 6545,
  "zan zhu ": 6546,
  "cheng zai ": 6547,
  " li cheng ": 6548,
  "gui mo": 6549,
  "ju zai ": 6550,
  "mu yu ": 6551,
  "ba da ": 6552,
  "ba si ": 6553,
  "jue yu ": 6554,
  "ge la ": 6555,
  "fa ming ": 6556,
  "luo shan ji ": 6557,
  " 2019 nian ": 6558,
  "li zi ": 6559,
  "   gong ": 6560,
  "tu shu ": 6561,
  " lun ": 6562,
  "xing mu ": 6563,
  " di qiu ": 6564,
  "   ren ": 6565,
  " zhi wai ": 6566,
  "zhang zhuan ji ": 6567,
  "xian ru ": 6568,
  "jin ri ": 6569,
  "che chang ": 6570,
  " zui gao ": 6571,
  " hei": 6572,
  " 7 ": 6573,
  "qu jian ": 6574,
  "tun ": 6575,
  "fu zhu ": 6576,
  " dun ": 6577,
  "xing zai ": 6578,
  "xian zhong ": 6579,
  " bi sai ": 6580,
  "bei ren ming wei ": 6581,
  " nuo ": 6582,
  "yin yue": 6583,
  "zhou ren ": 6584,
  " shi ta ": 6585,
  " 28": 6586,
  "dui zhong ": 6587,
  " shan dong ": 6588,
  "guo min dang ": 6589,
  "liang he ": 6590,
  " shi er ": 6591,
  " you zai ": 6592,
  "ping lun": 6593,
  "jiu yuan ": 6594,
  " de shi yong ": 6595,
  " sang": 6596,
  "jiang yi ": 6597,
  "gai zhi wei ": 6598,
  "bian zhi ": 6599,
  " shi cheng ": 6600,
  " li liang ": 6601,
  "chu zhang ": 6602,
  "lin si ": 6603,
  "ju ben ": 6604,
  "jiao du ": 6605,
  "tian zhu ": 6606,
  "pi zhun": 6607,
  " shuang": 6608,
  " 2017 nian ": 6609,
  "luo li da ": 6610,
  " di di ": 6611,
  "xiao ying ": 6612,
  " zu zhi ": 6613,
  "1958 nian ": 6614,
  "   dong ": 6615,
  "su li ": 6616,
  "shang xian ": 6617,
  "zao cheng de ": 6618,
  " shi jian zhu ": 6619,
  "ban ji ": 6620,
  "shou bo ": 6621,
  "zhang zi ": 6622,
  "hu lian ": 6623,
  " tang": 6624,
  " 2018 nian ": 6625,
  " za zhi ": 6626,
  "ao er ": 6627,
  "zhan mu si ": 6628,
  "ai li ": 6629,
  "1979 nian ": 6630,
  "fu shu ": 6631,
  "yun de ": 6632,
  "tou xian ": 6633,
  "1972 nian ": 6634,
  "lu zhan ": 6635,
  " hou zhe ": 6636,
  "   ge ren ": 6637,
  "ding ji ": 6638,
  " wei bei ": 6639,
  "yun yong ": 6640,
  " huo shi ": 6641,
  "   dui ": 6642,
  "   nan ": 6643,
  "ba er ": 6644,
  " pu tao ": 6645,
  " peng": 6646,
  "ma shi ": 6647,
  "huai yi ": 6648,
  " dian shi ": 6649,
  "   ba ": 6650,
  "xia zai ": 6651,
  "xu ji ": 6652,
  " yi dong ": 6653,
  " wei yu zhong guo ": 6654,
  "guan ji ": 6655,
  "bao hu": 6656,
  " ying wen ": 6657,
  "can yi ": 6658,
  "huo che ": 6659,
  "qiang du ": 6660,
  " ci nian ": 6661,
  "chai ": 6662,
  " di ya ": 6663,
  "mi ni ": 6664,
  " ai er ": 6665,
  "shao de ": 6666,
  " zhi bu ": 6667,
  "xin guan ": 6668,
  "huo bi ": 6669,
  " chun ": 6670,
  "zha dan ": 6671,
  "cu ": 6672,
  "jiao cha ": 6673,
  "lei si de ": 6674,
  "chuan mei ": 6675,
  " 25": 6676,
  "ju ban de ": 6677,
  "min zu": 6678,
  " gai bian ": 6679,
  " xu yao ": 6680,
  " hang ": 6681,
  " yan jiu ": 6682,
  "dao zai ": 6683,
  "luo shi ": 6684,
  "xue ke ": 6685,
  "na xia ": 6686,
  "   N": 6687,
  "di qi ": 6688,
  "bing du ": 6689,
  " xin wen ": 6690,
  "xing zheng qu ": 6691,
  "é ": 6692,
  "   zeng zu ": 6693,
  "lie shi ": 6694,
  "17 ": 6695,
  " zhong xing ": 6696,
  "xi nan bu ": 6697,
  "tai hou ": 6698,
  "zui zao": 6699,
  "   2009": 6700,
  " ming zhi ": 6701,
  "wu yue ": 6702,
  "zheng ji ": 6703,
  " shi yi ke ": 6704,
  "xin jia po": 6705,
  "yao shi ": 6706,
  "gan yu ": 6707,
  "xiang fa ": 6708,
  "ti chu de ": 6709,
  "can ting ": 6710,
  " 35": 6711,
  "fa li ": 6712,
  "luo yu ": 6713,
  " da bu fen": 6714,
  "pin de ": 6715,
  " ren wei shi ": 6716,
  "ju ban": 6717,
  "tai kong ": 6718,
  " 2006": 6719,
  "xi you ": 6720,
  "chu guo ": 6721,
  "xue li ": 6722,
  "zhe he ": 6723,
  "bai yu ": 6724,
  "jue sai": 6725,
  " shi shi yong ": 6726,
  "zong yi ": 6727,
  "zong ren kou ": 6728,
  "te qu ": 6729,
  "zhuan xie ": 6730,
  "qing zhu ": 6731,
  " bing bei ": 6732,
  "fa xian de ": 6733,
  "jin rong": 6734,
  " xi yin ": 6735,
  "1 ge ": 6736,
  " 29": 6737,
  "   hou ": 6738,
  "jiang li ": 6739,
  " zhong dian ": 6740,
  "zhu dao ": 6741,
  "O ": 6742,
  "   s": 6743,
  "xue ji ": 6744,
  "tong xin ": 6745,
  "mei jun ": 6746,
  "sui ran": 6747,
  "a gen ": 6748,
  " 2004 nian ": 6749,
  "shang wang ": 6750,
  " mao": 6751,
  "ba de ": 6752,
  "cheng le ": 6753,
  "jiao huan ": 6754,
  "wu zheng zhuang gan ran zhe ": 6755,
  " 2021 nian ": 6756,
  "xing shi de ": 6757,
  "mi si ": 6758,
  "su zhi ": 6759,
  "tou de ": 6760,
  " ma li ": 6761,
  "she jiao ": 6762,
  "ll ": 6763,
  " yi gong ": 6764,
  " chu ban ": 6765,
  "9 ren ": 6766,
  "sui zhe ": 6767,
  "   liu ": 6768,
  " yi qian ": 6769,
  " di zai ": 6770,
  "xin jian ": 6771,
  "zu jie ": 6772,
  " de yi yuan ": 6773,
  " shui": 6774,
  " shun": 6775,
  "ju zhi ": 6776,
  "dian wei ": 6777,
  "shen yu ": 6778,
  " shi ren min ": 6779,
  "xian zhi xian ": 6780,
  "xian li ": 6781,
  "dui ji ": 6782,
  "da xiao ": 6783,
  "ge zi ": 6784,
  " 27": 6785,
  " wei yi ": 6786,
  "   tian ": 6787,
  "che di ": 6788,
  "qi zhong ": 6789,
  "fang mian": 6790,
  "duan pian ": 6791,
  "te he ": 6792,
  "chuan qi ": 6793,
  "fa sheng": 6794,
  "gu la ": 6795,
  "huang se ": 6796,
  "min yi ": 6797,
  "zheng qu ": 6798,
  "bi xu": 6799,
  "   shi yong ": 6800,
  "yong zai ": 6801,
  " de hua ": 6802,
  "huo sheng ": 6803,
  "te dian ": 6804,
  " ta he ": 6805,
  " 60": 6806,
  " 2020 nian ": 6807,
  "shou bu ": 6808,
  "du guo ": 6809,
  "zhang zhi ": 6810,
  "zan shi ": 6811,
  "1960 nian ": 6812,
  "qi lai ": 6813,
  "xi bei bu ": 6814,
  "zui di ": 6815,
  "si da ": 6816,
  "luo cheng ": 6817,
  "zui zao ": 6818,
  "yun dong de ": 6819,
  "bang qiu ": 6820,
  "bu de cun zhuang ": 6821,
  "5 mi ": 6822,
  "lin jin ": 6823,
  "gao du wei ": 6824,
  " you zhu ": 6825,
  " neng ": 6826,
  "lai yu ": 6827,
  "le yuan ": 6828,
  "gang kou ": 6829,
  "xun lian": 6830,
  "gong yuan qian ": 6831,
  "ci di ": 6832,
  "al   ": 6833,
  "1976 nian ": 6834,
  " shi hou ": 6835,
  "wu di ": 6836,
  "xin jiang ": 6837,
  "an zhi ": 6838,
  "cheng jiu ": 6839,
  "gong zuo shi ": 6840,
  " shuang fang ": 6841,
  " gong ye ": 6842,
  "ling chen ": 6843,
  "dan da ": 6844,
  "yong ji ": 6845,
  "1980 nian dai ": 6846,
  " yi bian ": 6847,
  "qi che ": 6848,
  "fa ting ": 6849,
  "z ": 6850,
  "23 ": 6851,
  "zhong hua min guo ": 6852,
  "xian cheng ": 6853,
  "shan mai ": 6854,
  " de yi xie ": 6855,
  "chu ban she ": 6856,
  "jing nei gong you ": 6857,
  "dang nian ": 6858,
  "san zhong ": 6859,
  "han zi ": 6860,
  " ge shou ": 6861,
  " ce ": 6863,
  "hui wei ": 6864,
  "1920 nian ": 6865,
  "jiang shu ": 6866,
  "san ming ": 6867,
  " 26": 6868,
  "dao you ": 6869,
  "xin jie ": 6870,
  " xiang mu ": 6871,
  "hou ji ": 6872,
  "xiao li yu ": 6873,
  "sheng dao ": 6874,
  " jia la ": 6875,
  " cai yong ": 6876,
  " zhuan ji ": 6877,
  "qi hou ": 6878,
  "da di ": 6879,
  "xian shang ": 6880,
  "cheng zhi wei ": 6881,
  "lie chu ": 6882,
  " zhao he ": 6883,
  "xiu dao ": 6884,
  " da jia ": 6885,
  "chang bi sai ": 6886,
  " he liu ": 6887,
  "zan ting ": 6888,
  "   dao ": 6889,
  "bi li shi ": 6890,
  "hai zai ": 6891,
  "bai ke ": 6892,
  "V ": 6893,
  "ruan ti ": 6894,
  "jian du ": 6895,
  "ye fu ": 6896,
  "lai yin ": 6897,
  " ta you ": 6898,
  " liang ge ": 6899,
  " er gai di de ": 6900,
  "tong he ": 6901,
  " da jiang ": 6902,
  " dan yin ": 6903,
  "hen kuai ": 6904,
  "jin yu ": 6905,
  " tong yi ": 6906,
  " i": 6907,
  " tao": 6908,
  "huo zai ": 6909,
  "dui he ": 6910,
  "ti dai ": 6911,
  "qian ting ": 6912,
  "   gai yao ": 6913,
  "th ": 6914,
  " bu dao ": 6915,
  "xiang ying ": 6916,
  " qi bing ": 6917,
  " wei fu qi yu gang": 6918,
  "fa ji ": 6919,
  "ya ren ": 6920,
  "1990 nian dai ": 6921,
  " li fu ": 6922,
  "jing guan ": 6923,
  "qian jin ": 6924,
  " ta men zai ": 6925,
  "ao de ": 6926,
  "dui di ": 6927,
  "tan he ": 6928,
  "cheng qu ": 6929,
  "wang wang ": 6930,
  " zui chu ": 6931,
  " guang": 6932,
  "que bao ": 6933,
  "fa dong ji ": 6934,
  "ma tou ": 6935,
  "an li ": 6936,
  "xing you ": 6937,
  "ta yi ": 6938,
  "pin zhong ": 6939,
  "qun ti ": 6940,
  " qi he ": 6941,
  "bian yuan ": 6942,
  "c   ": 6943,
  "bu men ": 6944,
  "yun he ": 6945,
  "na he ": 6946,
  "fu hao ": 6947,
  "ping yuan ": 6948,
  " de shi ji ": 6949,
  " nong ": 6950,
  "shu chu ": 6951,
  "o   ": 6952,
  " jin shi ": 6953,
  "chang ji ": 6954,
  "kuo jian ": 6955,
  " yue dui ": 6956,
  " ta ren wei ": 6957,
  "dian shi jie ": 6958,
  "si lan ": 6959,
  "   jia ting ": 6960,
  " xi tong de ": 6961,
  "ju yuan ": 6962,
  "e guo ": 6963,
  " 2002 nian ": 6964,
  "ye ke yi ": 6965,
  "gui fan ": 6966,
  "fu za": 6967,
  "wu shu ": 6968,
  "qu fen ": 6969,
  "she ding ": 6970,
  "le yi xie ": 6971,
  " 40": 6972,
  "   i": 6973,
  "   shou ": 6974,
  "jiu zai ": 6975,
  " xian wei ": 6976,
  "da shi guan ": 6977,
  "ri ben de ": 6978,
  "dan yi ": 6979,
  " li li ": 6980,
  "jiao tang": 6981,
  "sen lin": 6982,
  " Ro": 6983,
  "ma ke si ": 6984,
  "qiu shi ": 6985,
  " nian qing ": 6986,
  "jie duan": 6987,
  "tui guang ": 6988,
  " zhong guo ren min jie fang jun ": 6989,
  "xuan shi ": 6990,
  "fu mu ": 6991,
  "wu zhuang": 6992,
  "sai er wei ": 6993,
  "geng duo de ": 6994,
  "chang du ": 6995,
  "can shu ": 6996,
  "tie lu che zhan ": 6997,
  " Mi": 6998,
  "   wang ": 6999,
  "wang wei ": 7000,
  "la wei ": 7001,
  "pei bei ": 7002,
  "fen pei ": 7003,
  "ya mu ": 7004,
  " cun ": 7005,
  " yi mei ": 7006,
  " you liang ": 7007,
  " zhong jian ": 7008,
  "bei jing": 7009,
  "qian shen ": 7010,
  "chuang zuo de ": 7011,
  "duo er ": 7012,
  "zhong bu ": 7013,
  "bei da ": 7014,
  " qi zhong": 7015,
  "sui ran ": 7016,
  " 1970": 7017,
  " bu si ": 7018,
  "shang zhen ": 7019,
  "bao han": 7020,
  "ye jian ": 7021,
  "ye sheng ya ": 7022,
  "dui fang ": 7023,
  "mai de ": 7024,
  "ze dong ": 7025,
  "zhang ji ": 7026,
  "deng yu ": 7027,
  "cheng wei yi ": 7028,
  "ch ": 7029,
  "yan jing ": 7030,
  "ban jiang ": 7031,
  "bu de bu ": 7032,
  "ceng shi ": 7033,
  "dou bei ": 7034,
  " zai nei de ": 7035,
  "deng chang ": 7036,
  " 30 ": 7037,
  " sun ": 7038,
  "shan di ": 7039,
  "chu zi ": 7040,
  "tu xiang ": 7041,
  " gong qing ": 7042,
  "an ji ": 7043,
  "wen ji ": 7044,
  "tou bu ": 7045,
  "jun bu ": 7046,
  "ke yun ": 7047,
  "te la ": 7048,
  "su lian": 7049,
  "cong wei ": 7050,
  "huang jin ": 7051,
  " jie shu ": 7052,
  "lv se ": 7053,
  " B ": 7054,
  "v ": 7055,
  "xing li ": 7056,
  "ye sheng ": 7057,
  "zhe yang ": 7058,
  "ban yan ": 7059,
  "kai gong ": 7060,
  " sai": 7061,
  "du ji ": 7062,
  "nan si ": 7063,
  "1956 nian ": 7064,
  " 45": 7065,
  " shi shi shang ": 7066,
  "a la bo": 7067,
  "shen ke ": 7068,
  "chen ji ": 7069,
  " zai he ": 7070,
  "ri bao ": 7071,
  "dang tian ": 7072,
  " zi yuan ": 7073,
  "bei li ": 7074,
  "zhe zhi ": 7075,
  "che shi ": 7076,
  "1964 nian ": 7077,
  "zhu ce ": 7078,
  " xi an ": 7079,
  "xie shang ": 7080,
  "chi xu": 7081,
  " tun": 7082,
  "le di ": 7083,
  "xian dai": 7084,
  "jin qu ": 7085,
  "fen zhi yi ": 7086,
  " de ji hua ": 7087,
  "qu you ": 7088,
  "lu shang ": 7089,
  "hao you ": 7090,
  " qi dong ": 7091,
  "se lie": 7092,
  " fu ze guan xia ": 7093,
  " bao": 7094,
  "mu he ": 7095,
  "wai wei ": 7096,
  " shi shi ji ": 7097,
  "quan ji ": 7099,
  "deng shi ": 7100,
  "zhuan wei ": 7101,
  " yi ke ": 7102,
  "dong xian ": 7103,
  "xiao jie ": 7104,
  "wan li ": 7105,
  "wei yuan ": 7106,
  "   cheng ": 7107,
  "   zhang ": 7108,
  "ze yu ": 7109,
  " yi nian": 7110,
  "xiang qi ": 7111,
  "qing chao ": 7112,
  "hao ping ": 7113,
  " pi": 7114,
  "   gu ": 7115,
  "1968 nian ": 7116,
  "section   ": 7117,
  "fu er ": 7118,
  "zheng shu ": 7119,
  "che dui ": 7120,
  "qu zhong ": 7121,
  "dui zhi ": 7122,
  "sha de ": 7123,
  "da duo ": 7124,
  "fan ying": 7125,
  "zong jian ": 7126,
  "bing zai ": 7127,
  " qi xi zai ": 7128,
  "mian ti ": 7129,
  " zhong qi ": 7130,
  "xiao liang ": 7131,
  "hang ye ": 7132,
  "te lei ": 7133,
  "xuan cheng ": 7134,
  " bao hu ": 7135,
  " bing bu ": 7136,
  " section   ": 7137,
  "biao ji ": 7138,
  "lie si ": 7139,
  "yuan ben ": 7140,
  "shou shu ": 7141,
  "lai na ": 7142,
  " ge lei ": 7143,
  "fei lv bin": 7144,
  "zhan wei yu ": 7145,
  "feng shi ": 7146,
  "zong zhi ": 7147,
  " he qi ta ": 7148,
  "hai shang ": 7149,
  "tu chu ": 7150,
  " gong kai ": 7151,
  "can jia": 7152,
  " fen bie ": 7153,
  "dai biao tuan ": 7154,
  " lian jie ": 7155,
  "   ran er ": 7156,
  "chang da ": 7157,
  "jiang you ": 7158,
  "bai zhi ": 7159,
  "50 ": 7160,
  "niao lei ": 7161,
  "   guang ": 7162,
  "zhan you ": 7163,
  " shi xi ": 7164,
  " qi zhong nan xing ": 7165,
  " jiang su ": 7166,
  "ni xi ya ": 7167,
  "1981 nian ": 7168,
  "jin zhan ": 7169,
  "bao zha": 7170,
  "fen si ": 7171,
  " si da ": 7172,
  "bai wan ": 7173,
  "hai di ": 7174,
  "xie wei ": 7175,
  "mo ni ": 7176,
  "zhong guo ren min ": 7177,
  " wa": 7178,
  " jian li ": 7179,
  " 8 ": 7180,
  "liang bu ": 7181,
  "yan an ": 7182,
  "shen zhen ": 7183,
  "pu tao ya ": 7184,
  "ter ": 7185,
  "xing dong": 7186,
  "gong da ": 7187,
  "   gen ju 2020 nian mei guo ren kou pu cha de shu ju ": 7188,
  "ju wei ": 7189,
  "lu yi si ": 7190,
  "xia di qu ": 7191,
  "ding xing ": 7192,
  "se   ": 7193,
  " shi bu ": 7194,
  "ge bu ": 7195,
  "chang jiang ": 7196,
  " zui jia ": 7197,
  "zai yi ge ": 7198,
  "zhan wei ": 7199,
  " guo wu yuan ": 7200,
  "dao dan ": 7201,
  "lai zi yu ": 7202,
  "fei yong ": 7203,
  " liu yu ": 7204,
  " fou": 7205,
  " 2024": 7206,
  " Co": 7207,
  "   jing ji ": 7208,
  "hou zhi ": 7209,
  "1948 nian ": 7210,
  "xiao xiang ": 7211,
  "   2019 nian ": 7212,
  "gong yue ": 7213,
  "jiao di ": 7214,
  "chu xian de ": 7215,
  " S ": 7216,
  "bi er ": 7217,
  "lu he ": 7218,
  " you suo ": 7219,
  "zheng mian ": 7220,
  "gong kai sai ": 7221,
  " 2000 nian ": 7222,
  "ha li ": 7223,
  " guo jia de ": 7224,
  "zi ben ": 7225,
  " jin shu ": 7226,
  "kuo zhang ": 7227,
  "er   ": 7228,
  "dang zai ": 7229,
  " yi he ": 7230,
  " 2005": 7231,
  "tian jia ": 7232,
  "qiong ": 7233,
  "xue ye ": 7234,
  "hou bu ": 7235,
  "fu zhou ": 7236,
  "yuan zhu min ": 7237,
  " wei yuan hui wei yuan ": 7238,
  "e de ": 7239,
  " 200": 7240,
  "shu de zhi wu ": 7241,
  "wang ji ": 7242,
  "ke er ": 7243,
  "tai nan ": 7244,
  "xuan ju zhong ": 7245,
  "   qi zhong ": 7246,
  "bei yue ": 7247,
  "fa he ": 7248,
  "huo li ": 7249,
  "shui de ": 7250,
  "gan xian ": 7251,
  "ju min": 7252,
  "le dui ": 7253,
  "yan jiang ": 7254,
  "zhan shu ": 7255,
  " shi yi zuo ": 7256,
  " 1946": 7257,
  "duo shi ": 7258,
  "cha shi ": 7259,
  " shi de shi ": 7260,
  " ji jin hui ": 7261,
  " kao ": 7262,
  "zu ren ": 7263,
  "lai ke ": 7264,
  "hant ": 7265,
  " zai bu ": 7266,
  "zhe yang de ": 7267,
  "nan ji zhou de ": 7268,
  "gan de ": 7269,
  "wo er ": 7270,
  "gu dian ": 7271,
  "shao nv ": 7272,
  "cheng li hou ": 7273,
  "gu fen you xian gong si ": 7274,
  "da gui mo ": 7275,
  "jian kang": 7276,
  "bei po ": 7277,
  " di tu ": 7278,
  "wen ti de ": 7279,
  "mei guo": 7280,
  " qian wang ": 7281,
  " wei fu qi yu gang ": 7282,
  " lei": 7283,
  " hant ": 7284,
  "duo li ya ": 7285,
  "gong an ": 7286,
  " guo gong ": 7287,
  "hui da ": 7288,
  "chu chang ": 7289,
  "zong cai ": 7290,
  " niu ": 7291,
  "ya zhong ": 7292,
  "yang he ": 7293,
  "1952 nian ": 7294,
  " zhong wen ": 7295,
  "ke luo ": 7296,
  "can kao": 7297,
  "re dai feng bao ": 7298,
  "hu xi ": 7299,
  "zuo zhi ": 7300,
  "shuai ling": 7301,
  " yu di ": 7302,
  " ta ji ": 7303,
  "   zhu yao ": 7304,
  "bie de ": 7305,
  "xin tai ": 7306,
  " guan fang ": 7307,
  " tou guo ": 7308,
  "luo yi ": 7309,
  "men shi ": 7310,
  "1975 nian ": 7311,
  "gong jiao ": 7312,
  "zhu ban ": 7313,
  " shi yi zhi ": 7314,
  "1966 nian ": 7315,
  "zuo fa ": 7316,
  " da er ": 7317,
  "na sheng ": 7318,
  "mei guo ren ": 7319,
  "zhuan yong ": 7320,
  "cun zai de ": 7321,
  "100 ": 7322,
  " jin ru": 7323,
  "xian de yi ge fei jian zhi di qu ": 7324,
  "x   ": 7325,
  " 2022 nian ": 7326,
  "   fan ": 7327,
  "nuo yi ": 7328,
  " shi fa ": 7329,
  " zhi shao ": 7330,
  "fang mi ": 7331,
  "hang tian ": 7332,
  "ding zai ": 7333,
  "qun de ": 7334,
  " zhi jing ": 7335,
  "1 ri": 7336,
  "you yi xie ": 7337,
  " ling wai": 7338,
  "niang ": 7339,
  "lu wa": 7340,
  " xing jian ": 7341,
  "   2007": 7342,
  "xue bu ": 7343,
  "mei shi ": 7344,
  "lan yu ": 7345,
  " yi xue ": 7346,
  "rao tai yang ": 7347,
  "liang zi ": 7348,
  "ma lai ": 7349,
  " nian yi lai ": 7350,
  "5 ge ": 7351,
  "e wei ": 7352,
  " yong": 7353,
  "shang wei you ": 7354,
  "bao he ": 7355,
  "dui kang ": 7356,
  " 2003 nian ": 7357,
  "ying er ": 7358,
  "jiu you ": 7359,
  "   16": 7360,
  "   jiang ": 7361,
  "ta ren ": 7362,
  " yi da ": 7363,
  " yi xiang ": 7364,
  " yue he ": 7365,
  "ci qu ": 7366,
  "du hui ": 7367,
  "xie ding ": 7368,
  "ban ren ": 7369,
  "chuan guo ": 7370,
  "1947 nian ": 7371,
  "wu ge ": 7372,
  "san ci ": 7373,
  " zhe yang ": 7374,
  "shang he ": 7375,
  "zong hui ": 7376,
  " fa zhan ": 7377,
  "   3 yue ": 7378,
  "II ": 7379,
  "bo jue ": 7380,
  "xuan chu ": 7381,
  " ri you ": 7382,
  " xin zeng ": 7383,
  "guo jia dui ": 7384,
  "   qi hou ": 7385,
  "f ": 7386,
  "1937 nian ": 7387,
  " shi bing ": 7388,
  "jiao jie ": 7389,
  "hai ba gao du wei ": 7390,
  "guang de ": 7391,
  " yi wai ": 7392,
  " shi yong le ": 7393,
  " dang shi de ": 7394,
  "jiao yu bu ": 7395,
  "wu you ": 7396,
  "wen ti": 7397,
  " fu qin": 7398,
  "lei xing de ": 7399,
  "zhuang kuang": 7400,
  " dan qi ": 7401,
  " ou zhou ": 7402,
  "ge zai ": 7403,
  "wang yu ": 7404,
  "wai xing ": 7405,
  "gen sui ": 7406,
  " yi chan ": 7407,
  "xing zheng": 7408,
  "gong jue ": 7409,
  "yan lun ": 7410,
  " si ta ": 7411,
  " ren min bi ": 7412,
  "fen bie wei ": 7413,
  "ta he ": 7414,
  "jin zai ": 7415,
  "wang zhi ": 7416,
  " dao yan ": 7417,
  "nong cun": 7418,
  " diao ": 7419,
  " bang ": 7420,
  " zi ji ": 7421,
  "   yue ": 7422,
  "she ying ": 7423,
  "lian sai": 7424,
  "gao xiao ": 7425,
  "jian zhu wu ": 7426,
  "   fa ": 7427,
  "zhan chang ": 7428,
  "xuan ju": 7429,
  " ping tai ": 7430,
  " de ji hui ": 7431,
  " jiang qi ": 7432,
  "   ping jia ": 7433,
  "shu mu ": 7434,
  "jing sai ": 7435,
  "duan zan": 7436,
  " dan wei ": 7437,
  "qiao liang ": 7438,
  "xun yang jian ": 7439,
  " pin ": 7440,
  " cheng li yu ": 7441,
  "   luo ": 7442,
  "tuan jie ": 7443,
  "song dao ": 7444,
  "guo cheng ": 7445,
  "shou fa ": 7446,
  "fen jie ": 7447,
  "quan shu ": 7448,
  " de yi mei ": 7449,
  " shi yi da li ": 7450,
  " pian ": 7451,
  "zhang yi ": 7452,
  " ke luo ": 7453,
  "zui zao de ": 7454,
  "ceng shui yu ": 7455,
  "a fu ": 7456,
  " chao": 7457,
  "   chu le ": 7458,
  "xin zhong ": 7459,
  " nian ling ": 7460,
  "xia yi xia di qu ": 7461,
  "ying xiang li ": 7462,
  "guo shi qi ": 7463,
  "pu li ": 7464,
  "shou duan ": 7465,
  "ping jie ": 7466,
  " Q": 7467,
  " le ": 7468,
  "ci zhong ": 7469,
  "xun zhao ": 7470,
  "zhuan de xiao xing xing ": 7471,
  " qu de ": 7472,
  "bei he ": 7473,
  "fa wei ": 7474,
  "jiang bei ": 7475,
  "guo ji ji chang ": 7476,
  "hua er ": 7477,
  "wang si ": 7478,
  "1954 nian ": 7479,
  " yi er ": 7480,
  "guo wu yuan ": 7481,
  "wu zhong de ": 7482,
  " di dian ": 7483,
  " di liu ": 7484,
  "ju da de ": 7485,
  "ru yu ": 7486,
  " li gong ": 7487,
  "wang zi ": 7488,
  " de shi wu ": 7489,
  "zhe jiang sheng ": 7490,
  "   5 yue ": 7491,
  "zhe yu ": 7492,
  " ji xing ": 7493,
  "zheng qi ": 7494,
  "huang shi ": 7495,
  " shen": 7496,
  "ya zhi ": 7497,
  "ru yi ": 7498,
  " zai jin ": 7499,
  "jia meng ": 7500,
  "wang shang ": 7501,
  "zu xie ": 7502,
  "zheng shi qi ": 7503,
  "shan dong sheng ": 7504,
  " shi ba ": 7505,
  "guang fan": 7506,
  "a li ": 7507,
  " min": 7508,
  " ke li ": 7509,
  " chu ren ": 7510,
  "ming ju ren ": 7511,
  "ti chu le ": 7512,
  "an zhuang": 7513,
  " huai": 7514,
  "song de ": 7515,
  "ll   ": 7516,
  "huo yun ": 7517,
  "lian tong ": 7518,
  "yao gun": 7519,
  "p   ": 7520,
  "sheng bu ": 7521,
  "xiao you ": 7522,
  "la er ": 7523,
  "guai ": 7524,
  "xian zhang ": 7525,
  "fa sheng de ": 7526,
  "bao zha ": 7527,
  "yin yong ": 7528,
  " san shi ": 7529,
  "hao yu ": 7530,
  " shi ji de ": 7531,
  "ping min ": 7532,
  "ping jun hai ba gao du wei ": 7533,
  "   shen ": 7534,
  "xun qiu ": 7535,
  "li lun ": 7536,
  "zao shou ": 7537,
  "si you ": 7538,
  "zhan zai ": 7539,
  "gao di ": 7540,
  "du du ": 7541,
  "dan shui ": 7542,
  "yang xian ": 7543,
  "nei zhan ": 7544,
  "shao jiang ": 7545,
  "W ": 7546,
  "yin zhong zai ": 7547,
  "tai er ": 7548,
  "ru shi ": 7549,
  "shuo de ": 7550,
  "ty ": 7551,
  "shen me ": 7552,
  "gu fen ": 7553,
  " zhe ci ": 7554,
  "gan su ": 7555,
  " nian qi jian ": 7556,
  " er gai di de ping jun hai ba gao du wei ": 7557,
  "da zai ": 7558,
  "jiang zhong ": 7559,
  "10 nian ": 7560,
  " li xue ": 7561,
  "luo zai ": 7562,
  "ma li ya ": 7563,
  "chai you ji ": 7564,
  " han zu ": 7565,
  "2010 nian mei guo ren kou pu cha de shu ju ": 7566,
  "shuo shi xue wei ": 7567,
  "yin zhong zai pei ": 7568,
  "yang zhi ": 7569,
  "qie er ": 7570,
  "shun shi ": 7571,
  "cheng hu ": 7572,
  "ju ti ": 7573,
  "jiao fu ": 7574,
  "wen hua de ": 7575,
  "bo luo ": 7576,
  " fa sheng ": 7577,
  " bi ye ": 7578,
  " xue sheng ": 7579,
  "ying di ": 7580,
  "dai yu ": 7581,
  "fa ling ": 7582,
  "bao xian ": 7583,
  "ying zhan ": 7584,
  "qing xiang ": 7585,
  " gai wei ": 7586,
  " an de ": 7587,
  "zuo yu ": 7588,
  "su shi ": 7589,
  "ck ": 7590,
  " bu neng": 7591,
  "shang dian ": 7592,
  " da xi yang ": 7593,
  "zeng qiang ": 7594,
  " X": 7595,
  " chun": 7596,
  "   2018 nian ": 7597,
  "ban yu ": 7598,
  "1955 nian ": 7599,
  " gong bu ": 7600,
  "ren gong yin zhong zai pei ": 7601,
  " cu": 7602,
  "an zhong ": 7603,
  "yi shi yong ": 7604,
  "mao xian ": 7605,
  "jiang ta ": 7606,
  " kang xi ": 7607,
  " 2000": 7608,
  "qing yi ": 7609,
  "suo yi ": 7610,
  "na ru ": 7611,
  " bao dao ": 7612,
  "xiang shi di ": 7613,
  " mu": 7614,
  " cui": 7615,
  "   2006": 7616,
  "dai ma ": 7617,
  "ban ci ": 7618,
  " ruan": 7619,
  " ji li ": 7620,
  " he yue ": 7621,
  "ming jin shi ": 7622,
  "jiao zuo ": 7623,
  "dian ying de ": 7624,
  " quan zhang ": 7625,
  " yu ci tong shi ": 7626,
  "qu zai ": 7627,
  "reng you ": 7628,
  "1974 nian ": 7629,
  "cheng fen ": 7630,
  " da lou ": 7631,
  "ling dao de ": 7632,
  "gui zhou ": 7633,
  " xian dai ": 7634,
  "xun huan ": 7635,
  "pan jue ": 7636,
  "   tai wan ": 7637,
  "xiang zhi ": 7638,
  "zheng yue ": 7639,
  "ye zhi ": 7640,
  "zhang zai ": 7641,
  "zhu zhai": 7642,
  "bao chi": 7643,
  "di yi ren ": 7644,
  "yan jiu sheng ": 7645,
  " n ": 7646,
  "fu gai ": 7647,
  "fa zhan de ": 7648,
  "zheng yu ": 7649,
  "dui yuan ": 7650,
  "cai chan ": 7651,
  "tui chu de ": 7652,
  " xia": 7653,
  "zhu ru ": 7654,
  "ben xian ": 7655,
  " ju min ": 7656,
  " sheng zhang yu ": 7657,
  "can guan ": 7658,
  "hong jun ": 7659,
  "chan sheng le ": 7660,
  "duo fu ": 7661,
  "bi shi ": 7662,
  "zhan he ": 7663,
  "mian yu ": 7664,
  "zhen ren ": 7665,
  "jun tuan ": 7666,
  "dian zi you ": 7667,
  "huo wu ": 7668,
  "xu shu ": 7669,
  "ch   ": 7670,
  "te shi ": 7671,
  "te yu ": 7672,
  "zhen he ": 7673,
  "fu ze": 7674,
  "wan quan": 7675,
  "te lang ": 7676,
  "tan ding ": 7677,
  " na me": 7678,
  "   X": 7679,
  "ya shi ": 7680,
  "rang ta ": 7681,
  "sheng mu ": 7682,
  "ti jiao ": 7683,
  "su wei ai ": 7684,
  "shu qi ": 7685,
  "chang bei ": 7686,
  "dou zheng ": 7687,
  " ー": 7688,
  "   10 yue ": 7689,
  "lu zai ": 7690,
  "zhuang bing du ": 7691,
  "zhi chi ": 7692,
  "jie du shi ": 7693,
  " bei ke ": 7694,
  " 000 ren ": 7695,
  " gong ji ": 7696,
  "ci you ": 7697,
  "yin jing ": 7698,
  "shang zhi ": 7699,
  "ping shi ": 7700,
  "qiang ji ": 7701,
  "30 nian ": 7702,
  "km ": 7703,
  " he pan ": 7704,
  "da bu ": 7705,
  "jian she": 7706,
  "ying dui ": 7707,
  " jia jing ": 7708,
  " ju qing ": 7709,
  " su lian ": 7710,
  "zheng li ": 7711,
  "dong ni ": 7712,
  "jiao ke ": 7713,
  " fu lei ": 7714,
  "chu xian le ": 7715,
  "hua sheng dun ": 7716,
  "dong che ": 7717,
  "yan hua ": 7718,
  "le wei ": 7719,
  "ai guo ": 7720,
  "sheng zhong ": 7721,
  "ku de ": 7722,
  "huan jie ": 7723,
  "fu she ": 7724,
  "dui hua ": 7725,
  " fa biao ": 7726,
  "gong he dang ": 7727,
  " you tai ": 7728,
  "jian zao": 7729,
  "dao shang ": 7730,
  "chu ru kou ": 7731,
  "bao zheng ": 7732,
  "ai qing ": 7733,
  "ci zhi wai ": 7734,
  "   U": 7735,
  "zhu guo ": 7736,
  "zu yu ": 7737,
  " ren zhong gong ": 7738,
  " Re": 7739,
  "ba yue ": 7740,
  "mo qi ": 7741,
  " zai gai ": 7742,
  " he qi ": 7743,
  "yuan ben": 7744,
  "jin qiu ": 7745,
  "chong qing ": 7746,
  "ri yi ": 7747,
  "1977 nian ": 7748,
  "you guan ": 7749,
  "shen sheng ": 7750,
  " yin fa ": 7751,
  " shi zhong hua ren min gong he guo ": 7752,
  "zeng jia le ": 7753,
  "ren min dai biao da hui ": 7754,
  "sheng chan de ": 7755,
  " 80": 7756,
  "   ling wai ": 7757,
  "ke ren ": 7758,
  "ju bei ": 7759,
  " re": 7760,
  "yin er ": 7761,
  "la yu ": 7762,
  "bu luo ": 7763,
  "xia fang ": 7764,
  " guo jia dui ": 7765,
  "shou he ": 7766,
  "chuan di ": 7767,
  "si tan ": 7768,
  "shen wang ": 7769,
  "ba la ": 7770,
  "gou mai": 7771,
  "ai de hua ": 7772,
  "lei wei ": 7773,
  "kang xi ": 7774,
  "chao ting ": 7775,
  "   5": 7776,
  "   2017 nian ": 7777,
  "yue wei ": 7778,
  " shi yue ": 7779,
  "xiang mu": 7780,
  "dong gong ": 7781,
  "fen qu ": 7782,
  "luo bo te ": 7783,
  " zhu jian ": 7784,
  "6 ge ": 7785,
  "duan yu ": 7786,
  "hang xian ": 7787,
  "kan de ": 7788,
  " nian li ": 7789,
  "zong tong": 7790,
  "han mo de ": 7791,
  " lang ": 7792,
  "   de   ": 7793,
  "wang you ": 7794,
  "ss ": 7795,
  " yi xing ": 7796,
  "shou hai ": 7797,
  "xie tiao": 7798,
  "   xiang gang ": 7799,
  "fen qi ": 7800,
  "ding zhi ": 7801,
  " yi ri ": 7802,
  "ge si ": 7803,
  "jiao dao ": 7804,
  "pin lv ": 7805,
  " ju": 7806,
  " cheng shi ": 7807,
  "long shi ": 7808,
  "zhu di ": 7809,
  "zi liao": 7810,
  " er hou ": 7811,
  " ke neng shi ": 7812,
  " qiao": 7813,
  "   2016 nian ": 7814,
  " you you ": 7815,
  "shou fei ": 7816,
  "cai liao": 7817,
  "can mou zhang ": 7818,
  "xun fu ": 7819,
  "jian guo ": 7820,
  "mian shang ": 7821,
  " xin jia ": 7822,
  " bi ye yu ": 7823,
  " a la ": 7824,
  "cheng hao ": 7825,
  "ci da ": 7826,
  "mei zhou": 7827,
  " ling yi fang mian ": 7828,
  " cao": 7829,
  "   shang ": 7830,
  " zhi lu ": 7831,
  " li xin ": 7832,
  "   zhan ": 7833,
  "di yi ji ": 7834,
  "kong de ": 7835,
  "ming lu ": 7836,
  "hua ren min gong he ": 7837,
  "nv zhu jue ": 7838,
  " 1938": 7839,
  "jiao he ": 7840,
  "na si ": 7841,
  " xi huan ": 7842,
  "long sheng ": 7843,
  " sheng zhang yu hai ba ": 7844,
  "pin zhi ": 7845,
  "zhui su ": 7846,
  "hui xiang ": 7847,
  "chang wu": 7848,
  "qian hou ": 7849,
  "gao yuan ": 7850,
  " pan": 7851,
  "fen ji ": 7852,
  "qian zai ": 7853,
  "pai de zhu ": 7854,
  " shi jing ": 7855,
  "jie guan ": 7856,
  "dong yuan ": 7857,
  " zai yu ": 7858,
  "   sui ran ": 7859,
  "du da ": 7860,
  "ben ke ": 7861,
  "lou de ": 7862,
  " he cheng ": 7863,
  " qi chu ": 7864,
  "qing xu ": 7865,
  " mi de di qu ": 7866,
  "1962 nian ": 7867,
  "zai ci ": 7868,
  "fu yin ": 7869,
  " kai fa ": 7870,
  "bin shi ": 7871,
  "1971 nian ": 7872,
  "fen xiao ": 7873,
  "hai e ": 7874,
  "hu po ": 7875,
  " jian she ": 7876,
  "   of   the   ": 7877,
  "zhan zheng zhong ": 7878,
  "ri ji ": 7879,
  "ye er ": 7880,
  "zhu liu ": 7881,
  "mo luo ": 7882,
  " tian jin ": 7883,
  "yin zhi ": 7884,
  "guo qu ": 7885,
  " bu da ": 7886,
  "rong na ": 7887,
  "xing zheng zhen qu ": 7888,
  "han yi ": 7889,
  "da qi ": 7890,
  " shi zhang ": 7891,
  " li shi de ": 7892,
  "ming que ": 7893,
  " dong wu ": 7894,
  "e luo si de ": 7895,
  " ma lai xi ya ": 7896,
  " gen ju": 7897,
  "   tai ": 7898,
  "zhong de yi ": 7899,
  "20 nian ": 7900,
  "ye zhong ": 7901,
  "bu ke ": 7902,
  "shang jia ": 7903,
  "qing dao ": 7904,
  "an zhao ": 7905,
  "xiang zhong ": 7906,
  "quan wei ": 7907,
  "lei shi ": 7908,
  "dui zhen ": 7909,
  "hu dong ": 7910,
  " shi yong zhe ": 7911,
  " bo chu ": 7912,
  "   zong ": 7913,
  "shang le ": 7914,
  "ying jun ": 7915,
  "zhou zhang ": 7916,
  "w   ": 7917,
  "xun de ": 7918,
  "fu zhu ren ": 7919,
  "xiang zai ": 7920,
  "fei yi ": 7921,
  "ceng ren ": 7922,
  "is   ": 7923,
  "sheng jing ": 7924,
  "ti yan ": 7925,
  "fen lie ": 7926,
  "ming you ": 7927,
  "hou bu jiu ": 7928,
  "yong zhi ": 7929,
  " wei ya ": 7930,
  "gong gao ": 7931,
  "zheng duo ": 7932,
  " wu xian ": 7933,
  "nv hai ": 7934,
  "pei yang ": 7935,
  " quan qiu ": 7936,
  "ri yu ": 7937,
  "bo ke ": 7938,
  "zao xing ": 7939,
  "gui mo de ": 7940,
  "tuan zhang ": 7941,
  "jiu ren ": 7942,
  "gong shang ": 7943,
  "zhu dong ": 7944,
  "xiang guan": 7945,
  "hui hua ": 7946,
  "shang pin ": 7947,
  "liang ce ": 7948,
  "ye wei ": 7949,
  "zuo zhong ": 7950,
  "qing xi ": 7951,
  "zhen di ": 7952,
  "sheng fu ": 7953,
  "yin shua": 7954,
  " ning": 7955,
  "chu nian ": 7956,
  "fa li ya ": 7957,
  "dai yi ": 7958,
  "suan fa ": 7959,
  "fen lan ": 7960,
  "shui ku ": 7961,
  " qi zhong nan ": 7962,
  "tai wan de ": 7963,
  " po ": 7964,
  "miao de ": 7965,
  " yu qi ta ": 7966,
  " qi you ": 7967,
  "tong wang ": 7968,
  "tian tang ": 7969,
  "mian lin ": 7970,
  "gang yuan ": 7971,
  " de ren wu ": 7972,
  "   6": 7973,
  "mei ri ": 7974,
  "huo yue ": 7975,
  "es ": 7976,
  "yan wu ": 7977,
  "she hui": 7978,
  " shi yi ji ": 7979,
  " hu nan ": 7980,
  " ke shi ": 7981,
  "   1949": 7982,
  "hou ren ": 7983,
  "dong yi ": 7984,
  "cheng zhang ": 7985,
  "le gai ": 7986,
  "gan jue ": 7987,
  " lai": 7988,
  "   lu ": 7989,
  "er you ": 7990,
  "tong zhong ": 7991,
  "du yi ": 7992,
  " bu lai ": 7993,
  "qing shao nian ": 7994,
  "zhen ya ": 7995,
  "ti yu guan ": 7996,
  " gan": 7997,
  " 22": 7998,
  "yi shi jian ": 7999,
  "jian li de ": 8000,
  " bu zu ": 8001,
  "qian ru ": 8002,
  "su dan ": 8003,
  " 15 ": 8004,
  " xi ban ya yu ": 8005,
  "   fei ": 8006,
  "dang he ": 8007,
  "na er ": 8008,
  "fou ren ": 8009,
  "1973 nian ": 8010,
  " he he ": 8011,
  "shen cha ": 8012,
  "mian ji he ": 8013,
  " dong jing ": 8014,
  " she li ": 8015,
  "dui li ": 8016,
  "12 nian ": 8017,
  "mei mei ": 8018,
  "a ji ": 8019,
  " chan ": 8020,
  "an ren ": 8021,
  "   8": 8022,
  "jie zai ": 8023,
  "jie wei zhi ": 8024,
  "fa zhong ": 8025,
  "ts ": 8026,
  "da duo shu ": 8027,
  "sheng xia ": 8028,
  "nv yan yuan ": 8029,
  " guo min dang ": 8030,
  "xia xia de yi ge xiang ": 8031,
  " 2004": 8032,
  " zui da ": 8033,
  "   ri ": 8034,
  "cha li ": 8035,
  "wei yu ": 8036,
  "shou ling ": 8037,
  "duo ming ": 8038,
  "quan qiu": 8039,
  "gu dong ": 8040,
  "kai mu ": 8041,
  " de yi si ": 8042,
  "mou sha ": 8043,
  " ha er ": 8044,
  " diao": 8045,
  " JR": 8046,
  " gu shi ": 8047,
  "shu you ": 8048,
  "chan de ": 8049,
  "1936 nian ": 8050,
  " yu you ": 8051,
  "yong jiu ": 8052,
  " re ": 8053,
  "   10": 8054,
  " zhi zheng ": 8055,
  "nan fei ": 8056,
  "shen shang ": 8057,
  " ti chu ": 8058,
  " mu qian shang wei you ": 8059,
  " xie": 8060,
  " 36": 8061,
  " 1998 nian ": 8062,
  "la li ": 8063,
  "su da ": 8064,
  "jian dao ": 8065,
  "dan yuan ": 8066,
  " nian 12 yue 31 ri ": 8067,
  " shi zhong xin ": 8068,
  "xiang gang de ": 8069,
  " 1 yue ": 8070,
  "   tong ": 8071,
  "   gao ": 8072,
  "   3 ": 8073,
  "   2021 nian ": 8074,
  "ze yi ": 8075,
  "chuang shi ren ": 8076,
  " shi gu ": 8077,
  " you xing ": 8078,
  "xi si ": 8079,
  "sheng ge wei ": 8080,
  "tian ran": 8081,
  " ou": 8082,
  "1941 nian ": 8083,
  "1959 nian ": 8084,
  "1963 nian ": 8085,
  "huo dong de ": 8086,
  "hai jun": 8087,
  " bao gao ": 8088,
  "le liang ": 8089,
  "la te ": 8090,
  "han lin ": 8091,
  "di yi bu ": 8092,
  "fu luo li da ": 8093,
  " dan yi ": 8094,
  " ba li ": 8095,
  " mu qian shang wei you ren gong yin zhong zai pei ": 8096,
  "al ": 8097,
  "wai guan ": 8098,
  " zi liao ": 8099,
  "can yu le ": 8100,
  "xian de yi ge xing zheng zhen qu ": 8101,
  "   in   ": 8102,
  "ming he ": 8103,
  "shen ji ": 8104,
  " yi cheng ": 8105,
  "bi ya": 8106,
  "ing   ": 8107,
  "ke xue": 8108,
  "an pai": 8109,
  "tian huang ": 8110,
  "chuang xin ": 8111,
  " can": 8112,
  "   bo ": 8113,
  "wu zai ": 8114,
  " zai na li ": 8115,
  " ren jiao ": 8116,
  "zhu da ": 8117,
  " qi qi ": 8118,
  "fang cheng ": 8119,
  "bian hao wei ": 8120,
  "cai wu ": 8121,
  " wan ping fang ": 8122,
  "wu li xue ": 8123,
  "zhang li ": 8124,
  "chou bei ": 8125,
  " 21": 8126,
  "   4 yue ": 8127,
  "1939 nian ": 8128,
  "dao qian ": 8129,
  "ming ci ": 8130,
  "chong man ": 8131,
  " bu": 8132,
  "he yi ge ": 8133,
  "tui xing ": 8134,
  "31 ": 8135,
  "he ping ": 8136,
  "yuan qu ": 8137,
  "ju chang ": 8138,
  "kai fa de ": 8139,
  " gai di de ": 8140,
  "   12": 8141,
  "bian yu ": 8142,
  " xi jin ": 8143,
  "jiao zong ": 8144,
  "du jia ": 8145,
  " zhe ye shi ": 8146,
  " zhe bu ": 8147,
  "lian meng de ": 8148,
  " zhou nian ": 8149,
  "   pu ": 8150,
  "tai da ": 8151,
  "kan fa ": 8152,
  "che dao ": 8153,
  "sai bai ": 8154,
  "zao qi de ": 8155,
  "jing ji xue ": 8156,
  " ke neng hui ": 8157,
  " se ": 8158,
  "   7": 8159,
  "mi shi ": 8160,
  "yin ji ": 8161,
  "xun shi ": 8162,
  " zai ren ": 8163,
  " da chen ": 8164,
  "yin zi ": 8165,
  "gu wu ": 8166,
  "nei meng gu ": 8167,
  "la ge ": 8168,
  " gui": 8169,
  " bu shi ": 8170,
  "   15": 8171,
  "dian yu ": 8172,
  "zhou fu ze guan xia ": 8173,
  " ren min": 8174,
  " er zhe ": 8175,
  "shou hui ": 8176,
  "ru jing ": 8177,
  " gong jin ": 8178,
  "   ge ren sheng huo ": 8179,
  " 1999 nian ": 8181,
  "zeng zhi ": 8182,
  "codice ": 8183,
  " dan ye ": 8184,
  "lun si ": 8185,
  "bu man ": 8186,
  "xiang bei ": 8187,
  " nian 7 yue 1 ri ": 8188,
  "   7 yue ": 8189,
  "xia yu ": 8190,
  "tuo fu ": 8191,
  " shi xiang gang ": 8192,
  "sheng xiao ": 8193,
  "ti gong de ": 8194,
  "wang chao": 8195,
  "jiao yu ji ": 8196,
  " 34": 8197,
  " ka er ": 8198,
  " ke li si ": 8199,
  "bu wei yu ": 8200,
  "xia zhi ": 8201,
  "sui de ": 8202,
  "niu si ": 8203,
  "ne sheng ": 8204,
  "xue yuan de ": 8205,
  "xin zeng ": 8206,
  "jin zhong ": 8207,
  "duan qi ": 8208,
  "1965 nian ": 8209,
  "1953 nian ": 8210,
  " zhi yao ": 8211,
  "zhu yao shi ": 8212,
  "   ye ": 8213,
  "fang he ": 8214,
  "tian fu ": 8215,
  " li you ": 8216,
  " xi yuan ": 8217,
  "ting yun ": 8218,
  "1967 nian ": 8219,
  " li qi ": 8220,
  " bing mei you ": 8221,
  "   jin guan ": 8222,
  " yuan": 8223,
  "xin sheng ": 8224,
  "dui ta ": 8225,
  "shui shen ": 8226,
  "jiang he ": 8227,
  "nuo si ": 8228,
  "1944 nian ": 8229,
  "fu hua ": 8230,
  "jin xing": 8231,
  "gai ming ": 8232,
  "ba nen": 8233,
  "ka luo lai na ": 8234,
  " 90": 8235,
  "xin yu ": 8236,
  "lao gong ": 8237,
  " zai ta de ": 8238,
  " qing chao ": 8239,
  " shi nan ji zhou de ": 8240,
  " yi xie": 8241,
  "zhu long ": 8242,
  " yan chang ": 8243,
  "zhong shi ji ": 8244,
  "qian wei ": 8245,
  "han shi ": 8246,
  " yue lai yue ": 8247,
  "xiang lian ": 8248,
  "   Pro": 8249,
  "   quan ": 8250,
  " zhi chi": 8251,
  "gong zuo de ": 8252,
  "jia zhou ": 8253,
  "zhan zheng de ": 8254,
  "ci hui ": 8255,
  "zong dui ": 8256,
  "shou dao le ": 8257,
  " zha": 8258,
  "hou guo ": 8259,
  "yan li ": 8260,
  "huo yi ": 8261,
  "liang jia ": 8262,
  "wai ji ": 8263,
  "huan xiang ": 8264,
  "si xing ": 8265,
  "si fa ": 8266,
  "min jin ": 8267,
  "ni ya de ": 8268,
  "li yong ": 8269,
  "5 gong li ": 8270,
  " 55": 8271,
  "   8 yue ": 8272,
  " jie wei ": 8273,
  "jing xi ": 8274,
  "cha ju ": 8275,
  "jin shan ": 8276,
  "ya zhou": 8277,
  "zui duo de ": 8278,
  " li shi xue jia ": 8279,
  "pei xun ": 8280,
  " hui yi ": 8281,
  "   gu shi ": 8282,
  "du zhi ": 8283,
  "qian yu ": 8284,
  "feng yu ": 8285,
  "fu jia ": 8286,
  "zi gong si ": 8287,
  "dian chi ": 8288,
  "dian nao ": 8289,
  "ba sai ": 8290,
  "me   ": 8291,
  "fa biao": 8292,
  "hou fang ": 8293,
  "yan xu ": 8294,
  "bo la ": 8295,
  "ling yu de ": 8296,
  " gong gong ": 8297,
  " yuan xing ": 8298,
  "ying de le ": 8299,
  "mian ji he ren kou ": 8300,
  "   jiu ": 8301,
  "   la ": 8302,
  "dao li ": 8303,
  "qian li ": 8304,
  "she li de ": 8305,
  "1930 nian ": 8306,
  "nian dai ": 8307,
  "zhan zheng qi jian ": 8308,
  " xing shi ": 8310,
  "   dui yu ": 8311,
  "ni shi ": 8312,
  "da xue de ": 8313,
  "ge ci ": 8314,
  " de ji shu ": 8315,
  "jiang su sheng ": 8316,
  " 38": 8317,
  "nan ren ": 8318,
  "wang yi ": 8319,
  "la di ": 8320,
  "lan se ": 8321,
  " 75": 8322,
  " Pa": 8323,
  "gai zhi ": 8324,
  "che li ": 8325,
  "ce qi ": 8326,
  "hang xing ": 8327,
  "ha de ": 8328,
  "32 ": 8329,
  " da bu ": 8330,
  " gai cun": 8331,
  " jing nei ": 8332,
  " bo luo ": 8333,
  " gai di de mian ji he ren kou ": 8334,
  " gai di de mian ji he ren kou jie wei zhi ": 8335,
  " pa ": 8336,
  " 11 ": 8337,
  "wei ji ": 8338,
  "hou lai": 8339,
  "ci shu ": 8340,
  "hei long jiang ": 8341,
  " yi shu jia ": 8342,
  "   you xi ": 8343,
  "   mu qian ": 8344,
  "pei de ": 8345,
  "zhong xue ": 8346,
  "xuan chuan": 8347,
  "dang xuan wei ": 8348,
  " qian mi ": 8349,
  "   2015 nian ": 8350,
  "wei shi jie ": 8351,
  " shi zheng ": 8352,
  "er bei ": 8353,
  " fu ze": 8354,
  "sai che ": 8355,
  " ming chao ": 8356,
  " La": 8357,
  "shou er ": 8358,
  "lu wei ": 8359,
  "lei he ": 8360,
  "jiang zui jia ": 8361,
  "zong jing li ": 8362,
  "tu an ": 8363,
  "ting kao ": 8364,
  " qian long ": 8365,
  "zheng xie wei yuan ": 8366,
  " guan zhi ": 8367,
  "an fu ": 8368,
  "   jian li ": 8369,
  "zhuang wei ": 8370,
  "chui zhi ": 8371,
  "tong chang": 8372,
  " lei ji ": 8373,
  "   Y": 8374,
  "   Me": 8375,
  "1935 nian ": 8376,
  "di liu ": 8377,
  "jia qiang ": 8378,
  " bu lu ": 8379,
  "qu dong ": 8380,
  "jiang zhe ": 8381,
  "dang an ": 8382,
  "zheng fu yu ": 8383,
  "mei er ": 8384,
  "sui zhi ": 8385,
  "shang su ": 8386,
  "zong shu ": 8387,
  " wan mei ": 8388,
  " tong ri ": 8389,
  "   yi xia ": 8390,
  " fan dui ": 8391,
  " fen bie wei ": 8392,
  "jia li fu ni ya zhou ": 8393,
  " ding": 8394,
  " com": 8395,
  " zhan di ": 8396,
  " yi ti ": 8397,
  "yan sheng ": 8398,
  "gai jin ": 8399,
  "an xian ": 8400,
  " ci ci ": 8401,
  " wan cheng ": 8402,
  "si zhong ": 8403,
  "te zai ": 8404,
  "chuan yue ": 8405,
  "jia na ": 8406,
  "qu zi ": 8407,
  "lu duan ": 8408,
  " hai jun ": 8409,
  "nong chang ": 8410,
  " 2003": 8411,
  "   e": 8412,
  "   Ro": 8413,
  "   2014 nian ": 8414,
  "fu zhong ": 8415,
  "dong zhi ": 8416,
  "mei yi ": 8417,
  "kuai de ": 8418,
  "jiu du yu ": 8419,
  " shi ji yu ": 8420,
  " tong zhi ": 8421,
  "hang zhan ": 8422,
  "xiu ding ": 8423,
  "fa sheng le ": 8424,
  "   jian zhu ": 8425,
  "xin he ": 8426,
  " qi yong ": 8427,
  "tong xue ": 8428,
  "zhou bian": 8429,
  "gu lao de ": 8430,
  "zi xing che ": 8431,
  " 1940": 8432,
  " piao ": 8433,
  " 9 ": 8434,
  "li yi ": 8435,
  "cheng yi ge ": 8436,
  "ri shi ": 8437,
  "jiao ji ": 8438,
  "15 nian ": 8439,
  "jian dan ": 8440,
  "xiang dao ": 8441,
  "fen cheng ": 8442,
  " ke lai ": 8443,
  "liu liang ": 8444,
  "pu cha ": 8445,
  "zui zhong yao de ": 8446,
  " 70": 8447,
  " Vi": 8448,
  " jun shi ": 8449,
  "   9 yue ": 8450,
  "shan yu ": 8451,
  "zhu shou ": 8452,
  "xiang jiao ": 8453,
  "nan min ": 8454,
  "ge yue hou ": 8455,
  "   2020 nian ": 8456,
  "zhe ji ": 8457,
  "jing qu ": 8458,
  " bi xu ": 8459,
  " hua sheng ": 8460,
  "ba ta ": 8461,
  "suan de ": 8462,
  "zhu guan ": 8463,
  "yin ni ": 8464,
  "ping heng ": 8465,
  "du te de ": 8466,
  "mi du ": 8467,
  "chi jing ": 8468,
  "e hai e ": 8469,
  "   che zhan jie gou ": 8470,
  "si yue ": 8471,
  "xia er ": 8472,
  " bu he ": 8473,
  "shang fang ": 8474,
  "lin sheng ": 8475,
  "ka fei ": 8476,
  " M ": 8477,
  "   for": 8478,
  "jin cheng ": 8479,
  "zheng jiao ": 8480,
  " sheng cheng ": 8481,
  "hui yi shang ": 8482,
  " ceng jing ": 8483,
  "   yue": 8484,
  "zi sha ": 8485,
  "tou ru": 8486,
  " dan bu ": 8487,
  " er he ": 8488,
  "   zhi zuo ": 8489,
  "jin nian ": 8490,
  "fang di ": 8491,
  "mu ji ": 8492,
  "2025 nian ": 8493,
  " zai ri ben ": 8494,
  "jin rong ": 8495,
  "ying ge lan": 8496,
  " da qiao ": 8497,
  " li fa hui ": 8498,
  " zhuo": 8499,
  " ga": 8500,
  "sheng ren min zheng fu ": 8501,
  "ming ji ": 8502,
  "zuo he ": 8503,
  "1969 nian ": 8504,
  "1961 nian ": 8505,
  "jian chi ": 8506,
  "2 mi ": 8507,
  "   Li": 8508,
  "   mu ": 8509,
  "ya si ": 8510,
  "pen ": 8511,
  " zai nan ": 8512,
  "fu bu zhang ": 8513,
  "bei mei ": 8514,
  "fang xing ": 8515,
  "bao fu ": 8516,
  "mian qian ": 8517,
  "luo fa ke ": 8518,
  "   Mo": 8519,
  "1931 nian ": 8520,
  "ju feng": 8521,
  " qi zhong you ": 8522,
  " R ": 8523,
  " heng": 8524,
  "ban nian ": 8525,
  "kuang jia ": 8526,
  "jin zhang ": 8527,
  "ying guo de ": 8528,
  " de shi shi ": 8529,
  "J ": 8530,
  "   6 yue ": 8531,
  "jin qi ": 8532,
  "dui wei ": 8533,
  "zhuan zhi ": 8534,
  "hui jia ": 8535,
  "ju zhu zai ": 8536,
  "ju ju zhang ": 8537,
  "jiu bei ": 8538,
  "chong zu ": 8539,
  "tui fan ": 8540,
  " man": 8541,
  " 2002": 8542,
  " 20 ": 8543,
  "   ri ben ": 8544,
  "   2013 nian ": 8545,
  "bao ji ": 8546,
  "duo bu ": 8547,
  "yan fa ": 8548,
  "gong chan zhu yi ": 8549,
  " mi zhi ": 8550,
  "li ke ": 8551,
  "   6 ": 8552,
  "ci he ": 8553,
  "lu xi ": 8554,
  "luo wei ": 8555,
  "ku er ": 8556,
  "1957 nian ": 8557,
  " shi tai wan ": 8558,
  " de yi jian ": 8559,
  "cheng li le ": 8560,
  " zheng ge ": 8561,
  " bing qie zai ": 8562,
  " 46": 8563,
  "   huo ": 8564,
  "   yong ": 8565,
  "dai zhi ": 8566,
  "yao zai ": 8567,
  "fei zhi ": 8568,
  "ka de ": 8569,
  "run ": 8570,
  " shi si ": 8571,
  "zhan ju ": 8572,
  " zhu xi ": 8573,
  "li liang ": 8574,
  "hang ban ": 8575,
  " tai ping ": 8576,
  "wu xian dian shi ": 8577,
  "tai wei ": 8578,
  "lai er ": 8579,
  "pan de ": 8580,
  "ke xue jia ": 8581,
  "fang bian ": 8582,
  "yan shen zhi ": 8583,
  "zuo le ": 8584,
  " da xue de ": 8585,
  " fu gai ": 8586,
  "wan zheng de ": 8587,
  "luo xuan ": 8588,
  " 150": 8589,
  "   2010 nian ": 8590,
  " you he ": 8591,
  "wen ge ": 8592,
  " chong xin ": 8593,
  "yan qi ": 8594,
  "nei si ": 8595,
  "reng zai ": 8596,
  " guo fang ": 8597,
  " xi xi ": 8598,
  "jun bei ": 8599,
  " 000 ": 8600,
  "shou li ": 8601,
  "zu wei ": 8602,
  " shi fu ": 8603,
  "guo fang bu ": 8604,
  "yuan wai ": 8605,
  " ke la ": 8606,
  "mu jian ": 8607,
  "zhen zheng ": 8608,
  "che tui ": 8609,
  "fei chang": 8610,
  "ba le si ": 8611,
  " guan li ": 8612,
  "mei zhong ": 8613,
  "1951 nian ": 8614,
  " yue ren ": 8615,
  "shu shu ": 8616,
  "meng te ": 8617,
  "   gen ju 2010 nian mei guo ren kou pu cha de shu ju ": 8618,
  "   2012 nian ": 8619,
  "shen li ": 8620,
  "ka li ": 8621,
  "po er ": 8622,
  "liu xue ": 8623,
  "wang hou ": 8624,
  "zu zi zhi ": 8625,
  " xian jin ": 8626,
  " ceng zai ": 8627,
  "jiang wei ": 8628,
  "qian qi ": 8629,
  "ben zhi ": 8630,
  "tui li ": 8631,
  "hei ren ": 8632,
  "son ": 8633,
  "sheng jie rang ": 8634,
  "qian xian ": 8635,
  " mi de ": 8636,
  "8 ge ": 8637,
  " zhui": 8638,
  "ta er ": 8639,
  "chong fu ": 8640,
  "1942 nian ": 8641,
  "tai shou ": 8642,
  "mei tian ": 8643,
  "zhuan huan ": 8644,
  " D ": 8645,
  " fei li ": 8646,
  " long": 8647,
  " yu yi ": 8648,
  "xiao yi ": 8649,
  "chen de ": 8650,
  " shi shang ": 8651,
  "zheng wu ": 8652,
  " ri bao ": 8653,
  "liu chuan ": 8654,
  "tu ran ": 8655,
  "qu shi hou ": 8656,
  " jiang xi ": 8657,
  " gou ": 8658,
  "   tang ": 8659,
  "mi ji ": 8660,
  "dang ri ": 8661,
  "duo li ": 8662,
  "jian zhu shi ": 8663,
  "jie jie ": 8664,
  "qian lai ": 8665,
  " ke cheng ": 8666,
  "fei fa ": 8667,
  " dao da ": 8668,
  "liao ning": 8669,
  "zheng fu zai ": 8670,
  "3 mi ": 8671,
  "qu nei ": 8672,
  "quan ti ": 8673,
  "guang fan de ": 8674,
  " wei yuan hui de ": 8675,
  " P ": 8676,
  "e er ": 8677,
  " zao": 8678,
  " 180": 8679,
  "   yan ge ": 8680,
  "jin he ": 8681,
  "ri er ": 8682,
  "nan yu ": 8683,
  "zong de ": 8684,
  "1960 nian dai ": 8685,
  "bei qi ": 8686,
  "chong fan ": 8687,
  "xin guan fei yan ": 8688,
  "2   ": 8689,
  "ti bu ": 8690,
  "liang yu ": 8691,
  "pu de ": 8692,
  "rong de ": 8693,
  "hui guan ": 8694,
  "liu ge ": 8695,
  "tu ran": 8696,
  "tan suo ": 8697,
  " shi shi zhang ": 8698,
  "che ren ": 8699,
  " yi qing ": 8700,
  "jia er ": 8701,
  "mian xiang ": 8702,
  "er zhong ": 8703,
  "1933 nian ": 8704,
  " yi jiao ": 8705,
  "xi lie": 8706,
  "fa jue ": 8707,
  "jin si ": 8708,
  "jing yuan ": 8709,
  "fang xiang de ": 8710,
  "bao an ": 8711,
  "dai ti ": 8712,
  "tu sha ": 8713,
  " you de ": 8714,
  "xing zheng dan wei ": 8715,
  " an hui ": 8716,
  " di er ci ": 8717,
  " qin": 8718,
  "   gai": 8719,
  "   2005": 8720,
  "guan zai ": 8721,
  "kai qi ": 8722,
  "ken ding ": 8723,
  " yi chang ": 8724,
  " ji che ": 8725,
  "bian zu ": 8726,
  "cai zheng bu ": 8727,
  "gang tie ": 8728,
  "hang kong gong si ": 8729,
  " shi yi ge wei yu mei guo ": 8730,
  " pao": 8731,
  "dao guo ": 8732,
  "tuo er ": 8733,
  "gei ta ": 8734,
  " zhong bei ": 8735,
  "ting zhang ": 8736,
  "ren da dai biao ": 8737,
  "fan fu ": 8738,
  "1928 nian ": 8739,
  "xian bu ": 8740,
  "xin zhi ": 8741,
  "lei yu ": 8742,
  "cun yu ": 8743,
  "fu qi ": 8744,
  "le xu duo ": 8745,
  " liu yu mian ji ": 8746,
  "wan qi ": 8747,
  "ben ji ": 8748,
  "che xing ": 8749,
  "shao you ": 8750,
  "ren min": 8751,
  " bing biao shi ": 8752,
  " zhu chi ": 8753,
  "ying he ": 8754,
  "zhao shi ": 8755,
  "zhu chi ren ": 8756,
  " gong lu ": 8757,
  " gen ju 2020 nian mei guo ren kou pu cha de shu ju ": 8758,
  " Le": 8759,
  "ing ": 8760,
  "shang jiang ": 8761,
  "duo xiang ": 8762,
  "feng ge de ": 8763,
  " ye ke yi ": 8764,
  "tao wang ": 8765,
  " kua": 8766,
  "zuo ji ": 8767,
  "ben bu ": 8768,
  "fan ji ": 8769,
  "nv you ": 8770,
  "qiao de ": 8771,
  "ke sa si ": 8772,
  "cheng dan ": 8773,
  "huo qu ": 8774,
  "bo yin ": 8775,
  "tou shou ": 8776,
  "xin xi lan ": 8777,
  " fen bie shi ": 8778,
  "   2011 nian ": 8779,
  "nian de ": 8780,
  "th   ": 8781,
  "fu si ": 8782,
  " jia ru": 8783,
  "sai guan jun ": 8784,
  " de yi wei ": 8785,
  "zhuan qu ": 8786,
  " zhen": 8787,
  "   zui ": 8788,
  "guan wei ": 8789,
  "gu yi ": 8790,
  "fen shi ": 8791,
  "huan wei ": 8792,
  " qi hou yu ": 8793,
  "xiao she ": 8794,
  " ta jiang ": 8795,
  "cai pan ": 8796,
  "huo de de ": 8797,
  "   ru ": 8798,
  "ma qi ": 8799,
  "zhong hai ": 8800,
  "yuan shu ": 8801,
  " er ci ": 8802,
  " xi si ": 8803,
  " da di ": 8804,
  "fen xiang ": 8805,
  " yun nan ": 8806,
  "   fa guo ": 8807,
  "tai yi ": 8808,
  " ji xu": 8809,
  "gong she ": 8810,
  "shou ming ": 8811,
  "ye na ": 8812,
  "xue shi xue wei ": 8813,
  " 37": 8814,
  " 39": 8815,
  " Li": 8816,
  "ze de ": 8817,
  "gang de ": 8818,
  "shun xu ": 8819,
  "ry ": 8820,
  "1912 nian ": 8821,
  "di mian ": 8822,
  "ge ti ": 8823,
  "jie xia ": 8824,
  "qian ze ": 8825,
  " yin wei ta ": 8826,
  " 2023 nian ": 8827,
  "jing bu ": 8828,
  "qing he ": 8829,
  "ting he ": 8830,
  "ceng bei ": 8831,
  "jie ru ": 8832,
  "dian liu ": 8833,
  "ping ding ": 8834,
  " dan zhe ": 8835,
  " shi shi yi ": 8836,
  " xin zeng": 8837,
  " qu": 8838,
  " 1997 nian ": 8839,
  "   bai ": 8840,
  "fei shi ": 8841,
  "bai xing ": 8842,
  "dou bu ": 8843,
  " shi xi ban ya ": 8844,
  "hua mian ": 8845,
  "zuo ye ": 8846,
  " si ling bu ": 8847,
  "mei guo yi ": 8848,
  "ke neng xing ": 8849,
  "ya mei ni ya ": 8850,
  "pan chu ": 8851,
  "mao de ": 8852,
  "cheng gong de ": 8853,
  "fa er ": 8854,
  "yin jin ": 8855,
  "dan xin ": 8856,
  "duo lun ": 8857,
  "wai jie ": 8858,
  " jie fang ": 8859,
  "qiang da de ": 8860,
  " rui": 8861,
  " De": 8862,
  "   The   ": 8863,
  "le zhi ": 8864,
  "wan nian ": 8865,
  "fa bu de ": 8866,
  "chuang zao": 8867,
  "nv wang ": 8868,
  " ying xiang ": 8869,
  "wang yuan jing ": 8870,
  " te": 8871,
  " hou yu ": 8872,
  "ting shi ": 8873,
  "feng suo ": 8874,
  "6 mi ": 8875,
  " ji yi ": 8876,
  " bang zhu ": 8877,
  "cha er si ": 8878,
  "yan zou": 8879,
  "guan xi de ": 8880,
  "dan du ": 8881,
  "tiao wen ": 8882,
  "ran liao ": 8883,
  "guan li": 8884,
  "yong di ": 8885,
  "wen yu ": 8886,
  "lin yu ": 8887,
  "zhong hua ": 8888,
  "shen ru ": 8889,
  "dian ying jie ": 8890,
  " ren kou de ": 8891,
  "yu de guo ": 8892,
  "zu shi ": 8893,
  "1927 nian ": 8894,
  " li jing ": 8895,
  "gong zhan ": 8896,
  "shou huan ying ": 8897,
  "shui mian ": 8898,
  " tong shi ye ": 8899,
  "yong he ": 8900,
  "san de ": 8901,
  "san yue ": 8902,
  "sha shi ": 8903,
  "he bei ": 8904,
  "jie shou": 8905,
  "bi sai de ": 8906,
  "xie dai ": 8907,
  " ri yi ": 8908,
  " mian ji 0": 8909,
  "   wen hua ": 8910,
  "ting ji ": 8911,
  "or ": 8912,
  " shi ke ": 8913,
  " wei da ": 8914,
  "di tie ": 8915,
  "xian zai de ": 8916,
  " fu er ": 8917,
  "ba ge ": 8918,
  " jie jin ": 8919,
  " jie gou ": 8920,
  " ao da li ya ": 8921,
  "zuo pin de ": 8922,
  "hu lian wang ": 8923,
  "yi de shi ": 8924,
  "huang he ": 8925,
  "jian shao": 8926,
  "zhu zhai ": 8927,
  "jing nei de ": 8928,
  "zong zhan ": 8929,
  " tui chu ": 8930,
  "wu ren ji ": 8931,
  "fen shu ": 8932,
  "su song ": 8933,
  "shan ding ": 8934,
  " shi shi de ": 8935,
  "fa ren ": 8936,
  "1943 nian ": 8937,
  "di da ": 8938,
  "da lu": 8939,
  " da qi ": 8940,
  "jun jian ": 8941,
  "she hui de ": 8942,
  " yi ji zai ": 8943,
  " guo li ": 8944,
  "   to   ": 8945,
  "1932 nian ": 8946,
  " li nian ": 8947,
  "tong bao ": 8948,
  "wen si ": 8949,
  "ti qu ": 8950,
  "ba fa li ya ": 8951,
  "hang zhou ": 8952,
  " hu bei ": 8953,
  " zeng": 8954,
  " а": 8955,
  "   guan ": 8956,
  "   dian ": 8957,
  "zhou de yi ge shi zhen ": 8958,
  "lu wa ": 8959,
  "qian xia ": 8960,
  "su she ": 8961,
  " dao lu ": 8962,
  " lu wa er sheng ": 8963,
  " xue": 8964,
  " tuan ": 8965,
  "zun zhong ": 8966,
  "ti cai ": 8967,
  "bo chu de ": 8968,
  "duo yuan ": 8969,
  "yan jiu zhong xin ": 8970,
  " shi xing deng wei ": 8971,
  "a gen ting ": 8972,
  " fu": 8973,
  "shen he ": 8974,
  "1929 nian ": 8975,
  "ban ben de ": 8976,
  " jing fang ": 8977,
  "ren kou pu cha ": 8978,
  " Mar": 8979,
  "   di": 8980,
  "le xi ": 8981,
  "zu ji ": 8982,
  "dang bu ": 8983,
  "28 ": 8984,
  "tian wen xue ": 8985,
  "pai lie ": 8986,
  " ao men ": 8987,
  " nu": 8988,
  "shen qi ": 8989,
  "fan da xue ": 8990,
  "ting yu ": 8991,
  "wu bu ": 8992,
  "cheng shu ": 8993,
  "xue tang ": 8994,
  "jiao gao ": 8995,
  "liang hao ": 8996,
  "shen fu ": 8997,
  " she": 8998,
  " 400": 8999,
  "bi yu ": 9000,
  "jiu yue ": 9001,
  "ceng you ": 9002,
  "qian yin ": 9003,
  "xing zheng qu hua ": 9004,
  " guang xu ": 9005,
  "a er bei si ": 9006,
  "re dai qi xuan ": 9007,
  " yuan shi ": 9008,
  "   ai ": 9009,
  "duo si ": 9010,
  "jia xiang ": 9011,
  "shu fa ": 9012,
  "tong yang": 9013,
  "du zi ": 9014,
  "mei ti": 9015,
  "duo guan ": 9016,
  "ge lun bi ya ": 9017,
  " chuang": 9018,
  " fen wei ": 9019,
  "   1": 9020,
  "1924 nian ": 9021,
  " wei zai ": 9022,
  " zhong yao de ": 9023,
  "qu bie ": 9024,
  " de yi ci ": 9025,
  "nei rui ": 9026,
  " dan yu ": 9027,
  " xian shi you ": 9028,
  " 2001": 9029,
  "qu mu ": 9030,
  "ben shu ": 9031,
  "sha tian ": 9032,
  " sheng huo ": 9033,
  " si shi ": 9034,
  " heng li ": 9035,
  "tong qi ": 9036,
  "yin you ": 9037,
  "bo ji ": 9038,
  "di fen ": 9039,
  " bu yao ": 9040,
  " di 1 ": 9041,
  "jiang xue ": 9042,
  "pu luo ": 9043,
  "pan luan ": 9044,
  " zai shi ": 9045,
  " chi wei ": 9046,
  "7 ge ": 9047,
  " yao": 9048,
  " Al": 9049,
  "   ling ": 9050,
  "bu zai ": 9051,
  " yue tuan": 9052,
  " xian lu ": 9053,
  "yi shi dao ": 9054,
  " 300": 9055,
  "lu er ": 9056,
  "ca ": 9057,
  " zai wu ": 9058,
  "gong zi ": 9059,
  "jian ce ": 9060,
  " da ban ": 9061,
  " zhe zuo ": 9062,
  " hou you ": 9063,
  "   De": 9064,
  "miao yu ": 9065,
  "13 nian ": 9066,
  "1934 nian ": 9067,
  " you xi de ": 9068,
  "xian dao ": 9069,
  "shou cang": 9070,
  " si hou ": 9071,
  "zhuan ji de ": 9072,
  "wo men": 9073,
  " fei lv ": 9074,
  "   wei le ": 9075,
  "gong chan dang": 9076,
  "2 li ": 9077,
  " peng ": 9078,
  "25 nian ": 9079,
  "21 nian ": 9080,
  "CD ": 9081,
  " zhi ci ": 9082,
  "zhong gong ": 9083,
  "jin hui ": 9084,
  "bing wu ": 9085,
  "di yi bai ": 9086,
  "ke yi tong guo ": 9087,
  "   zuo wei ": 9088,
  "tu shi ": 9089,
  "shuo fu ": 9090,
  "60 ": 9091,
  " ji xie ": 9092,
  "yuan jian ": 9093,
  "jie lun ": 9094,
  "sheng hui ": 9095,
  " di ren ": 9096,
  "xin zhu ": 9097,
  "zu xian ": 9098,
  " de yi ji ": 9099,
  "han gai ": 9100,
  "dian shi jie mu ": 9101,
  " tan": 9102,
  "qi li ": 9103,
  "tao yuan ": 9104,
  "sa de ": 9105,
  "fang zhen ": 9106,
  "ti qian ": 9107,
  "dai lai de ": 9108,
  " de yi xiang ": 9109,
  " zi xing ": 9110,
  " chu ci zhi wai ": 9111,
  "quan guo zhong dian ": 9112,
  "luo ma di guo ": 9113,
  " yi xian ": 9114,
  "ke lei ": 9115,
  "ban quan ": 9116,
  " zi ran ": 9117,
  "ting zhan ": 9118,
  "qiang hua ": 9119,
  " zuo biao wei ": 9120,
  "tian wen tai ": 9121,
  " 187": 9122,
  "yong qi ": 9123,
  "nv ren ": 9124,
  "da xuan ": 9125,
  "jing bei ": 9126,
  "fang cheng shi ": 9127,
  "hua gui ": 9128,
  "yang zi ": 9129,
  "zong ju ": 9130,
  "sha bai ": 9131,
  " zhong yu ": 9132,
  " bi de ": 9133,
  "   2008 nian ": 9134,
  "jing tou ": 9135,
  "e hua ": 9136,
  "meng jun ": 9137,
  "mao dun ": 9138,
  "24 xiao shi ": 9139,
  " �": 9140,
  " HR": 9141,
  "   hai ": 9142,
  "fan shi ": 9143,
  "hao he ": 9144,
  "dui fu ": 9145,
  "ru qiu ": 9146,
  " tong shi ye shi ": 9147,
  "27 ": 9148,
  "zang yu ": 9149,
  "zi wo ": 9150,
  "ci ci ": 9151,
  "ye zhan ": 9152,
  "liu dong ": 9153,
  "zong guan ": 9154,
  " bing fei ": 9155,
  "zhao gu ": 9156,
  "tao wan ": 9157,
  " shang shu ": 9158,
  " zhu yao shi ": 9159,
  " Si": 9160,
  " kuai ": 9161,
  "hao zai ": 9162,
  "nei yi ": 9163,
  " shi shi shi ": 9164,
  " de di san ": 9165,
  " de guo cheng ": 9166,
  " wo men": 9167,
  "ci shi jie da zhan qi jian ": 9168,
  " chao guo ": 9169,
  "ying zhi ": 9170,
  "qiu he ": 9171,
  "ting dao ": 9172,
  "zhuan li ": 9173,
  "zhu fang ": 9174,
  "zhu quan ": 9175,
  "ri chang ": 9176,
  "xia xia ": 9177,
  "liang an ": 9178,
  "zhuan bian ": 9179,
  "tuo luo ": 9180,
  " de ji ben ": 9181,
  "   jing li ": 9182,
  "ta you ": 9183,
  "tu si ": 9184,
  "fu xian ": 9185,
  "huo che zhan ": 9186,
  "kao cha ": 9187,
  " In": 9188,
  "kai er ": 9189,
  "18 nian ": 9190,
  "26 ": 9191,
  " zhong guo de ": 9192,
  "zhan qu ": 9193,
  " ke lei ": 9194,
  "dang xuan": 9195,
  "chan wu ": 9196,
  "cun zai yu ": 9197,
  " SAO": 9198,
  "   wan ": 9199,
  "fan er ": 9200,
  "jue wei ": 9201,
  "40 nian ": 9202,
  "xiang dong ": 9203,
  "zai   ": 9204,
  "zhe you ": 9205,
  "pu si ": 9206,
  " ji ke ": 9207,
  " yu lei ": 9208,
  "bu duan ": 9209,
  " guo jia": 9210,
  "xian ming ": 9211,
  "hou dai ": 9212,
  "fang xian ": 9213,
  "ce lve ": 9214,
  "rong liang ": 9215,
  "min zu zhu yi ": 9216,
  "bao fa hou ": 9217,
  " nuo": 9218,
  "le he ": 9219,
  "19 nian ": 9220,
  "wen di ": 9221,
  "bai he ": 9222,
  "wu pin ": 9223,
  " er ta ": 9224,
  "xue xiao de ": 9225,
  " jia er ": 9226,
  "duo qu ": 9227,
  " bing cheng ": 9228,
  "tong zhi zhe ": 9229,
  "mei guo ren kou pu cha ": 9230,
  " di qi ya ": 9231,
  "   guo ji ": 9232,
  "wen bu ": 9233,
  "ze bei ": 9234,
  "chi dao ": 9235,
  "guo cheng zhong ": 9236,
  "he lan ": 9237,
  " zhong da ": 9238,
  "wu er ": 9239,
  "jia su ": 9240,
  "hui she ": 9241,
  "hua fen ": 9242,
  "mo fang ": 9243,
  "po lun ": 9244,
  "   ya ": 9245,
  "dong he ": 9246,
  "yuan sheng ": 9247,
  "fu ze ren ": 9248,
  "jing ling ": 9249,
  "fan gong ": 9250,
  "cai fang ": 9251,
  "1 ri qi ": 9252,
  " tai bei ": 9253,
  "mou xie": 9254,
  "   hong ": 9255,
  "gu er ": 9256,
  "ya zai ": 9257,
  "ge la si ": 9258,
  "fa xian": 9259,
  "fa da ": 9260,
  "ai hao ": 9261,
  "pian duan ": 9262,
  " 12 ": 9263,
  " 1994 nian ": 9264,
  "   fen lei ": 9265,
  "fa zai ": 9266,
  "qu de yi ge ": 9267,
  "diao yu ": 9268,
  " shi e luo si ": 9269,
  " guo du ": 9270,
  " qi yue ": 9271,
  "hua bei ": 9272,
  "ti gong": 9273,
  "fen pei": 9274,
  " a er bei ": 9275,
  " E ": 9276,
  "   zhen ": 9277,
  "zhi de yi ": 9278,
  "guan li de ": 9279,
  "nan xi ": 9280,
  "qing li ": 9281,
  "luo he ": 9282,
  "niu yue shi ": 9283,
  "di dian ": 9284,
  "jia shang ": 9285,
  "jue se de ": 9286,
  " jin er ": 9287,
  "xian de fei jian zhi di qu ": 9288,
  " gai shi ": 9289,
  "3 hao ": 9290,
  "yu yi ge ": 9291,
  "   re": 9292,
  "qiu yi ": 9293,
  "reng wei ": 9294,
  " guo jun ": 9295,
  "se cai ": 9296,
  "er de ming ": 9297,
  "0 zuo biao wei ": 9298,
  " bo shi ": 9299,
  "luo er ": 9300,
  "gan shi ": 9301,
  "tang he ": 9302,
  "tao li ": 9303,
  "sis ": 9304,
  " qi B1900": 9305,
  "ming cheng wei ": 9306,
  "lian sai de ": 9307,
  " wei yu yin jing ": 9308,
  " wei wu er ": 9309,
  "0 zuo biao wei chi jing ": 9310,
  "shu di ": 9311,
  "qu di ": 9312,
  "dui da ": 9313,
  "wen zhi ": 9314,
  "nan zhi ": 9315,
  "pu ji ": 9316,
  "geng shi ": 9317,
  "fu nv ": 9318,
  "sheng huo de ": 9319,
  "dong ya ": 9320,
  "nan bu de ": 9321,
  "suo wei de ": 9322,
  "tiao kuan ": 9323,
  " li shi hui ": 9324,
  "dian shi dong hua ": 9325,
  " zong tong ": 9326,
  " yin ci zai ": 9327,
  " ン": 9328,
  "   9": 9329,
  "da ren ": 9330,
  "cheng xiang ": 9331,
  "bian ma ": 9332,
  " shi ji zhong ": 9333,
  " qing chao zheng zhi ren wu ": 9334,
  " ying de ": 9335,
  "   san ": 9336,
  "   11 yue ": 9337,
  "te si ": 9338,
  "mo li ": 9339,
  "shui zhong ": 9340,
  "sen de ": 9341,
  "sang shi ": 9342,
  "bu hui ": 9343,
  "yuan xiao ": 9344,
  "chu sai ": 9345,
  "zu qiu lian sai ": 9346,
  " guo min zheng fu ": 9347,
  "3 ming ": 9348,
  " hua": 9349,
  "   4 ": 9350,
  "tai zai ": 9351,
  "gong dian ": 9352,
  " er lai ": 9353,
  " xi zhou ": 9354,
  " fu lang ": 9355,
  " ge guo ": 9356,
  " dong hua ": 9357,
  " F ": 9358,
  "   che zhan gou zao ": 9359,
  " zou": 9360,
  "bai nian ": 9361,
  "dong qu ": 9362,
  "yin dao ": 9363,
  "jiang pai ": 9364,
  "mi qie ": 9365,
  "xuan yan ": 9366,
  "hen da de ": 9367,
  "biao xian chu ": 9368,
  " 1945": 9369,
  "   lin ": 9370,
  "   ta de ": 9371,
  "   2022 nian ": 9372,
  "liang yi ": 9373,
  "35 ": 9374,
  "33 ": 9375,
  " nian qing de ": 9376,
  "da lou": 9377,
  "mei dong ": 9378,
  "nan si la fu ": 9379,
  "xin tai bi ": 9380,
  " 1992 nian ": 9381,
  "   bi ": 9382,
  "lu zhong ": 9383,
  "te ren ": 9384,
  "bai shi ": 9385,
  "ju dian ": 9386,
  "sai na ": 9387,
  "kong zhi de ": 9388,
  "fei lv bin ": 9389,
  "yun zai ": 9390,
  "chuan dao ": 9391,
  "shao wei ": 9392,
  "pen di ": 9393,
  "1909 nian ": 9394,
  "yuan zheng ": 9395,
  "gong wu ": 9396,
  "sheng dan ": 9397,
  "ying xiang de ": 9398,
  "xin qu ": 9399,
  " xing zheng": 9400,
  "zong shu ji ": 9401,
  "lei si yu ": 9402,
  "xun zhao": 9403,
  "wan cheng le ": 9404,
  "shun shi zhen yu ": 9405,
  " la": 9406,
  " chang qi ": 9407,
  " tai guo ": 9408,
  "   zuo ": 9409,
  "du zai ": 9410,
  "sha ren ": 9411,
  "wa de ": 9412,
  "ying pian": 9413,
  "lu jing ": 9414,
  " ge ming ": 9415,
  "fa bu le ": 9416,
  " wei yu gai sheng ": 9417,
  "   kai ": 9418,
  "zhan yi zhong ": 9419,
  "suan jian ": 9420,
  "bei ren wei ": 9421,
  " qi ren ": 9422,
  " si xiang ": 9423,
  "ao da li ": 9424,
  "e yu ": 9425,
  " min zhu ": 9426,
  " guang xi ": 9427,
  "xun xi ": 9428,
  "da ge ming ": 9429,
  "wu ti ": 9430,
  "chang chang ": 9431,
  "fei dan ": 9432,
  "jia ru le ": 9433,
  " J ": 9434,
  "zhen ji xing zheng dan wei ": 9435,
  " 160": 9436,
  "   a   ": 9437,
  "you yi zhi ": 9438,
  "fa wei yuan ": 9439,
  "ta li ": 9440,
  "te wei ": 9441,
  "fei di ": 9442,
  "shui he ": 9443,
  "pao dao ": 9444,
  "zhe xiang ": 9445,
  " ge er ": 9446,
  "hong zha ": 9447,
  " zhan hou ": 9448,
  " xing zheng qu ": 9449,
  "zhan dou ji ": 9450,
  " 1990": 9451,
  "mu li ": 9452,
  "ya ji ": 9453,
  "duan wei ": 9454,
  "cong zhong ": 9455,
  "da ban ": 9456,
  " xi ge ": 9457,
  "jiang nan ": 9458,
  "ben zhan ": 9459,
  " zi ran": 9460,
  " 64": 9461,
  " luo si ": 9462,
  "qiang da ": 9463,
  "gen di ": 9464,
  " qi xi": 9465,
  "zuo wu ": 9466,
  " 1993 nian ": 9467,
  "zhuan ke ": 9468,
  "xiu si ": 9469,
  "16 nian ": 9470,
  "14 nian ": 9471,
  "1970 nian dai ": 9472,
  " bu tong": 9473,
  " bu bing ": 9474,
  "shang biao ": 9475,
  "le bi ": 9476,
  " ping cheng ": 9477,
  " gang": 9478,
  " pang": 9479,
  "lian shi ": 9480,
  "zui xing ": 9481,
  "zhuan cheng ": 9482,
  "pe ": 9483,
  " yi ding ": 9484,
  " yi se lie ": 9485,
  " zhi hou": 9486,
  "zhan lve ": 9487,
  "luo te ": 9488,
  " cong ci ": 9489,
  " wei ji chu ": 9490,
  "xia xia de yi ge xiang zhen ji xing zheng dan wei ": 9491,
  " 58": 9492,
  " ao si ": 9493,
  "ba ji si ": 9494,
  "ra ": 9495,
  "xue tong ": 9496,
  "bing bei ": 9497,
  "lai kan ": 9498,
  "kai chu ": 9499,
  "chuan shu ": 9500,
  "lv hua ": 9501,
  " du li ": 9502,
  "min shi ": 9503,
  "35 nian ": 9504,
  "qia ": 9505,
  "bu zu ": 9506,
  "xiang liang ": 9507,
  "fang kong ": 9508,
  "dian xin ": 9509,
  "shen pan ": 9510,
  " bo lan ": 9511,
  "hun ning ": 9512,
  " guan zhuang bing du ": 9513,
  "zhui su dao ": 9514,
  "   feng ": 9515,
  "zhan li ": 9516,
  "sheng qi ": 9517,
  "ming chao ": 9518,
  "yin ying ": 9519,
  "wen shu ": 9520,
  "gang qin ": 9521,
  "ce lve": 9522,
  " shang ye ": 9523,
  "nan ji tiao yue ": 9524,
  " kao": 9525,
  "ao ke ": 9526,
  "   0": 9527,
  "shou zai ": 9528,
  "ting zhong ": 9529,
  "EST ": 9530,
  "jia she ": 9531,
  "shou sun ": 9532,
  " gai shu ": 9533,
  " tong yang ": 9534,
  "cao zuo": 9535,
  " shi ren min zheng fu ": 9536,
  " cang": 9537,
  " 1999": 9538,
  " fen bu zai ": 9539,
  "di shi yi ": 9540,
  "te zhi ": 9541,
  "mian wei ": 9542,
  "long ke ": 9543,
  "rong ji ": 9544,
  "22 nian ": 9545,
  " ji yin ": 9546,
  "xi tong de ": 9547,
  "si hou ": 9548,
  "ci dian ": 9549,
  " ge lan ": 9550,
  "yan jiu de ": 9551,
  "dong jing du ": 9552,
  "   2009 nian ": 9553,
  "ya er ": 9554,
  "pai he ": 9555,
  "bu tong": 9556,
  "er cheng ": 9557,
  "shang ke ": 9558,
  "lu yin ": 9559,
  "ti an ": 9560,
  "ya ge ": 9561,
  "tian xia ": 9562,
  "guang bo": 9563,
  "qiang diao": 9564,
  " nan bei ": 9565,
  " 1995 nian ": 9566,
  "yuan ren ": 9567,
  "ming qi ": 9568,
  "du yue ": 9569,
  "chuan shi ": 9570,
  "lai zi": 9571,
  "pai she": 9572,
  " 47": 9573,
  " 1996 nian ": 9574,
  "   shu ": 9575,
  "   she ji ": 9576,
  "ping ren ": 9577,
  " zhong wen": 9578,
  "chu jing ": 9579,
  "shang jie ": 9580,
  "guan zheng ": 9581,
  "chang an ": 9582,
  " zi ci ": 9583,
  " xiang si ": 9584,
  " xiang dang yu ": 9585,
  "zao chuan ": 9586,
  " wei yuan hui zhu xi ": 9587,
  " a li ": 9588,
  " ha li ": 9589,
  "can sai zi ge ": 9590,
  "nan ji tiao yue ti xi ": 9591,
  "f   ": 9592,
  " 1998": 9593,
  "ji shi shi ": 9594,
  "gai you ": 9595,
  "hao ji ": 9596,
  "tou yu ": 9597,
  " shi fen ": 9598,
  " li xian ": 9599,
  " zai xin ": 9600,
  "ming xian de ": 9601,
  "jiao zhan ": 9602,
  "xiao hua ": 9603,
  " fu zhu ": 9604,
  "xiu dao yuan ": 9605,
  " wei shi ": 9606,
  "yi   ": 9607,
  "duo yu ": 9608,
  "1925 nian ": 9609,
  "fa yan ren ": 9610,
  " di mian ": 9611,
  "jiao tu ": 9612,
  "mo fa ": 9613,
  "geng da de ": 9614,
  "8 mi ": 9615,
  " dou shi ": 9616,
  "ji shi jian ": 9617,
  "jun qi ": 9618,
  "liu yi ": 9619,
  "11 nian ": 9620,
  "tao fa ": 9621,
  "sa ke si ": 9622,
  "bei lu ": 9623,
  "shou hu ": 9624,
  "shou ge qu ": 9625,
  " hui fu ": 9626,
  "di shi ni ": 9627,
  " da yue ": 9628,
  " T ": 9629,
  "tong xing lian ": 9630,
  "4 ming ": 9631,
  " 48": 9632,
  " 1996": 9633,
  "   ma": 9634,
  "jia li ya ": 9635,
  "ban zhi ": 9636,
  "shui dao ": 9637,
  "hun li ": 9638,
  " de he ": 9639,
  "jian cha": 9640,
  "guan dao ": 9641,
  "bi yao ": 9642,
  "lai wu ": 9643,
  " ju jue ": 9644,
  " huo cheng ": 9645,
  "wei yi zhong ": 9646,
  "xiao xing xing de ": 9647,
  " e luo ": 9648,
  " qi yi ": 9649,
  "   Pa": 9650,
  "ying yi ": 9651,
  "lv he ": 9652,
  "tuo ke ": 9653,
  "hun yin": 9654,
  " shi nian ": 9655,
  " wei xian ": 9656,
  " zhong yao": 9657,
  "fang shou ": 9658,
  " fu jin de ": 9659,
  "yun hui ": 9660,
  "feng fu de ": 9661,
  "bai hou ": 9662,
  " zhe yang de ": 9663,
  "di er ci ": 9664,
  "quan zhi ": 9665,
  " yi dan ": 9666,
  "fa she": 9667,
  "zheng xie ": 9668,
  "hou xu ": 9669,
  "zhan sheng ": 9670,
  "fen ge ": 9671,
  "ping deng ": 9672,
  "zhou kan ": 9673,
  "tian huang": 9674,
  "miao shu wei ": 9675,
  "   zhi ye sheng ya ": 9676,
  "shan mai de yi bu fen ": 9677,
  " 1949 nian ": 9678,
  "quan guo zhong dian wen wu bao hu dan wei ": 9679,
  "nan ji tiao yue ti xi guan li ": 9680,
  " Fi": 9681,
  "   bao ": 9682,
  "   hua ": 9683,
  "   chen ": 9684,
  "qu xi ": 9685,
  "ding yi wei ": 9686,
  "san xing ": 9687,
  "han jian ": 9688,
  "bang di ": 9689,
  "50 nian ": 9690,
  "xing deng wei ": 9691,
  "yan zheng ": 9692,
  "qing yuan ": 9693,
  "pu lu shi ": 9694,
  " ye cheng ": 9695,
  "zheng zhi bu ": 9696,
  " fan ying ": 9697,
  "1 jia ": 9698,
  " s ": 9699,
  "san zhi ": 9700,
  "weng ": 9701,
  "fa xue ": 9702,
  "fa lan ke ": 9703,
  " si ge ": 9704,
  "tang qu ": 9705,
  "qu de le ": 9706,
  " dian zi ": 9707,
  " Di": 9708,
  "   Z": 9709,
  "   zao qi ": 9710,
  "jing di ": 9711,
  "wu han ": 9712,
  "shang zui ": 9713,
  "jing ti ": 9714,
  "zhe ci ": 9715,
  "guan fang": 9716,
  "dui kang": 9717,
  " zi sheng ": 9718,
  " ceng yu ": 9719,
  "jie quan guo ren min dai biao da hui ": 9720,
  " jian yi ": 9721,
  "   liang ": 9722,
  "   xuan ": 9723,
  "   wai bu ": 9724,
  "cai shi ": 9725,
  "pa er ": 9726,
  "gong guo ": 9727,
  "jia si ": 9728,
  "dian xing de ": 9729,
  "shan hu ": 9730,
  "la ma ": 9731,
  "ke yi sheng ": 9732,
  "dong shi hui ": 9733,
  " wo de ": 9734,
  "4 mi ": 9735,
  "xiao zhi ": 9736,
  "mie wang ": 9737,
  " ji jie ": 9738,
  "guo fang ": 9739,
  " bu zhang ": 9740,
  "zhu cheng ": 9741,
  "hui bao ": 9742,
  " xi fang ": 9743,
  "shou huan ": 9744,
  "dan yao ": 9745,
  "shen ye ": 9746,
  " yi zhi zai ": 9747,
  " o": 9748,
  " en": 9749,
  "   ka ": 9750,
  "   2007 nian ": 9751,
  "zhong yang": 9752,
  "nan mei zhou ": 9753,
  "zhen zhu ": 9754,
  "bian huan ": 9755,
  " wei yu zhong hua ren min gong he guo ": 9756,
  "pei chang ": 9757,
  " gai cun shi jian yu ": 9758,
  " n": 9759,
  "xi di ": 9760,
  "xi fang ": 9761,
  "zhan jian ": 9762,
  "guan guang ": 9763,
  "xu lie ": 9764,
  "shui liang ": 9765,
  "tao lun": 9766,
  " gei": 9767,
  "   2000": 9768,
  "xian de di ": 9769,
  "mie jue ": 9770,
  " li ao ": 9771,
  "ming ming de ": 9772,
  "xuan gao ": 9773,
  "ma zu ": 9774,
  "na yang ": 9775,
  "chong sheng ": 9776,
  "E   ": 9777,
  " 1994": 9778,
  "le yue ": 9779,
  "mian you ": 9780,
  "xing neng ": 9781,
  "ge di de ": 9782,
  "ming ni ": 9783,
  "ying xiong": 9784,
  "xiao lv ": 9785,
  " shi de ren ": 9786,
  " jie dao ": 9787,
  "guo ji zu ": 9788,
  " tu": 9789,
  "   han ": 9790,
  "you   ": 9791,
  "bei zhong ": 9792,
  "duo da ": 9793,
  "shui shi ": 9794,
  "nv de ": 9795,
  "rong huo ": 9796,
  "28 nian ": 9797,
  "xi er ": 9798,
  "ke jian ": 9799,
  "zi cheng ": 9800,
  "hua ru ": 9801,
  "nan dao ": 9802,
  "zhen rong ": 9803,
  "gao su": 9804,
  "dang zuo ": 9805,
  "dang dai ": 9806,
  "dai biao tuan": 9807,
  " wei yu gai guo xi bu ": 9808,
  " 65": 9809,
  "   fen ": 9810,
  "ming zai ": 9811,
  "lan he ": 9812,
  "xian qian ": 9813,
  "shu xing ": 9814,
  "dian chang ": 9815,
  "gai jian ": 9816,
  "bo ge ": 9817,
  "kai ban ": 9818,
  " shi yi jia ": 9819,
  "ju min dian ": 9820,
  "zuo qu jia ": 9821,
  "bu de yi ge ": 9822,
  "xiu shi ": 9823,
  "xiu xian ": 9824,
  "1922 nian ": 9825,
  "ke yi shi ": 9826,
  "dui bi ": 9827,
  "qiu mi ": 9828,
  "suo xie ": 9829,
  " zi ji de ": 9830,
  " mu qin ": 9831,
  "mao ze dong ": 9832,
  " 1992": 9833,
  "   Le": 9834,
  "zai de guo ": 9835,
  "er shi de ": 9836,
  "gu si ": 9837,
  "wu ran": 9838,
  "wu da ": 9839,
  "qing gan ": 9840,
  "she ru ": 9841,
  "gao shan ": 9842,
  "fei te ": 9843,
  "liu qiu ": 9844,
  " jin biao ": 9845,
  "ai na sheng ": 9846,
  "ma yi ": 9847,
  "ma he ": 9848,
  "ment ": 9849,
  "1911 nian ": 9850,
  "xing zhuang ": 9851,
  "shen fen": 9852,
  "shan chu ": 9853,
  "pai fang ": 9854,
  "lun tan ": 9855,
  "ge yue de ": 9856,
  "shu yue ": 9857,
  "huo er ": 9858,
  "chong de ": 9859,
  "ruan tiao ": 9860,
  " wu qi ": 9861,
  "zu cheng bu fen ": 9862,
  " 1985 nian ": 9863,
  "dai er ": 9864,
  "ni fu ": 9865,
  "zong si ling ": 9866,
  "mou zhong ": 9867,
  "1923 nian ": 9868,
  "fu zhu xi ": 9869,
  "si tan": 9870,
  " bu shao ": 9871,
  "guan lian ": 9872,
  " yi ji zhong guo da lu de ": 9873,
  "gan qing ": 9874,
  "zhu yao you ": 9875,
  "   zhe ke ": 9876,
  " ou yuan ": 9877,
  "dong yu ": 9878,
  "liang qi ": 9879,
  "wang zai ": 9880,
  "shan he ": 9881,
  "de guo ": 9882,
  " yi di ": 9883,
  " wei ta ": 9884,
  "ge xiang ": 9885,
  " da jie ": 9886,
  "mei xiao shi ": 9887,
  "chuan shuo": 9888,
  " dan you ": 9889,
  " zui hou yi ": 9890,
  " qu dai ": 9891,
  "fei xing yuan ": 9892,
  "   lei ": 9893,
  "le zhong guo ": 9894,
  "guan di ": 9895,
  "du bu ": 9896,
  "zhang zhong ": 9897,
  "65 nian ": 9898,
  "gun ": 9899,
  "fu chu ": 9900,
  "jin sheng ": 9901,
  "jiao dian ": 9902,
  "liang zuo ": 9903,
  " dan shi zai ": 9904,
  "7 mi ": 9905,
  "   jiao yu ": 9906,
  "geng gai ": 9907,
  "xi zang ": 9908,
  "ge jie ": 9909,
  "ju liu ": 9910,
  "tong xiang ": 9911,
  "tong yong ": 9912,
  " fu zhu xi ": 9913,
  "gen ben ": 9914,
  "chu li qi ": 9915,
  "lu ying dai ": 9916,
  "   xiang gang": 9918,
  "zhi   ": 9919,
  "kai ji ": 9920,
  "or   ": 9921,
  "nuo de ": 9922,
  "kua ": 9923,
  "di an ": 9924,
  "hou xuan ": 9925,
  "bing bu shi ": 9926,
  " ta shuo ": 9927,
  " bing xiang ": 9928,
  "kai shi yu ": 9929,
  "geng duo": 9930,
  "zheng zhi jia ": 9931,
  " kong": 9933,
  " qiang": 9934,
  "zhong shi yong ": 9935,
  "ti qi ": 9936,
  "xiao wei ": 9937,
  "mu zhong ": 9938,
  " zai hai ": 9939,
  " he zi ": 9940,
  "da sha ": 9941,
  "fa biao de ": 9942,
  "chu jue ": 9943,
  "jiao xiao ": 9944,
  " ke fu ": 9945,
  "hai ba gao du ": 9946,
  "gu zhang ": 9947,
  " hei long jiang ": 9948,
  " U ": 9949,
  "shang zai ": 9950,
  "zhao ji ": 9951,
  " you yong ": 9952,
  " ren zheng ": 9953,
  "sheng dian ": 9954,
  "jin hua ": 9955,
  " xi shou ": 9956,
  "jiao da de ": 9957,
  "du shu ": 9958,
  " bing cheng wei ": 9959,
  "mei guo zong tong ": 9960,
  " hai ba ": 9961,
  " ba yue ": 9962,
  "fu zhi fu ": 9963,
  " 19 ": 9964,
  "xin guan fei yan que zhen bing li ": 9965,
  "   wai bu lian jie ": 9966,
  " о": 9967,
  "xiang li ": 9968,
  "ni yu ": 9969,
  "shui li ": 9970,
  "zhui qiu ": 9971,
  "qi yuan ": 9972,
  " he hua ": 9973,
  " xi fa ": 9974,
  "ying wu ": 9975,
  "ye cheng wei ": 9976,
  "yin jie ": 9977,
  " ta dui ": 9978,
  "bo duo ": 9979,
  "zui da": 9980,
  "ba ma ": 9981,
  "nei ya ": 9982,
  "cun min ": 9983,
  " xian zhi ": 9984,
  " ji zhong xue ": 9985,
  " meng gu ": 9986,
  "   zheng yi ": 9987,
  "qu yi yuan ": 9988,
  "bao you ": 9989,
  " zhong zu ": 9990,
  " da bai ": 9991,
  "qian dao ": 9992,
  " dan reng": 9993,
  " de shi qing ": 9994,
  "2 ming ": 9995,
  "a si ": 9996,
  " Jo": 9997,
  " zha ": 9998,
  "   chang ": 9999,
  "ba yi ": 10000,
  "yang yu ": 10001,
  "75 nian ": 10002,
  " bu ru ": 10003,
  "xian qu ": 10004,
  "guan kan ": 10005,
  " bao liu ": 10006,
  "1 mi ": 10007,
  " suo xie ": 10008,
  " ya zhou ": 10009,
  "gong zuo ren yuan ": 10010,
  " H ": 10011,
  " xian shi you nan ji tiao yue ti xi guan li ": 10012,
  "   Vi": 10013,
  "   deng ": 10014,
  "zuo zai ": 10015,
  "lai zhi ": 10016,
  "san qi ": 10017,
  "zong ji ": 10018,
  "cun chu ": 10019,
  "shuai jiao ": 10020,
  "xing bie ": 10021,
  "bei shang ": 10022,
  "xin tu ": 10023,
  "gou tong ": 10024,
  "gan lan qiu ": 10025,
  "an he ": 10026,
  "1970 nian ": 10027,
  "62 nian ": 10028,
  "fu lu ": 10029,
  "wen ding de ": 10030,
  "wan jian ": 10031,
  " dan qu ": 10032,
  "chen mo ": 10033,
  " 16 ": 10034,
  "jiao yi suo ": 10035,
  "   mo ": 10036,
  "zhong yi ge ": 10037,
  "shui wei ": 10038,
  "lu yin shi ": 10039,
  " xiang zheng ": 10040,
  " shi ji chu ": 10041,
  " zhe shi de ": 10042,
  " dai ma wei ": 10043,
  " 600": 10044,
  "jian li": 10045,
  "bi ji ": 10046,
  "guan nian ": 10047,
  "cha ji ": 10048,
  "man yi ": 10049,
  "shou cang ": 10050,
  "yan jiu shi ": 10051,
  "zhan chu ": 10052,
  "chang dao ": 10053,
  "zhen wang ": 10054,
  " shi yi ke wei ": 10055,
  " you zhi ": 10056,
  " Mo": 10057,
  "   fen bu ": 10058,
  "fei qi ": 10059,
  "1926 nian ": 10060,
  "shu ge ": 10061,
  " si ma ": 10062,
  "dai dao ": 10063,
  "shen mi ": 10064,
  "suo jian ": 10065,
  "ding dian ": 10066,
  " su cheng ": 10067,
  " hen": 10068,
  " 1997": 10069,
  "en si ": 10070,
  "nan yue ": 10071,
  "wang he ": 10072,
  "ni ji ": 10073,
  "17 nian ": 10074,
  "xiang nan ": 10075,
  "ming jiao ": 10076,
  "yan xian ": 10077,
  "ye su ": 10078,
  " xing xing ": 10079,
  "suo zai de ": 10080,
  " ju le bu ": 10081,
  "cai yong le ": 10082,
  " L ": 10083,
  " ming wei ": 10084,
  "zhan qi ": 10085,
  "dan ji ": 10086,
  "xu yi ": 10087,
  "1919 nian ": 10088,
  "fu zhuang ": 10089,
  " ke yun ": 10090,
  "lian jun ": 10091,
  "zui hao de ": 10092,
  " de shi yi ": 10093,
  " xian yi ": 10094,
  "tui chu le ": 10095,
  "ma lai xi ya": 10096,
  "rao tai yang gong ": 10097,
  "mei dong bu shi qu ": 10098,
  "zhan bu ": 10099,
  "dan you ": 10100,
  "bian fu ": 10101,
  "tian di ": 10102,
  "lan shi ": 10103,
  "geng da ": 10104,
  "us ": 10105,
  " shi xia xia de yi ge xiang zhen ji xing zheng dan wei ": 10106,
  " zhong ren ": 10107,
  "ge xing ": 10108,
  "ying chi ": 10109,
  "mi su li ": 10110,
  " ping lun ": 10111,
  " zan": 10112,
  " ISTAT": 10113,
  "cheng bu ": 10114,
  "ba ke ": 10115,
  "you tai ": 10116,
  " zai ke ": 10117,
  "sheng cun ": 10118,
  "jin jun ": 10119,
  "dong ce ": 10120,
  "ru xue ": 10121,
  "xie tiao ": 10122,
  " dan zui zhong ": 10123,
  " yi zhi dao ": 10124,
  "yi shi qi ": 10125,
  " de di di ": 10126,
  "sa la ": 10127,
  "xing zheng yuan ": 10128,
  " sui ji ": 10129,
  " jue": 10130,
  " 59": 10131,
  " EST ": 10132,
  "   f": 10133,
  "   2006 nian ": 10134,
  "bi he ": 10135,
  "qie de ": 10136,
  "30 fen ": 10137,
  "bei fa ": 10138,
  "chu xian": 10139,
  "min dang ": 10140,
  " de shi li ": 10141,
  " er ji ": 10142,
  " dui ci ": 10143,
  " rou": 10144,
  " EDT": 10145,
  "neng de ": 10146,
  "lin zhong ": 10147,
  " you si ": 10148,
  " you bei ": 10149,
  " guo hou ": 10150,
  "jie xi ": 10151,
  " di ba ": 10152,
  "xin feng ": 10153,
  "jiao gei": 10154,
  "mei guo zhi ": 10155,
  "shen she ": 10156,
  " xing qu ": 10157,
  "zhao kai": 10158,
  " xie zhu ": 10159,
  " wei yu fa guo ao": 10160,
  " kong zhi ": 10161,
  " 1990 nian ": 10162,
  "   Mi": 10163,
  "hu zhi ": 10164,
  "wen wei ": 10165,
  "ni di ": 10166,
  "na shi ": 10167,
  "huan bao ": 10168,
  "jian dan de ": 10169,
  "qu dao ": 10170,
  "hou lai de ": 10171,
  "qian fang ": 10172,
  "xia le ": 10173,
  "ling gan ": 10174,
  "zong ling shi ": 10175,
  "la duo ": 10176,
  " ming ming ": 10177,
  " shou fu ": 10178,
  "zhu jiao lian ": 10179,
  "guang bo gong si ": 10180,
  "jue dui xing deng wei ": 10181,
  "jue sai yi ": 10182,
  "li xi ": 10183,
  "ben shi ": 10184,
  "nei he ": 10185,
  "pian wei ": 10186,
  "24 nian ": 10187,
  "37 nian ": 10188,
  "a mi ": 10189,
  " yi zhi yu ": 10190,
  " 5 diao kuai yi xiao shi ": 10191,
  "bi li niu si ": 10192,
  " ji bei mei dong bu shi qu ": 10193,
  " shi yi ke wei rao tai yang gong ": 10194,
  " EDT ": 10195,
  " shi yi ke wei rao tai yang gong zhuan de xiao xing xing ": 10196,
  " 49": 10197,
  " 1984 nian ": 10198,
  "   ban ": 10199,
  "di li ya ": 10200,
  "ni he ": 10201,
  "shao shi ": 10202,
  "ve ": 10203,
  " ji gou": 10204,
  "yuan yin shi ": 10205,
  "guan ce": 10206,
  " ta wei ": 10207,
  "1 ming ": 10208,
  " yuan zi ": 10209,
  "sai er wei ya ": 10210,
  "xiao xing xing de jue dui xing deng wei ": 10211,
  "   13": 10212,
  "guang yi ": 10213,
  "pian ren ": 10214,
  "1914 nian ": 10215,
  "zen ": 10216,
  " fu zhou ": 10217,
  "tian xin ": 10218,
  "tiao mu ": 10219,
  "hen duo": 10220,
  " bo li ": 10221,
  "zhou yu ": 10222,
  "TV ": 10223,
  "qi ren ": 10224,
  "zi sheng ": 10225,
  "bing qie ": 10226,
  " de yi jia ": 10227,
  "jia ru zhong guo gong chan dang ": 10228,
  "   zhe ke xiao xing xing de jue dui xing deng wei ": 10229,
  " he": 10230,
  " 800": 10231,
  " qiao zhi ": 10232,
  "yin zai ": 10233,
  "pu er ": 10234,
  " guo you ": 10235,
  "bei bu de ": 10236,
  "du zhe ": 10237,
  "xuan min ": 10238,
  "yin di an na ": 10239,
  " sheng": 10240,
  " 2024 nian ": 10241,
  " 1988 nian ": 10242,
  "mo nian ": 10243,
  "ze er ": 10244,
  "cai ji ": 10245,
  "zhai wu ": 10246,
  "ju luo ": 10247,
  "guan shang ": 10248,
  "ru le ": 10249,
  "tian xian ": 10250,
  "mei you ren he ": 10251,
  "er shi nian ": 10252,
  " ji zhong zai ": 10253,
  " G ": 10254,
  " 1989 nian ": 10255,
  "   hui ": 10256,
  "   mi ": 10257,
  "sen bao ": 10258,
  " zhi hou zai ": 10259,
  "xi shou ": 10260,
  " yue se fu ": 10261,
  "tai bei": 10262,
  "wan qu ": 10263,
  "shui shang ": 10264,
  "dou ke yi ": 10265,
  "diao su ": 10266,
  " yi wei zhe ": 10267,
  " jun": 10268,
  " Ca": 10269,
  " qiu dui ": 10270,
  "   ha": 10271,
  "ci ren ": 10272,
  "xiao he ": 10273,
  "1913 nian ": 10274,
  " yi ji yi ": 10275,
  " you wu ": 10276,
  "xi jie ": 10277,
  "jian zheng ": 10278,
  "jian hua ": 10279,
  "yan zou ": 10280,
  "ci tian ti ": 10281,
  "di yi jie ": 10282,
  "shou qi ": 10283,
  "fan di ": 10284,
  "zao yi ": 10285,
  "zhuan ren ": 10286,
  "lun ji ": 10287,
  "sou suo ": 10288,
  "1950 nian ": 10289,
  "1918 nian ": 10290,
  "xi yuan ": 10291,
  "ge sheng ": 10292,
  "dian zhan ": 10293,
  "yong yuan ": 10294,
  " shi yi yuan ": 10295,
  "gang tie": 10296,
  "zhu jiao zuo ": 10297,
  "shou shi lv ": 10298,
  " he dao quan zhang ": 10299,
  " juan ": 10300,
  "   14": 10301,
  "qi shi shi ": 10302,
  " di dai ": 10303,
  "shang ying de ": 10304,
  "du xing ": 10305,
  "zu qun ": 10306,
  "zhen zheng de ": 10307,
  " nan jing ": 10308,
  "jun shi tan ding ": 10309,
  "ke li mi ya ": 10310,
  "   gai shu ": 10311,
  " zhi hui guan ": 10312,
  " 1991 nian ": 10313,
  "fang you ": 10314,
  "feng zhi ": 10315,
  "chuang shi ": 10316,
  " yi min ": 10317,
  "fu shu ji ": 10318,
  "qu fu ze guan xia ": 10319,
  "te ding de ": 10320,
  "lan ka ": 10321,
  " jiang shu ": 10322,
  " bie": 10323,
  "en de ": 10324,
  "   gu": 10325,
  "ling xing ": 10326,
  "lie jian ": 10327,
  " li jie ": 10328,
  "xi jin ": 10329,
  "wu ran ": 10330,
  "xue yuan": 10331,
  "qian ming ": 10332,
  "xia tian ": 10333,
  "kong jun": 10334,
  "si chuan sheng ": 10335,
  " lie che ": 10336,
  "cha he ": 10337,
  "chan yu ": 10338,
  "chen ke ": 10339,
  "xin cheng ": 10340,
  "jiu ba ": 10341,
  "na ge ": 10342,
  " chu sheng ": 10343,
  "geng gao ": 10344,
  "ou meng ": 10345,
  "yong yu zhi ": 10346,
  "wen hua yi chan ": 10347,
  " he nan sheng ": 10348,
  "an hui sheng ": 10349,
  " cang ": 10350,
  "mo he ": 10351,
  "ze er sheng ": 10352,
  "pai ren ": 10353,
  " you le ": 10354,
  " zai ying guo ": 10355,
  "shang ban ": 10356,
  "ying chao ": 10357,
  "dan bai zhi ": 10358,
  "ling xiu": 10359,
  "fan mang": 10360,
  " de yi yi ": 10361,
  " zhu zhang ": 10362,
  " jie shi ": 10363,
  " gui zhou ": 10364,
  "zuo pin zhong ": 10365,
  "zhuan yi dao ": 10366,
  " Se": 10367,
  "   La": 10368,
  "hu he ": 10369,
  "xiao ji ": 10370,
  "pai wei ": 10371,
  "gou jian ": 10372,
  "kuang wu ": 10373,
  "2019 guan zhuang bing du ": 10374,
  "38 nian ": 10375,
  " shi bi ": 10376,
  "hua xian ": 10377,
  "gai bian": 10378,
  "wang ye ": 10379,
  "dai zhu ": 10380,
  "zong e wei ": 10381,
  "nv shen ": 10382,
  "hen shao ": 10383,
  " bin": 10384,
  "mi li ": 10385,
  "1901 nian ": 10386,
  " zhi zhan ": 10387,
  " bu dan ": 10388,
  "shan kou ": 10389,
  "pai qiu ": 10390,
  " ju ban ": 10391,
  "gong gong jiao tong ": 10392,
  " fan er ": 10393,
  "lian xu ju ": 10394,
  " p": 10395,
  "   huang ": 10396,
  "23 nian ": 10397,
  " wei bo ": 10398,
  "bei hai dao ": 10399,
  "jing fei ": 10400,
  "fen hui ": 10401,
  "xiao dao ": 10402,
  " ke da ": 10403,
  " shou xian ": 10404,
  "di shi san ": 10405,
  "   zhong hua ren min gong he guo ": 10406,
  "e luo si": 10407,
  " zi": 10408,
  "li jie ": 10409,
  "   de": 10410,
  "   zhe ge ": 10411,
  "cheng li": 10412,
  "bi qi ": 10413,
  "xuan ji ": 10414,
  " li wu ": 10415,
  "xiang yao ": 10416,
  "zheng fa ": 10417,
  "dan sheng ": 10418,
  "dai shu ": 10419,
  "liang du ": 10420,
  "hu nan sheng ": 10421,
  "ao di": 10422,
  "zhuang yuan ": 10423,
  " ban ben ": 10424,
[...]
