{
  "!": 0,
  "\"": 1,
  "#": 2,
  "$": 3,
  "%": 4,
  "&": 5,
  "'": 6,
  "(": 7,
  ")": 8,
  "*": 9,
  "+": 10,
  ",": 11,
  "-": 12,
  ".": 13,
  "/": 14,
  "0": 15,
  "1": 16,
  "2": 17,
  "3": 18,
  "4": 19,
  "5": 20,
  "6": 21,
  "7": 22,
  "8": 23,
  "9": 24,
  ":": 25,
  ";": 26,
  "=": 27,
  "?": 28,
  "@": 29,
  "A": 30,
  "B": 31,
  "C": 32,
  "D": 33,
  "E": 34,
  "F": 35,
  "G": 36,
  "H": 37,
  "I": 38,
  "J": 39,
  "K": 40,
  "L": 41,
  "M": 42,
  "N": 43,
  "O": 44,
  "P": 45,
  "Q": 46,
  "R": 47,
  "S": 48,
  "T": 49,
  "U": 50,
  "V": 51,
  "W": 52,
  "X": 53,
  "Y": 54,
  "Z": 55,
  "[": 56,
  "\\": 57,
  "]": 58,
  "^": 59,
  "_": 60,
  "`": 61,
  "a": 62,
  "b": 63,
  "c": 64,
  "d": 65,
  "e": 66,
  "f": 67,
  "g": 68,
  "h": 69,
  "i": 70,
  "j": 71,
  "k": 72,
  "l": 73,
  "m": 74,
  "n": 75,
  "o": 76,
  "p": 77,
  "q": 78,
  "r": 79,
  "s": 80,
  "t": 81,
  "u": 82,
  "v": 83,
  "w": 84,
  "x": 85,
  "y": 86,
  "z": 87,
  "|": 88,
  "~": 89,
  "\n": 162,
  " ": 163,
  "": 164,
  "�": 193,
  "ng": 199,
  "an": 200,
  "sh": 201,
  "zh": 202,
  "ji": 203,
  "ang": 204,
  "  ": 205,
  "ong": 206,
  "xi": 207,
  "ao": 208,
  "ai": 209,
  "de": 210,
  "ei": 211,
  "shi": 212,
  "yu": 213,
  "ou": 214,
  "yi": 215,
  "en": 216,
  "ch": 217,
  "ian": 218,
  "uo": 219,
  "eng": 220,
  "li": 221,
  "   ": 222,
  "ing": 224,
  "ui": 225,
  "wei": 226,
  "uan": 227,
  "zhi": 228,
  "qi": 229,
  "nian": 230,
  "zhong": 231,
  "you": 232,
  "ren": 233,
  "un": 234,
  "zai": 235,
  "di": 236,
  "guo": 237,
  "、": 238,
  "he": 239,
  "bu": 240,
  "er": 241,
  "gong": 242,
  "xing": 243,
  "cheng": 244,
  "da": 245,
  "zhu": 246,
  "hu": 247,
  "yuan": 248,
  "si": 249,
  "jian": 250,
  "yue": 251,
  "ge": 252,
  "fu": 253,
  "xian": 254,
  "ue": 255,
  "ke": 256,
  "wu": 257,
  "chu": 258,
  "shu": 259,
  "sheng": 260,
  "jie": 261,
  "jia": 262,
  "bi": 263,
  "dao": 264,
  "zi": 265,
  "bei": 266,
  "hui": 267,
  "fa": 268,
  "xiang": 269,
  "ti": 270,
  "zheng": 271,
  "mi": 272,
  "ta": 273,
  "jin": 274,
  "qu": 275,
  "20": 276,
  "tong": 277,
  "ri": 278,
  "ju": 279,
  "jing": 280,
  "ming": 281,
  "le": 282,
  "hou": 283,
  "shang": 284,
  "shou": 285,
  "dong": 286,
  "ci": 287,
  "fang": 288,
  "19": 289,
  "hua": 290,
  "yin": 291,
  "xue": 292,
  "guan": 293,
  "zhan": 294,
  "ye": 295,
  "ying": 296,
  "zuo": 297,
  "zhe": 298,
  "yan": 299,
  "mei": 300,
  "jiao": 301,
  "gu": 302,
  "chang": 303,
  "xin": 304,
  "dui": 305,
  "lu": 306,
  "bing": 307,
  "bao": 308,
  "fen": 309,
  "dan": 310,
  "huo": 311,
  "jun": 312,
  "jiang": 313,
  "du": 314,
  "xiao": 315,
  "dian": 316,
  "yong": 317,
  "qian": 318,
  "she": 319,
  "tai": 320,
  "xia": 321,
  "mu": 322,
  "wen": 323,
  "gai": 324,
  "zhang": 325,
  "liang": 326,
  "ya": 327,
  "ru": 328,
  "dai": 329,
  "hai": 330,
  "nan": 331,
  "zhou": 332,
  "zu": 333,
  "wang": 334,
  "lai": 335,
  "ban": 336,
  "jiu": 337,
  "dang": 338,
  "qing": 339,
  "ping": 340,
  "shen": 341,
  "》": 342,
  "《": 343,
  "wan": 344,
  "lian": 345,
  "ling": 346,
  "luo": 347,
  "·": 348,
  "min": 349,
  "quan": 350,
  "pi": 351,
  "ni": 352,
  "bo": 353,
  "duo": 354,
  "te": 355,
  "ben": 356,
  "gao": 357,
  "biao": 358,
  "suo": 359,
  "la": 360,
  "ma": 361,
  "kai": 362,
  "ba": 363,
  "xie": 364,
  "xu": 365,
  "bian": 366,
  "deng": 367,
  "yao": 368,
  "yang": 369,
  "mian": 370,
  "zhen": 371,
  "ding": 372,
  "qiu": 373,
  "zui": 374,
  "sai": 375,
  "liu": 376,
  "fan": 377,
  "xuan": 378,
  "fei": 379,
  "san": 380,
  "shan": 381,
  "che": 382,
  "zong": 383,
  "men": 384,
  "「": 385,
  "」": 386,
  "tu": 387,
  "tian": 388,
  "hao": 389,
  "su": 390,
  "lei": 391,
  "nei": 392,
  "yun": 393,
  "201": 394,
  "lan": 395,
  "feng": 396,
  "mo": 397,
  "na": 398,
  "ze": 399,
  "lv": 400,
  "han": 401,
  "kou": 402,
  "wai": 403,
  "neng": 404,
  "lin": 405,
  "chuan": 406,
  "chi": 407,
  "jue": 408,
  "bai": 409,
  "pai": 410,
  "200": 411,
  "ku": 412,
  "cai": 413,
  "zao": 414,
  "ting": 415,
  "zhuan": 416,
  "gang": 417,
  "lie": 418,
  "guang": 419,
  "gui": 420,
  "lun": 421,
  "sui": 422,
  "pu": 423,
  "ceng": 424,
  "kong": 425,
  "shui": 426,
  "10": 427,
  "chao": 428,
  "zhuang": 429,
  "cha": 430,
  "dou": 431,
  "can": 432,
  "tou": 433,
  "ran": 434,
  "se": 435,
  "duan": 436,
  "cun": 437,
  "huan": 438,
  "cong": 439,
  "pin": 440,
  "ce": 441,
  "chan": 442,
  "xun": 443,
  "gou": 444,
  "00": 445,
  "nv": 446,
  "zhao": 447,
  "gan": 448,
  "chong": 449,
  "sha": 450,
  "tan": 451,
  "18": 452,
  "qin": 453,
  "ka": 454,
  "meng": 455,
  "qiang": 456,
  "huang": 457,
  "xiu": 458,
  "12": 459,
  "tiao": 460,
  "man": 461,
  "shao": 462,
  "kuo": 463,
  "long": 464,
  "pian": 465,
  "shuo": 466,
  "tuan": 467,
  "tang": 468,
  "rong": 469,
  "geng": 470,
  "202": 471,
  "chen": 472,
  "tui": 473,
  "gen": 474,
  "que": 475,
  "tie": 476,
  "11": 477,
  "qie": 478,
  "wo": 479,
  "po": 480,
  "pei": 481,
  "hang": 482,
  "hong": 483,
  "199": 484,
  "bang": 485,
  "liao": 486,
  "chuang": 487,
  "bie": 488,
  "re": 489,
  "tuo": 490,
  "tao": 491,
  "song": 492,
  "wa": 493,
  "mai": 494,
  "ha": 495,
  "15": 496,
  "pan": 497,
  "dun": 498,
  "diao": 499,
  "qiao": 500,
  "sa": 501,
  "mao": 502,
  "lang": 503,
  "kan": 504,
  "kang": 505,
  "or": 507,
  "lao": 508,
  "zeng": 509,
  "16": 510,
  "198": 511,
  "kao": 512,
  "xiong": 513,
  "17": 514,
  "on": 515,
  "nuo": 516,
  "miao": 517,
  "rang": 518,
  "kuang": 519,
  "hen": 520,
  "suan": 521,
  "14": 522,
  "30": 523,
  "zhun": 524,
  "13": 525,
  "194": 526,
  "cao": 527,
  "hun": 528,
  "qun": 529,
  "nong": 530,
  "197": 531,
  "heng": 532,
  "shuang": 533,
  "lou": 534,
  "gei": 535,
  "kuai": 536,
  "piao": 537,
  "zha": 538,
  "hei": 539,
  "niu": 540,
  "195": 541,
  "sen": 542,
  "bin": 543,
  "reng": 544,
  "zou": 545,
  "196": 546,
  "chun": 547,
  "kuan": 548,
  "25": 549,
  "—": 550,
  "rui": 551,
  "sun": 552,
  "pao": 553,
  "ning": 554,
  "for": 555,
  "pa": 556,
  "cang": 557,
  "mou": 558,
  "24": 559,
  "peng": 560,
  "huai": 561,
  "21": 562,
  "193": 563,
  "23": 564,
  "mula": 565,
  "formula": 566,
  "28": 567,
  "zan": 568,
  "ruo": 569,
  "in": 570,
  "22": 571,
  "chou": 572,
  "zhui": 573,
  "ar": 574,
  "me": 575,
  "26": 576,
  "50": 577,
  "2020": 578,
  "27": 579,
  "nai": 580,
  "nu": 581,
  "29": 583,
  "shun": 584,
  "2010": 585,
  "za": 586,
  "000": 587,
  "lve": 588,
  "zhai": 589,
  "2019": 590,
  "ne": 591,
  "ro": 592,
  "juan": 593,
  "st": 594,
  "ra": 595,
  "cui": 596,
  "kun": 597,
  "2016": 598,
  "luan": 599,
  "2018": 600,
  "cuo": 601,
  "2021": 602,
  "zang": 603,
  "2014": 604,
  "shuai": 605,
  "2011": 606,
  "2015": 607,
  "2017": 608,
  "2012": 609,
  "40": 610,
  "2013": 611,
  "nao": 612,
  "2022": 613,
  "die": 614,
  "ruan": 615,
  "kui": 616,
  "lt": 617,
  "rou": 618,
  "cu": 619,
  "sang": 620,
  "2009": 621,
  "2008": 622,
  "60": 624,
  "niao": 625,
  "al": 626,
  "rao": 627,
  "chai": 628,
  "100": 629,
  "zhuo": 630,
  "2023": 631,
  "gt": 632,
  "sou": 633,
  "190": 634,
  "31": 635,
  "ken": 636,
  "2007": 637,
  "2001": 638,
  "teng": 639,
  "pang": 640,
  "fou": 641,
  "co": 642,
  "fo": 643,
  "gua": 644,
  "2000": 645,
  "80": 646,
  "2006": 647,
  "2024": 648,
  "2005": 650,
  "zun": 651,
  "tion": 652,
  "kua": 653,
  "the": 654,
  "35": 655,
  "70": 656,
  "nie": 657,
  "lo": 658,
  "of": 659,
  "90": 660,
  "leng": 661,
  "－": 662,
  "am": 664,
  "tun": 665,
  "ter": 666,
  "mie": 667,
  "2004": 668,
  "th": 669,
  "to": 670,
  "45": 671,
  "48": 672,
  "mang": 673,
  "2025": 674,
  "ve": 675,
  "ga": 676,
  "〉": 677,
  "〈": 678,
  "36": 679,
  "38": 680,
  "2003": 681,
  "37": 682,
  "Ma": 683,
  "chui": 684,
  "pen": 685,
  "ll": 686,
  "189": 687,
  "IN": 688,
  "2002": 689,
  "keng": 690,
  "TC": 691,
  "do": 692,
  "34": 693,
  "75": 694,
  "–": 695,
  "Co": 696,
  "46": 697,
  "ca": 698,
  "1990": 699,
  "…": 700,
  "ck": 701,
  "39": 702,
  "..": 703,
  "be": 704,
  "65": 705,
  "32": 706,
  "ST": 707,
  "47": 708,
  "UTC": 709,
  "1999": 710,
  "1998": 711,
  "1980": 712,
  "188": 713,
  "500": 714,
  "33": 715,
  "In": 716,
  "64": 717,
  "ss": 718,
  "The": 719,
  "vi": 720,
  "SE": 721,
  "55": 722,
  "1997": 723,
  "Re": 724,
  "hi": 725,
  "49": 726,
  "II": 727,
  "el": 728,
  "68": 729,
  "et": 730,
  "44": 731,
  "1996": 732,
  "oo": 733,
  "qiong": 734,
  "1994": 735,
  "gun": 736,
  "br": 737,
  "guai": 738,
  "1992": 739,
  "1995": 740,
  "Mi": 741,
  "67": 742,
  "and": 743,
  "sao": 744,
  "es": 745,
  "1991": 746,
  "1970": 747,
  "58": 748,
  "1950": 749,
  "300": 750,
  "1993": 751,
  "187": 752,
  "1949": 753,
  "at": 754,
  "AT": 755,
  "pe": 756,
  "1960": 757,
  "42": 758,
  "1945": 759,
  "Li": 760,
  "ver": 761,
  "qia": 762,
  "1988": 763,
  "ty": 764,
  "1989": 765,
  "69": 766,
  "Ro": 767,
  "is": 768,
  "run": 769,
  "SEE": 770,
  "niang": 771,
  "INSEE": 772,
  "ho": 773,
  "59": 774,
  "43": 775,
  "66": 776,
  "57": 777,
  "1985": 778,
  "99": 779,
  "SA": 780,
  "『": 781,
  "』": 782,
  "ct": 783,
  "1984": 784,
  "41": 785,
  "88": 786,
  "1986": 787,
  "wi": 788,
  "ol": 789,
  "ws": 790,
  "TV": 791,
  "ry": 792,
  "150": 793,
  "Me": 794,
  "nd": 795,
  "400": 796,
  "1987": 797,
  "78": 798,
  "1982": 799,
  "56": 800,
  "beng": 801,
  "Vi": 802,
  "Pa": 803,
  "ts": 804,
  "1983": 805,
  "amp": 806,
  "NA": 807,
  "De": 808,
  "CD": 809,
  "gh": 810,
  "fi": 811,
  "weng": 812,
  "ber": 813,
  "77": 814,
  "Win": 815,
  "per": 816,
  "zuan": 817,
  "Sta": 818,
  "79": 819,
  "OS": 820,
  "Wi": 821,
  "°": 822,
  "der": 824,
  "180": 825,
  "BC": 826,
  "54": 827,
  "1979": 828,
  "61": 829,
  "1920": 830,
  "as": 831,
  "Mo": 832,
  "seng": 833,
  "98": 834,
  "52": 835,
  "You": 836,
  "1978": 837,
  "no": 838,
  "62": 839,
  "53": 840,
  "ly": 841,
  "shua": 842,
  "La": 843,
  "～": 844,
  "BA": 845,
  "1946": 846,
  "CO": 847,
  "51": 848,
  "1958": 849,
  "gi": 850,
  "Jo": 851,
  "1981": 852,
  "1972": 853,
  "1948": 854,
  "Le": 855,
  "tw": 856,
  "AM": 857,
  "63": 858,
  "AR": 859,
  "ction": 860,
  "1941": 861,
  "BS": 862,
  "Ga": 863,
  "1930": 864,
  "Da": 865,
  "Pro": 866,
  "Te": 867,
  "76": 868,
  "hans": 869,
  "1940": 870,
  "1937": 871,
  "1976": 872,
  "1944": 873,
  "Ja": 874,
  "89": 875,
  "us": 876,
  "Di": 877,
  "Windo": 878,
  "1975": 879,
  "／": 880,
  "1968": 881,
  "hk": 882,
  "con": 883,
  "Fi": 884,
  "um": 885,
  "Si": 886,
  "1000": 887,
  "Windows": 888,
  "95": 889,
  "87": 890,
  "nal": 891,
  "Mar": 892,
  "1966": 893,
  "rd": 894,
  "85": 895,
  "Ne": 896,
  "Ra": 897,
  "ki": 898,
  "600": 899,
  "120": 900,
  "1947": 901,
  "Se": 902,
  "AC": 903,
  "1956": 904,
  "1964": 905,
  "Be": 906,
  "1942": 907,
  "é": 908,
  "1955": 909,
  "1952": 910,
  "IS": 911,
  "ad": 912,
  "1939": 913,
  "1938": 914,
  "72": 915,
  "ur": 916,
  "74": 917,
  "Ca": 918,
  "va": 919,
  "1973": 920,
  "1974": 921,
  "1954": 922,
  "Ar": 923,
  "Al": 924,
  "ED": 925,
  "1900": 926,
  "--": 927,
  "AP": 928,
  "1943": 929,
  "To": 930,
  "1977": 931,
  "ld": 932,
  "1971": 933,
  "cen": 934,
  "lay": 935,
  "1967": 936,
  "Ba": 937,
  "IC": 938,
  "800": 939,
  "Po": 940,
  "Lo": 941,
  "ER": 942,
  "zhua": 943,
  "sta": 944,
  "86": 945,
  "1959": 946,
  "Bo": 947,
  "tt": 948,
  "1965": 949,
  "JR": 950,
  "1969": 951,
  "Fa": 952,
  "・": 953,
  "×": 954,
  "ID": 955,
  "Bi": 956,
  "son": 957,
  "1936": 958,
  "160": 959,
  "97": 960,
  "1953": 961,
  "Sa": 962,
  "MA": 963,
  "1962": 964,
  "1961": 965,
  "nen": 966,
  "Na": 967,
  "So": 969,
  "1935": 970,
  "com": 971,
  "Ho": 972,
  "tic": 973,
  "96": 974,
  "ON": 975,
  "％": 976,
  "1951": 977,
  "St": 978,
  "1957": 979,
  "1963": 980,
  "Tu": 981,
  "─": 982,
  "fe": 983,
  "so": 984,
  "ment": 985,
  "84": 986,
  "Hi": 987,
  "2026": 988,
  "82": 989,
  "Do": 990,
  "mer": 991,
  "Ri": 992,
  "73": 993,
  "nt": 994,
  "94": 995,
  "92": 996,
  "Ki": 997,
  "Ha": 998,
  "nang": 999,
  "one": 1000,
  "IP": 1001,
  "AN": 1002,
  "ls": 1003,
  "1933": 1004,
  "1931": 1005,
  "les": 1006,
  "71": 1007,
  "nuan": 1008,
  "Com": 1009,
  "83": 1010,
  "93": 1011,
  "ted": 1012,
  "Su": 1013,
  "81": 1014,
  "Ti": 1015,
  "Mu": 1016,
  "1918": 1017,
  "Ni": 1018,
  "HD": 1019,
  "Uni": 1020,
  "1928": 1021,
  "pp": 1022,
  "1932": 1023,
  "Cha": 1024,
  "We": 1025,
  "ys": 1026,
  "MV": 1027,
  "SS": 1028,
  "110": 1029,
  "IT": 1030,
  "1912": 1031,
  "No": 1032,
  "1929": 1033,
  "1927": 1034,
  "1934": 1035,
  "cn": 1036,
  "700": 1037,
  "go": 1038,
  "zei": 1039,
  "ght": 1040,
  "ster": 1041,
  "250": 1042,
  "91": 1043,
  "rt": 1044,
  "lli": 1045,
  "1924": 1046,
  "ris": 1047,
  "...": 1048,
  "1919": 1049,
  "nve": 1050,
  "130": 1051,
  "Pi": 1052,
  "1925": 1053,
  "Gi": 1054,
  "PS": 1055,
  "by": 1056,
  "ed": 1057,
  "mes": 1058,
  "An": 1059,
  "PC": 1060,
  "140": 1061,
  "AS": 1062,
  "Play": 1063,
  "1914": 1064,
  "km": 1065,
  "DV": 1066,
  "tio": 1067,
  "YouTu": 1068,
  "SM": 1069,
  "ble": 1070,
  "gra": 1071,
  "ko": 1072,
  "1911": 1073,
  "Con": 1074,
  "Ch": 1075,
  "lla": 1076,
  "1926": 1077,
  "lle": 1078,
  "Ge": 1079,
  "Par": 1080,
  "id": 1081,
  "Ta": 1082,
  "1922": 1083,
  "Lin": 1084,
  "mp": 1085,
  "1917": 1086,
  "He": 1087,
  "Ka": 1088,
  "ET": 1089,
  "NBA": 1090,
  "wn": 1091,
  "IV": 1092,
  "EN": 1093,
  "1923": 1094,
  "1921": 1095,
  "shai": 1096,
  "Goo": 1097,
  "chuo": 1098,
  "170": 1099,
  "EC": 1101,
  "MS": 1102,
  "ali": 1103,
  "AL": 1104,
  "ph": 1105,
  "section": 1106,
  "YouTube": 1107,
  "EP": 1108,
  "BL": 1109,
  "1913": 1110,
  "Car": 1111,
  "Bu": 1112,
  "zen": 1113,
  "HK": 1114,
  "we": 1115,
  "hn": 1116,
  "mm": 1117,
  "ven": 1118,
  "hant": 1119,
  "1909": 1121,
  "sion": 1122,
  "Inter": 1123,
  "cro": 1124,
  "MP": 1125,
  "AI": 1126,
  "Wor": 1127,
  "Pe": 1128,
  "ds": 1129,
  "US": 1130,
  "pro": 1131,
  "DVD": 1132,
  "ok": 1133,
  "3000": 1134,
  "En": 1135,
  "1910": 1136,
  "DS": 1137,
  "RO": 1138,
  "cou": 1139,
  "Ste": 1140,
  "sis": 1141,
  "112": 1142,
  "Go": 1143,
  "rk": 1144,
  "AK": 1145,
  "RE": 1146,
  "1916": 1147,
  "Wa": 1148,
  "lia": 1149,
  "ー": 1150,
  "Station": 1151,
  "For": 1152,
  "Net": 1153,
  "ff": 1154,
  "α": 1155,
  "oft": 1156,
  "ine": 1157,
  "den": 1158,
  "lor": 1159,
  "rea": 1160,
  "tional": 1161,
  "gn": 1162,
  "ture": 1163,
  "gle": 1164,
  "CP": 1165,
  "UN": 1166,
  "ard": 1168,
  "1915": 1169,
  "gin": 1170,
  "1905": 1171,
  "ps": 1172,
  "FC": 1173,
  "cal": 1174,
  "vo": 1175,
  "dia": 1176,
  "My": 1177,
  "CN": 1178,
  "→": 1180,
  "our": 1181,
  "ers": 1182,
  "1901": 1183,
  "ent": 1184,
  "Au": 1185,
  "DNA": 1186,
  "Ex": 1187,
  "‧": 1188,
  "900": 1189,
  "end": 1190,
  "HR": 1191,
  "dice": 1192,
  ".&": 1193,
  "ther": 1194,
  "tal": 1195,
  "CH": 1196,
  "TA": 1197,
  "TO": 1198,
  "1906": 1199,
  "1904": 1200,
  "AV": 1201,
  "tes": 1202,
  "MO": 1203,
  "jiong": 1204,
  "John": 1205,
  "my": 1206,
  "eri": 1207,
  "codice": 1208,
  "Man": 1209,
  "℃": 1210,
  "dy": 1211,
  "PlayStation": 1212,
  "Chi": 1213,
  "05": 1214,
  "CC": 1215,
  "tive": 1216,
  "diu": 1217,
  "And": 1218,
  "1907": 1219,
  "dio": 1220,
  "1908": 1221,
  "Google": 1222,
  "AG": 1223,
  "Ci": 1224,
  "EST": 1225,
  "MI": 1226,
  "SO": 1227,
  "LE": 1228,
  "sic": 1229,
  "ree": 1230,
  "BO": 1231,
  "int": 1232,
  "wit": 1233,
  "BBC": 1234,
  "Sch": 1235,
  "AD": 1236,
  "IG": 1237,
  "land": 1238,
  "III": 1239,
  "cri": 1240,
  "ton": 1241,
  "1500": 1242,
  "5000": 1243,
  "cy": 1244,
  "round": 1245,
  "wer": 1246,
  "IST": 1247,
  "ms": 1248,
  "ron": 1249,
  "ME": 1250,
  "CR": 1251,
  "ul": 1252,
  "3D": 1253,
  "je": 1254,
  "IA": 1255,
  "ley": 1256,
  "105": 1257,
  "au": 1258,
  "а": 1259,
  "ria": 1260,
  "101": 1261,
  "1903": 1262,
  "tor": 1263,
  "GB": 1264,
  "van": 1265,
  "09": 1266,
  "TE": 1267,
  "Lu": 1268,
  "1902": 1269,
  "BD": 1270,
  "NC": 1271,
  "Pri": 1272,
  "Fe": 1273,
  "xt": 1274,
  "350": 1275,
  "pou": 1276,
  "á": 1277,
  "SAO": 1278,
  "des": 1279,
  "DC": 1280,
  "ja": 1281,
  "β": 1282,
  "cke": 1283,
  "B1900": 1284,
  "book": 1285,
  "hat": 1286,
  "ES": 1287,
  "all": 1288,
  "BM": 1289,
  "．": 1290,
  "ン": 1291,
  "Ru": 1292,
  "ner": 1293,
  "1898": 1294,
  "res": 1295,
  "06": 1296,
  "118": 1297,
  "op": 1298,
  "の": 1299,
  "360": 1300,
  "DR": 1301,
  "New": 1302,
  "01": 1303,
  "DA": 1304,
  "Hu": 1305,
  "Open": 1306,
  "1895": 1307,
  "ger": 1308,
  "125": 1309,
  "Sho": 1310,
  "HO": 1311,
  "MC": 1312,
  "San": 1313,
  "ATP": 1314,
  "Micro": 1315,
  "ctor": 1316,
  "о": 1317,
  "108": 1318,
  "ft": 1319,
  "cor": 1320,
  "os": 1321,
  "NG": 1322,
  "Ke": 1323,
  "clu": 1324,
  "gy": 1325,
  "gram": 1326,
  "pri": 1327,
  "ward": 1328,
  "sty": 1329,
  "IF": 1330,
  "Cu": 1331,
  "Fran": 1332,
  "One": 1333,
  "net": 1334,
  "soft": 1335,
  "ker": 1336,
  "pt": 1337,
  "−": 1338,
  "07": 1339,
  "08": 1340,
  "230": 1341,
  "Face": 1342,
  "104": 1343,
  "pace": 1344,
  "lspan": 1345,
  "Cor": 1346,
  "Per": 1347,
  "Bar": 1348,
  "World": 1349,
  "App": 1350,
  "EDT": 1351,
  "ISTAT": 1352,
  "cuan": 1353,
  "Love": 1354,
  "Ko": 1355,
  "Har": 1357,
  "NO": 1358,
  "Stu": 1359,
  "1896": 1360,
  "LL": 1361,
  "ux": 1362,
  "109": 1363,
  "DP": 1364,
  "las": 1365,
  "AA": 1366,
  "fli": 1367,
  "RI": 1368,
  "Ju": 1369,
  "pha": 1370,
  "Ser": 1371,
  "lus": 1372,
  "line": 1373,
  "RT": 1374,
  "tri": 1375,
  "SP": 1376,
  "EX": 1377,
  "B48": 1378,
  "106": 1379,
  "1890": 1380,
  "rai": 1381,
  "sti": 1382,
  "mon": 1383,
  "CST": 1384,
  "ML": 1385,
  "od": 1386,
  "uni": 1387,
  "CDT": 1388,
  "bert": 1389,
  "Je": 1390,
  "rs": 1391,
  "rus": 1392,
  "red": 1393,
  "DO": 1394,
  "Pu": 1395,
  "ky": 1396,
  "HE": 1397,
  "Cou": 1398,
  "ation": 1399,
  "Mon": 1400,
  "04": 1401,
  "4000": 1402,
  "115": 1403,
  "1200": 1404,
  "M1": 1405,
  "Pre": 1406,
  "03": 1407,
  "ler": 1408,
  "GP": 1409,
  "del": 1410,
  "CE": 1411,
  "ā": 1412,
  "Live": 1413,
  "begin": 1414,
  "1889": 1415,
  "ool": 1416,
  "Davi": 1417,
  "with": 1418,
  "ara": 1419,
  "1899": 1420,
  "colspan": 1421,
  "tain": 1422,
  "back": 1423,
  "1871": 1424,
  "RS": 1425,
  "sto": 1426,
  "Facebook": 1427,
  "Ed": 1428,
  "Sha": 1429,
  "Microsoft": 1430,
  "mic": 1431,
  "tem": 1432,
  "​": 1433,
  "240": 1434,
  "1600": 1435,
  "LO": 1436,
  "Tri": 1437,
  "ten": 1438,
  "tin": 1439,
  "BE": 1440,
  "low": 1441,
  "102": 1442,
  "box": 1443,
  "clude": 1444,
  "Ad": 1445,
  "TT": 1446,
  "1897": 1447,
  "Sou": 1448,
  "ser": 1449,
  "NH": 1450,
  "EE": 1451,
  "Du": 1452,
  "ces": 1453,
  "PP": 1454,
  "117": 1455,
  "SC": 1456,
  "val": 1457,
  "02": 1458,
  "por": 1459,
  "cm": 1460,
  "Mac": 1461,
  "style": 1462,
  "Che": 1463,
  "rst": 1464,
  "103": 1465,
  "AKB48": 1466,
  "Dan": 1467,
  "MD": 1468,
  "Nor": 1469,
  "Ph": 1470,
  "107": 1471,
  "ral": 1472,
  "Her": 1473,
  "On": 1474,
  "pre": 1475,
  "ring": 1476,
  "As": 1477,
  "are": 1478,
  "Willi": 1479,
  "tel": 1480,
  "Linux": 1481,
  "lis": 1482,
  "Ori": 1483,
  "ww": 1484,
  "Dis": 1485,
  "shuan": 1486,
  "gue": 1487,
  "mas": 1488,
  "450": 1489,
  "Ber": 1490,
  "VID": 1491,
  "127": 1492,
  "Music": 1493,
  "Is": 1494,
  "Ai": 1495,
  "Gre": 1496,
  "cer": 1497,
  "ü": 1498,
  "tus": 1499,
  "Vo": 1500,
  "tra": 1501,
  "128": 1502,
  "flix": 1503,
  "CL": 1504,
  "Netflix": 1505,
  "Bro": 1506,
  "yo": 1507,
  "1894": 1508,
  "Game": 1509,
  "220": 1510,
  "Can": 1511,
  "Gra": 1512,
  "nin": 1513,
  "ref": 1514,
  "н": 1515,
  "William": 1516,
  "Bri": 1517,
  "IL": 1518,
  "align": 1519,
  "SH": 1520,
  "bli": 1521,
  "ory": 1522,
  "Or": 1523,
  "Twit": 1524,
  "1880": 1525,
  "Red": 1526,
  "old": 1527,
  "í": 1528,
  "RNA": 1529,
  "136": 1530,
  "PG": 1531,
  "и": 1532,
  "い": 1533,
  "rom": 1534,
  "TR": 1535,
  "Team": 1536,
  "1800": 1537,
  "ス": 1538,
  "Univer": 1539,
  "ground": 1540,
  "ia": 1541,
  "1885": 1542,
  "len": 1543,
  "114": 1544,
  "ん": 1545,
  "Hz": 1546,
  "color": 1547,
  "Gen": 1548,
  "Ty": 1549,
  "116": 1550,
  "280": 1551,
  "UR": 1552,
  "ple": 1553,
  "е": 1554,
  "113": 1555,
  "1886": 1556,
  "ein": 1557,
  "イ": 1558,
  "TS": 1559,
  "PO": 1560,
  "1893": 1561,
  "lar": 1562,
  "ex": 1563,
  "rn": 1564,
  "yn": 1565,
  "Mc": 1566,
  "name": 1567,
  "111": 1568,
  "SL": 1569,
  "Super": 1571,
  "She": 1572,
  "stra": 1573,
  "All": 1574,
  "Gu": 1575,
  "cial": 1576,
  "lass": 1577,
  "※": 1578,
  "David": 1579,
  "135": 1580,
  "ject": 1581,
  "Ac": 1582,
  "260": 1583,
  "Cen": 1584,
  "Eu": 1585,
  "lf": 1586,
  "1860": 1587,
  "port": 1588,
  "ham": 1589,
  "Geor": 1590,
  "cho": 1591,
  "national": 1592,
  "Char": 1593,
  "Un": 1594,
  "WTA": 1595,
  "lver": 1596,
  "dge": 1597,
  "work": 1598,
  "HC": 1599,
  "Th": 1600,
  "tro": 1601,
  "School": 1602,
  "Ban": 1603,
  "ks": 1604,
  "sso": 1605,
  "tch": 1606,
  "tis": 1607,
  "1888": 1608,
  "Mor": 1609,
  "qui": 1610,
  "text": 1611,
  "SD": 1612,
  "ó": 1613,
  "-.": 1614,
  "UA": 1615,
  "roup": 1616,
  "lly": 1617,
  "cation": 1618,
  "ony": 1619,
  "background": 1620,
  "Meta": 1621,
  "roid": 1622,
  "ac": 1623,
  "meri": 1624,
  "Tra": 1625,
  "129": 1626,
  "GO": 1627,
  "Sto": 1628,
  "dis": 1629,
  "1870": 1630,
  "GN": 1631,
  "ream": 1633,
  "1887": 1634,
  "Show": 1635,
  "Qu": 1636,
  "cle": 1637,
  "1868": 1638,
  "6000": 1639,
  "ö": 1640,
  "р": 1641,
  "1883": 1642,
  "NF": 1643,
  "VA": 1644,
  "mar": 1645,
  "Ver": 1646,
  "day": 1647,
  "320": 1648,
  "Xbox": 1649,
  "CS": 1650,
  "was": 1651,
  "Ang": 1652,
  "NHK": 1653,
  "Tho": 1654,
  "AF": 1655,
  "Fo": 1656,
  "Twitter": 1657,
  "DD": 1658,
  "lyin": 1659,
  "onlyin": 1660,
  "onlyinclude": 1661,
  "++": 1662,
  "KP": 1663,
  "don": 1664,
  "1864": 1665,
  "•": 1666,
  "Gir": 1667,
  "ION": 1668,
  "1884": 1669,
  "119": 1670,
  "Bla": 1671,
  "RC": 1672,
  "UE": 1673,
  "ain": 1674,
  "miu": 1675,
  "122": 1676,
  "Va": 1677,
  "2500": 1678,
  "1892": 1679,
  "210": 1680,
  "A1": 1681,
  "center": 1682,
  "cket": 1683,
  "155": 1684,
  "ISO": 1685,
  "145": 1687,
  "stri": 1688,
  "1891": 1689,
  "650": 1690,
  "way": 1691,
  "Android": 1692,
  "NS": 1693,
  "Clu": 1694,
  "〕": 1695,
  "OR": 1696,
  "ffi": 1697,
  "htt": 1698,
  "mber": 1699,
  "〔": 1700,
  "1850": 1701,
  "Fu": 1702,
  "Phi": 1703,
  "age": 1704,
  "mb": 1705,
  "win": 1706,
  "xy": 1707,
  "Cy": 1708,
  "Ku": 1709,
  "king": 1710,
  "International": 1711,
  "sia": 1712,
  "1867": 1713,
  "logy": 1714,
  "Ce": 1715,
  "IM": 1716,
  "ト": 1717,
  "1879": 1718,
  "Star": 1719,
  "rie": 1720,
  "James": 1721,
  "Enter": 1722,
  "cc": 1723,
  "ller": 1724,
  "380": 1725,
  "AB": 1726,
  "UP": 1727,
  "ney": 1728,
  "Eng": 1729,
  "1876": 1730,
  "Spe": 1731,
  "War": 1732,
  "ny": 1733,
  "Studio": 1734,
  "zo": 1735,
  "George": 1736,
  "Ab": 1737,
  "Ani": 1738,
  "1875": 1739,
  "1861": 1740,
  "270": 1741,
  "Universi": 1742,
  "Games": 1743,
  "Bra": 1744,
  "IR": 1745,
  "126": 1746,
  "NT": 1747,
  "è": 1748,
  "time": 1749,
  "art": 1750,
  "Es": 1751,
  "Por": 1752,
  "NGC": 1753,
  "stru": 1754,
  "ル": 1755,
  "1873": 1756,
  "Hen": 1757,
  "MG": 1758,
  "phi": 1759,
  "ero": 1760,
  "123": 1761,
  "ラ": 1762,
  "PV": 1763,
  "ns": 1764,
  "Ben": 1765,
  "Dra": 1766,
  "HT": 1767,
  "Colle": 1768,
  "Group": 1769,
  "Pan": 1770,
  "car": 1771,
  "mpi": 1772,
  "rans": 1773,
  "Sun": 1774,
  "it": 1775,
  "ut": 1776,
  "168": 1777,
  "cus": 1778,
  "COVID": 1779,
  "Blo": 1780,
  "FM": 1781,
  "MB": 1782,
  "Sys": 1783,
  "ous": 1784,
  "sed": 1785,
  "1865": 1786,
  "Club": 1787,
  "AO": 1788,
  "Ameri": 1789,
  "PL": 1790,
  "her": 1791,
  "im": 1792,
  "121": 1793,
  "DE": 1794,
  "Don": 1795,
  "that": 1796,
  "Air": 1797,
  "Center": 1798,
  "175": 1799,
  "ary": 1800,
  "う": 1801,
  "Web": 1802,
  "H2": 1803,
  "YP": 1804,
  "from": 1805,
  "ä": 1806,
  "1400": 1807,
  "MAX": 1808,
  "critic": 1809,
  "Ale": 1810,
  "tz": 1811,
  "138": 1812,
  "228": 1813,
  "Han": 1814,
  "TP": 1815,
  "1848": 1816,
  "1862": 1817,
  "330": 1818,
  "124": 1819,
  "ア": 1820,
  "1881": 1821,
  "1882": 1822,
  "737": 1823,
  "Lea": 1824,
  "Ali": 1825,
  "UC": 1826,
  "hy": 1827,
  "1878": 1828,
  "550": 1829,
  "Ve": 1830,
  "sau": 1831,
  "bri": 1832,
  "bit": 1833,
  "1872": 1834,
  "El": 1835,
  "LC": 1836,
  "Insta": 1837,
  "Min": 1838,
  "ration": 1839,
  "INK": 1840,
  "Metacritic": 1841,
  "eld": 1842,
  "Oricon": 1843,
  "Sai": 1844,
  "Whi": 1845,
  "sco": 1846,
  "156": 1847,
  "Boo": 1848,
  "MTV": 1849,
  "sp": 1850,
  "165": 1851,
  "LED": 1852,
  "1840": 1853,
  "IVE": 1854,
  "Ya": 1855,
  "cre": 1856,
  "kin": 1857,
  "750": 1858,
  "ッ": 1859,
  "1300": 1860,
  "し": 1861,
  "Hy": 1862,
  "137": 1863,
  "Micha": 1864,
  "Mark": 1865,
  "7000": 1866,
  "Hel": 1867,
  "era": 1868,
  "DOS": 1869,
  "SQ": 1870,
  "UB": 1871,
  "229": 1872,
  "IU": 1873,
  "GDP": 1874,
  "King": 1875,
  "OK": 1876,
  "с": 1877,
  "type": 1878,
  "Gran": 1879,
  "nic": 1880,
  "High": 1881,
  "Tai": 1882,
  "ast": 1883,
  "152": 1884,
  "TVB": 1885,
  "Chris": 1886,
  "159": 1887,
  "1877": 1888,
  "Robert": 1889,
  "Chan": 1890,
  "py": 1891,
  "sy": 1892,
  "tle": 1893,
  "cien": 1895,
  "1866": 1896,
  "Hou": 1897,
  "iOS": 1898,
  "ot": 1899,
  "л": 1900,
  "Produ": 1901,
  "SK": 1902,
  "Shi": 1903,
  "silver": 1904,
  "1869": 1905,
  "′": 1906,
  "thi": 1907,
  "THE": 1908,
  "Up": 1909,
  "Day": 1910,
  "Cro": 1911,
  "DM": 1912,
  "Ele": 1913,
  "Stre": 1914,
  "Peter": 1915,
  "It": 1916,
  "NET": 1917,
  "tter": 1918,
  "Free": 1919,
  "Jan": 1920,
  "к": 1921,
  "139": 1922,
  "Phone": 1923,
  "Instagram": 1924,
  "At": 1925,
  "BI": 1926,
  "Sur": 1927,
  "pla": 1928,
  "BLAC": 1929,
  "Type": 1930,
  "в": 1931,
  "ora": 1932,
  "Apple": 1933,
  "DJ": 1934,
  "Sy": 1935,
  "Wal": 1936,
  "CG": 1937,
  "WE": 1938,
  "code": 1939,
  "ク": 1940,
  "Michael": 1941,
  "DF": 1942,
  "Sh": 1943,
  "1100": 1945,
  "cia": 1946,
  "158": 1947,
  "ness": 1948,
  "Big": 1949,
  "225": 1950,
  "Pla": 1951,
  "Pat": 1952,
  "Sam": 1953,
  "Ye": 1954,
  "vin": 1955,
  "nia": 1956,
  "305": 1957,
  "133": 1958,
  "INE": 1959,
  "Paul": 1960,
  "Tech": 1961,
  "National": 1962,
  "tte": 1963,
  "oun": 1964,
  "nis": 1965,
  "リ": 1966,
  "Award": 1967,
  "RA": 1968,
  "YO": 1969,
  "132": 1970,
  "Steam": 1971,
  "205": 1972,
  "1863": 1973,
  "ray": 1974,
  "IE": 1975,
  "pany": 1976,
  "Media": 1977,
  "tainment": 1978,
  "215": 1979,
  "Br": 1980,
  "University": 1981,
  "FO": 1982,
  "Lou": 1983,
  "Val": 1984,
  "ensis": 1985,
  "tions": 1986,
  "Bill": 1987,
  "phy": 1988,
  "CA": 1989,
  "F1": 1990,
  "KBS": 1991,
  "bur": 1992,
  "148": 1993,
  "131": 1994,
  "Smi": 1995,
  "kg": 1996,
  "166": 1997,
  "1874": 1998,
  "XX": 1999,
  "deo": 2000,
  "1858": 2001,
  "par": 2002,
  "EF": 2003,
  "sor": 2004,
  "rin": 2005,
  "rum": 2006,
  "Cho": 2007,
  "clo": 2008,
  "147": 2009,
  "Hol": 2010,
  "mini": 2011,
  "Fri": 2012,
  "256": 2013,
  "か": 2014,
  "M2": 2015,
  "1830": 2016,
  "CBS": 2017,
  "UT": 2018,
  "gon": 2019,
  "lm": 2020,
  "1851": 2021,
  "Lee": 2022,
  "BN": 2023,
  "GA": 2024,
  "HI": 2025,
  "UI": 2026,
  "lip": 2027,
  "ric": 2028,
  "192": 2029,
  "Park": 2030,
  "td": 2031,
  "μ": 2032,
  "8000": 2033,
  "Mer": 2034,
  "now": 2035,
  "Entertainment": 2036,
  "310": 2037,
  "143": 2038,
  "his": 2039,
  "Mk": 2040,
  "1855": 2041,
  "City": 2042,
  "Black": 2043,
  "Wil": 2044,
  "Power": 2045,
  "Chu": 2046,
  "EM": 2047,
  "IX": 2048,
  "Space": 2049,
  "gar": 2050,
  "whi": 2051,
  "GM": 2052,
  "RAM": 2053,
  "185": 2055,
  "1859": 2056,
  "tho": 2057,
  "STAR": 2058,
  "Jack": 2059,
  "Charles": 2060,
  "134": 2061,
  "Java": 2062,
  "Dire": 2063,
  "ABC": 2064,
  "Gar": 2065,
  "Ter": 2066,
  "spe": 2067,
  "ship": 2068,
  "1854": 2069,
  "146": 2070,
  "301": 2071,
  "1700": 2072,
  "inter": 2073,
  "Viu": 2074,
  "stitu": 2075,
  "370": 2076,
  "Fla": 2077,
  "Ken": 2078,
  "1857": 2079,
  "Alpha": 2080,
  "Lan": 2081,
  "Stan": 2082,
  "out": 2083,
  "los": 2084,
  "Dar": 2085,
  "ا": 2086,
  "290": 2087,
  "な": 2088,
  "Life": 2089,
  "︰": 2090,
  "vs": 2091,
  "γ": 2092,
  "214": 2093,
  "420": 2094,
  "Cam": 2095,
  "т": 2096,
  "Recor": 2097,
  "Company": 2098,
  "Fun": 2099,
  "ο": 2100,
  "〜": 2101,
  "1856": 2102,
  "1853": 2103,
  "Project": 2104,
  "Dream": 2105,
  "Fan": 2106,
  "Sen": 2107,
  "dium": 2108,
  "た": 2109,
  "first": 2110,
  "Time": 2111,
  "Thomas": 2112,
  "House": 2113,
  "Pen": 2114,
  "144": 2115,
  "Saint": 2116,
  "FA": 2117,
  "OVA": 2118,
  "Py": 2119,
  "Spi": 2120,
  "Cent": 2121,
  "VO": 2122,
  "ek": 2123,
  "face": 2124,
  "A2": 2125,
  "IO": 2126,
  "dd": 2127,
  "von": 2128,
  "167": 2129,
  "Japan": 2130,
  "Street": 2131,
  "3A": 2132,
  "Cla": 2133,
  "HS": 2134,
  "SBS": 2135,
  "rence": 2136,
  "bili": 2137,
  "rist": 2138,
  "chard": 2139,
  "1841": 2140,
  "very": 2141,
  "Euro": 2142,
  "LP": 2143,
  "Plan": 2144,
  "ak": 2145,
  "ie": 2146,
  "rp": 2147,
  "bal": 2148,
  "ety": 2149,
  "Alex": 2150,
  "340": 2151,
  "PM": 2152,
  "bun": 2153,
  "if": 2154,
  "lue": 2155,
  "BLACKP": 2156,
  "Sco": 2157,
  "Tal": 2158,
  "dra": 2159,
  "cher": 2160,
  "208": 2161,
  "ses": 2162,
  "1815": 2163,
  "178": 2164,
  "Soci": 2165,
  "CPU": 2166,
  "BLACKPINK": 2167,
  "223": 2168,
  "space": 2169,
  "850": 2170,
  "LGB": 2171,
  "Sing": 2172,
  "Spo": 2173,
  "ew": 2174,
  "tta": 2175,
  "cess": 2176,
  "ood": 2177,
  "www": 2178,
  "IBM": 2179,
  "zer": 2180,
  "mis": 2181,
  "Art": 2182,
  "ports": 2183,
  "Bat": 2184,
  "Bur": 2185,
  "SF": 2186,
  "207": 2187,
  "mation": 2188,
  "wor": 2189,
  "171": 2190,
  "235": 2191,
  "と": 2192,
  "ま": 2193,
  "LIVE": 2194,
  "SU": 2195,
  "Soft": 2196,
  "203": 2197,
  "B2": 2198,
  "Fer": 2199,
  "VE": 2200,
  "SQL": 2201,
  "tha": 2202,
  "1846": 2203,
  "164": 2204,
  "College": 2205,
  "Am": 2206,
  "cra": 2207,
  "157": 2208,
  "lter": 2209,
  "vice": 2210,
  "berg": 2211,
  "American": 2212,
  "BR": 2213,
  "LT": 2214,
  "NE": 2215,
  "Pol": 2216,
  "141": 2217,
  "ford": 2218,
  "ICE": 2219,
  "Ama": 2220,
  "B1": 2221,
  "PE": 2222,
  "nvi": 2223,
  "176": 2224,
  "ING": 2225,
  "Girls": 2226,
  "Asso": 2227,
  "Ger": 2228,
  "LS": 2229,
  "ste": 2230,
  "²": 2231,
  "turn": 2232,
  "publi": 2233,
  "self": 2234,
  "1812": 2235,
  "1845": 2236,
  "1844": 2237,
  "stro": 2238,
  "Road": 2239,
  "not": 2240,
  "Offi": 2241,
  "Wo": 2242,
  "dro": 2243,
  "ball": 2244,
  "231": 2245,
  "arch": 2246,
  "cture": 2247,
  "class": 2248,
  "lon": 2249,
  "esti": 2250,
  "Rock": 2251,
  "Cl": 2252,
  "HF": 2253,
  "Ltd": 2254,
  "M3": 2255,
  "play": 2256,
  "lea": 2257,
  "board": 2258,
  "り": 2259,
  "witch": 2260,
  "LGBT": 2261,
  "llo": 2262,
  "sg": 2263,
  "here": 2264,
  "209": 2265,
  "き": 2266,
  "NASA": 2267,
  "Tele": 2268,
  "GNU": 2269,
  "LA": 2270,
  "Van": 2271,
  "gs": 2272,
  "tation": 2273,
  "Jose": 2274,
  "well": 2275,
  "Tour": 2276,
  "IUCN": 2277,
  "Smith": 2278,
  "216": 2279,
  "PN": 2280,
  "Rou": 2281,
  "κ": 2282,
  "1849": 2283,
  "153": 2284,
  "CT": 2285,
  "NBC": 2286,
  "204": 2287,
  "238": 2288,
  "nes": 2289,
  "Good": 2290,
  "Production": 2291,
  "BB": 2292,
  "Cal": 2293,
  "GT": 2294,
  "bra": 2295,
  "ded": 2296,
  "Video": 2297,
  "O2": 2298,
  "ep": 2299,
  "fer": 2300,
  "σ": 2301,
  "mited": 2302,
  "pie": 2303,
  "row": 2304,
  "Hall": 2305,
  "PR": 2306,
  "dae": 2307,
  "206": 2308,
  "thy": 2309,
  "Pad": 2310,
  "Gala": 2311,
  "Boy": 2312,
  "eries": 2313,
  "460": 2314,
  "Af": 2315,
  "Tor": 2316,
  "set": 2317,
  "1814": 2318,
  "vel": 2319,
  "ders": 2320,
  "saurus": 2321,
  "218": 2322,
  "Eli": 2323,
  "Tur": 2324,
  "wood": 2325,
  "Jean": 2326,
  "SI": 2327,
  "Ten": 2328,
  "nel": 2329,
  "vision": 2330,
  "IGN": 2331,
  "Act": 2332,
  "LD": 2333,
  "PA": 2334,
  "fra": 2335,
  "Richard": 2337,
  "FF": 2338,
  "Kar": 2339,
  "WS": 2340,
  "om": 2341,
  "π": 2342,
  "tar": 2343,
  "1847": 2344,
  "154": 2345,
  "ved": 2346,
  "580": 2347,
  "MBC": 2348,
  "side": 2349,
  "mac": 2350,
  "chem": 2351,
  "1843": 2352,
  "Best": 2353,
  "ptr": 2354,
  "System": 2355,
  "430": 2356,
  "Sky": 2357,
  "Zi": 2358,
  "rich": 2359,
  "cis": 2360,
  "177": 2361,
  "401": 2362,
  "lls": 2363,
  "410": 2364,
  "Fle": 2365,
  "sin": 2366,
  "mann": 2367,
  "シ": 2368,
  "NFL": 2369,
  "ViuTV": 2370,
  "Switch": 2371,
  "dar": 2372,
  "163": 2373,
  "AMD": 2374,
  "Digi": 2375,
  "API": 2376,
  "Para": 2377,
  "ICO": 2378,
  "Sma": 2379,
  "data": 2380,
  "ments": 2381,
  "1852": 2382,
  "162": 2383,
  "thon": 2384,
  "Max": 2385,
  "VII": 2386,
  "ced": 2387,
  "1820": 2388,
  "く": 2389,
  "West": 2390,
  "Ag": 2391,
  "Glo": 2392,
  "Tun": 2393,
  "Vol": 2394,
  "ach": 2395,
  "zon": 2396,
  "142": 2397,
  "234": 2398,
  "star": 2399,
  "cript": 2400,
  "VR": 2401,
  "sys": 2402,
  "sign": 2403,
  "max": 2404,
  "172": 2405,
  "お": 2406,
  "さ": 2407,
  "Core": 2408,
  "Records": 2409,
  "640": 2410,
  "Met": 2411,
  "lti": 2412,
  "169": 2413,
  "3500": 2414,
  "this": 2415,
  "Limited": 2416,
  "Blue": 2417,
  "KC": 2418,
  "Ran": 2419,
  "T1": 2420,
  "cto": 2421,
  "±": 2422,
  "1839": 2423,
  "232": 2424,
  "Coun": 2425,
  "480": 2426,
  "CM": 2427,
  "179": 2428,
  "cade": 2429,
  "Inc": 2430,
  "Green": 2431,
  "use": 2432,
  "2030": 2433,
  "rio": 2434,
  "org": 2435,
  "149": 2436,
  "365": 2437,
  "Institu": 2438,
  "Lau": 2439,
  "lum": 2440,
  "tube": 2441,
  "1821": 2442,
  "war": 2443,
  "ロ": 2444,
  "み": 2445,
  "Vir": 2446,
  "Unicode": 2447,
  "ROM": 2448,
  "CCTV": 2449,
  "390": 2450,
  "BU": 2451,
  "bus": 2452,
  "tia": 2453,
  "306": 2454,
  "222": 2455,
  "601": 2456,
  "ona": 2457,
  "173": 2458,
  "Bob": 2459,
  "EA": 2460,
  "Far": 2461,
  "Gui": 2462,
  "Ji": 2463,
  "PF": 2464,
  "Yu": 2465,
  "Ze": 2466,
  "kh": 2467,
  "rue": 2468,
  "bar": 2469,
  "ware": 2470,
  "247": 2471,
  "oot": 2472,
  "Hea": 2473,
  "Prin": 2474,
  "mpion": 2475,
  "Er": 2476,
  "KK": 2477,
  "Mr": 2478,
  "Ven": 2479,
  "XP": 2480,
  "gna": 2481,
  "jo": 2482,
  "1790": 2483,
  "ump": 2484,
  "211": 2485,
  "560": 2486,
  "OH": 2487,
  "SN": 2488,
  "zy": 2489,
  "ket": 2490,
  "ciation": 2491,
  "orn": 2492,
  "new": 2493,
  "レ": 2494,
  "BF": 2495,
  "Pra": 2496,
  "VM": 2497,
  "tv": 2498,
  "off": 2499,
  "velo": 2500,
  "MU": 2501,
  "PD": 2502,
  "Ren": 2503,
  "Squ": 2504,
  "Scien": 2505,
  "183": 2506,
  "1795": 2507,
  "303": 2508,
  "Force": 2509,
  "○": 2510,
  "PH": 2511,
  "Tan": 2512,
  "233": 2513,
  "ち": 2514,
  "1801": 2515,
  "213": 2516,
  "Trans": 2517,
  "tary": 2518,
  "マ": 2519,
  "Heart": 2520,
  "USB": 2521,
  "Men": 2522,
  "bro": 2523,
  "174": 2524,
  "Pop": 2525,
  "ttle": 2526,
  "MVP": 2527,
  "Bel": 2528,
  "CK": 2529,
  "oper": 2530,
  "ρ": 2531,
  "key": 2534,
  "186": 2535,
  "1838": 2536,
  "ors": 2537,
  "Fire": 2538,
  "Store": 2539,
  "520": 2540,
  "Cri": 2541,
  "DDR": 2542,
  "stan": 2543,
  "mily": 2544,
  "har": 2545,
  "cker": 2546,
  "Christ": 2547,
  "610": 2548,
  "Lon": 2549,
  "ab": 2550,
  "up": 2551,
  "161": 2552,
  "501": 2553,
  "ド": 2554,
  "http": 2555,
  "224": 2556,
  "CF": 2557,
  "em": 2558,
  "iPad": 2559,
  "tto": 2560,
  "bile": 2561,
  "sub": 2562,
  "1813": 2563,
  "ら": 2564,
  "Mag": 2565,
  "Data": 2566,
  "GE": 2567,
  "τ": 2568,
  "rity": 2569,
  "mor": 2570,
  "182": 2571,
  "1832": 2572,
  "1842": 2573,
  "255": 2574,
  "logi": 2575,
  "ason": 2576,
  "Society": 2577,
  "AE": 2578,
  "dth": 2579,
  "iPhone": 2580,
  "sur": 2581,
  "184": 2582,
  "ties": 2583,
  "カ": 2584,
  "dom": 2585,
  "Mini": 2586,
  "720": 2587,
  "KI": 2588,
  "Que": 2589,
  "Script": 2590,
  "ele": 2591,
  "gre": 2592,
  "late": 2594,
  "1836": 2595,
  "1793": 2596,
  "オ": 2597,
  "Comic": 2598,
  "Intel": 2599,
  "KiHa": 2600,
  "Muse": 2601,
  "buntu": 2602,
  "221": 2603,
  "HBO": 2604,
  "MT": 2605,
  "Pin": 2606,
  "ffe": 2607,
  "mus": 2608,
  "1833": 2609,
  "1789": 2610,
  "cent": 2611,
  "Home": 2612,
  "tics": 2613,
  "River": 2614,
  "https": 2615,
  "Direct": 2616,
  "Association": 2617,
  "Galaxy": 2618,
  "Bal": 2619,
  "Dr": 2620,
  "DAM": 2621,
  "M4": 2622,
  "QQ": 2623,
  "ae": 2624,
  "search": 2625,
  "1835": 2626,
  "151": 2627,
  "ars": 2628,
  "タ": 2629,
  "width": 2630,
  "peri": 2631,
  "tical": 2632,
  "League": 2633,
  "219": 2634,
  "217": 2635,
  "338": 2636,
  "FT": 2637,
  "JYP": 2638,
  "Qui": 2639,
  "Rai": 2640,
  "SR": 2641,
  "Ubuntu": 2642,
  "WA": 2643,
  "mg": 2644,
  "ful": 2646,
  "‰": 2647,
  "down": 2648,
  "1804": 2649,
  "ONE": 2650,
  "CEO": 2651,
  "470": 2652,
  "740": 2653,
  "830": 2654,
  "Bui": 2655,
  "fun": 2656,
  "ssi": 2657,
  "ving": 2658,
  "ned": 2659,
  "Martin": 2660,
  "Bank": 2661,
  "Henry": 2662,
  "Mai": 2663,
  "YG": 2664,
  "ς": 2665,
  "д": 2666,
  "light": 2668,
  "bor": 2669,
  "mat": 2670,
  "Master": 2671,
  "Top": 2672,
  "Champion": 2673,
  "Dy": 2674,
  "Ear": 2675,
  "LINE": 2676,
  "MW": 2677,
  "ν": 2678,
  "mal": 2679,
  "bel": 2680,
  "ART": 2681,
  "News": 2682,
  "China": 2683,
  "212": 2684,
  "DK": 2685,
  "Dou": 2686,
  "Em": 2687,
  "Sp": 2688,
  "у": 2689,
  "unch": 2690,
  "1828": 2691,
  "core": 2692,
  "コ": 2693,
  "APAN": 2694,
  "Hot": 2695,
  "Part": 2696,
  "Network": 2697,
  "Gener": 2698,
  "FR": 2699,
  "Flo": 2700,
  "Long": 2701,
  "dor": 2702,
  "cil": 2703,
  "191": 2704,
  "rew": 2705,
  "302": 2706,
  "Young": 2707,
  "Billboard": 2708,
  "Office": 2709,
  "680": 2710,
  "Ada": 2711,
  "Epi": 2712,
  "Fra": 2713,
  "Gold": 2714,
  "MHz": 2715,
  "PI": 2716,
  "Song": 2717,
  "SNH": 2718,
  "nm": 2719,
  "plo": 2720,
  "ι": 2721,
  "table": 2722,
  "ries": 2723,
  "181": 2724,
  "1624": 2725,
  "237": 2726,
  "る": 2727,
  "Night": 2728,
  "Note": 2729,
  "Joseph": 2730,
  "SNH48": 2731,
  "FDA": 2732,
  "JAPAN": 2733,
  "PK": 2734,
  "pur": 2737,
  "1644": 2738,
  "308": 2739,
  "Code": 2740,
  "COM": 2741,
  "440": 2742,
  "Cra": 2743,
  "DB": 2744,
  "GR": 2745,
  "zz": 2746,
  "list": 2747,
  "tial": 2748,
  "led": 2749,
  "less": 2750,
  "10000": 2751,
  "1837": 2752,
  "part": 2753,
  "239": 2754,
  "ston": 2755,
  "1806": 2756,
  "Sir": 2757,
  "Radio": 2758,
  "United": 2759,
  "macOS": 2760,
  "CV": 2761,
  "U21": 2762,
  "Vis": 2763,
  "sing": 2764,
  "â": 2765,
  "î": 2766,
  "δ": 2767,
  "def": 2770,
  "sus": 2771,
  "1819": 2772,
  "299": 2773,
  "346": 2774,
  "Regi": 2775,
  "HTML": 2776,
  "780": 2777,
  "East": 2778,
  "cs": 2779,
  "und": 2780,
  "1825": 2781,
  "245": 2782,
  "236": 2783,
  "505": 2784,
  "279": 2785,
  "に": 2786,
  "Mari": 2787,
  "540": 2788,
  "EV": 2789,
  "Gam": 2790,
  "H5": 2791,
  "Pal": 2792,
  "muni": 2793,
  "rpm": 2794,
  "325": 2795,
  "Yo": 2796,
  "tre": 2797,
  "right": 2798,
  "001": 2799,
  "1776": 2800,
  "じ": 2801,
  "Child": 2802,
  "NCAA": 2803,
  "Server": 2804,
  "Digital": 2805,
  "FAT": 2806,
  "Kong": 2807,
  "tea": 2808,
  "1818": 2809,
  "pon": 2810,
  "main": 2811,
  "para": 2812,
  "265": 2813,
  "こ": 2814,
  "esta": 2815,
  "Hello": 2816,
  "GS": 2817,
  "Lang": 2818,
  "air": 2819,
  "telli": 2820,
  "1824": 2821,
  "1831": 2822,
  "2027": 2823,
  "rey": 2824,
  "Down": 2825,
  "Dri": 2826,
  "Ob": 2827,
  "RPG": 2828,
  "pho": 2829,
  "spi": 2830,
  "ç": 2831,
  "ô": 2832,
  "lio": 2833,
  "sio": 2834,
  "rick": 2835,
  "lation": 2836,
  "386": 2837,
  "Mat": 2838,
  "Service": 2839,
  "Ⅱ": 2840,
  "Techno": 2841,
  "Ana": 2842,
  "Ado": 2843,
  "UM": 2844,
  "non": 2845,
  "rent": 2846,
  "ges": 2847,
  "temp": 2848,
  "BSD": 2849,
  "Python": 2850,
  "1A": 2851,
  "CW": 2852,
  "Den": 2853,
  "XML": 2854,
  "λ": 2855,
  "sho": 2856,
  "275": 2857,
  "2700": 2858,
  "Youtube": 2859,
  "Edward": 2860,
  "White": 2861,
  "312": 2862,
  "5G": 2863,
  "730": 2864,
  "Des": 2865,
  "HL": 2866,
  "OM": 2867,
  "TBS": 2868,
  "ena": 2869,
  "has": 2870,
  "med": 2871,
  "264": 2872,
  "295": 2873,
  "1802": 2874,
  "First": 2875,
  "BLUE": 2876,
  "burg": 2877,
  "public": 2878,
  "Institute": 2879,
  "630": 2880,
  "Envi": 2881,
  "Gro": 2882,
  "TM": 2883,
  "ori": 2884,
  "yer": 2885,
  "ú": 2886,
  "à": 2887,
  "sual": 2888,
  "1822": 2889,
  "288": 2890,
  "ジ": 2891,
  "Poly": 2892,
  "JT": 2893,
  "Out": 2894,
  "Sum": 2895,
  "ل": 2896,
  "mond": 2897,
  "244": 2898,
  "フ": 2899,
  "vate": 2900,
  "Tom": 2901,
  "ITF": 2902,
  "2D": 2903,
  "OT": 2904,
  "ise": 2905,
  "var": 2906,
  "xel": 2907,
  "return": 2908,
  "249": 2909,
  "903": 2910,
  "ves": 2911,
  "Cap": 2912,
  "Square": 2913,
  "Hong": 2914,
  "PID": 2915,
  "Series": 2916,
  "This": 2917,
  "Za": 2918,
  "ī": 2919,
  "š": 2920,
  "yal": 2921,
  "tum": 2922,
  "tual": 2923,
  "243": 2924,
  "2800": 2925,
  "Rap": 2926,
  "Cup": 2927,
  "Del": 2928,
  "FX": 2929,
  "Jen": 2930,
  "Jump": 2931,
  "NP": 2932,
  "__": 2933,
  "sch": 2934,
  "sig": 2935,
  "chuai": 2936,
  "1810": 2937,
  "1622": 2938,
  "1792": 2939,
  "307": 2940,
  "sts": 2941,
  "701": 2942,
  "SARS": 2943,
  "Frank": 2944,
  "POP": 2945,
  "Grand": 2946,
  "960": 2947,
  "Kin": 2948,
  "SHO": 2949,
  "VV": 2950,
  "sca": 2951,
  "ε": 2952,
  "dit": 2953,
  "tur": 2954,
  "1650": 2955,
  "801": 2956,
  "Pala": 2957,
  "Chro": 2958,
  "MIUI": 2959,
  "Count": 2960,
  "Tunes": 2961,
  "2100": 2962,
  "Cur": 2963,
  "Hor": 2964,
  "cci": 2965,
  "м": 2966,
  "1826": 2967,
  "have": 2968,
  "1573": 2969,
  "story": 2970,
  "Step": 2971,
  "Under": 2972,
  "747": 2973,
  "Jour": 2974,
  "yon": 2975,
  "but": 2976,
  "tems": 2977,
  "1834": 2978,
  "304": 2979,
  "226": 2980,
  "278": 2981,
  "ミ": 2982,
  "も": 2983,
  "teri": 2984,
  "375": 2985,
  "1805": 2986,
  "Die": 2987,
  "ACT": 2988,
  "APP": 2989,
  "AIR": 2990,
  "Auto": 2991,
  "North": 2992,
  "Bran": 2993,
  "HA": 2994,
  "Kan": 2995,
  "cing": 2996,
  "ice": 2997,
  "pus": 2998,
  "007": 2999,
  "296": 3000,
  "298": 3001,
  "385": 3002,
  "ATA": 3003,
  "Block": 3004,
  "335": 3005,
  "590": 3006,
  "9000": 3007,
  "Bor": 3008,
  "CU": 3009,
  "Sports": 3010,
  "WN": 3011,
  "ml": 3012,
  "rei": 3013,
  "ω": 3014,
  "let": 3016,
  "dings": 3017,
  "had": 3018,
  "1780": 3019,
  "227": 3020,
  "ム": 3021,
  "Your": 3022,
  "IFA": 3023,
  "315": 3024,
  "Les": 3025,
  "Os": 3026,
  "Pho": 3027,
  "Rei": 3028,
  "ii": 3029,
  "iTunes": 3030,
  "pH": 3031,
  "»": 3032,
  "gain": 3033,
  "251": 3034,
  "277": 3035,
  "Real": 3036,
  "ghts": 3037,
  "CNN": 3038,
  "2A": 3039,
  "Op": 3040,
  "Over": 3041,
  "RFC": 3042,
  "din": 3043,
  "dition": 3044,
  "zine": 3045,
  "mad": 3046,
  "map": 3047,
  "more": 3048,
  "1582": 3049,
  "1799": 3050,
  "259": 3051,
  "246": 3052,
  "248": 3053,
  "1809": 3054,
  "Dani": 3055,
  "Engine": 3056,
  "530": 3057,
  "C2": 3058,
  "Cas": 3059,
  "DLC": 3060,
  "Ei": 3061,
  "«": 3062,
  "ere": 3063,
  "1823": 3064,
  "1621": 3065,
  "272": 3066,
  "405": 3067,
  "ville": 3068,
  "ATION": 3069,
  "State": 3070,
  "1803": 3071,
  "Internet": 3072,
  "EEE": 3073,
  "value": 3074,
  "press": 3075,
  "334": 3076,
  "620": 3077,
  "770": 3078,
  "Bou": 3079,
  "Clo": 3080,
  "Class": 3081,
  "Gol": 3082,
  "Hal": 3083,
  "SG": 3084,
  "Wat": 3085,
  "app": 3086,
  "bre": 3087,
  "rch": 3088,
  "1625": 3089,
  "284": 3090,
  "285": 3091,
  "ino": 3092,
  "lton": 3093,
  "サ": 3094,
  "Mit": 3095,
  "cond": 3096,
  "311": 3097,
  "880": 3098,
  "Cle": 3099,
  "Sony": 3100,
  "Ur": 3101,
  "VI": 3102,
  "vy": 3103,
  "É": 3104,
  "258": 3106,
  "form": 3107,
  "276": 3108,
  "が": 3109,
  "Wii": 3110,
  "Moon": 3111,
  "Mobile": 3112,
  "Bay": 3113,
  "Gri": 3114,
  "KO": 3115,
  "Oper": 3116,
  "Tru": 3117,
  "XT": 3118,
  "than": 3119,
  "get": 3121,
  "ork": 3122,
  "253": 3123,
  "357": 3124,
  "ters": 3125,
  "Maria": 3126,
  "Ray": 3127,
  "Publi": 3128,
  "660": 3129,
  "Bon": 3130,
  "Cli": 3131,
  "Im": 3132,
  "NM": 3133,
  "SV": 3134,
  "UL": 3135,
  "ee": 3136,
  "ung": 3137,
  "й": 3138,
  "uel": 3139,
  "プ": 3140,
  "STA": 3141,
  "via": 3142,
  "Alf": 3143,
  "Dot": 3144,
  "IPv": 3145,
  "Nico": 3146,
  "Unix": 3147,
  "South": 3148,
  "Ange": 3149,
  "Book": 3150,
  "Europe": 3151,
  "570": 3152,
  "Get": 3153,
  "U19": 3154,
  "WF": 3155,
  "blo": 3156,
  "hr": 3157,
  "г": 3158,
  "1827": 3159,
  "1570": 3160,
  "あ": 3161,
  "gazine": 3162,
  "cks": 3163,
  "sson": 3164,
  "view": 3165,
  "Pier": 3166,
  "314": 3167,
  "3DS": 3168,
  "690": 3169,
  "BBS": 3170,
  "C6": 3171,
  "DSM": 3172,
  "IEEE": 3173,
  "Mou": 3174,
  "Mal": 3175,
  "SB": 3176,
  "WWE": 3177,
  "trans": 3178,
  "tas": 3179,
  "1817": 3180,
  "1640": 3181,
  "1636": 3182,
  "range": 3183,
  "268": 3184,
  "402": 3185,
  "404": 3186,
  "は": 3187,
  "Sound": 3188,
  "which": 3189,
  "4G": 3190,
  "AX": 3191,
  "TW": 3192,
  "fy": 3193,
  "fri": 3194,
  "gal": 3195,
  "dei": 3196,
  "1775": 3197,
  "254": 3198,
  "465": 3199,
  "ator": 3200,
  "323": 3201,
  "Gal": 3202,
  "HP": 3203,
  "OP": 3204,
  "Tre": 3205,
  "dea": 3206,
  "tina": 3207,
  "lution": 3208,
  "1750": 3209,
  "309": 3210,
  "vis": 3211,
  "Now": 3212,
  "329": 3213,
  "670": 3214,
  "Jon": 3215,
  "Nu": 3216,
  "Plus": 3217,
  "shing": 3218,
  "tude": 3219,
  "1816": 3220,
  "kar": 3221,
  "poli": 3222,
  "zation": 3223,
  "チ": 3224,
  "ィ": 3225,
  "4500": 3226,
  "field": 3227,
  "CON": 3228,
  "Beau": 3229,
  "Poli": 3230,
  "TOP": 3231,
  "print": 3232,
  "Cube": 3233,
  ".-": 3234,
  "710": 3235,
  "910": 3236,
  "950": 3237,
  "DI": 3238,
  "Ham": 3239,
  "MK": 3240,
  "ap": 3241,
  "other": 3242,
  "laris": 3243,
  "loud": 3244,
  "241": 3245,
  "2300": 3246,
  "cur": 3247,
  "Medi": 3248,
  "Film": 3249,
  "ISBN": 3250,
  "Way": 3251,
  "tvN": 3252,
  "326": 3253,
  "Asia": 3254,
  "Fin": 3255,
  "Ly": 3256,
  "T2": 3257,
  "ctive": 3258,
  "tti": 3259,
  "ence": 3261,
  "char": 3262,
  "1592": 3263,
  "347": 3264,
  "758": 3265,
  "Gil": 3266,
  "ople": 3267,
  "Ara": 3268,
  "DT": 3269,
  "Tro": 3270,
  "cti": 3271,
  "even": 3272,
  "mark": 3273,
  "tural": 3274,
  "sal": 3275,
  "1628": 3276,
  "1788": 3277,
  "252": 3278,
  "242": 3279,
  "269": 3280,
  "ニ": 3281,
  "May": 3282,
  "nald": 3283,
  "fea": 3284,
  "Tik": 3285,
  "Channel": 3286,
  "318": 3287,
  "336": 3288,
  "978": 3289,
  "CB": 3290,
  "DL": 3291,
  "Festi": 3292,
  "MUS": 3293,
  "N2": 3294,
  "O3": 3295,
  "Run": 3296,
  "hur": 3298,
  "lam": 3299,
  "1627": 3300,
  "1783": 3301,
  "1791": 3302,
  "289": 3303,
  "406": 3304,
  "354": 3305,
  "INN": 3306,
  "Joy": 3307,
  "Tok": 3308,
  "Pixel": 3309,
  "Disney": 3310,
  "□": 3311,
  "velop": 3312,
  "Vista": 3313,
  "Acade": 3314,
  "EL": 3315,
  "F4": 3316,
  "IB": 3317,
  "LAN": 3318,
  "LTE": 3319,
  "Nan": 3320,
  "PT": 3321,
  "Wan": 3322,
  "1797": 3323,
  "num": 3324,
  "［": 3325,
  "］": 3326,
  "556": 3327,
  "Research": 3328,
  "Beat": 3329,
  "Cir": 3330,
  "Girl": 3331,
  "Louis": 3332,
  "Software": 3333,
  "DMS": 3334,
  "Fre": 3335,
  "OF": 3336,
  "TH": 3337,
  "ag": 3338,
  "gis": 3339,
  "tr": 3340,
  "1779": 3341,
  "1796": 3342,
  "607": 3343,
  "つ": 3344,
  "だ": 3345,
  "352": 3346,
  "1808": 3347,
  "cono": 3348,
  "ERT": 3349,
  "ference": 3350,
  "km2": 3351,
  "mple": 3352,
  "Works": 3353,
  "NCT": 3354,
  "Alice": 3355,
  "Christian": 3356,
  "⋯": 3357,
  "321": 3358,
  "337": 3359,
  "A4": 3360,
  "Cer": 3361,
  "Cry": 3362,
  "T3": 3363,
  "dri": 3364,
  "night": 3365,
  "1829": 3366,
  "sar": 3367,
  "1778": 3368,
  "1794": 3369,
  "283": 3370,
  "mega": 3371,
  "273": 3372,
  "ャ": 3373,
  "バ": 3374,
  "エ": 3375,
  "thing": 3376,
  "cast": 3377,
  "oom": 3378,
  "ctro": 3379,
  "Visual": 3380,
  "Johan": 3381,
  "ASC": 3382,
  "YouTuber": 3383,
  "Chine": 3384,
  "Island": 3385,
  "Battle": 3386,
  "world": 3387,
  "313": 3388,
  "510": 3389,
  "840": 3390,
  "860": 3391,
  "Il": 3392,
  "Mnet": 3393,
  "Rain": 3394,
  "Sin": 3395,
  "ñ": 3396,
  "θ": 3397,
  "eni": 3398,
  "1798": 3399,
  "て": 3400,
  "456": 3401,
  "372": 3402,
  "ECT": 3403,
  "ctory": 3404,
  "agement": 3405,
  "Awards": 3406,
  "system": 3407,
  "448": 3408,
  "870": 3409,
  "ror": 3410,
  "mit": 3411,
  "ress": 3412,
  "read": 3413,
  "1580": 3414,
  "1612": 3415,
  "1634": 3416,
  "1787": 3417,
  "281": 3418,
  "267": 3419,
  "デ": 3420,
  "fore": 3421,
  "っ": 3422,
  "lost": 3423,
  "ウ": 3424,
  "vil": 3425,
  "vern": 3426,
  "Royal": 3427,
  "Hill": 3428,
  "web": 3429,
  "mmy": 3430,
  "Premi": 3431,
  "Fore": 3432,
  "Global": 3433,
  "911": 3434,
  "DG": 3435,
  "Dai": 3436,
  "Foot": 3437,
  "MF": 3438,
  "TN": 3439,
  "like": 3441,
  "rena": 3442,
  "1567": 3443,
  "1648": 3444,
  "271": 3445,
  "ltra": 3446,
  "pedia": 3447,
  "Mary": 3448,
  "Arts": 3449,
  "BOX": 3450,
  "rain": 3451,
  "Special": 3452,
  "Science": 3453,
  "Enviro": 3454,
  "AH": 3455,
  "Der": 3456,
  "E3": 3457,
  "Hun": 3458,
  "Let": 3459,
  "MM": 3460,
  "Wei": 3461,
  "York": 3462,
  "oi": 3463,
  "sche": 3464,
  "pop": 3465,
  "ret": 3466,
  "262": 3467,
  "367": 3468,
  "cky": 3469,
  "OSHI": 3470,
  "gic": 3471,
  "ACE": 3472,
  "Kim": 3473,
  "Compu": 3474,
  "ENT": 3475,
  "AGA": 3476,
  "Great": 3477,
  "Qua": 3478,
  "-&": 3479,
  "322": 3480,
  "Gor": 3481,
  "MON": 3482,
  "Oli": 3483,
  "OTT": 3484,
  "Sal": 3485,
  "VB": 3486,
  "fla": 3487,
  "hus": 3488,
  "size": 3489,
  "tifi": 3490,
  "nica": 3491,
  "bon": 3492,
  "posi": 3493,
  "1550": 3494,
  "1568": 3495,
  "ord": 3496,
  "1615": 3497,
  "1630": 3498,
  "formation": 3499,
  "286": 3500,
  "arr": 3501,
  "ブ": 3502,
  "col": 3503,
  "Magazine": 3504,
  "Model": 3505,
  "CH3": 3506,
  "Brown": 3507,
  "Amazon": 3508,
  "Museum": 3509,
  "Daniel": 3510,
  "Festival": 3511,
  "CAS": 3512,
  "End": 3513,
  "Fro": 3514,
  "FBI": 3515,
  "LG": 3516,
  "O4": 3517,
  "SIG": 3518,
  "Tou": 3519,
  "USA": 3520,
  "dt": 3521,
  "ole": 3522,
  "plan": 3523,
  "dent": 3524,
  "lina": 3525,
  "kes": 3526,
  "ches": 3527,
  "1645": 3528,
  "1646": 3529,
  "キ": 3530,
  "333": 3531,
  "andy": 3532,
  "COLL": 3533,
  "ARD": 3534,
  "Secre": 3535,
  "Communi": 3536,
  "Encore": 3537,
  "God": 3538,
  "tures": 3539,
  "Online": 3540,
  "Taiwan": 3541,
  "Queen": 3542,
  "TikTok": 3543,
  "MUSIC": 3544,
  "Ah": 3545,
  "Ami": 3546,
  "Cat": 3547,
  "Thun": 3548,
  "cka": 3549,
  "gg": 3550,
  "ر": 3551,
  "ani": 3552,
  "1626": 3553,
  "261": 3554,
  "297": 3555,
  "lth": 3556,
  "355": 3557,
  "Anto": 3558,
  "Dark": 3559,
  "General": 3560,
  "Chinese": 3561,
  "328": 3562,
  "820": 3563,
  "Crea": 3564,
  "Mur": 3565,
  "PRO": 3566,
  "S2": 3567,
  "Son": 3568,
  "over": 3569,
  "pra": 3570,
  "dal": 3571,
  "1637": 3572,
  "2400": 3573,
  "705": 3574,
  "901": 3575,
  "364": 3576,
  "384": 3577,
  "378": 3578,
  "442": 3579,
  "Memo": 3580,
  "Wiki": 3581,
  "gio": 3582,
  "Point": 3583,
  "VIDIA": 3584,
  "618": 3585,
  "AU": 3586,
  "CBC": 3587,
  "HB": 3588,
  "NVIDIA": 3589,
  "T48": 3590,
  "С": 3591,
  "ы": 3592,
  "rine": 3593,
  "ques": 3594,
  "1610": 3595,
  "1642": 3596,
  "257": 3597,
  "282": 3598,
  "met": 3599,
  "2600": 3600,
  "Stadium": 3601,
  "Sea": 3602,
  "Capi": 3603,
  "Base": 3604,
  "1609": 3605,
  "oney": 3606,
  "llion": 3607,
  "Redmi": 3608,
  "Year": 3609,
  "Talk": 3610,
  "Adobe": 3611,
  "760": 3612,
  "767": 3613,
  "CAN": 3614,
  "Pet": 3615,
  "Set": 3616,
  "U17": 3617,
  "VC": 3618,
  "Won": 3619,
  "Who": 3620,
  "What": 3621,
  "af": 3622,
  "bps": 3623,
  "lk": 3624,
  "ь": 3625,
  "deon": 3626,
  "cio": 3627,
  "tech": 3628,
  "poration": 3629,
  "1585": 3630,
  "1583": 3631,
  "say": 3632,
  "や": 3633,
  "Col": 3634,
  "cas": 3635,
  "583": 3636,
  "wiki": 3637,
  "1807": 3638,
  "ARM": 3639,
  "TeX": 3640,
  "thern": 3641,
  "Cyclo": 3642,
  "Systems": 3643,
  "Metro": 3644,
  "930": 3645,
  "Fal": 3646,
  "FIFA": 3647,
  "JU": 3648,
  "KE": 3649,
  "Lei": 3650,
  "Mel": 3651,
  "OD": 3652,
  "Sche": 3653,
  "ate": 3654,
  "bs": 3655,
  "house": 3656,
  "1623": 3657,
  "274": 3658,
  "Pay": 3659,
  "Archi": 3660,
  "Town": 3661,
  "Niko": 3662,
  "Geo": 3663,
  "﹑": 3664,
  "H2O": 3665,
  "Bru": 3666,
  "Chang": 3667,
  "Eye": 3668,
  "EOS": 3669,
  "FIN": 3670,
  "IEC": 3671,
  "Juni": 3672,
  "pes": 3673,
  "tium": 3674,
  "1571": 3675,
  "1784": 3676,
  "263": 3677,
  "509": 3678,
  "293": 3679,
  "stein": 3680,
  "dies": 3681,
  "rough": 3682,
  "351": 3683,
  "dos": 3684,
  "999": 3685,
  "Deep": 3686,
  "const": 3687,
  "Neo": 3688,
  "Union": 3689,
  "stern": 3690,
  "Key": 3691,
  "rstea": 3692,
  "plex": 3693,
  "ounda": 3694,
  "2200": 3695,
  "428": 3696,
  "AJ": 3697,
  "Dun": 3698,
  "GUN": 3699,
  "pto": 3700,
  "uts": 3701,
  "wing": 3702,
  "xx": 3703,
  "cht": 3704,
  "1620": 3705,
  "1723": 3706,
  "1786": 3707,
  "504": 3708,
  "ュ": 3709,
  "353": 3710,
  "vey": 3711,
  "395": 3712,
  "Mike": 3713,
  "Solaris": 3714,
  "Stra": 3715,
  "some": 3716,
  "private": 3717,
  "Philip": 3718,
  "Cross": 3719,
  "Journal": 3720,
  "DotA": 3721,
  "419": 3722,
  "432": 3723,
  "A3": 3724,
  "Cloud": 3725,
  "FN": 3726,
  "GL": 3727,
  "Has": 3728,
  "SW": 3729,
  "ō": 3730,
  "ander": 3732,
  "1450": 3733,
  "す": 3734,
  "Mau": 3735,
  "Little": 3736,
  "cts": 3737,
  "coun": 3738,
  "Studios": 3739,
  "427": 3740,
  "Cine": 3741,
  "FE": 3742,
  "HIV": 3743,
  "Ima": 3744,
  "K6": 3745,
  "Vin": 3746,
  "VPN": 3747,
  "ace": 3748,
  "hoo": 3749,
  "č": 3750,
  "gel": 3751,
  "zilla": 3752,
  "1577": 3753,
  "1618": 3754,
  "1643": 3755,
  "387": 3756,
  "399": 3757,
  "beth": 3758,
  "Line": 3759,
  "LOVE": 3760,
  "Fleet": 3761,
  "Technology": 3762,
  "317": 3763,
  "331": 3764,
  "345": 3765,
  "512": 3766,
  "565": 3767,
  "Aven": 3768,
  "Bai": 3769,
  "Cr": 3770,
  "FI": 3771,
  "H1": 3772,
  "MY": 3773,
  "R2": 3774,
  "S1": 3775,
  "U18": 3776,
  "USS": 3777,
  "Ultra": 3778,
  "я": 3779,
  "live": 3780,
  "mia": 3781,
  "test": 3782,
  "base": 3783,
  "mol": 3784,
  "hard": 3785,
  "1586": 3786,
  "1777": 3787,
  "1453": 3788,
  "806": 3789,
  "lot": 3790,
  "CDMA": 3791,
  "Stage": 3792,
  "Radeon": 3793,
  "ALL": 3794,
  "Exp": 3795,
  "Valve": 3796,
  "Children": 3797,
  "327": 3798,
  "411": 3799,
  "490": 3800,
  "445": 3801,
  "446": 3802,
  "535": 3803,
  "Ath": 3804,
  "M87": 3805,
  "Of": 3806,
  "Ram": 3807,
  "U23": 3808,
  "Wol": 3809,
  "where": 3810,
  "ê": 3811,
  "lic": 3812,
  "city": 3813,
  "mate": 3814,
  "model": 3815,
  "chie": 3816,
  "sey": 3817,
  "cell": 3818,
  "1521": 3819,
  "oro": 3820,
  "1765": 3821,
  "1774": 3822,
  "ono": 3823,
  "398": 3824,
  "499": 3825,
  "Post": 3826,
  "Multi": 3827,
  "Tay": 3828,
  "BMW": 3829,
  "Centre": 3830,
  "Academy": 3831,
  "Junior": 3832,
  "416": 3833,
  "EMI": 3834,
  "HTC": 3835,
  "KB": 3836,
  "Omega": 3837,
  "kW": 3838,
  "m3": 3839,
  "pter": 3840,
  "stu": 3841,
  "ū": 3842,
  "dina": 3843,
  "das": 3844,
  "1616": 3845,
  "nus": 3846,
  "707": 3847,
  "369": 3848,
  "397": 3849,
  "Pass": 3850,
  "States": 3851,
  "Wire": 3852,
  "Joe": 3853,
  "tiona": 3854,
  "Fede": 3855,
  "GPU": 3856,
  "bility": 3857,
  "Dyna": 3858,
  "613": 3859,
  "Gun": 3860,
  "NR": 3861,
  "WO": 3862,
  "WOR": 3863,
  "ZA": 3864,
  "nor": 3865,
  "η": 3866,
  "Δ": 3867,
  "А": 3868,
  "dard": 3869,
  "rana": 3870,
  "gani": 3871,
  "1564": 3872,
  "1785": 3873,
  "cul": 3874,
  "368": 3875,
  "TVBS": 3876,
  "Demo": 3877,
  "Market": 3878,
  "Bio": 3879,
  "Link": 3880,
  "MySQL": 3881,
  "mission": 3882,
  "3C": 3883,
  "810": 3884,
  "BT": 3885,
  "Jr": 3886,
  "Kh": 3887,
  "Lar": 3888,
  "Sara": 3889,
  "WI": 3890,
  "brea": 3891,
  "eu": 3892,
  "gni": 3893,
  "io": 3894,
  "jor": 3895,
  "Д": 3896,
  "head": 3897,
  "cin": 3898,
  "cifi": 3899,
  "bas": 3900,
  "1662": 3901,
  "include": 3902,
  "266": 3903,
  "291": 3904,
  "588": 3905,
  "Distri": 3906,
  "Next": 3907,
  "Beta": 3908,
  "void": 3909,
  "MOD": 3910,
  "Corporation": 3911,
  "M1A1": 3912,
  "GUNDAM": 3913,
  "316": 3914,
  "537": 3915,
  "621": 3916,
  "742": 3917,
  "CI": 3918,
  "E48": 3919,
  "Eric": 3920,
  "ND": 3921,
  "TI": 3922,
  "cted": 3923,
  "hl": 3924,
  "il": 3925,
  "open": 3926,
  "ë": 3927,
  "ن": 3928,
  "qua": 3929,
  "point": 3930,
  "1540": 3931,
  "1574": 3932,
  "1772": 3933,
  "287": 3934,
  "605": 3935,
  "454": 3936,
  "388": 3937,
  "343": 3938,
  "bes": 3939,
  "888": 3940,
  "Law": 3941,
  "Sub": 3942,
  "Management": 3943,
  "Fried": 3944,
  "Alexander": 3945,
  "425": 3946,
  "475": 3947,
  "MX": 3948,
  "Other": 3949,
  "Sui": 3950,
  "Sar": 3951,
  "flo": 3952,
  "ob": 3953,
  "tine": 3954,
  "lant": 3955,
  "1250": 3956,
  "1619": 3957,
  "1629": 3958,
  "1683": 3959,
  "292": 3960,
  "ros": 3961,
  "363": 3962,
  "376": 3963,
  "STS": 3964,
  "552": 3965,
  "686": 3966,
  "Miss": 3967,
  "Lady": 3968,
  "Final": 3969,
  "add": 3970,
  "Arc": 3971,
  "How": 3972,
  "Augu": 3973,
  "were": 3974,
  "Draw": 3975,
  "Scott": 3976,
  "London": 3977,
  "Cyclol": 3978,
  "627": 3979,
  "BRT": 3980,
  "Dol": 3981,
  "FL": 3982,
  "Tar": 3983,
  "ht": 3984,
  "б": 3985,
  "nico": 3986,
  "＂": 3987,
  "std": 3988,
  "tos": 3989,
  "488": 3990,
  "Mas": 3991,
  "Pas": 3992,
  "fini": 3993,
  "Spot": 3994,
  "Spring": 3996,
  "449": 3997,
  "5A": 3998,
  "625": 3999,
  "738": 4000,
  "Cul": 4001,
  "Fron": 4002,
  "HER": 4003,
  "Land": 4004,
  "PB": 4005,
  "Rue": 4006,
  "Sc": 4007,
  "Tony": 4008,
  "VER": 4009,
  "Wing": 4010,
  "ea": 4011,
  "pper": 4012,
  "sky": 4013,
  "tran": 4014,
  "К": 4015,
  "ana": 4016,
  "rina": 4017,
  "put": 4018,
  "shared": 4019,
  "1590": 4020,
  "1579": 4021,
  "1633": 4022,
  "ナ": 4023,
  "fox": 4024,
  "log": 4025,
  "グ": 4026,
  "Light": 4027,
  "Rose": 4028,
  "1507": 4029,
  "Design": 4030,
  "Lake": 4031,
  "CH2": 4032,
  "Animax": 4033,
  "Earth": 4034,
  "412": 4035,
  "LF": 4036,
  "LR": 4037,
  "Smo": 4038,
  "Sca": 4039,
  "SON": 4040,
  "V8": 4041,
  "п": 4042,
  "ens": 4044,
  "mix": 4045,
  "body": 4046,
  "launch": 4047,
  "1631": 4048,
  "1680": 4049,
  "1773": 4050,
  "294": 4051,
  "407": 4052,
  "cum": 4053,
  "れ": 4054,
  "396": 4055,
  "3300": 4056,
  "Leo": 4057,
  "Family": 4058,
  "1604": 4059,
  "Hami": 4060,
  "Ander": 4061,
  "Party": 4062,
  "PGA": 4063,
  "Drive": 4064,
  "980": 4065,
  "Are": 4066,
  "C4": 4067,
  "Fold": 4068,
  "GC": 4069,
  "Hon": 4070,
  "Kat": 4071,
  "LM": 4072,
  "ada": 4073,
  "cla": 4074,
  "ir": 4075,
  "ini": 4076,
  "yl": 4077,
  "ć": 4078,
  "ə": 4079,
  "ked": 4080,
  "rial": 4081,
  "rius": 4082,
  "1575": 4083,
  "1697": 4084,
  "1755": 4085,
  "1492": 4086,
  "805": 4087,
  "3600": 4088,
  "Mad": 4089,
  "467": 4090,
  "471": 4091,
  "Theo": 4092,
  "Simon": 4093,
  "Secu": 4094,
  "ppy": 4095,
  "mics": 4096,
  "Advan": 4097,
  "﹐": 4098,
  "SKE48": 4099,
  "Round": 4100,
  "Summer": 4101,
  "Thunder": 4102,
  "0x": 4103,
  "319": 4104,
  "Hei": 4105,
  "J2": 4106,
  "Sti": 4107,
  "Swe": 4108,
  "Thi": 4109,
  "XC": 4110,
  "bio": 4111,
  "matic": 4112,
  "1561": 4113,
  "1589": 4114,
  "1595": 4115,
  "1781": 4116,
  "1465": 4117,
  "508": 4118,
  "stre": 4119,
  "テ": 4120,
  "ひ": 4121,
  "344": 4122,
  "589": 4123,
  "1603": 4124,
  "1606": 4125,
  "1607": 4126,
  "kov": 4127,
  "CNBLUE": 4128,
  "Ruby": 4129,
  "Epic": 4130,
  "velopment": 4131,
  "415": 4132,
  "855": 4133,
  "940": 4134,
  "970": 4135,
  "Ir": 4136,
  "Lun": 4137,
  "uage": 4138,
  "x86": 4139,
  "ø": 4140,
  "Å": 4141,
  "ß": 4142,
  "mani": 4144,
  "1522": 4145,
  "1526": 4146,
  "1556": 4147,
  "1613": 4148,
  "1660": 4149,
  "502": 4150,
  "506": 4151,
  "ダ": 4152,
  "377": 4153,
  "478": 4154,
  "554": 4155,
  "Miche": 4156,
  "Vita": 4157,
  "mercial": 4158,
  "Tim": 4159,
  "TOUR": 4160,
  "Williams": 4161,
  "cations": 4162,
  "Hyper": 4163,
  "ountain": 4164,
  "Brian": 4165,
  "이": 4166,
  "☆": 4167,
  "Angela": 4168,
  "Football": 4169,
  "417": 4170,
  "525": 4171,
  "920": 4172,
  "925": 4173,
  "LU": 4174,
  "Moo": 4175,
  "Pon": 4176,
  "UK": 4177,
  "URI": 4178,
  "Wel": 4179,
  "card": 4180,
  "lding": 4181,
  "who": 4182,
  "zzo": 4183,
  "م": 4184,
  "mir": 4185,
  "nio": 4186,
  "baby": 4187,
  "ched": 4188,
  "sure": 4189,
  "second": 4190,
  "1525": 4191,
  "1591": 4192,
  "1667": 4193,
  "408": 4194,
  "485": 4195,
  "643": 4196,
  "AMO": 4197,
  "Fiesta": 4198,
  "Back": 4199,
  "tten": 4200,
  "Steve": 4201,
  "DOHC": 4202,
  "Mont": 4203,
  "Port": 4204,
  "After": 4205,
  "324": 4206,
  "422": 4207,
  "515": 4208,
  "538": 4209,
  "534": 4210,
  "Founda": 4211,
  "Gao": 4212,
  "QS": 4213,
  "Rang": 4214,
  "S4": 4215,
  "Shan": 4216,
  "Syn": 4217,
  "VT": 4218,
  "ah": 4219,
  "mRNA": 4220,
  "xe": 4221,
  "zza": 4222,
  "ē": 4223,
  "1510": 4225,
  "1638": 4226,
  "1730": 4227,
  "only": 4228,
  "pal": 4229,
  "media": 4230,
  "パ": 4231,
  "342": 4232,
  "393": 4233,
  "479": 4234,
  "1508": 4235,
  "Villa": 4236,
  "Mozilla": 4237,
  "Last": 4238,
  "HKT48": 4239,
  "Water": 4240,
  "Walter": 4241,
  "volution": 4242,
  "America": 4243,
  "Surface": 4244,
  "Church": 4245,
  "3200": 4246,
  "531": 4247,
  "546": 4248,
  "Camp": 4249,
  "Clas": 4250,
  "EG": 4251,
  "GHz": 4252,
  "ITV": 4253,
  "Jer": 4254,
  "Mei": 4255,
  "MBA": 4256,
  "TG": 4257,
  "Too": 4258,
  "VS": 4259,
  "bles": 4260,
  "iPS": 4261,
  "phe": 4262,
  "ud": 4263,
  "lish": 4264,
  "mont": 4265,
  "tana": 4266,
  "2028": 4267,
  "1543": 4268,
  "1457": 4269,
  "366": 4270,
  "381": 4271,
  "392": 4272,
  "vie": 4273,
  "History": 4274,
  "Jeff": 4275,
  "place": 4276,
  "1st": 4277,
  "413": 4278,
  "426": 4279,
  "Edu": 4280,
  "F3": 4281,
  "GPS": 4282,
  "Kha": 4283,
  "LZ": 4284,
  "NI": 4285,
  "Rus": 4286,
  "Sor": 4287,
  "Than": 4288,
  "U20": 4289,
  "Wnt": 4290,
  "fb": 4291,
  "ي": 4292,
  "left": 4293,
  "gent": 4294,
  "1565": 4295,
  "1559": 4296,
  "1587": 4297,
  "1597": 4298,
  "†": 4299,
  "1635": 4300,
  "1688": 4301,
  "1733": 4302,
  "1782": 4303,
  "stry": 4304,
  "rat": 4305,
  "606": 4306,
  "ald": 4307,
  "come": 4308,
  "け": 4309,
  "373": 4310,
  "Indu": 4311,
  "ella": 4312,
  "Will": 4313,
  "Albert": 4314,
  "Times": 4315,
  "Austra": 4316,
  "Johnson": 4317,
  "tory": 4318,
  "score": 4319,
  "Jane": 4320,
  "Council": 4321,
  "524": 4322,
  "612": 4323,
  "890": 4324,
  "By": 4325,
  "FS": 4326,
  "Jim": 4327,
  "MR": 4328,
  "Sol": 4329,
  "Tran": 4330,
  "UD": 4331,
  "its": 4332,
  "llow": 4333,
  "£": 4334,
  "П": 4335,
  "ч": 4336,
  "tex": 4337,
  "lva": 4338,
  "1588": 4339,
  "1598": 4340,
  "507": 4341,
  "also": 4342,
  "Cos": 4343,
  "641": 4344,
  "Rep": 4345,
  "495": 4346,
  "682": 4347,
  "666": 4348,
  "ample": 4349,
  "Common": 4350,
  "CLA": 4351,
  "scope": 4352,
  "Place": 4353,
  "Telegram": 4354,
  "Pierre": 4355,
  "Foundation": 4356,
  "332": 4357,
  "4A": 4358,
  "4K": 4359,
  "435": 4360,
  "575": 4361,
  "790": 4362,
  "Astro": 4363,
  "Bad": 4364,
  "TMA": 4365,
  "ese": 4366,
  "ola": 4367,
  "ans": 4368,
  "endo": 4369,
  "lity": 4370,
  "bird": 4371,
  "tish": 4372,
  "tica": 4373,
  "nar": 4374,
  "1523": 4375,
  "1535": 4376,
  "1649": 4377,
  "1661": 4378,
  "1770": 4379,
  "1499": 4380,
  "number": 4381,
  "ram": 4382,
  "ガ": 4383,
  "わ": 4384,
  "361": 4385,
  "466": 4386,
  "391": 4387,
  "....": 4388,
  "vices": 4389,
  "551": 4390,
  "final": 4391,
  "Moder": 4392,
  "Pod": 4393,
  "1601": 4394,
  "PCI": 4395,
  "ality": 4396,
  "TOK": 4397,
  "Francis": 4398,
  "AcFun": 4399,
  "trol": 4400,
  "Flash": 4401,
  "worth": 4402,
  "craft": 4403,
  "Wonder": 4404,
  "528": 4405,
  "5500": 4406,
  "990": 4407,
  "Ant": 4408,
  "Bang": 4409,
  "HTT": 4410,
  "gne": 4411,
  "mitte": 4412,
  "master": 4413,
  "mental": 4414,
  "word": 4415,
  "1511": 4416,
  "1760": 4417,
  "1769": 4418,
  "indu": 4419,
  "sour": 4420,
  "358": 4421,
  "371": 4422,
  "469": 4423,
  "ellow": 4424,
  "684": 4425,
  "587": 4426,
  "Dia": 4427,
  "Story": 4428,
  "ppm": 4429,
  "SMAP": 4430,
  "Andrew": 4431,
  "tribu": 4432,
  "Edge": 4433,
  "active": 4434,
  "Golden": 4435,
  "Explor": 4436,
  "548": 4437,
  "AW": 4438,
  "Kai": 4439,
  "Lui": 4440,
  "Loo": 4441,
  "MAC": 4442,
  "ext": 4443,
  "oni": 4444,
  "sma": 4445,
  "then": 4446,
  "eil": 4447,
  "chy": 4448,
  "20000": 4449,
  "1080": 4450,
  "15000": 4451,
  "1576": 4452,
  "1594": 4453,
  "1689": 4454,
  "362": 4455,
  "383": 4456,
  "llen": 4457,
  "TCP": 4458,
  "341": 4459,
  "Mis": 4460,
  "NASL": 4461,
  "Program": 4462,
  "kia": 4463,
  "Seven": 4464,
  "count": 4465,
  "Soul": 4466,
  "Bridge": 4467,
  "Angel": 4468,
  "kins": 4469,
  "Matthe": 4470,
  "European": 4471,
  "921": 4472,
  "Bun": 4473,
  "L1": 4474,
  "MMC": 4475,
  "NEX": 4476,
  "RB": 4477,
  "Tas": 4478,
  "UFO": 4479,
  "VF": 4480,
  "ef": 4481,
  "zar": 4482,
  "rit": 4484,
  "lius": 4485,
  "tour": 4486,
  "cep": 4487,
  "1811": 4488,
  "1517": 4489,
  "1514": 4490,
  "1578": 4491,
  "1552": 4492,
  "―": 4493,
  "1639": 4494,
  "1684": 4495,
  "608": 4496,
  "cos": 4497,
  "top": 4498,
  "349": 4499,
  "644": 4500,
  "557": 4501,
  "585": 4502,
  "597": 4503,
  "Some": 4504,
  "Not": 4505,
  "gins": 4506,
  "thers": 4507,
  "Dance": 4508,
  "Eliza": 4509,
  "Gamer": 4510,
  "template": 4511,
  "Stephen": 4512,
  "Taylor": 4513,
  "348": 4514,
  "436": 4515,
  "549": 4516,
  "AST": 4517,
  "Bet": 4518,
  "Cre": 4519,
  "DNS": 4520,
  "Fred": 4521,
  "Lam": 4522,
  "RN": 4523,
  "Spa": 4524,
  "TF": 4525,
  "bla": 4526,
  "ic": 4527,
  "sit": 4528,
  "poly": 4529,
  "1763": 4530,
  "1350": 4531,
  "inte": 4532,
  "＋": 4533,
  "403": 4534,
  "908": 4535,
  "Marie": 4536,
  "dore": 4537,
  "6500": 4538,
  "Roman": 4539,
  "1505": 4540,
  "Mega": 4541,
  "View": 4542,
  "777": 4543,
  "Gaga": 4544,
  "Test": 4545,
  "kie": 4546,
  "Cast": 4547,
  "Conne": 4548,
  "MG42": 4549,
  "Christop": 4550,
  "yond": 4551,
  "vernment": 4552,
  "547": 4553,
  "567": 4554,
  "668": 4555,
  "Apo": 4556,
  "C5": 4557,
  "Fai": 4558,
  "FAN": 4559,
  "Jus": 4560,
  "Kon": 4561,
  "NK": 4562,
  "T4": 4563,
  "YOSHI": 4564,
  "fis": 4565,
  "pel": 4566,
  "ppe": 4567,
  "³": 4568,
  "і": 4569,
  "tec": 4570,
  "nas": 4571,
  "1050": 4572,
  "sel": 4573,
  "tant": 4574,
  "pos": 4575,
  "1614": 4576,
  "1720": 4577,
  "374": 4578,
  "CoV": 4579,
  "494": 4580,
  "verse": 4581,
  "lyn": 4582,
  "Never": 4583,
  "Arti": 4584,
  "IDE": 4585,
  "Hit": 4586,
  "Kit": 4587,
  "IPS": 4588,
  "PSP": 4589,
  "People": 4590,
  "UNIX": 4591,
  "Santa": 4592,
  "Just": 4593,
  "Ⅰ": 4594,
  "Phil": 4595,
  "Frame": 4596,
  "IPv4": 4597,
  "Explorer": 4598,
  "514": 4599,
  "522": 4600,
  "545": 4601,
  "568": 4602,
  "619": 4603,
  "675": 4604,
  "Blu": 4605,
  "CSS": 4606,
  "D1": 4607,
  "EBU": 4608,
  "Jor": 4609,
  "KT": 4610,
  "Mountain": 4611,
  "bn": 4612,
  "une": 4613,
  "sie": 4614,
  "siness": 4615,
  "lau": 4616,
  "sea": 4617,
  "1516": 4618,
  "1513": 4619,
  "1534": 4620,
  "1547": 4621,
  "1569": 4622,
  "16V": 4623,
  "1460": 4624,
  "stone": 4625,
  "cula": 4626,
  "で": 4627,
  "359": 4628,
  "tera": 4629,
  "757": 4630,
  "642": 4631,
  "581": 4632,
  "1502": 4633,
  "ctions": 4634,
  "Raw": 4635,
  "Solo": 4636,
  "GeForce": 4637,
  "ร": 4638,
  "SOHC": 4639,
  "Phy": 4640,
  "Sunday": 4641,
  "Arthur": 4642,
  "Karl": 4643,
  "COLLAR": 4644,
  "mittee": 4645,
  "418": 4646,
  "414": 4647,
  "424": 4648,
  "433": 4649,
  "544": 4650,
  "Alan": 4651,
  "CJ": 4652,
  "DTS": 4653,
  "F2": 4654,
  "Inv": 4655,
  "JO": 4656,
  "MMO": 4657,
  "PEN": 4658,
  "Two": 4659,
  "True": 4660,
  "XIV": 4661,
  "rian": 4662,
  "wy": 4663,
  "В": 4664,
  "ering": 4665,
  "sive": 4666,
  "cine": 4667,
  "lands": 4668,
  "mand": 4669,
  "1731": 4670,
  "1768": 4671,
  "1771": 4672,
  "1490": 4673,
  "heir": 4674,
  "news": 4675,
  "409": 4676,
  "ハ": 4677,
  "604": 4678,
  "802": 4679,
  "ケ": 4680,
  "ょ": 4681,
  "ろ": 4682,
  "389": 4683,
  "7500": 4684,
  "394": 4685,
  "been": 4686,
  "476": 4687,
  "493": 4688,
  "Mod": 4689,
  "usta": 4690,
  "Bell": 4691,
  "ERO": 4692,
  "Box": 4693,
  "Hip": 4694,
  "Rift": 4695,
  "Work": 4696,
  "AGE": 4697,
  "Prime": 4698,
  "presen": 4699,
  "FOX": 4700,
  "sort": 4701,
  "while": 4702,
  "JTBC": 4703,
  "⇔": 4704,
  "Cinema": 4705,
  "Avenue": 4706,
  "431": 4707,
  "539": 4708,
  "745": 4709,
  "Ari": 4710,
  "ABS": 4711,
  "Bre": 4712,
  "Dro": 4713,
  "EO": 4714,
  "Ever": 4715,
  "Ita": 4716,
  "Ker": 4717,
  "Lord": 4718,
  "Oh": 4719,
  "V6": 4720,
  "jq": 4721,
  "sk": 4722,
  "ska": 4723,
  "ı": 4724,
  "lica": 4725,
  "bow": 4726,
  "mos": 4727,
  "1593": 4728,
  "1724": 4729,
  "1752": 4730,
  "1469": 4731,
  "1498": 4732,
  "1370": 4733,
  "rows": 4734,
  "え": 4735,
  "gate": 4736,
  "382": 4737,
  "755": 4738,
  "464": 4739,
  "444": 4740,
  "571": 4741,
  "1501": 4742,
  "Victor": 4743,
  "Development": 4744,
  "Mode": 4745,
  "nova": 4746,
  "ginal": 4747,
  "Name": 4748,
  "Kids": 4749,
  "PS3": 4750,
  "prot": 4751,
  "Express": 4752,
  "Court": 4753,
  "British": 4754,
  "Dragon": 4755,
  "AGASA": 4756,
  "Friedrich": 4757,
  "646": 4758,
  "667": 4759,
  "Ash": 4760,
  "Alt": 4761,
  "CIA": 4762,
  "D2": 4763,
  "GW": 4764,
  "Hard": 4765,
  "IRT": 4766,
  "Kei": 4767,
  "M6": 4768,
  "XF": 4769,
  "ZJ": 4770,
  "apo": 4771,
  "bour": 4772,
  "cz": 4773,
  "cca": 4774,
  "est": 4775,
  "free": 4776,
  "dex": 4777,
  "ould": 4778,
  "tify": 4779,
  "shed": 4780,
  "mine": 4781,
  "nament": 4782,
  "1520": 4783,
  "1560": 4784,
  "1553": 4785,
  "1651": 4786,
  "1740": 4787,
  "1493": 4788,
  "602": 4789,
  "904": 4790,
  "town": 4791,
  "cking": 4792,
  "Intelli": 4793,
  "Rea": 4794,
  "496": 4795,
  "498": 4796,
  "443": 4797,
  "Via": 4798,
  "With": 4799,
  "user": 4800,
  "Boys": 4801,
  "Fami": 4802,
  "MAN": 4803,
  "Hotel": 4804,
  "Donald": 4805,
  "Anna": 4806,
  "UNG": 4807,
  "AGUE": 4808,
  "LEAGUE": 4809,
  "quid": 4810,
  "Firefox": 4811,
  "Doug": 4812,
  "्": 4813,
  "Athlon": 4814,
  "611": 4815,
  "645": 4816,
  "945": 4817,
  "Apa": 4818,
  "Again": 4819,
  "C1": 4820,
  "CBA": 4821,
  "DEC": 4822,
  "Ea": 4823,
  "Nat": 4824,
  "Old": 4825,
  "QU": 4826,
  "Tel": 4827,
  "TAM": 4828,
  "U2": 4829,
  "two": 4830,
  "ute": 4831,
  "wis": 4832,
  "xa": 4833,
  "å": 4834,
  "ais": 4836,
  "ergy": 4837,
  "bia": 4838,
  "change": 4839,
  "made": 4840,
  "1596": 4841,
  "1632": 4842,
  "1679": 4843,
  "1718": 4844,
  "1735": 4845,
  "1745": 4846,
  "1758": 4847,
  "25G": 4848,
  "＝": 4849,
  "lty": 4850,
  "culus": 4851,
  "メ": 4852,
  "907": 4853,
  "め": 4854,
  "ゆ": 4855,
  "Machi": 4856,
  "584": 4857,
  "1506": 4858,
  "Dear": 4859,
  "Wild": 4860,
  "Side": 4861,
  "Neu": 4862,
  "Baby": 4863,
  "1605": 4864,
  "Week": 4865,
  "nvest": 4866,
  "produ": 4867,
  "REAM": 4868,
  "Electro": 4869,
  "Standard": 4870,
  "Central": 4871,
  "Health": 4872,
  "Adam": 4873,
  "sional": 4874,
  "Christopher": 4875,
  "YOSHIKI": 4876,
  "050": 4877,
  "439": 4878,
  "533": 4879,
  "731": 4880,
  "732": 4881,
  "741": 4882,
  "762": 4883,
  "962": 4884,
  "Cree": 4885,
  "Dal": 4886,
  "Eve": 4887,
  "Gin": 4888,
  "H3": 4889,
  "ICD": 4890,
  "NU": 4891,
  "Num": 4892,
  "RCP": 4893,
  "Shu": 4894,
  "Sand": 4895,
  "TL": 4896,
  "Tha": 4897,
  "UCLA": 4898,
  "Wood": 4899,
  "ay": 4900,
  "jan": 4901,
  "υ": 4902,
  "ert": 4904,
  "tice": 4905,
  "zed": 4906,
  "1260": 4907,
  "1566": 4908,
  "1725": 4909,
  "1748": 4910,
  "ツ": 4911,
  "706": 4912,
  "よ": 4913,
  "を": 4914,
  "457": 4915,
  "379": 4916,
  "door": 4917,
  "756": 4918,
  "case": 4919,
  "Info": 4920,
  "ssor": 4921,
  "553": 4922,
  "673": 4923,
  "List": 4924,
  "Liber": 4925,
  "574": 4926,
  "576": 4927,
  "Vision": 4928,
  "985": 4929,
  "gia": 4930,
  "Bir": 4931,
  "973": 4932,
  "prise": 4933,
  "Jackson": 4934,
  "AlphaFold": 4935,
  "Mitche": 4936,
  "Capital": 4937,
  "Fleetline": 4938,
  "Angelababy": 4939,
  "Matthew": 4940,
  "516": 4941,
  "617": 4942,
  "639": 4943,
  "722": 4944,
  "735": 4945,
  "DU": 4946,
  "Econo": 4947,
  "HMS": 4948,
  "P2": 4949,
  "Sty": 4950,
  "cter": 4951,
  "eb": 4952,
  "glo": 4953,
  "np": 4954,
  "2050": 4956,
  "cel": 4957,
  "1528": 4958,
  "1572": 4959,
  "1652": 4960,
  "1727": 4961,
  "1761": 4962,
  "1368": 4963,
  "ras": 4964,
  "ワ": 4965,
  "ノ": 4966,
  "als": 4967,
  "356": 4968,
  "704": 4969,
  "482": 4970,
  "655": 4971,
  "brary": 4972,
  "Robin": 4973,
  "ARE": 4974,
  "Fish": 4975,
  "Tower": 4976,
  "state": 4977,
  "Committee": 4978,
  "Pie": 4979,
  "mpson": 4980,
  "BLE": 4981,
  "Harry": 4982,
  "Press": 4983,
  "Mind": 4984,
  "Jones": 4985,
  "Anderson": 4986,
  "Gaon": 4987,
  "Elizabeth": 4988,
  "447": 4989,
  "863": 4990,
  "926": 4991,
  "961": 4992,
  "Cru": 4993,
  "Juan": 4994,
  "LX": 4995,
  "RATP": 4996,
  "Sel": 4997,
  "Sport": 4998,
  "Twin": 4999,
  "VP": 5000,
  "WW": 5001,
  "crea": 5002,
  "gor": 5003,
  "ners": 5004,
  "vor": 5005,
  "wel": 5006,
  "zing": 5007,
  "defea": 5008,
  "lad": 5009,
  "lade": 5010,
  "mod": 5011,
  "1531": 5012,
  "1538": 5013,
  "1647": 5014,
  "1681": 5015,
  "into": 5016,
  "803": 5017,
  "they": 5018,
  "708": 5019,
  "ゃ": 5020,
  "452": 5021,
  "453": 5022,
  "Colspan": 5023,
  "bed": 5024,
  "651": 5025,
  "586": 5026,
  "572": 5027,
  "1504": 5028,
  "Leon": 5029,
  "Beyond": 5030,
  "EDG": 5031,
  "APG": 5032,
  "Basic": 5033,
  "ICA": 5034,
  "fessor": 5035,
  "1701": 5036,
  "alis": 5037,
  "HOME": 5038,
  "Disco": 5039,
  "ccff": 5040,
  "ccccff": 5041,
  "English": 5042,
  "Patrick": 5043,
  "Garden": 5044,
  "Women": 5045,
  "frame": 5046,
  "FINAL": 5047,
  "3M": 5048,
  "438": 5049,
  "511": 5050,
  "933": 5051,
  "ILE": 5052,
  "Jam": 5053,
  "Swi": 5054,
  "Sour": 5055,
  "SNC": 5056,
  "cta": 5057,
  "Ω": 5058,
  "з": 5059,
  "ت": 5060,
  "shop": 5062,
  "lit": 5063,
  "xus": 5064,
  "sum": 5065,
  "link": 5066,
  "1530": 5067,
  "1537": 5068,
  "1736": 5069,
  "＆": 5070,
  "603": 5071,
  "808": 5072,
  "Color": 5073,
  "461": 5074,
  "468": 5075,
  "vity": 5076,
  "681": 5077,
  "kit": 5078,
  "ONG": 5079,
  "1709": 5080,
  "Carl": 5081,
  "Kevin": 5082,
  "Southern": 5083,
  "GameSpot": 5084,
  "Twitch": 5085,
  "Abdu": 5086,
  "JavaScript": 5087,
  "DirectX": 5088,
  "Modern": 5089,
  "3G": 5090,
  "541": 5091,
  "629": 5092,
  "648": 5093,
  "725": 5094,
  "CAR": 5095,
  "ELE": 5096,
  "Main": 5097,
  "NN": 5098,
  "NPC": 5099,
  "P4": 5100,
  "Rh": 5101,
  "URE": 5102,
  "ami": 5103,
  "gran": 5104,
  "mbo": 5105,
  "ovan": 5106,
  "vat": 5107,
  "х": 5108,
  "xis": 5109,
  "dire": 5110,
  "ery": 5111,
  "team": 5112,
  "sul": 5113,
  "super": 5114,
  "redo": 5115,
  "1519": 5116,
  "1529": 5117,
  "1555": 5118,
  "1687": 5119,
  "1728": 5120,
  "mel": 5121,
  "meter": 5122,
  "ポ": 5123,
  "loca": 5124,
  "905": 5125,
  "484": 5126,
  "Maker": 5127,
  "before": 5128,
  "653": 5129,
  "559": 5130,
  "491": 5131,
  "679": 5132,
  "Roy": 5133,
  "fish": 5134,
  "796": 5135,
  "OSS": 5136,
  "Silver": 5137,
  "tton": 5138,
  "Sau": 5139,
  "MAD": 5140,
  "Concer": 5141,
  "ckett": 5142,
  "URL": 5143,
  "AOA": 5144,
  "Yahoo": 5145,
  "Spotify": 5146,
  "ctures": 5147,
  "Prince": 5148,
  "ASCII": 5149,
  "OmegaT": 5150,
  "Framework": 5151,
  "protein": 5152,
  "Mitchell": 5153,
  "423": 5154,
  "536": 5155,
  "632": 5156,
  "715": 5157,
  "825": 5158,
  "833": 5159,
  "Aus": 5160,
  "Area": 5161,
  "B3": 5162,
  "Brea": 5163,
  "CAL": 5164,
  "D9": 5165,
  "Flow": 5166,
  "GRO": 5167,
  "Jes": 5168,
  "K2": 5169,
  "Money": 5170,
  "Mbps": 5171,
  "Nar": 5172,
  "RDS": 5173,
  "That": 5174,
  "df": 5175,
  "pl": 5176,
  "lib": 5177,
  "lim": 5178,
  "sible": 5179,
  "sical": 5180,
  "2035": 5181,
  "rium": 5182,
  "seu": 5183,
  "1120": 5184,
  "wart": 5185,
  "1767": 5186,
  "love": 5187,
  "473": 5188,
  "492": 5189,
  "661": 5190,
  "562": 5191,
  "Viole": 5192,
  "Debian": 5193,
  "Dead": 5194,
  "aso": 5195,
  "Bird": 5196,
  "PS2": 5197,
  "Anne": 5198,
  "Eddie": 5199,
  "Hero": 5200,
  "TRA": 5201,
  "Zico": 5202,
  "signed": 5203,
  "Chrome": 5204,
  "Countdown": 5205,
  "Operation": 5206,
  "Secret": 5207,
  "TOKYO": 5208,
  "Violetta": 5209,
  "339": 5210,
  "429": 5211,
  "532": 5212,
  "665": 5213,
  "775": 5214,
  "769": 5215,
  "Band": 5216,
  "D5": 5217,
  "Fon": 5218,
  "JI": 5219,
  "Off": 5220,
  "R1": 5221,
  "RF": 5222,
  "Ring": 5223,
  "Ron": 5224,
  "SNS": 5225,
  "Tol": 5226,
  "Yan": 5227,
  "gma": 5228,
  "ա": 5229,
  "della": 5230,
  "ound": 5231,
  "tier": 5232,
  "bat": 5233,
  "mentary": 5234,
  "such": 5235,
  "lvin": 5236,
  "see": 5237,
  "1220": 5238,
  "1545": 5239,
  "1664": 5240,
  "1659": 5241,
  "1719": 5242,
  "1495": 5243,
  "1496": 5244,
  "1388": 5245,
  "stor": 5246,
  "702": 5247,
  "703": 5248,
  "dow": 5249,
  "STATION": 5250,
  "vir": 5251,
  "him": 5252,
  "689": 5253,
  "Mil": 5254,
  "Mix": 5255,
  "Like": 5256,
  "692": 5257,
  "798": 5258,
  "Jaco": 5259,
  "Fil": 5260,
  "ERS": 5261,
  "stal": 5262,
  "Stor": 5263,
  "AND": 5264,
  "Anti": 5265,
  "Anth": 5266,
  "graphy": 5267,
  "Steven": 5268,
  "Feli": 5269,
  "IFF": 5270,
  "Henri": 5271,
  "Rail": 5272,
  "cific": 5273,
  "Classic": 5274,
  "010": 5275,
  "434": 5276,
  "636": 5277,
  "729": 5278,
  "761": 5279,
  "878": 5280,
  "Action": 5281,
  "Bus": 5282,
  "E1": 5283,
  "Eri": 5284,
  "E231": 5285,
  "GEN": 5286,
  "Hand": 5287,
  "Iso": 5288,
  "Kur": 5289,
  "L2": 5290,
  "Len": 5291,
  "Mang": 5292,
  "Mus": 5293,
  "PAGASA": 5294,
  "RK": 5295,
  "ZERO": 5296,
  "bble": 5297,
  "ois": 5298,
  "pres": 5299,
  "Б": 5300,
  "М": 5301,
  "ц": 5302,
  "shion": 5304,
  "iana": 5305,
  "rite": 5306,
  "lair": 5307,
  "sell": 5308,
  "gene": 5309,
  "1546": 5310,
  "1549": 5311,
  "1562": 5312,
  "1670": 5313,
  "1690": 5314,
  "1654": 5315,
  "1653": 5316,
  "1694": 5317,
  "1759": 5318,
  "1466": 5319,
  "artic": 5320,
  "モ": 5321,
  "807": 5322,
  "709": 5323,
  "458": 5324,
  "game": 5325,
  "463": 5326,
  "555": 5327,
  "high": 5328,
  "596": 5329,
  "662": 5330,
  "Paris": 5331,
  "gie": 5332,
  "constru": 5333,
  "See": 5334,
  "Stri": 5335,
  "Happy": 5336,
  "Chal": 5337,
  "Interactive": 5338,
  "Johnny": 5339,
  "flight": 5340,
  "Voice": 5341,
  "Guard": 5342,
  "Fox": 5343,
  "Kenne": 5344,
  "FAST": 5345,
  "Build": 5346,
  "HTTP": 5347,
  "12000": 5348,
  "527": 5349,
  "638": 5350,
  "669": 5351,
  "712": 5352,
  "711": 5353,
  "BP": 5354,
  "DREAM": 5355,
  "Hein": 5356,
  "Ing": 5357,
  "IMAX": 5358,
  "K11": 5359,
  "LV": 5360,
  "M5": 5361,
  "NCC": 5362,
  "RSA": 5363,
  "Zen": 5364,
  "kon": 5365,
  "ov": 5366,
  "oli": 5367,
  "pet": 5368,
  "ά": 5369,
  "dica": 5370,
  "rish": 5371,
  "lee": 5372,
  "last": 5373,
  "sung": 5374,
  "cept": 5375,
  "won": 5376,
  "1558": 5377,
  "1581": 5378,
  "1738": 5379,
  "1474": 5380,
  "1375": 5381,
  "pass": 5382,
  "STAT": 5383,
  "477": 5384,
  "Inte": 5385,
  "There": 5386,
  "68000": 5387,
  "ATE": 5388,
  "595": 5389,
  "598": 5390,
  "599": 5391,
  "578": 5392,
  "Stars": 5393,
  "More": 5394,
  "Galant": 5395,
  "stars": 5396,
  "1608": 5397,
  "Chart": 5398,
  "EPA": 5399,
  "program": 5400,
  "dence": 5401,
  "auto": 5402,
  "EXILE": 5403,
  "GPL": 5404,
  "Samuel": 5405,
  "NMB48": 5406,
  "521": 5407,
  "628": 5408,
  "622": 5409,
  "721": 5410,
  "867": 5411,
  "877": 5412,
  "965": 5413,
  "BY": 5414,
  "F5": 5415,
  "Gon": 5416,
  "Jet": 5417,
  "OST": 5418,
  "RX": 5419,
  "Sr": 5420,
  "Schi": 5421,
  "SUP": 5422,
  "VEN": 5423,
  "WP": 5424,
  "ZZ": 5425,
  "ath": 5426,
  "ez": 5427,
  "fin": 5428,
  "fes": 5429,
  "depen": 5430,
  "ril": 5431,
  "lem": 5432,
  "shell": 5433,
  "bora": 5434,
  "lati": 5435,
  "1280": 5436,
  "″": 5437,
  "1665": 5438,
  "1732": 5439,
  "1744": 5440,
  "1756": 5441,
  "1489": 5442,
  "1487": 5443,
  "1340": 5444,
  "000rpm": 5445,
  "cular": 5446,
  "ビ": 5447,
  "906": 5448,
  "ズ": 5449,
  "451": 5450,
  "997": 5451,
  "wski": 5452,
  "gina": 5453,
  "Proto": 5454,
  "Jac": 5455,
  "Stru": 5456,
  "Player": 5457,
  "Business": 5458,
  "Chill": 5459,
  "ckets": 5460,
  "prin": 5461,
  "Anime": 5462,
  "Wilson": 5463,
  "SHOW": 5464,
  "Mount": 5465,
  "Forever": 5466,
  "Security": 5467,
  "Source": 5468,
  "2nd": 5469,
  "519": 5470,
  "517": 5471,
  "624": 5472,
  "623": 5473,
  "835": 5474,
  "876": 5475,
  "938": 5476,
  "954": 5477,
  "951": 5478,
  "Ap": 5479,
  "B9": 5480,
  "CAP": 5481,
  "D3": 5482,
  "EU": 5483,
  "Fw": 5484,
  "Fly": 5485,
  "GDDR": 5486,
  "IMD": 5487,
  "LCD": 5488,
  "Ner": 5489,
  "NIC": 5490,
  "Qt": 5491,
  "Ryan": 5492,
  "YF": 5493,
  "hin": 5494,
  "sse": 5495,
  "vas": 5496,
  "would": 5497,
  "yd": 5498,
  "И": 5499,
  "life": 5501,
  "dine": 5502,
  "far": 5503,
  "leu": 5504,
  "year": 5505,
  "mum": 5506,
  "tura": 5507,
  "mode": 5508,
  "seed": 5509,
  "mail": 5510,
  "1524": 5511,
  "1532": 5512,
  "1584": 5513,
  "1658": 5514,
  "1657": 5515,
  "1699": 5516,
  "1762": 5517,
  "1337": 5518,
  "＞": 5519,
  "tero": 5520,
  "472": 5521,
  "474": 5522,
  "649": 5523,
  "497": 5524,
  "687": 5525,
  "688": 5526,
  "698": 5527,
  "Rober": 5528,
  "579": 5529,
  "784": 5530,
  "Jona": 5531,
  "Dave": 5532,
  "Bike": 5533,
  "Holly": 5534,
  "1406": 5535,
  "Carlos": 5536,
  "DSP": 5537,
  "ा": 5538,
  "SHIN": 5539,
  "Clau": 5540,
  "Smack": 5541,
  "★": 5542,
  "Public": 5543,
  "Computer": 5544,
  "MONSTA": 5545,
  "Touch": 5546,
  "html": 5547,
  "Smosh": 5548,
  "Apache": 5549,
  "054": 5550,
  "616": 5551,
  "719": 5552,
  "865": 5553,
  "946": 5554,
  "988": 5555,
  "DH": 5556,
  "G1": 5557,
  "H4": 5558,
  "H10": 5559,
  "Ky": 5560,
  "Pha": 5561,
  "S3": 5562,
  "Sb": 5563,
  "WHO": 5564,
  "XG": 5565,
  "Zo": 5566,
  "bb": 5567,
  "eg": 5568,
  "used": 5569,
  "æ": 5570,
  "φ": 5571,
  "micro": 5572,
  "cid": 5573,
  "law": 5574,
  "sana": 5575,
  "power": 5576,
  "rel": 5577,
  "ways": 5578,
  "sage": 5579,
  "1668": 5580,
  "1739": 5581,
  "1764": 5582,
  "format": 5583,
  "follow": 5584,
  "dox": 5585,
  "Res": 5586,
  "30000": 5587,
  "Library": 5588,
  "will": 5589,
  "787": 5590,
  "File": 5591,
  "Albu": 5592,
  "PSV": 5593,
  "Take": 5594,
  "1702": 5595,
  "Human": 5596,
  "LLVM": 5597,
  "trie": 5598,
  "Mercu": 5599,
  "Sense": 5600,
  "rowspan": 5601,
  "SmackDown": 5602,
  "052": 5603,
  "421": 5604,
  "437": 5605,
  "614": 5606,
  "626": 5607,
  "637": 5608,
  "815": 5609,
  "816": 5610,
  "975": 5611,
  "Bin": 5612,
  "Echo": 5613,
  "GF": 5614,
  "If": 5615,
  "Ice": 5616,
  "JP": 5617,
  "Mes": 5618,
  "YA": 5619,
  "ZO": 5620,
  "cli": 5621,
  "dley": 5622,
  "kha": 5623,
  "Р": 5624,
  "ene": 5626,
  "bis": 5627,
  "til": 5628,
  "rison": 5629,
  "lein": 5630,
  "most": 5631,
  "0000": 5632,
  "1275": 5633,
  "1536": 5634,
  "pani": 5635,
  "1675": 5636,
  "1464": 5637,
  "rate": 5638,
  "455": 5639,
  "IND": 5640,
  "671": 5641,
  "678": 5642,
  "Jos": 5643,
  "Professor": 5644,
  "Tex": 5645,
  "Cata": 5646,
  "Fashion": 5647,
  "Bit": 5648,
  "Stone": 5649,
  "Histo": 5650,
  "Giovan": 5651,
  "Liner": 5652,
  "1705": 5653,
  "TOWN": 5654,
  "Appli": 5655,
  "Sheet": 5656,
  "lease": 5657,
  "KKBOX": 5658,
  "Christmas": 5659,
  "function": 5660,
  "Championship": 5661,
  "Language": 5662,
  "scape": 5663,
  "Alfredo": 5664,
  "after": 5665,
  "542": 5666,
  "634": 5667,
  "821": 5668,
  "912": 5669,
  "CIT": 5670,
  "Cfb": 5671,
  "DX": 5672,
  "Dur": 5673,
  "Edi": 5674,
  "Hat": 5675,
  "HPV": 5676,
  "MOS": 5677,
  "MIT": 5678,
  "NXT": 5679,
  "SY": 5680,
  "Spin": 5681,
  "SIM": 5682,
  "WH": 5683,
  "Wong": 5684,
  "cam": 5685,
  "fle": 5686,
  "ghe": 5687,
  "group": 5688,
  "vai": 5689,
  "χ": 5690,
  "hea": 5694,
  "liance": 5695,
  "lative": 5696,
  "may": 5697,
  "gency": 5698,
  "rec": 5699,
  "1563": 5700,
  "ort": 5701,
  "1617": 5702,
  "1663": 5703,
  "1685": 5704,
  "1753": 5705,
  "ons": 5706,
  "1477": 5707,
  "1380": 5708,
  "503": 5709,
  "809": 5710,
  "ぎ": 5711,
  "there": 5712,
  "lock": 5713,
  "ソ": 5714,
  "483": 5715,
  "486": 5716,
  "Mach": 5717,
  "Make": 5718,
  "Mate": 5719,
  "754": 5720,
  "cat": 5721,
  "beca": 5722,
  "beat": 5723,
  "656": 5724,
  "Theat": 5725,
  "Rev": 5726,
  "Mid": 5727,
  "676": 5728,
  "ATX": 5729,
  "SAN": 5730,
  "785": 5731,
  "561": 5732,
  "NAS": 5733,
  "ARK": 5734,
  "ARP": 5735,
  "Field": 5736,
  "Siri": 5737,
  "Mars": 5738,
  "kiyo": 5739,
  "ACH": 5740,
  "Board": 5741,
  "Socket": 5742,
  "IPTV": 5743,
  "ANG": 5744,
  "Western": 5745,
  "า": 5746,
  "UNES": 5747,
  "Audio": 5748,
  "rono": 5749,
  "Frances": 5750,
  "Morning": 5751,
  "RCA": 5752,
  "Collection": 5753,
  "Hans": 5754,
  "SpaceX": 5755,
  "Fanta": 5756,
  "Afri": 5757,
  "TWICE": 5758,
  "Circle": 5759,
  "Creative": 5760,
  "Melon": 5761,
  "Wolf": 5762,
  "Industri": 5763,
  "SUPER": 5764,
  "2DS": 5765,
  "518": 5766,
  "526": 5767,
  "566": 5768,
  "716": 5769,
  "714": 5770,
  "765": 5771,
  "764": 5772,
  "744": 5773,
  "826": 5774,
  "847": 5775,
  "918": 5776,
  "936": 5777,
  "Abu": 5778,
  "Ace": 5779,
  "Bei": 5780,
  "BNO": 5781,
  "Cin": 5782,
  "Every": 5783,
  "GI": 5784,
  "Ian": 5785,
  "Kra": 5786,
  "MRI": 5787,
  "Nam": 5788,
  "RP": 5789,
  "SUN": 5790,
  "VIP": 5791,
  "WTT": 5792,
  "Yi": 5793,
  "hp": 5794,
  "inv": 5795,
  "own": 5796,
  "ł": 5797,
  "و": 5798,
  "ant": 5802,
  "cious": 5803,
  "dus": 5804,
  "multi": 5805,
  "teen": 5806,
  "mary": 5807,
  "1024": 5808,
  "1669": 5809,
  "1656": 5810,
  "1672": 5811,
  "1692": 5812,
  "1754": 5813,
  "1420": 5814,
  "1480": 5815,
  "ink": 5816,
  "lvet": 5817,
  "751": 5818,
  "cap": 5819,
  "658": 5820,
  "vio": 5821,
  "594": 5822,
  "wick": 5823,
  "791": 5824,
  "Wit": 5825,
  "AMC": 5826,
  "AMP": 5827,
  "Cathe": 5828,
  "Right": 5829,
  "Sul": 5830,
  "ITA": 5831,
  "1704": 5832,
  "1708": 5833,
  "Ware": 5834,
  "Wave": 5835,
  "Fort": 5836,
  "AGP": 5837,
  "MLB": 5838,
  "Here": 5839,
  "Future": 5840,
  "DMR": 5841,
  "Shine": 5842,
  "Clark": 5843,
  "Planet": 5844,
  "logical": 5845,
  "partment": 5846,
  "Front": 5847,
  "Moore": 5848,
  "2B": 5849,
  "713": 5850,
  "727": 5851,
  "748": 5852,
  "768": 5853,
  "875": 5854,
  "915": 5855,
  "929": 5856,
  "947": 5857,
  "BIG": 5858,
  "CYP": 5859,
  "EBS": 5860,
  "From": 5861,
  "Gian": 5862,
  "Isa": 5863,
  "ISA": 5864,
  "Jason": 5865,
  "NICO": 5866,
  "OME": 5867,
  "R3": 5868,
  "Ster": 5869,
  "Trai": 5870,
  "UF": 5871,
  "VIS": 5872,
  "XIII": 5873,
  "aw": 5874,
  "ior": 5875,
  "ski": 5876,
  "syn": 5877,
  "uer": 5878,
  "xc": 5879,
  "Т": 5880,
  "س": 5881,
  "anti": 5882,
  "under": 5883,
  "bury": 5884,
  "chus": 5885,
  "hout": 5886,
  "teau": 5887,
  "mari": 5888,
  "1075": 5889,
  "1277": 5890,
  "1279": 5891,
  "1276": 5892,
  "1111": 5893,
  "1440": 5894,
  "1488": 5895,
  "1472": 5896,
  "1371": 5897,
  "road": 5898,
  "ョ": 5899,
  "902": 5900,
  "489": 5901,
  "Indian": 5902,
  "699": 5903,
  "992": 5904,
  "881": 5905,
  "986": 5906,
  "twe": 5907,
  "Jay": 5908,
  "confi": 5909,
  "contribu": 5910,
  "APM": 5911,
  "1602": 5912,
  "commercial": 5913,
  "gos": 5914,
  "Bug": 5915,
  "Interplay": 5916,
  "cross": 5917,
  "AIM": 5918,
  "REAS": 5919,
  "CRH5": 5920,
  "Greg": 5921,
  "Vogue": 5922,
  "Version": 5923,
  "Walker": 5924,
  "Wilhe": 5925,
  "ddle": 5926,
  "Jimmy": 5927,
  "Building": 5928,
  "Opera": 5929,
  "District": 5930,
  "Thunderbird": 5931,
  "Sweet": 5932,
  "Films": 5933,
  "030": 5934,
  "633": 5935,
  "778": 5936,
  "812": 5937,
  "955": 5938,
  "957": 5939,
  "C3": 5940,
  "C14": 5941,
  "EY": 5942,
  "Fol": 5943,
  "LNG": 5944,
  "LIF": 5945,
  "MIC": 5946,
  "NY": 5947,
  "Nint": 5948,
  "POS": 5949,
  "RSS": 5950,
  "SAT": 5951,
  "Tam": 5952,
  "TNT": 5953,
  "Var": 5954,
  "Where": 5955,
  "ato": 5956,
  "cco": 5957,
  "d4": 5958,
  "gli": 5959,
  "spo": 5960,
  "tsu": 5961,
  "their": 5962,
  "ý": 5963,
  "ب": 5964,
  "د": 5965,
  "shire": 5966,
  "ends": 5967,
  "dad": 5968,
  "tino": 5969,
  "rice": 5970,
  "cies": 5971,
  "lain": 5972,
  "band": 5973,
  "minal": 5974,
  "laun": 5975,
  "tury": 5976,
  "002": 5977,
  "004": 5978,
  "1230": 5979,
  "longi": 5980,
  "1527": 5981,
  "1611": 5982,
  "せ": 5983,
  "487": 5984,
  "vement": 5985,
  "INT": 5986,
  "Information": 5987,
  "vich": 5988,
  "vier": 5989,
  "558": 5990,
  "685": 5991,
  "hol": 5992,
  "577": 5993,
  "781": 5994,
  "Page": 5995,
  "pert": 5996,
  "792": 5997,
  "794": 5998,
  "WiMAX": 5999,
  "981": 6000,
  "CO2": 6001,
  "ARC": 6002,
  "Jalan": 6003,
  "Six": 6004,
  "Say": 6005,
  "fect": 6006,
  "mers": 6007,
  "Nick": 6008,
  "Gemini": 6009,
  "Energy": 6010,
  "Stewart": 6011,
  "1122": 6012,
  "RES": 6013,
  "ESPN": 6014,
  "Trickett": 6015,
  "Asian": 6016,
  "Allen": 6017,
  "Stop": 6018,
  "Thompson": 6019,
  "Portable": 6020,
  "Velvet": 6021,
  "Quin": 6022,
  "show": 6023,
  "아": 6024,
  "Jonathan": 6025,
  "Nintendo": 6027,
  "070": 6028,
  "543": 6029,
  "615": 6030,
  "717": 6031,
  "828": 6032,
  "839": 6033,
  "939": 6034,
  "Azu": 6035,
  "Bas": 6036,
  "Cel": 6037,
  "E2": 6038,
  "FD": 6039,
  "G2": 6040,
  "GG": 6041,
  "Gy": 6042,
  "KS": 6043,
  "MED": 6044,
  "N1": 6045,
  "Pur": 6046,
  "Quan": 6047,
  "RY": 6048,
  "S7": 6049,
  "UFC": 6050,
  "V1": 6051,
  "V2": 6052,
  "Xi": 6053,
  "ave": 6054,
  "bui": 6055,
  "esa": 6056,
  "m2": 6057,
  "ppa": 6058,
  "tent": 6059,
  "dale": 6062,
  "tiful": 6063,
  "pis": 6064,
  "major": 6065,
  "based": 6066,
  "water": 6067,
  "1512": 6068,
  "1541": 6069,
  "1666": 6070,
  "1721": 6071,
  "1726": 6072,
  "1737": 6073,
  "1747": 6074,
  "1743": 6075,
  "1741": 6076,
  "1430": 6077,
  "25000": 6078,
  "medi": 6079,
  "rad": 6080,
  "481": 6081,
  "Match": 6082,
  "674": 6083,
  "Liquid": 6084,
  "697": 6085,
  "host": 6086,
  "889": 6087,
  "Deuts": 6088,
  "fit": 6089,
  "982": 6090,
  "989": 6091,
  "Titan": 6092,
  "PCR": 6093,
  "น": 6094,
  "AVE": 6095,
  "Hub": 6096,
  "Adven": 6097,
  "NHS": 6098,
  "Grace": 6099,
  "Sher": 6100,
  "Enterprise": 6101,
  "hyth": 6102,
  "Productions": 6103,
  "Bruce": 6104,
  "Douglas": 6105,
  "2TV": 6106,
  "513": 6107,
  "846": 6108,
  "866": 6109,
  "857": 6110,
  "B12": 6111,
  "Cong": 6112,
  "Fair": 6113,
  "Gary": 6114,
  "HY": 6115,
  "J1": 6116,
  "JXG": 6117,
  "Oculus": 6118,
  "TD": 6119,
  "WM": 6120,
  "again": 6121,
  "ey": 6122,
  "kHz": 6123,
  "nge": 6124,
  "kee": 6125,
  "mium": 6126,
  "quali": 6127,
  "bov": 6128,
  "bach": 6129,
  "nae": 6130,
  "1217": 6131,
  "1274": 6132,
  "gener": 6133,
  "ponen": 6134,
  "1515": 6135,
  "1542": 6136,
  "1712": 6137,
  "1711": 6138,
  "1715": 6139,
  "1435": 6140,
  "1456": 6141,
  "1328": 6142,
  "1385": 6143,
  "forman": 6144,
  "pas": 6145,
  "cola": 6146,
  "ぶ": 6147,
  "4800": 6148,
  "dol": 6149,
  "3400": 6150,
  "IIT": 6151,
  "Rosa": 6152,
  "Roger": 6153,
  "1509": 6154,
  "Staff": 6155,
  "asy": 6156,
  "gir": 6157,
  "Dick": 6158,
  "Window": 6159,
  "ISC": 6160,
  "971": 6161,
  "Kill": 6162,
  "Hay": 6163,
  "Nove": 6164,
  "ASH": 6165,
  "Netscape": 6166,
  "talk": 6167,
  "IGHT": 6168,
  "Shop": 6169,
  "GP40": 6170,
  "Drama": 6171,
  "hydro": 6172,
  "bridge": 6173,
  "nics": 6174,
  "Surf": 6175,
  "Pentium": 6176,
  "facebook": 6177,
  "Tennis": 6178,
  "Princess": 6179,
  "Pink": 6180,
  "Delta": 6181,
  "SHINee": 6182,
  "055": 6183,
  "647": 6184,
  "728": 6185,
  "726": 6186,
  "811": 6187,
  "913": 6188,
  "Brun": 6189,
  "CZ": 6190,
  "CCD": 6191,
  "COS": 6192,
  "Hai": 6193,
  "Ia": 6194,
  "Mg": 6195,
  "Pr": 6196,
  "Sang": 6197,
  "Snow": 6198,
  "TAI": 6199,
  "Uta": 6200,
  "Wai": 6201,
  "Wer": 6202,
  "Woo": 6203,
  "Zero": 6204,
  "ctus": 6205,
  "done": 6206,
  "kra": 6207,
  "oc": 6208,
  "pr": 6209,
  "zzi": 6210,
  "ί": 6211,
  "ζ": 6212,
  "iano": 6213,
  "tage": 6214,
  "cision": 6215,
  "pia": 6216,
  "nity": 6217,
  "shark": 6218,
  "1150": 6219,
  "1544": 6220,
  "1757": 6221,
  "1424": 6222,
  "1470": 6223,
  "1454": 6224,
  "array": 6225,
  "2900": 6226,
  "room": 6227,
  "909": 6228,
  "459": 6229,
  "3700": 6230,
  "759": 6231,
  "Coo": 6232,
  "bet": 6233,
  "STER": 6234,
  "672": 6235,
  "582": 6236,
  "ATS": 6237,
  "vers": 6238,
  "home": 6239,
  "591": 6240,
  "993": 6241,
  "SAP": 6242,
  "gion": 6243,
  "Division": 6244,
  "Lost": 6245,
  "Bow": 6246,
  "meral": 6247,
  "Kir": 6248,
  "Nicho": 6249,
  "Tac": 6250,
  "project": 6251,
  "DSL": 6252,
  "eria": 6253,
  "France": 6254,
  "unique": 6255,
  "Universal": 6256,
  "Gene": 6257,
  "hammad": 6258,
  "dget": 6259,
  "works": 6260,
  "Ⅲ": 6261,
  "IMF": 6262,
  "England": 6263,
  "struct": 6264,
  "Benja": 6265,
  "brid": 6266,
  "CGTN": 6267,
  "Louise": 6268,
  "Antonio": 6269,
  "Archite": 6270,
  "CDMA2000": 6271,
  "WORLD": 6272,
  "RepRap": 6273,
  "Mission": 6274,
  "seudo": 6275,
  "Hollywood": 6276,
  "823": 6277,
  "829": 6278,
  "927": 6279,
  "935": 6280,
  "A5": 6281,
  "Aer": 6282,
  "Ball": 6283,
  "Emi": 6284,
  "F7": 6285,
  "Fl": 6286,
  "Four": 6287,
  "GIS": 6288,
  "JC": 6289,
  "KN": 6290,
  "Know": 6291,
  "LMS": 6292,
  "LPL": 6293,
  "Ral": 6294,
  "TB": 6295,
  "USE": 6296,
  "WD": 6297,
  "bran": 6298,
  "cken": 6299,
  "ev": 6300,
  "fts": 6301,
  "mun": 6302,
  "og": 6303,
  "scien": 6304,
  "vard": 6305,
  "lier": 6306,
  "licon": 6307,
  "big": 6308,
  "being": 6309,
  "mical": 6310,
  "rier": 6311,
  "sets": 6312,
  "ceae": 6313,
  "1235": 6314,
  "1264": 6315,
  "1554": 6316,
  "order": 6317,
  "1722": 6318,
  "1734": 6319,
  "1766": 6320,
  "1471": 6321,
  "1330": 6322,
  "1390": 6323,
  "neu": 6324,
  "ネ": 6325,
  "609": 6326,
  "them": 6327,
  "Makiyo": 6328,
  "llon": 6329,
  "beta": 6330,
  "652": 6331,
  "659": 6332,
  "sser": 6333,
  "Remix": 6334,
  "ped": 6335,
  "695": 6336,
  "573": 6337,
  "783": 6338,
  "Victo": 6339,
  "Dean": 6340,
  "ghter": 6341,
  "fied": 6342,
  "berry": 6343,
  "771": 6344,
  "Wind": 6345,
  "Motor": 6346,
  "Gate": 6347,
  "Sie": 6348,
  "Care": 6349,
  "Alliance": 6350,
  "Hop": 6351,
  "sters": 6352,
  "Buzz": 6353,
  "∈": 6354,
  "Shot": 6355,
  "Kelly": 6356,
  "AAA": 6357,
  "DOCO": 6358,
  "serva": 6359,
  "Original": 6360,
  "Brothers": 6361,
  "Organi": 6362,
  "Active": 6363,
  "Philli": 6364,
  "AlphaGo": 6365,
  "Paradox": 6366,
  "Virgi": 6367,
  "about": 6368,
  "Engineering": 6369,
  "ECTION": 6370,
  "tournament": 6371,
  "Creek": 6372,
  "defeated": 6373,
  "Concert": 6374,
  "trieved": 6375,
  "Surfshark": 6376,
  "1180": 6377,
  "3100": 6378,
  "529": 6379,
  "724": 6380,
  "736": 6381,
  "832": 6382,
  "932": 6383,
  "967": 6384,
  "976": 6385,
  "Arena": 6386,
  "BEST": 6387,
  "DN": 6388,
  "F6": 6389,
  "FG": 6390,
  "Gas": 6391,
  "HM": 6392,
  "HQ": 6393,
  "Hoo": 6394,
  "Jar": 6395,
  "KA": 6396,
  "Kun": 6397,
  "Kam": 6398,
  "Mun": 6399,
  "N3": 6400,
  "NON": 6401,
  "OL": 6402,
  "Ol": 6403,
  "Oly": 6404,
  "PRE": 6405,
  "RAD": 6406,
  "SRAM": 6407,
  "U16": 6408,
  "VCD": 6409,
  "XY": 6410,
  "gers": 6411,
  "good": 6412,
  "ides": 6413,
  "kt": 6414,
  "pm": 6415,
  "xon": 6416,
  "½": 6417,
  "ã": 6418,
  "ό": 6419,
  "О": 6420,
  "י": 6421,
  "deri": 6423,
  "enger": 6424,
  "ledge": 6425,
  "mina": 6426,
  "boot": 6427,
  "teo": 6428,
  "tua": 6429,
  "tance": 6430,
  "1557": 6431,
  "1551": 6432,
  "1655": 6433,
  "1678": 6434,
  "1696": 6435,
  "1746": 6436,
  "1749": 6437,
  "1475": 6438,
  "1441": 6439,
  "1484": 6440,
  "1399": 6441,
  "string": 6442,
  "rap": 6443,
  "Maxi": 6444,
  "752": 6445,
  "Cooper": 6446,
  "683": 6447,
  "Rod": 6448,
  "Ross": 6449,
  "Tea": 6450,
  "874": 6451,
  "Marga": 6452,
  "ACS": 6453,
  "static": 6454,
  "Str": 6455,
  "Unit": 6456,
  "1402": 6457,
  "ม": 6458,
  "Peace": 6459,
  "Mana": 6460,
  "cyclo": 6461,
  "CRH": 6462,
  "Prize": 6463,
  "BMT": 6464,
  "Hulu": 6465,
  "Broad": 6466,
  "Brook": 6467,
  "Reddit": 6468,
  "Allstars": 6469,
  "Morgan": 6470,
  "Valley": 6471,
  "Holdings": 6472,
  "GMMTV": 6473,
  "VOCAL": 6474,
  "origin": 6475,
  "Palazzo": 6476,
  "Urban": 6477,
  "IPv6": 6478,
  "Rainbow": 6479,
  "Premier": 6480,
  "small": 6481,
  "PENOME": 6482,
  "fessional": 6483,
  "Mercury": 6484,
  "DOCOMO": 6485,
  "PENOMECO": 6486,
  "635": 6487,
  "864": 6488,
  "931": 6489,
  "937": 6490,
  "956": 6491,
  "972": 6492,
  "Edition": 6493,
  "Fren": 6494,
  "Fall": 6495,
  "FIR": 6496,
  "Jin": 6497,
  "Kw": 6498,
  "Kor": 6499,
  "Lyn": 6500,
  "NAT": 6501,
  "PRI": 6502,
  "Sue": 6503,
  "Tang": 6504,
  "bber": 6505,
  "flow": 6506,
  "hon": 6507,
  "mme": 6508,
  "thu": 6509,
  "Ö": 6510,
  "ŋ": 6511,
  "ш": 6512,
  "enne": 6514,
  "chs": 6515,
  "distri": 6516,
  "gus": 6517,
  "nical": 6518,
  "lav": 6519,
  "match": 6520,
  "nard": 6521,
  "1020": 6522,
  "1010": 6523,
  "rance": 6524,
  "1266": 6525,
  "1261": 6526,
  "poem": 6527,
  "1641": 6528,
  "1751": 6529,
  "1346": 6530,
  "path": 6531,
  "nest": 6532,
  "ね": 6533,
  "three": 6534,
  "through": 6535,
  "gas": 6536,
  "TCH": 6537,
  "cau": 6538,
  "Mir": 6539,
  "Mira": 6540,
  "Miller": 6541,
  "995": 6542,
  "884": 6543,
  "885": 6544,
  "886": 6545,
  "Pau": 6546,
  "YouBike": 6547,
  "Leona": 6548,
  "Ted": 6549,
  "Sid": 6550,
  "Sig": 6551,
  "Sep": 6552,
  "ISP": 6553,
  "ISS": 6554,
  "Lock": 6555,
  "Hig": 6556,
  "Ann": 6557,
  "Head": 6558,
  "Word": 6559,
  "AGM": 6560,
  "M1A2": 6561,
  "CLOS": 6562,
  "CSI": 6563,
  "phic": 6564,
  "Samsung": 6565,
  "YOU": 6566,
  "Small": 6567,
  "County": 6568,
  "Watch": 6569,
  "Beautiful": 6570,
  "Daily": 6571,
  "August": 6572,
  "username": 6573,
  "Twins": 6574,
  "Giovanni": 6575,
  "Theatre": 6576,
  "Wilhelm": 6577,
  "Benjamin": 6578,
  "060": 6579,
  "564": 6580,
  "664": 6581,
  "817": 6582,
  "831": 6583,
  "853": 6584,
  "919": 6585,
  "958": 6586,
  "942": 6587,
  "959": 6588,
  "979": 6589,
  "BW": 6590,
  "Chen": 6591,
  "Ec": 6592,
  "FK": 6593,
  "FNC": 6594,
  "GUI": 6595,
  "Hg": 6596,
  "IATA": 6597,
  "Invest": 6598,
  "JB": 6599,
  "NL": 6600,
  "Nel": 6601,
  "OC": 6602,
  "PU": 6603,
  "PX": 6604,
  "PDF": 6605,
  "QR": 6606,
  "UCC": 6607,
  "ama": 6608,
  "cry": 6609,
  "gb": 6610,
  "gger": 6611,
  "hor": 6612,
  "mba": 6613,
  "thus": 6614,
  "Σ": 6615,
  "Н": 6616,
  "xit": 6617,
  "eron": 6618,
  "site": 6619,
  "fari": 6620,
  "family": 6621,
  "motion": 6622,
  "pine": 6623,
  "1284": 6624,
  "2029": 6625,
  "1673": 6626,
  "1713": 6627,
  "1425": 6628,
  "1468": 6629,
  "1382": 6630,
  "former": 6631,
  "archi": 6632,
  "member": 6633,
  "ボ": 6634,
  "804": 6635,
  "ど": 6636,
  "3800": 6637,
  "Made": 6638,
  "Colo": 6639,
  "657": 6640,
  "ATI": 6641,
  "Department": 6642,
  "CONC": 6643,
  "AMX": 6644,
  "ARI": 6645,
  "Gau": 6646,
  "873": 6647,
  "1204": 6648,
  "varia": 6649,
  "ICC": 6650,
  "Factory": 6651,
  "Howard": 6652,
  "Hil": 6653,
  "Docu": 6654,
  "Haw": 6655,
  "Pia": 6656,
  "ั": 6657,
  "Caro": 6658,
  "CR400": 6659,
  "Services": 6660,
  "SPA": 6661,
  "odon": 6662,
  "Nord": 6663,
  "Disc": 6664,
  "creen": 6665,
  "Flag": 6666,
  "Trust": 6667,
  "LAND": 6668,
  "Hunter": 6669,
  "Federation": 6670,
  "break": 6671,
  "Education": 6672,
  "Jordan": 6673,
  "contributor": 6674,
  "569": 6675,
  "631": 6676,
  "788": 6677,
  "827": 6678,
  "845": 6679,
  "852": 6680,
  "A330": 6681,
  "B7": 6682,
  "BMP": 6683,
  "Evan": 6684,
  "G6": 6685,
  "GIR": 6686,
  "IQ": 6687,
  "Kris": 6688,
  "Pel": 6689,
  "RER": 6690,
  "Swing": 6691,
  "TTC": 6692,
  "YS": 6693,
  "feld": 6694,
  "gam": 6695,
  "ibn": 6696,
  "kno": 6697,
  "lling": 6698,
  "ă": 6699,
  "hel": 6701,
  "sil": 6702,
  "tara": 6703,
  "yes": 6704,
  "mur": 6705,
  "lines": 6706,
  "child": 6707,
  "chaft": 6708,
  "1227": 6709,
  "1283": 6710,
  "1291": 6711,
  "hau": 6712,
  "haus": 6713,
  "1539": 6714,
  "1695": 6715,
  "1682": 6716,
  "1710": 6717,
  "1481": 6718,
  "1356": 6719,
  "meo": 6720,
  "nett": 6721,
  "ベ": 6722,
  "ふ": 6723,
  "Mala": 6724,
  "India": 6725,
  "virus": 6726,
  "Regu": 6727,
  "441": 6728,
  "677": 6729,
  "691": 6730,
  "Rob": 6731,
  "Robo": 6732,
  "991": 6733,
  "Def": 6734,
  "797": 6735,
  "897": 6736,
  "Raja": 6737,
  "ACG": 6738,
  "ady": 6739,
  "Cali": 6740,
  "APS": 6741,
  "nensis": 6742,
  "Hope": 6743,
  "Kiss": 6744,
  "Kiwi": 6745,
  "Nike": 6746,
  "Nokia": 6747,
  "1405": 6748,
  "Gem": 6749,
  "END": 6750,
  "1707": 6751,
  "Card": 6752,
  "1124": 6753,
  "MIR": 6754,
  "crip": 6755,
  "cked": 6756,
  "र": 6757,
  "Hart": 6758,
  "trix": 6759,
  "EXO": 6760,
  "Access": 6761,
  "Esmeral": 6762,
  "mpic": 6763,
  "losing": 6764,
  "HSCR": 6765,
  "Single": 6766,
  "Associa": 6767,
  "Smart": 6768,
  "Virtual": 6769,
  "DKZ": 6770,
  "Double": 6771,
  "Songs": 6772,
  "Premium": 6773,
  "Change": 6774,
  "counter": 6775,
  "WireGuard": 6776,
  "Russell": 6777,
  "Number": 6778,
  "Style": 6779,
  "Discovery": 6780,
  "tween": 6781,
  "Nicholas": 6782,
  "020": 6783,
  "2K": 6784,
  "3166": 6785,
  "523": 6786,
  "842": 6787,
  "841": 6788,
  "977": 6789,
  "AY": 6790,
  "Ae": 6791,
  "A320": 6792,
  "Bour": 6793,
  "Chai": 6794,
  "Crai": 6795,
  "D4": 6796,
  "EB": 6797,
  "Even": 6798,
  "GRE": 6799,
  "Ini": 6800,
  "JDG": 6801,
  "Khan": 6802,
  "Ou": 6803,
  "O305": 6804,
  "Pun": 6805,
  "P10": 6806,
  "Pres": 6807,
  "RMS": 6808,
  "Ryo": 6809,
  "TEP": 6810,
  "VHS": 6811,
  "Wri": 6812,
  "Wall": 6813,
  "Wright": 6814,
  "W3C": 6815,
  "XM": 6816,
  "Zn": 6817,
  "dl": 6818,
  "edu": 6819,
  "fai": 6820,
  "hd": 6821,
  "ire": 6822,
  "ome": 6823,
  "what": 6824,
  "µ": 6825,
  "ð": 6826,
  "û": 6827,
  "Г": 6828,
  "jito": 6829,
  "dele": 6830,
  "eign": 6831,
  "your": 6832,
  "dam": 6833,
  "date": 6834,
  "human": 6835,
  "sir": 6836,
  "bina": 6837,
  "zie": 6838,
  "fau": 6839,
  "tau": 6840,
  "tax": 6841,
  "tale": 6842,
  "cir": 6843,
  "yed": 6844,
  "nik": 6845,
  "lae": 6846,
  "mothy": 6847,
  "1066": 6848,
  "double": 6849,
  "seo": 6850,
  "1241": 6851,
  "1295": 6852,
  "quet": 6853,
  "1130": 6854,
  "1433": 6855,
  "1449": 6856,
  "1376": 6857,
  "1001": 6858,
  "ば": 6859,
  "ご": 6860,
  "セ": 6861,
  "thro": 6862,
  "Maj": 6863,
  "462": 6864,
  "between": 6865,
  "696": 6866,
  "SAE": 6867,
  "786": 6868,
  "563": 6869,
  "peria": 6870,
  "nos": 6871,
  "Array": 6872,
  "Alber": 6873,
  "stamp": 6874,
  "Hospi": 6875,
  "fee": 6876,
  "feat": 6877,
  "Domini": 6878,
  "Pictures": 6879,
  "PCS": 6880,
  "1703": 6881,
  "ECE": 6882,
  "sions": 6883,
  "CHO": 6884,
  "Andy": 6885,
  "ADA": 6886,
  "Order": 6887,
  "Guy": 6888,
  "march": 6889,
  "timestamp": 6890,
  "Blood": 6891,
  "typedef": 6892,
  "Taipei": 6893,
  "Ship": 6894,
  "third": 6895,
  "FreeBSD": 6896,
  "Valen": 6897,
  "Stand": 6898,
  "Talking": 6899,
  "Cl2": 6900,
  "Memorial": 6901,
  "Stadiums": 6902,
  "Advanced": 6903,
  "Drop": 6904,
  "Jacob": 6905,
  "Anthony": 6906,
  "Challeng": 6907,
  "Esmeralda": 6908,
  "4D": 6909,
  "749": 6910,
  "766": 6911,
  "799": 6912,
  "838": 6913,
  "844": 6914,
  "843": 6915,
  "854": 6916,
  "968": 6917,
  "Ay": 6918,
  "Ave": 6919,
  "B6": 6920,
  "Call": 6921,
  "Candy": 6922,
  "FB": 6923,
  "G3": 6924,
  "IZ": 6925,
  "Iron": 6926,
  "Non": 6927,
  "OBE": 6928,
  "Rd": 6929,
  "Ris": 6930,
  "RIA": 6931,
  "Sei": 6932,
  "Tin": 6933,
  "TREAS": 6934,
  "WB": 6935,
  "ata": 6936,
  "aes": 6937,
  "bye": 6938,
  "ech": 6939,
  "ear": 6940,
  "series": 6941,
  "true": 6942,
  "��": 6943,
  "any": 6945,
  "diffe": 6946,
  "bital": 6947,
  "mid": 6948,
  "rid": 6949,
  "muse": 6950,
  "mala": 6951,
  "nam": 6952,
  "1290": 6953,
  "1265": 6954,
  "1262": 6955,
  "1286": 6956,
  "post": 6957,
  "hara": 6958,
  "1729": 6959,
  "1742": 6960,
  "1438": 6961,
  "1459": 6962,
  "height": 6963,
  "１": 6964,
  "rome": 6965,
  "str": 6966,
  "ェ": 6967,
  "ゅ": 6968,
  "Cole": 6969,
  "ReMi": 6970,
  "ette": 6971,
  "Lip": 6972,
  "Lisa": 6973,
  "663": 6974,
  "Med": 6975,
  "Mee": 6976,
  "Mojito": 6977,
  "ARS": 6978,
  "Diplo": 6979,
  "Finan": 6980,
  "APEC": 6981,
  "Faker": 6982,
  "Nature": 6983,
  "DoReMi": 6984,
  "Nova": 6985,
  "ROR": 6986,
  "Government": 6987,
  "vant": 6988,
  "service": 6989,
  "exe": 6990,
  "●": 6991,
  "BLACK": 6992,
  "parti": 6993,
  "Score": 6994,
  "Country": 6995,
  "friDay": 6996,
  "Johann": 6997,
  "metry": 6998,
  "Australian": 6999,
  "𪸩": 7000,
  "shi ": 7001,
  "de ": 7002,
  " shi ": 7003,
  " de ": 7004,
  "yi ": 7005,
  " yi ": 7006,
  "ji ": 7007,
  "wei ": 7008,
  "zhi ": 7009,
  "yu ": 7010,
  " wei ": 7011,
  " ji ": 7012,
  " nian": 7013,
  " zhi ": 7014,
  " yu ": 7015,
  " li": 7016,
  " nian ": 7017,
  "zhong ": 7018,
  " li ": 7019,
  "zai ": 7020,
  " you": 7021,
  "ren ": 7022,
  "guo ": 7023,
  "he ": 7024,
  "qi ": 7025,
  "bu ": 7026,
  " you ": 7027,
  "di ": 7028,
  " zai ": 7029,
  " ren ": 7030,
  " yue": 7031,
  " zhong ": 7032,
  " he ": 7033,
  "da ": 7034,
  "xi ": 7035,
  "xing ": 7036,
  "yuan ": 7037,
  "gong ": 7038,
  "er ": 7039,
  " yue ": 7040,
  "fu ": 7041,
  "si ": 7042,
  "ge ": 7043,
  "jian ": 7044,
  " guo ": 7045,
  "wu ": 7046,
  "jia ": 7047,
  " bu ": 7048,
  "jie ": 7049,
  "ke ": 7050,
  "cheng ": 7051,
  "zhu ": 7052,
  "sheng ": 7053,
  "xiang ": 7054,
  "xian ": 7055,
  "dao ": 7056,
  "bei ": 7057,
  "zi ": 7058,
  " qi ": 7059,
  "fa ": 7060,
  "chu ": 7061,
  "hui ": 7062,
  "jin ": 7063,
  " di ": 7064,
  "shu ": 7065,
  " er ": 7066,
  "ri ": 7067,
  " xi ": 7068,
  "qu ": 7069,
  "zheng ": 7070,
  "ju ": 7071,
  "hou ": 7072,
  "shou ": 7073,
  "ming ": 7074,
  "shang ": 7075,
  "dong ": 7076,
  "jing ": 7077,
  "ta ": 7078,
  "le ": 7079,
  "xue ": 7080,
  "fang ": 7081,
  "yan ": 7082,
  "zhan ": 7083,
  "ci ": 7084,
  "bao ": 7085,
  "hua ": 7086,
  "ying ": 7087,
  " da ": 7088,
  "tong ": 7089,
  "ye ": 7090,
  "zuo ": 7091,
  "zhe ": 7092,
  "guan ": 7093,
  " ri ": 7094,
  "yin ": 7095,
  "chang ": 7096,
  "xin ": 7097,
  "jiao ": 7098,
  "lu ": 7099,
  "dui ": 7100,
  "wen ": 7101,
  "ti ": 7102,
  "fen ": 7103,
  "qian ": 7104,
  "tai ": 7105,
  "jiang ": 7106,
  "xiao ": 7107,
  " si ": 7108,
  "bing ": 7109,
  "jun ": 7110,
  "dian ": 7111,
  "zhang ": 7112,
  "ping ": 7113,
  "xia ": 7114,
  "du ": 7115,
  "huo ": 7116,
  "yong ": 7117,
  " ke ": 7118,
  " jia ": 7119,
  " dan": 7120,
  "gai ": 7121,
  "wang ": 7122,
  "hai ": 7123,
  "ru ": 7124,
  "dai ": 7125,
  "nan ": 7126,
  "qing ": 7127,
  "mu ": 7128,
  "bi ": 7129,
  "ban ": 7130,
  "liang ": 7131,
  " fu ": 7132,
  "lai ": 7133,
  "ya ": 7134,
  "shen ": 7135,
  "mei ": 7136,
  " xing ": 7137,
  "zu ": 7138,
  "wan ": 7139,
  "lian ": 7140,
  "she ": 7141,
  "min ": 7142,
  "mi ": 7143,
  "zhou ": 7144,
  "qiu ": 7145,
  "jiu ": 7146,
  "an ": 7147,
  " ta ": 7148,
  "zhen ": 7149,
  "ben ": 7150,
  "gao ": 7151,
  "xu ": 7152,
  " gong ": 7153,
  " dao ": 7154,
  "bo ": 7155,
  "luo ": 7156,
  "bian ": 7157,
  "xie ": 7158,
  "te ": 7159,
  "yao ": 7160,
  "deng ": 7161,
  "duo ": 7162,
  " xian ": 7163,
  "yang ": 7164,
  "quan ": 7165,
  "che ": 7166,
  "zui ": 7167,
  "ling ": 7168,
  "tian ": 7169,
  "gu ": 7170,
  "xuan ": 7171,
  "suo ": 7172,
  "fan ": 7173,
  "yun ": 7174,
  " ge ": 7175,
  " bing ": 7176,
  "dang ": 7177,
  "hu ": 7178,
  "shan ": 7179,
  " de yi ": 7180,
  "fei ": 7181,
  "sai ": 7182,
  "ding ": 7183,
  "biao ": 7184,
  "zong ": 7185,
  "kai ": 7186,
  "liu ": 7187,
  "ma ": 7188,
  "ba ": 7189,
  "hao ": 7190,
  "su ": 7191,
  "kou ": 7192,
  "tu ": 7193,
  "mian ": 7194,
  "men ": 7195,
  "you ": 7196,
  " dan ": 7197,
  "lei ": 7198,
  "la ": 7199,
  "feng ": 7200,
  "nei ": 7201,
  "cai ": 7202,
  "jue ": 7203,
  "wai ": 7204,
  " bei ": 7205,
  " jian ": 7206,
  " jin ": 7207,
  "pai ": 7208,
  "chuan ": 7209,
  "chi ": 7210,
  " shi yi ": 7211,
  "guang ": 7212,
  "lan ": 7213,
  "san ": 7214,
  "ni ": 7215,
  "gui ": 7216,
  "bai ": 7217,
  " zi ": 7218,
  " xiang ": 7219,
  " zhe ": 7220,
  "lin ": 7221,
  "ting ": 7222,
  "pu ": 7223,
  " zhu ": 7224,
  "neng ": 7225,
  "lun ": 7226,
  "gang ": 7227,
  "han ": 7228,
  "na ": 7229,
  "lie ": 7230,
  "cheng wei ": 7231,
  "ze ": 7232,
  " yin ": 7233,
  "mo ": 7234,
  " chu ": 7235,
  " shi de ": 7236,
  "mei guo ": 7237,
  "chan ": 7238,
  "shui ": 7239,
  " ju ": 7240,
  " cheng ": 7241,
  " de shi ": 7242,
  " jie ": 7243,
  " gai ": 7244,
  " wu ": 7245,
  "sui ": 7246,
  " bao ": 7247,
  "zhuan ": 7248,
  "xun ": 7249,
  " ping ": 7250,
  " ta": 7251,
  "lv ": 7252,
  "ao ": 7253,
  "zhuang ": 7254,
  "tou ": 7255,
  "li ": 7256,
  "duan ": 7257,
  " yi ji ": 7258,
  "dan ": 7259,
  "se ": 7260,
  "huan ": 7261,
  "chong ": 7262,
  " wei yu ": 7263,
  "pin ": 7264,
  "e ": 7265,
  "ceng ": 7266,
  "cong ": 7267,
  "cha ": 7268,
  "di yi ": 7269,
  "cun ": 7270,
  "zao ": 7271,
  " hou ": 7272,
  "kong ": 7273,
  "dou ": 7274,
  "zhao ": 7275,
  "a ": 7276,
  "gou ": 7277,
  " ci ": 7278,
  "gan ": 7279,
  "sha ": 7280,
  "qiang ": 7281,
  " shi ji ": 7282,
  "chao ": 7283,
  "meng ": 7284,
  "kai shi ": 7285,
  "man ": 7286,
  "tang ": 7287,
  "long ": 7288,
  "kuo ": 7289,
  " fa ": 7290,
  " yuan ": 7291,
  " ming ": 7292,
  "ke yi ": 7293,
  "ai ": 7294,
  " yi ge ": 7295,
  " ye ": 7296,
  "ce ": 7297,
  " sheng ": 7298,
  "tan ": 7299,
  "1 ": 7300,
  "tuan ": 7301,
  " shi wei ": 7302,
  "gong li ": 7303,
  " zhong guo ": 7304,
  "ka ": 7305,
  " bing": 7306,
  " tong": 7307,
  "qin ": 7308,
  "tie ": 7309,
  " shi shi ": 7310,
  "zheng fu ": 7311,
  "can ": 7312,
  "shao ": 7313,
  "pian ": 7314,
  "huo de ": 7315,
  "mian ji ": 7316,
  "hang ": 7317,
  "hong ": 7318,
  "geng ": 7319,
  " huo ": 7320,
  "ji de ": 7321,
  "tiao ": 7322,
  " shi yong ": 7323,
  "xiu ": 7324,
  "chen ": 7325,
  "shuo ": 7326,
  "pi ": 7327,
  "2 ": 7328,
  " dong ": 7329,
  "ren wei ": 7330,
  " shi jian ": 7331,
  "tao ": 7332,
  "ran ": 7333,
  "zhi yi ": 7334,
  "huang ": 7335,
  "zhong de ": 7336,
  "zheng zhi ": 7337,
  " yi zhi ": 7338,
  " shi jie ": 7339,
  " ri": 7340,
  "chuang ": 7341,
  "nv ": 7342,
  "zhong guo ": 7343,
  "yue ": 7344,
  "qu de ": 7345,
  "guo ji ": 7346,
  "yi shi ": 7347,
  " ping fang ": 7348,
  "wo ": 7349,
  "xing de ": 7350,
  "po ": 7351,
  " mi ": 7352,
  "ren kou ": 7353,
  " shou ": 7354,
  "rong ": 7355,
  "jin xing ": 7356,
  " sui ": 7357,
  "liao ": 7358,
  "diao ": 7359,
  "mei you ": 7360,
  "tuo ": 7361,
  "song ": 7362,
  "ou ": 7363,
  " li de ": 7364,
  "nian ": 7365,
  " li shi ": 7366,
  " dang": 7367,
  " wei yuan ": 7368,
  " fen ": 7369,
  " wan ": 7370,
  "pei ": 7371,
  " qi zhong ": 7372,
  "zuo wei ": 7373,
  "biao shi ": 7374,
  "fa guo ": 7375,
  " er": 7376,
  "   zai ": 7377,
  "yan jiu ": 7378,
  "zheng shi ": 7379,
  " shang ": 7380,
  " yin": 7381,
  " you yu ": 7382,
  " de ji ": 7383,
  " hao ": 7384,
  "pan ": 7385,
  "qie ": 7386,
  "tui ": 7387,
  "que ": 7388,
  " zhe": 7389,
  "dian shi ": 7390,
  "yun dong ": 7391,
  " xin ": 7392,
  "bang ": 7393,
  " hai ": 7394,
  " tai ": 7395,
  " mei ": 7396,
  " de di ": 7397,
  "cheng shi ": 7398,
  "zhi shi ": 7399,
  " shu ": 7400,
  " jing ": 7401,
  " jiang ": 7402,
  "jian de ": 7403,
  "ta de ": 7404,
  "gong he ": 7405,
  "shu yu ": 7406,
  "she ji ": 7407,
  " qian ": 7408,
  "gong si ": 7409,
  " ren kou ": 7410,
  "lang ": 7411,
  " ying ": 7412,
  " ren min ": 7413,
  "dun ": 7414,
  "zhi de ": 7415,
  "qiao ": 7416,
  "10 yue ": 7417,
  "12 yue ": 7418,
  " de zhi ": 7419,
  "jing ji ": 7420,
  "7 yue ": 7421,
  "dian ying ": 7422,
  " xia ": 7423,
  " nan ": 7424,
  "zu zhi ": 7425,
  " zhang ": 7426,
  "9 yue ": 7427,
  " mu ": 7428,
  "8 yue ": 7429,
  "zhu yi ": 7430,
  "3 yue ": 7431,
  " zui ": 7432,
  "1 yue ": 7433,
  "mao ": 7434,
  "wa ": 7435,
  " shi qi ": 7436,
  "5 yue ": 7437,
  "dai biao ": 7438,
  "ri ben ": 7439,
  "ying guo ": 7440,
  "ji shi ": 7441,
  "kao ": 7442,
  "6 yue ": 7443,
  " you yi ": 7444,
  "kan ": 7445,
  "3 ": 7446,
  "guo de ": 7447,
  "4 yue ": 7448,
  " hui ": 7449,
  " shi zhen ": 7450,
  "hen ": 7451,
  "mai ": 7452,
  "xian de ": 7453,
  " tong ": 7454,
  " bi ": 7455,
  "wei yi ": 7456,
  "11 yue ": 7457,
  "jiao yu ": 7458,
  "che zhan ": 7459,
  "gen ju ": 7460,
  "yi de ": 7461,
  "yu shi ": 7462,
  "ming wei ": 7463,
  "bu fen ": 7464,
  "xue yuan ": 7465,
  " yi yuan ": 7466,
  " de guo ": 7467,
  " ru ": 7468,
  "li shi ": 7469,
  "re ": 7470,
  " de yi ge ": 7471,
  "gen ": 7472,
  " zhi hou ": 7473,
  " nian 1 yue ": 7474,
  "xiang gang ": 7475,
  " deng ": 7476,
  "can jia ": 7477,
  "cao ": 7478,
  "kang ": 7479,
  " yi wei ": 7480,
  "da xue ": 7481,
  "she hui ": 7482,
  " ye": 7483,
  " ti ": 7484,
  "xian shi ": 7485,
  " di qu ": 7486,
  "sa ": 7487,
  " qing ": 7488,
  "ying xiang ": 7489,
  "shu de ": 7490,
  "tai wan ": 7491,
  " yan ": 7492,
  " xue ": 7493,
  "shang de ": 7494,
  "xing shi ": 7495,
  "qi shi ": 7496,
  "formula ": 7497,
  "bie ": 7498,
  " ran": 7499,
  " yin ci ": 7500,
  "guan li ": 7501,
  " xiao ": 7502,
  "zeng ": 7503,
  "lao ": 7504,
  "le yi ": 7505,
  " nian 12 yue ": 7506,
  "tong guo ": 7507,
  "bu de ": 7508,
  "wei shi ": 7509,
  " nian de ": 7510,
  "xing zheng ": 7511,
  "gong he guo ": 7512,
  "er shi ": 7513,
  " liang ": 7514,
  "ren de ": 7515,
  "zhun ": 7516,
  " li ya ": 7517,
  "zi ji ": 7518,
  "da de ": 7519,
  "xiong ": 7520,
  "2 yue ": 7521,
  " guo jia ": 7522,
  "5 ": 7523,
  "zui zhong ": 7524,
  " nian 3 yue ": 7525,
  "hui yi ": 7526,
  "4 ": 7527,
  "   sheng ": 7528,
  "cheng li ": 7529,
  " ping fang gong li ": 7530,
  " jiao ": 7531,
  " da xue ": 7532,
  "ku ": 7533,
  "luo si ": 7534,
  " nian 7 yue ": 7535,
  "kuang ": 7536,
  " nian 10 yue ": 7537,
  " wang ": 7538,
  "miao ": 7539,
  "chu de ": 7540,
  " zhan ": 7541,
  " ling ": 7542,
  "fa xian ": 7543,
  "ha ": 7544,
  " bao kuo ": 7545,
  "qi de ": 7546,
  " tian ": 7547,
  "gong zuo ": 7548,
  "fa zhan ": 7549,
  " shi zhi ": 7550,
  " nian 9 yue ": 7551,
  "yuan de ": 7552,
  " nian 5 yue ": 7553,
  " shi zai ": 7554,
  "hei ": 7555,
  " qi jian ": 7556,
  "piao ": 7557,
  "qi ta ": 7558,
  "kuai ": 7559,
  "si de ": 7560,
  " bo ": 7561,
  " nian 4 yue ": 7562,
  " nian 6 yue ": 7563,
  " nian 8 yue ": 7564,
  "tie lu ": 7565,
  "suo you ": 7566,
  " luo ": 7567,
  "dao zhi ": 7568,
  "dao de ": 7569,
  "tong de ": 7570,
  "cheng de ": 7571,
  " zheng ": 7572,
  "quan guo ": 7573,
  " ta men ": 7574,
  "can yu ": 7575,
  "shuang ": 7576,
  "nuo ": 7577,
  "lou ": 7578,
  "wen hua ": 7579,
  " hua ": 7580,
  " lu ": 7581,
  " tong shi ": 7582,
  " dui ": 7583,
  "di li ": 7584,
  "bu shi ": 7585,
  "zhong yi ": 7586,
  " you xi ": 7587,
  " sui": 7588,
  "lian he ": 7589,
  "di de ": 7590,
  " nian 11 yue ": 7591,
  " zhi dao ": 7592,
  " dang ": 7593,
  "bao kuo ": 7594,
  " zuo ": 7595,
  " shen ": 7596,
  " zhong xin ": 7597,
  "   shi ": 7598,
  " de zhu ": 7599,
  "yin yue ": 7600,
  " ma ": 7601,
  "sen ": 7602,
  "shu ji ": 7603,
  " chang ": 7604,
  "yong yu ": 7605,
  " jiu ": 7606,
  "   yi ": 7607,
  "dan ren ": 7608,
  "bei bu ": 7609,
  " gu ": 7610,
  "zai yi ": 7611,
  "ti gong ": 7612,
  " wei yuan hui ": 7613,
  "zu qiu ": 7614,
  "guo jia ": 7615,
  "wen ti ": 7616,
  " nian zhi ": 7617,
  "kuan ": 7618,
  " shi wu ": 7619,
  "xuan bu ": 7620,
  " yin wei ": 7621,
  " shi zhong ": 7622,
  "xue xiao ": 7623,
  "sheng yu ": 7624,
  "jian yu ": 7625,
  "fang shi ": 7626,
  "qian mi ": 7627,
  " quan ": 7628,
  "guan xi ": 7629,
  "gong you ": 7630,
  " wei zhi ": 7631,
  "hun ": 7632,
  " nian 2 yue ": 7633,
  "rang ": 7634,
  " zong ": 7635,
  " xu ": 7636,
  "hua ren min ": 7637,
  "cheng yuan ": 7638,
  " dian ": 7639,
  "jian zhu ": 7640,
  "ying de ": 7641,
  "huo dong ": 7642,
  " gai": 7643,
  "bi sai ": 7644,
  "jian li ": 7645,
  "tong shi ": 7646,
  "yu yi ": 7647,
  " xian": 7648,
  "ren shi ": 7649,
  "suan ": 7650,
  "   li shi ": 7651,
  "ji yi ": 7652,
  "zi you ": 7653,
  "fen wei ": 7654,
  "nong ": 7655,
  "heng ": 7656,
  " de ren ": 7657,
  "guan jun ": 7658,
  "zuo pin ": 7659,
  "en ": 7660,
  "she you ": 7661,
  " ben ": 7662,
  "da li ": 7663,
  " cheng wei ": 7664,
  "   sheng ping ": 7665,
  "ge ren ": 7666,
  " an ": 7667,
  " jie": 7668,
  "zhuan ji ": 7669,
  "jiu shi ": 7670,
  " di er ": 7671,
  "bei jing ": 7672,
  "xiao shi ": 7673,
  " ji hua ": 7674,
  "yu de ": 7675,
  "6 ": 7676,
  "qun ": 7677,
  "gei ": 7678,
  "yin wei ": 7679,
  " li yu ": 7680,
  " bu fen ": 7681,
  "di shi ": 7682,
  "dui yu ": 7683,
  " nian dai ": 7684,
  "jun shi ": 7685,
  " cong ": 7686,
  " a ": 7687,
  "tong yi ": 7688,
  "men de ": 7689,
  "di er ": 7690,
  "ming de ": 7691,
  " ta de ": 7692,
  "qu yu ": 7693,
  "xi de ": 7694,
  "xue jia ": 7695,
  "e luo si ": 7696,
  "zou ": 7697,
  "xin de ": 7698,
  " liu ": 7699,
  " ling": 7700,
  " gong li ": 7701,
  "chun ": 7702,
  " ba ": 7703,
  "shou dao ": 7704,
  " suo": 7705,
  "min guo ": 7706,
  " duo ": 7707,
  "wei de ": 7708,
  "zheng fu": 7709,
  "zhong shi ": 7710,
  "hou de ": 7711,
  "lai de ": 7712,
  "fa sheng ": 7713,
  "gong ji ": 7714,
  "sheng de ": 7715,
  "jin shi ": 7716,
  "er de ": 7717,
  "xing wei ": 7718,
  "fang mian ": 7719,
  " yi jing ": 7720,
  " lian ": 7721,
  " shi you ": 7722,
  "yong you ": 7723,
  " hu ": 7724,
  " ri ben ": 7725,
  " xi tong ": 7726,
  "bu yu ": 7727,
  " fan ": 7728,
  " qu ": 7729,
  " shi ren ": 7730,
  " mian ji ": 7731,
  "zhu yao ": 7732,
  "1 ri ": 7733,
  "tong zhi ": 7734,
  "liang ge ": 7735,
  "ni ya ": 7736,
  "di qu ": 7737,
  " guan ": 7738,
  " gao ": 7739,
  "ju you ": 7740,
  "qu wei ": 7741,
  "fa xing ": 7742,
  "jue ding ": 7743,
  " wen ": 7744,
  " zhong yang ": 7745,
  "sheng ji ": 7746,
  " feng ": 7747,
  "ci shi ": 7748,
  "chu xian ": 7749,
  "zh ": 7750,
  " ren kou mi ": 7751,
  " you shi ": 7752,
  "ta men ": 7753,
  " wei ji ": 7754,
  "qi yu ": 7755,
  " you de ": 7756,
  "zi zhi ": 7757,
  " te ": 7758,
  "lai zi ": 7759,
  " ta zai ": 7760,
  "ju xing ": 7761,
  "hua de ": 7762,
  " ji yu ": 7763,
  "wu de ": 7764,
  "mian ji wei ": 7765,
  "xian zhi ": 7766,
  " fei ": 7767,
  "jia de ": 7768,
  " shi yu ": 7769,
  "du li ": 7770,
  " ping fang qian mi ": 7771,
  "kong zhi ": 7772,
  "nan bu ": 7773,
  "shu ju ": 7774,
  " shi wei yu ": 7775,
  " dan shi ": 7776,
  "qu shi ": 7777,
  "ren wu ": 7778,
  " li ru ": 7779,
  "mou ": 7780,
  "ke li ": 7781,
  "hui de ": 7782,
  "yao qiu ": 7783,
  "jin ru ": 7784,
  "   de ": 7785,
  " wo ": 7786,
  "gt ": 7787,
  "gu shi ": 7788,
  " gt ": 7789,
  " ceng": 7790,
  " wan": 7791,
  "cheng ji ": 7792,
  " dan ren ": 7793,
  "xiang gang": 7794,
  " suo ": 7795,
  " you ji ": 7796,
  " mei guo ": 7797,
  "ye shi ": 7798,
  "zong tong ": 7799,
  "lt ": 7800,
  "xue sheng ": 7801,
  " gong si ": 7802,
  "   yu ": 7803,
  " guang ": 7804,
  " yi bu ": 7805,
  " bian ": 7806,
  "gong shi ": 7807,
  "min zhu ": 7808,
  " ran er ": 7809,
  "wan cheng ": 7810,
  " ru": 7811,
  "jin de ": 7812,
  "zha ": 7813,
  " lt ": 7814,
  " yi qi ": 7815,
  "shen zhi ": 7816,
  " bing yu ": 7817,
  " cai ": 7818,
  "ren zhi ": 7819,
  "ping fang ": 7820,
  " bing zai ": 7821,
  "chao guo ": 7822,
  " ji shu ": 7823,
  "ti yu ": 7824,
  "yuan shi ": 7825,
  "cang ": 7826,
  "lie che ": 7827,
  " san ": 7828,
  "dang shi ": 7829,
  "cun zai ": 7830,
  "si shi ": 7831,
  "ya li ": 7832,
  "qian wang ": 7833,
  " de yi ge": 7834,
  "xue xi ": 7835,
  "ke de ": 7836,
  " kai ": 7837,
  " yong ": 7838,
  "ke neng ": 7839,
  "jing guo ": 7840,
  "yong de ": 7841,
  " zhi wei ": 7842,
  "jian yi ": 7843,
  "guan yu ": 7844,
  "   di ": 7845,
  "fa bu ": 7846,
  "guo shi ": 7847,
  " qi ta ": 7848,
  "wu shi ": 7849,
  "zhan shi ": 7850,
  "wu ke ": 7851,
  "yin du ": 7852,
  "zhu ren ": 7853,
  "sun ": 7854,
  " you xian ": 7855,
  "zuo de ": 7856,
  " han ": 7857,
  " shan ": 7858,
  "zhan zheng ": 7859,
  "pao ": 7860,
  "nei de ": 7861,
  " zhi jian ": 7862,
  "dai biao": 7863,
  " pu ": 7864,
  "sheng huo ": 7865,
  "bin ": 7866,
  "jian zhi ": 7867,
  " ji wei ": 7868,
  "zhou de ": 7869,
  " yi shu ": 7870,
  "fan wei ": 7871,
  " wei er ": 7872,
  "cheng gong ": 7873,
  " ji qi ": 7874,
  " a": 7875,
  "ou zhou ": 7876,
  " jin": 7877,
  " ba": 7878,
  "han guo ": 7879,
  "jie shou ": 7880,
  "xu duo ": 7881,
  "qiu dui ": 7882,
  "lu de ": 7883,
  " shu yu ": 7884,
  " zai": 7885,
  " ji zhong ": 7886,
  "zhong zhi ": 7887,
  "zeng jia ": 7888,
  "fu wu ": 7889,
  " bai ": 7890,
  "zhu xi ": 7891,
  "xiao xing ": 7892,
  " mo ": 7893,
  "ban de ": 7894,
  "   gai ": 7895,
  "he yi ": 7896,
  " ao ": 7897,
  "zhu yao": 7898,
  "hou yi ": 7899,
  " su ": 7900,
  "   zhi ": 7901,
  "san shi ": 7902,
  "xia de ": 7903,
  "duo de ": 7904,
  " 000": 7905,
  "shang hai ": 7906,
  "huai ": 7907,
  "ju li ": 7908,
  "si ji ": 7909,
  "zu cheng ": 7910,
  " gen ju ": 7911,
  "ning ": 7912,
  " ci wai ": 7913,
  "yun dong yuan ": 7914,
  "ma wei ": 7915,
  "gao du ": 7916,
  "fu de ": 7917,
  " zhe xie ": 7918,
  "chu le ": 7919,
  " zh ": 7920,
  " zhi zuo ": 7921,
  "niu ": 7922,
  " zai ci ": 7923,
  "ge zhong ": 7924,
  " bu guo ": 7925,
  "chang de ": 7926,
  " nian qi ": 7927,
  "chong xin ": 7928,
  "jue se ": 7929,
  "tui chu ": 7930,
  " li ji ": 7931,
  "jing li ": 7932,
  " dang shi ": 7933,
  "ren min ": 7934,
  " zui zhong ": 7935,
  "zhe ge ": 7936,
  "ti de ": 7937,
  "xu yao ": 7938,
  " du ": 7939,
  "da shi ": 7940,
  "qi yi ": 7941,
  "chu yu ": 7942,
  " zhi chu ": 7943,
  "zhe xie ": 7944,
  " ai": 7945,
  "xiang de ": 7946,
  "wu zhong ": 7947,
  "du wei ": 7948,
  "xuan ju ": 7949,
  " mei": 7950,
  " zhi wu ": 7951,
  " ren he ": 7952,
  "zhu jiao ": 7953,
  "   di li ": 7954,
  " zhi chi ": 7955,
  "zi ji de ": 7956,
  "zi de ": 7957,
  " huo": 7958,
  " ma": 7959,
  " wei le ": 7960,
  "jiao tong ": 7961,
  " she ": 7962,
  " ceng ": 7963,
  " ban ": 7964,
  " ren wu ": 7965,
  " nian jian ": 7966,
  "lian sai ": 7967,
  "   wei ": 7968,
  "kai fa ": 7969,
  "zhe yi ": 7970,
  "liang wei ": 7971,
  "xian zai ": 7972,
  " lai ": 7973,
  " ren yuan ": 7974,
  " wei qi ": 7975,
  "jie shu ": 7976,
  "chu li ": 7977,
  "sai shi ": 7978,
  "nv zi ": 7979,
  "rui ": 7980,
  "dang di ": 7981,
  "jie mu ": 7982,
  "ya de ": 7983,
  "2010 nian ": 7984,
  "gong yuan ": 7985,
  " zhi yu ": 7986,
  "fan ying ": 7987,
  "ding de ": 7988,
  "chan sheng ": 7989,
  "juan ": 7990,
  "she shi ": 7991,
  "chu ban ": 7992,
  "gong chan ": 7993,
  "guan de ": 7994,
  " yi zhong ": 7995,
  "lei si ": 7996,
  "ba shi ": 7997,
  "shou ci ": 7998,
  "ruo ": 7999
}