{
  "!": 0,
  "\"": 1,
  "#": 2,
  "$": 3,
  "%": 4,
  "&": 5,
  "'": 6,
  "(": 7,
  ")": 8,
  "*": 9,
  "+": 10,
  ",": 11,
  "-": 12,
  ".": 13,
  "/": 14,
  "0": 15,
  "1": 16,
  "2": 17,
  "3": 18,
  "4": 19,
  "5": 20,
  "6": 21,
  "7": 22,
  "8": 23,
  "9": 24,
  ":": 25,
  ";": 26,
  "=": 27,
  "?": 28,
  "@": 29,
  "A": 30,
  "B": 31,
  "C": 32,
  "D": 33,
  "E": 34,
  "F": 35,
  "G": 36,
  "H": 37,
  "I": 38,
  "J": 39,
  "K": 40,
  "L": 41,
  "M": 42,
  "N": 43,
  "O": 44,
  "P": 45,
  "Q": 46,
  "R": 47,
  "S": 48,
  "T": 49,
  "U": 50,
  "V": 51,
  "W": 52,
  "X": 53,
  "Y": 54,
  "Z": 55,
  "[": 56,
  "\\": 57,
  "]": 58,
  "^": 59,
  "_": 60,
  "`": 61,
  "a": 62,
  "b": 63,
  "c": 64,
  "d": 65,
  "e": 66,
  "f": 67,
  "g": 68,
  "h": 69,
  "i": 70,
  "j": 71,
  "k": 72,
  "l": 73,
  "m": 74,
  "n": 75,
  "o": 76,
  "p": 77,
  "q": 78,
  "r": 79,
  "s": 80,
  "t": 81,
  "u": 82,
  "v": 83,
  "w": 84,
  "x": 85,
  "y": 86,
  "z": 87,
  "|": 88,
  "~": 89,
  "�": 131,
  "\n": 162,
  " ": 163,
  "": 164,
  "ng": 199,
  "h�": 200,
  "à": 201,
  "ā": 202,
  "ì": 203,
  "á": 204,
  "ī": 205,
  "è": 206,
  "ǎ": 207,
  "  ": 208,
  "é": 209,
  "í": 210,
  "sh�": 211,
  "ù": 212,
  "án": 213,
  "zh": 214,
  "ǐ": 215,
  "ō": 216,
  "ji": 217,
  "de": 218,
  "àn": 219,
  "ē": 220,
  "zh�": 221,
  "sh": 222,
  "ě": 223,
  "ó": 224,
  "ǔ": 225,
  "xi": 226,
  "ò": 227,
  "ú": 228,
  "ān": 229,
  "   ": 230,
  "ài": 231,
  "ū": 232,
  "ōng": 233,
  "ǒ": 234,
  "shì": 236,
  "hu": 237,
  "èi": 238,
  "gu": 239,
  "ián": 240,
  "hé": 241,
  "ào": 242,
  "āng": 243,
  "íng": 244,
  "yu": 245,
  "ǎn": 246,
  "ch": 247,
  "nián": 248,
  "yī": 249,
  "ǎng": 250,
  "én": 251,
  "ǒu": 252,
  "ìng": 253,
  "wèi": 254,
  "ǎo": 255,
  "zài": 256,
  "、": 257,
  "jī": 258,
  "ēng": 259,
  "zhōng": 260,
  "xī": 261,
  "bù": 262,
  "jì": 263,
  "àng": 264,
  "li": 265,
  "zhè": 266,
  "shí": 267,
  "dì": 268,
  "guó": 269,
  "yú": 270,
  "rén": 271,
  "òng": 272,
  "ch�": 273,
  "āo": 274,
  "du": 275,
  "ché": 276,
  "yǐ": 277,
  "lì": 278,
  "áng": 279,
  "yì": 280,
  "uò": 281,
  "ái": 282,
  "zhì": 283,
  "chéng": 284,
  "éi": 285,
  "xu": 286,
  "gōng": 287,
  "jí": 288,
  "�u": 289,
  "ěi": 290,
  "iàn": 291,
  "ēn": 292,
  "óng": 293,
  "yuè": 294,
  "yǒu": 295,
  "yuán": 296,
  "dà": 297,
  "qi": 298,
  "ōu": 299,
  "lǐ": 300,
  "20": 301,
  "óu": 302,
  "āi": 303,
  "xiàn": 304,
  "jiā": 305,
  "sī": 306,
  "ūn": 307,
  "xíng": 308,
  "yǔ": 309,
  "èn": 310,
  "ǒng": 311,
  "ín": 312,
  "tā": 313,
  "rì": 314,
  "zhī": 315,
  "hòu": 316,
  "ǎi": 317,
  "gè": 318,
  "zhà": 319,
  "éng": 320,
  "le": 321,
  "wéi": 322,
  "huì": 323,
  "dào": 324,
  "19": 325,
  "bi": 326,
  "shà": 327,
  "qī": 328,
  "qí": 329,
  "shè": 330,
  "su": 331,
  "zhèng": 332,
  "míng": 333,
  "jiàn": 334,
  "xué": 335,
  "chū": 336,
  "yù": 337,
  "ěng": 338,
  "zuò": 339,
  "shēng": 340,
  "duì": 341,
  "yóu": 342,
  "qū": 343,
  "shàng": 344,
  "ěn": 345,
  "dé": 346,
  "lù": 347,
  "bèi": 348,
  "chá": 349,
  "ti": 350,
  "shǐ": 351,
  "zhàn": 352,
  "zhǔ": 353,
  "ēi": 354,
  "qu": 355,
  "jù": 356,
  "xīn": 357,
  "jūn": 358,
  "zhu": 359,
  "ěr": 360,
  "áo": 361,
  "shù": 362,
  "uì": 363,
  "rèn": 364,
  "fā": 365,
  "wù": 366,
  "bìng": 367,
  "kè": 368,
  "ér": 369,
  "dài": 370,
  "yí": 371,
  "jìn": 372,
  "zì": 373,
  "yīn": 374,
  "fù": 375,
  "fāng": 376,
  "jīng": 377,
  "nán": 378,
  "huà": 379,
  "xì": 380,
  "zhōu": 381,
  "píng": 382,
  "òu": 383,
  "xià": 384,
  "lái": 385,
  "yòng": 386,
  "shu": 387,
  "guān": 388,
  "tóng": 389,
  "》": 390,
  "《": 391,
  "fǎ": 392,
  "zhù": 393,
  "měi": 394,
  "há": 395,
  "·": 396,
  "jiān": 397,
  "jǐ": 398,
  "huò": 399,
  "dù": 400,
  "chu": 401,
  "běn": 402,
  "xiāng": 403,
  "zhí": 404,
  "dòng": 405,
  "xiàng": 406,
  "mín": 407,
  "jiāng": 408,
  "fēn": 409,
  "shǒu": 410,
  "quán": 411,
  "wén": 412,
  "yán": 413,
  "hà": 414,
  "suǒ": 415,
  "jiào": 416,
  "qián": 417,
  "diàn": 418,
  "tè": 419,
  "di": 420,
  "duō": 421,
  "ún": 422,
  "zuì": 423,
  "kāi": 424,
  "tu": 425,
  "jié": 426,
  "lián": 427,
  "zhǐ": 428,
  "kě": 429,
  "dàn": 430,
  "mù": 431,
  "yè": 432,
  "fú": 433,
  "mǎ": 434,
  "yě": 435,
  "dōng": 436,
  "qiú": 437,
  "běi": 438,
  "「": 439,
  "」": 440,
  "gāo": 441,
  "yà": 442,
  "qǐ": 443,
  "jiē": 444,
  "miàn": 445,
  "hǎi": 446,
  "zhǎng": 447,
  "shī": 448,
  "jīn": 449,
  "cǐ": 450,
  "lu": 451,
  "nèi": 452,
  "tǐ": 453,
  "sài": 454,
  "sān": 455,
  "tái": 456,
  "gé": 457,
  "xìng": 458,
  "guò": 459,
  "rù": 460,
  "201": 461,
  "děng": 462,
  "yào": 463,
  "ju": 464,
  "chē": 465,
  "cì": 466,
  "wǔ": 467,
  "gāi": 468,
  "dìng": 469,
  "cháng": 470,
  "biǎo": 471,
  "lā": 472,
  "gòng": 473,
  "jiè": 474,
  "shòu": 475,
  "dǎo": 476,
  "shān": 477,
  "chǎng": 478,
  "sì": 479,
  "bǐ": 480,
  "zé": 481,
  "tí": 482,
  "kē": 483,
  "dāng": 484,
  "néng": 485,
  "èr": 486,
  "wài": 487,
  "dān": 488,
  "xù": 489,
  "zi": 490,
  "kǒu": 491,
  "xiǎo": 492,
  "zǔ": 493,
  "bā": 494,
  "jué": 495,
  "lín": 496,
  "liú": 497,
  "shěng": 498,
  "yīng": 499,
  "ku": 500,
  "lán": 501,
  "luó": 502,
  "tōng": 503,
  "200": 504,
  "īng": 505,
  "mǐ": 507,
  "zhòng": 508,
  "en": 509,
  "zhě": 510,
  "shǔ": 511,
  "tiān": 512,
  "zhèn": 513,
  "ǚ": 514,
  "qì": 515,
  "zhǒng": 516,
  "liè": 517,
  "chēng": 518,
  "shū": 519,
  "yuàn": 520,
  "bǎo": 521,
  "tài": 522,
  "fǔ": 523,
  "fēng": 524,
  "gǔ": 525,
  "qīng": 526,
  "shēn": 527,
  "wáng": 528,
  "yùn": 529,
  "guǎn": 530,
  "fēi": 531,
  "jiù": 532,
  "liǎng": 533,
  "céng": 534,
  "méi": 535,
  "10": 536,
  "fèn": 537,
  "hào": 538,
  "�ng": 539,
  "yǎn": 540,
  "wěi": 541,
  "zǒng": 542,
  "xuǎn": 543,
  "xiào": 544,
  "dá": 545,
  "nà": 546,
  "liàng": 547,
  "bō": 548,
  "zú": 549,
  "jìng": 550,
  "bào": 551,
  "ní": 552,
  "wú": 553,
  "tǒng": 554,
  "huá": 555,
  "jiāo": 556,
  "yuē": 557,
  "yǐng": 558,
  "biàn": 559,
  "xīng": 560,
  "sù": 561,
  "shuǐ": 562,
  "yáng": 563,
  "hù": 564,
  "men": 565,
  "bāo": 566,
  "gē": 567,
  "bó": 568,
  "cān": 569,
  "cóng": 570,
  "diǎn": 571,
  "bì": 572,
  "rú": 573,
  "bàn": 574,
  "biān": 575,
  "wǎng": 576,
  "qǔ": 577,
  "mi": 578,
  "chǎn": 579,
  "sè": 580,
  "zī": 581,
  "chuán": 582,
  "00": 583,
  "shèng": 584,
  "rán": 585,
  "tú": 586,
  "zhāng": 587,
  "pǔ": 588,
  "gǎi": 589,
  "gǎng": 590,
  "nǚ": 591,
  "lìng": 592,
  "luò": 593,
  "yòu": 594,
  "tóu": 595,
  "cè": 596,
  "l�": 597,
  "chí": 598,
  "18": 599,
  "lǜ": 600,
  "qiān": 601,
  "shé": 602,
  "lí": 603,
  "dōu": 604,
  "pǐ": 605,
  "12": 606,
  "zhēng": 607,
  "ni": 608,
  "kuò": 609,
  "shā": 610,
  "dǎng": 611,
  "fǎn": 612,
  "gòu": 613,
  "lèi": 614,
  "xí": 615,
  "jǐng": 616,
  "tuán": 617,
  "wēi": 618,
  "xiē": 619,
  "lǐng": 620,
  "lóng": 621,
  "guī": 622,
  "xiān": 623,
  "róng": 624,
  "huáng": 625,
  "xiǎng": 626,
  "bān": 627,
  "jiǔ": 628,
  "yìng": 629,
  "mén": 630,
  "shāng": 631,
  "shén": 632,
  "202": 633,
  "bǎn": 634,
  "kǎ": 635,
  "mǔ": 636,
  "jǐn": 637,
  "fū": 638,
  "jǔ": 639,
  "mó": 640,
  "guǎng": 641,
  "cí": 642,
  "shuō": 643,
  "qíng": 644,
  "zhǎn": 645,
  "hái": 646,
  "zhuāng": 647,
  "mò": 648,
  "cái": 649,
  "dú": 650,
  "11": 651,
  "pǐn": 652,
  "tíng": 653,
  "cháo": 654,
  "yíng": 655,
  "tiáo": 656,
  "jiǎn": 657,
  "táng": 658,
  "huí": 659,
  "duàn": 660,
  "chén": 661,
  "gēn": 662,
  "mì": 663,
  "wàn": 664,
  "pái": 665,
  "wān": 666,
  "zào": 667,
  "háng": 668,
  "wán": 669,
  "biāo": 670,
  "gù": 671,
  "lún": 672,
  "199": 673,
  "xié": 674,
  "jiǎng": 675,
  "hàn": 676,
  "jú": 677,
  "fàn": 678,
  "fáng": 679,
  "huó": 680,
  "hán": 681,
  "pi": 682,
  "kōng": 683,
  "or": 684,
  "tiě": 685,
  "méng": 686,
  "bié": 687,
  "wū": 688,
  "jiě": 689,
  "zhuān": 690,
  "yǐn": 691,
  "xū": 692,
  "zhēn": 693,
  "dǐ": 694,
  "er": 695,
  "chú": 696,
  "hú": 697,
  "jià": 698,
  "bīng": 699,
  "mìng": 700,
  "líng": 701,
  "hóng": 702,
  "qīn": 703,
  "zǐ": 704,
  "lùn": 705,
  "xìn": 706,
  "chù": 707,
  "chǔ": 708,
  "sū": 709,
  "an": 710,
  "xiū": 711,
  "zōng": 712,
  "15": 713,
  "què": 714,
  "xiāo": 715,
  "zhào": 716,
  "qiáng": 717,
  "qù": 718,
  "cūn": 719,
  "chóng": 720,
  "piàn": 721,
  "jiū": 722,
  "fàng": 723,
  "suí": 724,
  "shōu": 725,
  "gèng": 726,
  "guāng": 728,
  "èng": 729,
  "jū": 730,
  "on": 731,
  "jiǎ": 732,
  "chuàng": 733,
  "dí": 734,
  "16": 735,
  "zhuǎn": 736,
  "guǒ": 737,
  "xùn": 738,
  "màn": 739,
  "pài": 740,
  "fèi": 741,
  "pèi": 742,
  "198": 743,
  "dǎ": 744,
  "tuō": 745,
  "la": 746,
  "xuān": 747,
  "bái": 748,
  "zhū": 749,
  "dū": 750,
  "tǔ": 751,
  "diào": 752,
  "xiá": 753,
  "liù": 754,
  "17": 755,
  "suì": 756,
  "huī": 757,
  "tīng": 758,
  "qiě": 759,
  "tǎ": 760,
  "qiáo": 761,
  "hā": 762,
  "gǎn": 763,
  "zēng": 764,
  "xiǎn": 765,
  "mài": 766,
  "huán": 767,
  "xǔ": 768,
  "wǎ": 769,
  "tuī": 770,
  "wèn": 771,
  "chāo": 772,
  "tián": 773,
  "bǎi": 774,
  "cǎi": 775,
  "liáng": 776,
  "yá": 777,
  "sà": 778,
  "ar": 779,
  "bài": 780,
  "cún": 781,
  "jiǎo": 782,
  "shǎo": 783,
  "yàn": 784,
  "zhuàng": 785,
  "huǒ": 786,
  "léi": 787,
  "14": 788,
  "zu": 789,
  "jiàng": 790,
  "chuān": 791,
  "yìn": 792,
  "zǎo": 793,
  "chà": 794,
  "yǒng": 795,
  "sǐ": 796,
  "dēng": 797,
  "30": 798,
  "zhǔn": 799,
  "lè": 800,
  "xún": 801,
  "nuò": 802,
  "kù": 803,
  "huàn": 804,
  "sòng": 805,
  "gào": 806,
  "lǔ": 807,
  "13": 808,
  "194": 809,
  "bāng": 810,
  "lǚ": 811,
  "pī": 812,
  "yàng": 813,
  "hěn": 814,
  "qún": 815,
  "zhěng": 816,
  "guàn": 817,
  "pò": 818,
  "gāng": 819,
  "wǒ": 820,
  "197": 821,
  "huā": 822,
  "lēi": 823,
  "hǎo": 824,
  "táo": 825,
  "kuàng": 826,
  "hè": 827,
  "in": 828,
  "dùn": 829,
  "nóng": 830,
  "gěi": 831,
  "sāi": 832,
  "shuāng": 833,
  "liàn": 834,
  "kuài": 835,
  "dī": 836,
  "bī": 837,
  "pàn": 838,
  "xiě": 839,
  "195": 840,
  "kǎo": 841,
  "gài": 842,
  "hēi": 843,
  "wàng": 844,
  "liào": 845,
  "rè": 846,
  "ge": 847,
  "zuǒ": 848,
  "kòng": 849,
  "196": 850,
  "yāng": 851,
  "chàng": 852,
  "yín": 853,
  "réng": 855,
  "sēn": 856,
  "bēi": 857,
  "lú": 858,
  "piào": 859,
  "yā": 860,
  "25": 861,
  "bīn": 862,
  "—": 863,
  "ràng": 864,
  "chōng": 865,
  "lóu": 866,
  "bǔ": 867,
  "lǎo": 868,
  "zhú": 869,
  "jùn": 870,
  "yǎng": 871,
  "ruì": 872,
  "yāo": 873,
  "xián": 874,
  "xiè": 875,
  "niàn": 876,
  "for": 877,
  "yōu": 878,
  "tán": 879,
  "kāng": 880,
  "pí": 881,
  "héng": 882,
  "yún": 883,
  "xǐ": 884,
  "kàn": 885,
  "níng": 886,
  "liáo": 887,
  "shào": 888,
  "bú": 889,
  "24": 890,
  "qǐng": 891,
  "chǐ": 892,
  "mu": 893,
  "dòu": 894,
  "miǎn": 895,
  "yōng": 896,
  "tǎn": 897,
  "wǎn": 898,
  "hū": 899,
  "fān": 900,
  "al": 901,
  "tū": 902,
  "gān": 903,
  "suàn": 904,
  "dīng": 905,
  "yuǎn": 906,
  "wēn": 907,
  "tuì": 908,
  "zhe": 909,
  "21": 910,
  "st": 911,
  "xiù": 912,
  "bǎ": 913,
  "mǎn": 914,
  "193": 915,
  "23": 916,
  "mula": 917,
  "kàng": 918,
  "formula": 919,
  "28": 920,
  "th": 921,
  "máo": 922,
  "ruò": 923,
  "piān": 924,
  "chè": 925,
  "mào": 926,
  "lǎng": 927,
  "qín": 928,
  "bá": 929,
  "ná": 930,
  "zàn": 931,
  "guǐ": 932,
  "guì": 933,
  "ou": 934,
  "pín": 935,
  "wò": 936,
  "xióng": 937,
  "shàn": 938,
  "re": 939,
  "22": 940,
  "xiōng": 941,
  "me": 942,
  "suī": 943,
  "ü": 944,
  "26": 945,
  "shěn": 946,
  "qìng": 947,
  "miáo": 948,
  "fǎng": 949,
  "50": 950,
  "2020": 951,
  "27": 952,
  "láng": 953,
  "ru": 954,
  "qiū": 955,
  "sōng": 956,
  "üè": 957,
  "dàng": 958,
  "gēng": 959,
  "qiāng": 960,
  "ri": 961,
  "fá": 962,
  "zāo": 963,
  "fèng": 964,
  "zhàng": 965,
  "háo": 967,
  "dūn": 968,
  "zǒu": 969,
  "hài": 970,
  "qiè": 971,
  "29": 972,
  "tàn": 973,
  "pào": 974,
  "pà": 975,
  "shùn": 976,
  "péng": 977,
  "xuán": 978,
  "2010": 979,
  "nǐ": 980,
  "000": 981,
  "dǐng": 982,
  "niǔ": 983,
  "zǎi": 984,
  "zhāo": 985,
  "zhuī": 986,
  "lüè": 987,
  "chūn": 988,
  "2019": 989,
  "hūn": 990,
  "kǒng": 991,
  "duān": 992,
  "shèn": 993,
  "xiáng": 994,
  "duǎn": 995,
  "gàn": 996,
  "te": 997,
  "ro": 998,
  "kān": 999,
  "láo": 1000,
  "cǎo": 1001,
  "2016": 1002,
  "si": 1003,
  "gū": 1004,
  "péi": 1005,
  "2018": 1006,
  "kuǎn": 1007,
  "zá": 1008,
  "sūn": 1009,
  "yé": 1010,
  "yǎ": 1011,
  "pō": 1012,
  "2021": 1013,
  "ra": 1014,
  "chì": 1015,
  "duó": 1016,
  "2014": 1017,
  "fán": 1018,
  "2011": 1019,
  "2015": 1020,
  "cuò": 1021,
  "2017": 1022,
  "zhé": 1023,
  "yáo": 1024,
  "pāi": 1025,
  "tòu": 1026,
  "cáng": 1027,
  "2012": 1028,
  "40": 1029,
  "kǎi": 1030,
  "2013": 1031,
  "2022": 1032,
  "mí": 1033,
  "ruǎn": 1034,
  "suān": 1035,
  "chā": 1036,
  "zàng": 1037,
  "miào": 1038,
  "lt": 1039,
  "2009": 1040,
  "zhǎo": 1041,
  "2008": 1042,
  "huái": 1043,
  "ce": 1045,
  "60": 1046,
  "am": 1047,
  "cu": 1048,
  "xuè": 1049,
  "chóu": 1050,
  "se": 1051,
  "bǎng": 1052,
  "mèng": 1053,
  "100": 1054,
  "tì": 1055,
  "pú": 1056,
  "nǎo": 1057,
  "2023": 1058,
  "zhuàn": 1059,
  "gt": 1060,
  "lěi": 1061,
  "190": 1062,
  "31": 1063,
  "cài": 1064,
  "cù": 1065,
  "sàn": 1066,
  "móu": 1067,
  "tion": 1068,
  "ta": 1069,
  "hùn": 1070,
  "ǔn": 1071,
  "kuān": 1072,
  "2007": 1073,
  "niú": 1074,
  "mǒu": 1075,
  "tǎo": 1076,
  "dié": 1077,
  "2001": 1078,
  "ol": 1079,
  "téng": 1080,
  "sōu": 1081,
  "kěn": 1082,
  "qiǎn": 1083,
  "chāng": 1084,
  "rǎn": 1085,
  "quē": 1086,
  "fǒu": 1087,
  "sǔn": 1088,
  "el": 1089,
  "bà": 1090,
  "2000": 1091,
  "80": 1092,
  "kào": 1093,
  "suō": 1094,
  "2006": 1095,
  "niǎo": 1096,
  "chún": 1097,
  "ma": 1098,
  "2024": 1099,
  "lǎn": 1100,
  "zāi": 1102,
  "zhá": 1103,
  "xuě": 1104,
  "huǐ": 1105,
  "luàn": 1106,
  "tǐng": 1107,
  "2005": 1108,
  "zūn": 1109,
  "bàng": 1110,
  "là": 1111,
  "huān": 1112,
  "rǎng": 1113,
  "shuì": 1114,
  "mǐn": 1115,
  "35": 1116,
  "lài": 1117,
  "cāng": 1118,
  "70": 1119,
  "fó": 1120,
  "pán": 1121,
  "of": 1122,
  "nài": 1123,
  "wěn": 1124,
  "et": 1125,
  "cāo": 1126,
  "sāng": 1127,
  "páng": 1128,
  "90": 1129,
  "bǐng": 1130,
  "－": 1131,
  "zhā": 1132,
  "shuài": 1134,
  "niè": 1135,
  "es": 1136,
  "hóu": 1137,
  "mèi": 1138,
  "shāo": 1139,
  "nǔ": 1140,
  "dǒng": 1141,
  "il": 1142,
  "at": 1143,
  "ow": 1144,
  "féng": 1145,
  "miè": 1146,
  "yǔn": 1147,
  "zòu": 1148,
  "mǎi": 1149,
  "huài": 1150,
  "2004": 1151,
  "45": 1152,
  "yān": 1153,
  "co": 1154,
  "48": 1155,
  "the": 1156,
  "zhuó": 1157,
  "and": 1158,
  "ter": 1159,
  "he": 1160,
  "tào": 1161,
  "nǎi": 1162,
  "kūn": 1163,
  "2025": 1164,
  "zhěn": 1165,
  "ck": 1166,
  "rǔ": 1167,
  "kuà": 1168,
  "kuí": 1169,
  "〉": 1170,
  "〈": 1171,
  "gōu": 1172,
  "36": 1173,
  "cuī": 1174,
  "38": 1175,
  "shǎn": 1176,
  "ròu": 1177,
  "diāo": 1178,
  "2003": 1179,
  "hǔ": 1180,
  "guō": 1181,
  "37": 1182,
  "cuì": 1183,
  "ne": 1184,
  "xú": 1185,
  "máng": 1186,
  "juǎn": 1187,
  "cán": 1188,
  "diān": 1189,
  "zhān": 1190,
  "cáo": 1191,
  "189": 1192,
  "IN": 1193,
  "2002": 1194,
  "is": 1195,
  "bo": 1196,
  "kēng": 1197,
  "TC": 1198,
  "ve": 1199,
  "34": 1200,
  "má": 1201,
  "lěng": 1202,
  "as": 1203,
  "zū": 1204,
  "75": 1205,
  "–": 1206,
  "sú": 1207,
  "quān": 1208,
  "dā": 1209,
  "to": 1210,
  "chāi": 1211,
  "nu": 1212,
  "làng": 1213,
  "kùn": 1214,
  "46": 1215,
  "tún": 1216,
  "fěn": 1217,
  "1990": 1218,
  "…": 1219,
  "zhòu": 1220,
  "shǎng": 1221,
  "rào": 1222,
  "hēng": 1223,
  "tī": 1224,
  "xūn": 1225,
  "39": 1226,
  "nè": 1227,
  "..": 1228,
  "pì": 1229,
  "nàn": 1230,
  "pān": 1231,
  "65": 1232,
  "hōng": 1233,
  "shú": 1234,
  "tān": 1235,
  "Ch": 1236,
  "tāng": 1237,
  "kǎn": 1238,
  "Ma": 1239,
  "nì": 1240,
  "32": 1241,
  "In": 1242,
  "ST": 1243,
  "47": 1244,
  "hǎn": 1245,
  "it": 1246,
  "UTC": 1247,
  "qiàn": 1248,
  "1999": 1249,
  "1998": 1250,
  "1980": 1251,
  "188": 1252,
  "500": 1253,
  "33": 1254,
  "64": 1255,
  "qiǎng": 1256,
  "shuò": 1257,
  "pǎo": 1258,
  "lo": 1259,
  "be": 1260,
  "kā": 1261,
  "zhái": 1262,
  "SE": 1263,
  "55": 1264,
  "quàn": 1265,
  "nī": 1266,
  "dèng": 1267,
  "1997": 1268,
  "The": 1269,
  "mián": 1270,
  "49": 1271,
  "gǎo": 1272,
  "II": 1273,
  "68": 1274,
  "Co": 1275,
  "vi": 1276,
  "shě": 1277,
  "zèng": 1278,
  "Re": 1279,
  "han": 1280,
  "zhóu": 1281,
  "zhài": 1282,
  "44": 1283,
  "1996": 1284,
  "na": 1285,
  "tiē": 1286,
  "dāo": 1287,
  "ad": 1288,
  "br": 1289,
  "1994": 1290,
  "ver": 1291,
  "féi": 1292,
  "zòng": 1293,
  "qióng": 1294,
  "ci": 1295,
  "tiào": 1296,
  "chuáng": 1297,
  "1992": 1298,
  "ba": 1299,
  "chuí": 1300,
  "juān": 1301,
  "chái": 1302,
  "miǎo": 1303,
  "guā": 1304,
  "xuē": 1305,
  "tòng": 1306,
  "1995": 1307,
  "fěi": 1308,
  "chī": 1309,
  "oo": 1310,
  "měng": 1311,
  "wō": 1312,
  "67": 1313,
  "ir": 1314,
  "shuāi": 1315,
  "tuó": 1316,
  "chuāng": 1317,
  "huǎn": 1318,
  "1991": 1319,
  "1970": 1320,
  "58": 1321,
  "ay": 1322,
  "1950": 1323,
  "ca": 1324,
  "nd": 1325,
  "guà": 1326,
  "chán": 1327,
  "300": 1328,
  "wā": 1329,
  "1993": 1330,
  "187": 1331,
  "1949": 1332,
  "pe": 1333,
  "sā": 1334,
  "tiǎo": 1335,
  "AT": 1336,
  "1960": 1337,
  "biǎn": 1338,
  "42": 1339,
  "1945": 1340,
  "ing": 1341,
  "guài": 1342,
  "au": 1343,
  "kǔ": 1344,
  "nú": 1345,
  "1988": 1346,
  "dǔ": 1347,
  "1989": 1348,
  "ig": 1349,
  "pù": 1350,
  "69": 1351,
  "liǔ": 1352,
  "gǒng": 1353,
  "SEE": 1354,
  "tuò": 1355,
  "amp": 1356,
  "ct": 1357,
  "liǎo": 1358,
  "INSEE": 1359,
  "59": 1360,
  "tāi": 1361,
  "43": 1362,
  "66": 1363,
  "chuàn": 1364,
  "op": 1365,
  "chèn": 1366,
  "os": 1367,
  "57": 1368,
  "1985": 1369,
  "huāng": 1370,
  "99": 1371,
  "SA": 1372,
  "『": 1373,
  "cùn": 1374,
  "』": 1375,
  "1984": 1376,
  "hún": 1377,
  "41": 1378,
  "pū": 1379,
  "ly": 1380,
  "us": 1381,
  "kòu": 1382,
  "fén": 1383,
  "88": 1384,
  "1986": 1385,
  "rǎo": 1386,
  "mp": 1387,
  "St": 1388,
  "id": 1389,
  "rùn": 1390,
  "TV": 1391,
  "150": 1392,
  "zhuō": 1393,
  "ind": 1394,
  "400": 1395,
  "sǎn": 1396,
  "1987": 1397,
  "78": 1398,
  "un": 1399,
  "ed": 1400,
  "ha": 1401,
  "1982": 1402,
  "56": 1403,
  "Li": 1404,
  "ur": 1405,
  "ard": 1406,
  "nuó": 1407,
  "1983": 1408,
  "NA": 1409,
  "gǔn": 1410,
  "Ro": 1411,
  "De": 1412,
  "ss": 1413,
  "mā": 1414,
  "tou": 1415,
  "pìn": 1416,
  "CD": 1417,
  "chōu": 1418,
  "ber": 1419,
  "gǒu": 1420,
  "quǎn": 1421,
  "Mi": 1422,
  "77": 1423,
  "zhāi": 1424,
  "Me": 1425,
  "qià": 1426,
  "māo": 1427,
  "qiǎo": 1428,
  "Mar": 1429,
  "tw": 1430,
  "kū": 1431,
  "kuáng": 1432,
  "róu": 1433,
  "der": 1434,
  "79": 1435,
  "lòu": 1436,
  "OS": 1437,
  "°": 1438,
  "kuì": 1439,
  "sàng": 1440,
  "Al": 1442,
  "180": 1443,
  "ty": 1444,
  "BC": 1445,
  "54": 1446,
  "1979": 1447,
  "61": 1448,
  "1920": 1449,
  "ang": 1450,
  "pēn": 1451,
  "98": 1452,
  "sēng": 1453,
  "52": 1454,
  "You": 1455,
  "ap": 1456,
  "1978": 1457,
  "nù": 1458,
  "wēng": 1459,
  "62": 1460,
  "yē": 1461,
  "duǒ": 1462,
  "Le": 1463,
  "53": 1464,
  "xǐng": 1465,
  "juàn": 1466,
  "～": 1467,
  "BA": 1468,
  "ke": 1469,
  "1946": 1470,
  "ts": 1471,
  "CO": 1472,
  "mo": 1473,
  "ction": 1474,
  "51": 1475,
  "1958": 1476,
  "1981": 1477,
  "Vi": 1478,
  "1972": 1479,
  "1948": 1480,
  "zhuì": 1481,
  "cōng": 1482,
  "tōu": 1483,
  "AM": 1484,
  "hi": 1485,
  "63": 1486,
  "man": 1487,
  "ows": 1488,
  "AR": 1489,
  "ry": 1490,
  "1941": 1491,
  "Wind": 1492,
  "BS": 1493,
  "wá": 1494,
  "liǎn": 1495,
  "1930": 1496,
  "Mo": 1497,
  "Pro": 1498,
  "luǎn": 1499,
  "kuāng": 1500,
  "qú": 1501,
  "tuǒ": 1502,
  "ké": 1503,
  "76": 1504,
  "hans": 1505,
  "va": 1506,
  "1940": 1507,
  "1937": 1508,
  "con": 1509,
  "1976": 1510,
  "zuǐ": 1511,
  "1944": 1512,
  "Jo": 1513,
  "89": 1514,
  "1975": 1515,
  "um": 1516,
  "／": 1517,
  "Te": 1518,
  "1968": 1519,
  "niáng": 1520,
  "pó": 1521,
  "shuā": 1522,
  "hk": 1523,
  "yuān": 1524,
  "tāo": 1525,
  "per": 1526,
  "wāng": 1527,
  "ga": 1528,
  "1000": 1529,
  "ran": 1530,
  "Windows": 1531,
  "95": 1532,
  "Ne": 1533,
  "bí": 1534,
  "sǎo": 1535,
  "da": 1536,
  "87": 1537,
  "1966": 1538,
  "85": 1539,
  "fà": 1540,
  "pēng": 1541,
  "600": 1542,
  "làn": 1543,
  "Se": 1544,
  "Sta": 1545,
  "sp": 1546,
  "120": 1547,
  "1947": 1548,
  "Ga": 1549,
  "Ar": 1550,
  "ot": 1551,
  "gā": 1552,
  "1956": 1553,
  "AC": 1554,
  "1964": 1555,
  "dǎn": 1556,
  "cū": 1557,
  "1942": 1558,
  "1955": 1559,
  "chǒu": 1560,
  "lay": 1561,
  "1952": 1562,
  "1939": 1563,
  "IS": 1564,
  "1938": 1565,
  "72": 1566,
  "74": 1567,
  "ht": 1568,
  "rěn": 1569,
  "1973": 1570,
  "ace": 1571,
  "fi": 1572,
  "1974": 1573,
  "1954": 1574,
  "qiē": 1575,
  "ED": 1576,
  "1900": 1577,
  "--": 1578,
  "Be": 1579,
  "AP": 1580,
  "ore": 1581,
  "1943": 1582,
  "1977": 1583,
  "Da": 1584,
  "1971": 1585,
  "pīn": 1586,
  "pǒ": 1587,
  "mán": 1588,
  "1967": 1589,
  "shéng": 1590,
  "ment": 1591,
  "IC": 1592,
  "800": 1593,
  "ER": 1594,
  "La": 1595,
  "86": 1596,
  "1959": 1597,
  "bēng": 1598,
  "son": 1599,
  "1965": 1600,
  "JR": 1601,
  "1969": 1602,
  "Ra": 1603,
  "duī": 1604,
  "Di": 1605,
  "ok": 1606,
  "pén": 1607,
  "・": 1608,
  "×": 1609,
  "qiào": 1610,
  "chuī": 1611,
  "ID": 1612,
  "qiāo": 1613,
  "Su": 1614,
  "ine": 1615,
  "1936": 1616,
  "160": 1617,
  "97": 1618,
  "bēn": 1619,
  "zhuā": 1620,
  "ent": 1621,
  "1953": 1622,
  "Sa": 1623,
  "1962": 1624,
  "MA": 1625,
  "Tu": 1626,
  "tic": 1627,
  "1961": 1628,
  "lǒng": 1629,
  "ation": 1630,
  "1935": 1632,
  "tà": 1633,
  "mái": 1634,
  "Sh": 1635,
  "96": 1636,
  "ON": 1637,
  "ak": 1638,
  "％": 1639,
  "1951": 1640,
  "1957": 1641,
  "1963": 1642,
  "Lo": 1643,
  "─": 1644,
  "one": 1645,
  "rou": 1646,
  "84": 1647,
  "Ja": 1648,
  "2026": 1649,
  "do": 1650,
  "cǎn": 1651,
  "82": 1652,
  "gi": 1653,
  "bu": 1654,
  "mer": 1655,
  "73": 1656,
  "po": 1657,
  "94": 1658,
  "tūn": 1659,
  "92": 1660,
  "So": 1661,
  "AN": 1662,
  "IP": 1663,
  "An": 1664,
  "ho": 1665,
  "ali": 1666,
  "1933": 1667,
  "Mu": 1668,
  "1931": 1669,
  "náng": 1670,
  "niào": 1671,
  "les": 1672,
  "71": 1673,
  "báo": 1674,
  "nuǎn": 1675,
  "léng": 1676,
  "pá": 1677,
  "83": 1678,
  "93": 1679,
  "ai": 1680,
  "We": 1681,
  "81": 1682,
  "dǒu": 1683,
  "1918": 1684,
  "sta": 1685,
  "HD": 1686,
  "Bo": 1687,
  "sāo": 1688,
  "Uni": 1689,
  "1928": 1690,
  "luán": 1691,
  "ki": 1692,
  "1932": 1693,
  "wi": 1694,
  "nèn": 1695,
  "col": 1696,
  "int": 1697,
  "MV": 1698,
  "SS": 1699,
  "our": 1700,
  "110": 1701,
  "tù": 1702,
  "IT": 1703,
  "1912": 1704,
  "all": 1705,
  "1929": 1706,
  "tuǐ": 1707,
  "duò": 1708,
  "1927": 1709,
  "cn": 1710,
  "1934": 1711,
  "are": 1712,
  "Pa": 1713,
  "700": 1714,
  "gá": 1715,
  "che": 1716,
  "by": 1717,
  "ted": 1718,
  "ster": 1719,
  "huǎng": 1720,
  "Si": 1721,
  "250": 1722,
  "ff": 1723,
  "91": 1724,
  "mm": 1725,
  "Par": 1726,
  "zéi": 1727,
  "Ri": 1728,
  "1924": 1729,
  "pp": 1730,
  "ph": 1731,
  "...": 1732,
  "1919": 1733,
  "kuī": 1734,
  "He": 1735,
  "so": 1736,
  "xuàn": 1737,
  "130": 1738,
  "piāo": 1739,
  "no": 1740,
  "1925": 1741,
  "PS": 1742,
  "Play": 1743,
  "pāo": 1744,
  "140": 1745,
  "xiā": 1746,
  "Bu": 1747,
  "Ca": 1748,
  "SM": 1749,
  "Con": 1750,
  "Sp": 1751,
  "PC": 1752,
  "1914": 1753,
  "ble": 1754,
  "ste": 1755,
  "zhǎi": 1756,
  "km": 1757,
  "DV": 1758,
  "zhē": 1759,
  "En": 1760,
  "mes": 1761,
  "YouTu": 1762,
  "com": 1763,
  "Ba": 1764,
  "hē": 1765,
  "Fi": 1766,
  "Ti": 1767,
  "diē": 1768,
  "ell": 1769,
  "gra": 1770,
  "lǎ": 1771,
  "AS": 1772,
  "ia": 1773,
  "1911": 1774,
  "Wi": 1775,
  "shi": 1776,
  "end": 1777,
  "ill": 1778,
  "nüè": 1779,
  "ana": 1780,
  "ara": 1781,
  "Ge": 1782,
  "1926": 1783,
  "den": 1784,
  "1922": 1785,
  "Na": 1786,
  "nǎ": 1787,
  "sion": 1788,
  "hèn": 1789,
  "1917": 1790,
  "ET": 1791,
  "NBA": 1792,
  "IV": 1793,
  "shuí": 1794,
  "cāi": 1795,
  "ráo": 1796,
  "EN": 1797,
  "1923": 1798,
  "art": 1799,
  "1921": 1800,
  "fe": 1801,
  "pèng": 1802,
  "sa": 1803,
  "ka": 1804,
  "kuā": 1805,
  "Goo": 1806,
  "ther": 1807,
  "chǒng": 1808,
  "To": 1809,
  "170": 1810,
  "EC": 1812,
  "ld": 1813,
  "mǎo": 1814,
  "nòng": 1815,
  "AL": 1816,
  "Ha": 1817,
  "MS": 1818,
  "section": 1819,
  "Ni": 1820,
  "YouTube": 1821,
  "EP": 1822,
  "hn": 1823,
  "BL": 1824,
  "1913": 1825,
  "tiāo": 1826,
  "Ju": 1827,
  "HK": 1828,
  "ler": 1829,
  "hant": 1831,
  "gùn": 1832,
  "1909": 1833,
  "gin": 1834,
  "Inter": 1835,
  "cro": 1836,
  "Ste": 1837,
  "MP": 1838,
  "AI": 1839,
  "Ho": 1840,
  "gěng": 1841,
  "Wor": 1842,
  "nào": 1843,
  "Po": 1844,
  "fěng": 1845,
  "Do": 1846,
  "luǒ": 1847,
  "US": 1848,
  "ant": 1849,
  "go": 1850,
  "ya": 1851,
  "DVD": 1852,
  "ort": 1853,
  "zōu": 1854,
  "ris": 1855,
  "3000": 1856,
  "Pi": 1857,
  "cā": 1858,
  "Car": 1859,
  "1910": 1860,
  "RO": 1861,
  "DS": 1862,
  "Th": 1863,
  "112": 1864,
  "AK": 1865,
  "My": 1866,
  "pen": 1867,
  "RE": 1868,
  "pro": 1869,
  "ven": 1870,
  "1916": 1871,
  "Station": 1872,
  "ー": 1873,
  "chuò": 1874,
  "Net": 1875,
  "α": 1876,
  "Ki": 1877,
  "Sch": 1878,
  "olo": 1879,
  "No": 1880,
  "ari": 1881,
  "ture": 1882,
  "gn": 1883,
  "Lin": 1884,
  "CP": 1885,
  "UN": 1886,
  "gle": 1887,
  "ers": 1889,
  "hén": 1890,
  "1915": 1891,
  "oun": 1892,
  "niàng": 1893,
  "1905": 1894,
  "FC": 1895,
  "my": 1896,
  "Lu": 1897,
  "ll": 1898,
  "Wil": 1899,
  "CN": 1900,
  "→": 1902,
  "1901": 1903,
  "Fa": 1904,
  "Au": 1905,
  "ting": 1906,
  "New": 1907,
  "DNA": 1908,
  "Ex": 1909,
  "‧": 1910,
  "ary": 1911,
  "900": 1912,
  "Ph": 1913,
  "sic": 1914,
  "HR": 1915,
  "dice": 1916,
  "sis": 1917,
  ".&": 1918,
  "CH": 1919,
  "zěn": 1920,
  "TA": 1921,
  "dia": 1922,
  "Qu": 1923,
  "TO": 1924,
  "1906": 1925,
  "len": 1926,
  "1904": 1927,
  "chuǎng": 1928,
  "AV": 1929,
  "For": 1930,
  "gěn": 1931,
  "John": 1932,
  "we": 1933,
  "ere": 1934,
  "And": 1935,
  "MO": 1936,
  "ding": 1937,
  "codice": 1938,
  "chǎo": 1939,
  "jiǒng": 1940,
  "℃": 1941,
  "Ta": 1942,
  "pa": 1943,
  "ps": 1944,
  "PlayStation": 1945,
  "fu": 1946,
  "ko": 1947,
  "wà": 1948,
  "bèng": 1949,
  "05": 1950,
  "CC": 1951,
  "ton": 1952,
  "vo": 1953,
  "eri": 1954,
  "diū": 1955,
  "1907": 1956,
  "1908": 1957,
  "Google": 1958,
  "AG": 1959,
  "EST": 1960,
  "MI": 1961,
  "zuàn": 1962,
  "SO": 1963,
  "ory": 1964,
  "tes": 1965,
  "LE": 1966,
  "Gu": 1967,
  "jiá": 1968,
  "zuǎn": 1969,
  "cy": 1970,
  "lī": 1971,
  "chi": 1972,
  "ley": 1973,
  "BO": 1974,
  "enter": 1975,
  "BBC": 1976,
  "AD": 1977,
  "IG": 1978,
  "cal": 1979,
  "III": 1980,
  "Cu": 1981,
  "cri": 1982,
  "oft": 1983,
  "1500": 1984,
  "Ru": 1985,
  "lin": 1986,
  "5000": 1987,
  "ori": 1988,
  "zuān": 1989,
  "pu": 1990,
  "Go": 1991,
  "IST": 1992,
  "shē": 1993,
  "lǘ": 1994,
  "Fe": 1995,
  "Col": 1996,
  "wor": 1997,
  "Sy": 1998,
  "Ka": 1999,
  "ME": 2000,
  "tive": 2001,
  "CR": 2002,
  "gen": 2003,
  "3D": 2004,
  "wit": 2005,
  "round": 2006,
  "IA": 2007,
  "guǎ": 2008,
  "105": 2009,
  "je": 2010,
  "ron": 2011,
  "mà": 2012,
  "а": 2013,
  "101": 2014,
  "1903": 2015,
  "GB": 2016,
  "pīng": 2017,
  "cha": 2018,
  "shá": 2019,
  "lan": 2020,
  "09": 2021,
  "TE": 2022,
  "ree": 2023,
  "Ad": 2024,
  "Hu": 2025,
  "càn": 2026,
  "cén": 2027,
  "1902": 2028,
  "BD": 2029,
  "NC": 2030,
  "land": 2031,
  "can": 2032,
  "ze": 2033,
  "own": 2034,
  "ess": 2035,
  "pāng": 2036,
  "xt": 2037,
  "350": 2038,
  "wa": 2039,
  "ina": 2040,
  "SAO": 2041,
  "sháo": 2042,
  "DC": 2043,
  "net": 2044,
  "span": 2045,
  "des": 2046,
  "β": 2047,
  "ght": 2048,
  "lìn": 2049,
  "ence": 2050,
  "B1900": 2051,
  "inc": 2052,
  "book": 2053,
  "del": 2054,
  "ES": 2055,
  "BM": 2056,
  "．": 2057,
  "dy": 2058,
  "ン": 2059,
  "Hi": 2060,
  "1898": 2061,
  "06": 2062,
  "118": 2063,
  "Pe": 2064,
  "ms": 2065,
  "の": 2066,
  "lá": 2067,
  "pt": 2068,
  "qǐn": 2069,
  "tel": 2070,
  "360": 2071,
  "DR": 2072,
  "mon": 2073,
  "01": 2074,
  "DA": 2075,
  "gh": 2076,
  "Open": 2077,
  "1895": 2078,
  "lào": 2079,
  "yle": 2080,
  "125": 2081,
  "mú": 2082,
  "lar": 2083,
  "bèn": 2084,
  "HO": 2085,
  "Ko": 2086,
  "MC": 2087,
  "ance": 2088,
  "ATP": 2089,
  "Micro": 2090,
  "о": 2091,
  "108": 2092,
  "gy": 2093,
  "NG": 2094,
  "pōu": 2095,
  "igh": 2096,
  "sy": 2097,
  "cor": 2098,
  "tt": 2099,
  "dio": 2100,
  "Ke": 2101,
  "qié": 2102,
  "za": 2103,
  "App": 2104,
  "Pu": 2105,
  "ning": 2106,
  "gram": 2107,
  "IF": 2108,
  "Fran": 2109,
  "ft": 2110,
  "res": 2111,
  "Com": 2112,
  "tin": 2113,
  "−": 2114,
  "07": 2115,
  "08": 2116,
  "230": 2117,
  "Face": 2118,
  "104": 2119,
  "Du": 2120,
  "ref": 2121,
  "One": 2122,
  "World": 2123,
  "old": 2124,
  "Ser": 2125,
  "soft": 2126,
  "EDT": 2127,
  "ISTAT": 2128,
  "Mon": 2129,
  "Stu": 2130,
  "shāi": 2131,
  "sǒng": 2132,
  "NO": 2134,
  "ner": 2135,
  "1896": 2136,
  "Cor": 2137,
  "LL": 2138,
  "Bi": 2139,
  "ger": 2140,
  "lus": 2141,
  "109": 2142,
  "DP": 2143,
  "yū": 2144,
  "las": 2145,
  "AA": 2146,
  "fli": 2147,
  "Comp": 2148,
  "rea": 2149,
  "gě": 2150,
  "RI": 2151,
  "vel": 2152,
  "ren": 2153,
  "line": 2154,
  "RT": 2155,
  "suǐ": 2156,
  "SP": 2157,
  "xiáo": 2158,
  "qiǎ": 2159,
  "EX": 2160,
  "rě": 2161,
  "Bar": 2162,
  "Bri": 2163,
  "ling": 2164,
  "bert": 2165,
  "B48": 2166,
  "106": 2167,
  "1890": 2168,
  "ctor": 2169,
  "CST": 2170,
  "San": 2171,
  "ML": 2172,
  "CDT": 2173,
  "Love": 2174,
  "ity": 2175,
  "mar": 2176,
  "zāng": 2177,
  "row": 2178,
  "DO": 2179,
  "with": 2180,
  "HE": 2181,
  "fa": 2182,
  "Per": 2183,
  "pēi": 2184,
  "ward": 2185,
  "Har": 2186,
  "Man": 2187,
  "ds": 2188,
  "tional": 2189,
  "tain": 2190,
  "ja": 2191,
  "04": 2192,
  "4000": 2193,
  "115": 2194,
  "cuàn": 2195,
  "1200": 2196,
  "ky": 2197,
  "ux": 2198,
  "ound": 2199,
  "ight": 2200,
  "M1": 2201,
  "03": 2202,
  "GP": 2203,
  "páo": 2204,
  "CE": 2205,
  "back": 2206,
  "1889": 2207,
  "begin": 2208,
  "Je": 2209,
  "1899": 2210,
  "ool": 2211,
  "colspan": 2212,
  "1871": 2213,
  "ring": 2214,
  "Ed": 2215,
  "RS": 2216,
  "ower": 2217,
  "mic": 2218,
  "Facebook": 2219,
  "lude": 2220,
  "Willi": 2221,
  "Microsoft": 2222,
  "​": 2223,
  "240": 2224,
  "tur": 2225,
  "Mac": 2226,
  "1600": 2227,
  "LO": 2228,
  "Live": 2229,
  "BE": 2230,
  "cket": 2231,
  "102": 2232,
  "cc": 2233,
  "ker": 2234,
  "box": 2235,
  "TT": 2236,
  "1897": 2237,
  "Gi": 2238,
  "NH": 2239,
  "EE": 2240,
  "chòu": 2241,
  "Pre": 2242,
  "Tri": 2243,
  "117": 2244,
  "On": 2245,
  "PP": 2246,
  "qìn": 2247,
  "ks": 2248,
  "Is": 2249,
  "SC": 2250,
  "02": 2251,
  "van": 2252,
  "cm": 2253,
  "shuǎng": 2254,
  "style": 2255,
  "mb": 2256,
  "103": 2257,
  "AKB48": 2258,
  "MD": 2259,
  "yǎo": 2260,
  "107": 2261,
  "Gra": 2262,
  "bli": 2263,
  "Music": 2264,
  "Gre": 2265,
  "ood": 2266,
  "còu": 2267,
  "Linux": 2268,
  "include": 2269,
  "Dis": 2270,
  "Or": 2271,
  "Tra": 2272,
  "Pri": 2273,
  "tǎng": 2274,
  "ww": 2275,
  "Nor": 2276,
  "pha": 2277,
  "min": 2278,
  "Ori": 2279,
  "ye": 2280,
  "only": 2281,
  "450": 2282,
  "VID": 2283,
  "tus": 2284,
  "127": 2285,
  "mas": 2286,
  "tra": 2287,
  "Davi": 2288,
  "que": 2289,
  "ane": 2290,
  "128": 2291,
  "align": 2292,
  "lāo": 2293,
  "lis": 2294,
  "ous": 2295,
  "Game": 2296,
  "flix": 2297,
  "CL": 2298,
  "ora": 2299,
  "Netflix": 2300,
  "El": 2301,
  "1894": 2302,
  "220": 2303,
  "rin": 2304,
  "Ber": 2305,
  "н": 2306,
  "ser": 2307,
  "William": 2308,
  "IL": 2309,
  "Vo": 2310,
  "SH": 2311,
  "sti": 2312,
  "rom": 2313,
  "Twit": 2314,
  "1880": 2315,
  "Red": 2316,
  "yi": 2317,
  "RNA": 2318,
  "záo": 2319,
  "136": 2320,
  "PG": 2321,
  "Fu": 2322,
  "и": 2323,
  "ero": 2324,
  "い": 2325,
  "TR": 2326,
  "stra": 2327,
  "Team": 2328,
  "1800": 2329,
  "Wa": 2330,
  "ス": 2331,
  "Univer": 2332,
  "ground": 2333,
  "tor": 2334,
  "1885": 2335,
  "nge": 2336,
  "liǎ": 2337,
  "114": 2338,
  "ano": 2339,
  "ん": 2340,
  "pián": 2341,
  "rus": 2342,
  "Hz": 2343,
  "Ty": 2344,
  "Char": 2345,
  "color": 2346,
  "116": 2347,
  "280": 2348,
  "name": 2349,
  "Star": 2350,
  "Eu": 2351,
  "Gen": 2352,
  "UR": 2353,
  "hy": 2354,
  "е": 2355,
  "113": 2356,
  "era": 2357,
  "lla": 2358,
  "1886": 2359,
  "sing": 2360,
  "イ": 2361,
  "TS": 2362,
  "ten": 2363,
  "School": 2364,
  "PO": 2365,
  "mǎng": 2366,
  "lass": 2367,
  "1893": 2368,
  "irl": 2369,
  "Bla": 2370,
  "Mc": 2371,
  "ex": 2372,
  "nic": 2373,
  "out": 2374,
  "111": 2375,
  "Mark": 2376,
  "SL": 2377,
  "irst": 2378,
  "cial": 2380,
  "Super": 2381,
  "Don": 2382,
  "ac": 2383,
  "Wal": 2384,
  "ject": 2385,
  "lex": 2386,
  "mǒ": 2387,
  "ans": 2388,
  "※": 2389,
  "tri": 2390,
  "lia": 2391,
  "ie": 2392,
  "mō": 2393,
  "135": 2394,
  "David": 2395,
  "260": 2396,
  "1860": 2397,
  "national": 2398,
  "Geor": 2399,
  "Mor": 2400,
  "ys": 2401,
  "nín": 2402,
  "gue": 2403,
  "tle": 2404,
  "any": 2405,
  "Pet": 2406,
  "WTA": 2407,
  "way": 2408,
  "roup": 2409,
  "HC": 2410,
  "Mat": 2411,
  "nis": 2412,
  "ces": 2413,
  "UA": 2414,
  "Un": 2415,
  "was": 2416,
  "ouse": 2417,
  "ham": 2418,
  "1888": 2419,
  "Ac": 2420,
  "text": 2421,
  "SD": 2422,
  "-.": 2423,
  "cation": 2424,
  "Bra": 2425,
  "ony": 2426,
  "roid": 2427,
  "background": 2428,
  "yūn": 2429,
  "dǎi": 2430,
  "ream": 2431,
  "Show": 2432,
  "129": 2433,
  "GO": 2434,
  "om": 2435,
  "chēn": 2436,
  "1870": 2437,
  "stri": 2438,
  "GN": 2439,
  "Che": 2441,
  "nia": 2442,
  "1887": 2443,
  "bur": 2444,
  "don": 2445,
  "pri": 2446,
  "shuān": 2447,
  "1868": 2448,
  "6000": 2449,
  "cle": 2450,
  "ö": 2451,
  "р": 2452,
  "1883": 2453,
  "Cy": 2454,
  "NF": 2455,
  "VA": 2456,
  "lub": 2457,
  "meri": 2458,
  "Ku": 2459,
  "ank": 2460,
  "Meta": 2461,
  "320": 2462,
  "Ab": 2463,
  "Xbox": 2464,
  "CS": 2465,
  "NHK": 2466,
  "AF": 2467,
  "DD": 2468,
  "Twitter": 2469,
  "KP": 2470,
  "ny": 2471,
  "onlyinclude": 2472,
  "Tho": 2473,
  "ens": 2474,
  "piáo": 2475,
  "++": 2476,
  "bit": 2477,
  "tàng": 2478,
  "1864": 2479,
  "•": 2480,
  "ION": 2481,
  "1884": 2482,
  "119": 2483,
  "RC": 2484,
  "UE": 2485,
  "tis": 2486,
  "122": 2487,
  "Cl": 2488,
  "2500": 2489,
  "1892": 2490,
  "210": 2491,
  "A1": 2492,
  "ong": 2493,
  "ins": 2494,
  "Wh": 2495,
  "center": 2496,
  "let": 2497,
  "miù": 2498,
  "155": 2499,
  "Sou": 2500,
  "ISO": 2501,
  "145": 2503,
  "1891": 2504,
  "650": 2505,
  "pre": 2506,
  "Android": 2507,
  "Girl": 2508,
  "sel": 2509,
  "NS": 2510,
  "car": 2511,
  "vil": 2512,
  "〕": 2513,
  "sil": 2514,
  "OR": 2515,
  "yo": 2516,
  "As": 2517,
  "〔": 2518,
  "1850": 2519,
  "ona": 2520,
  "cuō": 2521,
  "htt": 2522,
  "red": 2523,
  "low": 2524,
  "xy": 2525,
  "ensis": 2526,
  "International": 2527,
  "Day": 2528,
  "cer": 2529,
  "mī": 2530,
  "1867": 2531,
  "stem": 2532,
  "IM": 2533,
  "pàng": 2534,
  "ト": 2535,
  "All": 2536,
  "Nation": 2537,
  "sed": 2538,
  "1879": 2539,
  "mber": 2540,
  "James": 2541,
  "Enter": 2542,
  "War": 2543,
  "ffi": 2544,
  "380": 2545,
  "AB": 2546,
  "UP": 2547,
  "dis": 2548,
  "1876": 2549,
  "Coun": 2550,
  "Ver": 2551,
  "Universi": 2552,
  "im": 2553,
  "vin": 2554,
  "George": 2555,
  "Her": 2556,
  "1875": 2557,
  "1861": 2558,
  "270": 2559,
  "Dra": 2560,
  "td": 2561,
  "lie": 2562,
  "sia": 2563,
  "eld": 2564,
  "Air": 2565,
  "Group": 2566,
  "IR": 2567,
  "cho": 2568,
  "time": 2569,
  "126": 2570,
  "ama": 2571,
  "NT": 2572,
  "Pau": 2573,
  "lor": 2574,
  "inter": 2575,
  "Ani": 2576,
  "Spe": 2577,
  "Games": 2578,
  "NGC": 2579,
  "Hy": 2580,
  "stru": 2581,
  "ル": 2582,
  "1873": 2583,
  "Hol": 2584,
  "MG": 2585,
  "123": 2586,
  "ラ": 2587,
  "Eng": 2588,
  "PV": 2589,
  "Ben": 2590,
  "HT": 2591,
  "val": 2592,
  "Colle": 2593,
  "day": 2594,
  "MB": 2595,
  "168": 2596,
  "COVID": 2597,
  "critic": 2598,
  "Club": 2599,
  "FM": 2600,
  "Hen": 2601,
  "lue": 2602,
  "1865": 2603,
  "ild": 2604,
  "AO": 2605,
  "PL": 2606,
  "that": 2607,
  "ass": 2608,
  "Ameri": 2609,
  "DE": 2610,
  "121": 2611,
  "Center": 2612,
  "ut": 2613,
  "cus": 2614,
  "Blo": 2615,
  "175": 2616,
  "う": 2617,
  "Web": 2618,
  "H2": 2619,
  "YP": 2620,
  "from": 2621,
  "ä": 2622,
  "1400": 2623,
  "Ali": 2624,
  "od": 2625,
  "MAX": 2626,
  "work": 2627,
  "par": 2628,
  "138": 2629,
  "228": 2630,
  "TP": 2631,
  "fer": 2632,
  "1848": 2633,
  "chàn": 2634,
  "ast": 2635,
  "ald": 2636,
  "ney": 2637,
  "liū": 2638,
  "1862": 2639,
  "330": 2640,
  "dge": 2641,
  "pěng": 2642,
  "124": 2643,
  "ア": 2644,
  "1881": 2645,
  "1882": 2646,
  "737": 2647,
  "age": 2648,
  "Can": 2649,
  "1878": 2650,
  "550": 2651,
  "Sha": 2652,
  "guǎi": 2653,
  "ruǐ": 2654,
  "1872": 2655,
  "Ele": 2656,
  "LC": 2657,
  "bìn": 2658,
  "INK": 2659,
  "Metacritic": 2660,
  "Oricon": 2661,
  "bor": 2662,
  "náo": 2663,
  "156": 2664,
  "MTV": 2665,
  "UC": 2666,
  "bri": 2667,
  "165": 2668,
  "comp": 2669,
  "Boo": 2670,
  "LED": 2671,
  "fo": 2672,
  "1840": 2673,
  "niǎn": 2674,
  "IVE": 2675,
  "High": 2676,
  "Spi": 2677,
  "core": 2678,
  "dāi": 2679,
  "wan": 2680,
  "750": 2681,
  "It": 2682,
  "ns": 2683,
  "tro": 2684,
  "shài": 2685,
  "ッ": 2686,
  "ology": 2687,
  "ming": 2688,
  "1300": 2689,
  "し": 2690,
  "137": 2691,
  "stagram": 2692,
  "7000": 2693,
  "Bro": 2694,
  "DOS": 2695,
  "SQ": 2696,
  "UB": 2697,
  "229": 2698,
  "IU": 2699,
  "cre": 2700,
  "zo": 2701,
  "Chu": 2702,
  "GDP": 2703,
  "King": 2704,
  "OK": 2705,
  "с": 2706,
  "ena": 2707,
  "Lea": 2708,
  "She": 2709,
  "rand": 2710,
  "152": 2711,
  "als": 2712,
  "Stre": 2713,
  "TVB": 2714,
  "Micha": 2715,
  "Va": 2716,
  "lip": 2717,
  "159": 2718,
  "1877": 2719,
  "Robert": 2720,
  "type": 2721,
  "Sur": 2722,
  "kuǐ": 2724,
  "1866": 2725,
  "rist": 2726,
  "Chi": 2727,
  "Chris": 2728,
  "Pat": 2729,
  "iOS": 2730,
  "л": 2731,
  "oly": 2732,
  "Produ": 2733,
  "SK": 2734,
  "1869": 2735,
  "′": 2736,
  "silver": 2737,
  "THE": 2738,
  "Up": 2739,
  "Ce": 2740,
  "DM": 2741,
  "gar": 2742,
  "her": 2743,
  "sen": 2744,
  "xiǔ": 2745,
  "Fri": 2746,
  "NET": 2747,
  "Pla": 2748,
  "к": 2749,
  "she": 2750,
  "139": 2751,
  "Instagram": 2752,
  "Phone": 2753,
  "BI": 2754,
  "star": 2755,
  "BLAC": 2756,
  "Type": 2757,
  "Big": 2758,
  "por": 2759,
  "в": 2760,
  "DJ": 2761,
  "rēng": 2762,
  "iss": 2763,
  "Apple": 2764,
  "CG": 2765,
  "Hel": 2766,
  "WE": 2767,
  "ew": 2768,
  "ray": 2769,
  "ク": 2770,
  "code": 2771,
  "Michael": 2772,
  "At": 2773,
  "DF": 2774,
  "ark": 2776,
  "alk": 2777,
  "1100": 2778,
  "158": 2779,
  "ons": 2780,
  "ator": 2781,
  "Tech": 2782,
  "Paul": 2783,
  "225": 2784,
  "305": 2785,
  "133": 2786,
  "INE": 2787,
  "cia": 2788,
  "RA": 2789,
  "sǎ": 2790,
  "リ": 2791,
  "Award": 2792,
  "HI": 2793,
  "YO": 2794,
  "132": 2795,
  "Steam": 2796,
  "205": 2797,
  "1863": 2798,
  "Park": 2799,
  "National": 2800,
  "Bill": 2801,
  "Ye": 2802,
  "tainment": 2803,
  "215": 2804,
  "Ci": 2805,
  "bra": 2806,
  "sto": 2807,
  "new": 2808,
  "University": 2809,
  "FO": 2810,
  "ral": 2811,
  "Media": 2812,
  "CA": 2813,
  "F1": 2814,
  "KBS": 2815,
  "Val": 2816,
  "148": 2817,
  "131": 2818,
  "Lou": 2819,
  "Smi": 2820,
  "166": 2821,
  "arch": 2822,
  "1874": 2823,
  "sso": 2824,
  "EF": 2825,
  "Mer": 2826,
  "XX": 2827,
  "bal": 2828,
  "kg": 2829,
  "now": 2830,
  "1858": 2831,
  "Fin": 2832,
  "Kar": 2833,
  "Tran": 2834,
  "gon": 2835,
  "ves": 2836,
  "147": 2837,
  "space": 2838,
  "Black": 2839,
  "Ter": 2840,
  "ach": 2841,
  "gan": 2842,
  "Peter": 2843,
  "Gar": 2844,
  "deo": 2845,
  "256": 2846,
  "か": 2847,
  "GA": 2848,
  "IE": 2849,
  "M2": 2850,
  "kǔn": 2851,
  "1830": 2852,
  "Rich": 2853,
  "CBS": 2854,
  "UT": 2855,
  "1851": 2856,
  "Lee": 2857,
  "BN": 2858,
  "UI": 2859,
  "192": 2860,
  "zer": 2861,
  "μ": 2862,
  "ada": 2863,
  "8000": 2864,
  "chě": 2865,
  "Jack": 2866,
  "Entertainment": 2867,
  "310": 2868,
  "Jap": 2869,
  "Win": 2870,
  "lǐn": 2871,
  "bin": 2872,
  "mini": 2873,
  "143": 2874,
  "set": 2875,
  "City": 2876,
  "Mk": 2877,
  "gàng": 2878,
  "1855": 2879,
  "rie": 2880,
  "ater": 2881,
  "Intel": 2882,
  "Power": 2883,
  "EM": 2884,
  "IX": 2885,
  "Sam": 2886,
  "hǎ": 2887,
  "Space": 2888,
  "RAM": 2889,
  "185": 2891,
  "1859": 2892,
  "zuó": 2893,
  "STAR": 2894,
  "ship": 2895,
  "Charles": 2896,
  "bel": 2897,
  "py": 2898,
  "134": 2899,
  "Dire": 2900,
  "Ang": 2901,
  "ABC": 2902,
  "Fla": 2903,
  "ene": 2904,
  "1854": 2905,
  "146": 2906,
  "301": 2907,
  "enti": 2908,
  "1700": 2909,
  "Viu": 2910,
  "Java": 2911,
  "370": 2912,
  "if": 2913,
  "1857": 2914,
  "Free": 2915,
  "GM": 2916,
  "Py": 2917,
  "Tai": 2918,
  "whi": 2919,
  "stro": 2920,
  "vs": 2921,
  "ا": 2922,
  "ann": 2923,
  "290": 2924,
  "な": 2925,
  "Life": 2926,
  "︰": 2927,
  "Er": 2928,
  "Pan": 2929,
  "Ve": 2930,
  "γ": 2931,
  "214": 2932,
  "420": 2933,
  "Dream": 2934,
  "Ya": 2935,
  "т": 2936,
  "Recor": 2937,
  "Alpha": 2938,
  "Company": 2939,
  "stitu": 2940,
  "ek": 2941,
  "fang": 2942,
  "face": 2943,
  "ο": 2944,
  "〜": 2945,
  "mis": 2946,
  "1856": 2947,
  "1853": 2948,
  "Project": 2949,
  "Am": 2950,
  "House": 2951,
  "Pop": 2952,
  "first": 2953,
  "dium": 2954,
  "た": 2955,
  "ety": 2956,
  "Time": 2957,
  "Thomas": 2958,
  "Cal": 2959,
  "Min": 2960,
  "ae": 2961,
  "ox": 2962,
  "von": 2963,
  "vis": 2964,
  "144": 2965,
  "Saint": 2966,
  "FA": 2967,
  "Ken": 2968,
  "OVA": 2969,
  "Cent": 2970,
  "Tru": 2971,
  "VO": 2972,
  "bò": 2973,
  "A2": 2974,
  "IO": 2975,
  "167": 2976,
  "Street": 2977,
  "3A": 2978,
  "HS": 2979,
  "SBS": 2980,
  "shǎ": 2981,
  "bili": 2982,
  "kuǎ": 2983,
  "1841": 2984,
  "very": 2985,
  "Alex": 2986,
  "Bat": 2987,
  "LP": 2988,
  "Lau": 2989,
  "Tor": 2990,
  "din": 2991,
  "ric": 2992,
  "340": 2993,
  "PM": 2994,
  "Por": 2995,
  "Shi": 2996,
  "chuǎn": 2997,
  "mat": 2998,
  "mation": 2999,
  "BLACKP": 3000,
  "Met": 3001,
  "ple": 3002,
  "zā": 3003,
  "208": 3004,
  "1815": 3005,
  "178": 3006,
  "CPU": 3007,
  "BLACKPINK": 3008,
  "223": 3009,
  "Bur": 3010,
  "cis": 3011,
  "mèn": 3012,
  "Soci": 3013,
  "Studio": 3014,
  "Euro": 3015,
  "850": 3016,
  "LGB": 3017,
  "Sing": 3018,
  "pla": 3019,
  "cher": 3020,
  "zuō": 3021,
  "ses": 3022,
  "Rock": 3023,
  "www": 3024,
  "IBM": 3025,
  "spe": 3026,
  "SF": 3027,
  "207": 3028,
  "die": 3029,
  "play": 3030,
  "sg": 3031,
  "nie": 3032,
  "171": 3033,
  "235": 3034,
  "tation": 3035,
  "と": 3036,
  "ま": 3037,
  "Dig": 3038,
  "Fer": 3039,
  "LIVE": 3040,
  "Mr": 3041,
  "PE": 3042,
  "SU": 3043,
  "VE": 3044,
  "Yu": 3045,
  "nìng": 3046,
  "203": 3047,
  "B2": 3048,
  "Whi": 3049,
  "not": 3050,
  "Art": 3051,
  "SQL": 3052,
  "Pad": 3053,
  "1846": 3054,
  "164": 3055,
  "ford": 3056,
  "oot": 3057,
  "College": 3058,
  "bre": 3059,
  "cra": 3060,
  "157": 3061,
  "vice": 3062,
  "berg": 3063,
  "publi": 3064,
  "BR": 3065,
  "LT": 3066,
  "NE": 3067,
  "lit": 3068,
  "141": 3069,
  "ICE": 3070,
  "B1": 3071,
  "Cro": 3072,
  "Cap": 3073,
  "Sun": 3074,
  "ond": 3075,
  "176": 3076,
  "thy": 3077,
  "ING": 3078,
  "board": 3079,
  "Inc": 3080,
  "Tele": 3081,
  "American": 3082,
  "Asso": 3083,
  "LS": 3084,
  "hān": 3085,
  "you": 3086,
  "²": 3087,
  "1812": 3088,
  "1845": 3089,
  "1844": 3090,
  "sign": 3091,
  "Road": 3092,
  "Girls": 3093,
  "self": 3094,
  "Ze": 3095,
  "sch": 3096,
  "mit": 3097,
  "231": 3098,
  "Offi": 3099,
  "cture": 3100,
  "class": 3101,
  "HF": 3102,
  "Ltd": 3103,
  "M3": 3104,
  "Mil": 3105,
  "Ros": 3106,
  "り": 3107,
  "witch": 3108,
  "LGBT": 3109,
  "Ag": 3110,
  "ball": 3111,
  "209": 3112,
  "cess": 3113,
  "き": 3114,
  "off": 3115,
  "NASA": 3116,
  "GNU": 3117,
  "LA": 3118,
  "wāi": 3119,
  "ded": 3120,
  "Jose": 3121,
  "Smith": 3122,
  "Cla": 3123,
  "Ger": 3124,
  "PA": 3125,
  "Pra": 3126,
  "ampi": 3127,
  "IUCN": 3128,
  "216": 3129,
  "PN": 3130,
  "κ": 3131,
  "1849": 3132,
  "153": 3133,
  "temp": 3134,
  "ved": 3135,
  "Good": 3136,
  "CT": 3137,
  "Fil": 3138,
  "NBC": 3139,
  "Tour": 3140,
  "wh": 3141,
  "zhǒu": 3142,
  "sha": 3143,
  "204": 3144,
  "238": 3145,
  "aurus": 3146,
  "Production": 3147,
  "BB": 3148,
  "Cra": 3149,
  "Gal": 3150,
  "Hall": 3151,
  "Sci": 3152,
  "nal": 3153,
  "oi": 3154,
  "yn": 3155,
  "vision": 3156,
  "Video": 3157,
  "Gala": 3158,
  "GT": 3159,
  "O2": 3160,
  "lē": 3161,
  "pm": 3162,
  "ue": 3163,
  "σ": 3164,
  "mited": 3165,
  "orts": 3166,
  "ino": 3167,
  "tions": 3168,
  "Eli": 3169,
  "PR": 3170,
  "Sky": 3171,
  "tal": 3172,
  "206": 3173,
  "lea": 3174,
  "qui": 3175,
  "mac": 3176,
  "460": 3177,
  "ab": 3178,
  "mal": 3179,
  "win": 3180,
  "1814": 3181,
  "org": 3182,
  "218": 3183,
  "ani": 3184,
  "fra": 3185,
  "eries": 3186,
  "Richard": 3187,
  "SI": 3188,
  "lti": 3189,
  "war": 3190,
  "chǔn": 3191,
  "rich": 3192,
  "ange": 3193,
  "IGN": 3194,
  "Act": 3195,
  "LD": 3196,
  "pic": 3198,
  "Boy": 3199,
  "Far": 3200,
  "Tur": 3201,
  "WS": 3202,
  "π": 3203,
  "def": 3204,
  "1847": 3205,
  "154": 3206,
  "turn": 3207,
  "580": 3208,
  "Ama": 3209,
  "FF": 3210,
  "bun": 3211,
  "ep": 3212,
  "fri": 3213,
  "led": 3214,
  "1843": 3215,
  "mann": 3216,
  "Best": 3217,
  "phy": 3218,
  "System": 3219,
  "ptr": 3220,
  "430": 3221,
  "Mas": 3222,
  "MBC": 3223,
  "Plan": 3224,
  "zz": 3225,
  "177": 3226,
  "401": 3227,
  "chem": 3228,
  "410": 3229,
  "Bel": 3230,
  "Sal": 3231,
  "シ": 3232,
  "NFL": 3233,
  "ViuTV": 3234,
  "Switch": 3235,
  "Wo": 3236,
  "king": 3237,
  "163": 3238,
  "AMD": 3239,
  "API": 3240,
  "West": 3241,
  "Japan": 3242,
  "ICO": 3243,
  "bar": 3244,
  "bus": 3245,
  "up": 3246,
  "ments": 3247,
  "1852": 3248,
  "162": 3249,
  "thon": 3250,
  "esti": 3251,
  "Christ": 3252,
  "cript": 3253,
  "VII": 3254,
  "1820": 3255,
  "orn": 3256,
  "get": 3257,
  "this": 3258,
  "く": 3259,
  "Max": 3260,
  "Fre": 3261,
  "Prin": 3262,
  "cil": 3263,
  "142": 3264,
  "234": 3265,
  "ria": 3266,
  "Roy": 3267,
  "VR": 3268,
  "172": 3269,
  "お": 3270,
  "さ": 3271,
  "Records": 3272,
  "640": 3273,
  "Dan": 3274,
  "Squ": 3275,
  "Vir": 3276,
  "wood": 3277,
  "169": 3278,
  "3500": 3279,
  "Limited": 3280,
  "Core": 3281,
  "KC": 3282,
  "T1": 3283,
  "gs": 3284,
  "phi": 3285,
  "±": 3286,
  "1839": 3287,
  "ars": 3288,
  "232": 3289,
  "data": 3290,
  "480": 3291,
  "CM": 3292,
  "cī": 3293,
  "179": 3294,
  "thi": 3295,
  "cade": 3296,
  "ful": 3297,
  "2030": 3298,
  "eni": 3299,
  "149": 3300,
  "max": 3301,
  "365": 3302,
  "Institu": 3303,
  "How": 3304,
  "var": 3305,
  "1821": 3306,
  "ロ": 3307,
  "み": 3308,
  "Cha": 3309,
  "aya": 3310,
  "Unicode": 3311,
  "ROM": 3312,
  "CCTV": 3313,
  "390": 3314,
  "BU": 3315,
  "Res": 3316,
  "Vol": 3317,
  "XP": 3318,
  "ness": 3319,
  "tv": 3320,
  "306": 3321,
  "alo": 3322,
  "222": 3323,
  "601": 3324,
  "unch": 3325,
  "Fan": 3326,
  "tube": 3327,
  "173": 3328,
  "itch": 3329,
  "Bob": 3330,
  "EA": 3331,
  "PF": 3332,
  "247": 3333,
  "ital": 3334,
  "Camp": 3335,
  "KK": 3336,
  "lian": 3337,
  "ping": 3338,
  "1790": 3339,
  "ders": 3340,
  "211": 3341,
  "560": 3342,
  "Fun": 3343,
  "OH": 3344,
  "SN": 3345,
  "kh": 3346,
  "wid": 3347,
  "ord": 3348,
  "レ": 3349,
  "ciation": 3350,
  "BF": 3351,
  "Es": 3352,
  "Top": 3353,
  "VM": 3354,
  "tran": 3355,
  "Force": 3356,
  "Hot": 3357,
  "MU": 3358,
  "PD": 3359,
  "PH": 3360,
  "Sir": 3361,
  "shuǎ": 3362,
  "183": 3363,
  "1795": 3364,
  "303": 3365,
  "rew": 3366,
  "○": 3367,
  "use": 3368,
  "lum": 3369,
  "233": 3370,
  "search": 3371,
  "ち": 3372,
  "1801": 3373,
  "213": 3374,
  "Tok": 3375,
  "wèng": 3376,
  "マ": 3377,
  "USB": 3378,
  "dra": 3379,
  "sub": 3380,
  "174": 3381,
  "run": 3382,
  "Mag": 3383,
  "MVP": 3384,
  "CK": 3385,
  "lli": 3386,
  "zon": 3387,
  "ρ": 3388,
  "186": 3391,
  "1838": 3392,
  "ors": 3393,
  "Store": 3394,
  "key": 3395,
  "Heart": 3396,
  "Direct": 3397,
  "520": 3398,
  "Bank": 3399,
  "DDR": 3400,
  "Glo": 3401,
  "Zi": 3402,
  "zy": 3403,
  "mily": 3404,
  "cker": 3405,
  "Jean": 3406,
  "610": 3407,
  "Fle": 3408,
  "iPad": 3409,
  "rǒng": 3410,
  "bile": 3411,
  "161": 3412,
  "501": 3413,
  "ド": 3414,
  "Home": 3415,
  "http": 3416,
  "224": 3417,
  "CF": 3418,
  "Pen": 3419,
  "ele": 3420,
  "mg": 3421,
  "sur": 3422,
  "tia": 3423,
  "1813": 3424,
  "ら": 3425,
  "Phil": 3426,
  "GE": 3427,
  "Lon": 3428,
  "kin": 3429,
  "tz": 3430,
  "τ": 3431,
  "ense": 3432,
  "182": 3433,
  "1832": 3434,
  "1842": 3435,
  "lation": 3436,
  "255": 3437,
  "its": 3438,
  "Society": 3439,
  "AE": 3440,
  "Gold": 3441,
  "Han": 3442,
  "Sco": 3443,
  "fter": 3444,
  "iPhone": 3445,
  "184": 3446,
  "カ": 3447,
  "los": 3448,
  "Mini": 3449,
  "Data": 3450,
  "720": 3451,
  "KI": 3452,
  "Script": 3453,
  "dd": 3454,
  "ise": 3455,
  "1836": 3457,
  "late": 3458,
  "1793": 3459,
  "オ": 3460,
  "Comic": 3461,
  "ving": 3462,
  "Muse": 3463,
  "KiHa": 3464,
  "buntu": 3465,
  "221": 3466,
  "Cri": 3467,
  "Dr": 3468,
  "HBO": 3469,
  "MT": 3470,
  "Mel": 3471,
  "Tun": 3472,
  "gre": 3473,
  "hǒu": 3474,
  "tian": 3475,
  "1833": 3476,
  "nity": 3477,
  "1789": 3478,
  "tics": 3479,
  "River": 3480,
  "ount": 3481,
  "https": 3482,
  "Association": 3483,
  "Galaxy": 3484,
  "Bay": 3485,
  "DAM": 3486,
  "M4": 3487,
  "QQ": 3488,
  "cl": 3489,
  "fin": 3490,
  "nga": 3491,
  "ties": 3492,
  "1835": 3493,
  "151": 3494,
  "tho": 3495,
  "タ": 3496,
  "ady": 3497,
  "219": 3498,
  "217": 3499,
  "338": 3500,
  "Cry": 3501,
  "FT": 3502,
  "JYP": 3503,
  "Rap": 3504,
  "SR": 3505,
  "Ubuntu": 3506,
  "WA": 3507,
  "fy": 3508,
  "lon": 3509,
  "shang": 3511,
  "‰": 3512,
  "tha": 3513,
  "Martin": 3514,
  "1804": 3515,
  "ONE": 3516,
  "CEO": 3517,
  "width": 3518,
  "470": 3519,
  "740": 3520,
  "830": 3521,
  "nt": 3522,
  "light": 3523,
  "form": 3524,
  "Tom": 3525,
  "Henry": 3526,
  "League": 3527,
  "YG": 3528,
  "dro": 3529,
  "well": 3530,
  "ς": 3531,
  "д": 3532,
  "Champi": 3534,
  "Master": 3535,
  "Gener": 3536,
  "Ear": 3537,
  "Fra": 3538,
  "LINE": 3539,
  "Phi": 3540,
  "Vil": 3541,
  "gà": 3542,
  "uni": 3543,
  "ν": 3544,
  "chel": 3545,
  "mus": 3546,
  "amer": 3547,
  "top": 3548,
  "ART": 3549,
  "Green": 3550,
  "ville": 3551,
  "212": 3552,
  "DK": 3553,
  "cti": 3554,
  "has": 3555,
  "nm": 3556,
  "у": 3557,
  "less": 3558,
  "1828": 3559,
  "コ": 3560,
  "oper": 3561,
  "APAN": 3562,
  "rown": 3563,
  "Dy": 3564,
  "Dou": 3565,
  "FR": 3566,
  "Mana": 3567,
  "Night": 3568,
  "Pin": 3569,
  "ag": 3570,
  "har": 3571,
  "oni": 3572,
  "191": 3573,
  "dit": 3574,
  "302": 3575,
  "table": 3576,
  "Billboard": 3577,
  "Office": 3578,
  "680": 3579,
  "Br": 3580,
  "Bal": 3581,
  "Jan": 3582,
  "MHz": 3583,
  "PI": 3584,
  "SNH": 3585,
  "ban": 3586,
  "bro": 3587,
  "kar": 3588,
  "ι": 3589,
  "181": 3590,
  "1624": 3591,
  "sts": 3592,
  "237": 3593,
  "side": 3594,
  "main": 3595,
  "る": 3596,
  "China": 3597,
  "Code": 3598,
  "Young": 3599,
  "cond": 3600,
  "Note": 3601,
  "Joseph": 3602,
  "SNH48": 3603,
  "Bir": 3604,
  "Des": 3605,
  "FDA": 3606,
  "JAPAN": 3607,
  "Ob": 3608,
  "PK": 3609,
  "1644": 3612,
  "308": 3613,
  "ston": 3614,
  "Stra": 3615,
  "COM": 3616,
  "tical": 3617,
  "Pala": 3618,
  "440": 3619,
  "DB": 3620,
  "GR": 3621,
  "Van": 3622,
  "hun": 3623,
  "tuí": 3624,
  "10000": 3625,
  "1837": 3626,
  "239": 3627,
  "than": 3628,
  "rick": 3629,
  "1806": 3630,
  "Long": 3631,
  "Song": 3632,
  "United": 3633,
  "Part": 3634,
  "macOS": 3635,
  "CV": 3636,
  "East": 3637,
  "MW": 3638,
  "U21": 3639,
  "â": 3640,
  "î": 3641,
  "δ": 3642,
  "1819": 3645,
  "299": 3646,
  "346": 3647,
  "HTML": 3648,
  "annel": 3649,
  "780": 3650,
  "Hill": 3651,
  "Tw": 3652,
  "Ten": 3653,
  "Talk": 3654,
  "jo": 3655,
  "port": 3656,
  "1825": 3657,
  "245": 3658,
  "236": 3659,
  "505": 3660,
  "279": 3661,
  "に": 3662,
  "Radio": 3663,
  "Digital": 3664,
  "540": 3665,
  "Down": 3666,
  "EV": 3667,
  "H5": 3668,
  "Ji": 3669,
  "rpm": 3670,
  "wn": 3671,
  "lic": 3672,
  "chòng": 3673,
  "sian": 3674,
  "ella": 3675,
  "News": 3676,
  "325": 3677,
  "Cat": 3678,
  "Pas": 3679,
  "001": 3680,
  "1776": 3681,
  "right": 3682,
  "じ": 3683,
  "long": 3684,
  "but": 3685,
  "dent": 3686,
  "NCAA": 3687,
  "Server": 3688,
  "FAT": 3689,
  "Sil": 3690,
  "1818": 3691,
  "265": 3692,
  "こ": 3693,
  "ned": 3694,
  "Que": 3695,
  "Hello": 3696,
  "Ban": 3697,
  "Bru": 3698,
  "Dri": 3699,
  "Nu": 3700,
  "Ven": 3701,
  "Wat": 3702,
  "1824": 3703,
  "1831": 3704,
  "2027": 3705,
  "Cho": 3706,
  "Hist": 3707,
  "Kong": 3708,
  "Em": 3709,
  "GS": 3710,
  "RPG": 3711,
  "pr": 3712,
  "ç": 3713,
  "ô": 3714,
  "tum": 3715,
  "med": 3716,
  "386": 3717,
  "Child": 3718,
  "Service": 3719,
  "Ⅱ": 3720,
  "UM": 3721,
  "bet": 3722,
  "hur": 3723,
  "sual": 3724,
  "rome": 3725,
  "via": 3726,
  "BSD": 3727,
  "Frank": 3728,
  "Island": 3729,
  "Python": 3730,
  "public": 3731,
  "Science": 3732,
  "1A": 3733,
  "Blue": 3734,
  "CW": 3735,
  "Fore": 3736,
  "XML": 3737,
  "clo": 3738,
  "λ": 3739,
  "275": 3740,
  "2700": 3741,
  "anda": 3742,
  "Youtube": 3743,
  "Jump": 3744,
  "Edward": 3745,
  "Under": 3746,
  "White": 3747,
  "312": 3748,
  "5G": 3749,
  "730": 3750,
  "Bor": 3751,
  "First": 3752,
  "Grand": 3753,
  "HL": 3754,
  "OM": 3755,
  "Poly": 3756,
  "TBS": 3757,
  "hāo": 3758,
  "nes": 3759,
  "rey": 3760,
  "264": 3761,
  "295": 3762,
  "1802": 3763,
  "BLUE": 3764,
  "Institute": 3765,
  "Champion": 3766,
  "630": 3767,
  "Hor": 3768,
  "Out": 3769,
  "Sum": 3770,
  "TM": 3771,
  "ben": 3772,
  "fun": 3773,
  "sus": 3774,
  "1822": 3775,
  "niē": 3776,
  "288": 3777,
  "ration": 3778,
  "ジ": 3779,
  "aka": 3780,
  "Envi": 3781,
  "Cas": 3782,
  "Lan": 3783,
  "Les": 3784,
  "Os": 3785,
  "other": 3786,
  "plo": 3787,
  "pop": 3788,
  "ل": 3789,
  "list": 3790,
  "lang": 3791,
  "ared": 3792,
  "244": 3793,
  "フ": 3794,
  "vate": 3795,
  "ITF": 3796,
  "2D": 3797,
  "Gro": 3798,
  "JT": 3799,
  "Sof": 3800,
  "cent": 3801,
  "em": 3802,
  "xel": 3803,
  "launch": 3804,
  "249": 3805,
  "903": 3806,
  "North": 3807,
  "Square": 3808,
  "OT": 3809,
  "PID": 3810,
  "Series": 3811,
  "ul": 3812,
  "zation": 3813,
  "š": 3814,
  "243": 3815,
  "2800": 3816,
  "Your": 3817,
  "Hong": 3818,
  "This": 3819,
  "Cup": 3820,
  "FX": 3821,
  "Lang": 3822,
  "NP": 3823,
  "__": 3824,
  "hr": 3825,
  "1810": 3826,
  "1622": 3827,
  "1792": 3828,
  "307": 3829,
  "return": 3830,
  "tas": 3831,
  "701": 3832,
  "SARS": 3833,
  "POP": 3834,
  "Techn": 3835,
  "960": 3836,
  "Cur": 3837,
  "Ham": 3838,
  "Ray": 3839,
  "Sig": 3840,
  "SHO": 3841,
  "VV": 3842,
  "ob": 3843,
  "pǎi": 3844,
  "vy": 3845,
  "ε": 3846,
  "1650": 3847,
  "801": 3848,
  "view": 3849,
  "Network": 3850,
  "MIUI": 3851,
  "burg": 3852,
  "Tunes": 3853,
  "2100": 3854,
  "Pal": 3855,
  "Ur": 3856,
  "part": 3857,
  "м": 3858,
  "1826": 3859,
  "anti": 3860,
  "1573": 3861,
  "oud": 3862,
  "ason": 3863,
  "cing": 3864,
  "have": 3865,
  "747": 3866,
  "Cle": 3867,
  "Jour": 3868,
  "imp": 3869,
  "tual": 3870,
  "1834": 3871,
  "304": 3872,
  "ould": 3873,
  "226": 3874,
  "278": 3875,
  "lta": 3876,
  "ミ": 3877,
  "も": 3878,
  "375": 3879,
  "add": 3880,
  "1805": 3881,
  "ACT": 3882,
  "APP": 3883,
  "AIR": 3884,
  "ologi": 3885,
  "Block": 3886,
  "HA": 3887,
  "Ly": 3888,
  "Yo": 3889,
  "hel": 3890,
  "ii": 3891,
  "rd": 3892,
  "chen": 3893,
  "007": 3894,
  "oro": 3895,
  "296": 3896,
  "298": 3897,
  "sig": 3898,
  "385": 3899,
  "ATA": 3900,
  "Model": 3901,
  "gain": 3902,
  "Dani": 3903,
  "Studi": 3904,
  "335": 3905,
  "590": 3906,
  "9000": 3907,
  "CU": 3908,
  "Now": 3909,
  "Ry": 3910,
  "Ram": 3911,
  "WN": 3912,
  "ml": 3913,
  "non": 3914,
  "oc": 3915,
  "ω": 3916,
  "ork": 3918,
  "1780": 3919,
  "ress": 3920,
  "227": 3921,
  "ム": 3922,
  "olf": 3923,
  "map": 3924,
  "May": 3925,
  "Real": 3926,
  "Sports": 3927,
  "dings": 3928,
  "IFA": 3929,
  "315": 3930,
  "Gil": 3931,
  "Jon": 3932,
  "Op": 3933,
  "Sc": 3934,
  "had": 3935,
  "iTunes": 3936,
  "ken": 3937,
  "»": 3938,
  "251": 3939,
  "ough": 3940,
  "277": 3941,
  "ato": 3942,
  "oney": 3943,
  "CNN": 3944,
  "2A": 3945,
  "Dar": 3946,
  "Gran": 3947,
  "Over": 3948,
  "Ren": 3949,
  "Rus": 3950,
  "RFC": 3951,
  "pH": 3952,
  "zine": 3953,
  "1582": 3954,
  "1799": 3955,
  "259": 3956,
  "246": 3957,
  "248": 3958,
  "1809": 3959,
  "Internet": 3960,
  "South": 3961,
  "Engine": 3962,
  "4G": 3963,
  "530": 3964,
  "C2": 3965,
  "DLC": 3966,
  "Sm": 3967,
  "gèn": 3968,
  "sǎng": 3969,
  "sin": 3970,
  "«": 3971,
  "lio": 3972,
  "1823": 3973,
  "ander": 3974,
  "1621": 3975,
  "272": 3976,
  "rum": 3977,
  "405": 3978,
  "ATION": 3979,
  "tware": 3980,
  "1803": 3981,
  "dae": 3982,
  "State": 3983,
  "stems": 3984,
  "EEE": 3985,
  "press": 3986,
  "334": 3987,
  "620": 3988,
  "770": 3989,
  "Class": 3990,
  "SG": 3991,
  "dition": 3992,
  "lution": 3993,
  "1625": 3994,
  "ges": 3995,
  "284": 3996,
  "285": 3997,
  "サ": 3998,
  "Auto": 3999,
  "Publi": 4000,
  "311": 4001,
  "880": 4002,
  "Dot": 4003,
  "Kh": 4004,
  "Sony": 4005,
  "VI": 4006,
  "É": 4007,
  "258": 4009,
  "276": 4010,
  "cur": 4011,
  "が": 4012,
  "Alf": 4013,
  "Mobile": 4014,
  "Bus": 4015,
  "KO": 4016,
  "Oper": 4017,
  "Sw": 4018,
  "Way": 4019,
  "XT": 4020,
  "pres": 4021,
  "253": 4023,
  "aly": 4024,
  "357": 4025,
  "num": 4026,
  "Maria": 4027,
  "Moon": 4028,
  "Wii": 4029,
  "Pier": 4030,
  "660": 4031,
  "Cli": 4032,
  "Get": 4033,
  "NM": 4034,
  "SV": 4035,
  "UL": 4036,
  "sm": 4037,
  "й": 4038,
  "dian": 4039,
  "プ": 4040,
  "cks": 4041,
  "STA": 4042,
  "IPv": 4043,
  "Unix": 4044,
  "What": 4045,
  "Europe": 4046,
  "570": 4047,
  "Cer": 4048,
  "U19": 4049,
  "WF": 4050,
  "ee": 4051,
  "mor": 4052,
  "г": 4053,
  "tuān": 4054,
  "1827": 4055,
  "1570": 4056,
  "あ": 4057,
  "gazine": 4058,
  "Beau": 4059,
  "Link": 4060,
  "velop": 4061,
  "Book": 4062,
  "Trans": 4063,
  "314": 4064,
  "3DS": 4065,
  "690": 4066,
  "Bre": 4067,
  "BBS": 4068,
  "C6": 4069,
  "DSM": 4070,
  "IEEE": 4071,
  "Men": 4072,
  "SB": 4073,
  "Sound": 4074,
  "WWE": 4075,
  "more": 4076,
  "1817": 4077,
  "1640": 4078,
  "1636": 4079,
  "268": 4080,
  "402": 4081,
  "404": 4082,
  "は": 4083,
  "Regi": 4084,
  "Rain": 4085,
  "which": 4086,
  "AX": 4087,
  "Gri": 4088,
  "blo": 4089,
  "ini": 4090,
  "nor": 4091,
  "nger": 4092,
  "laris": 4093,
  "1775": 4094,
  "254": 4095,
  "ters": 4096,
  "465": 4097,
  "Medi": 4098,
  "Die": 4099,
  "Tik": 4100,
  "Francis": 4101,
  "Commu": 4102,
  "323": 4103,
  "Ath": 4104,
  "Cir": 4105,
  "HP": 4106,
  "OP": 4107,
  "kāo": 4108,
  "1750": 4109,
  "309": 4110,
  "oom": 4111,
  "ople": 4112,
  "Joy": 4113,
  "fic": 4114,
  "329": 4115,
  "670": 4116,
  "Dol": 4117,
  "End": 4118,
  "Plus": 4119,
  "bon": 4120,
  "pur": 4121,
  "shing": 4122,
  "guāi": 4123,
  "1816": 4124,
  "pin": 4125,
  "lai": 4126,
  "fore": 4127,
  "チ": 4128,
  "ィ": 4129,
  "4500": 4130,
  "Channel": 4131,
  "cast": 4132,
  "ings": 4133,
  "CON": 4134,
  "peri": 4135,
  "TOP": 4136,
  "Cube": 4137,
  "Louis": 4138,
  ".-": 4139,
  "710": 4140,
  "910": 4141,
  "950": 4142,
  "DI": 4143,
  "Imp": 4144,
  "Lit": 4145,
  "MK": 4146,
  "Tro": 4147,
  "ome": 4148,
  "dea": 4149,
  "pital": 4150,
  "lam": 4151,
  "arr": 4152,
  "241": 4153,
  "2300": 4154,
  "Research": 4155,
  "ISBN": 4156,
  "field": 4157,
  "Poli": 4158,
  "Film": 4159,
  "tvN": 4160,
  "326": 4161,
  "Asia": 4162,
  "Bou": 4163,
  "Cam": 4164,
  "Clo": 4165,
  "PT": 4166,
  "T2": 4167,
  "ice": 4168,
  "rch": 4169,
  "try": 4170,
  "1592": 4172,
  "347": 4173,
  "758": 4174,
  "Stand": 4175,
  "model": 4176,
  "Ara": 4177,
  "Bon": 4178,
  "DT": 4179,
  "Lis": 4180,
  "1628": 4181,
  "1788": 4182,
  "252": 4183,
  "242": 4184,
  "269": 4185,
  "ニ": 4186,
  "andy": 4187,
  "Leon": 4188,
  "Victor": 4189,
  "Law": 4190,
  "ffer": 4191,
  "fea": 4192,
  "tural": 4193,
  "318": 4194,
  "336": 4195,
  "978": 4196,
  "Ado": 4197,
  "CB": 4198,
  "DL": 4199,
  "Den": 4200,
  "Festi": 4201,
  "Jen": 4202,
  "Mal": 4203,
  "MUS": 4204,
  "N2": 4205,
  "O3": 4206,
  "Tan": 4207,
  "Tre": 4208,
  "char": 4210,
  "biē": 4211,
  "1627": 4212,
  "1783": 4213,
  "1791": 4214,
  "alth": 4215,
  "289": 4216,
  "ros": 4217,
  "406": 4218,
  "ced": 4219,
  "354": 4220,
  "INN": 4221,
  "Comm": 4222,
  "Stan": 4223,
  "app": 4224,
  "Vista": 4225,
  "gic": 4226,
  "Pixel": 4227,
  "Disney": 4228,
  "□": 4229,
  "Acade": 4230,
  "Cour": 4231,
  "EL": 4232,
  "F4": 4233,
  "IB": 4234,
  "LAN": 4235,
  "LTE": 4236,
  "OF": 4237,
  "ich": 4238,
  "pā": 4239,
  "tre": 4240,
  "1797": 4241,
  "［": 4242,
  "］": 4243,
  "Mach": 4244,
  "556": 4245,
  "Beat": 4246,
  "aker": 4247,
  "Software": 4248,
  "Ange": 4249,
  "DMS": 4250,
  "TH": 4251,
  "his": 4252,
  "nǎn": 4253,
  "1779": 4254,
  "1796": 4255,
  "test": 4256,
  "607": 4257,
  "つ": 4258,
  "だ": 4259,
  "352": 4260,
  "Mary": 4261,
  "1808": 4262,
  "ERT": 4263,
  "km2": 4264,
  "Nico": 4265,
  "NCT": 4266,
  "Alice": 4267,
  "⋯": 4268,
  "321": 4269,
  "337": 4270,
  "A4": 4271,
  "Ami": 4272,
  "Sor": 4273,
  "T3": 4274,
  "cs": 4275,
  "gis": 4276,
  "ung": 4277,
  "huàng": 4278,
  "tude": 4279,
  "1829": 4280,
  "1778": 4281,
  "1794": 4282,
  "283": 4283,
  "273": 4284,
  "ャ": 4285,
  "バ": 4286,
  "エ": 4287,
  "cky": 4288,
  "Visual": 4289,
  "inese": 4290,
  "YouTuber": 4291,
  "ASC": 4292,
  "Works": 4293,
  "Elect": 4294,
  "Battle": 4295,
  "313": 4296,
  "510": 4297,
  "840": 4298,
  "860": 4299,
  "Foot": 4300,
  "Mnet": 4301,
  "Pho": 4302,
  "llo": 4303,
  "pat": 4304,
  "vet": 4305,
  "vance": 4306,
  "ñ": 4307,
  "θ": 4308,
  "shuǎi": 4309,
  "nica": 4310,
  "night": 4311,
  "1798": 4312,
  "formation": 4313,
  "て": 4314,
  "456": 4315,
  "372": 4316,
  "Johan": 4317,
  "ECT": 4318,
  "system": 4319,
  "Special": 4320,
  "Awards": 4321,
  "448": 4322,
  "870": 4323,
  "Blu": 4324,
  "MF": 4325,
  "Pay": 4326,
  "io": 4327,
  "ror": 4328,
  "sca": 4329,
  "1580": 4330,
  "1612": 4331,
  "1634": 4332,
  "1787": 4333,
  "281": 4334,
  "267": 4335,
  "デ": 4336,
  "mad": 4337,
  "っ": 4338,
  "ウ": 4339,
  "nus": 4340,
  "lost": 4341,
  "mmy": 4342,
  "web": 4343,
  "Premi": 4344,
  "Royal": 4345,
  "Global": 4346,
  "911": 4347,
  "DG": 4348,
  "Fro": 4349,
  "Mis": 4350,
  "Oli": 4351,
  "Set": 4352,
  "TN": 4353,
  "WO": 4354,
  "dor": 4355,
  "ev": 4356,
  "fla": 4357,
  "shǎi": 4359,
  "hus": 4360,
  "mina": 4361,
  "1567": 4362,
  "1648": 4363,
  "alle": 4364,
  "271": 4365,
  "tech": 4366,
  "ltra": 4367,
  "Arts": 4368,
  "ffe": 4369,
  "BOX": 4370,
  "Enviro": 4371,
  "AH": 4372,
  "E3": 4373,
  "Lam": 4374,
  "MM": 4375,
  "Mur": 4376,
  "York": 4377,
  "sor": 4378,
  "chuō": 4379,
  "262": 4380,
  "tai": 4381,
  "367": 4382,
  "vest": 4383,
  "pedia": 4384,
  "OSHI": 4385,
  "Prof": 4386,
  "const": 4387,
  "ACE": 4388,
  "ENT": 4389,
  "AGA": 4390,
  "Great": 4391,
  "TikTok": 4392,
  "-&": 4393,
  "322": 4394,
  "Ah": 4395,
  "MON": 4396,
  "Not": 4397,
  "OTT": 4398,
  "Spo": 4399,
  "VB": 4400,
  "bian": 4401,
  "1550": 4402,
  "1568": 4403,
  "ont": 4404,
  "1615": 4405,
  "1630": 4406,
  "286": 4407,
  "ブ": 4408,
  "Magazine": 4409,
  "vern": 4410,
  "CH3": 4411,
  "Compu": 4412,
  "Museum": 4413,
  "Daniel": 4414,
  "Festival": 4415,
  "Brown": 4416,
  "Cru": 4417,
  "CAS": 4418,
  "Dark": 4419,
  "FBI": 4420,
  "LG": 4421,
  "Sau": 4422,
  "SIG": 4423,
  "USA": 4424,
  "stu": 4425,
  "piē": 4426,
  "1645": 4427,
  "1646": 4428,
  "read": 4429,
  "zháo": 4430,
  "キ": 4431,
  "333": 4432,
  "COLL": 4433,
  "ARD": 4434,
  "Secre": 4435,
  "stein": 4436,
  "Encore": 4437,
  "tures": 4438,
  "world": 4439,
  "Online": 4440,
  "Cloud": 4441,
  "MUSIC": 4442,
  "Hun": 4443,
  "Lar": 4444,
  "Let": 4445,
  "cas": 4446,
  "over": 4447,
  "tan": 4448,
  "ر": 4449,
  "1626": 4450,
  "stal": 4451,
  "261": 4452,
  "297": 4453,
  "355": 4454,
  "Chinese": 4455,
  "stea": 4456,
  "Kim": 4457,
  "328": 4458,
  "820": 4459,
  "Gor": 4460,
  "Has": 4461,
  "PRO": 4462,
  "S2": 4463,
  "Tou": 4464,
  "gal": 4465,
  "oli": 4466,
  "sǒu": 4467,
  "sco": 4468,
  "ques": 4469,
  "1637": 4470,
  "2400": 4471,
  "705": 4472,
  "901": 4473,
  "364": 4474,
  "384": 4475,
  "378": 4476,
  "vey": 4477,
  "442": 4478,
  "hai": 4479,
  "cono": 4480,
  "Point": 4481,
  "VIDIA": 4482,
  "General": 4483,
  "618": 4484,
  "AU": 4485,
  "CBC": 4486,
  "HB": 4487,
  "NVIDIA": 4488,
  "T48": 4489,
  "ale": 4490,
  "tr": 4491,
  "С": 4492,
  "ы": 4493,
  "1610": 4494,
  "1642": 4495,
  "257": 4496,
  "282": 4497,
  "thing": 4498,
  "2600": 4499,
  "Mad": 4500,
  "Stadium": 4501,
  "1609": 4502,
  "ality": 4503,
  "stern": 4504,
  "Exp": 4505,
  "God": 4506,
  "Redmi": 4507,
  "Year": 4508,
  "Adobe": 4509,
  "760": 4510,
  "767": 4511,
  "CAN": 4512,
  "Gol": 4513,
  "Il": 4514,
  "O4": 4515,
  "Ome": 4516,
  "U17": 4517,
  "VC": 4518,
  "bas": 4519,
  "bps": 4520,
  "jor": 4521,
  "sk": 4522,
  "sche": 4523,
  "ь": 4524,
  "deon": 4525,
  "nior": 4526,
  "1585": 4527,
  "1583": 4528,
  "hèng": 4529,
  "や": 4530,
  "583": 4531,
  "ctory": 4532,
  "1807": 4533,
  "ARM": 4534,
  "TeX": 4535,
  "wiki": 4536,
  "thern": 4537,
  "Systems": 4538,
  "poration": 4539,
  "930": 4540,
  "Del": 4541,
  "FIFA": 4542,
  "JU": 4543,
  "KE": 4544,
  "OD": 4545,
  "Town": 4546,
  "Thun": 4547,
  "Who": 4548,
  "cto": 4549,
  "dou": 4550,
  "1623": 4551,
  "gel": 4552,
  "274": 4553,
  "size": 4554,
  "Anto": 4555,
  "Wiki": 4556,
  "﹑": 4557,
  "H2O": 4558,
  "trol": 4559,
  "Taiwan": 4560,
  "EOS": 4561,
  "FIN": 4562,
  "Ima": 4563,
  "IEC": 4564,
  "Kin": 4565,
  "Kid": 4566,
  "Tar": 4567,
  "Won": 4568,
  "ah": 4569,
  "cat": 4570,
  "esta": 4571,
  "ket": 4572,
  "tina": 4573,
  "1571": 4574,
  "1784": 4575,
  "263": 4576,
  "509": 4577,
  "293": 4578,
  "351": 4579,
  "osaurus": 4580,
  "999": 4581,
  "Deep": 4582,
  "mod": 4583,
  "value": 4584,
  "Archi": 4585,
  "Cast": 4586,
  "2200": 4587,
  "428": 4588,
  "AJ": 4589,
  "GUN": 4590,
  "Tay": 4591,
  "xx": 4592,
  "1620": 4593,
  "1723": 4594,
  "1786": 4595,
  "inte": 4596,
  "stre": 4597,
  "504": 4598,
  "lton": 4599,
  "ュ": 4600,
  "353": 4601,
  "395": 4602,
  "beth": 4603,
  "Solaris": 4604,
  "Post": 4605,
  "private": 4606,
  "Metro": 4607,
  "clol": 4608,
  "Manage": 4609,
  "DotA": 4610,
  "419": 4611,
  "432": 4612,
  "A3": 4613,
  "FN": 4614,
  "Fly": 4615,
  "GL": 4616,
  "Hap": 4617,
  "Ron": 4618,
  "bb": 4619,
  "cci": 4620,
  "card": 4621,
  "ctive": 4622,
  "pra": 4623,
  "1450": 4625,
  "curi": 4626,
  "す": 4627,
  "Chan": 4628,
  "vers": 4629,
  "Mike": 4630,
  "ource": 4631,
  "Key": 4632,
  "LOVE": 4633,
  "Market": 4634,
  "Studios": 4635,
  "Little": 4636,
  "427": 4637,
  "Band": 4638,
  "Cine": 4639,
  "FE": 4640,
  "HIV": 4641,
  "K6": 4642,
  "Line": 4643,
  "Rou": 4644,
  "VPN": 4645,
  "zè": 4646,
  "č": 4647,
  "like": 4648,
  "zilla": 4649,
  "1577": 4650,
  "1618": 4651,
  "1643": 4652,
  "rop": 4653,
  "sey": 4654,
  "387": 4655,
  "399": 4656,
  "cts": 4657,
  "ellow": 4658,
  "ountain": 4659,
  "Fleet": 4660,
  "Technology": 4661,
  "317": 4662,
  "331": 4663,
  "345": 4664,
  "512": 4665,
  "565": 4666,
  "H1": 4667,
  "MY": 4668,
  "R2": 4669,
  "S1": 4670,
  "U18": 4671,
  "USS": 4672,
  "Ultra": 4673,
  "bes": 4674,
  "gg": 4675,
  "lū": 4676,
  "я": 4677,
  "1586": 4678,
  "lau": 4679,
  "1777": 4680,
  "1453": 4681,
  "into": 4682,
  "sty": 4683,
  "stan": 4684,
  "sit": 4685,
  "806": 4686,
  "base": 4687,
  "CDMA": 4688,
  "Stage": 4689,
  "Radeon": 4690,
  "aki": 4691,
  "Union": 4692,
  "ALL": 4693,
  "Valve": 4694,
  "Children": 4695,
  "Secret": 4696,
  "327": 4697,
  "411": 4698,
  "490": 4699,
  "445": 4700,
  "446": 4701,
  "535": 4702,
  "Alt": 4703,
  "Aven": 4704,
  "FI": 4705,
  "Found": 4706,
  "Land": 4707,
  "Mid": 4708,
  "M87": 4709,
  "U23": 4710,
  "Will": 4711,
  "WOR": 4712,
  "ola": 4713,
  "rstea": 4714,
  "yer": 4715,
  "ê": 4716,
  "cht": 4717,
  "endo": 4718,
  "1521": 4719,
  "1765": 4720,
  "1774": 4721,
  "sible": 4722,
  "cel": 4723,
  "second": 4724,
  "398": 4725,
  "499": 4726,
  "ook": 4727,
  "Para": 4728,
  "With": 4729,
  "Junior": 4730,
  "Adam": 4731,
  "BMW": 4732,
  "mond": 4733,
  "Fried": 4734,
  "Centre": 4735,
  "where": 4736,
  "Philip": 4737,
  "Academy": 4738,
  "416": 4739,
  "Crea": 4740,
  "EMI": 4741,
  "HTC": 4742,
  "KB": 4743,
  "Sche": 4744,
  "Soft": 4745,
  "TW": 4746,
  "bat": 4747,
  "rent": 4748,
  "mia": 4749,
  "1616": 4750,
  "cul": 4751,
  "707": 4752,
  "ily": 4753,
  "teri": 4754,
  "369": 4755,
  "397": 4756,
  "Mau": 4757,
  "verse": 4758,
  "Joe": 4759,
  "States": 4760,
  "Multi": 4761,
  "Wire": 4762,
  "Niko": 4763,
  "GPU": 4764,
  "bility": 4765,
  "Omega": 4766,
  "613": 4767,
  "Ari": 4768,
  "Cou": 4769,
  "NR": 4770,
  "Port": 4771,
  "WI": 4772,
  "ZA": 4773,
  "hau": 4774,
  "house": 4775,
  "pes": 4776,
  "η": 4777,
  "Δ": 4778,
  "А": 4779,
  "live": 4780,
  "1564": 4781,
  "1785": 4782,
  "368": 4783,
  "lot": 4784,
  "TVBS": 4785,
  "Mem": 4786,
  "Next": 4787,
  "Hea": 4788,
  "some": 4789,
  "Fire": 4790,
  "MySQL": 4791,
  "void": 4792,
  "Origin": 4793,
  "Amazon": 4794,
  "3C": 4795,
  "810": 4796,
  "BT": 4797,
  "Hon": 4798,
  "Jr": 4799,
  "Run": 4800,
  "Sti": 4801,
  "hl": 4802,
  "m3": 4803,
  "Д": 4804,
  "1662": 4805,
  "266": 4806,
  "291": 4807,
  "sist": 4808,
  "elle": 4809,
  "head": 4810,
  "588": 4811,
  "osa": 4812,
  "Distri": 4813,
  "Sub": 4814,
  "rough": 4815,
  "Base": 4816,
  "MOD": 4817,
  "volution": 4818,
  "chie": 4819,
  "Corporation": 4820,
  "M1A1": 4821,
  "ference": 4822,
  "mission": 4823,
  "velopment": 4824,
  "GUNDAM": 4825,
  "316": 4826,
  "537": 4827,
  "621": 4828,
  "742": 4829,
  "CI": 4830,
  "E48": 4831,
  "Eric": 4832,
  "Fo": 4833,
  "Fal": 4834,
  "Sin": 4835,
  "TI": 4836,
  "Wel": 4837,
  "ë": 4838,
  "ن": 4839,
  "anna": 4840,
  "1540": 4841,
  "1574": 4842,
  "1772": 4843,
  "std": 4844,
  "287": 4845,
  "tee": 4846,
  "605": 4847,
  "454": 4848,
  "388": 4849,
  "343": 4850,
  "open": 4851,
  "888": 4852,
  "Sund": 4853,
  "point": 4854,
  "Draw": 4855,
  "Church": 4856,
  "Alexander": 4857,
  "Cross": 4858,
  "Management": 4859,
  "425": 4860,
  "475": 4861,
  "Lady": 4862,
  "ND": 4863,
  "Other": 4864,
  "SW": 4865,
  "Sar": 4866,
  "cted": 4867,
  "káng": 4868,
  "kan": 4869,
  "vat": 4870,
  "were": 4871,
  "jia": 4872,
  "1250": 4873,
  "nico": 4874,
  "1619": 4875,
  "1629": 4876,
  "1683": 4877,
  "292": 4878,
  "363": 4879,
  "376": 4880,
  "STS": 4881,
  "552": 4882,
  "686": 4883,
  "ign": 4884,
  "Demo": 4885,
  "Arc": 4886,
  "Augu": 4887,
  "Cyclol": 4888,
  "London": 4889,
  "Scott": 4890,
  "627": 4891,
  "Bad": 4892,
  "BRT": 4893,
  "Der": 4894,
  "Dun": 4895,
  "FL": 4896,
  "Ir": 4897,
  "Kir": 4898,
  "MX": 4899,
  "Ora": 4900,
  "Sto": 4901,
  "Sara": 4902,
  "Tony": 4903,
  "hard": 4904,
  "tru": 4905,
  "б": 4906,
  "tish": 4907,
  "ally": 4908,
  "＂": 4909,
  "matic": 4910,
  "488": 4911,
  "ida": 4912,
  "Design": 4913,
  "phen": 4914,
  "Spot": 4915,
  "Spring": 4916,
  "Andrew": 4917,
  "449": 4919,
  "5A": 4920,
  "625": 4921,
  "738": 4922,
  "Fron": 4923,
  "HER": 4924,
  "Of": 4925,
  "PB": 4926,
  "Round": 4927,
  "VER": 4928,
  "ire": 4929,
  "und": 4930,
  "К": 4931,
  "shared": 4932,
  "1590": 4933,
  "1579": 4934,
  "1633": 4935,
  "ナ": 4936,
  "グ": 4937,
  "1507": 4938,
  "Beta": 4939,
  "Lake": 4940,
  "Simon": 4941,
  "CH2": 4942,
  "Cul": 4943,
  "Syn": 4944,
  "Animax": 4945,
  "Earth": 4946,
  "412": 4947,
  "Fort": 4948,
  "LF": 4949,
  "LM": 4950,
  "Sol": 4951,
  "Sca": 4952,
  "SON": 4953,
  "V8": 4954,
  "coun": 4955,
  "hāng": 4956,
  "tto": 4957,
  "п": 4958,
  "mir": 4960,
  "mix": 4961,
  "1631": 4962,
  "1680": 4963,
  "1773": 4964,
  "294": 4965,
  "407": 4966,
  "mate": 4967,
  "れ": 4968,
  "body": 4969,
  "396": 4970,
  "3300": 4971,
  "mple": 4972,
  "Sea": 4973,
  "1604": 4974,
  "Ander": 4975,
  "Party": 4976,
  "Hami": 4977,
  "Family": 4978,
  "PGA": 4979,
  "Angel": 4980,
  "Drive": 4981,
  "Journal": 4982,
  "980": 4983,
  "Ap": 4984,
  "Are": 4985,
  "C4": 4986,
  "Fold": 4987,
  "GC": 4988,
  "LR": 4989,
  "Pol": 4990,
  "cen": 4991,
  "nan": 4992,
  "ć": 4993,
  "ə": 4994,
  "nical": 4995,
  "1575": 4996,
  "1697": 4997,
  "1755": 4998,
  "1492": 4999,
  "sive": 5000,
  "cum": 5001,
  "805": 5002,
  "3600": 5003,
  "asa": 5004,
  "467": 5005,
  "471": 5006,
  "Def": 5007,
  "Neo": 5008,
  "mics": 5009,
  "﹐": 5010,
  "SKE48": 5011,
  "Dyna": 5012,
  "Summer": 5013,
  "Thunder": 5014,
  "0x": 5015,
  "319": 5016,
  "Epic": 5017,
  "Hal": 5018,
  "J2": 5019,
  "Kel": 5020,
  "Nar": 5021,
  "Swe": 5022,
  "XC": 5023,
  "fb": 5024,
  "hoo": 5025,
  "pan": 5026,
  "zen": 5027,
  "chy": 5028,
  "lion": 5029,
  "orig": 5030,
  "1561": 5031,
  "1589": 5032,
  "1595": 5033,
  "1781": 5034,
  "1465": 5035,
  "alan": 5036,
  "508": 5037,
  "テ": 5038,
  "ひ": 5039,
  "344": 5040,
  "589": 5041,
  "oph": 5042,
  "1603": 5043,
  "1606": 5044,
  "1607": 5045,
  "CNBLUE": 5046,
  "Ruby": 5047,
  "Council": 5048,
  "Christian": 5049,
  "print": 5050,
  "415": 5051,
  "855": 5052,
  "940": 5053,
  "970": 5054,
  "Cre": 5055,
  "Clar": 5056,
  "Kat": 5057,
  "Med": 5058,
  "Miss": 5059,
  "kes": 5060,
  "pos": 5061,
  "uage": 5062,
  "x86": 5063,
  "ø": 5064,
  "Å": 5065,
  "ß": 5066,
  "lina": 5068,
  "nio": 5069,
  "1522": 5070,
  "1526": 5071,
  "1556": 5072,
  "1613": 5073,
  "1660": 5074,
  "502": 5075,
  "506": 5076,
  "ダ": 5077,
  "tera": 5078,
  "377": 5079,
  "tos": 5080,
  "478": 5081,
  "554": 5082,
  "ample": 5083,
  "Mari": 5084,
  "Alli": 5085,
  "sport": 5086,
  "mercial": 5087,
  "TOUR": 5088,
  "Williams": 5089,
  "cations": 5090,
  "Hyper": 5091,
  "이": 5092,
  "☆": 5093,
  "Angela": 5094,
  "Football": 5095,
  "417": 5096,
  "525": 5097,
  "920": 5098,
  "925": 5099,
  "After": 5100,
  "Hit": 5101,
  "LU": 5102,
  "UK": 5103,
  "URI": 5104,
  "ite": 5105,
  "lle": 5106,
  "ud": 5107,
  "م": 5108,
  "sure": 5109,
  "1525": 5110,
  "1591": 5111,
  "1667": 5112,
  "indu": 5113,
  "chèng": 5114,
  "ronic": 5115,
  "408": 5116,
  "485": 5117,
  "643": 5118,
  "ado": 5119,
  "baby": 5120,
  "ophi": 5121,
  "AMO": 5122,
  "Back": 5123,
  "Fiesta": 5124,
  "Steve": 5125,
  "Qua": 5126,
  "Rue": 5127,
  "put": 5128,
  "Advance": 5129,
  "DOHC": 5130,
  "America": 5131,
  "324": 5132,
  "422": 5133,
  "515": 5134,
  "538": 5135,
  "534": 5136,
  "Kit": 5137,
  "Pap": 5138,
  "QS": 5139,
  "S4": 5140,
  "VT": 5141,
  "Vel": 5142,
  "Water": 5143,
  "hen": 5144,
  "mRNA": 5145,
  "who": 5146,
  "zzo": 5147,
  "lish": 5149,
  "tine": 5150,
  "1510": 5151,
  "1638": 5152,
  "1730": 5153,
  "media": 5154,
  "パ": 5155,
  "ette": 5156,
  "342": 5157,
  "393": 5158,
  "479": 5159,
  "mph": 5160,
  "Story": 5161,
  "1508": 5162,
  "Vita": 5163,
  "Mozilla": 5164,
  "Last": 5165,
  "HKT48": 5166,
  "lassic": 5167,
  "Bern": 5168,
  "Walter": 5169,
  "Soul": 5170,
  "Surface": 5171,
  "Foundation": 5172,
  "3200": 5173,
  "531": 5174,
  "546": 5175,
  "EG": 5176,
  "GHz": 5177,
  "ITV": 5178,
  "Jer": 5179,
  "Jane": 5180,
  "Mes": 5181,
  "MBA": 5182,
  "NI": 5183,
  "Sen": 5184,
  "Son": 5185,
  "TG": 5186,
  "VS": 5187,
  "bles": 5188,
  "iPS": 5189,
  "kW": 5190,
  "pal": 5191,
  "2028": 5192,
  "1543": 5193,
  "1457": 5194,
  "come": 5195,
  "366": 5196,
  "381": 5197,
  "392": 5198,
  "Indu": 5199,
  "Arti": 5200,
  "Buil": 5201,
  "History": 5202,
  "1st": 5203,
  "413": 5204,
  "426": 5205,
  "Ai": 5206,
  "Edu": 5207,
  "F3": 5208,
  "GPS": 5209,
  "LZ": 5210,
  "Light": 5211,
  "Mos": 5212,
  "U20": 5213,
  "Wnt": 5214,
  "cla": 5215,
  "down": 5216,
  "mol": 5217,
  "yl": 5218,
  "zǎn": 5219,
  "zar": 5220,
  "ي": 5221,
  "1565": 5222,
  "1559": 5223,
  "1587": 5224,
  "1597": 5225,
  "†": 5226,
  "1635": 5227,
  "1688": 5228,
  "1733": 5229,
  "1782": 5230,
  "also": 5231,
  "stry": 5232,
  "tex": 5233,
  "606": 5234,
  "ollow": 5235,
  "け": 5236,
  "373": 5237,
  "Albert": 5238,
  "Times": 5239,
  "lent": 5240,
  "Johnson": 5241,
  "Final": 5242,
  "524": 5243,
  "612": 5244,
  "890": 5245,
  "Ash": 5246,
  "By": 5247,
  "FS": 5248,
  "Jim": 5249,
  "Tol": 5250,
  "UD": 5251,
  "bs": 5252,
  "est": 5253,
  "ov": 5254,
  "score": 5255,
  "£": 5256,
  "П": 5257,
  "ч": 5258,
  "1588": 5259,
  "1598": 5260,
  "507": 5261,
  "cell": 5262,
  "amo": 5263,
  "thew": 5264,
  "641": 5265,
  "495": 5266,
  "682": 5267,
  "Rep": 5268,
  "666": 5269,
  "Rod": 5270,
  "Rose": 5271,
  "Vio": 5272,
  "Pod": 5273,
  "Austra": 5274,
  "Mont": 5275,
  "Brian": 5276,
  "CLA": 5277,
  "Place": 5278,
  "Telegram": 5279,
  "trans": 5280,
  "Pierre": 5281,
  "332": 5282,
  "4A": 5283,
  "4K": 5284,
  "435": 5285,
  "575": 5286,
  "790": 5287,
  "Ale": 5288,
  "Bet": 5289,
  "Fl": 5290,
  "Mus": 5291,
  "TMA": 5292,
  "ate": 5293,
  "plan": 5294,
  "sky": 5295,
  "tiè": 5296,
  "tial": 5297,
  "ents": 5298,
  "1523": 5299,
  "1535": 5300,
  "1649": 5301,
  "1661": 5302,
  "1770": 5303,
  "1499": 5304,
  "then": 5305,
  "ガ": 5306,
  "わ": 5307,
  "361": 5308,
  "number": 5309,
  "466": 5310,
  "391": 5311,
  "....": 5312,
  "551": 5313,
  "vices": 5314,
  "Moder": 5315,
  "1601": 5316,
  "Sho": 5317,
  "gio": 5318,
  "PCI": 5319,
  "Tim": 5320,
  "Hotel": 5321,
  "TOK": 5322,
  "AcFun": 5323,
  "Flash": 5324,
  "place": 5325,
  "craft": 5326,
  "Wonder": 5327,
  "528": 5328,
  "5500": 5329,
  "990": 5330,
  "Bang": 5331,
  "Bell": 5332,
  "Hard": 5333,
  "HTT": 5334,
  "Sma": 5335,
  "Smo": 5336,
  "Than": 5337,
  "ey": 5338,
  "fis": 5339,
  "gni": 5340,
  "shuàn": 5341,
  "mine": 5342,
  "1511": 5343,
  "1760": 5344,
  "1769": 5345,
  "rit": 5346,
  "358": 5347,
  "cos": 5348,
  "371": 5349,
  "469": 5350,
  "itz": 5351,
  "684": 5352,
  "587": 5353,
  "View": 5354,
  "ppm": 5355,
  "But": 5356,
  "SMAP": 5357,
  "Geo": 5358,
  "Edge": 5359,
  "tribu": 5360,
  "Explor": 5361,
  "Golden": 5362,
  "548": 5363,
  "AW": 5364,
  "Bil": 5365,
  "Lor": 5366,
  "Mir": 5367,
  "MAC": 5368,
  "Shan": 5369,
  "air": 5370,
  "even": 5371,
  "para": 5372,
  "vor": 5373,
  "tiǎn": 5374,
  "20000": 5375,
  "1080": 5376,
  "15000": 5377,
  "1576": 5378,
  "1594": 5379,
  "1689": 5380,
  "362": 5381,
  "383": 5382,
  "TCP": 5383,
  "341": 5384,
  "NASL": 5385,
  "Program": 5386,
  "Bey": 5387,
  "Some": 5388,
  "Siri": 5389,
  "Qui": 5390,
  "Bridge": 5391,
  "active": 5392,
  "European": 5393,
  "vernment": 5394,
  "921": 5395,
  "Dance": 5396,
  "Gun": 5397,
  "L1": 5398,
  "MR": 5399,
  "Mind": 5400,
  "MMC": 5401,
  "NEX": 5402,
  "RB": 5403,
  "TF": 5404,
  "UFO": 5405,
  "VF": 5406,
  "Var": 5407,
  "bow": 5408,
  "kins": 5409,
  "ráng": 5410,
  "uts": 5411,
  "hòng": 5413,
  "huo": 5414,
  "chěng": 5415,
  "left": 5416,
  "tica": 5417,
  "mid": 5418,
  "1811": 5419,
  "1517": 5420,
  "1514": 5421,
  "1578": 5422,
  "1552": 5423,
  "―": 5424,
  "1639": 5425,
  "1684": 5426,
  "608": 5427,
  "master": 5428,
  "349": 5429,
  "Mai": 5430,
  "644": 5431,
  "557": 5432,
  "vie": 5433,
  "ird": 5434,
  "585": 5435,
  "597": 5436,
  "Development": 5437,
  "Mod": 5438,
  "Test": 5439,
  "Seven": 5440,
  "Raw": 5441,
  "Week": 5442,
  "Firef": 5443,
  "Just": 5444,
  "kov": 5445,
  "Matthew": 5446,
  "template": 5447,
  "Eliza": 5448,
  "Common": 5449,
  "scope": 5450,
  "Taylor": 5451,
  "curity": 5452,
  "348": 5453,
  "436": 5454,
  "549": 5455,
  "AST": 5456,
  "Bai": 5457,
  "Brand": 5458,
  "DNS": 5459,
  "Fred": 5460,
  "Jam": 5461,
  "Kon": 5462,
  "Mitch": 5463,
  "Pres": 5464,
  "RN": 5465,
  "Ret": 5466,
  "bum": 5467,
  "ea": 5468,
  "ext": 5469,
  "ovan": 5470,
  "pl": 5471,
  "tio": 5472,
  "ering": 5473,
  "1763": 5474,
  "1350": 5475,
  "iness": 5476,
  "＋": 5477,
  "sie": 5478,
  "403": 5479,
  "cept": 5480,
  "cuó": 5481,
  "sell": 5482,
  "mani": 5483,
  "908": 5484,
  "ession": 5485,
  "6500": 5486,
  "case": 5487,
  "1505": 5488,
  "ardo": 5489,
  "tour": 5490,
  "777": 5491,
  "Marie": 5492,
  "anger": 5493,
  "fied": 5494,
  "fication": 5495,
  "Pack": 5496,
  "worth": 5497,
  "Santa": 5498,
  "MG42": 5499,
  "Christop": 5500,
  "Villa": 5501,
  "547": 5502,
  "567": 5503,
  "668": 5504,
  "C5": 5505,
  "FAN": 5506,
  "Mountain": 5507,
  "NK": 5508,
  "Rol": 5509,
  "T4": 5510,
  "YOSHI": 5511,
  "bla": 5512,
  "sào": 5513,
  "³": 5514,
  "і": 5515,
  "1050": 5516,
  "1614": 5517,
  "1720": 5518,
  "374": 5519,
  "494": 5520,
  "CoV": 5521,
  "IDE": 5522,
  "IPS": 5523,
  "PSP": 5524,
  "thers": 5525,
  "Work": 5526,
  "UNIX": 5527,
  "People": 5528,
  "Commit": 5529,
  "Ⅰ": 5530,
  "Karl": 5531,
  "Frame": 5532,
  "IPv4": 5533,
  "Explorer": 5534,
  "514": 5535,
  "522": 5536,
  "545": 5537,
  "568": 5538,
  "619": 5539,
  "675": 5540,
  "Bau": 5541,
  "CSS": 5542,
  "D1": 5543,
  "EBU": 5544,
  "KT": 5545,
  "Kw": 5546,
  "Oh": 5547,
  "Shu": 5548,
  "Za": 5549,
  "né": 5550,
  "spi": 5551,
  "sal": 5552,
  "yóng": 5553,
  "lete": 5554,
  "1516": 5555,
  "1513": 5556,
  "1534": 5557,
  "1547": 5558,
  "1569": 5559,
  "16V": 5560,
  "1460": 5561,
  "stone": 5562,
  "cula": 5563,
  "で": 5564,
  "359": 5565,
  "757": 5566,
  "642": 5567,
  "581": 5568,
  "aux": 5569,
  "1502": 5570,
  "ctions": 5571,
  "gani": 5572,
  "alis": 5573,
  "GeForce": 5574,
  "ร": 5575,
  "SOHC": 5576,
  "Jackson": 5577,
  "Arthur": 5578,
  "Queen": 5579,
  "COLLAR": 5580,
  "Sunday": 5581,
  "origin": 5582,
  "418": 5583,
  "414": 5584,
  "424": 5585,
  "433": 5586,
  "544": 5587,
  "Bos": 5588,
  "CJ": 5589,
  "DTS": 5590,
  "F2": 5591,
  "JO": 5592,
  "Jus": 5593,
  "MMO": 5594,
  "PEN": 5595,
  "Sand": 5596,
  "Tel": 5597,
  "XIV": 5598,
  "bū": 5599,
  "cz": 5600,
  "flo": 5601,
  "hol": 5602,
  "ith": 5603,
  "pper": 5604,
  "ski": 5605,
  "zed": 5606,
  "В": 5607,
  "1731": 5608,
  "1768": 5609,
  "1771": 5610,
  "1490": 5611,
  "mel": 5612,
  "409": 5613,
  "lter": 5614,
  "ハ": 5615,
  "604": 5616,
  "802": 5617,
  "ケ": 5618,
  "ょ": 5619,
  "ろ": 5620,
  "389": 5621,
  "7500": 5622,
  "394": 5623,
  "476": 5624,
  "been": 5625,
  "493": 5626,
  "vio": 5627,
  "Vision": 5628,
  "ERO": 5629,
  "Box": 5630,
  "Rift": 5631,
  "AGE": 5632,
  "Prime": 5633,
  "FOX": 5634,
  "while": 5635,
  "True": 5636,
  "JTBC": 5637,
  "⇔": 5638,
  "Cinema": 5639,
  "Avenue": 5640,
  "431": 5641,
  "539": 5642,
  "745": 5643,
  "ABS": 5644,
  "Bit": 5645,
  "Classic": 5646,
  "EO": 5647,
  "Gin": 5648,
  "Gamer": 5649,
  "Ker": 5650,
  "Lord": 5651,
  "Mit": 5652,
  "Sk": 5653,
  "Solo": 5654,
  "V6": 5655,
  "bn": 5656,
  "bour": 5657,
  "jq": 5658,
  "zza": 5659,
  "ı": 5660,
  "shop": 5661,
  "shed": 5662,
  "change": 5663,
  "biào": 5664,
  "til": 5665,
  "tice": 5666,
  "tify": 5667,
  "1593": 5668,
  "1724": 5669,
  "1752": 5670,
  "1469": 5671,
  "1498": 5672,
  "1370": 5673,
  "sili": 5674,
  "sea": 5675,
  "え": 5676,
  "ille": 5677,
  "382": 5678,
  "755": 5679,
  "464": 5680,
  "444": 5681,
  "cid": 5682,
  "571": 5683,
  "1501": 5684,
  "Never": 5685,
  "Gaga": 5686,
  "nova": 5687,
  "PS3": 5688,
  "prote": 5689,
  "Express": 5690,
  "British": 5691,
  "tdown": 5692,
  "AGASA": 5693,
  "Kids": 5694,
  "Friedrich": 5695,
  "646": 5696,
  "667": 5697,
  "CIA": 5698,
  "D2": 5699,
  "Ever": 5700,
  "Gam": 5701,
  "IRT": 5702,
  "Kan": 5703,
  "M6": 5704,
  "Pass": 5705,
  "Tam": 5706,
  "XF": 5707,
  "ZJ": 5708,
  "ami": 5709,
  "high": 5710,
  "pto": 5711,
  "say": 5712,
  "tch": 5713,
  "dex": 5714,
  "lius": 5715,
  "dies": 5716,
  "1520": 5717,
  "1560": 5718,
  "1553": 5719,
  "1651": 5720,
  "1740": 5721,
  "1493": 5722,
  "602": 5723,
  "904": 5724,
  "496": 5725,
  "498": 5726,
  "443": 5727,
  "nament": 5728,
  "Rail": 5729,
  "MAN": 5730,
  "Boys": 5731,
  "Baby": 5732,
  "Haw": 5733,
  "produ": 5734,
  "UNG": 5735,
  "Fami": 5736,
  "AGUE": 5737,
  "LEAGUE": 5738,
  "Guard": 5739,
  "works": 5740,
  "mont": 5741,
  "Jeff": 5742,
  "Donald": 5743,
  "Intelli": 5744,
  "्": 5745,
  "Communi": 5746,
  "Athlon": 5747,
  "Memori": 5748,
  "Firefox": 5749,
  "611": 5750,
  "645": 5751,
  "945": 5752,
  "Again": 5753,
  "Bas": 5754,
  "C1": 5755,
  "Cen": 5756,
  "CBA": 5757,
  "DEC": 5758,
  "GW": 5759,
  "Hay": 5760,
  "Old": 5761,
  "QU": 5762,
  "TAM": 5763,
  "U2": 5764,
  "vol": 5765,
  "å": 5766,
  "chan": 5768,
  "dic": 5769,
  "1596": 5770,
  "ono": 5771,
  "1632": 5772,
  "1679": 5773,
  "1718": 5774,
  "1735": 5775,
  "1745": 5776,
  "1758": 5777,
  "25G": 5778,
  "＝": 5779,
  "tec": 5780,
  "ram": 5781,
  "メ": 5782,
  "culus": 5783,
  "made": 5784,
  "907": 5785,
  "め": 5786,
  "ゆ": 5787,
  "584": 5788,
  "1506": 5789,
  "Dear": 5790,
  "sson": 5791,
  "two": 5792,
  "mental": 5793,
  "1605": 5794,
  "Samu": 5795,
  "gia": 5796,
  "Anth": 5797,
  "Side": 5798,
  "Health": 5799,
  "Fish": 5800,
  "Name": 5801,
  "REAM": 5802,
  "Wild": 5803,
  "Central": 5804,
  "Doug": 5805,
  "Standard": 5806,
  "Violet": 5807,
  "Christopher": 5808,
  "YOSHIKI": 5809,
  "050": 5810,
  "439": 5811,
  "533": 5812,
  "731": 5813,
  "732": 5814,
  "741": 5815,
  "762": 5816,
  "962": 5817,
  "Astro": 5818,
  "Cree": 5819,
  "Eye": 5820,
  "Flor": 5821,
  "H3": 5822,
  "ICD": 5823,
  "Kra": 5824,
  "NU": 5825,
  "Num": 5826,
  "Off": 5827,
  "RCP": 5828,
  "TL": 5829,
  "Thi": 5830,
  "UCLA": 5831,
  "Wood": 5832,
  "ath": 5833,
  "kit": 5834,
  "np": 5835,
  "phe": 5836,
  "vari": 5837,
  "wen": 5838,
  "υ": 5839,
  "bia": 5842,
  "dina": 5843,
  "1260": 5844,
  "1566": 5845,
  "law": 5846,
  "lade": 5847,
  "1725": 5848,
  "1748": 5849,
  "ツ": 5850,
  "706": 5851,
  "よ": 5852,
  "を": 5853,
  "457": 5854,
  "tery": 5855,
  "379": 5856,
  "aso": 5857,
  "756": 5858,
  "553": 5859,
  "cio": 5860,
  "673": 5861,
  "574": 5862,
  "576": 5863,
  "mpson": 5864,
  "List": 5865,
  "Alan": 5866,
  "985": 5867,
  "973": 5868,
  "Anna": 5869,
  "Capital": 5870,
  "Greg": 5871,
  "AlphaFold": 5872,
  "Operation": 5873,
  "Fleetline": 5874,
  "Angelababy": 5875,
  "516": 5876,
  "617": 5877,
  "639": 5878,
  "722": 5879,
  "735": 5880,
  "DU": 5881,
  "Econo": 5882,
  "HMS": 5883,
  "Kha": 5884,
  "P2": 5885,
  "Tower": 5886,
  "bble": 5887,
  "ners": 5888,
  "sòu": 5889,
  "2050": 5890,
  "quid": 5891,
  "1528": 5892,
  "1572": 5893,
  "onal": 5894,
  "1652": 5895,
  "1727": 5896,
  "1761": 5897,
  "1368": 5898,
  "ワ": 5899,
  "ノ": 5900,
  "356": 5901,
  "704": 5902,
  "482": 5903,
  "655": 5904,
  "brary": 5905,
  "ault": 5906,
  "ARE": 5907,
  "gate": 5908,
  "Gaon": 5909,
  "ends": 5910,
  "BLE": 5911,
  "link": 5912,
  "Color": 5913,
  "telli": 5914,
  "Harry": 5915,
  "English": 5916,
  "Garden": 5917,
  "Two": 5918,
  "Jones": 5919,
  "Anderson": 5920,
  "Elizabeth": 5921,
  "Committee": 5922,
  "447": 5923,
  "863": 5924,
  "926": 5925,
  "961": 5926,
  "Ana": 5927,
  "Apa": 5928,
  "Bow": 5929,
  "Din": 5930,
  "Ea": 5931,
  "Epi": 5932,
  "LX": 5933,
  "RATP": 5934,
  "Tha": 5935,
  "VP": 5936,
  "WW": 5937,
  "eu": 5938,
  "hal": 5939,
  "pet": 5940,
  "pas": 5941,
  "defea": 5942,
  "shan": 5943,
  "lim": 5944,
  "bird": 5945,
  "eno": 5946,
  "nin": 5947,
  "ergy": 5948,
  "1531": 5949,
  "1538": 5950,
  "1647": 5951,
  "1681": 5952,
  "stor": 5953,
  "rat": 5954,
  "803": 5955,
  "708": 5956,
  "ゃ": 5957,
  "452": 5958,
  "453": 5959,
  "they": 5960,
  "651": 5961,
  "bed": 5962,
  "Cook": 5963,
  "vir": 5964,
  "586": 5965,
  "572": 5966,
  "Stro": 5967,
  "1504": 5968,
  "Neu": 5969,
  "EDG": 5970,
  "APG": 5971,
  "ICA": 5972,
  "door": 5973,
  "Conne": 5974,
  "Basic": 5975,
  "1701": 5976,
  "Stephen": 5977,
  "Carl": 5978,
  "Colspan": 5979,
  "word": 5980,
  "essor": 5981,
  "HOME": 5982,
  "ights": 5983,
  "Appli": 5984,
  "ccff": 5985,
  "ccccff": 5986,
  "Press": 5987,
  "Disco": 5988,
  "Twitch": 5989,
  "prise": 5990,
  "Patrick": 5991,
  "frame": 5992,
  "Women": 5993,
  "FINAL": 5994,
  "Beyond": 5995,
  "3M": 5996,
  "438": 5997,
  "511": 5998,
  "933": 5999,
  "Bun": 6000,
  "Hero": 6001,
  "Hans": 6002,
  "ILE": 6003,
  "Jes": 6004,
  "Rad": 6005,
  "Say": 6006,
  "SNC": 6007,
  "aw": 6008,
  "band": 6009,
  "děi": 6010,
  "gna": 6011,
  "vity": 6012,
  "wer": 6013,
  "Ω": 6014,
  "з": 6015,
  "ت": 6016,
  "xus": 6018,
  "hàng": 6019,
  "mie": 6020,
  "1530": 6021,
  "1537": 6022,
  "lati": 6023,
  "1736": 6024,
  "＆": 6025,
  "603": 6026,
  "808": 6027,
  "461": 6028,
  "468": 6029,
  "681": 6030,
  "user": 6031,
  "ONG": 6032,
  "state": 6033,
  "1709": 6034,
  "Kevin": 6035,
  "GameSpot": 6036,
  "Abdu": 6037,
  "Southern": 6038,
  "news": 6039,
  "JavaScript": 6040,
  "Prince": 6041,
  "DirectX": 6042,
  "Silver": 6043,
  "function": 6044,
  "Modern": 6045,
  "3G": 6046,
  "541": 6047,
  "629": 6048,
  "648": 6049,
  "725": 6050,
  "Ak": 6051,
  "CAR": 6052,
  "Dor": 6053,
  "ELE": 6054,
  "Low": 6055,
  "NN": 6056,
  "Nan": 6057,
  "NPC": 6058,
  "P4": 6059,
  "URE": 6060,
  "Vis": 6061,
  "cter": 6062,
  "city": 6063,
  "gas": 6064,
  "gent": 6065,
  "vent": 6066,
  "х": 6067,
  "such": 6068,
  "super": 6069,
  "dire": 6070,
  "zing": 6071,
  "1519": 6072,
  "1529": 6073,
  "1555": 6074,
  "1687": 6075,
  "last": 6076,
  "1728": 6077,
  "ardi": 6078,
  "ink": 6079,
  "team": 6080,
  "ポ": 6081,
  "cuǐ": 6082,
  "905": 6083,
  "esa": 6084,
  "484": 6085,
  "653": 6086,
  "Maker": 6087,
  "Info": 6088,
  "before": 6089,
  "559": 6090,
  "491": 6091,
  "679": 6092,
  "ped": 6093,
  "796": 6094,
  "OSS": 6095,
  "fish": 6096,
  "Saf": 6097,
  "MAD": 6098,
  "Paris": 6099,
  "Concer": 6100,
  "That": 6101,
  "Fair": 6102,
  "mark": 6103,
  "ckett": 6104,
  "URL": 6105,
  "AOA": 6106,
  "Yahoo": 6107,
  "speci": 6108,
  "ctures": 6109,
  "Planet": 6110,
  "ASCII": 6111,
  "Spotify": 6112,
  "OmegaT": 6113,
  "Mitchell": 6114,
  "423": 6115,
  "536": 6116,
  "632": 6117,
  "715": 6118,
  "825": 6119,
  "833": 6120,
  "Ala": 6121,
  "B3": 6122,
  "CAL": 6123,
  "D9": 6124,
  "Flow": 6125,
  "Gy": 6126,
  "GRO": 6127,
  "Hau": 6128,
  "Ita": 6129,
  "K2": 6130,
  "Money": 6131,
  "Mbps": 6132,
  "RDS": 6133,
  "Zo": 6134,
  "eb": 6135,
  "ei": 6136,
  "ide": 6137,
  "san": 6138,
  "sci": 6139,
  "wart": 6140,
  "huō": 6141,
  "2035": 6142,
  "1120": 6143,
  "1767": 6144,
  "cking": 6145,
  "Chrome": 6146,
  "Main": 6147,
  "473": 6148,
  "492": 6149,
  "cap": 6150,
  "nda": 6151,
  "auto": 6152,
  "661": 6153,
  "562": 6154,
  "Liber": 6155,
  "Robin": 6156,
  "Dead": 6157,
  "Debian": 6158,
  "Mega": 6159,
  "Via": 6160,
  "game": 6161,
  "See": 6162,
  "bucket": 6163,
  "Anne": 6164,
  "host": 6165,
  "PS2": 6166,
  "Fede": 6167,
  "Eddie": 6168,
  "TRA": 6169,
  "Countdown": 6170,
  "Zico": 6171,
  "signed": 6172,
  "TOKYO": 6173,
  "Violetta": 6174,
  "339": 6175,
  "429": 6176,
  "532": 6177,
  "665": 6178,
  "775": 6179,
  "769": 6180,
  "Ax": 6181,
  "Area": 6182,
  "D5": 6183,
  "Eri": 6184,
  "Fox": 6185,
  "Hand": 6186,
  "JI": 6187,
  "Pur": 6188,
  "R1": 6189,
  "RF": 6190,
  "SNS": 6191,
  "ller": 6192,
  "ա": 6193,
  "miē": 6194,
  "1220": 6195,
  "1545": 6196,
  "1664": 6197,
  "1659": 6198,
  "1719": 6199,
  "artic": 6200,
  "1495": 6201,
  "1496": 6202,
  "1388": 6203,
  "redo": 6204,
  "cep": 6205,
  "702": 6206,
  "703": 6207,
  "Chap": 6208,
  "Chart": 6209,
  "Mah": 6210,
  "STATION": 6211,
  "689": 6212,
  "Rea": 6213,
  "692": 6214,
  "osp": 6215,
  "Roman": 6216,
  "Mix": 6217,
  "798": 6218,
  "him": 6219,
  "splay": 6220,
  "ott": 6221,
  "mentary": 6222,
  "ERS": 6223,
  "Jaco": 6224,
  "AND": 6225,
  "graphy": 6226,
  "Juan": 6227,
  "gins": 6228,
  "Steven": 6229,
  "Phy": 6230,
  "IFF": 6231,
  "Bio": 6232,
  "Dragon": 6233,
  "Anime": 6234,
  "Henri": 6235,
  "Framework": 6236,
  "010": 6237,
  "434": 6238,
  "636": 6239,
  "729": 6240,
  "761": 6241,
  "878": 6242,
  "Aus": 6243,
  "Action": 6244,
  "E1": 6245,
  "E231": 6246,
  "GEN": 6247,
  "Jay": 6248,
  "L2": 6249,
  "PAGASA": 6250,
  "RK": 6251,
  "Too": 6252,
  "ZERO": 6253,
  "das": 6254,
  "eg": 6255,
  "hat": 6256,
  "ira": 6257,
  "Б": 6258,
  "М": 6259,
  "ц": 6260,
  "tier": 6262,
  "1546": 6263,
  "1549": 6264,
  "1562": 6265,
  "1670": 6266,
  "1690": 6267,
  "1654": 6268,
  "1653": 6269,
  "1694": 6270,
  "1759": 6271,
  "aro": 6272,
  "1466": 6273,
  "thor": 6274,
  "sio": 6275,
  "モ": 6276,
  "807": 6277,
  "709": 6278,
  "458": 6279,
  "463": 6280,
  "log": 6281,
  "555": 6282,
  "596": 6283,
  "662": 6284,
  "Stri": 6285,
  "under": 6286,
  "Like": 6287,
  "Michel": 6288,
  "constru": 6289,
  "ental": 6290,
  "gie": 6291,
  "posi": 6292,
  "Build": 6293,
  "shion": 6294,
  "Interactive": 6295,
  "Wilson": 6296,
  "Johnny": 6297,
  "de ": 6298,
  " de ": 6299,
  "shì ": 6300,
  " shì ": 6301,
  " nián": 6302,
  " nián ": 6303,
  "wèi ": 6304,
  "zài ": 6305,
  " wèi ": 6306,
  " zài ": 6307,
  "hé ": 6308,
  " hé ": 6309,
  "zhōng ": 6310,
  "bù ": 6311,
  "dì ": 6312,
  "shí ": 6313,
  "guó ": 6314,
  "yú ": 6315,
  "rén ": 6316,
  " bù ": 6317,
  "yī ": 6318,
  " zhōng ": 6319,
  "lì ": 6320,
  "zhì ": 6321,
  "gōng ": 6322,
  " shí ": 6323,
  "yuè ": 6324,
  "jí ": 6325,
  "chéng ": 6326,
  "yì ": 6327,
  "yǒu ": 6328,
  " dì ": 6329,
  " yuè ": 6330,
  " yú ": 6331,
  " rén ": 6332,
  " zhì ": 6333,
  "dà ": 6334,
  " jí ": 6335,
  "yuán ": 6336,
  " yǒu ": 6337,
  "jì ": 6338,
  " guó ": 6339,
  " lì ": 6340,
  " gōng ": 6341,
  " yì ": 6342,
  " yǐ": 6343,
  " chéng ": 6344,
  "jiā ": 6345,
  "sī ": 6346,
  "yǔ ": 6347,
  " xiàn": 6348,
  " rì": 6349,
  " yī ": 6350,
  " xíng": 6351,
  " tā": 6352,
  "lǐ ": 6353,
  "jī ": 6354,
  " dào": 6355,
  "hòu ": 6356,
  "wéi ": 6357,
  " zhī": 6358,
  " dà ": 6359,
  " yuán ": 6360,
  "xī ": 6361,
  " rì ": 6362,
  " gè": 6363,
  " yǐ ": 6364,
  "xué ": 6365,
  "huì ": 6366,
  "zuò ": 6367,
  "le ": 6368,
  " yǔ ": 6369,
  " dào ": 6370,
  "míng ": 6371,
  " jì ": 6372,
  "bèi ": 6373,
  " xíng ": 6374,
  "shēng ": 6375,
  " jiàn": 6376,
  " chū": 6377,
  " qí": 6378,
  " sī ": 6379,
  " dé": 6380,
  "zhèng ": 6381,
  " xiàn ": 6382,
  " hòu ": 6383,
  " jī ": 6384,
  "duì ": 6385,
  "shàng ": 6386,
  "qū ": 6387,
  "shǐ ": 6388,
  " ěr": 6389,
  " jiā ": 6390,
  "yóu ": 6391,
  " tā ": 6392,
  " xī ": 6393,
  " lǐ ": 6394,
  " ér": 6395,
  "zhàn ": 6396,
  " jūn": 6397,
  " bìng": 6398,
  " zhī ": 6399,
  " gè ": 6400,
  "zhǔ ": 6401,
  "rèn ": 6402,
  "fù ": 6403,
  "zì ": 6404,
  "wù ": 6405,
  "xīn ": 6406,
  "dài ": 6407,
  "jù ": 6408,
  "píng ": 6409,
  " chū ": 6410,
  " kè": 6411,
  " zhōu": 6412,
  "xiāng ": 6413,
  " huì ": 6414,
  "shù ": 6415,
  "nán ": 6416,
  " shè": 6417,
  " bèi ": 6418,
  " míng ": 6419,
  "xià ": 6420,
  "guān ": 6421,
  " ěr ": 6422,
  " dé ": 6423,
  "lù ": 6424,
  "yù ": 6425,
  "huà ": 6426,
  " jiàn ": 6427,
  "jīng ": 6428,
  "yán ": 6429,
  "fāng ": 6430,
  " yīn": 6431,
  "kāi ": 6432,
  "jiān ": 6433,
  "jiào ": 6434,
  "fā ": 6435,
  "yòng ": 6436,
  " dàn": 6437,
  " ér ": 6438,
  "zhù ": 6439,
  "lái ": 6440,
  "mín ": 6441,
  "shǒu ": 6442,
  "zhè ": 6443,
  "xiàng ": 6444,
  "wén ": 6445,
  " jūn ": 6446,
  "xì ": 6447,
  "qián ": 6448,
  "běn ": 6449,
  "tè ": 6450,
  " wéi ": 6451,
  "zhí ": 6452,
  "fǎ ": 6453,
  "qī ": 6454,
  "jié ": 6455,
  "lián ": 6456,
  " bìng ": 6457,
  "dòng ": 6458,
  "diàn ": 6459,
  " qí ": 6460,
  " kè ": 6461,
  "dōng ": 6462,
  "mù ": 6463,
  " jìn": 6464,
  " duì ": 6465,
  " huò": 6466,
  " zhàn ": 6467,
  "fēn ": 6468,
  "tái ": 6469,
  "zhǎng ": 6470,
  "dù ": 6471,
  "jiāng ": 6472,
  " qiú": 6473,
  " píng ": 6474,
  "gāo ": 6475,
  "yè ": 6476,
  "suǒ ": 6477,
  "běi ": 6478,
  " zhōu ": 6479,
  "shī ": 6480,
  " le ": 6481,
  "duō ": 6482,
  "jiē ": 6483,
  "gé ": 6484,
  " shàng ": 6485,
  "jīn ": 6486,
  " zhèng ": 6487,
  "fú ": 6488,
  " zuò ": 6489,
  " yóu ": 6490,
  " fù ": 6491,
  "kǒu ": 6492,
  "guò ": 6493,
  "zhǐ ": 6494,
  " tóng": 6495,
  "hǎi ": 6496,
  " rèn ": 6497,
  " quán": 6498,
  "mǎ ": 6499,
  "tōng ": 6500,
  "rù ": 6501,
  "zuì ": 6502,
  " shēng ": 6503,
  " xué ": 6504,
  "cǐ ": 6505,
  "xìng ": 6506,
  "wài ": 6507,
  "nèi ": 6508,
  "lā ": 6509,
  "tǐ ": 6510,
  "jué ": 6511,
  "kě ": 6512,
  "qǐ ": 6513,
  "shān ": 6514,
  "tiān ": 6515,
  "chǎng ": 6516,
  "děng ": 6517,
  "zhèn ": 6518,
  "wǔ ": 6519,
  "cháng ": 6520,
  "zi ": 6521,
  "yào ": 6522,
  "bǐ ": 6523,
  " jù ": 6524,
  "bǎo ": 6525,
  "mǐ ": 6526,
  "yà ": 6527,
  " yě": 6528,
  "gāi ": 6529,
  " yīn ": 6530,
  " dài ": 6531,
  "miàn ": 6532,
  "zhòng ": 6533,
  " shè ": 6534,
  "fēng ": 6535,
  " zhè ": 6536,
  "zhǒng ": 6537,
  "cì ": 6538,
  "yùn ": 6539,
  "yí ": 6540,
  "liú ": 6541,
  "chē ": 6542,
  "shòu ": 6543,
  "lín ": 6544,
  "bāo ": 6545,
  "yí gè ": 6546,
  "sài ": 6547,
  "jiè ": 6548,
  "dìng ": 6549,
  "shēn ": 6550,
  "shěng ": 6551,
  "luó ": 6552,
  "měi guó ": 6553,
  "sān ": 6554,
  "qì ": 6555,
  "xiǎo ": 6556,
  " dàn ": 6557,
  "néng ": 6558,
  "shū ": 6559,
  "zé ": 6560,
  "liè ": 6561,
  "xuǎn ": 6562,
  "sì ": 6563,
  "qīng ": 6564,
  "zhě ": 6565,
  " qiú ": 6566,
  "jìng ": 6567,
  "yuàn ": 6568,
  "bā ": 6569,
  "wáng ": 6570,
  "kē ": 6571,
  "tài ": 6572,
  "lán ": 6573,
  "bào ": 6574,
  "ān ": 6575,
  "zǒng ": 6576,
  "yǐng ": 6577,
  " huò ": 6578,
  "bì ": 6579,
  "fǔ ": 6580,
  "dǎo ": 6581,
  " xīn ": 6582,
  "gǔ ": 6583,
  "yīng ": 6584,
  " hào": 6585,
  " xià ": 6586,
  " zì ": 6587,
  "gē ": 6588,
  "fèn ": 6589,
  "xiào ": 6590,
  "yuē ": 6591,
  "ní ": 6592,
  "jiāo ": 6593,
  "nà ": 6594,
  " yù ": 6595,
  " mǐ ": 6596,
  "zī ": 6597,
  "èr ": 6598,
  " xiāng ": 6599,
  "pǔ ": 6600,
  "dān ": 6601,
  " zhù ": 6602,
  "biǎo ": 6603,
  "guǎn ": 6604,
  "tóu ": 6605,
  "liàng ": 6606,
  "chuán ": 6607,
  " lù ": 6608,
  "sù ": 6609,
  "wú ": 6610,
  " dāng": 6611,
  "bō ": 6612,
  "rú ": 6613,
  "yǎn ": 6614,
  "nǚ ": 6615,
  "bó ": 6616,
  " zhōng guó ": 6617,
  "xīng ": 6618,
  "tí ": 6619,
  "fēi ": 6620,
  "dá ": 6621,
  "sè ": 6622,
  "chēng ": 6623,
  "měi ": 6624,
  " wèi yú ": 6625,
  " jìn ": 6626,
  "céng ": 6627,
  "chǎn ": 6628,
  " nán ": 6629,
  "shuǐ ": 6630,
  "tú ": 6631,
  "biàn ": 6632,
  "guī ": 6633,
  " rán": 6634,
  "yáng ": 6635,
  "ā ": 6636,
  "zhāng ": 6637,
  "gǎi ": 6638,
  "diǎn ": 6639,
  "cóng ": 6640,
  "jiù ": 6641,
  " běn ": 6642,
  " quán ": 6643,
  "shā ": 6644,
  "bāo kuò": 6645,
  "wǎng ": 6646,
  "jiǎn ": 6647,
  "shèng ": 6648,
  "zǔ ": 6649,
  "shǔ ": 6650,
  "gǎng ": 6651,
  "huá ": 6652,
  "lǜ ": 6653,
  "qíng ": 6654,
  "jǐng ": 6655,
  "liǎng ": 6656,
  "zú ": 6657,
  "bàn ": 6658,
  "tǒng ": 6659,
  "gòng ": 6660,
  "shāng ": 6661,
  "lí ": 6662,
  "hù ": 6663,
  "tóng ": 6664,
  "biān ": 6665,
  "jìn ": 6666,
  "lóng ": 6667,
  "luò ": 6668,
  "àn ": 6669,
  "xù ": 6670,
  "chí ": 6671,
  "ào ": 6672,
  "méi ": 6673,
  "jǐn ": 6674,
  "bān ": 6675,
  "guǎng ": 6676,
  "chū ": 6677,
  "cè ": 6678,
  "mì ": 6679,
  "shén ": 6680,
  " tā men": 6681,
  "zhēng ": 6682,
  "zhī ": 6683,
  "lǐng ": 6684,
  "yòu ": 6685,
  "fǎn ": 6686,
  "wēi ": 6687,
  " zhǔ ": 6688,
  " xiàng ": 6689,
  "huó ": 6690,
  "xí ": 6691,
  "tíng ": 6692,
  "kǎ ": 6693,
  "chá ": 6694,
  " gāi ": 6695,
  "cái ": 6696,
  "gòu ": 6697,
  "shuō ": 6698,
  "mén ": 6699,
  "cí ": 6700,
  "xiǎng ": 6701,
  "mǔ ": 6702,
  "lèi ": 6703,
  "wěi ": 6704,
  "qǔ ": 6705,
  " gōng lǐ ": 6706,
  "yán jiū": 6707,
  " duō ": 6708,
  "tuán ": 6709,
  "yǐn ": 6710,
  "jiàn ": 6711,
  " yě ": 6712,
  "cháo ": 6713,
  "yìng ": 6714,
  "chén ": 6715,
  " wàn": 6716,
  "táng ": 6717,
  "xiē ": 6718,
  "qí ": 6719,
  "pǐn ": 6720,
  " yǐ jí ": 6721,
  "jià ": 6722,
  "shǐ yòng ": 6723,
  "jiě ": 6724,
  "háng ": 6725,
  "yǐ ": 6726,
  "lún ": 6727,
  "róng ": 6728,
  " yóu": 6729,
  "jiǎng ": 6730,
  "pái ": 6731,
  "fū ": 6732,
  "jiǔ ": 6733,
  "1 ": 6734,
  "lìng ": 6735,
  "é ": 6736,
  "tái wān": 6737,
  " hào ": 6738,
  " de dì ": 6739,
  "xū ": 6740,
  "kě yǐ ": 6741,
  "huáng ": 6742,
  "xiān ": 6743,
  "duàn ": 6744,
  "kè ": 6745,
  "dǎng ": 6746,
  "mó ": 6747,
  "cān ": 6748,
  "yíng ": 6749,
  "tiáo ": 6750,
  "biāo ": 6751,
  " de yī ": 6752,
  "kāi shǐ ": 6753,
  "quán ": 6754,
  "zhǎn ": 6755,
  " chéng wéi ": 6756,
  "yě ": 6757,
  "hóng ": 6758,
  "méi yǒu ": 6759,
  "hàn ": 6760,
  "yīn ": 6761,
  "wěi yuán ": 6762,
  "qiān ": 6763,
  "bǎn ": 6764,
  "xiàn ": 6765,
  "líng ": 6766,
  "xiāo ": 6767,
  " tóng ": 6768,
  "huí ": 6769,
  "sū ": 6770,
  "fáng ": 6771,
  "méng ": 6772,
  "zhuāng ": 6773,
  "kōng ": 6774,
  "jú ": 6775,
  "cūn ": 6776,
  "bāo kuò ": 6777,
  "rén kǒu ": 6778,
  " qí zhōng ": 6779,
  "2 ": 6780,
  " gōng sī ": 6781,
  "huò ": 6782,
  "zǐ ": 6783,
  "xíng ": 6784,
  "dōu ": 6785,
  " de shì ": 6786,
  "   zài ": 6787,
  "qiáng ": 6788,
  "zhào ": 6789,
  "dú ": 6790,
  "zhèng zhì ": 6791,
  "yí gè": 6792,
  "mò ": 6793,
  " fēn ": 6794,
  "cǎi ": 6795,
  "bīng ": 6796,
  "fǎ guó ": 6797,
  " gāo ": 6798,
  " dà xué ": 6799,
  " shì yī ": 6800,
  "hái ": 6801,
  " tā de ": 6802,
  "hú ": 6803,
  "chù ": 6804,
  "qīn ": 6805,
  "lùn ": 6806,
  "fàn ": 6807,
  "zhēn ": 6808,
  "guāng ": 6809,
  "wèn ": 6810,
  "màn ": 6811,
  " jié ": 6812,
  "shè ": 6813,
  "biǎo shì ": 6814,
  "ài ": 6815,
  "zhōng de ": 6816,
  "jū ": 6817,
  " jiào ": 6818,
  "zhuān ": 6819,
  "diào ": 6820,
  "bái ": 6821,
  "dǎ ": 6822,
  "què ": 6823,
  "diàn shì ": 6824,
  " dōng ": 6825,
  " dù ": 6826,
  "fèi ": 6827,
  " shì wèi ": 6828,
  " mù ": 6829,
  "hán ": 6830,
  "shì de ": 6831,
  " tè ": 6832,
  "xùn ": 6833,
  " jīn ": 6834,
  "piàn ": 6835,
  "mìng ": 6836,
  "jǔ ": 6837,
  " jiāng ": 6838,
  "tuō ": 6839,
  "gù ": 6840,
  " rén kǒu ": 6841,
  "xiū ": 6842,
  " bù fèn ": 6843,
  "xié ": 6844,
  "zào ": 6845,
  " hé guó ": 6846,
  "zhōng guó ": 6847,
  "guǒ ": 6848,
  "10 yuè ": 6849,
  "shōu ": 6850,
  " zuì": 6851,
  "xìn ": 6852,
  "12 yuè ": 6853,
  "7 yuè ": 6854,
  "9 yuè ": 6855,
  " shī ": 6856,
  "zhuǎn ": 6857,
  "tā ": 6858,
  "dāng ": 6859,
  "miàn jī ": 6860,
  " rén mín ": 6861,
  "8 yuè ": 6862,
  "xún ": 6863,
  " dì qū ": 6864,
  "wū ": 6865,
  "3 yuè ": 6866,
  " guò ": 6867,
  " suǒ ": 6868,
  "1 yuè ": 6869,
  " jīng ": 6870,
  " shǒu ": 6871,
  "gǎn ": 6872,
  "huán ": 6873,
  "dí ": 6874,
  "xiá ": 6875,
  "jiǎ ": 6876,
  "5 yuè ": 6877,
  "yīng guó ": 6878,
  " cǐ ": 6879,
  "3 ": 6880,
  "dào ": 6881,
  "dǐ ": 6882,
  "zhū ": 6883,
  "tīng ": 6884,
  "zhèng shì ": 6885,
  "chóng ": 6886,
  "huǒ ": 6887,
  "zhōu ": 6888,
  "6 yuè ": 6889,
  "zhuàng ": 6890,
  "chéng shì ": 6891,
  "4 yuè ": 6892,
  " guó jiā ": 6893,
  "tián ": 6894,
  "gèng ": 6895,
  "   dì ": 6896,
  "fàng ": 6897,
  "yǒng ": 6898,
  "shǔ yú ": 6899,
  " píng fāng": 6900,
  "pò ": 6901,
  "jūn ": 6902,
  " dì yī ": 6903,
  " qián ": 6904,
  "11 yuè ": 6905,
  " děng ": 6906,
  "qù ": 6907,
  "qún ": 6908,
  "jiàng ": 6909,
  "táo ": 6910,
  " shì jì ": 6911,
  " píng fāng gōng lǐ ": 6912,
  " tóng shí ": 6913,
  " mǎ ": 6914,
  "dān rèn ": 6915,
  " tiān ": 6916,
  " rú ": 6917,
  "gēn ": 6918,
  "bié ": 6919,
  " suì": 6920,
  "pài ": 6921,
  "dū ": 6922,
  "shǎo ": 6923,
  "liáng ": 6924,
  "huī ": 6925,
  "tiě ": 6926,
  "nóng ": 6927,
  "jǐ ": 6928,
  " nián 1 yuè ": 6929,
  "tǎ ": 6930,
  "diàn yǐng ": 6931,
  " qī ": 6932,
  "zōng ": 6933,
  "chǔ ": 6934,
  " zhè": 6935,
  "sǐ ": 6936,
  "ěr ": 6937,
  " de shí ": 6938,
  "shuāng ": 6939,
  "tái wān ": 6940,
  "qiáo ": 6941,
  "gēn jù ": 6942,
  "lì shǐ ": 6943,
  "chú ": 6944,
  " shì zhèn ": 6945,
  "gào ": 6946,
  "bài ": 6947,
  "cān jiā ": 6948,
  "yùn dòng": 6949,
  "gāng ": 6950,
  "chē zhàn ": 6951,
  "guó de ": 6952,
  "jiǎo ": 6953,
  " wàn ": 6954,
  " yīn wèi ": 6955,
  " rì běn ": 6956,
  " píng fāng ": 6957,
  "lì de ": 6958,
  " nián de ": 6959,
  "gài ": 6960,
  "pàn ": 6961,
  " wén ": 6962,
  " hǎi ": 6963,
  "zhèng fǔ ": 6964,
  "bìng ": 6965,
  "zhǔn ": 6966,
  " nián 12 yuè ": 6967,
  "wǎ ": 6968,
  "yàn ": 6969,
  "wǒ ": 6970,
  "gòng hé guó ": 6971,
  " xiàn de ": 6972,
  " fú ": 6973,
  "yá ": 6974,
  "yín ": 6975,
  "fā xiàn ": 6976,
  "formula ": 6977,
  "chuàng ": 6978,
  "hēi ": 6979,
  " suǒ": 6980,
  "qū de ": 6981,
  "sòng ": 6982,
  "huàn ": 6983,
  "hā ": 6984,
  "hěn ": 6985,
  "5 ": 6986,
  "tí gōng ": 6987,
  "4 ": 6988,
  "jìn xíng ": 6989,
  " běi ": 6990,
  "léi ": 6991,
  "2 yuè ": 6992,
  "jīng jì ": 6993,
  "tōng guò ": 6994,
  " nián 3 yuè ": 6995,
  "suí ": 6996,
  "chuān ": 6997,
  "qiě ": 6998,
  " zhōng yāng": 6999,
  " guó jì ": 7000,
  "huā ": 7001,
  "shàng de ": 7002,
  " yóu yú ": 7003,
  " yòu ": 7004,
  "lēi ": 7005,
  "wěi yuán huì ": 7006,
  "kǎo ": 7007,
  " nián 7 yuè ": 7008,
  "wán ": 7009,
  "chēng wéi ": 7010,
  " nián 10 yuè ": 7011,
  "bǎi ": 7012,
  "dēng ": 7013,
  " yīng ": 7014,
  " shì jiè ": 7015,
  " yīn cǐ ": 7016,
  "míng wèi ": 7017,
  " jìn xíng ": 7018,
  "nuò ": 7019,
  " shì zài ": 7020,
  "chōng ": 7021,
  " rán ": 7022,
  "zhǔ yì ": 7023,
  " nián 9 yuè ": 7024,
  "kuài ": 7025,
  "tǔ ": 7026,
  " zhī hòu ": 7027,
  "yán jiū ": 7028,
  " tā men ": 7029,
  "qiú ": 7030,
  "mài ": 7031,
  "shí de ": 7032,
  "liàn ": 7033,
  "hào ": 7034,
  " nián 5 yuè ": 7035,
  " lián ": 7036,
  "sà ": 7037,
  "lú ": 7038,
  "xì tǒng ": 7039,
  " zuì ": 7040,
  "pèi ": 7041,
  "lǔ ": 7042,
  " nián 4 yuè ": 7043,
  "chǐ ": 7044,
  "liào ": 7045,
  " dāng ": 7046,
  " nián 8 yuè ": 7047,
  " nián 6 yuè ": 7048,
  " xíng de ": 7049,
  "zēng ": 7050,
  "rén de ": 7051,
  " shǐ ": 7052,
  "xiāng gǎng ": 7053,
  "xuān ": 7054,
  "qī jiān ": 7055,
  "dé ": 7056,
  "kuàng ": 7057,
  "guǎn lǐ ": 7058,
  " gōng zuò ": 7059,
  "piào ": 7060,
  " zhī yī ": 7061,
  "xǔ ": 7062,
  "ēn ": 7063,
  "dī ": 7064,
  "héng ": 7065,
  "dà de ": 7066,
  "bǔ ": 7067,
  "yàng ": 7068,
  "sēn ": 7069,
  " zhōng xīn ": 7070,
  "xuān bù ": 7071,
  "tuī ": 7072,
  " nián 11 yuè ": 7073,
  "zǔ zhī ": 7074,
  "rì ": 7075,
  "wàng ": 7076,
  "bù de ": 7077,
  "pí ": 7078,
  "men ": 7079,
  " bāo kuò ": 7080,
  "chàng ": 7081,
  "yǐng xiǎng ": 7082,
  "yǎng ": 7083,
  " tā zài ": 7084,
  "qiān mǐ ": 7085,
  "sāi ": 7086,
  "   shēng ": 7087,
  "ér ": 7088,
  " huò dé ": 7089,
  "pī ": 7090,
  " shì jiè": 7091,
  "luó sī ": 7092,
  "hè ": 7093,
  "kě néng": 7094,
  "chéng de ": 7095,
  " gāi": 7096,
  " qīng ": 7097,
  " měi": 7098,
  "niàn ": 7099,
  "dùn ": 7100,
  "xián ": 7101,
  " ā ": 7102,
  "lóu ": 7103,
  "qí tā ": 7104,
  " nián 2 yuè ": 7105,
  " chéng lì ": 7106,
  "le yī ": 7107,
  "bāng ": 7108,
  "huó dòng ": 7109,
  " lái ": 7110,
  " rèn wéi ": 7111,
  " fēn": 7112,
  " bǐ ": 7113,
  "yōu ": 7114,
  "liù ": 7115,
  " shù ": 7116,
  "kē xué ": 7117,
  "fā zhǎn ": 7118,
  "huò dé ": 7119,
  "jùn ": 7120,
  " luó ": 7121,
  " zuò wéi ": 7122,
  "6 ": 7123,
  "yā ": 7124,
  " píng fāng qiān mǐ ": 7125,
  "huá rén mín ": 7126,
  " wú ": 7127,
  "rì běn ": 7128,
  "bēi ": 7129,
  "lǎo ": 7130,
  "huì yì ": 7131,
  "rè ": 7132,
  " zhí": 7133,
  " liú ": 7134,
  "tán ": 7135,
  "jiān de ": 7136,
  "kù ": 7137,
  "tiě lù ": 7138,
  " de rén ": 7139,
  "yòng yú ": 7140,
  "liáo ": 7141,
  "níng ": 7142,
  " shí jiān ": 7143,
  " de gōng ": 7144,
  " zhāng ": 7145,
  " shān ": 7146,
  "gè ": 7147,
  "miǎn ": 7148,
  " yán ": 7149,
  "miàn jī": 7150,
  "mín guó ": 7151,
  "ruì ": 7152,
  "wū kè ": 7153,
  "yìn ": 7154,
  "xiǎn ": 7155,
  "lè ": 7156,
  "zuǒ ": 7157,
  "gòng yǒu ": 7158,
  "   lì shǐ ": 7159,
  "hǎo ": 7160,
  "   shēng píng ": 7161,
  "huá rén mín gòng hé guó ": 7162,
  "fāng shì ": 7163,
  "fā shēng ": 7164,
  "gān ": 7165,
  " zhí ": 7166,
  " cóng ": 7167,
  "dòu ": 7168,
  "wèn tí ": 7169,
  "guàn jūn ": 7170,
  "zhǔ yào ": 7171,
  "rán ": 7172,
  "dì de ": 7173,
  " dì èr ": 7174,
  "dǎo zhì ": 7175,
  " xiǎo ": 7176,
  "guān xì ": 7177,
  "cún ": 7178,
  "kāng ": 7179,
  "cān yù ": 7180,
  " jǐn ": 7181,
  "yuǎn ": 7182,
  " bù fèn": 7183,
  "zhěng ": 7184,
  " gōng chéng ": 7185,
  "wán chéng ": 7186,
  "dān wèi ": 7187,
  "kě néng ": 7188,
  " zhǐ ": 7189,
  " wǔ ": 7190,
  "yī wèi ": 7191,
  " zé ": 7192,
  "1 rì ": 7193,
  "xiè ": 7194,
  " zǒng ": 7195,
  "suǒ yǒu ": 7196,
  "zhì de ": 7197,
  "wén huà ": 7198,
  " chéng yuán ": 7199,
  " de chéng ": 7200,
  "gěi ": 7201,
  "lǚ ": 7202,
  " bā ": 7203,
  " tōng ": 7204,
  "yuán de ": 7205,
  "yōng yǒu ": 7206,
  "cún zài ": 7207,
  "èr shí ": 7208,
  "běi bù ": 7209,
  "lián hé ": 7210,
  "hòu de ": 7211,
  "niǔ ": 7212,
  " xì ": 7213,
  " shì zhōng ": 7214,
  "zhèng fǔ": 7215,
  "yóu yú ": 7216,
  "guó jiā ": 7217,
  "duì yú ": 7218,
  " nián zhì ": 7219,
  "fā xíng ": 7220,
  "yì de ": 7221,
  "jù yǒu ": 7222,
  " zhǐ": 7223,
  " jiàn zhù ": 7224,
  "bǐ sài ": 7225,
  " bìng zài ": 7226,
  " dào le ": 7227,
  "xīn de ": 7228,
  "ōu ": 7229,
  "sī de ": 7230,
  "shěn ": 7231,
  "zì jǐ": 7232,
  "yùn dòng ": 7233,
  "yún ": 7234,
  "xíng zhèng ": 7235,
  "yìn dù ": 7236,
  "é luó sī ": 7237,
  "bīn ": 7238,
  " miàn jī ": 7239,
  "dài biǎo ": 7240,
  " měi guó ": 7241,
  "shào ": 7242,
  "ge ": 7243,
  " lìng ": 7244,
  "xǔ duō ": 7245,
  "è ": 7246,
  " dàn shì ": 7247,
  "rèn hé ": 7248,
  "shēng yú ": 7249,
  "tū ": 7250,
  "guì ": 7251,
  "mǎn ": 7252,
  " nián dài ": 7253,
  " jiǎn ": 7254,
  "dīng ": 7255,
  "liǎng gè ": 7256,
  "chè ": 7257,
  "bǎo hù ": 7258,
  " rén kǒu mì ": 7259,
  " shǐ": 7260,
  "zh ": 7261,
  "xiù ": 7262,
  "xuán ": 7263,
  " dāng shí ": 7264,
  "zhàng ": 7265,
  " de yí gè ": 7266,
  "nán bù ": 7267,
  "jǔ xíng ": 7268,
  " diàn ": 7269,
  "zhuān jí ": 7270,
  "miàn jī wèi ": 7271,
  "lái de ": 7272,
  " guān ": 7273,
  "fān ": 7274,
  "zǎo ": 7275,
  " céng ": 7276,
  " zhèng fǔ ": 7277,
  "dú lì ": 7278,
  "fú wù ": 7279,
  "jué dìng ": 7280,
  "xiě ": 7281,
  " chū de ": 7282,
  "ruò ": 7283,
  "zhǔ yào": 7284,
  "kāi shǐ": 7285,
  " lì shǐ ": 7286,
  "qǐng ": 7287,
  " sān ": 7288,
  " shè jì ": 7289,
  " wáng ": 7290,
  " měi ": 7291,
  "míng de ": 7292,
  "hài ": 7293,
  "ràng ": 7294,
  " shì wèi yú ": 7295,
  "jiù shì ": 7296,
  " yǒu yī ": 7297,
  "gēng ": 7298,
  " jiāng": 7299,
  "gt ": 7300,
  " cǐ": 7301,
  " gt ": 7302,
  "xǐ ": 7303,
  "tàn ": 7304,
  " qí tā ": 7305,
  " fǎ ": 7306,
  " xíng zhèng ": 7307,
  "péi ": 7308,
  "jiào yù ": 7309,
  "shòu dào ": 7310,
  "āi ": 7311,
  " fēng ": 7312,
  "lt ": 7313,
  "rèn wéi ": 7314,
  "fǎng ": 7315,
  "kān ": 7316,
  "wǎn ": 7317,
  " jiē ": 7318,
  " shì dì ": 7319,
  "fā zhǎn": 7320,
  "shè huì ": 7321,
  " lt ": 7322,
  "yì wèi ": 7323,
  "gù shì ": 7324,
  "shàn ": 7325,
  "piān ": 7326,
  "fāng miàn ": 7327,
  " xiàn zài ": 7328,
  "qū wèi ": 7329,
  " zuì zhōng ": 7330,
  " bì ": 7331,
  "qín ": 7332,
  " zhōng yāng ": 7333,
  "pào ": 7334,
  " shì shì ": 7335,
  "tuì ": 7336,
  "zhe ": 7337,
  "nèi de ": 7338,
  " jiù ": 7339,
  "shǔ de ": 7340,
  "xiāng gǎng": 7341,
  "xiǎo shí ": 7342,
  "dàn ": 7343,
  " qū ": 7344,
  " lì rú ": 7345,
  "zú qiú ": 7346,
  "shù jù ": 7347,
  " bù tóng": 7348,
  "liè chē ": 7349,
  "xū yào ": 7350,
  "huà de ": 7351,
  " suī": 7352,
  " dòng ": 7353,
  "zhí wù ": 7354,
  "rén shì ": 7355,
  "qiāng ": 7356,
  "zuò de ": 7357,
  "shǐ yòng": 7358,
  "zēng jiā ": 7359,
  " jì huà ": 7360,
  "mín zhǔ ": 7361,
  " shí qī ": 7362,
  "zuò wéi ": 7363,
  " gǔ ": 7364,
  " céng": 7365,
  "kòng zhì ": 7366,
  " yě shì ": 7367,
  "duǎn ": 7368,
  "tǎn ": 7369,
  " jiàn de ": 7370,
  "yīn yuè ": 7371,
  " rán ér ": 7372,
  " ān ": 7373,
  " shǔ yú ": 7374,
  " yǐ jīng ": 7375,
  "láng ": 7376,
  " hé zuò ": 7377,
  " zài dì ": 7378,
  "rén mín ": 7379,
  " shì jiàn ": 7380,
  " rén yuán ": 7381,
  " yòu": 7382,
  "tā de ": 7383,
  " kē ": 7384,
  " jiàn yú ": 7385,
  "xué yuàn ": 7386,
  "zǔ chéng ": 7387,
  " mǎ": 7388,
  "chāo guò ": 7389,
  " gé ": 7390,
  "zuò pǐn ": 7391,
  " yīn yuè ": 7392,
  "mào ": 7393,
  " quán guó ": 7394,
  "xióng ": 7395,
  "zǎi ": 7396,
  "hū ": 7397,
  "huì de ": 7398,
  "jì de ": 7399,
  " sì ": 7400,
  "zǒng tǒng ": 7401,
  "suàn ": 7402,
  " zhè xiē ": 7403,
  "7 ": 7404,
  " wèi le ": 7405,
  " hòu lái ": 7406,
  "yú shì ": 7407,
  " shòu ": 7408,
  " pǔ ": 7409,
  " zhǎng ": 7410,
  " tài ": 7411,
  " chéng gōng ": 7412,
  "fā bù ": 7413,
  "dà lì ": 7414,
  "tí chū ": 7415,
  " suì ": 7416,
  " lì yà ": 7417,
  " 000": 7418,
  " yì yuán ": 7419,
  " shè yǒu ": 7420,
  "   de ": 7421,
  " yīn cǐ": 7422,
  "yùn dòng yuán ": 7423,
  "yāo qiú ": 7424,
  "hán guó ": 7425,
  "bù zài ": 7426,
  "ní yà": 7427,
  "pín ": 7428,
  "yǒu de ": 7429,
  "pú ": 7430,
  "zào chéng ": 7431,
  "ōu zhōu ": 7432,
  "qiū ": 7433,
  "cǎi yòng ": 7434,
  "xiǎo xíng ": 7435,
  " gōng yuán ": 7436,
  "jiā de ": 7437,
  "xìng de ": 7438,
  "bǎ ": 7439,
  "shēng de ": 7440,
  " de yí gè": 7441,
  " rì zài ": 7442,
  "dāng shí ": 7443,
  "kòng ": 7444,
  "rén wù ": 7445,
  "fèng ": 7446,
  " cǐ wài ": 7447,
  " suí": 7448,
  "gòng chǎn ": 7449,
  " lā ": 7450,
  "kàn ": 7451,
  " zh ": 7452,
  " cóng": 7453,
  " wǒ ": 7454,
  " shā ": 7455,
  "8 ": 7456,
  "wān ": 7457,
  " shì hé ": 7458,
  "2010 nián ": 7459,
  " lìng": 7460,
  " gēn jù ": 7461,
  " de bù ": 7462,
  " tǐ ": 7463,
  "mǎ wèi ": 7464,
  "xué jiā ": 7465,
  "yóu xì ": 7466,
  "sōng ": 7467,
  "fàn wéi ": 7468,
  " bù tóng ": 7469,
  "máo ": 7470,
  "dūn ": 7471,
  "kāi fā ": 7472,
  "chāo ": 7473,
  "shè jì ": 7474,
  " kě ": 7475,
  "sān nián ": 7476,
  "qǔ dé ": 7477,
  " de jī ": 7478,
  " nǚ ": 7479,
  "sài shì ": 7480,
  "xiōng ": 7481,
  "   shì ": 7482,
  " xíng chéng ": 7483,
  "   dì lǐ ": 7484,
  "wēn ": 7485,
  "zì zhì ": 7486,
  " yí ": 7487,
  "chǎn shēng ": 7488,
  " wù ": 7489,
  " jiān ": 7490,
  "ā ěr ": 7491,
  "yáo ": 7492,
  " de jì ": 7493,
  "shū jì ": 7494,
  "jié mù ": 7495,
  " bìng yú ": 7496,
  "10 ": 7497,
  "dōu shì ": 7498,
  "nǐ ": 7499,
  " liǎng ": 7500,
  "chóng xīn ": 7501,
  "lüè ": 7502,
  "chūn ": 7503,
  " shè huì ": 7504,
  "zhòng yào": 7505,
  "lǐ de ": 7506,
  "bú shì ": 7507,
  "zàn ": 7508,
  " dài biǎo ": 7509,
  "yī nián ": 7510,
  " xiāng gǎng ": 7511,
  " sī tè ": 7512,
  "diàn yǐng": 7513,
  "guān yú ": 7514,
  "dàng ": 7515,
  "zhuī ": 7516,
  "xì tǒng": 7517,
  " nà ": 7518,
  "jué sè ": 7519,
  " fú": 7520,
  "jiāo tōng ": 7521,
  "dǐng ": 7522,
  "lǎng ": 7523,
  " yóu xì ": 7524,
  "dà xué ": 7525,
  "jí de ": 7526,
  "gē qǔ ": 7527,
  "chú le ": 7528,
  " chū xiàn ": 7529,
  " jié": 7530,
  "tǎo ": 7531,
  "2020 nián ": 7532,
  "mí ": 7533,
  " zhì zuò ": 7534,
  " dà xué": 7535,
  "píng jūn ": 7536,
  " chén ": 7537,
  " dé guó ": 7538,
  "xiǎn shì ": 7539,
  "huá mín guó ": 7540,
  " shēn ": 7541,
  "kuò ": 7542,
  " nián zài ": 7543,
  " zhōng huá rén mín gòng hé guó ": 7544,
  "kǒng ": 7545,
  "hòu zài ": 7546,
  "miáo ": 7547,
  " liǎng": 7548,
  " nián dài": 7549,
  "èr nián ": 7550,
  "xià de ": 7551,
  "yǎn yuán ": 7552,
  " kè sī ": 7553,
  " 0": 7554,
  "dé guó ": 7555,
  "xiáng ": 7556,
  "qìng ": 7557,
  " bǎo ": 7558,
  "wéi yī ": 7559,
  "cǎo ": 7560,
  "dāng dì ": 7561,
  "guó jì ": 7562,
  "duì de ": 7563,
  "bó wù ": 7564,
  " fēi ": 7565,
  " jiàn lì ": 7566,
  "hūn ": 7567,
  " dì guó ": 7568,
  " bù yú ": 7569,
  " 1 ": 7570,
  "fǎn duì ": 7571,
  "zǒu ": 7572,
  "qī de ": 7573,
  "duān ": 7574,
  "wù de ": 7575,
  "xuè ": 7576,
  "yīn wèi ": 7577,
  "qū yù ": 7578,
  "qù shì ": 7579,
  "kuǎn ": 7580,
  "yī bù fèn ": 7581,
  "wò ": 7582,
  "bá gāo ": 7583,
  " cháng ": 7584,
  "quē ": 7585,
  "2001 nián ": 7586,
  "guǎn xiá ": 7587,
  "dù wèi ": 7588,
  "zhèng zhì rén wù ": 7589,
  " kǎ ": 7590,
  "péng ": 7591,
  "ní yà ": 7592,
  "hái yǒu ": 7593,
  " fā ": 7594,
  "   rén kǒu ": 7595,
  " dāng dì ": 7596,
  "zuì zhōng ": 7597,
  " tā shì ": 7598,
  " dān ": 7599,
  " bù duì ": 7600,
  " yuē ": 7601,
  "lái zì ": 7602,
  "chì ": 7603,
  " xíng shì ": 7604,
  " 1": 7605,
  "bǐ sài": 7606,
  "qián wǎng ": 7607,
  " wēi ": 7608,
  "zhí yè ": 7609,
  "dìng de ": 7610,
  "quán guó ": 7611,
  "bā shì ": 7612,
  "yī bù ": 7613,
  " de yuán ": 7614,
  " zhèng fǔ": 7615,
  " chú ": 7616,
  "zhòng yào ": 7617,
  " lín ": 7618,
  "diào chá ": 7619,
  " zhī jiān ": 7620,
  "biān mǎ wèi ": 7621,
  " huáng ": 7622,
  " nián jiān ": 7623,
  " xué míng ": 7624,
  "xué xiào ": 7625,
  "zhāo ": 7626,
  "zhǔ xí ": 7627,
  "xuǎn jǔ ": 7628,
  " rì zhì ": 7629,
  "gǎi wéi ": 7630,
  "zǔ zhī": 7631,
  " méi ": 7632,
  " nèi ": 7633,
  "zhǔ jiào ": 7634,
  "fá ": 7635,
  "zī liào ": 7636,
  " jìng ": 7637,
  "hǎi jūn ": 7638,
  "gōng shì ": 7639,
  " jūn shì ": 7640,
  " de dà ": 7641,
  " rén kǒu mì dù ": 7642,
  "chǔ lǐ ": 7643,
  "kàng ": 7644,
  "zāi ": 7645,
  "sūn ": 7646,
  " de yì ": 7647,
  "fāng fǎ ": 7648,
  "fù zé ": 7649,
  " rì běn": 7650,
  "wū kè lán ": 7651,
  "   yǔ ": 7652,
  " duō": 7653,
  "guàn ": 7654,
  " bō ": 7655,
  " jiè ": 7656,
  "shù de ": 7657,
  " yǒu xiàn": 7658,
  " shèng ": 7659,
  "dài biǎo": 7660,
  " qǐ ": 7661,
  " sān": 7662,
  " gè rén ": 7663,
  " huà ": 7664,
  "wú fǎ ": 7665,
  "yǐng xiǎng": 7666,
  " jì shù ": 7667,
  " shì yóu ": 7668,
  "jiē rǎng": 7669,
  "jū mín ": 7670,
  "zuì gāo ": 7671,
  " kāi ": 7672,
  " gǎi ": 7673,
  "pà ": 7674,
  "qí zhōng ": 7675,
  "lù de ": 7676,
  " cì ": 7677,
  " hóng ": 7678,
  " zé": 7679,
  "xué shēng ": 7680,
  " zhī chí ": 7681,
  "zì yóu ": 7682,
  "wěn ": 7683,
  "biāo zhǔn ": 7684,
  "xié huì ": 7685,
  "shù liàng": 7686,
  "qiè ": 7687,
  "ān quán ": 7688,
  "fǎn yìng ": 7689,
  "kě yǐ": 7690,
  "huì zài ": 7691,
  "yāo ": 7692,
  "shèn zhì ": 7693,
  "kěn ": 7694,
  "yé ": 7695,
  "bǐ lì ": 7696,
  "tǒng zhì ": 7697,
  " 2 ": 7698,
  "xì liè ": 7699,
  " suí ": 7700,
  "chuàng zuò ": 7701,
  "zhǔ rèn ": 7702,
  " xīn": 7703,
  "   běn ": 7704,
  "dōng bù ": 7705,
  " de yí gè shì zhèn ": 7706,
  " shì yí gè ": 7707,
  " nán": 7708,
  "lián méng ": 7709,
  " gōng sī": 7710,
  "gāi guó ": 7711,
  "kǎi ": 7712,
  " fù zé ": 7713,
  " míng": 7714,
  "fán ": 7715,
  "yǎ ": 7716,
  " dì sān ": 7717,
  " dì shí ": 7718,
  "   xíng zhèng ": 7719,
  " sū ": 7720,
  "tǐ yù ": 7721,
  " bù guò ": 7722,
  "jié gòu ": 7723,
  "niú ": 7724,
  " dào de ": 7725,
  "shí nián ": 7726,
  "qíng kuàng ": 7727,
  "néng lì ": 7728,
  "nán zi ": 7729,
  " shuǐ ": 7730,
  "zhōng shì ": 7731,
  "qíng kuàng": 7732,
  "sì nián ": 7733,
  "   of": 7734,
  "A ": 7735,
  " gē ": 7736,
  " yáng ": 7737,
  "xī bù ": 7738,
  "háo ": 7739,
  "gōng bù ": 7740,
  "shēng huó ": 7741,
  "jiē shòu ": 7742,
  "mǒu ": 7743,
  "nǚ zǐ ": 7744,
  " ào": 7745,
  "lù xiàn ": 7746,
  "chéng lì ": 7747,
  "   formula ": 7748,
  "suō ": 7749,
  " zhōng xué ": 7750,
  "gū ": 7751,
  "huān ": 7752,
  "9 ": 7753,
  "miàn de ": 7754,
  " jìn rù ": 7755,
  "yì shì ": 7756,
  " ěr sī ": 7757,
  "   of   ": 7758,
  " zhǔ yào ": 7759,
  "běi jīng ": 7760,
  " kě yǐ ": 7761,
  "the   ": 7762,
  " bā": 7763,
  "yǒu shí ": 7764,
  "lián sài ": 7765,
  " yì huì ": 7766,
  "guǎng dōng ": 7767,
  "duó ": 7768,
  " ào ": 7769,
  "   jiā ": 7770,
  "láo ": 7771,
  " tái ": 7772,
  "jiàn zhù ": 7773,
  "yà zhōu ": 7774,
  "dǎo de ": 7775,
  " guó mín ": 7776,
  "yě shì ": 7777,
  "ná dà ": 7778,
  "tài píng ": 7779,
  "dòng wù ": 7780,
  " suǒ yǐ ": 7781,
  "dì wèi ": 7782,
  "rǎn ": 7783,
  "guǐ ": 7784,
  " zhè shì ": 7785,
  "bá gāo dù ": 7786,
  "dá dào ": 7787,
  "zì jǐ de ": 7788,
  "lǐ shì ": 7789,
  "zhú jiàn ": 7790,
  "zhuàn ": 7791,
  " bìng qiě": 7792,
  "dài de ": 7793,
  "bǎn běn ": 7794,
  "xǔ duō": 7795,
  "zhě de ": 7796,
  "jiào shòu ": 7797,
  " hái ": 7798,
  " èr ": 7799,
  "2008 nián ": 7800,
  "xiàng mù ": 7801,
  " xué xiào ": 7802,
  " hú ": 7803,
  " dà": 7804,
  "wū kè lán": 7805,
  " mǔ ": 7806,
  "fēi cháng ": 7807,
  "2009 nián ": 7808,
  " xī yà ": 7809,
  "qīng nián ": 7810,
  " zǒng": 7811,
  " bìng qiě ": 7812,
  " zhǔ yào": 7813,
  "lā sī ": 7814,
  "   gēn jù ": 7815,
  "yī shì ": 7816,
  " chéng wéi": 7817,
  "rì běn": 7818,
  "mó shì ": 7819,
  "zhé ": 7820,
  "niǎo ": 7821,
  "wén wù ": 7822,
  " tā men de ": 7823,
  " yì shù ": 7824,
  "zhǐ yǒu ": 7825,
  "chā ": 7826,
  "kuān ": 7827,
  " jì lù ": 7828,
  " zhōu de ": 7829,
  " ài ": 7830,
  " mín ": 7831,
  "háng kōng ": 7832,
  " yú shì ": 7833,
  "wén xué ": 7834,
  " bó ": 7835,
  "fēn wéi ": 7836,
  "suān ": 7837,
  "huǐ ": 7838,
  " qí shì ": 7839,
  " qí yú ": 7840,
  "děng rén ": 7841,
  "tōng guò": 7842,
  "cáng ": 7843,
  "zhǐ chū ": 7844,
  "s ": 7845,
  "shuài ": 7846,
  " yòng ": 7847,
  "28 rì ": 7848,
  "rén kǒu pǔ ": 7849,
  "cuò ": 7850,
  "zhí xíng ": 7851,
  " jīn": 7852,
  "tóng shí ": 7853,
  " qiú duì ": 7854,
  "zhà ": 7855,
  " lì yà": 7856,
  "yǎn chū ": 7857,
  "zhí jiē ": 7858,
  "gāi dì ": 7859,
  "jǐn biāo ": 7860,
  "gé lán ": 7861,
  "2016 nián ": 7862,
  "huó dòng": 7863,
  "rèn wéi": 7864,
  "zhè yī ": 7865,
  "jìn rù ": 7866,
  " zhī jiān de ": 7867,
  " gōng kāi ": 7868,
  " dāng zhōng ": 7869,
  "hùn ": 7870,
  "gòng tóng ": 7871,
  "xià jì ": 7872,
  " dàn zài ": 7873,
  " 2": 7874,
  " C": 7875,
  "zhàn zhēng ": 7876,
  "chóu ": 7877,
  "wǔ nián ": 7878,
  "jiāng jūn ": 7879,
  " wú": 7880,
  "lè bù ": 7881,
  "méi tǐ ": 7882,
  "tǐ de ": 7883,
  "chē zhàn": 7884,
  "pō ": 7885,
  "15 rì ": 7886,
  "mèng ": 7887,
  "tì ": 7888,
  "tuī chū ": 7889,
  "dié ": 7890,
  "jiào yù": 7891,
  "yǔn ": 7892,
  "zhè xiē ": 7893,
  " shì wù ": 7894,
  "miào ": 7895,
  "lí kāi ": 7896,
  " yǐn ": 7897,
  " lìng wài ": 7898,
  "huán jìng ": 7899,
  "téng ": 7900,
  "zhú ": 7901,
  "2012 nián ": 7902,
  "lín pǐ": 7903,
  " dì èr": 7904,
  "shāng yè ": 7905,
  "2011 nián ": 7906,
  "chuán tǒng ": 7907,
  "   nián": 7908,
  "guān de ": 7909,
  "sān shí ": 7910,
  "jūn shì ": 7911,
  "dān qū ": 7912,
  "liàng de ": 7913,
  "jiē dào ": 7914,
  "sàn ": 7915,
  "jī de ": 7916,
  "qián de ": 7917,
  "rén zài ": 7918,
  "zàng ": 7919,
  "nèi róng ": 7920,
  "sài jì ": 7921,
  "gāo de ": 7922,
  "dòng huà ": 7923,
  "bó shì ": 7924,
  "dù de ": 7925,
  " wèi rén ": 7926,
  " mǐ": 7927,
  "yín háng ": 7928,
  "xuǎn jǔ": 7929,
  " wèi zhì ": 7930,
  " gù ": 7931,
  "sǔn ": 7932,
  "chéng zhōng ": 7933,
  "mìng míng ": 7934,
  "děng dì ": 7935,
  " gōng lù ": 7936,
  "bǎng ": 7937,
  "rè dài ": 7938,
  "běi jīng": 7939,
  " zhè ge ": 7940,
  " shí jì ": 7941,
  "yùn dòng huì ": 7942,
  "xuǎn zé ": 7943,
  " dà lì ": 7944,
  " ér zài ": 7945,
  " hàn ": 7946,
  "yuán nián ": 7947,
  "bào gào ": 7948,
  " yè ": 7949,
  " mù qián ": 7950,
  " de hé ": 7951,
  "bō chū ": 7952,
  "zuì jiā ": 7953,
  "   jù ": 7954,
  "zōng jiào ": 7955,
  "xué wèi ": 7956,
  "tǔ dì ": 7957,
  " dé dào ": 7958,
  "wén huà": 7959,
  "zuì hòu ": 7960,
  "tuán tǐ ": 7961,
  "25 rì ": 7962,
  " dì fāng ": 7963,
  "guǐ dào ": 7964,
  "luàn ": 7965,
  " wèi dì ": 7966,
  " mó ": 7967,
  " zhàn": 7968,
  "jīng lì ": 7969,
  "xì de ": 7970,
  " zhī qián ": 7971,
  "shěng de yí gè shì zhèn ": 7972,
  " shì yī zhǒng ": 7973,
  " shì wèi yú měi guó ": 7974,
  " qì ": 7975,
  "suì ": 7976,
  " xìng ": 7977,
  "jí zhōng ": 7978,
  " gè yuè ": 7979,
  " jūn de ": 7980,
  "sǐ wáng ": 7981,
  "xiāng guān ": 7982,
  " bāo kuò": 7983,
  "30 rì ": 7984,
  "fēn bié": 7985,
  " jī gòu ": 7986,
  "wèi de ": 7987,
  "shǒu cì ": 7988,
  "ào lín pǐ": 7989,
  " 12": 7990,
  "B ": 7991,
  "lǐng dǎo ": 7992,
  " yǒu guān ": 7993,
  " hǎi bá gāo dù ": 7994,
  " yī xiē ": 7995,
  " zhòng ": 7996,
  " tóng nián ": 7997,
  " jué ": 7998,
  "yòng de ": 7999,
  "2014 nián ": 8000,
  "huái ": 8001,
  "   wèi ": 8002,
  "20 rì ": 8003,
  " xíng dòng ": 8004,
  "xuě ": 8005,
  " zài yī ": 8006,
  "jī yú ": 8007,
  " zhōng huá mín guó ": 8008,
  "shuǐ yù ": 8009,
  " 5 ": 8010,
  "biàn huà ": 8011,
  "10 rì ": 8012,
  "shàng wèi ": 8013,
  " jí tuán": 8014,
  "2018 nián ": 8015,
  " jì xù ": 8016,
  "zhī yī ": 8017,
  " shí dài ": 8018,
  "chǔ yú ": 8019,
  "wàn ": 8020,
  "UTC ": 8021,
  "gòng hé ": 8022,
  " wài ": 8023,
  " bái ": 8024,
  "de   ": 8025,
  "měi yuán ": 8026,
  " bù zhǎng ": 8027,
  "zì jǐ ": 8028,
  "jié shù ": 8029,
  " zi ": 8030,
  "2019 nián ": 8031,
  " 14": 8032,
  " zì jǐ": 8033,
  "zhī chí ": 8034,
  "2005 nián ": 8035,
  "guò chéng ": 8036,
  " hòu lái": 8037,
  "mín zú ": 8038,
  "shùn ": 8039,
  "2015 nián ": 8040,
  "kōng jiān ": 8041,
  "shuì ": 8042,
  "mèi ": 8043,
  "bú huì ": 8044,
  "yè yú ": 8045,
  " rú": 8046,
  " chēng ": 8047,
  "tòu guò ": 8048,
  "nèi bù ": 8049,
  "2013 nián ": 8050,
  " sì": 8051,
  "jiě fàng": 8052,
  " zhí dào ": 8053,
  " yì zhí ": 8054,
  " jǐng ": 8055,
  "xīn wén ": 8056,
  "fēn bù ": 8057,
  "gēn jù": 8058,
  " ài": 8059,
  " zhōu shì ": 8060,
  "pī píng ": 8061,
  " jí tuán ": 8062,
  "2007 nián ": 8063,
  " jiù": 8064,
  " shǔ ": 8065,
  "dì qū ": 8066,
  "   zhè ": 8067,
  " hé nán ": 8068,
  "tā men": 8069,
  " shì shí ": 8070,
  " yǒu xiàn gōng sī ": 8071,
  "wán jiā ": 8072,
  "guī dìng ": 8073,
  " shén ": 8074,
  " jiā rù ": 8075,
  "gé mìng ": 8076,
  "wán quán ": 8077,
  "chéng wéi ": 8078,
  " táng ": 8079,
  "xī bān ": 8080,
  "zī gé ": 8081,
  "26 rì ": 8082,
  "dà lù ": 8083,
  "ào lín pǐ kè ": 8084,
  "   gāi ": 8085,
  "18 rì ": 8086,
  "2017 nián ": 8087,
  " dà huì ": 8088,
  "24 rì ": 8089,
  " mò ": 8090,
  "zài de ": 8091,
  "zá zhì ": 8092,
  "   yī ": 8093,
  " zhè zhǒng ": 8094,
  " tóu ": 8095,
  "yīng yǔ ": 8096,
  "lù dì ": 8097,
  " yīng guó ": 8098,
  " kě": 8099,
  "hé de ": 8100,
  "shàng hǎi ": 8101,
  "háo mǐ ": 8102,
  " yǔ yán ": 8103,
  "qí tā": 8104,
  "qǐ yè ": 8105,
  "pú táo ": 8106,
  "fāng de ": 8107,
  "hòu yī ": 8108,
  "luó mǎ ": 8109,
  "wèn tí": 8110,
  " chéng qū ": 8111,
  "sān gè ": 8112,
  "sè de ": 8113,
  "2006 nián ": 8114,
  "chuán tǒng": 8115,
  " shì fǎ guó ": 8116,
  "yī de ": 8117,
  "wù zhǒng ": 8118,
  " yào ": 8119,
  "11 ": 8120,
  " wèi yú gāi guó ": 8121,
  " 3 ": 8122,
  " tái wān ": 8123,
  " hā ": 8124,
  " lǐ sī ": 8125,
  "jìng nèi ": 8126,
  " bù tóng de ": 8127,
  " mò": 8128,
  "wù lǐ ": 8129,
  "duō de ": 8130,
  "shù wèi ": 8131,
  " dài biǎo": 8132,
  "biǎo xiàn ": 8133,
  " shì jiè dà ": 8134,
  "shěng jí ": 8135,
  "miáo shù ": 8136,
  "fǎ lǜ ": 8137,
  " ā": 8138,
  "gàn ": 8139,
  "bà ": 8140,
  "guān yuán ": 8141,
  "jīng guò ": 8142,
  " lú ": 8143,
  "chāng ": 8144,
  "16 rì ": 8145,
  "17 rì ": 8146,
  " zuì hòu ": 8147,
  " yì bān ": 8148,
  "pò huài": 8149,
  " guó jiā": 8150,
  "yíng dé ": 8151,
  "cài ": 8152,
  " suí hòu ": 8153,
  "zhèng zài ": 8154,
  "ná ": 8155,
  "bāo hán ": 8156,
  " shì jiàn": 8157,
  "bó wù guǎn ": 8158,
  " gōng jī ": 8159,
  "shèn ": 8160,
  "cè shì ": 8161,
  "chǎng de ": 8162,
  " wèi zhōng ": 8163,
  "chún ": 8164,
  " lì yòng ": 8165,
  " cháo ": 8166,
  "bù hé ": 8167,
  " cì": 8168,
  "niè ": 8169,
  "8 rì ": 8170,
  "zé shì ": 8171,
  "sōu ": 8172,
  "fēi jī ": 8173,
  " fēn bù yú ": 8174,
  "zhuān yè ": 8175,
  "zhēng yì ": 8176,
  "27 rì ": 8177,
  "fǎ yuàn ": 8178,
  "shǐ de ": 8179,
  " dì qū": 8180,
  " 2001 nián ": 8181,
  "yōng ": 8182,
  "21 rì ": 8183,
  "yì shí ": 8184,
  "zāo dào ": 8185,
  " suī rán": 8186,
  " shì yì ": 8187,
  " shēng huó ": 8188,
  " chóng ": 8189,
  "12 rì ": 8190,
  " bèi chēng wéi ": 8191,
  "dìng yì ": 8192,
  " zhōng xīn": 8193,
  " dà qū ": 8194,
  "zōng hé ": 8195,
  " zhàn zhēng ": 8196,
  "xué de ": 8197,
  " xiàn shí ": 8198,
  "7 rì ": 8199,
  " zhōng gòng": 8200,
  "19 rì ": 8201,
  "s   ": 8202,
  " é ": 8203,
  "jí wèi ": 8204,
  "23 rì ": 8205,
  "2021 nián ": 8206,
  "huáng dì ": 8207,
  " de zuò ": 8208,
  " zhū ": 8209,
  "zhǐ shì ": 8210,
  "2022 nián ": 8211,
  "11 rì ": 8212,
  "ōu zhōu": 8213,
  "ā lā ": 8214,
  "jiāng qí ": 8215,
  " bìng bù ": 8216,
  "yuán yú ": 8217,
  "fāng xiàng ": 8218,
  "9 rì ": 8219,
  "liù nián ": 8220,
  "zhàn de ": 8221,
  "   yú ": 8222,
  "chū xiàn ": 8223,
  "liè chē": 8224,
  "quán lì ": 8225,
  "nǎo ": 8226,
  "guī mó ": 8227,
  "22 rì ": 8228,
  "29 rì ": 8229,
  "liè de ": 8230,
  "zuì dà de ": 8231,
  "duō shù ": 8232,
  "xiàng de ": 8233,
  " zhāng": 8234,
  " lù": 8235,
  "xū yào": 8236,
  " lóng ": 8237,
  "hái shì ": 8238,
  "yù de ": 8239,
  "néng gòu ": 8240,
  "yuē hàn ": 8241,
  " zhè xiē": 8242,
  "5 rì ": 8243,
  "   cǐ ": 8244,
  "dìng wèi ": 8245,
  "tǒng jì ": 8246,
  " xiāng gǎng": 8247,
  "   zhèng zhì ": 8248,
  "sāng ": 8249,
  " zài zhè ": 8250,
  "xìn xī ": 8251,
  "   the   ": 8252,
  "yàng de ": 8253,
  " xiàn zhì ": 8254,
  "gōng de ": 8255,
  "3 rì ": 8256,
  "hōng ": 8257,
  "jǔ bàn": 8258,
  " fēn bié": 8259,
  "qiú duì ": 8260,
  "lián méng": 8261,
  "chá de ": 8262,
  "lìng yī ": 8263,
  "14 rì ": 8264,
  "cháng shì ": 8265,
  "měi guó rén kǒu pǔ ": 8266,
  "6 rì ": 8267,
  "niǔ yuē": 8268,
  "zǔ hé ": 8269,
  " huò dé": 8270,
  "lín shí ": 8271,
  "31 rì ": 8272,
  " zhōng bù ": 8273,
  "wèi shì ": 8274,
  "dǒng shì ": 8275,
  " jià ": 8276,
  " bào ": 8277,
  "jī dì ": 8278,
  "gē shǒu ": 8279,
  " liú": 8280,
  "   zhōng ": 8281,
  " rù ": 8282,
  "dōng nán ": 8283,
  "hǎi bá": 8284,
  "bāng zhù ": 8285,
  " de shì zhèn ": 8286,
  " huá ": 8287,
  " gòng ": 8288,
  "21 ": 8289,
  "4 rì ": 8290,
  "pāi shè ": 8291,
  "móu ": 8292,
  " yì dà lì ": 8293,
  "2000 nián ": 8294,
  " shè lì ": 8295,
  "13 rì ": 8296,
  " yì bān": 8297,
  "2 rì ": 8298,
  " rén kǒu": 8299,
  "gè rén ": 8300,
  "shè yǒu ": 8301,
  " de zhōng ": 8302,
  "bǐng ": 8303,
  "shēng yá ": 8304,
  "yuán hé ": 8305,
  " dǎo zhì ": 8306,
  " dì qū de ": 8307,
  "2004 nián ": 8308,
  " xué shēng ": 8309,
  "tiě lù": 8310,
  "féng ": 8311,
  "zú qiú": 8312,
  "zǎo qī ": 8313,
  " qí tā": 8314,
  "The   ": 8315,
  "pán ": 8316,
  "xiōng dì ": 8317,
  "ruǎn ": 8318,
  "shēng zài ": 8319,
  "cāng ": 8320,
  "dōng běi ": 8321,
  " 13": 8322,
  "mù dì ": 8323,
  " wǒ": 8324,
  "tōng cháng ": 8325,
  "huī fù ": 8326,
  " biàn ": 8327,
  " zhè yī ": 8328,
  " shì chǎng ": 8329,
  " xué yuàn ": 8330,
  "shāo ": 8331,
  " méi yǒu ": 8332,
  " 4 ": 8333,
  "shēn fèn ": 8334,
  "   yóu yú ": 8335,
  "qǔ dài ": 8336,
  "gé mìng": 8337,
  "zhǐ huī ": 8338,
  "qíng kuàng xià ": 8339,
  "sū lián ": 8340,
  "yí bù ": 8341,
  "xié yì ": 8342,
  "huáng jiā ": 8343,
  " fù": 8344,
  "kē jì ": 8345,
  "fā xiàn": 8346,
  "páng ": 8347,
  "zhěng gè ": 8348,
  " hēi ": 8349,
  "rén hé ": 8350,
  " gōng chǐ ": 8351,
  "lián bāng ": 8352,
  "yāo qiú": 8353,
  "yān ": 8354,
  "zhān ": 8355,
  "chāo jí ": 8356,
  "mào yì ": 8357,
  "yuè de ": 8358,
  "zhǎng de ": 8359,
  "xué yuàn": 8360,
  "fǎn yìng": 8361,
  "jǔ bàn ": 8362,
  "háng kōng": 8363,
  "cuī ": 8364,
  "xí jī ": 8365,
  " yě yǒu ": 8366,
  "nǚ xìng ": 8367,
  "huà hé ": 8368,
  "xiǎo shuō ": 8369,
  " dì lì ": 8370,
  " shū ": 8371,
  "tǐng ": 8372,
  "lì hé ": 8373,
  " xī nán ": 8374,
  "tú shū ": 8375,
  "guān fāng ": 8376,
  "xiān hòu ": 8377,
  "tǒng yī ": 8378,
  "bì yè ": 8379,
  " hā": 8380,
  " shuāng ": 8381,
  " gù": 8382,
  "zá ": 8383,
  " dōng": 8384,
  " wēi": 8385,
  "br ": 8386,
  "zūn ": 8387,
  " 15": 8388,
  " màn ": 8389,
  " què ": 8390,
  "sài de ": 8391,
  "hóu ": 8392,
  " yǐ jīng": 8393,
  " br ": 8394,
  "lǎn ": 8395,
  "xié zhù ": 8396,
  "cì shì jiè dà ": 8397,
  " rú guǒ ": 8398,
  "shàng shì ": 8399,
  "qū huà ": 8400,
  "20 ": 8401,
  "fēn xī ": 8402,
  "yǔ de ": 8403,
  " ěr shěng ": 8404,
  "rén kǒu shù liàng": 8405,
  "wén wù bǎo hù ": 8406,
  " hé yī ": 8407,
  " bù néng ": 8408,
  " běn": 8409,
  "zì xíng ": 8410,
  " cái ": 8411,
  "jiē duàn ": 8412,
  " qiān ": 8413,
  " zǔ ": 8414,
  " qiě ": 8415,
  "guǎng bō ": 8416,
  " 6 ": 8417,
  " yǐ lái ": 8418,
  " xī bān ": 8419,
  "dān rèn": 8420,
  " wǔ": 8421,
  " tā céng": 8422,
  "chí xù ": 8423,
  "tái běi": 8424,
  "wú xiàn ": 8425,
  " 3": 8426,
  "gòng chǎn dǎng ": 8427,
  "guó hé ": 8428,
  "me ": 8429,
  " yǐ xià ": 8430,
  "qī nián ": 8431,
  "tè de ": 8432,
  "dǎo yǎn ": 8433,
  "hòu yú ": 8434,
  "yǎn chàng": 8435,
  "zhù zài ": 8436,
  "réng ": 8437,
  "fā biǎo": 8438,
  "lài ": 8439,
  "xià xiá": 8440,
  "tiáo jiàn ": 8441,
  "pín dào ": 8442,
  " gōng zuò": 8443,
  "yè de ": 8444,
  "jiāo yì ": 8445,
  "hǔ ": 8446,
  " zài cì ": 8447,
  " jiǔ ": 8448,
  "shào nián ": 8449,
  "jié shù": 8450,
  " shì zhōng guó ": 8451,
  "zāo ": 8452,
  "bào dào ": 8453,
  " rén kǒu mì dù wèi ": 8454,
  "qiú yuán ": 8455,
  " shì lì ": 8456,
  " qiě": 8457,
  "   bù ": 8458,
  " zhè ge": 8459,
  "jué sài ": 8460,
  " 8": 8461,
  " yà ": 8462,
  "yìng yòng ": 8463,
  "wài de ": 8464,
  "yóu zhèng ": 8465,
  "jiàn lì ": 8466,
  "zī yuán ": 8467,
  "sāi ěr ": 8468,
  " A": 8469,
  " qí hòu ": 8470,
  " zhào ": 8471,
  " xī": 8472,
  "zuì dà ": 8473,
  " bìng wèi ": 8474,
  " 17": 8475,
  "huí dào ": 8476,
  "sù dù ": 8477,
  "cāo ": 8478,
  "qì hòu ": 8479,
  "kě dá ": 8480,
  " luò ": 8481,
  " wèi yú fǎ guó ": 8482,
  "gǎi gé ": 8483,
  "mì shū ": 8484,
  " yī yuàn ": 8485,
  "diàn shì jù ": 8486,
  "zhuàng tài ": 8487,
  "zhù de ": 8488,
  "fèn wèi ": 8489,
  " lán ": 8490,
  " gōng yè ": 8491,
  "wǎng zhàn ": 8492,
  "gōng sī ": 8493,
  " jiě ": 8494,
  "jié guǒ ": 8495,
  "suǒ shǔ de ": 8496,
  " de dì yī ": 8497,
  "hú nán ": 8498,
  " yī sī ": 8499,
  " mài": 8500,
  "yà lì ": 8501,
  " wèi yī ": 8502,
  "shàng hǎi": 8503,
  "20 shì jì ": 8504,
  " zuò pǐn ": 8505,
  "zuǒ yòu ": 8506,
  "xiǎo xué ": 8507,
  "jié hé ": 8508,
  "shèng lì ": 8509,
  " zhōng gòng ": 8510,
  "shǒu cì": 8511,
  " suǒ yǒu ": 8512,
  " hào xiàn ": 8513,
  "zhèn qū ": 8514,
  " de fù ": 8515,
  "wén míng ": 8516,
  " jiǎn chēng ": 8517,
  "kāi fā": 8518,
  "yí zhì ": 8519,
  "jiào huì ": 8520,
  "shěng fèn ": 8521,
  "zhǎn kāi ": 8522,
  "yìn dù": 8523,
  "shí qī ": 8524,
  " fǎ guó ": 8525,
  "S ": 8526,
  "lǐng dǎo": 8527,
  "mù biāo ": 8528,
  " 10": 8529,
  " ér shì ": 8530,
  "gāo jí ": 8531,
  "zhǔn bèi ": 8532,
  "wǎng luò ": 8533,
  " fēi": 8534,
  " jiàn shè ": 8535,
  "xùn liàn ": 8536,
  "kē de ": 8537,
  "juǎn ": 8538,
  " rén wù ": 8539,
  "xuǎn shǒu ": 8540,
  "jiāo tōng": 8541,
  "hǎo de ": 8542,
  "fā biǎo ": 8543,
  "zì rán ": 8544,
  "zhòng yào de ": 8545,
  " jiǎ ": 8546,
  "dōng jīng ": 8547,
  "chǎn pǐn ": 8548,
  "gòng yǒu rén kǒu ": 8549,
  " xiàn dài ": 8550,
  " yī míng ": 8551,
  " xī běi ": 8552,
  "lěi ": 8553,
  "fēng gé ": 8554,
  " chéng jì ": 8555,
  "zòu ": 8556,
  " hé dì ": 8557,
  "xiǎo xíng xīng ": 8558,
  "yán zhòng ": 8559,
  "zi de ": 8560,
  "miè ": 8561,
  "mù qián ": 8562,
  "wén wù bǎo hù dān wèi ": 8563,
  " dān rèn ": 8564,
  " jī chǎng ": 8565,
  "liú xíng ": 8566,
  "biàn chéng ": 8567,
  " guāng ": 8568,
  "qiáo zhì ": 8569,
  " 16": 8570,
  " mài ": 8571,
  "lèi sì": 8572,
  "diàn shì tái ": 8573,
  "12 ": 8574,
  "jiě shì ": 8575,
  "guó mín ": 8576,
  " yì qǐ ": 8577,
  " yǒng ": 8578,
  "kāi fàng ": 8579,
  " shèn zhì ": 8580,
  " D": 8581,
  " xià lìng": 8582,
  " yí gè ": 8583,
  "kǎ ěr ": 8584,
  " děng": 8585,
  "2003 nián ": 8586,
  "xíng shì ": 8587,
  "dōu yǒu ": 8588,
  "2002 nián ": 8589,
  " chú le ": 8590,
  "zhī hòu ": 8591,
  "huì hé ": 8592,
  "měi píng fāng gōng lǐ ": 8593,
  "rù le ": 8594,
  " yī yàng ": 8595,
  "30 ": 8596,
  " gōng fēn ": 8597,
  " shè zhì ": 8598,
  "tè zhēng ": 8599,
  "cān sài ": 8600,
  " sī jī ": 8601,
  " wū ": 8602,
  "rú xià ": 8603,
  "zhēn duì ": 8604,
  " yīng chǐ ": 8605,
  "jiù shì zhèn ": 8606,
  " shì fǒu": 8607,
  "bàng ": 8608,
  " shí jiān": 8609,
  "gāo zhōng ": 8610,
  " cǐ hòu ": 8611,
  " zài zhōng ": 8612,
  "bì xū ": 8613,
  "wáng guó ": 8614,
  "bǐ jiào ": 8615,
  " chē ": 8616,
  "èr shì ": 8617,
  "diāo ": 8618,
  "wài jiāo": 8619,
  "guī huà ": 8620,
  " yǔ": 8621,
  " biǎo shì ": 8622,
  " yì zhì ": 8623,
  "lèi sì ": 8624,
  "zhè ge ": 8625,
  "shān dōng ": 8626,
  " rán hòu ": 8627,
  " yì zhí": 8628,
  " lì shǔ yú ": 8629,
  "yuán shì ": 8630,
  " suī rán ": 8631,
  "duì zài ": 8632,
  "zhù míng ": 8633,
  "yún nán ": 8634,
  " shāng ": 8635,
  "hěn duō ": 8636,
  " ěr de ": 8637,
  "huò dé": 8638,
  "shēng chǎn ": 8639,
  " 9": 8640,
  "   gōng ": 8641,
  "zhàn yì ": 8642,
  " běi": 8643,
  " tú ": 8644,
  "zhòng de ": 8645,
  "diàn zi ": 8646,
  "   dà ": 8647,
  " jiàn zhì ": 8648,
  "xīn jiā ": 8649,
  "lái zì": 8650,
  "zhì zuò ": 8651,
  "shān xī ": 8652,
  "rén kǒu shù liàng wèi rén ": 8653,
  "tào ": 8654,
  " gǔ": 8655,
  "jù jí ": 8656,
  " de yī zhǒng ": 8657,
  " de míng ": 8658,
  " wàn rén ": 8659,
  " E": 8660,
  "jí hé ": 8661,
  "é luó ": 8662,
  " xī yà": 8663,
  "lǚ yóu ": 8664,
  " zhì zào ": 8665,
  " xíng wéi ": 8666,
  "mǎ lái": 8667,
  "bào fā ": 8668,
  "nǚ ér ": 8669,
  " rèn": 8670,
  " INSEE": 8671,
  "zǒng lǐ ": 8672,
  "quán qiú ": 8673,
  "sī hé ": 8674,
  "0 ": 8675,
  " zǔ": 8676,
  " duì yú ": 8677,
  " de zhǔ ": 8678,
  "sài zhōng ": 8679,
  " shàng hǎi ": 8680,
  "fā shè ": 8681,
  "ruì shì ": 8682,
  "bāo hán": 8683,
  "nóng yè ": 8684,
  "chà ": 8685,
  "yè wù ": 8686,
  "lù jūn ": 8687,
  "tóu zī ": 8688,
  "wù zhì ": 8689,
  "jué de ": 8690,
  "nài ": 8691,
  " fēn zhōng ": 8692,
  " jìn shì ": 8693,
  " de shí hòu ": 8694,
  " tè bié": 8695,
  "tè bié ": 8696,
  "ào lín pǐ kè yùn dòng huì ": 8697,
  "gé de ": 8698,
  " zhì jīn ": 8699,
  "fāng àn ": 8700,
  "sī rén ": 8701,
  "huà xué ": 8702,
  " dà liàng ": 8703,
  "jí shì ": 8704,
  "mǐn ": 8705,
  " ní ": 8706,
  "kě néng shì ": 8707,
  "qiǎn ": 8708,
  " nián dù ": 8709,
  "jìn de ": 8710,
  " zhī wài ": 8711,
  "sì shí ": 8712,
  "lián jiē ": 8713,
  "cáo ": 8714,
  " gèng ": 8715,
  " zhèng shì ": 8716,
  " 00": 8717,
  "xuǎn wèi ": 8718,
  " shè shī ": 8719,
  "chù de ": 8720,
  "tǔ ěr": 8721,
  " lì sī ": 8722,
  "bó tè ": 8723,
  " zǒng miàn jī ": 8724,
  "fā dòng ": 8725,
  "luó mǎ": 8726,
  "chuàng lì ": 8727,
  " de lì ": 8728,
  " nián hòu ": 8729,
  " dé lǐ ": 8730,
  "guǎng chǎng ": 8731,
  "lián hé guó ": 8732,
  "jí shí ": 8733,
  "gēng míng wèi ": 8734,
  "zǎo nián ": 8735,
  "xiào lì ": 8736,
  "qì de ": 8737,
  "biǎo yǎn ": 8738,
  " zhēn ": 8739,
  "yí shì ": 8740,
  " jūn zài ": 8741,
  "réng rán ": 8742,
  "fāng miàn": 8743,
  "jué dìng": 8744,
  " gāi shěng ": 8745,
  "dā ": 8746,
  " xiān ": 8747,
  " xiàng": 8748,
  "zhì shì ": 8749,
  " gōng néng ": 8750,
  " hán ": 8751,
  "zǒng tǒng": 8752,
  " rén kǒu mì dù měi píng fāng gōng lǐ ": 8753,
  " 6": 8754,
  " rén kǒu mì dù wèi měi": 8755,
  " xià lìng shí ": 8756,
  "yóu zhèng biān mǎ wèi ": 8757,
  "chá de shù jù ": 8758,
  "   bèi ": 8759,
  " jù lè bù ": 8760,
  " shì zhèn biān mǎ wèi ": 8761,
  " INSEE shì zhèn biān mǎ wèi ": 8762,
  "biāo zhǔn": 8763,
  " shè de ": 8764,
  "xuǎn qū wèi ": 8765,
  " zài cǐ ": 8766,
  " bù guò": 8767,
  " xiāo ": 8768,
  "pái míng ": 8769,
  " guó wáng ": 8770,
  "dòng lì ": 8771,
  "shí de rén kǒu shù liàng wèi rén ": 8772,
  "2023 nián ": 8773,
  "jiē rǎng de shì zhèn ": 8774,
  " P": 8775,
  " qīng": 8776,
  "měi guó rén kǒu pǔ chá de shù jù ": 8777,
  "jiā lì ": 8778,
  "cóng shì ": 8779,
  " ér rén kǒu mì dù wèi měi": 8780,
  "gé lán": 8781,
  " dāng dì gòng yǒu rén kǒu ": 8782,
  "fēn lèi ": 8783,
  "jiě jué ": 8784,
  "zú de ": 8785,
  "lián bāng": 8786,
  "dà bù fèn": 8787,
  "yī zhǒng ": 8788,
  " jiǎng ": 8789,
  "lǐng yù ": 8790,
  " huò jiù shì zhèn ": 8791,
  "shǐ yòng de ": 8792,
  "   lì ": 8793,
  "hé shì ": 8794,
  " chū bǎn ": 8795,
  "yùn yíng ": 8796,
  "shěng jí xuǎn qū wèi ": 8797,
  " kāi shǐ ": 8798,
  "jī jí ": 8799,
  " de yī bù fèn ": 8800,
  "shí shì ": 8801,
  "gōu ": 8802,
  "ér zi ": 8803,
  "jiǔ nián ": 8804,
  "zuò pǐn": 8805,
  "xuǎn rén ": 8806,
  "gài niàn ": 8807,
  "xīng de ": 8808,
  " ěr dé ": 8809,
  "shěng hé ": 8810,
  " jǐn guǎn ": 8811,
  "jiē shòu": 8812,
  "tiáo yuē ": 8813,
  "fèn wèi fǎ guó ": 8814,
  " gāi shěng fèn wèi fǎ guó ": 8815,
  " chū bǎn": 8816,
  " zhī xiàn ": 8817,
  "tiě dào ": 8818,
  " dì sān": 8819,
  " sòng ": 8820,
  " nián chū ": 8821,
  " ér qiě ": 8822,
  " jūn duì ": 8823,
  "guǎng zhōu ": 8824,
  " bù jiǔ ": 8825,
  " duì": 8826,
  "ào dà lì ": 8827,
  " wèi shí ": 8828,
  " xī là": 8829,
  "fú jiàn ": 8830,
  "and   ": 8831,
  " hé bìng": 8832,
  " 4": 8833,
  "zhàn zhēng": 8834,
  " yǒu rén ": 8835,
  "pái míng": 8836,
  "zhàn shì ": 8837,
  "zuì hòu yī ": 8838,
  "tè bié": 8839,
  "qún dǎo ": 8840,
  "jǐn biāo sài ": 8841,
  "lái yuán ": 8842,
  " tā bèi ": 8843,
  "jǐng chá ": 8844,
  "xīng jiàn ": 8845,
  " chū shēng yú ": 8846,
  " ruò ": 8847,
  "bā nián ": 8848,
  "shè lì ": 8849,
  "réng rán": 8850,
  " gèng": 8851,
  " yì wèi ": 8852,
  "dì yī ": 8853,
  " rì de ": 8854,
  "běn de ": 8855,
  "wěi huì ": 8856,
  " K": 8857,
  " yóu xì": 8858,
  "lún dūn": 8859,
  " rén gōng ": 8860,
  "xué xiào": 8861,
  "shǎn xī ": 8862,
  " zhì yú ": 8863,
  "liè wèi ": 8864,
  " bù míng ": 8865,
  " fàn ": 8866,
  "tōng cháng": 8867,
  " jiāo ": 8868,
  "mǔ sī ": 8869,
  " míng cháo ": 8870,
  "yùn xíng ": 8871,
  "céng zài ": 8872,
  " shǐ yòng ": 8873,
  "měi zhōu ": 8874,
  "cǎi yòng": 8875,
  " dì sì ": 8876,
  "yán jiū suǒ ": 8877,
  "guǎng fàn ": 8878,
  "ào sī ": 8879,
  " xiàn lù ": 8880,
  "gǎn rǎn ": 8881,
  "ròu ": 8882,
  "méng gǔ ": 8883,
  " shì bù ": 8884,
  "yǐ jí ": 8885,
  " hé píng ": 8886,
  "   tā": 8887,
  "huà shí ": 8888,
  "U ": 8889,
  "zhàn hòu ": 8890,
  "jiā rù ": 8891,
  "tiān wén ": 8892,
  "nán jí ": 8893,
  "shuō fǎ ": 8894,
  " fèi ": 8895,
  " ràng": 8896,
  "xī zài ": 8897,
  " jìn de ": 8898,
  " rèn wéi": 8899,
  " dí ": 8900,
  " jī běn ": 8901,
  " jù lí ": 8902,
  " cān ": 8903,
  "mó xíng ": 8904,
  " chén": 8905,
  "guò chéng zhōng ": 8906,
  " de dì fāng ": 8907,
  " dá ": 8908,
  " de xīn ": 8909,
  "jì shù ": 8910,
  " chǎng ": 8911,
  " jiàn yì ": 8912,
  " tā yǔ ": 8913,
  " shòu": 8914,
  "yùn shū ": 8915,
  "gòu mǎi": 8916,
  "wán quán": 8917,
  " 5": 8918,
  "wǔ shí ": 8919,
  " kè de ": 8920,
  "rèn wéi shì ": 8921,
  " zài yì ": 8922,
  " gè dì ": 8923,
  "duō gè ": 8924,
  "bàn gōng shì ": 8925,
  " 10 yuè ": 8926,
  "tóng yī ": 8927,
  "wài guó ": 8928,
  " zǒng rén kǒu ": 8929,
  "xué shì ": 8930,
  "shàng yǒu ": 8931,
  "zhǎo ": 8932,
  " T": 8933,
  "yuán wèi ": 8934,
  "gōng zuò ": 8935,
  " zì jǐ ": 8936,
  "ní sī ": 8937,
  " zài zhōng guó ": 8938,
  "quān ": 8939,
  " xīng ": 8940,
  " āi": 8941,
  "xué xí ": 8942,
  "yǎng huà ": 8943,
  "fēi xíng ": 8944,
  " jiè": 8945,
  " yī xiē": 8946,
  "xuān chuán ": 8947,
  "mò xī ": 8948,
  "xuǎn zé": 8949,
  "chēng wèi ": 8950,
  "xiāo xī ": 8951,
  " xiàn rén ": 8952,
  " de guān ": 8953,
  "hǎi jūn": 8954,
  "biāo zhì ": 8955,
  " bù mén ": 8956,
  " hù ": 8957,
  "zhì wèi ": 8958,
  "qǐ lái ": 8959,
  " kē": 8960,
  "yóu xì": 8961,
  "huán jìng": 8962,
  "má ": 8963,
  "fù zé guǎn xiá ": 8964,
  " wéi zhǔ ": 8965,
  "   yǐ ": 8966,
  " dǎ ": 8967,
  "gòu chéng ": 8968,
  "shī de ": 8969,
  " àn ": 8970,
  "chē liàng ": 8971,
  " 7": 8972,
  "zhé xué ": 8973,
  " M": 8974,
  "xì bāo ": 8975,
  "kēng ": 8976,
  " jì huà": 8977,
  " lín": 8978,
  "sī zài ": 8979,
  "zhèng de ": 8980,
  "áng ": 8981,
  "dǎng de ": 8982,
  "ān quán": 8983,
  "bǐ dé ": 8984,
  " dào lù ": 8985,
  " G": 8986,
  "jiè quán guó ": 8987,
  "cháo xiān ": 8988,
  " huā ": 8989,
  "yín háng": 8990,
  " dōu ": 8991,
  "jià zhí ": 8992,
  " èr": 8993,
  "xī de ": 8994,
  " shì měi guó ": 8995,
  " shì tú ": 8996,
  "zhōng zài ": 8997,
  " jì niàn ": 8998,
  "zhǔ jué ": 8999,
  "àn de ": 9000,
  "sì chuān ": 9001,
  "bù wèi ": 9002,
  "péng yǒu ": 9003,
  "1999 nián ": 9004,
  " jí qí ": 9005,
  "   hé ": 9006,
  " fǎn ": 9007,
  "chí xù": 9008,
  "   yǒu ": 9009,
  "ài ěr ": 9010,
  "m ": 9011,
  " gōng gòng ": 9012,
  " zhī chí": 9013,
  "kàng yì ": 9014,
  " tái wān": 9015,
  "yuē wèi ": 9016,
  "tài guó ": 9017,
  " ér qiě": 9018,
  "jiē wèi ": 9019,
  "xuǎn qū ": 9020,
  "shí zài ": 9021,
  "yì hé ": 9022,
  "huì yǒu ": 9023,
  "shēng wù ": 9024,
  "xiào zhǎng ": 9025,
  "wén jiàn ": 9026,
  " bèi ěr ": 9027,
  " jié zhì ": 9028,
  "shōu rù ": 9029,
  "gē qǔ": 9030,
  "biāo wèi ": 9031,
  "fó jiào ": 9032,
  "róng yì ": 9033,
  "ào yùn": 9034,
  "   shí ": 9035,
  " qiáng ": 9036,
  "   chē zhàn ": 9037,
  " shēng wù ": 9038,
  "suǒ shǔ de shěng jí xuǎn qū wèi ": 9039,
  "yǎn de ": 9040,
  "biān jí ": 9041,
  " zhàn zhēng": 9042,
  "sī dì ": 9043,
  "yě yǒu ": 9044,
  "qiàn ": 9045,
  "zhèng cè ": 9046,
  "qián wǎng": 9047,
  "jì zhōng ": 9048,
  "mǐ ěr ": 9049,
  "yǔ yán ": 9050,
  " ruò": 9051,
  "jūn duì ": 9052,
  "jiě fàng jūn ": 9053,
  "ào yùn ": 9054,
  " yòu chēng ": 9055,
  "tiǎo zhàn ": 9056,
  " yuán zhù ": 9057,
  " chū le ": 9058,
  " yǎn ": 9059,
  " yù": 9060,
  " zhì dù ": 9061,
  " tí ": 9062,
  "gāo yú ": 9063,
  " shì yí gè": 9064,
  "wú rén ": 9065,
  " huò shì ": 9066,
  " tōng guò ": 9067,
  "gǎn dào ": 9068,
  "nán xìng ": 9069,
  " yǐ shàng ": 9070,
  "màn huà ": 9071,
  "R ": 9072,
  " què": 9073,
  "gǎi biàn ": 9074,
  "   2021": 9075,
  " dì xià ": 9076,
  "mǎ lì ": 9077,
  " zì": 9078,
  "fó ": 9079,
  "jiē rǎng ": 9080,
  "pèi hé ": 9081,
  "kūn ": 9082,
  "tóu rù ": 9083,
  "jiā rén ": 9084,
  "wěn dìng ": 9085,
  "1998 nián ": 9086,
  "zhǐ huī": 9087,
  " zhōng yǒu ": 9088,
  " zài bù ": 9089,
  "rǔ ": 9090,
  "a   ": 9091,
  "tí míng ": 9092,
  "dá chéng ": 9093,
  " yī zhǒng ": 9094,
  "mò sī ": 9095,
  "nè ": 9096,
  " zhuān ": 9097,
  "zài shì ": 9098,
  "tóng de ": 9099,
  "jiǎn jiè ": 9100,
  " zhōng guó rén mín ": 9101,
  "biǎo míng ": 9102,
  "duó de ": 9103,
  "tíng zhǐ ": 9104,
  " F": 9105,
  " píng": 9106,
  " hái yǒu ": 9107,
  "zhā ": 9108,
  "shēn fèn": 9109,
  " ér rén kǒu mì dù wèi měi píng fāng qiān mǐ ": 9110,
  " lí ": 9111,
  "xiǎo de ": 9112,
  "zhèng shí ": 9113,
  "cè de ": 9114,
  "zào de ": 9115,
  " wèi fú": 9116,
  "juān ": 9117,
  "fēn zhī ": 9118,
  "què zhěn": 9119,
  " I": 9120,
  " háo mǐ ": 9121,
  "   and   ": 9122,
  "2024 nián ": 9123,
  "   2020": 9124,
  " jī bài ": 9125,
  "tiān zhǔ jiào ": 9126,
  " pí ": 9127,
  "bàn dǎo ": 9128,
  " bō": 9129,
  "   yuán ": 9130,
  "guó zài ": 9131,
  "wǔ qì ": 9132,
  "tā men ": 9133,
  "   in": 9134,
  " biān ": 9135,
  " jiā ná dà ": 9136,
  " píng fāng mǐ ": 9137,
  "zì zhì qū ": 9138,
  " mén ": 9139,
  " 8 yuè ": 9140,
  "lā kè ": 9141,
  "lèi de ": 9142,
  "   zì ": 9143,
  "hùn hé ": 9144,
  " zì yóu ": 9145,
  " zài měi guó ": 9146,
  " shí yàn": 9147,
  "zuì zǎo": 9148,
  "jǔ rén ": 9149,
  "tuán duì ": 9150,
  "dì shì ": 9151,
  "kě néng huì ": 9152,
  "yā lì ": 9153,
  "quán bù ": 9154,
  " sū": 9155,
  "jì wèi ": 9156,
  " ér bèi ": 9157,
  " jì chéng ": 9158,
  "gòng xiàn ": 9159,
  "xī bān yá ": 9160,
  "jì huà ": 9161,
  " shí shī ": 9162,
  "jié mù": 9163,
  " bèi": 9164,
  " jié guǒ ": 9165,
  "a ": 9166,
  "shēng chǎn": 9167,
  "lái shuō ": 9168,
  "lì bù ": 9169,
  "zhè zhǒng ": 9170,
  "chǎn yè ": 9171,
  " wáng": 9172,
  " chuán ": 9173,
  "xíng dòng ": 9174,
  " hái": 9175,
  " qī jiān ": 9176,
  "fān yì ": 9177,
  " dì tiě ": 9178,
  " chū rèn ": 9179,
  "shǎo shù ": 9180,
  "cāo zuò ": 9181,
  "jiǎn chá ": 9182,
  "bàn shì ": 9183,
  "jiā ná dà ": 9184,
  "yǐng piàn ": 9185,
  "chōng tū ": 9186,
  " zài dà ": 9187,
  " tā yú ": 9188,
  "bǎo hù": 9189,
  "àn jiàn ": 9190,
  "jì niàn ": 9191,
  "chóng jiàn ": 9192,
  " mù": 9193,
  "shǒu de ": 9194,
  " jiàn zhù": 9195,
  " shí fēn ": 9196,
  " ān": 9197,
  " shì yǐ ": 9198,
  "xíng wéi ": 9199,
  "xīn lǐ ": 9200,
  "céng jīng ": 9201,
  " shǐ de ": 9202,
  "gòng tóng": 9203,
  "dòng de ": 9204,
  "kōng jūn ": 9205,
  " zhǐ yǒu ": 9206,
  "bàn gōng ": 9207,
  "zhè ge": 9208,
  " xiàn wèi ": 9209,
  "dà bù fèn ": 9210,
  " zhì zuò": 9211,
  "qī jiān": 9212,
  "jié gòu": 9213,
  "nàn ": 9214,
  " yì yǒu ": 9215,
  " lì rú": 9216,
  "lián xù ": 9217,
  "jué sè": 9218,
  "jí zài ": 9219,
  "shēn de ": 9220,
  "yāng ": 9221,
  " hé běi ": 9222,
  " wèi néng ": 9223,
  "amp ": 9224,
  "zhǔ tí ": 9225,
  "xiāng duì ": 9226,
  "fēn bié ": 9227,
  " hé liú ": 9228,
  "gōng yuán ": 9229,
  "méi tǐ": 9230,
  "lián sài": 9231,
  "jiǎn shǎo ": 9232,
  "tòu ": 9233,
  "tòng ": 9234,
  " yòu míng ": 9235,
  " yǐ sè ": 9236,
  "fèn zǐ ": 9237,
  "xiàn dài ": 9238,
  " shì yī míng ": 9239,
  "xiǎo zǔ ": 9240,
  " tǐ zhǎng ": 9241,
  "   2019": 9242,
  " xī wàng ": 9243,
  " zhèn ": 9244,
  "yìng de ": 9245,
  "wěi yuán huì": 9246,
  "C ": 9247,
  "mìng míng wèi ": 9248,
  "ōu yuán ": 9249,
  " gōng sī de ": 9250,
  " liǎng rén ": 9251,
  "yì zài ": 9252,
  "dòng jī ": 9253,
  "dǎ jī ": 9254,
  " de dì qū ": 9255,
  " guī ": 9256,
  "zhǎn shì ": 9257,
  " 19": 9258,
  " zhí zhì ": 9259,
  " shè qū ": 9260,
  " líng ": 9261,
  " jì xù": 9262,
  " N": 9263,
  "shǒu wèi ": 9264,
  "xún huí ": 9265,
  " sī lìng": 9266,
  "shù liàng ": 9267,
  "xià wǔ ": 9268,
  "24 ": 9269,
  "1996 nián ": 9270,
  "lù dì miàn jī wèi ": 9271,
  " liè ": 9272,
  "yòng lái ": 9273,
  "shuǐ yù miàn jī wèi ": 9274,
  " lì jí ": 9275,
  "qǐ yòng ": 9276,
  "lèi xíng ": 9277,
  "rèn wù ": 9278,
  " guó lì ": 9279,
  " shí zì ": 9280,
  " yī cì ": 9281,
  "duō cì ": 9282,
  " wǎng ": 9283,
  "píng jià ": 9284,
  "bù shì ": 9285,
  " biàn": 9286,
  " 2009 nián ": 9287,
  "   2018": 9288,
  " de shǒu ": 9289,
  " fù jìn ": 9290,
  "jǔ xíng de ": 9291,
  "fú hé ": 9292,
  "zhuó ": 9293,
  "tǐ xì ": 9294,
  "wài jiāo ": 9295,
  " zhè jiāng ": 9296,
  "1997 nián ": 9297,
  " xiào ": 9298,
  " dà shǐ ": 9299,
  "zuò jiā ": 9300,
  " shè bèi ": 9301,
  "18 ": 9302,
  "měi nián ": 9303,
  "liǎng gè": 9304,
  " lì fǎ ": 9305,
  "zhù yì ": 9306,
  " amp ": 9307,
  "diàn lì ": 9308,
  "dé dào ": 9309,
  " sī lìng ": 9310,
  " cóng ér ": 9311,
  "fǎ lǜ": 9312,
  "lún dūn ": 9313,
  " guǎng ": 9314,
  "kuí ": 9315,
  "jiào táng ": 9316,
  " dāng zhōng lù dì miàn jī wèi ": 9317,
  "zhì hé ": 9318,
  " ér shuǐ yù miàn jī wèi ": 9319,
  "qǔ xiāo ": 9320,
  "shēng huó": 9321,
  "fú wù": 9322,
  "zhí de ": 9323,
  "jié zhì ": 9324,
  "   xī ": 9325,
  "diān ": 9326,
  "   2022": 9327,
  "xué zhě ": 9328,
  "shuǐ píng ": 9329,
  "hǎi yù ": 9330,
  "nèi róng": 9331,
  " zhī shí ": 9332,
  "zhù zuò ": 9333,
  " 9 yuè ": 9334,
  "yīng gé lán ": 9335,
  " dà chén ": 9336,
  " The   ": 9337,
  " chéng lì yú ": 9338,
  "   gài ": 9339,
  "lǚ kè ": 9340,
  "tuò ": 9341,
  "zhì zài ": 9342,
  " zhōng de ": 9343,
  "jiē jìn ": 9344,
  " xīn wén ": 9345,
  "cháng qī ": 9346,
  " wéi ěr ": 9347,
  "lìng wài ": 9348,
  " huí ": 9349,
  "   xíng zhèng qū huà ": 9350,
  " 11": 9351,
  "rèn mìng": 9352,
  " jiā shàng ": 9353,
  "yuàn zhǎng ": 9354,
  "bǐ sài zhōng ": 9355,
  " xuān bù ": 9356,
  "jǐ yǔ ": 9357,
  "diǎn de ": 9358,
  "xī yáng ": 9359,
  " yǐ hòu ": 9360,
  "guī mó": 9361,
  " jūn wèi ": 9362,
  "mín de ": 9363,
  "shuò shì ": 9364,
  " dé de ": 9365,
  "wēi lián ": 9366,
  "wěi shū jì ": 9367,
  " yì rén ": 9368,
  "jiā hé ": 9369,
  "1992 nián ": 9370,
  "tài yáng ": 9371,
  "dǎo yǔ ": 9372,
  "pī zhǔn ": 9373,
  "dài yǒu ": 9374,
  "hēng lì ": 9375,
  " shì yī wèi ": 9376,
  " xué xiào": 9377,
  " wèi fú qí yú ": 9378,
  " 7 yuè ": 9379,
  "guō ": 9380,
  "cān yù": 9381,
  "cì shì jiè dà zhàn ": 9382,
  " shì qū ": 9383,
  "fā chū ": 9384,
  "gāo sù": 9385,
  "   yì ": 9386,
  "xìng zhì ": 9387,
  "yǎn chàng huì ": 9388,
  " yuán yīn ": 9389,
  "quàn ": 9390,
  "tǎo lùn ": 9391,
  " formula ": 9392,
  "tuì yì ": 9393,
  " méng ": 9394,
  " tuō ": 9395,
  " huǒ ": 9396,
  "bǐ yà ": 9397,
  "fēng bào ": 9398,
  "jī zhì ": 9399,
  "xìn hào ": 9400,
  "yà de ": 9401,
  "néng gòu": 9402,
  "shòu shāng ": 9403,
  " cí ": 9404,
  "   2017": 9405,
  " jiàn chéng ": 9406,
  "wèi zhì ": 9407,
  "lián xì ": 9408,
  " rú guǒ": 9409,
  "rú hé ": 9410,
  "bì xū": 9411,
  " tǐ zhǎng kě dá ": 9412,
  " ěr tè ": 9413,
  "bǎo chí ": 9414,
  "zhuān jiā ": 9415,
  "fū rén ": 9416,
  "jiǎng xiàng ": 9417,
  "chā yì ": 9418,
  " jīng guò ": 9419,
  " jī gòu": 9420,
  " zài yú ": 9421,
  " de yī zuò ": 9422,
  " tōng cháng ": 9423,
  " gǎi": 9424,
  "wō ": 9425,
  "shòu yǔ ": 9426,
  "miǎo ": 9427,
  " 2010 nián ": 9428,
  "wǎng lù ": 9429,
  "jīng yíng ": 9430,
  " H": 9431,
  " 12 yuè ": 9432,
  " mín guó ": 9433,
  "tān ": 9434,
  "gòng chǎn dǎng": 9435,
  " kè lǐ ": 9436,
  " shēng chǎn ": 9437,
  " bù lǐ ": 9438,
  "kào ": 9439,
  " yǐ xià": 9440,
  "diàn tái ": 9441,
  "cūn zhuāng ": 9442,
  " 11 yuè ": 9443,
  "lái dào ": 9444,
  "suí hòu ": 9445,
  " zhī zhōng ": 9446,
  " cháng": 9447,
  "bì yè yú ": 9448,
  "xùn liàn": 9449,
  " zhū": 9450,
  " 21 ": 9451,
  "cuò shī ": 9452,
  "fǎ de ": 9453,
  " yì shù": 9454,
  "zǒng dū ": 9455,
  "zhù míng de ": 9456,
  " shì yǒu ": 9457,
  " fāng ": 9458,
  " jiàn duì ": 9459,
  "kuài sù ": 9460,
  "zhù yú ": 9461,
  "dōng xī ": 9462,
  " zhǒng ": 9463,
  "1994 nián ": 9464,
  " ràng ": 9465,
  " shí rèn ": 9466,
  " yī shēng ": 9467,
  "gū jì ": 9468,
  " ěr hé ": 9469,
  "hái zi ": 9470,
  "tài píng yáng ": 9471,
  "   2016": 9472,
  " jié mù ": 9473,
  "yán gé ": 9474,
  "tóng yì ": 9475,
  "shǎng ": 9476,
  "shēng wèi ": 9477,
  "dǎo shì ": 9478,
  "chéng gōng ": 9479,
  "le dà ": 9480,
  "làng ": 9481,
  "fā diàn ": 9482,
  " shàng hǎi": 9483,
  "zhàn zhōng ": 9484,
  "shé ": 9485,
  " de qián ": 9486,
  " rén lèi ": 9487,
  "sì gè ": 9488,
  "jié shù hòu ": 9489,
  " xiǎng": 9490,
  " dé yǐ ": 9491,
  "pǔ tōng ": 9492,
  " B": 9493,
  " de shí qū wèi ": 9494,
  " yìn dù ": 9495,
  " míng chēng ": 9496,
  " zhèng cè ": 9497,
  "chè xiāo ": 9498,
  " tw": 9499,
  "yǔ zhōng ": 9500,
  "   zhì ": 9501,
  "n ": 9502,
  " yáng": 9503,
  " shèng": 9504,
  "tóu piào ": 9505,
  " qī": 9506,
  "dǐ dá ": 9507,
  "fā de ": 9508,
  "xì liè": 9509,
  " jǐn guǎn": 9510,
  "jú zhǎng ": 9511,
  " de shí jiān ": 9512,
  " S": 9513,
  "1995 nián ": 9514,
  "zhè xiē": 9515,
  " qián": 9516,
  "gèng jiā ": 9517,
  " wèi shēng ": 9518,
  "yuè tái ": 9519,
  " píng tái ": 9520,
  "fǎn huí ": 9521,
  " chēng": 9522,
  "guǎng xī ": 9523,
  "fěi ": 9524,
  " chuàng ": 9525,
  "hans ": 9526,
  "kuò dà ": 9527,
  "hā ěr ": 9528,
  "zhái ": 9529,
  " hans ": 9530,
  "yì zhōng ": 9531,
  "dēng lù ": 9532,
  "zǔ chéng de ": 9533,
  "róng yù ": 9534,
  " tw ": 9535,
  "yuè shí ": 9536,
  "zhòng dà ": 9537,
  "lù yì ": 9538,
  " sà ": 9539,
  " shì yǎn ": 9540,
  "què dìng ": 9541,
  "   A": 9542,
  "zhǐ zài ": 9543,
  "yè hòu ": 9544,
  " bù kě ": 9545,
  " xià": 9546,
  " bìng méi yǒu ": 9547,
  " cǐ shí ": 9548,
  "   de shí ": 9549,
  " lǜ ": 9550,
  "jìn xíng": 9551,
  " liàng ": 9552,
  " ā ěr ": 9553,
  "   2023": 9554,
  " mù qián": 9555,
  "wǎn shàng ": 9556,
  "jiào qū ": 9557,
  "qì chē ": 9558,
  "yà lì shān": 9559,
  "míng chēng ": 9560,
  "wù zhǒng": 9561,
  "guān zhòng ": 9562,
  " xué xí ": 9563,
  "gǎi biān": 9564,
  " guó wù ": 9565,
  " zhī yuán ": 9566,
  "yuàn de ": 9567,
  "xiāo shòu ": 9568,
  " gōng yè": 9569,
  "bā xī ": 9570,
  " huò zhě ": 9571,
  "   2014": 9572,
  "xiāng tóng ": 9573,
  "bā lí ": 9574,
  "X ": 9575,
  "bǎn de ": 9576,
  "rù kǒu ": 9577,
  "xué hé ": 9578,
  "sǔn shī ": 9579,
  " tiān": 9580,
  "biǎo xiàn": 9581,
  " shí xiàn ": 9582,
  "xī là": 9583,
  "fā xiàn le ": 9584,
  "pò huài ": 9585,
  "kàn dào ": 9586,
  "pān ": 9587,
  "qī zǐ ": 9588,
  "guān zhù ": 9589,
  " céng rèn ": 9590,
  " L": 9591,
  " bìng yǐ ": 9592,
  "xiōng yá": 9593,
  "qiǎng ": 9594,
  " 6 yuè ": 9595,
  "   suǒ shǔ de shěng jí xuǎn qū wèi ": 9596,
  "   de yóu zhèng biān mǎ wèi ": 9597,
  "   yǔ jiē rǎng de shì zhèn ": 9598,
  "   yú shí de rén kǒu shù liàng wèi rén ": 9599,
  "   de shí qū wèi ": 9600,
  "   jī ": 9601,
  "zhuāng zhì ": 9602,
  "nǎi ": 9603,
  "zhí wèi ": 9604,
  " 2011": 9605,
  "jì hé ": 9606,
  " zuò yòng ": 9607,
  " quán zhǎng ": 9608,
  " zhuǎn ": 9609,
  "tú zhōng ": 9610,
  "sū lián": 9611,
  "wèi   ": 9612,
  "kāi fàng": 9613,
  "xū qiú ": 9614,
  " zhī míng ": 9615,
  "lín de ": 9616,
  " sī lā ": 9617,
  "shí wèi ": 9618,
  " nián qīng": 9619,
  "héng xīng ": 9620,
  " quán bù ": 9621,
  "tuī dòng ": 9622,
  " O": 9623,
  "wéi de ": 9624,
  " shì zhǎng ": 9625,
  "guǎn lǐ": 9626,
  " 2019": 9627,
  " gān ": 9628,
  "rù qīn ": 9629,
  "rú cǐ ": 9630,
  " hk": 9631,
  " jiā tíng ": 9632,
  "tái běi ": 9633,
  "yǔ hé ": 9634,
  " yī dài ": 9635,
  "yí dòng ": 9636,
  " jǐn": 9637,
  "jìn shì ": 9638,
  " chū xiàn zài ": 9639,
  "zhè jiāng ": 9640,
  "   2015": 9641,
  "fù de ": 9642,
  "mǔ qīn ": 9643,
  "xiōng yá lì ": 9644,
  "   K": 9645,
  "mù sī ": 9646,
  "1991 nián ": 9647,
  " rén shù ": 9648,
  "fù qīn ": 9649,
  " dàn tā ": 9650,
  " xī bān yá": 9651,
  "cán ": 9652,
  "mín zú": 9653,
  "tái de ": 9654,
  " dì qiú ": 9655,
  " shì zhǐ ": 9656,
  " miàn ": 9657,
  " chē zhàn ": 9658,
  "tí shēng ": 9659,
  "fēi jiàn zhì ": 9660,
  " duàn ": 9661,
  "   2013": 9662,
  " 5 yuè ": 9663,
  "xùn sù ": 9664,
  " hk ": 9665,
  "zuì chū ": 9666,
  "shù xué ": 9667,
  "guǎng bō": 9668,
  " wèi hé ": 9669,
  " bìng lì ": 9670,
  " chéng wéi le ": 9671,
  " sī tǎn ": 9672,
  "t ": 9673,
  "niǔ yuē ": 9674,
  " jīng": 9675,
  "fā xíng": 9676,
  " jìn rù": 9677,
  "tè lǐ ": 9678,
  "kàng rì ": 9679,
  " hé xīn ": 9680,
  " gè zhǒng ": 9681,
  "gǎo ": 9682,
  " jí qí": 9683,
  "fā shēng": 9684,
  "zǒng bù ": 9685,
  "shōu lù ": 9686,
  " shì rén ": 9687,
  "jiào de ": 9688,
  "lán kè ": 9689,
  "cái zhèng ": 9690,
  "máng ": 9691,
  " jì zǎi ": 9692,
  "chàng piàn ": 9693,
  " zuò pǐn": 9694,
  "   nián ": 9695,
  "sà kè ": 9696,
  " zhōng wén ": 9697,
  "jué sài": 9698,
  "míng yì ": 9699,
  "jìn gōng ": 9700,
  " shì jí ": 9701,
  " zào chéng ": 9702,
  "qǐ yì ": 9703,
  "cān yì ": 9704,
  "zhuàng kuàng ": 9705,
  " xiàn yú ": 9706,
  "lǜ wèi ": 9707,
  "le tā ": 9708,
  "   zhōng guó ": 9709,
  "bá ": 9710,
  "cān kǎo ": 9711,
  "zēng zhǎng ": 9712,
  "gāo dù ": 9713,
  "chǎn pǐn": 9714,
  "fēi jiàn zhì dì qū ": 9715,
  " ōu ": 9716,
  " huáng": 9717,
  " dǎo ": 9718,
  "dōu huì ": 9719,
  " hé bìng ": 9720,
  " jì suàn": 9721,
  " shēng huó": 9722,
  " fáng ": 9723,
  " é luó sī ": 9724,
  "wáng de ": 9725,
  "diào chá": 9726,
  "zhòng diǎn ": 9727,
  "zhàn dòu ": 9728,
  " hòu": 9729,
  " dà lóu ": 9730,
  "hǎi dào ": 9731,
  "suī rán ": 9732,
  "chàng piàn": 9733,
  "chāi ": 9734,
  " rén men ": 9735,
  " tiáo ": 9736,
  "wēi xié ": 9737,
  "ào dì lì ": 9738,
  " hé zhōng ": 9739,
  "shàng shū ": 9740,
  " wéi qí ": 9741,
  "kǎn ": 9742,
  "lǐng dǎo rén ": 9743,
  " xiāng guān ": 9744,
  "jīng shén ": 9745,
  "jiā zhōng ": 9746,
  " yīn ér ": 9747,
  "yuè zài ": 9748,
  "liǎng rén ": 9749,
  " nián shí ": 9750,
  " bù duàn ": 9751,
  "cān jiā le ": 9752,
  "yíng yùn ": 9753,
  "huà wèi ": 9754,
  "jiāng xī ": 9755,
  " de chéng yuán ": 9756,
  "jié kè ": 9757,
  "tú shū guǎn ": 9758,
  " hé chéng ": 9759,
  "zhǔ chí ": 9760,
  " zhōng guó gòng chǎn dǎng ": 9761,
  " huá": 9762,
  "jù de ": 9763,
  "nà lǐ ": 9764,
  " xiǎo": 9765,
  " 4 yuè ": 9766,
  " yǒu shí ": 9767,
  "zhàn dòu": 9768,
  " yīng": 9769,
  "jìn rù": 9770,
  "mǒu xiē ": 9771,
  "shēn wèi ": 9772,
  "jū zhù ": 9773,
  "to   ": 9774,
  "zì dòng ": 9775,
  "xià jì ào lín pǐ kè yùn dòng huì ": 9776,
  " J": 9777,
  "yīn shì ": 9778,
  "mín zhòng ": 9779,
  " zuǒ ": 9780,
  "1988 nián ": 9781,
  " xiàng mù ": 9782,
  "chǎn shēng de ": 9783,
  " biān": 9784,
  "   zh ": 9785,
  " zài jiā ": 9786,
  "shuō míng ": 9787,
  " wěi ": 9788,
  " zhèng zhuàng ": 9789,
  "yǐn fā ": 9790,
  " xuǎn ": 9791,
  "jiāng sū ": 9792,
  " huò dé le ": 9793,
  "dāo ": 9794,
  " zhī xià ": 9795,
  " shì wēi ": 9796,
  "xiǎo shuō": 9797,
  " zhuāng ": 9798,
  " xǔ duō ": 9799,
  "   jiā zú ": 9800,
  " qiáo ": 9801,
  " shì zhèn": 9802,
  " xié ": 9803,
  " gōng rén ": 9804,
  "dìng le ": 9805,
  "yōu shì ": 9806,
  "lán qiú ": 9807,
  "1993 nián ": 9808,
  " dà duō ": 9809,
  "zhōu de ": 9810,
  " dú ": 9811,
  "jì shí ": 9812,
  "   S": 9813,
  " suì de ": 9814,
  " pèi ": 9815,
  "xiǎn de ": 9816,
  "zī xùn ": 9817,
  "ào yùn huì ": 9818,
  " wén": 9819,
  "sù de ": 9820,
  " dà xíng ": 9821,
  " 2018": 9822,
  " yuè nán ": 9823,
  " jí lì ": 9824,
  " zhōng huá ": 9825,
  " lái zì ": 9826,
  "qǔ dé": 9827,
  "i ": 9828,
  "yuán zài ": 9829,
  " bù mén": 9830,
  "xiāng dāng ": 9831,
  " dàn yóu yú ": 9832,
  "fǎng wèn ": 9833,
  "zhí dào ": 9834,
  "suī rán": 9835,
  "jiào wéi ": 9836,
  "xiàng mù": 9837,
  " shì wèi le ": 9838,
  "jié hūn ": 9839,
  " shàng": 9840,
  " lǐ lùn ": 9841,
  "pǐn pái ": 9842,
  " tián ": 9843,
  "chuāng ": 9844,
  "xí wèi ": 9845,
  " dì wǔ ": 9846,
  " yuè tái ": 9847,
  "zhōng wèi ": 9848,
  "cān jiā": 9849,
  " shī": 9850,
  " lǎo ": 9851,
  "zhēn shí ": 9852,
  "zhōng huá rén mín gòng hé guó ": 9853,
  "yǒu bù ": 9854,
  "yìn dì ": 9855,
  "měi shù ": 9856,
  " zhèng": 9857,
  "   2025": 9858,
  "mìng lìng ": 9859,
  "xué shù ": 9860,
  "xīng qī ": 9861,
  " de gōng zuò ": 9862,
  "22 ": 9863,
  "2020 nián měi guó rén kǒu pǔ chá de shù jù ": 9864,
  "jiàn shè ": 9865,
  "jǔ xíng": 9866,
  "fáng yù ": 9867,
  " rèn wù ": 9868,
  "wǔ zhuāng ": 9869,
  " zhuǎn": 9870,
  " nián bèi ": 9871,
  "yí chǎn ": 9872,
  " dìng ": 9873,
  " shí yī ": 9874,
  " wàn měi yuán ": 9875,
  "ào mén ": 9876,
  "yǔn xǔ ": 9877,
  " jiǔ": 9878,
  " zhì shí ": 9879,
  " jiā rù": 9880,
  " zhī hòu": 9881,
  "tí gāo ": 9882,
  " lí": 9883,
  "zhòu ": 9884,
  "fēi lǜ ": 9885,
  "wǎ ěr ": 9886,
  "bào dǎo ": 9887,
  "yǐ lái ": 9888,
  "le tā de ": 9889,
  "huì yuán ": 9890,
  " shí qī": 9891,
  "jì lù ": 9892,
  " jī guān ": 9893,
  "dū shì ": 9894,
  "le yí gè ": 9895,
  " chēng wéi ": 9896,
  "huà jiā ": 9897,
  "cuì ": 9898,
  "jī chǎng ": 9899,
  " fù zé": 9900,
  "yí mín ": 9901,
  "shū de ": 9902,
  "jù lí ": 9903,
  "shù zì ": 9904,
  "   2024": 9905,
  " shì yī zhǒng": 9906,
  "jīn de ": 9907,
  " rén lèi": 9908,
  " hé shí ": 9909,
  "hōng zhà": 9910,
  " C ": 9911,
  " zì jǐ de ": 9912,
  "jiē jí ": 9913,
  "duàn de ": 9914,
  "dū jiào ": 9915,
  " hóng": 9916,
  "lì shì ": 9917,
  "kè lǐ ": 9918,
  "yán de ": 9919,
  "yíng de ": 9920,
  "huā yuán ": 9921,
  "shān mài": 9922,
  "shēng jí ": 9923,
  "yuē yǒu ": 9924,
  " shì dà ": 9925,
  "wén zì ": 9926,
  " xiū ": 9927,
  "miàn duì ": 9928,
  " wàn yuán ": 9929,
  "yāo qǐng ": 9930,
  " guān": 9931,
  " 2011 nián ": 9932,
  "yòng hù ": 9933,
  " liáng ": 9934,
  "dōng jì ": 9935,
  "zī jīn ": 9936,
  "děng wèi ": 9937,
  " lì shǐ": 9938,
  "wǔ tái ": 9939,
  " xú": 9940,
  "sú ": 9941,
  " shè jí ": 9942,
  "hán shù ": 9943,
  " zhì lì ": 9944,
  "gāo děng ": 9945,
  " 2016": 9946,
  " suǒ yǐ": 9947,
  "yuán jí ": 9948,
  " rén mín": 9949,
  " hé lán ": 9950,
  "shēn qǐng ": 9951,
  " 2005 nián ": 9952,
  "dòng zuò ": 9953,
  " jù": 9954,
  " hán guó ": 9955,
  "xiào guǒ ": 9956,
  " 3 yuè ": 9957,
  "měi guó de ": 9958,
  " 2008 nián ": 9959,
  "   G": 9960,
  " míng cháo zhèng zhì rén wù ": 9961,
  "   xīn ": 9962,
  "   zǎo nián ": 9963,
  "jiào liàn ": 9964,
  " xiàn hé ": 9965,
  " rì jūn ": 9966,
  "xià lìng": 9967,
  " pèi": 9968,
  "1990 nián ": 9969,
  " yuán míng ": 9970,
  "liǎng zhǒng ": 9971,
  "lǐng tǔ ": 9972,
  "nǔ lì ": 9973,
  "zhèng míng ": 9974,
  " zhāo": 9975,
  "   hòu ": 9976,
  "lù jūn": 9977,
  " zhōng yú ": 9978,
  "zuò yòng ": 9979,
  "   yóu ": 9980,
  "qū yù": 9981,
  "jīng cháng ": 9982,
  "liè biǎo ": 9983,
  "yǒu zài ": 9984,
  " yì yì ": 9985,
  "yǐng piàn": 9986,
  " zhōu nián ": 9987,
  " jìn xíng": 9988,
  " nán zhì ": 9989,
  " guó huì ": 9990,
  " gōng huì ": 9991,
  "guān xì": 9992,
  " bǐ": 9993,
  " jué": 9994,
  " W": 9995,
  " jì zhě ": 9996,
  " yuán gōng ": 9997,
  "nèi lù ": 9998,
  " hěn ": 9999,
  "zhǎo dào ": 10000,
  "wáng cháo": 10001,
  " lǐ": 10002,
  "jīng lǐ ": 10003,
  "lǚ xíng ": 10004,
  "shén jīng ": 10005,
  " bó": 10006,
  " chì ": 10007,
  " shì hòu ": 10008,
  "yòng zuò ": 10009,
  "lǐ lùn ": 10010,
  " gōng chǎng ": 10011,
  "fù jìn ": 10012,
  "huí yìng ": 10013,
  " zhù": 10014,
  "yú zài ": 10015,
  " gé": 10016,
  "tài rén ": 10017,
  " hé gōng ": 10018,
  "kě yǐ zài ": 10019,
  "e ": 10020,
  " luó": 10021,
  "zhī jiān ": 10022,
  "tí dào ": 10023,
  "bǎo chí": 10024,
  " bān ": 10025,
  " chéng xiàn ": 10026,
  "chū bǎn ": 10027,
  " nián 1 yuè 1 rì ": 10028,
  " bǎn ": 10029,
  " jī chē ": 10030,
  " shí èr ": 10031,
  "jiǔ diàn ": 10032,
  "āi jí ": 10033,
  " fǎn": 10034,
  "qì xiàng ": 10035,
  "   P": 10036,
  "shǒu jī ": 10037,
  " guó fáng": 10038,
  "kōng zhōng ": 10039,
  " nián shì jiè ": 10040,
  " léi ": 10041,
  "guī zé ": 10042,
  "tōng dào ": 10043,
  "kǒng bù ": 10044,
  "tī ": 10045,
  "qí zhōng yī zhǒng ": 10046,
  "zuò wèi ": 10047,
  "wǒ men": 10048,
  "bèi shì wèi ": 10049,
  " de zhì ": 10050,
  " wǒ men ": 10051,
  "lì wèi ": 10052,
  "shū jí ": 10053,
  "15 ": 10054,
  " ér chéng ": 10055,
  "shǒu dū ": 10056,
  " tí gōng ": 10057,
  "1984 nián ": 10058,
  "dōng nán bù ": 10059,
  "yǐ xià ": 10060,
  "yǎn yì ": 10061,
  " xī wàng": 10062,
  "jī hé ": 10063,
  "dà lù de ": 10064,
  "qǐ yè": 10065,
  "suì dào ": 10066,
  " de jiā ": 10067,
  " zuò wéi": 10068,
  "dài lǐ ": 10069,
  "měng ": 10070,
  "jīn shǔ ": 10071,
  "jìn yí bù ": 10072,
  "gé wèi ": 10073,
  "láo dòng ": 10074,
  "zhǔ chí": 10075,
  "jiào xué ": 10076,
  "biǎo miàn ": 10077,
  "gù wèn ": 10078,
  " yīng yǔ ": 10079,
  "nī ": 10080,
  " xì liè ": 10081,
  "xīn jiā pō": 10082,
  " hé xī ": 10083,
  " bù bù ": 10084,
  " yōng yǒu ": 10085,
  " yǒu jī ": 10086,
  "cháo xiān": 10087,
  " 2001 nián rén kǒu ": 10088,
  "dào lù ": 10089,
  "huá rén ": 10090,
  "cái liào ": 10091,
  " tǔ ": 10092,
  " zài wèi ": 10093,
  " běi qǐ ": 10094,
  "jìng de ": 10095,
  "sǐ hòu ": 10096,
  "bō lán": 10097,
  "tōng chē ": 10098,
  "sī lì ": 10099,
  "1989 nián ": 10100,
  " zhōng guó dà lù ": 10101,
  "bái sè ": 10102,
  "yà lì shān dà ": 10103,
  " sài jì ": 10104,
  "huì shì ": 10105,
  " yǐ bèi ": 10106,
  "bǎo liú ": 10107,
  "nǚ zǐ": 10108,
  "tiáo zhěng ": 10109,
  "jū mín": 10110,
  " hǎi": 10111,
  " jù yǒu ": 10112,
  "zhǔ lì ": 10113,
  " píng miàn ": 10114,
  "   E": 10115,
  "ní kè ": 10116,
  " tā wèi ": 10117,
  " 2021": 10118,
  "zhǔ de ": 10119,
  " zhī jiān": 10120,
  " chá ": 10121,
  " sī tè": 10122,
  " gǎng ": 10123,
  " qǔ ": 10124,
  " xiàn de yí gè ": 10125,
  "T ": 10126,
  " dào dá ": 10127,
  "fǎ àn ": 10128,
  "yǐn qǐ ": 10129,
  " dōng nán ": 10130,
  "yǐn qǐ": 10131,
  "   2012": 10132,
  "yùn zuò ": 10133,
  "zhào kāi ": 10134,
  "jiāo huì ": 10135,
  "shǒu gè ": 10136,
  "tuì chū ": 10137,
  "dì èr ": 10138,
  " ér yán ": 10139,
  " xiàn de yí gè": 10140,
  " bèi rèn wéi shì ": 10141,
  "lì zài ": 10142,
  " jī hū": 10143,
  " kè chéng ": 10144,
  "wén zhāng ": 10145,
  "jǐ gè ": 10146,
  " shì jiā ": 10147,
  " yǒu yì ": 10148,
  "tè shū ": 10149,
  " xī sī ": 10150,
  "xiāng guān": 10151,
  "shī fàn": 10152,
  " fù qīn ": 10153,
  "wú fǎ": 10154,
  " qǐ": 10155,
  " lǚ ": 10156,
  "jīn huì ": 10157,
  "jiè de ": 10158,
  "jiào shī ": 10159,
  "céng jīng": 10160,
  "cān móu": 10161,
  "   xià ": 10162,
  "zhài ": 10163,
  "lǜ shī ": 10164,
  " shì yǔ ": 10165,
  " nǚ xìng ": 10166,
  "fēi zhōu ": 10167,
  "zhá ": 10168,
  "xī bān yá": 10169,
  "dà wèi ": 10170,
  " yī jí ": 10171,
  " féng ": 10172,
  "cháng de ": 10173,
  " bù dé": 10174,
  " tā men zài ": 10175,
  " s   ": 10176,
  "wēi jī ": 10177,
  " yì fāng miàn ": 10178,
  "fǎ yuàn": 10179,
  "yí zhǐ ": 10180,
  " ér shuǐ yù miàn jī wèi 0": 10181,
  " guó jiā de ": 10182,
  "zhě zài ": 10183,
  " hé qí tā ": 10184,
  "yà zhōu": 10185,
  " zhǔ xí ": 10186,
  "jīn pái ": 10187,
  "chē de ": 10188,
  " zhī wèi ": 10189,
  " bìng jiāng ": 10190,
  "16 ": 10191,
  "kāng xī ": 10192,
  " chéng xù ": 10193,
  "yào wù ": 10194,
  " wèi yǒu ": 10195,
  "biǎo dá": 10196,
  "   chéng ": 10197,
  " chéng rèn ": 10198,
  "guò qù ": 10199,
  "pú táo yá": 10200,
  " shōu ": 10201,
  "dà dì ": 10202,
  "biàn dé ": 10203,
  " zhì liáo ": 10204,
  "huān yíng ": 10205,
  " gāo": 10206,
  "wén xiàn ": 10207,
  " bàn ": 10208,
  " bǎi ": 10209,
  "duō nián ": 10210,
  " sī kè ": 10211,
  " jìn xíng le ": 10212,
  "mù biāo": 10213,
  " é": 10214,
  " fèi": 10215,
  " guān yú ": 10216,
  "zhuāng shì ": 10217,
  "zhí mín": 10218,
  "dōng běi bù ": 10219,
  "gòu zào ": 10220,
  "huò dé le ": 10221,
  "bó wù guǎn": 10222,
  "ào dà lì yà ": 10223,
  "zhù lǐ ": 10224,
  " qiú yuán ": 10225,
  "xì tǒng de ": 10226,
  " 00 ": 10227,
  " 100": 10228,
  "   F": 10229,
  "jiāng huì ": 10230,
  "fú yì ": 10231,
  "běn dì ": 10232,
  "lěng ": 10233,
  " ér gāi dì ": 10234,
  "xiān shēng ": 10235,
  " bù lā ": 10236,
  "bō lán ": 10237,
  " yú lè ": 10238,
  "jiā rù": 10239,
  "fàng qì ": 10240,
  "jiàn yì ": 10241,
  " 2015": 10242,
  "dāng shí de ": 10243,
  " qī xī zài ": 10244,
  "máo zé ": 10245,
  "xiào de ": 10246,
  "sà sī ": 10247,
  "yì dà lì ": 10248,
  " bìng yǔ ": 10249,
  " dà lù ": 10250,
  "1985 nián ": 10251,
  "fù qīn": 10252,
  "zé wèi ": 10253,
  " cè ": 10254,
  " wèi lái ": 10255,
  " 2007 nián ": 10256,
  "   cóng ": 10257,
  "zì yóu": 10258,
  " jiàn zào ": 10259,
  "D ": 10260,
  " jìn yí bù ": 10261,
  "chēng zuò ": 10262,
  "shōu shì ": 10263,
  " de zhèng ": 10264,
  " nián   ": 10265,
  "liú zài ": 10266,
  "nán jīng ": 10267,
  " jìn gōng ": 10268,
  "guǎng gào ": 10269,
  "sà ěr ": 10270,
  "luó dì ": 10271,
  " shì zhèng ": 10272,
  " fù qīn": 10273,
  "shì   ": 10274,
  " jì shù": 10275,
  " hào wèi ": 10276,
  "jì xù ": 10277,
  "tǎn kè ": 10278,
  "1949 nián ": 10279,
  " de shēng ": 10280,
  " rén men": 10281,
  " rì jūn": 10282,
  " yì měi yuán ": 10283,
  "cì shǐ ": 10284,
  "jǐn jí ": 10285,
  "xì jù ": 10286,
  " 2013": 10287,
  " zài cǐ": 10288,
  " sī tǎn": 10289,
  " tè bié shì ": 10290,
  " sài ": 10291,
  "huǒ jiàn ": 10292,
  " jiā zú ": 10293,
  "piào fáng ": 10294,
  "bǐ lì shí ": 10295,
  " bīng ": 10296,
  "qǐng qiú ": 10297,
  "jǐng fāng ": 10298,
  "kǎo lǜ": 10299,
  " hè ": 10300,
  " shì rì běn ": 10301,
  " jié guǒ": 10302,
  "tài píng yáng": 10303,
  "zhān mǔ sī ": 10304,
  " 2014": 10305,
  " chū shēng ": 10306,
  " měi nián ": 10307,
  "dì zài ": 10308,
  " yǐ yǒu ": 10309,
  "shàng wǔ ": 10310,
  " zhào": 10311,
  "bā lí": 10312,
  "wáng cháo ": 10313,
  "tóu piào": 10314,
  "   jié zhì ": 10315,
  "nèi yǒu ": 10316,
  "biān de ": 10317,
  "wán gōng ": 10318,
  "shí jiān ": 10319,
  " zhì chéng ": 10320,
  "guǎng dōng shěng ": 10321,
  "fēn zhōng ": 10322,
  "pāi shè": 10323,
  " yuán běn ": 10324,
  "què rèn ": 10325,
  "chǎng hé ": 10326,
  " qí zài ": 10327,
  " zhī zi ": 10328,
  "mǔ qīn": 10329,
  "shēn tǐ ": 10330,
  " dà yuē ": 10331,
  " zhī de ": 10332,
  "méng gǔ": 10333,
  " è ": 10334,
  "gǔ fèn": 10335,
  " cān jiā ": 10336,
  " jīng jì ": 10337,
  " zhàn dòu ": 10338,
  "xí xìng": 10339,
  "gèng duō ": 10340,
  "hú běi ": 10341,
  " yuē hàn ": 10342,
  "dēng shàng ": 10343,
  " xiàn chǎng ": 10344,
  " dèng": 10345,
  "   zēng ": 10346,
  "suǒ zài ": 10347,
  "mín jiān ": 10348,
  "qíng bào ": 10349,
  " yīng wén ": 10350,
  " xiǎng ": 10351,
  "wài bù ": 10352,
  "zhòng yì ": 10353,
  "mì mì ": 10354,
  " xún ": 10355,
  " héng ": 10356,
  "xiào yuán ": 10357,
  " shì yè ": 10358,
  " zài qí ": 10359,
  "guān bì ": 10360,
  "guǎng fàn": 10361,
  "le   ": 10362,
  "kǎo lǜ ": 10363,
  "fěn ": 10364,
  "tè sè ": 10365,
  " yǒu xiàn ": 10366,
  "sēn lín ": 10367,
  " yán": 10368,
  "mǎ sī ": 10369,
  " wò": 10370,
  " 2020": 10371,
  "wù yuán ": 10372,
  "cùn ": 10373,
  " hàn": 10374,
  "ān pái ": 10375,
  " wǒ men": 10376,
  " āi ": 10377,
  " quán qiú ": 10378,
  "xià yī ": 10379,
  "měi gè ": 10380,
  "èr yuè ": 10381,
  "23 ": 10382,
  " dà duō shù ": 10383,
  " A ": 10384,
  "chéng nián ": 10385,
  "zèng ": 10386,
  " bù jiǔ": 10387,
  "zhuāng bèi ": 10388,
  " dà dào ": 10389,
  "liǎng nián ": 10390,
  " zuì gāo ": 10391,
  "néng zài ": 10392,
  " jī bài": 10393,
  "yǎn chàng ": 10394,
  "tǔ ěr qí ": 10395,
  " gāng ": 10396,
  "qiān zhì ": 10397,
  "huǎn ": 10398,
  "1986 nián ": 10399,
  " dì yī cì ": 10400,
  "chǎng dì ": 10401,
  "mín zhǔ dǎng ": 10402,
  "k ": 10403,
  " zhōng shì ": 10404,
  " kǎ": 10405,
  " shí yàn ": 10406,
  "zuò zhàn ": 10407,
  " 10 ": 10408,
  "nán yǐ ": 10409,
  " jí běi ": 10410,
  " chū lái ": 10411,
  "tái fēng ": 10412,
  " tōng cháng": 10413,
  " 2017": 10414,
  "bàn lǐ ": 10415,
  "13 ": 10416,
  " zhī dào ": 10417,
  "xìng qù ": 10418,
  "tiān jīn": 10419,
  "lóng jiāng ": 10420,
  "lǐng shì ": 10421,
  " bù zú ": 10422,
  "yòng tú ": 10423,
  "lǐ gōng ": 10424,
  " kāng ": 10425,
  "tiān de ": 10426,
  "tiān jīn ": 10427,
  " yuán sù ": 10428,
  "wēi ěr ": 10429,
  "nóng yè": 10430,
  " qīng cháo ": 10431,
  " xuān ": 10432,
  "āi ěr ": 10433,
  " yuè tuán ": 10434,
  " chéng dù ": 10435,
  "zhàn lǐng ": 10436,
  "cháng jiàn de ": 10437,
  "jìn xíng le ": 10438,
  " shǐ jiàn yú ": 10439,
  "M ": 10440,
  "   xiàn": 10441,
  "dǎo dàn ": 10442,
  "xiū zhèng ": 10443,
  "míng zì ": 10444,
  "guì zhōu ": 10445,
  "fēn bù yú ": 10446,
  "xǐ jù ": 10447,
  " gōng zhǔ ": 10448,
  " tā hái ": 10449,
  " zhàn dòu": 10450,
  "mǎ lái xī yà ": 10451,
  "xí xìng bù míng ": 10452,
  "V ": 10453,
  " R": 10454,
  " shí dài": 10455,
  " wén huà ": 10456,
  "zhàng ài ": 10457,
  "x ": 10458,
  "25 ": 10459,
  " chū qī ": 10460,
  "xiàng shì ": 10461,
  "huá shèng ": 10462,
  "shēng chéng ": 10463,
  " yǒu xiē ": 10464,
  " shēng chǎn": 10465,
  "rèn mìng wèi ": 10466,
  " róng ": 10467,
  " yì qǐ": 10468,
  " wàn lì ": 10469,
  " táo ": 10470,
  "fǎ guān ": 10471,
  " yě jiù shì ": 10472,
  " de fāng shì ": 10473,
  " hé hé ": 10474,
  " gòng": 10475,
  "   tā ": 10476,
  "zǔ jiàn ": 10477,
  " shēng huó xí xìng bù míng ": 10478,
  " chǔ yú ": 10479,
  "shè zhì ": 10480,
  "tí chū": 10481,
  "ma ": 10482,
  "jiāo liú ": 10483,
  "shòu dào": 10484,
  "jī chǔ ": 10485,
  " tā yě ": 10486,
  "d ": 10487,
  " gēn jù": 10488,
  " luò": 10489,
  " gòng yǒu ": 10490,
  "hěn dà ": 10491,
  " suì shí ": 10492,
  " yín ": 10493,
  "zhì zhōng ": 10494,
  "chī ": 10495,
  "bào fā": 10496,
  "hé   ": 10497,
  "zhǔ shì ": 10498,
  "kǔ ": 10499,
  "   měi guó ": 10500,
  "lǐng xiù ": 10501,
  "jù jué ": 10502,
  "lā dīng": 10503,
  "rèn shí ": 10504,
  " ér bú shì ": 10505,
  "chuán shuō ": 10506,
  "huà hé wù ": 10507,
  " kǒng ": 10508,
  " ruì ": 10509,
  " diàn yǐng ": 10510,
  "bào lì ": 10511,
  "ān nà ": 10512,
  " yī xué ": 10513,
  "ān zhuāng": 10514,
  "wǒ men ": 10515,
  " pà": 10516,
  "zhì bù ": 10517,
  "jiā lì fú ": 10518,
  " fǎ": 10519,
  " yǒu yí gè ": 10520,
  " xiàn xiàng ": 10521,
  "shàng yìng ": 10522,
  "   lǐ ": 10523,
  "wén yì ": 10524,
  "shú ": 10525,
  " zài nèi de ": 10526,
  "gāo sù ": 10527,
  "qióng ": 10528,
  "1987 nián ": 10529,
  " zài dù ": 10530,
  " ér bù ": 10531,
  "jì shì ": 10532,
  "yuàn shì ": 10533,
  " wèi xīng ": 10534,
  " lǐ lùn": 10535,
  "chuàng bàn": 10536,
  "yán shēn": 10537,
  "hǎi àn ": 10538,
  "nǚ xìng": 10539,
  "chuàng jiàn ": 10540,
  "bīn hǎi ": 10541,
  "shùn lì ": 10542,
  " dōng běi ": 10543,
  "   cǐ wài ": 10544,
  " 2013 nián ": 10545,
  "léi sī ": 10546,
  "ruǎn jiàn ": 10547,
  " shēng zhǎng": 10548,
  " yóu qí shì ": 10549,
  " shǔ": 10550,
  "tuī jìn ": 10551,
  " hé bù ": 10552,
  "hǎi wài ": 10553,
  "shū rù ": 10554,
  "zī chǎn ": 10555,
  "lùn wén ": 10556,
  "zū ": 10557,
  " xíng zhèng": 10558,
  "wǎng qiú ": 10559,
  " wǎ ": 10560,
  " nà": 10561,
  " bù luò ": 10562,
  " dà shà": 10563,
  "1980 nián ": 10564,
  "zhǔ yì de ": 10565,
  "píng lùn ": 10566,
  "zuì gāo": 10567,
  " shì yú ": 10568,
  "yìng yòng": 10569,
  "cǎi qǔ ": 10570,
  " 2010": 10571,
  " 2012": 10572,
  "pái míng dì ": 10573,
  " tǎ ": 10574,
  " sāi ": 10575,
  " 2006 nián ": 10576,
  " yíng ": 10577,
  "biàn wèi ": 10578,
  " běi jīng ": 10579,
  " xí ": 10580,
  "yú de ": 10581,
  "c ": 10582,
  "jù hé ": 10583,
  " zài xī ": 10584,
  "rén dà ": 10585,
  " dé ěr ": 10586,
  " hòu xuǎn rén ": 10587,
  "bào gào": 10588,
  "bō fàng ": 10589,
  "jiào shì ": 10590,
  "tóu zī": 10591,
  "mǎ lǐ ": 10592,
  "zé rèn ": 10593,
  "rǎo ": 10594,
  " yòng yú ": 10595,
  "   qí ": 10596,
  "fāng miàn de ": 10597,
  "gè zhǒng ": 10598,
  " shì mín ": 10599,
  " hé dà ": 10600,
  " lái": 10601,
  "lǐng dì ": 10602,
  " zài cì": 10603,
  "fàn wéi nèi ": 10604,
  "   jù qíng ": 10605,
  "   qián ": 10606,
  "zhè lǐ ": 10607,
  "xiāng shì dì ": 10608,
  " yú rén ": 10609,
  "zhèng dǎng ": 10610,
  " rì bào ": 10611,
  "xíng chéng ": 10612,
  "fā xíng de ": 10613,
  " jī hū ": 10614,
  " lìng yī ": 10615,
  " shuō ": 10616,
  "   B": 10617,
  " shì gù ": 10618,
  "zhí jiē": 10619,
  "fēng wèi ": 10620,
  "pài de ": 10621,
  "1982 nián ": 10622,
  " zhì shǎo ": 10623,
  "biǎo dá ": 10624,
  "   C": 10625,
  "yuàn yì ": 10626,
  " tā hé ": 10627,
  "jù lè bù ": 10628,
  "diàn zi": 10629,
  "   chū ": 10630,
  "wǎng luò": 10631,
  "dú lì de ": 10632,
  " fān ": 10633,
  "   xiàn ": 10634,
  " zhī fù ": 10635,
  "jiǔ lóng ": 10636,
  "dāng xuǎn ": 10637,
  "hè ěr ": 10638,
  " yǒu xiào ": 10639,
  "zì rán": 10640,
  "xì bāo": 10641,
  "bú ": 10642,
  "wēn dù ": 10643,
  "1945 nián ": 10644,
  "1983 nián ": 10645,
  "jì chéng ": 10646,
  "diàn nǎo": 10647,
  "yǔn xǔ": 10648,
  "   de   ": 10649,
  " yī xiǎo shí ": 10650,
  "jǐng chá": 10651,
  " dà xī yáng ": 10652,
  "guò qù": 10653,
  "pái háng ": 10654,
  "huǒ shān ": 10655,
  "ān dé ": 10656,
  "19 shì jì ": 10657,
  "jiù dú": 10658,
  " dōng lín ": 10659,
  "   míng ": 10660,
  "zhī chí": 10661,
  "fǎng wèn": 10662,
  " jiù shì ": 10663,
  " zuò jiā ": 10664,
  "dǎng yuán ": 10665,
  "mián ": 10666,
  " dà fú ": 10667,
  "yǐn qíng ": 10668,
  "qū yì huì ": 10669,
  " dé huá ": 10670,
  " 2012 nián ": 10671,
  "huàn chéng ": 10672,
  "biǎo yǎn": 10673,
  "dōu zài ": 10674,
  " dì yí gè ": 10675,
  "xiàn zhì ": 10676,
  " yǔ máo": 10677,
  "   to   ": 10678,
  " chū zhàn ": 10679,
  "bǐ yà": 10680,
  "   dì fāng ": 10681,
  "xǐ huān": 10682,
  "xiāng dāng": 10683,
  " réng": 10684,
  " bìng bèi ": 10685,
  "fāng yán ": 10686,
  "qū hé ": 10687,
  " yī tóng ": 10688,
  "xún yáng": 10689,
  " zhōng huá rén mín gòng hé guó zhèng zhì rén wù ": 10690,
  "sān shì ": 10691,
  "jīng yàn ": 10692,
  " jì suàn ": 10693,
  "pǔ biàn ": 10694,
  " shēng yú ": 10695,
  " zhōng bèi ": 10696,
  "guān diǎn ": 10697,
  "jiàng dī ": 10698,
  "kē de qí zhōng yī zhǒng ": 10699,
  " gōng yì ": 10700,
  "hán yǒu ": 10701,
  " néng ": 10702,
  "liǎng míng ": 10703,
  "diǎn lǐ ": 10704,
  " shì gōng ": 10705,
  "zhòng duō ": 10706,
  "dà zhì ": 10707,
  " bìng dú": 10708,
  " qí zhōng yī ": 10709,
  "   2011": 10710,
  "yà jūn ": 10711,
  "shè qū ": 10712,
  "kǒu wèi ": 10713,
  "chéng yuán ": 10714,
  " xiàn shì ": 10715,
  "zhī qián ": 10716,
  "mì shū zhǎng ": 10717,
  " dì sì": 10718,
  " liù": 10719,
  "zuò shì ": 10720,
  "tiáo lì ": 10721,
  "14 ": 10722,
  "nèi gé ": 10723,
  " wán ": 10724,
  " píng jūn ": 10725,
  "shù yǔ ": 10726,
  "wú zhèng zhuàng ": 10727,
  " xiàn rèn ": 10728,
  "tū pò ": 10729,
  "xiě dào ": 10730,
  "dàng tiān ": 10731,
  "yí dù ": 10732,
  " zǔ fù ": 10733,
  " xíng wèi ": 10734,
  " bǐ sài ": 10735,
  " gōng mín ": 10736,
  "xīng děng wèi ": 10737,
  "P ": 10738,
  " tóng yì ": 10739,
  "   jí ": 10740,
  " zuì chū ": 10741,
  "shān shì ": 10742,
  " nián hé ": 10743,
  "hóng sè ": 10744,
  "kāi shǐ zài ": 10745,
  " xìn ": 10746,
  "tuán de ": 10747,
  "gěi le ": 10748,
  " jī jīn ": 10749,
  "sǐ wáng": 10750,
  "zhěng tǐ ": 10751,
  " 500": 10752,
  "lǔ sī ": 10753,
  "shě ": 10754,
  "   H": 10755,
  "jué duì ": 10756,
  " quán lì ": 10757,
  "dài biǎo dà huì ": 10758,
  "chí yǒu ": 10759,
  "yīng wén ": 10760,
  " sūn": 10761,
  "   2010": 10762,
  "zhèng bù ": 10763,
  "gài niàn": 10764,
  "F ": 10765,
  " dá": 10766,
  " gōng jù ": 10767,
  "fāng fǎ": 10768,
  "shè shī ": 10769,
  "yáng shì ": 10770,
  " shì bīng ": 10771,
  " zhè zhǒng": 10772,
  "xià xiá de yí gè ": 10773,
  "   ā ": 10774,
  "běn rén ": 10775,
  "   2 ": 10776,
  " 0 ": 10777,
  "ní ěr ": 10778,
  " de chéng jì ": 10779,
  "o ": 10780,
  "   1 ": 10781,
  " jí rén ": 10782,
  "lái yuè ": 10783,
  "bǎo shǒu ": 10784,
  "yí dìng ": 10785,
  "tóu xiáng ": 10786,
  "guì zú ": 10787,
  "y ": 10788,
  "yuè zhōng ": 10789,
  "zhí dǎo ": 10790,
  "zhèn qū de ": 10791,
  "jiè shào ": 10792,
  "zǎo qī": 10793,
  "bó shì xué wèi ": 10794,
  "I ": 10795,
  "   qí tā ": 10796,
  "shān jī ": 10797,
  "huáng hòu ": 10798,
  "guà ": 10799,
  "qǐ dòng ": 10800,
  " měi gè ": 10801,
  "tāng ": 10802,
  " wéi ěr": 10803,
  "yāo qǐng": 10804,
  "gǔ dài ": 10805,
  " míng dān ": 10806,
  " dé yǔ ": 10807,
  "yì nián ": 10808,
  " lì fǎ": 10809,
  " yī zuò ": 10810,
  " yǐ jí": 10811,
  " ér gāi ": 10812,
  "zhǒng zú ": 10813,
  "hēi sè ": 10814,
  "1 lì ": 10815,
  "zhěn ": 10816,
  " rén mín zhèng fǔ ": 10817,
  "ēn shěng ": 10818,
  "tòu guò": 10819,
  "kuì ": 10820,
  " xiǎng nián ": 10821,
  "wú zhèng zhuàng gǎn rǎn ": 10822,
  " 30 ": 10823,
  "suí zhù ": 10824,
  "míng rén ": 10825,
  "duō rén ": 10826,
  "huó yuè ": 10827,
  "mù qián": 10828,
  "cháng wù ": 10829,
  "cháng wěi ": 10830,
  "què zhěn bìng lì ": 10831,
  " yòng": 10832,
  " èr shí ": 10833,
  "sā ": 10834,
  " rì yú ": 10835,
  "gǎi míng wèi ": 10836,
  "chū shēn ": 10837,
  "diàn huà ": 10838,
  " 2022": 10839,
  " bù sī ": 10840,
  " jī sī ": 10841,
  "tài zi ": 10842,
  " 7 ": 10843,
  " bǐ rú ": 10844,
  "   gāi": 10845,
  "míng zhì ": 10846,
  "kè chéng ": 10847,
  "kùn nán ": 10848,
  " bù lì ": 10849,
  "dān de ": 10850,
  "lóng de ": 10851,
  "al   ": 10852,
  "tún ": 10853,
  "zuì duō ": 10854,
  " měi yuán ": 10855,
  "quē fá": 10856,
  "tí jí ": 10857,
  " wèi yú zhōng guó ": 10858,
  "yǐ jīng ": 10859,
  "sāi ěr wéi ": 10860,
  "huì zhōng ": 10861,
  "shōu jí ": 10862,
  "gèng wéi ": 10863,
  "xué huì ": 10864,
  " bìng fēi ": 10865,
  "hǎi xiá ": 10866,
  "rù xuǎn ": 10867,
  "gòu de ": 10868,
  "gōng chéng ": 10869,
  " xī jiē ": 10870,
  "gē lún ": 10871,
  "pāi ": 10872,
  " jī chǎng": 10873,
  "jù dà ": 10874,
  " chéng rén ": 10875,
  "fù zé": 10876,
  "ān nà": 10877,
  "zú qiú yùn dòng yuán ": 10878,
  " yāo qiú ": 10879,
  "xiě de ": 10880,
  "zhuī sù": 10881,
  " 2014 nián ": 10882,
  "   2": 10883,
  " tóng shí gāi dì ": 10884,
  "zuò chū ": 10885,
  "bēi sī ": 10886,
  " yě zài ": 10887,
  "tóng nián ": 10888,
  "shěng de ": 10889,
  "lìng rén ": 10890,
  "huì zhì ": 10891,
  " dé zhǔ ": 10892,
  "tǎo lùn": 10893,
  " yuē": 10894,
  " jí dì ": 10895,
  "fàn zuì ": 10896,
  "gāo sù gōng lù ": 10897,
  "nèi lù shěng fèn ": 10898,
  "ān huī ": 10899,
  "kē xué jiā ": 10900,
  "tú xíng ": 10901,
  " guó nèi ": 10902,
  "pī zhǔn": 10903,
  " bìng dú ": 10904,
  " pò ": 10905,
  "dī yú ": 10906,
  " diàn shì ": 10907,
  "jiāng zài ": 10908,
  "zhú bù ": 10909,
  "jiǎn shǎo": 10910,
  " de dì èr ": 10911,
  " ōu yuán ": 10912,
  "shòu de ": 10913,
  "shān de ": 10914,
  " shì yīn wèi ": 10915,
  " kè xī ": 10916,
  "lián hé huì ": 10917,
  " chá": 10918,
  "chāo yuè ": 10919,
  "jié guǒ": 10920,
  "tái nán": 10921,
  "qiáng liè ": 10922,
  "xià lìng shí jiān ": 10923,
  " wán jiā ": 10924,
  "hǎi píng miàn ": 10925,
  "bú dào ": 10926,
  " shí qī de ": 10927,
  " yuán xíng ": 10928,
  "yí dìng": 10929,
  " jiǎ": 10930,
  "yě zài ": 10931,
  " jī huì ": 10932,
  " xué yuàn": 10933,
  "huī fù": 10934,
  "guò de ": 10935,
  "yà měi ": 10936,
  "cì de ": 10937,
  "biān jiè ": 10938,
  "dǒng shì zhǎng ": 10939,
  " méi": 10940,
  " jiào yù ": 10941,
  " 20": 10942,
  "tí yì ": 10943,
  "shū zhōng ": 10944,
  "xūn zhāng ": 10945,
  "jià gé ": 10946,
  "zhǔ jiào": 10947,
  "shī bài ": 10948,
  " hào de ": 10949,
  "pài qiǎn": 10950,
  "zhǔ yào de ": 10951,
  "ní yà zhōu ": 10952,
  " hòu bèi ": 10953,
  " xué jiā ": 10954,
  "liú xià ": 10955,
  "shuāng fāng ": 10956,
  "   bèi jǐng ": 10957,
  "ér tóng ": 10958,
  " yī lì ": 10959,
  "guān chá ": 10960,
  "jiā yì ": 10961,
  " bù duì": 10962,
  " yǐ wéi ": 10963,
  " shǒu": 10964,
  " zài shí ": 10965,
  " bǎi": 10966,
  "lián xù": 10967,
  "tí gōng le ": 10968,
  "xiàn de ": 10969,
  "qīn zì ": 10970,
  " ér zi ": 10971,
  "běi jīng shì ": 10972,
  " 1950": 10973,
  " yǒu suǒ ": 10974,
  "zuì gāo de ": 10975,
  "huì yì yuán ": 10976,
  "   W": 10977,
  "sān jiǎo": 10978,
  "   dì fāng zī liào ": 10979,
  "rèn wèi ": 10980,
  "mǎ ěr ": 10981,
  "lán de ": 10982,
  "ná xià ": 10983,
  "píng tái ": 10984,
  "fēi cháng": 10985,
  "   jiǎn jiè ": 10986,
  "duō wèi ": 10987,
  "zǔ fù ": 10988,
  " hé yuē ": 10989,
  "1978 nián ": 10990,
  "le zài ": 10991,
  " lì liàng ": 10992,
  " chū kǒu ": 10993,
  " tā céng dài biǎo ": 10994,
  " dì lǐ ": 10995,
  "nán běi ": 10996,
  " hù": 10997,
  "néng yuán ": 10998,
  " dì qī ": 10999,
  " xiàn fǎ ": 11000,
  "gǎi biàn": 11001,
  "bèi de ": 11002,
  " hòu zhě ": 11003,
  "tái zhōng ": 11004,
  "dí shì ": 11005,
  " zhèng míng ": 11006,
  "bǎn běn": 11007,
  "quē fá ": 11008,
  " shí jì shàng ": 11009,
  "g ": 11010,
  " kuān ": 11011,
  "liǎo ": 11012,
  " chéng zhèn ": 11013,
  " 2015 nián ": 11014,
  "xuǎn zhōng ": 11015,
  "dí rén ": 11016,
  "1979 nián ": 11017,
  " lì yì ": 11018,
  " sù ": 11019,
  " lǔ ": 11020,
  "lǐ hé ": 11021,
  "zì de ": 11022,
  "pài chū ": 11023,
  " nián lái ": 11024,
  " zhōng guó rén mín jiě fàng jūn ": 11025,
  "duō zhǒng ": 11026,
  "tán pàn ": 11027,
  "liáo níng ": 11028,
  " zī ": 11029,
  " sī tǎ ": 11030,
  "tí chū de ": 11031,
  "suí jí ": 11032,
  "wán zhěng": 11033,
  "tuì xiū ": 11034,
  " dà xué de ": 11035,
  "hǎi bá wèi ": 11036,
  "píng wèi ": 11037,
  "gàn bù ": 11038,
  "lěi jì ": 11039,
  " bù shǎo ": 11040,
  " shí xíng ": 11041,
  "yīng gé lán": 11042,
  "L ": 11043,
  "dāng zhōng ": 11044,
  "xù lì yà ": 11045,
  "shāng rén ": 11046,
  "biāo běn ": 11047,
  "fā shēng zài ": 11048,
  "suǒ cǎi yòng": 11049,
  "zhǐ dǎo ": 11050,
  " jù jué ": 11051,
  "miǎn diān": 11052,
  "huà zhōng ": 11053,
  "zàn shí ": 11054,
  "1972 nián ": 11055,
  " fù jìn": 11056,
  "měi zhōu": 11057,
  " zhōng gòng zhōng yāng ": 11058,
  "tiào ": 11059,
  " yì qíng ": 11060,
  "nóng mín ": 11061,
  " míng zhì ": 11062,
  "cì yú ": 11063,
  "jué yì ": 11064,
  "   yīn ": 11065,
  "yí dài ": 11066,
  " dé míng ": 11067,
  "zhuāng jiǎ ": 11068,
  " chú": 11069,
  "shuǐ lì ": 11070,
  "róng hé ": 11071,
  " zhōng guó de ": 11072,
  "3 gè ": 11073,
  " bǎ": 11074,
  "fā míng ": 11075,
  " qí wèi ": 11076,
  "zhǐ néng ": 11077,
  "xiū gǎi ": 11078,
  "   in   ": 11079,
  " gōng zhòng ": 11080,
  "   1": 11081,
  "zhǔ yǎn ": 11082,
  "ā lā bó": 11083,
  "xiāng sì ": 11084,
  "guān chá": 11085,
  "jiē chù ": 11086,
  " běi jīng": 11087,
  "kāi shè ": 11088,
  "an   ": 11089,
  "xiū jiàn ": 11090,
  "zhǒng zi ": 11091,
  "jìng jì ": 11092,
  " yǔ qí tā ": 11093,
  "jiě sàn ": 11094,
  " de shì jiè ": 11095,
  " 2016 nián ": 11096,
  "wǔ zhuāng": 11097,
  "diàn jī ": 11098,
  "chāi chú ": 11099,
  "cn ": 11100,
  "kāi tōng ": 11101,
  "bào zhà ": 11102,
  "jǔ bàn de ": 11103,
  "fā qǐ ": 11104,
  "shēn dù ": 11105,
  "ān pái": 11106,
  " táng": 11107,
  "qū shì ": 11108,
  "wéi sī ": 11109,
  "tuán tǐ": 11110,
  "1958 nián ": 11111,
  "jī gòu ": 11112,
  "fù zhǔ rèn ": 11113,
  "fā shòu ": 11114,
  "zǔ zhī de ": 11115,
  " tíng ": 11116,
  "   qí": 11117,
  "   duì ": 11118,
  " wèi dà ": 11119,
  "fēng xiǎn ": 11120,
  "diào kuài": 11121,
  " zhēng ": 11122,
  "chéng hé ": 11123,
  "zhuǎn xiàng ": 11124,
  "néng liàng ": 11125,
  "zhāng zhuān jí ": 11126,
  " dān": 11127,
  " cn ": 11128,
  "zào le ": 11129,
  " wèi UTC ": 11130,
  " bù jí ": 11131,
  " zhōng shān ": 11132,
  "shuài lǐng": 11133,
  " gē": 11134,
  "jié de ": 11135,
  "biān jù ": 11136,
  "yīng gāi ": 11137,
  "bàn shì chù ": 11138,
  " bài ": 11139,
  "qiú jì ": 11140,
  "nǔ ": 11141,
  " xī bān yá ": 11142,
  "luó lǐ ": 11143,
  "gé lā ": 11144,
  "jiù dú ": 11145,
  "diào kuài yī xiǎo shí ": 11146,
  "zé zài ": 11147,
  " de yǐng xiǎng ": 11148,
  "yīng xióng ": 11149,
  "shāng yè": 11150,
  "shén me ": 11151,
  "tiáo zhěng": 11152,
  "qiáng diào ": 11153,
  " fā xíng ": 11154,
  " jí UTC ": 11155,
  "kē xué yuàn ": 11156,
  "shè yǒu xià lìng shí jiān ": 11157,
  " de shí qū wèi UTC ": 11158,
  " ér gāi dì suǒ cǎi yòng": 11159,
  " tóng shí gāi dì shè yǒu xià lìng shí jiān ": 11160,
  " ér gāi dì suǒ cǎi yòng de shí qū wèi UTC ": 11161,
  "2025 nián ": 11162,
  "xiāo fèi ": 11163,
  " tóng yàng": 11164,
  "xìn yǎng ": 11165,
  "tā men de ": 11166,
  " dà jiǎng ": 11167,
  "jiào táng": 11168,
  " lìng yǒu ": 11169,
  " yī sī lán ": 11170,
  "yóu jī ": 11171,
  "yuán zhù ": 11172,
  "tài dù ": 11173,
  " gāi cūn ": 11174,
  " huàn ": 11175,
  "què de ": 11176,
  "chuán bō ": 11177,
  "zhī jiān de ": 11178,
  "   jiāo tōng ": 11179,
  "fā shè": 11180,
  "suǒ zài dì ": 11181,
  " shí wù ": 11182,
  "bǎo liú": 11183,
  " mǎ lái": 11184,
  " lì shǐ shàng ": 11185,
  "gāo yú hǎi píng miàn ": 11186,
  " qí xià ": 11187,
  "dìng jū ": 11188,
  " wèi fú qí yú gāng ": 11189,
  "   qīng ": 11190,
  "xìng wèi ": 11191,
  "zhú jiàn": 11192,
  "1976 nián ": 11193,
  " bù néng": 11194,
  " gōng jué ": 11195,
  " ěr duō ": 11196,
  " lián hé ": 11197,
  "wù hé ": 11198,
  "pèi zhì ": 11199,
  "huì yú ": 11200,
  "chù de hǎi bá wèi ": 11201,
  "chù de hǎi bá wèi gāo yú hǎi píng miàn ": 11202,
  " yīn sù ": 11203,
  "tǐ zhì ": 11204,
  "kùn ": 11205,
  "jìng xuǎn ": 11206,
  " 30": 11207,
  "wù shì ": 11208,
  " yú lè": 11209,
  "chǎng suǒ ": 11210,
  "hòu wèi ": 11211,
  " zhī yì ": 11212,
  " dài": 11213,
  " nǐ ": 11214,
  " hé pàn ": 11215,
  " bù jǐn ": 11216,
  " yǐ xī ": 11217,
  "fā xiàn de ": 11218,
  "zhòng shì ": 11219,
  "kuáng ": 11220,
  " qí shí ": 11221,
  " suí zhù ": 11222,
  " xū ": 11223,
  "nán jīng": 11224,
  "zhǎng dá ": 11225,
  "yùn shū": 11226,
  " 2008": 11227,
  " xiè ": 11228,
  " 2017 nián ": 11229,
  "   mǎ ": 11230,
  "shù shí ": 11231,
  "nèi dì ": 11232,
  " hú": 11233,
  " zhèng zhì ": 11234,
  "shí qū ": 11235,
  "gāo xióng": 11236,
  "3 nián ": 11237,
  "jiàn chéng ": 11238,
  "lù zhì ": 11239,
  "gēng xīn ": 11240,
  " yī jiā ": 11241,
  " xī lán ": 11242,
  "yùn yòng ": 11243,
  " zì rán ": 11244,
  "zī liào": 11245,
  "chóng qìng": 11246,
  "bì yè hòu ": 11247,
  " yí": 11248,
  "   rán": 11249,
  "èr jí ": 11250,
  "qià ": 11251,
  " lì rèn ": 11252,
  "shān fēng ": 11253,
  " wèi yú gāi ": 11254,
  " xiǎo shí ": 11255,
  "wéi ěr ": 11256,
  "zhí zhèng ": 11257,
  "diàn qì ": 11258,
  "zhě shì ": 11259,
  "wáng shì ": 11260,
  " zuò chū ": 11261,
  " kǒu ": 11262,
  "biān hào ": 11263,
  "xiá qū ": 11264,
  "   běn": 11265,
  "bāo wéi ": 11266,
  "bàng qiú ": 11267,
  "xué yuán ": 11268,
  "cuò wù ": 11269,
  " dì qiú": 11270,
  "jīn róng ": 11271,
  " yù shǐ ": 11272,
  "xuān chuán": 11273,
  "dōng fāng ": 11274,
  " nuò ": 11275,
  "hòu yì ": 11276,
  "běi shì ": 11277,
  "jīng cháng": 11278,
  "xiào qū ": 11279,
  " rán ér": 11280,
  " shā": 11281,
  "jiù huì ": 11282,
  " jié kè ": 11283,
  " fā xiàn ": 11284,
  " sī kē ": 11285,
  " duì shǒu ": 11286,
  " xíng zhèng qū ": 11287,
  "zhèn qū de miàn jī wèi ": 11288,
  " qīn ": 11289,
  "   R": 11290,
  " zhōu cì shǐ ": 11291,
  " shēng yá ": 11292,
  "jiā yǐ ": 11293,
  "céng wèi ": 11294,
  "jú de ": 11295,
  "fú de ": 11296,
  "mǎ kè ": 11297,
  " tā yǐ ": 11298,
  " yuán zì ": 11299,
  " lǐ xī ": 11300,
  "zào chéng de ": 11301,
  " 8 ": 11302,
  " fú wù ": 11303,
  " 2023": 11304,
  "17 ": 11305,
  "píng lùn": 11306,
  "zhí mín ": 11307,
  "fū kǎ ": 11308,
  " dāng shí de ": 11309,
  " gǎn ": 11310,
  "ào zhōu ": 11311,
  "shuāi ": 11312,
  " yī jù ": 11313,
  "shén me": 11314,
  "jì yǒu ": 11315,
  "shǐ jiàn yú ": 11316,
  "rèn de ": 11317,
  "yě bèi ": 11318,
  "miàn shàng ": 11319,
  "bàn de ": 11320,
  "gōng gòng ": 11321,
  " sī kè": 11322,
  " ér tóng ": 11323,
  " 2018 nián ": 11324,
  "jiā zài ": 11325,
  "kě zài ": 11326,
  "pǎo ": 11327,
  " xué zhě ": 11328,
  " jiàn shè": 11329,
  " wéi rào": 11330,
  " yě bèi ": 11331,
  "qiān shǔ ": 11332,
  " qí zhōng bāo kuò ": 11333,
  " 2009": 11334,
  "on ": 11335,
  "hǎi yáng ": 11336,
  "lái yīn ": 11337,
  "jī zài ": 11338,
  "jùn gōng ": 11339,
  "tū rán ": 11340,
  " jí dà ": 11341,
  "jì niàn": 11342,
  " dé zhī ": 11343,
  " jī jīn huì ": 11344,
  "xiào lì yú ": 11345,
  " 2019 nián ": 11346,
  "qì chē": 11347,
  "lìng yí gè ": 11348,
  "xiāo shī ": 11349,
  " xīng": 11350,
  " chōng ": 11351,
  " yún ": 11352,
  "míng shì ": 11353,
  " wèi duì ": 11354,
  "rú guǒ ": 11355,
  "dāng dì de ": 11356,
  "jiàng lǐng ": 11357,
  "chán ": 11358,
  "yán hǎi ": 11359,
  "táo tài ": 11360,
  "wěi yuán huì wěi yuán ": 11361,
  " dì tiě": 11362,
  " lǐ yà ": 11363,
  " 2 yuè ": 11364,
  "   shèng ": 11365,
  "   jǐn ": 11366,
  "píng yuán ": 11367,
  "bèi jǐng ": 11368,
  "kǎ luó ": 11369,
  "19 ": 11370,
  "jìn bù ": 11371,
  "dìng yú ": 11372,
  "liǎng guó ": 11373,
  "tè dìng ": 11374,
  "fèn zǐ": 11375,
  "dà bù ": 11376,
  "duì qí ": 11377,
  " qí de ": 11378,
  " de bù fèn ": 11379,
  " cì nián ": 11380,
  " xiān": 11381,
  "èr rén ": 11382,
  "jiào dà ": 11383,
  "děng jí ": 11384,
  " zhì zuò de ": 11385,
  " jī dū ": 11386,
  "diàn nǎo ": 11387,
  "gǎi zào ": 11388,
  "chuán tǒng de ": 11389,
  " gēn ": 11390,
  " zá zhì ": 11391,
  "   for": 11392,
  "shēng yá": 11393,
  " bù bù zhǎng ": 11394,
  "shǒu zhōng ": 11395,
  "on   ": 11396,
  "jīng shén": 11397,
  " qián wǎng ": 11398,
  "zhí mín dì ": 11399,
  "diǎn shì ": 11400,
  "yì shù ": 11401,
  "quán miàn ": 11402,
  "tián jìng ": 11403,
  " diàn yǐng": 11404,
  "mò xī gē ": 11405,
  " xián ": 11406,
  "zhèn de ": 11407,
  "tuī chū": 11408,
  "guó jiā": 11409,
  " xiàn yǐ ": 11410,
  " jī chǔ": 11411,
  " jù lí": 11412,
  "guān jiàn ": 11413,
  "mù de ": 11414,
  "lí kāi": 11415,
  " luó mǎ ": 11416,
  "   nán ": 11417,
  " shí duàn ": 11418,
  "liǎng cì ": 11419,
  "ài ěr lán ": 11420,
  "sān míng ": 11421,
  "hūn yīn ": 11422,
  "dà lù": 11423,
  " yì yú ": 11424,
  "jiē duàn": 11425,
  "shū yuàn ": 11426,
  " yóu jī ": 11427,
  " shān dōng ": 11428,
  "ā lā bó ": 11429,
  " liù ": 11430,
  "tou ": 11431,
  "bō sī ": 11432,
  "huì zhǎng ": 11433,
  "mǎn zú ": 11434,
  "qī wèi ": 11435,
  "wén de ": 11436,
  " dì diǎn ": 11437,
  "b ": 11438,
  "xīn chéng ": 11439,
  "liǎng wèi ": 11440,
  "pèi yīn ": 11441,
  "zhèng jù ": 11442,
  "jìng zhēng ": 11443,
  " wú fǎ ": 11444,
  "lián de ": 11445,
  "xiū fù ": 11446,
  " bìng yóu ": 11447,
  "cái néng ": 11448,
  "lā jī ": 11449,
  "kào jìn ": 11450,
  " dì dài ": 11451,
  " lì shí ": 11452,
  "jiě fàng ": 11453,
  "é luó sī": 11454,
  "nèi zhàn ": 11455,
  "bō shì ": 11456,
  " wéi chí": 11457,
  "chū bǎn": 11458,
  "zāi péi ": 11459,
  " shì dé guó ": 11460,
  "duì zhǎng ": 11461,
  "fā qǐ": 11462,
  "hù lián ": 11463,
  "jū zhù zài ": 11464,
  "p ": 11465,
  "   T": 11466,
  "zǎo zài ": 11467,
  " cān yù ": 11468,
  "bìng bù ": 11469,
  "shǒu xiàng ": 11470,
  "shān qū ": 11471,
  "zú qiú jù lè bù ": 11472,
  "jiāo liú": 11473,
  " guó wù yuàn ": 11474,
  " bǎo": 11475,
  " piào ": 11476,
  "lǐ chéng ": 11477,
  "wěi fù ": 11478,
  "zhè shì ": 11479,
  "yú   ": 11480,
  "qǐ yuán ": 11481,
  "cūn luò ": 11482,
  "fū de ": 11483,
  "jī chǔ": 11484,
  " dà lóu": 11485,
  " yǔ yán": 11486,
  "yán sè ": 11487,
  "xiàng zhēng ": 11488,
  " wéi sī ": 11489,
  "tiān tǐ ": 11490,
  "dōu bèi ": 11491,
  " bù bīng ": 11492,
  "   dì èr ": 11493,
  " B ": 11494,
  " 2004 nián ": 11495,
  "liù shí ": 11496,
  " zhì liàng ": 11497,
  " zhōu fǔ ": 11498,
  " dīng ": 11499,
  "láng zhōng ": 11500,
  "gǒu ": 11501,
  " yī yuàn": 11502,
  " xíng mù ": 11503,
  "xìng hé ": 11504,
  "juàn ": 11505,
  " yǐ wài ": 11506,
  " yǔ yī ": 11507,
  "cháng dù ": 11508,
  "luò fá": 11509,
  "e   ": 11510,
  " zhì dì ": 11511,
  "wú zhèng zhuàng gǎn rǎn zhě ": 11512,
  " yì shì ": 11513,
  "liàng wèi ": 11514,
  "mǔ de ": 11515,
  " dé sī ": 11516,
  " 2020 nián ": 11517,
  "xiě zuò ": 11518,
  "mèng jiā ": 11519,
  "zài   ": 11520,
  "zuì chū": 11521,
  "tè xìng ": 11522,
  "shī qù": 11523,
  " wèi yú měi guó ": 11524,
  "jiǎ dì ": 11525,
  " zuì jiā ": 11526,
  "fù hé ": 11527,
  "chuáng ": 11528,
  "tài yáng": 11529,
  "ào mén": 11530,
  "fú lì ": 11531,
  " xiàn jí ": 11532,
  "zhuàn de ": 11533,
  "r ": 11534,
  " dǎng ": 11535,
  "zōng yì ": 11536,
  "1970 nián ": 11537,
  "zì mǔ ": 11538,
  "líng chén ": 11539,
  "zhí yè shēng yá ": 11540,
  " yí gè": 11541,
  " kù ": 11542,
  "suǒ de ": 11543,
  "suǒ wèi ": 11544,
  "tòu lù ": 11545,
  "dōng běi": 11546,
  " diào ": 11547,
  "ǒu xiàng ": 11548,
  "kǎo shì ": 11549,
  " fú jiàn ": 11550,
  "   gè rén ": 11551,
  "zǒng rén kǒu ": 11552,
  " dì fāng": 11553,
  " xiàn chéng ": 11554,
  " lǐ kè ": 11555,
  "shōu gòu ": 11556,
  "jué shì ": 11557,
  " dé lā ": 11558,
  "kōng qì ": 11559,
  "nà de ": 11560,
  "fén ": 11561,
  "zuò wéi": 11562,
  "zhǔ zhāng ": 11563,
  "xī hé ": 11564,
  "xī nán ": 11565,
  " tài": 11566,
  "   2008": 11567,
  "píng de ": 11568,
  "huí yì ": 11569,
  " yǐ zài ": 11570,
  " yě kě yǐ ": 11571,
  "pú táo yá ": 11572,
  " zhēn": 11573,
  "   rén ": 11574,
  "si ": 11575,
  " zuò zhàn ": 11576,
  " xiè": 11577,
  "qī shí ": 11578,
  "gé shì ": 11579,
  "zǒu xiàng ": 11580,
  " yǐ yú ": 11581,
  " chéng kè ": 11582,
  "sū gé lán ": 11583,
  " 18": 11584,
  " sè ": 11585,
  "guò le ": 11586,
  "chē duì ": 11587,
  " ěr shì ": 11588,
  "nán de ": 11589,
  " dì tú ": 11590,
  " yuán běn": 11591,
  " chū dào ": 11592,
  "yìn ní ": 11593,
  " 2007": 11594,
  " sūn ": 11595,
  " 2021 nián ": 11596,
  "wǔ shì ": 11597,
  "shōu dào ": 11598,
  "wǎ ěr shěng ": 11599,
  "guǎn zhì ": 11600,
  " gōng lǐ de ": 11601,
  "xìn yǎng": 11602,
  "zhǔ yì zhě ": 11603,
  "gǔ lì ": 11604,
  "féi ": 11605,
  "ba ": 11606,
  " wèi yuán ": 11607,
  "guò dù ": 11608,
  " kǎi": 11609,
  " zú ": 11610,
  "yán rén ": 11611,
  "luò chéng ": 11612,
  "er ": 11613,
  "xiǎn zhù ": 11614,
  "tōu ": 11615,
  "guó wù ": 11616,
  "shǐ shàng ": 11617,
  "guǎng chǎng": 11618,
  " shí yàn shì ": 11619,
  " sī lìng bù ": 11620,
  " xù ": 11621,
  "shǐ rén ": 11622,
  "bì de ": 11623,
  "mài kè ": 11624,
  "50 ": 11625,
  "hún ": 11626,
  "shǒu dū": 11627,
  " fù jìn de ": 11628,
  "xún zhǎo": 11629,
  "wàng yuǎn ": 11630,
  "   yuè ": 11631,
  "xī dì ": 11632,
  "xiū dào ": 11633,
  " dà gōng ": 11634,
  "sì de ": 11635,
  "1968 nián ": 11636,
  "gé lí ": 11637,
  "shào nǚ ": 11638,
  "2 nián ": 11639,
  "yú hé ": 11640,
  "jiāng yú ": 11641,
  "1981 nián ": 11642,
  "dōng jīng": 11643,
  "zhuān yè": 11644,
  " cǎi ": 11645,
  "dì hé ": 11646,
  "dù hé ": 11647,
  "céng yú ": 11648,
  "fàng zài ": 11649,
  " jí shǐ ": 11650,
  "jiān yù ": 11651,
  "miǎn fèi ": 11652,
  "yán zhì ": 11653,
  "jiǎo dù ": 11654,
  "zuǒ yì ": 11655,
  " dì liù ": 11656,
  " chéng běn ": 11657,
  "wéi zhǔ ": 11658,
  "bèi chēng wéi ": 11659,
  " xíng dòng": 11660,
  "fǎn huí": 11661,
  "guǎn lǐ jú ": 11662,
  " jué dìng ": 11663,
  "1956 nián ": 11664,
  " yuè duì ": 11665,
  "zī běn ": 11666,
  "tái běi shì ": 11667,
  " shè yú ": 11668,
  " jūn qū ": 11669,
  "bì miǎn": 11670,
  "kōng jiān": 11671,
  "xíng tài ": 11672,
  "   dāng ": 11673,
  "shè bèi ": 11674,
  "xiāng shì ": 11675,
  "kǎ sī ": 11676,
  "1920 nián ": 11677,
  " shén": 11678,
  "shān xiàn ": 11679,
  " ér fēi ": 11680,
  "gǎi shàn ": 11681,
  "es ": 11682,
  "lǐ lùn": 11683,
  "xī běi ": 11684,
  "fèi chú ": 11685,
  "zhèng fǔ de ": 11686,
  " fèng ": 11687,
  "shàng dì ": 11688,
  "dǎo shàng ": 11689,
  " zài hé ": 11690,
  " kè ěr ": 11691,
  "děng děng ": 11692,
  "   sī ": 11693,
  "cǐ tóng shí ": 11694,
  "luò shān jī ": 11695,
  " 2002 nián ": 11696,
  "kāi gōng ": 11697,
  "tōng zhī ": 11698,
  "xiāng guān de ": 11699,
  "bō lí ": 11700,
  " yǒng": 11701,
  "1960 nián ": 11702,
  " fēn bié ": 11703,
  " cài": 11704,
  "jiù yuán ": 11705,
  " de jù ": 11706,
  " pǔ": 11707,
  "   zhèng ": 11708,
  " dì yī cì": 11709,
  "   2009": 11710,
  "hé zài ": 11711,
  "yě huì ": 11712,
  "wá ": 11713,
  " zhī shì ": 11714,
  "hǎi àn": 11715,
  "cí zhí ": 11716,
  "Windows   ": 11717,
  " rén dà ": 11718,
  " yì jiàn ": 11719,
  "hěn kuài ": 11720,
[...]
