{
  "!": 0,
  "\"": 1,
  "#": 2,
  "$": 3,
  "%": 4,
  "&": 5,
  "'": 6,
  "(": 7,
  ")": 8,
  "*": 9,
  "+": 10,
  ",": 11,
  "-": 12,
  ".": 13,
  "/": 14,
  "0": 15,
  "1": 16,
  "2": 17,
  "3": 18,
  "4": 19,
  "5": 20,
  "6": 21,
  "7": 22,
  "8": 23,
  "9": 24,
  ":": 25,
  ";": 26,
  "=": 27,
  "?": 28,
  "@": 29,
  "A": 30,
  "B": 31,
  "C": 32,
  "D": 33,
  "E": 34,
  "F": 35,
  "G": 36,
  "H": 37,
  "I": 38,
  "J": 39,
  "K": 40,
  "L": 41,
  "M": 42,
  "N": 43,
  "O": 44,
  "P": 45,
  "Q": 46,
  "R": 47,
  "S": 48,
  "T": 49,
  "U": 50,
  "V": 51,
  "W": 52,
  "X": 53,
  "Y": 54,
  "Z": 55,
  "[": 56,
  "\\": 57,
  "]": 58,
  "^": 59,
  "_": 60,
  "`": 61,
  "a": 62,
  "b": 63,
  "c": 64,
  "d": 65,
  "e": 66,
  "f": 67,
  "g": 68,
  "h": 69,
  "i": 70,
  "j": 71,
  "k": 72,
  "l": 73,
  "m": 74,
  "n": 75,
  "o": 76,
  "p": 77,
  "q": 78,
  "r": 79,
  "s": 80,
  "t": 81,
  "u": 82,
  "v": 83,
  "w": 84,
  "x": 85,
  "y": 86,
  "z": 87,
  "|": 88,
  "~": 89,
  "\n": 162,
  " ": 163,
  "": 164,
  "ng": 199,
  "h�": 200,
  "à": 201,
  "ā": 202,
  "ì": 203,
  "á": 204,
  "ī": 205,
  "è": 206,
  "ǎ": 207,
  "  ": 208,
  "é": 209,
  "í": 210,
  "sh�": 211,
  "ù": 212,
  "án": 213,
  "zh": 214,
  "ǐ": 215,
  "ō": 216,
  "ji": 217,
  "de": 218,
  "àn": 219,
  "ē": 220,
  "zh�": 221,
  "sh": 222,
  "ě": 223,
  "ó": 224,
  "ǔ": 225,
  "xi": 226,
  "ò": 227,
  "ú": 228,
  "ān": 229,
  "   ": 230,
  "ài": 231,
  "ū": 232,
  "ōng": 233,
  "ǒ": 234,
  "shì": 236,
  "hu": 237,
  "èi": 238,
  "gu": 239,
  "ián": 240,
  "hé": 241,
  "ào": 242,
  "āng": 243,
  "íng": 244,
  "yu": 245,
  "ǎn": 246,
  "ch": 247,
  "nián": 248,
  "yī": 249,
  "ǎng": 250,
  "én": 251,
  "ǒu": 252,
  "ìng": 253,
  "wèi": 254,
  "ǎo": 255,
  "zài": 256,
  "、": 257,
  "jī": 258,
  "ēng": 259,
  "zhōng": 260,
  "xī": 261,
  "bù": 262,
  "jì": 263,
  "àng": 264,
  "li": 265,
  "zhè": 266,
  "shí": 267,
  "dì": 268,
  "guó": 269,
  "yú": 270,
  "rén": 271,
  "òng": 272,
  "ch�": 273,
  "āo": 274,
  "du": 275,
  "ché": 276,
  "yǐ": 277,
  "lì": 278,
  "áng": 279,
  "yì": 280,
  "uò": 281,
  "ái": 282,
  "zhì": 283,
  "chéng": 284,
  "éi": 285,
  "xu": 286,
  "gōng": 287,
  "jí": 288,
  "�u": 289,
  "ěi": 290,
  "iàn": 291,
  "ēn": 292,
  "óng": 293,
  "yuè": 294,
  "yǒu": 295,
  "yuán": 296,
  "dà": 297,
  "qi": 298,
  "ōu": 299,
  "lǐ": 300,
  "20": 301,
  "óu": 302,
  "āi": 303,
  "xiàn": 304,
  "jiā": 305,
  "sī": 306,
  "ūn": 307,
  "xíng": 308,
  "yǔ": 309,
  "èn": 310,
  "ǒng": 311,
  "ín": 312,
  "tā": 313,
  "rì": 314,
  "zhī": 315,
  "hòu": 316,
  "ǎi": 317,
  "gè": 318,
  "zhà": 319,
  "éng": 320,
  "le": 321,
  "wéi": 322,
  "huì": 323,
  "dào": 324,
  "19": 325,
  "bi": 326,
  "shà": 327,
  "qī": 328,
  "qí": 329,
  "shè": 330,
  "su": 331,
  "zhèng": 332,
  "míng": 333,
  "jiàn": 334,
  "xué": 335,
  "chū": 336,
  "yù": 337,
  "ěng": 338,
  "zuò": 339,
  "shēng": 340,
  "duì": 341,
  "yóu": 342,
  "qū": 343,
  "shàng": 344,
  "ěn": 345,
  "dé": 346,
  "lù": 347,
  "bèi": 348,
  "chá": 349,
  "ti": 350,
  "shǐ": 351,
  "zhàn": 352,
  "zhǔ": 353,
  "ēi": 354,
  "qu": 355,
  "jù": 356,
  "xīn": 357,
  "jūn": 358,
  "zhu": 359,
  "ěr": 360,
  "áo": 361,
  "shù": 362,
  "uì": 363,
  "rèn": 364,
  "fā": 365,
  "wù": 366,
  "bìng": 367,
  "kè": 368,
  "ér": 369,
  "dài": 370,
  "yí": 371,
  "jìn": 372,
  "zì": 373,
  "yīn": 374,
  "fù": 375,
  "fāng": 376,
  "jīng": 377,
  "nán": 378,
  "huà": 379,
  "xì": 380,
  "zhōu": 381,
  "píng": 382,
  "òu": 383,
  "xià": 384,
  "lái": 385,
  "yòng": 386,
  "shu": 387,
  "guān": 388,
  "tóng": 389,
  "》": 390,
  "《": 391,
  "fǎ": 392,
  "zhù": 393,
  "měi": 394,
  "há": 395,
  "·": 396,
  "jiān": 397,
  "jǐ": 398,
  "huò": 399,
  "dù": 400,
  "chu": 401,
  "běn": 402,
  "xiāng": 403,
  "zhí": 404,
  "dòng": 405,
  "xiàng": 406,
  "mín": 407,
  "jiāng": 408,
  "fēn": 409,
  "shǒu": 410,
  "quán": 411,
  "wén": 412,
  "yán": 413,
  "hà": 414,
  "suǒ": 415,
  "jiào": 416,
  "qián": 417,
  "diàn": 418,
  "tè": 419,
  "di": 420,
  "duō": 421,
  "ún": 422,
  "zuì": 423,
  "kāi": 424,
  "tu": 425,
  "jié": 426,
  "lián": 427,
  "zhǐ": 428,
  "kě": 429,
  "dàn": 430,
  "mù": 431,
  "yè": 432,
  "fú": 433,
  "mǎ": 434,
  "yě": 435,
  "dōng": 436,
  "qiú": 437,
  "běi": 438,
  "「": 439,
  "」": 440,
  "gāo": 441,
  "yà": 442,
  "qǐ": 443,
  "jiē": 444,
  "miàn": 445,
  "hǎi": 446,
  "zhǎng": 447,
  "shī": 448,
  "jīn": 449,
  "cǐ": 450,
  "lu": 451,
  "nèi": 452,
  "tǐ": 453,
  "sài": 454,
  "sān": 455,
  "tái": 456,
  "gé": 457,
  "xìng": 458,
  "guò": 459,
  "rù": 460,
  "201": 461,
  "děng": 462,
  "yào": 463,
  "ju": 464,
  "chē": 465,
  "cì": 466,
  "wǔ": 467,
  "gāi": 468,
  "dìng": 469,
  "cháng": 470,
  "biǎo": 471,
  "lā": 472,
  "gòng": 473,
  "jiè": 474,
  "shòu": 475,
  "dǎo": 476,
  "shān": 477,
  "chǎng": 478,
  "sì": 479,
  "bǐ": 480,
  "zé": 481,
  "tí": 482,
  "kē": 483,
  "dāng": 484,
  "néng": 485,
  "èr": 486,
  "wài": 487,
  "dān": 488,
  "xù": 489,
  "zi": 490,
  "kǒu": 491,
  "xiǎo": 492,
  "zǔ": 493,
  "bā": 494,
  "jué": 495,
  "lín": 496,
  "liú": 497,
  "shěng": 498,
  "yīng": 499,
  "ku": 500,
  "lán": 501,
  "luó": 502,
  "tōng": 503,
  "200": 504,
  "īng": 505,
  "mǐ": 507,
  "zhòng": 508,
  "en": 509,
  "zhě": 510,
  "shǔ": 511,
  "tiān": 512,
  "zhèn": 513,
  "ǚ": 514,
  "qì": 515,
  "zhǒng": 516,
  "liè": 517,
  "chēng": 518,
  "shū": 519,
  "yuàn": 520,
  "bǎo": 521,
  "tài": 522,
  "fǔ": 523,
  "fēng": 524,
  "gǔ": 525,
  "qīng": 526,
  "shēn": 527,
  "wáng": 528,
  "yùn": 529,
  "guǎn": 530,
  "fēi": 531,
  "jiù": 532,
  "liǎng": 533,
  "céng": 534,
  "méi": 535,
  "10": 536,
  "fèn": 537,
  "hào": 538,
  "�ng": 539,
  "yǎn": 540,
  "wěi": 541,
  "zǒng": 542,
  "xuǎn": 543,
  "xiào": 544,
  "dá": 545,
  "nà": 546,
  "liàng": 547,
  "bō": 548,
  "zú": 549,
  "jìng": 550,
  "bào": 551,
  "ní": 552,
  "wú": 553,
  "tǒng": 554,
  "huá": 555,
  "jiāo": 556,
  "yuē": 557,
  "yǐng": 558,
  "biàn": 559,
  "xīng": 560,
  "sù": 561,
  "shuǐ": 562,
  "yáng": 563,
  "hù": 564,
  "men": 565,
  "bāo": 566,
  "gē": 567,
  "bó": 568,
  "cān": 569,
  "cóng": 570,
  "diǎn": 571,
  "bì": 572,
  "rú": 573,
  "bàn": 574,
  "biān": 575,
  "wǎng": 576,
  "qǔ": 577,
  "mi": 578,
  "chǎn": 579,
  "sè": 580,
  "zī": 581,
  "chuán": 582,
  "00": 583,
  "shèng": 584,
  "rán": 585,
  "tú": 586,
  "zhāng": 587,
  "pǔ": 588,
  "gǎi": 589,
  "gǎng": 590,
  "nǚ": 591,
  "lìng": 592,
  "luò": 593,
  "yòu": 594,
  "tóu": 595,
  "cè": 596,
  "l�": 597,
  "chí": 598,
  "18": 599,
  "lǜ": 600,
  "qiān": 601,
  "shé": 602,
  "lí": 603,
  "dōu": 604,
  "pǐ": 605,
  "12": 606,
  "zhēng": 607,
  "ni": 608,
  "kuò": 609,
  "shā": 610,
  "dǎng": 611,
  "fǎn": 612,
  "gòu": 613,
  "lèi": 614,
  "xí": 615,
  "jǐng": 616,
  "tuán": 617,
  "wēi": 618,
  "xiē": 619,
  "lǐng": 620,
  "lóng": 621,
  "guī": 622,
  "xiān": 623,
  "róng": 624,
  "huáng": 625,
  "xiǎng": 626,
  "bān": 627,
  "jiǔ": 628,
  "yìng": 629,
  "mén": 630,
  "shāng": 631,
  "shén": 632,
  "202": 633,
  "bǎn": 634,
  "kǎ": 635,
  "mǔ": 636,
  "jǐn": 637,
  "fū": 638,
  "jǔ": 639,
  "mó": 640,
  "guǎng": 641,
  "cí": 642,
  "shuō": 643,
  "qíng": 644,
  "zhǎn": 645,
  "hái": 646,
  "zhuāng": 647,
  "mò": 648,
  "cái": 649,
  "dú": 650,
  "11": 651,
  "pǐn": 652,
  "tíng": 653,
  "cháo": 654,
  "yíng": 655,
  "tiáo": 656,
  "jiǎn": 657,
  "táng": 658,
  "huí": 659,
  "duàn": 660,
  "chén": 661,
  "gēn": 662,
  "mì": 663,
  "wàn": 664,
  "pái": 665,
  "wān": 666,
  "zào": 667,
  "háng": 668,
  "wán": 669,
  "biāo": 670,
  "gù": 671,
  "lún": 672,
  "199": 673,
  "xié": 674,
  "jiǎng": 675,
  "hàn": 676,
  "jú": 677,
  "fàn": 678,
  "fáng": 679,
  "huó": 680,
  "hán": 681,
  "pi": 682,
  "kōng": 683,
  "or": 684,
  "tiě": 685,
  "méng": 686,
  "bié": 687,
  "wū": 688,
  "jiě": 689,
  "zhuān": 690,
  "yǐn": 691,
  "xū": 692,
  "zhēn": 693,
  "dǐ": 694,
  "er": 695,
  "chú": 696,
  "hú": 697,
  "jià": 698,
  "bīng": 699,
  "mìng": 700,
  "líng": 701,
  "hóng": 702,
  "qīn": 703,
  "zǐ": 704,
  "lùn": 705,
  "xìn": 706,
  "chù": 707,
  "chǔ": 708,
  "sū": 709,
  "an": 710,
  "xiū": 711,
  "zōng": 712,
  "15": 713,
  "què": 714,
  "xiāo": 715,
  "zhào": 716,
  "qiáng": 717,
  "qù": 718,
  "cūn": 719,
  "chóng": 720,
  "piàn": 721,
  "jiū": 722,
  "fàng": 723,
  "suí": 724,
  "shōu": 725,
  "gèng": 726,
  "guāng": 728,
  "èng": 729,
  "jū": 730,
  "on": 731,
  "jiǎ": 732,
  "chuàng": 733,
  "dí": 734,
  "16": 735,
  "zhuǎn": 736,
  "guǒ": 737,
  "xùn": 738,
  "màn": 739,
  "pài": 740,
  "fèi": 741,
  "pèi": 742,
  "198": 743,
  "dǎ": 744,
  "tuō": 745,
  "la": 746,
  "xuān": 747,
  "bái": 748,
  "zhū": 749,
  "dū": 750,
  "tǔ": 751,
  "diào": 752,
  "xiá": 753,
  "liù": 754,
  "17": 755,
  "suì": 756,
  "huī": 757,
  "tīng": 758,
  "qiě": 759,
  "tǎ": 760,
  "qiáo": 761,
  "hā": 762,
  "gǎn": 763,
  "zēng": 764,
  "xiǎn": 765,
  "mài": 766,
  "huán": 767,
  "xǔ": 768,
  "wǎ": 769,
  "tuī": 770,
  "wèn": 771,
  "chāo": 772,
  "tián": 773,
  "bǎi": 774,
  "cǎi": 775,
  "liáng": 776,
  "yá": 777,
  "sà": 778,
  "ar": 779,
  "bài": 780,
  "cún": 781,
  "jiǎo": 782,
  "shǎo": 783,
  "yàn": 784,
  "zhuàng": 785,
  "huǒ": 786,
  "léi": 787,
  "14": 788,
  "zu": 789,
  "jiàng": 790,
  "chuān": 791,
  "yìn": 792,
  "zǎo": 793,
  "chà": 794,
  "yǒng": 795,
  "sǐ": 796,
  "dēng": 797,
  "30": 798,
  "zhǔn": 799,
  "lè": 800,
  "xún": 801,
  "nuò": 802,
  "kù": 803,
  "huàn": 804,
  "sòng": 805,
  "gào": 806,
  "lǔ": 807,
  "13": 808,
  "194": 809,
  "bāng": 810,
  "lǚ": 811,
  "pī": 812,
  "yàng": 813,
  "hěn": 814,
  "qún": 815,
  "zhěng": 816,
  "guàn": 817,
  "pò": 818,
  "gāng": 819,
  "wǒ": 820,
  "197": 821,
  "huā": 822,
  "lēi": 823,
  "hǎo": 824,
  "táo": 825,
  "kuàng": 826,
  "hè": 827,
  "in": 828,
  "dùn": 829,
  "nóng": 830,
  "gěi": 831,
  "sāi": 832,
  "shuāng": 833,
  "liàn": 834,
  "kuài": 835,
  "dī": 836,
  "bī": 837,
  "pàn": 838,
  "xiě": 839,
  "195": 840,
  "kǎo": 841,
  "gài": 842,
  "hēi": 843,
  "wàng": 844,
  "liào": 845,
  "rè": 846,
  "ge": 847,
  "zuǒ": 848,
  "kòng": 849,
  "196": 850,
  "yāng": 851,
  "chàng": 852,
  "yín": 853,
  "réng": 855,
  "sēn": 856,
  "bēi": 857,
  "lú": 858,
  "piào": 859,
  "yā": 860,
  "25": 861,
  "bīn": 862,
  "—": 863,
  "ràng": 864,
  "chōng": 865,
  "lóu": 866,
  "bǔ": 867,
  "lǎo": 868,
  "zhú": 869,
  "jùn": 870,
  "yǎng": 871,
  "ruì": 872,
  "yāo": 873,
  "xián": 874,
  "xiè": 875,
  "niàn": 876,
  "for": 877,
  "yōu": 878,
  "tán": 879,
  "kāng": 880,
  "pí": 881,
  "héng": 882,
  "yún": 883,
  "xǐ": 884,
  "kàn": 885,
  "níng": 886,
  "liáo": 887,
  "shào": 888,
  "bú": 889,
  "24": 890,
  "qǐng": 891,
  "chǐ": 892,
  "mu": 893,
  "dòu": 894,
  "miǎn": 895,
  "yōng": 896,
  "tǎn": 897,
  "wǎn": 898,
  "hū": 899,
  "fān": 900,
  "al": 901,
  "tū": 902,
  "gān": 903,
  "suàn": 904,
  "dīng": 905,
  "yuǎn": 906,
  "wēn": 907,
  "tuì": 908,
  "zhe": 909,
  "21": 910,
  "st": 911,
  "xiù": 912,
  "bǎ": 913,
  "mǎn": 914,
  "193": 915,
  "23": 916,
  "mula": 917,
  "kàng": 918,
  "formula": 919,
  "28": 920,
  "th": 921,
  "máo": 922,
  "ruò": 923,
  "piān": 924,
  "chè": 925,
  "mào": 926,
  "lǎng": 927,
  "qín": 928,
  "bá": 929,
  "ná": 930,
  "zàn": 931,
  "guǐ": 932,
  "guì": 933,
  "ou": 934,
  "pín": 935,
  "wò": 936,
  "xióng": 937,
  "shàn": 938,
  "re": 939,
  "22": 940,
  "xiōng": 941,
  "me": 942,
  "suī": 943,
  "ü": 944,
  "26": 945,
  "shěn": 946,
  "qìng": 947,
  "miáo": 948,
  "fǎng": 949,
  "50": 950,
  "2020": 951,
  "27": 952,
  "láng": 953,
  "ru": 954,
  "qiū": 955,
  "sōng": 956,
  "üè": 957,
  "dàng": 958,
  "gēng": 959,
  "qiāng": 960,
  "ri": 961,
  "fá": 962,
  "zāo": 963,
  "fèng": 964,
  "zhàng": 965,
  "háo": 967,
  "dūn": 968,
  "zǒu": 969,
  "hài": 970,
  "qiè": 971,
  "29": 972,
  "tàn": 973,
  "pào": 974,
  "pà": 975,
  "shùn": 976,
  "péng": 977,
  "xuán": 978,
  "2010": 979,
  "nǐ": 980,
  "000": 981,
  "dǐng": 982,
  "niǔ": 983,
  "zǎi": 984,
  "zhāo": 985,
  "zhuī": 986,
  "lüè": 987,
  "chūn": 988,
  "2019": 989,
  "hūn": 990,
  "kǒng": 991,
  "duān": 992,
  "shèn": 993,
  "xiáng": 994,
  "duǎn": 995,
  "gàn": 996,
  "te": 997,
  "ro": 998,
  "kān": 999,
  "láo": 1000,
  "cǎo": 1001,
  "2016": 1002,
  "si": 1003,
  "gū": 1004,
  "péi": 1005,
  "2018": 1006,
  "kuǎn": 1007,
  "zá": 1008,
  "sūn": 1009,
  "yé": 1010,
  "yǎ": 1011,
  "pō": 1012,
  "2021": 1013,
  "ra": 1014,
  "chì": 1015,
  "duó": 1016,
  "2014": 1017,
  "fán": 1018,
  "2011": 1019,
  "2015": 1020,
  "cuò": 1021,
  "2017": 1022,
  "zhé": 1023,
  "yáo": 1024,
  "pāi": 1025,
  "tòu": 1026,
  "cáng": 1027,
  "2012": 1028,
  "40": 1029,
  "kǎi": 1030,
  "2013": 1031,
  "2022": 1032,
  "mí": 1033,
  "ruǎn": 1034,
  "suān": 1035,
  "chā": 1036,
  "zàng": 1037,
  "miào": 1038,
  "lt": 1039,
  "2009": 1040,
  "zhǎo": 1041,
  "2008": 1042,
  "huái": 1043,
  "�": 1044,
  "ce": 1045,
  "60": 1046,
  "am": 1047,
  "cu": 1048,
  "xuè": 1049,
  "chóu": 1050,
  "se": 1051,
  "bǎng": 1052,
  "mèng": 1053,
  "100": 1054,
  "tì": 1055,
  "pú": 1056,
  "nǎo": 1057,
  "2023": 1058,
  "zhuàn": 1059,
  "gt": 1060,
  "lěi": 1061,
  "190": 1062,
  "31": 1063,
  "cài": 1064,
  "cù": 1065,
  "sàn": 1066,
  "móu": 1067,
  "tion": 1068,
  "ta": 1069,
  "hùn": 1070,
  "ǔn": 1071,
  "kuān": 1072,
  "2007": 1073,
  "niú": 1074,
  "mǒu": 1075,
  "tǎo": 1076,
  "dié": 1077,
  "2001": 1078,
  "ol": 1079,
  "téng": 1080,
  "sōu": 1081,
  "kěn": 1082,
  "qiǎn": 1083,
  "chāng": 1084,
  "rǎn": 1085,
  "quē": 1086,
  "fǒu": 1087,
  "sǔn": 1088,
  "el": 1089,
  "bà": 1090,
  "2000": 1091,
  "80": 1092,
  "kào": 1093,
  "suō": 1094,
  "2006": 1095,
  "niǎo": 1096,
  "chún": 1097,
  "ma": 1098,
  "2024": 1099,
  "lǎn": 1100,
  "zāi": 1102,
  "zhá": 1103,
  "xuě": 1104,
  "huǐ": 1105,
  "luàn": 1106,
  "tǐng": 1107,
  "2005": 1108,
  "zūn": 1109,
  "bàng": 1110,
  "là": 1111,
  "huān": 1112,
  "rǎng": 1113,
  "shuì": 1114,
  "mǐn": 1115,
  "35": 1116,
  "lài": 1117,
  "cāng": 1118,
  "70": 1119,
  "fó": 1120,
  "pán": 1121,
  "of": 1122,
  "nài": 1123,
  "wěn": 1124,
  "et": 1125,
  "cāo": 1126,
  "sāng": 1127,
  "páng": 1128,
  "90": 1129,
  "bǐng": 1130,
  "－": 1131,
  "zhā": 1132,
  "shuài": 1134,
  "niè": 1135,
  "es": 1136,
  "hóu": 1137,
  "mèi": 1138,
  "shāo": 1139,
  "nǔ": 1140,
  "dǒng": 1141,
  "il": 1142,
  "at": 1143,
  "ow": 1144,
  "féng": 1145,
  "miè": 1146,
  "yǔn": 1147,
  "zòu": 1148,
  "mǎi": 1149,
  "huài": 1150,
  "2004": 1151,
  "45": 1152,
  "yān": 1153,
  "co": 1154,
  "48": 1155,
  "the": 1156,
  "zhuó": 1157,
  "and": 1158,
  "ter": 1159,
  "he": 1160,
  "tào": 1161,
  "nǎi": 1162,
  "kūn": 1163,
  "2025": 1164,
  "zhěn": 1165,
  "ck": 1166,
  "rǔ": 1167,
  "kuà": 1168,
  "kuí": 1169,
  "〉": 1170,
  "〈": 1171,
  "gōu": 1172,
  "36": 1173,
  "cuī": 1174,
  "38": 1175,
  "shǎn": 1176,
  "ròu": 1177,
  "diāo": 1178,
  "2003": 1179,
  "hǔ": 1180,
  "guō": 1181,
  "37": 1182,
  "cuì": 1183,
  "ne": 1184,
  "xú": 1185,
  "máng": 1186,
  "juǎn": 1187,
  "cán": 1188,
  "diān": 1189,
  "zhān": 1190,
  "cáo": 1191,
  "189": 1192,
  "IN": 1193,
  "2002": 1194,
  "is": 1195,
  "bo": 1196,
  "kēng": 1197,
  "TC": 1198,
  "ve": 1199,
  "34": 1200,
  "má": 1201,
  "lěng": 1202,
  "as": 1203,
  "zū": 1204,
  "75": 1205,
  "–": 1206,
  "sú": 1207,
  "quān": 1208,
  "dā": 1209,
  "to": 1210,
  "chāi": 1211,
  "nu": 1212,
  "làng": 1213,
  "kùn": 1214,
  "46": 1215,
  "tún": 1216,
  "fěn": 1217,
  "1990": 1218,
  "…": 1219,
  "zhòu": 1220,
  "shǎng": 1221,
  "rào": 1222,
  "hēng": 1223,
  "tī": 1224,
  "xūn": 1225,
  "39": 1226,
  "nè": 1227,
  "..": 1228,
  "pì": 1229,
  "nàn": 1230,
  "pān": 1231,
  "65": 1232,
  "hōng": 1233,
  "shú": 1234,
  "tān": 1235,
  "Ch": 1236,
  "tāng": 1237,
  "kǎn": 1238,
  "Ma": 1239,
  "nì": 1240,
  "32": 1241,
  "In": 1242,
  "ST": 1243,
  "47": 1244,
  "hǎn": 1245,
  "it": 1246,
  "UTC": 1247,
  "qiàn": 1248,
  "1999": 1249,
  "1998": 1250,
  "1980": 1251,
  "188": 1252,
  "500": 1253,
  "33": 1254,
  "64": 1255,
  "qiǎng": 1256,
  "shuò": 1257,
  "pǎo": 1258,
  "lo": 1259,
  "be": 1260,
  "kā": 1261,
  "zhái": 1262,
  "SE": 1263,
  "55": 1264,
  "quàn": 1265,
  "nī": 1266,
  "dèng": 1267,
  "1997": 1268,
  "The": 1269,
  "mián": 1270,
  "49": 1271,
  "gǎo": 1272,
  "II": 1273,
  "68": 1274,
  "Co": 1275,
  "vi": 1276,
  "shě": 1277,
  "zèng": 1278,
  "Re": 1279,
  "han": 1280,
  "zhóu": 1281,
  "zhài": 1282,
  "44": 1283,
  "1996": 1284,
  "na": 1285,
  "tiē": 1286,
  "dāo": 1287,
  "ad": 1288,
  "br": 1289,
  "1994": 1290,
  "ver": 1291,
  "féi": 1292,
  "zòng": 1293,
  "qióng": 1294,
  "ci": 1295,
  "tiào": 1296,
  "chuáng": 1297,
  "1992": 1298,
  "ba": 1299,
  "chuí": 1300,
  "juān": 1301,
  "chái": 1302,
  "miǎo": 1303,
  "guā": 1304,
  "xuē": 1305,
  "tòng": 1306,
  "1995": 1307,
  "fěi": 1308,
  "chī": 1309,
  "oo": 1310,
  "měng": 1311,
  "wō": 1312,
  "67": 1313,
  "ir": 1314,
  "shuāi": 1315,
  "tuó": 1316,
  "chuāng": 1317,
  "huǎn": 1318,
  "1991": 1319,
  "1970": 1320,
  "58": 1321,
  "ay": 1322,
  "1950": 1323,
  "ca": 1324,
  "nd": 1325,
  "guà": 1326,
  "chán": 1327,
  "300": 1328,
  "wā": 1329,
  "1993": 1330,
  "187": 1331,
  "1949": 1332,
  "pe": 1333,
  "sā": 1334,
  "tiǎo": 1335,
  "AT": 1336,
  "1960": 1337,
  "biǎn": 1338,
  "42": 1339,
  "1945": 1340,
  "ing": 1341,
  "guài": 1342,
  "au": 1343,
  "kǔ": 1344,
  "nú": 1345,
  "1988": 1346,
  "dǔ": 1347,
  "1989": 1348,
  "ig": 1349,
  "pù": 1350,
  "69": 1351,
  "liǔ": 1352,
  "gǒng": 1353,
  "SEE": 1354,
  "tuò": 1355,
  "amp": 1356,
  "ct": 1357,
  "liǎo": 1358,
  "INSEE": 1359,
  "59": 1360,
  "tāi": 1361,
  "43": 1362,
  "66": 1363,
  "chuàn": 1364,
  "op": 1365,
  "chèn": 1366,
  "os": 1367,
  "57": 1368,
  "1985": 1369,
  "huāng": 1370,
  "99": 1371,
  "SA": 1372,
  "『": 1373,
  "cùn": 1374,
  "』": 1375,
  "1984": 1376,
  "hún": 1377,
  "41": 1378,
  "pū": 1379,
  "ly": 1380,
  "us": 1381,
  "kòu": 1382,
  "fén": 1383,
  "88": 1384,
  "1986": 1385,
  "rǎo": 1386,
  "mp": 1387,
  "St": 1388,
  "id": 1389,
  "rùn": 1390,
  "TV": 1391,
  "150": 1392,
  "zhuō": 1393,
  "ind": 1394,
  "400": 1395,
  "sǎn": 1396,
  "1987": 1397,
  "78": 1398,
  "un": 1399,
  "ed": 1400,
  "ha": 1401,
  "1982": 1402,
  "56": 1403,
  "Li": 1404,
  "ur": 1405,
  "ard": 1406,
  "nuó": 1407,
  "1983": 1408,
  "NA": 1409,
  "gǔn": 1410,
  "Ro": 1411,
  "De": 1412,
  "ss": 1413,
  "mā": 1414,
  "tou": 1415,
  "pìn": 1416,
  "CD": 1417,
  "chōu": 1418,
  "ber": 1419,
  "gǒu": 1420,
  "quǎn": 1421,
  "Mi": 1422,
  "77": 1423,
  "zhāi": 1424,
  "Me": 1425,
  "qià": 1426,
  "māo": 1427,
  "qiǎo": 1428,
  "Mar": 1429,
  "tw": 1430,
  "kū": 1431,
  "kuáng": 1432,
  "róu": 1433,
  "der": 1434,
  "79": 1435,
  "lòu": 1436,
  "OS": 1437,
  "°": 1438,
  "kuì": 1439,
  "sàng": 1440,
  "Al": 1442,
  "180": 1443,
  "ty": 1444,
  "BC": 1445,
  "54": 1446,
  "1979": 1447,
  "61": 1448,
  "1920": 1449,
  "ang": 1450,
  "pēn": 1451,
  "98": 1452,
  "sēng": 1453,
  "52": 1454,
  "You": 1455,
  "ap": 1456,
  "1978": 1457,
  "nù": 1458,
  "wēng": 1459,
  "62": 1460,
  "yē": 1461,
  "duǒ": 1462,
  "Le": 1463,
  "53": 1464,
  "xǐng": 1465,
  "juàn": 1466,
  "～": 1467,
  "BA": 1468,
  "ke": 1469,
  "1946": 1470,
  "ts": 1471,
  "CO": 1472,
  "mo": 1473,
  "ction": 1474,
  "51": 1475,
  "1958": 1476,
  "1981": 1477,
  "Vi": 1478,
  "1972": 1479,
  "1948": 1480,
  "zhuì": 1481,
  "cōng": 1482,
  "tōu": 1483,
  "AM": 1484,
  "hi": 1485,
  "63": 1486,
  "man": 1487,
  "ows": 1488,
  "AR": 1489,
  "ry": 1490,
  "1941": 1491,
  "Wind": 1492,
  "BS": 1493,
  "wá": 1494,
  "liǎn": 1495,
  "1930": 1496,
  "Mo": 1497,
  "Pro": 1498,
  "luǎn": 1499,
  "kuāng": 1500,
  "qú": 1501,
  "tuǒ": 1502,
  "ké": 1503,
  "76": 1504,
  "hans": 1505,
  "va": 1506,
  "1940": 1507,
  "1937": 1508,
  "con": 1509,
  "1976": 1510,
  "zuǐ": 1511,
  "1944": 1512,
  "Jo": 1513,
  "89": 1514,
  "1975": 1515,
  "um": 1516,
  "／": 1517,
  "Te": 1518,
  "1968": 1519,
  "niáng": 1520,
  "pó": 1521,
  "shuā": 1522,
  "hk": 1523,
  "yuān": 1524,
  "tāo": 1525,
  "per": 1526,
  "wāng": 1527,
  "ga": 1528,
  "1000": 1529,
  "ran": 1530,
  "Windows": 1531,
  "95": 1532,
  "Ne": 1533,
  "bí": 1534,
  "sǎo": 1535,
  "da": 1536,
  "87": 1537,
  "1966": 1538,
  "85": 1539,
  "fà": 1540,
  "pēng": 1541,
  "600": 1542,
  "làn": 1543,
  "Se": 1544,
  "Sta": 1545,
  "sp": 1546,
  "120": 1547,
  "1947": 1548,
  "Ga": 1549,
  "Ar": 1550,
  "ot": 1551,
  "gā": 1552,
  "1956": 1553,
  "AC": 1554,
  "1964": 1555,
  "dǎn": 1556,
  "cū": 1557,
  "1942": 1558,
  "1955": 1559,
  "chǒu": 1560,
  "lay": 1561,
  "1952": 1562,
  "1939": 1563,
  "IS": 1564,
  "1938": 1565,
  "72": 1566,
  "74": 1567,
  "ht": 1568,
  "rěn": 1569,
  "1973": 1570,
  "ace": 1571,
  "fi": 1572,
  "1974": 1573,
  "1954": 1574,
  "qiē": 1575,
  "ED": 1576,
  "1900": 1577,
  "--": 1578,
  "Be": 1579,
  "AP": 1580,
  "ore": 1581,
  "1943": 1582,
  "1977": 1583,
  "Da": 1584,
  "1971": 1585,
  "pīn": 1586,
  "pǒ": 1587,
  "mán": 1588,
  "1967": 1589,
  "shéng": 1590,
  "ment": 1591,
  "IC": 1592,
  "800": 1593,
  "ER": 1594,
  "La": 1595,
  "86": 1596,
  "1959": 1597,
  "bēng": 1598,
  "son": 1599,
  "1965": 1600,
  "JR": 1601,
  "1969": 1602,
  "Ra": 1603,
  "duī": 1604,
  "Di": 1605,
  "ok": 1606,
  "pén": 1607,
  "・": 1608,
  "×": 1609,
  "qiào": 1610,
  "chuī": 1611,
  "ID": 1612,
  "qiāo": 1613,
  "Su": 1614,
  "ine": 1615,
  "1936": 1616,
  "160": 1617,
  "97": 1618,
  "bēn": 1619,
  "zhuā": 1620,
  "ent": 1621,
  "1953": 1622,
  "Sa": 1623,
  "1962": 1624,
  "MA": 1625,
  "Tu": 1626,
  "tic": 1627,
  "1961": 1628,
  "lǒng": 1629,
  "ation": 1630,
  "1935": 1632,
  "tà": 1633,
  "mái": 1634,
  "Sh": 1635,
  "96": 1636,
  "ON": 1637,
  "ak": 1638,
  "％": 1639,
  "1951": 1640,
  "1957": 1641,
  "1963": 1642,
  "Lo": 1643,
  "─": 1644,
  "one": 1645,
  "rou": 1646,
  "84": 1647,
  "Ja": 1648,
  "2026": 1649,
  "do": 1650,
  "cǎn": 1651,
  "82": 1652,
  "gi": 1653,
  "bu": 1654,
  "mer": 1655,
  "73": 1656,
  "po": 1657,
  "94": 1658,
  "tūn": 1659,
  "92": 1660,
  "So": 1661,
  "AN": 1662,
  "IP": 1663,
  "An": 1664,
  "ho": 1665,
  "ali": 1666,
  "1933": 1667,
  "Mu": 1668,
  "1931": 1669,
  "náng": 1670,
  "niào": 1671,
  "les": 1672,
  "71": 1673,
  "báo": 1674,
  "nuǎn": 1675,
  "léng": 1676,
  "pá": 1677,
  "83": 1678,
  "93": 1679,
  "ai": 1680,
  "We": 1681,
  "81": 1682,
  "dǒu": 1683,
  "1918": 1684,
  "sta": 1685,
  "HD": 1686,
  "Bo": 1687,
  "sāo": 1688,
  "Uni": 1689,
  "1928": 1690,
  "luán": 1691,
  "ki": 1692,
  "1932": 1693,
  "wi": 1694,
  "nèn": 1695,
  "col": 1696,
  "int": 1697,
  "MV": 1698,
  "SS": 1699,
  "our": 1700,
  "110": 1701,
  "tù": 1702,
  "IT": 1703,
  "1912": 1704,
  "all": 1705,
  "1929": 1706,
  "tuǐ": 1707,
  "duò": 1708,
  "1927": 1709,
  "cn": 1710,
  "1934": 1711,
  "are": 1712,
  "Pa": 1713,
  "700": 1714,
  "gá": 1715,
  "che": 1716,
  "by": 1717,
  "ted": 1718,
  "ster": 1719,
  "huǎng": 1720,
  "Si": 1721,
  "250": 1722,
  "ff": 1723,
  "91": 1724,
  "mm": 1725,
  "Par": 1726,
  "zéi": 1727,
  "Ri": 1728,
  "1924": 1729,
  "pp": 1730,
  "ph": 1731,
  "...": 1732,
  "1919": 1733,
  "kuī": 1734,
  "He": 1735,
  "so": 1736,
  "xuàn": 1737,
  "130": 1738,
  "piāo": 1739,
  "no": 1740,
  "1925": 1741,
  "PS": 1742,
  "Play": 1743,
  "pāo": 1744,
  "140": 1745,
  "xiā": 1746,
  "Bu": 1747,
  "Ca": 1748,
  "SM": 1749,
  "Con": 1750,
  "Sp": 1751,
  "PC": 1752,
  "1914": 1753,
  "ble": 1754,
  "ste": 1755,
  "zhǎi": 1756,
  "km": 1757,
  "DV": 1758,
  "zhē": 1759,
  "En": 1760,
  "mes": 1761,
  "YouTu": 1762,
  "com": 1763,
  "Ba": 1764,
  "hē": 1765,
  "Fi": 1766,
  "Ti": 1767,
  "diē": 1768,
  "ell": 1769,
  "gra": 1770,
  "lǎ": 1771,
  "AS": 1772,
  "ia": 1773,
  "1911": 1774,
  "Wi": 1775,
  "shi": 1776,
  "end": 1777,
  "ill": 1778,
  "nüè": 1779,
  "ana": 1780,
  "ara": 1781,
  "Ge": 1782,
  "1926": 1783,
  "den": 1784,
  "1922": 1785,
  "Na": 1786,
  "nǎ": 1787,
  "sion": 1788,
  "hèn": 1789,
  "1917": 1790,
  "ET": 1791,
  "NBA": 1792,
  "IV": 1793,
  "shuí": 1794,
  "cāi": 1795,
  "ráo": 1796,
  "EN": 1797,
  "1923": 1798,
  "art": 1799,
  "1921": 1800,
  "fe": 1801,
  "pèng": 1802,
  "sa": 1803,
  "ka": 1804,
  "kuā": 1805,
  "Goo": 1806,
  "ther": 1807,
  "chǒng": 1808,
  "To": 1809,
  "170": 1810,
  "EC": 1812,
  "ld": 1813,
  "mǎo": 1814,
  "nòng": 1815,
  "AL": 1816,
  "Ha": 1817,
  "MS": 1818,
  "section": 1819,
  "Ni": 1820,
  "YouTube": 1821,
  "EP": 1822,
  "hn": 1823,
  "BL": 1824,
  "1913": 1825,
  "tiāo": 1826,
  "Ju": 1827,
  "HK": 1828,
  "ler": 1829,
  "hant": 1831,
  "gùn": 1832,
  "1909": 1833,
  "gin": 1834,
  "Inter": 1835,
  "cro": 1836,
  "Ste": 1837,
  "MP": 1838,
  "AI": 1839,
  "Ho": 1840,
  "gěng": 1841,
  "Wor": 1842,
  "nào": 1843,
  "Po": 1844,
  "fěng": 1845,
  "Do": 1846,
  "luǒ": 1847,
  "US": 1848,
  "ant": 1849,
  "go": 1850,
  "ya": 1851,
  "DVD": 1852,
  "ort": 1853,
  "zōu": 1854,
  "ris": 1855,
  "3000": 1856,
  "Pi": 1857,
  "cā": 1858,
  "Car": 1859,
  "1910": 1860,
  "RO": 1861,
  "DS": 1862,
  "Th": 1863,
  "112": 1864,
  "AK": 1865,
  "My": 1866,
  "pen": 1867,
  "RE": 1868,
  "pro": 1869,
  "ven": 1870,
  "1916": 1871,
  "Station": 1872,
  "ー": 1873,
  "chuò": 1874,
  "Net": 1875,
  "α": 1876,
  "Ki": 1877,
  "Sch": 1878,
  "olo": 1879,
  "No": 1880,
  "ari": 1881,
  "ture": 1882,
  "gn": 1883,
  "Lin": 1884,
  "CP": 1885,
  "UN": 1886,
  "gle": 1887,
  "ers": 1889,
  "hén": 1890,
  "1915": 1891,
  "oun": 1892,
  "niàng": 1893,
  "1905": 1894,
  "FC": 1895,
  "my": 1896,
  "Lu": 1897,
  "ll": 1898,
  "Wil": 1899,
  "CN": 1900,
  "→": 1902,
  "1901": 1903,
  "Fa": 1904,
  "Au": 1905,
  "ting": 1906,
  "New": 1907,
  "DNA": 1908,
  "Ex": 1909,
  "‧": 1910,
  "ary": 1911,
  "900": 1912,
  "Ph": 1913,
  "sic": 1914,
  "HR": 1915,
  "dice": 1916,
  "sis": 1917,
  ".&": 1918,
  "CH": 1919,
  "zěn": 1920,
  "TA": 1921,
  "dia": 1922,
  "Qu": 1923,
  "TO": 1924,
  "1906": 1925,
  "len": 1926,
  "1904": 1927,
  "chuǎng": 1928,
  "AV": 1929,
  "For": 1930,
  "gěn": 1931,
  "John": 1932,
  "we": 1933,
  "ere": 1934,
  "And": 1935,
  "MO": 1936,
  "ding": 1937,
  "codice": 1938,
  "chǎo": 1939,
  "jiǒng": 1940,
  "℃": 1941,
  "Ta": 1942,
  "pa": 1943,
  "ps": 1944,
  "PlayStation": 1945,
  "fu": 1946,
  "ko": 1947,
  "wà": 1948,
  "bèng": 1949,
  "05": 1950,
  "CC": 1951,
  "ton": 1952,
  "vo": 1953,
  "eri": 1954,
  "diū": 1955,
  "1907": 1956,
  "1908": 1957,
  "Google": 1958,
  "AG": 1959,
  "EST": 1960,
  "MI": 1961,
  "zuàn": 1962,
  "SO": 1963,
  "ory": 1964,
  "tes": 1965,
  "LE": 1966,
  "Gu": 1967,
  "jiá": 1968,
  "zuǎn": 1969,
  "cy": 1970,
  "lī": 1971,
  "chi": 1972,
  "ley": 1973,
  "BO": 1974,
  "enter": 1975,
  "BBC": 1976,
  "AD": 1977,
  "IG": 1978,
  "cal": 1979,
  "III": 1980,
  "Cu": 1981,
  "cri": 1982,
  "oft": 1983,
  "1500": 1984,
  "Ru": 1985,
  "lin": 1986,
  "5000": 1987,
  "ori": 1988,
  "zuān": 1989,
  "pu": 1990,
  "Go": 1991,
  "IST": 1992,
  "shē": 1993,
  "lǘ": 1994,
  "Fe": 1995,
  "Col": 1996,
  "wor": 1997,
  "Sy": 1998,
  "Ka": 1999,
  "ME": 2000,
  "tive": 2001,
  "CR": 2002,
  "gen": 2003,
  "3D": 2004,
  "wit": 2005,
  "round": 2006,
  "IA": 2007,
  "guǎ": 2008,
  "105": 2009,
  "je": 2010,
  "ron": 2011,
  "mà": 2012,
  "а": 2013,
  "101": 2014,
  "1903": 2015,
  "GB": 2016,
  "pīng": 2017,
  "cha": 2018,
  "shá": 2019,
  "lan": 2020,
  "09": 2021,
  "TE": 2022,
  "ree": 2023,
  "Ad": 2024,
  "Hu": 2025,
  "càn": 2026,
  "cén": 2027,
  "1902": 2028,
  "BD": 2029,
  "NC": 2030,
  "land": 2031,
  "can": 2032,
  "ze": 2033,
  "own": 2034,
  "ess": 2035,
  "pāng": 2036,
  "xt": 2037,
  "350": 2038,
  "wa": 2039,
  "ina": 2040,
  "SAO": 2041,
  "sháo": 2042,
  "DC": 2043,
  "net": 2044,
  "span": 2045,
  "des": 2046,
  "β": 2047,
  "ght": 2048,
  "lìn": 2049,
  "ence": 2050,
  "B1900": 2051,
  "inc": 2052,
  "book": 2053,
  "del": 2054,
  "ES": 2055,
  "BM": 2056,
  "．": 2057,
  "dy": 2058,
  "ン": 2059,
  "Hi": 2060,
  "1898": 2061,
  "06": 2062,
  "118": 2063,
  "Pe": 2064,
  "ms": 2065,
  "の": 2066,
  "lá": 2067,
  "pt": 2068,
  "qǐn": 2069,
  "tel": 2070,
  "360": 2071,
  "DR": 2072,
  "mon": 2073,
  "01": 2074,
  "DA": 2075,
  "gh": 2076,
  "Open": 2077,
  "1895": 2078,
  "lào": 2079,
  "yle": 2080,
  "125": 2081,
  "mú": 2082,
  "lar": 2083,
  "bèn": 2084,
  "HO": 2085,
  "Ko": 2086,
  "MC": 2087,
  "ance": 2088,
  "ATP": 2089,
  "Micro": 2090,
  "о": 2091,
  "108": 2092,
  "gy": 2093,
  "NG": 2094,
  "pōu": 2095,
  "igh": 2096,
  "sy": 2097,
  "cor": 2098,
  "tt": 2099,
  "dio": 2100,
  "Ke": 2101,
  "qié": 2102,
  "za": 2103,
  "App": 2104,
  "Pu": 2105,
  "ning": 2106,
  "gram": 2107,
  "IF": 2108,
  "Fran": 2109,
  "ft": 2110,
  "res": 2111,
  "Com": 2112,
  "tin": 2113,
  "−": 2114,
  "07": 2115,
  "08": 2116,
  "230": 2117,
  "Face": 2118,
  "104": 2119,
  "Du": 2120,
  "ref": 2121,
  "One": 2122,
  "World": 2123,
  "old": 2124,
  "Ser": 2125,
  "soft": 2126,
  "EDT": 2127,
  "ISTAT": 2128,
  "Mon": 2129,
  "Stu": 2130,
  "shāi": 2131,
  "sǒng": 2132,
  "NO": 2134,
  "ner": 2135,
  "1896": 2136,
  "Cor": 2137,
  "LL": 2138,
  "Bi": 2139,
  "ger": 2140,
  "lus": 2141,
  "109": 2142,
  "DP": 2143,
  "yū": 2144,
  "las": 2145,
  "AA": 2146,
  "fli": 2147,
  "Comp": 2148,
  "rea": 2149,
  "gě": 2150,
  "RI": 2151,
  "vel": 2152,
  "ren": 2153,
  "line": 2154,
  "RT": 2155,
  "suǐ": 2156,
  "SP": 2157,
  "xiáo": 2158,
  "qiǎ": 2159,
  "EX": 2160,
  "rě": 2161,
  "Bar": 2162,
  "Bri": 2163,
  "ling": 2164,
  "bert": 2165,
  "B48": 2166,
  "106": 2167,
  "1890": 2168,
  "ctor": 2169,
  "CST": 2170,
  "San": 2171,
  "ML": 2172,
  "CDT": 2173,
  "Love": 2174,
  "ity": 2175,
  "mar": 2176,
  "zāng": 2177,
  "row": 2178,
  "DO": 2179,
  "with": 2180,
  "HE": 2181,
  "fa": 2182,
  "Per": 2183,
  "pēi": 2184,
  "ward": 2185,
  "Har": 2186,
  "Man": 2187,
  "ds": 2188,
  "tional": 2189,
  "tain": 2190,
  "ja": 2191,
  "04": 2192,
  "4000": 2193,
  "115": 2194,
  "cuàn": 2195,
  "1200": 2196,
  "ky": 2197,
  "ux": 2198,
  "ound": 2199,
  "ight": 2200,
  "M1": 2201,
  "03": 2202,
  "GP": 2203,
  "páo": 2204,
  "CE": 2205,
  "back": 2206,
  "1889": 2207,
  "begin": 2208,
  "Je": 2209,
  "1899": 2210,
  "ool": 2211,
  "colspan": 2212,
  "1871": 2213,
  "ring": 2214,
  "Ed": 2215,
  "RS": 2216,
  "ower": 2217,
  "mic": 2218,
  "Facebook": 2219,
  "lude": 2220,
  "Willi": 2221,
  "Microsoft": 2222,
  "​": 2223,
  "240": 2224,
  "tur": 2225,
  "Mac": 2226,
  "1600": 2227,
  "LO": 2228,
  "Live": 2229,
  "BE": 2230,
  "cket": 2231,
  "102": 2232,
  "cc": 2233,
  "ker": 2234,
  "box": 2235,
  "TT": 2236,
  "1897": 2237,
  "Gi": 2238,
  "NH": 2239,
  "EE": 2240,
  "chòu": 2241,
  "Pre": 2242,
  "Tri": 2243,
  "117": 2244,
  "On": 2245,
  "PP": 2246,
  "qìn": 2247,
  "ks": 2248,
  "Is": 2249,
  "SC": 2250,
  "02": 2251,
  "van": 2252,
  "cm": 2253,
  "shuǎng": 2254,
  "style": 2255,
  "mb": 2256,
  "103": 2257,
  "AKB48": 2258,
  "MD": 2259,
  "yǎo": 2260,
  "107": 2261,
  "Gra": 2262,
  "bli": 2263,
  "Music": 2264,
  "Gre": 2265,
  "ood": 2266,
  "còu": 2267,
  "Linux": 2268,
  "include": 2269,
  "Dis": 2270,
  "Or": 2271,
  "Tra": 2272,
  "Pri": 2273,
  "tǎng": 2274,
  "ww": 2275,
  "Nor": 2276,
  "pha": 2277,
  "min": 2278,
  "Ori": 2279,
  "ye": 2280,
  "only": 2281,
  "450": 2282,
  "VID": 2283,
  "tus": 2284,
  "127": 2285,
  "mas": 2286,
  "tra": 2287,
  "Davi": 2288,
  "que": 2289,
  "ane": 2290,
  "128": 2291,
  "align": 2292,
  "lāo": 2293,
  "lis": 2294,
  "ous": 2295,
  "Game": 2296,
  "flix": 2297,
  "CL": 2298,
  "ora": 2299,
  "Netflix": 2300,
  "El": 2301,
  "1894": 2302,
  "220": 2303,
  "rin": 2304,
  "Ber": 2305,
  "н": 2306,
  "ser": 2307,
  "William": 2308,
  "IL": 2309,
  "Vo": 2310,
  "SH": 2311,
  "sti": 2312,
  "rom": 2313,
  "Twit": 2314,
  "1880": 2315,
  "Red": 2316,
  "yi": 2317,
  "RNA": 2318,
  "záo": 2319,
  "136": 2320,
  "PG": 2321,
  "Fu": 2322,
  "и": 2323,
  "ero": 2324,
  "い": 2325,
  "TR": 2326,
  "stra": 2327,
  "Team": 2328,
  "1800": 2329,
  "Wa": 2330,
  "ス": 2331,
  "Univer": 2332,
  "ground": 2333,
  "tor": 2334,
  "1885": 2335,
  "nge": 2336,
  "liǎ": 2337,
  "114": 2338,
  "ano": 2339,
  "ん": 2340,
  "pián": 2341,
  "rus": 2342,
  "Hz": 2343,
  "Ty": 2344,
  "Char": 2345,
  "color": 2346,
  "116": 2347,
  "280": 2348,
  "name": 2349,
  "Star": 2350,
  "Eu": 2351,
  "Gen": 2352,
  "UR": 2353,
  "hy": 2354,
  "е": 2355,
  "113": 2356,
  "era": 2357,
  "lla": 2358,
  "1886": 2359,
  "sing": 2360,
  "イ": 2361,
  "TS": 2362,
  "ten": 2363,
  "School": 2364,
  "PO": 2365,
  "mǎng": 2366,
  "lass": 2367,
  "1893": 2368,
  "irl": 2369,
  "Bla": 2370,
  "Mc": 2371,
  "ex": 2372,
  "nic": 2373,
  "out": 2374,
  "111": 2375,
  "Mark": 2376,
  "SL": 2377,
  "irst": 2378,
  "cial": 2380,
  "Super": 2381,
  "Don": 2382,
  "ac": 2383,
  "Wal": 2384,
  "ject": 2385,
  "lex": 2386,
  "mǒ": 2387,
  "ans": 2388,
  "※": 2389,
  "tri": 2390,
  "lia": 2391,
  "ie": 2392,
  "mō": 2393,
  "135": 2394,
  "David": 2395,
  "260": 2396,
  "1860": 2397,
  "national": 2398,
  "Geor": 2399,
  "Mor": 2400,
  "ys": 2401,
  "nín": 2402,
  "gue": 2403,
  "tle": 2404,
  "any": 2405,
  "Pet": 2406,
  "WTA": 2407,
  "way": 2408,
  "roup": 2409,
  "HC": 2410,
  "Mat": 2411,
  "nis": 2412,
  "ces": 2413,
  "UA": 2414,
  "Un": 2415,
  "was": 2416,
  "ouse": 2417,
  "ham": 2418,
  "1888": 2419,
  "Ac": 2420,
  "text": 2421,
  "SD": 2422,
  "-.": 2423,
  "cation": 2424,
  "Bra": 2425,
  "ony": 2426,
  "roid": 2427,
  "background": 2428,
  "yūn": 2429,
  "dǎi": 2430,
  "ream": 2431,
  "Show": 2432,
  "129": 2433,
  "GO": 2434,
  "om": 2435,
  "chēn": 2436,
  "1870": 2437,
  "stri": 2438,
  "GN": 2439,
  "Che": 2441,
  "nia": 2442,
  "1887": 2443,
  "bur": 2444,
  "don": 2445,
  "pri": 2446,
  "shuān": 2447,
  "1868": 2448,
  "6000": 2449,
  "cle": 2450,
  "ö": 2451,
  "р": 2452,
  "1883": 2453,
  "Cy": 2454,
  "NF": 2455,
  "VA": 2456,
  "lub": 2457,
  "meri": 2458,
  "Ku": 2459,
  "ank": 2460,
  "Meta": 2461,
  "320": 2462,
  "Ab": 2463,
  "Xbox": 2464,
  "CS": 2465,
  "NHK": 2466,
  "AF": 2467,
  "DD": 2468,
  "Twitter": 2469,
  "KP": 2470,
  "ny": 2471,
  "onlyinclude": 2472,
  "Tho": 2473,
  "ens": 2474,
  "piáo": 2475,
  "++": 2476,
  "bit": 2477,
  "tàng": 2478,
  "1864": 2479,
  "•": 2480,
  "ION": 2481,
  "1884": 2482,
  "119": 2483,
  "RC": 2484,
  "UE": 2485,
  "tis": 2486,
  "122": 2487,
  "Cl": 2488,
  "2500": 2489,
  "1892": 2490,
  "210": 2491,
  "A1": 2492,
  "ong": 2493,
  "ins": 2494,
  "Wh": 2495,
  "center": 2496,
  "let": 2497,
  "miù": 2498,
  "155": 2499,
  "Sou": 2500,
  "ISO": 2501,
  "145": 2503,
  "1891": 2504,
  "650": 2505,
  "pre": 2506,
  "Android": 2507,
  "Girl": 2508,
  "sel": 2509,
  "NS": 2510,
  "car": 2511,
  "vil": 2512,
  "〕": 2513,
  "sil": 2514,
  "OR": 2515,
  "yo": 2516,
  "As": 2517,
  "〔": 2518,
  "1850": 2519,
  "ona": 2520,
  "cuō": 2521,
  "htt": 2522,
  "red": 2523,
  "low": 2524,
  "xy": 2525,
  "ensis": 2526,
  "International": 2527,
  "Day": 2528,
  "cer": 2529,
  "mī": 2530,
  "1867": 2531,
  "stem": 2532,
  "IM": 2533,
  "pàng": 2534,
  "ト": 2535,
  "All": 2536,
  "Nation": 2537,
  "sed": 2538,
  "1879": 2539,
  "mber": 2540,
  "James": 2541,
  "Enter": 2542,
  "War": 2543,
  "ffi": 2544,
  "380": 2545,
  "AB": 2546,
  "UP": 2547,
  "dis": 2548,
  "1876": 2549,
  "Coun": 2550,
  "Ver": 2551,
  "Universi": 2552,
  "im": 2553,
  "vin": 2554,
  "George": 2555,
  "Her": 2556,
  "1875": 2557,
  "1861": 2558,
  "270": 2559,
  "Dra": 2560,
  "td": 2561,
  "lie": 2562,
  "sia": 2563,
  "eld": 2564,
  "Air": 2565,
  "Group": 2566,
  "IR": 2567,
  "cho": 2568,
  "time": 2569,
  "126": 2570,
  "ama": 2571,
  "NT": 2572,
  "Pau": 2573,
  "lor": 2574,
  "inter": 2575,
  "Ani": 2576,
  "Spe": 2577,
  "Games": 2578,
  "NGC": 2579,
  "Hy": 2580,
  "stru": 2581,
  "ル": 2582,
  "1873": 2583,
  "Hol": 2584,
  "MG": 2585,
  "123": 2586,
  "ラ": 2587,
  "Eng": 2588,
  "PV": 2589,
  "Ben": 2590,
  "HT": 2591,
  "val": 2592,
  "Colle": 2593,
  "day": 2594,
  "MB": 2595,
  "168": 2596,
  "COVID": 2597,
  "critic": 2598,
  "Club": 2599,
  "FM": 2600,
  "Hen": 2601,
  "lue": 2602,
  "1865": 2603,
  "ild": 2604,
  "AO": 2605,
  "PL": 2606,
  "that": 2607,
  "ass": 2608,
  "Ameri": 2609,
  "DE": 2610,
  "121": 2611,
  "Center": 2612,
  "ut": 2613,
  "cus": 2614,
  "Blo": 2615,
  "175": 2616,
  "う": 2617,
  "Web": 2618,
  "H2": 2619,
  "YP": 2620,
  "from": 2621,
  "ä": 2622,
  "1400": 2623,
  "Ali": 2624,
  "od": 2625,
  "MAX": 2626,
  "work": 2627,
  "par": 2628,
  "138": 2629,
  "228": 2630,
  "TP": 2631,
  "fer": 2632,
  "1848": 2633,
  "chàn": 2634,
  "ast": 2635,
  "ald": 2636,
  "ney": 2637,
  "liū": 2638,
  "1862": 2639,
  "330": 2640,
  "dge": 2641,
  "pěng": 2642,
  "124": 2643,
  "ア": 2644,
  "1881": 2645,
  "1882": 2646,
  "737": 2647,
  "age": 2648,
  "Can": 2649,
  "1878": 2650,
  "550": 2651,
  "Sha": 2652,
  "guǎi": 2653,
  "ruǐ": 2654,
  "1872": 2655,
  "Ele": 2656,
  "LC": 2657,
  "bìn": 2658,
  "INK": 2659,
  "Metacritic": 2660,
  "Oricon": 2661,
  "bor": 2662,
  "náo": 2663,
  "156": 2664,
  "MTV": 2665,
  "UC": 2666,
  "bri": 2667,
  "165": 2668,
  "comp": 2669,
  "Boo": 2670,
  "LED": 2671,
  "fo": 2672,
  "1840": 2673,
  "niǎn": 2674,
  "IVE": 2675,
  "High": 2676,
  "Spi": 2677,
  "core": 2678,
  "dāi": 2679,
  "wan": 2680,
  "750": 2681,
  "It": 2682,
  "ns": 2683,
  "tro": 2684,
  "shài": 2685,
  "ッ": 2686,
  "ology": 2687,
  "ming": 2688,
  "1300": 2689,
  "し": 2690,
  "137": 2691,
  "stagram": 2692,
  "7000": 2693,
  "Bro": 2694,
  "DOS": 2695,
  "SQ": 2696,
  "UB": 2697,
  "229": 2698,
  "IU": 2699,
  "cre": 2700,
  "zo": 2701,
  "Chu": 2702,
  "GDP": 2703,
  "King": 2704,
  "OK": 2705,
  "с": 2706,
  "ena": 2707,
  "Lea": 2708,
  "She": 2709,
  "rand": 2710,
  "152": 2711,
  "als": 2712,
  "Stre": 2713,
  "TVB": 2714,
  "Micha": 2715,
  "Va": 2716,
  "lip": 2717,
  "159": 2718,
  "1877": 2719,
  "Robert": 2720,
  "type": 2721,
  "Sur": 2722,
  "kuǐ": 2724,
  "1866": 2725,
  "rist": 2726,
  "Chi": 2727,
  "Chris": 2728,
  "Pat": 2729,
  "iOS": 2730,
  "л": 2731,
  "oly": 2732,
  "Produ": 2733,
  "SK": 2734,
  "1869": 2735,
  "′": 2736,
  "silver": 2737,
  "THE": 2738,
  "Up": 2739,
  "Ce": 2740,
  "DM": 2741,
  "gar": 2742,
  "her": 2743,
  "sen": 2744,
  "xiǔ": 2745,
  "Fri": 2746,
  "NET": 2747,
  "Pla": 2748,
  "к": 2749,
  "she": 2750,
  "139": 2751,
  "Instagram": 2752,
  "Phone": 2753,
  "BI": 2754,
  "star": 2755,
  "BLAC": 2756,
  "Type": 2757,
  "Big": 2758,
  "por": 2759,
  "в": 2760,
  "DJ": 2761,
  "rēng": 2762,
  "iss": 2763,
  "Apple": 2764,
  "CG": 2765,
  "Hel": 2766,
  "WE": 2767,
  "ew": 2768,
  "ray": 2769,
  "ク": 2770,
  "code": 2771,
  "Michael": 2772,
  "At": 2773,
  "DF": 2774,
  "ark": 2776,
  "alk": 2777,
  "1100": 2778,
  "158": 2779,
  "ons": 2780,
  "ator": 2781,
  "Tech": 2782,
  "Paul": 2783,
  "225": 2784,
  "305": 2785,
  "133": 2786,
  "INE": 2787,
  "cia": 2788,
  "RA": 2789,
  "sǎ": 2790,
  "リ": 2791,
  "Award": 2792,
  "HI": 2793,
  "YO": 2794,
  "132": 2795,
  "Steam": 2796,
  "205": 2797,
  "1863": 2798,
  "Park": 2799,
  "National": 2800,
  "Bill": 2801,
  "Ye": 2802,
  "tainment": 2803,
  "215": 2804,
  "Ci": 2805,
  "bra": 2806,
  "sto": 2807,
  "new": 2808,
  "University": 2809,
  "FO": 2810,
  "ral": 2811,
  "Media": 2812,
  "CA": 2813,
  "F1": 2814,
  "KBS": 2815,
  "Val": 2816,
  "148": 2817,
  "131": 2818,
  "Lou": 2819,
  "Smi": 2820,
  "166": 2821,
  "arch": 2822,
  "1874": 2823,
  "sso": 2824,
  "EF": 2825,
  "Mer": 2826,
  "XX": 2827,
  "bal": 2828,
  "kg": 2829,
  "now": 2830,
  "1858": 2831,
  "Fin": 2832,
  "Kar": 2833,
  "Tran": 2834,
  "gon": 2835,
  "ves": 2836,
  "147": 2837,
  "space": 2838,
  "Black": 2839,
  "Ter": 2840,
  "ach": 2841,
  "gan": 2842,
  "Peter": 2843,
  "Gar": 2844,
  "deo": 2845,
  "256": 2846,
  "か": 2847,
  "GA": 2848,
  "IE": 2849,
  "M2": 2850,
  "kǔn": 2851,
  "1830": 2852,
  "Rich": 2853,
  "CBS": 2854,
  "UT": 2855,
  "1851": 2856,
  "Lee": 2857,
  "BN": 2858,
  "UI": 2859,
  "192": 2860,
  "zer": 2861,
  "μ": 2862,
  "ada": 2863,
  "8000": 2864,
  "chě": 2865,
  "Jack": 2866,
  "Entertainment": 2867,
  "310": 2868,
  "Jap": 2869,
  "Win": 2870,
  "lǐn": 2871,
  "bin": 2872,
  "mini": 2873,
  "143": 2874,
  "set": 2875,
  "City": 2876,
  "Mk": 2877,
  "gàng": 2878,
  "1855": 2879,
  "rie": 2880,
  "ater": 2881,
  "Intel": 2882,
  "Power": 2883,
  "EM": 2884,
  "IX": 2885,
  "Sam": 2886,
  "hǎ": 2887,
  "Space": 2888,
  "RAM": 2889,
  "185": 2891,
  "1859": 2892,
  "zuó": 2893,
  "STAR": 2894,
  "ship": 2895,
  "Charles": 2896,
  "bel": 2897,
  "py": 2898,
  "134": 2899,
  "Dire": 2900,
  "Ang": 2901,
  "ABC": 2902,
  "Fla": 2903,
  "ene": 2904,
  "1854": 2905,
  "146": 2906,
  "301": 2907,
  "enti": 2908,
  "1700": 2909,
  "Viu": 2910,
  "Java": 2911,
  "370": 2912,
  "if": 2913,
  "1857": 2914,
  "Free": 2915,
  "GM": 2916,
  "Py": 2917,
  "Tai": 2918,
  "whi": 2919,
  "stro": 2920,
  "vs": 2921,
  "ا": 2922,
  "ann": 2923,
  "290": 2924,
  "な": 2925,
  "Life": 2926,
  "︰": 2927,
  "Er": 2928,
  "Pan": 2929,
  "Ve": 2930,
  "γ": 2931,
  "214": 2932,
  "420": 2933,
  "Dream": 2934,
  "Ya": 2935,
  "т": 2936,
  "Recor": 2937,
  "Alpha": 2938,
  "Company": 2939,
  "stitu": 2940,
  "ek": 2941,
  "fang": 2942,
  "face": 2943,
  "ο": 2944,
  "〜": 2945,
  "mis": 2946,
  "1856": 2947,
  "1853": 2948,
  "Project": 2949,
  "Am": 2950,
  "House": 2951,
  "Pop": 2952,
  "first": 2953,
  "dium": 2954,
  "た": 2955,
  "ety": 2956,
  "Time": 2957,
  "Thomas": 2958,
  "Cal": 2959,
  "Min": 2960,
  "ae": 2961,
  "ox": 2962,
  "von": 2963,
  "vis": 2964,
  "144": 2965,
  "Saint": 2966,
  "FA": 2967,
  "Ken": 2968,
  "OVA": 2969,
  "Cent": 2970,
  "Tru": 2971,
  "VO": 2972,
  "bò": 2973,
  "A2": 2974,
  "IO": 2975,
  "167": 2976,
  "Street": 2977,
  "3A": 2978,
  "HS": 2979,
  "SBS": 2980,
  "shǎ": 2981,
  "bili": 2982,
  "kuǎ": 2983,
  "1841": 2984,
  "very": 2985,
  "Alex": 2986,
  "Bat": 2987,
  "LP": 2988,
  "Lau": 2989,
  "Tor": 2990,
  "din": 2991,
  "ric": 2992,
  "340": 2993,
  "PM": 2994,
  "Por": 2995,
  "Shi": 2996,
  "chuǎn": 2997,
  "mat": 2998,
  "mation": 2999,
  "BLACKP": 3000,
  "Met": 3001,
  "ple": 3002,
  "zā": 3003,
  "208": 3004,
  "1815": 3005,
  "178": 3006,
  "CPU": 3007,
  "BLACKPINK": 3008,
  "223": 3009,
  "Bur": 3010,
  "cis": 3011,
  "mèn": 3012,
  "Soci": 3013,
  "Studio": 3014,
  "Euro": 3015,
  "850": 3016,
  "LGB": 3017,
  "Sing": 3018,
  "pla": 3019,
  "cher": 3020,
  "zuō": 3021,
  "ses": 3022,
  "Rock": 3023,
  "www": 3024,
  "IBM": 3025,
  "spe": 3026,
  "SF": 3027,
  "207": 3028,
  "die": 3029,
  "play": 3030,
  "sg": 3031,
  "nie": 3032,
  "171": 3033,
  "235": 3034,
  "tation": 3035,
  "と": 3036,
  "ま": 3037,
  "Dig": 3038,
  "Fer": 3039,
  "LIVE": 3040,
  "Mr": 3041,
  "PE": 3042,
  "SU": 3043,
  "VE": 3044,
  "Yu": 3045,
  "nìng": 3046,
  "203": 3047,
  "B2": 3048,
  "Whi": 3049,
  "not": 3050,
  "Art": 3051,
  "SQL": 3052,
  "Pad": 3053,
  "1846": 3054,
  "164": 3055,
  "ford": 3056,
  "oot": 3057,
  "College": 3058,
  "bre": 3059,
  "cra": 3060,
  "157": 3061,
  "vice": 3062,
  "berg": 3063,
  "publi": 3064,
  "BR": 3065,
  "LT": 3066,
  "NE": 3067,
  "lit": 3068,
  "141": 3069,
  "ICE": 3070,
  "B1": 3071,
  "Cro": 3072,
  "Cap": 3073,
  "Sun": 3074,
  "ond": 3075,
  "176": 3076,
  "thy": 3077,
  "ING": 3078,
  "board": 3079,
  "Inc": 3080,
  "Tele": 3081,
  "American": 3082,
  "Asso": 3083,
  "LS": 3084,
  "hān": 3085,
  "you": 3086,
  "²": 3087,
  "1812": 3088,
  "1845": 3089,
  "1844": 3090,
  "sign": 3091,
  "Road": 3092,
  "Girls": 3093,
  "self": 3094,
  "Ze": 3095,
  "sch": 3096,
  "mit": 3097,
  "231": 3098,
  "Offi": 3099,
  "cture": 3100,
  "class": 3101,
  "HF": 3102,
  "Ltd": 3103,
  "M3": 3104,
  "Mil": 3105,
  "Ros": 3106,
  "り": 3107,
  "witch": 3108,
  "LGBT": 3109,
  "Ag": 3110,
  "ball": 3111,
  "209": 3112,
  "cess": 3113,
  "き": 3114,
  "off": 3115,
  "NASA": 3116,
  "GNU": 3117,
  "LA": 3118,
  "wāi": 3119,
  "ded": 3120,
  "Jose": 3121,
  "Smith": 3122,
  "Cla": 3123,
  "Ger": 3124,
  "PA": 3125,
  "Pra": 3126,
  "ampi": 3127,
  "IUCN": 3128,
  "216": 3129,
  "PN": 3130,
  "κ": 3131,
  "1849": 3132,
  "153": 3133,
  "temp": 3134,
  "ved": 3135,
  "Good": 3136,
  "CT": 3137,
  "Fil": 3138,
  "NBC": 3139,
  "Tour": 3140,
  "wh": 3141,
  "zhǒu": 3142,
  "sha": 3143,
  "204": 3144,
  "238": 3145,
  "aurus": 3146,
  "Production": 3147,
  "BB": 3148,
  "Cra": 3149,
  "Gal": 3150,
  "Hall": 3151,
  "Sci": 3152,
  "nal": 3153,
  "oi": 3154,
  "yn": 3155,
  "vision": 3156,
  "Video": 3157,
  "Gala": 3158,
  "GT": 3159,
  "O2": 3160,
  "lē": 3161,
  "pm": 3162,
  "ue": 3163,
  "σ": 3164,
  "mited": 3165,
  "orts": 3166,
  "ino": 3167,
  "tions": 3168,
  "Eli": 3169,
  "PR": 3170,
  "Sky": 3171,
  "tal": 3172,
  "206": 3173,
  "lea": 3174,
  "qui": 3175,
  "mac": 3176,
  "460": 3177,
  "ab": 3178,
  "mal": 3179,
  "win": 3180,
  "1814": 3181,
  "org": 3182,
  "218": 3183,
  "ani": 3184,
  "fra": 3185,
  "eries": 3186,
  "Richard": 3187,
  "SI": 3188,
  "lti": 3189,
  "war": 3190,
  "chǔn": 3191,
  "rich": 3192,
  "ange": 3193,
  "IGN": 3194,
  "Act": 3195,
  "LD": 3196,
  "pic": 3198,
  "Boy": 3199,
  "Far": 3200,
  "Tur": 3201,
  "WS": 3202,
  "π": 3203,
  "def": 3204,
  "1847": 3205,
  "154": 3206,
  "turn": 3207,
  "580": 3208,
  "Ama": 3209,
  "FF": 3210,
  "bun": 3211,
  "ep": 3212,
  "fri": 3213,
  "led": 3214,
  "1843": 3215,
  "mann": 3216,
  "Best": 3217,
  "phy": 3218,
  "System": 3219,
  "ptr": 3220,
  "430": 3221,
  "Mas": 3222,
  "MBC": 3223,
  "Plan": 3224,
  "zz": 3225,
  "177": 3226,
  "401": 3227,
  "chem": 3228,
  "410": 3229,
  "Bel": 3230,
  "Sal": 3231,
  "シ": 3232,
  "NFL": 3233,
  "ViuTV": 3234,
  "Switch": 3235,
  "Wo": 3236,
  "king": 3237,
  "163": 3238,
  "AMD": 3239,
  "API": 3240,
  "West": 3241,
  "Japan": 3242,
  "ICO": 3243,
  "bar": 3244,
  "bus": 3245,
  "up": 3246,
  "ments": 3247,
  "1852": 3248,
  "162": 3249,
  "thon": 3250,
  "esti": 3251,
  "Christ": 3252,
  "cript": 3253,
  "VII": 3254,
  "1820": 3255,
  "orn": 3256,
  "get": 3257,
  "this": 3258,
  "く": 3259,
  "Max": 3260,
  "Fre": 3261,
  "Prin": 3262,
  "cil": 3263,
  "142": 3264,
  "234": 3265,
  "ria": 3266,
  "Roy": 3267,
  "VR": 3268,
  "172": 3269,
  "お": 3270,
  "さ": 3271,
  "Records": 3272,
  "640": 3273,
  "Dan": 3274,
  "Squ": 3275,
  "Vir": 3276,
  "wood": 3277,
  "169": 3278,
  "3500": 3279,
  "Limited": 3280,
  "Core": 3281,
  "KC": 3282,
  "T1": 3283,
  "gs": 3284,
  "phi": 3285,
  "±": 3286,
  "1839": 3287,
  "ars": 3288,
  "232": 3289,
  "data": 3290,
  "480": 3291,
  "CM": 3292,
  "cī": 3293,
  "179": 3294,
  "thi": 3295,
  "cade": 3296,
  "ful": 3297,
  "2030": 3298,
  "eni": 3299,
  "149": 3300,
  "max": 3301,
  "365": 3302,
  "Institu": 3303,
  "How": 3304,
  "var": 3305,
  "1821": 3306,
  "ロ": 3307,
  "み": 3308,
  "Cha": 3309,
  "aya": 3310,
  "Unicode": 3311,
  "ROM": 3312,
  "CCTV": 3313,
  "390": 3314,
  "BU": 3315,
  "Res": 3316,
  "Vol": 3317,
  "XP": 3318,
  "ness": 3319,
  "tv": 3320,
  "306": 3321,
  "alo": 3322,
  "222": 3323,
  "601": 3324,
  "unch": 3325,
  "Fan": 3326,
  "tube": 3327,
  "173": 3328,
  "itch": 3329,
  "Bob": 3330,
  "EA": 3331,
  "PF": 3332,
  "247": 3333,
  "ital": 3334,
  "Camp": 3335,
  "KK": 3336,
  "lian": 3337,
  "ping": 3338,
  "1790": 3339,
  "ders": 3340,
  "211": 3341,
  "560": 3342,
  "Fun": 3343,
  "OH": 3344,
  "SN": 3345,
  "kh": 3346,
  "wid": 3347,
  "ord": 3348,
  "レ": 3349,
  "ciation": 3350,
  "BF": 3351,
  "Es": 3352,
  "Top": 3353,
  "VM": 3354,
  "tran": 3355,
  "Force": 3356,
  "Hot": 3357,
  "MU": 3358,
  "PD": 3359,
  "PH": 3360,
  "Sir": 3361,
  "shuǎ": 3362,
  "183": 3363,
  "1795": 3364,
  "303": 3365,
  "rew": 3366,
  "○": 3367,
  "use": 3368,
  "lum": 3369,
  "233": 3370,
  "search": 3371,
  "ち": 3372,
  "1801": 3373,
  "213": 3374,
  "Tok": 3375,
  "wèng": 3376,
  "マ": 3377,
  "USB": 3378,
  "dra": 3379,
  "sub": 3380,
  "174": 3381,
  "run": 3382,
  "Mag": 3383,
  "MVP": 3384,
  "CK": 3385,
  "lli": 3386,
  "zon": 3387,
  "ρ": 3388,
  "186": 3391,
  "1838": 3392,
  "ors": 3393,
  "Store": 3394,
  "key": 3395,
  "Heart": 3396,
  "Direct": 3397,
  "520": 3398,
  "Bank": 3399,
  "DDR": 3400,
  "Glo": 3401,
  "Zi": 3402,
  "zy": 3403,
  "mily": 3404,
  "cker": 3405,
  "Jean": 3406,
  "610": 3407,
  "Fle": 3408,
  "iPad": 3409,
  "rǒng": 3410,
  "bile": 3411,
  "161": 3412,
  "501": 3413,
  "ド": 3414,
  "Home": 3415,
  "http": 3416,
  "224": 3417,
  "CF": 3418,
  "Pen": 3419,
  "ele": 3420,
  "mg": 3421,
  "sur": 3422,
  "tia": 3423,
  "1813": 3424,
  "ら": 3425,
  "Phil": 3426,
  "GE": 3427,
  "Lon": 3428,
  "kin": 3429,
  "tz": 3430,
  "τ": 3431,
  "ense": 3432,
  "182": 3433,
  "1832": 3434,
  "1842": 3435,
  "lation": 3436,
  "255": 3437,
  "its": 3438,
  "Society": 3439,
  "AE": 3440,
  "Gold": 3441,
  "Han": 3442,
  "Sco": 3443,
  "fter": 3444,
  "iPhone": 3445,
  "184": 3446,
  "カ": 3447,
  "los": 3448,
  "Mini": 3449,
  "Data": 3450,
  "720": 3451,
  "KI": 3452,
  "Script": 3453,
  "dd": 3454,
  "ise": 3455,
  "1836": 3457,
  "late": 3458,
  "1793": 3459,
  "オ": 3460,
  "Comic": 3461,
  "ving": 3462,
  "Muse": 3463,
  "KiHa": 3464,
  "buntu": 3465,
  "221": 3466,
  "Cri": 3467,
  "Dr": 3468,
  "HBO": 3469,
  "MT": 3470,
  "Mel": 3471,
  "Tun": 3472,
  "gre": 3473,
  "hǒu": 3474,
  "tian": 3475,
  "1833": 3476,
  "nity": 3477,
  "1789": 3478,
  "tics": 3479,
  "River": 3480,
  "ount": 3481,
  "https": 3482,
  "Association": 3483,
  "Galaxy": 3484,
  "Bay": 3485,
  "DAM": 3486,
  "M4": 3487,
  "QQ": 3488,
  "cl": 3489,
  "fin": 3490,
  "nga": 3491,
  "ties": 3492,
  "1835": 3493,
  "151": 3494,
  "tho": 3495,
  "タ": 3496,
  "ady": 3497,
  "219": 3498,
  "217": 3499,
  "338": 3500,
  "Cry": 3501,
  "FT": 3502,
  "JYP": 3503,
  "Rap": 3504,
  "SR": 3505,
  "Ubuntu": 3506,
  "WA": 3507,
  "fy": 3508,
  "lon": 3509,
  "shang": 3511,
  "‰": 3512,
  "tha": 3513,
  "Martin": 3514,
  "1804": 3515,
  "ONE": 3516,
  "CEO": 3517,
  "width": 3518,
  "470": 3519,
  "740": 3520,
  "830": 3521,
  "nt": 3522,
  "light": 3523,
  "form": 3524,
  "Tom": 3525,
  "Henry": 3526,
  "League": 3527,
  "YG": 3528,
  "dro": 3529,
  "well": 3530,
  "ς": 3531,
  "д": 3532,
  "Champi": 3534,
  "Master": 3535,
  "Gener": 3536,
  "Ear": 3537,
  "Fra": 3538,
  "LINE": 3539,
  "Phi": 3540,
  "Vil": 3541,
  "gà": 3542,
  "uni": 3543,
  "ν": 3544,
  "chel": 3545,
  "mus": 3546,
  "amer": 3547,
  "top": 3548,
  "ART": 3549,
  "Green": 3550,
  "ville": 3551,
  "212": 3552,
  "DK": 3553,
  "cti": 3554,
  "has": 3555,
  "nm": 3556,
  "у": 3557,
  "less": 3558,
  "1828": 3559,
  "コ": 3560,
  "oper": 3561,
  "APAN": 3562,
  "rown": 3563,
  "Dy": 3564,
  "Dou": 3565,
  "FR": 3566,
  "Mana": 3567,
  "Night": 3568,
  "Pin": 3569,
  "ag": 3570,
  "har": 3571,
  "oni": 3572,
  "191": 3573,
  "dit": 3574,
  "302": 3575,
  "table": 3576,
  "Billboard": 3577,
  "Office": 3578,
  "680": 3579,
  "Br": 3580,
  "Bal": 3581,
  "Jan": 3582,
  "MHz": 3583,
  "PI": 3584,
  "SNH": 3585,
  "ban": 3586,
  "bro": 3587,
  "kar": 3588,
  "ι": 3589,
  "181": 3590,
  "1624": 3591,
  "sts": 3592,
  "237": 3593,
  "side": 3594,
  "main": 3595,
  "る": 3596,
  "China": 3597,
  "Code": 3598,
  "Young": 3599,
  "cond": 3600,
  "Note": 3601,
  "Joseph": 3602,
  "SNH48": 3603,
  "Bir": 3604,
  "Des": 3605,
  "FDA": 3606,
  "JAPAN": 3607,
  "Ob": 3608,
  "PK": 3609,
  "1644": 3612,
  "308": 3613,
  "ston": 3614,
  "Stra": 3615,
  "COM": 3616,
  "tical": 3617,
  "Pala": 3618,
  "440": 3619,
  "DB": 3620,
  "GR": 3621,
  "Van": 3622,
  "hun": 3623,
  "tuí": 3624,
  "10000": 3625,
  "1837": 3626,
  "239": 3627,
  "than": 3628,
  "rick": 3629,
  "1806": 3630,
  "Long": 3631,
  "Song": 3632,
  "United": 3633,
  "Part": 3634,
  "macOS": 3635,
  "CV": 3636,
  "East": 3637,
  "MW": 3638,
  "U21": 3639,
  "â": 3640,
  "î": 3641,
  "δ": 3642,
  "1819": 3645,
  "299": 3646,
  "346": 3647,
  "HTML": 3648,
  "annel": 3649,
  "780": 3650,
  "Hill": 3651,
  "Tw": 3652,
  "Ten": 3653,
  "Talk": 3654,
  "jo": 3655,
  "port": 3656,
  "1825": 3657,
  "245": 3658,
  "236": 3659,
  "505": 3660,
  "279": 3661,
  "に": 3662,
  "Radio": 3663,
  "Digital": 3664,
  "540": 3665,
  "Down": 3666,
  "EV": 3667,
  "H5": 3668,
  "Ji": 3669,
  "rpm": 3670,
  "wn": 3671,
  "lic": 3672,
  "chòng": 3673,
  "sian": 3674,
  "ella": 3675,
  "News": 3676,
  "325": 3677,
  "Cat": 3678,
  "Pas": 3679,
  "001": 3680,
  "1776": 3681,
  "right": 3682,
  "じ": 3683,
  "long": 3684,
  "but": 3685,
  "dent": 3686,
  "NCAA": 3687,
  "Server": 3688,
  "FAT": 3689,
  "Sil": 3690,
  "1818": 3691,
  "265": 3692,
  "こ": 3693,
  "ned": 3694,
  "Que": 3695,
  "Hello": 3696,
  "Ban": 3697,
  "Bru": 3698,
  "Dri": 3699,
  "Nu": 3700,
  "Ven": 3701,
  "Wat": 3702,
  "1824": 3703,
  "1831": 3704,
  "2027": 3705,
  "Cho": 3706,
  "Hist": 3707,
  "Kong": 3708,
  "Em": 3709,
  "GS": 3710,
  "RPG": 3711,
  "pr": 3712,
  "ç": 3713,
  "ô": 3714,
  "tum": 3715,
  "med": 3716,
  "386": 3717,
  "Child": 3718,
  "Service": 3719,
  "Ⅱ": 3720,
  "UM": 3721,
  "bet": 3722,
  "hur": 3723,
  "sual": 3724,
  "rome": 3725,
  "via": 3726,
  "BSD": 3727,
  "Frank": 3728,
  "Island": 3729,
  "Python": 3730,
  "public": 3731,
  "Science": 3732,
  "1A": 3733,
  "Blue": 3734,
  "CW": 3735,
  "Fore": 3736,
  "XML": 3737,
  "clo": 3738,
  "λ": 3739,
  "275": 3740,
  "2700": 3741,
  "anda": 3742,
  "Youtube": 3743,
  "Jump": 3744,
  "Edward": 3745,
  "Under": 3746,
  "White": 3747,
  "312": 3748,
  "5G": 3749,
  "730": 3750,
  "Bor": 3751,
  "First": 3752,
  "Grand": 3753,
  "HL": 3754,
  "OM": 3755,
  "Poly": 3756,
  "TBS": 3757,
  "hāo": 3758,
  "nes": 3759,
  "rey": 3760,
  "264": 3761,
  "295": 3762,
  "1802": 3763,
  "BLUE": 3764,
  "Institute": 3765,
  "Champion": 3766,
  "630": 3767,
  "Hor": 3768,
  "Out": 3769,
  "Sum": 3770,
  "TM": 3771,
  "ben": 3772,
  "fun": 3773,
  "sus": 3774,
  "1822": 3775,
  "niē": 3776,
  "288": 3777,
  "ration": 3778,
  "ジ": 3779,
  "aka": 3780,
  "Envi": 3781,
  "Cas": 3782,
  "Lan": 3783,
  "Les": 3784,
  "Os": 3785,
  "other": 3786,
  "plo": 3787,
  "pop": 3788,
  "ل": 3789,
  "list": 3790,
  "lang": 3791,
  "ared": 3792,
  "244": 3793,
  "フ": 3794,
  "vate": 3795,
  "ITF": 3796,
  "2D": 3797,
  "Gro": 3798,
  "JT": 3799,
  "Sof": 3800,
  "cent": 3801,
  "em": 3802,
  "xel": 3803,
  "launch": 3804,
  "249": 3805,
  "903": 3806,
  "North": 3807,
  "Square": 3808,
  "OT": 3809,
  "PID": 3810,
  "Series": 3811,
  "ul": 3812,
  "zation": 3813,
  "š": 3814,
  "243": 3815,
  "2800": 3816,
  "Your": 3817,
  "Hong": 3818,
  "This": 3819,
  "Cup": 3820,
  "FX": 3821,
  "Lang": 3822,
  "NP": 3823,
  "__": 3824,
  "hr": 3825,
  "1810": 3826,
  "1622": 3827,
  "1792": 3828,
  "307": 3829,
  "return": 3830,
  "tas": 3831,
  "701": 3832,
  "SARS": 3833,
  "POP": 3834,
  "Techn": 3835,
  "960": 3836,
  "Cur": 3837,
  "Ham": 3838,
  "Ray": 3839,
  "Sig": 3840,
  "SHO": 3841,
  "VV": 3842,
  "ob": 3843,
  "pǎi": 3844,
  "vy": 3845,
  "ε": 3846,
  "1650": 3847,
  "801": 3848,
  "view": 3849,
  "Network": 3850,
  "MIUI": 3851,
  "burg": 3852,
  "Tunes": 3853,
  "2100": 3854,
  "Pal": 3855,
  "Ur": 3856,
  "part": 3857,
  "м": 3858,
  "1826": 3859,
  "anti": 3860,
  "1573": 3861,
  "oud": 3862,
  "ason": 3863,
  "cing": 3864,
  "have": 3865,
  "747": 3866,
  "Cle": 3867,
  "Jour": 3868,
  "imp": 3869,
  "tual": 3870,
  "1834": 3871,
  "304": 3872,
  "ould": 3873,
  "226": 3874,
  "278": 3875,
  "lta": 3876,
  "ミ": 3877,
  "も": 3878,
  "375": 3879,
  "add": 3880,
  "1805": 3881,
  "ACT": 3882,
  "APP": 3883,
  "AIR": 3884,
  "ologi": 3885,
  "Block": 3886,
  "HA": 3887,
  "Ly": 3888,
  "Yo": 3889,
  "hel": 3890,
  "ii": 3891,
  "rd": 3892,
  "chen": 3893,
  "007": 3894,
  "oro": 3895,
  "296": 3896,
  "298": 3897,
  "sig": 3898,
  "385": 3899,
  "ATA": 3900,
  "Model": 3901,
  "gain": 3902,
  "Dani": 3903,
  "Studi": 3904,
  "335": 3905,
  "590": 3906,
  "9000": 3907,
  "CU": 3908,
  "Now": 3909,
  "Ry": 3910,
  "Ram": 3911,
  "WN": 3912,
  "ml": 3913,
  "non": 3914,
  "oc": 3915,
  "ω": 3916,
  "ork": 3918,
  "1780": 3919,
  "ress": 3920,
  "227": 3921,
  "ム": 3922,
  "olf": 3923,
  "map": 3924,
  "May": 3925,
  "Real": 3926,
  "Sports": 3927,
  "dings": 3928,
  "IFA": 3929,
  "315": 3930,
  "Gil": 3931,
  "Jon": 3932,
  "Op": 3933,
  "Sc": 3934,
  "had": 3935,
  "iTunes": 3936,
  "ken": 3937,
  "»": 3938,
  "251": 3939,
  "ough": 3940,
  "277": 3941,
  "ato": 3942,
  "oney": 3943,
  "CNN": 3944,
  "2A": 3945,
  "Dar": 3946,
  "Gran": 3947,
  "Over": 3948,
  "Ren": 3949,
  "Rus": 3950,
  "RFC": 3951,
  "pH": 3952,
  "zine": 3953,
  "1582": 3954,
  "1799": 3955,
  "259": 3956,
  "246": 3957,
  "248": 3958,
  "1809": 3959,
  "Internet": 3960,
  "South": 3961,
  "Engine": 3962,
  "4G": 3963,
  "530": 3964,
  "C2": 3965,
  "DLC": 3966,
  "Sm": 3967,
  "gèn": 3968,
  "sǎng": 3969,
  "sin": 3970,
  "«": 3971,
  "lio": 3972,
  "1823": 3973,
  "ander": 3974,
  "1621": 3975,
  "272": 3976,
  "rum": 3977,
  "405": 3978,
  "ATION": 3979,
  "tware": 3980,
  "1803": 3981,
  "dae": 3982,
  "State": 3983,
  "stems": 3984,
  "EEE": 3985,
  "press": 3986,
  "334": 3987,
  "620": 3988,
  "770": 3989,
  "Class": 3990,
  "SG": 3991,
  "dition": 3992,
  "lution": 3993,
  "1625": 3994,
  "ges": 3995,
  "284": 3996,
  "285": 3997,
  "サ": 3998,
  "Auto": 3999,
  "Publi": 4000,
  "311": 4001,
  "880": 4002,
  "Dot": 4003,
  "Kh": 4004,
  "Sony": 4005,
  "VI": 4006,
  "É": 4007,
  "258": 4009,
  "276": 4010,
  "cur": 4011,
  "が": 4012,
  "Alf": 4013,
  "Mobile": 4014,
  "Bus": 4015,
  "KO": 4016,
  "Oper": 4017,
  "Sw": 4018,
  "Way": 4019,
  "XT": 4020,
  "pres": 4021,
  "253": 4023,
  "aly": 4024,
  "357": 4025,
  "num": 4026,
  "Maria": 4027,
  "Moon": 4028,
  "Wii": 4029,
  "Pier": 4030,
  "660": 4031,
  "Cli": 4032,
  "Get": 4033,
  "NM": 4034,
  "SV": 4035,
  "UL": 4036,
  "sm": 4037,
  "й": 4038,
  "dian": 4039,
  "プ": 4040,
  "cks": 4041,
  "STA": 4042,
  "IPv": 4043,
  "Unix": 4044,
  "What": 4045,
  "Europe": 4046,
  "570": 4047,
  "Cer": 4048,
  "U19": 4049,
  "WF": 4050,
  "ee": 4051,
  "mor": 4052,
  "г": 4053,
  "tuān": 4054,
  "1827": 4055,
  "1570": 4056,
  "あ": 4057,
  "gazine": 4058,
  "Beau": 4059,
  "Link": 4060,
  "velop": 4061,
  "Book": 4062,
  "Trans": 4063,
  "314": 4064,
  "3DS": 4065,
  "690": 4066,
  "Bre": 4067,
  "BBS": 4068,
  "C6": 4069,
  "DSM": 4070,
  "IEEE": 4071,
  "Men": 4072,
  "SB": 4073,
  "Sound": 4074,
  "WWE": 4075,
  "more": 4076,
  "1817": 4077,
  "1640": 4078,
  "1636": 4079,
  "268": 4080,
  "402": 4081,
  "404": 4082,
  "は": 4083,
  "Regi": 4084,
  "Rain": 4085,
  "which": 4086,
  "AX": 4087,
  "Gri": 4088,
  "blo": 4089,
  "ini": 4090,
  "nor": 4091,
  "nger": 4092,
  "laris": 4093,
  "1775": 4094,
  "254": 4095,
  "ters": 4096,
  "465": 4097,
  "Medi": 4098,
  "Die": 4099,
  "Tik": 4100,
  "Francis": 4101,
  "Commu": 4102,
  "323": 4103,
  "Ath": 4104,
  "Cir": 4105,
  "HP": 4106,
  "OP": 4107,
  "kāo": 4108,
  "1750": 4109,
  "309": 4110,
  "oom": 4111,
  "ople": 4112,
  "Joy": 4113,
  "fic": 4114,
  "329": 4115,
  "670": 4116,
  "Dol": 4117,
  "End": 4118,
  "Plus": 4119,
  "bon": 4120,
  "pur": 4121,
  "shing": 4122,
  "guāi": 4123,
  "1816": 4124,
  "pin": 4125,
  "lai": 4126,
  "fore": 4127,
  "チ": 4128,
  "ィ": 4129,
  "4500": 4130,
  "Channel": 4131,
  "cast": 4132,
  "ings": 4133,
  "CON": 4134,
  "peri": 4135,
  "TOP": 4136,
  "Cube": 4137,
  "Louis": 4138,
  ".-": 4139,
  "710": 4140,
  "910": 4141,
  "950": 4142,
  "DI": 4143,
  "Imp": 4144,
  "Lit": 4145,
  "MK": 4146,
  "Tro": 4147,
  "ome": 4148,
  "dea": 4149,
  "pital": 4150,
  "lam": 4151,
  "arr": 4152,
  "241": 4153,
  "2300": 4154,
  "Research": 4155,
  "ISBN": 4156,
  "field": 4157,
  "Poli": 4158,
  "Film": 4159,
  "tvN": 4160,
  "326": 4161,
  "Asia": 4162,
  "Bou": 4163,
  "Cam": 4164,
  "Clo": 4165,
  "PT": 4166,
  "T2": 4167,
  "ice": 4168,
  "rch": 4169,
  "try": 4170,
  "1592": 4172,
  "347": 4173,
  "758": 4174,
  "Stand": 4175,
  "model": 4176,
  "Ara": 4177,
  "Bon": 4178,
  "DT": 4179,
  "Lis": 4180,
  "1628": 4181,
  "1788": 4182,
  "252": 4183,
  "242": 4184,
  "269": 4185,
  "ニ": 4186,
  "andy": 4187,
  "Leon": 4188,
  "Victor": 4189,
  "Law": 4190,
  "ffer": 4191,
  "fea": 4192,
  "tural": 4193,
  "318": 4194,
  "336": 4195,
  "978": 4196,
  "Ado": 4197,
  "CB": 4198,
  "DL": 4199,
  "Den": 4200,
  "Festi": 4201,
  "Jen": 4202,
  "Mal": 4203,
  "MUS": 4204,
  "N2": 4205,
  "O3": 4206,
  "Tan": 4207,
  "Tre": 4208,
  "char": 4210,
  "biē": 4211,
  "1627": 4212,
  "1783": 4213,
  "1791": 4214,
  "alth": 4215,
  "289": 4216,
  "ros": 4217,
  "406": 4218,
  "ced": 4219,
  "354": 4220,
  "INN": 4221,
  "Comm": 4222,
  "Stan": 4223,
  "app": 4224,
  "Vista": 4225,
  "gic": 4226,
  "Pixel": 4227,
  "Disney": 4228,
  "□": 4229,
  "Acade": 4230,
  "Cour": 4231,
  "EL": 4232,
  "F4": 4233,
  "IB": 4234,
  "LAN": 4235,
  "LTE": 4236,
  "OF": 4237,
  "ich": 4238,
  "pā": 4239,
  "tre": 4240,
  "1797": 4241,
  "［": 4242,
  "］": 4243,
  "Mach": 4244,
  "556": 4245,
  "Beat": 4246,
  "aker": 4247,
  "Software": 4248,
  "Ange": 4249,
  "DMS": 4250,
  "TH": 4251,
  "his": 4252,
  "nǎn": 4253,
  "1779": 4254,
  "1796": 4255,
  "test": 4256,
  "607": 4257,
  "つ": 4258,
  "だ": 4259,
  "352": 4260,
  "Mary": 4261,
  "1808": 4262,
  "ERT": 4263,
  "km2": 4264,
  "Nico": 4265,
  "NCT": 4266,
  "Alice": 4267,
  "⋯": 4268,
  "321": 4269,
  "337": 4270,
  "A4": 4271,
  "Ami": 4272,
  "Sor": 4273,
  "T3": 4274,
  "cs": 4275,
  "gis": 4276,
  "ung": 4277,
  "huàng": 4278,
  "tude": 4279,
  "1829": 4280,
  "1778": 4281,
  "1794": 4282,
  "283": 4283,
  "273": 4284,
  "ャ": 4285,
  "バ": 4286,
  "エ": 4287,
  "cky": 4288,
  "Visual": 4289,
  "inese": 4290,
  "YouTuber": 4291,
  "ASC": 4292,
  "Works": 4293,
  "Elect": 4294,
  "Battle": 4295,
  "313": 4296,
  "510": 4297,
  "840": 4298,
  "860": 4299,
  "Foot": 4300,
  "Mnet": 4301,
  "Pho": 4302,
  "llo": 4303,
  "pat": 4304,
  "vet": 4305,
  "vance": 4306,
  "ñ": 4307,
  "θ": 4308,
  "shuǎi": 4309,
  "nica": 4310,
  "night": 4311,
  "1798": 4312,
  "formation": 4313,
  "て": 4314,
  "456": 4315,
  "372": 4316,
  "Johan": 4317,
  "ECT": 4318,
  "system": 4319,
  "Special": 4320,
  "Awards": 4321,
  "448": 4322,
  "870": 4323,
  "Blu": 4324,
  "MF": 4325,
  "Pay": 4326,
  "io": 4327,
  "ror": 4328,
  "sca": 4329,
  "1580": 4330,
  "1612": 4331,
  "1634": 4332,
  "1787": 4333,
  "281": 4334,
  "267": 4335,
  "デ": 4336,
  "mad": 4337,
  "っ": 4338,
  "ウ": 4339,
  "nus": 4340,
  "lost": 4341,
  "mmy": 4342,
  "web": 4343,
  "Premi": 4344,
  "Royal": 4345,
  "Global": 4346,
  "911": 4347,
  "DG": 4348,
  "Fro": 4349,
  "Mis": 4350,
  "Oli": 4351,
  "Set": 4352,
  "TN": 4353,
  "WO": 4354,
  "dor": 4355,
  "ev": 4356,
  "fla": 4357,
  "shǎi": 4359,
  "hus": 4360,
  "mina": 4361,
  "1567": 4362,
  "1648": 4363,
  "alle": 4364,
  "271": 4365,
  "tech": 4366,
  "ltra": 4367,
  "Arts": 4368,
  "ffe": 4369,
  "BOX": 4370,
  "Enviro": 4371,
  "AH": 4372,
  "E3": 4373,
  "Lam": 4374,
  "MM": 4375,
  "Mur": 4376,
  "York": 4377,
  "sor": 4378,
  "chuō": 4379,
  "262": 4380,
  "tai": 4381,
  "367": 4382,
  "vest": 4383,
  "pedia": 4384,
  "OSHI": 4385,
  "Prof": 4386,
  "const": 4387,
  "ACE": 4388,
  "ENT": 4389,
  "AGA": 4390,
  "Great": 4391,
  "TikTok": 4392,
  "-&": 4393,
  "322": 4394,
  "Ah": 4395,
  "MON": 4396,
  "Not": 4397,
  "OTT": 4398,
  "Spo": 4399,
  "VB": 4400,
  "bian": 4401,
  "1550": 4402,
  "1568": 4403,
  "ont": 4404,
  "1615": 4405,
  "1630": 4406,
  "286": 4407,
  "ブ": 4408,
  "Magazine": 4409,
  "vern": 4410,
  "CH3": 4411,
  "Compu": 4412,
  "Museum": 4413,
  "Daniel": 4414,
  "Festival": 4415,
  "Brown": 4416,
  "Cru": 4417,
  "CAS": 4418,
  "Dark": 4419,
  "FBI": 4420,
  "LG": 4421,
  "Sau": 4422,
  "SIG": 4423,
  "USA": 4424,
  "stu": 4425,
  "piē": 4426,
  "1645": 4427,
  "1646": 4428,
  "read": 4429,
  "zháo": 4430,
  "キ": 4431,
  "333": 4432,
  "COLL": 4433,
  "ARD": 4434,
  "Secre": 4435,
  "stein": 4436,
  "Encore": 4437,
  "tures": 4438,
  "world": 4439,
  "Online": 4440,
  "Cloud": 4441,
  "MUSIC": 4442,
  "Hun": 4443,
  "Lar": 4444,
  "Let": 4445,
  "cas": 4446,
  "over": 4447,
  "tan": 4448,
  "ر": 4449,
  "1626": 4450,
  "stal": 4451,
  "261": 4452,
  "297": 4453,
  "355": 4454,
  "Chinese": 4455,
  "stea": 4456,
  "Kim": 4457,
  "328": 4458,
  "820": 4459,
  "Gor": 4460,
  "Has": 4461,
  "PRO": 4462,
  "S2": 4463,
  "Tou": 4464,
  "gal": 4465,
  "oli": 4466,
  "sǒu": 4467,
  "sco": 4468,
  "ques": 4469,
  "1637": 4470,
  "2400": 4471,
  "705": 4472,
  "901": 4473,
  "364": 4474,
  "384": 4475,
  "378": 4476,
  "vey": 4477,
  "442": 4478,
  "hai": 4479,
  "cono": 4480,
  "Point": 4481,
  "VIDIA": 4482,
  "General": 4483,
  "618": 4484,
  "AU": 4485,
  "CBC": 4486,
  "HB": 4487,
  "NVIDIA": 4488,
  "T48": 4489,
  "ale": 4490,
  "tr": 4491,
  "С": 4492,
  "ы": 4493,
  "1610": 4494,
  "1642": 4495,
  "257": 4496,
  "282": 4497,
  "thing": 4498,
  "2600": 4499,
  "Mad": 4500,
  "Stadium": 4501,
  "1609": 4502,
  "ality": 4503,
  "stern": 4504,
  "Exp": 4505,
  "God": 4506,
  "Redmi": 4507,
  "Year": 4508,
  "Adobe": 4509,
  "760": 4510,
  "767": 4511,
  "CAN": 4512,
  "Gol": 4513,
  "Il": 4514,
  "O4": 4515,
  "Ome": 4516,
  "U17": 4517,
  "VC": 4518,
  "bas": 4519,
  "bps": 4520,
  "jor": 4521,
  "sk": 4522,
  "sche": 4523,
  "ь": 4524,
  "deon": 4525,
  "nior": 4526,
  "1585": 4527,
  "1583": 4528,
  "hèng": 4529,
  "や": 4530,
  "583": 4531,
  "ctory": 4532,
  "1807": 4533,
  "ARM": 4534,
  "TeX": 4535,
  "wiki": 4536,
  "thern": 4537,
  "Systems": 4538,
  "poration": 4539,
  "930": 4540,
  "Del": 4541,
  "FIFA": 4542,
  "JU": 4543,
  "KE": 4544,
  "OD": 4545,
  "Town": 4546,
  "Thun": 4547,
  "Who": 4548,
  "cto": 4549,
  "dou": 4550,
  "1623": 4551,
  "gel": 4552,
  "274": 4553,
  "size": 4554,
  "Anto": 4555,
  "Wiki": 4556,
  "﹑": 4557,
  "H2O": 4558,
  "trol": 4559,
  "Taiwan": 4560,
  "EOS": 4561,
  "FIN": 4562,
  "Ima": 4563,
  "IEC": 4564,
  "Kin": 4565,
  "Kid": 4566,
  "Tar": 4567,
  "Won": 4568,
  "ah": 4569,
  "cat": 4570,
  "esta": 4571,
  "ket": 4572,
  "tina": 4573,
  "1571": 4574,
  "1784": 4575,
  "263": 4576,
  "509": 4577,
  "293": 4578,
  "351": 4579,
  "osaurus": 4580,
  "999": 4581,
  "Deep": 4582,
  "mod": 4583,
  "value": 4584,
  "Archi": 4585,
  "Cast": 4586,
  "2200": 4587,
  "428": 4588,
  "AJ": 4589,
  "GUN": 4590,
  "Tay": 4591,
  "xx": 4592,
  "1620": 4593,
  "1723": 4594,
  "1786": 4595,
  "inte": 4596,
  "stre": 4597,
  "504": 4598,
  "lton": 4599,
  "ュ": 4600,
  "353": 4601,
  "395": 4602,
  "beth": 4603,
  "Solaris": 4604,
  "Post": 4605,
  "private": 4606,
  "Metro": 4607,
  "clol": 4608,
  "Manage": 4609,
  "DotA": 4610,
  "419": 4611,
  "432": 4612,
  "A3": 4613,
  "FN": 4614,
  "Fly": 4615,
  "GL": 4616,
  "Hap": 4617,
  "Ron": 4618,
  "bb": 4619,
  "cci": 4620,
  "card": 4621,
  "ctive": 4622,
  "pra": 4623,
  "1450": 4625,
  "curi": 4626,
  "す": 4627,
  "Chan": 4628,
  "vers": 4629,
  "Mike": 4630,
  "ource": 4631,
  "Key": 4632,
  "LOVE": 4633,
  "Market": 4634,
  "Studios": 4635,
  "Little": 4636,
  "427": 4637,
  "Band": 4638,
  "Cine": 4639,
  "FE": 4640,
  "HIV": 4641,
  "K6": 4642,
  "Line": 4643,
  "Rou": 4644,
  "VPN": 4645,
  "zè": 4646,
  "č": 4647,
  "like": 4648,
  "zilla": 4649,
  "1577": 4650,
  "1618": 4651,
  "1643": 4652,
  "rop": 4653,
  "sey": 4654,
  "387": 4655,
  "399": 4656,
  "cts": 4657,
  "ellow": 4658,
  "ountain": 4659,
  "Fleet": 4660,
  "Technology": 4661,
  "317": 4662,
  "331": 4663,
  "345": 4664,
  "512": 4665,
  "565": 4666,
  "H1": 4667,
  "MY": 4668,
  "R2": 4669,
  "S1": 4670,
  "U18": 4671,
  "USS": 4672,
  "Ultra": 4673,
  "bes": 4674,
  "gg": 4675,
  "lū": 4676,
  "я": 4677,
  "1586": 4678,
  "lau": 4679,
  "1777": 4680,
  "1453": 4681,
  "into": 4682,
  "sty": 4683,
  "stan": 4684,
  "sit": 4685,
  "806": 4686,
  "base": 4687,
  "CDMA": 4688,
  "Stage": 4689,
  "Radeon": 4690,
  "aki": 4691,
  "Union": 4692,
  "ALL": 4693,
  "Valve": 4694,
  "Children": 4695,
  "Secret": 4696,
  "327": 4697,
  "411": 4698,
  "490": 4699,
  "445": 4700,
  "446": 4701,
  "535": 4702,
  "Alt": 4703,
  "Aven": 4704,
  "FI": 4705,
  "Found": 4706,
  "Land": 4707,
  "Mid": 4708,
  "M87": 4709,
  "U23": 4710,
  "Will": 4711,
  "WOR": 4712,
  "ola": 4713,
  "rstea": 4714,
  "yer": 4715,
  "ê": 4716,
  "cht": 4717,
  "endo": 4718,
  "1521": 4719,
  "1765": 4720,
  "1774": 4721,
  "sible": 4722,
  "cel": 4723,
  "second": 4724,
  "398": 4725,
  "499": 4726,
  "ook": 4727,
  "Para": 4728,
  "With": 4729,
  "Junior": 4730,
  "Adam": 4731,
  "BMW": 4732,
  "mond": 4733,
  "Fried": 4734,
  "Centre": 4735,
  "where": 4736,
  "Philip": 4737,
  "Academy": 4738,
  "416": 4739,
  "Crea": 4740,
  "EMI": 4741,
  "HTC": 4742,
  "KB": 4743,
  "Sche": 4744,
  "Soft": 4745,
  "TW": 4746,
  "bat": 4747,
  "rent": 4748,
  "mia": 4749,
  "1616": 4750,
  "cul": 4751,
  "707": 4752,
  "ily": 4753,
  "teri": 4754,
  "369": 4755,
  "397": 4756,
  "Mau": 4757,
  "verse": 4758,
  "Joe": 4759,
  "States": 4760,
  "Multi": 4761,
  "Wire": 4762,
  "Niko": 4763,
  "GPU": 4764,
  "bility": 4765,
  "Omega": 4766,
  "613": 4767,
  "Ari": 4768,
  "Cou": 4769,
  "NR": 4770,
  "Port": 4771,
  "WI": 4772,
  "ZA": 4773,
  "hau": 4774,
  "house": 4775,
  "pes": 4776,
  "η": 4777,
  "Δ": 4778,
  "А": 4779,
  "live": 4780,
  "1564": 4781,
  "1785": 4782,
  "368": 4783,
  "lot": 4784,
  "TVBS": 4785,
  "Mem": 4786,
  "Next": 4787,
  "Hea": 4788,
  "some": 4789,
  "Fire": 4790,
  "MySQL": 4791,
  "void": 4792,
  "Origin": 4793,
  "Amazon": 4794,
  "3C": 4795,
  "810": 4796,
  "BT": 4797,
  "Hon": 4798,
  "Jr": 4799,
  "Run": 4800,
  "Sti": 4801,
  "hl": 4802,
  "m3": 4803,
  "Д": 4804,
  "1662": 4805,
  "266": 4806,
  "291": 4807,
  "sist": 4808,
  "elle": 4809,
  "head": 4810,
  "588": 4811,
  "osa": 4812,
  "Distri": 4813,
  "Sub": 4814,
  "rough": 4815,
  "Base": 4816,
  "MOD": 4817,
  "volution": 4818,
  "chie": 4819,
  "Corporation": 4820,
  "M1A1": 4821,
  "ference": 4822,
  "mission": 4823,
  "velopment": 4824,
  "GUNDAM": 4825,
  "316": 4826,
  "537": 4827,
  "621": 4828,
  "742": 4829,
  "CI": 4830,
  "E48": 4831,
  "Eric": 4832,
  "Fo": 4833,
  "Fal": 4834,
  "Sin": 4835,
  "TI": 4836,
  "Wel": 4837,
  "ë": 4838,
  "ن": 4839,
  "anna": 4840,
  "1540": 4841,
  "1574": 4842,
  "1772": 4843,
  "std": 4844,
  "287": 4845,
  "tee": 4846,
  "605": 4847,
  "454": 4848,
  "388": 4849,
  "343": 4850,
  "open": 4851,
  "888": 4852,
  "Sund": 4853,
  "point": 4854,
  "Draw": 4855,
  "Church": 4856,
  "Alexander": 4857,
  "Cross": 4858,
  "Management": 4859,
  "425": 4860,
  "475": 4861,
  "Lady": 4862,
  "ND": 4863,
  "Other": 4864,
  "SW": 4865,
  "Sar": 4866,
  "cted": 4867,
  "káng": 4868,
  "kan": 4869,
  "vat": 4870,
  "were": 4871,
  "jia": 4872,
  "1250": 4873,
  "nico": 4874,
  "1619": 4875,
  "1629": 4876,
  "1683": 4877,
  "292": 4878,
  "363": 4879,
  "376": 4880,
  "STS": 4881,
  "552": 4882,
  "686": 4883,
  "ign": 4884,
  "Demo": 4885,
  "Arc": 4886,
  "Augu": 4887,
  "Cyclol": 4888,
  "London": 4889,
  "Scott": 4890,
  "627": 4891,
  "Bad": 4892,
  "BRT": 4893,
  "Der": 4894,
  "Dun": 4895,
  "FL": 4896,
  "Ir": 4897,
  "Kir": 4898,
  "MX": 4899,
  "Ora": 4900,
  "Sto": 4901,
  "Sara": 4902,
  "Tony": 4903,
  "hard": 4904,
  "tru": 4905,
  "б": 4906,
  "tish": 4907,
  "ally": 4908,
  "＂": 4909,
  "matic": 4910,
  "488": 4911,
  "ida": 4912,
  "Design": 4913,
  "phen": 4914,
  "Spot": 4915,
  "Spring": 4916,
  "Andrew": 4917,
  "449": 4919,
  "5A": 4920,
  "625": 4921,
  "738": 4922,
  "Fron": 4923,
  "HER": 4924,
  "Of": 4925,
  "PB": 4926,
  "Round": 4927,
  "VER": 4928,
  "ire": 4929,
  "und": 4930,
  "К": 4931,
  "shared": 4932,
  "1590": 4933,
  "1579": 4934,
  "1633": 4935,
  "ナ": 4936,
  "グ": 4937,
  "1507": 4938,
  "Beta": 4939,
  "Lake": 4940,
  "Simon": 4941,
  "CH2": 4942,
  "Cul": 4943,
  "Syn": 4944,
  "Animax": 4945,
  "Earth": 4946,
  "412": 4947,
  "Fort": 4948,
  "LF": 4949,
  "LM": 4950,
  "Sol": 4951,
  "Sca": 4952,
  "SON": 4953,
  "V8": 4954,
  "coun": 4955,
  "hāng": 4956,
  "tto": 4957,
  "п": 4958,
  "mir": 4960,
  "mix": 4961,
  "1631": 4962,
  "1680": 4963,
  "1773": 4964,
  "294": 4965,
  "407": 4966,
  "mate": 4967,
  "れ": 4968,
  "body": 4969,
  "396": 4970,
  "3300": 4971,
  "mple": 4972,
  "Sea": 4973,
  "1604": 4974,
  "Ander": 4975,
  "Party": 4976,
  "Hami": 4977,
  "Family": 4978,
  "PGA": 4979,
  "Angel": 4980,
  "Drive": 4981,
  "Journal": 4982,
  "980": 4983,
  "Ap": 4984,
  "Are": 4985,
  "C4": 4986,
  "Fold": 4987,
  "GC": 4988,
  "LR": 4989,
  "Pol": 4990,
  "cen": 4991,
  "nan": 4992,
  "ć": 4993,
  "ə": 4994,
  "nical": 4995,
  "1575": 4996,
  "1697": 4997,
  "1755": 4998,
  "1492": 4999,
  "sive": 5000,
  "cum": 5001,
  "805": 5002,
  "3600": 5003,
  "asa": 5004,
  "467": 5005,
  "471": 5006,
  "Def": 5007,
  "Neo": 5008,
  "mics": 5009,
  "﹐": 5010,
  "SKE48": 5011,
  "Dyna": 5012,
  "Summer": 5013,
  "Thunder": 5014,
  "0x": 5015,
  "319": 5016,
  "Epic": 5017,
  "Hal": 5018,
  "J2": 5019,
  "Kel": 5020,
  "Nar": 5021,
  "Swe": 5022,
  "XC": 5023,
  "fb": 5024,
  "hoo": 5025,
  "pan": 5026,
  "zen": 5027,
  "chy": 5028,
  "lion": 5029,
  "orig": 5030,
  "1561": 5031,
  "1589": 5032,
  "1595": 5033,
  "1781": 5034,
  "1465": 5035,
  "alan": 5036,
  "508": 5037,
  "テ": 5038,
  "ひ": 5039,
  "344": 5040,
  "589": 5041,
  "oph": 5042,
  "1603": 5043,
  "1606": 5044,
  "1607": 5045,
  "CNBLUE": 5046,
  "Ruby": 5047,
  "Council": 5048,
  "Christian": 5049,
  "print": 5050,
  "415": 5051,
  "855": 5052,
  "940": 5053,
  "970": 5054,
  "Cre": 5055,
  "Clar": 5056,
  "Kat": 5057,
  "Med": 5058,
  "Miss": 5059,
  "kes": 5060,
  "pos": 5061,
  "uage": 5062,
  "x86": 5063,
  "ø": 5064,
  "Å": 5065,
  "ß": 5066,
  "lina": 5068,
  "nio": 5069,
  "1522": 5070,
  "1526": 5071,
  "1556": 5072,
  "1613": 5073,
  "1660": 5074,
  "502": 5075,
  "506": 5076,
  "ダ": 5077,
  "tera": 5078,
  "377": 5079,
  "tos": 5080,
  "478": 5081,
  "554": 5082,
  "ample": 5083,
  "Mari": 5084,
  "Alli": 5085,
  "sport": 5086,
  "mercial": 5087,
  "TOUR": 5088,
  "Williams": 5089,
  "cations": 5090,
  "Hyper": 5091,
  "이": 5092,
  "☆": 5093,
  "Angela": 5094,
  "Football": 5095,
  "417": 5096,
  "525": 5097,
  "920": 5098,
  "925": 5099,
  "After": 5100,
  "Hit": 5101,
  "LU": 5102,
  "UK": 5103,
  "URI": 5104,
  "ite": 5105,
  "lle": 5106,
  "ud": 5107,
  "م": 5108,
  "sure": 5109,
  "1525": 5110,
  "1591": 5111,
  "1667": 5112,
  "indu": 5113,
  "chèng": 5114,
  "ronic": 5115,
  "408": 5116,
  "485": 5117,
  "643": 5118,
  "ado": 5119,
  "baby": 5120,
  "ophi": 5121,
  "AMO": 5122,
  "Back": 5123,
  "Fiesta": 5124,
  "Steve": 5125,
  "Qua": 5126,
  "Rue": 5127,
  "put": 5128,
  "Advance": 5129,
  "DOHC": 5130,
  "America": 5131,
  "324": 5132,
  "422": 5133,
  "515": 5134,
  "538": 5135,
  "534": 5136,
  "Kit": 5137,
  "Pap": 5138,
  "QS": 5139,
  "S4": 5140,
  "VT": 5141,
  "Vel": 5142,
  "Water": 5143,
  "hen": 5144,
  "mRNA": 5145,
  "who": 5146,
  "zzo": 5147,
  "lish": 5149,
  "tine": 5150,
  "1510": 5151,
  "1638": 5152,
  "1730": 5153,
  "media": 5154,
  "パ": 5155,
  "ette": 5156,
  "342": 5157,
  "393": 5158,
  "479": 5159,
  "mph": 5160,
  "Story": 5161,
  "1508": 5162,
  "Vita": 5163,
  "Mozilla": 5164,
  "Last": 5165,
  "HKT48": 5166,
  "lassic": 5167,
  "Bern": 5168,
  "Walter": 5169,
  "Soul": 5170,
  "Surface": 5171,
  "Foundation": 5172,
  "3200": 5173,
  "531": 5174,
  "546": 5175,
  "EG": 5176,
  "GHz": 5177,
  "ITV": 5178,
  "Jer": 5179,
  "Jane": 5180,
  "Mes": 5181,
  "MBA": 5182,
  "NI": 5183,
  "Sen": 5184,
  "Son": 5185,
  "TG": 5186,
  "VS": 5187,
  "bles": 5188,
  "iPS": 5189,
  "kW": 5190,
  "pal": 5191,
  "2028": 5192,
  "1543": 5193,
  "1457": 5194,
  "come": 5195,
  "366": 5196,
  "381": 5197,
  "392": 5198,
  "Indu": 5199,
  "Arti": 5200,
  "Buil": 5201,
  "History": 5202,
  "1st": 5203,
  "413": 5204,
  "426": 5205,
  "Ai": 5206,
  "Edu": 5207,
  "F3": 5208,
  "GPS": 5209,
  "LZ": 5210,
  "Light": 5211,
  "Mos": 5212,
  "U20": 5213,
  "Wnt": 5214,
  "cla": 5215,
  "down": 5216,
  "mol": 5217,
  "yl": 5218,
  "zǎn": 5219,
  "zar": 5220,
  "ي": 5221,
  "1565": 5222,
  "1559": 5223,
  "1587": 5224,
  "1597": 5225,
  "†": 5226,
  "1635": 5227,
  "1688": 5228,
  "1733": 5229,
  "1782": 5230,
  "also": 5231,
  "stry": 5232,
  "tex": 5233,
  "606": 5234,
  "ollow": 5235,
  "け": 5236,
  "373": 5237,
  "Albert": 5238,
  "Times": 5239,
  "lent": 5240,
  "Johnson": 5241,
  "Final": 5242,
  "524": 5243,
  "612": 5244,
  "890": 5245,
  "Ash": 5246,
  "By": 5247,
  "FS": 5248,
  "Jim": 5249,
  "Tol": 5250,
  "UD": 5251,
  "bs": 5252,
  "est": 5253,
  "ov": 5254,
  "score": 5255,
  "£": 5256,
  "П": 5257,
  "ч": 5258,
  "1588": 5259,
  "1598": 5260,
  "507": 5261,
  "cell": 5262,
  "amo": 5263,
  "thew": 5264,
  "641": 5265,
  "495": 5266,
  "682": 5267,
  "Rep": 5268,
  "666": 5269,
  "Rod": 5270,
  "Rose": 5271,
  "Vio": 5272,
  "Pod": 5273,
  "Austra": 5274,
  "Mont": 5275,
  "Brian": 5276,
  "CLA": 5277,
  "Place": 5278,
  "Telegram": 5279,
  "trans": 5280,
  "Pierre": 5281,
  "332": 5282,
  "4A": 5283,
  "4K": 5284,
  "435": 5285,
  "575": 5286,
  "790": 5287,
  "Ale": 5288,
  "Bet": 5289,
  "Fl": 5290,
  "Mus": 5291,
  "TMA": 5292,
  "ate": 5293,
  "plan": 5294,
  "sky": 5295,
  "tiè": 5296,
  "tial": 5297,
  "ents": 5298,
  "1523": 5299,
  "1535": 5300,
  "1649": 5301,
  "1661": 5302,
  "1770": 5303,
  "1499": 5304,
  "then": 5305,
  "ガ": 5306,
  "わ": 5307,
  "361": 5308,
  "number": 5309,
  "466": 5310,
  "391": 5311,
  "....": 5312,
  "551": 5313,
  "vices": 5314,
  "Moder": 5315,
  "1601": 5316,
  "Sho": 5317,
  "gio": 5318,
  "PCI": 5319,
  "Tim": 5320,
  "Hotel": 5321,
  "TOK": 5322,
  "AcFun": 5323,
  "Flash": 5324,
  "place": 5325,
  "craft": 5326,
  "Wonder": 5327,
  "528": 5328,
  "5500": 5329,
  "990": 5330,
  "Bang": 5331,
  "Bell": 5332,
  "Hard": 5333,
  "HTT": 5334,
  "Sma": 5335,
  "Smo": 5336,
  "Than": 5337,
  "ey": 5338,
  "fis": 5339,
  "gni": 5340,
  "shuàn": 5341,
  "mine": 5342,
  "1511": 5343,
  "1760": 5344,
  "1769": 5345,
  "rit": 5346,
  "358": 5347,
  "cos": 5348,
  "371": 5349,
  "469": 5350,
  "itz": 5351,
  "684": 5352,
  "587": 5353,
  "View": 5354,
  "ppm": 5355,
  "But": 5356,
  "SMAP": 5357,
  "Geo": 5358,
  "Edge": 5359,
  "tribu": 5360,
  "Explor": 5361,
  "Golden": 5362,
  "548": 5363,
  "AW": 5364,
  "Bil": 5365,
  "Lor": 5366,
  "Mir": 5367,
  "MAC": 5368,
  "Shan": 5369,
  "air": 5370,
  "even": 5371,
  "para": 5372,
  "vor": 5373,
  "tiǎn": 5374,
  "20000": 5375,
  "1080": 5376,
  "15000": 5377,
  "1576": 5378,
  "1594": 5379,
  "1689": 5380,
  "362": 5381,
  "383": 5382,
  "TCP": 5383,
  "341": 5384,
  "NASL": 5385,
  "Program": 5386,
  "Bey": 5387,
  "Some": 5388,
  "Siri": 5389,
  "Qui": 5390,
  "Bridge": 5391,
  "active": 5392,
  "European": 5393,
  "vernment": 5394,
  "921": 5395,
  "Dance": 5396,
  "Gun": 5397,
  "L1": 5398,
  "MR": 5399,
  "Mind": 5400,
  "MMC": 5401,
  "NEX": 5402,
  "RB": 5403,
  "TF": 5404,
  "UFO": 5405,
  "VF": 5406,
  "Var": 5407,
  "bow": 5408,
  "kins": 5409,
  "ráng": 5410,
  "uts": 5411,
  "hòng": 5413,
  "huo": 5414,
  "chěng": 5415,
  "left": 5416,
  "tica": 5417,
  "mid": 5418,
  "1811": 5419,
  "1517": 5420,
  "1514": 5421,
  "1578": 5422,
  "1552": 5423,
  "―": 5424,
  "1639": 5425,
  "1684": 5426,
  "608": 5427,
  "master": 5428,
  "349": 5429,
  "Mai": 5430,
  "644": 5431,
  "557": 5432,
  "vie": 5433,
  "ird": 5434,
  "585": 5435,
  "597": 5436,
  "Development": 5437,
  "Mod": 5438,
  "Test": 5439,
  "Seven": 5440,
  "Raw": 5441,
  "Week": 5442,
  "Firef": 5443,
  "Just": 5444,
  "kov": 5445,
  "Matthew": 5446,
  "template": 5447,
  "Eliza": 5448,
  "Common": 5449,
  "scope": 5450,
  "Taylor": 5451,
  "curity": 5452,
  "348": 5453,
  "436": 5454,
  "549": 5455,
  "AST": 5456,
  "Bai": 5457,
  "Brand": 5458,
  "DNS": 5459,
  "Fred": 5460,
  "Jam": 5461,
  "Kon": 5462,
  "Mitch": 5463,
  "Pres": 5464,
  "RN": 5465,
  "Ret": 5466,
  "bum": 5467,
  "ea": 5468,
  "ext": 5469,
  "ovan": 5470,
  "pl": 5471,
  "tio": 5472,
  "ering": 5473,
  "1763": 5474,
  "1350": 5475,
  "iness": 5476,
  "＋": 5477,
  "sie": 5478,
  "403": 5479,
  "cept": 5480,
  "cuó": 5481,
  "sell": 5482,
  "mani": 5483,
  "908": 5484,
  "ession": 5485,
  "6500": 5486,
  "case": 5487,
  "1505": 5488,
  "ardo": 5489,
  "tour": 5490,
  "777": 5491,
  "Marie": 5492,
  "anger": 5493,
  "fied": 5494,
  "fication": 5495,
  "Pack": 5496,
  "worth": 5497,
  "Santa": 5498,
  "MG42": 5499,
  "Christop": 5500,
  "Villa": 5501,
  "547": 5502,
  "567": 5503,
  "668": 5504,
  "C5": 5505,
  "FAN": 5506,
  "Mountain": 5507,
  "NK": 5508,
  "Rol": 5509,
  "T4": 5510,
  "YOSHI": 5511,
  "bla": 5512,
  "sào": 5513,
  "³": 5514,
  "і": 5515,
  "1050": 5516,
  "1614": 5517,
  "1720": 5518,
  "374": 5519,
  "494": 5520,
  "CoV": 5521,
  "IDE": 5522,
  "IPS": 5523,
  "PSP": 5524,
  "thers": 5525,
  "Work": 5526,
  "UNIX": 5527,
  "People": 5528,
  "Commit": 5529,
  "Ⅰ": 5530,
  "Karl": 5531,
  "Frame": 5532,
  "IPv4": 5533,
  "Explorer": 5534,
  "514": 5535,
  "522": 5536,
  "545": 5537,
  "568": 5538,
  "619": 5539,
  "675": 5540,
  "Bau": 5541,
  "CSS": 5542,
  "D1": 5543,
  "EBU": 5544,
  "KT": 5545,
  "Kw": 5546,
  "Oh": 5547,
  "Shu": 5548,
  "Za": 5549,
  "né": 5550,
  "spi": 5551,
  "sal": 5552,
  "yóng": 5553,
  "lete": 5554,
  "1516": 5555,
  "1513": 5556,
  "1534": 5557,
  "1547": 5558,
  "1569": 5559,
  "16V": 5560,
  "1460": 5561,
  "stone": 5562,
  "cula": 5563,
  "で": 5564,
  "359": 5565,
  "757": 5566,
  "642": 5567,
  "581": 5568,
  "aux": 5569,
  "1502": 5570,
  "ctions": 5571,
  "gani": 5572,
  "alis": 5573,
  "GeForce": 5574,
  "ร": 5575,
  "SOHC": 5576,
  "Jackson": 5577,
  "Arthur": 5578,
  "Queen": 5579,
  "COLLAR": 5580,
  "Sunday": 5581,
  "origin": 5582,
  "418": 5583,
  "414": 5584,
  "424": 5585,
  "433": 5586,
  "544": 5587,
  "Bos": 5588,
  "CJ": 5589,
  "DTS": 5590,
  "F2": 5591,
  "JO": 5592,
  "Jus": 5593,
  "MMO": 5594,
  "PEN": 5595,
  "Sand": 5596,
  "Tel": 5597,
  "XIV": 5598,
  "bū": 5599,
  "cz": 5600,
  "flo": 5601,
  "hol": 5602,
  "ith": 5603,
  "pper": 5604,
  "ski": 5605,
  "zed": 5606,
  "В": 5607,
  "1731": 5608,
  "1768": 5609,
  "1771": 5610,
  "1490": 5611,
  "mel": 5612,
  "409": 5613,
  "lter": 5614,
  "ハ": 5615,
  "604": 5616,
  "802": 5617,
  "ケ": 5618,
  "ょ": 5619,
  "ろ": 5620,
  "389": 5621,
  "7500": 5622,
  "394": 5623,
  "476": 5624,
  "been": 5625,
  "493": 5626,
  "vio": 5627,
  "Vision": 5628,
  "ERO": 5629,
  "Box": 5630,
  "Rift": 5631,
  "AGE": 5632,
  "Prime": 5633,
  "FOX": 5634,
  "while": 5635,
  "True": 5636,
  "JTBC": 5637,
  "⇔": 5638,
  "Cinema": 5639,
  "Avenue": 5640,
  "431": 5641,
  "539": 5642,
  "745": 5643,
  "ABS": 5644,
  "Bit": 5645,
  "Classic": 5646,
  "EO": 5647,
  "Gin": 5648,
  "Gamer": 5649,
  "Ker": 5650,
  "Lord": 5651,
  "Mit": 5652,
  "Sk": 5653,
  "Solo": 5654,
  "V6": 5655,
  "bn": 5656,
  "bour": 5657,
  "jq": 5658,
  "zza": 5659,
  "ı": 5660,
  "shop": 5661,
  "shed": 5662,
  "change": 5663,
  "biào": 5664,
  "til": 5665,
  "tice": 5666,
  "tify": 5667,
  "1593": 5668,
  "1724": 5669,
  "1752": 5670,
  "1469": 5671,
  "1498": 5672,
  "1370": 5673,
  "sili": 5674,
  "sea": 5675,
  "え": 5676,
  "ille": 5677,
  "382": 5678,
  "755": 5679,
  "464": 5680,
  "444": 5681,
  "cid": 5682,
  "571": 5683,
  "1501": 5684,
  "Never": 5685,
  "Gaga": 5686,
  "nova": 5687,
  "PS3": 5688,
  "prote": 5689,
  "Express": 5690,
  "British": 5691,
  "tdown": 5692,
  "AGASA": 5693,
  "Kids": 5694,
  "Friedrich": 5695,
  "646": 5696,
  "667": 5697,
  "CIA": 5698,
  "D2": 5699,
  "Ever": 5700,
  "Gam": 5701,
  "IRT": 5702,
  "Kan": 5703,
  "M6": 5704,
  "Pass": 5705,
  "Tam": 5706,
  "XF": 5707,
  "ZJ": 5708,
  "ami": 5709,
  "high": 5710,
  "pto": 5711,
  "say": 5712,
  "tch": 5713,
  "dex": 5714,
  "lius": 5715,
  "dies": 5716,
  "1520": 5717,
  "1560": 5718,
  "1553": 5719,
  "1651": 5720,
  "1740": 5721,
  "1493": 5722,
  "602": 5723,
  "904": 5724,
  "496": 5725,
  "498": 5726,
  "443": 5727,
  "nament": 5728,
  "Rail": 5729,
  "MAN": 5730,
  "Boys": 5731,
  "Baby": 5732,
  "Haw": 5733,
  "produ": 5734,
  "UNG": 5735,
  "Fami": 5736,
  "AGUE": 5737,
  "LEAGUE": 5738,
  "Guard": 5739,
  "works": 5740,
  "mont": 5741,
  "Jeff": 5742,
  "Donald": 5743,
  "Intelli": 5744,
  "्": 5745,
  "Communi": 5746,
  "Athlon": 5747,
  "Memori": 5748,
  "Firefox": 5749,
  "611": 5750,
  "645": 5751,
  "945": 5752,
  "Again": 5753,
  "Bas": 5754,
  "C1": 5755,
  "Cen": 5756,
  "CBA": 5757,
  "DEC": 5758,
  "GW": 5759,
  "Hay": 5760,
  "Old": 5761,
  "QU": 5762,
  "TAM": 5763,
  "U2": 5764,
  "vol": 5765,
  "å": 5766,
  "chan": 5768,
  "dic": 5769,
  "1596": 5770,
  "ono": 5771,
  "1632": 5772,
  "1679": 5773,
  "1718": 5774,
  "1735": 5775,
  "1745": 5776,
  "1758": 5777,
  "25G": 5778,
  "＝": 5779,
  "tec": 5780,
  "ram": 5781,
  "メ": 5782,
  "culus": 5783,
  "made": 5784,
  "907": 5785,
  "め": 5786,
  "ゆ": 5787,
  "584": 5788,
  "1506": 5789,
  "Dear": 5790,
  "sson": 5791,
  "two": 5792,
  "mental": 5793,
  "1605": 5794,
  "Samu": 5795,
  "gia": 5796,
  "Anth": 5797,
  "Side": 5798,
  "Health": 5799,
  "Fish": 5800,
  "Name": 5801,
  "REAM": 5802,
  "Wild": 5803,
  "Central": 5804,
  "Doug": 5805,
  "Standard": 5806,
  "Violet": 5807,
  "Christopher": 5808,
  "YOSHIKI": 5809,
  "050": 5810,
  "439": 5811,
  "533": 5812,
  "731": 5813,
  "732": 5814,
  "741": 5815,
  "762": 5816,
  "962": 5817,
  "Astro": 5818,
  "Cree": 5819,
  "Eye": 5820,
  "Flor": 5821,
  "H3": 5822,
  "ICD": 5823,
  "Kra": 5824,
  "NU": 5825,
  "Num": 5826,
  "Off": 5827,
  "RCP": 5828,
  "TL": 5829,
  "Thi": 5830,
  "UCLA": 5831,
  "Wood": 5832,
  "ath": 5833,
  "kit": 5834,
  "np": 5835,
  "phe": 5836,
  "vari": 5837,
  "wen": 5838,
  "υ": 5839,
  "bia": 5842,
  "dina": 5843,
  "1260": 5844,
  "1566": 5845,
  "law": 5846,
  "lade": 5847,
  "1725": 5848,
  "1748": 5849,
  "ツ": 5850,
  "706": 5851,
  "よ": 5852,
  "を": 5853,
  "457": 5854,
  "tery": 5855,
  "379": 5856,
  "aso": 5857,
  "756": 5858,
  "553": 5859,
  "cio": 5860,
  "673": 5861,
  "574": 5862,
  "576": 5863,
  "mpson": 5864,
  "List": 5865,
  "Alan": 5866,
  "985": 5867,
  "973": 5868,
  "Anna": 5869,
  "Capital": 5870,
  "Greg": 5871,
  "AlphaFold": 5872,
  "Operation": 5873,
  "Fleetline": 5874,
  "Angelababy": 5875,
  "516": 5876,
  "617": 5877,
  "639": 5878,
  "722": 5879,
  "735": 5880,
  "DU": 5881,
  "Econo": 5882,
  "HMS": 5883,
  "Kha": 5884,
  "P2": 5885,
  "Tower": 5886,
  "bble": 5887,
  "ners": 5888,
  "sòu": 5889,
  "2050": 5890,
  "quid": 5891,
  "1528": 5892,
  "1572": 5893,
  "onal": 5894,
  "1652": 5895,
  "1727": 5896,
  "1761": 5897,
  "1368": 5898,
  "ワ": 5899,
  "ノ": 5900,
  "356": 5901,
  "704": 5902,
  "482": 5903,
  "655": 5904,
  "brary": 5905,
  "ault": 5906,
  "ARE": 5907,
  "gate": 5908,
  "Gaon": 5909,
  "ends": 5910,
  "BLE": 5911,
  "link": 5912,
  "Color": 5913,
  "telli": 5914,
  "Harry": 5915,
  "English": 5916,
  "Garden": 5917,
  "Two": 5918,
  "Jones": 5919,
  "Anderson": 5920,
  "Elizabeth": 5921,
  "Committee": 5922,
  "447": 5923,
  "863": 5924,
  "926": 5925,
  "961": 5926,
  "Ana": 5927,
  "Apa": 5928,
  "Bow": 5929,
  "Din": 5930,
  "Ea": 5931,
  "Epi": 5932,
  "LX": 5933,
  "RATP": 5934,
  "Tha": 5935,
  "VP": 5936,
  "WW": 5937,
  "eu": 5938,
  "hal": 5939,
  "pet": 5940,
  "pas": 5941,
  "defea": 5942,
  "shan": 5943,
  "lim": 5944,
  "bird": 5945,
  "eno": 5946,
  "nin": 5947,
  "ergy": 5948,
  "1531": 5949,
  "1538": 5950,
  "1647": 5951,
  "1681": 5952,
  "stor": 5953,
  "rat": 5954,
  "803": 5955,
  "708": 5956,
  "ゃ": 5957,
  "452": 5958,
  "453": 5959,
  "they": 5960,
  "651": 5961,
  "bed": 5962,
  "Cook": 5963,
  "vir": 5964,
  "586": 5965,
  "572": 5966,
  "Stro": 5967,
  "1504": 5968,
  "Neu": 5969,
  "EDG": 5970,
  "APG": 5971,
  "ICA": 5972,
  "door": 5973,
  "Conne": 5974,
  "Basic": 5975,
  "1701": 5976,
  "Stephen": 5977,
  "Carl": 5978,
  "Colspan": 5979,
  "word": 5980,
  "essor": 5981,
  "HOME": 5982,
  "ights": 5983,
  "Appli": 5984,
  "ccff": 5985,
  "ccccff": 5986,
  "Press": 5987,
  "Disco": 5988,
  "Twitch": 5989,
  "prise": 5990,
  "Patrick": 5991,
  "frame": 5992,
  "Women": 5993,
  "FINAL": 5994,
  "Beyond": 5995,
  "3M": 5996,
  "438": 5997,
  "511": 5998,
  "933": 5999,
  "Bun": 6000,
  "Hero": 6001,
  "Hans": 6002,
  "ILE": 6003,
  "Jes": 6004,
  "Rad": 6005,
  "Say": 6006,
  "SNC": 6007,
  "aw": 6008,
  "band": 6009,
  "děi": 6010,
  "gna": 6011,
  "vity": 6012,
  "wer": 6013,
  "Ω": 6014,
  "з": 6015,
  "ت": 6016,
  "xus": 6018,
  "hàng": 6019,
  "mie": 6020,
  "1530": 6021,
  "1537": 6022,
  "lati": 6023,
  "1736": 6024,
  "＆": 6025,
  "603": 6026,
  "808": 6027,
  "461": 6028,
  "468": 6029,
  "681": 6030,
  "user": 6031,
  "ONG": 6032,
  "state": 6033,
  "1709": 6034,
  "Kevin": 6035,
  "GameSpot": 6036,
  "Abdu": 6037,
  "Southern": 6038,
  "news": 6039,
  "JavaScript": 6040,
  "Prince": 6041,
  "DirectX": 6042,
  "Silver": 6043,
  "function": 6044,
  "Modern": 6045,
  "3G": 6046,
  "541": 6047,
  "629": 6048,
  "648": 6049,
  "725": 6050,
  "Ak": 6051,
  "CAR": 6052,
  "Dor": 6053,
  "ELE": 6054,
  "Low": 6055,
  "NN": 6056,
  "Nan": 6057,
  "NPC": 6058,
  "P4": 6059,
  "URE": 6060,
  "Vis": 6061,
  "cter": 6062,
  "city": 6063,
  "gas": 6064,
  "gent": 6065,
  "vent": 6066,
  "х": 6067,
  "such": 6068,
  "super": 6069,
  "dire": 6070,
  "zing": 6071,
  "1519": 6072,
  "1529": 6073,
  "1555": 6074,
  "1687": 6075,
  "last": 6076,
  "1728": 6077,
  "ardi": 6078,
  "ink": 6079,
  "team": 6080,
  "ポ": 6081,
  "cuǐ": 6082,
  "905": 6083,
  "esa": 6084,
  "484": 6085,
  "653": 6086,
  "Maker": 6087,
  "Info": 6088,
  "before": 6089,
  "559": 6090,
  "491": 6091,
  "679": 6092,
  "ped": 6093,
  "796": 6094,
  "OSS": 6095,
  "fish": 6096,
  "Saf": 6097,
  "MAD": 6098,
  "Paris": 6099,
  "Concer": 6100,
  "That": 6101,
  "Fair": 6102,
  "mark": 6103,
  "ckett": 6104,
  "URL": 6105,
  "AOA": 6106,
  "Yahoo": 6107,
  "speci": 6108,
  "ctures": 6109,
  "Planet": 6110,
  "ASCII": 6111,
  "Spotify": 6112,
  "OmegaT": 6113,
  "Mitchell": 6114,
  "423": 6115,
  "536": 6116,
  "632": 6117,
  "715": 6118,
  "825": 6119,
  "833": 6120,
  "Ala": 6121,
  "B3": 6122,
  "CAL": 6123,
  "D9": 6124,
  "Flow": 6125,
  "Gy": 6126,
  "GRO": 6127,
  "Hau": 6128,
  "Ita": 6129,
  "K2": 6130,
  "Money": 6131,
  "Mbps": 6132,
  "RDS": 6133,
  "Zo": 6134,
  "eb": 6135,
  "ei": 6136,
  "ide": 6137,
  "san": 6138,
  "sci": 6139,
  "wart": 6140,
  "huō": 6141,
  "2035": 6142,
  "1120": 6143,
  "1767": 6144,
  "cking": 6145,
  "Chrome": 6146,
  "Main": 6147,
  "473": 6148,
  "492": 6149,
  "cap": 6150,
  "nda": 6151,
  "auto": 6152,
  "661": 6153,
  "562": 6154,
  "Liber": 6155,
  "Robin": 6156,
  "Dead": 6157,
  "Debian": 6158,
  "Mega": 6159,
  "Via": 6160,
  "game": 6161,
  "See": 6162,
  "bucket": 6163,
  "Anne": 6164,
  "host": 6165,
  "PS2": 6166,
  "Fede": 6167,
  "Eddie": 6168,
  "TRA": 6169,
  "Countdown": 6170,
  "Zico": 6171,
  "signed": 6172,
  "TOKYO": 6173,
  "Violetta": 6174,
  "339": 6175,
  "429": 6176,
  "532": 6177,
  "665": 6178,
  "775": 6179,
  "769": 6180,
  "Ax": 6181,
  "Area": 6182,
  "D5": 6183,
  "Eri": 6184,
  "Fox": 6185,
  "Hand": 6186,
  "JI": 6187,
  "Pur": 6188,
  "R1": 6189,
  "RF": 6190,
  "SNS": 6191,
  "ller": 6192,
  "ա": 6193,
  "miē": 6194,
  "1220": 6195,
  "1545": 6196,
  "1664": 6197,
  "1659": 6198,
  "1719": 6199,
  "artic": 6200,
  "1495": 6201,
  "1496": 6202,
  "1388": 6203,
  "redo": 6204,
  "cep": 6205,
  "702": 6206,
  "703": 6207,
  "Chap": 6208,
  "Chart": 6209,
  "Mah": 6210,
  "STATION": 6211,
  "689": 6212,
  "Rea": 6213,
  "692": 6214,
  "osp": 6215,
  "Roman": 6216,
  "Mix": 6217,
  "798": 6218,
  "him": 6219,
  "splay": 6220,
  "ott": 6221,
  "mentary": 6222,
  "ERS": 6223,
  "Jaco": 6224,
  "AND": 6225,
  "graphy": 6226,
  "Juan": 6227,
  "gins": 6228,
  "Steven": 6229,
  "Phy": 6230,
  "IFF": 6231,
  "Bio": 6232,
  "Dragon": 6233,
  "Anime": 6234,
  "Henri": 6235,
  "Framework": 6236,
  "010": 6237,
  "434": 6238,
  "636": 6239,
  "729": 6240,
  "761": 6241,
  "878": 6242,
  "Aus": 6243,
  "Action": 6244,
  "E1": 6245,
  "E231": 6246,
  "GEN": 6247,
  "Jay": 6248,
  "L2": 6249,
  "PAGASA": 6250,
  "RK": 6251,
  "Too": 6252,
  "ZERO": 6253,
  "das": 6254,
  "eg": 6255,
  "hat": 6256,
  "ira": 6257,
  "Б": 6258,
  "М": 6259,
  "ц": 6260,
  "tier": 6262,
  "1546": 6263,
  "1549": 6264,
  "1562": 6265,
  "1670": 6266,
  "1690": 6267,
  "1654": 6268,
  "1653": 6269,
  "1694": 6270,
  "1759": 6271,
  "aro": 6272,
  "1466": 6273,
  "thor": 6274,
  "sio": 6275,
  "モ": 6276,
  "807": 6277,
  "709": 6278,
  "458": 6279,
  "463": 6280,
  "log": 6281,
  "555": 6282,
  "596": 6283,
  "662": 6284,
  "Stri": 6285,
  "under": 6286,
  "Like": 6287,
  "Michel": 6288,
  "constru": 6289,
  "ental": 6290,
  "gie": 6291,
  "posi": 6292,
  "Build": 6293,
  "shion": 6294,
  "Interactive": 6295,
  "Wilson": 6296,
  "Johnny": 6297,
  "della": 6298,
  "Voice": 6299,
  "FAST": 6300,
  "Kenne": 6301,
  "Court": 6302,
  "Happy": 6303,
  "HTTP": 6304,
  "Samuel": 6305,
  "12000": 6306,
  "527": 6307,
  "638": 6308,
  "669": 6309,
  "712": 6310,
  "711": 6311,
  "BP": 6312,
  "Dal": 6313,
  "DREAM": 6314,
  "Hos": 6315,
  "IMAX": 6316,
  "Jos": 6317,
  "K11": 6318,
  "LV": 6319,
  "Lind": 6320,
  "M5": 6321,
  "Nam": 6322,
  "NCC": 6323,
  "RSA": 6324,
  "Sr": 6325,
  "dan": 6326,
  "ef": 6327,
  "flu": 6328,
  "ska": 6329,
  "wy": 6330,
  "ά": 6331,
  "shell": 6332,
  "xis": 6333,
  "qiōng": 6334,
  "lem": 6335,
  "sung": 6336,
  "tura": 6337,
  "niū": 6338,
  "1558": 6339,
  "1581": 6340,
  "1738": 6341,
  "1474": 6342,
  "1375": 6343,
  "cular": 6344,
  "elli": 6345,
  "neu": 6346,
  "vement": 6347,
  "STAT": 6348,
  "477": 6349,
  "love": 6350,
  "68000": 6351,
  "Cos": 6352,
  "ATE": 6353,
  "595": 6354,
  "598": 6355,
  "599": 6356,
  "578": 6357,
  "1608": 6358,
  "Jac": 6359,
  "Hein": 6360,
  "dence": 6361,
  "EPA": 6362,
  "program": 6363,
  "ween": 6364,
  "gene": 6365,
  "syn": 6366,
  "flight": 6367,
  "EXILE": 6368,
  "Person": 6369,
  "GPL": 6370,
  "Stars": 6371,
  "stars": 6372,
  "Galant": 6373,
  "import": 6374,
  "NMB48": 6375,
  "521": 6376,
  "628": 6377,
  "622": 6378,
  "721": 6379,
  "867": 6380,
  "877": 6381,
  "965": 6382,
  "Aer": 6383,
  "BY": 6384,
  "Care": 6385,
  "F5": 6386,
  "Jet": 6387,
  "Mount": 6388,
  "Ner": 6389,
  "OST": 6390,
  "RX": 6391,
  "Sus": 6392,
  "SUP": 6393,
  "Source": 6394,
  "VEN": 6395,
  "WP": 6396,
  "ZZ": 6397,
  "cli": 6398,
  "cin": 6399,
  "fre": 6400,
  "gli": 6401,
  "ui": 6402,
  "will": 6403,
  "yd": 6404,
  "guàng": 6405,
  "yun": 6406,
  "life": 6407,
  "bio": 6408,
  "1280": 6409,
  "″": 6410,
  "1665": 6411,
  "lat": 6412,
  "1732": 6413,
  "1744": 6414,
  "1756": 6415,
  "1489": 6416,
  "1487": 6417,
  "1340": 6418,
  "oul": 6419,
  "met": 6420,
  "000rpm": 6421,
  "ビ": 6422,
  "906": 6423,
  "ズ": 6424,
  "451": 6425,
  "Chill": 6426,
  "997": 6427,
  "Stru": 6428,
  "idae": 6429,
  "Security": 6430,
  "Dave": 6431,
  "Shar": 6432,
  "wick": 6433,
  "Player": 6434,
  "Feli": 6435,
  "ghts": 6436,
  "Forever": 6437,
  "SHOW": 6438,
  "Business": 6439,
  "2nd": 6440,
  "519": 6441,
  "517": 6442,
  "624": 6443,
  "623": 6444,
  "835": 6445,
  "876": 6446,
  "938": 6447,
  "954": 6448,
  "951": 6449,
  "Abu": 6450,
  "B9": 6451,
  "CAP": 6452,
  "D3": 6453,
  "Fw": 6454,
  "Flo": 6455,
  "GDDR": 6456,
  "Hil": 6457,
  "Hop": 6458,
  "IMD": 6459,
  "Kur": 6460,
  "LCD": 6461,
  "NIC": 6462,
  "Pon": 6463,
  "Qt": 6464,
  "Sel": 6465,
  "YF": 6466,
  "eng": 6467,
  "fan": 6468,
  "mou": 6469,
  "mos": 6470,
  "ude": 6471,
  "vas": 6472,
  "would": 6473,
  "xa": 6474,
  "И": 6475,
  "sum": 6477,
  "qua": 6478,
  "chuài": 6479,
  "1524": 6480,
  "1532": 6481,
  "1584": 6482,
  "1658": 6483,
  "1657": 6484,
  "1699": 6485,
  "lad": 6486,
  "1762": 6487,
  "1337": 6488,
  "mum": 6489,
  "＞": 6490,
  "rai": 6491,
  "seed": 6492,
  "472": 6493,
  "474": 6494,
  "649": 6495,
  "497": 6496,
  "687": 6497,
  "688": 6498,
  "698": 6499,
  "579": 6500,
  "784": 6501,
  "Rober": 6502,
  "Proto": 6503,
  "html": 6504,
  "1406": 6505,
  "Carlos": 6506,
  "DSP": 6507,
  "ा": 6508,
  "Bike": 6509,
  "year": 6510,
  "SHIN": 6511,
  "Holly": 6512,
  "Christmas": 6513,
  "★": 6514,
  "Public": 6515,
  "scape": 6516,
  "MONSTA": 6517,
  "Computer": 6518,
  "Touch": 6519,
  "Smack": 6520,
  "Smosh": 6521,
  "Apache": 6522,
  "054": 6523,
  "616": 6524,
  "719": 6525,
  "865": 6526,
  "946": 6527,
  "988": 6528,
  "Bran": 6529,
  "DH": 6530,
  "Dur": 6531,
  "Esp": 6532,
  "G1": 6533,
  "Gau": 6534,
  "H4": 6535,
  "H10": 6536,
  "Hat": 6537,
  "Jona": 6538,
  "More": 6539,
  "S3": 6540,
  "Sb": 6541,
  "Sense": 6542,
  "Wit": 6543,
  "WHO": 6544,
  "XG": 6545,
  "jan": 6546,
  "kra": 6547,
  "used": 6548,
  "æ": 6549,
  "φ": 6550,
  "dus": 6551,
  "tie": 6552,
  "luō": 6553,
  "enne": 6554,
  "micro": 6555,
  "pia": 6556,
  "1668": 6557,
  "1739": 6558,
  "1764": 6559,
  "format": 6560,
  "mail": 6561,
  "30000": 6562,
  "787": 6563,
  "Library": 6564,
  "Socket": 6565,
  "Ann": 6566,
  "sock": 6567,
  "PSV": 6568,
  "Control": 6569,
  "1702": 6570,
  "There": 6571,
  "Take": 6572,
  "Human": 6573,
  "LLVM": 6574,
  "rowspan": 6575,
  "ways": 6576,
  "break": 6577,
  "Fanta": 6578,
  "Ryan": 6579,
  "SmackDown": 6580,
  "052": 6581,
  "421": 6582,
  "437": 6583,
  "614": 6584,
  "626": 6585,
  "637": 6586,
  "815": 6587,
  "816": 6588,
  "975": 6589,
  "Card": 6590,
  "Echo": 6591,
  "GF": 6592,
  "If": 6593,
  "Ice": 6594,
  "JP": 6595,
  "Rh": 6596,
  "Wing": 6597,
  "Wolf": 6598,
  "YA": 6599,
  "ZO": 6600,
  "after": 6601,
  "cine": 6602,
  "free": 6603,
  "hp": 6604,
  "kha": 6605,
  "won": 6606,
  "wri": 6607,
  "Р": 6608,
  "depen": 6610,
  "dig": 6611,
  "0000": 6612,
  "1275": 6613,
  "1536": 6614,
  "1675": 6615,
  "1464": 6616,
  "rad": 6617,
  "may": 6618,
  "major": 6619,
  "455": 6620,
  "IND": 6621,
  "lock": 6622,
  "671": 6623,
  "678": 6624,
  "ops": 6625,
  "most": 6626,
  "ARP": 6627,
  "Tex": 6628,
  "Sher": 6629,
  "Anti": 6630,
  "1705": 6631,
  "Liner": 6632,
  "Fashion": 6633,
  "TOWN": 6634,
  "erial": 6635,
  "Giovan": 6636,
  "Sheet": 6637,
  "lease": 6638,
  "KKBOX": 6639,
  "Championship": 6640,
  "Language": 6641,
  "Alfredo": 6642,
  "alysis": 6643,
  "Professor": 6644,
  "542": 6645,
  "634": 6646,
  "821": 6647,
  "912": 6648,
  "CIT": 6649,
  "Cfb": 6650,
  "DX": 6651,
  "HPV": 6652,
  "MOS": 6653,
  "MIT": 6654,
  "NXT": 6655,
  "Ol": 6656,
  "Pr": 6657,
  "SY": 6658,
  "Ster": 6659,
  "SIM": 6660,
  "Tig": 6661,
  "WH": 6662,
  "Wer": 6663,
  "Well": 6664,
  "Wong": 6665,
  "count": 6666,
  "df": 6667,
  "dle": 6668,
  "done": 6669,
  "glo": 6670,
  "ima": 6671,
  "mme": 6672,
  "nst": 6673,
  "ois": 6674,
  "pon": 6675,
  "wind": 6676,
  "χ": 6677,
  "ches": 6681,
  "lib": 6682,
  "leu": 6683,
  "lein": 6684,
  "miāo": 6685,
  "1563": 6686,
  "1617": 6687,
  "1663": 6688,
  "1685": 6689,
  "1753": 6690,
  "1477": 6691,
  "1380": 6692,
  "multi": 6693,
  "stance": 6694,
  "503": 6695,
  "ras": 6696,
  "see": 6697,
  "809": 6698,
  "ぎ": 6699,
  "ソ": 6700,
  "atan": 6701,
  "483": 6702,
  "486": 6703,
  "asy": 6704,
  "754": 6705,
  "656": 6706,
  "Mate": 6707,
  "beat": 6708,
  "beca": 6709,
  "Theat": 6710,
  "676": 6711,
  "ATX": 6712,
  "SAN": 6713,
  "785": 6714,
  "561": 6715,
  "NAS": 6716,
  "Mei": 6717,
  "ARK": 6718,
  "Second": 6719,
  "ACH": 6720,
  "okia": 6721,
  "ANG": 6722,
  "IPTV": 6723,
  "Western": 6724,
  "Board": 6725,
  "File": 6726,
  "Field": 6727,
  "there": 6728,
  "า": 6729,
  "UNES": 6730,
  "gency": 6731,
  "Frances": 6732,
  "Morning": 6733,
  "Brad": 6734,
  "RCA": 6735,
  "Collection": 6736,
  "SpaceX": 6737,
  "Melon": 6738,
  "Circle": 6739,
  "Mission": 6740,
  "Creative": 6741,
  "TWICE": 6742,
  "Clark": 6743,
  "Industri": 6744,
  "SUPER": 6745,
  "2DS": 6746,
  "518": 6747,
  "526": 6748,
  "566": 6749,
  "716": 6750,
  "714": 6751,
  "765": 6752,
  "764": 6753,
  "744": 6754,
  "826": 6755,
  "847": 6756,
  "918": 6757,
  "936": 6758,
  "Afri": 6759,
  "BNO": 6760,
  "EU": 6761,
  "Eve": 6762,
  "Every": 6763,
  "GI": 6764,
  "Here": 6765,
  "Ia": 6766,
  "MRI": 6767,
  "Pere": 6768,
  "RP": 6769,
  "Right": 6770,
  "Rank": 6771,
  "SUN": 6772,
  "Vin": 6773,
  "VIP": 6774,
  "Wri": 6775,
  "Ware": 6776,
  "WTT": 6777,
  "cam": 6778,
  "cta": 6779,
  "group": 6780,
  "hāi": 6781,
  "pho": 6782,
  "town": 6783,
  "ł": 6784,
  "و": 6785,
  "ngth": 6789,
  "show": 6790,
  "chin": 6791,
  "ched": 6792,
  "lity": 6793,
  "chus": 6794,
  "1024": 6795,
  "1669": 6796,
  "1656": 6797,
  "1672": 6798,
  "1692": 6799,
  "1754": 6800,
  "1420": 6801,
  "1480": 6802,
  "teen": 6803,
  "ilo": 6804,
  "their": 6805,
  "751": 6806,
  "658": 6807,
  "Chang": 6808,
  "Maki": 6809,
  "Inte": 6810,
  "594": 6811,
  "Stone": 6812,
  "791": 6813,
  "AMC": 6814,
  "AMP": 6815,
  "Moore": 6816,
  "Shine": 6817,
  "ITA": 6818,
  "Bug": 6819,
  "1704": 6820,
  "1708": 6821,
  "Nick": 6822,
  "Pie": 6823,
  "ario": 6824,
  "AGP": 6825,
  "MLB": 6826,
  "Manu": 6827,
  "Vogue": 6828,
  "Future": 6829,
  "DMR": 6830,
  "Front": 6831,
  "RepRap": 6832,
  "2B": 6833,
  "713": 6834,
  "727": 6835,
  "748": 6836,
  "768": 6837,
  "875": 6838,
  "915": 6839,
  "929": 6840,
  "947": 6841,
  "Ace": 6842,
  "BIG": 6843,
  "Cr": 6844,
  "CYP": 6845,
  "Dam": 6846,
  "Emp": 6847,
  "EBS": 6848,
  "Fai": 6849,
  "From": 6850,
  "ISA": 6851,
  "NICO": 6852,
  "OME": 6853,
  "R3": 6854,
  "Ring": 6855,
  "UF": 6856,
  "VIS": 6857,
  "XIII": 6858,
  "kon": 6859,
  "xc": 6860,
  "zān": 6861,
  "Т": 6862,
  "س": 6863,
  "lev": 6864,
  "bie": 6865,
  "bis": 6866,
  "1075": 6867,
  "1277": 6868,
  "1279": 6869,
  "1276": 6870,
  "1111": 6871,
  "ante": 6872,
  "1440": 6873,
  "1488": 6874,
  "1472": 6875,
  "1371": 6876,
  "allo": 6877,
  "story": 6878,
  "rian": 6879,
  "rice": 6880,
  "road": 6881,
  "ョ": 6882,
  "902": 6883,
  "489": 6884,
  "vier": 6885,
  "699": 6886,
  "ophy": 6887,
  "992": 6888,
  "881": 6889,
  "986": 6890,
  "Lew": 6891,
  "contribu": 6892,
  "APM": 6893,
  "1602": 6894,
  "dom": 6895,
  "commercial": 6896,
  "Interplay": 6897,
  "cross": 6898,
  "AIM": 6899,
  "REAS": 6900,
  "Wilhel": 6901,
  "Audio": 6902,
  "CRH5": 6903,
  "Gene": 6904,
  "Walker": 6905,
  "Version": 6906,
  "Films": 6907,
  "Jimmy": 6908,
  "District": 6909,
  "Sweet": 6910,
  "Building": 6911,
  "030": 6912,
  "633": 6913,
  "778": 6914,
  "812": 6915,
  "955": 6916,
  "957": 6917,
  "Azu": 6918,
  "Asian": 6919,
  "C3": 6920,
  "C14": 6921,
  "EY": 6922,
  "Im": 6923,
  "Ian": 6924,
  "Iso": 6925,
  "Jalan": 6926,
  "LNG": 6927,
  "LIF": 6928,
  "MIC": 6929,
  "NY": 6930,
  "Nint": 6931,
  "POS": 6932,
  "Rand": 6933,
  "RSS": 6934,
  "SAT": 6935,
  "Sid": 6936,
  "Stop": 6937,
  "Ts": 6938,
  "TNT": 6939,
  "Yi": 6940,
  "Yan": 6941,
  "bǒ": 6942,
  "cú": 6943,
  "cēn": 6944,
  "d4": 6945,
  "iro": 6946,
  "rs": 6947,
  "ute": 6948,
  "ý": 6949,
  "ب": 6950,
  "د": 6951,
  "ledge": 6952,
  "sul": 6953,
  "tury": 6954,
  "kuǎi": 6955,
  "002": 6956,
  "004": 6957,
  "1230": 6958,
  "pis": 6959,
  "1527": 6960,
  "1611": 6961,
  "array": 6962,
  "rela": 6963,
  "rix": 6964,
  "rish": 6965,
  "ols": 6966,
  "ely": 6967,
  "せ": 6968,
  "487": 6969,
  "nest": 6970,
  "bov": 6971,
  "Chro": 6972,
  "Information": 6973,
  "558": 6974,
  "685": 6975,
  "vich": 6976,
  "osau": 6977,
  "577": 6978,
  "781": 6979,
  "792": 6980,
  "794": 6981,
  "Album": 6982,
  "981": 6983,
  "Lei": 6984,
  "CO2": 6985,
  "ARC": 6986,
  "Dick": 6987,
  "Shop": 6988,
  "gion": 6989,
  "poli": 6990,
  "Six": 6991,
  "Energy": 6992,
  "WiMAX": 6993,
  "shire": 6994,
  "Gemini": 6995,
  "Stewart": 6996,
  "1122": 6997,
  "RES": 6998,
  "Tac": 6999,
  "ories": 7000,
  "ESPN": 7001,
  "Trickett": 7002,
  "minal": 7003,
  "Wave": 7004,
  "Thompson": 7005,
  "Where": 7006,
  "Portable": 7007,
  "elect": 7008,
  "아": 7009,
  "Thunderbird": 7010,
  "Velvet": 7011,
  "Jonathan": 7012,
  "Nintendo": 7014,
  "070": 7015,
  "543": 7016,
  "615": 7017,
  "717": 7018,
  "828": 7019,
  "839": 7020,
  "939": 7021,
  "Bin": 7022,
  "E2": 7023,
  "Edi": 7024,
  "FD": 7025,
  "G2": 7026,
  "GG": 7027,
  "Gr": 7028,
  "Len": 7029,
  "Lun": 7030,
  "MED": 7031,
  "N1": 7032,
  "RY": 7033,
  "S7": 7034,
  "TD": 7035,
  "UFC": 7036,
  "V1": 7037,
  "V2": 7038,
  "ala": 7039,
  "ic": 7040,
  "kai": 7041,
  "nar": 7042,
  "poly": 7043,
  "tar": 7044,
  "wel": 7045,
  "zzi": 7046,
  "lee": 7049,
  "tinu": 7050,
  "tiful": 7051,
  "quali": 7052,
  "dine": 7053,
  "nig": 7054,
  "1512": 7055,
  "1541": 7056,
  "1666": 7057,
  "lak": 7058,
  "1721": 7059,
  "1726": 7060,
  "1737": 7061,
  "1747": 7062,
  "1743": 7063,
  "1741": 7064,
  "archi": 7065,
  "1430": 7066,
  "25000": 7067,
  "de ": 7068,
  " de ": 7069,
  "shì ": 7070,
  " shì ": 7071,
  " nián": 7072,
  " nián ": 7073,
  "wèi ": 7074,
  "zài ": 7075,
  " wèi ": 7076,
  " zài ": 7077,
  "hé ": 7078,
  " hé ": 7079,
  "zhōng ": 7080,
  "bù ": 7081,
  "dì ": 7082,
  "shí ": 7083,
  "guó ": 7084,
  "yú ": 7085,
  "rén ": 7086,
  " bù ": 7087,
  "yī ": 7088,
  " zhōng ": 7089,
  "lì ": 7090,
  "zhì ": 7091,
  "gōng ": 7092,
  " shí ": 7093,
  "yuè ": 7094,
  "jí ": 7095,
  "chéng ": 7096,
  "yì ": 7097,
  "yǒu ": 7098,
  " dì ": 7099,
  " yuè ": 7100,
  " yú ": 7101,
  " rén ": 7102,
  " zhì ": 7103,
  "dà ": 7104,
  " jí ": 7105,
  "yuán ": 7106,
  " yǒu ": 7107,
  "jì ": 7108,
  " guó ": 7109,
  " lì ": 7110,
  " gōng ": 7111,
  " yì ": 7112,
  " yǐ": 7113,
  " chéng ": 7114,
  "jiā ": 7115,
  "sī ": 7116,
  "yǔ ": 7117,
  " xiàn": 7118,
  " rì": 7119,
  " yī ": 7120,
  " xíng": 7121,
  " tā": 7122,
  "lǐ ": 7123,
  "jī ": 7124,
  " dào": 7125,
  "hòu ": 7126,
  "wéi ": 7127,
  " zhī": 7128,
  " dà ": 7129,
  " yuán ": 7130,
  "xī ": 7131,
  " rì ": 7132,
  " gè": 7133,
  " yǐ ": 7134,
  "xué ": 7135,
  "huì ": 7136,
  "zuò ": 7137,
  "le ": 7138,
  " yǔ ": 7139,
  " dào ": 7140,
  "míng ": 7141,
  " jì ": 7142,
  "bèi ": 7143,
  " xíng ": 7144,
  "shēng ": 7145,
  " jiàn": 7146,
  " chū": 7147,
  " qí": 7148,
  " sī ": 7149,
  " dé": 7150,
  "zhèng ": 7151,
  " xiàn ": 7152,
  " hòu ": 7153,
  " jī ": 7154,
  "duì ": 7155,
  "shàng ": 7156,
  "qū ": 7157,
  "shǐ ": 7158,
  " ěr": 7159,
  " jiā ": 7160,
  "yóu ": 7161,
  " tā ": 7162,
  " xī ": 7163,
  " lǐ ": 7164,
  " ér": 7165,
  "zhàn ": 7166,
  " jūn": 7167,
  " bìng": 7168,
  " zhī ": 7169,
  " gè ": 7170,
  "zhǔ ": 7171,
  "rèn ": 7172,
  "fù ": 7173,
  "zì ": 7174,
  "wù ": 7175,
  "xīn ": 7176,
  "dài ": 7177,
  "jù ": 7178,
  "píng ": 7179,
  " chū ": 7180,
  " kè": 7181,
  " zhōu": 7182,
  "xiāng ": 7183,
  " huì ": 7184,
  "shù ": 7185,
  "nán ": 7186,
  " shè": 7187,
  " bèi ": 7188,
  " míng ": 7189,
  "xià ": 7190,
  "guān ": 7191,
  " ěr ": 7192,
  " dé ": 7193,
  "lù ": 7194,
  "yù ": 7195,
  "huà ": 7196,
  " jiàn ": 7197,
  "jīng ": 7198,
  "yán ": 7199,
  "fāng ": 7200,
  " yīn": 7201,
  "kāi ": 7202,
  "jiān ": 7203,
  "jiào ": 7204,
  "fā ": 7205,
  "yòng ": 7206,
  " dàn": 7207,
  " ér ": 7208,
  "zhù ": 7209,
  "lái ": 7210,
  "mín ": 7211,
  "shǒu ": 7212,
  "zhè ": 7213,
  "xiàng ": 7214,
  "wén ": 7215,
  " jūn ": 7216,
  "xì ": 7217,
  "qián ": 7218,
  "běn ": 7219,
  "tè ": 7220,
  " wéi ": 7221,
  "zhí ": 7222,
  "fǎ ": 7223,
  "qī ": 7224,
  "jié ": 7225,
  "lián ": 7226,
  " bìng ": 7227,
  "dòng ": 7228,
  "diàn ": 7229,
  " qí ": 7230,
  " kè ": 7231,
  "dōng ": 7232,
  "mù ": 7233,
  " jìn": 7234,
  " duì ": 7235,
  " huò": 7236,
  " zhàn ": 7237,
  "fēn ": 7238,
  "tái ": 7239,
  "zhǎng ": 7240,
  "dù ": 7241,
  "jiāng ": 7242,
  " qiú": 7243,
  " píng ": 7244,
  "gāo ": 7245,
  "yè ": 7246,
  "suǒ ": 7247,
  "běi ": 7248,
  " zhōu ": 7249,
  "shī ": 7250,
  " le ": 7251,
  "duō ": 7252,
  "jiē ": 7253,
  "gé ": 7254,
  " shàng ": 7255,
  "jīn ": 7256,
  " zhèng ": 7257,
  "fú ": 7258,
  " zuò ": 7259,
  " yóu ": 7260,
  " fù ": 7261,
  "kǒu ": 7262,
  "guò ": 7263,
  "zhǐ ": 7264,
  " tóng": 7265,
  "hǎi ": 7266,
  " rèn ": 7267,
  " quán": 7268,
  "mǎ ": 7269,
  "tōng ": 7270,
  "rù ": 7271,
  "zuì ": 7272,
  " shēng ": 7273,
  " xué ": 7274,
  "cǐ ": 7275,
  "xìng ": 7276,
  "wài ": 7277,
  "nèi ": 7278,
  "lā ": 7279,
  "tǐ ": 7280,
  "jué ": 7281,
  "kě ": 7282,
  "qǐ ": 7283,
  "shān ": 7284,
  "tiān ": 7285,
  "chǎng ": 7286,
  "děng ": 7287,
  "zhèn ": 7288,
  "wǔ ": 7289,
  "cháng ": 7290,
  "zi ": 7291,
  "yào ": 7292,
  "bǐ ": 7293,
  " jù ": 7294,
  "bǎo ": 7295,
  "mǐ ": 7296,
  "yà ": 7297,
  " yě": 7298,
  "gāi ": 7299,
  " yīn ": 7300,
  " dài ": 7301,
  "miàn ": 7302,
  "zhòng ": 7303,
  " shè ": 7304,
  "fēng ": 7305,
  " zhè ": 7306,
  "zhǒng ": 7307,
  "cì ": 7308,
  "yùn ": 7309,
  "yí ": 7310,
  "liú ": 7311,
  "chē ": 7312,
  "shòu ": 7313,
  "lín ": 7314,
  "bāo ": 7315,
  "yí gè ": 7316,
  "sài ": 7317,
  "jiè ": 7318,
  "dìng ": 7319,
  "shēn ": 7320,
  "shěng ": 7321,
  "luó ": 7322,
  "měi guó ": 7323,
  "sān ": 7324,
  "qì ": 7325,
  "xiǎo ": 7326,
  " dàn ": 7327,
  "néng ": 7328,
  "shū ": 7329,
  "zé ": 7330,
  "liè ": 7331,
  "xuǎn ": 7332,
  "sì ": 7333,
  "qīng ": 7334,
  "zhě ": 7335,
  " qiú ": 7336,
  "jìng ": 7337,
  "yuàn ": 7338,
  "bā ": 7339,
  "wáng ": 7340,
  "kē ": 7341,
  "tài ": 7342,
  "lán ": 7343,
  "bào ": 7344,
  "ān ": 7345,
  "zǒng ": 7346,
  "yǐng ": 7347,
  " huò ": 7348,
  "bì ": 7349,
  "fǔ ": 7350,
  "dǎo ": 7351,
  " xīn ": 7352,
  "gǔ ": 7353,
  "yīng ": 7354,
  " hào": 7355,
  " xià ": 7356,
  " zì ": 7357,
  "gē ": 7358,
  "fèn ": 7359,
  "xiào ": 7360,
  "yuē ": 7361,
  "ní ": 7362,
  "jiāo ": 7363,
  "nà ": 7364,
  " yù ": 7365,
  " mǐ ": 7366,
  "zī ": 7367,
  "èr ": 7368,
  " xiāng ": 7369,
  "pǔ ": 7370,
  "dān ": 7371,
  " zhù ": 7372,
  "biǎo ": 7373,
  "guǎn ": 7374,
  "tóu ": 7375,
  "liàng ": 7376,
  "chuán ": 7377,
  " lù ": 7378,
  "sù ": 7379,
  "wú ": 7380,
  " dāng": 7381,
  "bō ": 7382,
  "rú ": 7383,
  "yǎn ": 7384,
  "nǚ ": 7385,
  "bó ": 7386,
  " zhōng guó ": 7387,
  "xīng ": 7388,
  "tí ": 7389,
  "fēi ": 7390,
  "dá ": 7391,
  "sè ": 7392,
  "chēng ": 7393,
  "měi ": 7394,
  " wèi yú ": 7395,
  " jìn ": 7396,
  "céng ": 7397,
  "chǎn ": 7398,
  " nán ": 7399,
  "shuǐ ": 7400,
  "tú ": 7401,
  "biàn ": 7402,
  "guī ": 7403,
  " rán": 7404,
  "yáng ": 7405,
  "ā ": 7406,
  "zhāng ": 7407,
  "gǎi ": 7408,
  "diǎn ": 7409,
  "cóng ": 7410,
  "jiù ": 7411,
  " běn ": 7412,
  " quán ": 7413,
  "shā ": 7414,
  "bāo kuò": 7415,
  "wǎng ": 7416,
  "jiǎn ": 7417,
  "shèng ": 7418,
  "zǔ ": 7419,
  "shǔ ": 7420,
  "gǎng ": 7421,
  "huá ": 7422,
  "lǜ ": 7423,
  "qíng ": 7424,
  "jǐng ": 7425,
  "liǎng ": 7426,
  "zú ": 7427,
  "bàn ": 7428,
  "tǒng ": 7429,
  "gòng ": 7430,
  "shāng ": 7431,
  "lí ": 7432,
  "hù ": 7433,
  "tóng ": 7434,
  "biān ": 7435,
  "jìn ": 7436,
  "lóng ": 7437,
  "luò ": 7438,
  "àn ": 7439,
  "xù ": 7440,
  "chí ": 7441,
  "ào ": 7442,
  "méi ": 7443,
  "jǐn ": 7444,
  "bān ": 7445,
  "guǎng ": 7446,
  "chū ": 7447,
  "cè ": 7448,
  "mì ": 7449,
  "shén ": 7450,
  " tā men": 7451,
  "zhēng ": 7452,
  "zhī ": 7453,
  "lǐng ": 7454,
  "yòu ": 7455,
  "fǎn ": 7456,
  "wēi ": 7457,
  " zhǔ ": 7458,
  " xiàng ": 7459,
  "huó ": 7460,
  "xí ": 7461,
  "tíng ": 7462,
  "kǎ ": 7463,
  "chá ": 7464,
  " gāi ": 7465,
  "cái ": 7466,
  "gòu ": 7467,
  "shuō ": 7468,
  "mén ": 7469,
  "cí ": 7470,
  "xiǎng ": 7471,
  "mǔ ": 7472,
  "lèi ": 7473,
  "wěi ": 7474,
  "qǔ ": 7475,
  " gōng lǐ ": 7476,
  "yán jiū": 7477,
  " duō ": 7478,
  "tuán ": 7479,
  "yǐn ": 7480,
  "jiàn ": 7481,
  " yě ": 7482,
  "cháo ": 7483,
  "yìng ": 7484,
  "chén ": 7485,
  " wàn": 7486,
  "táng ": 7487,
  "xiē ": 7488,
  "qí ": 7489,
  "pǐn ": 7490,
  " yǐ jí ": 7491,
  "jià ": 7492,
  "shǐ yòng ": 7493,
  "jiě ": 7494,
  "háng ": 7495,
  "yǐ ": 7496,
  "lún ": 7497,
  "róng ": 7498,
  " yóu": 7499,
  "jiǎng ": 7500,
  "pái ": 7501,
  "fū ": 7502,
  "jiǔ ": 7503,
  "lìng ": 7504,
  "é ": 7505,
  "tái wān": 7506,
  " hào ": 7507,
  " de dì ": 7508,
  "1 ": 7509,
  "xū ": 7510,
  "kě yǐ ": 7511,
  "huáng ": 7512,
  "xiān ": 7513,
  "duàn ": 7514,
  "kè ": 7515,
  "dǎng ": 7516,
  "mó ": 7517,
  "cān ": 7518,
  "yíng ": 7519,
  "tiáo ": 7520,
  "biāo ": 7521,
  " de yī ": 7522,
  "kāi shǐ ": 7523,
  "quán ": 7524,
  "zhǎn ": 7525,
  " chéng wéi ": 7526,
  "yě ": 7527,
  "hóng ": 7528,
  "méi yǒu ": 7529,
  "hàn ": 7530,
  "yīn ": 7531,
  "wěi yuán ": 7532,
  "qiān ": 7533,
  "bǎn ": 7534,
  "xiàn ": 7535,
  "líng ": 7536,
  "xiāo ": 7537,
  " tóng ": 7538,
  "huí ": 7539,
  "sū ": 7540,
  "fáng ": 7541,
  "méng ": 7542,
  "zhuāng ": 7543,
  "kōng ": 7544,
  "jú ": 7545,
  "cūn ": 7546,
  "bāo kuò ": 7547,
  "rén kǒu ": 7548,
  " qí zhōng ": 7549,
  "2 ": 7550,
  " gōng sī ": 7551,
  "huò ": 7552,
  "zǐ ": 7553,
  "xíng ": 7554,
  "dōu ": 7555,
  " de shì ": 7556,
  "   zài ": 7557,
  "qiáng ": 7558,
  "zhào ": 7559,
  "dú ": 7560,
  "zhèng zhì ": 7561,
  "yí gè": 7562,
  "mò ": 7563,
  " fēn ": 7564,
  "cǎi ": 7565,
  "bīng ": 7566,
  "fǎ guó ": 7567,
  " gāo ": 7568,
  " dà xué ": 7569,
  " shì yī ": 7570,
  "hái ": 7571,
  " tā de ": 7572,
  "hú ": 7573,
  "chù ": 7574,
  "qīn ": 7575,
  "lùn ": 7576,
  "fàn ": 7577,
  "zhēn ": 7578,
  "guāng ": 7579,
  "wèn ": 7580,
  "màn ": 7581,
  " jié ": 7582,
  "shè ": 7583,
  "biǎo shì ": 7584,
  "zhōng de ": 7585,
  "jū ": 7586,
  " jiào ": 7587,
  "ài ": 7588,
  "zhuān ": 7589,
  "diào ": 7590,
  "bái ": 7591,
  "dǎ ": 7592,
  "què ": 7593,
  "diàn shì ": 7594,
  " dōng ": 7595,
  " dù ": 7596,
  "fèi ": 7597,
  " shì wèi ": 7598,
  " mù ": 7599,
  "hán ": 7600,
  "shì de ": 7601,
  " tè ": 7602,
  "xùn ": 7603,
  " jīn ": 7604,
  "piàn ": 7605,
  "mìng ": 7606,
  "jǔ ": 7607,
  " jiāng ": 7608,
  "tuō ": 7609,
  "gù ": 7610,
  " rén kǒu ": 7611,
  "xiū ": 7612,
  " bù fèn ": 7613,
  "xié ": 7614,
  "zào ": 7615,
  " hé guó ": 7616,
  "zhōng guó ": 7617,
  "guǒ ": 7618,
  "10 yuè ": 7619,
  "shōu ": 7620,
  " zuì": 7621,
  "xìn ": 7622,
  "12 yuè ": 7623,
  "7 yuè ": 7624,
  "9 yuè ": 7625,
  " shī ": 7626,
  "zhuǎn ": 7627,
  "tā ": 7628,
  "dāng ": 7629,
  "miàn jī ": 7630,
  " rén mín ": 7631,
  "8 yuè ": 7632,
  "xún ": 7633,
  " dì qū ": 7634,
  "wū ": 7635,
  "3 yuè ": 7636,
  " guò ": 7637,
  " suǒ ": 7638,
  "1 yuè ": 7639,
  " jīng ": 7640,
  " shǒu ": 7641,
  "gǎn ": 7642,
  "huán ": 7643,
  "dí ": 7644,
  "xiá ": 7645,
  "jiǎ ": 7646,
  "5 yuè ": 7647,
  "yīng guó ": 7648,
  " cǐ ": 7649,
  "dào ": 7650,
  "dǐ ": 7651,
  "3 ": 7652,
  "zhū ": 7653,
  "tīng ": 7654,
  "zhèng shì ": 7655,
  "chóng ": 7656,
  "huǒ ": 7657,
  "zhōu ": 7658,
  "6 yuè ": 7659,
  "zhuàng ": 7660,
  "chéng shì ": 7661,
  "4 yuè ": 7662,
  " guó jiā ": 7663,
  "tián ": 7664,
  "gèng ": 7665,
  "   dì ": 7666,
  "fàng ": 7667,
  "yǒng ": 7668,
  "shǔ yú ": 7669,
  " píng fāng": 7670,
  "pò ": 7671,
  "jūn ": 7672,
  " dì yī ": 7673,
  " qián ": 7674,
  "11 yuè ": 7675,
  " děng ": 7676,
  "qù ": 7677,
  "qún ": 7678,
  "jiàng ": 7679,
  "táo ": 7680,
  " shì jì ": 7681,
  " píng fāng gōng lǐ ": 7682,
  " tóng shí ": 7683,
  " mǎ ": 7684,
  "dān rèn ": 7685,
  " tiān ": 7686,
  " rú ": 7687,
  "gēn ": 7688,
  "bié ": 7689,
  " suì": 7690,
  "pài ": 7691,
  "dū ": 7692,
  "shǎo ": 7693,
  "liáng ": 7694,
  "huī ": 7695,
  "tiě ": 7696,
  "nóng ": 7697,
  "jǐ ": 7698,
  " nián 1 yuè ": 7699,
  "tǎ ": 7700,
  "diàn yǐng ": 7701,
  " qī ": 7702,
  "zōng ": 7703,
  "chǔ ": 7704,
  " zhè": 7705,
  "sǐ ": 7706,
  "ěr ": 7707,
  " de shí ": 7708,
  "shuāng ": 7709,
  "tái wān ": 7710,
  "qiáo ": 7711,
  "gēn jù ": 7712,
  "lì shǐ ": 7713,
  "chú ": 7714,
  " shì zhèn ": 7715,
  "gào ": 7716,
  "bài ": 7717,
  "cān jiā ": 7718,
  "yùn dòng": 7719,
  "gāng ": 7720,
  "chē zhàn ": 7721,
  "guó de ": 7722,
  "jiǎo ": 7723,
  " wàn ": 7724,
  " yīn wèi ": 7725,
  " rì běn ": 7726,
  " píng fāng ": 7727,
  "lì de ": 7728,
  " nián de ": 7729,
  "gài ": 7730,
  "pàn ": 7731,
  " wén ": 7732,
  " hǎi ": 7733,
  "zhèng fǔ ": 7734,
  "bìng ": 7735,
  "zhǔn ": 7736,
  " nián 12 yuè ": 7737,
  "wǎ ": 7738,
  "yàn ": 7739,
  "wǒ ": 7740,
  "gòng hé guó ": 7741,
  " xiàn de ": 7742,
  " fú ": 7743,
  "yá ": 7744,
  "yín ": 7745,
  "fā xiàn ": 7746,
  "formula ": 7747,
  "chuàng ": 7748,
  "hēi ": 7749,
  " suǒ": 7750,
  "qū de ": 7751,
  "sòng ": 7752,
  "huàn ": 7753,
  "hā ": 7754,
  "hěn ": 7755,
  "tí gōng ": 7756,
  "jìn xíng ": 7757,
  " běi ": 7758,
  "5 ": 7759,
  "léi ": 7760,
  "2 yuè ": 7761,
  "jīng jì ": 7762,
  "tōng guò ": 7763,
  "4 ": 7764,
  " nián 3 yuè ": 7765,
  "suí ": 7766,
  "chuān ": 7767,
  "qiě ": 7768,
  " zhōng yāng": 7769,
  " guó jì ": 7770,
  "huā ": 7771,
  "shàng de ": 7772,
  " yóu yú ": 7773,
  " yòu ": 7774,
  "lēi ": 7775,
  "wěi yuán huì ": 7776,
  "kǎo ": 7777,
  " nián 7 yuè ": 7778,
  " yīng ": 7779,
  "wán ": 7780,
  "chēng wéi ": 7781,
  " nián 10 yuè ": 7782,
  "dēng ": 7783,
  "bǎi ": 7784,
  " shì jiè ": 7785,
  " yīn cǐ ": 7786,
  "míng wèi ": 7787,
  " jìn xíng ": 7788,
  "nuò ": 7789,
  " shì zài ": 7790,
  "chōng ": 7791,
  " rán ": 7792,
  "zhǔ yì ": 7793,
  " nián 9 yuè ": 7794,
  "kuài ": 7795,
  "tǔ ": 7796,
  " zhī hòu ": 7797,
  "yán jiū ": 7798,
  " tā men ": 7799,
  "qiú ": 7800,
  "mài ": 7801,
  "shí de ": 7802,
  "liàn ": 7803,
  "hào ": 7804,
  " nián 5 yuè ": 7805,
  " lián ": 7806,
  "sà ": 7807,
  "lú ": 7808,
  "xì tǒng ": 7809,
  " zuì ": 7810,
  "pèi ": 7811,
  "lǔ ": 7812,
  " nián 4 yuè ": 7813,
  "chǐ ": 7814,
  "liào ": 7815,
  " dāng ": 7816,
  " nián 8 yuè ": 7817,
  " nián 6 yuè ": 7818,
  " xíng de ": 7819,
  "zēng ": 7820,
  "rén de ": 7821,
  " shǐ ": 7822,
  "xiāng gǎng ": 7823,
  "xuān ": 7824,
  "qī jiān ": 7825,
  "dé ": 7826,
  "kuàng ": 7827,
  "guǎn lǐ ": 7828,
  " gōng zuò ": 7829,
  "piào ": 7830,
  " zhī yī ": 7831,
  "xǔ ": 7832,
  " lái ": 7833,
  "dī ": 7834,
  "dà de ": 7835,
  "héng ": 7836,
  "bǔ ": 7837,
  " zhōng xīn ": 7838,
  "yàng ": 7839,
  "xuān bù ": 7840,
  "sēn ": 7841,
  "tuī ": 7842,
  " nián 11 yuè ": 7843,
  "zǔ zhī ": 7844,
  "rì ": 7845,
  "bù de ": 7846,
  "wàng ": 7847,
  "pí ": 7848,
  " bāo kuò ": 7849,
  "chàng ": 7850,
  "men ": 7851,
  "yǐng xiǎng ": 7852,
  " tā zài ": 7853,
  "yǎng ": 7854,
  "qiān mǐ ": 7855,
  "ēn ": 7856,
  "   shēng ": 7857,
  " huò dé ": 7858,
  " shì jiè": 7859,
  "pī ": 7860,
  "sāi ": 7861,
  "luó sī ": 7862,
  "hè ": 7863,
  "kě néng": 7864,
  "chéng de ": 7865,
  " gāi": 7866,
  " qīng ": 7867,
  " měi": 7868,
  "ér ": 7869,
  "dùn ": 7870,
  "niàn ": 7871,
  "xián ": 7872,
  " ā ": 7873,
  "lóu ": 7874,
  "qí tā ": 7875,
  " nián 2 yuè ": 7876,
  " chéng lì ": 7877,
  "le yī ": 7878,
  "bāng ": 7879,
  "huó dòng ": 7880,
  " rèn wéi ": 7881,
  " fēn": 7882,
  " bǐ ": 7883,
  "yōu ": 7884,
  "liù ": 7885,
  " shù ": 7886,
  "kē xué ": 7887,
  "fā zhǎn ": 7888,
  "huò dé ": 7889,
  "jùn ": 7890,
  " luó ": 7891,
  " zuò wéi ": 7892,
  "yā ": 7893,
  " píng fāng qiān mǐ ": 7894,
  " wú ": 7895,
  "huá rén mín ": 7896,
  "rì běn ": 7897,
  "bēi ": 7898,
  "lǎo ": 7899,
  "huì yì ": 7900,
  "rè ": 7901,
  "6 ": 7902,
  " zhí": 7903,
  " liú ": 7904,
  "tán ": 7905,
  "jiān de ": 7906,
  "kù ": 7907,
  "tiě lù ": 7908,
  " de rén ": 7909,
  "yòng yú ": 7910,
  "liáo ": 7911,
  "níng ": 7912,
  " shí jiān ": 7913,
  " zhāng ": 7914,
  " de gōng ": 7915,
  " shān ": 7916,
  "gè ": 7917,
  "miǎn ": 7918,
  " yán ": 7919,
  "miàn jī": 7920,
  "mín guó ": 7921,
  "ruì ": 7922,
  "wū kè ": 7923,
  "yìn ": 7924,
  "xiǎn ": 7925,
  "lè ": 7926,
  "zuǒ ": 7927,
  "gòng yǒu ": 7928,
  "   lì shǐ ": 7929,
  "hǎo ": 7930,
  "   shēng píng ": 7931,
  "fāng shì ": 7932,
  "fā shēng ": 7933,
  " zhí ": 7934,
  "gān ": 7935,
  " cóng ": 7936,
  "dòu ": 7937,
  "wèn tí ": 7938,
  "guàn jūn ": 7939,
  "zhǔ yào ": 7940,
  "rán ": 7941,
  "dì de ": 7942,
  " dì èr ": 7943,
  " xiǎo ": 7944,
  "dǎo zhì ": 7945,
  "guān xì ": 7946,
  "cún ": 7947,
  "kāng ": 7948,
  "cān yù ": 7949,
  " jǐn ": 7950,
  "yuǎn ": 7951,
  " bù fèn": 7952,
  "zhěng ": 7953,
  " gōng chéng ": 7954,
  "wán chéng ": 7955,
  "dān wèi ": 7956,
  "kě néng ": 7957,
  " zhǐ ": 7958,
  " wǔ ": 7959,
  "yī wèi ": 7960,
  " zé ": 7961,
  "1 rì ": 7962,
  "xiè ": 7963,
  " zǒng ": 7964,
  "suǒ yǒu ": 7965,
  "zhì de ": 7966,
  "wén huà ": 7967,
  " chéng yuán ": 7968,
  " de chéng ": 7969,
  "gěi ": 7970,
  "lǚ ": 7971,
  " bā ": 7972,
  " tōng ": 7973,
  "yuán de ": 7974,
  "yōng yǒu ": 7975,
  "cún zài ": 7976,
  "èr shí ": 7977,
  "běi bù ": 7978,
  "lián hé ": 7979,
  " xì ": 7980,
  "hòu de ": 7981,
  "niǔ ": 7982,
  " shì zhōng ": 7983,
  "zhèng fǔ": 7984,
  "yóu yú ": 7985,
  "guó jiā ": 7986,
  "duì yú ": 7987,
  " nián zhì ": 7988,
  "fā xíng ": 7989,
  "yì de ": 7990,
  "jù yǒu ": 7991,
  " zhǐ": 7992,
  " jiàn zhù ": 7993,
  "bǐ sài ": 7994,
  " bìng zài ": 7995,
  " dào le ": 7996,
  "xīn de ": 7997,
  "ōu ": 7998,
  "sī de ": 7999
}