{
  "!": 0,
  "\"": 1,
  "#": 2,
  "$": 3,
  "%": 4,
  "&": 5,
  "'": 6,
  "(": 7,
  ")": 8,
  "*": 9,
  "+": 10,
  ",": 11,
  "-": 12,
  ".": 13,
  "/": 14,
  "0": 15,
  "1": 16,
  "2": 17,
  "3": 18,
  "4": 19,
  "5": 20,
  "6": 21,
  "7": 22,
  "8": 23,
  "9": 24,
  ":": 25,
  ";": 26,
  "=": 27,
  "?": 28,
  "@": 29,
  "A": 30,
  "B": 31,
  "C": 32,
  "D": 33,
  "E": 34,
  "F": 35,
  "G": 36,
  "H": 37,
  "I": 38,
  "J": 39,
  "K": 40,
  "L": 41,
  "M": 42,
  "N": 43,
  "O": 44,
  "P": 45,
  "Q": 46,
  "R": 47,
  "S": 48,
  "T": 49,
  "U": 50,
  "V": 51,
  "W": 52,
  "X": 53,
  "Y": 54,
  "Z": 55,
  "[": 56,
  "\\": 57,
  "]": 58,
  "^": 59,
  "_": 60,
  "`": 61,
  "a": 62,
  "b": 63,
  "c": 64,
  "d": 65,
  "e": 66,
  "f": 67,
  "g": 68,
  "h": 69,
  "i": 70,
  "j": 71,
  "k": 72,
  "l": 73,
  "m": 74,
  "n": 75,
  "o": 76,
  "p": 77,
  "q": 78,
  "r": 79,
  "s": 80,
  "t": 81,
  "u": 82,
  "v": 83,
  "w": 84,
  "x": 85,
  "y": 86,
  "z": 87,
  "|": 88,
  "~": 89,
  "\n": 162,
  " ": 163,
  "": 164,
  "�": 185,
  "ng": 199,
  "an": 200,
  "sh": 201,
  "zh": 202,
  "ji": 203,
  "ang": 204,
  "  ": 205,
  "ong": 206,
  "xi": 207,
  "ao": 208,
  "ai": 209,
  "de": 210,
  "ei": 211,
  "shi": 212,
  "yu": 213,
  "ou": 214,
  "yi": 215,
  "en": 216,
  "ch": 217,
  "ian": 218,
  "uo": 219,
  "eng": 220,
  "li": 221,
  "   ": 222,
  "ing": 224,
  "ui": 225,
  "wei": 226,
  "uan": 227,
  "zhi": 228,
  "qi": 229,
  "nian": 230,
  "zhong": 231,
  "you": 232,
  "ren": 233,
  "un": 234,
  "zai": 235,
  "di": 236,
  "guo": 237,
  "、": 238,
  "he": 239,
  "bu": 240,
  "er": 241,
  "gong": 242,
  "xing": 243,
  "cheng": 244,
  "da": 245,
  "zhu": 246,
  "hu": 247,
  "yuan": 248,
  "si": 249,
  "jian": 250,
  "yue": 251,
  "ge": 252,
  "fu": 253,
  "xian": 254,
  "ue": 255,
  "ke": 256,
  "wu": 257,
  "chu": 258,
  "shu": 259,
  "sheng": 260,
  "jie": 261,
  "jia": 262,
  "bi": 263,
  "dao": 264,
  "zi": 265,
  "bei": 266,
  "hui": 267,
  "fa": 268,
  "xiang": 269,
  "ti": 270,
  "zheng": 271,
  "mi": 272,
  "ta": 273,
  "jin": 274,
  "qu": 275,
  "20": 276,
  "tong": 277,
  "ri": 278,
  "ju": 279,
  "jing": 280,
  "ming": 281,
  "le": 282,
  "hou": 283,
  "shang": 284,
  "shou": 285,
  "dong": 286,
  "ci": 287,
  "fang": 288,
  "19": 289,
  "hua": 290,
  "yin": 291,
  "xue": 292,
  "guan": 293,
  "zhan": 294,
  "ye": 295,
  "ying": 296,
  "zuo": 297,
  "zhe": 298,
  "yan": 299,
  "mei": 300,
  "jiao": 301,
  "gu": 302,
  "chang": 303,
  "xin": 304,
  "dui": 305,
  "lu": 306,
  "bing": 307,
  "bao": 308,
  "fen": 309,
  "dan": 310,
  "huo": 311,
  "jun": 312,
  "jiang": 313,
  "du": 314,
  "xiao": 315,
  "dian": 316,
  "yong": 317,
  "qian": 318,
  "she": 319,
  "tai": 320,
  "xia": 321,
  "mu": 322,
  "wen": 323,
  "gai": 324,
  "zhang": 325,
  "liang": 326,
  "ya": 327,
  "ru": 328,
  "dai": 329,
  "hai": 330,
  "nan": 331,
  "zhou": 332,
  "zu": 333,
  "wang": 334,
  "lai": 335,
  "ban": 336,
  "jiu": 337,
  "dang": 338,
  "qing": 339,
  "ping": 340,
  "shen": 341,
  "》": 342,
  "《": 343,
  "wan": 344,
  "lian": 345,
  "ling": 346,
  "luo": 347,
  "·": 348,
  "min": 349,
  "quan": 350,
  "pi": 351,
  "ni": 352,
  "bo": 353,
  "duo": 354,
  "te": 355,
  "ben": 356,
  "gao": 357,
  "biao": 358,
  "suo": 359,
  "la": 360,
  "ma": 361,
  "kai": 362,
  "ba": 363,
  "xie": 364,
  "xu": 365,
  "bian": 366,
  "deng": 367,
  "yao": 368,
  "yang": 369,
  "mian": 370,
  "zhen": 371,
  "ding": 372,
  "qiu": 373,
  "zui": 374,
  "sai": 375,
  "liu": 376,
  "fan": 377,
  "xuan": 378,
  "fei": 379,
  "san": 380,
  "shan": 381,
  "che": 382,
  "zong": 383,
  "men": 384,
  "「": 385,
  "」": 386,
  "tu": 387,
  "tian": 388,
  "hao": 389,
  "su": 390,
  "lei": 391,
  "nei": 392,
  "yun": 393,
  "201": 394,
  "lan": 395,
  "feng": 396,
  "mo": 397,
  "na": 398,
  "ze": 399,
  "lv": 400,
  "han": 401,
  "kou": 402,
  "wai": 403,
  "neng": 404,
  "lin": 405,
  "chuan": 406,
  "chi": 407,
  "jue": 408,
  "bai": 409,
  "pai": 410,
  "200": 411,
  "ku": 412,
  "cai": 413,
  "zao": 414,
  "ting": 415,
  "zhuan": 416,
  "gang": 417,
  "lie": 418,
  "guang": 419,
  "gui": 420,
  "lun": 421,
  "sui": 422,
  "pu": 423,
  "ceng": 424,
  "kong": 425,
  "shui": 426,
  "10": 427,
  "chao": 428,
  "zhuang": 429,
  "cha": 430,
  "dou": 431,
  "can": 432,
  "tou": 433,
  "ran": 434,
  "se": 435,
  "duan": 436,
  "cun": 437,
  "huan": 438,
  "cong": 439,
  "pin": 440,
  "ce": 441,
  "chan": 442,
  "xun": 443,
  "gou": 444,
  "00": 445,
  "nv": 446,
  "zhao": 447,
  "gan": 448,
  "chong": 449,
  "sha": 450,
  "tan": 451,
  "18": 452,
  "qin": 453,
  "ka": 454,
  "meng": 455,
  "qiang": 456,
  "huang": 457,
  "xiu": 458,
  "12": 459,
  "tiao": 460,
  "man": 461,
  "shao": 462,
  "kuo": 463,
  "long": 464,
  "pian": 465,
  "shuo": 466,
  "tuan": 467,
  "tang": 468,
  "rong": 469,
  "geng": 470,
  "202": 471,
  "chen": 472,
  "tui": 473,
  "gen": 474,
  "que": 475,
  "tie": 476,
  "11": 477,
  "qie": 478,
  "wo": 479,
  "po": 480,
  "pei": 481,
  "hang": 482,
  "hong": 483,
  "199": 484,
  "bang": 485,
  "liao": 486,
  "chuang": 487,
  "bie": 488,
  "re": 489,
  "tuo": 490,
  "tao": 491,
  "song": 492,
  "wa": 493,
  "mai": 494,
  "ha": 495,
  "15": 496,
  "pan": 497,
  "dun": 498,
  "diao": 499,
  "qiao": 500,
  "sa": 501,
  "mao": 502,
  "lang": 503,
  "kan": 504,
  "kang": 505,
  "or": 507,
  "lao": 508,
  "zeng": 509,
  "16": 510,
  "198": 511,
  "kao": 512,
  "xiong": 513,
  "17": 514,
  "on": 515,
  "nuo": 516,
  "miao": 517,
  "rang": 518,
  "kuang": 519,
  "hen": 520,
  "suan": 521,
  "14": 522,
  "30": 523,
  "zhun": 524,
  "13": 525,
  "194": 526,
  "cao": 527,
  "hun": 528,
  "qun": 529,
  "nong": 530,
  "197": 531,
  "heng": 532,
  "shuang": 533,
  "lou": 534,
  "gei": 535,
  "kuai": 536,
  "piao": 537,
  "zha": 538,
  "hei": 539,
  "niu": 540,
  "195": 541,
  "sen": 542,
  "bin": 543,
  "reng": 544,
  "zou": 545,
  "196": 546,
  "chun": 547,
  "kuan": 548,
  "25": 549,
  "—": 550,
  "rui": 551,
  "sun": 552,
  "pao": 553,
  "ning": 554,
  "for": 555,
  "pa": 556,
  "cang": 557,
  "mou": 558,
  "24": 559,
  "peng": 560,
  "huai": 561,
  "21": 562,
  "193": 563,
  "23": 564,
  "mula": 565,
  "formula": 566,
  "28": 567,
  "zan": 568,
  "ruo": 569,
  "in": 570,
  "22": 571,
  "chou": 572,
  "zhui": 573,
  "ar": 574,
  "me": 575,
  "26": 576,
  "50": 577,
  "2020": 578,
  "27": 579,
  "nai": 580,
  "nu": 581,
  "29": 583,
  "shun": 584,
  "2010": 585,
  "za": 586,
  "000": 587,
  "lve": 588,
  "zhai": 589,
  "2019": 590,
  "ne": 591,
  "ro": 592,
  "juan": 593,
  "st": 594,
  "ra": 595,
  "cui": 596,
  "kun": 597,
  "2016": 598,
  "luan": 599,
  "2018": 600,
  "cuo": 601,
  "2021": 602,
  "zang": 603,
  "2014": 604,
  "shuai": 605,
  "2011": 606,
  "2015": 607,
  "2017": 608,
  "2012": 609,
  "40": 610,
  "2013": 611,
  "nao": 612,
  "2022": 613,
  "die": 614,
  "ruan": 615,
  "kui": 616,
  "lt": 617,
  "rou": 618,
  "cu": 619,
  "sang": 620,
  "2009": 621,
  "2008": 622,
  "60": 624,
  "niao": 625,
  "al": 626,
  "rao": 627,
  "chai": 628,
  "100": 629,
  "zhuo": 630,
  "2023": 631,
  "gt": 632,
  "sou": 633,
  "190": 634,
  "31": 635,
  "ken": 636,
  "2007": 637,
  "2001": 638,
  "teng": 639,
  "pang": 640,
  "fou": 641,
  "co": 642,
  "fo": 643,
  "gua": 644,
  "2000": 645,
  "80": 646,
  "2006": 647,
  "2024": 648,
  "2005": 650,
  "zun": 651,
  "tion": 652,
  "kua": 653,
  "the": 654,
  "35": 655,
  "70": 656,
  "nie": 657,
  "lo": 658,
  "of": 659,
  "90": 660,
  "leng": 661,
  "－": 662,
  "am": 664,
  "tun": 665,
  "ter": 666,
  "mie": 667,
  "2004": 668,
  "th": 669,
  "to": 670,
  "45": 671,
  "48": 672,
  "mang": 673,
  "2025": 674,
  "ve": 675,
  "ga": 676,
  "〉": 677,
  "〈": 678,
  "36": 679,
  "38": 680,
  "2003": 681,
  "37": 682,
  "Ma": 683,
  "chui": 684,
  "pen": 685,
  "ll": 686,
  "189": 687,
  "IN": 688,
  "2002": 689,
  "keng": 690,
  "TC": 691,
  "do": 692,
  "34": 693,
  "75": 694,
  "–": 695,
  "Co": 696,
  "46": 697,
  "ca": 698,
  "1990": 699,
  "…": 700,
  "ck": 701,
  "39": 702,
  "..": 703,
  "be": 704,
  "65": 705,
  "32": 706,
  "ST": 707,
  "47": 708,
  "UTC": 709,
  "1999": 710,
  "1998": 711,
  "1980": 712,
  "188": 713,
  "500": 714,
  "33": 715,
  "In": 716,
  "64": 717,
  "ss": 718,
  "The": 719,
  "vi": 720,
  "SE": 721,
  "55": 722,
  "1997": 723,
  "Re": 724,
  "hi": 725,
  "49": 726,
  "II": 727,
  "el": 728,
  "68": 729,
  "et": 730,
  "44": 731,
  "1996": 732,
  "oo": 733,
  "qiong": 734,
  "1994": 735,
  "gun": 736,
  "br": 737,
  "guai": 738,
  "1992": 739,
  "1995": 740,
  "Mi": 741,
  "67": 742,
  "and": 743,
  "sao": 744,
  "es": 745,
  "1991": 746,
  "1970": 747,
  "58": 748,
  "1950": 749,
  "300": 750,
  "1993": 751,
  "187": 752,
  "1949": 753,
  "at": 754,
  "AT": 755,
  "pe": 756,
  "1960": 757,
  "42": 758,
  "1945": 759,
  "Li": 760,
  "ver": 761,
  "qia": 762,
  "1988": 763,
  "ty": 764,
  "1989": 765,
  "69": 766,
  "Ro": 767,
  "is": 768,
  "run": 769,
  "SEE": 770,
  "niang": 771,
  "INSEE": 772,
  "ho": 773,
  "59": 774,
  "43": 775,
  "66": 776,
  "57": 777,
  "1985": 778,
  "99": 779,
  "SA": 780,
  "『": 781,
  "』": 782,
  "ct": 783,
  "1984": 784,
  "41": 785,
  "88": 786,
  "1986": 787,
  "wi": 788,
  "ol": 789,
  "ws": 790,
  "TV": 791,
  "ry": 792,
  "150": 793,
  "Me": 794,
  "nd": 795,
  "400": 796,
  "1987": 797,
  "78": 798,
  "1982": 799,
  "56": 800,
  "beng": 801,
  "Vi": 802,
  "Pa": 803,
  "ts": 804,
  "1983": 805,
  "amp": 806,
  "NA": 807,
  "De": 808,
  "CD": 809,
  "gh": 810,
  "fi": 811,
  "weng": 812,
  "ber": 813,
  "77": 814,
  "Win": 815,
  "per": 816,
  "zuan": 817,
  "Sta": 818,
  "79": 819,
  "OS": 820,
  "Wi": 821,
  "°": 822,
  "der": 824,
  "180": 825,
  "BC": 826,
  "54": 827,
  "1979": 828,
  "61": 829,
  "1920": 830,
  "as": 831,
  "Mo": 832,
  "seng": 833,
  "98": 834,
  "52": 835,
  "You": 836,
  "1978": 837,
  "no": 838,
  "62": 839,
  "53": 840,
  "ly": 841,
  "shua": 842,
  "La": 843,
  "～": 844,
  "BA": 845,
  "1946": 846,
  "CO": 847,
  "51": 848,
  "1958": 849,
  "gi": 850,
  "Jo": 851,
  "1981": 852,
  "1972": 853,
  "1948": 854,
  "Le": 855,
  "tw": 856,
  "AM": 857,
  "63": 858,
  "AR": 859,
  "ction": 860,
  "1941": 861,
  "BS": 862,
  "Ga": 863,
  "1930": 864,
  "Da": 865,
  "Pro": 866,
  "Te": 867,
  "76": 868,
  "hans": 869,
  "1940": 870,
  "1937": 871,
  "1976": 872,
  "1944": 873,
  "Ja": 874,
  "89": 875,
  "us": 876,
  "Di": 877,
  "Windo": 878,
  "1975": 879,
  "／": 880,
  "1968": 881,
  "hk": 882,
  "con": 883,
  "Fi": 884,
  "um": 885,
  "Si": 886,
  "1000": 887,
  "Windows": 888,
  "95": 889,
  "87": 890,
  "nal": 891,
  "Mar": 892,
  "1966": 893,
  "rd": 894,
  "85": 895,
  "Ne": 896,
  "Ra": 897,
  "ki": 898,
  "600": 899,
  "120": 900,
  "1947": 901,
  "Se": 902,
  "AC": 903,
  "1956": 904,
  "1964": 905,
  "Be": 906,
  "1942": 907,
  "é": 908,
  "1955": 909,
  "1952": 910,
  "IS": 911,
  "ad": 912,
  "1939": 913,
  "1938": 914,
  "72": 915,
  "ur": 916,
  "74": 917,
  "Ca": 918,
  "va": 919,
  "1973": 920,
  "1974": 921,
  "1954": 922,
  "Ar": 923,
  "Al": 924,
  "ED": 925,
  "1900": 926,
  "--": 927,
  "AP": 928,
  "1943": 929,
  "To": 930,
  "1977": 931,
  "ld": 932,
  "1971": 933,
  "cen": 934,
  "lay": 935,
  "1967": 936,
  "Ba": 937,
  "IC": 938,
  "800": 939,
  "Po": 940,
  "Lo": 941,
  "ER": 942,
  "zhua": 943,
  "sta": 944,
  "86": 945,
  "1959": 946,
  "Bo": 947,
  "tt": 948,
  "1965": 949,
  "JR": 950,
  "1969": 951,
  "Fa": 952,
  "・": 953,
  "×": 954,
  "ID": 955,
  "Bi": 956,
  "son": 957,
  "1936": 958,
  "160": 959,
  "97": 960,
  "1953": 961,
  "Sa": 962,
  "MA": 963,
  "1962": 964,
  "1961": 965,
  "nen": 966,
  "Na": 967,
  "So": 969,
  "1935": 970,
  "com": 971,
  "Ho": 972,
  "tic": 973,
  "96": 974,
  "ON": 975,
  "％": 976,
  "1951": 977,
  "St": 978,
  "1957": 979,
  "1963": 980,
  "Tu": 981,
  "─": 982,
  "fe": 983,
  "so": 984,
  "ment": 985,
  "84": 986,
  "Hi": 987,
  "2026": 988,
  "82": 989,
  "Do": 990,
  "mer": 991,
  "Ri": 992,
  "73": 993,
  "nt": 994,
  "94": 995,
  "92": 996,
  "Ki": 997,
  "Ha": 998,
  "nang": 999,
  "one": 1000,
  "IP": 1001,
  "AN": 1002,
  "ls": 1003,
  "1933": 1004,
  "1931": 1005,
  "les": 1006,
  "71": 1007,
  "nuan": 1008,
  "Com": 1009,
  "83": 1010,
  "93": 1011,
  "ted": 1012,
  "Su": 1013,
  "81": 1014,
  "Ti": 1015,
  "Mu": 1016,
  "1918": 1017,
  "Ni": 1018,
  "HD": 1019,
  "Uni": 1020,
  "1928": 1021,
  "pp": 1022,
  "1932": 1023,
  "Cha": 1024,
  "We": 1025,
  "ys": 1026,
  "MV": 1027,
  "SS": 1028,
  "110": 1029,
  "IT": 1030,
  "1912": 1031,
  "No": 1032,
  "1929": 1033,
  "1927": 1034,
  "1934": 1035,
  "cn": 1036,
  "700": 1037,
  "go": 1038,
  "zei": 1039,
  "ght": 1040,
  "ster": 1041,
  "250": 1042,
  "91": 1043,
  "rt": 1044,
  "lli": 1045,
  "1924": 1046,
  "ris": 1047,
  "...": 1048,
  "1919": 1049,
  "nve": 1050,
  "130": 1051,
  "Pi": 1052,
  "1925": 1053,
  "Gi": 1054,
  "PS": 1055,
  "by": 1056,
  "ed": 1057,
  "mes": 1058,
  "An": 1059,
  "PC": 1060,
  "140": 1061,
  "AS": 1062,
  "Play": 1063,
  "1914": 1064,
  "km": 1065,
  "DV": 1066,
  "tio": 1067,
  "YouTu": 1068,
  "SM": 1069,
  "ble": 1070,
  "gra": 1071,
  "ko": 1072,
  "1911": 1073,
  "Con": 1074,
  "Ch": 1075,
  "lla": 1076,
  "1926": 1077,
  "lle": 1078,
  "Ge": 1079,
  "Par": 1080,
  "id": 1081,
  "Ta": 1082,
  "1922": 1083,
  "Lin": 1084,
  "mp": 1085,
  "1917": 1086,
  "He": 1087,
  "Ka": 1088,
  "ET": 1089,
  "NBA": 1090,
  "wn": 1091,
  "IV": 1092,
  "EN": 1093,
  "1923": 1094,
  "1921": 1095,
  "shai": 1096,
  "Goo": 1097,
  "chuo": 1098,
  "170": 1099,
  "EC": 1101,
  "MS": 1102,
  "ali": 1103,
  "AL": 1104,
  "ph": 1105,
  "section": 1106,
  "YouTube": 1107,
  "EP": 1108,
  "BL": 1109,
  "1913": 1110,
  "Car": 1111,
  "Bu": 1112,
  "zen": 1113,
  "HK": 1114,
  "we": 1115,
  "hn": 1116,
  "mm": 1117,
  "ven": 1118,
  "hant": 1119,
  "1909": 1121,
  "sion": 1122,
  "Inter": 1123,
  "cro": 1124,
  "MP": 1125,
  "AI": 1126,
  "Wor": 1127,
  "Pe": 1128,
  "ds": 1129,
  "US": 1130,
  "pro": 1131,
  "DVD": 1132,
  "ok": 1133,
  "3000": 1134,
  "En": 1135,
  "1910": 1136,
  "DS": 1137,
  "RO": 1138,
  "cou": 1139,
  "Ste": 1140,
  "sis": 1141,
  "112": 1142,
  "Go": 1143,
  "rk": 1144,
  "AK": 1145,
  "RE": 1146,
  "1916": 1147,
  "Wa": 1148,
  "lia": 1149,
  "ー": 1150,
  "Station": 1151,
  "For": 1152,
  "Net": 1153,
  "ff": 1154,
  "α": 1155,
  "oft": 1156,
  "ine": 1157,
  "den": 1158,
  "lor": 1159,
  "rea": 1160,
  "tional": 1161,
  "gn": 1162,
  "ture": 1163,
  "gle": 1164,
  "CP": 1165,
  "UN": 1166,
  "ard": 1168,
  "1915": 1169,
  "gin": 1170,
  "1905": 1171,
  "ps": 1172,
  "FC": 1173,
  "cal": 1174,
  "vo": 1175,
  "dia": 1176,
  "My": 1177,
  "CN": 1178,
  "→": 1180,
  "our": 1181,
  "ers": 1182,
  "1901": 1183,
  "ent": 1184,
  "Au": 1185,
  "DNA": 1186,
  "Ex": 1187,
  "‧": 1188,
  "900": 1189,
  "end": 1190,
  "HR": 1191,
  "dice": 1192,
  ".&": 1193,
  "ther": 1194,
  "tal": 1195,
  "CH": 1196,
  "TA": 1197,
  "TO": 1198,
  "1906": 1199,
  "1904": 1200,
  "AV": 1201,
  "tes": 1202,
  "MO": 1203,
  "jiong": 1204,
  "John": 1205,
  "my": 1206,
  "eri": 1207,
  "codice": 1208,
  "Man": 1209,
  "℃": 1210,
  "dy": 1211,
  "PlayStation": 1212,
  "Chi": 1213,
  "05": 1214,
  "CC": 1215,
  "tive": 1216,
  "diu": 1217,
  "And": 1218,
  "1907": 1219,
  "dio": 1220,
  "1908": 1221,
  "Google": 1222,
  "AG": 1223,
  "Ci": 1224,
  "EST": 1225,
  "MI": 1226,
  "SO": 1227,
  "LE": 1228,
  "sic": 1229,
  "ree": 1230,
  "BO": 1231,
  "int": 1232,
  "wit": 1233,
  "BBC": 1234,
  "Sch": 1235,
  "AD": 1236,
  "IG": 1237,
  "land": 1238,
  "III": 1239,
  "cri": 1240,
  "ton": 1241,
  "1500": 1242,
  "5000": 1243,
  "cy": 1244,
  "round": 1245,
  "wer": 1246,
  "IST": 1247,
  "ms": 1248,
  "ron": 1249,
  "ME": 1250,
  "CR": 1251,
  "ul": 1252,
  "3D": 1253,
  "je": 1254,
  "IA": 1255,
  "ley": 1256,
  "105": 1257,
  "au": 1258,
  "а": 1259,
  "ria": 1260,
  "101": 1261,
  "1903": 1262,
  "tor": 1263,
  "GB": 1264,
  "van": 1265,
  "09": 1266,
  "TE": 1267,
  "Lu": 1268,
  "1902": 1269,
  "BD": 1270,
  "NC": 1271,
  "Pri": 1272,
  "Fe": 1273,
  "xt": 1274,
  "350": 1275,
  "pou": 1276,
  "á": 1277,
  "SAO": 1278,
  "des": 1279,
  "DC": 1280,
  "ja": 1281,
  "β": 1282,
  "cke": 1283,
  "B1900": 1284,
  "book": 1285,
  "hat": 1286,
  "ES": 1287,
  "all": 1288,
  "BM": 1289,
  "．": 1290,
  "ン": 1291,
  "Ru": 1292,
  "ner": 1293,
  "1898": 1294,
  "res": 1295,
  "06": 1296,
  "118": 1297,
  "op": 1298,
  "の": 1299,
  "360": 1300,
  "DR": 1301,
  "New": 1302,
  "01": 1303,
  "DA": 1304,
  "Hu": 1305,
  "Open": 1306,
  "1895": 1307,
  "ger": 1308,
  "125": 1309,
  "Sho": 1310,
  "HO": 1311,
  "MC": 1312,
  "San": 1313,
  "ATP": 1314,
  "Micro": 1315,
  "ctor": 1316,
  "о": 1317,
  "108": 1318,
  "ft": 1319,
  "cor": 1320,
  "os": 1321,
  "NG": 1322,
  "Ke": 1323,
  "clu": 1324,
  "gy": 1325,
  "gram": 1326,
  "pri": 1327,
  "ward": 1328,
  "sty": 1329,
  "IF": 1330,
  "Cu": 1331,
  "Fran": 1332,
  "One": 1333,
  "net": 1334,
  "soft": 1335,
  "ker": 1336,
  "pt": 1337,
  "−": 1338,
  "07": 1339,
  "08": 1340,
  "230": 1341,
  "Face": 1342,
  "104": 1343,
  "pace": 1344,
  "lspan": 1345,
  "Cor": 1346,
  "Per": 1347,
  "Bar": 1348,
  "World": 1349,
  "App": 1350,
  "EDT": 1351,
  "ISTAT": 1352,
  "cuan": 1353,
  "Love": 1354,
  "Ko": 1355,
  "Har": 1357,
  "NO": 1358,
  "Stu": 1359,
  "1896": 1360,
  "LL": 1361,
  "ux": 1362,
  "109": 1363,
  "DP": 1364,
  "las": 1365,
  "AA": 1366,
  "fli": 1367,
  "RI": 1368,
  "Ju": 1369,
  "pha": 1370,
  "Ser": 1371,
  "lus": 1372,
  "line": 1373,
  "RT": 1374,
  "tri": 1375,
  "SP": 1376,
  "EX": 1377,
  "B48": 1378,
  "106": 1379,
  "1890": 1380,
  "rai": 1381,
  "sti": 1382,
  "mon": 1383,
  "CST": 1384,
  "ML": 1385,
  "od": 1386,
  "uni": 1387,
  "CDT": 1388,
  "bert": 1389,
  "Je": 1390,
  "rs": 1391,
  "rus": 1392,
  "red": 1393,
  "DO": 1394,
  "Pu": 1395,
  "ky": 1396,
  "HE": 1397,
  "Cou": 1398,
  "ation": 1399,
  "Mon": 1400,
  "04": 1401,
  "4000": 1402,
  "115": 1403,
  "1200": 1404,
  "M1": 1405,
  "Pre": 1406,
  "03": 1407,
  "ler": 1408,
  "GP": 1409,
  "del": 1410,
  "CE": 1411,
  "ā": 1412,
  "Live": 1413,
  "begin": 1414,
  "1889": 1415,
  "ool": 1416,
  "Davi": 1417,
  "with": 1418,
  "ara": 1419,
  "1899": 1420,
  "colspan": 1421,
  "tain": 1422,
  "back": 1423,
  "1871": 1424,
  "RS": 1425,
  "sto": 1426,
  "Facebook": 1427,
  "Ed": 1428,
  "Sha": 1429,
  "Microsoft": 1430,
  "mic": 1431,
  "tem": 1432,
  "​": 1433,
  "240": 1434,
  "1600": 1435,
  "LO": 1436,
  "Tri": 1437,
  "ten": 1438,
  "tin": 1439,
  "BE": 1440,
  "low": 1441,
  "102": 1442,
  "box": 1443,
  "clude": 1444,
  "Ad": 1445,
  "TT": 1446,
  "1897": 1447,
  "Sou": 1448,
  "ser": 1449,
  "NH": 1450,
  "EE": 1451,
  "Du": 1452,
  "ces": 1453,
  "PP": 1454,
  "117": 1455,
  "SC": 1456,
  "val": 1457,
  "02": 1458,
  "por": 1459,
  "cm": 1460,
  "Mac": 1461,
  "style": 1462,
  "Che": 1463,
  "rst": 1464,
  "103": 1465,
  "AKB48": 1466,
  "Dan": 1467,
  "MD": 1468,
  "Nor": 1469,
  "Ph": 1470,
  "107": 1471,
  "ral": 1472,
  "Her": 1473,
  "On": 1474,
  "pre": 1475,
  "ring": 1476,
  "As": 1477,
  "are": 1478,
  "Willi": 1479,
  "tel": 1480,
  "Linux": 1481,
  "lis": 1482,
  "Ori": 1483,
  "ww": 1484,
  "Dis": 1485,
  "shuan": 1486,
  "gue": 1487,
  "mas": 1488,
  "450": 1489,
  "Ber": 1490,
  "VID": 1491,
  "127": 1492,
  "Music": 1493,
  "Is": 1494,
  "Ai": 1495,
  "Gre": 1496,
  "cer": 1497,
  "ü": 1498,
  "tus": 1499,
  "Vo": 1500,
  "tra": 1501,
  "128": 1502,
  "flix": 1503,
  "CL": 1504,
  "Netflix": 1505,
  "Bro": 1506,
  "yo": 1507,
  "1894": 1508,
  "Game": 1509,
  "220": 1510,
  "Can": 1511,
  "Gra": 1512,
  "nin": 1513,
  "ref": 1514,
  "н": 1515,
  "William": 1516,
  "Bri": 1517,
  "IL": 1518,
  "align": 1519,
  "SH": 1520,
  "bli": 1521,
  "ory": 1522,
  "Or": 1523,
  "Twit": 1524,
  "1880": 1525,
  "Red": 1526,
  "old": 1527,
  "í": 1528,
  "RNA": 1529,
  "136": 1530,
  "PG": 1531,
  "и": 1532,
  "い": 1533,
  "rom": 1534,
  "TR": 1535,
  "Team": 1536,
  "1800": 1537,
  "ス": 1538,
  "Univer": 1539,
  "ground": 1540,
  "ia": 1541,
  "1885": 1542,
  "len": 1543,
  "114": 1544,
  "ん": 1545,
  "Hz": 1546,
  "color": 1547,
  "Gen": 1548,
  "Ty": 1549,
  "116": 1550,
  "280": 1551,
  "UR": 1552,
  "ple": 1553,
  "е": 1554,
  "113": 1555,
  "1886": 1556,
  "ein": 1557,
  "イ": 1558,
  "TS": 1559,
  "PO": 1560,
  "1893": 1561,
  "lar": 1562,
  "ex": 1563,
  "rn": 1564,
  "yn": 1565,
  "Mc": 1566,
  "name": 1567,
  "111": 1568,
  "SL": 1569,
  "Super": 1571,
  "She": 1572,
  "stra": 1573,
  "All": 1574,
  "Gu": 1575,
  "cial": 1576,
  "lass": 1577,
  "※": 1578,
  "David": 1579,
  "135": 1580,
  "ject": 1581,
  "Ac": 1582,
  "260": 1583,
  "Cen": 1584,
  "Eu": 1585,
  "lf": 1586,
  "1860": 1587,
  "port": 1588,
  "ham": 1589,
  "Geor": 1590,
  "cho": 1591,
  "national": 1592,
  "Char": 1593,
  "Un": 1594,
  "WTA": 1595,
  "lver": 1596,
  "dge": 1597,
  "work": 1598,
  "HC": 1599,
  "Th": 1600,
  "tro": 1601,
  "School": 1602,
  "Ban": 1603,
  "ks": 1604,
  "sso": 1605,
  "tch": 1606,
  "tis": 1607,
  "1888": 1608,
  "Mor": 1609,
  "qui": 1610,
  "text": 1611,
  "SD": 1612,
  "ó": 1613,
  "-.": 1614,
  "UA": 1615,
  "roup": 1616,
  "lly": 1617,
  "cation": 1618,
  "ony": 1619,
  "background": 1620,
  "Meta": 1621,
  "roid": 1622,
  "ac": 1623,
  "meri": 1624,
  "Tra": 1625,
  "129": 1626,
  "GO": 1627,
  "Sto": 1628,
  "dis": 1629,
  "1870": 1630,
  "GN": 1631,
  "ream": 1633,
  "1887": 1634,
  "Show": 1635,
  "Qu": 1636,
  "cle": 1637,
  "1868": 1638,
  "6000": 1639,
  "ö": 1640,
  "р": 1641,
  "1883": 1642,
  "NF": 1643,
  "VA": 1644,
  "mar": 1645,
  "Ver": 1646,
  "day": 1647,
  "320": 1648,
  "Xbox": 1649,
  "CS": 1650,
  "was": 1651,
  "Ang": 1652,
  "NHK": 1653,
  "Tho": 1654,
  "AF": 1655,
  "Fo": 1656,
  "Twitter": 1657,
  "DD": 1658,
  "lyin": 1659,
  "onlyin": 1660,
  "onlyinclude": 1661,
  "++": 1662,
  "KP": 1663,
  "don": 1664,
  "1864": 1665,
  "•": 1666,
  "Gir": 1667,
  "ION": 1668,
  "1884": 1669,
  "119": 1670,
  "Bla": 1671,
  "RC": 1672,
  "UE": 1673,
  "ain": 1674,
  "miu": 1675,
  "122": 1676,
  "Va": 1677,
  "2500": 1678,
  "1892": 1679,
  "210": 1680,
  "A1": 1681,
  "center": 1682,
  "cket": 1683,
  "155": 1684,
  "ISO": 1685,
  "145": 1687,
  "stri": 1688,
  "1891": 1689,
  "650": 1690,
  "way": 1691,
  "Android": 1692,
  "NS": 1693,
  "Clu": 1694,
  "〕": 1695,
  "OR": 1696,
  "ffi": 1697,
  "htt": 1698,
  "mber": 1699,
  "〔": 1700,
  "1850": 1701,
  "Fu": 1702,
  "Phi": 1703,
  "age": 1704,
  "mb": 1705,
  "win": 1706,
  "xy": 1707,
  "Cy": 1708,
  "Ku": 1709,
  "king": 1710,
  "International": 1711,
  "sia": 1712,
  "1867": 1713,
  "logy": 1714,
  "Ce": 1715,
  "IM": 1716,
  "ト": 1717,
  "1879": 1718,
  "Star": 1719,
  "rie": 1720,
  "James": 1721,
  "Enter": 1722,
  "cc": 1723,
  "ller": 1724,
  "380": 1725,
  "AB": 1726,
  "UP": 1727,
  "ney": 1728,
  "Eng": 1729,
  "1876": 1730,
  "Spe": 1731,
  "War": 1732,
  "ny": 1733,
  "Studio": 1734,
  "zo": 1735,
  "George": 1736,
  "Ab": 1737,
  "Ani": 1738,
  "1875": 1739,
  "1861": 1740,
  "270": 1741,
  "Universi": 1742,
  "Games": 1743,
  "Bra": 1744,
  "IR": 1745,
  "126": 1746,
  "NT": 1747,
  "è": 1748,
  "time": 1749,
  "art": 1750,
  "Es": 1751,
  "Por": 1752,
  "NGC": 1753,
  "stru": 1754,
  "ル": 1755,
  "1873": 1756,
  "Hen": 1757,
  "MG": 1758,
  "phi": 1759,
  "ero": 1760,
  "123": 1761,
  "ラ": 1762,
  "PV": 1763,
  "ns": 1764,
  "Ben": 1765,
  "Dra": 1766,
  "HT": 1767,
  "Colle": 1768,
  "Group": 1769,
  "Pan": 1770,
  "car": 1771,
  "mpi": 1772,
  "rans": 1773,
  "Sun": 1774,
  "it": 1775,
  "ut": 1776,
  "168": 1777,
  "cus": 1778,
  "COVID": 1779,
  "Blo": 1780,
  "FM": 1781,
  "MB": 1782,
  "Sys": 1783,
  "ous": 1784,
  "sed": 1785,
  "1865": 1786,
  "Club": 1787,
  "AO": 1788,
  "Ameri": 1789,
  "PL": 1790,
  "her": 1791,
  "im": 1792,
  "121": 1793,
  "DE": 1794,
  "Don": 1795,
  "that": 1796,
  "Air": 1797,
  "Center": 1798,
  "175": 1799,
  "ary": 1800,
  "う": 1801,
  "Web": 1802,
  "H2": 1803,
  "YP": 1804,
  "from": 1805,
  "ä": 1806,
  "1400": 1807,
  "MAX": 1808,
  "critic": 1809,
  "Ale": 1810,
  "tz": 1811,
  "138": 1812,
  "228": 1813,
  "Han": 1814,
  "TP": 1815,
  "1848": 1816,
  "1862": 1817,
  "330": 1818,
  "124": 1819,
  "ア": 1820,
  "1881": 1821,
  "1882": 1822,
  "737": 1823,
  "Lea": 1824,
  "Ali": 1825,
  "UC": 1826,
  "hy": 1827,
  "1878": 1828,
  "550": 1829,
  "Ve": 1830,
  "sau": 1831,
  "bri": 1832,
  "bit": 1833,
  "1872": 1834,
  "El": 1835,
  "LC": 1836,
  "Insta": 1837,
  "Min": 1838,
  "ration": 1839,
  "INK": 1840,
  "Metacritic": 1841,
  "eld": 1842,
  "Oricon": 1843,
  "Sai": 1844,
  "Whi": 1845,
  "sco": 1846,
  "156": 1847,
  "Boo": 1848,
  "MTV": 1849,
  "sp": 1850,
  "165": 1851,
  "LED": 1852,
  "1840": 1853,
  "IVE": 1854,
  "Ya": 1855,
  "cre": 1856,
  "kin": 1857,
  "750": 1858,
  "ッ": 1859,
  "1300": 1860,
  "し": 1861,
  "Hy": 1862,
  "137": 1863,
  "Micha": 1864,
  "Mark": 1865,
  "7000": 1866,
  "Hel": 1867,
  "era": 1868,
  "DOS": 1869,
  "SQ": 1870,
  "UB": 1871,
  "229": 1872,
  "IU": 1873,
  "GDP": 1874,
  "King": 1875,
  "OK": 1876,
  "с": 1877,
  "type": 1878,
  "Gran": 1879,
  "nic": 1880,
  "High": 1881,
  "Tai": 1882,
  "ast": 1883,
  "152": 1884,
  "TVB": 1885,
  "Chris": 1886,
  "159": 1887,
  "1877": 1888,
  "Robert": 1889,
  "Chan": 1890,
  "py": 1891,
  "sy": 1892,
  "tle": 1893,
  "cien": 1895,
  "1866": 1896,
  "Hou": 1897,
  "iOS": 1898,
  "ot": 1899,
  "л": 1900,
  "Produ": 1901,
  "SK": 1902,
  "Shi": 1903,
  "silver": 1904,
  "1869": 1905,
  "′": 1906,
  "thi": 1907,
  "THE": 1908,
  "Up": 1909,
  "Day": 1910,
  "Cro": 1911,
  "DM": 1912,
  "Ele": 1913,
  "Stre": 1914,
  "Peter": 1915,
  "It": 1916,
  "NET": 1917,
  "tter": 1918,
  "Free": 1919,
  "Jan": 1920,
  "к": 1921,
  "139": 1922,
  "Phone": 1923,
  "Instagram": 1924,
  "At": 1925,
  "BI": 1926,
  "Sur": 1927,
  "pla": 1928,
  "BLAC": 1929,
  "Type": 1930,
  "в": 1931,
  "ora": 1932,
  "Apple": 1933,
  "DJ": 1934,
  "Sy": 1935,
  "Wal": 1936,
  "CG": 1937,
  "WE": 1938,
  "code": 1939,
  "ク": 1940,
  "Michael": 1941,
  "DF": 1942,
  "Sh": 1943,
  "1100": 1945,
  "cia": 1946,
  "158": 1947,
  "ness": 1948,
  "Big": 1949,
  "225": 1950,
  "Pla": 1951,
  "Pat": 1952,
  "Sam": 1953,
  "Ye": 1954,
  "vin": 1955,
  "nia": 1956,
  "305": 1957,
  "133": 1958,
  "INE": 1959,
  "Paul": 1960,
  "Tech": 1961,
  "National": 1962,
  "tte": 1963,
  "oun": 1964,
  "nis": 1965,
  "リ": 1966,
  "Award": 1967,
  "RA": 1968,
  "YO": 1969,
  "132": 1970,
  "Steam": 1971,
  "205": 1972,
  "1863": 1973,
  "ray": 1974,
  "IE": 1975,
  "pany": 1976,
  "Media": 1977,
  "tainment": 1978,
  "215": 1979,
  "Br": 1980,
  "University": 1981,
  "FO": 1982,
  "Lou": 1983,
  "Val": 1984,
  "ensis": 1985,
  "tions": 1986,
  "Bill": 1987,
  "phy": 1988,
  "CA": 1989,
  "F1": 1990,
  "KBS": 1991,
  "bur": 1992,
  "148": 1993,
  "131": 1994,
  "Smi": 1995,
  "kg": 1996,
  "166": 1997,
  "1874": 1998,
  "XX": 1999,
  "deo": 2000,
  "1858": 2001,
  "par": 2002,
  "EF": 2003,
  "sor": 2004,
  "rin": 2005,
  "rum": 2006,
  "Cho": 2007,
  "clo": 2008,
  "147": 2009,
  "Hol": 2010,
  "mini": 2011,
  "Fri": 2012,
  "256": 2013,
  "か": 2014,
  "M2": 2015,
  "1830": 2016,
  "CBS": 2017,
  "UT": 2018,
  "gon": 2019,
  "lm": 2020,
  "1851": 2021,
  "Lee": 2022,
  "BN": 2023,
  "GA": 2024,
  "HI": 2025,
  "UI": 2026,
  "lip": 2027,
  "ric": 2028,
  "192": 2029,
  "Park": 2030,
  "td": 2031,
  "μ": 2032,
  "8000": 2033,
  "Mer": 2034,
  "now": 2035,
  "Entertainment": 2036,
  "310": 2037,
  "143": 2038,
  "his": 2039,
  "Mk": 2040,
  "1855": 2041,
  "City": 2042,
  "Black": 2043,
  "Wil": 2044,
  "Power": 2045,
  "Chu": 2046,
  "EM": 2047,
  "IX": 2048,
  "Space": 2049,
  "gar": 2050,
  "whi": 2051,
  "GM": 2052,
  "RAM": 2053,
  "185": 2055,
  "1859": 2056,
  "tho": 2057,
  "STAR": 2058,
  "Jack": 2059,
  "Charles": 2060,
  "134": 2061,
  "Java": 2062,
  "Dire": 2063,
  "ABC": 2064,
  "Gar": 2065,
  "Ter": 2066,
  "spe": 2067,
  "ship": 2068,
  "1854": 2069,
  "146": 2070,
  "301": 2071,
  "1700": 2072,
  "inter": 2073,
  "Viu": 2074,
  "stitu": 2075,
  "370": 2076,
  "Fla": 2077,
  "Ken": 2078,
  "1857": 2079,
  "Alpha": 2080,
  "Lan": 2081,
  "Stan": 2082,
  "out": 2083,
  "los": 2084,
  "Dar": 2085,
  "ا": 2086,
  "290": 2087,
  "な": 2088,
  "Life": 2089,
  "︰": 2090,
  "vs": 2091,
  "γ": 2092,
  "214": 2093,
  "420": 2094,
  "Cam": 2095,
  "т": 2096,
  "Recor": 2097,
  "Company": 2098,
  "Fun": 2099,
  "ο": 2100,
  "〜": 2101,
  "1856": 2102,
  "1853": 2103,
  "Project": 2104,
  "Dream": 2105,
  "Fan": 2106,
  "Sen": 2107,
  "dium": 2108,
  "た": 2109,
  "first": 2110,
  "Time": 2111,
  "Thomas": 2112,
  "House": 2113,
  "Pen": 2114,
  "144": 2115,
  "Saint": 2116,
  "FA": 2117,
  "OVA": 2118,
  "Py": 2119,
  "Spi": 2120,
  "Cent": 2121,
  "VO": 2122,
  "ek": 2123,
  "face": 2124,
  "A2": 2125,
  "IO": 2126,
  "dd": 2127,
  "von": 2128,
  "167": 2129,
  "Japan": 2130,
  "Street": 2131,
  "3A": 2132,
  "Cla": 2133,
  "HS": 2134,
  "SBS": 2135,
  "rence": 2136,
  "bili": 2137,
  "rist": 2138,
  "chard": 2139,
  "1841": 2140,
  "very": 2141,
  "Euro": 2142,
  "LP": 2143,
  "Plan": 2144,
  "ak": 2145,
  "ie": 2146,
  "rp": 2147,
  "bal": 2148,
  "ety": 2149,
  "Alex": 2150,
  "340": 2151,
  "PM": 2152,
  "bun": 2153,
  "if": 2154,
  "lue": 2155,
  "BLACKP": 2156,
  "Sco": 2157,
  "Tal": 2158,
  "dra": 2159,
  "cher": 2160,
  "208": 2161,
  "ses": 2162,
  "1815": 2163,
  "178": 2164,
  "Soci": 2165,
  "CPU": 2166,
  "BLACKPINK": 2167,
  "223": 2168,
  "space": 2169,
  "850": 2170,
  "LGB": 2171,
  "Sing": 2172,
  "Spo": 2173,
  "ew": 2174,
  "tta": 2175,
  "cess": 2176,
  "ood": 2177,
  "www": 2178,
  "IBM": 2179,
  "zer": 2180,
  "mis": 2181,
  "Art": 2182,
  "ports": 2183,
  "Bat": 2184,
  "Bur": 2185,
  "SF": 2186,
  "207": 2187,
  "mation": 2188,
  "wor": 2189,
  "171": 2190,
  "235": 2191,
  "と": 2192,
  "ま": 2193,
  "LIVE": 2194,
  "SU": 2195,
  "Soft": 2196,
  "203": 2197,
  "B2": 2198,
  "Fer": 2199,
  "VE": 2200,
  "SQL": 2201,
  "tha": 2202,
  "1846": 2203,
  "164": 2204,
  "College": 2205,
  "Am": 2206,
  "cra": 2207,
  "157": 2208,
  "lter": 2209,
  "vice": 2210,
  "berg": 2211,
  "American": 2212,
  "BR": 2213,
  "LT": 2214,
  "NE": 2215,
  "Pol": 2216,
  "141": 2217,
  "ford": 2218,
  "ICE": 2219,
  "Ama": 2220,
  "B1": 2221,
  "PE": 2222,
  "nvi": 2223,
  "176": 2224,
  "ING": 2225,
  "Girls": 2226,
  "Asso": 2227,
  "Ger": 2228,
  "LS": 2229,
  "ste": 2230,
  "²": 2231,
  "turn": 2232,
  "publi": 2233,
  "self": 2234,
  "1812": 2235,
  "1845": 2236,
  "1844": 2237,
  "stro": 2238,
  "Road": 2239,
  "not": 2240,
  "Offi": 2241,
  "Wo": 2242,
  "dro": 2243,
  "ball": 2244,
  "231": 2245,
  "arch": 2246,
  "cture": 2247,
  "class": 2248,
  "lon": 2249,
  "esti": 2250,
  "Rock": 2251,
  "Cl": 2252,
  "HF": 2253,
  "Ltd": 2254,
  "M3": 2255,
  "play": 2256,
  "lea": 2257,
  "board": 2258,
  "り": 2259,
  "witch": 2260,
  "LGBT": 2261,
  "llo": 2262,
  "sg": 2263,
  "here": 2264,
  "209": 2265,
  "き": 2266,
  "NASA": 2267,
  "Tele": 2268,
  "GNU": 2269,
  "LA": 2270,
  "Van": 2271,
  "gs": 2272,
  "tation": 2273,
  "Jose": 2274,
  "well": 2275,
  "Tour": 2276,
  "IUCN": 2277,
  "Smith": 2278,
  "216": 2279,
  "PN": 2280,
  "Rou": 2281,
  "κ": 2282,
  "1849": 2283,
  "153": 2284,
  "CT": 2285,
  "NBC": 2286,
  "204": 2287,
  "238": 2288,
  "nes": 2289,
  "Good": 2290,
  "Production": 2291,
  "BB": 2292,
  "Cal": 2293,
  "GT": 2294,
  "bra": 2295,
  "ded": 2296,
  "Video": 2297,
  "O2": 2298,
  "ep": 2299,
  "fer": 2300,
  "σ": 2301,
  "mited": 2302,
  "pie": 2303,
  "row": 2304,
  "Hall": 2305,
  "PR": 2306,
  "dae": 2307,
  "206": 2308,
  "thy": 2309,
  "Pad": 2310,
  "Gala": 2311,
  "Boy": 2312,
  "eries": 2313,
  "460": 2314,
  "Af": 2315,
  "Tor": 2316,
  "set": 2317,
  "1814": 2318,
  "vel": 2319,
  "ders": 2320,
  "saurus": 2321,
  "218": 2322,
  "Eli": 2323,
  "Tur": 2324,
  "wood": 2325,
  "Jean": 2326,
  "SI": 2327,
  "Ten": 2328,
  "nel": 2329,
  "vision": 2330,
  "IGN": 2331,
  "Act": 2332,
  "LD": 2333,
  "PA": 2334,
  "fra": 2335,
  "Richard": 2337,
  "FF": 2338,
  "Kar": 2339,
  "WS": 2340,
  "om": 2341,
  "π": 2342,
  "tar": 2343,
  "1847": 2344,
  "154": 2345,
  "ved": 2346,
  "580": 2347,
  "MBC": 2348,
  "side": 2349,
  "mac": 2350,
  "chem": 2351,
  "1843": 2352,
  "Best": 2353,
  "ptr": 2354,
  "System": 2355,
  "430": 2356,
  "Sky": 2357,
  "Zi": 2358,
  "rich": 2359,
  "cis": 2360,
  "177": 2361,
  "401": 2362,
  "lls": 2363,
  "410": 2364,
  "Fle": 2365,
  "sin": 2366,
  "mann": 2367,
  "シ": 2368,
  "NFL": 2369,
  "ViuTV": 2370,
  "Switch": 2371,
  "dar": 2372,
  "163": 2373,
  "AMD": 2374,
  "Digi": 2375,
  "API": 2376,
  "Para": 2377,
  "ICO": 2378,
  "Sma": 2379,
  "data": 2380,
  "ments": 2381,
  "1852": 2382,
  "162": 2383,
  "thon": 2384,
  "Max": 2385,
  "VII": 2386,
  "ced": 2387,
  "1820": 2388,
  "く": 2389,
  "West": 2390,
  "Ag": 2391,
  "Glo": 2392,
  "Tun": 2393,
  "Vol": 2394,
  "ach": 2395,
  "zon": 2396,
  "142": 2397,
  "234": 2398,
  "star": 2399,
  "cript": 2400,
  "VR": 2401,
  "sys": 2402,
  "sign": 2403,
  "max": 2404,
  "172": 2405,
  "お": 2406,
  "さ": 2407,
  "Core": 2408,
  "Records": 2409,
  "640": 2410,
  "Met": 2411,
  "lti": 2412,
  "169": 2413,
  "3500": 2414,
  "this": 2415,
  "Limited": 2416,
  "Blue": 2417,
  "KC": 2418,
  "Ran": 2419,
  "T1": 2420,
  "cto": 2421,
  "±": 2422,
  "1839": 2423,
  "232": 2424,
  "Coun": 2425,
  "480": 2426,
  "CM": 2427,
  "179": 2428,
  "cade": 2429,
  "Inc": 2430,
  "Green": 2431,
  "use": 2432,
  "2030": 2433,
  "rio": 2434,
  "org": 2435,
  "149": 2436,
  "365": 2437,
  "Institu": 2438,
  "Lau": 2439,
  "lum": 2440,
  "tube": 2441,
  "1821": 2442,
  "war": 2443,
  "ロ": 2444,
  "み": 2445,
  "Vir": 2446,
  "Unicode": 2447,
  "ROM": 2448,
  "CCTV": 2449,
  "390": 2450,
  "BU": 2451,
  "bus": 2452,
  "tia": 2453,
  "306": 2454,
  "222": 2455,
  "601": 2456,
  "ona": 2457,
  "173": 2458,
  "Bob": 2459,
  "EA": 2460,
  "Far": 2461,
  "Gui": 2462,
  "Ji": 2463,
  "PF": 2464,
  "Yu": 2465,
  "Ze": 2466,
  "kh": 2467,
  "rue": 2468,
  "bar": 2469,
  "ware": 2470,
  "247": 2471,
  "oot": 2472,
  "Hea": 2473,
  "Prin": 2474,
  "mpion": 2475,
  "Er": 2476,
  "KK": 2477,
  "Mr": 2478,
  "Ven": 2479,
  "XP": 2480,
  "gna": 2481,
  "jo": 2482,
  "1790": 2483,
  "ump": 2484,
  "211": 2485,
  "560": 2486,
  "OH": 2487,
  "SN": 2488,
  "zy": 2489,
  "ket": 2490,
  "ciation": 2491,
  "orn": 2492,
  "new": 2493,
  "レ": 2494,
  "BF": 2495,
  "Pra": 2496,
  "VM": 2497,
  "tv": 2498,
  "off": 2499,
  "velo": 2500,
  "MU": 2501,
  "PD": 2502,
  "Ren": 2503,
  "Squ": 2504,
  "Scien": 2505,
  "183": 2506,
  "1795": 2507,
  "303": 2508,
  "Force": 2509,
  "○": 2510,
  "PH": 2511,
  "Tan": 2512,
  "233": 2513,
  "ち": 2514,
  "1801": 2515,
  "213": 2516,
  "Trans": 2517,
  "tary": 2518,
  "マ": 2519,
  "Heart": 2520,
  "USB": 2521,
  "Men": 2522,
  "bro": 2523,
  "174": 2524,
  "Pop": 2525,
  "ttle": 2526,
  "MVP": 2527,
  "Bel": 2528,
  "CK": 2529,
  "oper": 2530,
  "ρ": 2531,
  "key": 2534,
  "186": 2535,
  "1838": 2536,
  "ors": 2537,
  "Fire": 2538,
  "Store": 2539,
  "520": 2540,
  "Cri": 2541,
  "DDR": 2542,
  "stan": 2543,
  "mily": 2544,
  "har": 2545,
  "cker": 2546,
  "Christ": 2547,
  "610": 2548,
  "Lon": 2549,
  "ab": 2550,
  "up": 2551,
  "161": 2552,
  "501": 2553,
  "ド": 2554,
  "http": 2555,
  "224": 2556,
  "CF": 2557,
  "em": 2558,
  "iPad": 2559,
  "tto": 2560,
  "bile": 2561,
  "sub": 2562,
  "1813": 2563,
  "ら": 2564,
  "Mag": 2565,
  "Data": 2566,
  "GE": 2567,
  "τ": 2568,
  "rity": 2569,
  "mor": 2570,
  "182": 2571,
  "1832": 2572,
  "1842": 2573,
  "255": 2574,
  "logi": 2575,
  "ason": 2576,
  "Society": 2577,
  "AE": 2578,
  "dth": 2579,
  "iPhone": 2580,
  "sur": 2581,
  "184": 2582,
  "ties": 2583,
  "カ": 2584,
  "dom": 2585,
  "Mini": 2586,
  "720": 2587,
  "KI": 2588,
  "Que": 2589,
  "Script": 2590,
  "ele": 2591,
  "gre": 2592,
  "late": 2594,
  "1836": 2595,
  "1793": 2596,
  "オ": 2597,
  "Comic": 2598,
  "Intel": 2599,
  "KiHa": 2600,
  "Muse": 2601,
  "buntu": 2602,
  "221": 2603,
  "HBO": 2604,
  "MT": 2605,
  "Pin": 2606,
  "ffe": 2607,
  "mus": 2608,
  "1833": 2609,
  "1789": 2610,
  "cent": 2611,
  "Home": 2612,
  "tics": 2613,
  "River": 2614,
  "https": 2615,
  "Direct": 2616,
  "Association": 2617,
  "Galaxy": 2618,
  "Bal": 2619,
  "Dr": 2620,
  "DAM": 2621,
  "M4": 2622,
  "QQ": 2623,
  "ae": 2624,
  "search": 2625,
  "1835": 2626,
  "151": 2627,
  "ars": 2628,
  "タ": 2629,
  "width": 2630,
  "peri": 2631,
  "tical": 2632,
  "League": 2633,
  "219": 2634,
  "217": 2635,
  "338": 2636,
  "FT": 2637,
  "JYP": 2638,
  "Qui": 2639,
  "Rai": 2640,
  "SR": 2641,
  "Ubuntu": 2642,
  "WA": 2643,
  "mg": 2644,
  "ful": 2646,
  "‰": 2647,
  "down": 2648,
  "1804": 2649,
  "ONE": 2650,
  "CEO": 2651,
  "470": 2652,
  "740": 2653,
  "830": 2654,
  "Bui": 2655,
  "fun": 2656,
  "ssi": 2657,
  "ving": 2658,
  "ned": 2659,
  "Martin": 2660,
  "Bank": 2661,
  "Henry": 2662,
  "Mai": 2663,
  "YG": 2664,
  "ς": 2665,
  "д": 2666,
  "light": 2668,
  "bor": 2669,
  "mat": 2670,
  "Master": 2671,
  "Top": 2672,
  "Champion": 2673,
  "Dy": 2674,
  "Ear": 2675,
  "LINE": 2676,
  "MW": 2677,
  "ν": 2678,
  "mal": 2679,
  "bel": 2680,
  "ART": 2681,
  "News": 2682,
  "China": 2683,
  "212": 2684,
  "DK": 2685,
  "Dou": 2686,
  "Em": 2687,
  "Sp": 2688,
  "у": 2689,
  "unch": 2690,
  "1828": 2691,
  "core": 2692,
  "コ": 2693,
  "APAN": 2694,
  "Hot": 2695,
  "Part": 2696,
  "Network": 2697,
  "Gener": 2698,
  "FR": 2699,
  "Flo": 2700,
  "Long": 2701,
  "dor": 2702,
  "cil": 2703,
  "191": 2704,
  "rew": 2705,
  "302": 2706,
  "Young": 2707,
  "Billboard": 2708,
  "Office": 2709,
  "680": 2710,
  "Ada": 2711,
  "Epi": 2712,
  "Fra": 2713,
  "Gold": 2714,
  "MHz": 2715,
  "PI": 2716,
  "Song": 2717,
  "SNH": 2718,
  "nm": 2719,
  "plo": 2720,
  "ι": 2721,
  "table": 2722,
  "ries": 2723,
  "181": 2724,
  "1624": 2725,
  "237": 2726,
  "る": 2727,
  "Night": 2728,
  "Note": 2729,
  "Joseph": 2730,
  "SNH48": 2731,
  "FDA": 2732,
  "JAPAN": 2733,
  "PK": 2734,
  "pur": 2737,
  "1644": 2738,
  "308": 2739,
  "Code": 2740,
  "COM": 2741,
  "440": 2742,
  "Cra": 2743,
  "DB": 2744,
  "GR": 2745,
  "zz": 2746,
  "list": 2747,
  "tial": 2748,
  "led": 2749,
  "less": 2750,
  "10000": 2751,
  "1837": 2752,
  "part": 2753,
  "239": 2754,
  "ston": 2755,
  "1806": 2756,
  "Sir": 2757,
  "Radio": 2758,
  "United": 2759,
  "macOS": 2760,
  "CV": 2761,
  "U21": 2762,
  "Vis": 2763,
  "sing": 2764,
  "â": 2765,
  "î": 2766,
  "δ": 2767,
  "def": 2770,
  "sus": 2771,
  "1819": 2772,
  "299": 2773,
  "346": 2774,
  "Regi": 2775,
  "HTML": 2776,
  "780": 2777,
  "East": 2778,
  "cs": 2779,
  "und": 2780,
  "1825": 2781,
  "245": 2782,
  "236": 2783,
  "505": 2784,
  "279": 2785,
  "に": 2786,
  "Mari": 2787,
  "540": 2788,
  "EV": 2789,
  "Gam": 2790,
  "H5": 2791,
  "Pal": 2792,
  "muni": 2793,
  "rpm": 2794,
  "325": 2795,
  "Yo": 2796,
  "tre": 2797,
  "right": 2798,
  "001": 2799,
  "1776": 2800,
  "じ": 2801,
  "Child": 2802,
  "NCAA": 2803,
  "Server": 2804,
  "Digital": 2805,
  "FAT": 2806,
  "Kong": 2807,
  "tea": 2808,
  "1818": 2809,
  "pon": 2810,
  "main": 2811,
  "para": 2812,
  "265": 2813,
  "こ": 2814,
  "esta": 2815,
  "Hello": 2816,
  "GS": 2817,
  "Lang": 2818,
  "air": 2819,
  "telli": 2820,
  "1824": 2821,
  "1831": 2822,
  "2027": 2823,
  "rey": 2824,
  "Down": 2825,
  "Dri": 2826,
  "Ob": 2827,
  "RPG": 2828,
  "pho": 2829,
  "spi": 2830,
  "ç": 2831,
  "ô": 2832,
  "lio": 2833,
  "sio": 2834,
  "rick": 2835,
  "lation": 2836,
  "386": 2837,
  "Mat": 2838,
  "Service": 2839,
  "Ⅱ": 2840,
  "Techno": 2841,
  "Ana": 2842,
  "Ado": 2843,
  "UM": 2844,
  "non": 2845,
  "rent": 2846,
  "ges": 2847,
  "temp": 2848,
  "BSD": 2849,
  "Python": 2850,
  "1A": 2851,
  "CW": 2852,
  "Den": 2853,
  "XML": 2854,
  "λ": 2855,
  "sho": 2856,
  "275": 2857,
  "2700": 2858,
  "Youtube": 2859,
  "Edward": 2860,
  "White": 2861,
  "312": 2862,
  "5G": 2863,
  "730": 2864,
  "Des": 2865,
  "HL": 2866,
  "OM": 2867,
  "TBS": 2868,
  "ena": 2869,
  "has": 2870,
  "med": 2871,
  "264": 2872,
  "295": 2873,
  "1802": 2874,
  "First": 2875,
  "BLUE": 2876,
  "burg": 2877,
  "public": 2878,
  "Institute": 2879,
  "630": 2880,
  "Envi": 2881,
  "Gro": 2882,
  "TM": 2883,
  "ori": 2884,
  "yer": 2885,
  "ú": 2886,
  "à": 2887,
  "sual": 2888,
  "1822": 2889,
  "288": 2890,
  "ジ": 2891,
  "Poly": 2892,
  "JT": 2893,
  "Out": 2894,
  "Sum": 2895,
  "ل": 2896,
  "mond": 2897,
  "244": 2898,
  "フ": 2899,
  "vate": 2900,
  "Tom": 2901,
  "ITF": 2902,
  "2D": 2903,
  "OT": 2904,
  "ise": 2905,
  "var": 2906,
  "xel": 2907,
  "return": 2908,
  "249": 2909,
  "903": 2910,
  "ves": 2911,
  "Cap": 2912,
  "Square": 2913,
  "Hong": 2914,
  "PID": 2915,
  "Series": 2916,
  "This": 2917,
  "Za": 2918,
  "ī": 2919,
  "š": 2920,
  "yal": 2921,
  "tum": 2922,
  "tual": 2923,
  "243": 2924,
  "2800": 2925,
  "Rap": 2926,
  "Cup": 2927,
  "Del": 2928,
  "FX": 2929,
  "Jen": 2930,
  "Jump": 2931,
  "NP": 2932,
  "__": 2933,
  "sch": 2934,
  "sig": 2935,
  "chuai": 2936,
  "1810": 2937,
  "1622": 2938,
  "1792": 2939,
  "307": 2940,
  "sts": 2941,
  "701": 2942,
  "SARS": 2943,
  "Frank": 2944,
  "POP": 2945,
  "Grand": 2946,
  "960": 2947,
  "Kin": 2948,
  "SHO": 2949,
  "VV": 2950,
  "sca": 2951,
  "ε": 2952,
  "dit": 2953,
  "tur": 2954,
  "1650": 2955,
  "801": 2956,
  "Pala": 2957,
  "Chro": 2958,
  "MIUI": 2959,
  "Count": 2960,
  "Tunes": 2961,
  "2100": 2962,
  "Cur": 2963,
  "Hor": 2964,
  "cci": 2965,
  "м": 2966,
  "1826": 2967,
  "have": 2968,
  "1573": 2969,
  "story": 2970,
  "Step": 2971,
  "Under": 2972,
  "747": 2973,
  "Jour": 2974,
  "yon": 2975,
  "but": 2976,
  "tems": 2977,
  "1834": 2978,
  "304": 2979,
  "226": 2980,
  "278": 2981,
  "ミ": 2982,
  "も": 2983,
  "teri": 2984,
  "375": 2985,
  "1805": 2986,
  "Die": 2987,
  "ACT": 2988,
  "APP": 2989,
  "AIR": 2990,
  "Auto": 2991,
  "North": 2992,
  "Bran": 2993,
  "HA": 2994,
  "Kan": 2995,
  "cing": 2996,
  "ice": 2997,
  "pus": 2998,
  "007": 2999,
  "296": 3000,
  "298": 3001,
  "385": 3002,
  "ATA": 3003,
  "Block": 3004,
  "335": 3005,
  "590": 3006,
  "9000": 3007,
  "Bor": 3008,
  "CU": 3009,
  "Sports": 3010,
  "WN": 3011,
  "ml": 3012,
  "rei": 3013,
  "ω": 3014,
  "let": 3016,
  "dings": 3017,
  "had": 3018,
  "1780": 3019,
  "227": 3020,
  "ム": 3021,
  "Your": 3022,
  "IFA": 3023,
  "315": 3024,
  "Les": 3025,
  "Os": 3026,
  "Pho": 3027,
  "Rei": 3028,
  "ii": 3029,
  "iTunes": 3030,
  "pH": 3031,
  "»": 3032,
  "gain": 3033,
  "251": 3034,
  "277": 3035,
  "Real": 3036,
  "ghts": 3037,
  "CNN": 3038,
  "2A": 3039,
  "Op": 3040,
  "Over": 3041,
  "RFC": 3042,
  "din": 3043,
  "dition": 3044,
  "zine": 3045,
  "mad": 3046,
  "map": 3047,
  "more": 3048,
  "1582": 3049,
  "1799": 3050,
  "259": 3051,
  "246": 3052,
  "248": 3053,
  "1809": 3054,
  "Dani": 3055,
  "Engine": 3056,
  "530": 3057,
  "C2": 3058,
  "Cas": 3059,
  "DLC": 3060,
  "Ei": 3061,
  "«": 3062,
  "ere": 3063,
  "1823": 3064,
  "1621": 3065,
  "272": 3066,
  "405": 3067,
  "ville": 3068,
  "ATION": 3069,
  "State": 3070,
  "1803": 3071,
  "Internet": 3072,
  "EEE": 3073,
  "value": 3074,
  "press": 3075,
  "334": 3076,
  "620": 3077,
  "770": 3078,
  "Bou": 3079,
  "Clo": 3080,
  "Class": 3081,
  "Gol": 3082,
  "Hal": 3083,
  "SG": 3084,
  "Wat": 3085,
  "app": 3086,
  "bre": 3087,
  "rch": 3088,
  "1625": 3089,
  "284": 3090,
  "285": 3091,
  "ino": 3092,
  "lton": 3093,
  "サ": 3094,
  "Mit": 3095,
  "cond": 3096,
  "311": 3097,
  "880": 3098,
  "Cle": 3099,
  "Sony": 3100,
  "Ur": 3101,
  "VI": 3102,
  "vy": 3103,
  "É": 3104,
  "258": 3106,
  "form": 3107,
  "276": 3108,
  "が": 3109,
  "Wii": 3110,
  "Moon": 3111,
  "Mobile": 3112,
  "Bay": 3113,
  "Gri": 3114,
  "KO": 3115,
  "Oper": 3116,
  "Tru": 3117,
  "XT": 3118,
  "than": 3119,
  "get": 3121,
  "ork": 3122,
  "253": 3123,
  "357": 3124,
  "ters": 3125,
  "Maria": 3126,
  "Ray": 3127,
  "Publi": 3128,
  "660": 3129,
  "Bon": 3130,
  "Cli": 3131,
  "Im": 3132,
  "NM": 3133,
  "SV": 3134,
  "UL": 3135,
  "ee": 3136,
  "ung": 3137,
  "й": 3138,
  "uel": 3139,
  "プ": 3140,
  "STA": 3141,
  "via": 3142,
  "Alf": 3143,
  "Dot": 3144,
  "IPv": 3145,
  "Nico": 3146,
  "Unix": 3147,
  "South": 3148,
  "Ange": 3149,
  "Book": 3150,
  "Europe": 3151,
  "570": 3152,
  "Get": 3153,
  "U19": 3154,
  "WF": 3155,
  "blo": 3156,
  "hr": 3157,
  "г": 3158,
  "1827": 3159,
  "1570": 3160,
  "あ": 3161,
  "gazine": 3162,
  "cks": 3163,
  "sson": 3164,
  "view": 3165,
  "Pier": 3166,
  "314": 3167,
  "3DS": 3168,
  "690": 3169,
  "BBS": 3170,
  "C6": 3171,
  "DSM": 3172,
  "IEEE": 3173,
  "Mou": 3174,
  "Mal": 3175,
  "SB": 3176,
  "WWE": 3177,
  "trans": 3178,
  "tas": 3179,
  "1817": 3180,
  "1640": 3181,
  "1636": 3182,
  "range": 3183,
  "268": 3184,
  "402": 3185,
  "404": 3186,
  "は": 3187,
  "Sound": 3188,
  "which": 3189,
  "4G": 3190,
  "AX": 3191,
  "TW": 3192,
  "fy": 3193,
  "fri": 3194,
  "gal": 3195,
  "dei": 3196,
  "1775": 3197,
  "254": 3198,
  "465": 3199,
  "ator": 3200,
  "323": 3201,
  "Gal": 3202,
  "HP": 3203,
  "OP": 3204,
  "Tre": 3205,
  "dea": 3206,
  "tina": 3207,
  "lution": 3208,
  "1750": 3209,
  "309": 3210,
  "vis": 3211,
  "Now": 3212,
  "329": 3213,
  "670": 3214,
  "Jon": 3215,
  "Nu": 3216,
  "Plus": 3217,
  "shing": 3218,
  "tude": 3219,
  "1816": 3220,
  "kar": 3221,
  "poli": 3222,
  "zation": 3223,
  "チ": 3224,
  "ィ": 3225,
  "4500": 3226,
  "field": 3227,
  "CON": 3228,
  "Beau": 3229,
  "Poli": 3230,
  "TOP": 3231,
  "print": 3232,
  "Cube": 3233,
  ".-": 3234,
  "710": 3235,
  "910": 3236,
  "950": 3237,
  "DI": 3238,
  "Ham": 3239,
  "MK": 3240,
  "ap": 3241,
  "other": 3242,
  "laris": 3243,
  "loud": 3244,
  "241": 3245,
  "2300": 3246,
  "cur": 3247,
  "Medi": 3248,
  "Film": 3249,
  "ISBN": 3250,
  "shi ": 3251,
  "de ": 3252,
  " shi ": 3253,
  " de ": 3254,
  "yi ": 3255,
  " yi ": 3256,
  "ji ": 3257,
  "wei ": 3258,
  "zhi ": 3259,
  "yu ": 3260,
  " wei ": 3261,
  " ji ": 3262,
  " nian": 3263,
  " zhi ": 3264,
  " yu ": 3265,
  " li": 3266,
  " nian ": 3267,
  "zhong ": 3268,
  " li ": 3269,
  "zai ": 3270,
  "ren ": 3271,
  "you ": 3272,
  "guo ": 3273,
  "he ": 3274,
  "qi ": 3275,
  "bu ": 3276,
  "di ": 3277,
  " you ": 3278,
  " zai ": 3279,
  " ren ": 3280,
  " yue": 3281,
  " zhong ": 3282,
  " he ": 3283,
  "da ": 3284,
  "xi ": 3285,
  "xing ": 3286,
  "yuan ": 3287,
  "gong ": 3288,
  "er ": 3289,
  " yue ": 3290,
  "fu ": 3291,
  "si ": 3292,
  "ge ": 3293,
  "jian ": 3294,
  " guo ": 3295,
  "wu ": 3296,
  "jia ": 3297,
  " bu ": 3298,
  "jie ": 3299,
  "ke ": 3300,
  "cheng ": 3301,
  "zhu ": 3302,
  "sheng ": 3303,
  "xiang ": 3304,
  "xian ": 3305,
  "dao ": 3306,
  "bei ": 3307,
  "zi ": 3308,
  " qi ": 3309,
  "fa ": 3310,
  "hui ": 3311,
  "chu ": 3312,
  "jin ": 3313,
  " di ": 3314,
  "shu ": 3315,
  " er ": 3316,
  "ri ": 3317,
  " xi ": 3318,
  "ju ": 3319,
  "qu ": 3320,
  "zheng ": 3321,
  "hou ": 3322,
  "shou ": 3323,
  "ming ": 3324,
  "shang ": 3325,
  "dong ": 3326,
  "jing ": 3327,
  "ta ": 3328,
  "le ": 3329,
  "xue ": 3330,
  "fang ": 3331,
  "yan ": 3332,
  "zhan ": 3333,
  "ci ": 3334,
  "bao ": 3335,
  "hua ": 3336,
  "ying ": 3337,
  "ye ": 3338,
  "tong ": 3339,
  "zuo ": 3340,
  "zhe ": 3341,
  "guan ": 3342,
  " da ": 3343,
  " ri ": 3344,
  "yin ": 3345,
  "chang ": 3346,
  "xin ": 3347,
  "jiao ": 3348,
  "lu ": 3349,
  "dui ": 3350,
  "wen ": 3351,
  "ti ": 3352,
  "fen ": 3353,
  "qian ": 3354,
  "tai ": 3355,
  "jiang ": 3356,
  "xiao ": 3357,
  "bing ": 3358,
  " si ": 3359,
  "jun ": 3360,
  "dian ": 3361,
  "zhang ": 3362,
  "ping ": 3363,
  "xia ": 3364,
  "du ": 3365,
  "huo ": 3366,
  "yong ": 3367,
  "dan ": 3368,
  " ke ": 3369,
  " jia ": 3370,
  "hai ": 3371,
  "gai ": 3372,
  "wang ": 3373,
  "dai ": 3374,
  "nan ": 3375,
  "ru ": 3376,
  "qing ": 3377,
  "mu ": 3378,
  "bi ": 3379,
  "ban ": 3380,
  "liang ": 3381,
  "lai ": 3382,
  "mei ": 3383,
  "ya ": 3384,
  "shen ": 3385,
  " fu ": 3386,
  " xing ": 3387,
  "zu ": 3388,
  "wan ": 3389,
  "she ": 3390,
  "lian ": 3391,
  "min ": 3392,
  "mi ": 3393,
  "zhou ": 3394,
  "jiu ": 3395,
  "qiu ": 3396,
  "an ": 3397,
  "zhen ": 3398,
  "ben ": 3399,
  "xu ": 3400,
  "gao ": 3401,
  " ta ": 3402,
  "bo ": 3403,
  "xie ": 3404,
  "te ": 3405,
  "bian ": 3406,
  "ling ": 3407,
  "luo ": 3408,
  "yao ": 3409,
  "deng ": 3410,
  "duo ": 3411,
  "yang ": 3412,
  "quan ": 3413,
  "che ": 3414,
  "suo ": 3415,
  "zui ": 3416,
  "tian ": 3417,
  "gu ": 3418,
  "biao ": 3419,
  "fan ": 3420,
  "hu ": 3421,
  "yun ": 3422,
  "xuan ": 3423,
  "su ": 3424,
  "shan ": 3425,
  "fei ": 3426,
  "ding ": 3427,
  "liu ": 3428,
  "zong ": 3429,
  "sai ": 3430,
  "dang ": 3431,
  "ma ": 3432,
  "kai ": 3433,
  "ba ": 3434,
  "hao ": 3435,
  " de yi ": 3436,
  " bing ": 3437,
  " dao ": 3438,
  "feng ": 3439,
  "kou ": 3440,
  "tu ": 3441,
  "mian ": 3442,
  "men ": 3443,
  "nei ": 3444,
  "la ": 3445,
  "lei ": 3446,
  "san ": 3447,
  "cai ": 3448,
  "wai ": 3449,
  "chuan ": 3450,
  "jue ": 3451,
  "pai ": 3452,
  "chi ": 3453,
  " dan ": 3454,
  " jin ": 3455,
  " bei ": 3456,
  " gong ": 3457,
  " jian ": 3458,
  "guang ": 3459,
  " shi yi ": 3460,
  "lan ": 3461,
  "ni ": 3462,
  "gui ": 3463,
  "bai ": 3464,
  " zi ": 3465,
  "lin ": 3466,
  "ting ": 3467,
  " zhe ": 3468,
  "pu ": 3469,
  " xiang ": 3470,
  "gang ": 3471,
  "lun ": 3472,
  "neng ": 3473,
  "na ": 3474,
  "han ": 3475,
  "lie ": 3476,
  "ze ": 3477,
  " zhu ": 3478,
  "cheng wei ": 3479,
  "mo ": 3480,
  " yin ": 3481,
  " ge ": 3482,
  " xian ": 3483,
  " chu ": 3484,
  " shi de ": 3485,
  "mei guo ": 3486,
  "chan ": 3487,
  "shui ": 3488,
  " ju ": 3489,
  " cheng ": 3490,
  " de shi ": 3491,
  " jie ": 3492,
  " gai ": 3493,
  " wu ": 3494,
  "sui ": 3495,
  "xun ": 3496,
  "zhuan ": 3497,
  " bao ": 3498,
  " ping ": 3499,
  "lv ": 3500,
  " ta": 3501,
  "ao ": 3502,
  "zhuang ": 3503,
  "li ": 3504,
  "tou ": 3505,
  "duan ": 3506,
  " yi ji ": 3507,
  "se ": 3508,
  "huan ": 3509,
  "chong ": 3510,
  " wei yu ": 3511,
  "ceng ": 3512,
  "e ": 3513,
  "pin ": 3514,
  "cong ": 3515,
  "cha ": 3516,
  "di yi ": 3517,
  "cun ": 3518,
  "dou ": 3519,
  "a ": 3520,
  "zao ": 3521,
  " hou ": 3522,
  "kong ": 3523,
  "zhao ": 3524,
  "gou ": 3525,
  " ci ": 3526,
  "gan ": 3527,
  "sha ": 3528,
  "1 ": 3529,
  "qiang ": 3530,
  " shi ji ": 3531,
  "chao ": 3532,
  "meng ": 3533,
  " ye ": 3534,
  "kai shi ": 3535,
  "man ": 3536,
  " yuan ": 3537,
  " fa ": 3538,
  " sheng ": 3539,
  " dan": 3540,
  "tang ": 3541,
  "ce ": 3542,
  "ke yi ": 3543,
  "ai ": 3544,
  "kuo ": 3545,
  " yi ge ": 3546,
  "long ": 3547,
  "tan ": 3548,
  "tuan ": 3549,
  " ming ": 3550,
  " shi wei ": 3551,
  "gong li ": 3552,
  "ka ": 3553,
  " zhong guo ": 3554,
  " tong": 3555,
  "qin ": 3556,
  "tie ": 3557,
  " shi shi ": 3558,
  " bing": 3559,
  "zheng fu ": 3560,
  "shao ": 3561,
  "can ": 3562,
  "2 ": 3563,
  "pian ": 3564,
  " you": 3565,
  "huo de ": 3566,
  "mian ji ": 3567,
  "hang ": 3568,
  "hong ": 3569,
  "geng ": 3570,
  " huo ": 3571,
  "ji de ": 3572,
  " shi yong ": 3573,
  "tiao ": 3574,
  "xiu ": 3575,
  "chen ": 3576,
  "shuo ": 3577,
  "pi ": 3578,
  " dong ": 3579,
  "ren wei ": 3580,
  " shi jian ": 3581,
  "tao ": 3582,
  "zhi yi ": 3583,
  "zhong de ": 3584,
  "zheng zhi ": 3585,
  "huang ": 3586,
  "ran ": 3587,
  " yi zhi ": 3588,
  " shi jie ": 3589,
  "zhong guo ": 3590,
  "yue ": 3591,
  "chuang ": 3592,
  " ri": 3593,
  "nv ": 3594,
  "qu de ": 3595,
  "guo ji ": 3596,
  "yi shi ": 3597,
  " ping fang ": 3598,
  "wo ": 3599,
  "ren kou ": 3600,
  "xing de ": 3601,
  "po ": 3602,
  " shou ": 3603,
  "jin xing ": 3604,
  " hao ": 3605,
  " mi ": 3606,
  "rong ": 3607,
  " sui ": 3608,
  "mei you ": 3609,
  "diao ": 3610,
  "liao ": 3611,
  "tuo ": 3612,
  "song ": 3613,
  "ou ": 3614,
  " li de ": 3615,
  " li shi ": 3616,
  "nian ": 3617,
  " dang": 3618,
  " wei yuan ": 3619,
  " fen ": 3620,
  " wan ": 3621,
  "pei ": 3622,
  " qi zhong ": 3623,
  "zuo wei ": 3624,
  "gong si ": 3625,
  "fa guo ": 3626,
  "biao shi ": 3627,
  "   zai ": 3628,
  "yan jiu ": 3629,
  " er": 3630,
  " shang ": 3631,
  "zheng shi ": 3632,
  " hai ": 3633,
  " yin": 3634,
  " de ji ": 3635,
  "pan ": 3636,
  " mei ": 3637,
  "tui ": 3638,
  " xin ": 3639,
  " zhe": 3640,
  "dian shi ": 3641,
  "yun dong ": 3642,
  "que ": 3643,
  "bang ": 3644,
  "qie ": 3645,
  " tai ": 3646,
  " de di ": 3647,
  "cheng shi ": 3648,
  "zhi shi ": 3649,
  " jiang ": 3650,
  " shu ": 3651,
  " jing ": 3652,
  "jian de ": 3653,
  "ta de ": 3654,
  "gong he ": 3655,
  "shu yu ": 3656,
  "she ji ": 3657,
  " qian ": 3658,
  "lang ": 3659,
  " ren min ": 3660,
  "dun ": 3661,
  " ren kou ": 3662,
  " ying ": 3663,
  "zhi de ": 3664,
  "qiao ": 3665,
  "10 yue ": 3666,
  "12 yue ": 3667,
  " de zhi ": 3668,
  "3 ": 3669,
  "jing ji ": 3670,
  "dian ying ": 3671,
  "7 yue ": 3672,
  " xia ": 3673,
  " nan ": 3674,
  "zu zhi ": 3675,
  " mu ": 3676,
  "9 yue ": 3677,
  " zhang ": 3678,
  "8 yue ": 3679,
  "zhu yi ": 3680,
  " zui ": 3681,
  "3 yue ": 3682,
  "1 yue ": 3683,
  "mao ": 3684,
  " shi qi ": 3685,
  "dai biao ": 3686,
  "wa ": 3687,
  "ri ben ": 3688,
  "ying guo ": 3689,
  "5 yue ": 3690,
  "you yi ": 3691,
  "ji shi ": 3692,
  "kao ": 3693,
  "6 yue ": 3694,
  "guo de ": 3695,
  "kan ": 3696,
  "4 yue ": 3697,
  " hui ": 3698,
  " shi zhen ": 3699,
  "hen ": 3700,
  "mai ": 3701,
  "xian de ": 3702,
  " bi ": 3703,
  "wei yi ": 3704,
  "11 yue ": 3705,
  "che zhan ": 3706,
  "jiao yu ": 3707,
  " tong ": 3708,
  "gen ju ": 3709,
  "bu fen ": 3710,
  "yi de ": 3711,
  "re ": 3712,
  "da xue ": 3713,
  "yu shi ": 3714,
  "xiang gang ": 3715,
  "ming wei ": 3716,
  "xue yuan ": 3717,
  " de guo ": 3718,
  " yi yuan ": 3719,
  "li shi ": 3720,
  " deng ": 3721,
  " de yi ge ": 3722,
  " zhi hou ": 3723,
  " ru ": 3724,
  " nian 1 yue ": 3725,
  "gen ": 3726,
  "dan ren ": 3727,
  "can jia ": 3728,
  " yi wei ": 3729,
  "cao ": 3730,
  "kang ": 3731,
  "she hui ": 3732,
  " ti ": 3733,
  " qing ": 3734,
  "xian shi ": 3735,
  " di qu ": 3736,
  "4 ": 3737,
  "sa ": 3738,
  "ying xiang ": 3739,
  "tai wan ": 3740,
  "shu de ": 3741,
  " ran": 3742,
  " yan ": 3743,
  " xue ": 3744,
  " you yu ": 3745,
  "shang de ": 3746,
  "xing shi ": 3747,
  "ye shi ": 3748,
  "qi shi ": 3749,
  " yin ci ": 3750,
  "formula ": 3751,
  "bie ": 3752,
  "guan li ": 3753,
  "lao ": 3754,
  "zeng ": 3755,
  "gong zuo ": 3756,
  "tong guo ": 3757,
  "le yi ": 3758,
  " xiao ": 3759,
  " nian 12 yue ": 3760,
  " ling ": 3761,
  "xing zheng ": 3762,
  "bu de ": 3763,
  "gong he guo ": 3764,
  "5 ": 3765,
  "wei shi ": 3766,
  " li ya ": 3767,
  " nian de ": 3768,
  "er shi ": 3769,
  "ren de ": 3770,
  "zhun ": 3771,
  "zi ji ": 3772,
  "da de ": 3773,
  "2 yue ": 3774,
  "xiong ": 3775,
  " liang ": 3776,
  " guo jia ": 3777,
  "zui zhong ": 3778,
  " nian 3 yue ": 3779,
  "hui yi ": 3780,
  "kuang ": 3781,
  "   sheng ": 3782,
  "cheng li ": 3783,
  "nong ": 3784,
  " ping fang gong li ": 3785,
  "luo si ": 3786,
  "ku ": 3787,
  " nian 7 yue ": 3788,
  " jiao ": 3789,
  " nian 10 yue ": 3790,
  " wang ": 3791,
  "chu de ": 3792,
  "miao ": 3793,
  "fa xian ": 3794,
  " zhan ": 3795,
  "ha ": 3796,
  "qi de ": 3797,
  " tian ": 3798,
  "fa zhan ": 3799,
  " nian 9 yue ": 3800,
  "yuan de ": 3801,
  " shi you ": 3802,
  " bao kuo ": 3803,
  " shi zhi ": 3804,
  "qi ta ": 3805,
  "hei ": 3806,
  " nian 5 yue ": 3807,
  " qi jian ": 3808,
  "piao ": 3809,
  "suo you ": 3810,
  "kuai ": 3811,
  "si de ": 3812,
  " bo ": 3813,
  " nian 4 yue ": 3814,
  " nian 6 yue ": 3815,
  " nian 8 yue ": 3816,
  "you yu ": 3817,
  " luo ": 3818,
  "tie lu ": 3819,
  " da xue ": 3820,
  "quan guo ": 3821,
  " shi zai ": 3822,
  "dao zhi ": 3823,
  "dao de ": 3824,
  "tong de ": 3825,
  "zhu yao ": 3826,
  "cheng de ": 3827,
  "can yu ": 3828,
  "lou ": 3829,
  " ma ": 3830,
  " zheng ": 3831,
  "wen hua ": 3832,
  " hua ": 3833,
  "shuang ": 3834,
  "nuo ": 3835,
  " dui ": 3836,
  " lu ": 3837,
  "di li ": 3838,
  " ta men ": 3839,
  "zhong yi ": 3840,
  "lian he ": 3841,
  " sui": 3842,
  "di de ": 3843,
  " zhi dao ": 3844,
  " gu ": 3845,
  " dang ": 3846,
  " nian 11 yue ": 3847,
  " tong shi ": 3848,
  " shen ": 3849,
  "bu shi ": 3850,
  " zhong xin ": 3851,
  "   shi ": 3852,
  "yin yue ": 3853,
  " jiu ": 3854,
  "bei bu ": 3855,
  "shu ji ": 3856,
  "bao kuo ": 3857,
  "yong yu ": 3858,
  "sen ": 3859,
  "   yi ": 3860,
  " quan ": 3861,
  "ti gong ": 3862,
  " zong ": 3863,
  " zuo ": 3864,
  "zai yi ": 3865,
  "xuan bu ": 3866,
  "guo jia ": 3867,
  " wei yuan hui ": 3868,
  "zu qiu ": 3869,
  "wen ti ": 3870,
  " nian zhi ": 3871,
  "kuan ": 3872,
  " yin wei ": 3873,
  "xue xiao ": 3874,
  "sheng yu ": 3875,
  " shi wu ": 3876,
  "jian yu ": 3877,
  "zi you ": 3878,
  "qian mi ": 3879,
  "gong you ": 3880,
  "guan xi ": 3881,
  "fang shi ": 3882,
  " wei zhi ": 3883,
  " shi zhong ": 3884,
  "6 ": 3885,
  "hun ": 3886,
  " nian 2 yue ": 3887,
  " xu ": 3888,
  "bi sai ": 3889,
  "hua ren min ": 3890,
  "ying de ": 3891,
  "rang ": 3892,
  "cheng yuan ": 3893,
  "jian zhu ": 3894,
  "en ": 3895,
  "huo dong ": 3896,
  "jian li ": 3897,
  " gai": 3898,
  "heng ": 3899,
  "suan ": 3900,
  "yu yi ": 3901,
  "   li shi ": 3902,
  "ji yi ": 3903,
  "fen wei ": 3904,
  " chang ": 3905,
  " de ren ": 3906,
  "she you ": 3907,
  "ren shi ": 3908,
  "zuo pin ": 3909,
  " dian ": 3910,
  "guan jun ": 3911,
  "tong shi ": 3912,
  " ben ": 3913,
  "da li ": 3914,
  " cheng wei ": 3915,
  "ge ren ": 3916,
  " xian": 3917,
  "   sheng ping ": 3918,
  " jie": 3919,
  " an ": 3920,
  "zhuan ji ": 3921,
  "yu de ": 3922,
  " di er ": 3923,
  "bei jing ": 3924,
  " ji hua ": 3925,
  " you xi ": 3926,
  "jiu shi ": 3927,
  "xiao shi ": 3928,
  " liu ": 3929,
  "hua ren min gong he guo ": 3930,
  "yin wei ": 3931,
  " ba ": 3932,
  " ta de ": 3933,
  "men de ": 3934,
  " li yu ": 3935,
  "qun ": 3936,
  " nian dai ": 3937,
  "gei ": 3938,
  "dui yu ": 3939,
  "xi de ": 3940,
  "ming de ": 3941,
  " a ": 3942,
  "jun shi ": 3943,
  " cong ": 3944,
  "di shi ": 3945,
  "tong yi ": 3946,
  "di er ": 3947,
  "xin de ": 3948,
  "qu yu ": 3949,
  " bu fen ": 3950,
  "xue jia ": 3951,
  "e luo si ": 3952,
  "zou ": 3953,
  "ta men ": 3954,
  " duo ": 3955,
  "chun ": 3956,
  "wei de ": 3957,
  "shou dao ": 3958,
  "min guo ": 3959,
  "hou de ": 3960,
  "sheng de ": 3961,
  "er de ": 3962,
  "lai de ": 3963,
  "fang mian ": 3964,
  " hu ": 3965,
  "zheng fu": 3966,
  "gong ji ": 3967,
  "fa sheng ": 3968,
  " gong li ": 3969,
  "dan wei ": 3970,
  " feng ": 3971,
  "xing wei ": 3972,
  " shi ren ": 3973,
  " yi jing ": 3974,
  "yong you ": 3975,
  " fan ": 3976,
  " lian ": 3977,
  "zhong shi ": 3978,
  "jin shi ": 3979,
  " xi tong ": 3980,
  "jue ding ": 3981,
  "bu yu ": 3982,
  " qu ": 3983,
  " zhong yang ": 3984,
  "ju you ": 3985,
  " mian ji ": 3986,
  "1 ri ": 3987,
  "tong zhi ": 3988,
  "di qu ": 3989,
  "ni ya ": 3990,
  "liang ge ": 3991,
  " guan ": 3992,
  "qu wei ": 3993,
  "fa xing ": 3994,
  " ri ben ": 3995,
  " gao ": 3996,
  " fei ": 3997,
  " suo ": 3998,
  " wen ": 3999,
  "you de ": 4000,
  "chu xian ": 4001,
  " te ": 4002,
  "sheng ji ": 4003,
  "zh ": 4004,
  "hua de ": 4005,
  " ren kou mi ": 4006,
  "ci shi ": 4007,
  "qi yu ": 4008,
  "zi zhi ": 4009,
  "wu de ": 4010,
  "lai zi ": 4011,
  "ju xing ": 4012,
  " ta zai ": 4013,
  "ling yi ": 4014,
  "jia de ": 4015,
  " ji yu ": 4016,
  "xian zhi ": 4017,
  " suo": 4018,
  " wei ji ": 4019,
  "mian ji wei ": 4020,
  " su ": 4021,
  "hui de ": 4022,
  " san ": 4023,
  "bao hu ": 4024,
  "nan bu ": 4025,
  "du li ": 4026,
  " ping fang qian mi ": 4027,
  "kong zhi ": 4028,
  " shi yu ": 4029,
  "shu ju ": 4030,
  "zong tong ": 4031,
  "jin ru ": 4032,
  " shi wei yu ": 4033,
  " li ru ": 4034,
  "ren wu ": 4035,
  "qu shi ": 4036,
  "ke li ": 4037,
  "yao qiu ": 4038,
  "mou ": 4039,
  "   de ": 4040,
  " wo ": 4041,
  " mei guo ": 4042,
  "gt ": 4043,
  " gt ": 4044,
  "gu shi ": 4045,
  "cheng ji ": 4046,
  " ran er ": 4047,
  " guang ": 4048,
  "lt ": 4049,
  " wan": 4050,
  " ru": 4051,
  "xue sheng ": 4052,
  " bian ": 4053,
  "   yu ": 4054,
  "jin de ": 4055,
  " dan shi ": 4056,
  " cai ": 4057,
  "min zhu ": 4058,
  "gong shi ": 4059,
  "wan cheng ": 4060,
  " yi qi ": 4061,
  "lie che ": 4062,
  "you ji ": 4063,
  "ke neng ": 4064,
  " lt ": 4065,
  " yi bu ": 4066,
  "shen zhi ": 4067,
  " bing yu ": 4068,
  "zha ": 4069,
  "ren zhi ": 4070,
  "ping fang ": 4071,
  "you shi ": 4072,
  " yong ": 4073,
  " bing zai ": 4074,
  " ji shu ": 4075,
  "chao guo ": 4076,
  "ti yu ": 4077,
  "yuan shi ": 4078,
  "cang ": 4079,
  "cun zai ": 4080,
  "qian wang ": 4081,
  " 15": 4082,
  " ceng": 4083,
  "ke de ": 4084,
  "ya li ": 4085,
  "dang shi ": 4086,
  "si shi ": 4087,
  " kai ": 4088,
  "xue xi ": 4089,
  "yong de ": 4090,
  " de yi ge": 4091,
  "jing guo ": 4092,
  "nei de ": 4093,
  "fa bu ": 4094,
  " shan ": 4095,
  "zuo de ": 4096,
  " zhi wei ": 4097,
  " han ": 4098,
  "jian yi ": 4099,
  "guan yu ": 4100,
  "   di ": 4101,
  "wu ke ": 4102,
  "wu shi ": 4103,
  "xiang gang": 4104,
  "zhu ren ": 4105,
  " zhi jian ": 4106,
  "yin du ": 4107,
  " pu ": 4108,
  "zhan shi ": 4109,
  "zhan zheng ": 4110,
  " qi ta ": 4111,
  "guo shi ": 4112,
  " a": 4113,
  "sun ": 4114,
  "pao ": 4115,
  "zhu yao": 4116,
  "zhou de ": 4117,
  "sheng huo ": 4118,
  "xu duo ": 4119,
  "jian zhi ": 4120,
  " ji wei ": 4121,
  "fan wei ": 4122,
  "bin ": 4123,
  " yi shu ": 4124,
  " ji qi ": 4125,
  " wei er ": 4126,
  "cheng gong ": 4127,
  "han guo ": 4128,
  "ou zhou ": 4129,
  "zhu xi ": 4130,
  "lu de ": 4131,
  "jie shou ": 4132,
  "qiu dui ": 4133,
  " zhi you ": 4134,
  " shu yu ": 4135,
  " zai": 4136,
  "dai biao": 4137,
  " jin": 4138,
  " ji zhong ": 4139,
  "fu wu ": 4140,
  "zeng jia ": 4141,
  " bu guo ": 4142,
  "ban de ": 4143,
  " bai ": 4144,
  "gong yuan ": 4145,
  " you xian ": 4146,
  " mo ": 4147,
  " 000": 4148,
  "xiao xing ": 4149,
  "xia de ": 4150,
  "   gai ": 4151,
  " zhe xie ": 4152,
  " zhi chu ": 4153,
  "he yi ": 4154,
  "shang hai ": 4155,
  "duo de ": 4156,
  " ao ": 4157,
  "hou yi ": 4158,
  "   zhi ": 4159,
  "san shi ": 4160,
  "ning ": 4161,
  " ci wai ": 4162,
  "fu de ": 4163,
  "ju li ": 4164,
  "huai ": 4165,
  "si ji ": 4166,
  "zu cheng ": 4167,
  " gen ju ": 4168,
  "yun dong yuan ": 4169,
  " ceng ": 4170,
  "jiao tong ": 4171,
  " zhi zuo ": 4172,
  " zhi chi ": 4173,
  "ma wei ": 4174,
  "gao du ": 4175,
  " ba": 4176,
  "chang de ": 4177,
  " nian qi ": 4178,
  "zhu jiao ": 4179,
  " zh ": 4180,
  "zhe xie ": 4181,
  "niu ": 4182,
  "ge zhong ": 4183,
  " zhi wu ": 4184,
  "xu yao ": 4185,
  " zai ci ": 4186,
  "jue se ": 4187,
  "chong xin ": 4188,
  "chu le ": 4189,
  "ti de ": 4190,
  "tui chu ": 4191,
  " li ji ": 4192,
  "zhe ge ": 4193,
  "jing li ": 4194,
  " zui zhong ": 4195,
  "xiang de ": 4196,
  "gong cheng ": 4197,
  " du ": 4198,
  " dang shi ": 4199,
  "qi yi ": 4200,
  "da shi ": 4201,
  " ai": 4202,
  "chu yu ": 4203,
  " ren he ": 4204,
  " she ": 4205,
  "wu zhong ": 4206,
  "du wei ": 4207,
  "ren min ": 4208,
  "zi de ": 4209,
  "xuan ju ": 4210,
  " ye": 4211,
  "   di li ": 4212,
  "lian sai ": 4213,
  "zi ji de ": 4214,
  " wei le ": 4215,
  " ren wu ": 4216,
  " huo": 4217,
  "ge qu ": 4218,
  " nian jian ": 4219,
  "dang di ": 4220,
  " lai ": 4221,
  "s ": 4222,
  " 16": 4223,
  "fu ze ": 4224,
  "kai fa ": 4225,
  "   wei ": 4226,
  " wei qi ": 4227,
  "gong chan ": 4228,
  "xian zai ": 4229,
  " zhi yu ": 4230,
  " ren yuan ": 4231,
  "zhe yi ": 4232,
  "liang wei ": 4233,
  "jie shu ": 4234,
  "ya de ": 4235,
  " ban ": 4236,
  "chu li ": 4237,
  "jie mu ": 4238,
  " lei ": 4239,
  "guan de ": 4240,
  "nv zi ": 4241,
  "sai shi ": 4242,
  "2010 nian ": 4243,
  "rui ": 4244,
  "ding de ": 4245,
  "dui de ": 4246,
  "ri ben": 4247,
  " hou lai ": 4248,
  "fan ying ": 4249,
  "chu ban ": 4250,
  "jie de ": 4251,
  "chan sheng ": 4252,
  "juan ": 4253,
  " ma": 4254,
  "shou ci ": 4255,
  "she shi ": 4256,
  "lei si ": 4257,
  " shi yi ge ": 4258,
  " yang ": 4259,
  "dong wu ": 4260,
  "ba shi ": 4261,
  "7 ": 4262,
  "jing shi ": 4263,
  " ji xu ": 4264,
  " na ": 4265,
  "le bu ": 4266,
  "jie shi ": 4267,
  " dai ": 4268,
  "xiang shi ": 4269,
  "bo shi ": 4270,
  "ruo ": 4271,
  "ke neng": 4272,
  "an de ": 4273,
  "nan zi ": 4274,
  " jiang": 4275,
  "du de ": 4276,
  "guan xia ": 4277,
  "san nian ": 4278,
  " mei": 4279,
  "zao cheng ": 4280,
  "hai shi ": 4281,
  "yang de ": 4282,
  "dong shi ": 4283,
  " ai ": 4284,
  "she li ": 4285,
  "zhong zhi ": 4286,
  "yan jiu": 4287,
  "dao le ": 4288,
  "shan xi ": 4289,
  " zhen ": 4290,
  " 0": 4291,
  "guo yi ": 4292,
  " 1 ": 4293,
  " ya ": 4294,
  " suo yi ": 4295,
  " ji zhi ": 4296,
  "zhong yu ": 4297,
  "fen bu ": 4298,
  "nv xing ": 4299,
  " he zuo ": 4300,
  "dou shi ": 4301,
  "jun de ": 4302,
  "   qi ": 4303,
  "guo yu ": 4304,
  "dong de ": 4305,
  "dai de ": 4306,
  "zheng de ": 4307,
  "fang fa ": 4308,
  " zhi zhi ": 4309,
  "2020 nian ": 4310,
  "lian meng ": 4311,
  " yi si ": 4312,
  "wu li ": 4313,
  "xiang mu ": 4314,
  "fang de ": 4315,
  "jiao shou ": 4316,
  "mei ping fang ": 4317,
  "zheng zhi ren wu ": 4318,
  "di wei ": 4319,
  "cai yong ": 4320,
  " tu ": 4321,
  " cong": 4322,
  "liang de ": 4323,
  " zai di ": 4324,
  " xuan ": 4325,
  "   ren kou ": 4326,
  "chuan tong ": 4327,
  "yuan yu ": 4328,
  "zhan de ": 4329,
  "zhu de ": 4330,
  "   you ": 4331,
  "bao kuo": 4332,
  "hua min guo ": 4333,
  " ze ": 4334,
  "xi tong ": 4335,
  "cheng ren ": 4336,
  " ri zai ": 4337,
  " gui ": 4338,
  "jia ru ": 4339,
  "fa de ": 4340,
  "2001 nian ": 4341,
  "ge shi ": 4342,
  "8 ": 4343,
  " nian yi ": 4344,
  " ran ": 4345,
  "xin wen ": 4346,
  "yan yuan ": 4347,
  "hao de ": 4348,
  "   ji ": 4349,
  " li si ": 4350,
  " bei": 4351,
  " ji ji ": 4352,
  "fu shi ": 4353,
  " 17": 4354,
  " yi hui ": 4355,
  "xiang guan ": 4356,
  "ying yu ": 4357,
  "dao shi ": 4358,
  "bian ma wei ": 4359,
  "tai wan": 4360,
  "he shi ": 4361,
  " ji lu ": 4362,
  "bo wu ": 4363,
  "xue de ": 4364,
  "hou zai ": 4365,
  " wei fu ": 4366,
  " ta men": 4367,
  "lian jie ": 4368,
  " de yi ge shi zhen ": 4369,
  " yi yi ": 4370,
  " A": 4371,
  " xue ming ": 4372,
  "xi ji ": 4373,
  "zui jia ": 4374,
  " xi ya ": 4375,
  "ti chu ": 4376,
  "ming cheng ": 4377,
  "mu si ": 4378,
  " xie ": 4379,
  "ling shi ": 4380,
  " zhe shi ": 4381,
  "er nian ": 4382,
  "xiao de ": 4383,
  "hai you ": 4384,
  "mian de ": 4385,
  " wei zhu ": 4386,
  " zhou ": 4387,
  " zong": 4388,
  " ren kou mi du ": 4389,
  " li yi ": 4390,
  "ge de ": 4391,
  " zhi jie ": 4392,
  " la ": 4393,
  "zui gao ": 4394,
  "s   ": 4395,
  "dong ji ": 4396,
  "   jia ": 4397,
  " ye shi ": 4398,
  " shi yi zhong ": 4399,
  " ci": 4400,
  " qiu ": 4401,
  "yan de ": 4402,
  "xia ji ": 4403,
  " yu shi ": 4404,
  " fang ": 4405,
  "ge ming ": 4406,
  "ye yu ": 4407,
  " gong si ": 4408,
  " jun ": 4409,
  " nian zai ": 4410,
  "yao de ": 4411,
  "gai wei ": 4412,
  " yi xie ": 4413,
  "zai de ": 4414,
  "shu shi ": 4415,
  "hai jun ": 4416,
  " liang": 4417,
  " ka ": 4418,
  "jia zhi ": 4419,
  "zhe zhong ": 4420,
  "chang shi ": 4421,
  "hui shi ": 4422,
  "yan zhong ": 4423,
  "gai guo ": 4424,
  "na da ": 4425,
  "zhu shi ": 4426,
  " zuo wei ": 4427,
  "qing kuang": 4428,
  "zheng yi ": 4429,
  "sheng wu ": 4430,
  "bian de ": 4431,
  "zhai ": 4432,
  "ke ji ": 4433,
  "hui fu ": 4434,
  " zhi qian ": 4435,
  "luan ": 4436,
  "zai yu ": 4437,
  "mei ti ": 4438,
  " mi": 4439,
  "xin xi ": 4440,
  " yi zhong ": 4441,
  "gao de ": 4442,
  "wen wu ": 4443,
  "jie guo ": 4444,
  "jian shi ": 4445,
  "qi zhi ": 4446,
  " ji zai ": 4447,
  "min zu ": 4448,
  " C": 4449,
  "shui yu ": 4450,
  "qian de ": 4451,
  "he de ": 4452,
  "yan chang ": 4453,
  " ni ": 4454,
  "zhu jian ": 4455,
  "10 ": 4456,
  "fan dui ": 4457,
  "neng li ": 4458,
  " wei you ": 4459,
  " ke si ": 4460,
  " ke yi ": 4461,
  "   xing zheng ": 4462,
  "ge li ": 4463,
  "gong kai ": 4464,
  "hua shi ": 4465,
  " bu tong ": 4466,
  "xing zhi ": 4467,
  "si yu ": 4468,
  " chong ": 4469,
  "lei de ": 4470,
  " zhu yao ": 4471,
  "chou ": 4472,
  "bei shi ": 4473,
  "huan jing ": 4474,
  "jie gou ": 4475,
  " 2 ": 4476,
  "jiang jun ": 4477,
  "zhang de ": 4478,
  "peng ": 4479,
  "of   ": 4480,
  " xiang gang ": 4481,
  "chuang zuo ": 4482,
  "xian yu ": 4483,
  "shang ye ": 4484,
  "zan ": 4485,
  "   ben ": 4486,
  "   formula ": 4487,
  " zhe ge ": 4488,
  "sai ji ": 4489,
  "mo shi ": 4490,
  "gao su ": 4491,
  "a er ": 4492,
  " di yi ": 4493,
  "zhe de ": 4494,
  "biao xian ": 4495,
  " zhong hua ren min gong he guo ": 4496,
  " hong ": 4497,
  "tong ji ": 4498,
  " ling": 4499,
  "the   ": 4500,
  "jun dui ": 4501,
  " li wei ": 4502,
  "da lu ": 4503,
  " chen ": 4504,
  "zhu li ": 4505,
  "ge yue ": 4506,
  " yun ": 4507,
  "sheng ya ": 4508,
  "sheng li ": 4509,
  "quan li ": 4510,
  "wu fa ": 4511,
  "dong bu ": 4512,
  "zhou shi ": 4513,
  "zong jiao ": 4514,
  "ge lan ": 4515,
  " nian shi ": 4516,
  "diao cha ": 4517,
  "si nian ": 4518,
  "tou guo ": 4519,
  " yi ban ": 4520,
  "bu fen": 4521,
  "biao zhun ": 4522,
  "   gen ju ": 4523,
  "hang kong ": 4524,
  "bi ye ": 4525,
  " tang ": 4526,
  "hui zai ": 4527,
  " 1": 4528,
  " 14": 4529,
  "   ci ": 4530,
  " yi ci ": 4531,
  " dang di ": 4532,
  "shen fen ": 4533,
  " yao ": 4534,
  "di zhi ": 4535,
  " nei ": 4536,
  "gong lu ": 4537,
  " de yi bu fen ": 4538,
  "fa yuan ": 4539,
  "bu yi ": 4540,
  " ming": 4541,
  "di yu ": 4542,
  "jia li ": 4543,
  "gong zuo": 4544,
  "jin ji ": 4545,
  "cheng zhong ": 4546,
  "bing bu ": 4547,
  "sai de ": 4548,
  " tai wan ": 4549,
  "quan bu ": 4550,
  "ba gao du ": 4551,
  " bing qie": 4552,
  "xie hui ": 4553,
  "jiao shi ": 4554,
  "fei chang ": 4555,
  " ji tuan ": 4556,
  "dong hua ": 4557,
  "an quan ": 4558,
  " zhi xing ": 4559,
  "bi de ": 4560,
  " huang ": 4561,
  " bao kuo": 4562,
  "cha de ": 4563,
  " lin ": 4564,
  "   of   ": 4565,
  "zi liao ": 4566,
  " zhuan ": 4567,
  "fu he ": 4568,
  "jing de ": 4569,
  "tuan ti ": 4570,
  "luo ma ": 4571,
  "jie zhi ": 4572,
  "bei ren ": 4573,
  "fen bie": 4574,
  "sheng chan ": 4575,
  "chao xian ": 4576,
  "gai di ": 4577,
  "ding yi ": 4578,
  " jin xing ": 4579,
  "xia yi ": 4580,
  "jin biao ": 4581,
  "ping jun ": 4582,
  " liu": 4583,
  "xing dong ": 4584,
  "wen xue ": 4585,
  "du shi ": 4586,
  " ru guo ": 4587,
  "ren kou pu ": 4588,
  "la si ": 4589,
  "qing kuang ": 4590,
  "jia ji ": 4591,
  " zu ": 4592,
  "gong gong ": 4593,
  "jie fang ": 4594,
  " zhi yuan ": 4595,
  "ju min ": 4596,
  " gu": 4597,
  " zhi hui ": 4598,
  " qi hou ": 4599,
  "dong bei ": 4600,
  "shou de ": 4601,
  "shang shi ": 4602,
  " 9": 4603,
  " ji di ": 4604,
  "she zhi ": 4605,
  " wo": 4606,
  "yan chu ": 4607,
  "qiu yuan ": 4608,
  "yuan yi ": 4609,
  " yu ji ": 4610,
  "sai zhong ": 4611,
  "ke xue ": 4612,
  " fen": 4613,
  "yan shi ": 4614,
  " chuan ": 4615,
  "gong tong ": 4616,
  "ling dao ": 4617,
  "ren yi ": 4618,
  " da": 4619,
  "zuo pin": 4620,
  "zuo you ": 4621,
  " nan": 4622,
  " de zhu ": 4623,
  "er ji ": 4624,
  "zai shi ": 4625,
  "28 ri ": 4626,
  "ao yun ": 4627,
  "kong jian ": 4628,
  "xing ji ": 4629,
  "gai bian ": 4630,
  "ye you ": 4631,
  " dan ren ": 4632,
  "san ge ": 4633,
  "fa biao ": 4634,
  "wu zhi ": 4635,
  "deng di ": 4636,
  " ling wai ": 4637,
  " zhao ": 4638,
  "jia shi ": 4639,
  " di guo ": 4640,
  " jiu": 4641,
  "yuan he ": 4642,
  "fang zhi ": 4643,
  "you xi ": 4644,
  "deng ren ": 4645,
  " er shi ": 4646,
  " che ": 4647,
  "de   ": 4648,
  "xue shi ": 4649,
  "guan zhong ": 4650,
  "lan de ": 4651,
  "xue wei ": 4652,
  "lu xian ": 4653,
  "shu wei ": 4654,
  "ze shi ": 4655,
  "ju de ": 4656,
  "bao dao ": 4657,
  " huo de ": 4658,
  " li zhi ": 4659,
  "zhui ": 4660,
  "qi wei ": 4661,
  "lve ": 4662,
  "he ji ": 4663,
  "chu ren ": 4664,
  "bu tong ": 4665,
  "qing nian ": 4666,
  "2008 nian ": 4667,
  "guo li ": 4668,
  "zuo yong ": 4669,
  "bang zhu ": 4670,
  "ao lin ": 4671,
  "pi ke ": 4672,
  " S": 4673,
  "2016 nian ": 4674,
  "gong de ": 4675,
  "zao dao ": 4676,
  " ke neng ": 4677,
  "ai er ": 4678,
  " yu qi ": 4679,
  " ri zhi ": 4680,
  " fu ze ": 4681,
  "   zhong ": 4682,
  "zu de ": 4683,
  "dan qu ": 4684,
  " yu yan ": 4685,
  "jiang qi ": 4686,
  "ju ji ": 4687,
  "lu di ": 4688,
  " da dao ": 4689,
  "gui dao ": 4690,
  " you guan ": 4691,
  "tong chang ": 4692,
  "15 ri ": 4693,
  "shou ji ": 4694,
  " yi you ": 4695,
  "ta men": 4696,
  "fei ji ": 4697,
  " yi yu ": 4698,
  "ban ben ": 4699,
  "tu di ": 4700,
  "xian dai ": 4701,
  "yuan nian ": 4702,
  "2009 nian ": 4703,
  " 12": 4704,
  "sheng de yi ge shi zhen ": 4705,
  " zhi jian de ": 4706,
  " mu qian ": 4707,
  "ma li ": 4708,
  "ya zhou ": 4709,
  "xi ban ": 4710,
  " shui ": 4711,
  "bian hua ": 4712,
  "   ju ": 4713,
  "jing nei ": 4714,
  " pai ": 4715,
  "jie he ": 4716,
  " shi xing ": 4717,
  "gong ye ": 4718,
  "hui he ": 4719,
  "jue sai ": 4720,
  "wu nian ": 4721,
  " ding ": 4722,
  "tai ping ": 4723,
  "jia yi ": 4724,
  "hou yu ": 4725,
  " bing qie ": 4726,
  "2011 nian ": 4727,
  " si ke ": 4728,
  "2012 nian ": 4729,
  "zao qi ": 4730,
  "nei rong ": 4731,
  " wei zhong ": 4732,
  "guang bo ": 4733,
  "zhan yi ": 4734,
  " 2": 4735,
  "pa ": 4736,
  "xian ren ": 4737,
  "jiao yi ": 4738,
  "pi ping ": 4739,
  "ta zai ": 4740,
  "xing cheng ": 4741,
  "mei yuan ": 4742,
  " mo": 4743,
  " hai ba gao du ": 4744,
  "25 ri ": 4745,
  "jiao hui ": 4746,
  "miao shu ": 4747,
  " bu dui ": 4748,
  " zhi ye ": 4749,
  "zheng ce ": 4750,
  " er si ": 4751,
  " dan zai ": 4752,
  "wan quan ": 4753,
  "xuan ze ": 4754,
  " si te ": 4755,
  "yuan yin ": 4756,
  " ta yu ": 4757,
  "UTC ": 4758,
  " ha": 4759,
  "bo li ": 4760,
  "zao de ": 4761,
  " he wu ": 4762,
  "jian she ": 4763,
  " yue de ": 4764,
  " 4": 4765,
  "xie yi ": 4766,
  "chu shi ": 4767,
  "xiao shuo ": 4768,
  "wu ke lan ": 4769,
  "chang qi ": 4770,
  "yun dong hui ": 4771,
  "bei cheng wei ": 4772,
  "lian bang ": 4773,
  " ren wei ": 4774,
  " di san ": 4775,
  " wei di ": 4776,
  " 3": 4777,
  " jian cheng ": 4778,
  "30 ri ": 4779,
  " dang zhong ": 4780,
  "10 ri ": 4781,
  " shi yan ": 4782,
  " de dao ": 4783,
  "chi xu ": 4784,
  "B ": 4785,
  "zui da ": 4786,
  " si": 4787,
  "wen hua": 4788,
  " e ": 4789,
  " qie": 4790,
  " xun ": 4791,
  "20 ri ": 4792,
  " yi ming ": 4793,
  "zu he ": 4794,
  "duo shu ": 4795,
  "yuan zhu ": 4796,
  "dian zi ": 4797,
  "se de ": 4798,
  " ta shi ": 4799,
  "xing yu ": 4800,
  "ming ming ": 4801,
  " 5": 4802,
  "2014 nian ": 4803,
  "hou lai ": 4804,
  "lin shi ": 4805,
  "gong si": 4806,
  "zhuan ye ": 4807,
  "sheng he ": 4808,
  " you cheng ": 4809,
  "wu yuan ": 4810,
  "bu li ": 4811,
  "er wei ": 4812,
  "jie dao ": 4813,
  " meng ": 4814,
  "fu zhi ": 4815,
  "ba li ": 4816,
  "zi ge ": 4817,
  "chu qi ": 4818,
  "2018 nian ": 4819,
  "bu ji ": 4820,
  "2019 nian ": 4821,
  " 8": 4822,
  "er zi ": 4823,
  "dong nan ": 4824,
  "gao zhong ": 4825,
  " 5 ": 4826,
  "ta men de ": 4827,
  " ji gou ": 4828,
  "fa lv ": 4829,
  " mian ": 4830,
  "za zhi ": 4831,
  " ji jin ": 4832,
  " di si ": 4833,
  " shi wei yu mei guo ": 4834,
  "da dao ": 4835,
  " jin guan ": 4836,
  "ye de ": 4837,
  "2013 nian ": 4838,
  " wei yu gai guo ": 4839,
  " guo min ": 4840,
  "a la ": 4841,
  "kui ": 4842,
  " yue zhi ": 4843,
  "fa zhan": 4844,
  " li ke ": 4845,
  "tu er ": 4846,
  "sheng wei ": 4847,
  " shi jie da ": 4848,
  " san": 4849,
  "18 ri ": 4850,
  "bao gao ": 4851,
  "zhong ji ": 4852,
  "24 ri ": 4853,
  "2015 nian ": 4854,
  " li yong ": 4855,
  " li kai ": 4856,
  "fang xiang ": 4857,
  "dao yi ": 4858,
  " sui hou ": 4859,
  "nei bu ": 4860,
  " yu zhong ": 4861,
  "guo min ": 4862,
  "guang dong ": 4863,
  "gui ding ": 4864,
  "wang de ": 4865,
  " 6": 4866,
  " geng ": 4867,
  "bo wu guan ": 4868,
  "luo de ": 4869,
  "26 ri ": 4870,
  "can sai ": 4871,
  " yue shi ": 4872,
  "die ": 4873,
  " ying guo ": 4874,
  " zhe zhong ": 4875,
  "2007 nian ": 4876,
  "mu biao ": 4877,
  " wei si ": 4878,
  "she qu ": 4879,
  " yu zhi ": 4880,
  " tong nian ": 4881,
  "guan zhi ": 4882,
  "dian li ": 4883,
  "2005 nian ": 4884,
  "gong chan dang ": 4885,
  " you qi ": 4886,
  " xi lie ": 4887,
  " wai ": 4888,
  "xian yi ": 4889,
  "te bie": 4890,
  " fen bu yu ": 4891,
  "ao lin pi ke ": 4892,
  "lian xi ": 4893,
  " ke": 4894,
  "bing wei ": 4895,
  "gong bu ": 4896,
  " ji chang ": 4897,
  "fu li ": 4898,
  "ju ban ": 4899,
  " sha ": 4900,
  "mu de ": 4901,
  " chu le ": 4902,
  " 2001 nian ": 4903,
  "lie de ": 4904,
  " shi he ": 4905,
  " gan ": 4906,
  "chang wei ": 4907,
  "wu xian ": 4908,
  " er sheng ": 4909,
  "bi li ": 4910,
  "quan qiu ": 4911,
  "shen de ": 4912,
  "tou zi ": 4913,
  " shi zi ": 4914,
  "2017 nian ": 4915,
  "mu di ": 4916,
  " duo": 4917,
  "16 ri ": 4918,
  " ji he ": 4919,
  "yin hang ": 4920,
  "ding wei ": 4921,
  " que": 4922,
  "dong jing ": 4923,
  "shang shu ": 4924,
  "fu yi ": 4925,
  "dao yu ": 4926,
  "dang de ": 4927,
  "guan fang ": 4928,
  " 13": 4929,
  "guo zhi ": 4930,
  "17 ri ": 4931,
  "pai she ": 4932,
  "zi yu ": 4933,
  "hua xue ": 4934,
  "shou yu ": 4935,
  " min ": 4936,
  "   zheng zhi ": 4937,
  " you xian gong si ": 4938,
  "kai fang ": 4939,
  "21 ri ": 4940,
  "bu zhi ": 4941,
  " de shi zhen ": 4942,
  "gai nian ": 4943,
  "7 ri ": 4944,
  "27 ri ": 4945,
  " zhong xue ": 4946,
  "bao fa ": 4947,
  "zhe shi ": 4948,
  "ka er ": 4949,
  "   A": 4950,
  "19 ri ": 4951,
  "2006 nian ": 4952,
  "jun wei ": 4953,
  "11 ri ": 4954,
  " li fa ": 4955,
  "8 ri ": 4956,
  " hao mi ": 4957,
  "ying yong ": 4958,
  "12 ri ": 4959,
  "23 ri ": 4960,
  "shang you ": 4961,
  "ming zi ": 4962,
  " fu wu ": 4963,
  "ce shi ": 4964,
  " song ": 4965,
  " yin ci": 4966,
  "su lian ": 4967,
  "mei guo ren kou pu ": 4968,
  " de wei ": 4969,
  "xian wei ": 4970,
  "fei xing ": 4971,
  " zhi ji ": 4972,
  "shu liang wei ": 4973,
  "qi jian ": 4974,
  "   the   ": 4975,
  "t ": 4976,
  "ju le bu ": 4977,
  "fu yu ": 4978,
  "yin shi ": 4979,
  "xue zhe ": 4980,
  "huang di ": 4981,
  "hui yu ": 4982,
  "qi ji ": 4983,
  "2021 nian ": 4984,
  "ban shi ": 4985,
  "xi lie ": 4986,
  "bo chu ": 4987,
  " de zhong ": 4988,
  " qie ": 4989,
  "22 ri ": 4990,
  "gui mo ": 4991,
  " shi fa guo ": 4992,
  " sai ": 4993,
  "bi xu ": 4994,
  "ling yu ": 4995,
  "9 ri ": 4996,
  "shan dong ": 4997,
  "gong neng ": 4998,
  "29 ri ": 4999,
  "chu yi ": 5000,
  "yin qi ": 5001,
  "guan yuan ": 5002,
  "ying shi ": 5003,
  " 3 ": 5004,
  "zui da de ": 5005,
  "zheng zai ": 5006,
  " lv ": 5007,
  " yue han ": 5008,
  "xun lian ": 5009,
  " ji bai ": 5010,
  "jing ying ": 5011,
  "feng ge ": 5012,
  "te de ": 5013,
  "2022 nian ": 5014,
  "fu jin ": 5015,
  "ting zhi ": 5016,
  "neng gou ": 5017,
  "kun ": 5018,
  "suo shu de ": 5019,
  "ping jia ": 5020,
  " E": 5021,
  "14 ri ": 5022,
  "ge di ": 5023,
  "3 ri ": 5024,
  "zhu zai ": 5025,
  "qing kuang xia ": 5026,
  "yuan ji ": 5027,
  "shou shi ": 5028,
  "tiao jian ": 5029,
  "jiao de ": 5030,
  " pi ": 5031,
  "sheng zai ": 5032,
  "qu hua ": 5033,
  "5 ri ": 5034,
  "tai de ": 5035,
  "xi shi ": 5036,
  "sheng ming ": 5037,
  " 7": 5038,
  "shang wei ": 5039,
  "she de ": 5040,
  "mai ke ": 5041,
  "   you yu ": 5042,
  "ya yu ": 5043,
  " kai shi ": 5044,
  " dao zhi ": 5045,
  "sheng chan": 5046,
  "jin zhi ": 5047,
  "31 ri ": 5048,
  "The   ": 5049,
  " bu jiu ": 5050,
  "jie chu ": 5051,
  " D": 5052,
  "yuan zhi ": 5053,
  " da hui ": 5054,
  "xiao xing xing ": 5055,
  "lian meng": 5056,
  "4 ri ": 5057,
  "chao ji ": 5058,
  "2 ri ": 5059,
  "xiong di ": 5060,
  " ren zhong ": 5061,
  " zui hou ": 5062,
  "dian de ": 5063,
  "6 ri ": 5064,
  "zang ": 5065,
  "hai yu ": 5066,
  "da ji ": 5067,
  "bo te ": 5068,
  " gong chi ": 5069,
  "liu xing ": 5070,
  "ge ji ": 5071,
  "13 ri ": 5072,
  "nan xing ": 5073,
  " sui ran ": 5074,
  "wen wu bao hu ": 5075,
  " nian dai": 5076,
  "te zheng ": 5077,
  " qiang ": 5078,
  " man ": 5079,
  "ren he ": 5080,
  "wu ji ": 5081,
  "ge wei ": 5082,
  "ren ji ": 5083,
  "lv you ": 5084,
  "zuo jia ": 5085,
  " tong guo ": 5086,
  "ke da ": 5087,
  "si ren ": 5088,
  "ge shou ": 5089,
  "21 ": 5090,
  " xin": 5091,
  "9 ": 5092,
  " jue ": 5093,
  " shen zhi ": 5094,
  "yin ci ": 5095,
  "huang jia ": 5096,
  "fen xi ": 5097,
  "ou zhou": 5098,
  "br ": 5099,
  "jian wei ": 5100,
  " ling yi ": 5101,
  "sheng fen ": 5102,
  "zong he ": 5103,
  "xu duo": 5104,
  "   S": 5105,
  "lie che": 5106,
  "ju ren ": 5107,
  "niu yue ": 5108,
  "   jin ": 5109,
  " br ": 5110,
  "ban dao ": 5111,
  "ci shi jie da ": 5112,
  "zhu ti ": 5113,
  "zhong wei ": 5114,
  " 10": 5115,
  "cheng yi ": 5116,
  "zai wei ": 5117,
  "zhuang tai ": 5118,
  " sui ran": 5119,
  " dou ": 5120,
  " you ming ": 5121,
  "qi nian ": 5122,
  " ta ceng ": 5123,
  "ben de ": 5124,
  "bian wei ": 5125,
  "pin dao ": 5126,
  " zai qi ": 5127,
  "you yi ge ": 5128,
  "ju zhong ": 5129,
  "he li ": 5130,
  "mao yi ": 5131,
  " T": 5132,
  "20 shi ji ": 5133,
  "fen zi ": 5134,
  " chi ": 5135,
  " zhi zhong ": 5136,
  " geng": 5137,
  "bu zhang ": 5138,
  "ren kou shu liang wei ": 5139,
  "wang luo ": 5140,
  "hui you ": 5141,
  "   zi ": 5142,
  "qian yi ": 5143,
  "ao si ": 5144,
  "2004 nian ": 5145,
  "shuo shi ": 5146,
  "jie duan ": 5147,
  "xuan shou ": 5148,
  "gao ji ": 5149,
  "zhun bei ": 5150,
  "fa shi ": 5151,
  " he nan ": 5152,
  " zhou": 5153,
  "fang an ": 5154,
  "fang yu ": 5155,
  "mi er ": 5156,
  "wai de ": 5157,
  "da xing ": 5158,
  "duo ci ": 5159,
  " chen": 5160,
  "ci de ": 5161,
  "bing li ": 5162,
  "gong zhong ": 5163,
  "   li ": 5164,
  "hui dao ": 5165,
  "bei de ": 5166,
  " gang ": 5167,
  "mo de ": 5168,
  " yi lai ": 5169,
  " ri qi ": 5170,
  "cheng du ": 5171,
  " lan ": 5172,
  " 4 ": 5173,
  "fen zhi ": 5174,
  "bu wei ": 5175,
  "2000 nian ": 5176,
  "shu guan ": 5177,
  "ci zhi ": 5178,
  "liu nian ": 5179,
  " zhong bu ": 5180,
  "wu qi ": 5181,
  " fan": 5182,
  " xian shi ": 5183,
  "jie ji ": 5184,
  "le yi ge ": 5185,
  "yuan wei ": 5186,
  "bao han ": 5187,
  "jun zai ": 5188,
  " di fang ": 5189,
  "dian shi tai ": 5190,
  "you zhi ": 5191,
  "zi shi ": 5192,
  " de yi zhong ": 5193,
  " ze": 5194,
  "xing he ": 5195,
  " ren kou": 5196,
  " ren kou mi du wei ": 5197,
  "ju shi ": 5198,
  " yi shi ": 5199,
  "deng ji ": 5200,
  "lu jun ": 5201,
  " hao": 5202,
  "xuan wei ": 5203,
  "xiang tong ": 5204,
  " tou ": 5205,
  " chao ": 5206,
  "zhe jiang ": 5207,
  "m ": 5208,
  "biao yan ": 5209,
  "zui hou ": 5210,
  "qiu ji ": 5211,
  "si wang ": 5212,
  "gai ge ": 5213,
  " zhu yao": 5214,
  " wei yu fa guo ": 5215,
  "she bei ": 5216,
  "nong ye ": 5217,
  "da liang ": 5218,
  "duo ge ": 5219,
  " zhao": 5220,
  " zhi jin ": 5221,
  "mei zhou ": 5222,
  "dian shi ju ": 5223,
  "hou you ": 5224,
  " shi dai ": 5225,
  " xiang": 5226,
  " xi ban ": 5227,
  "gu ji ": 5228,
  " zu": 5229,
  "shang yi ": 5230,
  "ai de ": 5231,
  "yang shi ": 5232,
  "zhu yu ": 5233,
  "guang chang ": 5234,
  "liu shi ": 5235,
  "zai ji ": 5236,
  "zhan dou ": 5237,
  " mei you ": 5238,
  "fa yu ": 5239,
  " fei": 5240,
  "   da ": 5241,
  "wen wu bao hu dan wei ": 5242,
  " 11": 5243,
  "zhan kai ": 5244,
  " zhi li ": 5245,
  "jia he ": 5246,
  " jia ru ": 5247,
  "tiao yue ": 5248,
  "fu jian ": 5249,
  "xie zhu ": 5250,
  " yi bei ": 5251,
  " bu zai ": 5252,
  "chan pin ": 5253,
  "hang kong": 5254,
  "bian cheng ": 5255,
  "mu qian ": 5256,
  "you zheng ": 5257,
  " fen bie": 5258,
  "jiang yu ": 5259,
  "ren yu ": 5260,
  "huo de le ": 5261,
  "fen lei ": 5262,
  "dao lu ": 5263,
  "gong you ren kou ": 5264,
  "ying ji ": 5265,
  "duan de ": 5266,
  " zhi zai ": 5267,
  "qun dao ": 5268,
  "qing de ": 5269,
  " M": 5270,
  "biao zhun": 5271,
  " bei qi ": 5272,
  "hai ba ": 5273,
  "zhen qu ": 5274,
  " zhe yi ": 5275,
  " zhang": 5276,
  "   jian ": 5277,
  " 6 ": 5278,
  "bi jiao ": 5279,
  " ying chi ": 5280,
  "nai ": 5281,
  " qi ye ": 5282,
  "cuo ": 5283,
  "gui hua ": 5284,
  "zhan zheng": 5285,
  "nao ": 5286,
  " li zi ": 5287,
  " ke neng": 5288,
  " xi wang ": 5289,
  " xing zheng ": 5290,
  "su du ": 5291,
  "ju yu ": 5292,
  "nv er ": 5293,
  "xi bu ": 5294,
  " tiao ": 5295,
  " zhong hua min guo ": 5296,
  "shou du ": 5297,
  "xi wei ": 5298,
  "nu ": 5299,
  " bu hui ": 5300,
  " fa guo ": 5301,
  " yi ren ": 5302,
  "qiao zhi ": 5303,
  " gong fen ": 5304,
  " zai zhong ": 5305,
  "mei ping fang gong li ": 5306,
  "mi de ": 5307,
  "rong yu ": 5308,
  "dong xi ": 5309,
  "jiu shi zhen ": 5310,
  "dong li ": 5311,
  " yi yang ": 5312,
  " de shi jian ": 5313,
  "jin gong ": 5314,
  "man hua ": 5315,
  "di yi ge ": 5316,
  "dou you ": 5317,
  "si he ": 5318,
  "   xi ": 5319,
  " cheng qu ": 5320,
  " nv ": 5321,
  "si wei ": 5322,
  " tian": 5323,
  "hen duo ": 5324,
  "ma lai": 5325,
  "la de ": 5326,
  "ken ": 5327,
  "ru xia ": 5328,
  "tai bei ": 5329,
  "ze ren ": 5330,
  "fu ren ": 5331,
  " kong ": 5332,
  "la ke ": 5333,
  " ci hou ": 5334,
  "qu dai ": 5335,
  "jin biao sai ": 5336,
  "xian de yi ge ": 5337,
  " yi xia ": 5338,
  "shang wu ": 5339,
  "yu shi de ": 5340,
  " yu wei ": 5341,
  "jian you ": 5342,
  " er bei ": 5343,
  "zong li ": 5344,
  "wang guo ": 5345,
  " F": 5346,
  "xiang dui ": 5347,
  "lian xu ": 5348,
  "   fu ": 5349,
  "qu yi ": 5350,
  "min zhong ": 5351,
  "jie rang": 5352,
  "reng ran": 5353,
  "xiao xi ": 5354,
  "mi shu ": 5355,
  "tie dao ": 5356,
  "zheng ge ": 5357,
  "   zhe ": 5358,
  "zui hou yi ": 5359,
  "ci ji ": 5360,
  "jue de ": 5361,
  "ren kou shu liang wei ren ": 5362,
  " ruo": 5363,
  " P": 5364,
  "   zhu ": 5365,
  " zhong xin": 5366,
  "quan de ": 5367,
  "zhan ling ": 5368,
  "xin jia ": 5369,
  "wai jiao ": 5370,
  "di san ": 5371,
  "jia na da ": 5372,
  " li shu yu ": 5373,
  " ren zai ": 5374,
  "tian zhu jiao ": 5375,
  "zhen shi ": 5376,
  " INSEE": 5377,
  "ye wu ": 5378,
  "cheng zhen ": 5379,
  " wu": 5380,
  "ci yu ": 5381,
  "qi ta": 5382,
  " hei ": 5383,
  " ran hou ": 5384,
  " nian ji ": 5385,
  "yuan you ": 5386,
  "da xue": 5387,
  " you yi ": 5388,
  "ceng zai ": 5389,
  "niao ": 5390,
  "jian cha ": 5391,
  "zheng quan ": 5392,
  "shou ge ": 5393,
  "nan ji ": 5394,
  "zuo chu ": 5395,
  " de shi hou ": 5396,
  "sheng cheng ": 5397,
  " he bei ": 5398,
  "ni si ": 5399,
  "20 ": 5400,
  "ju jue ": 5401,
  "lu shi ": 5402,
  "jiao wei ": 5403,
  "d ": 5404,
  "qu xiao ": 5405,
  "ti ji ": 5406,
  " jie zhi ": 5407,
  " de yu ": 5408,
  "t   ": 5409,
  " zheng shi ": 5410,
  "dian ji ": 5411,
  " rang": 5412,
  "sheng zhi ": 5413,
  "che liang ": 5414,
  " gai sheng ": 5415,
  "he wei ": 5416,
  " 00": 5417,
  "da li ya ": 5418,
  "zhong xin ": 5419,
  "dui zai ": 5420,
  "xian fa ": 5421,
  " dui yu ": 5422,
  "wang zhan ": 5423,
  " bai": 5424,
  "he zhi ": 5425,
  "le ji ": 5426,
  "di fang ": 5427,
  "zhen de ": 5428,
  "lan xi ": 5429,
  " qi ta": 5430,
  " er zai ": 5431,
  " zong mian ji ": 5432,
  "yun ying ": 5433,
  " K": 5434,
  " de li ": 5435,
  "jie jue ": 5436,
  "zi xing ": 5437,
  " ri ben": 5438,
  "tian wen ": 5439,
  "2002 nian ": 5440,
  "2003 nian ": 5441,
  "mo xi ": 5442,
  " shi chang ": 5443,
  "   a": 5444,
  "gong yi ": 5445,
  "shu zhi ": 5446,
  " di qi ": 5447,
  " jian zhu ": 5448,
  "shou wei ": 5449,
  "ye zai ": 5450,
  "dian ying": 5451,
  " ren kou mi du mei ping fang gong li ": 5452,
  "ying xiang": 5453,
  "xiao xue ": 5454,
  "cha de shu ju ": 5455,
  "you zheng bian ma wei ": 5456,
  " I": 5457,
  "hui zhi ": 5458,
  "gan dao ": 5459,
  " xing cheng ": 5460,
  "pu tao ": 5461,
  " shi zhen bian ma wei ": 5462,
  " INSEE shi zhen bian ma wei ": 5463,
  "qing shi ": 5464,
  "te li ": 5465,
  " ren kou mi du wei mei ping fang ": 5466,
  "   bu ": 5467,
  "meng gu ": 5468,
  "mu shi ": 5469,
  " xia ling shi ": 5470,
  "xi li ": 5471,
  "zhuo ": 5472,
  "di yi ci ": 5473,
  "xuan qu wei ": 5474,
  " huan ": 5475,
  "lei ji ": 5476,
  "gao yu ": 5477,
  "ni ya": 5478,
  "yu shi de ren kou shu liang wei ren ": 5479,
  " biao shi ": 5480,
  "bao de ": 5481,
  "zuo zhan ": 5482,
  "si zai ": 5483,
  "mei guo ren kou pu cha de shu ju ": 5484,
  "er zai ": 5485,
  "zuo yi ": 5486,
  "lu yi ": 5487,
  " er ren kou mi du wei mei ping fang ": 5488,
  " dang di gong you ren kou ": 5489,
  "xi yu ": 5490,
  " te bie": 5491,
  "yun xing ": 5492,
  " huo jiu shi zhen ": 5493,
  "xin li ": 5494,
  "jing chang ": 5495,
  "sheng ji xuan qu wei ": 5496,
  "jiang shi ": 5497,
  " shuang ": 5498,
  "kuai su ": 5499,
  "A ": 5500,
  "yuan zi ": 5501,
  " G": 5502,
  " zhong yang": 5503,
  "shao nian ": 5504,
  "sheng ren ": 5505,
  "bian ji ": 5506,
  "fa dong ": 5507,
  "chong jian ": 5508,
  "fen wei fa guo ": 5509,
  " gai sheng fen wei fa guo ": 5510,
  "   nian ": 5511,
  "fa qi ": 5512,
  "gao deng ": 5513,
  " bo": 5514,
  "cong shi ": 5515,
  "shuo fa ": 5516,
  " nian chu ": 5517,
  "yang hua ": 5518,
  " you ren ": 5519,
  " nian yu ": 5520,
  "cheng li yu ": 5521,
  "jia zhong ": 5522,
  "ming yi ": 5523,
  "U ": 5524,
  "lian he guo ": 5525,
  "jin yi bu ": 5526,
  " er qie": 5527,
  "yan jiu suo ": 5528,
  "zheng ming ": 5529,
  "fang qi ": 5530,
  "na de ": 5531,
  "da qu ": 5532,
  "tai guo ": 5533,
  "   he ": 5534,
  "gong xian ": 5535,
  "gou de ": 5536,
  " hu": 5537,
  "lun dun": 5538,
  " guo ji ": 5539,
  "ao lin pi ke yun dong hui ": 5540,
  "fan hui ": 5541,
  "jie rang de shi zhen ": 5542,
  "zi wei ": 5543,
  "gong ren ": 5544,
  "suo shu de sheng ji xuan qu wei ": 5545,
  "si li ": 5546,
  "xiang ji ": 5547,
  "yun shu ": 5548,
  "huo shi ": 5549,
  "zi ran": 5550,
  " R": 5551,
  "yuan li ": 5552,
  "2023 nian ": 5553,
  "ti xi ": 5554,
  "jian cheng ": 5555,
  "biao wei ": 5556,
  "   C": 5557,
  "na li ": 5558,
  "zhu chi ": 5559,
  "xing qi ": 5560,
  " huang": 5561,
  "zhong hua ren min gong he guo ": 5562,
  "bo lan ": 5563,
  "xi zai ": 5564,
  "zi yuan ": 5565,
  "dao ren ": 5566,
  "re dai ": 5567,
  "xi ban ya ": 5568,
  "ming dan ": 5569,
  "hua wei ": 5570,
  "ce de ": 5571,
  "luo fu ": 5572,
  " xi bei ": 5573,
  "xia wu ": 5574,
  "pai de ": 5575,
  " nian you ": 5576,
  " di qu de ": 5577,
  "zhan dou": 5578,
  "fen de ": 5579,
  " ha ": 5580,
  "bei yi ": 5581,
  "ni ke ": 5582,
  " chuang ": 5583,
  "fa she ": 5584,
  "cui ": 5585,
  " he bing ": 5586,
  "wen ming ": 5587,
  " 30": 5588,
  " zao ": 5589,
  "   che zhan ": 5590,
  " zhi cheng ": 5591,
  "diao cha": 5592,
  "chan ye ": 5593,
  " nian hou ": 5594,
  "er he ": 5595,
  " shi yi ming ": 5596,
  "wan jia ": 5597,
  "   chu ": 5598,
  "fu qin ": 5599,
  "xiang dang ": 5600,
  "an shi ": 5601,
  " you shi ": 5602,
  " kang": 5603,
  "sheng shi ": 5604,
  "chao zheng zhi ren wu ": 5605,
  "su de ": 5606,
  "jin xing le ": 5607,
  " wei sheng ": 5608,
  " pei ": 5609,
  "   ta ": 5610,
  "me ": 5611,
  "jian ji ": 5612,
  " bu neng ": 5613,
  "nan sheng ": 5614,
  "xuan chuan ": 5615,
  "jin yi ": 5616,
  " shi yi wei ": 5617,
  "ying li ": 5618,
  "jing shen ": 5619,
  "bei ji ": 5620,
  "lv shi ": 5621,
  "xian xiang ": 5622,
  "za ": 5623,
  "shu zhong ": 5624,
  "shou shang ": 5625,
  "zi he ": 5626,
  "xi yang ": 5627,
  "mie ": 5628,
  "fu ze guan xia ": 5629,
  "guan zhu ": 5630,
  "lian de ": 5631,
  "qi zhong yi ": 5632,
  "l ": 5633,
  "jia ting ": 5634,
  "pai ming ": 5635,
  "tong xing ": 5636,
  "lie wei ": 5637,
  " bi": 5638,
  "sai er ": 5639,
  " yue zai ": 5640,
  "zhan hou ": 5641,
  "xuan ren ": 5642,
  "liu yu ": 5643,
  "shu liang ": 5644,
  "fo jiao ": 5645,
  "shuai ": 5646,
  "lan qiu ": 5647,
  "ke wei ": 5648,
  "xiao zu ": 5649,
  "dao yan ": 5650,
  "zheng ju ": 5651,
  "jie yi ": 5652,
  "qiu de ": 5653,
  " xi nan ": 5654,
  "da wei ": 5655,
  "tao lun ": 5656,
  "ba nian ": 5657,
  " N": 5658,
  "wang shi ": 5659,
  "du jiao ": 5660,
  "   and": 5661,
  "yan yi ": 5662,
  "ne ": 5663,
  "re dai": 5664,
  "   bei ": 5665,
  "   in": 5666,
  " zhong gong ": 5667,
  "zheng dang ": 5668,
  "lai yuan ": 5669,
  "gen ju": 5670,
  " shi xian ": 5671,
  " tuo ": 5672,
  "bao chi ": 5673,
  "wen jian ": 5674,
  " long ": 5675,
  " yi jian ": 5676,
  "hou qi ": 5677,
  " nian du ": 5678,
  " er qie ": 5679,
  " ben": 5680,
  " can ": 5681,
  "zhong yang ": 5682,
  " zhi xian ": 5683,
  " dao le ": 5684,
  "reng ran ": 5685,
  " 10 yue ": 5686,
  " yi xi ": 5687,
  "lv ke ": 5688,
  "rui shi ": 5689,
  " ji si ": 5690,
  "ping lun ": 5691,
  "zi dong ": 5692,
  " zong ren kou ": 5693,
  "xia de yi ge ": 5694,
  "fan de ": 5695,
  " wu ke ": 5696,
  "ming shi ": 5697,
  "di si ": 5698,
  "zao nian ": 5699,
  "biao ming ": 5700,
  " B": 5701,
  "xu de ": 5702,
  "lu yu ": 5703,
  " zhi ming ": 5704,
  "hai de ": 5705,
  " ou ": 5706,
  " ji hu ": 5707,
  "ping tai ": 5708,
  "luo ma": 5709,
  "ke li si ": 5710,
  " L": 5711,
  " shi jian yu ": 5712,
  "rao ": 5713,
  "xu yao": 5714,
  "ceng jing ": 5715,
  "peng you ": 5716,
  " li ren ": 5717,
  "yin hang": 5718,
  "da yue ": 5719,
  "feng xian ": 5720,
  "e luo ": 5721,
  "hao wei ": 5722,
  "nan jing ": 5723,
  " bei jing ": 5724,
  " ci shi ": 5725,
  " de di fang ": 5726,
  "sheng yi ": 5727,
  "gong zhong yang ": 5728,
  "tai ping yang ": 5729,
  "yu   ": 5730,
  "sou ": 5731,
  "zheng bu ": 5732,
  "lian bang": 5733,
  "jiao bu ": 5734,
  "xing bu ": 5735,
  "ke zai ": 5736,
  "jing you ": 5737,
  "yan ge ": 5738,
  "xuan qu ": 5739,
  "que ding ": 5740,
  "yuan zai ": 5741,
  " guo wang ": 5742,
  "dao da ": 5743,
  "shen wei ": 5744,
  "jian dui ": 5745,
  "chong tu ": 5746,
  " miao ": 5747,
  "   xian ": 5748,
  "jian ren ": 5749,
  " yi shang ": 5750,
  "wu ren ": 5751,
  "mo xing ": 5752,
  "biao zhi ": 5753,
  "hua yu ": 5754,
  "ru he ": 5755,
  " lin": 5756,
  "qian shi ": 5757,
  "ke shi ": 5758,
  "jiao tang ": 5759,
  "qian zhi ": 5760,
  "tui yi ": 5761,
  "xiao guo ": 5762,
  "zhang da ": 5763,
  "shang ying ": 5764,
  "   2021": 5765,
  "dao he ": 5766,
  "ke si ": 5767,
  " gong yuan ": 5768,
  "   sui ": 5769,
  "jing wei ": 5770,
  "lei xing ": 5771,
  " yi li ": 5772,
  " da xue": 5773,
  "zhou wei ": 5774,
  "que zhen ": 5775,
  "xian ji ": 5776,
  "ye bu ": 5777,
  "biao da ": 5778,
  "feng bao ": 5779,
  "guang zhou ": 5780,
  "xia shi ": 5781,
  "dang xuan ": 5782,
  "xie de ": 5783,
  " tan ": 5784,
  "bi ya ": 5785,
  " deng": 5786,
  "   2020": 5787,
  "ding yu ": 5788,
  "pang ": 5789,
  "liang zhong ": 5790,
  "qi ye ": 5791,
  " ceng ren ": 5792,
  " ji bei ": 5793,
  "ping mian ": 5794,
  " gao": 5795,
  "sheng huo": 5796,
  "jiao qu ": 5797,
  "xian he ": 5798,
  "an jian ": 5799,
  "cheng xian ": 5800,
  "shen qing ": 5801,
  "lu si ": 5802,
  "xing yi ": 5803,
  " zhi fu ": 5804,
  "tuan dui ": 5805,
  " er ren kou mi du wei mei ping fang qian mi ": 5806,
  " jin ru ": 5807,
  " li da ": 5808,
  "nei rong": 5809,
  "cha yi ": 5810,
  " li lun ": 5811,
  "ying ge lan ": 5812,
  "pu tong ": 5813,
  "yao qing ": 5814,
  "0 ": 5815,
  "yuan zhang ": 5816,
  " qin ": 5817,
  " zhong you ": 5818,
  " zheng": 5819,
  "yuan su ": 5820,
  "xing ren ": 5821,
  "jiu nian ": 5822,
  " jie guo ": 5823,
  "xi he ": 5824,
  " ta men de ": 5825,
  "ri qi ": 5826,
  "qiu chang ": 5827,
  " O": 5828,
  "rou ": 5829,
  "xiao shou ": 5830,
  "zhong yao ": 5831,
  "yan zhi ": 5832,
  "heng xing ": 5833,
  "zi yi ": 5834,
  "ru ci ": 5835,
  "dui shou ": 5836,
  "la fu ": 5837,
  "fen bie ": 5838,
  "tiao zhan ": 5839,
  "zuo shi ": 5840,
  "bao wei ": 5841,
  "cheng yu ": 5842,
  "shu yi ": 5843,
  " qi yu ": 5844,
  "hui ji ": 5845,
  "lai shuo ": 5846,
  " yue yu ": 5847,
  "ru guo ": 5848,
  " zhi zao ": 5849,
  "xue shu ": 5850,
  "he yu ": 5851,
  "an na ": 5852,
  " zhong hua ": 5853,
  "wang lu ": 5854,
  "   F": 5855,
  "lun de ": 5856,
  "nu li ": 5857,
  "ni de ": 5858,
  " shi di ": 5859,
  "shun ": 5860,
  "wu yi ": 5861,
  " 8 yue ": 5862,
  "fu qin": 5863,
  "zheng zhuang ": 5864,
  "jia ren ": 5865,
  " mai ": 5866,
  "cai yong": 5867,
  "ting de ": 5868,
  "neng gou": 5869,
  "zi zhi qu ": 5870,
  "jie fang jun ": 5871,
  "xiao zhang ": 5872,
  " hao xian ": 5873,
  "te bie ": 5874,
  "dian tai ": 5875,
  " tong chang ": 5876,
  "min de ": 5877,
  "hai zi ": 5878,
  "you li ": 5879,
  "lan ke ": 5880,
  "shu zi ": 5881,
  "xiang yu ": 5882,
  "qu he ": 5883,
  " xiao shi ": 5884,
  "chuang li ": 5885,
  "geng ming wei ": 5886,
  "ta shi ": 5887,
  "quan shi ": 5888,
  "2024 nian ": 5889,
  "zong du ": 5890,
  "xu shi ": 5891,
  "duo zhong ": 5892,
  "fan yi ": 5893,
  "ge you ": 5894,
  "she yu ": 5895,
  "zhu yan ": 5896,
  "jia ge ": 5897,
  " dai": 5898,
  "chu shen ": 5899,
  "huo dong": 5900,
  "jiang xi ": 5901,
  " H": 5902,
  " zai yi ": 5903,
  "   2019": 5904,
  "xin shi ": 5905,
  "bo de ": 5906,
  "hu shi ": 5907,
  "ming yu ": 5908,
  " suo you ": 5909,
  "jiang xiang ": 5910,
  "sun shi ": 5911,
  "shou ru ": 5912,
  "ban gong shi ": 5913,
  "lin de ": 5914,
  "dan de ": 5915,
  "   wu ": 5916,
  " zhong yao ": 5917,
  "ju xing de ": 5918,
  " pei": 5919,
  " lao ": 5920,
  "dui yi ": 5921,
  "jing cha ": 5922,
  "sa ke ": 5923,
  "jie jin ": 5924,
  " wei lian ": 5925,
  " ji ben ": 5926,
  "jie wei ": 5927,
  "jie yu ": 5928,
  "ka si ": 5929,
  "   xia ": 5930,
  "guan dian ": 5931,
  " li he ": 5932,
  " de yi zuo ": 5933,
  " fa xian ": 5934,
  "1999 nian ": 5935,
  "jiang di ": 5936,
  "shao shu ": 5937,
  "   2018": 5938,
  "kan dao ": 5939,
  "wen zhang ": 5940,
  "wei   ": 5941,
  " ji zhe ": 5942,
  "n ": 5943,
  " han": 5944,
  "lun dun ": 5945,
  "tou xiang ": 5946,
  "hui shang ": 5947,
  "lu di mian ji wei ": 5948,
  "y ": 5949,
  " zhuan": 5950,
  "   ge ": 5951,
  "amp ": 5952,
  "shui yu mian ji wei ": 5953,
  "jie quan guo ": 5954,
  " da qu ": 5955,
  "wen zi ": 5956,
  " 19": 5957,
  "zhan ji ": 5958,
  "xing jian ": 5959,
  " de di qu ": 5960,
  "sang ": 5961,
  "18 ": 5962,
  "ao men ": 5963,
  "zai zhi ": 5964,
  "wen yi ": 5965,
  " che zhan ": 5966,
  " ji tuan": 5967,
  "zhang shi ": 5968,
  "kang yi ": 5969,
  "leng ": 5970,
  "xi bei ": 5971,
  "hai an ": 5972,
  "wai guo ": 5973,
  "ru kou ": 5974,
  "chu sheng ": 5975,
  " xiong ": 5976,
  "   ke ": 5977,
  "wen de ": 5978,
  "ming di ": 5979,
  "xing xing ": 5980,
  "jiao liu ": 5981,
  "xi zhi ": 5982,
  "zhen dui ": 5983,
  " xian zai ": 5984,
  " fen zhong ": 5985,
  "xin ren ": 5986,
  "du yu ": 5987,
  " amp ": 5988,
  "cuo shi ": 5989,
  "zhang ke da ": 5990,
  "tian jin ": 5991,
  "tiao zheng ": 5992,
  "fang zai ": 5993,
  "po huai ": 5994,
  "jun di ": 5995,
  "ti ming ": 5996,
  "xuan ze": 5997,
  " dang zhong lu di mian ji wei ": 5998,
  " er shui yu mian ji wei ": 5999,
  " shou": 6000,
  "1998 nian ": 6001,
  "   2022": 6002,
  "rong yi ": 6003,
  "chu fa ": 6004,
  " bei er ": 6005,
  " ji shi ": 6006,
  " ju li ": 6007,
  "zao yu ": 6008,
  "jing dian ": 6009,
  "chi de ": 6010,
  " hai you ": 6011,
  "ba xi ": 6012,
  "guang xi ": 6013,
  "luo di ": 6014,
  "gou cheng ": 6015,
  "bian jie ": 6016,
  "ou yuan ": 6017,
  "xian chang ": 6018,
  "xian you ": 6019,
  " xiang gang": 6020,
  "xi yi ": 6021,
  "shan ji ": 6022,
  " e": 6023,
  "tai yang ": 6024,
  "fu ji ": 6025,
  "dao ji ": 6026,
  "teng ": 6027,
  "ha er ": 6028,
  " de zhi chi ": 6029,
  " yue you ": 6030,
  "   and   ": 6031,
  "si chuan ": 6032,
  "yue tai ": 6033,
  "   xing zheng qu hua ": 6034,
  " ao": 6035,
  "ming zhi ": 6036,
  " yu ci ": 6037,
  " zai zhe ": 6038,
  "dui wu ": 6039,
  " jing guo ": 6040,
  "tou ru ": 6041,
  "cun zhuang ": 6042,
  " The   ": 6043,
  " cong er ": 6044,
  "da zhong ": 6045,
  "keng ": 6046,
  " nian bei ": 6047,
  "you wei ": 6048,
  "cun de ": 6049,
  " hou": 6050,
  " sa ": 6051,
  "deng lu ": 6052,
  " 9 yue ": 6053,
  "da zhi ": 6054,
  "tou piao ": 6055,
  " shi li ": 6056,
  "ge lei ": 6057,
  "d   ": 6058,
  "12 ": 6059,
  "chang yi ": 6060,
  " yue wei ": 6061,
  "yuan hui ": 6062,
  "   2017": 6063,
  " zhi xia ": 6064,
  "gong min ": 6065,
  "yin fa ": 6066,
  "bi ye yu ": 6067,
  "jian zhong ": 6068,
  "zhang yu ": 6069,
  "nuo wei ": 6070,
  "tu er qi ": 6071,
  "jia yu ": 6072,
  "fang wei ": 6073,
  "tui dong ": 6074,
  " shi zhong guo ": 6075,
  "gong yu ": 6076,
  "zhan di ": 6077,
  "hun he ": 6078,
  " ren men ": 6079,
  "ju zhu ": 6080,
  "bao liu ": 6081,
  "ge yi ": 6083,
  " bian": 6084,
  "qian shu ": 6085,
  "jin ru": 6086,
  "wen ding ": 6087,
  "hai dao ": 6088,
  "y   ": 6089,
  "le si ": 6090,
  "gan ran": 6091,
  "shu he ": 6092,
  "bi sai zhong ": 6093,
  " ti zhang ke da ": 6094,
  " formula ": 6095,
  "er ren ": 6096,
  " zai bei ": 6097,
  "zi ran ": 6098,
  "xi zhong ": 6099,
  " bu fen": 6100,
  "da fu ": 6101,
  " 7 yue ": 6102,
  "wu yu ": 6103,
  "zi li ": 6104,
  "nan bei ": 6105,
  "jun yi ": 6106,
  "ke yu ": 6107,
  "tu de ": 6108,
  "pi zhun ": 6109,
  " biao ": 6110,
  "chu ji ": 6111,
  "qi zi ": 6112,
  " wei fu qi yu ": 6113,
  "yong hu ": 6114,
  "heng li ": 6115,
  "fang wen ": 6116,
  "zhuang jia ": 6117,
  " you ji ": 6118,
  "ti gao ": 6119,
  " wo men ": 6120,
  "di ji ": 6121,
  "ma ke ": 6122,
  "11 ": 6123,
  " shi qu ": 6124,
  " nian he ": 6125,
  "cheng zuo ": 6126,
  "   2016": 6127,
  "jian he ": 6128,
  " yi da li ": 6129,
  " pa": 6130,
  "zi jin ": 6131,
  " yin du ": 6132,
  "xun su ": 6133,
  " an": 6134,
  "ben tu ": 6135,
  "hou xuan ren ": 6136,
  "xin hao ": 6137,
  "er yu ": 6138,
  " ting ": 6139,
  "zhan zhong ": 6140,
  "xiao li ": 6141,
  "mo er ": 6142,
  "xian lu ": 6143,
  "pin pai ": 6144,
  " hai": 6145,
  "ang ": 6146,
  "jin shu ": 6147,
  "jie shu hou ": 6148,
  " zhong de ": 6149,
  " 12 yue ": 6150,
  "ge ge ": 6151,
  " ta yi ": 6152,
  " W": 6153,
  " xiu ": 6154,
  "ci wei ": 6155,
  "xin yi ": 6156,
  "guang fan ": 6157,
  "zhu ming de ": 6158,
  "r ": 6159,
  "zhong li ": 6160,
  "shang ren ": 6161,
  "xian hou ": 6162,
  "ying pian ": 6163,
  "yong yi ": 6164,
  "zhu ming ": 6165,
  "ceng yu ": 6166,
  "zui chu ": 6167,
  "mou xie ": 6168,
  "cheng zhi ": 6169,
  " 11 yue ": 6170,
  " de yi zhi ": 6171,
  "wu wei ": 6172,
  "jian zao ": 6173,
  "shi   ": 6174,
  "jian zai ": 6175,
  "jie you ": 6176,
  "ling wai ": 6177,
  " hong": 6178,
  " de shi qu wei ": 6179,
  "chu zhan ": 6180,
  "xia lai ": 6181,
  "   de shi ": 6182,
  " zhi neng ": 6183,
  "xue hui ": 6184,
  "bu tong de ": 6185,
  " bing yi ": 6186,
  " tw": 6187,
  "jiang su ": 6188,
  "sa er ": 6189,
  "he zuo ": 6190,
  " zhong guo gong chan dang ": 6191,
  "X ": 6192,
  "bu dui ": 6193,
  " jia shang ": 6194,
  "dang shi de ": 6195,
  "zhu bu ": 6196,
  "shan da ": 6197,
  "shui ping ": 6198,
  "hans ": 6199,
  " 21 ": 6200,
  "bo er ": 6201,
  " hans ": 6202,
  "ke he ": 6203,
  " di qu": 6204,
  "mei nian ": 6205,
  "xu qiu ": 6206,
  "   er ": 6207,
  " ji cheng ": 6208,
  "jian shao ": 6209,
  "te shu ": 6210,
  " tw ": 6211,
  "shan de ": 6212,
  "da cheng ": 6213,
  "jia zu ": 6214,
  " 2011": 6215,
  " zhe xie": 6216,
  "   qing ": 6217,
  "lv wei ": 6218,
  " ren lei ": 6219,
  "pai chu ": 6220,
  "xiao shuo": 6221,
  "ao da li ya ": 6222,
  "nan yi ": 6223,
  " ri yu ": 6224,
  "jie rang ": 6225,
  "gong chang ": 6226,
  "si ke ": 6227,
  " dan ta ": 6228,
  " cheng yuan ": 6229,
  "chang he ": 6230,
  "jie ke ": 6231,
  "zi xun ": 6232,
  " J": 6233,
  " ji guan ": 6234,
  " zai zhong guo ": 6235,
  "jue ding": 6236,
  "she hui zhu yi ": 6237,
  " yu ren ": 6238,
  "   2023": 6239,
  "zhu you ": 6240,
  "zhuang zhi ": 6241,
  " xi bao ": 6242,
  "k ": 6243,
  " men ": 6244,
  "   2014": 6245,
  "jing yan ": 6246,
  "fa chu ": 6247,
  " 2010 nian ": 6248,
  " ji ren ": 6249,
  "wa er ": 6250,
  "yin su ": 6251,
  "suo de ": 6252,
  "reng ": 6253,
  " jie mu ": 6254,
  " fa xing ": 6255,
  "ti shi ": 6256,
  "1997 nian ": 6257,
  "ying wen ": 6258,
  " e luo si ": 6259,
  "lu zhi ": 6260,
  " hou lai": 6261,
  "   yuan ": 6262,
  " xu duo ": 6263,
  "tu zhong ": 6264,
  "kong zhong ": 6265,
  "chu sheng yu ": 6266,
  "   li": 6267,
  "bei zhi ": 6268,
  "hua he ": 6269,
  "sui dao ": 6270,
  "sha si ": 6271,
  "   T": 6272,
  "fen zhong ": 6273,
  "yong shi ": 6274,
  "ling tu ": 6275,
  " jing ji ": 6276,
  "mei ge ": 6277,
  "   yu shi de ren kou shu liang wei ren ": 6278,
  "   suo shu de sheng ji xuan qu wei ": 6279,
  "min jian ": 6280,
  "   de you zheng bian ma wei ": 6281,
  "   yu jie rang de shi zhen ": 6282,
  "   de shi qu wei ": 6283,
  "geng jia ": 6284,
  " guo cheng ": 6285,
  "xiang si ": 6286,
  " 2019": 6287,
  "   2015": 6288,
  "zeng zhang ": 6289,
  "nan de ": 6290,
  " zai da ": 6291,
  "ke cheng ": 6292,
  "jiang de ": 6293,
  "kong jun ": 6294,
  "hui ying ": 6295,
  " 2009 nian ": 6296,
  " sheng huo": 6297,
  "gu wen ": 6298,
  "le shi ": 6299,
  " he xi ": 6300,
  " ta ye ": 6301,
  "guang gao ": 6302,
  " wang": 6303,
  " shi mei guo ": 6304,
  "te er ": 6305,
  " yi jia ": 6306,
  "   K": 6307,
  "1996 nian ": 6308,
  " hk": 6309,
  "zhou fu ": 6310,
  " di da ": 6311,
  " zhi shi ": 6312,
  " ji you ": 6313,
  "jue se": 6314,
  " zhuang ": 6315,
  "an pai ": 6316,
  "xian xing ": 6317,
  " bing jiang ": 6318,
  "   2013": 6319,
  "chao shi ": 6320,
  "guan bi ": 6321,
  "zong bu ": 6322,
  "fei jian zhi ": 6323,
  "ti sheng ": 6324,
  "wo men ": 6325,
  "   E": 6326,
  "fang bu ": 6327,
  "da yu ": 6328,
  "xu ke ": 6329,
  "han shu ": 6330,
  "   xin ": 6331,
  "ti yi ": 6332,
  "lang de ": 6333,
  "min zhu dang ": 6334,
  " 6 yue ": 6335,
  "zhuang shi ": 6336,
  " bing you ": 6337,
  "zheng fu de ": 6338,
  "quan mian ": 6339,
  " hk ": 6340,
  "er yi ": 6341,
  "ci yi ": 6342,
  "ban gong ": 6343,
  " de guo jia ": 6344,
  " feng": 6345,
  " xuan bu ": 6346,
  "jun ji ": 6347,
  "xing tai ": 6348,
  "che zhan": 6349,
  " er gai ": 6350,
  " he er ": 6351,
  "bao li ": 6352,
  "di guo ": 6353,
  "jie gou": 6354,
  "dui shi ": 6355,
  "shan mai": 6356,
  "ju bu ": 6357,
  "ling de ": 6358,
  "fo ": 6359,
  "rui dian ": 6360,
  "jia ru": 6361,
  "dang yu ": 6362,
  "luo ke ": 6363,
  "wei yi ge ": 6364,
  "jun gong ": 6365,
  "dang zhong ": 6366,
  "wei zhi ": 6367,
  "tu shu guan ": 6368,
  "nei lu ": 6369,
  " tao ": 6370,
  " lai zi ": 6371,
  "hua zhong ": 6372,
  "zhuan jia ": 6373,
  " ji nian ": 6374,
  " yue tai ": 6375,
  "cheng xu ": 6376,
  "hui bei ": 6377,
  "se lie ": 6378,
  "shan shi ": 6379,
  "yun xu ": 6380,
  "bing mei you ": 6381,
  "tian de ": 6382,
  "jiu dian ": 6383,
  "ge zhi ": 6384,
  " ke xue ": 6385,
  "   xiang ": 6386,
  " qi zhong yi ": 6387,
  "1992 nian ": 6388,
  "si xiang ": 6389,
  "fei jian zhi di qu ": 6390,
  " 5 yue ": 6391,
  "dai you ": 6392,
  " mao ": 6393,
  "ba wei ": 6394,
  "zu cheng de ": 6395,
  " xi jie ": 6396,
  " wan ren ": 6397,
  "jing zheng ": 6398,
  "fa lv": 6400,
  "dian nao": 6401,
  "guo wei ": 6402,
  "jin pai ": 6403,
  "chang yu ": 6404,
  "tan ke ": 6405,
  " li bu ": 6406,
  " you qi shi ": 6407,
  "bing shi ": 6408,
  "huan ying ": 6409,
  " qian": 6410,
  " 2018": 6411,
  " zheng fu ": 6412,
  "tong yu ": 6413,
  "ma er ": 6414,
  "xia jiang ": 6415,
  "san jiao ": 6416,
  "mo xi ge ": 6417,
  "ge lan": 6418,
  "yan jiu yuan ": 6419,
  "jiu de ": 6420,
  "shu xue ": 6421,
  "nei ge ": 6422,
  " shi jie bei ": 6423,
  " lie ": 6424,
  " li ya": 6425,
  "hua ren ": 6426,
  "zhuan yi ": 6427,
  "gong si de ": 6428,
  " gong zuo ": 6429,
  " chu yu ": 6430,
  "jun you ": 6431,
  "jiu zhi ": 6432,
  " he di ": 6433,
  " cha ": 6434,
  "   jia zu ": 6435,
  " ji chu ": 6436,
  "ming ming wei ": 6437,
  "mu qin ": 6438,
  "lai dao ": 6439,
  " di xia ": 6440,
  "deng wei ": 6441,
  "ying yun ": 6442,
  "bei ren wei shi ": 6443,
  "xiu gai ": 6444,
  "shuo ming ": 6445,
  "sheng zhang ": 6446,
  "hui zhang ": 6447,
  "x ": 6448,
  "   G": 6449,
  "que fa ": 6450,
  "ming ling ": 6451,
  "yong lai ": 6452,
  " na": 6453,
  "   M": 6454,
  "dui qi ": 6455,
  "zi mu ": 6456,
  "hu de ": 6457,
  "xun hui ": 6458,
  "shou fu ": 6459,
  " dan you yu ": 6460,
  "wen shi ": 6461,
  " bu tong de ": 6462,
  "dai li ": 6463,
  "   zh ": 6464,
  "mao qiu ": 6465,
  " min guo ": 6466,
  " zai mei guo ": 6467,
  " shi yi ge": 6468,
  " de di er ": 6469,
  " rang ": 6470,
  " wei wei ": 6471,
  "zhu ji ": 6472,
  " yin yue ": 6473,
  "gong ju ": 6474,
  " 4 yue ": 6475,
  "to   ": 6476,
  "cheng wei le ": 6477,
  "liao jie ": 6478,
  " ta bei ": 6479,
  "ye bei ": 6480,
  "ta yu ": 6481,
  "yin de ": 6482,
  "chang di ": 6483,
  "que ren ": 6484,
  "ruan ": 6485,
  "fei lv ": 6486,
  "fa an ": 6487,
  "ju zhang ": 6488,
  "   jie zhi ": 6489,
  "cai qu ": 6490,
  " kang ": 6491,
  "shen ti ": 6492,
  "bei er ": 6493,
  " ta hai ": 6494,
  " shang hai ": 6495,
  "chang pian ": 6496,
  " zhong guo ren min ": 6497,
  "che xiao ": 6498,
  "can jia le ": 6499,
  " she ji ": 6500,
  "1995 nian ": 6501,
  " 2016": 6502,
  "bo fang ": 6503,
  "shou zhong ": 6504,
  "chan pin": 6505,
  " kuan ": 6506,
  " er fu ": 6507,
  "jiao lian ": 6508,
  "xie ren ": 6509,
  "che de ": 6510,
  "zhu zuo ": 6511,
  "ban fa ": 6512,
  "fu you ": 6513,
  "su wei ": 6514,
  "chuan bo ": 6515,
  "ma si ": 6516,
  " yi ju ": 6517,
  " yi nian ": 6518,
  "zhe li ": 6519,
  "hua yuan ": 6520,
  "   zhong guo ": 6521,
  "1994 nian ": 6522,
  " wei ren ": 6523,
  "C ": 6524,
  " quan guo ": 6525,
  " li ru": 6526,
  "tie lu": 6527,
  " dai biao ": 6528,
  "dian qi ": 6529,
  "liang shi ": 6530,
  "qiu hui ": 6531,
  "sui ji ": 6532,
  " wei yuan hui": 6533,
  " que ": 6534,
  " cao ": 6535,
  "ma de ": 6536,
  " qi lai ": 6537,
  "wang qiu ": 6538,
  "ze you ": 6539,
  "bai se ": 6540,
  " shi yi nian ": 6541,
  "yue han ": 6542,
  "ju he ": 6543,
  "tai ji ": 6544,
  "fa dian ": 6545,
  "chu xi ": 6546,
  "shen jing ": 6547,
  "gu de ": 6548,
  "zhan tai ": 6549,
  "wan shang ": 6550,
  "jie hun ": 6551,
  " di tie ": 6552,
  "ling bu ": 6553,
  " zhi di ": 6554,
  " you xie ": 6555,
  " yi zai ": 6556,
  "zi zhu ": 6557,
  " xu": 6558,
  " ka": 6559,
  "ye he ": 6560,
  "hua sheng ": 6561,
  " xing dong ": 6562,
  "chan sheng de ": 6563,
  " ren min zheng fu ": 6564,
  " wei neng ": 6565,
  " you xiao ": 6566,
  "zhao kai ": 6567,
  "2020 nian mei guo ren kou pu cha de shu ju ": 6568,
  "xue he ": 6569,
  "liang ren ": 6570,
  "zu jian ": 6571,
  "ling xian ": 6572,
  "ma lai xi ya ": 6573,
  "le ta ": 6574,
  "chao de ": 6575,
  " er bu ": 6576,
  "tong che ": 6577,
  "yan chang hui ": 6578,
  "chang zai ": 6579,
  "yao wu ": 6580,
  "qin shi ": 6581,
  "huo jian ": 6582,
  "ti zhong ": 6583,
  "ru xuan ": 6584,
  "kuo da ": 6585,
  " zai xi ": 6586,
  " xi la ": 6587,
  "   P": 6588,
  "   2025": 6589,
  "gua ": 6590,
  "yin du": 6591,
  "lie biao ": 6592,
  "chu xian zai ": 6593,
  " ying yu ": 6594,
  "   nian": 6595,
  " li shu ": 6596,
  "ge da ": 6597,
  "ge er ": 6598,
  "xue xiao": 6599,
  "S ": 6600,
  "   2024": 6601,
  "xiang xi ": 6602,
  " gong cheng ": 6603,
  "xin ji ": 6604,
  " fu jin ": 6605,
  "   qian ": 6606,
  " da bu fen ": 6607,
  "shan xi sheng ": 6608,
  "xing zhong ": 6609,
  "dai bu ": 6610,
  "tai shi ": 6611,
  "si te ": 6612,
  "chang pian": 6613,
  "kong bu ": 6614,
  " shi de yi ": 6615,
  " zhi du ": 6616,
  "hu bei ": 6617,
  "lv xing ": 6618,
  "tuo li ": 6619,
  " lu": 6620,
  "gong hui ": 6621,
  "shen shi ": 6622,
  "cheng li de ": 6623,
  "da bu fen ": 6624,
  " wei li ": 6625,
  "ao di li ": 6626,
  " liang ren ": 6627,
  "gui ze ": 6628,
  "da lu de ": 6629,
  "lao dong ": 6630,
  "shang hai": 6631,
  " C ": 6632,
  "1991 nian ": 6633,
  " yi tong ": 6634,
  "jing yu ": 6635,
  "zhuang de ": 6636,
  "cu jin ": 6637,
  "zhou bian ": 6638,
  "tong bu ": 6639,
  "pei yin ": 6640,
  " qiao ": 6641,
  "xing xiang ": 6642,
  "fen li ": 6643,
  "zhuang kuang ": 6644,
  " li shi shang ": 6645,
  "ci zai ": 6646,
  "long de ": 6647,
  "suan ji ": 6648,
  "xing qu ": 6649,
  " ming chao zheng zhi ren wu ": 6650,
  "wu ke lan": 6651,
  "jin bu ": 6652,
  "bao shi ": 6653,
  "dai biao da hui ": 6654,
  "wu he ": 6655,
  " zhi zi ": 6656,
  "nan shi ": 6657,
  "zhu chang ": 6658,
  "pei he ": 6659,
  " zhe jiang ": 6660,
  "ping wei ": 6661,
  "15 ": 6662,
  "te se ": 6663,
  "sui hou ": 6664,
  "xia ji ao lin pi ke yun dong hui ": 6665,
  "jiao xue ": 6666,
  "ze wei ": 6667,
  " ji er ": 6668,
  "xie shi ": 6669,
  "pu bian ": 6670,
  " yao qiu ": 6671,
  "da he ": 6672,
  "zhe zai ": 6673,
  "piao fang ": 6674,
  "D ": 6675,
  "la ji ": 6676,
  "22 ": 6677,
  " shi tu ": 6678,
  " 3 yue ": 6679,
  "wen xian ": 6680,
  "   xiao ": 6681,
  "wan ren ": 6682,
  "luo ji ": 6683,
  "fei zhou ": 6684,
  "lian ren ": 6685,
  " xi ju ": 6686,
  "sa si ": 6687,
  " wei he ": 6688,
  "an quan": 6689,
  " nai": 6690,
  " 2011 nian ": 6691,
  "dao zhong ": 6692,
  "zhuan xiang ": 6693,
  " fu jian ": 6694,
  "kao lv ": 6695,
  "she ji de ": 6696,
  "wang chao ": 6697,
  " pan ": 6698,
  "jie ren ": 6699,
  " wei wu ": 6700,
  " nian qian ": 6701,
  "ming xian ": 6702,
  "   B": 6703,
  "gong zhi ": 6704,
  "zhu zhang ": 6705,
  "c ": 6706,
  " bu ke ": 6707,
  " xi bu ": 6708,
  " sun": 6709,
  " wei xing ": 6710,
  "tong dao ": 6711,
  "zheng he ": 6712,
  " nv xing ": 6713,
  "   guo ": 6714,
  "biao mian ": 6715,
  "kou wei ": 6716,
  "mei guo de ": 6717,
  "ling dao ren ": 6718,
  " jiao yu ": 6719,
  " wei lai ": 6720,
  "bi sai": 6721,
  "qi zhong yi zhong ": 6722,
  " 2021": 6723,
  "zhao dao ": 6724,
  " mai": 6725,
  "hu yu ": 6726,
  "si ling ": 6727,
  "jing cha": 6728,
  "fang wu ": 6729,
  "hong se ": 6730,
  "1988 nian ": 6731,
  " li mi ": 6732,
  " tui ": 6733,
  "   cong ": 6734,
  " yu le ": 6735,
  "zui hou": 6736,
  " shi wei le ": 6737,
  " de zhi wu ": 6738,
  " sui de ": 6739,
  "hun yin ": 6740,
  " wei hui ": 6741,
  "yun dong": 6742,
  "cai liao ": 6743,
  " cheng gong ": 6744,
  " xi ya": 6745,
  " s   ": 6746,
  " ji hui ": 6747,
  " 2001 nian ren kou ": 6748,
  "1993 nian ": 6749,
  "dong nan bu ": 6750,
  " zhong": 6751,
  " you bu ": 6752,
  "yuan gong ": 6753,
  "dong bei bu ": 6754,
  " 2015": 6755,
  "   2012": 6756,
  "hua ji ": 6757,
  "fen bu yu ": 6758,
  "le   ": 6759,
  "jun yu ": 6760,
  " ti gong ": 6761,
  "fu zai ": 6762,
  "ying gai ": 6763,
  " xing qi ": 6764,
  "ti zhi ": 6765,
  "shou zhi ": 6766,
  "bian shi ": 6767,
  " ren shu ": 6768,
  "da chen ": 6769,
  " han guo ": 6770,
  "bao zhi ": 6771,
  "si ge ": 6772,
  "fei chu ": 6773,
  " 2005 nian ": 6774,
  "jin you ": 6775,
  "dian hua ": 6776,
  " guan yu ": 6777,
  " bu men ": 6778,
  " quan": 6779,
  "ge he ": 6780,
  "bao yu ": 6781,
  " yi ban": 6782,
  "ruan jian ": 6783,
  "sao ": 6784,
  "R ": 6785,
  "wu tai ": 6786,
  " sai ji ": 6787,
  "ling di ": 6788,
  "chi you ": 6789,
  "dui zhang ": 6790,
  "zhu jue ": 6791,
  "geng duo ": 6792,
  " yin er ": 6793,
  "tui jin ": 6794,
  " nian di ": 6795,
  "chu lai ": 6796,
  "ti dao ": 6797,
  "yong zuo ": 6798,
  " zai jia ": 6799,
  "yuan xing ": 6800,
  "zheng chang ": 6801,
  "fa xian le ": 6802,
  "jue shi ": 6803,
  "wu zhuang ": 6804,
  "guo ji ji ": 6805,
  "mei de ": 6806,
  "ya li shan da ": 6807,
  "ben di ": 6808,
  " da cheng ": 6809,
  "suo zai ": 6810,
  "gui de ": 6811,
  " er shui yu mian ji wei 0": 6812,
  "ri jun ": 6813,
  " zao cheng ": 6814,
  "bian xing ": 6815,
  "yin di ": 6816,
  "jiao you ": 6817,
  "bo si ": 6818,
  "dou hui ": 6819,
  "po huai": 6820,
  "tai ren ": 6821,
  "xu zai ": 6822,
  "dong fang ": 6823,
  "tong yang ": 6824,
  " reng": 6825,
  "jiao da ": 6826,
  " ping fang mi ": 6827,
  " da liang ": 6828,
  "huo zhe ": 6829,
  "hai wai ": 6830,
  "tuan de ": 6831,
  "qing bao ": 6832,
  "an hui ": 6833,
  " dou": 6834,
  "nei you ": 6835,
  "ming xing ": 6836,
  "dui wai ": 6837,
  "cao zuo ": 6838,
  "qian wang": 6839,
  "jie shao ": 6840,
  " sui zhe ": 6841,
  " 2017": 6842,
  "jie mu": 6843,
  " dian ying ": 6844,
  "xia you ": 6845,
  " he ping ": 6846,
  " er gai di ": 6847,
  "ye hui ": 6848,
  "can mou": 6849,
  " 2020": 6850,
  " 2014": 6851,
  "   zao nian ": 6852,
  "xiang yi ": 6853,
  "16 ": 6854,
  "yong tu ": 6855,
  " 2013": 6856,
  "qiang de ": 6857,
  " yi du ": 6858,
  " zhi ding ": 6859,
  " yu he ": 6860,
  "chu kou ": 6861,
  "gai shan ": 6862,
  "ao yun hui ": 6863,
  "biao de ": 6864,
  "la he ": 6865,
  " xi tong": 6866,
  " de shi jie ": 6867,
  "   I": 6868,
  "gao jia ": 6869,
  "xi nan ": 6870,
  " yue nan ": 6871,
  "dui xiang ": 6872,
  "xian jin ": 6873,
  "yan shen ": 6874,
  "que zhen bing li ": 6875,
  "dun de ": 6876,
  " jia na da ": 6877,
  " bao han ": 6878,
  "mei li ": 6879,
  "san ji ": 6880,
  "zuo qu ": 6881,
  " shi da ": 6882,
  " xiu": 6883,
  " sheng yu ": 6884,
  "le da ": 6885,
  "jun qu ": 6886,
  "deng shang ": 6887,
  "zheng ti ": 6888,
  "xiao qu ": 6889,
  "jia zai ": 6890,
  "chang you ": 6891,
  "le ta de ": 6892,
  "xia xia de yi ge ": 6893,
  "long jiang ": 6894,
  "ge lun ": 6895,
  " ye you ": 6896,
  "F ": 6897,
  "jue yi ": 6898,
  "shu ru ": 6899,
  " nian lai ": 6900,
  "hai xia ": 6901,
  "guan shi ": 6902,
  "duo ren ": 6903,
  "sui zhu ": 6904,
  "nie ": 6905,
  " xian ren ": 6906,
  "yun shi ": 6907,
  " qi zai ": 6908,
  "yun zuo ": 6909,
  " ri de ": 6910,
  "19 shi ji ": 6911,
  "l   ": 6912,
  " wei ke ": 6913,
  "gou zao ": 6914,
  "ju yi ": 6915,
  "ban shi chu ": 6916,
  "zhan zhi ": 6917,
  " er yan ": 6918,
  " nan zhi ": 6919,
  " xiao": 6920,
  "liu zai ": 6921,
  "   zeng ": 6922,
  "zuo ren ": 6923,
  "dian che ": 6924,
  "3 nian ": 6925,
  "kang ri ": 6926,
  "fa shou ": 6927,
  "shu yuan ": 6928,
  "jia you ": 6929,
  "du he ": 6930,
  "fei li ": 6931,
  "jun guan ": 6932,
  "gao su gong lu ": 6933,
  "1990 nian ": 6934,
  "kai zhan ": 6935,
  " cheng li ": 6936,
  "mi mi ": 6937,
  " shi wu ke ": 6938,
  "ren da ": 6940,
  " zhong zai ": 6941,
  " 100": 6942,
  " shao ": 6943,
  "shang yu ": 6944,
  "bin hai ": 6945,
  "shen me": 6946,
  " dong lin ": 6947,
  " 2010": 6948,
  " wan mei yuan ": 6949,
  "xia ling": 6950,
  "chuang jian ": 6951,
  "jiang hui ": 6952,
  "ling xiu ": 6953,
  " niu": 6954,
  "zhuang bei ": 6955,
  "dong zuo ": 6956,
  "liang ci ": 6957,
  "chuan zhi ": 6958,
  "chai chu ": 6959,
  "sen lin ": 6960,
  "tian shi ": 6961,
  " qi xiang ": 6962,
  "shou zhang ": 6963,
  " tai wan": 6964,
  "cai zheng ": 6965,
  " qi": 6966,
  "an da ": 6967,
  "ya ke ": 6968,
  "bi mian ": 6969,
  "tou piao": 6970,
  "   W": 6971,
  "shou yi ": 6972,
  "gu li ": 6973,
  " qi zi ": 6974,
  "T ": 6975,
  "25 ": 6976,
  "1 hao ": 6977,
  " zheng zhi ": 6978,
  "shan qu ": 6979,
  "hui yuan ": 6980,
  " jian yu ": 6981,
  "   si ": 6982,
  " ju xing ": 6983,
  " heng ": 6984,
  "bei shi wei ": 6985,
  "tu xing ": 6986,
  "qin zi ": 6987,
  " er tong ": 6988,
  "ju qing ": 6989,
  "ka luo ": 6990,
  " nian 1 yue 1 ri ": 6991,
  "shou lu ": 6992,
  "wu si ": 6993,
  " tai yang ": 6994,
  "23 ": 6995,
  "zui gao": 6996,
  " huan": 6997,
  "hou shi ": 6998,
  "wai jiao bu ": 6999,
  "zhe bu ": 7000,
  " yi mei yuan ": 7001,
  "liu de ": 7002,
  " si ling ": 7003,
  "ce liang ": 7004,
  "deng de ": 7005,
  "1989 nian ": 7006,
  "jing xuan ": 7007,
  " mei ge ": 7008,
  "hui zhong ": 7009,
  "zhang guan ": 7010,
  "fan zui ": 7011,
  " jie shou ": 7012,
  "ban li ": 7013,
  " po": 7014,
  " 2007 nian ": 7015,
  "   dang ": 7016,
  "si yi ": 7017,
  "fu wei ": 7018,
  "suo shi ": 7019,
  "xiang zheng ": 7020,
  "bing ru ": 7021,
  " you ke ": 7022,
  " er zi ": 7023,
  "dai lai ": 7024,
  "ming zhong ": 7025,
  "meng de ": 7026,
  "geng wei ": 7027,
  "bao shou ": 7028,
  " dong bei ": 7029,
  "fan wei nei ": 7030,
  " yong you ": 7031,
  "shou xi ": 7032,
  "pian de ": 7033,
  "he   ": 7034,
  "mian shi ": 7035,
  "guo wang ": 7036,
  " er cheng ": 7037,
  "tai feng ": 7038,
  "ri zhi ": 7039,
  " yi hou ": 7040,
  "hu nan ": 7041,
  " 2008 nian ": 7042,
  "zun ": 7043,
  " zai du ": 7044,
  " qi xia ": 7045,
  "chu dao ": 7046,
  " she hui ": 7047,
  " jie ke ": 7048,
  " sheng huo xi ": 7049,
  "yan xi ": 7050,
  "fang mian de ": 7051,
  "ren li ": 7052,
  "can yi yuan ": 7053,
  "kai tong ": 7054,
  " she you ": 7055,
  "tai zi ": 7056,
  "jun zhu ": 7057,
  "qing chu ": 7058,
  "ding ju ": 7059,
  "gong zhu ": 7060,
  "hua he wu ": 7061,
  "zhan qi jian ": 7062,
  " 2012": 7063,
  "jin wei ": 7064,
  "13 ": 7065,
  "1984 nian ": 7066,
  "zhou qi ": 7067,
  "zu fu ": 7068,
  "jian jie ": 7069,
  " si wang ": 7070,
  "pi fu ": 7071,
  "fei de ": 7072,
  "wai bu ": 7073,
  "xiang hu ": 7074,
  "guan cha ": 7075,
  "xing bu ming ": 7076,
  " ju you ": 7077,
  "dui you ": 7078,
  "liang ji ": 7079,
  "sheng yin ": 7080,
  "ying ye ": 7081,
  "zhu yao de ": 7082,
  "lei da ": 7083,
  " sha": 7084,
  " lao": 7085,
  "du li de ": 7086,
  "i ": 7087,
  "zhuan de ": 7088,
  " nian   ": 7089,
  "lv de ": 7090,
  "xi ju ": 7091,
  "   ming ": 7092,
  "bing de ": 7093,
  "e   ": 7094,
  " can jia ": 7095,
  "er yue ": 7096,
  "chang zhi ": 7097,
  "jiang ji ": 7098,
  "ma la ": 7099,
  "gou mai ": 7100,
  " sheng huo xi xing bu ming ": 7101,
  " yi dai ": 7102,
  "tian qi ": 7103,
  "que de ": 7104,
  "tong pai ": 7105,
  "xin yang ": 7106,
  "g ": 7107,
  "ni er ": 7108,
  "zuo biao wei ": 7109,
  "jiang ling ": 7110,
  "an zhuang ": 7111,
  " wu fa ": 7112,
  "tou lu ": 7113,
  "3 ge ": 7114,
  "   bei jing ": 7115,
  "liang xiang ": 7116,
  "jia li fu ": 7117,
  " yong yu ": 7118,
  "xin xing ": 7119,
  "huo shan ": 7120,
  "zu zhi de ": 7121,
  "V ": 7122,
  "ke neng shi ": 7123,
  " gong you ": 7124,
  "jing zhong ": 7125,
  " zhong shi ": 7126,
  "cheng he ": 7127,
  "lu ji ": 7128,
  "guan jian ": 7129,
  "tai bei shi ": 7130,
  " dong": 7131,
  "jiu du ": 7132,
  "   ci wai ": 7133,
  "p ": 7134,
  " zai ci": 7135,
  "jie san ": 7136,
  "kong qi ": 7137,
  " yue zhong ": 7138,
  "ru qin ": 7139,
  "jiu long ": 7140,
  "bai ren ": 7141,
  "fang yan ": 7142,
  "lun wen ": 7143,
  " cha": 7144,
  "er zhi ": 7145,
  "liang zhi ": 7146,
  "zhu yi de ": 7147,
  " zhong guo da lu ": 7148,
  " kai": 7149,
  "shang bu ": 7150,
  " can yu ": 7151,
  "zhe xie": 7152,
  "chuan shuo ": 7153,
  "1985 nian ": 7154,
  "ke yi zai ": 7155,
  "kao gu ": 7156,
  "fa xing de ": 7157,
  "hou bei ": 7158,
  " chu xian ": 7159,
  " yang": 7160,
  "qu ji ": 7161,
  "fu jin de ": 7162,
  " 2009": 7163,
  "mu qin": 7164,
  "ai ji ": 7165,
  "chu bu ": 7166,
  " yin qi ": 7167,
  "man de ": 7168,
  "jing fang ": 7169,
  " shi shi jie ": 7170,
  "xin jia po ": 7171,
  " duan ": 7172,
  "tong nian ": 7173,
  "mo si ke ": 7174,
  "   ju qing ": 7175,
  "lian zai ": 7176,
  "yu yan ": 7177,
  " bi ru ": 7178,
  " di shi ": 7179,
  "cheng nian ": 7180,
  "kao jin ": 7181,
  "qian ren ": 7182,
  " wei ci ": 7183,
  "zhan ting ": 7184,
  "zhang ai ": 7185,
  " 20": 7186,
  "gui zu ": 7187,
  "b ": 7188,
  "ming ren ": 7189,
  "yun nan ": 7190,
  " qi shi ": 7191,
  "zhong dian ": 7192,
  "guang dong sheng ": 7193,
  " shi ri ben ": 7194,
  "zuo zhe ": 7195,
  " gong tong ": 7196,
  "qu le ": 7197,
  " si chuan ": 7198,
  "P ": 7199,
  " 2008": 7200,
  "   ben": 7201,
  "zhe wei ": 7202,
  " guo cheng zhong ": 7203,
  "bao zhang ": 7204,
  "tai du ": 7205,
  "ji   ": 7206,
  " chu sheng yu ": 7207,
  " te bie shi ": 7208,
  " 1949": 7209,
  " 2013 nian ": 7210,
  "gao da ": 7211,
  " ren ming ": 7212,
  "zhou ji ": 7213,
  " shi ji shang ": 7214,
  "zong shi ": 7215,
  "yin qing ": 7216,
  "chang jian de ": 7217,
  "shuang fang ": 7218,
  "qu yi hui ": 7219,
  "yin he ": 7220,
  "jiang zai ": 7221,
  " you ci ": 7222,
  "quan zhang ": 7223,
  "xun yang ": 7224,
  " di wu ": 7225,
  "suo shu ": 7226,
  "fa hui ": 7227,
  "ying xiong ": 7228,
  "hua yi ": 7229,
  "xiu zheng ": 7230,
  "hua zhi ": 7231,
  "gan bu ": 7232,
  " shi de guo ": 7233,
  " zeng ": 7234,
  "fang yi ": 7235,
  "you xian ": 7236,
  " qi xi ": 7237,
  "1 li ": 7238,
  "tiao li ": 7239,
  "chu zai ": 7240,
  "le yu ": 7241,
  "   L": 7242,
  "cuo wu ": 7243,
  " jia ting ": 7244,
  " cai": 7245,
  "chu yan ": 7246,
  "   di fang ": 7247,
  " guo hui ": 7248,
  " yi xiao shi ": 7249,
  "bian ju ": 7250,
  " xue xiao ": 7251,
  "2 nian ": 7252,
  " bing du ": 7253,
  "shou xiang ": 7254,
  " wan yuan ": 7255,
  "wan gong ": 7256,
  "neng liang ": 7257,
  " dui": 7258,
  "hu bu ": 7259,
  "ban bu ": 7260,
  " nian kai shi ": 7261,
  "fa lan xi ": 7262,
  " wu ke lan ": 7263,
  "   O": 7264,
  "lao de ": 7265,
  "sheng tai ": 7266,
  "zhou ci shi ": 7267,
  "tao tai ": 7268,
  "shu li ": 7269,
  "yuan ze ": 7270,
  "xiang guan de ": 7271,
  "4 nian ": 7272,
  "   qi ta ": 7273,
  "chu zhi ": 7274,
  "zui you ": 7275,
  "feng wei ": 7276,
  " yue tuan ": 7277,
  "lu kou ": 7278,
  "   2011": 7279,
  "lu ying ": 7280,
  "qing hua ": 7281,
  " ping jun ": 7282,
  "gu fen": 7283,
  "ke de qi zhong yi zhong ": 7284,
  "   2010": 7285,
  "   mei guo ": 7286,
  "hui bu ": 7287,
  " wei chi ": 7288,
  "zhi de shi ": 7289,
  "qing qiu ": 7290,
  "dang di de ": 7291,
  "kai she ": 7292,
  "yao qiu": 7293,
  " zhong hua ren min gong he guo zheng zhi ren wu ": 7294,
  "   di er ": 7295,
  "si zhi ": 7296,
  " ji nian": 7297,
  " he xin ": 7298,
  "huo xing ": 7299,
  "gai cheng ": 7300,
  "huan cheng ": 7301,
  " shi yong": 7302,
  "   dan ": 7303,
  "ling ren ": 7304,
  "he xin ": 7305,
  "cheng ke ": 7306,
  " 2022": 7307,
  "han you ": 7308,
  "hen da ": 7309,
  " he zhong ": 7310,
  "fa guan ": 7311,
  "mei shu ": 7312,
  "dao bu ": 7313,
  "han yu ": 7314,
  "zhuang ji ": 7315,
  "cui hui ": 7316,
  "lu ke ": 7317,
  " shi ge ": 7318,
  " wan jia ": 7319,
  "pai ming di ": 7320,
  "a   ": 7321,
  "xia wei ": 7322,
  "qiang diao ": 7323,
  " qing": 7324,
  " 2006 nian ": 7325,
  " mai ke ": 7326,
  "en sheng ": 7327,
  "   1 ": 7328,
  "dang wei ": 7329,
  " hen ": 7330,
  "   2 ": 7331,
  "zheng wei ": 7332,
  " yi zuo ": 7333,
  "xi la ": 7334,
  " xiong": 7335,
  "yuan zhong ": 7336,
  "bei wei ": 7337,
  "ya jun ": 7338,
  "zui gao de ": 7339,
  "tian jing ": 7340,
  "ni ya zhou ": 7341,
  "neng zai ": 7342,
  "gong ying ": 7343,
  " A ": 7344,
  "xia qu ": 7345,
  "suo chu de ": 7346,
  "can kao ": 7347,
  "ya yi ": 7348,
  "cheng ben ": 7349,
  "dang ju ": 7350,
  "ti yu chang ": 7351,
  "xie er ": 7352,
  "shang hai shi ": 7353,
  "sheng you ": 7354,
  "suo zhi ": 7355,
  " ji bu ": 7356,
  " ye jiu shi ": 7357,
  " da duo ": 7358,
  "te ding ": 7359,
  "tu po ": 7360,
  "kun nan ": 7361,
  "ren yuan ": 7362,
  " da xing ": 7363,
  "deng deng ": 7364,
  "a la bo ": 7365,
  "tai zhong ": 7366,
  "yin ru ": 7367,
  "xiang you ": 7368,
  "bai de ": 7369,
  " yi fu ": 7370,
  "xie dao ": 7371,
  " meng": 7372,
  " wen hua ": 7373,
  "jing zhi ": 7374,
  " ji du ": 7375,
  "ke xue yuan ": 7376,
  "tan de ": 7377,
  "shun li ": 7378,
  "huo ban ": 7379,
  "fen bu zai ": 7380,
  "fou ": 7381,
  "xian sheng ": 7382,
  " da fu ": 7383,
  "la ding ": 7384,
  " sui zhu ": 7385,
  "huan de ": 7386,
  "xiu fu ": 7387,
  "xi bao ": 7388,
  "zhan xian ": 7389,
  "   a ": 7390,
  "cheng guo ": 7391,
  "jun zhi ": 7392,
  " xi ban ya ": 7393,
  "le qi ": 7394,
  "lai shi ": 7395,
  "da hui ": 7396,
  " xiang nian ": 7397,
  "xiang wei ": 7398,
  "ru qin": 7399,
  "wang yuan ": 7400,
  " xi er ": 7401,
  "chui ": 7402,
  " bu jin ": 7403,
  " ke er ": 7404,
  " 2012 nian ": 7405,
  "ke you ": 7406,
  "sui shi ": 7407,
  "wu zi ": 7408,
  "duo wei ": 7409,
  "chuan de ": 7410,
  "hai yang ": 7411,
  "jing he ": 7412,
  "xiao yuan ": 7413,
  "zhong guo da lu de ": 7414,
  "xu li ya ": 7415,
  "hai ping mian ": 7416,
  "gai shi ": 7417,
  "suo wei ": 7418,
  "xiu jian ": 7419,
  "qing xing ": 7420,
  "kai fa": 7421,
  " ta ceng dai biao ": 7422,
  "gan ran zhe ": 7423,
  " he lan ": 7424,
  "tong meng ": 7425,
  "qiang lie ": 7426,
  "hei se ": 7427,
  " ri jun ": 7428,
  "   yin ": 7429,
  "xue yu ": 7430,
  "lai yue ": 7431,
  "1980 nian ": 7432,
  " zu fu ": 7433,
  " 00 ": 7434,
  "ci shi jie da zhan ": 7435,
  "jia wei ": 7436,
  "tai yu ": 7437,
  "zui wei ": 7438,
  "zheng ce": 7439,
  "zhao pian ": 7440,
  "le zai ": 7441,
  "yin li ": 7442,
  "ze zai ": 7443,
  "shou gou ": 7444,
  "ya mei ": 7445,
  "zhou zhi ": 7446,
  "hong zha": 7447,
  "zhen yu ": 7448,
  "jing yi ": 7449,
  "gu dai ": 7450,
  "gei le ": 7451,
  "li yu ": 7452,
  "zhu zhi ": 7453,
  "jiang zhi ": 7454,
  "huang hou ": 7455,
  "1986 nian ": 7456,
  "ren lei ": 7457,
  "dang yuan ": 7458,
  " tong shi gai di ": 7459,
  "bei yu ": 7460,
  "zu yi ": 7461,
  "te xing ": 7462,
  "da jiang ": 7463,
  " de ji chu ": 7464,
  " guang dong ": 7465,
  "hou wei ": 7466,
  "ding qi ": 7467,
  " liao ": 7468,
  "zhang wei ": 7469,
  "man zu ": 7470,
  "zu qiu yun dong yuan ": 7471,
  "bo shi xue wei ": 7472,
  " ku ": 7473,
  "qiang zhi ": 7474,
  "beng ": 7475,
  "bei jing shi ": 7476,
  "shang chang ": 7477,
  "nong min ": 7478,
  "nei lu sheng fen ": 7479,
  "xiang he ": 7480,
  "sheng chu ": 7481,
  " huo zhe ": 7482,
  "jiao zhi ": 7483,
  "liang guo ": 7484,
  "cheng bao ": 7485,
  "jiu hui ": 7486,
  "cheng shi de ": 7487,
  "zhen ji ": 7488,
  "ke fu ": 7489,
  "ben shen ": 7490,
  " a er ": 7491,
  " tie ": 7492,
  "chu you ": 7493,
  "bang de ": 7494,
  " zhong zi ": 7495,
  "xun zhang ": 7496,
  "xia ling shi jian ": 7497,
  " zhi yi ": 7498,
  "tong wei ": 7499,
  "jing zai ": 7500,
  "duan shi ": 7501,
  "mo si ": 7502,
  "chuang ban ": 7503,
  "le you ": 7504,
  "jiao tang": 7505,
  "bian hao ": 7506,
  " mu qian": 7507,
  " bu di ": 7508,
  " ren qi ": 7509,
  "xiang xin ": 7510,
  "kuo zhan ": 7511,
  " mei nian ": 7512,
  "ke zhi ": 7513,
  "lu xu ": 7514,
  "ri de ": 7515,
  "min di ": 7516,
  "shang xia ": 7517,
  "jiu yi ": 7518,
  "zao zai ": 7519,
  "di qiu ": 7520,
  "wo de ": 7521,
  " bu luo ": 7522,
  "wu dao ": 7523,
  "jun he ": 7524,
  "wan de ": 7525,
  "ju da ": 7526,
  "   jian jie ": 7527,
  "   jie ": 7528,
  "ta wei ": 7529,
  "mu zhi ": 7530,
  " ji fu ": 7531,
  "ren gong ": 7532,
  " kan ": 7533,
  "gao zhi ": 7534,
  "fan zhi ": 7535,
  "xuan de ": 7536,
  "xi wang ": 7537,
  "ge ming": 7538,
  "tian ti ": 7539,
  "wei yi yi ": 7540,
  "chi ren ": 7541,
  "mu ni ": 7542,
  " 500": 7543,
  "1945 nian ": 7544,
  " qi che ": 7545,
  "wu zheng zhuang ": 7546,
  "zhe xue ": 7547,
  "suo you de ": 7548,
  "tan pan ": 7549,
  " shi yi ge wei yu ": 7550,
  "5 nian ": 7551,
  "m   ": 7552,
  "hui guo ": 7553,
  "14 ": 7554,
  "nan fang ": 7555,
  "liang ming ": 7556,
  "mi ya ": 7557,
  " xian hou ": 7558,
  "o ": 7559,
  "zi zhong ": 7560,
  " di": 7561,
  " 1950": 7562,
  "qu zhi ": 7563,
  "xi ya ": 7564,
  "jiang jin ": 7565,
  "yue nan ": 7566,
  "   di fang zi liao ": 7567,
  "dian he ": 7568,
  "ya he ": 7569,
  "rong he ": 7570,
  "xiang bi ": 7571,
  "sha hai ": 7572,
  " 2014 nian ": 7573,
  "ling yi ge ": 7574,
  "fei er ": 7575,
  "feng fu ": 7576,
  "wen du ": 7577,
  " song": 7578,
  " jiu shi ": 7579,
  "yan yu ": 7580,
  "bing yi ": 7581,
  "di yi wei ": 7582,
  " 24": 7583,
  " wa ": 7584,
  "dui ci ": 7585,
  " sui shi ": 7586,
  " ni": 7587,
  "dai shi ": 7588,
  "ping de ": 7589,
  "nuo fu ": 7590,
  " guo qu ": 7591,
  "zi zai ": 7592,
  "chu shou ": 7593,
  "yin pai ": 7594,
  "chang jian ": 7595,
  "ao zhou ": 7596,
  "4 ge ": 7597,
  "h ": 7598,
  "fang jian ": 7599,
  "gao xiong": 7600,
  " 10 ": 7601,
  " yi si lan ": 7602,
  "M ": 7603,
  "ye ji ": 7604,
  " yi wu ": 7605,
  "shen du ": 7606,
  " pu": 7607,
  " nian wei ": 7608,
  "pai hang ": 7609,
  "qin wang ": 7610,
  " 0 ": 7611,
  "liang nian ": 7612,
  "san jia ": 7613,
  "nv zhu ": 7614,
  "   ying ": 7615,
  "zhou he ": 7616,
  "xiu de ": 7617,
  "1987 nian ": 7618,
  "na cui": 7619,
  "guan li ju ": 7620,
  "   3": 7621,
  "ding shi ": 7622,
  "da xi yang ": 7623,
  "hai ba wei ": 7624,
  "   de   ": 7625,
  " ruo ": 7626,
  "ti wei ": 7627,
  " ji hou ": 7628,
  " ke xi ": 7629,
  "shan feng ": 7630,
  "tong ming ": 7631,
  " jia zu ": 7632,
  "dong shi zhang ": 7633,
  " gen ": 7634,
  "   H": 7635,
  "pei zhi ": 7636,
  "zou xiang ": 7637,
  " you zhong ": 7638,
  "xiao fang ": 7639,
  "zai li ": 7640,
  "zhu wei ": 7641,
  "ye yi ": 7642,
  "liang da ": 7643,
  " xi lie": 7644,
  "suo cai yong": 7645,
  " bing wei ": 7646,
  "jie zhong ": 7647,
  " bu duan ": 7648,
  " shi yi bu ": 7649,
  " ku": 7650,
  " 18": 7651,
  "han de ": 7652,
  "huan zhe ": 7653,
  " bu er ": 7654,
  " da duo shu ": 7655,
  "gai zao ": 7656,
  "neng yuan ": 7657,
  " ge": 7658,
  "le zhong ": 7659,
  "hu wei ": 7660,
  "jun ren ": 7661,
  "1983 nian ": 7662,
  "zhan lve": 7663,
  "kao lv": 7664,
  "shou ren ": 7665,
  "1982 nian ": 7666,
  "zhi shi qi ": 7667,
  "wen zhong ": 7668,
  "gong cheng shi ": 7669,
  "jie ti ": 7670,
  "jun zhong ": 7671,
  "zhan lan ": 7672,
  "   jing ": 7673,
  "ba he ": 7674,
  "man di ": 7675,
  " shi ye ": 7676,
  "er tong ": 7677,
  "gu ding ": 7678,
  "gan ran ": 7679,
  "meng gu": 7680,
  "   J": 7681,
  " zai you ": 7682,
  "ge ju ": 7683,
  "tai he ": 7684,
  " cn": 7685,
  "le zhe ": 7686,
  " tang": 7687,
  "huan xing ": 7688,
  " guo nei ": 7689,
  " wei yu gai ": 7690,
  "lun shi ": 7691,
  "zheng xie": 7692,
  "shang sheng ": 7693,
  "bo lin ": 7694,
  "jie li ": 7695,
  "hui yi yuan ": 7696,
  "jue dui ": 7697,
  "gong li de ": 7698,
  "kou de ": 7699,
  " er fei ": 7700,
  "mu qian": 7701,
  "diao kuai": 7702,
  " mei yuan ": 7703,
  "ai er lan ": 7704,
  "   2": 7705,
  "dao wei ": 7706,
  "su li ": 7707,
  "xiao fei ": 7708,
  "xia ling ": 7709,
  " de yi shu ": 7710,
  "mian dui ": 7711,
  " dong nan ": 7712,
  " wei UTC ": 7713,
  "zhu yi zhe ": 7714,
  "lian he hui ": 7715,
  " luo": 7716,
  "   ma ": 7717,
  "yan hai ": 7718,
  "xiong ya li ": 7719,
  " cn ": 7720,
  "   zheng ": 7721,
  "   jiao tong ": 7722,
  "zhu he ": 7723,
  "wen he ": 7724,
  " er qi ": 7725,
  " chi": 7726,
  "zhou yi ": 7727,
  "san wei ": 7728,
  "san da ": 7729,
  "zi shen ": 7730,
  "kai shi shi ": 7731,
  "diao kuai yi xiao shi ": 7732,
  "cheng you ": 7733,
  "chong ji ": 7734,
  "mang ": 7735,
  "guo hui ": 7736,
  " ji UTC ": 7737,
  "liu xia ": 7738,
  "pai qian ": 7739,
  "she you xia ling shi jian ": 7740,
  " wan li ": 7741,
  " ling you ": 7742,
  " de shi qu wei UTC ": 7743,
  " er gai di suo cai yong": 7744,
  " tong shi gai di she you xia ling shi jian ": 7745,
  " er gai di suo cai yong de shi qu wei UTC ": 7746,
  " zi you ": 7747,
  "shu ren ": 7748,
  "lao shi ": 7749,
  "sheng di ": 7750,
  "nan hai ": 7751,
  " fu qin ": 7752,
  "zhang yue ": 7753,
  "17 ": 7754,
  "jing gao ": 7755,
  "jian li le ": 7756,
  " shuang": 7757,
  "ceng wei ": 7758,
  "chuang zao ": 7759,
  "3 ren ": 7760,
  "bing fei ": 7761,
  " ge qu ": 7762,
  "mi shu zhang ": 7763,
  "guan he ": 7764,
  "hao shi ": 7765,
  "cai de ": 7766,
  "xiang tong de ": 7767,
  "bi ye hou ": 7768,
  "gao yu hai ping mian ": 7769,
  "2 ren ": 7770,
  "dang ji ": 7771,
  "qun zhong ": 7772,
  " shuo ": 7773,
  "ge yu ": 7774,
  " kou ": 7775,
  "ru de ": 7776,
  " qi fu ": 7777,
  "qu de mian ji wei ": 7778,
  "hai ba wei gao yu hai ping mian ": 7779,
  " rong ": 7780,
  "zhang he ": 7781,
  "jin xing de ": 7782,
  "gai ming wei ": 7783,
  "fa zhi ": 7784,
  "xuan zhong ": 7785,
  "jing du ": 7786,
  "chang suo ": 7787,
  "tan xian ": 7788,
  " zhong shan ": 7789,
  "da bu fen": 7790,
  "guan cha": 7791,
  "lie ru ": 7792,
  " 50": 7793,
  "zhan yu ": 7794,
  "bu shi qu ": 7795,
  "fang ji ": 7796,
  "da lou ": 7797,
  "   yan ": 7798,
  "da yi ": 7799,
  " yue yi ": 7800,
  " shan xi ": 7801,
  "shang di ": 7802,
  "chao yue ": 7803,
  "hua jia ": 7804,
  " huo dong ": 7805,
  " 2025": 7806,
  " 2015 nian ": 7807,
  "ping gu ": 7808,
  "biao ben ": 7809,
  " sa": 7810,
  "tiao jie ": 7811,
  "zhang fu ": 7812,
  "cun luo ": 7813,
  "shou xian ": 7814,
  "tu jing ": 7815,
  " luo ma ": 7816,
  "yi shi de ": 7817,
  "suo zai di ": 7818,
  "bian yi ": 7819,
  "dou zai ": 7820,
  "kai shi zai ": 7821,
  " da lu ": 7822,
  "che xiang ": 7823,
  "te ji ": 7824,
  " qi zhong bao kuo ": 7825,
  "li de ": 7826,
  "gong wei ": 7827,
  "gong neng": 7828,
  "ban ben": 7829,
  "suo chu de hai ba wei gao yu hai ping mian ": 7830,
  "ben ren ": 7831,
  "chang jing ": 7832,
  "dan bai ": 7833,
  "fei er de ": 7834,
  " bu xiang ": 7835,
  "she xian ": 7836,
  "   Re": 7837,
  "   an ": 7838,
  "duan shi jian ": 7839,
  " shi bei ": 7840,
  " zai ta ": 7841,
  "qian ding ": 7842,
  " Ma": 7843,
  "xiao yu ": 7844,
  "lai si ": 7845,
  "yang ji ": 7846,
  "jian kang ": 7847,
  " er bu shi ": 7848,
  "luo fa ": 7849,
  " er de ": 7850,
  "tui xiu ": 7851,
  "7 nian ": 7852,
  "deng zhi ": 7853,
  "san ren ": 7854,
  "se fu ": 7855,
  "hui gui ": 7856,
  "ti xing ": 7857,
  "yong le ": 7858,
  "yin xiang ": 7859,
  "shen hua ": 7860,
  " de ji lu ": 7861,
  " dun ": 7862,
  "ou xiang ": 7863,
  "yan ren ": 7864,
  "yan he ": 7865,
  "cai neng ": 7866,
  "ju le ": 7867,
  "qu zhu ": 7868,
  "na xie ": 7869,
  "yin yu ": 7870,
  "zu qiu dui ": 7871,
  "mian yi ": 7872,
  "shuai ling ": 7873,
  " qi xuan ": 7874,
  "di xia ": 7875,
  "zu cheng": 7876,
  "bo lan": 7877,
  " yi sheng ": 7878,
  " lu wa": 7879,
  "ke neng hui ": 7880,
  " he dao ": 7881,
  "can xuan ": 7882,
  " lun ": 7883,
  "   di yi ": 7884,
  "   to   ": 7885,
  "chu zhong ": 7886,
  "kong xi ": 7887,
  "é ": 7888,
  " nian shi jie ": 7889,
  "lian luo ": 7890,
  "hu xiang ": 7891,
  " 2023": 7892,
  "   2008": 7893,
  "qing jie ": 7894,
  "zhou li ": 7895,
  " zhong gong zhong yang ": 7896,
  "chang shang ": 7897,
  " 2016 nian ": 7898,
  "   Ma": 7899,
  "dan shi ": 7900,
  "zai yi qi ": 7901,
  "yan zhong de ": 7902,
  "quan yi ": 7903,
  " yu bei ": 7904,
  " shou ci ": 7905,
  " ma lai": 7906,
  " chao xian ": 7907,
  "   mei ": 7908,
  "guan yi ": 7909,
  "mu er ": 7910,
  "kai de ": 7911,
  "tu ji ": 7912,
  " 2007": 7913,
  "shu bu ": 7914,
  "fa yi ": 7915,
  "ding li ": 7916,
  "zhen qu de mian ji wei ": 7917,
  " yuan ming ": 7918,
  " shou dao ": 7919,
  " hei": 7920,
  " zhi shu ": 7921,
  "zi chan ": 7922,
  "dui ying ": 7923,
  "ti gong le ": 7924,
  "   xing ": 7925,
  "zhong yi yuan ": 7926,
  "zhu zhong ": 7927,
  "dai wei ": 7928,
  "nei di ": 7929,
  "fa sheng zai ": 7930,
  "que shi ": 7931,
  "2 ge ": 7932,
  "1978 nian ": 7933,
  " yu xi ": 7934,
  "he liu ": 7935,
  "fu xing ": 7936,
  "xian zhu ": 7937,
  "bei si ": 7938,
  "yan se ": 7939,
  "zu qiu ju le bu ": 7940,
  "19 ": 7941,
  "qian xi ": 7942,
  "kao shi ": 7943,
  "ge guo ": 7944,
  "zheng bian ": 7945,
  "bao luo ": 7946,
  "zui duo ": 7947,
  "su ge lan ": 7948,
  "ti he ": 7949,
  "shang ji ": 7950,
  "yan ji ": 7951,
  "she zai ": 7952,
  "di qu de ": 7953,
  "zi xun": 7954,
  "mu si lin ": 7955,
  " lv": 7956,
  " shi jia ": 7957,
  "zhuan men ": 7958,
  "ka la ": 7959,
  " hang ": 7960,
  " dian shi ": 7961,
  "ru wei ": 7962,
  "dai ling ": 7963,
  "   ran": 7964,
  "shen yi ": 7965,
  "wu guan ": 7966,
  "she ji shi ": 7967,
  " 2 yue ": 7968,
  "san bu ": 7969,
  "zhong yao": 7970,
  "bei fang ": 7971,
  "bao cun ": 7972,
  "mian fei ": 7973,
  " kan": 7974,
  "zhong guo da lu ": 7975,
  " lian he ": 7976,
  " jue ding ": 7977,
  " bu la ": 7978,
  "fei yan ": 7979,
  "zao shang ": 7980,
  "mian dian ": 7981,
  "te   ": 7982,
  "yang xing ": 7983,
  "xue zhong ": 7984,
  "30 ": 7985,
  "chu wei ": 7986,
  "qian yue ": 7987,
  "ping guo ": 7988,
  "ceng de ": 7989,
  "tui jian ": 7990,
  "liao de ": 7991,
  "quan xian ": 7992,
  " xiang guan ": 7993,
  "bing yu ": 7994,
  "guo nei ": 7995,
  "chuan tong de ": 7996,
  " bei cheng wei ": 7997,
  "E ": 7998,
  "on ": 7999,
  "ju feng ": 8000,
  "geng xin ": 8001,
  "   gong ": 8002,
  "qing ren ": 8003,
  "duo nian ": 8004,
  "lang zhong ": 8005,
  "di wu ": 8006,
  "tian hou ": 8007,
  " shao": 8008,
  "   1": 8009,
  "shu zai ": 8010,
  "gao shi ": 8011,
  "pian zhong ": 8012,
  "wan zheng ": 8013,
  "6 nian ": 8014,
  "hua zai ": 8015,
  "tong xun ": 8016,
  "bian jing ": 8017,
  "shan xian ": 8018,
  "feng de ": 8019,
  "miao hui ": 8020,
  "shou quan ": 8021,
  "jiu yuan ": 8022,
  "xie zuo ": 8023,
  "n   ": 8024,
  "zan zhu ": 8025,
  "cheng zai ": 8026,
  "gui mo": 8027,
  "   ren ": 8028,
  "ju zai ": 8029,
  "mu yu ": 8030,
  "ba da ": 8031,
  "ba si ": 8032,
  "jue yu ": 8033,
  "ge la ": 8034,
  "luo shan ji ": 8035,
  " 2019 nian ": 8036,
  " za zhi ": 8037,
  " li cheng ": 8038,
  "fa ming ": 8039,
  "tu shu ": 8040,
  "xing mu ": 8041,
  "xian ru ": 8042,
  " di qiu ": 8043,
  " peng": 8044,
  "li zi ": 8045,
  "   R": 8046,
  " zhi wai ": 8047,
  "zhang zhuan ji ": 8048,
  " zui gao ": 8049,
  " bi sai ": 8050,
  "tun ": 8051,
  "jin ri ": 8052,
  " zu zhi ": 8053,
  "shuang da ": 8054,
  "qu jian ": 8055,
  "le de ": 8056,
  "guan ce ": 8057,
  "xing zai ": 8058,
  "fu zhu ": 8059,
  "che chang ": 8060,
  "bei ren ming wei ": 8061,
  "xian zhong ": 8062,
  "zhou ren ": 8063,
  " shi er ": 8064,
  " shi ta ": 8065,
  " yue he ": 8066,
  " U": 8067,
  " sang": 8068,
  "dui zhong ": 8069,
  " shan dong ": 8070,
  "guo min dang ": 8071,
  " you zai ": 8072,
  "ping lun": 8073,
  "liang he ": 8074,
  " de shi yong ": 8075,
  "2 hao ": 8076,
  "8 nian ": 8077,
  "jiang yi ": 8078,
  "gai zhi wei ": 8079,
  "bian zhi ": 8080,
  "su zhi ": 8081,
  " shi cheng ": 8082,
  " li liang ": 8083,
  "chu zhang ": 8084,
  "lin si ": 8085,
  "ju ben ": 8086,
  "jiao du ": 8087,
  "tian zhu ": 8088,
  " 2017 nian ": 8089,
  "luo li da ": 8090,
  " di di ": 8091,
  "xiao ying ": 8092,
  "1958 nian ": 8093,
  "pi zhun": 8094,
  " 7 ": 8095,
  "   dong ": 8096,
  "shang xian ": 8097,
  "zao cheng de ": 8098,
  " shi jian zhu ": 8099,
  "ban ji ": 8100,
  "shou bo ": 8101,
  "zhang zi ": 8102,
  "hu lian ": 8103,
  " 2018 nian ": 8104,
  "ao er ": 8105,
  "   dui ": 8106,
  "   nan ": 8107,
  "   ba ": 8108,
  "zhan mu si ": 8109,
  "ai li ": 8110,
  "1979 nian ": 8111,
  "fu shu ": 8112,
  " huo shi ": 8113,
  "yun de ": 8114,
  "tou xian ": 8115,
  "1972 nian ": 8116,
  "lu zhan ": 8117,
  " hou zhe ": 8118,
  "   ge ren ": 8119,
  "ding ji ": 8120,
  "cu ": 8121,
  " wei bei ": 8122,
  "yun yong ": 8123,
  " pu tao ": 8124,
  "ba er ": 8125,
  "I ": 8126,
  "ma shi ": 8127,
  "huai yi ": 8128,
  "xia zai ": 8129,
  "chai ": 8130,
  " yi dong ": 8131,
  " wei yu zhong guo ": 8132,
  " nuo ": 8133,
  "guan ji ": 8134,
  "bao hu": 8135,
  " ying wen ": 8136,
  " yan jiu ": 8137,
  "xu ji ": 8138,
  "can yi ": 8139,
  "huo che ": 8140,
  "qiang du ": 8141,
  " ci nian ": 8142,
  " chun ": 8143,
  " di ya ": 8144,
  " ai er ": 8145,
  "   2009": 8146,
  "shao de ": 8147,
  "xin guan ": 8148,
  "huo bi ": 8149,
  " xu yao ": 8150,
  " ming zhi ": 8151,
  "zha dan ": 8152,
  "chuan mei ": 8153,
  "   for": 8154,
  "ju ban de ": 8155,
  "jiao cha ": 8156,
  "min zu": 8157,
  "mi ni ": 8158,
  "lei si de ": 8159,
  " gai bian ": 8160,
  "dao zai ": 8161,
  "luo shi ": 8162,
  "xue ke ": 8163,
  "L ": 8164,
  "di qi ": 8165,
  "bing du ": 8166,
  " xin wen ": 8167,
  "xing zheng qu ": 8168,
  "na xia ": 8169,
  "   zeng zu ": 8170,
  "lie shi ": 8171,
  " zhong xing ": 8172,
  "xi nan bu ": 8173,
  "tai hou ": 8174,
  "zui zao": 8175,
  "wu yue ": 8176,
  "zheng ji ": 8177,
  " shi yi ke ": 8178,
  "xin jia po": 8179,
  "yao shi ": 8180,
  "pin de ": 8181,
  "gan yu ": 8182,
  " ren wei shi ": 8183,
  "xiang fa ": 8184,
  "fa li ": 8185,
  "luo yu ": 8186,
  " da bu fen": 8187,
  "ti chu de ": 8188,
  "ju ban": 8189,
  "tai kong ": 8190,
  "can ting ": 8191,
  " 2006": 8192,
  "xi you ": 8193,
  "chu guo ": 8194,
  "xue li ": 8195,
  "zhe he ": 8196,
  "bai yu ": 8197,
  "jue sai": 8198,
  " shi shi yong ": 8199,
  "zong yi ": 8200,
  "zong ren kou ": 8201,
  " zhi bu ": 8202,
  "le yuan ": 8203,
  "te qu ": 8204,
  " de hua ": 8205,
  "qing zhu ": 8206,
  " bing bei ": 8207,
  "zhuan xie ": 8208,
  "1 ren ": 8209,
  " wei yi ": 8210,
  "   hou ": 8211,
  " zhong dian ": 8212,
  "jin rong": 8213,
  " xi yin ": 8214,
  "jiang li ": 8215,
  "zhu dao ": 8216,
  " mao": 8217,
  "xue ji ": 8218,
  "fa xian de ": 8219,
  "tong xin ": 8220,
  " ma li ": 8221,
  " 2004 nian ": 8222,
  "shang wang ": 8223,
  "a gen ": 8224,
  "jiao huan ": 8225,
  "sui ran": 8226,
  "wu zheng zhuang gan ran zhe ": 8227,
  "4 ren ": 8228,
  " 2021 nian ": 8229,
  "xing shi de ": 8230,
  "xian cheng ": 8231,
  "mei jun ": 8232,
  " Z": 8233,
  " shun": 8234,
  "mi si ": 8235,
  " yi gong ": 8236,
  " chu ban ": 8237,
  "   liu ": 8238,
  "sui zhe ": 8239,
  " B ": 8240,
  "tou de ": 8241,
  " yi qian ": 8242,
  " di zai ": 8243,
  "xin jian ": 8244,
  "zu jie ": 8245,
  "she jiao ": 8246,
  " de yi yuan ": 8247,
  " shui": 8248,
  "ju zhi ": 8249,
  "dui ji ": 8250,
  "dian wei ": 8251,
  "shen yu ": 8252,
  "ba de ": 8253,
  " shi ren min ": 8254,
  "   tian ": 8255,
  "xian li ": 8256,
  "da xiao ": 8257,
  "ge zi ": 8258,
  " guang": 8259,
  "che di ": 8260,
  "cheng le ": 8261,
  "fang mian": 8262,
  "duan pian ": 8263,
  "chuan qi ": 8264,
  "qi zhong ": 8265,
  "gu la ": 8266,
  "huang se ": 8267,
  "xian zhi xian ": 8268,
  " su": 8269,
  "   4": 8270,
  "   D": 8271,
  "min yi ": 8272,
  "   shi yong ": 8273,
  "yong zai ": 8274,
  "zheng qu ": 8275,
  "te dian ": 8276,
  " ta he ": 8277,
  " ce ": 8278,
  " zhuan ji ": 8279,
  " 2020 nian ": 8280,
  "du guo ": 8281,
  "zan shi ": 8282,
  "huo sheng ": 8283,
  "bi xu": 8284,
  "zhang zhi ": 8285,
  "1960 nian ": 8286,
  "qi lai ": 8287,
  "xi bei bu ": 8288,
  "zui di ": 8289,
  "si da ": 8290,
  "fa sheng": 8291,
  "luo cheng ": 8292,
  "zui zao ": 8293,
  "yun dong de ": 8294,
  "bang qiu ": 8295,
  "bu de cun zhuang ": 8296,
  " neng ": 8297,
  "shou bu ": 8298,
  "te he ": 8299,
  "gao du wei ": 8300,
  "lin jin ": 8301,
  " shi hou ": 8302,
  " you zhu ": 8303,
  "lai yu ": 8304,
  "xian shang ": 8305,
  "gang kou ": 8306,
  "gong yuan qian ": 8307,
  "1976 nian ": 8308,
  "wu di ": 8309,
  "xin jiang ": 8310,
  "ci di ": 8311,
  "cheng jiu ": 8312,
  " cai yong ": 8313,
  "gong zuo shi ": 8314,
  " shuang fang ": 8315,
  "an zhi ": 8317,
  " gong ye ": 8318,
  " yi bian ": 8319,
  "ling chen ": 8320,
  "xun lian": 8321,
  "yong ji ": 8322,
  "1980 nian dai ": 8323,
  "qi che ": 8324,
  " ge shou ": 8325,
  " tao": 8326,
  "dan da ": 8327,
  "san zhong ": 8328,
  "on   ": 8329,
  "st   ": 8330,
  "zhong hua min guo ": 8331,
  "fa ting ": 8332,
  "shan mai ": 8333,
  " de yi xie ": 8334,
  "chu ban she ": 8335,
  "jing nei gong you ": 8336,
  "dang nian ": 8337,
  "Windows   ": 8338,
  "hui wei ": 8339,
  "1920 nian ": 8340,
  "jiang shu ": 8341,
  " xiang mu ": 8342,
  "dao you ": 8343,
  "xin jie ": 8344,
  "ping yuan ": 8345,
  "san ming ": 8346,
  "hou ji ": 8347,
  "xiao li yu ": 8348,
  " jia la ": 8349,
  " tong yi ": 8350,
  "han zi ": 8351,
  "qi hou ": 8352,
  "da di ": 8353,
  " zhao he ": 8354,
  "cheng zhi wei ": 8355,
  "lie chu ": 8356,
  " liang ge ": 8357,
  " nong ": 8358,
  "xiu dao ": 8359,
  " da jia ": 8360,
  "   dao ": 8361,
  "zan ting ": 8362,
  "bi li shi ": 8363,
  "bai ke ": 8364,
  "dui he ": 8365,
  "ruan ti ": 8366,
  "jian du ": 8367,
  "ye fu ": 8368,
  "lai yin ": 8369,
  " ta you ": 8370,
  "   a   ": 8371,
  " er gai di de ": 8372,
  "tong he ": 8373,
  "hai zai ": 8374,
  "tan he ": 8375,
  "sheng dao ": 8376,
  " da jiang ": 8377,
  " dan yin ": 8378,
  "jin yu ": 8379,
  "huo zai ": 8380,
  "yun he ": 8381,
  "ti dai ": 8382,
  "qian ting ": 8383,
  " zui chu ": 8384,
  "hen kuai ": 8385,
  "   gai yao ": 8386,
  "fa ji ": 8387,
  "na he ": 8388,
  " bu dao ": 8389,
  "xiang ying ": 8390,
  " qi bing ": 8391,
  "jing guan ": 8392,
  "bian yuan ": 8393,
  " wei fu qi yu gang": 8394,
  "ya ren ": 8395,
  "1990 nian dai ": 8396,
  " li fu ": 8397,
  " ta men zai ": 8398,
  " piao ": 8399,
  " ou yuan ": 8400,
  "ao de ": 8401,
  "dui di ": 8402,
  "qian jin ": 8403,
  "wang wang ": 8404,
  "G ": 8405,
  "ju yuan ": 8406,
  "an li ": 8407,
  "xing you ": 8408,
  "pin zhong ": 8409,
  "que bao ": 8410,
  "qun ti ": 8411,
  "cheng qu ": 8412,
  " qi he ": 8413,
  "ma tou ": 8414,
  "bu men ": 8415,
  "ta yi ": 8416,
  "fu hao ": 8417,
  " de shi ji ": 8418,
  " jin shi ": 8419,
  "chang ji ": 8420,
  "kuo jian ": 8421,
  " yue dui ": 8422,
  " ta ren wei ": 8423,
  "   shou ": 8424,
  "dian shi jie ": 8425,
  "si lan ": 8426,
  "   jia ting ": 8427,
  "   in   ": 8428,
  "shu chu ": 8429,
  " xi tong de ": 8430,
  "chang bi sai ": 8431,
  "e guo ": 8432,
  " 2002 nian ": 8433,
  " nian dao ": 8434,
  "ye ke yi ": 8435,
  "fu za": 8436,
  "fa dong ji ": 8437,
  "qu fen ": 8438,
  "she ding ": 8439,
  "gui fan ": 8440,
  "le yi xie ": 8441,
  " xian wei ": 8442,
  " cun ": 8443,
  "jiu zai ": 8444,
  "wu shu ": 8445,
  "da shi guan ": 8446,
  "ri ben de ": 8447,
  " li li ": 8448,
  " nian qing ": 8449,
  "sen lin": 8450,
  "ma ke si ": 8451,
  "qiu shi ": 8452,
  "re   ": 8453,
  "jie duan": 8454,
  "tui guang ": 8455,
  " zhong guo ren min jie fang jun ": 8456,
  "xuan shi ": 8457,
  "fu mu ": 8458,
  "wu zhuang": 8459,
  "sai er wei ": 8460,
  "geng duo de ": 8461,
  "   wang ": 8462,
  "dan yi ": 8463,
  "tie lu che zhan ": 8464,
  "9 nian ": 8465,
  "wang wei ": 8466,
  "la wei ": 8467,
  "chang du ": 8468,
  "fen pei ": 8469,
  "ya mu ": 8470,
  "can shu ": 8471,
  "K ": 8472,
  "pei bei ": 8473,
  " yi mei ": 8474,
  " you liang ": 8475,
  " zhong jian ": 8476,
  "bei jing": 8477,
  "duo er ": 8478,
  "zhong bu ": 8479,
  "bei da ": 8480,
  " qi zhong": 8481,
  "qian shen ": 8482,
  " 1970": 8483,
  " bu si ": 8484,
  "shang zhen ": 8485,
  "bao han": 8486,
  "sui ran ": 8487,
  "ye jian ": 8488,
  "ye sheng ya ": 8489,
  "dui fang ": 8490,
  "chuang zuo de ": 8491,
  "mai de ": 8492,
  "ze dong ": 8493,
  " 40": 8494,
  "zhang ji ": 8495,
  " he liu ": 8496,
  "cheng wei yi ": 8497,
  "   N": 8498,
  "yan jing ": 8499,
  "ban jiang ": 8500,
  "bu de bu ": 8501,
  " sun ": 8502,
  "dou bei ": 8503,
  " zai nei de ": 8504,
  "deng chang ": 8505,
  " sai": 8506,
  "shan di ": 8507,
  "chu zi ": 8508,
  " gong qing ": 8509,
  "wen ji ": 8510,
  "ceng shi ": 8511,
  "tou bu ": 8512,
  " 30 ": 8513,
  "1 ge ": 8514,
  "an ji ": 8515,
  "jun bu ": 8516,
  "ke yun ": 8517,
  "te la ": 8518,
  "su lian": 8519,
  "tu xiang ": 8520,
  "v ": 8521,
  "huang jin ": 8522,
  " 35": 8523,
  "cong wei ": 8524,
  " jie shu ": 8525,
  "lv se ": 8526,
  "xing li ": 8527,
  "deng yu ": 8528,
  "ye sheng ": 8529,
  "ban yan ": 8530,
  "kai gong ": 8531,
  " zi yuan ": 8532,
  "du ji ": 8533,
  "nan si ": 8534,
  "zhe yang ": 8535,
  " shi shi shang ": 8536,
  "a la bo": 8537,
  "shen ke ": 8538,
  "chen ji ": 8539,
  " zai he ": 8540,
  "ri bao ": 8541,
  "dang tian ": 8542,
  " tun": 8543,
  "bei li ": 8544,
  "zhe zhi ": 8545,
  "che shi ": 8546,
  " xi an ": 8547,
  "xie shang ": 8548,
  "chi xu": 8549,
  " bao": 8550,
  "le di ": 8551,
  "st ": 8552,
  "xian dai": 8553,
  "jin qu ": 8554,
  "fen zhi yi ": 8555,
  " de ji hua ": 8556,
  "qu you ": 8557,
  "zhu ce ": 8558,
  "lu shang ": 8559,
  " V": 8560,
  " qi dong ": 8561,
  "se lie": 8562,
  " fu ze guan xia ": 8563,
  " 60": 8564,
  "mu he ": 8565,
  "wai wei ": 8566,
  " shi shi ji ": 8567,
  "quan ji ": 8568,
  "zhuan wei ": 8569,
  "1956 nian ": 8570,
  " yi ke ": 8571,
  "wei yuan ": 8572,
  "dong xian ": 8573,
  "   cheng ": 8574,
  "   zhang ": 8575,
  " yi nian": 8576,
  "   gu ": 8577,
  "1964 nian ": 8578,
  "xiang qi ": 8579,
  "hao ping ": 8580,
  "deng shi ": 8581,
  "ze yu ": 8582,
  "section   ": 8583,
  "fu er ": 8584,
  "xiao jie ": 8585,
  "qing chao ": 8586,
  "qu zhong ": 8587,
  "sha de ": 8588,
  "da duo ": 8589,
  "zong jian ": 8590,
  "dui zhi ": 8591,
  "bing zai ": 8592,
  " qi xi zai ": 8593,
  "zheng shu ": 8594,
  "mian ti ": 8595,
  " 28": 8596,
  "hao you ": 8597,
  " zhong qi ": 8598,
  "xiao liang ": 8599,
  "fan ying": 8600,
  " lian jie ": 8601,
  " S ": 8602,
  " jian li ": 8603,
  "hang ye ": 8604,
  "yuan xian ": 8605,
  "te lei ": 8606,
  "xuan cheng ": 8607,
  " ge lei ": 8608,
  " bao hu ": 8609,
  " bing bu ": 8610,
  " section   ": 8611,
  "biao ji ": 8612,
  "lie si ": 8613,
  " shi xi ": 8614,
  "shou shu ": 8615,
  "lai na ": 8616,
  "fei lv bin": 8617,
  "zhan wei yu ": 8618,
  " gong kai ": 8619,
  " fen bie ": 8620,
  " 45": 8621,
  "zong zhi ": 8622,
  "hai shang ": 8623,
  "tu chu ": 8624,
  "can jia": 8625,
  "   ran er ": 8626,
  " bang ": 8627,
  "   guang ": 8628,
  "chang da ": 8629,
  "jiang you ": 8630,
  "bai zhi ": 8631,
  "ce   ": 8632,
  "niao lei ": 8633,
  " shi bu ": 8634,
  "dai biao tuan ": 8635,
  " zui jia ": 8636,
  "zhan you ": 8637,
  "1968 nian ": 8638,
  " qi zhong nan xing ": 8639,
  " jiang su ": 8640,
  "wan li ": 8641,
  "ni xi ya ": 8642,
  "yuan ben ": 8643,
  "jin zhan ": 8644,
  "bao zha": 8645,
  "fen si ": 8646,
  " si da ": 8647,
  " fou": 8648,
  "lu he ": 8649,
  "xie wei ": 8650,
  "mo ni ": 8651,
  "zhong guo ren min ": 8652,
  "hai di ": 8653,
  "shen zhen ": 8654,
  "pu tao ya ": 8655,
  " pian ": 8656,
  "liang bu ": 8657,
  "feng shi ": 8658,
  "xing dong": 8659,
  "gong da ": 8660,
  "   gen ju 2020 nian mei guo ren kou pu cha de shu ju ": 8661,
  "ju wei ": 8662,
  "lu yi si ": 8663,
  "xia di qu ": 8664,
  "ding xing ": 8665,
  "ge bu ": 8666,
  "yan an ": 8667,
  "chang jiang ": 8668,
  "   jing ji ": 8669,
  "zhan wei ": 8670,
  " guo wu yuan ": 8671,
  "dao dan ": 8672,
  "lai zi yu ": 8673,
  "fei yong ": 8674,
  " liu yu ": 8675,
  " 2024": 8676,
  "zai yi ge ": 8677,
  "fa he ": 8678,
  "hou zhi ": 8679,
  "se   ": 8680,
  "xiao xiang ": 8681,
  " 8 ": 8682,
  "   2019 nian ": 8683,
  "gong yue ": 8684,
  "jiao di ": 8685,
  "tang de ": 8686,
  "1981 nian ": 8687,
  "chu xian de ": 8688,
  "bi er ": 8689,
  "ha li ": 8690,
  " you suo ": 8691,
  "gong kai sai ": 8692,
  " 2000 nian ": 8693,
  " yi he ": 8694,
  " guo jia de ": 8695,
  "zi ben ": 8696,
  "zheng mian ": 8697,
  " jin shu ": 8698,
  " fa zhan ": 8699,
  "kuo zhang ": 8700,
  " pin ": 8701,
  "dang zai ": 8702,
  "che dui ": 8703,
  " lei": 8704,
  " 2005": 8705,
  "qiong ": 8706,
  "xue ye ": 8707,
  " wa": 8708,
  "hou bu ": 8709,
  "fu zhou ": 8710,
  " guan fang ": 8711,
  " wei yuan hui wei yuan ": 8712,
  " 200": 8713,
  "shu de zhi wu ": 8714,
  "tian jia ": 8715,
  "ke er ": 8716,
  "tai nan ": 8717,
  "xuan ju zhong ": 8718,
  "   qi zhong ": 8719,
  "   yue ": 8720,
  "bei yue ": 8721,
  "huo li ": 8722,
  "wang ji ": 8723,
  "shui de ": 8724,
  "gan xian ": 8725,
  "ju min": 8726,
  "le dui ": 8727,
  "yan jiang ": 8728,
  " shi yi zuo ": 8729,
  "yuan zhu min ": 8730,
  " ji jin hui ": 8731,
  " 1946": 8732,
  "duo shi ": 8733,
  "cha shi ": 8734,
  " shi de shi ": 8735,
  " pi": 8736,
  " qu de ": 8737,
  " kao ": 8738,
  " niu ": 8739,
  "zu ren ": 8740,
  "lai ke ": 8741,
  "hant ": 8742,
  " zai bu ": 8743,
  "zhe yang de ": 8744,
  "nan ji zhou de ": 8745,
  " tou guo ": 8746,
  "yang he ": 8747,
  "gan de ": 8748,
  "wo er ": 8749,
  "bei po ": 8750,
  "gu dian ": 8751,
  " qian wang ": 8752,
  "cheng li hou ": 8753,
  "gu fen you xian gong si ": 8754,
  "1948 nian ": 8755,
  " yue ren ": 8756,
  "da gui mo ": 8757,
  "jian kang": 8758,
  " di tu ": 8759,
  "mei guo": 8760,
  "bai wan ": 8761,
  " wei fu qi yu gang ": 8762,
  " hant ": 8763,
  "duo li ya ": 8764,
  " zhong wen ": 8765,
  "gong an ": 8766,
  " guo gong ": 8767,
  "hui da ": 8768,
  "chu chang ": 8769,
  "zong cai ": 8770,
  "shao nv ": 8771,
  "H ": 8772,
  "ya zhong ": 8773,
  " zhi jing ": 8774,
  " he qi ta ": 8775,
  "ke luo ": 8776,
  "zhan shu ": 8777,
  "wen ti de ": 8778,
  "re dai feng bao ": 8779,
  "hu xi ": 8780,
  "shuai ling": 8781,
  " yu di ": 8782,
  " ta ji ": 8783,
  "can kao": 8784,
  "   zhu yao ": 8785,
  "bie de ": 8786,
  "xin tai ": 8787,
  "   2007": 8788,
  "   In": 8789,
  "   fan ": 8790,
  "luo yi ": 8791,
  "men shi ": 8792,
  "gong jiao ": 8793,
  "zhu ban ": 8794,
  " shi yi zhi ": 8795,
  "zuo fa ": 8796,
  " da er ": 8797,
  "na sheng ": 8798,
  "mei guo ren ": 8799,
  "zhuan yong ": 8800,
  "cun zai de ": 8801,
  " jin ru": 8802,
  "xian de yi ge fei jian zhi di qu ": 8803,
  " 2022 nian ": 8804,
  "nuo yi ": 8805,
  " shi fa ": 8806,
  " zhi shao ": 8807,
  "fang mi ": 8808,
  "hang tian ": 8809,
  "zuo zhi ": 8810,
  "ding zai ": 8811,
  "qun de ": 8812,
  "1 ri": 8813,
  "you yi xie ": 8814,
  " ling wai": 8815,
  " yong": 8816,
  "   jiang ": 8817,
  "niang ": 8818,
  "lu wa": 8819,
  " xing jian ": 8820,
  "xue bu ": 8821,
  "mei shi ": 8822,
  "lan yu ": 8823,
  " yi xue ": 8824,
  "rao tai yang ": 8825,
  " shi bing ": 8826,
  "liang zi ": 8827,
  " nian yi lai ": 8828,
  "shang wei you ": 8829,
  "bao he ": 8830,
  "dui kang ": 8831,
  " fu qin": 8832,
  "ma lai ": 8833,
  "7 ren ": 8834,
  " 2003 nian ": 8835,
  "ying er ": 8836,
  "jiu you ": 8837,
  "1952 nian ": 8838,
  "e wei ": 8839,
  "ta ren ": 8840,
  " yi da ": 8841,
  " yi xiang ": 8842,
  "ci qu ": 8843,
  "du hui ": 8844,
  " zhe yang ": 8845,
  "e de ": 8846,
  "ban ren ": 8847,
  "chuan guo ": 8848,
  "1975 nian ": 8849,
  "1966 nian ": 8850,
  "wu ge ": 8851,
  "xie ding ": 8852,
  "san ci ": 8853,
  " dan wei ": 8854,
  " ou zhou ": 8855,
  "shang he ": 8856,
  "zong hui ": 8857,
  " xin zeng ": 8858,
  " diao ": 8859,
  "   3 yue ": 8860,
  "bo jue ": 8861,
  "xuan chu ": 8862,
  " ri you ": 8863,
  "guo jia dui ": 8864,
  "   qi hou ": 8865,
  "   of   the   ": 8866,
  "1947 nian ": 8867,
  " nian ling ": 8868,
  "jiao jie ": 8869,
  "hai ba gao du wei ": 8870,
  "guang de ": 8871,
  " yi wai ": 8872,
  " dan qi ": 8873,
  " shi yong le ": 8874,
  " dang shi de ": 8875,
  "jiao yu bu ": 8876,
  "wu you ": 8877,
  "wen ti": 8878,
  "lei xing de ": 8879,
  "zhuang kuang": 8880,
  " zi ji ": 8881,
  "wang yu ": 8882,
  "wai xing ": 8883,
  "gen sui ": 8884,
  " yi chan ": 8885,
  "xing zheng": 8886,
  "yan lun ": 8887,
  " si ta ": 8888,
  " ren min bi ": 8889,
  "fen bie wei ": 8890,
  "ge zai ": 8891,
  "jin zai ": 8892,
  "wang zhi ": 8893,
  "gong jue ": 8894,
  " dao yan ": 8895,
  " fa sheng ": 8896,
  "nong cun": 8897,
  " cheng li yu ": 8898,
  "1937 nian ": 8899,
  "she ying ": 8900,
  "gao xiao ": 8901,
  "jian zhu wu ": 8902,
  " jiang qi ": 8903,
  " chao": 8904,
  " le ": 8905,
  "   fa ": 8906,
  "   ping jia ": 8907,
  "ta he ": 8908,
  "shu mu ": 8909,
  "zhan chang ": 8910,
  "lian sai": 8911,
  "xuan ju": 8912,
  " ping tai ": 8913,
  " de ji hui ": 8914,
  "jing sai ": 8915,
  "qiao liang ": 8916,
  "xun yang jian ": 8917,
  "   luo ": 8918,
  "   chu le ": 8919,
  "tuan jie ": 8920,
  "song dao ": 8921,
  "guo cheng ": 8922,
  "shou fa ": 8923,
  "fen jie ": 8924,
  "quan shu ": 8925,
  " de yi mei ": 8926,
  " shi yi da li ": 8927,
  "duan zan": 8928,
  " ke luo ": 8929,
  "zui zao de ": 8930,
  "ceng shui yu ": 8931,
  "1 nian ": 8932,
  "a fu ": 8933,
  "xin zhong ": 8934,
  "zhang yi ": 8935,
  "xia yi xia di qu ": 8936,
  "ying xiang li ": 8937,
  " hua": 8938,
  "guo shi qi ": 8939,
  "pu li ": 8940,
  "shou duan ": 8941,
  "ping jie ": 8942,
  "ci zhong ": 8943,
  "zhuan de xiao xing xing ": 8944,
  "k   ": 8945,
  "bei he ": 8946,
  "fa wei ": 8947,
  "ru yu ": 8948,
  " di dian ": 8949,
  "jiang bei ": 8950,
  "xun zhao ": 8951,
  "guo ji ji chang ": 8952,
  "wang si ": 8953,
  " yi er ": 8954,
  "guo wu yuan ": 8955,
  "wu zhong de ": 8956,
  " di liu ": 8957,
  "ju da de ": 8958,
  " ji xing ": 8959,
  " li gong ": 8960,
  "wang zi ": 8961,
  " de shi wu ": 8962,
  "zhe jiang sheng ": 8963,
  "   5 yue ": 8964,
  "zhe yu ": 8965,
  " shen": 8966,
  "zheng qi ": 8967,
  " zai jin ": 8968,
  " chu ren ": 8969,
  "ya zhi ": 8970,
  "ru yi ": 8971,
  "huang shi ": 8972,
  "jia meng ": 8973,
  "zu xie ": 8974,
  "shan dong sheng ": 8975,
  " huai": 8976,
  " shi ba ": 8977,
  "wang shang ": 8978,
  "guang fan": 8979,
  "zheng shi qi ": 8980,
  " san shi ": 8981,
  "ti chu le ": 8982,
  "z ": 8983,
  " ke li ": 8984,
  "song de ": 8985,
  "ming ju ren ": 8986,
  "yin yong ": 8987,
  "huo yun ": 8988,
  "an zhuang": 8989,
  "yao gun": 8990,
  "a li ": 8991,
  "   shen ": 8992,
  "sheng bu ": 8993,
  "xiao you ": 8994,
  "la er ": 8995,
  "xian zhang ": 8996,
  "bao zha ": 8997,
  " 26": 8998,
  "guai ": 8999,
  " shi ji de ": 9000,
  "ping min ": 9001,
  "lian tong ": 9002,
  "ping jun hai ba gao du wei ": 9003,
  " chun": 9004,
  "si you ": 9005,
  "ll ": 9006,
  "fa sheng de ": 9007,
  "li lun ": 9008,
  "zhan zai ": 9009,
  "du du ": 9010,
  "dan shui ": 9011,
  "yang xian ": 9012,
  "nei zhan ": 9013,
  "xun qiu ": 9014,
  "shao jiang ": 9015,
  "yin zhong zai ": 9016,
  "tai er ": 9017,
  "ru shi ": 9018,
  "shuo de ": 9019,
  " zhe ci ": 9020,
  "zao shou ": 9021,
  "gan su ": 9022,
  " nian qi jian ": 9023,
  " er gai di de ping jun hai ba gao du wei ": 9024,
  "jiang zhong ": 9025,
  "1954 nian ": 9026,
  " li xue ": 9027,
  "gu fen ": 9028,
  "luo zai ": 9029,
  "ma li ya ": 9030,
  "chai you ji ": 9031,
  " bi ye ": 9032,
  " xue sheng ": 9033,
  " han zu ": 9034,
  "2010 nian mei guo ren kou pu cha de shu ju ": 9035,
  "shuo shi xue wei ": 9036,
  "yin zhong zai pei ": 9037,
  "da zai ": 9038,
  "yang zhi ": 9039,
  "qie er ": 9040,
  "shun shi ": 9041,
  "ju ti ": 9042,
  "jiao fu ": 9043,
  "wen hua de ": 9044,
  "bo luo ": 9045,
  "x   ": 9046,
  " cui": 9047,
  "ying di ": 9048,
  "dai yu ": 9049,
  "cheng hu ": 9050,
  "bao xian ": 9051,
  "ying zhan ": 9052,
  "qing xiang ": 9053,
  " gai wei ": 9054,
  " an de ": 9055,
  "zuo yu ": 9056,
  "su shi ": 9057,
  " bu neng": 9058,
  "shang dian ": 9059,
  " da xi yang ": 9060,
  "c   ": 9061,
  " ruan": 9062,
  "   2018 nian ": 9063,
  "ban yu ": 9064,
  " gong bu ": 9065,
  "zeng qiang ": 9066,
  "ren gong yin zhong zai pei ": 9067,
  "an zhong ": 9068,
  "yi shi yong ": 9069,
  "fa ling ": 9070,
  "jiang ta ": 9071,
  " kang xi ": 9072,
  " 2000": 9073,
  "na ru ": 9074,
  " bao dao ": 9075,
  "xiang shi di ": 9076,
  "   17": 9077,
  "qing yi ": 9078,
  "suo yi ": 9079,
  "mao xian ": 9080,
  "dai ma ": 9081,
  "ban ci ": 9082,
  " xia": 9083,
  " ji li ": 9084,
  "jiao zuo ": 9085,
  "dian ying de ": 9086,
  " quan zhang ": 9087,
  " na me": 9088,
  " yu ci tong shi ": 9089,
  "5 ge ": 9090,
  "qu zai ": 9091,
  "reng you ": 9092,
  "cheng fen ": 9093,
  "zhu zhai": 9094,
  " da lou ": 9095,
  "shen me ": 9096,
  "ling dao de ": 9097,
  "gui zhou ": 9098,
  " xian dai ": 9099,
  "pan jue ": 9100,
  "   2006": 9101,
  "   tai wan ": 9102,
  "zheng yue ": 9103,
  "ye zhi ": 9104,
  "zhang zai ": 9105,
  " he yue ": 9106,
  "ming jin shi ": 9107,
  "bao chi": 9108,
  "xun huan ": 9109,
  "di yi ren ": 9110,
  "yan jiu sheng ": 9111,
  " mu": 9112,
  " zhen": 9113,
  " n ": 9114,
  "fu gai ": 9115,
  "zheng yu ": 9116,
  "1955 nian ": 9117,
  "dui yuan ": 9118,
  "cai chan ": 9119,
  " fa biao ": 9120,
  " sheng zhang yu ": 9121,
  "zhu ru ": 9122,
  "fa zhan de ": 9123,
  "ben xian ": 9124,
  " ju min ": 9125,
  "can guan ": 9126,
  "hong jun ": 9127,
  "chan sheng le ": 9128,
  " 29": 9129,
  " tuan ": 9130,
  "   Co": 9131,
  "duo fu ": 9132,
  " gong ji ": 9133,
  "xiang zhi ": 9134,
  "zhan he ": 9135,
  "mian yu ": 9136,
  "long sheng ": 9137,
  "dian zi you ": 9138,
  "huo wu ": 9139,
  "xu shu ": 9140,
  "6 ren ": 9141,
  " min": 9142,
  "bi shi ": 9143,
  "te shi ": 9144,
  "wan quan": 9145,
  "te lang ": 9146,
  "tan ding ": 9147,
  "   V": 9148,
  "ya shi ": 9149,
  "fu ze": 9150,
  "ti jiao ": 9151,
  "jun tuan ": 9152,
  "shu qi ": 9153,
  "te yu ": 9154,
  "dou zheng ": 9155,
  "tui chu de ": 9156,
  " ー": 9157,
  "   10 yue ": 9158,
  "gao di ": 9159,
  "zhuang bing du ": 9160,
  "rang ta ": 9161,
  "km ": 9162,
  "jie du shi ": 9163,
  "chang bei ": 9164,
  " bei ke ": 9165,
  " 000 ren ": 9166,
  "su wei ai ": 9167,
  "lu zai ": 9168,
  "zhi chi ": 9169,
  " he pan ": 9170,
  "yin jing ": 9171,
  "shang zhi ": 9172,
  "ci you ": 9173,
  "ping shi ": 9174,
  "hao yu ": 9175,
  "qiang ji ": 9176,
  "1974 nian ": 9177,
  "da bu ": 9178,
  "jian she": 9179,
  "ying dui ": 9180,
  " jia jing ": 9181,
  " ju qing ": 9182,
  " su lian ": 9183,
  "zheng li ": 9184,
  "100 ": 9185,
  "dong ni ": 9186,
  "jiao ke ": 9187,
  " fu lei ": 9188,
  "chu xian le ": 9189,
  "hua sheng dun ": 9190,
  "dong che ": 9191,
  " kai fa ": 9192,
  "sheng zhong ": 9193,
  "zu yu ": 9194,
  "sheng mu ": 9195,
  "yan hua ": 9196,
  "ai guo ": 9197,
  "huan jie ": 9198,
  "fu she ": 9199,
  "dui hua ": 9200,
  "gong he dang ": 9201,
  " cu": 9202,
  " cheng shi ": 9203,
  "ku de ": 9204,
  " you tai ": 9205,
  "jian zao": 9206,
  "chu ru kou ": 9207,
  "bao zheng ": 9208,
  "ai qing ": 9209,
  "ci zhi wai ": 9210,
  " re": 9211,
  "   di": 9212,
  "zhu guo ": 9213,
  "le wei ": 9214,
  " he qi ": 9215,
  " ren zhong gong ": 9216,
  "5 ren ": 9217,
  "ba yue ": 9218,
  " zai gai ": 9219,
  "dao shang ": 9220,
  "jin qiu ": 9221,
  "chong qing ": 9222,
  "N ": 9223,
  "ri yi ": 9224,
  "mo qi ": 9225,
  "you guan ": 9226,
  "shen sheng ": 9227,
  " yin fa ": 9228,
  " shi zhong hua ren min gong he guo ": 9229,
  "zeng jia le ": 9230,
  "ren min dai biao da hui ": 9231,
  " �": 9232,
  "   ling wai ": 9233,
  "ke ren ": 9234,
  "ju bei ": 9235,
  "yin er ": 9236,
  "la yu ": 9237,
  "xia fang ": 9238,
  " guo jia dui ": 9239,
  "chuan di ": 9240,
  "bu luo ": 9241,
  "shen wang ": 9242,
  "gou mai": 9243,
  "ai de hua ": 9244,
  " qiao": 9245,
  "lei wei ": 9246,
  "kang xi ": 9247,
  "chao ting ": 9248,
  " mi de di qu ": 9249,
  "   2017 nian ": 9250,
  "yue wei ": 9251,
  " shi yue ": 9252,
  "xiang mu": 9253,
  "dong gong ": 9254,
  "fen qu ": 9255,
  "luo bo te ": 9256,
  " zhu jian ": 9257,
  "   zong ": 9258,
  "   3 ": 9259,
  "duan yu ": 9260,
  "hang xian ": 9261,
  "kan de ": 9262,
  " nian li ": 9263,
  "han mo de ": 9264,
  "f ": 9265,
  " lang ": 9266,
  " yi xing ": 9267,
  " er hou ": 9268,
  "shou hai ": 9269,
  "xie tiao": 9270,
  "   shang ": 9271,
  "   xiang gang ": 9272,
  "wang you ": 9273,
  "ding zhi ": 9274,
  " yi ri ": 9275,
  " he cheng ": 9276,
  "ge si ": 9277,
  "jiao dao ": 9278,
  "pin lv ": 9279,
  "sheng chan de ": 9280,
  " ju": 9281,
  "fen qi ": 9282,
  "long shi ": 9283,
  "zhu di ": 9284,
  "zi liao": 9285,
  " ke neng shi ": 9286,
  "8 ren ": 9287,
  "   zhan ": 9288,
  "   2016 nian ": 9289,
  " you you ": 9290,
  "shou fei ": 9291,
  "ba la ": 9292,
  "mian shang ": 9293,
  "can mou zhang ": 9294,
  "xun fu ": 9295,
  "1977 nian ": 9296,
  "jian guo ": 9297,
  "cai liao": 9298,
  " xin jia ": 9299,
  " bi ye yu ": 9300,
  " a la ": 9301,
  " cao": 9302,
  "mei zhou": 9303,
  " ling yi fang mian ": 9304,
  "   ri ": 9305,
  "ben ke ": 9306,
  " zhi lu ": 9307,
  " li xin ": 9308,
  "cheng hao ": 9309,
  "kong de ": 9310,
  "ming lu ": 9311,
  "ci da ": 9312,
  "hua ren min gong he ": 9313,
  "nv zhu jue ": 9314,
  " 1938": 9315,
  "na si ": 9316,
  " xi huan ": 9317,
  "dong yuan ": 9318,
  "gao yuan ": 9319,
  " sheng zhang yu hai ba ": 9320,
  " pan": 9321,
  "zhen he ": 9322,
  "pin zhi ": 9323,
  "zhui su ": 9324,
  "hui xiang ": 9325,
  "chang wu": 9326,
  "shou he ": 9327,
  "jiao he ": 9328,
  "qian zai ": 9329,
  "pai de zhu ": 9330,
  " shi jing ": 9331,
  "jie guan ": 9332,
  " zai yu ": 9333,
  "   sui ran ": 9334,
  "du da ": 9335,
  "lou de ": 9336,
  " qi chu ": 9337,
  "qian hou ": 9338,
  "qing xu ": 9339,
  "zai ci ": 9340,
  "fu yin ": 9341,
  "fen xiao ": 9342,
  " tian jin ": 9343,
  " 25": 9344,
  "ri ji ": 9345,
  "fen ji ": 9346,
  "bin shi ": 9347,
  "si tan ": 9348,
  "hai e ": 9349,
  "hu po ": 9350,
  " jian she ": 9351,
  "zhan zheng zhong ": 9352,
  "ye er ": 9353,
  "zhu liu ": 9354,
  "mo luo ": 9355,
  "yin zhi ": 9356,
  "guo qu ": 9357,
  " bu da ": 9358,
  "rong na ": 9359,
  "xing zheng zhen qu ": 9360,
  " gen ju": 9361,
  "han yi ": 9362,
  "da qi ": 9363,
  "yuan ben": 9364,
  " bo chu ": 9365,
  " ma lai xi ya ": 9366,
  "   tai ": 9367,
  " shi zhang ": 9368,
  " li shi de ": 9369,
  "bu ke ": 9370,
  "zong tong": 9371,
  " dong wu ": 9372,
  "e luo si de ": 9373,
  "zhong de yi ": 9374,
  "ye zhong ": 9375,
  "HD   ": 9376,
  "shang jia ": 9377,
  "qing dao ": 9378,
  "an zhao ": 9379,
  "quan wei ": 9380,
  "ming que ": 9381,
  "dui zhen ": 9382,
  "hu dong ": 9383,
  " shi yong zhe ": 9384,
  "lei shi ": 9385,
  "shang le ": 9386,
  "ying jun ": 9387,
  "zhou zhang ": 9388,
  " gan": 9389,
  "xiang zhong ": 9390,
  "xun de ": 9391,
  "fu zhu ren ": 9392,
  "xiang zai ": 9393,
  "ri yu ": 9394,
  "fei yi ": 9395,
  "ceng ren ": 9396,
  "1962 nian ": 9397,
  "ti yan ": 9398,
  "fen lie ": 9399,
  "hou bu jiu ": 9400,
  "yong zhi ": 9401,
  " wei ya ": 9402,
  "gong gao ": 9403,
  " wu xian ": 9404,
  "nv hai ": 9405,
  "pei yang ": 9406,
  " quan qiu ": 9407,
  "ming you ": 9408,
  "bo ke ": 9409,
  "zao xing ": 9410,
  "gui mo de ": 9411,
  " ning": 9412,
  " po ": 9413,
  "jiu ren ": 9414,
  "1971 nian ": 9415,
  "gong shang ": 9416,
  "zhu dong ": 9417,
  "xiang guan": 9418,
  "hui hua ": 9419,
  "zheng duo ": 9420,
  "shang pin ": 9421,
  "zuo zhong ": 9422,
  "yin shua": 9423,
  "9 ren ": 9424,
  " lai": 9425,
  "fa li ya ": 9426,
  "dai yi ": 9427,
  "qing xi ": 9428,
  "suan fa ": 9429,
  "sheng jing ": 9430,
  "fen lan ": 9431,
  "mian lin ": 9432,
  "shui ku ": 9433,
  " qi zhong nan ": 9434,
  "tai wan de ": 9435,
  "   tong ": 9436,
  "chu nian ": 9437,
  "ye wei ": 9438,
  "miao de ": 9439,
  "24 ": 9440,
  " qi you ": 9441,
  " de ren wu ": 9442,
  "mei ri ": 9443,
  "huo yue ": 9444,
  "chan de ": 9445,
  " yu qi ta ": 9446,
  "sheng fu ": 9447,
  "yan wu ": 9448,
  "she hui": 9449,
  " shi yi ji ": 9450,
  " hu nan ": 9451,
  " ke shi ": 9452,
  "   1949": 9453,
  "   lu ": 9454,
  "hou ren ": 9455,
  "cheng zhang ": 9456,
  "le gai ": 9457,
  "gan jue ": 9458,
  " re ": 9459,
  "tong zhong ": 9460,
  "du yi ": 9461,
  "27 ": 9462,
  " bu lai ": 9463,
  "zhen ya ": 9464,
  "ti yu guan ": 9465,
  "yi shi jian ": 9466,
  "er you ": 9467,
  "jian li de ": 9468,
  "dong yi ": 9469,
  " bu zu ": 9470,
  "qian ru ": 9471,
  "qing shao nian ": 9472,
  "su dan ": 9473,
  "gang yuan ": 9474,
  " xi ban ya yu ": 9475,
  " chan ": 9476,
  " she li ": 9477,
  " zui da ": 9478,
  "   fei ": 9479,
  "   The   ": 9480,
  "dang he ": 9481,
  "na er ": 9482,
  "shen cha ": 9483,
  "mian ji he ": 9484,
  " dong jing ": 9485,
  " 15 ": 9486,
  " diao": 9487,
  "   De": 9488,
  "dui li ": 9489,
  " he he ": 9490,
  " qian mi ": 9491,
  " xie": 9492,
  "an ren ": 9493,
  "jie zai ": 9494,
  "jie wei zhi ": 9495,
  "fa zhong ": 9496,
  "da duo shu ": 9497,
  "sheng xia ": 9498,
  "mei mei ": 9499,
  "nv yan yuan ": 9500,
  " guo min dang ": 9501,
  "xia xia de yi ge xiang ": 9502,
  " 2004": 9503,
  "cha li ": 9504,
  "fou ren ": 9505,
  " shi gu ": 9506,
  "wei yu ": 9507,
  " yu you ": 9508,
  "shou ling ": 9509,
  "duo ming ": 9510,
  "quan qiu": 9511,
  "kai mu ": 9512,
  " de yi si ": 9513,
  "mou sha ": 9514,
  "a ji ": 9515,
  " JR": 9516,
  " gu shi ": 9517,
  "zai   ": 9518,
  "shu you ": 9519,
  "yong jiu ": 9520,
  "liang ce ": 9521,
  " yi cheng ": 9522,
  " zhi zheng ": 9523,
  "tong wang ": 9524,
  "shen shang ": 9525,
  "gu dong ": 9526,
  " ti chu ": 9527,
  " mu qian shang wei you ": 9528,
  " 1998 nian ": 9529,
  "la li ": 9530,
  "su da ": 9531,
  "jian dao ": 9532,
  "dan yuan ": 9533,
  "nan fei ": 9534,
  " nian 12 yue 31 ri ": 9535,
  " shi zhong xin ": 9536,
  "xiang gang de ": 9537,
  " 1 yue ": 9538,
  "chuang shi ren ": 9539,
  " you xing ": 9540,
  "xi si ": 9541,
  "tian ran": 9542,
  "O ": 9543,
  "   2021 nian ": 9545,
  "huo dong de ": 9546,
  "hai jun": 9547,
  " bao gao ": 9548,
  " dan yi ": 9549,
  "er   ": 9550,
  "le liang ": 9551,
  "la te ": 9552,
  "han lin ": 9553,
  "di yi bu ": 9554,
  " wan ping fang ": 9555,
  "fu luo li da ": 9556,
  " ba li ": 9557,
  " mu qian shang wei you ren gong yin zhong zai pei ": 9558,
  "1936 nian ": 9559,
  "wai guan ": 9560,
  " zi liao ": 9561,
  "can yu le ": 9562,
  "xian de yi ge xing zheng zhen qu ": 9563,
  "shen ji ": 9564,
  "ze yi ": 9565,
  "bi ya": 9566,
  " can": 9567,
  " bu shi ": 9568,
  "1963 nian ": 9569,
  "ke xue": 9570,
  "an pai": 9571,
  "tian huang ": 9572,
  "   gao ": 9573,
  "   bo ": 9574,
  "wu zai ": 9575,
  "ming he ": 9576,
  "1973 nian ": 9577,
  " zai na li ": 9578,
  " ren jiao ": 9579,
  "zhu da ": 9580,
  " qi qi ": 9581,
  "fang cheng ": 9582,
  "bian hao wei ": 9583,
  "chuang xin ": 9584,
  "wu li xue ": 9585,
  " 21": 9586,
  "zhang li ": 9587,
  "chou bei ": 9588,
  "1959 nian ": 9589,
  "ming ci ": 9590,
  "cai wu ": 9591,
  " zhou nian ": 9592,
  " 80": 9593,
  " Co": 9594,
  " se ": 9595,
  "   4 yue ": 9596,
  "1941 nian ": 9597,
  "chong man ": 9598,
  "he yi ge ": 9599,
  "tui xing ": 9600,
  "he ping ": 9601,
  "ju chang ": 9602,
  " gai di de ": 9603,
  " zhe bu ": 9604,
  "bian yu ": 9605,
  " xi jin ": 9606,
  " zhe ye shi ": 9607,
  " mi de ": 9608,
  " ha er ": 9609,
  "   pu ": 9610,
  "tai da ": 9611,
  "kan fa ": 9612,
  " zai ren ": 9613,
  "yuan qu ": 9614,
  "jiao zong ": 9615,
  "sai bai ": 9616,
  "zao qi de ": 9617,
  "jing ji xue ": 9618,
  " ke neng hui ": 9619,
  "   yue": 9620,
  "mi shi ": 9621,
  "yin ji ": 9622,
  "xun shi ": 9623,
  " ren min": 9624,
  " da chen ": 9625,
  "yin zi ": 9626,
  "du jia ": 9627,
  "che dao ": 9628,
  "gu wu ": 9629,
  "nei meng gu ": 9630,
  "la ge ": 9631,
  "lian meng de ": 9632,
  " yuan": 9633,
  " gui": 9634,
  "   e": 9635,
  "dian yu ": 9636,
  "zhou fu ze guan xia ": 9637,
  " er zhe ": 9638,
  "shou hui ": 9639,
  "ru jing ": 9640,
  " gong jin ": 9641,
  "   ge ren sheng huo ": 9642,
  " 1999 nian ": 9644,
  "zeng zhi ": 9645,
  "codice ": 9646,
  "dao qian ": 9647,
  " dan ye ": 9648,
  "   ye ": 9649,
  "bu wei yu ": 9650,
  "zhen di ": 9651,
  "lun si ": 9652,
  "bu man ": 9653,
  "xiang bei ": 9654,
  " nian 7 yue 1 ri ": 9655,
  "   7 yue ": 9656,
  "xia yu ": 9657,
  "tuo fu ": 9658,
  " shi xiang gang ": 9659,
  "ti gong de ": 9660,
  "wang chao": 9661,
  " ka er ": 9662,
  " ke li si ": 9663,
  "you   ": 9664,
  "xia zhi ": 9665,
  "niu si ": 9666,
  "ne sheng ": 9667,
  "sheng ge wei ": 9668,
  "xue yuan de ": 9669,
  "jiao yu ji ": 9670,
  "Y ": 9671,
  " xing shi ": 9672,
  "jin zhong ": 9673,
  "duan qi ": 9674,
  " zhi yao ": 9675,
  "xin zeng ": 9676,
  " X": 9677,
  "fang he ": 9678,
  "tian fu ": 9679,
  " li you ": 9680,
  " xi yuan ": 9681,
  "zhu yao shi ": 9682,
  "1939 nian ": 9683,
  " li qi ": 9684,
  " bing mei you ": 9685,
  "ting yun ": 9686,
  "   jin guan ": 9687,
  " pa ": 9688,
  "50 ": 9689,
  "II ": 9690,
  "sheng xiao ": 9691,
  "xin sheng ": 9692,
  "dui ta ": 9693,
  "shui shen ": 9694,
  " yuan xing ": 9695,
  " yan chang ": 9696,
  " zha": 9697,
  "jiang he ": 9698,
  "nuo si ": 9699,
  "fu hua ": 9700,
  "gai ming ": 9701,
  "ba nen": 9702,
  "ka luo lai na ": 9703,
  "xin yu ": 9704,
  "lao gong ": 9705,
  " zai ta de ": 9706,
  "jin xing": 9707,
  " qing chao ": 9708,
  " shi nan ji zhou de ": 9709,
  " yi xie": 9710,
  "tian tang ": 9711,
  "kai fa de ": 9712,
  "   6": 9713,
  "zhong shi ji ": 9714,
  "qian wei ": 9715,
  " yue lai yue ": 9716,
  "zhu long ": 9717,
  "xiang lian ": 9718,
  "   quan ": 9719,
  "han shi ": 9720,
  " zhi chi": 9721,
  "zhan zheng de ": 9722,
  "shou dao le ": 9723,
  "o   ": 9724,
  " hui yi ": 9725,
  "hou guo ": 9726,
  "yan li ": 9727,
  "huo yi ": 9728,
  "liang jia ": 9729,
  "wai ji ": 9730,
  "1965 nian ": 9731,
  "gong zuo de ": 9732,
  "si xing ": 9733,
  "si fa ": 9734,
  "jia zhou ": 9735,
  "min jin ": 9736,
  "ni ya de ": 9737,
  "li yong ": 9738,
  " 55": 9739,
  "huan xiang ": 9740,
  "1967 nian ": 9741,
  "dian nao ": 9742,
  "zong dui ": 9743,
  " jie wei ": 9744,
  "   8 yue ": 9745,
  "jing xi ": 9746,
  "cha ju ": 9747,
  "jin shan ": 9748,
  "ci hui ": 9749,
  "ya zhou": 9750,
  "zui duo de ": 9751,
  " li shi xue jia ": 9752,
  "pei xun ": 9753,
  " bu": 9754,
  "   gu shi ": 9755,
  "du zhi ": 9756,
  "qian yu ": 9757,
  "feng yu ": 9758,
  "1944 nian ": 9759,
  "fu jia ": 9760,
  "zi gong si ": 9761,
  "dian chi ": 9762,
  "   jiu ": 9763,
  "   la ": 9764,
  "1953 nian ": 9765,
  "hou fang ": 9766,
  "yan xu ": 9767,
  "bo la ": 9768,
  " gong gong ": 9769,
  "ying de le ": 9770,
  "mian ji he ren kou ": 9771,
  " she": 9772,
  "dao li ": 9773,
  "qian li ": 9774,
  "31 ": 9775,
  "ling yu de ": 9776,
  "nian dai ": 9777,
  "zhan zheng qi jian ": 9778,
  "   dui yu ": 9779,
  "ni shi ": 9780,
  "zhen ren ": 9781,
  "da xue de ": 9782,
  "ge ci ": 9783,
  " de ji shu ": 9784,
  "jiang su sheng ": 9785,
  "nan ren ": 9786,
  "wang yi ": 9787,
  "la di ": 9788,
  "ba sai ": 9789,
  "lan se ": 9790,
  " ou": 9791,
  " 75": 9792,
  "gai zhi ": 9793,
  "che li ": 9794,
  "ce qi ": 9795,
  "hang xing ": 9796,
  "fa biao": 9797,
  " da bu ": 9798,
  " gai cun": 9799,
  " ming chao ": 9800,
  " jing nei ": 9801,
  " bo luo ": 9802,
  " gai di de mian ji he ren kou ": 9803,
  " gai di de mian ji he ren kou jie wei zhi ": 9804,
  "6 ge ": 9805,
  "   mu qian ": 9806,
  "ha de ": 9807,
  "wei ji ": 9808,
  "hou lai": 9809,
  "ci shu ": 9810,
  "hei long jiang ": 9811,
  " yi shu jia ": 9812,
  "   you xi ": 9813,
  "   2015 nian ": 9814,
  "pei de ": 9815,
  "1930 nian ": 9816,
  "zhong xue ": 9817,
  "xuan chuan": 9818,
  "dang xuan wei ": 9819,
  " M ": 9820,
  " 36": 9821,
  "wei shi jie ": 9822,
  " shi zheng ": 9823,
  "er bei ": 9824,
  " fu ze": 9825,
  "lei he ": 9826,
  "jiang zui jia ": 9827,
  "zong jing li ": 9828,
  "tu an ": 9829,
  "ting kao ": 9830,
  "zheng xie wei yuan ": 9831,
  "r   ": 9832,
  " jun shi ": 9833,
  " guan zhi ": 9834,
  " lei ji ": 9835,
  "an fu ": 9836,
  "   jian li ": 9837,
  "shou er ": 9838,
  "zhuang wei ": 9839,
  "chui zhi ": 9840,
  "qu dong ": 9841,
  "tong chang": 9842,
  " qian long ": 9843,
  " ding": 9844,
  "di liu ": 9845,
  " bu lu ": 9846,
  "jiang zhe ": 9847,
  "dang an ": 9848,
  " wan cheng ": 9849,
  "zheng fu yu ": 9850,
  "mei er ": 9851,
  "jia qiang ": 9852,
  "shang su ": 9853,
  "zong shu ": 9854,
  " ci ci ": 9855,
  " wan mei ": 9856,
  " tong ri ": 9857,
  "   yi xia ": 9858,
  " fan dui ": 9859,
  " fen bie wei ": 9860,
  "jia li fu ni ya zhou ": 9861,
  " com": 9862,
  " zhan di ": 9863,
  " yi ti ": 9864,
  "gai jin ": 9865,
  "an xian ": 9866,
  "sai che ": 9867,
  " tong zhi ": 9868,
  "si zhong ": 9869,
  "lu wei ": 9870,
  "chuan yue ": 9871,
  "yan sheng ": 9872,
  "lu duan ": 9873,
  " sheng cheng ": 9874,
  " hai jun ": 9875,
  "nong chang ": 9876,
  " 2003": 9877,
  "   jian zhu ": 9878,
  "   2014 nian ": 9879,
  "fu zhong ": 9880,
  "dong zhi ": 9881,
  "mei yi ": 9882,
  "te zai ": 9883,
  "sui de ": 9884,
  "sui zhi ": 9885,
  "kuai de ": 9886,
  "jia na ": 9887,
  "qu zi ": 9888,
  "jiu du yu ": 9889,
  " shi ji yu ": 9890,
  "xiu ding ": 9891,
  " s": 9892,
  "   12": 9893,
  "xin he ": 9894,
  "jian dan ": 9895,
  " qi yong ": 9896,
  "tong xue ": 9897,
  "zhou bian": 9898,
  "gu lao de ": 9899,
  "liu liang ": 9900,
  "zi xing che ": 9901,
  "5 mi ": 9902,
  " 1940": 9903,
  "li yi ": 9904,
  "cheng yi ge ": 9905,
  "ri shi ": 9906,
  "jiao ji ": 9907,
  "1935 nian ": 9908,
  "xiang dao ": 9909,
  "fen cheng ": 9910,
  " ke lai ": 9911,
  "pu cha ": 9912,
  "zui zhong yao de ": 9913,
  " ceng jing ": 9914,
  "   9 yue ": 9915,
  "shan yu ": 9916,
  "zhu shou ": 9917,
  "nan min ": 9918,
  " bi xu ": 9919,
  "ge yue hou ": 9920,
  "zhe ji ": 9921,
  "xiang jiao ": 9922,
  "chi jing ": 9923,
  " hua sheng ": 9924,
  "fa sheng le ": 9925,
  " zhuo": 9926,
  "   2020 nian ": 9927,
  "ba ta ": 9928,
  "suan de ": 9929,
  "zhu guan ": 9930,
  "yin ni ": 9931,
  "ping heng ": 9932,
  "du te de ": 9933,
  "   zhi zuo ": 9934,
  " R ": 9935,
  "   che zhan jie gou ": 9936,
  "   10": 9937,
  "si yue ": 9938,
  "xia er ": 9939,
  " bu he ": 9940,
  "qu nei ": 9941,
  "shang fang ": 9942,
  "mi du ": 9943,
  "lin sheng ": 9944,
  "e hai e ": 9945,
  "ka fei ": 9946,
  "w ": 9947,
  "   huo ": 9948,
  "jin cheng ": 9949,
  "zheng jiao ": 9950,
  "tou ru": 9951,
  "hui yi shang ": 9952,
  " D ": 9953,
  "   6 ": 9954,
  " zai ri ben ": 9955,
  "zi sha ": 9956,
  " dan bu ": 9957,
  " er he ": 9958,
  "fang di ": 9959,
  "mu ji ": 9960,
  "2025 nian ": 9961,
  "jin rong ": 9962,
  "ying ge lan": 9963,
  " da qiao ": 9964,
  " li fa hui ": 9965,
  " heng": 9966,
  " ga": 9967,
  "sheng ren min zheng fu ": 9968,
  "jin nian ": 9969,
  "zuo he ": 9970,
  " er lai ": 9971,
  "   mu ": 9972,
  "ya si ": 9973,
  " zai nan ": 9974,
  "fu bu zhang ": 9975,
  "jian chi ": 9976,
  "bei mei ": 9977,
  "fang xing ": 9978,
  "bao fu ": 9979,
  "mian qian ": 9980,
  " mi zhi ": 9981,
  "luo fa ke ": 9982,
  " Re": 9983,
  "ju feng": 9984,
  " qi zhong you ": 9985,
  "   Mo": 9986,
  "kuang jia ": 9987,
  "jin zhang ": 9988,
  "ying guo de ": 9989,
  " de shi shi ": 9990,
  "   ri ben ": 9991,
  "   6 yue ": 9992,
  "   2013 nian ": 9993,
  "jin qi ": 9994,
  "dui wei ": 9995,
  "zhuan zhi ": 9996,
  "hui jia ": 9997,
  "ju zhu zai ": 9998,
  "ju ju zhang ": 9999,
  "jiu bei ": 10000,
  "chong zu ": 10001,
  "tui fan ": 10002,
  " man": 10003,
  " 90": 10004,
  " 2002": 10005,
  " guan li ": 10006,
  " chong xin ": 10007,
  "   5": 10008,
  "di yi ji ": 10009,
  "bao ji ": 10010,
  "duo bu ": 10011,
  "32 ": 10012,
  "1969 nian ": 10013,
  "yan fa ": 10014,
  "gong chan zhu yi ": 10015,
  "W ": 10016,
  " gou ": 10017,
  "li ke ": 10018,
  "lu xi ": 10019,
  "luo wei ": 10020,
  "yao zai ": 10021,
  " shi tai wan ": 10022,
  " de yi jian ": 10023,
  " zheng ge ": 10024,
  " bing qie zai ": 10025,
  "   yong ": 10026,
  "fei zhi ": 10027,
  "ka de ": 10028,
  " shi si ": 10029,
  "zhan ju ": 10030,
  " zhu xi ": 10031,
  "li liang ": 10032,
  " tai ping ": 10033,
  "cheng li le ": 10034,
  "wu xian dian shi ": 10035,
  " Mi": 10036,
  " Ro": 10037,
  "she li de ": 10038,
  "tai wei ": 10039,
  "dai zhi ": 10040,
  "1961 nian ": 10041,
  "ke xue jia ": 10042,
  "fang bian ": 10043,
  "yan shen zhi ": 10044,
  " da xue de ": 10045,
  " fu gai ": 10046,
  "wan zheng de ": 10047,
  "luo xuan ": 10048,
  " long": 10049,
  " 150": 10050,
  " tui chu ": 10051,
  "ci he ": 10052,
  "ku er ": 10053,
  "1931 nian ": 10054,
  " you he ": 10055,
  "wen ge ": 10056,
  "   X": 10057,
  "   2010 nian ": 10058,
  "yan qi ": 10059,
  "nei si ": 10060,
  "1957 nian ": 10061,
  " shi fu ": 10062,
  " guo fang ": 10063,
  " xi xi ": 10064,
  "zuo le ": 10065,
  "jun bei ": 10066,
  "ming ji ": 10067,
  "shou li ": 10068,
  "zu wei ": 10069,
  "guo fang bu ": 10070,
  " ke la ": 10071,
  "mu jian ": 10072,
  "zhen zheng ": 10073,
  "che tui ": 10074,
  "fei chang": 10075,
  " qin": 10076,
  "mei zhong ": 10077,
  "ban nian ": 10078,
  "shu shu ": 10079,
  "meng te ": 10080,
  "   gen ju 2010 nian mei guo ren kou pu cha de shu ju ": 10081,
  "   8": 10082,
  "   2012 nian ": 10083,
  "shen li ": 10084,
  "reng zai ": 10085,
  "yuan wai ": 10086,
  "liu xue ": 10087,
  "ba le si ": 10088,
  " ceng zai ": 10089,
  "ka li ": 10090,
  "po er ": 10091,
  "wang hou ": 10092,
  "zu zi zhi ": 10093,
  " xian jin ": 10094,
  "hang ban ": 10095,
  " P ": 10096,
  " zhui": 10097,
  " yu yi ": 10098,
  "jiang wei ": 10099,
  "qian qi ": 10100,
  "lai er ": 10101,
  "ben zhi ": 10102,
  "tui li ": 10103,
  "hei ren ": 10104,
  "qian xian ": 10105,
  " i": 10106,
  "yin yue": 10107,
  "chong fu ": 10108,
  "ll   ": 10109,
  "son ": 10110,
  " shi shang ": 10111,
  "sheng jie rang ": 10112,
  "tai shou ": 10113,
  "mei tian ": 10114,
  "liu chuan ": 10115,
  "zhuan huan ": 10116,
  " fei li ": 10117,
  "xiao yi ": 10118,
  "chen de ": 10119,
  "1951 nian ": 10120,
  "zheng wu ": 10121,
  " ri bao ": 10122,
  "qu shi hou ": 10123,
  " jiang xi ": 10124,
  "   16": 10125,
  "mi ji ": 10126,
  "dang ri ": 10127,
  "duo li ": 10128,
  "jian zhu shi ": 10129,
  "jie jie ": 10130,
  "qian lai ": 10131,
  " ke cheng ": 10132,
  "fei fa ": 10133,
  " dao da ": 10134,
  "liao ning": 10135,
  "ta er ": 10136,
  "ri er ": 10137,
  "ck ": 10138,
  "jing qu ": 10139,
  "quan ti ": 10140,
  "tu ran ": 10141,
  "guang fan de ": 10142,
  " wei yuan hui de ": 10143,
  "zheng fu zai ": 10144,
  " zao": 10145,
  "   2005": 10146,
  "   yan ge ": 10147,
  "jin he ": 10148,
  "nan yu ": 10149,
  "zong de ": 10150,
  "1960 nian dai ": 10151,
  "bei qi ": 10152,
  "chong fan ": 10153,
  "xin guan fei yan ": 10154,
  "e er ": 10155,
  " pao": 10156,
  "ti bu ": 10157,
  "pu de ": 10158,
  "rong de ": 10159,
  "hui guan ": 10160,
  "liu ge ": 10161,
  "tu ran": 10162,
  " shi shi zhang ": 10163,
  " fen wei ": 10164,
  "   gai": 10165,
  "che ren ": 10166,
  " yi qing ": 10167,
  "jing yuan ": 10168,
  "tan suo ": 10169,
  "er zhong ": 10170,
  "pan de ": 10171,
  " yi jiao ": 10172,
  "xi lie": 10173,
  "jin si ": 10174,
  "fang xiang de ": 10175,
  "bao an ": 10176,
  "dai ti ": 10177,
  "tu sha ": 10178,
  "mian xiang ": 10179,
  "tuan zhang ": 10180,
  " you de ": 10181,
  "xing zheng dan wei ": 10182,
  " an hui ": 10183,
  " di er ci ": 10184,
  "guan zai ": 10185,
  "liang yu ": 10186,
  "ken ding ": 10187,
  " yi chang ": 10188,
  " ji che ": 10189,
  "cai zheng bu ": 10190,
  "gang tie ": 10191,
  "hang kong gong si ": 10192,
  " shi yi ge wei yu mei guo ": 10193,
  "dao guo ": 10194,
  "tuo er ": 10195,
  "gei ta ": 10196,
  " zhong bei ": 10197,
  "jia er ": 10198,
  "ting zhang ": 10199,
  "ren da dai biao ": 10200,
  "kai qi ": 10201,
  "fan fu ": 10202,
  " ji yi ": 10203,
  "xian bu ": 10204,
  "xin zhi ": 10205,
  "lei yu ": 10206,
  "cun yu ": 10207,
  "fu qi ": 10208,
  "fa jue ": 10209,
  "le xu duo ": 10210,
  " liu yu mian ji ": 10211,
  "wan qi ": 10212,
  "ben ji ": 10213,
  "che xing ": 10214,
  "shao you ": 10215,
  "1942 nian ": 10216,
  "1933 nian ": 10217,
  "ren min": 10218,
  " bing biao shi ": 10219,
  " zhu chi ": 10220,
  " kua": 10221,
  "ying he ": 10222,
  "zhao shi ": 10223,
  "1928 nian ": 10224,
  "zhu chi ren ": 10225,
  "bian zu ": 10226,
  " gong lu ": 10227,
  " gen ju 2020 nian mei guo ren kou pu cha de shu ju ": 10228,
  "ben bu ": 10229,
  " da di ": 10230,
  "huo qu ": 10231,
  "duo xiang ": 10232,
  " ye ke yi ": 10233,
  "tao wang ": 10234,
  " fen bie shi ": 10235,
  " 34": 10236,
  "   tang ": 10237,
  "zuo ji ": 10238,
  "fan ji ": 10239,
  "nv you ": 10240,
  "qiao de ": 10241,
  "ke sa si ": 10242,
  "cheng dan ": 10243,
  "bo yin ": 10244,
  "sai guan jun ": 10245,
  "feng ge de ": 10246,
  "hang zhan ": 10247,
  "xin xi lan ": 10248,
  " 20 ": 10249,
  "   Pro": 10250,
  "   zui ": 10251,
  "   fa guo ": 10252,
  "nian de ": 10253,
  "fu si ": 10254,
  " jia ru": 10255,
  " de yi wei ": 10256,
  "zhuan qu ": 10257,
  "tou shou ": 10258,
  "guan wei ": 10259,
  "gu yi ": 10260,
  "10 nian ": 10261,
  " ji xu": 10262,
  " qi hou yu ": 10263,
  "shang jiang ": 10264,
  "xiao she ": 10265,
  " ta jiang ": 10266,
  "cai pan ": 10267,
  "huo de de ": 10268,
  " Q": 10269,
  "   2011 nian ": 10270,
  "ma qi ": 10271,
  "huan wei ": 10272,
  "th   ": 10273,
  "zhong hai ": 10274,
  " er ci ": 10275,
  " xi si ": 10276,
  "fen xiang ": 10277,
  " yun nan ": 10278,
  "   ru ": 10279,
  "fen shi ": 10280,
  "tai yi ": 10281,
  "th ": 10282,
  "gong she ": 10283,
  "shou ming ": 10284,
  "ye na ": 10285,
  "qing yuan ": 10286,
  "xue shi xue wei ": 10287,
  " 39": 10288,
  "ze de ": 10289,
  "gang de ": 10290,
  "shun xu ": 10291,
  "di mian ": 10292,
  "ge ti ": 10293,
  "jie xia ": 10294,
  "qian ze ": 10295,
  " yin wei ta ": 10296,
  " qu": 10297,
  " 2023 nian ": 10298,
  "jing bu ": 10299,
  "ting he ": 10300,
  "ceng bei ": 10301,
  "jie ru ": 10302,
  "dian liu ": 10303,
  "ping ding ": 10304,
  " dan zhe ": 10305,
  " shi shi yi ": 10306,
  " xin zeng": 10307,
  " 1997 nian ": 10308,
  "qing he ": 10309,
  "fei shi ": 10310,
  "bai xing ": 10311,
  " shi xi ban ya ": 10312,
  "zuo ye ": 10313,
  " si ling bu ": 10314,
  "mei guo yi ": 10315,
  " ying xiang ": 10316,
  "ke neng xing ": 10317,
  "ya mei ni ya ": 10318,
  " rui": 10319,
  "   bai ": 10320,
  "dou bu ": 10321,
  "mao de ": 10322,
  "40 ": 10323,
  "cheng gong de ": 10324,
  "hua mian ": 10325,
  "dan xin ": 10326,
  "duo lun ": 10327,
  "wai jie ": 10328,
  " jie fang ": 10329,
  "qiang da de ": 10330,
  " De": 10331,
  " hou yu ": 10332,
  "le zhi ": 10333,
  "pan chu ": 10334,
  "fa er ": 10335,
  "fa bu de ": 10336,
  "yin jin ": 10337,
  "nv wang ": 10338,
  "ting shi ": 10339,
  "feng suo ": 10340,
  "chuang zao": 10341,
  "wang yuan jing ": 10342,
  " bang zhu ": 10343,
  "cha er si ": 10344,
  "1912 nian ": 10345,
  "yan zou": 10346,
  "dan du ": 10347,
  "guan li": 10348,
  "yong di ": 10349,
  "wen yu ": 10350,
  "wan nian ": 10351,
  "zhong hua ": 10352,
  "guan xi de ": 10353,
  "shen ru ": 10354,
  " tong shi ye ": 10355,
  " ren kou de ": 10356,
  "yu de guo ": 10357,
  "lin yu ": 10358,
  " li jing ": 10359,
  "gong zhan ": 10360,
  "shou huan ying ": 10361,
  "tiao wen ": 10362,
  "yong he ": 10363,
  "san de ": 10364,
  "san yue ": 10365,
  "sha shi ": 10366,
  "he bei ": 10367,
  "jie shou": 10368,
  "bi sai de ": 10369,
  "xie dai ": 10370,
  " sheng huo ": 10371,
  " ri yi ": 10372,
  " mian ji 0": 10373,
  " ao da li ya ": 10374,
  " 46": 10375,
  "   wen hua ": 10376,
  "ting ji ": 10377,
  " shi ke ": 10378,
  " wei da ": 10379,
  "xian zai de ": 10380,
  " fu er ": 10381,
  "shui mian ": 10382,
  " jie jin ": 10383,
  " jie gou ": 10384,
  "dian ying jie ": 10385,
  "hu lian wang ": 10386,
  "yi de shi ": 10387,
  "ge   ": 10388,
  "zu shi ": 10389,
  "huang he ": 10390,
  "di tie ": 10391,
  "jian shao": 10392,
  "jing nei de ": 10393,
  "zong zhan ": 10394,
  "ba ge ": 10395,
  " yi ji zai ": 10396,
  "fa ren ": 10397,
  "pen ": 10398,
  "wu ren ji ": 10399,
  "zhu zhai ": 10400,
  "fen shu ": 10401,
  "su song ": 10402,
  "shan ding ": 10403,
  " shi shi de ": 10404,
  "zuo pin de ": 10405,
  " 70": 10406,
  "   guan ": 10407,
  "da lu": 10408,
  " da qi ": 10409,
  "jun jian ": 10410,
  "she hui de ": 10411,
  " chuang": 10412,
  " zeng": 10413,
  " а": 10414,
  " guo li ": 10415,
  "   dian ": 10416,
  "1927 nian ": 10417,
  "di da ": 10418,
  "tong bao ": 10419,
  "wen si ": 10420,
  "ti qu ": 10421,
  "hang zhou ": 10422,
  " hu bei ": 10423,
  "zhou de yi ge shi zhen ": 10424,
  "lu wa ": 10425,
  "su she ": 10426,
  " dao lu ": 10427,
  " ge guo ": 10428,
  " lu wa er sheng ": 10429,
  " nu": 10430,
  "zun zhong ": 10431,
  " li nian ": 10432,
  "ti cai ": 10433,
  "bo chu de ": 10434,
  "duo yuan ": 10435,
  "yan jiu zhong xin ": 10436,
  " shi xing deng wei ": 10437,
  " fu": 10438,
  " kuai ": 10439,
  " yuan shi ": 10440,
  " zhong yu ": 10441,
  "te si ": 10442,
  "qian xia ": 10443,
  " jing fang ": 10444,
  "ren kou pu cha ": 10445,
  "a gen ting ": 10446,
  " tan": 10447,
  "le xi ": 10448,
  "dang bu ": 10449,
  "shen he ": 10450,
  "ca ": 10451,
  "tian wen xue ": 10452,
  "ba fa li ya ": 10453,
  "pai lie ": 10454,
  " ao men ": 10455,
  " xue": 10456,
  "shen qi ": 10457,
  "fan da xue ": 10458,
  "ting yu ": 10459,
  "1943 nian ": 10460,
  "wu bu ": 10461,
  "cheng shu ": 10462,
  "liang hao ": 10463,
  "shen fu ": 10464,
  "ran liao ": 10465,
  " 000 ": 10466,
  " 400": 10467,
  " La": 10468,
  "jiu yue ": 10469,
  "jiao gao ": 10470,
  " zi xing ": 10471,
  "xing zheng qu hua ": 10472,
  " guang xu ": 10473,
  "a er bei si ": 10474,
  "re dai qi xuan ": 10475,
  "duo si ": 10476,
  "ceng you ": 10477,
  "jia xiang ": 10478,
  "shu fa ": 10479,
  "qian yin ": 10480,
  "jiang xue ": 10481,
  "du zi ": 10482,
  "ban ben de ": 10483,
  "mei ti": 10484,
  "duo guan ": 10485,
  " dan yu ": 10486,
  "ge lun bi ya ": 10487,
  " nuo": 10488,
  "bi yu ": 10489,
  "1932 nian ": 10490,
  "1929 nian ": 10491,
  " wei zai ": 10492,
  " ji xie ": 10493,
  " zhong yao de ": 10494,
  " yue tuan": 10495,
  "qu bie ": 10496,
  "tong yang": 10497,
  " de yi ci ": 10498,
  "nei rui ": 10499,
  " xian shi you ": 10500,
  " 2001": 10501,
  "zhi   ": 10502,
  "ben shu ": 10503,
  "sha tian ": 10504,
  " zai shi ": 10505,
  " yao": 10506,
  " si shi ": 10507,
  " heng li ": 10508,
  "tong qi ": 10509,
  "bu zai ": 10510,
  "di fen ": 10511,
  " bu yao ": 10512,
  "qu mu ": 10513,
  "pu luo ": 10514,
  "pan luan ": 10515,
  " chi wei ": 10516,
  "   ai ": 10517,
  "yin you ": 10518,
  "is   ": 10519,
  " zai wu ": 10520,
  " xian lu ": 10521,
  "yi shi dao ": 10522,
  " 300": 10523,
  "   ling ": 10524,
  "zu ji ": 10525,
  "gong zi ": 10526,
  " da ban ": 10527,
  " zhe zuo ": 10528,
  " hou you ": 10529,
  "miao yu ": 10530,
  "1924 nian ": 10531,
  " you xi de ": 10532,
  "xian dao ": 10533,
  "shou cang": 10534,
  "zhuan ji de ": 10535,
  "wo men": 10536,
  " fei lv ": 10537,
  "   wei le ": 10538,
  "gong chan dang": 10539,
  "   zuo wei ": 10540,
  "   4 ": 10541,
  "   he   ": 10542,
  "bo ji ": 10543,
  "1934 nian ": 10544,
  " zhi ci ": 10545,
  "zhong gong ": 10546,
  "xin zhu ": 10547,
  "bing wu ": 10548,
  "di yi bai ": 10549,
  "ke yi tong guo ": 10550,
  "shuo fu ": 10551,
  "jie lun ": 10552,
  "jin hui ": 10553,
  " di ren ": 10554,
  "zu xian ": 10555,
  " de yi ji ": 10556,
  "han gai ": 10557,
  " 11 ": 10558,
  "dian shi jie mu ": 10559,
  "tu shi ": 10560,
  "tao yuan ": 10561,
  "sa de ": 10562,
  "sheng hui ": 10563,
  "xue tang ": 10564,
  "fang zhen ": 10565,
  "ti qian ": 10566,
  " de yi xiang ": 10567,
  " chu ci zhi wai ": 10568,
  "quan guo zhong dian ": 10569,
  "luo ma di guo ": 10570,
  " bi de ": 10571,
  "qi li ": 10572,
  " yi xian ": 10573,
  "yuan jian ": 10574,
  "ke lei ": 10575,
  "dai lai de ": 10576,
  " zi ran ": 10577,
  " zuo biao wei ": 10578,
  "tian wen tai ": 10579,
  "   hai ": 10580,
  "yong qi ": 10581,
  "nv ren ": 10582,
  "da xuan ": 10583,
  "jing bei ": 10584,
  "fang cheng shi ": 10585,
  "yang zi ": 10586,
  "zong ju ": 10587,
  "ting zhan ": 10588,
  "sha bai ": 10589,
  "qiang hua ": 10590,
  "   2008 nian ": 10591,
  "jing tou ": 10592,
  "hua gui ": 10593,
  " si hou ": 10594,
  "e hua ": 10595,
  "meng jun ": 10596,
  "mao dun ": 10597,
  " tong shi ye shi ": 10598,
  "J ": 10599,
  " HR": 10600,
  " chao guo ": 10601,
  "lu er ": 10602,
  "fan shi ": 10603,
  "dui fu ": 10604,
  "ru qiu ": 10605,
  " zhu yao shi ": 10606,
  "zang yu ": 10608,
  "CD ": 10609,
  "zi wo ": 10610,
  "ye zhan ": 10611,
  "ban quan ": 10612,
  "liu dong ": 10613,
  "zong guan ": 10614,
  " bing fei ": 10615,
  "zhao gu ": 10616,
  "tao wan ": 10617,
  " shang shu ": 10618,
  " 38": 10619,
  "qu di ": 10620,
  "ying zhi ": 10621,
  "te wei ": 10622,
  "nei yi ": 10623,
  "ci ci ": 10624,
  " shi shi shi ": 10625,
  " de di san ": 10626,
  " de guo cheng ": 10627,
  " wo men": 10628,
  "ci shi jie da zhan qi jian ": 10629,
  "   wan ": 10630,
  "qiu he ": 10631,
  "ting dao ": 10632,
  "zhu fang ": 10633,
  "zhu quan ": 10634,
  "ri chang ": 10635,
  "xia xia ": 10636,
  "zhuan bian ": 10637,
  "tuo luo ": 10638,
  " de ji ben ": 10639,
  " 37": 10640,
  "   jing li ": 10641,
  "tu si ": 10642,
  "zhuan li ": 10643,
  "fu xian ": 10644,
  "huo che zhan ": 10645,
  "liang an ": 10646,
  "kao cha ": 10647,
  "ta you ": 10648,
  "te zhi ": 10649,
  "kai er ": 10650,
  " zhong guo de ": 10651,
  "zhan qu ": 10652,
  " ke lei ": 10653,
  "dang xuan": 10654,
  "chan wu ": 10655,
  " E ": 10656,
  " SAO": 10657,
  "   guo ji ": 10658,
  "jue wei ": 10659,
  " yu lei ": 10660,
  "xiang dong ": 10661,
  "cun zai yu ": 10662,
  "ce lve ": 10663,
  "8 ge ": 10664,
  "zhe you ": 10665,
  "wen di ": 10666,
  "fan er ": 10667,
  "pu si ": 10668,
  "run ": 10669,
  " ji ke ": 10670,
  "bu duan ": 10671,
  " guo jia": 10672,
  "xian ming ": 10673,
  "hou dai ": 10674,
  "fang xian ": 10675,
  "min zu zhu yi ": 10676,
  "bao fa hou ": 10677,
  "bai he ": 10678,
  "wu pin ": 10679,
  " er ta ": 10680,
  " jia er ": 10681,
  "duo qu ": 10682,
  " bing cheng ": 10683,
  "tong zhi zhe ": 10684,
  "mei guo ren kou pu cha ": 10685,
  " di qi ya ": 10686,
  "   for   ": 10687,
  "   hong ": 10688,
  "shu di ": 10689,
  "dong he ": 10690,
  "wen bu ": 10691,
  "or   ": 10692,
  "he lan ": 10693,
  "jian ce ": 10694,
  "wu er ": 10695,
  "jia su ": 10696,
  "hui she ": 10697,
  "xue xiao de ": 10698,
  "hua fen ": 10699,
  "mo fang ": 10700,
  "po lun ": 10701,
  "5 gong li ": 10702,
  " ying de ": 10703,
  "   ya ": 10704,
  "ze bei ": 10705,
  "chi dao ": 10706,
  " zhong da ": 10707,
  "yuan sheng ": 10708,
  "fu ze ren ": 10709,
  "jing ling ": 10710,
  "fan gong ": 10711,
  "cai fang ": 10712,
  "1 ri qi ": 10713,
  "rong liang ": 10714,
  " tai bei ": 10715,
  "mou xie": 10716,
  " 23": 10717,
  " bo shi ": 10718,
  "ke   ": 10719,
  "ya zai ": 10720,
  "guo cheng zhong ": 10721,
  "ge la si ": 10722,
  "fa da ": 10723,
  "ai hao ": 10724,
  "pian duan ": 10725,
  " 12 ": 10726,
  "2 li ": 10727,
  " 1994 nian ": 10728,
  "fa zai ": 10729,
  "gu er ": 10730,
  "bang di ": 10731,
  "diao yu ": 10732,
  " shi e luo si ": 10733,
  " guo du ": 10734,
  " qi yue ": 10735,
  "hua bei ": 10736,
  "fen pei": 10737,
  " a er bei ": 10738,
  " F ": 10739,
  " peng ": 10740,
  "   fen lei ": 10741,
  "zhi de yi ": 10742,
  "qu de yi ge ": 10743,
  "20 nian ": 10744,
  "le he ": 10745,
  "guan li de ": 10746,
  "nan xi ": 10747,
  "qing li ": 10748,
  "luo he ": 10749,
  "niu yue shi ": 10750,
  "al ": 10751,
  "di dian ": 10752,
  "fa xian": 10753,
  "ti gong": 10754,
  " jin er ": 10755,
  "se cai ": 10756,
  "xian de fei jian zhi di qu ": 10757,
  " gai shi ": 10758,
  "yu yi ge ": 10759,
  "   zhen ": 10760,
  "qiu yi ": 10761,
  "reng wei ": 10762,
  " guo jun ": 10763,
  "jue se de ": 10764,
  "er de ming ": 10765,
  "0 zuo biao wei ": 10766,
  " Li": 10767,
  "yi   ": 10768,
  "hua er ": 10769,
  "te ren ": 10770,
  "gan shi ": 10771,
  "tang he ": 10772,
  "tao li ": 10773,
  "jia shang ": 10774,
  " qi B1900": 10775,
  "ming cheng wei ": 10776,
  " wei yu yin jing ": 10777,
  " wei wu er ": 10778,
  "0 zuo biao wei chi jing ": 10779,
  "wen zhi ": 10780,
  "nan zhi ": 10781,
  "luo er ": 10782,
  "fu nv ": 10783,
  "dong ya ": 10784,
  "nan bu de ": 10785,
  "lian sai de ": 10786,
  "suo wei de ": 10787,
  " li shi hui ": 10788,
  "dian shi dong hua ": 10789,
  " zong tong ": 10790,
  " yin ci zai ": 10791,
  " ン": 10792,
  "   bi ": 10793,
  "da ren ": 10794,
  "dui da ": 10795,
  "pu ji ": 10796,
  "bu hui ": 10797,
  "cheng xiang ": 10798,
  " shi ji zhong ": 10799,
  " qing chao zheng zhi ren wu ": 10800,
  " zou": 10801,
  "   11 yue ": 10802,
  "mo li ": 10803,
  "shui zhong ": 10804,
  "geng shi ": 10805,
  "sen de ": 10806,
  "sang shi ": 10807,
  "yuan xiao ": 10808,
  "sheng huo de ": 10809,
  "chu sai ": 10810,
  "zu qiu lian sai ": 10811,
  " guo min zheng fu ": 10812,
  "   7": 10813,
  "   san ": 10814,
  "gong dian ": 10815,
  " xi zhou ": 10816,
  "yin dao ": 10817,
  " fu lang ": 10818,
  " dong hua ": 10819,
  "   che zhan gou zao ": 10820,
  " fa bu ": 10821,
  "   2022 nian ": 10822,
  "jiang pai ": 10823,
  "mi qie ": 10824,
  "xuan yan ": 10825,
  "hen da de ": 10826,
  "biao xian chu ": 10827,
  " J ": 10828,
  " 1945": 10829,
[...]
