{
  "!": 0,
  "\"": 1,
  "#": 2,
  "$": 3,
  "%": 4,
  "&": 5,
  "'": 6,
  "(": 7,
  ")": 8,
  "*": 9,
  "+": 10,
  ",": 11,
  "-": 12,
  ".": 13,
  "/": 14,
  "0": 15,
  "1": 16,
  "2": 17,
  "3": 18,
  "4": 19,
  "5": 20,
  "6": 21,
  "7": 22,
  "8": 23,
  "9": 24,
  ":": 25,
  ";": 26,
  "=": 27,
  "?": 28,
  "@": 29,
  "A": 30,
  "B": 31,
  "C": 32,
  "D": 33,
  "E": 34,
  "F": 35,
  "G": 36,
  "H": 37,
  "I": 38,
  "J": 39,
  "K": 40,
  "L": 41,
  "M": 42,
  "N": 43,
  "O": 44,
  "P": 45,
  "Q": 46,
  "R": 47,
  "S": 48,
  "T": 49,
  "U": 50,
  "V": 51,
  "W": 52,
  "X": 53,
  "Y": 54,
  "Z": 55,
  "[": 56,
  "\\": 57,
  "]": 58,
  "^": 59,
  "_": 60,
  "`": 61,
  "a": 62,
  "b": 63,
  "c": 64,
  "d": 65,
  "e": 66,
  "f": 67,
  "g": 68,
  "h": 69,
  "i": 70,
  "j": 71,
  "k": 72,
  "l": 73,
  "m": 74,
  "n": 75,
  "o": 76,
  "p": 77,
  "q": 78,
  "r": 79,
  "s": 80,
  "t": 81,
  "u": 82,
  "v": 83,
  "w": 84,
  "x": 85,
  "y": 86,
  "z": 87,
  "|": 88,
  "~": 89,
  "�": 113,
  "\n": 162,
  " ": 163,
  "": 164,
  "ng": 199,
  "an": 200,
  "sh": 201,
  "zh": 202,
  "ji": 203,
  "ang": 204,
  "  ": 205,
  "ong": 206,
  "xi": 207,
  "ao": 208,
  "ai": 209,
  "de": 210,
  "ei": 211,
  "shi": 212,
  "yu": 213,
  "ou": 214,
  "yi": 215,
  "en": 216,
  "ch": 217,
  "ian": 218,
  "uo": 219,
  "eng": 220,
  "li": 221,
  "   ": 222,
  "ing": 224,
  "ui": 225,
  "wei": 226,
  "uan": 227,
  "zhi": 228,
  "qi": 229,
  "nian": 230,
  "zhong": 231,
  "you": 232,
  "ren": 233,
  "un": 234,
  "zai": 235,
  "di": 236,
  "guo": 237,
  "、": 238,
  "he": 239,
  "bu": 240,
  "er": 241,
  "gong": 242,
  "xing": 243,
  "cheng": 244,
  "da": 245,
  "zhu": 246,
  "hu": 247,
  "yuan": 248,
  "si": 249,
  "jian": 250,
  "yue": 251,
  "ge": 252,
  "fu": 253,
  "xian": 254,
  "ue": 255,
  "ke": 256,
  "wu": 257,
  "chu": 258,
  "shu": 259,
  "sheng": 260,
  "jie": 261,
  "jia": 262,
  "bi": 263,
  "dao": 264,
  "zi": 265,
  "bei": 266,
  "hui": 267,
  "fa": 268,
  "xiang": 269,
  "ti": 270,
  "zheng": 271,
  "mi": 272,
  "ta": 273,
  "jin": 274,
  "qu": 275,
  "20": 276,
  "tong": 277,
  "ri": 278,
  "ju": 279,
  "jing": 280,
  "ming": 281,
  "le": 282,
  "hou": 283,
  "shang": 284,
  "shou": 285,
  "dong": 286,
  "ci": 287,
  "fang": 288,
  "19": 289,
  "hua": 290,
  "yin": 291,
  "xue": 292,
  "guan": 293,
  "zhan": 294,
  "ye": 295,
  "ying": 296,
  "zuo": 297,
  "zhe": 298,
  "yan": 299,
  "mei": 300,
  "jiao": 301,
  "gu": 302,
  "chang": 303,
  "xin": 304,
  "dui": 305,
  "lu": 306,
  "bing": 307,
  "bao": 308,
  "fen": 309,
  "dan": 310,
  "huo": 311,
  "jun": 312,
  "jiang": 313,
  "du": 314,
  "xiao": 315,
  "dian": 316,
  "yong": 317,
  "qian": 318,
  "she": 319,
  "tai": 320,
  "xia": 321,
  "mu": 322,
  "wen": 323,
  "gai": 324,
  "zhang": 325,
  "liang": 326,
  "ya": 327,
  "ru": 328,
  "dai": 329,
  "hai": 330,
  "nan": 331,
  "zhou": 332,
  "zu": 333,
  "wang": 334,
  "lai": 335,
  "ban": 336,
  "jiu": 337,
  "dang": 338,
  "qing": 339,
  "ping": 340,
  "shen": 341,
  "》": 342,
  "《": 343,
  "wan": 344,
  "lian": 345,
  "ling": 346,
  "luo": 347,
  "·": 348,
  "min": 349,
  "quan": 350,
  "pi": 351,
  "ni": 352,
  "bo": 353,
  "duo": 354,
  "te": 355,
  "ben": 356,
  "gao": 357,
  "biao": 358,
  "suo": 359,
  "la": 360,
  "ma": 361,
  "kai": 362,
  "ba": 363,
  "xie": 364,
  "xu": 365,
  "bian": 366,
  "deng": 367,
  "yao": 368,
  "yang": 369,
  "mian": 370,
  "zhen": 371,
  "ding": 372,
  "qiu": 373,
  "zui": 374,
  "sai": 375,
  "liu": 376,
  "fan": 377,
  "xuan": 378,
  "fei": 379,
  "san": 380,
  "shan": 381,
  "che": 382,
  "zong": 383,
  "men": 384,
  "「": 385,
  "」": 386,
  "tu": 387,
  "tian": 388,
  "hao": 389,
  "su": 390,
  "lei": 391,
  "nei": 392,
  "yun": 393,
  "201": 394,
  "lan": 395,
  "feng": 396,
  "mo": 397,
  "na": 398,
  "ze": 399,
  "lv": 400,
  "han": 401,
  "kou": 402,
  "wai": 403,
  "neng": 404,
  "lin": 405,
  "chuan": 406,
  "chi": 407,
  "jue": 408,
  "bai": 409,
  "pai": 410,
  "200": 411,
  "ku": 412,
  "cai": 413,
  "zao": 414,
  "ting": 415,
  "zhuan": 416,
  "gang": 417,
  "lie": 418,
  "guang": 419,
  "gui": 420,
  "lun": 421,
  "sui": 422,
  "pu": 423,
  "ceng": 424,
  "kong": 425,
  "shui": 426,
  "10": 427,
  "chao": 428,
  "zhuang": 429,
  "cha": 430,
  "dou": 431,
  "can": 432,
  "tou": 433,
  "ran": 434,
  "se": 435,
  "duan": 436,
  "cun": 437,
  "huan": 438,
  "cong": 439,
  "pin": 440,
  "ce": 441,
  "chan": 442,
  "xun": 443,
  "gou": 444,
  "00": 445,
  "nv": 446,
  "zhao": 447,
  "gan": 448,
  "chong": 449,
  "sha": 450,
  "tan": 451,
  "18": 452,
  "qin": 453,
  "ka": 454,
  "meng": 455,
  "qiang": 456,
  "huang": 457,
  "xiu": 458,
  "12": 459,
  "tiao": 460,
  "man": 461,
  "shao": 462,
  "kuo": 463,
  "long": 464,
  "pian": 465,
  "shuo": 466,
  "tuan": 467,
  "tang": 468,
  "rong": 469,
  "geng": 470,
  "202": 471,
  "chen": 472,
  "tui": 473,
  "gen": 474,
  "que": 475,
  "tie": 476,
  "11": 477,
  "qie": 478,
  "wo": 479,
  "po": 480,
  "pei": 481,
  "hang": 482,
  "hong": 483,
  "199": 484,
  "bang": 485,
  "liao": 486,
  "chuang": 487,
  "bie": 488,
  "re": 489,
  "tuo": 490,
  "tao": 491,
  "song": 492,
  "wa": 493,
  "mai": 494,
  "ha": 495,
  "15": 496,
  "pan": 497,
  "dun": 498,
  "diao": 499,
  "qiao": 500,
  "sa": 501,
  "mao": 502,
  "lang": 503,
  "kan": 504,
  "kang": 505,
  "or": 507,
  "lao": 508,
  "zeng": 509,
  "16": 510,
  "198": 511,
  "kao": 512,
  "xiong": 513,
  "17": 514,
  "on": 515,
  "nuo": 516,
  "miao": 517,
  "rang": 518,
  "kuang": 519,
  "hen": 520,
  "suan": 521,
  "14": 522,
  "30": 523,
  "zhun": 524,
  "13": 525,
  "194": 526,
  "cao": 527,
  "hun": 528,
  "qun": 529,
  "nong": 530,
  "197": 531,
  "heng": 532,
  "shuang": 533,
  "lou": 534,
  "gei": 535,
  "kuai": 536,
  "piao": 537,
  "zha": 538,
  "hei": 539,
  "niu": 540,
  "195": 541,
  "sen": 542,
  "bin": 543,
  "reng": 544,
  "zou": 545,
  "196": 546,
  "chun": 547,
  "kuan": 548,
  "25": 549,
  "—": 550,
  "rui": 551,
  "sun": 552,
  "pao": 553,
  "ning": 554,
  "for": 555,
  "pa": 556,
  "cang": 557,
  "mou": 558,
  "24": 559,
  "peng": 560,
  "huai": 561,
  "21": 562,
  "193": 563,
  "23": 564,
  "mula": 565,
  "formula": 566,
  "28": 567,
  "zan": 568,
  "ruo": 569,
  "in": 570,
  "22": 571,
  "chou": 572,
  "zhui": 573,
  "ar": 574,
  "me": 575,
  "26": 576,
  "50": 577,
  "2020": 578,
  "27": 579,
  "nai": 580,
  "nu": 581,
  "29": 583,
  "shun": 584,
  "2010": 585,
  "za": 586,
  "000": 587,
  "lve": 588,
  "zhai": 589,
  "2019": 590,
  "ne": 591,
  "ro": 592,
  "juan": 593,
  "st": 594,
  "ra": 595,
  "cui": 596,
  "kun": 597,
  "2016": 598,
  "luan": 599,
  "2018": 600,
  "cuo": 601,
  "2021": 602,
  "zang": 603,
  "2014": 604,
  "shuai": 605,
  "2011": 606,
  "2015": 607,
  "2017": 608,
  "2012": 609,
  "40": 610,
  "2013": 611,
  "nao": 612,
  "2022": 613,
  "die": 614,
  "ruan": 615,
  "kui": 616,
  "lt": 617,
  "rou": 618,
  "cu": 619,
  "sang": 620,
  "2009": 621,
  "2008": 622,
  "60": 624,
  "niao": 625,
  "al": 626,
  "rao": 627,
  "chai": 628,
  "100": 629,
  "zhuo": 630,
  "2023": 631,
  "gt": 632,
  "sou": 633,
  "190": 634,
  "31": 635,
  "ken": 636,
  "2007": 637,
  "2001": 638,
  "teng": 639,
  "pang": 640,
  "fou": 641,
  "co": 642,
  "fo": 643,
  "gua": 644,
  "2000": 645,
  "80": 646,
  "2006": 647,
  "2024": 648,
  "2005": 650,
  "zun": 651,
  "tion": 652,
  "kua": 653,
  "the": 654,
  "35": 655,
  "70": 656,
  "nie": 657,
  "lo": 658,
  "of": 659,
  "90": 660,
  "leng": 661,
  "－": 662,
  "am": 664,
  "tun": 665,
  "ter": 666,
  "mie": 667,
  "2004": 668,
  "th": 669,
  "to": 670,
  "45": 671,
  "48": 672,
  "mang": 673,
  "2025": 674,
  "ve": 675,
  "ga": 676,
  "〉": 677,
  "〈": 678,
  "36": 679,
  "38": 680,
  "2003": 681,
  "37": 682,
  "Ma": 683,
  "chui": 684,
  "pen": 685,
  "ll": 686,
  "189": 687,
  "IN": 688,
  "2002": 689,
  "keng": 690,
  "TC": 691,
  "do": 692,
  "34": 693,
  "75": 694,
  "–": 695,
  "Co": 696,
  "46": 697,
  "ca": 698,
  "1990": 699,
  "…": 700,
  "ck": 701,
  "39": 702,
  "..": 703,
  "be": 704,
  "65": 705,
  "32": 706,
  "ST": 707,
  "47": 708,
  "UTC": 709,
  "1999": 710,
  "1998": 711,
  "1980": 712,
  "188": 713,
  "500": 714,
  "33": 715,
  "In": 716,
  "64": 717,
  "ss": 718,
  "The": 719,
  "vi": 720,
  "SE": 721,
  "55": 722,
  "1997": 723,
  "Re": 724,
  "hi": 725,
  "49": 726,
  "II": 727,
  "el": 728,
  "68": 729,
  "et": 730,
  "44": 731,
  "1996": 732,
  "oo": 733,
  "qiong": 734,
  "1994": 735,
  "gun": 736,
  "br": 737,
  "guai": 738,
  "1992": 739,
  "1995": 740,
  "Mi": 741,
  "67": 742,
  "and": 743,
  "sao": 744,
  "es": 745,
  "1991": 746,
  "1970": 747,
  "58": 748,
  "1950": 749,
  "300": 750,
  "1993": 751,
  "187": 752,
  "1949": 753,
  "at": 754,
  "AT": 755,
  "pe": 756,
  "1960": 757,
  "42": 758,
  "1945": 759,
  "Li": 760,
  "ver": 761,
  "qia": 762,
  "1988": 763,
  "ty": 764,
  "1989": 765,
  "69": 766,
  "Ro": 767,
  "is": 768,
  "run": 769,
  "SEE": 770,
  "niang": 771,
  "INSEE": 772,
  "ho": 773,
  "59": 774,
  "43": 775,
  "66": 776,
  "57": 777,
  "1985": 778,
  "99": 779,
  "SA": 780,
  "『": 781,
  "』": 782,
  "ct": 783,
  "1984": 784,
  "41": 785,
  "88": 786,
  "1986": 787,
  "wi": 788,
  "ol": 789,
  "ws": 790,
  "TV": 791,
  "ry": 792,
  "150": 793,
  "Me": 794,
  "nd": 795,
  "400": 796,
  "1987": 797,
  "78": 798,
  "1982": 799,
  "56": 800,
  "beng": 801,
  "Vi": 802,
  "Pa": 803,
  "ts": 804,
  "1983": 805,
  "amp": 806,
  "NA": 807,
  "De": 808,
  "CD": 809,
  "gh": 810,
  "fi": 811,
  "weng": 812,
  "ber": 813,
  "77": 814,
  "Win": 815,
  "per": 816,
  "zuan": 817,
  "Sta": 818,
  "79": 819,
  "OS": 820,
  "Wi": 821,
  "°": 822,
  "der": 824,
  "180": 825,
  "BC": 826,
  "54": 827,
  "1979": 828,
  "61": 829,
  "1920": 830,
  "as": 831,
  "Mo": 832,
  "seng": 833,
  "98": 834,
  "52": 835,
  "You": 836,
  "1978": 837,
  "no": 838,
  "62": 839,
  "53": 840,
  "ly": 841,
  "shua": 842,
  "La": 843,
  "～": 844,
  "BA": 845,
  "1946": 846,
  "CO": 847,
  "51": 848,
  "1958": 849,
  "gi": 850,
  "Jo": 851,
  "1981": 852,
  "1972": 853,
  "1948": 854,
  "Le": 855,
  "tw": 856,
  "AM": 857,
  "63": 858,
  "AR": 859,
  "ction": 860,
  "1941": 861,
  "BS": 862,
  "Ga": 863,
  "1930": 864,
  "Da": 865,
  "Pro": 866,
  "Te": 867,
  "76": 868,
  "hans": 869,
  "1940": 870,
  "1937": 871,
  "1976": 872,
  "1944": 873,
  "Ja": 874,
  "89": 875,
  "us": 876,
  "Di": 877,
  "Windo": 878,
  "1975": 879,
  "／": 880,
  "1968": 881,
  "hk": 882,
  "con": 883,
  "Fi": 884,
  "um": 885,
  "Si": 886,
  "1000": 887,
  "Windows": 888,
  "95": 889,
  "87": 890,
  "nal": 891,
  "Mar": 892,
  "1966": 893,
  "rd": 894,
  "85": 895,
  "Ne": 896,
  "Ra": 897,
  "ki": 898,
  "600": 899,
  "120": 900,
  "1947": 901,
  "Se": 902,
  "AC": 903,
  "1956": 904,
  "1964": 905,
  "Be": 906,
  "1942": 907,
  "é": 908,
  "1955": 909,
  "1952": 910,
  "IS": 911,
  "ad": 912,
  "1939": 913,
  "1938": 914,
  "72": 915,
  "ur": 916,
  "74": 917,
  "Ca": 918,
  "va": 919,
  "1973": 920,
  "1974": 921,
  "1954": 922,
  "Ar": 923,
  "Al": 924,
  "ED": 925,
  "1900": 926,
  "--": 927,
  "AP": 928,
  "1943": 929,
  "To": 930,
  "1977": 931,
  "ld": 932,
  "1971": 933,
  "cen": 934,
  "lay": 935,
  "1967": 936,
  "Ba": 937,
  "IC": 938,
  "800": 939,
  "Po": 940,
  "Lo": 941,
  "ER": 942,
  "zhua": 943,
  "sta": 944,
  "86": 945,
  "1959": 946,
  "Bo": 947,
  "tt": 948,
  "1965": 949,
  "JR": 950,
  "1969": 951,
  "Fa": 952,
  "・": 953,
  "×": 954,
  "ID": 955,
  "Bi": 956,
  "son": 957,
  "1936": 958,
  "160": 959,
  "97": 960,
  "1953": 961,
  "Sa": 962,
  "MA": 963,
  "1962": 964,
  "1961": 965,
  "nen": 966,
  "Na": 967,
  "So": 969,
  "1935": 970,
  "com": 971,
  "Ho": 972,
  "tic": 973,
  "96": 974,
  "ON": 975,
  "％": 976,
  "1951": 977,
  "St": 978,
  "1957": 979,
  "1963": 980,
  "Tu": 981,
  "─": 982,
  "fe": 983,
  "so": 984,
  "ment": 985,
  "84": 986,
  "Hi": 987,
  "2026": 988,
  "82": 989,
  "Do": 990,
  "mer": 991,
  "Ri": 992,
  "73": 993,
  "nt": 994,
  "94": 995,
  "92": 996,
  "Ki": 997,
  "Ha": 998,
  "nang": 999,
  "one": 1000,
  "IP": 1001,
  "AN": 1002,
  "ls": 1003,
  "1933": 1004,
  "1931": 1005,
  "les": 1006,
  "71": 1007,
  "nuan": 1008,
  "Com": 1009,
  "83": 1010,
  "93": 1011,
  "ted": 1012,
  "Su": 1013,
  "81": 1014,
  "Ti": 1015,
  "Mu": 1016,
  "1918": 1017,
  "Ni": 1018,
  "HD": 1019,
  "Uni": 1020,
  "1928": 1021,
  "pp": 1022,
  "1932": 1023,
  "Cha": 1024,
  "We": 1025,
  "ys": 1026,
  "MV": 1027,
  "SS": 1028,
  "110": 1029,
  "IT": 1030,
  "1912": 1031,
  "No": 1032,
  "1929": 1033,
  "1927": 1034,
  "1934": 1035,
  "cn": 1036,
  "700": 1037,
  "go": 1038,
  "zei": 1039,
  "ght": 1040,
  "ster": 1041,
  "250": 1042,
  "91": 1043,
  "rt": 1044,
  "lli": 1045,
  "1924": 1046,
  "ris": 1047,
  "...": 1048,
  "1919": 1049,
  "nve": 1050,
  "130": 1051,
  "Pi": 1052,
  "1925": 1053,
  "Gi": 1054,
  "PS": 1055,
  "by": 1056,
  "ed": 1057,
  "mes": 1058,
  "An": 1059,
  "PC": 1060,
  "140": 1061,
  "AS": 1062,
  "Play": 1063,
  "1914": 1064,
  "km": 1065,
  "DV": 1066,
  "tio": 1067,
  "YouTu": 1068,
  "SM": 1069,
  "ble": 1070,
  "gra": 1071,
  "ko": 1072,
  "1911": 1073,
  "Con": 1074,
  "Ch": 1075,
  "lla": 1076,
  "1926": 1077,
  "lle": 1078,
  "Ge": 1079,
  "Par": 1080,
  "id": 1081,
  "Ta": 1082,
  "1922": 1083,
  "Lin": 1084,
  "mp": 1085,
  "1917": 1086,
  "He": 1087,
  "Ka": 1088,
  "ET": 1089,
  "NBA": 1090,
  "wn": 1091,
  "IV": 1092,
  "EN": 1093,
  "1923": 1094,
  "1921": 1095,
  "shai": 1096,
  "Goo": 1097,
  "chuo": 1098,
  "170": 1099,
  "EC": 1101,
  "MS": 1102,
  "ali": 1103,
  "AL": 1104,
  "ph": 1105,
  "section": 1106,
  "YouTube": 1107,
  "EP": 1108,
  "BL": 1109,
  "1913": 1110,
  "Car": 1111,
  "Bu": 1112,
  "zen": 1113,
  "HK": 1114,
  "we": 1115,
  "hn": 1116,
  "mm": 1117,
  "ven": 1118,
  "hant": 1119,
  "1909": 1121,
  "sion": 1122,
  "Inter": 1123,
  "cro": 1124,
  "MP": 1125,
  "AI": 1126,
  "Wor": 1127,
  "Pe": 1128,
  "ds": 1129,
  "US": 1130,
  "pro": 1131,
  "DVD": 1132,
  "ok": 1133,
  "3000": 1134,
  "En": 1135,
  "1910": 1136,
  "DS": 1137,
  "RO": 1138,
  "cou": 1139,
  "Ste": 1140,
  "sis": 1141,
  "112": 1142,
  "Go": 1143,
  "rk": 1144,
  "AK": 1145,
  "RE": 1146,
  "1916": 1147,
  "Wa": 1148,
  "lia": 1149,
  "ー": 1150,
  "Station": 1151,
  "For": 1152,
  "Net": 1153,
  "ff": 1154,
  "α": 1155,
  "oft": 1156,
  "ine": 1157,
  "den": 1158,
  "lor": 1159,
  "rea": 1160,
  "tional": 1161,
  "gn": 1162,
  "ture": 1163,
  "gle": 1164,
  "CP": 1165,
  "UN": 1166,
  "ard": 1168,
  "1915": 1169,
  "gin": 1170,
  "1905": 1171,
  "ps": 1172,
  "FC": 1173,
  "cal": 1174,
  "vo": 1175,
  "dia": 1176,
  "My": 1177,
  "CN": 1178,
  "→": 1180,
  "our": 1181,
  "ers": 1182,
  "1901": 1183,
  "ent": 1184,
  "Au": 1185,
  "DNA": 1186,
  "Ex": 1187,
  "‧": 1188,
  "900": 1189,
  "end": 1190,
  "HR": 1191,
  "dice": 1192,
  ".&": 1193,
  "ther": 1194,
  "tal": 1195,
  "CH": 1196,
  "TA": 1197,
  "TO": 1198,
  "1906": 1199,
  "1904": 1200,
  "AV": 1201,
  "tes": 1202,
  "MO": 1203,
  "jiong": 1204,
  "John": 1205,
  "my": 1206,
  "eri": 1207,
  "codice": 1208,
  "Man": 1209,
  "℃": 1210,
  "dy": 1211,
  "PlayStation": 1212,
  "Chi": 1213,
  "05": 1214,
  "CC": 1215,
  "tive": 1216,
  "diu": 1217,
  "And": 1218,
  "1907": 1219,
  "dio": 1220,
  "1908": 1221,
  "Google": 1222,
  "AG": 1223,
  "Ci": 1224,
  "EST": 1225,
  "MI": 1226,
  "SO": 1227,
  "LE": 1228,
  "sic": 1229,
  "ree": 1230,
  "BO": 1231,
  "int": 1232,
  "wit": 1233,
  "BBC": 1234,
  "Sch": 1235,
  "AD": 1236,
  "IG": 1237,
  "land": 1238,
  "III": 1239,
  "cri": 1240,
  "ton": 1241,
  "1500": 1242,
  "5000": 1243,
  "cy": 1244,
  "round": 1245,
  "wer": 1246,
  "IST": 1247,
  "ms": 1248,
  "ron": 1249,
  "ME": 1250,
  "CR": 1251,
  "ul": 1252,
  "3D": 1253,
  "je": 1254,
  "IA": 1255,
  "ley": 1256,
  "105": 1257,
  "au": 1258,
  "а": 1259,
  "ria": 1260,
  "101": 1261,
  "1903": 1262,
  "tor": 1263,
  "GB": 1264,
  "van": 1265,
  "09": 1266,
  "TE": 1267,
  "Lu": 1268,
  "1902": 1269,
  "BD": 1270,
  "NC": 1271,
  "Pri": 1272,
  "Fe": 1273,
  "xt": 1274,
  "350": 1275,
  "pou": 1276,
  "á": 1277,
  "SAO": 1278,
  "des": 1279,
  "DC": 1280,
  "ja": 1281,
  "β": 1282,
  "cke": 1283,
  "B1900": 1284,
  "book": 1285,
  "hat": 1286,
  "ES": 1287,
  "all": 1288,
  "BM": 1289,
  "．": 1290,
  "ン": 1291,
  "Ru": 1292,
  "ner": 1293,
  "1898": 1294,
  "res": 1295,
  "06": 1296,
  "118": 1297,
  "op": 1298,
  "の": 1299,
  "360": 1300,
  "DR": 1301,
  "New": 1302,
  "01": 1303,
  "DA": 1304,
  "Hu": 1305,
  "Open": 1306,
  "1895": 1307,
  "ger": 1308,
  "125": 1309,
  "Sho": 1310,
  "HO": 1311,
  "MC": 1312,
  "San": 1313,
  "ATP": 1314,
  "Micro": 1315,
  "ctor": 1316,
  "о": 1317,
  "108": 1318,
  "ft": 1319,
  "cor": 1320,
  "os": 1321,
  "NG": 1322,
  "Ke": 1323,
  "clu": 1324,
  "gy": 1325,
  "gram": 1326,
  "pri": 1327,
  "ward": 1328,
  "sty": 1329,
  "IF": 1330,
  "Cu": 1331,
  "Fran": 1332,
  "One": 1333,
  "net": 1334,
  "soft": 1335,
  "ker": 1336,
  "pt": 1337,
  "−": 1338,
  "07": 1339,
  "08": 1340,
  "230": 1341,
  "Face": 1342,
  "104": 1343,
  "pace": 1344,
  "lspan": 1345,
  "Cor": 1346,
  "Per": 1347,
  "Bar": 1348,
  "World": 1349,
  "App": 1350,
  "EDT": 1351,
  "ISTAT": 1352,
  "cuan": 1353,
  "Love": 1354,
  "Ko": 1355,
  "Har": 1357,
  "NO": 1358,
  "Stu": 1359,
  "1896": 1360,
  "LL": 1361,
  "ux": 1362,
  "109": 1363,
  "DP": 1364,
  "las": 1365,
  "AA": 1366,
  "fli": 1367,
  "RI": 1368,
  "Ju": 1369,
  "pha": 1370,
  "Ser": 1371,
  "lus": 1372,
  "line": 1373,
  "RT": 1374,
  "tri": 1375,
  "SP": 1376,
  "EX": 1377,
  "B48": 1378,
  "106": 1379,
  "1890": 1380,
  "rai": 1381,
  "sti": 1382,
  "mon": 1383,
  "CST": 1384,
  "ML": 1385,
  "od": 1386,
  "uni": 1387,
  "CDT": 1388,
  "bert": 1389,
  "Je": 1390,
  "rs": 1391,
  "rus": 1392,
  "red": 1393,
  "DO": 1394,
  "Pu": 1395,
  "ky": 1396,
  "HE": 1397,
  "Cou": 1398,
  "ation": 1399,
  "Mon": 1400,
  "04": 1401,
  "4000": 1402,
  "115": 1403,
  "1200": 1404,
  "M1": 1405,
  "Pre": 1406,
  "03": 1407,
  "ler": 1408,
  "GP": 1409,
  "del": 1410,
  "CE": 1411,
  "ā": 1412,
  "Live": 1413,
  "begin": 1414,
  "1889": 1415,
  "ool": 1416,
  "Davi": 1417,
  "with": 1418,
  "ara": 1419,
  "1899": 1420,
  "colspan": 1421,
  "tain": 1422,
  "back": 1423,
  "1871": 1424,
  "RS": 1425,
  "sto": 1426,
  "Facebook": 1427,
  "Ed": 1428,
  "Sha": 1429,
  "Microsoft": 1430,
  "mic": 1431,
  "tem": 1432,
  "​": 1433,
  "240": 1434,
  "1600": 1435,
  "LO": 1436,
  "Tri": 1437,
  "ten": 1438,
  "tin": 1439,
  "BE": 1440,
  "low": 1441,
  "102": 1442,
  "box": 1443,
  "clude": 1444,
  "Ad": 1445,
  "TT": 1446,
  "1897": 1447,
  "Sou": 1448,
  "ser": 1449,
  "NH": 1450,
  "EE": 1451,
  "Du": 1452,
  "ces": 1453,
  "PP": 1454,
  "117": 1455,
  "SC": 1456,
  "val": 1457,
  "02": 1458,
  "por": 1459,
  "cm": 1460,
  "Mac": 1461,
  "style": 1462,
  "Che": 1463,
  "rst": 1464,
  "103": 1465,
  "AKB48": 1466,
  "Dan": 1467,
  "MD": 1468,
  "Nor": 1469,
  "Ph": 1470,
  "107": 1471,
  "ral": 1472,
  "Her": 1473,
  "On": 1474,
  "pre": 1475,
  "ring": 1476,
  "As": 1477,
  "are": 1478,
  "Willi": 1479,
  "tel": 1480,
  "Linux": 1481,
  "lis": 1482,
  "Ori": 1483,
  "ww": 1484,
  "Dis": 1485,
  "shuan": 1486,
  "gue": 1487,
  "mas": 1488,
  "450": 1489,
  "Ber": 1490,
  "VID": 1491,
  "127": 1492,
  "Music": 1493,
  "Is": 1494,
  "Ai": 1495,
  "Gre": 1496,
  "cer": 1497,
  "ü": 1498,
  "tus": 1499,
  "Vo": 1500,
  "tra": 1501,
  "128": 1502,
  "flix": 1503,
  "CL": 1504,
  "Netflix": 1505,
  "Bro": 1506,
  "yo": 1507,
  "1894": 1508,
  "Game": 1509,
  "220": 1510,
  "Can": 1511,
  "Gra": 1512,
  "nin": 1513,
  "ref": 1514,
  "н": 1515,
  "William": 1516,
  "Bri": 1517,
  "IL": 1518,
  "align": 1519,
  "SH": 1520,
  "bli": 1521,
  "ory": 1522,
  "Or": 1523,
  "Twit": 1524,
  "1880": 1525,
  "Red": 1526,
  "old": 1527,
  "í": 1528,
  "RNA": 1529,
  "136": 1530,
  "PG": 1531,
  "и": 1532,
  "い": 1533,
  "rom": 1534,
  "TR": 1535,
  "Team": 1536,
  "1800": 1537,
  "ス": 1538,
  "Univer": 1539,
  "ground": 1540,
  "ia": 1541,
  "1885": 1542,
  "len": 1543,
  "114": 1544,
  "ん": 1545,
  "Hz": 1546,
  "color": 1547,
  "Gen": 1548,
  "Ty": 1549,
  "116": 1550,
  "280": 1551,
  "UR": 1552,
  "ple": 1553,
  "е": 1554,
  "113": 1555,
  "1886": 1556,
  "ein": 1557,
  "イ": 1558,
  "TS": 1559,
  "PO": 1560,
  "1893": 1561,
  "lar": 1562,
  "ex": 1563,
  "rn": 1564,
  "yn": 1565,
  "Mc": 1566,
  "name": 1567,
  "111": 1568,
  "SL": 1569,
  "Super": 1571,
  "She": 1572,
  "stra": 1573,
  "All": 1574,
  "Gu": 1575,
  "cial": 1576,
  "lass": 1577,
  "※": 1578,
  "David": 1579,
  "135": 1580,
  "ject": 1581,
  "Ac": 1582,
  "260": 1583,
  "Cen": 1584,
  "Eu": 1585,
  "lf": 1586,
  "1860": 1587,
  "port": 1588,
  "ham": 1589,
  "Geor": 1590,
  "cho": 1591,
  "national": 1592,
  "Char": 1593,
  "Un": 1594,
  "WTA": 1595,
  "lver": 1596,
  "dge": 1597,
  "work": 1598,
  "HC": 1599,
  "Th": 1600,
  "tro": 1601,
  "School": 1602,
  "Ban": 1603,
  "ks": 1604,
  "sso": 1605,
  "tch": 1606,
  "tis": 1607,
  "1888": 1608,
  "Mor": 1609,
  "qui": 1610,
  "text": 1611,
  "SD": 1612,
  "ó": 1613,
  "-.": 1614,
  "UA": 1615,
  "roup": 1616,
  "lly": 1617,
  "cation": 1618,
  "ony": 1619,
  "background": 1620,
  "Meta": 1621,
  "roid": 1622,
  "ac": 1623,
  "meri": 1624,
  "Tra": 1625,
  "129": 1626,
  "GO": 1627,
  "Sto": 1628,
  "dis": 1629,
  "1870": 1630,
  "GN": 1631,
  "ream": 1633,
  "1887": 1634,
  "Show": 1635,
  "Qu": 1636,
  "cle": 1637,
  "1868": 1638,
  "6000": 1639,
  "ö": 1640,
  "р": 1641,
  "1883": 1642,
  "NF": 1643,
  "VA": 1644,
  "mar": 1645,
  "Ver": 1646,
  "day": 1647,
  "320": 1648,
  "Xbox": 1649,
  "CS": 1650,
  "was": 1651,
  "Ang": 1652,
  "NHK": 1653,
  "Tho": 1654,
  "AF": 1655,
  "Fo": 1656,
  "Twitter": 1657,
  "DD": 1658,
  "lyin": 1659,
  "onlyin": 1660,
  "onlyinclude": 1661,
  "++": 1662,
  "KP": 1663,
  "don": 1664,
  "1864": 1665,
  "•": 1666,
  "Gir": 1667,
  "ION": 1668,
  "1884": 1669,
  "119": 1670,
  "Bla": 1671,
  "RC": 1672,
  "UE": 1673,
  "ain": 1674,
  "miu": 1675,
  "122": 1676,
  "Va": 1677,
  "2500": 1678,
  "1892": 1679,
  "210": 1680,
  "A1": 1681,
  "center": 1682,
  "cket": 1683,
  "155": 1684,
  "ISO": 1685,
  "145": 1687,
  "stri": 1688,
  "1891": 1689,
  "650": 1690,
  "way": 1691,
  "Android": 1692,
  "NS": 1693,
  "Clu": 1694,
  "〕": 1695,
  "OR": 1696,
  "ffi": 1697,
  "htt": 1698,
  "mber": 1699,
  "〔": 1700,
  "1850": 1701,
  "Fu": 1702,
  "Phi": 1703,
  "age": 1704,
  "mb": 1705,
  "win": 1706,
  "xy": 1707,
  "Cy": 1708,
  "Ku": 1709,
  "king": 1710,
  "International": 1711,
  "sia": 1712,
  "1867": 1713,
  "logy": 1714,
  "Ce": 1715,
  "IM": 1716,
  "ト": 1717,
  "1879": 1718,
  "Star": 1719,
  "rie": 1720,
  "James": 1721,
  "Enter": 1722,
  "cc": 1723,
  "ller": 1724,
  "380": 1725,
  "AB": 1726,
  "UP": 1727,
  "ney": 1728,
  "Eng": 1729,
  "1876": 1730,
  "Spe": 1731,
  "War": 1732,
  "ny": 1733,
  "Studio": 1734,
  "zo": 1735,
  "George": 1736,
  "Ab": 1737,
  "Ani": 1738,
  "1875": 1739,
  "1861": 1740,
  "270": 1741,
  "Universi": 1742,
  "Games": 1743,
  "Bra": 1744,
  "IR": 1745,
  "126": 1746,
  "NT": 1747,
  "è": 1748,
  "time": 1749,
  "art": 1750,
  "Es": 1751,
  "Por": 1752,
  "NGC": 1753,
  "stru": 1754,
  "ル": 1755,
  "1873": 1756,
  "Hen": 1757,
  "MG": 1758,
  "phi": 1759,
  "ero": 1760,
  "123": 1761,
  "ラ": 1762,
  "PV": 1763,
  "ns": 1764,
  "Ben": 1765,
  "Dra": 1766,
  "HT": 1767,
  "Colle": 1768,
  "Group": 1769,
  "Pan": 1770,
  "car": 1771,
  "mpi": 1772,
  "rans": 1773,
  "Sun": 1774,
  "it": 1775,
  "ut": 1776,
  "168": 1777,
  "cus": 1778,
  "COVID": 1779,
  "Blo": 1780,
  "FM": 1781,
  "MB": 1782,
  "Sys": 1783,
  "ous": 1784,
  "sed": 1785,
  "1865": 1786,
  "Club": 1787,
  "AO": 1788,
  "Ameri": 1789,
  "PL": 1790,
  "her": 1791,
  "im": 1792,
  "121": 1793,
  "DE": 1794,
  "Don": 1795,
  "that": 1796,
  "Air": 1797,
  "Center": 1798,
  "175": 1799,
  "ary": 1800,
  "う": 1801,
  "Web": 1802,
  "H2": 1803,
  "YP": 1804,
  "from": 1805,
  "ä": 1806,
  "1400": 1807,
  "MAX": 1808,
  "critic": 1809,
  "Ale": 1810,
  "tz": 1811,
  "138": 1812,
  "228": 1813,
  "Han": 1814,
  "TP": 1815,
  "1848": 1816,
  "1862": 1817,
  "330": 1818,
  "124": 1819,
  "ア": 1820,
  "1881": 1821,
  "1882": 1822,
  "737": 1823,
  "Lea": 1824,
  "Ali": 1825,
  "UC": 1826,
  "hy": 1827,
  "1878": 1828,
  "550": 1829,
  "Ve": 1830,
  "sau": 1831,
  "bri": 1832,
  "bit": 1833,
  "1872": 1834,
  "El": 1835,
  "LC": 1836,
  "Insta": 1837,
  "Min": 1838,
  "ration": 1839,
  "INK": 1840,
  "Metacritic": 1841,
  "eld": 1842,
  "Oricon": 1843,
  "Sai": 1844,
  "Whi": 1845,
  "sco": 1846,
  "156": 1847,
  "Boo": 1848,
  "MTV": 1849,
  "sp": 1850,
  "165": 1851,
  "LED": 1852,
  "1840": 1853,
  "IVE": 1854,
  "Ya": 1855,
  "cre": 1856,
  "kin": 1857,
  "750": 1858,
  "ッ": 1859,
  "1300": 1860,
  "し": 1861,
  "Hy": 1862,
  "137": 1863,
  "Micha": 1864,
  "Mark": 1865,
  "7000": 1866,
  "Hel": 1867,
  "era": 1868,
  "DOS": 1869,
  "SQ": 1870,
  "UB": 1871,
  "229": 1872,
  "IU": 1873,
  "GDP": 1874,
  "King": 1875,
  "OK": 1876,
  "с": 1877,
  "type": 1878,
  "Gran": 1879,
  "nic": 1880,
  "High": 1881,
  "Tai": 1882,
  "ast": 1883,
  "152": 1884,
  "TVB": 1885,
  "Chris": 1886,
  "159": 1887,
  "1877": 1888,
  "Robert": 1889,
  "Chan": 1890,
  "py": 1891,
  "sy": 1892,
  "tle": 1893,
  "cien": 1895,
  "1866": 1896,
  "Hou": 1897,
  "iOS": 1898,
  "ot": 1899,
  "л": 1900,
  "Produ": 1901,
  "SK": 1902,
  "Shi": 1903,
  "silver": 1904,
  "1869": 1905,
  "′": 1906,
  "thi": 1907,
  "THE": 1908,
  "Up": 1909,
  "Day": 1910,
  "Cro": 1911,
  "DM": 1912,
  "Ele": 1913,
  "Stre": 1914,
  "Peter": 1915,
  "It": 1916,
  "NET": 1917,
  "tter": 1918,
  "Free": 1919,
  "Jan": 1920,
  "к": 1921,
  "139": 1922,
  "Phone": 1923,
  "Instagram": 1924,
  "At": 1925,
  "BI": 1926,
  "Sur": 1927,
  "pla": 1928,
  "BLAC": 1929,
  "Type": 1930,
  "в": 1931,
  "ora": 1932,
  "Apple": 1933,
  "DJ": 1934,
  "Sy": 1935,
  "Wal": 1936,
  "CG": 1937,
  "WE": 1938,
  "code": 1939,
  "ク": 1940,
  "Michael": 1941,
  "DF": 1942,
  "Sh": 1943,
  "1100": 1945,
  "cia": 1946,
  "158": 1947,
  "ness": 1948,
  "Big": 1949,
  "225": 1950,
  "Pla": 1951,
  "Pat": 1952,
  "Sam": 1953,
  "Ye": 1954,
  "vin": 1955,
  "nia": 1956,
  "305": 1957,
  "133": 1958,
  "INE": 1959,
  "Paul": 1960,
  "Tech": 1961,
  "National": 1962,
  "tte": 1963,
  "oun": 1964,
  "nis": 1965,
  "リ": 1966,
  "Award": 1967,
  "RA": 1968,
  "YO": 1969,
  "132": 1970,
  "Steam": 1971,
  "205": 1972,
  "1863": 1973,
  "ray": 1974,
  "IE": 1975,
  "pany": 1976,
  "Media": 1977,
  "tainment": 1978,
  "215": 1979,
  "Br": 1980,
  "University": 1981,
  "FO": 1982,
  "Lou": 1983,
  "Val": 1984,
  "ensis": 1985,
  "tions": 1986,
  "Bill": 1987,
  "phy": 1988,
  "CA": 1989,
  "F1": 1990,
  "KBS": 1991,
  "bur": 1992,
  "148": 1993,
  "131": 1994,
  "Smi": 1995,
  "kg": 1996,
  "166": 1997,
  "1874": 1998,
  "XX": 1999,
  "deo": 2000,
  "1858": 2001,
  "par": 2002,
  "EF": 2003,
  "sor": 2004,
  "rin": 2005,
  "rum": 2006,
  "Cho": 2007,
  "clo": 2008,
  "147": 2009,
  "Hol": 2010,
  "mini": 2011,
  "Fri": 2012,
  "256": 2013,
  "か": 2014,
  "M2": 2015,
  "1830": 2016,
  "CBS": 2017,
  "UT": 2018,
  "gon": 2019,
  "lm": 2020,
  "1851": 2021,
  "Lee": 2022,
  "BN": 2023,
  "GA": 2024,
  "HI": 2025,
  "UI": 2026,
  "lip": 2027,
  "ric": 2028,
  "192": 2029,
  "Park": 2030,
  "td": 2031,
  "μ": 2032,
  "8000": 2033,
  "Mer": 2034,
  "now": 2035,
  "Entertainment": 2036,
  "310": 2037,
  "143": 2038,
  "his": 2039,
  "Mk": 2040,
  "1855": 2041,
  "City": 2042,
  "Black": 2043,
  "Wil": 2044,
  "Power": 2045,
  "Chu": 2046,
  "EM": 2047,
  "IX": 2048,
  "Space": 2049,
  "gar": 2050,
  "whi": 2051,
  "GM": 2052,
  "RAM": 2053,
  "185": 2055,
  "1859": 2056,
  "tho": 2057,
  "STAR": 2058,
  "Jack": 2059,
  "Charles": 2060,
  "134": 2061,
  "Java": 2062,
  "Dire": 2063,
  "ABC": 2064,
  "Gar": 2065,
  "Ter": 2066,
  "spe": 2067,
  "ship": 2068,
  "1854": 2069,
  "146": 2070,
  "301": 2071,
  "1700": 2072,
  "inter": 2073,
  "Viu": 2074,
  "stitu": 2075,
  "370": 2076,
  "Fla": 2077,
  "Ken": 2078,
  "1857": 2079,
  "Alpha": 2080,
  "Lan": 2081,
  "Stan": 2082,
  "out": 2083,
  "los": 2084,
  "Dar": 2085,
  "ا": 2086,
  "290": 2087,
  "な": 2088,
  "Life": 2089,
  "︰": 2090,
  "vs": 2091,
  "γ": 2092,
  "214": 2093,
  "420": 2094,
  "Cam": 2095,
  "т": 2096,
  "Recor": 2097,
  "Company": 2098,
  "Fun": 2099,
  "ο": 2100,
  "〜": 2101,
  "1856": 2102,
  "1853": 2103,
  "Project": 2104,
  "Dream": 2105,
  "Fan": 2106,
  "Sen": 2107,
  "dium": 2108,
  "た": 2109,
  "first": 2110,
  "Time": 2111,
  "Thomas": 2112,
  "House": 2113,
  "Pen": 2114,
  "144": 2115,
  "Saint": 2116,
  "FA": 2117,
  "OVA": 2118,
  "Py": 2119,
  "Spi": 2120,
  "Cent": 2121,
  "VO": 2122,
  "ek": 2123,
  "face": 2124,
  "A2": 2125,
  "IO": 2126,
  "dd": 2127,
  "von": 2128,
  "167": 2129,
  "Japan": 2130,
  "Street": 2131,
  "3A": 2132,
  "Cla": 2133,
  "HS": 2134,
  "SBS": 2135,
  "rence": 2136,
  "bili": 2137,
  "rist": 2138,
  "chard": 2139,
  "1841": 2140,
  "very": 2141,
  "Euro": 2142,
  "LP": 2143,
  "Plan": 2144,
  "ak": 2145,
  "ie": 2146,
  "rp": 2147,
  "bal": 2148,
  "ety": 2149,
  "Alex": 2150,
  "340": 2151,
  "PM": 2152,
  "bun": 2153,
  "if": 2154,
  "lue": 2155,
  "BLACKP": 2156,
  "Sco": 2157,
  "Tal": 2158,
  "dra": 2159,
  "cher": 2160,
  "208": 2161,
  "ses": 2162,
  "1815": 2163,
  "178": 2164,
  "Soci": 2165,
  "CPU": 2166,
  "BLACKPINK": 2167,
  "223": 2168,
  "space": 2169,
  "850": 2170,
  "LGB": 2171,
  "Sing": 2172,
  "Spo": 2173,
  "ew": 2174,
  "tta": 2175,
  "cess": 2176,
  "ood": 2177,
  "www": 2178,
  "IBM": 2179,
  "zer": 2180,
  "mis": 2181,
  "Art": 2182,
  "ports": 2183,
  "Bat": 2184,
  "Bur": 2185,
  "SF": 2186,
  "207": 2187,
  "mation": 2188,
  "wor": 2189,
  "171": 2190,
  "235": 2191,
  "と": 2192,
  "ま": 2193,
  "LIVE": 2194,
  "SU": 2195,
  "Soft": 2196,
  "203": 2197,
  "B2": 2198,
  "Fer": 2199,
  "VE": 2200,
  "SQL": 2201,
  "tha": 2202,
  "1846": 2203,
  "164": 2204,
  "College": 2205,
  "Am": 2206,
  "cra": 2207,
  "157": 2208,
  "lter": 2209,
  "vice": 2210,
  "berg": 2211,
  "American": 2212,
  "BR": 2213,
  "LT": 2214,
  "NE": 2215,
  "Pol": 2216,
  "141": 2217,
  "ford": 2218,
  "ICE": 2219,
  "Ama": 2220,
  "B1": 2221,
  "PE": 2222,
  "nvi": 2223,
  "176": 2224,
  "ING": 2225,
  "Girls": 2226,
  "Asso": 2227,
  "Ger": 2228,
  "LS": 2229,
  "ste": 2230,
  "²": 2231,
  "turn": 2232,
  "publi": 2233,
  "self": 2234,
  "1812": 2235,
  "1845": 2236,
  "1844": 2237,
  "stro": 2238,
  "Road": 2239,
  "not": 2240,
  "Offi": 2241,
  "Wo": 2242,
  "dro": 2243,
  "ball": 2244,
  "231": 2245,
  "arch": 2246,
  "cture": 2247,
  "class": 2248,
  "lon": 2249,
  "esti": 2250,
  "Rock": 2251,
  "Cl": 2252,
  "HF": 2253,
  "Ltd": 2254,
  "M3": 2255,
  "play": 2256,
  "lea": 2257,
  "board": 2258,
  "り": 2259,
  "witch": 2260,
  "LGBT": 2261,
  "llo": 2262,
  "sg": 2263,
  "here": 2264,
  "209": 2265,
  "き": 2266,
  "NASA": 2267,
  "Tele": 2268,
  "GNU": 2269,
  "LA": 2270,
  "Van": 2271,
  "gs": 2272,
  "tation": 2273,
  "Jose": 2274,
  "well": 2275,
  "Tour": 2276,
  "IUCN": 2277,
  "Smith": 2278,
  "216": 2279,
  "PN": 2280,
  "Rou": 2281,
  "κ": 2282,
  "1849": 2283,
  "153": 2284,
  "CT": 2285,
  "NBC": 2286,
  "204": 2287,
  "238": 2288,
  "nes": 2289,
  "Good": 2290,
  "Production": 2291,
  "BB": 2292,
  "Cal": 2293,
  "GT": 2294,
  "bra": 2295,
  "ded": 2296,
  "Video": 2297,
  "O2": 2298,
  "ep": 2299,
  "fer": 2300,
  "σ": 2301,
  "mited": 2302,
  "pie": 2303,
  "row": 2304,
  "Hall": 2305,
  "PR": 2306,
  "dae": 2307,
  "206": 2308,
  "thy": 2309,
  "Pad": 2310,
  "Gala": 2311,
  "Boy": 2312,
  "eries": 2313,
  "460": 2314,
  "Af": 2315,
  "Tor": 2316,
  "set": 2317,
  "1814": 2318,
  "vel": 2319,
  "ders": 2320,
  "saurus": 2321,
  "218": 2322,
  "Eli": 2323,
  "Tur": 2324,
  "wood": 2325,
  "Jean": 2326,
  "SI": 2327,
  "Ten": 2328,
  "nel": 2329,
  "vision": 2330,
  "IGN": 2331,
  "Act": 2332,
  "LD": 2333,
  "PA": 2334,
  "fra": 2335,
  "Richard": 2337,
  "FF": 2338,
  "Kar": 2339,
  "WS": 2340,
  "om": 2341,
  "π": 2342,
  "tar": 2343,
  "1847": 2344,
  "154": 2345,
  "ved": 2346,
  "580": 2347,
  "MBC": 2348,
  "side": 2349,
  "mac": 2350,
  "chem": 2351,
  "1843": 2352,
  "Best": 2353,
  "ptr": 2354,
  "System": 2355,
  "430": 2356,
  "Sky": 2357,
  "Zi": 2358,
  "rich": 2359,
  "cis": 2360,
  "177": 2361,
  "401": 2362,
  "lls": 2363,
  "410": 2364,
  "Fle": 2365,
  "sin": 2366,
  "mann": 2367,
  "シ": 2368,
  "NFL": 2369,
  "ViuTV": 2370,
  "Switch": 2371,
  "dar": 2372,
  "163": 2373,
  "AMD": 2374,
  "Digi": 2375,
  "API": 2376,
  "Para": 2377,
  "ICO": 2378,
  "Sma": 2379,
  "data": 2380,
  "ments": 2381,
  "1852": 2382,
  "162": 2383,
  "thon": 2384,
  "Max": 2385,
  "VII": 2386,
  "ced": 2387,
  "1820": 2388,
  "く": 2389,
  "West": 2390,
  "Ag": 2391,
  "Glo": 2392,
  "Tun": 2393,
  "Vol": 2394,
  "ach": 2395,
  "zon": 2396,
  "142": 2397,
  "234": 2398,
  "star": 2399,
  "cript": 2400,
  "VR": 2401,
  "sys": 2402,
  "sign": 2403,
  "max": 2404,
  "172": 2405,
  "お": 2406,
  "さ": 2407,
  "Core": 2408,
  "Records": 2409,
  "640": 2410,
  "Met": 2411,
  "lti": 2412,
  "169": 2413,
  "3500": 2414,
  "this": 2415,
  "Limited": 2416,
  "Blue": 2417,
  "KC": 2418,
  "Ran": 2419,
  "T1": 2420,
  "cto": 2421,
  "±": 2422,
  "1839": 2423,
  "232": 2424,
  "Coun": 2425,
  "480": 2426,
  "CM": 2427,
  "179": 2428,
  "cade": 2429,
  "Inc": 2430,
  "Green": 2431,
  "use": 2432,
  "2030": 2433,
  "rio": 2434,
  "org": 2435,
  "149": 2436,
  "365": 2437,
  "Institu": 2438,
  "Lau": 2439,
  "lum": 2440,
  "tube": 2441,
  "1821": 2442,
  "war": 2443,
  "ロ": 2444,
  "み": 2445,
  "Vir": 2446,
  "Unicode": 2447,
  "ROM": 2448,
  "CCTV": 2449,
  "390": 2450,
  "BU": 2451,
  "bus": 2452,
  "tia": 2453,
  "306": 2454,
  "222": 2455,
  "601": 2456,
  "ona": 2457,
  "173": 2458,
  "Bob": 2459,
  "EA": 2460,
  "Far": 2461,
  "Gui": 2462,
  "Ji": 2463,
  "PF": 2464,
  "Yu": 2465,
  "Ze": 2466,
  "kh": 2467,
  "rue": 2468,
  "bar": 2469,
  "ware": 2470,
  "247": 2471,
  "oot": 2472,
  "Hea": 2473,
  "Prin": 2474,
  "mpion": 2475,
  "Er": 2476,
  "KK": 2477,
  "Mr": 2478,
  "Ven": 2479,
  "XP": 2480,
  "gna": 2481,
  "jo": 2482,
  "1790": 2483,
  "ump": 2484,
  "211": 2485,
  "560": 2486,
  "OH": 2487,
  "SN": 2488,
  "zy": 2489,
  "ket": 2490,
  "ciation": 2491,
  "orn": 2492,
  "new": 2493,
  "レ": 2494,
  "BF": 2495,
  "Pra": 2496,
  "VM": 2497,
  "tv": 2498,
  "off": 2499,
  "velo": 2500,
  "MU": 2501,
  "PD": 2502,
  "Ren": 2503,
  "Squ": 2504,
  "Scien": 2505,
  "183": 2506,
  "1795": 2507,
  "303": 2508,
  "Force": 2509,
  "○": 2510,
  "PH": 2511,
  "Tan": 2512,
  "233": 2513,
  "ち": 2514,
  "1801": 2515,
  "213": 2516,
  "Trans": 2517,
  "tary": 2518,
  "マ": 2519,
  "Heart": 2520,
  "USB": 2521,
  "Men": 2522,
  "bro": 2523,
  "174": 2524,
  "Pop": 2525,
  "ttle": 2526,
  "MVP": 2527,
  "Bel": 2528,
  "CK": 2529,
  "oper": 2530,
  "ρ": 2531,
  "key": 2534,
  "186": 2535,
  "1838": 2536,
  "ors": 2537,
  "Fire": 2538,
  "Store": 2539,
  "520": 2540,
  "Cri": 2541,
  "DDR": 2542,
  "stan": 2543,
  "mily": 2544,
  "har": 2545,
  "cker": 2546,
  "Christ": 2547,
  "610": 2548,
  "Lon": 2549,
  "ab": 2550,
  "up": 2551,
  "161": 2552,
  "501": 2553,
  "ド": 2554,
  "http": 2555,
  "224": 2556,
  "CF": 2557,
  "em": 2558,
  "iPad": 2559,
  "tto": 2560,
  "bile": 2561,
  "sub": 2562,
  "1813": 2563,
  "ら": 2564,
  "Mag": 2565,
  "Data": 2566,
  "GE": 2567,
  "τ": 2568,
  "rity": 2569,
  "mor": 2570,
  "182": 2571,
  "1832": 2572,
  "1842": 2573,
  "255": 2574,
  "logi": 2575,
  "ason": 2576,
  "Society": 2577,
  "AE": 2578,
  "dth": 2579,
  "iPhone": 2580,
  "sur": 2581,
  "184": 2582,
  "ties": 2583,
  "カ": 2584,
  "dom": 2585,
  "Mini": 2586,
  "720": 2587,
  "KI": 2588,
  "Que": 2589,
  "Script": 2590,
  "ele": 2591,
  "gre": 2592,
  "late": 2594,
  "1836": 2595,
  "1793": 2596,
  "オ": 2597,
  "Comic": 2598,
  "Intel": 2599,
  "KiHa": 2600,
  "Muse": 2601,
  "buntu": 2602,
  "221": 2603,
  "HBO": 2604,
  "MT": 2605,
  "Pin": 2606,
  "ffe": 2607,
  "mus": 2608,
  "1833": 2609,
  "1789": 2610,
  "cent": 2611,
  "Home": 2612,
  "tics": 2613,
  "River": 2614,
  "https": 2615,
  "Direct": 2616,
  "Association": 2617,
  "Galaxy": 2618,
  "Bal": 2619,
  "Dr": 2620,
  "DAM": 2621,
  "M4": 2622,
  "QQ": 2623,
  "ae": 2624,
  "search": 2625,
  "1835": 2626,
  "151": 2627,
  "ars": 2628,
  "タ": 2629,
  "width": 2630,
  "peri": 2631,
  "tical": 2632,
  "League": 2633,
  "219": 2634,
  "217": 2635,
  "338": 2636,
  "FT": 2637,
  "JYP": 2638,
  "Qui": 2639,
  "Rai": 2640,
  "SR": 2641,
  "Ubuntu": 2642,
  "WA": 2643,
  "mg": 2644,
  "ful": 2646,
  "‰": 2647,
  "down": 2648,
  "1804": 2649,
  "ONE": 2650,
  "CEO": 2651,
  "470": 2652,
  "740": 2653,
  "830": 2654,
  "Bui": 2655,
  "fun": 2656,
  "ssi": 2657,
  "ving": 2658,
  "ned": 2659,
  "Martin": 2660,
  "Bank": 2661,
  "Henry": 2662,
  "Mai": 2663,
  "YG": 2664,
  "ς": 2665,
  "д": 2666,
  "light": 2668,
  "bor": 2669,
  "mat": 2670,
  "Master": 2671,
  "Top": 2672,
  "Champion": 2673,
  "Dy": 2674,
  "Ear": 2675,
  "LINE": 2676,
  "MW": 2677,
  "ν": 2678,
  "mal": 2679,
  "bel": 2680,
  "ART": 2681,
  "News": 2682,
  "China": 2683,
  "212": 2684,
  "DK": 2685,
  "Dou": 2686,
  "Em": 2687,
  "Sp": 2688,
  "у": 2689,
  "unch": 2690,
  "1828": 2691,
  "core": 2692,
  "コ": 2693,
  "APAN": 2694,
  "Hot": 2695,
  "Part": 2696,
  "Network": 2697,
  "Gener": 2698,
  "FR": 2699,
  "Flo": 2700,
  "Long": 2701,
  "dor": 2702,
  "cil": 2703,
  "191": 2704,
  "rew": 2705,
  "302": 2706,
  "Young": 2707,
  "Billboard": 2708,
  "Office": 2709,
  "680": 2710,
  "Ada": 2711,
  "Epi": 2712,
  "Fra": 2713,
  "Gold": 2714,
  "MHz": 2715,
  "PI": 2716,
  "Song": 2717,
  "SNH": 2718,
  "nm": 2719,
  "plo": 2720,
  "ι": 2721,
  "table": 2722,
  "ries": 2723,
  "181": 2724,
  "1624": 2725,
  "237": 2726,
  "る": 2727,
  "Night": 2728,
  "Note": 2729,
  "Joseph": 2730,
  "SNH48": 2731,
  "FDA": 2732,
  "JAPAN": 2733,
  "PK": 2734,
  "pur": 2737,
  "1644": 2738,
  "308": 2739,
  "Code": 2740,
  "COM": 2741,
  "440": 2742,
  "Cra": 2743,
  "DB": 2744,
  "GR": 2745,
  "zz": 2746,
  "list": 2747,
  "tial": 2748,
  "led": 2749,
  "less": 2750,
  "10000": 2751,
  "1837": 2752,
  "part": 2753,
  "239": 2754,
  "ston": 2755,
  "1806": 2756,
  "Sir": 2757,
  "Radio": 2758,
  "United": 2759,
  "macOS": 2760,
  "CV": 2761,
  "U21": 2762,
  "Vis": 2763,
  "sing": 2764,
  "â": 2765,
  "î": 2766,
  "δ": 2767,
  "def": 2770,
  "sus": 2771,
  "1819": 2772,
  "299": 2773,
  "346": 2774,
  "Regi": 2775,
  "HTML": 2776,
  "780": 2777,
  "East": 2778,
  "cs": 2779,
  "und": 2780,
  "1825": 2781,
  "245": 2782,
  "236": 2783,
  "505": 2784,
  "279": 2785,
  "に": 2786,
  "Mari": 2787,
  "540": 2788,
  "EV": 2789,
  "Gam": 2790,
  "H5": 2791,
  "Pal": 2792,
  "muni": 2793,
  "rpm": 2794,
  "325": 2795,
  "Yo": 2796,
  "tre": 2797,
  "right": 2798,
  "001": 2799,
  "1776": 2800,
  "じ": 2801,
  "Child": 2802,
  "NCAA": 2803,
  "Server": 2804,
  "Digital": 2805,
  "FAT": 2806,
  "Kong": 2807,
  "tea": 2808,
  "1818": 2809,
  "pon": 2810,
  "main": 2811,
  "para": 2812,
  "265": 2813,
  "こ": 2814,
  "esta": 2815,
  "Hello": 2816,
  "GS": 2817,
  "Lang": 2818,
  "air": 2819,
  "telli": 2820,
  "1824": 2821,
  "1831": 2822,
  "2027": 2823,
  "rey": 2824,
  "Down": 2825,
  "Dri": 2826,
  "Ob": 2827,
  "RPG": 2828,
  "pho": 2829,
  "spi": 2830,
  "ç": 2831,
  "ô": 2832,
  "lio": 2833,
  "sio": 2834,
  "rick": 2835,
  "lation": 2836,
  "386": 2837,
  "Mat": 2838,
  "Service": 2839,
  "Ⅱ": 2840,
  "Techno": 2841,
  "Ana": 2842,
  "Ado": 2843,
  "UM": 2844,
  "non": 2845,
  "rent": 2846,
  "ges": 2847,
  "temp": 2848,
  "BSD": 2849,
  "Python": 2850,
  "1A": 2851,
  "CW": 2852,
  "Den": 2853,
  "XML": 2854,
  "λ": 2855,
  "sho": 2856,
  "275": 2857,
  "2700": 2858,
  "Youtube": 2859,
  "Edward": 2860,
  "White": 2861,
  "312": 2862,
  "5G": 2863,
  "730": 2864,
  "Des": 2865,
  "HL": 2866,
  "OM": 2867,
  "TBS": 2868,
  "ena": 2869,
  "has": 2870,
  "med": 2871,
  "264": 2872,
  "295": 2873,
  "1802": 2874,
  "First": 2875,
  "BLUE": 2876,
  "burg": 2877,
  "public": 2878,
  "Institute": 2879,
  "630": 2880,
  "Envi": 2881,
  "Gro": 2882,
  "TM": 2883,
  "ori": 2884,
  "yer": 2885,
  "ú": 2886,
  "à": 2887,
  "sual": 2888,
  "1822": 2889,
  "288": 2890,
  "ジ": 2891,
  "Poly": 2892,
  "JT": 2893,
  "Out": 2894,
  "Sum": 2895,
  "ل": 2896,
  "mond": 2897,
  "244": 2898,
  "フ": 2899,
  "vate": 2900,
  "Tom": 2901,
  "ITF": 2902,
  "2D": 2903,
  "OT": 2904,
  "ise": 2905,
  "var": 2906,
  "xel": 2907,
  "return": 2908,
  "249": 2909,
  "903": 2910,
  "ves": 2911,
  "Cap": 2912,
  "Square": 2913,
  "Hong": 2914,
  "PID": 2915,
  "Series": 2916,
  "This": 2917,
  "Za": 2918,
  "ī": 2919,
  "š": 2920,
  "yal": 2921,
  "tum": 2922,
  "tual": 2923,
  "243": 2924,
  "2800": 2925,
  "Rap": 2926,
  "Cup": 2927,
  "Del": 2928,
  "FX": 2929,
  "Jen": 2930,
  "Jump": 2931,
  "NP": 2932,
  "__": 2933,
  "sch": 2934,
  "sig": 2935,
  "chuai": 2936,
  "1810": 2937,
  "1622": 2938,
  "1792": 2939,
  "307": 2940,
  "sts": 2941,
  "701": 2942,
  "SARS": 2943,
  "Frank": 2944,
  "POP": 2945,
  "Grand": 2946,
  "960": 2947,
  "Kin": 2948,
  "SHO": 2949,
  "VV": 2950,
  "sca": 2951,
  "ε": 2952,
  "dit": 2953,
  "tur": 2954,
  "1650": 2955,
  "801": 2956,
  "Pala": 2957,
  "Chro": 2958,
  "MIUI": 2959,
  "Count": 2960,
  "Tunes": 2961,
  "2100": 2962,
  "Cur": 2963,
  "Hor": 2964,
  "cci": 2965,
  "м": 2966,
  "1826": 2967,
  "have": 2968,
  "1573": 2969,
  "story": 2970,
  "Step": 2971,
  "Under": 2972,
  "747": 2973,
  "Jour": 2974,
  "yon": 2975,
  "but": 2976,
  "tems": 2977,
  "1834": 2978,
  "304": 2979,
  "226": 2980,
  "278": 2981,
  "ミ": 2982,
  "も": 2983,
  "teri": 2984,
  "375": 2985,
  "1805": 2986,
  "Die": 2987,
  "ACT": 2988,
  "APP": 2989,
  "AIR": 2990,
  "Auto": 2991,
  "North": 2992,
  "Bran": 2993,
  "HA": 2994,
  "Kan": 2995,
  "cing": 2996,
  "ice": 2997,
  "pus": 2998,
  "007": 2999,
  "296": 3000,
  "298": 3001,
  "385": 3002,
  "ATA": 3003,
  "Block": 3004,
  "335": 3005,
  "590": 3006,
  "9000": 3007,
  "Bor": 3008,
  "CU": 3009,
  "Sports": 3010,
  "WN": 3011,
  "ml": 3012,
  "rei": 3013,
  "ω": 3014,
  "let": 3016,
  "dings": 3017,
  "had": 3018,
  "1780": 3019,
  "227": 3020,
  "ム": 3021,
  "Your": 3022,
  "IFA": 3023,
  "315": 3024,
  "Les": 3025,
  "Os": 3026,
  "Pho": 3027,
  "Rei": 3028,
  "ii": 3029,
  "iTunes": 3030,
  "pH": 3031,
  "»": 3032,
  "gain": 3033,
  "251": 3034,
  "277": 3035,
  "Real": 3036,
  "ghts": 3037,
  "CNN": 3038,
  "2A": 3039,
  "Op": 3040,
  "Over": 3041,
  "RFC": 3042,
  "din": 3043,
  "dition": 3044,
  "zine": 3045,
  "mad": 3046,
  "map": 3047,
  "more": 3048,
  "1582": 3049,
  "1799": 3050,
  "259": 3051,
  "246": 3052,
  "248": 3053,
  "1809": 3054,
  "Dani": 3055,
  "Engine": 3056,
  "530": 3057,
  "C2": 3058,
  "Cas": 3059,
  "DLC": 3060,
  "Ei": 3061,
  "«": 3062,
  "ere": 3063,
  "1823": 3064,
  "1621": 3065,
  "272": 3066,
  "405": 3067,
  "ville": 3068,
  "ATION": 3069,
  "State": 3070,
  "1803": 3071,
  "Internet": 3072,
  "EEE": 3073,
  "value": 3074,
  "press": 3075,
  "334": 3076,
  "620": 3077,
  "770": 3078,
  "Bou": 3079,
  "Clo": 3080,
  "Class": 3081,
  "Gol": 3082,
  "Hal": 3083,
  "SG": 3084,
  "Wat": 3085,
  "app": 3086,
  "bre": 3087,
  "rch": 3088,
  "1625": 3089,
  "284": 3090,
  "285": 3091,
  "ino": 3092,
  "lton": 3093,
  "サ": 3094,
  "Mit": 3095,
  "cond": 3096,
  "311": 3097,
  "880": 3098,
  "Cle": 3099,
  "Sony": 3100,
  "Ur": 3101,
  "VI": 3102,
  "vy": 3103,
  "É": 3104,
  "258": 3106,
  "form": 3107,
  "276": 3108,
  "が": 3109,
  "Wii": 3110,
  "Moon": 3111,
  "Mobile": 3112,
  "Bay": 3113,
  "Gri": 3114,
  "KO": 3115,
  "Oper": 3116,
  "Tru": 3117,
  "XT": 3118,
  "than": 3119,
  "get": 3121,
  "ork": 3122,
  "253": 3123,
  "357": 3124,
  "ters": 3125,
  "Maria": 3126,
  "Ray": 3127,
  "Publi": 3128,
  "660": 3129,
  "Bon": 3130,
  "Cli": 3131,
  "Im": 3132,
  "NM": 3133,
  "SV": 3134,
  "UL": 3135,
  "ee": 3136,
  "ung": 3137,
  "й": 3138,
  "uel": 3139,
  "プ": 3140,
  "STA": 3141,
  "via": 3142,
  "Alf": 3143,
  "Dot": 3144,
  "IPv": 3145,
  "Nico": 3146,
  "Unix": 3147,
  "South": 3148,
  "Ange": 3149,
  "Book": 3150,
  "Europe": 3151,
  "570": 3152,
  "Get": 3153,
  "U19": 3154,
  "WF": 3155,
  "blo": 3156,
  "hr": 3157,
  "г": 3158,
  "1827": 3159,
  "1570": 3160,
  "あ": 3161,
  "gazine": 3162,
  "cks": 3163,
  "sson": 3164,
  "view": 3165,
  "Pier": 3166,
  "314": 3167,
  "3DS": 3168,
  "690": 3169,
  "BBS": 3170,
  "C6": 3171,
  "DSM": 3172,
  "IEEE": 3173,
  "Mou": 3174,
  "Mal": 3175,
  "SB": 3176,
  "WWE": 3177,
  "trans": 3178,
  "tas": 3179,
  "1817": 3180,
  "1640": 3181,
  "1636": 3182,
  "range": 3183,
  "268": 3184,
  "402": 3185,
  "404": 3186,
  "は": 3187,
  "Sound": 3188,
  "which": 3189,
  "4G": 3190,
  "AX": 3191,
  "TW": 3192,
  "fy": 3193,
  "fri": 3194,
  "gal": 3195,
  "dei": 3196,
  "1775": 3197,
  "254": 3198,
  "465": 3199,
  "ator": 3200,
  "323": 3201,
  "Gal": 3202,
  "HP": 3203,
  "OP": 3204,
  "Tre": 3205,
  "dea": 3206,
  "tina": 3207,
  "lution": 3208,
  "1750": 3209,
  "309": 3210,
  "vis": 3211,
  "Now": 3212,
  "329": 3213,
  "670": 3214,
  "Jon": 3215,
  "Nu": 3216,
  "Plus": 3217,
  "shing": 3218,
  "tude": 3219,
  "1816": 3220,
  "kar": 3221,
  "poli": 3222,
  "zation": 3223,
  "チ": 3224,
  "ィ": 3225,
  "4500": 3226,
  "field": 3227,
  "CON": 3228,
  "Beau": 3229,
  "Poli": 3230,
  "TOP": 3231,
  "print": 3232,
  "Cube": 3233,
  ".-": 3234,
  "710": 3235,
  "910": 3236,
  "950": 3237,
  "DI": 3238,
  "Ham": 3239,
  "MK": 3240,
  "ap": 3241,
  "other": 3242,
  "laris": 3243,
  "loud": 3244,
  "241": 3245,
  "2300": 3246,
  "cur": 3247,
  "Medi": 3248,
  "Film": 3249,
  "ISBN": 3250,
  "Way": 3251,
  "tvN": 3252,
  "326": 3253,
  "Asia": 3254,
  "Fin": 3255,
  "Ly": 3256,
  "T2": 3257,
  "ctive": 3258,
  "tti": 3259,
  "ence": 3261,
  "char": 3262,
  "1592": 3263,
  "347": 3264,
  "758": 3265,
  "Gil": 3266,
  "ople": 3267,
  "Ara": 3268,
  "DT": 3269,
  "Tro": 3270,
  "cti": 3271,
  "even": 3272,
  "mark": 3273,
  "tural": 3274,
  "sal": 3275,
  "1628": 3276,
  "1788": 3277,
  "252": 3278,
  "242": 3279,
  "269": 3280,
  "ニ": 3281,
  "May": 3282,
  "nald": 3283,
  "fea": 3284,
  "Tik": 3285,
  "Channel": 3286,
  "318": 3287,
  "336": 3288,
  "978": 3289,
  "CB": 3290,
  "DL": 3291,
  "Festi": 3292,
  "MUS": 3293,
  "N2": 3294,
  "O3": 3295,
  "Run": 3296,
  "hur": 3298,
  "lam": 3299,
  "1627": 3300,
  "1783": 3301,
  "1791": 3302,
  "289": 3303,
  "406": 3304,
  "354": 3305,
  "INN": 3306,
  "Joy": 3307,
  "Tok": 3308,
  "Pixel": 3309,
  "Disney": 3310,
  "□": 3311,
  "velop": 3312,
  "Vista": 3313,
  "Acade": 3314,
  "EL": 3315,
  "F4": 3316,
  "IB": 3317,
  "LAN": 3318,
  "LTE": 3319,
  "Nan": 3320,
  "PT": 3321,
  "Wan": 3322,
  "1797": 3323,
  "num": 3324,
  "［": 3325,
  "］": 3326,
  "556": 3327,
  "Research": 3328,
  "Beat": 3329,
  "Cir": 3330,
  "Girl": 3331,
  "Louis": 3332,
  "Software": 3333,
  "DMS": 3334,
  "Fre": 3335,
  "OF": 3336,
  "TH": 3337,
  "ag": 3338,
  "gis": 3339,
  "tr": 3340,
  "1779": 3341,
  "1796": 3342,
  "607": 3343,
  "つ": 3344,
  "だ": 3345,
  "352": 3346,
  "1808": 3347,
  "cono": 3348,
  "ERT": 3349,
  "ference": 3350,
  "km2": 3351,
  "mple": 3352,
  "Works": 3353,
  "NCT": 3354,
  "Alice": 3355,
  "Christian": 3356,
  "⋯": 3357,
  "321": 3358,
  "337": 3359,
  "A4": 3360,
  "Cer": 3361,
  "Cry": 3362,
  "T3": 3363,
  "dri": 3364,
  "night": 3365,
  "1829": 3366,
  "sar": 3367,
  "1778": 3368,
  "1794": 3369,
  "283": 3370,
  "mega": 3371,
  "273": 3372,
  "ャ": 3373,
  "バ": 3374,
  "エ": 3375,
  "thing": 3376,
  "cast": 3377,
  "oom": 3378,
  "ctro": 3379,
  "Visual": 3380,
  "Johan": 3381,
  "ASC": 3382,
  "YouTuber": 3383,
  "Chine": 3384,
  "Island": 3385,
  "Battle": 3386,
  "world": 3387,
  "313": 3388,
  "510": 3389,
  "840": 3390,
  "860": 3391,
  "Il": 3392,
  "Mnet": 3393,
  "Rain": 3394,
  "Sin": 3395,
  "ñ": 3396,
  "θ": 3397,
  "eni": 3398,
  "1798": 3399,
  "て": 3400,
  "456": 3401,
  "372": 3402,
  "ECT": 3403,
  "ctory": 3404,
  "agement": 3405,
  "Awards": 3406,
  "system": 3407,
  "448": 3408,
  "870": 3409,
  "ror": 3410,
  "mit": 3411,
  "ress": 3412,
  "read": 3413,
  "1580": 3414,
  "1612": 3415,
  "1634": 3416,
  "1787": 3417,
  "281": 3418,
  "267": 3419,
  "デ": 3420,
  "fore": 3421,
  "っ": 3422,
  "lost": 3423,
  "ウ": 3424,
  "vil": 3425,
  "vern": 3426,
  "Royal": 3427,
  "Hill": 3428,
  "web": 3429,
  "mmy": 3430,
  "Premi": 3431,
  "Fore": 3432,
  "Global": 3433,
  "911": 3434,
  "DG": 3435,
  "Dai": 3436,
  "Foot": 3437,
  "MF": 3438,
  "TN": 3439,
  "like": 3441,
  "rena": 3442,
  "1567": 3443,
  "1648": 3444,
  "271": 3445,
  "ltra": 3446,
  "pedia": 3447,
  "Mary": 3448,
  "Arts": 3449,
  "BOX": 3450,
  "rain": 3451,
  "Special": 3452,
  "Science": 3453,
  "Enviro": 3454,
  "AH": 3455,
  "Der": 3456,
  "E3": 3457,
  "Hun": 3458,
  "Let": 3459,
  "MM": 3460,
  "Wei": 3461,
  "York": 3462,
  "oi": 3463,
  "sche": 3464,
  "pop": 3465,
  "ret": 3466,
  "262": 3467,
  "367": 3468,
  "cky": 3469,
  "OSHI": 3470,
  "gic": 3471,
  "ACE": 3472,
  "Kim": 3473,
  "Compu": 3474,
  "ENT": 3475,
  "AGA": 3476,
  "Great": 3477,
  "Qua": 3478,
  "-&": 3479,
  "322": 3480,
  "Gor": 3481,
  "MON": 3482,
  "Oli": 3483,
  "OTT": 3484,
  "Sal": 3485,
  "VB": 3486,
  "fla": 3487,
  "hus": 3488,
  "size": 3489,
  "tifi": 3490,
  "nica": 3491,
  "bon": 3492,
  "posi": 3493,
  "1550": 3494,
  "1568": 3495,
  "ord": 3496,
  "1615": 3497,
  "1630": 3498,
  "formation": 3499,
  "286": 3500,
  "arr": 3501,
  "ブ": 3502,
  "col": 3503,
  "Magazine": 3504,
  "Model": 3505,
  "CH3": 3506,
  "Brown": 3507,
  "Amazon": 3508,
  "Museum": 3509,
  "Daniel": 3510,
  "Festival": 3511,
  "CAS": 3512,
  "End": 3513,
  "Fro": 3514,
  "FBI": 3515,
  "LG": 3516,
  "O4": 3517,
  "SIG": 3518,
  "Tou": 3519,
  "USA": 3520,
  "dt": 3521,
  "ole": 3522,
  "plan": 3523,
  "dent": 3524,
  "lina": 3525,
  "kes": 3526,
  "ches": 3527,
  "1645": 3528,
  "1646": 3529,
  "キ": 3530,
  "333": 3531,
  "andy": 3532,
  "COLL": 3533,
  "ARD": 3534,
  "Secre": 3535,
  "Communi": 3536,
  "Encore": 3537,
  "God": 3538,
  "tures": 3539,
  "Online": 3540,
  "Taiwan": 3541,
  "Queen": 3542,
  "TikTok": 3543,
  "MUSIC": 3544,
  "Ah": 3545,
  "Ami": 3546,
  "Cat": 3547,
  "Thun": 3548,
  "cka": 3549,
  "gg": 3550,
  "ر": 3551,
  "ani": 3552,
  "1626": 3553,
  "261": 3554,
  "297": 3555,
  "lth": 3556,
  "355": 3557,
  "Anto": 3558,
  "Dark": 3559,
  "General": 3560,
  "Chinese": 3561,
  "328": 3562,
  "820": 3563,
  "Crea": 3564,
  "Mur": 3565,
  "PRO": 3566,
  "S2": 3567,
  "Son": 3568,
  "over": 3569,
  "pra": 3570,
  "dal": 3571,
  "1637": 3572,
  "2400": 3573,
  "705": 3574,
  "901": 3575,
  "364": 3576,
  "384": 3577,
  "378": 3578,
  "442": 3579,
  "Memo": 3580,
  "Wiki": 3581,
  "gio": 3582,
  "Point": 3583,
  "VIDIA": 3584,
  "618": 3585,
  "AU": 3586,
  "CBC": 3587,
  "HB": 3588,
  "NVIDIA": 3589,
  "T48": 3590,
  "С": 3591,
  "ы": 3592,
  "rine": 3593,
  "ques": 3594,
  "1610": 3595,
  "1642": 3596,
  "257": 3597,
  "282": 3598,
  "met": 3599,
  "2600": 3600,
  "Stadium": 3601,
  "Sea": 3602,
  "Capi": 3603,
  "Base": 3604,
  "1609": 3605,
  "oney": 3606,
  "llion": 3607,
  "Redmi": 3608,
  "Year": 3609,
  "Talk": 3610,
  "Adobe": 3611,
  "760": 3612,
  "767": 3613,
  "CAN": 3614,
  "Pet": 3615,
  "Set": 3616,
  "U17": 3617,
  "VC": 3618,
  "Won": 3619,
  "Who": 3620,
  "What": 3621,
  "af": 3622,
  "bps": 3623,
  "lk": 3624,
  "ь": 3625,
  "deon": 3626,
  "cio": 3627,
  "tech": 3628,
  "poration": 3629,
  "1585": 3630,
  "1583": 3631,
  "say": 3632,
  "や": 3633,
  "Col": 3634,
  "cas": 3635,
  "583": 3636,
  "wiki": 3637,
  "1807": 3638,
  "ARM": 3639,
  "TeX": 3640,
  "thern": 3641,
  "Cyclo": 3642,
  "Systems": 3643,
  "Metro": 3644,
  "930": 3645,
  "Fal": 3646,
  "FIFA": 3647,
  "JU": 3648,
  "KE": 3649,
  "Lei": 3650,
  "Mel": 3651,
  "OD": 3652,
  "Sche": 3653,
  "ate": 3654,
  "bs": 3655,
  "house": 3656,
  "1623": 3657,
  "274": 3658,
  "Pay": 3659,
  "Archi": 3660,
  "Town": 3661,
  "Niko": 3662,
  "Geo": 3663,
  "﹑": 3664,
  "H2O": 3665,
  "Bru": 3666,
  "Chang": 3667,
  "Eye": 3668,
  "EOS": 3669,
  "FIN": 3670,
  "IEC": 3671,
  "Juni": 3672,
  "pes": 3673,
  "tium": 3674,
  "1571": 3675,
  "1784": 3676,
  "263": 3677,
  "509": 3678,
  "293": 3679,
  "stein": 3680,
  "dies": 3681,
  "rough": 3682,
  "351": 3683,
  "dos": 3684,
  "999": 3685,
  "Deep": 3686,
  "const": 3687,
  "Neo": 3688,
  "Union": 3689,
  "stern": 3690,
  "Key": 3691,
  "rstea": 3692,
  "plex": 3693,
  "ounda": 3694,
  "2200": 3695,
  "428": 3696,
  "AJ": 3697,
  "Dun": 3698,
  "GUN": 3699,
  "pto": 3700,
  "uts": 3701,
  "wing": 3702,
  "xx": 3703,
  "cht": 3704,
  "1620": 3705,
  "1723": 3706,
  "1786": 3707,
  "504": 3708,
  "ュ": 3709,
  "353": 3710,
  "vey": 3711,
  "395": 3712,
  "Mike": 3713,
  "Solaris": 3714,
  "Stra": 3715,
  "some": 3716,
  "private": 3717,
  "Philip": 3718,
  "Cross": 3719,
  "Journal": 3720,
  "DotA": 3721,
  "419": 3722,
  "432": 3723,
  "A3": 3724,
  "Cloud": 3725,
  "FN": 3726,
  "GL": 3727,
  "Has": 3728,
  "SW": 3729,
  "ō": 3730,
  "ander": 3732,
  "1450": 3733,
  "す": 3734,
  "Mau": 3735,
  "Little": 3736,
  "cts": 3737,
  "coun": 3738,
  "Studios": 3739,
  "427": 3740,
  "Cine": 3741,
  "FE": 3742,
  "HIV": 3743,
  "Ima": 3744,
  "K6": 3745,
  "Vin": 3746,
  "VPN": 3747,
  "ace": 3748,
  "hoo": 3749,
  "č": 3750,
  "gel": 3751,
  "zilla": 3752,
  "1577": 3753,
  "1618": 3754,
  "1643": 3755,
  "387": 3756,
  "399": 3757,
  "beth": 3758,
  "Line": 3759,
  "LOVE": 3760,
  "Fleet": 3761,
  "Technology": 3762,
  "317": 3763,
  "331": 3764,
  "345": 3765,
  "512": 3766,
  "565": 3767,
  "Aven": 3768,
  "Bai": 3769,
  "Cr": 3770,
  "FI": 3771,
  "H1": 3772,
  "MY": 3773,
  "R2": 3774,
  "S1": 3775,
  "U18": 3776,
  "USS": 3777,
  "Ultra": 3778,
  "я": 3779,
  "live": 3780,
  "mia": 3781,
  "test": 3782,
  "base": 3783,
  "mol": 3784,
  "hard": 3785,
  "1586": 3786,
  "1777": 3787,
  "1453": 3788,
  "806": 3789,
  "lot": 3790,
  "CDMA": 3791,
  "Stage": 3792,
  "Radeon": 3793,
  "ALL": 3794,
  "Exp": 3795,
  "Valve": 3796,
  "Children": 3797,
  "327": 3798,
  "411": 3799,
  "490": 3800,
  "445": 3801,
  "446": 3802,
  "535": 3803,
  "Ath": 3804,
  "M87": 3805,
  "Of": 3806,
  "Ram": 3807,
  "U23": 3808,
  "Wol": 3809,
  "where": 3810,
  "ê": 3811,
  "lic": 3812,
  "city": 3813,
  "mate": 3814,
  "model": 3815,
  "chie": 3816,
  "sey": 3817,
  "cell": 3818,
  "1521": 3819,
  "oro": 3820,
  "1765": 3821,
  "1774": 3822,
  "ono": 3823,
  "398": 3824,
  "499": 3825,
  "Post": 3826,
  "Multi": 3827,
  "Tay": 3828,
  "BMW": 3829,
  "Centre": 3830,
  "Academy": 3831,
  "Junior": 3832,
  "416": 3833,
  "EMI": 3834,
  "HTC": 3835,
  "KB": 3836,
  "Omega": 3837,
  "kW": 3838,
  "m3": 3839,
  "pter": 3840,
  "stu": 3841,
  "ū": 3842,
  "dina": 3843,
  "das": 3844,
  "1616": 3845,
  "nus": 3846,
  "707": 3847,
  "369": 3848,
  "397": 3849,
  "Pass": 3850,
  "States": 3851,
  "Wire": 3852,
  "Joe": 3853,
  "tiona": 3854,
  "Fede": 3855,
  "GPU": 3856,
  "bility": 3857,
  "Dyna": 3858,
  "613": 3859,
  "Gun": 3860,
  "NR": 3861,
  "WO": 3862,
  "WOR": 3863,
  "ZA": 3864,
  "nor": 3865,
  "η": 3866,
  "Δ": 3867,
  "А": 3868,
  "dard": 3869,
  "rana": 3870,
  "gani": 3871,
  "1564": 3872,
  "1785": 3873,
  "cul": 3874,
  "368": 3875,
  "TVBS": 3876,
  "Demo": 3877,
  "Market": 3878,
  "Bio": 3879,
  "Link": 3880,
  "MySQL": 3881,
  "mission": 3882,
  "3C": 3883,
  "810": 3884,
  "BT": 3885,
  "Jr": 3886,
  "Kh": 3887,
  "Lar": 3888,
  "Sara": 3889,
  "WI": 3890,
  "brea": 3891,
  "eu": 3892,
  "gni": 3893,
  "io": 3894,
  "jor": 3895,
  "Д": 3896,
  "head": 3897,
  "cin": 3898,
  "cifi": 3899,
  "bas": 3900,
  "1662": 3901,
  "include": 3902,
  "266": 3903,
  "291": 3904,
  "588": 3905,
  "Distri": 3906,
  "Next": 3907,
  "Beta": 3908,
  "void": 3909,
  "MOD": 3910,
  "Corporation": 3911,
  "M1A1": 3912,
  "GUNDAM": 3913,
  "316": 3914,
  "537": 3915,
  "621": 3916,
  "742": 3917,
  "CI": 3918,
  "E48": 3919,
  "Eric": 3920,
  "ND": 3921,
  "TI": 3922,
  "cted": 3923,
  "hl": 3924,
  "il": 3925,
  "open": 3926,
  "ë": 3927,
  "ن": 3928,
  "qua": 3929,
  "point": 3930,
  "1540": 3931,
  "1574": 3932,
  "1772": 3933,
  "287": 3934,
  "605": 3935,
  "454": 3936,
  "388": 3937,
  "343": 3938,
  "bes": 3939,
  "888": 3940,
  "Law": 3941,
  "Sub": 3942,
  "Management": 3943,
  "Fried": 3944,
  "Alexander": 3945,
  "425": 3946,
  "475": 3947,
  "MX": 3948,
  "Other": 3949,
  "Sui": 3950,
  "Sar": 3951,
  "flo": 3952,
  "ob": 3953,
  "tine": 3954,
  "lant": 3955,
  "1250": 3956,
  "1619": 3957,
  "1629": 3958,
  "1683": 3959,
  "292": 3960,
  "ros": 3961,
  "363": 3962,
  "376": 3963,
  "STS": 3964,
  "552": 3965,
  "686": 3966,
  "Miss": 3967,
  "Lady": 3968,
  "Final": 3969,
  "add": 3970,
  "Arc": 3971,
  "How": 3972,
  "Augu": 3973,
  "were": 3974,
  "Draw": 3975,
  "Scott": 3976,
  "London": 3977,
  "Cyclol": 3978,
  "627": 3979,
  "BRT": 3980,
  "Dol": 3981,
  "FL": 3982,
  "Tar": 3983,
  "ht": 3984,
  "б": 3985,
  "nico": 3986,
  "＂": 3987,
  "std": 3988,
  "tos": 3989,
  "488": 3990,
  "Mas": 3991,
  "Pas": 3992,
  "fini": 3993,
  "Spot": 3994,
  "Spring": 3996,
  "449": 3997,
  "5A": 3998,
  "625": 3999,
  "738": 4000,
  "Cul": 4001,
  "Fron": 4002,
  "HER": 4003,
  "Land": 4004,
  "PB": 4005,
  "Rue": 4006,
  "Sc": 4007,
  "Tony": 4008,
  "VER": 4009,
  "Wing": 4010,
  "ea": 4011,
  "pper": 4012,
  "sky": 4013,
  "tran": 4014,
  "К": 4015,
  "ana": 4016,
  "rina": 4017,
  "put": 4018,
  "shared": 4019,
  "1590": 4020,
  "1579": 4021,
  "1633": 4022,
  "ナ": 4023,
  "fox": 4024,
  "log": 4025,
  "グ": 4026,
  "Light": 4027,
  "Rose": 4028,
  "1507": 4029,
  "Design": 4030,
  "Lake": 4031,
  "CH2": 4032,
  "Animax": 4033,
  "Earth": 4034,
  "412": 4035,
  "LF": 4036,
  "LR": 4037,
  "Smo": 4038,
  "Sca": 4039,
  "SON": 4040,
  "V8": 4041,
  "п": 4042,
  "ens": 4044,
  "mix": 4045,
  "body": 4046,
  "launch": 4047,
  "1631": 4048,
  "1680": 4049,
  "1773": 4050,
  "294": 4051,
  "407": 4052,
  "cum": 4053,
  "れ": 4054,
  "396": 4055,
  "3300": 4056,
  "Leo": 4057,
  "Family": 4058,
  "1604": 4059,
  "Hami": 4060,
  "Ander": 4061,
  "Party": 4062,
  "PGA": 4063,
  "Drive": 4064,
  "980": 4065,
  "Are": 4066,
  "C4": 4067,
  "Fold": 4068,
  "GC": 4069,
  "Hon": 4070,
  "Kat": 4071,
  "LM": 4072,
  "ada": 4073,
  "cla": 4074,
  "ir": 4075,
  "ini": 4076,
  "yl": 4077,
  "ć": 4078,
  "ə": 4079,
  "ked": 4080,
  "rial": 4081,
  "rius": 4082,
  "1575": 4083,
  "1697": 4084,
  "1755": 4085,
  "1492": 4086,
  "805": 4087,
  "3600": 4088,
  "Mad": 4089,
  "467": 4090,
  "471": 4091,
  "Theo": 4092,
  "Simon": 4093,
  "Secu": 4094,
  "ppy": 4095,
  "mics": 4096,
  "Advan": 4097,
  "﹐": 4098,
  "SKE48": 4099,
  "Round": 4100,
  "Summer": 4101,
  "Thunder": 4102,
  "0x": 4103,
  "319": 4104,
  "Hei": 4105,
  "J2": 4106,
  "Sti": 4107,
  "Swe": 4108,
  "Thi": 4109,
  "XC": 4110,
  "bio": 4111,
  "matic": 4112,
  "1561": 4113,
  "1589": 4114,
  "1595": 4115,
  "1781": 4116,
  "1465": 4117,
  "508": 4118,
  "stre": 4119,
  "テ": 4120,
  "ひ": 4121,
  "344": 4122,
  "589": 4123,
  "1603": 4124,
  "1606": 4125,
  "1607": 4126,
  "kov": 4127,
  "CNBLUE": 4128,
  "Ruby": 4129,
  "Epic": 4130,
  "velopment": 4131,
  "415": 4132,
  "855": 4133,
  "940": 4134,
  "970": 4135,
  "Ir": 4136,
  "Lun": 4137,
  "uage": 4138,
  "x86": 4139,
  "ø": 4140,
  "Å": 4141,
  "ß": 4142,
  "mani": 4144,
  "1522": 4145,
  "1526": 4146,
  "1556": 4147,
  "1613": 4148,
  "1660": 4149,
  "502": 4150,
  "506": 4151,
  "ダ": 4152,
  "377": 4153,
  "478": 4154,
  "554": 4155,
  "Miche": 4156,
  "Vita": 4157,
  "mercial": 4158,
  "Tim": 4159,
  "TOUR": 4160,
  "Williams": 4161,
  "cations": 4162,
  "Hyper": 4163,
  "ountain": 4164,
  "Brian": 4165,
  "이": 4166,
  "☆": 4167,
  "Angela": 4168,
  "Football": 4169,
  "417": 4170,
  "525": 4171,
  "920": 4172,
  "925": 4173,
  "LU": 4174,
  "Moo": 4175,
  "Pon": 4176,
  "UK": 4177,
  "URI": 4178,
  "Wel": 4179,
  "card": 4180,
  "lding": 4181,
  "who": 4182,
  "zzo": 4183,
  "م": 4184,
  "mir": 4185,
  "nio": 4186,
  "baby": 4187,
  "ched": 4188,
  "sure": 4189,
  "second": 4190,
  "1525": 4191,
  "1591": 4192,
  "1667": 4193,
  "408": 4194,
  "485": 4195,
  "643": 4196,
  "AMO": 4197,
  "Fiesta": 4198,
  "Back": 4199,
  "tten": 4200,
  "Steve": 4201,
  "DOHC": 4202,
  "Mont": 4203,
  "Port": 4204,
  "After": 4205,
  "324": 4206,
  "422": 4207,
  "515": 4208,
  "538": 4209,
  "534": 4210,
  "Founda": 4211,
  "Gao": 4212,
  "QS": 4213,
  "Rang": 4214,
  "S4": 4215,
  "Shan": 4216,
  "Syn": 4217,
  "VT": 4218,
  "ah": 4219,
  "mRNA": 4220,
  "xe": 4221,
  "zza": 4222,
  "ē": 4223,
  "1510": 4225,
  "1638": 4226,
  "1730": 4227,
  "only": 4228,
  "pal": 4229,
  "media": 4230,
  "パ": 4231,
  "342": 4232,
  "393": 4233,
  "479": 4234,
  "1508": 4235,
  "Villa": 4236,
  "Mozilla": 4237,
  "Last": 4238,
  "HKT48": 4239,
  "Water": 4240,
  "Walter": 4241,
  "volution": 4242,
  "America": 4243,
  "Surface": 4244,
  "Church": 4245,
  "3200": 4246,
  "531": 4247,
  "546": 4248,
  "Camp": 4249,
  "Clas": 4250,
  "EG": 4251,
  "GHz": 4252,
  "ITV": 4253,
  "Jer": 4254,
  "Mei": 4255,
  "MBA": 4256,
  "TG": 4257,
  "Too": 4258,
  "VS": 4259,
  "bles": 4260,
  "iPS": 4261,
  "phe": 4262,
  "ud": 4263,
  "lish": 4264,
  "mont": 4265,
  "tana": 4266,
  "2028": 4267,
  "1543": 4268,
  "1457": 4269,
  "366": 4270,
  "381": 4271,
  "392": 4272,
  "vie": 4273,
  "History": 4274,
  "Jeff": 4275,
  "place": 4276,
  "1st": 4277,
  "413": 4278,
  "426": 4279,
  "Edu": 4280,
  "F3": 4281,
  "GPS": 4282,
  "Kha": 4283,
  "LZ": 4284,
  "NI": 4285,
  "Rus": 4286,
  "Sor": 4287,
  "Than": 4288,
  "U20": 4289,
  "Wnt": 4290,
  "fb": 4291,
  "ي": 4292,
  "left": 4293,
  "gent": 4294,
  "1565": 4295,
  "1559": 4296,
  "1587": 4297,
  "1597": 4298,
  "†": 4299,
  "1635": 4300,
  "1688": 4301,
  "1733": 4302,
  "1782": 4303,
  "stry": 4304,
  "rat": 4305,
  "606": 4306,
  "ald": 4307,
  "come": 4308,
  "け": 4309,
  "373": 4310,
  "Indu": 4311,
  "ella": 4312,
  "Will": 4313,
  "Albert": 4314,
  "Times": 4315,
  "Austra": 4316,
  "Johnson": 4317,
  "tory": 4318,
  "score": 4319,
  "Jane": 4320,
  "Council": 4321,
  "524": 4322,
  "612": 4323,
  "890": 4324,
  "By": 4325,
  "FS": 4326,
  "Jim": 4327,
  "MR": 4328,
  "Sol": 4329,
  "Tran": 4330,
  "UD": 4331,
  "its": 4332,
  "llow": 4333,
  "£": 4334,
  "П": 4335,
  "ч": 4336,
  "tex": 4337,
  "lva": 4338,
  "1588": 4339,
  "1598": 4340,
  "507": 4341,
  "also": 4342,
  "Cos": 4343,
  "641": 4344,
  "Rep": 4345,
  "495": 4346,
  "682": 4347,
  "666": 4348,
  "ample": 4349,
  "Common": 4350,
  "CLA": 4351,
  "scope": 4352,
  "Place": 4353,
  "Telegram": 4354,
  "Pierre": 4355,
  "Foundation": 4356,
  "332": 4357,
  "4A": 4358,
  "4K": 4359,
  "435": 4360,
  "575": 4361,
  "790": 4362,
  "Astro": 4363,
  "Bad": 4364,
  "TMA": 4365,
  "ese": 4366,
  "ola": 4367,
  "ans": 4368,
  "endo": 4369,
  "lity": 4370,
  "bird": 4371,
  "tish": 4372,
  "tica": 4373,
  "nar": 4374,
  "1523": 4375,
  "1535": 4376,
  "1649": 4377,
  "1661": 4378,
  "1770": 4379,
  "1499": 4380,
  "number": 4381,
  "ram": 4382,
  "ガ": 4383,
  "わ": 4384,
  "361": 4385,
  "466": 4386,
  "391": 4387,
  "....": 4388,
  "vices": 4389,
  "551": 4390,
  "final": 4391,
  "Moder": 4392,
  "Pod": 4393,
  "1601": 4394,
  "PCI": 4395,
  "ality": 4396,
  "TOK": 4397,
  "Francis": 4398,
  "AcFun": 4399,
  "trol": 4400,
  "Flash": 4401,
  "worth": 4402,
  "craft": 4403,
  "Wonder": 4404,
  "528": 4405,
  "5500": 4406,
  "990": 4407,
  "Ant": 4408,
  "Bang": 4409,
  "HTT": 4410,
  "gne": 4411,
  "mitte": 4412,
  "master": 4413,
  "mental": 4414,
  "word": 4415,
  "1511": 4416,
  "1760": 4417,
  "1769": 4418,
  "indu": 4419,
  "sour": 4420,
  "358": 4421,
  "371": 4422,
  "469": 4423,
  "ellow": 4424,
  "684": 4425,
  "587": 4426,
  "Dia": 4427,
  "Story": 4428,
  "ppm": 4429,
  "SMAP": 4430,
  "Andrew": 4431,
  "tribu": 4432,
  "Edge": 4433,
  "active": 4434,
  "Golden": 4435,
  "Explor": 4436,
  "548": 4437,
  "AW": 4438,
  "Kai": 4439,
  "Lui": 4440,
  "Loo": 4441,
  "MAC": 4442,
  "ext": 4443,
  "oni": 4444,
  "sma": 4445,
  "then": 4446,
  "eil": 4447,
  "chy": 4448,
  "20000": 4449,
  "1080": 4450,
  "15000": 4451,
  "1576": 4452,
  "1594": 4453,
  "1689": 4454,
  "362": 4455,
  "383": 4456,
  "llen": 4457,
  "TCP": 4458,
  "341": 4459,
  "Mis": 4460,
  "NASL": 4461,
  "Program": 4462,
  "kia": 4463,
  "Seven": 4464,
  "count": 4465,
  "Soul": 4466,
  "Bridge": 4467,
  "Angel": 4468,
  "kins": 4469,
  "Matthe": 4470,
  "European": 4471,
  "921": 4472,
  "Bun": 4473,
  "L1": 4474,
  "MMC": 4475,
  "NEX": 4476,
  "RB": 4477,
  "Tas": 4478,
  "UFO": 4479,
  "VF": 4480,
  "ef": 4481,
  "zar": 4482,
  "rit": 4484,
  "lius": 4485,
  "tour": 4486,
  "cep": 4487,
  "1811": 4488,
  "1517": 4489,
  "1514": 4490,
  "1578": 4491,
  "1552": 4492,
  "―": 4493,
  "1639": 4494,
  "1684": 4495,
  "608": 4496,
  "cos": 4497,
  "top": 4498,
  "349": 4499,
  "644": 4500,
  "557": 4501,
  "585": 4502,
  "597": 4503,
  "Some": 4504,
  "Not": 4505,
  "gins": 4506,
  "thers": 4507,
  "Dance": 4508,
  "Eliza": 4509,
  "Gamer": 4510,
  "template": 4511,
  "Stephen": 4512,
  "Taylor": 4513,
  "348": 4514,
  "436": 4515,
  "549": 4516,
  "AST": 4517,
  "Bet": 4518,
  "Cre": 4519,
  "DNS": 4520,
  "Fred": 4521,
  "Lam": 4522,
  "RN": 4523,
  "Spa": 4524,
  "TF": 4525,
  "bla": 4526,
  "ic": 4527,
  "sit": 4528,
  "poly": 4529,
  "1763": 4530,
  "1350": 4531,
  "inte": 4532,
  "＋": 4533,
  "403": 4534,
  "908": 4535,
  "Marie": 4536,
  "dore": 4537,
  "6500": 4538,
  "Roman": 4539,
  "1505": 4540,
  "Mega": 4541,
  "View": 4542,
  "777": 4543,
  "Gaga": 4544,
  "Test": 4545,
  "kie": 4546,
  "Cast": 4547,
  "Conne": 4548,
  "MG42": 4549,
  "Christop": 4550,
  "yond": 4551,
  "vernment": 4552,
  "547": 4553,
  "567": 4554,
  "668": 4555,
  "Apo": 4556,
  "C5": 4557,
  "Fai": 4558,
  "FAN": 4559,
  "Jus": 4560,
  "Kon": 4561,
  "NK": 4562,
  "T4": 4563,
  "YOSHI": 4564,
  "fis": 4565,
  "pel": 4566,
  "ppe": 4567,
  "³": 4568,
  "і": 4569,
  "tec": 4570,
  "nas": 4571,
  "1050": 4572,
  "sel": 4573,
  "tant": 4574,
  "pos": 4575,
  "1614": 4576,
  "1720": 4577,
  "374": 4578,
  "CoV": 4579,
  "494": 4580,
  "verse": 4581,
  "lyn": 4582,
  "Never": 4583,
  "Arti": 4584,
  "IDE": 4585,
  "Hit": 4586,
  "Kit": 4587,
  "IPS": 4588,
  "PSP": 4589,
  "People": 4590,
  "UNIX": 4591,
  "Santa": 4592,
  "Just": 4593,
  "Ⅰ": 4594,
  "Phil": 4595,
  "Frame": 4596,
  "IPv4": 4597,
  "Explorer": 4598,
  "514": 4599,
  "522": 4600,
  "545": 4601,
  "568": 4602,
  "619": 4603,
  "675": 4604,
  "Blu": 4605,
  "CSS": 4606,
  "D1": 4607,
  "EBU": 4608,
  "Jor": 4609,
  "KT": 4610,
  "Mountain": 4611,
  "bn": 4612,
  "une": 4613,
  "sie": 4614,
  "siness": 4615,
  "lau": 4616,
  "sea": 4617,
  "1516": 4618,
  "1513": 4619,
  "1534": 4620,
  "1547": 4621,
  "1569": 4622,
  "16V": 4623,
  "1460": 4624,
  "stone": 4625,
  "cula": 4626,
  "で": 4627,
  "359": 4628,
  "tera": 4629,
  "757": 4630,
  "642": 4631,
  "581": 4632,
  "1502": 4633,
  "ctions": 4634,
  "Raw": 4635,
  "Solo": 4636,
  "GeForce": 4637,
  "ร": 4638,
  "SOHC": 4639,
  "Phy": 4640,
  "Sunday": 4641,
  "Arthur": 4642,
  "Karl": 4643,
  "COLLAR": 4644,
  "mittee": 4645,
  "418": 4646,
  "414": 4647,
  "424": 4648,
  "433": 4649,
  "544": 4650,
  "Alan": 4651,
  "CJ": 4652,
  "DTS": 4653,
  "F2": 4654,
  "Inv": 4655,
  "JO": 4656,
  "MMO": 4657,
  "PEN": 4658,
  "Two": 4659,
  "True": 4660,
  "XIV": 4661,
  "rian": 4662,
  "wy": 4663,
  "В": 4664,
  "ering": 4665,
  "sive": 4666,
  "cine": 4667,
  "lands": 4668,
  "mand": 4669,
  "1731": 4670,
  "1768": 4671,
  "1771": 4672,
  "1490": 4673,
  "heir": 4674,
  "news": 4675,
  "409": 4676,
  "ハ": 4677,
  "604": 4678,
  "802": 4679,
  "ケ": 4680,
  "ょ": 4681,
  "ろ": 4682,
  "389": 4683,
  "7500": 4684,
  "394": 4685,
  "been": 4686,
  "476": 4687,
  "493": 4688,
  "Mod": 4689,
  "usta": 4690,
  "Bell": 4691,
  "ERO": 4692,
  "Box": 4693,
  "Hip": 4694,
  "Rift": 4695,
  "Work": 4696,
  "AGE": 4697,
  "Prime": 4698,
  "presen": 4699,
  "FOX": 4700,
  "sort": 4701,
  "while": 4702,
  "JTBC": 4703,
  "⇔": 4704,
  "Cinema": 4705,
  "Avenue": 4706,
  "431": 4707,
  "539": 4708,
  "745": 4709,
  "Ari": 4710,
  "ABS": 4711,
  "Bre": 4712,
  "Dro": 4713,
  "EO": 4714,
  "Ever": 4715,
  "Ita": 4716,
  "Ker": 4717,
  "Lord": 4718,
  "Oh": 4719,
  "V6": 4720,
  "jq": 4721,
  "sk": 4722,
  "ska": 4723,
  "ı": 4724,
  "lica": 4725,
  "bow": 4726,
  "mos": 4727,
  "1593": 4728,
  "1724": 4729,
  "1752": 4730,
  "1469": 4731,
  "1498": 4732,
  "1370": 4733,
  "rows": 4734,
  "え": 4735,
  "gate": 4736,
  "382": 4737,
  "755": 4738,
  "464": 4739,
  "444": 4740,
  "571": 4741,
  "1501": 4742,
  "Victor": 4743,
  "Development": 4744,
  "Mode": 4745,
  "nova": 4746,
  "ginal": 4747,
  "Name": 4748,
  "Kids": 4749,
  "PS3": 4750,
  "prot": 4751,
  "Express": 4752,
  "Court": 4753,
  "British": 4754,
  "Dragon": 4755,
  "AGASA": 4756,
  "Friedrich": 4757,
  "646": 4758,
  "667": 4759,
  "Ash": 4760,
  "Alt": 4761,
  "CIA": 4762,
  "D2": 4763,
  "GW": 4764,
  "Hard": 4765,
  "IRT": 4766,
  "Kei": 4767,
  "M6": 4768,
  "XF": 4769,
  "ZJ": 4770,
  "apo": 4771,
  "bour": 4772,
  "cz": 4773,
  "cca": 4774,
  "est": 4775,
  "free": 4776,
  "dex": 4777,
  "ould": 4778,
  "tify": 4779,
  "shed": 4780,
  "mine": 4781,
  "nament": 4782,
  "1520": 4783,
  "1560": 4784,
  "1553": 4785,
  "1651": 4786,
  "1740": 4787,
  "1493": 4788,
  "602": 4789,
  "904": 4790,
  "town": 4791,
  "cking": 4792,
  "Intelli": 4793,
  "Rea": 4794,
  "496": 4795,
  "498": 4796,
  "443": 4797,
  "Via": 4798,
  "With": 4799,
  "user": 4800,
  "Boys": 4801,
  "Fami": 4802,
  "MAN": 4803,
  "Hotel": 4804,
  "Donald": 4805,
  "Anna": 4806,
  "UNG": 4807,
  "AGUE": 4808,
  "LEAGUE": 4809,
  "quid": 4810,
  "Firefox": 4811,
  "Doug": 4812,
  "्": 4813,
  "Athlon": 4814,
  "611": 4815,
  "645": 4816,
  "945": 4817,
  "Apa": 4818,
  "Again": 4819,
  "C1": 4820,
  "CBA": 4821,
  "DEC": 4822,
  "Ea": 4823,
  "Nat": 4824,
  "Old": 4825,
  "QU": 4826,
  "Tel": 4827,
  "TAM": 4828,
  "U2": 4829,
  "two": 4830,
  "ute": 4831,
  "wis": 4832,
  "xa": 4833,
  "å": 4834,
  "ais": 4836,
  "ergy": 4837,
  "bia": 4838,
  "change": 4839,
  "made": 4840,
  "1596": 4841,
  "1632": 4842,
  "1679": 4843,
  "1718": 4844,
  "1735": 4845,
  "1745": 4846,
  "1758": 4847,
  "25G": 4848,
  "＝": 4849,
  "lty": 4850,
  "culus": 4851,
  "メ": 4852,
  "907": 4853,
  "め": 4854,
  "ゆ": 4855,
  "Machi": 4856,
  "584": 4857,
  "1506": 4858,
  "Dear": 4859,
  "Wild": 4860,
  "Side": 4861,
  "Neu": 4862,
  "Baby": 4863,
  "1605": 4864,
  "Week": 4865,
  "nvest": 4866,
  "produ": 4867,
  "REAM": 4868,
  "Electro": 4869,
  "Standard": 4870,
  "Central": 4871,
  "Health": 4872,
  "Adam": 4873,
  "sional": 4874,
  "Christopher": 4875,
  "YOSHIKI": 4876,
  "050": 4877,
  "439": 4878,
  "533": 4879,
  "731": 4880,
  "732": 4881,
  "741": 4882,
  "762": 4883,
  "962": 4884,
  "Cree": 4885,
  "Dal": 4886,
  "Eve": 4887,
  "Gin": 4888,
  "H3": 4889,
  "ICD": 4890,
  "NU": 4891,
  "Num": 4892,
  "RCP": 4893,
  "Shu": 4894,
  "Sand": 4895,
  "TL": 4896,
  "Tha": 4897,
  "UCLA": 4898,
  "Wood": 4899,
  "ay": 4900,
  "jan": 4901,
  "υ": 4902,
  "ert": 4904,
  "tice": 4905,
  "zed": 4906,
  "1260": 4907,
  "1566": 4908,
  "1725": 4909,
  "1748": 4910,
  "ツ": 4911,
  "706": 4912,
  "よ": 4913,
  "を": 4914,
  "457": 4915,
  "379": 4916,
  "door": 4917,
  "756": 4918,
  "case": 4919,
  "Info": 4920,
  "ssor": 4921,
  "553": 4922,
  "673": 4923,
  "List": 4924,
  "Liber": 4925,
  "574": 4926,
  "576": 4927,
  "Vision": 4928,
  "985": 4929,
  "gia": 4930,
  "Bir": 4931,
  "973": 4932,
  "prise": 4933,
  "Jackson": 4934,
  "AlphaFold": 4935,
  "Mitche": 4936,
  "Capital": 4937,
  "Fleetline": 4938,
  "Angelababy": 4939,
  "Matthew": 4940,
  "516": 4941,
  "617": 4942,
  "639": 4943,
  "722": 4944,
  "735": 4945,
  "DU": 4946,
  "Econo": 4947,
  "HMS": 4948,
  "P2": 4949,
  "Sty": 4950,
  "cter": 4951,
  "eb": 4952,
  "glo": 4953,
  "np": 4954,
  "2050": 4956,
  "cel": 4957,
  "1528": 4958,
  "1572": 4959,
  "1652": 4960,
  "1727": 4961,
  "1761": 4962,
  "1368": 4963,
  "ras": 4964,
  "ワ": 4965,
  "ノ": 4966,
  "als": 4967,
  "356": 4968,
  "704": 4969,
  "482": 4970,
  "655": 4971,
  "brary": 4972,
  "Robin": 4973,
  "ARE": 4974,
  "Fish": 4975,
  "Tower": 4976,
  "state": 4977,
  "Committee": 4978,
  "Pie": 4979,
  "mpson": 4980,
  "BLE": 4981,
  "Harry": 4982,
  "Press": 4983,
  "Mind": 4984,
  "Jones": 4985,
  "Anderson": 4986,
  "Gaon": 4987,
  "Elizabeth": 4988,
  "447": 4989,
  "863": 4990,
  "926": 4991,
  "961": 4992,
  "Cru": 4993,
  "Juan": 4994,
  "LX": 4995,
  "RATP": 4996,
  "Sel": 4997,
  "Sport": 4998,
  "Twin": 4999,
  "VP": 5000,
  "WW": 5001,
  "crea": 5002,
  "gor": 5003,
  "ners": 5004,
  "vor": 5005,
  "wel": 5006,
  "zing": 5007,
  "defea": 5008,
  "lad": 5009,
  "lade": 5010,
  "mod": 5011,
  "1531": 5012,
  "1538": 5013,
  "1647": 5014,
  "1681": 5015,
  "into": 5016,
  "803": 5017,
  "they": 5018,
  "708": 5019,
  "ゃ": 5020,
  "452": 5021,
  "453": 5022,
  "Colspan": 5023,
  "bed": 5024,
  "651": 5025,
  "586": 5026,
  "572": 5027,
  "1504": 5028,
  "Leon": 5029,
  "Beyond": 5030,
  "EDG": 5031,
  "APG": 5032,
  "Basic": 5033,
  "ICA": 5034,
  "fessor": 5035,
  "1701": 5036,
  "alis": 5037,
  "HOME": 5038,
  "Disco": 5039,
  "ccff": 5040,
  "ccccff": 5041,
  "English": 5042,
  "Patrick": 5043,
  "Garden": 5044,
  "Women": 5045,
  "frame": 5046,
  "FINAL": 5047,
  "3M": 5048,
  "438": 5049,
  "511": 5050,
  "933": 5051,
  "ILE": 5052,
  "Jam": 5053,
  "Swi": 5054,
  "Sour": 5055,
  "SNC": 5056,
  "cta": 5057,
  "Ω": 5058,
  "з": 5059,
  "ت": 5060,
  "shop": 5062,
  "lit": 5063,
  "xus": 5064,
  "sum": 5065,
  "link": 5066,
  "1530": 5067,
  "1537": 5068,
  "1736": 5069,
  "＆": 5070,
  "603": 5071,
  "808": 5072,
  "Color": 5073,
  "461": 5074,
  "468": 5075,
  "vity": 5076,
  "681": 5077,
  "kit": 5078,
  "ONG": 5079,
  "1709": 5080,
  "Carl": 5081,
  "Kevin": 5082,
  "Southern": 5083,
  "GameSpot": 5084,
  "Twitch": 5085,
  "Abdu": 5086,
  "JavaScript": 5087,
  "DirectX": 5088,
  "Modern": 5089,
  "3G": 5090,
  "541": 5091,
  "629": 5092,
  "648": 5093,
  "725": 5094,
  "CAR": 5095,
  "ELE": 5096,
  "Main": 5097,
  "NN": 5098,
  "NPC": 5099,
  "P4": 5100,
  "Rh": 5101,
  "URE": 5102,
  "ami": 5103,
  "gran": 5104,
  "mbo": 5105,
  "ovan": 5106,
  "vat": 5107,
  "х": 5108,
  "xis": 5109,
  "dire": 5110,
  "ery": 5111,
  "team": 5112,
  "sul": 5113,
  "super": 5114,
  "redo": 5115,
  "1519": 5116,
  "1529": 5117,
  "1555": 5118,
  "1687": 5119,
  "1728": 5120,
  "mel": 5121,
  "meter": 5122,
  "ポ": 5123,
  "loca": 5124,
  "905": 5125,
  "484": 5126,
  "Maker": 5127,
  "before": 5128,
  "653": 5129,
  "559": 5130,
  "491": 5131,
  "679": 5132,
  "Roy": 5133,
  "fish": 5134,
  "796": 5135,
  "OSS": 5136,
  "Silver": 5137,
  "tton": 5138,
  "Sau": 5139,
  "MAD": 5140,
  "Concer": 5141,
  "ckett": 5142,
  "URL": 5143,
  "AOA": 5144,
  "Yahoo": 5145,
  "Spotify": 5146,
  "ctures": 5147,
  "Prince": 5148,
  "ASCII": 5149,
  "OmegaT": 5150,
  "Framework": 5151,
  "protein": 5152,
  "Mitchell": 5153,
  "423": 5154,
  "536": 5155,
  "632": 5156,
  "715": 5157,
  "825": 5158,
  "833": 5159,
  "Aus": 5160,
  "Area": 5161,
  "B3": 5162,
  "Brea": 5163,
  "CAL": 5164,
  "D9": 5165,
  "Flow": 5166,
  "GRO": 5167,
  "Jes": 5168,
  "K2": 5169,
  "Money": 5170,
  "Mbps": 5171,
  "Nar": 5172,
  "RDS": 5173,
  "That": 5174,
  "df": 5175,
  "pl": 5176,
  "lib": 5177,
  "lim": 5178,
  "sible": 5179,
  "sical": 5180,
  "2035": 5181,
  "rium": 5182,
  "seu": 5183,
  "1120": 5184,
  "wart": 5185,
  "1767": 5186,
  "love": 5187,
  "473": 5188,
  "492": 5189,
  "661": 5190,
  "562": 5191,
  "Viole": 5192,
  "Debian": 5193,
  "Dead": 5194,
  "aso": 5195,
  "Bird": 5196,
  "PS2": 5197,
  "Anne": 5198,
  "Eddie": 5199,
  "Hero": 5200,
  "TRA": 5201,
  "Zico": 5202,
  "signed": 5203,
  "Chrome": 5204,
  "Countdown": 5205,
  "Operation": 5206,
  "Secret": 5207,
  "TOKYO": 5208,
  "Violetta": 5209,
  "339": 5210,
  "429": 5211,
  "532": 5212,
  "665": 5213,
  "775": 5214,
  "769": 5215,
  "Band": 5216,
  "D5": 5217,
  "Fon": 5218,
  "JI": 5219,
  "Off": 5220,
  "R1": 5221,
  "RF": 5222,
  "Ring": 5223,
  "Ron": 5224,
  "SNS": 5225,
  "Tol": 5226,
  "Yan": 5227,
  "gma": 5228,
  "ա": 5229,
  "della": 5230,
  "ound": 5231,
  "tier": 5232,
  "bat": 5233,
  "mentary": 5234,
  "such": 5235,
  "lvin": 5236,
  "see": 5237,
  "1220": 5238,
  "1545": 5239,
  "1664": 5240,
  "1659": 5241,
  "1719": 5242,
  "1495": 5243,
  "1496": 5244,
  "1388": 5245,
  "stor": 5246,
  "702": 5247,
  "703": 5248,
  "dow": 5249,
  "STATION": 5250,
  "vir": 5251,
  "him": 5252,
  "689": 5253,
  "Mil": 5254,
  "Mix": 5255,
  "Like": 5256,
  "692": 5257,
  "798": 5258,
  "Jaco": 5259,
  "Fil": 5260,
  "ERS": 5261,
  "stal": 5262,
  "Stor": 5263,
  "AND": 5264,
  "Anti": 5265,
  "Anth": 5266,
  "graphy": 5267,
  "Steven": 5268,
  "Feli": 5269,
  "IFF": 5270,
  "Henri": 5271,
  "Rail": 5272,
  "cific": 5273,
  "Classic": 5274,
  "010": 5275,
  "434": 5276,
  "636": 5277,
  "729": 5278,
  "761": 5279,
  "878": 5280,
  "Action": 5281,
  "Bus": 5282,
  "E1": 5283,
  "Eri": 5284,
  "E231": 5285,
  "GEN": 5286,
  "Hand": 5287,
  "Iso": 5288,
  "Kur": 5289,
  "L2": 5290,
  "Len": 5291,
  "Mang": 5292,
  "Mus": 5293,
  "PAGASA": 5294,
  "RK": 5295,
  "ZERO": 5296,
  "bble": 5297,
  "ois": 5298,
  "pres": 5299,
  "Б": 5300,
  "М": 5301,
  "ц": 5302,
  "shion": 5304,
  "iana": 5305,
  "rite": 5306,
  "lair": 5307,
  "sell": 5308,
  "gene": 5309,
  "1546": 5310,
  "1549": 5311,
  "1562": 5312,
  "1670": 5313,
  "1690": 5314,
  "1654": 5315,
  "1653": 5316,
  "1694": 5317,
  "1759": 5318,
  "1466": 5319,
  "artic": 5320,
  "モ": 5321,
  "807": 5322,
  "709": 5323,
  "458": 5324,
  "game": 5325,
  "463": 5326,
  "555": 5327,
  "high": 5328,
  "596": 5329,
  "662": 5330,
  "Paris": 5331,
  "gie": 5332,
  "constru": 5333,
  "See": 5334,
  "Stri": 5335,
  "Happy": 5336,
  "Chal": 5337,
  "Interactive": 5338,
  "Johnny": 5339,
  "flight": 5340,
  "Voice": 5341,
  "Guard": 5342,
  "Fox": 5343,
  "Kenne": 5344,
  "FAST": 5345,
  "Build": 5346,
  "HTTP": 5347,
  "12000": 5348,
  "527": 5349,
  "638": 5350,
  "669": 5351,
  "712": 5352,
  "711": 5353,
  "BP": 5354,
  "DREAM": 5355,
  "Hein": 5356,
  "Ing": 5357,
  "IMAX": 5358,
  "K11": 5359,
  "LV": 5360,
  "M5": 5361,
  "NCC": 5362,
  "RSA": 5363,
  "Zen": 5364,
  "kon": 5365,
  "ov": 5366,
  "oli": 5367,
  "pet": 5368,
  "ά": 5369,
  "dica": 5370,
  "rish": 5371,
  "lee": 5372,
  "last": 5373,
  "sung": 5374,
  "cept": 5375,
  "won": 5376,
  "1558": 5377,
  "1581": 5378,
  "1738": 5379,
  "1474": 5380,
  "1375": 5381,
  "pass": 5382,
  "STAT": 5383,
  "477": 5384,
  "Inte": 5385,
  "There": 5386,
  "68000": 5387,
  "ATE": 5388,
  "595": 5389,
  "598": 5390,
  "599": 5391,
  "578": 5392,
  "Stars": 5393,
  "More": 5394,
  "Galant": 5395,
  "stars": 5396,
  "1608": 5397,
  "Chart": 5398,
  "EPA": 5399,
  "program": 5400,
  "dence": 5401,
  "auto": 5402,
  "EXILE": 5403,
  "GPL": 5404,
  "Samuel": 5405,
  "NMB48": 5406,
  "521": 5407,
  "628": 5408,
  "622": 5409,
  "721": 5410,
  "867": 5411,
  "877": 5412,
  "965": 5413,
  "BY": 5414,
  "F5": 5415,
  "Gon": 5416,
  "Jet": 5417,
  "OST": 5418,
  "RX": 5419,
  "Sr": 5420,
  "Schi": 5421,
  "SUP": 5422,
  "VEN": 5423,
  "WP": 5424,
  "ZZ": 5425,
  "ath": 5426,
  "ez": 5427,
  "fin": 5428,
  "fes": 5429,
  "depen": 5430,
  "ril": 5431,
  "lem": 5432,
  "shell": 5433,
  "bora": 5434,
  "lati": 5435,
  "1280": 5436,
  "″": 5437,
  "1665": 5438,
  "1732": 5439,
  "1744": 5440,
  "1756": 5441,
  "1489": 5442,
  "1487": 5443,
  "1340": 5444,
  "000rpm": 5445,
  "cular": 5446,
  "ビ": 5447,
  "906": 5448,
  "ズ": 5449,
  "451": 5450,
  "997": 5451,
  "wski": 5452,
  "gina": 5453,
  "Proto": 5454,
  "Jac": 5455,
  "Stru": 5456,
  "Player": 5457,
  "Business": 5458,
  "Chill": 5459,
  "ckets": 5460,
  "prin": 5461,
  "Anime": 5462,
  "Wilson": 5463,
  "SHOW": 5464,
  "Mount": 5465,
  "Forever": 5466,
  "Security": 5467,
  "Source": 5468,
  "2nd": 5469,
  "519": 5470,
  "517": 5471,
  "624": 5472,
  "623": 5473,
  "835": 5474,
  "876": 5475,
  "938": 5476,
  "954": 5477,
  "951": 5478,
  "Ap": 5479,
  "B9": 5480,
  "CAP": 5481,
  "D3": 5482,
  "EU": 5483,
  "Fw": 5484,
  "Fly": 5485,
  "GDDR": 5486,
  "IMD": 5487,
  "LCD": 5488,
  "Ner": 5489,
  "NIC": 5490,
  "Qt": 5491,
  "Ryan": 5492,
  "YF": 5493,
  "hin": 5494,
  "sse": 5495,
  "vas": 5496,
  "would": 5497,
  "yd": 5498,
  "И": 5499,
  "life": 5501,
  "dine": 5502,
  "far": 5503,
  "leu": 5504,
  "year": 5505,
  "mum": 5506,
  "tura": 5507,
  "mode": 5508,
  "seed": 5509,
  "mail": 5510,
  "1524": 5511,
  "1532": 5512,
  "1584": 5513,
  "1658": 5514,
  "1657": 5515,
  "1699": 5516,
  "1762": 5517,
  "1337": 5518,
  "＞": 5519,
  "tero": 5520,
  "472": 5521,
  "474": 5522,
  "649": 5523,
  "497": 5524,
  "687": 5525,
  "688": 5526,
  "698": 5527,
  "Rober": 5528,
  "579": 5529,
  "784": 5530,
  "Jona": 5531,
  "Dave": 5532,
  "Bike": 5533,
  "Holly": 5534,
  "1406": 5535,
  "Carlos": 5536,
  "DSP": 5537,
  "ा": 5538,
  "SHIN": 5539,
  "Clau": 5540,
  "Smack": 5541,
  "★": 5542,
  "Public": 5543,
  "Computer": 5544,
  "MONSTA": 5545,
  "Touch": 5546,
  "html": 5547,
  "Smosh": 5548,
  "Apache": 5549,
  "054": 5550,
  "616": 5551,
  "719": 5552,
  "865": 5553,
  "946": 5554,
  "988": 5555,
  "DH": 5556,
  "G1": 5557,
  "H4": 5558,
  "H10": 5559,
  "Ky": 5560,
  "Pha": 5561,
  "S3": 5562,
  "Sb": 5563,
  "WHO": 5564,
  "XG": 5565,
  "Zo": 5566,
  "bb": 5567,
  "eg": 5568,
  "used": 5569,
  "æ": 5570,
  "φ": 5571,
  "micro": 5572,
  "cid": 5573,
  "law": 5574,
  "sana": 5575,
  "power": 5576,
  "rel": 5577,
  "ways": 5578,
  "sage": 5579,
  "1668": 5580,
  "1739": 5581,
  "1764": 5582,
  "format": 5583,
  "follow": 5584,
  "dox": 5585,
  "Res": 5586,
  "30000": 5587,
  "Library": 5588,
  "will": 5589,
  "787": 5590,
  "File": 5591,
  "Albu": 5592,
  "PSV": 5593,
  "Take": 5594,
  "1702": 5595,
  "Human": 5596,
  "LLVM": 5597,
  "trie": 5598,
  "Mercu": 5599,
  "Sense": 5600,
  "rowspan": 5601,
  "SmackDown": 5602,
  "052": 5603,
  "421": 5604,
  "437": 5605,
  "614": 5606,
  "626": 5607,
  "637": 5608,
  "815": 5609,
  "816": 5610,
  "975": 5611,
  "Bin": 5612,
  "Echo": 5613,
  "GF": 5614,
  "If": 5615,
  "Ice": 5616,
  "JP": 5617,
  "Mes": 5618,
  "YA": 5619,
  "ZO": 5620,
  "cli": 5621,
  "dley": 5622,
  "kha": 5623,
  "Р": 5624,
  "ene": 5626,
  "bis": 5627,
  "til": 5628,
  "rison": 5629,
  "lein": 5630,
  "most": 5631,
  "0000": 5632,
  "1275": 5633,
  "1536": 5634,
  "pani": 5635,
  "1675": 5636,
  "1464": 5637,
  "rate": 5638,
  "455": 5639,
  "IND": 5640,
  "671": 5641,
  "678": 5642,
  "Jos": 5643,
  "Professor": 5644,
  "Tex": 5645,
  "Cata": 5646,
  "Fashion": 5647,
  "Bit": 5648,
  "Stone": 5649,
  "Histo": 5650,
  "Giovan": 5651,
  "Liner": 5652,
  "1705": 5653,
  "TOWN": 5654,
  "Appli": 5655,
  "Sheet": 5656,
  "lease": 5657,
  "KKBOX": 5658,
  "Christmas": 5659,
  "function": 5660,
  "Championship": 5661,
  "Language": 5662,
  "scape": 5663,
  "Alfredo": 5664,
  "after": 5665,
  "542": 5666,
  "634": 5667,
  "821": 5668,
  "912": 5669,
  "CIT": 5670,
  "Cfb": 5671,
  "DX": 5672,
  "Dur": 5673,
  "Edi": 5674,
  "Hat": 5675,
  "HPV": 5676,
  "MOS": 5677,
  "MIT": 5678,
  "NXT": 5679,
  "SY": 5680,
  "Spin": 5681,
  "SIM": 5682,
  "WH": 5683,
  "Wong": 5684,
  "cam": 5685,
  "fle": 5686,
  "ghe": 5687,
  "group": 5688,
  "vai": 5689,
  "χ": 5690,
  "hea": 5694,
  "liance": 5695,
  "lative": 5696,
  "may": 5697,
  "gency": 5698,
  "rec": 5699,
  "1563": 5700,
  "ort": 5701,
  "1617": 5702,
  "1663": 5703,
  "1685": 5704,
  "1753": 5705,
  "ons": 5706,
  "1477": 5707,
  "1380": 5708,
  "503": 5709,
  "809": 5710,
  "ぎ": 5711,
  "there": 5712,
  "lock": 5713,
  "ソ": 5714,
  "483": 5715,
  "486": 5716,
  "Mach": 5717,
  "Make": 5718,
  "Mate": 5719,
  "754": 5720,
  "cat": 5721,
  "beca": 5722,
  "beat": 5723,
  "656": 5724,
  "Theat": 5725,
  "Rev": 5726,
  "Mid": 5727,
  "676": 5728,
  "ATX": 5729,
  "SAN": 5730,
  "785": 5731,
  "561": 5732,
  "NAS": 5733,
  "ARK": 5734,
  "ARP": 5735,
  "Field": 5736,
  "Siri": 5737,
  "Mars": 5738,
  "kiyo": 5739,
  "ACH": 5740,
  "Board": 5741,
  "Socket": 5742,
  "IPTV": 5743,
  "ANG": 5744,
  "Western": 5745,
  "า": 5746,
  "UNES": 5747,
  "Audio": 5748,
  "rono": 5749,
  "Frances": 5750,
  "Morning": 5751,
  "RCA": 5752,
  "Collection": 5753,
  "Hans": 5754,
  "SpaceX": 5755,
  "Fanta": 5756,
  "Afri": 5757,
  "TWICE": 5758,
  "Circle": 5759,
  "Creative": 5760,
  "Melon": 5761,
  "Wolf": 5762,
  "Industri": 5763,
  "SUPER": 5764,
  "2DS": 5765,
  "518": 5766,
  "526": 5767,
  "566": 5768,
  "716": 5769,
  "714": 5770,
  "765": 5771,
  "764": 5772,
  "744": 5773,
  "826": 5774,
  "847": 5775,
  "918": 5776,
  "936": 5777,
  "Abu": 5778,
  "Ace": 5779,
  "Bei": 5780,
  "BNO": 5781,
  "Cin": 5782,
  "Every": 5783,
  "GI": 5784,
  "Ian": 5785,
  "Kra": 5786,
  "MRI": 5787,
  "Nam": 5788,
  "RP": 5789,
  "SUN": 5790,
  "VIP": 5791,
  "WTT": 5792,
  "Yi": 5793,
  "hp": 5794,
  "inv": 5795,
  "own": 5796,
  "ł": 5797,
  "و": 5798,
  "ant": 5802,
  "cious": 5803,
  "dus": 5804,
  "multi": 5805,
  "teen": 5806,
  "mary": 5807,
  "1024": 5808,
  "1669": 5809,
  "1656": 5810,
  "1672": 5811,
  "1692": 5812,
  "1754": 5813,
  "1420": 5814,
  "1480": 5815,
  "ink": 5816,
  "lvet": 5817,
  "751": 5818,
  "cap": 5819,
  "658": 5820,
  "vio": 5821,
  "594": 5822,
  "wick": 5823,
  "791": 5824,
  "Wit": 5825,
  "AMC": 5826,
  "AMP": 5827,
  "Cathe": 5828,
  "Right": 5829,
  "Sul": 5830,
  "ITA": 5831,
  "1704": 5832,
  "1708": 5833,
  "Ware": 5834,
  "Wave": 5835,
  "Fort": 5836,
  "AGP": 5837,
  "MLB": 5838,
  "Here": 5839,
  "Future": 5840,
  "DMR": 5841,
  "Shine": 5842,
  "Clark": 5843,
  "Planet": 5844,
  "logical": 5845,
  "partment": 5846,
  "Front": 5847,
  "Moore": 5848,
  "2B": 5849,
  "713": 5850,
  "727": 5851,
  "748": 5852,
  "768": 5853,
  "875": 5854,
  "915": 5855,
  "929": 5856,
  "947": 5857,
  "BIG": 5858,
  "CYP": 5859,
  "EBS": 5860,
  "From": 5861,
  "Gian": 5862,
  "Isa": 5863,
  "ISA": 5864,
  "Jason": 5865,
  "NICO": 5866,
  "OME": 5867,
  "R3": 5868,
  "Ster": 5869,
  "Trai": 5870,
  "UF": 5871,
  "VIS": 5872,
  "XIII": 5873,
  "aw": 5874,
  "ior": 5875,
  "ski": 5876,
  "syn": 5877,
  "uer": 5878,
  "xc": 5879,
  "Т": 5880,
  "س": 5881,
  "anti": 5882,
  "under": 5883,
  "bury": 5884,
  "chus": 5885,
  "hout": 5886,
  "teau": 5887,
  "mari": 5888,
  "1075": 5889,
  "1277": 5890,
  "1279": 5891,
  "1276": 5892,
  "1111": 5893,
  "1440": 5894,
  "1488": 5895,
  "1472": 5896,
  "1371": 5897,
  "road": 5898,
  "ョ": 5899,
  "902": 5900,
  "489": 5901,
  "Indian": 5902,
  "699": 5903,
  "992": 5904,
  "881": 5905,
  "986": 5906,
  "twe": 5907,
  "Jay": 5908,
  "confi": 5909,
  "contribu": 5910,
  "APM": 5911,
  "1602": 5912,
  "commercial": 5913,
  "gos": 5914,
  "Bug": 5915,
  "Interplay": 5916,
  "cross": 5917,
  "AIM": 5918,
  "REAS": 5919,
  "CRH5": 5920,
  "Greg": 5921,
  "Vogue": 5922,
  "Version": 5923,
  "Walker": 5924,
  "Wilhe": 5925,
  "ddle": 5926,
  "Jimmy": 5927,
  "Building": 5928,
  "Opera": 5929,
  "District": 5930,
  "Thunderbird": 5931,
  "Sweet": 5932,
  "Films": 5933,
  "030": 5934,
  "633": 5935,
  "778": 5936,
  "812": 5937,
  "955": 5938,
  "957": 5939,
  "C3": 5940,
  "C14": 5941,
  "EY": 5942,
  "Fol": 5943,
  "LNG": 5944,
  "LIF": 5945,
  "MIC": 5946,
  "NY": 5947,
  "Nint": 5948,
  "POS": 5949,
  "RSS": 5950,
  "SAT": 5951,
  "Tam": 5952,
  "TNT": 5953,
  "Var": 5954,
  "Where": 5955,
  "ato": 5956,
  "cco": 5957,
  "d4": 5958,
  "gli": 5959,
  "spo": 5960,
  "tsu": 5961,
  "their": 5962,
  "ý": 5963,
  "ب": 5964,
  "د": 5965,
  "shire": 5966,
  "ends": 5967,
  "dad": 5968,
  "tino": 5969,
  "rice": 5970,
  "cies": 5971,
  "lain": 5972,
  "band": 5973,
  "minal": 5974,
  "laun": 5975,
  "tury": 5976,
  "002": 5977,
  "004": 5978,
  "1230": 5979,
  "longi": 5980,
  "1527": 5981,
  "1611": 5982,
  "せ": 5983,
  "487": 5984,
  "vement": 5985,
  "INT": 5986,
  "Information": 5987,
  "vich": 5988,
  "vier": 5989,
  "558": 5990,
  "685": 5991,
  "hol": 5992,
  "577": 5993,
  "781": 5994,
  "Page": 5995,
  "pert": 5996,
  "792": 5997,
  "794": 5998,
  "WiMAX": 5999,
  "981": 6000,
  "CO2": 6001,
  "ARC": 6002,
  "Jalan": 6003,
  "Six": 6004,
  "Say": 6005,
  "fect": 6006,
  "mers": 6007,
  "Nick": 6008,
  "Gemini": 6009,
  "Energy": 6010,
  "Stewart": 6011,
  "1122": 6012,
  "RES": 6013,
  "ESPN": 6014,
  "Trickett": 6015,
  "Asian": 6016,
  "Allen": 6017,
  "Stop": 6018,
  "Thompson": 6019,
  "Portable": 6020,
  "Velvet": 6021,
  "Quin": 6022,
  "show": 6023,
  "아": 6024,
  "Jonathan": 6025,
  "Nintendo": 6027,
  "070": 6028,
  "543": 6029,
  "615": 6030,
  "717": 6031,
  "828": 6032,
  "839": 6033,
  "939": 6034,
  "Azu": 6035,
  "Bas": 6036,
  "Cel": 6037,
  "E2": 6038,
  "FD": 6039,
  "G2": 6040,
  "GG": 6041,
  "Gy": 6042,
  "KS": 6043,
  "MED": 6044,
  "N1": 6045,
  "Pur": 6046,
  "Quan": 6047,
  "RY": 6048,
  "S7": 6049,
  "UFC": 6050,
  "V1": 6051,
  "V2": 6052,
  "Xi": 6053,
  "ave": 6054,
  "bui": 6055,
  "esa": 6056,
  "m2": 6057,
  "ppa": 6058,
  "tent": 6059,
  "dale": 6062,
  "tiful": 6063,
  "pis": 6064,
  "major": 6065,
  "based": 6066,
  "water": 6067,
  "1512": 6068,
  "1541": 6069,
  "1666": 6070,
  "1721": 6071,
  "1726": 6072,
  "1737": 6073,
  "1747": 6074,
  "1743": 6075,
  "1741": 6076,
  "1430": 6077,
  "25000": 6078,
  "medi": 6079,
  "rad": 6080,
  "481": 6081,
  "Match": 6082,
  "674": 6083,
  "Liquid": 6084,
  "697": 6085,
  "host": 6086,
  "889": 6087,
  "Deuts": 6088,
  "fit": 6089,
  "982": 6090,
  "989": 6091,
  "Titan": 6092,
  "PCR": 6093,
  "น": 6094,
  "AVE": 6095,
  "Hub": 6096,
  "Adven": 6097,
  "NHS": 6098,
  "Grace": 6099,
  "Sher": 6100,
  "Enterprise": 6101,
  "hyth": 6102,
  "Productions": 6103,
  "Bruce": 6104,
  "Douglas": 6105,
  "2TV": 6106,
  "513": 6107,
  "846": 6108,
  "866": 6109,
  "857": 6110,
  "B12": 6111,
  "Cong": 6112,
  "Fair": 6113,
  "Gary": 6114,
  "HY": 6115,
  "J1": 6116,
  "JXG": 6117,
  "Oculus": 6118,
  "TD": 6119,
  "WM": 6120,
  "again": 6121,
  "ey": 6122,
  "kHz": 6123,
  "nge": 6124,
  "kee": 6125,
  "mium": 6126,
  "quali": 6127,
  "bov": 6128,
  "bach": 6129,
  "nae": 6130,
  "1217": 6131,
  "1274": 6132,
  "gener": 6133,
  "ponen": 6134,
  "1515": 6135,
  "1542": 6136,
  "1712": 6137,
  "1711": 6138,
  "1715": 6139,
  "1435": 6140,
  "1456": 6141,
  "1328": 6142,
  "1385": 6143,
  "forman": 6144,
  "pas": 6145,
  "cola": 6146,
  "ぶ": 6147,
  "4800": 6148,
  "dol": 6149,
  "3400": 6150,
  "IIT": 6151,
  "Rosa": 6152,
  "Roger": 6153,
  "1509": 6154,
  "Staff": 6155,
  "asy": 6156,
  "gir": 6157,
  "Dick": 6158,
  "Window": 6159,
  "ISC": 6160,
  "971": 6161,
  "Kill": 6162,
  "Hay": 6163,
  "Nove": 6164,
  "ASH": 6165,
  "Netscape": 6166,
  "talk": 6167,
  "IGHT": 6168,
  "Shop": 6169,
  "GP40": 6170,
  "Drama": 6171,
  "hydro": 6172,
  "bridge": 6173,
  "nics": 6174,
  "Surf": 6175,
  "Pentium": 6176,
  "facebook": 6177,
  "Tennis": 6178,
  "Princess": 6179,
  "Pink": 6180,
  "Delta": 6181,
  "SHINee": 6182,
  "055": 6183,
  "647": 6184,
  "728": 6185,
  "726": 6186,
  "811": 6187,
  "913": 6188,
  "Brun": 6189,
  "CZ": 6190,
  "CCD": 6191,
  "COS": 6192,
  "Hai": 6193,
  "Ia": 6194,
  "Mg": 6195,
  "Pr": 6196,
  "Sang": 6197,
  "Snow": 6198,
  "TAI": 6199,
  "Uta": 6200,
  "Wai": 6201,
  "Wer": 6202,
  "Woo": 6203,
  "Zero": 6204,
  "ctus": 6205,
  "done": 6206,
  "kra": 6207,
  "oc": 6208,
  "pr": 6209,
  "zzi": 6210,
  "ί": 6211,
  "ζ": 6212,
  "iano": 6213,
  "tage": 6214,
  "cision": 6215,
  "pia": 6216,
  "nity": 6217,
  "shark": 6218,
  "1150": 6219,
  "1544": 6220,
  "1757": 6221,
  "1424": 6222,
  "1470": 6223,
  "1454": 6224,
  "array": 6225,
  "2900": 6226,
  "room": 6227,
  "909": 6228,
  "459": 6229,
  "3700": 6230,
  "759": 6231,
  "Coo": 6232,
  "bet": 6233,
  "STER": 6234,
  "672": 6235,
  "582": 6236,
  "ATS": 6237,
  "vers": 6238,
  "home": 6239,
  "591": 6240,
  "993": 6241,
  "SAP": 6242,
  "gion": 6243,
  "Division": 6244,
  "Lost": 6245,
  "Bow": 6246,
  "meral": 6247,
  "Kir": 6248,
  "Nicho": 6249,
  "Tac": 6250,
  "project": 6251,
  "shi ": 6252,
  "de ": 6253,
  " shi ": 6254,
  " de ": 6255,
  "yi ": 6256,
  " yi ": 6257,
  "ji ": 6258,
  "wei ": 6259,
  "zhi ": 6260,
  "yu ": 6261,
  " wei ": 6262,
  " ji ": 6263,
  " nian": 6264,
  " zhi ": 6265,
  " yu ": 6266,
  " li": 6267,
  " nian ": 6268,
  "zhong ": 6269,
  " li ": 6270,
  "zai ": 6271,
  " you": 6272,
  "ren ": 6273,
  "guo ": 6274,
  "he ": 6275,
  "qi ": 6276,
  "bu ": 6277,
  " you ": 6278,
  "di ": 6279,
  " zai ": 6280,
  " ren ": 6281,
  " yue": 6282,
  " zhong ": 6283,
  " he ": 6284,
  "da ": 6285,
  "xi ": 6286,
  "xing ": 6287,
  "yuan ": 6288,
  "gong ": 6289,
  "er ": 6290,
  " yue ": 6291,
  "fu ": 6292,
  "si ": 6293,
  "ge ": 6294,
  "jian ": 6295,
  " guo ": 6296,
  "wu ": 6297,
  "jia ": 6298,
  " bu ": 6299,
  "jie ": 6300,
  "ke ": 6301,
  "cheng ": 6302,
  "zhu ": 6303,
  "sheng ": 6304,
  "xiang ": 6305,
  "xian ": 6306,
  "dao ": 6307,
  "bei ": 6308,
  "zi ": 6309,
  " qi ": 6310,
  "fa ": 6311,
  "chu ": 6312,
  "hui ": 6313,
  "jin ": 6314,
  " di ": 6315,
  "shu ": 6316,
  " er ": 6317,
  "ri ": 6318,
  " xi ": 6319,
  "qu ": 6320,
  "zheng ": 6321,
  "ju ": 6322,
  "hou ": 6323,
  "shou ": 6324,
  "ming ": 6325,
  "shang ": 6326,
  "dong ": 6327,
  "jing ": 6328,
  "ta ": 6329,
  "le ": 6330,
  "xue ": 6331,
  "fang ": 6332,
  "yan ": 6333,
  "zhan ": 6334,
  "ci ": 6335,
  "bao ": 6336,
  "hua ": 6337,
  "ying ": 6338,
  " da ": 6339,
  "tong ": 6340,
  "ye ": 6341,
  "zuo ": 6342,
  "zhe ": 6343,
  "guan ": 6344,
  " ri ": 6345,
  "yin ": 6346,
  "chang ": 6347,
  "xin ": 6348,
  "jiao ": 6349,
  "lu ": 6350,
  "dui ": 6351,
  "wen ": 6352,
  "ti ": 6353,
  "fen ": 6354,
  "qian ": 6355,
  "tai ": 6356,
  "jiang ": 6357,
  "xiao ": 6358,
  " si ": 6359,
  "bing ": 6360,
  "jun ": 6361,
  "dian ": 6362,
  "zhang ": 6363,
  "ping ": 6364,
  "xia ": 6365,
  "du ": 6366,
  "huo ": 6367,
  "yong ": 6368,
  " ke ": 6369,
  " jia ": 6370,
  " dan": 6371,
  "gai ": 6372,
  "wang ": 6373,
  "hai ": 6374,
  "ru ": 6375,
  "dai ": 6376,
  "nan ": 6377,
  "qing ": 6378,
  "mu ": 6379,
  "bi ": 6380,
  "ban ": 6381,
  "liang ": 6382,
  " fu ": 6383,
  "lai ": 6384,
  "ya ": 6385,
  "shen ": 6386,
  "mei ": 6387,
  " xing ": 6388,
  "zu ": 6389,
  "wan ": 6390,
  "lian ": 6391,
  "she ": 6392,
  "min ": 6393,
  "mi ": 6394,
  "zhou ": 6395,
  "qiu ": 6396,
  "jiu ": 6397,
  "an ": 6398,
  " ta ": 6399,
  "zhen ": 6400,
  "ben ": 6401,
  "gao ": 6402,
  "xu ": 6403,
  " gong ": 6404,
  " dao ": 6405,
  "bo ": 6406,
  "luo ": 6407,
  "bian ": 6408,
  "xie ": 6409,
  "te ": 6410,
  "yao ": 6411,
  "deng ": 6412,
  "duo ": 6413,
  " xian ": 6414,
  "yang ": 6415,
  "quan ": 6416,
  "che ": 6417,
  "zui ": 6418,
  "ling ": 6419,
  "tian ": 6420,
  "gu ": 6421,
  "xuan ": 6422,
  "suo ": 6423,
  "fan ": 6424,
  "yun ": 6425,
  " ge ": 6426,
  " bing ": 6427,
  "dang ": 6428,
  "hu ": 6429,
  "shan ": 6430,
  " de yi ": 6431,
  "fei ": 6432,
  "sai ": 6433,
  "ding ": 6434,
  "biao ": 6435,
  "zong ": 6436,
  "kai ": 6437,
  "liu ": 6438,
  "ma ": 6439,
  "ba ": 6440,
  "hao ": 6441,
  "su ": 6442,
  "kou ": 6443,
  "tu ": 6444,
  "mian ": 6445,
  "men ": 6446,
  "you ": 6447,
  " dan ": 6448,
  "lei ": 6449,
  "la ": 6450,
  "feng ": 6451,
  "nei ": 6452,
  "cai ": 6453,
  "jue ": 6454,
  "wai ": 6455,
  " bei ": 6456,
  " jian ": 6457,
  " jin ": 6458,
  "pai ": 6459,
  "chuan ": 6460,
  "chi ": 6461,
  " shi yi ": 6462,
  "guang ": 6463,
  "lan ": 6464,
  "san ": 6465,
  "ni ": 6466,
  "gui ": 6467,
  "bai ": 6468,
  " zi ": 6469,
  " xiang ": 6470,
  " zhe ": 6471,
  "lin ": 6472,
  "ting ": 6473,
  "pu ": 6474,
  " zhu ": 6475,
  "neng ": 6476,
  "lun ": 6477,
  "gang ": 6478,
  "han ": 6479,
  "na ": 6480,
  "lie ": 6481,
  "cheng wei ": 6482,
  "ze ": 6483,
  " yin ": 6484,
  "mo ": 6485,
  " chu ": 6486,
  " shi de ": 6487,
  "mei guo ": 6488,
  "chan ": 6489,
  "shui ": 6490,
  " ju ": 6491,
  " cheng ": 6492,
  " de shi ": 6493,
  " jie ": 6494,
  " gai ": 6495,
  " wu ": 6496,
  "sui ": 6497,
  " bao ": 6498,
  "zhuan ": 6499,
  "xun ": 6500,
  " ping ": 6501,
  " ta": 6502,
  "lv ": 6503,
  "ao ": 6504,
  "zhuang ": 6505,
  "tou ": 6506,
  "li ": 6507,
  "duan ": 6508,
  " yi ji ": 6509,
  "dan ": 6510,
  "se ": 6511,
  "huan ": 6512,
  "chong ": 6513,
  " wei yu ": 6514,
  "pin ": 6515,
  "e ": 6516,
  "ceng ": 6517,
  "cong ": 6518,
  "cha ": 6519,
  "di yi ": 6520,
  "cun ": 6521,
  "zao ": 6522,
  " hou ": 6523,
  "kong ": 6524,
  "dou ": 6525,
  "zhao ": 6526,
  "a ": 6527,
  "gou ": 6528,
  " ci ": 6529,
  "gan ": 6530,
  "sha ": 6531,
  "qiang ": 6532,
  " shi ji ": 6533,
  "chao ": 6534,
  "meng ": 6535,
  "kai shi ": 6536,
  "man ": 6537,
  "tang ": 6538,
  "long ": 6539,
  "kuo ": 6540,
  " fa ": 6541,
  " yuan ": 6542,
  "1 ": 6543,
  "ai ": 6544,
  "ke yi ": 6545,
  " yi ge ": 6546,
  "ce ": 6547,
  " ye ": 6548,
  "tan ": 6549,
  "tuan ": 6550,
  " sheng ": 6551,
  " ming ": 6552,
  " shi wei ": 6553,
  "gong li ": 6554,
  " zhong guo ": 6555,
  "ka ": 6556,
  " bing": 6557,
  " tong": 6558,
  "qin ": 6559,
  "tie ": 6560,
  " shi shi ": 6561,
  "zheng fu ": 6562,
  "can ": 6563,
  "shao ": 6564,
  "pian ": 6565,
  "huo de ": 6566,
  "mian ji ": 6567,
  "hang ": 6568,
  "hong ": 6569,
  "geng ": 6570,
  " huo ": 6571,
  "ji de ": 6572,
  "tiao ": 6573,
  " shi yong ": 6574,
  "xiu ": 6575,
  "chen ": 6576,
  "shuo ": 6577,
  "pi ": 6578,
  "2 ": 6579,
  " dong ": 6580,
  "ren wei ": 6581,
  " shi jian ": 6582,
  "ran ": 6583,
  "tao ": 6584,
  "zhi yi ": 6585,
  "huang ": 6586,
  "zhong de ": 6587,
  "zheng zhi ": 6588,
  " yi zhi ": 6589,
  " shi jie ": 6590,
  " ri": 6591,
  "chuang ": 6592,
  "nv ": 6593,
  "zhong guo ": 6594,
  "yue ": 6595,
  "qu de ": 6596,
  "guo ji ": 6597,
  "yi shi ": 6598,
  " ping fang ": 6599,
  "wo ": 6600,
  "xing de ": 6601,
  "po ": 6602,
  " mi ": 6603,
  "ren kou ": 6604,
  " shou ": 6605,
  "rong ": 6606,
  "jin xing ": 6607,
  " sui ": 6608,
  "liao ": 6609,
  "diao ": 6610,
  "mei you ": 6611,
  "tuo ": 6612,
  "song ": 6613,
  "ou ": 6614,
  " li de ": 6615,
  "nian ": 6616,
  " li shi ": 6617,
  " dang": 6618,
  " wei yuan ": 6619,
  " fen ": 6620,
  " wan ": 6621,
  "pei ": 6622,
  " qi zhong ": 6623,
  "zuo wei ": 6624,
  "biao shi ": 6625,
  "fa guo ": 6626,
  " er": 6627,
  "   zai ": 6628,
  "yan jiu ": 6629,
  "zheng shi ": 6630,
  " shang ": 6631,
  " yin": 6632,
  " you yu ": 6633,
  " de ji ": 6634,
  "pan ": 6635,
  " hao ": 6636,
  "qie ": 6637,
  "tui ": 6638,
  "que ": 6639,
  " zhe": 6640,
  "dian shi ": 6641,
  "yun dong ": 6642,
  " xin ": 6643,
  "bang ": 6644,
  " hai ": 6645,
  " tai ": 6646,
  " mei ": 6647,
  " de di ": 6648,
  "cheng shi ": 6649,
  "zhi shi ": 6650,
  " shu ": 6651,
  " jing ": 6652,
  " jiang ": 6653,
  "jian de ": 6654,
  "ta de ": 6655,
  "gong he ": 6656,
  "shu yu ": 6657,
  "she ji ": 6658,
  " qian ": 6659,
  "gong si ": 6660,
  " ren kou ": 6661,
  "lang ": 6662,
  " ying ": 6663,
  " ren min ": 6664,
  "dun ": 6665,
  "zhi de ": 6666,
  "qiao ": 6667,
  "10 yue ": 6668,
  "12 yue ": 6669,
  " de zhi ": 6670,
  "jing ji ": 6671,
  "7 yue ": 6672,
  "dian ying ": 6673,
  " xia ": 6674,
  " nan ": 6675,
  "zu zhi ": 6676,
  " zhang ": 6677,
  "9 yue ": 6678,
  " mu ": 6679,
  "8 yue ": 6680,
  "zhu yi ": 6681,
  "3 yue ": 6682,
  " zui ": 6683,
  "1 yue ": 6684,
  "mao ": 6685,
  "wa ": 6686,
  " shi qi ": 6687,
  "5 yue ": 6688,
  "dai biao ": 6689,
  "ri ben ": 6690,
  "ying guo ": 6691,
  "ji shi ": 6692,
  "kao ": 6693,
  "6 yue ": 6694,
  "3 ": 6695,
  " you yi ": 6696,
  "kan ": 6697,
  "guo de ": 6698,
  "4 yue ": 6699,
  " hui ": 6700,
  " shi zhen ": 6701,
  "hen ": 6702,
  "mai ": 6703,
  "xian de ": 6704,
  " tong ": 6705,
  " bi ": 6706,
  "wei yi ": 6707,
  "11 yue ": 6708,
  "jiao yu ": 6709,
  "che zhan ": 6710,
  "gen ju ": 6711,
  "yi de ": 6712,
  "yu shi ": 6713,
  "ming wei ": 6714,
  "bu fen ": 6715,
  "xue yuan ": 6716,
  "re ": 6717,
  " yi yuan ": 6718,
  " de guo ": 6719,
  " ru ": 6720,
  "li shi ": 6721,
  " de yi ge ": 6722,
  "gen ": 6723,
  " zhi hou ": 6724,
  " nian 1 yue ": 6725,
  "xiang gang ": 6726,
  " deng ": 6727,
  "can jia ": 6728,
  "cao ": 6729,
  "kang ": 6730,
  " yi wei ": 6731,
  "da xue ": 6732,
  "she hui ": 6733,
  " ye": 6734,
  " ti ": 6735,
  "xian shi ": 6736,
  " di qu ": 6737,
  "sa ": 6738,
  " qing ": 6739,
  "ying xiang ": 6740,
  "shu de ": 6741,
  "tai wan ": 6742,
  " yan ": 6743,
  " xue ": 6744,
  "shang de ": 6745,
  "xing shi ": 6746,
  "qi shi ": 6747,
  "formula ": 6748,
  "bie ": 6749,
  " ran": 6750,
  " yin ci ": 6751,
  "guan li ": 6752,
  " xiao ": 6753,
  "zeng ": 6754,
  "lao ": 6755,
  "le yi ": 6756,
  " nian 12 yue ": 6757,
  "tong guo ": 6758,
  "bu de ": 6759,
  "wei shi ": 6760,
  " nian de ": 6761,
  "xing zheng ": 6762,
  "gong he guo ": 6763,
  "er shi ": 6764,
  " liang ": 6765,
  "ren de ": 6766,
  "zhun ": 6767,
  " li ya ": 6768,
  "zi ji ": 6769,
  "da de ": 6770,
  "xiong ": 6771,
  "2 yue ": 6772,
  "5 ": 6773,
  " guo jia ": 6774,
  "zui zhong ": 6775,
  " nian 3 yue ": 6776,
  "4 ": 6777,
  "hui yi ": 6778,
  "   sheng ": 6779,
  "cheng li ": 6780,
  " ping fang gong li ": 6781,
  " jiao ": 6782,
  " da xue ": 6783,
  "ku ": 6784,
  "luo si ": 6785,
  " nian 7 yue ": 6786,
  "kuang ": 6787,
  " nian 10 yue ": 6788,
  "miao ": 6789,
  " wang ": 6790,
  "chu de ": 6791,
  " zhan ": 6792,
  " ling ": 6793,
  "fa xian ": 6794,
  "ha ": 6795,
  " bao kuo ": 6796,
  "qi de ": 6797,
  " tian ": 6798,
  "gong zuo ": 6799,
  "fa zhan ": 6800,
  " shi zhi ": 6801,
  " nian 9 yue ": 6802,
  "yuan de ": 6803,
  " nian 5 yue ": 6804,
  " shi zai ": 6805,
  "hei ": 6806,
  " qi jian ": 6807,
  "piao ": 6808,
  "qi ta ": 6809,
  "kuai ": 6810,
  "si de ": 6811,
  " bo ": 6812,
  " nian 4 yue ": 6813,
  " nian 6 yue ": 6814,
  " nian 8 yue ": 6815,
  "tie lu ": 6816,
  "suo you ": 6817,
  " luo ": 6818,
  "dao zhi ": 6819,
  "dao de ": 6820,
  "tong de ": 6821,
  "cheng de ": 6822,
  " zheng ": 6823,
  "quan guo ": 6824,
  " ta men ": 6825,
  "can yu ": 6826,
  "shuang ": 6827,
  "nuo ": 6828,
  "lou ": 6829,
  "wen hua ": 6830,
  " hua ": 6831,
  " lu ": 6832,
  " tong shi ": 6833,
  " dui ": 6834,
  "di li ": 6835,
  "bu shi ": 6836,
  "zhong yi ": 6837,
  " you xi ": 6838,
  " sui": 6839,
  "lian he ": 6840,
  "di de ": 6841,
  " nian 11 yue ": 6842,
  " zhi dao ": 6843,
  " dang ": 6844,
  "bao kuo ": 6845,
  " zuo ": 6846,
  " shen ": 6847,
  " zhong xin ": 6848,
  "   shi ": 6849,
  " de zhu ": 6850,
  "yin yue ": 6851,
  " ma ": 6852,
  "sen ": 6853,
  "shu ji ": 6854,
  "yong yu ": 6855,
  " chang ": 6856,
  " jiu ": 6857,
  "   yi ": 6858,
  "dan ren ": 6859,
  "bei bu ": 6860,
  " gu ": 6861,
  "zai yi ": 6862,
  "ti gong ": 6863,
  " wei yuan hui ": 6864,
  "zu qiu ": 6865,
  "guo jia ": 6866,
  "wen ti ": 6867,
  " nian zhi ": 6868,
  "kuan ": 6869,
  " shi wu ": 6870,
  "xuan bu ": 6871,
  " yin wei ": 6872,
  " shi zhong ": 6873,
  "xue xiao ": 6874,
  "sheng yu ": 6875,
  "jian yu ": 6876,
  "fang shi ": 6877,
  "qian mi ": 6878,
  " quan ": 6879,
  "guan xi ": 6880,
  "gong you ": 6881,
  " wei zhi ": 6882,
  "hun ": 6883,
  " nian 2 yue ": 6884,
  "rang ": 6885,
  " zong ": 6886,
  " xu ": 6887,
  "hua ren min ": 6888,
  "cheng yuan ": 6889,
  " dian ": 6890,
  "jian zhu ": 6891,
  "ying de ": 6892,
  "huo dong ": 6893,
  " gai": 6894,
  "bi sai ": 6895,
  "jian li ": 6896,
  "tong shi ": 6897,
  "yu yi ": 6898,
  "suan ": 6899,
  "ren shi ": 6900,
  "en ": 6901,
  "nong ": 6902,
  "   li shi ": 6903,
  "ji yi ": 6904,
  "zi you ": 6905,
  "fen wei ": 6906,
  "heng ": 6907,
  " de ren ": 6908,
  "guan jun ": 6909,
  "zuo pin ": 6910,
  " xian": 6911,
  "she you ": 6912,
  " ben ": 6913,
  "da li ": 6914,
  " cheng wei ": 6915,
  "   sheng ping ": 6916,
  "ge ren ": 6917,
  " an ": 6918,
  " jie": 6919,
  "zhuan ji ": 6920,
  "jiu shi ": 6921,
  "6 ": 6922,
  " di er ": 6923,
  "bei jing ": 6924,
  "xiao shi ": 6925,
  " ji hua ": 6926,
  "yu de ": 6927,
  "qun ": 6928,
  "gei ": 6929,
  "yin wei ": 6930,
  "hua ren min gong he guo ": 6931,
  " li yu ": 6932,
  " bu fen ": 6933,
  "di shi ": 6934,
  "dui yu ": 6935,
  " nian dai ": 6936,
  "jun shi ": 6937,
  " cong ": 6938,
  " a ": 6939,
  "tong yi ": 6940,
  "men de ": 6941,
  "di er ": 6942,
  "ming de ": 6943,
  " ta de ": 6944,
  "qu yu ": 6945,
  "xi de ": 6946,
  "xue jia ": 6947,
  "e luo si ": 6948,
  "zou ": 6949,
  "xin de ": 6950,
  " liu ": 6951,
  " ling": 6952,
  " gong li ": 6953,
  "chun ": 6954,
  " ba ": 6955,
  "shou dao ": 6956,
  " suo": 6957,
  "min guo ": 6958,
  " duo ": 6959,
  "wei de ": 6960,
  "zheng fu": 6961,
  "zhong shi ": 6962,
  "hou de ": 6963,
  "lai de ": 6964,
  "fa sheng ": 6965,
  "gong ji ": 6966,
  "sheng de ": 6967,
  "jin shi ": 6968,
  "er de ": 6969,
  "xing wei ": 6970,
  "fang mian ": 6971,
  " yi jing ": 6972,
  " lian ": 6973,
  " shi you ": 6974,
  "yong you ": 6975,
  " hu ": 6976,
  " ri ben ": 6977,
  " xi tong ": 6978,
  "bu yu ": 6979,
  " fan ": 6980,
  " qu ": 6981,
  " shi ren ": 6982,
  " mian ji ": 6983,
  "zhu yao ": 6984,
  "1 ri ": 6985,
  "tong zhi ": 6986,
  "liang ge ": 6987,
  "ni ya ": 6988,
  "di qu ": 6989,
  " guan ": 6990,
  "ju you ": 6991,
  "qu wei ": 6992,
  "fa xing ": 6993,
  " gao ": 6994,
  "jue ding ": 6995,
  " wen ": 6996,
  " zhong yang ": 6997,
  "sheng ji ": 6998,
  " feng ": 6999,
  "ci shi ": 7000,
  "chu xian ": 7001,
  "zh ": 7002,
  " ren kou mi ": 7003,
  " you shi ": 7004,
  "ta men ": 7005,
  " wei ji ": 7006,
  "qi yu ": 7007,
  " you de ": 7008,
  "zi zhi ": 7009,
  " te ": 7010,
  "lai zi ": 7011,
  " ta zai ": 7012,
  "ju xing ": 7013,
  "hua de ": 7014,
  " ji yu ": 7015,
  "xian zhi ": 7016,
  "wu de ": 7017,
  "mian ji wei ": 7018,
  " fei ": 7019,
  "jia de ": 7020,
  " shi yu ": 7021,
  "du li ": 7022,
  " ping fang qian mi ": 7023,
  "kong zhi ": 7024,
  "nan bu ": 7025,
  "shu ju ": 7026,
  " shi wei yu ": 7027,
  " dan shi ": 7028,
  "qu shi ": 7029,
  "ren wu ": 7030,
  " li ru ": 7031,
  "mou ": 7032,
  "ke li ": 7033,
  "hui de ": 7034,
  "yao qiu ": 7035,
  "jin ru ": 7036,
  "   de ": 7037,
  " wo ": 7038,
  "gt ": 7039,
  "gu shi ": 7040,
  " gt ": 7041,
  " ceng": 7042,
  " wan": 7043,
  "cheng ji ": 7044,
  " dan ren ": 7045,
  "xiang gang": 7046,
  " suo ": 7047,
  " you ji ": 7048,
  " mei guo ": 7049,
  "ye shi ": 7050,
  "zong tong ": 7051,
  "lt ": 7052,
  "xue sheng ": 7053,
  " gong si ": 7054,
  "   yu ": 7055,
  " guang ": 7056,
  " yi bu ": 7057,
  "gong shi ": 7058,
  "min zhu ": 7059,
  " bian ": 7060,
  " ran er ": 7061,
  "wan cheng ": 7062,
  " ru": 7063,
  "jin de ": 7064,
  "zha ": 7065,
  " lt ": 7066,
  " yi qi ": 7067,
  "shen zhi ": 7068,
  " bing yu ": 7069,
  " cai ": 7070,
  "ren zhi ": 7071,
  "ping fang ": 7072,
  " bing zai ": 7073,
  "chao guo ": 7074,
  " ji shu ": 7075,
  "ti yu ": 7076,
  "yuan shi ": 7077,
  "cang ": 7078,
  "lie che ": 7079,
  " san ": 7080,
  "dang shi ": 7081,
  "cun zai ": 7082,
  "si shi ": 7083,
  "ya li ": 7084,
  "qian wang ": 7085,
  " de yi ge": 7086,
  "xue xi ": 7087,
  "ke de ": 7088,
  " kai ": 7089,
  "ke neng ": 7090,
  " yong ": 7091,
  "jing guo ": 7092,
  "yong de ": 7093,
  " zhi wei ": 7094,
  "jian yi ": 7095,
  "guan yu ": 7096,
  "   di ": 7097,
  "fa bu ": 7098,
  "guo shi ": 7099,
  " qi ta ": 7100,
  "wu shi ": 7101,
  "zhan shi ": 7102,
  "wu ke ": 7103,
  "yin du ": 7104,
  "zhu ren ": 7105,
  "sun ": 7106,
  " you xian ": 7107,
  "zuo de ": 7108,
  " han ": 7109,
  " shan ": 7110,
  "zhan zheng ": 7111,
  "pao ": 7112,
  "nei de ": 7113,
  " zhi jian ": 7114,
  "dai biao": 7115,
  " pu ": 7116,
  "sheng huo ": 7117,
  "bin ": 7118,
  "jian zhi ": 7119,
  " ji wei ": 7120,
  "zhou de ": 7121,
  " yi shu ": 7122,
  "fan wei ": 7123,
  " wei er ": 7124,
  " a": 7125,
  "cheng gong ": 7126,
  " ji qi ": 7127,
  "ou zhou ": 7128,
  " jin": 7129,
  "han guo ": 7130,
  " ba": 7131,
  "jie shou ": 7132,
  "xu duo ": 7133,
  "qiu dui ": 7134,
  "lu de ": 7135,
  " shu yu ": 7136,
  " zai": 7137,
  " ji zhong ": 7138,
  "zhong zhi ": 7139,
  "zeng jia ": 7140,
  "fu wu ": 7141,
  " bai ": 7142,
  "zhu xi ": 7143,
  "xiao xing ": 7144,
  "ban de ": 7145,
  " mo ": 7146,
  "   gai ": 7147,
  "he yi ": 7148,
  " ao ": 7149,
  "zhu yao": 7150,
  "hou yi ": 7151,
  " su ": 7152,
  "   zhi ": 7153,
  "san shi ": 7154,
  "xia de ": 7155,
  "duo de ": 7156,
  " 000": 7157,
  "shang hai ": 7158,
  "huai ": 7159,
  "ju li ": 7160,
  "si ji ": 7161,
  "zu cheng ": 7162,
  " gen ju ": 7163,
  "ning ": 7164,
  " ci wai ": 7165,
  "yun dong yuan ": 7166,
  "ma wei ": 7167,
  "gao du ": 7168,
  "fu de ": 7169,
  " zhe xie ": 7170,
  "chu le ": 7171,
  " zh ": 7172,
  " zhi zuo ": 7173,
  "niu ": 7174,
  " zai ci ": 7175,
  "ge zhong ": 7176,
  " bu guo ": 7177,
  "chang de ": 7178,
  " nian qi ": 7179,
  "chong xin ": 7180,
  "jue se ": 7181,
  "tui chu ": 7182,
  " li ji ": 7183,
  "jing li ": 7184,
  " dang shi ": 7185,
  "ren min ": 7186,
  "zhe ge ": 7187,
  " zui zhong ": 7188,
  "ti de ": 7189,
  "xu yao ": 7190,
  " du ": 7191,
  "da shi ": 7192,
  "qi yi ": 7193,
  "chu yu ": 7194,
  " zhi chu ": 7195,
  "zhe xie ": 7196,
  "xiang de ": 7197,
  "wu zhong ": 7198,
  "du wei ": 7199,
  " ai": 7200,
  "xuan ju ": 7201,
  " mei": 7202,
  " zhi wu ": 7203,
  " ren he ": 7204,
  "zhu jiao ": 7205,
  "   di li ": 7206,
  " zhi chi ": 7207,
  "zi ji de ": 7208,
  "zi de ": 7209,
  " ma": 7210,
  " huo": 7211,
  " wei le ": 7212,
  "jiao tong ": 7213,
  " she ": 7214,
  " ceng ": 7215,
  " ren wu ": 7216,
  " ban ": 7217,
  " nian jian ": 7218,
  "lian sai ": 7219,
  "   wei ": 7220,
  "kai fa ": 7221,
  "zhe yi ": 7222,
  "xian zai ": 7223,
  "liang wei ": 7224,
  " lai ": 7225,
  " ren yuan ": 7226,
  " wei qi ": 7227,
  "jie shu ": 7228,
  "chu li ": 7229,
  "sai shi ": 7230,
  "nv zi ": 7231,
  "rui ": 7232,
  "dang di ": 7233,
  "jie mu ": 7234,
  "ya de ": 7235,
  "2010 nian ": 7236,
  "gong yuan ": 7237,
  " zhi yu ": 7238,
  "fan ying ": 7239,
  "ding de ": 7240,
  "chan sheng ": 7241,
  "juan ": 7242,
  "she shi ": 7243,
  "chu ban ": 7244,
  "gong chan ": 7245,
  "guan de ": 7246,
  " yi zhong ": 7247,
  "ba shi ": 7248,
  "lei si ": 7249,
  "shou ci ": 7250,
  "ruo ": 7251,
  "ri ben": 7252,
  "jing shi ": 7253,
  "dong wu ": 7254,
  " shi yi ge ": 7255,
  "zhui ": 7256,
  "fu ze ": 7257,
  "jie shi ": 7258,
  "xiang shi ": 7259,
  " jiang": 7260,
  "bo shi ": 7261,
  " ta men": 7262,
  "jie de ": 7263,
  "le bu ": 7264,
  " lei ": 7265,
  " hai": 7266,
  "ge qu ": 7267,
  "nan zi ": 7268,
  " dai ": 7269,
  "guan xia ": 7270,
  "san nian ": 7271,
  "dui de ": 7272,
  "zao cheng ": 7273,
  " ai ": 7274,
  "ke neng": 7275,
  " hou lai ": 7276,
  " yang ": 7277,
  "dong shi ": 7278,
  "yan jiu": 7279,
  "an de ": 7280,
  "du de ": 7281,
  "she li ": 7282,
  "dou shi ": 7283,
  " na ": 7284,
  "yang de ": 7285,
  "shan xi ": 7286,
  " zhen ": 7287,
  " ji zhi ": 7288,
  " ji xu ": 7289,
  "zhong yu ": 7290,
  "nv xing ": 7291,
  " ya ": 7292,
  " 1 ": 7293,
  " suo yi ": 7294,
  "guo yu ": 7295,
  "guo yi ": 7296,
  "   qi ": 7297,
  " zhi zhi ": 7298,
  " fen": 7299,
  "fang fa ": 7300,
  "2020 nian ": 7301,
  " he zuo ": 7302,
  "gong cheng ": 7303,
  "wu li ": 7304,
  "mei ping fang ": 7305,
  "jiao shou ": 7306,
  "zheng zhi ren wu ": 7307,
  " yi si ": 7308,
  "zheng de ": 7309,
  "lian meng ": 7310,
  " ran ": 7311,
  "dai de ": 7312,
  "di wei ": 7313,
  " xuan ": 7314,
  " cong": 7315,
  "jun de ": 7316,
  "xiang mu ": 7317,
  "cai yong ": 7318,
  " zai di ": 7319,
  "dong de ": 7320,
  "fang de ": 7321,
  "   ren kou ": 7322,
  "   you": 7323,
  "liang de ": 7324,
  " zong": 7325,
  "yuan yu ": 7326,
  " hao": 7327,
  "chuan tong ": 7328,
  " tu ": 7329,
  " ri zai ": 7330,
  "hua min guo ": 7331,
  "zhu de ": 7332,
  "ge shi ": 7333,
  "2001 nian ": 7334,
  " dan wei ": 7335,
  " bei": 7336,
  "tai wan": 7337,
  " nian yi ": 7338,
  "xin wen ": 7339,
  "zhan de ": 7340,
  "yan yuan ": 7341,
  "xi tong ": 7342,
  "fu shi ": 7343,
  "   ji ": 7344,
  " li si ": 7345,
  "jia ru ": 7346,
  " zhi you ": 7347,
  "dao le ": 7348,
  "xi ji ": 7349,
  "dao shi ": 7350,
  "fa de ": 7351,
  "he shi ": 7352,
  "ying yu ": 7353,
  "bian ma wei ": 7354,
  " yi hui ": 7355,
  "xiang guan ": 7356,
  " gui ": 7357,
  "bo wu ": 7358,
  "hou zai ": 7359,
  " 0": 7360,
  " ji ji ": 7361,
  " ji lu ": 7362,
  " wei fu ": 7363,
  " ze ": 7364,
  " yi yi ": 7365,
  "bao kuo": 7366,
  " de yi ge shi zhen ": 7367,
  "lian jie ": 7368,
  " xue ming ": 7369,
  "zui jia ": 7370,
  "ti chu ": 7371,
  "hai shi ": 7372,
  "mu si ": 7373,
  "ming cheng ": 7374,
  " zhe shi ": 7375,
  " zhou ": 7376,
  " xi ya ": 7377,
  "xue de ": 7378,
  " wei zhu ": 7379,
  " ji zai ": 7380,
  "er nian ": 7381,
  " ren kou mi du ": 7382,
  "jia zhi ": 7383,
  " yi xie ": 7384,
  "   jia ": 7385,
  " jun ": 7386,
  " ci": 7387,
  "xiao de ": 7388,
  "mian de ": 7389,
  " shi yi zhong ": 7390,
  "zui gao ": 7391,
  "dong ji ": 7392,
  "ge de ": 7393,
  " yu shi ": 7394,
  " li yi ": 7395,
  " fang ": 7396,
  " mi": 7397,
  " ka ": 7398,
  "shu shi ": 7399,
  "ling shi ": 7400,
  " nian zai ": 7401,
  "xia ji ": 7402,
  "gai wei ": 7403,
  " liang": 7404,
  "zhe zhong ": 7405,
  " zhi jie ": 7406,
  "hai jun ": 7407,
  "chang shi ": 7408,
  "qing kuang": 7409,
  "hui shi ": 7410,
  " zhe ge ": 7411,
  " la ": 7412,
  "yao de ": 7413,
  "zhu shi ": 7414,
  " zuo wei ": 7415,
  "sheng wu ": 7416,
  "zai de ": 7417,
  "yan de ": 7418,
  "zhai ": 7419,
  "yan zhong ": 7420,
  "na da ": 7421,
  "qi zhi ": 7422,
  "ye yu ": 7423,
  "gai guo ": 7424,
  "hui fu ": 7425,
  "luan ": 7426,
  "zai yu ": 7427,
  "mei ti ": 7428,
  " ye shi ": 7429,
  "zheng yi ": 7430,
  "bian de ": 7431,
  " xie ": 7432,
  "ke ji ": 7433,
  "wen wu ": 7434,
  "peng ": 7435,
  "jian shi ": 7436,
  "xin xi ": 7437,
  "gao de ": 7438,
  " zhi qian ": 7439,
  "jie guo ": 7440,
  "min zu ": 7441,
  "shui yu ": 7442,
  " bu tong ": 7443,
  "cheng ren ": 7444,
  " ke si ": 7445,
  "yan chang ": 7446,
  " ke yi ": 7447,
  "fan dui ": 7448,
  "neng li ": 7449,
  "   xing zheng ": 7450,
  "hua shi ": 7451,
  "he de ": 7452,
  "qian de ": 7453,
  "ge li ": 7454,
  "xing zhi ": 7455,
  "chou ": 7456,
  " ni ": 7457,
  "si yu ": 7458,
  "hao de ": 7459,
  "7 ": 7460,
  "bei shi ": 7461,
  "   of": 7462,
  "jiang jun ": 7463,
  "lei de ": 7464,
  "jie gou ": 7465,
  " chong ": 7466,
  "huan jing ": 7467,
  "xian yu ": 7468,
  "   formula ": 7469,
  "bao hu": 7470,
  "zhu jian ": 7471,
  "zan ": 7472,
  "sai ji ": 7473,
  " 2 ": 7474,
  "mo shi ": 7475,
  "   ben ": 7476,
  "a er ": 7477,
  " hong ": 7478,
  " yi ban ": 7479,
  " di yi ": 7480,
  "   of   ": 7481,
  "chuang zuo ": 7482,
  "zhang de ": 7483,
  "bao hu ": 7484,
  " liu": 7485,
  " li wei ": 7486,
  " ming": 7487,
  " zhu yao ": 7488,
  " zhong hua ren min gong he guo ": 7489,
  "tong ji ": 7490,
  "the   ": 7491,
  "san ge ": 7492,
  " chen ": 7493,
  "jun dui ": 7494,
  " xiang gang ": 7495,
  "biao xian ": 7496,
  "zhu li ": 7497,
  "biao zhun ": 7498,
  " nian shi ": 7499,
  " tang ": 7500,
  "ge yue ": 7501,
  "sheng li ": 7502,
  "zhou shi ": 7503,
  "quan li ": 7504,
  "zhe de ": 7505,
  "zong jiao ": 7506,
  "bu fen": 7507,
  "da lu ": 7508,
  "sheng ya ": 7509,
  "shang ye ": 7510,
  " yi ci ": 7511,
  "si nian ": 7512,
  "diao cha ": 7513,
  " gu": 7514,
  "wu fa ": 7515,
  " yun ": 7516,
  "hang kong ": 7517,
  "   gen ju ": 7518,
  " 1": 7519,
  "   ci ": 7520,
  "dong bu ": 7521,
  "hui zai ": 7522,
  "bi ye ": 7523,
  "shen fen ": 7524,
  "di zhi ": 7525,
  "tou guo ": 7526,
  " de yi bu fen ": 7527,
  "fa yuan ": 7528,
  "bu yi ": 7529,
  "di yu ": 7530,
  "jia li ": 7531,
  "ge ming ": 7532,
  " yao ": 7533,
  "cheng zhong ": 7534,
  "jin ji ": 7535,
  " dang di ": 7536,
  " ji tuan ": 7537,
  "ba gao du ": 7538,
  "jiao shi ": 7539,
  " jin xing ": 7540,
  " tai wan ": 7541,
  "xie hui ": 7542,
  " huang ": 7543,
  "dong hua ": 7544,
  "qiu yuan ": 7545,
  " zhi xing ": 7546,
  "fei chang ": 7547,
  " zhuan ": 7548,
  "dan wei ": 7549,
  "cha de ": 7550,
  "fen bu ": 7551,
  "bi de ": 7552,
  "zi liao ": 7553,
  "bi sai": 7554,
  "jie zhi ": 7555,
  " you guan ": 7556,
  "tuan ti ": 7557,
  "sheng chan ": 7558,
  "A ": 7559,
  "bing bu ": 7560,
  "fu he ": 7561,
  "bei ren ": 7562,
  "fen bie": 7563,
  "10 ": 7564,
  "chao xian ": 7565,
  "ding yi ": 7566,
  "xia yi ": 7567,
  "quan bu ": 7568,
  "8 ": 7569,
  "gai di ": 7570,
  "jing de ": 7571,
  "nei rong ": 7572,
  "ping jun ": 7573,
  "wen xue ": 7574,
  "du shi ": 7575,
  "dong bei ": 7576,
  "an quan ": 7577,
  "ren kou pu ": 7578,
  " bing qie": 7579,
  "jia ji ": 7580,
  "la si ": 7581,
  "luo ma ": 7582,
  "jie fang ": 7583,
  "ling dao ": 7584,
  " zhi yuan ": 7585,
  "jin biao ": 7586,
  " lin ": 7587,
  "xing dong ": 7588,
  "ju min ": 7589,
  "shang shi ": 7590,
  "qing kuang ": 7591,
  " yu ji ": 7592,
  " zhi hui ": 7593,
  " bao kuo": 7594,
  "gong kai ": 7595,
  "she zhi ": 7596,
  " qi hou ": 7597,
  "shou de ": 7598,
  " ji di ": 7599,
  "yuan yi ": 7600,
  "yan shi ": 7601,
  "yan chu ": 7602,
  " wo": 7603,
  "zuo you ": 7604,
  "zuo pin": 7605,
  " nan": 7606,
  "ke xue ": 7607,
  " da": 7608,
  "ren yi ": 7609,
  " zu ": 7610,
  "shang wei ": 7611,
  " fu ze ": 7612,
  " ru guo ": 7613,
  " ke neng ": 7614,
  "jia shi ": 7615,
  "zai shi ": 7616,
  "er ji ": 7617,
  "wu zhi ": 7618,
  "xing ji ": 7619,
  "28 ri ": 7620,
  "kong jian ": 7621,
  " er shi ": 7622,
  "fang zhi ": 7623,
  "gai bian ": 7624,
  " zhao ": 7625,
  "ao yun ": 7626,
  " jiu": 7627,
  "shu wei ": 7628,
  "xue shi ": 7629,
  " di guo ": 7630,
  " yu qi ": 7631,
  " bing qie ": 7632,
  " qiu ": 7633,
  "deng di ": 7634,
  "ze shi ": 7635,
  "guan zhong ": 7636,
  "lu xian ": 7637,
  "xue wei ": 7638,
  "yuan he ": 7639,
  "qi wei ": 7640,
  " da dao ": 7641,
  "lan de ": 7642,
  " yi ming ": 7643,
  " huo de ": 7644,
  " li zhi ": 7645,
  "deng ren ": 7646,
  "15 ri ": 7647,
  "he ji ": 7648,
  "bao dao ": 7649,
  "   you ": 7650,
  " ling wai ": 7651,
  "2008 nian ": 7652,
  "ju de ": 7653,
  "qing nian ": 7654,
  " che ": 7655,
  "guo li ": 7656,
  "lve ": 7657,
  "ao lin ": 7658,
  "bang zhu ": 7659,
  "fa biao ": 7660,
  "   zhong ": 7661,
  "2016 nian ": 7662,
  "pi ke ": 7663,
  "chu ren ": 7664,
  "zuo yong ": 7665,
  "ai er ": 7666,
  "zao dao ": 7667,
  " yu yan ": 7668,
  "gong zuo": 7669,
  " ri zhi ": 7670,
  "s ": 7671,
  "gong de ": 7672,
  "ju ji ": 7673,
  "de   ": 7674,
  "ye you ": 7675,
  "lu di ": 7676,
  "gui dao ": 7677,
  "tong chang ": 7678,
  "zu de ": 7679,
  "jiang qi ": 7680,
  " yi yu ": 7681,
  "shou ji ": 7682,
  "fei ji ": 7683,
  "gong gong ": 7684,
  "2009 nian ": 7685,
  "yuan nian ": 7686,
  "ma li ": 7687,
  "pa ": 7688,
  "sheng de yi ge shi zhen ": 7689,
  " zhi jian de ": 7690,
  " shui ": 7691,
  "bian hua ": 7692,
  "jia yi ": 7693,
  "tu di ": 7694,
  "ta men": 7695,
  "ya zhou ": 7696,
  "   ju ": 7697,
  "xi ban ": 7698,
  "bu tong ": 7699,
  " shi xing ": 7700,
  "wu nian ": 7701,
  "tai ping ": 7702,
  " mu qian ": 7703,
  "ban ben ": 7704,
  "jie he ": 7705,
  "2011 nian ": 7706,
  "hou yu ": 7707,
  "2012 nian ": 7708,
  " si ke ": 7709,
  " dan zai ": 7710,
  " pai ": 7711,
  "hui he ": 7712,
  "zhan yi ": 7713,
  "jiao yi ": 7714,
  " wei zhong ": 7715,
  "jue sai ": 7716,
  "xian ren ": 7717,
  "zheng ce ": 7718,
  " bu dui ": 7719,
  "pi ping ": 7720,
  " chuan ": 7721,
  " 2": 7722,
  " hai ba gao du ": 7723,
  "ta zai ": 7724,
  "25 ri ": 7725,
  "jiao hui ": 7726,
  "xing cheng ": 7727,
  "miao shu ": 7728,
  " ding ": 7729,
  " er si ": 7730,
  "zao qi ": 7731,
  "mei yuan ": 7732,
  " C": 7733,
  "UTC ": 7734,
  " ta yu ": 7735,
  "er wei ": 7736,
  "bo li ": 7737,
  " you qi ": 7738,
  "yuan yin ": 7739,
  " de dao ": 7740,
  " zhi ye ": 7741,
  "chu shi ": 7742,
  " san": 7743,
  " he wu ": 7744,
  " ha": 7745,
  "xie yi ": 7746,
  "xuan ze ": 7747,
  "zao de ": 7748,
  "xiao shuo ": 7749,
  "wan quan ": 7750,
  " si te ": 7751,
  "yun dong hui ": 7752,
  "xian dai ": 7753,
  "lian bang ": 7754,
  " ren wei ": 7755,
  "ling yi ": 7756,
  " nei ": 7757,
  " yue de ": 7758,
  "wen hua": 7759,
  " jian cheng ": 7760,
  "jian she ": 7761,
  " mo": 7762,
  " ta shi ": 7763,
  " dang zhong ": 7764,
  "30 ri ": 7765,
  "bei cheng wei ": 7766,
  " you cheng ": 7767,
  "10 ri ": 7768,
  "chang qi ": 7769,
  " e ": 7770,
  "zui da ": 7771,
  "20 ri ": 7772,
  "chi xu ": 7773,
  "jing nei ": 7774,
  "lin shi ": 7775,
  "yuan zhu ": 7776,
  " xun ": 7777,
  "dian zi ": 7778,
  " si": 7779,
  "xing yu ": 7780,
  "zu he ": 7781,
  " wei di ": 7782,
  "2014 nian ": 7783,
  "ming ming ": 7784,
  "duo shu ": 7785,
  "se de ": 7786,
  " 5 ": 7787,
  "sai de ": 7788,
  "bu li ": 7789,
  " di san ": 7790,
  "fu zhi ": 7791,
  "wu yuan ": 7792,
  "ba li ": 7793,
  "zhuan ye ": 7794,
  "sheng he ": 7795,
  "gong tong ": 7796,
  "jie dao ": 7797,
  "zi ge ": 7798,
  "2018 nian ": 7799,
  " shi yan ": 7800,
  "bu ji ": 7801,
  "2019 nian ": 7802,
  "dong nan ": 7803,
  "gao zhong ": 7804,
  " qie": 7805,
  "hou lai ": 7806,
  "fa lv ": 7807,
  " di si ": 7808,
  " ji jin ": 7809,
  " meng ": 7810,
  "za zhi ": 7811,
  "wu ke lan ": 7812,
  "fa zhan": 7813,
  "dan qu ": 7814,
  " shi wei yu mei guo ": 7815,
  " 12": 7816,
  " ji gou ": 7817,
  " yu zhong ": 7818,
  "er zi ": 7819,
  " guo min ": 7820,
  "2013 nian ": 7821,
  " wei yu gai guo ": 7822,
  "sheng wei ": 7823,
  " yue zhi ": 7824,
  "kui ": 7825,
  "dao yi ": 7826,
  "chu qi ": 7827,
  "bing wei ": 7828,
  " mian ": 7829,
  " li ke ": 7830,
  "zhong ji ": 7831,
  "tu er ": 7832,
  " shi jie da ": 7833,
  "18 ri ": 7834,
  " yu zhi ": 7835,
  "24 ri ": 7836,
  "2015 nian ": 7837,
  "bao gao ": 7838,
  " geng ": 7839,
  "guang dong ": 7840,
  "fang xiang ": 7841,
  " de zhong ": 7842,
  " li yong ": 7843,
  "guo min ": 7844,
  " bu zai ": 7845,
  " yue shi ": 7846,
  "die ": 7847,
  " de wei ": 7848,
  "26 ri ": 7849,
  "bo wu guan ": 7850,
  " jin guan ": 7851,
  " sui hou ": 7852,
  "2007 nian ": 7853,
  "da dao ": 7854,
  "dian li ": 7855,
  "guan zhi ": 7856,
  "xian yi ": 7857,
  " tong nian ": 7858,
  "2005 nian ": 7859,
  "gui ding ": 7860,
  " ke": 7861,
  "she qu ": 7862,
  " fei": 7863,
  " ying guo ": 7864,
  " zhe zhong ": 7865,
  "fu li ": 7866,
  " duo": 7867,
  "can sai ": 7868,
  "feng ge ": 7869,
  " wei si ": 7870,
  "ming zi ": 7871,
  "luo de ": 7872,
  "te bie": 7873,
  "lian xi ": 7874,
  " fen bu yu ": 7875,
  "ao lin pi ke ": 7876,
  "ying ge ": 7877,
  "16 ri ": 7878,
  " wai ": 7879,
  "you xi ": 7880,
  "mu biao ": 7881,
  "wang de ": 7882,
  " sha ": 7883,
  "chang wei ": 7884,
  " chu le ": 7885,
  " 2001 nian ": 7886,
  "17 ri ": 7887,
  " gan ": 7888,
  " xi lie ": 7889,
  "ding wei ": 7890,
  " ji chang ": 7891,
  "bi li ": 7892,
  "zhe shi ": 7893,
  "B ": 7894,
  " ji he ": 7895,
  " er sheng ": 7896,
  "tou zi ": 7897,
  "ta men de ": 7898,
  "wu xian ": 7899,
  "ju ban ": 7900,
  "nei bu ": 7901,
  "2017 nian ": 7902,
  "quan qiu ": 7903,
  "yin hang ": 7904,
  " you xian gong si ": 7905,
  "s   ": 7906,
  " shi he ": 7907,
  "fu yi ": 7908,
  "gong chan dang ": 7909,
  "dong jing ": 7910,
  "guo zhi ": 7911,
  "shang shu ": 7912,
  "dao yu ": 7913,
  "jun wei ": 7914,
  " li kai ": 7915,
  "mu de ": 7916,
  "mu di ": 7917,
  "lie de ": 7918,
  "bu zhi ": 7919,
  " qie ": 7920,
  "shen de ": 7921,
  " yin ci": 7922,
  " shi zi ": 7923,
  "zi yu ": 7924,
  "hua xue ": 7925,
  "guan fang ": 7926,
  "kai fang ": 7927,
  "8 ri ": 7928,
  "shou yu ": 7929,
  "   zheng zhi ": 7930,
  " de shi zhen ": 7931,
  "gai nian ": 7932,
  "21 ri ": 7933,
  " min ": 7934,
  "pai she ": 7935,
  " zhong xue ": 7936,
  "ka er ": 7937,
  "7 ri ": 7938,
  " fu wu ": 7939,
  "27 ri ": 7940,
  "a la ": 7941,
  "bao fa ": 7942,
  "2006 nian ": 7943,
  "19 ri ": 7944,
  "xian wei ": 7945,
  " li fa ": 7946,
  " hao mi ": 7947,
  "11 ri ": 7948,
  " que": 7949,
  "23 ri ": 7950,
  "ying yong ": 7951,
  "ce shi ": 7952,
  "12 ri ": 7953,
  " song ": 7954,
  "   the   ": 7955,
  "si he ": 7956,
  "mei guo ren kou pu ": 7957,
  " zhi ji ": 7958,
  "shu liang wei ": 7959,
  "bo chu ": 7960,
  "yin shi ": 7961,
  "su lian ": 7962,
  "9 ri ": 7963,
  "fu yu ": 7964,
  " 3 ": 7965,
  "xue zhe ": 7966,
  "shang you ": 7967,
  "ban shi ": 7968,
  "qi ji ": 7969,
  "qi jian ": 7970,
  "chu yi ": 7971,
  "hui yu ": 7972,
  "2021 nian ": 7973,
  "ye de ": 7974,
  " zhu yao": 7975,
  "ju le bu ": 7976,
  "xu duo": 7977,
  "lie che": 7978,
  "huang di ": 7979,
  "22 ri ": 7980,
  " shi fa guo ": 7981,
  "14 ri ": 7982,
  "kun ": 7983,
  "ying shi ": 7984,
  "dang de ": 7985,
  " yue han ": 7986,
  "gui mo ": 7987,
  "ling yu ": 7988,
  "shan dong ": 7989,
  "5 ri ": 7990,
  "29 ri ": 7991,
  "3 ri ": 7992,
  "zui da de ": 7993,
  "zheng zai ": 7994,
  "guan yuan ": 7995,
  "ting zhi ": 7996,
  "yuan ji ": 7997,
  " pi ": 7998,
  "2022 nian ": 7999,
  "bi xu ": 8000,
  "xi lie ": 8001,
  "jing ying ": 8002,
  "suo shu de ": 8003,
  "yin qi ": 8004,
  " da hui ": 8005,
  "ping jia ": 8006,
  "xun lian ": 8007,
  "xi shi ": 8008,
  "sheng chan": 8009,
  "sheng ming ": 8010,
  " lv ": 8011,
  "zhu zai ": 8012,
  "shou shi ": 8013,
  "neng gou ": 8014,
  "The   ": 8015,
  "gong ye ": 8016,
  "qing kuang xia ": 8017,
  " sai ": 8018,
  "sheng zai ": 8019,
  "qu hua ": 8020,
  "tiao jian ": 8021,
  "qian yi ": 8022,
  "13 ri ": 8023,
  "te de ": 8024,
  "jin zhi ": 8025,
  " kai shi ": 8026,
  "9 ": 8027,
  "mai ke ": 8028,
  "tai de ": 8029,
  "ya yu ": 8030,
  "yuan zhi ": 8031,
  "lian meng": 8032,
  "4 ri ": 8033,
  " ji bai ": 8034,
  " dao zhi ": 8035,
  "6 ri ": 8036,
  "jiao de ": 8037,
  "31 ri ": 8038,
  "she de ": 8039,
  "jie chu ": 8040,
  "xiao xing xing ": 8041,
  "nai ": 8042,
  " nian dai": 8043,
  " bu jiu ": 8044,
  "zang ": 8045,
  "chao ji ": 8046,
  " ren zhong ": 8047,
  "2 ri ": 8048,
  " gong chi ": 8049,
  "ge ji ": 8050,
  " sui ran ": 8051,
  "da ji ": 8052,
  " zhong yang": 8053,
  "liu xing ": 8054,
  "nan xing ": 8055,
  " zui hou ": 8056,
  "gong bu ": 8057,
  "te zheng ": 8058,
  "xiong di ": 8059,
  "dian de ": 8060,
  " 14": 8061,
  "ge wei ": 8062,
  "wu ji ": 8063,
  "ren ji ": 8064,
  "you yi ": 8065,
  "man hua ": 8066,
  " qiang ": 8067,
  "jian wei ": 8068,
  " you ming ": 8069,
  "fu jin ": 8070,
  "zuo jia ": 8071,
  " fan": 8072,
  "si ren ": 8073,
  " jue ": 8074,
  "si zai ": 8075,
  "bo te ": 8076,
  "zhong wei ": 8077,
  "ke da ": 8078,
  "ou zhou": 8079,
  " shen zhi ": 8080,
  "lv you ": 8081,
  "fen xi ": 8082,
  "huang jia ": 8083,
  " xin": 8084,
  "br ": 8085,
  " tong guo ": 8086,
  "zong he ": 8087,
  "sheng fen ": 8088,
  "yin ci ": 8089,
  "cheng yi ": 8090,
  " gong zuo ": 8091,
  " ze": 8092,
  "bian wei ": 8093,
  "niu yue ": 8094,
  "   jin ": 8095,
  "wen wu bao hu": 8096,
  " br ": 8097,
  "zai wei ": 8098,
  "ban dao ": 8099,
  "si wei ": 8100,
  "ju ren ": 8101,
  " ri ben": 8102,
  " gong lu ": 8103,
  "guang bo ": 8104,
  "ci shi jie da ": 8105,
  "mao yi ": 8106,
  " tian": 8107,
  "zhuang tai ": 8108,
  "qi nian ": 8109,
  " sui ran": 8110,
  " hou": 8111,
  " 4 ": 8112,
  " ren kou": 8113,
  "pin dao ": 8114,
  " 10": 8115,
  "he li ": 8116,
  "20 shi ji ": 8117,
  " zhi zhong ": 8118,
  " ke neng": 8119,
  "ren kou shu liang wei ": 8120,
  "   you yu ": 8121,
  "bu zhang ": 8122,
  "fen zi ": 8123,
  "ao si ": 8124,
  " geng": 8125,
  "shuo shi ": 8126,
  "2004 nian ": 8127,
  " you ren ": 8128,
  "duo ge ": 8129,
  "ju zhong ": 8130,
  "jie duan ": 8131,
  "xuan shou ": 8132,
  "fa shi ": 8133,
  "gao ji ": 8134,
  " zhou": 8135,
  " dou ": 8136,
  "zhun bei ": 8137,
  "fang yu ": 8138,
  " zai qi ": 8139,
  "bing li ": 8140,
  "mi er ": 8141,
  " ying chi ": 8142,
  "duo ci ": 8143,
  " chen": 8144,
  "fang an ": 8145,
  "   li ": 8146,
  "wai de ": 8147,
  " zhong bu ": 8148,
  "yuan wei ": 8149,
  " he nan ": 8150,
  "hui dao ": 8151,
  "shang yi ": 8152,
  "bu wei ": 8153,
  " you zhi ": 8154,
  "   zi ": 8155,
  " 3": 8156,
  "cheng du ": 8157,
  "ci de ": 8158,
  "hai yu ": 8159,
  "mo de ": 8160,
  " tou ": 8161,
  "fen zhi ": 8162,
  "2000 nian ": 8163,
  "ci zhi ": 8164,
  " di fang ": 8165,
  "wang luo ": 8166,
  "   da ": 8167,
  "liu nian ": 8168,
  " xian shi ": 8169,
  "jie ji ": 8170,
  "bei de ": 8171,
  "zi shi ": 8172,
  " ta ceng ": 8173,
  "jun zai ": 8174,
  " gang ": 8175,
  "fei xing ": 8176,
  "dian shi tai ": 8177,
  "ju shi ": 8178,
  " yi lai ": 8179,
  " de yi zhong ": 8180,
  "le yi ge ": 8181,
  "deng ji ": 8182,
  "xuan wei ": 8183,
  " ren kou mi du wei ": 8184,
  " ri qi ": 8185,
  " 13": 8186,
  " yi shi ": 8187,
  "21 ": 8188,
  "shu guan ": 8189,
  " gong yuan ": 8190,
  "hai you ": 8191,
  " chao ": 8192,
  "hui you ": 8193,
  "gai ge ": 8194,
  " chi ": 8195,
  "qiu ji ": 8196,
  "lu jun ": 8197,
  "wu qi ": 8198,
  " xiang": 8199,
  " A": 8200,
  "zhe jiang ": 8201,
  "biao yan ": 8202,
  " zhao": 8203,
  " wei yu fa guo ": 8204,
  "zui hou ": 8205,
  "xiang tong ": 8206,
  " xi ban ": 8207,
  "dian shi ju ": 8208,
  "she bei ": 8209,
  "xing he ": 8210,
  " zhi jin ": 8211,
  "gu ji ": 8212,
  "liu shi ": 8213,
  "mei zhou ": 8214,
  "zhu yu ": 8215,
  "zai ji ": 8216,
  "ai de ": 8217,
  " lan ": 8218,
  " jia ru ": 8219,
  "guang chang ": 8220,
  " shi dai ": 8221,
  " yi ren ": 8222,
  "fa yu ": 8223,
  "jia he ": 8224,
  "nu ": 8225,
  " mei you ": 8226,
  "wen wu bao hu dan wei ": 8227,
  "xie zhu ": 8228,
  "   zhu ": 8229,
  " 6 ": 8230,
  "tiao yue ": 8231,
  " yi bei ": 8232,
  "yang shi ": 8233,
  "su du ": 8234,
  "si wang ": 8235,
  " zu": 8236,
  " zhi li ": 8237,
  "chan pin ": 8238,
  "hang kong": 8239,
  "bian cheng ": 8240,
  "bao han ": 8241,
  "ying ji ": 8242,
  " fen bie": 8243,
  "ren yu ": 8244,
  "jiang yu ": 8245,
  " tiao ": 8246,
  "fu jian ": 8247,
  "gong you ren kou ": 8248,
  " xing zheng ": 8249,
  "huo de le ": 8250,
  " zhi zai ": 8251,
  "xi wei ": 8252,
  " zhang": 8253,
  "qing de ": 8254,
  "qun dao ": 8255,
  "duan de ": 8256,
  "hai ba ": 8257,
  "zhan zheng": 8258,
  " zhong hua min guo ": 8259,
  "zhen qu ": 8260,
  " bei qi ": 8261,
  "mu qian ": 8262,
  "   jian ": 8263,
  "qu yi ": 8264,
  " 11": 8265,
  "cuo ": 8266,
  " zhe yi ": 8267,
  "shou du ": 8268,
  " gong fen ": 8269,
  " qi ye ": 8270,
  "zhan kai ": 8271,
  "bi jiao ": 8272,
  "gui hua ": 8273,
  "ju yu ": 8274,
  "zhan dou ": 8275,
  "   xi ": 8276,
  " zai zhong ": 8277,
  "di yi ge ": 8278,
  "nv er ": 8279,
  "jin gong ": 8280,
  "qiao zhi ": 8281,
  " xi wang ": 8282,
  "biao zhun": 8283,
  "rong yu ": 8284,
  " li zi ": 8285,
  "nao ": 8286,
  "mei ping fang gong li ": 8287,
  "jiu shi zhen ": 8288,
  " bu hui ": 8289,
  "dong li ": 8290,
  "dong xi ": 8291,
  " fa guo ": 8292,
  "ge di ": 8293,
  " de shi jian ": 8294,
  " nv ": 8295,
  "you zheng ": 8296,
  " cheng qu ": 8297,
  "ken ": 8298,
  " ren zai ": 8299,
  "da xing ": 8300,
  "xi bu ": 8301,
  "fen lei ": 8302,
  "ma lai": 8303,
  " yu wei ": 8304,
  "dou you ": 8305,
  "ru xia ": 8306,
  "ge shou ": 8307,
  "la de ": 8308,
  "la ke ": 8309,
  "tai bei ": 8310,
  "nong ye ": 8311,
  " kong ": 8312,
  "qu dai ": 8313,
  "da liang ": 8314,
  "xian de yi ge ": 8315,
  "mi de ": 8316,
  "shang wu ": 8317,
  " er bei ": 8318,
  "yu shi de ": 8319,
  " yi you ": 8320,
  " zhong xin": 8321,
  "zong li ": 8322,
  " ci hou ": 8323,
  " you yi ge ": 8324,
  "cui ": 8325,
  " man ": 8326,
  "ze ren ": 8327,
  "   fu ": 8328,
  "   zhe ": 8329,
  "min zhong ": 8330,
  "xiao xi ": 8331,
  "ren he ": 8332,
  "mi shu ": 8333,
  "lian xu ": 8334,
  "reng ran": 8335,
  "re dai": 8336,
  "xiang dui ": 8337,
  "zui hou yi ": 8338,
  "zheng ge ": 8339,
  "jie rang": 8340,
  "wu yi ": 8341,
  "wang guo ": 8342,
  " S": 8343,
  "tie dao ": 8344,
  "che liang ": 8345,
  "ci ji ": 8346,
  "ren kou shu liang wei ren ": 8347,
  "fu ren ": 8348,
  "jue de ": 8349,
  "hen duo ": 8350,
  "gao su": 8351,
  "wai jiao ": 8352,
  "jian you ": 8353,
  "zhen shi ": 8354,
  "quan de ": 8355,
  "xin jia ": 8356,
  "jin biao sai ": 8357,
  " li shu yu ": 8358,
  "tian zhu jiao ": 8359,
  "ye wu ": 8360,
  " INSEE": 8361,
  "jiao wei ": 8362,
  " yi xia ": 8363,
  "cheng zhen ": 8364,
  " nian ji ": 8365,
  " hei ": 8366,
  "ci yu ": 8367,
  "niao ": 8368,
  "zhan ling ": 8369,
  "gong zhong ": 8370,
  "ceng zai ": 8371,
  "jian cha ": 8372,
  "jia na da ": 8373,
  " de yu ": 8374,
  "qu xiao ": 8375,
  " ran hou ": 8376,
  "shou ge ": 8377,
  "nan ji ": 8378,
  "gao su ": 8379,
  " yi yang ": 8380,
  "gong neng ": 8381,
  "lu shi ": 8382,
  " he bei ": 8383,
  "sheng cheng ": 8384,
  "ni si ": 8385,
  " de shi hou ": 8386,
  " bai": 8387,
  "di fang ": 8388,
  " zheng shi ": 8389,
  " qi ta": 8390,
  " dao le ": 8391,
  "yuan you ": 8392,
  "zuo chu ": 8393,
  "ti ji ": 8394,
  "dian ying": 8395,
  " jie zhi ": 8396,
  " 8": 8397,
  "dian ji ": 8398,
  "sheng zhi ": 8399,
  " hu": 8400,
  "he wei ": 8401,
  "di san ": 8402,
  " xing cheng ": 8403,
  " gai sheng ": 8404,
  " jian zhu ": 8405,
  "he zhi ": 8406,
  "dui zai ": 8407,
  "ying xiang": 8408,
  "ju jue ": 8409,
  " dui yu ": 8410,
  "le ji ": 8411,
  "lan xi ": 8412,
  " er zai ": 8413,
  " zong mian ji ": 8414,
  "da li ya ": 8415,
  "qi ta": 8416,
  " D": 8417,
  " de li ": 8418,
  "shu zhi ": 8419,
  "wang zhan ": 8420,
  "ni ya": 8421,
  "shou wei ": 8422,
  "2002 nian ": 8423,
  " shi chang ": 8424,
  "zi xing ": 8425,
  "gong yi ": 8426,
  "yun ying ": 8427,
  " rang": 8428,
  "2003 nian ": 8429,
  "tian wen ": 8430,
  "mo xi ": 8431,
  "zheng quan ": 8432,
  "zuo yi ": 8433,
  "zhen de ": 8434,
  " di qi ": 8435,
  "hui zhi ": 8436,
  " er qie ": 8437,
  " ling yi ": 8438,
  " ren kou mi du mei ping fang gong li ": 8439,
  "xiao xue ": 8440,
  "mu shi ": 8441,
  "qing shi ": 8442,
  "cha de shu ju ": 8443,
  "pu tao ": 8444,
  "you zheng bian ma wei ": 8445,
  "te li ": 8446,
  " shi zhen bian ma wei ": 8447,
  " INSEE shi zhen bian ma wei ": 8448,
  " ren kou mi du wei mei ping fang ": 8449,
  " biao shi ": 8450,
  "ben de ": 8451,
  " xia ling shi ": 8452,
  " bian": 8453,
  "   bu ": 8454,
  "xi li ": 8455,
  " shuang ": 8456,
  "lei ji ": 8457,
  "xuan qu wei ": 8458,
  "wu ren ": 8459,
  "gao yu ": 8460,
  "yu shi de ren kou shu liang wei ren ": 8461,
  "zhuo ": 8462,
  "jie jue ": 8463,
  "di yi ci ": 8464,
  " ruo": 8465,
  "lu yi ": 8466,
  "mei guo ren kou pu cha de shu ju ": 8467,
  " er ren kou mi du wei mei ping fang ": 8468,
  " dang di gong you ren kou ": 8469,
  "xi yu ": 8470,
  "er zai ": 8471,
  "jiang shi ": 8472,
  "fa dong ": 8473,
  "zhan dou": 8474,
  " te bie": 8475,
  " wei you ": 8476,
  " huo jiu shi zhen ": 8477,
  "yun xing ": 8478,
  "zhong xin ": 8479,
  "zhu ti ": 8480,
  "xin li ": 8481,
  " E": 8482,
  " huan ": 8483,
  "sheng ji xuan qu wei ": 8484,
  "bao de ": 8485,
  " 00": 8486,
  "   nian ": 8487,
  "meng gu ": 8488,
  "yuan zi ": 8489,
  "gan dao ": 8490,
  "jing chang ": 8491,
  "cong shi ": 8492,
  "shao nian ": 8493,
  " 15": 8494,
  "chong jian ": 8495,
  "fen wei fa guo ": 8496,
  " gai sheng fen wei fa guo ": 8497,
  "si li ": 8498,
  " bo": 8499,
  " nian chu ": 8500,
  "da xue": 8501,
  "ye zai ": 8502,
  " nian yu ": 8503,
  "cheng li yu ": 8504,
  " bu fen": 8505,
  "shuo fa ": 8506,
  "zuo zhan ": 8507,
  "jia zhong ": 8508,
  "sheng ren ": 8509,
  " guo ji ": 8510,
  "yang hua ": 8511,
  "ming yi ": 8512,
  "   he ": 8513,
  "lun dun": 8514,
  "lian he guo ": 8515,
  "zheng ming ": 8516,
  "fa qi ": 8517,
  "na de ": 8518,
  "gou de ": 8519,
  "jin yi bu ": 8520,
  "fang qi ": 8521,
  "da qu ": 8522,
  "ao lin pi ke yun dong hui ": 8523,
  "huo shi ": 8524,
  "fan hui ": 8525,
  "zi wei ": 8526,
  "tai guo ": 8527,
  "xiang ji ": 8528,
  "suo shu de sheng ji xuan qu wei ": 8529,
  " deng": 8530,
  "yuan li ": 8531,
  "2023 nian ": 8532,
  "gao deng ": 8533,
  "m ": 8534,
  "zi ran": 8535,
  "yun shu ": 8536,
  "jie rang de shi zhen ": 8537,
  "20 ": 8538,
  " xi bei ": 8539,
  "biao wei ": 8540,
  "na li ": 8541,
  "gong ren ": 8542,
  "hua wei ": 8543,
  "jian cheng ": 8544,
  "xi zai ": 8545,
  "guo you ": 8546,
  " huang": 8547,
  "ti xi ": 8548,
  " zao ": 8549,
  "xing qi ": 8550,
  "zi yuan ": 8551,
  " chuang ": 8552,
  "dao lu ": 8553,
  "xia wu ": 8554,
  "luo fu ": 8555,
  " zhong gong ": 8556,
  " ha ": 8557,
  "dao ren ": 8558,
  " di qu de ": 8559,
  "xi ban ya ": 8560,
  "bei yi ": 8561,
  "diao cha": 8562,
  "sheng shi ": 8563,
  "jin yi ": 8564,
  "ni ke ": 8565,
  " zhi cheng ": 8566,
  " 30": 8567,
  "bo lan ": 8568,
  "   che zhan ": 8569,
  "wen ming ": 8570,
  " 4": 8571,
  "an shi ": 8572,
  "fa she ": 8573,
  "feng xian ": 8574,
  " pei ": 8575,
  "   and": 8576,
  "   chu ": 8577,
  "lan qiu ": 8578,
  "sou ": 8579,
  " nian hou ": 8580,
  " kang": 8581,
  "wan jia ": 8582,
  " gong cheng ": 8583,
  "chao zheng zhi ren wu ": 8584,
  "pai de ": 8585,
  "   a": 8586,
  "jian ji ": 8587,
  "ce de ": 8588,
  " da xue": 8589,
  " wei sheng ": 8590,
  "guan zhu ": 8591,
  " shi yi wei ": 8592,
  " shi yi ming ": 8593,
  "ying li ": 8594,
  "lv shi ": 8595,
  "zhong hua ren min gong he guo ": 8596,
  "nan sheng ": 8597,
  "chan ye ": 8598,
  "bei ji ": 8599,
  "shou shang ": 8600,
  "za ": 8601,
  "zi he ": 8602,
  "jing shen ": 8603,
  "fu qin ": 8604,
  "jin xing le ": 8605,
  "mie ": 8606,
  " bu neng ": 8607,
  "tong xing ": 8608,
  "lie wei ": 8609,
  "xiang dang ": 8610,
  "shu zhong ": 8611,
  "lian de ": 8612,
  "qi zhong yi ": 8613,
  " shi xian ": 8614,
  "pai ming ": 8615,
  "xu yao": 8616,
  "   ta ": 8617,
  "er he ": 8618,
  " yue zai ": 8619,
  "fo jiao ": 8620,
  "liu yu ": 8621,
  "yan jiu suo ": 8622,
  "zhan hou ": 8623,
  " bi": 8624,
  " ben": 8625,
  " xi nan ": 8626,
  "t ": 8627,
  " ji du ": 8628,
  "luo ma": 8629,
  "da wei ": 8630,
  "jie yi ": 8631,
  "yan yi ": 8632,
  "ke wei ": 8633,
  "sai er ": 8634,
  "xiao zu ": 8635,
  "ba nian ": 8636,
  "jia ting ": 8637,
  "U ": 8638,
  " long ": 8639,
  " he bing ": 8640,
  "gen ju": 8641,
  " zhi xian ": 8642,
  "zheng ju ": 8643,
  "shen me": 8644,
  " ou ": 8645,
  "qiu de ": 8646,
  "   bei ": 8647,
  "xuan ren ": 8648,
  "su de ": 8649,
  " can ": 8650,
  "shu liang ": 8651,
  " lin": 8652,
  "wang shi ": 8653,
  " de zhu yao ": 8654,
  "xi yang ": 8655,
  "lai yuan ": 8656,
  " nian du ": 8657,
  "sheng yi ": 8658,
  "reng ran ": 8659,
  "tao lun ": 8660,
  " P": 8661,
  "ming dan ": 8662,
  " 10 yue ": 8663,
  "rui shi ": 8664,
  " tuo ": 8665,
  "zao nian ": 8666,
  "wen jian ": 8667,
  "shuai ": 8668,
  "su ge ": 8669,
  "lv ke ": 8670,
  "zheng dang ": 8671,
  "yu   ": 8672,
  "rao ": 8673,
  " ji si ": 8674,
  " zong ren kou ": 8675,
  "xia de yi ge ": 8676,
  "fan de ": 8677,
  "zi dong ": 8678,
  " wu ke ": 8679,
  " que ": 8680,
  "jiao tang ": 8681,
  "biao ming ": 8682,
  "di si ": 8683,
  " fen zhong ": 8684,
  "lu yu ": 8685,
  " quan": 8686,
  " zhi ming ": 8687,
  " bei jing ": 8688,
  "ming shi ": 8689,
  "xu de ": 8690,
  "xing yi ": 8691,
  "ke li si ": 8692,
  "   xian ": 8693,
  "ping lun ": 8694,
  " ci shi ": 8695,
  " shi jian yu ": 8696,
  "e luo ": 8697,
  "zhu chi ": 8698,
  "0 ": 8699,
  "ping tai ": 8700,
  " ji hu ": 8701,
  "nan jing ": 8702,
  " 9": 8703,
  "peng you ": 8704,
  "yan ge ": 8705,
  " ta men de ": 8706,
  "yin hang": 8707,
  " li ren ": 8708,
  " de di fang ": 8709,
  " guo wang ": 8710,
  "da yue ": 8711,
  "gong zhong yang ": 8712,
  "ke zai ": 8713,
  "zuo shi ": 8714,
  "shen wei ": 8715,
  "fu ze guan xia ": 8716,
  "lian bang": 8717,
  "yuan zai ": 8718,
  "zheng bu ": 8719,
  " miao ": 8720,
  "biao zhi ": 8721,
  " er qie": 8722,
  "qian zhi ": 8723,
  "tui yi ": 8724,
  "xuan qu ": 8725,
  "ceng jing ": 8726,
  "jing you ": 8727,
  " 6": 8728,
  "shu yi ": 8729,
  "jiao bu ": 8730,
  " 16": 8731,
  "qian shi ": 8732,
  "hua yu ": 8733,
  "hao wei ": 8734,
  "chong tu ": 8735,
  " you wei ": 8736,
  "ke shi ": 8737,
  "mo xing ": 8738,
  "bao chi ": 8739,
  "jian ren ": 8740,
  "zi yi ": 8741,
  "zhou wei ": 8742,
  "zhang da ": 8743,
  "xing bu ": 8744,
  "xuan chuan ": 8745,
  "   2021": 8746,
  "   sui ": 8747,
  "jing wei ": 8748,
  "   in": 8749,
  "gong xian ": 8750,
  "dui yi ": 8751,
  " you li ": 8752,
  " jin ru ": 8753,
  "xia shi ": 8754,
  " ou": 8755,
  " tan ": 8756,
  "zhong yang ": 8757,
  " 17": 8758,
  "shang ying ": 8759,
  " ji bei ": 8760,
  "xian fa ": 8761,
  "dao he ": 8762,
  "ru he ": 8763,
  "sai zhong ": 8764,
  " gao": 8765,
  "biao da ": 8766,
  "tai ping yang ": 8767,
  "ke si ": 8768,
  "feng bao ": 8769,
  "guang zhou ": 8770,
  "dao yan ": 8771,
  "xian ji ": 8772,
  "xie de ": 8773,
  "sheng huo": 8774,
  "dang xuan ": 8775,
  "   2020": 8776,
  "wu wei ": 8777,
  "ding yu ": 8778,
  "kuai su ": 8779,
  "xiao guo ": 8780,
  "cha yi ": 8781,
  "yan zhi ": 8782,
  "jiao qu ": 8783,
  " ceng ren ": 8784,
  "liang zhong ": 8785,
  "ping mian ": 8786,
  "rou ": 8787,
  "an jian ": 8788,
  " er ren kou mi du wei mei ping fang qian mi ": 8789,
  "lu si ": 8790,
  "lei xing ": 8791,
  "tuan dui ": 8792,
  " qin ": 8793,
  "yuan zhang ": 8794,
  "cheng xian ": 8795,
  "nei rong": 8796,
  "shen qing ": 8797,
  "jiu nian ": 8798,
  "R ": 8799,
  " 5": 8800,
  " dai": 8801,
  "bi ya ": 8802,
  " zheng": 8803,
  " li da ": 8804,
  "wu yu ": 8805,
  " zhi fu ": 8806,
  "qiu chang ": 8807,
  "pu tong ": 8808,
  " yi xi ": 8809,
  "jian dui ": 8810,
  "xiao shou ": 8811,
  " han": 8812,
  "xing ren ": 8813,
  "xian he ": 8814,
  "que zhen ": 8815,
  "ne ": 8816,
  " yi shang ": 8817,
  "heng xing ": 8818,
  "fen bie ": 8819,
  "ru ci ": 8820,
  "xi he ": 8821,
  "tiao zhan ": 8822,
  "dui shou ": 8823,
  " zhi zao ": 8824,
  "bao wei ": 8825,
  "   ge ": 8826,
  " yin du ": 8827,
  "cheng yu ": 8828,
  " yue yu ": 8829,
  "lai shuo ": 8830,
  " zhong hua ": 8831,
  " qi yu ": 8832,
  "ri qi ": 8833,
  " xu": 8834,
  "yao qing ": 8835,
  " shi di ": 8836,
  "xue shu ": 8837,
  "he yu ": 8838,
  "hou you ": 8839,
  " K": 8840,
  "hui ji ": 8841,
  "huo dong": 8842,
  "   and   ": 8843,
  "gong lu ": 8844,
  "cai yong": 8845,
  "nu li ": 8846,
  "ying ge lan ": 8847,
  "yuan su ": 8848,
  "wang lu ": 8849,
  "an na ": 8850,
  "ni de ": 8851,
  "neng gou": 8852,
  "bian ji ": 8853,
  " xiang gang": 8854,
  " mai ": 8855,
  " 8 yue ": 8856,
  "fan yi ": 8857,
  "zheng zhuang ": 8858,
  " shi yi ge": 8859,
  "fu qin": 8860,
  " li lun ": 8861,
  "zi zhi qu ": 8862,
  " pei": 8863,
  "wei   ": 8864,
  "jie fang jun ": 8865,
  " xiao shi ": 8866,
  "xiao zhang ": 8867,
  "te bie ": 8868,
  "lun de ": 8869,
  " yi li ": 8870,
  "2024 nian ": 8871,
  "ta shi ": 8872,
  "hai zi ": 8873,
  "lan ke ": 8874,
  "xiang yu ": 8875,
  "chuang li ": 8876,
  "shu zi ": 8877,
  "geng ming wei ": 8878,
  "dian tai ": 8879,
  "nei ge ": 8880,
  "ting de ": 8881,
  "duo zhong ": 8882,
  " zai yi ": 8883,
  "she yu ": 8884,
  "1999 nian ": 8885,
  "zong du ": 8886,
  "M ": 8887,
  "qu he ": 8888,
  "jia ren ": 8889,
  "xin shi ": 8890,
  "xian xiang ": 8891,
  "min de ": 8892,
  " jie guo ": 8893,
  "   2019": 8894,
  "jiang xi ": 8895,
  " tong chang ": 8896,
  "re dai ": 8897,
  "sun shi ": 8898,
  "ming yu ": 8899,
  "ban gong shi ": 8900,
  "ru guo ": 8901,
  "bo de ": 8902,
  "la fu ": 8903,
  "qi ye ": 8904,
  "shou ru ": 8905,
  "jiang xiang ": 8906,
  "jie wei ": 8907,
  "pang ": 8908,
  " shi you": 8909,
  "jia ge ": 8910,
  "   wu ": 8911,
  "sa ke ": 8912,
  "chu shen ": 8913,
  "ka si ": 8914,
  "jie jin ": 8915,
  "ju xing de ": 8916,
  "   xia ": 8917,
  "jing cha ": 8918,
  "jie yu ": 8919,
  "zhan ji ": 8920,
  "lin de ": 8921,
  " lao ": 8922,
  "dao da ": 8923,
  "   2018": 8924,
  " da qu ": 8925,
  "xuan ze": 8926,
  " zhuan": 8927,
  "hai de ": 8928,
  " li he ": 8929,
  " T": 8930,
  "wen zhang ": 8931,
  "shao shu ": 8932,
  "lu di mian ji wei ": 8933,
  " suo you ": 8934,
  "kan dao ": 8935,
  "zai zhi ": 8936,
  "hou qi ": 8937,
  "shui yu mian ji wei ": 8938,
  " xiong ": 8939,
  "hu shi ": 8940,
  "jiang di ": 8941,
  " 19": 8942,
  "tou xiang ": 8943,
  "jie quan guo ": 8944,
  " fa xian ": 8945,
  " zhi shi ": 8946,
  "1998 nian ": 8947,
  "wen yi ": 8948,
  "lun dun ": 8949,
  "kang yi ": 8950,
  " ji ben ": 8951,
  " de di qu ": 8952,
  "guan dian ": 8953,
  "xing jian ": 8954,
  "hui shang ": 8955,
  "wen zi ": 8956,
  "qi you ": 8957,
  " 7": 8958,
  "zhu yan ": 8959,
  " xian zai ": 8960,
  " che zhan ": 8961,
  "xi zhi ": 8962,
  "amp ": 8963,
  "F ": 8964,
  "chu sheng ": 8965,
  "hai an ": 8966,
  " ji zhe ": 8967,
  "zhang shi ": 8968,
  " zhe xie": 8969,
  " G": 8970,
  "jun di ": 8971,
  " ji tuan": 8972,
  "ming di ": 8973,
  "sang ": 8974,
  "xi bei ": 8975,
  "ti ming ": 8976,
  " hou lai": 8977,
  "rong yi ": 8978,
  " amp ": 8979,
  "   ke ": 8980,
  "zhen dui ": 8981,
  "du yu ": 8982,
  "cuo shi ": 8983,
  "zhang ke da ": 8984,
  " shou": 8985,
  "fang zai ": 8986,
  "tian jin ": 8987,
  "tiao zheng ": 8988,
  "po huai ": 8989,
  "xin ren ": 8990,
  " dang zhong lu di mian ji wei ": 8991,
  "wen de ": 8992,
  " er shui yu mian ji wei ": 8993,
  " ji shi ": 8994,
  "   2022": 8995,
  "xi yi ": 8996,
  "jian zhong ": 8997,
  " bei er ": 8998,
  " ju li ": 8999,
  "xing xing ": 9000,
  " de yi zuo ": 9001,
  "chu fa ": 9002,
  "zao yu ": 9003,
  "xi zhong ": 9004,
  "chi de ": 9005,
  "teng ": 9006,
  "jing dian ": 9007,
  "ba xi ": 9008,
  "guang xi ": 9009,
  "luo di ": 9010,
  "ru kou ": 9011,
  " The   ": 9012,
  "gou cheng ": 9013,
  " yi jian ": 9014,
  "bian jie ": 9015,
  " you bu ": 9016,
  "hao xian ": 9017,
  "da zhong ": 9018,
  " shi li ": 9019,
  "ming zhi ": 9020,
  "fu ji ": 9021,
  "zhong yao ": 9022,
  " zai zhe ": 9023,
  "   xing zheng qu hua ": 9024,
  "shan ji ": 9025,
  " ao": 9026,
  " jing guo ": 9027,
  "cun zhuang ": 9028,
  " de zhi chi ": 9029,
  "ha er ": 9030,
  "yue tai ": 9031,
  " yu ci ": 9032,
  "tou ru ": 9033,
  " shi qu ": 9034,
  "dui wu ": 9035,
  "da zhi ": 9036,
  "xian you ": 9037,
  " nian bei ": 9038,
  "keng ": 9039,
  " yue you ": 9040,
  " wei lian ": 9041,
  "jue ding": 9042,
  "ao men ": 9043,
  "wai guo ": 9044,
  " cong er ": 9045,
  " sa ": 9046,
  " zhong yao ": 9047,
  " 9 yue ": 9048,
  "deng lu ": 9049,
  " shi yong": 9050,
  "ye bu ": 9051,
  "chang yi ": 9052,
  "gong si": 9053,
  " formula ": 9054,
  " yue wei ": 9055,
  "jin ru": 9056,
  "tou piao ": 9057,
  "   2017": 9058,
  "tai yang ": 9059,
  "nuo wei ": 9060,
  " shi zhong guo ": 9061,
  "yuan hui ": 9062,
  "bi ye yu ": 9063,
  "zhang yu ": 9064,
  "dao ji ": 9065,
  " zhi xia ": 9066,
  "si chuan ": 9067,
  "fang wei ": 9068,
  "yin fa ": 9069,
  "d ": 9070,
  "jia yu ": 9071,
  "cun de ": 9072,
  "gong yu ": 9073,
  "tui dong ": 9074,
  "ju zhu ": 9075,
  "que ding ": 9076,
  "zhan di ": 9077,
  "mei nian ": 9078,
  " I": 9079,
  "hai dao ": 9080,
  "qian shu ": 9081,
  " yi da li ": 9082,
  "le si ": 9083,
  "zi ran ": 9084,
  "gan ran": 9085,
  " ti zhang ke da ": 9086,
  "hun he ": 9087,
  " zai bei ": 9088,
  "zi li ": 9089,
  "nan bei ": 9090,
  " 7 yue ": 9091,
  "jun yi ": 9092,
  "tu er qi ": 9093,
  "shi   ": 9094,
  "ke yu ": 9095,
  "pi zhun ": 9096,
  " wei fu qi yu ": 9097,
  "fen de ": 9098,
  "heng li ": 9099,
  "fang wen ": 9100,
  " ren men ": 9101,
  "shu he ": 9102,
  " ji cheng ": 9103,
  "tu de ": 9104,
  "zhuang jia ": 9105,
  "zhan zhong ": 9106,
  " zhong de ": 9107,
  "er ren ": 9108,
  "ma ke ": 9109,
  " nian he ": 9110,
  "   2016": 9111,
  "ti gao ": 9112,
  " ta yi ": 9113,
  "qi zi ": 9114,
  " yong": 9115,
  " biao ": 9116,
  "C ": 9117,
  "mo er ": 9118,
  "xiao li ": 9119,
  "jian he ": 9120,
  "chu ji ": 9121,
  "zi jin ": 9122,
  "er yu ": 9123,
  "wen ding ": 9124,
  " xiu ": 9125,
  " 12 yue ": 9126,
  "jie shu hou ": 9127,
  "ci wei ": 9128,
  "bao liu ": 9129,
  "xin yi ": 9130,
  " li ya": 9131,
  "ang ": 9132,
  "cheng zhi ": 9133,
  " feng": 9134,
  " hong": 9135,
  "zhong li ": 9136,
  "cheng zuo ": 9137,
  "shang ren ": 9138,
  "ceng yu ": 9139,
  "ben tu ": 9140,
  "yong hu ": 9141,
  "hou xuan ren ": 9142,
  "ying pian ": 9143,
  " wo men ": 9144,
  " e": 9145,
  " 11 yue ": 9146,
  " de yi zhi ": 9147,
  "chu zhan ": 9148,
  " pa": 9149,
  "jian zai ": 9150,
  " di qu": 9151,
  " ta ye ": 9152,
  "mei ge ": 9153,
  " de shi qu wei ": 9154,
  "di ji ": 9155,
  "xun su ": 9156,
  "   de shi ": 9157,
  "bi sai zhong ": 9158,
  " jia shang ": 9159,
  " bing yi ": 9160,
  " hai you ": 9161,
  "18 ": 9162,
  "xue hui ": 9163,
  "sa er ": 9164,
  "jian zao ": 9165,
  "xia lai ": 9166,
  "guang fan ": 9167,
  " tw": 9168,
  "dang shi de ": 9169,
  "   A": 9170,
  " nian you ": 9171,
  "shui ping ": 9172,
  "shan da ": 9173,
  "hans ": 9174,
  "he zuo ": 9175,
  "tu zhong ": 9176,
  "ling wai ": 9177,
  " zhong guo gong chan dang ": 9178,
  " ting ": 9179,
  " hans ": 9180,
  "bo er ": 9181,
  "jian shao ": 9182,
  "xu qiu ": 9183,
  " tw ": 9184,
  " 21 ": 9185,
  " ren lei ": 9186,
  "da fu ": 9187,
  "pai chu ": 9188,
  "xin hao ": 9189,
  "nan yi ": 9190,
  "te shu ": 9191,
  " 2011": 9192,
  " tao ": 9193,
  "zhu bu ": 9194,
  "lv wei ": 9195,
  "   er ": 9196,
  "zui chu ": 9197,
  " an": 9198,
  "shan de ": 9199,
  "bu dui ": 9200,
  "   qing ": 9201,
  " ri yu ": 9202,
  "xu shi ": 9203,
  "jie rang ": 9204,
  "zhu ming de ": 9205,
  "xiao shuo": 9206,
  "ban gong ": 9207,
  "ke he ": 9208,
  "zhuang zhi ": 9209,
  "jiang su ": 9210,
  "   2023": 9211,
  "si ke ": 9212,
  "pin pai ": 9213,
  "jin shu ": 9214,
  " cheng yuan ": 9215,
  " yu ren ": 9216,
  "mou xie ": 9217,
  "jie you ": 9218,
  " yi jia ": 9219,
  "jie ke ": 9220,
  " na": 9221,
  "she hui zhu yi ": 9222,
  "ao da li ya ": 9223,
  " ji guan ": 9224,
  " O": 9225,
  "fa chu ": 9226,
  "kong zhong ": 9227,
  " xi bao ": 9228,
  "   2014": 9229,
  "wa er ": 9230,
  "zi xun ": 9231,
  " 2010 nian ": 9232,
  "lu zhi ": 9233,
  "jing yan ": 9234,
  " wang": 9235,
  " zai da ": 9236,
  "jia zu ": 9237,
  " jing ji ": 9238,
  "1997 nian ": 9239,
  " e luo si ": 9240,
  "bei zhi ": 9241,
  "dang zhong ": 9242,
  "chang he ": 9243,
  "suo de ": 9244,
  "ying wen ": 9245,
  "sha si ": 9246,
  " zhi neng ": 9247,
  "zhu you ": 9248,
  "sui dao ": 9249,
  "chu sheng yu ": 9250,
  " gong tong ": 9251,
  " zai zhong guo ": 9252,
  " fa xing ": 9253,
  "min jian ": 9254,
  " zhuang ": 9255,
  " chu yu ": 9256,
  "jue se": 9257,
  "   yu shi de ren kou shu liang wei ren ": 9258,
  "   suo shu de sheng ji xuan qu wei ": 9259,
  " ji ren ": 9260,
  " guo cheng ": 9261,
  " jie mu ": 9262,
  "   de you zheng bian ma wei ": 9263,
  "   yu jie rang de shi zhen ": 9264,
  "   de shi qu wei ": 9265,
  "   2015": 9266,
  "   yuan ": 9267,
  " 2019": 9268,
  "ge you ": 9269,
  " he xi ": 9270,
  "ti shi ": 9271,
  "zeng zhang ": 9272,
  "xiang si ": 9273,
  "geng jia ": 9274,
  "ke cheng ": 9275,
  " bing jiang ": 9276,
  " 2009 nian ": 9277,
  "nan de ": 9278,
  "che zhan": 9279,
  "jun ji ": 9280,
  "kong jun ": 9281,
  " di da ": 9282,
  "gu wen ": 9283,
  "1996 nian ": 9284,
  " he er ": 9285,
  "hui ying ": 9286,
  "te er ": 9287,
  "jiang de ": 9288,
  " hk": 9289,
  "yin su ": 9290,
  " sheng huo": 9291,
  "zhou fu ": 9292,
  "ling tu ": 9293,
  "guang gao ": 9294,
  "   2013": 9295,
  "jiao lian ": 9296,
  "chao shi ": 9297,
  "n ": 9298,
  "fo ": 9299,
  "he you ": 9300,
  "ge ge ": 9301,
  "fei jian zhi ": 9302,
  "ti yi ": 9303,
  "da cheng ": 9304,
  "jie gou": 9305,
  "ti sheng ": 9306,
  " N": 9307,
  "ci yi ": 9308,
  " bu tong de ": 9309,
  "da yu ": 9310,
  "guan bi ": 9311,
  "   xin ": 9312,
  "hua zhong ": 9313,
  " 6 yue ": 9314,
  "er yi ": 9315,
  "hua he ": 9316,
  "12 ": 9317,
  " xuan bu ": 9318,
  " hk ": 9319,
  "fang bu ": 9320,
  " ke xue ": 9321,
  " de guo jia ": 9322,
  "zhuang shi ": 9323,
  "lang de ": 9324,
  "jia ru": 9325,
  "gong min ": 9326,
  " er gai ": 9327,
  "bao li ": 9328,
  "xing tai ": 9329,
  "jun gong ": 9330,
  "ge yi ": 9331,
  "han shu ": 9332,
  "zong bu ": 9333,
  " shi mei guo ": 9334,
  "min zhu dang ": 9335,
  "shan mai": 9336,
  "zheng fu de ": 9337,
  "   S": 9338,
  " bing you ": 9339,
  " lai zi ": 9340,
  "dang yu ": 9341,
  "rui dian ": 9342,
  "tun ": 9343,
  "le shi ": 9344,
  " ji nian ": 9345,
  "di guo ": 9346,
  "nei lu ": 9347,
  "quan mian ": 9348,
  "luo ke ": 9349,
  " yue tai ": 9350,
  "wei yi ge ": 9351,
  "zhuan jia ": 9352,
  " xu duo ": 9353,
  "ling de ": 9354,
  "hui bei ": 9355,
  "zhe xie": 9356,
  "shan shi ": 9357,
  " you qi shi ": 9358,
  "1992 nian ": 9359,
  "wo men ": 9360,
  "jiu dian ": 9361,
  " mao ": 9362,
  " xi jie ": 9363,
  " wan ren ": 9364,
  "wu ke lan": 9365,
  "cheng xu ": 9366,
  " qi zhong yi ": 9367,
  "an quan": 9368,
  " reng": 9369,
  " dan ta ": 9370,
  "tu shu guan ": 9371,
  " cha ": 9372,
  " 5 yue ": 9373,
  "fei jian zhi di qu ": 9374,
  "   xiang ": 9375,
  "zu cheng de ": 9376,
  "ba wei ": 9377,
  "fa lv": 9378,
  "dui shi ": 9379,
  "guo wei ": 9380,
  " you xiao ": 9381,
  "si xiang ": 9382,
  "L ": 9383,
  "an pai ": 9384,
  "ju bu ": 9385,
  "tian de ": 9386,
  " qian": 9387,
  " lie ": 9388,
  "dian nao": 9389,
  "chang yu ": 9390,
  "tan ke ": 9391,
  "tong yu ": 9392,
  "ma er ": 9393,
  " B": 9394,
  " 2018": 9395,
  "ge zhi ": 9396,
  "jiu zhi ": 9397,
  " di xia ": 9398,
  "se lie ": 9399,
  "yan jiu yuan ": 9400,
  "mo xi ge ": 9401,
  "   to": 9402,
  " zheng fu ": 9403,
  "jin pai ": 9404,
  "shu xue ": 9405,
  "xia jiang ": 9406,
  " rang ": 9407,
  "zhu ming ": 9408,
  "shou fu ": 9409,
  "huan ying ": 9410,
  " shi jie bei ": 9411,
  "   li": 9412,
  "zhuan yi ": 9413,
  " ji chu ": 9414,
  "jiu de ": 9415,
  " he di ": 9416,
  "san jiao ": 9417,
  "   jia zu ": 9418,
  "ming ming wei ": 9419,
  "deng wei ": 9420,
  "sheng zhang ": 9421,
  "lai dao ": 9422,
  "jing zheng ": 9423,
  "bei ren wei shi ": 9424,
  "xian chang ": 9425,
  "xiu gai ": 9426,
  "hui zhang ": 9427,
  "wei zhi ": 9428,
  "shuo ming ": 9429,
  " wei yuan hui": 9430,
  "dai li ": 9431,
  "que fa ": 9432,
  "bing shi ": 9433,
  "zi mu ": 9434,
  "hua ren ": 9435,
  "yong lai ": 9436,
  "mu qin ": 9437,
  "xun hui ": 9438,
  " dan you yu ": 9439,
  " she ji ": 9440,
  "ming ling ": 9441,
  "dai you ": 9442,
  "leng ": 9443,
  "   zh ": 9444,
  "wen shi ": 9445,
  " min guo ": 9446,
  "ye bei ": 9447,
  " yin yue ": 9448,
  "mao qiu ": 9449,
  " de di er ": 9450,
  " li ru": 9451,
  " ta bei ": 9452,
  " 4 yue ": 9453,
  "zhu ji ": 9454,
  "liao jie ": 9455,
  " kang ": 9456,
  "zhe li ": 9457,
  "ta yu ": 9458,
  "dui qi ": 9459,
  "ju zhang ": 9460,
  "fei lv ": 9461,
  " zhong guo ren min ": 9462,
  "yin de ": 9463,
  "cheng wei le ": 9464,
  "   jie zhi ": 9465,
  "ruan ": 9466,
  "cai qu ": 9467,
  "quan shi ": 9468,
  "shou zhong ": 9469,
  "jun you ": 9470,
  "sui ji ": 9471,
  "1995 nian ": 9472,
  "ying yun ": 9473,
  "shen ti ": 9474,
  "chan pin": 9475,
  "xu ke ": 9476,
  "bei er ": 9477,
  "che xiao ": 9478,
  "chang pian ": 9479,
  " shang hai ": 9480,
  "can jia le ": 9481,
  "fa an ": 9482,
  "tie lu": 9483,
  " 2016": 9484,
  " cao ": 9485,
  " yi ju ": 9486,
  " er fu ": 9487,
  "bo fang ": 9488,
  " yi nian ": 9489,
  " kuan ": 9490,
  "1994 nian ": 9491,
  " yi zai ": 9492,
  "11 ": 9493,
  "chang di ": 9494,
  " da bu fen ": 9495,
  "ma si ": 9496,
  "ban fa ": 9497,
  "ti zhong ": 9498,
  "che de ": 9499,
  " ren gong ": 9500,
  " li bu ": 9501,
  " xing dong ": 9502,
  "tai ji ": 9503,
  "fa dian ": 9504,
  "shang hai": 9505,
  "bai se ": 9506,
  "ju he ": 9507,
  " you you ": 9508,
  " qi lai ": 9509,
  "   zhong guo ": 9510,
  "zi zhu ": 9511,
  "shen jing ": 9512,
  " shi yi nian ": 9513,
  "gua ": 9514,
  " di tie ": 9515,
  "hua yuan ": 9516,
  "wang qiu ": 9517,
  "zhan tai ": 9518,
  " li shu ": 9519,
  "chu xi ": 9520,
  " er bu ": 9521,
  " fu jin ": 9522,
  "fu you ": 9523,
  "dian qi ": 9524,
  "su wei ": 9525,
  "jie hun ": 9526,
  "xue xiao": 9527,
  " ren min zheng fu ": 9528,
  " ka": 9529,
  "hua sheng ": 9530,
  " da liang ": 9531,
  "chang zai ": 9532,
  "wan shang ": 9533,
  "2020 nian mei guo ren kou pu cha de shu ju ": 9534,
  "gu de ": 9535,
  "ma de ": 9536,
  " zhi di ": 9537,
  "ling xian ": 9538,
  "chan sheng de ": 9539,
  "yan chang hui ": 9540,
  "le ta ": 9541,
  "xing zhong ": 9542,
  "ling bu ": 9543,
  "ge lei ": 9544,
  "tong che ": 9545,
  "zu jian ": 9546,
  " wei ren ": 9547,
  "yao wu ": 9548,
  " dai biao ": 9549,
  "xue he ": 9550,
  "que ren ": 9551,
  "ren you ": 9552,
  "qin shi ": 9553,
  " wei wei ": 9554,
  " zai xi ": 9555,
  "xian hou ": 9556,
  "X ": 9557,
  "   2025": 9558,
  "chao de ": 9559,
  "yin du": 9560,
  "qiu hui ": 9561,
  "yun xu ": 9562,
  "ma lai xi ya ": 9563,
  " ying yu ": 9564,
  "   2024": 9565,
  "chu xian zai ": 9566,
  "ze you ": 9567,
  " lao": 9568,
  "kuo da ": 9569,
  "xiang xi ": 9570,
  "huo jian ": 9571,
  "lie biao ": 9572,
  "H ": 9573,
  "bu you ": 9574,
  "ru xuan ": 9575,
  " lu": 9576,
  "liang shi ": 9577,
  "   qian ": 9578,
  "wu he ": 9579,
  " zai mei guo ": 9580,
  " ji hui ": 9581,
  "shan xi sheng ": 9582,
  "tuo li ": 9583,
  " zhi du ": 9584,
  " shi de yi ": 9585,
  "lv xing ": 9586,
  "dai bu ": 9587,
  "jiao liu ": 9588,
  "hu bei ": 9589,
  "1991 nian ": 9590,
  "chang pian": 9591,
  "   nian": 9592,
  "cheng li de ": 9593,
  "yue han ": 9594,
  " you xie ": 9595,
  "ao di li ": 9596,
  " xi la ": 9597,
  " C ": 9598,
  "zhao kai ": 9599,
  "shen shi ": 9600,
  "wu yue ": 9601,
  "ze wei ": 9602,
  "suan ji ": 9603,
  "jing yu ": 9604,
  "tai shi ": 9605,
  " yi tong ": 9606,
  "xing xiang ": 9607,
  "gong chang ": 9608,
  " qiao ": 9609,
  "liang ren ": 9610,
  "pei yin ": 9611,
  "cu jin ": 9612,
  " quan guo ": 9613,
  "da lu de ": 9614,
  "zhuang de ": 9615,
  "xing qu ": 9616,
  "gui ze ": 9617,
  "bing mei you ": 9618,
  "fen li ": 9619,
  " ming chao zheng zhi ren wu ": 9620,
  " li shi shang ": 9621,
  "ci zai ": 9622,
  "gong zhi ": 9623,
  "ping wei ": 9624,
  "si te ": 9625,
  "dai biao da hui ": 9626,
  "xin ji ": 9627,
  " ji er ": 9628,
  "jin bu ": 9629,
  "long de ": 9630,
  " fu jian ": 9631,
  " zhe jiang ": 9632,
  " zhong you ": 9633,
  "jiao xue ": 9634,
  "zhuang kuang ": 9635,
  " shi tu ": 9636,
  "xia ji ao lin pi ke yun dong hui ": 9637,
  " yao qiu ": 9638,
  "tong bu ": 9639,
  "yuan gong ": 9640,
  " xi ju ": 9641,
  "shun ": 9642,
  " wei li ": 9643,
  "te se ": 9644,
  "yun dong": 9645,
  "sui hou ": 9646,
  "zhe zai ": 9647,
  "nan shi ": 9648,
  "kong bu ": 9649,
  "la ji ": 9650,
  "piao fang ": 9651,
  " liang ren ": 9652,
  "da he ": 9653,
  "bao shi ": 9654,
  "wen xian ": 9655,
  " pan ": 9656,
  "   xiao ": 9657,
  "le da ": 9658,
  "k ": 9659,
  " 3 yue ": 9660,
  "dao zhong ": 9661,
  "luo ji ": 9662,
  " ta hai ": 9663,
  "fei zhou ": 9664,
  "pu bian ": 9665,
  " 2011 nian ": 9666,
  "kou wei ": 9667,
  "pei he ": 9668,
  "sa si ": 9669,
  " xi ya": 9670,
  "lian ren ": 9671,
  "xian lu ": 9672,
  "she ji de ": 9673,
  "fen zhong ": 9674,
  "zhuan xiang ": 9675,
  " bu ke ": 9676,
  "wang chao ": 9677,
  " nian qian ": 9678,
  "kao lv ": 9679,
  " zhi zi ": 9680,
  " dou": 9681,
  " jiao yu ": 9682,
  "mei guo de ": 9683,
  " tui ": 9684,
  " nv xing ": 9685,
  "jie ren ": 9686,
  "1988 nian ": 9687,
  " wei wu ": 9688,
  "tong dao ": 9689,
  " cheng gong ": 9690,
  "ming xian ": 9691,
  "jing cha": 9692,
  " da cheng ": 9693,
  " 2021": 9694,
  " wei xing ": 9695,
  "qi zhong yi zhong ": 9696,
  "   guo ": 9697,
  "zui hou": 9698,
  " tai wan": 9699,
  " nai": 9700,
  " sai ji ": 9701,
  "fang wu ": 9702,
  " sun": 9703,
  " yi ban": 9704,
  "hong se ": 9705,
  " mai": 9706,
  "zhao dao ": 9707,
  "1993 nian ": 9708,
  " wei he ": 9709,
  "cai liao ": 9710,
  " sui de ": 9711,
  "   cong ": 9712,
  "zheng he ": 9713,
  " li mi ": 9714,
  "bu tong de ": 9715,
  " de zhi wu ": 9716,
  "ling dao ren ": 9717,
  "hun yin ": 9718,
  " 2001 nian ren kou ": 9719,
  "   2012": 9720,
  "sao ": 9721,
  " yu le ": 9722,
  " xing qi ": 9723,
  " shi wei le ": 9724,
  "bao zhi ": 9725,
  " wei hui ": 9726,
  "ti zhi ": 9727,
  " wei lai ": 9728,
  "fen bu yu ": 9729,
  " ti gong ": 9730,
  " 2015": 9731,
  "xie ren ": 9732,
  "xie dao ": 9733,
  " xi bu ": 9734,
  " s   ": 9735,
  "jun yu ": 9736,
  "shou zhi ": 9737,
  "fu zai ": 9738,
  "dong nan bu ": 9739,
  "chuan bo ": 9740,
  " shi da ": 9741,
  " ren shu ": 9742,
  "biao mian ": 9743,
  "jie mu": 9744,
  "dong bei bu ": 9745,
  "fei chu ": 9746,
  " 2005 nian ": 9747,
  "he   ": 9748,
  "dian hua ": 9749,
  " guan yu ": 9750,
  "bao yu ": 9751,
  "ruan jian ": 9752,
  "t   ": 9753,
  "dan de ": 9754,
  "you shi ": 9755,
  "suo zai ": 9756,
  " han guo ": 9757,
  "wu tai ": 9758,
  "dui zhang ": 9759,
  " yin er ": 9760,
  "jin you ": 9761,
  "tui jin ": 9762,
  "ge he ": 9763,
  "wu zhuang ": 9764,
  "zheng chang ": 9765,
  "ling di ": 9766,
  "ti dao ": 9767,
  "qian wang": 9768,
  "guo ji ji ": 9769,
  "chu lai ": 9770,
  " zao cheng ": 9771,
  " nian di ": 9772,
  "ya li shan da ": 9773,
  " zai jia ": 9774,
  "ying gai ": 9775,
  " jia na da ": 9776,
  " xi tong": 9777,
  " er shui yu mian ji wei 0": 9778,
  "mei de ": 9779,
  "si ling ": 9780,
  "yuan xing ": 9781,
  "gui de ": 9782,
  "bo si ": 9783,
  "fa biao": 9784,
  "po huai": 9785,
  " ye you ": 9786,
  "yin di ": 9787,
  "J ": 9788,
  "jue shi ": 9789,
  " qi": 9790,
  "ben di ": 9791,
  " yu he ": 9792,
  "da bu fen ": 9793,
  "ye he ": 9794,
  "ri jun ": 9795,
  "dong fang ": 9796,
  " ping fang mi ": 9797,
  " xian hou ": 9798,
  "yong zuo ": 9799,
  "si ge ": 9800,
  "an hui ": 9801,
  "xiang yi ": 9802,
  "ming xing ": 9803,
  "qing bao ": 9804,
  "jiao da ": 9805,
  "bian xing ": 9806,
  " shi hou ": 9807,
  " he ping ": 9808,
  " 2017": 9809,
  "   zao nian ": 9810,
  "fa xian le ": 9811,
  "xu zai ": 9812,
  "15 ": 9813,
  " er gai di ": 9814,
  "can mou": 9815,
  "cao zuo ": 9816,
  " 2020": 9817,
  " 2014": 9818,
  "jiao you ": 9819,
  "tai ren ": 9820,
  "nei you ": 9821,
  " chi": 9822,
  " 2013": 9823,
  "qiang de ": 9824,
  "l ": 9825,
  " shi ge ": 9826,
  "zui gao": 9827,
  " dian ying ": 9828,
  " yi du ": 9829,
  " de shi jie ": 9830,
  "geng duo ": 9831,
  "ao yun hui ": 9832,
  "ye hui ": 9833,
  " ge qu ": 9834,
  " xiu": 9835,
  "dui xiang ": 9836,
  "huo zhe ": 9837,
  " yue nan ": 9838,
  "jie shao ": 9839,
  "tuan de ": 9840,
  "mei li ": 9841,
  "zhou bian ": 9842,
  "   K": 9843,
  "ju yi ": 9844,
  "dun de ": 9845,
  " qi zai ": 9846,
  "zuo qu ": 9847,
  " sheng yu ": 9848,
  "bian shi ": 9849,
  " yang": 9850,
  "gong ju ": 9851,
  "deng shang ": 9852,
  " sui zhe ": 9853,
  "jun qu ": 9854,
  "hu de ": 9855,
  "jia zai ": 9856,
  "yong shi ": 9857,
  "jue yi ": 9858,
  "le ta de ": 9859,
  " si ling ": 9860,
  "xia xia de yi ge ": 9861,
  "hai xia ": 9862,
  "long jiang ": 9863,
  " dui": 9864,
  "hu yu ": 9865,
  " bu men ": 9866,
  "xi nan ": 9867,
  "yan shen ": 9868,
  "yong tu ": 9869,
  "zheng ti ": 9870,
  "zhan zhi ": 9871,
  "sui zhu ": 9872,
  "shu ru ": 9873,
  "dou hui ": 9874,
  " shi wu ke ": 9875,
  "shou zhang ": 9876,
  "que zhen bing li ": 9877,
  " xiao": 9878,
  "19 shi ji ": 9879,
  "xia you ": 9880,
  "yun shi ": 9881,
  "gao jia ": 9882,
  " ri de ": 9883,
  "zuo ren ": 9884,
  " er yan ": 9885,
  "yun zuo ": 9886,
  "la he ": 9887,
  "nie ": 9888,
  "tong yang ": 9889,
  "gou zao ": 9890,
  "ban shi chu ": 9891,
  " nan zhi ": 9892,
  "you yu ": 9893,
  "liu zai ": 9894,
  "   zeng ": 9895,
  "hua ji ": 9896,
  "chang you ": 9897,
  " da xing ": 9898,
  "22 ": 9899,
  "1990 nian ": 9900,
  "san ji ": 9901,
  "xia ling": 9902,
  " ju xing ": 9903,
  " xian ren ": 9904,
  " cheng li ": 9905,
  "fei li ": 9906,
  " er zi ": 9907,
  " si wang ": 9908,
  " wei ke ": 9909,
  "da chen ": 9910,
  "fa shou ": 9911,
  " qi zi ": 9912,
  " zhong zai ": 9913,
  "mi mi ": 9914,
  " wan mei yuan ": 9915,
  "ren da ": 9916,
  "guang bo": 9917,
  " 100": 9918,
  " zhong shi ": 9919,
  "shang yu ": 9920,
  "bin hai ": 9921,
  "gong si de ": 9922,
  " nian lai ": 9923,
  "chu kou ": 9924,
  "jun guan ": 9925,
  "hai wai ": 9926,
  " 2010": 9927,
  "du he ": 9928,
  " zhi ding ": 9929,
  "shu yuan ": 9930,
  "xiao qu ": 9931,
  " niu": 9932,
  " shao ": 9933,
  "si yi ": 9934,
  "jia you ": 9935,
  "kai zhan ": 9936,
  "chuan zhi ": 9937,
  "chuang jian ": 9938,
  " qi xiang ": 9939,
  " dong lin ": 9940,
  "shou yi ": 9941,
  "chai chu ": 9942,
  "liang ci ": 9943,
  "ling xiu ": 9944,
  "cai zheng ": 9945,
  "guan shi ": 9946,
  "hui yuan ": 9947,
  " bao han ": 9948,
  " huan": 9949,
  " zheng zhi ": 9950,
  "reng ": 9951,
  " you ke ": 9952,
  "wan ren ": 9953,
  "zhu zuo ": 9954,
  "gu li ": 9955,
  "zun ": 9956,
  "tou piao": 9957,
  "ya ke ": 9958,
  " er tong ": 9959,
  " jian yu ": 9960,
  "an da ": 9961,
  "   si ": 9962,
  "dong zuo ": 9963,
  " jie shou ": 9964,
  "fu wei ": 9965,
  "shan qu ": 9966,
  "bei shi wei ": 9967,
  "tu xing ": 9968,
  " xian lu ": 9969,
  "sen lin ": 9970,
  "qin zi ": 9971,
  "zhu jue ": 9972,
  "ka luo ": 9973,
  "zhuang bei ": 9974,
  "jiang hui ": 9975,
  "gao su gong lu ": 9976,
  "wu si ": 9977,
  " nian 1 yue 1 ri ": 9978,
  "geng wei ": 9979,
  " heng ": 9980,
  "hui zhong ": 9981,
  "jin wei ": 9982,
  "1989 nian ": 9983,
  "ban li ": 9984,
  "tian shi ": 9985,
  " yi mei yuan ": 9986,
  " zai du ": 9987,
  " cai": 9988,
  "ming zhong ": 9989,
  " yong you ": 9990,
  "liu de ": 9991,
  "shou lu ": 9992,
  "wai jiao bu ": 9993,
  " kai": 9994,
  " shun": 9995,
  " 2007 nian ": 9996,
  "ren li ": 9997,
  "bi mian ": 9998,
  "ri zhi ": 9999,
  "ju qing ": 10000,
  " dong bei ": 10001,
  "xiang zheng ": 10002,
  " er cheng ": 10003,
  "shou xi ": 10004,
  "deng de ": 10005,
  "bao shou ": 10006,
  "jun zhu ": 10007,
  "zhang guan ": 10008,
  "qing chu ": 10009,
  "hu nan ": 10010,
  "ce liang ": 10011,
  " 2008 nian ": 10012,
  "ji   ": 10013,
  "meng de ": 10014,
  " yi hou ": 10015,
  " nian   ": 10016,
  " jie ke ": 10017,
  " sheng huo xi ": 10018,
  " ni": 10019,
  "   dang ": 10020,
  "can yi yuan ": 10021,
  " qi xia ": 10022,
  "chu dao ": 10023,
  "tai feng ": 10024,
  "kai tong ": 10025,
  "yan xi ": 10026,
  "jing xuan ": 10027,
  "dui wai ": 10028,
  "chang zhi ": 10029,
  " she hui ": 10030,
  "pian de ": 10031,
  "1984 nian ": 10032,
  "guan cha ": 10033,
  "ding ju ": 10034,
  " mei ge ": 10035,
  " 2012": 10036,
  "sheng yin ": 10037,
  "tai zi ": 10038,
  " can jia ": 10039,
  "zhan qi jian ": 10040,
  "zu fu ": 10041,
  "pi fu ": 10042,
  "bing ru ": 10043,
  "dai lai ": 10044,
  "fan wei nei ": 10045,
  "xing bu ming ": 10046,
  " ju you ": 10047,
  "hua he wu ": 10048,
  "liang ji ": 10049,
  " wei neng ": 10050,
  "zhe bu ": 10051,
  " she you ": 10052,
  "lao dong ": 10053,
  "du li de ": 10054,
  "x ": 10055,
  "lei da ": 10056,
  " wu fa ": 10057,
  "fei de ": 10058,
  "guo wang ": 10059,
  " su": 10060,
  "   ming ": 10061,
  "zhuan de ": 10062,
  "jian jie ": 10063,
  "kang ri ": 10064,
  "gou mai ": 10065,
  " sheng huo xi xing bu ming ": 10066,
  "fang mian de ": 10067,
  "er yue ": 10068,
  "le   ": 10069,
  "jiang ji ": 10070,
  "ma la ": 10071,
  "zhou qi ": 10072,
  "lv de ": 10073,
  "xiang hu ": 10074,
  " yong yu ": 10075,
  "hou shi ": 10076,
  "wai bu ": 10077,
  " dong": 10078,
  " yi dai ": 10079,
  "zhu zhang ": 10080,
  "fa xing de ": 10081,
  "ying ye ": 10082,
  "zuo biao wei ": 10083,
  "jiu long ": 10084,
  "zhu yao de ": 10085,
  "que de ": 10086,
  "c ": 10087,
  "er zhi ": 10088,
  "tian qi ": 10089,
  "tong pai ": 10090,
  "   bei jing ": 10091,
  "bing de ": 10092,
  "xi ju ": 10093,
  "liang xiang ": 10094,
  " chu xian ": 10095,
  "jia li fu ": 10096,
  "jing zhong ": 10097,
  "xin xing ": 10098,
  "liang zhi ": 10099,
  "tou lu ": 10100,
  "zu zhi de ": 10101,
  "fan zui ": 10102,
  "tai bei shi ": 10103,
  " zhong guo da lu ": 10104,
  " gong you ": 10105,
  "xin yang ": 10106,
  "jiang ling ": 10107,
  "lu ji ": 10108,
  " zai ci": 10109,
  "qu ji ": 10110,
  "mu qin": 10111,
  "duo ren ": 10112,
  " yue zhong ": 10113,
  "zhu chang ": 10114,
  "guan jian ": 10115,
  " di shi ": 10116,
  "ai ji ": 10117,
  "1985 nian ": 10118,
  "ru qin ": 10119,
  "jiu du ": 10120,
  "lun wen ": 10121,
  "   ben": 10122,
  "   ci wai ": 10123,
  "chuan shuo ": 10124,
  "cheng he ": 10125,
  "23 ": 10126,
  " can yu ": 10127,
  "mian shi ": 10128,
  "kong qi ": 10129,
  "16 ": 10130,
  "jing fang ": 10131,
  "ke yi zai ": 10132,
  " kao ": 10133,
  " bing du ": 10134,
  " zhong": 10135,
  "xian xing ": 10136,
  "an zhuang ": 10137,
  " shi shi jie ": 10138,
  "tong nian ": 10139,
  "zhu yi de ": 10140,
  " cha": 10141,
  " 2009": 10142,
  "xin jia po ": 10143,
  "fang yan ": 10144,
  "   ju qing ": 10145,
  "lian zai ": 10146,
  "mo si ke ": 10147,
  " shi ri ben ": 10148,
  "man de ": 10149,
  "cheng nian ": 10150,
  "kao jin ": 10151,
  " da fu ": 10152,
  " sha": 10153,
  " A ": 10154,
  "zhe wei ": 10155,
  " ren ming ": 10156,
  " duan ": 10157,
  " qi shi ": 10158,
  " zhi you": 10159,
  "zhang ai ": 10160,
  "gai shan ": 10161,
  "   1 ": 10162,
  "jie san ": 10163,
  " da duo ": 10164,
  "yun nan ": 10165,
  " yin qi ": 10166,
  " you ci ": 10167,
  "   de   ": 10168,
  "shang bu ": 10169,
  "yu yan ": 10170,
  " he zhong ": 10171,
  " chu sheng yu ": 10172,
  "guang dong sheng ": 10173,
  " 2008": 10174,
  " guo cheng zhong ": 10175,
  "tai du ": 10176,
  "gui zu ": 10177,
  "D ": 10178,
  "zhan ting ": 10179,
  " bi ru ": 10180,
  " 1949": 10181,
  " 2013 nian ": 10182,
  "bao zhang ": 10183,
  "si zhi ": 10184,
  "suo shi ": 10185,
  " chu": 10186,
  "   G": 10187,
  " di wu ": 10188,
  "gao da ": 10189,
  "chang jian de ": 10190,
  "quan zhang ": 10191,
  "T ": 10192,
  "hua yi ": 10193,
  "qian ren ": 10194,
  "jiang zai ": 10195,
  " qi xi ": 10196,
  "zuo zhe ": 10197,
  "hua zhi ": 10198,
  "fa hui ": 10199,
  "shuang fang ": 10200,
  "ming ren ": 10201,
  "zong shi ": 10202,
  "nong ye": 10203,
  " si chuan ": 10204,
  "suo shu ": 10205,
  "xiu zheng ": 10206,
  " zeng ": 10207,
  "fang yi ": 10208,
  "fu jin de ": 10209,
  "ying xiong ": 10210,
  "huo shan ": 10211,
  "mei zhou": 10212,
  "xun yang ": 10213,
  " te bie shi ": 10214,
  "   P": 10215,
  "qu yi hui ": 10216,
  "bao han": 10217,
  "tiao li ": 10218,
  " wei ci ": 10219,
  "shou xiang ": 10220,
  " gong kai ": 10221,
  " shi ji shang ": 10222,
  "wan gong ": 10223,
  " gong ye ": 10224,
  " wan yuan ": 10225,
  " jia ting ": 10226,
  "le yu ": 10227,
  "cuo wu ": 10228,
  "qu le ": 10229,
  "3 ge ": 10230,
  "gong hui ": 10231,
  " guo hui ": 10232,
  "yin qing ": 10233,
  "   di fang ": 10234,
  "chu yan ": 10235,
  "25 ": 10236,
  " yi xiao shi ": 10237,
  "bian ju ": 10238,
  " nian kai shi ": 10239,
  "sheng tai ": 10240,
  " shi de guo ": 10241,
  " qing": 10242,
  "bai ren ": 10243,
  "ge lun ": 10244,
  " xue xiao ": 10245,
  " 20": 10246,
  "gan bu ": 10247,
  "fa lan xi ": 10248,
  "1 li ": 10249,
  " neng ": 10250,
  "shu li ": 10251,
  "feng wei ": 10252,
  "zhou ci shi ": 10253,
  "yao qiu": 10254,
  "   2010": 10255,
  " ji bu ": 10256,
  "   2011": 10257,
  "dui you ": 10258,
  "xian jin ": 10259,
  " hen ": 10260,
  "   qi ta ": 10261,
  "lao de ": 10262,
  "qing hua ": 10263,
  "zui you ": 10264,
  " yue tuan ": 10265,
  "tao tai ": 10266,
  " ping jun ": 10267,
  "yin he ": 10268,
  "zhong dian ": 10269,
  "mei shu ": 10270,
  "ke de qi zhong yi zhong ": 10271,
  " ou yuan ": 10272,
  "yuan ze ": 10273,
  "lu ying ": 10274,
  "zhi de shi ": 10275,
  "gu fen": 10276,
  "dang di de ": 10277,
  " ji nian": 10278,
  "qing qiu ": 10279,
  " zhong hua ren min gong he guo zheng zhi ren wu ": 10280,
  "su ge lan ": 10281,
  "   2 ": 10282,
  "   di er ": 10283,
  "you xian ": 10284,
  "xia wei ": 10285,
  "huan cheng ": 10286,
  " he xin ": 10287,
  "huo xing ": 10288,
  "   E": 10289,
  "gai cheng ": 10290,
  "kai she ": 10291,
  " 2022": 10292,
  "zhuang ji ": 10293,
  "he xin ": 10294,
  "dang wei ": 10295,
  " bu jin ": 10296,
  "cheng ke ": 10297,
  " ye jiu shi ": 10298,
  "yuan zhong ": 10299,
  "cui hui ": 10300,
  "hou bei ": 10301,
  "pai ming di ": 10302,
  "   mei guo ": 10303,
  "bei wei ": 10304,
  "hen da ": 10305,
  "qiang diao ": 10306,
  "i ": 10307,
  "zheng wei ": 10308,
  "fa guan ": 10309,
  " wan jia ": 10310,
  " wu ke lan ": 10311,
  "xiang guan de ": 10312,
  " 2006 nian ": 10313,
  " mai ke ": 10314,
  "en sheng ": 10315,
  "ling ren ": 10316,
  " ge": 10317,
  "tian jing ": 10318,
  "can kao ": 10319,
  "r ": 10320,
  "neng zai ": 10321,
  " shi xi ": 10322,
  "   a ": 10323,
  "ya jun ": 10324,
  "ni ya zhou ": 10325,
  "dao bu ": 10326,
  "ya yi ": 10327,
  "shang hai shi ": 10328,
  "lu ke ": 10329,
  "suo chu de ": 10330,
  "hui bu ": 10331,
  " shi bei ": 10332,
  "xia qu ": 10333,
  "ti yu chang ": 10334,
  " ke er ": 10335,
  " meng": 10336,
  "suo zhi ": 10337,
  "xie er ": 10338,
  "zui gao de ": 10339,
  " yi fu ": 10340,
  " you zhong ": 10341,
  " po": 10342,
  "xiang wei ": 10343,
  "tu po ": 10344,
  "la ge ": 10345,
  "V ": 10346,
  "tai zhong ": 10347,
  " zhi liu ": 10348,
  "cheng ben ": 10349,
  "dang ju ": 10350,
  " wen hua ": 10351,
  " pu": 10352,
  " xiong": 10353,
  "chu zai ": 10354,
  "kun nan ": 10355,
  " F": 10356,
  "   ren ": 10357,
  " M": 10358,
  "jing zhi ": 10359,
  "xiu fu ": 10360,
  "ke xue yuan ": 10361,
  "dian che ": 10362,
  "S ": 10363,
  "   yin ": 10364,
  "zhan xian ": 10365,
  "ru qin": 10366,
  " sui zhu ": 10367,
  "y ": 10368,
  "ban bu ": 10369,
  "deng deng ": 10370,
  " xiang nian ": 10371,
  "duo wei ": 10372,
  "suo wei ": 10373,
  " yi zuo ": 10374,
  " xi er ": 10375,
  "a la bo ": 10376,
  "wang yuan ": 10377,
  "kai fa": 10378,
  "huo ban ": 10379,
  "hou wei ": 10380,
  "han yu ": 10381,
  " he lan ": 10382,
  " ge shou ": 10383,
  " 2012 nian ": 10384,
  "jia wei ": 10385,
  "bai de ": 10386,
  " xi ban ya ": 10387,
  " jiu shi ": 10388,
  "jun zhi ": 10389,
  " ku ": 10390,
  "le qi ": 10391,
  "chuan de ": 10392,
  "1980 nian ": 10393,
  "hai ping mian ": 10394,
  "huan de ": 10395,
  "tan de ": 10396,
  "wu zi ": 10397,
  "zhong guo da lu de ": 10398,
  "sheng you ": 10399,
  "xiu jian ": 10400,
  "tong meng ": 10401,
  "qing xing ": 10402,
  "gan ran zhe ": 10403,
  "xue yu ": 10404,
  "zui wei ": 10405,
  "13 ": 10406,
  " ji you ": 10407,
  "ci shi jie da zhan ": 10408,
  " 00 ": 10409,
  "shan xian ": 10410,
  " zu fu ": 10411,
  "zu yi ": 10412,
  "chi you ": 10413,
  " ri jun ": 10414,
  "hei se ": 10415,
  "tai yu ": 10416,
  "lai yue ": 10417,
  "zhao pian ": 10418,
  "zhen yu ": 10419,
  "ze zai ": 10420,
  "1986 nian ": 10421,
  "ya mei ": 10422,
  "cheng guo ": 10423,
  "le zai ": 10424,
  "yin li ": 10425,
  " bu xiang ": 10426,
  "shou gou ": 10427,
  "sheng chu ": 10428,
  "dang yuan ": 10429,
  "la ding ": 10430,
  "jing yi ": 10431,
  "zhang wei ": 10432,
  " ji fu ": 10433,
  " bu luo ": 10434,
  "li yu ": 10435,
  "qiang lie ": 10436,
  " tong shi gai di ": 10437,
  " liao ": 10438,
  "bei yu ": 10439,
  "lai shi ": 10440,
  "te xing ": 10441,
  "huang hou ": 10442,
  "yin ru ": 10443,
  "xiao yuan ": 10444,
  "gu dai ": 10445,
  "neng liang ": 10446,
  "gei le ": 10447,
  " guang dong ": 10448,
  "zhu zhi ": 10449,
  " xi lie": 10450,
  "man zu ": 10451,
  "bo shi xue wei ": 10452,
  " zhi yi ": 10453,
  "te ding ": 10454,
  " de ji chu ": 10455,
  " mei nian ": 10456,
  "ke you ": 10457,
  "xu li ya ": 10458,
  "zu qiu yun dong yuan ": 10459,
  "g ": 10460,
  "du jiao ": 10461,
  "nei lu sheng fen ": 10462,
  "xiang you ": 10463,
  "jing he ": 10464,
  " tie ": 10465,
  "shang chang ": 10466,
  " kan ": 10467,
  "cheng shi de ": 10468,
  "tong wei ": 10469,
  "jiu yi ": 10470,
  " a er ": 10471,
  " luo": 10472,
  "nong min ": 10473,
  " zhong zi ": 10474,
  "ge da ": 10475,
  "ke fu ": 10476,
  "hong zha": 10477,
  "ta wei ": 10478,
  "jiao zhi ": 10479,
  "mo si ": 10480,
  "qiang zhi ": 10481,
  "xia ling shi jian ": 10482,
  "xiang he ": 10483,
  "jing zai ": 10484,
  "gai shi ": 10485,
  " zhong da ": 10486,
  " bu di ": 10487,
  "xun zhang ": 10488,
  "ke neng shi ": 10489,
  "zhen ji ": 10490,
  "sui shi ": 10491,
  "chuang ban ": 10492,
  "bang de ": 10493,
  "fou ": 10494,
  "chui ": 10495,
  "beng ": 10496,
  "jiu hui ": 10497,
  " huo zhe ": 10498,
  "ding qi ": 10499,
  "da jiang ": 10500,
  "cheng bao ": 10501,
  "kuo zhan ": 10502,
  " W": 10503,
  "zao zai ": 10504,
  "zheng ce": 10505,
  " ta ceng dai biao ": 10506,
  "wu dao ": 10507,
  "ben shen ": 10508,
  "   to   ": 10509,
  "shang xia ": 10510,
  "   jie ": 10511,
  "ke zhi ": 10512,
  "min di ": 10513,
  "wo de ": 10514,
  " bing wei ": 10515,
  "   jian jie ": 10516,
  "duan shi ": 10517,
  "di qiu ": 10518,
  "le you ": 10519,
  "mu zhi ": 10520,
  "ju da ": 10521,
  "tan pan ": 10522,
  "wei yi yi ": 10523,
  "bian hao ": 10524,
  " 500": 10525,
  "jun he ": 10526,
  "1945 nian ": 10527,
  "ren yuan ": 10528,
  "lu xu ": 10529,
  "tian ti ": 10530,
  "fan zhi ": 10531,
  "xuan de ": 10532,
  " ke xi ": 10533,
  "sha hai ": 10534,
  " shi yi ge wei yu ": 10535,
  " di": 10536,
  "wan de ": 10537,
  "tang de ": 10538,
  "wu zheng zhuang ": 10539,
  "nan fang ": 10540,
  "liang ming ": 10541,
  "ni er ": 10542,
  " 1950": 10543,
  "gong zhu ": 10544,
  "meng gu": 10545,
  "   di fang zi liao ": 10546,
  " 2014 nian ": 10547,
  "hui guo ": 10548,
  "qu zhi ": 10549,
  "ri de ": 10550,
  "liang guo ": 10551,
  "da hui ": 10552,
  "fei er ": 10553,
  " ren qi ": 10554,
  "bei jing shi ": 10555,
  "wen du ": 10556,
  "jiang jin ": 10557,
  "chu zhi ": 10558,
  "bing yi ": 10559,
  "jiang zhi ": 10560,
  "gao zhi ": 10561,
  " nian wei ": 10562,
  "di yi wei ": 10563,
  " dun ": 10564,
  "zi zhong ": 10565,
  "yan yu ": 10566,
  "ya he ": 10567,
  " da duo shu ": 10568,
  " wa ": 10569,
  "ling yi ge ": 10570,
  "nuo fu ": 10571,
  "chu shou ": 10572,
  "yue nan ": 10573,
  "zi zai ": 10574,
  " song": 10575,
  "zhe xue ": 10576,
  "dui ci ": 10577,
  "mu ni ": 10578,
  " ruo ": 10579,
  "feng fu ": 10580,
  " yi wu ": 10581,
  " guo qu ": 10582,
  "yin pai ": 10583,
  "zhu wei ": 10584,
  "mi ya ": 10585,
  "gao xiong": 10586,
  "ao zhou ": 10587,
  "liang nian ": 10588,
  "rong he ": 10589,
  "1987 nian ": 10590,
  " shi ye ": 10591,
  "chang jian ": 10592,
  "xiao fang ": 10593,
  " fu qin ": 10594,
  "ping de ": 10595,
  "suo you de ": 10596,
  "shen du ": 10597,
  "pai hang ": 10598,
  "san jia ": 10599,
  "nv zhu ": 10600,
  " yu xi ": 10601,
  "na cui": 10602,
  " 0 ": 10603,
  "ti wei ": 10604,
  "xiu de ": 10605,
  " bu duan ": 10606,
  "you ji ": 10607,
  "guan li ju ": 10608,
  " hang ": 10609,
  " piao ": 10610,
  " bu er ": 10611,
  "hai ba wei ": 10612,
  "d   ": 10613,
  "dian he ": 10614,
  "zheng xie": 10615,
  " jia zu ": 10616,
  " gen ": 10617,
  "tong ming ": 10618,
  "zai li ": 10619,
  "chi ren ": 10620,
  " ji hou ": 10621,
  " mei yuan ": 10622,
  "dong shi zhang ": 10623,
  "xiang bi ": 10624,
  "fang mian": 10625,
  " shuo ": 10626,
  "zou xiang ": 10627,
  "han you ": 10628,
  "pei zhi ": 10629,
  "xi ya ": 10630,
  "suo cai yong": 10631,
  "ge er ": 10632,
  "mu qian": 10633,
  "1982 nian ": 10634,
  "liang da ": 10635,
  "shan feng ": 10636,
  "1983 nian ": 10637,
  "fang jian ": 10638,
  " ku": 10639,
  "gai zao ": 10640,
  " zhong gong zhong yang ": 10641,
  "xi bao ": 10642,
  "wen zhong ": 10643,
  "man di ": 10644,
  "   jing ": 10645,
  "dao wei ": 10646,
  "gan ran ": 10647,
  "jun zhong ": 10648,
  "zhou zhi ": 10649,
  "dai shi ": 10650,
  " dong nan ": 10651,
  "yong yi ": 10652,
  "mang ": 10653,
  " cn": 10654,
  "ding shi ": 10655,
  "jie ti ": 10656,
  "ba he ": 10657,
  "le zhe ": 10658,
  "zhan lan ": 10659,
  " wei yu gai ": 10660,
  "hu bu ": 10661,
  "jie li ": 10662,
  "hui yi yuan ": 10663,
  "huan xing ": 10664,
  "shang sheng ": 10665,
  "zhan lve": 10666,
  " hao xian ": 10667,
  "   gong ": 10668,
  "tai he ": 10669,
  " sui shi ": 10670,
  " wan li ": 10671,
  "gong li de ": 10672,
  "hu wei ": 10673,
  "diao kuai": 10674,
  "san wei ": 10675,
  "shou ren ": 10676,
  " wei UTC ": 10677,
  " de yi shu ": 10678,
  "mian dui ": 10679,
  "lian he hui ": 10680,
  "er tong ": 10681,
  "sheng di ": 10682,
  " cn ": 10683,
  " kou ": 10684,
  "yan hai ": 10685,
  "qin wang ": 10686,
  "zhi shi qi ": 10687,
  "xiong ya li ": 10688,
  "zhu he ": 10689,
  "chong ji ": 10690,
  "kai shi shi ": 10691,
  "diao kuai yi xiao shi ": 10692,
  "   zheng ": 10693,
  " ji UTC ": 10694,
  "xia ling ": 10695,
  "she you xia ling shi jian ": 10696,
  " de shi qu wei UTC ": 10697,
  " er gai di suo cai yong": 10698,
  " tong shi gai di she you xia ling shi jian ": 10699,
  " er gai di suo cai yong de shi qu wei UTC ": 10700,
  " rong ": 10701,
  "   jiao tong ": 10702,
  "jie zhong ": 10703,
  "san da ": 10704,
  "nan hai ": 10705,
  "pai qian ": 10706,
  "ai er lan ": 10707,
  "jun ren ": 10708,
  "zhang yue ": 10709,
  "huan zhe ": 10710,
  " qi fu ": 10711,
  "che xiang ": 10712,
  " ling you ": 10713,
  "cheng you ": 10714,
  " er qi ": 10715,
  "I ": 10716,
  "xiao fei ": 10717,
  "zong tong": 10718,
  "mi shu zhang ": 10719,
  "4 ge ": 10720,
  "wen he ": 10721,
  "dang ji ": 10722,
  "kou de ": 10723,
  "guo hui ": 10724,
  "bo lin ": 10725,
  "gao yu hai ping mian ": 10726,
  "   ying ": 10727,
  "chu you ": 10728,
  " da lu ": 10729,
  "bi ye hou ": 10730,
  "zhou ji ": 10731,
  "lun shi ": 10732,
  "ceng wei ": 10733,
  " yue yi ": 10734,
  "jian li le ": 10735,
  "da xi yang ": 10736,
  " er bu shi ": 10737,
  "da yi ": 10738,
  "shu ren ": 10739,
  "chang suo ": 10740,
  "chuang zao ": 10741,
  "qu de mian ji wei ": 10742,
  "hai ba wei gao yu hai ping mian ": 10743,
  "ge ming": 10744,
  "ju le ": 10745,
  "gai ming wei ": 10746,
  "zhu yi zhe ": 10747,
  " men ": 10748,
  "xiang xin ": 10749,
  "zhui su": 10750,
  "ru de ": 10751,
  "shou xian ": 10752,
  "bo lan": 10753,
  "tan xian ": 10754,
  "lao shi ": 10755,
  "é ": 10756,
  " qi zhong bao kuo ": 10757,
  "   yan ": 10758,
  "cai de ": 10759,
  "qun zhong ": 10760,
  "jin xing de ": 10761,
  "ju yuan ": 10762,
  "jing du ": 10763,
  "lie ru ": 10764,
  " huo dong ": 10765,
  " yi si lan ": 10766,
  " shuang": 10767,
  " zi you ": 10768,
  "fa zhi ": 10769,
  "guan he ": 10770,
  "chao yue ": 10771,
  " yu bei ": 10772,
  "guan cha": 10773,
  " 2015 nian ": 10774,
  "zhang he ": 10775,
  "ban ben": 10776,
  " 2025": 10777,
  "gong wei ": 10778,
  "quan xian ": 10779,
  "bu shi qu ": 10780,
  " shan xi ": 10781,
  "dou zai ": 10782,
  "tiao jie ": 10783,
  "zhang fu ": 10784,
  "tu jing ": 10785,
  "cun luo ": 10786,
  "yi shi de ": 10787,
  " yi sheng ": 10788,
  "zhong yao": 10789,
  "gu ding ": 10790,
  "fei er de ": 10791,
  "kai shi zai ": 10792,
  " 10 ": 10793,
  " mu qian": 10794,
  " shen": 10795,
  " 24": 10796,
  "she xian ": 10797,
  "suo chu de hai ba wei gao yu hai ping mian ": 10798,
  "zi shen ": 10799,
  "biao ben ": 10800,
  "shang di ": 10801,
  "te ji ": 10802,
  "da bu fen": 10803,
  "xiang tong de ": 10804,
  "chang jing ": 10805,
  "   an ": 10806,
  " lv": 10807,
  "li de ": 10808,
  "suo zai di ": 10809,
  "duan shi jian ": 10810,
  "xi wang ": 10811,
  "ti xing ": 10812,
  "yong le ": 10813,
  "zhan yu ": 10814,
  "shen hua ": 10815,
  " er de ": 10816,
  " luo ma ": 10817,
  "lai si ": 10818,
  "hao shi ": 10819,
  " guo nei ": 10820,
  "luo fa ": 10821,
  "tui xiu ": 10822,
  "ge yu ": 10823,
  "se fu ": 10824,
  " zai ta ": 10825,
  "xi la ": 10826,
  "yin xiang ": 10827,
  "jue dui ": 10828,
  " de ji lu ": 10829,
  "kao gu ": 10830,
  "qu zhu ": 10831,
  "jing gao ": 10832,
  "zu cheng": 10833,
  "ye yi ": 10834,
  "qian ding ": 10835,
  "   in   ": 10836,
  " he dao ": 10837,
  "   ma ": 10838,
  "bian yi ": 10839,
  "xuan zhong ": 10840,
  "zu qiu dui ": 10841,
  " sa": 10842,
  " lun ": 10843,
  "yan ren ": 10844,
  " li cheng ": 10845,
  " you zai ": 10846,
  " zhong dian ": 10847,
  "yan he ": 10848,
  "ben ren ": 10849,
  "   for": 10850,
  "   di yi ": 10851,
  "xiao yu ": 10852,
  "san ren ": 10853,
  "hu xiang ": 10854,
  "kong xi ": 10855,
  " nian shi jie ": 10856,
  " zhi shu ": 10857,
  "di qu de ": 10858,
  " xiang guan ": 10859,
  " lu wa": 10860,
  "p ": 10861,
  "cai neng ": 10862,
  " na me": 10863,
  " 2023": 10864,
  "   2008": 10865,
  "guan yi ": 10866,
  " qi xuan ": 10867,
  "bi xu": 10868,
  " 2016 nian ": 10869,
  "gong ying ": 10870,
  "qing jie ": 10871,
  "can xuan ": 10872,
  " shi bu ": 10873,
  "di xia ": 10874,
  " mu": 10875,
  " shi jia ": 10876,
  "jian kang ": 10877,
  " hei": 10878,
  "shang ji ": 10879,
  "quan yi ": 10880,
  "zi xun": 10881,
  "yan zhong de ": 10882,
  "hai yang ": 10883,
  " shou dao ": 10884,
  "zai yi qi ": 10885,
  "fa yi ": 10886,
  "dai wei ": 10887,
  "deng zhi ": 10888,
  "tu ji ": 10889,
  " ma lai": 10890,
  " 2007": 10891,
  "fa sheng zai ": 10892,
  "zhen qu de mian ji wei ": 10893,
  " gong bu ": 10894,
  " bei cheng wei ": 10895,
  "na xie ": 10896,
  " chao xian ": 10897,
  "   xing ": 10898,
  "zhong yi yuan ": 10899,
  "yin yu ": 10900,
  "zhou li ": 10901,
  "kai de ": 10902,
  "1978 nian ": 10903,
  "hua jia ": 10904,
  "yan ji ": 10905,
  "she zai ": 10906,
  "ru wei ": 10907,
  "fei yan ": 10908,
  "   2": 10909,
  "zi chan ": 10910,
  " kan": 10911,
  " dian shi ": 10912,
  "shu bu ": 10913,
  "ding li ": 10914,
  "shuai ling ": 10915,
  " shou ci ": 10916,
  " guang": 10917,
  "qian xi ": 10918,
  " wei chi ": 10919,
  "he liu ": 10920,
  " lian he ": 10921,
  "bei si ": 10922,
  "she ji shi ": 10923,
  " dao lu ": 10924,
  "gui mo": 10925,
  "nei di ": 10926,
  "yan se ": 10927,
  "che chang ": 10928,
  "jue sai": 10929,
  " yuan ming ": 10930,
  " shi cheng ": 10931,
  "ping gu ": 10932,
  "ka la ": 10933,
  " 2 yue ": 10934,
  "bao luo ": 10935,
  "ti gong le ": 10936,
  "zheng bian ": 10937,
  "zu qiu ju le bu ": 10938,
  " shi er ": 10939,
  "mian dian ": 10940,
  " zui gao ": 10941,
  "zhu zhong ": 10942,
  "tu shu ": 10943,
  "hua zai ": 10944,
  " yi dong ": 10945,
  "liu xia ": 10946,
  " shao": 10947,
  "   C": 10948,
  "ti he ": 10949,
  " shi ta ": 10950,
  "   ran": 10951,
  "yang xing ": 10952,
  "tui jian ": 10953,
  " er fei ": 10954,
  "shu zai ": 10955,
  "ping guo ": 10956,
  "duo nian ": 10957,
  "wu guan ": 10958,
  "bao cun ": 10959,
  "zui duo ": 10960,
  "chuan tong de ": 10961,
  " ju": 10962,
  "cheng zai ": 10963,
  "bing yu ": 10964,
  " zhong xing ": 10965,
  "bei fang ": 10966,
  "dui ying ": 10967,
  "wan zheng ": 10968,
  "zhuan men ": 10969,
  "zao shang ": 10970,
  "geng xin ": 10971,
  "fang ji ": 10972,
  "lang zhong ": 10973,
  "ju feng ": 10974,
  "ping lun": 10975,
  "qian yue ": 10976,
  "tian hou ": 10977,
  "ke neng hui ": 10978,
  "   mei ": 10979,
  "chu bu ": 10980,
  "xie shi ": 10981,
  "yang ji ": 10982,
  "di wu ": 10983,
  "fa ming ": 10984,
  "shang xian ": 10985,
  "dai ling ": 10986,
  "pian zhong ": 10987,
  " za zhi ": 10988,
  "miao hui ": 10989,
  " gong gong ": 10990,
  "bian jing ": 10991,
  "ceng de ": 10992,
  "zan zhu ": 10993,
  " di qiu ": 10994,
  "jiu yuan ": 10995,
  "b ": 10996,
  "zhong guo da lu ": 10997,
  " 18": 10998,
  " 2019 nian ": 10999,
  "qing ren ": 11000,
  " da bu fen": 11001,
  " zu zhi ": 11002,
  "yin yue": 11003,
  "ba si ": 11004,
  "jue yu ": 11005,
  "zui zao": 11006,
  "liao de ": 11007,
  " nian dao ": 11008,
  "mu si lin ": 11009,
  " qi che ": 11010,
  "tong xun ": 11011,
  " fu ze guan xia ": 11012,
  " jue ding ": 11013,
  "xue zhong ": 11014,
  "shun li ": 11015,
  " zhi wai ": 11016,
  "guan ce ": 11017,
  "xie zuo ": 11018,
  " sang": 11019,
  "li zi ": 11020,
  "jin ri ": 11021,
  "chang shang ": 11022,
  "luo shan ji ": 11023,
  " nuo ": 11024,
  "xing zai ": 11025,
  "shuang da ": 11026,
  "hui gui ": 11027,
  "le de ": 11028,
  "san bu ": 11029,
  "feng de ": 11030,
  " ji xu": 11031,
  "ba da ": 11032,
  "qu jian ": 11033,
  " shan dong ": 11034,
  "bei ren ming wei ": 11035,
  "3 nian ": 11036,
  "zhou he ": 11037,
  "da lou ": 11038,
  "ju ban": 11039,
  " R": 11040,
  "   1": 11041,
  "   dui ": 11042,
  "gai zhi wei ": 11043,
  "luo li da ": 11044,
  "ju ben ": 11045,
  "shou quan ": 11046,
  " 2017 nian ": 11047,
  "14 ": 11048,
  "jiao du ": 11049,
  " dan yi ": 11050,
  " de shi yong ": 11051,
  "pi zhun": 11052,
  "ju zai ": 11053,
  "zhang zhuan ji ": 11054,
  "lin si ": 11055,
  "ren lei ": 11056,
  "tian zhu ": 11057,
  " yan jiu ": 11058,
  "   3": 11059,
  "   dong ": 11060,
  "gao shi ": 11061,
  "fu xing ": 11062,
  "xiao ying ": 11063,
  " dao yan ": 11064,
  " 2018 nian ": 11065,
  "xia zai ": 11066,
  "huai yi ": 11067,
  "zhang zi ": 11068,
  "hu lian ": 11069,
  "zao cheng de ": 11070,
  " shi jian zhu ": 11071,
  "dui zhong ": 11072,
  "jiang yi ": 11073,
  " li liang ": 11074,
  " di di ": 11075,
  " tang": 11076,
  "ao er ": 11077,
  "han de ": 11078,
  "zhan mu si ": 11079,
  "lu zhan ": 11080,
  "ai li ": 11081,
  "   dan ": 11082,
  "ye ji ": 11083,
  "shou bo ": 11084,
  "zhou yi ": 11085,
  "yun yong ": 11086,
  "guo nei ": 11087,
  " pu tao ": 11088,
  " chun ": 11089,
  "   nan ": 11090,
  "   ge ren ": 11091,
  "bian zhi ": 11092,
  "1958 nian ": 11093,
  " you zhu ": 11094,
  " bi sai ": 11095,
  " ci nian ": 11096,
  "2 ge ": 11097,
  "guan ji ": 11098,
  "can yi ": 11099,
  "kao shi ": 11100,
  "1972 nian ": 11101,
  " gong neng ": 11102,
  " wei yu zhong guo ": 11103,
  "yun de ": 11104,
  " bing bei ": 11105,
  "mian fei ": 11106,
  "xing mu ": 11107,
  " xin wen ": 11108,
  " ying wen ": 11109,
  "   2009": 11110,
  "dao zai ": 11111,
  "min zu": 11112,
  " ai er ": 11113,
  "ban ji ": 11114,
  "she jiao ": 11115,
  "lei si de ": 11116,
  " gai bian ": 11117,
  "yao shi ": 11118,
  "ding ji ": 11119,
  "1979 nian ": 11120,
  "qiang du ": 11121,
  " ming zhi ": 11122,
  "ba er ": 11123,
  "su li ": 11124,
  " di ya ": 11125,
  "xin guan ": 11126,
  " shi yi bu ": 11127,
  " wei yi ": 11128,
  " de hua ": 11129,
  " yi gong ": 11130,
  "que shi ": 11131,
  "xue ke ": 11132,
  "h ": 11133,
  "tou xian ": 11134,
  "cu ": 11135,
  " zhi bu ": 11136,
  "ju ban de ": 11137,
  "xing zheng qu ": 11138,
  " ce ": 11139,
  "chu zhang ": 11140,
  "   zeng zu ": 11141,
  "jiao cha ": 11142,
  "mi ni ": 11143,
  "na xia ": 11144,
  " hou zhe ": 11145,
  "   a   ": 11146,
  "zheng ji ": 11147,
  " ren wei shi ": 11148,
  "tai hou ": 11149,
  " shi yi ke ": 11150,
  "xin jia po": 11151,
  "zong yi ": 11152,
  "gan yu ": 11153,
  " wei bei ": 11154,
  "fa xian de ": 11155,
  "tai kong ": 11156,
  "xue li ": 11157,
  "luo yu ": 11158,
  "shao de ": 11159,
  "di qi ": 11160,
  " ta men zai ": 11161,
  "fa li ": 11162,
  "ma shi ": 11163,
  "yang xian ": 11164,
  "ti chu de ": 11165,
  "neng yuan ": 11166,
  " 2006": 11167,
  "   hou ": 11168,
  "bai yu ": 11169,
  "xi nan bu ": 11170,
  "fu shu ": 11171,
  " shi shi yong ": 11172,
  "te qu ": 11173,
  " wei fu qi yu gang": 11174,
  "zong ren kou ": 11175,
  "fu zhu ": 11176,
  " xi yin ": 11177,
  "qing zhu ": 11178,
  " xu yao ": 11179,
  "xue ji ": 11180,
  "mu yu ": 11181,
  " liang ge ": 11182,
  "jiang li ": 11183,
  "pin de ": 11184,
  "tong xin ": 11185,
  " xiang mu ": 11186,
  " ma li ": 11187,
  " qi bing ": 11188,
  " da jiang ": 11189,
  " shui": 11190,
  " mao": 11191,
  " 2004 nian ": 11192,
  "lie shi ": 11193,
  "jin rong": 11194,
  "shang wang ": 11195,
  "a gen ": 11196,
  "sui ran": 11197,
  "wu zheng zhuang gan ran zhe ": 11198,
  "xing shi de ": 11199,
  " yi qian ": 11200,
  "mei jun ": 11201,
  "zhuan xie ": 11202,
  " 2021 nian ": 11203,
  "chuan mei ": 11204,
  "xian zhi xian ": 11205,
  " bu dao ": 11206,
  "xiang fa ": 11207,
  "le zhong ": 11208,
  "zhe he ": 11209,
  "jiao huan ": 11210,
  "xun lian": 11211,
  " bang ": 11212,
  " zhuan ji ": 11213,
  "dian wei ": 11214,
  "tou de ": 11215,
  " di zai ": 11216,
  "can ting ": 11217,
  "mi si ": 11218,
  "luo shi ": 11219,
  "mian yi ": 11220,
  "zu jie ": 11221,
  " de yi yuan ": 11222,
  "P ": 11223,
  "xian li ": 11224,
  "ba de ": 11225,
  " you liang ": 11226,
  " chu ban ": 11227,
  " 7 ": 11228,
  "   F": 11229,
  "che di ": 11230,
  "luo cheng ": 11231,
  "yuan xian ": 11232,
  "   B": 11233,
  "min yi ": 11234,
  "30 ": 11235,
  "xin jian ": 11236,
  "huo che ": 11237,
  "huang se ": 11238,
  " peng": 11239,
  " 2020 nian ": 11240,
  " B ": 11241,
  "xuan ju": 11242,
  " zhong shan ": 11243,
  "huo bi ": 11244,
  "duan pian ": 11245,
  "   shi yong ": 11246,
  " sai": 11247,
  "te dian ": 11248,
  "ou xiang ": 11249,
  "zhou ren ": 11250,
  "si da ": 11251,
  "bu de cun zhuang ": 11252,
  "chuan qi ": 11253,
  "sui zhe ": 11254,
  "zha dan ": 11255,
  "zheng qu ": 11256,
  "gao du wei ": 11257,
  "lin jin ": 11258,
  "qi lai ": 11259,
  "fa sheng": 11260,
  "lian luo ": 11261,
  " cai yong ": 11262,
  "   ba ": 11263,
  "du guo ": 11264,
  "xin jiang ": 11265,
  "chi xu": 11266,
  " tao": 11267,
  "zhang zhi ": 11268,
  "lai yu ": 11269,
  "cheng le ": 11270,
  " huo shi ": 11271,
  "kai gong ": 11272,
  "Windows   ": 11273,
  "ge guo ": 11274,
  " cun ": 11275,
  "xi you ": 11276,
  "hui wei ": 11277,
  "shen yi ": 11278,
  "1960 nian ": 11279,
  "guo min dang ": 11280,
  "xi bei bu ": 11281,
  "ling chen ": 11282,
  " shuang fang ": 11283,
  "dui ji ": 11284,
  "qi zhong ": 11285,
  " he pan ": 11286,
  "cheng jiu ": 11287,
  " dan yin ": 11288,
  "gong yuan qian ": 11289,
  "xian zhong ": 11290,
  "dang nian ": 11291,
  "shan mai ": 11292,
  " ta he ": 11293,
  "jing nei gong you ": 11294,
  "zui di ": 11295,
  " da jia ": 11296,
  "o ": 11297,
  " ge lei ": 11298,
  " tong yi ": 11299,
  " zhao he ": 11300,
  " lei": 11301,
  "ta yi ": 11302,
  "1980 nian dai ": 11303,
  "xin jie ": 11304,
  "lai yin ": 11305,
  "san ming ": 11306,
  "xiao li yu ": 11307,
  "mu er ": 11308,
  "1976 nian ": 11309,
  "jiang shu ": 11310,
  "bing du ": 11311,
  " ge er ": 11312,
  "   dao ": 11313,
  "cheng zhi wei ": 11314,
  "wu di ": 11315,
  "sheng dao ": 11316,
  "gu la ": 11317,
  "huo zai ": 11318,
  "san zhong ": 11319,
  " gong qing ": 11320,
  "lie chu ": 11321,
  " ling wai": 11322,
  "bi li shi ": 11323,
  "da xiao ": 11324,
  "fa ting ": 11325,
  "ye fu ": 11326,
  "chu ban she ": 11327,
  "yang gong ": 11328,
  "bai ke ": 11329,
  "cheng qu ": 11330,
  " er gai di de ": 11331,
  "jin yu ": 11332,
  "mei guo": 11333,
  "ci di ": 11334,
  "1920 nian ": 11335,
  "qi hou ": 11336,
  "huo sheng ": 11337,
  "   dan": 11338,
  "   Re": 11339,
  "dao you ": 11340,
  "gang kou ": 11341,
  " ruan": 11342,
  "chai ": 11343,
  "jian du ": 11344,
  "   gai yao ": 11345,
  " li fu ": 11346,
  "hen kuai ": 11347,
  "xiu dao ": 11348,
  "shu chu ": 11349,
  " jin shi ": 11350,
  "dui di ": 11351,
  "hai zai ": 11352,
  " he liu ": 11353,
  "qian jin ": 11354,
  "zui zao ": 11355,
  "ao de ": 11356,
  "ya ren ": 11357,
  "pin zhong ": 11358,
  "1990 nian dai ": 11359,
  " yi bian ": 11360,
  "shou bu ": 11361,
  "shen yu ": 11362,
  "que bao ": 11363,
  " he fu ": 11364,
  " jia la ": 11365,
  " xian dai ": 11366,
  "jiu zai ": 11367,
  "jing guan ": 11368,
  "ti dai ": 11369,
  "ma tou ": 11370,
  "sen lin": 11371,
  "an li ": 11372,
  "   tian ": 11373,
  "wang wang ": 11374,
  " de shi ji ": 11375,
  "   O": 11376,
  "   shou ": 11377,
  " xian wei ": 11378,
  "kuo jian ": 11379,
  "jiao tang": 11380,
  " ta ren wei ": 11381,
  "dian shi jie ": 11382,
  "qun ti ": 11383,
  " yue dui ": 11384,
  " xi tong de ": 11385,
  "bian yuan ": 11386,
  " 2002 nian ": 11387,
  "cong wei ": 11388,
  "jie duan": 11389,
  "xiang ying ": 11390,
  "qu fen ": 11391,
  "qian ting ": 11392,
  " de yi xie ": 11393,
  "se lie": 11394,
  "   jia ting ": 11395,
  "wang wei ": 11396,
  "yun dong de ": 11397,
  "su lian": 11398,
  " ta you ": 11399,
  " zui chu ": 11400,
  " li li ": 11401,
  " he qi ta ": 11402,
  " qi he ": 11403,
  "ping yuan ": 11404,
  "   wang ": 11405,
  "chang ji ": 11406,
  "han zi ": 11407,
  "wu shu ": 11408,
  "le yuan ": 11409,
  " zhong guo ren min jie fang jun ": 11410,
  " bao": 11411,
  " sun ": 11412,
  "17 ": 11413,
  "bing fei ": 11414,
  "xing you ": 11415,
  "19 ": 11416,
  "yong zai ": 11417,
  "ma ke si ": 11418,
  " nian qing ": 11419,
  "wu zhuang": 11420,
  "bei da ": 11421,
  "ye ke yi ": 11422,
  "fen pei ": 11423,
  "sai er wei ": 11424,
  "da shi guan ": 11425,
  "tie lu che zhan ": 11426,
  "ri ben de ": 11427,
  "zan ting ": 11428,
  "e guo ": 11429,
  "zan shi ": 11430,
  " bu si ": 11431,
  "fa ji ": 11432,
  "dui he ": 11433,
  "la wei ": 11434,
  "cheng wei yi ": 11435,
  "geng duo de ": 11436,
  "   liu ": 11437,
  "duo er ": 11438,
  "shang zhen ": 11439,
  "ya mu ": 11440,
  " 1970": 11441,
  "sui ran ": 11442,
  "tan he ": 11443,
  "dui fang ": 11444,
  "deng chang ": 11445,
  "a la bo": 11446,
  "xuan shi ": 11447,
  "ye sheng ya ": 11448,
  "can shu ": 11449,
  "tui guang ": 11450,
  "le yi xie ": 11451,
  "xu ji ": 11452,
  "gui fan ": 11453,
  "bang qiu ": 11454,
  "dou bei ": 11455,
  "ye sheng ": 11456,
  "qian shen ": 11457,
  "ze dong ": 11458,
  "bing zai ": 11459,
  "yun he ": 11460,
  "lan yu ": 11461,
  "si lan ": 11462,
  " jie shu ": 11463,
  "zhang ji ": 11464,
  "ye jian ": 11465,
  "mai de ": 11466,
  "fa dong ji ": 11467,
  "yong ji ": 11468,
  "wen ji ": 11469,
  "bei jing": 11470,
  "dong xian ": 11471,
  "chang du ": 11472,
  "ban yan ": 11473,
  "ban jiang ": 11474,
  "kao lv": 11475,
  "bu de bu ": 11476,
  " 30 ": 11477,
  "nong cun": 11478,
  "xing li ": 11479,
  "zhe zhi ": 11480,
  "huang jin ": 11481,
  "pei bei ": 11482,
  "zhong bu ": 11483,
  "chu zi ": 11484,
  "lv se ": 11485,
  "shan di ": 11486,
  "da di ": 11487,
  "fu hao ": 11488,
  "chang bi sai ": 11489,
  "she ding ": 11490,
  "tu xiang ": 11491,
  "nan si ": 11492,
  "qiu shi ": 11493,
  " zai you ": 11494,
  "deng yu ": 11495,
  " zhong jian ": 11496,
  " zi yuan ": 11497,
  "an ji ": 11498,
  "   cheng ": 11499,
  "du ji ": 11500,
  "50 ": 11501,
  " qi dong ": 11502,
  "xie shang ": 11503,
  "bei li ": 11504,
  "chen ji ": 11505,
  "shuai ling": 11506,
  "fu za": 11507,
  "ri bao ": 11508,
  "le di ": 11509,
  "1956 nian ": 11510,
  " guo gong ": 11511,
  " xi an ": 11512,
  "yan jing ": 11513,
  "fen zhi yi ": 11514,
  "jun bu ": 11515,
  " you tai ": 11516,
  "jin qu ": 11517,
  " lai": 11518,
  "ceng shi ": 11519,
  "wei yuan ": 11520,
  "xiao jie ": 11521,
  "chuang zuo de ": 11522,
  " de ji hua ": 11523,
  " H": 11524,
  "zhuan wei ": 11525,
  "zhu dao ": 11526,
  "zheng shu ": 11527,
  "hao ping ": 11528,
  " shi shi ji ": 11529,
  "1964 nian ": 11530,
  "xian ru ": 11531,
  "fan ying": 11532,
  "qu zhong ": 11533,
  "zhe yang ": 11534,
  "lian sai": 11535,
  " dan qu ": 11536,
  "   zhang ": 11537,
  "ze yu ": 11538,
  "section   ": 11539,
  " yi ke ": 11540,
  "te la ": 11541,
  "   of   the   ": 11542,
  " jian li ": 11543,
  " zhi chi": 11544,
  "xing dong": 11545,
  "xian zhu ": 11546,
  "qing chao ": 11547,
  " shi shi shang ": 11548,
  " lian jie ": 11549,
  " pian ": 11550,
  "wu you ": 11551,
  "chai you ji ": 11552,
[...]
