{
  "!": 0,
  "\"": 1,
  "#": 2,
  "$": 3,
  "%": 4,
  "&": 5,
  "'": 6,
  "(": 7,
  ")": 8,
  "*": 9,
  "+": 10,
  ",": 11,
  "-": 12,
  ".": 13,
  "/": 14,
  "0": 15,
  "1": 16,
  "2": 17,
  "3": 18,
  "4": 19,
  "5": 20,
  "6": 21,
  "7": 22,
  "8": 23,
  "9": 24,
  ":": 25,
  ";": 26,
  "=": 27,
  "?": 28,
  "@": 29,
  "A": 30,
  "B": 31,
  "C": 32,
  "D": 33,
  "E": 34,
  "F": 35,
  "G": 36,
  "H": 37,
  "I": 38,
  "J": 39,
  "K": 40,
  "L": 41,
  "M": 42,
  "N": 43,
  "O": 44,
  "P": 45,
  "Q": 46,
  "R": 47,
  "S": 48,
  "T": 49,
  "U": 50,
  "V": 51,
  "W": 52,
  "X": 53,
  "Y": 54,
  "Z": 55,
  "[": 56,
  "\\": 57,
  "]": 58,
  "^": 59,
  "_": 60,
  "`": 61,
  "a": 62,
  "b": 63,
  "c": 64,
  "d": 65,
  "e": 66,
  "f": 67,
  "g": 68,
  "h": 69,
  "i": 70,
  "j": 71,
  "k": 72,
  "l": 73,
  "m": 74,
  "n": 75,
  "o": 76,
  "p": 77,
  "q": 78,
  "r": 79,
  "s": 80,
  "t": 81,
  "u": 82,
  "v": 83,
  "w": 84,
  "x": 85,
  "y": 86,
  "z": 87,
  "|": 88,
  "~": 89,
  "\n": 162,
  " ": 163,
  "": 164,
  "ng": 199,
  "h�": 200,
  "à": 201,
  "ā": 202,
  "ì": 203,
  "á": 204,
  "ī": 205,
  "è": 206,
  "ǎ": 207,
  "  ": 208,
  "é": 209,
  "í": 210,
  "sh�": 211,
  "ù": 212,
  "án": 213,
  "zh": 214,
  "ǐ": 215,
  "ō": 216,
  "ji": 217,
  "de": 218,
  "àn": 219,
  "ē": 220,
  "zh�": 221,
  "sh": 222,
  "ě": 223,
  "ó": 224,
  "ǔ": 225,
  "xi": 226,
  "ò": 227,
  "ú": 228,
  "ān": 229,
  "   ": 230,
  "ài": 231,
  "ū": 232,
  "ōng": 233,
  "ǒ": 234,
  "shì": 236,
  "hu": 237,
  "èi": 238,
  "gu": 239,
  "ián": 240,
  "hé": 241,
  "ào": 242,
  "āng": 243,
  "íng": 244,
  "yu": 245,
  "ǎn": 246,
  "ch": 247,
  "nián": 248,
  "yī": 249,
  "ǎng": 250,
  "én": 251,
  "ǒu": 252,
  "ìng": 253,
  "wèi": 254,
  "ǎo": 255,
  "zài": 256,
  "、": 257,
  "jī": 258,
  "ēng": 259,
  "zhōng": 260,
  "xī": 261,
  "bù": 262,
  "jì": 263,
  "àng": 264,
  "li": 265,
  "zhè": 266,
  "shí": 267,
  "dì": 268,
  "guó": 269,
  "yú": 270,
  "rén": 271,
  "òng": 272,
  "ch�": 273,
  "āo": 274,
  "du": 275,
  "ché": 276,
  "yǐ": 277,
  "lì": 278,
  "áng": 279,
  "yì": 280,
  "uò": 281,
  "ái": 282,
  "zhì": 283,
  "chéng": 284,
  "éi": 285,
  "xu": 286,
  "gōng": 287,
  "jí": 288,
  "ěi": 290,
  "iàn": 291,
  "ēn": 292,
  "óng": 293,
  "yuè": 294,
  "yǒu": 295,
  "yuán": 296,
  "dà": 297,
  "qi": 298,
  "ōu": 299,
  "lǐ": 300,
  "20": 301,
  "óu": 302,
  "āi": 303,
  "xiàn": 304,
  "jiā": 305,
  "sī": 306,
  "ūn": 307,
  "xíng": 308,
  "yǔ": 309,
  "èn": 310,
  "ǒng": 311,
  "ín": 312,
  "tā": 313,
  "rì": 314,
  "zhī": 315,
  "hòu": 316,
  "ǎi": 317,
  "gè": 318,
  "zhà": 319,
  "éng": 320,
  "le": 321,
  "wéi": 322,
  "huì": 323,
  "dào": 324,
  "19": 325,
  "bi": 326,
  "shà": 327,
  "qī": 328,
  "qí": 329,
  "shè": 330,
  "su": 331,
  "zhèng": 332,
  "míng": 333,
  "jiàn": 334,
  "xué": 335,
  "chū": 336,
  "yù": 337,
  "ěng": 338,
  "zuò": 339,
  "shēng": 340,
  "duì": 341,
  "yóu": 342,
  "qū": 343,
  "shàng": 344,
  "ěn": 345,
  "dé": 346,
  "lù": 347,
  "bèi": 348,
  "chá": 349,
  "ti": 350,
  "shǐ": 351,
  "zhàn": 352,
  "zhǔ": 353,
  "ēi": 354,
  "qu": 355,
  "jù": 356,
  "xīn": 357,
  "jūn": 358,
  "zhu": 359,
  "ěr": 360,
  "áo": 361,
  "shù": 362,
  "uì": 363,
  "rèn": 364,
  "fā": 365,
  "wù": 366,
  "bìng": 367,
  "kè": 368,
  "ér": 369,
  "dài": 370,
  "yí": 371,
  "jìn": 372,
  "zì": 373,
  "yīn": 374,
  "fù": 375,
  "fāng": 376,
  "jīng": 377,
  "nán": 378,
  "huà": 379,
  "xì": 380,
  "zhōu": 381,
  "píng": 382,
  "òu": 383,
  "xià": 384,
  "lái": 385,
  "yòng": 386,
  "shu": 387,
  "guān": 388,
  "tóng": 389,
  "》": 390,
  "《": 391,
  "fǎ": 392,
  "zhù": 393,
  "měi": 394,
  "há": 395,
  "·": 396,
  "jiān": 397,
  "jǐ": 398,
  "huò": 399,
  "dù": 400,
  "chu": 401,
  "běn": 402,
  "xiāng": 403,
  "zhí": 404,
  "dòng": 405,
  "xiàng": 406,
  "mín": 407,
  "jiāng": 408,
  "fēn": 409,
  "shǒu": 410,
  "quán": 411,
  "wén": 412,
  "yán": 413,
  "hà": 414,
  "suǒ": 415,
  "jiào": 416,
  "qián": 417,
  "diàn": 418,
  "tè": 419,
  "di": 420,
  "duō": 421,
  "ún": 422,
  "zuì": 423,
  "kāi": 424,
  "tu": 425,
  "jié": 426,
  "lián": 427,
  "zhǐ": 428,
  "kě": 429,
  "dàn": 430,
  "mù": 431,
  "yè": 432,
  "fú": 433,
  "mǎ": 434,
  "yě": 435,
  "dōng": 436,
  "qiú": 437,
  "běi": 438,
  "「": 439,
  "」": 440,
  "gāo": 441,
  "yà": 442,
  "qǐ": 443,
  "jiē": 444,
  "miàn": 445,
  "hǎi": 446,
  "zhǎng": 447,
  "shī": 448,
  "jīn": 449,
  "cǐ": 450,
  "lu": 451,
  "nèi": 452,
  "tǐ": 453,
  "sài": 454,
  "sān": 455,
  "tái": 456,
  "gé": 457,
  "xìng": 458,
  "guò": 459,
  "rù": 460,
  "201": 461,
  "děng": 462,
  "yào": 463,
  "ju": 464,
  "chē": 465,
  "cì": 466,
  "wǔ": 467,
  "gāi": 468,
  "dìng": 469,
  "cháng": 470,
  "biǎo": 471,
  "lā": 472,
  "gòng": 473,
  "jiè": 474,
  "shòu": 475,
  "dǎo": 476,
  "shān": 477,
  "chǎng": 478,
  "sì": 479,
  "bǐ": 480,
  "zé": 481,
  "tí": 482,
  "kē": 483,
  "dāng": 484,
  "néng": 485,
  "èr": 486,
  "wài": 487,
  "dān": 488,
  "xù": 489,
  "zi": 490,
  "kǒu": 491,
  "xiǎo": 492,
  "zǔ": 493,
  "bā": 494,
  "jué": 495,
  "lín": 496,
  "liú": 497,
  "shěng": 498,
  "yīng": 499,
  "ku": 500,
  "lán": 501,
  "luó": 502,
  "tōng": 503,
  "200": 504,
  "īng": 505,
  "mǐ": 507,
  "zhòng": 508,
  "en": 509,
  "zhě": 510,
  "shǔ": 511,
  "tiān": 512,
  "zhèn": 513,
  "ǚ": 514,
  "qì": 515,
  "zhǒng": 516,
  "liè": 517,
  "chēng": 518,
  "shū": 519,
  "yuàn": 520,
  "bǎo": 521,
  "tài": 522,
  "fǔ": 523,
  "fēng": 524,
  "gǔ": 525,
  "qīng": 526,
  "shēn": 527,
  "wáng": 528,
  "yùn": 529,
  "guǎn": 530,
  "fēi": 531,
  "jiù": 532,
  "liǎng": 533,
  "céng": 534,
  "méi": 535,
  "10": 536,
  "fèn": 537,
  "hào": 538,
  "�ng": 539,
  "yǎn": 540,
  "wěi": 541,
  "zǒng": 542,
  "xuǎn": 543,
  "xiào": 544,
  "dá": 545,
  "nà": 546,
  "liàng": 547,
  "bō": 548,
  "zú": 549,
  "jìng": 550,
  "bào": 551,
  "ní": 552,
  "wú": 553,
  "tǒng": 554,
  "huá": 555,
  "jiāo": 556,
  "yuē": 557,
  "yǐng": 558,
  "biàn": 559,
  "xīng": 560,
  "sù": 561,
  "shuǐ": 562,
  "yáng": 563,
  "hù": 564,
  "men": 565,
  "bāo": 566,
  "gē": 567,
  "bó": 568,
  "cān": 569,
  "cóng": 570,
  "diǎn": 571,
  "bì": 572,
  "rú": 573,
  "bàn": 574,
  "biān": 575,
  "wǎng": 576,
  "qǔ": 577,
  "mi": 578,
  "chǎn": 579,
  "sè": 580,
  "zī": 581,
  "chuán": 582,
  "00": 583,
  "shèng": 584,
  "rán": 585,
  "tú": 586,
  "zhāng": 587,
  "pǔ": 588,
  "gǎi": 589,
  "gǎng": 590,
  "nǚ": 591,
  "lìng": 592,
  "luò": 593,
  "yòu": 594,
  "tóu": 595,
  "cè": 596,
  "l�": 597,
  "chí": 598,
  "18": 599,
  "lǜ": 600,
  "qiān": 601,
  "shé": 602,
  "lí": 603,
  "dōu": 604,
  "pǐ": 605,
  "12": 606,
  "zhēng": 607,
  "ni": 608,
  "kuò": 609,
  "shā": 610,
  "dǎng": 611,
  "fǎn": 612,
  "gòu": 613,
  "lèi": 614,
  "xí": 615,
  "jǐng": 616,
  "tuán": 617,
  "wēi": 618,
  "xiē": 619,
  "lǐng": 620,
  "lóng": 621,
  "guī": 622,
  "xiān": 623,
  "róng": 624,
  "huáng": 625,
  "xiǎng": 626,
  "bān": 627,
  "jiǔ": 628,
  "yìng": 629,
  "mén": 630,
  "shāng": 631,
  "shén": 632,
  "202": 633,
  "bǎn": 634,
  "kǎ": 635,
  "mǔ": 636,
  "jǐn": 637,
  "fū": 638,
  "jǔ": 639,
  "mó": 640,
  "guǎng": 641,
  "cí": 642,
  "shuō": 643,
  "qíng": 644,
  "zhǎn": 645,
  "hái": 646,
  "zhuāng": 647,
  "mò": 648,
  "cái": 649,
  "dú": 650,
  "11": 651,
  "pǐn": 652,
  "tíng": 653,
  "cháo": 654,
  "yíng": 655,
  "tiáo": 656,
  "jiǎn": 657,
  "táng": 658,
  "huí": 659,
  "duàn": 660,
  "chén": 661,
  "gēn": 662,
  "mì": 663,
  "wàn": 664,
  "pái": 665,
  "wān": 666,
  "zào": 667,
  "háng": 668,
  "wán": 669,
  "biāo": 670,
  "gù": 671,
  "lún": 672,
  "199": 673,
  "xié": 674,
  "jiǎng": 675,
  "hàn": 676,
  "jú": 677,
  "fàn": 678,
  "fáng": 679,
  "huó": 680,
  "hán": 681,
  "pi": 682,
  "kōng": 683,
  "or": 684,
  "tiě": 685,
  "méng": 686,
  "bié": 687,
  "wū": 688,
  "jiě": 689,
  "zhuān": 690,
  "yǐn": 691,
  "xū": 692,
  "zhēn": 693,
  "dǐ": 694,
  "er": 695,
  "chú": 696,
  "hú": 697,
  "jià": 698,
  "bīng": 699,
  "mìng": 700,
  "líng": 701,
  "hóng": 702,
  "qīn": 703,
  "zǐ": 704,
  "lùn": 705,
  "xìn": 706,
  "chù": 707,
  "chǔ": 708,
  "sū": 709,
  "an": 710,
  "xiū": 711,
  "zōng": 712,
  "15": 713,
  "què": 714,
  "xiāo": 715,
  "zhào": 716,
  "qiáng": 717,
  "qù": 718,
  "cūn": 719,
  "chóng": 720,
  "piàn": 721,
  "jiū": 722,
  "fàng": 723,
  "suí": 724,
  "shōu": 725,
  "gèng": 726,
  "guāng": 728,
  "èng": 729,
  "jū": 730,
  "on": 731,
  "jiǎ": 732,
  "chuàng": 733,
  "dí": 734,
  "16": 735,
  "zhuǎn": 736,
  "guǒ": 737,
  "xùn": 738,
  "màn": 739,
  "pài": 740,
  "fèi": 741,
  "pèi": 742,
  "198": 743,
  "dǎ": 744,
  "tuō": 745,
  "la": 746,
  "xuān": 747,
  "bái": 748,
  "zhū": 749,
  "dū": 750,
  "tǔ": 751,
  "diào": 752,
  "xiá": 753,
  "liù": 754,
  "17": 755,
  "suì": 756,
  "huī": 757,
  "tīng": 758,
  "qiě": 759,
  "tǎ": 760,
  "qiáo": 761,
  "hā": 762,
  "gǎn": 763,
  "zēng": 764,
  "xiǎn": 765,
  "mài": 766,
  "huán": 767,
  "xǔ": 768,
  "wǎ": 769,
  "tuī": 770,
  "wèn": 771,
  "chāo": 772,
  "tián": 773,
  "bǎi": 774,
  "cǎi": 775,
  "liáng": 776,
  "yá": 777,
  "sà": 778,
  "ar": 779,
  "bài": 780,
  "cún": 781,
  "jiǎo": 782,
  "shǎo": 783,
  "yàn": 784,
  "zhuàng": 785,
  "huǒ": 786,
  "léi": 787,
  "14": 788,
  "zu": 789,
  "jiàng": 790,
  "chuān": 791,
  "yìn": 792,
  "zǎo": 793,
  "chà": 794,
  "yǒng": 795,
  "sǐ": 796,
  "dēng": 797,
  "30": 798,
  "zhǔn": 799,
  "lè": 800,
  "xún": 801,
  "nuò": 802,
  "kù": 803,
  "huàn": 804,
  "sòng": 805,
  "gào": 806,
  "lǔ": 807,
  "13": 808,
  "194": 809,
  "bāng": 810,
  "lǚ": 811,
  "pī": 812,
  "yàng": 813,
  "hěn": 814,
  "qún": 815,
  "zhěng": 816,
  "guàn": 817,
  "pò": 818,
  "gāng": 819,
  "wǒ": 820,
  "197": 821,
  "huā": 822,
  "lēi": 823,
  "hǎo": 824,
  "táo": 825,
  "kuàng": 826,
  "hè": 827,
  "in": 828,
  "dùn": 829,
  "nóng": 830,
  "gěi": 831,
  "sāi": 832,
  "shuāng": 833,
  "liàn": 834,
  "kuài": 835,
  "dī": 836,
  "bī": 837,
  "pàn": 838,
  "xiě": 839,
  "195": 840,
  "kǎo": 841,
  "gài": 842,
  "hēi": 843,
  "wàng": 844,
  "liào": 845,
  "rè": 846,
  "ge": 847,
  "zuǒ": 848,
  "kòng": 849,
  "196": 850,
  "yāng": 851,
  "chàng": 852,
  "yín": 853,
  "�u": 854,
  "réng": 855,
  "sēn": 856,
  "bēi": 857,
  "lú": 858,
  "piào": 859,
  "yā": 860,
  "25": 861,
  "bīn": 862,
  "—": 863,
  "ràng": 864,
  "chōng": 865,
  "lóu": 866,
  "bǔ": 867,
  "lǎo": 868,
  "zhú": 869,
  "jùn": 870,
  "yǎng": 871,
  "ruì": 872,
  "yāo": 873,
  "xián": 874,
  "xiè": 875,
  "niàn": 876,
  "for": 877,
  "yōu": 878,
  "tán": 879,
  "kāng": 880,
  "pí": 881,
  "héng": 882,
  "yún": 883,
  "xǐ": 884,
  "kàn": 885,
  "níng": 886,
  "liáo": 887,
  "shào": 888,
  "bú": 889,
  "24": 890,
  "qǐng": 891,
  "chǐ": 892,
  "mu": 893,
  "dòu": 894,
  "miǎn": 895,
  "yōng": 896,
  "tǎn": 897,
  "wǎn": 898,
  "hū": 899,
  "fān": 900,
  "al": 901,
  "tū": 902,
  "gān": 903,
  "suàn": 904,
  "dīng": 905,
  "yuǎn": 906,
  "wēn": 907,
  "tuì": 908,
  "zhe": 909,
  "21": 910,
  "st": 911,
  "xiù": 912,
  "bǎ": 913,
  "mǎn": 914,
  "193": 915,
  "23": 916,
  "mula": 917,
  "kàng": 918,
  "formula": 919,
  "28": 920,
  "th": 921,
  "máo": 922,
  "ruò": 923,
  "piān": 924,
  "chè": 925,
  "mào": 926,
  "lǎng": 927,
  "qín": 928,
  "bá": 929,
  "ná": 930,
  "zàn": 931,
  "guǐ": 932,
  "guì": 933,
  "ou": 934,
  "pín": 935,
  "wò": 936,
  "xióng": 937,
  "shàn": 938,
  "re": 939,
  "22": 940,
  "xiōng": 941,
  "me": 942,
  "suī": 943,
  "ü": 944,
  "26": 945,
  "shěn": 946,
  "qìng": 947,
  "miáo": 948,
  "fǎng": 949,
  "50": 950,
  "2020": 951,
  "27": 952,
  "láng": 953,
  "ru": 954,
  "qiū": 955,
  "sōng": 956,
  "üè": 957,
  "dàng": 958,
  "gēng": 959,
  "qiāng": 960,
  "ri": 961,
  "fá": 962,
  "zāo": 963,
  "fèng": 964,
  "zhàng": 965,
  "háo": 967,
  "dūn": 968,
  "zǒu": 969,
  "hài": 970,
  "qiè": 971,
  "29": 972,
  "tàn": 973,
  "pào": 974,
  "pà": 975,
  "shùn": 976,
  "péng": 977,
  "xuán": 978,
  "2010": 979,
  "nǐ": 980,
  "000": 981,
  "dǐng": 982,
  "niǔ": 983,
  "zǎi": 984,
  "zhāo": 985,
  "zhuī": 986,
  "lüè": 987,
  "chūn": 988,
  "2019": 989,
  "hūn": 990,
  "kǒng": 991,
  "duān": 992,
  "shèn": 993,
  "xiáng": 994,
  "duǎn": 995,
  "gàn": 996,
  "te": 997,
  "ro": 998,
  "kān": 999,
  "láo": 1000,
  "cǎo": 1001,
  "2016": 1002,
  "si": 1003,
  "gū": 1004,
  "péi": 1005,
  "2018": 1006,
  "kuǎn": 1007,
  "zá": 1008,
  "sūn": 1009,
  "yé": 1010,
  "yǎ": 1011,
  "pō": 1012,
  "2021": 1013,
  "ra": 1014,
  "chì": 1015,
  "duó": 1016,
  "2014": 1017,
  "fán": 1018,
  "2011": 1019,
  "2015": 1020,
  "cuò": 1021,
  "2017": 1022,
  "zhé": 1023,
  "yáo": 1024,
  "pāi": 1025,
  "tòu": 1026,
  "cáng": 1027,
  "2012": 1028,
  "40": 1029,
  "kǎi": 1030,
  "2013": 1031,
  "2022": 1032,
  "mí": 1033,
  "ruǎn": 1034,
  "suān": 1035,
  "chā": 1036,
  "zàng": 1037,
  "miào": 1038,
  "lt": 1039,
  "2009": 1040,
  "zhǎo": 1041,
  "2008": 1042,
  "huái": 1043,
  "ce": 1045,
  "60": 1046,
  "am": 1047,
  "cu": 1048,
  "xuè": 1049,
  "chóu": 1050,
  "se": 1051,
  "bǎng": 1052,
  "mèng": 1053,
  "100": 1054,
  "tì": 1055,
  "pú": 1056,
  "nǎo": 1057,
  "2023": 1058,
  "zhuàn": 1059,
  "gt": 1060,
  "lěi": 1061,
  "190": 1062,
  "31": 1063,
  "cài": 1064,
  "cù": 1065,
  "sàn": 1066,
  "móu": 1067,
  "tion": 1068,
  "ta": 1069,
  "hùn": 1070,
  "ǔn": 1071,
  "kuān": 1072,
  "2007": 1073,
  "niú": 1074,
  "mǒu": 1075,
  "tǎo": 1076,
  "dié": 1077,
  "2001": 1078,
  "ol": 1079,
  "téng": 1080,
  "sōu": 1081,
  "kěn": 1082,
  "qiǎn": 1083,
  "chāng": 1084,
  "rǎn": 1085,
  "quē": 1086,
  "fǒu": 1087,
  "sǔn": 1088,
  "el": 1089,
  "bà": 1090,
  "2000": 1091,
  "80": 1092,
  "kào": 1093,
  "suō": 1094,
  "2006": 1095,
  "niǎo": 1096,
  "chún": 1097,
  "ma": 1098,
  "2024": 1099,
  "lǎn": 1100,
  "zāi": 1102,
  "zhá": 1103,
  "xuě": 1104,
  "huǐ": 1105,
  "luàn": 1106,
  "tǐng": 1107,
  "2005": 1108,
  "zūn": 1109,
  "bàng": 1110,
  "là": 1111,
  "huān": 1112,
  "rǎng": 1113,
  "shuì": 1114,
  "mǐn": 1115,
  "35": 1116,
  "lài": 1117,
  "cāng": 1118,
  "70": 1119,
  "fó": 1120,
  "pán": 1121,
  "of": 1122,
  "nài": 1123,
  "wěn": 1124,
  "et": 1125,
  "cāo": 1126,
  "sāng": 1127,
  "páng": 1128,
  "90": 1129,
  "bǐng": 1130,
  "－": 1131,
  "zhā": 1132,
  "shuài": 1134,
  "niè": 1135,
  "es": 1136,
  "hóu": 1137,
  "mèi": 1138,
  "shāo": 1139,
  "nǔ": 1140,
  "dǒng": 1141,
  "il": 1142,
  "at": 1143,
  "ow": 1144,
  "féng": 1145,
  "miè": 1146,
  "yǔn": 1147,
  "zòu": 1148,
  "mǎi": 1149,
  "huài": 1150,
  "2004": 1151,
  "45": 1152,
  "yān": 1153,
  "co": 1154,
  "48": 1155,
  "the": 1156,
  "zhuó": 1157,
  "and": 1158,
  "ter": 1159,
  "he": 1160,
  "tào": 1161,
  "nǎi": 1162,
  "kūn": 1163,
  "2025": 1164,
  "zhěn": 1165,
  "ck": 1166,
  "rǔ": 1167,
  "kuà": 1168,
  "kuí": 1169,
  "〉": 1170,
  "〈": 1171,
  "gōu": 1172,
  "36": 1173,
  "cuī": 1174,
  "38": 1175,
  "shǎn": 1176,
  "ròu": 1177,
  "diāo": 1178,
  "2003": 1179,
  "hǔ": 1180,
  "guō": 1181,
  "37": 1182,
  "cuì": 1183,
  "ne": 1184,
  "xú": 1185,
  "máng": 1186,
  "juǎn": 1187,
  "cán": 1188,
  "diān": 1189,
  "zhān": 1190,
  "cáo": 1191,
  "189": 1192,
  "IN": 1193,
  "2002": 1194,
  "is": 1195,
  "bo": 1196,
  "kēng": 1197,
  "TC": 1198,
  "ve": 1199,
  "34": 1200,
  "má": 1201,
  "lěng": 1202,
  "as": 1203,
  "zū": 1204,
  "75": 1205,
  "–": 1206,
  "sú": 1207,
  "quān": 1208,
  "dā": 1209,
  "to": 1210,
  "chāi": 1211,
  "nu": 1212,
  "làng": 1213,
  "kùn": 1214,
  "46": 1215,
  "tún": 1216,
  "fěn": 1217,
  "1990": 1218,
  "…": 1219,
  "zhòu": 1220,
  "shǎng": 1221,
  "rào": 1222,
  "hēng": 1223,
  "tī": 1224,
  "xūn": 1225,
  "39": 1226,
  "nè": 1227,
  "..": 1228,
  "pì": 1229,
  "nàn": 1230,
  "pān": 1231,
  "65": 1232,
  "hōng": 1233,
  "shú": 1234,
  "tān": 1235,
  "Ch": 1236,
  "tāng": 1237,
  "kǎn": 1238,
  "Ma": 1239,
  "nì": 1240,
  "32": 1241,
  "In": 1242,
  "ST": 1243,
  "47": 1244,
  "hǎn": 1245,
  "it": 1246,
  "UTC": 1247,
  "qiàn": 1248,
  "1999": 1249,
  "1998": 1250,
  "1980": 1251,
  "188": 1252,
  "500": 1253,
  "33": 1254,
  "64": 1255,
  "qiǎng": 1256,
  "shuò": 1257,
  "pǎo": 1258,
  "lo": 1259,
  "be": 1260,
  "kā": 1261,
  "zhái": 1262,
  "SE": 1263,
  "55": 1264,
  "quàn": 1265,
  "nī": 1266,
  "dèng": 1267,
  "1997": 1268,
  "The": 1269,
  "mián": 1270,
  "49": 1271,
  "gǎo": 1272,
  "II": 1273,
  "68": 1274,
  "Co": 1275,
  "vi": 1276,
  "shě": 1277,
  "zèng": 1278,
  "Re": 1279,
  "han": 1280,
  "zhóu": 1281,
  "zhài": 1282,
  "44": 1283,
  "1996": 1284,
  "na": 1285,
  "tiē": 1286,
  "dāo": 1287,
  "ad": 1288,
  "br": 1289,
  "1994": 1290,
  "ver": 1291,
  "féi": 1292,
  "zòng": 1293,
  "qióng": 1294,
  "ci": 1295,
  "tiào": 1296,
  "chuáng": 1297,
  "1992": 1298,
  "ba": 1299,
  "chuí": 1300,
  "juān": 1301,
  "chái": 1302,
  "miǎo": 1303,
  "guā": 1304,
  "xuē": 1305,
  "tòng": 1306,
  "1995": 1307,
  "fěi": 1308,
  "chī": 1309,
  "oo": 1310,
  "měng": 1311,
  "wō": 1312,
  "67": 1313,
  "ir": 1314,
  "shuāi": 1315,
  "tuó": 1316,
  "chuāng": 1317,
  "huǎn": 1318,
  "1991": 1319,
  "1970": 1320,
  "58": 1321,
  "ay": 1322,
  "1950": 1323,
  "ca": 1324,
  "nd": 1325,
  "guà": 1326,
  "chán": 1327,
  "300": 1328,
  "wā": 1329,
  "1993": 1330,
  "187": 1331,
  "1949": 1332,
  "pe": 1333,
  "sā": 1334,
  "tiǎo": 1335,
  "AT": 1336,
  "1960": 1337,
  "biǎn": 1338,
  "42": 1339,
  "1945": 1340,
  "ing": 1341,
  "guài": 1342,
  "au": 1343,
  "kǔ": 1344,
  "nú": 1345,
  "1988": 1346,
  "dǔ": 1347,
  "1989": 1348,
  "ig": 1349,
  "pù": 1350,
  "69": 1351,
  "liǔ": 1352,
  "gǒng": 1353,
  "SEE": 1354,
  "tuò": 1355,
  "amp": 1356,
  "ct": 1357,
  "liǎo": 1358,
  "INSEE": 1359,
  "59": 1360,
  "tāi": 1361,
  "43": 1362,
  "66": 1363,
  "chuàn": 1364,
  "op": 1365,
  "chèn": 1366,
  "os": 1367,
  "57": 1368,
  "1985": 1369,
  "huāng": 1370,
  "99": 1371,
  "SA": 1372,
  "『": 1373,
  "cùn": 1374,
  "』": 1375,
  "1984": 1376,
  "hún": 1377,
  "41": 1378,
  "pū": 1379,
  "ly": 1380,
  "us": 1381,
  "kòu": 1382,
  "fén": 1383,
  "88": 1384,
  "1986": 1385,
  "rǎo": 1386,
  "mp": 1387,
  "St": 1388,
  "id": 1389,
  "rùn": 1390,
  "TV": 1391,
  "150": 1392,
  "zhuō": 1393,
  "ind": 1394,
  "400": 1395,
  "sǎn": 1396,
  "1987": 1397,
  "78": 1398,
  "un": 1399,
  "ed": 1400,
  "ha": 1401,
  "1982": 1402,
  "56": 1403,
  "Li": 1404,
  "ur": 1405,
  "ard": 1406,
  "nuó": 1407,
  "1983": 1408,
  "NA": 1409,
  "gǔn": 1410,
  "Ro": 1411,
  "De": 1412,
  "ss": 1413,
  "mā": 1414,
  "tou": 1415,
  "pìn": 1416,
  "CD": 1417,
  "chōu": 1418,
  "ber": 1419,
  "gǒu": 1420,
  "quǎn": 1421,
  "Mi": 1422,
  "77": 1423,
  "zhāi": 1424,
  "Me": 1425,
  "qià": 1426,
  "māo": 1427,
  "qiǎo": 1428,
  "Mar": 1429,
  "tw": 1430,
  "kū": 1431,
  "kuáng": 1432,
  "róu": 1433,
  "der": 1434,
  "79": 1435,
  "lòu": 1436,
  "OS": 1437,
  "°": 1438,
  "kuì": 1439,
  "sàng": 1440,
  "Al": 1442,
  "180": 1443,
  "ty": 1444,
  "BC": 1445,
  "54": 1446,
  "1979": 1447,
  "61": 1448,
  "1920": 1449,
  "ang": 1450,
  "pēn": 1451,
  "98": 1452,
  "sēng": 1453,
  "52": 1454,
  "You": 1455,
  "ap": 1456,
  "1978": 1457,
  "nù": 1458,
  "wēng": 1459,
  "62": 1460,
  "yē": 1461,
  "duǒ": 1462,
  "Le": 1463,
  "53": 1464,
  "xǐng": 1465,
  "juàn": 1466,
  "～": 1467,
  "BA": 1468,
  "ke": 1469,
  "1946": 1470,
  "ts": 1471,
  "CO": 1472,
  "mo": 1473,
  "ction": 1474,
  "51": 1475,
  "1958": 1476,
  "1981": 1477,
  "Vi": 1478,
  "1972": 1479,
  "1948": 1480,
  "zhuì": 1481,
  "cōng": 1482,
  "tōu": 1483,
  "AM": 1484,
  "hi": 1485,
  "63": 1486,
  "man": 1487,
  "ows": 1488,
  "AR": 1489,
  "ry": 1490,
  "1941": 1491,
  "Wind": 1492,
  "BS": 1493,
  "wá": 1494,
  "liǎn": 1495,
  "1930": 1496,
  "Mo": 1497,
  "Pro": 1498,
  "luǎn": 1499,
  "kuāng": 1500,
  "qú": 1501,
  "tuǒ": 1502,
  "ké": 1503,
  "76": 1504,
  "hans": 1505,
  "va": 1506,
  "1940": 1507,
  "1937": 1508,
  "con": 1509,
  "1976": 1510,
  "zuǐ": 1511,
  "1944": 1512,
  "Jo": 1513,
  "89": 1514,
  "1975": 1515,
  "um": 1516,
  "／": 1517,
  "Te": 1518,
  "1968": 1519,
  "niáng": 1520,
  "pó": 1521,
  "shuā": 1522,
  "hk": 1523,
  "yuān": 1524,
  "tāo": 1525,
  "per": 1526,
  "wāng": 1527,
  "ga": 1528,
  "1000": 1529,
  "ran": 1530,
  "Windows": 1531,
  "95": 1532,
  "Ne": 1533,
  "bí": 1534,
  "sǎo": 1535,
  "da": 1536,
  "87": 1537,
  "1966": 1538,
  "85": 1539,
  "fà": 1540,
  "pēng": 1541,
  "600": 1542,
  "làn": 1543,
  "Se": 1544,
  "Sta": 1545,
  "sp": 1546,
  "120": 1547,
  "1947": 1548,
  "Ga": 1549,
  "Ar": 1550,
  "ot": 1551,
  "gā": 1552,
  "1956": 1553,
  "AC": 1554,
  "1964": 1555,
  "dǎn": 1556,
  "cū": 1557,
  "1942": 1558,
  "1955": 1559,
  "chǒu": 1560,
  "lay": 1561,
  "1952": 1562,
  "1939": 1563,
  "IS": 1564,
  "1938": 1565,
  "72": 1566,
  "74": 1567,
  "ht": 1568,
  "rěn": 1569,
  "1973": 1570,
  "ace": 1571,
  "fi": 1572,
  "1974": 1573,
  "1954": 1574,
  "qiē": 1575,
  "ED": 1576,
  "1900": 1577,
  "--": 1578,
  "Be": 1579,
  "AP": 1580,
  "ore": 1581,
  "1943": 1582,
  "1977": 1583,
  "Da": 1584,
  "1971": 1585,
  "pīn": 1586,
  "pǒ": 1587,
  "mán": 1588,
  "1967": 1589,
  "shéng": 1590,
  "ment": 1591,
  "IC": 1592,
  "800": 1593,
  "ER": 1594,
  "La": 1595,
  "86": 1596,
  "1959": 1597,
  "bēng": 1598,
  "son": 1599,
  "1965": 1600,
  "JR": 1601,
  "1969": 1602,
  "Ra": 1603,
  "duī": 1604,
  "Di": 1605,
  "ok": 1606,
  "pén": 1607,
  "・": 1608,
  "×": 1609,
  "qiào": 1610,
  "chuī": 1611,
  "ID": 1612,
  "qiāo": 1613,
  "Su": 1614,
  "ine": 1615,
  "1936": 1616,
  "160": 1617,
  "97": 1618,
  "bēn": 1619,
  "zhuā": 1620,
  "ent": 1621,
  "1953": 1622,
  "Sa": 1623,
  "1962": 1624,
  "MA": 1625,
  "Tu": 1626,
  "tic": 1627,
  "1961": 1628,
  "lǒng": 1629,
  "ation": 1630,
  "1935": 1632,
  "tà": 1633,
  "mái": 1634,
  "Sh": 1635,
  "96": 1636,
  "ON": 1637,
  "ak": 1638,
  "％": 1639,
  "1951": 1640,
  "1957": 1641,
  "1963": 1642,
  "Lo": 1643,
  "─": 1644,
  "one": 1645,
  "rou": 1646,
  "84": 1647,
  "Ja": 1648,
  "2026": 1649,
  "do": 1650,
  "cǎn": 1651,
  "82": 1652,
  "gi": 1653,
  "bu": 1654,
  "mer": 1655,
  "73": 1656,
  "po": 1657,
  "94": 1658,
  "tūn": 1659,
  "92": 1660,
  "So": 1661,
  "AN": 1662,
  "IP": 1663,
  "An": 1664,
  "ho": 1665,
  "ali": 1666,
  "1933": 1667,
  "Mu": 1668,
  "1931": 1669,
  "náng": 1670,
  "niào": 1671,
  "les": 1672,
  "71": 1673,
  "báo": 1674,
  "nuǎn": 1675,
  "léng": 1676,
  "pá": 1677,
  "83": 1678,
  "93": 1679,
  "ai": 1680,
  "We": 1681,
  "81": 1682,
  "dǒu": 1683,
  "1918": 1684,
  "sta": 1685,
  "HD": 1686,
  "Bo": 1687,
  "sāo": 1688,
  "Uni": 1689,
  "1928": 1690,
  "luán": 1691,
  "ki": 1692,
  "1932": 1693,
  "wi": 1694,
  "nèn": 1695,
  "col": 1696,
  "int": 1697,
  "MV": 1698,
  "SS": 1699,
  "our": 1700,
  "110": 1701,
  "tù": 1702,
  "IT": 1703,
  "1912": 1704,
  "all": 1705,
  "1929": 1706,
  "tuǐ": 1707,
  "duò": 1708,
  "1927": 1709,
  "cn": 1710,
  "1934": 1711,
  "are": 1712,
  "Pa": 1713,
  "700": 1714,
  "gá": 1715,
  "che": 1716,
  "by": 1717,
  "ted": 1718,
  "ster": 1719,
  "huǎng": 1720,
  "Si": 1721,
  "250": 1722,
  "ff": 1723,
  "91": 1724,
  "mm": 1725,
  "Par": 1726,
  "zéi": 1727,
  "Ri": 1728,
  "1924": 1729,
  "pp": 1730,
  "ph": 1731,
  "...": 1732,
  "1919": 1733,
  "kuī": 1734,
  "He": 1735,
  "so": 1736,
  "xuàn": 1737,
  "130": 1738,
  "piāo": 1739,
  "no": 1740,
  "1925": 1741,
  "PS": 1742,
  "Play": 1743,
  "pāo": 1744,
  "140": 1745,
  "xiā": 1746,
  "Bu": 1747,
  "Ca": 1748,
  "SM": 1749,
  "Con": 1750,
  "Sp": 1751,
  "PC": 1752,
  "1914": 1753,
  "ble": 1754,
  "ste": 1755,
  "zhǎi": 1756,
  "km": 1757,
  "DV": 1758,
  "zhē": 1759,
  "En": 1760,
  "mes": 1761,
  "YouTu": 1762,
  "com": 1763,
  "Ba": 1764,
  "hē": 1765,
  "Fi": 1766,
  "Ti": 1767,
  "diē": 1768,
  "ell": 1769,
  "gra": 1770,
  "lǎ": 1771,
  "AS": 1772,
  "ia": 1773,
  "1911": 1774,
  "Wi": 1775,
  "shi": 1776,
  "end": 1777,
  "ill": 1778,
  "nüè": 1779,
  "ana": 1780,
  "ara": 1781,
  "Ge": 1782,
  "1926": 1783,
  "den": 1784,
  "1922": 1785,
  "Na": 1786,
  "nǎ": 1787,
  "sion": 1788,
  "hèn": 1789,
  "1917": 1790,
  "ET": 1791,
  "NBA": 1792,
  "IV": 1793,
  "shuí": 1794,
  "cāi": 1795,
  "ráo": 1796,
  "EN": 1797,
  "1923": 1798,
  "art": 1799,
  "1921": 1800,
  "fe": 1801,
  "pèng": 1802,
  "sa": 1803,
  "ka": 1804,
  "kuā": 1805,
  "Goo": 1806,
  "ther": 1807,
  "chǒng": 1808,
  "To": 1809,
  "170": 1810,
  "EC": 1812,
  "ld": 1813,
  "mǎo": 1814,
  "nòng": 1815,
  "AL": 1816,
  "Ha": 1817,
  "MS": 1818,
  "section": 1819,
  "Ni": 1820,
  "YouTube": 1821,
  "EP": 1822,
  "hn": 1823,
  "BL": 1824,
  "1913": 1825,
  "tiāo": 1826,
  "Ju": 1827,
  "HK": 1828,
  "ler": 1829,
  "hant": 1831,
  "gùn": 1832,
  "1909": 1833,
  "gin": 1834,
  "Inter": 1835,
  "cro": 1836,
  "Ste": 1837,
  "MP": 1838,
  "AI": 1839,
  "Ho": 1840,
  "gěng": 1841,
  "Wor": 1842,
  "nào": 1843,
  "Po": 1844,
  "fěng": 1845,
  "Do": 1846,
  "luǒ": 1847,
  "US": 1848,
  "ant": 1849,
  "go": 1850,
  "ya": 1851,
  "DVD": 1852,
  "ort": 1853,
  "zōu": 1854,
  "ris": 1855,
  "3000": 1856,
  "Pi": 1857,
  "cā": 1858,
  "Car": 1859,
  "1910": 1860,
  "RO": 1861,
  "DS": 1862,
  "Th": 1863,
  "112": 1864,
  "AK": 1865,
  "My": 1866,
  "pen": 1867,
  "RE": 1868,
  "pro": 1869,
  "ven": 1870,
  "1916": 1871,
  "Station": 1872,
  "ー": 1873,
  "chuò": 1874,
  "Net": 1875,
  "α": 1876,
  "Ki": 1877,
  "Sch": 1878,
  "olo": 1879,
  "No": 1880,
  "ari": 1881,
  "ture": 1882,
  "gn": 1883,
  "Lin": 1884,
  "CP": 1885,
  "UN": 1886,
  "gle": 1887,
  "ers": 1889,
  "hén": 1890,
  "1915": 1891,
  "oun": 1892,
  "niàng": 1893,
  "1905": 1894,
  "FC": 1895,
  "my": 1896,
  "Lu": 1897,
  "ll": 1898,
  "Wil": 1899,
  "CN": 1900,
  "→": 1902,
  "1901": 1903,
  "Fa": 1904,
  "Au": 1905,
  "ting": 1906,
  "New": 1907,
  "DNA": 1908,
  "Ex": 1909,
  "‧": 1910,
  "ary": 1911,
  "900": 1912,
  "Ph": 1913,
  "sic": 1914,
  "HR": 1915,
  "dice": 1916,
  "sis": 1917,
  ".&": 1918,
  "CH": 1919,
  "zěn": 1920,
  "TA": 1921,
  "dia": 1922,
  "Qu": 1923,
  "TO": 1924,
  "1906": 1925,
  "len": 1926,
  "1904": 1927,
  "chuǎng": 1928,
  "AV": 1929,
  "For": 1930,
  "gěn": 1931,
  "John": 1932,
  "we": 1933,
  "ere": 1934,
  "And": 1935,
  "MO": 1936,
  "ding": 1937,
  "codice": 1938,
  "chǎo": 1939,
  "jiǒng": 1940,
  "℃": 1941,
  "Ta": 1942,
  "pa": 1943,
  "ps": 1944,
  "PlayStation": 1945,
  "fu": 1946,
  "ko": 1947,
  "wà": 1948,
  "bèng": 1949,
  "05": 1950,
  "CC": 1951,
  "ton": 1952,
  "vo": 1953,
  "eri": 1954,
  "diū": 1955,
  "1907": 1956,
  "1908": 1957,
  "Google": 1958,
  "AG": 1959,
  "EST": 1960,
  "MI": 1961,
  "zuàn": 1962,
  "SO": 1963,
  "ory": 1964,
  "tes": 1965,
  "LE": 1966,
  "Gu": 1967,
  "jiá": 1968,
  "zuǎn": 1969,
  "cy": 1970,
  "lī": 1971,
  "chi": 1972,
  "ley": 1973,
  "BO": 1974,
  "enter": 1975,
  "BBC": 1976,
  "AD": 1977,
  "IG": 1978,
  "cal": 1979,
  "III": 1980,
  "Cu": 1981,
  "cri": 1982,
  "oft": 1983,
  "1500": 1984,
  "Ru": 1985,
  "lin": 1986,
  "5000": 1987,
  "ori": 1988,
  "zuān": 1989,
  "pu": 1990,
  "Go": 1991,
  "IST": 1992,
  "shē": 1993,
  "lǘ": 1994,
  "Fe": 1995,
  "Col": 1996,
  "wor": 1997,
  "Sy": 1998,
  "Ka": 1999,
  "ME": 2000,
  "tive": 2001,
  "CR": 2002,
  "gen": 2003,
  "3D": 2004,
  "wit": 2005,
  "round": 2006,
  "IA": 2007,
  "guǎ": 2008,
  "105": 2009,
  "je": 2010,
  "ron": 2011,
  "mà": 2012,
  "а": 2013,
  "101": 2014,
  "1903": 2015,
  "GB": 2016,
  "pīng": 2017,
  "cha": 2018,
  "shá": 2019,
  "lan": 2020,
  "09": 2021,
  "TE": 2022,
  "ree": 2023,
  "Ad": 2024,
  "Hu": 2025,
  "càn": 2026,
  "cén": 2027,
  "1902": 2028,
  "BD": 2029,
  "NC": 2030,
  "land": 2031,
  "can": 2032,
  "ze": 2033,
  "own": 2034,
  "ess": 2035,
  "pāng": 2036,
  "xt": 2037,
  "350": 2038,
  "wa": 2039,
  "ina": 2040,
  "SAO": 2041,
  "sháo": 2042,
  "DC": 2043,
  "net": 2044,
  "span": 2045,
  "des": 2046,
  "β": 2047,
  "ght": 2048,
  "lìn": 2049,
  "ence": 2050,
  "B1900": 2051,
  "inc": 2052,
  "book": 2053,
  "del": 2054,
  "ES": 2055,
  "BM": 2056,
  "．": 2057,
  "dy": 2058,
  "ン": 2059,
  "Hi": 2060,
  "1898": 2061,
  "06": 2062,
  "118": 2063,
  "Pe": 2064,
  "ms": 2065,
  "の": 2066,
  "lá": 2067,
  "pt": 2068,
  "qǐn": 2069,
  "tel": 2070,
  "360": 2071,
  "DR": 2072,
  "mon": 2073,
  "01": 2074,
  "DA": 2075,
  "gh": 2076,
  "Open": 2077,
  "1895": 2078,
  "lào": 2079,
  "yle": 2080,
  "125": 2081,
  "mú": 2082,
  "lar": 2083,
  "bèn": 2084,
  "HO": 2085,
  "Ko": 2086,
  "MC": 2087,
  "ance": 2088,
  "ATP": 2089,
  "Micro": 2090,
  "о": 2091,
  "108": 2092,
  "gy": 2093,
  "NG": 2094,
  "pōu": 2095,
  "igh": 2096,
  "sy": 2097,
  "cor": 2098,
  "tt": 2099,
  "dio": 2100,
  "Ke": 2101,
  "qié": 2102,
  "za": 2103,
  "App": 2104,
  "Pu": 2105,
  "ning": 2106,
  "gram": 2107,
  "IF": 2108,
  "Fran": 2109,
  "ft": 2110,
  "res": 2111,
  "Com": 2112,
  "tin": 2113,
  "−": 2114,
  "07": 2115,
  "08": 2116,
  "230": 2117,
  "Face": 2118,
  "104": 2119,
  "Du": 2120,
  "ref": 2121,
  "One": 2122,
  "World": 2123,
  "old": 2124,
  "Ser": 2125,
  "soft": 2126,
  "EDT": 2127,
  "ISTAT": 2128,
  "Mon": 2129,
  "Stu": 2130,
  "shāi": 2131,
  "sǒng": 2132,
  "NO": 2134,
  "ner": 2135,
  "1896": 2136,
  "Cor": 2137,
  "LL": 2138,
  "Bi": 2139,
  "ger": 2140,
  "lus": 2141,
  "109": 2142,
  "DP": 2143,
  "yū": 2144,
  "las": 2145,
  "AA": 2146,
  "fli": 2147,
  "Comp": 2148,
  "rea": 2149,
  "gě": 2150,
  "RI": 2151,
  "vel": 2152,
  "ren": 2153,
  "line": 2154,
  "RT": 2155,
  "suǐ": 2156,
  "SP": 2157,
  "xiáo": 2158,
  "qiǎ": 2159,
  "EX": 2160,
  "rě": 2161,
  "Bar": 2162,
  "Bri": 2163,
  "ling": 2164,
  "bert": 2165,
  "B48": 2166,
  "106": 2167,
  "1890": 2168,
  "ctor": 2169,
  "CST": 2170,
  "San": 2171,
  "ML": 2172,
  "CDT": 2173,
  "Love": 2174,
  "ity": 2175,
  "mar": 2176,
  "zāng": 2177,
  "row": 2178,
  "DO": 2179,
  "with": 2180,
  "HE": 2181,
  "fa": 2182,
  "Per": 2183,
  "pēi": 2184,
  "ward": 2185,
  "Har": 2186,
  "Man": 2187,
  "ds": 2188,
  "tional": 2189,
  "tain": 2190,
  "ja": 2191,
  "04": 2192,
  "4000": 2193,
  "115": 2194,
  "cuàn": 2195,
  "1200": 2196,
  "ky": 2197,
  "ux": 2198,
  "ound": 2199,
  "ight": 2200,
  "M1": 2201,
  "03": 2202,
  "GP": 2203,
  "páo": 2204,
  "CE": 2205,
  "back": 2206,
  "1889": 2207,
  "begin": 2208,
  "Je": 2209,
  "1899": 2210,
  "ool": 2211,
  "colspan": 2212,
  "1871": 2213,
  "ring": 2214,
  "Ed": 2215,
  "RS": 2216,
  "ower": 2217,
  "mic": 2218,
  "Facebook": 2219,
  "lude": 2220,
  "Willi": 2221,
  "Microsoft": 2222,
  "​": 2223,
  "240": 2224,
  "tur": 2225,
  "Mac": 2226,
  "1600": 2227,
  "LO": 2228,
  "Live": 2229,
  "BE": 2230,
  "cket": 2231,
  "102": 2232,
  "cc": 2233,
  "ker": 2234,
  "box": 2235,
  "TT": 2236,
  "1897": 2237,
  "Gi": 2238,
  "NH": 2239,
  "EE": 2240,
  "chòu": 2241,
  "Pre": 2242,
  "Tri": 2243,
  "117": 2244,
  "On": 2245,
  "PP": 2246,
  "qìn": 2247,
  "ks": 2248,
  "Is": 2249,
  "SC": 2250,
  "02": 2251,
  "van": 2252,
  "cm": 2253,
  "shuǎng": 2254,
  "style": 2255,
  "mb": 2256,
  "103": 2257,
  "AKB48": 2258,
  "MD": 2259,
  "yǎo": 2260,
  "107": 2261,
  "Gra": 2262,
  "bli": 2263,
  "Music": 2264,
  "Gre": 2265,
  "ood": 2266,
  "còu": 2267,
  "Linux": 2268,
  "include": 2269,
  "Dis": 2270,
  "Or": 2271,
  "Tra": 2272,
  "Pri": 2273,
  "tǎng": 2274,
  "ww": 2275,
  "Nor": 2276,
  "pha": 2277,
  "min": 2278,
  "Ori": 2279,
  "ye": 2280,
  "only": 2281,
  "450": 2282,
  "VID": 2283,
  "tus": 2284,
  "127": 2285,
  "mas": 2286,
  "tra": 2287,
  "Davi": 2288,
  "que": 2289,
  "ane": 2290,
  "128": 2291,
  "align": 2292,
  "lāo": 2293,
  "lis": 2294,
  "ous": 2295,
  "Game": 2296,
  "flix": 2297,
  "CL": 2298,
  "ora": 2299,
  "Netflix": 2300,
  "El": 2301,
  "1894": 2302,
  "220": 2303,
  "rin": 2304,
  "Ber": 2305,
  "н": 2306,
  "ser": 2307,
  "William": 2308,
  "IL": 2309,
  "Vo": 2310,
  "SH": 2311,
  "sti": 2312,
  "rom": 2313,
  "Twit": 2314,
  "1880": 2315,
  "Red": 2316,
  "yi": 2317,
  "RNA": 2318,
  "záo": 2319,
  "136": 2320,
  "PG": 2321,
  "Fu": 2322,
  "и": 2323,
  "ero": 2324,
  "い": 2325,
  "TR": 2326,
  "stra": 2327,
  "Team": 2328,
  "1800": 2329,
  "Wa": 2330,
  "ス": 2331,
  "Univer": 2332,
  "ground": 2333,
  "tor": 2334,
  "1885": 2335,
  "nge": 2336,
  "liǎ": 2337,
  "114": 2338,
  "ano": 2339,
  "ん": 2340,
  "pián": 2341,
  "rus": 2342,
  "Hz": 2343,
  "Ty": 2344,
  "Char": 2345,
  "color": 2346,
  "116": 2347,
  "280": 2348,
  "name": 2349,
  "Star": 2350,
  "Eu": 2351,
  "Gen": 2352,
  "UR": 2353,
  "hy": 2354,
  "е": 2355,
  "113": 2356,
  "era": 2357,
  "lla": 2358,
  "1886": 2359,
  "sing": 2360,
  "イ": 2361,
  "TS": 2362,
  "ten": 2363,
  "School": 2364,
  "PO": 2365,
  "mǎng": 2366,
  "lass": 2367,
  "1893": 2368,
  "irl": 2369,
  "Bla": 2370,
  "Mc": 2371,
  "ex": 2372,
  "nic": 2373,
  "out": 2374,
  "111": 2375,
  "Mark": 2376,
  "SL": 2377,
  "irst": 2378,
  "cial": 2380,
  "Super": 2381,
  "Don": 2382,
  "ac": 2383,
  "Wal": 2384,
  "ject": 2385,
  "lex": 2386,
  "mǒ": 2387,
  "ans": 2388,
  "※": 2389,
  "tri": 2390,
  "lia": 2391,
  "ie": 2392,
  "mō": 2393,
  "135": 2394,
  "David": 2395,
  "260": 2396,
  "1860": 2397,
  "national": 2398,
  "Geor": 2399,
  "Mor": 2400,
  "ys": 2401,
  "nín": 2402,
  "gue": 2403,
  "tle": 2404,
  "any": 2405,
  "Pet": 2406,
  "WTA": 2407,
  "way": 2408,
  "roup": 2409,
  "HC": 2410,
  "Mat": 2411,
  "nis": 2412,
  "ces": 2413,
  "UA": 2414,
  "Un": 2415,
  "was": 2416,
  "ouse": 2417,
  "ham": 2418,
  "1888": 2419,
  "Ac": 2420,
  "text": 2421,
  "SD": 2422,
  "-.": 2423,
  "cation": 2424,
  "Bra": 2425,
  "ony": 2426,
  "roid": 2427,
  "background": 2428,
  "yūn": 2429,
  "dǎi": 2430,
  "ream": 2431,
  "Show": 2432,
  "129": 2433,
  "GO": 2434,
  "om": 2435,
  "chēn": 2436,
  "1870": 2437,
  "stri": 2438,
  "GN": 2439,
  "Che": 2441,
  "nia": 2442,
  "1887": 2443,
  "bur": 2444,
  "don": 2445,
  "pri": 2446,
  "shuān": 2447,
  "1868": 2448,
  "6000": 2449,
  "cle": 2450,
  "ö": 2451,
  "р": 2452,
  "1883": 2453,
  "Cy": 2454,
  "NF": 2455,
  "VA": 2456,
  "lub": 2457,
  "meri": 2458,
  "Ku": 2459,
  "ank": 2460,
  "Meta": 2461,
  "320": 2462,
  "Ab": 2463,
  "Xbox": 2464,
  "CS": 2465,
  "NHK": 2466,
  "AF": 2467,
  "DD": 2468,
  "Twitter": 2469,
  "KP": 2470,
  "ny": 2471,
  "onlyinclude": 2472,
  "Tho": 2473,
  "ens": 2474,
  "piáo": 2475,
  "++": 2476,
  "bit": 2477,
  "tàng": 2478,
  "1864": 2479,
  "•": 2480,
  "ION": 2481,
  "1884": 2482,
  "119": 2483,
  "RC": 2484,
  "UE": 2485,
  "tis": 2486,
  "122": 2487,
  "Cl": 2488,
  "2500": 2489,
  "1892": 2490,
  "210": 2491,
  "A1": 2492,
  "ong": 2493,
  "ins": 2494,
  "Wh": 2495,
  "center": 2496,
  "let": 2497,
  "miù": 2498,
  "155": 2499,
  "Sou": 2500,
  "ISO": 2501,
  "145": 2503,
  "1891": 2504,
  "650": 2505,
  "pre": 2506,
  "Android": 2507,
  "Girl": 2508,
  "sel": 2509,
  "NS": 2510,
  "car": 2511,
  "vil": 2512,
  "〕": 2513,
  "sil": 2514,
  "OR": 2515,
  "yo": 2516,
  "As": 2517,
  "〔": 2518,
  "1850": 2519,
  "ona": 2520,
  "cuō": 2521,
  "htt": 2522,
  "red": 2523,
  "low": 2524,
  "xy": 2525,
  "ensis": 2526,
  "International": 2527,
  "Day": 2528,
  "cer": 2529,
  "mī": 2530,
  "1867": 2531,
  "stem": 2532,
  "IM": 2533,
  "pàng": 2534,
  "ト": 2535,
  "All": 2536,
  "Nation": 2537,
  "sed": 2538,
  "1879": 2539,
  "mber": 2540,
  "James": 2541,
  "Enter": 2542,
  "War": 2543,
  "ffi": 2544,
  "380": 2545,
  "AB": 2546,
  "UP": 2547,
  "dis": 2548,
  "1876": 2549,
  "Coun": 2550,
  "Ver": 2551,
  "Universi": 2552,
  "im": 2553,
  "vin": 2554,
  "George": 2555,
  "Her": 2556,
  "1875": 2557,
  "1861": 2558,
  "270": 2559,
  "Dra": 2560,
  "td": 2561,
  "lie": 2562,
  "sia": 2563,
  "eld": 2564,
  "Air": 2565,
  "Group": 2566,
  "IR": 2567,
  "cho": 2568,
  "time": 2569,
  "126": 2570,
  "ama": 2571,
  "NT": 2572,
  "Pau": 2573,
  "lor": 2574,
  "inter": 2575,
  "Ani": 2576,
  "Spe": 2577,
  "Games": 2578,
  "NGC": 2579,
  "Hy": 2580,
  "stru": 2581,
  "ル": 2582,
  "1873": 2583,
  "Hol": 2584,
  "MG": 2585,
  "123": 2586,
  "ラ": 2587,
  "Eng": 2588,
  "PV": 2589,
  "Ben": 2590,
  "HT": 2591,
  "val": 2592,
  "Colle": 2593,
  "day": 2594,
  "MB": 2595,
  "168": 2596,
  "COVID": 2597,
  "critic": 2598,
  "Club": 2599,
  "FM": 2600,
  "Hen": 2601,
  "lue": 2602,
  "1865": 2603,
  "ild": 2604,
  "AO": 2605,
  "PL": 2606,
  "that": 2607,
  "ass": 2608,
  "Ameri": 2609,
  "DE": 2610,
  "121": 2611,
  "Center": 2612,
  "ut": 2613,
  "cus": 2614,
  "Blo": 2615,
  "175": 2616,
  "う": 2617,
  "Web": 2618,
  "H2": 2619,
  "YP": 2620,
  "from": 2621,
  "ä": 2622,
  "1400": 2623,
  "Ali": 2624,
  "od": 2625,
  "MAX": 2626,
  "work": 2627,
  "par": 2628,
  "138": 2629,
  "228": 2630,
  "TP": 2631,
  "fer": 2632,
  "1848": 2633,
  "chàn": 2634,
  "ast": 2635,
  "ald": 2636,
  "ney": 2637,
  "liū": 2638,
  "1862": 2639,
  "330": 2640,
  "dge": 2641,
  "pěng": 2642,
  "124": 2643,
  "ア": 2644,
  "1881": 2645,
  "1882": 2646,
  "737": 2647,
  "age": 2648,
  "Can": 2649,
  "1878": 2650,
  "550": 2651,
  "Sha": 2652,
  "guǎi": 2653,
  "ruǐ": 2654,
  "1872": 2655,
  "Ele": 2656,
  "LC": 2657,
  "bìn": 2658,
  "INK": 2659,
  "Metacritic": 2660,
  "Oricon": 2661,
  "bor": 2662,
  "náo": 2663,
  "156": 2664,
  "MTV": 2665,
  "UC": 2666,
  "bri": 2667,
  "165": 2668,
  "comp": 2669,
  "Boo": 2670,
  "LED": 2671,
  "fo": 2672,
  "1840": 2673,
  "niǎn": 2674,
  "IVE": 2675,
  "High": 2676,
  "Spi": 2677,
  "core": 2678,
  "dāi": 2679,
  "wan": 2680,
  "750": 2681,
  "It": 2682,
  "ns": 2683,
  "tro": 2684,
  "shài": 2685,
  "ッ": 2686,
  "ology": 2687,
  "ming": 2688,
  "1300": 2689,
  "し": 2690,
  "137": 2691,
  "stagram": 2692,
  "7000": 2693,
  "Bro": 2694,
  "DOS": 2695,
  "SQ": 2696,
  "UB": 2697,
  "229": 2698,
  "IU": 2699,
  "cre": 2700,
  "zo": 2701,
  "Chu": 2702,
  "GDP": 2703,
  "King": 2704,
  "OK": 2705,
  "с": 2706,
  "ena": 2707,
  "Lea": 2708,
  "She": 2709,
  "rand": 2710,
  "152": 2711,
  "als": 2712,
  "Stre": 2713,
  "TVB": 2714,
  "Micha": 2715,
  "Va": 2716,
  "lip": 2717,
  "159": 2718,
  "1877": 2719,
  "Robert": 2720,
  "type": 2721,
  "Sur": 2722,
  "kuǐ": 2724,
  "1866": 2725,
  "rist": 2726,
  "Chi": 2727,
  "Chris": 2728,
  "Pat": 2729,
  "iOS": 2730,
  "л": 2731,
  "oly": 2732,
  "Produ": 2733,
  "SK": 2734,
  "1869": 2735,
  "′": 2736,
  "silver": 2737,
  "THE": 2738,
  "Up": 2739,
  "Ce": 2740,
  "DM": 2741,
  "gar": 2742,
  "her": 2743,
  "sen": 2744,
  "xiǔ": 2745,
  "Fri": 2746,
  "NET": 2747,
  "Pla": 2748,
  "к": 2749,
  "she": 2750,
  "139": 2751,
  "Instagram": 2752,
  "Phone": 2753,
  "BI": 2754,
  "star": 2755,
  "BLAC": 2756,
  "Type": 2757,
  "Big": 2758,
  "por": 2759,
  "в": 2760,
  "DJ": 2761,
  "rēng": 2762,
  "iss": 2763,
  "Apple": 2764,
  "CG": 2765,
  "Hel": 2766,
  "WE": 2767,
  "ew": 2768,
  "ray": 2769,
  "ク": 2770,
  "code": 2771,
  "Michael": 2772,
  "At": 2773,
  "DF": 2774,
  "ark": 2776,
  "alk": 2777,
  "1100": 2778,
  "158": 2779,
  "ons": 2780,
  "ator": 2781,
  "Tech": 2782,
  "Paul": 2783,
  "225": 2784,
  "305": 2785,
  "133": 2786,
  "INE": 2787,
  "cia": 2788,
  "RA": 2789,
  "sǎ": 2790,
  "リ": 2791,
  "Award": 2792,
  "HI": 2793,
  "YO": 2794,
  "132": 2795,
  "Steam": 2796,
  "205": 2797,
  "1863": 2798,
  "Park": 2799,
  "National": 2800,
  "Bill": 2801,
  "Ye": 2802,
  "tainment": 2803,
  "215": 2804,
  "Ci": 2805,
  "bra": 2806,
  "sto": 2807,
  "new": 2808,
  "University": 2809,
  "FO": 2810,
  "ral": 2811,
  "Media": 2812,
  "CA": 2813,
  "F1": 2814,
  "KBS": 2815,
  "Val": 2816,
  "148": 2817,
  "131": 2818,
  "Lou": 2819,
  "Smi": 2820,
  "166": 2821,
  "arch": 2822,
  "1874": 2823,
  "sso": 2824,
  "EF": 2825,
  "Mer": 2826,
  "XX": 2827,
  "bal": 2828,
  "kg": 2829,
  "now": 2830,
  "1858": 2831,
  "Fin": 2832,
  "Kar": 2833,
  "Tran": 2834,
  "gon": 2835,
  "ves": 2836,
  "147": 2837,
  "space": 2838,
  "Black": 2839,
  "Ter": 2840,
  "ach": 2841,
  "gan": 2842,
  "Peter": 2843,
  "Gar": 2844,
  "deo": 2845,
  "256": 2846,
  "か": 2847,
  "GA": 2848,
  "IE": 2849,
  "M2": 2850,
  "kǔn": 2851,
  "1830": 2852,
  "Rich": 2853,
  "CBS": 2854,
  "UT": 2855,
  "1851": 2856,
  "Lee": 2857,
  "BN": 2858,
  "UI": 2859,
  "192": 2860,
  "zer": 2861,
  "μ": 2862,
  "ada": 2863,
  "8000": 2864,
  "chě": 2865,
  "Jack": 2866,
  "Entertainment": 2867,
  "310": 2868,
  "Jap": 2869,
  "Win": 2870,
  "lǐn": 2871,
  "bin": 2872,
  "mini": 2873,
  "143": 2874,
  "set": 2875,
  "City": 2876,
  "Mk": 2877,
  "gàng": 2878,
  "1855": 2879,
  "rie": 2880,
  "ater": 2881,
  "Intel": 2882,
  "Power": 2883,
  "EM": 2884,
  "IX": 2885,
  "Sam": 2886,
  "hǎ": 2887,
  "Space": 2888,
  "RAM": 2889,
  "185": 2891,
  "1859": 2892,
  "zuó": 2893,
  "STAR": 2894,
  "ship": 2895,
  "Charles": 2896,
  "bel": 2897,
  "py": 2898,
  "134": 2899,
  "Dire": 2900,
  "Ang": 2901,
  "ABC": 2902,
  "Fla": 2903,
  "ene": 2904,
  "1854": 2905,
  "146": 2906,
  "301": 2907,
  "enti": 2908,
  "1700": 2909,
  "Viu": 2910,
  "Java": 2911,
  "370": 2912,
  "if": 2913,
  "1857": 2914,
  "Free": 2915,
  "GM": 2916,
  "Py": 2917,
  "Tai": 2918,
  "whi": 2919,
  "stro": 2920,
  "vs": 2921,
  "ا": 2922,
  "ann": 2923,
  "290": 2924,
  "な": 2925,
  "Life": 2926,
  "︰": 2927,
  "Er": 2928,
  "Pan": 2929,
  "Ve": 2930,
  "γ": 2931,
  "214": 2932,
  "420": 2933,
  "Dream": 2934,
  "Ya": 2935,
  "т": 2936,
  "Recor": 2937,
  "Alpha": 2938,
  "Company": 2939,
  "stitu": 2940,
  "ek": 2941,
  "fang": 2942,
  "face": 2943,
  "ο": 2944,
  "〜": 2945,
  "mis": 2946,
  "1856": 2947,
  "1853": 2948,
  "Project": 2949,
  "Am": 2950,
  "House": 2951,
  "Pop": 2952,
  "first": 2953,
  "dium": 2954,
  "た": 2955,
  "ety": 2956,
  "Time": 2957,
  "Thomas": 2958,
  "Cal": 2959,
  "Min": 2960,
  "ae": 2961,
  "ox": 2962,
  "von": 2963,
  "vis": 2964,
  "144": 2965,
  "Saint": 2966,
  "FA": 2967,
  "Ken": 2968,
  "OVA": 2969,
  "Cent": 2970,
  "Tru": 2971,
  "VO": 2972,
  "bò": 2973,
  "A2": 2974,
  "IO": 2975,
  "167": 2976,
  "Street": 2977,
  "3A": 2978,
  "HS": 2979,
  "SBS": 2980,
  "shǎ": 2981,
  "bili": 2982,
  "kuǎ": 2983,
  "1841": 2984,
  "very": 2985,
  "Alex": 2986,
  "Bat": 2987,
  "LP": 2988,
  "Lau": 2989,
  "Tor": 2990,
  "din": 2991,
  "ric": 2992,
  "340": 2993,
  "PM": 2994,
  "Por": 2995,
  "Shi": 2996,
  "chuǎn": 2997,
  "mat": 2998,
  "mation": 2999,
  "BLACKP": 3000,
  "Met": 3001,
  "ple": 3002,
  "zā": 3003,
  "208": 3004,
  "1815": 3005,
  "178": 3006,
  "CPU": 3007,
  "BLACKPINK": 3008,
  "223": 3009,
  "Bur": 3010,
  "cis": 3011,
  "mèn": 3012,
  "Soci": 3013,
  "Studio": 3014,
  "Euro": 3015,
  "850": 3016,
  "LGB": 3017,
  "Sing": 3018,
  "pla": 3019,
  "cher": 3020,
  "zuō": 3021,
  "ses": 3022,
  "Rock": 3023,
  "www": 3024,
  "IBM": 3025,
  "spe": 3026,
  "SF": 3027,
  "207": 3028,
  "die": 3029,
  "play": 3030,
  "sg": 3031,
  "nie": 3032,
  "171": 3033,
  "235": 3034,
  "tation": 3035,
  "と": 3036,
  "ま": 3037,
  "Dig": 3038,
  "Fer": 3039,
  "LIVE": 3040,
  "Mr": 3041,
  "PE": 3042,
  "SU": 3043,
  "VE": 3044,
  "Yu": 3045,
  "nìng": 3046,
  "203": 3047,
  "B2": 3048,
  "Whi": 3049,
  "not": 3050,
  "Art": 3051,
  "SQL": 3052,
  "Pad": 3053,
  "1846": 3054,
  "164": 3055,
  "ford": 3056,
  "oot": 3057,
  "College": 3058,
  "bre": 3059,
  "cra": 3060,
  "157": 3061,
  "vice": 3062,
  "berg": 3063,
  "publi": 3064,
  "BR": 3065,
  "LT": 3066,
  "NE": 3067,
  "lit": 3068,
  "141": 3069,
  "ICE": 3070,
  "B1": 3071,
  "Cro": 3072,
  "Cap": 3073,
  "Sun": 3074,
  "ond": 3075,
  "176": 3076,
  "thy": 3077,
  "ING": 3078,
  "board": 3079,
  "Inc": 3080,
  "Tele": 3081,
  "American": 3082,
  "Asso": 3083,
  "LS": 3084,
  "hān": 3085,
  "you": 3086,
  "²": 3087,
  "1812": 3088,
  "1845": 3089,
  "1844": 3090,
  "sign": 3091,
  "Road": 3092,
  "Girls": 3093,
  "self": 3094,
  "Ze": 3095,
  "sch": 3096,
  "mit": 3097,
  "231": 3098,
  "Offi": 3099,
  "cture": 3100,
  "class": 3101,
  "HF": 3102,
  "Ltd": 3103,
  "M3": 3104,
  "Mil": 3105,
  "Ros": 3106,
  "り": 3107,
  "witch": 3108,
  "LGBT": 3109,
  "Ag": 3110,
  "ball": 3111,
  "209": 3112,
  "cess": 3113,
  "き": 3114,
  "off": 3115,
  "NASA": 3116,
  "GNU": 3117,
  "LA": 3118,
  "wāi": 3119,
  "ded": 3120,
  "Jose": 3121,
  "Smith": 3122,
  "Cla": 3123,
  "Ger": 3124,
  "PA": 3125,
  "Pra": 3126,
  "ampi": 3127,
  "IUCN": 3128,
  "216": 3129,
  "PN": 3130,
  "κ": 3131,
  "1849": 3132,
  "153": 3133,
  "temp": 3134,
  "ved": 3135,
  "Good": 3136,
  "CT": 3137,
  "Fil": 3138,
  "NBC": 3139,
  "Tour": 3140,
  "wh": 3141,
  "zhǒu": 3142,
  "sha": 3143,
  "204": 3144,
  "238": 3145,
  "aurus": 3146,
  "Production": 3147,
  "BB": 3148,
  "Cra": 3149,
  "Gal": 3150,
  "Hall": 3151,
  "Sci": 3152,
  "nal": 3153,
  "oi": 3154,
  "yn": 3155,
  "vision": 3156,
  "Video": 3157,
  "Gala": 3158,
  "GT": 3159,
  "O2": 3160,
  "lē": 3161,
  "pm": 3162,
  "ue": 3163,
  "σ": 3164,
  "mited": 3165,
  "orts": 3166,
  "ino": 3167,
  "tions": 3168,
  "Eli": 3169,
  "PR": 3170,
  "Sky": 3171,
  "tal": 3172,
  "206": 3173,
  "lea": 3174,
  "qui": 3175,
  "mac": 3176,
  "460": 3177,
  "ab": 3178,
  "mal": 3179,
  "win": 3180,
  "1814": 3181,
  "org": 3182,
  "218": 3183,
  "ani": 3184,
  "fra": 3185,
  "eries": 3186,
  "Richard": 3187,
  "SI": 3188,
  "lti": 3189,
  "war": 3190,
  "chǔn": 3191,
  "rich": 3192,
  "ange": 3193,
  "IGN": 3194,
  "Act": 3195,
  "LD": 3196,
  "pic": 3198,
  "Boy": 3199,
  "Far": 3200,
  "Tur": 3201,
  "WS": 3202,
  "π": 3203,
  "def": 3204,
  "1847": 3205,
  "154": 3206,
  "turn": 3207,
  "580": 3208,
  "Ama": 3209,
  "FF": 3210,
  "bun": 3211,
  "ep": 3212,
  "fri": 3213,
  "led": 3214,
  "1843": 3215,
  "mann": 3216,
  "Best": 3217,
  "phy": 3218,
  "System": 3219,
  "ptr": 3220,
  "430": 3221,
  "Mas": 3222,
  "MBC": 3223,
  "Plan": 3224,
  "zz": 3225,
  "177": 3226,
  "401": 3227,
  "chem": 3228,
  "410": 3229,
  "Bel": 3230,
  "Sal": 3231,
  "シ": 3232,
  "NFL": 3233,
  "ViuTV": 3234,
  "Switch": 3235,
  "Wo": 3236,
  "king": 3237,
  "163": 3238,
  "AMD": 3239,
  "API": 3240,
  "West": 3241,
  "Japan": 3242,
  "ICO": 3243,
  "bar": 3244,
  "bus": 3245,
  "up": 3246,
  "ments": 3247,
  "1852": 3248,
  "162": 3249,
  "thon": 3250,
  "esti": 3251,
  "Christ": 3252,
  "cript": 3253,
  "VII": 3254,
  "1820": 3255,
  "orn": 3256,
  "get": 3257,
  "this": 3258,
  "く": 3259,
  "Max": 3260,
  "Fre": 3261,
  "Prin": 3262,
  "cil": 3263,
  "142": 3264,
  "234": 3265,
  "ria": 3266,
  "Roy": 3267,
  "VR": 3268,
  "172": 3269,
  "お": 3270,
  "さ": 3271,
  "Records": 3272,
  "640": 3273,
  "Dan": 3274,
  "Squ": 3275,
  "Vir": 3276,
  "wood": 3277,
  "169": 3278,
  "3500": 3279,
  "Limited": 3280,
  "Core": 3281,
  "KC": 3282,
  "T1": 3283,
  "gs": 3284,
  "phi": 3285,
  "±": 3286,
  "1839": 3287,
  "ars": 3288,
  "232": 3289,
  "data": 3290,
  "480": 3291,
  "CM": 3292,
  "cī": 3293,
  "179": 3294,
  "thi": 3295,
  "cade": 3296,
  "ful": 3297,
  "2030": 3298,
  "eni": 3299,
  "149": 3300,
  "max": 3301,
  "365": 3302,
  "Institu": 3303,
  "How": 3304,
  "var": 3305,
  "1821": 3306,
  "ロ": 3307,
  "み": 3308,
  "Cha": 3309,
  "aya": 3310,
  "Unicode": 3311,
  "ROM": 3312,
  "CCTV": 3313,
  "390": 3314,
  "BU": 3315,
  "Res": 3316,
  "Vol": 3317,
  "XP": 3318,
  "ness": 3319,
  "tv": 3320,
  "306": 3321,
  "alo": 3322,
  "222": 3323,
  "601": 3324,
  "unch": 3325,
  "Fan": 3326,
  "tube": 3327,
  "173": 3328,
  "itch": 3329,
  "Bob": 3330,
  "EA": 3331,
  "PF": 3332,
  "247": 3333,
  "ital": 3334,
  "Camp": 3335,
  "KK": 3336,
  "lian": 3337,
  "ping": 3338,
  "1790": 3339,
  "ders": 3340,
  "211": 3341,
  "560": 3342,
  "Fun": 3343,
  "OH": 3344,
  "SN": 3345,
  "kh": 3346,
  "wid": 3347,
  "ord": 3348,
  "レ": 3349,
  "ciation": 3350,
  "BF": 3351,
  "Es": 3352,
  "Top": 3353,
  "VM": 3354,
  "tran": 3355,
  "Force": 3356,
  "Hot": 3357,
  "MU": 3358,
  "PD": 3359,
  "PH": 3360,
  "Sir": 3361,
  "shuǎ": 3362,
  "183": 3363,
  "1795": 3364,
  "303": 3365,
  "rew": 3366,
  "○": 3367,
  "use": 3368,
  "lum": 3369,
  "233": 3370,
  "search": 3371,
  "ち": 3372,
  "1801": 3373,
  "213": 3374,
  "Tok": 3375,
  "wèng": 3376,
  "マ": 3377,
  "USB": 3378,
  "dra": 3379,
  "sub": 3380,
  "174": 3381,
  "run": 3382,
  "Mag": 3383,
  "MVP": 3384,
  "CK": 3385,
  "lli": 3386,
  "zon": 3387,
  "ρ": 3388,
  "186": 3391,
  "1838": 3392,
  "ors": 3393,
  "Store": 3394,
  "key": 3395,
  "Heart": 3396,
  "Direct": 3397,
  "520": 3398,
  "Bank": 3399,
  "DDR": 3400,
  "Glo": 3401,
  "Zi": 3402,
  "zy": 3403,
  "mily": 3404,
  "cker": 3405,
  "Jean": 3406,
  "610": 3407,
  "Fle": 3408,
  "iPad": 3409,
  "rǒng": 3410,
  "bile": 3411,
  "161": 3412,
  "501": 3413,
  "ド": 3414,
  "Home": 3415,
  "http": 3416,
  "224": 3417,
  "CF": 3418,
  "Pen": 3419,
  "ele": 3420,
  "mg": 3421,
  "sur": 3422,
  "tia": 3423,
  "1813": 3424,
  "ら": 3425,
  "Phil": 3426,
  "GE": 3427,
  "Lon": 3428,
  "kin": 3429,
  "tz": 3430,
  "τ": 3431,
  "ense": 3432,
  "182": 3433,
  "1832": 3434,
  "1842": 3435,
  "lation": 3436,
  "255": 3437,
  "its": 3438,
  "Society": 3439,
  "AE": 3440,
  "Gold": 3441,
  "Han": 3442,
  "Sco": 3443,
  "fter": 3444,
  "iPhone": 3445,
  "184": 3446,
  "カ": 3447,
  "los": 3448,
  "Mini": 3449,
  "Data": 3450,
  "720": 3451,
  "KI": 3452,
  "Script": 3453,
  "dd": 3454,
  "ise": 3455,
  "1836": 3457,
  "late": 3458,
  "1793": 3459,
  "オ": 3460,
  "Comic": 3461,
  "ving": 3462,
  "Muse": 3463,
  "KiHa": 3464,
  "buntu": 3465,
  "221": 3466,
  "Cri": 3467,
  "Dr": 3468,
  "HBO": 3469,
  "MT": 3470,
  "Mel": 3471,
  "Tun": 3472,
  "gre": 3473,
  "hǒu": 3474,
  "tian": 3475,
  "1833": 3476,
  "nity": 3477,
  "1789": 3478,
  "tics": 3479,
  "River": 3480,
  "ount": 3481,
  "https": 3482,
  "Association": 3483,
  "Galaxy": 3484,
  "Bay": 3485,
  "DAM": 3486,
  "M4": 3487,
  "QQ": 3488,
  "cl": 3489,
  "fin": 3490,
  "nga": 3491,
  "ties": 3492,
  "1835": 3493,
  "151": 3494,
  "tho": 3495,
  "タ": 3496,
  "ady": 3497,
  "219": 3498,
  "217": 3499,
  "338": 3500,
  "Cry": 3501,
  "FT": 3502,
  "JYP": 3503,
  "Rap": 3504,
  "SR": 3505,
  "Ubuntu": 3506,
  "WA": 3507,
  "fy": 3508,
  "lon": 3509,
  "shang": 3511,
  "‰": 3512,
  "tha": 3513,
  "Martin": 3514,
  "1804": 3515,
  "ONE": 3516,
  "CEO": 3517,
  "width": 3518,
  "470": 3519,
  "740": 3520,
  "830": 3521,
  "nt": 3522,
  "light": 3523,
  "form": 3524,
  "Tom": 3525,
  "Henry": 3526,
  "League": 3527,
  "YG": 3528,
  "dro": 3529,
  "well": 3530,
  "ς": 3531,
  "д": 3532,
  "Champi": 3534,
  "Master": 3535,
  "Gener": 3536,
  "Ear": 3537,
  "Fra": 3538,
  "LINE": 3539,
  "Phi": 3540,
  "Vil": 3541,
  "gà": 3542,
  "uni": 3543,
  "ν": 3544,
  "chel": 3545,
  "mus": 3546,
  "amer": 3547,
  "top": 3548,
  "ART": 3549,
  "Green": 3550,
  "ville": 3551,
  "212": 3552,
  "DK": 3553,
  "cti": 3554,
  "has": 3555,
  "nm": 3556,
  "у": 3557,
  "less": 3558,
  "1828": 3559,
  "コ": 3560,
  "oper": 3561,
  "APAN": 3562,
  "rown": 3563,
  "Dy": 3564,
  "Dou": 3565,
  "FR": 3566,
  "Mana": 3567,
  "Night": 3568,
  "Pin": 3569,
  "ag": 3570,
  "har": 3571,
  "oni": 3572,
  "191": 3573,
  "dit": 3574,
  "302": 3575,
  "table": 3576,
  "Billboard": 3577,
  "Office": 3578,
  "680": 3579,
  "Br": 3580,
  "Bal": 3581,
  "Jan": 3582,
  "MHz": 3583,
  "PI": 3584,
  "SNH": 3585,
  "ban": 3586,
  "bro": 3587,
  "kar": 3588,
  "ι": 3589,
  "181": 3590,
  "1624": 3591,
  "sts": 3592,
  "237": 3593,
  "side": 3594,
  "main": 3595,
  "る": 3596,
  "China": 3597,
  "Code": 3598,
  "Young": 3599,
  "cond": 3600,
  "Note": 3601,
  "Joseph": 3602,
  "SNH48": 3603,
  "Bir": 3604,
  "Des": 3605,
  "FDA": 3606,
  "JAPAN": 3607,
  "Ob": 3608,
  "PK": 3609,
  "1644": 3612,
  "308": 3613,
  "ston": 3614,
  "Stra": 3615,
  "COM": 3616,
  "tical": 3617,
  "Pala": 3618,
  "440": 3619,
  "DB": 3620,
  "GR": 3621,
  "Van": 3622,
  "hun": 3623,
  "tuí": 3624,
  "10000": 3625,
  "1837": 3626,
  "239": 3627,
  "than": 3628,
  "rick": 3629,
  "1806": 3630,
  "Long": 3631,
  "Song": 3632,
  "United": 3633,
  "Part": 3634,
  "macOS": 3635,
  "CV": 3636,
  "East": 3637,
  "MW": 3638,
  "U21": 3639,
  "â": 3640,
  "î": 3641,
  "δ": 3642,
  "1819": 3645,
  "299": 3646,
  "346": 3647,
  "HTML": 3648,
  "annel": 3649,
  "780": 3650,
  "Hill": 3651,
  "Tw": 3652,
  "Ten": 3653,
  "Talk": 3654,
  "jo": 3655,
  "port": 3656,
  "1825": 3657,
  "245": 3658,
  "236": 3659,
  "505": 3660,
  "279": 3661,
  "に": 3662,
  "Radio": 3663,
  "Digital": 3664,
  "540": 3665,
  "Down": 3666,
  "EV": 3667,
  "H5": 3668,
  "Ji": 3669,
  "rpm": 3670,
  "wn": 3671,
  "lic": 3672,
  "chòng": 3673,
  "sian": 3674,
  "ella": 3675,
  "News": 3676,
  "325": 3677,
  "Cat": 3678,
  "Pas": 3679,
  "001": 3680,
  "1776": 3681,
  "right": 3682,
  "じ": 3683,
  "long": 3684,
  "but": 3685,
  "dent": 3686,
  "NCAA": 3687,
  "Server": 3688,
  "FAT": 3689,
  "Sil": 3690,
  "1818": 3691,
  "265": 3692,
  "こ": 3693,
  "ned": 3694,
  "Que": 3695,
  "Hello": 3696,
  "Ban": 3697,
  "Bru": 3698,
  "Dri": 3699,
  "Nu": 3700,
  "Ven": 3701,
  "Wat": 3702,
  "1824": 3703,
  "1831": 3704,
  "2027": 3705,
  "Cho": 3706,
  "Hist": 3707,
  "Kong": 3708,
  "Em": 3709,
  "GS": 3710,
  "RPG": 3711,
  "pr": 3712,
  "ç": 3713,
  "ô": 3714,
  "tum": 3715,
  "med": 3716,
  "386": 3717,
  "Child": 3718,
  "Service": 3719,
  "Ⅱ": 3720,
  "UM": 3721,
  "bet": 3722,
  "hur": 3723,
  "sual": 3724,
  "rome": 3725,
  "via": 3726,
  "BSD": 3727,
  "Frank": 3728,
  "Island": 3729,
  "Python": 3730,
  "public": 3731,
  "Science": 3732,
  "1A": 3733,
  "Blue": 3734,
  "CW": 3735,
  "Fore": 3736,
  "XML": 3737,
  "clo": 3738,
  "λ": 3739,
  "275": 3740,
  "2700": 3741,
  "anda": 3742,
  "Youtube": 3743,
  "Jump": 3744,
  "Edward": 3745,
  "Under": 3746,
  "White": 3747,
  "312": 3748,
  "5G": 3749,
  "730": 3750,
  "Bor": 3751,
  "First": 3752,
  "Grand": 3753,
  "HL": 3754,
  "OM": 3755,
  "Poly": 3756,
  "TBS": 3757,
  "hāo": 3758,
  "nes": 3759,
  "rey": 3760,
  "264": 3761,
  "295": 3762,
  "1802": 3763,
  "BLUE": 3764,
  "Institute": 3765,
  "Champion": 3766,
  "630": 3767,
  "Hor": 3768,
  "Out": 3769,
  "Sum": 3770,
  "TM": 3771,
  "ben": 3772,
  "fun": 3773,
  "sus": 3774,
  "1822": 3775,
  "niē": 3776,
  "288": 3777,
  "ration": 3778,
  "ジ": 3779,
  "aka": 3780,
  "Envi": 3781,
  "Cas": 3782,
  "Lan": 3783,
  "Les": 3784,
  "Os": 3785,
  "other": 3786,
  "plo": 3787,
  "pop": 3788,
  "ل": 3789,
  "list": 3790,
  "lang": 3791,
  "ared": 3792,
  "244": 3793,
  "フ": 3794,
  "vate": 3795,
  "ITF": 3796,
  "2D": 3797,
  "Gro": 3798,
  "JT": 3799,
  "Sof": 3800,
  "cent": 3801,
  "em": 3802,
  "xel": 3803,
  "launch": 3804,
  "249": 3805,
  "903": 3806,
  "North": 3807,
  "Square": 3808,
  "OT": 3809,
  "PID": 3810,
  "Series": 3811,
  "ul": 3812,
  "zation": 3813,
  "š": 3814,
  "243": 3815,
  "2800": 3816,
  "Your": 3817,
  "Hong": 3818,
  "This": 3819,
  "Cup": 3820,
  "FX": 3821,
  "Lang": 3822,
  "NP": 3823,
  "__": 3824,
  "hr": 3825,
  "1810": 3826,
  "1622": 3827,
  "1792": 3828,
  "307": 3829,
  "return": 3830,
  "tas": 3831,
  "701": 3832,
  "SARS": 3833,
  "POP": 3834,
  "Techn": 3835,
  "960": 3836,
  "Cur": 3837,
  "Ham": 3838,
  "Ray": 3839,
  "Sig": 3840,
  "SHO": 3841,
  "VV": 3842,
  "ob": 3843,
  "pǎi": 3844,
  "vy": 3845,
  "ε": 3846,
  "1650": 3847,
  "801": 3848,
  "view": 3849,
  "Network": 3850,
  "MIUI": 3851,
  "burg": 3852,
  "Tunes": 3853,
  "2100": 3854,
  "Pal": 3855,
  "Ur": 3856,
  "part": 3857,
  "м": 3858,
  "1826": 3859,
  "anti": 3860,
  "1573": 3861,
  "oud": 3862,
  "ason": 3863,
  "cing": 3864,
  "have": 3865,
  "747": 3866,
  "Cle": 3867,
  "Jour": 3868,
  "imp": 3869,
  "tual": 3870,
  "1834": 3871,
  "304": 3872,
  "ould": 3873,
  "226": 3874,
  "278": 3875,
  "lta": 3876,
  "ミ": 3877,
  "も": 3878,
  "375": 3879,
  "add": 3880,
  "1805": 3881,
  "ACT": 3882,
  "APP": 3883,
  "AIR": 3884,
  "ologi": 3885,
  "Block": 3886,
  "HA": 3887,
  "Ly": 3888,
  "Yo": 3889,
  "hel": 3890,
  "ii": 3891,
  "rd": 3892,
  "chen": 3893,
  "007": 3894,
  "oro": 3895,
  "296": 3896,
  "298": 3897,
  "sig": 3898,
  "385": 3899,
  "ATA": 3900,
  "Model": 3901,
  "gain": 3902,
  "Dani": 3903,
  "Studi": 3904,
  "335": 3905,
  "590": 3906,
  "9000": 3907,
  "CU": 3908,
  "Now": 3909,
  "Ry": 3910,
  "Ram": 3911,
  "WN": 3912,
  "ml": 3913,
  "non": 3914,
  "oc": 3915,
  "ω": 3916,
  "ork": 3918,
  "1780": 3919,
  "ress": 3920,
  "227": 3921,
  "ム": 3922,
  "olf": 3923,
  "map": 3924,
  "May": 3925,
  "Real": 3926,
  "Sports": 3927,
  "dings": 3928,
  "IFA": 3929,
  "315": 3930,
  "Gil": 3931,
  "Jon": 3932,
  "Op": 3933,
  "Sc": 3934,
  "had": 3935,
  "iTunes": 3936,
  "ken": 3937,
  "»": 3938,
  "251": 3939,
  "ough": 3940,
  "277": 3941,
  "ato": 3942,
  "oney": 3943,
  "CNN": 3944,
  "2A": 3945,
  "Dar": 3946,
  "Gran": 3947,
  "Over": 3948,
  "Ren": 3949,
  "Rus": 3950,
  "RFC": 3951,
  "pH": 3952,
  "zine": 3953,
  "1582": 3954,
  "1799": 3955,
  "259": 3956,
  "246": 3957,
  "248": 3958,
  "1809": 3959,
  "Internet": 3960,
  "South": 3961,
  "Engine": 3962,
  "4G": 3963,
  "530": 3964,
  "C2": 3965,
  "DLC": 3966,
  "Sm": 3967,
  "gèn": 3968,
  "sǎng": 3969,
  "sin": 3970,
  "«": 3971,
  "lio": 3972,
  "1823": 3973,
  "ander": 3974,
  "1621": 3975,
  "272": 3976,
  "rum": 3977,
  "405": 3978,
  "ATION": 3979,
  "tware": 3980,
  "1803": 3981,
  "dae": 3982,
  "State": 3983,
  "stems": 3984,
  "EEE": 3985,
  "press": 3986,
  "334": 3987,
  "620": 3988,
  "770": 3989,
  "Class": 3990,
  "SG": 3991,
  "dition": 3992,
  "lution": 3993,
  "1625": 3994,
  "ges": 3995,
  "284": 3996,
  "285": 3997,
  "サ": 3998,
  "Auto": 3999,
  "Publi": 4000,
  "311": 4001,
  "880": 4002,
  "Dot": 4003,
  "Kh": 4004,
  "Sony": 4005,
  "VI": 4006,
  "É": 4007,
  "258": 4009,
  "276": 4010,
  "cur": 4011,
  "が": 4012,
  "Alf": 4013,
  "Mobile": 4014,
  "Bus": 4015,
  "KO": 4016,
  "Oper": 4017,
  "Sw": 4018,
  "Way": 4019,
  "XT": 4020,
  "pres": 4021,
  "253": 4023,
  "aly": 4024,
  "357": 4025,
  "num": 4026,
  "Maria": 4027,
  "Moon": 4028,
  "Wii": 4029,
  "Pier": 4030,
  "660": 4031,
  "Cli": 4032,
  "Get": 4033,
  "NM": 4034,
  "SV": 4035,
  "UL": 4036,
  "sm": 4037,
  "й": 4038,
  "dian": 4039,
  "プ": 4040,
  "cks": 4041,
  "STA": 4042,
  "IPv": 4043,
  "Unix": 4044,
  "What": 4045,
  "Europe": 4046,
  "570": 4047,
  "Cer": 4048,
  "U19": 4049,
  "WF": 4050,
  "ee": 4051,
  "mor": 4052,
  "г": 4053,
  "tuān": 4054,
  "1827": 4055,
  "1570": 4056,
  "あ": 4057,
  "gazine": 4058,
  "Beau": 4059,
  "Link": 4060,
  "velop": 4061,
  "Book": 4062,
  "Trans": 4063,
  "314": 4064,
  "3DS": 4065,
  "690": 4066,
  "Bre": 4067,
  "BBS": 4068,
  "C6": 4069,
  "DSM": 4070,
  "IEEE": 4071,
  "Men": 4072,
  "SB": 4073,
  "Sound": 4074,
  "WWE": 4075,
  "more": 4076,
  "1817": 4077,
  "1640": 4078,
  "1636": 4079,
  "268": 4080,
  "402": 4081,
  "404": 4082,
  "は": 4083,
  "Regi": 4084,
  "Rain": 4085,
  "which": 4086,
  "AX": 4087,
  "Gri": 4088,
  "blo": 4089,
  "ini": 4090,
  "nor": 4091,
  "nger": 4092,
  "laris": 4093,
  "1775": 4094,
  "254": 4095,
  "ters": 4096,
  "465": 4097,
  "Medi": 4098,
  "Die": 4099,
  "Tik": 4100,
  "Francis": 4101,
  "Commu": 4102,
  "323": 4103,
  "Ath": 4104,
  "Cir": 4105,
  "HP": 4106,
  "OP": 4107,
  "kāo": 4108,
  "1750": 4109,
  "309": 4110,
  "oom": 4111,
  "ople": 4112,
  "Joy": 4113,
  "fic": 4114,
  "329": 4115,
  "670": 4116,
  "Dol": 4117,
  "End": 4118,
  "Plus": 4119,
  "bon": 4120,
  "pur": 4121,
  "shing": 4122,
  "guāi": 4123,
  "1816": 4124,
  "pin": 4125,
  "lai": 4126,
  "fore": 4127,
  "チ": 4128,
  "ィ": 4129,
  "4500": 4130,
  "Channel": 4131,
  "cast": 4132,
  "ings": 4133,
  "CON": 4134,
  "peri": 4135,
  "TOP": 4136,
  "Cube": 4137,
  "Louis": 4138,
  ".-": 4139,
  "710": 4140,
  "910": 4141,
  "950": 4142,
  "DI": 4143,
  "Imp": 4144,
  "Lit": 4145,
  "MK": 4146,
  "Tro": 4147,
  "ome": 4148,
  "dea": 4149,
  "pital": 4150,
  "lam": 4151,
  "arr": 4152,
  "241": 4153,
  "2300": 4154,
  "Research": 4155,
  "ISBN": 4156,
  "field": 4157,
  "Poli": 4158,
  "Film": 4159,
  "tvN": 4160,
  "326": 4161,
  "Asia": 4162,
  "Bou": 4163,
  "Cam": 4164,
  "Clo": 4165,
  "PT": 4166,
  "T2": 4167,
  "ice": 4168,
  "rch": 4169,
  "try": 4170,
  "�": 4171,
  "1592": 4172,
  "347": 4173,
  "758": 4174,
  "Stand": 4175,
  "model": 4176,
  "Ara": 4177,
  "Bon": 4178,
  "DT": 4179,
  "Lis": 4180,
  "1628": 4181,
  "1788": 4182,
  "252": 4183,
  "242": 4184,
  "269": 4185,
  "ニ": 4186,
  "andy": 4187,
  "Leon": 4188,
  "Victor": 4189,
  "Law": 4190,
  "ffer": 4191,
  "fea": 4192,
  "tural": 4193,
  "318": 4194,
  "336": 4195,
  "978": 4196,
  "Ado": 4197,
  "CB": 4198,
  "DL": 4199,
  "Den": 4200,
  "Festi": 4201,
  "Jen": 4202,
  "Mal": 4203,
  "MUS": 4204,
  "N2": 4205,
  "O3": 4206,
  "Tan": 4207,
  "Tre": 4208,
  "char": 4210,
  "biē": 4211,
  "1627": 4212,
  "1783": 4213,
  "1791": 4214,
  "alth": 4215,
  "289": 4216,
  "ros": 4217,
  "406": 4218,
  "ced": 4219,
  "354": 4220,
  "INN": 4221,
  "Comm": 4222,
  "Stan": 4223,
  "app": 4224,
  "Vista": 4225,
  "gic": 4226,
  "Pixel": 4227,
  "Disney": 4228,
  "□": 4229,
  "Acade": 4230,
  "Cour": 4231,
  "EL": 4232,
  "F4": 4233,
  "IB": 4234,
  "LAN": 4235,
  "LTE": 4236,
  "OF": 4237,
  "ich": 4238,
  "pā": 4239,
  "tre": 4240,
  "1797": 4241,
  "［": 4242,
  "］": 4243,
  "Mach": 4244,
  "556": 4245,
  "Beat": 4246,
  "aker": 4247,
  "Software": 4248,
  "Ange": 4249,
  "DMS": 4250,
  "TH": 4251,
  "his": 4252,
  "nǎn": 4253,
  "1779": 4254,
  "1796": 4255,
  "test": 4256,
  "607": 4257,
  "つ": 4258,
  "だ": 4259,
  "352": 4260,
  "Mary": 4261,
  "1808": 4262,
  "ERT": 4263,
  "km2": 4264,
  "Nico": 4265,
  "NCT": 4266,
  "Alice": 4267,
  "⋯": 4268,
  "321": 4269,
  "337": 4270,
  "A4": 4271,
  "Ami": 4272,
  "Sor": 4273,
  "T3": 4274,
  "cs": 4275,
  "gis": 4276,
  "ung": 4277,
  "huàng": 4278,
  "tude": 4279,
  "1829": 4280,
  "1778": 4281,
  "1794": 4282,
  "283": 4283,
  "273": 4284,
  "ャ": 4285,
  "バ": 4286,
  "エ": 4287,
  "cky": 4288,
  "Visual": 4289,
  "inese": 4290,
  "YouTuber": 4291,
  "ASC": 4292,
  "Works": 4293,
  "Elect": 4294,
  "Battle": 4295,
  "313": 4296,
  "510": 4297,
  "840": 4298,
  "860": 4299,
  "Foot": 4300,
  "Mnet": 4301,
  "Pho": 4302,
  "llo": 4303,
  "pat": 4304,
  "vet": 4305,
  "vance": 4306,
  "ñ": 4307,
  "θ": 4308,
  "shuǎi": 4309,
  "nica": 4310,
  "night": 4311,
  "1798": 4312,
  "formation": 4313,
  "て": 4314,
  "456": 4315,
  "372": 4316,
  "Johan": 4317,
  "ECT": 4318,
  "system": 4319,
  "Special": 4320,
  "Awards": 4321,
  "448": 4322,
  "870": 4323,
  "Blu": 4324,
  "MF": 4325,
  "Pay": 4326,
  "io": 4327,
  "ror": 4328,
  "sca": 4329,
  "1580": 4330,
  "1612": 4331,
  "1634": 4332,
  "1787": 4333,
  "281": 4334,
  "267": 4335,
  "デ": 4336,
  "mad": 4337,
  "っ": 4338,
  "ウ": 4339,
  "nus": 4340,
  "lost": 4341,
  "mmy": 4342,
  "web": 4343,
  "Premi": 4344,
  "Royal": 4345,
  "Global": 4346,
  "911": 4347,
  "DG": 4348,
  "Fro": 4349,
  "Mis": 4350,
  "Oli": 4351,
  "Set": 4352,
  "TN": 4353,
  "WO": 4354,
  "dor": 4355,
  "ev": 4356,
  "fla": 4357,
  "shǎi": 4359,
  "hus": 4360,
  "mina": 4361,
  "1567": 4362,
  "1648": 4363,
  "alle": 4364,
  "271": 4365,
  "tech": 4366,
  "ltra": 4367,
  "Arts": 4368,
  "ffe": 4369,
  "BOX": 4370,
  "Enviro": 4371,
  "AH": 4372,
  "E3": 4373,
  "Lam": 4374,
  "MM": 4375,
  "Mur": 4376,
  "York": 4377,
  "sor": 4378,
  "chuō": 4379,
  "262": 4380,
  "tai": 4381,
  "367": 4382,
  "vest": 4383,
  "pedia": 4384,
  "OSHI": 4385,
  "Prof": 4386,
  "const": 4387,
  "ACE": 4388,
  "ENT": 4389,
  "AGA": 4390,
  "Great": 4391,
  "TikTok": 4392,
  "-&": 4393,
  "322": 4394,
  "Ah": 4395,
  "MON": 4396,
  "Not": 4397,
  "OTT": 4398,
  "Spo": 4399,
  "VB": 4400,
  "bian": 4401,
  "1550": 4402,
  "1568": 4403,
  "ont": 4404,
  "1615": 4405,
  "1630": 4406,
  "286": 4407,
  "ブ": 4408,
  "Magazine": 4409,
  "vern": 4410,
  "CH3": 4411,
  "Compu": 4412,
  "Museum": 4413,
  "Daniel": 4414,
  "Festival": 4415,
  "Brown": 4416,
  "Cru": 4417,
  "CAS": 4418,
  "Dark": 4419,
  "FBI": 4420,
  "LG": 4421,
  "Sau": 4422,
  "SIG": 4423,
  "USA": 4424,
  "stu": 4425,
  "piē": 4426,
  "1645": 4427,
  "1646": 4428,
  "read": 4429,
  "zháo": 4430,
  "キ": 4431,
  "333": 4432,
  "COLL": 4433,
  "ARD": 4434,
  "Secre": 4435,
  "stein": 4436,
  "Encore": 4437,
  "tures": 4438,
  "world": 4439,
  "Online": 4440,
  "Cloud": 4441,
  "MUSIC": 4442,
  "Hun": 4443,
  "Lar": 4444,
  "Let": 4445,
  "cas": 4446,
  "over": 4447,
  "tan": 4448,
  "ر": 4449,
  "1626": 4450,
  "stal": 4451,
  "261": 4452,
  "297": 4453,
  "355": 4454,
  "Chinese": 4455,
  "stea": 4456,
  "Kim": 4457,
  "328": 4458,
  "820": 4459,
  "Gor": 4460,
  "Has": 4461,
  "PRO": 4462,
  "S2": 4463,
  "Tou": 4464,
  "gal": 4465,
  "oli": 4466,
  "sǒu": 4467,
  "sco": 4468,
  "ques": 4469,
  "1637": 4470,
  "2400": 4471,
  "705": 4472,
  "901": 4473,
  "364": 4474,
  "384": 4475,
  "378": 4476,
  "vey": 4477,
  "442": 4478,
  "hai": 4479,
  "cono": 4480,
  "Point": 4481,
  "VIDIA": 4482,
  "General": 4483,
  "618": 4484,
  "AU": 4485,
  "CBC": 4486,
  "HB": 4487,
  "NVIDIA": 4488,
  "T48": 4489,
  "ale": 4490,
  "tr": 4491,
  "С": 4492,
  "ы": 4493,
  "1610": 4494,
  "1642": 4495,
  "257": 4496,
  "282": 4497,
  "thing": 4498,
  "2600": 4499,
  "Mad": 4500,
  "Stadium": 4501,
  "1609": 4502,
  "ality": 4503,
  "stern": 4504,
  "Exp": 4505,
  "God": 4506,
  "Redmi": 4507,
  "Year": 4508,
  "Adobe": 4509,
  "760": 4510,
  "767": 4511,
  "CAN": 4512,
  "Gol": 4513,
  "Il": 4514,
  "O4": 4515,
  "Ome": 4516,
  "U17": 4517,
  "VC": 4518,
  "bas": 4519,
  "bps": 4520,
  "jor": 4521,
  "sk": 4522,
  "sche": 4523,
  "ь": 4524,
  "deon": 4525,
  "nior": 4526,
  "1585": 4527,
  "1583": 4528,
  "hèng": 4529,
  "や": 4530,
  "583": 4531,
  "ctory": 4532,
  "1807": 4533,
  "ARM": 4534,
  "TeX": 4535,
  "wiki": 4536,
  "thern": 4537,
  "Systems": 4538,
  "poration": 4539,
  "930": 4540,
  "Del": 4541,
  "FIFA": 4542,
  "JU": 4543,
  "KE": 4544,
  "OD": 4545,
  "Town": 4546,
  "Thun": 4547,
  "Who": 4548,
  "cto": 4549,
  "dou": 4550,
  "1623": 4551,
  "gel": 4552,
  "274": 4553,
  "size": 4554,
  "Anto": 4555,
  "Wiki": 4556,
  "﹑": 4557,
  "H2O": 4558,
  "trol": 4559,
  "Taiwan": 4560,
  "EOS": 4561,
  "FIN": 4562,
  "Ima": 4563,
  "IEC": 4564,
  "Kin": 4565,
  "Kid": 4566,
  "Tar": 4567,
  "Won": 4568,
  "ah": 4569,
  "cat": 4570,
  "esta": 4571,
  "ket": 4572,
  "tina": 4573,
  "1571": 4574,
  "1784": 4575,
  "263": 4576,
  "509": 4577,
  "293": 4578,
  "351": 4579,
  "osaurus": 4580,
  "999": 4581,
  "Deep": 4582,
  "mod": 4583,
  "value": 4584,
  "Archi": 4585,
  "Cast": 4586,
  "2200": 4587,
  "428": 4588,
  "AJ": 4589,
  "GUN": 4590,
  "Tay": 4591,
  "xx": 4592,
  "1620": 4593,
  "1723": 4594,
  "1786": 4595,
  "inte": 4596,
  "stre": 4597,
  "504": 4598,
  "lton": 4599,
  "ュ": 4600,
  "353": 4601,
  "395": 4602,
  "beth": 4603,
  "Solaris": 4604,
  "Post": 4605,
  "private": 4606,
  "Metro": 4607,
  "clol": 4608,
  "Manage": 4609,
  "DotA": 4610,
  "419": 4611,
  "432": 4612,
  "A3": 4613,
  "FN": 4614,
  "Fly": 4615,
  "GL": 4616,
  "Hap": 4617,
  "Ron": 4618,
  "bb": 4619,
  "cci": 4620,
  "card": 4621,
  "ctive": 4622,
  "pra": 4623,
  "1450": 4625,
  "curi": 4626,
  "す": 4627,
  "Chan": 4628,
  "vers": 4629,
  "Mike": 4630,
  "ource": 4631,
  "Key": 4632,
  "LOVE": 4633,
  "Market": 4634,
  "Studios": 4635,
  "Little": 4636,
  "427": 4637,
  "Band": 4638,
  "Cine": 4639,
  "FE": 4640,
  "HIV": 4641,
  "K6": 4642,
  "Line": 4643,
  "Rou": 4644,
  "VPN": 4645,
  "zè": 4646,
  "č": 4647,
  "like": 4648,
  "zilla": 4649,
  "1577": 4650,
  "1618": 4651,
  "1643": 4652,
  "rop": 4653,
  "sey": 4654,
  "387": 4655,
  "399": 4656,
  "cts": 4657,
  "ellow": 4658,
  "ountain": 4659,
  "Fleet": 4660,
  "Technology": 4661,
  "317": 4662,
  "331": 4663,
  "345": 4664,
  "512": 4665,
  "565": 4666,
  "H1": 4667,
  "MY": 4668,
  "R2": 4669,
  "S1": 4670,
  "U18": 4671,
  "USS": 4672,
  "Ultra": 4673,
  "bes": 4674,
  "gg": 4675,
  "lū": 4676,
  "я": 4677,
  "1586": 4678,
  "lau": 4679,
  "1777": 4680,
  "1453": 4681,
  "into": 4682,
  "sty": 4683,
  "stan": 4684,
  "sit": 4685,
  "806": 4686,
  "base": 4687,
  "CDMA": 4688,
  "Stage": 4689,
  "Radeon": 4690,
  "aki": 4691,
  "Union": 4692,
  "ALL": 4693,
  "Valve": 4694,
  "Children": 4695,
  "Secret": 4696,
  "327": 4697,
  "411": 4698,
  "490": 4699,
  "445": 4700,
  "446": 4701,
  "535": 4702,
  "Alt": 4703,
  "Aven": 4704,
  "FI": 4705,
  "Found": 4706,
  "Land": 4707,
  "Mid": 4708,
  "M87": 4709,
  "U23": 4710,
  "Will": 4711,
  "WOR": 4712,
  "ola": 4713,
  "rstea": 4714,
  "yer": 4715,
  "ê": 4716,
  "cht": 4717,
  "endo": 4718,
  "1521": 4719,
  "1765": 4720,
  "1774": 4721,
  "sible": 4722,
  "cel": 4723,
  "second": 4724,
  "398": 4725,
  "499": 4726,
  "ook": 4727,
  "Para": 4728,
  "With": 4729,
  "Junior": 4730,
  "Adam": 4731,
  "BMW": 4732,
  "mond": 4733,
  "Fried": 4734,
  "Centre": 4735,
  "where": 4736,
  "Philip": 4737,
  "Academy": 4738,
  "416": 4739,
  "Crea": 4740,
  "EMI": 4741,
  "HTC": 4742,
  "KB": 4743,
  "Sche": 4744,
  "Soft": 4745,
  "TW": 4746,
  "bat": 4747,
  "rent": 4748,
  "mia": 4749,
  "1616": 4750,
  "cul": 4751,
  "707": 4752,
  "ily": 4753,
  "teri": 4754,
  "369": 4755,
  "397": 4756,
  "Mau": 4757,
  "verse": 4758,
  "Joe": 4759,
  "States": 4760,
  "Multi": 4761,
  "Wire": 4762,
  "Niko": 4763,
  "GPU": 4764,
  "bility": 4765,
  "Omega": 4766,
  "613": 4767,
  "Ari": 4768,
  "Cou": 4769,
  "NR": 4770,
  "Port": 4771,
  "WI": 4772,
  "ZA": 4773,
  "hau": 4774,
  "house": 4775,
  "pes": 4776,
  "η": 4777,
  "Δ": 4778,
  "А": 4779,
  "live": 4780,
  "1564": 4781,
  "1785": 4782,
  "368": 4783,
  "lot": 4784,
  "TVBS": 4785,
  "Mem": 4786,
  "Next": 4787,
  "Hea": 4788,
  "some": 4789,
  "Fire": 4790,
  "MySQL": 4791,
  "void": 4792,
  "Origin": 4793,
  "Amazon": 4794,
  "3C": 4795,
  "810": 4796,
  "BT": 4797,
  "Hon": 4798,
  "Jr": 4799,
  "Run": 4800,
  "Sti": 4801,
  "hl": 4802,
  "m3": 4803,
  "Д": 4804,
  "1662": 4805,
  "266": 4806,
  "291": 4807,
  "sist": 4808,
  "elle": 4809,
  "head": 4810,
  "588": 4811,
  "osa": 4812,
  "Distri": 4813,
  "Sub": 4814,
  "rough": 4815,
  "Base": 4816,
  "MOD": 4817,
  "volution": 4818,
  "chie": 4819,
  "Corporation": 4820,
  "M1A1": 4821,
  "ference": 4822,
  "mission": 4823,
  "velopment": 4824,
  "GUNDAM": 4825,
  "316": 4826,
  "537": 4827,
  "621": 4828,
  "742": 4829,
  "CI": 4830,
  "E48": 4831,
  "Eric": 4832,
  "Fo": 4833,
  "Fal": 4834,
  "Sin": 4835,
  "TI": 4836,
  "Wel": 4837,
  "ë": 4838,
  "ن": 4839,
  "anna": 4840,
  "1540": 4841,
  "1574": 4842,
  "1772": 4843,
  "std": 4844,
  "287": 4845,
  "tee": 4846,
  "605": 4847,
  "454": 4848,
  "388": 4849,
  "343": 4850,
  "open": 4851,
  "888": 4852,
  "Sund": 4853,
  "point": 4854,
  "Draw": 4855,
  "Church": 4856,
  "Alexander": 4857,
  "Cross": 4858,
  "Management": 4859,
  "425": 4860,
  "475": 4861,
  "Lady": 4862,
  "ND": 4863,
  "Other": 4864,
  "SW": 4865,
  "Sar": 4866,
  "cted": 4867,
  "káng": 4868,
  "kan": 4869,
  "vat": 4870,
  "were": 4871,
  "jia": 4872,
  "1250": 4873,
  "nico": 4874,
  "1619": 4875,
  "1629": 4876,
  "1683": 4877,
  "292": 4878,
  "363": 4879,
  "376": 4880,
  "STS": 4881,
  "552": 4882,
  "686": 4883,
  "ign": 4884,
  "Demo": 4885,
  "Arc": 4886,
  "Augu": 4887,
  "Cyclol": 4888,
  "London": 4889,
  "Scott": 4890,
  "627": 4891,
  "Bad": 4892,
  "BRT": 4893,
  "Der": 4894,
  "Dun": 4895,
  "FL": 4896,
  "Ir": 4897,
  "Kir": 4898,
  "MX": 4899,
  "Ora": 4900,
  "Sto": 4901,
  "Sara": 4902,
  "Tony": 4903,
  "hard": 4904,
  "tru": 4905,
  "б": 4906,
  "tish": 4907,
  "ally": 4908,
  "＂": 4909,
  "matic": 4910,
  "488": 4911,
  "ida": 4912,
  "Design": 4913,
  "phen": 4914,
  "Spot": 4915,
  "Spring": 4916,
  "Andrew": 4917,
  "449": 4919,
  "5A": 4920,
  "625": 4921,
  "738": 4922,
  "Fron": 4923,
  "HER": 4924,
  "Of": 4925,
  "PB": 4926,
  "Round": 4927,
  "VER": 4928,
  "ire": 4929,
  "und": 4930,
  "К": 4931,
  "shared": 4932,
  "1590": 4933,
  "1579": 4934,
  "1633": 4935,
  "ナ": 4936,
  "グ": 4937,
  "1507": 4938,
  "Beta": 4939,
  "Lake": 4940,
  "Simon": 4941,
  "CH2": 4942,
  "Cul": 4943,
  "Syn": 4944,
  "Animax": 4945,
  "Earth": 4946,
  "412": 4947,
  "Fort": 4948,
  "LF": 4949,
  "LM": 4950,
  "Sol": 4951,
  "Sca": 4952,
  "SON": 4953,
  "V8": 4954,
  "coun": 4955,
  "hāng": 4956,
  "tto": 4957,
  "п": 4958,
  "mir": 4960,
  "mix": 4961,
  "1631": 4962,
  "1680": 4963,
  "1773": 4964,
  "294": 4965,
  "407": 4966,
  "mate": 4967,
  "れ": 4968,
  "body": 4969,
  "396": 4970,
  "3300": 4971,
  "mple": 4972,
  "Sea": 4973,
  "1604": 4974,
  "Ander": 4975,
  "Party": 4976,
  "Hami": 4977,
  "Family": 4978,
  "PGA": 4979,
  "Angel": 4980,
  "Drive": 4981,
  "Journal": 4982,
  "980": 4983,
  "Ap": 4984,
  "Are": 4985,
  "C4": 4986,
  "Fold": 4987,
  "GC": 4988,
  "LR": 4989,
  "Pol": 4990,
  "cen": 4991,
  "nan": 4992,
  "ć": 4993,
  "ə": 4994,
  "nical": 4995,
  "1575": 4996,
  "1697": 4997,
  "1755": 4998,
  "1492": 4999,
  "sive": 5000,
  "cum": 5001,
  "805": 5002,
  "3600": 5003,
  "asa": 5004,
  "467": 5005,
  "471": 5006,
  "Def": 5007,
  "Neo": 5008,
  "mics": 5009,
  "﹐": 5010,
  "SKE48": 5011,
  "Dyna": 5012,
  "Summer": 5013,
  "Thunder": 5014,
  "0x": 5015,
  "319": 5016,
  "Epic": 5017,
  "Hal": 5018,
  "J2": 5019,
  "Kel": 5020,
  "Nar": 5021,
  "Swe": 5022,
  "XC": 5023,
  "fb": 5024,
  "hoo": 5025,
  "pan": 5026,
  "zen": 5027,
  "chy": 5028,
  "lion": 5029,
  "orig": 5030,
  "1561": 5031,
  "1589": 5032,
  "1595": 5033,
  "1781": 5034,
  "1465": 5035,
  "alan": 5036,
  "508": 5037,
  "テ": 5038,
  "ひ": 5039,
  "344": 5040,
  "589": 5041,
  "oph": 5042,
  "1603": 5043,
  "1606": 5044,
  "1607": 5045,
  "CNBLUE": 5046,
  "Ruby": 5047,
  "Council": 5048,
  "Christian": 5049,
  "print": 5050,
  "415": 5051,
  "855": 5052,
  "940": 5053,
  "970": 5054,
  "Cre": 5055,
  "Clar": 5056,
  "Kat": 5057,
  "Med": 5058,
  "Miss": 5059,
  "kes": 5060,
  "pos": 5061,
  "uage": 5062,
  "x86": 5063,
  "ø": 5064,
  "Å": 5065,
  "ß": 5066,
  "lina": 5068,
  "nio": 5069,
  "1522": 5070,
  "1526": 5071,
  "1556": 5072,
  "1613": 5073,
  "1660": 5074,
  "502": 5075,
  "506": 5076,
  "ダ": 5077,
  "tera": 5078,
  "377": 5079,
  "tos": 5080,
  "478": 5081,
  "554": 5082,
  "ample": 5083,
  "Mari": 5084,
  "Alli": 5085,
  "sport": 5086,
  "mercial": 5087,
  "TOUR": 5088,
  "Williams": 5089,
  "cations": 5090,
  "Hyper": 5091,
  "이": 5092,
  "☆": 5093,
  "Angela": 5094,
  "Football": 5095,
  "417": 5096,
  "525": 5097,
  "920": 5098,
  "925": 5099,
  "After": 5100,
  "Hit": 5101,
  "LU": 5102,
  "UK": 5103,
  "URI": 5104,
  "ite": 5105,
  "lle": 5106,
  "ud": 5107,
  "م": 5108,
  "sure": 5109,
  "1525": 5110,
  "1591": 5111,
  "1667": 5112,
  "indu": 5113,
  "chèng": 5114,
  "ronic": 5115,
  "408": 5116,
  "485": 5117,
  "643": 5118,
  "ado": 5119,
  "baby": 5120,
  "ophi": 5121,
  "AMO": 5122,
  "Back": 5123,
  "Fiesta": 5124,
  "Steve": 5125,
  "Qua": 5126,
  "Rue": 5127,
  "put": 5128,
  "Advance": 5129,
  "DOHC": 5130,
  "America": 5131,
  "324": 5132,
  "422": 5133,
  "515": 5134,
  "538": 5135,
  "534": 5136,
  "Kit": 5137,
  "Pap": 5138,
  "QS": 5139,
  "S4": 5140,
  "VT": 5141,
  "Vel": 5142,
  "Water": 5143,
  "hen": 5144,
  "mRNA": 5145,
  "who": 5146,
  "zzo": 5147,
  "lish": 5149,
  "tine": 5150,
  "1510": 5151,
  "1638": 5152,
  "1730": 5153,
  "media": 5154,
  "パ": 5155,
  "ette": 5156,
  "342": 5157,
  "393": 5158,
  "479": 5159,
  "mph": 5160,
  "Story": 5161,
  "1508": 5162,
  "Vita": 5163,
  "Mozilla": 5164,
  "Last": 5165,
  "HKT48": 5166,
  "lassic": 5167,
  "Bern": 5168,
  "Walter": 5169,
  "Soul": 5170,
  "Surface": 5171,
  "Foundation": 5172,
  "3200": 5173,
  "531": 5174,
  "546": 5175,
  "EG": 5176,
  "GHz": 5177,
  "ITV": 5178,
  "Jer": 5179,
  "Jane": 5180,
  "Mes": 5181,
  "MBA": 5182,
  "NI": 5183,
  "Sen": 5184,
  "Son": 5185,
  "TG": 5186,
  "VS": 5187,
  "bles": 5188,
  "iPS": 5189,
  "kW": 5190,
  "pal": 5191,
  "2028": 5192,
  "1543": 5193,
  "1457": 5194,
  "come": 5195,
  "366": 5196,
  "381": 5197,
  "392": 5198,
  "Indu": 5199,
  "Arti": 5200,
  "Buil": 5201,
  "History": 5202,
  "1st": 5203,
  "413": 5204,
  "426": 5205,
  "Ai": 5206,
  "Edu": 5207,
  "F3": 5208,
  "GPS": 5209,
  "LZ": 5210,
  "Light": 5211,
  "Mos": 5212,
  "U20": 5213,
  "Wnt": 5214,
  "cla": 5215,
  "down": 5216,
  "mol": 5217,
  "yl": 5218,
  "zǎn": 5219,
  "zar": 5220,
  "ي": 5221,
  "1565": 5222,
  "1559": 5223,
  "1587": 5224,
  "1597": 5225,
  "†": 5226,
  "1635": 5227,
  "1688": 5228,
  "1733": 5229,
  "1782": 5230,
  "also": 5231,
  "stry": 5232,
  "tex": 5233,
  "606": 5234,
  "ollow": 5235,
  "け": 5236,
  "373": 5237,
  "Albert": 5238,
  "Times": 5239,
  "lent": 5240,
  "Johnson": 5241,
  "Final": 5242,
  "524": 5243,
  "612": 5244,
  "890": 5245,
  "Ash": 5246,
  "By": 5247,
  "FS": 5248,
  "Jim": 5249,
  "Tol": 5250,
  "UD": 5251,
  "bs": 5252,
  "est": 5253,
  "ov": 5254,
  "score": 5255,
  "£": 5256,
  "П": 5257,
  "ч": 5258,
  "1588": 5259,
  "1598": 5260,
  "507": 5261,
  "cell": 5262,
  "amo": 5263,
  "thew": 5264,
  "641": 5265,
  "495": 5266,
  "682": 5267,
  "Rep": 5268,
  "666": 5269,
  "Rod": 5270,
  "Rose": 5271,
  "Vio": 5272,
  "Pod": 5273,
  "Austra": 5274,
  "Mont": 5275,
  "Brian": 5276,
  "CLA": 5277,
  "Place": 5278,
  "Telegram": 5279,
  "trans": 5280,
  "Pierre": 5281,
  "332": 5282,
  "4A": 5283,
  "4K": 5284,
  "435": 5285,
  "575": 5286,
  "790": 5287,
  "Ale": 5288,
  "Bet": 5289,
  "Fl": 5290,
  "Mus": 5291,
  "TMA": 5292,
  "ate": 5293,
  "plan": 5294,
  "sky": 5295,
  "tiè": 5296,
  "tial": 5297,
  "ents": 5298,
  "1523": 5299,
  "1535": 5300,
  "1649": 5301,
  "1661": 5302,
  "1770": 5303,
  "1499": 5304,
  "then": 5305,
  "ガ": 5306,
  "わ": 5307,
  "361": 5308,
  "number": 5309,
  "466": 5310,
  "391": 5311,
  "....": 5312,
  "551": 5313,
  "vices": 5314,
  "Moder": 5315,
  "1601": 5316,
  "Sho": 5317,
  "gio": 5318,
  "PCI": 5319,
  "Tim": 5320,
  "Hotel": 5321,
  "TOK": 5322,
  "AcFun": 5323,
  "Flash": 5324,
  "place": 5325,
  "craft": 5326,
  "Wonder": 5327,
  "528": 5328,
  "5500": 5329,
  "990": 5330,
  "Bang": 5331,
  "Bell": 5332,
  "Hard": 5333,
  "HTT": 5334,
  "Sma": 5335,
  "Smo": 5336,
  "Than": 5337,
  "ey": 5338,
  "fis": 5339,
  "gni": 5340,
  "shuàn": 5341,
  "mine": 5342,
  "1511": 5343,
  "1760": 5344,
  "1769": 5345,
  "rit": 5346,
  "358": 5347,
  "cos": 5348,
  "371": 5349,
  "469": 5350,
  "itz": 5351,
  "684": 5352,
  "587": 5353,
  "View": 5354,
  "ppm": 5355,
  "But": 5356,
  "SMAP": 5357,
  "Geo": 5358,
  "Edge": 5359,
  "tribu": 5360,
  "Explor": 5361,
  "Golden": 5362,
  "548": 5363,
  "AW": 5364,
  "Bil": 5365,
  "Lor": 5366,
  "Mir": 5367,
  "MAC": 5368,
  "Shan": 5369,
  "air": 5370,
  "even": 5371,
  "para": 5372,
  "vor": 5373,
  "tiǎn": 5374,
  "20000": 5375,
  "1080": 5376,
  "15000": 5377,
  "1576": 5378,
  "1594": 5379,
  "1689": 5380,
  "362": 5381,
  "383": 5382,
  "TCP": 5383,
  "341": 5384,
  "NASL": 5385,
  "Program": 5386,
  "Bey": 5387,
  "Some": 5388,
  "Siri": 5389,
  "Qui": 5390,
  "Bridge": 5391,
  "active": 5392,
  "European": 5393,
  "vernment": 5394,
  "921": 5395,
  "Dance": 5396,
  "Gun": 5397,
  "L1": 5398,
  "MR": 5399,
  "Mind": 5400,
  "MMC": 5401,
  "NEX": 5402,
  "RB": 5403,
  "TF": 5404,
  "UFO": 5405,
  "VF": 5406,
  "Var": 5407,
  "bow": 5408,
  "kins": 5409,
  "ráng": 5410,
  "uts": 5411,
  "hòng": 5413,
  "huo": 5414,
  "chěng": 5415,
  "left": 5416,
  "tica": 5417,
  "mid": 5418,
  "1811": 5419,
  "1517": 5420,
  "1514": 5421,
  "1578": 5422,
  "1552": 5423,
  "―": 5424,
  "1639": 5425,
  "1684": 5426,
  "608": 5427,
  "master": 5428,
  "349": 5429,
  "Mai": 5430,
  "644": 5431,
  "557": 5432,
  "vie": 5433,
  "ird": 5434,
  "585": 5435,
  "597": 5436,
  "Development": 5437,
  "Mod": 5438,
  "Test": 5439,
  "Seven": 5440,
  "Raw": 5441,
  "Week": 5442,
  "Firef": 5443,
  "Just": 5444,
  "kov": 5445,
  "Matthew": 5446,
  "template": 5447,
  "Eliza": 5448,
  "Common": 5449,
  "scope": 5450,
  "Taylor": 5451,
  "curity": 5452,
  "348": 5453,
  "436": 5454,
  "549": 5455,
  "AST": 5456,
  "Bai": 5457,
  "Brand": 5458,
  "DNS": 5459,
  "Fred": 5460,
  "Jam": 5461,
  "Kon": 5462,
  "Mitch": 5463,
  "Pres": 5464,
  "RN": 5465,
  "Ret": 5466,
  "bum": 5467,
  "ea": 5468,
  "ext": 5469,
  "ovan": 5470,
  "pl": 5471,
  "tio": 5472,
  "ering": 5473,
  "1763": 5474,
  "1350": 5475,
  "iness": 5476,
  "＋": 5477,
  "sie": 5478,
  "403": 5479,
  "cept": 5480,
  "cuó": 5481,
  "sell": 5482,
  "mani": 5483,
  "908": 5484,
  "ession": 5485,
  "6500": 5486,
  "case": 5487,
  "1505": 5488,
  "ardo": 5489,
  "tour": 5490,
  "777": 5491,
  "Marie": 5492,
  "anger": 5493,
  "fied": 5494,
  "fication": 5495,
  "Pack": 5496,
  "worth": 5497,
  "Santa": 5498,
  "MG42": 5499,
  "Christop": 5500,
  "Villa": 5501,
  "547": 5502,
  "567": 5503,
  "668": 5504,
  "C5": 5505,
  "FAN": 5506,
  "Mountain": 5507,
  "NK": 5508,
  "Rol": 5509,
  "T4": 5510,
  "YOSHI": 5511,
  "bla": 5512,
  "sào": 5513,
  "³": 5514,
  "і": 5515,
  "1050": 5516,
  "1614": 5517,
  "1720": 5518,
  "374": 5519,
  "494": 5520,
  "CoV": 5521,
  "IDE": 5522,
  "IPS": 5523,
  "PSP": 5524,
  "thers": 5525,
  "Work": 5526,
  "UNIX": 5527,
  "People": 5528,
  "Commit": 5529,
  "Ⅰ": 5530,
  "Karl": 5531,
  "Frame": 5532,
  "IPv4": 5533,
  "Explorer": 5534,
  "514": 5535,
  "522": 5536,
  "545": 5537,
  "568": 5538,
  "619": 5539,
  "675": 5540,
  "Bau": 5541,
  "CSS": 5542,
  "D1": 5543,
  "EBU": 5544,
  "KT": 5545,
  "Kw": 5546,
  "Oh": 5547,
  "Shu": 5548,
  "Za": 5549,
  "né": 5550,
  "spi": 5551,
  "sal": 5552,
  "yóng": 5553,
  "lete": 5554,
  "1516": 5555,
  "1513": 5556,
  "1534": 5557,
  "1547": 5558,
  "1569": 5559,
  "16V": 5560,
  "1460": 5561,
  "stone": 5562,
  "cula": 5563,
  "で": 5564,
  "359": 5565,
  "757": 5566,
  "642": 5567,
  "581": 5568,
  "aux": 5569,
  "1502": 5570,
  "ctions": 5571,
  "gani": 5572,
  "alis": 5573,
  "GeForce": 5574,
  "ร": 5575,
  "SOHC": 5576,
  "Jackson": 5577,
  "Arthur": 5578,
  "Queen": 5579,
  "COLLAR": 5580,
  "Sunday": 5581,
  "origin": 5582,
  "418": 5583,
  "414": 5584,
  "424": 5585,
  "433": 5586,
  "544": 5587,
  "Bos": 5588,
  "CJ": 5589,
  "DTS": 5590,
  "F2": 5591,
  "JO": 5592,
  "Jus": 5593,
  "MMO": 5594,
  "PEN": 5595,
  "Sand": 5596,
  "Tel": 5597,
  "XIV": 5598,
  "bū": 5599,
  "cz": 5600,
  "flo": 5601,
  "hol": 5602,
  "ith": 5603,
  "pper": 5604,
  "ski": 5605,
  "zed": 5606,
  "В": 5607,
  "1731": 5608,
  "1768": 5609,
  "1771": 5610,
  "1490": 5611,
  "mel": 5612,
  "409": 5613,
  "lter": 5614,
  "ハ": 5615,
  "604": 5616,
  "802": 5617,
  "ケ": 5618,
  "ょ": 5619,
  "ろ": 5620,
  "389": 5621,
  "7500": 5622,
  "394": 5623,
  "476": 5624,
  "been": 5625,
  "493": 5626,
  "vio": 5627,
  "Vision": 5628,
  "ERO": 5629,
  "Box": 5630,
  "Rift": 5631,
  "AGE": 5632,
  "Prime": 5633,
  "FOX": 5634,
  "while": 5635,
  "True": 5636,
  "JTBC": 5637,
  "⇔": 5638,
  "Cinema": 5639,
  "Avenue": 5640,
  "431": 5641,
  "539": 5642,
  "745": 5643,
  "ABS": 5644,
  "Bit": 5645,
  "Classic": 5646,
  "EO": 5647,
  "Gin": 5648,
  "Gamer": 5649,
  "Ker": 5650,
  "Lord": 5651,
  "Mit": 5652,
  "Sk": 5653,
  "Solo": 5654,
  "V6": 5655,
  "bn": 5656,
  "bour": 5657,
  "jq": 5658,
  "zza": 5659,
  "ı": 5660,
  "shop": 5661,
  "shed": 5662,
  "change": 5663,
  "biào": 5664,
  "til": 5665,
  "tice": 5666,
  "tify": 5667,
  "1593": 5668,
  "1724": 5669,
  "1752": 5670,
  "1469": 5671,
  "1498": 5672,
  "1370": 5673,
  "sili": 5674,
  "sea": 5675,
  "え": 5676,
  "ille": 5677,
  "382": 5678,
  "755": 5679,
  "464": 5680,
  "444": 5681,
  "cid": 5682,
  "571": 5683,
  "1501": 5684,
  "Never": 5685,
  "Gaga": 5686,
  "nova": 5687,
  "PS3": 5688,
  "prote": 5689,
  "Express": 5690,
  "British": 5691,
  "tdown": 5692,
  "AGASA": 5693,
  "Kids": 5694,
  "Friedrich": 5695,
  "646": 5696,
  "667": 5697,
  "CIA": 5698,
  "D2": 5699,
  "Ever": 5700,
  "Gam": 5701,
  "IRT": 5702,
  "Kan": 5703,
  "M6": 5704,
  "Pass": 5705,
  "Tam": 5706,
  "XF": 5707,
  "ZJ": 5708,
  "ami": 5709,
  "high": 5710,
  "pto": 5711,
  "say": 5712,
  "tch": 5713,
  "dex": 5714,
  "lius": 5715,
  "dies": 5716,
  "1520": 5717,
  "1560": 5718,
  "1553": 5719,
  "1651": 5720,
  "1740": 5721,
  "1493": 5722,
  "602": 5723,
  "904": 5724,
  "496": 5725,
  "498": 5726,
  "443": 5727,
  "nament": 5728,
  "Rail": 5729,
  "MAN": 5730,
  "Boys": 5731,
  "Baby": 5732,
  "Haw": 5733,
  "produ": 5734,
  "UNG": 5735,
  "Fami": 5736,
  "AGUE": 5737,
  "LEAGUE": 5738,
  "Guard": 5739,
  "works": 5740,
  "mont": 5741,
  "Jeff": 5742,
  "Donald": 5743,
  "Intelli": 5744,
  "्": 5745,
  "Communi": 5746,
  "Athlon": 5747,
  "Memori": 5748,
  "Firefox": 5749,
  "611": 5750,
  "645": 5751,
  "945": 5752,
  "Again": 5753,
  "Bas": 5754,
  "C1": 5755,
  "Cen": 5756,
  "CBA": 5757,
  "DEC": 5758,
  "GW": 5759,
  "Hay": 5760,
  "Old": 5761,
  "QU": 5762,
  "TAM": 5763,
  "U2": 5764,
  "vol": 5765,
  "å": 5766,
  "chan": 5768,
  "dic": 5769,
  "1596": 5770,
  "ono": 5771,
  "1632": 5772,
  "1679": 5773,
  "1718": 5774,
  "1735": 5775,
  "1745": 5776,
  "1758": 5777,
  "25G": 5778,
  "＝": 5779,
  "tec": 5780,
  "ram": 5781,
  "メ": 5782,
  "culus": 5783,
  "made": 5784,
  "907": 5785,
  "め": 5786,
  "ゆ": 5787,
  "584": 5788,
  "1506": 5789,
  "Dear": 5790,
  "sson": 5791,
  "two": 5792,
  "mental": 5793,
  "1605": 5794,
  "Samu": 5795,
  "gia": 5796,
  "Anth": 5797,
  "Side": 5798,
  "Health": 5799,
  "Fish": 5800,
  "Name": 5801,
  "REAM": 5802,
  "Wild": 5803,
  "Central": 5804,
  "Doug": 5805,
  "Standard": 5806,
  "Violet": 5807,
  "Christopher": 5808,
  "YOSHIKI": 5809,
  "050": 5810,
  "439": 5811,
  "533": 5812,
  "731": 5813,
  "732": 5814,
  "741": 5815,
  "762": 5816,
  "962": 5817,
  "Astro": 5818,
  "Cree": 5819,
  "Eye": 5820,
  "Flor": 5821,
  "H3": 5822,
  "ICD": 5823,
  "Kra": 5824,
  "NU": 5825,
  "Num": 5826,
  "Off": 5827,
  "RCP": 5828,
  "TL": 5829,
  "Thi": 5830,
  "UCLA": 5831,
  "Wood": 5832,
  "ath": 5833,
  "kit": 5834,
  "np": 5835,
  "phe": 5836,
  "vari": 5837,
  "wen": 5838,
  "υ": 5839,
  "bia": 5842,
  "dina": 5843,
  "1260": 5844,
  "1566": 5845,
  "law": 5846,
  "lade": 5847,
  "1725": 5848,
  "1748": 5849,
  "ツ": 5850,
  "706": 5851,
  "よ": 5852,
  "を": 5853,
  "457": 5854,
  "tery": 5855,
  "379": 5856,
  "aso": 5857,
  "756": 5858,
  "553": 5859,
  "cio": 5860,
  "673": 5861,
  "574": 5862,
  "576": 5863,
  "mpson": 5864,
  "List": 5865,
  "Alan": 5866,
  "985": 5867,
  "973": 5868,
  "Anna": 5869,
  "Capital": 5870,
  "Greg": 5871,
  "AlphaFold": 5872,
  "Operation": 5873,
  "Fleetline": 5874,
  "Angelababy": 5875,
  "516": 5876,
  "617": 5877,
  "639": 5878,
  "722": 5879,
  "735": 5880,
  "DU": 5881,
  "Econo": 5882,
  "HMS": 5883,
  "Kha": 5884,
  "P2": 5885,
  "Tower": 5886,
  "bble": 5887,
  "ners": 5888,
  "sòu": 5889,
  "2050": 5890,
  "quid": 5891,
  "1528": 5892,
  "1572": 5893,
  "onal": 5894,
  "1652": 5895,
  "1727": 5896,
  "1761": 5897,
  "1368": 5898,
  "ワ": 5899,
  "ノ": 5900,
  "356": 5901,
  "704": 5902,
  "482": 5903,
  "655": 5904,
  "brary": 5905,
  "ault": 5906,
  "ARE": 5907,
  "gate": 5908,
  "Gaon": 5909,
  "ends": 5910,
  "BLE": 5911,
  "link": 5912,
  "Color": 5913,
  "telli": 5914,
  "Harry": 5915,
  "English": 5916,
  "Garden": 5917,
  "Two": 5918,
  "Jones": 5919,
  "Anderson": 5920,
  "Elizabeth": 5921,
  "Committee": 5922,
  "447": 5923,
  "863": 5924,
  "926": 5925,
  "961": 5926,
  "Ana": 5927,
  "Apa": 5928,
  "Bow": 5929,
  "Din": 5930,
  "Ea": 5931,
  "Epi": 5932,
  "LX": 5933,
  "RATP": 5934,
  "Tha": 5935,
  "VP": 5936,
  "WW": 5937,
  "eu": 5938,
  "hal": 5939,
  "pet": 5940,
  "pas": 5941,
  "defea": 5942,
  "shan": 5943,
  "lim": 5944,
  "bird": 5945,
  "eno": 5946,
  "nin": 5947,
  "ergy": 5948,
  "1531": 5949,
  "1538": 5950,
  "1647": 5951,
  "1681": 5952,
  "stor": 5953,
  "rat": 5954,
  "803": 5955,
  "708": 5956,
  "ゃ": 5957,
  "452": 5958,
  "453": 5959,
  "they": 5960,
  "651": 5961,
  "bed": 5962,
  "Cook": 5963,
  "vir": 5964,
  "586": 5965,
  "572": 5966,
  "Stro": 5967,
  "1504": 5968,
  "Neu": 5969,
  "EDG": 5970,
  "APG": 5971,
  "ICA": 5972,
  "door": 5973,
  "Conne": 5974,
  "Basic": 5975,
  "1701": 5976,
  "Stephen": 5977,
  "Carl": 5978,
  "Colspan": 5979,
  "word": 5980,
  "essor": 5981,
  "HOME": 5982,
  "ights": 5983,
  "Appli": 5984,
  "ccff": 5985,
  "ccccff": 5986,
  "Press": 5987,
  "Disco": 5988,
  "Twitch": 5989,
  "prise": 5990,
  "Patrick": 5991,
  "frame": 5992,
  "Women": 5993,
  "FINAL": 5994,
  "Beyond": 5995,
  "3M": 5996,
  "438": 5997,
  "511": 5998,
  "933": 5999,
  "Bun": 6000,
  "Hero": 6001,
  "Hans": 6002,
  "ILE": 6003,
  "Jes": 6004,
  "Rad": 6005,
  "Say": 6006,
  "SNC": 6007,
  "aw": 6008,
  "band": 6009,
  "děi": 6010,
  "gna": 6011,
  "vity": 6012,
  "wer": 6013,
  "Ω": 6014,
  "з": 6015,
  "ت": 6016,
  "xus": 6018,
  "hàng": 6019,
  "mie": 6020,
  "1530": 6021,
  "1537": 6022,
  "lati": 6023,
  "1736": 6024,
  "＆": 6025,
  "603": 6026,
  "808": 6027,
  "461": 6028,
  "468": 6029,
  "681": 6030,
  "user": 6031,
  "ONG": 6032,
  "state": 6033,
  "1709": 6034,
  "Kevin": 6035,
  "GameSpot": 6036,
  "Abdu": 6037,
  "Southern": 6038,
  "news": 6039,
  "JavaScript": 6040,
  "Prince": 6041,
  "DirectX": 6042,
  "Silver": 6043,
  "function": 6044,
  "Modern": 6045,
  "3G": 6046,
  "541": 6047,
  "629": 6048,
  "648": 6049,
  "725": 6050,
  "Ak": 6051,
  "CAR": 6052,
  "Dor": 6053,
  "ELE": 6054,
  "Low": 6055,
  "NN": 6056,
  "Nan": 6057,
  "NPC": 6058,
  "P4": 6059,
  "URE": 6060,
  "Vis": 6061,
  "cter": 6062,
  "city": 6063,
  "gas": 6064,
  "gent": 6065,
  "vent": 6066,
  "х": 6067,
  "such": 6068,
  "super": 6069,
  "dire": 6070,
  "zing": 6071,
  "1519": 6072,
  "1529": 6073,
  "1555": 6074,
  "1687": 6075,
  "last": 6076,
  "1728": 6077,
  "ardi": 6078,
  "ink": 6079,
  "team": 6080,
  "ポ": 6081,
  "cuǐ": 6082,
  "905": 6083,
  "esa": 6084,
  "484": 6085,
  "653": 6086,
  "Maker": 6087,
  "Info": 6088,
  "before": 6089,
  "559": 6090,
  "491": 6091,
  "679": 6092,
  "ped": 6093,
  "796": 6094,
  "OSS": 6095,
  "fish": 6096,
  "Saf": 6097,
  "MAD": 6098,
  "Paris": 6099,
  "Concer": 6100,
  "That": 6101,
  "Fair": 6102,
  "mark": 6103,
  "ckett": 6104,
  "URL": 6105,
  "AOA": 6106,
  "Yahoo": 6107,
  "speci": 6108,
  "ctures": 6109,
  "Planet": 6110,
  "ASCII": 6111,
  "Spotify": 6112,
  "OmegaT": 6113,
  "Mitchell": 6114,
  "423": 6115,
  "536": 6116,
  "632": 6117,
  "715": 6118,
  "825": 6119,
  "833": 6120,
  "Ala": 6121,
  "B3": 6122,
  "CAL": 6123,
  "D9": 6124,
  "Flow": 6125,
  "Gy": 6126,
  "GRO": 6127,
  "Hau": 6128,
  "Ita": 6129,
  "K2": 6130,
  "Money": 6131,
  "Mbps": 6132,
  "RDS": 6133,
  "Zo": 6134,
  "eb": 6135,
  "ei": 6136,
  "ide": 6137,
  "san": 6138,
  "sci": 6139,
  "wart": 6140,
  "huō": 6141,
  "2035": 6142,
  "1120": 6143,
  "1767": 6144,
  "cking": 6145,
  "Chrome": 6146,
  "Main": 6147,
  "473": 6148,
  "492": 6149,
  "cap": 6150,
  "nda": 6151,
  "auto": 6152,
  "661": 6153,
  "562": 6154,
  "Liber": 6155,
  "Robin": 6156,
  "Dead": 6157,
  "Debian": 6158,
  "Mega": 6159,
  "Via": 6160,
  "game": 6161,
  "See": 6162,
  "bucket": 6163,
  "Anne": 6164,
  "host": 6165,
  "PS2": 6166,
  "Fede": 6167,
  "Eddie": 6168,
  "TRA": 6169,
  "Countdown": 6170,
  "Zico": 6171,
  "signed": 6172,
  "TOKYO": 6173,
  "Violetta": 6174,
  "339": 6175,
  "429": 6176,
  "532": 6177,
  "665": 6178,
  "775": 6179,
  "769": 6180,
  "Ax": 6181,
  "Area": 6182,
  "D5": 6183,
  "Eri": 6184,
  "Fox": 6185,
  "Hand": 6186,
  "JI": 6187,
  "Pur": 6188,
  "R1": 6189,
  "RF": 6190,
  "SNS": 6191,
  "ller": 6192,
  "ա": 6193,
  "miē": 6194,
  "1220": 6195,
  "1545": 6196,
  "1664": 6197,
  "1659": 6198,
  "1719": 6199,
  "artic": 6200,
  "1495": 6201,
  "1496": 6202,
  "1388": 6203,
  "redo": 6204,
  "cep": 6205,
  "702": 6206,
  "703": 6207,
  "Chap": 6208,
  "Chart": 6209,
  "Mah": 6210,
  "STATION": 6211,
  "689": 6212,
  "Rea": 6213,
  "692": 6214,
  "osp": 6215,
  "Roman": 6216,
  "Mix": 6217,
  "798": 6218,
  "him": 6219,
  "splay": 6220,
  "ott": 6221,
  "mentary": 6222,
  "ERS": 6223,
  "Jaco": 6224,
  "AND": 6225,
  "graphy": 6226,
  "Juan": 6227,
  "gins": 6228,
  "Steven": 6229,
  "Phy": 6230,
  "IFF": 6231,
  "Bio": 6232,
  "Dragon": 6233,
  "Anime": 6234,
  "Henri": 6235,
  "Framework": 6236,
  "010": 6237,
  "434": 6238,
  "636": 6239,
  "729": 6240,
  "761": 6241,
  "878": 6242,
  "Aus": 6243,
  "Action": 6244,
  "E1": 6245,
  "E231": 6246,
  "GEN": 6247,
  "Jay": 6248,
  "L2": 6249,
  "PAGASA": 6250,
  "RK": 6251,
  "Too": 6252,
  "ZERO": 6253,
  "das": 6254,
  "eg": 6255,
  "hat": 6256,
  "ira": 6257,
  "Б": 6258,
  "М": 6259,
  "ц": 6260,
  "tier": 6262,
  "1546": 6263,
  "1549": 6264,
  "1562": 6265,
  "1670": 6266,
  "1690": 6267,
  "1654": 6268,
  "1653": 6269,
  "1694": 6270,
  "1759": 6271,
  "aro": 6272,
  "1466": 6273,
  "thor": 6274,
  "sio": 6275,
  "モ": 6276,
  "807": 6277,
  "709": 6278,
  "458": 6279,
  "463": 6280,
  "log": 6281,
  "555": 6282,
  "596": 6283,
  "662": 6284,
  "Stri": 6285,
  "under": 6286,
  "Like": 6287,
  "Michel": 6288,
  "constru": 6289,
  "ental": 6290,
  "gie": 6291,
  "posi": 6292,
  "Build": 6293,
  "shion": 6294,
  "Interactive": 6295,
  "Wilson": 6296,
  "Johnny": 6297,
  "della": 6298,
  "Voice": 6299,
  "FAST": 6300,
  "Kenne": 6301,
  "Court": 6302,
  "Happy": 6303,
  "HTTP": 6304,
  "Samuel": 6305,
  "12000": 6306,
  "527": 6307,
  "638": 6308,
  "669": 6309,
  "712": 6310,
  "711": 6311,
  "BP": 6312,
  "Dal": 6313,
  "DREAM": 6314,
  "Hos": 6315,
  "IMAX": 6316,
  "Jos": 6317,
  "K11": 6318,
  "LV": 6319,
  "Lind": 6320,
  "M5": 6321,
  "Nam": 6322,
  "NCC": 6323,
  "RSA": 6324,
  "Sr": 6325,
  "dan": 6326,
  "ef": 6327,
  "flu": 6328,
  "ska": 6329,
  "wy": 6330,
  "ά": 6331,
  "shell": 6332,
  "xis": 6333,
  "qiōng": 6334,
  "lem": 6335,
  "sung": 6336,
  "tura": 6337,
  "niū": 6338,
  "1558": 6339,
  "1581": 6340,
  "1738": 6341,
  "1474": 6342,
  "1375": 6343,
  "cular": 6344,
  "elli": 6345,
  "neu": 6346,
  "vement": 6347,
  "STAT": 6348,
  "477": 6349,
  "love": 6350,
  "68000": 6351,
  "Cos": 6352,
  "ATE": 6353,
  "595": 6354,
  "598": 6355,
  "599": 6356,
  "578": 6357,
  "1608": 6358,
  "Jac": 6359,
  "Hein": 6360,
  "dence": 6361,
  "EPA": 6362,
  "program": 6363,
  "ween": 6364,
  "gene": 6365,
  "syn": 6366,
  "flight": 6367,
  "EXILE": 6368,
  "Person": 6369,
  "GPL": 6370,
  "Stars": 6371,
  "stars": 6372,
  "Galant": 6373,
  "import": 6374,
  "NMB48": 6375,
  "521": 6376,
  "628": 6377,
  "622": 6378,
  "721": 6379,
  "867": 6380,
  "877": 6381,
  "965": 6382,
  "Aer": 6383,
  "BY": 6384,
  "Care": 6385,
  "F5": 6386,
  "Jet": 6387,
  "Mount": 6388,
  "Ner": 6389,
  "OST": 6390,
  "RX": 6391,
  "Sus": 6392,
  "SUP": 6393,
  "Source": 6394,
  "VEN": 6395,
  "WP": 6396,
  "ZZ": 6397,
  "cli": 6398,
  "cin": 6399,
  "fre": 6400,
  "gli": 6401,
  "ui": 6402,
  "will": 6403,
  "yd": 6404,
  "guàng": 6405,
  "yun": 6406,
  "life": 6407,
  "bio": 6408,
  "1280": 6409,
  "″": 6410,
  "1665": 6411,
  "lat": 6412,
  "1732": 6413,
  "1744": 6414,
  "1756": 6415,
  "1489": 6416,
  "1487": 6417,
  "1340": 6418,
  "oul": 6419,
  "met": 6420,
  "000rpm": 6421,
  "ビ": 6422,
  "906": 6423,
  "ズ": 6424,
  "451": 6425,
  "Chill": 6426,
  "997": 6427,
  "Stru": 6428,
  "idae": 6429,
  "Security": 6430,
  "Dave": 6431,
  "Shar": 6432,
  "wick": 6433,
  "Player": 6434,
  "Feli": 6435,
  "ghts": 6436,
  "Forever": 6437,
  "SHOW": 6438,
  "Business": 6439,
  "2nd": 6440,
  "519": 6441,
  "517": 6442,
  "624": 6443,
  "623": 6444,
  "835": 6445,
  "876": 6446,
  "938": 6447,
  "954": 6448,
  "951": 6449,
  "Abu": 6450,
  "B9": 6451,
  "CAP": 6452,
  "D3": 6453,
  "Fw": 6454,
  "Flo": 6455,
  "GDDR": 6456,
  "Hil": 6457,
  "Hop": 6458,
  "IMD": 6459,
  "Kur": 6460,
  "LCD": 6461,
  "NIC": 6462,
  "Pon": 6463,
  "Qt": 6464,
  "Sel": 6465,
  "YF": 6466,
  "eng": 6467,
  "fan": 6468,
  "mou": 6469,
  "mos": 6470,
  "ude": 6471,
  "vas": 6472,
  "would": 6473,
  "xa": 6474,
  "И": 6475,
  "sum": 6477,
  "qua": 6478,
  "chuài": 6479,
  "1524": 6480,
  "1532": 6481,
  "1584": 6482,
  "1658": 6483,
  "1657": 6484,
  "1699": 6485,
  "lad": 6486,
  "1762": 6487,
  "1337": 6488,
  "mum": 6489,
  "＞": 6490,
  "rai": 6491,
  "seed": 6492,
  "472": 6493,
  "474": 6494,
  "649": 6495,
  "497": 6496,
  "687": 6497,
  "688": 6498,
  "698": 6499,
  "579": 6500,
  "784": 6501,
  "Rober": 6502,
  "Proto": 6503,
  "html": 6504,
  "1406": 6505,
  "Carlos": 6506,
  "DSP": 6507,
  "ा": 6508,
  "Bike": 6509,
  "year": 6510,
  "SHIN": 6511,
  "Holly": 6512,
  "Christmas": 6513,
  "★": 6514,
  "Public": 6515,
  "scape": 6516,
  "MONSTA": 6517,
  "Computer": 6518,
  "Touch": 6519,
  "Smack": 6520,
  "Smosh": 6521,
  "Apache": 6522,
  "054": 6523,
  "616": 6524,
  "719": 6525,
  "865": 6526,
  "946": 6527,
  "988": 6528,
  "Bran": 6529,
  "DH": 6530,
  "Dur": 6531,
  "Esp": 6532,
  "G1": 6533,
  "Gau": 6534,
  "H4": 6535,
  "H10": 6536,
  "Hat": 6537,
  "Jona": 6538,
  "More": 6539,
  "S3": 6540,
  "Sb": 6541,
  "Sense": 6542,
  "Wit": 6543,
  "WHO": 6544,
  "XG": 6545,
  "jan": 6546,
  "kra": 6547,
  "used": 6548,
  "æ": 6549,
  "φ": 6550,
  "dus": 6551,
  "tie": 6552,
  "luō": 6553,
  "enne": 6554,
  "micro": 6555,
  "pia": 6556,
  "1668": 6557,
  "1739": 6558,
  "1764": 6559,
  "format": 6560,
  "mail": 6561,
  "30000": 6562,
  "787": 6563,
  "Library": 6564,
  "Socket": 6565,
  "Ann": 6566,
  "sock": 6567,
  "PSV": 6568,
  "Control": 6569,
  "1702": 6570,
  "There": 6571,
  "Take": 6572,
  "Human": 6573,
  "LLVM": 6574,
  "rowspan": 6575,
  "ways": 6576,
  "break": 6577,
  "Fanta": 6578,
  "Ryan": 6579,
  "SmackDown": 6580,
  "052": 6581,
  "421": 6582,
  "437": 6583,
  "614": 6584,
  "626": 6585,
  "637": 6586,
  "815": 6587,
  "816": 6588,
  "975": 6589,
  "Card": 6590,
  "Echo": 6591,
  "GF": 6592,
  "If": 6593,
  "Ice": 6594,
  "JP": 6595,
  "Rh": 6596,
  "Wing": 6597,
  "Wolf": 6598,
  "YA": 6599,
  "ZO": 6600,
  "after": 6601,
  "cine": 6602,
  "free": 6603,
  "hp": 6604,
  "kha": 6605,
  "won": 6606,
  "wri": 6607,
  "Р": 6608,
  "depen": 6610,
  "dig": 6611,
  "0000": 6612,
  "1275": 6613,
  "1536": 6614,
  "1675": 6615,
  "1464": 6616,
  "rad": 6617,
  "may": 6618,
  "major": 6619,
  "455": 6620,
  "IND": 6621,
  "lock": 6622,
  "671": 6623,
  "678": 6624,
  "ops": 6625,
  "most": 6626,
  "ARP": 6627,
  "Tex": 6628,
  "Sher": 6629,
  "Anti": 6630,
  "1705": 6631,
  "Liner": 6632,
  "Fashion": 6633,
  "TOWN": 6634,
  "erial": 6635,
  "Giovan": 6636,
  "Sheet": 6637,
  "lease": 6638,
  "KKBOX": 6639,
  "Championship": 6640,
  "Language": 6641,
  "Alfredo": 6642,
  "alysis": 6643,
  "Professor": 6644,
  "542": 6645,
  "634": 6646,
  "821": 6647,
  "912": 6648,
  "CIT": 6649,
  "Cfb": 6650,
  "DX": 6651,
  "HPV": 6652,
  "MOS": 6653,
  "MIT": 6654,
  "NXT": 6655,
  "Ol": 6656,
  "Pr": 6657,
  "SY": 6658,
  "Ster": 6659,
  "SIM": 6660,
  "Tig": 6661,
  "WH": 6662,
  "Wer": 6663,
  "Well": 6664,
  "Wong": 6665,
  "count": 6666,
  "df": 6667,
  "dle": 6668,
  "done": 6669,
  "glo": 6670,
  "ima": 6671,
  "mme": 6672,
  "nst": 6673,
  "ois": 6674,
  "pon": 6675,
  "wind": 6676,
  "χ": 6677,
  "ches": 6681,
  "lib": 6682,
  "leu": 6683,
  "lein": 6684,
  "miāo": 6685,
  "1563": 6686,
  "1617": 6687,
  "1663": 6688,
  "1685": 6689,
  "1753": 6690,
  "1477": 6691,
  "1380": 6692,
  "multi": 6693,
  "stance": 6694,
  "503": 6695,
  "ras": 6696,
  "see": 6697,
  "809": 6698,
  "ぎ": 6699,
  "ソ": 6700,
  "atan": 6701,
  "483": 6702,
  "486": 6703,
  "asy": 6704,
  "754": 6705,
  "656": 6706,
  "Mate": 6707,
  "beat": 6708,
  "beca": 6709,
  "Theat": 6710,
  "676": 6711,
  "ATX": 6712,
  "SAN": 6713,
  "785": 6714,
  "561": 6715,
  "NAS": 6716,
  "Mei": 6717,
  "ARK": 6718,
  "Second": 6719,
  "ACH": 6720,
  "okia": 6721,
  "ANG": 6722,
  "IPTV": 6723,
  "Western": 6724,
  "Board": 6725,
  "File": 6726,
  "Field": 6727,
  "there": 6728,
  "า": 6729,
  "UNES": 6730,
  "gency": 6731,
  "Frances": 6732,
  "Morning": 6733,
  "Brad": 6734,
  "RCA": 6735,
  "Collection": 6736,
  "SpaceX": 6737,
  "Melon": 6738,
  "Circle": 6739,
  "Mission": 6740,
  "Creative": 6741,
  "TWICE": 6742,
  "Clark": 6743,
  "Industri": 6744,
  "SUPER": 6745,
  "2DS": 6746,
  "518": 6747,
  "526": 6748,
  "566": 6749,
  "716": 6750,
  "714": 6751,
  "765": 6752,
  "764": 6753,
  "744": 6754,
  "826": 6755,
  "847": 6756,
  "918": 6757,
  "936": 6758,
  "Afri": 6759,
  "BNO": 6760,
  "EU": 6761,
  "Eve": 6762,
  "Every": 6763,
  "GI": 6764,
  "Here": 6765,
  "Ia": 6766,
  "MRI": 6767,
  "Pere": 6768,
  "RP": 6769,
  "Right": 6770,
  "Rank": 6771,
  "SUN": 6772,
  "Vin": 6773,
  "VIP": 6774,
  "Wri": 6775,
  "Ware": 6776,
  "WTT": 6777,
  "cam": 6778,
  "cta": 6779,
  "group": 6780,
  "hāi": 6781,
  "pho": 6782,
  "town": 6783,
  "ł": 6784,
  "و": 6785,
  "ngth": 6789,
  "show": 6790,
  "chin": 6791,
  "ched": 6792,
  "lity": 6793,
  "chus": 6794,
  "1024": 6795,
  "1669": 6796,
  "1656": 6797,
  "1672": 6798,
  "1692": 6799,
  "1754": 6800,
  "1420": 6801,
  "1480": 6802,
  "teen": 6803,
  "ilo": 6804,
  "their": 6805,
  "751": 6806,
  "658": 6807,
  "Chang": 6808,
  "Maki": 6809,
  "Inte": 6810,
  "594": 6811,
  "Stone": 6812,
  "791": 6813,
  "AMC": 6814,
  "AMP": 6815,
  "Moore": 6816,
  "Shine": 6817,
  "ITA": 6818,
  "Bug": 6819,
  "1704": 6820,
  "1708": 6821,
  "Nick": 6822,
  "Pie": 6823,
  "ario": 6824,
  "AGP": 6825,
  "MLB": 6826,
  "Manu": 6827,
  "Vogue": 6828,
  "Future": 6829,
  "DMR": 6830,
  "Front": 6831,
  "RepRap": 6832,
  "2B": 6833,
  "713": 6834,
  "727": 6835,
  "748": 6836,
  "768": 6837,
  "875": 6838,
  "915": 6839,
  "929": 6840,
  "947": 6841,
  "Ace": 6842,
  "BIG": 6843,
  "Cr": 6844,
  "CYP": 6845,
  "Dam": 6846,
  "Emp": 6847,
  "EBS": 6848,
  "Fai": 6849,
  "From": 6850,
  "ISA": 6851,
  "NICO": 6852,
  "OME": 6853,
  "R3": 6854,
  "Ring": 6855,
  "UF": 6856,
  "VIS": 6857,
  "XIII": 6858,
  "kon": 6859,
  "xc": 6860,
  "zān": 6861,
  "Т": 6862,
  "س": 6863,
  "lev": 6864,
  "bie": 6865,
  "bis": 6866,
  "1075": 6867,
  "1277": 6868,
  "1279": 6869,
  "1276": 6870,
  "1111": 6871,
  "ante": 6872,
  "1440": 6873,
  "1488": 6874,
  "1472": 6875,
  "1371": 6876,
  "allo": 6877,
  "story": 6878,
  "rian": 6879,
  "rice": 6880,
  "road": 6881,
  "ョ": 6882,
  "902": 6883,
  "489": 6884,
  "vier": 6885,
  "699": 6886,
  "ophy": 6887,
  "992": 6888,
  "881": 6889,
  "986": 6890,
  "Lew": 6891,
  "contribu": 6892,
  "APM": 6893,
  "1602": 6894,
  "dom": 6895,
  "commercial": 6896,
  "Interplay": 6897,
  "cross": 6898,
  "AIM": 6899,
  "REAS": 6900,
  "Wilhel": 6901,
  "Audio": 6902,
  "CRH5": 6903,
  "Gene": 6904,
  "Walker": 6905,
  "Version": 6906,
  "Films": 6907,
  "Jimmy": 6908,
  "District": 6909,
  "Sweet": 6910,
  "Building": 6911,
  "030": 6912,
  "633": 6913,
  "778": 6914,
  "812": 6915,
  "955": 6916,
  "957": 6917,
  "Azu": 6918,
  "Asian": 6919,
  "C3": 6920,
  "C14": 6921,
  "EY": 6922,
  "Im": 6923,
  "Ian": 6924,
  "Iso": 6925,
  "Jalan": 6926,
  "LNG": 6927,
  "LIF": 6928,
  "MIC": 6929,
  "NY": 6930,
  "Nint": 6931,
  "POS": 6932,
  "Rand": 6933,
  "RSS": 6934,
  "SAT": 6935,
  "Sid": 6936,
  "Stop": 6937,
  "Ts": 6938,
  "TNT": 6939,
  "Yi": 6940,
  "Yan": 6941,
  "bǒ": 6942,
  "cú": 6943,
  "cēn": 6944,
  "d4": 6945,
  "iro": 6946,
  "rs": 6947,
  "ute": 6948,
  "ý": 6949,
  "ب": 6950,
  "د": 6951,
  "ledge": 6952,
  "sul": 6953,
  "tury": 6954,
  "kuǎi": 6955,
  "002": 6956,
  "004": 6957,
  "1230": 6958,
  "pis": 6959,
  "1527": 6960,
  "1611": 6961,
  "array": 6962,
  "rela": 6963,
  "rix": 6964,
  "rish": 6965,
  "ols": 6966,
  "ely": 6967,
  "せ": 6968,
  "487": 6969,
  "nest": 6970,
  "bov": 6971,
  "Chro": 6972,
  "Information": 6973,
  "558": 6974,
  "685": 6975,
  "vich": 6976,
  "osau": 6977,
  "577": 6978,
  "781": 6979,
  "792": 6980,
  "794": 6981,
  "Album": 6982,
  "981": 6983,
  "Lei": 6984,
  "CO2": 6985,
  "ARC": 6986,
  "Dick": 6987,
  "Shop": 6988,
  "gion": 6989,
  "poli": 6990,
  "Six": 6991,
  "Energy": 6992,
  "WiMAX": 6993,
  "shire": 6994,
  "Gemini": 6995,
  "Stewart": 6996,
  "1122": 6997,
  "RES": 6998,
  "Tac": 6999,
  "ories": 7000,
  "ESPN": 7001,
  "Trickett": 7002,
  "minal": 7003,
  "Wave": 7004,
  "Thompson": 7005,
  "Where": 7006,
  "Portable": 7007,
  "elect": 7008,
  "아": 7009,
  "Thunderbird": 7010,
  "Velvet": 7011,
  "Jonathan": 7012,
  "Nintendo": 7014,
  "070": 7015,
  "543": 7016,
  "615": 7017,
  "717": 7018,
  "828": 7019,
  "839": 7020,
  "939": 7021,
  "Bin": 7022,
  "E2": 7023,
  "Edi": 7024,
  "FD": 7025,
  "G2": 7026,
  "GG": 7027,
  "Gr": 7028,
  "Len": 7029,
  "Lun": 7030,
  "MED": 7031,
  "N1": 7032,
  "RY": 7033,
  "S7": 7034,
  "TD": 7035,
  "UFC": 7036,
  "V1": 7037,
  "V2": 7038,
  "ala": 7039,
  "ic": 7040,
  "kai": 7041,
  "nar": 7042,
  "poly": 7043,
  "tar": 7044,
  "wel": 7045,
  "zzi": 7046,
  "lee": 7049,
  "tinu": 7050,
  "tiful": 7051,
  "quali": 7052,
  "dine": 7053,
  "nig": 7054,
  "1512": 7055,
  "1541": 7056,
  "1666": 7057,
  "lak": 7058,
  "1721": 7059,
  "1726": 7060,
  "1737": 7061,
  "1747": 7062,
  "1743": 7063,
  "1741": 7064,
  "archi": 7065,
  "1430": 7066,
  "25000": 7067,
  "former": 7068,
  "teau": 7069,
  "site": 7070,
  "481": 7071,
  "ism": 7072,
  "boy": 7073,
  "nation": 7074,
  "adox": 7075,
  "based": 7076,
  "674": 7077,
  "cate": 7078,
  "697": 7079,
  "889": 7080,
  "Liquid": 7081,
  "Deuts": 7082,
  "Allen": 7083,
  "982": 7084,
  "989": 7085,
  "apu": 7086,
  "pert": 7087,
  "fini": 7088,
  "post": 7089,
  "Page": 7090,
  "Sport": 7091,
  "PCR": 7092,
  "น": 7093,
  "AVE": 7094,
  "NHS": 7095,
  "Grace": 7096,
  "hyth": 7097,
  "Match": 7098,
  "bury": 7099,
  "Enterprise": 7100,
  "Surf": 7101,
  "Productions": 7102,
  "about": 7103,
  "Bruce": 7104,
  "Douglas": 7105,
  "2TV": 7106,
  "513": 7107,
  "846": 7108,
  "866": 7109,
  "857": 7110,
  "B12": 7111,
  "Ball": 7112,
  "Gary": 7113,
  "HY": 7114,
  "J1": 7115,
  "JXG": 7116,
  "Kill": 7117,
  "Oculus": 7118,
  "Penti": 7119,
  "WM": 7120,
  "Zen": 7121,
  "again": 7122,
  "ever": 7123,
  "kHz": 7124,
  "power": 7125,
  "wat": 7126,
  "xe": 7127,
  "zán": 7128,
  "dera": 7129,
  "gus": 7130,
  "zhuǎ": 7131,
  "mium": 7132,
  "1217": 7133,
  "1274": 7134,
  "1515": 7135,
  "1542": 7136,
  "1712": 7137,
  "1711": 7138,
  "1715": 7139,
  "1435": 7140,
  "1456": 7141,
  "1328": 7142,
  "1385": 7143,
  "forman": 7144,
  "room": 7145,
  "sele": 7146,
  "elo": 7147,
  "ぶ": 7148,
  "4800": 7149,
  "INT": 7150,
  "ison": 7151,
  "3400": 7152,
  "bach": 7153,
  "pei": 7154,
  "Stor": 7155,
  "1509": 7156,
  "Roger": 7157,
  "Window": 7158,
  "Motor": 7159,
  "dale": 7160,
  "Staff": 7161,
  "ISC": 7162,
  "971": 7163,
  "Lock": 7164,
  "ASH": 7165,
  "fect": 7166,
  "Netscape": 7167,
  "IGHT": 7168,
  "gener": 7169,
  "GP40": 7170,
  "hydro": 7171,
  "brid": 7172,
  "bridge": 7173,
  "facebook": 7174,
  "Princess": 7175,
  "Pink": 7176,
  "Tennis": 7177,
  "SHINee": 7178,
  "Pentium": 7179,
  "055": 7180,
  "647": 7181,
  "728": 7182,
  "726": 7183,
  "811": 7184,
  "913": 7185,
  "CZ": 7186,
  "CCD": 7187,
  "COS": 7188,
  "Ing": 7189,
  "KS": 7190,
  "Mg": 7191,
  "Snow": 7192,
  "TAI": 7193,
  "Zero": 7194,
  "fit": 7195,
  "fig": 7196,
  "fts": 7197,
  "ila": 7198,
  "sw": 7199,
  "tta": 7200,
  "uk": 7201,
  "vad": 7202,
  "yan": 7203,
  "ί": 7204,
  "ζ": 7205,
  "shark": 7206,
  "lik": 7207,
  "tit": 7208,
  "chuǎi": 7209,
  "nik": 7210,
  "1150": 7211,
  "orbit": 7212,
  "1544": 7213,
  "1757": 7214,
  "1424": 7215,
  "1470": 7216,
  "1454": 7217,
  "str": 7218,
  "thal": 7219,
  "through": 7220,
  "ril": 7221,
  "rier": 7222,
  "2900": 7223,
  "amba": 7224,
  "sets": 7225,
  "909": 7226,
  "459": 7227,
  "3700": 7228,
  "iser": 7229,
  "759": 7230,
  "STER": 7231,
  "IIT": 7232,
  "Cong": 7233,
  "cision": 7234,
  "672": 7235,
  "582": 7236,
  "ATS": 7237,
  "591": 7238,
  "993": 7239,
  "SAP": 7240,
  "Mars": 7241,
  "Division": 7242,
  "Lost": 7243,
  "Buzz": 7244,
  "DSL": 7245,
  "project": 7246,
  "tten": 7247,
  "France": 7248,
  "Universal": 7249,
  "hammad": 7250,
  "Chee": 7251,
  "Ⅲ": 7252,
  "IMF": 7253,
  "Drama": 7254,
  "struct": 7255,
  "England": 7256,
  "CGTN": 7257,
  "Louise": 7258,
  "Mercu": 7259,
  "addr": 7260,
  "Antonio": 7261,
  "Archite": 7262,
  "CDMA2000": 7263,
  "WORLD": 7264,
  "Alliance": 7265,
  "Hollywood": 7266,
  "823": 7267,
  "829": 7268,
  "927": 7269,
  "935": 7270,
  "A5": 7271,
  "Emi": 7272,
  "F7": 7273,
  "Four": 7274,
  "GIS": 7275,
  "Hart": 7276,
  "JC": 7277,
  "Jason": 7278,
  "KN": 7279,
  "Know": 7280,
  "LMS": 7281,
  "LPL": 7282,
  "Oly": 7283,
  "Sang": 7284,
  "TB": 7285,
  "USE": 7286,
  "WD": 7287,
  "Zu": 7288,
  "cca": 7289,
  "feld": 7290,
  "mpic": 7291,
  "ole": 7292,
  "ova": 7293,
  "ppe": 7294,
  "gun": 7295,
  "tup": 7296,
  "mical": 7297,
  "1235": 7298,
  "1264": 7299,
  "order": 7300,
  "1554": 7301,
  "1722": 7302,
  "1734": 7303,
  "1766": 7304,
  "1471": 7305,
  "1330": 7306,
  "1390": 7307,
  "iner": 7308,
  "range": 7309,
  "ネ": 7310,
  "cei": 7311,
  "609": 7312,
  "them": 7313,
  "ando": 7314,
  "652": 7315,
  "659": 7316,
  "Maxi": 7317,
  "Make": 7318,
  "Remix": 7319,
  "695": 7320,
  "573": 7321,
  "lyn": 7322,
  "783": 7323,
  "ssa": 7324,
  "berry": 7325,
  "771": 7326,
  "kee": 7327,
  "Gate": 7328,
  "Arena": 7329,
  "Shot": 7330,
  "meral": 7331,
  "Unit": 7332,
  "sters": 7333,
  "Paradox": 7334,
  "∈": 7335,
  "Adven": 7336,
  "Hugh": 7337,
  "Peace": 7338,
  "ttle": 7339,
  "AAA": 7340,
  "DOCO": 7341,
  "Reddit": 7342,
  "Active": 7343,
  "ensor": 7344,
  "Benja": 7345,
  "Spin": 7346,
  "Brook": 7347,
  "Brothers": 7348,
  "AlphaGo": 7349,
  "llion": 7350,
  "unique": 7351,
  "partment": 7352,
  "Engineering": 7353,
  "Opera": 7354,
  "small": 7355,
  "ECTION": 7356,
  "Kelly": 7357,
  "tournament": 7358,
  "Creek": 7359,
  "defeated": 7360,
  "Concert": 7361,
  "Makiyo": 7362,
  "Surfshark": 7363,
  "1180": 7364,
  "3100": 7365,
  "529": 7366,
  "724": 7367,
  "736": 7368,
  "832": 7369,
  "932": 7370,
  "967": 7371,
  "976": 7372,
  "Ay": 7373,
  "Ave": 7374,
  "BEST": 7375,
  "DN": 7376,
  "Drop": 7377,
  "Ey": 7378,
  "F6": 7379,
  "FG": 7380,
  "Flu": 7381,
  "Fall": 7382,
  "Gon": 7383,
  "HM": 7384,
  "HQ": 7385,
  "KA": 7386,
  "Ky": 7387,
  "Kor": 7388,
  "Los": 7389,
  "N3": 7390,
  "NON": 7391,
  "OL": 7392,
  "Pia": 7393,
  "PRE": 7394,
  "RAD": 7395,
  "SRAM": 7396,
  "U16": 7397,
  "VCD": 7398,
  "Wol": 7399,
  "XY": 7400,
  "act": 7401,
  "follow": 7402,
  "gran": 7403,
  "good": 7404,
  "hd": 7405,
  "mary": 7406,
  "nch": 7407,
  "nel": 7408,
  "rence": 7409,
  "tent": 7410,
  "wo": 7411,
  "½": 7412,
  "ã": 7413,
  "ό": 7414,
  "О": 7415,
  "י": 7416,
  "deri": 7418,
  "1557": 7419,
  "1551": 7420,
  "1655": 7421,
  "1678": 7422,
  "1696": 7423,
  "lav": 7424,
  "1746": 7425,
  "1749": 7426,
  "1475": 7427,
  "1441": 7428,
  "1484": 7429,
  "1399": 7430,
  "string": 7431,
  "rison": 7432,
  "teo": 7433,
  "eter": 7434,
  "iller": 7435,
  "andra": 7436,
  "boot": 7437,
  "752": 7438,
  "being": 7439,
  "683": 7440,
  "Rev": 7441,
  "Str": 7442,
  "Rob": 7443,
  "Marsh": 7444,
  "vation": 7445,
  "874": 7446,
  "ACS": 7447,
  "static": 7448,
  "1402": 7449,
  "ม": 7450,
  "wei": 7451,
  "CRH": 7452,
  "Hulu": 7453,
  "nett": 7454,
  "BMT": 7455,
  "Disc": 7456,
  "Allstars": 7457,
  "Holdings": 7458,
  "Broad": 7459,
  "Valley": 7460,
  "GMMTV": 7461,
  "VOCAL": 7462,
  "Miller": 7463,
  "Palazzo": 7464,
  "ological": 7465,
  "IPv6": 7466,
  "Rainbow": 7467,
  "Electronic": 7468,
  "Premier": 7469,
  "PENOME": 7470,
  "Mercury": 7471,
  "DOCOMO": 7472,
  "PENOMECO": 7473,
  "635": 7474,
  "864": 7475,
  "931": 7476,
  "937": 7477,
  "956": 7478,
  "972": 7479,
  "Edition": 7480,
  "Fren": 7481,
  "FIR": 7482,
  "Git": 7483,
  "Had": 7484,
  "Mou": 7485,
  "Mol": 7486,
  "Mill": 7487,
  "NL": 7488,
  "NAT": 7489,
  "PRI": 7490,
  "Ted": 7491,
  "Tang": 7492,
  "Wid": 7493,
  "crea": 7494,
  "exi": 7495,
  "flow": 7496,
  "gos": 7497,
  "kn": 7498,
  "prin": 7499,
  "sort": 7500,
  "xon": 7501,
  "Ö": 7502,
  "ŋ": 7503,
  "ш": 7504,
  "big": 7506,
  "tig": 7507,
  "distri": 7508,
  "1020": 7509,
  "1010": 7510,
  "1266": 7511,
  "1261": 7512,
  "pid": 7513,
  "1641": 7514,
  "1751": 7515,
  "arma": 7516,
  "1346": 7517,
  "mur": 7518,
  "three": 7519,
  "rest": 7520,
  "seu": 7521,
  "ね": 7522,
  "cken": 7523,
  "bot": 7524,
  "TCH": 7525,
  "beta": 7526,
  "virus": 7527,
  "995": 7528,
  "884": 7529,
  "885": 7530,
  "886": 7531,
  "Dean": 7532,
  "Delta": 7533,
  "Mira": 7534,
  "YouBike": 7535,
  "motion": 7536,
  "Sele": 7537,
  "Arm": 7538,
  "ISP": 7539,
  "ISS": 7540,
  "Davis": 7541,
  "Daily": 7542,
  "Diam": 7543,
  "poem": 7544,
  "kie": 7545,
  "Paci": 7546,
  "Sie": 7547,
  "Head": 7548,
  "socket": 7549,
  "Word": 7550,
  "AGM": 7551,
  "crip": 7552,
  "Hip": 7553,
  "M1A2": 7554,
  "Prize": 7555,
  "Nord": 7556,
  "CLOS": 7557,
  "Access": 7558,
  "CSI": 7559,
  "County": 7560,
  "parti": 7561,
  "YOU": 7562,
  "Samsung": 7563,
  "match": 7564,
  "Ross": 7565,
  "Bird": 7566,
  "Twins": 7567,
  "longi": 7568,
  "Beautiful": 7569,
  "Original": 7570,
  "August": 7571,
  "username": 7572,
  "Theatre": 7573,
  "Wilhelm": 7574,
  "Benjamin": 7575,
  "060": 7576,
  "564": 7577,
  "664": 7578,
  "817": 7579,
  "831": 7580,
  "853": 7581,
  "919": 7582,
  "958": 7583,
  "942": 7584,
  "959": 7585,
  "979": 7586,
  "Acc": 7587,
  "Cali": 7588,
  "FK": 7589,
  "FNC": 7590,
  "Gas": 7591,
  "GUI": 7592,
  "Hg": 7593,
  "IATA": 7594,
  "JB": 7595,
  "Kore": 7596,
  "Nel": 7597,
  "PU": 7598,
  "PX": 7599,
  "Pit": 7600,
  "Pha": 7601,
  "PDF": 7602,
  "QR": 7603,
  "Schu": 7604,
  "UCC": 7605,
  "Winter": 7606,
  "camp": 7607,
  "cry": 7608,
  "fran": 7609,
  "gb": 7610,
  "hǒng": 7611,
  "hor": 7612,
  "hon": 7613,
  "ist": 7614,
  "lf": 7615,
  "rōng": 7616,
  "Σ": 7617,
  "Н": 7618,
  "det": 7619,
  "lier": 7620,
  "tium": 7621,
  "differ": 7622,
  "1284": 7623,
  "2029": 7624,
  "1673": 7625,
  "1713": 7626,
  "aria": 7627,
  "1425": 7628,
  "1468": 7629,
  "1382": 7630,
  "member": 7631,
  "lty": 7632,
  "ボ": 7633,
  "seo": 7634,
  "804": 7635,
  "ど": 7636,
  "cola": 7637,
  "3800": 7638,
  "657": 7639,
  "Made": 7640,
  "Invest": 7641,
  "nature": 7642,
  "cious": 7643,
  "bai": 7644,
  "cau": 7645,
  "ATI": 7646,
  "Lip": 7647,
  "Department": 7648,
  "CONC": 7649,
  "AMX": 7650,
  "ARI": 7651,
  "Mode": 7652,
  "873": 7653,
  "1204": 7654,
  "ICC": 7655,
  "mers": 7656,
  "graph": 7657,
  "fee": 7658,
  "ั": 7659,
  "Nicho": 7660,
  "Docu": 7661,
  "Luis": 7662,
  "Factory": 7663,
  "CR400": 7664,
  "ences": 7665,
  "Services": 7666,
  "SPA": 7667,
  "family": 7668,
  "Whit": 7669,
  "creen": 7670,
  "Flag": 7671,
  "Trust": 7672,
  "phic": 7673,
  "Howard": 7674,
  "ordan": 7675,
  "final": 7676,
  "Watch": 7677,
  "Smart": 7678,
  "presen": 7679,
  "LAND": 7680,
  "Metropo": 7681,
  "Education": 7682,
  "essional": 7683,
  "Federation": 7684,
  "Giovanni": 7685,
  "contributor": 7686,
  "569": 7687,
  "631": 7688,
  "788": 7689,
  "827": 7690,
  "845": 7691,
  "852": 7692,
  "A330": 7693,
  "B7": 7694,
  "Bol": 7695,
  "Bak": 7696,
  "Bour": 7697,
  "BMP": 7698,
  "Dau": 7699,
  "Ess": 7700,
  "Evan": 7701,
  "G6": 7702,
  "GIR": 7703,
  "IQ": 7704,
  "Lane": 7705,
  "Lyn": 7706,
  "Nokia": 7707,
  "RER": 7708,
  "TTC": 7709,
  "Xi": 7710,
  "YS": 7711,
  "af": 7712,
  "bber": 7713,
  "cour": 7714,
  "fal": 7715,
  "ibn": 7716,
  "nell": 7717,
  "phan": 7718,
  "pus": 7719,
  "ular": 7720,
  "water": 7721,
  "your": 7722,
  "ă": 7723,
  "ngi": 7725,
  "quet": 7726,
  "1227": 7727,
  "1283": 7728,
  "1291": 7729,
  "piě": 7730,
  "1539": 7731,
  "1695": 7732,
  "1682": 7733,
  "1710": 7734,
  "1481": 7735,
  "1356": 7736,
  "music": 7737,
  "stamp": 7738,
  "mea": 7739,
  "rue": 7740,
  "ベ": 7741,
  "tau": 7742,
  "tail": 7743,
  "ふ": 7744,
  "Cher": 7745,
  "Regu": 7746,
  "441": 7747,
  "677": 7748,
  "aun": 7749,
  "iga": 7750,
  "691": 7751,
  "991": 7752,
  "Style": 7753,
  "edom": 7754,
  "March": 7755,
  "797": 7756,
  "897": 7757,
  "Sep": 7758,
  "ACG": 7759,
  "APS": 7760,
  "bye": 7761,
  "song": 7762,
  "1405": 7763,
  "SMO": 7764,
  "denti": 7765,
  "END": 7766,
  "1707": 7767,
  "Nike": 7768,
  "lers": 7769,
  "1124": 7770,
  "Kiwi": 7771,
  "Extra": 7772,
  "path": 7773,
  "MIR": 7774,
  "Guy": 7775,
  "chaft": 7776,
  "र": 7777,
  "EXO": 7778,
  "Berg": 7779,
  "Morgan": 7780,
  "Valen": 7781,
  "HSCR": 7782,
  "Associa": 7783,
  "what": 7784,
  "Virtual": 7785,
  "DKZ": 7786,
  "Double": 7787,
  "Songs": 7788,
  "Russell": 7789,
  "Premium": 7790,
  "WireGuard": 7791,
  "counter": 7792,
  "Number": 7793,
  "Discovery": 7794,
  "Nicholas": 7795,
  "020": 7796,
  "2K": 7797,
  "3166": 7798,
  "523": 7799,
  "842": 7800,
  "841": 7801,
  "977": 7802,
  "AY": 7803,
  "A320": 7804,
  "Cow": 7805,
  "Cau": 7806,
  "Call": 7807,
  "D4": 7808,
  "EB": 7809,
  "Gru": 7810,
  "Got": 7811,
  "GRE": 7812,
  "Ini": 7813,
  "Jin": 7814,
  "JDG": 7815,
  "Kun": 7816,
  "Nat": 7817,
  "O305": 7818,
  "P10": 7819,
  "RMS": 7820,
  "TEP": 7821,
  "VHS": 7822,
  "WC": 7823,
  "Wright": 7824,
  "W3C": 7825,
  "XM": 7826,
  "Zn": 7827,
  "aes": 7828,
  "cou": 7829,
  "dri": 7830,
  "ela": 7831,
  "fl": 7832,
  "fle": 7833,
  "ls": 7834,
  "m2": 7835,
  "ody": 7836,
  "pol": 7837,
  "pay": 7838,
  "µ": 7839,
  "ð": 7840,
  "û": 7841,
  "Г": 7842,
  "jito": 7843,
  "sho": 7844,
  "lid": 7845,
  "1066": 7846,
  "1241": 7847,
  "1295": 7848,
  "nium": 7849,
  "1130": 7850,
  "later": 7851,
  "1433": 7852,
  "1449": 7853,
  "1376": 7854,
  "stad": 7855,
  "third": 7856,
  "mem": 7857,
  "meo": 7858,
  "simo": 7859,
  "1001": 7860,
  "tax": 7861,
  "ば": 7862,
  "ご": 7863,
  "セ": 7864,
  "462": 7865,
  "Chin": 7866,
  "Change": 7867,
  "Challe": 7868,
  "Maj": 7869,
  "India": 7870,
  "vic": 7871,
  "vid": 7872,
  "696": 7873,
  "SAE": 7874,
  "786": 7875,
  "563": 7876,
  "mothy": 7877,
  "owski": 7878,
  "Neil": 7879,
  "Array": 7880,
  "Wei": 7881,
  "PCS": 7882,
  "feat": 7883,
  "1703": 7884,
  "ECE": 7885,
  "Hope": 7886,
  "gov": 7887,
  "Pictures": 7888,
  "arius": 7889,
  "CHO": 7890,
  "Andy": 7891,
  "ADA": 7892,
  "lines": 7893,
  "Government": 7894,
  "Hub": 7895,
  "Cl2": 7896,
  "timestamp": 7897,
  "Blood": 7898,
  "typedef": 7899,
  "ential": 7900,
  "FreeBSD": 7901,
  "Taipei": 7902,
  "Single": 7903,
  "Esmeral": 7904,
  "Talking": 7905,
  "between": 7906,
  "Stadiums": 7907,
  "Advanced": 7908,
  "Memorial": 7909,
  "Anthony": 7910,
  "Jacob": 7911,
  "Esmeralda": 7912,
  "4D": 7913,
  "749": 7914,
  "766": 7915,
  "799": 7916,
  "838": 7917,
  "844": 7918,
  "843": 7919,
  "854": 7920,
  "968": 7921,
  "Apo": 7922,
  "B6": 7923,
  "BW": 7924,
  "Colo": 7925,
  "Candy": 7926,
  "Ep": 7927,
  "FB": 7928,
  "Fr": 7929,
  "Fit": 7930,
  "Faker": 7931,
  "G3": 7932,
  "Hig": 7933,
  "IZ": 7934,
  "Isa": 7935,
  "Iron": 7936,
  "Kam": 7937,
  "Kiss": 7938,
  "Loo": 7939,
  "Mn": 7940,
  "Non": 7941,
  "OBE": 7942,
  "Pl": 7943,
  "Rd": 7944,
  "RIA": 7945,
  "Sat": 7946,
  "Score": 7947,
  "Tr": 7948,
  "Tas": 7949,
  "Tit": 7950,
  "TREAS": 7951,
  "Vinc": 7952,
  "WB": 7953,
  "Woo": 7954,
  "ata": 7955,
  "edu": 7956,
  "emp": 7957,
  "far": 7958,
  "fil": 7959,
  "gger": 7960,
  "series": 7961,
  "ń": 7963,
  "zhǎ": 7965,
  "sult": 7966,
  "dical": 7967,
  "1290": 7968,
  "1265": 7969,
  "1262": 7970,
  "1286": 7971,
  "pit": 7972,
  "1729": 7973,
  "1742": 7974,
  "1438": 7975,
  "1459": 7976,
  "ret": 7977,
  "１": 7978,
  "sir": 7979,
  "ェ": 7980,
  "ゅ": 7981,
  "height": 7982,
  "Cole": 7983,
  "ReMi": 7984,
  "663": 7985,
  "Mee": 7986,
  "Alber": 7987,
  "ARS": 7988,
  "Mojito": 7989,
  "APEC": 7990,
  "Diplo": 7991,
  "Rick": 7992,
  "Nature": 7993,
  "Nik": 7994,
  "DoReMi": 7995,
  "ROR": 7996,
  "march": 7997,
  "Order": 7998,
  "service": 7999,
  "Fund": 8000,
  "Country": 8001,
  "●": 8002,
  "BLACK": 8003,
  "Ship": 8004,
  "friDay": 8005,
  "Ville": 8006,
  "Swing": 8007,
  "Lisa": 8008,
  "Johann": 8009,
  "Hunter": 8010,
  "double": 8011,
  "true": 8012,
  "Australian": 8013,
  "𪸩": 8014,
  "protein": 8015,
  "SNCF": 8016,
  "Jacques": 8017,
  "B9TL": 8018,
  "seudo": 8019,
  "TREASURE": 8020,
  "1190": 8021,
  "718": 8022,
  "733": 8023,
  "837": 8024,
  "879": 8025,
  "928": 8026,
  "922": 8027,
  "948": 8028,
  "966": 8029,
  "A9": 8030,
  "AZ": 8031,
  "B5": 8032,
  "Blen": 8033,
  "C7": 8034,
  "CBD": 8035,
  "FOR": 8036,
  "His": 8037,
  "Jordan": 8038,
  "KL": 8039,
  "Kaka": 8040,
  "LSA": 8041,
  "Ny": 8042,
  "Ness": 8043,
  "NRA": 8044,
  "OC": 8045,
  "Ou": 8046,
  "Oce": 8047,
  "OBC": 8048,
  "Pil": 8049,
  "PET": 8050,
  "Psy": 8051,
  "PDP": 8052,
  "RED": 8053,
  "S22": 8054,
  "Sant": 8055,
  "Tin": 8056,
  "Ul": 8057,
  "UHF": 8058,
  "cēng": 8059,
  "fx": 8060,
  "got": 8061,
  "girl": 8062,
  "nam": 8063,
  "wal": 8064,
  "lips": 8067,
  "title": 8068,
  "zie": 8069,
  "1040": 8070,
  "1240": 8071,
  "1270": 8072,
  "1599": 8073,
  "1717": 8074,
  "1447": 8075,
  "1369": 8076,
  "1373": 8077,
  "muse": 8078,
  "mund": 8079,
  "stand": 8080,
  "station": 8081,
  "sity": 8082,
  "ペ": 8083,
  "amber": 8084,
  "senger": 8085,
  "tang": 8086,
  "ザ": 8087,
  "753": 8088,
  "Map": 8089,
  "Malay": 8090,
  "look": 8091,
  "Revolution": 8092,
  "882": 8093,
  "Living": 8094,
  "983": 8095,
  "Level": 8096,
  "BAS": 8097,
  "BANG": 8098,
  "valu": 8099,
  "conne": 8100,
  "date": 8101,
  "aceae": 8102,
  "fire": 8103,
  "---": 8104,
  "oko": 8105,
  "MAG": 8106,
  "pointer": 8107,
  "Helen": 8108,
  "1403": 8109,
  "Conference": 8110,
  "ASP": 8111,
  "MPEG": 8112,
  "1121": 8113,
  "lins": 8114,
  "gence": 8115,
  "IFPI": 8116,
  "Price": 8117,
  "exe": 8118,
  "YOUNG": 8119,
  "PEG": 8120,
  "Craig": 8121,
  "Farms": 8122,
  "ICOCA": 8123,
  "green": 8124,
  "DAMP": 8125,
  "Ventures": 8126,
  "asonic": 8127,
  "dependent": 8128,
  "Lewis": 8129,
  "1x": 8130,
  "1198": 8131,
  "4x": 8132,
  "746": 8133,
  "819": 8134,
  "814": 8135,
  "813": 8136,
  "824": 8137,
  "851": 8138,
  "964": 8139,
  "Cel": 8140,
  "CERT": 8141,
  "Eid": 8142,
  "Emer": 8143,
  "Gay": 8144,
  "Hur": 8145,
  "Kis": 8146,
  "Khan": 8147,
  "Kap": 8148,
  "Kara": 8149,
  "Las": 8150,
  "Llo": 8151,
  "Mun": 8152,
  "Mbit": 8153,
  "Ped": 8154,
  "Ran": 8155,
  "Ral": 8156,
  "Swi": 8157,
  "Tes": 8158,
  "Us": 8159,
  "VL": 8160,
  "ave": 8161,
  "ech": 8162,
  "ear": 8163,
  "fly": 8164,
  "gǎ": 8165,
  "gor": 8166,
  "gge": 8167,
  "gil": 8168,
  "ik": 8169,
  "ides": 8170,
  "pot": 8171,
  "sar": 8172,
  "wai": 8173,
  "ware": 8174,
  "dec": 8178,
  "chang": 8179,
  "1219": 8180,
  "1254": 8181,
  "oria": 8182,
  "anus": 8183,
  "1676": 8184,
  "lah": 8185,
  "lace": 8186,
  "1714": 8187,
  "1429": 8188,
  "1434": 8189,
  "1444": 8190,
  "1462": 8191,
  "1451": 8192,
  "1483": 8193,
  "1364": 8194,
  "sten": 8195,
  "rio": 8196,
  "Ａ": 8197,
  "tek": 8198,
  "cut": 8199,
  "sequ": 8200,
  "comm": 8201,
  "Mak": 8202,
  "Inf": 8203,
  "losing": 8204,
  "SEN": 8205,
  "IIc": 8206,
  "Cooper": 8207,
  "cir": 8208,
  "593": 8209,
  "996": 8210,
  "883": 8211,
  "Lite": 8212,
  "Deli": 8213,
  "CDR": 8214,
  "774": 8215,
  "apore": 8216,
  "892": 8217,
  "895": 8218,
  "peria": 8219,
  "ISIL": 8220,
  "colo": 8221,
  "1407": 8222,
  "Spy": 8223,
  "commu": 8224,
  "Wise": 8225,
  "Gem": 8226,
  "อ": 8227,
  "provi": 8228,
  "Form": 8229,
  "HiME": 8230,
  "Franz": 8231,
  "refer": 8232,
  "Display": 8233,
  "anese": 8234,
  "single": 8235,
  "example": 8236,
  "nics": 8237,
  "ㄧ": 8238,
  "ㄛ": 8239,
  "DD53": 8240,
  "structure": 8241,
  "Spirit": 8242,
  "Karen": 8243,
  "ministra": 8244,
  "Captain": 8245,
  "PHP": 8246,
  "Object": 8247,
  "mapframe": 8248,
  "Getchu": 8249,
  "Gordon": 8250,
  "integer": 8251,
  "NEXT": 8252,
  "Abdul": 8253,
  "Azure": 8254,
  "VOCALO": 8255,
  "Pacific": 8256,
  "3rd": 8257,
  "862": 8258,
  "Az": 8259,
  "Ass": 8260,
  "E5": 8261,
  "Jar": 8262,
  "JAK": 8263,
  "K10": 8264,
  "Kai": 8265,
  "N64": 8266,
  "Our": 8267,
  "Pow": 8268,
  "RD": 8269,
  "SOS": 8270,
  "Sophi": 8271,
  "T7": 8272,
  "Tal": 8273,
  "Twi": 8274,
  "VG": 8275,
  "Wu": 8276,
  "cco": 8277,
  "dǔn": 8278,
  "gro": 8279,
  "ile": 8280,
  "osu": 8281,
  "dei": 8282,
  "human": 8283,
  "1086": 8284,
  "miR": 8285,
  "1225": 8286,
  "1224": 8287,
  "1258": 8288,
  "orus": 8289,
  "1686": 8290,
  "lae": 8291,
  "1486": 8292,
  "1497": 8293,
  "1310": 8294,
  "1329": 8295,
  "1391": 8296,
  "２": 8297,
  "tage": 8298,
  "theory": 8299,
  "andro": 8300,
  "hed": 8301,
  "Indian": 8302,
  "Republic": 8303,
  "nap": 8304,
  "cip": 8305,
  "people": 8306,
  "ATH": 8307,
  "693": 8308,
  "Death": 8309,
  "Mart": 8310,
  "987": 8311,
  "Leg": 8312,
  "BAC": 8313,
  "hicle": 8314,
  "ARA": 8315,
  "control": 8316,
  "896": 8317,
  "Nexus": 8318,
  "Sean": 8319,
  "Gaming": 8320,
  "Rab": 8321,
  "1108": 8322,
  "1404": 8323,
  "comment": 8324,
  "Nova": 8325,
  "∞": 8326,
  "mys": 8327,
  "Experi": 8328,
  "AVC": 8329,
  "Formation": 8330,
  "Fea": 8331,
  "rono": 8332,
  "DCT": 8333,
  "Dual": 8334,
  "Mono": 8335,
  "NOME": 8336,
  "Prix": 8337,
  "Matt": 8338,
  "SDK": 8339,
  "clear": 8340,
  "villa": 8341,
  "Cele": 8342,
  "Plat": 8343,
  "Virgi": 8344,
  "≥": 8345,
  "Urban": 8346,
  "Francisco": 8347,
  "Lisp": 8348,
  "Victoria": 8349,
  "Photo": 8350,
  "Professional": 8351,
  "Castle": 8352,
  "Scala": 8353,
  "Nerf": 8354,
  "LIFE": 8355,
  "French": 8356,
  "VOCALOID": 8357,
  "040": 8358,
  "080": 8359,
  "2S": 8360,
  "6A": 8361,
  "723": 8362,
  "8500": 8363,
  "858": 8364,
  "859": 8365,
  "914": 8366,
  "934": 8367,
  "944": 8368,
  "969": 8369,
  "953": 8370,
  "Ade": 8371,
  "Bli": 8372,
  "BGM": 8373,
  "Crown": 8374,
  "EMD": 8375,
  "FRAM": 8376,
  "GNOME": 8377,
  "HIG": 8378,
  "Kre": 8379,
  "Kas": 8380,
  "N4": 8381,
  "OG": 8382,
  "OZ": 8383,
  "PST": 8384,
  "PAL": 8385,
  "RR": 8386,
  "Rit": 8387,
  "RGB": 8388,
  "Slo": 8389,
  "Scor": 8390,
  "Tau": 8391,
  "Tot": 8392,
  "Xperia": 8393,
  "Yellow": 8394,
  "ZICO": 8395,
  "ais": 8396,
  "bol": 8397,
  "fur": 8398,
  "hand": 8399,
  "jk": 8400,
  "pter": 8401,
  "sv": 8402,
  "uint": 8403,
  "ï": 8404,
  "ś": 8405,
  "ˋ": 8406,
  "times": 8408,
  "dica": 8409,
  "ency": 8410,
  "003": 8411,
  "1236": 8412,
  "1278": 8413,
  "1263": 8414,
  "1140": 8415,
  "error": 8416,
  "‌": 8417,
  "1716": 8418,
  "1442": 8419,
  "1478": 8420,
  "1360": 8421,
  "1365": 8422,
  "1333": 8423,
  "1341": 8424,
  "sted": 8425,
  "stream": 8426,
  "semi": 8427,
  "tab": 8428,
  "els": 8429,
  "cole": 8430,
  "como": 8431,
  "Math": 8432,
  "STEM": 8433,
  "local": 8434,
  "Theod": 8435,
  "adow": 8436,
  "version": 8437,
  "ATM": 8438,
  "opera": 8439,
  "782": 8440,
  "Roth": 8441,
  "772": 8442,
  "779": 8443,
  "Leo": 8444,
  "891": 8445,
  "Sex": 8446,
  "1208": 8447,
  "ISIS": 8448,
  "Racing": 8449,
  "Shell": 8450,
  "Social": 8451,
  "Body": 8452,
  "พ": 8453,
  "Have": 8454,
  "AIL": 8455,
  "Carter": 8456,
  "Kiii": 8457,
  "Quin": 8458,
  "Andrea": 8459,
  "SO3": 8460,
  "BORN": 8461,
  "TEEN": 8462,
  "Add": 8463,
  "cans": 8464,
  "Pear": 8465,
  "Bili": 8466,
  "Presi": 8467,
  "PPP": 8468,
  "mbH": 8469,
  "Blair": 8470,
  "Days": 8471,
  "Hybrid": 8472,
  "OKA": 8473,
  "BIOS": 8474,
  "Atlan": 8475,
  "Terry": 8476,
  "Ernst": 8477,
  "LGBTQ": 8478,
  "varia": 8479,
  "Partners": 8480,
  "Forest": 8481,
  "Alfred": 8482,
  "Frollo": 8483,
  "doubles": 8484,
  "WISE": 8485,
  "sistant": 8486,
  "Billy": 8487,
  "Retrie": 8488,
  "Century": 8489,
  "Fantasy": 8490,
  "1a": 8491,
  "1194": 8492,
  "834": 8493,
  "849": 8494,
  "941": 8495,
  "Ae": 8496,
  "Bap": 8497,
  "Bye": 8498,
  "BWF": 8499,
  "BOSS": 8500,
  "CAT": 8501,
  "DAI": 8502,
  "Ec": 8503,
  "Fon": 8504,
  "FRE": 8505,
  "FIA": 8506,
  "GU": 8507,
  "JJ": 8508,
  "Look": 8509,
  "Pb": 8510,
  "Plu": 8511,
  "Pun": 8512,
  "Ras": 8513,
  "Tap": 8514,
  "Tak": 8515,
  "Tensor": 8516,
  "Uta": 8517,
  "Wang": 8518,
  "WAN": 8519,
  "aa": 8520,
  "ash": 8521,
  "adi": 8522,
  "bell": 8523,
  "ctu": 8524,
  "gri": 8525,
  "gne": 8526,
  "ging": 8527,
  "how": 8528,
  "kir": 8529,
  "nn": 8530,
  "osi": 8531,
  "omp": 8532,
  "pass": 8533,
  "vant": 8534,
  "wing": 8535,
  "ו": 8536,
  "ة": 8537,
  "zhūn": 8541,
  "dez": 8542,
  "1030": 8543,
  "1099": 8544,
  "1221": 8545,
  "1272": 8546,
  "1533": 8547,
  "1698": 8548,
  "1671": 8549,
  "1413": 8550,
  "1443": 8551,
  "1358": 8552,
  "1396": 8553,
  "ines": 8554,
  "recor": 8555,
  "etti": 8556,
  "atory": 8557,
  "load": 8558,
  "Come": 8559,
  "Cool": 8560,
  "998": 8561,
  "789": 8562,
  "CDK": 8563,
  "773": 8564,
  "1206": 8565,
  "Arch": 8566,
  "figu": 8567,
  "Rai": 8568,
  "Razer": 8569,
  "Suite": 8570,
  "ources": 8571,
  "chester": 8572,
  "sole": 8573,
  "ships": 8574,
  "EPHE": 8575,
  "HKIFF": 8576,
  "MPI": 8577,
  "proper": 8578,
  "Schi": 8579,
  "inae": 8580,
  "dyna": 8581,
  "lard": 8582,
  "Kota": 8583,
  "sys": 8584,
  "Commission": 8585,
  "SCI": 8586,
  "Full": 8587,
  "Charlie": 8588,
  "UTF": 8589,
  "Minute": 8590,
  "Singapore": 8591,
  "litary": 8592,
  "Bobby": 8593,
  "drop": 8595,
  "≤": 8596,
  "operator": 8597,
  "Stanley": 8598,
  "Sorana": 8599,
  "event": 8600,
  "한": 8601,
  "Dynamics": 8602,
  "AMOLED": 8603,
  "Quick": 8604,
  "Application": 8605,
  "UNESCO": 8606,
  "OBCs": 8607,
  "1189": 8608,
  "818": 8609,
  "848": 8610,
  "869": 8611,
  "899": 8612,
  "916": 8613,
  "917": 8614,
  "949": 8615,
  "Adi": 8616,
  "Bis": 8617,
  "Cs": 8618,
  "Cream": 8619,
  "D7": 8620,
  "Dcard": 8621,
  "GSM": 8622,
  "GmbH": 8623,
  "Hou": 8624,
  "Ivan": 8625,
  "Lol": 8626,
  "M24": 8627,
  "Mine": 8628,
  "NEC": 8629,
  "Ore": 8630,
  "RM": 8631,
  "RID": 8632,
  "Swan": 8633,
  "Screen": 8634,
  "TER": 8635,
  "VAL": 8636,
  "Wall": 8637,
  "X2": 8638,
  "acid": 8639,
  "bad": 8640,
  "care": 8641,
  "ctus": 8642,
  "dol": 8643,
  "gau": 8644,
  "jour": 8645,
  "kt": 8646,
  "kle": 8647,
  "lk": 8648,
  "oke": 8649,
  "¥": 8650,
  "ş": 8651,
  "ی": 8652,
  "chān": 8658,
  "length": 8659,
  "tino": 8660,
  "1060": 8661,
  "1211": 8662,
  "1234": 8663,
  "1246": 8664,
  "1110": 8665,
  "1147": 8666,
  "orum": 8667,
  "erra": 8668,
  "1548": 8669,
  "lao": 8670,
  "laus": 8671,
  "1458": 8672,
  "inus": 8673,
  "ries": 8674,
  "tem": 8675,
  "ァ": 8676,
  "Chen": 8677,
  "Chat": 8678,
  "Choi": 8679,
  "500rpm": 8680,
  "SEM": 8681,
  "Review": 8682,
  "Reich": 8683,
  "cipal": 8684,
  "887": 8685,
  "Stray": 8686,
  "ido": 8687,
  "1503": 8688,
  "793": 8689,
  "hibi": 8690,
  "many": 8691,
  "BSI": 8692,
  "Movie": 8693,
  "Arn": 8694,
  "finity": 8695,
  "ED79": 8696,
  "----": 8697,
  "Dale": 8698,
  "ICS": 8699,
  "Lab": 8700,
  "IDS": 8701,
  "Sui": 8702,
  "Logic": 8703,
  "bug": 8704,
  "ITZ": 8705,
  "Sili": 8706,
  "ิ": 8707,
  "Julia": 8708,
  "ROCK": 8709,
  "1123": 8710,
  "myTV": 8711,
  "Lud": 8712,
  "Lucas": 8713,
  "Excel": 8714,
  "Quar": 8715,
  "lence": 8716,
  "Andr": 8717,
  "MOON": 8718,
  "CR300": 8719,
  "BDSM": 8720,
  "large": 8721,
  "Keith": 8722,
  "PPTP": 8723,
  "burn": 8724,
  "1192": 8725,
  "Boom": 8726,
  "Panasonic": 8727,
  "Calli": 8728,
  "Fern": 8729,
  "Mrs": 8730,
  "NEWS": 8731,
  "Hills": 8732,
  "Empi": 8733,
  "Clear": 8734,
  "ologies": 8735,
  "shington": 8736,
  "Machine": 8737,
  "Amiga": 8738,
  "sorted": 8739,
  "haus": 8740,
  "Culture": 8741,
  "Quake": 8742,
  "ospace": 8743,
  "𬓋": 8744,
  "㎡": 8745,
  "formance": 8746,
  "Retrieved": 8747,
  "012": 8748,
  "868": 8749,
  "974": 8750,
  "Aff": 8751,
  "Astra": 8752,
  "BV": 8753,
  "Bb": 8754,
  "Bam": 8755,
  "Blan": 8756,
  "Baker": 8757,
  "C96": 8758,
  "Dass": 8759,
  "E9": 8760,
  "Fay": 8761,
  "G4": 8762,
  "G9": 8763,
  "KF": 8764,
  "Kry": 8765,
  "KEN": 8766,
  "Lay": 8767,
  "LMP": 8768,
  "PER": 8769,
  "RG": 8770,
  "VEn": 8771,
  "VIE": 8772,
  "Yang": 8773,
  "ZE": 8774,
  "Zone": 8775,
  "dn": 8776,
  "eV": 8777,
  "fs": 8778,
  "four": 8779,
  "gang": 8780,
  "gers": 8781,
  "jn": 8782,
  "lǒu": 8783,
  "lūn": 8784,
  "rt": 8785,
  "squ": 8786,
  "ua": 8787,
  "ngo": 8789,
  "dem": 8790,
  "xin": 8791,
  "lei": 8792,
  "zhuāi": 8793,
  "1027": 8794,
  "1070": 8795,
  "1049": 8796,
  "mento": 8797,
  "mili": 8798,
  "006": 8799,
  "1232": 8800,
  "nian": 8801,
  "ants": 8802,
  "1674": 8803,
  "lamb": 8804,
  "arn": 8805,
  "1448": 8806,
  "1439": 8807,
  "1467": 8808,
  "1345": 8809,
  "1386": 8810,
  "1392": 8811,
  "1393": 8812,
  "reg": 8813,
  "＜": 8814,
  "tember": 8815,
  "sii": 8816,
  "rang": 8817,
  "ず": 8818,
  "ats": 8819,
  "cover": 8820,
  "thema": 8821,
  "tom": 8822,
  "654": 8823,
  "Chie": 8824,
  "Magic": 8825,
  "Reg": 8826,
  "nah": 8827,
  "994": 8828,
  "String": 8829,
  "Lie": 8830,
  "LiTV": 8831,
  "Devil": 8832,
  "angle": 8833,
  "Leop": 8834,
  "Lega": 8835,
  "Vilade": 8836,
  "AMR": 8837,
  "vage": 8838,
  "Army": 8839,
  "ISH": 8840,
  "ISM": 8841,
  "file": 8842,
  "Labor": 8843,
  "Raja": 8844,
  "Sue": 8845,
  "Supp": 8846,
  "akh": 8847,
  "IPA": 8848,
  "IPO": 8849,
  "kien": 8850,
  "PS4": 8851,
  "ส": 8852,
  "ALA": 8853,
  "MP3": 8854,
  "USH": 8855,
  "orton": 8856,
  "Three": 8857,
  "Exchange": 8858,
  "wee": 8859,
  "MIL": 8860,
  "TEE": 8861,
  "BMG": 8862,
  "DR2700": 8863,
  "10646": 8864,
  "marker": 8865,
  "Harold": 8866,
  "Washington": 8867,
  "TSB": 8868,
  "Morris": 8869,
  "Holland": 8870,
  "LCK": 8871,
  "born": 8872,
  "UCI": 8873,
  "Patri": 8874,
  "ports": 8875,
  "LPDDR": 8876,
  "LTTE": 8877,
  "LSST": 8878,
  "Turbo": 8879,
  "Grant": 8880,
  "reads": 8881,
  "schema": 8882,
  "street": 8883,
  "Scheme": 8884,
  "Village": 8885,
  "ELEVEn": 8886,
  "Infocom": 8887,
  "article": 8888,
  "GDDR5": 8889,
  "F7F": 8890,
  "NONO": 8891,
  "Strv": 8892,
  "Silicon": 8893,
  "Viladecans": 8894,
  "4200": 8895,
  "963": 8896,
  "ATC": 8897,
  "Avi": 8898,
  "Brow": 8899,
  "CAM": 8900,
  "Cell": 8901,
  "Cana": 8902,
  "CBE": 8903,
  "H6": 8904,
  "H9": 8905,
  "Hus": 8906,
  "JK": 8907,
  "JIS": 8908,
  "KV": 8909,
  "Klein": 8910,
  "Ling": 8911,
  "M60": 8912,
  "Ng": 8913,
  "NTT": 8914,
  "ORI": 8915,
  "Own": 8916,
  "P5": 8917,
  "R9": 8918,
  "VY": 8919,
  "VCR": 8920,
  "Wen": 8921,
  "ating": 8922,
  "cles": 8923,
  "cator": 8924,
  "dar": 8925,
  "foot": 8926,
  "obov": 8927,
  "pap": 8928,
  "ula": 8929,
  "vre": 8930,
  "xml": 8931,
  "zone": 8932,
  "zoom": 8933,
  "jin": 8935,
  "quar": 8936,
  "1012": 8937,
  "1017": 8938,
  "1063": 8939,
  "1214": 8940,
  "1229": 8941,
  "1268": 8942,
  "1242": 8943,
  "1253": 8944,
  "1271": 8945,
  "nier": 8946,
  "1160": 8947,
  "1135": 8948,
  "1677": 8949,
  "1691": 8950,
  "ares": 8951,
  "1419": 8952,
  "1324": 8953,
  "stel": 8954,
  "store": 8955,
  "thod": 8956,
  "root": 8957,
  "rap": 8958,
  "ヴ": 8959,
  "ヒ": 8960,
  "cepha": 8961,
  "tale": 8962,
  "male": 8963,
  "make": 8964,
  "cogni": 8965,
  "both": 8966,
  "3900": 8967,
  "Mala": 8968,
  "Major": 8969,
  "SET": 8970,
  "pex": 8971,
  "oso": 8972,
  "Margar": 8973,
  "deral": 8974,
  "Jois": 8975,
  "rance": 8976,
  "871": 8977,
  "872": 8978,
  "spon": 8979,
  "EDA": 8980,
  "Beach": 8981,
  "ANSI": 8982,
  "home": 8983,
  "ITU": 8984,
  "1307": 8985,
  "1409": 8986,
  "Natural": 8987,
  "therine": 8988,
  "ก": 8989,
  "Doctor": 8990,
  "Ther": 8991,
  "Nov": 8992,
  "arian": 8993,
  "Quali": 8994,
  "Andre": 8995,
  "MOMO": 8996,
  "pul": 8997,
  "Feed": 8998,
  "Kate": 8999,
  "DR2800": 9000,
  "CEMS": 9001,
  "Graphi": 9002,
  "Norman": 9003,
  "nism": 9004,
  "Canada": 9005,
  "Singh": 9006,
  "litan": 9007,
  "DirectShow": 9008,
  "Scot": 9009,
  "fying": 9010,
  "Obser": 9011,
  "Raymond": 9012,
  "Certi": 9013,
  "Break": 9014,
  "Medical": 9015,
  "Oliver": 9016,
  "JUMP": 9017,
  "Bernard": 9018,
  "ganization": 9019,
  "Radar": 9020,
  "Safari": 9021,
  "Hospital": 9022,
  "Tiger": 9023,
  "리": 9024,
  "Olympic": 9025,
  "following": 9026,
  "Vincent": 9027,
  "HIGH": 9028,
  "་": 9029,
  "2n": 9030,
  "734": 9031,
  "9K": 9032,
  "943": 9033,
  "952": 9034,
  "A7": 9035,
  "Af": 9036,
  "Aar": 9037,
  "Age": 9038,
  "Ast": 9039,
  "Apri": 9040,
  "A380": 9041,
  "Bf": 9042,
  "C9": 9043,
  "D6": 9044,
  "EI": 9045,
  "Flip": 9046,
  "Ground": 9047,
  "JS": 9048,
  "JY": 9049,
  "Jun": 9050,
  "KM": 9051,
  "Kal": 9052,
  "M9": 9053,
  "Ms": 9054,
  "M10": 9055,
  "Mall": 9056,
  "NFC": 9057,
  "Ox": 9058,
  "Otto": 9059,
  "SBL": 9060,
  "Ut": 9061,
  "Vla": 9062,
  "XI": 9063,
  "YE": 9064,
  "Yes": 9065,
  "ame": 9066,
  "ava": 9067,
  "aster": 9068,
  "able": 9069,
  "bg": 9070,
  "dos": 9071,
  "fai": 9072,
  "fron": 9073,
  "hman": 9074,
  "here": 9075,
  "ining": 9076,
  "jp": 9077,
  "oid": 9078,
  "plex": 9079,
  "rint": 9080,
  "solo": 9081,
  "x2": 9082,
  "Š": 9083,
  "Λ": 9084,
  "chs": 9088,
  "dule": 9089,
  "bil": 9090,
  "supp": 9091,
  "kun": 9092,
  "1059": 9093,
  "1056": 9094,
  "1054": 9095,
  "005": 9096,
  "1259": 9097,
  "1252": 9098,
  "1282": 9099,
  "piǎo": 9100,
  "arning": 9101,
  "1415": 9102,
  "1426": 9103,
  "1476": 9104,
  "1349": 9105,
  "1363": 9106,
  "1397": 9107,
  "sik": 9108,
  "sec": 9109,
  "offi": 9110,
  "ett": 9111,
  "cki": 9112,
  "ckers": 9113,
  "nei": 9114,
  "neo": 9115,
  "Mail": 9116,
  "Macro": 9117,
  "Indie": 9118,
  "bear": 9119,
  "bang": 9120,
  "694": 9121,
  "Dem": 9122,
  "Marcus": 9123,
  "｣": 9124,
  "AMA": 9125,
  "AMG": 9126,
  "Teach": 9127,
  "Temple": 9128,
  "gation": 9129,
  "spor": 9130,
  "Gabri": 9131,
  "ICT": 9132,
  "ations": 9133,
  "ANN": 9134,
  "Muni": 9135,
  "1308": 9136,
  "Cathe": 9137,
  "Five": 9138,
  "sage": 9139,
  "Intermarch": 9140,
  "Dog": 9141,
  "Thorn": 9142,
  "CNJ": 9143,
  "Example": 9144,
  "Quan": 9145,
  "Quad": 9146,
  "Table": 9147,
  "MIX": 9148,
  "Gusta": 9149,
  "cyclo": 9150,
  "Kath": 9151,
  "vely": 9152,
  "Harris": 9153,
  "240ZJ": 9154,
  "Give": 9155,
  "EEZ": 9156,
  "SHIP": 9157,
  "Genie": 9158,
  "acti": 9159,
  "ffici": 9160,
  "Speed": 9161,
  "Shang": 9162,
  "complex": 9163,
  "Kingdom": 9164,
  "Friends": 9165,
  "stock": 9166,
  "strong": 9167,
  "IOC": 9168,
  "ṣ": 9169,
  "plot": 9170,
  "Scrum": 9171,
  "Schema": 9172,
  "livedoor": 9173,
  "Heaven": 9174,
  "TGV": 9175,
  "Tolkien": 9176,
  "Fisher": 9177,
  "ebly": 9178,
  "Kenneth": 9179,
  "mouth": 9180,
  "Roberts": 9181,
  "relative": 9182,
  "Chromium": 9183,
  "Eidos": 9184,
  "Virginia": 9185,
  "Legacy": 9186,
  "1195": 9187,
  "898": 9188,
  "Aero": 9189,
  "Bart": 9190,
  "Cin": 9191,
  "CAD": 9192,
  "CBN": 9193,
  "Dir": 9194,
  "Hell": 9195,
  "JD": 9196,
  "KTV": 9197,
  "KSK": 9198,
  "M12": 9199,
  "MET": 9200,
  "Nf": 9201,
  "Om": 9202,
  "Roo": 9203,
  "Rau": 9204,
  "Rant": 9205,
  "Room": 9206,
  "Rhyth": 9207,
  "UG": 9208,
  "UH": 9209,
  "U15": 9210,
  "Vu": 9211,
  "Vas": 9212,
  "Wai": 9213,
  "WDF": 9214,
  "bara": 9215,
  "foo": 9216,
  "fus": 9217,
  "g4": 9218,
  "git": 9219,
  "hara": 9220,
  "ita": 9221,
  "pad": 9222,
  "sc": 9223,
  "sat": 9224,
  "­": 9225,
  "dell": 9227,
  "child": 9228,
  "lica": 9229,
  "bino": 9230,
  "tius": 9231,
  "tiger": 9232,
  "zio": 9233,
  "1019": 9234,
  "1011": 9235,
  "1015": 9236,
  "1016": 9237,
  "1032": 9238,
  "1047": 9239,
  "008": 9240,
  "1212": 9241,
  "1297": 9242,
  "niān": 9243,
  "pine": 9244,
  "1412": 9245,
  "1314": 9246,
  "1313": 9247,
  "1394": 9248,
  "gee": 9249,
  "start": 9250,
  "rett": 9251,
  "meta": 9252,
  "methy": 9253,
  "cure": 9254,
  "1006": 9255,
  "び": 9256,
  "ほ": 9257,
  "む": 9258,
  "atten": 9259,
  "4600": 9260,
  "STD": 9261,
  "Cover": 9262,
  "cian": 9263,
  "Rocket": 9264,
  "Marc": 9265,
  "9800": 9266,
  "Victory": 9267,
  "manu": 9268,
  "Temp": 9269,
  "Dai": 9270,
  "Soda": 9271,
  "Anni": 9272,
  "Anton": 9273,
  "Weebly": 9274,
  "area": 9275,
  "Bul": 9276,
  "Today": 9277,
  "ด": 9278,
  "Nice": 9279,
  "Hoy": 9280,
  "Domini": 9281,
  "1127": 9282,
  "AKE": 9283,
  "proto": 9284,
  "Lucky": 9285,
  "Lumia": 9286,
  "Fate": 9287,
  "Forth": 9288,
  "SO2": 9289,
  "TE1": 9290,
  "TEAM": 9291,
  "lands": 9292,
  "Monte": 9293,
  "NO2": 9294,
  "market": 9295,
  "years": 9296,
  "GameCube": 9297,
  "ILD": 9298,
  "280ZJ": 9299,
  "Bracket": 9300,
  "Cyber": 9301,
  "AFI": 9302,
  "1191": 9303,
  "yoga": 9304,
  "lipse": 9305,
  "Produce": 9306,
  "Plaza": 9307,
  "Porta": 9308,
  "Television": 9309,
  "Crazy": 9310,
  "Farm": 9311,
  "Frede": 9312,
  "Danny": 9313,
  "เ": 9314,
  "Histori": 9315,
  "VVVF": 9316,
  "Ryona": 9317,
  "modore": 9318,
  "Flying": 9319,
  "Orange": 9320,
  "Sarah": 9321,
  "16V280ZJ": 9322,
  "float": 9323,
  "Strong": 9324,
  "latitude": 9325,
  "Heinrich": 9326,
  "IMDb": 9327,
  "가": 9328,
  "known": 9329,
  "longitude": 9330,
  "TTCN": 9331,
  "Blender": 9332,
  "Margaret": 9333,
  "+.": 9334,
  "7100": 9335,
  "822": 9336,
  "836": 9337,
  "861": 9338,
  "924": 9339,
  "923": 9340,
  "AIC": 9341,
  "Agency": 9342,
  "B4": 9343,
  "B8": 9344,
  "Evolution": 9345,
  "FPS": 9346,
  "Glen": 9347,
  "HH": 9348,
  "Hoo": 9349,
  "Jere": 9350,
  "Krist": 9351,
  "KING": 9352,
  "LW": 9353,
  "M1895": 9354,
  "Pak": 9355,
  "Pris": 9356,
  "PART": 9357,
  "Seni": 9358,
  "Vul": 9359,
  "Wes": 9360,
  "X1": 9361,
  "XS": 9362,
  "ZFC": 9363,
  "ase": 9364,
  "aign": 9365,
  "bson": 9366,
  "brea": 9367,
  "call": 9368,
  "cchi": 9369,
  "ees": 9370,
  "found": 9371,
  "gr": 9372,
  "hof": 9373,
  "jap": 9374,
  "kV": 9375,
  "lòng": 9376,
  "t2": 9377,
  "wig": 9378,
  "wang": 9379,
  "x3": 9380,
  "ύ": 9381,
  "У": 9382,
  "design": 9386,
  "delta": 9387,
  "during": 9388,
  "2031": 9389,
  "bir": 9390,
  "lute": 9391,
  "zin": 9392,
  "zip": 9393,
  "enberg": 9394,
  "1018": 9395,
  "1035": 9396,
  "1072": 9397,
  "mentation": 9398,
  "1244": 9399,
  "1299": 9400,
  "1170": 9401,
  "1139": 9402,
  "pio": 9403,
  "ery": 9404,
  "aris": 9405,
  "1421": 9406,
  "1455": 9407,
  "1461": 9408,
  "1485": 9409,
  "13000": 9410,
  "1355": 9411,
  "1343": 9412,
  "1387": 9413,
  "1372": 9414,
  "alpha": 9415,
  "rel": 9416,
  "rung": 9417,
  "rid": 9418,
  "rock": 9419,
  "sica": 9420,
  "rate": 9421,
  "else": 9422,
  "そ": 9423,
  "hea": 9424,
  "asons": 9425,
  "Chamber": 9426,
  "STs": 9427,
  "logy": 9428,
  "bei": 9429,
  "SEP": 9430,
  "They": 9431,
  "4400": 9432,
  "4217": 9433,
  "eds": 9434,
  "hang": 9435,
  "mote": 9436,
  "AME": 9437,
  "Prote": 9438,
  "Proper": 9439,
  "ACP": 9440,
  "Dawn": 9441,
  "ICAO": 9442,
  "ICHI": 9443,
  "alism": 9444,
  "colle": 9445,
  "allow": 9446,
  "Sim": 9447,
  "1304": 9448,
  "PSY": 9449,
  "1408": 9450,
  "Wide": 9451,
  "ETS": 9452,
  "ENU": 9453,
  "Juli": 9454,
  "Dong": 9455,
  "government": 9456,
  "1125": 9457,
  "Forum": 9458,
  "Taste": 9459,
  "Kaiser": 9460,
  "Adrian": 9461,
  "wave": 9462,
  "Commodore": 9463,
  "Duke": 9464,
  "Stuart": 9465,
  "म": 9466,
  "EXIT": 9467,
  "micron": 9468,
  "Only": 9469,
  "MDT": 9470,
  "minor": 9471,
  "URN": 9472,
  "Asse": 9473,
  "Alive": 9474,
  "compon": 9475,
  "Friend": 9476,
  "nowledge": 9477,
  "EMU": 9478,
  "Director": 9479,
  "GMM": 9480,
  "Calvin": 9481,
  "Claude": 9482,
  "when": 9483,
  "Freedom": 9484,
  "finals": 9485,
  "Rapper": 9486,
  "PIECE": 9487,
  "Pascal": 9488,
  "Sciences": 9489,
  "Horse": 9490,
  "Technologies": 9491,
  "Haml": 9492,
  "object": 9493,
  "Dolby": 9494,
  "Illu": 9495,
  "styles": 9496,
  "Kirk": 9497,
  "UCLASS": 9498,
  "GROUP": 9499,
  "Austin": 9500,
  "Aerospace": 9501,
  "Protocol": 9502,
  "FashionTV": 9503,
  "BIGBANG": 9504,
  "Storm": 9505,
  "Dropbox": 9506,
  "Diamond": 9507,
  "September": 9508,
  "Kakao": 9509,
  "Ralph": 9510,
  "Bilibili": 9511,
  "라": 9512,
  "090": 9513,
  "067": 9514,
  "11000": 9515,
  "9F": 9516,
  "Agu": 9517,
  "Aur": 9518,
  "AFC": 9519,
  "Bes": 9520,
  "Cm": 9521,
  "Est": 9522,
  "Fur": 9523,
  "Fine": 9524,
  "Fellow": 9525,
  "GTE": 9526,
  "Ghost": 9527,
  "HSD": 9528,
  "Joo": 9529,
  "K3": 9530,
  "Kol": 9531,
  "Kang": 9532,
  "Kali": 9533,
  "Kris": 9534,
  "KAD": 9535,
  "KDE": 9536,
  "LI": 9537,
  "Lid": 9538,
  "MST": 9539,
  "NTSB": 9540,
  "OE": 9541,
  "P1": 9542,
  "Pel": 9543,
  "PBS": 9544,
  "PIE": 9545,
  "RET": 9546,
  "Smal": 9547,
  "Ton": 9548,
  "TARD": 9549,
  "Vor": 9550,
  "Vali": 9551,
  "WRC": 9552,
  "Wings": 9553,
  "Wanna": 9554,
  "YES": 9555,
  "bru": 9556,
  "c4": 9557,
  "clu": 9558,
  "eh": 9559,
  "eli": 9560,
  "each": 9561,
  "every": 9562,
  "effe": 9563,
  "gly": 9564,
  "gori": 9565,
  "hill": 9566,
  "js": 9567,
  "jar": 9568,
  "jay": 9569,
  "nas": 9570,
  "pti": 9571,
  "pak": 9572,
  "xys": 9573,
  "zel": 9574,
  "Ś": 9575,
  "ˇ": 9576,
  "έ": 9577,
  "ق": 9578,
  "sher": 9581,
  "chro": 9582,
  "2040": 9583,
  "2047": 9584,
  "sun": 9585,
  "tif": 9586,
  "tii": 9587,
  "dier": 9588,
  "lun": 9589,
  "lung": 9590,
  "1046": 9591,
  "1218": 9592,
  "1215": 9593,
  "1247": 9594,
  "1243": 9595,
  "1256": 9596,
  "nit": 9597,
  "1138": 9598,
  "1137": 9599,
  "1168": 9600,
  "ordina": 9601,
  "1693": 9602,
  "1414": 9603,
  "1427": 9604,
  "1432": 9605,
  "1491": 9606,
  "zuo": 9607,
  "1378": 9608,
  "1351": 9609,
  "fornia": 9610,
  "stris": 9611,
  "recei": 9612,
  "2758": 9613,
  "５": 9614,
  "roy": 9615,
  "ヘ": 9616,
  "1002": 9617,
  "atta": 9618,
  "cke": 9619,
  "nez": 9620,
  "Magi": 9621,
  "Instru": 9622,
  "SEC": 9623,
  "Cosplay": 9624,
  "peti": 9625,
  "auri": 9626,
  "592": 9627,
  "opo": 9628,
  "SAS": 9629,
  "ards": 9630,
  "Roma": 9631,
  "Robo": 9632,
  "Miami": 9633,
  "Marco": 9634,
  "Marine": 9635,
  "｢": 9636,
  "984": 9637,
  "Youth": 9638,
  "mode": 9639,
  "move": 9640,
  "1207": 9641,
  "Ark": 9642,
  "Sul": 9643,
  "Savage": 9644,
  "Tuber": 9645,
  "Local": 9646,
  "bution": 9647,
  "IPCC": 9648,
  "Ansible": 9649,
  "Boi": 9650,
  "wide": 9651,
  "wich": 9652,
  "1106": 9653,
  "1309": 9654,
  "Spen": 9655,
  "Navi": 9656,
  "sions": 9657,
  "1706": 9658,
  "ว": 9659,
  "ี": 9660,
  "ALX": 9661,
  "←": 9662,
  "gina": 9663,
  "Caro": 9664,
  "Thor": 9665,
  "1129": 9666,
  "Exe": 9667,
  "Exten": 9668,
  "SO4": 9669,
  "BOT": 9670,
  "Feel": 9671,
  "1185": 9672,
  "IFT": 9673,
  "ि": 9674,
  "NOW": 9675,
  "Cortex": 9676,
  "LLC": 9677,
  "Precision": 9678,
  "mbly": 9679,
  "Northern": 9680,
  "Superia": 9681,
  "tric": 9682,
  "Georg": 9683,
  "Abra": 9684,
  "Speci": 9685,
  "Spiri": 9686,
  "XXX": 9687,
  "Japanese": 9688,
  "SUV": 9690,
  "oire": 9691,
  "Boyz": 9692,
  "SNK": 9693,
  "Zip": 9694,
  "Masters": 9695,
  "①": 9696,
  "Championships": 9697,
  "Palmer": 9698,
  "Yoshi": 9699,
  "Niconico": 9700,
  "Larry": 9701,
  "Democra": 9702,
  "Quasimo": 9703,
  "Artists": 9704,
  "Intelligent": 9705,
  "tellite": 9706,
  "Connect": 9707,
  "우": 9708,
  "Faith": 9709,
  "Investment": 9710,
  "MIRROR": 9711,
  "사": 9712,
  "OKAWA": 9713,
  "bgcolor": 9714,
  "Frederick": 9715,
  "TARDIS": 9716,
  "Quasimodo": 9717,
  "013": 9718,
  "065": 9719,
  "1N": 9720,
  "1202": 9721,
  "4B": 9722,
  "5100": 9723,
  "5400": 9724,
  "743": 9725,
  "9600": 9726,
  "A8": 9727,
  "Abi": 9728,
  "Amp": 9729,
  "CSP": 9730,
  "CUB": 9731,
  "CIE": 9732,
  "Dru": 9733,
  "Dum": 9734,
  "Exi": 9735,
  "Even": 9736,
  "Emily": 9737,
  "Easy": 9738,
  "Fol": 9739,
  "Fis": 9740,
  "Food": 9741,
  "FIL": 9742,
  "Gap": 9743,
  "Gia": 9744,
  "GHC": 9745,
  "Hori": 9746,
  "JM": 9747,
  "KW": 9748,
  "Kent": 9749,
  "Mw": 9750,
  "Mand": 9751,
  "MPC": 9752,
  "Nit": 9753,
  "NIST": 9754,
  "OLED": 9755,
  "PW": 9756,
  "PAS": 9757,
  "PDA": 9758,
  "Q3": 9759,
  "Rid": 9760,
  "T5": 9761,
  "Wy": 9762,
  "Xe": 9763,
  "ade": 9764,
  "bby": 9765,
  "fera": 9766,
  "gren": 9767,
  "hop": 9768,
  "horn": 9769,
  "kas": 9770,
  "og": 9771,
  "pta": 9772,
  "sr": 9773,
  "tty": 9774,
  "tja": 9775,
  "wald": 9776,
  "Č": 9777,
  "ž": 9778,
  "ˊ": 9779,
  "lich": 9781,
  "lini": 9782,
  "qiā": 9783,
  "lery": 9784,
  "dise": 9785,
  "tua": 9786,
  "tun": 9787,
  "1037": 9788,
  "1067": 9789,
  "009": 9790,
  "1216": 9791,
  "1226": 9792,
  "1255": 9793,
  "1155": 9794,
  "1158": 9795,
  "1142": 9796,
  "1143": 9797,
  "1154": 9798,
  "pita": 9799,
  "ornis": 9800,
  "lari": 9801,
  "1418": 9802,
  "1494": 9803,
  "1347": 9804,
  "1367": 9805,
  "1374": 9806,
  "index": 9807,
  "gether": 9808,
  "force": 9809,
  "０": 9810,
  "rot": 9811,
  "sier": 9812,
  "amar": 9813,
  "ぐ": 9814,
  "etro": 9815,
  "etra": 9816,
  "ギ": 9817,
  "att": 9818,
  "SEL": 9819,
  "Reference": 9820,
  "vere": 9821,
  "ATENU": 9822,
  "Moni": 9823,
  "Search": 9824,
  "Stadia": 9825,
  "Belie": 9826,
  "Sala": 9827,
  "Shin": 9828,
  "Unity": 9829,
  "1107": 9830,
  "Path": 9831,
  "Pari": 9832,
  "Riot": 9833,
  "phone": 9834,
  "Bull": 9835,
  "Sprint": 9836,
  "aracter": 9837,
  "Naver": 9838,
  "ETF": 9839,
  "Nix": 9840,
  "Pocket": 9841,
  "Carol": 9842,
  "Kick": 9843,
  "UND": 9844,
  "∶": 9845,
  "tings": 9846,
  "AVBW": 9847,
  "ADHD": 9848,
  "orium": 9849,
  "DAY": 9850,
  "OpenMP": 9851,
  "Pul": 9852,
  "Comman": 9853,
  "Commercial": 9854,
  "Biz": 9855,
  "Complex": 9856,
  "velo": 9857,
  "Barry": 9858,
  "Performance": 9859,
  "jave": 9860,
  "SCs": 9861,
  "Vocal": 9862,
  "Universe": 9863,
  "Eugene": 9864,
  "llah": 9865,
  "Markdown": 9866,
  "WTA1000": 9867,
  "Brain": 9868,
  "﹔": 9869,
  "YPE": 9870,
  "Canon": 9871,
  "STARSHIP": 9872,
  "vsky": 9873,
  "Lauren": 9874,
  "special": 9875,
  "NEW": 9876,
  "school": 9877,
  "Rosa": 9878,
  "Mason": 9879,
  "Belle": 9880,
  "Crye": 9881,
  "Studies": 9882,
  "Dennis": 9883,
  "Phoe": 9884,
  "culture": 9885,
  "TIME": 9886,
  "ArcGIS": 9887,
  "Synthe": 9888,
  "LUNA": 9889,
  "Paper": 9890,
  "Podcast": 9891,
  "16V240ZJ": 9892,
  "Economic": 9893,
  "Susan": 9894,
  "yunnan": 9895,
  "Isoxys": 9896,
  "Congress": 9897,
  "tuplet": 9898,
  "CRH380": 9899,
  "California": 9900,
  "Challenge": 9901,
  "film": 9902,
  "Ocean": 9903,
  "Empire": 9904,
  "Cathed": 9905,
  "KADOKAWA": 9906,
  "023": 9907,
  "062": 9908,
  "1B": 9909,
  "739": 9910,
  "763": 9911,
  "AIT": 9912,
  "Eva": 9913,
  "Gl": 9914,
  "Hindu": 9915,
  "Jor": 9916,
  "K1": 9917,
  "KCON": 9918,
  "Knight": 9919,
  "Nak": 9920,
  "Pt": 9921,
  "Ple": 9922,
  "Pot": 9923,
  "Row": 9924,
  "Rho": 9925,
  "Sad": 9926,
  "SVO": 9927,
  "VAR": 9928,
  "VTuber": 9929,
  "Wan": 9930,
  "WTO": 9931,
  "WRK": 9932,
  "d8": 9933,
  "pf": 9934,
  "pel": 9935,
  "pora": 9936,
  "uu": 9937,
  "v2": 9938,
  "ː": 9939,
  "́": 9940,
  "ح": 9941,
  "lium": 9943,
  "leh": 9944,
  "level": 9945,
  "tik": 9946,
  "quin": 9947,
  "did": 9948,
  "tung": 9949,
  "lur": 9950,
  "jun": 9951,
  "10H": 9952,
  "1014": 9953,
  "1228": 9954,
  "1285": 9955,
  "1273": 9956,
  "1119": 9957,
  "1162": 9958,
  "ert": 9959,
  "1428": 9960,
  "1445": 9961,
  "1320": 9962,
  "1312": 9963,
  "1377": 9964,
  "1352": 9965,
  "1389": 9966,
  "ints": 9967,
  "information": 9968,
  "regi": 9969,
  "rocket": 9970,
  "sim": 9971,
  "race": 9972,
  "ltalk": 9973,
  "1008": 9974,
  "tak": 9975,
  "maxi": 9976,
  "offee": 9977,
  "etta": 9978,
  "tern": 9979,
  "tero": 9980,
  "cked": 9981,
  "INA": 9982,
  "Maple": 9983,
  "SEA": 9984,
  "Ready": 9985,
  "ATR": 9986,
  "cty": 9987,
  "optera": 9988,
  "unsigned": 9989,
  "Lili": 9990,
  "Dee": 9991,
  "776": 9992,
  "Lec": 9993,
  "filter": 9994,
  "APT": 9995,
  "Dash": 9996,
  "Dame": 9997,
  "pool": 9998,
  "1102": 9999,
  "1103": 10000,
  "ITS": 10001,
  "1401": 10002,
  "Case": 10003,
  "Spor": 10004,
  "blem": 10005,
  "ToHeart": 10006,
  "Tommy": 10007,
  "MSP": 10008,
  "Nim": 10009,
  "June": 10010,
  "DSR": 10011,
  "REAL": 10012,
  "psy": 10013,
  "Federal": 10014,
  "Collins": 10015,
  "Peak": 10016,
  "OpenGL": 10017,
  "Kee": 10018,
  "Dura": 10019,
  "त": 10020,
  "rene": 10021,
  "SPARC": 10022,
  "Perry": 10023,
  "GPT": 10024,
  "ccer": 10025,
  "Trade": 10026,
  "Private": 10027,
  "orage": 10028,
  "WTA125": 10029,
  "Showcase": 10030,
  "About": 10031,
  "Herbert": 10032,
  "days": 10033,
  "DEET": 10034,
  "Shah": 10035,
  "Leader": 10036,
  "CGI": 10037,
  "spaceflight": 10038,
  "belle": 10040,
  "bilibili": 10041,
  "Laura": 10042,
  "Magnum": 10043,
  "CF3": 10044,
  "Generation": 10045,
  "Emma": 10046,
  "Islands": 10047,
  "Foreign": 10048,
  "close": 10049,
  "Environ": 10050,
  "Grove": 10051,
  "INNER": 10052,
  "JUST": 10053,
  "Ronald": 10054,
  "Alto": 10055,
  "XC60": 10056,
  "Shane": 10057,
  "C5H5": 10058,
  "Justice": 10059,
  "MMORPG": 10060,
  "BLEACH": 10061,
  "Physic": 10062,
  "Texas": 10063,
  "Francesco": 10064,
  "Bradley": 10065,
  "allocator": 10066,
  "archive": 10067,
  "STEREO": 10068,
  "Hughes": 10069,
  "Korea": 10070,
  "Documentary": 10071,
  "Lloyd": 10072,
  "hedron": 10073,
  "svg": 10074,
  "figuration": 10075,
  "lambda": 10076,
  "ORICON": 10077,
  "Graphics": 10078,
  "Senior": 10079,
  "Smalltalk": 10080,
  "CUBRID": 10081,
  "ToHeart2": 10082,
  "021": 10083,
  "033": 10084,
  "043": 10085,
  "053": 10086,
  "1b": 10087,
  "4300": 10088,
  "8X": 10089,
  "A6": 10090,
  "Aw": 10091,
  "Amy": 10092,
  "BG": 10093,
  "Born": 10094,
  "C8": 10095,
  "C13": 10096,
  "Cit": 10097,
  "Cara": 10098,
  "Dhar": 10099,
  "Danger": 10100,
  "DASH": 10101,
  "Eat": 10102,
  "FU": 10103,
  "Figh": 10104,
  "FAA": 10105,
  "Ire": 10106,
  "Kay": 10107,
  "Kau": 10108,
  "LET": 10109,
  "MH": 10110,
  "NER": 10111,
  "OO": 10112,
  "Ober": 10113,
  "Owen": 10114,
  "Peri": 10115,
  "PAD": 10116,
  "PTT": 10117,
  "Ptr": 10118,
  "QT": 10119,
  "Qi": 10120,
  "Rin": 10121,
  "S6": 10122,
  "S26": 10123,
  "Scu": 10124,
  "SDR": 10125,
  "THC": 10126,
  "TOSHI": 10127,
  "Vit": 10128,
  "Veri": 10129,
  "VWF": 10130,
  "WG": 10131,
  "ack": 10132,
  "bl": 10133,
  "c2": 10134,
  "fol": 10135,
  "gamer": 10136,
  "ix": 10137,
  "ln": 10138,
  "nen": 10139,
  "oh": 10140,
  "tton": 10141,
  "ж": 10142,
  "ش": 10143,
  "zhi": 10146,
  "channel": 10147,
  "lix": 10148,
  "dun": 10149,
  "lene": 10150,
  "lena": 10151,
  "tico": 10152,
  "tique": 10153,
  "kus": 10154,
  "1076": 10155,
  "1095": 10156,
  "mind": 10157,
  "miss": 10158,
  "mistry": 10159,
  "1248": 10160,
  "1118": 10161,
  "1131": 10162,
  "1145": 10163,
  "1178": 10164,
  "lac": 10165,
  "arti": 10166,
  "aran": 10167,
  "1423": 10168,
  "1422": 10169,
  "1479": 10170,
  "1482": 10171,
  "1327": 10172,
  "1357": 10173,
  "1398": 10174,
  "1383": 10175,
  "1381": 10176,
  "fort": 10177,
  "thes": 10178,
  "regu": 10179,
  "Ｂ": 10180,
  "teur": 10181,
  "1003": 10182,
  "math": 10183,
  "ets": 10184,
  "ils": 10185,
  "coc": 10186,
  "cock": 10187,
  "ternal": 10188,
  "heim": 10189,
  "near": 10190,
  "asso": 10191,
  "Mack": 10192,
  "Indi": 10193,
  "best": 10194,
  "Report": 10195,
  "bran": 10196,
  "veri": 10197,
  "bac": 10198,
  "bau": 10199,
  "aud": 10200,
  "SAAB": 10201,
  "idal": 10202,
  "Libre": 10203,
  "Member": 10204,
  "moni": 10205,
  "AMMA": 10206,
  "Mojave": 10207,
  "continu": 10208,
  "Josh": 10209,
  "Joint": 10210,
  "893": 10211,
  "Gag": 10212,
  "Bee": 10213,
  "Beam": 10214,
  "Shir": 10215,
  "bul": 10216,
  "Ant": 10217,
  "Any": 10218,
  "Analysis": 10219,
  "aire": 10220,
  "MVV": 10221,
  "SSP": 10222,
  "1101": 10223,
  "1109": 10224,
  "Rio": 10225,
  "pher": 10226,
  "Hei": 10227,
  "Hey": 10228,
  "Bubble": 10229,
  "Cale": 10230,
  "ASO": 10231,
  "WiFi": 10232,
  "endy": 10233,
  "IVER": 10234,
  "Tong": 10235,
  "BLS": 10236,
  "vention": 10237,
  "Factor": 10238,
  "weak": 10239,
  "Rush": 10240,
  "orio": 10241,
  "Pure": 10242,
  "न": 10243,
  "ं": 10244,
  "NO3": 10245,
  "Perl": 10246,
  "Perfect": 10247,
  "Harrison": 10248,
  "EEEE": 10249,
  "Graph": 10250,
  "hyn": 10251,
  "﹕": 10252,
  "Thom": 10253,
  "Warri": 10254,
  "Universit": 10255,
  "737MAX": 10256,
  "crew": 10257,
  "Chuck": 10258,
  "Christi": 10259,
  "sheng": 10260,
  "︁": 10261,
  "Smile": 10262,
  "Finan": 10263,
  "Agri": 10264,
  "Elite": 10265,
  "Turtle": 10266,
  "Plane": 10267,
  "Woman": 10268,
  "CMOS": 10269,
  "Reser": 10270,
  "Melody": 10271,
  "gregate": 10272,
  "≈": 10273,
  "Desk": 10274,
  "ṭ": 10275,
  "FAT32": 10276,
  "Opti": 10277,
  "Medicine": 10278,
  "Community": 10279,
  "Standings": 10280,
  "Blues": 10281,
  "mination": 10282,
  "CASH": 10283,
  "COLLECTION": 10284,
  "Middle": 10285,
  "Cultural": 10286,
  "Australia": 10287,
  "Loren": 10288,
  "Package": 10289,
  "Visa": 10290,
  "position": 10291,
  "Esports": 10292,
  "Integra": 10293,
  "watch": 10294,
  "GitHub": 10295,
  "Evans": 10296,
  "TEP70": 10297,
  "Plant": 10298,
  "Kotaku": 10299,
  "availa": 10300,
  "Shanghai": 10301,
  "Execu": 10302,
  "Cathedral": 10303,
  "018": 10304,
  "046": 10305,
  "032": 10306,
  "073": 10307,
  "093": 10308,
  "2O": 10309,
  "2PM": 10310,
  "2O3": 10311,
  "5200": 10312,
  "Aki": 10313,
  "Bed": 10314,
  "Bot": 10315,
  "Clay": 10316,
  "Cant": 10317,
  "DIN": 10318,
  "Das": 10319,
  "E6": 10320,
  "Ev": 10321,
  "ESA": 10322,
  "EH10": 10323,
  "Fat": 10324,
  "Fitz": 10325,
  "G7": 10326,
  "G10": 10327,
  "G11": 10328,
  "Io": 10329,
  "Ide": 10330,
  "IMI": 10331,
  "JST": 10332,
  "JUN": 10333,
  "KG": 10334,
  "Kr": 10335,
  "Kamp": 10336,
  "Lil": 10337,
  "LPGA": 10338,
  "M8": 10339,
  "Moo": 10340,
  "Octo": 10341,
  "R4": 10342,
  "Rat": 10343,
  "Rang": 10344,
  "Root": 10345,
  "Range": 10346,
  "S8": 10347,
  "Sri": 10348,
  "Ski": 10349,
  "SIL": 10350,
  "Trou": 10351,
  "Tree": 10352,
  "VIII": 10353,
  "WAVE": 10354,
  "YU": 10355,
  "ZIP": 10356,
  "ati": 10357,
  "bank": 10358,
  "could": 10359,
  "dB": 10360,
  "fas": 10361,
  "kDa": 10362,
  "kell": 10363,
  "kara": 10364,
  "using": 10365,
  "ğ": 10366,
  "lization": 10370,
  "kura": 10371,
  "mǐng": 10372,
  "1065": 10373,
  "1055": 10374,
  "1057": 10375,
  "1094": 10376,
  "1238": 10377,
  "1239": 10378,
  "1293": 10379,
  "1115": 10380,
  "1157": 10381,
  "1179": 10382,
  "pie": 10383,
  "ancy": 10384,
  "anensis": 10385,
  "1518": 10386,
  "ones": 10387,
  "lab": 10388,
  "1452": 10389,
  "1325": 10390,
  "mun": 10391,
  "real": 10392,
  "rell": 10393,
  "requi": 10394,
  "respon": 10395,
  "metery": 10396,
  "rup": 10397,
  "roe": 10398,
  "rote": 10399,
  "ヤ": 10400,
  "cuán": 10401,
  "cube": 10402,
  "mag": 10403,
  "mai": 10404,
  "mato": 10405,
  "ゲ": 10406,
  "hei": 10407,
  "next": 10408,
  "Maya": 10409,
  "Manga": 10410,
  "Intro": 10411,
  "bee": 10412,
  "SEVEN": 10413,
  "Cohen": 10414,
  "Rela": 10415,
  "nae": 10416,
  "ndrome": 10417,
  "ATT": 10418,
  "opsis": 10419,
  "edge": 10420,
  "Lic": 10421,
  "Dece": 10422,
  "Destru": 10423,
  "Mela": 10424,
  "mans": 10425,
  "Promotion": 10426,
  "cone": 10427,
  "contra": 10428,
  "config": 10429,
  "rane": 10430,
  "Semi": 10431,
  "Stay": 10432,
  "ISL": 10433,
  "fier": 10434,
  "fishing": 10435,
  "JRA": 10436,
  "ako": 10437,
  "Sonic": 10438,
  "ANET": 10439,
  "IPC": 10440,
  "Muhammad": 10441,
  "Parti": 10442,
  "som": 10443,
  "Bush": 10444,
  "Cape": 10445,
  "SMRT": 10446,
  "Conser": 10447,
  "Gear": 10448,
  "Nate": 10449,
  "IVB": 10450,
  "Julius": 10451,
  "Step": 10452,
  "Stein": 10453,
  "1126": 10454,
  "AKB": 10455,
  "REM": 10456,
  "Nove": 10457,
  "Ford": 10458,
  "full": 10459,
  "SOLO": 10460,
  "Cold": 10461,
  "Symp": 10462,
  "IAU": 10463,
  "Administra": 10464,
  "Huang": 10465,
  "inclu": 10466,
  "1184": 10467,
  "OpenAI": 10468,
  "HOL": 10469,
  "Duo": 10470,
  "Corne": 10471,
  "RISE": 10472,
  "EXID": 10473,
  "Jesus": 10474,
  "NHL": 10475,
  "Disk": 10476,
  "Elli": 10477,
  "ㄜ": 10478,
  "Walk": 10479,
  "GamesRadar": 10480,
  "Hydro": 10481,
  "Holmes": 10482,
  "odd": 10483,
  "troff": 10484,
  "◎": 10485,
  "Freestyle": 10486,
  "Truth": 10487,
  "GTX": 10488,
  "WoRMS": 10489,
  "CMAMMA": 10490,
  "Tokyo": 10491,
  "Hanteo": 10492,
  "Comics": 10493,
  "Earl": 10494,
  "②": 10495,
  "language": 10496,
  "partner": 10497,
  "since": 10498,
  "OPEN": 10499,
  "Lawrence": 10500,
  "⇒": 10501,
  "techn": 10502,
  "Image": 10503,
  "practi": 10504,
  "intosh": 10505,
  "Falcom": 10506,
  "Fortran": 10507,
  "€": 10508,
  "LZ77": 10509,
  "Flower": 10510,
  "Wonderful": 10511,
  "Butter": 10512,
  "Justin": 10513,
  "sease": 10514,
  "P2P": 10515,
  "WHIP": 10516,
  "Wells": 10517,
  "African": 10518,
  "Rankings": 10519,
  "PXA": 10520,
  "Associates": 10521,
  "Higgins": 10522,
  "1xEV": 10523,
  "Chief": 10524,
  "April": 10525,
  "japoni": 10526,
  "016": 10527,
  "056": 10528,
  "1D": 10529,
  "1199": 10530,
  "BK": 10531,
  "Bry": 10532,
  "BET": 10533,
  "BTR": 10534,
  "BERT": 10535,
  "Clu": 10536,
  "Cris": 10537,
  "Deri": 10538,
  "DATA": 10539,
  "Ei": 10540,
  "ETC": 10541,
  "Fed": 10542,
  "Gard": 10543,
  "Gang": 10544,
  "Gill": 10545,
  "Gring": 10546,
  "Glass": 10547,
  "Ich": 10548,
  "IAL": 10549,
  "JSON": 10550,
  "Kum": 10551,
  "KON": 10552,
  "M110": 10553,
  "Mamba": 10554,
  "NSA": 10555,
  "NTO": 10556,
  "NME": 10557,
  "OMG": 10558,
  "OEM": 10559,
  "Pine": 10560,
  "Pitch": 10561,
  "Pseudo": 10562,
  "RV": 10563,
  "Rig": 10564,
  "Rare": 10565,
  "RLE": 10566,
  "RNC": 10567,
  "Ranger": 10568,
  "Rights": 10569,
  "SNA": 10570,
  "SCP": 10571,
  "SING": 10572,
  "TX": 10573,
  "TAS": 10574,
  "WR": 10575,
  "Was": 10576,
  "WINNER": 10577,
  "XL": 10578,
  "YON": 10579,
  "a2": 10580,
  "bh": 10581,
  "bou": 10582,
  "blue": 10583,
  "dal": 10584,
  "eis": 10585,
  "fr": 10586,
  "hind": 10587,
  "kk": 10588,
  "lva": 10589,
  "mēng": 10590,
  "vu": 10591,
  "yr": 10592,
  "Е": 10593,
  "Л": 10594,
  "ն": 10595,
  "ع": 10596,
  "ه": 10597,
  "jing": 10599,
  "xiv": 10600,
  "yung": 10601,
  "lil": 10602,
  "dum": 10603,
  "20S": 10604,
  "lez": 10605,
  "bine": 10606,
  "bike": 10607,
  "bins": 10608,
  "div": 10609,
  "dial": 10610,
  "tuǎn": 10611,
  "ener": 10612,
  "1022": 10613,
  "1090": 10614,
  "1085": 10615,
  "1213": 10616,
  "1257": 10617,
  "1294": 10618,
  "1292": 10619,
  "nion": 10620,
  "pical": 10621,
  "anth": 10622,
  "1431": 10623,
  "1323": 10624,
  "1362": 10625,
  "gem": 10626,
  "thia": 10627,
  "oura": 10628,
  "rei": 10629,
  "mei": 10630,
  "＊": 10631,
  "ltz": 10632,
  "cuit": 10633,
  "sex": 10634,
  "1004": 10635,
  "mae": 10636,
  "へ": 10637,
  "ゴ": 10638,
  "illa": 10639,
  "owa": 10640,
  "hee": 10641,
  "never": 10642,
  "INAX": 10643,
  "vector": 10644,
  "Champ": 10645,
  "Independent": 10646,
  "50000": 10647,
  "6400": 10648,
  "lov": 10649,
  "bey": 10650,
  "6800": 10651,
  "Cop": 10652,
  "Colum": 10653,
  "vian": 10654,
  "ador": 10655,
  "ayo": 10656,
  "Rot": 10657,
  "Dev": 10658,
  "Mii": 10659,
  "795": 10660,
  "OSI": 10661,
  "apy": 10662,
  "Lepto": 10663,
  "COUN": 10664,
  "Moham": 10665,
  "Tea": 10666,
  "person": 10667,
  "Need": 10668,
  "60000": 10669,
  "ACM": 10670,
  "Sugar": 10671,
  "entry": 10672,
  "Saba": 10673,
  "Sales": 10674,
  "Logo": 10675,
  "Another": 10676,
  "alia": 10677,
  "stage": 10678,
  "ITE": 10679,
  "ITY": 10680,
  "ITIL": 10681,
  "ITION": 10682,
  "Param": 10683,
  "ppen": 10684,
  "1305": 10685,
  "Content": 10686,
  "Spark": 10687,
  "Enri": 10688,
  "Bahn": 10689,
  "ASV": 10690,
  "Toyo": 10691,
  "Tonight": 10692,
  "ล": 10693,
  "ค": 10694,
  "EPROM": 10695,
  "Dota": 10696,
  "RECO": 10697,
  "Scho": 10698,
  "Luci": 10699,
  "Luke": 10700,
  "MOVIE": 10701,
  "pack": 10702,
  "SOHR": 10703,
  "Gui": 10704,
  "Ruth": 10705,
  "liner": 10706,
  "NGO": 10707,
  "Compi": 10708,
  "vella": 10709,
  "Harvey": 10710,
  "Willie": 10711,
  "Gior": 10712,
  "Travis": 10713,
  "services": 10714,
  "URR": 10715,
  "hypo": 10716,
  "Chey": 10717,
  "Kura": 10718,
  "ensen": 10719,
  "Animation": 10720,
  "PLUS": 10721,
  "Eleven": 10722,
  "Survey": 10723,
  "Transit": 10724,
  "GAINAX": 10725,
  "white": 10726,
  "Ernest": 10727,
  "Metal": 10728,
  "Digi": 10729,
  "SUMM": 10730,
  "Agda": 10731,
  "Gerald": 10732,
  "tempor": 10733,
  "friend": 10734,
  "Virgin": 10735,
  "Crystal": 10736,
  "formos": 10737,
  "่": 10738,
  "OMON": 10739,
  "Signature": 10740,
  "Russian": 10741,
  "Beauty": 10742,
  "Linked": 10743,
  "Regional": 10744,
  "Police": 10745,
  "Command": 10746,
  "scale": 10747,
  "dorf": 10748,
  "Ahmad": 10749,
  "Crush": 10750,
  "versary": 10751,
  "Secretary": 10752,
  "FIBA": 10753,
  "Paradise": 10754,
  "Philippe": 10755,
  "Maurice": 10756,
  "하": 10757,
  "Rodri": 10758,
  "Bailey": 10759,
  "CinemaScore": 10760,
  "Gregory": 10761,
  "because": 10762,
  "Perez": 10763,
  "Manuel": 10764,
  "NICONICO": 10765,
  "levard": 10766,
  "POSIX": 10767,
  "Piazza": 10768,
  "Pedro": 10769,
  "DisplayPort": 10770,
  "Sophie": 10771,
  "TensorFlow": 10772,
  "Utada": 10773,
  "김": 10774,
  "Calligra": 10775,
  "Affair": 10776,
  "yunnanensis": 10777,
  "October": 10778,
  "December": 10779,
  "Gringoire": 10780,
  "015": 10781,
  "024": 10782,
  "048": 10783,
  "047": 10784,
  "058": 10785,
  "069": 10786,
  "3S": 10787,
  "BED": 10788,
  "Bron": 10789,
  "CY": 10790,
  "Cum": 10791,
  "Crew": 10792,
  "DONG": 10793,
  "Fau": 10794,
  "Fos": 10795,
  "Ft2": 10796,
  "FIVB": 10797,
  "Gig": 10798,
  "Gare": 10799,
  "GTA": 10800,
  "GCC": 10801,
  "GLP": 10802,
  "HU": 10803,
  "Hum": 10804,
  "Hai": 10805,
  "IK": 10806,
  "JA": 10807,
  "Kri": 10808,
  "Kno": 10809,
  "K230": 10810,
  "Lot": 10811,
  "LSD": 10812,
  "Lama": 10813,
  "M113": 10814,
  "MENT": 10815,
  "N6": 10816,
  "PAC": 10817,
  "QF": 10818,
  "Ryu": 10819,
  "Sli": 10820,
  "Tat": 10821,
  "Tess": 10822,
  "UV": 10823,
  "Ukra": 10824,
  "Xa": 10825,
  "XDC": 10826,
  "Zy": 10827,
  "Zim": 10828,
  "a4": 10829,
  "aq": 10830,
  "ax": 10831,
  "az": 10832,
  "action": 10833,
  "c3": 10834,
  "club": 10835,
  "dt": 10836,
  "echo": 10837,
  "kre": 10838,
  "kel": 10839,
  "mble": 10840,
  "plus": 10841,
  "sam": 10842,
  "sse": 10843,
  "sol": 10844,
  "tsu": 10845,
  "vit": 10846,
  "zas": 10847,
  "zero": 10848,
  "®": 10849,
  "dev": 10852,
  "gui": 10853,
  "dult": 10854,
  "duction": 10855,
  "2032": 10856,
  "lett": 10857,
  "sue": 10858,
  "surance": 10859,
  "shua": 10860,
  "chuāi": 10861,
  "ditional": 10862,
  "tune": 10863,
  "tuber": 10864,
  "enos": 10865,
  "1034": 10866,
  "1044": 10867,
  "1087": 10868,
  "1093": 10869,
  "meni": 10870,
  "mil": 10871,
  "1210": 10872,
  "1249": 10873,
  "1251": 10874,
  "nii": 10875,
  "nish": 10876,
  "1152": 10877,
  "anne": 10878,
  "onso": 10879,
  "lash": 10880,
  "1410": 10881,
  "1411": 10882,
  "1336": 10883,
  "1344": 10884,
  "1359": 10885,
  "1361": 10886,
  "1395": 10887,
  "indi": 10888,
  "instru": 10889,
  "geome": 10890,
  "25K": 10891,
  "25T": 10892,
  "stol": 10893,
  "rex": 10894,
  "reus": 10895,
  "revision": 10896,
  "＃": 10897,
  "cea": 10898,
  "ceo": 10899,
  "1007": 10900,
  "1009": 10901,
  "tanic": 10902,
  "mah": 10903,
  "35000": 10904,
  "cohol": 10905,
  "isen": 10906,
  "nung": 10907,
  "null": 10908,
  "46A": 10909,
  "Chow": 10910,
  "Chas": 10911,
  "Ching": 10912,
  "Insi": 10913,
  "Index": 10914,
  "4700": 10915,
  "Theo": 10916,
  "Rei": 10917,
  "Rein": 10918,
  "nay": 10919,
  "bay": 10920,
  "5800": 10921,
  "40000": 10922,
  "Lion": 10923,
  "ury": 10924,
  "CDC": 10925,
  "98A": 10926,
  "apo": 10927,
  "COO": 10928,
  "ctionary": 10929,
  "Most": 10930,
  "Provin": 10931,
  "Tee": 10932,
  "1205": 10933,
  "1209": 10934,
  "APH": 10935,
  "Dio": 10936,
  "oka": 10937,
  "Sult": 10938,
  "Soccer": 10939,
  "alist": 10940,
  "HDR": 10941,
  "SSD": 10942,
  "Pata": 10943,
  "SMTOWN": 10944,
  "Spa": 10945,
  "step": 10946,
  "stead": 10947,
  "Basili": 10948,
  "dens": 10949,
  "dents": 10950,
  "ENCE": 10951,
  "ย": 10952,
  "Interface": 10953,
  "Think": 10954,
  "MyRadio": 10955,
  "process": 10956,
  "aries": 10957,
  "Luck": 10958,
  "AGB": 10959,
  "Sym": 10960,
  "DRT": 10961,
  "DAO": 10962,
  "MCA": 10963,
  "cording": 10964,
  "द": 10965,
  "Baron": 10966,
  "lington": 10967,
  "Macintosh": 10968,
  "Triple": 10969,
  "Isra": 10970,
  "Grey": 10971,
  "Normal": 10972,
  "track": 10973,
  "Ella": 10974,
  "cessing": 10975,
  "﹞": 10976,
  "Cheng": 10977,
  "Chemical": 10978,
  "UEFA": 10979,
  "Speak": 10980,
  "compu": 10981,
  "company": 10982,
  "vesti": 10983,
  "Panzer": 10984,
  "Official": 10985,
  "Scienti": 10986,
  "FFT": 10987,
  "Dancing": 10988,
  "Phillips": 10989,
  "SRP": 10990,
  "Palace": 10991,
  "Silva": 10992,
  "OMR": 10993,
  "Casa": 10994,
  "Gilbert": 10995,
  "AXN": 10996,
  "DIY": 10997,
  "Clostri": 10998,
  "Johannes": 10999,
  "Bandar": 11000,
  "standing": 11001,
  "vatory": 11002,
  "Stock": 11003,
  "S4N4": 11004,
  "Mitchie": 11005,
  "Jeffrey": 11006,
  "Communications": 11007,
  "Kennedy": 11008,
  "Industries": 11009,
  "VISION": 11010,
  "Lunar": 11011,
  "Adventure": 11012,
  "Eyes": 11013,
  "Nelson": 11014,
  "Total": 11015,
  "Arnold": 11016,
  "Aaron": 11017,
  "Vladi": 11018,
  "Spencer": 11019,
  "AVBWU": 11020,
  "Phoebus": 11021,
  "Ireland": 11022,
  "coccus": 11023,
  "Financial": 11024,
  "available": 11025,
  "COUNT": 11026,
  "LinkedIn": 11027,
  "035": 11028,
  "086": 11029,
  "1201": 11030,
  "5300": 11031,
  "6K": 11032,
  "856": 11033,
  "BER": 11034,
  "Brea": 11035,
  "C12": 11036,
  "Ces": 11037,
  "Cano": 11038,
  "Coffee": 11039,
  "DMA": 11040,
  "Dere": 11041,
  "Ek": 11042,
  "ENA": 11043,
  "Ery": 11044,
  "Estate": 11045,
  "FW": 11046,
  "Fen": 11047,
  "FAD": 11048,
  "FDG": 11049,
  "H8": 11050,
  "H12": 11051,
  "Hang": 11052,
  "Honey": 11053,
  "ILO": 11054,
  "Irish": 11055,
  "JIT": 11056,
  "Kind": 11057,
  "Lat": 11058,
  "M7": 11059,
  "M16": 11060,
  "M41": 11061,
  "Meri": 11062,
  "NV": 11063,
  "Ok": 11064,
  "PQ": 11065,
  "PAO": 11066,
  "Pont": 11067,
  "RAC": 11068,
  "Sandy": 11069,
  "Tsu": 11070,
  "Ulti": 11071,
  "Ves": 11072,
  "Ward": 11073,
  "Why": 11074,
  "Y2": 11075,
  "Yama": 11076,
  "a1": 11077,
  "bha": 11078,
  "cp": 11079,
  "cana": 11080,
  "d3": 11081,
  "db": 11082,
  "dam": 11083,
  "eo": 11084,
  "fir": 11085,
  "gl": 11086,
  "gat": 11087,
  "glio": 11088,
  "mpe": 11089,
  "nos": 11090,
  "pth": 11091,
  "psi": 11092,
  "qūn": 11093,
  "tree": 11094,
  "uis": 11095,
  "ws": 11096,
  "ė": 11097,
  "ɛ": 11098,
  "Φ": 11099,
  "ξ": 11100,
  "Κ": 11101,
  "ج": 11102,
  "deli": 11108,
  "dead": 11109,
  "demo": 11110,
  "shin": 11111,
  "lipp": 11112,
  "least": 11113,
  "bing": 11114,
  "titude": 11115,
  "dil": 11116,
  "miya": 11117,
  "nix": 11118,
  "1116": 11119,
  "1141": 11120,
  "1177": 11121,
  "arts": 11122,
  "1416": 11123,
  "1335": 11124,
  "1338": 11125,
  "1332": 11126,
  "1384": 11127,
  "reti": 11128,
  "reau": 11129,
  "result": 11130,
  "mela": 11131,
  "meter": 11132,
  "rite": 11133,
  "0001": 11134,
  "rose": 11135,
  "roll": 11136,
  "rostris": 11137,
  "sile": 11138,
  "ピ": 11139,
  "tape": 11140,
  "tanga": 11141,
  "elds": 11142,
  "mab": 11143,
  "ゼ": 11144,
  "cott": 11145,
  "terator": 11146,
  "ckey": 11147,
  "iso": 11148,
  "numeri": 11149,
  "Maz": 11150,
  "Mang": 11151,
  "Informer": 11152,
  "STEP": 11153,
  "64BV": 11154,
  "Coast": 11155,
  "video": 11156,
  "Reed": 11157,
  "hana": 11158,
  "cale": 11159,
  "igne": 11160,
  "Stream": 11161,
  "Deb": 11162,
  "Mile": 11163,
  "Military": 11164,
  "Alpert": 11165,
  "appe": 11166,
  "COP": 11167,
  "hist": 11168,
  "rys": 11169,
  "rant": 11170,
  "8700": 11171,
  "Gale": 11172,
  "Arcade": 11173,
  "EDM": 11174,
  "ED60": 11175,
  "ERA": 11176,
  "Sulli": 11177,
  "posed": 11178,
  "Mull": 11179,
  "aic": 11180,
  "SSR": 11181,
  "PaK": 11182,
  "stery": 11183,
  "Parker": 11184,
  "noinclude": 11185,
  "PS5": 11186,
  "Cafe": 11187,
  "Concept": 11188,
  "commit": 11189,
  "graphic": 11190,
  "dential": 11191,
  "ETSI": 11192,
  "EPUB": 11193,
  "↔": 11194,
  "Pool": 11195,
  "1128": 11196,
  "CNBC": 11197,
  "TAG": 11198,
  "fume": 11199,
  "kom": 11200,
  "volu": 11201,
  "AGC": 11202,
  "Guide": 11203,
  "called": 11204,
  "orian": 11205,
  "Admi": 11206,
  "Hua": 11207,
  "NCE": 11208,
  "Hide": 11209,
  "1181": 11210,
  "HOUSE": 11211,
  "NOAA": 11212,
  "lings": 11213,
  "Perfume": 11214,
  "Edwin": 11215,
  "Gibson": 11216,
  "NH2": 11217,
  "Gray": 11218,
  "Graham": 11219,
  "Track": 11220,
  "Davies": 11221,
  "CLI": 11222,
  "Tyler": 11223,
  "Schools": 11224,
  "ㄏ": 11225,
  "Wally": 11226,
  "﹝": 11227,
  "Nations": 11228,
  "Count": 11229,
  "Georges": 11230,
  "Hermann": 11231,
  "AO3": 11232,
  "Leaf": 11233,
  "DMZ": 11234,
  "senet": 11235,
  "3A4": 11236,
  "Launch": 11237,
  "Ferdin": 11238,
  "anies": 11239,
  "database": 11240,
  "GEO": 11241,
  "Critic": 11242,
  "Oblast": 11243,
  "ु": 11244,
  "EVER": 11245,
  "BanG": 11246,
  "launches": 11247,
  "Render": 11248,
  "sinensis": 11249,
  "Publishing": 11250,
  "NMDA": 11251,
  "SVT": 11252,
  "Whats": 11253,
  "Cervo": 11254,
  "Leonard": 11255,
  "THQ": 11256,
  "Computing": 11257,
  "Haskell": 11258,
  "PRODU": 11259,
  "ctoid": 11260,
  "Oracle": 11261,
  "Roundcube": 11262,
  "Railway": 11263,
  "Intelligence": 11264,
  "Gym": 11265,
  "GROW": 11266,
  "science": 11267,
  "buckets": 11268,
  "articles": 11269,
  "sockaddr": 11270,
  "HYBE": 11271,
  "Architecture": 11272,
  "exit": 11273,
  "district": 11274,
  "GIRL": 11275,
  "Malaysia": 11276,
  "Atlantic": 11277,
  "Eclipse": 11278,
  "Ludwig": 11279,
  "Canadian": 11280,
  "9K37": 11281,
  "methyl": 11282,
  "Anniversary": 11283,
  "Jeremy": 11284,
  "Executive": 11285,
  "Destructoid": 11286,
  "XDCAM": 11287,
  "PRODUCE": 11288,
  "017": 11289,
  "029": 11290,
  "088": 11291,
  "094": 11292,
  "091": 11293,
  "2C": 11294,
  "4C": 11295,
  "4Minute": 11296,
  "7k": 11297,
  "Amen": 11298,
  "Asp": 11299,
  "ADV": 11300,
  "AES": 11301,
  "Amb": 11302,
  "Bing": 11303,
  "Brew": 11304,
  "CX": 11305,
  "C15": 11306,
  "C60": 11307,
  "Clin": 11308,
  "CES": 11309,
  "C10H": 11310,
  "Dry": 11311,
  "DIS": 11312,
  "E4": 11313,
  "EVA": 11314,
  "E233": 11315,
  "FP": 11316,
  "Foo": 11317,
  "FTT": 11318,
  "Gos": 11319,
  "Gur": 11320,
  "GSh": 11321,
  "GHQ": 11322,
  "HIDE": 11323,
  "Id": 11324,
  "Ira": 11325,
  "IRES": 11326,
  "J48": 11327,
  "L5": 11328,
  "LUS": 11329,
  "LIM": 11330,
  "LAB": 11331,
  "MID": 11332,
  "MWe": 11333,
  "MRT": 11334,
  "MBE": 11335,
  "NBS": 11336,
  "OW": 11337,
  "Ole": 11338,
  "OAD": 11339,
  "Omar": 11340,
  "Omicron": 11341,
  "Pos": 11342,
  "PDC": 11343,
  "PINK": 11344,
  "Sn": 11345,
  "Tum": 11346,
  "TED": 11347,
  "TFT": 11348,
  "U22": 11349,
  "UAL": 11350,
  "Vari": 11351,
  "WNBA": 11352,
  "YZ": 11353,
  "cow": 11354,
  "cara": 11355,
  "d6": 11356,
  "dson": 11357,
  "f8": 11358,
  "fz": 11359,
  "fall": 11360,
  "fford": 11361,
  "goo": 11362,
  "grou": 11363,
  "kat": 11364,
  "ktor": 11365,
  "lb": 11366,
  "llar": 11367,
  "mL": 11368,
  "mara": 11369,
  "omi": 11370,
  "send": 11371,
  "yang": 11372,
  "ψ": 11373,
  "guel": 11376,
  "chia": 11377,
  "lies": 11378,
  "2077": 11379,
  "sula": 11380,
  "dish": 11381,
  "lutions": 11382,
  "ente": 11383,
  "1021": 11384,
  "1069": 11385,
  "1088": 11386,
  "1061": 11387,
  "1062": 11388,
  "1097": 11389,
  "1096": 11390,
  "1237": 11391,
  "1267": 11392,
  "1287": 11393,
  "1175": 11394,
  "1133": 11395,
  "anor": 11396,
  "1417": 11397,
  "1446": 11398,
  "1348": 11399,
  "invest": 11400,
  "formes": 11401,
  "aland": 11402,
  "stle": 11403,
  "thro": 11404,
  "research": 11405,
  "tele": 11406,
  "rol": 11407,
  "six": 11408,
  "rage": 11409,
  "cedu": 11410,
  "cele": 11411,
  "sexu": 11412,
  "sein": 11413,
  "tative": 11414,
  "elma": 11415,
  "げ": 11416,
  "ざ": 11417,
  "coin": 11418,
  "coordina": 11419,
  "heart": 11420,
  "INI": 11421,
  "isse": 11422,
  "tok": 11423,
  "Maha": 11424,
  "STOR": 11425,
  "loe": 11426,
  "CoA": 11427,
  "Cox": 11428,
  "Coin": 11429,
  "visi": 11430,
  "vities": 11431,
  "Ree": 11432,
  "Reco": 11433,
  "veral": 11434,
  "cili": 11435,
  "irs": 11436,
  "Start": 11437,
  "7800": 11438,
  "5600": 11439,
  "MeV": 11440,
  "Mecha": 11441,
  "Meyer": 11442,
  "Marty": 11443,
  "Mario": 11444,
  "Alcohol": 11445,
  "BABY": 11446,
  "dain": 11447,
  "ACAF": 11448,
  "APA": 11449,
  "ICK": 11450,
  "Lami": 11451,
  "Latin": 11452,
  "Raj": 11453,
  "Sac": 11454,
  "buil": 11455,
  "Boe": 11456,
  "Bom": 11457,
  "SS2": 11458,
  "ITH": 11459,
  "ITX": 11460,
  "ffy": 11461,
  "mmons": 11462,
  "noon": 11463,
  "Bud": 11464,
  "Confe": 11465,
  "Filter": 11466,
  "Ticket": 11467,
  "Wiz": 11468,
  "ENG": 11469,
  "Nich": 11470,
  "Dogs": 11471,
  "Luna": 11472,
  "CHI": 11473,
  "Tag": 11474,
  "SOAP": 11475,
  "Cut": 11476,
  "Rule": 11477,
  "orien": 11478,
  "Fee": 11479,
  "jective": 11480,
  "Him": 11481,
  "Hipp": 11482,
  "mony": 11483,
  "ghter": 11484,
  "MCT": 11485,
  "systems": 11486,
  "Put": 11487,
  "Serge": 11488,
  "reached": 11489,
  "Bright": 11490,
  "Santos": 11491,
  "fast": 11492,
  "factor": 11493,
  "Edmund": 11494,
  "Giu": 11495,
  "Giuse": 11496,
  "cm3": 11497,
  "Train": 11498,
  "Travel": 11499,
  "stice": 11500,
  "PO4": 11501,
  "output": 11502,
  "Petro": 11503,
  "lette": 11504,
  "ORF": 11505,
  "Counter": 11506,
  "Aircraft": 11507,
  "Chiesa": 11508,
  "Cemetery": 11509,
  "starter": 11510,
  "WEB": 11511,
  "Atta": 11512,
  "stoma": 11513,
  "𫊸": 11514,
  "Eurogamer": 11515,
  "Croquet": 11516,
  "youtube": 11517,
  "LAY": 11518,
  "German": 11519,
  "△": 11520,
  "default": 11521,
  "PDT": 11522,
  "Maggie": 11523,
  "의": 11524,
  "DDR3": 11525,
  "tiative": 11526,
  "Minix": 11527,
  "broad": 11528,
  "้": 11529,
  "Catalo": 11530,
  "Franklin": 11531,
  "launched": 11532,
  "Journey": 11533,
  "Models": 11534,
  "C6H5": 11535,
  "Treo": 11536,
  "Electric": 11537,
  "WOW": 11538,
  "DeepMind": 11539,
  "hausen": 11540,
  "Hamilton": 11541,
  "Ashley": 11542,
  "extra": 11543,
  "black": 11544,
  "KwK": 11545,
  "Boss": 11546,
  "Hawai": 11547,
  "♯": 11548,
  "Dinosau": 11549,
  "Robinson": 11550,
  "ception": 11551,
  "Michelle": 11552,
  "Felix": 11553,
  "Self": 11554,
  "against": 11555,
  "cription": 11556,
  "CONCACAF": 11557,
  "CR400AF": 11558,
  "BASIC": 11559,
  "avex": 11560,
  "early": 11561,
  "Legend": 11562,
  "BACnet": 11563,
  "Rabbit": 11564,
  "Platform": 11565,
  "Theodore": 11566,
  "Bapti": 11567,
  "Choice": 11568,
  "Oxford": 11569,
  "front": 11570,
  "Gustav": 11571,
  "Nf6": 11572,
  "OECD": 11573,
  "ALX500": 11574,
  "Caroline": 11575,
  "Abraham": 11576,
  "FILM": 11577,
  "CheyTac": 11578,
  "039": 11579,
  "066": 11580,
  "077": 11581,
  "1G": 11582,
  "22000": 11583,
  "7400": 11584,
  "9100": 11585,
  "9500": 11586,
  "Av": 11587,
  "AAC": 11588,
  "ADS": 11589,
  "C16": 11590,
  "CID": 11591,
  "CET": 11592,
  "Dit": 11593,
  "Effe": 11594,
  "Fm": 11595,
  "FAM": 11596,
  "FAC": 11597,
  "FAI": 11598,
  "FRS": 11599,
  "GY": 11600,
  "G20": 11601,
  "Gree": 11602,
  "Grow": 11603,
  "HIS": 11604,
  "HIT": 11605,
  "HSPA": 11606,
  "IUP": 11607,
  "Ibra": 11608,
  "JW": 11609,
  "JScript": 11610,
  "KU": 11611,
  "Kil": 11612,
  "Lily": 11613,
  "MJ": 11614,
  "MN": 11615,
  "MAR": 11616,
  "MIPS": 11617,
  "Nou": 11618,
  "Nes": 11619,
  "Nas": 11620,
  "OV": 11621,
  "OUT": 11622,
  "PTC": 11623,
  "PDS": 11624,
  "Plas": 11625,
  "R7": 11626,
  "Ris": 11627,
  "Rhi": 11628,
  "Race": 11629,
  "S5": 11630,
  "Sort": 11631,
  "SDO": 11632,
  "TRI": 11633,
  "Trin": 11634,
  "TBF": 11635,
  "UDP": 11636,
  "VMS": 11637,
  "X100": 11638,
  "Yau": 11639,
  "Z99": 11640,
  "alu": 11641,
  "achie": 11642,
  "bound": 11643,
  "bring": 11644,
  "dad": 11645,
  "epi": 11646,
  "equi": 11647,
  "fold": 11648,
  "iPod": 11649,
  "jang": 11650,
  "o3": 11651,
  "ppi": 11652,
  "rk": 11653,
  "tam": 11654,
  "ure": 11655,
  "uri": 11656,
  "umph": 11657,
  "vard": 11658,
  "vine": 11659,
  "whe": 11660,
  "wall": 11661,
  "ylent": 11662,
  "Á": 11663,
  "Β": 11664,
  "ר": 11665,
  "ל": 11666,
  "ف": 11667,
  "ك": 11668,
  "deca": 11673,
  "delete": 11674,
  "hui": 11675,
  "guar": 11676,
  "chr": 11677,
  "ching": 11678,
  "chard": 11679,
  "liday": 11680,
  "dur": 11681,
  "1023": 11682,
  "1036": 11683,
  "1033": 11684,
  "mik": 11685,
  "minu": 11686,
  "18000": 11687,
  "1298": 11688,
  "nite": 11689,
  "1117": 11690,
  "1134": 11691,
  "1132": 11692,
  "1149": 11693,
  "1172": 11694,
  "16000": 11695,
  "16GB": 11696,
  "lach": 11697,
  "17000": 11698,
  "arg": 11699,
  "argu": 11700,
  "1437": 11701,
  "1334": 11702,
  "input": 11703,
  "stes": 11704,
  "tham": 11705,
  "ought": 11706,
  "method": 11707,
  "rod": 11708,
  "simi": 11709,
  "sizer": 11710,
  "ホ": 11711,
  "culty": 11712,
  "tag": 11713,
  "elf": 11714,
  "ello": 11715,
  "copy": 11716,
  "these": 11717,
  "term": 11718,
  "TCHA": 11719,
  "today": 11720,
  "Mathema": 11721,
  "Inno": 11722,
  "Indone": 11723,
  "STAGE": 11724,
  "iten": 11725,
  "Theory": 11726,
  "Resi": 11727,
  "Return": 11728,
  "bacter": 11729,
  "cape": 11730,
  "ospha": 11731,
  "78X": 11732,
  "hack": 11733,
  "urs": 11734,
  "NAD": 11735,
  "NAL": 11736,
  "Miguel": 11737,
  "derma": 11738,
  "｜": 11739,
  "Alle": 11740,
  "COMP": 11741,
  "Vic": 11742,
  "Joshua": 11743,
  "pers": 11744,
  "gade": 11745,
  "dak": 11746,
  "Season": 11747,
  "ACC": 11748,
  "Bear": 11749,
  "Beck": 11750,
  "orem": 11751,
  "Lai": 11752,
  "Radi": 11753,
  "Dictionary": 11754,
  "Same": 11755,
  "Shaun": 11756,
  "Shadow": 11757,
  "Jake": 11758,
  "Jazz": 11759,
  "bubble": 11760,
  "IPB": 11761,
  "Mul": 11762,
  "Mule": 11763,
  "inten": 11764,
  "1104": 11765,
  "chez": 11766,
  "node": 11767,
  "PSR": 11768,
  "Buck": 11769,
  "Bump": 11770,
  "Cash": 11771,
  "Console": 11772,
  "MSI": 11773,
  "EPR": 11774,
  "Julie": 11775,
  "MP5": 11776,
  "rism": 11777,
  "Thelma": 11778,
  "prof": 11779,
  "myr": 11780,
  "Expo": 11781,
  "Pharma": 11782,
  "Taq": 11783,
  "SOHO": 11784,
  "Guin": 11785,
  "Guil": 11786,
  "cycle": 11787,
  "often": 11788,
  "orial": 11789,
  "Fears": 11790,
  "MCB": 11791,
  "cord": 11792,
  "Franco": 11793,
  "ression": 11794,
  "Monkey": 11795,
  "Study": 11796,
  "NOAH": 11797,
  "SPE": 11798,
  "Barbara": 11799,
  "DOWN": 11800,
  "BEJ48": 11801,
  "Organization": 11802,
  "phase": 11803,
  "trax": 11804,
  "Berry": 11805,
  "URA": 11806,
  "Supernova": 11807,
  "accu": 11808,
  "access": 11809,
  "Acti": 11810,
  "GOT7": 11811,
  "Check": 11812,
  "donna": 11813,
  "Ⅳ": 11814,
  "NSF": 11815,
  "img": 11816,
  "Airport": 11817,
  "parenti": 11818,
  "Shake": 11819,
  "Spir": 11820,
  "229E": 11821,
  "Chung": 11822,
  "Value": 11823,
  "Chica": 11824,
  "DMM": 11825,
  "GABA": 11826,
  "LTD": 11827,
  "Clau": 11828,
  "Turner": 11829,
  "Resort": 11830,
  "Resources": 11831,
  "KKTV": 11832,
  "Function": 11833,
  "AEG": 11834,
  "KIZ": 11835,
  "unit": 11836,
  "CodeCamp": 11837,
  "Partner": 11838,
  "Venus": 11839,
  "UMTS": 11840,
  "Lantis": 11841,
  "Register": 11842,
  "Diego": 11843,
  "death": 11844,
  "Jennie": 11845,
  "appli": 11846,
  "Spoon": 11847,
  "CANopen": 11848,
  "KEY": 11849,
  "야": 11850,
  "Adams": 11851,
  "MultiCam": 11852,
  "Welcome": 11853,
  "Jerry": 11854,
  "ELEVEN": 11855,
  "species": 11856,
  "freeCodeCamp": 11857,
  "⁵": 11858,
  "VISUAL": 11859,
  "orbital": 11860,
  "Marshall": 11861,
  "FIRST": 11862,
  "Widget": 11863,
  "B7RLE": 11864,
  "Initiative": 11865,
  "stadt": 11866,
  "Apogee": 11867,
  "Titan": 11868,
  "values": 11869,
  "connect": 11870,
  "Swift": 11871,
  "reference": 11872,
  "President": 11873,
  "hibition": 11874,
  "Suica": 11875,
  "Patricia": 11876,
  "Hoyts": 11877,
  "Lidl": 11878,
  "gorith": 11879,
  "LUNAR": 11880,
  "bacteri": 11881,
  "technology": 11882,
  "RECORDS": 11883,
  "Basilica": 11884,
  "Clostridium": 11885,
  "Ferdinand": 11886,
  "Giuseppe": 11887,
  "Hawaii": 11888,
  "parentid": 11889,
  "011": 11890,
  "014": 11891,
  "025": 11892,
  "028": 11893,
  "026": 11894,
  "084": 11895,
  "082": 11896,
  "1197": 11897,
  "1mple": 11898,
  "5D": 11899,
  "6200": 11900,
  "Apex": 11901,
  "BJ": 11902,
  "BEC": 11903,
  "Cp": 11904,
  "CRE": 11905,
  "CSL": 11906,
  "DY": 11907,
  "Did": 11908,
  "DSS": 11909,
  "Eo": 11910,
  "Eth": 11911,
  "EAS": 11912,
  "Fru": 11913,
  "FSB": 11914,
  "Follow": 11915,
  "GQ": 11916,
  "Ges": 11917,
  "Gren": 11918,
  "HG": 11919,
  "HV": 11920,
  "Hin": 11921,
  "Icon": 11922,
  "IES": 11923,
  "Igna": 11924,
  "JE": 11925,
  "JIN": 11926,
  "Khu": 11927,
  "Kru": 11928,
  "Lap": 11929,
  "MAT": 11930,
  "NX": 11931,
  "Pig": 11932,
  "Pai": 11933,
  "RW": 11934,
  "Rum": 11935,
  "SIV": 11936,
  "SCN": 11937,
  "SHR": 11938,
  "Scar": 11939,
  "TZ": 11940,
  "Tg": 11941,
  "Tank": 11942,
  "TYPE": 11943,
  "UART": 11944,
  "Usenet": 11945,
  "WEC": 11946,
  "WCT": 11947,
  "WWF": 11948,
  "XR": 11949,
  "X200": 11950,
  "YC": 11951,
  "Yun": 11952,
  "Z17": 11953,
  "bāi": 11954,
  "bass": 11955,
  "ctic": 11956,
  "d2": 11957,
  "equ": 11958,
  "edi": 11959,
  "f1": 11960,
  "gla": 11961,
  "hood": 11962,
  "ius": 11963,
  "jer": 11964,
  "ked": 11965,
  "money": 11966,
  "mAh": 11967,
  "nh": 11968,
  "rh": 11969,
  "rine": 11970,
  "sent": 11971,
  "source": 11972,
  "s1mple": 11973,
  "talk": 11974,
  "v1": 11975,
  "wǎi": 11976,
  "woo": 11977,
  "ą": 11978,
  "ř": 11979,
  "ф": 11980,
  "ё": 11981,
  "zhou": 11984,
  "lico": 11985,
  "dual": 11986,
  "bic": 11987,
  "bilis": 11988,
  "suc": 11989,
  "tima": 11990,
  "tizen": 11991,
  "quo": 11992,
  "diè": 11993,
  "display": 11994,
  "just": 11995,
  "zil": 11996,
  "1031": 11997,
  "1073": 11998,
  "1071": 11999,
  "1091": 12000,
  "1222": 12001,
  "1245": 12002,
  "1113": 12003,
  "1148": 12004,
  "1161": 12005,
  "1171": 12006,
  "eror": 12007,
  "online": 12008,
  "around": 12009,
  "1366": 12010,
  "formed": 12011,
  "much": 12012,
  "rez": 12013,
  "restri": 12014,
  "mex": 12015,
  "ridge": 12016,
  "３": 12017,
  "rau": 12018,
  "6061": 12019,
  "seg": 12020,
  "1005": 12021,
  "tato": 12022,
  "mak": 12023,
  "coe": 12024,
  "Chau": 12025,
  "Chorus": 12026,
  "Into": 12027,
  "Innova": 12028,
  "33A": 12029,
  "Colt": 12030,
  "viri": 12031,
  "vita": 12032,
  "brand": 12033,
  "igo": 12034,
  "6600": 12035,
  "SAD": 12036,
  "8800": 12037,
  "Lim": 12038,
  "NADP": 12039,
  "Miz": 12040,
  "Meh": 12041,
  "apon": 12042,
  "appro": 12043,
  "Leu": 12044,
  "CO3": 12045,
  "mana": 12046,
  "Mohammad": 12047,
  "JoJo": 12048,
  "894": 12049,
  "rano": 12050,
  "600V": 12051,
  "Sei": 12052,
  "spar": 12053,
  "1203": 12054,
  "120km": 12055,
  "Begin": 12056,
  "ERM": 12057,
  "Rachel": 12058,
  "Diana": 12059,
  "IDC": 12060,
  "IDF": 12061,
  "Sula": 12062,
  "Sham": 12063,
  "Share": 12064,
  "Lover": 12065,
  "docu": 12066,
  "given": 12067,
  "hoc": 12068,
  "alization": 12069,
  "SSL": 12070,
  "Pale": 12071,
  "Sierra": 12072,
  "Ride": 12073,
  "soci": 12074,
  "1302": 12075,
  "Budd": 12076,
  "Bala": 12077,
  "Titanic": 12078,
  "saw": 12079,
  "ป": 12080,
  "lerc": 12081,
  "Dome": 12082,
  "yah": 12083,
  "Piano": 12084,
  "Pietro": 12085,
  "Carlo": 12086,
  "Thin": 12087,
  "UNO": 12088,
  "Phen": 12089,
  "CHILD": 12090,
  "TOG": 12091,
  "Format": 12092,
  "erie": 12093,
  "AG600": 12094,
  "Gul": 12095,
  "Kabu": 12096,
  "1183": 12097,
  "Pew": 12098,
  "Combat": 12099,
  "व": 12100,
  "Corp": 12101,
  "Bishop": 12102,
  "reaming": 12103,
  "DOI": 12104,
  "Jeans": 12105,
  "PPT": 12106,
  "SCAR": 12107,
  "SCAP": 12108,
  "Pride": 12109,
  "lism": 12110,
  "oustic": 12111,
  "Fuji": 12112,
  "Starship": 12113,
  "tents": 12114,
  "When": 12115,
  "Assistant": 12116,
  "Warren": 12117,
  "Spect": 12118,
  "Blog": 12119,
  "Canal": 12120,
  "borough": 12121,
  "folia": 12122,
  "Spike": 12123,
  "Chun": 12124,
  "Years": 12125,
  "Transport": 12126,
  "Terra": 12127,
  "Vevo": 12128,
  "Vehicle": 12129,
  "Torrent": 12130,
  "played": 12131,
  "Rosen": 12132,
  "Josef": 12133,
  "Claire": 12134,
  "oides": 12135,
  "Skype": 12136,
  "warm": 12137,
  "Fresh": 12138,
  "thic": 12139,
  "Campus": 12140,
  "PHA": 12141,
  "USB4": 12142,
  "Philos": 12143,
  "AEW": 12144,
  "Database": 12145,
  "Janet": 12146,
  "Bruno": 12147,
  "Leslie": 12148,
  "Palm": 12149,
  "current": 12150,
  "Troy": 12151,
  "Boulevard": 12152,
  "models": 12153,
  "treme": 12154,
  "Nicolas": 12155,
  "Frost": 12156,
  "Murray": 12157,
  "Murphy": 12158,
  "ENTER": 12159,
  "Cruz": 12160,
  "wikitext": 12161,
  "Antoine": 12162,
  "sistance": 12163,
  "niconico": 12164,
  "HERE": 12165,
  "Defense": 12166,
  "industri": 12167,
  "ḥ": 12168,
  "Eagle": 12169,
  "virtual": 12170,
  "Italia": 12171,
  "Deadline": 12172,
  "TRAIN": 12173,
  "thority": 12174,
  "syntax": 12175,
  "Sharp": 12176,
  "EchoLink": 12177,
  "CYP3A4": 12178,
  "xc3": 12179,
  "create": 12180,
  "presentation": 12181,
  "false": 12182,
  "museum": 12183,
  "Powell": 12184,
  "나": 12185,
  "Aviation": 12186,
  "cephalus": 12187,
  "Qualifying": 12188,
  "Observatory": 12189,
  "்": 12190,
  "Protection": 12191,
  "Assembly": 12192,
  "WRKY": 12193,
  "acknowledge": 12194,
  "Affairs": 12195,
  "Sullivan": 12196,
  "Ticketmaster": 12197,
  "Chicago": 12198,
  "022": 12199,
  "036": 12200,
  "037": 12201,
  "034": 12202,
  "049": 12203,
  "042": 12204,
  "098": 12205,
  "085": 12206,
  "097": 12207,
  "2P": 12208,
  "7A": 12209,
  "9M": 12210,
  "A24": 12211,
  "Aru": 12212,
  "Ato": 12213,
  "Away": 12214,
  "Blow": 12215,
  "DQ": 12216,
  "DKP": 12217,
  "Et": 12218,
  "EGO": 12219,
  "Fas": 12220,
  "FET": 12221,
  "FUN": 12222,
  "FTA": 12223,
  "FRI": 12224,
  "Flex": 12225,
  "Gad": 12226,
  "GAS": 12227,
  "GTO": 12228,
  "Hes": 12229,
  "HAR": 12230,
  "Horn": 12231,
  "Identi": 12232,
  "Jas": 12233,
  "JVC": 12234,
  "KH": 12235,
  "KID": 12236,
  "Kine": 12237,
  "Kari": 12238,
  "KHL": 12239,
  "LTS": 12240,
  "L129": 12241,
  "Ming": 12242,
  "Mora": 12243,
  "MHC": 12244,
  "M686": 12245,
  "Nut": 12246,
  "Norton": 12247,
  "PJ": 12248,
  "Phu": 12249,
  "Pru": 12250,
  "Pand": 12251,
  "Phan": 12252,
  "PAG": 12253,
  "Q4": 12254,
  "QTE": 12255,
  "RISC": 12256,
  "Sd": 12257,
  "S10": 12258,
  "Samp": 12259,
  "Snap": 12260,
  "T6": 12261,
  "Thu": 12262,
  "Tell": 12263,
  "TION": 12264,
  "User": 12265,
  "V3": 12266,
  "VK": 12267,
  "Want": 12268,
  "Zin": 12269,
  "Zoo": 12270,
  "ZIS": 12271,
  "Zoom": 12272,
  "ao": 12273,
  "aver": 12274,
  "away": 12275,
  "běng": 12276,
  "cru": 12277,
  "cere": 12278,
  "e5": 12279,
  "econo": 12280,
  "fro": 12281,
  "hir": 12282,
  "hot": 12283,
  "kor": 12284,
  "kal": 12285,
  "nals": 12286,
  "ost": 12287,
  "pun": 12288,
  "r2": 12289,
  "sn": 12290,
  "sper": 12291,
  "ulation": 12292,
  "vul": 12293,
  "wu": 12294,
  "zǎng": 12295,
  "¬": 12297,
  "đ": 12298,
  "ן": 12299,
  "ngu": 12304,
  "shir": 12305,
  "should": 12306,
  "々": 12307,
  "hua": 12308,
  "gues": 12309,
  "lien": 12310,
  "2038": 12311,
  "19S": 12312,
  "quad": 12313,
  "chung": 12314,
  "dion": 12315,
  "juē": 12316,
  "zia": 12317,
  "kul": 12318,
  "ening": 12319,
  "shǔn": 12320,
  "10A": 12321,
  "1028": 12322,
  "1089": 12323,
  "mens": 12324,
  "mile": 12325,
  "mise": 12326,
  "mino": 12327,
  "minus": 12328,
  "1223": 12329,
  "1231": 12330,
  "nial": 12331,
  "1176": 12332,
  "1174": 12333,
  "ores": 12334,
  "analysis": 12335,
  "lal": 12336,
  "lator": 12337,
  "1321": 12338,
  "geon": 12339,
  "alla": 12340,
  "ths": 12341,
  "relation": 12342,
  "mee": 12343,
  "rik": 12344,
  "ride": 12345,
  "rion": 12346,
  "tea": 12347,
  "sition": 12348,
  "sius": 12349,
  "sium": 12350,
  "ceae": 12351,
  "season": 12352,
  "eller": 12353,
  "mali": 12354,
  "mala": 12355,
  "mass": 12356,
  "mator": 12357,
  "atro": 12358,
  "owi": 12359,
  "cost": 12360,
  "thea": 12361,
  "INLW": 12362,
  "too": 12363,
  "STAF": 12364,
  "64DD": 12365,
  "Colin": 12366,
  "Rex": 12367,
  "Rey": 12368,
  "advance": 12369,
  "cional": 12370,
  "ooting": 12371,
  "ayan": 12372,
  "Stories": 12373,
  "havi": 12374,
  "Liver": 12375,
  "ural": 12376,
  "Miche": 12377,
  "Mika": 12378,
  "Marce": 12379,
  "Alfa": 12380,
  "BCG": 12381,
  "Learning": 12382,
  "AML": 12383,
  "ARTS": 12384,
  "Teen": 12385,
  "Text": 12386,
  "games": 12387,
  "rana": 12388,
  "dah": 12389,
  "Gaz": 12390,
  "Arrow": 12391,
  "APER": 12392,
  "━": 12393,
  "Lobo": 12394,
  "domain": 12395,
  "buty": 12396,
  "ANGE": 12397,
  "Weverse": 12398,
  "wicz": 12399,
  "1105": 12400,
  "Pain": 12401,
  "Pablo": 12402,
  "check": 12403,
  "Simple": 12404,
  "ffin": 12405,
  "Rivella": 12406,
  "1301": 12407,
  "1303": 12408,
  "SME": 12409,
  "SMP": 12410,
  "Spar": 12411,
  "PCA": 12412,
  "Ensign": 12413,
  "Geoff": 12414,
  "same": 12415,
  "ุ": 12416,
  "ง": 12417,
  "Nie": 12418,
  "Jung": 12419,
  "↑": 12420,
  "MP7": 12421,
  "USD": 12422,
  "AKS": 12423,
  "Schmid": 12424,
  "Notes": 12425,
  "UNIQ": 12426,
  "Audi": 12427,
  "AVO": 12428,
  "MIME": 12429,
  "SOD": 12430,
  "LEI": 12431,
  "cyc": 12432,
  "Runa": 12433,
  "Rubber": 12434,
  "puk": 12435,
  "CR200": 12436,
  "reement": 12437,
  "Adap": 12438,
  "delle": 12439,
  "Openstreet": 12440,
  "NOT": 12441,
  "RTX": 12442,
  "EXR": 12443,
  "Santo": 12444,
  "HELL": 12445,
  "Harper": 12446,
  "java": 12447,
  "rington": 12448,
  "LOW": 12449,
  "Giba": 12450,
  "Tribu": 12451,
  "Trinity": 12452,
  "Triumph": 12453,
  "PPI": 12454,
  "Voya": 12455,
  "POVM": 12456,
  "exp": 12457,
  "Showtime": 12458,
  "clef": 12459,
  "Abel": 12460,
  "tism": 12461,
  "ABCD": 12462,
  "Aniplex": 12463,
  "Holy": 12464,
  "PLG": 12465,
  "Books": 12466,
  "foglio": 12467,
  "zog": 12468,
  "Vale": 12469,
  "Heller": 12470,
  "ators": 12471,
  "Blackbear": 12472,
  "GAZ": 12473,
  "bella": 12475,
  "GMRES": 12476,
  "stitution": 12477,
  "Rocky": 12478,
  "spect": 12479,
  "Million": 12480,
  "Elisa": 12481,
  "Chase": 12482,
  "BUM": 12483,
  "element": 12484,
  "KILL": 12485,
  "MTU": 12486,
  "chelys": 12487,
  "aggregate": 12488,
  "karu": 12489,
  "Destin": 12490,
  "closed": 12491,
  "Outlook": 12492,
  "Gross": 12493,
  "SHOOT": 12494,
  "address": 12495,
  "Wayne": 12496,
  "Joyce": 12497,
  "Policy": 12498,
  "Leonardo": 12499,
  "DLU": 12500,
  "Treat": 12501,
  "Beatles": 12502,
  "wikipedia": 12503,
  "sizeof": 12504,
  "Without": 12505,
  "Create": 12506,
  "cultural": 12507,
  "Still": 12508,
  "Frontier": 12509,
  "Scale": 12510,
  "Afternoon": 12511,
  "ITV4": 12512,
  "Shock": 12513,
  "Sirius": 12514,
  "plc": 12515,
  "BitTorrent": 12516,
  "Taman": 12517,
  "highlight": 12518,
  "half": 12519,
  "Heroes": 12520,
  "Italian": 12521,
  "Strike": 12522,
  "constructor": 12523,
  "country": 12524,
  "camatan": 12525,
  "Deutsch": 12526,
  "Matchday": 12527,
  "NATO": 12528,
  "Teddy": 12529,
  "𰹬": 12530,
  "Armstrong": 12531,
  "Feature": 12532,
  "properties": 12533,
  "quarter": 12534,
  "sportation": 12535,
  "Gabriel": 12536,
  "Municipal": 12537,
  "src": 12538,
  "Synthesizer": 12539,
  "Leclerc": 12540,
  "hynchus": 12541,
  "Integrated": 12542,
  "SEVENTEEN": 12543,
  "License": 12544,
  "Derived": 12545,
  "DONGKIZ": 12546,
  "Israel": 12547,
  "Vladimir": 12548,
  "numeric": 12549,
  "Mullvad": 12550,
  "cedure": 12551,
  "Lamigo": 12552,
  "Confedera": 12553,
  "Ibrahim": 12554,
  "SHRDLU": 12555,
  "syntaxhighlight": 12556,
  "Openstreetmap": 12557,
  "019": 12558,
  "044": 12559,
  "059": 12560,
  "092": 12561,
  "2M": 12562,
  "8A": 12563,
  "Alu": 12564,
  "Azi": 12565,
  "Aid": 12566,
  "Aka": 12567,
  "Actor": 12568,
  "Amar": 12569,
  "Acid": 12570,
  "CMP": 12571,
  "Clan": 12572,
  "Camer": 12573,
  "DW": 12574,
  "ECO": 12575,
  "Fir": 12576,
  "G5": 12577,
  "GJ": 12578,
  "GPa": 12579,
  "Glas": 12580,
  "Grea": 12581,
  "GCM": 12582,
  "GDB": 12583,
  "HAP": 12584,
  "Holo": 12585,
  "HAPP": 12586,
  "IETF": 12587,
  "Jak": 12588,
  "KR": 12589,
  "Kyle": 12590,
  "LJ": 12591,
  "Mig": 12592,
  "MCO": 12593,
  "MIP": 12594,
  "NW": 12595,
  "Nau": 12596,
  "OB": 12597,
  "Oak": 12598,
  "OFF": 12599,
  "PSA": 12600,
  "Pana": 12601,
  "PH2": 12602,
  "PFA": 12603,
  "Q2": 12604,
  "RH": 12605,
  "R16": 12606,
  "RNG": 12607,
  "RAF": 12608,
  "S9": 12609,
  "Swa": 12610,
  "Skin": 12611,
  "TK": 12612,
  "Til": 12613,
  "Trea": 12614,
  "Tidal": 12615,
  "UTA": 12616,
  "UFS": 12617,
  "W3": 12618,
  "Wool": 12619,
  "Xin": 12620,
  "acu": 12621,
  "bore": 12622,
  "c1": 12623,
  "cd": 12624,
  "d1": 12625,
  "eth": 12626,
  "eHow": 12627,
  "f2": 12628,
  "fel": 12629,
  "fare": 12630,
  "fps": 12631,
  "festi": 12632,
  "g2": 12633,
  "gam": 12634,
  "gara": 12635,
  "gart": 12636,
  "hm": 12637,
  "hall": 12638,
  "ior": 12639,
  "jara": 12640,
  "kind": 12641,
  "kill": 12642,
  "mēn": 12643,
  "nòu": 12644,
  "och": 12645,
  "px": 12646,
  "pour": 12647,
  "qa": 12648,
  "sou": 12649,
  "tti": 12650,
  "tter": 12651,
  "wd": 12652,
  "xton": 12653,
  "yam": 12654,
  "yet": 12655,
  "ɣ": 12656,
  "ב": 12657,
  "hub": 12661,
  "gul": 12662,
  "chor": 12663,
  "duce": 12664,
  "2033": 12665,
  "lec": 12666,
  "sup": 12667,
  "dir": 12668,
  "tula": 12669,
  "kur": 12670,
  "1048": 12671,
  "1058": 12672,
  "1077": 12673,
  "1098": 12674,
  "1084": 12675,
  "million": 12676,
  "1233": 12677,
  "nifer": 12678,
  "1112": 12679,
  "1146": 12680,
  "1164": 12681,
  "1167": 12682,
  "1156": 12683,
  "ordin": 12684,
  "erry": 12685,
  "lain": 12686,
  "latt": 12687,
  "aru": 12688,
  "14000": 12689,
  "1436": 12690,
  "1473": 12691,
  "1322": 12692,
  "1339": 12693,
  "1379": 12694,
  "1353": 12695,
  "inha": 12696,
  "gebra": 12697,
  "fork": 12698,
  "mul": 12699,
  "stant": 12700,
  "stom": 12701,
  "thin": 12702,
  "mess": 12703,
  "rica": 12704,
  "rak": 12705,
  "100m": 12706,
  "take": 12707,
  "talis": 12708,
  "mati": 12709,
  "mage": 12710,
  "macro": 12711,
  "mania": 12712,
  "eto": 12713,
  "INV": 12714,
  "nucle": 12715,
  "Mali": 12716,
  "Male": 12717,
  "Mani": 12718,
  "STUD": 12719,
  "SEGA": 12720,
  "These": 12721,
  "vivo": 12722,
  "Rebel": 12723,
  "cata": 12724,
  "caster": 12725,
  "42V": 12726,
  "auf": 12727,
  "5700": 12728,
  "SAC": 12729,
  "lys": 12730,
  "ids": 12731,
  "hab": 12732,
  "Liu": 12733,
  "Role": 12734,
  "DeO": 12735,
  "berger": 12736,
  "MiG": 12737,
  "Allan": 12738,
  "typen": 12739,
  "angu": 12740,
  "9860": 12741,
  "apple": 12742,
  "BAE": 12743,
  "COB": 12744,
  "history": 12745,
  "Moto": 12746,
  "Jolin": 12747,
  "Joker": 12748,
  "100000": 12749,
  "dai": 12750,
  "Section": 12751,
  "Sexy": 12752,
  "ACA": 12753,
  "Bever": 12754,
  "ICLEI": 12755,
  "Late": 12756,
  "Ladies": 12757,
  "Rafa": 12758,
  "Sung": 12759,
  "Saga": 12760,
  "Shen": 12761,
  "ONT": 12762,
  "gium": 12763,
  "giving": 12764,
  "merce": 12765,
  "Weber": 12766,
  "stack": 12767,
  "wish": 12768,
  "SSRI": 12769,
  "ours": 12770,
  "ppy": 12771,
  "Bag": 12772,
  "Baba": 12773,
  "Figu": 12774,
  "shift": 12775,
  "Nathan": 12776,
  "IVPP": 12777,
  "ENS": 12778,
  "Todd": 12779,
  "ALBUM": 12780,
  "Haven": 12781,
  "BLG": 12782,
  "July": 12783,
  "Jules": 12784,
  "Dock": 12785,
  "ROCm": 12786,
  "AKA": 12787,
  "Myki": 12788,
  "REAPER": 12789,
  "gnat": 12790,
  "∇": 12791,
  "ounced": 12792,
  "Lucy": 12793,
  "llon": 12794,
  "Fav": 12795,
  "Aud": 12796,
  "CHA": 12797,
  "Qual": 12798,
  "lensis": 12799,
  "Tawan": 12800,
  "eric": 12801,
  "SOI": 12802,
  "ADP": 12803,
  "Gover": 12804,
  "Fei": 12805,
  "Syd": 12806,
  "GBU": 12807,
  "ownCloud": 12808,
  "network": 12809,
  "BMC": 12810,
  "Hikaru": 12811,
  "Petit": 12812,
  "Kei": 12813,
  "nings": 12814,
  "Combi": 12815,
  "Monu": 12816,
  "प": 12817,
  "स": 12818,
  "Corps": 12819,
  "SPEC": 12820,
  "Barth": 12821,
  "Barnes": 12822,
  "Bring": 12823,
  "Santhal": 12824,
  "within": 12825,
  "without": 12826,
  "EEG": 12827,
  "Trilogy": 12828,
  "Isla": 12829,
  "mbol": 12830,
  "blio": 12831,
  "included": 12832,
  "Prison": 12833,
  "12747": 12834,
  "CLR": 12835,
  "Bert": 12836,
  "Berlin": 12837,
  "server": 12838,
  "Ful": 12839,
  "Fusion": 12840,
  "anov": 12841,
  "experi": 12842,
  "Wallace": 12843,
  "trix": 12844,
  "Peters": 12845,
  "Matters": 12846,
  "Chemistry": 12847,
  "bital": 12848,
  "ABB": 12849,
  "PVC": 12850,
  "FMEDA": 12851,
  "UCIL": 12852,
  "complete": 12853,
  "Highway": 12854,
  "Spider": 12855,
  "herty": 12856,
  "Atlas": 12857,
  "KBS2": 12858,
  "Jackie": 12859,
  "WinZip": 12860,
  "EMBA": 12861,
  "PyQt": 12862,
[...]
