{
  "!": 0,
  "\"": 1,
  "#": 2,
  "$": 3,
  "%": 4,
  "&": 5,
  "'": 6,
  "(": 7,
  ")": 8,
  "*": 9,
  "+": 10,
  ",": 11,
  "-": 12,
  ".": 13,
  "/": 14,
  "0": 15,
  "1": 16,
  "2": 17,
  "3": 18,
  "4": 19,
  "5": 20,
  "6": 21,
  "7": 22,
  "8": 23,
  "9": 24,
  ":": 25,
  ";": 26,
  "=": 27,
  "?": 28,
  "@": 29,
  "A": 30,
  "B": 31,
  "C": 32,
  "D": 33,
  "E": 34,
  "F": 35,
  "G": 36,
  "H": 37,
  "I": 38,
  "J": 39,
  "K": 40,
  "L": 41,
  "M": 42,
  "N": 43,
  "O": 44,
  "P": 45,
  "Q": 46,
  "R": 47,
  "S": 48,
  "T": 49,
  "U": 50,
  "V": 51,
  "W": 52,
  "X": 53,
  "Y": 54,
  "Z": 55,
  "[": 56,
  "\\": 57,
  "]": 58,
  "^": 59,
  "_": 60,
  "`": 61,
  "a": 62,
  "b": 63,
  "c": 64,
  "d": 65,
  "e": 66,
  "f": 67,
  "g": 68,
  "h": 69,
  "i": 70,
  "j": 71,
  "k": 72,
  "l": 73,
  "m": 74,
  "n": 75,
  "o": 76,
  "p": 77,
  "q": 78,
  "r": 79,
  "s": 80,
  "t": 81,
  "u": 82,
  "v": 83,
  "w": 84,
  "x": 85,
  "y": 86,
  "z": 87,
  "|": 88,
  "~": 89,
  "\n": 162,
  " ": 163,
  "": 164,
  "�": 173,
  "ng": 199,
  "i4": 200,
  "an": 201,
  "sh": 202,
  "zh": 203,
  "ng1": 204,
  "ji": 205,
  "u4": 206,
  "ng2": 207,
  "  ": 208,
  "i2": 209,
  "ao": 210,
  "xi": 211,
  "ng4": 212,
  "an2": 213,
  "i3": 214,
  "i1": 215,
  "de": 216,
  "u3": 217,
  "an4": 218,
  "e4": 219,
  "en": 220,
  "ch": 221,
  "uo": 222,
  "u2": 223,
  "ng3": 224,
  "an1": 225,
  "e2": 226,
  "ai4": 227,
  "u1": 228,
  "   ": 229,
  "ong1": 230,
  "a1": 231,
  "shi4": 233,
  "ei4": 234,
  "ao4": 235,
  "ian2": 236,
  "a4": 237,
  "yu": 238,
  "ang1": 239,
  "yo": 240,
  "an3": 241,
  "n1": 242,
  "hu": 243,
  "ang4": 244,
  "nian2": 245,
  "en2": 246,
  "li": 247,
  "ang3": 248,
  "eng2": 249,
  "uo4": 250,
  "uo2": 251,
  "wei4": 252,
  "mi": 253,
  "ao3": 254,
  "zai4": 255,
  "、": 256,
  "bi": 257,
  "qi": 258,
  "ang2": 259,
  "e1": 260,
  "he2": 261,
  "yi": 262,
  "eng1": 263,
  "zhong1": 264,
  "er": 265,
  "bu4": 266,
  "ou4": 267,
  "a3": 268,
  "e3": 269,
  "n4": 270,
  "shi2": 271,
  "di4": 272,
  "guo2": 273,
  "ai2": 274,
  "ui4": 275,
  "ren2": 276,
  "ao1": 277,
  "xu": 278,
  "yi1": 279,
  "n2": 280,
  "ong2": 281,
  "yu2": 282,
  "gu": 283,
  "li4": 284,
  "zhi4": 285,
  "di": 286,
  "we": 287,
  "en4": 288,
  "cheng2": 289,
  "ong4": 290,
  "yi4": 291,
  "gong1": 292,
  "ji2": 293,
  "eng4": 294,
  "en1": 295,
  "yue4": 296,
  "you3": 297,
  "yuan2": 298,
  "da4": 299,
  "a2": 300,
  "le": 301,
  "ji4": 302,
  "20": 303,
  "yi3": 304,
  "ju": 305,
  "ai1": 306,
  "pi": 307,
  "xian4": 308,
  "ou1": 309,
  "jia1": 310,
  "si1": 311,
  "xing2": 312,
  "ei3": 313,
  "ti": 314,
  "yu3": 315,
  "ji1": 316,
  "ta1": 317,
  "ri4": 318,
  "zhi1": 319,
  "hou4": 320,
  "li3": 321,
  "ou3": 322,
  "ai3": 323,
  "wei2": 324,
  "hui4": 325,
  "dao4": 326,
  "19": 327,
  "ong3": 328,
  "qi2": 329,
  "uan2": 330,
  "zheng4": 331,
  "ming2": 332,
  "xi1": 333,
  "ao2": 334,
  "jian4": 335,
  "xue2": 336,
  "chu1": 337,
  "ge4": 338,
  "zuo4": 339,
  "uo1": 340,
  "sheng1": 341,
  "dui4": 342,
  "you2": 343,
  "uo3": 344,
  "qu1": 345,
  "shang4": 346,
  "en3": 347,
  "de2": 348,
  "bei4": 349,
  "shi3": 350,
  "zhu": 351,
  "zhan4": 352,
  "n3": 353,
  "xin1": 354,
  "jun1": 355,
  "er3": 356,
  "she4": 357,
  "ren4": 358,
  "fa1": 359,
  "wu4": 360,
  "bing4": 361,
  "ke4": 362,
  "er2": 363,
  "lu4": 364,
  "dai4": 365,
  "zhu3": 366,
  "yi2": 367,
  "shu4": 368,
  "ju4": 369,
  "jin4": 370,
  "zi4": 371,
  "yin1": 372,
  "fu4": 373,
  "fang1": 374,
  "jing1": 375,
  "nan2": 376,
  "hua4": 377,
  "zhou1": 378,
  "ping2": 379,
  "xia4": 380,
  "lai2": 381,
  "yong4": 382,
  "guan1": 383,
  "tong2": 384,
  "yu4": 385,
  "》": 386,
  "《": 387,
  "fa3": 388,
  "zhu4": 389,
  "mei3": 390,
  "·": 391,
  "jian1": 392,
  "bo": 393,
  "huo4": 394,
  "ben3": 395,
  "xiang1": 396,
  "zhi2": 397,
  "dong4": 398,
  "xiang4": 399,
  "min2": 400,
  "zhe4": 401,
  "jiang1": 402,
  "qi1": 403,
  "fen1": 404,
  "shou3": 405,
  "quan2": 406,
  "wen2": 407,
  "yan2": 408,
  "suo3": 409,
  "jiao4": 410,
  "qian2": 411,
  "dian4": 412,
  "te4": 413,
  "duo1": 414,
  "zui4": 415,
  "kai1": 416,
  "jie2": 417,
  "lian2": 418,
  "zhi3": 419,
  "xi4": 420,
  "ke3": 421,
  "eng3": 422,
  "ei1": 423,
  "dan4": 424,
  "mu4": 425,
  "ye4": 426,
  "du4": 427,
  "fu2": 428,
  "shu": 429,
  "ma3": 430,
  "ye3": 431,
  "dong1": 432,
  "qiu2": 433,
  "bei3": 434,
  "「": 435,
  "」": 436,
  "gao1": 437,
  "ya4": 438,
  "ou2": 439,
  "du": 440,
  "jie1": 441,
  "un2": 442,
  "mian4": 443,
  "hai3": 444,
  "zhang3": 445,
  "shi1": 446,
  "jin1": 447,
  "ci3": 448,
  "nei4": 449,
  "sai4": 450,
  "san1": 451,
  "tai2": 452,
  "ge2": 453,
  "xing4": 454,
  "guo4": 455,
  "201": 456,
  "deng3": 457,
  "yao4": 458,
  "che1": 459,
  "ci4": 460,
  "su": 461,
  "mo": 462,
  "ru4": 463,
  "wu3": 464,
  "gai1": 465,
  "ku": 466,
  "ding4": 467,
  "chang2": 468,
  "biao3": 469,
  "la1": 470,
  "ti3": 471,
  "gong4": 472,
  "jie4": 473,
  "shou4": 474,
  "dao3": 475,
  "shan1": 476,
  "chang3": 477,
  "si4": 478,
  "lv": 479,
  "ze2": 480,
  "ti2": 481,
  "ke1": 482,
  "dang1": 483,
  "neng2": 484,
  "er4": 485,
  "wai4": 486,
  "ei2": 487,
  "chu": 488,
  "dan1": 489,
  "qi3": 490,
  "zi": 491,
  "kou3": 492,
  "xiao3": 493,
  "zu3": 494,
  "ba1": 495,
  "jue2": 496,
  "lin2": 497,
  "liu2": 498,
  "ni": 499,
  "sheng3": 500,
  "ying1": 501,
  "lan2": 502,
  "bi3": 503,
  "luo2": 504,
  "tong1": 505,
  "200": 506,
  "zhong4": 507,
  "zhe3": 508,
  "shu3": 509,
  "tian1": 510,
  "zhen4": 511,
  "zhong3": 512,
  "lie4": 513,
  "qi4": 514,
  "cheng1": 515,
  "shu1": 516,
  "yuan4": 517,
  "bao3": 518,
  "tai4": 519,
  "fu3": 520,
  "feng1": 521,
  "mi3": 522,
  "qing1": 523,
  "shen1": 524,
  "wang2": 525,
  "yun4": 526,
  "guan3": 527,
  "fei1": 528,
  "jiu4": 529,
  "gu3": 530,
  "liang3": 531,
  "ceng2": 532,
  "mei2": 533,
  "10": 534,
  "fen4": 535,
  "hao4": 536,
  "yan3": 537,
  "wei3": 538,
  "zong3": 539,
  "xuan3": 540,
  "xiao4": 541,
  "da2": 542,
  "na4": 543,
  "liang4": 544,
  "bo1": 545,
  "zu2": 546,
  "jing4": 547,
  "bao4": 548,
  "ni2": 549,
  "wu2": 550,
  "tong3": 551,
  "hua2": 552,
  "jiao1": 553,
  "yue1": 554,
  "ying3": 555,
  "bian4": 556,
  "xing1": 557,
  "su4": 558,
  "shui3": 559,
  "yang2": 560,
  "men": 561,
  "bao1": 562,
  "ge1": 563,
  "bo2": 564,
  "can1": 565,
  "cong2": 566,
  "dian3": 567,
  "ru2": 568,
  "ban4": 569,
  "bi4": 570,
  "bian1": 571,
  "wang3": 572,
  "qu3": 573,
  "chan3": 574,
  "se4": 575,
  "zi1": 576,
  "qu": 577,
  "00": 578,
  "chuan2": 579,
  "nv": 580,
  "sheng4": 581,
  "ran2": 582,
  "tu2": 583,
  "zhang1": 584,
  "xu4": 585,
  "pu3": 586,
  "gai3": 587,
  "gang3": 588,
  "nv3": 589,
  "ling4": 590,
  "luo4": 591,
  "you4": 592,
  "tou2": 593,
  "hu4": 594,
  "cha2": 595,
  "ce4": 596,
  "chi2": 597,
  "18": 598,
  "lv4": 599,
  "qian1": 600,
  "li2": 601,
  "dou1": 602,
  "12": 603,
  "zheng1": 604,
  "kuo4": 605,
  "sha1": 606,
  "lu": 607,
  "dang3": 608,
  "fan3": 609,
  "gou4": 610,
  "lei4": 611,
  "xi2": 612,
  "jing3": 613,
  "tuan2": 614,
  "wei1": 615,
  "xie1": 616,
  "ling3": 617,
  "long2": 618,
  "gui1": 619,
  "xian1": 620,
  "rong2": 621,
  "huang2": 622,
  "xiang3": 623,
  "ban1": 624,
  "jiu3": 625,
  "ying4": 626,
  "men2": 627,
  "shang1": 628,
  "shen2": 629,
  "202": 630,
  "ban3": 631,
  "ka3": 632,
  "cu": 633,
  "mu3": 634,
  "jin3": 635,
  "fu1": 636,
  "ju3": 637,
  "mo2": 638,
  "guang3": 639,
  "ci2": 640,
  "shuo1": 641,
  "qing2": 642,
  "zhan3": 643,
  "hai2": 644,
  "zhuang1": 645,
  "mo4": 646,
  "cai2": 647,
  "ji3": 648,
  "du2": 649,
  "11": 650,
  "pin3": 651,
  "ting2": 652,
  "chao2": 653,
  "ying2": 654,
  "wo": 655,
  "tiao2": 656,
  "po": 657,
  "jian3": 658,
  "tang2": 659,
  "hui2": 660,
  "duan4": 661,
  "chen2": 662,
  "gen1": 663,
  "mi4": 664,
  "wan4": 665,
  "pai2": 666,
  "wan1": 667,
  "zao4": 668,
  "hang2": 669,
  "wan2": 670,
  "biao1": 671,
  "lun2": 672,
  "199": 673,
  "xie2": 674,
  "jiang3": 675,
  "han4": 676,
  "ju2": 677,
  "fan4": 678,
  "fang2": 679,
  "huo2": 680,
  "gu4": 681,
  "han2": 682,
  "kong1": 683,
  "tie3": 684,
  "meng2": 685,
  "bie2": 686,
  "wu1": 687,
  "jie3": 688,
  "zhuan1": 689,
  "yin3": 690,
  "xu1": 691,
  "zhen1": 692,
  "jia4": 693,
  "bing1": 694,
  "ming4": 695,
  "ling2": 696,
  "hong2": 697,
  "qin1": 698,
  "zi3": 699,
  "lun4": 700,
  "tu": 701,
  "or": 702,
  "xin4": 703,
  "chu4": 704,
  "su1": 705,
  "xiu1": 706,
  "chu3": 707,
  "zong1": 708,
  "15": 709,
  "hu2": 710,
  "que4": 711,
  "xiao1": 712,
  "zhao4": 713,
  "qiang2": 714,
  "qu4": 715,
  "cun1": 716,
  "chong2": 717,
  "pian4": 718,
  "jiu1": 719,
  "fang4": 720,
  "sui2": 721,
  "shou1": 722,
  "geng4": 723,
  "guang1": 725,
  "ju1": 726,
  "jia3": 727,
  "chuang4": 728,
  "di2": 729,
  "zhuan3": 730,
  "16": 731,
  "guo3": 732,
  "xun4": 733,
  "man4": 734,
  "pai4": 735,
  "fei4": 736,
  "pei4": 737,
  "198": 738,
  "da3": 739,
  "tuo1": 740,
  "xuan1": 741,
  "chu2": 742,
  "bai2": 743,
  "la": 744,
  "on": 745,
  "zhu1": 746,
  "du1": 747,
  "tu3": 748,
  "diao4": 749,
  "xia2": 750,
  "liu4": 751,
  "17": 752,
  "sui4": 753,
  "hui1": 754,
  "ting1": 755,
  "qie3": 756,
  "ta3": 757,
  "qiao2": 758,
  "ha1": 759,
  "gan3": 760,
  "zeng1": 761,
  "xian3": 762,
  "mai4": 763,
  "huan2": 764,
  "xu3": 765,
  "wa3": 766,
  "tui1": 767,
  "wen4": 768,
  "chao1": 769,
  "tian2": 770,
  "bai3": 771,
  "cai3": 772,
  "liang2": 773,
  "ya2": 774,
  "sa4": 775,
  "ar": 776,
  "bai4": 777,
  "cun2": 778,
  "jiao3": 779,
  "shao3": 780,
  "yan4": 781,
  "zhuang4": 782,
  "di3": 783,
  "huo3": 784,
  "lei2": 785,
  "14": 786,
  "jiang4": 787,
  "chuan1": 788,
  "yin4": 789,
  "zao3": 790,
  "yong3": 791,
  "si3": 792,
  "deng1": 793,
  "30": 794,
  "zhun3": 795,
  "le4": 796,
  "xun2": 797,
  "nuo4": 798,
  "huan4": 799,
  "song4": 800,
  "gao4": 801,
  "lu3": 802,
  "13": 803,
  "194": 804,
  "bang1": 805,
  "lv3": 806,
  "yang4": 807,
  "hen3": 808,
  "qun2": 809,
  "zheng3": 810,
  "guan4": 811,
  "po4": 812,
  "gang1": 813,
  "wo3": 814,
  "197": 815,
  "hua1": 816,
  "lei1": 817,
  "hao3": 818,
  "tao2": 819,
  "kuang4": 820,
  "pi1": 821,
  "dun4": 822,
  "nong2": 823,
  "gei3": 824,
  "sai1": 825,
  "shuang1": 826,
  "lian4": 827,
  "kuai4": 828,
  "in": 829,
  "di1": 830,
  "pan4": 831,
  "xie3": 832,
  "195": 833,
  "kao3": 834,
  "gai4": 835,
  "he4": 836,
  "hei1": 837,
  "wang4": 838,
  "liao4": 839,
  "re4": 840,
  "ge": 841,
  "zuo3": 842,
  "kong4": 843,
  "196": 844,
  "yang1": 845,
  "chang4": 846,
  "yin2": 847,
  "reng2": 848,
  "sen1": 849,
  "bei1": 850,
  "lu2": 851,
  "piao4": 852,
  "ya1": 853,
  "ku4": 854,
  "25": 855,
  "bin1": 856,
  "—": 857,
  "rang4": 858,
  "chong1": 859,
  "lou2": 860,
  "bu3": 861,
  "lao3": 862,
  "zhu2": 863,
  "jun4": 864,
  "yang3": 865,
  "rui4": 866,
  "yao1": 867,
  "xian2": 868,
  "xie4": 869,
  "nian4": 870,
  "for": 871,
  "you1": 872,
  "tan2": 873,
  "kang1": 874,
  "pi2": 875,
  "heng2": 876,
  "yun2": 877,
  "kan4": 878,
  "ning2": 879,
  "liao2": 880,
  "shao4": 881,
  "bu2": 882,
  "qing3": 883,
  "chi3": 884,
  "24": 885,
  "mu": 886,
  "dou4": 887,
  "mian3": 888,
  "yong1": 889,
  "tan3": 890,
  "wan3": 891,
  "hu1": 892,
  "ru": 893,
  "fan1": 894,
  "al": 895,
  "tu1": 896,
  "gan1": 897,
  "suan4": 898,
  "ding1": 899,
  "yuan3": 900,
  "wen1": 901,
  "tui4": 902,
  "zhe": 903,
  "st": 904,
  "21": 905,
  "xiu4": 906,
  "ba3": 907,
  "man3": 908,
  "193": 909,
  "23": 910,
  "mula": 911,
  "kang4": 912,
  "formula": 913,
  "28": 914,
  "th": 915,
  "mao2": 916,
  "ruo4": 917,
  "pian1": 918,
  "mao4": 919,
  "lang3": 920,
  "qin2": 921,
  "ba2": 922,
  "na2": 923,
  "zan4": 924,
  "xi3": 925,
  "gui3": 926,
  "gui4": 927,
  "re": 928,
  "pin2": 929,
  "wo4": 930,
  "xiong2": 931,
  "shan4": 932,
  "22": 933,
  "xiong1": 934,
  "me": 935,
  "sui1": 936,
  "26": 937,
  "shen3": 938,
  "qing4": 939,
  "miao2": 940,
  "fang3": 941,
  "50": 942,
  "2020": 943,
  "27": 944,
  "lang2": 945,
  "ou": 946,
  "qiu1": 947,
  "song1": 948,
  "ri": 949,
  "dang4": 950,
  "geng1": 951,
  "qiang1": 952,
  "fa2": 953,
  "zao1": 954,
  "feng4": 955,
  "zhang4": 956,
  "hao2": 958,
  "dun1": 959,
  "zou3": 960,
  "hai4": 961,
  "qie4": 962,
  "29": 963,
  "tan4": 964,
  "zu": 965,
  "pao4": 966,
  "pa4": 967,
  "shun4": 968,
  "peng2": 969,
  "xuan2": 970,
  "2010": 971,
  "ni3": 972,
  "000": 973,
  "ding3": 974,
  "niu3": 975,
  "zai3": 976,
  "zhao1": 977,
  "zhui1": 978,
  "lve4": 979,
  "chun1": 980,
  "2019": 981,
  "hun1": 982,
  "kong3": 983,
  "che4": 984,
  "duan1": 985,
  "shen4": 986,
  "xiang2": 987,
  "duan3": 988,
  "gan4": 989,
  "ro": 990,
  "te": 991,
  "kan1": 992,
  "lao2": 993,
  "cao3": 994,
  "2016": 995,
  "si": 996,
  "gu1": 997,
  "pei2": 998,
  "kuan3": 999,
  "za2": 1000,
  "2018": 1001,
  "sun1": 1002,
  "ye2": 1003,
  "ya3": 1004,
  "ra": 1005,
  "po1": 1006,
  "2021": 1007,
  "zha4": 1008,
  "chi4": 1009,
  "duo2": 1010,
  "2014": 1011,
  "fan2": 1012,
  "2011": 1013,
  "2015": 1014,
  "cuo4": 1015,
  "2017": 1016,
  "zhe2": 1017,
  "yao2": 1018,
  "pai1": 1019,
  "tou4": 1020,
  "cang2": 1021,
  "2012": 1022,
  "40": 1023,
  "kai3": 1024,
  "2013": 1025,
  "2022": 1026,
  "mi2": 1027,
  "ruan3": 1028,
  "suan1": 1029,
  "cha1": 1030,
  "zang4": 1031,
  "miao4": 1032,
  "lt": 1033,
  "2009": 1034,
  "zhao3": 1035,
  "2008": 1036,
  "huai2": 1037,
  "ce": 1039,
  "60": 1040,
  "xue4": 1041,
  "chou2": 1042,
  "se": 1043,
  "bang3": 1044,
  "am": 1045,
  "meng4": 1046,
  "100": 1047,
  "ti4": 1048,
  "pu2": 1049,
  "nao3": 1050,
  "2023": 1051,
  "zhuan4": 1052,
  "gt": 1053,
  "lei3": 1054,
  "190": 1055,
  "31": 1056,
  "cai4": 1057,
  "san4": 1058,
  "mou2": 1059,
  "tion": 1060,
  "hun4": 1061,
  "kuan1": 1062,
  "2007": 1063,
  "ta": 1064,
  "niu2": 1065,
  "mou3": 1066,
  "tao3": 1067,
  "die2": 1068,
  "2001": 1069,
  "teng2": 1070,
  "sou1": 1071,
  "ken3": 1072,
  "qian3": 1073,
  "chang1": 1074,
  "ran3": 1075,
  "que1": 1076,
  "fou3": 1077,
  "sun3": 1078,
  "fo": 1079,
  "ba4": 1080,
  "2000": 1081,
  "80": 1082,
  "kao4": 1083,
  "suo1": 1084,
  "2006": 1085,
  "niao3": 1086,
  "pi3": 1087,
  "chun2": 1088,
  "2024": 1089,
  "lan3": 1090,
  "zai1": 1092,
  "co": 1093,
  "xue3": 1094,
  "hui3": 1095,
  "el": 1096,
  "ma": 1097,
  "luan4": 1098,
  "ting3": 1099,
  "2005": 1100,
  "zun1": 1101,
  "bang4": 1102,
  "la4": 1103,
  "huan1": 1104,
  "rang3": 1105,
  "shui4": 1106,
  "min3": 1107,
  "35": 1108,
  "lai4": 1109,
  "cang1": 1110,
  "70": 1111,
  "fo2": 1112,
  "pan2": 1113,
  "nai4": 1114,
  "wen3": 1115,
  "ne": 1116,
  "cao1": 1117,
  "of": 1118,
  "sang1": 1119,
  "pang2": 1120,
  "90": 1121,
  "bing3": 1122,
  "－": 1123,
  "ter": 1124,
  "zha1": 1125,
  "shuai4": 1127,
  "nie4": 1128,
  "hou2": 1129,
  "mei4": 1130,
  "shao1": 1131,
  "nu3": 1132,
  "dong3": 1133,
  "il": 1134,
  "feng2": 1135,
  "mie4": 1136,
  "yun3": 1137,
  "zou4": 1138,
  "mai3": 1139,
  "huai4": 1140,
  "2004": 1141,
  "45": 1142,
  "lo": 1143,
  "yan1": 1144,
  "the": 1145,
  "he": 1146,
  "48": 1147,
  "zhuo2": 1148,
  "at": 1149,
  "and": 1150,
  "tao4": 1151,
  "nai3": 1152,
  "kun1": 1153,
  "2025": 1154,
  "zhen3": 1155,
  "ck": 1156,
  "ru3": 1157,
  "kua4": 1158,
  "kui2": 1159,
  "〉": 1160,
  "〈": 1161,
  "gou1": 1162,
  "36": 1163,
  "et": 1164,
  "cui1": 1165,
  "es": 1166,
  "38": 1167,
  "cu4": 1168,
  "shan3": 1169,
  "rou4": 1170,
  "diao1": 1171,
  "2003": 1172,
  "hu3": 1173,
  "guo1": 1174,
  "37": 1175,
  "cui4": 1176,
  "xu2": 1177,
  "is": 1178,
  "mang2": 1179,
  "juan3": 1180,
  "to": 1181,
  "can2": 1182,
  "dian1": 1183,
  "zhan1": 1184,
  "cao2": 1185,
  "189": 1186,
  "IN": 1187,
  "2002": 1188,
  "keng1": 1189,
  "TC": 1190,
  "ma2": 1191,
  "34": 1192,
  "leng3": 1193,
  "as": 1194,
  "zu1": 1195,
  "cha4": 1196,
  "75": 1197,
  "–": 1198,
  "ow": 1199,
  "su2": 1200,
  "quan1": 1201,
  "da1": 1202,
  "chai1": 1203,
  "lang4": 1204,
  "kun4": 1205,
  "46": 1206,
  "tun2": 1207,
  "fen3": 1208,
  "1990": 1209,
  "…": 1210,
  "ol": 1211,
  "ve": 1212,
  "zhou4": 1213,
  "shang3": 1214,
  "rao4": 1215,
  "heng1": 1216,
  "ti1": 1217,
  "xun1": 1218,
  "39": 1219,
  "ne4": 1220,
  "..": 1221,
  "nan4": 1222,
  "pan1": 1223,
  "65": 1224,
  "hong1": 1225,
  "shu2": 1226,
  "tan1": 1227,
  "tang1": 1228,
  "kan3": 1229,
  "Ma": 1230,
  "ni4": 1231,
  "Ch": 1232,
  "32": 1233,
  "it": 1234,
  "ST": 1235,
  "han3": 1236,
  "47": 1237,
  "UTC": 1238,
  "qian4": 1239,
  "1999": 1240,
  "1998": 1241,
  "In": 1242,
  "1980": 1243,
  "188": 1244,
  "500": 1245,
  "33": 1246,
  "64": 1247,
  "qiang3": 1248,
  "she2": 1249,
  "shuo4": 1250,
  "pao3": 1251,
  "be": 1252,
  "ka1": 1253,
  "zhai2": 1254,
  "SE": 1255,
  "55": 1256,
  "quan4": 1257,
  "ni1": 1258,
  "deng4": 1259,
  "1997": 1260,
  "The": 1261,
  "Co": 1262,
  "mian2": 1263,
  "49": 1264,
  "gao3": 1265,
  "II": 1266,
  "68": 1267,
  "han": 1268,
  "she3": 1269,
  "zeng4": 1270,
  "zhou2": 1271,
  "zhai4": 1272,
  "Re": 1273,
  "1996": 1274,
  "44": 1275,
  "na": 1276,
  "tie1": 1277,
  "dao1": 1278,
  "ad": 1279,
  "br": 1280,
  "1994": 1281,
  "fei2": 1282,
  "zong4": 1283,
  "ir": 1284,
  "qiong2": 1285,
  "tiao4": 1286,
  "chuang2": 1287,
  "nd": 1288,
  "1992": 1289,
  "chui2": 1290,
  "juan1": 1291,
  "ci": 1292,
  "chai2": 1293,
  "miao3": 1294,
  "ba": 1295,
  "gua1": 1296,
  "xue1": 1297,
  "tong4": 1298,
  "1995": 1299,
  "fei3": 1300,
  "chi1": 1301,
  "meng3": 1302,
  "wo1": 1303,
  "67": 1304,
  "shuai1": 1305,
  "tuo2": 1306,
  "chuang1": 1307,
  "huan3": 1308,
  "vi": 1309,
  "1991": 1310,
  "1970": 1311,
  "58": 1312,
  "1950": 1313,
  "gua4": 1314,
  "chan2": 1315,
  "ca": 1316,
  "300": 1317,
  "wa1": 1318,
  "1993": 1319,
  "187": 1320,
  "1949": 1321,
  "ay": 1322,
  "pe": 1323,
  "sa1": 1324,
  "tiao3": 1325,
  "zha2": 1326,
  "AT": 1327,
  "1960": 1328,
  "bian3": 1329,
  "42": 1330,
  "1945": 1331,
  "ver": 1332,
  "us": 1333,
  "guai4": 1334,
  "ku3": 1335,
  "nu2": 1336,
  "1988": 1337,
  "du3": 1338,
  "oo": 1339,
  "1989": 1340,
  "ig": 1341,
  "pu4": 1342,
  "69": 1343,
  "liu3": 1344,
  "ing": 1345,
  "ur": 1346,
  "ss": 1347,
  "gong3": 1348,
  "SEE": 1349,
  "tuo4": 1350,
  "ct": 1351,
  "liao3": 1352,
  "INSEE": 1353,
  "59": 1354,
  "sha4": 1355,
  "tai1": 1356,
  "43": 1357,
  "66": 1358,
  "chuan4": 1359,
  "amp": 1360,
  "chen4": 1361,
  "57": 1362,
  "1985": 1363,
  "huang1": 1364,
  "Ro": 1365,
  "99": 1366,
  "SA": 1367,
  "『": 1368,
  "cun4": 1369,
  "』": 1370,
  "1984": 1371,
  "hun2": 1372,
  "41": 1373,
  "um": 1374,
  "pu1": 1375,
  "kou4": 1376,
  "ph": 1377,
  "88": 1378,
  "fen2": 1379,
  "1986": 1380,
  "rao3": 1381,
  "St": 1382,
  "au": 1383,
  "id": 1384,
  "run4": 1385,
  "TV": 1386,
  "150": 1387,
  "zhuo1": 1388,
  "ind": 1389,
  "400": 1390,
  "san3": 1391,
  "1987": 1392,
  "78": 1393,
  "56": 1394,
  "1982": 1395,
  "ard": 1396,
  "Li": 1397,
  "nuo2": 1398,
  "Me": 1399,
  "1983": 1400,
  "De": 1401,
  "NA": 1402,
  "gun3": 1403,
  "ma1": 1404,
  "tou": 1405,
  "pin4": 1406,
  "un": 1407,
  "CD": 1408,
  "chou1": 1409,
  "ber": 1410,
  "gou3": 1411,
  "quan3": 1412,
  "77": 1413,
  "Mi": 1414,
  "zhai1": 1415,
  "qia4": 1416,
  "per": 1417,
  "mao1": 1418,
  "qiao3": 1419,
  "Mar": 1420,
  "ku1": 1421,
  "kuang2": 1422,
  "ed": 1423,
  "ang": 1424,
  "rou2": 1425,
  "98": 1426,
  "der": 1427,
  "lou4": 1428,
  "OS": 1429,
  "°": 1430,
  "kui4": 1431,
  "sang4": 1432,
  "ly": 1434,
  "180": 1435,
  "BC": 1436,
  "54": 1437,
  "61": 1438,
  "Al": 1439,
  "1979": 1440,
  "1920": 1441,
  "ty": 1442,
  "79": 1443,
  "pen1": 1444,
  "seng1": 1445,
  "tw": 1446,
  "52": 1447,
  "You": 1448,
  "1978": 1449,
  "nu4": 1450,
  "62": 1451,
  "weng1": 1452,
  "ye1": 1453,
  "duo3": 1454,
  "Le": 1455,
  "53": 1456,
  "xing3": 1457,
  "juan4": 1458,
  "～": 1459,
  "BA": 1460,
  "ts": 1461,
  "ak": 1462,
  "1946": 1463,
  "CO": 1464,
  "Mo": 1465,
  "ction": 1466,
  "51": 1467,
  "1958": 1468,
  "Sh": 1469,
  "1981": 1470,
  "Vi": 1471,
  "man": 1472,
  "1972": 1473,
  "1948": 1474,
  "zhui4": 1475,
  "cong1": 1476,
  "tou1": 1477,
  "AM": 1478,
  "63": 1479,
  "AR": 1480,
  "Jo": 1481,
  "1941": 1482,
  "Wind": 1483,
  "wa2": 1484,
  "BS": 1485,
  "lian3": 1486,
  "1930": 1487,
  "Pro": 1488,
  "luan3": 1489,
  "ows": 1490,
  "kuang1": 1491,
  "ke2": 1492,
  "qu2": 1493,
  "tuo3": 1494,
  "76": 1495,
  "hans": 1496,
  "1940": 1497,
  "pi4": 1498,
  "1937": 1499,
  "1976": 1500,
  "zui3": 1501,
  "1944": 1502,
  "89": 1503,
  "1975": 1504,
  "ry": 1505,
  "／": 1506,
  "1968": 1507,
  "niang2": 1508,
  "po2": 1509,
  "shua1": 1510,
  "hk": 1511,
  "con": 1512,
  "ran": 1513,
  "Te": 1514,
  "yuan1": 1515,
  "tao1": 1516,
  "wang1": 1517,
  "1000": 1518,
  "Windows": 1519,
  "95": 1520,
  "pa": 1521,
  "Ne": 1522,
  "no": 1523,
  "bi2": 1524,
  "sao3": 1525,
  "87": 1526,
  "da": 1527,
  "1966": 1528,
  "85": 1529,
  "fa4": 1530,
  "peng1": 1531,
  "600": 1532,
  "ga1": 1533,
  "lan4": 1534,
  "120": 1535,
  "1947": 1536,
  "Ar": 1537,
  "Sta": 1538,
  "1956": 1539,
  "AC": 1540,
  "1964": 1541,
  "dan3": 1542,
  "cu1": 1543,
  "1942": 1544,
  "é": 1545,
  "1955": 1546,
  "Se": 1547,
  "Ra": 1548,
  "chou3": 1549,
  "1952": 1550,
  "1939": 1551,
  "1938": 1552,
  "72": 1553,
  "IS": 1554,
  "va": 1555,
  "74": 1556,
  "Ga": 1557,
  "ga": 1558,
  "ht": 1559,
  "nu": 1560,
  "lay": 1561,
  "ren3": 1562,
  "1973": 1563,
  "1974": 1564,
  "1954": 1565,
  "fi": 1566,
  "qie1": 1567,
  "ED": 1568,
  "1900": 1569,
  "--": 1570,
  "Ja": 1571,
  "AP": 1572,
  "1943": 1573,
  "bi1": 1574,
  "Tu": 1575,
  "ke": 1576,
  "os": 1577,
  "1977": 1578,
  "Be": 1579,
  "1971": 1580,
  "pin1": 1581,
  "man2": 1582,
  "op": 1583,
  "po3": 1584,
  "ent": 1585,
  "1967": 1586,
  "sheng2": 1587,
  "ment": 1588,
  "mp": 1589,
  "IC": 1590,
  "800": 1591,
  "La": 1592,
  "ER": 1593,
  "ia": 1594,
  "86": 1595,
  "1959": 1596,
  "beng1": 1597,
  "Sa": 1598,
  "1965": 1599,
  "son": 1600,
  "JR": 1601,
  "1969": 1602,
  "dui1": 1603,
  "Lo": 1604,
  "pen2": 1605,
  "ine": 1606,
  "So": 1607,
  "・": 1608,
  "×": 1609,
  "qiao4": 1610,
  "chui1": 1611,
  "ID": 1612,
  "qiao1": 1613,
  "Su": 1614,
  "1936": 1615,
  "97": 1616,
  "160": 1617,
  "ben1": 1618,
  "zhua1": 1619,
  "Da": 1620,
  "Fa": 1621,
  "1953": 1622,
  "1962": 1623,
  "MA": 1624,
  "do": 1625,
  "1961": 1626,
  "tic": 1627,
  "long3": 1628,
  "1935": 1630,
  "ta4": 1631,
  "rou": 1632,
  "mai2": 1633,
  "96": 1634,
  "ON": 1635,
  "Di": 1636,
  "％": 1637,
  "1951": 1638,
  "1957": 1639,
  "1963": 1640,
  "Ca": 1641,
  "ha": 1642,
  "─": 1643,
  "ok": 1644,
  "84": 1645,
  "2026": 1646,
  "can3": 1647,
  "ore": 1648,
  "82": 1649,
  "Na": 1650,
  "hi": 1651,
  "bu": 1652,
  "73": 1653,
  "94": 1654,
  "tun1": 1655,
  "92": 1656,
  "pp": 1657,
  "IP": 1658,
  "AN": 1659,
  "Bo": 1660,
  "sta": 1661,
  "mer": 1662,
  "1933": 1663,
  "one": 1664,
  "Mu": 1665,
  "1931": 1666,
  "nang2": 1667,
  "les": 1668,
  "niao4": 1669,
  "71": 1670,
  "bao2": 1671,
  "ho": 1672,
  "nuan3": 1673,
  "gi": 1674,
  "An": 1675,
  "leng2": 1676,
  "pa2": 1677,
  "Pa": 1678,
  "93": 1679,
  "so": 1680,
  "83": 1681,
  "all": 1682,
  "We": 1683,
  "dou3": 1684,
  "81": 1685,
  "1918": 1686,
  "HD": 1687,
  "Si": 1688,
  "sao1": 1689,
  "wi": 1690,
  "Uni": 1691,
  "1928": 1692,
  "luan2": 1693,
  "1932": 1694,
  "nen4": 1695,
  "ll": 1696,
  "ara": 1697,
  "int": 1698,
  "Ba": 1699,
  "MV": 1700,
  "SS": 1701,
  "110": 1702,
  "1912": 1703,
  "IT": 1704,
  "ki": 1705,
  "1929": 1706,
  "tui3": 1707,
  "duo4": 1708,
  "1927": 1709,
  "com": 1710,
  "tu4": 1711,
  "1934": 1712,
  "are": 1713,
  "700": 1714,
  "ga2": 1715,
  "cn": 1716,
  "ali": 1717,
  "91": 1718,
  "che": 1719,
  "ted": 1720,
  "ster": 1721,
  "ff": 1722,
  "by": 1723,
  "huang3": 1724,
  "col": 1725,
  "ill": 1726,
  "ot": 1727,
  "250": 1728,
  "sa": 1729,
  "art": 1730,
  "zei2": 1731,
  "1924": 1732,
  "Ri": 1733,
  "...": 1734,
  "1919": 1735,
  "kui1": 1736,
  "xuan4": 1737,
  "130": 1738,
  "piao1": 1739,
  "1925": 1740,
  "PS": 1741,
  "pao1": 1742,
  "xia1": 1743,
  "140": 1744,
  "Play": 1745,
  "SM": 1746,
  "PC": 1747,
  "mes": 1748,
  "1914": 1749,
  "ste": 1750,
  "zhai3": 1751,
  "km": 1752,
  "He": 1753,
  "DV": 1754,
  "pan": 1755,
  "zhe1": 1756,
  "YouTu": 1757,
  "he1": 1758,
  "end": 1759,
  "Ha": 1760,
  "Fi": 1761,
  "ana": 1762,
  "die1": 1763,
  "ble": 1764,
  "Con": 1765,
  "Wi": 1766,
  "la3": 1767,
  "AS": 1768,
  "1911": 1769,
  "Bu": 1770,
  "ka": 1771,
  "shi": 1772,
  "od": 1773,
  "gra": 1774,
  "nve4": 1775,
  "ld": 1776,
  "1926": 1777,
  "Ge": 1778,
  "Ti": 1779,
  "den": 1780,
  "our": 1781,
  "1922": 1782,
  "na3": 1783,
  "hen4": 1784,
  "1917": 1785,
  "sion": 1786,
  "ET": 1787,
  "NBA": 1788,
  "IV": 1789,
  "shui2": 1790,
  "cai1": 1791,
  "rao2": 1792,
  "EN": 1793,
  "1923": 1794,
  "1921": 1795,
  "peng4": 1796,
  "fe": 1797,
  "kua1": 1798,
  "Goo": 1799,
  "ther": 1800,
  "Ta": 1801,
  "chong3": 1802,
  "170": 1803,
  "EC": 1805,
  "mao3": 1806,
  "nong4": 1807,
  "mm": 1808,
  "AL": 1809,
  "MS": 1810,
  "Ho": 1811,
  "section": 1812,
  "YouTube": 1813,
  "EP": 1814,
  "Ni": 1815,
  "BL": 1816,
  "1913": 1817,
  "hn": 1818,
  "tiao1": 1819,
  "pen": 1820,
  "HK": 1821,
  "En": 1822,
  "hant": 1824,
  "gun4": 1825,
  "1909": 1826,
  "gin": 1827,
  "Inter": 1828,
  "cro": 1829,
  "Pe": 1830,
  "Ste": 1831,
  "MP": 1832,
  "AI": 1833,
  "To": 1834,
  "geng3": 1835,
  "Wor": 1836,
  "nao4": 1837,
  "ris": 1838,
  "feng3": 1839,
  "ant": 1840,
  "luo3": 1841,
  "US": 1842,
  "ya": 1843,
  "por": 1844,
  "DVD": 1845,
  "go": 1846,
  "ari": 1847,
  "zou1": 1848,
  "Pi": 1849,
  "3000": 1850,
  "Th": 1851,
  "ca1": 1852,
  "Do": 1853,
  "Po": 1854,
  "gn": 1855,
  "1910": 1856,
  "For": 1857,
  "RO": 1858,
  "DS": 1859,
  "112": 1860,
  "AK": 1861,
  "RE": 1862,
  "pro": 1863,
  "1916": 1864,
  "Car": 1865,
  "ー": 1866,
  "chuo4": 1867,
  "Net": 1868,
  "α": 1869,
  "ation": 1870,
  "Sch": 1871,
  "Ki": 1872,
  "No": 1873,
  "ani": 1874,
  "ture": 1875,
  "ell": 1876,
  "Lin": 1877,
  "My": 1878,
  "CP": 1879,
  "UN": 1880,
  "Wil": 1881,
  "ark": 1882,
  "Station": 1884,
  "hen2": 1885,
  "1915": 1886,
  "gle": 1887,
  "niang4": 1888,
  "1905": 1889,
  "FC": 1890,
  "ven": 1891,
  "ers": 1892,
  "my": 1893,
  "CN": 1894,
  "→": 1896,
  "1901": 1897,
  "tional": 1898,
  "Lu": 1899,
  "wa": 1900,
  "ting": 1901,
  "Au": 1902,
  "DNA": 1903,
  "Ex": 1904,
  "fa": 1905,
  "pu": 1906,
  "‧": 1907,
  "sic": 1908,
  "dia": 1909,
  "900": 1910,
  "HR": 1911,
  "Ph": 1912,
  "dice": 1913,
  "ary": 1914,
  "sis": 1915,
  "New": 1916,
  ".&": 1917,
  "ton": 1918,
  "CH": 1919,
  "zen3": 1920,
  "TA": 1921,
  "TO": 1922,
  "1906": 1923,
  "1904": 1924,
  "chuang3": 1925,
  "AV": 1926,
  "Ju": 1927,
  "Qu": 1928,
  "oun": 1929,
  "Ka": 1930,
  "gen3": 1931,
  "ps": 1932,
  "John": 1933,
  "ere": 1934,
  "And": 1935,
  "MO": 1936,
  "codice": 1937,
  "chao3": 1938,
  "jiong3": 1939,
  "ding": 1940,
  "℃": 1941,
  "ko": 1942,
  "eri": 1943,
  "wa4": 1944,
  "beng4": 1945,
  "05": 1946,
  "fu": 1947,
  "CC": 1948,
  "diu1": 1949,
  "1907": 1950,
  "1908": 1951,
  "Google": 1952,
  "AG": 1953,
  "EST": 1954,
  "MI": 1955,
  "vo": 1956,
  "zuan4": 1957,
  "SO": 1958,
  "tes": 1959,
  "LE": 1960,
  "jia2": 1961,
  "zuan3": 1962,
  "PlayStation": 1963,
  "enter": 1964,
  "BO": 1965,
  "BBC": 1966,
  "chi": 1967,
  "Com": 1968,
  "AD": 1969,
  "IG": 1970,
  "cal": 1971,
  "ley": 1972,
  "li1": 1973,
  "Gu": 1974,
  "ence": 1975,
  "III": 1976,
  "oft": 1977,
  "Ru": 1978,
  "1500": 1979,
  "cy": 1980,
  "5000": 1981,
  "cri": 1982,
  "wor": 1983,
  "zuan1": 1984,
  "IST": 1985,
  "she1": 1986,
  "lv2": 1987,
  "Col": 1988,
  "ory": 1989,
  "ME": 1990,
  "Sy": 1991,
  "tive": 1992,
  "wit": 1993,
  "CR": 1994,
  "3D": 1995,
  "round": 1996,
  "IA": 1997,
  "lan": 1998,
  "gua3": 1999,
  "105": 2000,
  "je": 2001,
  "ma4": 2002,
  "а": 2003,
  "tt": 2004,
  "lin": 2005,
  "1903": 2006,
  "101": 2007,
  "GB": 2008,
  "ping1": 2009,
  "ree": 2010,
  "Cu": 2011,
  "can": 2012,
  "09": 2013,
  "ina": 2014,
  "can4": 2015,
  "Fe": 2016,
  "cen2": 2017,
  "1902": 2018,
  "BD": 2019,
  "NC": 2020,
  "land": 2021,
  "TE": 2022,
  "cha": 2023,
  "pang1": 2024,
  "xt": 2025,
  "350": 2026,
  "á": 2027,
  "ze": 2028,
  "SAO": 2029,
  "shao2": 2030,
  "gen": 2031,
  "DC": 2032,
  "des": 2033,
  "span": 2034,
  "pt": 2035,
  "mon": 2036,
  "Ad": 2037,
  "β": 2038,
  "ght": 2039,
  "res": 2040,
  "lin4": 2041,
  "B1900": 2042,
  "del": 2043,
  "book": 2044,
  "ES": 2045,
  "BM": 2046,
  "ron": 2047,
  "．": 2048,
  "ン": 2049,
  "1898": 2050,
  "06": 2051,
  "118": 2052,
  "Hi": 2053,
  "la2": 2054,
  "の": 2055,
  "ms": 2056,
  "qin3": 2057,
  "cor": 2058,
  "tel": 2059,
  "DR": 2060,
  "360": 2061,
  "01": 2062,
  "DA": 2063,
  "Open": 2064,
  "1895": 2065,
  "lao4": 2066,
  "125": 2067,
  "mu2": 2068,
  "za": 2069,
  "lar": 2070,
  "ben4": 2071,
  "HO": 2072,
  "ance": 2073,
  "tin": 2074,
  "MC": 2075,
  "ATP": 2076,
  "Micro": 2077,
  "Ko": 2078,
  "gy": 2079,
  "о": 2080,
  "108": 2081,
  "Ke": 2082,
  "sy": 2083,
  "line": 2084,
  "dio": 2085,
  "NG": 2086,
  "igh": 2087,
  "pou1": 2088,
  "net": 2089,
  "yle": 2090,
  "Go": 2091,
  "clu": 2092,
  "low": 2093,
  "qie2": 2094,
  "gram": 2095,
  "Cor": 2096,
  "IF": 2097,
  "ft": 2098,
  "Fran": 2099,
  "One": 2100,
  "ner": 2101,
  "App": 2102,
  "07": 2103,
  "−": 2104,
  "08": 2105,
  "230": 2106,
  "gh": 2107,
  "Face": 2108,
  "Hu": 2109,
  "104": 2110,
  "pace": 2111,
  "Pu": 2112,
  "Ser": 2113,
  "rea": 2114,
  "World": 2115,
  "soft": 2116,
  "EDT": 2117,
  "ISTAT": 2118,
  "Mon": 2119,
  "Stu": 2120,
  "ja": 2121,
  "shai1": 2122,
  "song3": 2123,
  "NO": 2125,
  "1896": 2126,
  "LL": 2127,
  "ning": 2128,
  "109": 2129,
  "DP": 2130,
  "fli": 2131,
  "ger": 2132,
  "las": 2133,
  "dy": 2134,
  "yu1": 2135,
  "AA": 2136,
  "lus": 2137,
  "own": 2138,
  "Bi": 2139,
  "ity": 2140,
  "ge3": 2141,
  "RI": 2142,
  "ctor": 2143,
  "Wa": 2144,
  "Du": 2145,
  "SP": 2146,
  "RT": 2147,
  "sui3": 2148,
  "xiao2": 2149,
  "qia3": 2150,
  "EX": 2151,
  "re3": 2152,
  "Bri": 2153,
  "bert": 2154,
  "B48": 2155,
  "Man": 2156,
  "vel": 2157,
  "ling": 2158,
  "106": 2159,
  "1890": 2160,
  "San": 2161,
  "CST": 2162,
  "ML": 2163,
  "ori": 2164,
  "Bar": 2165,
  "CDT": 2166,
  "Love": 2167,
  "zang1": 2168,
  "DO": 2169,
  "with": 2170,
  "HE": 2171,
  "ward": 2172,
  "Per": 2173,
  "pei1": 2174,
  "row": 2175,
  "tain": 2176,
  "04": 2177,
  "4000": 2178,
  "pri": 2179,
  "ux": 2180,
  "cuan4": 2181,
  "115": 2182,
  "ight": 2183,
  "ds": 2184,
  "1200": 2185,
  "M1": 2186,
  "03": 2187,
  "Har": 2188,
  "GP": 2189,
  "pao2": 2190,
  "CE": 2191,
  "ren": 2192,
  "ā": 2193,
  "back": 2194,
  "1889": 2195,
  "begin": 2196,
  "Par": 2197,
  "1899": 2198,
  "Je": 2199,
  "Mac": 2200,
  "colspan": 2201,
  "1871": 2202,
  "Ed": 2203,
  "RS": 2204,
  "mic": 2205,
  "Facebook": 2206,
  "Willi": 2207,
  "Microsoft": 2208,
  "​": 2209,
  "240": 2210,
  "tur": 2211,
  "Comp": 2212,
  "ool": 2213,
  "1600": 2214,
  "LO": 2215,
  "Gi": 2216,
  "ky": 2217,
  "BE": 2218,
  "cc": 2219,
  "Nor": 2220,
  "cket": 2221,
  "102": 2222,
  "box": 2223,
  "clude": 2224,
  "TT": 2225,
  "ref": 2226,
  "1897": 2227,
  "pha": 2228,
  "Live": 2229,
  "NH": 2230,
  "Sou": 2231,
  "EE": 2232,
  "chou4": 2233,
  "Tri": 2234,
  "117": 2235,
  "Is": 2236,
  "Pre": 2237,
  "PP": 2238,
  "im": 2239,
  "qin4": 2240,
  "ut": 2241,
  "SC": 2242,
  "min": 2243,
  "02": 2244,
  "cm": 2245,
  "shuang3": 2246,
  "style": 2247,
  "ie": 2248,
  "103": 2249,
  "AKB48": 2250,
  "MD": 2251,
  "yao3": 2252,
  "Music": 2253,
  "Pri": 2254,
  "107": 2255,
  "van": 2256,
  "On": 2257,
  "bli": 2258,
  "cou4": 2259,
  "tra": 2260,
  "Gra": 2261,
  "Or": 2262,
  "ler": 2263,
  "Linux": 2264,
  "Dis": 2265,
  "Tra": 2266,
  "ser": 2267,
  "ye": 2268,
  "tang3": 2269,
  "ww": 2270,
  "Gre": 2271,
  "Ori": 2272,
  "lis": 2273,
  "old": 2274,
  "VID": 2275,
  "127": 2276,
  "tus": 2277,
  "450": 2278,
  "Vo": 2279,
  "sti": 2280,
  "Davi": 2281,
  "ü": 2282,
  "que": 2283,
  "128": 2284,
  "align": 2285,
  "lao1": 2286,
  "flix": 2287,
  "CL": 2288,
  "Netflix": 2289,
  "1894": 2290,
  "Game": 2291,
  "220": 2292,
  "rin": 2293,
  "Ber": 2294,
  "н": 2295,
  "mas": 2296,
  "William": 2297,
  "IL": 2298,
  "Mor": 2299,
  "ks": 2300,
  "SH": 2301,
  "Twit": 2302,
  "1880": 2303,
  "Red": 2304,
  "len": 2305,
  "lla": 2306,
  "í": 2307,
  "RNA": 2308,
  "zao2": 2309,
  "136": 2310,
  "rus": 2311,
  "rom": 2312,
  "PG": 2313,
  "nge": 2314,
  "и": 2315,
  "stri": 2316,
  "い": 2317,
  "TR": 2318,
  "stra": 2319,
  "Team": 2320,
  "1800": 2321,
  "ス": 2322,
  "Univer": 2323,
  "ground": 2324,
  "1885": 2325,
  "lia3": 2326,
  "ero": 2327,
  "114": 2328,
  "ん": 2329,
  "Char": 2330,
  "pian2": 2331,
  "color": 2332,
  "Fu": 2333,
  "Hz": 2334,
  "Ty": 2335,
  "280": 2336,
  "UR": 2337,
  "е": 2338,
  "113": 2339,
  "116": 2340,
  "tor": 2341,
  "ano": 2342,
  "Gen": 2343,
  "1886": 2344,
  "sing": 2345,
  "イ": 2346,
  "TS": 2347,
  "School": 2348,
  "PO": 2349,
  "mang3": 2350,
  "lass": 2351,
  "1893": 2352,
  "Che": 2353,
  "ex": 2354,
  "sen": 2355,
  "irl": 2356,
  "Bla": 2357,
  "lyi": 2358,
  "mb": 2359,
  "ten": 2360,
  "Mc": 2361,
  "ane": 2362,
  "Mark": 2363,
  "Eu": 2364,
  "name": 2365,
  "SL": 2366,
  "tri": 2367,
  "111": 2368,
  "Star": 2369,
  "cial": 2371,
  "lia": 2372,
  "irst": 2373,
  "Super": 2374,
  "port": 2375,
  "Don": 2376,
  "ject": 2377,
  "lex": 2378,
  "mo3": 2379,
  "※": 2380,
  "ces": 2381,
  "mo1": 2382,
  "135": 2383,
  "David": 2384,
  "260": 2385,
  "national": 2386,
  "ys": 2387,
  "era": 2388,
  "1860": 2389,
  "Geor": 2390,
  "sto": 2391,
  "gue": 2392,
  "nin2": 2393,
  "ess": 2394,
  "Wal": 2395,
  "WTA": 2396,
  "ker": 2397,
  "HC": 2398,
  "way": 2399,
  "Show": 2400,
  "lver": 2401,
  "Ac": 2402,
  "UA": 2403,
  "was": 2404,
  "Un": 2405,
  "ham": 2406,
  "1888": 2407,
  "text": 2408,
  "SD": 2409,
  "ac": 2410,
  "ó": 2411,
  "roup": 2412,
  "-.": 2413,
  "ans": 2414,
  "ouse": 2415,
  "Bra": 2416,
  "roid": 2417,
  "cation": 2418,
  "background": 2419,
  "tle": 2420,
  "yun1": 2421,
  "dai3": 2422,
  "Cy": 2423,
  "pre": 2424,
  "GO": 2425,
  "Wh": 2426,
  "chen1": 2427,
  "1870": 2428,
  "ream": 2429,
  "GN": 2430,
  "129": 2432,
  "ony": 2433,
  "1887": 2434,
  "bur": 2435,
  "any": 2436,
  "dis": 2437,
  "shuan1": 2438,
  "1868": 2439,
  "Meta": 2440,
  "6000": 2441,
  "ö": 2442,
  "р": 2443,
  "El": 2444,
  "NF": 2445,
  "VA": 2446,
  "cle": 2447,
  "1883": 2448,
  "lor": 2449,
  "ank": 2450,
  "ous": 2451,
  "Xbox": 2452,
  "320": 2453,
  "CS": 2454,
  "Tho": 2455,
  "NHK": 2456,
  "AF": 2457,
  "As": 2458,
  "DD": 2459,
  "Twitter": 2460,
  "KP": 2461,
  "nclude": 2462,
  "onlyi": 2463,
  "onlyinclude": 2464,
  "piao2": 2465,
  "++": 2466,
  "bit": 2467,
  "tang4": 2468,
  "1864": 2469,
  "•": 2470,
  "ION": 2471,
  "ny": 2472,
  "cho": 2473,
  "1884": 2474,
  "RC": 2475,
  "UE": 2476,
  "mar": 2477,
  "ensis": 2478,
  "119": 2479,
  "122": 2480,
  "2500": 2481,
  "1892": 2482,
  "210": 2483,
  "A1": 2484,
  "tis": 2485,
  "ena": 2486,
  "let": 2487,
  "center": 2488,
  "miu4": 2489,
  "155": 2490,
  "ins": 2491,
  "ower": 2492,
  "ISO": 2493,
  "Mat": 2494,
  "145": 2496,
  "1891": 2497,
  "650": 2498,
  "Clu": 2499,
  "cer": 2500,
  "Android": 2501,
  "Girl": 2502,
  "age": 2503,
  "〕": 2504,
  "OR": 2505,
  "red": 2506,
  "nes": 2507,
  "Ku": 2508,
  "NS": 2509,
  "cuo1": 2510,
  "car": 2511,
  "〔": 2512,
  "1850": 2513,
  "htt": 2514,
  "meri": 2515,
  "Cl": 2516,
  "val": 2517,
  "International": 2518,
  "Day": 2519,
  "xy": 2520,
  "ound": 2521,
  "mi1": 2522,
  "1867": 2523,
  "logy": 2524,
  "stem": 2525,
  "IM": 2526,
  "pang4": 2527,
  "ト": 2528,
  "eld": 2529,
  "All": 2530,
  "ffi": 2531,
  "1879": 2532,
  "ake": 2533,
  "James": 2534,
  "Enter": 2535,
  "War": 2536,
  "par": 2537,
  "sel": 2538,
  "380": 2539,
  "AB": 2540,
  "UP": 2541,
  "Ver": 2542,
  "bri": 2543,
  "ney": 2544,
  "1876": 2545,
  "Ani": 2546,
  "Coun": 2547,
  "sia": 2548,
  "George": 2549,
  "Can": 2550,
  "lie": 2551,
  "1875": 2552,
  "1861": 2553,
  "270": 2554,
  "Universi": 2555,
  "Dra": 2556,
  "Her": 2557,
  "Por": 2558,
  "td": 2559,
  "Games": 2560,
  "Air": 2561,
  "IR": 2562,
  "126": 2563,
  "NT": 2564,
  "è": 2565,
  "time": 2566,
  "inter": 2567,
  "Hol": 2568,
  "Pau": 2569,
  "Spe": 2570,
  "NGC": 2571,
  "stru": 2572,
  "ル": 2573,
  "1873": 2574,
  "MG": 2575,
  "ns": 2576,
  "123": 2577,
  "ラ": 2578,
  "ama": 2579,
  "Eng": 2580,
  "Hen": 2581,
  "PV": 2582,
  "Ab": 2583,
  "Group": 2584,
  "HT": 2585,
  "sed": 2586,
  "rans": 2587,
  "Colle": 2588,
  "Ben": 2589,
  "Hy": 2590,
  "MB": 2591,
  "Va": 2592,
  "168": 2593,
  "COVID": 2594,
  "critic": 2595,
  "FM": 2596,
  "om": 2597,
  "1865": 2598,
  "ild": 2599,
  "Club": 2600,
  "AO": 2601,
  "PL": 2602,
  "lue": 2603,
  "that": 2604,
  "ass": 2605,
  "Ameri": 2606,
  "DE": 2607,
  "121": 2608,
  "Center": 2609,
  "hy": 2610,
  "cus": 2611,
  "work": 2612,
  "Blo": 2613,
  "175": 2614,
  "ald": 2615,
  "う": 2616,
  "Web": 2617,
  "H2": 2618,
  "YP": 2619,
  "from": 2620,
  "ä": 2621,
  "1400": 2622,
  "MAX": 2623,
  "Ali": 2624,
  "138": 2625,
  "228": 2626,
  "TP": 2627,
  "ast": 2628,
  "ha2": 2629,
  "chan4": 2630,
  "nic": 2631,
  "1848": 2632,
  "fer": 2633,
  "liu1": 2634,
  "1862": 2635,
  "ration": 2636,
  "330": 2637,
  "peng3": 2638,
  "124": 2639,
  "ア": 2640,
  "1881": 2641,
  "1882": 2642,
  "737": 2643,
  "Park": 2644,
  "vil": 2645,
  "ens": 2646,
  "ona": 2647,
  "1878": 2648,
  "550": 2649,
  "guai3": 2650,
  "Ve": 2651,
  "rui3": 2652,
  "1872": 2653,
  "LC": 2654,
  "bin4": 2655,
  "Hel": 2656,
  "High": 2657,
  "INK": 2658,
  "Metacritic": 2659,
  "zo": 2660,
  "It": 2661,
  "nao2": 2662,
  "tro": 2663,
  "Oricon": 2664,
  "MTV": 2665,
  "UC": 2666,
  "wan": 2667,
  "156": 2668,
  "165": 2669,
  "Boo": 2670,
  "LED": 2671,
  "don": 2672,
  "nian3": 2673,
  "1840": 2674,
  "IVE": 2675,
  "Spi": 2676,
  "core": 2677,
  "dai1": 2678,
  "750": 2679,
  "dge": 2680,
  "shai4": 2681,
  "ッ": 2682,
  "cre": 2683,
  "ming": 2684,
  "137": 2685,
  "し": 2686,
  "Lea": 2687,
  "nis": 2688,
  "1300": 2689,
  "stagram": 2690,
  "7000": 2691,
  "ring": 2692,
  "Bro": 2693,
  "DOS": 2694,
  "SQ": 2695,
  "UB": 2696,
  "229": 2697,
  "IU": 2698,
  "She": 2699,
  "GDP": 2700,
  "King": 2701,
  "OK": 2702,
  "с": 2703,
  "Chu": 2704,
  "Pla": 2705,
  "rand": 2706,
  "152": 2707,
  "out": 2708,
  "TVB": 2709,
  "Micha": 2710,
  "Fri": 2711,
  "day": 2712,
  "159": 2713,
  "1877": 2714,
  "Robert": 2715,
  "Stre": 2716,
  "type": 2717,
  "Sur": 2718,
  "kui3": 2720,
  "1866": 2721,
  "Chris": 2722,
  "iOS": 2723,
  "л": 2724,
  "als": 2725,
  "Produ": 2726,
  "SK": 2727,
  "Up": 2728,
  "1869": 2729,
  "′": 2730,
  "silver": 2731,
  "Ele": 2732,
  "THE": 2733,
  "DM": 2734,
  "xiu3": 2735,
  "star": 2736,
  "Peter": 2737,
  "NET": 2738,
  "Pat": 2739,
  "gar": 2740,
  "pla": 2741,
  "she": 2742,
  "play": 2743,
  "к": 2744,
  "Chi": 2745,
  "Instagram": 2746,
  "BI": 2747,
  "py": 2748,
  "139": 2749,
  "BLAC": 2750,
  "Big": 2751,
  "gan": 2752,
  "в": 2753,
  "DJ": 2754,
  "reng1": 2755,
  "lip": 2756,
  "sso": 2757,
  "Phone": 2758,
  "CG": 2759,
  "WE": 2760,
  "code": 2761,
  "ク": 2762,
  "Michael": 2763,
  "At": 2764,
  "DF": 2765,
  "Apple": 2767,
  "1100": 2768,
  "Ci": 2769,
  "ai": 2770,
  "158": 2771,
  "Tech": 2772,
  "Paul": 2773,
  "225": 2774,
  "gon": 2775,
  "ene": 2776,
  "305": 2777,
  "133": 2778,
  "alk": 2779,
  "INE": 2780,
  "National": 2781,
  "Type": 2782,
  "RA": 2783,
  "sa3": 2784,
  "nia": 2785,
  "リ": 2786,
  "ator": 2787,
  "Award": 2788,
  "HI": 2789,
  "YO": 2790,
  "132": 2791,
  "Steam": 2792,
  "Es": 2793,
  "Ye": 2794,
  "ral": 2795,
  "205": 2796,
  "1863": 2797,
  "ray": 2798,
  "tainment": 2799,
  "215": 2800,
  "Bill": 2801,
  "cia": 2802,
  "University": 2803,
  "Ce": 2804,
  "FO": 2805,
  "phy": 2806,
  "CA": 2807,
  "F1": 2808,
  "KBS": 2809,
  "148": 2810,
  "131": 2811,
  "Media": 2812,
  "Kar": 2813,
  "Lou": 2814,
  "Mer": 2815,
  "Smi": 2816,
  "Wo": 2817,
  "166": 2818,
  "arch": 2819,
  "new": 2820,
  "1874": 2821,
  "EF": 2822,
  "XX": 2823,
  "kg": 2824,
  "now": 2825,
  "deo": 2826,
  "enti": 2827,
  "1858": 2828,
  "Fin": 2829,
  "ic": 2830,
  "147": 2831,
  "Black": 2832,
  "bal": 2833,
  "vin": 2834,
  "256": 2835,
  "か": 2836,
  "GA": 2837,
  "Gar": 2838,
  "M2": 2839,
  "kun3": 2840,
  "1830": 2841,
  "Rich": 2842,
  "CBS": 2843,
  "Ter": 2844,
  "UT": 2845,
  "ach": 2846,
  "clo": 2847,
  "ew": 2848,
  "1851": 2849,
  "ora": 2850,
  "Lee": 2851,
  "BN": 2852,
  "EM": 2853,
  "UI": 2854,
  "192": 2855,
  "μ": 2856,
  "Cha": 2857,
  "8000": 2858,
  "che3": 2859,
  "Jack": 2860,
  "Entertainment": 2861,
  "if": 2862,
  "zer": 2863,
  "ann": 2864,
  "lin3": 2865,
  "mini": 2866,
  "bin": 2867,
  "143": 2868,
  "set": 2869,
  "ada": 2870,
  "City": 2871,
  "Mk": 2872,
  "gang4": 2873,
  "1855": 2874,
  "Intel": 2875,
  "310": 2876,
  "Power": 2877,
  "IX": 2878,
  "ha3": 2879,
  "mber": 2880,
  "IE": 2881,
  "RAM": 2882,
  "Space": 2883,
  "bel": 2884,
  "zuo2": 2885,
  "1859": 2887,
  "STAR": 2888,
  "Charles": 2889,
  "134": 2890,
  "tions": 2891,
  "iss": 2892,
  "Dire": 2893,
  "ship": 2894,
  "Ang": 2895,
  "ABC": 2896,
  "185": 2897,
  "1854": 2898,
  "org": 2899,
  "146": 2900,
  "301": 2901,
  "Fla": 2902,
  "1700": 2903,
  "Viu": 2904,
  "370": 2905,
  "space": 2906,
  "1857": 2907,
  "Free": 2908,
  "GM": 2909,
  "Win": 2910,
  "ek": 2911,
  "whi": 2912,
  "stro": 2913,
  "Er": 2914,
  "vs": 2915,
  "ا": 2916,
  "290": 2917,
  "な": 2918,
  "Life": 2919,
  "Tai": 2920,
  "︰": 2921,
  "Sam": 2922,
  "γ": 2923,
  "ino": 2924,
  "Java": 2925,
  "214": 2926,
  "Py": 2927,
  "т": 2928,
  "mis": 2929,
  "Recor": 2930,
  "Company": 2931,
  "stitu": 2932,
  "420": 2933,
  "Dream": 2934,
  "Pol": 2935,
  "fang": 2936,
  "ο": 2937,
  "〜": 2938,
  "1856": 2939,
  "1853": 2940,
  "Project": 2941,
  "House": 2942,
  "ah": 2943,
  "first": 2944,
  "dium": 2945,
  "た": 2946,
  "ety": 2947,
  "ood": 2948,
  "Time": 2949,
  "Thomas": 2950,
  "Pan": 2951,
  "bra": 2952,
  "von": 2953,
  "bo4": 2954,
  "144": 2955,
  "Alpha": 2956,
  "Saint": 2957,
  "FA": 2958,
  "Ken": 2959,
  "OVA": 2960,
  "Cent": 2961,
  "VO": 2962,
  "face": 2963,
  "A2": 2964,
  "IO": 2965,
  "167": 2966,
  "3A": 2967,
  "HS": 2968,
  "SBS": 2969,
  "sha3": 2970,
  "bili": 2971,
  "kua3": 2972,
  "1841": 2973,
  "Street": 2974,
  "Am": 2975,
  "Alex": 2976,
  "Bat": 2977,
  "LP": 2978,
  "spe": 2979,
  "alo": 2980,
  "Japan": 2981,
  "340": 2982,
  "Ag": 2983,
  "PM": 2984,
  "chuan3": 2985,
  "rie": 2986,
  "Euro": 2987,
  "BLACKP": 2988,
  "Spo": 2989,
  "Tor": 2990,
  "ae": 2991,
  "wn": 2992,
  "za1": 2993,
  "208": 2994,
  "1815": 2995,
  "178": 2996,
  "CPU": 2997,
  "BLACKPINK": 2998,
  "223": 2999,
  "Bur": 3000,
  "Tru": 3001,
  "cis": 3002,
  "men4": 3003,
  "Soci": 3004,
  "850": 3005,
  "LGB": 3006,
  "Sing": 3007,
  "tal": 3008,
  "zuo1": 3009,
  "cher": 3010,
  "ric": 3011,
  "ses": 3012,
  "Rock": 3013,
  "Studio": 3014,
  "www": 3015,
  "IBM": 3016,
  "die": 3017,
  "mat": 3018,
  "esti": 3019,
  "ports": 3020,
  "SF": 3021,
  "Val": 3022,
  "you": 3023,
  "207": 3024,
  "very": 3025,
  "235": 3026,
  "と": 3027,
  "ま": 3028,
  "mation": 3029,
  "Art": 3030,
  "Dig": 3031,
  "Fer": 3032,
  "LIVE": 3033,
  "Mr": 3034,
  "Met": 3035,
  "Pop": 3036,
  "SU": 3037,
  "203": 3038,
  "ning4": 3039,
  "171": 3040,
  "berg": 3041,
  "B2": 3042,
  "VE": 3043,
  "Whi": 3044,
  "nal": 3045,
  "comp": 3046,
  "Shi": 3047,
  "SQL": 3048,
  "Pad": 3049,
  "cra": 3050,
  "sg": 3051,
  "vis": 3052,
  "1846": 3053,
  "164": 3054,
  "ford": 3055,
  "not": 3056,
  "College": 3057,
  "Min": 3058,
  "Yu": 3059,
  "bre": 3060,
  "lit": 3061,
  "157": 3062,
  "vice": 3063,
  "publi": 3064,
  "BR": 3065,
  "LT": 3066,
  "NE": 3067,
  "Sun": 3068,
  "141": 3069,
  "ICE": 3070,
  "American": 3071,
  "B1": 3072,
  "Cro": 3073,
  "PE": 3074,
  "est": 3075,
  "board": 3076,
  "176": 3077,
  "sign": 3078,
  "ING": 3079,
  "Asso": 3080,
  "LS": 3081,
  "ball": 3082,
  "han1": 3083,
  "²": 3084,
  "well": 3085,
  "1812": 3086,
  "1845": 3087,
  "1844": 3088,
  "Road": 3089,
  "Girls": 3090,
  "self": 3091,
  "ple": 3092,
  "mit": 3093,
  "231": 3094,
  "Offi": 3095,
  "cture": 3096,
  "class": 3097,
  "HF": 3098,
  "Ltd": 3099,
  "M3": 3100,
  "pm": 3101,
  "bor": 3102,
  "り": 3103,
  "witch": 3104,
  "LGBT": 3105,
  "BB": 3106,
  "209": 3107,
  "wood": 3108,
  "pon": 3109,
  "cess": 3110,
  "き": 3111,
  "NASA": 3112,
  "GNU": 3113,
  "Ger": 3114,
  "LA": 3115,
  "PA": 3116,
  "wai1": 3117,
  "ded": 3118,
  "thy": 3119,
  "Jose": 3120,
  "Tele": 3121,
  "Smith": 3122,
  "Cla": 3123,
  "Cra": 3124,
  "Pra": 3125,
  "ise": 3126,
  "ampi": 3127,
  "aurus": 3128,
  "IUCN": 3129,
  "216": 3130,
  "PN": 3131,
  "wh": 3132,
  "κ": 3133,
  "1849": 3134,
  "153": 3135,
  "Good": 3136,
  "CT": 3137,
  "Fil": 3138,
  "Hall": 3139,
  "NBC": 3140,
  "Tour": 3141,
  "zhou3": 3142,
  "204": 3143,
  "238": 3144,
  "Cho": 3145,
  "ump": 3146,
  "Production": 3147,
  "le1": 3148,
  "lea": 3149,
  "tation": 3150,
  "ness": 3151,
  "Video": 3152,
  "GT": 3153,
  "O2": 3154,
  "Sci": 3155,
  "σ": 3156,
  "mited": 3157,
  "Gala": 3158,
  "Eli": 3159,
  "Fo": 3160,
  "PR": 3161,
  "war": 3162,
  "yn": 3163,
  "din": 3164,
  "206": 3165,
  "eries": 3166,
  "Ze": 3167,
  "1814": 3168,
  "mac": 3169,
  "218": 3170,
  "fri": 3171,
  "fra": 3172,
  "lti": 3173,
  "ons": 3174,
  "ange": 3175,
  "Richard": 3176,
  "SI": 3177,
  "mal": 3178,
  "chun3": 3179,
  "IGN": 3180,
  "Act": 3181,
  "LD": 3182,
  "Sen": 3183,
  "WS": 3184,
  "win": 3185,
  "pic": 3187,
  "qui": 3188,
  "Chri": 3189,
  "Boy": 3190,
  "Plan": 3191,
  "Sky": 3192,
  "Tur": 3193,
  "bun": 3194,
  "π": 3195,
  "def": 3196,
  "1847": 3197,
  "154": 3198,
  "tho": 3199,
  "ved": 3200,
  "vision": 3201,
  "turn": 3202,
  "460": 3203,
  "580": 3204,
  "Bel": 3205,
  "FF": 3206,
  "Far": 3207,
  "Mas": 3208,
  "her": 3209,
  "iro": 3210,
  "sch": 3211,
  "ves": 3212,
  "zz": 3213,
  "mor": 3214,
  "1843": 3215,
  "Best": 3216,
  "System": 3217,
  "ptr": 3218,
  "430": 3219,
  "MBC": 3220,
  "sha": 3221,
  "401": 3222,
  "chem": 3223,
  "410": 3224,
  "bar": 3225,
  "bus": 3226,
  "pr": 3227,
  "led": 3228,
  "177": 3229,
  "rich": 3230,
  "off": 3231,
  "シ": 3232,
  "los": 3233,
  "NFL": 3234,
  "ViuTV": 3235,
  "Cal": 3236,
  "Switch": 3237,
  "163": 3238,
  "AMD": 3239,
  "API": 3240,
  "West": 3241,
  "Dan": 3242,
  "ICO": 3243,
  "ep": 3244,
  "oper": 3245,
  "ments": 3246,
  "1852": 3247,
  "162": 3248,
  "cript": 3249,
  "VII": 3250,
  "gs": 3251,
  "1820": 3252,
  "this": 3253,
  "く": 3254,
  "Max": 3255,
  "Inc": 3256,
  "Ama": 3257,
  "Bor": 3258,
  "Fre": 3259,
  "Prin": 3260,
  "cil": 3261,
  "ue": 3262,
  "142": 3263,
  "get": 3264,
  "234": 3265,
  "thon": 3266,
  "Roy": 3267,
  "VR": 3268,
  "172": 3269,
  "お": 3270,
  "さ": 3271,
  "Records": 3272,
  "640": 3273,
  "Em": 3274,
  "Gal": 3275,
  "Squ": 3276,
  "Vir": 3277,
  "169": 3278,
  "3500": 3279,
  "Limited": 3280,
  "data": 3281,
  "CM": 3282,
  "Core": 3283,
  "KC": 3284,
  "T1": 3285,
  "±": 3286,
  "lve": 3287,
  "1839": 3288,
  "ars": 3289,
  "232": 3290,
  "480": 3291,
  "ci1": 3292,
  "179": 3293,
  "cade": 3294,
  "2030": 3295,
  "149": 3296,
  "max": 3297,
  "365": 3298,
  "Institu": 3299,
  "mann": 3300,
  "Res": 3301,
  "1821": 3302,
  "ロ": 3303,
  "み": 3304,
  "ders": 3305,
  "Unicode": 3306,
  "ROM": 3307,
  "CCTV": 3308,
  "390": 3309,
  "BU": 3310,
  "Han": 3311,
  "cent": 3312,
  "lli": 3313,
  "tv": 3314,
  "306": 3315,
  "222": 3316,
  "601": 3317,
  "unch": 3318,
  "Fan": 3319,
  "Vol": 3320,
  "ii": 3321,
  "tube": 3322,
  "173": 3323,
  "247": 3324,
  "ria": 3325,
  "itch": 3326,
  "Bob": 3327,
  "ful": 3328,
  "Cri": 3329,
  "EA": 3330,
  "PF": 3331,
  "king": 3332,
  "tian": 3333,
  "ital": 3334,
  "oot": 3335,
  "KK": 3336,
  "XP": 3337,
  "1790": 3338,
  "560": 3339,
  "OH": 3340,
  "SN": 3341,
  "use": 3342,
  "wid": 3343,
  "lian": 3344,
  "ping": 3345,
  "レ": 3346,
  "ciation": 3347,
  "211": 3348,
  "BF": 3349,
  "Fun": 3350,
  "Trans": 3351,
  "VM": 3352,
  "ire": 3353,
  "Hot": 3354,
  "MU": 3355,
  "PD": 3356,
  "PH": 3357,
  "Sco": 3358,
  "Sir": 3359,
  "io": 3360,
  "var": 3361,
  "shua3": 3362,
  "lum": 3363,
  "1795": 3364,
  "303": 3365,
  "○": 3366,
  "183": 3367,
  "233": 3368,
  "search": 3369,
  "ち": 3370,
  "1801": 3371,
  "Force": 3372,
  "213": 3373,
  "Pen": 3374,
  "Tok": 3375,
  "kh": 3376,
  "lon": 3377,
  "weng4": 3378,
  "run": 3379,
  "マ": 3380,
  "USB": 3381,
  "Van": 3382,
  "num": 3383,
  "tia": 3384,
  "sub": 3385,
  "nie": 3386,
  "174": 3387,
  "rew": 3388,
  "MVP": 3389,
  "Heart": 3390,
  "Fire": 3391,
  "Jean": 3392,
  "CK": 3393,
  "zon": 3394,
  "ρ": 3395,
  "186": 3398,
  "1838": 3399,
  "ord": 3400,
  "ally": 3401,
  "Store": 3402,
  "520": 3403,
  "610": 3404,
  "Bank": 3405,
  "DDR": 3406,
  "Glo": 3407,
  "Top": 3408,
  "sor": 3409,
  "up": 3410,
  "nga": 3411,
  "mily": 3412,
  "cker": 3413,
  "iPad": 3414,
  "rong3": 3415,
  "tz": 3416,
  "sur": 3417,
  "161": 3418,
  "501": 3419,
  "ド": 3420,
  "its": 3421,
  "aya": 3422,
  "Home": 3423,
  "http": 3424,
  "Direct": 3425,
  "224": 3426,
  "CF": 3427,
  "Hor": 3428,
  "Lon": 3429,
  "ele": 3430,
  "bile": 3431,
  "1813": 3432,
  "ら": 3433,
  "Phil": 3434,
  "Dr": 3435,
  "Fle": 3436,
  "GE": 3437,
  "zy": 3438,
  "τ": 3439,
  "182": 3440,
  "1832": 3441,
  "1842": 3442,
  "lation": 3443,
  "Society": 3444,
  "AE": 3445,
  "Cam": 3446,
  "Zi": 3447,
  "fter": 3448,
  "184": 3449,
  "カ": 3450,
  "Mini": 3451,
  "key": 3452,
  "Data": 3453,
  "720": 3454,
  "KI": 3455,
  "Mel": 3456,
  "Script": 3457,
  "iPhone": 3458,
  "jo": 3459,
  "1836": 3461,
  "late": 3462,
  "1793": 3463,
  "255": 3464,
  "tha": 3465,
  "オ": 3466,
  "Comic": 3467,
  "Muse": 3468,
  "221": 3469,
  "HBO": 3470,
  "MT": 3471,
  "Sto": 3472,
  "dro": 3473,
  "hou3": 3474,
  "kin": 3475,
  "nt": 3476,
  "1833": 3477,
  "1789": 3478,
  "Sha": 3479,
  "tics": 3480,
  "River": 3481,
  "https": 3482,
  "Association": 3483,
  "Galaxy": 3484,
  "buntu": 3485,
  "DAM": 3486,
  "M4": 3487,
  "QQ": 3488,
  "dra": 3489,
  "fin": 3490,
  "mg": 3491,
  "ties": 3492,
  "1835": 3493,
  "151": 3494,
  "タ": 3495,
  "ady": 3496,
  "219": 3497,
  "217": 3498,
  "338": 3499,
  "FT": 3500,
  "Jan": 3501,
  "JYP": 3502,
  "SR": 3503,
  "WA": 3504,
  "em": 3505,
  "shang": 3507,
  "‰": 3508,
  "muni": 3509,
  "1804": 3510,
  "ONE": 3511,
  "CEO": 3512,
  "width": 3513,
  "470": 3514,
  "740": 3515,
  "830": 3516,
  "Ubuntu": 3517,
  "ga4": 3518,
  "uni": 3519,
  "light": 3520,
  "ella": 3521,
  "Martin": 3522,
  "Henry": 3523,
  "League": 3524,
  "Bay": 3525,
  "YG": 3526,
  "ban": 3527,
  "bro": 3528,
  "gre": 3529,
  "ς": 3530,
  "д": 3531,
  "mus": 3533,
  "Master": 3534,
  "Champi": 3535,
  "ving": 3536,
  "Gener": 3537,
  "Des": 3538,
  "Ear": 3539,
  "Fra": 3540,
  "LINE": 3541,
  "Phi": 3542,
  "cen": 3543,
  "ν": 3544,
  "less": 3545,
  "ato": 3546,
  "ART": 3547,
  "Green": 3548,
  "212": 3549,
  "Br": 3550,
  "DK": 3551,
  "cti": 3552,
  "у": 3553,
  "nger": 3554,
  "hun": 3555,
  "list": 3556,
  "1828": 3557,
  "ors": 3558,
  "コ": 3559,
  "cond": 3560,
  "APAN": 3561,
  "rown": 3562,
  "Dou": 3563,
  "FR": 3564,
  "Night": 3565,
  "Ven": 3566,
  "dit": 3567,
  "191": 3568,
  "302": 3569,
  "table": 3570,
  "Billboard": 3571,
  "680": 3572,
  "Gam": 3573,
  "Mana": 3574,
  "MHz": 3575,
  "PI": 3576,
  "Pin": 3577,
  "SNH": 3578,
  "has": 3579,
  "nm": 3580,
  "ι": 3581,
  "181": 3582,
  "1624": 3583,
  "237": 3584,
  "side": 3585,
  "main": 3586,
  "る": 3587,
  "China": 3588,
  "Office": 3589,
  "Joseph": 3590,
  "SNH48": 3591,
  "Bir": 3592,
  "FDA": 3593,
  "Gold": 3594,
  "JAPAN": 3595,
  "PK": 3596,
  "1644": 3599,
  "308": 3600,
  "ston": 3601,
  "Code": 3602,
  "Stra": 3603,
  "COM": 3604,
  "Note": 3605,
  "DB": 3606,
  "Dy": 3607,
  "Env": 3608,
  "GR": 3609,
  "Hill": 3610,
  "Mil": 3611,
  "Ob": 3612,
  "Part": 3613,
  "10000": 3614,
  "1837": 3615,
  "tui2": 3616,
  "239": 3617,
  "rick": 3618,
  "logi": 3619,
  "1806": 3620,
  "Song": 3621,
  "United": 3622,
  "News": 3623,
  "macOS": 3624,
  "440": 3625,
  "CV": 3626,
  "Inv": 3627,
  "MW": 3628,
  "U21": 3629,
  "har": 3630,
  "mark": 3631,
  "â": 3632,
  "î": 3633,
  "δ": 3634,
  "1819": 3637,
  "299": 3638,
  "346": 3639,
  "Radio": 3640,
  "Long": 3641,
  "Pala": 3642,
  "HTML": 3643,
  "annel": 3644,
  "780": 3645,
  "East": 3646,
  "Out": 3647,
  "Ten": 3648,
  "Talk": 3649,
  "1825": 3650,
  "245": 3651,
  "236": 3652,
  "than": 3653,
  "505": 3654,
  "279": 3655,
  "に": 3656,
  "ado": 3657,
  "Young": 3658,
  "Digital": 3659,
  "540": 3660,
  "Camp": 3661,
  "EV": 3662,
  "H5": 3663,
  "Lau": 3664,
  "rpm": 3665,
  "chong4": 3666,
  "001": 3667,
  "sian": 3668,
  "ned": 3669,
  "ters": 3670,
  "but": 3671,
  "325": 3672,
  "Bal": 3673,
  "plo": 3674,
  "pur": 3675,
  "sus": 3676,
  "1776": 3677,
  "じ": 3678,
  "peri": 3679,
  "NCAA": 3680,
  "Server": 3681,
  "Ban": 3682,
  "FAT": 3683,
  "How": 3684,
  "Ji": 3685,
  "1818": 3686,
  "265": 3687,
  "right": 3688,
  "こ": 3689,
  "dent": 3690,
  "Hello": 3691,
  "Bru": 3692,
  "Dri": 3693,
  "Yo": 3694,
  "app": 3695,
  "coun": 3696,
  "1824": 3697,
  "1831": 3698,
  "2027": 3699,
  "illa": 3700,
  "tical": 3701,
  "Cry": 3702,
  "GS": 3703,
  "Les": 3704,
  "RPG": 3705,
  "bet": 3706,
  "part": 3707,
  "ul": 3708,
  "wer": 3709,
  "ç": 3710,
  "ô": 3711,
  "chel": 3712,
  "med": 3713,
  "rome": 3714,
  "anda": 3715,
  "Child": 3716,
  "Hist": 3717,
  "Service": 3718,
  "Ⅱ": 3719,
  "Techno": 3720,
  "Cat": 3721,
  "Down": 3722,
  "Os": 3723,
  "UM": 3724,
  "ice": 3725,
  "hur": 3726,
  "mond": 3727,
  "temp": 3728,
  "BSD": 3729,
  "KiHa": 3730,
  "Frank": 3731,
  "Island": 3732,
  "public": 3733,
  "Science": 3734,
  "1A": 3735,
  "Blue": 3736,
  "CW": 3737,
  "Fore": 3738,
  "XML": 3739,
  "ben": 3740,
  "λ": 3741,
  "275": 3742,
  "2700": 3743,
  "long": 3744,
  "Youtube": 3745,
  "Kong": 3746,
  "Edward": 3747,
  "Under": 3748,
  "Python": 3749,
  "White": 3750,
  "312": 3751,
  "5G": 3752,
  "730": 3753,
  "First": 3754,
  "Grand": 3755,
  "HL": 3756,
  "Lan": 3757,
  "OM": 3758,
  "Pas": 3759,
  "TBS": 3760,
  "fun": 3761,
  "hao1": 3762,
  "264": 3763,
  "295": 3764,
  "386": 3765,
  "1802": 3766,
  "BLUE": 3767,
  "Institute": 3768,
  "Champion": 3769,
  "630": 3770,
  "Cas": 3771,
  "Sum": 3772,
  "TM": 3773,
  "kar": 3774,
  "ú": 3775,
  "à": 3776,
  "nie1": 3777,
  "1822": 3778,
  "ared": 3779,
  "sts": 3780,
  "288": 3781,
  "ジ": 3782,
  "ل": 3783,
  "307": 3784,
  "244": 3785,
  "フ": 3786,
  "vate": 3787,
  "Tunes": 3788,
  "ITF": 3789,
  "Tom": 3790,
  "Gro": 3791,
  "JT": 3792,
  "xel": 3793,
  "anti": 3794,
  "launch": 3795,
  "249": 3796,
  "903": 3797,
  "ille": 3798,
  "North": 3799,
  "Poly": 3800,
  "Square": 3801,
  "OT": 3802,
  "Pal": 3803,
  "PID": 3804,
  "Series": 3805,
  "llo": 3806,
  "try": 3807,
  "zation": 3808,
  "ī": 3809,
  "š": 3810,
  "tum": 3811,
  "243": 3812,
  "2800": 3813,
  "tas": 3814,
  "Your": 3815,
  "This": 3816,
  "Cup": 3817,
  "burg": 3818,
  "FX": 3819,
  "Ham": 3820,
  "Jump": 3821,
  "Moun": 3822,
  "NP": 3823,
  "Sor": 3824,
  "Sof": 3825,
  "Ya": 3826,
  "__": 3827,
  "lio": 3828,
  "1810": 3829,
  "1622": 3830,
  "1792": 3831,
  "return": 3832,
  "701": 3833,
  "SARS": 3834,
  "Cap": 3835,
  "Hong": 3836,
  "POP": 3837,
  "960": 3838,
  "Cur": 3839,
  "Dani": 3840,
  "Kh": 3841,
  "Lang": 3842,
  "Op": 3843,
  "Sig": 3844,
  "SHO": 3845,
  "VV": 3846,
  "ich": 3847,
  "non": 3848,
  "pai3": 3849,
  "ε": 3850,
  "mos": 3851,
  "1650": 3852,
  "801": 3853,
  "Rap": 3854,
  "Network": 3855,
  "MIUI": 3856,
  "2100": 3857,
  "Ur": 3858,
  "ob": 3859,
  "м": 3860,
  "007": 3861,
  "1826": 3862,
  "1573": 3863,
  "rum": 3864,
  "cing": 3865,
  "have": 3866,
  "747": 3867,
  "Jour": 3868,
  "Ray": 3869,
  "Wat": 3870,
  "ken": 3871,
  "1834": 3872,
  "304": 3873,
  "226": 3874,
  "278": 3875,
  "ミ": 3876,
  "も": 3877,
  "375": 3878,
  "add": 3879,
  "1805": 3880,
  "ACT": 3881,
  "APP": 3882,
  "AIR": 3883,
  "Studi": 3884,
  "Block": 3885,
  "Gran": 3886,
  "HA": 3887,
  "Im": 3888,
  "Para": 3889,
  "Tre": 3890,
  "ag": 3891,
  "pres": 3892,
  "rd": 3893,
  "sin": 3894,
  "296": 3895,
  "298": 3896,
  "385": 3897,
  "ATA": 3898,
  "Model": 3899,
  "Die": 3900,
  "2D": 3901,
  "335": 3902,
  "590": 3903,
  "9000": 3904,
  "CU": 3905,
  "Dot": 3906,
  "Gil": 3907,
  "Sports": 3908,
  "WN": 3909,
  "ml": 3910,
  "vy": 3911,
  "ω": 3912,
  "lic": 3914,
  "lang": 3915,
  "1780": 3916,
  "ges": 3917,
  "227": 3918,
  "sig": 3919,
  "lta": 3920,
  "ム": 3921,
  "aka": 3922,
  "dings": 3923,
  "IFA": 3924,
  "315": 3925,
  "Jon": 3926,
  "Ren": 3927,
  "Sp": 3928,
  "fre": 3929,
  "iTunes": 3930,
  "»": 3931,
  "sual": 3932,
  "more": 3933,
  "251": 3934,
  "277": 3935,
  "map": 3936,
  "CNN": 3937,
  "Auto": 3938,
  "2A": 3939,
  "Cle": 3940,
  "Gol": 3941,
  "Over": 3942,
  "Rus": 3943,
  "RFC": 3944,
  "hr": 3945,
  "pH": 3946,
  "und": 3947,
  "zine": 3948,
  "1582": 3949,
  "1799": 3950,
  "259": 3951,
  "246": 3952,
  "248": 3953,
  "thi": 3954,
  "Mag": 3955,
  "view": 3956,
  "1809": 3957,
  "gain": 3958,
  "Que": 3959,
  "South": 3960,
  "Engine": 3961,
  "530": 3962,
  "C2": 3963,
  "DLC": 3964,
  "Now": 3965,
  "Sc": 3966,
  "gen4": 3967,
  "sang3": 3968,
  "«": 3969,
  "ander": 3970,
  "1823": 3971,
  "orn": 3972,
  "1621": 3973,
  "272": 3974,
  "405": 3975,
  "ATION": 3976,
  "1803": 3977,
  "State": 3978,
  "stems": 3979,
  "Internet": 3980,
  "EEE": 3981,
  "press": 3982,
  "334": 3983,
  "620": 3984,
  "770": 3985,
  "Class": 3986,
  "Dar": 3987,
  "Jen": 3988,
  "Nu": 3989,
  "SG": 3990,
  "VI": 3991,
  "had": 3992,
  "dition": 3993,
  "ork": 3994,
  "1625": 3995,
  "284": 3996,
  "285": 3997,
  "サ": 3998,
  "Stan": 3999,
  "tware": 4000,
  "dae": 4001,
  "Publi": 4002,
  "311": 4003,
  "880": 4004,
  "Lis": 4005,
  "NM": 4006,
  "Sony": 4007,
  "dor": 4008,
  "É": 4009,
  "lution": 4011,
  "cur": 4012,
  "258": 4013,
  "form": 4014,
  "276": 4015,
  "が": 4016,
  "ason": 4017,
  "Mobile": 4018,
  "Bus": 4019,
  "Cli": 4020,
  "Cer": 4021,
  "Den": 4022,
  "KO": 4023,
  "Oper": 4024,
  "XT": 4025,
  "dd": 4026,
  "ith": 4027,
  "sco": 4028,
  "253": 4030,
  "ress": 4031,
  "357": 4032,
  "via": 4033,
  "Moon": 4034,
  "Wii": 4035,
  "Pier": 4036,
  "660": 4037,
  "Bon": 4038,
  "Get": 4039,
  "Men": 4040,
  "SV": 4041,
  "UL": 4042,
  "й": 4043,
  "chen": 4044,
  "oud": 4045,
  "プ": 4046,
  "STA": 4047,
  "ings": 4048,
  "Maria": 4049,
  "IPv": 4050,
  "Unix": 4051,
  "What": 4052,
  "Europe": 4053,
  "570": 4054,
  "Bre": 4055,
  "U19": 4056,
  "WF": 4057,
  "Way": 4058,
  "ee": 4059,
  "pat": 4060,
  "г": 4061,
  "1827": 4062,
  "tuan1": 4063,
  "1570": 4064,
  "aly": 4065,
  "あ": 4066,
  "cks": 4067,
  "gazine": 4068,
  "Link": 4069,
  "ville": 4070,
  "Book": 4071,
  "314": 4072,
  "3DS": 4073,
  "690": 4074,
  "BBS": 4075,
  "C6": 4076,
  "DSM": 4077,
  "IEEE": 4078,
  "SB": 4079,
  "WWE": 4080,
  "blo": 4081,
  "ini": 4082,
  "nor": 4083,
  "1817": 4084,
  "1640": 4085,
  "1636": 4086,
  "268": 4087,
  "402": 4088,
  "404": 4089,
  "は": 4090,
  "Medi": 4091,
  "Rain": 4092,
  "Beau": 4093,
  "Sound": 4094,
  "which": 4095,
  "4G": 4096,
  "AX": 4097,
  "Dol": 4098,
  "Gri": 4099,
  "fy": 4100,
  "trans": 4101,
  "1775": 4102,
  "254": 4103,
  "Francis": 4104,
  "323": 4105,
  "Cir": 4106,
  "HP": 4107,
  "Lit": 4108,
  "OP": 4109,
  "kao1": 4110,
  "model": 4111,
  "laris": 4112,
  "1750": 4113,
  "309": 4114,
  "teri": 4115,
  "cast": 4116,
  "aker": 4117,
  "Joy": 4118,
  "fic": 4119,
  "329": 4120,
  "670": 4121,
  "Ath": 4122,
  "Clo": 4123,
  "End": 4124,
  "Ly": 4125,
  "Plus": 4126,
  "hel": 4127,
  "ide": 4128,
  "ung": 4129,
  "yan": 4130,
  "shing": 4131,
  "guai1": 4132,
  "1816": 4133,
  "チ": 4134,
  "ィ": 4135,
  "4500": 4136,
  "Channel": 4137,
  "CON": 4138,
  "Victor": 4139,
  "field": 4140,
  "Tik": 4141,
  "TOP": 4142,
  "Cube": 4143,
  "Louis": 4144,
  "print": 4145,
  ".-": 4146,
  "710": 4147,
  "910": 4148,
  "950": 4149,
  "DI": 4150,
  "God": 4151,
  "MK": 4152,
  "ab": 4153,
  "oc": 4154,
  "dian": 4155,
  "pin": 4156,
  "arr": 4157,
  "241": 4158,
  "2300": 4159,
  "Research": 4160,
  "ISBN": 4161,
  "Poli": 4162,
  "Film": 4163,
  "tvN": 4164,
  "326": 4165,
  "Asia": 4166,
  "Bou": 4167,
  "PT": 4168,
  "T2": 4169,
  "rch": 4170,
  "sp": 4171,
  "pital": 4173,
  "1592": 4174,
  "alle": 4175,
  "347": 4176,
  "758": 4177,
  "May": 4178,
  "oom": 4179,
  "Stand": 4180,
  "ople": 4181,
  "Ara": 4182,
  "DT": 4183,
  "Tro": 4184,
  "tr": 4185,
  "tan": 4186,
  "tual": 4187,
  "1628": 4188,
  "1788": 4189,
  "252": 4190,
  "242": 4191,
  "269": 4192,
  "ニ": 4193,
  "andy": 4194,
  "Leon": 4195,
  "ffer": 4196,
  "fea": 4197,
  "Nico": 4198,
  "velop": 4199,
  "tural": 4200,
  "318": 4201,
  "336": 4202,
  "978": 4203,
  "Ado": 4204,
  "CB": 4205,
  "DL": 4206,
  "Festi": 4207,
  "MUS": 4208,
  "N2": 4209,
  "O3": 4210,
  "bie1": 4212,
  "tio": 4213,
  "pos": 4214,
  "1627": 4215,
  "1783": 4216,
  "1791": 4217,
  "alth": 4218,
  "406": 4219,
  "354": 4220,
  "INN": 4221,
  "Regi": 4222,
  "phi": 4223,
  "Vista": 4224,
  "rough": 4225,
  "Pixel": 4226,
  "Disney": 4227,
  "□": 4228,
  "Acade": 4229,
  "Cour": 4230,
  "EL": 4231,
  "F4": 4232,
  "IB": 4233,
  "LAN": 4234,
  "LTE": 4235,
  "Pho": 4236,
  "Sm": 4237,
  "pa1": 4238,
  "tre": 4239,
  "nica": 4240,
  "1797": 4241,
  "289": 4242,
  "［": 4243,
  "］": 4244,
  "ced": 4245,
  "Mach": 4246,
  "556": 4247,
  "Beat": 4248,
  "Law": 4249,
  "Ange": 4250,
  "DMS": 4251,
  "OF": 4252,
  "TH": 4253,
  "Tan": 4254,
  "nan3": 4255,
  "pop": 4256,
  "1779": 4257,
  "1796": 4258,
  "607": 4259,
  "つ": 4260,
  "だ": 4261,
  "352": 4262,
  "465": 4263,
  "1808": 4264,
  "Prof": 4265,
  "ERT": 4266,
  "some": 4267,
  "km2": 4268,
  "Works": 4269,
  "NCT": 4270,
  "Alice": 4271,
  "Software": 4272,
  "⋯": 4273,
  "321": 4274,
  "337": 4275,
  "A4": 4276,
  "Ami": 4277,
  "T3": 4278,
  "fla": 4279,
  "gis": 4280,
  "ls": 4281,
  "char": 4282,
  "huang4": 4283,
  "night": 4284,
  "1829": 4285,
  "tude": 4286,
  "1778": 4287,
  "1794": 4288,
  "283": 4289,
  "273": 4290,
  "test": 4291,
  "ャ": 4292,
  "バ": 4293,
  "エ": 4294,
  "cky": 4295,
  "Cos": 4296,
  "Mary": 4297,
  "Visual": 4298,
  "inese": 4299,
  "YouTuber": 4300,
  "ASC": 4301,
  "world": 4302,
  "Elect": 4303,
  "Battle": 4304,
  "313": 4305,
  "510": 4306,
  "840": 4307,
  "860": 4308,
  "Foot": 4309,
  "Mnet": 4310,
  "vance": 4311,
  "ñ": 4312,
  "θ": 4313,
  "shuai3": 4314,
  "1798": 4315,
  "mega": 4316,
  "て": 4317,
  "456": 4318,
  "372": 4319,
  "Johan": 4320,
  "ECT": 4321,
  "system": 4322,
  "Special": 4323,
  "Awards": 4324,
  "448": 4325,
  "870": 4326,
  "Blu": 4327,
  "MF": 4328,
  "ath": 4329,
  "ror": 4330,
  "sca": 4331,
  "web": 4332,
  "1580": 4333,
  "1612": 4334,
  "1634": 4335,
  "1787": 4336,
  "281": 4337,
  "267": 4338,
  "デ": 4339,
  "っ": 4340,
  "mad": 4341,
  "ウ": 4342,
  "lost": 4343,
  "mmy": 4344,
  "Premi": 4345,
  "Royal": 4346,
  "Global": 4347,
  "911": 4348,
  "DG": 4349,
  "Fro": 4350,
  "Mis": 4351,
  "Oli": 4352,
  "Set": 4353,
  "TN": 4354,
  "Tou": 4355,
  "WO": 4356,
  "shai3": 4358,
  "mina": 4359,
  "1567": 4360,
  "1648": 4361,
  "271": 4362,
  "tech": 4363,
  "ltra": 4364,
  "Real": 4365,
  "pedia": 4366,
  "pher": 4367,
  "cono": 4368,
  "Arts": 4369,
  "BOX": 4370,
  "Enviro": 4371,
  "AH": 4372,
  "Dark": 4373,
  "E3": 4374,
  "Gor": 4375,
  "MM": 4376,
  "Mur": 4377,
  "Not": 4378,
  "Pay": 4379,
  "York": 4380,
  "ev": 4381,
  "chuo1": 4382,
  "hus": 4383,
  "bon": 4384,
  "367": 4385,
  "OSHI": 4386,
  "const": 4387,
  "ACE": 4388,
  "ffe": 4389,
  "ENT": 4390,
  "AGA": 4391,
  "Great": 4392,
  "TikTok": 4393,
  "-&": 4394,
  "322": 4395,
  "Ah": 4396,
  "MON": 4397,
  "OTT": 4398,
  "Rou": 4399,
  "VB": 4400,
  "cas": 4401,
  "bian": 4402,
  "posi": 4403,
  "1550": 4404,
  "1568": 4405,
  "1615": 4406,
  "1630": 4407,
  "lam": 4408,
  "formation": 4409,
  "286": 4410,
  "ブ": 4411,
  "Magazine": 4412,
  "CH3": 4413,
  "Compu": 4414,
  "Museum": 4415,
  "Daniel": 4416,
  "Festival": 4417,
  "Brown": 4418,
  "Cru": 4419,
  "CAS": 4420,
  "FBI": 4421,
  "LG": 4422,
  "Mal": 4423,
  "Mill": 4424,
  "Ram": 4425,
  "SIG": 4426,
  "USA": 4427,
  "ap": 4428,
  "gg": 4429,
  "other": 4430,
  "zhao2": 4431,
  "ying": 4432,
  "pie1": 4433,
  "1645": 4434,
  "1646": 4435,
  "fore": 4436,
  "262": 4437,
  "キ": 4438,
  "333": 4439,
  "COLL": 4440,
  "ARD": 4441,
  "Secre": 4442,
  "stea": 4443,
  "stein": 4444,
  "Encore": 4445,
  "tures": 4446,
  "Cloud": 4447,
  "MUSIC": 4448,
  "Hun": 4449,
  "Lar": 4450,
  "Let": 4451,
  "bas": 4452,
  "dou": 4453,
  "gal": 4454,
  "tto": 4455,
  "ر": 4456,
  "1626": 4457,
  "261": 4458,
  "297": 4459,
  "tem": 4460,
  "355": 4461,
  "olf": 4462,
  "Chinese": 4463,
  "Kim": 4464,
  "Online": 4465,
  "328": 4466,
  "820": 4467,
  "Pet": 4468,
  "PRO": 4469,
  "S2": 4470,
  "over": 4471,
  "sou3": 4472,
  "mod": 4473,
  "ques": 4474,
  "1637": 4475,
  "rey": 4476,
  "705": 4477,
  "901": 4478,
  "364": 4479,
  "384": 4480,
  "378": 4481,
  "442": 4482,
  "Memo": 4483,
  "gic": 4484,
  "Point": 4485,
  "VIDIA": 4486,
  "618": 4487,
  "AU": 4488,
  "CBC": 4489,
  "HB": 4490,
  "Has": 4491,
  "Hum": 4492,
  "NVIDIA": 4493,
  "T48": 4494,
  "cto": 4495,
  "sche": 4496,
  "yl": 4497,
  "ze4": 4498,
  "С": 4499,
  "ы": 4500,
  "1642": 4501,
  "257": 4502,
  "2400": 4503,
  "282": 4504,
  "2600": 4505,
  "Mad": 4506,
  "vern": 4507,
  "Stadium": 4508,
  "mple": 4509,
  "1609": 4510,
  "oney": 4511,
  "Redmi": 4512,
  "Year": 4513,
  "Taiwan": 4514,
  "Adobe": 4515,
  "760": 4516,
  "767": 4517,
  "Cou": 4518,
  "CAN": 4519,
  "Il": 4520,
  "O4": 4521,
  "Sw": 4522,
  "U17": 4523,
  "VC": 4524,
  "Vin": 4525,
  "Won": 4526,
  "bat": 4527,
  "bps": 4528,
  "heng4": 4529,
  "ь": 4530,
  "deon": 4531,
  "nior": 4532,
  "poration": 4533,
  "1585": 4534,
  "1583": 4535,
  "1610": 4536,
  "thing": 4537,
  "や": 4538,
  "583": 4539,
  "ctory": 4540,
  "1807": 4541,
  "aki": 4542,
  "ARM": 4543,
  "TeX": 4544,
  "stern": 4545,
  "thern": 4546,
  "Communi": 4547,
  "Systems": 4548,
  "General": 4549,
  "930": 4550,
  "FIFA": 4551,
  "JU": 4552,
  "KE": 4553,
  "OD": 4554,
  "Sin": 4555,
  "Town": 4556,
  "Thun": 4557,
  "Who": 4558,
  "cla": 4559,
  "cci": 4560,
  "jor": 4561,
  "stu": 4562,
  "tina": 4563,
  "mol": 4564,
  "1623": 4565,
  "sty": 4566,
  "274": 4567,
  "ros": 4568,
  "size": 4569,
  "cell": 4570,
  "999": 4571,
  "Anto": 4572,
  "Post": 4573,
  "pring": 4574,
  "Cyclo": 4575,
  "﹑": 4576,
  "H2O": 4577,
  "EOS": 4578,
  "FIN": 4579,
  "Ima": 4580,
  "IEC": 4581,
  "Kin": 4582,
  "Kid": 4583,
  "esta": 4584,
  "sm": 4585,
  "1571": 4586,
  "1784": 4587,
  "stan": 4588,
  "263": 4589,
  "509": 4590,
  "293": 4591,
  "351": 4592,
  "Chan": 4593,
  "Deep": 4594,
  "Archi": 4595,
  "wiki": 4596,
  "2200": 4597,
  "428": 4598,
  "AJ": 4599,
  "GUN": 4600,
  "Tar": 4601,
  "pra": 4602,
  "sk": 4603,
  "xx": 4604,
  "lig": 4605,
  "nity": 4606,
  "1620": 4607,
  "1723": 4608,
  "1786": 4609,
  "stre": 4610,
  "504": 4611,
  "lton": 4612,
  "ュ": 4613,
  "353": 4614,
  "395": 4615,
  "beth": 4616,
  "value": 4617,
  "Solaris": 4618,
  "private": 4619,
  "Christian": 4620,
  "Metro": 4621,
  "Manage": 4622,
  "DotA": 4623,
  "419": 4624,
  "432": 4625,
  "A3": 4626,
  "Ari": 4627,
  "FN": 4628,
  "GL": 4629,
  "Ron": 4630,
  "bes": 4631,
  "cat": 4632,
  "card": 4633,
  "ctive": 4634,
  "pes": 4635,
  "ō": 4636,
  "curi": 4638,
  "1450": 4639,
  "inte": 4640,
  "gel": 4641,
  "rat": 4642,
  "す": 4643,
  "cos": 4644,
  "elo": 4645,
  "Mike": 4646,
  "hai": 4647,
  "Key": 4648,
  "Market": 4649,
  "Christ": 4650,
  "Philip": 4651,
  "Studios": 4652,
  "Little": 4653,
  "345": 4654,
  "427": 4655,
  "Band": 4656,
  "Cine": 4657,
  "FE": 4658,
  "HIV": 4659,
  "K6": 4660,
  "Line": 4661,
  "VPN": 4662,
  "č": 4663,
  "like": 4664,
  "zilla": 4665,
  "oro": 4666,
  "1577": 4667,
  "1618": 4668,
  "1643": 4669,
  "ellow": 4670,
  "387": 4671,
  "399": 4672,
  "cts": 4673,
  "Cast": 4674,
  "ource": 4675,
  "LOVE": 4676,
  "Fleet": 4677,
  "Technology": 4678,
  "317": 4679,
  "331": 4680,
  "512": 4681,
  "565": 4682,
  "H1": 4683,
  "MY": 4684,
  "R2": 4685,
  "S1": 4686,
  "Soft": 4687,
  "Tay": 4688,
  "U18": 4689,
  "USS": 4690,
  "Ultra": 4691,
  "bb": 4692,
  "his": 4693,
  "lu1": 4694,
  "ud": 4695,
  "я": 4696,
  "lina": 4697,
  "1586": 4698,
  "1777": 4699,
  "1453": 4700,
  "806": 4701,
  "base": 4702,
  "CDMA": 4703,
  "Radeon": 4704,
  "Union": 4705,
  "ALL": 4706,
  "Valve": 4707,
  "Children": 4708,
  "Secret": 4709,
  "327": 4710,
  "490": 4711,
  "445": 4712,
  "446": 4713,
  "535": 4714,
  "Alt": 4715,
  "Aven": 4716,
  "FI": 4717,
  "Found": 4718,
  "Land": 4719,
  "Mid": 4720,
  "M87": 4721,
  "Sk": 4722,
  "U23": 4723,
  "WI": 4724,
  "WOR": 4725,
  "para": 4726,
  "rstea": 4727,
  "yer": 4728,
  "ê": 4729,
  "endo": 4730,
  "live": 4731,
  "1521": 4732,
  "1765": 4733,
  "1774": 4734,
  "into": 4735,
  "stal": 4736,
  "sey": 4737,
  "second": 4738,
  "vey": 4739,
  "499": 4740,
  "Stage": 4741,
  "Multi": 4742,
  "ller": 4743,
  "With": 4744,
  "Junior": 4745,
  "BMW": 4746,
  "Fried": 4747,
  "Centre": 4748,
  "where": 4749,
  "Academy": 4750,
  "411": 4751,
  "416": 4752,
  "Crea": 4753,
  "EMI": 4754,
  "HTC": 4755,
  "KB": 4756,
  "Omega": 4757,
  "Sche": 4758,
  "ū": 4759,
  "eni": 4760,
  "cht": 4761,
  "cul": 4762,
  "1616": 4763,
  "sible": 4764,
  "tai": 4765,
  "707": 4766,
  "ily": 4767,
  "369": 4768,
  "397": 4769,
  "vers": 4770,
  "Joe": 4771,
  "States": 4772,
  "Wire": 4773,
  "Niko": 4774,
  "GPU": 4775,
  "bility": 4776,
  "613": 4777,
  "NR": 4778,
  "Swe": 4779,
  "TW": 4780,
  "ZA": 4781,
  "η": 4782,
  "Δ": 4783,
  "А": 4784,
  "eno": 4785,
  "mia": 4786,
  "1564": 4787,
  "1785": 4788,
  "lot": 4789,
  "368": 4790,
  "398": 4791,
  "pho": 4792,
  "TVBS": 4793,
  "Next": 4794,
  "Sub": 4795,
  "Wiki": 4796,
  "Geo": 4797,
  "MySQL": 4798,
  "void": 4799,
  "Origin": 4800,
  "Amazon": 4801,
  "3C": 4802,
  "810": 4803,
  "BT": 4804,
  "Hon": 4805,
  "Jr": 4806,
  "Sti": 4807,
  "Sau": 4808,
  "Sara": 4809,
  "house": 4810,
  "m3": 4811,
  "pto": 4812,
  "Д": 4813,
  "1662": 4814,
  "include": 4815,
  "266": 4816,
  "291": 4817,
  "sist": 4818,
  "head": 4819,
  "588": 4820,
  "Demo": 4821,
  "Distri": 4822,
  "Base": 4823,
  "MOD": 4824,
  "chie": 4825,
  "Adam": 4826,
  "Corporation": 4827,
  "M1A1": 4828,
  "ference": 4829,
  "mission": 4830,
  "velopment": 4831,
  "GUNDAM": 4832,
  "316": 4833,
  "537": 4834,
  "621": 4835,
  "742": 4836,
  "CI": 4837,
  "E48": 4838,
  "Eric": 4839,
  "Flow": 4840,
  "Ir": 4841,
  "Run": 4842,
  "TI": 4843,
  "cted": 4844,
  "pter": 4845,
  "ë": 4846,
  "ن": 4847,
  "point": 4848,
  "1540": 4849,
  "1574": 4850,
  "1772": 4851,
  "std": 4852,
  "287": 4853,
  "tee": 4854,
  "605": 4855,
  "454": 4856,
  "log": 4857,
  "388": 4858,
  "343": 4859,
  "Mau": 4860,
  "888": 4861,
  "Arc": 4862,
  "Sea": 4863,
  "Sund": 4864,
  "Draw": 4865,
  "Church": 4866,
  "Alexander": 4867,
  "Cross": 4868,
  "Management": 4869,
  "425": 4870,
  "475": 4871,
  "Del": 4872,
  "Lady": 4873,
  "ND": 4874,
  "Other": 4875,
  "SW": 4876,
  "kang2": 4877,
  "pal": 4878,
  "were": 4879,
  "anna": 4880,
  "aon": 4881,
  "1250": 4882,
  "1619": 4883,
  "1629": 4884,
  "1683": 4885,
  "read": 4886,
  "292": 4887,
  "matic": 4888,
  "363": 4889,
  "376": 4890,
  "STS": 4891,
  "552": 4892,
  "686": 4893,
  "ook": 4894,
  "ign": 4895,
  "ality": 4896,
  "Augu": 4897,
  "Scott": 4898,
  "London": 4899,
  "Dyna": 4900,
  "Cyclol": 4901,
  "627": 4902,
  "BRT": 4903,
  "FL": 4904,
  "Kir": 4905,
  "Lake": 4906,
  "MX": 4907,
  "Pon": 4908,
  "Sal": 4909,
  "Tony": 4910,
  "ale": 4911,
  "hard": 4912,
  "tru": 4913,
  "б": 4914,
  "tish": 4915,
  "tial": 4916,
  "ough": 4917,
  "＂": 4918,
  "sit": 4919,
  "488": 4920,
  "Design": 4921,
  "Neo": 4922,
  "open": 4923,
  "Andrew": 4924,
  "Spot": 4925,
  "449": 4927,
  "5A": 4928,
  "625": 4929,
  "738": 4930,
  "Der": 4931,
  "Fron": 4932,
  "HER": 4933,
  "Of": 4934,
  "PB": 4935,
  "Round": 4936,
  "VER": 4937,
  "ace": 4938,
  "hl": 4939,
  "oni": 4940,
  "plan": 4941,
  "К": 4942,
  "shared": 4943,
  "1590": 4944,
  "1579": 4945,
  "1633": 4946,
  "ナ": 4947,
  "fox": 4948,
  "グ": 4949,
  "ida": 4950,
  "1507": 4951,
  "put": 4952,
  "CH2": 4953,
  "volution": 4954,
  "mont": 4955,
  "Animax": 4956,
  "Earth": 4957,
  "412": 4958,
  "LF": 4959,
  "LM": 4960,
  "Smo": 4961,
  "SON": 4962,
  "V8": 4963,
  "hang1": 4964,
  "inv": 4965,
  "nan": 4966,
  "ong": 4967,
  "plor": 4968,
  "п": 4969,
  "jia": 4971,
  "mir": 4972,
  "mix": 4973,
  "body": 4974,
  "nico": 4975,
  "1631": 4976,
  "1680": 4977,
  "1773": 4978,
  "alan": 4979,
  "294": 4980,
  "sive": 4981,
  "407": 4982,
  "mate": 4983,
  "れ": 4984,
  "ette": 4985,
  "asa": 4986,
  "396": 4987,
  "3300": 4988,
  "Beta": 4989,
  "1604": 4990,
  "Family": 4991,
  "Ander": 4992,
  "Hami": 4993,
  "Fort": 4994,
  "Party": 4995,
  "PGA": 4996,
  "Journal": 4997,
  "980": 4998,
  "Are": 4999,
  "Bad": 5000,
  "C4": 5001,
  "Dun": 5002,
  "Fold": 5003,
  "GC": 5004,
  "LR": 5005,
  "Nar": 5006,
  "Spring": 5007,
  "pl": 5008,
  "ć": 5009,
  "ə": 5010,
  "cum": 5011,
  "1575": 5012,
  "1697": 5013,
  "1755": 5014,
  "1492": 5015,
  "805": 5016,
  "3600": 5017,
  "467": 5018,
  "471": 5019,
  "Def": 5020,
  "Simon": 5021,
  "mics": 5022,
  "﹐": 5023,
  "trol": 5024,
  "SKE48": 5025,
  "Summer": 5026,
  "Thunder": 5027,
  "0x": 5028,
  "319": 5029,
  "Epic": 5030,
  "J2": 5031,
  "XC": 5032,
  "fb": 5033,
  "pel": 5034,
  "nio": 5035,
  "1561": 5036,
  "1589": 5037,
  "1595": 5038,
  "1781": 5039,
  "1465": 5040,
  "508": 5041,
  "テ": 5042,
  "ひ": 5043,
  "344": 5044,
  "589": 5045,
  "1603": 5046,
  "1606": 5047,
  "1607": 5048,
  "ppy": 5049,
  "CNBLUE": 5050,
  "Ruby": 5051,
  "Bio": 5052,
  "Council": 5053,
  "Drive": 5054,
  "Football": 5055,
  "415": 5056,
  "855": 5057,
  "940": 5058,
  "970": 5059,
  "Clar": 5060,
  "Fal": 5061,
  "Miss": 5062,
  "Son": 5063,
  "kan": 5064,
  "uage": 5065,
  "x86": 5066,
  "zen": 5067,
  "ø": 5068,
  "Å": 5069,
  "ß": 5070,
  "bio": 5072,
  "1522": 5073,
  "1526": 5074,
  "1556": 5075,
  "1613": 5076,
  "1660": 5077,
  "502": 5078,
  "506": 5079,
  "ダ": 5080,
  "377": 5081,
  "478": 5082,
  "554": 5083,
  "ample": 5084,
  "Alli": 5085,
  "mercial": 5086,
  "TOUR": 5087,
  "Williams": 5088,
  "cations": 5089,
  "Hyper": 5090,
  "이": 5091,
  "☆": 5092,
  "Angela": 5093,
  "417": 5094,
  "525": 5095,
  "920": 5096,
  "925": 5097,
  "After": 5098,
  "Flor": 5099,
  "Hit": 5100,
  "LU": 5101,
  "Ora": 5102,
  "Sar": 5103,
  "Sca": 5104,
  "URI": 5105,
  "Will": 5106,
  "ski": 5107,
  "م": 5108,
  "ents": 5109,
  "cheng4": 5110,
  "bout": 5111,
  "1525": 5112,
  "1591": 5113,
  "1667": 5114,
  "lai": 5115,
  "408": 5116,
  "485": 5117,
  "tos": 5118,
  "643": 5119,
  "baby": 5120,
  "phen": 5121,
  "Mari": 5122,
  "Sho": 5123,
  "AMO": 5124,
  "Back": 5125,
  "Fiesta": 5126,
  "Steve": 5127,
  "Rue": 5128,
  "Advance": 5129,
  "DOHC": 5130,
  "Christo": 5131,
  "324": 5132,
  "422": 5133,
  "515": 5134,
  "534": 5135,
  "Kit": 5136,
  "Lam": 5137,
  "Light": 5138,
  "Mes": 5139,
  "QS": 5140,
  "S4": 5141,
  "Tel": 5142,
  "UK": 5143,
  "VT": 5144,
  "Wel": 5145,
  "bles": 5146,
  "hen": 5147,
  "mRNA": 5148,
  "who": 5149,
  "zzo": 5150,
  "ē": 5151,
  "lish": 5153,
  "sure": 5154,
  "1510": 5155,
  "1638": 5156,
  "only": 5157,
  "1730": 5158,
  "media": 5159,
  "パ": 5160,
  "fol": 5161,
  "342": 5162,
  "aso": 5163,
  "393": 5164,
  "479": 5165,
  "phic": 5166,
  "Story": 5167,
  "1508": 5168,
  "Mozilla": 5169,
  "Vita": 5170,
  "Last": 5171,
  "HKT48": 5172,
  "Syn": 5173,
  "Cul": 5174,
  "lassic": 5175,
  "Water": 5176,
  "Bern": 5177,
  "Walter": 5178,
  "America": 5179,
  "Surface": 5180,
  "Foundation": 5181,
  "3200": 5182,
  "531": 5183,
  "538": 5184,
  "546": 5185,
  "Cre": 5186,
  "EG": 5187,
  "GHz": 5188,
  "Hal": 5189,
  "ITV": 5190,
  "Jer": 5191,
  "Jane": 5192,
  "Kat": 5193,
  "MBA": 5194,
  "NI": 5195,
  "Sol": 5196,
  "TG": 5197,
  "VS": 5198,
  "ite": 5199,
  "iPS": 5200,
  "kW": 5201,
  "pper": 5202,
  "vir": 5203,
  "lion": 5204,
  "2028": 5205,
  "1543": 5206,
  "1457": 5207,
  "indu": 5208,
  "come": 5209,
  "366": 5210,
  "381": 5211,
  "392": 5212,
  "Indu": 5213,
  "Buil": 5214,
  "place": 5215,
  "History": 5216,
  "1st": 5217,
  "413": 5218,
  "Edu": 5219,
  "F3": 5220,
  "Gun": 5221,
  "GPS": 5222,
  "LZ": 5223,
  "Pod": 5224,
  "Than": 5225,
  "U20": 5226,
  "Wnt": 5227,
  "down": 5228,
  "zan3": 5229,
  "zar": 5230,
  "ي": 5231,
  "bour": 5232,
  "orig": 5233,
  "1565": 5234,
  "1559": 5235,
  "1587": 5236,
  "1597": 5237,
  "†": 5238,
  "1635": 5239,
  "1688": 5240,
  "1733": 5241,
  "1782": 5242,
  "also": 5243,
  "tex": 5244,
  "sio": 5245,
  "606": 5246,
  "け": 5247,
  "373": 5248,
  "Albert": 5249,
  "Arti": 5250,
  "Tim": 5251,
  "Times": 5252,
  "Johnson": 5253,
  "Final": 5254,
  "4A": 5255,
  "426": 5256,
  "524": 5257,
  "612": 5258,
  "890": 5259,
  "Ash": 5260,
  "By": 5261,
  "Bell": 5262,
  "FS": 5263,
  "Jim": 5264,
  "Tol": 5265,
  "UD": 5266,
  "Za": 5267,
  "bs": 5268,
  "ov": 5269,
  "score": 5270,
  "£": 5271,
  "П": 5272,
  "ч": 5273,
  "chy": 5274,
  "ort": 5275,
  "1588": 5276,
  "1598": 5277,
  "507": 5278,
  "thew": 5279,
  "641": 5280,
  "495": 5281,
  "682": 5282,
  "666": 5283,
  "Rod": 5284,
  "Rose": 5285,
  "Austra": 5286,
  "Common": 5287,
  "worth": 5288,
  "Mont": 5289,
  "Brian": 5290,
  "CLA": 5291,
  "Place": 5292,
  "Telegram": 5293,
  "Pierre": 5294,
  "332": 5295,
  "4K": 5296,
  "435": 5297,
  "575": 5298,
  "790": 5299,
  "990": 5300,
  "Ai": 5301,
  "Bet": 5302,
  "Mus": 5303,
  "TMA": 5304,
  "wen": 5305,
  "yon": 5306,
  "tie4": 5307,
  "bow": 5308,
  "1523": 5309,
  "1535": 5310,
  "1649": 5311,
  "1661": 5312,
  "1770": 5313,
  "1499": 5314,
  "stor": 5315,
  "stry": 5316,
  "ガ": 5317,
  "わ": 5318,
  "361": 5319,
  "466": 5320,
  "391": 5321,
  "....": 5322,
  "551": 5323,
  "vices": 5324,
  "Med": 5325,
  "Moder": 5326,
  "1601": 5327,
  "PCI": 5328,
  "Hotel": 5329,
  "eller": 5330,
  "TOK": 5331,
  "AcFun": 5332,
  "Angel": 5333,
  "Flash": 5334,
  "craft": 5335,
  "number": 5336,
  "Wonder": 5337,
  "528": 5338,
  "5500": 5339,
  "Bang": 5340,
  "Hard": 5341,
  "HTT": 5342,
  "Sma": 5343,
  "Shan": 5344,
  "Var": 5345,
  "ea": 5346,
  "fis": 5347,
  "ola": 5348,
  "chan": 5349,
  "mine": 5350,
  "tica": 5351,
  "shuan4": 5352,
  "1511": 5353,
  "1760": 5354,
  "1769": 5355,
  "358": 5356,
  "tera": 5357,
  "371": 5358,
  "469": 5359,
  "684": 5360,
  "Rep": 5361,
  "587": 5362,
  "View": 5363,
  "ppm": 5364,
  "gio": 5365,
  "Siri": 5366,
  "SMAP": 5367,
  "But": 5368,
  "Explor": 5369,
  "Edge": 5370,
  "Soul": 5371,
  "tribu": 5372,
  "Golden": 5373,
  "548": 5374,
  "AW": 5375,
  "Kri": 5376,
  "Mir": 5377,
  "MAC": 5378,
  "air": 5379,
  "even": 5380,
  "huo": 5381,
  "spi": 5382,
  "vat": 5383,
  "tian3": 5384,
  "20000": 5385,
  "1080": 5386,
  "15000": 5387,
  "1576": 5388,
  "1594": 5389,
  "1689": 5390,
  "362": 5391,
  "383": 5392,
  "TCP": 5393,
  "341": 5394,
  "Mai": 5395,
  "Roman": 5396,
  "NASL": 5397,
  "Program": 5398,
  "Some": 5399,
  "Bridge": 5400,
  "active": 5401,
  "scope": 5402,
  "European": 5403,
  "vernment": 5404,
  "921": 5405,
  "Apo": 5406,
  "Bil": 5407,
  "Dance": 5408,
  "Kon": 5409,
  "L1": 5410,
  "MR": 5411,
  "Mind": 5412,
  "MMC": 5413,
  "NEX": 5414,
  "Pass": 5415,
  "RB": 5416,
  "TF": 5417,
  "UFO": 5418,
  "VF": 5419,
  "bum": 5420,
  "ey": 5421,
  "gni": 5422,
  "hong4": 5423,
  "rang2": 5424,
  "sal": 5425,
  "sky": 5426,
  "cheng3": 5428,
  "left": 5429,
  "1811": 5430,
  "1517": 5431,
  "1514": 5432,
  "1552": 5433,
  "―": 5434,
  "1639": 5435,
  "1684": 5436,
  "then": 5437,
  "sie": 5438,
  "608": 5439,
  "sell": 5440,
  "master": 5441,
  "349": 5442,
  "644": 5443,
  "557": 5444,
  "ird": 5445,
  "585": 5446,
  "597": 5447,
  "ardo": 5448,
  "Development": 5449,
  "Mod": 5450,
  "Seven": 5451,
  "Raw": 5452,
  "osa": 5453,
  "Week": 5454,
  "thers": 5455,
  "Just": 5456,
  "Matthew": 5457,
  "Port": 5458,
  "Eliza": 5459,
  "Gamer": 5460,
  "template": 5461,
  "curity": 5462,
  "Taylor": 5463,
  "348": 5464,
  "436": 5465,
  "549": 5466,
  "AST": 5467,
  "Brand": 5468,
  "Dia": 5469,
  "Ever": 5470,
  "Fred": 5471,
  "Mitch": 5472,
  "Pres": 5473,
  "RN": 5474,
  "Ret": 5475,
  "Tran": 5476,
  "Villa": 5477,
  "cs": 5478,
  "cuo2": 5479,
  "ext": 5480,
  "rent": 5481,
  "uts": 5482,
  "yond": 5483,
  "1578": 5484,
  "1763": 5485,
  "1350": 5486,
  "iness": 5487,
  "＋": 5488,
  "403": 5489,
  "cept": 5490,
  "908": 5491,
  "ession": 5492,
  "6500": 5493,
  "vie": 5494,
  "case": 5495,
  "1505": 5496,
  "tour": 5497,
  "777": 5498,
  "Marie": 5499,
  "anger": 5500,
  "Test": 5501,
  "fied": 5502,
  "fication": 5503,
  "Pack": 5504,
  "prote": 5505,
  "Qui": 5506,
  "Santa": 5507,
  "MG42": 5508,
  "547": 5509,
  "567": 5510,
  "668": 5511,
  "C5": 5512,
  "FAN": 5513,
  "Lor": 5514,
  "NK": 5515,
  "Oh": 5516,
  "Rol": 5517,
  "T4": 5518,
  "YOSHI": 5519,
  "cou": 5520,
  "kes": 5521,
  "olet": 5522,
  "pus": 5523,
  "sao4": 5524,
  "vor": 5525,
  "³": 5526,
  "і": 5527,
  "mid": 5528,
  "ering": 5529,
  "1050": 5530,
  "cula": 5531,
  "1614": 5532,
  "1720": 5533,
  "374": 5534,
  "CoV": 5535,
  "494": 5536,
  "verse": 5537,
  "IDE": 5538,
  "IPS": 5539,
  "PSP": 5540,
  "Hea": 5541,
  "People": 5542,
  "UNIX": 5543,
  "Commit": 5544,
  "Ⅰ": 5545,
  "Frame": 5546,
  "Mountain": 5547,
  "IPv4": 5548,
  "Explorer": 5549,
  "514": 5550,
  "522": 5551,
  "545": 5552,
  "568": 5553,
  "619": 5554,
  "675": 5555,
  "CSS": 5556,
  "D1": 5557,
  "DNS": 5558,
  "EBU": 5559,
  "KT": 5560,
  "Kel": 5561,
  "Shu": 5562,
  "Sand": 5563,
  "bn": 5564,
  "bla": 5565,
  "cin": 5566,
  "ne2": 5567,
  "ovan": 5568,
  "yong2": 5569,
  "lete": 5570,
  "poly": 5571,
  "1516": 5572,
  "1513": 5573,
  "1534": 5574,
  "1547": 5575,
  "1569": 5576,
  "16V": 5577,
  "1460": 5578,
  "ronic": 5579,
  "rate": 5580,
  "cel": 5581,
  "で": 5582,
  "359": 5583,
  "757": 5584,
  "itz": 5585,
  "642": 5586,
  "581": 5587,
  "ssa": 5588,
  "aux": 5589,
  "1502": 5590,
  "ctions": 5591,
  "ร": 5592,
  "Work": 5593,
  "SOHC": 5594,
  "Spiri": 5595,
  "Arthur": 5596,
  "Queen": 5597,
  "COLLAR": 5598,
  "Sunday": 5599,
  "418": 5600,
  "414": 5601,
  "424": 5602,
  "433": 5603,
  "544": 5604,
  "Ale": 5605,
  "CJ": 5606,
  "DTS": 5607,
  "F2": 5608,
  "JO": 5609,
  "Jus": 5610,
  "MMO": 5611,
  "PEN": 5612,
  "Two": 5613,
  "XIV": 5614,
  "Yah": 5615,
  "ami": 5616,
  "bu1": 5617,
  "ese": 5618,
  "flo": 5619,
  "kins": 5620,
  "phe": 5621,
  "will": 5622,
  "zed": 5623,
  "В": 5624,
  "1731": 5625,
  "1768": 5626,
  "1771": 5627,
  "1490": 5628,
  "stone": 5629,
  "mel": 5630,
  "409": 5631,
  "lter": 5632,
  "ハ": 5633,
  "604": 5634,
  "802": 5635,
  "ケ": 5636,
  "ょ": 5637,
  "ろ": 5638,
  "389": 5639,
  "7500": 5640,
  "394": 5641,
  "476": 5642,
  "been": 5643,
  "493": 5644,
  "ERO": 5645,
  "Solo": 5646,
  "Box": 5647,
  "Rift": 5648,
  "GeForce": 5649,
  "AGE": 5650,
  "Prime": 5651,
  "FOX": 5652,
  "news": 5653,
  "while": 5654,
  "True": 5655,
  "JTBC": 5656,
  "⇔": 5657,
  "Cinema": 5658,
  "431": 5659,
  "539": 5660,
  "745": 5661,
  "ABS": 5662,
  "Bit": 5663,
  "Classic": 5664,
  "EO": 5665,
  "Hay": 5666,
  "Jam": 5667,
  "Ker": 5668,
  "Lord": 5669,
  "Mit": 5670,
  "Sel": 5671,
  "Tam": 5672,
  "V6": 5673,
  "hol": 5674,
  "jq": 5675,
  "ı": 5676,
  "shed": 5677,
  "shop": 5678,
  "change": 5679,
  "biao4": 5680,
  "tice": 5681,
  "1593": 5682,
  "1724": 5683,
  "1752": 5684,
  "1469": 5685,
  "1498": 5686,
  "1370": 5687,
  "sili": 5688,
  "え": 5689,
  "382": 5690,
  "755": 5691,
  "464": 5692,
  "444": 5693,
  "571": 5694,
  "1501": 5695,
  "Never": 5696,
  "nova": 5697,
  "Name": 5698,
  "PS3": 5699,
  "Express": 5700,
  "works": 5701,
  "British": 5702,
  "Dragon": 5703,
  "tdown": 5704,
  "Karl": 5705,
  "AGASA": 5706,
  "Kids": 5707,
  "Friedrich": 5708,
  "646": 5709,
  "667": 5710,
  "CIA": 5711,
  "D2": 5712,
  "Dro": 5713,
  "Gin": 5714,
  "IRT": 5715,
  "M6": 5716,
  "Num": 5717,
  "Old": 5718,
  "XF": 5719,
  "ZJ": 5720,
  "high": 5721,
  "ppe": 5722,
  "zza": 5723,
  "dex": 5724,
  "lius": 5725,
  "ery": 5726,
  "dies": 5727,
  "tine": 5728,
  "tify": 5729,
  "1520": 5730,
  "1560": 5731,
  "1553": 5732,
  "1651": 5733,
  "lau": 5734,
  "law": 5735,
  "1740": 5736,
  "aro": 5737,
  "1493": 5738,
  "602": 5739,
  "sea": 5740,
  "made": 5741,
  "904": 5742,
  "ism": 5743,
  "496": 5744,
  "498": 5745,
  "443": 5746,
  "nament": 5747,
  "cio": 5748,
  "user": 5749,
  "Stor": 5750,
  "Rail": 5751,
  "Fami": 5752,
  "MAN": 5753,
  "Boys": 5754,
  "Baby": 5755,
  "produ": 5756,
  "UNG": 5757,
  "kov": 5758,
  "AGUE": 5759,
  "LEAGUE": 5760,
  "Guard": 5761,
  "Jeff": 5762,
  "Donald": 5763,
  "Firefox": 5764,
  "्": 5765,
  "Athlon": 5766,
  "Memori": 5767,
  "origin": 5768,
  "611": 5769,
  "645": 5770,
  "945": 5771,
  "Bas": 5772,
  "C1": 5773,
  "Cr": 5774,
  "Cen": 5775,
  "CBA": 5776,
  "DEC": 5777,
  "Ea": 5778,
  "GW": 5779,
  "QU": 5780,
  "TAM": 5781,
  "U2": 5782,
  "ei": 5783,
  "two": 5784,
  "å": 5785,
  "lim": 5787,
  "bia": 5788,
  "culus": 5789,
  "1596": 5790,
  "1632": 5791,
  "1679": 5792,
  "1718": 5793,
  "1735": 5794,
  "1745": 5795,
  "1758": 5796,
  "25G": 5797,
  "＝": 5798,
  "メ": 5799,
  "907": 5800,
  "め": 5801,
  "ゆ": 5802,
  "top": 5803,
  "cid": 5804,
  "584": 5805,
  "sson": 5806,
  "1506": 5807,
  "Dear": 5808,
  "985": 5809,
  "Violet": 5810,
  "Gaga": 5811,
  "mental": 5812,
  "Samu": 5813,
  "1605": 5814,
  "Side": 5815,
  "Health": 5816,
  "Fish": 5817,
  "REAM": 5818,
  "Wild": 5819,
  "Central": 5820,
  "Doug": 5821,
  "Standard": 5822,
  "Christopher": 5823,
  "YOSHIKI": 5824,
  "050": 5825,
  "439": 5826,
  "533": 5827,
  "731": 5828,
  "732": 5829,
  "741": 5830,
  "762": 5831,
  "962": 5832,
  "Astro": 5833,
  "Again": 5834,
  "Cree": 5835,
  "Eye": 5836,
  "H3": 5837,
  "ICD": 5838,
  "Kan": 5839,
  "Kra": 5840,
  "Kill": 5841,
  "NU": 5842,
  "Off": 5843,
  "RCP": 5844,
  "TL": 5845,
  "Tit": 5846,
  "Tod": 5847,
  "UCLA": 5848,
  "Wood": 5849,
  "cine": 5850,
  "np": 5851,
  "ome": 5852,
  "phan": 5853,
  "υ": 5854,
  "shan": 5856,
  "dina": 5857,
  "mou": 5858,
  "1260": 5859,
  "1566": 5860,
  "1725": 5861,
  "1748": 5862,
  "sten": 5863,
  "ツ": 5864,
  "706": 5865,
  "よ": 5866,
  "を": 5867,
  "457": 5868,
  "379": 5869,
  "town": 5870,
  "756": 5871,
  "553": 5872,
  "673": 5873,
  "574": 5874,
  "576": 5875,
  "ault": 5876,
  "Alan": 5877,
  "Vision": 5878,
  "osaurus": 5879,
  "973": 5880,
  "Capital": 5881,
  "Anna": 5882,
  "Greg": 5883,
  "Jackson": 5884,
  "AlphaFold": 5885,
  "Operation": 5886,
  "Fleetline": 5887,
  "Avenue": 5888,
  "Angelababy": 5889,
  "516": 5890,
  "617": 5891,
  "639": 5892,
  "722": 5893,
  "735": 5894,
  "Ak": 5895,
  "Ana": 5896,
  "Bun": 5897,
  "DU": 5898,
  "Econo": 5899,
  "Gaon": 5900,
  "HMS": 5901,
  "Nan": 5902,
  "P2": 5903,
  "Tower": 5904,
  "cter": 5905,
  "hal": 5906,
  "ners": 5907,
  "sou4": 5908,
  "say": 5909,
  "tch": 5910,
  "xa": 5911,
  "lity": 5913,
  "ergy": 5914,
  "ween": 5915,
  "2050": 5916,
  "quid": 5917,
  "1528": 5918,
  "1572": 5919,
  "1652": 5920,
  "lade": 5921,
  "1727": 5922,
  "1761": 5923,
  "1368": 5924,
  "ワ": 5925,
  "ノ": 5926,
  "356": 5927,
  "704": 5928,
  "482": 5929,
  "655": 5930,
  "Info": 5931,
  "brary": 5932,
  "ARE": 5933,
  "gate": 5934,
  "mpson": 5935,
  "Bai": 5936,
  "ends": 5937,
  "BLE": 5938,
  "Color": 5939,
  "link": 5940,
  "Harry": 5941,
  "essor": 5942,
  "English": 5943,
  "Garden": 5944,
  "Jones": 5945,
  "Anderson": 5946,
  "Elizabeth": 5947,
  "Committee": 5948,
  "010": 5949,
  "447": 5950,
  "863": 5951,
  "926": 5952,
  "961": 5953,
  "Epi": 5954,
  "Hero": 5955,
  "LX": 5956,
  "RATP": 5957,
  "VP": 5958,
  "WW": 5959,
  "cta": 5960,
  "city": 5961,
  "ira": 5962,
  "kit": 5963,
  "defea": 5964,
  "bird": 5965,
  "lva": 5966,
  "1531": 5967,
  "1538": 5968,
  "1647": 5969,
  "1681": 5970,
  "last": 5971,
  "onal": 5972,
  "ram": 5973,
  "803": 5974,
  "708": 5975,
  "ゃ": 5976,
  "452": 5977,
  "453": 5978,
  "they": 5979,
  "651": 5980,
  "bed": 5981,
  "Cook": 5982,
  "586": 5983,
  "572": 5984,
  "Ros": 5985,
  "Stro": 5986,
  "1504": 5987,
  "EDG": 5988,
  "APG": 5989,
  "Beyond": 5990,
  "ICA": 5991,
  "door": 5992,
  "Basic": 5993,
  "alis": 5994,
  "1701": 5995,
  "Stephen": 5996,
  "Pie": 5997,
  "Qua": 5998,
  "word": 5999,
  "Colspan": 6000,
  "HOME": 6001,
  "ights": 6002,
  "Appli": 6003,
  "prise": 6004,
  "ccff": 6005,
  "ccccff": 6006,
  "Press": 6007,
  "Disco": 6008,
  "Twitch": 6009,
  "Patrick": 6010,
  "Women": 6011,
  "FINAL": 6012,
  "438": 6013,
  "511": 6014,
  "933": 6015,
  "Apa": 6016,
  "Bow": 6017,
  "ILE": 6018,
  "Jes": 6019,
  "Rad": 6020,
  "SNC": 6021,
  "band": 6022,
  "gas": 6023,
  "hang4": 6024,
  "pas": 6025,
  "vity": 6026,
  "Ω": 6027,
  "з": 6028,
  "ت": 6029,
  "dei3": 6031,
  "xus": 6032,
  "nical": 6033,
  "1530": 6034,
  "1537": 6035,
  "lati": 6036,
  "1736": 6037,
  "ardi": 6038,
  "＆": 6039,
  "603": 6040,
  "808": 6041,
  "461": 6042,
  "468": 6043,
  "681": 6044,
  "Rea": 6045,
  "Mega": 6046,
  "Alf": 6047,
  "fish": 6048,
  "ONG": 6049,
  "state": 6050,
  "1709": 6051,
  "Carl": 6052,
  "Kevin": 6053,
  "Southern": 6054,
  "GameSpot": 6055,
  "Abdu": 6056,
  "JavaScript": 6057,
  "speci": 6058,
  "frame": 6059,
  "Prince": 6060,
  "DirectX": 6061,
  "function": 6062,
  "Modern": 6063,
  "541": 6064,
  "629": 6065,
  "648": 6066,
  "725": 6067,
  "B3": 6068,
  "CAR": 6069,
  "Dor": 6070,
  "ELE": 6071,
  "Mbps": 6072,
  "NN": 6073,
  "NPC": 6074,
  "P4": 6075,
  "URE": 6076,
  "ides": 6077,
  "pet": 6078,
  "х": 6079,
  "ense": 6080,
  "mie": 6081,
  "dire": 6082,
  "such": 6083,
  "super": 6084,
  "zing": 6085,
  "cui3": 6086,
  "1519": 6087,
  "1529": 6088,
  "1555": 6089,
  "1687": 6090,
  "1728": 6091,
  "team": 6092,
  "ポ": 6093,
  "905": 6094,
  "484": 6095,
  "653": 6096,
  "Mah": 6097,
  "before": 6098,
  "559": 6099,
  "491": 6100,
  "679": 6101,
  "OSS": 6102,
  "796": 6103,
  "Saf": 6104,
  "Fair": 6105,
  "MAD": 6106,
  "Silver": 6107,
  "Concer": 6108,
  "That": 6109,
  "Paris": 6110,
  "ckett": 6111,
  "URL": 6112,
  "AOA": 6113,
  "Spotify": 6114,
  "ctures": 6115,
  "Planet": 6116,
  "ASCII": 6117,
  "OmegaT": 6118,
  "Mitchell": 6119,
  "Yahoo": 6120,
  "3G": 6121,
  "423": 6122,
  "536": 6123,
  "632": 6124,
  "715": 6125,
  "825": 6126,
  "833": 6127,
  "Ala": 6128,
  "Area": 6129,
  "CAL": 6130,
  "D9": 6131,
  "Eri": 6132,
  "Fly": 6133,
  "GRO": 6134,
  "K2": 6135,
  "Money": 6136,
  "RDS": 6137,
  "Vis": 6138,
  "apo": 6139,
  "ate": 6140,
  "bh": 6141,
  "huo1": 6142,
  "sci": 6143,
  "wart": 6144,
  "eron": 6145,
  "2035": 6146,
  "lvin": 6147,
  "1120": 6148,
  "poli": 6149,
  "1767": 6150,
  "cking": 6151,
  "esa": 6152,
  "Maker": 6153,
  "Chro": 6154,
  "Chrome": 6155,
  "473": 6156,
  "492": 6157,
  "661": 6158,
  "Robin": 6159,
  "auto": 6160,
  "562": 6161,
  "Liber": 6162,
  "Dead": 6163,
  "Debian": 6164,
  "Leo": 6165,
  "Via": 6166,
  "See": 6167,
  "Laur": 6168,
  "bucket": 6169,
  "host": 6170,
  "Ann": 6171,
  "Anth": 6172,
  "Anne": 6173,
  "PS2": 6174,
  "Conne": 6175,
  "Fede": 6176,
  "Eddie": 6177,
  "TRA": 6178,
  "Countdown": 6179,
  "Zico": 6180,
  "signed": 6181,
  "TOKYO": 6182,
  "Violetta": 6183,
  "339": 6184,
  "429": 6185,
  "532": 6186,
  "665": 6187,
  "775": 6188,
  "769": 6189,
  "Ax": 6190,
  "D5": 6191,
  "Dal": 6192,
  "Hand": 6193,
  "JI": 6194,
  "Pur": 6195,
  "R1": 6196,
  "RF": 6197,
  "S3": 6198,
  "SNS": 6199,
  "eg": 6200,
  "flow": 6201,
  "gia": 6202,
  "mbo": 6203,
  "wy": 6204,
  "wis": 6205,
  "ա": 6206,
  "mie1": 6207,
  "1220": 6208,
  "1545": 6209,
  "1664": 6210,
  "1659": 6211,
  "1719": 6212,
  "artic": 6213,
  "1495": 6214,
  "1496": 6215,
  "1388": 6216,
  "thor": 6217,
  "702": 6218,
  "703": 6219,
  "Main": 6220,
  "STATION": 6221,
  "689": 6222,
  "692": 6223,
  "under": 6224,
  "Mix": 6225,
  "Neu": 6226,
  "Jaco": 6227,
  "oso": 6228,
  "ental": 6229,
  "mentary": 6230,
  "ERS": 6231,
  "haus": 6232,
  "him": 6233,
  "AND": 6234,
  "Anti": 6235,
  "graphy": 6236,
  "gins": 6237,
  "Steven": 6238,
  "Phy": 6239,
  "Juan": 6240,
  "gene": 6241,
  "IFF": 6242,
  "Anime": 6243,
  "Henri": 6244,
  "Fox": 6245,
  "Human": 6246,
  "Framework": 6247,
  "434": 6248,
  "636": 6249,
  "729": 6250,
  "761": 6251,
  "878": 6252,
  "Aus": 6253,
  "Action": 6254,
  "Din": 6255,
  "E1": 6256,
  "E231": 6257,
  "Got": 6258,
  "GEN": 6259,
  "Jay": 6260,
  "L2": 6261,
  "M5": 6262,
  "PAGASA": 6263,
  "RK": 6264,
  "Too": 6265,
  "ZERO": 6266,
  "bble": 6267,
  "das": 6268,
  "eb": 6269,
  "lf": 6270,
  "oli": 6271,
  "yd": 6272,
  "Б": 6273,
  "М": 6274,
  "ц": 6275,
  "leu": 6277,
  "tier": 6278,
  "1546": 6279,
  "1549": 6280,
  "1562": 6281,
  "1670": 6282,
  "1690": 6283,
  "1654": 6284,
  "1653": 6285,
  "1694": 6286,
  "1759": 6287,
  "1466": 6288,
  "モ": 6289,
  "807": 6290,
  "709": 6291,
  "ilo": 6292,
  "458": 6293,
  "love": 6294,
  "463": 6295,
  "555": 6296,
  "596": 6297,
  "de ": 6298,
  " de ": 6299,
  "shi4 ": 6300,
  " shi4 ": 6301,
  " nian2": 6302,
  " nian2 ": 6303,
  "wei4 ": 6304,
  "zai4 ": 6305,
  " wei4 ": 6306,
  " zai4 ": 6307,
  "he2 ": 6308,
  " he2 ": 6309,
  "zhong1 ": 6310,
  "bu4 ": 6311,
  "di4 ": 6312,
  "shi2 ": 6313,
  "guo2 ": 6314,
  "yu2 ": 6315,
  "ren2 ": 6316,
  " bu4 ": 6317,
  "yi1 ": 6318,
  " zhong1 ": 6319,
  "li4 ": 6320,
  "zhi4 ": 6321,
  "gong1 ": 6322,
  " shi2 ": 6323,
  "yue4 ": 6324,
  "ji2 ": 6325,
  "cheng2 ": 6326,
  "yi4 ": 6327,
  "you3 ": 6328,
  " di4 ": 6329,
  " yue4 ": 6330,
  " yu2 ": 6331,
  " ren2 ": 6332,
  " zhi4 ": 6333,
  "da4 ": 6334,
  " ji2 ": 6335,
  "yuan2 ": 6336,
  " you3 ": 6337,
  "ji4 ": 6338,
  " guo2 ": 6339,
  " li4 ": 6340,
  " gong1 ": 6341,
  " yi4 ": 6342,
  " yi3": 6343,
  " cheng2 ": 6344,
  "jia1 ": 6345,
  "si1 ": 6346,
  "yu3 ": 6347,
  " xian4": 6348,
  " ri4": 6349,
  " yi1 ": 6350,
  " xing2": 6351,
  " ta1": 6352,
  "li3 ": 6353,
  "ji1 ": 6354,
  " dao4": 6355,
  "hou4 ": 6356,
  "wei2 ": 6357,
  " zhi1": 6358,
  " da4 ": 6359,
  " yuan2 ": 6360,
  "xi1 ": 6361,
  " ri4 ": 6362,
  " ge4": 6363,
  " yi3 ": 6364,
  "xue2 ": 6365,
  "hui4 ": 6366,
  "zuo4 ": 6367,
  "le ": 6368,
  " yu3 ": 6369,
  " dao4 ": 6370,
  "ming2 ": 6371,
  " ji4 ": 6372,
  "bei4 ": 6373,
  " xing2 ": 6374,
  "sheng1 ": 6375,
  " jian4": 6376,
  " chu1": 6377,
  " qi2": 6378,
  " si1 ": 6379,
  " de2": 6380,
  "zheng4 ": 6381,
  " xian4 ": 6382,
  " hou4 ": 6383,
  " ji1 ": 6384,
  "dui4 ": 6385,
  "shang4 ": 6386,
  "qu1 ": 6387,
  "shi3 ": 6388,
  " er3": 6389,
  " jia1 ": 6390,
  "you2 ": 6391,
  " ta1 ": 6392,
  " xi1 ": 6393,
  " li3 ": 6394,
  " er2": 6395,
  "zhan4 ": 6396,
  " jun1": 6397,
  " bing4": 6398,
  " zhi1 ": 6399,
  " ge4 ": 6400,
  "zhu3 ": 6401,
  "ren4 ": 6402,
  "fu4 ": 6403,
  "zi4 ": 6404,
  "wu4 ": 6405,
  "xin1 ": 6406,
  "dai4 ": 6407,
  "ju4 ": 6408,
  "ping2 ": 6409,
  " chu1 ": 6410,
  " ke4": 6411,
  " zhou1": 6412,
  "xiang1 ": 6413,
  " hui4 ": 6414,
  "shu4 ": 6415,
  "nan2 ": 6416,
  " she4": 6417,
  " bei4 ": 6418,
  " ming2 ": 6419,
  "xia4 ": 6420,
  "guan1 ": 6421,
  " er3 ": 6422,
  " de2 ": 6423,
  "lu4 ": 6424,
  "yu4 ": 6425,
  "hua4 ": 6426,
  " jian4 ": 6427,
  "jing1 ": 6428,
  "yan2 ": 6429,
  "fang1 ": 6430,
  " yin1": 6431,
  "kai1 ": 6432,
  "jian1 ": 6433,
  "jiao4 ": 6434,
  "fa1 ": 6435,
  "yong4 ": 6436,
  " dan4": 6437,
  " er2 ": 6438,
  "zhu4 ": 6439,
  "lai2 ": 6440,
  "min2 ": 6441,
  "shou3 ": 6442,
  "zhe4 ": 6443,
  "xiang4 ": 6444,
  "wen2 ": 6445,
  " jun1 ": 6446,
  "xi4 ": 6447,
  "qian2 ": 6448,
  "ben3 ": 6449,
  "te4 ": 6450,
  " wei2 ": 6451,
  "zhi2 ": 6452,
  "fa3 ": 6453,
  "qi1 ": 6454,
  "jie2 ": 6455,
  "lian2 ": 6456,
  " bing4 ": 6457,
  "dong4 ": 6458,
  "dian4 ": 6459,
  " qi2 ": 6460,
  " ke4 ": 6461,
  "dong1 ": 6462,
  "mu4 ": 6463,
  " jin4": 6464,
  " dui4 ": 6465,
  " huo4": 6466,
  " zhan4 ": 6467,
  "fen1 ": 6468,
  "tai2 ": 6469,
  "zhang3 ": 6470,
  "du4 ": 6471,
  "jiang1 ": 6472,
  " qiu2": 6473,
  " ping2 ": 6474,
  "gao1 ": 6475,
  "ye4 ": 6476,
  "suo3 ": 6477,
  "bei3 ": 6478,
  " zhou1 ": 6479,
  "shi1 ": 6480,
  " le ": 6481,
  "duo1 ": 6482,
  "jie1 ": 6483,
  "ge2 ": 6484,
  " shang4 ": 6485,
  "jin1 ": 6486,
  " zheng4 ": 6487,
  "fu2 ": 6488,
  " zuo4 ": 6489,
  " you2 ": 6490,
  " fu4 ": 6491,
  "kou3 ": 6492,
  "guo4 ": 6493,
  "zhi3 ": 6494,
  " tong2": 6495,
  "hai3 ": 6496,
  " ren4 ": 6497,
  " quan2": 6498,
  "ma3 ": 6499,
  "tong1 ": 6500,
  "ru4 ": 6501,
  "zui4 ": 6502,
  " sheng1 ": 6503,
  " xue2 ": 6504,
  "ci3 ": 6505,
  "xing4 ": 6506,
  "wai4 ": 6507,
  "nei4 ": 6508,
  "la1 ": 6509,
  "ti3 ": 6510,
  "jue2 ": 6511,
  "ke3 ": 6512,
  "qi3 ": 6513,
  "shan1 ": 6514,
  "tian1 ": 6515,
  "chang3 ": 6516,
  "deng3 ": 6517,
  "zhen4 ": 6518,
  "wu3 ": 6519,
  "chang2 ": 6520,
  "zi ": 6521,
  "yao4 ": 6522,
  "bi3 ": 6523,
  " ju4 ": 6524,
  "bao3 ": 6525,
  "mi3 ": 6526,
  "ya4 ": 6527,
  " ye3": 6528,
  "gai1 ": 6529,
  " yin1 ": 6530,
  " dai4 ": 6531,
  "mian4 ": 6532,
  "zhong4 ": 6533,
  " she4 ": 6534,
  "feng1 ": 6535,
  " zhe4 ": 6536,
  "zhong3 ": 6537,
  "ci4 ": 6538,
  "yun4 ": 6539,
  "yi2 ": 6540,
  "liu2 ": 6541,
  "che1 ": 6542,
  "shou4 ": 6543,
  "lin2 ": 6544,
  "bao1 ": 6545,
  "yi2 ge4 ": 6546,
  "sai4 ": 6547,
  "jie4 ": 6548,
  "ding4 ": 6549,
  "shen1 ": 6550,
  "sheng3 ": 6551,
  "luo2 ": 6552,
  "mei3 guo2 ": 6553,
  "san1 ": 6554,
  "qi4 ": 6555,
  "xiao3 ": 6556,
  " dan4 ": 6557,
  "neng2 ": 6558,
  "shu1 ": 6559,
  "ze2 ": 6560,
  "lie4 ": 6561,
  "xuan3 ": 6562,
  "si4 ": 6563,
  "qing1 ": 6564,
  "zhe3 ": 6565,
  " qiu2 ": 6566,
  "jing4 ": 6567,
  "yuan4 ": 6568,
  "ba1 ": 6569,
  "wang2 ": 6570,
  "ke1 ": 6571,
  "tai4 ": 6572,
  "lan2 ": 6573,
  "bao4 ": 6574,
  "an1 ": 6575,
  "zong3 ": 6576,
  "ying3 ": 6577,
  " huo4 ": 6578,
  "bi4 ": 6579,
  "fu3 ": 6580,
  "dao3 ": 6581,
  " xin1 ": 6582,
  "gu3 ": 6583,
  "ying1 ": 6584,
  " hao4": 6585,
  " xia4 ": 6586,
  " zi4 ": 6587,
  "ge1 ": 6588,
  "fen4 ": 6589,
  "xiao4 ": 6590,
  "yue1 ": 6591,
  "ni2 ": 6592,
  "jiao1 ": 6593,
  "na4 ": 6594,
  " yu4 ": 6595,
  " mi3 ": 6596,
  "zi1 ": 6597,
  "er4 ": 6598,
  " xiang1 ": 6599,
  "pu3 ": 6600,
  "dan1 ": 6601,
  " zhu4 ": 6602,
  "biao3 ": 6603,
  "guan3 ": 6604,
  "tou2 ": 6605,
  "liang4 ": 6606,
  "chuan2 ": 6607,
  " lu4 ": 6608,
  "su4 ": 6609,
  "wu2 ": 6610,
  " dang1": 6611,
  "bo1 ": 6612,
  "ru2 ": 6613,
  "yan3 ": 6614,
  "nv3 ": 6615,
  "bo2 ": 6616,
  " zhong1 guo2 ": 6617,
  "xing1 ": 6618,
  "ti2 ": 6619,
  "fei1 ": 6620,
  "da2 ": 6621,
  "se4 ": 6622,
  "cheng1 ": 6623,
  "mei3 ": 6624,
  " wei4 yu2 ": 6625,
  " jin4 ": 6626,
  "ceng2 ": 6627,
  "chan3 ": 6628,
  " nan2 ": 6629,
  "shui3 ": 6630,
  "tu2 ": 6631,
  "bian4 ": 6632,
  "gui1 ": 6633,
  " ran2": 6634,
  "yang2 ": 6635,
  "zhang1 ": 6636,
  "gai3 ": 6637,
  "dian3 ": 6638,
  "a1 ": 6639,
  "cong2 ": 6640,
  "jiu4 ": 6641,
  " ben3 ": 6642,
  " quan2 ": 6643,
  "sha1 ": 6644,
  "bao1 kuo4": 6645,
  "wang3 ": 6646,
  "jian3 ": 6647,
  "sheng4 ": 6648,
  "zu3 ": 6649,
  "shu3 ": 6650,
  "gang3 ": 6651,
  "hua2 ": 6652,
  "lv4 ": 6653,
  "qing2 ": 6654,
  "jing3 ": 6655,
  "liang3 ": 6656,
  "zu2 ": 6657,
  "ban4 ": 6658,
  "tong3 ": 6659,
  "gong4 ": 6660,
  "shang1 ": 6661,
  "li2 ": 6662,
  "hu4 ": 6663,
  "tong2 ": 6664,
  "bian1 ": 6665,
  "jin4 ": 6666,
  "long2 ": 6667,
  "luo4 ": 6668,
  "an4 ": 6669,
  "xu4 ": 6670,
  "chi2 ": 6671,
  "ao4 ": 6672,
  "mei2 ": 6673,
  "jin3 ": 6674,
  "ban1 ": 6675,
  "guang3 ": 6676,
  "chu1 ": 6677,
  "ce4 ": 6678,
  "mi4 ": 6679,
  "shen2 ": 6680,
  " ta1 men": 6681,
  "zheng1 ": 6682,
  "zhi1 ": 6683,
  "ling3 ": 6684,
  "you4 ": 6685,
  "fan3 ": 6686,
  "wei1 ": 6687,
  " zhu3 ": 6688,
  " xiang4 ": 6689,
  "huo2 ": 6690,
  "xi2 ": 6691,
  "ting2 ": 6692,
  "ka3 ": 6693,
  "cha2 ": 6694,
  " gai1 ": 6695,
  "cai2 ": 6696,
  "gou4 ": 6697,
  "shuo1 ": 6698,
  "men2 ": 6699,
  "ci2 ": 6700,
  "xiang3 ": 6701,
  "mu3 ": 6702,
  "lei4 ": 6703,
  "wei3 ": 6704,
  "qu3 ": 6705,
  " gong1 li3 ": 6706,
  "yan2 jiu1": 6707,
  " duo1 ": 6708,
  "tuan2 ": 6709,
  "yin3 ": 6710,
  "jian4 ": 6711,
  " ye3 ": 6712,
  "chao2 ": 6713,
  "ying4 ": 6714,
  "chen2 ": 6715,
  " wan4": 6716,
  "tang2 ": 6717,
  "xie1 ": 6718,
  "qi2 ": 6719,
  "pin3 ": 6720,
  " yi3 ji2 ": 6721,
  "jia4 ": 6722,
  "shi3 yong4 ": 6723,
  "jie3 ": 6724,
  "hang2 ": 6725,
  "yi3 ": 6726,
  "lun2 ": 6727,
  "rong2 ": 6728,
  " you2": 6729,
  "jiang3 ": 6730,
  "pai2 ": 6731,
  "fu1 ": 6732,
  "jiu3 ": 6733,
  "1 ": 6734,
  "ling4 ": 6735,
  "tai2 wan1": 6736,
  " hao4 ": 6737,
  " de di4 ": 6738,
  "xu1 ": 6739,
  "ke3 yi3 ": 6740,
  "huang2 ": 6741,
  "xian1 ": 6742,
  "duan4 ": 6743,
  "ke4 ": 6744,
  "dang3 ": 6745,
  "mo2 ": 6746,
  "can1 ": 6747,
  "ying2 ": 6748,
  "tiao2 ": 6749,
  "biao1 ": 6750,
  " de yi1 ": 6751,
  "kai1 shi3 ": 6752,
  "quan2 ": 6753,
  "zhan3 ": 6754,
  " cheng2 wei2 ": 6755,
  "ye3 ": 6756,
  "hong2 ": 6757,
  "mei2 you3 ": 6758,
  "han4 ": 6759,
  "e2 ": 6760,
  "yin1 ": 6761,
  "wei3 yuan2 ": 6762,
  "qian1 ": 6763,
  "ban3 ": 6764,
  "xian4 ": 6765,
  "ling2 ": 6766,
  "xiao1 ": 6767,
  " tong2 ": 6768,
  "hui2 ": 6769,
  "su1 ": 6770,
  "fang2 ": 6771,
  "meng2 ": 6772,
  "zhuang1 ": 6773,
  "kong1 ": 6774,
  "ju2 ": 6775,
  "cun1 ": 6776,
  "bao1 kuo4 ": 6777,
  "ren2 kou3 ": 6778,
  " qi2 zhong1 ": 6779,
  "2 ": 6780,
  " gong1 si1 ": 6781,
  "huo4 ": 6782,
  "zi3 ": 6783,
  "xing2 ": 6784,
  "dou1 ": 6785,
  " de shi4 ": 6786,
  "   zai4 ": 6787,
  "qiang2 ": 6788,
  "zhao4 ": 6789,
  "du2 ": 6790,
  "zheng4 zhi4 ": 6791,
  "yi2 ge4": 6792,
  "mo4 ": 6793,
  " fen1 ": 6794,
  "cai3 ": 6795,
  "bing1 ": 6796,
  "fa3 guo2 ": 6797,
  " gao1 ": 6798,
  " da4 xue2 ": 6799,
  " shi4 yi1 ": 6800,
  "hai2 ": 6801,
  " ta1 de ": 6802,
  "hu2 ": 6803,
  "chu4 ": 6804,
  "qin1 ": 6805,
  "lun4 ": 6806,
  "fan4 ": 6807,
  "zhen1 ": 6808,
  "guang1 ": 6809,
  "wen4 ": 6810,
  "man4 ": 6811,
  " jie2 ": 6812,
  "she4 ": 6813,
  "biao3 shi4 ": 6814,
  "ai4 ": 6815,
  "zhong1 de ": 6816,
  "ju1 ": 6817,
  " jiao4 ": 6818,
  "zhuan1 ": 6819,
  "diao4 ": 6820,
  "bai2 ": 6821,
  "da3 ": 6822,
  "que4 ": 6823,
  "dian4 shi4 ": 6824,
  " dong1 ": 6825,
  " du4 ": 6826,
  "fei4 ": 6827,
  " shi4 wei4 ": 6828,
  " mu4 ": 6829,
  "han2 ": 6830,
  "shi4 de ": 6831,
  " te4 ": 6832,
  "xun4 ": 6833,
  " jin1 ": 6834,
  "pian4 ": 6835,
  "ming4 ": 6836,
  "ju3 ": 6837,
  " jiang1 ": 6838,
  "tuo1 ": 6839,
  "gu4 ": 6840,
  " ren2 kou3 ": 6841,
  "xiu1 ": 6842,
  " bu4 fen4 ": 6843,
  "xie2 ": 6844,
  "zao4 ": 6845,
  " he2 guo2 ": 6846,
  "zhong1 guo2 ": 6847,
  "guo3 ": 6848,
  "10 yue4 ": 6849,
  "shou1 ": 6850,
  " zui4": 6851,
  "xin4 ": 6852,
  "12 yue4 ": 6853,
  "7 yue4 ": 6854,
  "9 yue4 ": 6855,
  " shi1 ": 6856,
  "zhuan3 ": 6857,
  "ta1 ": 6858,
  "dang1 ": 6859,
  "mian4 ji1 ": 6860,
  " ren2 min2 ": 6861,
  "8 yue4 ": 6862,
  "xun2 ": 6863,
  " di4 qu1 ": 6864,
  "wu1 ": 6865,
  "3 yue4 ": 6866,
  " guo4 ": 6867,
  " suo3 ": 6868,
  "1 yue4 ": 6869,
  " jing1 ": 6870,
  " shou3 ": 6871,
  "gan3 ": 6872,
  "huan2 ": 6873,
  "di2 ": 6874,
  "xia2 ": 6875,
  "jia3 ": 6876,
  "5 yue4 ": 6877,
  "ying1 guo2 ": 6878,
  " ci3 ": 6879,
  "dao4 ": 6880,
  "3 ": 6881,
  "di3 ": 6882,
  "zhu1 ": 6883,
  "ting1 ": 6884,
  "zheng4 shi4 ": 6885,
  "chong2 ": 6886,
  "huo3 ": 6887,
  "zhou1 ": 6888,
  "6 yue4 ": 6889,
  "zhuang4 ": 6890,
  "cheng2 shi4 ": 6891,
  "4 yue4 ": 6892,
  " guo2 jia1 ": 6893,
  "tian2 ": 6894,
  "geng4 ": 6895,
  "   di4 ": 6896,
  "fang4 ": 6897,
  "yong3 ": 6898,
  "shu3 yu2 ": 6899,
  " ping2 fang1": 6900,
  "po4 ": 6901,
  "jun1 ": 6902,
  " di4 yi1 ": 6903,
  " qian2 ": 6904,
  "11 yue4 ": 6905,
  " deng3 ": 6906,
  "qu4 ": 6907,
  "qun2 ": 6908,
  "jiang4 ": 6909,
  "tao2 ": 6910,
  " shi4 ji4 ": 6911,
  " ping2 fang1 gong1 li3 ": 6912,
  " tong2 shi2 ": 6913,
  " ma3 ": 6914,
  "dan1 ren4 ": 6915,
  " tian1 ": 6916,
  " ru2 ": 6917,
  "gen1 ": 6918,
  "bie2 ": 6919,
  " sui4": 6920,
  "pai4 ": 6921,
  "du1 ": 6922,
  "shao3 ": 6923,
  "liang2 ": 6924,
  "hui1 ": 6925,
  "tie3 ": 6926,
  "nong2 ": 6927,
  "ji3 ": 6928,
  " nian2 1 yue4 ": 6929,
  "ta3 ": 6930,
  "dian4 ying3 ": 6931,
  " qi1 ": 6932,
  "zong1 ": 6933,
  "chu3 ": 6934,
  " zhe4": 6935,
  "si3 ": 6936,
  "er3 ": 6937,
  " de shi2 ": 6938,
  "shuang1 ": 6939,
  "tai2 wan1 ": 6940,
  "qiao2 ": 6941,
  "gen1 ju4 ": 6942,
  "li4 shi3 ": 6943,
  "chu2 ": 6944,
  " shi4 zhen4 ": 6945,
  "gao4 ": 6946,
  "bai4 ": 6947,
  "can1 jia1 ": 6948,
  "yun4 dong4": 6949,
  "gang1 ": 6950,
  "che1 zhan4 ": 6951,
  "guo2 de ": 6952,
  "jiao3 ": 6953,
  " wan4 ": 6954,
  " yin1 wei4 ": 6955,
  " ri4 ben3 ": 6956,
  " ping2 fang1 ": 6957,
  "li4 de ": 6958,
  " nian2 de ": 6959,
  "gai4 ": 6960,
  "pan4 ": 6961,
  " wen2 ": 6962,
  " hai3 ": 6963,
  "zheng4 fu3 ": 6964,
  "bing4 ": 6965,
  "zhun3 ": 6966,
  " nian2 12 yue4 ": 6967,
  "wa3 ": 6968,
  "yan4 ": 6969,
  "wo3 ": 6970,
  "gong4 he2 guo2 ": 6971,
  " xian4 de ": 6972,
  " fu2 ": 6973,
  "ya2 ": 6974,
  "yin2 ": 6975,
  "fa1 xian4 ": 6976,
  "formula ": 6977,
  "chuang4 ": 6978,
  "hei1 ": 6979,
  " suo3": 6980,
  "qu1 de ": 6981,
  "song4 ": 6982,
  "huan4 ": 6983,
  "ha1 ": 6984,
  "hen3 ": 6985,
  "5 ": 6986,
  "ti2 gong1 ": 6987,
  "4 ": 6988,
  "jin4 xing2 ": 6989,
  " bei3 ": 6990,
  "lei2 ": 6991,
  "2 yue4 ": 6992,
  "jing1 ji4 ": 6993,
  "tong1 guo4 ": 6994,
  " nian2 3 yue4 ": 6995,
  "sui2 ": 6996,
  "chuan1 ": 6997,
  "qie3 ": 6998,
  " zhong1 yang1": 6999,
  " guo2 ji4 ": 7000,
  "hua1 ": 7001,
  "shang4 de ": 7002,
  " you2 yu2 ": 7003,
  " you4 ": 7004,
  "lei1 ": 7005,
  "wei3 yuan2 hui4 ": 7006,
  "kao3 ": 7007,
  " nian2 7 yue4 ": 7008,
  "wan2 ": 7009,
  "cheng1 wei2 ": 7010,
  " nian2 10 yue4 ": 7011,
  "bai3 ": 7012,
  "deng1 ": 7013,
  " ying1 ": 7014,
  " shi4 jie4 ": 7015,
  " yin1 ci3 ": 7016,
  "ming2 wei4 ": 7017,
  " jin4 xing2 ": 7018,
  "nuo4 ": 7019,
  " shi4 zai4 ": 7020,
  "chong1 ": 7021,
  " ran2 ": 7022,
  "zhu3 yi4 ": 7023,
  " nian2 9 yue4 ": 7024,
  "kuai4 ": 7025,
  "tu3 ": 7026,
  " zhi1 hou4 ": 7027,
  "yan2 jiu1 ": 7028,
  " ta1 men ": 7029,
  "qiu2 ": 7030,
  "mai4 ": 7031,
  "shi2 de ": 7032,
  "lian4 ": 7033,
  "hao4 ": 7034,
  " nian2 5 yue4 ": 7035,
  " lian2 ": 7036,
  "sa4 ": 7037,
  "lu2 ": 7038,
  "xi4 tong3 ": 7039,
  " zui4 ": 7040,
  "pei4 ": 7041,
  "lu3 ": 7042,
  " nian2 4 yue4 ": 7043,
  "chi3 ": 7044,
  "liao4 ": 7045,
  " dang1 ": 7046,
  " nian2 8 yue4 ": 7047,
  " nian2 6 yue4 ": 7048,
  " xing2 de ": 7049,
  "zeng1 ": 7050,
  "ren2 de ": 7051,
  " shi3 ": 7052,
  "xiang1 gang3 ": 7053,
  "xuan1 ": 7054,
  "qi1 jian1 ": 7055,
  "de2 ": 7056,
  "kuang4 ": 7057,
  "guan3 li3 ": 7058,
  " gong1 zuo4 ": 7059,
  "piao4 ": 7060,
  " zhi1 yi1 ": 7061,
  "xu3 ": 7062,
  "en1 ": 7063,
  "di1 ": 7064,
  "heng2 ": 7065,
  "da4 de ": 7066,
  "bu3 ": 7067,
  "yang4 ": 7068,
  "sen1 ": 7069,
  " zhong1 xin1 ": 7070,
  "xuan1 bu4 ": 7071,
  "tui1 ": 7072,
  " nian2 11 yue4 ": 7073,
  "zu3 zhi1 ": 7074,
  "ri4 ": 7075,
  "wang4 ": 7076,
  "bu4 de ": 7077,
  "pi2 ": 7078,
  "men ": 7079,
  " bao1 kuo4 ": 7080,
  "chang4 ": 7081,
  "ying3 xiang3 ": 7082,
  "yang3 ": 7083,
  " ta1 zai4 ": 7084,
  "qian1 mi3 ": 7085,
  "sai1 ": 7086,
  "er2 ": 7087,
  "   sheng1 ": 7088,
  " huo4 de2 ": 7089,
  "pi1 ": 7090,
  " shi4 jie4": 7091,
  "luo2 si1 ": 7092,
  "he4 ": 7093,
  "ke3 neng2": 7094,
  "cheng2 de ": 7095,
  " gai1": 7096,
  " qing1 ": 7097,
  " mei3": 7098,
  "nian4 ": 7099,
  "dun4 ": 7100,
  "xian2 ": 7101,
  "lou2 ": 7102,
  "qi2 ta1 ": 7103,
  " nian2 2 yue4 ": 7104,
  "bang1 ": 7105,
  " cheng2 li4 ": 7106,
  "le yi1 ": 7107,
  "huo2 dong4 ": 7108,
  " lai2 ": 7109,
  " ren4 wei2 ": 7110,
  " fen1": 7111,
  " bi3 ": 7112,
  "you1 ": 7113,
  "liu4 ": 7114,
  " shu4 ": 7115,
  "ke1 xue2 ": 7116,
  "fa1 zhan3 ": 7117,
  "huo4 de2 ": 7118,
  "jun4 ": 7119,
  " luo2 ": 7120,
  " zuo4 wei2 ": 7121,
  "6 ": 7122,
  "ya1 ": 7123,
  " ping2 fang1 qian1 mi3 ": 7124,
  " a1 ": 7125,
  "hua2 ren2 min2 ": 7126,
  " wu2 ": 7127,
  "ri4 ben3 ": 7128,
  "bei1 ": 7129,
  "lao3 ": 7130,
  "hui4 yi4 ": 7131,
  "re4 ": 7132,
  " zhi2": 7133,
  " liu2 ": 7134,
  "tan2 ": 7135,
  "jian1 de ": 7136,
  "ku4 ": 7137,
  "tie3 lu4 ": 7138,
  " de ren2 ": 7139,
  "yong4 yu2 ": 7140,
  "liao2 ": 7141,
  "ning2 ": 7142,
  " shi2 jian1 ": 7143,
  " de gong1 ": 7144,
  " zhang1 ": 7145,
  " shan1 ": 7146,
  "ge4 ": 7147,
  "mian3 ": 7148,
  " yan2 ": 7149,
  "mian4 ji1": 7150,
  "min2 guo2 ": 7151,
  "rui4 ": 7152,
  "wu1 ke4 ": 7153,
  "yin4 ": 7154,
  "xian3 ": 7155,
  "le4 ": 7156,
  "zuo3 ": 7157,
  "gong4 you3 ": 7158,
  "   li4 shi3 ": 7159,
  "hao3 ": 7160,
  "   sheng1 ping2 ": 7161,
  "hua2 ren2 min2 gong4 he2 guo2 ": 7162,
  "fang1 shi4 ": 7163,
  "fa1 sheng1 ": 7164,
  "gan1 ": 7165,
  " zhi2 ": 7166,
  " cong2 ": 7167,
  "dou4 ": 7168,
  "wen4 ti2 ": 7169,
  "guan4 jun1 ": 7170,
  "zhu3 yao4 ": 7171,
  "ran2 ": 7172,
  "di4 de ": 7173,
  " di4 er4 ": 7174,
  "dao3 zhi4 ": 7175,
  " xiao3 ": 7176,
  "guan1 xi4 ": 7177,
  "cun2 ": 7178,
  "kang1 ": 7179,
  "can1 yu4 ": 7180,
  " jin3 ": 7181,
  "yuan3 ": 7182,
  " bu4 fen4": 7183,
  "zheng3 ": 7184,
  " gong1 cheng2 ": 7185,
  "wan2 cheng2 ": 7186,
  "dan1 wei4 ": 7187,
  "ke3 neng2 ": 7188,
  " zhi3 ": 7189,
  " wu3 ": 7190,
  "yi1 wei4 ": 7191,
  " ze2 ": 7192,
  "1 ri4 ": 7193,
  "xie4 ": 7194,
  " zong3 ": 7195,
  "suo3 you3 ": 7196,
  "zhi4 de ": 7197,
  "wen2 hua4 ": 7198,
  " cheng2 yuan2 ": 7199,
  " de cheng2 ": 7200,
  "gei3 ": 7201,
  "lv3 ": 7202,
  " ba1 ": 7203,
  " tong1 ": 7204,
  "yuan2 de ": 7205,
  "yong1 you3 ": 7206,
  "cun2 zai4 ": 7207,
  "er4 shi2 ": 7208,
  "bei3 bu4 ": 7209,
  "lian2 he2 ": 7210,
  "hou4 de ": 7211,
  "niu3 ": 7212,
  " xi4 ": 7213,
  " shi4 zhong1 ": 7214,
  "zheng4 fu3": 7215,
  "you2 yu2 ": 7216,
  "guo2 jia1 ": 7217,
  "dui4 yu2 ": 7218,
  " nian2 zhi4 ": 7219,
  "fa1 xing2 ": 7220,
  "yi4 de ": 7221,
  "ju4 you3 ": 7222,
  " zhi3": 7223,
  " jian4 zhu4 ": 7224,
  "bi3 sai4 ": 7225,
  " bing4 zai4 ": 7226,
  " dao4 le ": 7227,
  "xin1 de ": 7228,
  "ou1 ": 7229,
  "si1 de ": 7230,
  "shen3 ": 7231,
  "zi4 ji3": 7232,
  "yun4 dong4 ": 7233,
  "yun2 ": 7234,
  "xing2 zheng4 ": 7235,
  "yin4 du4 ": 7236,
  "e2 luo2 si1 ": 7237,
  "bin1 ": 7238,
  " mian4 ji1 ": 7239,
  "dai4 biao3 ": 7240,
  " mei3 guo2 ": 7241,
  "shao4 ": 7242,
  " ling4 ": 7243,
  "xu3 duo1 ": 7244,
  " dan4 shi4 ": 7245,
  "ren4 he2 ": 7246,
  "ge ": 7247,
  "sheng1 yu2 ": 7248,
  "tu1 ": 7249,
  " jian3 ": 7250,
  "gui4 ": 7251,
  "man3 ": 7252,
  " nian2 dai4 ": 7253,
  "ding1 ": 7254,
  "liang3 ge4 ": 7255,
  "che4 ": 7256,
  "bao3 hu4 ": 7257,
  " ren2 kou3 mi4 ": 7258,
  " shi3": 7259,
  "zh ": 7260,
  "xiu4 ": 7261,
  "xuan2 ": 7262,
  " dang1 shi2 ": 7263,
  " dian4 ": 7264,
  " de yi2 ge4 ": 7265,
  "nan2 bu4 ": 7266,
  "ju3 xing2 ": 7267,
  "zhang4 ": 7268,
  "zhuan1 ji2 ": 7269,
  "mian4 ji1 wei4 ": 7270,
  "lai2 de ": 7271,
  " guan1 ": 7272,
  "fan1 ": 7273,
  "e4 ": 7274,
  "zao3 ": 7275,
  " ceng2 ": 7276,
  " zheng4 fu3 ": 7277,
  "du2 li4 ": 7278,
  "fu2 wu4 ": 7279,
  "jue2 ding4 ": 7280,
  "xie3 ": 7281,
  " chu1 de ": 7282,
  "ruo4 ": 7283,
  "zhu3 yao4": 7284,
  "kai1 shi3": 7285,
  " li4 shi3 ": 7286,
  "qing3 ": 7287,
  " san1 ": 7288,
  " she4 ji4 ": 7289,
  " wang2 ": 7290,
  " mei3 ": 7291,
  "ming2 de ": 7292,
  "hai4 ": 7293,
  "rang4 ": 7294,
  " shi4 wei4 yu2 ": 7295,
  "jiu4 shi4 ": 7296,
  " you3 yi1 ": 7297,
  "geng1 ": 7298,
  " jiang1": 7299,
  "gt ": 7300,
  " ci3": 7301,
  " gt ": 7302,
  "xi3 ": 7303,
  "tan4 ": 7304,
  " qi2 ta1 ": 7305,
  " fa3 ": 7306,
  " xing2 zheng4 ": 7307,
  "pei2 ": 7308,
  "jiao4 yu4 ": 7309,
  "shou4 dao4 ": 7310,
  "ai1 ": 7311,
  " feng1 ": 7312,
  "lt ": 7313,
  "ren4 wei2 ": 7314,
  "fang3 ": 7315,
  "kan1 ": 7316,
  "wan3 ": 7317,
  " jie1 ": 7318,
  " shi4 di4 ": 7319,
  "fa1 zhan3": 7320,
  "she4 hui4 ": 7321,
  " lt ": 7322,
  "yi4 wei4 ": 7323,
  "gu4 shi4 ": 7324,
  "shan4 ": 7325,
  "pian1 ": 7326,
  "fang1 mian4 ": 7327,
  " xian4 zai4 ": 7328,
  "qu1 wei4 ": 7329,
  " zui4 zhong1 ": 7330,
  " bi4 ": 7331,
  "qin2 ": 7332,
  " zhong1 yang1 ": 7333,
  "pao4 ": 7334,
  " shi4 shi4 ": 7335,
  "tui4 ": 7336,
  "zhe ": 7337,
  "nei4 de ": 7338,
  " jiu4 ": 7339,
  "shu3 de ": 7340,
  "xiang1 gang3": 7341,
  "xiao3 shi2 ": 7342,
  "dan4 ": 7343,
  " qu1 ": 7344,
  " li4 ru2 ": 7345,
  "zu2 qiu2 ": 7346,
  "shu4 ju4 ": 7347,
  " bu4 tong2": 7348,
  "lie4 che1 ": 7349,
  "xu1 yao4 ": 7350,
  "hua4 de ": 7351,
  " sui1": 7352,
  " dong4 ": 7353,
  "zhi2 wu4 ": 7354,
  "ren2 shi4 ": 7355,
  "qiang1 ": 7356,
  "zuo4 de ": 7357,
  "shi3 yong4": 7358,
  "zeng1 jia1 ": 7359,
  " ji4 hua4 ": 7360,
  "min2 zhu3 ": 7361,
  " shi2 qi1 ": 7362,
  "zuo4 wei2 ": 7363,
  " gu3 ": 7364,
  " ceng2": 7365,
  "kong4 zhi4 ": 7366,
  " ye3 shi4 ": 7367,
  "duan3 ": 7368,
  "tan3 ": 7369,
  " jian4 de ": 7370,
  "yin1 yue4 ": 7371,
  " ran2 er2 ": 7372,
  " an1 ": 7373,
  " shu3 yu2 ": 7374,
  " yi3 jing1 ": 7375,
  "lang2 ": 7376,
  " he2 zuo4 ": 7377,
  " zai4 di4 ": 7378,
  "ren2 min2 ": 7379,
  " shi4 jian4 ": 7380,
  " ren2 yuan2 ": 7381,
  " you4": 7382,
  "ta1 de ": 7383,
  " ke1 ": 7384,
  " jian4 yu2 ": 7385,
  "xue2 yuan4 ": 7386,
  "zu3 cheng2 ": 7387,
  " ma3": 7388,
  "chao1 guo4 ": 7389,
  " ge2 ": 7390,
  "zuo4 pin3 ": 7391,
  " yin1 yue4 ": 7392,
  "mao4 ": 7393,
  " quan2 guo2 ": 7394,
  "xiong2 ": 7395,
  "zai3 ": 7396,
  "hu1 ": 7397,
  "hui4 de ": 7398,
  "ji4 de ": 7399,
  " si4 ": 7400,
  "zong3 tong3 ": 7401,
  "suan4 ": 7402,
  " zhe4 xie1 ": 7403,
  "7 ": 7404,
  " wei4 le ": 7405,
  " hou4 lai2 ": 7406,
  "yu2 shi4 ": 7407,
  " shou4 ": 7408,
  " zhang3 ": 7409,
  " tai4 ": 7410,
  " pu3 ": 7411,
  " cheng2 gong1 ": 7412,
  "fa1 bu4 ": 7413,
  "da4 li4 ": 7414,
  "ti2 chu1 ": 7415,
  " sui4 ": 7416,
  " li4 ya4 ": 7417,
  " 000": 7418,
  " yi4 yuan2 ": 7419,
  " she4 you3 ": 7420,
  "   de ": 7421,
  " yin1 ci3": 7422,
  "yun4 dong4 yuan2 ": 7423,
  "yao1 qiu2 ": 7424,
  "han2 guo2 ": 7425,
  "bu4 zai4 ": 7426,
  "ni2 ya4": 7427,
  "pin2 ": 7428,
  "you3 de ": 7429,
  "pu2 ": 7430,
  "zao4 cheng2 ": 7431,
  "ou1 zhou1 ": 7432,
  "qiu1 ": 7433,
  "cai3 yong4 ": 7434,
  "xiao3 xing2 ": 7435,
  " gong1 yuan2 ": 7436,
  "jia1 de ": 7437,
  "xing4 de ": 7438,
  "ba3 ": 7439,
  "sheng1 de ": 7440,
  " de yi2 ge4": 7441,
  " ri4 zai4 ": 7442,
  "dang1 shi2 ": 7443,
  "kong4 ": 7444,
  "ren2 wu4 ": 7445,
  "feng4 ": 7446,
  " ci3 wai4 ": 7447,
  " sui2": 7448,
  "gong4 chan3 ": 7449,
  " la1 ": 7450,
  "kan4 ": 7451,
  " zh ": 7452,
  " cong2": 7453,
  " wo3 ": 7454,
  " sha1 ": 7455,
  "8 ": 7456,
  "wan1 ": 7457,
  " shi4 he2 ": 7458,
  "2010 nian2 ": 7459,
  " ling4": 7460,
  " gen1 ju4 ": 7461,
  " de bu4 ": 7462,
  " ti3 ": 7463,
  "ma3 wei4 ": 7464,
  "xue2 jia1 ": 7465,
  "you2 xi4 ": 7466,
  "song1 ": 7467,
  "fan4 wei2 ": 7468,
  " bu4 tong2 ": 7469,
  "mao2 ": 7470,
  "dun1 ": 7471,
  "kai1 fa1 ": 7472,
  "chao1 ": 7473,
  "she4 ji4 ": 7474,
  " ke3 ": 7475,
  "san1 nian2 ": 7476,
  "qu3 de2 ": 7477,
  " de ji1 ": 7478,
  " nv3 ": 7479,
  "sai4 shi4 ": 7480,
  "xiong1 ": 7481,
  "   shi4 ": 7482,
  " xing2 cheng2 ": 7483,
  "   di4 li3 ": 7484,
  "wen1 ": 7485,
  "zi4 zhi4 ": 7486,
  " yi2 ": 7487,
  "chan3 sheng1 ": 7488,
  " wu4 ": 7489,
  " jian1 ": 7490,
  "a1 er3 ": 7491,
  "yao2 ": 7492,
  " de ji4 ": 7493,
  "shu1 ji4 ": 7494,
  "jie2 mu4 ": 7495,
  " bing4 yu2 ": 7496,
  "10 ": 7497,
  "dou1 shi4 ": 7498,
  "ni3 ": 7499,
  "chong2 xin1 ": 7500,
  " liang3 ": 7501,
  "lve4 ": 7502,
  "chun1 ": 7503,
  " she4 hui4 ": 7504,
  "zhong4 yao4": 7505,
  "li3 de ": 7506,
  "bu2 shi4 ": 7507,
  "zan4 ": 7508,
  " dai4 biao3 ": 7509,
  "yi1 nian2 ": 7510,
  " xiang1 gang3 ": 7511,
  " si1 te4 ": 7512,
  "dian4 ying3": 7513,
  "guan1 yu2 ": 7514,
  "dang4 ": 7515,
  "zhui1 ": 7516,
  "xi4 tong3": 7517,
  " na4 ": 7518,
  "jue2 se4 ": 7519,
  " fu2": 7520,
  "jiao1 tong1 ": 7521,
  "ding3 ": 7522,
  "lang3 ": 7523,
  " you2 xi4 ": 7524,
  "da4 xue2 ": 7525,
  "ji2 de ": 7526,
  "ge1 qu3 ": 7527,
  "chu2 le ": 7528,
  " chu1 xian4 ": 7529,
  " jie2": 7530,
  "tao3 ": 7531,
  "2020 nian2 ": 7532,
  "mi2 ": 7533,
  " zhi4 zuo4 ": 7534,
  " da4 xue2": 7535,
  "ping2 jun1 ": 7536,
  " chen2 ": 7537,
  " de2 guo2 ": 7538,
  "xian3 shi4 ": 7539,
  "hua2 min2 guo2 ": 7540,
  " shen1 ": 7541,
  "kuo4 ": 7542,
  " nian2 zai4 ": 7543,
  " zhong1 hua2 ren2 min2 gong4 he2 guo2 ": 7544,
  "kong3 ": 7545,
  "hou4 zai4 ": 7546,
  "miao2 ": 7547,
  " liang3": 7548,
  " nian2 dai4": 7549,
  "er4 nian2 ": 7550,
  "xia4 de ": 7551,
  "yan3 yuan2 ": 7552,
  " ke4 si1 ": 7553,
  " 0": 7554,
  "de2 guo2 ": 7555,
  "xiang2 ": 7556,
  "qing4 ": 7557,
  " bao3 ": 7558,
  "wei2 yi1 ": 7559,
  "cao3 ": 7560,
  "dang1 di4 ": 7561,
  "guo2 ji4 ": 7562,
  "dui4 de ": 7563,
  "bo2 wu4 ": 7564,
  " fei1 ": 7565,
  " jian4 li4 ": 7566,
  "hun1 ": 7567,
  " di4 guo2 ": 7568,
  " bu4 yu2 ": 7569,
  " 1 ": 7570,
  "fan3 dui4 ": 7571,
  "zou3 ": 7572,
  "qi1 de ": 7573,
  "duan1 ": 7574,
  "wu4 de ": 7575,
  "xue4 ": 7576,
  "yin1 wei4 ": 7577,
  "qu1 yu4 ": 7578,
  "qu4 shi4 ": 7579,
  "kuan3 ": 7580,
  "yi1 bu4 fen4 ": 7581,
  "wo4 ": 7582,
  "ba2 gao1 ": 7583,
  " chang2 ": 7584,
  "que1 ": 7585,
  "2001 nian2 ": 7586,
  "guan3 xia2 ": 7587,
  "du4 wei4 ": 7588,
  "zheng4 zhi4 ren2 wu4 ": 7589,
  " ka3 ": 7590,
  "peng2 ": 7591,
  "ni2 ya4 ": 7592,
  "hai2 you3 ": 7593,
  "   ren2 kou3 ": 7594,
  " fa1 ": 7595,
  " dang1 di4 ": 7596,
  "zui4 zhong1 ": 7597,
  " ta1 shi4 ": 7598,
  " dan1 ": 7599,
  " bu4 dui4 ": 7600,
  " yue1 ": 7601,
  "lai2 zi4 ": 7602,
  "chi4 ": 7603,
  " xing2 shi4 ": 7604,
  " 1": 7605,
  "bi3 sai4": 7606,
  "qian2 wang3 ": 7607,
  " wei1 ": 7608,
  "zhi2 ye4 ": 7609,
  "ding4 de ": 7610,
  "quan2 guo2 ": 7611,
  "ba1 shi4 ": 7612,
  "yi1 bu4 ": 7613,
  " de yuan2 ": 7614,
  " zheng4 fu3": 7615,
  " chu2 ": 7616,
  "zhong4 yao4 ": 7617,
  " lin2 ": 7618,
  "diao4 cha2 ": 7619,
  " zhi1 jian1 ": 7620,
  "bian1 ma3 wei4 ": 7621,
  " huang2 ": 7622,
  " nian2 jian1 ": 7623,
  " xue2 ming2 ": 7624,
  "xue2 xiao4 ": 7625,
  "zhao1 ": 7626,
  "zhu3 xi2 ": 7627,
  "xuan3 ju3 ": 7628,
  " ri4 zhi4 ": 7629,
  "gai3 wei2 ": 7630,
  "zu3 zhi1": 7631,
  " mei2 ": 7632,
  " nei4 ": 7633,
  "zhu3 jiao4 ": 7634,
  "fa2 ": 7635,
  "zi1 liao4 ": 7636,
  " jing4 ": 7637,
  "hai3 jun1 ": 7638,
  "gong1 shi4 ": 7639,
  " jun1 shi4 ": 7640,
  " de da4 ": 7641,
  " ren2 kou3 mi4 du4 ": 7642,
  "chu3 li3 ": 7643,
  "kang4 ": 7644,
  "zai1 ": 7645,
  "sun1 ": 7646,
  " de yi4 ": 7647,
  "fang1 fa3 ": 7648,
  "fu4 ze2 ": 7649,
  " ri4 ben3": 7650,
  "wu1 ke4 lan2 ": 7651,
  "   yu3 ": 7652,
  " duo1": 7653,
  "guan4 ": 7654,
  " bo1 ": 7655,
  " jie4 ": 7656,
  "shu4 de ": 7657,
  " you3 xian4": 7658,
  " sheng4 ": 7659,
  "dai4 biao3": 7660,
  " qi3 ": 7661,
  " san1": 7662,
  " ge4 ren2 ": 7663,
  " hua4 ": 7664,
  "wu2 fa3 ": 7665,
  "ying3 xiang3": 7666,
  " ji4 shu4 ": 7667,
  " shi4 you2 ": 7668,
  "jie1 rang3": 7669,
  "ju1 min2 ": 7670,
  "zui4 gao1 ": 7671,
  " kai1 ": 7672,
  " gai3 ": 7673,
  "pa4 ": 7674,
  "qi2 zhong1 ": 7675,
  "lu4 de ": 7676,
  " ci4 ": 7677,
  " hong2 ": 7678,
  " ze2": 7679,
  "xue2 sheng1 ": 7680,
  " zhi1 chi2 ": 7681,
  "zi4 you2 ": 7682,
  "wen3 ": 7683,
  "biao1 zhun3 ": 7684,
  "xie2 hui4 ": 7685,
  "shu4 liang4": 7686,
  "qie4 ": 7687,
  "an1 quan2 ": 7688,
  "fan3 ying4 ": 7689,
  "ke3 yi3": 7690,
  "hui4 zai4 ": 7691,
  "yao1 ": 7692,
  "shen4 zhi4 ": 7693,
  "ken3 ": 7694,
  "ye2 ": 7695,
  "bi3 li4 ": 7696,
  "tong3 zhi4 ": 7697,
  " 2 ": 7698,
  "xi4 lie4 ": 7699,
  " sui2 ": 7700,
  "chuang4 zuo4 ": 7701,
  "zhu3 ren4 ": 7702,
  " xin1": 7703,
  "   ben3 ": 7704,
  "dong1 bu4 ": 7705,
  " de yi2 ge4 shi4 zhen4 ": 7706,
  " shi4 yi2 ge4 ": 7707,
  " nan2": 7708,
  "lian2 meng2 ": 7709,
  " gong1 si1": 7710,
  "gai1 guo2 ": 7711,
  "kai3 ": 7712,
  " fu4 ze2 ": 7713,
  " ming2": 7714,
  "fan2 ": 7715,
  "ya3 ": 7716,
  " di4 san1 ": 7717,
  " di4 shi2 ": 7718,
  "   xing2 zheng4 ": 7719,
  " su1 ": 7720,
  "ti3 yu4 ": 7721,
  " bu4 guo4 ": 7722,
  "jie2 gou4 ": 7723,
  "niu2 ": 7724,
  " dao4 de ": 7725,
  "shi2 nian2 ": 7726,
  "qing2 kuang4 ": 7727,
  "neng2 li4 ": 7728,
  "nan2 zi ": 7729,
  " shui3 ": 7730,
  "zhong1 shi4 ": 7731,
  "qing2 kuang4": 7732,
  "si4 nian2 ": 7733,
  "   of": 7734,
  "A ": 7735,
  " ge1 ": 7736,
  " yang2 ": 7737,
  "xi1 bu4 ": 7738,
  "hao2 ": 7739,
  "gong1 bu4 ": 7740,
  "sheng1 huo2 ": 7741,
  "jie1 shou4 ": 7742,
  "mou3 ": 7743,
  "nv3 zi3 ": 7744,
  " ao4": 7745,
  "lu4 xian4 ": 7746,
  "cheng2 li4 ": 7747,
  "   formula ": 7748,
  "suo1 ": 7749,
  " zhong1 xue2 ": 7750,
  "gu1 ": 7751,
  "huan1 ": 7752,
  "9 ": 7753,
  "mian4 de ": 7754,
  " jin4 ru4 ": 7755,
  "yi4 shi4 ": 7756,
  " er3 si1 ": 7757,
  "   of   ": 7758,
  " zhu3 yao4 ": 7759,
  "bei3 jing1 ": 7760,
  " ke3 yi3 ": 7761,
  "the   ": 7762,
  " ba1": 7763,
  "you3 shi2 ": 7764,
  "lian2 sai4 ": 7765,
  " yi4 hui4 ": 7766,
  "guang3 dong1 ": 7767,
  "duo2 ": 7768,
  " ao4 ": 7769,
  "   jia1 ": 7770,
  "lao2 ": 7771,
  " tai2 ": 7772,
  "jian4 zhu4 ": 7773,
  "ya4 zhou1 ": 7774,
  "dao3 de ": 7775,
  " guo2 min2 ": 7776,
  "ye3 shi4 ": 7777,
  "na2 da4 ": 7778,
  "tai4 ping2 ": 7779,
  "dong4 wu4 ": 7780,
  " suo3 yi3 ": 7781,
  "di4 wei4 ": 7782,
  "ran3 ": 7783,
  "gui3 ": 7784,
  " zhe4 shi4 ": 7785,
  "ba2 gao1 du4 ": 7786,
  "da2 dao4 ": 7787,
  "zi4 ji3 de ": 7788,
  "li3 shi4 ": 7789,
  "zhu2 jian4 ": 7790,
  "zhuan4 ": 7791,
  " bing4 qie3": 7792,
  "dai4 de ": 7793,
  "ban3 ben3 ": 7794,
  "xu3 duo1": 7795,
  "zhe3 de ": 7796,
  "jiao4 shou4 ": 7797,
  " hai2 ": 7798,
  " er4 ": 7799,
  "2008 nian2 ": 7800,
  "xiang4 mu4 ": 7801,
  " xue2 xiao4 ": 7802,
  " hu2 ": 7803,
  " da4": 7804,
  "wu1 ke4 lan2": 7805,
  " mu3 ": 7806,
  "fei1 chang2 ": 7807,
  "2009 nian2 ": 7808,
  " xi1 ya4 ": 7809,
  "qing1 nian2 ": 7810,
  " zong3": 7811,
  " bing4 qie3 ": 7812,
  " zhu3 yao4": 7813,
  "s ": 7814,
  "la1 si1 ": 7815,
  "   gen1 ju4 ": 7816,
  "yi1 shi4 ": 7817,
  " cheng2 wei2": 7818,
  "ri4 ben3": 7819,
  "mo2 shi4 ": 7820,
  "zhe2 ": 7821,
  "niao3 ": 7822,
  "wen2 wu4 ": 7823,
  " ta1 men de ": 7824,
  " yi4 shu4 ": 7825,
  "zhi3 you3 ": 7826,
  "cha1 ": 7827,
  "kuan1 ": 7828,
  " ji4 lu4 ": 7829,
  " zhou1 de ": 7830,
  " ai4 ": 7831,
  " min2 ": 7832,
  "hang2 kong1 ": 7833,
  " yu2 shi4 ": 7834,
  "wen2 xue2 ": 7835,
  " bo2 ": 7836,
  "fen1 wei2 ": 7837,
  "suan1 ": 7838,
  "hui3 ": 7839,
  " qi2 shi4 ": 7840,
  " qi2 yu2 ": 7841,
  "deng3 ren2 ": 7842,
  "tong1 guo4": 7843,
  "cang2 ": 7844,
  "zhi3 chu1 ": 7845,
  "shuai4 ": 7846,
  "28 ri4 ": 7847,
  " yong4 ": 7848,
  "ren2 kou3 pu3 ": 7849,
  "cuo4 ": 7850,
  "zhi2 xing2 ": 7851,
  " jin1": 7852,
  "tong2 shi2 ": 7853,
  " qiu2 dui4 ": 7854,
  "zha4 ": 7855,
  " li4 ya4": 7856,
  "yan3 chu1 ": 7857,
  "zhi2 jie1 ": 7858,
  "gai1 di4 ": 7859,
  "jin3 biao1 ": 7860,
  "ge2 lan2 ": 7861,
  "2016 nian2 ": 7862,
  "huo2 dong4": 7863,
  "ren4 wei2": 7864,
  "zhe4 yi1 ": 7865,
  "jin4 ru4 ": 7866,
  " zhi1 jian1 de ": 7867,
  " gong1 kai1 ": 7868,
  " dang1 zhong1 ": 7869,
  "hun4 ": 7870,
  "gong4 tong2 ": 7871,
  "xia4 ji4 ": 7872,
  " dan4 zai4 ": 7873,
  " 2": 7874,
  "chou2 ": 7875,
  "zhan4 zheng1 ": 7876,
  "wu3 nian2 ": 7877,
  "jiang1 jun1 ": 7878,
  " wu2": 7879,
  "le4 bu4 ": 7880,
  "mei2 ti3 ": 7881,
  "ti3 de ": 7882,
  "che1 zhan4": 7883,
  "po1 ": 7884,
  "15 ri4 ": 7885,
  "ti4 ": 7886,
  "meng4 ": 7887,
  "tui1 chu1 ": 7888,
  "die2 ": 7889,
  "jiao4 yu4": 7890,
  "yun3 ": 7891,
  "zhe4 xie1 ": 7892,
  " shi4 wu4 ": 7893,
  "miao4 ": 7894,
  "li2 kai1 ": 7895,
  " yin3 ": 7896,
  " ling4 wai4 ": 7897,
  "huan2 jing4 ": 7898,
  "teng2 ": 7899,
  "zhu2 ": 7900,
  "2012 nian2 ": 7901,
  "lin2 pi3": 7902,
  " di4 er4": 7903,
  "shang1 ye4 ": 7904,
  " C": 7905,
  "2011 nian2 ": 7906,
  "chuan2 tong3 ": 7907,
  "   nian2": 7908,
  "guan1 de ": 7909,
  "san1 shi2 ": 7910,
  "jun1 shi4 ": 7911,
  "dan1 qu1 ": 7912,
  "liang4 de ": 7913,
  "jie1 dao4 ": 7914,
  "san4 ": 7915,
  "ji1 de ": 7916,
  "qian2 de ": 7917,
  "ren2 zai4 ": 7918,
  "zang4 ": 7919,
  "nei4 rong2 ": 7920,
  "sai4 ji4 ": 7921,
  "gao1 de ": 7922,
  "dong4 hua4 ": 7923,
  "bo2 shi4 ": 7924,
  "du4 de ": 7925,
  " wei4 ren2 ": 7926,
  "yin2 hang2 ": 7927,
  " mi3": 7928,
  "xuan3 ju3": 7929,
  " wei4 zhi4 ": 7930,
  " gu4 ": 7931,
  "sun3 ": 7932,
  "cheng2 zhong1 ": 7933,
  "ming4 ming2 ": 7934,
  "deng3 di4 ": 7935,
  " gong1 lu4 ": 7936,
  "bang3 ": 7937,
  "re4 dai4 ": 7938,
  "bei3 jing1": 7939,
  " zhe4 ge ": 7940,
  " shi2 ji4 ": 7941,
  "yun4 dong4 hui4 ": 7942,
  "xuan3 ze2 ": 7943,
  " da4 li4 ": 7944,
  " er2 zai4 ": 7945,
  " han4 ": 7946,
  "yuan2 nian2 ": 7947,
  "bao4 gao4 ": 7948,
  " ye4 ": 7949,
  " mu4 qian2 ": 7950,
  " de he2 ": 7951,
  "bo1 chu1 ": 7952,
  "zui4 jia1 ": 7953,
  "   ju4 ": 7954,
  "zong1 jiao4 ": 7955,
  "xue2 wei4 ": 7956,
  "tu3 di4 ": 7957,
  " de2 dao4 ": 7958,
  "wen2 hua4": 7959,
  "zui4 hou4 ": 7960,
  "tuan2 ti3 ": 7961,
  "25 ri4 ": 7962,
  " di4 fang1 ": 7963,
  "gui3 dao4 ": 7964,
  "luan4 ": 7965,
  " wei4 di4 ": 7966,
  " mo2 ": 7967,
  " zhan4": 7968,
  "jing1 li4 ": 7969,
  "xi4 de ": 7970,
  " zhi1 qian2 ": 7971,
  "sheng3 de yi2 ge4 shi4 zhen4 ": 7972,
  " shi4 yi1 zhong3 ": 7973,
  " shi4 wei4 yu2 mei3 guo2 ": 7974,
  " qi4 ": 7975,
  "sui4 ": 7976,
  " xing4 ": 7977,
  "ji2 zhong1 ": 7978,
  " ge4 yue4 ": 7979,
  " jun1 de ": 7980,
  "si3 wang2 ": 7981,
  "xiang1 guan1 ": 7982,
  " bao1 kuo4": 7983,
  "30 ri4 ": 7984,
  "fen1 bie2": 7985,
  " ji1 gou4 ": 7986,
  "wei4 de ": 7987,
  "shou3 ci4 ": 7988,
  "ao4 lin2 pi3": 7989,
  " 12": 7990,
  "B ": 7991,
  "ling3 dao3 ": 7992,
  " you3 guan1 ": 7993,
  " hai3 ba2 gao1 du4 ": 7994,
  " yi1 xie1 ": 7995,
  " zhong4 ": 7996,
  " tong2 nian2 ": 7997,
  " jue2 ": 7998,
  "yong4 de ": 7999,
  "2014 nian2 ": 8000,
  "huai2 ": 8001,
  "   wei4 ": 8002,
  "20 ri4 ": 8003,
  " xing2 dong4 ": 8004,
  "xue3 ": 8005,
  " zai4 yi1 ": 8006,
  "ji1 yu2 ": 8007,
  " zhong1 hua2 min2 guo2 ": 8008,
  "shui3 yu4 ": 8009,
  " 5 ": 8010,
  "bian4 hua4 ": 8011,
  "10 ri4 ": 8012,
  "shang4 wei4 ": 8013,
  " ji2 tuan2": 8014,
  "2018 nian2 ": 8015,
  " ji4 xu4 ": 8016,
  "zhi1 yi1 ": 8017,
  " shi2 dai4 ": 8018,
  "chu3 yu2 ": 8019,
  "wan4 ": 8020,
  "UTC ": 8021,
  "gong4 he2 ": 8022,
  " wai4 ": 8023,
  " bai2 ": 8024,
  "mei3 yuan2 ": 8025,
  " bu4 zhang3 ": 8026,
  "zi4 ji3 ": 8027,
  " zi ": 8028,
  "jie2 shu4 ": 8029,
  "2019 nian2 ": 8030,
  " 14": 8031,
  " zi4 ji3": 8032,
  "zhi1 chi2 ": 8033,
  "de   ": 8034,
  "2005 nian2 ": 8035,
  "guo4 cheng2 ": 8036,
  " hou4 lai2": 8037,
  "min2 zu2 ": 8038,
  "shun4 ": 8039,
  "2015 nian2 ": 8040,
  "kong1 jian1 ": 8041,
  "shui4 ": 8042,
  "mei4 ": 8043,
  "bu2 hui4 ": 8044,
  "ye4 yu2 ": 8045,
  " ru2": 8046,
  " cheng1 ": 8047,
  "tou4 guo4 ": 8048,
  "nei4 bu4 ": 8049,
  "2013 nian2 ": 8050,
  " si4": 8051,
  "jie3 fang4": 8052,
  " zhi2 dao4 ": 8053,
  " yi4 zhi2 ": 8054,
  " jing3 ": 8055,
  "xin1 wen2 ": 8056,
  "fen1 bu4 ": 8057,
  "gen1 ju4": 8058,
  " ai4": 8059,
  " zhou1 shi4 ": 8060,
  "pi1 ping2 ": 8061,
  " ji2 tuan2 ": 8062,
  " jiu4": 8063,
  "2007 nian2 ": 8064,
  " shu3 ": 8065,
  "di4 qu1 ": 8066,
  "   zhe4 ": 8067,
  " he2 nan2 ": 8068,
  "ta1 men": 8069,
  " shi4 shi2 ": 8070,
  " you3 xian4 gong1 si1 ": 8071,
  "wan2 jia1 ": 8072,
  "gui1 ding4 ": 8073,
  " shen2 ": 8074,
  " jia1 ru4 ": 8075,
  "ge2 ming4 ": 8076,
  "wan2 quan2 ": 8077,
  "cheng2 wei2 ": 8078,
  " tang2 ": 8079,
  "xi1 ban1 ": 8080,
  "zi1 ge2 ": 8081,
  "26 ri4 ": 8082,
  "da4 lu4 ": 8083,
  "ao4 lin2 pi3 ke4 ": 8084,
  "   gai1 ": 8085,
  "18 ri4 ": 8086,
  "2017 nian2 ": 8087,
  " da4 hui4 ": 8088,
  "24 ri4 ": 8089,
  " mo4 ": 8090,
  "zai4 de ": 8091,
  "za2 zhi4 ": 8092,
  "   yi1 ": 8093,
  " zhe4 zhong3 ": 8094,
  " tou2 ": 8095,
  "ying1 yu3 ": 8096,
  "lu4 di4 ": 8097,
  " ying1 guo2 ": 8098,
  " ke3": 8099,
  "he2 de ": 8100,
  "shang4 hai3 ": 8101,
  "hao2 mi3 ": 8102,
  " yu3 yan2 ": 8103,
  "qi2 ta1": 8104,
  "qi3 ye4 ": 8105,
  "pu2 tao2 ": 8106,
  "fang1 de ": 8107,
  "hou4 yi1 ": 8108,
  "luo2 ma3 ": 8109,
  "wen4 ti2": 8110,
  " cheng2 qu1 ": 8111,
  "san1 ge4 ": 8112,
  "se4 de ": 8113,
  "2006 nian2 ": 8114,
  "chuan2 tong3": 8115,
  " shi4 fa3 guo2 ": 8116,
  "yi1 de ": 8117,
  "wu4 zhong3 ": 8118,
  " yao4 ": 8119,
  "11 ": 8120,
  " wei4 yu2 gai1 guo2 ": 8121,
  " 3 ": 8122,
  " tai2 wan1 ": 8123,
  " ha1 ": 8124,
  " li3 si1 ": 8125,
  "jing4 nei4 ": 8126,
  " bu4 tong2 de ": 8127,
  " mo4": 8128,
  "wu4 li3 ": 8129,
  "duo1 de ": 8130,
  "shu4 wei4 ": 8131,
  " dai4 biao3": 8132,
  "biao3 xian4 ": 8133,
  " shi4 jie4 da4 ": 8134,
  "sheng3 ji2 ": 8135,
  "miao2 shu4 ": 8136,
  "fa3 lv4 ": 8137,
  "gan4 ": 8138,
  "ba4 ": 8139,
  "guan1 yuan2 ": 8140,
  "jing1 guo4 ": 8141,
  " lu2 ": 8142,
  "chang1 ": 8143,
  "16 ri4 ": 8144,
  "17 ri4 ": 8145,
  " zui4 hou4 ": 8146,
  " yi4 ban1 ": 8147,
  "po4 huai4": 8148,
  " a1": 8149,
  " guo2 jia1": 8150,
  "ying2 de2 ": 8151,
  "cai4 ": 8152,
  " sui2 hou4 ": 8153,
  "zheng4 zai4 ": 8154,
  "na2 ": 8155,
  "bao1 han2 ": 8156,
  " shi4 jian4": 8157,
  "bo2 wu4 guan3 ": 8158,
  " gong1 ji1 ": 8159,
  "shen4 ": 8160,
  "ce4 shi4 ": 8161,
  "chang3 de ": 8162,
  " wei4 zhong1 ": 8163,
  "chun2 ": 8164,
  " li4 yong4 ": 8165,
  " chao2 ": 8166,
  "bu4 he2 ": 8167,
  " ci4": 8168,
  "nie4 ": 8169,
  "8 ri4 ": 8170,
  "ze2 shi4 ": 8171,
  "sou1 ": 8172,
  "fei1 ji1 ": 8173,
  " fen1 bu4 yu2 ": 8174,
  "zhuan1 ye4 ": 8175,
  "zheng1 yi4 ": 8176,
  "27 ri4 ": 8177,
  "fa3 yuan4 ": 8178,
  "shi3 de ": 8179,
  " di4 qu1": 8180,
  " 2001 nian2 ": 8181,
  "s   ": 8182,
  "yong1 ": 8183,
  "21 ri4 ": 8184,
  "yi4 shi2 ": 8185,
  "zao1 dao4 ": 8186,
  " sui1 ran2": 8187,
  " shi4 yi4 ": 8188,
  " sheng1 huo2 ": 8189,
  " chong2 ": 8190,
  "12 ri4 ": 8191,
  " bei4 cheng1 wei2 ": 8192,
  "ding4 yi4 ": 8193,
  " zhong1 xin1": 8194,
  " da4 qu1 ": 8195,
  "zong1 he2 ": 8196,
  " zhan4 zheng1 ": 8197,
  "xue2 de ": 8198,
  " xian4 shi2 ": 8199,
  "7 ri4 ": 8200,
  " zhong1 gong4": 8201,
  "19 ri4 ": 8202,
  "ji2 wei4 ": 8203,
  "23 ri4 ": 8204,
  "2021 nian2 ": 8205,
  "huang2 di4 ": 8206,
  " de zuo4 ": 8207,
  " zhu1 ": 8208,
  "zhi3 shi4 ": 8209,
  "2022 nian2 ": 8210,
  "11 ri4 ": 8211,
  "a1 la1 ": 8212,
  "ou1 zhou1": 8213,
  "jiang1 qi2 ": 8214,
  " bing4 bu4 ": 8215,
  "yuan2 yu2 ": 8216,
  "fang1 xiang4 ": 8217,
  "9 ri4 ": 8218,
  "liu4 nian2 ": 8219,
  "zhan4 de ": 8220,
  "e2 luo2 ": 8221,
  "   yu2 ": 8222,
  "chu1 xian4 ": 8223,
  "lie4 che1": 8224,
  "quan2 li4 ": 8225,
  "nao3 ": 8226,
  "gui1 mo2 ": 8227,
  "22 ri4 ": 8228,
  "29 ri4 ": 8229,
  "lie4 de ": 8230,
  "zui4 da4 de ": 8231,
  "duo1 shu4 ": 8232,
  "xiang4 de ": 8233,
  " lu4": 8234,
  " zhang1": 8235,
  "xu1 yao4": 8236,
  " long2 ": 8237,
  "hai2 shi4 ": 8238,
  "yu4 de ": 8239,
  "neng2 gou4 ": 8240,
  "yue1 han4 ": 8241,
  " zhe4 xie1": 8242,
  "5 ri4 ": 8243,
  "   ci3 ": 8244,
  "ding4 wei4 ": 8245,
  "tong3 ji4 ": 8246,
  " xiang1 gang3": 8247,
  "sang1 ": 8248,
  "   zheng4 zhi4 ": 8249,
  " zai4 zhe4 ": 8250,
  "xin4 xi1 ": 8251,
  "yang4 de ": 8252,
  " xian4 zhi4 ": 8253,
  "   the   ": 8254,
  "gong1 de ": 8255,
  "3 ri4 ": 8256,
  "hong1 ": 8257,
  "ju3 ban4": 8258,
  " fen1 bie2": 8259,
  "qiu2 dui4 ": 8260,
  "lian2 meng2": 8261,
  "ling4 yi1 ": 8262,
  "cha2 de ": 8263,
  "14 ri4 ": 8264,
  "chang2 shi4 ": 8265,
  "mei3 guo2 ren2 kou3 pu3 ": 8266,
  "6 ri4 ": 8267,
  "niu3 yue1": 8268,
  "zu3 he2 ": 8269,
  " huo4 de2": 8270,
  "lin2 shi2 ": 8271,
  "31 ri4 ": 8272,
  " zhong1 bu4 ": 8273,
  "wei4 shi4 ": 8274,
  "dong3 shi4 ": 8275,
  " jia4 ": 8276,
  " bao4 ": 8277,
  "ji1 di4 ": 8278,
  "ge1 shou3 ": 8279,
  " liu2": 8280,
  " ru4 ": 8281,
  "   zhong1 ": 8282,
  "dong1 nan2 ": 8283,
  "hai3 ba2": 8284,
  "bang1 zhu4 ": 8285,
  " de shi4 zhen4 ": 8286,
  " hua2 ": 8287,
  " gong4 ": 8288,
  "4 ri4 ": 8289,
  "pai1 she4 ": 8290,
  "mou2 ": 8291,
  " yi4 da4 li4 ": 8292,
  "21 ": 8293,
  "2000 nian2 ": 8294,
  " she4 li4 ": 8295,
  "13 ri4 ": 8296,
  " yi4 ban1": 8297,
  "2 ri4 ": 8298,
  " ren2 kou3": 8299,
  "ge4 ren2 ": 8300,
  "she4 you3 ": 8301,
  " de zhong1 ": 8302,
  "bing3 ": 8303,
  "sheng1 ya2 ": 8304,
  "yuan2 he2 ": 8305,
  " dao3 zhi4 ": 8306,
  " di4 qu1 de ": 8307,
  "2004 nian2 ": 8308,
  " xue2 sheng1 ": 8309,
  "tie3 lu4": 8310,
  "feng2 ": 8311,
  "zu2 qiu2": 8312,
  "zao3 qi1 ": 8313,
  " qi2 ta1": 8314,
  "The   ": 8315,
  "pan2 ": 8316,
  "xiong1 di4 ": 8317,
  "ruan3 ": 8318,
  "sheng1 zai4 ": 8319,
  "cang1 ": 8320,
  "dong1 bei3 ": 8321,
  " 13": 8322,
  "mu4 di4 ": 8323,
  " wo3": 8324,
  " bian4 ": 8325,
  "tong1 chang2 ": 8326,
  "hui1 fu4 ": 8327,
  " zhe4 yi1 ": 8328,
  " shi4 chang3 ": 8329,
  " xue2 yuan4 ": 8330,
  "shao1 ": 8331,
  " mei2 you3 ": 8332,
  " 4 ": 8333,
  "shen1 fen4 ": 8334,
  "   you2 yu2 ": 8335,
  "qu3 dai4 ": 8336,
  "lian2 bang1 ": 8337,
  "ge2 ming4": 8338,
  "zhi3 hui1 ": 8339,
  "qing2 kuang4 xia4 ": 8340,
  "yi2 bu4 ": 8341,
  "su1 lian2 ": 8342,
  "xie2 yi4 ": 8343,
  " fu4": 8344,
  "huang2 jia1 ": 8345,
  "ke1 ji4 ": 8346,
  "fa1 xian4": 8347,
  "pang2 ": 8348,
  "zheng3 ge4 ": 8349,
  " hei1 ": 8350,
  "ren2 he2 ": 8351,
  " gong1 chi3 ": 8352,
  "yao1 qiu2": 8353,
  "yan1 ": 8354,
  "zhan1 ": 8355,
  "chao1 ji2 ": 8356,
  "mao4 yi4 ": 8357,
  "yue4 de ": 8358,
  "zhang3 de ": 8359,
  "xue2 yuan4": 8360,
  "fan3 ying4": 8361,
  "ju3 ban4 ": 8362,
  "hang2 kong1": 8363,
  "cui1 ": 8364,
  "xi2 ji1 ": 8365,
  " ye3 you3 ": 8366,
  "nv3 xing4 ": 8367,
  "hua4 he2 ": 8368,
  "xiao3 shuo1 ": 8369,
  " di4 li4 ": 8370,
  "ting3 ": 8371,
  " shu1 ": 8372,
  "li4 he2 ": 8373,
  " xi1 nan2 ": 8374,
  "tu2 shu1 ": 8375,
  "guan1 fang1 ": 8376,
  "xian1 hou4 ": 8377,
  "tong3 yi1 ": 8378,
  "bi4 ye4 ": 8379,
  " ha1": 8380,
  "za2 ": 8381,
  " gu4": 8382,
  " shuang1 ": 8383,
  "br ": 8384,
  " dong1": 8385,
  " wei1": 8386,
  "zun1 ": 8387,
  " 15": 8388,
  " man4 ": 8389,
  " que4 ": 8390,
  "sai4 de ": 8391,
  "hou2 ": 8392,
  " yi3 jing1": 8393,
  " br ": 8394,
  "lan3 ": 8395,
  "xie2 zhu4 ": 8396,
  "ci4 shi4 jie4 da4 ": 8397,
  " ru2 guo3 ": 8398,
  "me ": 8399,
  "shang4 shi4 ": 8400,
  "qu1 hua4 ": 8401,
  "fen1 xi1 ": 8402,
  " qian1 ": 8403,
  "yu3 de ": 8404,
  " er3 sheng3 ": 8405,
  "ren2 kou3 shu4 liang4": 8406,
  "wen2 wu4 bao3 hu4 ": 8407,
  " 3": 8408,
  " he2 yi1 ": 8409,
  " bu4 neng2 ": 8410,
  "zi4 xing2 ": 8411,
  " ben3": 8412,
  "jie1 duan4 ": 8413,
  " zu3 ": 8414,
  " qie3 ": 8415,
  "guang3 bo1 ": 8416,
  "20 ": 8417,
  " cai2 ": 8418,
  " 6 ": 8419,
  " yi3 lai2 ": 8420,
  " xi1 ban1 ": 8421,
  "dan1 ren4": 8422,
  " wu3": 8423,
  " ta1 ceng2": 8424,
  "chi2 xu4 ": 8425,
  "tai2 bei3": 8426,
  "wu2 xian4 ": 8427,
  " A": 8428,
  "gong4 chan3 dang3 ": 8429,
  "guo2 he2 ": 8430,
  " yi3 xia4 ": 8431,
  "qi1 nian2 ": 8432,
  "te4 de ": 8433,
  "dao3 yan3 ": 8434,
  "hou4 yu2 ": 8435,
  "reng2 ": 8436,
  "yan3 chang4": 8437,
  "zhu4 zai4 ": 8438,
  "lai4 ": 8439,
  "fa1 biao3": 8440,
  "xia4 xia2": 8441,
  "tiao2 jian4 ": 8442,
  "pin2 dao4 ": 8443,
  "hu3 ": 8444,
  " gong1 zuo4": 8445,
  "ye4 de ": 8446,
  "jiao1 yi4 ": 8447,
  " zai4 ci4 ": 8448,
  " jiu3 ": 8449,
  "shao4 nian2 ": 8450,
  "jie2 shu4": 8451,
  " shi4 zhong1 guo2 ": 8452,
  "zao1 ": 8453,
  "bao4 dao4 ": 8454,
  " ren2 kou3 mi4 du4 wei4 ": 8455,
  "qiu2 yuan2 ": 8456,
  " shi4 li4 ": 8457,
  " qie3": 8458,
  "   bu4 ": 8459,
  " zhe4 ge": 8460,
  "jue2 sai4 ": 8461,
  " 8": 8462,
  " ya4 ": 8463,
  "ying4 yong4 ": 8464,
  "wai4 de ": 8465,
  "you2 zheng4 ": 8466,
  "jian4 li4 ": 8467,
  "zi1 yuan2 ": 8468,
  "sai1 er3 ": 8469,
  " qi2 hou4 ": 8470,
  " zhao4 ": 8471,
  " xi1": 8472,
  "zui4 da4 ": 8473,
  " bing4 wei4 ": 8474,
  " 17": 8475,
  "hui2 dao4 ": 8476,
  "su4 du4 ": 8477,
  " S": 8478,
  "cao1 ": 8479,
  "qi4 hou4 ": 8480,
  "ke3 da2 ": 8481,
  " luo4 ": 8482,
  " wei4 yu2 fa3 guo2 ": 8483,
  "gai3 ge2 ": 8484,
  "mi4 shu1 ": 8485,
  " yi1 yuan4 ": 8486,
  "dian4 shi4 ju4 ": 8487,
  "zhuang4 tai4 ": 8488,
  "zhu4 de ": 8489,
  "fen4 wei4 ": 8490,
  " lan2 ": 8491,
  " gong1 ye4 ": 8492,
  "wang3 zhan4 ": 8493,
  "gong1 si1 ": 8494,
  " jie3 ": 8495,
  "jie2 guo3 ": 8496,
  "suo3 shu3 de ": 8497,
  " de di4 yi1 ": 8498,
  "hu2 nan2 ": 8499,
  " yi1 si1 ": 8500,
  " mai4": 8501,
  "ya4 li4 ": 8502,
  " wei4 yi1 ": 8503,
  "shang4 hai3": 8504,
  "20 shi4 ji4 ": 8505,
  " zuo4 pin3 ": 8506,
  "zuo3 you4 ": 8507,
  "xiao3 xue2 ": 8508,
  "sheng4 li4 ": 8509,
  "jie2 he2 ": 8510,
  " zhong1 gong4 ": 8511,
  "shou3 ci4": 8512,
  " suo3 you3 ": 8513,
  " hao4 xian4 ": 8514,
  "zhen4 qu1 ": 8515,
  " de fu4 ": 8516,
  "wen2 ming2 ": 8517,
  " jian3 cheng1 ": 8518,
  "kai1 fa1": 8519,
  "yi2 zhi4 ": 8520,
  "jiao4 hui4 ": 8521,
  "sheng3 fen4 ": 8522,
  "zhan3 kai1 ": 8523,
  "yin4 du4": 8524,
  "shi2 qi1 ": 8525,
  " fa3 guo2 ": 8526,
  "ling3 dao3": 8527,
  "mu4 biao1 ": 8528,
  " 10": 8529,
  " er2 shi4 ": 8530,
  "gao1 ji2 ": 8531,
  "zhun3 bei4 ": 8532,
  "wang3 luo4 ": 8533,
  " fei1": 8534,
  " jian4 she4 ": 8535,
  "xun4 lian4 ": 8536,
  "ke1 de ": 8537,
  "juan3 ": 8538,
  " ren2 wu4 ": 8539,
  "xuan3 shou3 ": 8540,
  "jiao1 tong1": 8541,
  "hao3 de ": 8542,
  "fa1 biao3 ": 8543,
  "zi4 ran2 ": 8544,
  "zhong4 yao4 de ": 8545,
  " jia3 ": 8546,
  "dong1 jing1 ": 8547,
  "chan3 pin3 ": 8548,
  "gong4 you3 ren2 kou3 ": 8549,
  " xian4 dai4 ": 8550,
  " yi1 ming2 ": 8551,
  " xi1 bei3 ": 8552,
  "lei3 ": 8553,
  "feng1 ge2 ": 8554,
  " cheng2 ji4 ": 8555,
  "zou4 ": 8556,
  " he2 di4 ": 8557,
  "xiao3 xing2 xing1 ": 8558,
  "yan2 zhong4 ": 8559,
  "zi de ": 8560,
  "mie4 ": 8561,
  "mu4 qian2 ": 8562,
  "wen2 wu4 bao3 hu4 dan1 wei4 ": 8563,
  " dan1 ren4 ": 8564,
  " ji1 chang3 ": 8565,
  "liu2 xing2 ": 8566,
  "bian4 cheng2 ": 8567,
  " guang1 ": 8568,
  " mai4 ": 8569,
  "qiao2 zhi4 ": 8570,
  " 16": 8571,
  "lei4 si4": 8572,
  "dian4 shi4 tai2 ": 8573,
  "12 ": 8574,
  "jie3 shi4 ": 8575,
  "guo2 min2 ": 8576,
  " yi4 qi3 ": 8577,
  " yong3 ": 8578,
  "kai1 fang4 ": 8579,
  " shen4 zhi4 ": 8580,
  " deng3": 8581,
  " xia4 ling4": 8582,
  " yi2 ge4 ": 8583,
  "ka3 er3 ": 8584,
  "2003 nian2 ": 8585,
  "xing2 shi4 ": 8586,
  "dou1 you3 ": 8587,
  "2002 nian2 ": 8588,
  " chu2 le ": 8589,
  "zhi1 hou4 ": 8590,
  "hui4 he2 ": 8591,
  "mei3 ping2 fang1 gong1 li3 ": 8592,
  "ru4 le ": 8593,
  " yi1 yang4 ": 8594,
  " gong1 fen1 ": 8595,
  " she4 zhi4 ": 8596,
  "te4 zheng1 ": 8597,
  "can1 sai4 ": 8598,
  " si1 ji1 ": 8599,
  " wu1 ": 8600,
  "30 ": 8601,
  "ru2 xia4 ": 8602,
  "zhen1 dui4 ": 8603,
  " ying1 chi3 ": 8604,
  "jiu4 shi4 zhen4 ": 8605,
  " shi4 fou3": 8606,
  "bang4 ": 8607,
  " shi2 jian1": 8608,
  "gao1 zhong1 ": 8609,
  " ci3 hou4 ": 8610,
  " zai4 zhong1 ": 8611,
  " che1 ": 8612,
  "wang2 guo2 ": 8613,
  "bi4 xu1 ": 8614,
  "bi3 jiao4 ": 8615,
  " biao3 shi4 ": 8616,
  "er4 shi4 ": 8617,
  "diao1 ": 8618,
  "wai4 jiao1": 8619,
  "gui1 hua4 ": 8620,
  " yu3": 8621,
  " yi4 zhi4 ": 8622,
  "lei4 si4 ": 8623,
  "zhe4 ge ": 8624,
  "shan1 dong1 ": 8625,
  " ran2 hou4 ": 8626,
  " yi4 zhi2": 8627,
  " li4 shu3 yu2 ": 8628,
  "yuan2 shi4 ": 8629,
  " sui1 ran2 ": 8630,
  "dui4 zai4 ": 8631,
  "zhu4 ming2 ": 8632,
  "yun2 nan2 ": 8633,
  " shang1 ": 8634,
  "hen3 duo1 ": 8635,
  " er3 de ": 8636,
  "huo4 de2": 8637,
  "sheng1 chan3 ": 8638,
  " 9": 8639,
  " D": 8640,
  "   gong1 ": 8641,
  "zhan4 yi4 ": 8642,
  " bei3": 8643,
  " tu2 ": 8644,
  "zhong4 de ": 8645,
  "dian4 zi ": 8646,
  "   da4 ": 8647,
  " jian4 zhi4 ": 8648,
  "xin1 jia1 ": 8649,
  "lai2 zi4": 8650,
  "zhi4 zuo4 ": 8651,
  "shan1 xi1 ": 8652,
  "ren2 kou3 shu4 liang4 wei4 ren2 ": 8653,
  " gu3": 8654,
  "ju4 ji2 ": 8655,
  "tao4 ": 8656,
  " de yi1 zhong3 ": 8657,
  " E": 8658,
  " de ming2 ": 8659,
  " wan4 ren2 ": 8660,
  "ji2 he2 ": 8661,
  " xi1 ya4": 8662,
  "lv3 you2 ": 8663,
  " zhi4 zao4 ": 8664,
  " xing2 wei2 ": 8665,
  "ma3 lai2": 8666,
  "bao4 fa1 ": 8667,
  "0 ": 8668,
  "nv3 er2 ": 8669,
  " ren4": 8670,
  " INSEE": 8671,
  "zong3 li3 ": 8672,
  "quan2 qiu2 ": 8673,
  " zu3": 8674,
  "si1 he2 ": 8675,
  " dui4 yu2 ": 8676,
  " de zhu3 ": 8677,
  "sai4 zhong1 ": 8678,
  " shang4 hai3 ": 8679,
  "fa1 she4 ": 8680,
  "rui4 shi4 ": 8681,
  "bao1 han2": 8682,
  "nong2 ye4 ": 8683,
  "cha4 ": 8684,
  "ye4 wu4 ": 8685,
  "lu4 jun1 ": 8686,
  "tou2 zi1 ": 8687,
  "wu4 zhi4 ": 8688,
  "jue2 de ": 8689,
  "nai4 ": 8690,
  " fen1 zhong1 ": 8691,
  " jin4 shi4 ": 8692,
  " de shi2 hou4 ": 8693,
  " te4 bie2": 8694,
  "te4 bie2 ": 8695,
  "ao4 lin2 pi3 ke4 yun4 dong4 hui4 ": 8696,
  "ge2 de ": 8697,
  " zhi4 jin1 ": 8698,
  "fang1 an4 ": 8699,
  "si1 ren2 ": 8700,
  "hua4 xue2 ": 8701,
  "min3 ": 8702,
  " da4 liang4 ": 8703,
  "ji2 shi4 ": 8704,
  " ni2 ": 8705,
  "qian3 ": 8706,
  "ke3 neng2 shi4 ": 8707,
  " nian2 du4 ": 8708,
  "jin4 de ": 8709,
  " zhi1 wai4 ": 8710,
  "si4 shi2 ": 8711,
  "cao2 ": 8712,
  " geng4 ": 8713,
  "lian2 jie1 ": 8714,
  " zheng4 shi4 ": 8715,
  " 00": 8716,
  "xuan3 wei4 ": 8717,
  " she4 shi1 ": 8718,
  "chu4 de ": 8719,
  "tu3 er3": 8720,
  " li4 si1 ": 8721,
  "bo2 te4 ": 8722,
  " zong3 mian4 ji1 ": 8723,
  "fa1 dong4 ": 8724,
  "luo2 ma3": 8725,
  "chuang4 li4 ": 8726,
  " de li4 ": 8727,
  " nian2 hou4 ": 8728,
  " de2 li3 ": 8729,
  "guang3 chang3 ": 8730,
  "lian2 he2 guo2 ": 8731,
  "ji2 shi2 ": 8732,
  "geng1 ming2 wei4 ": 8733,
  "zao3 nian2 ": 8734,
  "xiao4 li4 ": 8735,
  "qi4 de ": 8736,
  " zhen1 ": 8737,
  "biao3 yan3 ": 8738,
  "yi2 shi4 ": 8739,
  " jun1 zai4 ": 8740,
  "reng2 ran2 ": 8741,
  "fang1 mian4": 8742,
  "jue2 ding4": 8743,
  " gai1 sheng3 ": 8744,
  "da1 ": 8745,
  " xian1 ": 8746,
  " xiang4": 8747,
  " han2 ": 8748,
  "zhi4 shi4 ": 8749,
  " gong1 neng2 ": 8750,
  "zong3 tong3": 8751,
  " ren2 kou3 mi4 du4 mei3 ping2 fang1 gong1 li3 ": 8752,
  " 6": 8753,
  " ren2 kou3 mi4 du4 wei4 mei3": 8754,
  " xia4 ling4 shi2 ": 8755,
  "you2 zheng4 bian1 ma3 wei4 ": 8756,
  "   bei4 ": 8757,
  "cha2 de shu4 ju4 ": 8758,
  " ju4 le4 bu4 ": 8759,
  " shi4 zhen4 bian1 ma3 wei4 ": 8760,
  " INSEE shi4 zhen4 bian1 ma3 wei4 ": 8761,
  "biao1 zhun3": 8762,
  " she4 de ": 8763,
  "xuan3 qu1 wei4 ": 8764,
  " xiao1 ": 8765,
  " zai4 ci3 ": 8766,
  " bu4 guo4": 8767,
  "pai2 ming2 ": 8768,
  " guo2 wang2 ": 8769,
  "dong4 li4 ": 8770,
  "shi2 de ren2 kou3 shu4 liang4 wei4 ren2 ": 8771,
  "2023 nian2 ": 8772,
  "jie1 rang3 de shi4 zhen4 ": 8773,
  " qing1": 8774,
  "mei3 guo2 ren2 kou3 pu3 cha2 de shu4 ju4 ": 8775,
  "jia1 li4 ": 8776,
  "cong2 shi4 ": 8777,
  " er2 ren2 kou3 mi4 du4 wei4 mei3": 8778,
  "ge2 lan2": 8779,
  " dang1 di4 gong4 you3 ren2 kou3 ": 8780,
  "fen1 lei4 ": 8781,
  "jie3 jue2 ": 8782,
  "zu2 de ": 8783,
  "da4 bu4 fen4": 8784,
  "yi1 zhong3 ": 8785,
  " jiang3 ": 8786,
  "ling3 yu4 ": 8787,
  " huo4 jiu4 shi4 zhen4 ": 8788,
  "shi3 yong4 de ": 8789,
  "   li4 ": 8790,
  "he2 shi4 ": 8791,
  " chu1 ban3 ": 8792,
  "gou1 ": 8793,
  "yun4 ying2 ": 8794,
  "sheng3 ji2 xuan3 qu1 wei4 ": 8795,
  "ji1 ji2 ": 8796,
  " de yi1 bu4 fen4 ": 8797,
  " kai1 shi3 ": 8798,
  "shi2 shi4 ": 8799,
  "er2 zi ": 8800,
  "jiu3 nian2 ": 8801,
  "zuo4 pin3": 8802,
  "xuan3 ren2 ": 8803,
  "gai4 nian4 ": 8804,
  "xing1 de ": 8805,
  " er3 de2 ": 8806,
  "sheng3 he2 ": 8807,
  " jin3 guan3 ": 8808,
  "jie1 shou4": 8809,
  "tiao2 yue1 ": 8810,
  "fen4 wei4 fa3 guo2 ": 8811,
  " gai1 sheng3 fen4 wei4 fa3 guo2 ": 8812,
  " chu1 ban3": 8813,
  " zhi1 xian4 ": 8814,
  "tie3 dao4 ": 8815,
  " di4 san1": 8816,
  "lian2 bang1": 8817,
  " song4 ": 8818,
  " nian2 chu1 ": 8819,
  " er2 qie3 ": 8820,
  " jun1 dui4 ": 8821,
  "guang3 zhou1 ": 8822,
  " bu4 jiu3 ": 8823,
  " dui4": 8824,
  "ao4 da4 li4 ": 8825,
  " wei4 shi2 ": 8826,
  " xi1 la4": 8827,
  "fu2 jian4 ": 8828,
  "and   ": 8829,
  " he2 bing4": 8830,
  " 4": 8831,
  " P": 8832,
  "zhan4 zheng1": 8833,
  " you3 ren2 ": 8834,
  "pai2 ming2": 8835,
  "zhan4 shi4 ": 8836,
  "zui4 hou4 yi1 ": 8837,
  "te4 bie2": 8838,
  "qun2 dao3 ": 8839,
  "jin3 biao1 sai4 ": 8840,
  "lai2 yuan2 ": 8841,
  " ta1 bei4 ": 8842,
  "jing3 cha2 ": 8843,
  "xing1 jian4 ": 8844,
  " chu1 sheng1 yu2 ": 8845,
  " ruo4 ": 8846,
  "ba1 nian2 ": 8847,
  "she4 li4 ": 8848,
  " geng4": 8849,
  "reng2 ran2": 8850,
  " yi4 wei4 ": 8851,
  "di4 yi1 ": 8852,
  " ri4 de ": 8853,
  " T": 8854,
  "ben3 de ": 8855,
  "wei3 hui4 ": 8856,
  " you2 xi4": 8857,
  "lun2 dun1": 8858,
  " ren2 gong1 ": 8859,
  "xue2 xiao4": 8860,
  "shan3 xi1 ": 8861,
  " K": 8862,
  " zhi4 yu2 ": 8863,
  "lie4 wei4 ": 8864,
  " bu4 ming2 ": 8865,
  " fan4 ": 8866,
  "tong1 chang2": 8867,
  " jiao1 ": 8868,
  "mu3 si1 ": 8869,
  " ming2 chao2 ": 8870,
  " shi3 yong4 ": 8871,
  "yun4 xing2 ": 8872,
  "ceng2 zai4 ": 8873,
  "mei3 zhou1 ": 8874,
  "cai3 yong4": 8875,
  " di4 si4 ": 8876,
  "yan2 jiu1 suo3 ": 8877,
  "guang3 fan4 ": 8878,
  "ao4 si1 ": 8879,
  " xian4 lu4 ": 8880,
  "gan3 ran3 ": 8881,
  "rou4 ": 8882,
  "meng2 gu3 ": 8883,
  " shi4 bu4 ": 8884,
  "yi3 ji2 ": 8885,
  " he2 ping2 ": 8886,
  "   ta1": 8887,
  "hua4 shi2 ": 8888,
  "zhan4 hou4 ": 8889,
  "jia1 ru4 ": 8890,
  "tian1 wen2 ": 8891,
  "nan2 ji2 ": 8892,
  "shuo1 fa3 ": 8893,
  " fei4 ": 8894,
  " rang4": 8895,
  "xi1 zai4 ": 8896,
  "U ": 8897,
  " jin4 de ": 8898,
  " ren4 wei2": 8899,
  " can1 ": 8900,
  " di2 ": 8901,
  " ji1 ben3 ": 8902,
  " ju4 li2 ": 8903,
  "mo2 xing2 ": 8904,
  " chen2": 8905,
  "guo4 cheng2 zhong1 ": 8906,
  " de di4 fang1 ": 8907,
  " da2 ": 8908,
  " de xin1 ": 8909,
  "ji4 shu4 ": 8910,
  " chang3 ": 8911,
  " jian4 yi4 ": 8912,
  " shou4": 8913,
  " ta1 yu3 ": 8914,
  "yun4 shu1 ": 8915,
  "gou4 mai3": 8916,
  "wan2 quan2": 8917,
  " 5": 8918,
  "wu3 shi2 ": 8919,
  " ke4 de ": 8920,
  "ren4 wei2 shi4 ": 8921,
  " zai4 yi4 ": 8922,
  " ge4 di4 ": 8923,
  "duo1 ge4 ": 8924,
  "ban4 gong1 shi4 ": 8925,
  "zhao3 ": 8926,
  " 10 yue4 ": 8927,
  "tong2 yi1 ": 8928,
  "wai4 guo2 ": 8929,
  " zong3 ren2 kou3 ": 8930,
  "xue2 shi4 ": 8931,
  "shang4 you3 ": 8932,
  "yuan2 wei4 ": 8933,
  "gong1 zuo4 ": 8934,
  " zi4 ji3 ": 8935,
  "ni2 si1 ": 8936,
  " zai4 zhong1 guo2 ": 8937,
  " xing1 ": 8938,
  "quan1 ": 8939,
  " ai1": 8940,
  "xue2 xi2 ": 8941,
  "yang3 hua4 ": 8942,
  "fei1 xing2 ": 8943,
  " jie4": 8944,
  " yi1 xie1": 8945,
  "xuan1 chuan2 ": 8946,
  "mo4 xi1 ": 8947,
  " 7": 8948,
  "xuan3 ze2": 8949,
  "cheng1 wei4 ": 8950,
  "xiao1 xi1 ": 8951,
  " xian4 ren2 ": 8952,
  " ke1": 8953,
  " de guan1 ": 8954,
  "hai3 jun1": 8955,
  "biao1 zhi4 ": 8956,
  " bu4 men2 ": 8957,
  " hu4 ": 8958,
  "zhi4 wei4 ": 8959,
  "qi3 lai2 ": 8960,
  "you2 xi4": 8961,
  "huan2 jing4": 8962,
  "ma2 ": 8963,
  "fu4 ze2 guan3 xia2 ": 8964,
  " wei2 zhu3 ": 8965,
  " da3 ": 8966,
  "   yi3 ": 8967,
  "gou4 cheng2 ": 8968,
  " an4 ": 8969,
  "shi1 de ": 8970,
  "che1 liang4 ": 8971,
  "zhe2 xue2 ": 8972,
  "keng1 ": 8973,
  " ji4 hua4": 8974,
  "xi4 bao1 ": 8975,
  " lin2": 8976,
  "si1 zai4 ": 8977,
  "zheng4 de ": 8978,
  "ang2 ": 8979,
  "dang3 de ": 8980,
  "an1 quan2": 8981,
  "bi3 de2 ": 8982,
  " dao4 lu4 ": 8983,
  "jie4 quan2 guo2 ": 8984,
  "chao2 xian1 ": 8985,
  " hua1 ": 8986,
  "yin2 hang2": 8987,
  " dou1 ": 8988,
  "jia4 zhi2 ": 8989,
  " er4": 8990,
  "xi1 de ": 8991,
  " G": 8992,
  " shi4 mei3 guo2 ": 8993,
  " shi4 tu2 ": 8994,
  "zhong1 zai4 ": 8995,
  " ji4 nian4 ": 8996,
  "zhu3 jue2 ": 8997,
  "R ": 8998,
  "an4 de ": 8999,
  "si4 chuan1 ": 9000,
  "bu4 wei4 ": 9001,
  "peng2 you3 ": 9002,
  "   he2 ": 9003,
  "1999 nian2 ": 9004,
  " ji2 qi2 ": 9005,
  " fan3 ": 9006,
  "chi2 xu4": 9007,
  "ai4 er3 ": 9008,
  "   you3 ": 9009,
  " gong1 gong4 ": 9010,
  " zhi1 chi2": 9011,
  "kang4 yi4 ": 9012,
  " tai2 wan1": 9013,
  "yue1 wei4 ": 9014,
  "tai4 guo2 ": 9015,
  " er2 qie3": 9016,
  "jie1 wei4 ": 9017,
  "xuan3 qu1 ": 9018,
  " M": 9019,
  "shi2 zai4 ": 9020,
  "yi4 he2 ": 9021,
  "hui4 you3 ": 9022,
  "sheng1 wu4 ": 9023,
  "xiao4 zhang3 ": 9024,
  "wen2 jian4 ": 9025,
  " bei4 er3 ": 9026,
  " jie2 zhi4 ": 9027,
  "shou1 ru4 ": 9028,
  "ge1 qu3": 9029,
  "biao1 wei4 ": 9030,
  "fo2 jiao4 ": 9031,
  "rong2 yi4 ": 9032,
  "ao4 yun4": 9033,
  "   shi2 ": 9034,
  " qiang2 ": 9035,
  "   che1 zhan4 ": 9036,
  " sheng1 wu4 ": 9037,
  "suo3 shu3 de sheng3 ji2 xuan3 qu1 wei4 ": 9038,
  "yan3 de ": 9039,
  "bian1 ji2 ": 9040,
  "qian4 ": 9041,
  " zhan4 zheng1": 9042,
  "si1 di4 ": 9043,
  "ye3 you3 ": 9044,
  "zheng4 ce4 ": 9045,
  "qian2 wang3": 9046,
  "ji4 zhong1 ": 9047,
  "mi3 er3 ": 9048,
  "yu3 yan2 ": 9049,
  " ruo4": 9050,
  "m ": 9051,
  "jun1 dui4 ": 9052,
  "jie3 fang4 jun1 ": 9053,
  "ao4 yun4 ": 9054,
  " you4 cheng1 ": 9055,
  "tiao3 zhan4 ": 9056,
  " yuan2 zhu4 ": 9057,
  " chu1 le ": 9058,
  " zhi4 du4 ": 9059,
  " yu4": 9060,
  " yan3 ": 9061,
  " ti2 ": 9062,
  "gao1 yu2 ": 9063,
  " shi4 yi2 ge4": 9064,
  " tong1 guo4 ": 9065,
  "wu2 ren2 ": 9066,
  " huo4 shi4 ": 9067,
  "gan3 dao4 ": 9068,
  "nan2 xing4 ": 9069,
  " yi3 shang4 ": 9070,
  "man4 hua4 ": 9071,
  " que4": 9072,
  "gai3 bian4 ": 9073,
  "   2021": 9074,
  " di4 xia4 ": 9075,
  "ma3 li4 ": 9076,
  "fo2 ": 9077,
  " zi4": 9078,
  "jie1 rang3 ": 9079,
  "pei4 he2 ": 9080,
  "kun1 ": 9081,
  "tou2 ru4 ": 9082,
  "jia1 ren2 ": 9083,
  " F": 9084,
  "wen3 ding4 ": 9085,
  "1998 nian2 ": 9086,
  "zhi3 hui1": 9087,
  " zhong1 you3 ": 9088,
  " zai4 bu4 ": 9089,
  "ru3 ": 9090,
  "ti2 ming2 ": 9091,
  "da2 cheng2 ": 9092,
  " yi1 zhong3 ": 9093,
  "mo4 si1 ": 9094,
  "ne4 ": 9095,
  " zhuan1 ": 9096,
  "zai4 shi4 ": 9097,
  "tong2 de ": 9098,
  "jian3 jie4 ": 9099,
  " I": 9100,
  " zhong1 guo2 ren2 min2 ": 9101,
  " hai2 you3 ": 9102,
  "biao3 ming2 ": 9103,
  "duo2 de ": 9104,
  "zha1 ": 9105,
  "ting2 zhi3 ": 9106,
  " ping2": 9107,
  "shen1 fen4": 9108,
  "   and   ": 9109,
  " er2 ren2 kou3 mi4 du4 wei4 mei3 ping2 fang1 qian1 mi3 ": 9110,
  " li2 ": 9111,
  "xiao3 de ": 9112,
  "zheng4 shi2 ": 9113,
  "ce4 de ": 9114,
  "zao4 de ": 9115,
  " wei4 fu2": 9116,
  "juan1 ": 9117,
  "fen1 zhi1 ": 9118,
  "que4 zhen3": 9119,
  "   2020": 9120,
  " bo1": 9121,
  " hao2 mi3 ": 9122,
  "2024 nian2 ": 9123,
  "   in": 9124,
  " ji1 bai4 ": 9125,
  "tian1 zhu3 jiao4 ": 9126,
  " pi2 ": 9127,
  "   yuan2 ": 9128,
  "ban4 dao3 ": 9129,
  " bian1 ": 9130,
  "guo2 zai4 ": 9131,
  "wu3 qi4 ": 9132,
  "ta1 men ": 9133,
  " jia1 na2 da4 ": 9134,
  " ping2 fang1 mi3 ": 9135,
  "zi4 zhi4 qu1 ": 9136,
  " men2 ": 9137,
  " 8 yue4 ": 9138,
  "la1 ke4 ": 9139,
  "lei4 de ": 9140,
  "   zi4 ": 9141,
  "hun4 he2 ": 9142,
  " zi4 you2 ": 9143,
  " zai4 mei3 guo2 ": 9144,
  " shi2 yan4": 9145,
  "zui4 zao3": 9146,
  "ju3 ren2 ": 9147,
  "tuan2 dui4 ": 9148,
  "di4 shi4 ": 9149,
  "ke3 neng2 hui4 ": 9150,
  "ya1 li4 ": 9151,
  "quan2 bu4 ": 9152,
  " su1": 9153,
  "ji4 wei4 ": 9154,
  " er2 bei4 ": 9155,
  " ji4 cheng2 ": 9156,
  "gong4 xian4 ": 9157,
  "xi1 ban1 ya2 ": 9158,
  "ji4 hua4 ": 9159,
  "a   ": 9160,
  " bei4": 9161,
  " shi2 shi1 ": 9162,
  "jie2 mu4": 9163,
  " jie2 guo3 ": 9164,
  "sheng1 chan3": 9165,
  "lai2 shuo1 ": 9166,
  "li4 bu4 ": 9167,
  "zhe4 zhong3 ": 9168,
  "chan3 ye4 ": 9169,
  " wang2": 9170,
  " hai2": 9171,
  " chuan2 ": 9172,
  "xing2 dong4 ": 9173,
  " qi1 jian1 ": 9174,
  "fan1 yi4 ": 9175,
  " di4 tie3 ": 9176,
  " chu1 ren4 ": 9177,
  "shao3 shu4 ": 9178,
  "cao1 zuo4 ": 9179,
  "jian3 cha2 ": 9180,
  "ban4 shi4 ": 9181,
  "jia1 na2 da4 ": 9182,
  "ying3 pian4 ": 9183,
  "chong1 tu1 ": 9184,
  " zai4 da4 ": 9185,
  " ta1 yu2 ": 9186,
  "bao3 hu4": 9187,
  "an4 jian4 ": 9188,
  "ji4 nian4 ": 9189,
  "chong2 jian4 ": 9190,
  " mu4": 9191,
  "shou3 de ": 9192,
  " jian4 zhu4": 9193,
  " shi2 fen1 ": 9194,
  " an1": 9195,
  " shi4 yi3 ": 9196,
  "xing2 wei2 ": 9197,
  "xin1 li3 ": 9198,
  "ceng2 jing1 ": 9199,
  " shi3 de ": 9200,
  "gong4 tong2": 9201,
  "dong4 de ": 9202,
  "kong1 jun1 ": 9203,
  " zhi3 you3 ": 9204,
  "ban4 gong1 ": 9205,
  "zhe4 ge": 9206,
  " xian4 wei4 ": 9207,
  "da4 bu4 fen4 ": 9208,
  " zhi4 zuo4": 9209,
  "qi1 jian1": 9210,
  "jie2 gou4": 9211,
  "nan4 ": 9212,
  " yi4 you3 ": 9213,
  " li4 ru2": 9214,
  "lian2 xu4 ": 9215,
  "jue2 se4": 9216,
  "ji2 zai4 ": 9217,
  "shen1 de ": 9218,
  "yang1 ": 9219,
  " he2 bei3 ": 9220,
  " wei4 neng2 ": 9221,
  "amp ": 9222,
  "zhu3 ti2 ": 9223,
  "xiang1 dui4 ": 9224,
  "fen1 bie2 ": 9225,
  "   S": 9226,
  " he2 liu2 ": 9227,
  "gong1 yuan2 ": 9228,
  "mei2 ti3": 9229,
  "lian2 sai4": 9230,
  "jian3 shao3 ": 9231,
  "a ": 9232,
  "tou4 ": 9233,
  "tong4 ": 9234,
  " you4 ming2 ": 9235,
  " yi3 se4 ": 9236,
  "fen4 zi3 ": 9237,
  "xian4 dai4 ": 9238,
  " shi4 yi1 ming2 ": 9239,
  "xiao3 zu3 ": 9240,
  " ti3 zhang3 ": 9241,
  "   2019": 9242,
  " xi1 wang4 ": 9243,
  "C ": 9244,
  " zhen4 ": 9245,
  "ying4 de ": 9246,
  "wei3 yuan2 hui4": 9247,
  "ming4 ming2 wei4 ": 9248,
  " gui1 ": 9249,
  "ou1 yuan2 ": 9250,
  " gong1 si1 de ": 9251,
  " liang3 ren2 ": 9252,
  "yi4 zai4 ": 9253,
  "dong4 ji1 ": 9254,
  "da3 ji1 ": 9255,
  " de di4 qu1 ": 9256,
  "zhan3 shi4 ": 9257,
  " 19": 9258,
  " zhi2 zhi4 ": 9259,
  " she4 qu1 ": 9260,
  " ling2 ": 9261,
  " ji4 xu4": 9262,
  "shou3 wei4 ": 9263,
  "xun2 hui2 ": 9264,
  " si1 ling4": 9265,
  "shu4 liang4 ": 9266,
  "xia4 wu3 ": 9267,
  "1996 nian2 ": 9268,
  " lie4 ": 9269,
  "lu4 di4 mian4 ji1 wei4 ": 9270,
  " N": 9271,
  "24 ": 9272,
  "yong4 lai2 ": 9273,
  "shui3 yu4 mian4 ji1 wei4 ": 9274,
  " li4 ji2 ": 9275,
  "qi3 yong4 ": 9276,
  "lei4 xing2 ": 9277,
  "ren4 wu4 ": 9278,
  " guo2 li4 ": 9279,
  " shi2 zi4 ": 9280,
  " yi1 ci4 ": 9281,
  "duo1 ci4 ": 9282,
  " wang3 ": 9283,
  "ping2 jia4 ": 9284,
  "bu4 shi4 ": 9285,
  " bian4": 9286,
  " 2009 nian2 ": 9287,
  "   2018": 9288,
  " de shou3 ": 9289,
  " fu4 jin4 ": 9290,
  "ju3 xing2 de ": 9291,
  "fu2 he2 ": 9292,
  "t ": 9293,
  "zhuo2 ": 9294,
  "ti3 xi4 ": 9295,
  "wai4 jiao1 ": 9296,
  " zhe4 jiang1 ": 9297,
  " xiao4 ": 9298,
  "1997 nian2 ": 9299,
  " da4 shi3 ": 9300,
  "zuo4 jia1 ": 9301,
  " she4 bei4 ": 9302,
  "18 ": 9303,
  "mei3 nian2 ": 9304,
  "liang3 ge4": 9305,
  " li4 fa3 ": 9306,
  "zhu4 yi4 ": 9307,
  " amp ": 9308,
  "dian4 li4 ": 9309,
  "de2 dao4 ": 9310,
  " si1 ling4 ": 9311,
  " cong2 er2 ": 9312,
  "fa3 lv4": 9313,
  "lun2 dun1 ": 9314,
  " guang3 ": 9315,
  "kui2 ": 9316,
  "jiao4 tang2 ": 9317,
  " dang1 zhong1 lu4 di4 mian4 ji1 wei4 ": 9318,
  "zhi4 he2 ": 9319,
  " er2 shui3 yu4 mian4 ji1 wei4 ": 9320,
  "qu3 xiao1 ": 9321,
  "sheng1 huo2": 9322,
  "fu2 wu4": 9323,
  "zhi2 de ": 9324,
  "jie2 zhi4 ": 9325,
  "   xi1 ": 9326,
  "dian1 ": 9327,
  "   2022": 9328,
  "xue2 zhe3 ": 9329,
  "shui3 ping2 ": 9330,
  "hai3 yu4 ": 9331,
  "nei4 rong2": 9332,
  " zhi1 shi2 ": 9333,
  "zhu4 zuo4 ": 9334,
  " 9 yue4 ": 9335,
  "ying1 ge2 lan2 ": 9336,
  " da4 chen2 ": 9337,
  " The   ": 9338,
  " cheng2 li4 yu2 ": 9339,
  " zhong1 de ": 9340,
  "   gai4 ": 9341,
  "lv3 ke4 ": 9342,
  "tuo4 ": 9343,
  "zhi4 zai4 ": 9344,
  "jie1 jin4 ": 9345,
  " xin1 wen2 ": 9346,
  "chang2 qi1 ": 9347,
  " wei2 er3 ": 9348,
  "ling4 wai4 ": 9349,
  " hui2 ": 9350,
  "   xing2 zheng4 qu1 hua4 ": 9351,
  " 11": 9352,
  "ren4 ming4": 9353,
  " jia1 shang4 ": 9354,
  "yuan4 zhang3 ": 9355,
  "bi3 sai4 zhong1 ": 9356,
  " xuan1 bu4 ": 9357,
  "dian3 de ": 9358,
  "ji3 yu3 ": 9359,
  "xi1 yang2 ": 9360,
  " yi3 hou4 ": 9361,
  "gui1 mo2": 9362,
  " jun1 wei4 ": 9363,
  "min2 de ": 9364,
  "shuo4 shi4 ": 9365,
  " de2 de ": 9366,
  "wei1 lian2 ": 9367,
  "wei3 shu1 ji4 ": 9368,
  " yi4 ren2 ": 9369,
  "jia1 he2 ": 9370,
  "1992 nian2 ": 9371,
  "tai4 yang2 ": 9372,
  " H": 9373,
  "dao3 yu3 ": 9374,
  "pi1 zhun3 ": 9375,
  "dai4 you3 ": 9376,
  "heng1 li4 ": 9377,
  " shi4 yi1 wei4 ": 9378,
  " xue2 xiao4": 9379,
  " wei4 fu2 qi2 yu2 ": 9380,
  " 7 yue4 ": 9381,
  "guo1 ": 9382,
  "n ": 9383,
  "can1 yu4": 9384,
  "ci4 shi4 jie4 da4 zhan4 ": 9385,
  " shi4 qu1 ": 9386,
  "fa1 chu1 ": 9387,
  "gao1 su4": 9388,
  "   A": 9389,
  "   yi4 ": 9390,
  "xing4 zhi4 ": 9391,
  "yan3 chang4 hui4 ": 9392,
  " yuan2 yin1 ": 9393,
  " tuo1 ": 9394,
  "quan4 ": 9395,
  "tao3 lun4 ": 9396,
  " formula ": 9397,
  "tui4 yi4 ": 9398,
  " meng2 ": 9399,
  "bi3 ya4 ": 9400,
  "feng1 bao4 ": 9401,
  " huo3 ": 9402,
  "ji1 zhi4 ": 9403,
  "xin4 hao4 ": 9404,
  "ya4 de ": 9405,
  "neng2 gou4": 9406,
  " ci2 ": 9407,
  "shou4 shang1 ": 9408,
  "   2017": 9409,
  " jian4 cheng2 ": 9410,
  "wei4 zhi4 ": 9411,
  "lian2 xi4 ": 9412,
  " ru2 guo3": 9413,
  "ru2 he2 ": 9414,
  "bi4 xu1": 9415,
  " ti3 zhang3 ke3 da2 ": 9416,
  " er3 te4 ": 9417,
  "bao3 chi2 ": 9418,
  "zhuan1 jia1 ": 9419,
  "fu1 ren2 ": 9420,
  "jiang3 xiang4 ": 9421,
  "cha1 yi4 ": 9422,
  " jing1 guo4 ": 9423,
  " ji1 gou4": 9424,
  " gai3": 9425,
  " zai4 yu2 ": 9426,
  " de yi1 zuo4 ": 9427,
  " tong1 chang2 ": 9428,
  "wo1 ": 9429,
  "shou4 yu3 ": 9430,
  "miao3 ": 9431,
  " 2010 nian2 ": 9432,
  "wang3 lu4 ": 9433,
  "jing1 ying2 ": 9434,
  " 12 yue4 ": 9435,
  " min2 guo2 ": 9436,
  "tan1 ": 9437,
  "gong4 chan3 dang3": 9438,
  " ke4 li3 ": 9439,
  " sheng1 chan3 ": 9440,
  " bu4 li3 ": 9441,
  "kao4 ": 9442,
  " yi3 xia4": 9443,
  "dian4 tai2 ": 9444,
  "cun1 zhuang1 ": 9445,
  " 11 yue4 ": 9446,
  "lai2 dao4 ": 9447,
  "sui2 hou4 ": 9448,
  " zhi1 zhong1 ": 9449,
  " chang2": 9450,
  " zhu1": 9451,
  "bi4 ye4 yu2 ": 9452,
  "xun4 lian4": 9453,
  " 21 ": 9454,
  "cuo4 shi1 ": 9455,
  "fa3 de ": 9456,
  " yi4 shu4": 9457,
  "zong3 du1 ": 9458,
  "zhu4 ming2 de ": 9459,
  " fang1 ": 9460,
  " shi4 you3 ": 9461,
  " jian4 dui4 ": 9462,
  "kuai4 su4 ": 9463,
  "zhu4 yu2 ": 9464,
  " B": 9465,
  "dong1 xi1 ": 9466,
  " zhong3 ": 9467,
  "1994 nian2 ": 9468,
  " shi2 ren4 ": 9469,
  " yi1 sheng1 ": 9470,
  " rang4 ": 9471,
  "gu1 ji4 ": 9472,
  " er3 he2 ": 9473,
  "hai2 zi ": 9474,
  "tai4 ping2 yang2 ": 9475,
  "   2016": 9476,
  " jie2 mu4 ": 9477,
  "yan2 ge2 ": 9478,
  "tong2 yi4 ": 9479,
  "sheng1 wei4 ": 9480,
  "dao3 shi4 ": 9481,
  "lang4 ": 9482,
  "cheng2 gong1 ": 9483,
  "le da4 ": 9484,
  "shang3 ": 9485,
  "fa1 dian4 ": 9486,
  " shang4 hai3": 9487,
  "zhan4 zhong1 ": 9488,
  "she2 ": 9489,
  " de qian2 ": 9490,
  " ren2 lei4 ": 9491,
  "si4 ge4 ": 9492,
  "jie2 shu4 hou4 ": 9493,
  " xiang3": 9494,
  " de2 yi3 ": 9495,
  "pu3 tong1 ": 9496,
  " de shi2 qu1 wei4 ": 9497,
  " yin4 du4 ": 9498,
  " ming2 cheng1 ": 9499,
  " zheng4 ce4 ": 9500,
  "che4 xiao1 ": 9501,
  "yu3 zhong1 ": 9502,
  "   zhi4 ": 9503,
  " qi1": 9504,
  " yang2": 9505,
  " sheng4": 9506,
  " tw": 9507,
  "tou2 piao4 ": 9508,
  "di3 da2 ": 9509,
  "fa1 de ": 9510,
  " jin3 guan3": 9511,
  "xi4 lie4": 9512,
  "ju2 zhang3 ": 9513,
  " de shi2 jian1 ": 9514,
  " qian2": 9515,
  "1995 nian2 ": 9516,
  "zhe4 xie1": 9517,
  "geng4 jia1 ": 9518,
  " wei4 sheng1 ": 9519,
  "yue4 tai2 ": 9520,
  " ping2 tai2 ": 9521,
  "fan3 hui2 ": 9522,
  " cheng1": 9523,
  "guang3 xi1 ": 9524,
  "fei3 ": 9525,
  " chuang4 ": 9526,
  "zhai2 ": 9527,
  "hans ": 9528,
  "kuo4 da4 ": 9529,
  "ha1 er3 ": 9530,
  " hans ": 9531,
  "yi4 zhong1 ": 9532,
  "deng1 lu4 ": 9533,
  "zu3 cheng2 de ": 9534,
  "rong2 yu4 ": 9535,
  " tw ": 9536,
  "yue4 shi2 ": 9537,
  "zhong4 da4 ": 9538,
  "lu4 yi4 ": 9539,
  " sa4 ": 9540,
  " shi4 yan3 ": 9541,
  "que4 ding4 ": 9542,
  " xia4": 9543,
  "zhi3 zai4 ": 9544,
  "ye4 hou4 ": 9545,
  " bu4 ke3 ": 9546,
  " bing4 mei2 you3 ": 9547,
  " ci3 shi2 ": 9548,
  "   de shi2 ": 9549,
  " lv4 ": 9550,
  " liang4 ": 9551,
  " a1 er3 ": 9552,
  "jin4 xing2": 9553,
  "   2023": 9554,
  "L ": 9555,
  " mu4 qian2": 9556,
  "wan3 shang4 ": 9557,
  "jiao4 qu1 ": 9558,
  "qi4 che1 ": 9559,
  "ya4 li4 shan1": 9560,
  "ming2 cheng1 ": 9561,
  "wu4 zhong3": 9562,
  "guan1 zhong4 ": 9563,
  " xue2 xi2 ": 9564,
  "gai3 bian1": 9565,
  " guo2 wu4 ": 9566,
  " zhi1 yuan2 ": 9567,
  "yuan4 de ": 9568,
  "xiao1 shou4 ": 9569,
  " gong1 ye4": 9570,
  "ba1 xi1 ": 9571,
  " huo4 zhe3 ": 9572,
  "   2014": 9573,
  "X ": 9574,
  "xiang1 tong2 ": 9575,
  "ba1 li2 ": 9576,
  "ban3 de ": 9577,
  "ru4 kou3 ": 9578,
  "xue2 he2 ": 9579,
  "sun3 shi1 ": 9580,
  "po4 huai4 ": 9581,
  "i ": 9582,
  " tian1": 9583,
  "biao3 xian4": 9584,
  " shi2 xian4 ": 9585,
  "xi1 la4": 9586,
  "fa1 xian4 le ": 9587,
  "kan4 dao4 ": 9588,
  "pan1 ": 9589,
  "qi1 zi3 ": 9590,
  "guan1 zhu4 ": 9591,
  " ceng2 ren4 ": 9592,
  " bing4 yi3 ": 9593,
  "xiong1 ya2": 9594,
  "qiang3 ": 9595,
  " 6 yue4 ": 9596,
  "   ji1 ": 9597,
  "   suo3 shu3 de sheng3 ji2 xuan3 qu1 wei4 ": 9598,
  "   de you2 zheng4 bian1 ma3 wei4 ": 9599,
  "   yu3 jie1 rang3 de shi4 zhen4 ": 9600,
  "   yu2 shi2 de ren2 kou3 shu4 liang4 wei4 ren2 ": 9601,
  "   de shi2 qu1 wei4 ": 9602,
  "zhuang1 zhi4 ": 9603,
  "nai3 ": 9604,
  " zhuan3 ": 9605,
  "zhi2 wei4 ": 9606,
  " 2011": 9607,
  "ji4 he2 ": 9608,
  " zuo4 yong4 ": 9609,
  " quan2 zhang3 ": 9610,
  "tu2 zhong1 ": 9611,
  "su1 lian2": 9612,
  "kai1 fang4": 9613,
  "xu1 qiu2 ": 9614,
  " zhi1 ming2 ": 9615,
  "lin2 de ": 9616,
  " si1 la1 ": 9617,
  "shi2 wei4 ": 9618,
  " nian2 qing1": 9619,
  "heng2 xing1 ": 9620,
  " quan2 bu4 ": 9621,
  "tui1 dong4 ": 9622,
  "wei2 de ": 9623,
  " shi4 zhang3 ": 9624,
  "wei4   ": 9625,
  "guan3 li3": 9626,
  " 2019": 9627,
  " gan1 ": 9628,
  "can2 ": 9629,
  "ru4 qin1 ": 9630,
  "ru2 ci3 ": 9631,
  " O": 9632,
  " hk": 9633,
  " jia1 ting2 ": 9634,
  "tai2 bei3 ": 9635,
  " jin3": 9636,
  "yu3 he2 ": 9637,
  " yi1 dai4 ": 9638,
  "yi2 dong4 ": 9639,
  "jin4 shi4 ": 9640,
  " chu1 xian4 zai4 ": 9641,
  "zhe4 jiang1 ": 9642,
  "   2015": 9643,
  "fu4 de ": 9644,
  "mu3 qin1 ": 9645,
  "xiong1 ya2 li4 ": 9646,
  "mu4 si1 ": 9647,
  "1991 nian2 ": 9648,
  " ren2 shu4 ": 9649,
  "fu4 qin1 ": 9650,
  " dan4 ta1 ": 9651,
  " xi1 ban1 ya2": 9652,
  "min2 zu2": 9653,
  "tai2 de ": 9654,
  " di4 qiu2 ": 9655,
  " shi4 zhi3 ": 9656,
  " che1 zhan4 ": 9657,
  "ti2 sheng1 ": 9658,
  "fei1 jian4 zhi4 ": 9659,
  " mian4 ": 9660,
  " duan4 ": 9661,
  "   2013": 9662,
  " 5 yue4 ": 9663,
  "zui4 chu1 ": 9664,
  "xun4 su4 ": 9665,
  " hk ": 9666,
  "shu4 xue2 ": 9667,
  "guang3 bo1": 9668,
  " wei4 he2 ": 9669,
  " bing4 li4 ": 9670,
  " cheng2 wei2 le ": 9671,
  " si1 tan3 ": 9672,
  "niu3 yue1 ": 9673,
  " jing1": 9674,
  "fa1 xing2": 9675,
  " jin4 ru4": 9676,
  "te4 li3 ": 9677,
  "kang4 ri4 ": 9678,
  " he2 xin1 ": 9679,
  " ge4 zhong3 ": 9680,
  "gao3 ": 9681,
  " ji2 qi2": 9682,
  "fa1 sheng1": 9683,
  "zong3 bu4 ": 9684,
  "shou1 lu4 ": 9685,
  " shi4 ren2 ": 9686,
  "jiao4 de ": 9687,
  "lan2 ke4 ": 9688,
  "cai2 zheng4 ": 9689,
  "mang2 ": 9690,
  "   nian2 ": 9691,
  " ji4 zai3 ": 9692,
  "chang4 pian4 ": 9693,
  " zuo4 pin3": 9694,
  "sa4 ke4 ": 9695,
  " zhong1 wen2 ": 9696,
  "jue2 sai4": 9697,
  "ming2 yi4 ": 9698,
  "jin4 gong1 ": 9699,
  " shi4 ji2 ": 9700,
  " zao4 cheng2 ": 9701,
  "qi3 yi4 ": 9702,
  "can1 yi4 ": 9703,
  "zhuang4 kuang4 ": 9704,
  " tiao2 ": 9705,
  " xian4 yu2 ": 9706,
  "lv4 wei4 ": 9707,
  "le ta1 ": 9708,
  "   zhong1 guo2 ": 9709,
  "can1 kao3 ": 9710,
  "zeng1 zhang3 ": 9711,
  "gao1 du4 ": 9712,
  "ba2 ": 9713,
  "chan3 pin3": 9714,
  "fei1 jian4 zhi4 di4 qu1 ": 9715,
  " ou1 ": 9716,
  " huang2": 9717,
  " dao3 ": 9718,
  "   K": 9719,
  "dou1 hui4 ": 9720,
  " he2 bing4 ": 9721,
  " fang2 ": 9722,
  " ji4 suan4": 9723,
  " sheng1 huo2": 9724,
  " e2 luo2 si1 ": 9725,
  "wang2 de ": 9726,
  "diao4 cha2": 9727,
  "zhong4 dian3 ": 9728,
  "zhan4 dou4 ": 9729,
  " hou4": 9730,
  " da4 lou2 ": 9731,
  "hai3 dao4 ": 9732,
  "sui1 ran2 ": 9733,
  "chang4 pian4": 9734,
  "chai1 ": 9735,
  " ren2 men ": 9736,
  "wei1 xie2 ": 9737,
  "ao4 di4 li4 ": 9738,
  " he2 zhong1 ": 9739,
  "shang4 shu1 ": 9740,
  " wei2 qi2 ": 9741,
  "kan3 ": 9742,
  "ling3 dao3 ren2 ": 9743,
  " xiang1 guan1 ": 9744,
  "   to": 9745,
  "jing1 shen2 ": 9746,
  "jia1 zhong1 ": 9747,
  " yin1 er2 ": 9748,
  "yue4 zai4 ": 9749,
  "liang3 ren2 ": 9750,
  " nian2 shi2 ": 9751,
  " bu4 duan4 ": 9752,
  "can1 jia1 le ": 9753,
  "ying2 yun4 ": 9754,
  "hua4 wei4 ": 9755,
  "jiang1 xi1 ": 9756,
  " de cheng2 yuan2 ": 9757,
  "jie2 ke4 ": 9758,
  "tu2 shu1 guan3 ": 9759,
  " he2 cheng2 ": 9760,
  "zhu3 chi2 ": 9761,
  " zhong1 guo2 gong4 chan3 dang3 ": 9762,
  " hua2": 9763,
  " you3 shi2 ": 9764,
  "ju4 de ": 9765,
  "na4 li3 ": 9766,
  " xiao3": 9767,
  " 4 yue4 ": 9768,
  "zhan4 dou4": 9769,
  " ying1": 9770,
  "jin4 ru4": 9771,
  "mou3 xie1 ": 9772,
  "shen1 wei4 ": 9773,
  "ju1 zhu4 ": 9774,
  "zi4 dong4 ": 9775,
  "xia4 ji4 ao4 lin2 pi3 ke4 yun4 dong4 hui4 ": 9776,
  "yin1 shi4 ": 9777,
  "min2 zhong4 ": 9778,
  "1988 nian2 ": 9779,
  " xiang4 mu4 ": 9780,
  " zuo3 ": 9781,
  "chan3 sheng1 de ": 9782,
  " bian1": 9783,
  "   zh ": 9784,
  " zai4 jia1 ": 9785,
  "shuo1 ming2 ": 9786,
  " zheng4 zhuang4 ": 9787,
  "yin3 fa1 ": 9788,
  " wei3 ": 9789,
  "jiang1 su1 ": 9790,
  " xuan3 ": 9791,
  " huo4 de2 le ": 9792,
  " zhuang1 ": 9793,
  " zhi1 xia4 ": 9794,
  "dao1 ": 9795,
  " shi4 wei1 ": 9796,
  "xiao3 shuo1": 9797,
  " xu3 duo1 ": 9798,
  "   jia1 zu2 ": 9799,
  " xie2 ": 9800,
  " shi4 zhen4": 9801,
  " gong1 ren2 ": 9802,
  " J": 9803,
  "ding4 le ": 9804,
  "you1 shi4 ": 9805,
  " qiao2 ": 9806,
  "lan2 qiu2 ": 9807,
  "1993 nian2 ": 9808,
  " da4 duo1 ": 9809,
  "zhou1 de ": 9810,
  " pei4 ": 9811,
  "ji4 shi2 ": 9812,
  " du2 ": 9813,
  " sui4 de ": 9814,
  "xian3 de ": 9815,
  "zi1 xun4 ": 9816,
  "ao4 yun4 hui4 ": 9817,
  " wen2": 9818,
  "su4 de ": 9819,
  " da4 xing2 ": 9820,
  " 2018": 9821,
  " yue4 nan2 ": 9822,
  " ji2 li4 ": 9823,
  " zhong1 hua2 ": 9824,
  " lai2 zi4 ": 9825,
  "qu3 de2": 9826,
  "yuan2 zai4 ": 9827,
  " bu4 men2": 9828,
  "xiang1 dang1 ": 9829,
  " dan4 you2 yu2 ": 9830,
  "fang3 wen4 ": 9831,
  "zhi2 dao4 ": 9832,
  "sui1 ran2": 9833,
  "jiao4 wei2 ": 9834,
  "xiang4 mu4": 9835,
  " shi4 wei4 le ": 9836,
  "chuang1 ": 9837,
  "jie2 hun1 ": 9838,
  " tian2 ": 9839,
  " li3 lun4 ": 9840,
  "pin3 pai2 ": 9841,
  " shang4": 9842,
  "xi2 wei4 ": 9843,
  " di4 wu3 ": 9844,
  " yue4 tai2 ": 9845,
  "zhong1 wei4 ": 9846,
  " shi1": 9847,
  " lao3 ": 9848,
  "can1 jia1": 9849,
  "zhen1 shi2 ": 9850,
  "zhong1 hua2 ren2 min2 gong4 he2 guo2 ": 9851,
  "you3 bu4 ": 9852,
  "yin4 di4 ": 9853,
  "mei3 shu4 ": 9854,
  "   2025": 9855,
  " zheng4": 9856,
  "ming4 ling4 ": 9857,
  "xue2 shu4 ": 9858,
  "xing1 qi1 ": 9859,
  " de gong1 zuo4 ": 9860,
  "22 ": 9861,
  "2020 nian2 mei3 guo2 ren2 kou3 pu3 cha2 de shu4 ju4 ": 9862,
  "jian4 she4 ": 9863,
  "ju3 xing2": 9864,
  " zhuan3": 9865,
  "fang2 yu4 ": 9866,
  " ren4 wu4 ": 9867,
  "wu3 zhuang1 ": 9868,
  " nian2 bei4 ": 9869,
  "yi2 chan3 ": 9870,
  " ding4 ": 9871,
  " shi2 yi1 ": 9872,
  " wan4 mei3 yuan2 ": 9873,
  "ao4 men2 ": 9874,
  "yun3 xu3 ": 9875,
  " jiu3": 9876,
  " zhi4 shi2 ": 9877,
  " jia1 ru4": 9878,
  " zhi1 hou4": 9879,
  "ti2 gao1 ": 9880,
  " li2": 9881,
  "zhou4 ": 9882,
  "fei1 lv4 ": 9883,
  "wa3 er3 ": 9884,
  "bao4 dao3 ": 9885,
  "yi3 lai2 ": 9886,
  "le ta1 de ": 9887,
  "hui4 yuan2 ": 9888,
  " shi2 qi1": 9889,
  "ji4 lu4 ": 9890,
  " ji1 guan1 ": 9891,
  "du1 shi4 ": 9892,
  "cui4 ": 9893,
  "le yi2 ge4 ": 9894,
  " C ": 9895,
  " cheng1 wei2 ": 9896,
  "hua4 jia1 ": 9897,
  "ji1 chang3 ": 9898,
  " fu4 ze2": 9899,
  "yi2 min2 ": 9900,
  "shu1 de ": 9901,
  "ju4 li2 ": 9902,
  "shu4 zi4 ": 9903,
  "   2024": 9904,
  " shi4 yi1 zhong3": 9905,
  "jin1 de ": 9906,
  " ren2 lei4": 9907,
  " he2 shi2 ": 9908,
  "hong1 zha4": 9909,
  " zi4 ji3 de ": 9910,
  "jie1 ji2 ": 9911,
  "duan4 de ": 9912,
  "du1 jiao4 ": 9913,
  " hong2": 9914,
  "li4 shi4 ": 9915,
  "ke4 li3 ": 9916,
  "yan2 de ": 9917,
  "ying2 de ": 9918,
  "hua1 yuan2 ": 9919,
  "shan1 mai4": 9920,
  "sheng1 ji2 ": 9921,
  "yue1 you3 ": 9922,
  " shi4 da4 ": 9923,
  "wen2 zi4 ": 9924,
  "mian4 dui4 ": 9925,
  " wan4 yuan2 ": 9926,
  "yao1 qing3 ": 9927,
  " guan1": 9928,
  " xiu1 ": 9929,
  " 2011 nian2 ": 9930,
  "yong4 hu4 ": 9931,
  " liang2 ": 9932,
  "dong1 ji4 ": 9933,
  "zi1 jin1 ": 9934,
  "deng3 wei4 ": 9935,
  " xu2": 9936,
  " li4 shi3": 9937,
  "wu3 tai2 ": 9938,
  "su2 ": 9939,
  " she4 ji2 ": 9940,
  "han2 shu4 ": 9941,
  " zhi4 li4 ": 9942,
  "gao1 deng3 ": 9943,
  " 2016": 9944,
  " suo3 yi3": 9945,
  "yuan2 ji2 ": 9946,
  " ren2 min2": 9947,
  "   G": 9948,
  " he2 lan2 ": 9949,
  "shen1 qing3 ": 9950,
  " 2005 nian2 ": 9951,
  "dong4 zuo4 ": 9952,
  "xiao4 guo3 ": 9953,
  " ju4": 9954,
  " han2 guo2 ": 9955,
  " 3 yue4 ": 9956,
  "mei3 guo2 de ": 9957,
  " 2008 nian2 ": 9958,
  "   xin1 ": 9959,
  " ming2 chao2 zheng4 zhi4 ren2 wu4 ": 9960,
  " pei4": 9961,
  "   zao3 nian2 ": 9962,
  "jiao4 lian4 ": 9963,
  " xian4 he2 ": 9964,
  " ri4 jun1 ": 9965,
  "xia4 ling4": 9966,
  "1990 nian2 ": 9967,
  " yuan2 ming2 ": 9968,
  "liang3 zhong3 ": 9969,
  "ling3 tu3 ": 9970,
  "   hou4 ": 9971,
  "nu3 li4 ": 9972,
  "zheng4 ming2 ": 9973,
  " zhao1": 9974,
  "lu4 jun1": 9975,
  " zhong1 yu2 ": 9976,
  "zuo4 yong4 ": 9977,
  "   you2 ": 9978,
  "qu1 yu4": 9979,
  "jing1 chang2 ": 9980,
  "lie4 biao3 ": 9981,
  "you3 zai4 ": 9982,
  " yi4 yi4 ": 9983,
  "ying3 pian4": 9984,
  " zhou1 nian2 ": 9985,
  " jin4 xing2": 9986,
  " nan2 zhi4 ": 9987,
  " guo2 hui4 ": 9988,
  " gong1 hui4 ": 9989,
  " jue2": 9990,
  " bi3": 9991,
  "guan1 xi4": 9992,
  " ji4 zhe3 ": 9993,
  " yuan2 gong1 ": 9994,
  "nei4 lu4 ": 9995,
  "zhao3 dao4 ": 9996,
  "wang2 chao2": 9997,
  " li3": 9998,
  " bo2": 9999,
  " hen3 ": 10000,
  "jing1 li3 ": 10001,
  "lv3 xing2 ": 10002,
  "shen2 jing1 ": 10003,
  " chi4 ": 10004,
  " shi4 hou4 ": 10005,
  "yong4 zuo4 ": 10006,
  "li3 lun4 ": 10007,
  " zhu4": 10008,
  " gong1 chang3 ": 10009,
  "fu4 jin4 ": 10010,
  "hui2 ying4 ": 10011,
  "yu2 zai4 ": 10012,
  " ge2": 10013,
  " ban3 ": 10014,
  "tai4 ren2 ": 10015,
  " he2 gong1 ": 10016,
  "ke3 yi3 zai4 ": 10017,
  " ban1 ": 10018,
  "zhi1 jian1 ": 10019,
  " luo2": 10020,
  "ti2 dao4 ": 10021,
  "bao3 chi2": 10022,
  " cheng2 xian4 ": 10023,
  "chu1 ban3 ": 10024,
  " nian2 1 yue4 1 ri4 ": 10025,
  " ji1 che1 ": 10026,
  " shi2 er4 ": 10027,
  "jiu3 dian4 ": 10028,
  "ai1 ji2 ": 10029,
  " fan3": 10030,
  "qi4 xiang4 ": 10031,
  "shou3 ji1 ": 10032,
  " guo2 fang2": 10033,
  "e ": 10034,
  "kong1 zhong1 ": 10035,
  " nian2 shi4 jie4 ": 10036,
  " lei2 ": 10037,
  "tong1 dao4 ": 10038,
  "kong3 bu4 ": 10039,
  "ti1 ": 10040,
  "gui1 ze2 ": 10041,
  "qi2 zhong1 yi1 zhong3 ": 10042,
  " ti2 gong1 ": 10043,
  "zuo4 wei4 ": 10044,
  "wo3 men": 10045,
  "bei4 shi4 wei4 ": 10046,
  " de zhi4 ": 10047,
  " wo3 men ": 10048,
  "li4 wei4 ": 10049,
  "shu1 ji2 ": 10050,
  " er2 cheng2 ": 10051,
  "shou3 du1 ": 10052,
  "1984 nian2 ": 10053,
  "dong1 nan2 bu4 ": 10054,
  "   P": 10055,
  "yi3 xia4 ": 10056,
  "yan3 yi4 ": 10057,
  "15 ": 10058,
  " xi1 wang4": 10059,
  "ji1 he2 ": 10060,
  "da4 lu4 de ": 10061,
  "qi3 ye4": 10062,
  "sui4 dao4 ": 10063,
  "meng3 ": 10064,
  " de jia1 ": 10065,
  " zuo4 wei2": 10066,
  "dai4 li3 ": 10067,
  "jin1 shu3 ": 10068,
  "jin4 yi2 bu4 ": 10069,
  "ge2 wei4 ": 10070,
  "lao2 dong4 ": 10071,
  "zhu3 chi2": 10072,
  "jiao4 xue2 ": 10073,
  "biao3 mian4 ": 10074,
  "gu4 wen4 ": 10075,
  " ying1 yu3 ": 10076,
  "ni1 ": 10077,
  " xi4 lie4 ": 10078,
  " W": 10079,
  "xin1 jia1 po1": 10080,
  " yong1 you3 ": 10081,
  " he2 xi1 ": 10082,
  " bu4 bu4 ": 10083,
  " you3 ji1 ": 10084,
  "cai2 liao4 ": 10085,
  "chao2 xian1": 10086,
  " 2001 nian2 ren2 kou3 ": 10087,
  "dao4 lu4 ": 10088,
  "hua2 ren2 ": 10089,
  " tu3 ": 10090,
  " s   ": 10091,
  " zai4 wei4 ": 10092,
  " bei3 qi3 ": 10093,
  "jing4 de ": 10094,
  "si3 hou4 ": 10095,
  "bo1 lan2": 10096,
  "tong1 che1 ": 10097,
  "si1 li4 ": 10098,
  "1989 nian2 ": 10099,
  " zhong1 guo2 da4 lu4 ": 10100,
  "bai2 se4 ": 10101,
  "ya4 li4 shan1 da4 ": 10102,
  "hui4 shi4 ": 10103,
  " yi3 bei4 ": 10104,
  "bao3 liu2 ": 10105,
  " ju4 you3 ": 10106,
  " sai4 ji4 ": 10107,
  "nv3 zi3": 10108,
  "ju1 min2": 10109,
  " hai3": 10110,
  "zhu3 li4 ": 10111,
  " ping2 mian4 ": 10112,
  "tiao2 zheng3 ": 10113,
  "ni2 ke4 ": 10114,
  " ta1 wei4 ": 10115,
  "T ": 10116,
  " 2021": 10117,
  "zhu3 de ": 10118,
  " zhi1 jian1": 10119,
  " qu3 ": 10120,
  " si1 te4": 10121,
  " gang3 ": 10122,
  " cha2 ": 10123,
  " xian4 de yi2 ge4 ": 10124,
  "   2012": 10125,
  " dao4 da2 ": 10126,
  "fa3 an4 ": 10127,
  "yin3 qi3 ": 10128,
  " dong1 nan2 ": 10129,
  "yin3 qi3": 10130,
  "yun4 zuo4 ": 10131,
  "zhao4 kai1 ": 10132,
  "jiao1 hui4 ": 10133,
  "shou3 ge4 ": 10134,
  "tui4 chu1 ": 10135,
  "di4 er4 ": 10136,
  " er2 yan2 ": 10137,
  " xian4 de yi2 ge4": 10138,
  " bei4 ren4 wei2 shi4 ": 10139,
  "li4 zai4 ": 10140,
  " ji1 hu1": 10141,
  " ke4 cheng2 ": 10142,
  "wen2 zhang1 ": 10143,
  "ji3 ge4 ": 10144,
  " shi4 jia1 ": 10145,
  " you3 yi4 ": 10146,
  "te4 shu1 ": 10147,
  " xi1 si1 ": 10148,
  "xiang1 guan1": 10149,
  "shi1 fan4": 10150,
  " fu4 qin1 ": 10151,
  "wu2 fa3": 10152,
  " qi3": 10153,
  " lv3 ": 10154,
  "jin1 hui4 ": 10155,
  "jie4 de ": 10156,
  "zhai4 ": 10157,
  "jiao4 shi1 ": 10158,
  "ceng2 jing1": 10159,
  "can1 mou2": 10160,
  "   xia4 ": 10161,
  "lv4 shi1 ": 10162,
  " shi4 yu3 ": 10163,
  " nv3 xing4 ": 10164,
  "fei1 zhou1 ": 10165,
  "zha2 ": 10166,
  "xi1 ban1 ya2": 10167,
  "da4 wei4 ": 10168,
  " yi1 ji2 ": 10169,
  " feng2 ": 10170,
  "chang2 de ": 10171,
  " bu4 de2": 10172,
  " ta1 men zai4 ": 10173,
  "wei1 ji1 ": 10174,
  " yi4 fang1 mian4 ": 10175,
  "fa3 yuan4": 10176,
  "yi2 zhi3 ": 10177,
  " er2 shui3 yu4 mian4 ji1 wei4 0": 10178,
  " guo2 jia1 de ": 10179,
  "zhe3 zai4 ": 10180,
  " he2 qi2 ta1 ": 10181,
  "ya4 zhou1": 10182,
  " zhu3 xi2 ": 10183,
  "jin1 pai2 ": 10184,
  "che1 de ": 10185,
  "16 ": 10186,
  " zhi1 wei4 ": 10187,
  " bing4 jiang1 ": 10188,
  "kang1 xi1 ": 10189,
  " cheng2 xu4 ": 10190,
  "yao4 wu4 ": 10191,
  " wei4 you3 ": 10192,
  "biao3 da2": 10193,
  "   cheng2 ": 10194,
  " cheng2 ren4 ": 10195,
  "guo4 qu4 ": 10196,
  "pu2 tao2 ya2": 10197,
  "da4 di4 ": 10198,
  "bian4 de2 ": 10199,
  " zhi4 liao2 ": 10200,
  "huan1 ying2 ": 10201,
  " gao1": 10202,
  " ban4 ": 10203,
  " shou1 ": 10204,
  "wen2 xian4 ": 10205,
  " bai3 ": 10206,
  "duo1 nian2 ": 10207,
  " si1 ke4 ": 10208,
  " jin4 xing2 le ": 10209,
  "mu4 biao1": 10210,
  " fei4": 10211,
  " guan1 yu2 ": 10212,
  "   E": 10213,
  "zhuang1 shi4 ": 10214,
  "zhi2 min2": 10215,
  "dong1 bei3 bu4 ": 10216,
  "gou4 zao4 ": 10217,
  "huo4 de2 le ": 10218,
  "bo2 wu4 guan3": 10219,
  "ao4 da4 li4 ya4 ": 10220,
  "zhu4 li3 ": 10221,
  "leng3 ": 10222,
  " qiu2 yuan2 ": 10223,
  "xi4 tong3 de ": 10224,
  " 00 ": 10225,
  " 100": 10226,
  "jiang1 hui4 ": 10227,
  "fu2 yi4 ": 10228,
  "D ": 10229,
  "ben3 di4 ": 10230,
  " er2 gai1 di4 ": 10231,
  "xian1 sheng1 ": 10232,
  " bu4 la1 ": 10233,
  "bo1 lan2 ": 10234,
  " yu2 le4 ": 10235,
  "jia1 ru4": 10236,
  "fang4 qi4 ": 10237,
  "jian4 yi4 ": 10238,
  " 2015": 10239,
  "   F": 10240,
  "dang1 shi2 de ": 10241,
  " qi1 xi1 zai4 ": 10242,
  "mao2 ze2 ": 10243,
  "xiao4 de ": 10244,
  "sa4 si1 ": 10245,
  "yi4 da4 li4 ": 10246,
  " bing4 yu3 ": 10247,
  " da4 lu4 ": 10248,
  "1985 nian2 ": 10249,
  "fu4 qin1": 10250,
  "ze2 wei4 ": 10251,
  " wei4 lai2 ": 10252,
  " ce4 ": 10253,
  " 2007 nian2 ": 10254,
  "   cong2 ": 10255,
  "zi4 you2": 10256,
  " jian4 zao4 ": 10257,
  "d ": 10258,
  " jin4 yi2 bu4 ": 10259,
  "shou1 shi4 ": 10260,
  " de zheng4 ": 10261,
  "liu2 zai4 ": 10262,
  "cheng1 zuo4 ": 10263,
  " nian2   ": 10264,
  "nan2 jing1 ": 10265,
  " jin4 gong1 ": 10266,
  "guang3 gao4 ": 10267,
  "sa4 er3 ": 10268,
  "luo2 di4 ": 10269,
  " shi4 zheng4 ": 10270,
  " fu4 qin1": 10271,
  " ji4 shu4": 10272,
  " hao4 wei4 ": 10273,
  "shi4   ": 10274,
  "ji4 xu4 ": 10275,
  "tan3 ke4 ": 10276,
  "le   ": 10277,
  "1949 nian2 ": 10278,
  " de sheng1 ": 10279,
  " ren2 men": 10280,
  " ri4 jun1": 10281,
  " yi4 mei3 yuan2 ": 10282,
  "ci4 shi3 ": 10283,
  "jin3 ji2 ": 10284,
  "xi4 ju4 ": 10285,
  " 2013": 10286,
  " zai4 ci3": 10287,
  " si1 tan3": 10288,
  " te4 bie2 shi4 ": 10289,
  "huo3 jian4 ": 10290,
  " jia1 zu2 ": 10291,
  "piao4 fang2 ": 10292,
  "bi3 li4 shi2 ": 10293,
  "qing3 qiu2 ": 10294,
  "jing3 fang1 ": 10295,
  "kao3 lv4": 10296,
  " bing1 ": 10297,
  " he4 ": 10298,
  " shi4 ri4 ben3 ": 10299,
  " jie2 guo3": 10300,
  "tai4 ping2 yang2": 10301,
  "zhan1 mu3 si1 ": 10302,
  "M ": 10303,
  " 2014": 10304,
  " chu1 sheng1 ": 10305,
  " mei3 nian2 ": 10306,
  "di4 zai4 ": 10307,
  " yi3 you3 ": 10308,
  "shang4 wu3 ": 10309,
  " zhao4": 10310,
  "ba1 li2": 10311,
  "wang2 chao2 ": 10312,
  "tou2 piao4": 10313,
  "   jie2 zhi4 ": 10314,
  "nei4 you3 ": 10315,
  "bian1 de ": 10316,
  "wan2 gong1 ": 10317,
  "shi2 jian1 ": 10318,
  " zhi4 cheng2 ": 10319,
  "guang3 dong1 sheng3 ": 10320,
  " sai4 ": 10321,
  "fen1 zhong1 ": 10322,
  "pai1 she4": 10323,
  " yuan2 ben3 ": 10324,
  "que4 ren4 ": 10325,
  "chang3 he2 ": 10326,
  " qi2 zai4 ": 10327,
  " zhi1 zi ": 10328,
  "mu3 qin1": 10329,
  "shen1 ti3 ": 10330,
  "é ": 10331,
  " da4 yue1 ": 10332,
  " can1 jia1 ": 10333,
  " zhi1 de ": 10334,
  "meng2 gu3": 10335,
  " jing1 ji4 ": 10336,
  "gu3 fen4": 10337,
  " zhan4 dou4 ": 10338,
  "xi2 xing4": 10339,
  "geng4 duo1 ": 10340,
  "hu2 bei3 ": 10341,
  " yue1 han4 ": 10342,
  "k ": 10343,
  "deng1 shang4 ": 10344,
  " xian4 chang3 ": 10345,
  " deng4": 10346,
  "   zeng1 ": 10347,
  "suo3 zai4 ": 10348,
  "min2 jian1 ": 10349,
  "qing2 bao4 ": 10350,
  " ying1 wen2 ": 10351,
  " xiang3 ": 10352,
  "wai4 bu4 ": 10353,
  "zhong4 yi4 ": 10354,
  "mi4 mi4 ": 10355,
  " xun2 ": 10356,
  " heng2 ": 10357,
  "xiao4 yuan2 ": 10358,
  " shi4 ye4 ": 10359,
  " zai4 qi2 ": 10360,
  "guan1 bi4 ": 10361,
  "guang3 fan4": 10362,
  "kao3 lv4 ": 10363,
  "e2 luo2 si1": 10364,
  "fen3 ": 10365,
  "te4 se4 ": 10366,
  "cun4 ": 10367,
  " you3 xian4 ": 10368,
  "sen1 lin2 ": 10369,
  "ma3 si1 ": 10370,
  " yan2": 10371,
  " wo4": 10372,
  " 2020": 10373,
  "wu4 yuan2 ": 10374,
  "chi1 ": 10375,
  "S ": 10376,
  "an1 pai2 ": 10377,
  " wo3 men": 10378,
  " ai1 ": 10379,
  " quan2 qiu2 ": 10380,
  "xia4 yi1 ": 10381,
  "mei3 ge4 ": 10382,
  "23 ": 10383,
  " da4 duo1 shu4 ": 10384,
  " A ": 10385,
  "cheng2 nian2 ": 10386,
  "er4 yue4 ": 10387,
  "zeng4 ": 10388,
  " bu4 jiu3": 10389,
  "zhuang1 bei4 ": 10390,
  " da4 dao4 ": 10391,
  "yan3 chang4 ": 10392,
  "liang3 nian2 ": 10393,
  " zui4 gao1 ": 10394,
  "neng2 zai4 ": 10395,
  " ji1 bai4": 10396,
  "tu3 er3 qi2 ": 10397,
  "qian1 zhi4 ": 10398,
  "huan3 ": 10399,
  "1986 nian2 ": 10400,
  " di4 yi1 ci4 ": 10401,
  " R": 10402,
  " gang1 ": 10403,
  "chang3 di4 ": 10404,
  "min2 zhu3 dang3 ": 10405,
  " zhong1 shi4 ": 10406,
  "V ": 10407,
  " ka3": 10408,
  " shi2 yan4 ": 10409,
  "zuo4 zhan4 ": 10410,
  " 10 ": 10411,
  "nan2 yi3 ": 10412,
  " ji2 bei3 ": 10413,
  " chu1 lai2 ": 10414,
  "tai2 feng1 ": 10415,
  " tong1 chang2": 10416,
  " 2017": 10417,
  "ban4 li3 ": 10418,
  "13 ": 10419,
  " zhi1 dao4 ": 10420,
  "xing4 qu4 ": 10421,
  "tian1 jin1": 10422,
  "long2 jiang1 ": 10423,
  "c ": 10424,
  "ling3 shi4 ": 10425,
  " bu4 zu2 ": 10426,
  "yong4 tu2 ": 10427,
  "li3 gong1 ": 10428,
  " kang1 ": 10429,
  "tian1 de ": 10430,
  "tian1 jin1 ": 10431,
  "x ": 10432,
  " yuan2 su4 ": 10433,
  "wei1 er3 ": 10434,
  "nong2 ye4": 10435,
  " qing1 chao2 ": 10436,
  "ai1 er3 ": 10437,
  " yue4 tuan2 ": 10438,
  " cheng2 du4 ": 10439,
  "zhan4 ling3 ": 10440,
  "chang2 jian4 de ": 10441,
  "jin4 xing2 le ": 10442,
  " shi3 jian4 yu2 ": 10443,
  " xuan1 ": 10444,
  "   xian4": 10445,
  "dao3 dan4 ": 10446,
  "xiu1 zheng4 ": 10447,
  "ming2 zi4 ": 10448,
  "gui4 zhou1 ": 10449,
  "fen1 bu4 yu2 ": 10450,
  "xi3 ju4 ": 10451,
  " gong1 zhu3 ": 10452,
  " ta1 hai2 ": 10453,
  " zhan4 dou4": 10454,
  "ma3 lai2 xi1 ya4 ": 10455,
  "xi2 xing4 bu4 ming2 ": 10456,
  " shi2 dai4": 10457,
  " wen2 hua4 ": 10458,
  "zhang4 ai4 ": 10459,
  "25 ": 10460,
  " chu1 qi1 ": 10461,
  "xiang4 shi4 ": 10462,
  "hua2 sheng4 ": 10463,
  "sheng1 cheng2 ": 10464,
  " you3 xie1 ": 10465,
  " sheng1 chan3": 10466,
  "ren4 ming4 wei4 ": 10467,
  " tao2 ": 10468,
  " yi4 qi3": 10469,
  " wan4 li4 ": 10470,
  "fa3 guan1 ": 10471,
  " ye3 jiu4 shi4 ": 10472,
  " rong2 ": 10473,
  "ma ": 10474,
  " de fang1 shi4 ": 10475,
  " he2 he2 ": 10476,
  " gong4": 10477,
  "   ta1 ": 10478,
  "zu3 jian4 ": 10479,
  " sheng1 huo2 xi2 xing4 bu4 ming2 ": 10480,
  " chu3 yu2 ": 10481,
  "she4 zhi4 ": 10482,
  "ti2 chu1": 10483,
  "jiao1 liu2 ": 10484,
  "shou4 dao4": 10485,
  "ji1 chu3 ": 10486,
  " ta1 ye3 ": 10487,
  " gen1 ju4": 10488,
  " luo4": 10489,
  " han4": 10490,
  " gong4 you3 ": 10491,
  "hen3 da4 ": 10492,
  " sui4 shi2 ": 10493,
  " yin2 ": 10494,
  "zhi4 zhong1 ": 10495,
  "bao4 fa1": 10496,
  "zhu3 shi4 ": 10497,
  "ku3 ": 10498,
  "   mei3 guo2 ": 10499,
  "ling3 xiu4 ": 10500,
  "ju4 jue2 ": 10501,
  "la1 ding1": 10502,
  "ren4 shi2 ": 10503,
  " er2 bu2 shi4 ": 10504,
  "chuan2 shuo1 ": 10505,
  "hua4 he2 wu4 ": 10506,
  " kong3 ": 10507,
  "he2   ": 10508,
  " rui4 ": 10509,
  " dian4 ying3 ": 10510,
  "bao4 li4 ": 10511,
  "an1 na4 ": 10512,
  " yi1 xue2 ": 10513,
  "an1 zhuang1": 10514,
  "wo3 men ": 10515,
  " pa4": 10516,
  "   li3 ": 10517,
  "zhi4 bu4 ": 10518,
  "jia1 li4 fu2 ": 10519,
  " fa3": 10520,
  "shu2 ": 10521,
  " you3 yi2 ge4 ": 10522,
  " xian4 xiang4 ": 10523,
  "shang4 ying4 ": 10524,
  "wen2 yi4 ": 10525,
  "qiong2 ": 10526,
  " zai4 nei4 de ": 10527,
  "gao1 su4 ": 10528,
  "1987 nian2 ": 10529,
  " zai4 du4 ": 10530,
  " er2 bu4 ": 10531,
  "chuang4 ban4": 10532,
  "ji4 shi4 ": 10533,
  "yuan4 shi4 ": 10534,
  " wei4 xing1 ": 10535,
  " li3 lun4": 10536,
  "yan2 shen1": 10537,
  "hai3 an4 ": 10538,
  "nv3 xing4": 10539,
  "chuang4 jian4 ": 10540,
  "bin1 hai3 ": 10541,
  "shun4 li4 ": 10542,
  " dong1 bei3 ": 10543,
  "   ci3 wai4 ": 10544,
  " 2013 nian2 ": 10545,
  "lei2 si1 ": 10546,
  "ruan3 jian4 ": 10547,
  " sheng1 zhang3": 10548,
  " you2 qi2 shi4 ": 10549,
  "tui1 jin4 ": 10550,
  "zu1 ": 10551,
  " he2 bu4 ": 10552,
  "hai3 wai4 ": 10553,
  "shu1 ru4 ": 10554,
  "zi1 chan3 ": 10555,
  "lun4 wen2 ": 10556,
  " shu3": 10557,
  " xing2 zheng4": 10558,
  "wang3 qiu2 ": 10559,
  "   B": 10560,
  " wa3 ": 10561,
  " na4": 10562,
  " bu4 luo4 ": 10563,
  " da4 sha4": 10564,
  "1980 nian2 ": 10565,
  "zhu3 yi4 de ": 10566,
  "ping2 lun4 ": 10567,
  "zui4 gao1": 10568,
  " shi4 yu2 ": 10569,
  "ying4 yong4": 10570,
  "cai3 qu3 ": 10571,
  " 2010": 10572,
  " 2012": 10573,
  "pai2 ming2 di4 ": 10574,
  " sai1 ": 10575,
  " 2006 nian2 ": 10576,
  " ying2 ": 10577,
  " ta3 ": 10578,
  "bian4 wei4 ": 10579,
  " bei3 jing1 ": 10580,
  " xi2 ": 10581,
  "yu2 de ": 10582,
  "ju4 he2 ": 10583,
  " zai4 xi1 ": 10584,
  "ren2 da4 ": 10585,
  " de2 er3 ": 10586,
  " hou4 xuan3 ren2 ": 10587,
  "bao4 gao4": 10588,
  "bo1 fang4 ": 10589,
  "jiao4 shi4 ": 10590,
  "tou2 zi1": 10591,
  " yong4 yu2 ": 10592,
  "ma3 li3 ": 10593,
  "ze2 ren4 ": 10594,
  "rao3 ": 10595,
  "   qi2 ": 10596,
  "fang1 mian4 de ": 10597,
  "ge4 zhong3 ": 10598,
  " shi4 min2 ": 10599,
  " he2 da4 ": 10600,
  " lai2": 10601,
  "   de   ": 10602,
  "ling3 di4 ": 10603,
  " zai4 ci4": 10604,
  "fan4 wei2 nei4 ": 10605,
  "   ju4 qing2 ": 10606,
  "   qian2 ": 10607,
  "xiang1 shi4 di4 ": 10608,
  "zhe4 li3 ": 10609,
  " yu2 ren2 ": 10610,
  "zheng4 dang3 ": 10611,
  " ri4 bao4 ": 10612,
  "xing2 cheng2 ": 10613,
  "fa1 xing2 de ": 10614,
  " ji1 hu1 ": 10615,
  " ling4 yi1 ": 10616,
  " shi4 gu4 ": 10617,
  "zhi2 jie1": 10618,
  " shuo1 ": 10619,
  "feng1 wei4 ": 10620,
  "pai4 de ": 10621,
  "1982 nian2 ": 10622,
  " zhi4 shao3 ": 10623,
  "biao3 da2 ": 10624,
  "yuan4 yi4 ": 10625,
  " ta1 he2 ": 10626,
  "ju4 le4 bu4 ": 10627,
  "dian4 zi": 10628,
  "y ": 10629,
  "   chu1 ": 10630,
  "wang3 luo4": 10631,
  "du2 li4 de ": 10632,
  " fan1 ": 10633,
  "e2 guo2 ": 10634,
  "   xian4 ": 10635,
  " zhi1 fu4 ": 10636,
  "jiu3 long2 ": 10637,
  "dang1 xuan3 ": 10638,
  "he4 er3 ": 10639,
  " you3 xiao4 ": 10640,
  "zi4 ran2": 10641,
  "bu2 ": 10642,
  "wen1 du4 ": 10643,
  "xi4 bao1": 10644,
  "1945 nian2 ": 10645,
  "1983 nian2 ": 10646,
  "ji4 cheng2 ": 10647,
  "dian4 nao3": 10648,
  "yun3 xu3": 10649,
  " yi1 xiao3 shi2 ": 10650,
  "jing3 cha2": 10651,
  "huo3 shan1 ": 10652,
  " da4 xi1 yang2 ": 10653,
  "guo4 qu4": 10654,
  "pai2 hang2 ": 10655,
  "an1 de2 ": 10656,
  "   H": 10657,
  "19 shi4 ji4 ": 10658,
  "jiu4 du2": 10659,
  " dong1 lin2 ": 10660,
  "   ming2 ": 10661,
  "zhi1 chi2": 10662,
  "fang3 wen4": 10663,
  " jiu4 shi4 ": 10664,
  " zuo4 jia1 ": 10665,
  "dang3 yuan2 ": 10666,
  "mian2 ": 10667,
  " da4 fu2 ": 10668,
  "yin3 qing2 ": 10669,
  "qu1 yi4 hui4 ": 10670,
  " de2 hua2 ": 10671,
  " 2012 nian2 ": 10672,
  "huan4 cheng2 ": 10673,
  "biao3 yan3": 10674,
  "dou1 zai4 ": 10675,
  " di4 yi2 ge4 ": 10676,
  "xian4 zhi4 ": 10677,
  " yu3 mao2": 10678,
  " chu1 zhan4 ": 10679,
  "bi3 ya4": 10680,
  "   di4 fang1 ": 10681,
  "xi3 huan1": 10682,
  "xiang1 dang1": 10683,
  " reng2": 10684,
  " bing4 bei4 ": 10685,
  "fang1 yan2 ": 10686,
  "qu1 he2 ": 10687,
  " yi1 tong2 ": 10688,
  "xun2 yang2": 10689,
  " zhong1 hua2 ren2 min2 gong4 he2 guo2 zheng4 zhi4 ren2 wu4 ": 10690,
  "san1 shi4 ": 10691,
  "jing1 yan4 ": 10692,
  " ji4 suan4 ": 10693,
  "pu3 bian4 ": 10694,
  " sheng1 yu2 ": 10695,
  " zhong1 bei4 ": 10696,
  "guan1 dian3 ": 10697,
  "jiang4 di1 ": 10698,
  "ke1 de qi2 zhong1 yi1 zhong3 ": 10699,
  " gong1 yi4 ": 10700,
  "han2 you3 ": 10701,
  "liang3 ming2 ": 10702,
  "dian3 li3 ": 10703,
  " shi4 gong1 ": 10704,
  "zhong4 duo1 ": 10705,
  " neng2 ": 10706,
  "da4 zhi4 ": 10707,
  " bing4 du2": 10708,
  " qi2 zhong1 yi1 ": 10709,
  "   2011": 10710,
  "ya4 jun1 ": 10711,
  "she4 qu1 ": 10712,
  "kou3 wei4 ": 10713,
  "cheng2 yuan2 ": 10714,
  " xian4 shi4 ": 10715,
  "zhi1 qian2 ": 10716,
  "mi4 shu1 zhang3 ": 10717,
  " di4 si4": 10718,
  " liu4": 10719,
  "zuo4 shi4 ": 10720,
  "tiao2 li4 ": 10721,
  "nei4 ge2 ": 10722,
  "P ": 10723,
  " ping2 jun1 ": 10724,
  "shu4 yu3 ": 10725,
  "wu2 zheng4 zhuang4 ": 10726,
  "14 ": 10727,
  " xian4 ren4 ": 10728,
  "tu1 po4 ": 10729,
  " wan2 ": 10730,
  "xie3 dao4 ": 10731,
  "dang4 tian1 ": 10732,
  "yi2 du4 ": 10733,
  " zu3 fu4 ": 10734,
  " xing2 wei4 ": 10735,
  " bi3 sai4 ": 10736,
  " gong1 min2 ": 10737,
  "xing1 deng3 wei4 ": 10738,
  "   ji2 ": 10739,
  " tong2 yi4 ": 10740,
  "F ": 10741,
  "shan1 shi4 ": 10742,
  " nian2 he2 ": 10743,
  "hong2 se4 ": 10744,
  " zui4 chu1 ": 10745,
  "kai1 shi3 zai4 ": 10746,
  " xin4 ": 10747,
  "tuan2 de ": 10748,
  "gei3 le ": 10749,
  "she3 ": 10750,
  " ji1 jin1 ": 10751,
  "si3 wang2": 10752,
  "zheng3 ti3 ": 10753,
  " 500": 10754,
  "lu3 si1 ": 10755,
  "jue2 dui4 ": 10756,
  " quan2 li4 ": 10757,
  "dai4 biao3 da4 hui4 ": 10758,
  "   2010": 10759,
  "chi2 you3 ": 10760,
  "ying1 wen2 ": 10761,
  " sun1": 10762,
  "   a1 ": 10763,
  "zheng4 bu4 ": 10764,
  "gai4 nian4": 10765,
  " da2": 10766,
  " gong1 ju4 ": 10767,
  "she4 shi1 ": 10768,
  "fang1 fa3": 10769,
  "yang2 shi4 ": 10770,
  " shi4 bing1 ": 10771,
  " zhe4 zhong3": 10772,
  "xia4 xia2 de yi2 ge4 ": 10773,
  "ben3 ren2 ": 10774,
  "   to   ": 10775,
  "   2 ": 10776,
  " 0 ": 10777,
  "ni2 er3 ": 10778,
  " de cheng2 ji4 ": 10779,
  "   1 ": 10780,
  " ji2 ren2 ": 10781,
  "lai2 yue4 ": 10782,
  "bao3 shou3 ": 10783,
  "yi2 ding4 ": 10784,
  "tou2 xiang2 ": 10785,
  "gui4 zu2 ": 10786,
  "yue4 zhong1 ": 10787,
  "gua4 ": 10788,
  "zhi2 dao3 ": 10789,
  "zhen4 qu1 de ": 10790,
  "jie4 shao4 ": 10791,
  "zao3 qi1": 10792,
  "bo2 shi4 xue2 wei4 ": 10793,
  "   qi2 ta1 ": 10794,
  "shan1 ji1 ": 10795,
  "huang2 hou4 ": 10796,
  "qi3 dong4 ": 10797,
  " mei3 ge4 ": 10798,
  "I ": 10799,
  "tang1 ": 10800,
  " wei2 er3": 10801,
  "yao1 qing3": 10802,
  "gu3 dai4 ": 10803,
  " ming2 dan1 ": 10804,
  " de2 yu3 ": 10805,
  "yi4 nian2 ": 10806,
  "zhen3 ": 10807,
  " li4 fa3": 10808,
  " yi1 zuo4 ": 10809,
  " yi3 ji2": 10810,
  " er2 gai1 ": 10811,
  "zhong3 zu2 ": 10812,
  "hei1 se4 ": 10813,
  "1 li4 ": 10814,
  "kui4 ": 10815,
  " ren2 min2 zheng4 fu3 ": 10816,
  "en1 sheng3 ": 10817,
  "tou4 guo4": 10818,
  " xiang3 nian2 ": 10819,
  "wu2 zheng4 zhuang4 gan3 ran3 ": 10820,
  " yong4": 10821,
  " 30 ": 10822,
  "sui2 zhu4 ": 10823,
  "ming2 ren2 ": 10824,
  "duo1 ren2 ": 10825,
  "huo2 yue4 ": 10826,
  "mu4 qian2": 10827,
  "chang2 wu4 ": 10828,
  "chang2 wei3 ": 10829,
  "que4 zhen3 bing4 li4 ": 10830,
  " er4 shi2 ": 10831,
  "sa1 ": 10832,
  " ri4 yu2 ": 10833,
  "gai3 ming2 wei4 ": 10834,
  "chu1 shen1 ": 10835,
  "dian4 hua4 ": 10836,
  " 2022": 10837,
  " bu4 si1 ": 10838,
  " ji1 si1 ": 10839,
  "tai4 zi ": 10840,
  " 7 ": 10841,
  " bi3 ru2 ": 10842,
  "p ": 10843,
  "   gai1": 10844,
  "ming2 zhi4 ": 10845,
  "ke4 cheng2 ": 10846,
  "kun4 nan2 ": 10847,
  " bu4 li4 ": 10848,
  "dan1 de ": 10849,
  "long2 de ": 10850,
  "tun2 ": 10851,
  "zui4 duo1 ": 10852,
  " mei3 yuan2 ": 10853,
  "que1 fa2": 10854,
  "ti2 ji2 ": 10855,
  " wei4 yu2 zhong1 guo2 ": 10856,
  "yi3 jing1 ": 10857,
  "sai1 er3 wei2 ": 10858,
  "l ": 10859,
  "hui4 zhong1 ": 10860,
  "shou1 ji2 ": 10861,
  "geng4 wei2 ": 10862,
  "xue2 hui4 ": 10863,
  " bing4 fei1 ": 10864,
  "hai3 xia2 ": 10865,
  "ru4 xuan3 ": 10866,
  "gou4 de ": 10867,
  "gong1 cheng2 ": 10868,
  " xi1 jie1 ": 10869,
  "ge1 lun2 ": 10870,
  "g ": 10871,
  "pai1 ": 10872,
  " ji1 chang3": 10873,
  "ju4 da4 ": 10874,
  " cheng2 ren2 ": 10875,
  "fu4 ze2": 10876,
  "an1 na4": 10877,
  "zu2 qiu2 yun4 dong4 yuan2 ": 10878,
  " yao1 qiu2 ": 10879,
  "xie3 de ": 10880,
  "zhui1 su4": 10881,
  " 2014 nian2 ": 10882,
  "   2": 10883,
  " tong2 shi2 gai1 di4 ": 10884,
  "zuo4 chu1 ": 10885,
  "   C": 10886,
  "bei1 si1 ": 10887,
  " ye3 zai4 ": 10888,
  "tong2 nian2 ": 10889,
  "sheng3 de ": 10890,
  "ling4 ren2 ": 10891,
  "hui4 zhi4 ": 10892,
  " de2 zhu3 ": 10893,
  "tao3 lun4": 10894,
  " yue1": 10895,
  " ji2 di4 ": 10896,
  "fan4 zui4 ": 10897,
  "gao1 su4 gong1 lu4 ": 10898,
  "nei4 lu4 sheng3 fen4 ": 10899,
  "er ": 10900,
  "an1 hui1 ": 10901,
  "ke1 xue2 jia1 ": 10902,
  "tu2 xing2 ": 10903,
  "pi1 zhun3": 10904,
  " bing4 du2 ": 10905,
  " po4 ": 10906,
  "di1 yu2 ": 10907,
  " dian4 shi4 ": 10908,
  "jiang1 zai4 ": 10909,
  "zhu2 bu4 ": 10910,
  "jian3 shao3": 10911,
  " de di4 er4 ": 10912,
  "shou4 de ": 10913,
  "shan1 de ": 10914,
  " shi4 yin1 wei4 ": 10915,
  " ke4 xi1 ": 10916,
  "lian2 he2 hui4 ": 10917,
  " ou1 yuan2 ": 10918,
  "chao1 yue4 ": 10919,
  "jie2 guo3": 10920,
  "tai2 nan2": 10921,
  "qiang2 lie4 ": 10922,
  " cha2": 10923,
  "xia4 ling4 shi2 jian1 ": 10924,
  " wan2 jia1 ": 10925,
  "hai3 ping2 mian4 ": 10926,
  "bu2 dao4 ": 10927,
  " shi2 qi1 de ": 10928,
  " yuan2 xing2 ": 10929,
  "yi2 ding4": 10930,
  " 20": 10931,
  "ye3 zai4 ": 10932,
  " ji1 hui4 ": 10933,
  " xue2 yuan4": 10934,
  "hui1 fu4": 10935,
  " jia3": 10936,
  "guo4 de ": 10937,
  "ya4 mei3 ": 10938,
  "ci4 de ": 10939,
  " guo2 nei4 ": 10940,
  "bian1 jie4 ": 10941,
  "dong3 shi4 zhang3 ": 10942,
  " mei2": 10943,
  " jiao4 yu4 ": 10944,
  "ti2 yi4 ": 10945,
  "shu1 zhong1 ": 10946,
  "xun1 zhang1 ": 10947,
  "jia4 ge2 ": 10948,
  "zhu3 jiao4": 10949,
  "shi1 bai4 ": 10950,
  " hao4 de ": 10951,
  "zhu3 yao4 de ": 10952,
  "ni2 ya4 zhou1 ": 10953,
  " hou4 bei4 ": 10954,
  " xue2 jia1 ": 10955,
  "liu2 xia4 ": 10956,
  "shuang1 fang1 ": 10957,
  "   bei4 jing3 ": 10958,
  "er2 tong2 ": 10959,
  " yi1 li4 ": 10960,
  "guan1 cha2 ": 10961,
  "pai4 qian3": 10962,
  "jia1 yi4 ": 10963,
  " bu4 dui4": 10964,
  " yi3 wei2 ": 10965,
  " zai4 shi2 ": 10966,
  " shou3": 10967,
  " bai3": 10968,
  "lian2 xu4": 10969,
  "ti2 gong1 le ": 10970,
  "xian4 de ": 10971,
  "qin1 zi4 ": 10972,
  " er2 zi ": 10973,
  "bei3 jing1 shi4 ": 10974,
  " 1950": 10975,
  " you3 suo3 ": 10976,
  "zui4 gao1 de ": 10977,
  "hui4 yi4 yuan2 ": 10978,
  "san1 jiao3": 10979,
  "   di4 fang1 zi1 liao4 ": 10980,
  " L": 10981,
  "ren4 wei4 ": 10982,
  "ma3 er3 ": 10983,
  "lan2 de ": 10984,
  "na2 xia4 ": 10985,
  "ping2 tai2 ": 10986,
  "fei1 chang2": 10987,
  "   jian3 jie4 ": 10988,
  "duo1 wei4 ": 10989,
  "zu3 fu4 ": 10990,
  "al   ": 10991,
  " he2 yue1 ": 10992,
  "1978 nian2 ": 10993,
  "le zai4 ": 10994,
  " li4 liang4 ": 10995,
  " chu1 kou3 ": 10996,
  " ta1 ceng2 dai4 biao3 ": 10997,
  " di4 li3 ": 10998,
  "nan2 bei3 ": 10999,
  "neng2 yuan2 ": 11000,
  " di4 qi1 ": 11001,
  " xian4 fa3 ": 11002,
  "gai3 bian4": 11003,
  "bei4 de ": 11004,
  " hou4 zhe3 ": 11005,
  " hu4": 11006,
  "tai2 zhong1 ": 11007,
  "di2 shi4 ": 11008,
  " zheng4 ming2 ": 11009,
  "que1 fa2 ": 11010,
  " shi2 ji4 shang4 ": 11011,
  "liao3 ": 11012,
  " cheng2 zhen4 ": 11013,
  "ban3 ben3": 11014,
  " kuan1 ": 11015,
  " 2015 nian2 ": 11016,
  "xuan3 zhong1 ": 11017,
  "di2 ren2 ": 11018,
  "1979 nian2 ": 11019,
  " li4 yi4 ": 11020,
  " su4 ": 11021,
  " lu3 ": 11022,
  "li3 he2 ": 11023,
  "zi4 de ": 11024,
  "t   ": 11025,
  "pai4 chu1 ": 11026,
  " nian2 lai2 ": 11027,
  " zhong1 guo2 ren2 min2 jie3 fang4 jun1 ": 11028,
  "duo1 zhong3 ": 11029,
  "tan2 pan4 ": 11030,
  "liao2 ning2 ": 11031,
  " si1 ta3 ": 11032,
  "ti2 chu1 de ": 11033,
  "bian3 ": 11034,
  "wan2 zheng3": 11035,
  " zi1 ": 11036,
  "sui2 ji2 ": 11037,
  "tui4 xiu1 ": 11038,
  " da4 xue2 de ": 11039,
  "hai3 ba2 wei4 ": 11040,
  "ping2 wei4 ": 11041,
  "gan4 bu4 ": 11042,
  "lei3 ji4 ": 11043,
  " bu4 shao3 ": 11044,
  " shi2 xing2 ": 11045,
  "ying1 ge2 lan2": 11046,
  "dang1 zhong1 ": 11047,
  "xu4 li4 ya4 ": 11048,
  "shang1 ren2 ": 11049,
  "biao1 ben3 ": 11050,
  "fa1 sheng1 zai4 ": 11051,
  "suo3 cai3 yong4": 11052,
  "zhi3 dao3 ": 11053,
  " ju4 jue2 ": 11054,
  "mian3 dian1": 11055,
  "hua4 zhong1 ": 11056,
  "zan4 shi2 ": 11057,
  "1972 nian2 ": 11058,
  " fu4 jin4": 11059,
  "mei3 zhou1": 11060,
  " zhong1 gong4 zhong1 yang1 ": 11061,
  "tiao4 ": 11062,
  " yi4 qing2 ": 11063,
  "nong2 min2 ": 11064,
  " ming2 zhi4 ": 11065,
  "ci4 yu2 ": 11066,
  "jue2 yi4 ": 11067,
  "   yin1 ": 11068,
  "yi2 dai4 ": 11069,
  " de2 ming2 ": 11070,
  "   in   ": 11071,
  " chu2": 11072,
  "shui3 li4 ": 11073,
  "rong2 he2 ": 11074,
  " zhong1 guo2 de ": 11075,
  "zhuang1 jia3 ": 11076,
  " ba3": 11077,
  "fa1 ming2 ": 11078,
  " qi2 wei4 ": 11079,
  "zhi3 neng2 ": 11080,
  "xiu1 gai3 ": 11081,
  "3 ge4 ": 11082,
  " gong1 zhong4 ": 11083,
  "   1": 11084,
  "zhu3 yan3 ": 11085,
  "a1 la1 bo2": 11086,
  "xiang1 si4 ": 11087,
  "guan1 cha2": 11088,
  "jie1 chu4 ": 11089,
  " bei3 jing1": 11090,
  "kai1 she4 ": 11091,
  "xiu1 jian4 ": 11092,
  "zhong3 zi ": 11093,
  "jing4 ji4 ": 11094,
  " yu3 qi2 ta1 ": 11095,
  "jie3 san4 ": 11096,
  " de shi4 jie4 ": 11097,
  " 2016 nian2 ": 11098,
  "wu3 zhuang1": 11099,
  " cn": 11100,
  "dian4 ji1 ": 11101,
  "chai1 chu2 ": 11102,
  "kai1 tong1 ": 11103,
  "bao4 zha4 ": 11104,
  "ju3 ban4 de ": 11105,
  "   T": 11106,
  "fa1 qi3 ": 11107,
  "shen1 du4 ": 11108,
  "an1 pai2": 11109,
  "shen2 me ": 11110,
  " tang2": 11111,
  "qu1 shi4 ": 11112,
  "wei2 si1 ": 11113,
  "tuan2 ti3": 11114,
  "1958 nian2 ": 11115,
  "ji1 gou4 ": 11116,
  "fu4 zhu3 ren4 ": 11117,
  "fa1 shou4 ": 11118,
  "zu3 zhi1 de ": 11119,
  " ting2 ": 11120,
  "   qi2": 11121,
  "   dui4 ": 11122,
  " wei4 da4 ": 11123,
  "feng1 xian3 ": 11124,
  "diao4 kuai4": 11125,
  " zheng1 ": 11126,
  "cheng2 he2 ": 11127,
  " ge1": 11128,
  "neng2 liang4 ": 11129,
  "zhang1 zhuan1 ji2 ": 11130,
  "zao4 le ": 11131,
  "zhuan3 xiang4 ": 11132,
  " wei4 UTC ": 11133,
  " bu4 ji2 ": 11134,
  " zhong1 shan1 ": 11135,
  "shuai4 ling3": 11136,
  " cn ": 11137,
  "jie2 de ": 11138,
  "bian1 ju4 ": 11139,
  "ying1 gai1 ": 11140,
  "ban4 shi4 chu4 ": 11141,
  " bai4 ": 11142,
  " fa1 xing2 ": 11143,
  "qiu2 ji4 ": 11144,
  "nu3 ": 11145,
  " xi1 ban1 ya2 ": 11146,
  " dan1": 11147,
  "luo2 li3 ": 11148,
  "ge2 la1 ": 11149,
  "jiu4 du2 ": 11150,
  "diao4 kuai4 yi1 xiao3 shi2 ": 11151,
  "ze2 zai4 ": 11152,
  " de ying3 xiang3 ": 11153,
  "ying1 xiong2 ": 11154,
  "shang1 ye4": 11155,
  "qiang2 diao4 ": 11156,
  "r ": 11157,
  " ji2 UTC ": 11158,
  "tiao2 zheng3": 11159,
  "ke1 xue2 yuan4 ": 11160,
  "she4 you3 xia4 ling4 shi2 jian1 ": 11161,
  " de shi2 qu1 wei4 UTC ": 11162,
  " er2 gai1 di4 suo3 cai3 yong4": 11163,
  " tong2 shi2 gai1 di4 she4 you3 xia4 ling4 shi2 jian1 ": 11164,
  " er2 gai1 di4 suo3 cai3 yong4 de shi2 qu1 wei4 UTC ": 11165,
  "2025 nian2 ": 11166,
  "xiao1 fei4 ": 11167,
  " tong2 yang4": 11168,
  "xin4 yang3 ": 11169,
  "ta1 men de ": 11170,
  "b ": 11171,
  " da4 jiang3 ": 11172,
  "jiao4 tang2": 11173,
  " ling4 you3 ": 11174,
  " yi1 si1 lan2 ": 11175,
  "you2 ji1 ": 11176,
  "yuan2 zhu4 ": 11177,
  "tai4 du4 ": 11178,
  " gai1 cun1 ": 11179,
  " huan4 ": 11180,
  "que4 de ": 11181,
  "bao3 liu2": 11182,
  "chuan2 bo1 ": 11183,
  "zhi1 jian1 de ": 11184,
  "   jiao1 tong1 ": 11185,
  "fa1 she4": 11186,
  "suo3 zai4 di4 ": 11187,
  " shi2 wu4 ": 11188,
  " qi2 xia4 ": 11189,
  " ma3 lai2": 11190,
  " li4 shi3 shang4 ": 11191,
  "gao1 yu2 hai3 ping2 mian4 ": 11192,
  "ding4 ju1 ": 11193,
  " wei4 fu2 qi2 yu2 gang1 ": 11194,
  "xing4 wei4 ": 11195,
  "zhu2 jian4": 11196,
  "1976 nian2 ": 11197,
  " bu4 neng2": 11198,
  " gong1 jue2 ": 11199,
  " er3 duo1 ": 11200,
  "   qing1 ": 11201,
  "wu4 he2 ": 11202,
  "pei4 zhi4 ": 11203,
  "kun4 ": 11204,
  " lian2 he2 ": 11205,
  "hui4 yu2 ": 11206,
  "chu4 de hai3 ba2 wei4 ": 11207,
  "chu4 de hai3 ba2 wei4 gao1 yu2 hai3 ping2 mian4 ": 11208,
  "qia4 ": 11209,
  " yin1 su4 ": 11210,
  "ti3 zhi4 ": 11211,
  "jing4 xuan3 ": 11212,
  "wu4 shi4 ": 11213,
  " yu2 le4": 11214,
  "chang3 suo3 ": 11215,
  " 30": 11216,
  "hou4 wei4 ": 11217,
  " zhi1 yi4 ": 11218,
  " ni3 ": 11219,
  " he2 pan4 ": 11220,
  " bu4 jin3 ": 11221,
  " yi3 xi1 ": 11222,
  " dai4": 11223,
  "fa1 xian4 de ": 11224,
  "zhong4 shi4 ": 11225,
  "kuang2 ": 11226,
  " qi2 shi2 ": 11227,
  " sui2 zhu4 ": 11228,
  " xu1 ": 11229,
  "nan2 jing1": 11230,
  "zhang3 da2 ": 11231,
  "yun4 shu1": 11232,
  " 2008": 11233,
  " 2017 nian2 ": 11234,
  "   ma3 ": 11235,
  "shu4 shi2 ": 11236,
  "nei4 di4 ": 11237,
  " zheng4 zhi4 ": 11238,
  " xie4 ": 11239,
  "an   ": 11240,
  "shi2 qu1 ": 11241,
  "gao1 xiong2": 11242,
  "zi1 liao4": 11243,
  "3 nian2 ": 11244,
  "jian4 cheng2 ": 11245,
  "geng1 xin1 ": 11246,
  " yi1 jia1 ": 11247,
  " xi1 lan2 ": 11248,
  "yun4 yong4 ": 11249,
  " zi4 ran2 ": 11250,
  "chong2 qing4": 11251,
  " yi2": 11252,
  "lu4 zhi4 ": 11253,
  "bi4 ye4 hou4 ": 11254,
  " hu2": 11255,
  "   ran2": 11256,
  "er4 ji2 ": 11257,
  " li4 ren4 ": 11258,
  "shan1 feng1 ": 11259,
  " wei4 yu2 gai1 ": 11260,
  " xiao3 shi2 ": 11261,
  "wei2 er3 ": 11262,
  "zhi2 zheng4 ": 11263,
  "dian4 qi4 ": 11264,
  "zhe3 shi4 ": 11265,
  "wang2 shi4 ": 11266,
  " zuo4 chu1 ": 11267,
  "bian1 hao4 ": 11268,
  "xia2 qu1 ": 11269,
  "   ben3": 11270,
  "bao1 wei2 ": 11271,
  "bang4 qiu2 ": 11272,
  "chan2 ": 11273,
  "xue2 yuan2 ": 11274,
  "cuo4 wu4 ": 11275,
  " di4 qiu2": 11276,
  "jin1 rong2 ": 11277,
[...]
