{
  "!": 0,
  "\"": 1,
  "#": 2,
  "$": 3,
  "%": 4,
  "&": 5,
  "'": 6,
  "(": 7,
  ")": 8,
  "*": 9,
  "+": 10,
  ",": 11,
  "-": 12,
  ".": 13,
  "/": 14,
  "0": 15,
  "1": 16,
  "2": 17,
  "3": 18,
  "4": 19,
  "5": 20,
  "6": 21,
  "7": 22,
  "8": 23,
  "9": 24,
  ":": 25,
  ";": 26,
  "=": 27,
  "?": 28,
  "@": 29,
  "A": 30,
  "B": 31,
  "C": 32,
  "D": 33,
  "E": 34,
  "F": 35,
  "G": 36,
  "H": 37,
  "I": 38,
  "J": 39,
  "K": 40,
  "L": 41,
  "M": 42,
  "N": 43,
  "O": 44,
  "P": 45,
  "Q": 46,
  "R": 47,
  "S": 48,
  "T": 49,
  "U": 50,
  "V": 51,
  "W": 52,
  "X": 53,
  "Y": 54,
  "Z": 55,
  "[": 56,
  "\\": 57,
  "]": 58,
  "^": 59,
  "_": 60,
  "`": 61,
  "a": 62,
  "b": 63,
  "c": 64,
  "d": 65,
  "e": 66,
  "f": 67,
  "g": 68,
  "h": 69,
  "i": 70,
  "j": 71,
  "k": 72,
  "l": 73,
  "m": 74,
  "n": 75,
  "o": 76,
  "p": 77,
  "q": 78,
  "r": 79,
  "s": 80,
  "t": 81,
  "u": 82,
  "v": 83,
  "w": 84,
  "x": 85,
  "y": 86,
  "z": 87,
  "|": 88,
  "~": 89,
  "�": 145,
  "\n": 162,
  " ": 163,
  "": 164,
  "ng": 199,
  "h�": 200,
  "à": 201,
  "ā": 202,
  "ì": 203,
  "á": 204,
  "ī": 205,
  "è": 206,
  "ǎ": 207,
  "  ": 208,
  "é": 209,
  "í": 210,
  "sh�": 211,
  "ù": 212,
  "án": 213,
  "zh": 214,
  "ǐ": 215,
  "ō": 216,
  "ji": 217,
  "de": 218,
  "àn": 219,
  "ē": 220,
  "zh�": 221,
  "sh": 222,
  "ě": 223,
  "ó": 224,
  "ǔ": 225,
  "xi": 226,
  "ò": 227,
  "ú": 228,
  "ān": 229,
  "   ": 230,
  "ài": 231,
  "ū": 232,
  "ōng": 233,
  "ǒ": 234,
  "shì": 236,
  "hu": 237,
  "èi": 238,
  "gu": 239,
  "ián": 240,
  "hé": 241,
  "ào": 242,
  "āng": 243,
  "íng": 244,
  "yu": 245,
  "ǎn": 246,
  "ch": 247,
  "nián": 248,
  "yī": 249,
  "ǎng": 250,
  "én": 251,
  "ǒu": 252,
  "ìng": 253,
  "wèi": 254,
  "ǎo": 255,
  "zài": 256,
  "、": 257,
  "jī": 258,
  "ēng": 259,
  "zhōng": 260,
  "xī": 261,
  "bù": 262,
  "jì": 263,
  "àng": 264,
  "li": 265,
  "zhè": 266,
  "shí": 267,
  "dì": 268,
  "guó": 269,
  "yú": 270,
  "rén": 271,
  "òng": 272,
  "ch�": 273,
  "āo": 274,
  "du": 275,
  "ché": 276,
  "yǐ": 277,
  "lì": 278,
  "áng": 279,
  "yì": 280,
  "uò": 281,
  "ái": 282,
  "zhì": 283,
  "chéng": 284,
  "éi": 285,
  "xu": 286,
  "gōng": 287,
  "jí": 288,
  "ěi": 290,
  "iàn": 291,
  "ēn": 292,
  "óng": 293,
  "yuè": 294,
  "yǒu": 295,
  "yuán": 296,
  "dà": 297,
  "qi": 298,
  "ōu": 299,
  "lǐ": 300,
  "20": 301,
  "óu": 302,
  "āi": 303,
  "xiàn": 304,
  "jiā": 305,
  "sī": 306,
  "ūn": 307,
  "xíng": 308,
  "yǔ": 309,
  "èn": 310,
  "ǒng": 311,
  "ín": 312,
  "tā": 313,
  "rì": 314,
  "zhī": 315,
  "hòu": 316,
  "ǎi": 317,
  "gè": 318,
  "zhà": 319,
  "éng": 320,
  "le": 321,
  "wéi": 322,
  "huì": 323,
  "dào": 324,
  "19": 325,
  "bi": 326,
  "shà": 327,
  "qī": 328,
  "qí": 329,
  "shè": 330,
  "su": 331,
  "zhèng": 332,
  "míng": 333,
  "jiàn": 334,
  "xué": 335,
  "chū": 336,
  "yù": 337,
  "ěng": 338,
  "zuò": 339,
  "shēng": 340,
  "duì": 341,
  "yóu": 342,
  "qū": 343,
  "shàng": 344,
  "ěn": 345,
  "dé": 346,
  "lù": 347,
  "bèi": 348,
  "chá": 349,
  "ti": 350,
  "shǐ": 351,
  "zhàn": 352,
  "zhǔ": 353,
  "ēi": 354,
  "qu": 355,
  "jù": 356,
  "xīn": 357,
  "jūn": 358,
  "zhu": 359,
  "ěr": 360,
  "áo": 361,
  "shù": 362,
  "uì": 363,
  "rèn": 364,
  "fā": 365,
  "wù": 366,
  "bìng": 367,
  "kè": 368,
  "ér": 369,
  "dài": 370,
  "yí": 371,
  "jìn": 372,
  "zì": 373,
  "yīn": 374,
  "fù": 375,
  "fāng": 376,
  "jīng": 377,
  "nán": 378,
  "huà": 379,
  "xì": 380,
  "zhōu": 381,
  "píng": 382,
  "òu": 383,
  "xià": 384,
  "lái": 385,
  "yòng": 386,
  "shu": 387,
  "guān": 388,
  "tóng": 389,
  "》": 390,
  "《": 391,
  "fǎ": 392,
  "zhù": 393,
  "měi": 394,
  "há": 395,
  "·": 396,
  "jiān": 397,
  "jǐ": 398,
  "huò": 399,
  "dù": 400,
  "chu": 401,
  "běn": 402,
  "xiāng": 403,
  "zhí": 404,
  "dòng": 405,
  "xiàng": 406,
  "mín": 407,
  "jiāng": 408,
  "fēn": 409,
  "shǒu": 410,
  "quán": 411,
  "wén": 412,
  "yán": 413,
  "hà": 414,
  "suǒ": 415,
  "jiào": 416,
  "qián": 417,
  "diàn": 418,
  "tè": 419,
  "di": 420,
  "duō": 421,
  "ún": 422,
  "zuì": 423,
  "kāi": 424,
  "tu": 425,
  "jié": 426,
  "lián": 427,
  "zhǐ": 428,
  "kě": 429,
  "dàn": 430,
  "mù": 431,
  "yè": 432,
  "fú": 433,
  "mǎ": 434,
  "yě": 435,
  "dōng": 436,
  "qiú": 437,
  "běi": 438,
  "「": 439,
  "」": 440,
  "gāo": 441,
  "yà": 442,
  "qǐ": 443,
  "jiē": 444,
  "miàn": 445,
  "hǎi": 446,
  "zhǎng": 447,
  "shī": 448,
  "jīn": 449,
  "cǐ": 450,
  "lu": 451,
  "nèi": 452,
  "tǐ": 453,
  "sài": 454,
  "sān": 455,
  "tái": 456,
  "gé": 457,
  "xìng": 458,
  "guò": 459,
  "rù": 460,
  "201": 461,
  "děng": 462,
  "yào": 463,
  "ju": 464,
  "chē": 465,
  "cì": 466,
  "wǔ": 467,
  "gāi": 468,
  "dìng": 469,
  "cháng": 470,
  "biǎo": 471,
  "lā": 472,
  "gòng": 473,
  "jiè": 474,
  "shòu": 475,
  "dǎo": 476,
  "shān": 477,
  "chǎng": 478,
  "sì": 479,
  "bǐ": 480,
  "zé": 481,
  "tí": 482,
  "kē": 483,
  "dāng": 484,
  "néng": 485,
  "èr": 486,
  "wài": 487,
  "dān": 488,
  "xù": 489,
  "zi": 490,
  "kǒu": 491,
  "xiǎo": 492,
  "zǔ": 493,
  "bā": 494,
  "jué": 495,
  "lín": 496,
  "liú": 497,
  "shěng": 498,
  "yīng": 499,
  "ku": 500,
  "lán": 501,
  "luó": 502,
  "tōng": 503,
  "200": 504,
  "īng": 505,
  "�ng": 506,
  "mǐ": 507,
  "zhòng": 508,
  "en": 509,
  "zhě": 510,
  "shǔ": 511,
  "tiān": 512,
  "zhèn": 513,
  "ǚ": 514,
  "qì": 515,
  "zhǒng": 516,
  "liè": 517,
  "chēng": 518,
  "shū": 519,
  "yuàn": 520,
  "bǎo": 521,
  "tài": 522,
  "fǔ": 523,
  "fēng": 524,
  "gǔ": 525,
  "qīng": 526,
  "shēn": 527,
  "wáng": 528,
  "yùn": 529,
  "guǎn": 530,
  "fēi": 531,
  "jiù": 532,
  "liǎng": 533,
  "céng": 534,
  "méi": 535,
  "10": 536,
  "fèn": 537,
  "hào": 538,
  "yǎn": 540,
  "wěi": 541,
  "zǒng": 542,
  "xuǎn": 543,
  "xiào": 544,
  "dá": 545,
  "nà": 546,
  "liàng": 547,
  "bō": 548,
  "zú": 549,
  "jìng": 550,
  "bào": 551,
  "ní": 552,
  "wú": 553,
  "tǒng": 554,
  "huá": 555,
  "jiāo": 556,
  "yuē": 557,
  "yǐng": 558,
  "biàn": 559,
  "xīng": 560,
  "sù": 561,
  "shuǐ": 562,
  "yáng": 563,
  "hù": 564,
  "men": 565,
  "bāo": 566,
  "gē": 567,
  "bó": 568,
  "cān": 569,
  "cóng": 570,
  "diǎn": 571,
  "bì": 572,
  "rú": 573,
  "bàn": 574,
  "biān": 575,
  "wǎng": 576,
  "qǔ": 577,
  "mi": 578,
  "chǎn": 579,
  "sè": 580,
  "zī": 581,
  "chuán": 582,
  "00": 583,
  "shèng": 584,
  "rán": 585,
  "tú": 586,
  "zhāng": 587,
  "pǔ": 588,
  "gǎi": 589,
  "gǎng": 590,
  "nǚ": 591,
  "lìng": 592,
  "luò": 593,
  "yòu": 594,
  "tóu": 595,
  "cè": 596,
  "l�": 597,
  "chí": 598,
  "18": 599,
  "lǜ": 600,
  "qiān": 601,
  "shé": 602,
  "lí": 603,
  "dōu": 604,
  "pǐ": 605,
  "12": 606,
  "zhēng": 607,
  "ni": 608,
  "kuò": 609,
  "shā": 610,
  "dǎng": 611,
  "fǎn": 612,
  "gòu": 613,
  "lèi": 614,
  "xí": 615,
  "jǐng": 616,
  "tuán": 617,
  "wēi": 618,
  "xiē": 619,
  "lǐng": 620,
  "lóng": 621,
  "guī": 622,
  "xiān": 623,
  "róng": 624,
  "huáng": 625,
  "xiǎng": 626,
  "bān": 627,
  "jiǔ": 628,
  "yìng": 629,
  "mén": 630,
  "shāng": 631,
  "shén": 632,
  "202": 633,
  "bǎn": 634,
  "kǎ": 635,
  "mǔ": 636,
  "jǐn": 637,
  "fū": 638,
  "jǔ": 639,
  "mó": 640,
  "guǎng": 641,
  "cí": 642,
  "shuō": 643,
  "qíng": 644,
  "zhǎn": 645,
  "hái": 646,
  "zhuāng": 647,
  "mò": 648,
  "cái": 649,
  "dú": 650,
  "11": 651,
  "pǐn": 652,
  "tíng": 653,
  "cháo": 654,
  "yíng": 655,
  "tiáo": 656,
  "jiǎn": 657,
  "táng": 658,
  "huí": 659,
  "duàn": 660,
  "chén": 661,
  "gēn": 662,
  "mì": 663,
  "wàn": 664,
  "pái": 665,
  "wān": 666,
  "zào": 667,
  "háng": 668,
  "wán": 669,
  "biāo": 670,
  "gù": 671,
  "lún": 672,
  "199": 673,
  "xié": 674,
  "jiǎng": 675,
  "hàn": 676,
  "jú": 677,
  "fàn": 678,
  "fáng": 679,
  "huó": 680,
  "hán": 681,
  "pi": 682,
  "kōng": 683,
  "or": 684,
  "tiě": 685,
  "méng": 686,
  "bié": 687,
  "wū": 688,
  "jiě": 689,
  "zhuān": 690,
  "yǐn": 691,
  "xū": 692,
  "zhēn": 693,
  "dǐ": 694,
  "er": 695,
  "chú": 696,
  "hú": 697,
  "jià": 698,
  "bīng": 699,
  "mìng": 700,
  "líng": 701,
  "hóng": 702,
  "qīn": 703,
  "zǐ": 704,
  "lùn": 705,
  "xìn": 706,
  "chù": 707,
  "chǔ": 708,
  "sū": 709,
  "an": 710,
  "xiū": 711,
  "zōng": 712,
  "15": 713,
  "què": 714,
  "xiāo": 715,
  "zhào": 716,
  "qiáng": 717,
  "qù": 718,
  "cūn": 719,
  "chóng": 720,
  "piàn": 721,
  "jiū": 722,
  "fàng": 723,
  "suí": 724,
  "shōu": 725,
  "gèng": 726,
  "guāng": 728,
  "èng": 729,
  "jū": 730,
  "on": 731,
  "jiǎ": 732,
  "chuàng": 733,
  "dí": 734,
  "16": 735,
  "zhuǎn": 736,
  "guǒ": 737,
  "xùn": 738,
  "màn": 739,
  "pài": 740,
  "fèi": 741,
  "pèi": 742,
  "198": 743,
  "dǎ": 744,
  "tuō": 745,
  "la": 746,
  "xuān": 747,
  "bái": 748,
  "zhū": 749,
  "dū": 750,
  "tǔ": 751,
  "diào": 752,
  "xiá": 753,
  "liù": 754,
  "17": 755,
  "suì": 756,
  "huī": 757,
  "tīng": 758,
  "qiě": 759,
  "tǎ": 760,
  "qiáo": 761,
  "hā": 762,
  "gǎn": 763,
  "zēng": 764,
  "xiǎn": 765,
  "mài": 766,
  "huán": 767,
  "xǔ": 768,
  "wǎ": 769,
  "tuī": 770,
  "wèn": 771,
  "chāo": 772,
  "tián": 773,
  "bǎi": 774,
  "cǎi": 775,
  "liáng": 776,
  "yá": 777,
  "sà": 778,
  "ar": 779,
  "bài": 780,
  "cún": 781,
  "jiǎo": 782,
  "shǎo": 783,
  "yàn": 784,
  "zhuàng": 785,
  "huǒ": 786,
  "léi": 787,
  "14": 788,
  "zu": 789,
  "jiàng": 790,
  "chuān": 791,
  "yìn": 792,
  "zǎo": 793,
  "chà": 794,
  "yǒng": 795,
  "sǐ": 796,
  "dēng": 797,
  "30": 798,
  "zhǔn": 799,
  "lè": 800,
  "xún": 801,
  "nuò": 802,
  "kù": 803,
  "huàn": 804,
  "sòng": 805,
  "gào": 806,
  "lǔ": 807,
  "13": 808,
  "194": 809,
  "bāng": 810,
  "lǚ": 811,
  "pī": 812,
  "yàng": 813,
  "hěn": 814,
  "qún": 815,
  "zhěng": 816,
  "guàn": 817,
  "pò": 818,
  "gāng": 819,
  "wǒ": 820,
  "197": 821,
  "huā": 822,
  "lēi": 823,
  "hǎo": 824,
  "táo": 825,
  "kuàng": 826,
  "hè": 827,
  "in": 828,
  "dùn": 829,
  "nóng": 830,
  "gěi": 831,
  "sāi": 832,
  "shuāng": 833,
  "liàn": 834,
  "kuài": 835,
  "dī": 836,
  "bī": 837,
  "pàn": 838,
  "xiě": 839,
  "195": 840,
  "kǎo": 841,
  "gài": 842,
  "hēi": 843,
  "wàng": 844,
  "liào": 845,
  "rè": 846,
  "ge": 847,
  "zuǒ": 848,
  "kòng": 849,
  "196": 850,
  "yāng": 851,
  "chàng": 852,
  "yín": 853,
  "�u": 854,
  "réng": 855,
  "sēn": 856,
  "bēi": 857,
  "lú": 858,
  "piào": 859,
  "yā": 860,
  "25": 861,
  "bīn": 862,
  "—": 863,
  "ràng": 864,
  "chōng": 865,
  "lóu": 866,
  "bǔ": 867,
  "lǎo": 868,
  "zhú": 869,
  "jùn": 870,
  "yǎng": 871,
  "ruì": 872,
  "yāo": 873,
  "xián": 874,
  "xiè": 875,
  "niàn": 876,
  "for": 877,
  "yōu": 878,
  "tán": 879,
  "kāng": 880,
  "pí": 881,
  "héng": 882,
  "yún": 883,
  "xǐ": 884,
  "kàn": 885,
  "níng": 886,
  "liáo": 887,
  "shào": 888,
  "bú": 889,
  "24": 890,
  "qǐng": 891,
  "chǐ": 892,
  "mu": 893,
  "dòu": 894,
  "miǎn": 895,
  "yōng": 896,
  "tǎn": 897,
  "wǎn": 898,
  "hū": 899,
  "fān": 900,
  "al": 901,
  "tū": 902,
  "gān": 903,
  "suàn": 904,
  "dīng": 905,
  "yuǎn": 906,
  "wēn": 907,
  "tuì": 908,
  "zhe": 909,
  "21": 910,
  "st": 911,
  "xiù": 912,
  "bǎ": 913,
  "mǎn": 914,
  "193": 915,
  "23": 916,
  "mula": 917,
  "kàng": 918,
  "formula": 919,
  "28": 920,
  "th": 921,
  "máo": 922,
  "ruò": 923,
  "piān": 924,
  "chè": 925,
  "mào": 926,
  "lǎng": 927,
  "qín": 928,
  "bá": 929,
  "ná": 930,
  "zàn": 931,
  "guǐ": 932,
  "guì": 933,
  "ou": 934,
  "pín": 935,
  "wò": 936,
  "xióng": 937,
  "shàn": 938,
  "re": 939,
  "22": 940,
  "xiōng": 941,
  "me": 942,
  "suī": 943,
  "ü": 944,
  "26": 945,
  "shěn": 946,
  "qìng": 947,
  "miáo": 948,
  "fǎng": 949,
  "50": 950,
  "2020": 951,
  "27": 952,
  "láng": 953,
  "ru": 954,
  "qiū": 955,
  "sōng": 956,
  "üè": 957,
  "dàng": 958,
  "gēng": 959,
  "qiāng": 960,
  "ri": 961,
  "fá": 962,
  "zāo": 963,
  "fèng": 964,
  "zhàng": 965,
  "háo": 967,
  "dūn": 968,
  "zǒu": 969,
  "hài": 970,
  "qiè": 971,
  "29": 972,
  "tàn": 973,
  "pào": 974,
  "pà": 975,
  "shùn": 976,
  "péng": 977,
  "xuán": 978,
  "2010": 979,
  "nǐ": 980,
  "000": 981,
  "dǐng": 982,
  "niǔ": 983,
  "zǎi": 984,
  "zhāo": 985,
  "zhuī": 986,
  "lüè": 987,
  "chūn": 988,
  "2019": 989,
  "hūn": 990,
  "kǒng": 991,
  "duān": 992,
  "shèn": 993,
  "xiáng": 994,
  "duǎn": 995,
  "gàn": 996,
  "te": 997,
  "ro": 998,
  "kān": 999,
  "láo": 1000,
  "cǎo": 1001,
  "2016": 1002,
  "si": 1003,
  "gū": 1004,
  "péi": 1005,
  "2018": 1006,
  "kuǎn": 1007,
  "zá": 1008,
  "sūn": 1009,
  "yé": 1010,
  "yǎ": 1011,
  "pō": 1012,
  "2021": 1013,
  "ra": 1014,
  "chì": 1015,
  "duó": 1016,
  "2014": 1017,
  "fán": 1018,
  "2011": 1019,
  "2015": 1020,
  "cuò": 1021,
  "2017": 1022,
  "zhé": 1023,
  "yáo": 1024,
  "pāi": 1025,
  "tòu": 1026,
  "cáng": 1027,
  "2012": 1028,
  "40": 1029,
  "kǎi": 1030,
  "2013": 1031,
  "2022": 1032,
  "mí": 1033,
  "ruǎn": 1034,
  "suān": 1035,
  "chā": 1036,
  "zàng": 1037,
  "miào": 1038,
  "lt": 1039,
  "2009": 1040,
  "zhǎo": 1041,
  "2008": 1042,
  "huái": 1043,
  "ce": 1045,
  "60": 1046,
  "am": 1047,
  "cu": 1048,
  "xuè": 1049,
  "chóu": 1050,
  "se": 1051,
  "bǎng": 1052,
  "mèng": 1053,
  "100": 1054,
  "tì": 1055,
  "pú": 1056,
  "nǎo": 1057,
  "2023": 1058,
  "zhuàn": 1059,
  "gt": 1060,
  "lěi": 1061,
  "190": 1062,
  "31": 1063,
  "cài": 1064,
  "cù": 1065,
  "sàn": 1066,
  "móu": 1067,
  "tion": 1068,
  "ta": 1069,
  "hùn": 1070,
  "ǔn": 1071,
  "kuān": 1072,
  "2007": 1073,
  "niú": 1074,
  "mǒu": 1075,
  "tǎo": 1076,
  "dié": 1077,
  "2001": 1078,
  "ol": 1079,
  "téng": 1080,
  "sōu": 1081,
  "kěn": 1082,
  "qiǎn": 1083,
  "chāng": 1084,
  "rǎn": 1085,
  "quē": 1086,
  "fǒu": 1087,
  "sǔn": 1088,
  "el": 1089,
  "bà": 1090,
  "2000": 1091,
  "80": 1092,
  "kào": 1093,
  "suō": 1094,
  "2006": 1095,
  "niǎo": 1096,
  "chún": 1097,
  "ma": 1098,
  "2024": 1099,
  "lǎn": 1100,
  "zāi": 1102,
  "zhá": 1103,
  "xuě": 1104,
  "huǐ": 1105,
  "luàn": 1106,
  "tǐng": 1107,
  "2005": 1108,
  "zūn": 1109,
  "bàng": 1110,
  "là": 1111,
  "huān": 1112,
  "rǎng": 1113,
  "shuì": 1114,
  "mǐn": 1115,
  "35": 1116,
  "lài": 1117,
  "cāng": 1118,
  "70": 1119,
  "fó": 1120,
  "pán": 1121,
  "of": 1122,
  "nài": 1123,
  "wěn": 1124,
  "et": 1125,
  "cāo": 1126,
  "sāng": 1127,
  "páng": 1128,
  "90": 1129,
  "bǐng": 1130,
  "－": 1131,
  "zhā": 1132,
  "shuài": 1134,
  "niè": 1135,
  "es": 1136,
  "hóu": 1137,
  "mèi": 1138,
  "shāo": 1139,
  "nǔ": 1140,
  "dǒng": 1141,
  "il": 1142,
  "at": 1143,
  "ow": 1144,
  "féng": 1145,
  "miè": 1146,
  "yǔn": 1147,
  "zòu": 1148,
  "mǎi": 1149,
  "huài": 1150,
  "2004": 1151,
  "45": 1152,
  "yān": 1153,
  "co": 1154,
  "48": 1155,
  "the": 1156,
  "zhuó": 1157,
  "and": 1158,
  "ter": 1159,
  "he": 1160,
  "tào": 1161,
  "nǎi": 1162,
  "kūn": 1163,
  "2025": 1164,
  "zhěn": 1165,
  "ck": 1166,
  "rǔ": 1167,
  "kuà": 1168,
  "kuí": 1169,
  "〉": 1170,
  "〈": 1171,
  "gōu": 1172,
  "36": 1173,
  "cuī": 1174,
  "38": 1175,
  "shǎn": 1176,
  "ròu": 1177,
  "diāo": 1178,
  "2003": 1179,
  "hǔ": 1180,
  "guō": 1181,
  "37": 1182,
  "cuì": 1183,
  "ne": 1184,
  "xú": 1185,
  "máng": 1186,
  "juǎn": 1187,
  "cán": 1188,
  "diān": 1189,
  "zhān": 1190,
  "cáo": 1191,
  "189": 1192,
  "IN": 1193,
  "2002": 1194,
  "de ": 1195,
  " de ": 1196,
  "shì ": 1197,
  " shì ": 1198,
  " nián": 1199,
  " nián ": 1200,
  "wèi ": 1201,
  "zài ": 1202,
  " wèi ": 1203,
  " zài ": 1204,
  "hé ": 1205,
  " hé ": 1206,
  "zhōng ": 1207,
  "bù ": 1208,
  "dì ": 1209,
  "shí ": 1210,
  "guó ": 1211,
  "yú ": 1212,
  "rén ": 1213,
  " bù ": 1214,
  "yī ": 1215,
  " zhōng ": 1216,
  "lì ": 1217,
  "zhì ": 1218,
  "gōng ": 1219,
  " shí ": 1220,
  "yuè ": 1221,
  "jí ": 1222,
  "chéng ": 1223,
  "yì ": 1224,
  "yǒu ": 1225,
  " dì ": 1226,
  " yuè ": 1227,
  " yú ": 1228,
  " rén ": 1229,
  " zhì ": 1230,
  "dà ": 1231,
  " jí ": 1232,
  "yuán ": 1233,
  " yǒu ": 1234,
  "jì ": 1235,
  " guó ": 1236,
  " lì ": 1237,
  " gōng ": 1238,
  " yì ": 1239,
  " yǐ": 1240,
  " chéng ": 1241,
  "jiā ": 1242,
  "sī ": 1243,
  "yǔ ": 1244,
  " xiàn": 1245,
  " rì": 1246,
  " yī ": 1247,
  " xíng": 1248,
  " tā": 1249,
  "lǐ ": 1250,
  "jī ": 1251,
  " dào": 1252,
  "hòu ": 1253,
  "wéi ": 1254,
  " zhī": 1255,
  " dà ": 1256,
  " yuán ": 1257,
  "xī ": 1258,
  " rì ": 1259,
  " gè": 1260,
  " yǐ ": 1261,
  "xué ": 1262,
  "huì ": 1263,
  "le ": 1264,
  "zuò ": 1265,
  " yǔ ": 1266,
  " dào ": 1267,
  "míng ": 1268,
  " jì ": 1269,
  "bèi ": 1270,
  " xíng ": 1271,
  "shēng ": 1272,
  " jiàn": 1273,
  " chū": 1274,
  " qí": 1275,
  " sī ": 1276,
  " dé": 1277,
  "zhèng ": 1278,
  " xiàn ": 1279,
  " hòu ": 1280,
  " jī ": 1281,
  "duì ": 1282,
  "shàng ": 1283,
  "qū ": 1284,
  "shǐ ": 1285,
  " ěr": 1286,
  " jiā ": 1287,
  "yóu ": 1288,
  " tā ": 1289,
  " xī ": 1290,
  " lǐ ": 1291,
  " ér": 1292,
  "zhàn ": 1293,
  " jūn": 1294,
  " bìng": 1295,
  " zhī ": 1296,
  " gè ": 1297,
  "zhǔ ": 1298,
  "rèn ": 1299,
  "fù ": 1300,
  "zì ": 1301,
  "wù ": 1302,
  "xīn ": 1303,
  "dài ": 1304,
  "jù ": 1305,
  "píng ": 1306,
  " chū ": 1307,
  " kè": 1308,
  " zhōu": 1309,
  "xiāng ": 1310,
  " huì ": 1311,
  "shù ": 1312,
  "nán ": 1313,
  " shè": 1314,
  " bèi ": 1315,
  " míng ": 1316,
  "xià ": 1317,
  "guān ": 1318,
  " ěr ": 1319,
  " dé ": 1320,
  "lù ": 1321,
  "yù ": 1322,
  "huà ": 1323,
  " jiàn ": 1324,
  "jīng ": 1325,
  "yán ": 1326,
  "fāng ": 1327,
  " yīn": 1328,
  "kāi ": 1329,
  "jiān ": 1330,
  "jiào ": 1331,
  "fā ": 1332,
  "yòng ": 1333,
  " dàn": 1334,
  " ér ": 1335,
  "zhù ": 1336,
  "lái ": 1337,
  "mín ": 1338,
  "shǒu ": 1339,
  "zhè ": 1340,
  "xiàng ": 1341,
  "wén ": 1342,
  " jūn ": 1343,
  "xì ": 1344,
  "qián ": 1345,
  "běn ": 1346,
  "tè ": 1347,
  " wéi ": 1348,
  "zhí ": 1349,
  "fǎ ": 1350,
  "qī ": 1351,
  "jié ": 1352,
  "lián ": 1353,
  " bìng ": 1354,
  "dòng ": 1355,
  "diàn ": 1356,
  " qí ": 1357,
  " kè ": 1358,
  "dōng ": 1359,
  "mù ": 1360,
  " jìn": 1361,
  " duì ": 1362,
  " huò": 1363,
  " zhàn ": 1364,
  "fēn ": 1365,
  "tái ": 1366,
  "zhǎng ": 1367,
  "dù ": 1368,
  "jiāng ": 1369,
  " qiú": 1370,
  " píng ": 1371,
  "gāo ": 1372,
  "yè ": 1373,
  "suǒ ": 1374,
  "běi ": 1375,
  " zhōu ": 1376,
  "shī ": 1377,
  " le ": 1378,
  "duō ": 1379,
  "ān ": 1380,
  "jiē ": 1381,
  "gé ": 1382,
  " shàng ": 1383,
  "jīn ": 1384,
  " zhèng ": 1385,
  "fú ": 1386,
  " zuò ": 1387,
  " yóu ": 1388,
  " fù ": 1389,
  "kǒu ": 1390,
  "guò ": 1391,
  "zhǐ ": 1392,
  "hǎi ": 1393,
  " tóng": 1394,
  " rèn ": 1395,
  "mǎ ": 1396,
  "rù ": 1397,
  "tōng ": 1398,
  "zuì ": 1399,
  "quán ": 1400,
  " shēng ": 1401,
  "cǐ ": 1402,
  " xué ": 1403,
  "xìng ": 1404,
  "wài ": 1405,
  "nèi ": 1406,
  "lā ": 1407,
  "tǐ ": 1408,
  "jué ": 1409,
  "kě ": 1410,
  "qǐ ": 1411,
  "shān ": 1412,
  "tiān ": 1413,
  "děng ": 1414,
  "chǎng ": 1415,
  "zhèn ": 1416,
  "wǔ ": 1417,
  "cháng ": 1418,
  "zi ": 1419,
  "ā ": 1420,
  "yào ": 1421,
  "bǐ ": 1422,
  " jù ": 1423,
  "bǎo ": 1424,
  "mǐ ": 1425,
  "yà ": 1426,
  " yīn ": 1427,
  "miàn ": 1428,
  "cì ": 1429,
  "gāi ": 1430,
  "shòu ": 1431,
  "jiè ": 1432,
  "yě ": 1433,
  "zhòng ": 1434,
  "yí ": 1435,
  " shè ": 1436,
  "fēng ": 1437,
  "zhǒng ": 1438,
  "liú ": 1439,
  "chē ": 1440,
  "yùn ": 1441,
  " zhè ": 1442,
  "lín ": 1443,
  "bāo ": 1444,
  "sài ": 1445,
  "dìng ": 1446,
  "yí gè ": 1447,
  "shēn ": 1448,
  " dài ": 1449,
  "shěng ": 1450,
  " dàn ": 1451,
  "luó ": 1452,
  "qì ": 1453,
  "sān ": 1454,
  "xiǎo ": 1455,
  "měi guó ": 1456,
  "néng ": 1457,
  "shū ": 1458,
  "zé ": 1459,
  "zhě ": 1460,
  "liè ": 1461,
  "xuǎn ": 1462,
  "sì ": 1463,
  "qīng ": 1464,
  " qiú ": 1465,
  "yuàn ": 1466,
  "jìng ": 1467,
  "bā ": 1468,
  "wáng ": 1469,
  "kē ": 1470,
  "tài ": 1471,
  "lán ": 1472,
  "bào ": 1473,
  "àn ": 1474,
  "yǐng ": 1475,
  " huò ": 1476,
  "zǒng ": 1477,
  "bì ": 1478,
  "fǔ ": 1479,
  "dǎo ": 1480,
  "gǔ ": 1481,
  "yīng ": 1482,
  " hào": 1483,
  " xīn ": 1484,
  " xià ": 1485,
  "fèn ": 1486,
  "gē ": 1487,
  "xiào ": 1488,
  "yuē ": 1489,
  " zì ": 1490,
  "jiāo ": 1491,
  "ní ": 1492,
  "nà ": 1493,
  "shuǐ ": 1494,
  "zī ": 1495,
  "ào ": 1496,
  "èr ": 1497,
  " mǐ ": 1498,
  "pǔ ": 1499,
  "dān ": 1500,
  "biǎo ": 1501,
  "liàng ": 1502,
  "guǎn ": 1503,
  "tóu ": 1504,
  "chuán ": 1505,
  "sù ": 1506,
  "wú ": 1507,
  "rú ": 1508,
  "xīng ": 1509,
  "bō ": 1510,
  "nǚ ": 1511,
  "yǎn ": 1512,
  " zhù ": 1513,
  "bó ": 1514,
  "fēi ": 1515,
  "tí ": 1516,
  "sè ": 1517,
  "měi ": 1518,
  "dá ": 1519,
  "chēng ": 1520,
  " zhōng guó ": 1521,
  " dāng": 1522,
  " jìn ": 1523,
  " lù ": 1524,
  " wèi yú ": 1525,
  "céng ": 1526,
  " xiāng ": 1527,
  "chǎn ": 1528,
  "biàn ": 1529,
  "tú ": 1530,
  "1 ": 1531,
  " nán ": 1532,
  "guī ": 1533,
  " rán": 1534,
  " yù ": 1535,
  "yáng ": 1536,
  "zhāng ": 1537,
  "2 ": 1538,
  "diǎn ": 1539,
  "gǎi ": 1540,
  "cóng ": 1541,
  "jiù ": 1542,
  "wǎng ": 1543,
  "shā ": 1544,
  "zǔ ": 1545,
  "huá ": 1546,
  "lǜ ": 1547,
  "shèng ": 1548,
  "bāo kuò": 1549,
  "jiǎn ": 1550,
  " běn ": 1551,
  "shǔ ": 1552,
  "gǎng ": 1553,
  "jǐng ": 1554,
  "qíng ": 1555,
  "zú ": 1556,
  "bàn ": 1557,
  "liǎng ": 1558,
  "tǒng ": 1559,
  "shāng ": 1560,
  "gòng ": 1561,
  "hù ": 1562,
  "lí ": 1563,
  "tóng ": 1564,
  "lóng ": 1565,
  "jìn ": 1566,
  "biān ": 1567,
  "luò ": 1568,
  "xù ": 1569,
  "chí ": 1570,
  "méi ": 1571,
  "jǐn ": 1572,
  "bān ": 1573,
  "guǎng ": 1574,
  "cè ": 1575,
  "chū ": 1576,
  "zhēng ": 1577,
  "shén ": 1578,
  "mì ": 1579,
  " tā men": 1580,
  "zhī ": 1581,
  "lǐng ": 1582,
  "wēi ": 1583,
  "yòu ": 1584,
  "fǎn ": 1585,
  "tíng ": 1586,
  "xí ": 1587,
  "huó ": 1588,
  "chá ": 1589,
  "kǎ ": 1590,
  "gòu ": 1591,
  "cái ": 1592,
  " gāi ": 1593,
  "mén ": 1594,
  "xiǎng ": 1595,
  "shuō ": 1596,
  "cí ": 1597,
  "wěi ": 1598,
  "qǔ ": 1599,
  "mǔ ": 1600,
  "jiǎng ": 1601,
  "lèi ": 1602,
  "tuán ": 1603,
  "jiàn ": 1604,
  "cháo ": 1605,
  "yìng ": 1606,
  "3 ": 1607,
  " gōng lǐ ": 1608,
  "yǐn ": 1609,
  "yán jiū": 1610,
  "é ": 1611,
  "xiē ": 1612,
  "táng ": 1613,
  "qí ": 1614,
  "chén ": 1615,
  "pǐn ": 1616,
  " duō ": 1617,
  "jià ": 1618,
  " yǐ jí ": 1619,
  " zhǔ ": 1620,
  "jiě ": 1621,
  "háng ": 1622,
  "shǐ yòng ": 1623,
  "yǐ ": 1624,
  "lún ": 1625,
  "róng ": 1626,
  "fū ": 1627,
  "jiǔ ": 1628,
  "pái ": 1629,
  "n ": 1630,
  " yóu": 1631,
  "lìng ": 1632,
  " hào ": 1633,
  "tái wān": 1634,
  "huáng ": 1635,
  "dǎng ": 1636,
  "xū ": 1637,
  "duàn ": 1638,
  " de dì ": 1639,
  "xiān ": 1640,
  "kě yǐ ": 1641,
  "kè ": 1642,
  "yíng ": 1643,
  "mó ": 1644,
  "cān ": 1645,
  "5 ": 1646,
  "tiáo ": 1647,
  "biāo ": 1648,
  "zhǎn ": 1649,
  "xiàn ": 1650,
  "bǎn ": 1651,
  " de yī ": 1652,
  "kāi shǐ ": 1653,
  "4 ": 1654,
  "qiān ": 1655,
  " chéng wéi ": 1656,
  "hàn ": 1657,
  "hóng ": 1658,
  "yīn ": 1659,
  "méi yǒu ": 1660,
  "wěi yuán ": 1661,
  "líng ": 1662,
  " tóng ": 1663,
  "xiāo ": 1664,
  "jú ": 1665,
  "méng ": 1666,
  "kōng ": 1667,
  "huí ": 1668,
  "sū ": 1669,
  "zhuāng ": 1670,
  "fáng ": 1671,
  "bāo kuò ": 1672,
  "cūn ": 1673,
  "9 nián ": 1674,
  "rén kǒu ": 1675,
  "xíng ": 1676,
  " qí zhōng ": 1677,
  "huò ": 1678,
  " gōng sī ": 1679,
  "zǐ ": 1680,
  "dōu ": 1681,
  "6 nián ": 1682,
  " de shì ": 1683,
  "   zài ": 1684,
  "s ": 1685,
  "ài ": 1686,
  "zhào ": 1687,
  "qiáng ": 1688,
  "dú ": 1689,
  "8 nián ": 1690,
  "zhèng zhì ": 1691,
  "bīng ": 1692,
  "yí gè": 1693,
  "mò ": 1694,
  "cǎi ": 1695,
  "fǎ guó ": 1696,
  "5 nián ": 1697,
  "qīn ": 1698,
  "āi ": 1699,
  "hái ": 1700,
  "chù ": 1701,
  " dà xué ": 1702,
  "hú ": 1703,
  " shì yī ": 1704,
  "zhēn ": 1705,
  " tā de ": 1706,
  " wàn": 1707,
  "4 nián ": 1708,
  "lùn ": 1709,
  " gāo ": 1710,
  "fàn ": 1711,
  "guāng ": 1712,
  "2 nián ": 1713,
  "màn ": 1714,
  "ǎn ": 1715,
  "wèn ": 1716,
  "shè ": 1717,
  "7 nián ": 1718,
  "jū ": 1719,
  "biǎo shì ": 1720,
  " xiàng ": 1721,
  "zhōng de ": 1722,
  "què ": 1723,
  "zhuān ": 1724,
  "wán ": 1725,
  "diào ": 1726,
  "bái ": 1727,
  "3 nián ": 1728,
  "dǎ ": 1729,
  "6 ": 1730,
  "zōng ": 1731,
  "jǔ ": 1732,
  "fèi ": 1733,
  "diàn shì ": 1734,
  "hán ": 1735,
  "xùn ": 1736,
  " shì wèi ": 1737,
  "piàn ": 1738,
  "mìng ": 1739,
  "shì de ": 1740,
  " dōng ": 1741,
  "tuō ": 1742,
  " mù ": 1743,
  " dù ": 1744,
  " jīn ": 1745,
  "gù ": 1746,
  "1 nián ": 1747,
  "s   ": 1748,
  "guǒ ": 1749,
  " tè ": 1750,
  "xiū ": 1751,
  "xié ": 1752,
  " bù fèn ": 1753,
  "tā ": 1754,
  "0 nián ": 1755,
  "zào ": 1756,
  " rén kǒu ": 1757,
  " fēn ": 1758,
  " hé guó ": 1759,
  "zhōng guó ": 1760,
  "10 yuè ": 1761,
  "shōu ": 1762,
  "xìn ": 1763,
  "dāng ": 1764,
  " jiāng ": 1765,
  "12 yuè ": 1766,
  "7 yuè ": 1767,
  " jié ": 1768,
  " yě ": 1769,
  "9 yuè ": 1770,
  "dào ": 1771,
  " zuì": 1772,
  "zhuǎn ": 1773,
  "wū ": 1774,
  "miàn jī ": 1775,
  " rén mín ": 1776,
  "8 yuè ": 1777,
  "xún ": 1778,
  " dì qū ": 1779,
  "3 yuè ": 1780,
  "jiǎ ": 1781,
  "xiá ": 1782,
  "1 yuè ": 1783,
  "dū ": 1784,
  "gǎn ": 1785,
  "dí ": 1786,
  "zhū ": 1787,
  "huán ": 1788,
  "5 yuè ": 1789,
  "dǐ ": 1790,
  "tīng ": 1791,
  "yīng guó ": 1792,
  " cǐ ": 1793,
  " guò ": 1794,
  "zhōu ": 1795,
  "huǒ ": 1796,
  "zhèng shì ": 1797,
  "chóng ": 1798,
  " jīng ": 1799,
  "6 yuè ": 1800,
  "zhuàng ": 1801,
  "tián ": 1802,
  "chéng shì ": 1803,
  "4 yuè ": 1804,
  "gèng ": 1805,
  " yě": 1806,
  "fàng ": 1807,
  " guó jiā ": 1808,
  "jūn ": 1809,
  "yǒng ": 1810,
  "   dì ": 1811,
  " shǒu ": 1812,
  " suǒ ": 1813,
  " shī ": 1814,
  "ǎo ": 1815,
  "shǔ yú ": 1816,
  " píng fāng": 1817,
  "pò ": 1818,
  " dì yī ": 1819,
  "qù ": 1820,
  "qún ": 1821,
  "11 yuè ": 1822,
  "jiàng ": 1823,
  "táo ": 1824,
  "   S": 1825,
  " shì jì ": 1826,
  "gēn ": 1827,
  " píng fāng gōng lǐ ": 1828,
  " tóng shí ": 1829,
  " rú ": 1830,
  "dān rèn ": 1831,
  " C": 1832,
  "bié ": 1833,
  "pài ": 1834,
  "jǐ ": 1835,
  "huī ": 1836,
  "tiě ": 1837,
  "liáng ": 1838,
  " qián ": 1839,
  "shǎo ": 1840,
  "tǎ ": 1841,
  "nóng ": 1842,
  "diàn yǐng ": 1843,
  "chǔ ": 1844,
  "ēn ": 1845,
  "ěr ": 1846,
  "sǐ ": 1847,
  "tái wān ": 1848,
  "shuāng ": 1849,
  "qiáo ": 1850,
  " zhè": 1851,
  " S": 1852,
  " mǎ ": 1853,
  " de shí ": 1854,
  "gēn jù ": 1855,
  "lì shǐ ": 1856,
  "7 ": 1857,
  "chú ": 1858,
  "gào ": 1859,
  "bài ": 1860,
  " shì zhèn ": 1861,
  "cān jiā ": 1862,
  "yùn dòng": 1863,
  "jiǎo ": 1864,
  "gāng ": 1865,
  "chē zhàn ": 1866,
  " tiān ": 1867,
  "guó de ": 1868,
  "qī jiān ": 1869,
  " děng ": 1870,
  " yīn wèi ": 1871,
  "pàn ": 1872,
  " rì běn ": 1873,
  "zhèng fǔ ": 1874,
  " píng fāng ": 1875,
  "lì de ": 1876,
  "gài ": 1877,
  " nián de ": 1878,
  "yàn ": 1879,
  "bìng ": 1880,
  "zhǔn ": 1881,
  "wǎ ": 1882,
  "yá ": 1883,
  "hēi ": 1884,
  "wǒ ": 1885,
  "ōu ": 1886,
  "gòng hé guó ": 1887,
  " xiàn de ": 1888,
  "sòng ": 1889,
  "hā ": 1890,
  "yín ": 1891,
  "huàn ": 1892,
  "fā xiàn ": 1893,
  "chuàng ": 1894,
  "formula ": 1895,
  "léi ": 1896,
  "qū de ": 1897,
  " 19": 1898,
  "hěn ": 1899,
  "yán jiū ": 1900,
  "tí gōng ": 1901,
  " hǎi ": 1902,
  "jìn xíng ": 1903,
  "huā ": 1904,
  " běi ": 1905,
  "2 yuè ": 1906,
  "qiě ": 1907,
  "jīng jì ": 1908,
  "chuān ": 1909,
  "tōng guò ": 1910,
  "suí ": 1911,
  " A": 1912,
  "lēi ": 1913,
  " zhōng yāng": 1914,
  "kǎo ": 1915,
  " guó jì ": 1916,
  " 199": 1917,
  "shàng de ": 1918,
  "bǎi ": 1919,
  " yóu yú ": 1920,
  "wěi yuán huì ": 1921,
  " fú ": 1922,
  "   C": 1923,
  " t": 1924,
  " yòu ": 1925,
  "dēng ": 1926,
  "chēng wéi ": 1927,
  " shì jiè ": 1928,
  "8 ": 1929,
  " yīn cǐ ": 1930,
  "9 ": 1931,
  "nuò ": 1932,
  " tā men ": 1933,
  "míng wèi ": 1934,
  " jìn xíng ": 1935,
  "tǔ ": 1936,
  "chōng ": 1937,
  " shì zài ": 1938,
  "mài ": 1939,
  "zhǔ yì ": 1940,
  "qiú ": 1941,
  " rán ": 1942,
  "kuài ": 1943,
  "hào ": 1944,
  " zhī hòu ": 1945,
  "liàn ": 1946,
  " 18": 1947,
  "shí de ": 1948,
  "xì tǒng ": 1949,
  "xiāng gǎng ": 1950,
  "sà ": 1951,
  "pèi ": 1952,
  "lú ": 1953,
  "liào ": 1954,
  "lǔ ": 1955,
  "quán guó ": 1956,
  "a ": 1957,
  "piào ": 1958,
  "chǐ ": 1959,
  "dé ": 1960,
  " suǒ": 1961,
  "kuàng ": 1962,
  "xuān ": 1963,
  "i ": 1964,
  "zēng ": 1965,
  " xíng de ": 1966,
  "rén de ": 1967,
  "xǔ ": 1968,
  "rì ": 1969,
  "guǎn lǐ ": 1970,
  " zuì ": 1971,
  " gōng zuò ": 1972,
  " M": 1973,
  "ē ": 1974,
  " zhī yī ": 1975,
  " shǐ ": 1976,
  " dāng ": 1977,
  " měi": 1978,
  "dī ": 1979,
  "   M": 1980,
  "héng ": 1981,
  "bǔ ": 1982,
  "dà de ": 1983,
  "suì ": 1984,
  "yàng ": 1985,
  "pī ": 1986,
  "tuī ": 1987,
  " zhōng xīn ": 1988,
  "xuān bù ": 1989,
  "è ": 1990,
  "zǎo ": 1991,
  "men ": 1992,
  "sēn ": 1993,
  "wàng ": 1994,
  "zǔ zhī ": 1995,
  "pí ": 1996,
  "bù de ": 1997,
  "chàng ": 1998,
  " bāo kuò ": 1999,
  "yǎng ": 2000,
  "yǐng xiǎng ": 2001,
  " tā zài ": 2002,
  "hè ": 2003,
  "ī ": 2004,
  "qiān mǐ ": 2005,
  "ér ": 2006,
  "sāi ": 2007,
  "   shēng ": 2008,
  " huò dé ": 2009,
  "liù ": 2010,
  "2020 nián ": 2011,
  "luó sī ": 2012,
  "chéng de ": 2013,
  " shì jiè": 2014,
  " wén ": 2015,
  "dùn ": 2016,
  " gāi": 2017,
  " yīng ": 2018,
  "bāng ": 2019,
  "kě néng": 2020,
  "e ": 2021,
  "āng ": 2022,
  "xián ": 2023,
  " ā ": 2024,
  "niàn ": 2025,
  "qí tā ": 2026,
  " qīng ": 2027,
  " chéng lì ": 2028,
  "le yī ": 2029,
  "C ": 2030,
  "huó dòng ": 2031,
  " jiào ": 2032,
  " 198": 2033,
  " rèn wéi ": 2034,
  "yōu ": 2035,
  "fā zhǎn ": 2036,
  "yā ": 2037,
  "āo ": 2038,
  "kē xué ": 2039,
  "   A": 2040,
  "hǎo ": 2041,
  "lè ": 2042,
  "kù ": 2043,
  "huò dé ": 2044,
  "jùn ": 2045,
  " zuò wéi ": 2046,
  " píng fāng qiān mǐ ": 2047,
  "lǎo ": 2048,
  "lóu ": 2049,
  " T": 2050,
  "rè ": 2051,
  "huá rén mín ": 2052,
  "bēi ": 2053,
  "rì běn ": 2054,
  " wú ": 2055,
  "huì yì ": 2056,
  "tán ": 2057,
  "jiān de ": 2058,
  "t ": 2059,
  " shù ": 2060,
  "tiě lù ": 2061,
  "bǐ sài ": 2062,
  " de rén ": 2063,
  "liáo ": 2064,
  "miǎn ": 2065,
  "yòng yú ": 2066,
  "gè ": 2067,
  "níng ": 2068,
  " h": 2069,
  " 5": 2070,
  " shí jiān ": 2071,
  "2010 nián ": 2072,
  "ruì ": 2073,
  " de gōng ": 2074,
  " zhí": 2075,
  " lián ": 2076,
  " zhāng ": 2077,
  " p": 2078,
  "miàn jī": 2079,
  " B": 2080,
  "xiǎn ": 2081,
  "mín guó ": 2082,
  "gān ": 2083,
  "wū kè ": 2084,
  "yìn ": 2085,
  "ēng ": 2086,
  "zhǔ yào ": 2087,
  "gòng yǒu ": 2088,
  "   lì shǐ ": 2089,
  "rán ": 2090,
  "zuǒ ": 2091,
  "   P": 2092,
  "dòu ": 2093,
  "wèn tí ": 2094,
  "   shēng píng ": 2095,
  "yuǎn ": 2096,
  "huá rén mín gòng hé guó ": 2097,
  " luó ": 2098,
  "fāng shì ": 2099,
  "ū ": 2100,
  "fā shēng ": 2101,
  "zhěng ": 2102,
  "guàn jūn ": 2103,
  "kāng ": 2104,
  "kě néng ": 2105,
  "cún ": 2106,
  " dì èr ": 2107,
  " nián 1 yuè ": 2108,
  "dì de ": 2109,
  " P": 2110,
  "dǎo zhì ": 2111,
  "guān xì ": 2112,
  "ge ": 2113,
  "cān yù ": 2114,
  " cóng ": 2115,
  "dài biǎo ": 2116,
  "y ": 2117,
  "fēn bù ": 2118,
  " gōng chéng ": 2119,
  "wán chéng ": 2120,
  " 15": 2121,
  "xiè ": 2122,
  "dān wèi ": 2123,
  " lái ": 2124,
  "yī wèi ": 2125,
  "wén huà ": 2126,
  " quán ": 2127,
  "suǒ yǒu ": 2128,
  "1 rì ": 2129,
  " nián 12 yuè ": 2130,
  " bù fèn": 2131,
  "lǚ ": 2132,
  "zhì de ": 2133,
  " shān ": 2134,
  "gěi ": 2135,
  " chéng yuán ": 2136,
  " jǐn ": 2137,
  "e   ": 2138,
  " liú ": 2139,
  " de chéng ": 2140,
  " yán ": 2141,
  " 194": 2142,
  "00 ": 2143,
  "A ": 2144,
  "yuán de ": 2145,
  " wàn ": 2146,
  "yōng yǒu ": 2147,
  "cún zài ": 2148,
  "èr shí ": 2149,
  " zé ": 2150,
  " zǒng ": 2151,
  " 3": 2152,
  "běi bù ": 2153,
  " xiǎo ": 2154,
  "lián hé ": 2155,
  " zhí ": 2156,
  " wǔ ": 2157,
  " 4": 2158,
  "áng ": 2159,
  "hòu de ": 2160,
  "niǔ ": 2161,
  "yóu yú ": 2162,
  " shì zhōng ": 2163,
  " D": 2164,
  "guó jiā ": 2165,
  "duì yú ": 2166,
  "fā xíng ": 2167,
  "yì de ": 2168,
  "jù yǒu ": 2169,
  " jiàn zhù ": 2170,
  " bìng zài ": 2171,
  " dào le ": 2172,
  " zhǐ ": 2173,
  "xīn de ": 2174,
  "sī de ": 2175,
  "shěn ": 2176,
  "   B": 2177,
  "zhèng fǔ": 2178,
  "zì jǐ": 2179,
  "bīn ": 2180,
  "yùn dòng ": 2181,
  " bā ": 2182,
  " tōng ": 2183,
  "xíng zhèng ": 2184,
  "yìn dù ": 2185,
  "é luó sī ": 2186,
  "tū ": 2187,
  " miàn jī ": 2188,
  "xǔ duō ": 2189,
  "shào ": 2190,
  "yún ": 2191,
  " dàn shì ": 2192,
  "rèn hé ": 2193,
  " měi guó ": 2194,
  " lìng ": 2195,
  "shēng yú ": 2196,
  "guì ": 2197,
  " zhǐ": 2198,
  "bǎo hù ": 2199,
  " 16": 2200,
  "chè ": 2201,
  "liǎng gè ": 2202,
  "xiù ": 2203,
  " rén kǒu mì ": 2204,
  "dīng ": 2205,
  " nián 3 yuè ": 2206,
  "zhǔ yào": 2207,
  "mǎn ": 2208,
  "zhàng ": 2209,
  "zh ": 2210,
  "   T": 2211,
  "d ": 2212,
  "xuán ": 2213,
  " de yí gè ": 2214,
  "nán bù ": 2215,
  "jǔ xíng ": 2216,
  "zhuān jí ": 2217,
  "miàn jī wèi ": 2218,
  " zhèng fǔ ": 2219,
  "wǎn ": 2220,
  " nián 7 yuè ": 2221,
  " shǐ": 2222,
  "lái de ": 2223,
  " dāng shí ": 2224,
  "jué dìng ": 2225,
  "fú wù ": 2226,
  " 0": 2227,
  "ruò ": 2228,
  "dú lì ": 2229,
  "fān ": 2230,
  " nián 10 yuè ": 2231,
  " chū de ": 2232,
  "ràng ": 2233,
  " 6": 2234,
  "xiě ": 2235,
  "kāi shǐ": 2236,
  "qǐng ": 2237,
  "o ": 2238,
  " lì shǐ ": 2239,
  " 195": 2240,
  " měi ": 2241,
  "jiào yù ": 2242,
  " shè jì ": 2243,
  "hài ": 2244,
  "d   ": 2245,
  "míng de ": 2246,
  "xǐ ": 2247,
  " shì wèi yú ": 2248,
  "jiù shì ": 2249,
  " yǒu yī ": 2250,
  "gēng ": 2251,
  "qín ": 2252,
  " nián 5 yuè ": 2253,
  "gt ": 2254,
  " gt ": 2255,
  " nián 9 yuè ": 2256,
  "tàn ": 2257,
  " nián 6 yuè ": 2258,
  "fāng miàn ": 2259,
  " qí tā ": 2260,
  "péi ": 2261,
  " 197": 2262,
  "suàn ": 2263,
  " xíng zhèng ": 2264,
  " cǐ": 2265,
  "ěng ": 2266,
  "10 ": 2267,
  "shòu dào ": 2268,
  "lt ": 2269,
  " nián 8 yuè ": 2270,
  " jiǎn ": 2271,
  "rèn wéi ": 2272,
  " sān ": 2273,
  "fǎng ": 2274,
  "shàn ": 2275,
  "y   ": 2276,
  " shì dì ": 2277,
  " nián 4 yuè ": 2278,
  " zhōng yāng ": 2279,
  "shè huì ": 2280,
  " lt ": 2281,
  "yì wèi ": 2282,
  "gù shì ": 2283,
  "kān ": 2284,
  " xiàn zài ": 2285,
  " ān ": 2286,
  "xiāng gǎng": 2287,
  "m ": 2288,
  "qū wèi ": 2289,
  "piān ": 2290,
  " céng ": 2291,
  " bǐ ": 2292,
  " zuì zhōng ": 2293,
  "tuì ": 2294,
  " diàn ": 2295,
  "duǎn ": 2296,
  " n": 2297,
  " wáng ": 2298,
  "fā zhǎn": 2299,
  " shì shì ": 2300,
  "liè chē ": 2301,
  " guān ": 2302,
  " lì rú ": 2303,
  " jiāng": 2304,
  " E": 2305,
  "nèi de ": 2306,
  "wàn ": 2307,
  "shǔ de ": 2308,
  "xiǎo shí ": 2309,
  "qiāng ": 2310,
  "zú qiú ": 2311,
  "dàn ": 2312,
  "shù jù ": 2313,
  "r ": 2314,
  "hū ": 2315,
  "xū yào ": 2316,
  "zhí wù ": 2317,
  "zhe ": 2318,
  " shì jiàn ": 2319,
  "huà de ": 2320,
  "shǐ yòng": 2321,
  "kàn ": 2322,
  "kòng ": 2323,
  " bù tóng": 2324,
  " 1": 2325,
  "ǎng ": 2326,
  "zuò de ": 2327,
  "zēng jiā ": 2328,
  "zuò wéi ": 2329,
  " jì huà ": 2330,
  " nián 11 yuè ": 2331,
  "mín zhǔ ": 2332,
  " shí qī ": 2333,
  " suī": 2334,
  "pào ": 2335,
  "zhuī ": 2336,
  " 7": 2337,
  "tǎn ": 2338,
  "zuò pǐn ": 2339,
  "T ": 2340,
  "kòng zhì ": 2341,
  "rén shì ": 2342,
  "wān ": 2343,
  "xióng ": 2344,
  " jiàn de ": 2345,
  "yīn yuè ": 2346,
  " H": 2347,
  " rán ér ": 2348,
  "láng ": 2349,
  "mào ": 2350,
  " yǐ jīng ": 2351,
  "xué yuàn ": 2352,
  " 17": 2353,
  " zài dì ": 2354,
  "rén mín ": 2355,
  " rén yuán ": 2356,
  " hé zuò ": 2357,
  " I": 2358,
  "tā de ": 2359,
  " jiàn yú ": 2360,
  "zǎi ": 2361,
  "zǔ chéng ": 2362,
  " shǔ yú ": 2363,
  " b": 2364,
  "chāo guò ": 2365,
  " yīn yuè ": 2366,
  "lǎng ": 2367,
  "fèng ": 2368,
  "xì tǒng": 2369,
  "xiáng ": 2370,
  " L": 2371,
  "zǒng tǒng ": 2372,
  "t   ": 2373,
  " zhè xiē ": 2374,
  "S ": 2375,
  "huì de ": 2376,
  "jì de ": 2377,
  " yòu": 2378,
  "a   ": 2379,
  "qiū ": 2380,
  " wèi le ": 2381,
  " hòu lái ": 2382,
  "pín ": 2383,
  "láo ": 2384,
  " 196": 2385,
  "yú shì ": 2386,
  " R": 2387,
  " lì yà ": 2388,
  "sōng ": 2389,
  " chéng gōng ": 2390,
  "fā bù ": 2391,
  "yāo qiú ": 2392,
  "á ": 2393,
  "dà lì ": 2394,
  "tí chū ": 2395,
  " 000": 2396,
  " yì yuán ": 2397,
  " shè yǒu ": 2398,
  " céng": 2399,
  " jiù ": 2400,
  "yùn dòng yuán ": 2401,
  "pú ": 2402,
  "ā ěr ": 2403,
  "dāng shí ": 2404,
  "hán guó ": 2405,
  "bù zài ": 2406,
  "yǒu de ": 2407,
  " jiē ": 2408,
  "ní yà": 2409,
  "bǎ ": 2410,
  "xì liè ": 2411,
  "zào chéng ": 2412,
  " 8": 2413,
  " yīn cǐ": 2414,
  "ōu zhōu ": 2415,
  "cǎi yòng ": 2416,
  "xiǎo xíng ": 2417,
  " gōng yuán ": 2418,
  "jiā de ": 2419,
  "xìng de ": 2420,
  " fēng ": 2421,
  "shēng de ": 2422,
  " de yí gè": 2423,
  " rì zài ": 2424,
  "rén wù ": 2425,
  " cǐ wài ": 2426,
  " nián 2 yuè ": 2427,
  "gòng chǎn ": 2428,
  "máo ": 2429,
  " zh ": 2430,
  " N": 2431,
  "D ": 2432,
  "yáo ": 2433,
  "   de ": 2435,
  " shì hé ": 2436,
  " zhǎng ": 2437,
  " G": 2438,
  " wǒ ": 2439,
  "mǎ wèi ": 2440,
  "dūn ": 2441,
  " de bù ": 2442,
  "chāo ": 2443,
  "xué jiā ": 2444,
  "   199": 2445,
  "sān nián ": 2446,
  "yóu xì ": 2447,
  "fàn wéi ": 2448,
  " cóng": 2449,
  "chūn ": 2450,
  " suí": 2451,
  "kāi fā ": 2452,
  " bù tóng ": 2453,
  "shè jì ": 2454,
  " bì ": 2455,
  " gēn jù ": 2456,
  "qǔ dé ": 2457,
  "jié mù ": 2458,
  " gé ": 2459,
  " de jī ": 2460,
  " lìng": 2461,
  "dǐng ": 2462,
  "nǐ ": 2463,
  "sài shì ": 2464,
  " xíng chéng ": 2465,
  "   dì lǐ ": 2466,
  "zì zhì ": 2467,
  "chǎn shēng ": 2468,
  "dàng ": 2469,
  "yě shì ": 2470,
  "à ": 2471,
  "zàn ": 2472,
  "jué sè ": 2473,
  " de jì ": 2474,
  "shū jì ": 2475,
  " F": 2476,
  " bìng yú ": 2477,
  "   shì ": 2478,
  " shòu ": 2479,
  " 193": 2480,
  "dōu shì ": 2481,
  " m": 2482,
  "chóng xīn ": 2483,
  "yī nián ": 2484,
  " shè huì ": 2485,
  "diàn yǐng": 2486,
  "lǐ de ": 2487,
  "bú shì ": 2488,
  "zhòng yào": 2489,
  "lüè ": 2490,
  " sī tè ": 2491,
  " 9": 2492,
  " k": 2493,
  "guān yú ": 2494,
  "qū yù ": 2495,
  "mí ": 2496,
  " gǔ ": 2497,
  "gē qǔ ": 2498,
  " zhōng huá ": 2499,
  "jiāo tōng ": 2500,
  "   L": 2501,
  " sì ": 2502,
  " nǚ ": 2503,
  "wēn ": 2504,
  " yóu xì ": 2505,
  "dà xué ": 2506,
  "jí de ": 2507,
  "kǒng ": 2508,
  "chú le ": 2509,
  " chū xiàn ": 2510,
  "ng ": 2511,
  "miáo ": 2512,
  "tǎo ": 2513,
  " zhì zuò ": 2514,
  " dà xué": 2515,
  "píng jūn ": 2516,
  "wò ": 2517,
  "   R": 2518,
  "cǎo ": 2519,
  " dé guó ": 2520,
  "xiǎn shì ": 2521,
  "qìng ": 2522,
  " kě ": 2523,
  "èr nián ": 2524,
  " zhōng huá rén mín gòng hé guó ": 2525,
  "xiōng ": 2526,
  "kuò ": 2527,
  "hòu zài ": 2528,
  "hūn ": 2529,
  "xià de ": 2530,
  "yǎn yuán ": 2531,
  " chén ": 2532,
  " kè sī ": 2533,
  "xuǎn jǔ ": 2534,
  "dāng dì ": 2535,
  "dé guó ": 2536,
  " liǎng ": 2537,
  "guǎn xiá ": 2538,
  " xiāng gǎng ": 2539,
  "pà ": 2540,
  "wéi yī ": 2541,
  "duān ": 2542,
  "zǒu ": 2543,
  "guó jì ": 2544,
  "duì de ": 2545,
  "bó wù ": 2546,
  " mǎ": 2547,
  "àng ": 2548,
  "cuò ": 2549,
  "ú ": 2550,
  "2001 nián ": 2551,
  " jiàn lì ": 2552,
  " 1 ": 2553,
  " tǐ ": 2554,
  " dì guó ": 2555,
  " 14": 2556,
  " liǎng": 2557,
  " dài biǎo ": 2558,
  "fǎn duì ": 2559,
  "xuè ": 2560,
  "qī de ": 2561,
  "wù de ": 2562,
  "sūn ": 2563,
  "yīn wèi ": 2564,
  "0 ": 2565,
  " shā ": 2566,
  "qù shì ": 2567,
  "èng ": 2568,
  "yī bù fèn ": 2569,
  "zhǔ xí ": 2570,
  "quē ": 2571,
  "dòng wù ": 2572,
  "bá gāo ": 2573,
  " yě shì ": 2574,
  "shí nián ": 2575,
  " c": 2576,
  "yī bù ": 2577,
  "dù wèi ": 2578,
  " J": 2579,
  "zhèng zhì rén wù ": 2580,
  " fú": 2581,
  "   D": 2582,
  "ní yà ": 2583,
  "qián wǎng ": 2584,
  " fǎ ": 2585,
  "zuì zhōng ": 2586,
  "hái yǒu ": 2587,
  " yí ": 2588,
  " jié": 2589,
  "   rén kǒu ": 2590,
  " qī ": 2591,
  "bǐ sài": 2592,
  "   G": 2593,
  "péng ": 2594,
  "lái zì ": 2595,
  " shēn ": 2596,
  "zhí yè ": 2597,
  " bǎo ": 2598,
  "dài biǎo": 2600,
  " tā shì ": 2601,
  " 2": 2602,
  "20 ": 2603,
  " dāng dì ": 2604,
  " bù duì ": 2605,
  " xíng shì ": 2606,
  " nà ": 2608,
  "chì ": 2609,
  "dìng de ": 2610,
  " cháng ": 2611,
  "bā shì ": 2612,
  "diào chá ": 2613,
  " de yuán ": 2614,
  "zhòng yào ": 2615,
  "xué xiào ": 2616,
  "zhǔ jiào ": 2617,
  " zhī jiān ": 2618,
  "fá ": 2619,
  "biān mǎ wèi ": 2620,
  "dài de ": 2621,
  " xué míng ": 2622,
  " kē ": 2623,
  "ó ": 2624,
  " lā ": 2625,
  " rì zhì ": 2626,
  "kuǎn ": 2627,
  "gǎi wéi ": 2628,
  "zǔ zhī": 2629,
  "er ": 2630,
  "zī liào ": 2631,
  "fēn wéi ": 2632,
  " zhèng fǔ": 2633,
  "hǎi jūn ": 2634,
  " jūn shì ": 2635,
  "gōng shì ": 2636,
  " yuē ": 2637,
  " rén kǒu mì dù ": 2638,
  "qiè ": 2639,
  "chǔ lǐ ": 2640,
  "kàng ": 2641,
  "fù zé ": 2642,
  " huáng ": 2643,
  "shù de ": 2644,
  "fāng fǎ ": 2645,
  "wū kè lán ": 2646,
  "zhāo ": 2647,
  "jiē rǎng": 2648,
  " dān ": 2649,
  " de dà ": 2650,
  " rì běn": 2651,
  "   19": 2652,
  " jiān ": 2653,
  " de yì ": 2654,
  "   H": 2655,
  "lián méng ": 2656,
  " pǔ ": 2657,
  "wú fǎ ": 2658,
  " yǒu xiàn": 2659,
  "   yǔ ": 2660,
  "zuì gāo ": 2661,
  " gè rén ": 2662,
  "12 ": 2663,
  " jì shù ": 2664,
  "guàn ": 2665,
  "jū mín ": 2666,
  "wěn ": 2667,
  "zhǔ rèn ": 2668,
  "fǎn yìng ": 2669,
  "qí zhōng ": 2670,
  "fēi cháng ": 2671,
  " shì yóu ": 2672,
  "lù de ": 2673,
  "fán ": 2674,
  "zì yóu ": 2675,
  "sān shí ": 2677,
  "yǐng xiǎng": 2678,
  " zhī chí ": 2679,
  "xué shēng ": 2680,
  "kǎi ": 2681,
  "yé ": 2682,
  "kěn ": 2683,
  "biāo zhǔn ": 2684,
  "xié huì ": 2685,
  "   F": 2686,
  "kě yǐ": 2687,
  "huì zài ": 2688,
  "jié gòu ": 2689,
  "shèn zhì ": 2690,
  "jiào shòu ": 2691,
  "fēn bù yú ": 2692,
  "bǐ lì ": 2693,
  " lín ": 2694,
  " 2 ": 2695,
  "tǒng zhì ": 2696,
  "chuàng zuò ": 2697,
  " kǎ ": 2698,
  "yāo ": 2699,
  "tǐ yù ": 2700,
  "jiē shòu ": 2701,
  "   běn ": 2702,
  "p ": 2703,
  "dōng bù ": 2704,
  " fù zé ": 2705,
  " de yí gè shì zhèn ": 2706,
  "yǎ ": 2707,
  " dì sān ": 2708,
  " gōng sī": 2709,
  " quán": 2710,
  "gāi guó ": 2711,
  "30 ": 2712,
  "ǔ ": 2713,
  " suí ": 2714,
  "xiàng mù ": 2715,
  "nán zi ": 2716,
  "sì nián ": 2717,
  "nǚ zǐ ": 2718,
  "qíng kuàng ": 2719,
  "shù liàng": 2720,
  " dì shí ": 2721,
  "mǒu ": 2722,
  "rǎn ": 2723,
  "   xíng zhèng ": 2724,
  " tài ": 2725,
  " bù guò ": 2726,
  "zhōng shì ": 2727,
  "k ": 2728,
  "nèi róng ": 2729,
  " dào de ": 2730,
  " ào ": 2731,
  "néng lì ": 2732,
  "gōng bù ": 2733,
  " hóng ": 2734,
  "shēng huó ": 2735,
  " shì yí gè ": 2736,
  "   I": 2737,
  "niú ": 2738,
  "suō ": 2739,
  "xī bù ": 2740,
  " jìn rù ": 2741,
  "ān quán ": 2742,
  "lián sài ": 2743,
  "dòng huà ": 2744,
  "2008 nián ": 2745,
  " K": 2746,
  "qíng kuàng": 2747,
  "huān ": 2748,
  "lù xiàn ": 2749,
  "P ": 2750,
  "chéng lì ": 2751,
  " gǎi ": 2752,
  " zhōng xué ": 2753,
  "chā ": 2754,
  "   formula ": 2755,
  "miàn de ": 2756,
  "gū ": 2757,
  "yì shì ": 2758,
  "duó ": 2759,
  " ěr sī ": 2760,
  "běi jīng ": 2761,
  "méi tǐ ": 2762,
  "2009 nián ": 2763,
  "ì ": 2764,
  "yǒu shí ": 2765,
  " yì huì ": 2766,
  "ǒu ": 2767,
  "zāi ": 2768,
  "guǎng dōng ": 2769,
  "háo ": 2770,
  "suān ": 2771,
  "ōng ": 2772,
  "–": 2773,
  " bō ": 2774,
  "   jiā ": 2775,
  " xīn": 2776,
  "jiàn zhù ": 2777,
  "yà zhōu ": 2778,
  " suì": 2779,
  "ǒng ": 2780,
  "zhuàn ": 2781,
  "dǎo de ": 2782,
  " guó mín ": 2783,
  "wén wù ": 2784,
  "ná dà ": 2785,
  "   198": 2786,
  "tài píng ": 2787,
  "zì jǐ de ": 2788,
  " suǒ yǐ ": 2789,
  "dì wèi ": 2790,
  " xué xiào ": 2791,
  " shèng ": 2792,
  "bá gāo dù ": 2793,
  "dá dào ": 2794,
  "niǎo ": 2795,
  "lǐ shì ": 2796,
  "zhú jiàn ": 2797,
  " zhè shì ": 2798,
  "quán lì ": 2799,
  "bǎn běn ": 2800,
  "qīng nián ": 2801,
  "xǔ duō": 2802,
  "zhě de ": 2803,
  "cáng ": 2804,
  " ào": 2805,
  " bìng qiě": 2806,
  " xī yà ": 2807,
  " bìng qiě ": 2808,
  " s": 2809,
  "guǐ ": 2810,
  "wén xué ": 2811,
  "wū kè lán": 2812,
  "lā sī ": 2813,
  "2016 nián ": 2814,
  "   gēn jù ": 2815,
  "yī shì ": 2816,
  " chéng wéi": 2817,
  "zhǐ yǒu ": 2818,
  "rì běn": 2819,
  "zhà ": 2820,
  "mó shì ": 2821,
  " bā": 2822,
  "háng kōng ": 2823,
  " 10": 2824,
  "mèng ": 2825,
  " tā men de ": 2826,
  " yì shù ": 2827,
  " jì lù ": 2828,
  " zǒng": 2829,
  "fěn": 2830,
  " zhǔ yào ": 2831,
  "dié ": 2832,
  " zhōu de ": 2833,
  "chóu ": 2834,
  "zhǐ chū ": 2835,
  "…": 2836,
  "tōng guò": 2837,
  "zhòu": 2838,
  " kāi ": 2839,
  "jǐn biāo ": 2840,
  "wǔ nián ": 2841,
  " W": 2842,
  " dà": 2843,
  "jiào yù": 2844,
  "2012 nián ": 2845,
  "huǐ ": 2846,
  " zé": 2847,
  " qí shì ": 2848,
  " qí yú ": 2849,
  " kě yǐ ": 2850,
  "děng rén ": 2851,
  " yú shì ": 2852,
  "zhí xíng ": 2853,
  "pō ": 2854,
  "miào ": 2855,
  "shuài ": 2856,
  "2011 nián ": 2857,
  "hùn ": 2858,
  "28 rì ": 2859,
  "zhí jiē ": 2860,
  "ō ": 2861,
  "tóng shí ": 2862,
  "jìn rù ": 2863,
  "rén kǒu pǔ ": 2864,
  "zhé ": 2865,
  "zhàn zhēng ": 2866,
  "zhè xiē ": 2867,
  "gé lán ": 2868,
  " qiú duì ": 2869,
  "yǎn chū ": 2870,
  "gāi dì ": 2871,
  "zhè yī ": 2872,
  "mín zú ": 2873,
  " nán": 2874,
  "huó dòng": 2875,
  "rèn wéi": 2876,
  "on ": 2877,
  "xūn": 2878,
  "zàng ": 2879,
  " zhī jiān de ": 2880,
  "11 ": 2881,
  " gōng kāi ": 2882,
  "jiāng jūn ": 2883,
  "gòng tóng ": 2884,
  " lì yà": 2885,
  " 13": 2886,
  "UT": 2887,
  "..": 2888,
  "xià jì ": 2889,
  "lè bù ": 2890,
  " hái ": 2891,
  " dàn zài ": 2892,
  " dāng zhōng ": 2893,
  " sū ": 2894,
  "jìng nèi ": 2895,
  "tǐ de ": 2896,
  "   E": 2897,
  " d": 2898,
  "chē zhàn": 2899,
  " èr ": 2900,
  "tuī chū ": 2901,
  "me ": 2902,
  "shǒu cì ": 2903,
  " yáng ": 2904,
  " shì wù ": 2905,
  " ài ": 2906,
  "   W": 2907,
  "huán jìng ": 2908,
  "lí kāi ": 2909,
  " zhè ge ": 2910,
  " lìng wài ": 2911,
  " zhǔ yào": 2912,
  "dān qū ": 2913,
  "chuán tǒng ": 2914,
  "zhú ": 2915,
  "sàn ": 2916,
  "lín pǐ": 2917,
  "shāng yè ": 2918,
  "   nián": 2919,
  "yín háng ": 2920,
  "15 rì ": 2921,
  "qǐ yè ": 2922,
  "oo": 2923,
  "fēn zhōng ": 2924,
  "guān de ": 2925,
  "xuǎn zé ": 2926,
  "jūn shì ": 2927,
  "   194": 2928,
  "shú": 2929,
  "liàng de ": 2930,
  "jiē dào ": 2931,
  "jī de ": 2932,
  "qián de ": 2933,
  "tì ": 2934,
  "rén zài ": 2935,
  "sài jì ": 2936,
  "gāo de ": 2937,
  "bó shì ": 2938,
  "dù de ": 2939,
  " wèi rén ": 2940,
  " gē ": 2941,
  "yuán nián ": 2942,
  " fā ": 2943,
  " dì èr": 2944,
  "wán quán ": 2945,
  "2014 nián ": 2946,
  " jīn": 2947,
  " wèi zhì ": 2948,
  "mìng míng ": 2949,
  "tuán tǐ ": 2950,
  " tái ": 2951,
  "děng dì ": 2952,
  " gōng lù ": 2953,
  "I ": 2954,
  "xiāng guān ": 2955,
  "rè dài ": 2956,
  "běi jīng": 2957,
  "wén huà": 2958,
  "chéng zhōng ": 2959,
  "bào gào ": 2960,
  " shí jì ": 2961,
  "yùn dòng huì ": 2962,
  "sǔn ": 2963,
  " dà lì ": 2964,
  " ér zài ": 2965,
  "shùn ": 2966,
  "bǎng ": 2967,
  "2005 nián ": 2968,
  "zūn ": 2969,
  "sān gè ": 2970,
  "zuì jiā ": 2971,
  "2018 nián ": 2972,
  " 5 ": 2973,
  "zuì hòu ": 2974,
  "bō chū ": 2975,
  "quán bù ": 2976,
  " de hé ": 2977,
  "   jù ": 2978,
  "xué wèi ": 2979,
  "luàn ": 2980,
  "téng ": 2981,
  "lǐng dǎo ": 2982,
  " mù qián ": 2983,
  " jī gòu ": 2984,
  "zōng jiào ": 2985,
  "tǔ dì ": 2986,
  " nián dài ": 2987,
  " dé dào ": 2988,
  "25 rì ": 2989,
  " shì yī zhǒng ": 2990,
  "R ": 2991,
  " tóng nián ": 2992,
  "fēn bié": 2993,
  " dì fāng ": 2994,
  "guǐ dào ": 2995,
  "2015 nián ": 2996,
  " wèi dì ": 2997,
  "niè ": 2998,
  "2013 nián ": 2999,
  "huái ": 3000,
  "jīng lì ": 3001,
  "xì de ": 3002,
  " zhī qián ": 3003,
  "shěng de yí gè shì zhèn ": 3004,
  "2007 nián ": 3005,
  "2019 nián ": 3006,
  " yī xiē ": 3007,
  "xuě ": 3008,
  " shì wèi yú měi guó ": 3009,
  " zhōng huá mín guó ": 3010,
  "sǐ wáng ": 3011,
  " gè yuè ": 3012,
  " jūn de ": 3013,
  "qiàn": 3014,
  "30 rì ": 3015,
  "to": 3016,
  "wèi de ": 3017,
  "ào lín pǐ": 3018,
  "òng ": 3019,
  " hǎi bá gāo dù ": 3020,
  " yǒu guān ": 3021,
  " wēi ": 3022,
  "chāi ": 3023,
  "an ": 3024,
  "jié shù ": 3025,
  "20 rì ": 3026,
  " xíng dòng ": 3027,
  " zài yī ": 3028,
  "jī yú ": 3029,
  "sōu ": 3030,
  " yǐn ": 3031,
  "   wèi ": 3032,
  "yòng de ": 3033,
  "shuǐ yù ": 3034,
  "biàn huà ": 3035,
  "shàng wèi ": 3036,
  "zì jǐ ": 3037,
  " jì xù ": 3038,
  "chún ": 3039,
  "   N": 3040,
  " jí tuán ": 3041,
  " bāo kuò": 3042,
  "gàn ": 3043,
  "jí zhōng ": 3044,
  "zhī yī ": 3045,
  " shí dài ": 3046,
  "chǔ yú ": 3047,
  "UTC ": 3048,
  "zhī chí ": 3049,
  "2006 nián ": 3050,
  "gòng hé ": 3051,
  "2017 nián ": 3052,
  " 12": 3053,
  "guò chéng ": 3054,
  " hòu lái": 3055,
  "gé mìng ": 3056,
  " bù zhǎng ": 3057,
  "   the": 3058,
  "10 rì ": 3059,
  "nǎo ": 3060,
  "kōng jiān ": 3061,
  " hàn ": 3062,
  " yú 199": 3063,
  "bú huì ": 3064,
  " fēi ": 3065,
  "shuò": 3066,
  "mèi ": 3067,
  "xīn wén ": 3068,
  "cài ": 3069,
  "tòu guò ": 3070,
  "nèi bù ": 3071,
  "chāng ": 3072,
  "yè yú ": 3073,
  "zū ": 3074,
  " méi ": 3075,
  "wù zhǒng ": 3076,
  " yì zhí ": 3077,
  "jiě fàng": 3078,
  " zì jǐ": 3079,
  "gēn jù": 3080,
  " jí tuán": 3081,
  " zhōu shì ": 3082,
  "pī píng ": 3083,
  "V ": 3084,
  " zhí dào ": 3085,
  "E ": 3086,
  " hú ": 3087,
  "dì qū ": 3088,
  "ā lā ": 3089,
  "2000 nián ": 3090,
  " jiā rù ": 3091,
  "guī dìng ": 3092,
  " hé nán ": 3093,
  " shì shí ": 3094,
  "vi": 3095,
  " yǒu xiàn gōng sī ": 3096,
  "wán jiā ": 3097,
  "21 ": 3098,
  "shèn ": 3099,
  "   zhè ": 3100,
  "l ": 3101,
  "tā men": 3102,
  "chéng wéi ": 3103,
  "xī bān ": 3104,
  "zī gé ": 3105,
  "26 rì ": 3106,
  " 3 ": 3107,
  "réng ": 3108,
  "dà lù ": 3109,
  "   gāi ": 3110,
  "ào lín pǐ kè ": 3111,
  " O": 3112,
  "yǔn ": 3113,
  " dà huì ": 3114,
  " bái ": 3115,
  "24 rì ": 3116,
  " míng": 3117,
  "shàng hǎi ": 3118,
  "duō de ": 3119,
  "zài de ": 3120,
  "zá zhì ": 3121,
  "xì liè": 3122,
  " nèi ": 3123,
  "yīng yǔ ": 3124,
  " zhè zhǒng ": 3125,
  "pú táo ": 3126,
  "lù dì ": 3127,
  " shuǐ ": 3128,
  "hé de ": 3129,
  "háo mǐ ": 3130,
  " yǔ yán ": 3131,
  "qí tā": 3132,
  "hóu ": 3133,
  "luó mǎ ": 3134,
  "fāng de ": 3135,
  "B ": 3136,
  " gù ": 3137,
  "   yī ": 3138,
  "hòu yī ": 3139,
  "   18": 3140,
  "miè ": 3141,
  " chéng qū ": 3142,
  "sè de ": 3143,
  "zé shì ": 3144,
  " tái wān ": 3145,
  "yī de ": 3146,
  "fǎ lǜ ": 3147,
  "yān ": 3148,
  " shì fǎ guó ": 3149,
  " wú": 3150,
  "18 rì ": 3151,
  "chuán tǒng": 3152,
  "shuì ": 3153,
  " wèi yú gāi guó ": 3154,
  " lǐ sī ": 3155,
  "bà ": 3156,
  "zhàn de ": 3157,
  "wù lǐ ": 3158,
  " chú ": 3159,
  "jīng guò ": 3160,
  "shù wèi ": 3161,
  " yì bān ": 3162,
  " bù tóng de ": 3163,
  "xuǎn jǔ": 3164,
  "biǎo xiàn ": 3165,
  " yīng guó ": 3166,
  "bāo hán ": 3167,
  " mǔ ": 3168,
  " shì jiè dà ": 3169,
  "2021 nián ": 3170,
  "0 nián dài ": 3171,
  "shěng jí ": 3172,
  "miáo shù ": 3173,
  "guān yuán ": 3174,
  " ài": 3175,
  " 2001 nián ": 3176,
  "bó wù guǎn ": 3177,
  " 6 ": 3178,
  "2022 nián ": 3179,
  "pò huài": 3180,
  "wèn tí": 3181,
  " guó jiā": 3182,
  "yíng dé ": 3183,
  "zhèng zài ": 3184,
  "fǎ yuàn ": 3185,
  "bǐng ": 3186,
  " gōng jī ": 3187,
  " zuì hòu ": 3188,
  "cāng ": 3189,
  "shǐ de ": 3190,
  "cè shì ": 3191,
  "shě": 3192,
  " sān": 3193,
  "chǎng de ": 3194,
  " wèi zhōng ": 3195,
  "bù hé ": 3196,
  " suí hòu ": 3197,
  " lì yòng ": 3198,
  " lú ": 3199,
  "fēi jī ": 3200,
  " huà ": 3201,
  "zhuān yè ": 3202,
  "zhēng yì ": 3203,
  "27 rì ": 3204,
  "16 rì ": 3205,
  "zhǐ shì ": 3206,
  " dì qū": 3207,
  "21 rì ": 3208,
  " shēng huó ": 3209,
  "ci": 3210,
  "yì shí ": 3211,
  " zhàn zhēng ": 3212,
  "zhóu": 3213,
  "17 rì ": 3214,
  "zāo dào ": 3215,
  " mó ": 3216,
  "jiāng qí ": 3217,
  "sāng ": 3218,
  "2004 nián ": 3219,
  "12 rì ": 3220,
  " bèi chēng wéi ": 3221,
  "dìng yì ": 3222,
  "8 rì ": 3223,
  " sì": 3224,
  " dà qū ": 3225,
  " zhōng xīn": 3226,
  "zōng hé ": 3227,
  "liù nián ": 3228,
  "ná ": 3229,
  " shì yì ": 3230,
  "xué de ": 3231,
  " xiàn shí ": 3232,
  "jí wèi ": 3233,
  " táng ": 3234,
  "23 rì ": 3235,
  "huáng dì ": 3236,
  "guī mó ": 3237,
  " fēn bù yú ": 3238,
  "yě yǒu ": 3239,
  " bìng bù ": 3240,
  "11 rì ": 3241,
  "ù ": 3242,
  "ōu zhōu": 3243,
  " zhōng gòng": 3244,
  "fāng xiàng ": 3245,
  "é luó ": 3246,
  " suī rán": 3247,
  "kuān ": 3248,
  " shì jiàn": 3249,
  "zuì dà de ": 3250,
  " jǐng ": 3251,
  "chū xiàn ": 3252,
  " wài ": 3253,
  "duō shù ": 3254,
  "fēn xī ": 3255,
  "néng gòu ": 3256,
  "7 rì ": 3257,
  " rú": 3258,
  "22 rì ": 3259,
  "29 rì ": 3260,
  "   yú ": 3261,
  "xiàng de ": 3262,
  "pán ": 3263,
  "yuán yú ": 3264,
  " de zuò ": 3265,
  "gē shǒu ": 3266,
  "yuē hàn ": 3267,
  "hái shì ": 3268,
  " kě": 3269,
  "9 rì ": 3270,
  "   cǐ ": 3271,
  "féi": 3272,
  " bó ": 3273,
  "dìng wèi ": 3274,
  "EE": 3275,
  " shén ": 3276,
  "lǎn ": 3277,
  "xū yào": 3278,
  "   zhèng zhì ": 3279,
  "yù de ": 3280,
  "tǒng jì ": 3281,
  "xìn xī ": 3282,
  " zài zhè ": 3283,
  "yàng de ": 3284,
  " xiàn zhì ": 3285,
  "19 rì ": 3286,
  "féng ": 3287,
  "gōng de ": 3288,
  "lìng yī ": 3289,
  "zhǐ huī ": 3290,
  "qiú duì ": 3291,
  "ruǎn ": 3292,
  "móu ": 3293,
  "í ": 3294,
  "chá de ": 3295,
  "14 rì ": 3296,
  "5 rì ": 3297,
  "qióng": 3298,
  "quán qiú ": 3299,
  "cháng shì ": 3300,
  "yōng ": 3301,
  "měi guó rén kǒu pǔ ": 3302,
  "3 rì ": 3303,
  "zǔ hé ": 3304,
  "zá ": 3305,
  "lián méng": 3306,
  "dōng nán ": 3307,
  " huò dé": 3308,
  "niǔ yuē": 3309,
  " 4 ": 3310,
  "lín shí ": 3311,
  "31 rì ": 3312,
  "wèi shì ": 3313,
  "dǒng shì ": 3314,
  "jī dì ": 3315,
  "pāi shè ": 3316,
  "hǎi bá": 3317,
  "bāng zhù ": 3318,
  " de shì zhèn ": 3319,
  "6 rì ": 3320,
  "quān ": 3321,
  "jǔ bàn": 3322,
  "   zhōng ": 3323,
  " zhōng bù ": 3324,
  "2 rì ": 3325,
  "tǐng ": 3326,
  " yì dà lì ": 3327,
  " ā": 3328,
  " shè lì ": 3329,
  " duō": 3330,
  "nu": 3331,
  "shēng yá ": 3332,
  " de zhōng ": 3333,
  " rén kǒu": 3334,
  " zhè xiē": 3335,
  "4 rì ": 3336,
  "gè rén ": 3337,
  "shè yǒu ": 3338,
  "shāo ": 3339,
  " 190": 3340,
  "lián bāng ": 3341,
  "lo": 3342,
  "yuán hé ": 3343,
  " dì qū de ": 3344,
  "tōng cháng ": 3345,
  " xué shēng ": 3346,
  "tiě lù": 3347,
  "làng ": 3348,
  "   197": 3349,
  "liè chē": 3350,
  "fěi": 3351,
  " zhū ": 3352,
  " fēn bié": 3353,
  "zǎo qī ": 3354,
  " qí tā": 3355,
  " yì bān": 3356,
  "dōng běi ": 3357,
  "cháo xiān ": 3358,
  "shēn fèn ": 3359,
  "zú qiú": 3360,
  "13 rì ": 3361,
  "xiōng dì ": 3362,
  "shēng zài ": 3363,
  "jié guǒ ": 3364,
  "mù dì ": 3365,
  "huī fù ": 3366,
  "juǎn ": 3367,
  " shì chǎng ": 3368,
  "guān fāng ": 3369,
  "páng ": 3370,
  "   195": 3371,
  " xué yuàn ": 3372,
  "au": 3373,
  "qǔ dài ": 3374,
  "lěng ": 3375,
  "   K": 3376,
  "   yóu yú ": 3377,
  "lài ": 3378,
  " zhè yī ": 3379,
  " dǎo zhì ": 3380,
  "zhān ": 3381,
  "sū lián ": 3382,
  "jǔ bàn ": 3383,
  "qíng kuàng xià ": 3384,
  " mò ": 3385,
  "yí bù ": 3386,
  "xié yì ": 3387,
  "huáng jiā ": 3388,
  "jué sài": 3389,
  "kē jì ": 3390,
  "nǚ xìng ": 3391,
  " hā ": 3392,
  "fā xiàn": 3393,
  "xiǎo shuō ": 3394,
  "zhěng gè ": 3395,
  " xiāng gǎng": 3396,
  " gōng chǐ ": 3397,
  "rén hé ": 3398,
  "fǒu ": 3399,
  " gòng ": 3400,
  "gé mìng": 3401,
  "chāo jí ": 3402,
  " yè ": 3403,
  "mào yì ": 3404,
  " rú guǒ ": 3405,
  "yuè de ": 3406,
  "bì yè ": 3407,
  " jiù": 3408,
  " w": 3409,
  "zhǎng de ": 3410,
  "jué sài ": 3411,
  " wǒ": 3412,
  "wén wù bǎo hù ": 3413,
  "rào ": 3414,
  "xí jī ": 3415,
  " yòng ": 3416,
  "huà hé ": 3417,
  "zòu ": 3418,
  " dì lì ": 3419,
  "xué yuàn": 3420,
  "lì hé ": 3421,
  "tú shū ": 3422,
  "qū huà ": 3423,
  "xiān hòu ": 3424,
  "tǒng yī ": 3425,
  " xī nán ": 3426,
  "háng kōng": 3427,
  "tún": 3428,
  " qǐ ": 3429,
  "liú xíng ": 3430,
  " yǐ jīng": 3431,
  "jié shù": 3432,
  "jiē duàn ": 3433,
  " hēi ": 3434,
  "yāo qiú": 3435,
  "ǎ ": 3436,
  " br ": 3437,
  "xié zhù ": 3438,
  "cì shì jiè dà ": 3439,
  "shàng shì ": 3440,
  "zhàn hòu ": 3441,
  "wú xiàn ": 3442,
  "dān rèn": 3443,
  "guǎng bō ": 3444,
  " ěr shěng ": 3445,
  "yǔ de ": 3446,
  "fǎn yìng": 3447,
  " huá ": 3448,
  "rén kǒu shù liàng": 3449,
  " hé yī ": 3450,
  "gòng chǎn dǎng ": 3451,
  "zì xíng ": 3452,
  " bù néng ": 3453,
  " U": 3454,
  "òu ": 3455,
  "cuī ": 3456,
  " yǐ lái ": 3457,
  "tái běi": 3458,
  "shào nián ": 3459,
  " xī bān ": 3460,
  "   196": 3461,
  "qī nián ": 3462,
  "hǔ ": 3463,
  "kāi fā": 3464,
  "chí xù ": 3465,
  " tā céng": 3466,
  "dǎo yǎn ": 3467,
  " zài cì ": 3468,
  " yào ": 3469,
  "fā biǎo": 3470,
  "lián sài": 3471,
  "shuāi ": 3472,
  "guó hé ": 3473,
  "xì bāo ": 3474,
  " yǐ xià ": 3475,
  "it": 3476,
  "tè de ": 3477,
  " z": 3478,
  " chóng ": 3479,
  "jué dìng": 3480,
  "àn de ": 3481,
  "zhù zài ": 3482,
  "xià xiá": 3483,
  "tiáo jiàn ": 3484,
  " 2010 nián ": 3485,
  "pín dào ": 3486,
  " gōng zuò": 3487,
  "yǎn chàng": 3488,
  "yè de ": 3489,
  "jiāo yì ": 3490,
  " méi yǒu ": 3491,
  "   O": 3492,
  " shǔ ": 3493,
  "zāo ": 3494,
  " hā": 3495,
  "2002 nián ": 3496,
  "jié hé ": 3497,
  " qiě ": 3498,
  " shì zhōng guó ": 3499,
  "bào dào ": 3500,
  " rén kǒu mì dù wèi ": 3501,
  "M ": 3502,
  "qiú yuán ": 3503,
  "2003 nián ": 3504,
  " xìng ": 3505,
  " shì lì ": 3506,
  " zuò pǐn ": 3507,
  "   bù ": 3508,
  "yóu zhèng ": 3509,
  "jiàn lì ": 3510,
  "yìng yòng ": 3511,
  "wài de ": 3512,
  "zī yuán ": 3513,
  "sāi ěr ": 3514,
  "zuì dà ": 3515,
  " qí hòu ": 3516,
  "mò xī ": 3517,
  "kě dá ": 3518,
  " yī yuàn ": 3519,
  "gǎi gé ": 3520,
  "zhuàng tài ": 3521,
  " bìng wèi ": 3522,
  " lù": 3523,
  "huí dào ": 3524,
  "sù dù ": 3525,
  "qì hòu ": 3526,
  "suǒ shǔ de ": 3527,
  "mì shū ": 3528,
  " wèi yú fǎ guó ": 3529,
  "xùn liàn ": 3530,
  " jìng ": 3531,
  " shuāng ": 3532,
  "fā biǎo ": 3533,
  "pì": 3534,
  "diàn shì jù ": 3535,
  "zhù de ": 3536,
  "fèn wèi ": 3537,
  " gōng yè ": 3538,
  "wǎng zhàn ": 3539,
  "gōng sī ": 3540,
  " jiǎn chēng ": 3541,
  "áo ": 3542,
  "tóu zī ": 3543,
  "zì rán ": 3544,
  " de dì yī ": 3545,
  " zhōng gòng ": 3546,
  "zuǒ yòu ": 3547,
  "chǎn pǐn ": 3548,
  "hú nán ": 3549,
  "lěi ": 3550,
  " yī sī ": 3551,
  " běn": 3552,
  "zhàn yì ": 3553,
  "yà lì ": 3554,
  " wèi yī ": 3555,
  "wén wù bǎo hù dān wèi ": 3556,
  "20 shì jì ": 3557,
  "mù biāo ": 3558,
  " bào ": 3559,
  " dài biǎo": 3560,
  "xiǎo xué ": 3561,
  " suì ": 3562,
  "shèng lì ": 3563,
  "w ": 3564,
  "shàng hǎi": 3565,
  " hào xiàn ": 3566,
  " de fù ": 3567,
  "zhèn qū ": 3568,
  "fēng gé ": 3569,
  "wén míng ": 3570,
  " jiàn shè ": 3571,
  "wǎng luò ": 3572,
  "shěng fèn ": 3573,
  "yí zhì ": 3574,
  "jiào huì ": 3575,
  "zhǎn kāi ": 3576,
  "yìn dù": 3577,
  "shí qī ": 3578,
  "zhè ge ": 3579,
  " ér shì ": 3580,
  "gāo jí ": 3581,
  "zhǔn bèi ": 3582,
  "yán zhòng ": 3583,
  " fǎ guó ": 3584,
  "xuǎn shǒu ": 3585,
  "ǒ ": 3586,
  "kē de ": 3587,
  " rén wù ": 3588,
  "hǎo de ": 3589,
  "dōng jīng ": 3590,
  "zhòng yào de ": 3591,
  "jiāo tōng": 3592,
  "gòng yǒu rén kǒu ": 3593,
  " qiě": 3594,
  " IN": 3595,
  "ir": 3596,
  " yī míng ": 3597,
  " xiàn dài ": 3598,
  "bì xū ": 3599,
  " fù": 3600,
  "hòu yú ": 3601,
  "cān sài ": 3602,
  "xiǎo xíng xīng ": 3603,
  "mù qián ": 3604,
  " chéng jì ": 3605,
  " xī běi ": 3606,
  " hé dì ": 3607,
  "kāi fàng ": 3608,
  " jī chǎng ": 3609,
  "zi de ": 3610,
  "   J": 3611,
  " mín ": 3612,
  "biàn chéng ": 3613,
  "bàng ": 3614,
  "qiáo zhì ": 3615,
  "nài ": 3616,
  "lèi sì": 3617,
  "diàn shì tái ": 3618,
  "jiě shì ": 3619,
  "bǐ jiào ": 3620,
  "guó mín ": 3621,
  " yì qǐ ": 3622,
  "rǔ ": 3623,
  "ha": 3624,
  " han": 3625,
  "tè zhēng ": 3626,
  "zhì zuò ": 3627,
  "mǐn ": 3628,
  "kǎ ěr ": 3629,
  "xíng shì ": 3630,
  "dōu yǒu ": 3631,
  " suǒ yǒu ": 3632,
  "zhī hòu ": 3633,
  "huì hé ": 3634,
  "zhàn shì ": 3635,
  "měi píng fāng gōng lǐ ": 3636,
  " yī yàng ": 3637,
  "rù le ": 3638,
  "shēng chǎn ": 3639,
  "rú xià ": 3640,
  " gōng fēn ": 3641,
  " shè zhì ": 3642,
  "tào ": 3643,
  " zhè ge": 3644,
  "diāo ": 3645,
  " sī jī ": 3646,
  " xià lìng": 3647,
  " mài": 3648,
  "zhēn duì ": 3649,
  "lǐng dǎo": 3650,
  "jiù shì zhèn ": 3651,
  " zhāng": 3652,
  " shí jiān": 3653,
  " V": 3654,
  "ig": 3655,
  " cǐ hòu ": 3656,
  "yuán shì ": 3657,
  "gāo zhōng ": 3658,
  " zài zhōng ": 3659,
  "wáng guó ": 3660,
  "quàn ": 3661,
  "kuí ": 3662,
  " nián jiān ": 3663,
  "èr shì ": 3664,
  "guī huà ": 3665,
  "diàn zi ": 3666,
  "zǎo nián ": 3667,
  " cì": 3668,
  " shèn zhì ": 3669,
  "wài jiāo": 3670,
  "lèi sì ": 3671,
  "shān dōng ": 3672,
  "om": 3673,
  " rán hòu ": 3674,
  " suī rán ": 3675,
  "tān ": 3676,
  " lì shǔ yú ": 3677,
  " yì zhí": 3678,
  " cái ": 3679,
  "X ": 3680,
  "duì zài ": 3681,
  "zhù míng ": 3682,
  "yún nán ": 3683,
  "hěn duō ": 3684,
  " ěr de ": 3685,
  "huò dé": 3686,
  "jiě jué ": 3687,
  " lóng ": 3688,
  " zhì zào ": 3689,
  "lái zì": 3690,
  "   2020 nián ": 3691,
  "xīn jiā ": 3692,
  "shǒu cì": 3693,
  "   gōng ": 3694,
  "cáo ": 3695,
  " de míng ": 3696,
  " de zhǔ ": 3697,
  "gōu ": 3698,
  "as": 3699,
  " yì zhì ": 3700,
  "   dà ": 3701,
  "zhòng de ": 3702,
  " de yī zhǒng ": 3703,
  " wǔ": 3704,
  "shān xī ": 3705,
  "rén kǒu shù liàng wèi rén ": 3706,
  " yí gè ": 3707,
  "jù jí ": 3708,
  "bào fā ": 3709,
  "jí hé ": 3710,
  "yè wù ": 3711,
  " yà ": 3712,
  " INS": 3713,
  "x ": 3714,
  " jiàn zhì ": 3715,
  "lǚ yóu ": 3716,
  "mǎ lái": 3717,
  " chú le ": 3718,
  " xíng wéi ": 3719,
  " zhào ": 3720,
  "tè bié ": 3721,
  "ic": 3722,
  "lián jiē ": 3723,
  "   p": 3724,
  "nǚ ér ": 3725,
  "jí shì ": 3726,
  "zhài ": 3727,
  "fāng àn ": 3728,
  "zǒng lǐ ": 3729,
  " yú 18": 3730,
  " shàng hǎi ": 3731,
  "lù jūn ": 3732,
  "fā shè ": 3733,
  "sī hé ": 3734,
  " xī yà": 3735,
  "ruì shì ": 3736,
  "F ": 3737,
  "   of": 3738,
  " dà liàng ": 3739,
  "nóng yè ": 3740,
  "zhái ": 3741,
  "fā dòng ": 3742,
  " dān rèn ": 3743,
  "2023 nián ": 3744,
  "wù zhì ": 3745,
  "jué de ": 3746,
  " gù": 3747,
  " jìn shì ": 3748,
  " de lì ": 3749,
  " de shí hòu ": 3750,
  "huà xué ": 3751,
  " jiǎ ": 3752,
  "O ": 3753,
  "ào lín pǐ kè yùn dòng huì ": 3754,
  " zhì jīn ": 3755,
  "nàn ": 3756,
  "sī rén ": 3757,
  " INSEE": 3758,
  "   b": 3759,
  "gé de ": 3760,
  "sì shí ": 3761,
  " měi yuán ": 3762,
  " 11": 3763,
  "juān ": 3764,
  "fēi xíng ": 3765,
  " zhī wài ": 3766,
  "kě néng shì ": 3767,
  "biǎo yǎn ": 3768,
  " què ": 3769,
  " tè bié": 3770,
  " biàn ": 3771,
  "qiǎn ": 3772,
  "jiē rǎng de shì zhèn ": 3773,
  "xuǎn wèi ": 3774,
  " duì yú ": 3775,
  " shè shī ": 3776,
  "yí shì ": 3777,
  "jìn de ": 3778,
  "là ": 3779,
  "tǔ ěr": 3780,
  " lì sī ": 3781,
  "bó tè ": 3782,
  "jià zhí ": 3783,
  "tiào ": 3784,
  "chuàng lì ": 3785,
  " gōng néng ": 3786,
  " zǒng miàn jī ": 3787,
  "chù de ": 3788,
  "réng rán ": 3789,
  "luó mǎ": 3790,
  "bāo hán": 3791,
  "un": 3792,
  "   c": 3793,
  " dé lǐ ": 3794,
  "zhì shì ": 3795,
  "ver": 3796,
  "guǎng chǎng ": 3797,
  "lián hé guó ": 3798,
  " yǒu rén ": 3799,
  "N ": 3800,
  "jí shí ": 3801,
  "gēng míng wèi ": 3802,
  " de yī bù fèn ": 3803,
  "20 nián ": 3804,
  "xiào lì ": 3805,
  " zài cǐ ": 3806,
  "jiǔ nián ": 3807,
  "chuāng ": 3808,
  " gāi shěng ": 3809,
  "qì de ": 3810,
  " rén kǒu mì dù měi píng fāng gōng lǐ ": 3811,
  " jù lè bù ": 3812,
  " rén kǒu mì dù wèi měi": 3813,
  " xià lìng shí ": 3814,
  "op": 3815,
  "yóu zhèng biān mǎ wèi ": 3816,
  "shí shì ": 3817,
  "zǔ fù ": 3818,
  "chá de shù jù ": 3819,
  "lián bāng": 3820,
  "fēn lèi ": 3821,
  " shì zhèn biān mǎ wèi ": 3822,
  " INSEE shì zhèn biān mǎ wèi ": 3823,
  "ation": 3824,
  " g": 3825,
  " qì ": 3826,
  "mò sī ": 3827,
  " guó wáng ": 3828,
  "『": 3829,
  "qiǎng ": 3830,
  "biāo zhǔn": 3831,
  "shǐ yòng de ": 3832,
  "   bèi ": 3833,
  "2 rén ": 3834,
  " jūn zài ": 3835,
  "xuǎn qū wèi ": 3836,
  "』": 3837,
  "pái míng ": 3838,
  "dòng lì ": 3839,
  "cóng shì ": 3840,
  " bù guò": 3841,
  "hé shì ": 3842,
  " shè de ": 3843,
  "yùn yíng ": 3844,
  "shí de rén kǒu shù liàng wèi rén ": 3845,
  "zǒng tǒng": 3846,
  "yī zhǒng ": 3847,
  "měi guó rén kǒu pǔ chá de shù jù ": 3848,
  "   193": 3849,
  " jǐn guǎn ": 3850,
  " jiè ": 3851,
  "jiā lì ": 3852,
  " ér rén kǒu mì dù wèi měi": 3853,
  " chū bǎn ": 3854,
  "chē liàng ": 3855,
  " dāng dì gòng yǒu rén kǒu ": 3856,
  " ér qiě ": 3857,
  "duō gè ": 3858,
  "zú de ": 3859,
  "lǐng yù ": 3860,
  " huò jiù shì zhèn ": 3861,
  " zhòng ": 3862,
  "   lì ": 3863,
  "tiáo yuē ": 3864,
  "gé lán": 3865,
  " zài 199": 3866,
  "shěng jí xuǎn qū wèi ": 3867,
  "jī jí ": 3868,
  "gài niàn ": 3869,
  "ér zi ": 3870,
  "xī de ": 3871,
  "dà bù fèn": 3872,
  " shū ": 3873,
  "màn huà ": 3874,
  "kēng ": 3875,
  "   V": 3876,
  " bù jiǔ ": 3877,
  "xuǎn rén ": 3878,
  "xīng de ": 3879,
  " ěr dé ": 3880,
  "bā nián ": 3881,
  "shěng hé ": 3882,
  "jǐng chá ": 3883,
  " mài ": 3884,
  "fèn wèi fǎ guó ": 3885,
  " gāi shěng fèn wèi fǎ guó ": 3886,
  "mǐ ěr ": 3887,
  " zhī xiàn ": 3888,
  "qǐ lái ": 3889,
  " jiǔ ": 3890,
  "tiě dào ": 3891,
  " dōng": 3892,
  "ào dà lì ": 3893,
  " lán ": 3894,
  " gèng ": 3895,
  " jūn duì ": 3896,
  "jǐn biāo sài ": 3897,
  "fú jiàn ": 3898,
  "guǎng zhōu ": 3899,
  "fén": 3900,
  " yǒng ": 3901,
  " chū bǎn": 3902,
  " wèi shí ": 3903,
  "qún dǎo ": 3904,
  "tiān wén ": 3905,
  "měi yuán ": 3906,
  "zuì hòu yī ": 3907,
  "pái míng": 3908,
  "tōng cháng": 3909,
  "xuē ": 3910,
  " dì sì ": 3911,
  " guāng ": 3912,
  "lái yuán ": 3913,
  "běn de ": 3914,
  " hé bìng": 3915,
  " tā bèi ": 3916,
  "guǎng fàn ": 3917,
  "xīng jiàn ": 3918,
  " dì sān": 3919,
  "tè bié": 3920,
  " chū shēng yú ": 3921,
  "shè lì ": 3922,
  "mián": 3923,
  "shǎng ": 3924,
  "dì yī ": 3925,
  " rì de ": 3926,
  "wěi huì ": 3927,
  " rén gōng ": 3928,
  " yóu xì": 3929,
  "méng gǔ ": 3930,
  "ce ": 3931,
  "shǎn xī ": 3932,
  " zhì yú ": 3933,
  "ào sī ": 3934,
  "wú rén ": 3935,
  "réng rán": 3936,
  "mǔ sī ": 3937,
  "dā ": 3938,
  "měi zhōu ": 3939,
  "yùn xíng ": 3940,
  "24 ": 3941,
  "jiē shòu": 3942,
  " míng cháo ": 3943,
  "cǎi yòng": 3944,
  " zhēn ": 3945,
  " bù míng ": 3946,
  "jiā rù ": 3947,
  "yán jiū suǒ ": 3948,
  "má ": 3949,
  " xiàn lù ": 3950,
  "gǎn rǎn ": 3951,
  "hōng ": 3952,
  " shì bù ": 3953,
  "yǐ jí ": 3954,
  " hé píng ": 3955,
  "xī zài ": 3956,
  "nán jí ": 3957,
  "huà shí ": 3958,
  "cāo ": 3959,
  "shuō fǎ ": 3960,
  "qiàn ": 3961,
  "guò chéng zhōng ": 3962,
  "céng zài ": 3963,
  "zuò pǐn": 3964,
  " jìn de ": 3965,
  " bù mén ": 3966,
  " jī běn ": 3967,
  "zhàn zhēng": 3968,
  "wǔ shí ": 3969,
  "xué xiào": 3970,
  " rèn wéi": 3971,
  "ap": 3972,
  "nè ": 3973,
  " tóu ": 3974,
  " hán ": 3975,
  "50 ": 3976,
  " jù lí ": 3977,
  "mó xíng ": 3978,
  " qū ": 3979,
  " yì wèi ": 3980,
  " de dì fāng ": 3981,
  " biǎo shì ": 3982,
  " zhèng shì ": 3983,
  " kè de ": 3984,
  "hi": 3985,
  "jì shù ": 3986,
  "yùn shū ": 3987,
  " jiàn yì ": 3988,
  " tā yǔ ": 3989,
  " jiǎng ": 3990,
  "gòu mǎi": 3991,
  "xué shì ": 3992,
  "xué xí ": 3993,
  "0 nián dài": 3994,
  "rèn wéi shì ": 3995,
  "huǎn ": 3996,
  "xuān chuán ": 3997,
  " zài yì ": 3998,
  " yú 198": 3999,
  " gè dì ": 4000,
  "lún dūn": 4001,
  "3 rén ": 4002,
  "liè wèi ": 4003,
  "chà ": 4004,
  "fó ": 4005,
  " de xīn ": 4006,
  "bàn gōng shì ": 4007,
  "miǎo ": 4008,
  "tóng yī ": 4009,
  "wài guó ": 4010,
  " 10 yuè ": 4011,
  " zǒng rén kǒu ": 4012,
  "shàng yǒu ": 4013,
  "ad": 4014,
  " liú": 4015,
  "yuán wèi ": 4016,
  "liǎo ": 4017,
  " xiāo ": 4018,
  "gōng zuò ": 4019,
  "ní sī ": 4020,
  " zài zhōng guó ": 4021,
  " zì jǐ ": 4022,
  "chán ": 4023,
  "yǎng huà ": 4024,
  "30 nián ": 4025,
  "tài yáng ": 4026,
  "L ": 4027,
  "fāng miàn": 4028,
  "ac": 4029,
  "hǎi jūn": 4030,
  "chēng wèi ": 4031,
  "xiāo xī ": 4032,
  " xiàn rén ": 4033,
  "4 rén ": 4034,
  "biāo zhì ": 4035,
  "zhì wèi ": 4036,
  "15 ": 4037,
  " de guān ": 4038,
  "yóu xì": 4039,
  "fù zé guǎn xiá ": 4040,
  "fēn zhī ": 4041,
  " xiān ": 4042,
  " wéi zhǔ ": 4043,
  "ub": 4044,
  "gòu chéng ": 4045,
  "shī de ": 4046,
  " qīng": 4048,
  "zhé xué ": 4049,
  " jí qí ": 4050,
  "zhǔ jué ": 4051,
  "zhā ": 4052,
  "   yǐ ": 4053,
  "sì chuān ": 4054,
  " jì huà": 4055,
  "zài shì ": 4056,
  "zhèng de ": 4057,
  "jiè quán guó ": 4058,
  " gèng": 4059,
  "kùn": 4060,
  "dǎng de ": 4061,
  "huán jìng": 4062,
  "bǐ dé ": 4063,
  " dào lù ": 4064,
  "mǎ lì ": 4065,
  "2024 nián ": 4066,
  " yī xiē": 4067,
  "ròu ": 4068,
  " jì niàn ": 4069,
  " ràng": 4070,
  "bù wèi ": 4071,
  " yǔ": 4072,
  " shì měi guó ": 4073,
  "péng yǒu ": 4074,
  "sī zài ": 4075,
  " xī": 4076,
  "ài ěr ": 4077,
  "chí xù": 4078,
  " gōng gòng ": 4079,
  "ào yùn ": 4080,
  "kàng yì ": 4081,
  " wū ": 4082,
  "yuē wèi ": 4083,
  "tài guó ": 4084,
  "shēng wù ": 4085,
  "   yǒu ": 4086,
  "U ": 4087,
  "chī ": 4088,
  " bèi ěr ": 4089,
  "jiē wèi ": 4090,
  "liè de ": 4091,
  "xuǎn qū ": 4092,
  "huì yǒu ": 4093,
  "shōu rù ": 4094,
  "yì hé ": 4095,
  "xiào zhǎng ": 4096,
  "wén jiàn ": 4097,
  "shí zài ": 4098,
  "zhèng cè ": 4099,
  " sòng ": 4100,
  "tiǎo": 4101,
  "xuǎn zé": 4102,
  "qián wǎng": 4103,
  " cì ": 4104,
  "róng yì ": 4105,
  "suǒ shǔ de shěng jí xuǎn qū wèi ": 4106,
  " yòu chēng ": 4107,
  " jié zhì ": 4108,
  "zhōng zài ": 4109,
  "biāo wèi ": 4110,
  "cān yù": 4111,
  "fó jiào ": 4112,
  " zhī chí": 4113,
  "kūn ": 4114,
  " kāi shǐ ": 4115,
  "   chē zhàn ": 4116,
  "tiē ": 4117,
  "yǎn de ": 4118,
  "biān jí ": 4119,
  "   shí ": 4120,
  "yín háng": 4121,
  "yǔ yán ": 4122,
  " běi": 4123,
  "sī dì ": 4124,
  "bo": 4125,
  " shēng wù ": 4126,
  " chén": 4127,
  "tóu rù ": 4128,
  "kǎn ": 4129,
  "qī jiān": 4130,
  " huò shì ": 4131,
  "jūn duì ": 4132,
  " ér qiě": 4133,
  " rèn": 4134,
  "guā ": 4135,
  "nán xìng ": 4136,
  "jiě fàng jūn ": 4137,
  "xiāng duì ": 4138,
  "tiǎo zhàn ": 4139,
  " yuán zhù ": 4140,
  " chū le ": 4141,
  "sp": 4142,
  " zhì dù ": 4143,
  "gǎi biàn ": 4144,
  " qiān ": 4145,
  "   hé ": 4146,
  "shòu yǔ ": 4147,
  " zhōng yǒu ": 4148,
  " zhàn zhēng": 4149,
  " tú ": 4150,
  " nián dù ": 4151,
  " yī zhǒng ": 4152,
  "gāo yú ": 4153,
  "gǎn dào ": 4154,
  "jiē rǎng ": 4155,
  " 2020 nián ": 4156,
  " yǐ shàng ": 4157,
  " fēi": 4158,
  "yùn huì ": 4159,
  "gǎo ": 4160,
  "róu": 4161,
  " dì xià ": 4162,
  "   tā": 4163,
  " shì yí gè": 4164,
  "wěn dìng ": 4165,
  "pèi hé ": 4166,
  " yú 19": 4167,
  " gǔ": 4168,
  " shì tú ": 4169,
  "jiā rén ": 4170,
  "yāng ": 4171,
  "àn jiàn ": 4172,
  " dí ": 4173,
  "ind": 4174,
  " zài bù ": 4175,
  "gē qǔ": 4176,
  "tí míng ": 4177,
  "jì zhōng ": 4178,
  "dá chéng ": 4179,
  " èr": 4180,
  "tóng de ": 4181,
  "tiān zhǔ jiào ": 4182,
  "1 rén ": 4183,
  "   2021": 4184,
  "wǔ qì ": 4185,
  " chēng ": 4186,
  "shù liàng ": 4187,
  "lái shuō ": 4188,
  "jiǎn jiè ": 4189,
  "biǎo míng ": 4190,
  " zhōng guó rén mín ": 4191,
  "tíng zhǐ ": 4192,
  "tā men ": 4193,
  "xī bān yá ": 4194,
  "duó de ": 4195,
  "yǐng piàn ": 4196,
  "sú ": 4197,
  "zhuó ": 4198,
  "°": 4199,
  " ér rén kǒu mì dù wèi měi píng fāng qiān mǐ ": 4200,
  "tuò": 4201,
  "bàn dǎo ": 4202,
  "xiǎo de ": 4203,
  "zhèng shí ": 4204,
  "cè de ": 4205,
  "zào de ": 4206,
  " wèi fú": 4207,
  "zhǔ tí ": 4208,
  "shēn fèn": 4209,
  "què zhěn": 4210,
  "jué sè": 4211,
  " jī bài ": 4212,
  "in ": 4213,
  "zhè zhǒng ": 4214,
  "ur": 4215,
  "guō ": 4217,
  "jié mù": 4218,
  " tái wān": 4219,
  "dì shì ": 4220,
  "ag": 4221,
  "jiào táng ": 4222,
  " píng fāng mǐ ": 4223,
  "   yuán ": 4224,
  " jiā ná dà ": 4225,
  "zì zhì qū ": 4226,
  " 8 yuè ": 4227,
  "lā kè ": 4228,
  "lèi de ": 4229,
  " zài měi guó ": 4230,
  "   zì ": 4231,
  "hùn hé ": 4232,
  "46": 4233,
  "kào ": 4234,
  "fēn bié ": 4235,
  "jǔ rén ": 4236,
  "chōng tū ": 4237,
  " luò ": 4238,
  " shǐ yòng ": 4239,
  "tuán duì ": 4240,
  "39": 4241,
  "quán de ": 4242,
  "kě néng huì ": 4243,
  "yā lì ": 4244,
  "guó zài ": 4245,
  "jì wèi ": 4246,
  " ér bèi ": 4247,
  "jì huà ": 4248,
  " jì chéng ": 4249,
  "gòng xiàn ": 4250,
  " hái yǒu ": 4251,
  "nī ": 4252,
  "xīn lǐ ": 4253,
  " shí shī ": 4254,
  " dì tiě ": 4255,
  "jiǎn chá ": 4256,
  "shēng chǎn": 4257,
  " The": 4258,
  " shí yàn": 4259,
  "duō cì ": 4260,
  "lián xù ": 4261,
  "lì bù ": 4262,
  "47": 4263,
  " tōng guò ": 4264,
  "céng jīng ": 4265,
  "chǎn yè ": 4266,
  " ní ": 4267,
  "xíng dòng ": 4268,
  " xīng ": 4269,
  "fān yì ": 4270,
  " hé liú ": 4271,
  "zuì zǎo": 4272,
  "25 ": 4273,
  "dà bù fèn ": 4274,
  " chū rèn ": 4275,
  " zì yóu ": 4276,
  "cāo zuò ": 4277,
  "jiā ná dà ": 4278,
  "zhǐ huī": 4279,
  "bàn shì ": 4280,
  " xī wàng ": 4281,
  "amp ": 4282,
  " zài dà ": 4283,
  "shǎo shù ": 4284,
  "ān dé ": 4285,
  "fǎn huí ": 4286,
  "chóng jiàn ": 4287,
  "tòu ": 4288,
  "xiǎo zǔ ": 4289,
  "shǒu de ": 4290,
  "jiǎn shǎo ": 4291,
  " shì yǐ ": 4292,
  " jiàn zhù": 4293,
  "fèn zǐ ": 4294,
  " wèi néng ": 4295,
  "You": 4296,
  "xíng wéi ": 4297,
  " zì": 4298,
  "dòng de ": 4299,
  "kōng jūn ": 4300,
  " shí fēn ": 4301,
  "méi tǐ": 4302,
  "bàn gōng ": 4303,
  " zhì zuò": 4304,
  "ǐ ": 4305,
  "kùn ": 4306,
  "jì niàn ": 4307,
  "měi nián ": 4308,
  "gòng tóng": 4309,
  " yì yǒu ": 4310,
  "shēn de ": 4311,
  " hé běi ": 4312,
  " xiàn wèi ": 4313,
  " 2009 nián ": 4314,
  "5 rén ": 4315,
  "oun": 4316,
  "ōu yuán ": 4317,
  "gōng yuán ": 4318,
  "kā ": 4319,
  "lún dūn ": 4320,
  "AT": 4321,
  " yǐ sè ": 4322,
  "xiàn dài ": 4323,
  " shì yī míng ": 4324,
  " yòu míng ": 4325,
  "jīng yíng ": 4326,
  "wēi ěr ": 4327,
  " shǐ de ": 4328,
  "yìng de ": 4329,
  "jié gòu": 4330,
  "bǎo hù": 4331,
  "wěi yuán huì": 4332,
  "jí zài ": 4333,
  "cháo xiān": 4334,
  " zhǐ yǒu ": 4335,
  "chuí": 4336,
  "diān ": 4337,
  "xiāng tóng ": 4338,
  "mìng míng wèi ": 4339,
  " de shǒu ": 4340,
  " gōng sī de ": 4341,
  " duì": 4342,
  "yòng lái ": 4343,
  "dòng jī ": 4344,
  "dǎ jī ": 4345,
  " de dì qū ": 4346,
  " àn ": 4347,
  "zhǎn shì ": 4348,
  "xún huí ": 4349,
  " yī cì ": 4350,
  "qǐ yòng ": 4351,
  " shè qū ": 4352,
  "tóu piào ": 4353,
  "   2019": 4354,
  "ing": 4355,
  " fàn ": 4356,
  "shǒu wèi ": 4357,
  "xià wǔ ": 4358,
  " liǎng rén ": 4359,
  " zhí zhì ": 4360,
  "ak": 4361,
  "yì zài ": 4362,
  " jì xù": 4363,
  " sī lìng": 4364,
  "zhí de ": 4365,
  "rèn wù ": 4366,
  "lù dì miàn jī wèi ": 4367,
  "K ": 4368,
  "píng jià ": 4369,
  "kuì": 4370,
  "bù shì ": 4371,
  "shuǐ yù miàn jī wèi ": 4372,
  "hǎn ": 4373,
  " lín": 4374,
  "mù sī ": 4375,
  "jiē jìn ": 4376,
  "lèi xíng ": 4377,
  "16 ": 4378,
  "pān ": 4379,
  " guó lì ": 4380,
  "wài jiāo ": 4381,
  " tǐ zhǎng ": 4382,
  " shí zì ": 4383,
  "fú hé ": 4384,
  " děng": 4385,
  "diàn lì ": 4386,
  " fù jìn ": 4387,
  " huā ": 4388,
  " ruò ": 4389,
  "jǔ xíng de ": 4390,
  "xué zhě ": 4391,
  "tǐ xì ": 4392,
  "liǎng gè": 4393,
  "zhè ge": 4394,
  " yù": 4395,
  " zǔ ": 4396,
  "bǐ sài zhōng ": 4397,
  "fú wù": 4398,
  " dà shǐ ": 4399,
  "～": 4400,
  "zuò jiā ": 4401,
  "guī mó": 4402,
  " shè bèi ": 4403,
  " dōu ": 4404,
  "qǔ xiāo ": 4405,
  "zhù yì ": 4406,
  " shāng ": 4407,
  " amp ": 4408,
  " sī lìng ": 4409,
  "zhù zuò ": 4410,
  "dé dào ": 4411,
  "xiàng shì ": 4412,
  "hǎi yù ": 4413,
  "yīng gé lán ": 4414,
  "jié zhì ": 4415,
  " dà chén ": 4416,
  " cóng ér ": 4417,
  " dāng zhōng lù dì miàn jī wèi ": 4418,
  "ab": 4419,
  "zhì hé ": 4420,
  " ér shuǐ yù miàn jī wèi ": 4421,
  " āi": 4422,
  " lì jí ": 4423,
  " lì fǎ ": 4424,
  " fèi ": 4425,
  "   2018": 4426,
  "   xī ": 4427,
  " lì rú": 4428,
  "shuǐ píng ": 4429,
  " zhī shí ": 4430,
  "fǎ lǜ": 4431,
  "gāo sù": 4432,
  "yīng chǐ ": 4433,
  "cháng qī ": 4434,
  "kuài sù ": 4435,
  " 9 yuè ": 4436,
  " chéng lì yú ": 4437,
  "   gài ": 4438,
  "lǚ kè ": 4439,
  " wéi ěr ": 4440,
  "wēi lián ": 4441,
  "nì ": 4442,
  " zhuān ": 4443,
  "lìng wài ": 4444,
  "dài yǒu ": 4445,
  "shēng huó": 4446,
  "xī yáng ": 4447,
  "   xíng zhèng qū huà ": 4448,
  " jiā shàng ": 4449,
  "cān jiā": 4450,
  "ec": 4451,
  "   2022": 4452,
  "yuàn zhǎng ": 4453,
  "jǐ yǔ ": 4454,
  "diǎn de ": 4455,
  " yǐ hòu ": 4456,
  "guān zhòng ": 4457,
  "bǐ yà ": 4458,
  " jūn wèi ": 4459,
  "mín de ": 4460,
  "shuò shì ": 4461,
  " dé de ": 4462,
  "   U": 4463,
  "ēng lì ": 4464,
  "wěi shū jì ": 4465,
  "zhì zài ": 4466,
  " yì rén ": 4467,
  "fēng bào ": 4468,
  " yuán yīn ": 4469,
  "pī zhǔn ": 4470,
  "dāo ": 4471,
  " bèi": 4472,
  " hái": 4473,
  "g ": 4474,
  "dǎo yǔ ": 4475,
  "dōng xī ": 4476,
  " xīn wén ": 4477,
  " zhè jiāng ": 4478,
  " wèi fú qí yú ": 4479,
  "bǎo chí ": 4480,
  "lián xì ": 4481,
  " tí ": 4482,
  "xìn hào ": 4483,
  "22 ": 4484,
  "jié shù hòu ": 4485,
  "rú hé ": 4486,
  "cì shì jiè dà zhàn ": 4487,
  " 7 yuè ": 4488,
  "chuàn ": 4489,
  "rèn mìng": 4490,
  "shòu shāng ": 4491,
  " shì yī wèi ": 4492,
  "tǎo lùn ": 4493,
  "zhǎo ": 4494,
  "fā chū ": 4495,
  "xìng zhì ": 4496,
  "nèi róng": 4497,
  "yǎn chàng huì ": 4498,
  " jī dū ": 4499,
  "49": 4500,
  " píng": 4501,
  "tuì yì ": 4502,
  " shì qū ": 4503,
  "jī zhì ": 4504,
  "jiā hé ": 4505,
  "yà de ": 4506,
  " pí ": 4507,
  "   yì ": 4508,
  " formula ": 4509,
  "suí hòu ": 4510,
  " jiàn chéng ": 4511,
  "diàn tái ": 4512,
  " míng chēng ": 4513,
  "wèi zhì ": 4514,
  "jiào qū ": 4515,
  "zhù míng de ": 4516,
  "měng ": 4517,
  " 21 ": 4518,
  " tǐ zhǎng kě dá ": 4519,
  " ràng ": 4520,
  "zhuān jiā ": 4521,
  " bō": 4522,
  "fū rén ": 4523,
  "chā yì ": 4524,
  " jié guǒ ": 4525,
  " rù ": 4526,
  "zǒng dū ": 4527,
  "bì yè yú ": 4528,
  " de yī zuò ": 4529,
  " zài yú ": 4530,
  "dǐ dá ": 4531,
  " de qián ": 4532,
  "G ": 4533,
  "wǎng lù ": 4534,
  "cūn zhuāng ": 4535,
  " 12 yuè ": 4536,
  "néng gòu": 4537,
  " mín guó ": 4538,
  " kè lǐ ": 4539,
  " dǎ ": 4540,
  " bù lǐ ": 4541,
  " yǐ xià": 4542,
  "zhàn zhōng ": 4543,
  " rén lèi ": 4544,
  "fā diàn ": 4545,
  " 11 yuè ": 4546,
  "lái dào ": 4547,
  "ov": 4548,
  "   3": 4549,
  "   2017": 4550,
  "bì xū": 4551,
  "hái zi ": 4552,
  "is": 4553,
  "cuò shī ": 4554,
  "pǔ tōng ": 4555,
  "qī zǐ ": 4556,
  "yǔ zhōng ": 4557,
  "en ": 4558,
  " zhī zhōng ": 4559,
  "zǔ chéng de ": 4560,
  " yì shù": 4561,
  " jiàn duì ": 4562,
  " xué xiào": 4563,
  "fǎ de ": 4564,
  " shí rèn ": 4565,
  " yī shēng ": 4566,
  " zhèng cè ": 4567,
  "gū jì ": 4568,
  " jīng guò ": 4569,
  "tài píng yáng ": 4570,
  "tóng yì ": 4571,
  " ěr hé ": 4572,
  "yán gé ": 4573,
  "guǎng bō": 4574,
  "chū bǎn ": 4575,
  " wáng": 4576,
  "dǎo shì ": 4577,
  "al ": 4578,
  "sì gè ": 4579,
  " méng ": 4580,
  " ěr tè ": 4581,
  "6 rén ": 4582,
  "shēng wèi ": 4583,
  "chéng gōng ": 4584,
  "gòng chǎn dǎng": 4585,
  "   w": 4586,
  "13 ": 4587,
  "qì chē ": 4588,
  " shì yǒu ": 4589,
  "míng chēng ": 4590,
  " shēng chǎn ": 4591,
  "chái": 4592,
  " tōng cháng ": 4593,
  "chè xiāo ": 4594,
  "8 rén ": 4595,
  "le dà ": 4596,
  "zhù yú ": 4597,
  " dé yǐ ": 4598,
  " de shí qū wèi ": 4599,
  "fěi ": 4600,
  " kē": 4601,
  "yě zài ": 4602,
  "gèng jiā ": 4603,
  " shí xiàn ": 4604,
  "guài ": 4605,
  " shàng hǎi": 4606,
  "nǎi ": 4607,
  "shǎng": 4608,
  "   in": 4609,
  "xiāo shòu ": 4610,
  "23 ": 4611,
  "   zhì ": 4612,
  "indow": 4613,
  " fǎn ": 4614,
  "jú zhǎng ": 4615,
  " de shí jiān ": 4616,
  "lù yì ": 4617,
  "   2016": 4618,
  " wèi shēng ": 4619,
  "què dìng ": 4620,
  "yuè tái ": 4621,
  "guǎng xī ": 4622,
  "hā ěr ": 4623,
  " rú guǒ": 4624,
  " qiáng ": 4625,
  "kuò dà ": 4626,
  "dēng lù ": 4627,
  " hans ": 4628,
  "yì zhōng ": 4629,
  "róng yù ": 4630,
  " píng tái ": 4631,
  " tw ": 4632,
  " shì yǎn ": 4633,
  "mǔ qīn ": 4634,
  "zhòng dà ": 4635,
  "dòng zuò ": 4636,
  "zhǐ zài ": 4637,
  " yìn dù ": 4638,
  "cùn ": 4639,
  "55": 4640,
  "yuè shí ": 4641,
  " líng ": 4642,
  "yè hòu ": 4643,
  "zhè jiāng ": 4644,
  " bìng méi yǒu ": 4645,
  " jǐn guǎn": 4646,
  "pò huài ": 4647,
  "   de": 4648,
  " jī gòu": 4649,
  "yǔ hé ": 4650,
  "   de shí ": 4651,
  "jìn xíng": 4652,
  "rù kǒu ": 4653,
  " huò zhě ": 4654,
  " biān ": 4655,
  "wù zhǒng": 4656,
  "xùn liàn": 4657,
  "sā ": 4658,
  "bā xī ": 4659,
  " bù kě ": 4660,
  " wàn rén ": 4661,
  "rù qīn ": 4662,
  "cān kǎo ": 4663,
  "tāng ": 4664,
  "wǎn shàng ": 4665,
  " yě yǒu ": 4666,
  "chū bǎn": 4667,
  "yà lì shān": 4668,
  "lín de ": 4669,
  "bā lí ": 4670,
  " cǐ shí ": 4671,
  " cháng": 4672,
  "fù de ": 4673,
  " guó wù ": 4674,
  " 189": 4675,
  " gōng yè": 4676,
  " xué xí ": 4677,
  " mù qián": 4678,
  " ā ěr ": 4679,
  "yuàn de ": 4680,
  "00 nián ": 4681,
  "xū qiú ": 4682,
  " zhī yuán ": 4683,
  "／": 4684,
  " chē ": 4685,
  "rǎo ": 4686,
  "cuì ": 4687,
  "guān zhù ": 4688,
  "   nián ": 4689,
  "xué hé ": 4690,
  "zhí wèi ": 4691,
  "zuì chū ": 4692,
  "sǔn shī ": 4693,
  " sà ": 4694,
  "biǎo xiàn": 4695,
  "zhè xiē": 4696,
  "fā xiàn le ": 4697,
  "héng xīng ": 4698,
  " què": 4699,
  "kàn dào ": 4700,
  "fù qīn ": 4701,
  "gǎi biān": 4702,
  " jiā tíng ": 4703,
  " yǎn ": 4704,
  "biǎn ": 4705,
  "fā shēng": 4706,
  "c ": 4707,
  " bìng yǐ ": 4708,
  "yí dòng ": 4709,
  "zhàn dì ": 4710,
  "xiōng yá": 4711,
  "   2014": 4713,
  "huá mín guó ": 4714,
  " gǎi": 4715,
  "   suǒ shǔ de shěng jí xuǎn qū wèi ": 4716,
  "   de yóu zhèng biān mǎ wèi ": 4717,
  "   yǔ jiē rǎng de shì zhèn ": 4718,
  "   yú shí de rén kǒu shù liàng wèi rén ": 4719,
  "   de shí qū wèi ": 4720,
  "ction": 4721,
  "zhuāng zhì ": 4722,
  " céng rèn ": 4723,
  "7 rén ": 4724,
  " 6 yuè ": 4725,
  "   2023": 4726,
  "sū lián": 4727,
  "jì hé ": 4728,
  "or ": 4729,
  " zuò yòng ": 4730,
  "   2010 nián ": 4731,
  "míng yì ": 4732,
  "tú zhōng ": 4733,
  "tái běi ": 4734,
  "fā de ": 4735,
  " dì qiú ": 4736,
  " zhī míng ": 4737,
  "zǒng bù ": 4738,
  " sī lā ": 4739,
  "xiāng dāng ": 4740,
  "shí wèi ": 4741,
  "rú cǐ ": 4742,
  "zī xùn ": 4743,
  "wéi de ": 4744,
  " cí ": 4745,
  " chuán ": 4746,
  "   jī ": 4747,
  "duō nián ": 4748,
  "guǎn lǐ": 4749,
  "14 ": 4750,
  " shì zhǎng ": 4751,
  "kāi fàng": 4752,
  "jiǎng xiàng ": 4753,
  "jìn shì ": 4754,
  " yī dài ": 4755,
  " chū xiàn zài ": 4756,
  " sī tǎn ": 4757,
  "zhǔ chí ": 4758,
  "chàng piàn ": 4759,
  "xiōng yá lì ": 4760,
  "zì dòng ": 4761,
  "wā ": 4762,
  " rén shù ": 4763,
  " dàn tā ": 4764,
  "tái de ": 4765,
  "xùn sù ": 4766,
  "sài de ": 4767,
  "ber": 4768,
  "tí shēng ": 4769,
  "fēi jiàn zhì ": 4770,
  "shù xué ": 4771,
  "jiào wéi ": 4772,
  " yú 197": 4773,
  " hk ": 4774,
  "xì jù ": 4775,
  " gè zhǒng ": 4776,
  " 5 yuè ": 4777,
  "100 ": 4778,
  " wèi hé ": 4779,
  " bìng lì ": 4780,
  "xiàng mù": 4781,
  "tuī dòng ": 4782,
  " chéng wéi le ": 4783,
  "niǔ yuē ": 4784,
  "75": 4785,
  " yì yuàn ": 4786,
  "fā xíng": 4787,
  " shì zhǐ ": 4788,
  "tè lǐ ": 4789,
  "kàng rì ": 4790,
  " hé xīn ": 4791,
  "mín zhòng ": 4792,
  " tuō ": 4793,
  "wēi xié ": 4794,
  "   2015": 4795,
  "shōu lù ": 4796,
  "jiào de ": 4797,
  "zhuàng kuàng ": 4798,
  "zhàn dòu": 4799,
  " jié mù ": 4800,
  "zhòu ": 4801,
  "huāng ": 4802,
  "lán kè ": 4803,
  "   f": 4804,
  "cái zhèng ": 4805,
  " nián qīng": 4806,
  " zài 19": 4807,
  "máng ": 4808,
  "wáng de ": 4809,
  "cán ": 4810,
  " jì zǎi ": 4811,
  "sà kè ": 4812,
  "wō ": 4813,
  " qián": 4814,
  "   2013": 4815,
  " zhōng wén ": 4816,
  " rén men ": 4817,
  " 2019": 4818,
  "12 nián ": 4819,
  "suī rán ": 4820,
  " hé bìng ": 4821,
  "jìn gōng ": 4822,
  "gāo dù ": 4823,
  "qǐ yì ": 4824,
  " 2011": 4825,
  "zhòng diǎn ": 4826,
  "pǎo": 4827,
  "lǜ wèi ": 4828,
  "shé ": 4829,
  "le tā ": 4830,
  "   zhōng guó ": 4831,
  "zēng zhǎng ": 4832,
  " bù duàn ": 4833,
  "jīng shén ": 4834,
  " dá ": 4835,
  "yě bèi ": 4836,
  "ay": 4837,
  "tou": 4838,
  " zhū": 4839,
  "lì shì ": 4840,
  " xī bān yá": 4841,
  "fēi jiàn zhì dì qū ": 4842,
  "ěn ": 4843,
  " chē zhàn ": 4844,
  "tú shū guǎn ": 4845,
  "33": 4846,
  "yē ": 4847,
  " guǎng ": 4848,
  "dōu huì ": 4849,
  " jí qí": 4850,
  " ōu ": 4851,
  " wéi qí ": 4852,
  "xì tǒng de ": 4853,
  "rùn ": 4854,
  "liǎng rén ": 4855,
  "hǎi dào ": 4856,
  "yíng yùn ": 4857,
  "hún ": 4858,
  " dà lóu ": 4859,
  "shàng shū ": 4860,
  " guī ": 4861,
  "mín zú": 4862,
  " é luó sī ": 4863,
  "ào dì lì ": 4864,
  "18 ": 4865,
  "pǐ ": 4866,
  " shì jí ": 4867,
  " hé zhōng ": 4868,
  " lǜ ": 4869,
  "lǐng dǎo rén ": 4870,
  "jiāng xī ": 4871,
  "liǎng nián ": 4872,
  "jié hūn ": 4873,
  " shēng huó": 4874,
  " zhōng guó gòng chǎn dǎng ": 4875,
  " yīn ér ": 4876,
  "yīn shì ": 4877,
  "tài yáng": 4878,
  "mǒu xiē ": 4879,
  " jìn rù": 4880,
  "cān jiā le ": 4881,
  " yáng": 4882,
  "yuè zài ": 4883,
  "jié kè ": 4884,
  "huà wèi ": 4885,
  " de chéng yuán ": 4886,
  "AS": 4887,
  "xì bāo": 4888,
  "ai": 4889,
  "jù de ": 4890,
  " hé chéng ": 4891,
  " jì suàn": 4892,
  " C ": 4893,
  "nà lǐ ": 4894,
  "zhěn ": 4895,
  " chuàng ": 4896,
  " zào chéng ": 4897,
  "xiào guǒ ": 4898,
  "diào chá": 4899,
  " 4 yuè ": 4900,
  "zhāi ": 4901,
  " jǐn": 4902,
  "yǐn fā ": 4903,
  "shēn wèi ": 4904,
  "jū zhù ": 4905,
  "zhá ": 4906,
  "xià jì ào lín pǐ kè yùn dòng huì ": 4907,
  " quán guó ": 4908,
  "40 ": 4909,
  " zhèng zhuàng ": 4910,
  "nuó ": 4911,
  " āi ": 4912,
  "suì dào ": 4913,
  "yòng hù ": 4914,
  "shí jiān ": 4915,
  "chàng piàn": 4916,
  "chǎn shēng de ": 4917,
  "es ": 4918,
  " ruò": 4919,
  "   zh ": 4920,
  "shuō míng ": 4921,
  "jiāng sū ": 4922,
  "ran": 4923,
  " lǐ lùn ": 4924,
  "9 rén ": 4925,
  " fāng ": 4926,
  " dà xíng ": 4927,
  "chǎn pǐn": 4928,
  "fǎng wèn ": 4929,
  "10 nián ": 4930,
  " huò dé le ": 4931,
  " gān ": 4932,
  "quǎn ": 4933,
  "zhí dào ": 4934,
  " zhī xià ": 4935,
  " zuò pǐn": 4936,
  " 00 ": 4937,
  "suī rán": 4938,
  " zài jiā ": 4939,
  "   jiā zú ": 4940,
  "lán qiú ": 4941,
  "yōu shì ": 4942,
  " gōng rén ": 4943,
  "pǐn pái ": 4944,
  " dà duō ": 4945,
  "zhōu de ": 4946,
  "jiè de ": 4947,
  " màn ": 4948,
  "guà ": 4949,
  "huá rén ": 4950,
  " 2008 nián ": 4951,
  "jì shí ": 4952,
  " lí ": 4953,
  " 2005 nián ": 4954,
  "xiǎn de ": 4955,
  "zhàn dòu ": 4956,
  "ào yùn huì ": 4957,
  " xǔ duō ": 4958,
  " 2011 nián ": 4959,
  " shì rén ": 4960,
  "sù de ": 4961,
  " hòu": 4962,
  " shì zhèn": 4963,
  " yuè nán ": 4964,
  " jí lì ": 4965,
  " yǒu shí ": 4966,
  "bào dǎo ": 4967,
  "hán shù ": 4968,
  "qǔ dé": 4969,
  "jìn rù": 4970,
  "ào mén ": 4971,
  "yǔn xǔ ": 4972,
  " biàn": 4973,
  "dìng le ": 4974,
  " dàn yóu yú ": 4975,
  "xiǎo shuō": 4976,
  "av": 4977,
  "wǔ zhuāng ": 4978,
  " shì wèi le ": 4979,
  "tiáo zhěng ": 4980,
  "mǎ sī ": 4981,
  "xí wèi ": 4982,
  " xī là": 4983,
  "jù lí ": 4984,
  "huí yìng ": 4985,
  " yuè tái ": 4986,
  "měi shù ": 4987,
  "shú ": 4988,
  "zhōng wèi ": 4989,
  "yǒu bù ": 4990,
  "yuán zài ": 4991,
  "chuáng": 4992,
  "mìng lìng ": 4993,
  " shèng": 4994,
  "jiā zhōng ": 4995,
  "jiàn shè ": 4996,
  "zhēn shí ": 4997,
  "wén zì ": 4998,
  " dì wǔ ": 4999,
  "zhōng huá rén mín gòng hé guó ": 5000,
  "xué shù ": 5001,
  "65": 5002,
  " xiǎng": 5003,
  "yìn dì ": 5004,
  "jiào liàn ": 5005,
  "xīng qī ": 5006,
  "   and": 5007,
  "jīn de ": 5008,
  "yí chǎn ": 5009,
  "gǒng ": 5010,
  "fēi lǜ ": 5011,
  " de gōng zuò ": 5012,
  "34": 5013,
  " zhī hòu": 5014,
  "2020 nián měi guó rén kǒu pǔ chá de shù jù ": 5015,
  "chuáng ": 5016,
  "jǔ xíng": 5017,
  "ali": 5018,
  "fáng yù ": 5019,
  "yí mín ": 5020,
  "   2025": 5021,
  "qū yù": 5022,
  " zhōu nián ": 5023,
  "shù zì ": 5024,
  "liè biǎo ": 5025,
  "tí gāo ": 5026,
  " shì wēi ": 5027,
  " lái zì ": 5028,
  " xiào ": 5029,
  " wǎng ": 5030,
  " rèn wù ": 5031,
  "--": 5032,
  " xiàn yú ": 5033,
  "jī chǎng ": 5034,
  "yǐ lái ": 5035,
  "le tā de ": 5036,
  "huì yuán ": 5037,
  "huà jiā ": 5038,
  "wǎ ěr ": 5039,
  "jì lù ": 5040,
  " jī guān ": 5041,
  "zèng ": 5042,
  "děng wèi ": 5043,
  "dū shì ": 5044,
  " shí yī ": 5045,
  "le yí gè ": 5046,
  "ate": 5047,
  "chōu ": 5048,
  "shū de ": 5049,
  "   In": 5050,
  "shān mài": 5051,
  " shí qī": 5052,
  "wǔ tái ": 5053,
  "yāo qǐng ": 5054,
  "jiē jí ": 5055,
  "duàn de ": 5056,
  "shēn qǐng ": 5057,
  "liǎng zhǒng ": 5058,
  " zuǒ ": 5059,
  "   zǎo nián ": 5060,
  "kè lǐ ": 5061,
  " hé xī ": 5062,
  " rì jūn ": 5063,
  "tuó": 5064,
  "zǔ jiàn ": 5065,
  "der": 5066,
  "ǎi ": 5067,
  "jīng lǐ ": 5068,
  "yán de ": 5069,
  "shén jīng ": 5070,
  " huáng": 5071,
  "dōng jì ": 5072,
  "yíng de ": 5073,
  "huā yuán ": 5074,
  " jiā rù": 5075,
  "shǒu dū ": 5076,
  "tī ": 5077,
  "yuē yǒu ": 5078,
  "shēng jí ": 5079,
  "miàn duì ": 5080,
  "xià yī ": 5081,
  "ame": 5082,
  "um": 5083,
  " qī": 5084,
  " 2018": 5085,
  " lì shǐ": 5086,
  "chèn ": 5087,
  " shè jí ": 5088,
  " hé lán ": 5089,
  " zhì shí ": 5090,
  "gāo děng ": 5091,
  "fù jìn ": 5092,
  " zhì lì ": 5093,
  " shì dà ": 5094,
  " suǒ yǐ": 5095,
  "yuán jí ": 5096,
  "mǐ de ": 5097,
  "quán miàn ": 5098,
  "zī jīn ": 5099,
  " zì jǐ de ": 5100,
  "guān xì": 5101,
  "fěn ": 5102,
  "jīng cháng ": 5103,
  "měi guó de ": 5104,
  "wán quán": 5105,
  "lǐng tǔ ": 5106,
  " 3 yuè ": 5107,
  "āi jí ": 5108,
  " zhèn ": 5109,
  "chēng zuò ": 5110,
  " rén mín": 5111,
  " míng cháo zhèng zhì rén wù ": 5112,
  " shòu": 5113,
  " rén lèi": 5114,
  "jiào xué ": 5115,
  " xú": 5116,
  " zhōng de ": 5117,
  "   xīn ": 5118,
  " zài xī ": 5119,
  "yòng zuò ": 5120,
  "jiǔ diàn ": 5121,
  " wǒ men ": 5122,
  "   2024": 5123,
  "kuáng ": 5124,
  " jì zhě ": 5125,
  " shì yī zhǒng": 5126,
  "68": 5127,
  "wén xiàn ": 5128,
  " xiāng guān ": 5129,
  "cān móu": 5130,
  "ho": 5131,
  "lǐ lùn ": 5132,
  "zhèng míng ": 5133,
  "nǔ lì ": 5134,
  " yuán míng ": 5135,
  "lù jūn": 5136,
  " zhōng yú ": 5137,
  " jī chē ": 5138,
  " nián dài": 5139,
  "dòng wù": 5140,
  "biān hào ": 5141,
  " xiàn hé ": 5142,
  "   hòu ": 5143,
  "guī zé ": 5144,
  " jiāo ": 5145,
  "   yóu ": 5146,
  "   tā ": 5147,
  " yì yì ": 5148,
  " jìn xíng": 5149,
  " guó huì ": 5150,
  " gōng huì ": 5151,
  " yuán gōng ": 5152,
  "f ": 5153,
  "pāi ": 5154,
  "qià ": 5155,
  " chéng xiàn ": 5156,
  "nèi lù ": 5157,
  "qì xiàng ": 5158,
  " nán zhì ": 5159,
  "mā ": 5160,
  "zhǎo dào ": 5161,
  " gōng chǎng ": 5162,
  "wáng cháo": 5163,
  "lǚ xíng ": 5164,
  " fù zé": 5165,
  " dì yī cì ": 5166,
  "wēi jī ": 5167,
  " shì hòu ": 5168,
  " zhāo": 5169,
  "yǒu zài ": 5170,
  "25 nián ": 5171,
  "jiào shī ": 5172,
  "bǎo liú ": 5173,
  "est": 5174,
  " hán guó ": 5175,
  "tài rén ": 5176,
  " hé gōng ": 5177,
  "zhǔ chí": 5178,
  "wén zhāng ": 5179,
  "wén yì ": 5180,
  "zhī jiān ": 5181,
  "bèi shì wèi ": 5182,
  "tí dào ": 5183,
  "xià lìng": 5184,
  "fǎ àn ": 5185,
  " yì fāng miàn ": 5186,
  " měi nián ": 5187,
  "bǎo chí": 5188,
  "eg": 5189,
  " zhèng": 5190,
  "tiān de ": 5191,
  " yú 194": 5192,
  "cái liào ": 5193,
  "kě yǐ zài ": 5194,
  "gé wèi ": 5195,
  " nián shì jiè ": 5196,
  "qǐ yè": 5197,
  "dǔ ": 5198,
  "jīn shǔ ": 5199,
  "kōng zhōng ": 5200,
  "zhù lǐ ": 5201,
  "kǒng bù ": 5202,
  " guó fáng": 5203,
  "dōng nán bù ": 5204,
  "biǎo miàn ": 5205,
  "bái sè ": 5206,
  "shǒu jī ": 5207,
  "tōng dào ": 5208,
  " shí èr ": 5209,
  "qí zhōng yī zhǒng ": 5210,
  "zuò wèi ": 5211,
  "17 ": 5212,
  "dài lǐ ": 5213,
  " bù mén": 5214,
  "lì wèi ": 5215,
  "shū jí ": 5216,
  " ér chéng ": 5217,
  "ang": 5218,
  " lǐ": 5219,
  "zuò yòng ": 5220,
  "gù wèn ": 5221,
  "yǐ xià ": 5222,
  "juàn ": 5223,
  "bá ": 5224,
  "dà lù de ": 5225,
  "xiāng guān": 5226,
  "yí zhǐ ": 5227,
  "yǎn yì ": 5228,
  " 2016": 5229,
  " zài 198": 5230,
  "jìn yí bù ": 5231,
  " zuò wéi": 5232,
  "yǐn qǐ ": 5233,
  "jī hé ": 5234,
  "bō lán": 5235,
  "jìng de ": 5236,
  " dào dá ": 5237,
  "wǒ men": 5238,
  "láo dòng ": 5239,
  " wù ": 5240,
  "shī fàn": 5241,
  "tún ": 5242,
  "ST": 5243,
  " é ": 5244,
  " zài wèi ": 5245,
  "tōng chē ": 5246,
  "zhǔ de ": 5247,
  "ne ": 5248,
  " zài 18": 5249,
  " yǒu jī ": 5250,
  " fù qīn ": 5251,
  " 2001 nián rén kǒu ": 5252,
  " hé shí ": 5253,
  "dào lù ": 5254,
  "300": 5255,
  "huì shì ": 5256,
  " běi qǐ ": 5257,
  " 188": 5258,
  "chéng nián ": 5259,
  "sǐ hòu ": 5260,
  " yīng yǔ ": 5261,
  "duō rén ": 5262,
  "cháng de ": 5263,
  "zhào kāi ": 5264,
  "sī lì ": 5265,
  " zhōng guó dà lù ": 5266,
  "céng jīng": 5267,
  "yà lì shān dà ": 5268,
  "28 nián ": 5269,
  " yǐ bèi ": 5270,
  "44": 5271,
  " 2007 nián ": 5272,
  "zé wèi ": 5273,
  " píng miàn ": 5274,
  "jū mín": 5275,
  " xuān bù ": 5276,
  "zhǔ lì ": 5277,
  "liú zài ": 5278,
  "ní kè ": 5279,
  " tā wèi ": 5280,
  " tā yě ": 5281,
  "tè shū ": 5282,
  " bù bù ": 5284,
  " zhī jiān": 5285,
  "ST ": 5286,
  "dà wèi ": 5287,
  "yǐn qǐ": 5288,
  " xiàn de yí gè ": 5289,
  "kuāng ": 5290,
  "yùn zuò ": 5291,
  "dì èr ": 5292,
  "yǐng piàn": 5293,
  "wú fǎ": 5294,
  "lǜ shī ": 5295,
  "AR": 5296,
  "jiāo huì ": 5297,
  "shǒu gè ": 5298,
  "chē de ": 5299,
  "tuì chū ": 5300,
  " ér yán ": 5301,
  " xiàn de yí gè": 5302,
  "500": 5303,
  " sī tè": 5304,
  " xī wàng": 5305,
  "yú zài ": 5306,
  " kè chéng ": 5307,
  "jǐ gè ": 5308,
  " yǒu yì ": 5309,
  "yào wù ": 5310,
  "xīn jiā pō": 5311,
  "32": 5312,
  "jīn huì ": 5313,
  "fēi zhōu ": 5314,
  "bō lán ": 5315,
  " lǎo ": 5316,
  " 10 ": 5317,
  "tuó ": 5318,
  " de jiā ": 5319,
  " léi ": 5320,
  "   xià ": 5321,
  "biàn dé ": 5322,
  " shì jiā ": 5323,
  " xī sī ": 5324,
  "jiāng huì ": 5325,
  " chéng xù ": 5326,
  "guǎng gào ": 5327,
  "・": 5328,
  " dōng nán ": 5329,
  " ér shuǐ yù miàn jī wèi 0": 5330,
  "os": 5331,
  "×": 5332,
  " qiáo ": 5333,
  " zhì liáo ": 5334,
  " guó jiā de ": 5335,
  "jīn pái ": 5336,
  "guò qù ": 5337,
  "H ": 5338,
  " cháo ": 5339,
  "dà dì ": 5340,
  "qiē ": 5341,
  "yà zhōu": 5342,
  "biān hào": 5343,
  " shì yǔ ": 5344,
  " hé qí tā ": 5345,
  "dōng běi bù ": 5346,
  "58": 5347,
  "sài zhōng ": 5348,
  " de zhì ": 5349,
  "   2012": 5350,
  "míng shì ": 5351,
  " zhī wèi ": 5352,
  " bìng jiāng ": 5353,
  "   1": 5354,
  "kāng xī ": 5355,
  " yú 196": 5356,
  "ào dà lì yà ": 5357,
  " chēng wéi ": 5358,
  "60 ": 5359,
  " bù dé": 5360,
  "zhí mín": 5361,
  "gòu zào ": 5362,
  "huān yíng ": 5363,
  "běn dì ": 5364,
  "biān jù ": 5365,
  " yú lè ": 5366,
  "zì yóu": 5367,
  "zhuāng jiǎ ": 5368,
  "dāng shí de ": 5369,
  " chéng rèn ": 5370,
  " fǎn": 5371,
  " 2021": 5372,
  "ev": 5373,
  "suǒ zài ": 5374,
  "fàng qì ": 5375,
  "jù hé ": 5376,
  "24 nián ": 5377,
  " jìn xíng le ": 5378,
  " hóng": 5379,
  " liáng ": 5380,
  "fú yì ": 5381,
  "zhuāng shì ": 5382,
  "nǚ zǐ": 5383,
  "huò dé le ": 5384,
  " qiú yuán ": 5385,
  "   chéng ": 5386,
  "per": 5387,
  " bǐ": 5388,
  " dú ": 5389,
  " jiàn zào ": 5390,
  " ér gāi dì ": 5391,
  "mù biāo": 5392,
  " nǚ xìng ": 5393,
  " hěn ": 5394,
  " chì ": 5395,
  "jiàn yì ": 5396,
  "xiān shēng ": 5397,
  " bù lā ": 5398,
  "yì dà lì ": 5399,
  "yǎn chàng ": 5400,
  " s   ": 5401,
  "fǎ yuàn": 5402,
  " féng ": 5403,
  "wáng cháo ": 5404,
  " wèi yǒu ": 5405,
  "biǎo dá": 5406,
  "máo zé ": 5407,
  "xiào de ": 5408,
  "sà sī ": 5409,
  " yī jí ": 5410,
  " bìng yǔ ": 5411,
  " chá": 5412,
  " guān yú ": 5413,
  " dà lù ": 5414,
  "pú táo yá": 5415,
  "jiā rù": 5416,
  "luó dì ": 5417,
  " wèi lái ": 5418,
  "nán jīng ": 5419,
  "ed": 5420,
  "   cóng ": 5421,
  "lì zài ": 5422,
  "qǐng qiú ": 5423,
  "jǐn jí ": 5424,
  " jìn yí bù ": 5425,
  "shōu shì ": 5426,
  " jiā zú ": 5427,
  "què rèn ": 5428,
  " jìn gōng ": 5429,
  "em": 5430,
  " 000 ": 5431,
  "sà ěr ": 5432,
  "jì xù ": 5433,
  "xī bān yá": 5434,
  "zhě zài ": 5435,
  "guān bì ": 5436,
  "piào fáng ": 5437,
  "   i": 5438,
  "tǎn kè ": 5439,
  "cì shǐ ": 5440,
  "bó wù guǎn": 5441,
  "ace": 5442,
  "làn ": 5443,
  " de shēng ": 5444,
  " shì fǒu": 5445,
  " 20": 5446,
  " yì měi yuán ": 5447,
  " jì shù": 5448,
  " jī hū ": 5449,
  "jǐng fāng ": 5450,
  "huǒ shān ": 5451,
  "yě huì ": 5452,
  " yuè tuán ": 5453,
  "wàn rén ": 5454,
  " tā men zài ": 5455,
  " tè bié shì ": 5456,
  "huǒ jiàn ": 5457,
  "mò xī gē ": 5458,
  " sī kè ": 5459,
  "bǐ lì shí ": 5460,
  "biān de ": 5461,
  "zhān mǔ sī ": 5462,
  "dā": 5463,
  "jué duì ": 5465,
  "mín zhǔ dǎng ": 5466,
  "tài píng yáng": 5467,
  "   s": 5468,
  "tóng nián ": 5469,
  " shì zhèng ": 5470,
  " chū shēng ": 5471,
  "shēn tǐ ": 5472,
  " qī xī zài ": 5473,
  " huí ": 5474,
  " shì rì běn ": 5475,
  " yǐ yǒu ": 5476,
  "zhǒng zú ": 5477,
  "kǎo lǜ": 5478,
  "pǎo ": 5479,
  " guān": 5480,
  " cān ": 5481,
  "shàng wǔ ": 5482,
  " zhàn dòu ": 5483,
  "gǔ fèn": 5484,
  "guǎng dōng shěng ": 5485,
  " de zhèng ": 5486,
  " bèi rèn wéi shì ": 5487,
  " fáng ": 5488,
  " 30 ": 5489,
  "   jié zhì ": 5490,
  "nèi yǒu ": 5491,
  "wán gōng ": 5492,
  " zhì chéng ": 5493,
  "mín jiān ": 5494,
  " dà yuē ": 5495,
  " yuán běn ": 5496,
  "sēn lín ": 5497,
  "chǎng hé ": 5498,
  "15 nián ": 5499,
  " zhī zi ": 5500,
  "fù qīn": 5501,
  "tè sè ": 5502,
  "bā lí": 5503,
  " zài qí ": 5504,
  "hú běi ": 5505,
  "19 nián ": 5506,
  "gèng duō ": 5507,
  "gāo sù ": 5508,
  " A ": 5509,
  "og": 5510,
  "èr yuè ": 5511,
  " zhī de ": 5512,
  " dà dào ": 5513,
  "ān pái ": 5514,
  "qíng bào ": 5515,
  "xí xìng": 5516,
  " kuān": 5517,
  " wěi ": 5518,
  " rén men": 5519,
  " sī tǎn": 5520,
  "yòng tú ": 5521,
  "mì mì ": 5522,
  "dēng shàng ": 5523,
  " xiàn chǎng ": 5524,
  "dài biǎo dà huì ": 5525,
  "   zēng ": 5526,
  "wài bù ": 5527,
  "18 nián ": 5528,
  " rì jūn": 5529,
  " fù qīn": 5530,
  "kǎo lǜ ": 5531,
  " yōng yǒu ": 5532,
  " shí yàn ": 5533,
  "jī chǔ ": 5534,
  "méng gǔ": 5535,
  "xiào yuán ": 5536,
  "hǎi àn ": 5537,
  "pāi shè": 5538,
  "é luó sī": 5539,
  " yǒu xiàn ": 5540,
  " yuē hàn ": 5541,
  "lěng": 5542,
  "％": 5543,
  " xiū ": 5544,
  " 2013 nián ": 5545,
  " yuán sù ": 5546,
  "má": 5547,
  " 2015": 5548,
  " shì yè ": 5549,
  "da": 5550,
  "nán yǐ ": 5551,
  "tái fēng ": 5552,
  " dà duō shù ": 5553,
  " xià": 5554,
  "hǎn": 5555,
  "lí mǐ ": 5556,
  "zhuāng bèi ": 5557,
  "zuò zhàn ": 5558,
  "tiān jīn ": 5559,
  "měi gè ": 5560,
  "ma ": 5561,
  " tā yú ": 5562,
  "xìng qù ": 5563,
  "jiāo liú ": 5564,
  "tǔ ěr qí ": 5565,
  "qiān zhì ": 5566,
  "─": 5567,
  " tǔ ": 5568,
  "chǎng dì ": 5569,
  "27 nián ": 5570,
  "tiān jīn": 5571,
  "lóng jiāng ": 5572,
  " yīng wén ": 5573,
  "qióng ": 5574,
  " wèi xīng ": 5575,
  "xiāng dāng": 5576,
  "dǎo dàn ": 5577,
  " jī bài": 5578,
  " qīng cháo ": 5579,
  " gǎng ": 5580,
  " jīng jì ": 5581,
  "néng zài ": 5582,
  "21 nián ": 5583,
  " jí běi ": 5584,
  " yǒu xiē ": 5585,
  "zhàn lǐng ": 5586,
  " chū lái ": 5587,
  "bō fàng ": 5588,
  " xiàng": 5589,
  " wàn měi yuán ": 5590,
  "pìn ": 5591,
  "bàn lǐ ": 5592,
  "22 nián ": 5593,
  " zhī dào ": 5594,
  " 2006 nián ": 5595,
  " bù zú ": 5596,
  " tā hái ": 5597,
  "3 gè ": 5598,
  "shàng dì ": 5599,
  "lǐng shì ": 5600,
  "64": 5601,
  "lǐ gōng ": 5602,
  "chuán shuō ": 5603,
  "mǔ qīn": 5604,
  " hè ": 5605,
  "āi ěr ": 5606,
  "cháng jiàn de ": 5607,
  "zhàng ài ": 5608,
  "mǎ lái xī yà ": 5609,
  "19 ": 5610,
  "13 nián ": 5611,
  "nóng yè": 5612,
  "liǔ ": 5613,
  " yì yuàn": 5614,
  "guǎng fàn": 5615,
  " bù jiǔ": 5616,
  " chéng dù ": 5617,
  " zhōng shì ": 5618,
  "   míng ": 5619,
  "dì zài ": 5620,
  "shuā ": 5621,
  "jù jué ": 5622,
  "jìn xíng le ": 5623,
  "rèn shí ": 5624,
  "xiū zhèng ": 5625,
  "huá shèng ": 5626,
  "wǒ men ": 5627,
  "zhuō ": 5628,
  "shòu dào": 5629,
  "guì zhōu ": 5630,
  "ān quán": 5631,
  "yǐn qíng ": 5632,
  "sú": 5633,
  "   2": 5634,
  "14 nián ": 5635,
  "xǐ jù ": 5636,
  " gōng zhǔ ": 5637,
  "xí xìng bù míng ": 5638,
  "   4": 5639,
  " fèi": 5640,
  "   qí ": 5641,
  "se ": 5642,
  "ter ": 5643,
  "fǎ guān ": 5644,
  "xūn ": 5645,
  " 2013": 5646,
  " chū qī ": 5647,
  "rèn mìng wèi ": 5648,
  " kāng ": 5649,
  " shǐ jiàn yú ": 5650,
  " mò": 5651,
  "shēng chéng ": 5652,
  " jī hū": 5653,
  "   měi guó ": 5654,
  "lā dīng": 5655,
  " 7 ": 5656,
  "   xiàn": 5657,
  " zài cǐ": 5658,
  "wǎng luò": 5659,
  "chuàng bàn": 5660,
  " liè ": 5661,
  " shēng huó xí xìng bù míng ": 5662,
  "sǎn ": 5663,
  " jù yǒu ": 5664,
  "shè zhì ": 5665,
  "zhǔ shì ": 5666,
  "tí chū": 5667,
  "biàn wèi ": 5668,
  "zhuì ": 5669,
  " yì qǐ": 5670,
  " qí zài ": 5671,
  " zhàn dòu": 5672,
  "ān nà ": 5673,
  "cǎi qǔ ": 5674,
  " gāo": 5675,
  " 2014": 5676,
  "ari": 5677,
  " hé hé ": 5678,
  "bào fā": 5679,
  "zhì zhōng ": 5680,
  "hěn dà ": 5681,
  "67": 5682,
  " cān jiā ": 5683,
  "11 nián ": 5684,
  " bù luò ": 5685,
  " pèi": 5686,
  " bǎi ": 5687,
  "huà hé wù ": 5688,
  " 2012 nián ": 5689,
  "sān shì ": 5690,
  " ér bú shì ": 5691,
  " shí dài": 5692,
  "yán shēn": 5693,
  "quán zhǎng ": 5694,
  "tí gōng le ": 5695,
  " wǒ men": 5696,
  "bào lì ": 5697,
  "29 nián ": 5698,
  "zhǔ yì de ": 5699,
  "   lǐ ": 5700,
  " yī xué ": 5701,
  "shàng yìng ": 5702,
  " 0 ": 5703,
  "lòu ": 5704,
  "jì shì ": 5705,
  "99": 5706,
  " chēng": 5707,
  "shū rù ": 5708,
  " tōng cháng": 5709,
  "jiā lì fú ": 5710,
  " tiān": 5711,
  " pèi ": 5712,
  " chǔ yú ": 5713,
  " yǒu yí gè ": 5714,
  " xiàn xiàng ": 5715,
  "zī chǎn ": 5716,
  " yě jiù shì ": 5717,
  "zhì bù ": 5718,
  "suì shí ": 5719,
  "zuì gāo": 5720,
  " gēn jù": 5721,
  "fǎ yǔ ": 5722,
  " zài nèi de ": 5723,
  "ān zhuāng": 5724,
  "hǎi wài ": 5725,
  " zuì gāo ": 5726,
  " jīng": 5727,
  "zhuǎn xiàng ": 5728,
  "23 nián ": 5729,
  " de fāng shì ": 5730,
  " 30": 5731,
  " ér bù ": 5732,
  "lǐng xiù ": 5733,
  "tuī jìn ": 5734,
  "píng lùn ": 5735,
  "jià gé ": 5736,
  "   cǐ wài ": 5737,
  " ruì ": 5738,
  "mǎ lǐ ": 5739,
  "chuàng jiàn ": 5740,
  "bīn hǎi ": 5741,
  "shùn lì ": 5742,
  "oh": 5743,
  "dāng xuǎn ": 5744,
  " 2017": 5745,
  "léi sī ": 5746,
  "ruǎn jiàn ": 5747,
  "zhèng dǎng ": 5748,
  " yóu qí shì ": 5749,
  "liǎn ": 5750,
  "yuàn shì ": 5751,
  " shēng zhǎng": 5752,
  "xún yáng": 5753,
  " xíng zhèng": 5754,
  "wǎng qiú ": 5755,
  " zài dù ": 5756,
  "1 lì ": 5757,
  "ast": 5758,
  " shēng chǎn": 5759,
  "lùn wén ": 5760,
  " gòng yǒu ": 5761,
  "nǚ xìng": 5762,
  " hé bù ": 5763,
  " dà shà": 5764,
  "fāng miàn de ": 5765,
  "tóu zī": 5766,
  "nú": 5767,
  " bó": 5768,
  "lay": 5769,
  "yìng yòng": 5770,
  "pén": 5771,
  "ái ": 5772,
  "jiào shì ": 5773,
  "yīng lǐ ": 5774,
  "diàn zi": 5775,
  "bǎn běn": 5776,
  " xiàng mù ": 5777,
  "gè zhǒng ": 5778,
  "pái míng dì ": 5779,
  "nǔ ": 5780,
  "guà": 5781,
  "zé rèn ": 5782,
  "biǎo dá ": 5783,
  " gé": 5784,
  "yú de ": 5785,
  "bú ": 5786,
  "rén dà ": 5787,
  " dé ěr ": 5788,
  " hòu xuǎn rén ": 5789,
  "AM": 5790,
  "jù lè bù ": 5791,
  " bān ": 5792,
  "yì nián ": 5793,
  " gòng": 5794,
  "tài zi ": 5795,
  "bào gào": 5796,
  " dōng běi ": 5797,
  " běi jīng ": 5798,
  "jiǔ lóng ": 5799,
  "fàn wéi nèi ": 5800,
  "lǐng dì ": 5801,
  " hé dà ": 5802,
  "   qián ": 5803,
  "zhè lǐ ": 5804,
  " shì gù ": 5805,
  "zhí jiē": 5806,
  "   jù qíng ": 5807,
  "   xiàn ": 5808,
  "xiāng shì dì ": 5809,
  " yú rén ": 5810,
  " rì bào ": 5811,
  "xíng chéng ": 5813,
  "fā xíng de ": 5814,
  "shén me ": 5815,
  "fēng wèi ": 5816,
  "pài de ": 5817,
  " zhì shǎo ": 5818,
  "jīng yàn ": 5819,
  "na": 5820,
  "pēn ": 5821,
  "dú lì de ": 5822,
  " tā hé ": 5823,
  "guò qù": 5824,
  " hǎi": 5825,
  "é guó ": 5826,
  " yǒu xiào ": 5827,
  " zhī fù ": 5828,
  "hè ěr ": 5829,
  " zhōng bèi ": 5830,
  "ew": 5831,
  " xuān ": 5832,
  " jì suàn ": 5833,
  " lǐ lùn": 5834,
  "chū shēng yú ": 5835,
  " jù": 5836,
  "guān diǎn ": 5837,
  "jiù dú": 5838,
  "wēn dù ": 5839,
  " lìng yī ": 5840,
  " wò": 5841,
  " shì xī ": 5842,
  "jì chéng ": 5843,
  "bǐ yà": 5844,
  "liǔ": 5845,
  "kǎ sī ": 5846,
  " yī xiǎo shí ": 5847,
  " dà xī yáng ": 5848,
  "pái háng ": 5849,
  " qǐ": 5850,
  " gāng ": 5851,
  "fāng yán ": 5852,
  "   ā ": 5853,
  " nián   ": 5854,
  "míng zì ": 5855,
  " dé huá ": 5856,
  "pǔ biàn ": 5857,
  " dōng lín ": 5858,
  "wèi   ": 5859,
  "jué yì ": 5860,
  " zuò jiā ": 5861,
  "dǎng yuán ": 5862,
  "chū shēn ": 5863,
  " 2014 nián ": 5864,
  "míng rén ": 5865,
  "qū yì huì ": 5866,
  " dà fú ": 5867,
  "huàn chéng ": 5868,
  "hóng sè ": 5869,
  "dà zhì ": 5870,
  "xiàn zhì ": 5871,
  " zhuāng ": 5872,
  " chū zhàn ": 5873,
  " bìng fēi ": 5874,
  "nèi gé ": 5875,
  " jié guǒ": 5876,
  "   dì fāng ": 5877,
  "fén ": 5878,
  "mǎ ěr ": 5879,
  "zhòng duō ": 5880,
  " shōu ": 5881,
  " sāi ": 5882,
  " yǔ máo": 5883,
  " bìng bèi ": 5884,
  "zhí dǎo ": 5885,
  " yín ": 5886,
  "qū hé ": 5887,
  "běn rén ": 5888,
  " yī tóng ": 5889,
  " zhōng huá rén mín gòng hé guó zhèng zhì rén wù ": 5890,
  "In": 5891,
  "zuò shì ": 5892,
  "rù xuǎn ": 5893,
  "nè": 5894,
  "liǎng míng ": 5895,
  "hán yǒu ": 5896,
  " zài cì": 5897,
  "tóu xiáng ": 5898,
  "kē de qí zhōng yī zhǒng ": 5899,
  " gōng yì ": 5900,
  " xiàn shì ": 5901,
  "yí dù ": 5902,
  "zhī chí": 5903,
  "ph": 5904,
  " tǎ ": 5905,
  "yí dìng ": 5906,
  "zhǒng zi ": 5907,
  "   Ch": 5908,
  "xǐ huān": 5909,
  "diǎn lǐ ": 5910,
  "dàng tiān ": 5911,
  "yīng wén ": 5912,
  "jǐng chá": 5913,
  " huǒ ": 5914,
  "chéng yuán ": 5915,
  " yú 195": 5916,
  "jiàng dī ": 5917,
  " tún": 5918,
  "dōu zài ": 5919,
  " 187": 5920,
  "yà jūn ": 5921,
  "zì rán": 5922,
  " qí zhōng yī ": 5923,
  "shè qū ": 5924,
  "cì de ": 5925,
  "kǒu wèi ": 5926,
  " shì mín ": 5927,
  "zhī qián ": 5928,
  "shě ": 5929,
  "mì shū zhǎng ": 5930,
  "zhèng bù ": 5931,
  "qǐ dòng ": 5932,
  "tū pò ": 5933,
  "tiáo lì ": 5934,
  "28 ": 5935,
  "suǒ de ": 5936,
  "wú zhèng zhuàng ": 5937,
  "ar ": 5938,
  "jī dū ": 5939,
  " xiàn rèn ": 5940,
  "yǔn xǔ": 5941,
  " bàn ": 5942,
  "xiě dào ": 5943,
  " huá": 5944,
  " sū": 5945,
  " qī jiān ": 5946,
  "shù yǔ ": 5947,
  " xíng wèi ": 5948,
  "fǎng wèn": 5949,
  "xīng děng wèi ": 5950,
  " wàn lì ": 5951,
  "de   ": 5952,
  " shì yú ": 5953,
  " gōng mín ": 5954,
  "tor": 5955,
  " bìng dú": 5956,
  " 2012": 5957,
  "tiáo zhěng": 5958,
  "hēi sè ": 5959,
  "zhěng tǐ ": 5960,
  "gāo sù gōng lù ": 5961,
  " zǔ fù ": 5962,
  "tuán de ": 5963,
  "gěi le ": 5964,
  "26 nián ": 5965,
  " shì gōng ": 5966,
  " jī jīn ": 5967,
  "léng": 5968,
  " hàn": 5969,
  "lǔ sī ": 5970,
  " tóng yì ": 5971,
  "jiè shào ": 5972,
  "OS": 5973,
  "zòng ": 5974,
  "   jí ": 5975,
  "huáng hòu ": 5976,
  "jié guǒ": 5977,
  "kāi shǐ zài ": 5978,
  "yuān ": 5979,
  "míng zhì ": 5980,
  "tic": 5981,
  "jiāng zài ": 5982,
  "chí yǒu ": 5983,
  "fàn zuì ": 5984,
  "iv": 5985,
  " yòng yú ": 5986,
  " shēng yú ": 5987,
  " gōng jù ": 5988,
  "shè shī ": 5989,
  " 1998 nián ": 5990,
  "tòng": 5991,
  "guì zú ": 5992,
  "bǎo shǒu ": 5993,
  "tóu piào": 5994,
  "xià xiá de yí gè ": 5995,
  " píng jūn ": 5996,
  "bǎn de ": 5997,
  "zuì duō ": 5998,
  "gài niàn": 5999,
  "Window": 6000,
  "sēng ": 6001,
  " hù ": 6002,
  "shān shì ": 6003,
  "yīng gāi ": 6004,
  " yán": 6005,
  "lái yuè ": 6006,
  "gǔ dài ": 6007,
  "ní ěr ": 6008,
  " míng dān ": 6009,
  "diàn huà ": 6010,
  "hǎi xiá ": 6011,
  "zhèn qū de ": 6012,
  "biǎo yǎn": 6013,
  "wán zhěng": 6014,
  " měi gè ": 6015,
  " de chéng jì ": 6016,
  " 1949 nián ": 6017,
  " jí rén ": 6018,
  "gǎi míng wèi ": 6019,
  "sǐ wáng": 6020,
  " zhuǎn ": 6021,
  " tián ": 6022,
  "   qí tā ": 6023,
  "suí zhù ": 6024,
  "gèng wéi ": 6025,
  "diàn nǎo ": 6026,
  "bó shì xué wèi ": 6027,
  "57": 6028,
  "yuè zhōng ": 6029,
  "mù qián": 6030,
  "néng liàng ": 6031,
  "zǎo qī": 6032,
  "ff": 6033,
  "gā ": 6034,
  "shān jī ": 6035,
  " yǐ jí": 6036,
  "35 ": 6037,
  " dé yǔ ": 6038,
  " bǐ rú ": 6039,
  " ér gāi ": 6040,
  "cháng wěi ": 6041,
  " rén mín zhèng fǔ ": 6042,
  "ik": 6043,
  "shòu de ": 6044,
  "ēn shěng ": 6045,
  "tòu guò": 6046,
  " yī zuò ": 6047,
  " xiǎng nián ": 6048,
  "wú zhèng zhuàng gǎn rǎn ": 6049,
  "66": 6050,
  "17 nián ": 6051,
  " wéi ěr": 6052,
  "2 gè ": 6053,
  "yóu jī ": 6054,
  "huó yuè ": 6055,
  "cháng wù ": 6056,
  "yāo qǐng": 6057,
  "què zhěn bìng lì ": 6058,
  "duō wèi ": 6059,
  "xué huì ": 6060,
  "ān huī ": 6061,
  "tī": 6062,
  " bù sī ": 6063,
  "shī bài ": 6064,
  " xún ": 6065,
  " 2015 nián ": 6066,
  "   2011": 6067,
  "fā shòu ": 6068,
  "dìng jū ": 6069,
  "yǐ jīng ": 6070,
  "   gāi": 6071,
  "rèn wèi ": 6072,
  "kè chéng ": 6073,
  "gē lún ": 6074,
  "kùn nán ": 6075,
  "dān de ": 6076,
  "yáng shì ": 6077,
  "lóng de ": 6078,
  " bù lì ": 6079,
  "ān nà": 6080,
  "bào zhà ": 6081,
  "tí jí ": 6082,
  " rì yú ": 6083,
  " wèi yú zhōng guó ": 6084,
  "sāi ěr wéi ": 6085,
  "huì zhōng ": 6086,
  "shōu jí ": 6087,
  "zuò chū ": 6088,
  "   1 ": 6089,
  "jù dà ": 6090,
  " xī jiē ": 6091,
  "xiāng sì ": 6092,
  "zhǔ yào de ": 6093,
  "gōng chéng ": 6094,
  " lì fǎ": 6095,
  "luán": 6096,
  " chéng rén ": 6097,
  " bìng dú ": 6098,
  "zú qiú yùn dòng yuán ": 6099,
  "lìng rén ": 6100,
  "xiě de ": 6101,
  " tóng shí gāi dì ": 6102,
  " 1999 nián ": 6103,
  " 186": 6104,
  " jī sī ": 6105,
  "bēi sī ": 6106,
  "qiáng liè ": 6107,
  "huì zhì ": 6108,
  "nán de ": 6109,
  "shěng de ": 6110,
  " hòu zhě ": 6111,
  "gh": 6112,
  "mán": 6113,
  "quān": 6114,
  "ér tóng ": 6115,
  " jī chǎng": 6116,
  " dé zhǔ ": 6117,
  " zhè zhǒng": 6118,
  "xìn yǎng ": 6119,
  "zhuī sù": 6120,
  " yuán xíng ": 6121,
  "nèi lù shěng fèn ": 6122,
  "gòu de ": 6123,
  " jí dì ": 6124,
  "liú xià ": 6125,
  "jiě sàn ": 6126,
  " zuì chū ": 6127,
  "kē xué jiā ": 6128,
  "quē fá ": 6129,
  " 2022": 6130,
  "tú xíng ": 6131,
  "guān chá ": 6132,
  "biān jiè ": 6133,
  "zhú bù ": 6134,
  "5 mǐ ": 6135,
  "ack": 6136,
  " èr shí ": 6137,
  " 2016 nián ": 6138,
  "2025 nián ": 6139,
  " dì sì": 6140,
  "jiě fàng ": 6141,
  " de dì èr ": 6142,
  "tǎo lùn": 6143,
  "yà měi ": 6144,
  " zhǔ xí ": 6145,
  "xūn zhāng ": 6146,
  "ed   ": 6147,
  "shān de ": 6148,
  " kè xī ": 6149,
  "fāng fǎ": 6150,
  "pī zhǔn": 6151,
  "lián hé huì ": 6152,
  " Z": 6153,
  "chāo yuè ": 6154,
  "fù zé": 6155,
  "lián xù": 6156,
  " wàn yuán ": 6157,
  " se": 6158,
  "hǎi píng miàn ": 6159,
  " guó nèi ": 6160,
  "zhǔ jiào": 6161,
  "tuì xiū ": 6162,
  "xià lìng shí jiān ": 6163,
  "bèi de ": 6164,
  "bú dào ": 6165,
  " zài 197": 6166,
  " lì liàng ": 6167,
  "zuì gāo de ": 6168,
  "jiǎn shǎo": 6169,
  " 25": 6170,
  " 8 ": 6171,
  " yāo qiú ": 6172,
  " shí qī de ": 6173,
  "huī fù": 6174,
  "shuāng fāng ": 6175,
  "tán pàn ": 6176,
  "hēng lì ": 6177,
  "fā shēng zài ": 6178,
  "fēi cháng": 6179,
  "IC": 6180,
  " jī huì ": 6181,
  "dǒng shì zhǎng ": 6182,
  "guò de ": 6183,
  "tí yì ": 6184,
  "pù": 6185,
  " héng ": 6186,
  "shū zhōng ": 6187,
  "2026 nián ": 6188,
  "yí dìng": 6189,
  " wén huà ": 6190,
  "jìng nèi gòng yǒu ": 6191,
  "ní yà zhōu ": 6192,
  " zhào": 6193,
  " xì ": 6194,
  " jiù shì ": 6195,
  "xù lì yà ": 6196,
  "dī yú ": 6197,
  " xué jiā ": 6198,
  "   bèi jǐng ": 6199,
  " zài shí ": 6200,
  " yī lì ": 6201,
  "tái nán": 6202,
  "AC": 6203,
  " yǐ wéi ": 6204,
  "qiǎng": 6205,
  " hé yuē ": 6206,
  " gōng zhòng ": 6207,
  "zhǔ yǎn ": 6208,
  "píng tái ": 6209,
  " ér zi ": 6210,
  "sān jiǎo": 6211,
  "16 nián ": 6212,
  "quē fá": 6213,
  " nà": 6214,
  "xiàn de ": 6215,
  "píng wèi ": 6216,
  "dāng zhōng ": 6217,
  "qīn zì ": 6218,
  " shí xíng ": 6219,
  "wá ": 6220,
  " wán jiā ": 6221,
  "   17": 6222,
  "jiā yì ": 6223,
  "suí jí ": 6224,
  " shì yīn wèi ": 6225,
  " shǔ": 6226,
  "huì yì yuán ": 6227,
  "DT ": 6228,
  "ly": 6229,
  " dǎo ": 6230,
  " xié ": 6231,
  " yǒu suǒ ": 6232,
  " xī bān yá ": 6233,
  "   dì fāng zī liào ": 6234,
  "TV": 6235,
  " jiǔ": 6236,
  " qǔ ": 6237,
  "zì de ": 6238,
  "jié de ": 6239,
  " hòu bèi ": 6240,
  "fā qǐ ": 6241,
  " yīng chǐ ": 6242,
  "78": 6243,
  "sàng": 6244,
  "lán de ": 6245,
  "ná xià ": 6246,
  " xué yuàn": 6247,
  "   jiǎn jiè ": 6248,
  "luó lǐ ": 6249,
  "nán běi ": 6250,
  "běi jīng shì ": 6251,
  " bù shǎo ": 6252,
  " tā céng dài biǎo ": 6253,
  " yuē": 6254,
  "lǐ hé ": 6255,
  "dí shì ": 6256,
  "la ": 6257,
  " chū kǒu ": 6258,
  "jiào táng": 6259,
  "duō zhǒng ": 6260,
  "pài qiǎn": 6261,
  "duò": 6262,
  "néng yuán ": 6263,
  " xiàn fǎ ": 6264,
  "kū ": 6265,
  "le zài ": 6266,
  "lái yīn ": 6267,
  "céng wèi ": 6268,
  " dì lǐ ": 6269,
  "id": 6270,
  "tái zhōng ": 6271,
  "niáng ": 6272,
  " chéng zhèn ": 6273,
  "jià shǐ ": 6274,
  " shí jì shàng ": 6275,
  "jiē chù ": 6276,
  " zhèng míng ": 6277,
  "liáo níng ": 6278,
  "mò xī gē": 6279,
  "kuì ": 6280,
  "ER": 6281,
  "dí rén ": 6282,
  "bo ": 6283,
  "gǒu ": 6284,
  "xuǎn zhōng ": 6285,
  " de xíng ": 6286,
  "jī gòu ": 6287,
  " yǐ xī ": 6288,
  "zhǐ dǎo ": 6289,
  "yīng xióng ": 6290,
  "gǎi biàn": 6291,
  " tí gōng ": 6292,
  "pài chū ": 6293,
  "fēng xiǎn ": 6294,
  " zhōng guó rén mín jiě fàng jūn ": 6295,
  "diàn nǎo": 6296,
  "rào": 6297,
  "qiǎo ": 6298,
  "AN": 6299,
  "gǎo": 6300,
  " xiǎng ": 6301,
  " kǒng ": 6302,
  "tí chū de ": 6303,
  "gàn bù ": 6304,
  "56": 6305,
  "II": 6306,
  " dì yí gè ": 6307,
  " yì qíng ": 6308,
  "zhǐ néng ": 6309,
  "hǎi bá wèi ": 6310,
  "59": 6311,
  "lěi jì ": 6312,
  " lì yì ": 6313,
  "suǒ cǎi yòng": 6314,
  " zhōng gòng zhōng yāng ": 6315,
  " sūn ": 6316,
  " 2017 nián ": 6317,
  "shāng rén ": 6318,
  "biāo běn ": 6319,
  "kāi tōng ": 6320,
  "shēn dù ": 6321,
  "xiū gǎi ": 6322,
  "měi zhōu": 6323,
  "zàn shí ": 6324,
  " dì qī ": 6325,
  " Ch": 6326,
  "32 ": 6327,
  "chuán bō ": 6328,
  " dà xué de ": 6329,
  "kēng": 6330,
  "nì": 6331,
  "kāi shè ": 6332,
  "yīng gé lán": 6333,
  " de shì jiè ": 6334,
  "táo tài ": 6335,
  "nóng mín ": 6336,
  "chuí ": 6337,
  "150": 6338,
  " zhōng guó de ": 6339,
  "guān chá": 6340,
  "qiáng diào ": 6341,
  " dé míng ": 6342,
  "   yīn ": 6343,
  "shuǐ lì ": 6344,
  " diàn yǐng ": 6345,
  "fā míng ": 6346,
  "huà zhōng ": 6347,
  "róng hé ": 6348,
  " qí wèi ": 6349,
  " zhuǎn": 6350,
  " wǎ ": 6351,
  "què de ": 6352,
  "chǎng suǒ ": 6353,
  "chāi chú ": 6354,
  "wū sī ": 6355,
  "zī běn ": 6356,
  "NB": 6357,
  "jiù dú ": 6358,
  "tuò ": 6359,
  "bàn shì chù ": 6360,
  "tūn": 6361,
  "jué shì ": 6362,
  "xiū jiàn ": 6363,
  "zhāng zhuān jí ": 6364,
  " 2018 nián ": 6365,
  "jìng jì ": 6366,
  "mo": 6367,
  "z ": 6368,
  "wén de ": 6369,
  " běi jīng": 6370,
  "ā lā bó": 6371,
  "māo ": 6372,
  "   2 ": 6373,
  "diàn jī ": 6374,
  "shāng yè": 6375,
  "jǔ bàn de ": 6376,
  "b ": 6377,
  "qī wèi ": 6378,
  "xiāo fèi ": 6379,
  "pèi zhì ": 6380,
  " jù jué ": 6381,
  "ul": 6382,
  "qū shì ": 6383,
  "wéi sī ": 6384,
  "ān pái": 6385,
  "fù zhǔ rèn ": 6386,
  "wǔ zhuāng": 6387,
  "tài dù ": 6388,
  "ké ": 6389,
  "diào kuài": 6390,
  " xiǎo": 6391,
  "qiào ": 6392,
  "suì de ": 6393,
  " zhōng shān ": 6394,
  " yǔ qí tā ": 6395,
  "jìng xuǎn ": 6396,
  "chéng hé ": 6397,
  "fú de ": 6398,
  "jiù huì ": 6399,
  "gé lā ": 6400,
  " cì nián ": 6401,
  "hòu wèi ": 6402,
  "wáng shì ": 6403,
  "zào le ": 6404,
  " wèi UTC ": 6405,
  " cn ": 6406,
  "shǒu zhōng ": 6407,
  "zī liào": 6408,
  "làng": 6409,
  "   duì ": 6410,
  "qiú jì ": 6411,
  "pe": 6412,
  "lù zhì ": 6413,
  "liù shí ": 6414,
  "kē xué yuàn ": 6415,
  "diào kuài yī xiǎo shí ": 6416,
  " bù jí ": 6417,
  " dà jiǎng ": 6418,
  "suǒ zài dì ": 6419,
  "dá ěr ": 6420,
  " bù duì": 6421,
  " jí UTC ": 6422,
  " yīn sù ": 6423,
  "zǔ zhī de ": 6424,
  " míng zhì ": 6425,
  "shè yǒu xià lìng shí jiān ": 6426,
  " de shí qū wèi UTC ": 6427,
  " ér gāi dì suǒ cǎi yòng": 6428,
  " tóng shí gāi dì shè yǒu xià lìng shí jiān ": 6429,
  " ér gāi dì suǒ cǎi yòng de shí qū wèi UTC ": 6430,
  " nǐ ": 6431,
  " gāi cūn ": 6432,
  "shuài lǐng": 6433,
  " shuō ": 6434,
  " wán ": 6435,
  " yī sī lán ": 6436,
  "69": 6437,
  "dèng ": 6438,
  " f": 6439,
  " yíng ": 6440,
  "tǐ zhì ": 6441,
  "yuán zhù ": 6442,
  " lìng yǒu ": 6443,
  " 2004 nián ": 6444,
  "luǎn ": 6445,
  " fù jìn": 6446,
  "zhī jiān de ": 6447,
  " wèi fú qí yú gāng ": 6448,
  "   jiāo tōng ": 6449,
  "mù de ": 6450,
  " hào de ": 6451,
  " lì shǐ shàng ": 6452,
  "gāo yú hǎi píng miàn ": 6453,
  " wēi": 6454,
  "   qīng ": 6455,
  "tōu ": 6456,
  "xìng wèi ": 6457,
  "cì yú ": 6458,
  "hù xiāng ": 6459,
  "zhú jiàn": 6460,
  " gōng jué ": 6461,
  " xī lán ": 6462,
  "4 gè ": 6463,
  "nd": 6464,
  " 2019 nián ": 6465,
  " shí wù ": 6466,
  "tā men de ": 6467,
  " è ": 6468,
  "shàng xiàn ": 6469,
  "tiē": 6470,
  "zhě shì ": 6471,
  "xiàng zhēng ": 6472,
  " qí xià ": 6473,
  " tóng yàng": 6474,
  " mǎ lái": 6475,
  " nu": 6476,
  "chù de hǎi bá wèi ": 6477,
  "chù de hǎi bá wèi gāo yú hǎi píng miàn ": 6478,
  "   190": 6479,
  " bù jǐn ": 6480,
  "zhǎng dá ": 6481,
  "yí dài ": 6482,
  " de yǐng xiǎng ": 6483,
  " wèi dà ": 6484,
  "ON": 6485,
  " pà": 6486,
  "fā shè": 6487,
  "zhòng shì ": 6488,
  " hé pàn ": 6489,
  " zì rán ": 6490,
  " ān": 6491,
  "ài de ": 6492,
  "diàn qì ": 6493,
  "qiān shǔ ": 6494,
  " chá ": 6495,
  "zhù yǒu ": 6496,
  "kě zài ": 6497,
  "wéi ěr ": 6498,
  "nán jīng": 6499,
  "bì yè hòu ": 6500,
  "fā xiàn de ": 6501,
  " zhī yì ": 6502,
  " qí shí ": 6503,
  "xiào qū ": 6504,
  "88": 6505,
  " róng ": 6506,
  "   mǎ ": 6507,
  " ěr duō ": 6508,
  "...": 6509,
  "nèi dì ": 6510,
  "èr jí ": 6511,
  "shān fēng ": 6512,
  "rèn de ": 6513,
  "luò chéng ": 6514,
  "shí qū ": 6515,
  "jiàn chéng ": 6516,
  "píng yuán ": 6517,
  "gēng xīn ": 6518,
  "jīng cháng": 6519,
  "zhí zhèng ": 6520,
  "yùn shū": 6521,
  "yùn yòng ": 6522,
  " miàn ": 6523,
  " yī jiā ": 6524,
  " ér tóng ": 6525,
  "jīn róng ": 6526,
  "   the   ": 6527,
  "   rán": 6528,
  "gé shì ": 6529,
  "děng jí ": 6530,
  "26 ": 6531,
  " lì rèn ": 6532,
  "yán sè ": 6533,
  " wèi yú gāi ": 6534,
  " yīng": 6535,
  "hòu yì ": 6536,
  "bàng qiú ": 6537,
  " yú lè": 6538,
  "rú guǒ ": 6539,
  " zuò chū ": 6540,
  " suí zhù ": 6541,
  " xué zhě ": 6542,
  "bǎo liú": 6543,
  "xiá qū ": 6544,
  "   běn": 6545,
  "bāo wéi ": 6546,
  "shōu gòu ": 6547,
  "chóng qìng": 6548,
  " 1997 nián ": 6549,
  "igh": 6550,
  "xué yuán ": 6551,
  "shù shí ": 6552,
  " bù néng": 6553,
  "dōng fāng ": 6554,
  "cuò wù ": 6555,
  "79": 6556,
  "mǎ kè ": 6557,
  "o   ": 6558,
  " táo ": 6559,
  " rán ér": 6560,
  "xìn yǎng": 6561,
  "miǎn diān": 6562,
  "as   ": 6563,
  "jì niàn": 6564,
  "zhù zhái ": 6565,
  "zhí mín ": 6566,
  "zhèn qū de miàn jī wèi ": 6567,
  "nèn": 6568,
  "shǐ jiàn yú ": 6569,
  " shēng yá ": 6570,
  "fū kǎ ": 6571,
  " de xī ": 6572,
  " duì shǒu ": 6573,
  " xíng zhèng qū ": 6574,
  "wēng ": 6575,
  " liù ": 6576,
  "bō sī ": 6577,
  "gāo xióng": 6578,
  " zhōu cì shǐ ": 6579,
  "hǎi yáng ": 6580,
  "zé zài ": 6581,
  "45 ": 6582,
  " yuán zì ": 6583,
  "zào chéng de ": 6584,
  " jié kè ": 6585,
  "   qí": 6586,
  "dāng dì de ": 6587,
  " tā yǐ ": 6588,
  "zhǔ zhāng ": 6589,
  " Y": 6590,
  "jiā yǐ ": 6591,
  "èr rén ": 6592,
  "biān yuán ": 6593,
  "jú de ": 6594,
  " qí zhōng bāo kuò ": 6595,
  "sǎo ": 6596,
  "ào zhōu ": 6597,
  "gōng gòng ": 6598,
  " de bù fèn ": 6599,
  "IS": 6600,
  "jì yǒu ": 6601,
  "miàn shàng ": 6602,
  "zhí wù": 6603,
  "liǎng cì ": 6604,
  " mián": 6605,
  " yī jù ": 6606,
  " lǐ xī ": 6607,
  "qì chē": 6608,
  "jìng zhēng ": 6609,
  "xiāo shī ": 6610,
  "tián jìng ": 6611,
  "tū rán ": 6612,
  "píng lùn": 6613,
  "tè dìng ": 6614,
  "gǎi zào ": 6615,
  " 1994 nián ": 6616,
  "400": 6617,
  "duì qí ": 6618,
  "shī gōng ": 6619,
  "tation": 6620,
  " zài 196": 6621,
  "yì shù ": 6622,
  "lìng yí gè ": 6623,
  "jiàng lǐng ": 6624,
  "xuān chuán": 6625,
  " réng": 6626,
  "cái néng ": 6627,
  "nī": 6628,
  "jùn gōng ": 6629,
  " dé zhī ": 6630,
  " jī jīn huì ": 6631,
  "lí kāi": 6632,
  "xiào lì yú ": 6633,
  "hūn yīn ": 6634,
  "guó jiā": 6635,
  " 1992 nián ": 6636,
  "Tub": 6637,
  " lǚ ": 6638,
  "zhàn shí ": 6639,
  " wèi duì ": 6640,
  " jí dà ": 6641,
  "im": 6642,
  "ot": 6643,
  " méi": 6644,
  " sūn": 6645,
  "dà bù ": 6646,
  "liǎng guó ": 6647,
  " zhì liàng ": 6648,
  "bèi jǐng ": 6649,
  " lǐ yà ": 6650,
  "yán hǎi ": 6651,
  "kǎ luó ": 6652,
  "wěi yuán huì wěi yuán ": 6653,
  "guān jiàn ": 6654,
  "xǐng ": 6655,
  "shū yuàn ": 6656,
  "ài ěr lán ": 6657,
  "zhí mín dì ": 6658,
  "bàn de ": 6659,
  "ea": 6660,
  " 2 yuè ": 6661,
  "   shèng ": 6662,
  "   jǐn ": 6663,
  "jìn bù ": 6664,
  " co": 6665,
  "quán qiú": 6666,
  " dì qiú": 6667,
  " dāng shí de ": 6668,
  "chái ": 6669,
  "pp": 6670,
  " pà ": 6671,
  "jiào dà ": 6672,
  "diǎn shì ": 6673,
  "pèi yīn ": 6674,
  " shí duàn ": 6675,
  " zhì zuò de ": 6676,
  "jīng shén": 6677,
  "píng de ": 6678,
  "liǎng wèi ": 6679,
  " zhēng ": 6680,
  "sān míng ": 6681,
  " qí de ": 6682,
  "ā lā bó ": 6683,
  " bǎ": 6684,
  "běi shì ": 6685,
  "tuī chū": 6686,
  "zhèng jù ": 6687,
  "xīn chéng ": 6688,
  " xiàn yǐ ": 6689,
  " jiàn shè": 6690,
  " 1996 nián ": 6691,
  "   nán ": 6692,
  "duǒ": 6693,
  "al   ": 6694,
  "kào jìn ": 6695,
  "hù lián ": 6696,
  "mǎn zú ": 6697,
  " lǔ ": 6698,
  "dà lù": 6699,
  " sī kè": 6700,
  "chuán tǒng de ": 6701,
  " yì yú ": 6702,
  "cè liáng ": 6703,
  " luó mǎ ": 6704,
  " zhèng zhì ": 6705,
  " xiè ": 6706,
  "ch ": 6707,
  "zuì chū": 6708,
  " dì diǎn ": 6709,
  "huì zhǎng ": 6710,
  "cháng dù ": 6711,
  "zāi péi ": 6712,
  " 2023": 6713,
  " 2002 nián ": 6714,
  " hé dào ": 6715,
  "AP": 6716,
  "lā jī ": 6717,
  " bù bīng ": 6718,
  " lì shí ": 6719,
  "zì mǔ ": 6720,
  " jù lí": 6721,
  "bō lí ": 6722,
  "tíng chē ": 6723,
  " shān dōng ": 6724,
  "1 gè ": 6725,
  "ba ": 6726,
  "zhèn de ": 6727,
  "bō shì ": 6728,
  "xiū fù ": 6729,
  "xiāng guān de ": 6730,
  " bìng yóu ": 6731,
  "shān qū ": 6732,
  " 24": 6733,
  " shì yī bù ": 6734,
  " dé sī ": 6735,
  "cūn luò ": 6736,
  "zú qiú jù lè bù ": 6737,
  "nèi zhàn ": 6738,
  "shēng yá": 6739,
  " guó wù yuàn ": 6740,
  "77": 6741,
  "lǐ chéng ": 6742,
  "qǐ yuán ": 6743,
  "duì zhǎng ": 6744,
  "shǒu xiàng ": 6745,
  "jū zhù zài ": 6746,
  " bù bù zhǎng ": 6747,
  "shī rén ": 6748,
  " dì tiě": 6749,
  "jiē duàn": 6750,
  "bìng bù ": 6751,
  "lián de ": 6752,
  " dì dài ": 6753,
  " dān": 6754,
  "zuǐ": 6755,
  " shì dé guó ": 6756,
  "tiān tǐ ": 6757,
  "wěi fù ": 6758,
  " dà lóu": 6759,
  " wéi chí": 6760,
  " yù shǐ ": 6761,
  " tāng ": 6762,
  " 2021 nián ": 6763,
  "33 ": 6764,
  " yǐ wài ": 6765,
  " wéi sī ": 6766,
  "fèn zǐ": 6767,
  "tuán tǐ": 6768,
  "   dì èr ": 6769,
  " 23": 6770,
  "fù hé ": 6771,
  "quán xiàn ": 6772,
  "dōu bèi ": 6773,
  " yǔ yán": 6774,
  "fā qǐ": 6775,
  "suǒ wèi ": 6776,
  "27 ": 6777,
  " chéng kè ": 6778,
  " zhōu fǔ ": 6779,
  "jiāo liú": 6780,
  "xìng hé ": 6781,
  "gǔn ": 6782,
  "láng zhōng ": 6783,
  " xíng mù ": 6784,
  "diàn shì tái": 6785,
  "zhí yè shēng yá ": 6786,
  "wú zhèng zhuàng gǎn rǎn zhě ": 6787,
  " luó": 6788,
  "fú lì ": 6789,
  "bǎi nián ": 6790,
  "jiān dū ": 6791,
  "luò fá": 6792,
  "YouTub": 6793,
  " zhì dì ": 6794,
  "pú táo yá ": 6795,
  "jī zài ": 6796,
  "chuī ": 6797,
  "fū de ": 6798,
  " yǔ yī ": 6799,
  " 1993 nián ": 6800,
  "miǎn fèi ": 6801,
  " liù": 6802,
  "liàng wèi ": 6803,
  "děng děng ": 6804,
  "xiě zuò ": 6805,
  "mèng jiā ": 6806,
  "tè xìng ": 6807,
  "shī qù": 6808,
  " 100": 6809,
  "mǔ de ": 6810,
  "jiǎ dì ": 6811,
  " wèi yú měi guó ": 6812,
  " táng": 6813,
  "wù shì ": 6814,
  " xū ": 6815,
  "ǒu xiàng ": 6816,
  " xiàn jí ": 6817,
  "líng chén ": 6818,
  "xī hé ": 6819,
  "biǎn": 6820,
  " 2000 nián ": 6821,
  "zhè shì ": 6822,
  "zōng yì ": 6823,
  " yī yuàn": 6824,
  " lǐ kè ": 6825,
  "dōng běi": 6826,
  "kōng qì ": 6827,
  " wú fǎ ": 6828,
  "   10": 6829,
  "   gè rén ": 6830,
  "50 nián ": 6831,
  "tòu lù ": 6832,
  "zhuàn de ": 6833,
  " zuì jiā ": 6834,
  "cǎn ": 6835,
  " kù ": 6836,
  "kǎo shì ": 6837,
  "kuà ": 6838,
  "yìn ní ": 6839,
  "zǒng rén kǒu ": 6840,
  "zhuān yè": 6841,
  " fú wù ": 6842,
  "zhǔ yì zhě ": 6843,
  " 2008": 6844,
  "sū gé lán ": 6845,
  "dǎn ": 6846,
  " fā xiàn ": 6847,
  "nà de ": 6848,
  "zuò wéi": 6849,
  "guò dù ": 6850,
  "   Pro": 6851,
  "qī shí ": 6852,
  "our": 6853,
  " jī chǔ": 6854,
  "fā dòng jī ": 6855,
  "fǎn huí": 6856,
  " 1945 nián ": 6857,
  " sī lìng bù ": 6858,
  " 2009": 6859,
  "wǔ shì ": 6860,
  "gǔ lì ": 6861,
  "ào mén": 6862,
  " fú jiàn ": 6863,
  "   2008": 6864,
  "ark": 6865,
  "si ": 6866,
  "jiān rèn ": 6867,
  "shào nǚ ": 6868,
  " pò ": 6869,
  " dì liù ": 6870,
  " xiàn chéng ": 6871,
  "guǎng chǎng": 6872,
  "guǎn lǐ jú ": 6873,
  "tāi ": 6874,
  "   rén ": 6875,
  "xī dì ": 6876,
  "zǒu xiàng ": 6877,
  " zài hé ": 6878,
  " nuò ": 6879,
  " yuán běn": 6880,
  " zuò zhàn ": 6881,
  "chē duì ": 6882,
  "sì de ": 6883,
  "te ": 6884,
  "jiān yù ": 6885,
  " ér fēi ": 6886,
  "zèng": 6887,
  " lián hé ": 6888,
  "guó shì ": 6889,
  "jiù yuán ": 6890,
  "hù bù ": 6891,
  "wǎ ěr shěng ": 6892,
  " chū dào ": 6893,
  "shǐ shàng ": 6894,
  " nián 1 yuè 1 rì ": 6895,
  "shōu dào ": 6896,
  "mài kè ": 6897,
  "gǎi shàn ": 6898,
  "ss": 6899,
  " dài": 6900,
  "jiāng yú ": 6901,
  "guǎn zhì ": 6902,
  "huí yì ": 6903,
  "huài ": 6904,
  " gōng lǐ de ": 6905,
  "xún zhǎo": 6906,
  "yán zhì ": 6907,
  "tiān hòu ": 6908,
  "zhōng yāng ": 6909,
  " ěr shì ": 6910,
  "76": 6911,
  "shǐ rén ": 6912,
  "yán rén ": 6913,
  "guò le ": 6914,
  "xiǎn zhù ": 6915,
  " wèi yuán ": 6916,
  "guó wù ": 6917,
  "chē xiāng ": 6918,
  "wàng yuǎn ": 6919,
  "hōng zhà": 6920,
  " shí yàn shì ": 6921,
  "   dāng ": 6922,
  "dù hé ": 6923,
  "xiū dào ": 6924,
  "re ": 6925,
  "cù jìn ": 6926,
  " yì jiàn ": 6927,
  " dà gōng ": 6928,
  "gé lí ": 6929,
  " qián wǎng ": 6930,
  "chōng tū": 6931,
  "   The": 6932,
  "kǎn": 6933,
  " yòng": 6934,
  " zá zhì ": 6935,
  "bèi chēng wéi ": 6936,
  "dōng jīng": 6937,
  " dòng ": 6938,
  "zhái": 6939,
  "jiā tíng ": 6940,
  "bēng ": 6941,
  " yí gè": 6942,
  "   yuè ": 6943,
  " dì fāng": 6944,
  " fù jìn de ": 6945,
  "luò shān jī ": 6946,
  "yǐn yòng ": 6947,
  "fèi chú ": 6948,
  "98": 6949,
  " yì shì ": 6950,
  "   chū ": 6951,
  "ào ěr ": 6952,
  "zhuā ": 6953,
  " jí shǐ ": 6954,
  "hěn kuài ": 6955,
  "man": 6956,
  " sài ": 6957,
  "bì de ": 6958,
  "jiǎo dù ": 6959,
  "zuǒ yì ": 6960,
  " chéng běn ": 6961,
  "ng   ": 6962,
  "dì hé ": 6963,
  " dì tú ": 6964,
  " xíng dòng": 6965,
  "wō": 6966,
  "wéi zhǔ ": 6967,
  "lián jiē": 6968,
  " bīng ": 6969,
  "xiāng shì ": 6970,
  "yuàn yì ": 6971,
  " yuè duì ": 6972,
  " jūn qū ": 6973,
  "kōng jiān": 6974,
  " néng ": 6975,
  "   16": 6976,
  "shè bèi ": 6977,
  " dàn bái ": 6978,
  " 00": 6979,
  " xiān": 6980,
  "yú hé ": 6981,
  "shān xiàn ": 6982,
  "zǔ de ": 6983,
  "fàng zài ": 6984,
  "biān hào wèi ": 6985,
  " jiǎ": 6986,
  " yún ": 6987,
  "   sī ": 6988,
  "jī chǔ": 6989,
  "tái běi shì ": 6990,
  "mò sī kē ": 6991,
  "54": 6992,
  "zéi": 6993,
  "dǎo shàng ": 6994,
  " kè ěr ": 6995,
  "shàng bù ": 6996,
  "cǐ tóng shí ": 6997,
  "cí zhí ": 6998,
  "kāi gōng ": 6999,
  "tōng zhī ": 7000,
  "xǐ huān ": 7001,
  " gē": 7002,
  "   zhèng ": 7003,
  "jiǔ de ": 7004,
  " zhī shì ": 7005,
  "liè rù ": 7006,
  "wài jiāo bù ": 7007,
  "jiā zài ": 7008,
  "yǐng shì ": 7009,
  "huàn zhě ": 7010,
  "cū ": 7011,
  " qīn ": 7012,
  "jǐn yǒu ": 7013,
  "cān xuǎn ": 7014,
  "é luó sī de ": 7015,
  "bì miǎn": 7016,
  " B ": 7017,
  "u ": 7018,
  " lái": 7019,
  " 1995 nián ": 7020,
  "zhèng fǔ de ": 7021,
  "200 ": 7022,
  " kǎ": 7023,
  " cān yù ": 7024,
  "   2009": 7025,
  "zhēng yuè ": 7026,
  "th ": 7027,
  "tì dài ": 7028,
  "cǎi fǎng": 7029,
  "chù zhǎng ": 7030,
  "00 mǐ": 7031,
  " 29": 7032,
  "qiáng zhì ": 7033,
  "liú yù ": 7034,
  "95": 7035,
  "dāng nián ": 7036,
  " wèi zài ": 7037,
  "bì miǎn ": 7038,
  "tí chū le ": 7039,
  "xué zhōng ": 7040,
  "fù shì ": 7041,
  " gè guó ": 7042,
  " hào xiàn": 7043,
  "jǐng gào ": 7044,
  "chuàng zuò de ": 7045,
  "   bā ": 7046,
  "shān dì ": 7047,
  "lǐ lùn": 7048,
  " dé lā ": 7049,
  "qiǎo": 7050,
  "fēng fù ": 7051,
  "cí de ": 7052,
  " yǐ zài ": 7053,
  "zhǔ tí": 7054,
  "zhǎng guān ": 7055,
  " fēn bié ": 7056,
  " diàn yǐng": 7057,
  " 12 ": 7058,
  " kǎi ": 7059,
  "   gù shì ": 7060,
  "sī shì ": 7061,
  " sī mǎ ": 7062,
  "zōng jiào": 7063,
  "jīng diǎn ": 7064,
  "qī zǐ": 7065,
  "hǎi àn": 7066,
  "gǔ lǎo": 7067,
  "bó lín ": 7068,
  "bù de cūn zhuāng ": 7069,
  "   yǐ xià": 7070,
  "sāo ": 7071,
  "zàn zhù ": 7072,
  "pù ": 7073,
  "kǒu de ": 7074,
  "jì suàn": 7075,
  "ā gēn ": 7076,
  "yǐn rù ": 7077,
  " 1985 nián ": 7078,
  "liǎo jiě ": 7079,
  " yuè lái yuè ": 7080,
  "pǔ biàn": 7081,
  "qiáng dù ": 7082,
  "   wéi ": 7083,
  "sū wéi ": 7084,
  "jiàng yǔ ": 7085,
  " zài 194": 7086,
  " gōng yìng ": 7087,
  "ān zhuāng ": 7088,
  "cǎi qǔ": 7089,
  "tǐ yù chǎng ": 7090,
  "zhóu ": 7091,
  "guǎn de ": 7092,
  " zhī dì ": 7093,
  "guān fāng": 7094,
  "shī qù ": 7095,
  "xiǎo xíng xīng": 7096,
  "sti": 7097,
  "qiáng de ": 7098,
  "yǔn shí ": 7099,
  " rén dà ": 7100,
  "fā shēng de ": 7101,
  "zòng": 7102,
  " fèng ": 7103,
  " suō ": 7104,
  "   fù ": 7105,
  "céng de ": 7106,
  "guàn jūn": 7107,
  "all": 7108,
  " shí hòu ": 7109,
  " zhī jiā ": 7110,
  "mǎ lái xī yà": 7111,
  "xià zài ": 7112,
  " gè zhǒng": 7113,
  " kè hé ": 7114,
  " 1990 nián ": 7115,
  " jué dìng ": 7116,
  "suǒ yǒu de ": 7117,
  "tóng xìng ": 7118,
  " Q": 7119,
  "zǎo shàng ": 7120,
  " yóu jī ": 7121,
  " fù zé guǎn xiá ": 7122,
  "zhàn tái ": 7123,
  "shǒu dū": 7124,
  "zhǎn lǎn ": 7125,
  " hōng ": 7126,
  "biān wèi ": 7128,
  "hū yù ": 7129,
  " xiàn shàng ": 7130,
  "zhào piān ": 7131,
  "xuǎn jǔ zhōng ": 7132,
  " bǎo": 7133,
  "liè chū ": 7134,
  "fēi xíng": 7135,
  " yī zhí ": 7136,
  "dī qì ": 7137,
  "   zēng zǔ ": 7138,
  " shǒu": 7139,
  "tuǒ": 7140,
  " yǔ qí ": 7141,
  "BC": 7142,
  "BS": 7143,
  " dìng ": 7144,
  "   8": 7145,
  "guǎng zhōu": 7146,
  "mò ěr ": 7147,
  "shén me": 7148,
  "huí guī ": 7149,
  "yín pái ": 7150,
  " yí": 7151,
  " shā": 7152,
  "sān dà ": 7153,
  "lā dé ": 7154,
  "shū chū ": 7155,
  " chéng xiàn": 7156,
  "tài kōng ": 7157,
  "cái liào": 7158,
  "lā de ": 7159,
  "lán xī ": 7160,
  "míng dān ": 7161,
  "shēn qǐng": 7162,
  " 2007": 7163,
  "guó wáng ": 7164,
  " ér gāi dì de ": 7165,
  " xiè": 7166,
  "shì   ": 7167,
  "dùn de ": 7168,
  " chū yǎn ": 7169,
  " 1991 nián ": 7170,
  " gēn ": 7171,
  "zhì 199": 7172,
  " yǒu xiē": 7173,
  "gǔ lā ": 7174,
  " 9 ": 7175,
  "qián hòu ": 7176,
  " shì bīng ": 7177,
  " hé gǔ ": 7178,
  "zǎo qī de ": 7179,
  "tòng ": 7180,
  "hé zài ": 7181,
  "tiv": 7182,
  "sān rén ": 7183,
  " jì lù": 7184,
  " zhǔ yǎn ": 7185,
  "mer": 7186,
  "àn shì ": 7187,
  "duō cì": 7188,
  " yǐ sè liè ": 7189,
  "duì yuán ": 7190,
  "qiú huì ": 7191,
  "bàn nián ": 7192,
  " bù mǎn ": 7193,
  " jì yì ": 7194,
  " duì cǐ ": 7195,
  "sēn lín": 7196,
  "od": 7197,
  " 50": 7198,
  "shí hé ": 7199,
  "zhī shí ": 7200,
  "zhuō": 7201,
  "zāo yù ": 7202,
  "bó jué ": 7203,
  "qīn wáng ": 7204,
  " tiě ": 7205,
  " bù shǎo": 7206,
  " shí bào ": 7207,
  " chéng le ": 7208,
  " yǐ qián ": 7209,
  " kè lì ": 7210,
  "xià jiàng ": 7211,
  "jìng nèi": 7212,
  "xīng qī": 7213,
  "jiàn zhù": 7214,
  "mín zhǔ dǎng": 7215,
  "42": 7216,
  "zhà dàn ": 7217,
  "pǒ": 7218,
  "tè lì ": 7219,
  "dìng yú ": 7220,
  "lián rèn ": 7221,
  "zhǐ kòng ": 7222,
  "shān dōng shěng ": 7223,
  "ich": 7224,
  " zhòng": 7225,
  " 2003 nián ": 7226,
  "tú de ": 7227,
  "yōu xiù": 7228,
  " zhāo hé ": 7229,
  "ry": 7230,
  " kǎi": 7231,
  " jué ": 7232,
  "bǎo de ": 7233,
  " bèi ěr": 7234,
  "xià lái ": 7235,
  "   gài yào ": 7236,
  "qú": 7237,
  "shèng chū ": 7238,
  "shòu quán ": 7239,
  " jiào yù ": 7240,
  "zàn tíng ": 7241,
  "80 ": 7242,
  " wèi néng": 7243,
  " jūn dì ": 7244,
  "fēn de ": 7245,
  "sān gè": 7246,
  " 1950 nián ": 7247,
  "53": 7248,
  "wǎng shàng ": 7249,
  "tǎ ěr ": 7250,
  " dì zhèn ": 7251,
  "běi fāng ": 7252,
  "pǔ chá ": 7253,
  "yán jiū shēng ": 7254,
  "nù ": 7255,
  " de jù ": 7256,
  "lǐng dǎo de ": 7257,
  "mǒu xiē": 7258,
  "43": 7259,
  "tè ěr ": 7260,
  " xiàn yǒu ": 7261,
  " 1988 nián ": 7262,
  " xuǎn ": 7263,
  " sù ": 7264,
  "hǎo píng ": 7265,
  " zhōng jiān ": 7266,
  " shè yú ": 7267,
  " shēng míng ": 7268,
  "cān shù ": 7269,
  "shè huì": 7270,
  " shí xiàn": 7271,
  "chǎng bǐ sài ": 7272,
  " kǎo ": 7273,
  "ard": 7274,
  " jí bìng ": 7275,
  " quán zhǎng ": 7276,
  " suì de ": 7277,
  "aw": 7278,
  "dèng": 7279,
  "tóng míng ": 7280,
  "tè yǒu ": 7281,
  "ent": 7282,
  "pīn ": 7283,
  "qīng cháo ": 7284,
  "lǜ sè ": 7285,
  "yóu xíng ": 7286,
  " xíng bù ": 7287,
  "wén zhōng ": 7288,
  "dá zhōu ": 7289,
  "pèi bèi ": 7290,
  " gōng néng": 7291,
  "gǎi zhì wèi ": 7292,
  " r": 7293,
  " fǎ": 7294,
  "   dì yī ": 7295,
  "gǔn": 7296,
  "gǎng yuán ": 7297,
  " xīn zēng ": 7298,
  "fèi yán ": 7299,
  "ee": 7300,
  "kǔ": 7301,
  "mp": 7302,
  "chǒu": 7303,
  "qíng de ": 7304,
  "cān tīng ": 7305,
  "fáng wū ": 7306,
  "fěn sī ": 7307,
  " píng lùn ": 7308,
  "xíng tài ": 7309,
  " zhǐ zài ": 7310,
  " 20 ": 7311,
  "fāng mǐ ": 7312,
  "yǐng xiàng ": 7313,
  "huáng sè ": 7314,
  "tuī guǎng ": 7315,
  " xián ": 7316,
  " guǎng dōng ": 7317,
  "wǔ gè ": 7318,
  "xù lì yà": 7319,
  "mì de ": 7320,
  "cún de ": 7321,
  " wéi rào ": 7322,
  "tiān rán ": 7323,
  "ruì diǎn ": 7324,
  "shēn shì ": 7325,
  "dà qū ": 7326,
  "shěng jiē rǎng ": 7327,
  "qīng shào nián ": 7328,
  "lù yì sī ": 7329,
  "ani": 7330,
  "   2019 nián ": 7331,
  "sì shì ": 7332,
  "hái zài ": 7333,
  " zhì yí ": 7334,
  " jiā tíng": 7335,
  " shǒu cì ": 7336,
  " 2022 nián ": 7337,
  " xiān hòu ": 7338,
  "tài de ": 7339,
  " xī ěr ": 7340,
  " 15 ": 7341,
  "   6": 7342,
  "zhě hé ": 7343,
  "188": 7344,
  " jìn zhǐ ": 7345,
  "fèi yòng ": 7346,
  "   k": 7347,
  "bǎo luó ": 7348,
  "chū qī ": 7349,
  "W ": 7350,
  "   0": 7351,
  " bèi pò ": 7352,
  "zhǎng zǐ ": 7353,
  "xìng néng ": 7354,
  " wēi lián ": 7355,
  "wáng wèi ": 7356,
  " zài xīn ": 7357,
  "jìng zhēng": 7358,
  " jiāng sū ": 7359,
  " shè huì zhǔ yì ": 7360,
  " mì ": 7361,
  "   jīn ": 7362,
  "sān jí ": 7363,
  "zhě huì ": 7364,
  "luò sī ": 7365,
  " yuán yīn": 7366,
  "xiāo liàng ": 7367,
  " shì yī kē ": 7368,
  "gù dìng ": 7369,
  "chuàng zào ": 7370,
  " mài kè ": 7371,
  " zài yì qǐ ": 7372,
  " nǐ": 7373,
  " chōng ": 7374,
  "huí guó ": 7375,
  "chèn": 7376,
  "xī nán ": 7377,
  "mǎ lā ": 7378,
  "gǎn lǎn": 7379,
  "wú xiàn diàn shì ": 7380,
  " shén": 7381,
  " bǎ ": 7382,
  "mǎ kè sī ": 7383,
  " de zhǔ yào ": 7384,
  " jì zǎi": 7385,
  "xiāng tóng de ": 7386,
  "cè liáng": 7387,
  " 185": 7388,
  "fēn chéng ": 7389,
  "yìng jí ": 7390,
  " bù lái ": 7391,
  " dì zhì ": 7392,
  " sī kē ": 7393,
  "zhē ": 7394,
  "xīn shì ": 7395,
  "lā hé ": 7396,
  "48 ": 7397,
  " de huà ": 7398,
  " jí hòu ": 7399,
  " gōng qǐng ": 7400,
  "xiāng bǐ ": 7401,
  "dù shǐ ": 7402,
  " zuì dà ": 7403,
  " shì jiè bēi ": 7404,
  "chǎn shēng le ": 7405,
  " dīng ": 7406,
  " shí xìng ": 7407,
  "tè diǎn ": 7408,
  " guó jiā duì ": 7409,
  "tiě lù chē zhàn ": 7410,
  "duǒ ": 7411,
  "cóng wèi ": 7412,
  "wán zhěng ": 7413,
  " shuāng fāng ": 7414,
  " tài": 7415,
  " nián líng ": 7416,
  "xīn wén": 7417,
  "fēn pèi ": 7418,
  " zhè yàng ": 7419,
  "74": 7420,
  " wài": 7421,
  "tuī jiàn ": 7422,
  "fú luó lǐ ": 7423,
  "nóng cūn ": 7424,
  "96": 7425,
  "kòu ": 7426,
  "lǐ bù ": 7427,
  "děng de ": 7428,
  "lèi xíng de ": 7429,
  " tā céng ": 7430,
  "CO": 7431,
  " hú nán ": 7433,
  "jí bù ": 7434,
  "zi hé ": 7435,
  " zài tā de ": 7436,
  "gāo dá ": 7437,
  "xié dìng ": 7438,
  " shì zhōng huá rén mín gòng hé guó ": 7439,
  "yǐng xiǎng lì ": 7440,
  "bēn ": 7441,
  "chōng jī ": 7442,
  "tè lā ": 7443,
  "qì xuán ": 7444,
  "zhàng fū ": 7445,
  "1000": 7446,
  " gōng gòng": 7447,
  "tè zhēng": 7448,
  "lián jié ": 7449,
  " zì yóu": 7450,
  " 1989 nián ": 7451,
  "   jiā tíng ": 7452,
  " X": 7453,
  " cài": 7454,
  "àn zhōng ": 7455,
  "xiā ": 7456,
  "dòng huà": 7457,
  "zhuǎn yí": 7458,
  "gèng duō de ": 7459,
  " de zuò biāo wèi ": 7460,
  "tā zài ": 7461,
  "nà dé ": 7462,
  "shā sǐ ": 7463,
  " S ": 7464,
  "féi ": 7465,
  "shēng zhì ": 7466,
  " shì huì ": 7467,
  " yī rén ": 7468,
  " section": 7469,
  "duō míng ": 7470,
  " dào hé ": 7471,
  "zhuān mén ": 7472,
  " céng rèn": 7473,
  " 40": 7474,
  "xué bù ": 7475,
  "lǜ de ": 7476,
  " dào yī ": 7477,
  "fù jìn": 7478,
  "fāng xiàng": 7479,
  " tóng pái ": 7480,
  " 11 ": 7481,
  "   shǐ yòng ": 7482,
  "huì yú ": 7483,
  "sì dà ": 7484,
  "xuǎn chū ": 7485,
  " nián qīng ": 7486,
  " yú lèi ": 7487,
  " tóng yàng ": 7488,
  "xì liè de ": 7489,
  " mén ": 7490,
  "yī xiē ": 7491,
  "shēng jī ": 7492,
  " shěn ": 7493,
  "   5": 7494,
  "yì bù ": 7495,
  "quán shì ": 7496,
  " shì jì de ": 7497,
  " zài tā ": 7498,
  " shí zhì ": 7499,
  " sī tǎ ": 7500,
  " jiā zú": 7501,
  "mù ní ": 7502,
  "chē liàng": 7503,
  "sè fū ": 7504,
  " 1983 nián ": 7505,
  "bān de ": 7506,
  "réng zài ": 7507,
  "31 ": 7508,
  "et ": 7509,
  "guān cè ": 7510,
  "nüè": 7511,
  "zuì wèi ": 7512,
  "guó huì ": 7513,
  " tā rèn wéi ": 7514,
  "měi guó rén ": 7515,
  " yǒng": 7516,
  " xǔ duō": 7517,
  "jiā gōng ": 7518,
  "hǎi shàng ": 7519,
  "zǒng huì ": 7520,
  "sǐ xíng ": 7521,
  "qìng zhù ": 7522,
  " yǒu dà ": 7523,
  "fù jìn de ": 7524,
  "qǔ xiāo": 7525,
  "   gēn jù 2020 nián měi guó rén kǒu pǔ chá de shù jù ": 7526,
  "bìng wèi ": 7527,
  "guó lì ": 7528,
  "jiē rèn ": 7529,
  "zēng jiā le ": 7530,
  " chú": 7532,
  " dǎng ": 7533,
  "jīng jì": 7534,
  "jiāng tā ": 7535,
  "fú lǐ ": 7536,
  "wǔ yuè ": 7537,
  "huí hé ": 7538,
  "sǐ yú ": 7539,
  "lǎo shī ": 7540,
  " yī zhì ": 7541,
  " chū fā ": 7542,
  "bān jiǎng ": 7543,
  "jiǎng shù ": 7544,
  "qiān yuē ": 7545,
  "shàng hǎi shì ": 7546,
  "xiāng jì ": 7547,
  "cǐ shí ": 7548,
  "qiè ěr ": 7549,
  " yǒu zhù ": 7550,
  " yī cí ": 7551,
  "shǒu bō ": 7552,
  " bìng rù ": 7553,
  " sòng": 7554,
  "wù hé ": 7555,
  "xìng shì ": 7556,
  "fáng wèi ": 7557,
  " bù yī ": 7558,
  "zhèng xié ": 7559,
  " In": 7560,
  "kǔ ": 7561,
  " qín ": 7562,
  " bāo hán ": 7563,
  "shàng yī ": 7564,
  "dān yuán ": 7565,
  " shì yóu": 7566,
  " lì shǔ ": 7567,
  " dà dào": 7568,
  "qún dǎo": 7569,
  "dēng cháng ": 7570,
  "cān móu zhǎng ": 7571,
  "   3 ": 7572,
  "guò yú ": 7573,
  "duì shǒu ": 7574,
  " de jì lù ": 7575,
  "kuò zhǎn": 7576,
  " kě néng ": 7577,
  " máo ": 7578,
  "fù jiā ": 7579,
  "bā ěr ": 7580,
  "piàn de ": 7581,
  " lì zi ": 7582,
  "dài lái ": 7583,
  "shān mài ": 7584,
  "zhào kāi": 7585,
  "hēng ": 7586,
  " sài jì ": 7587,
  "chī": 7588,
  " jí xíng zhèng ": 7589,
  " jiàn kāng ": 7590,
  "zhí yè": 7591,
  "gǎi gé": 7592,
  "shuāng dǎ ": 7593,
  " sì chuān ": 7594,
  "lèi sì de ": 7595,
  "2 mǐ ": 7596,
  "34 ": 7597,
  " 2006": 7598,
  "zhàn lǐng": 7599,
  "yě kě yǐ ": 7600,
  "yīng gāi": 7601,
  " ā lā ": 7602,
  " 000 rén ": 7603,
  "lái zì yú ": 7604,
  "   12": 7605,
  "měi jūn ": 7606,
  "zhí zhì ": 7607,
  " yǐ zhì ": 7608,
  "hǎi bá gāo ": 7609,
  " dèng ": 7610,
  "120": 7611,
  "oli": 7612,
  "   dàn": 7613,
  "qì hé ": 7614,
  "zhǔ xí": 7615,
  "nà cuì": 7616,
  "cún zài de ": 7617,
  "97": 7618,
  "jǐ nián ": 7619,
  "zhuàng jī ": 7620,
  " kè yùn ": 7621,
  "zǔ zhǐ ": 7622,
  "ong": 7623,
  " chǔ ": 7624,
  "ā ěr": 7625,
  "   2018 nián ": 7626,
  "hé wèi ": 7627,
  "duō gè": 7628,
  "shěng dào ": 7629,
  "láo gōng ": 7630,
  "90 ": 7631,
  "nán jí zhōu de ": 7632,
  " xīng": 7633,
  " 1984 nián ": 7634,
  "fēi zhōu": 7635,
  "chuàng xīn ": 7636,
  " hant ": 7637,
  "   rán ér ": 7638,
  "cháng jiàn ": 7639,
  "chuán zhī ": 7640,
  " zhī zhàn ": 7641,
  " cǎi yòng ": 7642,
  "yáng xiàn ": 7643,
  " xiàn zhī xiàn ": 7644,
  "yán zhòng de ": 7645,
  "fā shēng le ": 7646,
  "shǔ de zhí wù ": 7647,
  "ex": 7648,
  "bù fèn ": 7649,
  "xī běi ": 7650,
  "duì wǔ ": 7651,
  " yóu cǐ ": 7652,
  "jiàng dī": 7653,
  "shuài lǐng ": 7654,
  "tǔ ěr qí": 7655,
  "jiān shì ": 7656,
  "mì sī ": 7657,
  " zhī liú ": 7658,
  "suǒ shǔ": 7659,
  "tóu bù ": 7660,
  " yǒu guān": 7661,
  "xiào yìng ": 7662,
  " zhǐ shì ": 7663,
  "bí ": 7664,
  "xīn rén ": 7665,
  "diàn de ": 7666,
  "yào de ": 7667,
  " jiàn shì ": 7668,
  " tā duì ": 7669,
  "kāi zhǎn ": 7670,
  " xiǎo shuō ": 7671,
  "87": 7672,
  "xī shì ": 7673,
  "zǒng cái ": 7674,
  " dōng jīng ": 7675,
  " shì yì dà lì ": 7676,
  "xuàn ": 7677,
  "le   ": 7678,
  "huì yǐ ": 7679,
  "zì wèi ": 7680,
  "huái yí ": 7681,
  " zài yǔ ": 7682,
  " yǐ yú ": 7683,
  " dà qiáo ": 7684,
  " lìng wài": 7685,
  "no": 7686,
  "é wèi ": 7687,
  "hēi rén ": 7688,
  "jī běn ": 7689,
  "yà mù ": 7690,
  " jié shù ": 7691,
  " xù ": 7692,
  "huì shì dì ": 7693,
  "zhǐ de ": 7694,
  "huán xíng ": 7695,
  " gōng lù": 7696,
  " dé dào le ": 7697,
  " shè jì de ": 7698,
  "chuán méi ": 7699,
  "zhōu biān ": 7700,
  "yùn dòng de ": 7701,
  " lí": 7702,
  "yán shí ": 7703,
  "qiān dìng ": 7704,
  "ná pò ": 7705,
  "zhù dì ": 7706,
  "luó dé ": 7707,
  "zhěng gè": 7708,
  " shì yī zuò ": 7709,
  "xià xiá yǐ xià": 7710,
  "xīn jiā pō ": 7711,
  " léi": 7712,
  " 2024": 7713,
  "   3 yuè ": 7714,
  "běn xiàn ": 7715,
  "xǐng": 7716,
  "zhǐ dìng ": 7717,
  "háng tiān ": 7718,
  "gǔ fèn yǒu xiàn gōng sī ": 7719,
  "pū ": 7720,
  "zhǎng dà ": 7721,
  " jí lín ": 7722,
  "tǐ yù": 7723,
  "fàng qì": 7724,
  "gé ěr ": 7725,
  "70 ": 7726,
  "xī běi bù ": 7727,
  "mù sī lín ": 7728,
  " bù ěr ": 7729,
  " xíng shǐ ": 7730,
  "fǎ tíng ": 7731,
  "cān yù le ": 7732,
  " suí zhe": 7733,
  " é": 7734,
  " luò": 7735,
  " de gù shì ": 7736,
  " zài gāi ": 7737,
  " lì yòng": 7738,
  "jiē shōu ": 7739,
  "yí chǎn": 7740,
  "xún huán ": 7741,
  "yī bù fèn": 7742,
  "zhàn wèi yú ": 7743,
  " wéi chí ": 7744,
  "jìng sài ": 7745,
  " xiāng dāng": 7746,
  " shēng zhǎng yú ": 7747,
  " yú 193": 7748,
  " nán zi ": 7749,
  "hǎi bá gāo dù wèi ": 7750,
  "2   ": 7751,
  "con": 7752,
  " shùn": 7753,
  "zhě wèi ": 7754,
  "xún qiú ": 7755,
  "nuò yī ": 7756,
  " gōng chǐ": 7757,
  "xī nán bù ": 7758,
  " xiàn jīn ": 7759,
  "yóu tài rén ": 7760,
  "běn tǔ ": 7761,
  " zhōng guó guó mín ": 7762,
  " diàn shì ": 7763,
  " qiú huì ": 7764,
  "shěng wěi ": 7765,
  "měi yuán de ": 7766,
  "guāng xù ": 7767,
  "duī ": 7768,
  "dān yī ": 7769,
  "yùn hé ": 7770,
  " bù dí ": 7771,
  " de chéng zhèn ": 7772,
  " bái": 7773,
  "lā ěr ": 7774,
  " yī liáo ": 7775,
  "yǐn zhǒng ": 7776,
  "tāo ": 7777,
  " chē zhàn": 7778,
  "   2007": 7779,
  "wù yuán ": 7780,
  "bú yào ": 7781,
  " nián nián ": 7782,
  " xíng xiàng ": 7783,
  "lù zhàn ": 7784,
  " zhè shǒu ": 7785,
  "bā lā ": 7786,
  "yíng yè ": 7787,
  " hé lǐ ": 7788,
  " yī zhī ": 7789,
  "wén huà de ": 7790,
  "bāng zhù": 7791,
  "dāo": 7792,
  " bǎi": 7793,
  "   5 yuè ": 7794,
  "gē jù ": 7795,
  "ta ": 7796,
  " guó mín": 7797,
  "mò sī kē": 7798,
  "wěi fù shū jì ": 7799,
  " hè": 7800,
  "   v": 7801,
  "cì wèi ": 7802,
  "wǔ dì ": 7803,
  "miǎo": 7804,
  "bié de ": 7805,
  "sī lán ": 7806,
  " kè lā ": 7807,
  "eb": 7808,
  "   st": 7809,
  "zhí yuán ": 7810,
  "shāng de ": 7811,
  "90 nián ": 7812,
  " dì miàn ": 7813,
  "xī là": 7814,
  "róng nà ": 7815,
  "dǐ kàng ": 7816,
  "xún yáng jiàn ": 7817,
  "ob": 7818,
  "qú ": 7819,
  " zhēn": 7820,
  " nǎi": 7821,
  " wèi cǐ ": 7822,
  "guī fàn ": 7823,
  "lí zi ": 7824,
  " qí zhōng nán xìng ": 7825,
  "dū dū ": 7826,
  "kuài sù": 7827,
  " wū kè lán ": 7828,
  "yóu qí ": 7829,
  "mén de ": 7830,
  "shǒu xí ": 7831,
  "céng shuǐ yù ": 7832,
  "jiǎn dān ": 7833,
  " 1986 nián ": 7834,
  "zhuàn de xiǎo xíng xīng ": 7835,
  "85": 7836,
  "ty": 7837,
  " yáo ": 7838,
  "   píng jià ": 7839,
  " kè lái ": 7840,
  "qǐ le ": 7841,
  "yuè nán ": 7842,
  "jiè shào": 7843,
  "fǔ zhù ": 7844,
  "fà ": 7845,
  "ist": 7846,
  " pǔ": 7847,
  " re": 7848,
  "ā lǐ ": 7849,
  "yóu rén gōng ": 7850,
  "zhǎng wèi ": 7851,
  " shì nèi ": 7852,
  " dì 1 ": 7853,
  " hòu qī ": 7854,
  " shè jī ": 7855,
  "nà xiē ": 7856,
  " de dì èr": 7857,
  "le yī xiē ": 7858,
  " jiàn lì le ": 7859,
  "AO": 7860,
  " huàn ": 7861,
  "liú de ": 7862,
  "tuī chū de ": 7863,
  "ruǎn tǐ ": 7864,
  " shí yòng ": 7865,
  " yī tiáo ": 7866,
  "lǒng ": 7867,
  " xìn ": 7868,
  " jǐ ": 7869,
  "zhí lì ": 7870,
  "jué le ": 7871,
  "ami": 7872,
  "   chú le ": 7873,
  "shù shì ": 7874,
  "cì dà ": 7875,
  "zhōng xīn ": 7876,
  "miàn lín ": 7877,
  "luó bó tè ": 7878,
  " de yī xiē ": 7879,
  " cháo xiān ": 7880,
  "jiào yú ": 7881,
  " jiàn wèi ": 7882,
  "bàn yǎn ": 7883,
  "qún tǐ ": 7884,
  "yǔ shì ": 7885,
  "ill": 7886,
  " zài rì běn ": 7887,
  " dà liàng": 7888,
  " xī yǐn ": 7889,
  "tú xiàng ": 7890,
  "fēn bié wèi ": 7891,
  "shuò shì xué wèi ": 7892,
  "   2017 nián ": 7893,
  " zài běi ": 7894,
  "wéi zhǐ ": 7895,
  "jiào shòu": 7896,
  "cān sài": 7897,
  "dāng jú ": 7898,
  " rén mín bì ": 7899,
  " yè": 7900,
  "gè dì ": 7901,
  " de xiàn ": 7902,
  " jìn nián ": 7903,
  " gōng chéng shī ": 7904,
  " liú yù ": 7905,
  " 1958 nián ": 7906,
  "zhī yuán ": 7907,
  "méng jūn ": 7908,
  " jí shǐ": 7909,
  "zǒng jiān ": 7910,
  " dì èr cì ": 7911,
  "shěn chá ": 7912,
  " zài dì èr ": 7913,
  "píng jūn hǎi bá gāo dù wèi ": 7914,
  "jiào yù bù ": 7915,
  "   jīng jì ": 7916,
  "   2016 nián ": 7917,
  "jī shì ": 7918,
  "zú qiú duì ": 7919,
  " hé jí ": 7920,
  " ěr dé": 7921,
  "fǎ lán ": 7922,
  "LE": 7923,
  " cè ": 7924,
  "duì hé ": 7925,
  "ní xī yà ": 7926,
  "zhōng yāng": 7927,
  " xī ān ": 7928,
  " qiú chǎng ": 7929,
  "qíng xù ": 7930,
  "wēi xiǎn ": 7931,
  "gào sù ": 7932,
  "huá shèng dùn": 7933,
  " kù": 7934,
  "gōng kāi ": 7935,
  "chǎng jǐng ": 7936,
  "gǎi biān ": 7937,
  " ér gāi dì de píng jūn hǎi bá gāo dù wèi ": 7938,
  " qiū ": 7939,
  "   tiān ": 7940,
  "fēn zhī yī ": 7941,
  " wèi míng ": 7942,
  " yǒu lì ": 7943,
  " jī yīn ": 7944,
  "tōng xùn ": 7945,
  "liáng shí ": 7946,
  "suǒ chù de hǎi bá wèi gāo yú hǎi píng miàn ": 7947,
  "yǒng jiǔ ": 7948,
  "2010 nián měi guó rén kǒu pǔ chá de shù jù ": 7949,
  "pín lǜ ": 7950,
  "hǎn mò": 7951,
  "náng ": 7952,
  "chū dào ": 7953,
  "tuǒ ": 7954,
  "yǎn chū": 7955,
  "biān chéng ": 7956,
  "yìng duì ": 7957,
  " chū xí ": 7958,
  "gǎn rǎn": 7959,
  " 1946 nián ": 7960,
  "yǐn zhǒng zāi péi ": 7961,
  " huán ": 7962,
  "cháo de ": 7963,
  " cái": 7964,
  " liǎng gè ": 7965,
  "chū rèn ": 7966,
  "luò de ": 7967,
  "shuō shì ": 7968,
  "piāo ": 7969,
  "yán zhòng": 7970,
  "chuàng bàn ": 7971,
  "kǎ luó lái ": 7972,
  "yuán dì ": 7973,
  "shēn shàng ": 7974,
  "xué xí": 7975,
  " sī xiǎng ": 7976,
  " xī xī ": 7977,
  " zhī qián": 7978,
  "mǐ yà ": 7979,
  "gǎng kǒu ": 7980,
  " yǐ sè liè": 7981,
  " guō": 7982,
  " yún nán ": 7983,
  "fēng de ": 7984,
  "zú yǐ ": 7985,
  "jī bǎi ": 7986,
  "fēi fǎ ": 7987,
  "zhǎn kāi": 7988,
  "yóu rén gōng yǐn zhǒng zāi péi ": 7989,
  "lì zhōng ": 7990,
  "yě bù ": 7991,
  "gē de ": 7992,
  "qíng xíng ": 7993,
  "jū mín diǎn ": 7994,
  "rè dài fēng bào ": 7995,
  "ala": 7996,
  "jì jí ": 7997,
  "sì míng ": 7998,
  "rù qīn": 7999,
  "46 ": 8000,
  "jì zài ": 8001,
  "yù jì ": 8002,
  " zhōng zuì ": 8003,
  " zhī fǔ ": 8004,
  "jù qíng ": 8005,
  " qiú de ": 8006,
  " shè huì": 8007,
  " xīn zēng": 8008,
  " hàn zú ": 8009,
  " zi ": 8010,
  "dòng gōng ": 8011,
  "lǔ kè ": 8012,
  " yǐ shàng de ": 8013,
  " yǔ cǐ tóng shí ": 8014,
  " wéi yà ": 8015,
  "is   ": 8016,
  " 28": 8017,
  "   jì ": 8018,
  "jiè shí ": 8019,
  "bīng bù ": 8020,
  "shǎn ": 8021,
  " zhì zào": 8022,
  "duō yàng ": 8023,
  "àn zhào ": 8024,
  "zǔ chéng": 8025,
  "h ": 8026,
  "guā": 8027,
  "yǐ hòu ": 8028,
  "yǎn shēng ": 8029,
  "dēng jì ": 8030,
  " bù jiā ": 8031,
  "wéi ěr": 8032,
  " zhōng guó dà lù de ": 8033,
  "xià xiá yǐ xià dì qū ": 8034,
  " tíng ": 8035,
  " tuī ": 8036,
  "ān shì ": 8037,
  "chū shēng ": 8038,
  "xiàng xī ": 8039,
  "gé lì ": 8040,
  "zé yǒu ": 8041,
  "dà shǐ ": 8042,
  "nán fāng ": 8043,
  " zì dòng ": 8044,
  "zhàn zhì ": 8045,
  "kōng jūn": 8046,
  "on   ": 8047,
  "bái zhì ": 8048,
  "zī zhù ": 8049,
  "BC ": 8050,
  " xū yào ": 8051,
  "yǔ yǐ ": 8052,
  "hòu shì ": 8053,
  "shùn shí ": 8054,
  " píng jià ": 8055,
  "shào jiàng ": 8056,
  "liǎo jiě": 8057,
  "93": 8058,
  "pū": 8059,
  " yōu ": 8060,
  "shī dì ": 8061,
  " xiàn rù ": 8062,
  "kē fū": 8063,
  "biān jìng ": 8064,
  " qí zhōng nán ": 8065,
  "fā zhǎn de ": 8066,
  " jìn shì chū shēn ": 8067,
  " shèn ": 8068,
  " bù biàn ": 8069,
  "qū fēn ": 8070,
  " bèi qí ": 8071,
  "cái chǎn ": 8072,
  "gān sù ": 8073,
  "fēi lǜ bīn": 8074,
  "máo zé dōng ": 8075,
  " xǔ ": 8076,
  "   10 yuè ": 8077,
  "lǔ shì ": 8078,
  " zhì shǎo": 8079,
  "sī xiǎng ": 8080,
  "zī shěng ": 8081,
  "chuán bō": 8082,
  "zǐ nǚ ": 8083,
  "gǎn jué ": 8084,
  " tōng guò": 8085,
  " sū lián ": 8086,
  "wèn tí de ": 8087,
  "wú rén jī ": 8088,
  "5 gè ": 8089,
  " 26": 8090,
  "fú dé ": 8091,
  "zú rén ": 8092,
  "jiū ": 8093,
  "80 nián ": 8094,
  " dì sī ": 8095,
  " yú dì ": 8096,
  "nán zi": 8097,
  "   St": 8098,
  "pàn jué ": 8099,
  " ー": 8100,
  "zhàn jì ": 8101,
  "bǎo zhèng ": 8102,
  "fēi lì ": 8103,
  "qǔ jiā ": 8104,
  "jú jú zhǎng ": 8105,
  " 1982 nián ": 8106,
  "miǎn diān ": 8107,
  "gòng chǎn zhǔ yì ": 8108,
  " ào dà lì ": 8109,
  " gōng kāi sài ": 8110,
  "zì xíng chē ": 8111,
  "1 hào ": 8112,
  "dǔ": 8113,
  "   běi ": 8115,
  "fán zhí ": 8116,
  " zhè bù ": 8117,
  " jiāng qí ": 8118,
  "zhè bù ": 8119,
  "miáo huì ": 8120,
  " zhī jì ": 8121,
  "shāng wáng ": 8122,
  "wán chéng le ": 8123,
  "zhǐ huī guān ": 8124,
  " yī méi ": 8125,
  "fǎ lìng ": 8126,
  "jiāo huàn ": 8127,
  "hěn duō": 8128,
  " 1987 nián ": 8129,
  " shì zhōng xīn ": 8130,
  " 27": 8131,
  "   lìng wài ": 8132,
  "yǐn shí ": 8133,
  " shì wū kè lán": 8134,
  " shì fǒu ": 8135,
  " wèi qí ": 8136,
  " bù zhì ": 8137,
  "bǎo cún ": 8138,
  " nán běi ": 8139,
  "āi nà ": 8140,
  " gōng zuò shì ": 8141,
  "nú ": 8142,
  "èr zhàn ": 8143,
  " tóng yī ": 8144,
  "mǎ tóu ": 8145,
  "shǐ yòng le ": 8146,
  "céng shì ": 8147,
  " hé bìng wèi ": 8148,
  " xì liè ": 8149,
  " ōu zhōu ": 8150,
  " zhì liáo": 8151,
  " dà jiā ": 8152,
  "nù": 8153,
  " mǎn": 8154,
  "fāng chéng ": 8155,
  "jǐ hé ": 8156,
  "shēn zhèn": 8157,
  "bào zhǐ ": 8158,
  "zhuàng kuàng": 8159,
  "zēng qiáng ": 8160,
  "shā hài ": 8161,
  "zhī míng ": 8162,
  "wài wéi ": 8163,
  "kuī ": 8164,
  "186": 8165,
  "guó nèi ": 8166,
  " dà zhòng ": 8167,
  " jì niàn": 8168,
  " jiàn hé ": 8169,
  " i": 8170,
  " 60": 8171,
  "mǎ de ": 8172,
  "luó jí ": 8173,
  "zhěng hé ": 8174,
  " yú 2020 nián ": 8175,
  "shòu hài ": 8176,
  "cái wù ": 8177,
  " bì yè yú ": 8178,
  "II ": 8179,
  "jī bù ": 8180,
  "chēng hào ": 8181,
  "bō ěr ": 8182,
  " dì guó de ": 8183,
  " gōng zhàn ": 8184,
  " sī kǎ ": 8185,
  "fēn lèi": 8186,
  "bā fá": 8187,
  "42 ": 8188,
  "cǐ zhī wài ": 8189,
  "dá de ": 8190,
  "cù jìn": 8191,
  " yǐ nán ": 8192,
  " xíng chéng de ": 8193,
  "sān cì ": 8194,
  "lǐng xiù": 8195,
  "pàn luàn ": 8196,
  " pān ": 8197,
  "6 gè ": 8198,
  " hán": 8199,
  "huò shì ": 8200,
  "liè shì ": 8201,
  " zài 195": 8202,
  " dàn yīn ": 8203,
  "zhù cè ": 8204,
  " chū xiàn le ": 8205,
  " de míng zì ": 8206,
  " mó": 8207,
  "ài guó ": 8208,
  "1999 nián ": 8209,
  "ther": 8210,
  " dà shī ": 8211,
  "yīng guó de ": 8212,
  "gǎi shàn": 8213,
  "chè dǐ ": 8214,
  "ele": 8215,
  " hú": 8216,
  "xià de yí gè ": 8217,
  "líng de ": 8218,
  "zhèng quán ": 8219,
  "zú xié ": 8220,
  "guǎng gào": 8221,
  " 1978 nián ": 8222,
  " fā xíng ": 8223,
  "   2021 nián ": 8224,
  "zhǐ yú ": 8225,
  "jiē jìn": 8226,
  "rù de ": 8227,
  "gòng shí ": 8228,
  "shèng dì ": 8229,
  " wèi yóu ": 8230,
  " yuè tái": 8231,
  " dào bù ": 8232,
  " jī chǔ ": 8233,
  "tiān huáng ": 8234,
  "miàn tǐ ": 8235,
  "lǐng yù": 8236,
  "bìng méi yǒu ": 8237,
  "yán jiū yuàn ": 8238,
  " lìng yì fāng miàn ": 8239,
  "miáo shù": 8240,
  "75 ": 8241,
  " zhěng ": 8242,
  "mù zhì ": 8243,
  "qún de ": 8244,
  "jīng guò": 8245,
  " fǒu": 8246,
  " yuán shǐ ": 8247,
  "zhòng zhí ": 8248,
  "jǐng guān ": 8249,
  "dāng xuǎn": 8250,
  "wū rǎn ": 8251,
  "187": 8253,
  "nuò sī ": 8254,
  "xìng bié ": 8255,
  " jié gòu ": 8256,
  "zhū lóng ": 8257,
  "dòu zhēng ": 8258,
  "→": 8259,
  " shēng zhǎng yú hǎi bá": 8260,
  "gāo yuán ": 8261,
  "shī bài": 8262,
  " 500": 8263,
  " mǎ lì ": 8264,
  "ep": 8265,
  " dōu": 8266,
  " wèi bèi ": 8267,
  " dào shì ": 8268,
  "hòu lái ": 8269,
  " nán jīng ": 8270,
  " dì yī cì": 8271,
  " 1980 nián ": 8272,
  " 1948 nián ": 8273,
  " zhǐ chū ": 8274,
  "tāi": 8275,
  " láo ": 8276,
  " niǔ yuē": 8277,
  "táo yuán ": 8278,
  " sà": 8279,
  "ell": 8280,
  " zài yīng guó ": 8281,
  " yuán zé ": 8282,
  "háng yè ": 8283,
  "fáng zhǐ ": 8284,
  " chuān ": 8285,
  " shí dài de ": 8286,
  " shàng shū ": 8287,
  "qíng jié ": 8288,
  "tuán zhǎng ": 8289,
  " mù qián shàng wèi ": 8290,
  "tiān jiā ": 8291,
  "tū chū ": 8292,
  " zhōng shū ": 8293,
  "píng mín ": 8294,
  "guān fèi yán ": 8295,
  " zhè cì ": 8296,
  "qì tǐ ": 8297,
  "shāng diàn ": 8298,
  " fēn bié shì ": 8299,
  "   15": 8300,
  "   6 ": 8301,
  "lái sī ": 8302,
  " hé fǎ ": 8303,
  " yì si": 8304,
  " yì míng ": 8305,
  " yǐ shì ": 8306,
  "cháng qī": 8307,
  " xiàn de yí gè fēi jiàn zhì dì qū ": 8308,
  "89": 8309,
  "diǎn wèi ": 8310,
  " bù dé ": 8311,
  "jiào zuò ": 8312,
  " fēn bié wèi ": 8313,
  "3 mǐ ": 8314,
  " ch": 8315,
  " shàn ": 8316,
  "ā jī ": 8317,
  "fú ěr ": 8318,
  "bō chū": 8319,
  "hóng jūn ": 8320,
  "rù xuǎn": 8321,
  "sāi nà ": 8322,
  "mián ": 8323,
  "wù zhǒng de ": 8324,
  "us": 8325,
  " zhī chù ": 8326,
  " chūn ": 8327,
  "180": 8328,
  "hǎo yǒu ": 8329,
  " hé tā de ": 8330,
  "shǒu fǔ ": 8331,
  "xiǎng fǎ ": 8332,
  "kǎo gǔ ": 8333,
  "   Al": 8334,
  " péi ": 8335,
  "1996 nián ": 8336,
  "chóu bèi ": 8337,
  " zhōng fā xiàn ": 8338,
  " yǔ dà ": 8339,
  "dōng ní ": 8340,
  "fú hào ": 8341,
  "dàng àn ": 8342,
  " jiě ": 8343,
  "ān rén ": 8344,
  "   2006": 8345,
  "miàn shì ": 8346,
  " yì jí ": 8347,
  "zhǎng yuē ": 8348,
  " píng lùn": 8349,
  "niǎo lèi ": 8350,
  "86": 8351,
  "IT": 8352,
  "yù dào ": 8353,
  " dān rèn": 8354,
  "to   ": 8355,
  " zhōng gòng zhōng yāng": 8356,
  "cōng ": 8357,
  "chēng zhī wèi ": 8358,
  "háng xiàn ": 8359,
  " yì diǎn ": 8360,
  "yán shēn ": 8361,
  " tóng rì ": 8362,
  "cháng jiāng ": 8363,
  "chēng wéi": 8364,
  " xíng zhèng zhèn qū ": 8365,
  "41": 8366,
  " zhì dìng ": 8367,
  "zuò chū": 8368,
  "qū jiān ": 8369,
  "ào sī kǎ ": 8370,
  "   suí ": 8371,
  " shì nán jí zhōu de ": 8372,
  "zhǔ chǎng ": 8373,
  "jù fēng ": 8374,
  " zuò biāo wèi ": 8375,
  "chǎn yè": 8376,
  "xiū gǎi": 8377,
  "ay ": 8378,
  "   2015 nián ": 8379,
  "ní de ": 8380,
  "‧": 8381,
  "lì yòng ": 8382,
  " gōng jīn ": 8383,
  " dà xíng": 8384,
  " zuò chū": 8385,
  " D ": 8386,
  " xīn jiā ": 8387,
  "huì jí ": 8388,
  "zhàn guó ": 8389,
  "pǐn zhì ": 8390,
  "dòng chē ": 8391,
  "fēn lí ": 8392,
  "NA ": 8393,
  " bào": 8394,
  " xiá ": 8395,
  "   ér": 8396,
  "   zhǔ yào ": 8397,
  "dōng xiàn ": 8398,
  "wǔ míng ": 8399,
  "gē ěr ": 8400,
  "kuò zhāng ": 8401,
  "bīn shì ": 8402,
  " jī xiè ": 8403,
  "shè huì zhǔ yì ": 8404,
  "yíng dé le ": 8405,
  "NA": 8406,
  "àn shí ": 8407,
  "zuò zhōng ": 8408,
  "qǐ de ": 8409,
  "tōng xìn ": 8410,
  "mìng lìng": 8411,
  "huǒ bàn ": 8412,
  "zū jiè ": 8413,
  "lòu": 8414,
  " xióng ": 8415,
  " gǎi wéi ": 8416,
  "   zhàn ": 8417,
  "chǎng shàng ": 8418,
  "dǐ zhì ": 8419,
  " gōng zuò de ": 8420,
  "shēng míng ": 8421,
  "lǐng xiān ": 8422,
  "jīng jì xué ": 8423,
  " mín": 8424,
  "   zhù ": 8425,
  "duì yǒu ": 8426,
  "duì tā ": 8427,
  "zhàn wèi ": 8428,
  "bǎo cún": 8429,
  " zhè yàng de ": 8430,
  " guān fāng ": 8431,
  ".&": 8432,
  "zhōng shì jì ": 8433,
  "dòng yuán ": 8434,
  "mù shì ": 8435,
  "shī hé ": 8436,
  "bān bù ": 8437,
  "hòu xuǎn rén ": 8438,
  " míng zì ": 8439,
  " Al": 8440,
  "rén mín dài biǎo dà huì ": 8441,
  "tài hòu ": 8442,
  " xī là ": 8443,
  "jiāng sū shěng ": 8444,
  "5 gōng lǐ ": 8445,
  " pài ": 8446,
  " bài ": 8447,
  "   kè ": 8448,
  "yǐn lì ": 8449,
  " dàn bù ": 8450,
  "zú zì zhì ": 8451,
  "lèi sì yú ": 8452,
  "J ": 8453,
  "fà": 8454,
  "shéng": 8455,
  " yóu yǒng ": 8456,
  "bān fā ": 8457,
  "ear": 8458,
  "   duì yú ": 8459,
  "shǐ zhōng ": 8460,
  "am ": 8461,
  " zài jī ": 8462,
  " wéi zhǐ ": 8463,
  "jiē chù": 8464,
  "děng zhí ": 8465,
  "jiāo chā ": 8466,
  "nǚ yǎn yuán ": 8467,
  "tí gōng de ": 8468,
  " bù dé bù ": 8469,
  "fi": 8470,
  "ith": 8471,
  " 1 yuè ": 8472,
  "jiē shì ": 8473,
  "1998 nián ": 8474,
  "sū lǐ ": 8475,
  " de lǐ ": 8476,
  " jiā méng ": 8477,
  " chū shēn ": 8478,
  "shǒu duàn ": 8479,
  "qǐ sù ": 8480,
  "xiàn fǎ ": 8481,
  "hài é": 8482,
  " jī dū jiào ": 8483,
  "52": 8484,
  "ài dé huá ": 8485,
  "fēn wèi ": 8486,
  "chē dào ": 8487,
  " xiàn dài": 8488,
  " jiā jìng ": 8489,
  " rèn mìng": 8490,
  " zhǔ chí ": 8491,
  "ài qíng ": 8492,
  " 1979 nián ": 8493,
  "ut": 8494,
  " bāo ": 8495,
  " chéng shì ": 8496,
  " rè ": 8497,
  "rén wèi ": 8498,
  "tǐ xíng ": 8499,
  "hàn zì ": 8500,
  " zài gōng ": 8501,
  " chéng shì de ": 8502,
  "diàn chē ": 8503,
  "bān cì ": 8504,
  "gòng hé guó de ": 8505,
  " 36": 8506,
  " níng ": 8507,
  "yuán zhōng ": 8508,
  "jiǎng de ": 8509,
  "réng yǒu ": 8510,
  "lǎng dé ": 8511,
  " zài nán ": 8512,
  "shēng mìng ": 8513,
  " chū rù kǒu ": 8514,
  "mǎ lái ": 8515,
  "shuǐ kù ": 8516,
  "yán jiū yuán ": 8517,
  "bǎn běn de ": 8518,
  " dāng xuǎn": 8519,
  " shì dì yī ": 8520,
  "IP": 8521,
  " zhuān jí ": 8522,
  "xiàn shí ": 8523,
  "fù zhì ": 8524,
  "háng zhōu ": 8525,
  "hàn yǔ ": 8526,
  " de xiǎo ": 8527,
  "fēn qū ": 8528,
  "miàn jī hé ": 8529,
  " wèi fú qí yú gāng": 8530,
  "xī yuán ": 8531,
  "zhài": 8532,
  "kē ěr ": 8533,
  "pái dé zhǔ ": 8534,
  "zāo shòu ": 8535,
  "gèng duō": 8536,
  "jǐn biāo sài": 8537,
  "sàng ": 8538,
  "ān xiàn ": 8539,
  "jiāng shì ": 8540,
  "bīng lì ": 8541,
  "bài zhàn ": 8542,
  " jiàn yǒu ": 8543,
  " huì bèi ": 8544,
  "xié tiáo": 8545,
  " yuǎn ": 8546,
  "fù yǒu ": 8547,
  "ràng tā ": 8548,
  "38 ": 8549,
  "guī mó de ": 8550,
  " sān shí ": 8551,
  "jīn rì ": 8552,
  " bù ěr": 8553,
  "wǔ qì": 8554,
  "pǐn pái": 8555,
  "den": 8556,
  "   fú ": 8557,
  "huāng": 8558,
  "ol ": 8559,
  " wèi zhōng guó ": 8560,
  " zhè yě shì ": 8561,
  "liè rù": 8562,
  "biān mǎ ": 8563,
  " gāi dì de ": 8564,
  " zuì chū": 8565,
  " gōng yuán qián ": 8566,
  " dì shí yī ": 8567,
  "Station": 8568,
  "son ": 8569,
  " guǎn ": 8570,
  "yǐ shàng ": 8571,
  "1900": 8572,
  " qiú yùn dòng yuán ": 8573,
  " mù qián shàng wèi yóu rén gōng yǐn zhǒng zāi péi ": 8574,
  "ain": 8575,
  "   2014 nián ": 8576,
  "nán sī lā ": 8577,
  "huá dà xué ": 8578,
  " hé lán": 8579,
  "wù lǐ xué ": 8580,
  "zuì zǎo de ": 8581,
  "   4 yuè ": 8582,
  "fǎ shì ": 8583,
  "dice ": 8584,
  "móu shā ": 8585,
  "lù xù ": 8586,
  "ohn": 8587,
  "jiān zhì ": 8588,
  "xué shēng": 8589,
  "lù shàng ": 8590,
  "mín jìn ": 8591,
  " xiāng duì ": 8592,
  "jiàn zào ": 8593,
  "qiān shǔ": 8594,
  " xī bān yá yǔ ": 8595,
  "yē sū": 8596,
  "ale": 8597,
  " wéi": 8598,
  "shi": 8599,
  "yuán shí ": 8600,
  "lín sī ": 8601,
  " lì kè ": 8602,
  "shēng tài ": 8603,
  "dìng qī ": 8604,
  "dǎo yǎn": 8605,
  "cè lüè ": 8606,
  "oog": 8607,
  "kǎ luó lái nà": 8608,
  "ros": 8609,
  "tion ": 8610,
  " zài yuán ": 8611,
  "shēn zhèn ": 8612,
  "xù shù ": 8613,
  " dāng xuǎn ": 8614,
  " yǒu yī xiē ": 8615,
  "19 shì jì ": 8616,
  "wò ěr ": 8617,
  "zhōng bù ": 8618,
  " chéng xù": 8619,
  " chū xiàn": 8620,
  "zhǎn lǎn": 8621,
  "wěi yuán huì de ": 8622,
  " zhì zuò rén ": 8623,
  "xià xiá de yí gè xiāng ": 8624,
  "us ": 8625,
  "lù yǔ ": 8626,
  "shǒu bù ": 8627,
  "tè hé ": 8628,
  "tè jí ": 8629,
  "wǎng de ": 8630,
  "tóu de ": 8631,
  "gàn xiàn ": 8632,
  "   1949 nián ": 8633,
  "1   ": 8634,
  " y": 8635,
  " hǎo ": 8636,
  " shòu dào ": 8637,
  "jīng de ": 8638,
  "duō ěr ": 8639,
  "duì wài ": 8640,
  "shàng shù ": 8641,
  " míng chēng": 8642,
  "fēng gé": 8643,
  "gǎi wéi": 8644,
  " mǎ lái xī yà ": 8645,
  " dēng ": 8646,
  "zi gōng sī ": 8647,
  " jí yī ": 8648,
  "xiāng hù ": 8649,
  " yīn de ": 8650,
  "zuì duō de ": 8651,
  "wǔ hàn": 8652,
  " zhōng guó gòng chǎn dǎng": 8653,
  "   Com": 8654,
  " guó mín dǎng ": 8655,
  "   gè rén shēng huó ": 8656,
  "bèi shì ": 8657,
  "tiāo ": 8658,
  "di ": 8659,
  "jiǎ jī ": 8660,
  "zǎo zài ": 8661,
  " yú 2010 nián ": 8662,
  " dà yuē": 8663,
  "yán cháng": 8664,
  "tái bì ": 8665,
  " 1938 nián ": 8666,
  "mí nǐ ": 8667,
  " jì suàn jī ": 8668,
  "zū": 8669,
  "   7 yuè ": 8670,
  "shù hé ": 8671,
  "jìn jí ": 8672,
  " shì xiāng gǎng ": 8673,
  " qí bīng ": 8674,
  "zuì zǎo ": 8675,
  "kuò zhǎn ": 8676,
  " 2005": 8677,
  " kāng xī ": 8678,
  "rù wéi ": 8679,
  "qì rén ": 8680,
  "xié dài ": 8681,
  "tàn suǒ ": 8682,
  " hé tóng ": 8683,
  "duì xiàng ": 8684,
  "tiān táng ": 8685,
  "miáo shù wèi ": 8686,
  "jiù dú yú ": 8687,
  " shàng": 8688,
  "qí shì ": 8689,
  "xiū sī ": 8690,
  "zhuǎn wéi ": 8691,
  "1988 nián ": 8692,
  "guī huà": 8693,
  " de jī huì ": 8694,
  "měi rì ": 8695,
  " kè lǐ sī ": 8696,
  "jiào kē ": 8697,
  "liàng zǐ ": 8698,
  " hā ěr ": 8699,
  "zhǔ chí rén ": 8700,
  "℃": 8702,
  "tāng": 8703,
  "1992 nián ": 8704,
  " shì gè ": 8705,
  " dì 2 ": 8706,
  " guó gōng ": 8707,
  " gōng kāi": 8708,
  " chéng bǎo ": 8709,
  " gè dà ": 8710,
  "zhòng diǎn": 8711,
  "yí zhǐ": 8712,
  " 1947 nián ": 8713,
  "1 míng ": 8714,
  "ts ": 8715,
  " wēn": 8716,
  "   7": 8717,
  "   dōng ": 8718,
  "   2012 nián ": 8719,
  "dōng de ": 8720,
  "fū fù ": 8721,
  " zhōng zhǐ ": 8722,
  "dài bǔ ": 8723,
  "kāi mù ": 8724,
  "běn shēn ": 8725,
  "yí mín": 8726,
  "jiǎng zuì jiā ": 8727,
  "zuǒ yòu": 8728,
  "nuó wēi": 8729,
  "   2013 nián ": 8730,
  "háng zhàn ": 8731,
  "zhuàng bìng dú": 8732,
  " jiàn zào": 8733,
  "pī píng": 8734,
  "   xiāng gǎng ": 8735,
  "nà sī ": 8736,
  "mín zhǔ": 8737,
  "shāng pǐn ": 8738,
  "fàn wéi": 8739,
  "xié shāng ": 8740,
  "layStation": 8741,
  "64 ": 8742,
  "rěn ": 8743,
  " fǔ ": 8744,
  " bù zhèng ": 8745,
  " chéng wéi yī ": 8746,
  " zhàn lǐng ": 8747,
  "fēn lán ": 8748,
  "nèi méng gǔ ": 8749,
  "tái wān de ": 8750,
  "dú tè de ": 8751,
  "què dìng": 8752,
  "dǐ dá": 8753,
  "   Mo": 8754,
  "cuī huǐ": 8755,
  " pái ": 8756,
  "   4 ": 8757,
  "60 nián ": 8758,
  "bā nèn": 8759,
  " quán qiú ": 8760,
  "cāi ": 8761,
  " chāo": 8762,
  "   hé": 8763,
  "   zhì zuò ": 8764,
  "wú ěr ": 8765,
  " shì nán ": 8766,
  "qiú duì": 8767,
  "è ěr ": 8768,
  "jù zhōng ": 8769,
  "zhāng de ": 8770,
  "shéng ": 8771,
  "29 ": 8772,
  "ck ": 8773,
  " yī cháng ": 8774,
  "   lā ": 8775,
  "chǒng ": 8776,
  "yìn xiàng ": 8777,
  " míng xīng ": 8778,
  "huáng jīn": 8779,
  "pen": 8780,
  " 2025": 8781,
  " fǎn duì ": 8782,
  "shū shì ": 8783,
  "70 nián ": 8784,
  " jí yǐ ": 8785,
  " rì qī ": 8786,
  "zhí bō ": 8787,
  "tóng yàng": 8788,
  " mèng ": 8789,
  " shǎn xī ": 8790,
  "   8 yuè ": 8791,
  "fù yǔ ": 8792,
  "mǎ shì ": 8793,
  "37 ": 8794,
  " fù gài ": 8795,
  "jìng nèi de ": 8796,
  "gē cí ": 8797,
  "zhào piān": 8798,
  " tòu guò ": 8799,
  "sān wèi ": 8800,
  "cí huì ": 8801,
  " guó yǔ ": 8802,
  "yóu tài ": 8803,
  " zhōu rén ": 8804,
  "kǎ lā ": 8805,
  " tóng shí yě ": 8806,
  "huó dòng de ": 8807,
  "pó": 8808,
  " 22": 8809,
  " lǐng ": 8810,
  "huǎn": 8811,
  "guài": 8812,
  "fú shè ": 8813,
  "cì jī ": 8814,
  "wáng hòu ": 8815,
  "céng yú ": 8816,
  "chuān yuè ": 8817,
  "40 nián ": 8818,
  " dì bā ": 8819,
  " ěr zài ": 8820,
  "tè qū ": 8821,
  "jìn zhǐ ": 8822,
  "dà xué": 8823,
  " rì yì ": 8824,
  " bìng biǎo shì ": 8825,
  "hàn lín ": 8826,
  "lǎ ": 8827,
  "xuē": 8828,
  "zhàn zài ": 8829,
  "mǎi ": 8830,
  "zhè zhǒng": 8831,
  "zǒng jīng lǐ ": 8832,
  " hé liú yù ": 8833,
  "65 ": 8834,
  " cān": 8835,
  " gù shì ": 8836,
  "cǐ shì ": 8837,
  "gé sī ": 8838,
  "jiù yǒu ": 8839,
  " yuán yǒu ": 8840,
  "shàng xià ": 8841,
  "jù dà de ": 8842,
  "hè sè ": 8843,
  "kāi fā de ": 8844,
  "jiē wèi zhī ": 8845,
  " shì yí gè wèi yú měi guó ": 8846,
  "miàn jī hé rén kǒu ": 8847,
  "DV": 8848,
  "gǒu": 8849,
  "   2011 nián ": 8851,
  "chéng zài ": 8852,
  "chéng shí ": 8853,
  "fāng wèi ": 8854,
  "xiǎng de ": 8855,
  "zuǐ ": 8856,
  "bō fàng": 8857,
  " xiāng tóng ": 8858,
  "fáng kōng ": 8859,
  "dǎ suàn ": 8860,
  "qún zhòng ": 8861,
  " 1981 nián ": 8862,
  " suì shí ": 8863,
  " yāo qiú": 8864,
  "   suī rán ": 8865,
  "bǐ ěr ": 8866,
  "dān xīn ": 8867,
  "yīng jūn ": 8868,
  "st ": 8869,
  " tā jiāng ": 8870,
  "bǎo zhàng": 8871,
  " dāng nián ": 8872,
  "jiàn kāng ": 8873,
  "què bǎo ": 8874,
  " qián lóng ": 8875,
  " jiào yù": 8876,
  " yán jiū ": 8877,
  "qiāo": 8878,
  "chá lǐ ": 8879,
  "bō lì ": 8880,
  " yī tiān ": 8881,
  " chū rèn": 8882,
  "lán sè ": 8883,
  " qí zhōng yǒu ": 8884,
  "tuì xiū": 8885,
  "háng kōng gōng sī ": 8886,
  " gāi dì de miàn jī hé rén kǒu ": 8887,
  " gāi dì de miàn jī hé rén kǒu jiē wèi zhī ": 8888,
  "sk": 8889,
  " zhàn dì ": 8890,
  "   mù qián ": 8891,
  "yuè hé ": 8892,
  "qū jí ": 8893,
  "jū yú ": 8894,
  " yì wài ": 8895,
  "xī wàng ": 8896,
  "gāo děng": 8897,
  "chuàng shǐ rén ": 8898,
  " 1937 nián ": 8899,
  " zhì lì yú ": 8900,
  "kòu": 8901,
  " rèn hé ": 8902,
  "xiāng de ": 8903,
  "dān dǎ ": 8904,
  "BS ": 8905,
  " wū": 8906,
  "yí jì ": 8907,
  " gè zì ": 8908,
  " jūn guān ": 8909,
  "tuán jié ": 8910,
  "ation ": 8911,
  "oy": 8912,
  "pǐn de ": 8913,
  "1945 nián ": 8914,
  " jiā rù le ": 8915,
  " chū shòu ": 8916,
  "gāo jià ": 8917,
  "hǎi yáng": 8918,
  "cháo tíng ": 8919,
  "huì yì shàng ": 8920,
  "cún zài yú ": 8921,
  " guó mín zhèng fǔ ": 8922,
  "avi": 8923,
  "diǎn xíng de ": 8924,
  "táng de ": 8925,
  "biāo jì ": 8926,
  "gěi tā ": 8927,
  " shí yuè ": 8928,
  " dé lì ": 8929,
  "3000": 8930,
  " diào ": 8931,
  " shì yuán ": 8932,
  " zhōng duì ": 8933,
  " dà guī mó ": 8934,
  "xī yáng": 8935,
  " kè luó ": 8936,
  "nǚ hái ": 8937,
  " de yuán yīn ": 8938,
  "   wèi le ": 8939,
  "xì jūn ": 8940,
  "zhēn de ": 8941,
  "guó fáng": 8942,
  " jìn jí ": 8943,
  "chǎn shēng": 8944,
  "lǐng yù de ": 8945,
  " 35": 8946,
  " kǒu ": 8947,
  " cài ": 8948,
  "   Y": 8949,
  "   9 yuè ": 8950,
  "   qí zhōng ": 8951,
  "píng jūn": 8952,
  "fú zhōu ": 8953,
  "zhuàng de ": 8954,
  "fā yán rén ": 8955,
  "chuàng zuò": 8956,
  " 1956 nián ": 8957,
  " de jì huà ": 8958,
  " sú ": 8959,
  "tān": 8960,
  "duō yuán ": 8961,
  "xù jí ": 8962,
  "jiǎn lì ": 8963,
  "wàn lì ": 8964,
  "méng tè ": 8965,
  "hēi lóng jiāng ": 8966,
  "ruì diǎn": 8967,
  " nèi": 8968,
  " yǐ 1 ": 8969,
  "tíng yùn ": 8970,
  "fáng jiān ": 8971,
  " tī ": 8972,
  "tou ": 8973,
  "duàn shí jiān ": 8974,
  "tīng de ": 8975,
  " hé lì ": 8976,
  " shí jiān de ": 8977,
  "wǔ dǎo ": 8978,
  " tè bié ": 8979,
  "bǔ chōng ": 8980,
  "63": 8981,
  "qiān rén ": 8982,
  "diào yú ": 8983,
  "illi": 8984,
  " xī lǐ ": 8985,
  " zhī chēng ": 8986,
  "fù zhǔ xí ": 8987,
  "shù mù ": 8988,
  "guān cè": 8989,
  "wǎng wǎng ": 8990,
  "zhuāng jiǎ": 8991,
  " qiū": 8992,
  "qiāo ": 8993,
  "sān yuè ": 8994,
  " zhōu wéi ": 8995,
  "nà rù ": 8996,
  "liàng xiàng ": 8997,
  "1 mǐ ": 8998,
  "jiā shì ": 8999,
  "shù rén ": 9000,
  "chuān guò ": 9001,
  "jì xù": 9002,
  "fā huī": 9003,
  "shēn wáng ": 9004,
  "duǎn zàn": 9005,
  "fú jiàn shěng ": 9006,
  "pó ": 9007,
  "rěn": 9008,
  " niú ": 9009,
  "shǐ dì ": 9010,
  " dàn qí ": 9011,
  "fú huà ": 9012,
  "kē fū ": 9013,
  "tǎ ní": 9014,
  " suí zhe ": 9015,
  "   chē zhàn jié gòu ": 9016,
  "roun": 9017,
  " gǎn ": 9018,
  "   cān kǎo ": 9019,
  "yǒu guān ": 9020,
  " jí ěr ": 9021,
  " ér lái ": 9022,
  "suàn fǎ ": 9023,
  "ty ": 9024,
  " lú": 9025,
  "zhōng hé ": 9026,
  "dǎng jí ": 9027,
  "jīng yóu ": 9028,
  "jìng wài ": 9029,
  " chéng lì le ": 9030,
  "qù shì hòu ": 9031,
  " bìng qiě zài ": 9032,
  "qī shì ": 9033,
  "yù bèi ": 9034,
  "qián zài ": 9035,
  "shén de ": 9036,
  "hún": 9037,
  "chóng fù ": 9038,
  "tuī xíng ": 9039,
  "kē xué": 9040,
  " de dì yí gè ": 9041,
  " yě kě yǐ ": 9042,
  "sǎn": 9043,
  "zhàn hé ": 9044,
  "duō bù ": 9045,
  "zhǎn xiàn ": 9046,
  "sòng dào ": 9047,
  " tā hái": 9048,
  " yīn yuán ": 9049,
  " yīn qí ": 9050,
  " shēng chēng ": 9051,
  "kōng xí ": 9052,
  " shì jiè de ": 9053,
  "ní yà de ": 9054,
  "ào dà lì yà": 9055,
  "zhè jiāng shěng ": 9056,
  " zhǔ": 9057,
  " huái": 9058,
  " 2000": 9059,
  "liè sī ": 9060,
  "dū huì ": 9061,
  "res": 9062,
  "tóu xián ": 9063,
  "é hài é": 9064,
  "háng bān ": 9065,
  "shōu lù": 9066,
  " wén huà": 9067,
  "   6 yuè ": 9068,
  "zhě rèn wéi ": 9069,
  " dì 2": 9070,
  " yǔ zhòu": 9071,
  " chū yī ": 9072,
  " huì shàng ": 9073,
  "lā tè ": 9074,
  "sè cǎi ": 9075,
  "qiáng dà de ": 9076,
  "guó jiā duì ": 9077,
  "tàn cè ": 9078,
  "zhī dào ": 9079,
  "hòu bù jiǔ ": 9080,
  "jué yú ": 9081,
  "wǎn nián ": 9082,
  "dà liàng ": 9083,
  " dào zhōng ": 9084,
  "xī yà ": 9085,
  " yǐ lái": 9086,
  " wéi qí": 9087,
  "chóng xīn": 9088,
  " hēng lì ": 9089,
  "tàn xiǎn": 9090,
  "pái háng bǎng": 9091,
  " dí": 9092,
  " cǎi ": 9093,
  "bù wèi yú ": 9094,
  "shuǐ hé ": 9095,
  " zài xiàn ": 9096,
  " dì zhōng ": 9097,
  "wài guān ": 9098,
  "cái zhèng": 9099,
  " 1955 nián ": 9100,
  "92": 9101,
  "orl": 9102,
  "zhēn zhèng ": 9103,
  " guó wáng": 9104,
  " yī tóng": 9105,
  "yán cháng ": 9106,
  " xué xí": 9107,
  "bào zhà": 9108,
  "jìn xíng de ": 9109,
  " dà sài ": 9110,
  "fā bù de ": 9111,
  "pǔ tōng": 9112,
  "cūn mín ": 9113,
  " shǐ yòng": 9114,
  " zǒng tǒng ": 9115,
  "nàn mín ": 9116,
  "pēng ": 9117,
  " biǎo ": 9118,
  "chū zhàn ": 9119,
  "tiào": 9120,
  "fù bù zhǎng ": 9121,
  "luǎn": 9122,
  "wǎng qiú": 9123,
  "dōu bù ": 9124,
  " ěr yǔ ": 9125,
  "bā lè": 9126,
  "wáng zǐ ": 9127,
  "hù dòng ": 9128,
  "500 ": 9129,
  " ān dé ": 9131,
  "shěng zhèng fǔ ": 9132,
  "kuò jiàn ": 9133,
  "1997 nián ": 9134,
  "chéng jì ": 9135,
  " jiā sī ": 9136,
  " bìng yǒu ": 9137,
  "sān zhǒng ": 9138,
  "chè tuì ": 9139,
  "mǎn zú": 9140,
  " xiōng": 9141,
  "bō chū de ": 9142,
  "duān de ": 9143,
  "yī lì ": 9144,
  " jí sī ": 9145,
  " lì shǔ": 9146,
  "zhè yàng de ": 9147,
  "guī zé": 9148,
  " céng jīng ": 9149,
  " lù yì ": 9150,
  "do": 9151,
  " mù": 9152,
  "   gēn jù": 9153,
  "běn bù ": 9154,
  "xiào shè ": 9155,
  " rì yǔ ": 9156,
  " rì hòu ": 9157,
  "tiān qì ": 9158,
  "hú pō ": 9159,
  " M ": 9160,
  "ā fù ": 9161,
  "hòu tā ": 9162,
  "rèn yì ": 9163,
  "mǎ lì yà ": 9164,
  "yùn xíng": 9165,
  " shì yàn ": 9166,
  " qí tā de ": 9167,
  "cháng wěi huì ": 9168,
  "gào sù": 9169,
  " guó jì jī chǎng ": 9170,
  "yōu xiù ": 9171,
  "nuó wēi ": 9172,
  "fēi lǜ bīn ": 9173,
  "   xiāng ": 9174,
  "   rì běn ": 9175,
  "   jiàn zhù ": 9176,
  "bā shí ": 9177,
  "jìng tóu ": 9178,
  "gǎi chēng ": 9179,
  "xù liè ": 9180,
  "3 míng ": 9181,
  "94": 9182,
  "wāng ": 9183,
  " wǎn ": 9184,
  "   2008 nián ": 9185,
  "dìng lǐ ": 9186,
  "bǎo wèi ": 9187,
  "xiě le ": 9188,
  " de gǔ ": 9189,
  "bàn dǎo": 9190,
  "zhuǎn yí ": 9191,
  "   gēn jù 2010 nián měi guó rén kǒu pǔ chá de shù jù ": 9192,
  "dǒu ": 9193,
  "tt": 9194,
  " tǎ": 9195,
  "   cǐ": 9196,
  " yuè tuán": 9197,
  " jí jiāng ": 9198,
  "qū zhú": 9199,
  "mì qiè": 9200,
  "rén kǒu pǔ chá ": 9201,
  "gi": 9202,
  "   gāo ": 9203,
  "liú xué ": 9204,
  " chū xiàn de ": 9205,
  " zhōu hé ": 9206,
  "jié dù shǐ ": 9207,
  "bǎo zhàng ": 9208,
  "xīng xì ": 9209,
  "bàn yǎn": 9210,
  "nuò màn ": 9211,
  "chuí zhí ": 9212,
  " zǔ": 9213,
  " nà me": 9214,
  "xué shì xué wèi ": 9215,
  "po": 9216,
  " nóng ": 9217,
  " yàn ": 9218,
  " zhuī ": 9219,
  "xiào yǒu ": 9220,
  "lǘ": 9221,
  "shuō de ": 9222,
  "dī de ": 9223,
  " shì zhǐ": 9224,
  "pàn chǔ ": 9225,
  "hǎn mò dé ": 9226,
  "EN": 9227,
  " chǎng ": 9228,
  "sù shè ": 9229,
  "gǎi míng ": 9230,
  "zàng yú ": 9231,
  " shì bèi ": 9232,
  " xiàn yǔ ": 9233,
  " xiàn zài de ": 9234,
  " kè sà sī ": 9235,
  " xué huì ": 9236,
  "bàn fǎ ": 9237,
  " guó mín dǎng": 9238,
  " yī wèi ": 9239,
  "jiǎng zhōng ": 9240,
  " shì zhèng fǔ ": 9241,
  "rén mín": 9242,
  "yán lùn ": 9243,
  "fǎ guó de ": 9244,
  "tiáo wén ": 9245,
  " tóng shí yě shì ": 9246,
  " hé nán shěng ": 9247,
  "44 ": 9248,
  "ah": 9249,
  "ei": 9250,
  " n ": 9251,
  " shào ": 9252,
  " gōng bù ": 9253,
  " 2023 nián ": 9254,
  "qián xiàn ": 9255,
  "sì yuè ": 9256,
  "nà hé ": 9257,
  "zhēn yǔ ": 9258,
  "fǒu rèn ": 9259,
  " tā chéng wéi ": 9260,
  "rèn mìng ": 9261,
  " bìng jiāng": 9262,
  "dēng lù": 9263,
  "ā ěr bā ": 9264,
  " dōu shì ": 9265,
  "   189": 9266,
  "   fǎ guó ": 9267,
  "zǒng zhàn ": 9268,
  "jiǎ shè ": 9269,
  " zhī bù ": 9270,
  " dà chéng ": 9271,
  "xiǎo zǔ": 9272,
  "kè yùn ": 9273,
  "   Ar": 9274,
  "lǐ shì huì ": 9275,
  " fēng": 9276,
  "   X": 9277,
  "chuán qí ": 9278,
  " hé dōng ": 9279,
  " yǐ 2 ": 9280,
  " sī fǎ ": 9281,
  "shuǐ shēn ": 9282,
  " fēn bù zài ": 9283,
  "mào xiǎn ": 9284,
  "qǔ dé le ": 9285,
  " rén kǒu de ": 9286,
  "rén dà dài biǎo ": 9287,
  "ach": 9288,
  " 80": 9289,
  " wò ": 9290,
  "   chén ": 9291,
  " tā shuō ": 9292,
  " bèi jǐng ": 9293,
  "mìng míng de ": 9294,
  " guān zhì ": 9295,
  " gài ": 9296,
  "wéi rén ": 9297,
  "sān bù ": 9298,
  "liù gè ": 9299,
  "zá de ": 9300,
  "rèn zhí ": 9301,
  "sài chē ": 9302,
  " R ": 9303,
  "55 ": 9304,
  "ire": 9305,
  "māo": 9306,
  "tà ": 9307,
  "yǐng dài ": 9308,
  "qù de ": 9309,
  "dàng zuò ": 9310,
  "fāng chéng shì ": 9311,
  " shì shì jiè": 9312,
  " jiāng xī ": 9313,
  "luó mǎ dì guó ": 9314,
  " xiàn de yí gè xíng zhèng zhèn qū ": 9315,
  "51": 9316,
  "OM": 9317,
  "lí shì ": 9318,
  "jú shì ": 9319,
  "eri": 9320,
  "zǐ dàn ": 9321,
  " bù jǐn": 9322,
  " rèn zhí ": 9323,
  "mì dù ": 9324,
  "fǎn duì": 9325,
  "yīn sù ": 9326,
  "diàn yǐng de ": 9327,
  "HD": 9328,
  "lan": 9329,
  " dá": 9330,
  " pí": 9331,
  "zhàn yǒu ": 9332,
  "xīn xíng ": 9333,
  "chē rén ": 9334,
  "35 nián ": 9335,
  " dà fū ": 9336,
  " zhī hòu zài ": 9337,
  "tè lǎng ": 9338,
  "yí dù": 9339,
  "liú liàng ": 9340,
  "zhēng qǔ ": 9341,
  "fàn zuì": 9342,
  "yìn shuā ": 9343,
  "jué sài zhōng ": 9344,
  " guì ": 9345,
  " qǐng ": 9346,
  "   yán gé ": 9347,
  "   yǐ xià ": 9348,
  "jiāo jiè ": 9349,
  "wěi yuán huì zhǔ xí ": 9350,
  " chuàng": 9351,
  " wán chéng ": 9352,
  "tǐ jī ": 9353,
  "hù shì ": 9354,
  "miǎn yì ": 9355,
  "zǒng miàn jī ": 9356,
  " P ": 9357,
  " céng zài ": 9358,
  "shān xī shěng ": 9359,
  " liú yù miàn jī ": 9360,
  "chá ěr sī ": 9361,
  "yùn de ": 9362,
  "xīng jiàn": 9363,
  "chuán dì ": 9364,
  " zài bèi ": 9365,
  " xiàn zhōng ": 9366,
  " xíng hé ": 9367,
  "xué xì ": 9368,
  " jūn tuán ": 9369,
  "diàn zǐ": 9370,
  "dān mài": 9371,
  "shāng chǎng ": 9372,
  "huí guī": 9373,
  " dōng běi": 9374,
  "dài biǎo tuán ": 9375,
  " gēn jù 2020 nián měi guó rén kǒu pǔ chá de shù jù ": 9376,
  " rì běn de ": 9377,
  "àn lì ": 9378,
  "fú shì ": 9379,
  "cháo shí ": 9380,
  "bù tóng ": 9381,
  "shǒu shù ": 9382,
  "fēn liè ": 9383,
  " zhèng quán ": 9384,
  "yǎn zòu": 9385,
  "yǎn jiǎng ": 9386,
  "6 mǐ ": 9387,
  "OR": 9388,
  " dēng": 9389,
  "yǒu hé ": 9390,
  "le dì ": 9391,
  "gāo dì ": 9392,
  "cháng bèi ": 9393,
  "biàn shì ": 9394,
  "qiǎn zé ": 9395,
  "mín zhòng": 9396,
  "biān jiè": 9397,
  "   tái wān ": 9398,
  "jìn nián ": 9399,
  "gé lǐ ": 9400,
  "00 mǐ ": 9401,
  "cūn de ": 9402,
  " zhǔ chí": 9403,
  "háng kōng mǔ": 9404,
  "guǎng fàn de ": 9405,
  "CD ": 9406,
  " lán": 9407,
  " cí": 9408,
  "cho": 9409,
  "jì yú ": 9410,
  "zhǎng hé ": 9411,
  "1994 nián ": 9412,
  "yì bǎi ": 9413,
  "jīng yíng": 9414,
  "xiáng xì ": 9415,
  " zhǔ yào shì ": 9416,
  "shuǐ de ": 9417,
  "jǐng yuán ": 9418,
  " zhōng qī ": 9419,
  " chéng lì de ": 9420,
  "shēng yīn ": 9421,
  "zhèng cháng ": 9422,
  " míng xiǎn ": 9423,
  "bǎo jiā": 9424,
  "wit": 9425,
  "   tóng": 9426,
  "diē ": 9427,
  " zài qí": 9428,
  " yī zhǒng": 9429,
  " dàn de ": 9430,
  "jīn róng": 9431,
  "guī lèi": 9432,
  "shuò ": 9433,
  "wán zhěng de ": 9434,
  "61": 9435,
  "72": 9436,
  " jī yú ": 9437,
  "kāi shè": 9438,
  "gēn běn ": 9439,
  "dàng de ": 9440,
  " wèi wèi ": 9441,
  " xī fāng ": 9442,
  " zhī shàng ": 9443,
  "zhǔ bàn ": 9444,
  "qián jìn ": 9445,
  "fú léi": 9446,
  "shòu huān ": 9447,
  "yí cì shì jiè dà zhàn ": 9448,
  "gǎi zào": 9449,
  "qiáo liáng ": 9450,
  "dé guó de ": 9451,
  "zhǔ yào shì ": 9452,
  "   xiāng gǎng": 9453,
  "jiù bèi ": 9454,
  "1980 nián ": 9455,
  " duì wǔ ": 9456,
  "jīn shān ": 9457,
  "tú shā ": 9458,
  " nàn ": 9459,
  "   dào ": 9460,
  "ér tóng": 9461,
  " shí kè ": 9462,
  "lǐ lán ": 9463,
  " gè bù ": 9464,
  " zhōu lì ": 9465,
  " duì wài ": 9466,
  " lì shǐ xué jiā ": 9467,
  " yì shù jiā ": 9468,
  "Windows   ": 9469,
  "TV ": 9470,
  " kě néng": 9471,
  "fú yīn ": 9472,
  "jiē de ": 9473,
  "jiè yóu ": 9474,
  "jiāo de ": 9475,
  " shí yóu ": 9476,
  " yǒu liǎng ": 9477,
  "luó lā ": 9478,
  "shōu cáng": 9479,
  "ā ěr bēi sī ": 9480,
  " guāng xù ": 9481,
  "24 xiǎo shí ": 9482,
  "nú lì ": 9483,
  "   liú ": 9484,
  "tiǎo ": 9485,
  "1991 nián ": 9486,
  "fēn pèi": 9487,
  "nǚ zhǔ jué ": 9488,
  "zú qún ": 9489,
  "sà lā ": 9490,
  " 1952 nián ": 9491,
  "fó jiào": 9492,
  "luò kè ": 9493,
  " shì xī bān yá ": 9494,
  " bù shí ": 9495,
  " guó jūn ": 9496,
  " dà qiáo": 9497,
  " jìn ér ": 9498,
  "mó tè": 9499,
  " miàn jī 0": 9500,
  "fā bù le ": 9501,
  "chāo guò": 9502,
  " dà bù fèn": 9503,
  "dī qì yā ": 9504,
  "110": 9505,
  "mǎo ": 9506,
  " zhāo ": 9507,
  "quàn": 9508,
  "nán rén ": 9509,
  "chēng shì ": 9510,
  "gǔ jì ": 9511,
  "biàn de ": 9512,
  "nǚ rén ": 9513,
  "luò zài ": 9514,
  " shí lì ": 9515,
  " jī xiè": 9516,
  " xī zàng ": 9517,
  "tōng wǎng ": 9518,
  " shè yǐng ": 9519,
  "xuǎn qū": 9520,
  "yǐ sè ": 9521,
  "péi xùn ": 9522,
  "zhòng diǎn wén wù bǎo hù dān wèi ": 9523,
  "jiā lì fú ní yà zhōu ": 9524,
  "43 ": 9525,
  "8 gè ": 9526,
  "hào de ": 9527,
  "biān zhì ": 9528,
  "yī yuàn ": 9529,
  "zhì zuò": 9530,
  "zhǒng lèi ": 9531,
  "zī xún ": 9532,
  "qíng bào": 9533,
  "qiáng diào": 9534,
  "tǎn dīng ": 9535,
  "AL": 9536,
  "dà hé ": 9537,
  "lái kè ": 9538,
  "yà sī ": 9539,
  "zhuǎn chéng ": 9540,
  " gōng gào ": 9541,
  " rì hé ": 9542,
  " yuán zi ": 9543,
  "xīn jiāng ": 9544,
  "tóu shǒu ": 9545,
  "jià gòu ": 9546,
  "zhuān mén": 9547,
  "cuī huǐ ": 9548,
  " kěn ": 9549,
  "shá": 9550,
  "shā de ": 9551,
  " jí xiàn ": 9552,
  " yì dà ": 9553,
  " zì mǔ ": 9554,
  " jīn shǔ ": 9555,
  "tú shū guǎn": 9556,
  "gǔ lǎo de ": 9557,
  " zú": 9558,
  "jú bù ": 9559,
  " shì duì ": 9560,
  " zhī hòu de ": 9561,
  "guī dìng": 9562,
  " shì yī kē": 9563,
  "tán pàn": 9564,
  "tǐ yù guǎn ": 9565,
  "gòu mǎi ": 9566,
  "dí shì ní ": 9567,
  "cōng": 9568,
  "rou": 9569,
  " luó sī ": 9570,
  "guǎng zhōu shì ": 9571,
  "huí jiā ": 9572,
  " yī lǎng": 9573,
  "shōu rù": 9574,
  "chéng lì hòu ": 9575,
  "gòng hé dǎng ": 9576,
  " mǐ": 9577,
  " xiōng ": 9578,
  "rùn": 9579,
  "gòng jì ": 9580,
  " shì xīng děng wèi ": 9581,
  " zhōng xīn de ": 9582,
  "rú guǒ": 9583,
  "shén huà ": 9584,
  "diàn yǐng jié ": 9585,
  "zhuān lì ": 9586,
  " yǐ běi ": 9587,
  "yí dìng de ": 9588,
  "pǔ luó ": 9589,
  "yán jiū zhōng xīn ": 9590,
  "gè zhǒng": 9591,
  " а": 9592,
  " kě shì ": 9593,
  "gěn": 9594,
  "ts   ": 9595,
  " xuán ": 9596,
  "jiān wèi ": 9597,
  "shī jí ": 9598,
  "wǔ dé ": 9599,
  "ard   ": 9600,
  "zhì dù ": 9601,
  "wěi tuō ": 9602,
  " 180": 9603,
  " jǐng fāng ": 9604,
  "hōng zhà ": 9605,
  "62": 9606,
  " lǚ": 9607,
  " huā": 9608,
  "ā sī ": 9609,
  "kě jiàn ": 9610,
  "lún sī ": 9611,
  " tā yě": 9612,
  "fāng xiàng de ": 9613,
  "wēi xié": 9614,
  "her": 9615,
  "oni": 9616,
  " zēng ": 9617,
  "ā kè ": 9618,
  "gōng hé ": 9619,
  "duō lì yà ": 9620,
  "yǔ máo": 9621,
  "mó fǎ ": 9622,
  "sū dān ": 9623,
  "zhuǎn huàn ": 9624,
  " nián 12 yuè 31 rì ": 9625,
  "fǎ lán xī": 9626,
  " bù zài ": 9627,
  " péng ": 9628,
  "děng yú ": 9629,
  "céng bèi ": 9630,
  "sic": 9631,
  " zài xiāng gǎng ": 9632,
  "wù pǐn ": 9633,
  "gē gē ": 9634,
  "shǐ yòng zhě ": 9635,
  " 19 ": 9636,
  "ok": 9637,
  " bǐ sài ": 9638,
  "qǔ zì ": 9639,
  " hé jì ": 9640,
  " shí pǐn ": 9641,
  "qīng chǔ ": 9642,
  " xià le ": 9643,
  "tíng kào": 9644,
  "féi tè ": 9645,
  "73": 9646,
  "boo": 9647,
  " 21": 9648,
  "   for": 9649,
  "dà yú ": 9650,
  "zhī jiā ": 9651,
  "jiù zài ": 9652,
  "gèng shì ": 9653,
  "gào shì ": 9654,
  " xiàn míng ": 9655,
  "nèi ruì ": 9656,
  "zhuǎn huàn": 9657,
  "zhuàn xiě ": 9658,
  " shì shí shàng ": 9659,
  " nián qīng de ": 9660,
  "   m": 9661,
  "   2005": 9662,
  "rù qiú ": 9663,
  "tán hé ": 9664,
  " xíng róng": 9665,
  " jūn yǒu ": 9666,
  "fù shǐ ": 9667,
  "lián luò ": 9668,
  " zhōu qī ": 9669,
  " yóu xì de ": 9670,
  "zhǔn bèi": 9671,
  "shùn xù ": 9672,
  "kuài de ": 9673,
  " shì yīng guó ": 9674,
  " tóng zhì ": 9675,
  "chǎn wù ": 9676,
  "shōu fèi ": 9677,
  "shěn pàn ": 9678,
  " yīn cǐ zài ": 9679,
  "us   ": 9680,
  "wù yǔ ": 9681,
  "kè sī ": 9682,
  "tuǐ": 9683,
  "bā bù ": 9684,
  "wǎng yǒu ": 9685,
  "jì zǎi ": 9686,
  " xíng rén ": 9687,
  "qū nèi ": 9688,
  " bìng shì ": 9689,
  " bèi rèn mìng wèi ": 9690,
  " 1970 nián ": 9691,
  " bì xū ": 9692,
  " lú wǎ ěr shěng ": 9693,
  "měi guó rén kǒu pǔ chá ": 9694,
  "sāi ěr wéi yà ": 9695,
  "89 nián ": 9696,
  " jiǎo ": 9698,
  "   14": 9699,
  "   2022 nián ": 9700,
  "cùn": 9701,
  " wèi lì ": 9702,
  " jí bìng": 9703,
  " tā rén ": 9704,
  "jī guān ": 9705,
  "zuò zhě ": 9706,
  " xíng róng ": 9707,
  "yóu yǒng ": 9708,
  "zhǐ kòng": 9709,
  "jiāo gěi ": 9710,
  "shuǐ liàng ": 9711,
  " tiān jīn ": 9712,
  "qiú chǎng ": 9713,
  " lián jiē ": 9714,
  "kě néng xìng ": 9715,
  " 157": 9716,
  "rì běn de ": 9717,
  "EC": 9718,
  " 2004": 9719,
  "00 rén ": 9720,
  " shí dà ": 9721,
  "zhàn lüè ": 9722,
  "jiào gāo ": 9723,
  "fǎ lán kè ": 9724,
  " qí hòu yú ": 9725,
  "zhèn róng ": 9726,
  "jiǎn dān de ": 9727,
  "qǔ mù ": 9728,
  "piàn duàn ": 9729,
  " shì jiè shàng ": 9730,
  "sì chuān shěng ": 9731,
  " ruǎn": 9732,
  "chuān xiàn ": 9733,
  " yú shí de rén kǒu shù liàng wèi rén ": 9734,
  "zhí shēng jī ": 9735,
  "sài guàn jūn ": 9736,
  "yīng xióng": 9737,
  "méi yǒu rèn hé ": 9738,
  " měi zhōu ": 9739,
  " 1941 nián ": 9740,
  "yán shēn zhì ": 9741,
  "US": 9742,
  "wēng": 9743,
  " chóng xīn ": 9744,
  "   hóng ": 9745,
  "gǔ de ": 9746,
  "hào wèi ": 9747,
  "pǔ jí ": 9748,
  " shì jì zhōng ": 9749,
  " shàng le ": 9750,
  "tōng xùn": 9751,
  "wǔ hàn ": 9752,
  " wèi yú gāi guó xī bù ": 9753,
  "bāo hán le ": 9754,
  " qín": 9755,
  "chì jīng ": 9756,
  "bèi jǐng": 9757,
  "zhǐ shù ": 9758,
  "tài shǒu ": 9759,
  "èr shí nián ": 9760,
  " wèi yú yín": 9761,
  "   Mu": 9762,
  " T ": 9763,
  " yuán zhù mín ": 9764,
  "NH": 9765,
  "land": 9766,
  "oc": 9767,
  " kǎ ěr ": 9768,
  "cān yì yuán ": 9769,
  "bǔ zhù ": 9770,
  "el ": 9771,
  " lì táo ": 9772,
  " jiàn zài ": 9773,
  "zhǔ dòng ": 9774,
  "xì jié ": 9775,
  "jiē xià ": 9776,
  "zhēng fú ": 9777,
  "cái pàn ": 9778,
  "xié tiáo ": 9779,
  "chōng mǎn ": 9780,
  "ruǎn tiáo ": 9781,
  "gē lún bǐ yà ": 9782,
  "pāo ": 9783,
  "yuán bù ": 9784,
  "qià": 9785,
  "hòu yǐ ": 9786,
  "huà shì ": 9787,
  "1995 nián ": 9788,
  "jiāng hù": 9789,
  "běi bù de ": 9790,
  "chè xiāo": 9791,
  "4 mǐ ": 9792,
  " shuāng": 9793,
  "míng hé ": 9794,
  "qǔ de ": 9795,
  "zhēn rén ": 9796,
  "1984 nián ": 9797,
  " shí èr nián ": 9798,
  " yǐ biàn ": 9799,
  " dé wéi ": 9800,
  "jiào liàn": 9801,
  " rèn mìng ": 9802,
  "àn zhào": 9803,
  "bìng rù ": 9804,
  " tīng ": 9805,
  "   yóu xì ": 9806,
  "kāi tōng": 9807,
  " 1954 nián ": 9808,
  " měng ": 9809,
  "MA": 9810,
  "lín jìn ": 9811,
  "jiǎ jí ": 9812,
  "pín dào": 9813,
  "sì hū": 9814,
  "tú àn ": 9815,
  " yǒu xiàn gōng sī": 9816,
  "qí zhōng yī ": 9817,
  "jiè quán guó zhèng xié ": 9818,
  "bào fā hòu ": 9819,
  "wàng yuǎn jìng ": 9820,
  "son": 9821,
  "ā bù ": 9822,
  "chǒu ": 9823,
  "réng wèi ": 9824,
  "xuǎn xiù": 9825,
  "lǐng tǔ": 9826,
  "huáng jīn ": 9827,
  "diàn shì dòng huà ": 9828,
  "nóng chǎng ": 9829,
  " hǎi bá": 9830,
  " 1975 nián ": 9831,
  "máo dùn ": 9832,
  " chú cǐ zhī wài ": 9833,
  " 2003": 9834,
  "ān de ": 9835,
  "zhōng de yī ": 9836,
  "shù jiā ": 9837,
  "chē xíng ": 9838,
  "wàn yuán ": 9839,
  "hā lǐ ": 9840,
  "ine": 9841,
  " dà xiǎo ": 9842,
  "gé lā sī ": 9843,
  " xué shù ": 9844,
  "huǒ chē zhàn ": 9845,
  "xuān yán ": 9846,
  " HR": 9847,
  "   jǐn guǎn ": 9848,
  "DS": 9849,
  "eli": 9850,
  "   kǎ ": 9851,
  "lù shì ": 9852,
  "shǐ yú ": 9853,
  "niào ": 9854,
  "piàn zhōng ": 9855,
  "hǎi nán ": 9856,
  " tiān jīn": 9857,
  "xuān chēng ": 9858,
  "ID ": 9859,
  "hēng": 9860,
  " fā": 9861,
  " 45": 9862,
  "qī zhì ": 9863,
  "zé bèi ": 9864,
  "bō de ": 9865,
  "shuǐ dào ": 9866,
  "bǎi wàn ": 9867,
  "hū xī ": 9868,
  " yú 2021": 9869,
  "hěn dà de ": 9870,
  " fēi lǜ ": 9871,
  "cri": 9872,
  "mái": 9873,
  "jì zhì ": 9875,
  "tíng de ": 9876,
  "ard ": 9877,
  "huǒ lì ": 9878,
  "kuà yuè ": 9879,
  " shí yī nián ": 9880,
  " dà lǐ ": 9881,
  "zhǔ quán ": 9882,
  "měi tiān ": 9883,
  "nuò fū ": 9884,
  " chì wěi ": 9885,
  "4   ": 9886,
  "43 nián ": 9887,
  "   jiǎn lì ": 9888,
  "yě shēng ": 9889,
  "fēi dàn ": 9890,
  "ment ": 9891,
  "sis ": 9892,
  "yì míng ": 9893,
  "jī chē ": 9894,
  "wù tǐ ": 9895,
  "duō zhǒng": 9896,
  "shěng zhǎng ": 9897,
  "tuō lí ": 9898,
  " xiàn shí yóu ": 9899,
  "kā fēi ": 9900,
  "tāo": 9901,
  " sōng ": 9902,
  "mò nián ": 9903,
  "dú de ": 9904,
  "tū jī ": 9905,
  "wēn dài ": 9906,
  " jí wéi ": 9907,
  " yǐ bù ": 9908,
  " dà bǎn ": 9909,
  " xíng tài ": 9910,
  " yóu tài ": 9911,
  "měi xiǎo shí ": 9912,
  " de dì sān ": 9913,
  "chuàng zào": 9914,
  " yù jì ": 9915,
  " fán": 9916,
  "   gǔ ": 9917,
  "shēng yuán ": 9918,
  "fāng zài ": 9919,
  "hù wèi ": 9920,
  " shì é luó sī ": 9921,
  " dé dào": 9922,
  " chū chǎng ": 9923,
  "shēn tǐ": 9924,
  "ní sū ": 9925,
  "tiáo jié ": 9926,
  " 18 ": 9927,
  " jiàn zhù wù ": 9928,
  " 1939 nián ": 9929,
  "2 lì ": 9930,
  "xīn jiàn ": 9931,
  "shā rén ": 9932,
  " zài fǎ guó ": 9933,
  " hé shàng ": 9934,
  " dé jūn ": 9935,
  "lián luò": 9936,
  " zhè zuò ": 9937,
  "xiū dìng ": 9938,
  " zhè shí ": 9939,
  " 1944 nián ": 9940,
  "41 ": 9941,
  " cáo ": 9942,
  "   2009 nián ": 9943,
  "shèng dàn ": 9944,
  "jùn de ": 9945,
  "ra ": 9946,
  " rén duì ": 9947,
  " jí gōng ": 9948,
  "jiào zōng ": 9949,
  " huò zhě": 9950,
  "lóng shěng ": 9951,
  "jiǎng jīn ": 9952,
  "pái liè ": 9953,
  "zhōng guó dà lù ": 9954,
  "xǔ kě ": 9955,
  "span ": 9956,
  "   jīng lì ": 9957,
  "fèn de ": 9958,
  "niào": 9959,
  "zào xíng ": 9960,
  "chóng jiàn": 9961,
  "liù míng ": 9962,
  " dì yī wèi ": 9963,
  "shòu huān yíng ": 9964,
  "fēng gé de ": 9965,
  "xiào lǜ ": 9966,
  "jǔ zhèn ": 9967,
  " shǒu cì": 9968,
  " SAO": 9969,
  " E ": 9970,
  "52 ": 9971,
  "   xiǎo ": 9972,
  "   èr ": 9973,
  "nà ěr ": 9974,
  "bǎ tā ": 9975,
  " guó yǒu ": 9976,
  " yǔ xī ": 9977,
  " shēng tài ": 9978,
  " 1940 nián ": 9979,
  "KB": 9980,
  " 90": 9981,
  " féng": 9982,
  "   en": 9983,
  "   lín ": 9984,
  "hǎi de ": 9985,
  "zé yóu ": 9986,
  "hù de ": 9987,
  " yú tóng": 9988,
  "guān xì de ": 9989,
  "yán fā ": 9990,
  " qí B": 9991,
  " duì xiàng ": 9992,
  "zhōu biān": 9993,
  "huǒ chē ": 9994,
  "bǔ rǔ ": 9995,
  " lì fǎ huì ": 9996,
  "8 mǐ ": 9997,
  "um ": 9998,
  "jiāng jūn": 9999,
  "suǒ yǐ ": 10000,
  "gǒng": 10001,
  " zǐ ": 10002,
  "xù de ": 10003,
  "zhuāng wèi ": 10004,
  "1989 nián ": 10005,
  " jí huì ": 10006,
  " jí qí tā ": 10007,
  "jù lí": 10008,
  "qián tǐng": 10009,
  "shōu gòu": 10010,
  "gèng dà de ": 10011,
  "ōu méng ": 10012,
  " 1960 nián ": 10013,
  "biǎo xiàn chū ": 10014,
  " jí xíng zhèng dān wèi ": 10015,
  " tí chū ": 10016,
  "fāng xíng ": 10017,
  "zhí xíng": 10018,
  "yà hé ": 10019,
  "jué wèi ": 10020,
  " jí tǐ ": 10021,
  "bèi ěr ": 10022,
  "guān kàn ": 10023,
  "yí bàn ": 10024,
  "bì yào ": 10025,
  "xiāo fáng ": 10026,
  "rén mín zhèng fǔ ": 10027,
  " yín wěi ": 10028,
  "0 zuò biāo wèi ": 10029,
  "ca": 10030,
  " wén": 10031,
  "   shàng ": 10032,
  "fēn qí ": 10033,
  " chéng yī ": 10034,
  "wéi yī de ": 10035,
  "zhǔ dǎo ": 10036,
  " dàn shì zài ": 10037,
  "zhí bàng": 10038,
  " bìng fēi": 10039,
  " dàn zuì zhōng ": 10040,
  " xiāng bǐ ": 10041,
  "tǔ rǎng": 10042,
  " guān zhuàng bìng dú": 10043,
  " wèi yú yín jīng ": 10044,
  " qí B1900": 10045,
  "0 zuò biāo wèi chì jīng ": 10046,
  "46 nián ": 10047,
  " kē xué ": 10048,
  "   11 yuè ": 10049,
  "   2007 nián ": 10050,
  "xíng de ": 10051,
  "jié shí ": 10052,
  "lián jūn ": 10053,
  "lā wéi ": 10054,
  "bó ěr ": 10055,
  "．": 10056,
  " ér hòu ": 10057,
  " jīng cháng ": 10058,
  " jiàn zhù miàn jī ": 10059,
  "kòng zhì de ": 10060,
  "cǎi yòng le ": 10061,
  "gá": 10062,
  "   9": 10063,
  "   sān ": 10064,
  "   fēn bù ": 10065,
  "zi shì ": 10066,
  "jiāo zhàn ": 10067,
  "37 nián ": 10068,
  " shí rèn": 10069,
  " sī zhí ": 10070,
  "cì shù ": 10071,
  " xiāng sì ": 10072,
  "biān zǔ ": 10073,
  " zuì zǎo": 10074,
  " ン": 10075,
  " qīng cháo zhèng zhì rén wù ": 10076,
  " ào dà lì yà ": 10077,
  "4 míng ": 10078,
  "rin": 10079,
  " pú táo yá": 10080,
  "00 wàn ": 10081,
  "185": 10082,
  "sǐ le ": 10083,
  " zài qián ": 10084,
  " rén zhì ": 10085,
  "hòu qī ": 10086,
  "yóu xì de ": 10087,
  "zì wǒ ": 10088,
  "jué sè de ": 10089,
  " jù qíng ": 10090,
  "pǔ lā ": 10091,
  " liáng": 10092,
  " yǎ": 10093,
  " zú ": 10094,
  " fān ": 10095,
  "   chú ": 10096,
  "xiàng jī ": 10097,
  "dǎo hé ": 10098,
  "bā sī ": 10099,
  "shèng de ": 10100,
  "lún de ": 10101,
  "wǒ de ": 10102,
  "zhōng huá mín guó ": 10103,
  "yùn yíng": 10104,
  "tí qián ": 10105,
  "   Con": 10106,
  "   chē zhàn gòu zào ": 10107,
  "luò fá kè ": 10108,
  "   píng ": 10109,
  "zuì yǒu ": 10110,
  "lùn shì ": 10111,
  "màn de ": 10112,
  "xiě wèi ": 10113,
  "shí dài ": 10114,
  " shí sān ": 10115,
  " dà jiē ": 10116,
  "xià lìng ": 10117,
  "kāi zhǎn": 10118,
  "dìng yì wèi ": 10119,
  " xiāng dāng ": 10120,
  "xùn sù": 10121,
  "chóng fǎn ": 10122,
  "gēn suí ": 10123,
  "jiě fàng jūn": 10124,
  " hú běi ": 10125,
  "lián méng de ": 10126,
  "mù sī lín": 10127,
  "kàng zhàn ": 10128,
  " zhōng yī ": 10129,
  "jiān chí ": 10130,
  "suǒ xū": 10131,
  " 1966 nián ": 10132,
  " dà bù fèn ": 10133,
  " zī ": 10134,
  " wū kè lán": 10135,
  "huà yǔ ": 10136,
  "nèi sī ": 10137,
  " jí chéng ": 10138,
  " jí bié ": 10139,
  "zhǔ dǎ ": 10140,
  "fāng biàn ": 10141,
  "jiān chá": 10142,
  " dài lái ": 10143,
  " qiú duì": 10144,
  "dān dú ": 10145,
  "jǐn zhāng ": 10146,
  "cān guān ": 10147,
  "zhēn zhèng de ": 10148,
  " 1942 nián ": 10149,
  " ān huī ": 10150,
  " shī": 10151,
  " zhěng gè ": 10152,
  "suǒ shì ": 10153,
  "hèn ": 10154,
  " zhōng jiàng ": 10155,
  "zhòng liàng ": 10156,
  "shùn shí zhēn yǔ ": 10157,
  " xí ": 10158,
  " zhōng duàn ": 10159,
  " shí bā ": 10160,
  " yǐ dōng ": 10161,
  " chū xí": 10162,
  "tóng yàng ": 10163,
  " yě bù ": 10164,
  "tiē mù": 10165,
  "7 gè ": 10166,
  "Vi": 10167,
  "rǎo": 10168,
  " 38": 10169,
  "   guó jì ": 10170,
  "huǎng ": 10171,
  "niàng ": 10172,
  "1990 nián ": 10173,
  " shì tái wān ": 10174,
  " rén quán ": 10175,
  " yì xí ": 10176,
  " yī shí ": 10177,
  " dà duì ": 10178,
  "fù mǔ ": 10179,
  "jiào dà de ": 10180,
  "zhǐ dìng": 10181,
  "zuì zhòng yào de ": 10182,
  " 1935 nián ": 10183,
  "OS ": 10184,
  " sè ": 10185,
  "   tā de ": 10186,
  "zhèn jí xíng zhèng dān wèi ": 10187,
  "xiān wéi ": 10188,
  "las": 10189,
  "tern": 10190,
  " xiàn zhǎng ": 10191,
  " yīn ér": 10192,
  "qǐ yuán yú ": 10193,
  "gǔ diǎn ": 10194,
  "gē shǒu": 10195,
  " 1976 nián ": 10196,
  " guó fáng bù ": 10197,
  " jǐ": 10198,
  " 200": 10199,
  "   ér ": 10200,
  "wù bù ": 10201,
  "lái shì ": 10202,
  "huá de ": 10203,
  "jiǎng lì ": 10204,
  "shēng gé wèi ": 10205,
  "xiǎng yào ": 10206,
  "róng liàng ": 10207,
  "kàn fǎ ": 10208,
  "kàng rì zhàn zhēng ": 10209,
  "oi": 10210,
  " kuài ": 10211,
  "   re": 10212,
  "shòu dào le ": 10213,
  "ork": 10214,
  " zhì yuán ": 10215,
  " shàng yìng ": 10216,
  " rén kǒu wèi ": 10217,
  "42 nián ": 10218,
  " wēi ěr ": 10219,
  "jì bù ": 10220,
  "jī huì ": 10221,
  " dào dá": 10222,
  "qū zhú jiàn ": 10223,
  "jīn shǔ": 10224,
  "shòu sǔn ": 10225,
  "ài ěr lán": 10226,
  " wēn ": 10227,
  "ài hào ": 10228,
  "jǐng wèi ": 10229,
  "jià de ": 10230,
  "160": 10231,
  " shì láng ": 10232,
  "yì huì ": 10233,
  " yú léi ": 10234,
  " jiàn kāng": 10235,
  "zhù shǒu ": 10236,
  "diàn chí ": 10237,
  " zhōu zhǎng ": 10238,
  "chēng hū ": 10239,
  "jiǎn chá": 10240,
  "pǐn zhǒng ": 10241,
  " 1968 nián ": 10242,
  " zhèng fǔ de ": 10243,
  "hùn níng ": 10244,
  "44 nián ": 10245,
  "   wáng ": 10246,
  "yòu yì ": 10247,
  "lùn de ": 10248,
  "xùn xī ": 10249,
  "fú zhuāng ": 10250,
  " yóu zhèng ": 10251,
  "zhèn yā ": 10252,
  "nuǎn ": 10253,
  "fěng ": 10254,
  "pá": 10255,
  " 70": 10256,
  " tài guó ": 10257,
  "   zuò wéi ": 10258,
  "   2006 nián ": 10259,
  "wéi gōng ": 10260,
  "quán yì ": 10261,
  "1972 nián ": 10262,
  "dǒng ": 10263,
  "38 nián ": 10264,
  " yǐ cǐ ": 10265,
  "zì shā ": 10266,
  "huà guī ": 10267,
  "miàn xiàng ": 10268,
  "qíng gǎn ": 10269,
  "jiǎng pái ": 10270,
  "shōu cáng ": 10271,
  "qún dǎo de ": 10272,
  "è huà ": 10273,
  " J ": 10274,
  "tòng k": 10275,
  "2 hào ": 10276,
  " guǎng xī ": 10277,
  "   luó ": 10278,
  "xìng míng ": 10279,
  "bā jī sī ": 10280,
  "biān xíng ": 10281,
  " rén yǔ ": 10282,
  " zuò zhě ": 10283,
  "tiān wén xué ": 10284,
  " 150": 10285,
  "   5 ": 10286,
  "xiàng wèi ": 10287,
  " shì pín ": 10288,
  " yī liáo": 10289,
  " dào shí ": 10290,
  " yǔ wén ": 10291,
  "qū bié ": 10292,
  " zhōu fù zé guǎn xiá ": 10293,
  " zhè yàng": 10294,
  " zhǔ rèn ": 10295,
  " lián méng ": 10296,
  "tiáo yuē tǐ xì ": 10297,
  "83 nián ": 10298,
  "por": 10299,
  "xiàng yú ": 10300,
  " zài yǒu ": 10301,
  "huà miàn ": 10302,
  "xuǎn mín ": 10303,
  "sù sòng ": 10304,
  " yǐn fā ": 10305,
  "39 ": 10306,
  " péng": 10307,
  " guō ": 10308,
  "nán shì ": 10309,
  "kuáng": 10310,
  "xiǎng yǒu ": 10311,
  "táng hé ": 10312,
  " zhōng shān": 10313,
  " yú 2016": 10314,
  "jiāng nán ": 10315,
  "wài láng ": 10316,
  "kǎo chá ": 10317,
  " kōng ": 10318,
  "tè zài ": 10319,
  "shēn yú ": 10320,
  "fēi de ": 10321,
  "liǎng zuò ": 10322,
  "què shí ": 10323,
  "qù le ": 10324,
  "suān jiǎn ": 10325,
  " zài chéng ": 10326,
  "yóu jú": 10327,
  "kē huì shì dì ": 10328,
  " yóu qí ": 10329,
  " de shí jiān": 10330,
  "   Li": 10331,
  " ài ěr ": 10332,
  "ES": 10333,
  "wá": 10334,
  " qiān": 10335,
  "mò de ": 10336,
  "yín hé ": 10337,
  " gōng dǎ ": 10338,
  "qián lái ": 10339,
  "qián shēn ": 10340,
  "jiǎn cè ": 10341,
  "nán jí tiáo yuē tǐ xì ": 10342,
  " píng chéng ": 10343,
  "34 nián ": 10344,
  "ET": 10345,
  "   suī rán": 10346,
  "kē lì ": 10347,
  "méi tóng pái ": 10348,
  "tīng dào ": 10349,
  "inc": 10350,
  "36 ": 10351,
  "cán jí rén ": 10352,
  " yú 2019": 10353,
  "wéi yě ": 10354,
  " yuán yīn shì ": 10355,
  "jǐ nèi ": 10356,
  " gāi cūn shǐ jiàn yú ": 10357,
  " bīn ": 10358,
  "yú wèi ": 10359,
  "luò yī ": 10360,
  "tū rán": 10361,
  " shì chū ": 10362,
  " zài nèi ": 10363,
  "duō shù": 10364,
  "quán tǐ ": 10365,
  "sù dù": 10366,
  " tī": 10367,
  "quán guó zhòng diǎn wén wù bǎo hù dān wèi ": 10368,
  "pī pàn ": 10369,
  "rè dài": 10370,
  "péi xùn": 10371,
  " xíng chéng le ": 10372,
  "qí zhōng yí gè ": 10373,
  "xià xiá de yí gè xiāng zhèn jí xíng zhèng dān wèi ": 10374,
  " lèi ": 10375,
  "zhèng yì ": 10376,
  "měi de ": 10377,
  "zhèn dì ": 10378,
  "pīn": 10379,
  "hūn yīn": 10380,
  "cù ": 10381,
  " chéng dū ": 10382,
  "bō tè ": 10383,
  "shā bái ": 10384,
  "shāng hài ": 10385,
  "léi dá ": 10386,
  "tiān wén tái ": 10387,
  "33 nián ": 10388,
  "kū": 10389,
  "n   ": 10390,
  "tè shì ": 10391,
  "179": 10392,
  "tǎ jī ": 10393,
  "gōng mín ": 10394,
  " chéng gōng de ": 10395,
  " jiā lǐ ": 10396,
  " kè yǔ ": 10397,
  " dé luó ": 10398,
  "fǎ lán xī ": 10399,
  "huí dá ": 10400,
  "dāng xuǎn wèi ": 10401,
  " 1959 nián ": 10402,
  " 17 ": 10403,
  "wù zhōng ": 10404,
  "1993 nián ": 10405,
  "nóng lì ": 10406,
  " zài nà ": 10407,
  " rì yǐ ": 10408,
  " yī rán ": 10409,
  "wéi chí ": 10410,
  " jiàn dào ": 10411,
  " wéi wú ěr ": 10412,
  "tiáo kuǎn ": 10413,
  "kuāng jià ": 10414,
  "yǔ dì ": 10415,
  "sì wèi ": 10416,
  "48 nián ": 10417,
  "chéng rèn ": 10418,
  " yuè yǔ ": 10419,
  " guó ān ": 10420,
  " chéng fèn ": 10421,
  " gè guó jiā ": 10422,
  "fēn lí": 10423,
  "qīng xiàng ": 10424,
  "mò qī ": 10425,
  " 1953 nián ": 10426,
  " sī lìng yuán ": 10427,
  "adi": 10428,
  "duī": 10429,
  "shēng hé ": 10430,
  "cí jī ": 10431,
  "fáng xiàn ": 10432,
  "yàn de ": 10433,
  "lěi jī ": 10434,
  " zài shàng ": 10435,
  "wéi chí": 10436,
  " gè lèi ": 10437,
  " bìng bú shì ": 10438,
  "bǎo xiǎn ": 10439,
  " xià lái ": 10440,
  "wǎng wǎng": 10441,
  "xiǎo xíng xīng de ": 10442,
  " F ": 10443,
  "mín zú zhǔ yì ": 10444,
  "nán jí tiáo yuē tǐ xì guǎn lǐ ": 10445,
  "ren": 10446,
  " guāng": 10447,
  " 2002": 10448,
  "   a   ": 10449,
  "   zhí yè shēng yá ": 10450,
  "le zhōng guó ": 10451,
  "tóng wèi ": 10452,
  "shuǐ shàng ": 10453,
  "sà kè sī ": 10454,
  "shí yī ": 10455,
  "huì shàng ": 10456,
  "dài mǎ ": 10457,
  "tōng yòng ": 10458,
  "yí gè yuè ": 10459,
  "diàn shì jié mù ": 10460,
  " 16 ": 10461,
  "rè dài qì xuán ": 10462,
  "shān mài de yī bù fèn ": 10463,
  "hù lián wǎng ": 10464,
  "41 nián ": 10465,
  "pèng ": 10466,
  "hǎi shì ": 10467,
  "shěng fù zé guǎn xiá ": 10468,
  "niáng": 10469,
  "yǐn jìn ": 10470,
  "zuān ": 10471,
  "250": 10472,
  " shí tǐ ": 10473,
  " dà qì ": 10474,
  "jiào dī ": 10475,
  "qián fēng ": 10476,
  "fǎ xué ": 10477,
  " fù zhǔ xí ": 10478,
  "yǎn huà ": 10479,
  "tíng zhǐ": 10480,
  "miè jué ": 10481,
  " jí běi měi ": 10482,
  "gěn dì ": 10483,
  "   13": 10484,
  "rì jūn ": 10485,
  "fēi ěr dé ": 10486,
  "céng yǒu ": 10487,
  "jiǎn yì ": 10488,
  "suí jī ": 10489,
  " dì 3 ": 10490,
  " chéng jiù ": 10491,
  " zhī lǐ ": 10492,
  " dà chén": 10493,
  " huò chēng ": 10494,
  "zhèng zhì jiā ": 10495,
  " cǐ cì ": 10496,
  " 1920 nián ": 10497,
  " An": 10498,
  "wéi yī yī ": 10499,
  "ey": 10500,
  "   wài bù ": 10501,
  "duì zhōng ": 10502,
  "yòng zài ": 10503,
  "jié chū ": 10504,
  "céng rèn ": 10505,
  "gǎi jìn ": 10506,
  " chū yú ": 10507,
  "tóng méng": 10508,
  "jiě sàn": 10509,
  " 1972 nián ": 10510,
  "mái ": 10511,
  "   jié ": 10512,
  "yè hé ": 10513,
  " wèi jí ": 10514,
  " jī fēn ": 10515,
  "wén zhāng": 10516,
  " zhōu kān ": 10517,
  " dàn yě ": 10518,
  "liáng hǎo ": 10519,
  " de gōng néng ": 10520,
  " 1943 nián ": 10521,
  " mǔ qīn": 10522,
  "fā biǎo de ": 10523,
  "YouTube ": 10524,
  "7 mǐ ": 10525,
  " yào": 10526,
  "yǔ yì ": 10527,
  " rén bèi ": 10528,
  " yī shī ": 10529,
  " xiàn xìng ": 10530,
  "táng qū ": 10531,
  "xiāng gǎng de ": 10532,
  "   1999 nián ": 10533,
  "   zhōng huá rén mín gòng hé guó ": 10534,
  "cān sài zī gé ": 10535,
  " li": 10536,
  "   rì ": 10537,
  "běi jí ": 10538,
  "dìng zài ": 10539,
  "liú qiú ": 10540,
  "bīng de ": 10541,
  "codice ": 10542,
  "rén kǒu wèi ": 10543,
  " dì chǎn ": 10544,
  " yǒu míng ": 10545,
  "jì huà": 10546,
  " yuán lǐ ": 10547,
  "suǒ wèi de ": 10548,
  "yǎn zòu ": 10549,
  " rén mín zhèng fǔ": 10550,
  "chóng qìng ": 10551,
  " yě zài ": 10552,
  "bǐ sài de ": 10553,
  " gè yuè hòu ": 10554,
  "yà měi ní yà ": 10555,
  "39 nián ": 10556,
  "huì wèi ": 10557,
  "xìn rèn ": 10558,
  "zēng shè ": 10559,
  "nán bù de ": 10560,
  "yù cè ": 10561,
  "liǎng àn ": 10562,
  "cí diǎn ": 10563,
  "xiū dào yuàn ": 10564,
  "47 nián ": 10565,
  "fēn jí ": 10566,
  "yě zhàn ": 10567,
  " guó dào ": 10568,
  " duì fāng ": 10569,
  "hǎi bá gāo dù ": 10570,
  "nèi gé": 10571,
  "pǔ lǔ shì ": 10572,
  " wèi yú zhōng huá rén mín gòng hé guó ": 10573,
  " zhǔ tí ": 10574,
  "jiǔ lóng": 10575,
  "yīn cǐ ": 10576,
  " tóng xìng ": 10577,
  "dū chá ": 10578,
  " zhí jiē ": 10579,
  "shào nǚ": 10580,
  " de jì shù ": 10581,
  "wěn dìng de ": 10582,
  "tài yáng gōng ": 10583,
  "   wú ": 10584,
  "dà xíng ": 10585,
  " tā yǒu ": 10586,
  "dǎo shī ": 10587,
  "bǎn quán ": 10588,
  "jū liú ": 10589,
  "yìn ní": 10590,
  " xiāng dāng yú ": 10591,
  "1 jiā ": 10592,
  "UN": 10593,
  " dī ": 10594,
  " jiē wèi ": 10595,
  " lěi jì ": 10596,
  "shuǐ zhōng ": 10597,
  " xī tè ": 10598,
  "qī jiān de ": 10599,
  "rù jìng ": 10600,
  "shèng mǔ ": 10601,
  "shāng wù ": 10602,
  "shén shèng ": 10603,
  " 156": 10604,
  " lái zì": 10605,
  " 1977 nián ": 10606,
  "IV": 10607,
[...]
