#version: 0.2
n g
i 4
a n
s h
z h
ng 1
j i
u 4
ng 2
Ġ Ġ
i 2
a o
x i
ng 4
an 2
i 3
i 1
d e
u 3
an 4
e 4
e n
c h
u o
u 2
ng 3
an 1
e 2
a i4
u 1
ĠĠ Ġ
o ng1
a 1
ã Ģ
sh i4
e i4
ao 4
i an2
a 4
y u
a ng1
y o
an 3
n 1
h u
a ng4
n ian2
en 2
l i
a ng3
e ng2
uo 4
uo 2
w ei4
m i
ao 3
z ai4
ãĢ ģ
b i
q i
a ng2
e 1
h e2
y i
e ng1
zh ong1
e r
b u4
o u4
a 3
e 3
n 4
sh i2
d i4
g uo2
a i2
u i4
r en2
ao 1
x u
y i1
n 2
o ng2
y u2
g u
l i4
zh i4
d i
w e
en 4
ch eng2
o ng4
y i4
g ong1
ji 2
e ng4
en 1
yu e4
yo u3
yu an2
d a4
a 2
l e
j i4
2 0
y i3
j u
a i1
p i
xi an4
o u1
ji a1
s i1
xi ng2
e i3
t i
y u3
ji 1
t a1
r i4
zh i1
h ou4
l i3
o u3
a i3
we i2
hu i4
d ao4
1 9
o ng3
q i2
u an2
zh eng4
mi ng2
xi 1
ao 2
ji an4
xu e2
ch u1
g e4
z uo4
uo 1
sh eng1
d ui4
yo u2
uo 3
q u1
sh ang4
en 3
de 2
b ei4
sh i3
zh u
zh an4
n 3
xi n1
ju n1
er 3
sh e4
r en4
f a1
w u4
bi ng4
k e4
er 2
l u4
d ai4
zh u3
y i2
sh u4
j u4
ji n4
z i4
yi n1
f u4
f ang1
ji ng1
n an2
hu a4
zh ou1
pi ng2
xi a4
l ai2
yo ng4
gu an1
t ong2
y u4
ãĢ ĭ
ãĢ Ĭ
f a3
zh u4
m ei3
Â ·
ji an1
b o
h uo4
b en3
xi ang1
zh i2
d ong4
xi ang4
mi n2
zh e4
ji ang1
q i1
f en1
sh ou3
q uan2
w en2
y an2
s uo3
ji ao4
q ian2
di an4
t e4
d uo1
z ui4
k ai1
ji e2
l ian2
zh i3
x i4
k e3
e ng3
e i1
d an4
m u4
y e4
d u4
f u2
sh u
m a3
y e3
d ong1
qi u2
b ei3
ãĢ Į
ãĢ į
g ao1
y a4
o u2
d u
ji e1
u n2
mi an4
h ai3
zh ang3
sh i1
ji n1
c i3
n ei4
s ai4
s an1
t ai2
g e2
xi ng4
g uo4
20 1
de ng3
y ao4
ch e1
c i4
s u
m o
r u4
w u3
g ai1
k u
di ng4
ch ang2
bi ao3
l a1
t i3
g ong4
ji e4
sh ou4
d ao3
sh an1
ch ang3
s i4
l v
z e2
t i2
k e1
d ang1
n eng2
er 4
w ai4
e i2
ch u
d an1
q i3
z i
k ou3
xi ao3
z u3
b a1
ju e2
li n2
li u2
n i
sh eng3
yi ng1
l an2
b i3
l uo2
t ong1
20 0
zh ong4
zh e3
sh u3
ti an1
zh en4
zh ong3
li e4
q i4
ch eng1
sh u1
yu an4
b ao3
t ai4
f u3
f eng1
m i3
qi ng1
sh en1
w ang2
yu n4
gu an3
f ei1
ji u4
g u3
li ang3
c eng2
m ei2
1 0
f en4
h ao4
y an3
we i3
z ong3
xu an3
xi ao4
d a2
n a4
li ang4
bo 1
z u2
ji ng4
b ao4
n i2
w u2
t ong3
hu a2
ji ao1
yu e1
yi ng3
bi an4
xi ng1
s u4
shu i3
y ang2
m en
b ao1
g e1
bo 2
c an1
c ong2
di an3
r u2
b an4
b i4
bi an1
w ang3
q u3
ch an3
s e4
z i1
q u
0 0
ch uan2
n v
sh eng4
r an2
t u2
zh ang1
x u4
p u3
g ai3
g ang3
nv 3
li ng4
l uo4
yo u4
t ou2
h u4
ch a2
c e4
ch i2
1 8
lv 4
qi an1
l i2
d ou1
1 2
zh eng1
k uo4
sh a1
l u
d ang3
f an3
g ou4
l ei4
x i2
ji ng3
t uan2
we i1
xi e1
li ng3
l ong2
gu i1
xi an1
r ong2
hu ang2
xi ang3
b an1
ji u3
yi ng4
m en2
sh ang1
sh en2
20 2
b an3
k a3
c u
m u3
ji n3
f u1
j u3
mo 2
gu ang3
c i2
sh uo1
qi ng2
zh an3
h ai2
zhu ang1
mo 4
c ai2
ji 3
d u2
1 1
pi n3
ti ng2
ch ao2
yi ng2
w o
ti ao2
p o
ji an3
t ang2
hu i2
du an4
ch en2
g en1
m i4
w an4
p ai2
w an1
z ao4
h ang2
w an2
bi ao1
l un2
19 9
xi e2
ji ang3
h an4
j u2
f an4
f ang2
h uo2
g u4
h an2
k ong1
ti e3
m eng2
bi e2
w u1
ji e3
zhu an1
yi n3
x u1
zh en1
ji a4
bi ng1
mi ng4
li ng2
h ong2
qi n1
z i3
lu n4
t u
o r
xi n4
ch u4
s u1
xi u1
ch u3
z ong1
1 5
h u2
qu e4
xi ao1
zh ao4
qi ang2
q u4
cu n1
ch ong2
pi an4
ji u1
f ang4
su i2
sh ou1
g eng4
â Ģ
gu ang1
j u1
ji a3
chu ang4
d i2
zhu an3
1 6
g uo3
xu n4
m an4
p ai4
f ei4
p ei4
19 8
d a3
t uo1
xu an1
ch u2
b ai2
l a
o n
zh u1
d u1
t u3
di ao4
xi a2
li u4
1 7
s ui4
hu i1
ti ng1
qi e3
t a3
qi ao2
h a1
g an3
z eng1
xi an3
m ai4
hu an2
x u3
w a3
tu i1
w en4
ch ao1
t ian2
b ai3
c ai3
li ang2
y a2
s a4
a r
b ai4
c un2
ji ao3
sh ao3
y an4
zhu ang4
d i3
h uo3
le i2
1 4
ji ang4
chu an1
yi n4
z ao3
yo ng3
s i3
de ng1
3 0
zhu n3
l e4
xu n2
n uo4
hu an4
s ong4
g ao4
l u3
1 3
19 4
b ang1
lv 3
y ang4
h en3
q un2
zh eng3
gu an4
po 4
g ang1
wo 3
19 7
hu a1
le i1
h ao3
t ao2
ku ang4
p i1
du n4
n ong2
g ei3
s ai1
shu ang1
li an4
ku ai4
i n
d i1
p an4
xi e3
19 5
k ao3
g ai4
h e4
h ei1
w ang4
li ao4
r e4
g e
z uo3
k ong4
19 6
y ang1
ch ang4
yi n2
r eng2
s en1
b ei1
l u2
pi ao4
y a1
k u4
2 5
bi n1
âĢ Ķ
r ang4
ch ong1
l ou2
b u3
l ao3
zh u2
ju n4
y ang3
r ui4
y ao1
xi an2
xi e4
ni an4
f or
yo u1
t an2
k ang1
p i2
h eng2
yu n2
k an4
ni ng2
li ao2
sh ao4
b u2
qi ng3
ch i3
2 4
m u
d ou4
mi an3
y ong1
t an3
w an3
h u1
r u
f an1
a l
t u1
g an1
su an4
di ng1
yu an3
w en1
t ui4
zh e
s t
2 1
xi u4
b a3
m an3
19 3
2 3
mu la
k ang4
for mula
2 8
t h
m ao2
r uo4
pi an1
m ao4
l ang3
qi n2
b a2
n a2
z an4
xi 3
gu i3
g ui4
r e
pi n2
wo 4
xi ong2
sh an4
2 2
xi ong1
m e
su i1
2 6
sh en3
qi ng4
mi ao2
f ang3
5 0
20 20
2 7
l ang2
o u
qi u1
s ong1
r i
d ang4
g eng1
qi ang1
f a2
z ao1
f eng4
zh ang4
ï ¼
h ao2
du n1
z ou3
h ai4
qi e4
2 9
t an4
z u
p ao4
p a4
shu n4
p eng2
xu an2
201 0
n i3
00 0
di ng3
ni u3
z ai3
zh ao1
zhu i1
lv e4
chu n1
20 19
hu n1
k ong3
ch e4
du an1
sh en4
xi ang2
du an3
g an4
r o
t e
k an1
l ao2
c ao3
201 6
s i
g u1
p ei2
ku an3
z a2
201 8
su n1
y e2
y a3
r a
po 1
202 1
zh a4
ch i4
d uo2
201 4
f an2
201 1
201 5
c uo4
201 7
zh e2
y ao2
p ai1
t ou4
c ang2
201 2
4 0
k ai3
201 3
202 2
m i2
ru an3
su an1
ch a1
z ang4
mi ao4
l t
200 9
zh ao3
200 8
hu ai2
ã ĥ
c e
6 0
xu e4
ch ou2
s e
b ang3
a m
m eng4
10 0
t i4
p u2
n ao3
202 3
zhu an4
g t
le i3
19 0
3 1
c ai4
s an4
m ou2
ti on
hu n4
ku an1
200 7
t a
ni u2
m ou3
t ao3
di e2
200 1
t eng2
s ou1
k en3
qi an3
ch ang1
r an3
qu e1
f ou3
su n3
f o
b a4
200 0
8 0
k ao4
s uo1
200 6
ni ao3
p i3
ch un2
202 4
l an3
ã ģ
z ai1
c o
xu e3
hu i3
e l
m a
lu an4
ti ng3
200 5
zu n1
b ang4
l a4
hu an1
r ang3
sh ui4
mi n3
3 5
l ai4
c ang1
7 0
fo 2
p an2
n ai4
w en3
n e
c ao1
o f
s ang1
p ang2
9 0
bi ng3
ï¼ į
t er
zh a1
ã Ĥ
shu ai4
ni e4
h ou2
m ei4
sh ao1
n u3
d ong3
i l
f eng2
mi e4
yu n3
z ou4
m ai3
hu ai4
200 4
4 5
l o
y an1
th e
h e
4 8
zh uo2
a t
an d
t ao4
n ai3
ku n1
202 5
zh en3
c k
r u3
ku a4
ku i2
ãĢ ī
ãĢ Ī
g ou1
3 6
e t
cu i1
e s
3 8
c u4
sh an3
r ou4
di ao1
200 3
h u3
g uo1
3 7
c ui4
x u2
i s
m ang2
ju an3
t o
c an2
di an1
zh an1
c ao2
18 9
I N
200 2
k eng1
T C
m a2
3 4
le ng3
a s
z u1
ch a4
7 5
âĢ ĵ
o w
s u2
qu an1
d a1
ch ai1
l ang4
ku n4
4 6
t un2
f en3
199 0
âĢ ¦
o l
v e
zh ou4
sh ang3
r ao4
h eng1
t i1
xu n1
3 9
n e4
. .
n an4
p an1
6 5
h ong1
sh u2
t an1
t ang1
k an3
M a
n i4
C h
3 2
i t
S T
h an3
4 7
U TC
qi an4
199 9
199 8
I n
198 0
18 8
5 00
3 3
6 4
qi ang3
sh e2
sh uo4
p ao3
b e
k a1
zh ai2
S E
5 5
qu an4
n i1
de ng4
199 7
T he
C o
m ian2
4 9
g ao3
I I
6 8
h an
sh e3
z eng4
zh ou2
zh ai4
R e
199 6
4 4
n a
ti e1
d ao1
a d
b r
199 4
f ei2
z ong4
i r
qi ong2
ti ao4
chu ang2
n d
199 2
chu i2
ju an1
c i
ch ai2
mi ao3
b a
gu a1
xu e1
t ong4
199 5
f ei3
ch i1
m eng3
wo 1
6 7
shu ai1
t uo2
chu ang1
hu an3
v i
199 1
197 0
5 8
195 0
gu a4
ch an2
c a
3 00
w a1
199 3
18 7
194 9
a y
p e
s a1
ti ao3
zh a2
A T
196 0
bi an3
4 2
194 5
v er
u s
gu ai4
k u3
n u2
198 8
d u3
o o
198 9
i g
p u4
6 9
li u3
i ng
u r
s s
g ong3
SE E
t uo4
c t
li ao3
IN SEE
5 9
sh a4
t ai1
4 3
6 6
chu an4
am p
ch en4
5 7
198 5
hu ang1
R o
9 9
S A
ãĢ İ
cu n4
ãĢ ı
198 4
hu n2
4 1
u m
p u1
k ou4
p h
8 8
f en2
198 6
r ao3
S t
a u
i d
ru n4
T V
15 0
zh uo1
in d
4 00
s an3
198 7
7 8
5 6
198 2
ar d
L i
n uo2
M e
198 3
D e
N A
gu n3
m a1
t ou
pi n4
u n
C D
ch ou1
b er
g ou3
qu an3
7 7
M i
zh ai1
qi a4
p er
m ao1
qi ao3
M ar
k u1
ku ang2
e d
a ng
r ou2
9 8
de r
l ou4
O S
Â °
k ui4
s ang4
ï ½
l y
18 0
B C
5 4
6 1
A l
197 9
19 20
t y
7 9
p en1
s eng1
t w
5 2
Y ou
197 8
n u4
6 2
w eng1
y e1
d uo3
L e
5 3
xi ng3
ju an4
ï½ ŀ
B A
t s
a k
194 6
C O
M o
c tion
5 1
195 8
S h
198 1
V i
m an
197 2
194 8
zh ui4
c ong1
t ou1
A M
6 3
A R
J o
194 1
W ind
w a2
B S
li an3
19 30
P ro
lu an3
ow s
ku ang1
k e2
q u2
t uo3
7 6
han s
194 0
p i4
193 7
197 6
zu i3
194 4
8 9
197 5
r y
ï¼ ı
196 8
ni ang2
po 2
shu a1
h k
c on
r an
T e
yu an1
t ao1
w ang1
10 00
Wind ows
9 5
p a
N e
n o
b i2
s ao3
8 7
d a
196 6
8 5
f a4
p eng1
6 00
g a1
l an4
1 20
194 7
A r
S ta
195 6
A C
196 4
d an3
c u1
194 2
Ã ©
195 5
S e
R a
ch ou3
195 2
193 9
193 8
7 2
I S
v a
7 4
G a
g a
h t
n u
la y
r en3
197 3
197 4
195 4
f i
qi e1
E D
19 00
- -
J a
A P
194 3
b i1
T u
k e
o s
197 7
B e
197 1
pi n1
m an2
o p
po 3
en t
196 7
sh eng2
men t
m p
I C
8 00
L a
E R
i a
8 6
195 9
b eng1
S a
196 5
s on
J R
196 9
du i1
L o
p en2
in e
S o
ãĥ »
Ã Ĺ
qi ao4
chu i1
I D
qi ao1
S u
193 6
9 7
16 0
b en1
zhu a1
D a
F a
195 3
196 2
M A
d o
196 1
ti c
l ong3
â Ķ
193 5
t a4
r ou
m ai2
9 6
O N
D i
ï¼ ħ
195 1
195 7
196 3
C a
h a
âĶ Ģ
o k
8 4
202 6
c an3
or e
8 2
N a
h i
b u
7 3
9 4
tu n1
9 2
p p
I P
A N
B o
st a
m er
193 3
on e
M u
193 1
n ang2
le s
ni ao4
7 1
b ao2
h o
nu an3
g i
A n
l eng2
p a2
P a
9 3
s o
8 3
al l
W e
d ou3
8 1
19 18
H D
S i
s ao1
w i
U ni
19 28
l uan2
193 2
n en4
l l
ar a
in t
B a
M V
S S
1 10
19 12
I T
k i
19 29
tu i3
d uo4
19 27
co m
t u4
193 4
ar e
7 00
g a2
c n
a li
9 1
ch e
te d
st er
f f
b y
hu ang3
co l
il l
o t
25 0
s a
ar t
z ei2
19 24
R i
.. .
19 19
ku i1
xu an4
1 30
pi ao1
19 25
P S
p ao1
xi a1
14 0
P lay
S M
P C
me s
19 14
st e
zh ai3
k m
H e
D V
p an
zh e1
You Tu
h e1
en d
H a
F i
an a
di e1
b le
C on
W i
l a3
A S
19 11
B u
k a
sh i
o d
g ra
nv e4
l d
19 26
G e
T i
de n
ou r
19 22
n a3
h en4
19 17
si on
E T
N BA
I V
shu i2
c ai1
r ao2
E N
19 23
19 21
p eng4
f e
ku a1
G oo
th er
T a
ch ong3
17 0
à ¸
E C
m ao3
n ong4
m m
A L
M S
H o
se ction
YouTu be
E P
N i
B L
19 13
h n
ti ao1
p en
H K
E n
â Ĩ
han t
gu n4
190 9
g in
In ter
c ro
P e
S te
M P
A I
T o
g eng3
W or
n ao4
ri s
f eng3
an t
l uo3
U S
y a
po r
DV D
g o
ar i
z ou1
P i
3 000
T h
c a1
D o
P o
g n
19 10
F or
R O
D S
1 12
A K
R E
p ro
19 16
C ar
ãĥ ¼
ch uo4
N et
Î ±
a tion
S ch
K i
N o
an i
tu re
el l
L in
M y
C P
U N
W il
ar k
â Ī
Sta tion
h en2
19 15
g le
ni ang4
190 5
F C
v en
er s
m y
C N
â Ħ
âĨ Ĵ
190 1
tion al
L u
w a
ti ng
A u
D NA
E x
f a
p u
âĢ §
si c
di a
9 00
H R
P h
di ce
ar y
si s
Ne w
. &
t on
C H
z en3
T A
T O
190 6
190 4
chu ang3
A V
J u
Q u
ou n
K a
g en3
p s
Jo hn
er e
A nd
M O
co dice
ch ao3
ji ong3
di ng
âĦ ĥ
k o
er i
w a4
b eng4
0 5
f u
C C
di u1
190 7
190 8
Goo gle
A G
E ST
M I
v o
zu an4
S O
te s
L E
ji a2
zu an3
Play Station
en ter
B O
B BC
ch i
Co m
A D
I G
c al
le y
l i1
G u
en ce
II I
of t
R u
15 00
c y
5 000
c ri
wo r
zu an1
I ST
sh e1
lv 2
C ol
or y
M E
S y
ti ve
w it
C R
3 D
rou nd
I A
l an
gu a3
10 5
j e
m a4
Ð °
t t
li n
190 3
10 1
G B
pi ng1
re e
C u
c an
0 9
in a
c an4
F e
c en2
190 2
B D
N C
l and
T E
ch a
p ang1
x t
3 50
Ã ¡
z e
SA O
sh ao2
g en
D C
de s
s pan
p t
mo n
A d
Î ²
g ht
re s
li n4
B 1900
de l
bo ok
E S
B M
r on
ï¼ İ
ãĥ ³
189 8
0 6
1 18
H i
l a2
ãģ ®
m s
qi n3
c or
te l
D R
3 60
0 1
D A
O pen
189 5
l ao4
12 5
m u2
z a
la r
b en4
H O
an ce
ti n
M C
AT P
Mi cro
K o
g y
Ð ¾
10 8
K e
s y
li ne
di o
N G
ig h
p ou1
ne t
y le
G o
c lu
lo w
qi e2
gra m
C or
I F
f t
F ran
O ne
n er
A pp
0 7
âĪ Ĵ
0 8
2 30
g h
Fa ce
H u
10 4
pa ce
P u
S er
re a
Wor ld
s oft
ED T
IST AT
M on
S tu
j a
sh ai1
s ong3
à ¤
N O
189 6
L L
ni ng
10 9
D P
f li
g er
la s
d y
y u1
A A
lu s
ow n
B i
it y
g e3
R I
ct or
W a
D u
S P
R T
su i3
xi ao2
qi a3
E X
r e3
B ri
ber t
B 48
M an
v el
li ng
10 6
18 90
S an
C ST
M L
or i
B ar
CD T
Lo ve
z ang1
D O
wi th
H E
w ard
P er
p ei1
ro w
ta in
0 4
4 000
p ri
u x
cu an4
11 5
ig ht
d s
1 200
M 1
0 3
H ar
G P
p ao2
C E
r en
Ä ģ
ba ck
188 9
be gin
P ar
189 9
J e
Ma c
col span
187 1
E d
R S
mi c
Face book
Wil li
Micro soft
âĢ ĭ
24 0
tu r
Co mp
o ol
16 00
L O
G i
k y
B E
c c
N or
ck et
10 2
bo x
clu de
T T
re f
189 7
ph a
Li ve
N H
S ou
E E
ch ou4
T ri
11 7
I s
P re
P P
i m
qi n4
u t
S C
mi n
0 2
c m
shu ang3
st yle
i e
10 3
AK B48
M D
y ao3
Mu sic
P ri
10 7
v an
O n
b li
c ou4
t ra
G ra
O r
l er
Lin ux
D is
T ra
s er
y e
t ang3
w w
G re
O ri
li s
ol d
V ID
12 7
tu s
4 50
V o
s ti
Da vi
Ã ¼
qu e
12 8
ali gn
l ao1
fli x
C L
Net flix
189 4
Ga me
2 20
r in
B er
Ð ½
ma s
Willi am
I L
M or
k s
S H
T wit
18 80
Re d
l en
l la
Ã Ń
R NA
z ao2
13 6
ru s
ro m
P G
ng e
Ð ¸
st ri
ãģ Ħ
T R
st ra
Te am
18 00
ãĤ ¹
Uni ver
g round
188 5
li a3
er o
11 4
ãĤ ĵ
Ch ar
p ian2
col or
F u
H z
T y
28 0
U R
Ð µ
11 3
11 6
t or
an o
G en
188 6
si ng
ãĤ ¤
T S
Sch ool
P O
m ang3
la ss
189 3
C he
e x
s en
ir l
B la
l yi
m b
t en
M c
an e
Mar k
E u
na me
S L
t ri
11 1
St ar
ã Ħ
ci al
li a
ir st
Su per
por t
D on
je ct
le x
mo 3
âĢ »
ce s
mo 1
13 5
Davi d
26 0
na tional
y s
er a
18 60
Ge or
st o
gu e
ni n2
es s
W al
W TA
k er
H C
w ay
Sh ow
lv er
A c
U A
w as
U n
h am
188 8
te xt
S D
a c
Ã ³
rou p
- .
an s
ou se
B ra
ro id
ca tion
back ground
t le
yu n1
d ai3
C y
p re
G O
W h
ch en1
18 70
re am
G N
ï ¹
12 9
on y
188 7
b ur
an y
di s
shu an1
18 68
Me ta
6 000
Ã ¶
Ñ Ģ
E l
N F
V A
c le
188 3
l or
an k
ou s
X box
3 20
C S
T ho
N HK
A F
A s
D D
Twit ter
K P
n clude
on lyi
onlyi nclude
pi ao2
+ +
bi t
t ang4
18 64
âĢ ¢
I ON
n y
ch o
188 4
R C
U E
m ar
en sis
1 19
12 2
25 00
189 2
2 10
A 1
ti s
en a
le t
c enter
mi u4
15 5
in s
ow er
IS O
M at
â ħ
14 5
189 1
6 50
C lu
c er
And roid
G irl
a ge
ãĢ ķ
O R
re d
ne s
K u
N S
c uo1
c ar
ãĢ Ķ
18 50
ht t
mer i
C l
v al
Inter national
D ay
x y
ou nd
m i1
18 67
lo gy
ste m
I M
p ang4
ãĥ Ī
el d
Al l
f fi
187 9
ak e
Ja mes
En ter
W ar
p ar
se l
3 80
A B
U P
V er
b ri
ne y
187 6
A ni
C oun
si a
Geor ge
C an
li e
18 75
18 61
27 0
Univer si
D ra
H er
P or
t d
Ga mes
A ir
I R
12 6
N T
Ã ¨
ti me
in ter
H ol
P au
S pe
NG C
st ru
ãĥ «
187 3
M G
n s
12 3
ãĥ ©
am a
E ng
H en
P V
A b
G roup
H T
se d
ran s
Col le
B en
H y
M B
V a
16 8
CO VID
cri tic
F M
o m
18 65
il d
Clu b
A O
P L
lu e
th at
as s
A meri
D E
12 1
C enter
h y
cu s
wor k
B lo
17 5
al d
ãģ Ĩ
We b
H 2
Y P
f rom
Ã ¤
14 00
MA X
A li
13 8
2 28
T P
a st
h a2
ch an4
ni c
18 48
f er
li u1
18 62
ra tion
3 30
p eng3
12 4
ãĤ ¢
188 1
188 2
7 37
P ark
v il
en s
on a
187 8
5 50
gu ai3
V e
ru i3
187 2
L C
bi n4
H el
H igh
IN K
Meta critic
z o
I t
n ao2
t ro
Ori con
M TV
U C
w an
15 6
16 5
B oo
L ED
d on
ni an3
18 40
IV E
S pi
c ore
d ai1
7 50
d ge
sh ai4
ãĥ ĥ
c re
mi ng
13 7
ãģ Ĺ
Le a
ni s
13 00
sta gram
7 000
ri ng
B ro
D OS
S Q
U B
22 9
I U
S he
G DP
K ing
O K
Ñ ģ
C hu
P la
r and
15 2
ou t
TV B
Mi cha
F ri
d ay
15 9
187 7
Ro bert
St re
ty pe
S ur
â Ĺ
ku i3
18 66
Ch ris
i OS
Ð »
al s
Pro du
S K
U p
18 69
âĢ ²
si lver
E le
T HE
D M
xi u3
st ar
Pe ter
N ET
P at
g ar
p la
sh e
p lay
Ð º
Ch i
In stagram
B I
p y
13 9
BL AC
B ig
g an
Ð ²
D J
r eng1
li p
ss o
Ph one
C G
W E
co de
ãĤ ¯
Micha el
A t
D F
ï ¸
App le
1 100
C i
a i
15 8
Te ch
Pau l
2 25
g on
en e
30 5
13 3
al k
IN E
Na tional
Ty pe
R A
s a3
ni a
ãĥ ª
at or
A ward
H I
Y O
13 2
Ste am
E s
Y e
r al
20 5
18 63
ra y
tain ment
2 15
B ill
ci a
Universi ty
C e
F O
ph y
C A
F 1
K BS
14 8
13 1
Me dia
K ar
L ou
M er
S mi
W o
16 6
ar ch
ne w
187 4
E F
X X
k g
n ow
de o
en ti
18 58
F in
i c
14 7
Bla ck
b al
v in
25 6
ãģ ĭ
G A
G ar
M 2
ku n3
18 30
Ri ch
C BS
T er
U T
a ch
c lo
e w
18 51
or a
Le e
B N
E M
U I
19 2
Î ¼
Ch a
8 000
ch e3
Ja ck
Enter tainment
i f
z er
an n
li n3
mi ni
bi n
14 3
se t
ad a
C ity
M k
g ang4
18 55
In tel
3 10
P ower
I X
h a3
m ber
I E
R AM
S pace
b el
z uo2
ð «
18 59
ST AR
Char les
13 4
tion s
is s
Di re
shi p
A ng
A BC
18 5
18 54
or g
14 6
30 1
F la
17 00
Vi u
3 70
s pace
18 57
F ree
G M
W in
e k
w hi
st ro
E r
v s
Ø §
29 0
ãģ ª
Li fe
Ta i
ï¸ °
S am
Î ³
in o
Ja va
2 14
P y
Ñ Ĥ
mi s
Re cor
Comp any
sti tu
4 20
D ream
P ol
f ang
Î ¿
ãĢ ľ
18 56
18 53
Pro ject
H ouse
a h
f irst
di um
ãģ Ł
et y
oo d
Ti me
Tho mas
P an
b ra
v on
bo 4
14 4
Al pha
Sa int
F A
K en
O VA
C ent
V O
fa ce
A 2
I O
16 7
3 A
H S
S BS
sh a3
bi li
ku a3
18 41
Stre et
A m
A lex
B at
L P
s pe
al o
Ja pan
3 40
A g
P M
chu an3
ri e
Eu ro
BLAC KP
S po
T or
a e
w n
z a1
20 8
18 15
17 8
CP U
BLACKP INK
2 23
B ur
T ru
c is
m en4
So ci
8 50
L GB
S ing
t al
z uo1
ch er
ri c
se s
Ro ck
Stu dio
ww w
I BM
di e
ma t
es ti
por ts
S F
V al
yo u
20 7
ver y
23 5
ãģ ¨
ãģ ¾
ma tion
Ar t
D ig
F er
L IVE
M r
M et
P op
S U
20 3
ni ng4
17 1
ber g
B 2
V E
W hi
n al
co mp
Sh i
SQ L
P ad
c ra
s g
v is
18 46
16 4
for d
no t
Colle ge
M in
Y u
b re
li t
15 7
vi ce
pu bli
B R
L T
N E
S un
14 1
IC E
Ameri can
B 1
C ro
P E
e st
bo ard
17 6
si gn
IN G
A sso
L S
b all
h an1
Â ²
we ll
18 12
18 45
18 44
Ro ad
Girl s
sel f
p le
mi t
23 1
O ffi
c ture
c lass
H F
L td
M 3
p m
bo r
ãĤ Ĭ
wit ch
LGB T
B B
20 9
wo od
po n
ce ss
ãģ į
NA SA
GN U
G er
L A
P A
w ai1
de d
th y
Jo se
Te le
Smi th
C la
C ra
P ra
i se
am pi
au rus
IU CN
2 16
P N
w h
Î º
18 49
15 3
Goo d
C T
F il
H all
N BC
T our
zh ou3
20 4
23 8
Ch o
um p
Produ ction
l e1
le a
ta tion
ne ss
Vi deo
G T
O 2
S ci
Ï ĥ
mi ted
Ga la
E li
F o
P R
w ar
y n
di n
20 6
eri es
Z e
18 14
ma c
2 18
f ri
f ra
l ti
on s
ang e
Rich ard
S I
m al
chu n3
IG N
A ct
L D
S en
W S
w in
â ĸ
pi c
qu i
Ch ri
Bo y
P lan
S ky
T ur
b un
Ï Ģ
de f
18 47
15 4
th o
ve d
vi sion
tur n
4 60
5 80
B el
F F
F ar
M as
h er
i ro
s ch
v es
z z
mo r
18 43
Be st
Sy stem
pt r
4 30
M BC
sh a
40 1
che m
4 10
b ar
b us
p r
le d
17 7
ri ch
of f
ãĤ ·
lo s
NF L
Viu TV
C al
S witch
16 3
AM D
AP I
We st
D an
I CO
e p
o per
men ts
18 52
16 2
cri pt
V II
g s
18 20
th is
ãģ ı
Ma x
In c
A ma
B or
F re
P rin
c il
u e
14 2
ge t
23 4
th on
Ro y
V R
17 2
ãģ Ĭ
ãģ ķ
Recor ds
6 40
E m
G al
S qu
V ir
16 9
35 00
Li mited
da ta
C M
C ore
K C
T 1
Â ±
lv e
18 39
ar s
23 2
4 80
c i1
17 9
ca de
20 30
de Ġ
Ġ deĠ
shi4 Ġ
Ġ shi4Ġ
Ġ nian2
Ġnian2 Ġ
wei4 Ġ
zai4 Ġ
Ġ wei4Ġ
Ġ zai4Ġ
he2 Ġ
Ġ he2Ġ
zhong1 Ġ
bu4 Ġ
di4 Ġ
shi2 Ġ
guo2 Ġ
yu2 Ġ
ren2 Ġ
Ġ bu4Ġ
yi1 Ġ
Ġ zhong1Ġ
li4 Ġ
zhi4 Ġ
gong1 Ġ
Ġ shi2Ġ
yue4 Ġ
ji2 Ġ
cheng2 Ġ
yi4 Ġ
you3 Ġ
Ġ di4Ġ
Ġ yue4Ġ
Ġ yu2Ġ
Ġ ren2Ġ
Ġ zhi4Ġ
da4 Ġ
Ġ ji2Ġ
yuan2 Ġ
Ġ you3Ġ
ji4 Ġ
Ġ guo2Ġ
Ġ li4Ġ
Ġ gong1Ġ
Ġ yi4Ġ
Ġ yi3
Ġ cheng2Ġ
jia1 Ġ
si1 Ġ
yu3 Ġ
Ġ xian4
Ġ ri4
Ġ yi1Ġ
Ġ xing2
Ġ ta1
li3 Ġ
ji1 Ġ
Ġ dao4
hou4 Ġ
wei2 Ġ
Ġ zhi1
Ġ da4Ġ
Ġ yuan2Ġ
xi1 Ġ
Ġri4 Ġ
Ġ ge4
Ġyi3 Ġ
xue2 Ġ
hui4 Ġ
le Ġ
zuo4 Ġ
Ġ yu3Ġ
Ġdao4 Ġ
ming2 Ġ
Ġ ji4Ġ
bei4 Ġ
Ġxing2 Ġ
sheng1 Ġ
Ġ jian4
Ġ chu1
Ġ qi2
Ġ si1Ġ
Ġ de2
zheng4 Ġ
Ġxian4 Ġ
Ġ hou4Ġ
Ġ ji1Ġ
dui4 Ġ
shang4 Ġ
qu1 Ġ
shi3 Ġ
Ġ er3
Ġ jia1Ġ
you2 Ġ
Ġta1 Ġ
Ġ xi1Ġ
Ġ li3Ġ
Ġ er2
zhan4 Ġ
Ġ jun1
Ġ bing4
Ġzhi1 Ġ
Ġge4 Ġ
zhu3 Ġ
ren4 Ġ
fu4 Ġ
zi4 Ġ
wu4 Ġ
xin1 Ġ
dai4 Ġ
ju4 Ġ
ping2 Ġ
Ġchu1 Ġ
Ġ ke4
Ġ zhou1
xiang1 Ġ
Ġ hui4Ġ
shu4 Ġ
nan2 Ġ
Ġ she4
Ġ bei4Ġ
Ġ ming2Ġ
xia4 Ġ
guan1 Ġ
Ġer3 Ġ
Ġde2 Ġ
lu4 Ġ
yu4 Ġ
hua4 Ġ
Ġjian4 Ġ
jing1 Ġ
yan2 Ġ
fang1 Ġ
Ġ yin1
kai1 Ġ
jian1 Ġ
jiao4 Ġ
fa1 Ġ
yong4 Ġ
Ġ dan4
Ġer2 Ġ
zhu4 Ġ
lai2 Ġ
min2 Ġ
shou3 Ġ
zhe4 Ġ
xiang4 Ġ
wen2 Ġ
Ġjun1 Ġ
xi4 Ġ
qian2 Ġ
ben3 Ġ
te4 Ġ
Ġ wei2Ġ
zhi2 Ġ
fa3 Ġ
qi1 Ġ
jie2 Ġ
lian2 Ġ
Ġbing4 Ġ
dong4 Ġ
dian4 Ġ
Ġqi2 Ġ
Ġke4 Ġ
dong1 Ġ
mu4 Ġ
Ġ jin4
Ġ dui4Ġ
Ġ huo4
Ġ zhan4Ġ
fen1 Ġ
tai2 Ġ
zhang3 Ġ
du4 Ġ
jiang1 Ġ
Ġ qiu2
Ġ ping2Ġ
gao1 Ġ
ye4 Ġ
suo3 Ġ
bei3 Ġ
Ġzhou1 Ġ
shi1 Ġ
Ġ leĠ
duo1 Ġ
jie1 Ġ
ge2 Ġ
Ġ shang4Ġ
jin1 Ġ
Ġ zheng4Ġ
fu2 Ġ
Ġ zuo4Ġ
Ġ you2Ġ
Ġ fu4Ġ
kou3 Ġ
guo4 Ġ
zhi3 Ġ
Ġ tong2
hai3 Ġ
Ġ ren4Ġ
Ġ quan2
ma3 Ġ
tong1 Ġ
ru4 Ġ
zui4 Ġ
Ġ sheng1Ġ
Ġ xue2Ġ
ci3 Ġ
xing4 Ġ
wai4 Ġ
nei4 Ġ
la1 Ġ
ti3 Ġ
jue2 Ġ
ke3 Ġ
qi3 Ġ
shan1 Ġ
tian1 Ġ
chang3 Ġ
deng3 Ġ
zhen4 Ġ
wu3 Ġ
chang2 Ġ
zi Ġ
yao4 Ġ
bi3 Ġ
Ġ ju4Ġ
bao3 Ġ
mi3 Ġ
ya4 Ġ
Ġ ye3
gai1 Ġ
Ġyin1 Ġ
Ġ dai4Ġ
mian4 Ġ
zhong4 Ġ
Ġshe4 Ġ
feng1 Ġ
Ġ zhe4Ġ
zhong3 Ġ
ci4 Ġ
yun4 Ġ
yi2 Ġ
liu2 Ġ
che1 Ġ
shou4 Ġ
lin2 Ġ
bao1 Ġ
yi2 Ġge4Ġ
sai4 Ġ
jie4 Ġ
ding4 Ġ
shen1 Ġ
sheng3 Ġ
luo2 Ġ
mei3 Ġguo2Ġ
san1 Ġ
qi4 Ġ
xiao3 Ġ
Ġdan4 Ġ
neng2 Ġ
shu1 Ġ
ze2 Ġ
lie4 Ġ
xuan3 Ġ
si4 Ġ
qing1 Ġ
zhe3 Ġ
Ġqiu2 Ġ
jing4 Ġ
yuan4 Ġ
ba1 Ġ
wang2 Ġ
ke1 Ġ
tai4 Ġ
lan2 Ġ
bao4 Ġ
an1 Ġ
zong3 Ġ
ying3 Ġ
Ġhuo4 Ġ
bi4 Ġ
fu3 Ġ
dao3 Ġ
Ġ xin1Ġ
gu3 Ġ
ying1 Ġ
Ġ hao4
Ġ xia4Ġ
Ġ zi4Ġ
ge1 Ġ
fen4 Ġ
xiao4 Ġ
yue1 Ġ
ni2 Ġ
jiao1 Ġ
na4 Ġ
Ġ yu4Ġ
Ġ mi3Ġ
zi1 Ġ
er4 Ġ
Ġ xiang1Ġ
pu3 Ġ
dan1 Ġ
Ġ zhu4Ġ
biao3 Ġ
guan3 Ġ
tou2 Ġ
liang4 Ġ
chuan2 Ġ
Ġ lu4Ġ
su4 Ġ
wu2 Ġ
Ġ dang1
bo1 Ġ
ru2 Ġ
yan3 Ġ
nv3 Ġ
bo2 Ġ
Ġzhong1Ġ guo2Ġ
xing1 Ġ
ti2 Ġ
fei1 Ġ
da2 Ġ
se4 Ġ
cheng1 Ġ
mei3 Ġ
Ġwei4Ġ yu2Ġ
Ġjin4 Ġ
ceng2 Ġ
chan3 Ġ
Ġ nan2Ġ
shui3 Ġ
tu2 Ġ
bian4 Ġ
gui1 Ġ
Ġ ran2
yang2 Ġ
zhang1 Ġ
a1 Ġ
gai3 Ġ
dian3 Ġ
cong2 Ġ
jiu4 Ġ
Ġ ben3Ġ
Ġquan2 Ġ
sha1 Ġ
bao1Ġ kuo4
wang3 Ġ
jian3 Ġ
sheng4 Ġ
zu3 Ġ
shu3 Ġ
gang3 Ġ
hua2 Ġ
lv4 Ġ
qing2 Ġ
jing3 Ġ
liang3 Ġ
zu2 Ġ
ban4 Ġ
tong3 Ġ
gong4 Ġ
shang1 Ġ
li2 Ġ
hu4 Ġ
tong2 Ġ
bian1 Ġ
jin4 Ġ
an4 Ġ
long2 Ġ
luo4 Ġ
xu4 Ġ
chi2 Ġ
ao4 Ġ
mei2 Ġ
jin3 Ġ
ban1 Ġ
guang3 Ġ
chu1 Ġ
ce4 Ġ
mi4 Ġ
shen2 Ġ
Ġta1Ġ men
zheng1 Ġ
zhi1 Ġ
ling3 Ġ
you4 Ġ
fan3 Ġ
wei1 Ġ
Ġ zhu3Ġ
Ġ xiang4Ġ
huo2 Ġ
xi2 Ġ
ting2 Ġ
ka3 Ġ
cha2 Ġ
Ġ gai1Ġ
cai2 Ġ
1 Ġ
gou4 Ġ
shuo1 Ġ
men2 Ġ
ci2 Ġ
xiang3 Ġ
mu3 Ġ
lei4 Ġ
wei3 Ġ
qu3 Ġ
Ġgong1Ġ li3Ġ
yan2Ġ jiu1
Ġ duo1Ġ
tuan2 Ġ
yin3 Ġ
jian4 Ġ
Ġye3 Ġ
chao2 Ġ
ying4 Ġ
chen2 Ġ
tang2 Ġ
xie1 Ġ
qi2 Ġ
pin3 Ġ
Ġyi3 Ġji2Ġ
jia4 Ġ
shi3Ġ yong4Ġ
jie3 Ġ
Ġ wan4
hang2 Ġ
yi3 Ġ
lun2 Ġ
rong2 Ġ
Ġ you2
jiang3 Ġ
pai2 Ġ
fu1 Ġ
jiu3 Ġ
ling4 Ġ
tai2Ġ wan1
Ġhao4 Ġ
ĠdeĠ di4Ġ
xu1 Ġ
ke3 Ġyi3Ġ
huang2 Ġ
xian1 Ġ
duan4 Ġ
2 Ġ
ke4 Ġ
dang3 Ġ
mo2 Ġ
can1 Ġ
ying2 Ġ
tiao2 Ġ
biao1 Ġ
ĠdeĠ yi1Ġ
kai1Ġ shi3Ġ
quan2 Ġ
zhan3 Ġ
Ġcheng2Ġ wei2Ġ
ye3 Ġ
hong2 Ġ
mei2 Ġyou3Ġ
han4 Ġ
e2 Ġ
yin1 Ġ
wei3 Ġyuan2Ġ
qian1 Ġ
ban3 Ġ
xian4 Ġ
ling2 Ġ
xiao1 Ġ
Ġtong2 Ġ
hui2 Ġ
su1 Ġ
fang2 Ġ
meng2 Ġ
zhuang1 Ġ
kong1 Ġ
ju2 Ġ
cun1 Ġ
bao1Ġkuo4 Ġ
ren2Ġ kou3Ġ
Ġqi2 Ġzhong1Ġ
Ġgong1Ġ si1Ġ
huo4 Ġ
zi3 Ġ
xing2 Ġ
dou1 Ġ
ĠdeĠ shi4Ġ
ĠĠĠ zai4Ġ
qiang2 Ġ
zhao4 Ġ
du2 Ġ
zheng4 Ġzhi4Ġ
yi2 Ġge4
mo4 Ġ
Ġ fen1Ġ
cai3 Ġ
bing1 Ġ
fa3 Ġguo2Ġ
Ġ gao1Ġ
Ġda4Ġ xue2Ġ
Ġshi4Ġ yi1Ġ
hai2 Ġ
Ġta1 ĠdeĠ
hu2 Ġ
chu4 Ġ
qin1 Ġ
lun4 Ġ
fan4 Ġ
zhen1 Ġ
guang1 Ġ
wen4 Ġ
man4 Ġ
Ġ jie2Ġ
she4 Ġ
biao3 Ġshi4Ġ
ai4 Ġ
zhong1 ĠdeĠ
ju1 Ġ
Ġ jiao4Ġ
zhuan1 Ġ
diao4 Ġ
bai2 Ġ
da3 Ġ
que4 Ġ
dian4 Ġshi4Ġ
Ġ dong1Ġ
Ġ du4Ġ
fei4 Ġ
Ġshi4Ġ wei4Ġ
Ġ mu4Ġ
han2 Ġ
shi4 ĠdeĠ
Ġ te4Ġ
3 Ġ
xun4 Ġ
Ġ jin1Ġ
pian4 Ġ
ming4 Ġ
ju3 Ġ
Ġ jiang1Ġ
tuo1 Ġ
gu4 Ġ
Ġren2Ġ kou3Ġ
xiu1 Ġ
Ġbu4Ġ fen4Ġ
xie2 Ġ
zao4 Ġ
Ġhe2Ġ guo2Ġ
zhong1Ġ guo2Ġ
guo3 Ġ
10 Ġyue4Ġ
shou1 Ġ
Ġ zui4
xin4 Ġ
12 Ġyue4Ġ
7 Ġyue4Ġ
9 Ġyue4Ġ
zhuan3 Ġ
Ġ shi1Ġ
ta1 Ġ
dang1 Ġ
mian4 Ġji1Ġ
Ġren2Ġ min2Ġ
8 Ġyue4Ġ
xun2 Ġ
Ġdi4Ġ qu1Ġ
wu1 Ġ
3 Ġyue4Ġ
Ġ guo4Ġ
1 Ġyue4Ġ
Ġ suo3Ġ
Ġ jing1Ġ
Ġ shou3Ġ
gan3 Ġ
huan2 Ġ
di2 Ġ
xia2 Ġ
jia3 Ġ
5 Ġyue4Ġ
ying1 Ġguo2Ġ
Ġ ci3Ġ
dao4 Ġ
di3 Ġ
zhu1 Ġ
ting1 Ġ
zheng4 Ġshi4Ġ
chong2 Ġ
huo3 Ġ
zhou1 Ġ
6 Ġyue4Ġ
zhuang4 Ġ
cheng2 Ġshi4Ġ
4 Ġyue4Ġ
Ġguo2Ġ jia1Ġ
tian2 Ġ
geng4 Ġ
ĠĠĠ di4Ġ
fang4 Ġ
yong3 Ġ
shu3 Ġyu2Ġ
Ġping2Ġ fang1
po4 Ġ
jun1 Ġ
Ġdi4Ġ yi1Ġ
Ġ qian2Ġ
11 Ġyue4Ġ
qun2 Ġ
qu4 Ġ
jiang4 Ġ
tao2 Ġ
Ġshi4Ġ ji4Ġ
Ġping2Ġfang1 Ġgong1Ġli3Ġ
Ġtong2 Ġshi2Ġ
Ġ ma3Ġ
Ġ deng3Ġ
dan1 Ġren4Ġ
4 Ġ
Ġ ru2Ġ
gen1 Ġ
ji3 Ġ
bie2 Ġ
pai4 Ġ
du1 Ġ
5 Ġ
liang2 Ġ
shao3 Ġ
hui1 Ġ
tie3 Ġ
nong2 Ġ
Ġnian2Ġ 1Ġyue4Ġ
ta3 Ġ
dian4Ġ ying3Ġ
zong1 Ġ
chu3 Ġ
Ġ qi1Ġ
Ġ tian1Ġ
Ġ zhe4
si3 Ġ
er3 Ġ
ĠdeĠ shi2Ġ
shuang1 Ġ
qiao2 Ġ
tai2Ġwan1 Ġ
Ġ sui4
gen1 Ġju4Ġ
li4Ġ shi3Ġ
chu2 Ġ
Ġshi4Ġ zhen4Ġ
gao4 Ġ
bai4 Ġ
can1 Ġjia1Ġ
yun4Ġ dong4
gang1 Ġ
che1 Ġzhan4Ġ
guo2 ĠdeĠ
jiao3 Ġ
Ġyin1 Ġwei4Ġ
Ġri4Ġ ben3Ġ
Ġping2Ġ fang1Ġ
li4 ĠdeĠ
Ġnian2 ĠdeĠ
gai4 Ġ
pan4 Ġ
Ġ wen2Ġ
Ġ hai3Ġ
zheng4Ġ fu3Ġ
bing4 Ġ
zhun3 Ġ
Ġnian2Ġ 12Ġyue4Ġ
wa3 Ġ
yan4 Ġ
wo3 Ġ
Ġ fu2Ġ
gong4 Ġhe2Ġguo2Ġ
Ġxian4 ĠdeĠ
ya2 Ġ
yin2 Ġ
Ġwan4 Ġ
fa1 Ġxian4Ġ
formula Ġ
chuang4 Ġ
hei1 Ġ
huan4 Ġ
qu1 ĠdeĠ
song4 Ġ
ha1 Ġ
hen3 Ġ
Ġ suo3
ti2 Ġgong1Ġ
jin4 Ġxing2Ġ
Ġ bei3Ġ
lei2 Ġ
2 Ġyue4Ġ
jing1 Ġji4Ġ
tong1Ġ guo4Ġ
Ġnian2Ġ 3Ġyue4Ġ
sui2 Ġ
chuan1 Ġ
qie3 Ġ
Ġzhong1Ġ yang1
Ġguo2Ġ ji4Ġ
hua1 Ġ
shang4 ĠdeĠ
Ġyou2 Ġyu2Ġ
Ġ you4Ġ
lei1 Ġ
wei3Ġyuan2Ġ hui4Ġ
kao3 Ġ
Ġnian2Ġ 7Ġyue4Ġ
wan2 Ġ
cheng1 Ġwei2Ġ
Ġnian2Ġ 10Ġyue4Ġ
bai3 Ġ
deng1 Ġ
Ġshi4Ġ jie4Ġ
Ġyin1Ġ ci3Ġ
ming2 Ġwei4Ġ
Ġjin4 Ġxing2Ġ
nuo4 Ġ
Ġshi4Ġ zai4Ġ
Ġran2 Ġ
chong1 Ġ
zhu3 Ġyi4Ġ
Ġnian2Ġ 9Ġyue4Ġ
Ġta1Ġmen Ġ
kuai4 Ġ
yan2Ġjiu1 Ġ
tu3 Ġ
Ġzhi1 Ġhou4Ġ
qiu2 Ġ
Ġ ying1Ġ
mai4 Ġ
shi2 ĠdeĠ
lian4 Ġ
hao4 Ġ
Ġnian2Ġ 5Ġyue4Ġ
sa4 Ġ
lu2 Ġ
xi4Ġ tong3Ġ
Ġ zui4Ġ
Ġ lian2Ġ
pei4 Ġ
lu3 Ġ
Ġnian2Ġ 4Ġyue4Ġ
chi3 Ġ
liao4 Ġ
Ġdang1 Ġ
Ġnian2Ġ 8Ġyue4Ġ
Ġnian2Ġ 6Ġyue4Ġ
Ġxing2 ĠdeĠ
zeng1 Ġ
ren2 ĠdeĠ
Ġ shi3Ġ
xiang1Ġ gang3Ġ
xuan1 Ġ
qi1Ġ jian1Ġ
de2 Ġ
kuang4 Ġ
guan3 Ġli3Ġ
Ġgong1Ġ zuo4Ġ
piao4 Ġ
Ġzhi1 Ġyi1Ġ
xu3 Ġ
6 Ġ
en1 Ġ
di1 Ġ
heng2 Ġ
da4 ĠdeĠ
bu3 Ġ
yang4 Ġ
sen1 Ġ
Ġzhong1Ġ xin1Ġ
xuan1 Ġbu4Ġ
tui1 Ġ
Ġnian2Ġ 11Ġyue4Ġ
zu3 Ġzhi1Ġ
ri4 Ġ
wang4 Ġ
bu4 ĠdeĠ
pi2 Ġ
men Ġ
Ġ bao1Ġkuo4Ġ
chang4 Ġ
ying3Ġ xiang3Ġ
yang3 Ġ
Ġta1 Ġzai4Ġ
qian1 Ġmi3Ġ
sai1 Ġ
er2 Ġ
ĠĠĠ sheng1Ġ
Ġhuo4 Ġde2Ġ
pi1 Ġ
Ġshi4Ġ jie4
luo2 Ġsi1Ġ
he4 Ġ
ke3Ġ neng2
cheng2 ĠdeĠ
Ġ gai1
Ġ qing1Ġ
nian4 Ġ
dun4 Ġ
Ġ mei3
xian2 Ġ
lou2 Ġ
qi2 Ġta1Ġ
Ġnian2Ġ 2Ġyue4Ġ
bang1 Ġ
Ġcheng2Ġ li4Ġ
le Ġyi1Ġ
huo2Ġ dong4Ġ
Ġren4Ġ wei2Ġ
Ġ lai2Ġ
liu4 Ġ
you1 Ġ
Ġ bi3Ġ
Ġ shu4Ġ
Ġ fen1
ke1 Ġxue2Ġ
fa1Ġ zhan3Ġ
huo4 Ġde2Ġ
jun4 Ġ
Ġ luo2Ġ
Ġzuo4Ġ wei2Ġ
ya1 Ġ
Ġping2Ġfang1Ġ qian1Ġmi3Ġ
Ġ a1Ġ
hua2 Ġren2Ġmin2Ġ
Ġ wu2Ġ
ri4 Ġben3Ġ
bei1 Ġ
lao3 Ġ
hui4 Ġyi4Ġ
re4 Ġ
Ġ zhi2
ku4 Ġ
tan2 Ġ
jian1 ĠdeĠ
tie3 Ġlu4Ġ
Ġ liu2Ġ
ĠdeĠ ren2Ġ
yong4 Ġyu2Ġ
liao2 Ġ
ning2 Ġ
Ġshi2Ġ jian1Ġ
ĠdeĠ gong1Ġ
ge4 Ġ
Ġ shan1Ġ
Ġ zhang1Ġ
mian3 Ġ
Ġ yan2Ġ
mian4Ġ ji1
min2 Ġguo2Ġ
rui4 Ġ
wu1 Ġke4Ġ
yin4 Ġ
xian3 Ġ
le4 Ġ
zuo3 Ġ
gong4 Ġyou3Ġ
ĠĠĠ li4Ġshi3Ġ
hao3 Ġ
ĠĠĠsheng1Ġ ping2Ġ
hua2Ġren2Ġmin2Ġ gong4Ġhe2Ġguo2Ġ
fang1 Ġshi4Ġ
fa1Ġ sheng1Ġ
gan1 Ġ
Ġ cong2Ġ
Ġ zhi2Ġ
dou4 Ġ
wen4Ġ ti2Ġ
guan4 Ġjun1Ġ
zhu3Ġ yao4Ġ
ran2 Ġ
di4 ĠdeĠ
Ġdi4Ġ er4Ġ
dao3 Ġzhi4Ġ
Ġ xiao3Ġ
guan1Ġ xi4Ġ
cun2 Ġ
kang1 Ġ
can1 Ġyu4Ġ
yuan3 Ġ
Ġ jin3Ġ
Ġbu4Ġ fen4
zheng3 Ġ
Ġgong1Ġ cheng2Ġ
wan2 Ġcheng2Ġ
dan1 Ġwei4Ġ
ke3Ġ neng2Ġ
Ġ wu3Ġ
Ġ zhi3Ġ
yi1 Ġwei4Ġ
Ġ ze2Ġ
1 Ġri4Ġ
xie4 Ġ
suo3 Ġyou3Ġ
Ġ zong3Ġ
zhi4 ĠdeĠ
wen2Ġ hua4Ġ
Ġcheng2Ġ yuan2Ġ
ĠdeĠ cheng2Ġ
gei3 Ġ
lv3 Ġ
Ġ ba1Ġ
yuan2 ĠdeĠ
Ġ tong1Ġ
yong1 Ġyou3Ġ
cun2 Ġzai4Ġ
er4 Ġshi2Ġ
bei3 Ġbu4Ġ
lian2 Ġhe2Ġ
hou4 ĠdeĠ
niu3 Ġ
Ġshi4Ġ zhong1Ġ
zheng4Ġ fu3
you2 Ġyu2Ġ
guo2Ġ jia1Ġ
dui4 Ġyu2Ġ
Ġnian2Ġ zhi4Ġ
fa1 Ġxing2Ġ
yi4 ĠdeĠ
ju4 Ġyou3Ġ
Ġ xi4Ġ
Ġ zhi3
Ġjian4Ġ zhu4Ġ
bi3Ġ sai4Ġ
Ġbing4 Ġzai4Ġ
Ġdao4Ġ leĠ
xin1 ĠdeĠ
ou1 Ġ
si1 ĠdeĠ
shen3 Ġ
ge Ġ
zi4Ġ ji3
yun4Ġ dong4Ġ
yun2 Ġ
xing2 Ġzheng4Ġ
yin4 Ġdu4Ġ
e2Ġ luo2Ġsi1Ġ
bin1 Ġ
Ġ mian4Ġji1Ġ
dai4Ġ biao3Ġ
shao4 Ġ
Ġ mei3Ġguo2Ġ
Ġ ling4Ġ
xu3 Ġduo1Ġ
Ġdan4 Ġshi4Ġ
ren4 Ġhe2Ġ
sheng1 Ġyu2Ġ
tu1 Ġ
gui4 Ġ
Ġ jian3Ġ
man3 Ġ
Ġnian2Ġ dai4Ġ
ding1 Ġ
liang3 Ġge4Ġ
che4 Ġ
bao3Ġ hu4Ġ
Ġren2Ġkou3Ġ mi4Ġ
Ġ shi3
zh Ġ
xiu4 Ġ
e4 Ġ
xuan2 Ġ
Ġdang1 Ġshi2Ġ
zhang4 Ġ
ĠdeĠ yi2Ġge4Ġ
nan2 Ġbu4Ġ
ju3 Ġxing2Ġ
zhuan1 Ġji2Ġ
mian4Ġji1 Ġwei4Ġ
Ġ dian4Ġ
lai2 ĠdeĠ
Ġ guan1Ġ
fan1 Ġ
zao3 Ġ
Ġzheng4Ġ fu3Ġ
Ġ ceng2Ġ
du2 Ġli4Ġ
fu2Ġ wu4Ġ
jue2Ġ ding4Ġ
xie3 Ġ
Ġchu1 ĠdeĠ
ruo4 Ġ
zhu3Ġ yao4
7 Ġ
kai1Ġ shi3
Ġli4Ġ shi3Ġ
qing3 Ġ
Ġ san1Ġ
Ġshe4 Ġji4Ġ
Ġ wang2Ġ
Ġ mei3Ġ
Ġ 15
ming2 ĠdeĠ
hai4 Ġ
rang4 Ġ
Ġshi4Ġwei4Ġ yu2Ġ
jiu4 Ġshi4Ġ
Ġyou3Ġ yi1Ġ
ai1 Ġ
geng1 Ġ
Ġ jiang1
gt Ġ
Ġ ci3
Ġ gtĠ
xi3 Ġ
tan4 Ġ
Ġqi2 Ġta1Ġ
Ġ fa3Ġ
Ġxing2Ġ zheng4Ġ
pei2 Ġ
jiao4Ġ yu4Ġ
shou4 Ġdao4Ġ
lt Ġ
Ġ feng1Ġ
ren4Ġ wei2Ġ
fang3 Ġ
kan1 Ġ
wan3 Ġ
Ġshi4Ġ di4Ġ
fa1Ġ zhan3
Ġ jie1Ġ
she4 Ġhui4Ġ
Ġ ltĠ
yi4 Ġwei4Ġ
gu4 Ġshi4Ġ
shan4 Ġ
pian1 Ġ
fang1Ġ mian4Ġ
Ġxian4 Ġzai4Ġ
qu1 Ġwei4Ġ
Ġzui4 Ġzhong1Ġ
Ġ bi4Ġ
8 Ġ
qin2 Ġ
Ġzhong1Ġyang1 Ġ
pao4 Ġ
Ġshi4Ġ shi4Ġ
tui4 Ġ
zhe Ġ
nei4 ĠdeĠ
Ġ jiu4Ġ
shu3 ĠdeĠ
xiang1Ġ gang3
xiao3 Ġshi2Ġ
dan4 Ġ
Ġli4Ġ ru2Ġ
zu2 Ġqiu2Ġ
Ġ qu1Ġ
shu4Ġ ju4Ġ
Ġbu4Ġ tong2
lie4Ġ che1Ġ
xu1Ġ yao4Ġ
hua4 ĠdeĠ
zhi2Ġ wu4Ġ
Ġ sui1
ren2 Ġshi4Ġ
qiang1 Ġ
zuo4 ĠdeĠ
Ġ dong4Ġ
shi3Ġ yong4
zeng1 Ġjia1Ġ
Ġji4Ġ hua4Ġ
min2Ġ zhu3Ġ
Ġshi2Ġ qi1Ġ
zuo4Ġ wei2Ġ
Ġ gu3Ġ
kong4 Ġzhi4Ġ
Ġye3 Ġshi4Ġ
duan3 Ġ
tan3 Ġ
Ġjian4 ĠdeĠ
yin1 Ġyue4Ġ
Ġ ceng2
Ġran2 Ġer2Ġ
Ġ 16
Ġ an1Ġ
Ġyi3Ġ jing1Ġ
Ġ shu3Ġyu2Ġ
lang2 Ġ
Ġhe2Ġ zuo4Ġ
Ġzai4Ġ di4Ġ
ren2Ġ min2Ġ
Ġshi4Ġ jian4Ġ
Ġren2Ġ yuan2Ġ
Ġ you4
ta1 ĠdeĠ
Ġjian4 Ġyu2Ġ
xue2Ġ yuan4Ġ
zu3 Ġcheng2Ġ
chao1 Ġguo4Ġ
Ġ ma3
Ġ ge2Ġ
zuo4Ġ pin3Ġ
Ġyin1 Ġyue4Ġ
Ġ ke1Ġ
mao4 Ġ
Ġquan2 Ġguo2Ġ
xiong2 Ġ
zai3 Ġ
hu1 Ġ
hui4 ĠdeĠ
ji4 ĠdeĠ
Ġ si4Ġ
zong3Ġ tong3Ġ
suan4 Ġ
Ġzhe4Ġ xie1Ġ
Ġwei4Ġ leĠ
Ġhou4Ġ lai2Ġ
yu2 Ġshi4Ġ
Ġ shou4Ġ
Ġ pu3Ġ
Ġ zhang3Ġ
Ġ tai4Ġ
Ġcheng2Ġ gong1Ġ
fa1 Ġbu4Ġ
da4Ġ li4Ġ
ti2 Ġchu1Ġ
Ġli4Ġ ya4Ġ
Ġ 000
Ġyi4Ġ yuan2Ġ
Ġshe4 Ġyou3Ġ
ĠĠĠ deĠ
s Ġ
Ġyin1Ġ ci3
yun4Ġdong4 Ġyuan2Ġ
yao1 Ġqiu2Ġ
han2 Ġguo2Ġ
bu4 Ġzai4Ġ
ni2Ġ ya4
pin2 Ġ
you3 ĠdeĠ
pu2 Ġ
zao4 Ġcheng2Ġ
ou1 Ġzhou1Ġ
qiu1 Ġ
cai3Ġ yong4Ġ
xiao3 Ġxing2Ġ
Ġgong1Ġ yuan2Ġ
jia1 ĠdeĠ
xing4 ĠdeĠ
sheng1 ĠdeĠ
ba3 Ġ
ĠdeĠ yi2Ġge4
Ġri4 Ġzai4Ġ
dang1 Ġshi2Ġ
kong4 Ġ
ren2Ġ wu4Ġ
feng4 Ġ
Ġci3Ġ wai4Ġ
Ġ sui2
gong4Ġ chan3Ġ
Ġ la1Ġ
kan4 Ġ
Ġ zhĠ
Ġ cong2
Ġ wo3Ġ
10 Ġ
Ġ sha1Ġ
Ġshi4Ġ he2Ġ
wan1 Ġ
Ġ ling4
2010 Ġnian2Ġ
Ġ gen1Ġju4Ġ
ĠdeĠ bu4Ġ
ma3 Ġwei4Ġ
Ġ ti3Ġ
xue2Ġ jia1Ġ
you2Ġ xi4Ġ
Ġ nv3Ġ
song1 Ġ
fan4 Ġwei2Ġ
Ġbu4Ġ tong2Ġ
dun1 Ġ
kai1Ġ fa1Ġ
she4 Ġji4Ġ
mao2 Ġ
chao1 Ġ
san1 Ġnian2Ġ
Ġ ke3Ġ
qu3 Ġde2Ġ
ĠdeĠ ji1Ġ
sai4 Ġshi4Ġ
ĠĠĠ shi4Ġ
xiong1 Ġ
Ġxing2 Ġcheng2Ġ
ĠĠĠdi4Ġ li3Ġ
Ġsui4 Ġ
zi4 Ġzhi4Ġ
chan3 Ġsheng1Ġ
Ġ yi2Ġ
Ġ wu4Ġ
wen1 Ġ
a1 Ġer3Ġ
yao2 Ġ
ding3 Ġ
ĠdeĠ ji4Ġ
shu1 Ġji4Ġ
Ġ 17
jie2Ġ mu4Ġ
Ġbing4 Ġyu2Ġ
ni3 Ġ
dou1 Ġshi4Ġ
chong2 Ġxin1Ġ
zan4 Ġ
lve4 Ġ
chun1 Ġ
Ġ liang3Ġ
Ġshe4 Ġhui4Ġ
zhong4Ġ yao4
li3 ĠdeĠ
bu2 Ġshi4Ġ
Ġdai4Ġ biao3Ġ
yi1 Ġnian2Ġ
Ġxiang1Ġ gang3Ġ
Ġsi1Ġ te4Ġ
dian4Ġ ying3
zhui1 Ġ
guan1 Ġyu2Ġ
dang4 Ġ
xi4Ġ tong3
Ġ na4Ġ
jue2Ġ se4Ġ
Ġ fu2
jiao1Ġ tong1Ġ
lang3 Ġ
Ġyou2Ġ xi4Ġ
da4Ġ xue2Ġ
9 Ġ
ji2 ĠdeĠ
mi2 Ġ
Ġ 0
ge1Ġ qu3Ġ
chu2 ĠleĠ
Ġchu1 Ġxian4Ġ
tao3 Ġ
2020 Ġnian2Ġ
Ġ jie2
Ġzhi4Ġ zuo4Ġ
Ġda4Ġ xue2
ping2 Ġjun1Ġ
Ġde2 Ġguo2Ġ
xian3 Ġshi4Ġ
Ġ chen2Ġ
Ġ jian1Ġ
hua2Ġ min2Ġguo2Ġ
Ġ C
Ġ shen1Ġ
Ġnian2Ġ zai4Ġ
Ġzhong1Ġ hua2Ġren2Ġmin2Ġgong4Ġhe2Ġguo2Ġ
kuo4 Ġ
kong3 Ġ
hou4 Ġzai4Ġ
miao2 Ġ
Ġnian2Ġ dai4
Ġ liang3
er4 Ġnian2Ġ
xia4 ĠdeĠ
yan3 Ġyuan2Ġ
Ġke4 Ġsi1Ġ
de2 Ġguo2Ġ
xiang2 Ġ
qing4 Ġ
wei2 Ġyi1Ġ
cao3 Ġ
Ġ bao3Ġ
dang1 Ġdi4Ġ
guo2Ġ ji4Ġ
dui4 ĠdeĠ
Ġ 1Ġ
bo2Ġ wu4Ġ
hun1 Ġ
Ġjian4 Ġli4Ġ
Ġ fei1Ġ
Ġdi4Ġ guo2Ġ
Ġbu4Ġ yu2Ġ
fan3 Ġdui4Ġ
Ġ A
qi1 ĠdeĠ
duan1 Ġ
zou3 Ġ
wu4 ĠdeĠ
xue4 Ġ
yin1 Ġwei4Ġ
qu1Ġ yu4Ġ
qu4 Ġshi4Ġ
yi1 Ġbu4Ġfen4Ġ
ba2 Ġgao1Ġ
wo4 Ġ
kuan3 Ġ
Ġ chang2Ġ
que1 Ġ
2001 Ġnian2Ġ
guan3Ġ xia2Ġ
du4 Ġwei4Ġ
zheng4Ġzhi4Ġ ren2Ġwu4Ġ
peng2 Ġ
ni2Ġ ya4Ġ
Ġ ka3Ġ
hai2 Ġyou3Ġ
ĠĠĠ ren2Ġkou3Ġ
Ġdang1 Ġdi4Ġ
zui4 Ġzhong1Ġ
Ġta1 Ġshi4Ġ
chi4 Ġ
Ġbu4Ġ dui4Ġ
lai2Ġ zi4Ġ
Ġ dan1Ġ
Ġ 1
Ġ yue1Ġ
Ġxing2 Ġshi4Ġ
bi3Ġ sai4
qian2Ġ wang3Ġ
Ġ fa1Ġ
zhi2Ġ ye4Ġ
Ġ wei1Ġ
ding4 ĠdeĠ
quan2 Ġguo2Ġ
ba1 Ġshi4Ġ
yi1 Ġbu4Ġ
ĠdeĠ yuan2Ġ
Ġzheng4Ġ fu3
Ġ chu2Ġ
zhong4Ġ yao4Ġ
diao4Ġ cha2Ġ
Ġ lin2Ġ
Ġzhi1Ġ jian1Ġ
bian1Ġ ma3Ġwei4Ġ
Ġ huang2Ġ
Ġnian2Ġ jian1Ġ
Ġxue2Ġ ming2Ġ
xue2Ġ xiao4Ġ
zhao1 Ġ
zhu3Ġ xi2Ġ
xuan3Ġ ju3Ġ
Ġri4 Ġzhi4Ġ
gai3 Ġwei2Ġ
zu3 Ġzhi1
Ġ nei4Ġ
zhu3Ġ jiao4Ġ
fa2 Ġ
zi1Ġ liao4Ġ
Ġ jing4Ġ
hai3 Ġjun1Ġ
gong1 Ġshi4Ġ
Ġjun1 Ġshi4Ġ
ĠdeĠ da4Ġ
Ġren2Ġkou3Ġmi4Ġ du4Ġ
s ĠĠĠ
chu3 Ġli3Ġ
kang4 Ġ
sun1 Ġ
zai1 Ġ
ĠdeĠ yi4Ġ
fang1Ġ fa3Ġ
fu4Ġ ze2Ġ
Ġ duo1
Ġri4Ġ ben3
wu1Ġke4Ġ lan2Ġ
ĠĠĠ yu3Ġ
guan4 Ġ
Ġ bo1Ġ
shu4 ĠdeĠ
Ġyou3Ġ xian4
dai4Ġ biao3
Ġ mei2Ġ
Ġge4 Ġren2Ġ
Ġ sheng4Ġ
Ġ san1
wu2Ġ fa3Ġ
ying3Ġ xiang3
Ġji4Ġ shu4Ġ
Ġshi4Ġ you2Ġ
Ġ hua4Ġ
jie1Ġ rang3
ju1Ġ min2Ġ
zui4Ġ gao1Ġ
Ġ jie4Ġ
Ġ kai1Ġ
Ġ gai3Ġ
pa4 Ġ
qi2 Ġzhong1Ġ
lu4 ĠdeĠ
Ġ hong2Ġ
xue2Ġ sheng1Ġ
Ġzhi1Ġ chi2Ġ
Ġ ze2
zi4Ġ you2Ġ
wen3 Ġ
biao1Ġ zhun3Ġ
qie4 Ġ
xie2 Ġhui4Ġ
shu4Ġ liang4
an1 Ġquan2Ġ
fan3Ġ ying4Ġ
ke3 Ġyi3
hui4 Ġzai4Ġ
Ġ 2Ġ
yao1 Ġ
ken3 Ġ
shen4 Ġzhi4Ġ
ye2 Ġ
bi3 Ġli4Ġ
tong3 Ġzhi4Ġ
xi4Ġ lie4Ġ
chuang4 Ġzuo4Ġ
zhu3Ġ ren4Ġ
Ġ sui2Ġ
Ġ qi3Ġ
ĠĠĠ ben3Ġ
Ġ xin1
dong1 Ġbu4Ġ
ĠdeĠyi2Ġge4 Ġshi4Ġzhen4Ġ
lian2Ġ meng2Ġ
Ġshi4Ġ yi2Ġge4Ġ
Ġ nan2
Ġgong1Ġ si1
Ġ S
gai1 Ġguo2Ġ
kai3 Ġ
Ġfu4Ġ ze2Ġ
fan2 Ġ
ya3 Ġ
Ġdi4Ġ san1Ġ
Ġdi4Ġ shi2Ġ
ĠĠĠ xing2Ġzheng4Ġ
Ġ su1Ġ
ti3Ġ yu4Ġ
Ġbu4Ġ guo4Ġ
jie2Ġ gou4Ġ
niu2 Ġ
Ġ 2
Ġdao4 ĠdeĠ
shi2 Ġnian2Ġ
qing2Ġ kuang4Ġ
neng2 Ġli4Ġ
mou3 Ġ
nan2Ġ ziĠ
zhong1 Ġshi4Ġ
Ġ shui3Ġ
qing2Ġ kuang4
si4 Ġnian2Ġ
Ġ ming2
Ġ ge1Ġ
xi1 Ġbu4Ġ
gong1 Ġbu4Ġ
hao2 Ġ
sheng1Ġ huo2Ġ
jie1Ġ shou4Ġ
of ĠĠĠ
Ġ yang2Ġ
nv3Ġ zi3Ġ
Ġ ao4
lu4 Ġxian4Ġ
suo1 Ġ
cheng2Ġ li4Ġ
Ġzhong1Ġ xue2Ġ
ĠĠĠ formulaĠ
huan1 Ġ
gu1 Ġ
Ġ 14
mian4 ĠdeĠ
Ġjin4Ġ ru4Ġ
yi4 Ġshi4Ġ
Ġer3 Ġsi1Ġ
Ġzhu3Ġ yao4Ġ
bei3Ġ jing1Ġ
lian2Ġ sai4Ġ
Ġ ke3Ġyi3Ġ
the ĠĠĠ
Ġ ba1
you3 Ġshi2Ġ
Ġyi4Ġ hui4Ġ
guang3Ġ dong1Ġ
duo2 Ġ
Ġ ao4Ġ
ĠĠĠ jia1Ġ
lao2 Ġ
jian4 Ġzhu4Ġ
ya4 Ġzhou1Ġ
Ġ tai2Ġ
Ġ ci4Ġ
dao3 ĠdeĠ
Ġguo2Ġ min2Ġ
ye3 Ġshi4Ġ
na2 Ġda4Ġ
dong4Ġ wu4Ġ
tai4 Ġping2Ġ
Ġsuo3 Ġyi3Ġ
di4 Ġwei4Ġ
ran3 Ġ
Ġzhe4 Ġshi4Ġ
ba2Ġgao1Ġ du4Ġ
da2 Ġdao4Ġ
zi4Ġji3 ĠdeĠ
li3 Ġshi4Ġ
zhu2 Ġjian4Ġ
gui3 Ġ
zhuan4 Ġ
Ġbing4Ġ qie3
dai4 ĠdeĠ
ban3 Ġben3Ġ
xu3Ġ duo1
zhe3 ĠdeĠ
jiao4Ġ shou4Ġ
Ġ hai2Ġ
Ġ er4Ġ
2008 Ġnian2Ġ
xiang4Ġ mu4Ġ
Ġxue2Ġ xiao4Ġ
Ġ hu2Ġ
Ġ da4
wu1Ġke4Ġ lan2
fei1Ġ chang2Ġ
2009 Ġnian2Ġ
Ġxi1Ġ ya4Ġ
qing1 Ġnian2Ġ
Ġ zong3
Ġ mu3Ġ
Ġbing4Ġ qie3Ġ
Ġzhu3Ġ yao4
la1 Ġsi1Ġ
ĠĠĠ gen1Ġju4Ġ
yi1 Ġshi4Ġ
Ġcheng2Ġ wei2
ri4Ġ ben3
mo2 Ġshi4Ġ
zhe2 Ġ
niao3 Ġ
wen2Ġ wu4Ġ
Ġta1Ġmen ĠdeĠ
Ġyi4Ġ shu4Ġ
zhi3 Ġyou3Ġ
cha1 Ġ
Ġji4Ġ lu4Ġ
ĠĠĠ ofĠĠĠ
Ġzhou1 ĠdeĠ
Ġ ai4Ġ
Ġ min2Ġ
hang2Ġ kong1Ġ
Ġ yu2Ġshi4Ġ
Ġ bo2Ġ
wen2Ġ xue2Ġ
fen1 Ġwei2Ġ
suan1 Ġ
Ġqi2 Ġshi4Ġ
Ġqi2 Ġyu2Ġ
sui4 Ġ
deng3 Ġren2Ġ
hui3 Ġ
tong1Ġ guo4
zhi3 Ġchu1Ġ
B Ġ
cang2 Ġ
Ġ 3
28 Ġri4Ġ
shuai4 Ġ
Ġ yong4Ġ
ren2Ġkou3Ġ pu3Ġ
cuo4 Ġ
zhi2 Ġxing2Ġ
tong2 Ġshi2Ġ
Ġ jin1
Ġqiu2 Ġdui4Ġ
zha4 Ġ
Ġli4Ġ ya4
zhi2Ġ jie1Ġ
yan3 Ġchu1Ġ
jin3Ġ biao1Ġ
gai1 Ġdi4Ġ
ge2Ġ lan2Ġ
2016 Ġnian2Ġ
huo2Ġ dong4
zhe4 Ġyi1Ġ
ren4Ġ wei2
jin4Ġ ru4Ġ
Ġzhi1Ġ jian1ĠdeĠ
Ġgong1Ġ kai1Ġ
Ġdang1 Ġzhong1Ġ
hun4 Ġ
ĠĠĠ S
gong4 Ġtong2Ġ
xia4 Ġji4Ġ
Ġdan4 Ġzai4Ġ
zhan4Ġ zheng1Ġ
wu3 Ġnian2Ġ
chou2 Ġ
jiang1 Ġjun1Ġ
le4 Ġbu4Ġ
mei2Ġ ti3Ġ
Ġ wu2
ti3 ĠdeĠ
che1Ġ zhan4
meng4 Ġ
tui1 Ġchu1Ġ
jiao4Ġ yu4
die2 Ġ
yun3 Ġ
zhe4Ġ xie1Ġ
po1 Ġ
ti4 Ġ
Ġshi4Ġ wu4Ġ
miao4 Ġ
li2Ġ kai1Ġ
Ġling4Ġ wai4Ġ
huan2Ġ jing4Ġ
zhu2 Ġ
teng2 Ġ
wan4 Ġ
2012 Ġnian2Ġ
Ġ D
lin2Ġ pi3
Ġdi4Ġ er4
shang1Ġ ye4Ġ
2011 Ġnian2Ġ
chuan2Ġ tong3Ġ
ĠĠĠ nian2
15 Ġri4Ġ
Ġ yin3Ġ
guan1 ĠdeĠ
kuan1 Ġ
san1 Ġshi2Ġ
jun1 Ġshi4Ġ
dan1Ġ qu1Ġ
liang4 ĠdeĠ
jie1 Ġdao4Ġ
san4 Ġ
ji1 ĠdeĠ
qian2 ĠdeĠ
ren2 Ġzai4Ġ
nei4Ġ rong2Ġ
zang4 Ġ
sai4 Ġji4Ġ
gao1 ĠdeĠ
dong4Ġ hua4Ġ
bo2 Ġshi4Ġ
du4 ĠdeĠ
Ġwei4Ġ ren2Ġ
12 Ġ
yin2Ġ hang2Ġ
xuan3Ġ ju3
Ġwei4Ġ zhi4Ġ
cheng2 Ġzhong1Ġ
ming4 Ġming2Ġ
sun3 Ġ
Ġ gu4Ġ
deng3 Ġdi4Ġ
Ġgong1Ġ lu4Ġ
re4 Ġdai4Ġ
bei3Ġ jing1
Ġzhe4Ġ geĠ
bang3 Ġ
Ġshi2Ġ ji4Ġ
yun4Ġdong4 Ġhui4Ġ
xuan3Ġ ze2Ġ
Ġda4Ġ li4Ġ
Ġer2 Ġzai4Ġ
Ġ han4Ġ
yuan2 Ġnian2Ġ
bao4Ġ gao4Ġ
Ġmu4Ġ qian2Ġ
ĠdeĠ he2Ġ
bo1 Ġchu1Ġ
zui4 Ġjia1Ġ
ĠĠĠ ju4Ġ
zong1 Ġjiao4Ġ
xue2 Ġwei4Ġ
tu3 Ġdi4Ġ
Ġde2 Ġdao4Ġ
de ĠĠĠ
zui4 Ġhou4Ġ
wen2Ġ hua4
tuan2Ġ ti3Ġ
25 Ġri4Ġ
Ġ ye4Ġ
Ġdi4Ġ fang1Ġ
gui3 Ġdao4Ġ
luan4 Ġ
Ġwei4Ġ di4Ġ
jing1 Ġli4Ġ
xi4 ĠdeĠ
Ġ zhan4
Ġzhi1Ġ qian2Ġ
sheng3 ĠdeĠyi2Ġge4Ġshi4Ġzhen4Ġ
Ġ mo2Ġ
Ġshi4Ġyi1Ġ zhong3Ġ
Ġshi4Ġwei4Ġyu2Ġ mei3Ġguo2Ġ
A Ġ
ji2 Ġzhong1Ġ
Ġge4 Ġyue4Ġ
Ġ xing4Ġ
Ġ 5Ġ
Ġjun1 ĠdeĠ
si3Ġ wang2Ġ
xiang1Ġ guan1Ġ
Ġ qi4Ġ
Ġ mi3
Ġ 5
Ġ bao1Ġkuo4
30 Ġri4Ġ
fen1Ġ bie2
Ġji1Ġ gou4Ġ
wei4 ĠdeĠ
shou3Ġ ci4Ġ
ao4Ġ lin2Ġpi3
ling3Ġ dao3Ġ
Ġyou3Ġ guan1Ġ
Ġhai3Ġ ba2Ġgao1Ġdu4Ġ
Ġyi1Ġ xie1Ġ
Ġtong2 Ġnian2Ġ
Ġ jue2Ġ
2014 Ġnian2Ġ
yong4 ĠdeĠ
huai2 Ġ
ĠĠĠ wei4Ġ
mei3 Ġyuan2Ġ
20 Ġri4Ġ
Ġxing2Ġ dong4Ġ
Ġ zhong4Ġ
xue3 Ġ
Ġzai4Ġ yi1Ġ
Ġ 6
ji1 Ġyu2Ġ
Ġzhong1Ġ hua2Ġmin2Ġguo2Ġ
shui3 Ġyu4Ġ
11 Ġ
bian4Ġ hua4Ġ
10 Ġri4Ġ
shang4 Ġwei4Ġ
Ġji2Ġ tuan2
2018 Ġnian2Ġ
Ġji4Ġ xu4Ġ
zhi1 Ġyi1Ġ
Ġshi2Ġ dai4Ġ
chu3 Ġyu2Ġ
UTC Ġ
gong4 Ġhe2Ġ
Ġbu4Ġ zhang3Ġ
zi4Ġ ji3Ġ
Ġ wai4Ġ
jie2Ġ shu4Ġ
Ġ bai2Ġ
2019 Ġnian2Ġ
Ġ ziĠ
Ġzi4Ġ ji3
zhi1Ġ chi2Ġ
Ġ 4
2005 Ġnian2Ġ
guo4 Ġcheng2Ġ
Ġhou4Ġ lai2
min2Ġ zu2Ġ
2015 Ġnian2Ġ
shun4 Ġ
kong1Ġ jian1Ġ
shui4 Ġ
Ġ T
bu2 Ġhui4Ġ
mei4 Ġ
ye4 Ġyu2Ġ
Ġ ru2
Ġ 18
Ġ cheng1Ġ
tou4 Ġguo4Ġ
nei4 Ġbu4Ġ
2013 Ġnian2Ġ
Ġ si4
jie3Ġ fang4
Ġzhi2 Ġdao4Ġ
Ġyi4Ġ zhi2Ġ
Ġ jing3Ġ
xin1Ġ wen2Ġ
fen1 Ġbu4Ġ
gen1Ġ ju4
Ġzhou1 Ġshi4Ġ
Ġ ai4
pi1 Ġping2Ġ
Ġji2Ġ tuan2Ġ
2007 Ġnian2Ġ
Ġ jiu4
di4Ġ qu1Ġ
Ġ shu3Ġ
ĠĠĠ zhe4Ġ
Ġhe2Ġ nan2Ġ
ta1Ġ men
Ġshi4Ġ shi2Ġ
Ġyou3Ġxian4 Ġgong1Ġsi1Ġ
wan2 Ġjia1Ġ
gui1Ġ ding4Ġ
Ġ shen2Ġ
ge2Ġ ming4Ġ
Ġjia1Ġ ru4Ġ
wan2 Ġquan2Ġ
cheng2Ġ wei2Ġ
Ġ tang2Ġ
xi1Ġ ban1Ġ
zi1Ġ ge2Ġ
26 Ġri4Ġ
da4Ġ lu4Ġ
ao4Ġlin2Ġpi3 Ġke4Ġ
ĠĠĠ gai1Ġ
2017 Ġnian2Ġ
Ġda4Ġ hui4Ġ
24 Ġri4Ġ
Ġ mo4Ġ
zai4 ĠdeĠ
za2 Ġzhi4Ġ
Ġzhe4Ġ zhong3Ġ
ying1 Ġyu3Ġ
pu2Ġ tao2Ġ
ĠĠĠ yi1Ġ
lu4 Ġdi4Ġ
Ġ ying1Ġguo2Ġ
he2 ĠdeĠ
shang4Ġ hai3Ġ
hao2 Ġmi3Ġ
Ġyu3Ġ yan2Ġ
qi3Ġ ye4Ġ
qi2 Ġta1
fang1 ĠdeĠ
Ġ 8
Ġ ke3
hou4 Ġyi1Ġ
luo2Ġ ma3Ġ
Ġ tou2Ġ
wen4Ġ ti2
Ġ 3Ġ
san1 Ġge4Ġ
Ġcheng2Ġ qu1Ġ
se4 ĠdeĠ
2006 Ġnian2Ġ
chuan2Ġ tong3
Ġshi4Ġ fa3Ġguo2Ġ
yi1 ĠdeĠ
18 Ġri4Ġ
wu4Ġ zhong3Ġ
Ġ yao4Ġ
Ġwei4Ġyu2Ġ gai1Ġguo2Ġ
Ġ ha1Ġ
Ġli3Ġ si1Ġ
Ġ tai2Ġwan1Ġ
jing4Ġ nei4Ġ
Ġbu4Ġtong2 ĠdeĠ
Ġ 9
Ġ mo4
wu4 Ġli3Ġ
duo1 ĠdeĠ
shu4 Ġwei4Ġ
Ġdai4Ġ biao3
biao3 Ġxian4Ġ
Ġ 7
Ġshi4Ġjie4 Ġda4Ġ
sheng3 Ġji2Ġ
fa3Ġ lv4Ġ
miao2 Ġshu4Ġ
gan4 Ġ
guan1 Ġyuan2Ġ
jing1Ġ guo4Ġ
Ġ lu2Ġ
ba4 Ġ
Ġ P
chang1 Ġ
Ġyi4Ġ ban1Ġ
Ġzui4 Ġhou4Ġ
po4Ġ huai4
Ġ M
Ġ a1
Ġguo2Ġ jia1
ying2 Ġde2Ġ
cai4 Ġ
Ġsui2 Ġhou4Ġ
12 Ġri4Ġ
zheng4 Ġzai4Ġ
bao1Ġ han2Ġ
Ġshi4Ġ jian4
bo2Ġwu4Ġ guan3Ġ
Ġgong1Ġ ji1Ġ
shen4 Ġ
ce4 Ġshi4Ġ
chang3 ĠdeĠ
na2 Ġ
Ġ E
21 Ġ
Ġwei4Ġ zhong1Ġ
Ġli4Ġ yong4Ġ
bu4 Ġhe2Ġ
Ġ chao2Ġ
ze2 Ġshi4Ġ
chun2 Ġ
nie4 Ġ
fei1 Ġji1Ġ
Ġfen1 Ġbu4Ġyu2Ġ
zhuan1Ġ ye4Ġ
zheng1 Ġyi4Ġ
27 Ġri4Ġ
shi3 ĠdeĠ
16 Ġri4Ġ
fa3Ġ yuan4Ġ
Ġ 2001Ġnian2Ġ
Ġdi4Ġ qu1
21 Ġri4Ġ
yi4 Ġshi2Ġ
yong1 Ġ
17 Ġri4Ġ
zao1 Ġdao4Ġ
Ġshi4Ġ yi4Ġ
Ġsheng1Ġ huo2Ġ
Ġ chong2Ġ
Ġbei4Ġ cheng1Ġwei2Ġ
ding4 Ġyi4Ġ
Ġzhong1Ġ xin1
Ġsui1 Ġran2
Ġda4Ġ qu1Ġ
sou1 Ġ
zong1 Ġhe2Ġ
Ġzhan4Ġ zheng1Ġ
8 Ġri4Ġ
xue2 ĠdeĠ
Ġxian4 Ġshi2Ġ
Ġzhong1Ġ gong4
19 Ġri4Ġ
ji2 Ġwei4Ġ
23 Ġri4Ġ
2021 Ġnian2Ġ
Ġ 13
huang2 Ġdi4Ġ
ĠdeĠ zuo4Ġ
Ġ zhu1Ġ
zhi3 Ġshi4Ġ
2022 Ġnian2Ġ
11 Ġri4Ġ
a1Ġ la1Ġ
ou1 Ġzhou1
jiang1 Ġqi2Ġ
Ġbing4 Ġbu4Ġ
yuan2 Ġyu2Ġ
fang1Ġ xiang4Ġ
Ġ ci4
zhan4 ĠdeĠ
liu4 Ġnian2Ġ
e2Ġ luo2Ġ
ĠĠĠ yu2Ġ
chu1 Ġxian4Ġ
lie4Ġ che1
quan2 Ġli4Ġ
nao3 Ġ
gui1Ġ mo2Ġ
22 Ġri4Ġ
29 Ġri4Ġ
7 Ġri4Ġ
lie4 ĠdeĠ
zui4Ġ da4ĠdeĠ
me Ġ
duo1Ġ shu4Ġ
xiang4 ĠdeĠ
ĠĠĠ C
20 Ġ
xu1Ġ yao4
hai2 Ġshi4Ġ
Ġ long2Ġ
yu4 ĠdeĠ
neng2Ġ gou4Ġ
yue1Ġ han4Ġ
Ġzhe4Ġ xie1
ĠĠĠ ci3Ġ
ding4 Ġwei4Ġ
tong3 Ġji4Ġ
Ġxiang1Ġ gang3
9 Ġri4Ġ
sang1 Ġ
ĠĠĠ zheng4Ġzhi4Ġ
Ġzai4Ġ zhe4Ġ
xin4 Ġxi1Ġ
yang4 ĠdeĠ
Ġxian4 Ġzhi4Ġ
gong1 ĠdeĠ
Ġ lu4
ju3Ġ ban4
lian2Ġ meng2
Ġfen1Ġ bie2
qiu2 Ġdui4Ġ
hong1 Ġ
Ġ zhang1
cha2 ĠdeĠ
14 Ġri4Ġ
ling4 Ġyi1Ġ
chang2 Ġshi4Ġ
mei3Ġguo2Ġ ren2Ġkou3Ġpu3Ġ
ĠĠĠ theĠĠĠ
niu3Ġ yue1
5 Ġri4Ġ
zu3 Ġhe2Ġ
Ġhuo4 Ġde2
lin2 Ġshi2Ġ
3 Ġri4Ġ
31 Ġri4Ġ
Ġzhong1Ġ bu4Ġ
wei4 Ġshi4Ġ
dong3 Ġshi4Ġ
ji1 Ġdi4Ġ
Ġ G
ge1Ġ shou3Ġ
dong1Ġ nan2Ġ
hai3Ġ ba2
Ġ bao4Ġ
ĠĠĠ zhong1Ġ
bang1 Ġzhu4Ġ
ĠdeĠshi4Ġ zhen4Ġ
Ġ ru4Ġ
Ġ hua2Ġ
6 Ġri4Ġ
pai1 Ġshe4Ġ
Ġ gong4Ġ
mou2 Ġ
Ġ F
Ġ liu2
Ġyi4Ġ da4Ġli4Ġ
2000 Ġnian2Ġ
Ġshe4 Ġli4Ġ
2 Ġri4Ġ
Ġyi4Ġ ban1
Ġren2Ġ kou3
ge4 Ġren2Ġ
she4 Ġyou3Ġ
ĠdeĠ zhong1Ġ
bing3 Ġ
4 Ġri4Ġ
Ġ ãĥ
sheng1Ġ ya2Ġ
yuan2 Ġhe2Ġ
Ġ 4Ġ
2004 Ġnian2Ġ
Ġdi4Ġ qu1ĠdeĠ
Ġxue2Ġ sheng1Ġ
Ġ dao3Ġzhi4Ġ
tie3Ġ lu4
zu2 Ġqiu2
zao3 Ġqi1Ġ
feng2 Ġ
Ġqi2 Ġta1
cang1 Ġ
m Ġ
13 Ġri4Ġ
xiong1 Ġdi4Ġ
sheng1 Ġzai4Ġ
dong1Ġ bei3Ġ
ruan3 Ġ
mu4 Ġdi4Ġ
tong1Ġ chang2Ġ
hui1 Ġfu4Ġ
Ġ ãĤ
Ġzhe4 Ġyi1Ġ
Ġ wo3
Ġshi4Ġ chang3Ġ
Ġxue2Ġ yuan4Ġ
shao1 Ġ
pan2 Ġ
Ġ bian4Ġ
shen1Ġ fen4Ġ
ĠĠĠ you2Ġyu2Ġ
qu3 Ġdai4Ġ
ĠĠĠ A
lian2Ġ bang1Ġ
ge2Ġ ming4
zhi3Ġ hui1Ġ
Ġ mei2Ġyou3Ġ
qing2Ġkuang4 Ġxia4Ġ
yi2 Ġbu4Ġ
su1Ġ lian2Ġ
xie2 Ġyi4Ġ
huang2 Ġjia1Ġ
ke1 Ġji4Ġ
fa1 Ġxian4
pang2 Ġ
zheng3 Ġge4Ġ
zhan1 Ġ
ren2 Ġhe2Ġ
Ġgong1Ġ chi3Ġ
Ġ hei1Ġ
yao1 Ġqiu2
yan1 Ġ
Ġ fu4
chao1 Ġji2Ġ
mao4 Ġyi4Ġ
yue4 ĠdeĠ
zhang3 ĠdeĠ
xue2Ġ yuan4
fan3Ġ ying4
ju3Ġ ban4Ġ
hang2Ġ kong1
cui1 Ġ
xi2 Ġji1Ġ
Ġye3 Ġyou3Ġ
hua4 Ġhe2Ġ
xiao3Ġ shuo1Ġ
Ġdi4Ġ li4Ġ
Ġ shu1Ġ
li4 Ġhe2Ġ
nv3Ġ xing4Ġ
Ġxi1Ġ nan2Ġ
tu2Ġ shu1Ġ
guan1Ġ fang1Ġ
xian1 Ġhou4Ġ
bi4Ġ ye4Ġ
tong3 Ġyi1Ġ
ting3 Ġ
za2 Ġ
Ġ ha1
br Ġ
Ġ gu4
Ġ man4Ġ
sai4 ĠdeĠ
hou2 Ġ
zun1 Ġ
Ġ shuang1Ġ
Ġyi3Ġ jing1
Ġ wei1
Ġ que4Ġ
a ĠĠĠ
Ġ dong1
Ġ brĠ
xie2 Ġzhu4Ġ
lan3 Ġ
a Ġ
ci4 Ġshi4Ġjie4Ġda4Ġ
Ġru2Ġ guo3Ġ
Ġ B
shang4 Ġshi4Ġ
qu1Ġ hua4Ġ
Ġ K
30 Ġ
fen1 Ġxi1Ġ
yu3 ĠdeĠ
Ġer3Ġ sheng3Ġ
ren2Ġkou3Ġ shu4Ġliang4
wen2Ġwu4Ġ bao3Ġhu4Ġ
The ĠĠĠ
Ġhe2Ġ yi1Ġ
Ġbu4Ġ neng2Ġ
zi4 Ġxing2Ġ
Ġ 6Ġ
Ġ ben3
jie1Ġ duan4Ġ
guang3Ġ bo1Ġ
Ġ qie3Ġ
Ġyi3Ġ lai2Ġ
Ġxi1Ġ ban1Ġ
Ġ zu3Ġ
Ġ cai2Ġ
dan1Ġ ren4
Ġta1Ġ ceng2
chi2Ġ xu4Ġ
tai2Ġ bei3
Ġ wu3
wu2 Ġxian4Ġ
gong4Ġchan3Ġ dang3Ġ
guo2 Ġhe2Ġ
Ġ 12
Ġyi3Ġ xia4Ġ
qi1 Ġnian2Ġ
te4 ĠdeĠ
dao3Ġ yan3Ġ
reng2 Ġ
hou4 Ġyu2Ġ
yan3Ġ chang4
zhu4 Ġzai4Ġ
fa1Ġ biao3
xia4Ġ xia2
tiao2 Ġjian4Ġ
pin2 Ġdao4Ġ
hu3 Ġ
Ġgong1Ġ zuo4
ye4 ĠdeĠ
jiao1 Ġyi4Ġ
Ġ L
Ġ qian1Ġ
Ġzai4Ġ ci4Ġ
lai4 Ġ
shao4 Ġnian2Ġ
Ġ jiu3Ġ
jie2Ġ shu4
Ġshi4Ġ zhong1Ġguo2Ġ
bao4 Ġdao4Ġ
Ġren2Ġkou3Ġmi4Ġ du4Ġwei4Ġ
qiu2 Ġyuan2Ġ
Ġshi4Ġ li4Ġ
Ġ qie3
ĠĠĠ bu4Ġ
zao1 Ġ
jue2Ġ sai4Ġ
Ġzhe4Ġ ge
ying4Ġ yong4Ġ
wai4 ĠdeĠ
you2Ġ zheng4Ġ
jian4 Ġli4Ġ
Ġ ya4Ġ
zi1 Ġyuan2Ġ
sai1 Ġer3Ġ
Ġqi2 Ġhou4Ġ
Ġ xi1
zui4 Ġda4Ġ
Ġbing4 Ġwei4Ġ
hui2 Ġdao4Ġ
cao1 Ġ
su4Ġ du4Ġ
qi4 Ġhou4Ġ
ke3Ġ da2Ġ
Ġ luo4Ġ
Ġwei4Ġyu2Ġ fa3Ġguo2Ġ
Ġ zhao4Ġ
gai3Ġ ge2Ġ
mi4Ġ shu1Ġ
Ġyi1Ġ yuan4Ġ
dian4Ġshi4Ġ ju4Ġ
zhuang4Ġ tai4Ġ
zhu4 ĠdeĠ
fen4 Ġwei4Ġ
Ġ 10
Ġgong1Ġ ye4Ġ
wang3 Ġzhan4Ġ
Ġ jie3Ġ
gong1Ġ si1Ġ
Ġ lan2Ġ
jie2Ġ guo3Ġ
suo3Ġ shu3ĠdeĠ
ĠdeĠdi4Ġ yi1Ġ
hu2 Ġnan2Ġ
Ġyi1Ġ si1Ġ
Ġ mai4
ya4 Ġli4Ġ
Ġwei4Ġ yi1Ġ
shang4Ġ hai3
20 Ġshi4Ġji4Ġ
Ġzuo4Ġ pin3Ġ
zuo3 Ġyou4Ġ
xiao3 Ġxue2Ġ
Ġ R
jie2 Ġhe2Ġ
sheng4 Ġli4Ġ
Ġzhong1Ġ gong4Ġ
shou3Ġ ci4
Ġ jia4Ġ
Ġhao4 Ġxian4Ġ
zhen4Ġ qu1Ġ
ĠdeĠ fu4Ġ
wen2 Ġming2Ġ
Ġjian3Ġ cheng1Ġ
kai1Ġ fa1
Ġ H
Ġsuo3 Ġyou3Ġ
yi2 Ġzhi4Ġ
jiao4 Ġhui4Ġ
sheng3Ġ fen4Ġ
zhan3Ġ kai1Ġ
yin4Ġ du4
shi2Ġ qi1Ġ
Ġ fa3Ġguo2Ġ
ling3Ġ dao3
mu4Ġ biao1Ġ
Ġer2 Ġshi4Ġ
gao1 Ġji2Ġ
zhun3 Ġbei4Ġ
wang3Ġ luo4Ġ
Ġ fei1
Ġjian4 Ġshe4Ġ
xun4Ġ lian4Ġ
ke1 ĠdeĠ
Ġren2Ġ wu4Ġ
fa1Ġ biao3Ġ
xuan3Ġ shou3Ġ
jiao1Ġ tong1
hao3 ĠdeĠ
ĠĠĠ B
zi4Ġ ran2Ġ
zhong4Ġyao4 ĠdeĠ
dong1Ġ jing1Ġ
chan3Ġ pin3Ġ
gong4Ġyou3Ġ ren2Ġkou3Ġ
Ġ jia3Ġ
Ġxian4Ġ dai4Ġ
Ġyi1Ġ ming2Ġ
Ġxi1Ġ bei3Ġ
juan3 Ġ
feng1Ġ ge2Ġ
Ġcheng2Ġ ji4Ġ
lei3 Ġ
zou4 Ġ
Ġhe2Ġ di4Ġ
xiao3Ġxing2Ġ xing1Ġ
yan2Ġ zhong4Ġ
zi ĠdeĠ
mu4Ġ qian2Ġ
liu2 Ġxing2Ġ
wen2Ġwu4Ġbao3Ġhu4Ġ dan1Ġwei4Ġ
mie4 Ġ
Ġji1Ġ chang3Ġ
bian4 Ġcheng2Ġ
qiao2 Ġzhi4Ġ
Ġ guang1Ġ
Ġ dan1Ġren4Ġ
lei4Ġ si4
dian4Ġshi4Ġ tai2Ġ
ĠĠĠ P
jie3 Ġshi4Ġ
guo2Ġ min2Ġ
Ġyi4Ġ qi3Ġ
Ġ mai4Ġ
Ġ yong3Ġ
kai1Ġ fang4Ġ
Ġ shen4Ġzhi4Ġ
Ġxia4Ġ ling4
Ġ yi2Ġge4Ġ
ka3 Ġer3Ġ
2003 Ġnian2Ġ
xing2 Ġshi4Ġ
dou1 Ġyou3Ġ
2002 Ġnian2Ġ
Ġ chu2ĠleĠ
zhi1 Ġhou4Ġ
hui4 Ġhe2Ġ
mei3 Ġping2Ġfang1Ġgong1Ġli3Ġ
ru4 ĠleĠ
Ġyi1Ġ yang4Ġ
Ġgong1Ġ fen1Ġ
Ġshe4 Ġzhi4Ġ
te4Ġ zheng1Ġ
can1Ġ sai4Ġ
Ġsi1Ġ ji1Ġ
Ġ wu1Ġ
Ġ deng3
ru2 Ġxia4Ġ
zhen1 Ġdui4Ġ
jiu4 Ġshi4Ġzhen4Ġ
Ġshi4Ġ fou3
Ġshi2Ġ jian1
gao1 Ġzhong1Ġ
Ġci3 Ġhou4Ġ
Ġzai4Ġ zhong1Ġ
bi4Ġ xu1Ġ
wang2 Ġguo2Ġ
bi3Ġ jiao4Ġ
Ġ 00
er4 Ġshi4Ġ
diao1 Ġ
wai4Ġ jiao1
gui1Ġ hua4Ġ
Ġ che1Ġ
bang4 Ġ
Ġyi4Ġ zhi4Ġ
lei4Ġ si4Ġ
Ġ yu3
Ġ biao3Ġshi4Ġ
zhe4Ġ geĠ
shan1Ġ dong1Ġ
Ġran2 Ġhou4Ġ
Ġsui1 Ġran2Ġ
Ġyi4Ġ zhi2
Ġli4Ġ shu3Ġyu2Ġ
yuan2 Ġshi4Ġ
dui4 Ġzai4Ġ
zhu4 Ġming2Ġ
yun2 Ġnan2Ġ
hen3 Ġduo1Ġ
Ġer3 ĠdeĠ
huo4 Ġde2
Ġ shang1Ġ
sheng1Ġ chan3Ġ
ĠĠĠ gong1Ġ
zhan4 Ġyi4Ġ
Ġ bei3
zhong4 ĠdeĠ
dian4Ġ ziĠ
ĠĠĠ da4Ġ
Ġjian4 Ġzhi4Ġ
xin1 Ġjia1Ġ
Ġ tu2Ġ
lai2Ġ zi4
zhi4Ġ zuo4Ġ
shan1 Ġxi1Ġ
ren2Ġkou3Ġshu4Ġliang4 Ġwei4Ġren2Ġ
Ġ gu3
ju4 Ġji2Ġ
ĠdeĠyi1Ġ zhong3Ġ
ĠdeĠ ming2Ġ
ĠĠĠ F
ji2 Ġhe2Ġ
U Ġ
Ġxi1Ġ ya4
lv3 Ġyou2Ġ
tao4 Ġ
Ġzhi4Ġ zao4Ġ
Ġxing2Ġ wei2Ġ
ma3Ġ lai2
Ġ ren4
bao4Ġ fa1Ġ
nv3 Ġer2Ġ
Ġ INSEE
Ġ O
ĠĠĠ T
zong3 Ġli3Ġ
Ġ zu3
quan2 Ġqiu2Ġ
si1 Ġhe2Ġ
ĠdeĠ zhu3Ġ
Ġ dui4Ġyu2Ġ
sai4 Ġzhong1Ġ
Ġshang4Ġ hai3Ġ
fa1 Ġshe4Ġ
rui4 Ġshi4Ġ
bao1Ġ han2
nong2Ġ ye4Ġ
Ġ I
ĠĠĠ M
ye4Ġ wu4Ġ
lu4 Ġjun1Ġ
tou2Ġ zi1Ġ
wu4 Ġzhi4Ġ
jue2 ĠdeĠ
t Ġ
nai4 Ġ
te4Ġ bie2Ġ
Ġjin4 Ġshi4Ġ
ĠdeĠshi2Ġ hou4Ġ
ĠĠĠ G
ao4Ġlin2Ġpi3Ġke4Ġ yun4Ġdong4Ġhui4Ġ
Ġ N
ge2 ĠdeĠ
Ġzhi4Ġ jin1Ġ
fang1Ġ an4Ġ
si1 Ġren2Ġ
hua4Ġ xue2Ġ
Ġte4Ġ bie2
cha4 Ġ
Ġda4Ġ liang4Ġ
ji2 Ġshi4Ġ
min3 Ġ
Ġ ni2Ġ
ke3Ġneng2 Ġshi4Ġ
Ġnian2Ġ du4Ġ
jin4 ĠdeĠ
Ġzhi1Ġ wai4Ġ
si4 Ġshi2Ġ
qian3 Ġ
cao2 Ġ
fa1Ġ dong4Ġ
lian2Ġ jie1Ġ
Ġ geng4Ġ
xuan3 Ġwei4Ġ
Ġshe4Ġ shi1Ġ
Ġ zheng4Ġshi4Ġ
Ġwan4 Ġren2Ġ
chu4 ĠdeĠ
tu3 Ġer3
Ġli4Ġ si1Ġ
bo2Ġ te4Ġ
Ġzong3Ġ mian4Ġji1Ġ
luo2Ġ ma3
chuang4 Ġli4Ġ
ĠdeĠ li4Ġ
Ġnian2Ġ hou4Ġ
Ġde2 Ġli3Ġ
guang3Ġ chang3Ġ
lian2 Ġhe2Ġguo2Ġ
ji2 Ġshi2Ġ
geng1Ġ ming2Ġwei4Ġ
zao3 Ġnian2Ġ
xiao4 Ġli4Ġ
qi4 ĠdeĠ
biao3Ġ yan3Ġ
0 Ġ
yi2 Ġshi4Ġ
reng2 Ġran2Ġ
Ġjun1 Ġzai4Ġ
fang1Ġ mian4
jue2Ġ ding4
Ġ zhen1Ġ
Ġgai1Ġ sheng3Ġ
da1 Ġ
zhi4 Ġshi4Ġ
Ġgong1Ġ neng2Ġ
zong3Ġ tong3
Ġren2Ġkou3Ġmi4Ġdu4Ġ mei3Ġping2Ġfang1Ġgong1Ġli3Ġ
Ġren2Ġkou3Ġmi4Ġdu4Ġwei4Ġ mei3
Ġxia4Ġling4 Ġshi2Ġ
Ġ xian1Ġ
you2Ġzheng4Ġ bian1Ġma3Ġwei4Ġ
cha2ĠdeĠ shu4Ġju4Ġ
ĠĠĠ bei4Ġ
Ġju4Ġ le4Ġbu4Ġ
Ġfen1 Ġzhong1Ġ
Ġshi4Ġzhen4Ġ bian1Ġma3Ġwei4Ġ
ĠINSEE Ġshi4Ġzhen4Ġbian1Ġma3Ġwei4Ġ
Ġ xiang4
Ġ han2Ġ
biao1Ġ zhun3
Ġshe4 ĠdeĠ
xuan3Ġ qu1Ġwei4Ġ
Ġzai4Ġ ci3Ġ
Ġbu4Ġ guo4
pai2 Ġming2Ġ
Ġguo2Ġ wang2Ġ
Ġ xiao1Ġ
dong4 Ġli4Ġ
shi2ĠdeĠ ren2Ġkou3Ġshu4Ġliang4Ġwei4Ġren2Ġ
2023 Ġnian2Ġ
jie1Ġrang3 ĠdeĠshi4Ġzhen4Ġ
mei3Ġguo2Ġren2Ġkou3Ġpu3Ġ cha2ĠdeĠshu4Ġju4Ġ
jia1 Ġli4Ġ
cong2 Ġshi4Ġ
Ġer2 Ġren2Ġkou3Ġmi4Ġdu4Ġwei4Ġmei3
ge2Ġ lan2
Ġdang1Ġdi4Ġ gong4Ġyou3Ġren2Ġkou3Ġ
fen1Ġ lei4Ġ
jie3Ġ jue2Ġ
n Ġ
zu2 ĠdeĠ
Ġ qing1
da4 Ġbu4Ġfen4
yi1Ġ zhong3Ġ
shi3Ġyong4 ĠdeĠ
ling3 Ġyu4Ġ
Ġhuo4Ġ jiu4Ġshi4Ġzhen4Ġ
ĠĠĠ li4Ġ
he2 Ġshi4Ġ
Ġchu1Ġ ban3Ġ
Ġ jiang3Ġ
gou1 Ġ
yun4Ġ ying2Ġ
sheng3Ġji2Ġ xuan3Ġqu1Ġwei4Ġ
ji1 Ġji2Ġ
ĠdeĠ yi1Ġbu4Ġfen4Ġ
shi2 Ġshi4Ġ
an ĠĠĠ
er2Ġ ziĠ
jiu3 Ġnian2Ġ
zuo4Ġ pin3
xuan3 Ġren2Ġ
gai4Ġ nian4Ġ
Ġ kai1Ġshi3Ġ
xing1 ĠdeĠ
Ġer3 Ġde2Ġ
sheng3 Ġhe2Ġ
Ġjin3Ġ guan3Ġ
jie1Ġ shou4
tiao2Ġ yue1Ġ
fen4Ġwei4Ġ fa3Ġguo2Ġ
Ġgai1Ġsheng3Ġ fen4Ġwei4Ġfa3Ġguo2Ġ
Ġchu1Ġ ban3
Ġzhi1 Ġxian4Ġ
tie3 Ġdao4Ġ
Ġdi4Ġ san1
lian2Ġ bang1
Ġ song4Ġ
Ġnian2Ġ chu1Ġ
Ġer2Ġ qie3Ġ
Ġjun1Ġ dui4Ġ
guang3 Ġzhou1Ġ
Ġbu4Ġ jiu3Ġ
al ĠĠĠ
ao4 Ġda4Ġli4Ġ
Ġwei4Ġ shi2Ġ
Ġxi1Ġ la4
fu2 Ġjian4Ġ
Ġying1Ġ chi3Ġ
Ġ dui4
Ġhe2Ġ bing4
zhan4Ġ zheng1
Ġyou3Ġ ren2Ġ
pai2Ġ ming2
zhan4 Ġshi4Ġ
jin3Ġbiao1Ġ sai4Ġ
zui4Ġ hou4Ġyi1Ġ
qun2Ġ dao3Ġ
lai2 Ġyuan2Ġ
te4Ġ bie2
Ġta1Ġ bei4Ġ
jing3Ġ cha2Ġ
xing1 Ġjian4Ġ
Ġchu1Ġ sheng1Ġyu2Ġ
Ġ ruo4Ġ
ba1 Ġnian2Ġ
she4 Ġli4Ġ
reng2 Ġran2
Ġ geng4
di4Ġ yi1Ġ
Ġri4 ĠdeĠ
Ġ yi4Ġwei4Ġ
lun2Ġ dun1
ben3 ĠdeĠ
wei3 Ġhui4Ġ
Ġyou2Ġ xi4
Ġ ãģ
Ġren2Ġ gong1Ġ
xue2Ġ xiao4
shan3 Ġxi1Ġ
Ġzhi4Ġ yu2Ġ
lie4 Ġwei4Ġ
Ġbu4Ġ ming2Ġ
tong1Ġ chang2
mu3 Ġsi1Ġ
Ġming2Ġ chao2Ġ
yun4 Ġxing2Ġ
ceng2 Ġzai4Ġ
Ġ jiao1Ġ
mei3 Ġzhou1Ġ
tian1Ġ wen2Ġ
cai3Ġ yong4
Ġdi4Ġ si4Ġ
Ġ fan4Ġ
Ġ J
yan2Ġjiu1 Ġsuo3Ġ
guang3Ġ fan4Ġ
ao4 Ġsi1Ġ
ang2 Ġ
Ġxian4Ġ lu4Ġ
meng2Ġ gu3Ġ
gan3Ġ ran3Ġ
rou4 Ġ
Ġshi4Ġ bu4Ġ
yi3 Ġji2Ġ
Ġhe2Ġ ping2Ġ
ĠĠĠ ta1
hua4 Ġshi2Ġ
jia1Ġ ru4Ġ
zhan4 Ġhou4Ġ
Ġ shi3Ġyong4Ġ
nan2 Ġji2Ġ
shuo1Ġ fa3Ġ
Ġ rang4
xi1 Ġzai4Ġ
Ġjin4 ĠdeĠ
Ġren4Ġ wei2
Ġji1Ġ ben3Ġ
Ġ fei4Ġ
Ġju4Ġ li2Ġ
Ġ di2Ġ
mo2 Ġxing2Ġ
Ġ can1Ġ
guo4Ġ cheng2Ġzhong1Ġ
ĠdeĠdi4Ġ fang1Ġ
ĠdeĠ xin1Ġ
ji4Ġ shu4Ġ
Ġ da2Ġ
Ġjian4 Ġyi4Ġ
Ġta1 Ġyu3Ġ
yun4Ġ shu1Ġ
gou4Ġ mai3
Ġ shou4
wan2 Ġquan2
wu3 Ġshi2Ġ
Ġke4 ĠdeĠ
ren4Ġwei2 Ġshi4Ġ
Ġ chen2
Ġzai4Ġ yi4Ġ
Ġge4 Ġdi4Ġ
duo1 Ġge4Ġ
ban4Ġ gong1Ġshi4Ġ
Ġ 10Ġyue4Ġ
tong2 Ġyi1Ġ
wai4 Ġguo2Ġ
Ġzong3 Ġren2Ġkou3Ġ
xue2 Ġshi4Ġ
shang4 Ġyou3Ġ
yuan2 Ġwei4Ġ
zhao3 Ġ
jia4Ġ zhi2Ġ
gong1Ġ zuo4Ġ
Ġzi4Ġ ji3Ġ
ni2 Ġsi1Ġ
Ġzai4Ġ zhong1Ġguo2Ġ
Ġ ai1
quan1 Ġ
Ġ xing1Ġ
ĠĠĠ H
xue2Ġ xi2Ġ
yang3Ġ hua4Ġ
fei1 Ġxing2Ġ
Ġ jie4
xuan1Ġ chuan2Ġ
mo4 Ġxi1Ġ
Ġyi1Ġ xie1
xuan3Ġ ze2
cheng1 Ġwei4Ġ
xiao1 Ġxi1Ġ
Ġxian4 Ġren2Ġ
ĠdeĠ guan1Ġ
Ġ chang3Ġ
hai3 Ġjun1
biao1 Ġzhi4Ġ
Ġbu4Ġ men2Ġ
zhi4 Ġwei4Ġ
qi3Ġ lai2Ġ
Ġ ke1
you2Ġ xi4
huan2Ġ jing4
ma2 Ġ
fu4Ġze2Ġ guan3Ġxia2Ġ
Ġwei2Ġ zhu3Ġ
ĠĠĠ yi3Ġ
gou4 Ġcheng2Ġ
shi1 ĠdeĠ
and ĠĠĠ
che1Ġ liang4Ġ
zhe2 Ġxue2Ġ
Ġ an4Ġ
xi4Ġ bao1Ġ
Ġ da3Ġ
keng1 Ġ
Ġji4Ġ hua4
si1 Ġzai4Ġ
Ġ lin2
zheng4 ĠdeĠ
dang3 ĠdeĠ
an1 Ġquan2
bi3 Ġde2Ġ
Ġdao4Ġ lu4Ġ
jie4 Ġquan2Ġguo2Ġ
chao2Ġ xian1Ġ
yin2Ġ hang2
Ġ hua1Ġ
ĠĠĠ K
Ġ dou1Ġ
xi1 ĠdeĠ
Ġ er4
Ġshi4Ġ mei3Ġguo2Ġ
Ġshi4Ġ tu2Ġ
zhong1 Ġzai4Ġ
Ġji4Ġ nian4Ġ
zhu3Ġ jue2Ġ
an4 ĠdeĠ
si4Ġ chuan1Ġ
bu4 Ġwei4Ġ
Ġji2Ġ qi2Ġ
ĠĠĠ D
peng2 Ġyou3Ġ
1999 Ġnian2Ġ
chi2Ġ xu4
Ġ fan3Ġ
ai4 Ġer3Ġ
ĠĠĠ you3Ġ
ĠĠĠ he2Ġ
Ġgong1Ġ gong4Ġ
Ġzhi1Ġ chi2
kang4 Ġyi4Ġ
yue1 Ġwei4Ġ
tai4 Ġguo2Ġ
Ġer2Ġ qie3
jie1 Ġwei4Ġ
xuan3Ġ qu1Ġ
Ġ tai2Ġwan1
shi2 Ġzai4Ġ
yi4 Ġhe2Ġ
hui4 Ġyou3Ġ
sheng1Ġ wu4Ġ
xiao4Ġ zhang3Ġ
wen2 Ġjian4Ġ
Ġbei4Ġ er3Ġ
ge1Ġ qu3
shou1Ġ ru4Ġ
Ġjie2 Ġzhi4Ġ
biao1 Ġwei4Ġ
fo2 Ġjiao4Ġ
rong2 Ġyi4Ġ
ao4Ġ yun4
ĠĠĠ in
ĠĠĠ shi2Ġ
ĠĠĠ che1Ġzhan4Ġ
Ġsheng1Ġ wu4Ġ
suo3Ġshu3ĠdeĠ sheng3Ġji2Ġxuan3Ġqu1Ġwei4Ġ
Ġ qiang2Ġ
yan3 ĠdeĠ
bian1 Ġji2Ġ
qian4 Ġ
Ġzhan4Ġ zheng1
si1 Ġdi4Ġ
ye3 Ġyou3Ġ
zheng4Ġ ce4Ġ
qian2Ġ wang3
ji4 Ġzhong1Ġ
mi3 Ġer3Ġ
yu3Ġ yan2Ġ
Ġ ruo4
jun1 Ġdui4Ġ
jie3Ġfang4 Ġjun1Ġ
ao4Ġ yun4Ġ
Ġyou4Ġ cheng1Ġ
tiao3 Ġzhan4Ġ
Ġyuan2Ġ zhu4Ġ
Ġchu1Ġ leĠ
ĠĠĠ R
Ġzhi4Ġ du4Ġ
Ġ yu4
Ġ yan3Ġ
gao1 Ġyu2Ġ
24 Ġ
wu2 Ġren2Ġ
Ġshi4Ġ yi2Ġge4
Ġ ti2Ġ
Ġhuo4 Ġshi4Ġ
gan3 Ġdao4Ġ
nan2Ġ xing4Ġ
Ġyi3Ġ shang4Ġ
man4Ġ hua4Ġ
i Ġ
gai3Ġ bian4Ġ
ĠĠĠ 2021
Ġ tong1Ġguo4Ġ
ma3 Ġli4Ġ
Ġdi4Ġ xia4Ġ
Ġ que4
fo2 Ġ
jie1Ġrang3 Ġ
pei4 Ġhe2Ġ
Ġ zi4
kun1 Ġ
tou2Ġ ru4Ġ
jia1 Ġren2Ġ
wen3Ġ ding4Ġ
1998 Ġnian2Ġ
zhi3Ġ hui1
Ġzhong1Ġ you3Ġ
Ġzai4Ġ bu4Ġ
ti2 Ġming2Ġ
da2 Ġcheng2Ġ
Ġyi1Ġ zhong3Ġ
ru3 Ġ
mo4 Ġsi1Ġ
ne4 Ġ
fen1 Ġzhi1Ġ
zha1 Ġ
zai4 Ġshi4Ġ
tong2 ĠdeĠ
jian3Ġ jie4Ġ
Ġ hu4Ġ
shen1Ġ fen4
tian1Ġ zhu3Ġjiao4Ġ
Ġzhong1Ġguo2Ġ ren2Ġmin2Ġ
biao3 Ġming2Ġ
duo2 ĠdeĠ
ting2Ġ zhi3Ġ
Ġ hai2Ġyou3Ġ
Ġer2Ġren2Ġkou3Ġmi4Ġdu4Ġwei4Ġmei3 Ġping2Ġfang1Ġqian1Ġmi3Ġ
Ġ ping2
xiao3 ĠdeĠ
zheng4 Ġshi2Ġ
ce4 ĠdeĠ
zao4 ĠdeĠ
Ġwei4Ġ fu2
juan1 Ġ
Ġ li2Ġ
Ġ zhuan1Ġ
que4Ġ zhen3
2024 Ġnian2Ġ
ĠĠĠ 2020
Ġji1Ġ bai4Ġ
ban4Ġ dao3Ġ
Ġ pi2Ġ
ĠĠĠ yuan2Ġ
guo2 Ġzai4Ġ
wu3Ġ qi4Ġ
ta1Ġ menĠ
Ġ bo1
ĠĠĠ L
Ġjia1Ġ na2Ġda4Ġ
Ġping2Ġfang1Ġ mi3Ġ
zi4Ġzhi4Ġ qu1Ġ
Ġ 8Ġyue4Ġ
la1 Ġke4Ġ
lei4 ĠdeĠ
ĠĠĠ zi4Ġ
19 Ġ
hun4 Ġhe2Ġ
Ġzi4Ġ you2Ġ
Ġzai4Ġ mei3Ġguo2Ġ
Ġshi2Ġ yan4
zui4Ġ zao3
ju3 Ġren2Ġ
Ġ bian1Ġ
tuan2 Ġdui4Ġ
di4 Ġshi4Ġ
ke3Ġneng2 Ġhui4Ġ
ya1 Ġli4Ġ
y Ġ
quan2 Ġbu4Ġ
Ġ su1
ji4 Ġwei4Ġ
Ġer2 Ġbei4Ġ
Ġji4Ġ cheng2Ġ
gong4 Ġxian4Ġ
ji4Ġ hua4Ġ
xi1Ġban1Ġ ya2Ġ
Ġshi2Ġ shi1Ġ
jie2Ġ mu4
Ġjie2Ġ guo3Ġ
X Ġ
Ġdi4Ġ tie3Ġ
sheng1Ġ chan3
lai2Ġ shuo1Ġ
li4 Ġbu4Ġ
zhe4Ġ zhong3Ġ
chan3Ġ ye4Ġ
Ġ wang2
Ġ bei4
xing2Ġ dong4Ġ
fan1 Ġyi4Ġ
Ġ hai2
Ġqi1Ġ jian1Ġ
Ġchu1Ġ ren4Ġ
Ġ chuan2Ġ
shao3Ġ shu4Ġ
cao1 Ġzuo4Ġ
jian3Ġ cha2Ġ
ban4 Ġshi4Ġ
jia1Ġ na2Ġda4Ġ
ying3Ġ pian4Ġ
chong1Ġ tu1Ġ
Ġzai4Ġ da4Ġ
Ġta1 Ġyu2Ġ
ji4Ġ nian4Ġ
bao3Ġ hu4
Ġ men2Ġ
an4 Ġjian4Ġ
chong2 Ġjian4Ġ
amp Ġ
shou3 ĠdeĠ
Ġ mu4
Ġjian4Ġ zhu4
Ġshi2Ġ fen1Ġ
Ġ an1
Ġshi4Ġ yi3Ġ
xing2 Ġwei2Ġ
xin1 Ġli3Ġ
ceng2Ġ jing1Ġ
gong4 Ġtong2
Ġshi3 ĠdeĠ
dong4 ĠdeĠ
kong1 Ġjun1Ġ
Ġzhi3 Ġyou3Ġ
ban4 Ġgong1Ġ
Ġxian4 Ġwei4Ġ
zhe4Ġ ge
qi1Ġ jian1
da4 Ġbu4Ġfen4Ġ
Ġzhi4Ġ zuo4
jie2Ġ gou4
nan4 Ġ
Ġyi4Ġ you3Ġ
Ġli4Ġ ru2
lian2Ġ sai4
lian2Ġ xu4Ġ
jue2Ġ se4
ji2 Ġzai4Ġ
shen1 ĠdeĠ
yang1 Ġ
Ġhe2Ġ bei3Ġ
Ġwei4Ġ neng2Ġ
mei2Ġ ti3
zhu3Ġ ti2Ġ
xiang1Ġ dui4Ġ
fen1Ġ bie2Ġ
jian3Ġ shao3Ġ
Ġhe2Ġ liu2Ġ
gong1Ġ yuan2Ġ
tou4 Ġ
tong4 Ġ
Ġyou4 Ġming2Ġ
Ġyi3Ġ se4Ġ
fen4Ġ zi3Ġ
xian4 Ġdai4Ġ
Ġshi4Ġyi1Ġ ming2Ġ
xiao3Ġ zu3Ġ
Ġti3Ġ zhang3Ġ
ĠĠĠ 2019
Ġxi1Ġ wang4Ġ
ying4 ĠdeĠ
wei3Ġyuan2Ġ hui4
d Ġ
ming4Ġ ming2Ġwei4Ġ
ou1 Ġyuan2Ġ
Ġgong1Ġ si1ĠdeĠ
Ġliang3 Ġren2Ġ
yi4 Ġzai4Ġ
dong4 Ġji1Ġ
da3 Ġji1Ġ
ĠdeĠdi4Ġ qu1Ġ
zhan3 Ġshi4Ġ
zhuo2 Ġ
Ġzhi2 Ġzhi4Ġ
Ġshe4Ġ qu1Ġ
Ġji4Ġ xu4
gui1Ġ mo2
shou3 Ġwei4Ġ
xun2Ġ hui2Ġ
Ġsi1Ġ ling4
shu4Ġ liang4Ġ
xia4Ġ wu3Ġ
1996 Ġnian2Ġ
lu4Ġdi4Ġ mian4Ġji1Ġwei4Ġ
yong4Ġ lai2Ġ
shui3Ġyu4Ġ mian4Ġji1Ġwei4Ġ
Ġli4Ġ ji2Ġ
qi3Ġ yong4Ġ
Ġ zhen4Ġ
lei4 Ġxing2Ġ
ren4Ġ wu4Ġ
Ġguo2Ġ li4Ġ
Ġshi2Ġ zi4Ġ
Ġyi1Ġ ci4Ġ
duo1Ġ ci4Ġ
ping2Ġ jia4Ġ
bu4 Ġshi4Ġ
Ġ ling2Ġ
Ġ lie4Ġ
Ġ 2009Ġnian2Ġ
ĠĠĠ 2018
ĠdeĠ shou3Ġ
Ġfu4Ġ jin4Ġ
ju3 Ġxing2ĠdeĠ
fu2 Ġhe2Ġ
ti3Ġ xi4Ġ
Ġ wang3Ġ
wai4Ġ jiao1Ġ
Ġzhe4Ġ jiang1Ġ
e Ġ
ĠĠĠ E
1997 Ġnian2Ġ
Ġda4Ġ shi3Ġ
Ġ bian4
zuo4Ġ jia1Ġ
Ġshe4 Ġbei4Ġ
liang3 Ġge4
mei3 Ġnian2Ġ
Ġli4Ġ fa3Ġ
Ġ xiao4Ġ
zhu4 Ġyi4Ġ
Ġ ampĠ
dian4 Ġli4Ġ
de2 Ġdao4Ġ
Ġsi1Ġ ling4Ġ
Ġcong2 Ġer2Ġ
fa3Ġ lv4
kui2 Ġ
jiao4Ġ tang2Ġ
Ġdang1Ġzhong1Ġ lu4Ġdi4Ġmian4Ġji1Ġwei4Ġ
Ġ guang3Ġ
zhi4 Ġhe2Ġ
Ġer2Ġ shui3Ġyu4Ġmian4Ġji1Ġwei4Ġ
qu3Ġ xiao1Ġ
jie2 Ġzhi4Ġ
sheng1Ġ huo2
fu2Ġ wu4
T Ġ
zhi2 ĠdeĠ
lun2Ġ dun1Ġ
ĠĠĠ xi1Ġ
dian1 Ġ
xue2Ġ zhe3Ġ
ĠĠĠ 2022
Ġ 11
shui3 Ġping2Ġ
hai3Ġ yu4Ġ
nei4Ġ rong2
Ġzhi1 Ġshi2Ġ
zhu4Ġ zuo4Ġ
Ġ 9Ġyue4Ġ
ying1Ġ ge2Ġlan2Ġ
Ġda4Ġ chen2Ġ
Ġcheng2Ġli4Ġ yu2Ġ
ĠĠĠ gai4Ġ
lv3 Ġke4Ġ
tuo4 Ġ
zhi4 Ġzai4Ġ
jie1 Ġjin4Ġ
Ġxin1Ġ wen2Ġ
chang2Ġ qi1Ġ
Ġwei2Ġ er3Ġ
ling4Ġ wai4Ġ
ĠĠĠxing2Ġzheng4Ġ qu1Ġhua4Ġ
ren4Ġ ming4
Ġjia1Ġ shang4Ġ
yuan4Ġ zhang3Ġ
bi3Ġsai4 Ġzhong1Ġ
dian3 ĠdeĠ
ji3 Ġyu3Ġ
xi1Ġ yang2Ġ
Ġyi3Ġ hou4Ġ
Ġjun1 Ġwei4Ġ
Ġ gui1Ġ
min2 ĠdeĠ
shuo4 Ġshi4Ġ
Ġde2 ĠdeĠ
wei1Ġ lian2Ġ
wei3Ġ shu1Ġji4Ġ
Ġ hui2Ġ
Ġyi4Ġ ren2Ġ
jia1 Ġhe2Ġ
tai4Ġ yang2Ġ
1992 Ġnian2Ġ
Ġ zhong1ĠdeĠ
dao3 Ġyu3Ġ
pi1Ġ zhun3Ġ
dai4 Ġyou3Ġ
heng1 Ġli4Ġ
Ġshi4Ġ yi1Ġwei4Ġ
Ġxue2Ġ xiao4
Ġwei4Ġfu2 Ġqi2Ġyu2Ġ
Ġ 7Ġyue4Ġ
guo1 Ġ
gao1Ġ su4
can1Ġ yu4
ci4Ġshi4Ġjie4Ġda4Ġ zhan4Ġ
Ġshi4Ġ qu1Ġ
fa1 Ġchu1Ġ
Ġ W
xing4 Ġzhi4Ġ
yan3Ġchang4 Ġhui4Ġ
quan4 Ġ
Ġyuan2Ġ yin1Ġ
P Ġ
ĠĠĠ yi4Ġ
tao3Ġ lun4Ġ
Ġ formulaĠ
tui4 Ġyi4Ġ
Ġ tuo1Ġ
bi3Ġ ya4Ġ
feng1Ġ bao4Ġ
Ġ meng2Ġ
ji1 Ġzhi4Ġ
xin4 Ġhao4Ġ
ya4 ĠdeĠ
neng2Ġ gou4
shou4Ġ shang1Ġ
Ġjian4 Ġcheng2Ġ
Ġ ci2Ġ
ĠĠĠ 2017
wei4Ġ zhi4Ġ
lian2Ġ xi4Ġ
Ġru2Ġ guo3
Ġ huo3Ġ
ru2 Ġhe2Ġ
bi4Ġ xu1
Ġti3Ġzhang3Ġ ke3Ġda2Ġ
Ġer3Ġ te4Ġ
bao3Ġ chi2Ġ
zhuan1 Ġjia1Ġ
fu1 Ġren2Ġ
jiang3 Ġxiang4Ġ
cha1 Ġyi4Ġ
Ġjing1Ġ guo4Ġ
Ġ xuan1Ġbu4Ġ
Ġji1Ġ gou4
Ġzai4Ġ yu2Ġ
ĠdeĠyi1Ġ zuo4Ġ
Ġtong1Ġ chang2Ġ
Ġ gai3
shou4 Ġyu3Ġ
wo1 Ġ
Ġ 2010Ġnian2Ġ
wang3 Ġlu4Ġ
jing1Ġ ying2Ġ
Ġ 12Ġyue4Ġ
Ġ min2Ġguo2Ġ
gong4Ġchan3Ġ dang3
tan1 Ġ
dong1 Ġxi1Ġ
Ġke4 Ġli3Ġ
Ġsheng1Ġ chan3Ġ
Ġbu4Ġ li3Ġ
dian4Ġ tai2Ġ
Ġ 21Ġ
Ġyi3Ġ xia4
miao3 Ġ
cun1Ġ zhuang1Ġ
Ġ 11Ġyue4Ġ
lai2 Ġdao4Ġ
sui2 Ġhou4Ġ
kao4 Ġ
Ġzhi1 Ġzhong1Ġ
Ġ zhu1
bi4Ġ ye4Ġyu2Ġ
xun4Ġ lian4
cuo4 Ġshi1Ġ
fa3 ĠdeĠ
Ġyi4Ġ shu4
zong3Ġ du1Ġ
Ġ chang2
zhu4Ġ ming2ĠdeĠ
Ġshi4Ġ you3Ġ
Ġjian4Ġ dui4Ġ
kuai4Ġ su4Ġ
zhu4 Ġyu2Ġ
she2 Ġ
1994 Ġnian2Ġ
Ġshi2Ġ ren4Ġ
Ġyi1Ġ sheng1Ġ
p Ġ
gu1 Ġji4Ġ
hai2Ġ ziĠ
Ġ rang4Ġ
Ġer3 Ġhe2Ġ
tai4Ġping2Ġ yang2Ġ
Ġjie2Ġ mu4Ġ
ĠĠĠ 2016
yan2Ġ ge2Ġ
tong2 Ġyi4Ġ
sheng1 Ġwei4Ġ
dao3 Ġshi4Ġ
lang4 Ġ
cheng2Ġ gong1Ġ
le Ġda4Ġ
Ġ fang1Ġ
fa1Ġ dian4Ġ
shang3 Ġ
Ġshang4Ġ hai3
zhan4 Ġzhong1Ġ
ĠdeĠ qian2Ġ
Ġren2Ġ lei4Ġ
si4 Ġge4Ġ
jie2Ġshu4 Ġhou4Ġ
Ġde2 Ġyi3Ġ
pu3Ġ tong1Ġ
Ġ xiang3
ĠdeĠshi2Ġ qu1Ġwei4Ġ
Ġzheng4Ġ ce4Ġ
Ġ sheng4
Ġming2Ġ cheng1Ġ
che4Ġ xiao1Ġ
yu3 Ġzhong1Ġ
Ġ yin4Ġdu4Ġ
ĠĠĠ zhi4Ġ
xi4Ġ lie4
Ġ yang2
Ġ tw
Ġ hao2Ġmi3Ġ
tou2Ġ piao4Ġ
Ġ TheĠĠĠ
di3Ġ da2Ġ
fa1 ĠdeĠ
Ġjin3Ġ guan3
er Ġ
ju2Ġ zhang3Ġ
ĠdeĠshi2Ġ jian1Ġ
x Ġ
Ġ qi1
1995 Ġnian2Ġ
zhe4Ġ xie1
geng4 Ġjia1Ġ
Ġwei4Ġ sheng1Ġ
yue4Ġ tai2Ġ
Ġping2Ġ tai2Ġ
fan3Ġ hui2Ġ
Ġ qian2
guang3 Ġxi1Ġ
zhai2 Ġ
fei3 Ġ
hans Ġ
kuo4 Ġda4Ġ
ha1 Ġer3Ġ
zu3Ġ cheng2ĠdeĠ
Ġ hansĠ
yi4 Ġzhong1Ġ
deng1 Ġlu4Ġ
rong2 Ġyu4Ġ
Ġtw Ġ
Ġ cheng1
yue4 Ġshi2Ġ
zhong4 Ġda4Ġ
lu4 Ġyi4Ġ
Ġ sa4Ġ
Ġshi4Ġ yan3Ġ
que4Ġ ding4Ġ
zhi3 Ġzai4Ġ
ye4 Ġhou4Ġ
Ġbu4Ġ ke3Ġ
Ġbing4Ġ mei2Ġyou3Ġ
Ġci3 Ġshi2Ġ
ĠĠĠdeĠ shi2Ġ
Ġ chuang4Ġ
ĠĠĠ andĠĠĠ
Ġ a1Ġer3Ġ
jin4 Ġxing2
Ġ lv4Ġ
Ġmu4Ġ qian2
ĠĠĠ 2023
wan3 Ġshang4Ġ
jiao4Ġ qu1Ġ
qi4Ġ che1Ġ
Ġ xia4
ming2Ġ cheng1Ġ
ya4Ġli4Ġ shan1
Ġ Ã
wu4Ġ zhong3
guan1Ġ zhong4Ġ
Ġxue2Ġ xi2Ġ
gai3Ġ bian1
Ġguo2Ġ wu4Ġ
Ġzhi1 Ġyuan2Ġ
yuan4 ĠdeĠ
xiao1Ġ shou4Ġ
F Ġ
Ġgong1Ġ ye4
ba1 Ġxi1Ġ
Ġhuo4Ġ zhe3Ġ
ĠĠĠ 2014
ru4Ġ kou3Ġ
xiang1Ġ tong2Ġ
ba1Ġ li2Ġ
po4Ġhuai4 Ġ
ban3 ĠdeĠ
xue2 Ġhe2Ġ
sun3 Ġshi1Ġ
biao3 Ġxian4
Ġshi2Ġ xian4Ġ
xi1Ġ la4
fa1Ġxian4Ġ leĠ
kan4 Ġdao4Ġ
pan1 Ġ
qi1Ġ zi3Ġ
guan1Ġ zhu4Ġ
Ġceng2 Ġren4Ġ
Ġ zhong3Ġ
nai3 Ġ
Ġbing4 Ġyi3Ġ
S Ġ
qiang3 Ġ
xiong1Ġ ya2
Ġ 6Ġyue4Ġ
ĠĠĠ suo3Ġshu3ĠdeĠsheng3Ġji2Ġxuan3Ġqu1Ġwei4Ġ
ĠĠĠdeĠ you2Ġzheng4Ġbian1Ġma3Ġwei4Ġ
ĠĠĠyu3Ġ jie1Ġrang3ĠdeĠshi4Ġzhen4Ġ
ĠĠĠyu2Ġ shi2ĠdeĠren2Ġkou3Ġshu4Ġliang4Ġwei4Ġren2Ġ
ĠĠĠdeĠshi2Ġ qu1Ġwei4Ġ
zhuang1 Ġzhi4Ġ
zhi2 Ġwei4Ġ
Ġ 2011
ĠĠĠ ji1Ġ
ji4 Ġhe2Ġ
Ġzuo4Ġ yong4Ġ
Ġquan2Ġ zhang3Ġ
tu2 Ġzhong1Ġ
su1Ġ lian2
can2 Ġ
kai1Ġ fang4
xu1 Ġqiu2Ġ
Ġzhi1Ġ ming2Ġ
lin2 ĠdeĠ
Ġsi1Ġ la1Ġ
shi2 Ġwei4Ġ
Ġnian2Ġ qing1
heng2Ġ xing1Ġ
Ġquan2 Ġbu4Ġ
tui1Ġ dong4Ġ
wei2 ĠdeĠ
Ġshi4Ġ zhang3Ġ
guan3Ġ li3
Ġ 2019
ru4Ġ qin1Ġ
ru2Ġ ci3Ġ
Ġ tian1
Ġ hk
Ġjia1Ġ ting2Ġ
tai2Ġ bei3Ġ
yi2Ġ dong4Ġ
yu3 Ġhe2Ġ
fu4 ĠdeĠ
Ġyi1Ġ dai4Ġ
jin4 Ġshi4Ġ
Ġchu1 Ġxian4Ġzai4Ġ
zhe4Ġ jiang1Ġ
Ġ zhuan3Ġ
ĠĠĠ 2015
mu3Ġ qin1Ġ
xiong1Ġya2 Ġli4Ġ
mu4 Ġsi1Ġ
1991 Ġnian2Ġ
Ġren2Ġ shu4Ġ
fu4Ġ qin1Ġ
Ġdan4 Ġta1Ġ
Ġxi1Ġban1Ġ ya2
min2Ġ zu2
Ġ gan1Ġ
tai2 ĠdeĠ
Ġdi4Ġ qiu2Ġ
Ġ jin3
Ġ mian4Ġ
Ġ duan4Ġ
Ġshi4Ġ zhi3Ġ
Ġ che1Ġzhan4Ġ
zui4 Ġchu1Ġ
ti2 Ġsheng1Ġ
fei1 Ġjian4Ġzhi4Ġ
ĠĠĠ 2013
y ĠĠĠ
Ġ 5Ġyue4Ġ
xun4Ġ su4Ġ
Ġhk Ġ
Ġsi1Ġ tan3Ġ
shu4Ġ xue2Ġ
22 Ġ
guang3Ġ bo1
Ġwei4Ġ he2Ġ
Ġbing4 Ġli4Ġ
Ġcheng2Ġwei2Ġ leĠ
C Ġ
niu3Ġ yue1Ġ
Ġ V
Ġ jing1
fa1 Ġxing2
Ġjin4Ġ ru4
te4 Ġli3Ġ
kang4 Ġri4Ġ
Ġhe2Ġ xin1Ġ
Ġge4Ġ zhong3Ġ
Ġji2Ġ qi2
fa1Ġ sheng1
zong3 Ġbu4Ġ
shou1 Ġlu4Ġ
gao3 Ġ
Ġshi4Ġ ren2Ġ
jiao4 ĠdeĠ
lan2 Ġke4Ġ
mang2 Ġ
cai2 Ġzheng4Ġ
r Ġ
ĠĠĠnian2 Ġ
chang4Ġ pian4Ġ
Ġzuo4Ġ pin3
ming2 Ġyi4Ġ
sa4 Ġke4Ġ
Ġji4Ġ zai3Ġ
Ġzhong1Ġ wen2Ġ
jue2Ġ sai4
jin4 Ġgong1Ġ
Ġshi4Ġ ji2Ġ
qi3 Ġyi4Ġ
can1 Ġyi4Ġ
Ġ zao4Ġcheng2Ġ
zhuang4Ġ kuang4Ġ
Ġxian4 Ġyu2Ġ
lv4 Ġwei4Ġ
l Ġ
ĠĠĠ zhong1Ġguo2Ġ
le Ġta1Ġ
15 Ġ
can1Ġ kao3Ġ
zeng1Ġ zhang3Ġ
gao1Ġ du4Ġ
chan3Ġ pin3
fei1Ġjian4Ġzhi4Ġ di4Ġqu1Ġ
Ġ huang2
dou1 Ġhui4Ġ
Ġhe2Ġ bing4Ġ
Ġji4Ġ suan4
Ġsheng1Ġ huo2
wang2 ĠdeĠ
sui1 Ġran2Ġ
diao4Ġ cha2
Ġ e2Ġluo2Ġsi1Ġ
ĠĠĠ O
zhong4Ġ dian3Ġ
Ġ dao3Ġ
zhan4Ġ dou4Ġ
chai1 Ġ
Ġda4Ġ lou2Ġ
hai3 Ġdao4Ġ
chang4Ġ pian4
Ġren2Ġ menĠ
Ġ fang2Ġ
wei1Ġ xie2Ġ
Ġ hou4
ao4 Ġdi4Ġli4Ġ
Ġhe2Ġ zhong1Ġ
shang4Ġ shu1Ġ
Ġwei2Ġ qi2Ġ
kan3 Ġ
ling3Ġdao3 Ġren2Ġ
Ġxiang1Ġ guan1Ġ
jing1Ġ shen2Ġ
jia1 Ġzhong1Ġ
Ġyin1 Ġer2Ġ
yue4 Ġzai4Ġ
liang3 Ġren2Ġ
Ġnian2Ġ shi2Ġ
Ġbu4Ġ duan4Ġ
can1Ġjia1Ġ leĠ
ying2Ġ yun4Ġ
hua4 Ġwei4Ġ
jiang1 Ġxi1Ġ
ĠdeĠcheng2Ġ yuan2Ġ
jie2 Ġke4Ġ
tu2Ġshu1Ġ guan3Ġ
Ġhe2Ġ cheng2Ġ
zhu3Ġ chi2Ġ
Ġzhong1Ġguo2Ġ gong4Ġchan3Ġdang3Ġ
ju4 ĠdeĠ
na4 Ġli3Ġ
Ġ 4Ġyue4Ġ
Ġ you3Ġshi2Ġ
zhan4Ġ dou4
Ġ hua2
jin4Ġ ru4
Ġ xiao3
mou3Ġ xie1Ġ
shen1 Ġwei4Ġ
ju1 Ġzhu4Ġ
zi4Ġ dong4Ġ
xia4Ġji4Ġ ao4Ġlin2Ġpi3Ġke4Ġyun4Ġdong4Ġhui4Ġ
yin1 Ġshi4Ġ
min2Ġ zhong4Ġ
25 Ġ
1988 Ġnian2Ġ
Ġxiang4Ġ mu4Ġ
chan3Ġ sheng1ĠdeĠ
Ġ zuo3Ġ
ĠĠĠ zhĠ
Ġzai4Ġ jia1Ġ
shuo1 Ġming2Ġ
Ġ wei3Ġ
Ġ qiao2Ġ
Ġzheng4Ġ zhuang4Ġ
yin3Ġ fa1Ġ
jiang1Ġ su1Ġ
dao1 Ġ
Ġhuo4Ġde2Ġ leĠ
Ġzhi1Ġ xia4Ġ
to ĠĠĠ
Ġshi4Ġ wei1Ġ
xiao3Ġ shuo1
Ġ xu3Ġduo1Ġ
on Ġ
ĠĠĠjia1Ġ zu2Ġ
Ġshi4Ġ zhen4
Ġgong1Ġ ren2Ġ
ding4 ĠleĠ
you1 Ġshi4Ġ
ba2 Ġ
Ġ xuan3Ġ
lan2 Ġqiu2Ġ
1993 Ġnian2Ġ
Ġda4Ġ duo1Ġ
wei4 ĠĠĠ
zhou1 ĠdeĠ
Ġ bian1
ji4 Ġshi2Ġ
xian3 ĠdeĠ
zi1Ġ xun4Ġ
ao4Ġyun4 Ġhui4Ġ
su4 ĠdeĠ
Ġda4Ġ xing2Ġ
Ġ wen2
Ġ 2018
Ġyue4Ġ nan2Ġ
Ġ du2Ġ
Ġ pei4Ġ
Ġji2Ġ li4Ġ
Ġ zhuang1Ġ
Ġzhong1Ġ hua2Ġ
ĠĠĠ J
qu3 Ġde2
Ġlai2Ġ zi4Ġ
yuan2 Ġzai4Ġ
Ġbu4Ġ men2
chuang1 Ġ
xiang1Ġ dang1Ġ
Ġdan4Ġ you2Ġyu2Ġ
fang3Ġ wen4Ġ
zhi2 Ġdao4Ġ
jiao4Ġ wei2Ġ
xiang4Ġ mu4
Ġshi4Ġwei4Ġ leĠ
jie2Ġ hun1Ġ
Ġli3Ġ lun4Ġ
pin3Ġ pai2Ġ
3 Ġnian2Ġ
Ġ xie2Ġ
sui1 Ġran2
Ġ ou1Ġ
xi2 Ġwei4Ġ
Ġdi4Ġ wu3Ġ
Ġyue4Ġ tai2Ġ
can1Ġ jia1
zhong1 Ġwei4Ġ
zhen1 Ġshi2Ġ
zhong1Ġ hua2Ġren2Ġmin2Ġgong4Ġhe2Ġguo2Ġ
you3 Ġbu4Ġ
16 Ġ
yin4 Ġdi4Ġ
mei3Ġ shu4Ġ
Ġ lao3Ġ
cui4 Ġ
ĠĠĠ 2025
ming4Ġ ling4Ġ
xue2Ġ shu4Ġ
xing1Ġ qi1Ġ
ĠdeĠgong1Ġ zuo4Ġ
zhou4 Ġ
2020Ġnian2Ġ mei3Ġguo2Ġren2Ġkou3Ġpu3Ġcha2ĠdeĠshu4Ġju4Ġ
jian4 Ġshe4Ġ
ju3 Ġxing2
Ġ shang4
fang2 Ġyu4Ġ
Ġren4Ġ wu4Ġ
wu3Ġ zhuang1Ġ
k Ġ
yi2Ġ chan3Ġ
tiao2Ġ zheng3Ġ
Ġ zheng4
Ġshi2Ġ yi1Ġ
ao4Ġ men2Ġ
Ġ tian2Ġ
Ġnian2Ġ bei4Ġ
ti2Ġ gao1Ġ
yun3Ġ xu3Ġ
Ġ ying1
Ġzhi4Ġ shi2Ġ
Ġjia1Ġ ru4
Ġzhi1Ġ hou4
bao4Ġ dao3Ġ
ĠC Ġ
fei1Ġ lv4Ġ
wa3 Ġer3Ġ
yi3Ġ lai2Ġ
le Ġta1ĠdeĠ
hui4 Ġyuan2Ġ
Ġshi2Ġ qi1
ji4Ġ lu4Ġ
Ġji1Ġ guan1Ġ
du1 Ġshi4Ġ
leĠ yi2Ġge4Ġ
Ġ jiu3
Ġ ding4Ġ
hua4 Ġjia1Ġ
ji1Ġ chang3Ġ
Ġfu4Ġ ze2
yi2Ġ min2Ġ
shu1 ĠdeĠ
13 Ġ
ju4Ġ li2Ġ
shu4Ġ zi4Ġ
Ġshi4Ġyi1Ġ zhong3
jin1 ĠdeĠ
Ġren2Ġ lei4
Ġ cheng1Ġwei2Ġ
ĠĠĠ 2024
Ġhe2Ġ shi2Ġ
hong1Ġ zha4
Ġ shi1
Ġzi4Ġji3 ĠdeĠ
jie1 Ġji2Ġ
duan4 ĠdeĠ
du1 Ġjiao4Ġ
li4 Ġshi4Ġ
ke4 Ġli3Ġ
Ġ hong2
yan2 ĠdeĠ
Ġ zhuan3
ying2 ĠdeĠ
hua1 Ġyuan2Ġ
shan1Ġ mai4
Ġ liang2Ġ
sheng1 Ġji2Ġ
yue1 Ġyou3Ġ
Ġshi4Ġ da4Ġ
yong4Ġ hu4Ġ
wen2Ġ zi4Ġ
Ġsui4 ĠdeĠ
Ġwan4Ġ mei3Ġyuan2Ġ
mian4 Ġdui4Ġ
yao1Ġ qing3Ġ
d ĠĠĠ
Ġ 2011Ġnian2Ġ
dong1 Ġji4Ġ
zi1Ġ jin1Ġ
deng3 Ġwei4Ġ
t ĠĠĠ
Ġli4Ġ shi3
wu3Ġ tai2Ġ
han2Ġ shu4Ġ
Ġ xu2
su2 Ġ
Ġshe4 Ġji2Ġ
Ġ guan1
23 Ġ
Ġzhi4Ġ li4Ġ
gao1Ġ deng3Ġ
Ġ 2016
Ġsuo3 Ġyi3
yuan2 Ġji2Ġ
Ġren2Ġ min2
shen1Ġ qing3Ġ
Ġhe2Ġ lan2Ġ
xiao4Ġ guo3Ġ
Ġ 2005Ġnian2Ġ
dong4Ġ zuo4Ġ
Ġ 3Ġyue4Ġ
Ġ han2Ġguo2Ġ
mei3Ġ guo2ĠdeĠ
Ġ ju4
Ġ 2008Ġnian2Ġ
19 Ġshi4Ġji4Ġ
4 Ġnian2Ġ
Ġming2Ġchao2Ġ zheng4Ġzhi4Ġren2Ġwu4Ġ
ĠĠĠ zao3Ġnian2Ġ
jiao4Ġ lian4Ġ
ĠĠĠ xin1Ġ
Ġxian4 Ġhe2Ġ
Ġri4Ġ jun1Ġ
xia4Ġ ling4
liang3Ġ zhong3Ġ
1990 Ġnian2Ġ
ling3Ġ tu3Ġ
Ġ xiu1Ġ
Ġyuan2Ġ ming2Ġ
nu3 Ġli4Ġ
zheng4Ġ ming2Ġ
I Ġ
Ġ zhao1
ĠĠĠ hou4Ġ
le ĠĠĠ
Ġ pei4
lu4 Ġjun1
Ġzhong1Ġ yu2Ġ
zuo4Ġ yong4Ġ
qu1Ġ yu4
jing1Ġ chang2Ġ
lie4Ġ biao3Ġ
you3 Ġzai4Ġ
Ġyi4Ġ yi4Ġ
ying3Ġ pian4
ĠĠĠ you2Ġ
Ġyuan2Ġ gong1Ġ
Ġzhou1 Ġnian2Ġ
Ġjin4 Ġxing2
Ġnan2 Ġzhi4Ġ
Ġguo2Ġ hui4Ġ
Ġgong1Ġ hui4Ġ
guan1Ġ xi4
Ġ chi4Ġ
Ġji4Ġ zhe3Ġ
ĠĠĠ W
nei4Ġ lu4Ġ
an Ġ
zhao3 Ġdao4Ġ
wang2Ġ chao2
jing1 Ġli3Ġ
lv3 Ġxing2Ġ
shen2Ġ jing1Ġ
Ġ li3
Ġshi4Ġ hou4Ġ
yong4Ġ zuo4Ġ
Ġ jue2
li3Ġ lun4Ġ
hui2Ġ ying4Ġ
Ġgong1Ġ chang3Ġ
fu4Ġ jin4Ġ
Ġ bo2
yu2 Ġzai4Ġ
Ġ hen3Ġ
tai4 Ġren2Ġ
Ġhe2Ġ gong1Ġ
ke3Ġyi3 Ġzai4Ġ
Ġ luo2
sui4 Ġdao4Ġ
bao3Ġ chi2
zhi1Ġ jian1Ġ
ti2 Ġdao4Ġ
Ġwan4 Ġyuan2Ġ
Ġcheng2Ġ xian4Ġ
chu1Ġ ban3Ġ
Ġnian2Ġ1Ġyue4Ġ 1Ġri4Ġ
c Ġ
Ġji1Ġ che1Ġ
jiu3Ġ dian4Ġ
Ġ bi3
Ġshi2Ġ er4Ġ
D Ġ
Ġ li2
ai1 Ġji2Ġ
ge2 Ġwei4Ġ
qi4Ġ xiang4Ġ
e ĠĠĠ
shou3 Ġji1Ġ
ti1 Ġ
Ġguo2Ġ fang2
kong1 Ġzhong1Ġ
Ġnian2 Ġshi4Ġjie4Ġ
Ġ zhu4
bei4 Ġshi4Ġwei4Ġ
tong1 Ġdao4Ġ
kong3 Ġbu4Ġ
gui1Ġ ze2Ġ
qi2Ġzhong1Ġ yi1Ġzhong3Ġ
zuo4 Ġwei4Ġ
shou3Ġ du1Ġ
wo3Ġ men
ĠdeĠ zhi4Ġ
Ġwo3Ġ menĠ
li4 Ġwei4Ġ
shu1 Ġji2Ġ
Ġer2 Ġcheng2Ġ
Ġ fan3
Ġ lei2Ġ
1984 Ġnian2Ġ
dong1Ġ nan2Ġbu4Ġ
yi3 Ġxia4Ġ
yan3 Ġyi4Ġ
Ġxi1Ġ wang4
Ġ liang4Ġ
ji1 Ġhe2Ġ
da4Ġ lu4ĠdeĠ
qi3Ġ ye4
meng3 Ġ
Ġzuo4Ġ wei2
2 Ġnian2Ġ
dai4 Ġli3Ġ
ĠdeĠ jia1Ġ
jin1Ġ shu3Ġ
g Ġ
jin4Ġ yi2Ġbu4Ġ
xin1Ġjia1Ġ po1
lao2 Ġdong4Ġ
zhu3Ġ chi2
jiao4Ġ xue2Ġ
biao3Ġ mian4Ġ
gu4Ġ wen4Ġ
Ġ ying1Ġyu3Ġ
ni1 Ġ
Ġhe2Ġ xi1Ġ
Ġbu4Ġ bu4Ġ
Ġ Ð
Ġ sĠĠĠ
Ġyou3Ġ ji1Ġ
cai2Ġ liao4Ġ
chao2Ġ xian1
Ġ2001Ġnian2Ġ ren2Ġkou3Ġ
Ġ ge2
dao4 Ġlu4Ġ
hua2 Ġren2Ġ
Ġzai4Ġ wei4Ġ
Ġbei3Ġ qi3Ġ
jing4 ĠdeĠ
si3 Ġhou4Ġ
bao3Ġ liu2Ġ
bo1Ġ lan2
Ġxi4Ġ lie4Ġ
Ġ tu3Ġ
tong1Ġ che1Ġ
si1 Ġli4Ġ
1989 Ġnian2Ġ
Ġzhong1Ġguo2Ġ da4Ġlu4Ġ
bai2Ġ se4Ġ
ya4Ġli4Ġshan1 Ġda4Ġ
Ġ ban1Ġ
hui4 Ġshi4Ġ
Ġyi3Ġ bei4Ġ
ju1Ġ min2
zhu3 Ġli4Ġ
Ġping2Ġ mian4Ġ
ni2 Ġke4Ġ
Ġta1 Ġwei4Ġ
M Ġ
Ġ 2021
zhu3 ĠdeĠ
Ġzhi1Ġ jian1
fen1 Ġzhong1Ġ
Ġsi1Ġ te4
Ġ cha2Ġ
nv3Ġ zi3
yin3Ġ qi3Ġ
Ġxian4ĠdeĠ yi2Ġge4Ġ
Ġ ti2Ġgong1Ġ
Ġdao4Ġ da2Ġ
fa3Ġ an4Ġ
yin3Ġ qi3
Ġnv3Ġ xing4Ġ
zhao4Ġ kai1Ġ
Ġdong1Ġ nan2Ġ
yun4 Ġzuo4Ġ
ĠĠĠ 2012
jiao1 Ġhui4Ġ
zhai4 Ġ
5 Ġnian2Ġ
shou3 Ġge4Ġ
tui4 Ġchu1Ġ
di4Ġ er4Ġ
Ġer2Ġ yan2Ġ
Ġxian4ĠdeĠ yi2Ġge4
Ġ hai3
Ġbei4Ġ ren4Ġwei2Ġshi4Ġ
Ġ ju4Ġyou3Ġ
li4 Ġzai4Ġ
Ġji1Ġ hu1
Ġke4 Ġcheng2Ġ
wen2Ġ zhang1Ġ
ji3 Ġge4Ġ
zha2 Ġ
Ġshi4Ġ jia1Ġ
Ġyou3Ġ yi4Ġ
te4Ġ shu1Ġ
Ġ qu3Ġ
Ġxi1Ġ si1Ġ
xiang1Ġ guan1
shi1Ġ fan4
Ġfu4Ġ qin1Ġ
wu2Ġ fa3
Ġ gang3Ġ
Ġ yong1Ġyou3Ġ
can1Ġ mou2
jin1 Ġhui4Ġ
jie4 ĠdeĠ
jiao4Ġ shi1Ġ
ceng2Ġ jing1
ĠĠĠ xia4Ġ
lv4Ġ shi1Ġ
fei1 Ġzhou1Ġ
Ġshi4Ġ yu3Ġ
ĠĠĠ V
xi1Ġban1Ġ ya2
da4 Ġwei4Ġ
Ġyi1Ġ ji2Ġ
Ġ feng2Ġ
chang2 ĠdeĠ
Ġbu4Ġ de2
Ġta1Ġmen Ġzai4Ġ
wei1 Ġji1Ġ
yi2Ġ zhi3Ġ
Ġyi4Ġ fang1Ġmian4Ġ
fa3Ġ yuan4
Ġer2Ġshui3Ġyu4Ġmian4Ġji1Ġwei4Ġ 0
Ġguo2Ġ jia1ĠdeĠ
zhe3 Ġzai4Ġ
Ġhe2Ġ qi2Ġta1Ġ
ya4 Ġzhou1
Ġzhu3Ġ xi2Ġ
jin1Ġ pai2Ġ
che1 ĠdeĠ
Ġzhi1 Ġwei4Ġ
Ġbing4Ġ jiang1Ġ
kang1 Ġxi1Ġ
Ġcheng2Ġ xu4Ġ
yao4Ġ wu4Ġ
Ġwei4Ġ you3Ġ
biao3Ġ da2
Ġ00 Ġ
Ġcheng2Ġ ren4Ġ
zhi2Ġ min2
guo4Ġ qu4Ġ
pu2Ġtao2Ġ ya2
ĠĠĠ cheng2Ġ
da4 Ġdi4Ġ
bian4 Ġde2Ġ
on ĠĠĠ
leng3 Ġ
Ġzhi4Ġ liao2Ġ
huan1Ġ ying2Ġ
wen2 Ġxian4Ġ
duo1 Ġnian2Ġ
Ġsi1Ġ ke4Ġ
Ġjin4Ġxing2Ġ leĠ
mu4Ġ biao1
Ġ fei4
Ġ guan1Ġyu2Ġ
zhu4 Ġli3Ġ
zhuang1 Ġshi4Ġ
dong1Ġ bei3Ġbu4Ġ
gou4Ġ zao4Ġ
huo4Ġde2Ġ leĠ
xi4Ġtong3 ĠdeĠ
bo2Ġwu4Ġ guan3
ao4Ġda4Ġli4Ġ ya4Ġ
Ġ bai3Ġ
Ġqiu2 Ġyuan2Ġ
Ġ 100
Ġ ban4Ġ
jiang1 Ġhui4Ġ
fu2 Ġyi4Ġ
ben3 Ġdi4Ġ
te ĠĠĠ
Ġer2Ġ gai1Ġdi4Ġ
xian1 Ġsheng1Ġ
Ġbu4Ġ la1Ġ
bo1Ġ lan2Ġ
Ġ qi3
Ġyu2Ġ le4Ġ
jia1Ġ ru4
fang4Ġ qi4Ġ
jian4 Ġyi4Ġ
Ġ 2015
dang1Ġ shi2ĠdeĠ
Ġqi1Ġ xi1Ġzai4Ġ
mao2 Ġze2Ġ
Ġ gao1
xiao4 ĠdeĠ
sa4 Ġsi1Ġ
yi4Ġ da4Ġli4Ġ
Ġbing4 Ġyu3Ġ
ze2 Ġwei4Ġ
Ġda4Ġ lu4Ġ
1985 Ġnian2Ġ
fu4Ġ qin1
Ġwei4Ġ lai2Ġ
Ġ 2007Ġnian2Ġ
zi4Ġ you2
R Ġ
ĠĠĠ cong2Ġ
Ġjian4Ġ zao4Ġ
Ġjin4Ġ yi2Ġbu4Ġ
Ġ ban3Ġ
liu2 Ġzai4Ġ
shou1 Ġshi4Ġ
ĠdeĠ zheng4Ġ
cheng1 Ġzuo4Ġ
nan2Ġ jing1Ġ
Ġjin4 Ġgong1Ġ
guang3Ġ gao4Ġ
sa4 Ġer3Ġ
Ġ shou1Ġ
luo2 Ġdi4Ġ
jin3 Ġji2Ġ
Ġshi4Ġ zheng4Ġ
Ġfu4Ġ qin1
Ġji4Ġ shu4
Ġhao4 Ġwei4Ġ
Ġ ce4Ġ
ji4Ġ xu4Ġ
tan3 Ġke4Ġ
1949 Ġnian2Ġ
ĠdeĠ sheng1Ġ
Ġren2Ġ men
Ġri4Ġ jun1
Ġyi4Ġ mei3Ġyuan2Ġ
ci4Ġ shi3Ġ
xi4Ġ ju4Ġ
Ġ 2013
Ġzai4Ġ ci3
Ġte4Ġbie2 Ġshi4Ġ
Ġ 30
huo3 Ġjian4Ġ
Ġjia1Ġ zu2Ġ
piao4Ġ fang2Ġ
bi3Ġli4Ġ shi2Ġ
qing3 Ġqiu2Ġ
jing3Ġ fang1Ġ
kao3Ġ lv4
Ġshi4Ġ ri4Ġben3Ġ
Ġjie2Ġ guo3
tai4Ġping2Ġ yang2
zhan1Ġ mu3Ġsi1Ġ
Ġ he4Ġ
Ġsi1Ġ tan3
Ġ 2014
Ġnian2 ĠĠĠ
Ġchu1Ġ sheng1Ġ
Ġmei3 Ġnian2Ġ
di4 Ġzai4Ġ
Ġyi3 Ġyou3Ġ
shang4Ġ wu3Ġ
tou2Ġ piao4
ba1Ġ li2
wang2Ġ chao2Ġ
ĠĠĠ jie2Ġzhi4Ġ
nei4 Ġyou3Ġ
bian1 ĠdeĠ
wan2 Ġgong1Ġ
shi2Ġ jian1Ġ
Ġzhi4Ġ cheng2Ġ
guang3Ġdong1Ġ sheng3Ġ
que4 Ġren4Ġ
pai1 Ġshe4
Ġyuan2Ġ ben3Ġ
Ġ zhao4
chang3 Ġhe2Ġ
Ġqi2 Ġzai4Ġ
Ġzhi1Ġ ziĠ
mu3Ġ qin1
shen1Ġ ti3Ġ
Ġ bing1Ġ
Ġda4Ġ yue1Ġ
Ġ sai4Ġ
fen3 Ġ
Ġzhi1 ĠdeĠ
meng2Ġ gu3
Ġ lv3Ġ
gu3Ġ fen4
Ġzhan4Ġ dou4Ġ
xi2Ġ xing4
Ġ jing1Ġji4Ġ
geng4 Ġduo1Ġ
hu2Ġ bei3Ġ
Ġyue1Ġ han4Ġ
deng1 Ġshang4Ġ
Ã© Ġ
Ġxian4Ġ chang3Ġ
Ġ deng4
ĠĠĠ zeng1Ġ
suo3 Ġzai4Ġ
qing2Ġ bao4Ġ
Ġying1Ġ wen2Ġ
wai4 Ġbu4Ġ
zhong4 Ġyi4Ġ
min2Ġ jian1Ġ
mi4Ġ mi4Ġ
xiao4 Ġyuan2Ġ
Ġshi4Ġ ye4Ġ
Ġzai4Ġ qi2Ġ
guan1Ġ bi4Ġ
guang3Ġ fan4
kao3Ġ lv4Ġ
e2Ġluo2Ġ si1
Ġ xiang3Ġ
te4Ġ se4Ġ
Ġ heng2Ġ
Ġyou3Ġ xian4Ġ
sen1Ġ lin2Ġ
ma3 Ġsi1Ġ
Ġ yan2
Ġ 2020
Ġ sai4Ġji4Ġ
wu4 Ġyuan2Ġ
cun4 Ġ
Ġ xun2Ġ
an1Ġ pai2Ġ
Ġwo3Ġ men
Ġ can1Ġjia1Ġ
chi1 Ġ
Ġquan2 Ġqiu2Ġ
Ġ ai1Ġ
xia4 Ġyi1Ġ
mei3 Ġge4Ġ
Ġda4Ġ duo1Ġshu4Ġ
cheng2 Ġnian2Ġ
er4 Ġyue4Ġ
Ġbu4Ġ jiu3
yan3Ġ chang4Ġ
liang3 Ġnian2Ġ
zhuang1 Ġbei4Ġ
zeng4 Ġ
Ġda4Ġ dao4Ġ
Ġ wo4
Ġzui4Ġ gao1Ġ
neng2 Ġzai4Ġ
Ġji1Ġ bai4
tu3Ġer3 Ġqi2Ġ
qian1 Ġzhi4Ġ
huan3 Ġ
1986 Ġnian2Ġ
Ġdi4Ġyi1Ġ ci4Ġ
Ġ 10Ġ
chang3 Ġdi4Ġ
min2Ġzhu3Ġ dang3Ġ
tian1 ĠdeĠ
Ġ zhong1Ġshi4Ġ
Ġshi2Ġ yan4Ġ
zuo4Ġ zhan4Ġ
Ġ gang1Ġ
nan2 Ġyi3Ġ
14 Ġ
Ġji2Ġ bei3Ġ
Ġchu1Ġ lai2Ġ
tai2Ġ feng1Ġ
b Ġ
xing4Ġ qu4Ġ
tian1Ġ jin1Ġ
Ġtong1Ġ chang2
Ġ ka3
Ġ 2017
ban4 Ġli3Ġ
18 Ġ
Ġzhi1 Ġdao4Ġ
tian1Ġ jin1
long2Ġ jiang1Ġ
ling3 Ġshi4Ġ
Ġbu4Ġ zu2Ġ
yong4Ġ tu2Ġ
li3 Ġgong1Ġ
Ġ kang1Ġ
Ġyuan2Ġ su4Ġ
wei1 Ġer3Ġ
nong2Ġ ye4
Ġqing1Ġ chao2Ġ
ai1 Ġer3Ġ
Ġcheng2Ġ du4Ġ
zhan4Ġ ling3Ġ
chang2 Ġjian4ĠdeĠ
jin4Ġxing2Ġ leĠ
Ġshi3 Ġjian4Ġyu2Ġ
ĠĠĠ xian4
ĠĠĠ ming2Ġ
dao3 Ġdan4Ġ
xiu1 Ġzheng4Ġ
Ġyue4Ġ tuan2Ġ
gui4 Ġzhou1Ġ
fen1 Ġbu4Ġyu2Ġ
ma Ġ
Ġ xuan1Ġ
xi3 Ġju4Ġ
Ġgong1Ġ zhu3Ġ
Ġta1Ġ hai2Ġ
Ġzhan4Ġ dou4
ma3Ġlai2 Ġxi1Ġya4Ġ
xi2Ġxing4 Ġbu4Ġming2Ġ
Ġshi2Ġ dai4
zhang4Ġ ai4Ġ
Ġwen2Ġ hua4Ġ
o Ġ
Ġchu1Ġ qi1Ġ
xiang4 Ġshi4Ġ
hua2Ġ sheng4Ġ
sheng1 Ġcheng2Ġ
te Ġ
Ġyou3Ġ xie1Ġ
Ġsheng1Ġ chan3
ren4Ġming4 Ġwei4Ġ
Ġyi4Ġ qi3
Ġ tao2Ġ
fa3Ġ guan1Ġ
Ġye3Ġ jiu4Ġshi4Ġ
ĠĠĠ ta1Ġ
ĠdeĠ fang1Ġshi4Ġ
Ġhe2Ġ he2Ġ
jiao1Ġ liu2Ġ
zu3 Ġjian4Ġ
Ġsheng1Ġhuo2Ġ xi2Ġxing4Ġbu4Ġming2Ġ
Ġ chu3Ġyu2Ġ
she4 Ġzhi4Ġ
shou4 Ġdao4
ti2 Ġchu1
Ġwan4 Ġli4Ġ
ji1Ġ chu3Ġ
Ġta1Ġ ye3Ġ
Ġ gong4
Ġ rong2Ġ
Ġ luo4
hen3 Ġda4Ġ
ku3 Ġ
Ġ gong4Ġyou3Ġ
Ġ gen1Ġju4
zhi4 Ġzhong1Ġ
bao4Ġ fa1
Ġ yin2Ġ
zhu3 Ġshi4Ġ
ĠĠĠ mei3Ġguo2Ġ
ling3Ġ xiu4Ġ
Ġ han4
ju4Ġ jue2Ġ
la1Ġ ding1
Ġer2Ġ bu2Ġshi4Ġ
chuan2Ġ shuo1Ġ
hua4Ġhe2Ġ wu4Ġ
Ġ rui4Ġ
ren4 Ġshi2Ġ
Ġ kong3Ġ
bao4 Ġli4Ġ
an1Ġ zhuang1
an1Ġ na4Ġ
Ġyi1Ġ xue2Ġ
wo3Ġ menĠ
ĠĠĠ li3Ġ
Ġ pa4
zhi4 Ġbu4Ġ
jia1Ġli4Ġ fu2Ġ
shu2 Ġ
Ġyou3Ġ yi2Ġge4Ġ
Ġxian4Ġ xiang4Ġ
shang4Ġ ying4Ġ
fa3 Ġyu3Ġ
wen2 Ġyi4Ġ
qiong2 Ġ
Ġzai4Ġ nei4ĠdeĠ
Ġ dian4Ġying3Ġ
gao1Ġ su4Ġ
chuang4Ġ ban4
1987 Ġnian2Ġ
Ġzai4Ġ du4Ġ
Ġer2 Ġbu4Ġ
ji4 Ġshi4Ġ
yuan4 Ġshi4Ġ
Ġwei4Ġ xing1Ġ
Ġli3Ġ lun4
yan2Ġ shen1
hai3Ġ an4Ġ
chuang4 Ġjian4Ġ
bin1 Ġhai3Ġ
shun4 Ġli4Ġ
Ġdong1Ġ bei3Ġ
ĠA Ġ
ĠĠĠci3Ġ wai4Ġ
Ġ 2013Ġnian2Ġ
lei2 Ġsi1Ġ
ruan3 Ġjian4Ġ
Ġsheng1Ġ zhang3
Ġyou2 Ġqi2Ġshi4Ġ
tui1 Ġjin4Ġ
Ġhe2Ġ bu4Ġ
shu1Ġ ru4Ġ
zi1Ġ chan3Ġ
lun4Ġ wen2Ġ
Ġ shu3
Ġxing2Ġ zheng4
nv3Ġ xing4
wang3 Ġqiu2Ġ
hai3Ġ wai4Ġ
Ġ na4
Ġ wa3Ġ
Ġbu4Ġ luo4Ġ
Ġda4Ġ sha4
1980 Ġnian2Ġ
zhu3Ġ yi4ĠdeĠ
ping2Ġ lun4Ġ
zui4Ġ gao1
Ġ 2010
Ġ ta3Ġ
ying4Ġ yong4
cai3Ġ qu3Ġ
Ġ 50
Ġ 2012
jiao4 Ġshi4Ġ
zu1 Ġ
pai2Ġming2 Ġdi4Ġ
Ġ sai1Ġ
Ġ 2006Ġnian2Ġ
bian4 Ġwei4Ġ
Ġbei3Ġ jing1Ġ
ĠĠĠ qi2Ġ
yu2 ĠdeĠ
bo1Ġ fang4Ġ
Ġ tiao2Ġ
ju4 Ġhe2Ġ
san1 Ġshi4Ġ
Ġzai4Ġ xi1Ġ
ren2Ġ da4Ġ
Ġde2 Ġer3Ġ
Ġhou4Ġ xuan3Ġren2Ġ
bao4Ġ gao4
tou2Ġ zi1
ma3 Ġli3Ġ
ze2 Ġren4Ġ
rao3 Ġ
fang1Ġ mian4ĠdeĠ
yin3Ġ qing2Ġ
ge4Ġ zhong3Ġ
ĠĠĠ N
Ġshi4Ġ min2Ġ
Ġhe2Ġ da4Ġ
dian4Ġ zi
ling3 Ġdi4Ġ
Ġzai4Ġ ci4
fan4Ġwei2Ġ nei4Ġ
ĠĠĠ qian2Ġ
ĠĠĠju4Ġ qing2Ġ
Ġ ying2Ġ
xiang1 Ġshi4Ġdi4Ġ
zhe4 Ġli3Ġ
Ġyu2Ġ ren2Ġ
zheng4Ġ dang3Ġ
shi4 ĠĠĠ
Ġri4Ġ bao4Ġ
Ġling4 Ġyi1Ġ
xing2 Ġcheng2Ġ
fa1 Ġxing2ĠdeĠ
Ġji1Ġ hu1Ġ
zhi2Ġ jie1
7 Ġnian2Ġ
Ġ lai2
feng1 Ġwei4Ġ
pai4 ĠdeĠ
1982 Ġnian2Ġ
Ġshi4Ġ gu4Ġ
Ġzhi4Ġ shao3Ġ
biao3Ġ da2Ġ
wang3Ġ luo4
Ġ yong4Ġyu2Ġ
yuan4 Ġyi4Ġ
Ġta1 Ġhe2Ġ
ju4Ġ le4Ġbu4Ġ
ĠĠĠ chu1Ġ
du2Ġ li4ĠdeĠ
6 Ġnian2Ġ
e2 Ġguo2Ġ
Ġzhi1Ġ fu4Ġ
jiu3Ġ long2Ġ
dang1Ġ xuan3Ġ
ĠĠĠ xian4Ġ
he4 Ġer3Ġ
zi4Ġ ran2
Ġyou3Ġ xiao4Ġ
bu2 Ġ
wen1 Ġdu4Ġ
xi4Ġ bao1
3 Ġren2Ġ
1945 Ġnian2Ġ
1983 Ġnian2Ġ
ji4Ġ cheng2Ġ
dian4Ġ nao3
yun3Ġ xu3
Ġyi1Ġ xiao3Ġshi2Ġ
jing3Ġ cha2
huo3Ġ shan1Ġ
Ġda4Ġ xi1Ġyang2Ġ
guo4Ġ qu4
pai2Ġ hang2Ġ
E Ġ
an1 Ġde2Ġ
jiu4Ġ du2
Ġdong1Ġ lin2Ġ
en Ġ
mian2 Ġ
zhi1Ġ chi2
fang3Ġ wen4
ming2Ġ zi4Ġ
Ġzuo4Ġ jia1Ġ
dang3 Ġyuan2Ġ
Ġda4Ġ fu2Ġ
qu1 Ġyi4Ġhui4Ġ
17 Ġ
Ġde2Ġ hua2Ġ
2 Ġren2Ġ
Ġ shuo1Ġ
Ġ 2012Ġnian2Ġ
huan4 Ġcheng2Ġ
biao3Ġ yan3
dou1 Ġzai4Ġ
Ġdi4Ġ yi2Ġge4Ġ
xian4 Ġzhi4Ġ
Ġyu3Ġ mao2
Ġchu1Ġ zhan4Ġ
bi3Ġ ya4
ĠĠĠdi4Ġ fang1Ġ
Ġ fan1Ġ
xiang1Ġ dang1
fang1Ġ yan2Ġ
xi3Ġ huan1
Ġbing4 Ġbei4Ġ
qu1 Ġhe2Ġ
Ġyi1Ġ tong2Ġ
Ġzhong1Ġhua2Ġren2Ġmin2Ġgong4Ġhe2Ġguo2Ġ zheng4Ġzhi4Ġren2Ġwu4Ġ
ng ĠĠĠ
Ġshi4Ġ yu2Ġ
jing1Ġ yan4Ġ
xun2Ġ yang2
K Ġ
m ĠĠĠ
Ġ jiu4Ġshi4Ġ
Ġji4Ġ suan4Ġ
pu3Ġ bian4Ġ
Ġ sheng1Ġyu2Ġ
Ġzhong1Ġ bei4Ġ
guan1Ġ dian3Ġ
jiang4Ġ di1Ġ
ke1ĠdeĠ qi2Ġzhong1Ġyi1Ġzhong3Ġ
Ġgong1Ġ yi4Ġ
Ġ reng2
han2 Ġyou3Ġ
ĠĠĠ 2
liang3 Ġming2Ġ
dian3 Ġli3Ġ
Ġshi4Ġ gong1Ġ
zhong4Ġ duo1Ġ
da4 Ġzhi4Ġ
Ġbing4Ġ du2
Ġqi2Ġzhong1Ġ yi1Ġ
Ġ neng2Ġ
ya4 Ġjun1Ġ
she4Ġ qu1Ġ
kou3 Ġwei4Ġ
cheng2Ġ yuan2Ġ
Ġxian4 Ġshi4Ġ
zhi1Ġ qian2Ġ
mi4Ġshu1Ġ zhang3Ġ
Ġdi4Ġ si4
zuo4 Ġshi4Ġ
tiao2 Ġli4Ġ
nei4Ġ ge2Ġ
Ġ ping2Ġjun1Ġ
ĠĠĠ 2011
shu4 Ġyu3Ġ
wu2 Ġzheng4Ġzhuang4Ġ
Ġxian4Ġ ren4Ġ
tu1Ġ po4Ġ
xie3 Ġdao4Ġ
dang4 Ġtian1Ġ
yi2Ġ du4Ġ
Ġzu3 Ġfu4Ġ
1 Ġli4Ġ
Ġ liu4
Ġxing2 Ġwei4Ġ
Ġ wan2Ġ
in Ġ
Ġgong1Ġ min2Ġ
xing1Ġ deng3Ġwei4Ġ
Ġbi3Ġ sai4Ġ
Ġtong2 Ġyi4Ġ
hong2Ġ se4Ġ
shan1 Ġshi4Ġ
kai1Ġshi3 Ġzai4Ġ
tuan2 ĠdeĠ
gei3 ĠleĠ
she3 Ġ
Ġji1Ġ jin1Ġ
si3Ġ wang2
zheng3Ġ ti3Ġ
Ġ 500
ĠĠĠ ji2Ġ
lu3 Ġsi1Ġ
jue2 Ġdui4Ġ
Ġquan2 Ġli4Ġ
Ġzui4 Ġchu1Ġ
dai4Ġbiao3 Ġda4Ġhui4Ġ
Ġ 7Ġ
chi2 Ġyou3Ġ
es Ġ
ying1Ġ wen2Ġ
zheng4 Ġbu4Ġ
gai4Ġ nian4
Ġ xin4Ġ
Ġgong1Ġ ju4Ġ
she4Ġ shi1Ġ
Ġ sun1
Ġ da2
ĠĠĠ 2010
ben3 Ġren2Ġ
yang2 Ġshi4Ġ
Ġshi4Ġ bing1Ġ
Ġzhe4Ġ zhong3
xia4Ġxia2 ĠdeĠyi2Ġge4Ġ
Ġsui4 Ġshi2Ġ
ĠĠĠ a1Ġ
Ġ0 Ġ
ni2 Ġer3Ġ
ĠdeĠcheng2Ġ ji4Ġ
Ġ 30Ġ
Ġji2Ġ ren2Ġ
yi2Ġ ding4Ġ
jie4Ġ shao4Ġ
lai2 Ġyue4Ġ
bao3Ġ shou3Ġ
tou2Ġ xiang2Ġ
gui4Ġ zu2Ġ
yue4 Ġzhong1Ġ
zhi2Ġ dao3Ġ
zhen4Ġ qu1ĠdeĠ
zao3Ġ qi1
bo2Ġshi4Ġ xue2Ġwei4Ġ
shan1 Ġji1Ġ
huang2 Ġhou4Ġ
gua4 Ġ
qi3Ġ dong4Ġ
Ġmei3 Ġge4Ġ
Ġ U
ĠĠĠ qi2Ġta1Ġ
tang1 Ġ
Ġwei2Ġ er3
yao1Ġ qing3
yi4 Ġnian2Ġ
gu3 Ġdai4Ġ
kui4 Ġ
Ġming2Ġ dan1Ġ
zhen3 Ġ
Ġde2 Ġyu3Ġ
zhong3Ġ zu2Ġ
Ġyi1Ġ zuo4Ġ
Ġyi3Ġ ji2
Ġer2Ġ gai1Ġ
hei1Ġ se4Ġ
ĠĠĠ 1Ġ
ming2 Ġren2Ġ
Ġren2Ġmin2Ġ zheng4Ġfu3Ġ
en1Ġ sheng3Ġ
tou4Ġ guo4
1 Ġren2Ġ
Ġxiang3 Ġnian2Ġ
wu2Ġzheng4Ġzhuang4Ġ gan3Ġran3Ġ
sui2 Ġzhu4Ġ
sa1 Ġ
Ġ 20
huo2 Ġyue4Ġ
mu4Ġ qian2
chang2Ġ wu4Ġ
chang2Ġ wei3Ġ
que4Ġzhen3 Ġbing4Ġli4Ġ
Ġ er4Ġshi2Ġ
ming2 Ġzhi4Ġ
Ġri4 Ġyu2Ġ
gai3Ġ ming2Ġwei4Ġ
chu1Ġ shen1Ġ
tong2 Ġnian2Ġ
dian4Ġ hua4Ġ
G Ġ
Ġ 2022
ĠĠĠ 2Ġ
Ġbu4Ġ si1Ġ
Ġji1Ġ si1Ġ
tai4Ġ ziĠ
duo1 Ġren2Ġ
Ġbi3Ġ ru2Ġ
ĠĠĠ gai1
ke4 Ġcheng2Ġ
kun4 Ġnan2Ġ
Ġbu4Ġ li4Ġ
zui4Ġ duo1Ġ
dan1 ĠdeĠ
long2 ĠdeĠ
tun2 Ġ
ti2 Ġji2Ġ
geng4 Ġwei2Ġ
ru4Ġ xuan3Ġ
Ġwei4Ġyu2Ġ zhong1Ġguo2Ġ
yi3Ġ jing1Ġ
que1Ġ fa2
sai1Ġer3Ġ wei2Ġ
Ġ yong4
hui4 Ġzhong1Ġ
shou1 Ġji2Ġ
Ġli4Ġ fa3
xue2Ġ hui4Ġ
Ġbing4Ġ fei1Ġ
hai3Ġ xia2Ġ
gou4 ĠdeĠ
gong1Ġ cheng2Ġ
Ġxi1Ġ jie1Ġ
ge1Ġ lun2Ġ
ng Ġ
Ġji1Ġ chang3
ju4 Ġda4Ġ
pai1 Ġ
Ġcheng2Ġ ren2Ġ
fu4Ġ ze2
an1Ġ na4
zu2Ġqiu2Ġ yun4Ġdong4Ġyuan2Ġ
xie3 ĠdeĠ
zhui1Ġ su4
Ġ yao1Ġqiu2Ġ
Ġ 2014Ġnian2Ġ
Ġtong2Ġshi2Ġ gai1Ġdi4Ġ
Ġ xi2Ġ
zuo4Ġ chu1Ġ
bei1 Ġsi1Ġ
Ġye3 Ġzai4Ġ
sheng3 ĠdeĠ
ling4 Ġren2Ġ
n ĠĠĠ
hui4 Ġzhi4Ġ
Ġde2Ġ zhu3Ġ
tao3Ġ lun4
gao1Ġsu4 Ġgong1Ġlu4Ġ
Ġ yue1
Ġji2Ġ di4Ġ
fan4Ġ zui4Ġ
nei4Ġlu4Ġ sheng3Ġfen4Ġ
an1Ġ hui1Ġ
ke1Ġxue2Ġ jia1Ġ
tu2 Ġxing2Ġ
pi1Ġ zhun3
Ġbing4Ġ du2Ġ
jiang1 Ġzai4Ġ
di1 Ġyu2Ġ
Ġ po4Ġ
zhu2 Ġbu4Ġ
ĠdeĠdi4Ġ er4Ġ
shou4 ĠdeĠ
shan1 ĠdeĠ
Ġshi4Ġ yin1Ġwei4Ġ
Ġke4 Ġxi1Ġ
lian2Ġhe2Ġ hui4Ġ
ci4 ĠdeĠ
chao1 Ġyue4Ġ
jie2Ġ guo3
tai2Ġ nan2
jian3Ġ shao3
qiang2Ġ lie4Ġ
3 Ġge4Ġ
Ġ cha2
xia4Ġling4 Ġshi2Ġjian1Ġ
hai3 Ġping2Ġmian4Ġ
bu2 Ġdao4Ġ
Ġshi2Ġ qi1ĠdeĠ
Ġyuan2Ġ xing2Ġ
Ġ wan2Ġjia1Ġ
ye3 Ġzai4Ġ
Ġji1Ġ hui4Ġ
Ġxue2Ġ yuan4
yi2Ġ ding4
hui1Ġ fu4
guo4 ĠdeĠ
ya4Ġ mei3Ġ
1972 Ġnian2Ġ
Ġguo2Ġ nei4Ġ
bian1Ġ jie4Ġ
dong3Ġshi4Ġ zhang3Ġ
jia4Ġ ge2Ġ
Ġjiao4Ġ yu4Ġ
pai4Ġ qian3
ti2 Ġyi4Ġ
shu1 Ġzhong1Ġ
xun1 Ġzhang1Ġ
zhu3Ġ jiao4
shi1Ġ bai4Ġ
Ġhao4 ĠdeĠ
zhu3Ġyao4 ĠdeĠ
ni2Ġya4 Ġzhou1Ġ
Ġ s
Ġhou4Ġ bei4Ġ
Ġxue2Ġ jia1Ġ
liu2Ġ xia4Ġ
shuang1Ġ fang1Ġ
ĠĠĠbei4Ġ jing3Ġ
er2 Ġtong2Ġ
Ġyi1Ġ li4Ġ
guan1Ġ cha2Ġ
fang1Ġ fa3
jia1 Ġyi4Ġ
1978 Ġnian2Ġ
Ġbu4Ġ dui4
Ġyi3Ġ wei2Ġ
ĠĠĠ 3
Ġzai4Ġ shi2Ġ
ti2Ġgong1Ġ leĠ
lian2Ġ xu4
xian4 ĠdeĠ
qin1 Ġzi4Ġ
Ġer2Ġ ziĠ
bei3Ġjing1 Ġshi4Ġ
Ġ 1950
Ġ dian4Ġshi4Ġ
1979 Ġnian2Ġ
Ġyou3Ġ suo3Ġ
zui4Ġ gao1ĠdeĠ
hui4Ġyi4Ġ yuan2Ġ
Ġ mei2
san1Ġ jiao3
ban3Ġ ben3
ĠĠĠdi4Ġfang1Ġ zi1Ġliao4Ġ
ren4 Ġwei4Ġ
ma3 Ġer3Ġ
lan2 ĠdeĠ
na2 Ġxia4Ġ
ping2Ġ tai2Ġ
fei1Ġ chang2
ĠĠĠ jian3Ġjie4Ġ
le Ġzai4Ġ
duo1 Ġwei4Ġ
zu3 Ġfu4Ġ
Ġhe2Ġ yue1Ġ
Ġli4Ġ liang4Ġ
Ġchu1Ġ kou3Ġ
shen2Ġ meĠ
Ġta1Ġceng2 Ġdai4Ġbiao3Ġ
bei4 ĠdeĠ
pi3 Ġ
Ġdi4Ġ li3Ġ
nan2Ġ bei3Ġ
neng2 Ġyuan2Ġ
bian3 Ġ
Ġdi4Ġ qi1Ġ
Ġxian4Ġ fa3Ġ
gai3Ġ bian4
Ġhou4Ġ zhe3Ġ
que1Ġ fa2Ġ
tai2 Ġzhong1Ġ
di2 Ġshi4Ġ
Ġzheng4Ġ ming2Ġ
Ġshi2Ġji4Ġ shang4Ġ
liao3 Ġ
Ġcheng2Ġ zhen4Ġ
4 Ġren2Ġ
Ġ su4Ġ
Ġ 2015Ġnian2Ġ
ĠĠĠ 1
zi4 ĠdeĠ
xuan3 Ġzhong1Ġ
di2 Ġren2Ġ
Ġli4Ġ yi4Ġ
Ġ shou3
li3 Ġhe2Ġ
Ġ jia3
pai4 Ġchu1Ġ
Ġmei3 Ġyuan2Ġ
Ġzhong1Ġguo2Ġren2Ġmin2Ġ jie3Ġfang4Ġjun1Ġ
duo1Ġ zhong3Ġ
tan2Ġ pan4Ġ
liao2Ġ ning2Ġ
1976 Ġnian2Ġ
Ġbu4Ġ shao3Ġ
Ġsi1Ġ ta3Ġ
1 Ġnian2Ġ
Ġ lu3Ġ
ti2 Ġchu1ĠdeĠ
sui2 Ġji2Ġ
wan2Ġ zheng3
ying1Ġ gai1Ġ
tui4Ġ xiu1Ġ
Ġda4Ġxue2 ĠdeĠ
hai3Ġba2 Ġwei4Ġ
ping2 Ġwei4Ġ
gan4 Ġbu4Ġ
lei3 Ġji4Ġ
Ġshi2Ġ xing2Ġ
ying1Ġ ge2Ġlan2
mian3Ġ dian1
dang1 Ġzhong1Ġ
jue2 Ġyi4Ġ
xu4 Ġli4Ġya4Ġ
shang1 Ġren2Ġ
biao1 Ġben3Ġ
fa1Ġ sheng1Ġzai4Ġ
suo3Ġ cai3Ġyong4
zhi3Ġ dao3Ġ
Ġju4Ġ jue2Ġ
hua4 Ġzhong1Ġ
zan4 Ġshi2Ġ
zhuang1Ġ jia3Ġ
mei3 Ġzhou1
tiao4 Ġ
Ġfu4Ġ jin4
Ġzhong1Ġgong4 Ġzhong1Ġyang1Ġ
ci4 Ġyu2Ġ
Ġyi4Ġ qing2Ġ
nong2Ġ min2Ġ
zi1Ġ liao4
yi2 Ġdai4Ġ
Ġde2 Ġming2Ġ
ĠĠĠ yin1Ġ
shui3 Ġli4Ġ
rong2 Ġhe2Ġ
Ġzhong1Ġ guo2ĠdeĠ
xiu1Ġ gai3Ġ
fa1 Ġming2Ġ
1958 Ġnian2Ġ
Ġqi2 Ġwei4Ġ
zhi3Ġ neng2Ġ
Ġming2 Ġzhi4Ġ
Ġgong1Ġ zhong4Ġ
Ġ chu2
zhuan3 Ġxiang4Ġ
zhu3Ġ yan3Ġ
zi1Ġ ben3Ġ
a1Ġla1Ġ bo2
Ġ ba3
xiang1Ġ si4Ġ
guan1Ġ cha2
jie1Ġ chu4Ġ
Ġbei3Ġ jing1
kai1 Ġshe4Ġ
xiu1 Ġjian4Ġ
zhong3Ġ ziĠ
jing4 Ġji4Ġ
jie3Ġ san4Ġ
ĠdeĠshi4Ġ jie4Ġ
8 Ġnian2Ġ
Ġ 2016Ġnian2Ġ
wu3Ġ zhuang1
Ġ cn
dian4 Ġji1Ġ
chai1 Ġchu2Ġ
kai1Ġ tong1Ġ
bao4Ġ zha4Ġ
ju3Ġban4 ĠdeĠ
fa1Ġ qi3Ġ
shen1Ġ du4Ġ
an1Ġ pai2
Ġ tang2
qu1 Ġshi4Ġ
nu3 Ġ
wei2Ġ si1Ġ
tuan2Ġ ti3
ji1Ġ gou4Ġ
fu4Ġ zhu3Ġren4Ġ
fa1Ġ shou4Ġ
zu3Ġzhi1 ĠdeĠ
ĠĠĠ qi2
Ġnian2Ġ lai2Ġ
feng1Ġ xian3Ġ
diao4Ġ kuai4
cheng2 Ġhe2Ġ
Ġwei4Ġ da4Ġ
Ġyu3Ġ qi2Ġta1Ġ
ĠĠĠ I
ĠĠĠ dui4Ġ
bian1 Ġju4Ġ
zhang1Ġ zhuan1Ġji2Ġ
Ġ Z
jie2 ĠdeĠ
zao4 ĠleĠ
Ġwei4Ġ UTCĠ
Ġbu4Ġ ji2Ġ
Ġzhong1Ġ shan1Ġ
neng2Ġ liang4Ġ
shuai4Ġ ling3
Ġcn Ġ
Ġ ge1
ban4Ġshi4Ġ chu4Ġ
qiu2 Ġji4Ġ
tiao2Ġ zheng3
Ġxi1Ġban1Ġ ya2Ġ
L Ġ
luo2 Ġli3Ġ
2025 Ġnian2Ġ
ge2Ġ la1Ġ
jiu4Ġ du2Ġ
diao4Ġkuai4 Ġyi1Ġxiao3Ġshi2Ġ
9 Ġnian2Ġ
ze2 Ġzai4Ġ
ĠdeĠ ying3Ġxiang3Ġ
ying1Ġ xiong2Ġ
shang1Ġ ye4
qiang2Ġ diao4Ġ
Ġji2Ġ UTCĠ
ke1Ġxue2Ġ yuan4Ġ
she4Ġyou3Ġ xia4Ġling4Ġshi2Ġjian1Ġ
ĠdeĠshi2Ġqu1Ġwei4Ġ UTCĠ
Ġer2Ġgai1Ġdi4Ġ suo3Ġcai3Ġyong4
Ġtong2Ġshi2Ġgai1Ġdi4Ġ she4Ġyou3Ġxia4Ġling4Ġshi2Ġjian1Ġ
Ġer2Ġgai1Ġdi4Ġsuo3Ġcai3Ġyong4 ĠdeĠshi2Ġqu1Ġwei4ĠUTCĠ
Ġ bai4Ġ
xiao1Ġ fei4Ġ
Ġtong2Ġ yang4
xin4Ġ yang3Ġ
ta1Ġmen ĠdeĠ
you2 Ġji1Ġ
40 Ġ
Ġda4Ġ jiang3Ġ
jiao4Ġ tang2
bao3Ġ liu2
Ġling4 Ġyou3Ġ
Ġyi1Ġsi1Ġ lan2Ġ
yuan2Ġ zhu4Ġ
tai4Ġ du4Ġ
chuan2Ġ bo1Ġ
Ġgai1Ġ cun1Ġ
suo3 Ġzai4Ġdi4Ġ
que4 ĠdeĠ
zhi1Ġ jian1ĠdeĠ
ĠĠĠ jiao1Ġtong1Ġ
fa1 Ġshe4
Ġshi2Ġ wu4Ġ
ding4Ġ ju1Ġ
Ġma3Ġ lai2
Ġli4Ġshi3Ġ shang4Ġ
gao1Ġyu2Ġ hai3Ġping2Ġmian4Ġ
Ġ zheng1Ġ
pei4 Ġzhi4Ġ
Ġwei4Ġfu2Ġqi2Ġyu2Ġ gang1Ġ
Ġ huan4Ġ
xing4 Ġwei4Ġ
zhu2 Ġjian4
kun4 Ġ
Ġbu4Ġ neng2
Ġgong1Ġ jue2Ġ
Ġer3Ġ duo1Ġ
Ġqi2Ġ xia4Ġ
Ġ Î
ĠĠĠ qing1Ġ
wu4 Ġhe2Ġ
hu4 Ġxiang1Ġ
Ġ dan1
hui4 Ġyu2Ġ
chu4ĠdeĠ hai3Ġba2Ġwei4Ġ
chu4ĠdeĠhai3Ġba2Ġwei4Ġ gao1Ġyu2Ġhai3Ġping2Ġmian4Ġ
hou4 Ġwei4Ġ
Ġyin1Ġ su4Ġ
ti3 Ġzhi4Ġ
al Ġ
jing4Ġ xuan3Ġ
wu4 Ġshi4Ġ
qia4 Ġ
Ġyu2Ġ le4
chang3Ġ suo3Ġ
Ġzhi1 Ġyi4Ġ
Ġhe2Ġ pan4Ġ
Ġbu4Ġ jin3Ġ
Ġyi3Ġ xi1Ġ
Ġ ni3Ġ
fa1 Ġxian4ĠdeĠ
zhong4 Ġshi4Ġ
kuang2 Ġ
Ġqi2 Ġshi2Ġ
Ġsui2 Ġzhu4Ġ
ĠĠĠ ma3Ġ
nan2Ġ jing1
zhang3Ġ da2Ġ
yun4Ġ shu1
Ġ 2008
Ġ lian2Ġhe2Ġ
Ġ 2017Ġnian2Ġ
he2 ĠĠĠ
shu4 Ġshi2Ġ
nei4 Ġdi4Ġ
Ġ xu1Ġ
shi2Ġ qu1Ġ
gao1Ġ xiong2
jian4 Ġcheng2Ġ
geng1 Ġxin1Ġ
is ĠĠĠ
chan2 Ġ
Ġyi1Ġ jia1Ġ
Ġxi1Ġ lan2Ġ
yun4Ġ yong4Ġ
Ġzi4Ġ ran2Ġ
chong2Ġ qing4
Ġ dai4
Ġ hu2
Ġ zheng4Ġzhi4Ġ
Ġ xie4Ġ
lu4 Ġzhi4Ġ
bi4Ġ ye4Ġhou4Ġ
ĠĠĠ ran2
er4 Ġji2Ġ
bian1 Ġhao4Ġ
Ġli4Ġ ren4Ġ
shan1Ġ feng1Ġ
Ġwei4Ġyu2Ġ gai1Ġ
wei2Ġ er3Ġ
zhi2Ġ zheng4Ġ
dian4Ġ qi4Ġ
Ġ 8Ġ
zhe3 Ġshi4Ġ
wang2 Ġshi4Ġ
Ġzuo4Ġ chu1Ġ
Ġ yi2
xia2Ġ qu1Ġ
ĠĠĠ ben3
ceng2 Ġwei4Ġ
bao1 Ġwei2Ġ
bang4 Ġqiu2Ġ
xue2 Ġyuan2Ġ
cuo4 Ġwu4Ġ
Ġdi4Ġ qiu2
jin1Ġ rong2Ġ
xiao4Ġ qu1Ġ
Ġyu4Ġ shi3Ġ
xuan1Ġ chuan2
dong1Ġ fang1Ġ
Ġ Ma
hou4 Ġyi4Ġ
bei3 Ġshi4Ġ
jing1Ġ chang2
Ġran2 Ġer2
Ġ ting2Ġ
jiu4 Ġhui4Ġ
Ġjie2 Ġke4Ġ
Ġsi1Ġ ke1Ġ
Ġdui4Ġ shou3Ġ
Ġxing2Ġzheng4Ġ qu1Ġ
zhen4Ġqu1ĠdeĠ mian4Ġji1Ġwei4Ġ
Ġzhou1Ġ ci4Ġshi3Ġ
Ġsheng1Ġ ya2Ġ
Ġ fa1Ġxing2Ġ
jia1 Ġyi3Ġ
ju2 ĠdeĠ
Ġ bai3
fu2 ĠdeĠ
ma3 Ġke4Ġ
Ġta1 Ġyi3Ġ
Ġyuan2Ġ zi4Ġ
Ġli3Ġ xi1Ġ
zao4Ġ cheng2ĠdeĠ
zhi2Ġ min2Ġ
Ġ 2023
Ġ qin1Ġ
ping2Ġ lun4
fu1Ġ ka3Ġ
Ġfu2Ġ wu4Ġ
Ġdang1Ġ shi2ĠdeĠ
ao4 Ġzhou1Ġ
ke3 Ġzai4Ġ
Ġyi1Ġ ju4Ġ
Ġ gan3Ġ
ji4 Ġyou3Ġ
shi3 Ġjian4Ġyu2Ġ
ren4 ĠdeĠ
ye3 Ġbei4Ġ
mian4 Ġshang4Ġ
shuai1 Ġ
gong1Ġ gong4Ġ
Ġsi1Ġ ke4
Ġer2Ġ tong2Ġ
Ġ fa1Ġxian4Ġ
Ġ 2018Ġnian2Ġ
ming2 Ġshi4Ġ
ban4 ĠdeĠ
Ġxue2Ġ zhe3Ġ
H Ġ
pao3 Ġ
Ġjian4 Ġshe4
Ġwei2Ġ rao4
Ġye3 Ġbei4Ġ
qian1Ġ shu3Ġ
Ġqi2Ġzhong1Ġ bao1Ġkuo4Ġ
jia1 Ġzai4Ġ
Ġ 2009
tu1 Ġran2Ġ
hai3Ġ yang2Ġ
ji1 Ġzai4Ġ
lai2 Ġyin1Ġ
jun4 Ġgong1Ġ
Ġji2Ġ da4Ġ
Ġde2 Ġzhi1Ġ
Ġji1Ġ jin1Ġhui4Ġ
xiao4Ġli4Ġ yu2Ġ
Ġ 2019Ġnian2Ġ
ji4Ġ nian4
qi4Ġ che1
ling4Ġ yi2Ġge4Ġ
xiao1Ġ shi1Ġ
Ġ sha1
Ġwei4Ġ dui4Ġ
ru2Ġ guo3Ġ
dang1Ġ di4ĠdeĠ
jiang4Ġ ling3Ġ
Ġ 19
yan2Ġ hai3Ġ
tao2Ġ tai4Ġ
wei3Ġyuan2Ġhui4Ġ wei3Ġyuan2Ġ
Ġ xian1
Ġ yun2Ġ
Ġli3Ġ ya4Ġ
tian2Ġ jing4Ġ
Ġ xing1
Ġ 2Ġyue4Ġ
ĠĠĠ jin3Ġ
ping2 Ġyuan2Ġ
bei4Ġ jing3Ġ
ka3Ġ luo2Ġ
ĠĠĠ sheng4Ġ
jin4 Ġbu4Ġ
ding4 Ġyu2Ġ
er4 Ġren2Ġ
liang3 Ġguo2Ġ
te4Ġ ding4Ġ
fen4Ġ zi3
Ġci4 Ġnian2Ġ
da4 Ġbu4Ġ
dui4 Ġqi2Ġ
Ġqi2 ĠdeĠ
ĠdeĠbu4Ġ fen4Ġ
zhi2Ġmin2 Ġdi4Ġ
Ġ e4Ġ
jiao4 Ġda4Ġ
Ġzhi4Ġ zuo4ĠdeĠ
Ġji1Ġ du1Ġ
dian4Ġ nao3Ġ
gai3Ġ zao4Ġ
chuan2Ġtong3 ĠdeĠ
Ġ chong1Ġ
shou3 Ġzhong1Ġ
deng3 Ġji2Ġ
sheng1Ġ ya2
Ġbu4Ġbu4Ġ zhang3Ġ
guan1 Ġjian4Ġ
jing1Ġ shen2
Ġqian2Ġ wang3Ġ
dian3 Ġshi4Ġ
yi4Ġ shu4Ġ
quan2Ġ mian4Ġ
Ġdian4Ġ ying3
mo4Ġxi1Ġ ge1Ġ
Ġ xian2Ġ
zhen4 ĠdeĠ
tui1 Ġchu1
1968 Ġnian2Ġ
guo2Ġ jia1
Ġdi4Ġ tie3
Ġxian4 Ġyi3Ġ
Ġji1Ġ chu3
Ġju4Ġ li2
li2Ġ kai1
mu4 ĠdeĠ
Ġluo2Ġ ma3Ġ
Ġ gen1Ġ
ĠĠĠ nan2Ġ
Ġshi2Ġ duan4Ġ
jie1Ġ duan4
liang3Ġ ci4Ġ
ai4Ġer3Ġ lan2Ġ
san1 Ġming2Ġ
hun1 Ġyin1Ġ
tou Ġ
da4Ġ lu4
Ġyi4Ġ yu2Ġ
shu1Ġ yuan4Ġ
Ġshan1Ġ dong1Ġ
a1Ġla1Ġ bo2Ġ
Ġ liu4Ġ
Ġyou2 Ġji1Ġ
wen2 ĠdeĠ
bo1 Ġsi1Ġ
hui4Ġ zhang3Ġ
man3Ġ zu2Ġ
Ġ za2Ġzhi4Ġ
qi1 Ġwei4Ġ
Ġdi4Ġ dian3Ġ
jing4Ġ zheng1Ġ
cai2Ġ neng2Ġ
xin1 Ġcheng2Ġ
liang3 Ġwei4Ġ
pei4 Ġyin1Ġ
se Ġ
zheng4Ġ ju4Ġ
Ġwu2Ġ fa3Ġ
lian2 ĠdeĠ
xiu1 Ġfu4Ġ
Ġbing4Ġ you2Ġ
la1 Ġji1Ġ
kao4 Ġjin4Ġ
Ġdi4Ġ dai4Ġ
Ġli4Ġ shi2Ġ
hu4Ġ lian2Ġ
jie3Ġ fang4Ġ
nei4 Ġzhan4Ġ
bo1 Ġshi4Ġ
Ġwei2Ġ chi2
chu1Ġ ban3
zai1Ġ pei2Ġ
ne Ġ
Ġshi4Ġ de2Ġguo2Ġ
dui4Ġ zhang3Ġ
fa1Ġ qi3
ju1Ġ zhu4Ġzai4Ġ
zao3 Ġzai4Ġ
bing4 Ġbu4Ġ
shou3Ġ xiang4Ġ
shan1Ġ qu1Ġ
zu2Ġqiu2 Ġju4Ġle4Ġbu4Ġ
Ġ kou3Ġ
Ġ BĠ
juan4 Ġ
jiao1Ġ liu2
Ġguo2Ġwu4Ġ yuan4Ġ
li3 Ġcheng2Ġ
wei3 Ġfu4Ġ
zhe4 Ġshi4Ġ
qi3 Ġyuan2Ġ
gou3 Ġ
cun1Ġ luo4Ġ
fu1 ĠdeĠ
1970 Ġnian2Ġ
ji1Ġ chu3
Ġda4Ġ lou2
yan2Ġ se4Ġ
xiang4Ġ zheng1Ġ
Ġwei2Ġ si1Ġ
tian1Ġ ti3Ġ
dou1 Ġbei4Ġ
Ġbu4Ġ bing1Ġ
Ġyu3Ġ yan2
ĠĠĠdi4Ġ er4Ġ
Ġ 28
Ġ 2004Ġnian2Ġ
liu4 Ġshi2Ġ
Ġzhi4Ġ liang4Ġ
Ġzhou1Ġ fu3Ġ
Ġ can1Ġyu4Ġ
ĠĠĠ 17
lang2 Ġzhong1Ġ
Ġyi1Ġ yuan4
Ġxing2Ġ mu4Ġ
shen2Ġ me
Ġ ding1Ġ
xing4 Ġhe2Ġ
Ġyi3Ġ wai4Ġ
chang2Ġ du4Ġ
luo4Ġ fa2
la Ġ
Ġzhi4Ġ di4Ġ
Ġyu3Ġ yi1Ġ
wu2Ġzheng4Ġzhuang4Ġgan3Ġran3Ġ zhe3Ġ
Ġ yi4Ġshi4Ġ
ĠĠĠ 2008
liang4 Ġwei4Ġ
mu3 ĠdeĠ
Ġde2 Ġsi1Ġ
h Ġ
Ġ 2020Ġnian2Ġ
shou1Ġ gou4Ġ
zui4 Ġchu1
xie3 Ġzuo4Ġ
meng4 Ġjia1Ġ
Ġ bao3
te4Ġ xing4Ġ
shi1Ġ qu4
Ġwei4Ġyu2Ġ mei3Ġguo2Ġ
jia3 Ġdi4Ġ
Ġzui4 Ġjia1Ġ
ĠĠĠ Ma
fu4 Ġhe2Ġ
chuang2 Ġ
tai4Ġ yang2
ao4Ġ men2
fu2 Ġli4Ġ
ge2 Ġshi4Ġ
1956 Ġnian2Ġ
Ġxian4 Ġji2Ġ
suo3 ĠdeĠ
zhuan4 ĠdeĠ
zong1 Ġyi4Ġ
zi4Ġ mu3Ġ
ling2Ġ chen2Ġ
zhi2Ġye4Ġ sheng1Ġya2Ġ
suo3 Ġwei4Ġ
tou4 Ġlu4Ġ
dong1Ġ bei3
Ġ yi2Ġge4
5 Ġren2Ġ
ou3 Ġxiang4Ġ
kao3 Ġshi4Ġ
Ġfu2 Ġjian4Ġ
ĠĠĠ ge4Ġren2Ġ
jue2 Ġshi4Ġ
zong3 Ġren2Ġkou3Ġ
si Ġ
Ġdi4Ġ fang1
Ġxian4 Ġcheng2Ġ
Ġli3Ġ ke4Ġ
Ġde2Ġ la1Ġ
kong1Ġ qi4Ġ
Ġ nuo4Ġ
na4 ĠdeĠ
fen2 Ġ
zuo4Ġ wei2
zhu3Ġ zhang1Ġ
xi1 Ġhe2Ġ
ping2 ĠdeĠ
1960 Ġnian2Ġ
xi1Ġ nan2Ġ
Ġ tai4
hui2 Ġyi4Ġ
1920 Ġnian2Ġ
1981 Ġnian2Ġ
Ġyi3 Ġzai4Ġ
Ġye3Ġ ke3Ġyi3Ġ
pu2Ġtao2Ġ ya2Ġ
ĠĠĠ ren2Ġ
1964 Ġnian2Ġ
Ġzuo4Ġ zhan4Ġ
Ġ ku4Ġ
ĠĠĠ Re
qi1 Ġshi2Ġ
zou3 Ġxiang4Ġ
Ġyi3 Ġyu2Ġ
Ġcheng2Ġ ke4Ġ
su1Ġ ge2Ġlan2Ġ
Ġ zhen1
guo4 ĠleĠ
che1 Ġdui4Ġ
Ġer3 Ġshi4Ġ
Ġ diao4Ġ
Ġ xiao3Ġshi2Ġ
Ġ sun1Ġ
nan2 ĠdeĠ
hu4 Ġbu4Ġ
Ġdi4Ġ tu2Ġ
Ġyuan2Ġ ben3
Ġchu1 Ġdao4Ġ
yin4Ġ ni2Ġ
Ġ 2007
Ġ se4Ġ
Ġ 2021Ġnian2Ġ
wu3 Ġshi4Ġ
shou1 Ġdao4Ġ
wa3 Ġer3Ġsheng3Ġ
guan3 Ġzhi4Ġ
gu3 Ġli4Ġ
fei2 Ġ
Ġgong1Ġ li3ĠdeĠ
xin4Ġ yang3
zhu3Ġyi4Ġ zhe3Ġ
Ġ 24
tou1 Ġ
Ġwei4Ġ yuan2Ġ
guo4Ġ du4Ġ
ou3 Ġ
yan2 Ġren2Ġ
luo4 Ġcheng2Ġ
xian3 Ġzhu4Ġ
ba Ġ
guo2Ġ wu4Ġ
shi3Ġ shang4Ġ
guang3Ġ chang3
xun2Ġ zhao3
Ġshi2Ġyan4 Ġshi4Ġ
Ġsi1Ġling4 Ġbu4Ġ
Ġ kai3
shi3 Ġren2Ġ
bi4 ĠdeĠ
mai4 Ġke4Ġ
Ġdi4Ġ liu4Ġ
wang4Ġ yuan3Ġ
ĠĠĠ yue4Ġ
xi1 Ġdi4Ġ
xiu1 Ġdao4Ġ
hun2 Ġ
Ġda4Ġ gong1Ġ
Ġfu4Ġ jin4ĠdeĠ
si4 ĠdeĠ
ceng2 Ġyu2Ġ
shou3Ġ du1
ge2Ġ li2Ġ
shao4Ġ nv3Ġ
ĠĠĠ 2009
yu2 Ġhe2Ġ
jiang1 Ġyu2Ġ
dong1Ġ jing1
zhuan1Ġ ye4
Ġ zu2Ġ
di4 Ġhe2Ġ
yan2 Ġzhi4Ġ
du4 Ġhe2Ġ
fang4 Ġzai4Ġ
Ġji2Ġ shi3Ġ
jian1Ġ yu4Ġ
mian3Ġ fei4Ġ
jiao3 Ġdu4Ġ
zuo3 Ġyi4Ġ
Ġcheng2Ġ ben3Ġ
wei2Ġ zhu3Ġ
fan3Ġ hui2
Ġ dang3Ġ
1948 Ġnian2Ġ
bei4Ġ cheng1Ġwei2Ġ
Ġxing2Ġ dong4
deng3Ġ deng3Ġ
cai3Ġ qu3
guan3Ġli3Ġ ju2Ġ
Ġ xie4
tai2Ġbei3 Ġshi4Ġ
Ġ jue2Ġding4Ġ
1975 Ġnian2Ġ
Ġyue4Ġ dui4Ġ
Ġshe4 Ġyu2Ġ
Ġjun1Ġ qu1Ġ
bi4Ġ mian3
kong1Ġ jian1
xing2Ġ tai4Ġ
ĠĠĠ dang1Ġ
she4 Ġbei4Ġ
xiang1 Ġshi4Ġ
ka3 Ġsi1Ġ
cai3Ġ fang3
shan1 Ġxian4Ġ
Ġer2Ġ fei1Ġ
gai3Ġ shan4Ġ
fei4Ġ chu2Ġ
st ĠĠĠ
li3Ġ lun4
xi1Ġ bei3Ġ
zheng4Ġfu3 ĠdeĠ
Ġ 35
shang4 Ġdi4Ġ
dao3 Ġshang4Ġ
Ġzai4Ġ he2Ġ
Ġke4 Ġer3Ġ
Ġ shen2
Ġ feng4Ġ
ci3 Ġtong2Ġshi2Ġ
luo4Ġ shan1Ġji1Ġ
Ġ 2002Ġnian2Ġ
ĠĠĠ si1Ġ
kai1 Ġgong1Ġ
tong1 Ġzhi1Ġ
xiang1Ġ guan1ĠdeĠ
bo1Ġ li2Ġ
jia4Ġ shi3Ġ
Ġfen1Ġ bie2Ġ
Ġ cai4
Ġ mi4Ġ
jiu4 Ġyuan2Ġ
ĠdeĠ ju4Ġ
ĠĠĠ zheng4Ġ
1952 Ġnian2Ġ
Ġdi4Ġyi1Ġ ci4
7 Ġren2Ġ
Ġ yong3
ĠĠĠ deĠĠĠ
he2 Ġzai4Ġ
ye3 Ġhui4Ġ
wa2 Ġ
Ġzhi1 Ġshi4Ġ
hai3Ġ an4
ci2Ġ zhi2Ġ
hen3Ġ kuai4Ġ
e2Ġluo2Ġ si1ĠdeĠ
shang4 Ġxian4Ġ
Ġren2Ġ da4Ġ
Ġyi4Ġ jian4Ġ
Ġ pu3
Ġwei4Ġ zai4Ġ
xi3Ġ huan1Ġ
Ġ 60
Ġ xu4Ġ
kou3 ĠdeĠ
zheng1 Ġyue4Ġ
ti4 Ġdai4Ġ
chu4Ġ zhang3Ġ
chong1Ġ tu1
Ġ kai3Ġ
ĠĠĠ ba1Ġ
qiang2 Ġzhi4Ġ
Ġshi2Ġ xian4
jian1Ġ du1Ġ
ying3 Ġshi4Ġ
ci2 ĠdeĠ
huai4 Ġ
ti2Ġchu1Ġ leĠ
wai4Ġjiao1 Ġbu4Ġ
z Ġ
xue2 Ġzhong1Ġ
Ġge4 Ġguo2Ġ
yin3Ġ yong4Ġ
min2Ġzhu3Ġ dang3
shan1 Ġdi4Ġ
jiu3 ĠdeĠ
jin3 Ġyou3Ġ
ji4Ġ suan4
Ġ lei2
Ġ e2Ġ
Ġ suo1Ġ
feng1 Ġfu4Ġ
Ġzhu3Ġ yan3Ġ
Ġ fa3
si1 Ġshi4Ġ
nuo2 Ġwei1
ĠĠĠin ĠĠĠ
ĠĠĠ gu4Ġshi4Ġ
Ġsi1Ġ ma3Ġ
Ġge4Ġ zhong3
Ġhao4 Ġxian4
zhang3Ġ guan1Ġ
zong1Ġ jiao4
xiao3Ġxing2Ġ xing1
ĠĠĠ fu4Ġ
Ġshi2Ġ hou4Ġ
mo4Ġxi1Ġ ge1
qiang2 ĠdeĠ
Ġyou3Ġ xie1
pu3Ġ bian4
bu4ĠdeĠ cun1Ġzhuang1Ġ
ĠĠĠyi3Ġ xia4
2 Ġge4Ġ
V Ġ
Ġ 26
guan3 ĠdeĠ
zan4 Ġzhu4Ġ
yin4Ġ shua1
Ġ chuan1Ġ
cu4 Ġjin4Ġ
Ġyue4Ġ lai2Ġyue4Ġ
liu2Ġ yu4Ġ
Ġ pa4Ġ
gu3Ġ lao3
ma3Ġlai2 Ġxi1Ġya4
ĠĠĠ wei2Ġ
ta1 Ġzai4Ġ
jiang4 Ġyu3Ġ
liao3 Ġjie3Ġ
jia1Ġ ting2Ġ
Ġ zu2
Ġ cai3Ġyong4Ġ
fu4 Ġshi4Ġ
lie4 Ġchu1Ġ
kou4 Ġ
Ġcheng2Ġ xian4
Ġzhi1 Ġdi4Ġ
jing1Ġ dian3Ġ
che1Ġ xiang1Ġ
Ġdan4Ġ bai2Ġ
a1Ġ gen1Ġ
ce4Ġ liang2Ġ
tian1 Ġhou4Ġ
yun3 Ġshi2Ġ
Ġxian4Ġ shang4Ġ
qiang2Ġ du4Ġ
su1 Ġwei2Ġ
guan4 Ġjun1
st Ġ
Ġbu4Ġ shao3
Ġzhi1 Ġjia1Ġ
can1Ġ xuan3Ġ
Ġ ni3
Ġke4 Ġhe2Ġ
lie4Ġ ru4Ġ
bi4Ġ mian3Ġ
Ġ ì
ĠĠĠ 4
Ġxiang1Ġ dang1
tong2Ġ xing4Ġ
ting2Ġ che1Ġ
zao3 Ġshang4Ġ
1966 Ġnian2Ġ
zhu3Ġ ti2
fa1Ġ dong4Ġji1Ġ
sen1Ġ lin2
Ġfu4Ġze2Ġ guan3Ġxia2Ġ
ao4 Ġer3Ġ
la1 ĠdeĠ
ming2Ġ dan1Ġ
zhan4Ġ tai2Ġ
guo2 Ġshi4Ġ
hu1 Ġyu4Ġ
Ġgong1Ġ ying4Ġ
jian1Ġ ren4Ġ
xuan3Ġju3 Ġzhong1Ġ
Ġ kuan1Ġ
Ġyi1Ġ zhi2Ġ
guan1Ġ fang1
suo3Ġ you3ĠdeĠ
jian4Ġ zhu4
di1Ġ qi4Ġ
Ġ ba3Ġ
cai2Ġ liao4
ĠĠĠzeng1Ġ zu3Ġ
6 Ġren2Ġ
Ġ kao3Ġ
sao1 Ġ
nan2Ġ zi
bo2Ġ lin2Ġ
jing3Ġ gao4Ġ
ti3Ġyu4Ġ chang3Ġ
guang3 Ġzhou1
Windows ĠĠĠ
la1 Ġde2Ġ
shu1 Ġchu1Ġ
1937 Ġnian2Ġ
Ġgong1Ġ neng2
N Ġ
lan2 Ġxi1Ġ
dun4 ĠdeĠ
Ġbu4Ġ man3Ġ
Ġqiu2 ĠdeĠ
yin2Ġ pai2Ġ
yao2Ġ gun3
lian2Ġ jie1
yin3Ġ ru4Ġ
zhao4Ġ pian1Ġ
Ġer2Ġgai1Ġ di4ĠdeĠ
Ġ ye4
Ġ jie1
hai2 Ġzai4Ġ
nuo2 Ġwei1Ġ
Ġnian2Ġ qing1Ġ
guo2Ġ wang2Ġ
Ġyu3Ġ qi2Ġ
qi1Ġ zi3
Ġ 29
Ġ shun4
chuang4Ġ zuo4ĠdeĠ
xu4 Ġli4Ġya4
an1Ġ zhuang1Ġ
zao3Ġ qi1ĠdeĠ
shi2 Ġhe2Ġ
tu2 ĠdeĠ
nu4 Ġ
you1Ġ xiu4
mou3Ġ xie1
1946 Ġnian2Ġ
1974 Ġnian2Ġ
Ġji4Ġ lu4
Ġchu1Ġ yan3Ġ
zhi1 Ġshi2Ġ
xia4 Ġzai4Ġ
qiu2 Ġhui4Ġ
ceng2 ĠdeĠ
Ġbei4Ġ er3
zhan4 Ġdi4Ġ
zao1 Ġyu4Ġ
Ġwei4Ġ neng2
Ġjia1Ġ ting2
xia4Ġ lai2Ġ
shen1Ġ qing3
zhan4 Ġshi2Ġ
Ġhe2Ġ gu3Ġ
Ġcheng2Ġ leĠ
Ġyi3Ġ qian2Ġ
Ġji4Ġ yi4Ġ
Ġke4 Ġli4Ġ
gu3Ġ la1Ġ
ĠĠĠ for
ĠĠĠ In
fei1 Ġxing2
bian1 Ġyuan2Ġ
mo4 Ġer3Ġ
niang2 Ġ
fa1Ġ sheng1ĠdeĠ
Ġxiang1Ġ tong2Ġ
Ġyi3Ġse4Ġ lie4Ġ
te4 Ġli4Ġ
1954 Ġnian2Ġ
Ġshi2Ġ bao4Ġ
xing1Ġ qi1
4 Ġge4Ġ
Ġ fou3
qian2 Ġhou4Ġ
shan1Ġdong1Ġ sheng3Ġ
Ġzhao1 Ġhe2Ġ
zu3 ĠdeĠ
zhong1Ġ yang1Ġ
Ġdui4Ġ ci3Ġ
Ġzhi3 Ġzai4Ġ
ĠĠĠgai4Ġ yao4Ġ
Ġ 2006
dui4 Ġyuan2Ġ
san1 Ġda4Ġ
ĠdeĠ zhu3Ġyao4Ġ
shi1Ġ qu4Ġ
tai4Ġ kong1Ġ
Ġzi4Ġ you2
Ġ mo2
Ġ qing3Ġ
yu2 ĠĠĠ
Ġjun1 Ġdi4Ġ
Ġsheng1Ġ ming2Ġ
Ġ song4
Ġ 2000Ġnian2Ġ
ĠĠĠ toĠĠĠ
zha4 Ġdan4Ġ
Ġ wai4
wang3 Ġshang4Ġ
ta3 Ġer3Ġ
Ġdi4Ġ zhen4Ġ
xia4Ġ jiang4Ġ
Ġshou3Ġ ci4Ġ
ling3Ġ dao3ĠdeĠ
yan2Ġjiu1 Ġsheng1Ġ
te4 Ġer3Ġ
bao3 ĠdeĠ
Ġxian4 Ġyou3Ġ
Ġyuan2Ġ yin1
Ġ000 Ġ
wu1 Ġsi1Ġ
hao3 Ġping2Ġ
pu4 Ġ
zhai1 Ġ
Ġzhong1Ġ jian1Ġ
pu3Ġ cha2Ġ
Ġ cai2
duo1Ġ ci4
Ġji2Ġ bing4Ġ
Ġ guan3Ġ
tong2 Ġming2Ġ
te4 Ġyou3Ġ
bian1 Ġwei4Ġ
bo2Ġ jue2Ġ
Ġwei1Ġ lian2Ġ
v Ġ
Ġ xian1Ġhou4Ġ
mi3 ĠdeĠ
Ġxing2 Ġbu4Ġ
qin1Ġ wang2Ġ
kuai4Ġ su4
cun2 ĠdeĠ
dian4Ġshi4Ġ tai2
Ġ guang3Ġdong1Ġ
qing2 ĠdeĠ
Ġshi4Ġ yi1Ġbu4Ġ
Ġxin1Ġ zeng1Ġ
gai3Ġ zhi4Ġwei4Ġ
hui2Ġ gui1Ġ
ĠĠĠdi4Ġ yi1Ġ
Ġ tui1Ġ
gang3 Ġyuan2Ġ
1955 Ġnian2Ġ
fei4Ġ yan2Ġ
shi1 Ġgong1Ġ
fen3 Ġsi1Ġ
zhui4 Ġ
zhi3Ġ kong4Ġ
mi4 ĠdeĠ
xun1 Ġ
beng1 Ġ
che1Ġ liang4
zan4Ġ ting2Ġ
shen1 Ġshi4Ġ
da2 Ġzhou1Ġ
ying3Ġ xiang4Ġ
fang1Ġ mi3Ġ
Ġzi4Ġ dong4Ġ
ĠdeĠ hua4Ġ
da4Ġ qu1Ġ
sheng3Ġ jie1Ġrang3Ġ
zai4 ĠĠĠ
san1 Ġren2Ġ
san1 Ġge4
te4Ġ zheng1
zhe3 Ġhe2Ġ
Ġjie2Ġ shu4Ġ
Ġzui4 Ġda4Ġ
Ġ 45
wu3 Ġge4Ġ
Ġzhe4Ġ yang4Ġ
Ġjin4Ġ zhi3Ġ
rui4Ġ dian3Ġ
Ġmai4 Ġke4Ġ
Ġ 25
Ġ mao2Ġ
Ġbu4Ġ yi1Ġ
Ġping2Ġ lun4Ġ
jing4Ġnei4Ġ gong4Ġyou3Ġ
lu4Ġyi4Ġ si1Ġ
si4 Ġshi4Ġ
tai4 ĠdeĠ
zhan3Ġ lan3Ġ
Ġ shui3
ĠĠĠ jin1Ġ
you2 Ġxing2Ġ
pei4 Ġbei4Ġ
Ġnian2Ġ ling2Ġ
Ġshe4Ġhui4Ġ zhu3Ġyi4Ġ
Ġ guo1
Ġ shan4Ġ
zhe3 Ġhui4Ġ
huang1 Ġ
Ġshi4Ġyi1Ġ ke1Ġ
Ġshuang1Ġ fang1Ġ
Ġzai4Ġyi4Ġ qi3Ġ
shi3 Ġyu2Ġ
la1 Ġhe2Ġ
hui2 Ġguo2Ġ
Ġbu4Ġ lai2Ġ
Ġshi2Ġ xing4Ġ
Ġji4Ġ zai3
xin1Ġ wen2
bao3Ġ luo2Ġ
jing4Ġ zheng1
Ġ 200
dang1 Ġnian2Ġ
Ġji2Ġ hou4Ġ
lv4Ġ se4Ġ
can1Ġ shu4Ġ
Ġjiang1Ġ su1Ġ
wu2Ġxian4Ġ dian4Ġshi4Ġ
Ġ chu3Ġ
Ġ ke3Ġneng2Ġ
sheng4 Ġchu1Ġ
Ġdi4Ġ zhi4Ġ
Ġzhi4Ġ yi2Ġ
Ġxi1Ġ er3Ġ
fei4Ġ yong4Ġ
ying4 Ġji2Ġ
Ġbei4Ġ po4Ġ
du4Ġ shi3Ġ
chan3Ġsheng1Ġ leĠ
en ĠĠĠ
ĠĠĠ 2019Ġnian2Ġ
ma3 Ġke4Ġsi1Ġ
ku1 Ġ
Ġguo2Ġjia1Ġ dui4Ġ
tie3Ġlu4Ġ che1Ġzhan4Ġ
Ġdong4Ġ wu4Ġ
o ĠĠĠ
Ġ hu2Ġnan2Ġ
Ġgong1Ġ qing3Ġ
Ġjia1Ġ zu2
wang2 Ġwei4Ġ
tui1 Ġjian4Ġ
lian2Ġ ren4Ġ
lei4 Ġxing2ĠdeĠ
si3 Ġyu2Ġ
zhuo1 Ġ
Ġta1Ġ ceng2Ġ
zhang3Ġ zi3Ġ
bei3Ġ fang1Ġ
Ġceng2Ġ ren4
ĠS Ġ
Ġ zhong4
ying1 Ġli3Ġ
Ġgong1Ġ gong4
Ġda4Ġ dao4
fu2Ġ luo2Ġli3Ġ
nong2Ġ cun1Ġ
chuang4Ġ zao4Ġ
Ġshi4Ġzhong1Ġ hua2Ġren2Ġmin2Ġgong4Ġhe2Ġguo2Ġ
ying3Ġxiang3 Ġli4Ġ
ĠdeĠzuo4Ġ biao1Ġwei4Ġ
O Ġ
Ġ 27
10 Ġnian2Ġ
chong1 Ġji1Ġ
section ĠĠĠ
Ġshi4Ġ hui4Ġ
qun2Ġ dao3
Ġ fu3Ġ
Ġ 2022Ġnian2Ġ
san1 Ġji2Ġ
Ġzai4Ġ xin1Ġ
te4Ġ dian3Ġ
tian1Ġ ran2Ġ
ĠĠĠjia1Ġ ting2Ġ
Ġ qiu1Ġ
ĠĠĠ 3Ġ
lv4 ĠdeĠ
Ġzai4Ġ ta1ĠdeĠ
chu1Ġ qi1Ġ
fang2Ġ wu1Ġ
she4Ġ hui4
ji2 Ġbu4Ġ
sheng1 Ġzhi4Ġ
fu4Ġ jin4
fang1Ġ xiang4
te4Ġ la1Ġ
qing1Ġ chao2Ġ
jing4Ġ nei4
gu4Ġ ding4Ġ
geng4Ġ duo1ĠdeĠ
Ġ shen3Ġ
cong2 Ġwei4Ġ
Ġyi1Ġ ren2Ġ
Ġdao4 Ġhe2Ġ
gao1Ġ da2Ġ
Ġ nai3
Ġ sectionĠĠĠ
ĠĠĠ shi3Ġyong4Ġ
xin1 Ġshi4Ġ
zhong1Ġ yang1
Ġshi2Ġ zhi4Ġ
Ġdao4 Ġyi1Ġ
qi4Ġ xuan2Ġ
ban1 ĠdeĠ
zong4 Ġ
xuan3 Ġchu1Ġ
wan2Ġ zheng3Ġ
Ġ Ñ
Ġ tie3Ġ
yi2 Ġdao4Ġ
ma1 Ġ
sheng1Ġ ji1Ġ
guan1Ġ ce4Ġ
Ġye3 Ġbu4Ġ
qing1Ġ shao4Ġnian2Ġ
8 Ġren2Ġ
Ġ xu3Ġduo1
li2 Ġmi3Ġ
Ġshi4Ġ ji4ĠdeĠ
Ġyou3Ġ da4Ġ
1 Ġge4Ġ
Ġ 2024
jia1 Ġgong1Ġ
luo4 Ġsi1Ġ
Ġshi4Ġ you2
fu4Ġ jin4ĠdeĠ
mei3Ġguo2Ġ ren2Ġ
Ġzhi3 Ġshi4Ġ
zhang4Ġ fu1Ġ
xue2 Ġbu4Ġ
tie1 Ġ
Ġyou3Ġ zhu4Ġ
Ġ an4
yi4 Ġbu4Ġ
1947 Ġnian2Ġ
guo2Ġ hui4Ġ
xi1Ġ bei3Ġbu4Ġ
Ġta1Ġ ren4Ġwei2Ġ
mu4Ġ ni2Ġ
qu3Ġ xiao1
Ġtong2Ġ pai2Ġ
kuo4Ġ zhan3
si3 Ġxing2Ġ
qing4 Ġzhu4Ġ
ĠdeĠ gu4Ġshi4Ġ
zhan4Ġ ling3
Ġtong2Ġ yang4Ġ
ĠĠĠgen1Ġju4Ġ 2020Ġnian2Ġmei3Ġguo2Ġren2Ġkou3Ġpu3Ġcha2ĠdeĠshu4Ġju4Ġ
zui4 Ġwei4Ġ
guo2Ġ li4Ġ
huang2Ġ se4Ġ
zeng1Ġjia1Ġ leĠ
Ġ Y
Ġ deng1Ġ
bing4 Ġwei4Ġ
hai3 Ġshang4Ġ
guo4 Ġyu2Ġ
zhou2 Ġ
fen1Ġ pei4Ġ
na4Ġ cui4
shang4Ġhai3 Ġshi4Ġ
Ġ bao1Ġhan2Ġ
quan2 ĠdeĠ
zong3 Ġhui4Ġ
hui2 Ġhe2Ġ
reng2 Ġzai4Ġ
lao3 Ġshi1Ġ
1973 Ġnian2Ġ
Ġzai4Ġ ta1Ġ
Ġyi1Ġ zhi4Ġ
Ġchu1Ġ fa1Ġ
se4Ġ fu1Ġ
xiang1 Ġji4Ġ
deng3 ĠdeĠ
si4 Ġda4Ġ
th Ġ
50 Ġ
qie4 Ġer3Ġ
1971 Ġnian2Ġ
jing1Ġ ji4
lian2Ġ jie2Ġ
fang2 Ġwei4Ġ
Ġ kuan1
Ġ 2003Ġnian2Ġ
Ġli4Ġ shu3Ġ
Ġbing4Ġ ru4Ġ
ban1Ġ jiang3Ġ
xing4 Ġshi4Ġ
dui4Ġ shou3Ġ
zhuan1Ġ men2Ġ
ĠdeĠji4Ġ lu4Ġ
Ġ ku4
ai4 ĠdeĠ
Ġji2Ġ xing2Ġzheng4Ġ
Ġli4Ġ ziĠ
Ġye3 Ġhui4Ġ
lai2Ġzi4 Ġyu2Ġ
shou4 Ġquan2Ġ
pian4 ĠdeĠ
100 Ġ
1977 Ġnian2Ġ
9 Ġren2Ġ
Ġ bai2
fu2 Ġli3Ġ
jiang3Ġ shu4Ġ
zhao4Ġ kai1
xie2Ġ ding4Ġ
Ġa1Ġ la1Ġ
Ġ000 Ġren2Ġ
Ġ lei4Ġ
yi1Ġ xie1Ġ
Ġyi3 Ġzhi4Ġ
zhi2Ġ ye4
hai3Ġ ba2Ġgao1Ġ
Ġxiang1Ġ dui4Ġ
can1Ġ sai4
fang4Ġ qi4
cun2Ġ zai4ĠdeĠ
fu4 Ġjia1Ġ
zhuang4 Ġji1Ġ
Ġjian4Ġ kang1Ġ
he2 Ġwei4Ġ
dan1 Ġyuan2Ġ
sheng3 Ġdao4Ġ
lao2 Ġgong1Ġ
hant Ġ
xi1Ġ nan2Ġbu4Ġ
Ġke4Ġ yun4Ġ
ma3Ġ la1Ġ
gai3Ġ ge2
nan2Ġji2Ġ zhou1ĠdeĠ
wu3Ġ qi4
xiao1Ġ liang4Ġ
lei4Ġsi4 ĠdeĠ
Ġ 9Ġ
Ġ hantĠ
mei3 Ġjun1Ġ
ba1 Ġer3Ġ
chuang4 Ġxin1Ġ
tuo2 Ġ
qiao3 Ġ
Ġyou3Ġ guan1
zheng4Ġ xie2Ġ
Ġta1Ġ dui4Ġ
shan1Ġ mai4Ġ
Ġsi4Ġ chuan1Ġ
hong1Ġzha4 Ġji1Ġ
ĠĠĠran2 Ġer2Ġ
chang2 Ġjian4Ġ
chuan2 Ġzhi1Ġ
lou4 Ġ
Ġzhi1Ġ zhan4Ġ
shou3Ġ bo1Ġ
xing4Ġ neng2Ġ
ying1Ġ gai1
Ġxiao3Ġ shuo1Ġ
yi1 Ġbu4Ġfen4
fei1 Ġzhou1
Ġxian4 Ġzhi1Ġxian4Ġ
fa1Ġsheng1Ġ leĠ
shu3ĠdeĠ zhi2Ġwu4Ġ
Ġ e2
ĠĠĠ dan4
zhi2 Ġzhi4Ġ
dian4 ĠdeĠ
yao4 ĠdeĠ
yan2Ġ zhong4ĠdeĠ
sha1Ġ si3Ġ
Ġxi4Ġ tong3
Ġling4Ġ wai4
Ġ che1Ġzhan4
li3 Ġbu4Ġ
mi4 Ġsi1Ġ
Ġjian4 Ġshi4Ġ
suo3Ġ shu3
Ġ qian1
tou2 Ġbu4Ġ
ni4 Ġ
Ġyou2Ġ ci3Ġ
zu3Ġ zhi3Ġ
Ġdong1Ġ jing1Ġ
yun4Ġdong4 ĠdeĠ
Ġ dou1
xi1 Ġshi4Ġ
jian1 Ġshi4Ġ
dui4Ġ wu3Ġ
zhu3Ġ xi2
jiang1 Ġta1Ġ
na4 Ġde2Ġ
jiang4Ġ di1
Ġshi4Ġyi4Ġ da4Ġli4Ġ
hui4 Ġyi3Ġ
quan3 Ġ
hei1 Ġren2Ġ
ji1Ġ ben3Ġ
Ġzhi1Ġ liu2Ġ
Ġshe4Ġ ji4ĠdeĠ
shuai4Ġ ling3Ġ
tu3Ġer3 Ġqi2
Ġ bao4
hui4 Ġshi4Ġdi4Ġ
huan2 Ġxing2Ġ
Ġzai4Ġ yu3Ġ
Ġgong1Ġ lu4
Ġde2 Ġdao4ĠleĠ
Ġ 40
bu4Ġ fen4Ġ
can1Ġ ting1Ġ
bang1Ġ zhu4
na2Ġ po4Ġ
zheng3 Ġge4
xiang1Ġ bi3Ġ
Ġshi4Ġyi1Ġ zuo4Ġ
zhou1Ġ bian1Ġ
Ġshi4Ġjie4Ġ bei1Ġ
Ġma3 Ġli4Ġ
xia4Ġxia2 Ġyi3Ġxia4
W Ġ
wa1 Ġ
Ġxian4Ġ jin1Ġ
hang2Ġ tian1Ġ
ĠĠĠ 3Ġyue4Ġ
shang4 Ġbu4Ġ
zhang3 Ġda4Ġ
luo2 Ġde2Ġ
Ġda4Ġ liang4
shuang1Ġ da3Ġ
Ġguan1Ġ fang1Ġ
Ġ ling3Ġ
zi4 Ġwei4Ġ
yi2Ġ chan3
yan2 Ġshi2Ġ
Ġli4Ġ yong4
Ġxing2Ġ shi3Ġ
Ġ ji3Ġ
ge2 Ġer3Ġ
zong3Ġ cai2Ġ
la4 Ġ
Ġnan2Ġ ziĠ
Ġsheng1Ġzhang3 Ġyu2Ġ
Ġ huan2Ġ
Ġ qin2Ġ
zhi3 ĠdeĠ
Ġgong1Ġ chi3
Ġqiu2 Ġhui4Ġ
chuan2Ġ mei2Ġ
hai3Ġba2Ġgao1Ġ du4Ġwei4Ġ
Ġ xu1Ġyao4Ġ
ĠĠĠ 2018Ġnian2Ġ
ji4 Ġzai4Ġ
xin1 Ġren2Ġ
ben3 Ġxian4Ġ
ci3 Ġshi2Ġ
zhe3 Ġwei4Ġ
nuo4 Ġyi1Ġ
Ġhe2Ġ li3Ġ
Ġji2Ġ lin2Ġ
xiang1Ġ tong2ĠdeĠ
Ġzhong1Ġguo2Ġ guo2Ġmin2Ġ
ĠĠĠofĠĠĠ theĠĠĠ
ĠĠĠ 2007
1962 Ġnian2Ġ
Ġzhe4Ġ shou3Ġ
guang1Ġ xu4Ġ
Ġ liang3Ġge4Ġ
wu3 Ġyue4Ġ
dan1 Ġyi1Ġ
bie2 ĠdeĠ
you2Ġ tai4Ġren2Ġ
ya4Ġ mu4Ġ
ĠdeĠcheng2Ġ zhen4Ġ
la1 Ġer3Ġ
xun2 Ġqiu2Ġ
Ġbu4Ġ er3Ġ
Ġxing2Ġ xiang4Ġ
Ġwei2Ġ chi2Ġ
yin3Ġ zhong3Ġ
bu2 Ġyao4Ġ
f Ġ
Ġ bao1Ġ
shang1 ĠdeĠ
cong1 Ġ
Ġbu4Ġ di2Ġ
Ġyu2Ġ lei4Ġ
Ġjiang1 Ġqi2Ġ
Ġ han2
Ġ zhuan1Ġji2Ġ
ĠĠĠ 5Ġyue4Ġ
Ġzai4Ġ gai1Ġ
Ġguo2Ġ min2
ying2Ġ ye4Ġ
qian1Ġ yue1Ġ
can1Ġyu4Ġ leĠ
wei3Ġfu4Ġ shu1Ġji4Ġ
e2 Ġwei4Ġ
wu3 Ġdi4Ġ
si1Ġ lan2Ġ
Ġke4Ġ la1Ġ
di3Ġ kang4Ġ
zhi2 Ġyuan2Ġ
Ġyi1Ġ ci2Ġ
Ġyi1Ġ liao2Ġ
Ġjiao4Ġ yu4
Ġhe2Ġ ji2Ġ
mei3Ġ yuan2ĠdeĠ
Ġqi2Ġzhong1Ġ nan2Ġxing4Ġ
Ġliu2Ġ yu4Ġ
jiao4 Ġyu2Ġ
ge1 ĠdeĠ
huai2 Ġyi2Ġ
Ġwei4Ġ ci3Ġ
Ġdi4Ġ mian4Ġ
Ġdi4Ġ 1Ġ
ti3Ġ yu4
ceng2Ġ shui3Ġyu4Ġ
rong2Ġ na4Ġ
Ġjie2Ġ gou4Ġ
gu3Ġfen4 Ġyou3Ġxian4Ġgong1Ġsi1Ġ
zhuan4ĠdeĠ xiao3Ġxing2Ġxing1Ġ
Ġhou4Ġ qi1Ġ
Ġke4Ġ lai2Ġ
jie1Ġ ren4Ġ
zhi3Ġ ding4Ġ
xiao4Ġ ying4Ġ
qian1Ġ ding4Ġ
Ġ guang1
Ġ 12Ġ
ĠĠĠ ping2Ġjia4Ġ
you2 Ġqi2Ġ
liang2 Ġshi2Ġ
Ġshi4Ġ nei4Ġ
yue4Ġ nan2Ġ
jing4Ġ sai4Ġ
ĠdeĠdi4Ġ er4
mo4Ġsi1Ġ ke1Ġ
you2 Ġren2Ġgong1Ġ
zhang3 Ġwei4Ġ
ge1 Ġju4Ġ
Ġshi4Ġ xi1Ġ
Ġyi1Ġ zhi1Ġ
Ġshe4 Ġji1Ġ
Ġjian4Ġli4Ġ leĠ
Ġ wu1Ġke4Ġlan2Ġ
ĠĠĠ chu2ĠleĠ
chao2 ĠdeĠ
tui1 Ġchu1ĠdeĠ
ruan3 Ġti3Ġ
1938 Ġnian2Ġ
Ġnian2Ġ qian2Ġ
gan3Ġ lan3
tui1Ġ guang3Ġ
Ġ you1Ġ
men2 ĠdeĠ
Ġshi2Ġ yong4Ġ
Ġ lv3
zhong1Ġ xin1Ġ
Ġ su2
shu4 Ġshi4Ġ
Ġjian4 Ġwei4Ġ
ba1Ġ la1Ġ
Ġchao2Ġ xian1Ġ
Ġ qing3
er ĠĠĠ
Ġer3 Ġde2
shuo4Ġshi4Ġ xue2Ġwei4Ġ
yun4 Ġhe2Ġ
yang2 Ġxian4Ġ
wei2Ġ zhi3Ġ
hua2Ġsheng4Ġ dun4
Ġ 11Ġ
zhi1 Ġyuan2Ġ
ge4 Ġdi4Ġ
bian1 Ġhao4Ġwei4Ġ
Ġzhi4Ġ zao4
Ġyi1Ġ tiao2Ġ
kai1Ġ zhan3Ġ
fa3Ġ ting2Ġ
Ġqiu2Ġ chang3Ġ
qun2Ġ ti3Ġ
leĠyi1Ġ xie1Ġ
Ġgong1Ġcheng2Ġ shi1Ġ
Ġtong1Ġ guo4
wu4 Ġzhong1Ġ
meng2 Ġjun1Ġ
1939 Ġnian2Ġ
luo2Ġ bo2Ġte4Ġ
zong3Ġ jian1Ġ
Ġzai4Ġdi4Ġ er4Ġ
ping2Ġjun1Ġ hai3Ġba2Ġgao1Ġdu4Ġwei4Ġ
Ġ man3
Ġ cheng2Ġshi4Ġ
ĠĠĠ jing1Ġji4Ġ
zhi2 Ġli4Ġ
Ġwei4Ġ ming2Ġ
Ġwei4Ġyu2Ġ zhong1Ġhua2Ġren2Ġmin2Ġgong4Ġhe2Ġguo2Ġ
li2Ġ ziĠ
Ġren2Ġmin2Ġ bi4Ġ
du1Ġ du1Ġ
5 Ġmi3Ġ
1965 Ġnian2Ġ
Ġxi1Ġ yin3Ġ
ben3Ġ tu3Ġ
jian3Ġ dan1Ġ
deng1Ġ chang2Ġ
Ġ wu1
yang2 Ġgong1Ġ
1936 Ġnian2Ġ
Ġyou3Ġ li4Ġ
Ġta1Ġ ye3
Ġer2Ġgai1Ġdi4ĠdeĠ ping2Ġjun1Ġhai3Ġba2Ġgao1Ġdu4Ġwei4Ġ
a1 Ġer3
shi1 Ġren2Ġ
qi3 ĠleĠ
feng1 ĠdeĠ
ni2 Ġxi1Ġya4Ġ
cu4 Ġjin4
han3 Ġmo4
1959 Ġnian2Ġ
Ġzai4Ġ ri4Ġben3Ġ
gong1Ġ kai1Ġ
lu4Ġ zhan4Ġ
jie1Ġ shou1Ġ
ĠĠĠ tian1Ġ
li4 Ġzhong1Ġ
zu2 Ġqiu2Ġdui4Ġ
2010Ġnian2Ġ mei3Ġguo2Ġren2Ġkou3Ġpu3Ġcha2ĠdeĠshu4Ġju4Ġ
ji1 Ġshi4Ġ
chu1 Ġdao4Ġ
yan3 Ġchu1
ying4 Ġdui4Ġ
xue2Ġ xi2
Ġzhi1Ġ qian2
fa3Ġ lan2Ġ
yin3Ġzhong3Ġ zai1Ġpei2Ġ
Ġ sa4
Ġ yun2Ġnan2Ġ
lie4 Ġshi4Ġ
Ġda4Ġ qiao2Ġ
mian4Ġ lin2Ġ
xun2Ġ huan2Ġ
huan4Ġ zhe3Ġ
Ġ wan2Ġcheng2Ġ
chu1 Ġren4Ġ
bo Ġ
shuo1 Ġshi4Ġ
Ġji2Ġ shi3
ru4Ġ qin1
sheng3Ġ wei3Ġ
Ġxin1Ġ zeng1
zhuang1Ġ jia3
Ġzhi3 Ġchu1Ġ
shen3Ġ cha2Ġ
fei1Ġlv4Ġ bin1
ka3Ġluo2Ġ lai2Ġ
yuan2 Ġdi4Ġ
shen1 Ġshang4Ġ
1967 Ġnian2Ġ
1935 Ġnian2Ġ
km Ġ
Ġzai4Ġ bei3Ġ
wei2Ġ er3
Ġxi1Ġ xi1Ġ
hen3Ġ duo1
Ġ pai2Ġ
zheng3 Ġhe2Ġ
ji1Ġ bai3Ġ
Ġji1Ġ yin1Ġ
dong4Ġ hua4
zhang3Ġ yue1Ġ
suo3Ġ chu4ĠdeĠhai3Ġba2Ġwei4Ġgao1Ġyu2Ġhai3Ġping2Ġmian4Ġ
na4Ġ xie1Ġ
chuan2Ġ bo1
gang3Ġ kou3Ġ
zhan3Ġ kai1
you2Ġren2Ġgong1Ġ yin3Ġzhong3Ġzai1Ġpei2Ġ
Ġ pai4Ġ
Ġ zheng3Ġ
qing2 Ġxing2Ġ
tai1 Ġ
tong1Ġ xun4Ġ
qing2Ġ xu4Ġ
yong3Ġ jiu3Ġ
re4Ġdai4Ġ feng1Ġbao4Ġ
Ġ he4
Ġ xu3Ġ
Ġ shen4Ġ
ju1Ġmin2Ġ dian3Ġ
ji4 Ġji2Ġ
ci4 Ġwei4Ġ
Ġzhi1Ġ fu3Ġ
Ġshe4Ġ hui4
Ġhan4Ġ zu2Ġ
ĠĠĠ 2017Ġnian2Ġ
yu3 Ġshi4Ġ
dong4 Ġgong1Ġ
lu3 Ġke4Ġ
Ġbu4Ġ jia1Ġ
Ġyi3Ġ shang4ĠdeĠ
Ġyu3Ġ ci3Ġtong2Ġshi2Ġ
mi3Ġ ya4Ġ
Ġzhu3Ġ chi2Ġ
Ġsui2Ġ zhe
fen1Ġbie2 Ġwei4Ġ
xin1Ġjia1Ġ po1Ġ
Ġ ou1Ġzhou1Ġ
si4 Ġming2Ġ
bing1 Ġbu4Ġ
guai4 Ġ
ĠdeĠyi1Ġ xie1Ġ
di3Ġ da2
Ġsu1Ġ lian2Ġ
liao3Ġ jie3
Ġ tuan2Ġ
zhi3 Ġyu2Ġ
gong3 Ġ
zu3Ġ cheng2
gao4Ġ su4Ġ
fa1Ġzhan3 ĠdeĠ
x ĠĠĠ
yi3 Ġhou4Ġ
dui4 Ġhe2Ġ
ge2 Ġli4Ġ
deng1 Ġji4Ġ
Ġsi1Ġ ka3Ġ
Ġwei2Ġ ya4Ġ
Ġzhong1Ġguo2Ġ da4Ġlu4ĠdeĠ
xia4Ġxia2Ġyi3Ġxia4 Ġdi4Ġqu1Ġ
chu1 Ġsheng1Ġ
liu2 ĠdeĠ
yan3 Ġsheng1Ġ
da4Ġ shi3Ġ
Ġxi1Ġ an1Ġ
ju4Ġ qing2Ġ
zi1Ġ zhu4Ġ
fei1Ġ fa3Ġ
ce4Ġ liang2
Ġjiao4Ġ shou4Ġ
chuang4Ġ ban4Ġ
ĠĠĠ ji4Ġ
bai2 Ġzhi4Ġ
Ġzhi4Ġ liao2
shou3Ġ xi2Ġ
jie4Ġ shao4
zhuang4Ġ kuang4
Ġbi4Ġ ye4Ġyu2Ġ
Ġao4 Ġda4Ġli4Ġ
xun2Ġyang2 Ġjian4Ġ
fen1 Ġzhi1Ġyi1Ġ
wen2Ġ hua4ĠdeĠ
gui1Ġ fan4Ġ
kong1 Ġjun1
shun4 Ġshi2Ġ
se ĠĠĠ
mao1 Ġ
1963 Ġnian2Ġ
Ġbu4Ġ bian4Ġ
Ġchu1Ġ xi2Ġ
tu2Ġ xiang4Ġ
wei1Ġ xian3Ġ
Ġzhe4 Ġbu4Ġ
Ġnian2Ġ7Ġyue4Ġ 1Ġri4Ġ
wen4Ġti2 ĠdeĠ
Ġjin4Ġshi4Ġ chu1Ġshen1Ġ
ĠĠĠ 2016Ġnian2Ġ
ce Ġ
Ġzhi4Ġ shao3
Ġxian4Ġ ru4Ġ
nan2Ġ fang1Ġ
Ġbei4Ġ qi2Ġ
Ġqi2Ġzhong1Ġ nan2Ġ
mao2Ġze2Ġ dong1Ġ
Ġ tang1
Ġ gai4Ġ
Ġ nĠ
yu4 Ġji4Ġ
zi Ġhe2Ġ
da2 Ġer3Ġ
lu3 Ġshi4Ġ
Ġbu4Ġ zhi4Ġ
Ġdi4Ġ si1Ġ
zi1Ġ sheng3Ġ
pin2Ġ lv4Ġ
Ġ ãĥ¼
ĠĠĠ 10Ġyue4Ġ
han3 Ġ
Ġzhong1Ġ zui4Ġ
Ġji4Ġ nian4
pan4Ġ jue2Ġ
gong4Ġchan3Ġ zhu3Ġyi4Ġ
Ġyi3Ġse4Ġ lie4
ĠĠĠ bei3Ġ
duo1 Ġge4
qu3 Ġjia1Ġ
liu3 Ġ
1953 Ġnian2Ġ
ju2Ġ ju2Ġzhang3Ġ
fan2 Ġzhi2Ġ
gan1Ġ su4Ġ
Ġ15 Ġ
Ġdan1Ġ ren4
zi4Ġxing2Ġ che1Ġ
Ġ 2005
miao2 Ġhui4Ġ
Ġyi1Ġ mei2Ġ
fen1Ġ lei4
Ġping2Ġ jia4Ġ
duo1Ġ yang4Ġ
Ġnan2Ġ bei3Ġ
shao4Ġ jiang4Ġ
fei1 Ġli4Ġ
Ġsi1Ġ xiang3Ġ
yan2Ġ zhong4
dang1Ġ ju2Ġ
Ġshi4Ġzhong1Ġ xin1Ġ
ĠĠĠ ling4Ġwai4Ġ
hou4 Ġshi4Ġ
zhu4 Ġdi4Ġ
yin3 Ġshi2Ġ
Ġshi4Ġ wu1Ġke4Ġlan2
zhu3Ġ chang3Ġ
an4Ġ zhao4Ġ
Ġgong1Ġzuo4 Ġshi4Ġ
can1Ġmou2 Ġzhang3Ġ
xiang4 Ġxi1Ġ
er4 Ġzhan4Ġ
xue1 Ġ
1969 Ġnian2Ġ
Ġcheng2Ġ shi4ĠdeĠ
Ġzhi1 Ġji4Ġ
Ġda4Ġ jia1Ġ
Ġming2Ġ cheng1
Ġtong2 Ġyi1Ġ
jiao1Ġ huan4Ġ
gai3Ġ shan4
Ġhe2Ġbing4 Ġwei4Ġ
Ġ 80
yu3 Ġyi3Ġ
ze2 Ġyou3Ġ
luo4 ĠdeĠ
ling2 ĠdeĠ
ke1Ġ fu1
dang1Ġ xuan3
Ġgong1Ġkai1Ġ sai4Ġ
hong1Ġ zha4Ġ
ĠĠĠ zhu4Ġ
Ġfen1Ġbie2 Ġwei4Ġ
Ġ ji3
Ġ chun1Ġ
zhe4 Ġbu4Ġ
bao3 Ġzheng4Ġ
1941 Ġnian2Ġ
Ġyu2Ġ di4Ġ
ru4Ġ xuan3
shang1Ġ wang2Ġ
bian1Ġ jing4Ġ
ai1Ġ na4Ġ
ci4 Ġda4Ġ
shen1Ġ zhen4
chu1Ġ sheng1Ġyu2Ġ
sui4 Ġshi2Ġ
Ġdi4Ġ guo2ĠdeĠ
bao3Ġ cun2Ġ
bao4Ġ zhi3Ġ
gai3Ġ bian1Ġ
guang3Ġ gao4
zeng1Ġ qiang2Ġ
ch Ġ
qun2 ĠdeĠ
Ġzai4Ġ ji1Ġ
Ġjian4 Ġhe2Ġ
ji1 Ġbu4Ġ
zhi1 Ġming2Ġ
ru4 ĠdeĠ
guo2Ġ nei4Ġ
Ġgong1Ġ zhan4Ġ
Ġyi3Ġ nan2Ġ
xian4Ġ fa3Ġ
zi3Ġ nv3Ġ
wu2Ġren2Ġ ji1Ġ
chui2 Ġ
chuan4 Ġ
Ġxing2Ġ cheng2ĠdeĠ
qu1Ġ fen1Ġ
ba1Ġ fa2
ban4Ġ yan3Ġ
Ġ 1998Ġnian2Ġ
ci3 Ġzhi1Ġwai4Ġ
si1Ġ xiang3Ġ
Ġda4Ġ shi1Ġ
Ġchu1Ġxian4Ġ leĠ
miao2Ġ shu4
ĠdeĠming2Ġ zi4Ġ
wai4 Ġwei2Ġ
bai3 Ġnian2Ġ
Ġdan4 Ġyin1Ġ
sha1Ġ hai4Ġ
Ġ xia2Ġ
xia4 ĠdeĠyi2Ġge4Ġ
huo4 Ġshi4Ġ
Ġda4Ġ zhong4Ġ
shou4Ġ hai4Ġ
ying1Ġ guo2ĠdeĠ
Ġfen1Ġbie2 Ġshi4Ġ
zhi3Ġhui1Ġ guan1Ġ
Ġ Re
Ġ bu3Ġ
wen2 Ġzhong1Ġ
bo1 Ġer3Ġ
Ġyue4Ġ tai2
Ġnan2Ġ jing1Ġ
bing4Ġ mei2Ġyou3Ġ
jiao4Ġyu4 Ġbu4Ġ
Ġ re4Ġ
gong4 Ġshi2Ġ
Ġwei4Ġ you2Ġ
fa3Ġ ling4Ġ
mian4Ġ ti3Ġ
cai2Ġ wu4Ġ
yan2Ġjiu1Ġ yuan4Ġ
ban4 Ġnian2Ġ
Ġyuan2Ġ shi3Ġ
Ġer3 Ġzai4Ġ
jing3Ġ guan1Ġ
Ġ niu3Ġyue1
ceng2 Ġshi4Ġ
nuo4 Ġsi1Ġ
1980 Ġnian2Ġdai4Ġ
ĠdeĠ xiao3Ġ
Ġsheng1Ġzhang3Ġyu2Ġ hai3Ġba2
Ġ nei4
Ġ gai3Ġwei2Ġ
ma3Ġ tou2Ġ
zhan3Ġ lan3
ĠĠĠ 2006
sheng4 Ġdi4Ġ
Ġdao4 Ġshi4Ġ
Ġda4Ġ xing2
jing1Ġ ying2
Ġ pian4Ġ
Ġ yan4Ġ
Ġ piao4Ġ
Ġ pei2Ġ
ĠĠĠ TheĠĠĠ
gao1 Ġyuan2Ġ
cheng1 Ġhao4Ġ
tao2 Ġyuan2Ġ
Ġzai4Ġ ying1Ġguo2Ġ
hou4Ġ lai2Ġ
Ġzhe4Ġ yang4ĠdeĠ
pan4Ġ luan4Ġ
Ġ ning2Ġ
dian3 Ġwei4Ġ
Ġwei4Ġ bei4Ġ
Ġhe2Ġ fa3Ġ
Ġyi4Ġ si
Ġping2Ġ lun4
Ġshang4Ġ shu1Ġ
hang2Ġ ye4Ġ
Ġxin1 Ġjia1Ġ
Ġ 1990
ma3 ĠdeĠ
qing2Ġ jie2Ġ
Ġmu4Ġqian2Ġ shang4Ġwei4Ġ
i ĠĠĠ
Ġ 2000
tu1 Ġchu1Ġ
Ġdao4 Ġbu4Ġ
ping2Ġ min2Ġ
guan1Ġ fei4Ġyan2Ġ
Ġmi3 ĠdeĠdi4Ġqu1Ġ
Ġ kong1Ġ
ĠĠĠ 16
shang4 Ġyi1Ġ
Ġyi4Ġ ming2Ġ
Ġyi3 Ġshi4Ġ
Ġzuo4Ġ chu1
Ġxian4ĠdeĠyi2Ġge4Ġ fei1Ġjian4Ġzhi4Ġdi4Ġqu1Ġ
ai4 Ġguo2Ġ
1961 Ġnian2Ġ
Ġyi4Ġ ji2Ġ
tian1Ġ huang2Ġ
fang2Ġ zhi3Ġ
dou4Ġ zheng1Ġ
wu4Ġzhong3 ĠdeĠ
Ġ 20Ġ
Ġhe2Ġ ta1ĠdeĠ
jing1Ġ guo4
jiao4Ġ shou4
luo2 Ġji2Ġ
hong2 Ġjun1Ġ
ka1 Ġfei1Ġ
1957 Ġnian2Ġ
Ġyu3Ġ da4Ġ
Ġren4Ġ ming4
shi3Ġyong4Ġ leĠ
sai1Ġ na4Ġ
lai2 Ġsi1Ġ
hao3 Ġyou3Ġ
31 Ġ
Ġzhong1Ġgong4 Ġzhong1Ġyang1
mian4 Ġshi4Ġ
chou2 Ġbei4Ġ
zuo4Ġ chu1
chang2Ġ qi1
ling3Ġ yu4
yuan2 Ġzhong1Ġ
tian1 Ġjia1Ġ
Ġyuan2Ġ ze2Ġ
dong1Ġ ni2Ġ
xiang3Ġ fa3Ġ
pin3Ġ pai2
ming4Ġ ling4
ni2 ĠdeĠ
Ġzhi1Ġ chu4Ġ
dai4Ġ lai2Ġ
Ġdang1Ġ xuan3
Ġ min2
fu2 Ġer3Ġ
ding4 Ġzai4Ġ
hang2 Ġxian4Ġ
Ġji1Ġ du1Ġjiao4Ġ
Ġtong2 Ġri4Ġ
Ġxing2Ġzheng4Ġ zhen4Ġqu1Ġ
Ġ yao2Ġ
ĠĠĠ 2021Ġnian2Ġ
ĠdeĠ li3Ġ
ĠdeĠ xi1Ġ
Ġshi4Ġ nan2Ġji2Ġzhou1ĠdeĠ
Ġhe2Ġ dao4
Ġ wei2
Ġ tun2
Ġ 1999Ġnian2Ġ
ĠĠĠ sui2Ġ
heng1 Ġ
Ġwei4Ġ qi2Ġ
Ġshi2Ġ dai4ĠdeĠ
Ġzuo4Ġ biao1Ġwei4Ġ
xing4Ġ bie2Ġ
chang2Ġ jiang1Ġ
Ġ niu2Ġ
1944 Ġnian2Ġ
Ġbu4Ġ de2Ġ
li4Ġ yong4Ġ
qi4Ġ ti3Ġ
chan3Ġ ye4
Ġzui4 Ġchu1
Ġdi4Ġer4Ġ ci4Ġ
ao4Ġsi1Ġ ka3Ġ
Ġ chao1
Ġ Ch
ĠĠĠ zhan4Ġ
hui4 Ġji2Ġ
zuo4 Ġzhong1Ġ
pin3 Ġzhi4Ġ
bin1 Ġshi4Ġ
Ġgong1Ġ jin1Ġ
shi1Ġ bai4
fu2Ġ hao4Ġ
Ġ chu4Ġ
ĠĠĠ zhu3Ġyao4Ġ
ge1 Ġer3Ġ
cheng1Ġ wei2
she4Ġhui4Ġ zhu3Ġyi4Ġ
dang4Ġ an4Ġ
ying2Ġde2Ġ leĠ
Ġgong1Ġ zuo4ĠdeĠ
chang3Ġ jing3Ġ
Ġzhe4Ġ ci4Ġ
Ġnian2Ġ12Ġyue4Ġ 31Ġri4Ġ
Ġ fa1
ĠĠĠ er2
zhan4 Ġzhi4Ġ
zhan4 Ġji4Ġ
jie1 Ġjin4
wu3 Ġming2Ġ
chang3 Ġshang4Ġ
di3 Ġzhi4Ġ
Ġyu3Ġ zhou4
shang1Ġ dian4Ġ
xiu1Ġ gai3
Ġceng2 Ġzai4Ġ
Ġsan1 Ġshi2Ġ
niao3Ġ lei4Ġ
lei4Ġsi4 Ġyu2Ġ
dong1 Ġxian4Ġ
Ġbu4Ġ er3
Ġzhi4Ġ ding4Ġ
jing1Ġji4Ġ xue2Ġ
Ġ zhu3
Ġ shou4Ġdao4Ġ
Ġ xiong2Ġ
ĠĠĠ dui4Ġyu2Ġ
zhong1 Ġshi4Ġji4Ġ
yu4 Ġdao4Ġ
dong4 Ġyuan2Ġ
kuo4 Ġzhang1Ġ
nan4 Ġmin2Ġ
Ġming2Ġ zi4Ġ
jie1Ġ chu4
ren2Ġmin2Ġ dai4Ġbiao3Ġda4Ġhui4Ġ
fen1 Ġcheng2Ġ
Ġji1Ġ xie4Ġ
lie4Ġ ru4
yan2Ġjiu1 Ġsuo3
jiang1Ġsu1Ġ sheng3Ġ
fu2 Ġde2Ġ
yin3 Ġli4Ġ
Ġxian4Ġ dai4
gan3Ġ ran3
jiang3 ĠdeĠ
Ġzhong1Ġ shu1Ġ
Ġta1Ġ shuo1Ġ
zhong4Ġ zhi2Ġ
Ġ 1Ġyue4Ġ
Ġ xiong1Ġ
hou4Ġ xuan3Ġren2Ġ
yan2Ġ shen1Ġ
Ġdan4 Ġbu4Ġ
Ġwei2Ġ zhi3Ġ
zhu1Ġ long2Ġ
mu4Ġsi1Ġ lin2Ġ
Ġ 23
Ġ 36
ĠĠĠ ke4Ġ
fang1 Ġcheng2Ġ
che1 Ġdao4Ġ
su1 Ġli3Ġ
gua1 Ġ
sheng1Ġ ming2Ġ
geng4Ġ duo1
hai4Ġ e2
Ġtai4Ġ yang2Ġ
zu1 Ġjie4Ġ
chen4 Ġ
Ġjia1Ġ jing4Ġ
ju4Ġ feng1Ġ
zhu4Ġ ce4Ġ
Ġyou2Ġ yong3Ġ
deng3Ġ zhi2Ġ
ban1Ġ fa1Ġ
Ġbing4Ġqie3 Ġzai4Ġ
Ġ X
ren2 Ġwei4Ġ
dui4 Ġyou3Ġ
ti3 Ġxing2Ġ
nu2 Ġ
ye1 Ġsu1
1951 Ġnian2Ġ
Ġji1Ġ chu3Ġ
Ġchu1Ġ shen1Ġ
bao3Ġ cun2
gong4Ġhe2Ġ guo2ĠdeĠ
Ġwei4Ġfu2Ġqi2Ġyu2Ġ gang1
lang3 Ġde2Ġ
Ġchu1Ġ ru4Ġkou3Ġ
yan2Ġjiu1 Ġyuan2Ġ
xie2Ġ tiao2
Ġshi4Ġdi4Ġ yi1Ġ
Ġ hu4
Ġ JR
Ġ jiao3Ġ
ai4 Ġde2Ġhua2Ġ
ĠĠĠ 6Ġ
xian4 Ġshi2Ġ
qi3 ĠdeĠ
ban1 Ġbu4Ġ
hang2 Ġzhou1Ġ
jiao4Ġ zuo4Ġ
nv3Ġ yan3Ġyuan2Ġ
ling3Ġ xiu4
kao3Ġ gu3Ġ
mian4Ġji1 Ġhe2Ġ
zui4Ġzao3 ĠdeĠ
gui1Ġmo2 ĠdeĠ
Ġ wen1
di Ġ
shi3 Ġzhong1Ġ
qi4 Ġhe2Ġ
cheng1 Ġzhi1Ġwei4Ġ
pai2 Ġde2Ġzhu3Ġ
bing1 Ġli4Ġ
Ġjia1Ġ meng2Ġ
fen1Ġ qu1Ġ
tong1Ġ xin4Ġ
huo3Ġ ban4Ġ
che4Ġ di3Ġ
jin3Ġbiao1Ġ sai4
5 Ġge4Ġ
ĠĠĠ Ch
cheng2 Ġzai4Ġ
xi1 Ġyuan2Ġ
quan2 Ġxian4Ġ
bai4 Ġzhan4Ġ
reng2 Ġyou3Ġ
Ġcheng2Ġ xu4
Ġjian4 Ġyou3Ġ
shou3Ġ duan4Ġ
quan2 Ġqiu2
Ġzhong1Ġ fa1Ġxian4Ġ
zu2Ġ xie2Ġ
mian3Ġ dian1Ġ
zu2 Ġren2Ġ
zao1 Ġshou4Ġ
shou3Ġ fu3Ġ
ma3Ġ lai2Ġ
Ġzhong1Ġguo2Ġ gong4Ġchan3Ġdang3
jiang1 Ġshi4Ġ
ju2 Ġyu2Ġ
Ġhe2Ġ lan2
Ġgai1Ġ di4ĠdeĠ
Ġgong1Ġyuan2Ġ qian2Ġ
Ġdi4Ġshi2Ġ yi1Ġ
Ġ qiu1
ĠĠĠ fu2Ġ
ĠĠĠ 2015Ġnian2Ġ
yi3 Ġshang4Ġ
han4 Ġyu3Ġ
ar Ġ
1930 Ġnian2Ġ
Ġwei4Ġ zhong1Ġguo2Ġ
fen1Ġ li2Ġ
Ġqiu2Ġ yun4Ġdong4Ġyuan2Ġ
ai4Ġ qing2Ġ
tui4Ġ xiu1
Ġling4 Ġyi4Ġfang1Ġmian4Ġ
Ġbu4Ġde2 Ġbu4Ġ
Ġmu4Ġqian2Ġshang4Ġwei4Ġ you2Ġren2Ġgong1Ġyin3Ġzhong3Ġzai1Ġpei2Ġ
Ġ tou4Ġguo4Ġ
ĠĠĠ Co
jian1 Ġzhi4Ġ
hua2 Ġda4Ġxue2Ġ
jiao1Ġ cha1Ġ
cai2Ġ chan3Ġ
wu4Ġli3Ġ xue2Ġ
fen1 Ġwei4Ġ
tou2 ĠdeĠ
us Ġ
1940 Ġnian2Ġ
Ġzhe4Ġ ye3Ġshi4Ġ
bao4Ġ zha4
gan3Ġ jue2Ġ
Ġfen1 Ġwei2Ġ
ĠĠĠ 6
ĠĠĠ 4Ġyue4Ġ
da2 ĠdeĠ
wang3 ĠdeĠ
mou2 Ġsha1Ġ
Ġzai4Ġ gong1Ġ
Ġjian4Ġ zao4
Ġyin1 ĠdeĠ
dao3Ġ yan3
Ġxi1Ġban1Ġya2 Ġyu3Ġ
an4 Ġzhong1Ġ
yuan2 Ġshi2Ġ
fa3 Ġshi4Ġ
jin1 Ġri4Ġ
lin2 Ġsi1Ġ
ck Ġ
1931 Ġnian2Ġ
xue2Ġ sheng1
ka3Ġluo2Ġlai2Ġ na4
Ġ yao1Ġqiu2
Ġji2Ġ yi1Ġ
Ġchu1 Ġyi1Ġ
Ġsui2Ġ zheĠ
Ġ ren4Ġhe2Ġ
ji4 Ġyu2Ġ
te4 Ġhe2Ġ
rang4 Ġta1Ġ
32 Ġ
II Ġ
zhong1Ġ bu4Ġ
Ġda4Ġ yue1
sheng1Ġ tai4Ġ
wei3Ġyuan2Ġ hui4ĠdeĠ
Ġwen2Ġ hua4
Ġdang1Ġ xuan3Ġ
ĠD Ġ
Ġzhi4Ġzuo4 Ġren2Ġ
xia4Ġxia2ĠdeĠyi2Ġge4Ġ xiang1Ġ
Ġ Ï
Ġ 2025
nan2 Ġsi1Ġla1Ġ
tai4 Ġhou4Ġ
gan4 Ġxian4Ġ
Ġshi4Ġ nan2Ġ
zu2Ġ zi4Ġzhi4Ġ
xu4Ġ shu4Ġ
zi Ġgong1Ġsi1Ġ
Ġyue4Ġ tuan2
Ġyi4Ġ dian3Ġ
dui4Ġ wai4Ġ
Ġhui4Ġ bei4Ġ
yan2Ġ chang2
qi3Ġ su4Ġ
zhong4Ġ dian3
shui3Ġ ku4Ġ
Ġma3Ġlai2 Ġxi1Ġya4Ġ
Ġ feng1
Ġ 34
te4 Ġji2Ġ
han4 Ġzi4Ġ
Ġshi4Ġ xiang1Ġgang3Ġ
shen1Ġ zhen4Ġ
ti2Ġ gong1ĠdeĠ
Ġ biao3Ġ
mu4 Ġshi4Ġ
ta Ġ
Ġzai4Ġ nan2Ġ
Ġhe2Ġ tong2Ġ
shang4Ġ shu4Ġ
wu3Ġ han4
qian1Ġ shu3
ĠĠĠge4Ġren2Ġ sheng1Ġhuo2Ġ
Ġ kang1Ġxi1Ġ
jin4 Ġji2Ġ
fu4 Ġzhi4Ġ
cu1 Ġ
Ġshi4Ġ ge4Ġ
ding4Ġ qi1Ġ
san1Ġ ci4Ġ
gai3Ġ wei2
Ġha1 Ġer3Ġ
Ġji4Ġsuan4 Ġji1Ġ
Ġ à¸
ĠĠĠ 7Ġyue4Ġ
zhan4 Ġwei4Ġ
ru4 Ġwei2Ġ
qi4 Ġren2Ġ
xie2 Ġdai4Ġ
wo4 Ġer3Ġ
tan4 Ġsuo3Ġ
codice Ġ
bo1Ġ fang4
miao2Ġ shu4Ġwei4Ġ
Ġ du4
Ġ di2
Ġ fan3Ġdui4Ġ
ĠĠĠ dong1Ġ
fu4 Ġyou3Ġ
mei3 Ġri4Ġ
xiu1 Ġsi1Ġ
sao3 Ġ
Ġcheng2Ġ bao3Ġ
dui4Ġ xiang4Ġ
Ġge4Ġ zi4Ġ
ĠdeĠji1Ġ hui4Ġ
ĠĠĠ zhi4Ġzuo4Ġ
shi1 Ġhe2Ġ
ren3 Ġ
ben1 Ġ
Ġyuan2Ġ you3Ġ
Ġge4 Ġda4Ġ
Ġke4 Ġli3Ġsi1Ġ
dong4Ġ che1Ġ
tai2Ġ bi4Ġ
zhu3Ġchi2 Ġren2Ġ
shu4 Ġhe2Ġ
jue2 ĠleĠ
zhuan3 Ġwei2Ġ
Ġbu4Ġ zheng4Ġ
Ġguo2Ġ gong1Ġ
Ġli4Ġ ke4Ġ
Ġgong1Ġ kai1
lu4Ġ shang4Ġ
ban1Ġ ci4Ġ
mo4Ġsi1Ġ ke1
fu1 Ġfu4Ġ
zhuang4 Ġbing4Ġdu2
th ĠĠĠ
du3 Ġ
1942 Ġnian2Ġ
min2Ġ jin4Ġ
ĠĠĠ 2020Ġnian2Ġ
qi2 Ġshi4Ġ
shou3 Ġbu4Ġ
na4 Ġsi1Ġ
hang2 Ġzhan4Ġ
1933 Ġnian2Ġ
jian4Ġ zao4Ġ
tai2Ġwan1 ĠdeĠ
pi1Ġ ping2
Ġ 90
Ġ gu4Ġshi4Ġ
an1 Ġren2Ġ
ĠĠĠ xiang1Ġgang3Ġ
jing1 ĠdeĠ
1928 Ġnian2Ġ
Ġzhong1Ġ zhi3Ġ
zheng4Ġ quan2Ġ
qu1Ġ jian1Ġ
Ġcheng2Ġ wei2Ġyi1Ġ
Ġyou3Ġyi1Ġ xie1Ġ
kuo4Ġ zhan3Ġ
jiu4Ġdu2 Ġyu2Ġ
dong1 ĠdeĠ
ba1Ġ nen4
Ġxiang1Ġ dang1Ġ
fan4Ġ wei2
Ġguo2Ġmin2Ġ dang3Ġ
Ġ ta3
Ġ cai3Ġ
ĠĠĠ 2014Ġnian2Ġ
bei4 Ġshi4Ġ
ke1 Ġer3Ġ
wu2 Ġer3Ġ
Ġnian2 Ġnian2Ġ
kai1Ġ mu4Ġ
min2Ġ zhu3
zhe4Ġ zhong3
Ġzhan4Ġ ling3Ġ
tian1Ġ tang2Ġ
yi2Ġ min2
ce4Ġ lve4Ġ
jiang3Ġ zui4Ġjia1Ġ
du2Ġ te4ĠdeĠ
qiu2Ġ dui4
zuo3Ġ you4
ĠĠĠ X
ĠĠĠ s
ĠĠĠ la1Ġ
xian4 Ġxiang4Ġ
jiu1 Ġ
Ġhui4Ġ shang4Ġ
feng1Ġ ge2
tong2Ġ yang4
Ġna4Ġ me
huo2Ġdong4 ĠdeĠ
Ġ ci2
Ġ pi2
ĠĠĠ 4Ġ
yin4 Ġxiang4Ġ
Ġming2Ġ xing1Ġ
dian4Ġ che1Ġ
Ġqian2Ġ long2Ġ
Ġ 38
Ġ gong1Ġbu4Ġ
Ġ shan3Ġxi1Ġ
ĠĠĠ 2010Ġnian2Ġ
shu1 Ġshi4Ġ
Ġzai4Ġ yuan2Ġ
Ġdi4Ġ 2Ġ
Ġri4Ġ qi1Ġ
nei4Ġ meng2Ġgu3Ġ
zhao4Ġ pian1
xie2Ġ shang1Ġ
Ġ hua1
Ġ 55
Ġdi4Ġ ba1Ġ
Ġji2Ġ yi3Ġ
Ġguo2Ġ yu3Ġ
fu3Ġ zhu4Ġ
gui1Ġ hua4
ling3Ġ xian1Ġ
ĠĠĠ Mo
ĠĠĠ 8Ġyue4Ġ
ĠĠĠ sui1Ġran2Ġ
pin3 ĠdeĠ
Ġzhou1 Ġren2Ġ
xi4Ġ lie4ĠdeĠ
Ġ lao2Ġ
chuan1 Ġyue4Ġ
Ġqi2Ġ bing1Ġ
jin4Ġ zhi3Ġ
Ġ lu2
Ġ 75
Ġ yan2Ġjiu1Ġ
Ġ ou1Ġyuan2Ġ
e4 Ġer3Ġ
lu4 Ġyu3Ġ
duo1 Ġming2Ġ
ju1 Ġyu2Ġ
da4Ġ xue2
Ġri4 Ġyi4Ġ
xi1Ġ wang4Ġ
sheng1Ġ ming4Ġ
you2Ġ tai4Ġ
te4Ġ qu1Ġ
Ġbing4Ġ biao3Ġshi4Ġ
zui4Ġ duo1ĠdeĠ
Ġte4Ġ bie2Ġ
jiao4Ġ ke1Ġ
Ġhe2Ġliu2Ġ yu4Ġ
ĠĠĠ De
cheng2 Ġshi2Ġ
ge2 Ġsi1Ġ
Ġshi4Ġ yuan2Ġ
ju4Ġ da4ĠdeĠ
bao3Ġ zhang4
jie1Ġwei4Ġ zhi1Ġ
Ġshi4Ġyi2Ġge4 Ġwei4Ġyu2Ġmei3Ġguo2Ġ
mian4Ġji1Ġhe2Ġ ren2Ġkou3Ġ
ĠĠĠ 10
20 Ġnian2Ġ
fang1 Ġwei4Ġ
ci3 Ġshi4Ġ
1943 Ġnian2Ġ
Ġta1Ġ jiang1Ġ
zong3Ġ jing1Ġli3Ġ
ka3Ġ la1Ġ
Ġtong2Ġshi2Ġ ye3Ġ
mi2Ġ ni3Ġ
Ġzhan4 Ġdi4Ġ
cui1Ġ hui3
Ġ nong2Ġ
Ġ dou1Ġshi4Ġ
xiang1 ĠdeĠ
bian1 Ġcheng2Ġ
jia3 Ġji1Ġ
re Ġ
shang4Ġ xia4Ġ
zhu4Ġ zhai2
fen1Ġ lan2Ġ
ban4Ġ yan3
ting2Ġ kao4
ĠĠĠ mu4Ġqian2Ġ
bo1 Ġli4Ġ
nu2 Ġli4Ġ
Ġchu1Ġ ren4
Ġjun1Ġ guan1Ġ
huang2Ġ jin1
Ġqi2Ġzhong1Ġ you3Ġ
Ġyin1Ġci3 Ġzai4Ġ
hang2Ġkong1 Ġgong1Ġsi1Ġ
Ġgai1Ġdi4ĠdeĠ mian4Ġji1Ġhe2Ġren2Ġkou3Ġ
Ġgai1Ġdi4ĠdeĠmian4Ġji1Ġhe2Ġren2Ġkou3Ġ jie1Ġwei4Ġzhi1Ġ
Ġ cun1Ġ
Ġ yuan3Ġ
Ġ cai4Ġ
yue4 Ġhe2Ġ
qu1 Ġji2Ġ
wang2 Ġhou4Ġ
chai2 Ġ
run4 Ġ
bian1Ġ ma3Ġ
han4Ġ lin2Ġ
Ġzhi4Ġli4Ġ yu2Ġ
yi2 Ġji4Ġ
dai4Ġ bu3Ġ
gao1Ġ deng3
jian4Ġ kang1Ġ
Ġ ma
zu2 Ġyi3Ġ
1912 Ġnian2Ġ
Ġshi2Ġ yue4Ġ
Ġyi1Ġ tian1Ġ
he4Ġ se4Ġ
Ġ huai2
Ġ meng4Ġ
fu4 Ġyu3Ġ
dan1 Ġxin1Ġ
ying1 Ġjun1Ġ
bi3 Ġer3Ġ
guo2Ġ fang2
Ġchu1 Ġxian4
Ġjia1Ġ ru4ĠleĠ
hui4Ġyi4Ġ shang4Ġ
cun2Ġzai4Ġ yu2Ġ
dian3 Ġxing2ĠdeĠ
tang2 ĠdeĠ
biao1 Ġji4Ġ
Ġyi1Ġ chang2Ġ
Ġde2 Ġli4Ġ
Ġdai4Ġ lai2Ġ
Ġceng2Ġ jing1Ġ
ju4 Ġzhong1Ġ
san1 Ġwei4Ġ
jiu4 Ġyou3Ġ
ting1 ĠdeĠ
zhuang4 ĠdeĠ
ji4Ġ xu4
Ġke4Ġ luo2Ġ
Ġjin4 Ġji2Ġ
gao1Ġ jia4Ġ
ĠĠĠwei4Ġ leĠ
6 Ġge4Ġ
Ġ 22
Ġ 2004
Ġ Mar
ĠĠĠ 9Ġyue4Ġ
ĠĠĠ 2012Ġnian2Ġ
ĠĠĠ 2013Ġnian2Ġ
a1 Ġji1Ġ
xi4 Ġjun1Ġ
mu4 Ġzhi4Ġ
fu2 Ġshe4Ġ
Ġyi4Ġ wai4Ġ
Ġda4Ġ gui1Ġmo2Ġ
chan3Ġ sheng1
shang1Ġ pin3Ġ
Ġzhu3Ġ chi2
que4Ġ bao3Ġ
rui4Ġ dian3
Ġ ji1Ġyu2Ġ
bo1 Ġchu1
cha2 Ġli3Ġ
1929 Ġnian2Ġ
Ġshi3Ġ yong4
ĠdeĠji4Ġ hua4Ġ
Ġguo2Ġmin2Ġ dang3
ĠĠĠ 8
jian3 Ġli4Ġ
gei3 Ġta1Ġ
yi2Ġ zhi3
meng2Ġ te4Ġ
duan3Ġ zan4
Ġguo2Ġmin2Ġ zheng4Ġfu3Ġ
Ġzhu3Ġyao4 Ġshi4Ġ
Ġ shao4Ġ
zen3 Ġ
Ġhe2Ġ li4Ġ
Ġshi2Ġ jian1ĠdeĠ
lu4Ġ xu4Ġ
Ġxue2Ġ xi2
jue2Ġ sai4Ġzhong1Ġ
Ġfen1Ġ bu4Ġzai4Ġ
hei1Ġ long2Ġjiang1Ġ
Ġ 21
jia1 Ġshi4Ġ
ping2 Ġjun1
qian2 Ġzai4Ġ
duan4 Ġshi2Ġjian1Ġ
Ġyi3Ġ 1Ġ
Ġxi1Ġ li3Ġ
fa1Ġ hui1
Ġwei2Ġ qi2
dan1Ġ da3Ġ
Ġzhu3Ġ ren4Ġ
Ġ 70
Ġ ke3Ġneng2
diao4 Ġyu2Ġ
Ġchu1Ġ shou4Ġ
fa1Ġ yan2Ġren2Ġ
ting2Ġ yun4Ġ
ĠM Ġ
Ġ ken3Ġ
ĠĠĠ a
ĠĠĠ qi2Ġzhong1Ġ
fu2 Ġzhou1Ġ
1927 Ġnian2Ġ
guan1Ġ ce4
ta3Ġ ni2
chuang4Ġ shi3Ġren2Ġ
Ġ 1997Ġnian2Ġ
shu4 Ġren2Ġ
jue2 Ġyu2Ġ
xu4 Ġji2Ġ
chuan1 Ġguo4Ġ
fu4Ġ zhu3Ġxi2Ġ
Ġzhou1 Ġwei2Ġ
Ġzong3Ġ tong3Ġ
ĠdeĠyuan2Ġ yin1Ġ
Ġ kai1Ġfa1Ġ
Ġ hao2Ġ
zhong1 Ġhe2Ġ
wu4 Ġyu3Ġ
Ġguo2Ġ wang2
Ġzhi1Ġ cheng1Ġ
Ġdan4 Ġqi2Ġ
qun2Ġ zhong4Ġ
Ġshi4Ġjie4 ĠdeĠ
tan4Ġ xian3
ni2Ġya4 ĠdeĠ
ĠĠĠche1Ġzhan4Ġ jie2Ġgou4Ġ
Ġ jiang3
Ġ qin2
xing2 Ġxiang4Ġ
shi3 Ġdi4Ġ
suan4 Ġfa3Ġ
shu4Ġ mu4Ġ
Ġer2Ġ lai2Ġ
Ġfu4Ġ gai4Ġ
ban3Ġ ben3ĠdeĠ
que4Ġ ding4
gao4Ġ su4
Ġnian2Ġdai4 Ġchu1Ġ
ĠĠĠ can1Ġkao3Ġ
ci4 Ġji1Ġ
1932 Ġnian2Ġ
you3Ġ guan1Ġ
zhi2Ġ bo1Ġ
chuang4Ġ zuo4
Ġcheng2Ġli4Ġ leĠ
qu4Ġshi4Ġ hou4Ġ
ao4Ġda4Ġli4Ġ ya4
Ġ lan2
shen2 ĠdeĠ
chong2 Ġfu4Ġ
tui1 Ġxing2Ġ
duo3 Ġ
son Ġ
Ġshi4Ġ bei4Ġ
Ġdao4 Ġzhong1Ġ
hai3Ġ yang2
ying1Ġ chi3Ġ
ling3Ġ yu4ĠdeĠ
ĠdeĠdi4Ġ yi2Ġge4Ġ
shi1 Ġdi4Ġ
zhan3 Ġxian4Ġ
Ġyin1 Ġyuan2Ġ
Ġyin1 Ġqi2Ġ
fu2Ġ hua4Ġ
jing4Ġ nei4ĠdeĠ
ge1Ġ ci2Ġ
Ġlian2Ġ jie1Ġ
Ġlu4 Ġyi4Ġ
l ĠĠĠ
Ġ deng1
Ġ 46
yu4 Ġbei4Ġ
lie4 Ġsi1Ġ
du1 Ġhui4Ġ
xi1Ġ ya4Ġ
zui4Ġ zao3Ġ
wu3Ġ dao3Ġ
jing4Ġ wai4Ġ
Ġ zi3Ġ
ĠĠĠ 6Ġyue4Ġ
duo1 Ġyuan2Ġ
zhe3 Ġren4Ġwei2Ġ
song4 Ġdao4Ġ
Ġda4Ġ qiao2
Ġta1Ġ hai2
zhu4Ġ zhai2Ġ
e2Ġ hai4Ġe2
Ġlian2Ġ meng2Ġ
guo2Ġjia1Ġ dui4Ġ
zhe4Ġjiang1Ġ sheng3Ġ
Ġ si3Ġ
Ġ xuan2Ġ
zhi1 Ġdao4Ġ
xiang3 ĠdeĠ
Ġxing2 Ġyu2Ġ
Ġyi3Ġ lai2
Ġsheng1Ġ cheng1Ġ
shen1Ġ wang2Ġ
mi4Ġ qie4
fan3Ġ dui4
tan4Ġ ce4Ġ
ĠR Ġ
an1 Ġshi4Ġ
duan1 ĠdeĠ
Ġdi4Ġ zhong1Ġ
Ġren2Ġ ci4Ġ
Ġji2Ġ er3Ġ
jing1Ġ you2Ġ
ji3 Ġhe2Ġ
1934 Ġnian2Ġ
Ġyi1Ġ tong2
cai2Ġ zheng4
fang2Ġ jian1Ġ
man3Ġ zu2
Ġ 150
Ġ dou4Ġ
jin4 Ġxing2ĠdeĠ
Ġer3 Ġyu3Ġ
tuan2Ġ zhang3Ġ
pai2Ġhang2Ġ bang3
Ġ peng2Ġ
hou4 Ġbu4Ġjiu3Ġ
chu1 Ġzhan4Ġ
fu4 Ġbu4Ġzhang3Ġ
Ġli4Ġ shu3
la1Ġ te4Ġ
ba1Ġ le4
qiang2Ġ da4ĠdeĠ
Ġ zeng1Ġ
Ġ yi1Ġwei4Ġ
ĠĠĠ aĠĠĠ
wang3 Ġqiu2
kuo4 Ġjian4Ġ
cheng2Ġ ji4Ġ
Ġji2Ġ si1Ġ
Ġri4Ġ hou4Ġ
Ġjia1Ġ si1Ġ
Ġbing4 Ġyou3Ġ
chang3Ġ bi3Ġsai4Ġ
Ġ ya3
ĠĠĠ xiang1Ġ
zhan4 Ġzai4Ġ
Ġhe2Ġ dong1Ġ
yi1Ġ li4Ġ
ke1Ġ fu1Ġ
tou2Ġ xian2Ġ
Ġshou3Ġ ci4
Ġ dun1Ġ
ĠĠĠ gen1Ġju4
Ġxue2Ġ hui4Ġ
ĠĠĠ ci3
ĠĠĠ 2011Ġnian2Ġ
qi1 Ġshi4Ġ
fen1 ĠdeĠ
shuo1 ĠdeĠ
zhen1 Ġzheng4Ġ
Ġri4Ġ yu3Ġ
Ġqi2 Ġta1ĠdeĠ
zhi2Ġ wu4
chang2Ġ wei3Ġhui4Ġ
ban4Ġ dao3
hang2Ġ ban1Ġ
wan2Ġcheng2Ġ leĠ
an4 Ġshi4Ġ
ĠĠĠ ri4Ġben3Ġ
ĠĠĠ jian4Ġzhu4Ġ
di1 ĠdeĠ
za2 ĠdeĠ
1924 Ġnian2Ġ
Ġzhong1Ġ dui4Ġ
da4Ġ liang4Ġ
zhan4Ġ lve4Ġ
sai4Ġ guan4Ġjun1Ġ
shou1Ġ lu4
ĠP Ġ
Ġguan1 Ġzhi4Ġ
k ĠĠĠ
Ġ Q
ĠĠĠ 5
ding4 Ġli3Ġ
xiao4 Ġshe4Ġ
xie3 ĠleĠ
ce ĠĠĠ
Ġji2Ġ jiang1Ġ
pu3Ġ tong1
gui1Ġ ze2
Ġguo2Ġji4Ġ ji1Ġchang3Ġ
ĠĠĠgen1Ġju4Ġ 2010Ġnian2Ġmei3Ġguo2Ġren2Ġkou3Ġpu3Ġcha2ĠdeĠshu4Ġju4Ġ
Ġ ruan3
Ġ 2003
Ġ 180
ba1 Ġshi2Ġ
sheng3 Ġzheng4Ġfu3Ġ
bao3 Ġwei4Ġ
Ġzai4Ġ xian4Ġ
san1Ġ zhong3Ġ
che4Ġ tui4Ġ
ĠĠĠ gao1Ġ
ren4 Ġyi4Ġ
xiang2 Ġxi4Ġ
kua4 Ġ
chui2 Ġzhi2Ġ
Ġchu1 Ġxian4ĠdeĠ
xiao3Ġ zu3
ke1Ġ xue2
nuo4Ġ man4Ġ
Ġ wan3Ġ
Ġhe2Ġ ji1Ġ
Ġyi1Ġ zhong3
Ġxing2 Ġhe2Ġ
hu4Ġ dong4Ġ
da3Ġ suan4Ġ
chong2Ġ xin1
xue2Ġshi4Ġ xue2Ġwei4Ġ
Ġ miao3Ġ
bu4 Ġwei4Ġyu2Ġ
xiao4 Ġyou3Ġ
zhang1 ĠdeĠ
dou1 Ġbu4Ġ
zang4 Ġyu2Ġ
Ġhe2Ġnan2Ġ sheng3Ġ
han3Ġmo4 Ġde2Ġ
Ġ chuang4
Ġ hei1
ĠĠĠ fa3Ġguo2Ġ
a1 Ġli3Ġ
dang3 Ġji2Ġ
Ġxian4 Ġyu3Ġ
Ġyi1Ġ lang3
Ġxian4Ġ zai4ĠdeĠ
xiang1Ġ hu4Ġ
Ġke4Ġ sa4Ġsi1Ġ
chao2Ġ ting2Ġ
fang2Ġ kong1Ġ
Ġ qu3
Ġ zhao1Ġ
hou4 Ġta1Ġ
bai3 Ġwan4Ġ
ren2Ġ min2
yan2Ġ chang2Ġ
zi1Ġ xun4
you1Ġ xiu4Ġ
tan2Ġ pan4
Ġ ting1Ġ
a1 Ġfu4Ġ
zhen1 Ġyu3Ġ
Ġshi4Ġ dui4Ġ
Ġta1 Ġcheng2Ġwei2Ġ
Ġzhou1 Ġhe2Ġ
jie2Ġ du4Ġshi3Ġ
Ġren4Ġ zhi2Ġ
tian1Ġ qi4Ġ
Ġdang1 Ġnian2Ġ
ban4Ġ fa3Ġ
wu1Ġ ran3
liu2 Ġxue2Ġ
gai3 Ġming2Ġ
Ġzai4Ġ qi2
Ġbu4Ġ jin3
Ġda4Ġ cheng2Ġ
bao3Ġ zhang4Ġ
Ġquan2Ġ mian4Ġ
pan4Ġ chu3Ġ
Ġshi4Ġshi4Ġ jie4
mao4Ġ xian3Ġ
li3Ġshi4Ġ hui4Ġ
Ġren2Ġkou3 ĠdeĠ
tu2Ġshu1Ġ guan3
Ġ kuai4Ġ
Ġ gui4Ġ
er2 Ġtong2
zong3 Ġzhan4Ġ
su4 Ġshe4Ġ
chuan2 Ġqi2Ġ
qu4 ĠdeĠ
lian3 Ġ
Ġshi4Ġ zheng4Ġfu3Ġ
Ġsi1Ġ fa3Ġ
fa1Ġ bu4ĠdeĠ
Ġbing4Ġ jiang1
na4Ġ ru4Ġ
ke4Ġ yun4Ġ
qu3Ġde2Ġ leĠ
Ġ shuang1
ĠĠĠ tong2
ben3 Ġbu4Ġ
qian2 Ġxian4Ġ
can1 Ġyi4Ġyuan2Ġ
ci2 Ġhui4Ġ
xing3 Ġ
Ġzhi1 Ġbu4Ġ
hu2Ġ po1Ġ
ming4Ġ ming2ĠdeĠ
zhuan3Ġ yi2Ġ
Ġjiang1 Ġxi1Ġ
ren2Ġda4Ġ dai4Ġbiao3Ġ
ĠĠĠ chen2Ġ
qian1 Ġren2Ġ
liu4 Ġge4Ġ
fou3 Ġren4Ġ
ren4Ġ zhi2Ġ
min2Ġ zhong4
wai4Ġ guan1Ġ
bian1Ġ jie4
c ĠĠĠ
Ġ com
Ġ 1992Ġnian2Ġ
duo1 Ġbu4Ġ
san1 Ġyue4Ġ
dang4 Ġzuo4Ġ
Ġshi4Ġ yan4Ġ
fang1Ġ cheng2Ġshi4Ġ
dan1Ġ mai4
wang3Ġ wang3Ġ
deng1Ġ lu4
Ġri4Ġben3 ĠdeĠ
luo2Ġma3 Ġdi4Ġguo2Ġ
Ġxian4ĠdeĠyi2Ġge4 Ġxing2Ġzheng4Ġzhen4Ġqu1Ġ
ĠĠĠ 12
le Ġdi4Ġ
wei2 Ġren2Ġ
ying3 Ġdai4Ġ
Ġwei4Ġ wei4Ġ
Ġxiang1Ġ si4Ġ
yan3Ġ zou4
mi4Ġ du4Ġ
ren2Ġkou3Ġpu3Ġ cha2Ġ
Ġ wang1
Ġ yun4Ġ
kuang1 Ġ
Ġjian4 Ġzai4Ġ
Ġzhi1Ġ hou4Ġzai4Ġ
fa3Ġ guo2ĠdeĠ
liang4Ġ xiang4Ġ
ru2Ġ guo3
xing1Ġ xi4Ġ
shan1Ġxi1Ġ sheng3Ġ
Ġ 37
Ġ 1994Ġnian2Ġ
ĠĠĠ yan2Ġge2Ġ
jia3 Ġshe4Ġ
mian3 Ġyi4Ġ
Ġbei4Ġ jing3Ġ
Ġquan2 ĠdeĠ
hui2Ġ gui1
Ġtong2Ġshi2Ġ ye3Ġshi4Ġ
Ġqi1Ġ jian1
Ġda4 Ġbu4Ġfen4
Ġ sheng1
ĠĠĠ 2008Ġnian2Ġ
ĠĠĠ yi3Ġxia4Ġ
ti3 Ġji1Ġ
na4 Ġhe2Ġ
13 Ġnian2Ġ
Ġshi4Ġ zhi3
Ġyi3Ġ 2Ġ
zhe4Ġ yang4ĠdeĠ
gai3Ġ cheng1Ġ
Ġdong1Ġ bei3
Ġliu2Ġyu4Ġ mian4Ġji1Ġ
Ġ chong2Ġxin1Ġ
chuan2 Ġdi4Ġ
cun1 ĠdeĠ
ka1 Ġ
Ġxian4 Ġzhong1Ġ
Ġda4Ġ fu1Ġ
Ġdan4 ĠdeĠ
wei3Ġyuan2Ġhui4Ġ zhu3Ġxi2Ġ
Ġgen1Ġju4Ġ 2020Ġnian2Ġmei3Ġguo2Ġren2Ġkou3Ġpu3Ġcha2ĠdeĠshu4Ġju4Ġ
guang3Ġfan4 ĠdeĠ
you3 Ġhe2Ġ
li2 Ġshi4Ġ
chao2 Ġshi2Ġ
ju2 Ġshi4Ġ
zong3Ġ mian4Ġji1Ġ
Ġ heng1Ġli4Ġ
xin1 Ġxing2Ġ
zi3 Ġdan4Ġ
dang4 ĠdeĠ
xue2Ġ xi4Ġ
gai3Ġ zao4
Ġan1 Ġde2Ġ
Ġ yao4
Ġ qi4
Ġ 400
ĠĠĠ 18
zhen1 ĠdeĠ
21 Ġnian2Ġ
Ġzai4Ġ bei4Ġ
Ġcheng2Ġ li4ĠdeĠ
xi1Ġ yang2
Ġbing4Ġ fei1
Ġzi4Ġ mu3Ġ
Ġbi4Ġ xu1Ġ
hang2Ġkong1Ġ mu3
cui1Ġ hui3Ġ
fei1Ġlv4Ġ bin1Ġ
Ġ feng2
Ġ 39
Ġ fa1Ġbu4Ġ
kai1 Ġshe4
ge2 Ġli3Ġ
chang2 Ġbei4Ġ
jing3 Ġyuan2Ġ
qian3 Ġze2Ġ
CD Ġ
bu4Ġ tong2Ġ
Ġshi2Ġ ke4Ġ
yi4Ġ bai3Ġ
Ġji1Ġ xie4
dian4Ġ zi3
Ġ bu4Ġzai4Ġ
ĠĠĠ tai2Ġwan1Ġ
zhang3 Ġhe2Ġ
jiao1 ĠdeĠ
cha2 Ġer3Ġsi1Ġ
ji3 Ġnian2Ġ
Ġshi2Ġ you2Ġ
jiao1Ġ jie4Ġ
Ġ 300
Ġ chao1Ġ
fu2 Ġshi4Ġ
25 Ġnian2Ġ
ed ĠĠĠ
Ġxi1Ġ fang1Ġ
Ġqi2Ġ hou4Ġyu2Ġ
yi2Ġ du4
Ġ n
Ġ 19Ġ
Ġ 1996Ġnian2Ġ
gen1 Ġben3Ġ
pao3 Ġdao4Ġ
Ġzhong1Ġ qi1Ġ
Ġshi2Ġ li4Ġ
zheng4Ġ chang2Ġ
Ġzhi1Ġ shang4Ġ
bao3Ġ jia1
yi2Ġ ci4Ġshi4Ġjie4Ġda4Ġzhan4Ġ
shou1Ġ cang2
de2Ġ guo2ĠdeĠ
fu2Ġjian4Ġ sheng3Ġ
Ġ De
Ġ zao4Ġ
Ġ luo2Ġsi1Ġ
ĠĠĠ xiang1Ġgang3
te4 Ġzai4Ġ
bo1 Ġchu1ĠdeĠ
xing1 Ġjian4
Ġren2Ġ bei4Ġ
Ġge4 Ġbu4Ġ
qiang2Ġ diao4
hao4 ĠdeĠ
12 Ġnian2Ġ
ly ĠĠĠ
Ġyou3Ġ liang3Ġ
li3Ġ lan2Ġ
Ġzhou1 Ġli4Ġ
Ġdui4Ġ wai4Ġ
fen1Ġ pei4
jin1Ġ rong2
shou4Ġ huan1Ġ
xu4Ġ lie4Ġ
bu3Ġ chong1Ġ
Ġli4Ġshi3Ġ xue2Ġjia1Ġ
dian4Ġying3 ĠdeĠ
Ġmi3 Ġzhi4Ġ
Ġyi4Ġshu4 Ġjia1Ġ
ĠĠĠ liu2Ġ
san1 Ġbu4Ġ
si4 Ġyue4Ġ
shou3Ġ shu4Ġ
Ġdui4Ġ wu3Ġ
fen1Ġ lie4Ġ
jin1Ġ shan1Ġ
Ġxiang1Ġ bi3Ġ
qing2Ġ bao4
yin1Ġ su4Ġ
Ġguang1Ġ xu4Ġ
Ġ qu4Ġ
yan3Ġ jiang3Ġ
nv3Ġ hai2Ġ
gui1Ġ lei4
shang1Ġ chang3Ġ
24Ġ xiao3Ġshi2Ġ
fo2Ġ jiao4
Ġ hao3Ġ
sha1 ĠdeĠ
Ġhe2Ġ shang4Ġ
sheng1Ġ yin1Ġ
yan2Ġ lun4Ġ
Ġjin4 Ġer2Ġ
luo2Ġ la1Ġ
wei1Ġ xie2
sa4Ġ la1Ġ
Ġmian4Ġji1Ġ 0
gu3Ġlao3 ĠdeĠ
Ġ Co
Ġ zhuang4Ġ
ĠĠĠ 15
gu3 Ġji4Ġ
tao1 Ġ
Ġshi2Ġ da4Ġ
wang2Ġ zi3Ġ
shui3Ġ shen1Ġ
yi3Ġ se4Ġ
Ġjin1Ġ shu3Ġ
qiao2Ġ liang2Ġ
ge4Ġ zhong3
a1Ġer3Ġ bei1Ġsi1Ġ
zhong4Ġdian3Ġ wen2Ġwu4Ġbao3Ġhu4Ġdan1Ġwei4Ġ
jia1Ġli4Ġfu2Ġ ni2Ġya4Ġzhou1Ġ
di1Ġqi4Ġ ya1Ġ
dui4 Ġta1Ġ
26 Ġ
Ġshi4Ġ xi1Ġban1Ġya2Ġ
Ġhe2Ġ ji4Ġ
Ġbu4Ġ shi2Ġ
ren4Ġ ming4Ġ
Ġke3 Ġshi4Ġ
Ġ ou1
ch ĠĠĠ
lai2 Ġke4Ġ
fu2 Ġyin1Ġ
ya4 Ġsi1Ġ
Ġguo2Ġ shi2Ġ
Ġyi4Ġ da4Ġ
Ġyuan2Ġ ziĠ
xin1Ġ jiang1Ġ
qian2Ġ jin4Ġ
Ġshe4Ġ ying3Ġ
tu2Ġ sha1Ġ
kong1Ġ xi2Ġ
tan3Ġ ding1Ġ
kai1Ġfa1 ĠdeĠ
Ġ 2023Ġnian2Ġ
nv3 Ġren2Ġ
ju2 Ġbu4Ġ
27 Ġ
tion Ġ
Ġjun1Ġ tuan2Ġ
nv3Ġ zhu3Ġjue2Ġ
Ġjing3Ġ fang1Ġ
ĠĠĠ 2005
luo4 Ġke4Ġ
hui2 Ġjia1Ġ
shuo4 Ġ
Ġgong1Ġ gao4Ġ
Ġzhi1Ġ hou4ĠdeĠ
mo2Ġ te4
Ġshi4Ġyi1Ġ ke1
shou1Ġ ru4
guang3 Ġzhou1Ġshi4Ġ
zhi2Ġ sheng1Ġji1Ġ
fu2Ġ lei2
sai4Ġ che1Ġ
jing4Ġ tou2Ġ
cheng2Ġli4Ġ hou4Ġ
1970 Ġnian2Ġdai4Ġ
Ġshi4Ġ xing1Ġdeng3Ġwei4Ġ
pin1 Ġ
yi1Ġ yuan4Ġ
Ġyi3Ġ bei3Ġ
Ġxian4Ġ ming2Ġ
yan2Ġjiu1 Ġzhong1Ġxin1Ġ
Ġnian2Ġqing1 ĠdeĠ
di2Ġshi4Ġ ni2Ġ
Ġ peng2
Ġ Ð°
da4 Ġyu2Ġ
jie1 ĠdeĠ
zhuan1 Ġli4Ġ
zhuan3 Ġcheng2Ġ
Ġren2Ġ dui4Ġ
Ġguo2Ġ jun1Ġ
xuan3Ġ qu1
Ġxia4Ġ leĠ
pu3Ġ luo2Ġ
gong4 Ġji4Ġ
lun2 Ġsi1Ġ
shen2Ġ hua4Ġ
ĠĠĠ Pro
gao1 Ġdi4Ġ
wu3 Ġde2Ġ
luo4 Ġzai4Ġ
zhi4Ġ du4Ġ
yu3Ġ mao2
fang1Ġ xiang4ĠdeĠ
Ġzheng4Ġ quan2Ġ
yi2Ġ ding4ĠdeĠ
lan2Ġ se4Ġ
ying1Ġ xiong2
zhuan1Ġ men2
Ġtian1Ġ jin1Ġ
fa3Ġlan2Ġ xi1
Ġ ti2Ġchu1Ġ
19 Ġnian2Ġ
duo1 Ġli4Ġya4Ġ
jiu4 Ġzai4Ġ
ting2 ĠdeĠ
kuai4 ĠdeĠ
33 Ġ
Ġshi4Ġ ying1Ġguo2Ġ
Ġji2Ġ bing4
pei2Ġ xun4Ġ
gou4Ġmai3 Ġ
wan2Ġzheng3 ĠdeĠ
gong1 Ġhe2Ġ
rao4 Ġ
fei2 Ġte4Ġ
Ġming2Ġ xian3Ġ
dian4Ġying3Ġ jie2Ġ
zhi1 Ġjia1Ġ
jiu4 Ġbei4Ġ
gu3 ĠdeĠ
bian4 Ġshi4Ġ
wan4 Ġren2Ġ
gao4 Ġshi4Ġ
1925 Ġnian2Ġ
Ġxing2Ġ rong2
nei4Ġ rui4Ġ
tou2Ġ shou3Ġ
Ġshi4Ġshi2Ġ shang4Ġ
Ġ wo4Ġ
18 Ġnian2Ġ
1909 Ġnian2Ġ
zhi4Ġ zuo4
Ġji2Ġ xian4Ġ
Ġri4 Ġhe2Ġ
qu1Ġ zhu2
Ġjun1 Ġyou3Ġ
fu4Ġ shi3Ġ
ben3Ġ shen1Ġ
Ġzhou1Ġ qi1Ġ
Ġyou2Ġ xi4ĠdeĠ
mo2Ġ fa3Ġ
zhun3Ġ bei4
Ġ liang2
Ġ xiong1
da4 Ġhe2Ġ
Ġwei4Ġ li4Ġ
Ġshi2Ġ pin3Ġ
Ġbing4 Ġshi4Ġ
zhi3Ġ kong4
Ġtong2 Ġzhi4Ġ
qing1Ġ chu3Ġ
chan3Ġ wu4Ġ
zhuan4Ġ xie3Ġ
ri4Ġben3 ĠdeĠ
Ġ 2002
ĠĠĠ dao4Ġ
nan2 Ġren2Ġ
shui3 ĠdeĠ
wang3 Ġyou3Ġ
zheng1Ġ qu3Ġ
mei3Ġguo2Ġren2Ġkou3Ġpu3Ġ cha2Ġ
sai1Ġer3Ġwei2Ġ ya4Ġ
Ġ 1949
zhan4 Ġhe2Ġ
ke4 Ġsi1Ġ
ru4 Ġqiu2Ġ
bian4 ĠdeĠ
shui3 Ġhe2Ġ
wan3 Ġnian2Ġ
dan3 Ġ
ji4Ġ zai3Ġ
liu2Ġ liang4Ġ
Ġwei4Ġyu2Ġ yin2
an4Ġ zhao4
su1Ġ dan1Ġ
zhuan3Ġ huan4
Ġmei3 Ġzhou1Ġ
ke3Ġneng2Ġ xing4Ġ
shun4Ġ xu4Ġ
Ġlu2Ġ wa3Ġer3Ġsheng3Ġ
si4Ġchuan1Ġ sheng3Ġ
Ġxing2Ġ rong2Ġ
Ġbei4Ġ ren4Ġming4Ġwei4Ġ
zi1Ġ xun2Ġ
liang4Ġ zi3Ġ
Ġzhu3Ġ ti2Ġ
qiu2Ġ chang3Ġ
Ġshi4Ġjie4 Ġshang4Ġ
fang1 Ġzai4Ġ
chuan1 Ġxian4Ġ
Ġyu2Ġ tong2
Ġyu2Ġ shi2ĠdeĠren2Ġkou3Ġshu4Ġliang4Ġwei4Ġren2Ġ
Ġxing2 Ġren2Ġ
gu3Ġ dian3Ġ
zhuan3Ġ huan4Ġ
che4Ġ xiao1
ti3Ġyu4Ġ guan3Ġ
Ġ wen1Ġ
hua4 Ġshi4Ġ
tan2 Ġhe2Ġ
Ġshang4Ġ leĠ
Ġhuo4Ġ zhe3
jian3Ġ dan1ĠdeĠ
ying2Ġ yun4
dai4Ġbiao3Ġ tuan2Ġ
Ġwei4Ġyu2Ġgai1Ġguo2Ġ xi1Ġbu4Ġ
bao1Ġhan2 ĠleĠ
Ġ zong1Ġ
Ġ ka3Ġer3Ġ
ĠĠĠ hong2Ġ
ba1 Ġbu4Ġ
chi4 Ġjing1Ġ
Ġshi4Ġ ji4Ġzhong1Ġ
Ġyu2Ġ 2021
Ġli4Ġ tao2Ġ
Ġfei1Ġ lv4Ġ
Ġyuan2Ġzhu4Ġ min2Ġ
ma3 Ġli4Ġya4Ġ
bu3 Ġzhu4Ġ
bei4Ġ jing3
zheng1Ġ fu2Ġ
wei3Ġ tuo1Ġ
qu3Ġ mu4Ġ
ruan3Ġ tiao2Ġ
Ġyu4 Ġji4Ġ
Ġ Al
Ġ 1949Ġnian2Ġ
hao4 Ġwei4Ġ
pu3 Ġji2Ġ
Ġda4Ġ sai4Ġ
kai1Ġ zhan3
jiang1Ġ hu4
Ġxue2Ġ shu4Ġ
ling3Ġ tu3
tiao2Ġ wen2Ġ
Ġ pan1
ĠĠĠ you2Ġxi4Ġ
hou4 Ġyi3Ġ
in ĠĠĠ
zuo4Ġ zhe3Ġ
you2Ġ yong3Ġ
Ġde2Ġ wei2Ġ
tong1Ġ xun4
Ġtian1Ġ jin1
su1Ġwei2Ġ ai1
jian1 Ġwei4Ġ
ke3 Ġjian4Ġ
bo1 ĠdeĠ
du2 ĠdeĠ
ter Ġ
Ġta1 Ġren2Ġ
mei2Ġyou3Ġ ren4Ġhe2Ġ
yan2Ġshen1 Ġzhi4Ġ
Ġ 1995Ġnian2Ġ
zhong1 ĠdeĠyi1Ġ
pin2 Ġdao4
bei3Ġ bu4ĠdeĠ
jie1Ġ xia4Ġ
zhen4Ġ rong2Ġ
bing4Ġ ru4Ġ
zhu3Ġyao4 Ġshi4Ġ
Ġyou3Ġxian4 Ġgong1Ġsi1
ge1Ġlun2Ġ bi3Ġya4Ġ
Ġshi2Ġ er4Ġnian2Ġ
ji1Ġ guan1Ġ
kai1Ġ tong1
tai4Ġ shou3Ġ
dian4Ġshi4Ġ dong4Ġhua4Ġ
Ġzui4Ġ zao3
Ġchu2Ġ ci3Ġzhi1Ġwai4Ġ
qi2Ġzhong1Ġ yi1Ġ
jie4Ġquan2Ġguo2Ġ zheng4Ġxie2Ġ
bao4Ġfa1 Ġhou4Ġ
J Ġ
Ġ HR
Ġ lun2Ġ
Ġ ke1Ġxue2Ġ
shu4 Ġjia1Ġ
qu3 ĠdeĠ
or Ġ
or ĠĠĠ
pian4 Ġzhong1Ġ
jia3 Ġji2Ġ
Ġzai4Ġ xiang1Ġgang3Ġ
Ġshi2Ġ yi1Ġnian2Ġ
Ġji2Ġ wei2Ġ
Ġyi3Ġ bian4Ġ
wu3Ġ han4Ġ
si4Ġ hu1
ge1Ġ ge1Ġ
fan4Ġ zui4
Ġ ë
yuan2 Ġbu4Ġ
fen4 ĠdeĠ
mai3 Ġ
Ġzhong1Ġ xin1ĠdeĠ
Ġren2Ġ yu3Ġ
Ġda4Ġ xiao3Ġ
ge2Ġ la1Ġsi1Ġ
ĠĠĠ 7
ĠĠĠ ka3Ġ
30 Ġnian2Ġ
hu1 Ġxi1Ġ
35 Ġ
Ġda4Ġ li3Ġ
ju4Ġ li2
fa3Ġ lan2Ġke4Ġ
tong1Ġ wang3Ġ
ĠdeĠdi4Ġ san1Ġ
hen3Ġ da4ĠdeĠ
ĠE Ġ
Ġ fan2
Ġ 1993Ġnian2Ġ
ji4 Ġzhi4Ġ
che1 Ġxing2Ġ
jie4 Ġshi2Ġ
ha1 Ġli3Ġ
huo3 Ġli4Ġ
reng2 Ġwei4Ġ
kua4 Ġyue4Ġ
1923 Ġnian2Ġ
Ġshi4Ġ e2Ġluo2Ġsi1Ġ
lian2Ġ luo4Ġ
dong4Ġ wu4
shui3Ġ liang4Ġ
xie2Ġ tiao2Ġ
huo3Ġ che1Ġzhan4Ġ
nong2Ġ chang3Ġ
xuan1Ġ yan2Ġ
Ġchi4Ġ wei3Ġ
Ġ huan2
ĠĠĠ shang4Ġ
ĠĠĠ er4Ġ
ĠĠĠ jian3Ġli4Ġ
zhan4 Ġyou3Ġ
jie1 Ġshi4Ġ
cheng1 Ġshi4Ġ
gu3 Ġxi1Ġla4
geng4 Ġshi4Ġ
35 Ġnian2Ġ
yi4Ġ ming2Ġ
wu4Ġ pin3Ġ
duo1Ġ zhong3
Ġyou2Ġ tai4Ġ
hai3Ġ nan2Ġ
sheng3Ġ zhang3Ġ
huang2Ġ jin1Ġ
Ġxi4Ġ bao1Ġ
Ġxian4Ġshi2Ġ you2Ġ
ĠĠĠjin3Ġ guan3Ġ
Ġ lie4Ġche1Ġ
hai3 ĠdeĠ
tu1 Ġji1Ġ
Ġji2Ġ gong1Ġ
Ġyi3 Ġbu4Ġ
qu1Ġ nei4Ġ
qian2Ġ ting3
zhi2Ġ bang4
Ġjing1Ġ chang2Ġ
chuang4Ġ zao4
Ġ SAO
qi1 Ġzhi4Ġ
jun4 ĠdeĠ
Ġdao4Ġ da2
Ġde2 Ġdao4
Ġzhe4Ġ zuo4Ġ
ni2Ġ su1Ġ
mei3Ġ xiao3Ġshi2Ġ
zhou1Ġ bian1
Ġjian4Ġzhu4Ġ wu4Ġ
mao2Ġ dun4Ġ
ĠĠĠ 2022Ġnian2Ġ
xin1 Ġjian4Ġ
wan4 Ġli4Ġ
zao4 Ġxing2Ġ
22 Ġnian2Ġ
Ġde2 Ġjun1Ġ
shou1Ġ fei4Ġ
Ġzhe4 Ġshi2Ġ
wang4Ġyuan3Ġ jing4Ġ
Ġ cao2Ġ
deng3 Ġyu2Ġ
ceng2 Ġbei4Ġ
xu4 ĠdeĠ
Ġda4Ġ ban3Ġ
Ġchu1Ġ chang3Ġ
shen1Ġ ti3
long2Ġ sheng3Ġ
xiu1Ġ ding4Ġ
ĠĠĠ jing1Ġli4Ġ
liu4 Ġming2Ġ
Ġdi4Ġ yi1Ġwei4Ġ
Ġji2Ġ hui4Ġ
Ġji2Ġ qi2Ġta1Ġ
ju3Ġ zhen4Ġ
zhong1Ġguo2Ġ da4Ġlu4Ġ
chong1Ġ man3Ġ
1 Ġming2Ġ
pu1 Ġ
seng1 Ġ
Ġguo2Ġ you3Ġ
Ġchu1Ġ xi2
lian2Ġ luo4
Ġsheng1Ġ tai4Ġ
nuo4Ġ fu1Ġ
Ġguan1Ġ zhuang4Ġbing4Ġdu2
Ġze2 Ġshi4Ġ
Ġ 2001
Ġ pu2Ġtao2Ġya2
Ġren2Ġ zhi4Ġ
Ġcheng2Ġ yi1Ġ
yong4Ġ hu4
xi4Ġ jie2Ġ
Ġdui4Ġ xiang4Ġ
shou4Ġ huan1Ġying2Ġ
mei3Ġ tian1Ġ
cai2Ġ pan4Ġ
shi3Ġyong4Ġ zhe3Ġ
jiang3Ġ jin1Ġ
can1Ġyi4Ġ yuan4Ġ
Ġli4Ġfa3 Ġhui4Ġ
Ġxiang1Ġdang1 Ġyu2Ġ
5 Ġgong1Ġli3Ġ
Ġ a
Ġ wei3
Ġ xi4Ġtong3Ġ
Ġ mi2Ġ
ĠĠĠ ping2Ġ
ĠĠĠ lin2Ġ
xing2 ĠdeĠ
ya4 Ġhe2Ġ
na4 Ġer3Ġ
chong2 Ġjian4
fa4 Ġ
Ġzai4Ġ fa3Ġguo2Ġ
jiao1Ġ gei3Ġ
guo4 Ġyi1Ġ
15 Ġnian2Ġ
Ġshi2Ġ ren4
Ġshi2Ġ san1Ġ
yan2Ġ fa1Ġ
zhi3Ġ shu4Ġ
Ġren4Ġ ming4Ġ
gui1Ġ ding4
biao3Ġxian4 Ġchu1Ġ
Ġji2Ġxing2Ġzheng4Ġ dan1Ġwei4Ġ
Ġao4Ġda4Ġli4Ġ ya4Ġ
Ġ song1Ġ
fang1 Ġxing2Ġ
zhuang1 Ġwei4Ġ
lun2 ĠdeĠ
Ġer2 Ġhou4Ġ
zhu3Ġ dong4Ġ
jiao4Ġ gao1Ġ
bi4Ġ yao4Ġ
pai2Ġ lie4Ġ
tuo1Ġ li2Ġ
Ġyin2Ġ wei3Ġ
0 Ġzuo4Ġbiao1Ġwei4Ġ
ze2 Ġbei4Ġ
zi Ġshi4Ġ
60 Ġ
wei2Ġ yi1ĠdeĠ
Ġdan4 Ġshi4Ġzai4Ġ
Ġqi2Ġ B1900
Ġdan4Ġ zui4Ġzhong1Ġ
xun4Ġ su4
ren2Ġmin2Ġ zheng4Ġfu3Ġ
Ġhu2Ġ bei3Ġ
Ġwei4Ġyu2Ġyin2 Ġjing1Ġ
0Ġzuo4Ġbiao1Ġwei4Ġ chi4Ġjing1Ġ
ĠĠĠ san1Ġ
ĠĠĠ 11Ġyue4Ġ
xiang4 Ġyu2Ġ
lian2 Ġjun1Ġ
la1 Ġwei2Ġ
fei1 Ġdan4Ġ
sheng4 Ġdan4Ġ
28 Ġ
Ġzhong1Ġ hua2
ji1Ġ du1Ġ
Ġxing2Ġ tai4Ġ
tu3Ġ rang3
Ġjian4Ġzhu4Ġ mian4Ġji1Ġ
kong4Ġ zhi4ĠdeĠ
gong4Ġhe2Ġ dang3Ġ
Ġ ãĥ³
Ġ wu1Ġke4Ġlan2
ĠĠĠ fen1Ġbu4Ġ
ming2 Ġhe2Ġ
hua4 Ġyu3Ġ
suo3 Ġyi3Ġ
jiao1 Ġzhan4Ġ
bo2 Ġer3Ġ
man4 ĠdeĠ
ba3 Ġta1Ġ
at ĠĠĠ
1922 Ġnian2Ġ
Ġsi1Ġ zhi2Ġ
guan1Ġ xi4ĠdeĠ
xiao1Ġ fang2Ġ
geng4Ġ da4ĠdeĠ
xuan1Ġ cheng1Ġ
Ġqing1Ġchao2Ġ zheng4Ġzhi4Ġren2Ġwu4Ġ
jiang1 Ġjun1
11 Ġnian2Ġ
zhen1 Ġren2Ġ
si3 ĠleĠ
Ġyu2Ġ 2019
you2Ġ xi4ĠdeĠ
xiao4Ġ lv4Ġ
Ġ zi1Ġ
ĠĠĠ xiao3Ġ
sha1 Ġren2Ġ
es ĠĠĠ
1919 Ġnian2Ġ
1911 Ġnian2Ġ
zhong1Ġ hua2Ġmin2Ġguo2Ġ
Ġji2Ġ ti3Ġ
bei4Ġ er3Ġ
Ġmu3Ġ qin1
ĠĠĠche1Ġzhan4Ġ gou4Ġzao4Ġ
luo4Ġfa2 Ġke4Ġ
Ġ hui1Ġ
ĠĠĠ chu2Ġ
bian1 Ġzhi4Ġ
lun4 Ġshi4Ġ
xie3 Ġwei4Ġ
da1 Ġzai4Ġ
Ġshi2Ġ ba1Ġ
Ġda4Ġ jie1Ġ
jin1Ġ shu3
Ġju4Ġ qing2Ġ
ou1Ġ meng2Ġ
jie3Ġfang4 Ġjun1
Ġ zheng3Ġge4Ġ
ĠĠĠ 0
ĠĠĠ U
dao3 Ġhe2Ġ
16 Ġnian2Ġ
kang4 Ġzhan4Ġ
ĠdeĠ gao1Ġ
Ġji2Ġ cheng2Ġ
ji1Ġ che1Ġ
yi2Ġ ban4Ġ
tuan2Ġ jie2Ġ
shou1Ġ gou4
huo3Ġ che1Ġ
ĠT Ġ
ai4Ġer3Ġ lan2
1 Ġhao4Ġ
Ġ kai1Ġshi3
Ġ gong4Ġtong2Ġ
ĠĠĠ St
zhu3Ġ quan2Ġ
Ġqiu2Ġ dui4
Ġda4 Ġbu4Ġfen4Ġ
Ġ p
Ġ long2
nang2 Ġ
Ġhe2Ġ yuan2Ġ
zhi3Ġ ding4
jin3Ġ zhang1Ġ
zhen1Ġ zheng4ĠdeĠ
ĠJ Ġ
shun4Ġshi2Ġ zhen1Ġyu3Ġ
Ġ 160
Ġ bin1Ġ
ming2 Ġyu2Ġ
zhi2 Ġxing2
ba1 Ġsi1Ġ
can1 Ġjian4Ġ
kan4 Ġfa3Ġ
wen1 Ġdai4Ġ
hun1 Ġyin1
tie1 Ġmu4
ĠdeĠ xing2Ġ
Ġyi1Ġ shi2Ġ
Ġyi3Ġ dong1Ġ
Ġxian4Ġ zhang3Ġ
zi4Ġ wo3Ġ
wu4Ġ ti3Ġ
feng1Ġ ge2ĠdeĠ
ti2Ġ qian2Ġ
zu2Ġ qun2Ġ
xu3Ġ ke3Ġ
Ġyin3Ġ fa1Ġ
lian2Ġmeng2 ĠdeĠ
ĠĠĠ 2009Ġnian2Ġ
nei4 Ġsi1Ġ
ze2 Ġyou2Ġ
Ġshi4Ġ tai2Ġwan1Ġ
Ġda4Ġ dui4Ġ
zhu3Ġ da3Ġ
fang1Ġ an4
Ġxiang1Ġ guan1ĠdeĠ
pu3Ġ la1Ġ
ĠĠĠ gu3Ġ
ĠĠĠ guo2Ġji4Ġ
lai2 Ġshi4Ġ
zhen4 Ġji2Ġxing2Ġzheng4Ġdan1Ġwei4Ġ
Ġbu4Ġ cheng2Ġ
fang1Ġ bian4Ġ
suo3Ġ xu1
Ġyou2Ġ zheng4Ġ
Ġzi4Ġ ran2
Ġ zu3Ġzhi1Ġ
Ġ tai4Ġguo2Ġ
ĠĠĠ er2Ġ
ĠĠĠ ta1ĠdeĠ
lin2 Ġjin4Ġ
wo3 ĠdeĠ
Ġzhong1Ġ yi1Ġ
Ġzhi4Ġ yuan2Ġ
sheng1Ġ ge2Ġwei4Ġ
Ġjian4Ġ kang1
Ġquan2 Ġxian4Ġ
zui4Ġ zhong4Ġyao4ĠdeĠ
Ġzhe4Ġ yang4
tu2Ġ an4Ġ
Ġwei1 Ġer3Ġ
Ġ ni2
Ġ 64
Ġ xian3Ġshi4Ġ
ĠĠĠ re
duo1 Ġer3Ġ
qu4 ĠleĠ
Ġshi4Ġ lang2Ġ
Ġzai4Ġ qian2Ġ
Ġzhong1Ġ jiang4Ġ
Ġji2Ġ bie2Ġ
Ġer2Ġ tong2
Ġshang4Ġ ying4Ġ
tong2Ġ yang4Ġ
can1Ġ guan1Ġ
chong2Ġ fan3Ġ
Ġren2Ġkou3 Ġwei4Ġ
jing3 Ġwei4Ġ
xian1 Ġwei2Ġ
dong3 Ġ
Ġyi1Ġ liao2
guan1Ġ kan4Ġ
Ġyin1 Ġer2
jue2Ġ se4ĠdeĠ
ding4Ġ yi4Ġwei4Ġ
Y Ġ
Ġ h
Ġ á
an4 Ġli4Ġ
ĠĠĠ 5Ġ
sheng4 ĠdeĠ
jia4 ĠdeĠ
1926 Ġnian2Ġ
yi4Ġ hui4Ġ
Ġzhou1Ġ zhang3Ġ
jian3Ġ cha2
shen3Ġ pan4Ġ
hun4Ġ ning2Ġ
Ġ 58
shen1 Ġyu2Ġ
Ġge4 Ġguo2Ġjia1Ġ
Ġyu3Ġ xi1Ġ
jian1Ġ chi2Ġ
dan1Ġ du2Ġ
wang3Ġ wang3
Ġxi4Ġ lie4
cai3Ġyong4Ġ leĠ
ĠF Ġ
Ġ guang3Ġxi1Ġ
ĠĠĠ wang2Ġ
shi1 Ġji2Ġ
lun4 ĠdeĠ
xun4 Ġxi1Ġ
Ġzhong1Ġ duan4Ġ
Ġyu2Ġ 2016
Ġda4Ġ chen2
zhong3Ġ lei4Ġ
cun1Ġ min2Ġ
qun2Ġ dao3ĠdeĠ
e4Ġ hua4Ġ
Ġ17 Ġ
Ġzheng4Ġfu3 ĠdeĠ
2 Ġli4Ġ
Ġ shu4
ĠĠĠ luo2Ġ
xing4 Ġming2Ġ
shou4 Ġdao4ĠleĠ
Ġyu3Ġ wen2Ġ
jiao4Ġ lian4
zhu4Ġ shou3Ġ
tian1Ġ wen2Ġxue2Ġ
Ġyou2 Ġqi2Ġ
Ġzhi2Ġ jie1Ġ
Ġzhan4 Ġhou4Ġ
Ġ du2Ġli4Ġ
ĠĠĠ zuo4Ġwei2Ġ
ba1 Ġji1Ġsi1Ġ
xian1 ĠdeĠ
1918 Ġnian2Ġ
EST Ġ
Ġshi4Ġ cheng2Ġ
Ġshi4Ġ chu1Ġ
Ġyou3Ġ ming2Ġ
Ġdao4 Ġshi2Ġ
Ġyi3Ġ ci3Ġ
jian1Ġ cha2
Ġzhou1Ġ fu4Ġze2Ġguan3Ġxia2Ġ
wai4Ġ lang2Ġ
mian4Ġ xiang4Ġ
jia4Ġ gou4Ġ
jiang3Ġ pai2Ġ
Ġai4 Ġer3Ġ
tiao2Ġyue1Ġ ti3Ġxi4Ġ
3 Ġming2Ġ
Ġ 47
Ġ biao1Ġ
as ĠĠĠ
weng1 Ġ
Ġzhong1Ġ shan1
Ġping2 Ġcheng2Ġ
Ġ di1Ġ
Ġ 1988Ġnian2Ġ
ji4 Ġbu4Ġ
dui4 Ġdi4Ġ
wu4 Ġbu4Ġ
suo3 Ġshi4Ġ
ji1Ġ hui4Ġ
hou4Ġ qi1Ġ
zhu3Ġ ban4Ġ
fu4Ġ mu3Ġ
jing1Ġ yan4
gen1Ġ sui2Ġ
Ġ 1985Ġnian2Ġ
an1 Ġxian4Ġ
ĠĠĠ quan2Ġ
suan1 Ġjian3Ġ
1914 Ġnian2Ġ
Ġji1Ġ fen1Ġ
xuan3Ġ min2Ġ
ke1Ġ hui4Ġshi4Ġdi4Ġ
ge1Ġ shou3
er4Ġ shi2Ġnian2Ġ
su4Ġ du4
se4Ġ cai3Ġ
cheng1Ġ hu1Ġ
ĠdeĠshi2Ġ jian1
pei2Ġ xun4
Ġguo2Ġfang2 Ġbu4Ġ
Ġ 48
ĠĠĠ 2007Ġnian2Ġ
Ġren2Ġ quan2Ġ
Ġchu1 Ġyu2Ġ
qian2Ġ shen1Ġ
ci4Ġ shu4Ġ
Ġlai2Ġ zi4
Ġzhi2 Ġxing2Ġ
nan2Ġji2Ġ tiao2Ġyue1Ġti3Ġxi4Ġ
Ġ mao2
Ġ 600
tang2 Ġhe2Ġ
ting1 Ġdao4Ġ
tu1 Ġran2
can2 Ġji2Ġren2Ġ
Ġshi4Ġ pin2Ġ
Ġbu4Ġ lu3Ġ
Ġgong1Ġ da3Ġ
zi4Ġ sha1Ġ
xiang3Ġ yao4Ġ
pin3Ġ zhong3Ġ
ji3Ġ nei4Ġ
Ġgai1Ġcun1Ġ shi3Ġjian4Ġyu2Ġ
Ġ fan4
Ġ zu3Ġcheng2Ġ
yu2 Ġwei4Ġ
zheng4 Ġyi4Ġ
yin2 Ġhe2Ġ
Ġzai4Ġ nei4Ġ
wei2Ġ ye3Ġ
duo1Ġ shu4
bian1Ġ zu3Ġ
re4Ġ dai4
Ġan1Ġ hui1Ġ
Ġxing2Ġcheng2Ġ leĠ
Ġjing4Ġ nei4Ġ
qi2Ġzhong1Ġ yi2Ġge4Ġ
xia4Ġxia2ĠdeĠyi2Ġge4Ġxiang1Ġ zhen4Ġji2Ġxing2Ġzheng4Ġdan1Ġwei4Ġ
Ġ zhui1Ġ
zhan4 Ġwei4Ġyu2Ġ
zhu4 Ġyou3Ġ
ma3 Ġshi4Ġ
zhen4 Ġdi4Ġ
Ġshi2Ġ you3Ġ
wei2Ġ chi2
dian4Ġ chi2Ġ
Ġ rong2
ĠĠĠ jin4
mei2 Ġtong2Ġpai2Ġ
xiang3 Ġyou3Ġ
ta3 Ġji1Ġ
gong1Ġ min2Ġ
Ġcheng2Ġ gong1ĠdeĠ
Ġsi1Ġ dun4Ġ
Ġji1Ġ ben3
Ġjia1Ġ li3Ġ
Ġke4 Ġyu3Ġ
Ġde2Ġ luo2Ġ
fu2Ġ zhuang1Ġ
zhen4Ġ ya1Ġ
su4Ġ song4Ġ
qing2Ġ gan3Ġ
pian4Ġ duan4Ġ
shou1Ġ cang2Ġ
pi1Ġ pan4Ġ
Ġsi1Ġling4 Ġyuan2Ġ
8 Ġge4Ġ
Ġ 1945
Ġ Le
Ġ guan3Ġli3Ġ
liang3 Ġzuo4Ġ
nong2 Ġli4Ġ
mai2 Ġ
Ġzai4Ġ na4Ġ
Ġyi4Ġ xi2Ġ
Ġri4 Ġyi3Ġ
Ġjian4 Ġdao4Ġ
Ġhou4Ġ zhe3
Ġke4 Ġzai4Ġ
hua4Ġ gui1Ġ
jiao4Ġ da4ĠdeĠ
wen2Ġ zhang1
Ġwei2Ġ wu2Ġer3Ġ
jiang1Ġ nan2Ġ
Ġzuo4Ġ zhe3Ġ
bo1Ġ te4Ġ
Ġjie2Ġ hun1Ġ
ĠĠĠ Me
Ġshi2Ġ ti3Ġ
Ġyue4Ġ yu3Ġ
qi3Ġ yuan2Ġyu2Ġ
rong2Ġ liang4Ġ
ĠĠĠ sui1Ġran2
yong4 Ġzai4Ġ
te4 Ġshi4Ġ
you4 Ġyi4Ġ
fang2 Ġxian4Ġ
17 Ġnian2Ġ
50 Ġnian2Ġ
1990 Ġnian2Ġdai4Ġ
kuang1 Ġjia4Ġ
Ġyi1Ġ lai4
Ġxi1Ġ te4Ġ
Ġbing4Ġ bu2Ġshi4Ġ
qing1Ġ xiang4Ġ
Ġxia4Ġ lai2Ġ
mo4Ġ qi1Ġ
kao3Ġ cha2Ġ
Ġnian2Ġ4Ġyue4Ġ 1Ġri4Ġ
yin4Ġ ni2
xiao3Ġxing2Ġ xing1ĠdeĠ
nan2Ġji2Ġtiao2Ġyue1Ġti3Ġxi4Ġ guan3Ġli3Ġ
Ġ cao2
Ġ tan2Ġ
Ġ jie1Ġwei4Ġ
ĠĠĠ huo4Ġ
ĠĠĠ zhi2Ġye4Ġsheng1Ġya2Ġ
wei2 Ġgong1Ġ
ci2 Ġji1Ġ
28 Ġnian2Ġ
1950 Ġnian2Ġ
bi2 Ġ
1913 Ġnian2Ġ
Ġzai4Ġ cheng2Ġ
Ġda4Ġ qi4Ġ
hui4Ġ shang4Ġ
fa3Ġ lan2Ġxi1Ġ
fen1Ġ li2
Ġlian2Ġ bang1
shao4Ġ nv3
tian1Ġwen2Ġ tai2Ġ
sheng3 Ġfu4Ġze2Ġguan3Ġxia2Ġ
luo4 Ġyi1Ġ
hu4 Ġwei4Ġ
me ĠĠĠ
lei3 Ġji1Ġ
gen3 Ġdi4Ġ
wei2Ġ chi2Ġ
qian2Ġ lai2Ġ
shang1Ġ hai4Ġ
yi2Ġge4 Ġyue4Ġ
dang1Ġ xuan3Ġwei4Ġ
Ġjie1Ġ shou4Ġ
Ġti3Ġ yu4Ġ
Ġji2Ġbei3Ġ mei3Ġ
Ġ 1984Ġnian2Ġ
ri4 Ġjun1Ġ
bian1 Ġxing2Ġ
mie4 Ġjue2Ġ
shan3 Ġ
ĠdeĠ zhi1Ġchi2Ġ
Ġshi4Ġ zhi4Ġ
Ġcheng2Ġ fen4Ġ
Ġzhi1 Ġli3Ġ
Ġyuan2Ġ yin1Ġshi4Ġ
xi1Ġ wang4
Ġdan4 Ġye3Ġ
Ġfu4Ġ zhu3Ġxi2Ġ
fa1Ġbu4Ġ leĠ
wei2Ġyi1Ġ yi1Ġ
Ġ i
Ġ yan2Ġjiu1
ai4 Ġhao4Ġ
ĠĠĠ jie2Ġ
ĠĠĠ wai4Ġbu4Ġ
le Ġzhong1Ġguo2Ġ
zui4 Ġyou3Ġ
jian3 Ġyi4Ġ
sa4 Ġke4Ġsi1Ġ
pen2 Ġdi4Ġ
ping1 Ġ
Ġge4Ġ lei4Ġ
jiao4Ġ zong1Ġ
Ġzheng4Ġ ce4
zhong4Ġ liang4Ġ
yan3Ġ hua4Ġ
tong2Ġ meng2
Ġshi4Ġjie4Ġ bei1
Ġdian4Ġ ziĠ
Ġdong4Ġ hua4Ġ
fei1 Ġer3Ġde2Ġ
um Ġ
Ġwei4Ġ ji2Ġ
Ġxi1Ġ zang4Ġ
xia4Ġ ling4Ġ
fa3Ġ xue2Ġ
sha1Ġ bai2Ġ
jiu3Ġ long2
Ġnian2Ġdai4 ĠdeĠ
Ġ In
Ġ 800
Ġ chao1Ġguo4Ġ
yu3 Ġdi4Ġ
xi1 Ġyu2Ġ
jian4 Ġshe4
ĠdeĠ qing2Ġkuang4Ġxia4Ġ
Ġcheng2Ġ jiu4Ġ
Ġyi1Ġ shi1Ġ
shou4Ġ sun3Ġ
ting2Ġ zhi3
jie3Ġ san4
Ġren2Ġmin2Ġ zheng4Ġfu3
chi3Ġ cun4
ĠĠĠzhong1Ġ hua2Ġren2Ġmin2Ġgong4Ġhe2Ġguo2Ġ
Ġhua2Ġ sheng4Ġ
can1Ġsai4Ġ zi1Ġge2Ġ
shan1Ġmai4 ĠdeĠyi1Ġbu4Ġfen4Ġ
Ġ tai2
Ġ lei3Ġji4Ġ
si4 Ġwei4Ġ
shui3 Ġdao4Ġ
sui2 Ġji1Ġ
ren2Ġ kou3Ġwei4Ġ
ji4Ġ hua4
Ġyuan2Ġ li3Ġ
Ġxian4Ġ xing4Ġ
qu1Ġ bie2Ġ
tong1Ġ yong4Ġ
Ġzhu3Ġ zhang1Ġ
tiao2Ġ jie2Ġ
zheng4Ġzhi4Ġ jia1Ġ
lei2Ġ da2Ġ
re4Ġdai4Ġ qi4Ġxuan2Ġ
Ġge4Ġyue4Ġ hou4Ġ
w Ġ
Ġ 65
Ġ bang1Ġzhu4Ġ
Ġ 1991Ġnian2Ġ
hui4 Ġwei4Ġ
hai3 Ġshi4Ġ
mo4 Ġnian2Ġ
xin4 Ġren4Ġ
Ġzai4Ġ shang4Ġ
Ġguo2Ġ an1Ġ
Ġzhou1Ġ kan1Ġ
tou2Ġ xiang2
Ġtian1Ġ wen2Ġ
ĠdeĠgong1Ġ neng2Ġ
Ġ sĠ
ĠĠĠ 9
ĠĠĠ e
jue2 Ġwei4Ġ
1960 Ġnian2Ġdai4Ġ
Ġyi1Ġ ran2
hai3Ġ ba2Ġgao1Ġdu4Ġ
jian3Ġ ce4Ġ
tang2Ġ qu1Ġ
yin1Ġ ci3Ġ
Ġtong2Ġ xing4Ġ
hui2Ġ da2Ġ
ĠdeĠji4Ġ shu4Ġ
wen3Ġ ding4ĠdeĠ
¡ Ġ
Ġ wa3
Ġ ju1Ġ
jie2 Ġchu1Ġ
bing1 ĠdeĠ
luan3 Ġ
Ġhe2Ġ yi4Ġ
Ġdi4Ġ chan3Ġ
Ġyu2Ġ 2024
Ġta1 Ġyou3Ġ
guan1Ġ lian2Ġ
qian2Ġ feng1Ġ
suo3Ġ wei4ĠdeĠ
bao3Ġ xian3Ġ
Ġhuo4Ġ cheng1Ġ
du1Ġ cha2Ġ
Ġjian3Ġ cheng1
Ġ La
Ġ 1989Ġnian2Ġ
ĠĠĠ 2006Ġnian2Ġ
ceng2 Ġren4Ġ
Ġli4Ġ ao4Ġ
Ġdui4Ġ fang1Ġ
Ġquan2 Ġshi4Ġ
ci2Ġ dian3Ġ
dian4Ġshi4Ġ jie2Ġmu4Ġ
fa1Ġbiao3 ĠdeĠ
ya4Ġmei3Ġ ni2Ġya4Ġ
hu4Ġlian2Ġ wang3Ġ
Ġ sang1
nan2 Ġshi4Ġ
xiang4 Ġwei4Ġ
zeng1 Ġshe4Ġ
tui1 Ġli3Ġ
24 Ġnian2Ġ
Ġzheng4Ġ chang2Ġ
pu3Ġ lu3Ġshi4Ġ
tui1Ġchu1Ġ leĠ
xiu1Ġdao4Ġ yuan4Ġ
Ġ yin3
Ġ kang1
Ġ sheng3Ġ
Ġ 1990Ġnian2Ġ
ĠĠĠ zhang1Ġ
yu3 Ġyi4Ġ
bei3 Ġji2Ġ
ke1 Ġli4Ġ
gai3 Ġjin4Ġ
Ġyu2Ġ 2018
Ġyu3Ġ qi2
dao3Ġ shi1Ġ
ĠdeĠshi4Ġ jie4
Ġci3Ġ ci4Ġ
ĠH Ġ
Ġ qiao2Ġzhi4Ġ
ĠĠĠ min2Ġguo2Ġ
lu4 Ġshi4Ġ
ceng2 Ġyou3Ġ
qu3 Ġzi4Ġ
hun1 Ġli3Ġ
Ġcheng2Ġ zuo4Ġ
su1Ġ ge2Ġlan2
Ġ zao3Ġ
ĠĠĠ yin1Ġyue4Ġ
dui4 Ġzhong1Ġ
Ġhe2Ġ zhi4Ġ
Ġta1 Ġbu4Ġ
Ġxing2Ġ chai2
Ġxing2Ġ shi4ĠdeĠ
zheng4Ġ ce4
dai4Ġ ma3Ġ
ĠleĠ yi2Ġge4Ġ
Ġxiang1Ġ guan1
Ġxing2Ġzheng4Ġ yuan4Ġ
Ġyou4 Ġyi4Ġ
Ġ chi2Ġ
ĠĠĠ che1Ġzhan4
mei3 ĠdeĠ
liu2 Ġqiu2Ġ
chuan2 ĠdeĠ
luo4 Ġyu2Ġ
ting2 Ġzhan4Ġ
na2 Ġda4
37 Ġnian2Ġ
Ġcheng2Ġ du1Ġ
ji1Ġ bai4Ġ
Ġyu3Ġ zhi1Ġ
Ġdai4Ġ ma3Ġwei4Ġ
liang2Ġ hao3Ġ
li4Ġshi3Ġ shang4Ġ
Ġxian4Ġshi2Ġyou2Ġ nan2Ġji2Ġtiao2Ġyue1Ġti3Ġxi4Ġguan3Ġli3Ġ
Ġ shu1
ĠĠĠ sha1Ġ
bai2 Ġren2Ġ
ding3 Ġji2Ġ
zu1 Ġjie4
Ġdi4Ġ yu4Ġ
Ġzhi4Ġ du4
Ġchu1Ġ lai2ĠdeĠ
te4Ġ shu1
Ġduo1Ġ ci4Ġ
chong2Ġ qing4Ġ
Ġ e
Ġ xue2
ĠĠĠ wu3Ġ
jie2 Ġshi2Ġ
ĠdeĠ you3Ġ
Ġyu2Ġ 2015
Ġgong1Ġ chang3
lu4Ġ ying3Ġdai4Ġ
liu2Ġ dong4Ġ
Ġben3Ġ zhan4Ġ
Ġben3Ġ tu3Ġ
Ġdeng3Ġ deng3Ġ
Ġ zhuan1
Ġ lao3
Ġ qu3Ġde2Ġ
Ġ UĠ
pian4 Ġren2Ġ
38 Ġnian2Ġ
1901 Ġnian2Ġ
Ġyu2Ġ lei2Ġ
mian4Ġ 2
liang3Ġ an4Ġ
shen2Ġ sheng4Ġ
Ġzai4Ġdi4Ġ yi1Ġ
guan1Ġfei4Ġyan2Ġ que4Ġzhen3Ġbing4Ġli4Ġ
bei3 ĠdeĠ
bao3 Ġhe2Ġ
jiao1 Ġyou2Ġ
man4 Ġdi4Ġguo2Ġ
zheng3 Ġli3Ġ
Ġyu2Ġ 2020
Ġren2Ġ li4Ġ
da4Ġ xing2Ġ
Ġyou3Ġ guan1ĠdeĠ
Ġgong1Ġ an1Ġ
yi3Ġ jing1
fang2Ġ wu1
Ġzhi2 Ġli4Ġ
pei2Ġ yang3
ĠĠĠzhe4Ġ ke1Ġ
Ġ yi4Ġnian2Ġ
ri4 Ġzhi4Ġ
tong2 Ġwei4Ġ
hui2 Ġdao4
ve Ġ
man Ġ
Ġdi4Ġ shang4Ġ
Ġdi4Ġ jiu3Ġ
ji4Ġ shu4
Ġyi1Ġ ran2Ġ
nei4Ġ ge2
ti2Ġ gao1
Ġyou2 Ġqi2
Ġ Ù
min2 Ġyi4Ġ
you4 Ġzai4Ġ
zhui1 Ġqiu2Ġ
ĠdeĠ you2Ġ
ĠdeĠ zui4Ġ
ĠdeĠ xing2Ġshi4Ġ
Ġshi4Ġ chang3
ren2Ġ yuan2Ġ
Ġyu2Ġ 2013
Ġguo2Ġ dao4Ġ
hua4Ġ mian4Ġ
dan1Ġ mai4Ġ
chuan2Ġ shuo1
Ġnan2Ġ xing4Ġ
jiu4Ġ zhi3Ġ
jing3Ġ qu1Ġ
jing3Ġ dian3Ġ
tiao2Ġ kuan3Ġ
ĠdeĠji1Ġ chu3
3 Ġmi3Ġ
ye4 Ġhe2Ġ
sheng3 Ġhui4Ġ
tong1 Ġxing2Ġ
le4 Ġyuan2Ġ
Ġshi4Ġ xia4Ġxia2ĠdeĠyi2Ġge4Ġxiang1Ġzhen4Ġji2Ġxing2Ġzheng4Ġdan1Ġwei4Ġ
Ġyi3Ġ bian4
Ġxing2Ġ hao4Ġ
ye4Ġ jian1Ġ
ru4Ġ jing4Ġ
she4Ġ ying3Ġ
gui4Ġ zu2
ai4 Ġli4Ġ
ĠĠĠ fen1Ġlei4Ġ
ji2 Ġzhong1Ġxue2Ġ
ze2 Ġxi1Ġ
ba1 Ġli3Ġ
lin2 Ġzhong1Ġ
jiang4 Ġji2Ġ
gong1Ġ ji1Ġ
Ġyu2Ġ 2012
Ġji4Ġ hua4ĠdeĠ
fa1Ġ jue2Ġ
Ġqi2Ġ xia4ĠdeĠ
bo2Ġ la1Ġ
Ġ 1999
zong3 Ġsi1Ġling4Ġ
luo4 Ġshi2Ġ
xie1 Ġer3Ġ
ban3 Ġquan2Ġ
Ġzhong1Ġ zheng4Ġ
zhu3Ġ dao3Ġ
nan2Ġ bu4ĠdeĠ
Ġbei4Ġ bu3Ġ
guan1Ġ guang1Ġ
lian2Ġ sai4ĠdeĠ
yi2Ġ mian4Ġ
Ġdan4Ġ mei2Ġyou3Ġ
lun4Ġ tan2Ġ
zhen1Ġ cha2Ġ
Ġsan1 Ġyue4Ġ
tong3Ġzhi4Ġ zhe3Ġ
fan2Ġ mang2
ĠG Ġ
Ġhei1Ġ long2Ġjiang1Ġ
Ġ you3
Ġ ming2Ġwei4Ġ
Ġ yang3Ġ
ku4 Ġer3Ġ
end Ġ
Ġyi3Ġ ji2Ġzai4Ġ
zhu3Ġ liu2Ġ
ti3Ġ yan4Ġ
Ġxia4Ġ wu3Ġ
tong2Ġ meng2Ġ
Ġsui2 Ġji2Ġ
mei4Ġ mei4Ġ
ĠĠĠ dao4
zuo4 Ġzai4Ġ
ping2 Ġren2Ġ
qian1 Ġming2Ġ
geng4 Ġgao1Ġ
qiu1 Ġji4Ġ
ye2 Ġer3Ġ
dou3 Ġ
Ġshi4Ġ xin1Ġ
Ġchu1 Ġnian2Ġ
Ġqi2 Ġzhi4Ġ
hua4Ġ ru4Ġ
yan3Ġ zou4Ġ
li2Ġ ba1Ġnen4
mi4Ġ su1Ġli3Ġ
ĠL Ġ
kang4Ġri4Ġ zhan4Ġzheng1Ġ
Ġhe2Ġdao4 Ġquan2Ġzhang3Ġ
ĠĠĠ zheng1Ġyi4Ġ
te4 Ġren2Ġ
Ġbu4Ġ duan4
Ġyi1Ġ ci4
Ġyi1Ġ er3Ġ
Ġdao4 Ġji2Ġ
Ġxi1Ġ yin3
feng1Ġ suo3Ġ
Ġye3Ġ mei2Ġyou3Ġ
dong1Ġbu4Ġ shi2Ġqu1Ġ
Ġ gei3
Ġ hou4Ġyu2Ġ
ĠĠĠ wu2Ġ
yun4 Ġzai4Ġ
tuo1 Ġer3Ġ
ve ĠĠĠ
ĠdeĠ hou4Ġ
gong1Ġ ye4Ġ
Ġgong1Ġ jiao1Ġ
Ġcheng2Ġ zhang3Ġ
Ġjun1 Ġren2Ġ
dong1Ġ qu1Ġ
luo4Ġ te4Ġ
Ġma3Ġ la1Ġ
Ġtai4Ġ yang2Ġgong1Ġ
Ġ nuo4
Ġ Ð¾
ke4 Ġli3Ġsi1Ġ
si4 Ġren2Ġ
rong2 ĠdeĠ
guang3 Ġyi4Ġ
xuan1 Ġshi4Ġ
di4Ġ guo2Ġ
Ġyu2Ġ 2014
jian1Ġ cha2Ġ
bei3Ġ hai3Ġdao4Ġ
zhuan1Ġ yong4Ġ
xiang1Ġgang3 ĠdeĠ
la1Ġsi1Ġ jia1Ġ
Ġ 59
Ġ ya3Ġ
xiang4 Ġji1Ġ
duo1 Ġsi1Ġ
wan1 Ġqu1Ġ
liu4 Ġshi4Ġ
niu2 Ġsi1Ġ
HD ĠĠĠ
Ġda4Ġ lian2Ġmeng2Ġ
jiao4Ġ di1Ġ
dian4Ġ tai2
bao1Ġkuo4 Ġyi3Ġxia4Ġ
Ġnei4Ġ rong2Ġ
gong1Ġyuan2Ġ qian2Ġ
zhui1Ġsu4 Ġdao4Ġ
Ġ feng4
Ġ 49
Ġ lian4Ġ
sheng1 Ġhe2Ġ
zhuang1 ĠdeĠ
chun1 Ġji4Ġ
san3 Ġ
Ġyou3Ġ xu3Ġduo1Ġ
Ġyi1Ġ qie4
yun4Ġ ying2
lv4Ġ hua4Ġ
Ġdang1Ġ di4ĠdeĠ
Ġ16 Ġ
guo2Ġwu4Ġ yuan4Ġ
ai1Ġna4Ġ sheng3Ġ
yu3 Ġzhong1Ġguo2Ġ
te4 Ġgong1Ġ
fei1 ĠdeĠ
liang4 Ġji2Ġ
dang3 Ġzai4Ġ
yuan3 ĠdeĠ
ben3Ġ ke1Ġ
dong1Ġ ce4Ġ
guan3Ġ xia2
shang1Ġ wu4Ġ
dou1Ġ mei2Ġyou3Ġ
zhun3Ġ que4Ġ
Ġ18 Ġ
Ġ tian2
Ġ ISTAT
Ġ ESTĠ
fu4 Ġyu2Ġ
qi1 Ġyue4Ġ
ze2 Ġyi3Ġ
re ĠĠĠ
ted ĠĠĠ
na4Ġ xie1
guan3Ġ kong4
zhong1Ġguo2Ġ da4Ġlu4ĠdeĠ
2 Ġmi3Ġ
ĠĠĠ ri4Ġ
Ġxi1Ġ er3
ju4Ġ feng1
nan2Ġ mei3Ġzhou1Ġ
ke3Ġyi3Ġ tong1Ġguo4Ġ
Ġmo4 Ġxi1Ġ
zhong4Ġyi4Ġ yuan4Ġ
Ġshi4Ġyi1Ġke1 Ġwei2Ġrao4
7 Ġge4Ġ
Ġ 1998
Ġ EDT
ĠĠĠ guo2Ġ
a1 Ġbu4Ġ
she4 Ġji2Ġ
ren4 Ġzhi1Ġ
sheng3 Ġli4Ġ
fan3 Ġji1Ġ
Ġzhong1Ġ yuan2Ġ
guan1Ġ zhong4
guan1Ġ zheng4Ġ
Ġping2Ġ jie4Ġ
feng1Ġ fu4ĠdeĠ
tou2Ġ ru4
xi2Ġ ji1
Ġshi4Ġyi1Ġ zuo4
Ġda4 Ġzhi4Ġ
shou1Ġshi4Ġ lv4Ġ
jie4Ġquan2Ġguo2Ġzheng4Ġxie2Ġ wei3Ġyuan2Ġ
ping1Ġ pang1
Ġ chao1Ġji2Ġ
li3 Ġshi2Ġ
hua2 ĠdeĠ
chuan2 Ġyuan2Ġ
zhan3 Ġchu1Ġ
ying2 Ġli4Ġ
biao1 Ġshi4Ġ
you1 Ġhui4Ġ
1921 Ġnian2Ġ
Ġli4Ġ xue2Ġ
yu4Ġ wei2Ġ
lian2Ġ zai3Ġ
Ġbing4Ġ huo4Ġde2Ġ
Ġju4Ġ ben3Ġ
shu1Ġ niu3Ġ
heng2Ġ xing1
dan4Ġ shui3
bi3Ġsai4 ĠdeĠ
jue2Ġdui4Ġ xing1Ġdeng3Ġwei4Ġ
Ġ Ø
li3 Ġren2Ġ
de2 Ġyi4Ġzhi4Ġ
zui4 Ġchu1ĠdeĠ
xin4 Ġhao4
gou1 Ġtong1Ġ
Ġshi4Ġ xia4Ġ
Ġhe2Ġ yu3Ġ
Ġdi4Ġ 3Ġ
Ġyu2Ġ 2022
ping2Ġ heng2Ġ
Ġbei4Ġ jing3
duo1Ġ xiang4Ġ
jie1Ġ guan3Ġ
Ġ5Ġ diao4Ġkuai4Ġyi1Ġxiao3Ġshi2Ġ
Ġji2Ġbei3Ġmei3Ġ dong1Ġbu4Ġshi2Ġqu1Ġ
Ġtai4Ġyang2Ġgong1Ġ zhuan4ĠdeĠxiao3Ġxing2Ġxing1Ġ
Ġshi4Ġyi1Ġke1Ġwei2Ġrao4 Ġtai4Ġyang2Ġgong1Ġzhuan4ĠdeĠxiao3Ġxing2Ġxing1Ġ
ĠEDT Ġ
2 ĠĠĠ
2 Ġming2Ġ
6 Ġmi3Ġ
Ġ t
ĠĠĠ yu4Ġ
ĠĠĠ wen2Ġhua4Ġ
ĠĠĠ 2005Ġnian2Ġ
ao4 Ġke4Ġ
jian4 ĠdeĠ
han2 Ġyi4Ġ
23 Ġnian2Ġ
ke2 Ġ
ju4Ġ ben3Ġ
da3Ġ suan4
xiao3Ġxing2Ġxing1ĠdeĠ jue2Ġdui4Ġxing1Ġdeng3Ġwei4Ġ
Ġ xi3Ġ
Ġ dao3Ġyan3Ġ
ling3 Ġdui4Ġ
pai1 Ġshe4ĠdeĠ
ing Ġ
ts Ġ
Ġzai4Ġ li4Ġ
Ġzhong1Ġ li4Ġ
Ġgong1Ġ she4Ġ
Ġyi1Ġ qie4Ġ
Ġzhi1 Ġchu1Ġ
sheng1Ġ cheng1Ġ
Ġzuo4Ġ qu3Ġ
ru4Ġ kou3
Ġshi4Ġwu4Ġ suo3Ġ
fa1Ġbiao3 ĠleĠ
fu2 Ġji2Ġ
27 Ġnian2Ġ
Ġshi4Ġ zui4Ġ
Ġxing2Ġ xing1Ġ
Ġdan4 Ġbei4Ġ
zu2Ġ lian2Ġ
wu1Ġ ran3Ġ
wu2Ġxian4Ġ dian4Ġ
ĠĠĠzhe4Ġke1Ġ xiao3Ġxing2Ġxing1ĠdeĠjue2Ġdui4Ġxing1Ġdeng3Ġwei4Ġ
Ġ zuo3
ĠĠĠ Z
ĠĠĠ huang2Ġ
ĠĠĠ ge4Ġ
zhi3 Ġchu1
miao4 Ġyu3Ġ
yuan1 Ġ
Ġtong2 Ġnian2Ġ12Ġyue4Ġ
ĠdeĠyi1Ġ xiang4Ġ
bi3Ġli4Ġ niu2Ġsi1Ġ
ne4Ġ sheng3Ġ
sheng1Ġchan3 ĠdeĠ
Ġda4Ġsha4 Ġ
guo4 Ġhou4Ġ
yao4 Ġzai4Ġ
ing ĠĠĠ
Ġxi1Ġ ce4Ġ
ke3Ġ yong4Ġ
Ġxia4Ġ ling4Ġ
yan2Ġjiu1 ĠdeĠ
ĠdeĠyi1Ġ tiao2Ġ
Ġgao1Ġ su4
zhuang4Ġ tai4
tian1Ġwen2Ġ xue2Ġjia1Ġ
zu3Ġcheng2 Ġbu4Ġfen4Ġ
Ġ lei4
Ġ dang4Ġ
ĠĠĠ guan1Ġyu2Ġ
ĠĠĠ zao3Ġqi1Ġ
xi1 Ġxian4Ġ
lai2 Ġer3Ġ
zhong3 ĠdeĠ
jiu3 Ġshi2Ġ
lu4Ġ duan4Ġ
dian4Ġ liu2Ġ
Ġfu4Ġ mu3Ġ
zong3Ġ ling3Ġshi4Ġ
liang3Ġ ce4Ġ
Ġyin1Ġwei4Ġ ta1Ġ
Ġhou4Ġlai2 Ġzai4Ġ
ĠĠĠfor ĠĠĠ
4 Ġming2Ġ
liang3 Ġda4Ġ
men ĠdeĠ
Ġwei4Ġ guo2Ġ
Ġyi1Ġ xiang4Ġ
Ġyuan2Ġ lai2Ġ
xue2Ġ ke1Ġ
qu1Ġ fu4Ġze2Ġguan3Ġxia2Ġ
Ġjia1Ġ qiang2Ġ
shou3Ġ xian1Ġ
ci3Ġ tian1Ġti3Ġ
sheng4Ġ jing1Ġ
ke3Ġneng2 ĠdeĠ
Ġdi4Ġshi2Ġ san1Ġ
Ġao4Ġ men2Ġ
qian2 Ġxi1Ġ
ni2 Ġxi1Ġya4
cha2 Ġde2Ġ
lei1 Ġsi1Ġ
1905 Ġnian2Ġ
Ġzai4Ġ you3Ġ
Ġzai4Ġ dang1Ġshi2Ġ
he2Ġ liu2Ġ
Ġshi2Ġ liu4Ġnian2Ġ
shang4Ġ ying4ĠdeĠ
qi1Ġ jian1ĠdeĠ
qu3Ġ jue2Ġyu2Ġ
hen3Ġ shao3Ġ
hun4Ġ luan4Ġ
Ġ jian1
sheng4 Ġyu2Ġ
man3 Ġyi4Ġ
geng1 Ġming2Ġ
ju4Ġ yuan4Ġ
shen1Ġ ru4Ġ
Ġzi4Ġ ci3Ġ
tu2Ġ jing4Ġ
zhuan1Ġ ji2ĠdeĠ
min2Ġzu2Ġ zhu3Ġyi4Ġ
1 Ġjia1Ġ
Ġ tong3Ġ
Ġ sang1Ġ
Ġ shan1Ġxi1Ġ
ĠĠĠ yin1Ġwei4Ġ
yong4 Ġdi4Ġ
ci3 Ġdi4Ġ
ke1 Ġyi1Ġsheng1Ġ
wei1 Ġli4Ġ
jiang3 Ġxue2Ġ
hao3 Ġlai2Ġ
34 Ġnian2Ġ
sang4 Ġshi1Ġ
shi2Ġ yi1Ġ
Ġshi2Ġ bei4Ġ
Ġyi3Ġ wai4ĠdeĠ
Ġli3Ġ xue2Ġ
ben3Ġ tu3
te4Ġ ding4
zhen4Ġ wang2Ġ
Ġshe4Ġ shi1
she4Ġ jiao1Ġ
Ġmi3 ĠdeĠ
Ġ sai4
Ġ ying4Ġ
Ġ kan1Ġ
Ġ 2024Ġnian2Ġ
ben3 Ġdi4Ġqu1Ġ
quan2 Ġshi4Ġ
zi Ġli3Ġ
fu3 Ġzhi1Ġfu3Ġ
wan3 Ġqi1Ġ
29 Ġ
Ġwei4Ġ xin1Ġ
Ġzai4Ġ ren2Ġ
Ġda4Ġ duo1
Ġchu1 Ġbu4Ġ
shu4Ġ ju4
lai2Ġ kan4Ġ
ti2Ġ cai2Ġ
qian1Ġ yin3Ġ
duan3Ġ zan4Ġ
ĠdeĠzuo4Ġ yong4Ġ
Ġ bai4
Ġ huai2Ġ
zong1 ĠdeĠ
Ġhe2Ġ jin1Ġ
Ġde2 Ġhe2Ġ
you4Ġ cheng1Ġ
pei2Ġ chang2Ġ
Ġji2Ġtuan2 Ġjun1Ġ
ĠĠĠ dang1
fa3 Ġer3Ġ
nv3 Ġer2
fou3 Ġ
Ġnian2 Ġshi4Ġ
Ġzai4Ġ ta1
Ġyuan2Ġ qu1Ġ
qian2Ġ ting3Ġ
Ġqi2Ġ zhong1ĠdeĠ
zong3Ġ e2Ġwei4Ġ
Ġnan2Ġ jing1
liang3Ġ tiao2Ġ
xi2Ġ guan4Ġ
tiao2Ġ mu4Ġ
qiang2Ġ hua4Ġ
ĠN Ġ
Ġ bei1Ġ
Ġ gui4Ġzhou1Ġ
Ġ 1983Ġnian2Ġ
ben3 Ġzhi4Ġ
fen1 Ġqi2Ġ
ti2 Ġwei4Ġ
ba1 Ġming2Ġ
pa4 Ġer3Ġ
Ġwei4Ġ si1Ġ
Ġzhong1Ġ wen2
Ġji2Ġ er3
Ġqi2 Ġyu3Ġ
Ġshe4 Ġzai4Ġ
jie2Ġ lun4Ġ
feng1Ġ xian3
yi2Ġ dong4
mo2Ġ ni3
Ġfu2Ġ lang3Ġ
Ġsuo1Ġ xie3Ġ
Ġ lu3
Ġ guo1Ġ
ĠĠĠ jian4Ġ
mei3 Ġzhong1Ġbu4Ġ
shui3 Ġzhong1Ġ
cha1 Ġju4Ġ
Ġshi4Ġ yi3
bu4Ġ fen4
Ġyu2Ġ 2017
Ġjian4 Ġzhong1Ġ
Ġzhi1Ġ qian2ĠdeĠ
zhu3Ġ jue2
Ġbei4Ġ ren4Ġwei2Ġ
Ġju4Ġ ti3Ġ
bian4Ġ huan4Ġ
xiao1Ġ shou4
Ġsuo3Ġ you3ĠdeĠ
li3Ġshi4Ġ zhang3Ġ
gong4Ġhe2Ġ dang3
jiao1Ġyi4Ġ suo3Ġ
jie4Ġquan2Ġguo2Ġ ren2Ġmin2Ġdai4Ġbiao3Ġda4Ġhui4Ġ
Ġa1Ġer3Ġ bei1Ġsi1Ġ
fei1Ġxing2 Ġyuan2Ġ
1 Ġri4
Ġ 1986Ġnian2Ġ
te4 Ġsi1Ġ
Ġwei4Ġ mei3Ġguo2Ġ
Ġyou3Ġ xiao4
Ġcheng2Ġ nuo4Ġ
Ġyi1Ġ yang4
Ġge4 Ġge4Ġ
Ġbing4Ġ wu2Ġ
Ġshe4Ġ xian2Ġ
zhuan3Ġ yi2Ġdao4Ġ
ĠdeĠgong1Ġ si1Ġ
chang4Ġpian4 Ġgong1Ġsi1Ġ
Ġ xue1
Ġ An
ti3 Ġxian4Ġ
dang3 Ġbu4Ġ
sui2 Ġzhi1Ġ
la ĠĠĠ
ĠdeĠ ji2Ġ
Ġyi4Ġ mei3Ġguo2Ġren2Ġ
Ġjun1 Ġyi3Ġ
chu3Ġ jue2Ġ
tui1Ġ guang3
guang3Ġbo1 Ġgong1Ġsi1Ġ
si1 Ġdi4Ġli4Ġ
dui4 Ġli4Ġ
qing1 Ġdai4Ġ
mu3 Ġsi1Ġte4Ġ
zui3 Ġ
Ġshi2Ġ shi1
Ġxi1Ġ fa3Ġ
yu4Ġ ce4Ġ
Ġdang1 Ġri4Ġ
jie3Ġ jue2
ĠdeĠyi1Ġ jia1Ġ
Ġci3Ġ wai4
di3Ġ ceng2Ġshui3Ġyu4Ġ
lang3Ġ pu3
mu4Ġsi1Ġ lin2
Ġ cu4
Ġ Ro
jian4 Ġyu2Ġ
nan2 Ġxi1Ġ
che1 Ġshi4Ġ
00 Ġping2Ġfang1Ġqian1Ġmi3Ġ
qing4 Ġxia4Ġ
ba4 Ġgong1Ġ
qing1Ġ zhen1Ġ
Ġta1Ġmen Ġshi4Ġ
Ġchang2Ġ qi1Ġ
Ġ ling2
Ġ tan4Ġ
Ġ xĠ
xing2 Ġren2Ġ
jun1 Ġzhu3Ġ
dai4 Ġdao4Ġ
xia4 Ġshi4Ġ
cai2 ĠdeĠ
shao3 ĠdeĠ
Ġsi1Ġ da4Ġ
ren4Ġ zheng4Ġ
Ġzhou1 ĠdeĠyi2Ġge4Ġshi4Ġzhen4Ġ
dan4Ġ shui3Ġ
yin4Ġdi4Ġ an1Ġna4
Ġ r
Ġ zeng1Ġjia1Ġ
cheng2 Ġwei4Ġ
yuan2 Ġren2Ġmin2Ġbi4Ġ
jian4 Ġdui4Ġ
qu1 Ġzhong1Ġ
mei3 Ġli4Ġ
fu1 Ġsi1Ġ
Ġzai4Ġ dui4Ġ
Ġbu4Ġ zhi1Ġ
Ġyu2Ġ 2023
Ġyi4Ġ bei4Ġ
Ġer3 Ġbei4Ġ
zhan4Ġ shu4Ġ
Ġbing4 Ġcheng2Ġwei2Ġ
zi4Ġ shen1Ġ
shu4Ġ bai3
shi1Ġ ti3Ġ
bo2Ġ ge2Ġ
dou1Ġ ke3Ġyi3Ġ
zhong4Ġyao4Ġ xing4Ġ
Ġ hang2Ġ
Ġ ming4Ġ
Ġ tu1Ġ
Ġ rui4Ġshi4Ġ
yu3 Ġwei4Ġ
zhang3 Ġji2Ġ
Ġshi4Ġ yin4Ġdu4Ġ
Ġhe2Ġ chang4Ġ
Ġguo2Ġ nei4
qing1Ġ dao3Ġ
chuan2Ġ mei2
zhuan3Ġ bian4Ġ
xun2Ġ fu3Ġ
liang2Ġ hao3ĠdeĠ
Ġceng2Ġ jing1
Ġta1Ġceng2 Ġdai4Ġbiao3
Ġshang4Ġhai3 Ġshi4Ġ
jiang4Ġyu3Ġ liang4Ġ
Ġ xiong1Ġya2Ġli4Ġ
xin1 Ġyi1Ġ
yun4 Ġxing2
Ġshi2Ġ san1Ġnian2Ġ
fu4Ġ xing1Ġ
Ġke4 Ġjia1Ġ
yan2Ġ an4Ġ
shou3Ġ ling3Ġ
ye3Ġ ke3Ġyi3Ġ
Ġtun2 Ġqi2Ġ
Ġ Se
Ġ gei3Ġ
yi2 ĠdeĠ
30 Ġfen1Ġ
sou1 Ġsuo3Ġ
at Ġ
TV Ġ
ji1Ġ du1Ġjiao4Ġ
yu4Ġ suan4Ġ
zui4Ġ hou4ĠdeĠ
jiao1Ġ gei3
sheng4Ġ mu3Ġ
zao4Ġ chuan2Ġ
kao3Ġ gu3
Ġ14 Ġ
Ġmu3Ġ qin1Ġ
ji4Ġsuan4 Ġji1Ġ
Ġ lei1Ġ
Ġ 1958Ġnian2Ġ
ce4 Ġwei4Ġ
jiang3 Ġli4Ġ
sui4 ĠdeĠ
xie4 Ġer3Ġ
zhui1 Ġji1Ġ
45 Ġ
rou4 Ġshi2Ġxing4Ġ
man2 Ġ
Ġyuan2Ġ zi4
fen1Ġ bu4Ġzai4Ġ
Ġzheng4Ġ ju4Ġ
Ġzuo4Ġ ye4Ġ
ĠdeĠyi1Ġ ci4Ġ
ĠdeĠshi4Ġ qing2Ġ
duan3Ġ pian4Ġ
ĠdeĠji1Ġ chu3Ġ
Ġyi3Ġji2 Ġzhong1Ġguo2Ġda4Ġlu4ĠdeĠ
mei3Ġzhong1Ġbu4Ġ shi2Ġqu1Ġ
Ġ 1994
Ġ Mo
Ġ CST
Ġ lian2Ġhe2Ġguo2Ġ
ĠĠĠ ke1Ġ
ze2 Ġer3Ġsheng3Ġ
ba1 Ġyue4Ġ
ha1 Ġli4Ġ
ty Ġ
1917 Ġnian2Ġ
Ġdao4 Ġta1Ġ
Ġer2Ġ wen2Ġming2Ġ
shou3Ġ ren4Ġ
tai2Ġ zhong1Ġshi4Ġ
jin1Ġ xiang4Ġ
yue1Ġ se4Ġfu1Ġ
bing1Ġ tuan2Ġ
Ġ CDT
Ġ 1987Ġnian2Ġ
qiang2 Ġda4Ġ
2019 Ġguan1Ġzhuang4Ġbing4Ġdu2
is Ġ
chui1 Ġ
kui1 Ġ
Ġshi2Ġ wu3Ġnian2Ġ
Ġjin4 Ġxing2ĠdeĠ
tong1Ġ xin4
xuan3Ġ shou3
Ġshi4Ġyi1Ġ jia1Ġ
Ġcong2Ġ ci3Ġ
ou1Ġ meng2
Ġ6Ġ diao4Ġkuai4Ġyi1Ġxiao3Ġshi2Ġ
Ġji2Ġbei3Ġ mei3Ġzhong1Ġbu4Ġshi2Ġqu1Ġ
ĠCST Ġ
ĠCDT Ġ
Ġ min3
Ġ bu2Ġshi4Ġ
dui4 Ġshi4Ġ
mi3 Ġer3
32 Ġnian2Ġ
zuan4 Ġshi2Ġ
Ġshi4Ġ yi2Ġ
Ġdi4Ġ ming2Ġ
ji1Ġ chang3
jing1Ġ du1Ġ
fen1Ġ xiao4Ġ
liu2Ġ chuan2Ġ
nv3Ġ wang2Ġ
liang3Ġ zhong3
tuo1Ġ ma3Ġsi1Ġ
Ġshi3Ġ mi4Ġsi1Ġ
yin4Ġ du4ĠdeĠ
Ġ13 Ġ
ji1 Ġshi2Ġ
mei2 Ġer3Ġ
fu1 Ġsi1Ġji1Ġ
zhuan1 Ġyuan2Ġ
1904 Ġnian2Ġ
Ġcheng2Ġ ke4
qu1Ġ zhu2Ġjian4Ġ
zhe4Ġ shou3Ġ
Ġqiu2Ġ bi3Ġsai4Ġ
zhuan1Ġ qu1Ġ
Ġa1 Ġli3Ġ
zhe2Ġxue2Ġ jia1Ġ
Ġqi1 Ġxi1Ġ
fei2Ġte4Ġ lie4Ġ
Ġ kong4Ġzhi4Ġ
jiao4 Ġyou3Ġ
jiao1 Ġfu4Ġ
14 Ġnian2Ġ
36 Ġnian2Ġ
li4Ġ shi3
dong1Ġ ya4Ġ
Ġshang4Ġ shu4Ġ
zong3Ġ ju2Ġ
wei3Ġ nei4Ġrui4Ġ
mo2Ġ tuo1Ġ
Ġ kai1
Ġ duan4
Ġ jiang4Ġ
Ġ gan4Ġ
ĠĠĠ mu4Ġ
ĠĠĠ 12Ġyue4Ġ
shi2 Ġshi4Ġji4Ġ
lu4 Ġhe2Ġ
que4 Ġli4Ġ
pei4 Ġyue4Ġ
Ġwei4Ġ cheng2Ġ
ge2Ġ lei2Ġ
xing4Ġ bie2
chang2Ġ an1Ġ
bo2Ġ gen3Ġdi4Ġ
wang3Ġ lai2Ġ
zu3Ġ xian1Ġ
Ġyin1Ġwei4Ġ ta1
Ġwen2Ġ zhang1Ġ
ran2Ġ liao4Ġ
Ġao4 Ġsi1Ġ
ĠI Ġ
hu2Ġbei3Ġ sheng3Ġ
yan2Ġhai3Ġ sheng3Ġfen4Ġ
Ġsu2 Ġcheng1Ġ
Ġ 1996
Ġ ya1Ġ
a1 Ġsi1Ġ
en1 Ġsi1Ġ
le Ġbu4Ġ
di2 Ġsi1Ġ
tui1 Ġjin4
diao1 Ġxiang4Ġ
zhai4 Ġwu4Ġ
Ġren2Ġ sheng1Ġ
qu1Ġ dong4Ġ
Ġqi2Ġ fu4Ġ
gao1Ġ xiao4Ġ
Ġhuo4Ġ wu4Ġ
bo2Ġ lin2
chan3Ġ liang4Ġ
cai2Ġ neng2
bai3Ġ xing4Ġ
Ġdi4Ġer4Ġ ci4
Ġshi4Ġfou3 Ġ
ĠĠĠ ying1Ġguo2Ġ
ĠĠĠ gai1Ġdi4Ġ
yu3 ĠĠĠ
bao4 Ġfu4Ġ
xun4 Ġhao4Ġ
26 Ġnian2Ġ
33 Ġnian2Ġ
Ġgong1Ġ dian4Ġ
Ġyi1Ġ lu4Ġ
sheng1Ġ ren4Ġ
Ġtong2 Ġnian2Ġ10Ġyue4Ġ
ling2Ġ gan3Ġ
Ġyou4Ġ cheng1
chong1Ġ sheng2
zeng1Ġ qiang2
a1Ġer3Ġ ba1Ġ
cao3Ġ an4Ġ
Ġshi4Ġjian4 ĠdeĠ
Ġ 1945Ġnian2Ġ
ĠĠĠ 2023Ġnian2Ġ
shu4 Ġge4Ġ
ping2 Ġxian4Ġ
jiao3 ĠdeĠ
hen3 Ġnan2Ġ
31 Ġnian2Ġ
Ġwei4Ġ jing1Ġ
yi4Ġ qi3Ġ
Ġyou3Ġ leĠ
Ġgong1Ġ li4Ġ
fa1Ġ sheng1Ġyu2Ġ
zhi2Ġ jing4Ġ
Ġzhou1Ġ bian1Ġ
Ġshou3Ġ xian1Ġ
Ġ 1920Ġnian2Ġ
zhang1 Ġshi4Ġ
huang2 Ġshi4Ġ
huan4 Ġyou3Ġ
el ĠĠĠ
sang4 Ġsheng1Ġ
Ġer3 Ġxi1Ġ
zhan4Ġ lve4
xiang1Ġ xin4Ġ
dong4Ġ tai4Ġ
Ġsheng1Ġ ming4Ġ
Ġwan4 Ġping2Ġfang1Ġmi3Ġ
zheng4Ġzhi4Ġ ju2Ġ
qu1ĠdeĠ fu4Ġze2Ġguan3Ġxia2Ġ
Ġjin3Ġ ci4Ġyu2Ġ
zheng3Ġ ti3
ya4Ġmei3Ġ ni2Ġya4
Ġ ding1
Ġ ying2Ġde2Ġ
Ġ yin4Ġdu4
ĠĠĠ te4Ġzheng1Ġ
xuan3 ĠdeĠ
mo4 ĠdeĠ
kan4 Ġjian4Ġ
gui3 Ġdian4Ġ
di4Ġ fang1Ġ
Ġdi4Ġ er4Ġshi2Ġ
Ġyi3 Ġzhi1Ġ
wei2Ġ ji1Ġbai3Ġ
ben3Ġ zhan4Ġ
Ġzhan4Ġ tai2Ġ
huo4Ġ zhe3Ġ
Ġran2Ġ hou4Ġzai4Ġ
an1Ġhui1Ġ sheng3Ġ
Ġ yu2
Ġ 1997
Ġ gui3Ġ
ĠĠĠ tang2Ġ
xiao3 Ġyu2Ġ
ying1 Ġer2Ġ
hu4 Ġshi4Ġ
du2 Ġzi4Ġ
han4 Ġguo2Ġ
1910 Ġnian2Ġ
cheng2Ġ wei2
Ġzhi4Ġ jin1
Ġji2Ġ ke3Ġ
hua4Ġ fen1Ġ
fu2Ġ wu4ĠdeĠ
si4Ġ chuan1
bi4Ġ lu3
guan3Ġ li3ĠdeĠ
guang3Ġ dong1
zhu3Ġjiao4Ġ lian4Ġ
Ġ1950 Ġnian2Ġ
Ġ xiang1
Ġ jing3
qu1 Ġxian4Ġ
dian3 Ġxing2Ġ
ban1 Ġdao4Ġ
pi1 Ġfu4Ġ
ĠdeĠ wei4Ġ
Ġshi4Ġ qi2Ġ
Ġshi2Ġ si4Ġnian2Ġ
Ġli4Ġ yu2Ġ
yan2Ġ xu4
Ġzhe4Ġ xiang4Ġ
xiao3Ġ jie3Ġ
sha1Ġ tian2Ġ
pi2Ġ fu1Ġ
1 ĠĠĠ
Ġ hou4Ġzai4Ġ
yi4 ĠdeĠshi4Ġ
Ġshi4Ġ yong4Ġyu2Ġ
Ġda4Ġ zheng4Ġ
te4Ġ ding4ĠdeĠ
xing4Ġ ge2Ġ
feng1Ġ bao4
mei3Ġguo2Ġ zong3Ġtong3Ġ
guang1Ġ pu3Ġ
ting1Ġ zhang3Ġ
kuang4Ġ wu4Ġ
ĠdeĠyi4Ġ siĠ
wu4Ġli3Ġ xue2Ġjia1Ġ
sheng3Ġdao4Ġ tai2Ġ
Ġ fu1Ġ
an1 ĠdeĠ
ĠĠĠ 2004Ġnian2Ġ
ji1 Ġli4Ġ
jin1 Ġsi1Ġ
gu3 Ġsi1Ġ
wei3 ĠdeĠ
pu3 Ġer3Ġ
di4Ġ er4
Ġji2Ġ zhong1Ġzai4Ġ
Ġchu1Ġ kou3
lai2Ġ yuan2Ġyu2Ġ
bao1Ġkuo4 ĠleĠ
huo2Ġ xing4Ġ
Ġgao1Ġ xiong2
jun1Ġ guan1Ġ
tie3Ġ lu4ĠdeĠ
Ġbu4Ġfen4 ĠdeĠ
ying3Ġxiang3 ĠdeĠ
Ġ hui4Ġyi4Ġ
Ġ zhen1Ġdui4Ġ
zuo4 Ġyi3Ġ
qian2 Ġwei4Ġ
jin1 Ġri4
lang3 Ġpu3Ġ
po1 Ġer3Ġ
Ġshi4Ġ fang4Ġ
Ġhe2Ġ kou3Ġ
Ġli4Ġ chang3Ġ
Ġyi1Ġ kai1Ġshi3Ġ
Ġyu3Ġ yuan2Ġ
yong4Ġ leĠ
Ġyou2Ġ tai4Ġren2Ġ
tian1Ġ huang2
xin4Ġ tu2Ġ
en1Ġ lai2Ġ
Ġbi3Ġ sai4
fa1Ġxian4 Ġyu2Ġ
ge1Ġlun2Ġ bi3Ġya4
Ġ dian3Ġ
Ġ geng1Ġ
Ġ 1982Ġnian2Ġ
le Ġyuan2Ġ
sheng1 Ġbu4Ġ
ma3 Ġqi2Ġ
liang2 ĠdeĠ
gao4 Ġzhi1Ġ
Ġda4Ġ zhan4Ġ
fa1Ġ dong4
san1Ġ jiao3Ġ
xie2Ġ hui4
wan3Ġ jian1Ġ
Ġnv3Ġ zi3Ġ
Ġguo2Ġjia1 Ġgong1Ġyuan2Ġ
hu2Ġnan2Ġ sheng3Ġ
ĠdeĠfu4Ġ qin1Ġ
lv3Ġke4Ġ tie3Ġdao4Ġ
a1Ġgen1Ġ ting2Ġ
Ġ shen1
Ġ 1992
Ġ shi2Ġnian2Ġ
Ġ XĠ
ĠĠĠ jiao4Ġyu4Ġ
ming2 Ġzai4Ġ
she4 Ġyu2Ġ
tong2 Ġxue2Ġ
bo1 Ġyin1Ġ
luo4 Ġhou4Ġ
qian1 Ġzheng4Ġ
guang1 ĠdeĠ
lv3 Ġyou2
1908 Ġnian2Ġ
Ġdi4Ġ xing2Ġ
Ġer2 Ġyuan2Ġ
zhe4Ġ yang4Ġ
xiao4Ġ guo3
bian4Ġ hua4
mian3Ġ fei4
pei2Ġ yang3Ġ
Ġ xie2Ġzhu4Ġ
zeng1 Ġzhi4Ġ
Ġshi2Ġ xing2
Ġji2Ġ ju4Ġ
Ġji4Ġ hou4Ġ
Ġsi1Ġ fa3
Ġer2 Ġyi3Ġ
Ġjian4Ġ dui4
Ġjun1Ġ zhu3Ġ
zhang3Ġ wo4
ke1Ġ huan4Ġ
na4Ġ yang4Ġ
xiang3Ġ ying4Ġ
Ġzui4Ġ zhong1Ġzai4Ġ
Ġlian2Ġ sai4Ġ
diao1Ġ su4Ġ
Ġ xiong2
ĠĠĠ pu3Ġ
dang1 Ġri4Ġ
na4 Ġxi1Ġ
ha1 Ġde2Ġ
yu3Ġ yan2
xi1Ġ zang4Ġ
Ġbei4Ġ ke4Ġ
Ġdan4 Ġwei4Ġ
zui4Ġ di1Ġ
deng3Ġ dai4Ġ
chang2Ġ gui1Ġ
Ġxian4ĠdeĠ fei1Ġjian4Ġzhi4Ġdi4Ġqu1Ġ
huan4Ġ xiang3Ġ
ju3Ġxing2Ġ leĠ
Ġdong1 Ġxi1Ġ
Ġ zhuo2
Ġ 1993
zhong1 Ġnian2Ġ
hang2 Ġxing2Ġ
Ġda4Ġ da4Ġ
fu4Ġ nv3Ġ
fa1Ġ hui1Ġ
Ġzhan4Ġ ling3
tian1Ġ zhu3Ġjiao4
huo3Ġ zai1Ġ
Ġshi4Ġwei4Ġyu2Ġ wu1Ġke4Ġlan2Ġ
Ġchao2Ġ xian1
Ġ song1
Ġ pan4Ġ
Ġ yi1Ġnian2Ġ
ĠĠĠ jin4Ġ
qi3 Ġshi4Ġ
Ġshi2Ġ jian4Ġ
ji4Ġ zhe3Ġ
Ġguo2Ġ zhong1Ġ
ren4Ġ ke3Ġ
jiao4Ġ tu2Ġ
zhu4Ġ ming2
Ġjun1Ġ dui4
shi1Ġ zhang3Ġ
zhi3Ġ neng2
bao3Ġ an1Ġ
zhong3Ġ zu2
gu3Ġ dong1Ġ
er4Ġ bai3Ġ
Ġgai1Ġ zhuang1Ġ
chen2Ġ mo4Ġ
jia1Ġru4 Ġzhong1Ġguo2Ġgong4Ġchan3Ġdang3Ġ
Ġ u
Ġ shan1
Ġ gu1Ġ
guo2 Ġwei4Ġ
qu3 ĠleĠ
shou1 Ġfu4Ġ
geng4 Ġda4Ġ
Ġshi4Ġ cong2Ġ
shi2Ġ qi1
Ġyou3Ġ liang3Ġge4Ġ
guan1Ġ dian3
Ġzhan4Ġ ju4Ġ
fen1Ġ lan2
Ġben3Ġ pian4
Ġhai3Ġ ba2
cun2Ġ chu3Ġ
Ġduo1 Ġren2Ġ
Ġ 1978Ġnian2Ġ
han4 ĠdeĠ
id Ġ
xiang4Ġ bei3Ġ
te4Ġ se4
Ġwei2Ġ qi1Ġ
bei3Ġ mei3Ġ
Ġshang4Ġ zhen4Ġ
yi2Ġge4 Ġren2Ġ
ban1Ġjiang3Ġ dian3Ġli3Ġ
a1Ġji1Ġ tan3
Ġ diao4
ĠĠĠ mei3Ġ
liu4 Ġyue4Ġ
lei1 ĠdeĠ
Ġzai4Ġ jin1Ġ
xue2Ġ zhe3
ren4Ġ qi1Ġ
dai4Ġ ling3
Ġqi2Ġ ziĠ
tai2Ġ nan2Ġ
fu1Ġ lei1Ġ
du2Ġ zhe3Ġ
zhang4Ġ fu1
Ġ hai3Ġjun1Ġ
hen3 Ġyou3Ġ
90 Ġ
1915 Ġnian2Ġ
sheng1Ġ ming4
qi1Ġ tu2Ġxing2Ġ
yan3Ġ jing1Ġ
Ġguo4Ġ qu4Ġ
guo2ĠdeĠ te4Ġyou3Ġ
Ġwu3 Ġyue4Ġ
Ġjiang3Ġ shu4Ġ
jie1Ġshou4 ĠleĠ
Ġzhan4Ġdou4 Ġji1Ġ
Ġ sai1
ĠĠĠ Se
jia1 Ġji2Ġ
de2 Ġyi3Ġ
hua4 Ġgong1Ġ
pu3 Ġli3Ġ
fang4 Ġzhi4Ġ
fang4 Ġshe4Ġ
gan1 Ġyu4Ġ
Ġshi4Ġ yong4Ġ
Ġjia1Ġ su4Ġ
Ġer3Ġ fu1
xie2Ġ zhu4
xi4Ġtong3 Ġzhong1Ġ
lie4Ġche1 ĠdeĠ
Ġhuo4Ġde2 Ġdi4Ġ
qu1Ġyi4Ġhui4Ġ xuan3Ġju3Ġ
yang2 Ġzhou1Ġ
can1 Ġzheng4Ġ
xu1 Ġqiu2
cao3 Ġyuan2Ġ
Ġbu4Ġ lie4Ġ
Ġge4Ġ di4ĠdeĠ
tian1Ġ shi3Ġ
luo4Ġ bai4Ġ
ting2Ġ kao4Ġ
Ġnian2Ġ10Ġyue4Ġ 1Ġri4Ġ
xu3Ġ ke3
Ġyu3Ġmao2 Ġqiu2
Ġ zhan3Ġ
Ġ teng2Ġ
Ġ bi3Ġde2Ġ
dian4 Ġyuan2Ġ
liu2 Ġcheng2Ġ
ceng2 Ġyu3Ġ
nong2 Ġdu4Ġ
hao2 Ġwu2Ġ
40 Ġnian2Ġ
el Ġ
70 Ġ
42 Ġnian2Ġ
ment Ġ
colspan Ġ
Ġcheng2Ġ ren4
Ġzhi1Ġ dui4Ġ
jian1Ġ du1
ru4Ġ yu4Ġ
jiao1Ġ huan4
fang2Ġ shou3Ġ
ĠdeĠshi4Ġ jian4Ġ
da3Ġ kai1Ġ
xun2Ġ zhao3Ġ
Ġgai1 Ġdi4Ġ
xuan2Ġ zhuan3Ġ
meng4Ġjia1Ġ la1Ġ
Ġ qu3Ġdai4Ġ
guan1 Ġhe2Ġ
fen1 Ġji2Ġ
liu2 Ġshi4Ġ
sheng3 Ġren2Ġmin2Ġzheng4Ġfu3Ġ
shui3 Ġshang4Ġ
wei1 ĠdeĠ
Ġhe2Ġ jia1Ġ
Ġyu2Ġ 2011
ming2Ġ cheng1
Ġer2Ġ zhe4Ġ
suo3Ġ zhang3Ġ
ge2Ġ lin2Ġ
zui4Ġ hao3ĠdeĠ
Ġsheng1Ġ ren4Ġ
jian3Ġ cheng1Ġ
bian1Ġ qu1Ġ
Ġye3Ġ cheng1Ġ
pei4Ġ jue2Ġ
fa1Ġxing2Ġ leĠ
dan4Ġ bai2Ġ
dong3Ġshi4Ġ hui4Ġ
Ġ ya4Ġzhou1Ġ
Ġ 20Ġshi4Ġji4Ġ
chu1 Ġxian4Ġzai4Ġ
xie3 Ġcheng2Ġ
1906 Ġnian2Ġ
Ġzhong1Ġ yi4Ġ
Ġde2 Ġyi4Ġzhi4Ġ
zhu3Ġ chang3
shan1Ġ hu2Ġ
mian4Ġ qian2Ġ
qiang2Ġ lie4ĠdeĠ
Ġzui4Ġ hou4Ġyi1Ġ
zhu3Ġjiao4Ġ zuo4Ġ
Ġfou3 Ġze2Ġ
Ġ la1
Ġ 1980
ĠĠĠ shi3Ġ
xiang4 Ġhe2Ġ
sha1 Ġshi4Ġ
pai4 Ġren2Ġ
Ġyue4Ġ nan2
Ġzhi4Ġ ci3Ġ
du4Ġ guo4Ġ
Ġtong2 Ġwei4Ġ
Ġzhe4Ġ chang3Ġ
gu3Ġ fen4Ġ
kong3Ġ long2Ġ
fa1Ġxian4ĠleĠ ci3Ġtian1Ġti3Ġ
fa3Ġlan2Ġxi1 Ġda4Ġqu1Ġ
Ġ zi
ji1 Ġxing2Ġ
xia4 Ġyi4Ġ
suo3 Ġbu4Ġ
yue1 ĠdeĠ
jiu3 Ġyue4Ġ
que4 Ġshi2Ġ
42 Ġ
Ġshi4Ġ pin2
Ġyu3Ġ xin1Ġ
xin1Ġ qu1Ġ
Ġwei2Ġ fan3Ġ
Ġjin4 Ġnian2Ġ
Ġzhe4Ġ ci4
yi2Ġ qi4Ġ
ti2Ġ an4Ġ
xin4Ġ yong4Ġ
huo3Ġ pao4Ġ
ĠdeĠgong1Ġ ji1Ġ
Ġge2Ġ lan2Ġ
zong1Ġyi4Ġ jie2Ġmu4Ġ
jing4Ġwai4Ġ shu1Ġru4Ġ
Ġ xin4
Ġ biao1Ġzhun3Ġ
ĠĠĠ she4Ġji4Ġ
ye3 Ġbu4Ġ
gu3 Ġcheng2Ġ
fei4 Ġer3Ġ
ye2 Ġlu4Ġ
us ĠĠĠ
Ġcheng2Ġ xiang4Ġ
Ġri4 Ġshi2Ġ
Ġdao4Ġ fu1Ġ
fu4Ġ xing1
tian1Ġ xia4Ġ
Ġ e4
Ġ xiu1
Ġ zhu2
bei4 Ġyi1Ġ
xin1 Ġji1Ġ
shi1 Ġxing2Ġ
ying2 Ġde2
zhu1 Ġshi4Ġhui4Ġ
xia2 Ġshi4Ġ
kun1 Ġming2Ġ
Ġcheng2Ġ dan1Ġ
you2Ġ ke4Ġ
Ġer2 Ġde2Ġming2Ġ
wu4Ġ zi1Ġ
kai1Ġ ye4Ġ
tong1Ġ chang2Ġshi4Ġ
luo2Ġ xuan2Ġ
gen1Ġ sui2
Ġwen2Ġ xue2Ġ
Ġlian2Ġ xu4Ġ
Ġjin3Ġ biao1Ġ
che4Ġ tui4
Ġfei1Ġ chang2Ġ
lian2Ġsai4Ġ guan4Ġjun1Ġ
Ġshi2Ġjian1 Ġwei4Ġ
huo2Ġyue4Ġ yu2Ġ
ta3Ġni2 Ġda4Ġqu1Ġ
Ġ tu3
Ġ qing2Ġ
Ġ ju3Ġ
Ġ zan4Ġ
Ġ 1980Ġnian2Ġ
zhou1 Ġwei2Ġ
chan3 ĠdeĠ
29 Ġnian2Ġ
Ġjia1Ġ er3Ġ
Ġxi1Ġ bei3Ġbu4Ġ
zhu3Ġ ti3Ġ
Ġzhe4Ġ shi3ĠdeĠ
she4Ġ ji4ĠdeĠ
Ġ di3Ġ
Ġ 22Ġ
si1 Ġyu2Ġ
yu3 Ġren2Ġ
lv4 Ġbu4Ġ
yin3 Ġjin4Ġ
ding1 Ġmu4Ġ
1900 Ġnian2Ġ
1907 Ġnian2Ġ
da4Ġ hui4Ġ
Ġyi1Ġ ci2
Ġzhi1Ġ lu4Ġ
Ġhui4Ġ dao3Ġzhi4Ġ
kai1Ġ pi4
an1Ġ dong1Ġni2Ġ
Ġjie2Ġ mu4
nong2Ġ cun1
Ġwu2 Ġxian4Ġ
Ġbei3Ġqi3Ġ shun4Ġshi2Ġzhen1Ġyu3Ġ
zheng4 Ġsi1Ġ
de2 Ġzhi1Ġ
bei3 Ġping2Ġ
wu3 Ġgong1Ġ
jie4 Ġxian4Ġ
shen2 Ġshe4Ġ
xiang4Ġ dong1Ġ
shu1Ġ xie3Ġ
Ġgai1Ġ pian4
xue4Ġ ye4Ġ
Ġda4 Ġwei4Ġ
xun2Ġhui2Ġ sai4Ġ
Ġ 1991
ĠĠĠ 2000
le Ġdi4Ġyi1Ġ
shang4 Ġji2Ġ
hua4 Ġcheng2Ġ
tong2 Ġshi4Ġ
yun4 Ġhui4Ġ
Ġzai4Ġ na4Ġli3Ġ
li4Ġ liang4Ġ
Ġming2Ġ que4Ġ
xia4Ġ xun2Ġ
Ġjin4 ĠleĠ
ge2Ġ luo2Ġ
li2Ġ hun1Ġ
ying4Ġ yong4Ġyu2Ġ
jiu3Ġ dian4
ĠK Ġ
ba1Ġfa2 Ġli4Ġya4
Ġ Vi
Ġ aĠ
Ġ pin2Ġdao4Ġ
zhuan3 Ġhui4Ġ
Ġzai4Ġ dang1Ġdi4Ġ
Ġchu1Ġ zi4Ġ
wai4Ġ jie4Ġ
qi3Ġ tu2Ġ
jiao1Ġ qu1Ġ
huo4Ġ bi4Ġ
zhao4Ġ gu4Ġ
Ġzhi2 ĠdeĠ
chao1Ġ guo4
ke3Ġyi3 Ġshi4Ġ
Ġyin3Ġ qi3Ġ
da1Ġ pei4Ġ
ye2Ġlu4Ġ sa1Ġ
Ġ nei4Ġbu4Ġ
wei2 Ġli4Ġ
zhu3 Ġren2Ġ
yan3 ĠleĠ
you4 Ġbei4Ġ
cao3 Ġdi4Ġ
Ġbu4Ġ lan2Ġ
Ġxing2 Ġzhong1Ġ
jin1Ġ pai2
tian1Ġ zhu3Ġ
er4Ġ yang3Ġhua4Ġ
chuan2Ġ shu1Ġ
hang2Ġ tian1
mo2Ġ ni3Ġ
huo4Ġ yun4Ġ
Ġyan2Ġ zhong4Ġ
Ġge1Ġ shou3Ġ
ting2Ġche1Ġ chang3Ġ
Ġ cui1
yu3 Ġji2Ġ
nei4 Ġshe4Ġyou3Ġ
zhen4 Ġxian4Ġ
ya1 Ġzhi4Ġ
Ġzai4Ġ hou4Ġ
Ġshi2Ġ qi4
Ġli3Ġ ao4Ġ
zong3Ġ du1
jie3Ġ chu2Ġ
e2Ġ wai4Ġ
Ġlian2Ġ bang1Ġ
you1Ġ xian1Ġ
Ġshi3 Ġqi2Ġ
xiao3Ġshi2Ġ hou4Ġ
Ġyi4Ġsi Ġshi4Ġ
Ġ c
Ġ hai2Ġshi4Ġ
jiang1 Ġwei2Ġwu2Ġer3Ġ
shi1 Ġshi4Ġ
wu3 Ġli4Ġ
bao3 Ġshi2Ġ
fu3 ĠdeĠ
kuai4 Ġji4Ġ
sen1 ĠdeĠ
shang4Ġ fa3Ġlan2Ġxi1Ġda4Ġqu1Ġ
Ġxi1Ġ nan2Ġbu4Ġ
Ġke4 Ġren2Ġ
nan2Ġ fei1Ġ
Ġshe4 Ġxian4Ġ
Ġjian4Ġ leĠ
Ġbing4Ġ dui4Ġ
wang2Ġ guo2ĠdeĠ
Ġ 23Ġ
an1 Ġzhi4Ġ
ĠĠĠ Mar
ĠĠĠ ying3Ġxiang3Ġ
guan1 Ġzhi4Ġ
er4 Ġming2Ġ
chen2 Ġji1Ġ
guang1 Ġxue2Ġ
tou4 Ġming2Ġ
Ġshi2Ġ biao3Ġshi4Ġ
Ġyu2Ġ yi1Ġ
sheng1Ġ wu4
zhi2Ġ dao3ĠdeĠ
ci3Ġ ci4Ġ
la1Ġ fu1Ġ
ai4Ġ sha1Ġ
dan4Ġ bai2Ġzhi4Ġ
kong4Ġ gu3
zhi2Ġye4Ġ sheng1Ġya2
wen3Ġ ding4
ĠĠĠwei4Ġ yu2Ġ
Ġwo3 ĠdeĠ
9 Ġshi2Ġ
Z Ġ
Ġ wang3
Ġ St
Ġ ruan3Ġ
Ġ bao1Ġhan2
sheng1 Ġri4Ġ
jie4 Ġyou2Ġ
liang4 Ġhe2Ġ
xu4 Ġshi4Ġ
38 Ġ
Ġzhong1Ġ ji2Ġ
you3Ġ yi4Ġ
Ġgong1Ġ shang1Ġ
guan1Ġ shang3
Ġjian4Ġ li4ĠdeĠ
Ġdan4 Ġyin1Ġwei4Ġ
gao1Ġ shan1Ġ
Ġyou2Ġ ke4Ġ
Ġdan4Ġ shui3Ġ
jian3Ġ dan1
zu3Ġ zhi3
Ġda4Ġxue2Ġ jiao4Ġshou4Ġ
Ġgai1 Ġgong1Ġsi1Ġ
tong1Ġguo4 ĠleĠ
Ġben3 Ġming2Ġ
Ġgong1Ġzuo4 Ġren2Ġyuan2Ġ
ti3 Ġhe2Ġ
ti2 Ġshi4Ġ
tu2 Ġer3Ġ
gai3 Ġzhi4Ġ
Ġhe2Ġ shui3Ġ
Ġshi2Ġ yi4Ġ
Ġji2Ġ yu2Ġ
Ġji2Ġ yu3Ġ
Ġjian4 Ġguo2Ġ
qi1Ġ xi1Ġdi4Ġ
hai3Ġ guan1Ġ
nv3Ġ shen2Ġ
zu2Ġ xie2
zeng1Ġ jia1
Ġhua4Ġ xue2
Ġsi4 Ġyue4Ġ
Ġhe2Ġbei3Ġ sheng3Ġ
Ġzhu4 Ġyou3Ġ
1 Ġhao4
2 Ġhao4Ġ
ĠĠĠ 1949
yu3 Ġzai4Ġ
Ġwei4Ġ ta1Ġ
Ġdao4 Ġzai4Ġ
Ġji4Ġ gong1Ġ
Ġjin4 Ġping2Ġ
tai4Ġ kong1
jian3Ġ hua4Ġ
zu2Ġ zi4Ġzhi4Ġqu1Ġ
ju1Ġ liu2Ġ
fang4Ġ song4Ġ
che4Ġ li2Ġ
Ġ tan2
sh Ġ
yuan2 Ġzhi4Ġ
sheng1 Ġyuan2Ġ
yuan4 Ġyi4Ġyuan2Ġ
bin1 Ġxi1Ġfa3Ġ
Ġhe2Ġ ping2
da4Ġ yue1Ġ
Ġli4Ġ cheng2Ġ
Ġta1 Ġyi4Ġ
Ġji4Ġ shu4ĠdeĠ
Ġxi1Ġ bei3
ling3Ġ xian2
gang1Ġ qin2Ġ
xue4Ġ tong3Ġ
Ġge1Ġ qu3
Ġer4 Ġren2Ġ
8 Ġmi3Ġ
Ġ ni4
ĠĠĠ shui3Ġ
le Ġshi2Ġ
fu4 Ġchu1Ġ
yu4 Ġzhong1Ġ
fan3 Ġshe4Ġ
bie2 Ġming2Ġ
yan4 Ġzheng4Ġ
ca Ġ
Ġzai4Ġ yue4Ġ
Ġguo2Ġ jun1
Ġyi1Ġ duan4Ġ
Ġyi3Ġ qi2Ġ
Ġyu3Ġ yan2ĠdeĠ
xia4Ġ wei1Ġ
zhi2Ġ ze2Ġ
zhong4Ġ shang1Ġ
yi2Ġ chuan2Ġ
Ġgai1Ġ wu4Ġzhong3ĠdeĠ
Ġ000 Ġming2Ġ
mo2Ġshi4Ġ chan3Ġ
yue4Ġzhong1Ġ xun2Ġ
hang2Ġkong1Ġmu3 Ġjian4Ġ
Ġ chi3Ġ
Ġ min2Ġzhu3Ġ
zhong4 Ġren2Ġ
ĠdeĠ yin1Ġyue4Ġ
Ġcheng2Ġ ji2Ġ
Ġxi1Ġ zang4
Ġdong1Ġ fang1Ġ
pan4Ġ duan4Ġ
Ġzhong1Ġyang1 Ġjun1Ġ
lian4Ġ xi2Ġ
dong1Ġbu4Ġ da4Ġqu1Ġ
Ġgong1Ġsi1 Ġzai4Ġ
Ġba1 Ġyue4Ġ
Ġchu1Ġban3 Ġshe4Ġ
4 ĠĠĠ
4 Ġmi3Ġ
Ġ ou3
Ġ Ra
Ġ qiang1Ġ
yan2 Ġxian4Ġ
liang3 Ġbu4Ġ
Ġshi4Ġ wu1Ġke4Ġlan2Ġ
Ġgong1Ġ an1
Ġdan4Ġ reng2
chu1Ġ kou3Ġ
hen3Ġ kuai4
biao1Ġzhun3 ĠdeĠ
Ġ tie3
Ġ xin1ĠdeĠ
ĠĠĠ f
ĠĠĠ 2004
yu4 Ġhe2Ġ
ci3 Ġzhan4Ġ
ji3 Ġge4
pian1 Ġxiao3Ġshuo1Ġ
lang4 Ġman4Ġ
Ġzhong1Ġ shi2Ġ
Ġzhi1 Ġhe2Ġ
ju4Ġ bei4Ġ
long2Ġ ke1Ġ
ĠdeĠyi1Ġ tiao2
Ġmei3 Ġri4Ġ
ĠdeĠbu4Ġ fen4
chu3Ġli3Ġ qi4Ġ
ken3Ġ ding4Ġ
Ġ Ca
Ġ ying3Ġ
ĠĠĠ 14
ge2 Ġhe2Ġ
tai4 Ġyuan2Ġ
wu2 Ġyi4Ġ
yang2 ĠdeĠ
Ġwei4Ġ zhi1Ġ
zhi3Ġ ze2Ġ
ti3Ġ xi4
gu3Ġ dian3
ying1Ġ wu3Ġ
ge1Ġ chang4
wei1Ġ ni2Ġsi1Ġ
dang1Ġ ju2
Ġqi1 Ġyue4Ġ
Ġ ya4
ĠĠĠ ge4
ao4 Ġdi4Ġ
hou4 Ġcheng2Ġwei2Ġ
wu3 ĠdeĠ
gu4 Ġyi4Ġ
zhen1 Ġjun1Ġ
shen3 Ġli3Ġ
pu1 Ġshe4Ġ
Ġhe2Ġ mei3Ġguo2Ġ
Ġyou3Ġ zhu4Ġyu2Ġ
Ġguo2Ġ ji2Ġ
wei2Ġ ke4Ġ
ming2Ġ ni2Ġsu1Ġ
Ġer3 Ġdi4Ġ
Ġta1Ġ biao3Ġshi4Ġ
zhe4Ġ ci4Ġ
zhi2Ġ lu4
bei3Ġ ce4Ġ
wu1Ġ lu3Ġ
Ġjing1Ġ chang2
ya2Ġ chi3Ġ
Ġbu4Ġjiu3 Ġhou4Ġ
Ġwei4Ġyu2Ġgai1Ġ sheng3Ġ
Ġ ru4
ĠĠĠ he2ĠĠĠ
yong4 Ġyi3Ġ
yi4Ġ yuan2Ġ
Ġjun1 Ġji2Ġ
Ġjun1 Ġbei4Ġ
Ġke4 Ġshi4Ġ
xiang4Ġ nan2Ġ
Ġju4Ġ le4Ġ
ya4Ġ ke1Ġ
hong2Ġ shui3Ġ
wan2Ġ cheng2ĠdeĠ
bai4Ġzhan4Ġ ting2
Ġ 1985
Ġ liao2Ġ
ĠĠĠ xing2Ġ
sheng1 Ġyi4Ġ
xing4 Ġyu3Ġ
ze2 Ġer3Ġ
lan2 Ġzhou1Ġ
huan2 Ġyuan2Ġ
gao4 Ġzhong1Ġ
suan1 Ġyan2Ġ
34 Ġ
ĠdeĠ qing2Ġkuang4Ġ
Ġguo2Ġ gong4Ġ
Ġguo2Ġ fang2Ġ
Ġyi4Ġ qing2
Ġqi2 Ġyi4Ġ
ping2Ġ gu1Ġ
jian1Ġ chi2
suo3Ġ shu3Ġ
qu3Ġ dai4
yin1Ġ ci3
ĠdeĠming2Ġ cheng1Ġ
luo2Ġdi4Ġ ya4Ġ
liao2Ġning2Ġ sheng3Ġ
Ġ pu2Ġ
qu1 Ġyi4Ġyuan2Ġ
jie1 Ġli4Ġ
zu3 Ġwei4Ġ
jiu3 Ġming2Ġ
ry Ġ
Ġyi3 Ġcheng2Ġwei2Ġ
ke3Ġ kao4
huo3Ġ xing1Ġ
Ġru2Ġ ci3Ġ
ĠĠĠ 2003
ĠĠĠ 2003Ġnian2Ġ
ming2 Ġzhong1Ġ
fa3 Ġzhong1Ġ
wu3 Ġwei4Ġ
lou2 ĠdeĠ
Ġshi2Ġ hui4Ġ
Ġer3 Ġke4Ġ
Ġjia1Ġ qiang2
Ġchu1Ġ sai4Ġ
jie1Ġ shou1
cheng1Ġ hu1
xue2Ġyuan4 ĠdeĠ
zhi3Ġhui1 Ġbu4Ġ
8 Ġshi2Ġ
Ġ xiao1
Ġ shan4
ĠĠĠ 2Ġyue4Ġ
dui4 Ġta1ĠdeĠ
dong4 Ġshi4Ġ
zui4 Ġxing2Ġ
fan4 ĠdeĠ
meng2 Ġde2Ġ
gei3 Ġshi4Ġzhong1Ġ
80 Ġ
zun1 Ġzhong4Ġ
cheng2Ġ du4Ġ
Ġji2Ġ zhi4Ġ
xia4Ġ tian1Ġ
Ġtong2 Ġyue4Ġ
da2Ġ ni2
ce4Ġ lve4
chong2Ġ zu3Ġ
ji3Ġ zhui1
Ġshu4Ġ ju4Ġ
Ġshi4Ġshi4Ġ jie4Ġ
Ġma3 Ġer3Ġ
Ġ yong1
Ġ 1995
Ġ 57
ĠĠĠ cong2
begin Ġ
Ġren2Ġ bu4Ġ
si1Ġ te4Ġ
Ġda4Ġ ge2Ġming4Ġ
shang4Ġ sheng1Ġ
Ġzhi1Ġ qiu2Ġdui4Ġ
xiang1Ġ xin4
hai3Ġ xia2
Ġduo1Ġ shu4Ġ
yi3Ġ qian2Ġ
fen1Ġbie2 Ġshi4Ġ
fa1Ġdian4Ġ chang3Ġ
Ġ 1989
Ġ Ar
ĠĠĠ 1Ġyue4Ġ
zhu4 Ġshi4Ġ
duo1 Ġli4Ġya4
kai1 Ġxing2Ġ
bi3 ĠdeĠ
qian1 Ġxia4Ġ
lu2 Ġxing2Ġmu4Ġ
yuan2Ġ yin1Ġ
Ġsi1Ġ xiang3
xin1Ġ zeng1Ġ
nan2Ġ zhu3Ġjue2Ġ
kai1Ġ ban4Ġ
min2Ġ zheng4Ġ
kou3Ġ hao4Ġ
Ġju4Ġ chang3Ġ
che1Ġ shou3Ġ
ti2Ġ jiao1Ġ
zu2Ġ gou4Ġ
ĠdeĠyi1Ġ xie1
ĠdeĠcheng2Ġ gong1Ġ
Ġfa1Ġ biao3Ġ
duo2Ġ qu3Ġ
Ġ meng4
Ġ zha1
ĠĠĠ ling4
yu4 Ġshi4Ġ
fa3 Ġzhi4Ġ
lin2 Ġjin4
zhu1 Ġduo1Ġ
wen1 Ġquan2Ġ
ra Ġ
yi1Ġ ming2Ġ
jia1Ġ zu2Ġ
Ġri4 Ġyuan2Ġ
xin1Ġ zeng1
xiang1Ġ hu4
Ġde2Ġ lan2Ġ
ben3Ġ shen1
mi4Ġ qie4Ġ
Ġbu4Ġtong2 Ġyu2Ġ
ba1Ġshi4Ġ lu4Ġxian4Ġ
Ġge1Ġ lun2Ġ
ĠĠĠgai4Ġ shu4Ġ
Ġshi4Ġwei1Ġ zhe3Ġ
Ġyong4 Ġyi3Ġ
Ġ g
ĠĠĠ jing1Ġ
ĠĠĠ jiang1Ġ
xue2 Ġji2Ġ
zong3 Ġshi4Ġ
BD Ġ
ĠdeĠ shuo1Ġfa3Ġ
Ġdi4Ġ liu4
Ġyuan2Ġ su4
Ġri4Ġ er3Ġ
Ġjia1Ġ shang4
Ġming2Ġ lu4Ġ
Ġde2Ġ fen1Ġ
yu4Ġ gao4Ġ
mu4Ġ di4Ġshi4Ġ
jue2Ġ sai4ĠdeĠ
ke3Ġ qian2Ġwang3Ġ
Ġju4Ġ bei4Ġ
Ġzhi2Ġ wu4Ġ
ken3Ġ ta3Ġji1Ġ
Ġda4Ġshi3Ġ guan3Ġ
Ġ 700
Ġ yuan2Ġwei4Ġ
ĠĠĠ 13
dai4 Ġer3Ġ
tong2 Ġbu4Ġ
zhi2 Ġren2Ġyuan2Ġ
te4 Ġyu3Ġ
shen2 Ġfu4Ġ
le4 Ġbi3Ġ
ning2 Ġxia4Ġ
1903 Ġnian2Ġ
Ġdao4Ġ lu4
xian1Ġ qian2Ġ
Ġjie2 Ġhe2Ġ
guang3Ġbo1Ġ dian4Ġtai2Ġ
ĠsectionĠĠĠ beginĠ
Ġ 98
Ġ kan4Ġ
yu4 Ġwei4Ġ
lian2 Ġxian4Ġ
lin2 Ġjin4ĠdeĠ
guan3 Ġdao4Ġ
tuo1 Ġke4Ġ
ĠdeĠ guan1Ġxi4Ġ
Ġnian2Ġ du4
Ġnian2Ġ ling2
Ġwei4Ġ bu4Ġ
Ġbu4Ġ da4Ġ
Ġyu2Ġ 2010
Ġren2Ġ ji2Ġ
Ġyou3Ġ hao3Ġ
Ġhou4Ġ fang1Ġ
Ġji1Ġ zhong4Ġ
fu4Ġ gai4Ġ
jiao4Ġ shao3Ġ
jie1Ġ ti4
Ġhuo4Ġ yun4Ġ
ka3Ġ si1Ġdi4Ġli4Ġ
biao1Ġ ti2Ġ
mao4Ġ xian3
hun4Ġ xiao2
san1Ġjiao3 Ġxing2Ġ
1 Ġmi3Ġ
Ġ tiao2
Ġ Sa
Ġ fan2Ġ
ĠĠĠ an1Ġ
ĠĠĠ ying1Ġ
wen2 Ġdi4Ġ
zui4 Ġjin4ĠdeĠ
Ġzai4Ġ ji2Ġ
Ġbu4Ġ luo4
Ġyu2Ġ 2009
Ġcheng2Ġ zhen4
Ġqiu2 Ġji4Ġ
suo3Ġ zai4ĠdeĠ
jie1Ġ tou2Ġ
shen2Ġ mi4Ġ
kai1Ġshi3Ġ leĠ
ĠĠĠben3Ġ shu3Ġ
ĠdeĠzhu3Ġ ti2Ġ
ĠĠĠqi2 Ġhou4Ġ
Ġ zeng4
Ġ 1946
Ġ bo2Ġshi4Ġ
shou3 Ġshi4Ġ
shou3 Ġer3Ġ
guo4 Ġshi4Ġ
wu3 Ġda4Ġ
shen2 Ġxue2Ġ
kan4 Ġdao4
zai3 Ġxiang4Ġ
Ġjian4 Ġjian4Ġ
Ġyin1 Ġhe2Ġ
te4Ġ shu1ĠdeĠ
jie4Ġ sai4Ġshi4Ġ
bao3Ġhu4Ġ qu1Ġ
ĠdeĠji1Ġ ben3Ġ
xun2Ġhui2Ġ yan3Ġchang4Ġhui4Ġ
jie1Ġxia4Ġ lai2ĠdeĠ
7 Ġmi3Ġ
Ġ en1Ġ
le Ġyi3Ġ
zhi2 Ġyu2Ġ
liu2 Ġyi4Ġ
qi4 Ġzhong1Ġ
jiu4 Ġren4Ġ
huan2 Ġqiu2Ġ
as Ġ
Ġhe2Ġ ren2Ġ
Ġyi4Ġ cheng2Ġ
Ġren4Ġ qi1Ġ
Ġhuo4Ġ sheng4Ġ
tui1Ġ ce4Ġ
Ġhou4Ġlai2 Ġbei4Ġ
mi2Ġni3Ġ zhuan1Ġji2Ġ
Ġ san1Ġnian2Ġ
ba1 Ġke4Ġ
lie4 Ġjian4Ġ
ban4 Ġbu4Ġ
Ġbu4Ġ bing1
Ġren2Ġ shou4Ġshang1Ġ
Ġyi1Ġ gong4Ġ
Ġji4Ġ si4Ġ
dui4Ġ kang4Ġ
mu4Ġ shi1Ġ
fu2Ġ lang3
shan1Ġ ding3Ġ
lin2Ġ chuang2
xuan3Ġ xiu4
ce4Ġ hua4Ġ
da3Ġ po4Ġ
zheng4Ġshi4Ġ cheng2Ġli4Ġ
Ġduo1 Ġming2Ġ
dong1Ġnan2Ġ ya4Ġ
Ġ f
ĠĠĠ huo4
jiang1 Ġbei4Ġ
wen2 Ġsi1Ġ
ye4 Ġzhong1Ġ
la1 Ġke4
dao3 Ġxian4Ġ
shen2 Ġqi2Ġ
chuang4 Ġyi4Ġ
cun2 Ġyu2Ġ
guan4 Ġmu4Ġ
kong3 Ġju4Ġ
na Ġ
dui1 Ġ
duo4 Ġ
1916 Ġnian2Ġ
ji4Ġ suan4Ġ
Ġyi4Ġ zuo4Ġ
shou3Ġ du4Ġ
Ġsheng1Ġ cheng1
ya4Ġ te4Ġ
jiao1Ġ dian3Ġ
Ġyou3Ġyi1Ġ xie1
Ġli2 Ġmi3Ġ
fu4Ġze2 Ġren2Ġ
na2Ġpo4Ġ lun2Ġ
Ġ zhang3
Ġ kao3
Ġ Li
Ġ ou1Ġzhou1
ĠĠĠ Ð
li3 Ġzai4Ġ
fa3 Ġren2Ġ
xi2 Ġjin4Ġping2Ġ
hu2 ĠdeĠ
les Ġ
Ġbu4Ġ gong1Ġ
yi1Ġ xie1
Ġguo2Ġ ji4
Ġyi1Ġ dui4Ġ
Ġdao4Ġ de2Ġ
Ġxing2Ġ wei2
Ġjia1Ġ la1Ġ
yan2Ġ se4
Ġer2Ġ fei1
Ġjun1Ġ zhang3Ġ
fen1Ġ zu3Ġ
jie1Ġ ti4Ġ
xing4Ġ cun2Ġ
chang2Ġ sha1Ġ
shou4Ġ ming4Ġ
Ġxin1Ġ jiang1Ġ
chuan2Ġ jiao4Ġshi4Ġ
xing1Ġ qi3Ġ
jiu3Ġ ba1Ġ
kan1Ġ wu4Ġ
tie3Ġlu4 Ġgong1Ġsi1Ġ
si1Ġdi4Ġ an1Ġ
Ġda4Ġduo1Ġ shu4
Ġ o
Ġ qun2Ġ
Ġ hu1Ġ
Ġ 1956Ġnian2Ġ
you3 Ġbu4Ġtong2Ġ
ci4 Ġquan2Ġguo2Ġ
lan2 Ġde2Ġ
ka3 ĠdeĠ
ying2 Ġdi4Ġ
gui4 ĠdeĠ
zhuan4 Ġji4Ġ
Ġcheng2Ġ guo3Ġ
ming2Ġ xian3Ġ
sheng1Ġ zhang3Ġ
chang3Ġ jing3
Ġshe4Ġ bei4
luo4Ġ shan1Ġ
Ġzhe4 Ġli3Ġ
dao3Ġzhi4Ġ leĠ
Ġzhi3Ġ neng2Ġ
Ġqi3Ġ ye4Ġ
lian2Ġxu4 Ġju4Ġ
Ġ yan3
Ġ Mi
Ġ che4Ġxiao1Ġ
yang4 Ġben3Ġ
shui3Ġ ku4
du2Ġ te4Ġ
Ġdang1Ġ ju2Ġ
Ġjiang1 Ġjun1Ġ
Ġfa1Ġ biao3
ye2Ġ fu1Ġ
Ġer4 Ġyue4Ġ
r ĠĠĠ
Ġ xie2
ĠĠĠ p
ĠĠĠ dai4Ġ
ke3 Ġyou2Ġ
shui3 Ġyuan2Ġ
60 Ġnian2Ġ
Ġzai4Ġ yi2Ġge4Ġ
Ġxing2Ġ zou3Ġ
ju4Ġ ti3Ġ
shu4Ġ zhi2Ġ
chang2Ġ zhu4
bao3Ġ yu4Ġ
ni2Ġ gu3Ġla1Ġ
Ġxiang1Ġ fan3Ġ
wang3Ġ min2Ġ
pai4Ġ qian3Ġ
er2Ġ zi
Ġtai2Ġ bei3
mei3Ġshu4Ġ guan3Ġ
zhui1Ġsu4 Ġzhi4Ġ
ĠsectionĠĠĠ endĠ
han4Ġlin2Ġ yuan4Ġ
Ġ gai4
Ġ 1979Ġnian2Ġ
ĠĠĠ zhu4Ġzuo4Ġ
de2 Ġke4Ġsa4Ġsi1Ġ
tong2 Ġzhi4Ġ
hai3 Ġjun1ĠdeĠ
tai2 Ġji2Ġ
dao3 Ġdan4
zhuang1 Ġyou3Ġ
mi4 Ġxi1Ġxi1Ġ
sha4 Ġ
ĠdeĠ wen4Ġti2Ġ
zhi4Ġ zao4Ġ
Ġli4Ġ jing1Ġ
Ġda4Ġ liang4ĠdeĠ
Ġjun1 Ġgong1Ġ
Ġwei2Ġ yi1ĠdeĠ
bao3Ġ xian3
ci4Ġ ziĠ
si4Ġ yuan4Ġ
jian3Ġ pu3Ġ
jing3Ġ bao4Ġ
ci2Ġ shan4
Ġhuo4Ġde2 Ġyi1Ġmei2Ġ
meng4Ġjia1Ġ la1
Ġ po
Ġ wang4Ġ
si1 Ġji2Ġ
shang4 Ġyu3Ġ
du4 Ġshi4Ġ
shan1 Ġhe2Ġ
bian4 Ġli4Ġ
huang2 Ġhe2Ġ
chuan1 Ġzhu4Ġ
ma1 Ġzu3Ġ
Ġyi4Ġ ti2Ġ
Ġyi3 Ġgong1Ġ
Ġyi1Ġ xi4Ġlie4Ġ
Ġta1Ġ ye3Ġshi4Ġ
Ġchu1Ġ sheng1Ġzai4Ġ
lu4Ġ kou3Ġ
Ġjun1Ġ tuan2
ze2Ġ ren4
zi1Ġ jin1
can1Ġ kao3
que4Ġ bao3
gan3Ġ qing2Ġ
Ġzhi3Ġ yao4Ġ
Ġbao3Ġ luo2Ġ
bian4Ġcheng2Ġ leĠ
gao4Ġshi4Ġ pai2Ġ
Ġ bi4
Ġ zong1Ġjiao4Ġ
Ġ ke3Ġneng2Ġshi4Ġ
ĠĠĠ ai4Ġ
ji2 ĠĠĠ
ke1 Ġjin4Ġshi4Ġ
liu2 Ġxing2ĠdeĠ
jia4 Ġri4Ġ
rui4 Ġke4Ġ
ay Ġ
ĠdeĠ er2ĠziĠ
Ġbu4Ġ zu2
Ġshi2Ġ qi1Ġnian2Ġ
si1Ġ fa3Ġ
Ġjian4Ġ zheng4Ġ
Ġzhou1Ġ bian1
yi2Ġ ju1Ġ
qi4Ġ guan1Ġ
qian1Ġ wang3Ġ
di2Ġ ya4Ġ
xia2Ġ zhai3
shen3Ġ yang2Ġ
e4Ġ tu2Ġ
Ġ zhen4
Ġ tao2
Ġ yuan4Ġ
qian2 Ġyi1Ġ
sai4 Ġshi4Ġzhong1Ġ
zhong4 Ġyi4Ġyuan2Ġ
yue1 Ġke4Ġ
nv3 Ġshi4Ġ
mu3 Ġshi4Ġ
Ġbu4Ġ yu3Ġ
xi1Ġ fang1Ġ
Ġji1Ġ qi4Ġ
kai1Ġ qi3Ġ
fa1Ġ yan2Ġ
Ġshe4Ġ ding4Ġ
Ġxia4Ġ xia2Ġ
jing3Ġ bao4
zheng1Ġ qu3
man4Ġ hua4
zhuan1Ġ ke1Ġxue2Ġ
Ġren2Ġkou3Ġ pu3Ġcha2Ġ
Ġxing4Ġ bie2Ġ
zhan4Ġzheng1 Ġzhong1Ġ
Ġke1 Ġer3Ġ
mao2Ġze2Ġ dong1
Ġjie1Ġwei4Ġ lu4Ġdi4Ġ
ī Ġ
ĠĠĠ zhan4Ġhou4Ġ
you3 Ġshi4Ġ
you2 ĠdeĠ
bei4 Ġren2Ġ
lin2 Ġshi4Ġ
yang2 Ġji1Ġ
mu3 Ġyu3Ġ
ly Ġ
Ġwei4Ġ gai1Ġ
Ġzai4Ġ tai2Ġwan1Ġ
xiang4Ġ liang4Ġ
Ġtong2 Ġnian2Ġ9Ġyue4Ġ
tu2Ġ jing1Ġ
zheng1Ġ qi4Ġ
cai3Ġ fang3Ġ
sui2Ġ zhe
Ġliang3 Ġguo2Ġ
Ġao4 Ġdi4Ġli4Ġ
Ġzai4Ġzhong1Ġguo2Ġ da4Ġlu4Ġ
wang2Ġchao2 ĠdeĠ
Ġ Ã©Ġ
Ġ 1981Ġnian2Ġ
xian4 Ġzai4Ġ
ye3 Ġsheng1Ġ
dang1 Ġdai4Ġ
zhong3 Ġjia1Ġ
qian1 Ġshi4Ġ
da3 Ġjin4Ġ
bei1 ĠdeĠ
xuan4 Ġ
Ġshi2Ġ shi2Ġ
Ġyue4Ġ qi4Ġ
Ġzhi1 Ġyu2Ġ
Ġta1Ġ cong2Ġ
jie2Ġ hun1
Ġdui4Ġ ying4Ġ
Ġju4Ġ feng1Ġ
yan3Ġ hua4
Ġwan4Ġ mei3Ġyuan2ĠdeĠ
zu2Ġqiu2Ġ lian2Ġsai4Ġ
Ġzai4Ġci3Ġ qi1Ġjian1Ġ
you2Ġxi4 Ġzhong1Ġ
li3Ġgong1Ġ da4Ġxue2Ġ
Ġshi4Ġshi4Ġjie4 Ġshang4Ġ
Ġ shuo1
Ġ 88
Ġ ge1Ġqu3Ġ
Ġ 1948Ġnian2Ġ
lai2 Ġde2Ġ
hong2 Ġshi2Ġzi4Ġ
wo4 Ġsi1Ġ
90 Ġnian2Ġ
Ġwei4Ġ re4Ġdai4Ġ
Ġhe2Ġ ma3Ġ
dui4Ġ fang1Ġ
Ġwei2Ġ ke4Ġ
kou3Ġ jing4Ġ
Ġran2 Ġer2Ġzai4Ġ
hua2Ġ xue3Ġ
cai2Ġ ding4Ġ
du2Ġ shu1Ġ
Ġguo4Ġ cheng2Ġzhong1Ġ
Ġma3Ġ ding1Ġ
geng1Ġ huan4
Ġceng2 Ġyu2Ġ
Ġ bie2Ġ
Ġ pao4Ġ
ĠĠĠ 2002Ġnian2Ġ
you3 Ġbu4Ġtong2ĠdeĠ
dui4 Ġcheng2Ġyuan2Ġ
tai4 Ġer3Ġ
gan3 ĠdeĠ
reng2 Ġshi4Ġ
shun4 Ġtian1Ġ
qu2 Ġ
di4Ġ san1Ġ
cheng2Ġ zhen4Ġ
Ġyi1Ġ xue2Ġyuan4Ġ
Ġda4Ġ yu3Ġ
Ġji1Ġ qi4Ġren2Ġ
fu4Ġ za2Ġ
Ġzheng4Ġ dang3Ġ
Ġtong2 Ġnian2Ġ11Ġyue4Ġ
zi1Ġ bie2
zu2Ġ gou4ĠdeĠ
yin3Ġ qing2
Ġjie2Ġ shu4
chu3Ġ li3
gang1Ġ qin2
sui2Ġ zhu4
ĠĠĠli4Ġshi3Ġ yan2Ġge2Ġ
fa1Ġsheng1Ġ hou4Ġ
pin2Ġ kun4
Ġdi4Ġshi2Ġ er4Ġ
yun2Ġnan2Ġ sheng3Ġ
ge4 Ġge4Ġ
fu4 Ġbu4Ġ
tai4 Ġji2Ġ
et ĠĠĠ
Ġyue4Ġ qiu2Ġ
jing1Ġ ying1Ġ
jin1Ġ qu3Ġ
Ġren4Ġ zheng4Ġ
nv3Ġ ge1Ġshou3Ġ
ju2Ġ mian4Ġ
Ġshi4Ġjie4 Ġge4Ġdi4Ġ
mei4Ġ mei4
dong1Ġjing1Ġ du1Ġ
tou2Ġru4Ġ shi3Ġyong4Ġ
lian2Ġsai4 Ġqiu2Ġdui4Ġ
Ġli4Ġfa3Ġ wei3Ġyuan2Ġ
Ġjiu3 Ġyue4Ġ
ĠISTAT Ġdai4Ġma3Ġwei4Ġ
Ġ Sh
Ġ 1955Ġnian2Ġ
shi3 Ġsi1Ġ
fa1 Ġyin1Ġ
xiang1 Ġdao4Ġ
xiang4 Ġta1Ġ
hui2 Ġfu4Ġ
lun2 Ġli3Ġ
yi4Ġ ban1Ġ
da4Ġ dong1Ġbu4Ġda4Ġqu1Ġ
Ġgong1Ġ zhong4
Ġqi2 Ġdi4Ġ
Ġhou4Ġ lai2ĠdeĠ
guan1Ġ yin1Ġ
yu4Ġ shi3Ġ
Ġbing4Ġ jiang1Ġqi2Ġ
ke3Ġ fen1Ġwei2Ġ
ba1Ġ he4Ġ
dang3Ġ wei3Ġ
qian1Ġ ru4Ġ
Ġhe2Ġguo2Ġ jia1Ġ
ĠĠĠin ĠĠĠtheĠĠĠ
Ġnian2Ġshi4Ġjie4Ġ bei1Ġ
Ġ qiong2
ĠĠĠ yue4
ĠĠĠ zuo4Ġ
ĠĠĠ duo1Ġ
yu4 Ġyou3Ġ
ci3 Ġyi1Ġ
shen3 Ġyi4Ġ
et Ġ
Ġwei4Ġ gong1Ġ
Ġyue4Ġ du2Ġ
dian4Ġ rong2Ġ
hai3Ġ wai4
Ġben3Ġ tu3
xian1Ġ fa1Ġ
Ġru2Ġ jin1Ġ
Ġzui4Ġ hou4
shan3Ġxi1Ġ sheng3Ġ
jia1Ġli4Ġfu2Ġ ni2Ġya4
Ġ guang3Ġzhou1Ġ
hui4 Ġcheng2Ġyuan2Ġ
she4 Ġji1Ġ
jiao4 Ġyi4Ġ
jin1 Ġzhong1Ġ
ĠdeĠ she4Ġji4Ġ
Ġzai4Ġ bei3Ġjing1Ġ
ji4Ġ hou4Ġ
Ġyu3Ġ li3Ġ
dai4Ġ lai2ĠdeĠ
dian4Ġ lu4Ġ
neng2Ġ li4ĠdeĠ
bian1Ġ fu2Ġ
sai1Ġ bai4
shen3Ġ pan4
ke1Ġji4Ġ da4Ġxue2Ġ
Ġ qiao2
ju4 Ġren2Ġ
ping2 Ġxi1Ġ
fu2 Ġke4Ġ
fang3 Ġzhi1Ġ
Ġnian2Ġ she4Ġli4Ġ
Ġshi2Ġ zi4
cheng2Ġ ren4Ġ
Ġzhi1Ġ nv3Ġ
jing1Ġ fei4Ġ
lai2Ġ wang3Ġ
Ġbing4Ġ xiang4Ġ
Ġke4Ġ lu3Ġ
Ġshang4Ġ sheng1Ġ
gui1Ġ ge2Ġ
lv4Ġ shi1
fan4Ġ dian4Ġ
Ġ1 ĠĠĠ
Ġshi4Ġyi1Ġke1Ġ heng2Ġxing1Ġ
mo2Ġte4 Ġer2Ġ
Ġ le4Ġ
Ġ 1947Ġnian2Ġ
hua4 Ġxian4Ġ
ping2 Ġji2Ġ
fa3 Ġhe2Ġ
10 Ġge4Ġ
rang4 Ġren2Ġ
ver Ġ
li4Ġ ziĠ
zhu3Ġ guan3Ġ
qi3Ġ fa1Ġ
Ġqi2Ġzhong1Ġ bao1Ġkuo4
han2Ġ gai4Ġ
bu3Ġ ru3
re4Ġ men2Ġ
Ġjie1Ġ zhu4Ġ
Ġbo1Ġ luo2Ġ
niu3Ġyue1 Ġshi4Ġ
Ġ Å
Ġ tou2
Ġ xi3
Ġ zhun3Ġbei4Ġ
ĠĠĠ Ro
ĠĠĠ qi4Ġhou4Ġ
zuo4 Ġhe2Ġ
nan2 Ġzhi4Ġ
da2 Ġhe2Ġ
dou1 Ġyi3Ġ
2026 Ġnian2Ġ
Ġshi4Ġ jiang1Ġ
zhi4Ġ liao2Ġ
Ġren2Ġ shu4
Ġgong1Ġ guo2Ġ
Ġyi1Ġ lang3Ġ
yue1Ġ 1
gou4Ġ wu4Ġ
Ġfu2 Ġli3Ġ
Ġdi4Ġer4 Ġge4Ġ
Ġya4Ġ mei3Ġ
Ġ zheng1Ġyue4Ġ
ai2 Ġ
shang4 Ġyi3Ġ
dou1 Ġyu4Ġshi3Ġ
zan4 Ġcheng2Ġ
tui3 Ġ
Ġren2Ġ si3Ġwang2Ġ
Ġxian4 Ġli4Ġ
Ġdan4 Ġzhe4Ġ
wen2Ġ ben3Ġ
Ġdai4Ġ ling3Ġ
yuan4Ġ xiao4Ġ
tian2Ġ xin4Ġ
sa4Ġ zhu1Ġ
Ġ2 ĠĠĠ
jian4Ġzhu4Ġ wu4Ġ
ge1Ġqu3 ĠdeĠ
mu4Ġni2Ġ hei1Ġ
Ġqi1Ġxi1Ġ shen1Ġdu4Ġ
Ġ 1983
Ġ huo2Ġdong4Ġ
Ġ 1937Ġnian2Ġ
Ġ 1946Ġnian2Ġ
jia1 Ġshi2Ġ
bei4 Ġbu4Ġ
jin4 Ġcheng2Ġ
hua2 Ġyu3Ġ
dian3 Ġwei4Ġyu2Ġ
sha1 ĠleĠ
lu3 Ġji2Ġ
style Ġ
Ġdao4Ġ guang1Ġ
qi1Ġ kan1Ġ
dong4Ġ wu4ĠdeĠ
dong1Ġ bu4ĠdeĠ
jue2Ġ ce4Ġ
bi3Ġ ci3Ġ
lin2Ġ na4Ġ
xuan3Ġ piao4Ġ
bian4Ġ geng1
Ġxiang4Ġ zheng1Ġ
pai2Ġ hang2
ĠdeĠyi1Ġ zhong3
shen3Ġ cha2
miao2Ġshu4Ġ leĠ
Ġfei1 Ġli4Ġ
Ġliu4 Ġyue4Ġ
ĠĠĠ Y
jun1 Ġren2Ġ
shi1 Ġli4Ġ
wai4 Ġxing2Ġ
zi1 ĠdeĠ
Ġshi4Ġ dai4Ġ
Ġshi4Ġ ri4Ġben3
Ġji4Ġ zhe3Ġhui4Ġ
Ġde2 Ġyi4Ġ
gao1Ġ feng1Ġ
qing1Ġ hai3Ġ
bian1Ġ jing4
xie1Ġ gen1
chong1Ġ fen4Ġ
duo2Ġ guan4Ġ
Ġwu2 Ġren2Ġ
zhan4Ġdou4 Ġji1Ġ
chuang4Ġban4 Ġren2Ġ
Ġ 1988
qu1 Ġyu2Ġ
qu1 Ġyi4Ġ
sheng3 Ġzheng4Ġ
ji3 Ġnan2Ġ
qin1 Ġshi2Ġ
xin1Ġ sheng1Ġ
lu4Ġ ying3Ġ
jing1Ġ ti3Ġ
jiao4Ġ xiao3Ġ
liang3Ġ ci4
she4Ġ ding4Ġ
Ġxing2Ġzheng4 Ġzhong1Ġxin1
Ġ gan4
Ġ liu3
zuo4 Ġyou3Ġ
shang4 Ġhe2Ġ
shou3 Ġbei4Ġ
zhang3 Ġli3Ġ
san1 Ġguo2Ġ
yuan4 Ġhe2Ġ
bao3 Ġshi4Ġ
jiu4 Ġyi3Ġ
meng2 Ġyou3Ġ
zhen3 Ġduan4Ġ
chai2 Ġyou2Ġ
shi2Ġ dai4Ġ
Ġgong1Ġ jin1
Ġgong1Ġ bu4ĠdeĠ
Ġcheng2Ġ qiang2Ġ
Ġyuan2Ġ lai2ĠdeĠ
Ġzhan4Ġ lve4Ġ
jie1Ġ qu1Ġ
shen2Ġ jing1
Ġbi4Ġ ye4Ġhou4Ġ
Ġgai1Ġsheng3Ġfen4Ġwei4Ġfa3Ġguo2Ġ bei3Ġbu4Ġ
hua2Ġsheng4Ġ dun4Ġ
sai1Ġer3Ġwei2Ġ ya4
guo2ĠdeĠte4Ġyou3Ġ zhi2Ġwu4Ġ
Ġ mo
Ġ fu3
Ġ jing4
Ġ Ba
Ġ fen4Ġ
ai4 Ġhe2Ġ
yi1 Ġzai4Ġ
li3 Ġyou3Ġ
xin1 Ġhe2Ġ
ke3 Ġxing2Ġ
bai4 ĠdeĠ
yong3 Ġshi4Ġ
zao1 Ġdao4
Ġbei4Ġ pan4Ġ
jiao4Ġ gao1ĠdeĠ
fa1Ġ yu4Ġ
Ġxin1Ġ wen2
zu2Ġ zong3Ġ
ban1Ġ dian3Ġ
lun4Ġ shu4Ġ
shao3Ġ liang4Ġ
tui1Ġ fan1Ġ
nie4Ġ ci2
Ġsheng1Ġhuo2 Ġzai4Ġ
Ġ re
Ġ 68
Ġ Me
Ġ mĠ
ĠĠĠ c
ĠĠĠ Ra
gai1 Ġdi4Ġqu1Ġ
nuo4 Ġbei4Ġer3Ġ
Ġyuan2Ġ xing2
Ġer2 Ġyou3Ġ
Ġzhou1 Ġguo2Ġ
yan2Ġ lun4
fen1Ġ shu4Ġ
jie4Ġ mian4Ġ
xiao3Ġ xiang4Ġ
sui2Ġ zheĠ
Ġzhi2Ġ jing4Ġ
Ġsan1 Ġguo2Ġ
Ġba1 Ġxi1Ġ
ran3Ġ se4Ġ
Ġ guo3Ġ
xin1 Ġxi1Ġlan2Ġ
er2 Ġcheng2Ġ
nei4 Ġhe2Ġ
ning2 Ġxian4Ġ
48 Ġ
ĠdeĠ ping2Ġ
Ġzai4Ġ xia4Ġ
Ġdi4Ġ chu3Ġ
Ġyi4Ġ miao2
sheng1Ġ xiao4Ġ
Ġji1Ġ dong4Ġ
yan2Ġ hai3
lian2Ġ bo1Ġ
bei3Ġ ka3Ġluo2Ġlai2Ġna4
Ġsheng1Ġ ming4
Ġdan4Ġ bai2
qing1Ġ chao2
pai2Ġ fang4Ġ
xian4Ġ chang3Ġ
Ġdong1Ġ lin2
ĠO Ġ
dian4Ġzi3 Ġyou2Ġxi4Ġ
guan3Ġkong4 Ġzhong1Ġfa1Ġxian4Ġ
Ġ Ð½
Ġ 1952Ġnian2Ġ
ĠĠĠ she4Ġhui4Ġ
ĠĠĠ 2024Ġnian2Ġ
dao4 Ġde2Ġ
wai4 Ġji2Ġ
yun4 ĠdeĠ
bian4 Ġxing2Ġ
fan3 Ġgong1Ġ
shang1 Ġhui4Ġ
qing2 Ġren2Ġ
deng1 Ġji1Ġ
align Ġ
da4Ġ chen2Ġ
Ġxing2 Ġzhi4Ġ
Ġke4Ġ lun2Ġ
Ġzhu4Ġ ming2ĠdeĠ
xing2Ġ dong4
ban4Ġshi4Ġ chu4
Ġ gui1
ĠĠĠ 2000Ġnian2Ġ
you3 Ġbu4Ġfen4Ġ
zheng4 Ġhe2Ġ
ping2 Ġxing2Ġ
xiang4 Ġyu3Ġ
min2 Ġshi4Ġ
mei2 Ġli4Ġ
huan3 Ġman4Ġ
Ġbu4Ġ shu3Ġ
Ġshi2Ġ chang2Ġ
Ġda4Ġ jiang1Ġjun1Ġ
zi4Ġ zhu3Ġ
Ġzhan4Ġ yi4Ġzhong1Ġ
Ġtong2 Ġbu4Ġ
Ġxue2Ġ sheng1
se4Ġ qing2Ġ
jian3Ġ ce4
zheng1Ġ duo2
zheng1Ġ lun4Ġ
zhuan1Ġ zhu4Ġyu2Ġ
xun2Ġ luo2Ġ
Ġqian2Ġ wang3
dian4Ġying3 Ġzhong1Ġ
Ġji2Ġtuan2 Ġyou3Ġxian4Ġgong1Ġsi1Ġ
luo2Ġma3Ġ ni2Ġya4Ġ
Ġyu3Ġmao2 Ġqiu2Ġ
le Ġta1
cu4 Ġ
zei2 Ġ
Ġshi4Ġ xiang1Ġgang3
Ġshi4Ġ dang1Ġdi4Ġ
Ġzai4Ġ ke4Ġ
Ġcheng2Ġ yuan2ĠdeĠ
Ġda4Ġ zi4Ġ
zhu4Ġ fang2Ġ
shou3Ġ fa3Ġ
ye4Ġ wu4
liang3Ġ zhe3Ġ
jia4Ġ shi3
hai2Ġ zi
zhen1Ġ cha2
Ġwan4Ġ ying1Ġ
Ġbi4Ġ xu1
ĠdeĠbu4Ġ tong2Ġ
Ġshen1Ġ du4Ġ
shou1Ġlu4Ġ leĠ
ĠĠĠ Ar
ma3 Ġde2Ġli3Ġ
hu4 ĠdeĠ
qiao1 Ġchu1Ġ
Ġzai4Ġ ba1Ġ
Ġyi4Ġ li4Ġ
zhu3Ġ zhang1
Ġjian4Ġ zao4ĠdeĠ
Ġquan2 Ġqiu2
jue2Ġ xin1Ġ
ke3Ġ yong4Ġyu2Ġ
liang3Ġ ce4
lu2Ġ wa3Ġ
xuan1Ġ cheng1
Ġshe4Ġji4Ġ shi1Ġ
xi3Ġ ai4Ġ
2010Ġnian2Ġ mei3Ġguo2Ġren2Ġkou3Ġpu3Ġcha2Ġ
Ġguo2Ġjia1 Ġji2Ġ
Ġwei4Ġzhong1Ġ xin1Ġ
Ġchao2Ġ ting2Ġ
zhu3Ġti2Ġ qu1Ġ
Ġmin2 Ġji2Ġ
ji3Ġnei4Ġ ya4Ġ
Ġ gui3
yan2 Ġhe2Ġ
wu3 Ġren2Ġ
qi3 Ġchu1Ġ
luo2 ĠdeĠ
cha2 Ġsi1Ġ
Ġzhong1Ġ xue2
Ġren2Ġ lei4ĠdeĠ
Ġsi1Ġ ta3
Ġji1Ġ qiang1Ġ
Ġxi1Ġ de2Ġ
Ġbing4Ġ kai1Ġshi3Ġ
zhi3Ġ ling4Ġ
gu3Ġ dai4
Ġzhong1Ġguo2Ġ guo2Ġjia1Ġ
ke3Ġyi3Ġ yong4Ġ
tao3Ġ fa2Ġ
ĠdeĠli4Ġ shi3
zhen3Ġ duan4
Ġ xu3
Ġ 99
Ġ Si
duo1 Ġjia1Ġ
qing1 Ġxi1Ġ
bo2 Ġke4Ġ
zheng3 Ġshu4Ġ
SA Ġ
1902 Ġnian2Ġ
ĠdeĠ wei4Ġzhi4Ġ
Ġshi4Ġ tu2
Ġshi4Ġ han2Ġguo2Ġ
Ġbu4Ġ yi4Ġ
Ġshi2Ġ er4
jia1Ġ qiang2Ġ
xiang1Ġ lian2Ġ
Ġming2Ġ dan1
kai1Ġ bo1Ġ
zhi3Ġ biao1Ġ
wai4Ġ jie4
Ġju4Ġ qing4Ġxia4Ġ
lie4Ġ biao3
zhen1Ġ dui4
Ġwan4Ġ zhang1Ġ
gui3Ġdao4Ġ jiao1Ġtong1Ġ
xin1Ġli3Ġ xue2Ġ
Ġwei4Ġfu2Ġqi2Ġyu2Ġgang1Ġ lu2Ġxing2Ġmu4Ġ
Ġpu2Ġtao2Ġya2 Ġyu3Ġ
Ġ chuan2
Ġ 1982
Ġ ju3Ġxing2Ġ
Ġ zhu2Ġ
shang4 Ġzai4Ġ
shi3 Ġqi2Ġ
zhong4 Ġxing2Ġ
se4 Ġhuo4Ġ
kun1 Ġchong2Ġ
der Ġ
Ġhe2Ġ zhong1Ġguo2Ġ
Ġbu4Ġ xiang2Ġ
Ġzhi4Ġ pian4Ġ
Ġyi4Ġ chang2Ġ
wei2Ġ hu4Ġ
Ġji1Ġ guan1
dong1Ġ lu4Ġ
ĠleĠ dui4Ġ
mei3Ġ guo2Ġhe2Ġ
Ġnan2Ġ fang1Ġ
ling2Ġ mu4Ġ
fei4Ġ chu2
huan2Ġ bao3Ġ
Ġqian2Ġ long2
kao3Ġlv4 Ġdao4Ġ
Ġ xian3
Ġ xiu4Ġ
ĠĠĠ fan3Ġ
gong1 Ġwei4Ġ
jin4 Ġdai4Ġ
yan2 Ġshi4Ġ
ying3 Ġji2Ġ
nv3 ĠdeĠ
men2 Ġshi4Ġ
tiao2 Ġjian4
gu4 ĠdeĠ
si3 ĠdeĠ
ine Ġ
Ġshi2Ġ shang4Ġ
Ġdi4Ġ 2
Ġhou4Ġ yin1Ġ
Ġxi1Ġ lan2
Ġming2Ġ chao2
jiao4Ġ duo1Ġ
fen1Ġ lie4
fu2Ġ te4Ġ
ding4Ġ lv4Ġ
wei3Ġ tuo1
jian4Ġ zao4
quan2Ġ wei1Ġ
xun2Ġ huan2
er2Ġ yan2Ġ
leĠyi1Ġ xie1
dou4Ġ zheng1
Ġqu1Ġ yu4Ġ
zhu1Ġlong2Ġ cao3
xia4 Ġxing2Ġ
zhu4 Ġgong1Ġ
te4 Ġzhi4Ġ
jie1 Ġyou3Ġ
ci4 Ġri4Ġ
ti3 Ġzhong1Ġ
shou4 ĠleĠ
ban4 Ġxue2Ġ
12 Ġge4Ġ
xi2 ĠdeĠ
fang2 ĠdeĠ
ia Ġ
Ġyu2Ġ zhong1Ġ
Ġyi1Ġ shou3Ġ
hou4Ġ lai2
Ġda4Ġ ming2Ġ
ju4Ġ chang3Ġ
jiao4Ġ xiao3ĠdeĠ
dian4Ġ che1
ti3Ġ nei4Ġ
mei3Ġguo2Ġ guo2Ġjia1Ġ
bo1Ġ luo2Ġdi4Ġ
Ġzhong1Ġguo2Ġ da4Ġlu4
ling2Ġ shou4Ġ
huo4Ġ sheng4Ġ
ĠdeĠshi4Ġ li4Ġ
qu1ĠdeĠ yi2Ġge4Ġ
huan2Ġxing2Ġ shan1Ġ
hao3Ġlai2Ġ wu4Ġ
5 Ġming2Ġ
9 Ġge4Ġ
Ġ gan1
Ġ 1970Ġnian2Ġ
gao1 Ġjia1Ġ
gui1 ĠdeĠ
su1 Ġzhou1Ġ
zong1 Ġzuo4Ġ
tan3 Ġke4
70 Ġnian2Ġ
36 Ġ
Ġxi1Ġ shou1Ġ
Ġzhi1Ġ yi1ĠdeĠ
Ġbei4Ġ ren4Ġwei2
qi4Ġ xuan2
Ġzi4Ġ sha1Ġ
jiu3Ġ jing1Ġ
xun2Ġ yan3Ġ
tie3Ġlu4Ġ ju2Ġ
wen2Ġhua4Ġ yi2Ġchan3Ġ
min2Ġzhu3Ġ zhu3Ġyi4Ġ
wen1Ġ ge1Ġ
cheng2Ġli4Ġ yu2Ġ
pai2Ġhang2Ġ bang3Ġ
yun3Ġshi2Ġ keng1Ġ
you1Ġxiu4 ĠdeĠ
Ġgai1Ġwu4Ġzhong3ĠdeĠ mo2Ġshi4Ġchan3Ġ
Ġ iĠ
ĠĠĠ h
ao4 Ġli4Ġ
mu4 Ġhou4Ġ
dan1 Ġren2Ġ
zhao4 Ġji2Ġ
guan4 Ġjun1ĠdeĠ
sai1 Ġsi1Ġ
gai4 ĠleĠ
21 Ġshi4Ġji4Ġ
Ġwei4Ġ ji1Ġchu3Ġ
Ġyi4Ġ bai3Ġ
fang1Ġ zhen1Ġ
dian4Ġ dong4Ġ
Ġqi2Ġ bing1
ge2Ġ lei1Ġ
an1Ġ fu3Ġ
ying3Ġ zhan3Ġ
shui3Ġ zhun3Ġ
can1Ġ mou2Ġ
xian4Ġ dai4
ju1Ġ bu3Ġ
zhuan3Ġ bo1Ġ
Ġbo1Ġ lan2Ġ
Ġzhan4Ġzheng1 Ġzhong1Ġ
shou4Ġhuan1Ġ ying2ĠdeĠ
Ġ zai4
Ġ yan3Ġyuan2Ġ
Ġ bo1Ġchu1Ġ
Ġ reng2Ġ
ĠĠĠ fa1Ġxing2Ġ
xiang4 Ġqi2Ġ
la1 Ġli4Ġ
si4 Ġge4
po4 ĠleĠ
mie4 Ġwang2Ġ
shi3Ġ guan3Ġ
guan1Ġ bi4
jing1Ġ dian3
suo3Ġ en1Ġ
bei3Ġ lu4Ġ
ge2Ġ li2
Ġzuo4Ġ leĠ
ya4Ġ zhong3Ġ
feng1Ġ mian4Ġ
san1Ġ shi2Ġnian2Ġ
fei1Ġ ji1
Ġdi4Ġer4Ġ ci4Ġshi4Ġjie4Ġda4Ġzhan4Ġ
Ġzhi3 ĠdeĠshi4Ġ
Ġzhong1Ġshi4Ġ yan3Ġ
ĠĠĠben3 Ġyu2Ġ
Ġ chao2
ĠĠĠ b
si1 Ġyou3Ġ
bian4 Ġde2
ye1 Ġsu1Ġ
suo3Ġ mu3Ġ
shan1Ġ chu2Ġ
qing1Ġ hua2Ġda4Ġxue2Ġ
ying1Ġ chao1
Ġxiang1Ġ xin4Ġ
sha1Ġ hai4
qian1Ġ xi3
guang1Ġ xu4
gu4Ġ ding4
zheng4Ġfu3 Ġzai4Ġ
Ġ bao4Ġdao4Ġ
ĠĠĠ Ca
xue2 Ġli4Ġ
qi1 Ġge4Ġ
wen2 Ġji2Ġ
jie1 Ġdao4
zhong4 Ġzhi4Ġ
yan4 ĠdeĠ
to Ġ
ps Ġ
Ġwei4Ġ qi2
Ġdi4Ġ 4Ġ
Ġyu2Ġ 2025
Ġli4Ġ an1Ġ
ji1Ġ gou4
ji1Ġ hu1
Ġda4Ġ jun1Ġ
Ġyu3Ġ qian2Ġ
Ġji4Ġ ren4Ġ
fu4Ġ shu3
ju4Ġ dian3Ġ
hua4Ġ xue2
zhe4Ġ yang4
Ġfu4Ġ nv3Ġ
Ġshe4Ġ li4ĠdeĠ
Ġdan4Ġ yao4Ġ
si4Ġ hu1Ġ
wei1Ġ bo2Ġ
Ġgong1Ġzuo4Ġ zhe3Ġ
hai3Ġjun1Ġ lu4Ġzhan4Ġ
Ġwei4Ġdi4Ġ yi1Ġ
Ġgong4 Ġji4Ġ
Ġzhong1Ġguo2Ġguo2Ġmin2Ġ dang3Ġ
Ġ tui1Ġchu1Ġ
Ġ gui1Ġding4Ġ
hou4 Ġji2Ġ
fu4 Ġyuan2Ġ
jiang1 Ġxian4Ġ
jiang4 Ġzhi4Ġ
xun1 Ġzhang1
qiao1 Ġ
Ġzhong1Ġ jie2Ġ
Ġshi2Ġ ba1Ġnian2Ġ
Ġzhi4Ġ hui4Ġ
jia1Ġ meng2Ġ
Ġyi1Ġ hao4Ġ
zheng4Ġ wu4Ġ
Ġhui4Ġ hua4Ġ
suo3Ġ xia2
ma3Ġ chang3Ġ
ma3Ġ en1Ġsheng3Ġ
jiu4Ġ ke3Ġyi3Ġ
zu2Ġ qun2
kong1Ġ tiao2Ġ
Ġying1Ġ cun4Ġ
guang3Ġbo1Ġ dian4Ġshi4Ġ
ĠĠĠta1 Ġzai4Ġ
dian4Ġqi4Ġ hua4Ġ
Ġ ãĤĵ
le Ġda4Ġliang4Ġ
zhi3 Ġwei4Ġ
deng3 Ġzhan4Ġ
da2 Ġdao4ĠleĠ
lun2 Ġduo1Ġ
xiu1 Ġshi4Ġ
Ġzhi4Ġ li3Ġ
ping2Ġ gu1
dian4Ġ xin4Ġ
hai3Ġ di3Ġ
Ġdai4Ġ wei2Ġ
bao4Ġ dong4Ġ
mei2Ġ ti3ĠdeĠ
fan1Ġ chuan2Ġ
yong1Ġ you3ĠdeĠ
bi4Ġye4Ġ sheng1Ġ
Ġ chi4
Ġ 1986
Ġ Be
Ġ pan1Ġ
Ġ 1954Ġnian2Ġ
zhi1 Ġxia4Ġ
bo2 Ġli4Ġya4Ġ
cai3 Ġji2Ġ
zong4 Ġdui4Ġ
Ġyi1Ġ yi1Ġ
Ġjun1 Ġhe2Ġ
xin1Ġ zhu2
qi3Ġ hua4Ġ
Ġxia4Ġ jiang4Ġ
Ġzhu4Ġ zuo4Ġ
liang3Ġ ceng2Ġ
luo4Ġ fu1Ġ
ling4Ġ wai4
Ġjing1Ġ guo4
jia3Ġ zu3Ġ
di3Ġ kang4
Ġnian2Ġ11Ġyue4Ġ 1Ġri4Ġ
juan1Ġ zeng4Ġ
Ġbian1 Ġhao4Ġ
Ġ xiang2
Ġ John
ou1 Ġzhou1ĠdeĠ
qi2 Ġta1ĠdeĠ
lian2 Ġsi1Ġ
zhong4 Ġli4Ġ
hua2 Ġwei4Ġ
cong2 Ġzhong1Ġ
jie3 ĠdeĠ
gei3 Ġchu1Ġ
chang4 Ġyi4Ġ
qiang1 Ġji1Ġ
Ġren2Ġ yi4Ġ
Ġren2Ġ cai2Ġ
Ġer2 Ġwei4Ġ
fen1Ġ fen1Ġ
Ġshang4Ġ wu3Ġ
sai4Ġ shi4ĠdeĠ
tai4Ġ luo2Ġ
dao3Ġ zhi4ĠdeĠ
kao3Ġ ru4Ġ
dun4Ġ nie4Ġci2
yin3Ġqi3 ĠdeĠ
Ġ Jo
Ġ xue3Ġ
ĠĠĠ bai2Ġ
lu4 Ġde2Ġ
nan2 Ġdao4Ġ
zhi3 ĠdeĠshi4Ġ
bao4 ĠdeĠ
00 Ġ
pu3 Ġli4Ġ
zong1 Ġshi4Ġ
ding3 Ġbu4Ġ
III Ġ
Î² Ġ
Ġzai4Ġ dong1Ġ
li4Ġ yi4Ġ
Ġshi2Ġ yu2Ġ
dui4Ġ ying4Ġ
Ġjia1Ġ meng2
fa1Ġ da2Ġ
Ġdui4Ġ kang4Ġ
zhang1Ġ dan1Ġqu1Ġ
jin3Ġ ci4Ġyu2Ġ
huan2Ġ rao4
kuo4Ġ zhang1
Ġhong2Ġ se4Ġ
shuai4Ġ xian1Ġ
Ġ chuang4Ġzuo4Ġ
Ġ 1938Ġnian2Ġ
zhan4 Ġji2Ġ
zhang1 Ġjia1Ġ
mai4 Ġke4Ġer3Ġ
zao3 Ġyu2Ġ
lao3 Ġhui4Ġ
47 Ġ
Ġbu4Ġ xia4Ġ
Ġbu4Ġ lang3Ġ
Ġda4Ġ xuan3Ġ
shang4Ġ su4Ġ
ping2Ġ mian4Ġ
nan2Ġ xing4
lu4Ġ xu4
Ġsheng1Ġ ya2
bian1Ġ ru4Ġ
wei1Ġ fu1Ġ
ye3Ġ mei2Ġyou3Ġ
xing2Ġ zheng4
Ġfen1Ġ lan2Ġ
leĠyi1Ġ zhong3Ġ
Ġtai2Ġ bei3Ġ
xiang1Ġdang1 Ġyu2Ġ
shuai4Ġling3 ĠdeĠ
Ġ 1975Ġnian2Ġ
ai4 Ġli4Ġsi1Ġ
ĠĠĠ 2001Ġnian2Ġ
lin2 Ġxian4Ġ
rong2 Ġyu2Ġ
hai2 Ġhui4Ġ
xiu1 Ġxi1Ġ
tu4 Ġ
Ġshi2Ġ bie2Ġ
Ġyu2Ġ jia1Ġ
Ġli4Ġ wei3Ġ
xia4Ġ lang3Ġde2Ġ
min2Ġ dang3Ġ
Ġhuo4 Ġer3Ġ
yun4Ġ suan4Ġ
wang3Ġ fan3Ġ
mi4Ġ ma3Ġ
ĠdeĠdi4Ġ tie3Ġ
can1Ġ yan3Ġ
man4Ġ hua4Ġjia1Ġ
Ġluo2Ġ bo2Ġ
ĠdeĠren2Ġ wu4Ġ
Ġma3 Ġke4Ġ
Ġshu3Ġ rou4Ġshi2Ġxing4Ġ
Ġai1 Ġer3Ġ
shi1Ġfan4 Ġda4Ġxue2Ġ
jian1Ġcha2 Ġyu4Ġshi3Ġ
Ġ k
Ġ kong3
Ġ niu3Ġ
Ġ hui1Ġfu4Ġ
Ġ geng1Ġming2Ġwei4Ġ
Ġ 1976Ġnian2Ġ
wei1 Ġer3Ġsi1Ġ
pen2 Ġ
na3 Ġ
ĠdeĠ zuo4Ġpin3Ġ
Ġwei4Ġ xing1
Ġji2Ġ you3Ġ
ming2Ġ chao2Ġ
Ġxian4Ġ ren4
Ġjia1Ġ ju4Ġ
qian2Ġ long2Ġ
zhi2Ġ wu4ĠdeĠ
Ġzheng4Ġ quan4Ġ
zong3Ġ jiao4Ġqu1Ġ
Ġzhu3Ġ jiao4Ġ
e2Ġ wai4ĠdeĠ
Ġgao1Ġ deng3Ġ
Ġxiao3Ġ shuo1
huo2Ġdong4 Ġzhong1Ġ
Ġbu4Ġguo4 Ġzai4Ġ
yi1Ġli4Ġ nuo4Ġyi1Ġ
Ġ 1966Ġnian2Ġ
ĠĠĠ Be
ĠĠĠ tai2Ġwan1
ĠĠĠ xiang1Ġguan1Ġ
zuo4 Ġcheng2Ġ
bo Ġdu4Ġ
bao4 Ġyu3Ġ
zhan3 Ġxian4
zhuang1 Ġyuan2Ġ
lao3 Ġren2Ġ
Ġhe2Ġ zuo4ĠdeĠ
Ġxian4 Ġyi4Ġ
zuo4Ġ qu3Ġjia1Ġ
Ġqi2 Ġren2Ġ
zheng4Ġ dang3
zheng4Ġ bian4Ġ
Ġjia1Ġ zu2ĠdeĠ
Ġta1Ġ ke3Ġyi3Ġ
ju4Ġ jue2
Ġbei4Ġ ji1Ġ
yan2Ġ fa1
wen2Ġ shu1Ġ
zui4Ġ xin1Ġ
Ġzhe4Ġ yi4Ġwei4Ġ
Ġxiang1Ġ jiao4Ġyu2Ġ
mi4Ġ mi4
zheng1Ġ duo2Ġ
lei4Ġ an4Ġjian4Ġ
jia4Ġ zhi2ĠdeĠ
xian1Ġ qu1Ġ
ling2Ġ hun2
Ġjian4Ġzhu4Ġ shi1Ġ
Ġxing2Ġzheng4Ġ zhang3Ġguan1Ġ
ĠdeĠbu4Ġ dui4Ġ
Ġha1 Ġli4Ġ
Ġhua4Ġxue2 Ġshi4Ġwei4Ġ
Ġ 1948
Ġ huang2Ġjia1Ġ
Ġ 1935Ġnian2Ġ
ĠĠĠ xiao4Ġ
ĠĠĠ miao2Ġshu4Ġ
fu4 Ġwei4Ġ
fang1 Ġji4Ġ
ping2 Ġshi4Ġ
ben3 Ġshi4Ġ
tai2 Ġyu3Ġ
cai2 Ġhui4Ġ
zou3 ĠleĠ
Ġcheng2Ġ shu2
shang4Ġ zhen4Ġ
shi3Ġ zhe3Ġ
zui4Ġ zhu4Ġming2ĠdeĠ
shu1Ġ niu3
jiao1Ġ wang3Ġ
zu3Ġ zhang3Ġ
Ġci3 Ġzhan4Ġ
ĠdeĠyi4Ġ shu4Ġ
niu3Ġyue1 Ġzhou1Ġ
Ġxian4Ġlu4Ġ kou3Ġ
wo3Ġmen ĠdeĠ
shou4Ġhai4Ġ zhe3Ġ
Ġ kan3
Ġ Pa
Ġ hen3Ġduo1Ġ
ĠĠĠ 20Ġshi4Ġji4Ġ
li Ġ
wei2 Ġji2Ġ
sheng1 Ġdao4Ġ
zui4 Ġming2Ġ
75 Ġ
46 Ġnian2Ġ
yan2Ġ xu4Ġ
gao1Ġ ceng2Ġ
shi1Ġ zong1Ġ
jie1Ġ shang4Ġ
Ġtong2 Ġnian2Ġ8Ġyue4Ġ
Ġhuo4Ġ bi4Ġ
biao3Ġ mian4
Ġben3Ġ shen1Ġ
zhi1Ġ hou4ĠdeĠ
zhuan4Ġ xie3
tiao2Ġjian4Ġ xia4Ġ
Ġyi4Ġzhi2 Ġzai4Ġ
shi1Ġqu4 ĠleĠ
na4Ġcui4 Ġde2Ġguo2Ġ
e2Ġhai4Ġe2 Ġzhou1Ġ
9 Ġmi3Ġ
Ġ ce4
Ġ huang2Ġdi4Ġ
ke4 ĠdeĠ
zhi2 Ġgong1Ġ
zhi2 Ġbei4Ġ
zu3 Ġcheng2Ġyuan2Ġ
ying1 Ġshi4Ġ
mu3 Ġhe2Ġ
chu3 Ġguo2Ġ
zhong1Ġ xue2Ġ
jin1Ġ tian1Ġ
chang2Ġ chang2Ġ
hui2Ġ lai2Ġ
tui1Ġ fan1
Ġzhi2 Ġdao4
lv4Ġwei4Ġ 0
Ġ ref
Ġ Ð¸
Ġ sai4Ġshi4Ġ
Ġ za2Ġ
Ġ biao1Ġzhi4Ġ
e2 Ġjun1Ġ
ĠĠĠ yang2Ġ
pu3 ĠdeĠ
ku4 ĠdeĠ
zhao1 Ġhe2Ġ
kao4 Ġjin4
ter ĠĠĠ
ren2Ġ lei4
cheng2Ġ li4ĠdeĠ
Ġdi4Ġ 1
ji4Ġ lu4
xi1Ġ li3Ġ
ren4Ġ jiao4Ġ
fa3Ġ an4
mu4Ġ han3Ġmo4Ġde2Ġ
Ġyin1Ġ su4
jie4Ġ ru4Ġ
zong3Ġ ti3Ġ
gu3Ġ ba1Ġ
Ġlu4Ġ yin1Ġshi4Ġ
fei4Ġ qi4Ġ
sai1Ġ e2Ġ
Ġmeng2Ġ gu3
Ġ d
Ġ miao2Ġ
zhan4 Ġli4Ġ
fu4 Ġyi4Ġ
qi1 Ġming2Ġ
xing4 Ġdi4Ġ
xiao4 Ġzhong1Ġ
long2 Ġshi4Ġ
pai2 Ġqiu2Ġ
80 Ġnian2Ġ
ers Ġ
Ġbu4Ġ shou4Ġ
Ġyu2Ġ 9Ġyue4Ġ
Ġcheng2Ġ du4ĠdeĠ
Ġxian4Ġ ding4Ġ
Ġbei4Ġ xuan3Ġwei4Ġ
zui4Ġ duo1
Ġzhe4Ġ ye3Ġ
ba1Ġ da2Ġ
bian4Ġ geng1Ġ
chu3Ġ cun2Ġ
lu2Ġ sen1Ġ
Ġcheng2Ġyuan2Ġ guo2Ġ
Ġxi4Ġ bao1
jing1Ġli4Ġ leĠ
Ġ huo3
Ġ zheng3
Ġ 69
Ġ ding3Ġ
ĠĠĠ ri4
ti2 ĠdeĠ
11 Ġshi2Ġ
que1 Ġxian4Ġ
46 Ġ
ren2Ġ lei4Ġ
Ġbu4Ġ lang3
Ġbu4Ġ bei4Ġ
Ġyu2Ġ 2008
Ġren2Ġ wei2Ġ
jia1Ġ ting2
Ġyu3Ġ zhi1
Ġxi1Ġ lin2Ġ
Ġchu1Ġ ju2Ġ
Ġwei2Ġ lai2Ġ
Ġdai4Ġ ling3
jie3Ġ jie3Ġ
jiang3Ġ shi1Ġ
chu4Ġ chu4Ġzhang3Ġ
ĠdeĠshi2Ġ ji4Ġ
geng1Ġ gai3Ġ
mu4Ġdi4Ġ di4Ġ
ĠĠĠhou4Ġ lai2Ġ
xie2Ġshang1Ġ hui4Ġyi4Ġ
5 ĠĠĠ
Ġ nai4
Ġ bing3
Ġ ming4Ġming2Ġ
wu4 Ġji2Ġ
dai4 Ġshi2Ġ
bao3 Ġjian4Ġ
qing1 ĠdeĠ
qiang2 Ġxing2Ġ
guan4 Ġli4Ġ
gan4 Ġshi4Ġ
Ġshi4Ġ jue2Ġ
Ġyu3Ġ ta1
Ġli3Ġ cha2Ġ
zhan4Ġ chang3Ġ
Ġzhi1Ġ yong4Ġ
kai1Ġ pu3Ġ
san1Ġ ceng2Ġ
mei3Ġ la1Ġ
zhou1Ġ qi1Ġ
Ġtong2Ġshi2Ġ ye3
kai1Ġshi3 Ġhou4Ġ
zai1Ġ hai4Ġ
shu4Ġliang4 ĠdeĠ
ken3Ġ se4
5 Ġshi2Ġ
Ġ tuo1
hou4 Ġgong1Ġ
chu1 Ġxian4ĠdeĠ
fa3 Ġjun1Ġ
fu2 Ġda4Ġxue2Ġ
pu3 Ġsi1Ġ
zhuang1 Ġzai4Ġ
shuai4 Ġjun1Ġ
Ġwei4Ġ 2
Ġhe2Ġ dao4Ġ
Ġji2Ġ ta1Ġ
Ġyuan2Ġ you3ĠdeĠ
Ġde2 Ġshi4Ġ
Ġde2 Ġzai4Ġ
Ġli3Ġ jia1Ġ
zui4Ġ ju4Ġ
zong3Ġ guan3Ġ
liang3Ġ xiang4Ġ
Ġguo4Ġ qu4
ke3Ġneng2 Ġzai4Ġ
Ġbi4Ġ ye4Ġ
ling4Ġyi1Ġ zhong3Ġ
Ġgan1Ġ su4Ġ
Ġshi2Ġyi1Ġ yue4Ġ
fu2Ġluo2Ġli3Ġ da2Ġzhou1Ġ
3 ĠĠĠ
Ġ 1968Ġnian2Ġ
Ġ 1964Ġnian2Ġ
yi1 Ġnian2ĠdeĠ
qu1 Ġyu3Ġ
qu1 Ġwei4Ġyu2Ġ
shang4 Ġyi4Ġ
er2 Ġbei4Ġ
na4 Ġzai4Ġ
wan1 Ġdao4Ġ
xun4 ĠdeĠ
wa3 Ġer3
miao4 ĠdeĠ
39 Ġnian2Ġ
ren2Ġ kou3
yi4Ġ yi4Ġ
Ġxing2Ġ che1Ġ
ren4Ġ tian1Ġtang2Ġ
xin1Ġ a1Ġji1Ġtan3
min2Ġ jian1
nei4Ġ bu4ĠdeĠ
Ġzhe4Ġ liang3Ġge4Ġ
bian4Ġ lun4Ġ
Ġsui4 Ġren2Ġkou3Ġ
Ġying1Ġ gai1Ġ
lao3Ġ ban3Ġ
Ġtong1Ġ chang2Ġshi4Ġ
suo1Ġ xie3Ġ
Ġyong4Ġ lai2Ġ
bei3Ġjing1 Ġda4Ġxue2Ġ
li4Ġhe2Ġ wu2Ġzheng4Ġzhuang4Ġgan3Ġran3Ġzhe3Ġ
Ġyou4Ġming2Ġ BDĠ
Ġxin1Ġjia1Ġ po1
hang2Ġzhan4Ġ lou2Ġ
suo3Ġxu1 ĠdeĠ
Ġ lian2
Ġ ãĤ¹
gong1 Ġzhong1Ġ
yan2 Ġli4Ġ
suo3 Ġbu4Ġtong2Ġ
song4 Ġzhi4Ġ
da1 Ġcheng2Ġ
Ġbu4Ġ lu3Ġke4Ġ
Ġdi4Ġ 3
Ġge4 Ġyou3Ġ
Ġge4 Ġxian4Ġ
hui4Ġ hua4Ġ
sheng1Ġ zhang3
guan1Ġ kan4
lu4Ġ yin1Ġ
shou3Ġ hu4Ġ
chuan2Ġ jiao4Ġ
an4Ġ cha2Ġ
fan3Ġ kang4Ġ
hui2Ġ ying4
man4Ġ ha1Ġ
Ġci3Ġ qian2Ġ
mai4Ġ a1Ġ
xuan1Ġ gao4Ġ
tu1Ġ jue2Ġ
Ġquan2Ġguo2Ġ zhong4Ġdian3Ġwen2Ġwu4Ġbao3Ġhu4Ġdan1Ġwei4Ġ
Ġmin2Ġ zu2Ġ
Ġwei4Ġyu2Ġgai1Ġguo2Ġ bei3Ġbu4Ġ
Ġxi1 Ġyuan2Ġ
min3Ġ gan3Ġ
Ġgai1Ġwu4Ġzhong3ĠdeĠmo2Ġshi4Ġchan3Ġ di4Ġzai4Ġ
Ġ neng2
Ġ hao3
Ġ lou2Ġ
ĠĠĠ si4Ġ
yu2 Ġnian2Ġ
hou4 Ġzhi4Ġ
xiang4 Ġzai4Ġ
cheng1 ĠdeĠ
mi4 Ġji2Ġ
geng4 Ġyou3Ġ
lang2 ĠdeĠ
Ġyu3Ġ mei3Ġguo2Ġ
zhan4Ġ ju4Ġ
zhen4Ġ ying2Ġ
wu2Ġ guan1Ġ
zhi1Ġ wai4Ġ
zhuang1Ġ bei4
ha1Ġ la1Ġ
Ġsui2Ġ zhu4
jie1Ġdao4Ġ ban4Ġshi4Ġchu4Ġ
ou1Ġzhou1 Ġguo2Ġjia1Ġ
Ġxiang4 Ġshi4Ġ
Ġan4Ġ zhao4Ġ
Ġke4Ġxi1Ġ ta3Ġni2Ġda4Ġqu1Ġ
Ġ jia1
Ġ ju3
Ġ xu1
Ġ 44
Ġ 25Ġ
ĠĠĠ wu1Ġke4Ġlan2Ġ
lu4 Ġsi1Ġ
zui4 Ġjin4Ġ
shui3 Ġxian4Ġ
nv3 Ġyou3Ġ
qian1 Ġdao4Ġ
mi4 Ġer3Ġ
zhen1 Ġxiang4Ġ
ss Ġ
43 Ġnian2Ġ
Ġshi4Ġ xian4Ġ
Ġshi2Ġ si4Ġ
Ġyu2Ġ 17
Ġsi1Ġ li3Ġlan2Ġ
Ġwei2Ġ hu4Ġ
Ġwei2Ġ xiu1Ġ
Ġdai4Ġ bu3Ġ
sai4Ġ ju1Ġ
Ġhao4 Ġhe2Ġ
na4Ġ cui4Ġ
da2Ġ ke1
xi2Ġ su2Ġ
yin3Ġ fa1
hai2Ġ bao1Ġkuo4Ġ
que4Ġ ren4
xun2Ġ hang2Ġ
chong2Ġ xiu1Ġ
bie2Ġ shu4Ġ
zai1Ġ nan4Ġ
Ġmei2Ġ ti3Ġ
Ġai4 Ġde2Ġhua2Ġ
Ġzai4Ġzhe4Ġ ge
jiao1Ġhui4Ġ chu4Ġ
Ġ yuan3
ĠĠĠ 2002
ĠĠĠ bi3Ġsai4Ġ
yin1 ĠdeĠ
zhou1 Ġnian2Ġ
ci4 Ġshi4Ġ
neng2 ĠdeĠ
liu2 Ġdan4Ġ
tie3 Ġdao4
hen3 Ġgao1Ġ
ed Ġ
qu1Ġ yu4ĠdeĠ
jian1Ġ guan3Ġ
shu3Ġ xing4Ġ
ming4Ġ yun4Ġ
gu4Ġ wen4
wa3Ġ sheng3Ġ
Ġnian2Ġ6Ġyue4Ġ 30Ġri4Ġ
Ġcong2 Ġshi4Ġ
3 Ġgong1Ġli3Ġ
Ġ guan4Ġ
Ġ neng2Ġgou4Ġ
Ġ chuang4Ġli4Ġ
li3 Ġzhi4Ġ
mian4 Ġwei4Ġ
bi3 Ġsi1Ġ
lv4 Ġdi4Ġ
rong2 Ġhuo4Ġ
bie2 Ġren2Ġ
zao3 Ġyi3Ġ
mou3 Ġge4Ġ
64 Ġnian2Ġ
Ġshi2Ġ er4Ġyue4Ġ
Ġyi1Ġ fu2Ġ
guan1Ġ qia3
ye4Ġ ti3Ġ
ma3Ġ ding1Ġ
Ġjie2Ġ gou4
Ġshi4Ġzhen4Ġ fan4Ġwei2Ġnei4Ġ
bu3Ġ ji3Ġ
ke1Ġxue2Ġ yuan4
Ġguan1Ġ zhong4Ġ
Ġchu2Ġ le
Ġduo1 Ġge4Ġ
yun3Ġ keng1
re4Ġdai4Ġ di1Ġqi4Ġya1Ġ
zui4Ġhou4Ġ yi2Ġge4Ġ
zi1Ġben3Ġ zhu3Ġyi4Ġ
Ġ 1938
Ġ yun4Ġdong4Ġ
Ġ yan1Ġ
Ġ 1909Ġnian2Ġ
ĠĠĠ Le
dui4 Ġzhi4Ġ
shi1 Ġzai4Ġ
bian4 Ġhou4Ġ
18 Ġshi4Ġji4Ġ
di3 Ġbu4Ġ
kai3 Ġer3Ġ
75 Ġnian2Ġ
rao2 Ġ
li3Ġ you2Ġ
sheng1Ġ yu4Ġ
Ġta1Ġ dan1Ġren4Ġ
nan2Ġ hai3Ġ
Ġquan2 Ġcheng2Ġ
jing3Ġ wu4Ġ
pai2Ġ chu2
Ġwen2Ġ wu4Ġ
wan2Ġ fa3Ġ
Ġbi3Ġ ru2
Ġshi4Ġzhong1Ġ xin1
ĠHR ĠĠĠ
Ġ lei1
Ġ zao3Ġnian2Ġ
Ġ pei4Ġhe2Ġ
ĠĠĠ suo3Ġ
ĠĠĠ she4Ġ
da4 Ġshi4Ġ
yu3 Ġshi2Ġ
65 Ġnian2Ġ
you3Ġ xian4Ġ
Ġyi1Ġ zhao4Ġ
Ġge4 Ġchu1Ġru4Ġkou3Ġ
ming2Ġ que4Ġ
Ġta1Ġ you4Ġ
fa3Ġ gui1Ġ
Ġshang4Ġ xia4Ġ
liang4Ġ zi3
cheng1Ġ zan4
Ġtong2Ġ shi2Ġzai4Ġ
Ġfen1 Ġbu4Ġ
geng1Ġ huan4Ġ
Ġshi4Ġshi4Ġ zhang3Ġ
Ġge2Ġ lei2Ġ
Ġte4Ġbie2 Ġshi4Ġzai4Ġ
zhan4Ġdou4 Ġzhong1Ġ
tai2Ġnan2 Ġshi4Ġ
1 Ġyi4Ġ
Ġ dong3
Ġ ke3Ġyi3
Ġ qing1Ġnian2Ġ
Ġ 1977Ġnian2Ġ
ĠĠĠ mi3Ġ
ĠĠĠ zhe4Ġxie1Ġ
xian4 Ġlu4Ġ
hui4 Ġcheng2Ġ
zhan4 Ġyu3Ġ
duo1 Ġli4Ġ
ye3 Ġzhan4Ġ
che1 Ġzai4Ġ
qing3 Ġqiu2
bang3 Ġdan1Ġ
zun1 Ġshou3Ġ
kui2 Ġbei3
ad Ġ
Î± Ġ
Ġri4 Ġshi4Ġ
zuo4Ġ yong4
zhu3Ġ yi4Ġhe2Ġ
Ġbei4Ġ si1Ġ
dian4Ġ ci2Ġ
Ġke4Ġ lin2Ġ
ba1Ġ sai1Ġ
zu3Ġ shu1Ġji4Ġ
ci2Ġ xing4Ġ
zhuang1Ġ cun1Ġ
huo4Ġ wu4Ġ
Ġgao1Ġ su4Ġ
qin1Ġ wang2
xin4Ġ feng4
Ġshi3Ġ cheng1Ġ
Ġceng2 Ġwei4Ġ
Ġyi1Ġsi1Ġ lan2
jiao4Ġke1Ġ wen2Ġ
ba1Ġle4 Ġsi1Ġtan3
mi4Ġxi1Ġxi1Ġ bi3
Ġ Ðµ
ĠĠĠ La
can1 Ġjun1Ġ
92 Ġnian2Ġ
ĠdeĠ gui3Ġdao4Ġ
Ġgong1Ġ bu4
Ġyuan2Ġ sheng1Ġ
dui4Ġ hua4Ġ
guan1Ġ zhu4
zhi3Ġ dao3
luo2Ġ fu1
gou4Ġ cheng2ĠdeĠ
bing1Ġ chuan1Ġ
Ġgao1Ġ du4Ġ
tui1Ġ dong4
Ġnian2Ġzai4Ġ wei4Ġ
ying3Ġxiang3 ĠleĠ
Ġguo2Ġmin2Ġ zheng4Ġfu3
Ġwei4Ġyu2Ġgai1Ġguo2Ġ dong1Ġnan2Ġbu4Ġ
ĠdeĠji1Ġchu3 Ġshang4Ġ
3 Ġli4Ġ
Ġ ju2Ġ
ĠĠĠ So
gong1 Ġzai4Ġ
guan1 Ġjian4
bo1 Ġxi1Ġ
han4 Ġren2Ġ
wang4 ĠdeĠ
1980 Ġnian2Ġdai4
Ġbu4Ġ xing2Ġ
Ġri4 ĠĠĠ
Ġxian4Ġ lu4
ben3Ġ shu1Ġ
ge2Ġ lai2Ġ
jin4Ġ zhan3Ġ
lei4Ġ bie2Ġ
wei3Ġ da4ĠdeĠ
quan2Ġ zhang3Ġ
ha1Ġ sa4Ġke4Ġsi1Ġ
Ġling4Ġ yi2Ġge4Ġ
dong1Ġji4Ġ ao4Ġlin2Ġpi3Ġke4Ġyun4Ġdong4Ġhui4Ġ
yin3Ġqi3 ĠleĠ
ping2Ġlun4 Ġjia1Ġ
2019Ġguan1Ġzhuang4Ġbing4Ġdu2 Ġbing4
6 Ġshi2Ġ
Ġ 1972Ġnian2Ġ
ĠĠĠ 7Ġ
ao4 Ġde2Ġ
li3 Ġji2Ġ
jing1 Ġcheng2Ġ
suo3 Ġzhi4Ġ
ye4 Ġshi4Ġ
sai4 Ġshang4Ġ
tai2 Ġshi4Ġ
tai2 Ġhe2Ġ
ni2 Ġji1Ġ
fei4 Ġcheng2Ġ
bai3 Ġwan4
di3 ĠdeĠ
shi2Ġ ji4Ġ
Ġshi2Ġ jia1Ġ
Ġzhi4Ġ shi3Ġ
Ġgong1Ġ yu4Ġ
Ġzhou1 Ġzhi1Ġ
xiang1Ġ tong2
shou3Ġ ying4Ġ
Ġke4Ġ hu4Ġ
hua2Ġ xue3
luo4Ġ yang2Ġ
xu1Ġ ni3
geng4Ġ gao1ĠdeĠ
Ġxian4ĠdeĠ cheng2Ġshi4Ġ
pin2Ġ fan2Ġ
xue4Ġ guan3Ġ
meng4Ġ xiang3Ġ
ĠĠĠzhe4Ġ geĠ
zi1Ġge2Ġ sai4Ġ
Ġdong1 Ġri4Ġben3Ġ
lan2Ġqiu2Ġ yun4Ġdong4Ġyuan2Ġ
Ġkong3Ġ tai4
p ĠĠĠ
Ġ 170
Ġ Ni
Ġ fa1Ġzhan3
Ġ yong1Ġ
Ġ zao3Ġqi1Ġ
ĠĠĠ Al
ĠĠĠ AĠ
jin4 Ġqiu2Ġ
hua4 Ġji4Ġ
ti3 Ġwei4Ġ
lie4 Ġdi4Ġ
sai1 Ġer3
liao4 Ġli3Ġ
xie4 Ġren4Ġ
chun1 Ġjie2Ġ
41 Ġ
62 Ġnian2Ġ
Ġbu4Ġ fu4Ġbu4Ġzhang3Ġ
gong1Ġ zuo4
Ġyue4Ġ kan1Ġ
Ġqi2Ġ xia4
an4Ġ cha2Ġsi1Ġ
cai2Ġ zheng4Ġbu4Ġ
yin3Ġ ru4
han2Ġ shu4
jia3Ġ ban3Ġ
Ġping2Ġfang1Ġ ying1Ġli3Ġ
huan4Ġ zhe3
jie2Ġshu4 Ġshi2Ġ
Ġyi4Ġzhi2 Ġshi4Ġ
Ġniu3Ġyue1 Ġshi2Ġbao4Ġ
ĠSAO ĠĠĠ
Ġ 1987
Ġ 1941
Ġ cui1Ġ
ĠĠĠ dang1Ġshi2Ġ
jing4 Ġwei4Ġ
jiang3 Ġzuo4Ġ
bai2 Ġgong1Ġ
color Ġ
wei2Ġ qi1Ġ
Ġjun1Ġ qu1
wu3Ġ shu4Ġ
Ġju4Ġ jue2
shu1Ġ fa3Ġ
yue1Ġ han4
yan3Ġ xi2Ġ
ying4Ġ bi4Ġ
lian4Ġ ai4Ġ
Ġluo2Ġ ma3
ya1Ġ suo1Ġ
Ġxing2Ġzheng4Ġ qu1Ġhua4Ġ
Ġzui4Ġzhong1Ġ yu2Ġ
Ġhua4Ġ xue2Ġ
Ġmin2Ġ jin4Ġ
diao1Ġ su4
da1Ġ dang4Ġ
a1Ġgen1Ġ ting2
« Ġ
Ġ 1960Ġnian2Ġ
ĠĠĠ Li
ze2 Ġren4Ġwei2Ġ
wang2 Ġgong1Ġ
wei3 Ġren4Ġ
lv4 Ġhe2Ġ
xian1 Ġshi4Ġ
68 Ġnian2Ġ
zhi4Ġ shao3Ġ
si1Ġ xiang3
Ġer2 Ġyu3Ġ
Ġshe4 Ġshi4Ġ
qian2Ġ fang1Ġ
Ġzhan4Ġ sheng4Ġ
zui4Ġ zhang3ĠdeĠ
Ġhao4 Ġshi4Ġ
gai3Ġ zhuang1Ġ
mi4Ġ xie1Ġgen1
zi3Ġ mei4Ġ
da3Ġ bai4Ġ
shu3ĠdeĠ dong4Ġwu4Ġ
qing4Ġ zhu4
ya3Ġ dian3Ġ
wu1Ġke4Ġlan2 ĠdeĠ
Ġjue2Ġ ding4
yi4Ġshi2Ġ dao4
Ġ duan3Ġ
ĠĠĠ fei1Ġ
hou4 Ġbu4Ġ
shou3 Ġge4
kai1 Ġyuan2Ġ
ba1 Ġge4Ġ
sheng4 Ġxia4Ġ
yan4 Ġshi4Ġ
wang4 Ġsi1Ġ
xiong1 Ġzhang3Ġ
Ġbu4Ġ lei2Ġ
Ġguo2Ġjia1Ġ an1Ġquan2Ġ
Ġzhi4Ġzao4Ġ shang1Ġ
xue2Ġxiao4 ĠdeĠ
Ġying1 Ġli3Ġ
Ġ yao2
Ġ pang2Ġ
Ġ gao1Ġzhong1Ġ
ĠĠĠ 2001
ĠĠĠ styleĠ
chu1 Ġxian4
sheng1 Ġshi2Ġ
che1 Ġren2Ġci4Ġ
zu3 Ġjian4
gou4 Ġjian4Ġ
wei1 Ġer3Ġshi4Ġ
am Ġ
45 Ġnian2Ġ
kun4 Ġnan2
43 Ġ
Ġshi4Ġ qian2Ġ
di4Ġ shi2Ġ
yi1Ġ yang4Ġ
Ġyou3Ġ duo1Ġ
Ġyou3Ġ zheĠ
Ġgong1Ġ yue1Ġ
Ġyi3Ġ 3Ġ
ba1Ġ xi1
jia4Ġ zhi2
zheng4Ġzhi4Ġ xie2Ġshang1Ġhui4Ġyi4Ġ
she4Ġ hui4ĠdeĠ
Ġjing1Ġ ying2Ġ
bu3Ġ chong1
xing2Ġzheng4Ġ qu1Ġ
cang1Ġ ku4Ġ
lei3Ġ da3Ġ
jie2Ġmu4 Ġzhong1Ġ
8 Ġgong1Ġli3Ġ
Ġ 1970
Ġ 1984
Ġ Di
Ġ fang4Ġ
ĠĠĠ zhi3Ġ
ĠĠĠ de2Ġ
ao4 Ġzhou1
ai2 Ġzheng4Ġ
shi3 Ġta1Ġ
mei3 Ġren2Ġ
wa3 Ġsi1Ġ
man3 Ġzhou1Ġ
qiang1 ĠdeĠ
mai3 Ġjia1Ġ
lan4 Ġ
ĠdeĠ cheng2Ġshi4Ġ
Ġbu4Ġ luo2Ġ
Ġzhi4Ġ xu4Ġ
Ġji2Ġ xing4Ġ
Ġli4Ġ xi1Ġ
Ġli4Ġ xian4Ġ
Ġhou4Ġ xu4Ġ
Ġdui4Ġ zhang3Ġ
Ġren4Ġ jiao4Ġ
yi2Ġ lan2
wu2Ġ xu1Ġ
jie3Ġ mei4Ġ
jiang3Ġ zhang1Ġ
zhuan1Ġ an4Ġ
Ġwan4Ġ dun1Ġ
ying3Ġxiang3Ġ li4ĠdeĠ
bang1Ġzhu4Ġ xia4Ġ
liu2Ġxing2Ġ yin1Ġyue4Ġ
wo1Ġ lun2Ġ
Ġli4Ġtao2Ġ wan3
Ġ 1979
Ġ Fi
Ġ fa1Ġzhan3Ġ
Ġ duo2ĠdeĠ
yi1 Ġhe2Ġ
you3 Ġwei4Ġ
si1 Ġwei4Ġ
zhan4 Ġjian4Ġ
dai4 Ġzai4Ġ
fu4 Ġli3Ġ
duo1 Ġyu2Ġ
dan1 Ġshi4Ġ
xian1 Ġzai4Ġ
cai2 Ġfu4Ġ
zan4 Ġwu2Ġ
39 Ġ
qiao4 Ġ
ĠdeĠ nian2
yi1Ġ ji2Ġ
Ġren2Ġ qun2Ġ
Ġyi1Ġ jiao3Ġ
li3Ġ si1Ġ
Ġyu3Ġ duo1Ġ
you2Ġ lai2Ġ
Ġbei4Ġ ge2Ġ
hua4Ġ ti2Ġ
la1Ġ ding1Ġ
ke1Ġ te4Ġ
gu3Ġ ge2Ġ
Ġquan2Ġ ti3Ġ
gong4Ġ xiang3Ġ
hu4Ġ zhao4Ġ
Ġtong2Ġ meng2
shuang1Ġ fang1
wa3Ġ la1Ġ
li2Ġkai1Ġ leĠ
wai4Ġguo2Ġ ren2Ġ
gai3Ġbian1 Ġwei4Ġ
qiang3Ġ po4Ġ
ĠĠĠ You
zhi4 ĠĠĠ
jiang1 Ġqi2
ma3 Ġde2Ġ
tai4 Ġhe2Ġ
wu2 Ġshi4Ġ
tang2 Ġdai4Ġ
ĠdeĠ ge1Ġqu3Ġ
Ġri4 Ġji2Ġ
Ġyuan2Ġ xian1Ġ
Ġri4Ġ ji4Ġ
dui4Ġ kang4
Ġxi1Ġ fang1
shu4Ġ xue2Ġjia1Ġ
lu4Ġ duan4
ge2Ġ lei1
jin1Ġ gang1Ġ
yi2Ġ bu4ĠdeĠ
xuan3Ġ ba2
ba1Ġ he4
ao4Ġ fu2Ġ
gou4Ġ ru4Ġ
Ġtian1Ġ zhu3Ġjiao4Ġ
Ġshi4Ġdi4Ġ er4Ġ
ĠdeĠda4Ġ xing2Ġ
Ġgai3Ġ bian1
fan2Ġ rong2Ġ
Ġshi4Ġwei4Ġyu2Ġmei3Ġguo2Ġ mi4Ġsu1Ġli3Ġ
tian1Ġjin1 Ġshi4Ġ
Ġ shan3
Ġ you3ĠdeĠ
Ġ cao3Ġ
ĠĠĠ shou3Ġ
shu4 Ġli4Ġ
zhu4 Ġshe4Ġ
gai1 Ġshi4Ġ
mi3 Ġren2Ġ
hua2 Ġyi4Ġ
bai4 Ġhou4Ġ
cui1 Ġhua4Ġ
background Ġ
Ġzai4Ġ du4
ming2Ġ yu4Ġ
Ġchu1 Ġwei4Ġ
Ġshang4Ġ su4Ġ
nei4Ġ zheng4Ġbu4Ġ
ya4Ġ ma3Ġ
feng1Ġ bi4Ġ
Ġzhu4Ġ ce4Ġ
shu3Ġ wu4Ġzhong3Ġ
Ġxiang4Ġ mu4
du2Ġ xing4Ġ
Ġjin1Ġ tian1Ġ
tuo1Ġ li2
Ġnian2Ġ3Ġyue4Ġ 1Ġri4Ġ
leĠyi1Ġ zuo4Ġ
chuan2Ġtong3 Ġshang4Ġ
can1Ġsai4Ġ zhe3Ġ
jie4Ġquan2Ġguo2Ġ ren2Ġda4Ġdai4Ġbiao3Ġ
Ġxiao3 Ġping2Ġ
mu4Ġbiao1 Ġshi4Ġ
fei1Ġli4Ġ pu3Ġ
£ Ġ
Ġ tu2
Ġ pi1Ġping2Ġ
Ġ lin2Ġshi2Ġ
ĠĠĠ yi3
ĠĠĠ colspanĠ
le ĠdeĠ
jian4 Ġguo2Ġ
wen2 Ġjian4
tou2 Ġyu2Ġ
pao4 Ġji1Ġ
Ã¡ Ġ
Ġgong1Ġ wu4Ġyuan2Ġ
Ġcheng2Ġ nuo4
Ġdao4 Ġwei4Ġ
Ġyuan2Ġ yi4Ġ
Ġli3Ġ ya4
san1Ġ fen1Ġzhi1Ġ
ni2Ġ ao4Ġ
ban4Ġ chang3Ġ
shang1Ġ hai4
yan2Ġjiu1 Ġzhong1Ġ
jun1Ġ dui4
deng1Ġ chang2
hua2Ġren2Ġmin2Ġ gong4Ġhe2Ġ
Ġzhong1Ġyang1Ġ wei3Ġyuan2Ġhui4Ġ
ying4Ġyong4Ġ cheng2Ġshi4Ġ
ĠdeĠguan1Ġ dian3Ġ
Ġxin1Ġjia1Ġ po1Ġ
2 Ġshi2Ġ
7 Ġgong1Ġli3Ġ
ĠĠĠ Bu
qian2 Ġli4Ġ
lin2 Ġhe2Ġ
se4 Ġhe2Ġ
37 Ġ
ang Ġ
Ġbu4Ġ dui4ĠdeĠ
Ġzhi4Ġ da4Ġ
Ġyi4Ġ miao2Ġ
hou4Ġ bei4Ġ
zheng4Ġ jiao4Ġ
Ġhou4Ġ you4Ġ
dui4Ġ bi3Ġ
Ġer3 Ġjia1Ġ
jing1Ġ ling2Ġ
lai2Ġ shuo1
Ġke4Ġ lei2Ġ
Ġsheng1Ġ yin1Ġ
shan1Ġ lu4Ġ
lie4Ġ ning2Ġ
xiao4Ġ xiang4Ġ
yang2Ġ xing4Ġ
bian1Ġ jiang1Ġ
xu1Ġ ni3Ġ
dang3Ġ wei3Ġshu1Ġji4Ġ
tiao2Ġ yue1
ĠĠĠzhong1Ġ hua2Ġmin2Ġguo2Ġ
Ġyi3Ġjing1 Ġbei4Ġ
Ġdi4Ġzhong1Ġ hai3Ġ
Ġfu2Ġlang3Ġ shen2Ġ
ka3Ġsi1Ġdi4Ġli4Ġ ya4Ġ
Ġ à
Ġ ru3
Ġ backgroundĠ
an1 Ġda4Ġ
ĠĠĠ zhu3Ġ
jie2 Ġri4Ġ
deng3 Ġshi4Ġ
hua2 Ġnan2Ġ
shuang1 Ġxiang4Ġ
bu3 Ġshi2Ġ
kuan1 Ġdu4Ġ
os Ġ
yuan2Ġ wai4Ġlang2Ġ
Ġguo2Ġ hui4Ġyi4Ġyuan2Ġ
Ġde2 Ġchu1Ġ
dai4Ġ ling3Ġ
yu4Ġ suan4
Ġjun1Ġ xian2Ġ
dian4Ġ zhan4Ġ
yi2Ġ dao3Ġ
zong3Ġ zhang3Ġ
Ġlu4Ġ xu4Ġ
tong2Ġ pai2Ġ
ĠdeĠyi1Ġ zuo4
kong1Ġ xi2
Ġyin1Ġwei4Ġ zai4Ġ
hen3Ġ shao3
Ġnian2Ġ8Ġyue4Ġ 1Ġri4Ġ
Ġzhi2Ġ ye4Ġ
Ġzhi3Ġ hui1Ġ
ĠdeĠhe2Ġ xin1Ġ
ao4Ġlin2Ġpi3Ġke4Ġ yun4Ġdong4Ġ
sa4Ġzhu1Ġ sai1
Ġ chong2
Ġ chan3Ġ
ĠĠĠ ceng2Ġ
dui4 Ġzhong1Ġguo2Ġ
ma3 Ġzhou1Ġ
qi4 Ġshi4Ġ
feng1 Ġli4Ġ
xing1 Ġren2Ġ
yang2 Ġren2Ġ
jia4 Ġwei4Ġ
chao1 Ġshi4Ġ
52 Ġ
ĠdeĠ zhi2Ġ
Ġzai4Ġ xiang1Ġgang3
bu4Ġ dui4Ġ
Ġdi4Ġ zhi3Ġ
Ġdao4Ġ qian4Ġ
Ġjia1Ġ zhou1
Ġta1Ġ kai1Ġshi3Ġ
shou3Ġ qiang1Ġ
dong1Ġ feng1Ġ
ding4Ġ ju1
ju1Ġ zhu4
gai4Ġ yao4Ġ
pao4Ġ bing1Ġ
ding3Ġ dian3Ġ
dai4Ġbiao3 Ġda4Ġ
Ġzai4Ġyi1Ġ ci4Ġ
Ġbo1 Ġsi1Ġ
Ġzai4Ġjia1Ġ shang4Ġ
Ġ ban4
zheng4 Ġren2Ġ
zhan4 Ġxian4Ġ
200 Ġ
ru2 Ġtong2Ġ
ard Ġ
Ġbu4Ġ lun2Ġ
guan1Ġ zhi2Ġ
Ġzuo4Ġ yong4
zui4Ġ xiao3Ġ
Ġlu4Ġ kou3Ġ
tu2Ġ sha1
xi2Ġ guan4
Ġqi2Ġzhong1Ġ yi2Ġge4Ġ
hui1Ġ se4Ġ
ĠdeĠshi2Ġ dai4Ġ
kai1Ġshi3 ĠdeĠ
Ġma3 Ġsi1Ġ
zhui1Ġ sui2Ġ
Ġren4Ġwei2 Ġshi4Ġ
Ġji1Ġbai4 ĠleĠ
xin1Ġcheng2Ġ li4ĠdeĠ
Ġfei1Ġlv4Ġ bin1Ġ
Ġ heng1
Ġ cun2Ġzai4Ġ
Ġ bu2Ġhui4Ġ
ĠĠĠ de
ao4 Ġbu4Ġ
shu4 Ġnian2Ġ
quan2 Ġyi4Ġ
hai3 Ġzhan4Ġ
er4 Ġhao4Ġ
shen1 Ġke4Ġ
su4 Ġwei4Ġ
pai2 ĠdeĠ
jie3 Ġxi1Ġ
pi1 Ġquan2Ġguo2Ġzhong4Ġdian3Ġwen2Ġwu4Ġbao3Ġhu4Ġdan1Ġwei4Ġ
ation Ġ
Ġzhi4Ġ suo3Ġzai4Ġ
Ġyi1Ġ kao4
Ġda4Ġ ting1Ġ
Ġchu1 Ġshi4Ġ
Ġyin1 Ġzai4Ġ
shou3Ġ xi2
Ġren4Ġ nei4Ġ
bi4Ġ hua4Ġ
nv3Ġ xing4ĠdeĠ
Ġnian2Ġ9Ġyue4Ġ 1Ġri4Ġ
yi4Ġshi2Ġ dao4Ġ
ĠdeĠzuo4Ġ pin3
Ġji4Ġhua4 Ġzai4Ġ
Ġqiang2Ġ diao4Ġ
juan1Ġ zeng4
qi3Ġye4 Ġjia1Ġ
Ġkong3Ġtai4 Ġda4Ġqu1Ġ
Ġ Su
Ġ Na
Ġ mian4Ġdui4Ġ
le Ġhe2Ġ
fu2 Ġsi1Ġ
jiu4 ĠdeĠ
gai3 Ġyou2Ġ
ci2 Ġyu3Ġ
ar ĠĠĠ
di1 Ġdi4Ġ
yang3 Ġhe2Ġ
pao4 ĠdeĠ
xu2 Ġ
rou2 Ġ
DVD Ġ
Ġbu4Ġ lei2
Ġyi1Ġ dai4
Ġji4Ġ jie2Ġ
zhu4Ġ ru4Ġ
fen1Ġ wei2
bo2Ġ lan3
ban4Ġ jing4Ġ
Ġye3Ġ ke3Ġ
can1Ġ ting1
qin1Ġ lve4Ġ
wai4Ġjiao1Ġ guan1Ġxi4Ġ
suo3 Ġzhi1Ġ
lian2 Ġsi1Ġji1Ġ
mian4 Ġyou3Ġ
sai4 Ġhe2Ġ
tong1 ĠdeĠ
chuan2 Ġcheng2Ġ
Ġshi4Ġ ying4Ġ
Ġwei4Ġ fu4Ġ
yuan2Ġ su4Ġ
Ġxi1Ġ yu3Ġ
ren4Ġ nei4Ġ
ping2Ġ jie4Ġ
nan2Ġ yan3Ġyuan2Ġ
shou3Ġ ge1Ġqu3Ġ
fu2Ġ lu3Ġ
yao4Ġ sai4Ġ
sha1Ġ te4Ġ
yan2Ġjiu1 Ġshi4Ġ
yi3Ġ lai2
tao2Ġ li2Ġ
ĠdeĠren2Ġ kou3Ġwei4Ġ
yin4Ġdu4Ġ jiao4Ġ
jue2Ġse4Ġ ban4Ġyan3
Ġ 1974Ġnian2Ġ
ĠĠĠ hui4Ġ
ĠĠĠ ru2Ġguo3Ġ
qu1 Ġzai4Ġ
wen2 Ġhe2Ġ
zhang3 Ġshi2Ġjian1Ġ
chu4 Ġzai4Ġ
pei4 Ġsi1Ġ
Ġnian2 Ġshi4Ġjie4
Ġdi4Ġ di
Ġji2Ġ jie2Ġ
ji4Ġ yi4Ġ
Ġge4 Ġshi4Ġ
Ġjun1 Ġjian4Ġ
zhe4Ġ zuo4Ġ
lian2Ġ xi4
fen1Ġ kai1Ġ
shan1Ġ kou3Ġ
dan1Ġ dang1Ġ
bian4Ġ hua4ĠdeĠ
jian3Ġ yan4Ġ
sheng4Ġ dian4Ġ
jian4Ġ kang1
jie3Ġ pou1
ĠdeĠshi4Ġ wu4Ġ
Ġsui4 Ġdao4Ġ
Ġbi3Ġ jiao4Ġ
jun4Ġ wang2Ġ
wan2Ġcheng2Ġ hou4Ġ
sun1Ġ ziĠ
Ġwai4Ġ jiao1
Ġren4 Ġzhong1Ġgong4Ġ
guo4Ġqu4 ĠdeĠ
Ġ 78
Ġ 1978
Ġ 1940
Ġ Ne
ĠĠĠ te4Ġ
ĠĠĠ hai3Ġ
ĠĠĠ gui3Ġdao4Ġ
ĠĠĠ 1999Ġnian2Ġ
li3 Ġwei4Ġ
fu4 Ġzai4Ġ
mei3 Ġshi2Ġ
fen1 Ġhui4Ġ
sai4 Ġhui4Ġ
wu3 Ġri4Ġ
shan1 Ġshang4Ġ
lin2 Ġzai4Ġ
gu3 Ġji2Ġ
wei1 Ġsi1Ġ
ling2 Ġshi2Ġ
wen1 Ġhe2Ġ
che4 Ġchu1Ġ
1898 Ġnian2Ġ
Ġzhong1Ġ wu3Ġ
Ġyi3Ġ ci3
zheng4Ġ wei3Ġ
Ġdan4 Ġyu2Ġ
zhi2Ġ jiao4Ġ
fa3Ġ ting2
fen1Ġ xi1
liu2Ġ chuan2
bao4Ġ dao3
gang3Ġ kou3
xiao1Ġ mie4
xie2Ġ hui4ĠdeĠ
wu1Ġ ding3Ġ
dai4Ġbiao3Ġ tuan2
xuan2Ġ lv4Ġ
zhang4Ġ ai4
Ġguo2Ġmin2Ġ ge2Ġming4
Ġtang2Ġ chao2Ġ
Ġqi2Ġta1 Ġren2Ġ
ĠV Ġ
jiao1Ġliu2 Ġdao4Ġ
Ġ shang1
e2 ĠdeĠ
ĠĠĠ quan2
li4 Ġnian2Ġ
zhu3 Ġji1Ġ
kai1 ĠdeĠ
wu3 Ġji2Ġ
luo2 Ġyi1Ġ
gang3 ĠdeĠ
Ġshi4Ġ tai2Ġwan1
Ġxian4 Ġxing2Ġ
ji1Ġ hu1Ġ
Ġda4Ġ xiao3
Ġyu3Ġ yin1Ġ
Ġchu1Ġ shi3Ġ
bao3Ġ an1
chuan2Ġ fo2Ġjiao4Ġ
bian4Ġ huan4
Ġye3Ġ cheng1Ġwei2Ġ
Ġluo2Ġ ne4Ġ
Ġpu3Ġ tong1Ġ
Ġao4 Ġzhou1Ġ
sun3Ġ shang1Ġ
Ġwei4Ġyu2Ġgai1Ġguo2Ġ zhong1Ġbu4Ġ
Ġxi1Ġla4 Ġ
zui4Ġhou4Ġyi1Ġ ci4Ġ
Ġping2 Ġjun1
yin4Ġdi4Ġ an1Ġren2Ġ
Ġqi3 Ġchu1Ġ
chong2Ġqing4 Ġshi4Ġ
Ġzhi1Ġjia1Ġ ge1Ġ
3 Ġhao4Ġ
Ġ zhuang4
Ġ 140
zhan4 Ġji1Ġ
fa3 Ġli4Ġ
mu4 Ġji1Ġ
bei3 Ġwei4Ġ
ge1 Ġsi1Ġ
bang1 ĠdeĠ
89 Ġnian2Ġ
Ġzai4Ġ ju4Ġ
Ġyi1Ġ shu1Ġ
zuo4Ġ biao1Ġ
Ġer2Ġ si3Ġ
Ġbing4Ġ zhi3Ġyu2Ġ
jie1Ġ ceng2Ġ
ti3Ġ cao1Ġ
gai3Ġ liang2Ġ
Ġcheng2Ġwei2Ġ yi2Ġge4Ġ
zhong1ĠdeĠ yi2Ġge4Ġ
ĠĠĠdi4Ġ ming2Ġ
chong1Ġ man3
Ġnian2Ġ6Ġyue4Ġ 1Ġri4Ġ
guan3Ġli3Ġ ju2
dan4Ġ yao4Ġ
zao4Ġcheng2Ġ leĠ
wen1Ġ nuan3
tai2Ġfeng1Ġ jing3Ġbao4
Ġrui4Ġ dian3Ġ
Ġ b
Ġ yi4
Ġ tong1
Ġ du2
Ġ 1944
Ġ ãĤ¤
Ġ lun4Ġ
Ġ ya4Ġli4Ġshan1Ġda4Ġ
ĠĠĠ Vi
ming2 Ġyu3Ġ
qu1 Ġzhi1Ġyi1Ġ
fan3 Ġfu4Ġ
zhuan3 Ġren4Ġ
pai4 Ġchu1
re4 Ġhe2Ġ
tui4 Ġchu1
1990 Ġnian2Ġdai4
47 Ġnian2Ġ
1950 Ġnian2Ġdai4Ġ
chou3 Ġke1Ġ
Ġshi2Ġ bu4Ġ
zhan4Ġ ting1Ġ
nan2Ġ ce4Ġ
Ġbei4Ġ sha1Ġ
Ġping2Ġ gu1Ġ
bi4Ġ ye4
bi4Ġ yao4
zi1Ġ ge2
ti2Ġ jiao1
ĠdeĠdi4Ġ xia4Ġ
gu4Ġ zhang4Ġ
chu3Ġ si3Ġ
Ġnei4Ġ rong2
jiao1Ġtong1 Ġbu4Ġ
dong4Ġli4Ġ xue2Ġ
bo1Ġshi4Ġ dun4Ġ
gan3Ġlan3 Ġqiu2Ġ
ao4 Ġke4Ġxi1Ġta3Ġni2Ġda4Ġqu1Ġ
er3 Ġsi1Ġ
shu4 Ġzhi1Ġ
san1 Ġhe2Ġ
zhe3 Ġzhi1Ġyi1Ġ
bo2 ĠdeĠ
fang4 ĠdeĠ
44 Ġnian2Ġ
MV Ġ
Ġwei4Ġ ri4Ġben3Ġ
Ġhe2Ġ yi3Ġ
Ġzhong1Ġ chang3Ġ
Ġyi4Ġ ri4Ġ
Ġer3Ġ fu1Ġ
jian1Ġ jin4Ġ
zhi2Ġ tong1Ġ
Ġbing4Ġ dan1Ġren4Ġ
Ġqi2Ġ jian1Ġ
Ġjin4 Ġcheng2Ġ
Ġzhan4Ġ chang3Ġ
ci3Ġ qian2Ġ
zhen4Ġ ya1
lin2Ġ qu1Ġ
mei2Ġ you3Ġzai4Ġ
Ġgai1Ġ dang3
cai2Ġ pan4
fan4Ġ chou2Ġ
Ġshu4Ġ zi4Ġ
Ġbo1Ġ lan2
cha1Ġ bie2Ġ
sun3Ġ hai4Ġ
Ġshi4Ġyi4Ġ yuan2Ġ
Ġwan4Ġren2Ġ ci4Ġ
gai3Ġbian1 Ġzi4Ġ
xiang4Ġmu4 ĠdeĠ
you3Ġbu4Ġ shao3Ġ
Ġ 1981
Ġ onlyinclude
Ġ huo2Ġ
hou4 Ġren2Ġ
li3 Ġyu2Ġ
qi2 Ġxia4Ġ
zong3 Ġren2Ġkou3ĠdeĠ
zhao1 Ġmu4Ġ
mm Ġ
text Ġ
Ġshi4Ġ ji4
Ġhe2Ġ si1Ġ
Ġhe2Ġ hou4Ġ
Ġshi2Ġ wu3Ġ
yi4Ġ jian4Ġ
Ġdan4 Ġdao4Ġ
fu2Ġ la1Ġ
ting2Ġ liu2Ġ
ĠdeĠyi1Ġ yuan2Ġ
yin1Ġ mou2Ġ
zhen1Ġ zhu1Ġ
Ġsuo3Ġ shu3ĠdeĠ
chong2Ġ bai4Ġ
ĠdeĠshi2Ġ wu4Ġ
song4Ġ wang3Ġ
Ġqing1Ġ chao2
Ġnv3Ġ xing4Ġwei4Ġ
ĠdeĠji4Ġ zai3Ġ
xia4Ġji4Ġ ao4Ġyun4Ġhui4Ġ
zhan4Ġzheng1 ĠdeĠ
huan2Ġjing4 Ġzhong1Ġ
gao1Ġdeng3 Ġxue2Ġxiao4Ġ
fu2Ġlei2 Ġde2Ġ
Ġonlyinclude Ġ
Ġ 24Ġ
Ġ gu1Ġji4Ġ
ĠĠĠ Con
ji1 Ġwei4Ġ
bei4 Ġli4Ġ
cai2 Ġshi4Ġ
geng1 Ġdi4Ġ
han3 Ġjian4Ġ
Ġzhi1 Ġren2Ġ
Ġge4 Ġji2Ġ
Ġzhou1 Ġzhi4Ġ
fa1Ġ dian4Ġji1Ġ
ye4Ġ zhe3Ġ
Ġtong2 Ġzhi1Ġ
ru4Ġ xue2Ġ
chang2Ġ chun1
qing1Ġ chu3
yan2Ġjiu1 Ġren2Ġyuan2Ġ
kong1Ġ jian1ĠdeĠ
han2Ġ min2Ġguo2Ġ
wei3Ġyuan2Ġhui4Ġ zhu3Ġren4Ġ
lian4Ġ jie1Ġ
ning2Ġ bo1Ġ
e4Ġ lie4Ġ
Ġsan1 Ġge4Ġ
Ġyi4Ġzhi2 Ġdao4Ġ
Ġha1Ġer3Ġ bin1Ġshi4Ġ
tan4Ġxian3 Ġdui4Ġ
0 Ġbi3Ġ
6 Ġming2Ġ
Ġ 1960
Ġ 1958
Ġ xu1Ġyao4
ao1 Ġ
zhi2 Ġxian4Ġ
che1 Ġshang4Ġ
shan1 Ġji2Ġ
tian1 Ġdi4Ġ
qing1 Ġli3Ġ
ku4 Ġsi1Ġ
ck ĠĠĠ
Ġzai4Ġ gao1Ġ
Ġshi2Ġ liu4
ji4Ġ zai3
ji1Ġ xie4Ġ
Ġer3Ġ ba1Ġ
Ġfu4Ġ za2Ġ
zui4Ġ da4
zong3Ġ jie2Ġ
rui4Ġ shi4ĠdeĠ
mou3Ġ zhong3Ġ
Ġer3Ġsi1Ġ ke4Ġ
tong1Ġguo4 ĠdeĠ
Ġde2Ġli3Ġ ke4Ġ
Ġchu1Ġban3 ĠleĠ
Ġxin1Ġzeng1Ġ jing4Ġwai4Ġshu1Ġru4Ġ
Ġ pang2
Ġ To
Ġ ÑĢ
Ġ 2025Ġnian2Ġ
Ġ 1927Ġnian2Ġ
shou3 Ġzhi1Ġ
ya4 Ġer3Ġ
er4 Ġge4Ġ
you4 Ġyou3Ġ
mo2 Ġer3Ġ
ji3 Ġwei4Ġ
gan3 Ġjun1Ġ
dun1 ĠdeĠ
sang4 Ġ
1896 Ġnian2Ġ
Ġyu2Ġ 2007
Ġyou3Ġ gong1Ġ
zhe4Ġ xiang4Ġ
tian1Ġ qiao2Ġ
Ġzhe4Ġ lei4Ġ
tai4Ġ lei1Ġ
an1Ġ da3Ġ
na4Ġ ru4
bo1Ġ luo2Ġ
zheng1Ġ yi4ĠdeĠ
shuo1Ġ fu2Ġ
Ġgen1Ġju4Ġ 2010Ġnian2Ġmei3Ġguo2Ġren2Ġkou3Ġpu3Ġcha2Ġ
Ġgong1Ġsi1 Ġhe2Ġ
Ġwei4Ġyu2Ġgai1Ġguo2Ġ nan2Ġbu4Ġ
Ġshi4Ġjian4 Ġzhong1Ġ
sang1Ġ na4
xiu1Ġzheng4Ġ an4Ġ
na2Ġpo4Ġ lun2
min2Ġjin4Ġ dang3Ġ
Ġ jiao1
Ġ man3Ġ
Ġ zhan1Ġmu3Ġsi1Ġ
Ġ 1934Ġnian2Ġ
ĠĠĠ be
ĠĠĠ an4Ġ
you3 ĠĠĠ
ai3 Ġ
ren4 Ġhou4Ġ
guan1 Ġyu3Ġ
jiang1 ĠdeĠ
ke3 Ġgong1Ġ
liu2 Ġqiu2
kuo4 Ġjian4
mo2 Ġsi1Ġ
cai2 Ġbei4Ġ
yi4Ġ zhi2Ġ
Ġyi4Ġ ke3Ġ
Ġyi3Ġ wai4
Ġjian4 Ġzhi1Ġ
dui4Ġ ci3Ġ
Ġxi1Ġ bu4ĠdeĠ
xiang1Ġ cun1Ġ
zhu4Ġ yi4ĠdeĠshi4Ġ
Ġhuo4 Ġqi2Ġta1Ġ
wang2Ġ zi3
fu3Ġ bai4Ġ
Ġduo1Ġ ci4
Ġhe2Ġguo2Ġ ji4Ġ
pai4Ġ xi4Ġ
bing4Ġ fei1Ġ
leĠyi1Ġ chang2Ġ
Ġyin1Ġyue4Ġ hui4Ġ
pin2Ġ lv4
shui4Ġ mian2
Ġ2011 Ġnian2Ġ12Ġyue4Ġ31Ġri4Ġ
chai1Ġ chu2
zhuang1Ġwei4Ġ lin2Ġ
Ġ 67
Ġ yuan2Ġshi4Ġ
Ġ 1971Ġnian2Ġ
ai1 Ġde2Ġ
yu3 Ġgong1Ġ
nan2 Ġda4Ġxue2Ġ
shu3 ĠdeĠyi1Ġzhong3Ġ
ban1 Ġji1Ġ
nuo4 Ġke4Ġ
bao2 Ġ
shi2Ġ qi1ĠdeĠ
li4Ġ chang3Ġ
Ġbei4Ġ yu4Ġwei2Ġ
dong1Ġ hai3Ġ
zhang3Ġ zhou2
qi3Ġ fei1Ġ
mi3Ġ ya4
yue1Ġ 2
Ġzhong1Ġguo2Ġ gong1Ġ
mo2Ġ fang3Ġ
xiao1Ġ liang4
zhun3Ġ jue2Ġsai4Ġ
Ġnian2Ġ12Ġyue4Ġ 28Ġri4Ġ
Ġna4Ġ meĠ
ĠĠĠyi3Ġxia4 Ġwei4Ġ
a1Ġer3 Ġji2Ġli4Ġ
Ġ cang2
Ġ juan3
Ġ pi1Ġ
Ġ bang1Ġ
Ġ fa1Ġsheng1Ġ
Ġ shang1Ġye4Ġ
Ġ hui2Ġdao4Ġ
Ġ 1933Ġnian2Ġ
ĠĠĠ zhe4
you3 Ġzhong1Ġ
ti Ġ
fa3 Ġhui4Ġ
hai3 Ġdi4Ġ
fei1 Ġer3Ġ
ni3 ĠdeĠ
pe Ġ
Ġzhong1Ġ yi3Ġ
Ġyi4Ġ fang1Ġmian4
ji1Ġ xie4
Ġli3Ġ jie3Ġ
fu4Ġ za2
nan2Ġ hai2Ġ
Ġshe4 Ġwei4Ġ
hua4Ġ fen1Ġwei4Ġ
Ġjian4Ġ zhu4ĠdeĠ
Ġqi2Ġ shou3Ġ
Ġzhan4Ġ bi3Ġ
jie1Ġ duan4ĠdeĠ
yi2Ġ ci4Ġshi4Ġjie4Ġda4Ġ
Ġdan4Ġ que4
Ġxiang1Ġ bi3
zhi1Ġ liu2Ġ
Ġnan2 Ġyu3Ġ
Ġao4Ġ men2
ĠdeĠzhong1Ġ xin1Ġ
shao1Ġ hui3Ġ
Ġshi2Ġzi4Ġ lv4Ġ
wai4Ġjiao1Ġ guan1Ġ
bao3Ġjia1 Ġli4Ġya4
bao1Ġkuo4Ġyi3Ġxia4Ġ wu4Ġzhong3Ġ
Ġ gen1
Ġ qian3
Ġ 1939
Ġ tu3Ġdi4Ġ
Ġ 1936Ġnian2Ġ
ĠĠĠ dian4Ġying3Ġ
you2 Ġshi4Ġ
fen1 Ġzhi4Ġ
jiu3 Ġzhou1Ġ
ban3 Ġhe2Ġ
tun2 Ġmen2Ġ
tiao1 Ġ
Ġji4Ġ jun1Ġ
Ġxing2Ġ dian4Ġli4Ġ
Ġchu1 Ġxian4Ġyu2Ġ
Ġer2 Ġchu1Ġ
qi3Ġ dian3Ġ
chu1Ġ lai2Ġ
zhi1Ġ jian1
jiang3Ġ hua4Ġ
hai2Ġ mei2Ġyou3Ġ
zhuan1Ġ yong4
Ġzui4Ġzhong1Ġ yi3Ġ
zu2Ġqiu2Ġ jia3Ġji2Ġ
ĠdeĠyi4Ġ jian4Ġ
san1Ġshi2Ġ si4Ġnian2Ġ
yi4Ġshi2Ġ xing2Ġtai4Ġ
Ġguo2Ġwu4Ġ yuan4
su1Ġlian2 ĠdeĠ
Ġyi1Ġli4Ġ sha1Ġbai2Ġ
Ġyi1Ġsi1Ġlan2Ġ jiao4Ġ
tong2Ġxing4Ġ lian4Ġ
Ġhei1Ġlong2Ġjiang1Ġ sheng3Ġ
zhu3Ġjiao4Ġzuo4Ġ tang2Ġ
da2Ġke1 Ġta1Ġ
w ĠĠĠ
Ġ bing1
Ġ bei1
Ġ Lo
ĠĠĠ feng1Ġ
ĠĠĠ wan4Ġli4Ġ
ming2 Ġdi4Ġ
ming2 Ġcheng2Ġ
you2 Ġhe2Ġ
xin1 Ġyi4Ġ
yu4 Ġming2Ġ
mei3 Ġyi1Ġ
te4 Ġshe4Ġ
qi4 Ġji1Ġ
gai3 Ġcheng2Ġ
qian1 Ġnian2Ġ
chen2 Ġshi4Ġ
ta3 Ġli4Ġ
bai3 Ġren2Ġ
ta ĠĠĠ
Ġbu4Ġ jian4Ġ
Ġbu4Ġ yi3Ġ
ji2Ġ tuan2Ġ
Ġli4Ġ fang1Ġ
Ġqi2 Ġhe2Ġ
Ġta1Ġ hui4Ġ
Ġxi1Ġ lu4Ġ
shou3Ġ pi1Ġ
jie2Ġ yun4Ġ
fen1Ġ jie3Ġ
jie1Ġ bo2Ġ
Ġyin1Ġ ziĠ
Ġdai4Ġ ma3Ġ
yi2Ġ chu2Ġ
sha1Ġ mo4Ġ
chu1Ġ xi2Ġ
ci2Ġ qu4Ġ
hai2Ġ yao4Ġ
Ġba1Ġ li2Ġ
Ġri4Ġben3 Ġren2Ġ
ya4Ġli4Ġ sang1Ġna4
dao3Ġshi4Ġ yue4Ġtai2Ġ
Ġfu4Ġze2 Ġren2Ġ
cheng2Ġnian2Ġ ren2Ġ
Ġcom Ġ
Ġ xiao4
Ġ xuan1
Ġ nan2Ġbu4Ġ
Ġ fa1Ġxing2
Ġ he4Ġer3Ġ
Ġ 1940Ġnian2Ġ
ĠĠĠ 11
lie4 Ġren2Ġ
10 Ġshi2Ġ
da2 Ġli4Ġ
zhang1 Ġcheng2Ġ
tuan2 Ġyuan2Ġ
pai4 Ġdui4Ġ
da3 Ġchu1Ġ
lian4 ĠdeĠ
hun1 Ġhou4Ġ
yi1Ġ ci4Ġ
Ġli4Ġ wu4Ġ
Ġyi3 Ġshi2Ġ
Ġyi1Ġ shi4ĠdeĠ
ming2Ġ xian3ĠdeĠ
Ġjia1Ġ er3
xia4Ġ shu3
xia4Ġ xia2Ġ
Ġjin4 Ġjun1Ġ
ci3Ġ lei4Ġ
ying3Ġ ye4Ġ
bo1Ġ li2
jian3Ġ ruo4Ġ
wei1Ġ ruan3
tang2Ġ chao2Ġ
fang2Ġ hu4Ġ
gang1Ġ tie3
Ġmei3 Ġjun1Ġ
Ġyong4Ġ hu4Ġ
ĠĠĠyi1Ġ xie1Ġ
zhong3Ġjia1Ġ ci2Ġ
6 Ġgong1Ġli3Ġ
Ġ ju1
Ġ yan1
Ġ 1973Ġnian2Ġ
Ġ 1959Ġnian2Ġ
de2 Ġjun1Ġ
ju4 Ġshi4Ġ
ma3 Ġshang4Ġ
ni Ġ
wan3 Ġhui4Ġ
Äģ Ġ
Ġshi4Ġ bing1
Ġgong1Ġ zhu3
Ġyi1Ġ liang4Ġ
zhe4Ġ chang3Ġ
Ġdui4Ġ zhen4Ġ
bei3Ġ fang1
bei3Ġ shang4Ġ
shi1Ġ ge1Ġ
mi3Ġ lan2Ġ
yi2Ġ ju1
dan1Ġ ni2Ġer3Ġ
ceng2Ġ dan1Ġren4Ġ
wang3Ġ ye4Ġ
Ġyou2 Ġji1Ġche1Ġ
xiao1Ġ fang2
Ġmu4Ġ biao1Ġ
ĠĠĠdi4Ġ san1Ġ
ge4Ġ lei4
Ġyou3Ġyi1Ġ zuo4Ġ
tan4Ġ xian3Ġ
Ġcong2 Ġer2
Ġsu1Ġ lian2
zhong1Ġshi4Ġ yan3Ġ
zhi1Ġchi2Ġ zhe3Ġ
di2Ġshi4Ġ ni2
nan2Ġsi1Ġla1Ġ fu1Ġ
Ġhua2Ġsheng4Ġ dun4
Ġ zeng1
Ġ Bo
Ġ 1931Ġnian2Ġ
ĠĠĠ yan2Ġ
hou4 Ġyou3Ġ
wei2 Ġshi4Ġ
zhi3 Ġhui4Ġ
nv3 Ġsheng1Ġ
ban3 Ġshang4Ġ
guo3 Ġshi2Ġ
teng2 Ġyuan2Ġ
hen4 Ġ
Ġwei4Ġ zheng4Ġ
Ġli4Ġ liang4
yu4Ġ nan4Ġ
min2Ġ yong4Ġ
jie1Ġ dai4Ġ
ma3Ġ lu4Ġ
lin2Ġ sheng3Ġ
tai4Ġ lang2Ġ
ao4Ġ duo1Ġ
ting2Ġ huo3Ġ
ke3Ġyi3Ġ bei4Ġ
ke4Ġ lai2Ġ
Ġjiao4Ġ tang2Ġ
fei4Ġ zhi3Ġ
gu4Ġ shi4ĠdeĠ
nuo4Ġ fu1
Ġwei4Ġdi4Ġ xia4Ġ
Ġfen1Ġbu4Ġyu2Ġ nan2Ġmei3Ġzhou1Ġ
an1Ġde2Ġ lie4Ġ
Ġwei4Ġyu2Ġgai1Ġ sheng3
ĠĠĠ long2Ġ
xi1 Ġri4Ġ
mu4 Ġhe2Ġ
ding4 Ġshi4Ġ
jie4 Ġyu2Ġ
77 Ġnian2Ġ
62 Ġ
Ġshi4Ġ yin1Ġ
Ġzai4Ġ tai2Ġwan1
Ġji2Ġ bei4Ġ
Ġguo2Ġ da4Ġ
Ġli4Ġ ren4
Ġli4Ġ yuan2Ġ
Ġyi1Ġ tiao2
Ġji4Ġ neng2Ġ
Ġer2 Ġqi2Ġ
chang3Ġ shang1Ġ
er4Ġ shi4ĠdeĠ
gai3Ġ yong4Ġ
Ġwan4 Ġming2Ġ
qian1Ġ yi2Ġ
Ġda4Ġxue2Ġ sheng1Ġ
huo3Ġ zai1
wei3Ġyuan2Ġhui4Ġ fu4Ġzhu3Ġren4Ġ
Ġduo1 Ġnian2Ġ
gen1Ġju4 Ġdi4Ġ
Ġben3 Ġyu2Ġ
ĠĠĠzao3Ġnian2Ġ sheng1Ġhuo2Ġ
zhu1Ġshi4Ġhui4Ġ she4Ġ
2 Ġhao4
Ġ liao2
Ġ Da
Ġ zhu2Ġjian4Ġ
Ġ ji2Ġshi4Ġ
Ġ zao3Ġzai4Ġ
ĠĠĠ u
a1 Ġke4Ġ
qi2 Ġzhi4Ġ
wen2 Ġshi4Ġ
wai4 Ġdi4Ġ
zi Ġzai4Ġ
ge1 Ġhe2Ġ
dian3 Ġzhan4Ġ
xiao1 Ġhao4Ġ
xun2 Ġqiu2
guai4 Ġwu4Ġ
76 Ġnian2Ġ
1895 Ġnian2Ġ
yu2Ġ le4Ġ
Ġbu4Ġ shu3
yu3Ġ zhou4
ren4Ġ tong2Ġ
zhang3Ġ guan1
Ġzuo4Ġ wei2Ġyi1Ġ
zui4Ġ di1
Ġzi4Ġ cheng1Ġ
Ġxiang1Ġ xin4
dan1Ġ du2
ti2Ġ qin2
Ġnan2Ġ fei1Ġ
si3Ġ qu4Ġ
ĠĠĠshi4Ġ jie4Ġ
niao3Ġ lei4
cuo4Ġ wu4ĠdeĠ
zhan4Ġzheng1Ġ qi1Ġjian1Ġ
Ġji1Ġben3Ġ shang4Ġ
bu2Ġ hui4Ġzai4Ġ
ĠĠĠben3Ġshu3Ġ bao1Ġkuo4Ġyi3Ġxia4Ġwu4Ġzhong3Ġ
Ġ lao2
Ġ kua4
ĠĠĠ An
ĠĠĠ ao4Ġ
ĠĠĠ ren2Ġwu4Ġ
ĠĠĠ guang1Ġxu4Ġ
yong4 Ġyu3Ġ
san1 Ġri4Ġ
tai2 Ġhou4Ġ
ze2 Ġyu2Ġ
gai3 Ġjian4Ġ
jiu1 Ġfen1Ġ
79 Ġnian2Ġ
pei1 Ġ
Ġzai4Ġ jian4Ġ
Ġzhi4Ġ pian4Ġren2Ġ
Ġli4Ġ zhi1Ġ
Ġxi1Ġ ni2Ġ
lian2Ġ suo3Ġ
Ġzhan4Ġ dui4Ġ
bei3Ġ mei3
Ġzheng4Ġ wu4Ġ
ti3Ġ cao1
shou4Ġ piao4Ġ
qing1Ġ chen2Ġ
Ġxin1Ġ zhu2
gou4Ġ zao4
po4Ġ chan3Ġ
zong1Ġ se4Ġ
Ġping2Ġfang1Ġ qian1Ġ
ĠĠĠshi4Ġ jian4Ġ
hun4Ġ luan4
ĠĠĠgong1Ġ yuan2Ġ
jiang1Ġxi1Ġ sheng3Ġ
ke4Ġli3Ġ mi3Ġya4Ġ
mu4Ġni2Ġ hei1
ju4Ġfeng1 Ġzhong1Ġxin1Ġ
Ġ zhui1
Ġ nu3
Ġ 1947
Ġ ba1Ġshi4Ġ
Ġ yi1Ġshi4Ġ
Ġ 1953Ġnian2Ġ
xi1 Ġdao4Ġ
lu4 Ġzhong1Ġ
che1 Ġhe2Ġ
gai1 Ġgong1Ġsi1Ġ
chuan2 Ġdao4Ġ
tu2 Ġshang4Ġ
kong1 ĠdeĠ
di3 Ġyu4Ġ
liao4 ĠdeĠ
yang1 Ġshi4Ġ
mou3 Ġyi1Ġ
shui4 Ġwu4Ġ
pu4 Ġbu4Ġ
Ġzai4Ġ guo2Ġ
Ġli4Ġ wei2Ġ
zhu3Ġ ban4
ju4Ġ luo4Ġ
lian2Ġ tong2Ġ
chang2Ġ yong4Ġ
bi4Ġ hu4Ġ
bian4Ġ dong4Ġ
jiu4Ġ zhi2Ġ
hua2Ġ bing1Ġ
tuan2Ġ dui4
geng4Ġ hao3ĠdeĠ
ĠdeĠgong1Ġ gong4Ġ
shao4Ġ jiang4
Ġjin3Ġguan3Ġ ru2Ġci3Ġ
Ġfan3 Ġer2Ġ
Ġ Ä
Ġ hou2
Ġ My
Ġ wu3Ġnian2Ġ
Ġ zuo3Ġyou4Ġ
ĠĠĠ mo4Ġ
shan1 Ġzhan4Ġ
zhang4 Ġhao4Ġ
duan3 Ġqi1Ġ
tiao3 Ġzhan4
69 Ġnian2Ġ
tes Ġ
he2Ġ yue1Ġ
bu4Ġ tong2
Ġge4Ġ ti3Ġ
xin1Ġ tai2Ġbi4Ġ
Ġdan4 Ġyou3Ġ
Ġtong2 Ġnian2Ġ7Ġyue4Ġ
shou4Ġ piao4
ba1Ġ sai1Ġer3Ġ
chan3Ġ jie1Ġji2Ġ
xiao1Ġ mie4Ġ
zheng4Ġzhi4Ġ wei3Ġyuan2Ġ
qin1Ġ fan4Ġ
Ġshi1Ġ fan4
chu3Ġ fa2Ġ
ĠdeĠshi2Ġ qi1Ġ
lian4Ġ xi2
xiang1Ġshi4Ġ ju3Ġren2Ġ
Ġqi2Ġzhong1Ġnan2Ġ xing4Ġwei4Ġ
zhu1Ġlong2Ġ cao3Ġ
nuo4Ġman4Ġ di3
Ġ en1
xin1 Ġshi4Ġzhen4Ġ
ping2 Ġhe2Ġ
tai2 Ġda4Ġ
shou4 Ġquan2
ze2 Ġhui4Ġ
qi4 Ġzhi4Ġ
bao4 Ġming2Ġ
hu4 Ġli3Ġ
yang4 Ġshi4Ġ
95 Ġnian2Ġ
74 Ġnian2Ġ
Ġwei4Ġ jun1Ġ
Ġdi4Ġ yi2Ġge4
Ġyu2Ġ da4Ġ
Ġren2Ġ qi4Ġ
Ġren2Ġ yuan2ĠdeĠ
shu4Ġ ji2Ġshi4Ġ
zhi2Ġ quan2Ġ
Ġzhan4Ġ shu4Ġ
Ġzheng4Ġ mian4Ġ
shan1Ġ dong1
yi2Ġ ti3Ġ
liu2Ġ jing1Ġ
ĠdeĠyi1Ġ ming2Ġ
Ġshou3Ġ fu3
leĠyi1Ġ xiang4Ġ
reng2Ġran2 Ġshi4Ġ
si1Ġdi4Ġ fen1Ġ
Ġda4Ġjiang3Ġ sai4Ġ
zhi2Ġlu4 Ġhou4Ġ
hun4Ġxiao2 Ġ
Ġ xia2
Ġ huan4
Ġ rui4
Ġ chan3Ġsheng1Ġ
Ġ ban3Ġben3Ġ
Ġ 1962Ġnian2Ġ
zhi1 Ġfu4Ġ
min2 Ġzai4Ġ
xing4 Ġxing2Ġwei4Ġ
ti3 Ġshi4Ġ
shan1 Ġcheng2Ġ
bi3 Ġji4Ġ
bo1 Ġji2Ġ
jin3 Ġshi4Ġ
bing1 Ġdui4Ġ
99 Ġnian2Ġ
61 Ġnian2Ġ
Ġshi4Ġ ji4Ġshi2Ġ
Ġhe2Ġ bei4Ġ
Ġzhi4Ġ an1Ġ
Ġde2Ġ guo2ĠdeĠ
dian4Ġ ya1Ġ
sai4Ġ ting3
ke1Ġ luo2Ġla1Ġ
zong3Ġ bing1Ġ
wu2Ġ xiao4Ġ
sha1Ġ si3
sha1Ġ shou3Ġ
shang1Ġ pin3
ĠdeĠdi4Ġ yi1Ġbu4Ġ
hui2Ġ xiang3Ġ
Ġshi4Ġjie4Ġ yi2Ġchan3Ġ
Ġmei3Ġ ci4Ġ
2001Ġnian2Ġ zong3Ġren2Ġkou3Ġ
Ġsui2Ġ hou4Ġzai4Ġ
mou3Ġ zhong3
fan3Ġying4 ĠleĠ
Ġhe2Ġbing4 Ġer2Ġcheng2Ġ
da3Ġji1Ġ lv4Ġ
ĠĠĠgai1Ġdi4Ġ 2001Ġnian2Ġzong3Ġren2Ġkou3Ġ
4 Ġgong1Ġli3Ġ
Ġ 120
Ġ ãģĦ
ĠĠĠ Sa
chu1 ĠdeĠ
dang3 Ġzhu3Ġxi2Ġ
mo2 ĠdeĠ
ta3 ĠdeĠ
ruo4 ĠdeĠ
niu3 Ġxi1Ġlan2Ġ
meng3 Ġgu3Ġ
83 Ġnian2Ġ
Ġzai4Ġ 17
Ġdi4Ġ 5Ġ
Ġyi3 Ġyi1Ġ
ming2Ġ ci2Ġ
guan1Ġ jie2Ġ
yu4Ġ qi1Ġ
Ġzuo4Ġ wu4Ġ
Ġtong2 Ġming2Ġ
xing4Ġ zhi4ĠdeĠ
Ġshe4Ġ hui4ĠdeĠ
qi4Ġ wen1Ġ
zong3Ġ gong4Ġ
sheng4Ġ bi3Ġde2Ġ
zu2Ġ gou4
yin3Ġ dao3Ġ
bai2Ġ jin1Ġ
xun2Ġ wen4Ġ
Ġzhe4 Ġwei4Ġ
piao4Ġ fang2
xuan1Ġbu4Ġ jiang1Ġ
Ġnian2Ġdai4 Ġwei4Ġ
Ġ6 Ġsui4Ġren2Ġkou3Ġ
Ġchong2Ġ qing4
Ġxi1 Ġri4Ġben3Ġ
da4Ġbu4Ġfen4 ĠdeĠ
gan1Ġsu4Ġ sheng3Ġ
gui1Ġlei4 Ġwei4Ġ
wu1Ġlu3Ġ mu4
Ġ yi
Ġ heng2
Ġ 32
Ġ à¤
Ġ xi1Ġbu4Ġ
Ġ zhan1Ġ
Ġ ji3Ġyu3Ġ
ĠĠĠ tong2Ġshi2Ġ
ju4 Ġli4Ġ
shui3 Ġwei4Ġ
hong2 Ġqi2Ġ
41 Ġnian2Ġ
ensis Ġ
Ġyi3 Ġzhi4Ġyu2Ġ
Ġyi1Ġ duan4
Ġge4 Ġshi4Ġzhen4
xiang4Ġ zheng1
Ġping2Ġ heng2Ġ
xing4Ġ xin1Ġ
ti2Ġ qin2Ġ
bian4Ġ liang4Ġ
jiu4Ġ jin1Ġshan1Ġ
shu3Ġ shu3Ġ
wei3Ġ ren4Ġwei4Ġ
ĠdeĠdi4Ġ di
Ġtong2Ġ meng2Ġ
bing1Ġ tuan2
qiu2Ġ dui4ĠdeĠ
ran2Ġ shao1
fa2Ġ kuan3Ġ
xiao1Ġfei4Ġ zhe3Ġ
jiao1Ġcha1Ġ kou3Ġ
hun4Ġning2Ġ tu3Ġ
qing1Ġzhen1Ġ si4Ġ
Ġ po4
Ġ lai4
Ġ 1937
Ġ meng2Ġgu3Ġ
ĠĠĠ zuo4Ġpin3Ġ
guan1 Ġzhong1Ġ
fa3 Ġxi1Ġsi1Ġ
fen1 Ġdui4Ġ
dian4 Ġji2Ġ
jing3 ĠdeĠ
han4 Ġwei4Ġ
lou2 Ġgao1Ġ
ia ĠĠĠ
hen2 Ġji4Ġ
Ġzai4Ġ ben3Ġ
Ġjia1Ġ da4Ġ
ping2Ġ deng3Ġ
jing1Ġ du1
jing1Ġ que4Ġ
jie2Ġ zou4
dian4Ġ chang3Ġ
ti3Ġ zhong4Ġ
xiao3Ġ zhen4Ġ
shu1Ġ dian4Ġ
zong3Ġ zhi2Ġ
fang2Ġ ziĠ
qiang2Ġ lie4
hu2Ġ guang3Ġ
gan3Ġ shou4Ġ
chu3Ġ fen4Ġ
qiao2Ġ liang2
Ġmei3 Ġzhou1
Ġmei3Ġguo2Ġ guo2Ġjia1Ġ
ju3Ġban4 ĠleĠ
lan2Ġke4Ġ lin2Ġ
can1Ġmou2 Ġbu4Ġ
Ġbei3Ġjing1 Ġshi4Ġ
Ġ shen3
Ġ So
Ġ tong3Ġyi1Ġ
Ġ yin4Ġni2Ġ
Ġ 1951Ġnian2Ġ
Ġ 1928Ġnian2Ġ
ĠĠĠ 1945
te4 Ġyi4Ġ
zui4 Ġjin4
gu3 Ġquan2Ġ
su4 Ġshi2Ġ
fang4 Ġda4Ġ
chuan1 Ġjia1Ġ
48 Ġnian2Ġ
cu4 Ġshi3Ġ
1930 Ġnian2Ġdai4Ġ
wei4Ġ lai2Ġ
Ġzai4Ġ zhe4Ġli3Ġ
Ġbu4Ġ ke3
zhi4Ġ liang4Ġ
Ġgong1Ġ wu4Ġ
Ġyi1Ġ guo2Ġ
Ġer3 Ġji1Ġ
Ġde2Ġ piao4Ġ
hua4Ġ wu4Ġ
jing1Ġ shi1Ġ
wen2Ġ zi4
dong4Ġ ci2Ġ
Ġqi2Ġ shi1Ġ
Ġyou2Ġ mei3Ġguo2Ġ
che1Ġ chang3Ġ
ba1Ġ na2
yin3Ġ cang2
Ġyi3Ġji2Ġ qi2Ġta1Ġ
ming4Ġ zhong4Ġ
gu4Ġ ti3Ġ
Ġgu4Ġ ci3Ġ
ĠdeĠhe2Ġ zuo4Ġ
ling3Ġdao3Ġ xia4Ġ
Ġwei4Ġyu2Ġfa3Ġguo2Ġ da4Ġdong1Ġbu4Ġda4Ġqu1Ġ
zhan3Ġshi4Ġ leĠ
ĠĠĠyin1Ġ ci3Ġ
Ġ 33
Ġ 1943
ĠĠĠ ha1Ġ
zhou1 Ġshi4Ġ
feng1 Ġshi4Ġ
jin3 Ġzai4Ġ
zhuan1 Ġxian4Ġ
song4 ĠdeĠ
53 Ġnian2Ġ
tuo3 Ġyuan2Ġxing2Ġ
Ġzai4Ġ a1Ġ
Ġzhong1Ġ suo3Ġ
Ġyu2Ġ 8Ġyue4Ġ
Ġyou3Ġ ke1Ġ
Ġyuan2Ġ xian1
Ġli3Ġ mian4Ġ
Ġer2 Ġta1Ġ
Ġwei2Ġ ye3Ġ
Ġke4Ġ yun4
gao1Ġ xiong2Ġ
shan1Ġ gu3Ġ
chang2Ġ jiang1
Ġshe4Ġ ru4Ġ
huo4Ġ bi4
Ġshi4Ġyi1Ġ ming2
Ġnian2Ġ5Ġyue4Ġ 1Ġri4Ġ
Ġshi3 Ġdi4Ġ
diao4Ġcha2Ġ ju2Ġ
ĠdeĠyi4Ġ yi4Ġ
zuo4Ġpin3 ĠdeĠ
zu1Ġ lin4
tian1Ġran2Ġ qi4Ġ
Ġlu4Ġyi4Ġ si1Ġ
ye2Ġlu4Ġsa1Ġ leng3
Ġ hua4
Ġ hou2Ġ
Ġ zun1Ġ
Ġ 1965Ġnian2Ġ
Ġ 1941Ġnian2Ġ
ĠĠĠ tai4Ġ
ĠĠĠ suo3Ġyou3Ġ
le Ġzhong1Ġ
du4 Ġyu3Ġ
chang2 Ġnian2Ġ
ze2 Ġshi4Ġzai4Ġ
sheng3 ĠdeĠyi2Ġge4Ġ
xiang3 Ġdao4Ġ
shou1 Ġyi4Ġ
pei4 Ġyin1Ġyuan2Ġ
ry ĠĠĠ
he2Ġ zuo4Ġ
Ġbu4Ġ xu1Ġyao4Ġ
Ġli4Ġ zhi4Ġ
Ġyi4Ġ ri4
jia1Ġ su4Ġ
Ġyi1Ġ shuo1Ġ
Ġzhi1 Ġcheng2Ġ
Ġda4Ġ yuan2Ġ
Ġyi3Ġ xia4ĠdeĠ
nan2Ġ nv3Ġ
Ġdan4 Ġsheng1Ġ
si4Ġ ci4Ġ
qing1Ġ chun1Ġ
qing1Ġ xiang4Ġyu2Ġ
bo1Ġ kuan3Ġ
Ġquan2Ġ shu1Ġ
gang3Ġ qu1Ġ
ban4Ġ lv3Ġ
tang2Ġ na4Ġ
ĠdeĠdi4Ġ fang1
huang2Ġ pu3Ġ
mo2Ġ luo4Ġ
bai2Ġ e2Ġluo2Ġsi1Ġ
chuang4Ġ li4ĠdeĠ
chi3Ġ cun4Ġ
Ġxian4ĠdeĠyi2Ġge4 Ġcheng2Ġzhen4Ġ
Ġshi4Ġwu1Ġke4Ġlan2 ĠdeĠ
yi3Ġse4Ġ lie4Ġ
ĠĠĠwai4Ġbu4Ġ lian2Ġjie2Ġ
ling3Ġxian2 Ġzhu3Ġyan3Ġ
Ġ lun2
Ġ fa1Ġxian4
ĠĠĠ han4Ġ
le Ġta1ĠmenĠdeĠ
xin1 Ġnian2Ġ
zhang3 Ġshi4Ġ
guan3 Ġhe2Ġ
liang3 Ġdi4Ġ
hua2 Ġshi4Ġ
bian4 Ġyi4Ġ
bo2 Ġming2Ġ
der ĠĠĠ
ke Ġ
93 Ġnian2Ġ
ĠdeĠ zi4Ġ
Ġshi4Ġ luo2Ġma3Ġ
da4Ġ xi1Ġyang2Ġ
Ġgong1Ġ shu3Ġ
wei2Ġ hu4
Ġda4Ġ tong2Ġ
Ġjin4 Ġnian2Ġlai2Ġ
duo1Ġ da2Ġ
zhi3Ġ ding4Ġwei4Ġ
Ġquan2 Ġnian2Ġ
bi3Ġ jiao4
ya4Ġ na4Ġ
shen1Ġ shou4Ġ
dou1Ġ neng2Ġ
chuang4Ġ ye4Ġ
tu1Ġ jue2
kan4Ġ qi3Ġlai2Ġ
Ġnv3Ġ xing4
jiao4Ġyu4 ĠdeĠ
Ġguo2Ġjia1 Ġhe2Ġ
ge2Ġming4 Ġhou4Ġ
si1Ġlan2Ġ jiao4Ġ
Ġ hu1
Ġ Lu
Ġ dang4Ġtian1Ġ
ĠĠĠ xiao3Ġxing2Ġxing1Ġ
mei3 Ġge4
da2 Ġdao4
na4 Ġshi2Ġ
ling3 Ġnan2Ġ
tian2 Ġshi4Ġ
65 Ġ
xia1 Ġ
feng3 Ġci4Ġ
Ġshi4Ġ yue4Ġ
you3Ġ yi1Ġ
Ġdi4Ġ wu3
Ġli3Ġ hui4Ġ
ren4Ġ wu4
xiang1Ġ si4ĠdeĠ
shou3Ġ qiu2Ġ
zhi2Ġ lu4Ġ
Ġxue2Ġ ke1Ġ
qi3Ġ yong4
Ġju4Ġ shuo1Ġ
ying1Ġ tian1Ġ
bian4Ġ hu4Ġ
gong4Ġ feng4
ying2Ġ yang3Ġ
zhu1Ġ ru2Ġ
tie3Ġ lu4Ġxian4Ġ
si3Ġ wang2ĠdeĠ
bu3Ġ chang2Ġ
bei1Ġ guan4Ġjun1Ġ
yuan3Ġ zheng1
Ġzhi1Ġchi2Ġ zhe3Ġ
Ġgai1Ġsheng3Ġfen4Ġwei4Ġfa3Ġguo2Ġ zhong1Ġ
ĠW Ġ
gong1Ġgong4Ġ jiao1Ġtong1Ġ
nan2Ġsi1Ġla1Ġ fu1
dan4Ġshui3 Ġyu2Ġ
Ġ za2
Ġ jiao1Ġtong1Ġ
Ġ xue4Ġ
Ġ 1961Ġnian2Ġ
ĠĠĠ ge2Ġ
ĠĠĠ zhi1Ġ
qian2 Ġbei4Ġ
qi3 Ġzai4Ġ
zhe3 Ġyou3Ġ
jiu4 Ġyi3Ġjing1Ġ
67 Ġnian2Ġ
name Ġ
di4Ġ zhi4Ġ
Ġgong1Ġ lv4Ġ
Ġyi4Ġ tu2Ġ
Ġri4 Ġdao4Ġ
ji1Ġ bai4
wei2Ġ duo1Ġli4Ġya4Ġ
Ġjia1Ġ bin1Ġ
hua4Ġ zuo4Ġ
kai1Ġ chu2Ġ
zhi2Ġ neng2Ġ
Ġzhan4Ġ che1Ġ
Ġping2Ġ gu1
chang2Ġ shu4Ġ
zhong4Ġ duo1
Ġzhe4Ġ liang3Ġ
luo2Ġ na4Ġ
jiao1Ġ xiang3
gong4Ġ feng4Ġ
chu1Ġ yan3Ġ
pai2Ġ xu4Ġ
Ġnian2Ġ2Ġyue4Ġ 24Ġri4Ġ
Ġwu2Ġ lun4
xian3Ġ zhu4ĠdeĠ
ruo4Ġ gan1Ġ
niu2Ġ jin1
jun1Ġshi4Ġ tan3Ġding1Ġ
Ġchu1Ġban3 ĠdeĠ
Ġji1Ġgou4 ĠdeĠ
jiang1Ġwei2Ġwu2Ġer3Ġ zi4Ġzhi4Ġqu1Ġ
Ġ zhan1
Ġ 1912Ġnian2Ġ
ĠĠĠ xian4Ġdai4Ġ
xia4 Ġwei4Ġ
qi1 Ġxi1Ġ
bo2 Ġli3Ġ
gai3 Ġjian4Ġwei4Ġ
pai2 Ġwei4Ġ
bang3 Ġdi4Ġ
nu3 Ġsi1Ġ
chuo4 Ġhao4Ġ
Microsoft ĠĠĠ
li4Ġ fa3Ġ
you3Ġ xiao4Ġ
Ġren2Ġ wen2Ġ
zuo4Ġ qu3Ġ
Ġbei4Ġ lie4Ġwei4Ġ
Ġming2Ġ xian3
xia4Ġ shui3Ġ
mu4Ġ fu3Ġ
bei3Ġ han2
ma3Ġ tou2
ma3Ġ ni2Ġ
bi4Ġ yao4ĠdeĠ
er4Ġ ceng2Ġ
Ġxiang1Ġ lian2Ġ
hua2Ġ bei3Ġ
xiao1Ġ chu2Ġ
fang4Ġ ying4Ġ
Ġtian1Ġ qi3Ġ
ĠĠĠsheng1Ġ tai4Ġ
Ġfeng1Ġ bao4Ġ
Ġliang3Ġ zhe3Ġ
ĠĠĠli4Ġ ru2Ġ
Ġyou2Ġxi4 Ġzhong1Ġ
chi2Ġxu4 Ġdao4Ġ
Ġzhan4Ġzheng1 ĠdeĠ
Ġ xie3Ġ
Ġ lai4Ġ
Ġ ma2Ġ
Ġ 1963Ġnian2Ġ
Ġ 1930Ġnian2Ġ
Ġ 1913Ġnian2Ġ
ĠĠĠ w
ĠĠĠ shi1Ġ
ĠĠĠ rong2Ġyu4Ġ
xiang4 Ġzhong1Ġ
bo2 Ġli4Ġ
ju2 Ġzai4Ġ
ha1 Ġbu4Ġsi1Ġ
kong4 Ġgu3Ġ
pang2 Ġda4Ġ
nong4 Ġ
Ġwei4Ġ tai2Ġwan1Ġ
Ġyou3Ġ san1Ġ
Ġgong1Ġ yuan2ĠdeĠ
Ġyi1Ġ la1Ġke4Ġ
Ġxing2 Ġyu3Ġ
sheng1Ġ cheng1
Ġzhi1Ġ ming2ĠdeĠ
Ġming2Ġ jiao4Ġ
nei4Ġ wai4Ġ
ding4Ġ yi4ĠdeĠ
Ġxiang1Ġ tong2ĠdeĠ
dan1Ġ you1Ġ
zhi1Ġ ziĠ
ci2Ġ chang3Ġ
Ġshi4Ġyi1Ġ kuan3
leĠyi1Ġ xi4Ġlie4Ġ
er4Ġshi2Ġ er4Ġnian2Ġ
Ġling4 Ġren2Ġ
Ġzhe4Ġshi4Ġ yin1Ġwei4Ġ
dong1Ġnan2Ġ ya4
ren2Ġkou3Ġshu4Ġliang4 Ġwei4Ġ
shi1Ġfan4 Ġxue2Ġxiao4Ġ
Ġ wan3
Ġ Car
Ġ kuang4Ġ
Ġ tĠ
Ġ tu3Ġer3Ġqi2Ġ
Ġ 1939Ġnian2Ġ
Ġ 1957Ġnian2Ġ
ĠĠĠ bi3Ġ
ĠĠĠ bo2Ġ
yuan2 ĠĠĠ
jian4 Ġzhi4Ġ
nan2 Ġyou3Ġ
ma3 Ġhui4Ġ
dong1 Ġshi4Ġ
can1 Ġzhan4Ġ
zhang1 Ġlu4Ġyin1Ġshi4Ġ
gang3 Ġwei4Ġ
ci2 Ġhe2Ġ
fang2 Ġdi4Ġchan3Ġ
xin4 Ġzhong1Ġ
shu2 Ġxi1Ġ
shuai1 Ġjiao1Ġ
73 Ġnian2Ġ
1889 Ġnian2Ġ
Ġbu4Ġ yi2Ġ
Ġyu2Ġ ming2Ġ
Ġren2Ġ jun1Ġ
Ġta1 Ġdao4Ġ
li3Ġ jie3Ġ
Ġji4Ġ zhe3
wu4Ġ ye4Ġ
yan2Ġ yong4Ġ
yong4Ġ tu2
Ġdan4 Ġyin1
Ġdan4 Ġhou4Ġlai2Ġ
jie1Ġ zhuang1Ġ
la1Ġ tuo1
yao4Ġ wu4
yao4Ġ su4Ġ
jiao1Ġ xiang3Ġ
yang2Ġ guang1Ġ
ban4Ġ zhang3Ġzhou2
jin3Ġ jin3Ġ
zhuan3Ġ yi2Ġzhi4Ġ
zu2Ġqiu2Ġ chao1Ġji2Ġ
huai2Ġ yi2
zong3Ġdu1Ġ fu3Ġ
meng3Ġ hu3Ġ
Ġge2 Ġnian2Ġ
yun3Ġshi2Ġ keng1
zhu3Ġti2 ĠdeĠ
nei4Ġmeng2Ġgu3Ġ zi4Ġzhi4Ġqu1Ġ
ping1Ġpang1 Ġqiu2Ġ
Ġ He
Ġ Ha
Ġ 05
Ġ ye2Ġ
Ġ zheng4Ġzai4Ġ
ĠĠĠ ri4Ġben3
ming2 Ġcheng2Ġyuan2Ġ
ke4 Ġjia1Ġ
qi4 Ġyou2Ġ
bo2 Ġsi1Ġ
jin3 Ġwei4Ġ
wan2 Ġju4Ġ
shou1 Ġhuo4Ġ
zeng1 Ġyuan2Ġ
wa3 Ġer3Ġhe2Ġ
fou3 Ġjue2Ġ
it Ġ
88 Ġnian2Ġ
ent Ġ
86 Ġnian2Ġ
la3 Ġ
center Ġ
Ġshi2Ġ ren2Ġ
Ġzhi4Ġ yi1Ġ
Ġji2Ġ jin1Ġ
Ġyuan2Ġ shuai4Ġ
Ġdao4Ġ de2
shang4Ġ jiang4Ġ
Ġxi1Ġ sheng1Ġ
Ġming2Ġ gu3Ġ
fa1Ġ shou4
jie2Ġ ju2Ġ
dian4Ġ ti1
Ġzhou1Ġ en1Ġlai2Ġ
yi2Ġ chuan2
er4Ġ shi2Ġshi4Ġji4Ġ
dan1Ġ che1Ġ
bo1Ġ ying4Ġ
Ġjin4Ġ zhi3
tong3Ġ yi1ĠdeĠ
cai2Ġ jue2Ġ
ci2Ġ shan4Ġ
dang3Ġ nei4Ġ
ying2Ġ jie1Ġ
yong3Ġ yuan3Ġ
xiang1Ġgang3Ġ dian4Ġying3Ġ
kai1Ġfa1Ġ qu1Ġ
tao3Ġ fa2
Ġjun1Ġshi4Ġ tan3Ġding1Ġ
ti3Ġyu4Ġ chang3
ĠdeĠhe2Ġ liu2Ġ
ji4Ġlu4Ġ pian4Ġ
dong4Ġche1Ġ zu3Ġ
wei2Ġye3Ġ na4Ġ
sai1Ġbai4 Ġjiang1Ġ
ao4Ġfu2Ġ nie4Ġ
Ġ zao1
Ġ 1942
Ġ zhuo2Ġ
ĠĠĠ yi2Ġge4Ġ
you2 Ġta1Ġ
zi4 Ġyi4Ġ
shou3 Ġyu3Ġ
tai4 Ġxue2Ġ
su4 Ġzhi4Ġ
hang2 Ġyuan2Ġ
chang4 ĠdeĠ
ST Ġ
64 Ġ
51 Ġ
chou3 Ġ
Ġwei4Ġ le
Ġzai4Ġ zhe4
Ġhe2Ġ qi2Ġ
Ġbu4Ġ dan4Ġ
Ġbu4Ġ qiang1Ġ
Ġli4Ġ ti3Ġ
Ġchu1 Ġzhong1Ġ
qu1Ġ bie2
xia4Ġ you2Ġ
Ġjin4 Ġbu4Ġ
Ġsheng1Ġ zhang3Ġ
Ġye3 Ġyin1Ġci3Ġ
liu2Ġ lang4Ġ
Ġxiang1Ġ dui4Ġyu2Ġ
an4Ġ sha1Ġ
wei3Ġ chang2Ġwei3Ġ
Ġyi3Ġji2Ġ yi1Ġ
mo2Ġ ca1
qian1Ġ xi3Ġ
huo4Ġ qu3Ġ
zhuan1Ġ shu3Ġ
bai2Ġ se4
zhuan3Ġ yi2
zhun3Ġ jue2Ġsai4
kan1Ġ sa4Ġsi1Ġ
Ġjin1 Ġri4Ġ
guang3Ġxi1Ġ zhuang4Ġ
yin3Ġfa1Ġ leĠ
ĠĠĠxian4 Ġshi2Ġ
an4Ġcha2Ġ shi3Ġ
Ġping2Ġfang1Ġqian1Ġ mi3Ġren2Ġ
ĠĠĠ xing2Ġtai4Ġ
you2 Ġji4Ġ
yu4 Ġdao4ĠleĠ
yan2 Ġzhi1Ġ
mu4 Ġli3Ġ
gao1 Ġer3Ġfu1
ti3 Ġshang4Ġ
shen1 Ġhou4Ġ
dian3 Ġji2Ġ
xian1 Ġjin4
jiang3 Ġzhong1Ġ
guan4 Ġming2Ġ
71 Ġnian2Ġ
Ġhe2Ġ sheng1Ġ
Ġda4Ġ bai4Ġ
Ġxing2Ġ li3Ġ
zheng4Ġ zhi4Ġbu4Ġ
Ġli3Ġ wei2Ġ
Ġdan4 Ġta1ĠmenĠ
lai2Ġ leĠ
Ġbing4Ġ cheng1Ġ
Ġzhou1Ġ mo4Ġ
la1Ġ ge2Ġ
ke3Ġ chi2Ġxu4Ġ
Ġshe4Ġ qun2Ġ
feng1Ġ su4Ġ
luo2Ġ bo2Ġ
lan2Ġ jie2Ġ
jing3Ġ fang1
shang1Ġ biao1Ġ
jin4Ġ sheng1Ġwei4Ġ
1Ġ wan4
lun2Ġ te4Ġ
dang3Ġ pai4Ġ
Ġa1Ġ gen1Ġ
zuo3Ġ pai4Ġ
miao2Ġ zhun3Ġ
Ġming2 Ġyi4Ġ
fa1Ġbiao3 Ġsheng1Ġming2Ġ
Ġer2Ġren2Ġkou3Ġmi4Ġdu4Ġwei4Ġmei3 Ġping2Ġfang1Ġqian1Ġmi3Ġren2Ġ
jie3Ġjue2Ġ fang1Ġan4Ġ
zuo4Ġpin3 Ġzhong1Ġ
bao3Ġliu2 ĠleĠ
Ġãĥ¼ Ġ
A ĠĠĠ
Ġ ji2
Ġ chun2
Ġ Ju
Ġ 1942Ġnian2Ġ
you2 Ġjian4Ġ
xiang4 Ġgong1Ġzhong4Ġ
san1 Ġzuo4Ġ
zi Ġji2Ġ
ying1 ĠdeĠ
wu2 Ġli4Ġ
gai3 Ġshe4Ġ
li2 Ġjia1Ġ
biao1 Ġshi2Ġ
chu3 Ġbei4Ġ
san4 Ġbu4Ġ
pang2 ĠdeĠ
OS Ġ
85 Ġnian2Ġ
pin1 Ġyin1Ġ
01 Ġ
lao4 Ġ
Ġshi4Ġ ba1Ġxi1Ġ
Ġzai4Ġ guo2Ġji4Ġ
Ġdi4Ġ yi1Ġbu4Ġ
Ġzhi4Ġ ding4
Ġguo2Ġ xiao3Ġ
Ġxian4Ġ chang3
Ġye3 Ġwei4Ġ
san1Ġ xiang4Ġ
a1Ġ ken3Ġse4
Ġdong1Ġ bei3Ġbu4Ġ
han2Ġ liang4Ġ
du1Ġ tong3Ġ
heng2Ġ kua4
Ġbu4Ġtong2 ĠdeĠshi4Ġ
ĠĠĠjia1Ġ jing4Ġ
Ġwei4Ġyu2Ġgai1Ġguo2Ġ dong1Ġbei3Ġbu4Ġ
ba4Ġ mian3Ġ
Ġchong2Ġ zhen1Ġ
Ġci4 Ġri4Ġ
Ġ2011Ġnian2Ġ ren2Ġkou3Ġ
Ġli2 Ġxin1Ġ
Ġxing2Ġzheng4Ġzhong1Ġxin1 Ġwei4Ġ
ĩ Ġ
min2 Ġhe2Ġ
jiang1 Ġjin4Ġ
dian3 Ġhe2Ġ
zi1 Ġshi4Ġ
di2 Ġnan2Ġ
zhao3 Ġze2Ġ
ction Ġ
Ġshi4Ġ zi4Ġ
Ġshi4Ġ bi4Ġlu3
Ġcheng2Ġ hua4Ġ
Ġyi1Ġ zhi1
hou4Ġ lai2ĠdeĠ
Ġyi3Ġ shang4
zhan4Ġ fang2Ġ
Ġzhou1 Ġwei4Ġ
shu4Ġ ma3Ġ
guan1Ġ nian4Ġ
chang2Ġ yong4ĠdeĠ
mian4Ġ che1Ġzhan4Ġ
ba1Ġ ba1Ġ
tu2Ġ pian4Ġ
xu4Ġ mu4Ġ
shao3Ġ qing1Ġ
Ġbei3Ġ qi3
ke3Ġneng2 Ġyou3Ġ
Ġluo2Ġ bo2Ġte4Ġ
ruo4Ġ gan1
ai1Ġ sai1Ġe2Ġ
lao2Ġ dong4
wu3Ġtai2Ġ ju4Ġ
ji4Ġcheng2Ġ ren2Ġ
Ġpo4Ġ shi3Ġ
ai4Ġhao4Ġ zhe3Ġ
2 Ġgong1Ġli3Ġ
Ġ lv4
Ġ hui2
Ġ meng2
Ġ kan4
Ġ leng3
ĠĠĠ wen2Ġ
ĠĠĠ zhi1Ġhou4Ġ
ĠĠĠ sui2Ġzhu4Ġ
jun1 Ġwei4Ġ
she4 Ġzai4Ġ
quan2 Ġshi4Ġjie4Ġ
wu2 Ġji1Ġ
jia3 ĠdeĠ
di2 Ġjun1Ġ
gan3 Ġdao4
tan4 Ġsuo3
57 Ġnian2Ġ
52 Ġnian2Ġ
EP Ġ
Ġhe2Ġ xiao3Ġ
Ġzhong1Ġ cheng2Ġ
Ġyuan2Ġ ben3ĠdeĠ
Ġyu3Ġ ta1Ġ
xia4Ġ fang1Ġ
Ġzhe4Ġ jiang1
Ġzhong1Ġguo2Ġ ren2Ġ
bian4Ġ ti3Ġ
gui1Ġ fan4
zheng1Ġ zhao4Ġ
Ġzhu3Ġ da3Ġ
ĠdeĠyi1Ġ ke1Ġ
ju3Ġ zhong4Ġ
chu2Ġ wai4Ġ
Ġnian2Ġ12Ġyue4Ġ 1Ġri4Ġ
ge4Ġ ti3Ġ
Ġjiang1 Ġhui4Ġ
ping2Ġjun1Ġ jiang4Ġyu3Ġliang4Ġ
Ġjiu4 Ġhui4Ġ
gui1Ġmo2Ġ zui4Ġda4ĠdeĠ
Ġshe4Ġli4Ġ leĠ
lian2Ġhe2Ġguo2Ġ jiao4Ġke1Ġwen2Ġ
Ġnian2Ġchu1Ġ sheng1Ġyu2Ġ
tou2Ġru4Ġ fu2Ġwu4Ġ
fei3Ġ cui4
q Ġ
Ġ ×
Ġ xu4
Ġ qu4
Ġ zong4
Ġ shao3Ġ
Ġ e2Ġluo2Ġ
ĠĠĠ Pa
ĠĠĠ BĠ
quan2 Ġxin1Ġ
sai4 Ġzhi4Ġ
bo1 Ġde2Ġ
zi3 Ġdi4Ġ
diao4 Ġren4Ġ
xian2 ĠdeĠ
56 Ġ
63 Ġ
Ġzhi4Ġ yuan4Ġ
Ġyi1Ġ fen4Ġ
Ġdao4Ġ xi1Ġ
Ġxing2Ġ sheng3Ġ
Ġjun1 Ġyu3Ġ
Ġchu1Ġ tu3
qian2Ġ qi1Ġ
Ġzhan4Ġ shen2Ġ
tong1Ġ bao4Ġ
chang2Ġ zheng1Ġ
bao3Ġ lei3Ġ
qing1Ġ shui3Ġ
zi1Ġ xun2
chu1Ġ fa1Ġ
zi3Ġ mei4
cai3Ġ na4Ġ
ĠĠĠben3Ġ zhan4Ġ
zhi1Ġchi2 Ġxia4Ġ
ma3Ġke4Ġsi1Ġ zhu3Ġyi4Ġ
Ġ 66
Ġ si4Ġnian2Ġ
Ġ bao4Ġgao4Ġ
Ġ pĠ
Ġ hĠ
ĠĠĠ lu4Ġ
ĠĠĠ fa1Ġzhan3Ġ
en1 ĠdeĠ
ge4 Ġji2Ġ
nan2 Ġyue4Ġ
qian2 Ġshi4Ġ
duo1 Ġnian2ĠdeĠ
si4 Ġji4Ġ
xian1 Ġxing2Ġ
guang1 Ġming2Ġ
di3 Ġte4Ġ
zang4 Ġli3Ġ
bu4Ġ lie4Ġ
Ġbu4Ġ man3
gong1Ġ ren2Ġ
Ġyu2Ġ 10Ġyue4Ġ
Ġyi1Ġ bian1Ġ
bei4Ġ po4Ġ
Ġxian4Ġ jin1
Ġyin1 Ġyu3Ġ
fa1Ġ wen2Ġ
Ġdui4Ġ hua4Ġ
suo3Ġ shi3Ġyong4ĠdeĠ
Ġfu4Ġ za2ĠdeĠ
kou3Ġ an4Ġ
Ġtong2 Ġjin4Ġshi4Ġchu1Ġshen1Ġ
liu2Ġ tong1Ġ
qing1Ġ dao3
ying1Ġ shu3Ġ
Ġxiang1Ġ hu4Ġ
Ġdong1Ġ hai3Ġ
lu2Ġ wa3Ġer3Ġsheng3Ġ
tu1Ġ po4
Ġrang4 Ġta1Ġ
jian3Ġcha2Ġ guan1Ġ
xiao3Ġxing2Ġxing1 Ġdai4Ġ
Ġzhou1Ġli4Ġ da4Ġxue2Ġ
jiang3Ġxue2Ġ jin1Ġ
3 Ġfen1Ġ
Ġ zong1Ġhe2Ġ
yue4 Ġwei4Ġ
yi2 Ġren2Ġ
sai4 Ġer3Ġ
dan1 Ġxing2Ġ
nv3 Ġzuo4Ġ
man4 Ġdi4Ġ
qiao2 ĠdeĠ
gan1 Ġshe4Ġ
49 Ġnian2Ġ
56 Ġnian2Ġ
hen2 Ġ
pian2 Ġyi
Ġzhong1Ġ zhi3
Ġzhong1Ġ da4Ġ
da4Ġ lou2Ġ
Ġguo2Ġ tu3Ġ
Ġda4Ġ lu4
Ġli3Ġ xiang3Ġ
Ġbei4Ġ fa1Ġxian4Ġ
jiao4Ġ xue2
fu2Ġ hao4
ni2Ġ po1Ġer3Ġ
wei1Ġ fen1Ġ
han4Ġ bao3Ġ
wu1Ġ zi1Ġbie2
chong2Ġ fan3
po4Ġ hai4Ġ
ta3Ġ la1Ġ
Ġzui4Ġ hou4Ġzai4Ġ
ge4Ġ lei4Ġ
Ġdi4Ġer4Ġ tian1Ġ
zi4Ġzhi4Ġ qu1
tong1Ġchang2 Ġhui4Ġ
pu3Ġcha2Ġ gui1Ġding4Ġ
fu2Ġluo2Ġli3Ġ da2
Q Ġ
Ġ yuan2
Ġ Fa
Ġ pian1Ġ
Ġ lei4Ġsi4Ġ
Ġ 1929Ġnian2Ġ
sh ĠĠĠ
ĠĠĠ wai4Ġ
ji4 ĠĠĠ
guan3 Ġshi4Ġ
ta3 Ġsi1Ġ
deng1 ĠdeĠ
tan1 Ġwu1Ġ
72 Ġnian2Ġ
one Ġ
luan2 Ġ
ĠdeĠ wai4Ġ
Ġdi4Ġ xia4
Ġyuan2Ġ ze2
Ġyuan2Ġ chao2Ġ
Ġxing2Ġ zhuang4Ġ
Ġli3Ġ you2Ġ
Ġer2 Ġcheng2Ġwei2Ġ
Ġwei2Ġ hu4
Ġwei2Ġ fan3
Ġping2Ġ ding4Ġ
Ġren4Ġ tong2Ġ
er4Ġ ci4Ġ
2Ġ mian4Ġ2
xian4Ġ jin1Ġ
ji3Ġ zhong3Ġ
yan2Ġjiu1Ġ yuan4
tan4Ġ tao3
dai4Ġbiao3 ĠdeĠ
Ġdi4Ġsan1Ġ ci4Ġ
suo1Ġ duan3
Ġci4Ġ lie4Ġche1Ġ
Ġwei4Ġyu2Ġgai1Ġguo2Ġ xi1Ġnan2Ġbu4Ġ
pang2Ġ da4ĠdeĠ
ĠĠĠhou4Ġ xu4Ġ
G ĠĠĠ
Ġ da2Ġdao4Ġ
Ġ 1967Ġnian2Ġ
ĠĠĠ g
qi1 Ġri4Ġ
kai1 Ġguo2Ġ
du4 Ġzai4Ġ
zhong4 Ġyu2Ġ
zhe3 Ġyu3Ġ
tai4 Ġyin1Ġ
mi3 Ġli4Ġ
fei1 Ġsi1Ġ
liang3 Ġji2Ġ
pi2 Ġer3Ġ
UA Ġ
Ġzai4Ġ shang4Ġhai3Ġ
Ġhe2Ġ nei4Ġ
Ġbu4Ġ deng3Ġ
si1Ġ ma3Ġ
Ġyu3Ġ zhou4Ġ
Ġji4Ġ sheng1Ġ
Ġming2Ġ e2Ġ
jing1Ġ ji4ĠdeĠ
fa1Ġ song4Ġ
Ġping2Ġ guo3
Ġzhou1Ġ qu1Ġ
zhi3Ġ nan2Ġ
tong1Ġ che1
Ġshe4Ġ ying3
Ġdan4Ġ que4Ġ
ge1Ġ chang4Ġ
nv3Ġ wang2
tong3Ġ zhi4ĠdeĠ
she4Ġ li4ĠdeĠ
ju1Ġ zhu4ĠdeĠ
zhuan3Ġ hua4Ġwei4Ġ
tao2Ġ wang2Ġ
yin4Ġdu4Ġ yang2Ġ
Ġjian1Ġ ren4Ġ
xi4Ġlie4Ġ sai4Ġ
you3Ġbu4Ġ shao3
Ġbu4Ġzheng4Ġ shi3Ġ
ba1Ġji1Ġsi1Ġ tan3
ao4Ġdi4Ġ li4ĠdeĠ
Ġ m
Ġ ding4
Ġ ban1
Ġ kui2
Ġ CO
Ġ shang4ĠdeĠ
Ġ 1969Ġnian2Ġ
Ġ centerĠ
ĠĠĠ Si
ĠĠĠ ming2Ġcheng1Ġ
wai4 Ġyu3Ġ
na4 Ġbu4Ġ
ni2 Ġshi4Ġ
xiu4 Ġji2Ġ
rao4 Ġtai4Ġyang2Ġ
tuo3 Ġyuan2Ġ
Ġyi1Ġ wan4Ġ
Ġde2 Ġdao4ĠdeĠ
Ġwei2Ġ zhu3ĠdeĠ
Ġdui4Ġ ying4
shen1Ġ ye4Ġ
ba1Ġ te4Ġ
dan1Ġ wei4ĠdeĠ
su4Ġ lv4Ġ
chu1Ġ shou4Ġ
leĠyi1Ġ fen4Ġ
geng1Ġ xin1
Ġma3 Ġke4Ġsi1Ġ
Ġzu3 Ġji2Ġ
da2Ġcheng2Ġ xie2Ġyi4Ġ
Ġfan1Ġ qie2
hei1Ġlong2Ġjiang1Ġ sheng3Ġ
Ġ zou3
Ġ qie4
Ġ mao2Ġze2Ġdong1Ġ
an1 Ġshi2Ġ
ĠĠĠ e2Ġluo2Ġsi1Ġ
ĠĠĠ guo2Ġjia1Ġdui4Ġ
jia1 Ġwei4Ġ
zheng4 Ġjian4Ġ
mu4 Ġzhong1Ġ
ge1 Ġji2Ġ
mao3 Ġke1Ġ
COVID Ġ
Ġbu4Ġ lu3
si1Ġ zhang3Ġ
Ġyi1Ġ ben3Ġ
Ġda4Ġ lian2Ġ
Ġyuan2Ġ chuang4Ġ
ming2Ġ jiao4Ġ
Ġjun1 Ġji1Ġ
fu4Ġ za2ĠdeĠ
shu4Ġ zi4
Ġde2Ġ duo1Ġ
po4Ġ shi3Ġ
hua1Ġ fei4Ġ
Ġyou3Ġyi1Ġ tiao2Ġ
Ġbing4Ġyu2Ġ tong2
bo2Ġwu4Ġ yuan4Ġ
Ġyi4Ġban1 ĠdeĠ
la1Ġding1 Ġyu3Ġ
Ġa1Ġla1Ġ bo2
Ġzhong1Ġguo2Ġguo2Ġmin2Ġ dang3
Ġyou2Ġqi2 Ġshi4Ġzai4Ġ
Ġ xi4
Ġ lie4
Ġ tui4Ġ
Ġ qie4Ġ
Ġ ke3Ġneng2Ġhui4Ġ
ĠĠĠ He
ĠĠĠ No
ĠĠĠ zhou1Ġ
ĠĠĠ sai4Ġshi4Ġ
zhong1 ĠdeĠdi4Ġ
sheng1 Ġshi4Ġ
ren4 Ġshi4Ġ
jin4 Ġjun1Ġ
wen2 Ġxian4
bian4 Ġshi2Ġ
chi2 ĠdeĠ
du1 Ġcheng2Ġ
cai3 ĠdeĠ
97 Ġnian2Ġ
Ġjun1 Ġbu4Ġ
jie2Ġ dian3Ġ
lian2Ġ chuan4
duo1Ġ lun2Ġ
[...]
