{"!":0,"\"":1,"#":2,"$":3,"%":4,"&":5,"'":6,"(":7,")":8,"*":9,"+":10,",":11,"-":12,".":13,"/":14,"0":15,"1":16,"2":17,"3":18,"4":19,"5":20,"6":21,"7":22,"8":23,"9":24,":":25,";":26,"=":27,"?":28,"@":29,"A":30,"B":31,"C":32,"D":33,"E":34,"F":35,"G":36,"H":37,"I":38,"J":39,"K":40,"L":41,"M":42,"N":43,"O":44,"P":45,"Q":46,"R":47,"S":48,"T":49,"U":50,"V":51,"W":52,"X":53,"Y":54,"Z":55,"[":56,"\\":57,"]":58,"^":59,"_":60,"`":61,"a":62,"b":63,"c":64,"d":65,"e":66,"f":67,"g":68,"h":69,"i":70,"j":71,"k":72,"l":73,"m":74,"n":75,"o":76,"p":77,"q":78,"r":79,"s":80,"t":81,"u":82,"v":83,"w":84,"x":85,"y":86,"z":87,"|":88,"~":89,"¡":90,"¢":91,"£":92,"¤":93,"¥":94,"¦":95,"§":96,"¨":97,"©":98,"ª":99,"«":100,"¬":101,"®":102,"¯":103,"°":104,"±":105,"²":106,"³":107,"´":108,"µ":109,"¶":110,"·":111,"¸":112,"¹":113,"º":114,"»":115,"¼":116,"½":117,"¾":118,"¿":119,"Â":120,"Ã":121,"Ä":122,"Å":123,"Æ":124,"Ç":125,"È":126,"É":127,"Ê":128,"Ë":129,"Ì":130,"Í":131,"Î":132,"Ï":133,"Ð":134,"Ñ":135,"Ò":136,"Ó":137,"Ô":138,"Õ":139,"Ö":140,"×":141,"Ø":142,"Ù":143,"Ú":144,"Û":145,"Ü":146,"Þ":147,"ß":148,"à":149,"á":150,"â":151,"ã":152,"ä":153,"ê":154,"ë":155,"ì":156,"í":157,"î":158,"ï":159,"ð":160,"ñ":161,"Ċ":162,"Ġ":163,"ġ":164,"Ģ":165,"ģ":166,"Ĥ":167,"ĥ":168,"Ħ":169,"ħ":170,"Ĩ":171,"ĩ":172,"Ī":173,"ī":174,"Ĭ":175,"ĭ":176,"Į":177,"į":178,"İ":179,"ı":180,"Ĳ":181,"ĳ":182,"Ĵ":183,"ĵ":184,"Ķ":185,"ķ":186,"ĸ":187,"Ĺ":188,"ĺ":189,"Ļ":190,"ļ":191,"Ľ":192,"ľ":193,"Ŀ":194,"ŀ":195,"Ł":196,"ł":197,"Ń":198,"ng":199,"i4":200,"an":201,"sh":202,"zh":203,"ng1":204,"ji":205,"u4":206,"ng2":207,"ĠĠ":208,"i2":209,"ao":210,"xi":211,"ng4":212,"an2":213,"i3":214,"i1":215,"de":216,"u3":217,"an4":218,"e4":219,"en":220,"ch":221,"uo":222,"u2":223,"ng3":224,"an1":225,"e2":226,"ai4":227,"u1":228,"ĠĠĠ":229,"ong1":230,"a1":231,"ãĢ":232,"shi4":233,"ei4":234,"ao4":235,"ian2":236,"a4":237,"yu":238,"ang1":239,"yo":240,"an3":241,"n1":242,"hu":243,"ang4":244,"nian2":245,"en2":246,"li":247,"ang3":248,"eng2":249,"uo4":250,"uo2":251,"wei4":252,"mi":253,"ao3":254,"zai4":255,"ãĢģ":256,"bi":257,"qi":258,"ang2":259,"e1":260,"he2":261,"yi":262,"eng1":263,"zhong1":264,"er":265,"bu4":266,"ou4":267,"a3":268,"e3":269,"n4":270,"shi2":271,"di4":272,"guo2":273,"ai2":274,"ui4":275,"ren2":276,"ao1":277,"xu":278,"yi1":279,"n2":280,"ong2":281,"yu2":282,"gu":283,"li4":284,"zhi4":285,"di":286,"we":287,"en4":288,"cheng2":289,"ong4":290,"yi4":291,"gong1":292,"ji2":293,"eng4":294,"en1":295,"yue4":296,"you3":297,"yuan2":298,"da4":299,"a2":300,"le":301,"ji4":302,"20":303,"yi3":304,"ju":305,"ai1":306,"pi":307,"xian4":308,"ou1":309,"jia1":310,"si1":311,"xing2":312,"ei3":313,"ti":314,"yu3":315,"ji1":316,"ta1":317,"ri4":318,"zhi1":319,"hou4":320,"li3":321,"ou3":322,"ai3":323,"wei2":324,"hui4":325,"dao4":326,"19":327,"ong3":328,"qi2":329,"uan2":330,"zheng4":331,"ming2":332,"xi1":333,"ao2":334,"jian4":335,"xue2":336,"chu1":337,"ge4":338,"zuo4":339,"uo1":340,"sheng1":341,"dui4":342,"you2":343,"uo3":344,"qu1":345,"shang4":346,"en3":347,"de2":348,"bei4":349,"shi3":350,"zhu":351,"zhan4":352,"n3":353,"xin1":354,"jun1":355,"er3":356,"she4":357,"ren4":358,"fa1":359,"wu4":360,"bing4":361,"ke4":362,"er2":363,"lu4":364,"dai4":365,"zhu3":366,"yi2":367,"shu4":368,"ju4":369,"jin4":370,"zi4":371,"yin1":372,"fu4":373,"fang1":374,"jing1":375,"nan2":376,"hua4":377,"zhou1":378,"ping2":379,"xia4":380,"lai2":381,"yong4":382,"guan1":383,"tong2":384,"yu4":385,"ãĢĭ":386,"ãĢĬ":387,"fa3":388,"zhu4":389,"mei3":390,"Â·":391,"jian1":392,"bo":393,"huo4":394,"ben3":395,"xiang1":396,"zhi2":397,"dong4":398,"xiang4":399,"min2":400,"zhe4":401,"jiang1":402,"qi1":403,"fen1":404,"shou3":405,"quan2":406,"wen2":407,"yan2":408,"suo3":409,"jiao4":410,"qian2":411,"dian4":412,"te4":413,"duo1":414,"zui4":415,"kai1":416,"jie2":417,"lian2":418,"zhi3":419,"xi4":420,"ke3":421,"eng3":422,"ei1":423,"dan4":424,"mu4":425,"ye4":426,"du4":427,"fu2":428,"shu":429,"ma3":430,"ye3":431,"dong1":432,"qiu2":433,"bei3":434,"ãĢĮ":435,"ãĢį":436,"gao1":437,"ya4":438,"ou2":439,"du":440,"jie1":441,"un2":442,"mian4":443,"hai3":444,"zhang3":445,"shi1":446,"jin1":447,"ci3":448,"nei4":449,"sai4":450,"san1":451,"tai2":452,"ge2":453,"xing4":454,"guo4":455,"201":456,"deng3":457,"yao4":458,"che1":459,"ci4":460,"su":461,"mo":462,"ru4":463,"wu3":464,"gai1":465,"ku":466,"ding4":467,"chang2":468,"biao3":469,"la1":470,"ti3":471,"gong4":472,"jie4":473,"shou4":474,"dao3":475,"shan1":476,"chang3":477,"si4":478,"lv":479,"ze2":480,"ti2":481,"ke1":482,"dang1":483,"neng2":484,"er4":485,"wai4":486,"ei2":487,"chu":488,"dan1":489,"qi3":490,"zi":491,"kou3":492,"xiao3":493,"zu3":494,"ba1":495,"jue2":496,"lin2":497,"liu2":498,"ni":499,"sheng3":500,"ying1":501,"lan2":502,"bi3":503,"luo2":504,"tong1":505,"200":506,"zhong4":507,"zhe3":508,"shu3":509,"tian1":510,"zhen4":511,"zhong3":512,"lie4":513,"qi4":514,"cheng1":515,"shu1":516,"yuan4":517,"bao3":518,"tai4":519,"fu3":520,"feng1":521,"mi3":522,"qing1":523,"shen1":524,"wang2":525,"yun4":526,"guan3":527,"fei1":528,"jiu4":529,"gu3":530,"liang3":531,"ceng2":532,"mei2":533,"10":534,"fen4":535,"hao4":536,"yan3":537,"wei3":538,"zong3":539,"xuan3":540,"xiao4":541,"da2":542,"na4":543,"liang4":544,"bo1":545,"zu2":546,"jing4":547,"bao4":548,"ni2":549,"wu2":550,"tong3":551,"hua2":552,"jiao1":553,"yue1":554,"ying3":555,"bian4":556,"xing1":557,"su4":558,"shui3":559,"yang2":560,"men":561,"bao1":562,"ge1":563,"bo2":564,"can1":565,"cong2":566,"dian3":567,"ru2":568,"ban4":569,"bi4":570,"bian1":571,"wang3":572,"qu3":573,"chan3":574,"se4":575,"zi1":576,"qu":577,"00":578,"chuan2":579,"nv":580,"sheng4":581,"ran2":582,"tu2":583,"zhang1":584,"xu4":585,"pu3":586,"gai3":587,"gang3":588,"nv3":589,"ling4":590,"luo4":591,"you4":592,"tou2":593,"hu4":594,"cha2":595,"ce4":596,"chi2":597,"18":598,"lv4":599,"qian1":600,"li2":601,"dou1":602,"12":603,"zheng1":604,"kuo4":605,"sha1":606,"lu":607,"dang3":608,"fan3":609,"gou4":610,"lei4":611,"xi2":612,"jing3":613,"tuan2":614,"wei1":615,"xie1":616,"ling3":617,"long2":618,"gui1":619,"xian1":620,"rong2":621,"huang2":622,"xiang3":623,"ban1":624,"jiu3":625,"ying4":626,"men2":627,"shang1":628,"shen2":629,"202":630,"ban3":631,"ka3":632,"cu":633,"mu3":634,"jin3":635,"fu1":636,"ju3":637,"mo2":638,"guang3":639,"ci2":640,"shuo1":641,"qing2":642,"zhan3":643,"hai2":644,"zhuang1":645,"mo4":646,"cai2":647,"ji3":648,"du2":649,"11":650,"pin3":651,"ting2":652,"chao2":653,"ying2":654,"wo":655,"tiao2":656,"po":657,"jian3":658,"tang2":659,"hui2":660,"duan4":661,"chen2":662,"gen1":663,"mi4":664,"wan4":665,"pai2":666,"wan1":667,"zao4":668,"hang2":669,"wan2":670,"biao1":671,"lun2":672,"199":673,"xie2":674,"jiang3":675,"han4":676,"ju2":677,"fan4":678,"fang2":679,"huo2":680,"gu4":681,"han2":682,"kong1":683,"tie3":684,"meng2":685,"bie2":686,"wu1":687,"jie3":688,"zhuan1":689,"yin3":690,"xu1":691,"zhen1":692,"jia4":693,"bing1":694,"ming4":695,"ling2":696,"hong2":697,"qin1":698,"zi3":699,"lun4":700,"tu":701,"or":702,"xin4":703,"chu4":704,"su1":705,"xiu1":706,"chu3":707,"zong1":708,"15":709,"hu2":710,"que4":711,"xiao1":712,"zhao4":713,"qiang2":714,"qu4":715,"cun1":716,"chong2":717,"pian4":718,"jiu1":719,"fang4":720,"sui2":721,"shou1":722,"geng4":723,"âĢ":724,"guang1":725,"ju1":726,"jia3":727,"chuang4":728,"di2":729,"zhuan3":730,"16":731,"guo3":732,"xun4":733,"man4":734,"pai4":735,"fei4":736,"pei4":737,"198":738,"da3":739,"tuo1":740,"xuan1":741,"chu2":742,"bai2":743,"la":744,"on":745,"zhu1":746,"du1":747,"tu3":748,"diao4":749,"xia2":750,"liu4":751,"17":752,"sui4":753,"hui1":754,"ting1":755,"qie3":756,"ta3":757,"qiao2":758,"ha1":759,"gan3":760,"zeng1":761,"xian3":762,"mai4":763,"huan2":764,"xu3":765,"wa3":766,"tui1":767,"wen4":768,"chao1":769,"tian2":770,"bai3":771,"cai3":772,"liang2":773,"ya2":774,"sa4":775,"ar":776,"bai4":777,"cun2":778,"jiao3":779,"shao3":780,"yan4":781,"zhuang4":782,"di3":783,"huo3":784,"lei2":785,"14":786,"jiang4":787,"chuan1":788,"yin4":789,"zao3":790,"yong3":791,"si3":792,"deng1":793,"30":794,"zhun3":795,"le4":796,"xun2":797,"nuo4":798,"huan4":799,"song4":800,"gao4":801,"lu3":802,"13":803,"194":804,"bang1":805,"lv3":806,"yang4":807,"hen3":808,"qun2":809,"zheng3":810,"guan4":811,"po4":812,"gang1":813,"wo3":814,"197":815,"hua1":816,"lei1":817,"hao3":818,"tao2":819,"kuang4":820,"pi1":821,"dun4":822,"nong2":823,"gei3":824,"sai1":825,"shuang1":826,"lian4":827,"kuai4":828,"in":829,"di1":830,"pan4":831,"xie3":832,"195":833,"kao3":834,"gai4":835,"he4":836,"hei1":837,"wang4":838,"liao4":839,"re4":840,"ge":841,"zuo3":842,"kong4":843,"196":844,"yang1":845,"chang4":846,"yin2":847,"reng2":848,"sen1":849,"bei1":850,"lu2":851,"piao4":852,"ya1":853,"ku4":854,"25":855,"bin1":856,"âĢĶ":857,"rang4":858,"chong1":859,"lou2":860,"bu3":861,"lao3":862,"zhu2":863,"jun4":864,"yang3":865,"rui4":866,"yao1":867,"xian2":868,"xie4":869,"nian4":870,"for":871,"you1":872,"tan2":873,"kang1":874,"pi2":875,"heng2":876,"yun2":877,"kan4":878,"ning2":879,"liao2":880,"shao4":881,"bu2":882,"qing3":883,"chi3":884,"24":885,"mu":886,"dou4":887,"mian3":888,"yong1":889,"tan3":890,"wan3":891,"hu1":892,"ru":893,"fan1":894,"al":895,"tu1":896,"gan1":897,"suan4":898,"ding1":899,"yuan3":900,"wen1":901,"tui4":902,"zhe":903,"st":904,"21":905,"xiu4":906,"ba3":907,"man3":908,"193":909,"23":910,"mula":911,"kang4":912,"formula":913,"28":914,"th":915,"mao2":916,"ruo4":917,"pian1":918,"mao4":919,"lang3":920,"qin2":921,"ba2":922,"na2":923,"zan4":924,"xi3":925,"gui3":926,"gui4":927,"re":928,"pin2":929,"wo4":930,"xiong2":931,"shan4":932,"22":933,"xiong1":934,"me":935,"sui1":936,"26":937,"shen3":938,"qing4":939,"miao2":940,"fang3":941,"50":942,"2020":943,"27":944,"lang2":945,"ou":946,"qiu1":947,"song1":948,"ri":949,"dang4":950,"geng1":951,"qiang1":952,"fa2":953,"zao1":954,"feng4":955,"zhang4":956,"ï¼":957,"hao2":958,"dun1":959,"zou3":960,"hai4":961,"qie4":962,"29":963,"tan4":964,"zu":965,"pao4":966,"pa4":967,"shun4":968,"peng2":969,"xuan2":970,"2010":971,"ni3":972,"000":973,"ding3":974,"niu3":975,"zai3":976,"zhao1":977,"zhui1":978,"lve4":979,"chun1":980,"2019":981,"hun1":982,"kong3":983,"che4":984,"duan1":985,"shen4":986,"xiang2":987,"duan3":988,"gan4":989,"ro":990,"te":991,"kan1":992,"lao2":993,"cao3":994,"2016":995,"si":996,"gu1":997,"pei2":998,"kuan3":999,"za2":1000,"2018":1001,"sun1":1002,"ye2":1003,"ya3":1004,"ra":1005,"po1":1006,"2021":1007,"zha4":1008,"chi4":1009,"duo2":1010,"2014":1011,"fan2":1012,"2011":1013,"2015":1014,"cuo4":1015,"2017":1016,"zhe2":1017,"yao2":1018,"pai1":1019,"tou4":1020,"cang2":1021,"2012":1022,"40":1023,"kai3":1024,"2013":1025,"2022":1026,"mi2":1027,"ruan3":1028,"suan1":1029,"cha1":1030,"zang4":1031,"miao4":1032,"lt":1033,"2009":1034,"zhao3":1035,"2008":1036,"huai2":1037,"ãĥ":1038,"ce":1039,"60":1040,"xue4":1041,"chou2":1042,"se":1043,"bang3":1044,"am":1045,"meng4":1046,"100":1047,"ti4":1048,"pu2":1049,"nao3":1050,"2023":1051,"zhuan4":1052,"gt":1053,"lei3":1054,"190":1055,"31":1056,"cai4":1057,"san4":1058,"mou2":1059,"tion":1060,"hun4":1061,"kuan1":1062,"2007":1063,"ta":1064,"niu2":1065,"mou3":1066,"tao3":1067,"die2":1068,"2001":1069,"teng2":1070,"sou1":1071,"ken3":1072,"qian3":1073,"chang1":1074,"ran3":1075,"que1":1076,"fou3":1077,"sun3":1078,"fo":1079,"ba4":1080,"2000":1081,"80":1082,"kao4":1083,"suo1":1084,"2006":1085,"niao3":1086,"pi3":1087,"chun2":1088,"2024":1089,"lan3":1090,"ãģ":1091,"zai1":1092,"co":1093,"xue3":1094,"hui3":1095,"el":1096,"ma":1097,"luan4":1098,"ting3":1099,"2005":1100,"zun1":1101,"bang4":1102,"la4":1103,"huan1":1104,"rang3":1105,"shui4":1106,"min3":1107,"35":1108,"lai4":1109,"cang1":1110,"70":1111,"fo2":1112,"pan2":1113,"nai4":1114,"wen3":1115,"ne":1116,"cao1":1117,"of":1118,"sang1":1119,"pang2":1120,"90":1121,"bing3":1122,"ï¼į":1123,"ter":1124,"zha1":1125,"ãĤ":1126,"shuai4":1127,"nie4":1128,"hou2":1129,"mei4":1130,"shao1":1131,"nu3":1132,"dong3":1133,"il":1134,"feng2":1135,"mie4":1136,"yun3":1137,"zou4":1138,"mai3":1139,"huai4":1140,"2004":1141,"45":1142,"lo":1143,"yan1":1144,"the":1145,"he":1146,"48":1147,"zhuo2":1148,"at":1149,"and":1150,"tao4":1151,"nai3":1152,"kun1":1153,"2025":1154,"zhen3":1155,"ck":1156,"ru3":1157,"kua4":1158,"kui2":1159,"ãĢī":1160,"ãĢĪ":1161,"gou1":1162,"36":1163,"et":1164,"cui1":1165,"es":1166,"38":1167,"cu4":1168,"shan3":1169,"rou4":1170,"diao1":1171,"2003":1172,"hu3":1173,"guo1":1174,"37":1175,"cui4":1176,"xu2":1177,"is":1178,"mang2":1179,"juan3":1180,"to":1181,"can2":1182,"dian1":1183,"zhan1":1184,"cao2":1185,"189":1186,"IN":1187,"2002":1188,"keng1":1189,"TC":1190,"ma2":1191,"34":1192,"leng3":1193,"as":1194,"zu1":1195,"cha4":1196,"75":1197,"âĢĵ":1198,"ow":1199,"su2":1200,"quan1":1201,"da1":1202,"chai1":1203,"lang4":1204,"kun4":1205,"46":1206,"tun2":1207,"fen3":1208,"1990":1209,"âĢ¦":1210,"ol":1211,"ve":1212,"zhou4":1213,"shang3":1214,"rao4":1215,"heng1":1216,"ti1":1217,"xun1":1218,"39":1219,"ne4":1220,"..":1221,"nan4":1222,"pan1":1223,"65":1224,"hong1":1225,"shu2":1226,"tan1":1227,"tang1":1228,"kan3":1229,"Ma":1230,"ni4":1231,"Ch":1232,"32":1233,"it":1234,"ST":1235,"han3":1236,"47":1237,"UTC":1238,"qian4":1239,"1999":1240,"1998":1241,"In":1242,"1980":1243,"188":1244,"500":1245,"33":1246,"64":1247,"qiang3":1248,"she2":1249,"shuo4":1250,"pao3":1251,"be":1252,"ka1":1253,"zhai2":1254,"SE":1255,"55":1256,"quan4":1257,"ni1":1258,"deng4":1259,"1997":1260,"The":1261,"Co":1262,"mian2":1263,"49":1264,"gao3":1265,"II":1266,"68":1267,"han":1268,"she3":1269,"zeng4":1270,"zhou2":1271,"zhai4":1272,"Re":1273,"1996":1274,"44":1275,"na":1276,"tie1":1277,"dao1":1278,"ad":1279,"br":1280,"1994":1281,"fei2":1282,"zong4":1283,"ir":1284,"qiong2":1285,"tiao4":1286,"chuang2":1287,"nd":1288,"1992":1289,"chui2":1290,"juan1":1291,"ci":1292,"chai2":1293,"miao3":1294,"ba":1295,"gua1":1296,"xue1":1297,"tong4":1298,"1995":1299,"fei3":1300,"chi1":1301,"meng3":1302,"wo1":1303,"67":1304,"shuai1":1305,"tuo2":1306,"chuang1":1307,"huan3":1308,"vi":1309,"1991":1310,"1970":1311,"58":1312,"1950":1313,"gua4":1314,"chan2":1315,"ca":1316,"300":1317,"wa1":1318,"1993":1319,"187":1320,"1949":1321,"ay":1322,"pe":1323,"sa1":1324,"tiao3":1325,"zha2":1326,"AT":1327,"1960":1328,"bian3":1329,"42":1330,"1945":1331,"ver":1332,"us":1333,"guai4":1334,"ku3":1335,"nu2":1336,"1988":1337,"du3":1338,"oo":1339,"1989":1340,"ig":1341,"pu4":1342,"69":1343,"liu3":1344,"ing":1345,"ur":1346,"ss":1347,"gong3":1348,"SEE":1349,"tuo4":1350,"ct":1351,"liao3":1352,"INSEE":1353,"59":1354,"sha4":1355,"tai1":1356,"43":1357,"66":1358,"chuan4":1359,"amp":1360,"chen4":1361,"57":1362,"1985":1363,"huang1":1364,"Ro":1365,"99":1366,"SA":1367,"ãĢİ":1368,"cun4":1369,"ãĢı":1370,"1984":1371,"hun2":1372,"41":1373,"um":1374,"pu1":1375,"kou4":1376,"ph":1377,"88":1378,"fen2":1379,"1986":1380,"rao3":1381,"St":1382,"au":1383,"id":1384,"run4":1385,"TV":1386,"150":1387,"zhuo1":1388,"ind":1389,"400":1390,"san3":1391,"1987":1392,"78":1393,"56":1394,"1982":1395,"ard":1396,"Li":1397,"nuo2":1398,"Me":1399,"1983":1400,"De":1401,"NA":1402,"gun3":1403,"ma1":1404,"tou":1405,"pin4":1406,"un":1407,"CD":1408,"chou1":1409,"ber":1410,"gou3":1411,"quan3":1412,"77":1413,"Mi":1414,"zhai1":1415,"qia4":1416,"per":1417,"mao1":1418,"qiao3":1419,"Mar":1420,"ku1":1421,"kuang2":1422,"ed":1423,"ang":1424,"rou2":1425,"98":1426,"der":1427,"lou4":1428,"OS":1429,"Â°":1430,"kui4":1431,"sang4":1432,"ï½":1433,"ly":1434,"180":1435,"BC":1436,"54":1437,"61":1438,"Al":1439,"1979":1440,"1920":1441,"ty":1442,"79":1443,"pen1":1444,"seng1":1445,"tw":1446,"52":1447,"You":1448,"1978":1449,"nu4":1450,"62":1451,"weng1":1452,"ye1":1453,"duo3":1454,"Le":1455,"53":1456,"xing3":1457,"juan4":1458,"ï½ŀ":1459,"BA":1460,"ts":1461,"ak":1462,"1946":1463,"CO":1464,"Mo":1465,"ction":1466,"51":1467,"1958":1468,"Sh":1469,"1981":1470,"Vi":1471,"man":1472,"1972":1473,"1948":1474,"zhui4":1475,"cong1":1476,"tou1":1477,"AM":1478,"63":1479,"AR":1480,"Jo":1481,"1941":1482,"Wind":1483,"wa2":1484,"BS":1485,"lian3":1486,"1930":1487,"Pro":1488,"luan3":1489,"ows":1490,"kuang1":1491,"ke2":1492,"qu2":1493,"tuo3":1494,"76":1495,"hans":1496,"1940":1497,"pi4":1498,"1937":1499,"1976":1500,"zui3":1501,"1944":1502,"89":1503,"1975":1504,"ry":1505,"ï¼ı":1506,"1968":1507,"niang2":1508,"po2":1509,"shua1":1510,"hk":1511,"con":1512,"ran":1513,"Te":1514,"yuan1":1515,"tao1":1516,"wang1":1517,"1000":1518,"Windows":1519,"95":1520,"pa":1521,"Ne":1522,"no":1523,"bi2":1524,"sao3":1525,"87":1526,"da":1527,"1966":1528,"85":1529,"fa4":1530,"peng1":1531,"600":1532,"ga1":1533,"lan4":1534,"120":1535,"1947":1536,"Ar":1537,"Sta":1538,"1956":1539,"AC":1540,"1964":1541,"dan3":1542,"cu1":1543,"1942":1544,"Ã©":1545,"1955":1546,"Se":1547,"Ra":1548,"chou3":1549,"1952":1550,"1939":1551,"1938":1552,"72":1553,"IS":1554,"va":1555,"74":1556,"Ga":1557,"ga":1558,"ht":1559,"nu":1560,"lay":1561,"ren3":1562,"1973":1563,"1974":1564,"1954":1565,"fi":1566,"qie1":1567,"ED":1568,"1900":1569,"--":1570,"Ja":1571,"AP":1572,"1943":1573,"bi1":1574,"Tu":1575,"ke":1576,"os":1577,"1977":1578,"Be":1579,"1971":1580,"pin1":1581,"man2":1582,"op":1583,"po3":1584,"ent":1585,"1967":1586,"sheng2":1587,"ment":1588,"mp":1589,"IC":1590,"800":1591,"La":1592,"ER":1593,"ia":1594,"86":1595,"1959":1596,"beng1":1597,"Sa":1598,"1965":1599,"son":1600,"JR":1601,"1969":1602,"dui1":1603,"Lo":1604,"pen2":1605,"ine":1606,"So":1607,"ãĥ»":1608,"ÃĹ":1609,"qiao4":1610,"chui1":1611,"ID":1612,"qiao1":1613,"Su":1614,"1936":1615,"97":1616,"160":1617,"ben1":1618,"zhua1":1619,"Da":1620,"Fa":1621,"1953":1622,"1962":1623,"MA":1624,"do":1625,"1961":1626,"tic":1627,"long3":1628,"âĶ":1629,"1935":1630,"ta4":1631,"rou":1632,"mai2":1633,"96":1634,"ON":1635,"Di":1636,"ï¼ħ":1637,"1951":1638,"1957":1639,"1963":1640,"Ca":1641,"ha":1642,"âĶĢ":1643,"ok":1644,"84":1645,"2026":1646,"can3":1647,"ore":1648,"82":1649,"Na":1650,"hi":1651,"bu":1652,"73":1653,"94":1654,"tun1":1655,"92":1656,"pp":1657,"IP":1658,"AN":1659,"Bo":1660,"sta":1661,"mer":1662,"1933":1663,"one":1664,"Mu":1665,"1931":1666,"nang2":1667,"les":1668,"niao4":1669,"71":1670,"bao2":1671,"ho":1672,"nuan3":1673,"gi":1674,"An":1675,"leng2":1676,"pa2":1677,"Pa":1678,"93":1679,"so":1680,"83":1681,"all":1682,"We":1683,"dou3":1684,"81":1685,"1918":1686,"HD":1687,"Si":1688,"sao1":1689,"wi":1690,"Uni":1691,"1928":1692,"luan2":1693,"1932":1694,"nen4":1695,"ll":1696,"ara":1697,"int":1698,"Ba":1699,"MV":1700,"SS":1701,"110":1702,"1912":1703,"IT":1704,"ki":1705,"1929":1706,"tui3":1707,"duo4":1708,"1927":1709,"com":1710,"tu4":1711,"1934":1712,"are":1713,"700":1714,"ga2":1715,"cn":1716,"ali":1717,"91":1718,"che":1719,"ted":1720,"ster":1721,"ff":1722,"by":1723,"huang3":1724,"col":1725,"ill":1726,"ot":1727,"250":1728,"sa":1729,"art":1730,"zei2":1731,"1924":1732,"Ri":1733,"...":1734,"1919":1735,"kui1":1736,"xuan4":1737,"130":1738,"piao1":1739,"1925":1740,"PS":1741,"pao1":1742,"xia1":1743,"140":1744,"Play":1745,"SM":1746,"PC":1747,"mes":1748,"1914":1749,"ste":1750,"zhai3":1751,"km":1752,"He":1753,"DV":1754,"pan":1755,"zhe1":1756,"YouTu":1757,"he1":1758,"end":1759,"Ha":1760,"Fi":1761,"ana":1762,"die1":1763,"ble":1764,"Con":1765,"Wi":1766,"la3":1767,"AS":1768,"1911":1769,"Bu":1770,"ka":1771,"shi":1772,"od":1773,"gra":1774,"nve4":1775,"ld":1776,"1926":1777,"Ge":1778,"Ti":1779,"den":1780,"our":1781,"1922":1782,"na3":1783,"hen4":1784,"1917":1785,"sion":1786,"ET":1787,"NBA":1788,"IV":1789,"shui2":1790,"cai1":1791,"rao2":1792,"EN":1793,"1923":1794,"1921":1795,"peng4":1796,"fe":1797,"kua1":1798,"Goo":1799,"ther":1800,"Ta":1801,"chong3":1802,"170":1803,"à¸":1804,"EC":1805,"mao3":1806,"nong4":1807,"mm":1808,"AL":1809,"MS":1810,"Ho":1811,"section":1812,"YouTube":1813,"EP":1814,"Ni":1815,"BL":1816,"1913":1817,"hn":1818,"tiao1":1819,"pen":1820,"HK":1821,"En":1822,"âĨ":1823,"hant":1824,"gun4":1825,"1909":1826,"gin":1827,"Inter":1828,"cro":1829,"Pe":1830,"Ste":1831,"MP":1832,"AI":1833,"To":1834,"geng3":1835,"Wor":1836,"nao4":1837,"ris":1838,"feng3":1839,"ant":1840,"luo3":1841,"US":1842,"ya":1843,"por":1844,"DVD":1845,"go":1846,"ari":1847,"zou1":1848,"Pi":1849,"3000":1850,"Th":1851,"ca1":1852,"Do":1853,"Po":1854,"gn":1855,"1910":1856,"For":1857,"RO":1858,"DS":1859,"112":1860,"AK":1861,"RE":1862,"pro":1863,"1916":1864,"Car":1865,"ãĥ¼":1866,"chuo4":1867,"Net":1868,"Î±":1869,"ation":1870,"Sch":1871,"Ki":1872,"No":1873,"ani":1874,"ture":1875,"ell":1876,"Lin":1877,"My":1878,"CP":1879,"UN":1880,"Wil":1881,"ark":1882,"âĪ":1883,"Station":1884,"hen2":1885,"1915":1886,"gle":1887,"niang4":1888,"1905":1889,"FC":1890,"ven":1891,"ers":1892,"my":1893,"CN":1894,"âĦ":1895,"âĨĴ":1896,"1901":1897,"tional":1898,"Lu":1899,"wa":1900,"ting":1901,"Au":1902,"DNA":1903,"Ex":1904,"fa":1905,"pu":1906,"âĢ§":1907,"sic":1908,"dia":1909,"900":1910,"HR":1911,"Ph":1912,"dice":1913,"ary":1914,"sis":1915,"New":1916,".&":1917,"ton":1918,"CH":1919,"zen3":1920,"TA":1921,"TO":1922,"1906":1923,"1904":1924,"chuang3":1925,"AV":1926,"Ju":1927,"Qu":1928,"oun":1929,"Ka":1930,"gen3":1931,"ps":1932,"John":1933,"ere":1934,"And":1935,"MO":1936,"codice":1937,"chao3":1938,"jiong3":1939,"ding":1940,"âĦĥ":1941,"ko":1942,"eri":1943,"wa4":1944,"beng4":1945,"05":1946,"fu":1947,"CC":1948,"diu1":1949,"1907":1950,"1908":1951,"Google":1952,"AG":1953,"EST":1954,"MI":1955,"vo":1956,"zuan4":1957,"SO":1958,"tes":1959,"LE":1960,"jia2":1961,"zuan3":1962,"PlayStation":1963,"enter":1964,"BO":1965,"BBC":1966,"chi":1967,"Com":1968,"AD":1969,"IG":1970,"cal":1971,"ley":1972,"li1":1973,"Gu":1974,"ence":1975,"III":1976,"oft":1977,"Ru":1978,"1500":1979,"cy":1980,"5000":1981,"cri":1982,"wor":1983,"zuan1":1984,"IST":1985,"she1":1986,"lv2":1987,"Col":1988,"ory":1989,"ME":1990,"Sy":1991,"tive":1992,"wit":1993,"CR":1994,"3D":1995,"round":1996,"IA":1997,"lan":1998,"gua3":1999,"105":2000,"je":2001,"ma4":2002,"Ð°":2003,"tt":2004,"lin":2005,"1903":2006,"101":2007,"GB":2008,"ping1":2009,"ree":2010,"Cu":2011,"can":2012,"09":2013,"ina":2014,"can4":2015,"Fe":2016,"cen2":2017,"1902":2018,"BD":2019,"NC":2020,"land":2021,"TE":2022,"cha":2023,"pang1":2024,"xt":2025,"350":2026,"Ã¡":2027,"ze":2028,"SAO":2029,"shao2":2030,"gen":2031,"DC":2032,"des":2033,"span":2034,"pt":2035,"mon":2036,"Ad":2037,"Î²":2038,"ght":2039,"res":2040,"lin4":2041,"B1900":2042,"del":2043,"book":2044,"ES":2045,"BM":2046,"ron":2047,"ï¼İ":2048,"ãĥ³":2049,"1898":2050,"06":2051,"118":2052,"Hi":2053,"la2":2054,"ãģ®":2055,"ms":2056,"qin3":2057,"cor":2058,"tel":2059,"DR":2060,"360":2061,"01":2062,"DA":2063,"Open":2064,"1895":2065,"lao4":2066,"125":2067,"mu2":2068,"za":2069,"lar":2070,"ben4":2071,"HO":2072,"ance":2073,"tin":2074,"MC":2075,"ATP":2076,"Micro":2077,"Ko":2078,"gy":2079,"Ð¾":2080,"108":2081,"Ke":2082,"sy":2083,"line":2084,"dio":2085,"NG":2086,"igh":2087,"pou1":2088,"net":2089,"yle":2090,"Go":2091,"clu":2092,"low":2093,"qie2":2094,"gram":2095,"Cor":2096,"IF":2097,"ft":2098,"Fran":2099,"One":2100,"ner":2101,"App":2102,"07":2103,"âĪĴ":2104,"08":2105,"230":2106,"gh":2107,"Face":2108,"Hu":2109,"104":2110,"pace":2111,"Pu":2112,"Ser":2113,"rea":2114,"World":2115,"soft":2116,"EDT":2117,"ISTAT":2118,"Mon":2119,"Stu":2120,"ja":2121,"shai1":2122,"song3":2123,"à¤":2124,"NO":2125,"1896":2126,"LL":2127,"ning":2128,"109":2129,"DP":2130,"fli":2131,"ger":2132,"las":2133,"dy":2134,"yu1":2135,"AA":2136,"lus":2137,"own":2138,"Bi":2139,"ity":2140,"ge3":2141,"RI":2142,"ctor":2143,"Wa":2144,"Du":2145,"SP":2146,"RT":2147,"sui3":2148,"xiao2":2149,"qia3":2150,"EX":2151,"re3":2152,"Bri":2153,"bert":2154,"B48":2155,"Man":2156,"vel":2157,"ling":2158,"106":2159,"1890":2160,"San":2161,"CST":2162,"ML":2163,"ori":2164,"Bar":2165,"CDT":2166,"Love":2167,"zang1":2168,"DO":2169,"with":2170,"HE":2171,"ward":2172,"Per":2173,"pei1":2174,"row":2175,"tain":2176,"04":2177,"4000":2178,"pri":2179,"ux":2180,"cuan4":2181,"115":2182,"ight":2183,"ds":2184,"1200":2185,"M1":2186,"03":2187,"Har":2188,"GP":2189,"pao2":2190,"CE":2191,"ren":2192,"Äģ":2193,"back":2194,"1889":2195,"begin":2196,"Par":2197,"1899":2198,"Je":2199,"Mac":2200,"colspan":2201,"1871":2202,"Ed":2203,"RS":2204,"mic":2205,"Facebook":2206,"Willi":2207,"Microsoft":2208,"âĢĭ":2209,"240":2210,"tur":2211,"Comp":2212,"ool":2213,"1600":2214,"LO":2215,"Gi":2216,"ky":2217,"BE":2218,"cc":2219,"Nor":2220,"cket":2221,"102":2222,"box":2223,"clude":2224,"TT":2225,"ref":2226,"1897":2227,"pha":2228,"Live":2229,"NH":2230,"Sou":2231,"EE":2232,"chou4":2233,"Tri":2234,"117":2235,"Is":2236,"Pre":2237,"PP":2238,"im":2239,"qin4":2240,"ut":2241,"SC":2242,"min":2243,"02":2244,"cm":2245,"shuang3":2246,"style":2247,"ie":2248,"103":2249,"AKB48":2250,"MD":2251,"yao3":2252,"Music":2253,"Pri":2254,"107":2255,"van":2256,"On":2257,"bli":2258,"cou4":2259,"tra":2260,"Gra":2261,"Or":2262,"ler":2263,"Linux":2264,"Dis":2265,"Tra":2266,"ser":2267,"ye":2268,"tang3":2269,"ww":2270,"Gre":2271,"Ori":2272,"lis":2273,"old":2274,"VID":2275,"127":2276,"tus":2277,"450":2278,"Vo":2279,"sti":2280,"Davi":2281,"Ã¼":2282,"que":2283,"128":2284,"align":2285,"lao1":2286,"flix":2287,"CL":2288,"Netflix":2289,"1894":2290,"Game":2291,"220":2292,"rin":2293,"Ber":2294,"Ð½":2295,"mas":2296,"William":2297,"IL":2298,"Mor":2299,"ks":2300,"SH":2301,"Twit":2302,"1880":2303,"Red":2304,"len":2305,"lla":2306,"ÃŃ":2307,"RNA":2308,"zao2":2309,"136":2310,"rus":2311,"rom":2312,"PG":2313,"nge":2314,"Ð¸":2315,"stri":2316,"ãģĦ":2317,"TR":2318,"stra":2319,"Team":2320,"1800":2321,"ãĤ¹":2322,"Univer":2323,"ground":2324,"1885":2325,"lia3":2326,"ero":2327,"114":2328,"ãĤĵ":2329,"Char":2330,"pian2":2331,"color":2332,"Fu":2333,"Hz":2334,"Ty":2335,"280":2336,"UR":2337,"Ðµ":2338,"113":2339,"116":2340,"tor":2341,"ano":2342,"Gen":2343,"1886":2344,"sing":2345,"ãĤ¤":2346,"TS":2347,"School":2348,"PO":2349,"mang3":2350,"lass":2351,"1893":2352,"Che":2353,"ex":2354,"sen":2355,"irl":2356,"Bla":2357,"lyi":2358,"mb":2359,"ten":2360,"Mc":2361,"ane":2362,"Mark":2363,"Eu":2364,"name":2365,"SL":2366,"tri":2367,"111":2368,"Star":2369,"ãĦ":2370,"cial":2371,"lia":2372,"irst":2373,"Super":2374,"port":2375,"Don":2376,"ject":2377,"lex":2378,"mo3":2379,"âĢ»":2380,"ces":2381,"mo1":2382,"135":2383,"David":2384,"260":2385,"national":2386,"ys":2387,"era":2388,"1860":2389,"Geor":2390,"sto":2391,"gue":2392,"nin2":2393,"ess":2394,"Wal":2395,"WTA":2396,"ker":2397,"HC":2398,"way":2399,"Show":2400,"lver":2401,"Ac":2402,"UA":2403,"was":2404,"Un":2405,"ham":2406,"1888":2407,"text":2408,"SD":2409,"ac":2410,"Ã³":2411,"roup":2412,"-.":2413,"ans":2414,"ouse":2415,"Bra":2416,"roid":2417,"cation":2418,"background":2419,"tle":2420,"yun1":2421,"dai3":2422,"Cy":2423,"pre":2424,"GO":2425,"Wh":2426,"chen1":2427,"1870":2428,"ream":2429,"GN":2430,"ï¹":2431,"129":2432,"ony":2433,"1887":2434,"bur":2435,"any":2436,"dis":2437,"shuan1":2438,"1868":2439,"Meta":2440,"6000":2441,"Ã¶":2442,"ÑĢ":2443,"El":2444,"NF":2445,"VA":2446,"cle":2447,"1883":2448,"lor":2449,"ank":2450,"ous":2451,"Xbox":2452,"320":2453,"CS":2454,"Tho":2455,"NHK":2456,"AF":2457,"As":2458,"DD":2459,"Twitter":2460,"KP":2461,"nclude":2462,"onlyi":2463,"onlyinclude":2464,"piao2":2465,"++":2466,"bit":2467,"tang4":2468,"1864":2469,"âĢ¢":2470,"ION":2471,"ny":2472,"cho":2473,"1884":2474,"RC":2475,"UE":2476,"mar":2477,"ensis":2478,"119":2479,"122":2480,"2500":2481,"1892":2482,"210":2483,"A1":2484,"tis":2485,"ena":2486,"let":2487,"center":2488,"miu4":2489,"155":2490,"ins":2491,"ower":2492,"ISO":2493,"Mat":2494,"âħ":2495,"145":2496,"1891":2497,"650":2498,"Clu":2499,"cer":2500,"Android":2501,"Girl":2502,"age":2503,"ãĢķ":2504,"OR":2505,"red":2506,"nes":2507,"Ku":2508,"NS":2509,"cuo1":2510,"car":2511,"ãĢĶ":2512,"1850":2513,"htt":2514,"meri":2515,"Cl":2516,"val":2517,"International":2518,"Day":2519,"xy":2520,"ound":2521,"mi1":2522,"1867":2523,"logy":2524,"stem":2525,"IM":2526,"pang4":2527,"ãĥĪ":2528,"eld":2529,"All":2530,"ffi":2531,"1879":2532,"ake":2533,"James":2534,"Enter":2535,"War":2536,"par":2537,"sel":2538,"380":2539,"AB":2540,"UP":2541,"Ver":2542,"bri":2543,"ney":2544,"1876":2545,"Ani":2546,"Coun":2547,"sia":2548,"George":2549,"Can":2550,"lie":2551,"1875":2552,"1861":2553,"270":2554,"Universi":2555,"Dra":2556,"Her":2557,"Por":2558,"td":2559,"Games":2560,"Air":2561,"IR":2562,"126":2563,"NT":2564,"Ã¨":2565,"time":2566,"inter":2567,"Hol":2568,"Pau":2569,"Spe":2570,"NGC":2571,"stru":2572,"ãĥ«":2573,"1873":2574,"MG":2575,"ns":2576,"123":2577,"ãĥ©":2578,"ama":2579,"Eng":2580,"Hen":2581,"PV":2582,"Ab":2583,"Group":2584,"HT":2585,"sed":2586,"rans":2587,"Colle":2588,"Ben":2589,"Hy":2590,"MB":2591,"Va":2592,"168":2593,"COVID":2594,"critic":2595,"FM":2596,"om":2597,"1865":2598,"ild":2599,"Club":2600,"AO":2601,"PL":2602,"lue":2603,"that":2604,"ass":2605,"Ameri":2606,"DE":2607,"121":2608,"Center":2609,"hy":2610,"cus":2611,"work":2612,"Blo":2613,"175":2614,"ald":2615,"ãģĨ":2616,"Web":2617,"H2":2618,"YP":2619,"from":2620,"Ã¤":2621,"1400":2622,"MAX":2623,"Ali":2624,"138":2625,"228":2626,"TP":2627,"ast":2628,"ha2":2629,"chan4":2630,"nic":2631,"1848":2632,"fer":2633,"liu1":2634,"1862":2635,"ration":2636,"330":2637,"peng3":2638,"124":2639,"ãĤ¢":2640,"1881":2641,"1882":2642,"737":2643,"Park":2644,"vil":2645,"ens":2646,"ona":2647,"1878":2648,"550":2649,"guai3":2650,"Ve":2651,"rui3":2652,"1872":2653,"LC":2654,"bin4":2655,"Hel":2656,"High":2657,"INK":2658,"Metacritic":2659,"zo":2660,"It":2661,"nao2":2662,"tro":2663,"Oricon":2664,"MTV":2665,"UC":2666,"wan":2667,"156":2668,"165":2669,"Boo":2670,"LED":2671,"don":2672,"nian3":2673,"1840":2674,"IVE":2675,"Spi":2676,"core":2677,"dai1":2678,"750":2679,"dge":2680,"shai4":2681,"ãĥĥ":2682,"cre":2683,"ming":2684,"137":2685,"ãģĹ":2686,"Lea":2687,"nis":2688,"1300":2689,"stagram":2690,"7000":2691,"ring":2692,"Bro":2693,"DOS":2694,"SQ":2695,"UB":2696,"229":2697,"IU":2698,"She":2699,"GDP":2700,"King":2701,"OK":2702,"Ñģ":2703,"Chu":2704,"Pla":2705,"rand":2706,"152":2707,"out":2708,"TVB":2709,"Micha":2710,"Fri":2711,"day":2712,"159":2713,"1877":2714,"Robert":2715,"Stre":2716,"type":2717,"Sur":2718,"âĹ":2719,"kui3":2720,"1866":2721,"Chris":2722,"iOS":2723,"Ð»":2724,"als":2725,"Produ":2726,"SK":2727,"Up":2728,"1869":2729,"âĢ²":2730,"silver":2731,"Ele":2732,"THE":2733,"DM":2734,"xiu3":2735,"star":2736,"Peter":2737,"NET":2738,"Pat":2739,"gar":2740,"pla":2741,"she":2742,"play":2743,"Ðº":2744,"Chi":2745,"Instagram":2746,"BI":2747,"py":2748,"139":2749,"BLAC":2750,"Big":2751,"gan":2752,"Ð²":2753,"DJ":2754,"reng1":2755,"lip":2756,"sso":2757,"Phone":2758,"CG":2759,"WE":2760,"code":2761,"ãĤ¯":2762,"Michael":2763,"At":2764,"DF":2765,"ï¸":2766,"Apple":2767,"1100":2768,"Ci":2769,"ai":2770,"158":2771,"Tech":2772,"Paul":2773,"225":2774,"gon":2775,"ene":2776,"305":2777,"133":2778,"alk":2779,"INE":2780,"National":2781,"Type":2782,"RA":2783,"sa3":2784,"nia":2785,"ãĥª":2786,"ator":2787,"Award":2788,"HI":2789,"YO":2790,"132":2791,"Steam":2792,"Es":2793,"Ye":2794,"ral":2795,"205":2796,"1863":2797,"ray":2798,"tainment":2799,"215":2800,"Bill":2801,"cia":2802,"University":2803,"Ce":2804,"FO":2805,"phy":2806,"CA":2807,"F1":2808,"KBS":2809,"148":2810,"131":2811,"Media":2812,"Kar":2813,"Lou":2814,"Mer":2815,"Smi":2816,"Wo":2817,"166":2818,"arch":2819,"new":2820,"1874":2821,"EF":2822,"XX":2823,"kg":2824,"now":2825,"deo":2826,"enti":2827,"1858":2828,"Fin":2829,"ic":2830,"147":2831,"Black":2832,"bal":2833,"vin":2834,"256":2835,"ãģĭ":2836,"GA":2837,"Gar":2838,"M2":2839,"kun3":2840,"1830":2841,"Rich":2842,"CBS":2843,"Ter":2844,"UT":2845,"ach":2846,"clo":2847,"ew":2848,"1851":2849,"ora":2850,"Lee":2851,"BN":2852,"EM":2853,"UI":2854,"192":2855,"Î¼":2856,"Cha":2857,"8000":2858,"che3":2859,"Jack":2860,"Entertainment":2861,"if":2862,"zer":2863,"ann":2864,"lin3":2865,"mini":2866,"bin":2867,"143":2868,"set":2869,"ada":2870,"City":2871,"Mk":2872,"gang4":2873,"1855":2874,"Intel":2875,"310":2876,"Power":2877,"IX":2878,"ha3":2879,"mber":2880,"IE":2881,"RAM":2882,"Space":2883,"bel":2884,"zuo2":2885,"ð«":2886,"1859":2887,"STAR":2888,"Charles":2889,"134":2890,"tions":2891,"iss":2892,"Dire":2893,"ship":2894,"Ang":2895,"ABC":2896,"185":2897,"1854":2898,"org":2899,"146":2900,"301":2901,"Fla":2902,"1700":2903,"Viu":2904,"370":2905,"space":2906,"1857":2907,"Free":2908,"GM":2909,"Win":2910,"ek":2911,"whi":2912,"stro":2913,"Er":2914,"vs":2915,"Ø§":2916,"290":2917,"ãģª":2918,"Life":2919,"Tai":2920,"ï¸°":2921,"Sam":2922,"Î³":2923,"ino":2924,"Java":2925,"214":2926,"Py":2927,"ÑĤ":2928,"mis":2929,"Recor":2930,"Company":2931,"stitu":2932,"420":2933,"Dream":2934,"Pol":2935,"fang":2936,"Î¿":2937,"ãĢľ":2938,"1856":2939,"1853":2940,"Project":2941,"House":2942,"ah":2943,"first":2944,"dium":2945,"ãģŁ":2946,"ety":2947,"ood":2948,"Time":2949,"Thomas":2950,"Pan":2951,"bra":2952,"von":2953,"bo4":2954,"144":2955,"Alpha":2956,"Saint":2957,"FA":2958,"Ken":2959,"OVA":2960,"Cent":2961,"VO":2962,"face":2963,"A2":2964,"IO":2965,"167":2966,"3A":2967,"HS":2968,"SBS":2969,"sha3":2970,"bili":2971,"kua3":2972,"1841":2973,"Street":2974,"Am":2975,"Alex":2976,"Bat":2977,"LP":2978,"spe":2979,"alo":2980,"Japan":2981,"340":2982,"Ag":2983,"PM":2984,"chuan3":2985,"rie":2986,"Euro":2987,"BLACKP":2988,"Spo":2989,"Tor":2990,"ae":2991,"wn":2992,"za1":2993,"208":2994,"1815":2995,"178":2996,"CPU":2997,"BLACKPINK":2998,"223":2999,"Bur":3000,"Tru":3001,"cis":3002,"men4":3003,"Soci":3004,"850":3005,"LGB":3006,"Sing":3007,"tal":3008,"zuo1":3009,"cher":3010,"ric":3011,"ses":3012,"Rock":3013,"Studio":3014,"www":3015,"IBM":3016,"die":3017,"mat":3018,"esti":3019,"ports":3020,"SF":3021,"Val":3022,"you":3023,"207":3024,"very":3025,"235":3026,"ãģ¨":3027,"ãģ¾":3028,"mation":3029,"Art":3030,"Dig":3031,"Fer":3032,"LIVE":3033,"Mr":3034,"Met":3035,"Pop":3036,"SU":3037,"203":3038,"ning4":3039,"171":3040,"berg":3041,"B2":3042,"VE":3043,"Whi":3044,"nal":3045,"comp":3046,"Shi":3047,"SQL":3048,"Pad":3049,"cra":3050,"sg":3051,"vis":3052,"1846":3053,"164":3054,"ford":3055,"not":3056,"College":3057,"Min":3058,"Yu":3059,"bre":3060,"lit":3061,"157":3062,"vice":3063,"publi":3064,"BR":3065,"LT":3066,"NE":3067,"Sun":3068,"141":3069,"ICE":3070,"American":3071,"B1":3072,"Cro":3073,"PE":3074,"est":3075,"board":3076,"176":3077,"sign":3078,"ING":3079,"Asso":3080,"LS":3081,"ball":3082,"han1":3083,"Â²":3084,"well":3085,"1812":3086,"1845":3087,"1844":3088,"Road":3089,"Girls":3090,"self":3091,"ple":3092,"mit":3093,"231":3094,"Offi":3095,"cture":3096,"class":3097,"HF":3098,"Ltd":3099,"M3":3100,"pm":3101,"bor":3102,"ãĤĬ":3103,"witch":3104,"LGBT":3105,"BB":3106,"209":3107,"wood":3108,"pon":3109,"cess":3110,"ãģį":3111,"NASA":3112,"GNU":3113,"Ger":3114,"LA":3115,"PA":3116,"wai1":3117,"ded":3118,"thy":3119,"Jose":3120,"Tele":3121,"Smith":3122,"Cla":3123,"Cra":3124,"Pra":3125,"ise":3126,"ampi":3127,"aurus":3128,"IUCN":3129,"216":3130,"PN":3131,"wh":3132,"Îº":3133,"1849":3134,"153":3135,"Good":3136,"CT":3137,"Fil":3138,"Hall":3139,"NBC":3140,"Tour":3141,"zhou3":3142,"204":3143,"238":3144,"Cho":3145,"ump":3146,"Production":3147,"le1":3148,"lea":3149,"tation":3150,"ness":3151,"Video":3152,"GT":3153,"O2":3154,"Sci":3155,"Ïĥ":3156,"mited":3157,"Gala":3158,"Eli":3159,"Fo":3160,"PR":3161,"war":3162,"yn":3163,"din":3164,"206":3165,"eries":3166,"Ze":3167,"1814":3168,"mac":3169,"218":3170,"fri":3171,"fra":3172,"lti":3173,"ons":3174,"ange":3175,"Richard":3176,"SI":3177,"mal":3178,"chun3":3179,"IGN":3180,"Act":3181,"LD":3182,"Sen":3183,"WS":3184,"win":3185,"âĸ":3186,"pic":3187,"qui":3188,"Chri":3189,"Boy":3190,"Plan":3191,"Sky":3192,"Tur":3193,"bun":3194,"ÏĢ":3195,"def":3196,"1847":3197,"154":3198,"tho":3199,"ved":3200,"vision":3201,"turn":3202,"460":3203,"580":3204,"Bel":3205,"FF":3206,"Far":3207,"Mas":3208,"her":3209,"iro":3210,"sch":3211,"ves":3212,"zz":3213,"mor":3214,"1843":3215,"Best":3216,"System":3217,"ptr":3218,"430":3219,"MBC":3220,"sha":3221,"401":3222,"chem":3223,"410":3224,"bar":3225,"bus":3226,"pr":3227,"led":3228,"177":3229,"rich":3230,"off":3231,"ãĤ·":3232,"los":3233,"NFL":3234,"ViuTV":3235,"Cal":3236,"Switch":3237,"163":3238,"AMD":3239,"API":3240,"West":3241,"Dan":3242,"ICO":3243,"ep":3244,"oper":3245,"ments":3246,"1852":3247,"162":3248,"cript":3249,"VII":3250,"gs":3251,"1820":3252,"this":3253,"ãģı":3254,"Max":3255,"Inc":3256,"Ama":3257,"Bor":3258,"Fre":3259,"Prin":3260,"cil":3261,"ue":3262,"142":3263,"get":3264,"234":3265,"thon":3266,"Roy":3267,"VR":3268,"172":3269,"ãģĬ":3270,"ãģķ":3271,"Records":3272,"640":3273,"Em":3274,"Gal":3275,"Squ":3276,"Vir":3277,"169":3278,"3500":3279,"Limited":3280,"data":3281,"CM":3282,"Core":3283,"KC":3284,"T1":3285,"Â±":3286,"lve":3287,"1839":3288,"ars":3289,"232":3290,"480":3291,"ci1":3292,"179":3293,"cade":3294,"2030":3295,"deĠ":3296,"ĠdeĠ":3297,"shi4Ġ":3298,"Ġshi4Ġ":3299,"Ġnian2":3300,"Ġnian2Ġ":3301,"wei4Ġ":3302,"zai4Ġ":3303,"Ġwei4Ġ":3304,"Ġzai4Ġ":3305,"he2Ġ":3306,"Ġhe2Ġ":3307,"zhong1Ġ":3308,"bu4Ġ":3309,"di4Ġ":3310,"shi2Ġ":3311,"guo2Ġ":3312,"yu2Ġ":3313,"ren2Ġ":3314,"Ġbu4Ġ":3315,"yi1Ġ":3316,"Ġzhong1Ġ":3317,"li4Ġ":3318,"zhi4Ġ":3319,"gong1Ġ":3320,"Ġshi2Ġ":3321,"yue4Ġ":3322,"ji2Ġ":3323,"cheng2Ġ":3324,"yi4Ġ":3325,"you3Ġ":3326,"Ġdi4Ġ":3327,"Ġyue4Ġ":3328,"Ġyu2Ġ":3329,"Ġren2Ġ":3330,"Ġzhi4Ġ":3331,"da4Ġ":3332,"Ġji2Ġ":3333,"yuan2Ġ":3334,"Ġyou3Ġ":3335,"ji4Ġ":3336,"Ġguo2Ġ":3337,"Ġli4Ġ":3338,"Ġgong1Ġ":3339,"Ġyi4Ġ":3340,"Ġyi3":3341,"Ġcheng2Ġ":3342,"jia1Ġ":3343,"si1Ġ":3344,"yu3Ġ":3345,"Ġxian4":3346,"Ġri4":3347,"Ġyi1Ġ":3348,"Ġxing2":3349,"Ġta1":3350,"li3Ġ":3351,"ji1Ġ":3352,"Ġdao4":3353,"hou4Ġ":3354,"wei2Ġ":3355,"Ġzhi1":3356,"Ġda4Ġ":3357,"Ġyuan2Ġ":3358,"xi1Ġ":3359,"Ġri4Ġ":3360,"Ġge4":3361,"Ġyi3Ġ":3362,"xue2Ġ":3363,"hui4Ġ":3364,"leĠ":3365,"zuo4Ġ":3366,"Ġyu3Ġ":3367,"Ġdao4Ġ":3368,"ming2Ġ":3369,"Ġji4Ġ":3370,"bei4Ġ":3371,"Ġxing2Ġ":3372,"sheng1Ġ":3373,"Ġjian4":3374,"Ġchu1":3375,"Ġqi2":3376,"Ġsi1Ġ":3377,"Ġde2":3378,"zheng4Ġ":3379,"Ġxian4Ġ":3380,"Ġhou4Ġ":3381,"Ġji1Ġ":3382,"dui4Ġ":3383,"shang4Ġ":3384,"qu1Ġ":3385,"shi3Ġ":3386,"Ġer3":3387,"Ġjia1Ġ":3388,"you2Ġ":3389,"Ġta1Ġ":3390,"Ġxi1Ġ":3391,"Ġli3Ġ":3392,"Ġer2":3393,"zhan4Ġ":3394,"Ġjun1":3395,"Ġbing4":3396,"Ġzhi1Ġ":3397,"Ġge4Ġ":3398,"zhu3Ġ":3399,"ren4Ġ":3400,"fu4Ġ":3401,"zi4Ġ":3402,"wu4Ġ":3403,"xin1Ġ":3404,"dai4Ġ":3405,"ju4Ġ":3406,"ping2Ġ":3407,"Ġchu1Ġ":3408,"Ġke4":3409,"Ġzhou1":3410,"xiang1Ġ":3411,"Ġhui4Ġ":3412,"shu4Ġ":3413,"nan2Ġ":3414,"Ġshe4":3415,"Ġbei4Ġ":3416,"Ġming2Ġ":3417,"xia4Ġ":3418,"guan1Ġ":3419,"Ġer3Ġ":3420,"Ġde2Ġ":3421,"lu4Ġ":3422,"yu4Ġ":3423,"hua4Ġ":3424,"Ġjian4Ġ":3425,"jing1Ġ":3426,"yan2Ġ":3427,"fang1Ġ":3428,"Ġyin1":3429,"kai1Ġ":3430,"jian1Ġ":3431,"jiao4Ġ":3432,"fa1Ġ":3433,"yong4Ġ":3434,"Ġdan4":3435,"Ġer2Ġ":3436,"zhu4Ġ":3437,"lai2Ġ":3438,"min2Ġ":3439,"shou3Ġ":3440,"zhe4Ġ":3441,"xiang4Ġ":3442,"wen2Ġ":3443,"Ġjun1Ġ":3444,"xi4Ġ":3445,"qian2Ġ":3446,"ben3Ġ":3447,"te4Ġ":3448,"Ġwei2Ġ":3449,"zhi2Ġ":3450,"fa3Ġ":3451,"qi1Ġ":3452,"jie2Ġ":3453,"lian2Ġ":3454,"Ġbing4Ġ":3455,"dong4Ġ":3456,"dian4Ġ":3457,"Ġqi2Ġ":3458,"Ġke4Ġ":3459,"dong1Ġ":3460,"mu4Ġ":3461,"Ġjin4":3462,"Ġdui4Ġ":3463,"Ġhuo4":3464,"Ġzhan4Ġ":3465,"fen1Ġ":3466,"tai2Ġ":3467,"zhang3Ġ":3468,"du4Ġ":3469,"jiang1Ġ":3470,"Ġqiu2":3471,"Ġping2Ġ":3472,"gao1Ġ":3473,"ye4Ġ":3474,"suo3Ġ":3475,"bei3Ġ":3476,"Ġzhou1Ġ":3477,"shi1Ġ":3478,"ĠleĠ":3479,"duo1Ġ":3480,"jie1Ġ":3481,"ge2Ġ":3482,"Ġshang4Ġ":3483,"jin1Ġ":3484,"Ġzheng4Ġ":3485,"fu2Ġ":3486,"Ġzuo4Ġ":3487,"Ġyou2Ġ":3488,"Ġfu4Ġ":3489,"kou3Ġ":3490,"guo4Ġ":3491,"zhi3Ġ":3492,"Ġtong2":3493,"hai3Ġ":3494,"Ġren4Ġ":3495,"Ġquan2":3496,"ma3Ġ":3497,"tong1Ġ":3498,"ru4Ġ":3499,"zui4Ġ":3500,"Ġsheng1Ġ":3501,"Ġxue2Ġ":3502,"ci3Ġ":3503,"xing4Ġ":3504,"wai4Ġ":3505,"nei4Ġ":3506,"la1Ġ":3507,"ti3Ġ":3508,"jue2Ġ":3509,"ke3Ġ":3510,"qi3Ġ":3511,"shan1Ġ":3512,"tian1Ġ":3513,"chang3Ġ":3514,"deng3Ġ":3515,"zhen4Ġ":3516,"wu3Ġ":3517,"chang2Ġ":3518,"ziĠ":3519,"yao4Ġ":3520,"bi3Ġ":3521,"Ġju4Ġ":3522,"bao3Ġ":3523,"mi3Ġ":3524,"ya4Ġ":3525,"Ġye3":3526,"gai1Ġ":3527,"Ġyin1Ġ":3528,"Ġdai4Ġ":3529,"mian4Ġ":3530,"zhong4Ġ":3531,"Ġshe4Ġ":3532,"feng1Ġ":3533,"Ġzhe4Ġ":3534,"zhong3Ġ":3535,"ci4Ġ":3536,"yun4Ġ":3537,"yi2Ġ":3538,"liu2Ġ":3539,"che1Ġ":3540,"shou4Ġ":3541,"lin2Ġ":3542,"bao1Ġ":3543,"yi2Ġge4Ġ":3544,"sai4Ġ":3545,"jie4Ġ":3546,"ding4Ġ":3547,"shen1Ġ":3548,"sheng3Ġ":3549,"luo2Ġ":3550,"mei3Ġguo2Ġ":3551,"san1Ġ":3552,"qi4Ġ":3553,"xiao3Ġ":3554,"Ġdan4Ġ":3555,"neng2Ġ":3556,"shu1Ġ":3557,"ze2Ġ":3558,"lie4Ġ":3559,"xuan3Ġ":3560,"si4Ġ":3561,"qing1Ġ":3562,"zhe3Ġ":3563,"Ġqiu2Ġ":3564,"jing4Ġ":3565,"yuan4Ġ":3566,"ba1Ġ":3567,"wang2Ġ":3568,"ke1Ġ":3569,"tai4Ġ":3570,"lan2Ġ":3571,"bao4Ġ":3572,"an1Ġ":3573,"zong3Ġ":3574,"ying3Ġ":3575,"Ġhuo4Ġ":3576,"bi4Ġ":3577,"fu3Ġ":3578,"dao3Ġ":3579,"Ġxin1Ġ":3580,"gu3Ġ":3581,"ying1Ġ":3582,"Ġhao4":3583,"Ġxia4Ġ":3584,"Ġzi4Ġ":3585,"ge1Ġ":3586,"fen4Ġ":3587,"xiao4Ġ":3588,"yue1Ġ":3589,"ni2Ġ":3590,"jiao1Ġ":3591,"na4Ġ":3592,"Ġyu4Ġ":3593,"Ġmi3Ġ":3594,"zi1Ġ":3595,"er4Ġ":3596,"Ġxiang1Ġ":3597,"pu3Ġ":3598,"dan1Ġ":3599,"Ġzhu4Ġ":3600,"biao3Ġ":3601,"guan3Ġ":3602,"tou2Ġ":3603,"liang4Ġ":3604,"chuan2Ġ":3605,"Ġlu4Ġ":3606,"su4Ġ":3607,"wu2Ġ":3608,"Ġdang1":3609,"bo1Ġ":3610,"ru2Ġ":3611,"yan3Ġ":3612,"nv3Ġ":3613,"bo2Ġ":3614,"Ġzhong1Ġguo2Ġ":3615,"xing1Ġ":3616,"ti2Ġ":3617,"fei1Ġ":3618,"da2Ġ":3619,"se4Ġ":3620,"cheng1Ġ":3621,"mei3Ġ":3622,"Ġwei4Ġyu2Ġ":3623,"Ġjin4Ġ":3624,"ceng2Ġ":3625,"chan3Ġ":3626,"Ġnan2Ġ":3627,"shui3Ġ":3628,"tu2Ġ":3629,"bian4Ġ":3630,"gui1Ġ":3631,"Ġran2":3632,"yang2Ġ":3633,"zhang1Ġ":3634,"a1Ġ":3635,"gai3Ġ":3636,"dian3Ġ":3637,"cong2Ġ":3638,"jiu4Ġ":3639,"Ġben3Ġ":3640,"Ġquan2Ġ":3641,"sha1Ġ":3642,"bao1Ġkuo4":3643,"wang3Ġ":3644,"jian3Ġ":3645,"sheng4Ġ":3646,"zu3Ġ":3647,"shu3Ġ":3648,"gang3Ġ":3649,"hua2Ġ":3650,"lv4Ġ":3651,"qing2Ġ":3652,"jing3Ġ":3653,"liang3Ġ":3654,"zu2Ġ":3655,"ban4Ġ":3656,"tong3Ġ":3657,"gong4Ġ":3658,"shang1Ġ":3659,"li2Ġ":3660,"hu4Ġ":3661,"tong2Ġ":3662,"bian1Ġ":3663,"jin4Ġ":3664,"an4Ġ":3665,"long2Ġ":3666,"luo4Ġ":3667,"xu4Ġ":3668,"chi2Ġ":3669,"ao4Ġ":3670,"mei2Ġ":3671,"jin3Ġ":3672,"ban1Ġ":3673,"guang3Ġ":3674,"chu1Ġ":3675,"ce4Ġ":3676,"mi4Ġ":3677,"shen2Ġ":3678,"Ġta1Ġmen":3679,"zheng1Ġ":3680,"zhi1Ġ":3681,"ling3Ġ":3682,"you4Ġ":3683,"fan3Ġ":3684,"wei1Ġ":3685,"Ġzhu3Ġ":3686,"Ġxiang4Ġ":3687,"huo2Ġ":3688,"xi2Ġ":3689,"ting2Ġ":3690,"ka3Ġ":3691,"cha2Ġ":3692,"Ġgai1Ġ":3693,"cai2Ġ":3694,"1Ġ":3695,"gou4Ġ":3696,"shuo1Ġ":3697,"men2Ġ":3698,"ci2Ġ":3699,"xiang3Ġ":3700,"mu3Ġ":3701,"lei4Ġ":3702,"wei3Ġ":3703,"qu3Ġ":3704,"Ġgong1Ġli3Ġ":3705,"yan2Ġjiu1":3706,"Ġduo1Ġ":3707,"tuan2Ġ":3708,"yin3Ġ":3709,"jian4Ġ":3710,"Ġye3Ġ":3711,"chao2Ġ":3712,"ying4Ġ":3713,"chen2Ġ":3714,"tang2Ġ":3715,"xie1Ġ":3716,"qi2Ġ":3717,"pin3Ġ":3718,"Ġyi3Ġji2Ġ":3719,"jia4Ġ":3720,"shi3Ġyong4Ġ":3721,"jie3Ġ":3722,"Ġwan4":3723,"hang2Ġ":3724,"yi3Ġ":3725,"lun2Ġ":3726,"rong2Ġ":3727,"Ġyou2":3728,"jiang3Ġ":3729,"pai2Ġ":3730,"fu1Ġ":3731,"jiu3Ġ":3732,"ling4Ġ":3733,"tai2Ġwan1":3734,"Ġhao4Ġ":3735,"ĠdeĠdi4Ġ":3736,"xu1Ġ":3737,"ke3Ġyi3Ġ":3738,"huang2Ġ":3739,"xian1Ġ":3740,"duan4Ġ":3741,"2Ġ":3742,"ke4Ġ":3743,"dang3Ġ":3744,"mo2Ġ":3745,"can1Ġ":3746,"ying2Ġ":3747,"tiao2Ġ":3748,"biao1Ġ":3749,"ĠdeĠyi1Ġ":3750,"kai1Ġshi3Ġ":3751,"quan2Ġ":3752,"zhan3Ġ":3753,"Ġcheng2Ġwei2Ġ":3754,"ye3Ġ":3755,"hong2Ġ":3756,"mei2Ġyou3Ġ":3757,"han4Ġ":3758,"e2Ġ":3759,"yin1Ġ":3760,"wei3Ġyuan2Ġ":3761,"qian1Ġ":3762,"ban3Ġ":3763,"xian4Ġ":3764,"ling2Ġ":3765,"xiao1Ġ":3766,"Ġtong2Ġ":3767,"hui2Ġ":3768,"su1Ġ":3769,"fang2Ġ":3770,"meng2Ġ":3771,"zhuang1Ġ":3772,"kong1Ġ":3773,"ju2Ġ":3774,"cun1Ġ":3775,"bao1Ġkuo4Ġ":3776,"ren2Ġkou3Ġ":3777,"Ġqi2Ġzhong1Ġ":3778,"Ġgong1Ġsi1Ġ":3779,"huo4Ġ":3780,"zi3Ġ":3781,"xing2Ġ":3782,"dou1Ġ":3783,"ĠdeĠshi4Ġ":3784,"ĠĠĠzai4Ġ":3785,"qiang2Ġ":3786,"zhao4Ġ":3787,"du2Ġ":3788,"zheng4Ġzhi4Ġ":3789,"yi2Ġge4":3790,"mo4Ġ":3791,"Ġfen1Ġ":3792,"cai3Ġ":3793,"bing1Ġ":3794,"fa3Ġguo2Ġ":3795,"Ġgao1Ġ":3796,"Ġda4Ġxue2Ġ":3797,"Ġshi4Ġyi1Ġ":3798,"hai2Ġ":3799,"Ġta1ĠdeĠ":3800,"hu2Ġ":3801,"chu4Ġ":3802,"qin1Ġ":3803,"lun4Ġ":3804,"fan4Ġ":3805,"zhen1Ġ":3806,"guang1Ġ":3807,"wen4Ġ":3808,"man4Ġ":3809,"Ġjie2Ġ":3810,"she4Ġ":3811,"biao3Ġshi4Ġ":3812,"ai4Ġ":3813,"zhong1ĠdeĠ":3814,"ju1Ġ":3815,"Ġjiao4Ġ":3816,"zhuan1Ġ":3817,"diao4Ġ":3818,"bai2Ġ":3819,"da3Ġ":3820,"que4Ġ":3821,"dian4Ġshi4Ġ":3822,"Ġdong1Ġ":3823,"Ġdu4Ġ":3824,"fei4Ġ":3825,"Ġshi4Ġwei4Ġ":3826,"Ġmu4Ġ":3827,"han2Ġ":3828,"shi4ĠdeĠ":3829,"Ġte4Ġ":3830,"3Ġ":3831,"xun4Ġ":3832,"Ġjin1Ġ":3833,"pian4Ġ":3834,"ming4Ġ":3835,"ju3Ġ":3836,"Ġjiang1Ġ":3837,"tuo1Ġ":3838,"gu4Ġ":3839,"Ġren2Ġkou3Ġ":3840,"xiu1Ġ":3841,"Ġbu4Ġfen4Ġ":3842,"xie2Ġ":3843,"zao4Ġ":3844,"Ġhe2Ġguo2Ġ":3845,"zhong1Ġguo2Ġ":3846,"guo3Ġ":3847,"10Ġyue4Ġ":3848,"shou1Ġ":3849,"Ġzui4":3850,"xin4Ġ":3851,"12Ġyue4Ġ":3852,"7Ġyue4Ġ":3853,"9Ġyue4Ġ":3854,"zhuan3Ġ":3855,"Ġshi1Ġ":3856,"ta1Ġ":3857,"dang1Ġ":3858,"mian4Ġji1Ġ":3859,"Ġren2Ġmin2Ġ":3860,"8Ġyue4Ġ":3861,"xun2Ġ":3862,"Ġdi4Ġqu1Ġ":3863,"wu1Ġ":3864,"3Ġyue4Ġ":3865,"Ġguo4Ġ":3866,"1Ġyue4Ġ":3867,"Ġsuo3Ġ":3868,"Ġjing1Ġ":3869,"Ġshou3Ġ":3870,"gan3Ġ":3871,"huan2Ġ":3872,"di2Ġ":3873,"xia2Ġ":3874,"jia3Ġ":3875,"5Ġyue4Ġ":3876,"ying1Ġguo2Ġ":3877,"Ġci3Ġ":3878,"dao4Ġ":3879,"di3Ġ":3880,"zhu1Ġ":3881,"ting1Ġ":3882,"zheng4Ġshi4Ġ":3883,"chong2Ġ":3884,"huo3Ġ":3885,"zhou1Ġ":3886,"6Ġyue4Ġ":3887,"zhuang4Ġ":3888,"cheng2Ġshi4Ġ":3889,"4Ġyue4Ġ":3890,"Ġguo2Ġjia1Ġ":3891,"tian2Ġ":3892,"geng4Ġ":3893,"ĠĠĠdi4Ġ":3894,"fang4Ġ":3895,"yong3Ġ":3896,"shu3Ġyu2Ġ":3897,"Ġping2Ġfang1":3898,"po4Ġ":3899,"jun1Ġ":3900,"Ġdi4Ġyi1Ġ":3901,"Ġqian2Ġ":3902,"11Ġyue4Ġ":3903,"qun2Ġ":3904,"qu4Ġ":3905,"jiang4Ġ":3906,"tao2Ġ":3907,"Ġshi4Ġji4Ġ":3908,"Ġping2Ġfang1Ġgong1Ġli3Ġ":3909,"Ġtong2Ġshi2Ġ":3910,"Ġma3Ġ":3911,"Ġdeng3Ġ":3912,"dan1Ġren4Ġ":3913,"4Ġ":3914,"Ġru2Ġ":3915,"gen1Ġ":3916,"ji3Ġ":3917,"bie2Ġ":3918,"pai4Ġ":3919,"du1Ġ":3920,"5Ġ":3921,"liang2Ġ":3922,"shao3Ġ":3923,"hui1Ġ":3924,"tie3Ġ":3925,"nong2Ġ":3926,"Ġnian2Ġ1Ġyue4Ġ":3927,"ta3Ġ":3928,"dian4Ġying3Ġ":3929,"zong1Ġ":3930,"chu3Ġ":3931,"Ġqi1Ġ":3932,"Ġtian1Ġ":3933,"Ġzhe4":3934,"si3Ġ":3935,"er3Ġ":3936,"ĠdeĠshi2Ġ":3937,"shuang1Ġ":3938,"qiao2Ġ":3939,"tai2Ġwan1Ġ":3940,"Ġsui4":3941,"gen1Ġju4Ġ":3942,"li4Ġshi3Ġ":3943,"chu2Ġ":3944,"Ġshi4Ġzhen4Ġ":3945,"gao4Ġ":3946,"bai4Ġ":3947,"can1Ġjia1Ġ":3948,"yun4Ġdong4":3949,"gang1Ġ":3950,"che1Ġzhan4Ġ":3951,"guo2ĠdeĠ":3952,"jiao3Ġ":3953,"Ġyin1Ġwei4Ġ":3954,"Ġri4Ġben3Ġ":3955,"Ġping2Ġfang1Ġ":3956,"li4ĠdeĠ":3957,"Ġnian2ĠdeĠ":3958,"gai4Ġ":3959,"pan4Ġ":3960,"Ġwen2Ġ":3961,"Ġhai3Ġ":3962,"zheng4Ġfu3Ġ":3963,"bing4Ġ":3964,"zhun3Ġ":3965,"Ġnian2Ġ12Ġyue4Ġ":3966,"wa3Ġ":3967,"yan4Ġ":3968,"wo3Ġ":3969,"Ġfu2Ġ":3970,"gong4Ġhe2Ġguo2Ġ":3971,"Ġxian4ĠdeĠ":3972,"ya2Ġ":3973,"yin2Ġ":3974,"Ġwan4Ġ":3975,"fa1Ġxian4Ġ":3976,"formulaĠ":3977,"chuang4Ġ":3978,"hei1Ġ":3979,"huan4Ġ":3980,"qu1ĠdeĠ":3981,"song4Ġ":3982,"ha1Ġ":3983,"hen3Ġ":3984,"Ġsuo3":3985,"ti2Ġgong1Ġ":3986,"jin4Ġxing2Ġ":3987,"Ġbei3Ġ":3988,"lei2Ġ":3989,"2Ġyue4Ġ":3990,"jing1Ġji4Ġ":3991,"tong1Ġguo4Ġ":3992,"Ġnian2Ġ3Ġyue4Ġ":3993,"sui2Ġ":3994,"chuan1Ġ":3995,"qie3Ġ":3996,"Ġzhong1Ġyang1":3997,"Ġguo2Ġji4Ġ":3998,"hua1Ġ":3999,"shang4ĠdeĠ":4000,"Ġyou2Ġyu2Ġ":4001,"Ġyou4Ġ":4002,"lei1Ġ":4003,"wei3Ġyuan2Ġhui4Ġ":4004,"kao3Ġ":4005,"Ġnian2Ġ7Ġyue4Ġ":4006,"wan2Ġ":4007,"cheng1Ġwei2Ġ":4008,"Ġnian2Ġ10Ġyue4Ġ":4009,"bai3Ġ":4010,"deng1Ġ":4011,"Ġshi4Ġjie4Ġ":4012,"Ġyin1Ġci3Ġ":4013,"ming2Ġwei4Ġ":4014,"Ġjin4Ġxing2Ġ":4015,"nuo4Ġ":4016,"Ġshi4Ġzai4Ġ":4017,"Ġran2Ġ":4018,"chong1Ġ":4019,"zhu3Ġyi4Ġ":4020,"Ġnian2Ġ9Ġyue4Ġ":4021,"Ġta1ĠmenĠ":4022,"kuai4Ġ":4023,"yan2Ġjiu1Ġ":4024,"tu3Ġ":4025,"Ġzhi1Ġhou4Ġ":4026,"qiu2Ġ":4027,"Ġying1Ġ":4028,"mai4Ġ":4029,"shi2ĠdeĠ":4030,"lian4Ġ":4031,"hao4Ġ":4032,"Ġnian2Ġ5Ġyue4Ġ":4033,"sa4Ġ":4034,"lu2Ġ":4035,"xi4Ġtong3Ġ":4036,"Ġzui4Ġ":4037,"Ġlian2Ġ":4038,"pei4Ġ":4039,"lu3Ġ":4040,"Ġnian2Ġ4Ġyue4Ġ":4041,"chi3Ġ":4042,"liao4Ġ":4043,"Ġdang1Ġ":4044,"Ġnian2Ġ8Ġyue4Ġ":4045,"Ġnian2Ġ6Ġyue4Ġ":4046,"Ġxing2ĠdeĠ":4047,"zeng1Ġ":4048,"ren2ĠdeĠ":4049,"Ġshi3Ġ":4050,"xiang1Ġgang3Ġ":4051,"xuan1Ġ":4052,"qi1Ġjian1Ġ":4053,"de2Ġ":4054,"kuang4Ġ":4055,"guan3Ġli3Ġ":4056,"Ġgong1Ġzuo4Ġ":4057,"piao4Ġ":4058,"Ġzhi1Ġyi1Ġ":4059,"xu3Ġ":4060,"6Ġ":4061,"en1Ġ":4062,"di1Ġ":4063,"heng2Ġ":4064,"da4ĠdeĠ":4065,"bu3Ġ":4066,"yang4Ġ":4067,"sen1Ġ":4068,"Ġzhong1Ġxin1Ġ":4069,"xuan1Ġbu4Ġ":4070,"tui1Ġ":4071,"Ġnian2Ġ11Ġyue4Ġ":4072,"zu3Ġzhi1Ġ":4073,"ri4Ġ":4074,"wang4Ġ":4075,"bu4ĠdeĠ":4076,"pi2Ġ":4077,"menĠ":4078,"Ġbao1Ġkuo4Ġ":4079,"chang4Ġ":4080,"ying3Ġxiang3Ġ":4081,"yang3Ġ":4082,"Ġta1Ġzai4Ġ":4083,"qian1Ġmi3Ġ":4084,"sai1Ġ":4085,"er2Ġ":4086,"ĠĠĠsheng1Ġ":4087,"Ġhuo4Ġde2Ġ":4088,"pi1Ġ":4089,"Ġshi4Ġjie4":4090,"luo2Ġsi1Ġ":4091,"he4Ġ":4092,"ke3Ġneng2":4093,"cheng2ĠdeĠ":4094,"Ġgai1":4095,"Ġqing1Ġ":4096,"nian4Ġ":4097,"dun4Ġ":4098,"Ġmei3":4099,"xian2Ġ":4100,"lou2Ġ":4101,"qi2Ġta1Ġ":4102,"Ġnian2Ġ2Ġyue4Ġ":4103,"bang1Ġ":4104,"Ġcheng2Ġli4Ġ":4105,"leĠyi1Ġ":4106,"huo2Ġdong4Ġ":4107,"Ġren4Ġwei2Ġ":4108,"Ġlai2Ġ":4109,"liu4Ġ":4110,"you1Ġ":4111,"Ġbi3Ġ":4112,"Ġshu4Ġ":4113,"Ġfen1":4114,"ke1Ġxue2Ġ":4115,"fa1Ġzhan3Ġ":4116,"huo4Ġde2Ġ":4117,"jun4Ġ":4118,"Ġluo2Ġ":4119,"Ġzuo4Ġwei2Ġ":4120,"ya1Ġ":4121,"Ġping2Ġfang1Ġqian1Ġmi3Ġ":4122,"Ġa1Ġ":4123,"hua2Ġren2Ġmin2Ġ":4124,"Ġwu2Ġ":4125,"ri4Ġben3Ġ":4126,"bei1Ġ":4127,"lao3Ġ":4128,"hui4Ġyi4Ġ":4129,"re4Ġ":4130,"Ġzhi2":4131,"ku4Ġ":4132,"tan2Ġ":4133,"jian1ĠdeĠ":4134,"tie3Ġlu4Ġ":4135,"Ġliu2Ġ":4136,"ĠdeĠren2Ġ":4137,"yong4Ġyu2Ġ":4138,"liao2Ġ":4139,"ning2Ġ":4140,"Ġshi2Ġjian1Ġ":4141,"ĠdeĠgong1Ġ":4142,"ge4Ġ":4143,"Ġshan1Ġ":4144,"Ġzhang1Ġ":4145,"mian3Ġ":4146,"Ġyan2Ġ":4147,"mian4Ġji1":4148,"min2Ġguo2Ġ":4149,"rui4Ġ":4150,"wu1Ġke4Ġ":4151,"yin4Ġ":4152,"xian3Ġ":4153,"le4Ġ":4154,"zuo3Ġ":4155,"gong4Ġyou3Ġ":4156,"ĠĠĠli4Ġshi3Ġ":4157,"hao3Ġ":4158,"ĠĠĠsheng1Ġping2Ġ":4159,"hua2Ġren2Ġmin2Ġgong4Ġhe2Ġguo2Ġ":4160,"fang1Ġshi4Ġ":4161,"fa1Ġsheng1Ġ":4162,"gan1Ġ":4163,"Ġcong2Ġ":4164,"Ġzhi2Ġ":4165,"dou4Ġ":4166,"wen4Ġti2Ġ":4167,"guan4Ġjun1Ġ":4168,"zhu3Ġyao4Ġ":4169,"ran2Ġ":4170,"di4ĠdeĠ":4171,"Ġdi4Ġer4Ġ":4172,"dao3Ġzhi4Ġ":4173,"Ġxiao3Ġ":4174,"guan1Ġxi4Ġ":4175,"cun2Ġ":4176,"kang1Ġ":4177,"can1Ġyu4Ġ":4178,"yuan3Ġ":4179,"Ġjin3Ġ":4180,"Ġbu4Ġfen4":4181,"zheng3Ġ":4182,"Ġgong1Ġcheng2Ġ":4183,"wan2Ġcheng2Ġ":4184,"dan1Ġwei4Ġ":4185,"ke3Ġneng2Ġ":4186,"Ġwu3Ġ":4187,"Ġzhi3Ġ":4188,"yi1Ġwei4Ġ":4189,"Ġze2Ġ":4190,"1Ġri4Ġ":4191,"xie4Ġ":4192,"suo3Ġyou3Ġ":4193,"Ġzong3Ġ":4194,"zhi4ĠdeĠ":4195,"wen2Ġhua4Ġ":4196,"Ġcheng2Ġyuan2Ġ":4197,"ĠdeĠcheng2Ġ":4198,"gei3Ġ":4199,"lv3Ġ":4200,"Ġba1Ġ":4201,"yuan2ĠdeĠ":4202,"Ġtong1Ġ":4203,"yong1Ġyou3Ġ":4204,"cun2Ġzai4Ġ":4205,"er4Ġshi2Ġ":4206,"bei3Ġbu4Ġ":4207,"lian2Ġhe2Ġ":4208,"hou4ĠdeĠ":4209,"niu3Ġ":4210,"Ġshi4Ġzhong1Ġ":4211,"zheng4Ġfu3":4212,"you2Ġyu2Ġ":4213,"guo2Ġjia1Ġ":4214,"dui4Ġyu2Ġ":4215,"Ġnian2Ġzhi4Ġ":4216,"fa1Ġxing2Ġ":4217,"yi4ĠdeĠ":4218,"ju4Ġyou3Ġ":4219,"Ġxi4Ġ":4220,"Ġzhi3":4221,"Ġjian4Ġzhu4Ġ":4222,"bi3Ġsai4Ġ":4223,"Ġbing4Ġzai4Ġ":4224,"Ġdao4ĠleĠ":4225,"xin1ĠdeĠ":4226,"ou1Ġ":4227,"si1ĠdeĠ":4228,"shen3Ġ":4229,"geĠ":4230,"zi4Ġji3":4231,"yun4Ġdong4Ġ":4232,"yun2Ġ":4233,"xing2Ġzheng4Ġ":4234,"yin4Ġdu4Ġ":4235,"e2Ġluo2Ġsi1Ġ":4236,"bin1Ġ":4237,"Ġmian4Ġji1Ġ":4238,"dai4Ġbiao3Ġ":4239,"shao4Ġ":4240,"Ġmei3Ġguo2Ġ":4241,"Ġling4Ġ":4242,"xu3Ġduo1Ġ":4243,"Ġdan4Ġshi4Ġ":4244,"ren4Ġhe2Ġ":4245,"sheng1Ġyu2Ġ":4246,"tu1Ġ":4247,"gui4Ġ":4248,"Ġjian3Ġ":4249,"man3Ġ":4250,"Ġnian2Ġdai4Ġ":4251,"ding1Ġ":4252,"liang3Ġge4Ġ":4253,"che4Ġ":4254,"bao3Ġhu4Ġ":4255,"Ġren2Ġkou3Ġmi4Ġ":4256,"Ġshi3":4257,"zhĠ":4258,"xiu4Ġ":4259,"e4Ġ":4260,"xuan2Ġ":4261,"Ġdang1Ġshi2Ġ":4262,"zhang4Ġ":4263,"ĠdeĠyi2Ġge4Ġ":4264,"nan2Ġbu4Ġ":4265,"ju3Ġxing2Ġ":4266,"zhuan1Ġji2Ġ":4267,"mian4Ġji1Ġwei4Ġ":4268,"Ġdian4Ġ":4269,"lai2ĠdeĠ":4270,"Ġguan1Ġ":4271,"fan1Ġ":4272,"zao3Ġ":4273,"Ġzheng4Ġfu3Ġ":4274,"Ġceng2Ġ":4275,"du2Ġli4Ġ":4276,"fu2Ġwu4Ġ":4277,"jue2Ġding4Ġ":4278,"xie3Ġ":4279,"Ġchu1ĠdeĠ":4280,"ruo4Ġ":4281,"zhu3Ġyao4":4282,"7Ġ":4283,"kai1Ġshi3":4284,"Ġli4Ġshi3Ġ":4285,"qing3Ġ":4286,"Ġsan1Ġ":4287,"Ġshe4Ġji4Ġ":4288,"Ġwang2Ġ":4289,"Ġmei3Ġ":4290,"Ġ15":4291,"ming2ĠdeĠ":4292,"hai4Ġ":4293,"rang4Ġ":4294,"Ġshi4Ġwei4Ġyu2Ġ":4295,"jiu4Ġshi4Ġ":4296,"Ġyou3Ġyi1Ġ":4297,"ai1Ġ":4298,"geng1Ġ":4299,"Ġjiang1":4300,"gtĠ":4301,"Ġci3":4302,"ĠgtĠ":4303,"xi3Ġ":4304,"tan4Ġ":4305,"Ġqi2Ġta1Ġ":4306,"Ġfa3Ġ":4307,"Ġxing2Ġzheng4Ġ":4308,"pei2Ġ":4309,"jiao4Ġyu4Ġ":4310,"shou4Ġdao4Ġ":4311,"ltĠ":4312,"Ġfeng1Ġ":4313,"ren4Ġwei2Ġ":4314,"fang3Ġ":4315,"kan1Ġ":4316,"wan3Ġ":4317,"Ġshi4Ġdi4Ġ":4318,"fa1Ġzhan3":4319,"Ġjie1Ġ":4320,"she4Ġhui4Ġ":4321,"ĠltĠ":4322,"yi4Ġwei4Ġ":4323,"gu4Ġshi4Ġ":4324,"shan4Ġ":4325,"pian1Ġ":4326,"fang1Ġmian4Ġ":4327,"Ġxian4Ġzai4Ġ":4328,"qu1Ġwei4Ġ":4329,"Ġzui4Ġzhong1Ġ":4330,"Ġbi4Ġ":4331,"8Ġ":4332,"qin2Ġ":4333,"Ġzhong1Ġyang1Ġ":4334,"pao4Ġ":4335,"Ġshi4Ġshi4Ġ":4336,"tui4Ġ":4337,"zheĠ":4338,"nei4ĠdeĠ":4339,"Ġjiu4Ġ":4340,"shu3ĠdeĠ":4341,"xiang1Ġgang3":4342,"xiao3Ġshi2Ġ":4343,"dan4Ġ":4344,"Ġli4Ġru2Ġ":4345,"zu2Ġqiu2Ġ":4346,"Ġqu1Ġ":4347,"shu4Ġju4Ġ":4348,"Ġbu4Ġtong2":4349,"lie4Ġche1Ġ":4350,"xu1Ġyao4Ġ":4351,"hua4ĠdeĠ":4352,"zhi2Ġwu4Ġ":4353,"Ġsui1":4354,"ren2Ġshi4Ġ":4355,"qiang1Ġ":4356,"zuo4ĠdeĠ":4357,"Ġdong4Ġ":4358,"shi3Ġyong4":4359,"zeng1Ġjia1Ġ":4360,"Ġji4Ġhua4Ġ":4361,"min2Ġzhu3Ġ":4362,"Ġshi2Ġqi1Ġ":4363,"zuo4Ġwei2Ġ":4364,"Ġgu3Ġ":4365,"kong4Ġzhi4Ġ":4366,"Ġye3Ġshi4Ġ":4367,"duan3Ġ":4368,"tan3Ġ":4369,"Ġjian4ĠdeĠ":4370,"yin1Ġyue4Ġ":4371,"Ġceng2":4372,"Ġran2Ġer2Ġ":4373,"Ġ16":4374,"Ġan1Ġ":4375,"Ġyi3Ġjing1Ġ":4376,"Ġshu3Ġyu2Ġ":4377,"lang2Ġ":4378,"Ġhe2Ġzuo4Ġ":4379,"Ġzai4Ġdi4Ġ":4380,"ren2Ġmin2Ġ":4381,"Ġshi4Ġjian4Ġ":4382,"Ġren2Ġyuan2Ġ":4383,"Ġyou4":4384,"ta1ĠdeĠ":4385,"Ġjian4Ġyu2Ġ":4386,"xue2Ġyuan4Ġ":4387,"zu3Ġcheng2Ġ":4388,"chao1Ġguo4Ġ":4389,"Ġma3":4390,"Ġge2Ġ":4391,"zuo4Ġpin3Ġ":4392,"Ġyin1Ġyue4Ġ":4393,"Ġke1Ġ":4394,"mao4Ġ":4395,"Ġquan2Ġguo2Ġ":4396,"xiong2Ġ":4397,"zai3Ġ":4398,"hu1Ġ":4399,"hui4ĠdeĠ":4400,"ji4ĠdeĠ":4401,"Ġsi4Ġ":4402,"zong3Ġtong3Ġ":4403,"suan4Ġ":4404,"Ġzhe4Ġxie1Ġ":4405,"Ġwei4ĠleĠ":4406,"Ġhou4Ġlai2Ġ":4407,"yu2Ġshi4Ġ":4408,"Ġshou4Ġ":4409,"Ġpu3Ġ":4410,"Ġzhang3Ġ":4411,"Ġtai4Ġ":4412,"Ġcheng2Ġgong1Ġ":4413,"fa1Ġbu4Ġ":4414,"da4Ġli4Ġ":4415,"ti2Ġchu1Ġ":4416,"Ġli4Ġya4Ġ":4417,"Ġ000":4418,"Ġyi4Ġyuan2Ġ":4419,"Ġshe4Ġyou3Ġ":4420,"ĠĠĠdeĠ":4421,"sĠ":4422,"Ġyin1Ġci3":4423,"yun4Ġdong4Ġyuan2Ġ":4424,"yao1Ġqiu2Ġ":4425,"han2Ġguo2Ġ":4426,"bu4Ġzai4Ġ":4427,"ni2Ġya4":4428,"pin2Ġ":4429,"you3ĠdeĠ":4430,"pu2Ġ":4431,"zao4Ġcheng2Ġ":4432,"ou1Ġzhou1Ġ":4433,"qiu1Ġ":4434,"cai3Ġyong4Ġ":4435,"xiao3Ġxing2Ġ":4436,"Ġgong1Ġyuan2Ġ":4437,"jia1ĠdeĠ":4438,"xing4ĠdeĠ":4439,"sheng1ĠdeĠ":4440,"ba3Ġ":4441,"ĠdeĠyi2Ġge4":4442,"Ġri4Ġzai4Ġ":4443,"dang1Ġshi2Ġ":4444,"kong4Ġ":4445,"ren2Ġwu4Ġ":4446,"feng4Ġ":4447,"Ġci3Ġwai4Ġ":4448,"Ġsui2":4449,"gong4Ġchan3Ġ":4450,"Ġla1Ġ":4451,"kan4Ġ":4452,"ĠzhĠ":4453,"Ġcong2":4454,"Ġwo3Ġ":4455,"10Ġ":4456,"Ġsha1Ġ":4457,"Ġshi4Ġhe2Ġ":4458,"wan1Ġ":4459,"Ġling4":4460,"2010Ġnian2Ġ":4461,"Ġgen1Ġju4Ġ":4462,"ĠdeĠbu4Ġ":4463,"ma3Ġwei4Ġ":4464,"Ġti3Ġ":4465,"xue2Ġjia1Ġ":4466,"you2Ġxi4Ġ":4467,"Ġnv3Ġ":4468,"song1Ġ":4469,"fan4Ġwei2Ġ":4470,"Ġbu4Ġtong2Ġ":4471,"dun1Ġ":4472,"kai1Ġfa1Ġ":4473,"she4Ġji4Ġ":4474,"mao2Ġ":4475,"chao1Ġ":4476,"san1Ġnian2Ġ":4477,"Ġke3Ġ":4478,"qu3Ġde2Ġ":4479,"ĠdeĠji1Ġ":4480,"sai4Ġshi4Ġ":4481,"ĠĠĠshi4Ġ":4482,"xiong1Ġ":4483,"Ġxing2Ġcheng2Ġ":4484,"ĠĠĠdi4Ġli3Ġ":4485,"Ġsui4Ġ":4486,"zi4Ġzhi4Ġ":4487,"chan3Ġsheng1Ġ":4488,"Ġyi2Ġ":4489,"Ġwu4Ġ":4490,"wen1Ġ":4491,"a1Ġer3Ġ":4492,"yao2Ġ":4493,"ding3Ġ":4494,"ĠdeĠji4Ġ":4495,"shu1Ġji4Ġ":4496,"Ġ17":4497,"jie2Ġmu4Ġ":4498,"Ġbing4Ġyu2Ġ":4499,"ni3Ġ":4500,"dou1Ġshi4Ġ":4501,"chong2Ġxin1Ġ":4502,"zan4Ġ":4503,"lve4Ġ":4504,"chun1Ġ":4505,"Ġliang3Ġ":4506,"Ġshe4Ġhui4Ġ":4507,"zhong4Ġyao4":4508,"li3ĠdeĠ":4509,"bu2Ġshi4Ġ":4510,"Ġdai4Ġbiao3Ġ":4511,"yi1Ġnian2Ġ":4512,"Ġxiang1Ġgang3Ġ":4513,"Ġsi1Ġte4Ġ":4514,"dian4Ġying3":4515,"zhui1Ġ":4516,"guan1Ġyu2Ġ":4517,"dang4Ġ":4518,"xi4Ġtong3":4519,"Ġna4Ġ":4520,"jue2Ġse4Ġ":4521,"Ġfu2":4522,"jiao1Ġtong1Ġ":4523,"lang3Ġ":4524,"Ġyou2Ġxi4Ġ":4525,"da4Ġxue2Ġ":4526,"9Ġ":4527,"ji2ĠdeĠ":4528,"mi2Ġ":4529,"Ġ0":4530,"ge1Ġqu3Ġ":4531,"chu2ĠleĠ":4532,"Ġchu1Ġxian4Ġ":4533,"tao3Ġ":4534,"2020Ġnian2Ġ":4535,"Ġjie2":4536,"Ġzhi4Ġzuo4Ġ":4537,"Ġda4Ġxue2":4538,"ping2Ġjun1Ġ":4539,"Ġde2Ġguo2Ġ":4540,"xian3Ġshi4Ġ":4541,"Ġchen2Ġ":4542,"Ġjian1Ġ":4543,"hua2Ġmin2Ġguo2Ġ":4544,"ĠC":4545,"Ġshen1Ġ":4546,"Ġnian2Ġzai4Ġ":4547,"Ġzhong1Ġhua2Ġren2Ġmin2Ġgong4Ġhe2Ġguo2Ġ":4548,"kuo4Ġ":4549,"kong3Ġ":4550,"hou4Ġzai4Ġ":4551,"miao2Ġ":4552,"Ġnian2Ġdai4":4553,"Ġliang3":4554,"er4Ġnian2Ġ":4555,"xia4ĠdeĠ":4556,"yan3Ġyuan2Ġ":4557,"Ġke4Ġsi1Ġ":4558,"de2Ġguo2Ġ":4559,"xiang2Ġ":4560,"qing4Ġ":4561,"wei2Ġyi1Ġ":4562,"cao3Ġ":4563,"Ġbao3Ġ":4564,"dang1Ġdi4Ġ":4565,"guo2Ġji4Ġ":4566,"dui4ĠdeĠ":4567,"Ġ1Ġ":4568,"bo2Ġwu4Ġ":4569,"hun1Ġ":4570,"Ġjian4Ġli4Ġ":4571,"Ġfei1Ġ":4572,"Ġdi4Ġguo2Ġ":4573,"Ġbu4Ġyu2Ġ":4574,"fan3Ġdui4Ġ":4575,"ĠA":4576,"qi1ĠdeĠ":4577,"duan1Ġ":4578,"zou3Ġ":4579,"wu4ĠdeĠ":4580,"xue4Ġ":4581,"yin1Ġwei4Ġ":4582,"qu1Ġyu4Ġ":4583,"qu4Ġshi4Ġ":4584,"yi1Ġbu4Ġfen4Ġ":4585,"ba2Ġgao1Ġ":4586,"wo4Ġ":4587,"kuan3Ġ":4588,"Ġchang2Ġ":4589,"que1Ġ":4590,"2001Ġnian2Ġ":4591,"guan3Ġxia2Ġ":4592,"du4Ġwei4Ġ":4593,"zheng4Ġzhi4Ġren2Ġwu4Ġ":4594,"peng2Ġ":4595,"ni2Ġya4Ġ":4596,"Ġka3Ġ":4597,"hai2Ġyou3Ġ":4598,"ĠĠĠren2Ġkou3Ġ":4599,"Ġdang1Ġdi4Ġ":4600,"zui4Ġzhong1Ġ":4601,"Ġta1Ġshi4Ġ":4602,"chi4Ġ":4603,"Ġbu4Ġdui4Ġ":4604,"lai2Ġzi4Ġ":4605,"Ġdan1Ġ":4606,"Ġ1":4607,"Ġyue1Ġ":4608,"Ġxing2Ġshi4Ġ":4609,"bi3Ġsai4":4610,"qian2Ġwang3Ġ":4611,"Ġfa1Ġ":4612,"zhi2Ġye4Ġ":4613,"Ġwei1Ġ":4614,"ding4ĠdeĠ":4615,"quan2Ġguo2Ġ":4616,"ba1Ġshi4Ġ":4617,"yi1Ġbu4Ġ":4618,"ĠdeĠyuan2Ġ":4619,"Ġzheng4Ġfu3":4620,"Ġchu2Ġ":4621,"zhong4Ġyao4Ġ":4622,"diao4Ġcha2Ġ":4623,"Ġlin2Ġ":4624,"Ġzhi1Ġjian1Ġ":4625,"bian1Ġma3Ġwei4Ġ":4626,"Ġhuang2Ġ":4627,"Ġnian2Ġjian1Ġ":4628,"Ġxue2Ġming2Ġ":4629,"xue2Ġxiao4Ġ":4630,"zhao1Ġ":4631,"zhu3Ġxi2Ġ":4632,"xuan3Ġju3Ġ":4633,"Ġri4Ġzhi4Ġ":4634,"gai3Ġwei2Ġ":4635,"zu3Ġzhi1":4636,"Ġnei4Ġ":4637,"zhu3Ġjiao4Ġ":4638,"fa2Ġ":4639,"zi1Ġliao4Ġ":4640,"Ġjing4Ġ":4641,"hai3Ġjun1Ġ":4642,"gong1Ġshi4Ġ":4643,"Ġjun1Ġshi4Ġ":4644,"ĠdeĠda4Ġ":4645,"Ġren2Ġkou3Ġmi4Ġdu4Ġ":4646,"sĠĠĠ":4647,"chu3Ġli3Ġ":4648,"kang4Ġ":4649,"sun1Ġ":4650,"zai1Ġ":4651,"ĠdeĠyi4Ġ":4652,"fang1Ġfa3Ġ":4653,"fu4Ġze2Ġ":4654,"Ġduo1":4655,"Ġri4Ġben3":4656,"wu1Ġke4Ġlan2Ġ":4657,"ĠĠĠyu3Ġ":4658,"guan4Ġ":4659,"Ġbo1Ġ":4660,"shu4ĠdeĠ":4661,"Ġyou3Ġxian4":4662,"dai4Ġbiao3":4663,"Ġmei2Ġ":4664,"Ġge4Ġren2Ġ":4665,"Ġsheng4Ġ":4666,"Ġsan1":4667,"wu2Ġfa3Ġ":4668,"ying3Ġxiang3":4669,"Ġji4Ġshu4Ġ":4670,"Ġshi4Ġyou2Ġ":4671,"Ġhua4Ġ":4672,"jie1Ġrang3":4673,"ju1Ġmin2Ġ":4674,"zui4Ġgao1Ġ":4675,"Ġjie4Ġ":4676,"Ġkai1Ġ":4677,"Ġgai3Ġ":4678,"pa4Ġ":4679,"qi2Ġzhong1Ġ":4680,"lu4ĠdeĠ":4681,"Ġhong2Ġ":4682,"xue2Ġsheng1Ġ":4683,"Ġzhi1Ġchi2Ġ":4684,"Ġze2":4685,"zi4Ġyou2Ġ":4686,"wen3Ġ":4687,"biao1Ġzhun3Ġ":4688,"qie4Ġ":4689,"xie2Ġhui4Ġ":4690,"shu4Ġliang4":4691,"an1Ġquan2Ġ":4692,"fan3Ġying4Ġ":4693,"ke3Ġyi3":4694,"hui4Ġzai4Ġ":4695,"Ġ2Ġ":4696,"yao1Ġ":4697,"ken3Ġ":4698,"shen4Ġzhi4Ġ":4699,"ye2Ġ":4700,"bi3Ġli4Ġ":4701,"tong3Ġzhi4Ġ":4702,"xi4Ġlie4Ġ":4703,"chuang4Ġzuo4Ġ":4704,"zhu3Ġren4Ġ":4705,"Ġsui2Ġ":4706,"Ġqi3Ġ":4707,"ĠĠĠben3Ġ":4708,"Ġxin1":4709,"dong1Ġbu4Ġ":4710,"ĠdeĠyi2Ġge4Ġshi4Ġzhen4Ġ":4711,"lian2Ġmeng2Ġ":4712,"Ġshi4Ġyi2Ġge4Ġ":4713,"Ġnan2":4714,"Ġgong1Ġsi1":4715,"ĠS":4716,"gai1Ġguo2Ġ":4717,"kai3Ġ":4718,"Ġfu4Ġze2Ġ":4719,"fan2Ġ":4720,"ya3Ġ":4721,"Ġdi4Ġsan1Ġ":4722,"Ġdi4Ġshi2Ġ":4723,"ĠĠĠxing2Ġzheng4Ġ":4724,"Ġsu1Ġ":4725,"ti3Ġyu4Ġ":4726,"Ġbu4Ġguo4Ġ":4727,"jie2Ġgou4Ġ":4728,"niu2Ġ":4729,"Ġ2":4730,"Ġdao4ĠdeĠ":4731,"shi2Ġnian2Ġ":4732,"qing2Ġkuang4Ġ":4733,"neng2Ġli4Ġ":4734,"mou3Ġ":4735,"nan2ĠziĠ":4736,"zhong1Ġshi4Ġ":4737,"Ġshui3Ġ":4738,"qing2Ġkuang4":4739,"si4Ġnian2Ġ":4740,"Ġming2":4741,"Ġge1Ġ":4742,"xi1Ġbu4Ġ":4743,"gong1Ġbu4Ġ":4744,"hao2Ġ":4745,"sheng1Ġhuo2Ġ":4746,"jie1Ġshou4Ġ":4747,"ofĠĠĠ":4748,"Ġyang2Ġ":4749,"nv3Ġzi3Ġ":4750,"Ġao4":4751,"lu4Ġxian4Ġ":4752,"suo1Ġ":4753,"cheng2Ġli4Ġ":4754,"Ġzhong1Ġxue2Ġ":4755,"ĠĠĠformulaĠ":4756,"huan1Ġ":4757,"gu1Ġ":4758,"Ġ14":4759,"mian4ĠdeĠ":4760,"Ġjin4Ġru4Ġ":4761,"yi4Ġshi4Ġ":4762,"Ġer3Ġsi1Ġ":4763,"Ġzhu3Ġyao4Ġ":4764,"bei3Ġjing1Ġ":4765,"lian2Ġsai4Ġ":4766,"Ġke3Ġyi3Ġ":4767,"theĠĠĠ":4768,"Ġba1":4769,"you3Ġshi2Ġ":4770,"Ġyi4Ġhui4Ġ":4771,"guang3Ġdong1Ġ":4772,"duo2Ġ":4773,"Ġao4Ġ":4774,"ĠĠĠjia1Ġ":4775,"lao2Ġ":4776,"jian4Ġzhu4Ġ":4777,"ya4Ġzhou1Ġ":4778,"Ġtai2Ġ":4779,"Ġci4Ġ":4780,"dao3ĠdeĠ":4781,"Ġguo2Ġmin2Ġ":4782,"ye3Ġshi4Ġ":4783,"na2Ġda4Ġ":4784,"dong4Ġwu4Ġ":4785,"tai4Ġping2Ġ":4786,"Ġsuo3Ġyi3Ġ":4787,"di4Ġwei4Ġ":4788,"ran3Ġ":4789,"Ġzhe4Ġshi4Ġ":4790,"ba2Ġgao1Ġdu4Ġ":4791,"da2Ġdao4Ġ":4792,"zi4Ġji3ĠdeĠ":4793,"li3Ġshi4Ġ":4794,"zhu2Ġjian4Ġ":4795,"gui3Ġ":4796,"zhuan4Ġ":4797,"Ġbing4Ġqie3":4798,"dai4ĠdeĠ":4799,"ban3Ġben3Ġ":4800,"xu3Ġduo1":4801,"zhe3ĠdeĠ":4802,"jiao4Ġshou4Ġ":4803,"Ġhai2Ġ":4804,"Ġer4Ġ":4805,"2008Ġnian2Ġ":4806,"xiang4Ġmu4Ġ":4807,"Ġxue2Ġxiao4Ġ":4808,"Ġhu2Ġ":4809,"Ġda4":4810,"wu1Ġke4Ġlan2":4811,"fei1Ġchang2Ġ":4812,"2009Ġnian2Ġ":4813,"Ġxi1Ġya4Ġ":4814,"qing1Ġnian2Ġ":4815,"Ġzong3":4816,"Ġmu3Ġ":4817,"Ġbing4Ġqie3Ġ":4818,"Ġzhu3Ġyao4":4819,"la1Ġsi1Ġ":4820,"ĠĠĠgen1Ġju4Ġ":4821,"yi1Ġshi4Ġ":4822,"Ġcheng2Ġwei2":4823,"ri4Ġben3":4824,"mo2Ġshi4Ġ":4825,"zhe2Ġ":4826,"niao3Ġ":4827,"wen2Ġwu4Ġ":4828,"Ġta1ĠmenĠdeĠ":4829,"Ġyi4Ġshu4Ġ":4830,"zhi3Ġyou3Ġ":4831,"cha1Ġ":4832,"Ġji4Ġlu4Ġ":4833,"ĠĠĠofĠĠĠ":4834,"Ġzhou1ĠdeĠ":4835,"Ġai4Ġ":4836,"Ġmin2Ġ":4837,"hang2Ġkong1Ġ":4838,"Ġyu2Ġshi4Ġ":4839,"Ġbo2Ġ":4840,"wen2Ġxue2Ġ":4841,"fen1Ġwei2Ġ":4842,"suan1Ġ":4843,"Ġqi2Ġshi4Ġ":4844,"Ġqi2Ġyu2Ġ":4845,"sui4Ġ":4846,"deng3Ġren2Ġ":4847,"hui3Ġ":4848,"tong1Ġguo4":4849,"zhi3Ġchu1Ġ":4850,"BĠ":4851,"cang2Ġ":4852,"Ġ3":4853,"28Ġri4Ġ":4854,"shuai4Ġ":4855,"Ġyong4Ġ":4856,"ren2Ġkou3Ġpu3Ġ":4857,"cuo4Ġ":4858,"zhi2Ġxing2Ġ":4859,"tong2Ġshi2Ġ":4860,"Ġjin1":4861,"Ġqiu2Ġdui4Ġ":4862,"zha4Ġ":4863,"Ġli4Ġya4":4864,"zhi2Ġjie1Ġ":4865,"yan3Ġchu1Ġ":4866,"jin3Ġbiao1Ġ":4867,"gai1Ġdi4Ġ":4868,"ge2Ġlan2Ġ":4869,"2016Ġnian2Ġ":4870,"huo2Ġdong4":4871,"zhe4Ġyi1Ġ":4872,"ren4Ġwei2":4873,"jin4Ġru4Ġ":4874,"Ġzhi1Ġjian1ĠdeĠ":4875,"Ġgong1Ġkai1Ġ":4876,"Ġdang1Ġzhong1Ġ":4877,"hun4Ġ":4878,"ĠĠĠS":4879,"gong4Ġtong2Ġ":4880,"xia4Ġji4Ġ":4881,"Ġdan4Ġzai4Ġ":4882,"zhan4Ġzheng1Ġ":4883,"wu3Ġnian2Ġ":4884,"chou2Ġ":4885,"jiang1Ġjun1Ġ":4886,"le4Ġbu4Ġ":4887,"mei2Ġti3Ġ":4888,"Ġwu2":4889,"ti3ĠdeĠ":4890,"che1Ġzhan4":4891,"meng4Ġ":4892,"tui1Ġchu1Ġ":4893,"jiao4Ġyu4":4894,"die2Ġ":4895,"yun3Ġ":4896,"zhe4Ġxie1Ġ":4897,"po1Ġ":4898,"ti4Ġ":4899,"Ġshi4Ġwu4Ġ":4900,"miao4Ġ":4901,"li2Ġkai1Ġ":4902,"Ġling4Ġwai4Ġ":4903,"huan2Ġjing4Ġ":4904,"zhu2Ġ":4905,"teng2Ġ":4906,"wan4Ġ":4907,"2012Ġnian2Ġ":4908,"ĠD":4909,"lin2Ġpi3":4910,"Ġdi4Ġer4":4911,"shang1Ġye4Ġ":4912,"2011Ġnian2Ġ":4913,"chuan2Ġtong3Ġ":4914,"ĠĠĠnian2":4915,"15Ġri4Ġ":4916,"Ġyin3Ġ":4917,"guan1ĠdeĠ":4918,"kuan1Ġ":4919,"san1Ġshi2Ġ":4920,"jun1Ġshi4Ġ":4921,"dan1Ġqu1Ġ":4922,"liang4ĠdeĠ":4923,"jie1Ġdao4Ġ":4924,"san4Ġ":4925,"ji1ĠdeĠ":4926,"qian2ĠdeĠ":4927,"ren2Ġzai4Ġ":4928,"nei4Ġrong2Ġ":4929,"zang4Ġ":4930,"sai4Ġji4Ġ":4931,"gao1ĠdeĠ":4932,"dong4Ġhua4Ġ":4933,"bo2Ġshi4Ġ":4934,"du4ĠdeĠ":4935,"Ġwei4Ġren2Ġ":4936,"12Ġ":4937,"yin2Ġhang2Ġ":4938,"xuan3Ġju3":4939,"Ġwei4Ġzhi4Ġ":4940,"cheng2Ġzhong1Ġ":4941,"ming4Ġming2Ġ":4942,"sun3Ġ":4943,"Ġgu4Ġ":4944,"deng3Ġdi4Ġ":4945,"Ġgong1Ġlu4Ġ":4946,"re4Ġdai4Ġ":4947,"bei3Ġjing1":4948,"Ġzhe4ĠgeĠ":4949,"bang3Ġ":4950,"Ġshi2Ġji4Ġ":4951,"yun4Ġdong4Ġhui4Ġ":4952,"xuan3Ġze2Ġ":4953,"Ġda4Ġli4Ġ":4954,"Ġer2Ġzai4Ġ":4955,"Ġhan4Ġ":4956,"yuan2Ġnian2Ġ":4957,"bao4Ġgao4Ġ":4958,"Ġmu4Ġqian2Ġ":4959,"ĠdeĠhe2Ġ":4960,"bo1Ġchu1Ġ":4961,"zui4Ġjia1Ġ":4962,"ĠĠĠju4Ġ":4963,"zong1Ġjiao4Ġ":4964,"xue2Ġwei4Ġ":4965,"tu3Ġdi4Ġ":4966,"Ġde2Ġdao4Ġ":4967,"deĠĠĠ":4968,"zui4Ġhou4Ġ":4969,"wen2Ġhua4":4970,"tuan2Ġti3Ġ":4971,"25Ġri4Ġ":4972,"Ġye4Ġ":4973,"Ġdi4Ġfang1Ġ":4974,"gui3Ġdao4Ġ":4975,"luan4Ġ":4976,"Ġwei4Ġdi4Ġ":4977,"jing1Ġli4Ġ":4978,"xi4ĠdeĠ":4979,"Ġzhan4":4980,"Ġzhi1Ġqian2Ġ":4981,"sheng3ĠdeĠyi2Ġge4Ġshi4Ġzhen4Ġ":4982,"Ġmo2Ġ":4983,"Ġshi4Ġyi1Ġzhong3Ġ":4984,"Ġshi4Ġwei4Ġyu2Ġmei3Ġguo2Ġ":4985,"AĠ":4986,"ji2Ġzhong1Ġ":4987,"Ġge4Ġyue4Ġ":4988,"Ġxing4Ġ":4989,"Ġ5Ġ":4990,"Ġjun1ĠdeĠ":4991,"si3Ġwang2Ġ":4992,"xiang1Ġguan1Ġ":4993,"Ġqi4Ġ":4994,"Ġmi3":4995,"Ġ5":4996,"Ġbao1Ġkuo4":4997,"30Ġri4Ġ":4998,"fen1Ġbie2":4999,"Ġji1Ġgou4Ġ":5000,"wei4ĠdeĠ":5001,"shou3Ġci4Ġ":5002,"ao4Ġlin2Ġpi3":5003,"ling3Ġdao3Ġ":5004,"Ġyou3Ġguan1Ġ":5005,"Ġhai3Ġba2Ġgao1Ġdu4Ġ":5006,"Ġyi1Ġxie1Ġ":5007,"Ġtong2Ġnian2Ġ":5008,"Ġjue2Ġ":5009,"2014Ġnian2Ġ":5010,"yong4ĠdeĠ":5011,"huai2Ġ":5012,"ĠĠĠwei4Ġ":5013,"mei3Ġyuan2Ġ":5014,"20Ġri4Ġ":5015,"Ġxing2Ġdong4Ġ":5016,"Ġzhong4Ġ":5017,"xue3Ġ":5018,"Ġzai4Ġyi1Ġ":5019,"Ġ6":5020,"ji1Ġyu2Ġ":5021,"Ġzhong1Ġhua2Ġmin2Ġguo2Ġ":5022,"shui3Ġyu4Ġ":5023,"11Ġ":5024,"bian4Ġhua4Ġ":5025,"10Ġri4Ġ":5026,"shang4Ġwei4Ġ":5027,"Ġji2Ġtuan2":5028,"2018Ġnian2Ġ":5029,"Ġji4Ġxu4Ġ":5030,"zhi1Ġyi1Ġ":5031,"Ġshi2Ġdai4Ġ":5032,"chu3Ġyu2Ġ":5033,"UTCĠ":5034,"gong4Ġhe2Ġ":5035,"Ġbu4Ġzhang3Ġ":5036,"zi4Ġji3Ġ":5037,"Ġwai4Ġ":5038,"jie2Ġshu4Ġ":5039,"Ġbai2Ġ":5040,"2019Ġnian2Ġ":5041,"ĠziĠ":5042,"Ġzi4Ġji3":5043,"zhi1Ġchi2Ġ":5044,"Ġ4":5045,"2005Ġnian2Ġ":5046,"guo4Ġcheng2Ġ":5047,"Ġhou4Ġlai2":5048,"min2Ġzu2Ġ":5049,"2015Ġnian2Ġ":5050,"shun4Ġ":5051,"kong1Ġjian1Ġ":5052,"shui4Ġ":5053,"ĠT":5054,"bu2Ġhui4Ġ":5055,"mei4Ġ":5056,"ye4Ġyu2Ġ":5057,"Ġru2":5058,"Ġ18":5059,"Ġcheng1Ġ":5060,"tou4Ġguo4Ġ":5061,"nei4Ġbu4Ġ":5062,"2013Ġnian2Ġ":5063,"Ġsi4":5064,"jie3Ġfang4":5065,"Ġzhi2Ġdao4Ġ":5066,"Ġyi4Ġzhi2Ġ":5067,"Ġjing3Ġ":5068,"xin1Ġwen2Ġ":5069,"fen1Ġbu4Ġ":5070,"gen1Ġju4":5071,"Ġzhou1Ġshi4Ġ":5072,"Ġai4":5073,"pi1Ġping2Ġ":5074,"Ġji2Ġtuan2Ġ":5075,"2007Ġnian2Ġ":5076,"Ġjiu4":5077,"di4Ġqu1Ġ":5078,"Ġshu3Ġ":5079,"ĠĠĠzhe4Ġ":5080,"Ġhe2Ġnan2Ġ":5081,"ta1Ġmen":5082,"Ġshi4Ġshi2Ġ":5083,"Ġyou3Ġxian4Ġgong1Ġsi1Ġ":5084,"wan2Ġjia1Ġ":5085,"gui1Ġding4Ġ":5086,"Ġshen2Ġ":5087,"ge2Ġming4Ġ":5088,"Ġjia1Ġru4Ġ":5089,"wan2Ġquan2Ġ":5090,"cheng2Ġwei2Ġ":5091,"Ġtang2Ġ":5092,"xi1Ġban1Ġ":5093,"zi1Ġge2Ġ":5094,"26Ġri4Ġ":5095,"da4Ġlu4Ġ":5096,"ao4Ġlin2Ġpi3Ġke4Ġ":5097,"ĠĠĠgai1Ġ":5098,"2017Ġnian2Ġ":5099,"Ġda4Ġhui4Ġ":5100,"24Ġri4Ġ":5101,"Ġmo4Ġ":5102,"zai4ĠdeĠ":5103,"za2Ġzhi4Ġ":5104,"Ġzhe4Ġzhong3Ġ":5105,"ying1Ġyu3Ġ":5106,"pu2Ġtao2Ġ":5107,"ĠĠĠyi1Ġ":5108,"lu4Ġdi4Ġ":5109,"Ġying1Ġguo2Ġ":5110,"he2ĠdeĠ":5111,"shang4Ġhai3Ġ":5112,"hao2Ġmi3Ġ":5113,"Ġyu3Ġyan2Ġ":5114,"qi3Ġye4Ġ":5115,"qi2Ġta1":5116,"fang1ĠdeĠ":5117,"Ġ8":5118,"Ġke3":5119,"hou4Ġyi1Ġ":5120,"luo2Ġma3Ġ":5121,"Ġtou2Ġ":5122,"wen4Ġti2":5123,"Ġ3Ġ":5124,"san1Ġge4Ġ":5125,"Ġcheng2Ġqu1Ġ":5126,"se4ĠdeĠ":5127,"2006Ġnian2Ġ":5128,"chuan2Ġtong3":5129,"Ġshi4Ġfa3Ġguo2Ġ":5130,"yi1ĠdeĠ":5131,"18Ġri4Ġ":5132,"wu4Ġzhong3Ġ":5133,"Ġyao4Ġ":5134,"Ġwei4Ġyu2Ġgai1Ġguo2Ġ":5135,"Ġha1Ġ":5136,"Ġli3Ġsi1Ġ":5137,"Ġtai2Ġwan1Ġ":5138,"jing4Ġnei4Ġ":5139,"Ġbu4Ġtong2ĠdeĠ":5140,"Ġ9":5141,"Ġmo4":5142,"wu4Ġli3Ġ":5143,"duo1ĠdeĠ":5144,"shu4Ġwei4Ġ":5145,"Ġdai4Ġbiao3":5146,"biao3Ġxian4Ġ":5147,"Ġ7":5148,"Ġshi4Ġjie4Ġda4Ġ":5149,"sheng3Ġji2Ġ":5150,"fa3Ġlv4Ġ":5151,"miao2Ġshu4Ġ":5152,"gan4Ġ":5153,"guan1Ġyuan2Ġ":5154,"jing1Ġguo4Ġ":5155,"Ġlu2Ġ":5156,"ba4Ġ":5157,"ĠP":5158,"chang1Ġ":5159,"Ġyi4Ġban1Ġ":5160,"Ġzui4Ġhou4Ġ":5161,"po4Ġhuai4":5162,"ĠM":5163,"Ġa1":5164,"Ġguo2Ġjia1":5165,"ying2Ġde2Ġ":5166,"cai4Ġ":5167,"Ġsui2Ġhou4Ġ":5168,"12Ġri4Ġ":5169,"zheng4Ġzai4Ġ":5170,"bao1Ġhan2Ġ":5171,"Ġshi4Ġjian4":5172,"bo2Ġwu4Ġguan3Ġ":5173,"Ġgong1Ġji1Ġ":5174,"shen4Ġ":5175,"ce4Ġshi4Ġ":5176,"chang3ĠdeĠ":5177,"na2Ġ":5178,"ĠE":5179,"21Ġ":5180,"Ġwei4Ġzhong1Ġ":5181,"Ġli4Ġyong4Ġ":5182,"bu4Ġhe2Ġ":5183,"Ġchao2Ġ":5184,"ze2Ġshi4Ġ":5185,"chun2Ġ":5186,"nie4Ġ":5187,"fei1Ġji1Ġ":5188,"Ġfen1Ġbu4Ġyu2Ġ":5189,"zhuan1Ġye4Ġ":5190,"zheng1Ġyi4Ġ":5191,"27Ġri4Ġ":5192,"shi3ĠdeĠ":5193,"16Ġri4Ġ":5194,"fa3Ġyuan4Ġ":5195,"Ġ2001Ġnian2Ġ":5196,"Ġdi4Ġqu1":5197,"21Ġri4Ġ":5198,"yi4Ġshi2Ġ":5199,"yong1Ġ":5200,"17Ġri4Ġ":5201,"zao1Ġdao4Ġ":5202,"Ġshi4Ġyi4Ġ":5203,"Ġsheng1Ġhuo2Ġ":5204,"Ġchong2Ġ":5205,"Ġbei4Ġcheng1Ġwei2Ġ":5206,"ding4Ġyi4Ġ":5207,"Ġzhong1Ġxin1":5208,"Ġsui1Ġran2":5209,"Ġda4Ġqu1Ġ":5210,"sou1Ġ":5211,"zong1Ġhe2Ġ":5212,"Ġzhan4Ġzheng1Ġ":5213,"8Ġri4Ġ":5214,"xue2ĠdeĠ":5215,"Ġxian4Ġshi2Ġ":5216,"Ġzhong1Ġgong4":5217,"19Ġri4Ġ":5218,"ji2Ġwei4Ġ":5219,"23Ġri4Ġ":5220,"2021Ġnian2Ġ":5221,"Ġ13":5222,"huang2Ġdi4Ġ":5223,"ĠdeĠzuo4Ġ":5224,"Ġzhu1Ġ":5225,"zhi3Ġshi4Ġ":5226,"2022Ġnian2Ġ":5227,"11Ġri4Ġ":5228,"a1Ġla1Ġ":5229,"ou1Ġzhou1":5230,"jiang1Ġqi2Ġ":5231,"Ġbing4Ġbu4Ġ":5232,"yuan2Ġyu2Ġ":5233,"fang1Ġxiang4Ġ":5234,"Ġci4":5235,"zhan4ĠdeĠ":5236,"liu4Ġnian2Ġ":5237,"e2Ġluo2Ġ":5238,"ĠĠĠyu2Ġ":5239,"chu1Ġxian4Ġ":5240,"lie4Ġche1":5241,"quan2Ġli4Ġ":5242,"nao3Ġ":5243,"gui1Ġmo2Ġ":5244,"22Ġri4Ġ":5245,"29Ġri4Ġ":5246,"7Ġri4Ġ":5247,"lie4ĠdeĠ":5248,"zui4Ġda4ĠdeĠ":5249,"meĠ":5250,"duo1Ġshu4Ġ":5251,"xiang4ĠdeĠ":5252,"ĠĠĠC":5253,"20Ġ":5254,"xu1Ġyao4":5255,"hai2Ġshi4Ġ":5256,"Ġlong2Ġ":5257,"yu4ĠdeĠ":5258,"neng2Ġgou4Ġ":5259,"yue1Ġhan4Ġ":5260,"Ġzhe4Ġxie1":5261,"ĠĠĠci3Ġ":5262,"ding4Ġwei4Ġ":5263,"tong3Ġji4Ġ":5264,"Ġxiang1Ġgang3":5265,"9Ġri4Ġ":5266,"sang1Ġ":5267,"ĠĠĠzheng4Ġzhi4Ġ":5268,"Ġzai4Ġzhe4Ġ":5269,"xin4Ġxi1Ġ":5270,"yang4ĠdeĠ":5271,"Ġxian4Ġzhi4Ġ":5272,"gong1ĠdeĠ":5273,"Ġlu4":5274,"ju3Ġban4":5275,"lian2Ġmeng2":5276,"Ġfen1Ġbie2":5277,"qiu2Ġdui4Ġ":5278,"hong1Ġ":5279,"Ġzhang1":5280,"cha2ĠdeĠ":5281,"14Ġri4Ġ":5282,"ling4Ġyi1Ġ":5283,"chang2Ġshi4Ġ":5284,"mei3Ġguo2Ġren2Ġkou3Ġpu3Ġ":5285,"ĠĠĠtheĠĠĠ":5286,"niu3Ġyue1":5287,"5Ġri4Ġ":5288,"zu3Ġhe2Ġ":5289,"Ġhuo4Ġde2":5290,"lin2Ġshi2Ġ":5291,"3Ġri4Ġ":5292,"31Ġri4Ġ":5293,"Ġzhong1Ġbu4Ġ":5294,"wei4Ġshi4Ġ":5295,"dong3Ġshi4Ġ":5296,"ji1Ġdi4Ġ":5297,"ĠG":5298,"ge1Ġshou3Ġ":5299,"dong1Ġnan2Ġ":5300,"hai3Ġba2":5301,"Ġbao4Ġ":5302,"ĠĠĠzhong1Ġ":5303,"bang1Ġzhu4Ġ":5304,"ĠdeĠshi4Ġzhen4Ġ":5305,"Ġru4Ġ":5306,"Ġhua2Ġ":5307,"6Ġri4Ġ":5308,"pai1Ġshe4Ġ":5309,"Ġgong4Ġ":5310,"mou2Ġ":5311,"ĠF":5312,"Ġliu2":5313,"Ġyi4Ġda4Ġli4Ġ":5314,"2000Ġnian2Ġ":5315,"Ġshe4Ġli4Ġ":5316,"2Ġri4Ġ":5317,"Ġyi4Ġban1":5318,"Ġren2Ġkou3":5319,"ge4Ġren2Ġ":5320,"she4Ġyou3Ġ":5321,"ĠdeĠzhong1Ġ":5322,"bing3Ġ":5323,"4Ġri4Ġ":5324,"Ġãĥ":5325,"sheng1Ġya2Ġ":5326,"yuan2Ġhe2Ġ":5327,"Ġ4Ġ":5328,"2004Ġnian2Ġ":5329,"Ġdi4Ġqu1ĠdeĠ":5330,"Ġxue2Ġsheng1Ġ":5331,"Ġdao3Ġzhi4Ġ":5332,"tie3Ġlu4":5333,"zu2Ġqiu2":5334,"zao3Ġqi1Ġ":5335,"feng2Ġ":5336,"Ġqi2Ġta1":5337,"cang1Ġ":5338,"mĠ":5339,"13Ġri4Ġ":5340,"xiong1Ġdi4Ġ":5341,"sheng1Ġzai4Ġ":5342,"dong1Ġbei3Ġ":5343,"ruan3Ġ":5344,"mu4Ġdi4Ġ":5345,"tong1Ġchang2Ġ":5346,"hui1Ġfu4Ġ":5347,"ĠãĤ":5348,"Ġzhe4Ġyi1Ġ":5349,"Ġwo3":5350,"Ġshi4Ġchang3Ġ":5351,"Ġxue2Ġyuan4Ġ":5352,"shao1Ġ":5353,"pan2Ġ":5354,"Ġbian4Ġ":5355,"shen1Ġfen4Ġ":5356,"ĠĠĠyou2Ġyu2Ġ":5357,"qu3Ġdai4Ġ":5358,"ĠĠĠA":5359,"lian2Ġbang1Ġ":5360,"ge2Ġming4":5361,"zhi3Ġhui1Ġ":5362,"Ġmei2Ġyou3Ġ":5363,"qing2Ġkuang4Ġxia4Ġ":5364,"yi2Ġbu4Ġ":5365,"su1Ġlian2Ġ":5366,"xie2Ġyi4Ġ":5367,"huang2Ġjia1Ġ":5368,"ke1Ġji4Ġ":5369,"fa1Ġxian4":5370,"pang2Ġ":5371,"zheng3Ġge4Ġ":5372,"zhan1Ġ":5373,"ren2Ġhe2Ġ":5374,"Ġgong1Ġchi3Ġ":5375,"Ġhei1Ġ":5376,"yao1Ġqiu2":5377,"yan1Ġ":5378,"Ġfu4":5379,"chao1Ġji2Ġ":5380,"mao4Ġyi4Ġ":5381,"yue4ĠdeĠ":5382,"zhang3ĠdeĠ":5383,"xue2Ġyuan4":5384,"fan3Ġying4":5385,"ju3Ġban4Ġ":5386,"hang2Ġkong1":5387,"cui1Ġ":5388,"xi2Ġji1Ġ":5389,"Ġye3Ġyou3Ġ":5390,"hua4Ġhe2Ġ":5391,"xiao3Ġshuo1Ġ":5392,"Ġdi4Ġli4Ġ":5393,"Ġshu1Ġ":5394,"li4Ġhe2Ġ":5395,"nv3Ġxing4Ġ":5396,"Ġxi1Ġnan2Ġ":5397,"tu2Ġshu1Ġ":5398,"guan1Ġfang1Ġ":5399,"xian1Ġhou4Ġ":5400,"bi4Ġye4Ġ":5401,"tong3Ġyi1Ġ":5402,"ting3Ġ":5403,"za2Ġ":5404,"Ġha1":5405,"brĠ":5406,"Ġgu4":5407,"Ġman4Ġ":5408,"sai4ĠdeĠ":5409,"hou2Ġ":5410,"zun1Ġ":5411,"Ġshuang1Ġ":5412,"Ġyi3Ġjing1":5413,"Ġwei1":5414,"Ġque4Ġ":5415,"aĠĠĠ":5416,"Ġdong1":5417,"ĠbrĠ":5418,"xie2Ġzhu4Ġ":5419,"lan3Ġ":5420,"aĠ":5421,"ci4Ġshi4Ġjie4Ġda4Ġ":5422,"Ġru2Ġguo3Ġ":5423,"ĠB":5424,"shang4Ġshi4Ġ":5425,"qu1Ġhua4Ġ":5426,"ĠK":5427,"30Ġ":5428,"fen1Ġxi1Ġ":5429,"yu3ĠdeĠ":5430,"Ġer3Ġsheng3Ġ":5431,"ren2Ġkou3Ġshu4Ġliang4":5432,"wen2Ġwu4Ġbao3Ġhu4Ġ":5433,"TheĠĠĠ":5434,"Ġhe2Ġyi1Ġ":5435,"Ġbu4Ġneng2Ġ":5436,"zi4Ġxing2Ġ":5437,"Ġ6Ġ":5438,"Ġben3":5439,"jie1Ġduan4Ġ":5440,"guang3Ġbo1Ġ":5441,"Ġqie3Ġ":5442,"Ġyi3Ġlai2Ġ":5443,"Ġxi1Ġban1Ġ":5444,"Ġzu3Ġ":5445,"Ġcai2Ġ":5446,"dan1Ġren4":5447,"Ġta1Ġceng2":5448,"chi2Ġxu4Ġ":5449,"tai2Ġbei3":5450,"Ġwu3":5451,"wu2Ġxian4Ġ":5452,"gong4Ġchan3Ġdang3Ġ":5453,"guo2Ġhe2Ġ":5454,"Ġ12":5455,"Ġyi3Ġxia4Ġ":5456,"qi1Ġnian2Ġ":5457,"te4ĠdeĠ":5458,"dao3Ġyan3Ġ":5459,"reng2Ġ":5460,"hou4Ġyu2Ġ":5461,"yan3Ġchang4":5462,"zhu4Ġzai4Ġ":5463,"fa1Ġbiao3":5464,"xia4Ġxia2":5465,"tiao2Ġjian4Ġ":5466,"pin2Ġdao4Ġ":5467,"hu3Ġ":5468,"Ġgong1Ġzuo4":5469,"ye4ĠdeĠ":5470,"jiao1Ġyi4Ġ":5471,"ĠL":5472,"Ġqian1Ġ":5473,"Ġzai4Ġci4Ġ":5474,"lai4Ġ":5475,"shao4Ġnian2Ġ":5476,"Ġjiu3Ġ":5477,"jie2Ġshu4":5478,"Ġshi4Ġzhong1Ġguo2Ġ":5479,"bao4Ġdao4Ġ":5480,"Ġren2Ġkou3Ġmi4Ġdu4Ġwei4Ġ":5481,"qiu2Ġyuan2Ġ":5482,"Ġshi4Ġli4Ġ":5483,"Ġqie3":5484,"ĠĠĠbu4Ġ":5485,"zao1Ġ":5486,"jue2Ġsai4Ġ":5487,"Ġzhe4Ġge":5488,"ying4Ġyong4Ġ":5489,"wai4ĠdeĠ":5490,"you2Ġzheng4Ġ":5491,"jian4Ġli4Ġ":5492,"Ġya4Ġ":5493,"zi1Ġyuan2Ġ":5494,"sai1Ġer3Ġ":5495,"Ġqi2Ġhou4Ġ":5496,"Ġxi1":5497,"zui4Ġda4Ġ":5498,"Ġbing4Ġwei4Ġ":5499,"hui2Ġdao4Ġ":5500,"cao1Ġ":5501,"su4Ġdu4Ġ":5502,"qi4Ġhou4Ġ":5503,"ke3Ġda2Ġ":5504,"Ġluo4Ġ":5505,"Ġwei4Ġyu2Ġfa3Ġguo2Ġ":5506,"Ġzhao4Ġ":5507,"gai3Ġge2Ġ":5508,"mi4Ġshu1Ġ":5509,"Ġyi1Ġyuan4Ġ":5510,"dian4Ġshi4Ġju4Ġ":5511,"zhuang4Ġtai4Ġ":5512,"zhu4ĠdeĠ":5513,"fen4Ġwei4Ġ":5514,"Ġ10":5515,"Ġgong1Ġye4Ġ":5516,"wang3Ġzhan4Ġ":5517,"Ġjie3Ġ":5518,"gong1Ġsi1Ġ":5519,"Ġlan2Ġ":5520,"jie2Ġguo3Ġ":5521,"suo3Ġshu3ĠdeĠ":5522,"ĠdeĠdi4Ġyi1Ġ":5523,"hu2Ġnan2Ġ":5524,"Ġyi1Ġsi1Ġ":5525,"Ġmai4":5526,"ya4Ġli4Ġ":5527,"Ġwei4Ġyi1Ġ":5528,"shang4Ġhai3":5529,"20Ġshi4Ġji4Ġ":5530,"Ġzuo4Ġpin3Ġ":5531,"zuo3Ġyou4Ġ":5532,"xiao3Ġxue2Ġ":5533,"ĠR":5534,"jie2Ġhe2Ġ":5535,"sheng4Ġli4Ġ":5536,"Ġzhong1Ġgong4Ġ":5537,"shou3Ġci4":5538,"Ġjia4Ġ":5539,"Ġhao4Ġxian4Ġ":5540,"zhen4Ġqu1Ġ":5541,"ĠdeĠfu4Ġ":5542,"wen2Ġming2Ġ":5543,"Ġjian3Ġcheng1Ġ":5544,"kai1Ġfa1":5545,"ĠH":5546,"Ġsuo3Ġyou3Ġ":5547,"yi2Ġzhi4Ġ":5548,"jiao4Ġhui4Ġ":5549,"sheng3Ġfen4Ġ":5550,"zhan3Ġkai1Ġ":5551,"yin4Ġdu4":5552,"shi2Ġqi1Ġ":5553,"Ġfa3Ġguo2Ġ":5554,"ling3Ġdao3":5555,"mu4Ġbiao1Ġ":5556,"Ġer2Ġshi4Ġ":5557,"gao1Ġji2Ġ":5558,"zhun3Ġbei4Ġ":5559,"wang3Ġluo4Ġ":5560,"Ġfei1":5561,"Ġjian4Ġshe4Ġ":5562,"xun4Ġlian4Ġ":5563,"ke1ĠdeĠ":5564,"Ġren2Ġwu4Ġ":5565,"fa1Ġbiao3Ġ":5566,"xuan3Ġshou3Ġ":5567,"jiao1Ġtong1":5568,"hao3ĠdeĠ":5569,"ĠĠĠB":5570,"zi4Ġran2Ġ":5571,"zhong4Ġyao4ĠdeĠ":5572,"dong1Ġjing1Ġ":5573,"chan3Ġpin3Ġ":5574,"gong4Ġyou3Ġren2Ġkou3Ġ":5575,"Ġjia3Ġ":5576,"Ġxian4Ġdai4Ġ":5577,"Ġyi1Ġming2Ġ":5578,"Ġxi1Ġbei3Ġ":5579,"juan3Ġ":5580,"feng1Ġge2Ġ":5581,"Ġcheng2Ġji4Ġ":5582,"lei3Ġ":5583,"zou4Ġ":5584,"Ġhe2Ġdi4Ġ":5585,"xiao3Ġxing2Ġxing1Ġ":5586,"yan2Ġzhong4Ġ":5587,"ziĠdeĠ":5588,"mu4Ġqian2Ġ":5589,"liu2Ġxing2Ġ":5590,"wen2Ġwu4Ġbao3Ġhu4Ġdan1Ġwei4Ġ":5591,"mie4Ġ":5592,"Ġji1Ġchang3Ġ":5593,"bian4Ġcheng2Ġ":5594,"qiao2Ġzhi4Ġ":5595,"Ġguang1Ġ":5596,"Ġdan1Ġren4Ġ":5597,"lei4Ġsi4":5598,"dian4Ġshi4Ġtai2Ġ":5599,"ĠĠĠP":5600,"jie3Ġshi4Ġ":5601,"guo2Ġmin2Ġ":5602,"Ġyi4Ġqi3Ġ":5603,"Ġmai4Ġ":5604,"Ġyong3Ġ":5605,"kai1Ġfang4Ġ":5606,"Ġshen4Ġzhi4Ġ":5607,"Ġxia4Ġling4":5608,"Ġyi2Ġge4Ġ":5609,"ka3Ġer3Ġ":5610,"2003Ġnian2Ġ":5611,"xing2Ġshi4Ġ":5612,"dou1Ġyou3Ġ":5613,"2002Ġnian2Ġ":5614,"Ġchu2ĠleĠ":5615,"zhi1Ġhou4Ġ":5616,"hui4Ġhe2Ġ":5617,"mei3Ġping2Ġfang1Ġgong1Ġli3Ġ":5618,"ru4ĠleĠ":5619,"Ġyi1Ġyang4Ġ":5620,"Ġgong1Ġfen1Ġ":5621,"Ġshe4Ġzhi4Ġ":5622,"te4Ġzheng1Ġ":5623,"can1Ġsai4Ġ":5624,"Ġsi1Ġji1Ġ":5625,"Ġwu1Ġ":5626,"Ġdeng3":5627,"ru2Ġxia4Ġ":5628,"zhen1Ġdui4Ġ":5629,"jiu4Ġshi4Ġzhen4Ġ":5630,"Ġshi4Ġfou3":5631,"Ġshi2Ġjian1":5632,"gao1Ġzhong1Ġ":5633,"Ġci3Ġhou4Ġ":5634,"Ġzai4Ġzhong1Ġ":5635,"bi4Ġxu1Ġ":5636,"wang2Ġguo2Ġ":5637,"bi3Ġjiao4Ġ":5638,"Ġ00":5639,"er4Ġshi4Ġ":5640,"diao1Ġ":5641,"wai4Ġjiao1":5642,"gui1Ġhua4Ġ":5643,"Ġche1Ġ":5644,"bang4Ġ":5645,"Ġyi4Ġzhi4Ġ":5646,"lei4Ġsi4Ġ":5647,"Ġyu3":5648,"Ġbiao3Ġshi4Ġ":5649,"zhe4ĠgeĠ":5650,"shan1Ġdong1Ġ":5651,"Ġran2Ġhou4Ġ":5652,"Ġsui1Ġran2Ġ":5653,"Ġyi4Ġzhi2":5654,"Ġli4Ġshu3Ġyu2Ġ":5655,"yuan2Ġshi4Ġ":5656,"dui4Ġzai4Ġ":5657,"zhu4Ġming2Ġ":5658,"yun2Ġnan2Ġ":5659,"hen3Ġduo1Ġ":5660,"Ġer3ĠdeĠ":5661,"huo4Ġde2":5662,"Ġshang1Ġ":5663,"sheng1Ġchan3Ġ":5664,"ĠĠĠgong1Ġ":5665,"zhan4Ġyi4Ġ":5666,"Ġbei3":5667,"zhong4ĠdeĠ":5668,"dian4ĠziĠ":5669,"ĠĠĠda4Ġ":5670,"Ġjian4Ġzhi4Ġ":5671,"xin1Ġjia1Ġ":5672,"Ġtu2Ġ":5673,"lai2Ġzi4":5674,"zhi4Ġzuo4Ġ":5675,"shan1Ġxi1Ġ":5676,"ren2Ġkou3Ġshu4Ġliang4Ġwei4Ġren2Ġ":5677,"Ġgu3":5678,"ju4Ġji2Ġ":5679,"ĠdeĠyi1Ġzhong3Ġ":5680,"ĠdeĠming2Ġ":5681,"ĠĠĠF":5682,"ji2Ġhe2Ġ":5683,"UĠ":5684,"Ġxi1Ġya4":5685,"lv3Ġyou2Ġ":5686,"tao4Ġ":5687,"Ġzhi4Ġzao4Ġ":5688,"Ġxing2Ġwei2Ġ":5689,"ma3Ġlai2":5690,"Ġren4":5691,"bao4Ġfa1Ġ":5692,"nv3Ġer2Ġ":5693,"ĠINSEE":5694,"ĠO":5695,"ĠĠĠT":5696,"zong3Ġli3Ġ":5697,"Ġzu3":5698,"quan2Ġqiu2Ġ":5699,"si1Ġhe2Ġ":5700,"ĠdeĠzhu3Ġ":5701,"Ġdui4Ġyu2Ġ":5702,"sai4Ġzhong1Ġ":5703,"Ġshang4Ġhai3Ġ":5704,"fa1Ġshe4Ġ":5705,"rui4Ġshi4Ġ":5706,"bao1Ġhan2":5707,"nong2Ġye4Ġ":5708,"ĠI":5709,"ĠĠĠM":5710,"ye4Ġwu4Ġ":5711,"lu4Ġjun1Ġ":5712,"tou2Ġzi1Ġ":5713,"wu4Ġzhi4Ġ":5714,"jue2ĠdeĠ":5715,"tĠ":5716,"nai4Ġ":5717,"te4Ġbie2Ġ":5718,"Ġjin4Ġshi4Ġ":5719,"ĠdeĠshi2Ġhou4Ġ":5720,"ĠĠĠG":5721,"ao4Ġlin2Ġpi3Ġke4Ġyun4Ġdong4Ġhui4Ġ":5722,"ĠN":5723,"ge2ĠdeĠ":5724,"Ġzhi4Ġjin1Ġ":5725,"fang1Ġan4Ġ":5726,"si1Ġren2Ġ":5727,"hua4Ġxue2Ġ":5728,"Ġte4Ġbie2":5729,"cha4Ġ":5730,"Ġda4Ġliang4Ġ":5731,"ji2Ġshi4Ġ":5732,"min3Ġ":5733,"Ġni2Ġ":5734,"ke3Ġneng2Ġshi4Ġ":5735,"Ġnian2Ġdu4Ġ":5736,"jin4ĠdeĠ":5737,"Ġzhi1Ġwai4Ġ":5738,"si4Ġshi2Ġ":5739,"qian3Ġ":5740,"cao2Ġ":5741,"fa1Ġdong4Ġ":5742,"lian2Ġjie1Ġ":5743,"Ġgeng4Ġ":5744,"xuan3Ġwei4Ġ":5745,"Ġshe4Ġshi1Ġ":5746,"Ġzheng4Ġshi4Ġ":5747,"Ġwan4Ġren2Ġ":5748,"chu4ĠdeĠ":5749,"tu3Ġer3":5750,"Ġli4Ġsi1Ġ":5751,"bo2Ġte4Ġ":5752,"Ġzong3Ġmian4Ġji1Ġ":5753,"luo2Ġma3":5754,"chuang4Ġli4Ġ":5755,"ĠdeĠli4Ġ":5756,"Ġnian2Ġhou4Ġ":5757,"Ġde2Ġli3Ġ":5758,"guang3Ġchang3Ġ":5759,"lian2Ġhe2Ġguo2Ġ":5760,"ji2Ġshi2Ġ":5761,"geng1Ġming2Ġwei4Ġ":5762,"zao3Ġnian2Ġ":5763,"xiao4Ġli4Ġ":5764,"qi4ĠdeĠ":5765,"biao3Ġyan3Ġ":5766,"0Ġ":5767,"yi2Ġshi4Ġ":5768,"reng2Ġran2Ġ":5769,"Ġjun1Ġzai4Ġ":5770,"fang1Ġmian4":5771,"jue2Ġding4":5772,"Ġzhen1Ġ":5773,"Ġgai1Ġsheng3Ġ":5774,"da1Ġ":5775,"zhi4Ġshi4Ġ":5776,"Ġgong1Ġneng2Ġ":5777,"zong3Ġtong3":5778,"Ġren2Ġkou3Ġmi4Ġdu4Ġmei3Ġping2Ġfang1Ġgong1Ġli3Ġ":5779,"Ġren2Ġkou3Ġmi4Ġdu4Ġwei4Ġmei3":5780,"Ġxia4Ġling4Ġshi2Ġ":5781,"Ġxian1Ġ":5782,"you2Ġzheng4Ġbian1Ġma3Ġwei4Ġ":5783,"cha2ĠdeĠshu4Ġju4Ġ":5784,"ĠĠĠbei4Ġ":5785,"Ġju4Ġle4Ġbu4Ġ":5786,"Ġfen1Ġzhong1Ġ":5787,"Ġshi4Ġzhen4Ġbian1Ġma3Ġwei4Ġ":5788,"ĠINSEEĠshi4Ġzhen4Ġbian1Ġma3Ġwei4Ġ":5789,"Ġxiang4":5790,"Ġhan2Ġ":5791,"biao1Ġzhun3":5792,"Ġshe4ĠdeĠ":5793,"xuan3Ġqu1Ġwei4Ġ":5794,"Ġzai4Ġci3Ġ":5795,"Ġbu4Ġguo4":5796,"pai2Ġming2Ġ":5797,"Ġguo2Ġwang2Ġ":5798,"Ġxiao1Ġ":5799,"dong4Ġli4Ġ":5800,"shi2ĠdeĠren2Ġkou3Ġshu4Ġliang4Ġwei4Ġren2Ġ":5801,"2023Ġnian2Ġ":5802,"jie1Ġrang3ĠdeĠshi4Ġzhen4Ġ":5803,"mei3Ġguo2Ġren2Ġkou3Ġpu3Ġcha2ĠdeĠshu4Ġju4Ġ":5804,"jia1Ġli4Ġ":5805,"cong2Ġshi4Ġ":5806,"Ġer2Ġren2Ġkou3Ġmi4Ġdu4Ġwei4Ġmei3":5807,"ge2Ġlan2":5808,"Ġdang1Ġdi4Ġgong4Ġyou3Ġren2Ġkou3Ġ":5809,"fen1Ġlei4Ġ":5810,"jie3Ġjue2Ġ":5811,"nĠ":5812,"zu2ĠdeĠ":5813,"Ġqing1":5814,"da4Ġbu4Ġfen4":5815,"yi1Ġzhong3Ġ":5816,"shi3Ġyong4ĠdeĠ":5817,"ling3Ġyu4Ġ":5818,"Ġhuo4Ġjiu4Ġshi4Ġzhen4Ġ":5819,"ĠĠĠli4Ġ":5820,"he2Ġshi4Ġ":5821,"Ġchu1Ġban3Ġ":5822,"Ġjiang3Ġ":5823,"gou1Ġ":5824,"yun4Ġying2Ġ":5825,"sheng3Ġji2Ġxuan3Ġqu1Ġwei4Ġ":5826,"ji1Ġji2Ġ":5827,"ĠdeĠyi1Ġbu4Ġfen4Ġ":5828,"shi2Ġshi4Ġ":5829,"anĠĠĠ":5830,"er2ĠziĠ":5831,"jiu3Ġnian2Ġ":5832,"zuo4Ġpin3":5833,"xuan3Ġren2Ġ":5834,"gai4Ġnian4Ġ":5835,"Ġkai1Ġshi3Ġ":5836,"xing1ĠdeĠ":5837,"Ġer3Ġde2Ġ":5838,"sheng3Ġhe2Ġ":5839,"Ġjin3Ġguan3Ġ":5840,"jie1Ġshou4":5841,"tiao2Ġyue1Ġ":5842,"fen4Ġwei4Ġfa3Ġguo2Ġ":5843,"Ġgai1Ġsheng3Ġfen4Ġwei4Ġfa3Ġguo2Ġ":5844,"Ġchu1Ġban3":5845,"Ġzhi1Ġxian4Ġ":5846,"tie3Ġdao4Ġ":5847,"Ġdi4Ġsan1":5848,"lian2Ġbang1":5849,"Ġsong4Ġ":5850,"Ġnian2Ġchu1Ġ":5851,"Ġer2Ġqie3Ġ":5852,"Ġjun1Ġdui4Ġ":5853,"guang3Ġzhou1Ġ":5854,"Ġbu4Ġjiu3Ġ":5855,"alĠĠĠ":5856,"ao4Ġda4Ġli4Ġ":5857,"Ġwei4Ġshi2Ġ":5858,"Ġxi1Ġla4":5859,"fu2Ġjian4Ġ":5860,"Ġying1Ġchi3Ġ":5861,"Ġdui4":5862,"Ġhe2Ġbing4":5863,"zhan4Ġzheng1":5864,"Ġyou3Ġren2Ġ":5865,"pai2Ġming2":5866,"zhan4Ġshi4Ġ":5867,"jin3Ġbiao1Ġsai4Ġ":5868,"zui4Ġhou4Ġyi1Ġ":5869,"qun2Ġdao3Ġ":5870,"lai2Ġyuan2Ġ":5871,"te4Ġbie2":5872,"Ġta1Ġbei4Ġ":5873,"jing3Ġcha2Ġ":5874,"xing1Ġjian4Ġ":5875,"Ġchu1Ġsheng1Ġyu2Ġ":5876,"Ġruo4Ġ":5877,"ba1Ġnian2Ġ":5878,"she4Ġli4Ġ":5879,"reng2Ġran2":5880,"Ġgeng4":5881,"di4Ġyi1Ġ":5882,"Ġri4ĠdeĠ":5883,"Ġyi4Ġwei4Ġ":5884,"lun2Ġdun1":5885,"ben3ĠdeĠ":5886,"wei3Ġhui4Ġ":5887,"Ġyou2Ġxi4":5888,"Ġãģ":5889,"Ġren2Ġgong1Ġ":5890,"xue2Ġxiao4":5891,"shan3Ġxi1Ġ":5892,"Ġzhi4Ġyu2Ġ":5893,"lie4Ġwei4Ġ":5894,"Ġbu4Ġming2Ġ":5895,"tong1Ġchang2":5896,"mu3Ġsi1Ġ":5897,"Ġming2Ġchao2Ġ":5898,"yun4Ġxing2Ġ":5899,"ceng2Ġzai4Ġ":5900,"Ġjiao1Ġ":5901,"mei3Ġzhou1Ġ":5902,"tian1Ġwen2Ġ":5903,"cai3Ġyong4":5904,"Ġdi4Ġsi4Ġ":5905,"Ġfan4Ġ":5906,"ĠJ":5907,"yan2Ġjiu1Ġsuo3Ġ":5908,"guang3Ġfan4Ġ":5909,"ao4Ġsi1Ġ":5910,"ang2Ġ":5911,"Ġxian4Ġlu4Ġ":5912,"meng2Ġgu3Ġ":5913,"gan3Ġran3Ġ":5914,"rou4Ġ":5915,"Ġshi4Ġbu4Ġ":5916,"yi3Ġji2Ġ":5917,"Ġhe2Ġping2Ġ":5918,"ĠĠĠta1":5919,"hua4Ġshi2Ġ":5920,"jia1Ġru4Ġ":5921,"zhan4Ġhou4Ġ":5922,"Ġshi3Ġyong4Ġ":5923,"nan2Ġji2Ġ":5924,"shuo1Ġfa3Ġ":5925,"Ġrang4":5926,"xi1Ġzai4Ġ":5927,"Ġjin4ĠdeĠ":5928,"Ġren4Ġwei2":5929,"Ġji1Ġben3Ġ":5930,"Ġfei4Ġ":5931,"Ġju4Ġli2Ġ":5932,"Ġdi2Ġ":5933,"mo2Ġxing2Ġ":5934,"Ġcan1Ġ":5935,"guo4Ġcheng2Ġzhong1Ġ":5936,"ĠdeĠdi4Ġfang1Ġ":5937,"ĠdeĠxin1Ġ":5938,"ji4Ġshu4Ġ":5939,"Ġda2Ġ":5940,"Ġjian4Ġyi4Ġ":5941,"Ġta1Ġyu3Ġ":5942,"yun4Ġshu1Ġ":5943,"gou4Ġmai3":5944,"Ġshou4":5945,"wan2Ġquan2":5946,"wu3Ġshi2Ġ":5947,"Ġke4ĠdeĠ":5948,"ren4Ġwei2Ġshi4Ġ":5949,"Ġchen2":5950,"Ġzai4Ġyi4Ġ":5951,"Ġge4Ġdi4Ġ":5952,"duo1Ġge4Ġ":5953,"ban4Ġgong1Ġshi4Ġ":5954,"Ġ10Ġyue4Ġ":5955,"tong2Ġyi1Ġ":5956,"wai4Ġguo2Ġ":5957,"Ġzong3Ġren2Ġkou3Ġ":5958,"xue2Ġshi4Ġ":5959,"shang4Ġyou3Ġ":5960,"yuan2Ġwei4Ġ":5961,"zhao3Ġ":5962,"jia4Ġzhi2Ġ":5963,"gong1Ġzuo4Ġ":5964,"Ġzi4Ġji3Ġ":5965,"ni2Ġsi1Ġ":5966,"Ġzai4Ġzhong1Ġguo2Ġ":5967,"Ġai1":5968,"quan1Ġ":5969,"Ġxing1Ġ":5970,"ĠĠĠH":5971,"xue2Ġxi2Ġ":5972,"yang3Ġhua4Ġ":5973,"fei1Ġxing2Ġ":5974,"Ġjie4":5975,"xuan1Ġchuan2Ġ":5976,"mo4Ġxi1Ġ":5977,"Ġyi1Ġxie1":5978,"xuan3Ġze2":5979,"cheng1Ġwei4Ġ":5980,"xiao1Ġxi1Ġ":5981,"Ġxian4Ġren2Ġ":5982,"ĠdeĠguan1Ġ":5983,"Ġchang3Ġ":5984,"hai3Ġjun1":5985,"biao1Ġzhi4Ġ":5986,"Ġbu4Ġmen2Ġ":5987,"zhi4Ġwei4Ġ":5988,"qi3Ġlai2Ġ":5989,"Ġke1":5990,"you2Ġxi4":5991,"huan2Ġjing4":5992,"ma2Ġ":5993,"fu4Ġze2Ġguan3Ġxia2Ġ":5994,"Ġwei2Ġzhu3Ġ":5995,"ĠĠĠyi3Ġ":5996,"gou4Ġcheng2Ġ":5997,"shi1ĠdeĠ":5998,"andĠĠĠ":5999,"che1Ġliang4Ġ":6000,"zhe2Ġxue2Ġ":6001,"Ġan4Ġ":6002,"xi4Ġbao1Ġ":6003,"Ġda3Ġ":6004,"keng1Ġ":6005,"Ġji4Ġhua4":6006,"si1Ġzai4Ġ":6007,"Ġlin2":6008,"zheng4ĠdeĠ":6009,"dang3ĠdeĠ":6010,"an1Ġquan2":6011,"bi3Ġde2Ġ":6012,"Ġdao4Ġlu4Ġ":6013,"jie4Ġquan2Ġguo2Ġ":6014,"chao2Ġxian1Ġ":6015,"yin2Ġhang2":6016,"Ġhua1Ġ":6017,"ĠĠĠK":6018,"Ġdou1Ġ":6019,"xi1ĠdeĠ":6020,"Ġer4":6021,"Ġshi4Ġmei3Ġguo2Ġ":6022,"Ġshi4Ġtu2Ġ":6023,"zhong1Ġzai4Ġ":6024,"Ġji4Ġnian4Ġ":6025,"zhu3Ġjue2Ġ":6026,"an4ĠdeĠ":6027,"si4Ġchuan1Ġ":6028,"bu4Ġwei4Ġ":6029,"Ġji2Ġqi2Ġ":6030,"ĠĠĠD":6031,"peng2Ġyou3Ġ":6032,"1999Ġnian2Ġ":6033,"chi2Ġxu4":6034,"Ġfan3Ġ":6035,"ai4Ġer3Ġ":6036,"ĠĠĠyou3Ġ":6037,"ĠĠĠhe2Ġ":6038,"Ġgong1Ġgong4Ġ":6039,"Ġzhi1Ġchi2":6040,"kang4Ġyi4Ġ":6041,"yue1Ġwei4Ġ":6042,"tai4Ġguo2Ġ":6043,"Ġer2Ġqie3":6044,"jie1Ġwei4Ġ":6045,"xuan3Ġqu1Ġ":6046,"Ġtai2Ġwan1":6047,"shi2Ġzai4Ġ":6048,"yi4Ġhe2Ġ":6049,"hui4Ġyou3Ġ":6050,"sheng1Ġwu4Ġ":6051,"xiao4Ġzhang3Ġ":6052,"wen2Ġjian4Ġ":6053,"Ġbei4Ġer3Ġ":6054,"ge1Ġqu3":6055,"shou1Ġru4Ġ":6056,"Ġjie2Ġzhi4Ġ":6057,"biao1Ġwei4Ġ":6058,"fo2Ġjiao4Ġ":6059,"rong2Ġyi4Ġ":6060,"ao4Ġyun4":6061,"ĠĠĠin":6062,"ĠĠĠshi2Ġ":6063,"ĠĠĠche1Ġzhan4Ġ":6064,"Ġsheng1Ġwu4Ġ":6065,"suo3Ġshu3ĠdeĠsheng3Ġji2Ġxuan3Ġqu1Ġwei4Ġ":6066,"Ġqiang2Ġ":6067,"yan3ĠdeĠ":6068,"bian1Ġji2Ġ":6069,"qian4Ġ":6070,"Ġzhan4Ġzheng1":6071,"si1Ġdi4Ġ":6072,"ye3Ġyou3Ġ":6073,"zheng4Ġce4Ġ":6074,"qian2Ġwang3":6075,"ji4Ġzhong1Ġ":6076,"mi3Ġer3Ġ":6077,"yu3Ġyan2Ġ":6078,"Ġruo4":6079,"jun1Ġdui4Ġ":6080,"jie3Ġfang4Ġjun1Ġ":6081,"ao4Ġyun4Ġ":6082,"Ġyou4Ġcheng1Ġ":6083,"tiao3Ġzhan4Ġ":6084,"Ġyuan2Ġzhu4Ġ":6085,"Ġchu1ĠleĠ":6086,"ĠĠĠR":6087,"Ġzhi4Ġdu4Ġ":6088,"Ġyu4":6089,"Ġyan3Ġ":6090,"gao1Ġyu2Ġ":6091,"24Ġ":6092,"wu2Ġren2Ġ":6093,"Ġshi4Ġyi2Ġge4":6094,"Ġti2Ġ":6095,"Ġhuo4Ġshi4Ġ":6096,"gan3Ġdao4Ġ":6097,"nan2Ġxing4Ġ":6098,"Ġyi3Ġshang4Ġ":6099,"man4Ġhua4Ġ":6100,"iĠ":6101,"gai3Ġbian4Ġ":6102,"ĠĠĠ2021":6103,"Ġtong1Ġguo4Ġ":6104,"ma3Ġli4Ġ":6105,"Ġdi4Ġxia4Ġ":6106,"Ġque4":6107,"fo2Ġ":6108,"jie1Ġrang3Ġ":6109,"pei4Ġhe2Ġ":6110,"Ġzi4":6111,"kun1Ġ":6112,"tou2Ġru4Ġ":6113,"jia1Ġren2Ġ":6114,"wen3Ġding4Ġ":6115,"1998Ġnian2Ġ":6116,"zhi3Ġhui1":6117,"Ġzhong1Ġyou3Ġ":6118,"Ġzai4Ġbu4Ġ":6119,"ti2Ġming2Ġ":6120,"da2Ġcheng2Ġ":6121,"Ġyi1Ġzhong3Ġ":6122,"ru3Ġ":6123,"mo4Ġsi1Ġ":6124,"ne4Ġ":6125,"fen1Ġzhi1Ġ":6126,"zha1Ġ":6127,"zai4Ġshi4Ġ":6128,"tong2ĠdeĠ":6129,"jian3Ġjie4Ġ":6130,"Ġhu4Ġ":6131,"shen1Ġfen4":6132,"tian1Ġzhu3Ġjiao4Ġ":6133,"Ġzhong1Ġguo2Ġren2Ġmin2Ġ":6134,"biao3Ġming2Ġ":6135,"duo2ĠdeĠ":6136,"ting2Ġzhi3Ġ":6137,"Ġhai2Ġyou3Ġ":6138,"Ġer2Ġren2Ġkou3Ġmi4Ġdu4Ġwei4Ġmei3Ġping2Ġfang1Ġqian1Ġmi3Ġ":6139,"Ġping2":6140,"xiao3ĠdeĠ":6141,"zheng4Ġshi2Ġ":6142,"ce4ĠdeĠ":6143,"zao4ĠdeĠ":6144,"Ġwei4Ġfu2":6145,"juan1Ġ":6146,"Ġli2Ġ":6147,"Ġzhuan1Ġ":6148,"que4Ġzhen3":6149,"2024Ġnian2Ġ":6150,"ĠĠĠ2020":6151,"Ġji1Ġbai4Ġ":6152,"ban4Ġdao3Ġ":6153,"Ġpi2Ġ":6154,"ĠĠĠyuan2Ġ":6155,"guo2Ġzai4Ġ":6156,"wu3Ġqi4Ġ":6157,"ta1ĠmenĠ":6158,"Ġbo1":6159,"ĠĠĠL":6160,"Ġjia1Ġna2Ġda4Ġ":6161,"Ġping2Ġfang1Ġmi3Ġ":6162,"zi4Ġzhi4Ġqu1Ġ":6163,"Ġ8Ġyue4Ġ":6164,"la1Ġke4Ġ":6165,"lei4ĠdeĠ":6166,"ĠĠĠzi4Ġ":6167,"19Ġ":6168,"hun4Ġhe2Ġ":6169,"Ġzi4Ġyou2Ġ":6170,"Ġzai4Ġmei3Ġguo2Ġ":6171,"Ġshi2Ġyan4":6172,"zui4Ġzao3":6173,"ju3Ġren2Ġ":6174,"Ġbian1Ġ":6175,"tuan2Ġdui4Ġ":6176,"di4Ġshi4Ġ":6177,"ke3Ġneng2Ġhui4Ġ":6178,"ya1Ġli4Ġ":6179,"yĠ":6180,"quan2Ġbu4Ġ":6181,"Ġsu1":6182,"ji4Ġwei4Ġ":6183,"Ġer2Ġbei4Ġ":6184,"Ġji4Ġcheng2Ġ":6185,"gong4Ġxian4Ġ":6186,"ji4Ġhua4Ġ":6187,"xi1Ġban1Ġya2Ġ":6188,"Ġshi2Ġshi1Ġ":6189,"jie2Ġmu4":6190,"Ġjie2Ġguo3Ġ":6191,"XĠ":6192,"Ġdi4Ġtie3Ġ":6193,"sheng1Ġchan3":6194,"lai2Ġshuo1Ġ":6195,"li4Ġbu4Ġ":6196,"zhe4Ġzhong3Ġ":6197,"chan3Ġye4Ġ":6198,"Ġwang2":6199,"Ġbei4":6200,"xing2Ġdong4Ġ":6201,"fan1Ġyi4Ġ":6202,"Ġhai2":6203,"Ġqi1Ġjian1Ġ":6204,"Ġchu1Ġren4Ġ":6205,"Ġchuan2Ġ":6206,"shao3Ġshu4Ġ":6207,"cao1Ġzuo4Ġ":6208,"jian3Ġcha2Ġ":6209,"ban4Ġshi4Ġ":6210,"jia1Ġna2Ġda4Ġ":6211,"ying3Ġpian4Ġ":6212,"chong1Ġtu1Ġ":6213,"Ġzai4Ġda4Ġ":6214,"Ġta1Ġyu2Ġ":6215,"ji4Ġnian4Ġ":6216,"bao3Ġhu4":6217,"Ġmen2Ġ":6218,"an4Ġjian4Ġ":6219,"chong2Ġjian4Ġ":6220,"ampĠ":6221,"shou3ĠdeĠ":6222,"Ġmu4":6223,"Ġjian4Ġzhu4":6224,"Ġshi2Ġfen1Ġ":6225,"Ġan1":6226,"Ġshi4Ġyi3Ġ":6227,"xing2Ġwei2Ġ":6228,"xin1Ġli3Ġ":6229,"ceng2Ġjing1Ġ":6230,"gong4Ġtong2":6231,"Ġshi3ĠdeĠ":6232,"dong4ĠdeĠ":6233,"kong1Ġjun1Ġ":6234,"Ġzhi3Ġyou3Ġ":6235,"ban4Ġgong1Ġ":6236,"Ġxian4Ġwei4Ġ":6237,"zhe4Ġge":6238,"qi1Ġjian1":6239,"da4Ġbu4Ġfen4Ġ":6240,"Ġzhi4Ġzuo4":6241,"jie2Ġgou4":6242,"nan4Ġ":6243,"Ġyi4Ġyou3Ġ":6244,"Ġli4Ġru2":6245,"lian2Ġsai4":6246,"lian2Ġxu4Ġ":6247,"jue2Ġse4":6248,"ji2Ġzai4Ġ":6249,"shen1ĠdeĠ":6250,"yang1Ġ":6251,"Ġhe2Ġbei3Ġ":6252,"Ġwei4Ġneng2Ġ":6253,"mei2Ġti3":6254,"zhu3Ġti2Ġ":6255,"xiang1Ġdui4Ġ":6256,"fen1Ġbie2Ġ":6257,"jian3Ġshao3Ġ":6258,"Ġhe2Ġliu2Ġ":6259,"gong1Ġyuan2Ġ":6260,"tou4Ġ":6261,"tong4Ġ":6262,"Ġyou4Ġming2Ġ":6263,"Ġyi3Ġse4Ġ":6264,"fen4Ġzi3Ġ":6265,"xian4Ġdai4Ġ":6266,"Ġshi4Ġyi1Ġming2Ġ":6267,"xiao3Ġzu3Ġ":6268,"Ġti3Ġzhang3Ġ":6269,"ĠĠĠ2019":6270,"Ġxi1Ġwang4Ġ":6271,"ying4ĠdeĠ":6272,"wei3Ġyuan2Ġhui4":6273,"dĠ":6274,"ming4Ġming2Ġwei4Ġ":6275,"ou1Ġyuan2Ġ":6276,"Ġgong1Ġsi1ĠdeĠ":6277,"Ġliang3Ġren2Ġ":6278,"yi4Ġzai4Ġ":6279,"dong4Ġji1Ġ":6280,"da3Ġji1Ġ":6281,"ĠdeĠdi4Ġqu1Ġ":6282,"zhan3Ġshi4Ġ":6283,"zhuo2Ġ":6284,"Ġzhi2Ġzhi4Ġ":6285,"Ġshe4Ġqu1Ġ":6286,"Ġji4Ġxu4":6287,"gui1Ġmo2":6288,"shou3Ġwei4Ġ":6289,"xun2Ġhui2Ġ":6290,"Ġsi1Ġling4":6291,"shu4Ġliang4Ġ":6292,"xia4Ġwu3Ġ":6293,"1996Ġnian2Ġ":6294,"lu4Ġdi4Ġmian4Ġji1Ġwei4Ġ":6295,"yong4Ġlai2Ġ":6296,"shui3Ġyu4Ġmian4Ġji1Ġwei4Ġ":6297,"Ġli4Ġji2Ġ":6298,"qi3Ġyong4Ġ":6299,"Ġzhen4Ġ":6300,"lei4Ġxing2Ġ":6301,"ren4Ġwu4Ġ":6302,"Ġguo2Ġli4Ġ":6303,"Ġshi2Ġzi4Ġ":6304,"Ġyi1Ġci4Ġ":6305,"duo1Ġci4Ġ":6306,"ping2Ġjia4Ġ":6307,"bu4Ġshi4Ġ":6308,"Ġling2Ġ":6309,"Ġlie4Ġ":6310,"Ġ2009Ġnian2Ġ":6311,"ĠĠĠ2018":6312,"ĠdeĠshou3Ġ":6313,"Ġfu4Ġjin4Ġ":6314,"ju3Ġxing2ĠdeĠ":6315,"fu2Ġhe2Ġ":6316,"ti3Ġxi4Ġ":6317,"Ġwang3Ġ":6318,"wai4Ġjiao1Ġ":6319,"Ġzhe4Ġjiang1Ġ":6320,"eĠ":6321,"ĠĠĠE":6322,"1997Ġnian2Ġ":6323,"Ġda4Ġshi3Ġ":6324,"Ġbian4":6325,"zuo4Ġjia1Ġ":6326,"Ġshe4Ġbei4Ġ":6327,"liang3Ġge4":6328,"mei3Ġnian2Ġ":6329,"Ġli4Ġfa3Ġ":6330,"Ġxiao4Ġ":6331,"zhu4Ġyi4Ġ":6332,"ĠampĠ":6333,"dian4Ġli4Ġ":6334,"de2Ġdao4Ġ":6335,"Ġsi1Ġling4Ġ":6336,"Ġcong2Ġer2Ġ":6337,"fa3Ġlv4":6338,"kui2Ġ":6339,"jiao4Ġtang2Ġ":6340,"Ġdang1Ġzhong1Ġlu4Ġdi4Ġmian4Ġji1Ġwei4Ġ":6341,"Ġguang3Ġ":6342,"zhi4Ġhe2Ġ":6343,"Ġer2Ġshui3Ġyu4Ġmian4Ġji1Ġwei4Ġ":6344,"qu3Ġxiao1Ġ":6345,"jie2Ġzhi4Ġ":6346,"sheng1Ġhuo2":6347,"fu2Ġwu4":6348,"TĠ":6349,"zhi2ĠdeĠ":6350,"lun2Ġdun1Ġ":6351,"ĠĠĠxi1Ġ":6352,"dian1Ġ":6353,"xue2Ġzhe3Ġ":6354,"ĠĠĠ2022":6355,"Ġ11":6356,"shui3Ġping2Ġ":6357,"hai3Ġyu4Ġ":6358,"nei4Ġrong2":6359,"Ġzhi1Ġshi2Ġ":6360,"zhu4Ġzuo4Ġ":6361,"Ġ9Ġyue4Ġ":6362,"ying1Ġge2Ġlan2Ġ":6363,"Ġda4Ġchen2Ġ":6364,"Ġcheng2Ġli4Ġyu2Ġ":6365,"ĠĠĠgai4Ġ":6366,"lv3Ġke4Ġ":6367,"tuo4Ġ":6368,"zhi4Ġzai4Ġ":6369,"jie1Ġjin4Ġ":6370,"Ġxin1Ġwen2Ġ":6371,"chang2Ġqi1Ġ":6372,"Ġwei2Ġer3Ġ":6373,"ling4Ġwai4Ġ":6374,"ĠĠĠxing2Ġzheng4Ġqu1Ġhua4Ġ":6375,"ren4Ġming4":6376,"Ġjia1Ġshang4Ġ":6377,"yuan4Ġzhang3Ġ":6378,"bi3Ġsai4Ġzhong1Ġ":6379,"dian3ĠdeĠ":6380,"ji3Ġyu3Ġ":6381,"xi1Ġyang2Ġ":6382,"Ġyi3Ġhou4Ġ":6383,"Ġjun1Ġwei4Ġ":6384,"Ġgui1Ġ":6385,"min2ĠdeĠ":6386,"shuo4Ġshi4Ġ":6387,"Ġde2ĠdeĠ":6388,"wei1Ġlian2Ġ":6389,"wei3Ġshu1Ġji4Ġ":6390,"Ġhui2Ġ":6391,"Ġyi4Ġren2Ġ":6392,"jia1Ġhe2Ġ":6393,"tai4Ġyang2Ġ":6394,"1992Ġnian2Ġ":6395,"Ġzhong1ĠdeĠ":6396,"dao3Ġyu3Ġ":6397,"pi1Ġzhun3Ġ":6398,"dai4Ġyou3Ġ":6399,"heng1Ġli4Ġ":6400,"Ġshi4Ġyi1Ġwei4Ġ":6401,"Ġxue2Ġxiao4":6402,"Ġwei4Ġfu2Ġqi2Ġyu2Ġ":6403,"Ġ7Ġyue4Ġ":6404,"guo1Ġ":6405,"gao1Ġsu4":6406,"can1Ġyu4":6407,"ci4Ġshi4Ġjie4Ġda4Ġzhan4Ġ":6408,"Ġshi4Ġqu1Ġ":6409,"fa1Ġchu1Ġ":6410,"ĠW":6411,"xing4Ġzhi4Ġ":6412,"yan3Ġchang4Ġhui4Ġ":6413,"quan4Ġ":6414,"Ġyuan2Ġyin1Ġ":6415,"PĠ":6416,"ĠĠĠyi4Ġ":6417,"tao3Ġlun4Ġ":6418,"ĠformulaĠ":6419,"tui4Ġyi4Ġ":6420,"Ġtuo1Ġ":6421,"bi3Ġya4Ġ":6422,"feng1Ġbao4Ġ":6423,"Ġmeng2Ġ":6424,"ji1Ġzhi4Ġ":6425,"xin4Ġhao4Ġ":6426,"ya4ĠdeĠ":6427,"neng2Ġgou4":6428,"shou4Ġshang1Ġ":6429,"Ġjian4Ġcheng2Ġ":6430,"Ġci2Ġ":6431,"ĠĠĠ2017":6432,"wei4Ġzhi4Ġ":6433,"lian2Ġxi4Ġ":6434,"Ġru2Ġguo3":6435,"Ġhuo3Ġ":6436,"ru2Ġhe2Ġ":6437,"bi4Ġxu1":6438,"Ġti3Ġzhang3Ġke3Ġda2Ġ":6439,"Ġer3Ġte4Ġ":6440,"bao3Ġchi2Ġ":6441,"zhuan1Ġjia1Ġ":6442,"fu1Ġren2Ġ":6443,"jiang3Ġxiang4Ġ":6444,"cha1Ġyi4Ġ":6445,"Ġjing1Ġguo4Ġ":6446,"Ġxuan1Ġbu4Ġ":6447,"Ġji1Ġgou4":6448,"Ġzai4Ġyu2Ġ":6449,"ĠdeĠyi1Ġzuo4Ġ":6450,"Ġtong1Ġchang2Ġ":6451,"Ġgai3":6452,"shou4Ġyu3Ġ":6453,"wo1Ġ":6454,"Ġ2010Ġnian2Ġ":6455,"wang3Ġlu4Ġ":6456,"jing1Ġying2Ġ":6457,"Ġ12Ġyue4Ġ":6458,"Ġmin2Ġguo2Ġ":6459,"gong4Ġchan3Ġdang3":6460,"tan1Ġ":6461,"dong1Ġxi1Ġ":6462,"Ġke4Ġli3Ġ":6463,"Ġsheng1Ġchan3Ġ":6464,"Ġbu4Ġli3Ġ":6465,"dian4Ġtai2Ġ":6466,"Ġ21Ġ":6467,"Ġyi3Ġxia4":6468,"miao3Ġ":6469,"cun1Ġzhuang1Ġ":6470,"Ġ11Ġyue4Ġ":6471,"lai2Ġdao4Ġ":6472,"sui2Ġhou4Ġ":6473,"kao4Ġ":6474,"Ġzhi1Ġzhong1Ġ":6475,"Ġzhu1":6476,"bi4Ġye4Ġyu2Ġ":6477,"xun4Ġlian4":6478,"cuo4Ġshi1Ġ":6479,"fa3ĠdeĠ":6480,"Ġyi4Ġshu4":6481,"zong3Ġdu1Ġ":6482,"Ġchang2":6483,"zhu4Ġming2ĠdeĠ":6484,"Ġshi4Ġyou3Ġ":6485,"Ġjian4Ġdui4Ġ":6486,"kuai4Ġsu4Ġ":6487,"zhu4Ġyu2Ġ":6488,"she2Ġ":6489,"1994Ġnian2Ġ":6490,"Ġshi2Ġren4Ġ":6491,"Ġyi1Ġsheng1Ġ":6492,"pĠ":6493,"gu1Ġji4Ġ":6494,"hai2ĠziĠ":6495,"Ġrang4Ġ":6496,"Ġer3Ġhe2Ġ":6497,"tai4Ġping2Ġyang2Ġ":6498,"Ġjie2Ġmu4Ġ":6499,"ĠĠĠ2016":6500,"yan2Ġge2Ġ":6501,"tong2Ġyi4Ġ":6502,"sheng1Ġwei4Ġ":6503,"dao3Ġshi4Ġ":6504,"lang4Ġ":6505,"cheng2Ġgong1Ġ":6506,"leĠda4Ġ":6507,"Ġfang1Ġ":6508,"fa1Ġdian4Ġ":6509,"shang3Ġ":6510,"Ġshang4Ġhai3":6511,"zhan4Ġzhong1Ġ":6512,"ĠdeĠqian2Ġ":6513,"Ġren2Ġlei4Ġ":6514,"si4Ġge4Ġ":6515,"jie2Ġshu4Ġhou4Ġ":6516,"Ġde2Ġyi3Ġ":6517,"pu3Ġtong1Ġ":6518,"Ġxiang3":6519,"ĠdeĠshi2Ġqu1Ġwei4Ġ":6520,"Ġzheng4Ġce4Ġ":6521,"Ġsheng4":6522,"Ġming2Ġcheng1Ġ":6523,"che4Ġxiao1Ġ":6524,"yu3Ġzhong1Ġ":6525,"Ġyin4Ġdu4Ġ":6526,"ĠĠĠzhi4Ġ":6527,"xi4Ġlie4":6528,"Ġyang2":6529,"Ġtw":6530,"Ġhao2Ġmi3Ġ":6531,"tou2Ġpiao4Ġ":6532,"ĠTheĠĠĠ":6533,"di3Ġda2Ġ":6534,"fa1ĠdeĠ":6535,"Ġjin3Ġguan3":6536,"erĠ":6537,"ju2Ġzhang3Ġ":6538,"ĠdeĠshi2Ġjian1Ġ":6539,"xĠ":6540,"Ġqi1":6541,"1995Ġnian2Ġ":6542,"zhe4Ġxie1":6543,"geng4Ġjia1Ġ":6544,"Ġwei4Ġsheng1Ġ":6545,"yue4Ġtai2Ġ":6546,"Ġping2Ġtai2Ġ":6547,"fan3Ġhui2Ġ":6548,"Ġqian2":6549,"guang3Ġxi1Ġ":6550,"zhai2Ġ":6551,"fei3Ġ":6552,"hansĠ":6553,"kuo4Ġda4Ġ":6554,"ha1Ġer3Ġ":6555,"zu3Ġcheng2ĠdeĠ":6556,"ĠhansĠ":6557,"yi4Ġzhong1Ġ":6558,"deng1Ġlu4Ġ":6559,"rong2Ġyu4Ġ":6560,"ĠtwĠ":6561,"Ġcheng1":6562,"yue4Ġshi2Ġ":6563,"zhong4Ġda4Ġ":6564,"lu4Ġyi4Ġ":6565,"Ġsa4Ġ":6566,"Ġshi4Ġyan3Ġ":6567,"que4Ġding4Ġ":6568,"zhi3Ġzai4Ġ":6569,"ye4Ġhou4Ġ":6570,"Ġbu4Ġke3Ġ":6571,"Ġbing4Ġmei2Ġyou3Ġ":6572,"Ġci3Ġshi2Ġ":6573,"ĠĠĠdeĠshi2Ġ":6574,"Ġchuang4Ġ":6575,"ĠĠĠandĠĠĠ":6576,"Ġa1Ġer3Ġ":6577,"jin4Ġxing2":6578,"Ġlv4Ġ":6579,"Ġmu4Ġqian2":6580,"ĠĠĠ2023":6581,"wan3Ġshang4Ġ":6582,"jiao4Ġqu1Ġ":6583,"qi4Ġche1Ġ":6584,"Ġxia4":6585,"ming2Ġcheng1Ġ":6586,"ya4Ġli4Ġshan1":6587,"ĠÃ":6588,"wu4Ġzhong3":6589,"guan1Ġzhong4Ġ":6590,"Ġxue2Ġxi2Ġ":6591,"gai3Ġbian1":6592,"Ġguo2Ġwu4Ġ":6593,"Ġzhi1Ġyuan2Ġ":6594,"yuan4ĠdeĠ":6595,"xiao1Ġshou4Ġ":6596,"FĠ":6597,"Ġgong1Ġye4":6598,"ba1Ġxi1Ġ":6599,"Ġhuo4Ġzhe3Ġ":6600,"ĠĠĠ2014":6601,"ru4Ġkou3Ġ":6602,"xiang1Ġtong2Ġ":6603,"ba1Ġli2Ġ":6604,"po4Ġhuai4Ġ":6605,"ban3ĠdeĠ":6606,"xue2Ġhe2Ġ":6607,"sun3Ġshi1Ġ":6608,"biao3Ġxian4":6609,"Ġshi2Ġxian4Ġ":6610,"xi1Ġla4":6611,"fa1Ġxian4ĠleĠ":6612,"kan4Ġdao4Ġ":6613,"pan1Ġ":6614,"qi1Ġzi3Ġ":6615,"guan1Ġzhu4Ġ":6616,"Ġceng2Ġren4Ġ":6617,"Ġzhong3Ġ":6618,"nai3Ġ":6619,"Ġbing4Ġyi3Ġ":6620,"SĠ":6621,"qiang3Ġ":6622,"xiong1Ġya2":6623,"Ġ6Ġyue4Ġ":6624,"ĠĠĠsuo3Ġshu3ĠdeĠsheng3Ġji2Ġxuan3Ġqu1Ġwei4Ġ":6625,"ĠĠĠdeĠyou2Ġzheng4Ġbian1Ġma3Ġwei4Ġ":6626,"ĠĠĠyu3Ġjie1Ġrang3ĠdeĠshi4Ġzhen4Ġ":6627,"ĠĠĠyu2Ġshi2ĠdeĠren2Ġkou3Ġshu4Ġliang4Ġwei4Ġren2Ġ":6628,"ĠĠĠdeĠshi2Ġqu1Ġwei4Ġ":6629,"zhuang1Ġzhi4Ġ":6630,"zhi2Ġwei4Ġ":6631,"Ġ2011":6632,"ĠĠĠji1Ġ":6633,"ji4Ġhe2Ġ":6634,"Ġzuo4Ġyong4Ġ":6635,"Ġquan2Ġzhang3Ġ":6636,"tu2Ġzhong1Ġ":6637,"su1Ġlian2":6638,"can2Ġ":6639,"kai1Ġfang4":6640,"xu1Ġqiu2Ġ":6641,"Ġzhi1Ġming2Ġ":6642,"lin2ĠdeĠ":6643,"Ġsi1Ġla1Ġ":6644,"shi2Ġwei4Ġ":6645,"Ġnian2Ġqing1":6646,"heng2Ġxing1Ġ":6647,"Ġquan2Ġbu4Ġ":6648,"tui1Ġdong4Ġ":6649,"wei2ĠdeĠ":6650,"Ġshi4Ġzhang3Ġ":6651,"guan3Ġli3":6652,"Ġ2019":6653,"ru4Ġqin1Ġ":6654,"ru2Ġci3Ġ":6655,"Ġtian1":6656,"Ġhk":6657,"Ġjia1Ġting2Ġ":6658,"tai2Ġbei3Ġ":6659,"yi2Ġdong4Ġ":6660,"yu3Ġhe2Ġ":6661,"fu4ĠdeĠ":6662,"Ġyi1Ġdai4Ġ":6663,"jin4Ġshi4Ġ":6664,"Ġchu1Ġxian4Ġzai4Ġ":6665,"zhe4Ġjiang1Ġ":6666,"Ġzhuan3Ġ":6667,"ĠĠĠ2015":6668,"mu3Ġqin1Ġ":6669,"xiong1Ġya2Ġli4Ġ":6670,"mu4Ġsi1Ġ":6671,"1991Ġnian2Ġ":6672,"Ġren2Ġshu4Ġ":6673,"fu4Ġqin1Ġ":6674,"Ġdan4Ġta1Ġ":6675,"Ġxi1Ġban1Ġya2":6676,"min2Ġzu2":6677,"Ġgan1Ġ":6678,"tai2ĠdeĠ":6679,"Ġdi4Ġqiu2Ġ":6680,"Ġjin3":6681,"Ġmian4Ġ":6682,"Ġduan4Ġ":6683,"Ġshi4Ġzhi3Ġ":6684,"Ġche1Ġzhan4Ġ":6685,"zui4Ġchu1Ġ":6686,"ti2Ġsheng1Ġ":6687,"fei1Ġjian4Ġzhi4Ġ":6688,"ĠĠĠ2013":6689,"yĠĠĠ":6690,"Ġ5Ġyue4Ġ":6691,"xun4Ġsu4Ġ":6692,"ĠhkĠ":6693,"Ġsi1Ġtan3Ġ":6694,"shu4Ġxue2Ġ":6695,"22Ġ":6696,"guang3Ġbo1":6697,"Ġwei4Ġhe2Ġ":6698,"Ġbing4Ġli4Ġ":6699,"Ġcheng2Ġwei2ĠleĠ":6700,"CĠ":6701,"niu3Ġyue1Ġ":6702,"ĠV":6703,"Ġjing1":6704,"fa1Ġxing2":6705,"Ġjin4Ġru4":6706,"te4Ġli3Ġ":6707,"kang4Ġri4Ġ":6708,"Ġhe2Ġxin1Ġ":6709,"Ġge4Ġzhong3Ġ":6710,"Ġji2Ġqi2":6711,"fa1Ġsheng1":6712,"zong3Ġbu4Ġ":6713,"shou1Ġlu4Ġ":6714,"gao3Ġ":6715,"Ġshi4Ġren2Ġ":6716,"jiao4ĠdeĠ":6717,"lan2Ġke4Ġ":6718,"mang2Ġ":6719,"cai2Ġzheng4Ġ":6720,"rĠ":6721,"ĠĠĠnian2Ġ":6722,"chang4Ġpian4Ġ":6723,"Ġzuo4Ġpin3":6724,"ming2Ġyi4Ġ":6725,"sa4Ġke4Ġ":6726,"Ġji4Ġzai3Ġ":6727,"Ġzhong1Ġwen2Ġ":6728,"jue2Ġsai4":6729,"jin4Ġgong1Ġ":6730,"Ġshi4Ġji2Ġ":6731,"qi3Ġyi4Ġ":6732,"can1Ġyi4Ġ":6733,"Ġzao4Ġcheng2Ġ":6734,"zhuang4Ġkuang4Ġ":6735,"Ġxian4Ġyu2Ġ":6736,"lv4Ġwei4Ġ":6737,"lĠ":6738,"ĠĠĠzhong1Ġguo2Ġ":6739,"leĠta1Ġ":6740,"15Ġ":6741,"can1Ġkao3Ġ":6742,"zeng1Ġzhang3Ġ":6743,"gao1Ġdu4Ġ":6744,"chan3Ġpin3":6745,"fei1Ġjian4Ġzhi4Ġdi4Ġqu1Ġ":6746,"Ġhuang2":6747,"dou1Ġhui4Ġ":6748,"Ġhe2Ġbing4Ġ":6749,"Ġji4Ġsuan4":6750,"Ġsheng1Ġhuo2":6751,"wang2ĠdeĠ":6752,"sui1Ġran2Ġ":6753,"diao4Ġcha2":6754,"Ġe2Ġluo2Ġsi1Ġ":6755,"ĠĠĠO":6756,"zhong4Ġdian3Ġ":6757,"Ġdao3Ġ":6758,"zhan4Ġdou4Ġ":6759,"chai1Ġ":6760,"Ġda4Ġlou2Ġ":6761,"hai3Ġdao4Ġ":6762,"chang4Ġpian4":6763,"Ġren2ĠmenĠ":6764,"Ġfang2Ġ":6765,"wei1Ġxie2Ġ":6766,"Ġhou4":6767,"ao4Ġdi4Ġli4Ġ":6768,"Ġhe2Ġzhong1Ġ":6769,"shang4Ġshu1Ġ":6770,"Ġwei2Ġqi2Ġ":6771,"kan3Ġ":6772,"ling3Ġdao3Ġren2Ġ":6773,"Ġxiang1Ġguan1Ġ":6774,"jing1Ġshen2Ġ":6775,"jia1Ġzhong1Ġ":6776,"Ġyin1Ġer2Ġ":6777,"yue4Ġzai4Ġ":6778,"liang3Ġren2Ġ":6779,"Ġnian2Ġshi2Ġ":6780,"Ġbu4Ġduan4Ġ":6781,"can1Ġjia1ĠleĠ":6782,"ying2Ġyun4Ġ":6783,"hua4Ġwei4Ġ":6784,"jiang1Ġxi1Ġ":6785,"ĠdeĠcheng2Ġyuan2Ġ":6786,"jie2Ġke4Ġ":6787,"tu2Ġshu1Ġguan3Ġ":6788,"Ġhe2Ġcheng2Ġ":6789,"zhu3Ġchi2Ġ":6790,"Ġzhong1Ġguo2Ġgong4Ġchan3Ġdang3Ġ":6791,"ju4ĠdeĠ":6792,"na4Ġli3Ġ":6793,"Ġ4Ġyue4Ġ":6794,"Ġyou3Ġshi2Ġ":6795,"zhan4Ġdou4":6796,"Ġhua2":6797,"jin4Ġru4":6798,"Ġxiao3":6799,"mou3Ġxie1Ġ":6800,"shen1Ġwei4Ġ":6801,"ju1Ġzhu4Ġ":6802,"zi4Ġdong4Ġ":6803,"xia4Ġji4Ġao4Ġlin2Ġpi3Ġke4Ġyun4Ġdong4Ġhui4Ġ":6804,"yin1Ġshi4Ġ":6805,"min2Ġzhong4Ġ":6806,"25Ġ":6807,"1988Ġnian2Ġ":6808,"Ġxiang4Ġmu4Ġ":6809,"chan3Ġsheng1ĠdeĠ":6810,"Ġzuo3Ġ":6811,"ĠĠĠzhĠ":6812,"Ġzai4Ġjia1Ġ":6813,"shuo1Ġming2Ġ":6814,"Ġwei3Ġ":6815,"Ġqiao2Ġ":6816,"Ġzheng4Ġzhuang4Ġ":6817,"yin3Ġfa1Ġ":6818,"jiang1Ġsu1Ġ":6819,"dao1Ġ":6820,"Ġhuo4Ġde2ĠleĠ":6821,"Ġzhi1Ġxia4Ġ":6822,"toĠĠĠ":6823,"Ġshi4Ġwei1Ġ":6824,"xiao3Ġshuo1":6825,"Ġxu3Ġduo1Ġ":6826,"onĠ":6827,"ĠĠĠjia1Ġzu2Ġ":6828,"Ġshi4Ġzhen4":6829,"Ġgong1Ġren2Ġ":6830,"ding4ĠleĠ":6831,"you1Ġshi4Ġ":6832,"ba2Ġ":6833,"Ġxuan3Ġ":6834,"lan2Ġqiu2Ġ":6835,"1993Ġnian2Ġ":6836,"Ġda4Ġduo1Ġ":6837,"wei4ĠĠĠ":6838,"zhou1ĠdeĠ":6839,"Ġbian1":6840,"ji4Ġshi2Ġ":6841,"xian3ĠdeĠ":6842,"zi1Ġxun4Ġ":6843,"ao4Ġyun4Ġhui4Ġ":6844,"su4ĠdeĠ":6845,"Ġda4Ġxing2Ġ":6846,"Ġwen2":6847,"Ġ2018":6848,"Ġyue4Ġnan2Ġ":6849,"Ġdu2Ġ":6850,"Ġpei4Ġ":6851,"Ġji2Ġli4Ġ":6852,"Ġzhuang1Ġ":6853,"Ġzhong1Ġhua2Ġ":6854,"ĠĠĠJ":6855,"qu3Ġde2":6856,"Ġlai2Ġzi4Ġ":6857,"yuan2Ġzai4Ġ":6858,"Ġbu4Ġmen2":6859,"chuang1Ġ":6860,"xiang1Ġdang1Ġ":6861,"Ġdan4Ġyou2Ġyu2Ġ":6862,"fang3Ġwen4Ġ":6863,"zhi2Ġdao4Ġ":6864,"jiao4Ġwei2Ġ":6865,"xiang4Ġmu4":6866,"Ġshi4Ġwei4ĠleĠ":6867,"jie2Ġhun1Ġ":6868,"Ġli3Ġlun4Ġ":6869,"pin3Ġpai2Ġ":6870,"3Ġnian2Ġ":6871,"Ġxie2Ġ":6872,"sui1Ġran2":6873,"Ġou1Ġ":6874,"xi2Ġwei4Ġ":6875,"Ġdi4Ġwu3Ġ":6876,"Ġyue4Ġtai2Ġ":6877,"can1Ġjia1":6878,"zhong1Ġwei4Ġ":6879,"zhen1Ġshi2Ġ":6880,"zhong1Ġhua2Ġren2Ġmin2Ġgong4Ġhe2Ġguo2Ġ":6881,"you3Ġbu4Ġ":6882,"16Ġ":6883,"yin4Ġdi4Ġ":6884,"mei3Ġshu4Ġ":6885,"Ġlao3Ġ":6886,"cui4Ġ":6887,"ĠĠĠ2025":6888,"ming4Ġling4Ġ":6889,"xue2Ġshu4Ġ":6890,"xing1Ġqi1Ġ":6891,"ĠdeĠgong1Ġzuo4Ġ":6892,"zhou4Ġ":6893,"2020Ġnian2Ġmei3Ġguo2Ġren2Ġkou3Ġpu3Ġcha2ĠdeĠshu4Ġju4Ġ":6894,"jian4Ġshe4Ġ":6895,"ju3Ġxing2":6896,"Ġshang4":6897,"fang2Ġyu4Ġ":6898,"Ġren4Ġwu4Ġ":6899,"wu3Ġzhuang1Ġ":6900,"kĠ":6901,"yi2Ġchan3Ġ":6902,"tiao2Ġzheng3Ġ":6903,"Ġzheng4":6904,"Ġshi2Ġyi1Ġ":6905,"ao4Ġmen2Ġ":6906,"Ġtian2Ġ":6907,"Ġnian2Ġbei4Ġ":6908,"ti2Ġgao1Ġ":6909,"yun3Ġxu3Ġ":6910,"Ġying1":6911,"Ġzhi4Ġshi2Ġ":6912,"Ġjia1Ġru4":6913,"Ġzhi1Ġhou4":6914,"bao4Ġdao3Ġ":6915,"ĠCĠ":6916,"fei1Ġlv4Ġ":6917,"wa3Ġer3Ġ":6918,"yi3Ġlai2Ġ":6919,"leĠta1ĠdeĠ":6920,"hui4Ġyuan2Ġ":6921,"Ġshi2Ġqi1":6922,"ji4Ġlu4Ġ":6923,"Ġji1Ġguan1Ġ":6924,"du1Ġshi4Ġ":6925,"leĠyi2Ġge4Ġ":6926,"Ġjiu3":6927,"Ġding4Ġ":6928,"hua4Ġjia1Ġ":6929,"ji1Ġchang3Ġ":6930,"Ġfu4Ġze2":6931,"yi2Ġmin2Ġ":6932,"shu1ĠdeĠ":6933,"13Ġ":6934,"ju4Ġli2Ġ":6935,"shu4Ġzi4Ġ":6936,"Ġshi4Ġyi1Ġzhong3":6937,"jin1ĠdeĠ":6938,"Ġren2Ġlei4":6939,"Ġcheng1Ġwei2Ġ":6940,"ĠĠĠ2024":6941,"Ġhe2Ġshi2Ġ":6942,"hong1Ġzha4":6943,"Ġshi1":6944,"Ġzi4Ġji3ĠdeĠ":6945,"jie1Ġji2Ġ":6946,"duan4ĠdeĠ":6947,"du1Ġjiao4Ġ":6948,"li4Ġshi4Ġ":6949,"ke4Ġli3Ġ":6950,"Ġhong2":6951,"yan2ĠdeĠ":6952,"Ġzhuan3":6953,"ying2ĠdeĠ":6954,"hua1Ġyuan2Ġ":6955,"shan1Ġmai4":6956,"Ġliang2Ġ":6957,"sheng1Ġji2Ġ":6958,"yue1Ġyou3Ġ":6959,"Ġshi4Ġda4Ġ":6960,"yong4Ġhu4Ġ":6961,"wen2Ġzi4Ġ":6962,"Ġsui4ĠdeĠ":6963,"Ġwan4Ġmei3Ġyuan2Ġ":6964,"mian4Ġdui4Ġ":6965,"yao1Ġqing3Ġ":6966,"dĠĠĠ":6967,"Ġ2011Ġnian2Ġ":6968,"dong1Ġji4Ġ":6969,"zi1Ġjin1Ġ":6970,"deng3Ġwei4Ġ":6971,"tĠĠĠ":6972,"Ġli4Ġshi3":6973,"wu3Ġtai2Ġ":6974,"han2Ġshu4Ġ":6975,"Ġxu2":6976,"su2Ġ":6977,"Ġshe4Ġji2Ġ":6978,"Ġguan1":6979,"23Ġ":6980,"Ġzhi4Ġli4Ġ":6981,"gao1Ġdeng3Ġ":6982,"Ġ2016":6983,"Ġsuo3Ġyi3":6984,"yuan2Ġji2Ġ":6985,"Ġren2Ġmin2":6986,"shen1Ġqing3Ġ":6987,"Ġhe2Ġlan2Ġ":6988,"xiao4Ġguo3Ġ":6989,"Ġ2005Ġnian2Ġ":6990,"dong4Ġzuo4Ġ":6991,"Ġ3Ġyue4Ġ":6992,"Ġhan2Ġguo2Ġ":6993,"mei3Ġguo2ĠdeĠ":6994,"Ġju4":6995,"Ġ2008Ġnian2Ġ":6996,"19Ġshi4Ġji4Ġ":6997,"4Ġnian2Ġ":6998,"Ġming2Ġchao2Ġzheng4Ġzhi4Ġren2Ġwu4Ġ":6999,"ĠĠĠzao3Ġnian2Ġ":7000,"jiao4Ġlian4Ġ":7001,"ĠĠĠxin1Ġ":7002,"Ġxian4Ġhe2Ġ":7003,"Ġri4Ġjun1Ġ":7004,"xia4Ġling4":7005,"liang3Ġzhong3Ġ":7006,"1990Ġnian2Ġ":7007,"ling3Ġtu3Ġ":7008,"Ġxiu1Ġ":7009,"Ġyuan2Ġming2Ġ":7010,"nu3Ġli4Ġ":7011,"zheng4Ġming2Ġ":7012,"IĠ":7013,"Ġzhao1":7014,"ĠĠĠhou4Ġ":7015,"leĠĠĠ":7016,"Ġpei4":7017,"lu4Ġjun1":7018,"Ġzhong1Ġyu2Ġ":7019,"zuo4Ġyong4Ġ":7020,"qu1Ġyu4":7021,"jing1Ġchang2Ġ":7022,"lie4Ġbiao3Ġ":7023,"you3Ġzai4Ġ":7024,"Ġyi4Ġyi4Ġ":7025,"ying3Ġpian4":7026,"ĠĠĠyou2Ġ":7027,"Ġyuan2Ġgong1Ġ":7028,"Ġzhou1Ġnian2Ġ":7029,"Ġjin4Ġxing2":7030,"Ġnan2Ġzhi4Ġ":7031,"Ġguo2Ġhui4Ġ":7032,"Ġgong1Ġhui4Ġ":7033,"guan1Ġxi4":7034,"Ġchi4Ġ":7035,"Ġji4Ġzhe3Ġ":7036,"ĠĠĠW":7037,"nei4Ġlu4Ġ":7038,"anĠ":7039,"zhao3Ġdao4Ġ":7040,"wang2Ġchao2":7041,"jing1Ġli3Ġ":7042,"lv3Ġxing2Ġ":7043,"shen2Ġjing1Ġ":7044,"Ġli3":7045,"Ġshi4Ġhou4Ġ":7046,"yong4Ġzuo4Ġ":7047,"Ġjue2":7048,"li3Ġlun4Ġ":7049,"hui2Ġying4Ġ":7050,"Ġgong1Ġchang3Ġ":7051,"fu4Ġjin4Ġ":7052,"Ġbo2":7053,"yu2Ġzai4Ġ":7054,"Ġhen3Ġ":7055,"tai4Ġren2Ġ":7056,"Ġhe2Ġgong1Ġ":7057,"ke3Ġyi3Ġzai4Ġ":7058,"Ġluo2":7059,"sui4Ġdao4Ġ":7060,"bao3Ġchi2":7061,"zhi1Ġjian1Ġ":7062,"ti2Ġdao4Ġ":7063,"Ġwan4Ġyuan2Ġ":7064,"Ġcheng2Ġxian4Ġ":7065,"chu1Ġban3Ġ":7066,"Ġnian2Ġ1Ġyue4Ġ1Ġri4Ġ":7067,"cĠ":7068,"Ġji1Ġche1Ġ":7069,"jiu3Ġdian4Ġ":7070,"Ġbi3":7071,"Ġshi2Ġer4Ġ":7072,"DĠ":7073,"Ġli2":7074,"ai1Ġji2Ġ":7075,"ge2Ġwei4Ġ":7076,"qi4Ġxiang4Ġ":7077,"eĠĠĠ":7078,"shou3Ġji1Ġ":7079,"ti1Ġ":7080,"Ġguo2Ġfang2":7081,"kong1Ġzhong1Ġ":7082,"Ġnian2Ġshi4Ġjie4Ġ":7083,"Ġzhu4":7084,"bei4Ġshi4Ġwei4Ġ":7085,"tong1Ġdao4Ġ":7086,"kong3Ġbu4Ġ":7087,"gui1Ġze2Ġ":7088,"qi2Ġzhong1Ġyi1Ġzhong3Ġ":7089,"zuo4Ġwei4Ġ":7090,"shou3Ġdu1Ġ":7091,"wo3Ġmen":7092,"ĠdeĠzhi4Ġ":7093,"Ġwo3ĠmenĠ":7094,"li4Ġwei4Ġ":7095,"shu1Ġji2Ġ":7096,"Ġer2Ġcheng2Ġ":7097,"Ġfan3":7098,"Ġlei2Ġ":7099,"1984Ġnian2Ġ":7100,"dong1Ġnan2Ġbu4Ġ":7101,"yi3Ġxia4Ġ":7102,"yan3Ġyi4Ġ":7103,"Ġxi1Ġwang4":7104,"Ġliang4Ġ":7105,"ji1Ġhe2Ġ":7106,"da4Ġlu4ĠdeĠ":7107,"qi3Ġye4":7108,"meng3Ġ":7109,"Ġzuo4Ġwei2":7110,"2Ġnian2Ġ":7111,"dai4Ġli3Ġ":7112,"ĠdeĠjia1Ġ":7113,"jin1Ġshu3Ġ":7114,"gĠ":7115,"jin4Ġyi2Ġbu4Ġ":7116,"xin1Ġjia1Ġpo1":7117,"lao2Ġdong4Ġ":7118,"zhu3Ġchi2":7119,"jiao4Ġxue2Ġ":7120,"biao3Ġmian4Ġ":7121,"gu4Ġwen4Ġ":7122,"Ġying1Ġyu3Ġ":7123,"ni1Ġ":7124,"Ġhe2Ġxi1Ġ":7125,"Ġbu4Ġbu4Ġ":7126,"ĠÐ":7127,"ĠsĠĠĠ":7128,"Ġyou3Ġji1Ġ":7129,"cai2Ġliao4Ġ":7130,"chao2Ġxian1":7131,"Ġ2001Ġnian2Ġren2Ġkou3Ġ":7132,"Ġge2":7133,"dao4Ġlu4Ġ":7134,"hua2Ġren2Ġ":7135,"Ġzai4Ġwei4Ġ":7136,"Ġbei3Ġqi3Ġ":7137,"jing4ĠdeĠ":7138,"si3Ġhou4Ġ":7139,"bao3Ġliu2Ġ":7140,"bo1Ġlan2":7141,"Ġxi4Ġlie4Ġ":7142,"Ġtu3Ġ":7143,"tong1Ġche1Ġ":7144,"si1Ġli4Ġ":7145,"1989Ġnian2Ġ":7146,"Ġzhong1Ġguo2Ġda4Ġlu4Ġ":7147,"bai2Ġse4Ġ":7148,"ya4Ġli4Ġshan1Ġda4Ġ":7149,"Ġban1Ġ":7150,"hui4Ġshi4Ġ":7151,"Ġyi3Ġbei4Ġ":7152,"ju1Ġmin2":7153,"zhu3Ġli4Ġ":7154,"Ġping2Ġmian4Ġ":7155,"ni2Ġke4Ġ":7156,"Ġta1Ġwei4Ġ":7157,"MĠ":7158,"Ġ2021":7159,"zhu3ĠdeĠ":7160,"Ġzhi1Ġjian1":7161,"fen1Ġzhong1Ġ":7162,"Ġsi1Ġte4":7163,"Ġcha2Ġ":7164,"nv3Ġzi3":7165,"yin3Ġqi3Ġ":7166,"Ġxian4ĠdeĠyi2Ġge4Ġ":7167,"Ġti2Ġgong1Ġ":7168,"Ġdao4Ġda2Ġ":7169,"fa3Ġan4Ġ":7170,"yin3Ġqi3":7171,"Ġnv3Ġxing4Ġ":7172,"zhao4Ġkai1Ġ":7173,"Ġdong1Ġnan2Ġ":7174,"yun4Ġzuo4Ġ":7175,"ĠĠĠ2012":7176,"jiao1Ġhui4Ġ":7177,"zhai4Ġ":7178,"5Ġnian2Ġ":7179,"shou3Ġge4Ġ":7180,"tui4Ġchu1Ġ":7181,"di4Ġer4Ġ":7182,"Ġer2Ġyan2Ġ":7183,"Ġxian4ĠdeĠyi2Ġge4":7184,"Ġhai3":7185,"Ġbei4Ġren4Ġwei2Ġshi4Ġ":7186,"Ġju4Ġyou3Ġ":7187,"li4Ġzai4Ġ":7188,"Ġji1Ġhu1":7189,"Ġke4Ġcheng2Ġ":7190,"wen2Ġzhang1Ġ":7191,"ji3Ġge4Ġ":7192,"zha2Ġ":7193,"Ġshi4Ġjia1Ġ":7194,"Ġyou3Ġyi4Ġ":7195,"te4Ġshu1Ġ":7196,"Ġqu3Ġ":7197,"Ġxi1Ġsi1Ġ":7198,"xiang1Ġguan1":7199,"shi1Ġfan4":7200,"Ġfu4Ġqin1Ġ":7201,"wu2Ġfa3":7202,"Ġgang3Ġ":7203,"Ġyong1Ġyou3Ġ":7204,"can1Ġmou2":7205,"jin1Ġhui4Ġ":7206,"jie4ĠdeĠ":7207,"jiao4Ġshi1Ġ":7208,"ceng2Ġjing1":7209,"ĠĠĠxia4Ġ":7210,"lv4Ġshi1Ġ":7211,"fei1Ġzhou1Ġ":7212,"Ġshi4Ġyu3Ġ":7213,"ĠĠĠV":7214,"xi1Ġban1Ġya2":7215,"da4Ġwei4Ġ":7216,"Ġyi1Ġji2Ġ":7217,"Ġfeng2Ġ":7218,"chang2ĠdeĠ":7219,"Ġbu4Ġde2":7220,"Ġta1ĠmenĠzai4Ġ":7221,"wei1Ġji1Ġ":7222,"yi2Ġzhi3Ġ":7223,"Ġyi4Ġfang1Ġmian4Ġ":7224,"fa3Ġyuan4":7225,"Ġer2Ġshui3Ġyu4Ġmian4Ġji1Ġwei4Ġ0":7226,"Ġguo2Ġjia1ĠdeĠ":7227,"zhe3Ġzai4Ġ":7228,"Ġhe2Ġqi2Ġta1Ġ":7229,"ya4Ġzhou1":7230,"Ġzhu3Ġxi2Ġ":7231,"jin1Ġpai2Ġ":7232,"che1ĠdeĠ":7233,"Ġzhi1Ġwei4Ġ":7234,"Ġbing4Ġjiang1Ġ":7235,"kang1Ġxi1Ġ":7236,"Ġcheng2Ġxu4Ġ":7237,"yao4Ġwu4Ġ":7238,"Ġwei4Ġyou3Ġ":7239,"biao3Ġda2":7240,"Ġ00Ġ":7241,"Ġcheng2Ġren4Ġ":7242,"zhi2Ġmin2":7243,"guo4Ġqu4Ġ":7244,"pu2Ġtao2Ġya2":7245,"ĠĠĠcheng2Ġ":7246,"da4Ġdi4Ġ":7247,"bian4Ġde2Ġ":7248,"onĠĠĠ":7249,"leng3Ġ":7250,"Ġzhi4Ġliao2Ġ":7251,"huan1Ġying2Ġ":7252,"wen2Ġxian4Ġ":7253,"duo1Ġnian2Ġ":7254,"Ġsi1Ġke4Ġ":7255,"Ġjin4Ġxing2ĠleĠ":7256,"mu4Ġbiao1":7257,"Ġfei4":7258,"Ġguan1Ġyu2Ġ":7259,"zhu4Ġli3Ġ":7260,"zhuang1Ġshi4Ġ":7261,"dong1Ġbei3Ġbu4Ġ":7262,"gou4Ġzao4Ġ":7263,"huo4Ġde2ĠleĠ":7264,"xi4Ġtong3ĠdeĠ":7265,"bo2Ġwu4Ġguan3":7266,"ao4Ġda4Ġli4Ġya4Ġ":7267,"Ġbai3Ġ":7268,"Ġqiu2Ġyuan2Ġ":7269,"Ġ100":7270,"Ġban4Ġ":7271,"jiang1Ġhui4Ġ":7272,"fu2Ġyi4Ġ":7273,"ben3Ġdi4Ġ":7274,"teĠĠĠ":7275,"Ġer2Ġgai1Ġdi4Ġ":7276,"xian1Ġsheng1Ġ":7277,"Ġbu4Ġla1Ġ":7278,"bo1Ġlan2Ġ":7279,"Ġqi3":7280,"Ġyu2Ġle4Ġ":7281,"jia1Ġru4":7282,"fang4Ġqi4Ġ":7283,"jian4Ġyi4Ġ":7284,"Ġ2015":7285,"dang1Ġshi2ĠdeĠ":7286,"Ġqi1Ġxi1Ġzai4Ġ":7287,"mao2Ġze2Ġ":7288,"Ġgao1":7289,"xiao4ĠdeĠ":7290,"sa4Ġsi1Ġ":7291,"yi4Ġda4Ġli4Ġ":7292,"Ġbing4Ġyu3Ġ":7293,"ze2Ġwei4Ġ":7294,"Ġda4Ġlu4Ġ":7295,"1985Ġnian2Ġ":7296,"fu4Ġqin1":7297,"Ġwei4Ġlai2Ġ":7298,"Ġ2007Ġnian2Ġ":7299,"zi4Ġyou2":7300,"RĠ":7301,"ĠĠĠcong2Ġ":7302,"Ġjian4Ġzao4Ġ":7303,"Ġjin4Ġyi2Ġbu4Ġ":7304,"Ġban3Ġ":7305,"liu2Ġzai4Ġ":7306,"shou1Ġshi4Ġ":7307,"ĠdeĠzheng4Ġ":7308,"cheng1Ġzuo4Ġ":7309,"nan2Ġjing1Ġ":7310,"Ġjin4Ġgong1Ġ":7311,"guang3Ġgao4Ġ":7312,"sa4Ġer3Ġ":7313,"Ġshou1Ġ":7314,"luo2Ġdi4Ġ":7315,"jin3Ġji2Ġ":7316,"Ġshi4Ġzheng4Ġ":7317,"Ġfu4Ġqin1":7318,"Ġji4Ġshu4":7319,"Ġhao4Ġwei4Ġ":7320,"Ġce4Ġ":7321,"ji4Ġxu4Ġ":7322,"tan3Ġke4Ġ":7323,"1949Ġnian2Ġ":7324,"ĠdeĠsheng1Ġ":7325,"Ġren2Ġmen":7326,"Ġri4Ġjun1":7327,"Ġyi4Ġmei3Ġyuan2Ġ":7328,"ci4Ġshi3Ġ":7329,"xi4Ġju4Ġ":7330,"Ġ2013":7331,"Ġzai4Ġci3":7332,"Ġte4Ġbie2Ġshi4Ġ":7333,"Ġ30":7334,"huo3Ġjian4Ġ":7335,"Ġjia1Ġzu2Ġ":7336,"piao4Ġfang2Ġ":7337,"bi3Ġli4Ġshi2Ġ":7338,"qing3Ġqiu2Ġ":7339,"jing3Ġfang1Ġ":7340,"kao3Ġlv4":7341,"Ġshi4Ġri4Ġben3Ġ":7342,"Ġjie2Ġguo3":7343,"tai4Ġping2Ġyang2":7344,"zhan1Ġmu3Ġsi1Ġ":7345,"Ġhe4Ġ":7346,"Ġsi1Ġtan3":7347,"Ġ2014":7348,"Ġnian2ĠĠĠ":7349,"Ġchu1Ġsheng1Ġ":7350,"Ġmei3Ġnian2Ġ":7351,"di4Ġzai4Ġ":7352,"Ġyi3Ġyou3Ġ":7353,"shang4Ġwu3Ġ":7354,"tou2Ġpiao4":7355,"ba1Ġli2":7356,"wang2Ġchao2Ġ":7357,"ĠĠĠjie2Ġzhi4Ġ":7358,"nei4Ġyou3Ġ":7359,"bian1ĠdeĠ":7360,"wan2Ġgong1Ġ":7361,"shi2Ġjian1Ġ":7362,"Ġzhi4Ġcheng2Ġ":7363,"guang3Ġdong1Ġsheng3Ġ":7364,"que4Ġren4Ġ":7365,"pai1Ġshe4":7366,"Ġyuan2Ġben3Ġ":7367,"Ġzhao4":7368,"chang3Ġhe2Ġ":7369,"Ġqi2Ġzai4Ġ":7370,"Ġzhi1ĠziĠ":7371,"mu3Ġqin1":7372,"shen1Ġti3Ġ":7373,"Ġbing1Ġ":7374,"Ġda4Ġyue1Ġ":7375,"Ġsai4Ġ":7376,"fen3Ġ":7377,"Ġzhi1ĠdeĠ":7378,"meng2Ġgu3":7379,"Ġlv3Ġ":7380,"gu3Ġfen4":7381,"Ġzhan4Ġdou4Ġ":7382,"xi2Ġxing4":7383,"Ġjing1Ġji4Ġ":7384,"geng4Ġduo1Ġ":7385,"hu2Ġbei3Ġ":7386,"Ġyue1Ġhan4Ġ":7387,"deng1Ġshang4Ġ":7388,"Ã©Ġ":7389,"Ġxian4Ġchang3Ġ":7390,"Ġdeng4":7391,"ĠĠĠzeng1Ġ":7392,"suo3Ġzai4Ġ":7393,"qing2Ġbao4Ġ":7394,"Ġying1Ġwen2Ġ":7395,"wai4Ġbu4Ġ":7396,"zhong4Ġyi4Ġ":7397,"min2Ġjian1Ġ":7398,"mi4Ġmi4Ġ":7399,"xiao4Ġyuan2Ġ":7400,"Ġshi4Ġye4Ġ":7401,"Ġzai4Ġqi2Ġ":7402,"guan1Ġbi4Ġ":7403,"guang3Ġfan4":7404,"kao3Ġlv4Ġ":7405,"e2Ġluo2Ġsi1":7406,"Ġxiang3Ġ":7407,"te4Ġse4Ġ":7408,"Ġheng2Ġ":7409,"Ġyou3Ġxian4Ġ":7410,"sen1Ġlin2Ġ":7411,"ma3Ġsi1Ġ":7412,"Ġyan2":7413,"Ġ2020":7414,"Ġsai4Ġji4Ġ":7415,"wu4Ġyuan2Ġ":7416,"cun4Ġ":7417,"Ġxun2Ġ":7418,"an1Ġpai2Ġ":7419,"Ġwo3Ġmen":7420,"Ġcan1Ġjia1Ġ":7421,"chi1Ġ":7422,"Ġquan2Ġqiu2Ġ":7423,"Ġai1Ġ":7424,"xia4Ġyi1Ġ":7425,"mei3Ġge4Ġ":7426,"Ġda4Ġduo1Ġshu4Ġ":7427,"cheng2Ġnian2Ġ":7428,"er4Ġyue4Ġ":7429,"Ġbu4Ġjiu3":7430,"yan3Ġchang4Ġ":7431,"liang3Ġnian2Ġ":7432,"zhuang1Ġbei4Ġ":7433,"zeng4Ġ":7434,"Ġda4Ġdao4Ġ":7435,"Ġwo4":7436,"Ġzui4Ġgao1Ġ":7437,"neng2Ġzai4Ġ":7438,"Ġji1Ġbai4":7439,"tu3Ġer3Ġqi2Ġ":7440,"qian1Ġzhi4Ġ":7441,"huan3Ġ":7442,"1986Ġnian2Ġ":7443,"Ġdi4Ġyi1Ġci4Ġ":7444,"Ġ10Ġ":7445,"chang3Ġdi4Ġ":7446,"min2Ġzhu3Ġdang3Ġ":7447,"tian1ĠdeĠ":7448,"Ġzhong1Ġshi4Ġ":7449,"Ġshi2Ġyan4Ġ":7450,"zuo4Ġzhan4Ġ":7451,"Ġgang1Ġ":7452,"nan2Ġyi3Ġ":7453,"14Ġ":7454,"Ġji2Ġbei3Ġ":7455,"Ġchu1Ġlai2Ġ":7456,"tai2Ġfeng1Ġ":7457,"bĠ":7458,"xing4Ġqu4Ġ":7459,"tian1Ġjin1Ġ":7460,"Ġtong1Ġchang2":7461,"Ġka3":7462,"Ġ2017":7463,"ban4Ġli3Ġ":7464,"18Ġ":7465,"Ġzhi1Ġdao4Ġ":7466,"tian1Ġjin1":7467,"long2Ġjiang1Ġ":7468,"ling3Ġshi4Ġ":7469,"Ġbu4Ġzu2Ġ":7470,"yong4Ġtu2Ġ":7471,"li3Ġgong1Ġ":7472,"Ġkang1Ġ":7473,"Ġyuan2Ġsu4Ġ":7474,"wei1Ġer3Ġ":7475,"nong2Ġye4":7476,"Ġqing1Ġchao2Ġ":7477,"ai1Ġer3Ġ":7478,"Ġcheng2Ġdu4Ġ":7479,"zhan4Ġling3Ġ":7480,"chang2Ġjian4ĠdeĠ":7481,"jin4Ġxing2ĠleĠ":7482,"Ġshi3Ġjian4Ġyu2Ġ":7483,"ĠĠĠxian4":7484,"ĠĠĠming2Ġ":7485,"dao3Ġdan4Ġ":7486,"xiu1Ġzheng4Ġ":7487,"Ġyue4Ġtuan2Ġ":7488,"gui4Ġzhou1Ġ":7489,"fen1Ġbu4Ġyu2Ġ":7490,"maĠ":7491,"Ġxuan1Ġ":7492,"xi3Ġju4Ġ":7493,"Ġgong1Ġzhu3Ġ":7494,"Ġta1Ġhai2Ġ":7495,"Ġzhan4Ġdou4":7496,"ma3Ġlai2Ġxi1Ġya4Ġ":7497,"xi2Ġxing4Ġbu4Ġming2Ġ":7498,"Ġshi2Ġdai4":7499,"zhang4Ġai4Ġ":7500,"Ġwen2Ġhua4Ġ":7501,"oĠ":7502,"Ġchu1Ġqi1Ġ":7503,"xiang4Ġshi4Ġ":7504,"hua2Ġsheng4Ġ":7505,"sheng1Ġcheng2Ġ":7506,"teĠ":7507,"Ġyou3Ġxie1Ġ":7508,"Ġsheng1Ġchan3":7509,"ren4Ġming4Ġwei4Ġ":7510,"Ġyi4Ġqi3":7511,"Ġtao2Ġ":7512,"fa3Ġguan1Ġ":7513,"Ġye3Ġjiu4Ġshi4Ġ":7514,"ĠĠĠta1Ġ":7515,"ĠdeĠfang1Ġshi4Ġ":7516,"Ġhe2Ġhe2Ġ":7517,"jiao1Ġliu2Ġ":7518,"zu3Ġjian4Ġ":7519,"Ġsheng1Ġhuo2Ġxi2Ġxing4Ġbu4Ġming2Ġ":7520,"Ġchu3Ġyu2Ġ":7521,"she4Ġzhi4Ġ":7522,"shou4Ġdao4":7523,"ti2Ġchu1":7524,"Ġwan4Ġli4Ġ":7525,"ji1Ġchu3Ġ":7526,"Ġta1Ġye3Ġ":7527,"Ġgong4":7528,"Ġrong2Ġ":7529,"Ġluo4":7530,"hen3Ġda4Ġ":7531,"ku3Ġ":7532,"Ġgong4Ġyou3Ġ":7533,"Ġgen1Ġju4":7534,"zhi4Ġzhong1Ġ":7535,"bao4Ġfa1":7536,"Ġyin2Ġ":7537,"zhu3Ġshi4Ġ":7538,"ĠĠĠmei3Ġguo2Ġ":7539,"ling3Ġxiu4Ġ":7540,"Ġhan4":7541,"ju4Ġjue2Ġ":7542,"la1Ġding1":7543,"Ġer2Ġbu2Ġshi4Ġ":7544,"chuan2Ġshuo1Ġ":7545,"hua4Ġhe2Ġwu4Ġ":7546,"Ġrui4Ġ":7547,"ren4Ġshi2Ġ":7548,"Ġkong3Ġ":7549,"bao4Ġli4Ġ":7550,"an1Ġzhuang1":7551,"an1Ġna4Ġ":7552,"Ġyi1Ġxue2Ġ":7553,"wo3ĠmenĠ":7554,"ĠĠĠli3Ġ":7555,"Ġpa4":7556,"zhi4Ġbu4Ġ":7557,"jia1Ġli4Ġfu2Ġ":7558,"shu2Ġ":7559,"Ġyou3Ġyi2Ġge4Ġ":7560,"Ġxian4Ġxiang4Ġ":7561,"shang4Ġying4Ġ":7562,"fa3Ġyu3Ġ":7563,"wen2Ġyi4Ġ":7564,"qiong2Ġ":7565,"Ġzai4Ġnei4ĠdeĠ":7566,"Ġdian4Ġying3Ġ":7567,"gao1Ġsu4Ġ":7568,"chuang4Ġban4":7569,"1987Ġnian2Ġ":7570,"Ġzai4Ġdu4Ġ":7571,"Ġer2Ġbu4Ġ":7572,"ji4Ġshi4Ġ":7573,"yuan4Ġshi4Ġ":7574,"Ġwei4Ġxing1Ġ":7575,"Ġli3Ġlun4":7576,"yan2Ġshen1":7577,"hai3Ġan4Ġ":7578,"chuang4Ġjian4Ġ":7579,"bin1Ġhai3Ġ":7580,"shun4Ġli4Ġ":7581,"Ġdong1Ġbei3Ġ":7582,"ĠAĠ":7583,"ĠĠĠci3Ġwai4Ġ":7584,"Ġ2013Ġnian2Ġ":7585,"lei2Ġsi1Ġ":7586,"ruan3Ġjian4Ġ":7587,"Ġsheng1Ġzhang3":7588,"Ġyou2Ġqi2Ġshi4Ġ":7589,"tui1Ġjin4Ġ":7590,"Ġhe2Ġbu4Ġ":7591,"shu1Ġru4Ġ":7592,"zi1Ġchan3Ġ":7593,"lun4Ġwen2Ġ":7594,"Ġshu3":7595,"Ġxing2Ġzheng4":7596,"nv3Ġxing4":7597,"wang3Ġqiu2Ġ":7598,"hai3Ġwai4Ġ":7599,"Ġna4":7600,"Ġwa3Ġ":7601,"Ġbu4Ġluo4Ġ":7602,"Ġda4Ġsha4":7603,"1980Ġnian2Ġ":7604,"zhu3Ġyi4ĠdeĠ":7605,"ping2Ġlun4Ġ":7606,"zui4Ġgao1":7607,"Ġ2010":7608,"Ġta3Ġ":7609,"ying4Ġyong4":7610,"cai3Ġqu3Ġ":7611,"Ġ50":7612,"Ġ2012":7613,"jiao4Ġshi4Ġ":7614,"zu1Ġ":7615,"pai2Ġming2Ġdi4Ġ":7616,"Ġsai1Ġ":7617,"Ġ2006Ġnian2Ġ":7618,"bian4Ġwei4Ġ":7619,"Ġbei3Ġjing1Ġ":7620,"ĠĠĠqi2Ġ":7621,"yu2ĠdeĠ":7622,"bo1Ġfang4Ġ":7623,"Ġtiao2Ġ":7624,"ju4Ġhe2Ġ":7625,"san1Ġshi4Ġ":7626,"Ġzai4Ġxi1Ġ":7627,"ren2Ġda4Ġ":7628,"Ġde2Ġer3Ġ":7629,"Ġhou4Ġxuan3Ġren2Ġ":7630,"bao4Ġgao4":7631,"tou2Ġzi1":7632,"ma3Ġli3Ġ":7633,"ze2Ġren4Ġ":7634,"rao3Ġ":7635,"fang1Ġmian4ĠdeĠ":7636,"yin3Ġqing2Ġ":7637,"ge4Ġzhong3Ġ":7638,"ĠĠĠN":7639,"Ġshi4Ġmin2Ġ":7640,"Ġhe2Ġda4Ġ":7641,"dian4Ġzi":7642,"ling3Ġdi4Ġ":7643,"Ġzai4Ġci4":7644,"fan4Ġwei2Ġnei4Ġ":7645,"ĠĠĠqian2Ġ":7646,"ĠĠĠju4Ġqing2Ġ":7647,"Ġying2Ġ":7648,"xiang1Ġshi4Ġdi4Ġ":7649,"zhe4Ġli3Ġ":7650,"Ġyu2Ġren2Ġ":7651,"zheng4Ġdang3Ġ":7652,"shi4ĠĠĠ":7653,"Ġri4Ġbao4Ġ":7654,"Ġling4Ġyi1Ġ":7655,"xing2Ġcheng2Ġ":7656,"fa1Ġxing2ĠdeĠ":7657,"Ġji1Ġhu1Ġ":7658,"zhi2Ġjie1":7659,"7Ġnian2Ġ":7660,"Ġlai2":7661,"feng1Ġwei4Ġ":7662,"pai4ĠdeĠ":7663,"1982Ġnian2Ġ":7664,"Ġshi4Ġgu4Ġ":7665,"Ġzhi4Ġshao3Ġ":7666,"biao3Ġda2Ġ":7667,"wang3Ġluo4":7668,"Ġyong4Ġyu2Ġ":7669,"yuan4Ġyi4Ġ":7670,"Ġta1Ġhe2Ġ":7671,"ju4Ġle4Ġbu4Ġ":7672,"ĠĠĠchu1Ġ":7673,"du2Ġli4ĠdeĠ":7674,"6Ġnian2Ġ":7675,"e2Ġguo2Ġ":7676,"Ġzhi1Ġfu4Ġ":7677,"jiu3Ġlong2Ġ":7678,"dang1Ġxuan3Ġ":7679,"ĠĠĠxian4Ġ":7680,"he4Ġer3Ġ":7681,"zi4Ġran2":7682,"Ġyou3Ġxiao4Ġ":7683,"bu2Ġ":7684,"wen1Ġdu4Ġ":7685,"xi4Ġbao1":7686,"3Ġren2Ġ":7687,"1945Ġnian2Ġ":7688,"1983Ġnian2Ġ":7689,"ji4Ġcheng2Ġ":7690,"dian4Ġnao3":7691,"yun3Ġxu3":7692,"Ġyi1Ġxiao3Ġshi2Ġ":7693,"jing3Ġcha2":7694,"huo3Ġshan1Ġ":7695,"Ġda4Ġxi1Ġyang2Ġ":7696,"guo4Ġqu4":7697,"pai2Ġhang2Ġ":7698,"EĠ":7699,"an1Ġde2Ġ":7700,"jiu4Ġdu2":7701,"Ġdong1Ġlin2Ġ":7702,"enĠ":7703,"mian2Ġ":7704,"zhi1Ġchi2":7705,"fang3Ġwen4":7706,"ming2Ġzi4Ġ":7707,"Ġzuo4Ġjia1Ġ":7708,"dang3Ġyuan2Ġ":7709,"Ġda4Ġfu2Ġ":7710,"qu1Ġyi4Ġhui4Ġ":7711,"17Ġ":7712,"Ġde2Ġhua2Ġ":7713,"2Ġren2Ġ":7714,"Ġshuo1Ġ":7715,"Ġ2012Ġnian2Ġ":7716,"huan4Ġcheng2Ġ":7717,"biao3Ġyan3":7718,"dou1Ġzai4Ġ":7719,"Ġdi4Ġyi2Ġge4Ġ":7720,"xian4Ġzhi4Ġ":7721,"Ġyu3Ġmao2":7722,"Ġchu1Ġzhan4Ġ":7723,"bi3Ġya4":7724,"ĠĠĠdi4Ġfang1Ġ":7725,"Ġfan1Ġ":7726,"xiang1Ġdang1":7727,"fang1Ġyan2Ġ":7728,"xi3Ġhuan1":7729,"Ġbing4Ġbei4Ġ":7730,"qu1Ġhe2Ġ":7731,"Ġyi1Ġtong2Ġ":7732,"Ġzhong1Ġhua2Ġren2Ġmin2Ġgong4Ġhe2Ġguo2Ġzheng4Ġzhi4Ġren2Ġwu4Ġ":7733,"ngĠĠĠ":7734,"Ġshi4Ġyu2Ġ":7735,"jing1Ġyan4Ġ":7736,"xun2Ġyang2":7737,"KĠ":7738,"mĠĠĠ":7739,"Ġjiu4Ġshi4Ġ":7740,"Ġji4Ġsuan4Ġ":7741,"pu3Ġbian4Ġ":7742,"Ġsheng1Ġyu2Ġ":7743,"Ġzhong1Ġbei4Ġ":7744,"guan1Ġdian3Ġ":7745,"jiang4Ġdi1Ġ":7746,"ke1ĠdeĠqi2Ġzhong1Ġyi1Ġzhong3Ġ":7747,"Ġgong1Ġyi4Ġ":7748,"Ġreng2":7749,"han2Ġyou3Ġ":7750,"ĠĠĠ2":7751,"liang3Ġming2Ġ":7752,"dian3Ġli3Ġ":7753,"Ġshi4Ġgong1Ġ":7754,"zhong4Ġduo1Ġ":7755,"da4Ġzhi4Ġ":7756,"Ġbing4Ġdu2":7757,"Ġqi2Ġzhong1Ġyi1Ġ":7758,"Ġneng2Ġ":7759,"ya4Ġjun1Ġ":7760,"she4Ġqu1Ġ":7761,"kou3Ġwei4Ġ":7762,"cheng2Ġyuan2Ġ":7763,"Ġxian4Ġshi4Ġ":7764,"zhi1Ġqian2Ġ":7765,"mi4Ġshu1Ġzhang3Ġ":7766,"Ġdi4Ġsi4":7767,"zuo4Ġshi4Ġ":7768,"tiao2Ġli4Ġ":7769,"nei4Ġge2Ġ":7770,"Ġping2Ġjun1Ġ":7771,"ĠĠĠ2011":7772,"shu4Ġyu3Ġ":7773,"wu2Ġzheng4Ġzhuang4Ġ":7774,"Ġxian4Ġren4Ġ":7775,"tu1Ġpo4Ġ":7776,"xie3Ġdao4Ġ":7777,"dang4Ġtian1Ġ":7778,"yi2Ġdu4Ġ":7779,"Ġzu3Ġfu4Ġ":7780,"1Ġli4Ġ":7781,"Ġliu4":7782,"Ġxing2Ġwei4Ġ":7783,"Ġwan2Ġ":7784,"inĠ":7785,"Ġgong1Ġmin2Ġ":7786,"xing1Ġdeng3Ġwei4Ġ":7787,"Ġbi3Ġsai4Ġ":7788,"Ġtong2Ġyi4Ġ":7789,"hong2Ġse4Ġ":7790,"shan1Ġshi4Ġ":7791,"kai1Ġshi3Ġzai4Ġ":7792,"tuan2ĠdeĠ":7793,"gei3ĠleĠ":7794,"she3Ġ":7795,"Ġji1Ġjin1Ġ":7796,"si3Ġwang2":7797,"zheng3Ġti3Ġ":7798,"Ġ500":7799,"ĠĠĠji2Ġ":7800,"lu3Ġsi1Ġ":7801,"jue2Ġdui4Ġ":7802,"Ġquan2Ġli4Ġ":7803,"Ġzui4Ġchu1Ġ":7804,"dai4Ġbiao3Ġda4Ġhui4Ġ":7805,"Ġ7Ġ":7806,"chi2Ġyou3Ġ":7807,"esĠ":7808,"ying1Ġwen2Ġ":7809,"zheng4Ġbu4Ġ":7810,"gai4Ġnian4":7811,"Ġxin4Ġ":7812,"Ġgong1Ġju4Ġ":7813,"she4Ġshi1Ġ":7814,"Ġsun1":7815,"Ġda2":7816,"ĠĠĠ2010":7817,"ben3Ġren2Ġ":7818,"yang2Ġshi4Ġ":7819,"Ġshi4Ġbing1Ġ":7820,"Ġzhe4Ġzhong3":7821,"xia4Ġxia2ĠdeĠyi2Ġge4Ġ":7822,"Ġsui4Ġshi2Ġ":7823,"ĠĠĠa1Ġ":7824,"Ġ0Ġ":7825,"ni2Ġer3Ġ":7826,"ĠdeĠcheng2Ġji4Ġ":7827,"Ġ30Ġ":7828,"Ġji2Ġren2Ġ":7829,"yi2Ġding4Ġ":7830,"jie4Ġshao4Ġ":7831,"lai2Ġyue4Ġ":7832,"bao3Ġshou3Ġ":7833,"tou2Ġxiang2Ġ":7834,"gui4Ġzu2Ġ":7835,"yue4Ġzhong1Ġ":7836,"zhi2Ġdao3Ġ":7837,"zhen4Ġqu1ĠdeĠ":7838,"zao3Ġqi1":7839,"bo2Ġshi4Ġxue2Ġwei4Ġ":7840,"shan1Ġji1Ġ":7841,"huang2Ġhou4Ġ":7842,"gua4Ġ":7843,"qi3Ġdong4Ġ":7844,"Ġmei3Ġge4Ġ":7845,"ĠU":7846,"ĠĠĠqi2Ġta1Ġ":7847,"tang1Ġ":7848,"Ġwei2Ġer3":7849,"yao1Ġqing3":7850,"yi4Ġnian2Ġ":7851,"gu3Ġdai4Ġ":7852,"kui4Ġ":7853,"Ġming2Ġdan1Ġ":7854,"zhen3Ġ":7855,"Ġde2Ġyu3Ġ":7856,"zhong3Ġzu2Ġ":7857,"Ġyi1Ġzuo4Ġ":7858,"Ġyi3Ġji2":7859,"Ġer2Ġgai1Ġ":7860,"hei1Ġse4Ġ":7861,"ĠĠĠ1Ġ":7862,"ming2Ġren2Ġ":7863,"Ġren2Ġmin2Ġzheng4Ġfu3Ġ":7864,"en1Ġsheng3Ġ":7865,"tou4Ġguo4":7866,"1Ġren2Ġ":7867,"Ġxiang3Ġnian2Ġ":7868,"wu2Ġzheng4Ġzhuang4Ġgan3Ġran3Ġ":7869,"sui2Ġzhu4Ġ":7870,"sa1Ġ":7871,"Ġ20":7872,"huo2Ġyue4Ġ":7873,"mu4Ġqian2":7874,"chang2Ġwu4Ġ":7875,"chang2Ġwei3Ġ":7876,"que4Ġzhen3Ġbing4Ġli4Ġ":7877,"Ġer4Ġshi2Ġ":7878,"ming2Ġzhi4Ġ":7879,"Ġri4Ġyu2Ġ":7880,"gai3Ġming2Ġwei4Ġ":7881,"chu1Ġshen1Ġ":7882,"tong2Ġnian2Ġ":7883,"dian4Ġhua4Ġ":7884,"GĠ":7885,"Ġ2022":7886,"ĠĠĠ2Ġ":7887,"Ġbu4Ġsi1Ġ":7888,"Ġji1Ġsi1Ġ":7889,"tai4ĠziĠ":7890,"duo1Ġren2Ġ":7891,"Ġbi3Ġru2Ġ":7892,"ĠĠĠgai1":7893,"ke4Ġcheng2Ġ":7894,"kun4Ġnan2Ġ":7895,"Ġbu4Ġli4Ġ":7896,"zui4Ġduo1Ġ":7897,"dan1ĠdeĠ":7898,"long2ĠdeĠ":7899,"tun2Ġ":7900,"ti2Ġji2Ġ":7901,"geng4Ġwei2Ġ":7902,"ru4Ġxuan3Ġ":7903,"Ġwei4Ġyu2Ġzhong1Ġguo2Ġ":7904,"yi3Ġjing1Ġ":7905,"que1Ġfa2":7906,"sai1Ġer3Ġwei2Ġ":7907,"Ġyong4":7908,"hui4Ġzhong1Ġ":7909,"shou1Ġji2Ġ":7910,"Ġli4Ġfa3":7911,"xue2Ġhui4Ġ":7912,"Ġbing4Ġfei1Ġ":7913,"hai3Ġxia2Ġ":7914,"gou4ĠdeĠ":7915,"gong1Ġcheng2Ġ":7916,"Ġxi1Ġjie1Ġ":7917,"ge1Ġlun2Ġ":7918,"ngĠ":7919,"Ġji1Ġchang3":7920,"ju4Ġda4Ġ":7921,"pai1Ġ":7922,"Ġcheng2Ġren2Ġ":7923,"fu4Ġze2":7924,"an1Ġna4":7925,"zu2Ġqiu2Ġyun4Ġdong4Ġyuan2Ġ":7926,"xie3ĠdeĠ":7927,"zhui1Ġsu4":7928,"Ġyao1Ġqiu2Ġ":7929,"Ġ2014Ġnian2Ġ":7930,"Ġtong2Ġshi2Ġgai1Ġdi4Ġ":7931,"Ġxi2Ġ":7932,"zuo4Ġchu1Ġ":7933,"bei1Ġsi1Ġ":7934,"Ġye3Ġzai4Ġ":7935,"sheng3ĠdeĠ":7936,"ling4Ġren2Ġ":7937,"nĠĠĠ":7938,"hui4Ġzhi4Ġ":7939,"Ġde2Ġzhu3Ġ":7940,"tao3Ġlun4":7941,"gao1Ġsu4Ġgong1Ġlu4Ġ":7942,"Ġyue1":7943,"Ġji2Ġdi4Ġ":7944,"fan4Ġzui4Ġ":7945,"nei4Ġlu4Ġsheng3Ġfen4Ġ":7946,"an1Ġhui1Ġ":7947,"ke1Ġxue2Ġjia1Ġ":7948,"tu2Ġxing2Ġ":7949,"pi1Ġzhun3":7950,"Ġbing4Ġdu2Ġ":7951,"jiang1Ġzai4Ġ":7952,"di1Ġyu2Ġ":7953,"Ġpo4Ġ":7954,"zhu2Ġbu4Ġ":7955,"ĠdeĠdi4Ġer4Ġ":7956,"shou4ĠdeĠ":7957,"shan1ĠdeĠ":7958,"Ġshi4Ġyin1Ġwei4Ġ":7959,"Ġke4Ġxi1Ġ":7960,"lian2Ġhe2Ġhui4Ġ":7961,"ci4ĠdeĠ":7962,"chao1Ġyue4Ġ":7963,"jie2Ġguo3":7964,"tai2Ġnan2":7965,"jian3Ġshao3":7966,"qiang2Ġlie4Ġ":7967,"3Ġge4Ġ":7968,"Ġcha2":7969,"xia4Ġling4Ġshi2Ġjian1Ġ":7970,"hai3Ġping2Ġmian4Ġ":7971,"bu2Ġdao4Ġ":7972,"Ġshi2Ġqi1ĠdeĠ":7973,"Ġyuan2Ġxing2Ġ":7974,"Ġwan2Ġjia1Ġ":7975,"ye3Ġzai4Ġ":7976,"Ġji1Ġhui4Ġ":7977,"Ġxue2Ġyuan4":7978,"yi2Ġding4":7979,"hui1Ġfu4":7980,"guo4ĠdeĠ":7981,"ya4Ġmei3Ġ":7982,"1972Ġnian2Ġ":7983,"Ġguo2Ġnei4Ġ":7984,"bian1Ġjie4Ġ":7985,"dong3Ġshi4Ġzhang3Ġ":7986,"jia4Ġge2Ġ":7987,"Ġjiao4Ġyu4Ġ":7988,"pai4Ġqian3":7989,"ti2Ġyi4Ġ":7990,"shu1Ġzhong1Ġ":7991,"xun1Ġzhang1Ġ":7992,"zhu3Ġjiao4":7993,"shi1Ġbai4Ġ":7994,"Ġhao4ĠdeĠ":7995,"zhu3Ġyao4ĠdeĠ":7996,"ni2Ġya4Ġzhou1Ġ":7997,"Ġs":7998,"Ġhou4Ġbei4Ġ":7999,"Ġxue2Ġjia1Ġ":8000,"liu2Ġxia4Ġ":8001,"shuang1Ġfang1Ġ":8002,"ĠĠĠbei4Ġjing3Ġ":8003,"er2Ġtong2Ġ":8004,"Ġyi1Ġli4Ġ":8005,"guan1Ġcha2Ġ":8006,"fang1Ġfa3":8007,"jia1Ġyi4Ġ":8008,"1978Ġnian2Ġ":8009,"Ġbu4Ġdui4":8010,"Ġyi3Ġwei2Ġ":8011,"ĠĠĠ3":8012,"Ġzai4Ġshi2Ġ":8013,"ti2Ġgong1ĠleĠ":8014,"lian2Ġxu4":8015,"xian4ĠdeĠ":8016,"qin1Ġzi4Ġ":8017,"Ġer2ĠziĠ":8018,"bei3Ġjing1Ġshi4Ġ":8019,"Ġ1950":8020,"Ġdian4Ġshi4Ġ":8021,"1979Ġnian2Ġ":8022,"Ġyou3Ġsuo3Ġ":8023,"zui4Ġgao1ĠdeĠ":8024,"hui4Ġyi4Ġyuan2Ġ":8025,"Ġmei2":8026,"san1Ġjiao3":8027,"ban3Ġben3":8028,"ĠĠĠdi4Ġfang1Ġzi1Ġliao4Ġ":8029,"ren4Ġwei4Ġ":8030,"ma3Ġer3Ġ":8031,"lan2ĠdeĠ":8032,"na2Ġxia4Ġ":8033,"ping2Ġtai2Ġ":8034,"fei1Ġchang2":8035,"ĠĠĠjian3Ġjie4Ġ":8036,"leĠzai4Ġ":8037,"duo1Ġwei4Ġ":8038,"zu3Ġfu4Ġ":8039,"Ġhe2Ġyue1Ġ":8040,"Ġli4Ġliang4Ġ":8041,"Ġchu1Ġkou3Ġ":8042,"shen2ĠmeĠ":8043,"Ġta1Ġceng2Ġdai4Ġbiao3Ġ":8044,"bei4ĠdeĠ":8045,"pi3Ġ":8046,"Ġdi4Ġli3Ġ":8047,"nan2Ġbei3Ġ":8048,"neng2Ġyuan2Ġ":8049,"bian3Ġ":8050,"Ġdi4Ġqi1Ġ":8051,"Ġxian4Ġfa3Ġ":8052,"gai3Ġbian4":8053,"Ġhou4Ġzhe3Ġ":8054,"que1Ġfa2Ġ":8055,"tai2Ġzhong1Ġ":8056,"di2Ġshi4Ġ":8057,"Ġzheng4Ġming2Ġ":8058,"Ġshi2Ġji4Ġshang4Ġ":8059,"liao3Ġ":8060,"Ġcheng2Ġzhen4Ġ":8061,"4Ġren2Ġ":8062,"Ġsu4Ġ":8063,"Ġ2015Ġnian2Ġ":8064,"ĠĠĠ1":8065,"zi4ĠdeĠ":8066,"xuan3Ġzhong1Ġ":8067,"di2Ġren2Ġ":8068,"Ġli4Ġyi4Ġ":8069,"Ġshou3":8070,"li3Ġhe2Ġ":8071,"Ġjia3":8072,"pai4Ġchu1Ġ":8073,"Ġmei3Ġyuan2Ġ":8074,"Ġzhong1Ġguo2Ġren2Ġmin2Ġjie3Ġfang4Ġjun1Ġ":8075,"duo1Ġzhong3Ġ":8076,"tan2Ġpan4Ġ":8077,"liao2Ġning2Ġ":8078,"1976Ġnian2Ġ":8079,"Ġbu4Ġshao3Ġ":8080,"Ġsi1Ġta3Ġ":8081,"1Ġnian2Ġ":8082,"Ġlu3Ġ":8083,"ti2Ġchu1ĠdeĠ":8084,"sui2Ġji2Ġ":8085,"wan2Ġzheng3":8086,"ying1Ġgai1Ġ":8087,"tui4Ġxiu1Ġ":8088,"Ġda4Ġxue2ĠdeĠ":8089,"hai3Ġba2Ġwei4Ġ":8090,"ping2Ġwei4Ġ":8091,"gan4Ġbu4Ġ":8092,"lei3Ġji4Ġ":8093,"Ġshi2Ġxing2Ġ":8094,"ying1Ġge2Ġlan2":8095,"mian3Ġdian1":8096,"dang1Ġzhong1Ġ":8097,"jue2Ġyi4Ġ":8098,"xu4Ġli4Ġya4Ġ":8099,"shang1Ġren2Ġ":8100,"biao1Ġben3Ġ":8101,"fa1Ġsheng1Ġzai4Ġ":8102,"suo3Ġcai3Ġyong4":8103,"zhi3Ġdao3Ġ":8104,"Ġju4Ġjue2Ġ":8105,"hua4Ġzhong1Ġ":8106,"zan4Ġshi2Ġ":8107,"zhuang1Ġjia3Ġ":8108,"mei3Ġzhou1":8109,"tiao4Ġ":8110,"Ġfu4Ġjin4":8111,"Ġzhong1Ġgong4Ġzhong1Ġyang1Ġ":8112,"ci4Ġyu2Ġ":8113,"Ġyi4Ġqing2Ġ":8114,"nong2Ġmin2Ġ":8115,"zi1Ġliao4":8116,"yi2Ġdai4Ġ":8117,"Ġde2Ġming2Ġ":8118,"ĠĠĠyin1Ġ":8119,"shui3Ġli4Ġ":8120,"rong2Ġhe2Ġ":8121,"Ġzhong1Ġguo2ĠdeĠ":8122,"xiu1Ġgai3Ġ":8123,"fa1Ġming2Ġ":8124,"1958Ġnian2Ġ":8125,"Ġqi2Ġwei4Ġ":8126,"zhi3Ġneng2Ġ":8127,"Ġming2Ġzhi4Ġ":8128,"Ġgong1Ġzhong4Ġ":8129,"Ġchu2":8130,"zhuan3Ġxiang4Ġ":8131,"zhu3Ġyan3Ġ":8132,"zi1Ġben3Ġ":8133,"a1Ġla1Ġbo2":8134,"Ġba3":8135,"xiang1Ġsi4Ġ":8136,"guan1Ġcha2":8137,"jie1Ġchu4Ġ":8138,"Ġbei3Ġjing1":8139,"kai1Ġshe4Ġ":8140,"xiu1Ġjian4Ġ":8141,"zhong3ĠziĠ":8142,"jing4Ġji4Ġ":8143,"jie3Ġsan4Ġ":8144,"ĠdeĠshi4Ġjie4Ġ":8145,"8Ġnian2Ġ":8146,"Ġ2016Ġnian2Ġ":8147,"wu3Ġzhuang1":8148,"Ġcn":8149,"dian4Ġji1Ġ":8150,"chai1Ġchu2Ġ":8151,"kai1Ġtong1Ġ":8152,"bao4Ġzha4Ġ":8153,"ju3Ġban4ĠdeĠ":8154,"fa1Ġqi3Ġ":8155,"shen1Ġdu4Ġ":8156,"an1Ġpai2":8157,"Ġtang2":8158,"qu1Ġshi4Ġ":8159,"nu3Ġ":8160,"wei2Ġsi1Ġ":8161,"tuan2Ġti3":8162,"ji1Ġgou4Ġ":8163,"fu4Ġzhu3Ġren4Ġ":8164,"fa1Ġshou4Ġ":8165,"zu3Ġzhi1ĠdeĠ":8166,"ĠĠĠqi2":8167,"Ġnian2Ġlai2Ġ":8168,"feng1Ġxian3Ġ":8169,"diao4Ġkuai4":8170,"cheng2Ġhe2Ġ":8171,"Ġwei4Ġda4Ġ":8172,"Ġyu3Ġqi2Ġta1Ġ":8173,"ĠĠĠI":8174,"ĠĠĠdui4Ġ":8175,"bian1Ġju4Ġ":8176,"zhang1Ġzhuan1Ġji2Ġ":8177,"ĠZ":8178,"jie2ĠdeĠ":8179,"zao4ĠleĠ":8180,"Ġwei4ĠUTCĠ":8181,"Ġbu4Ġji2Ġ":8182,"Ġzhong1Ġshan1Ġ":8183,"neng2Ġliang4Ġ":8184,"shuai4Ġling3":8185,"ĠcnĠ":8186,"Ġge1":8187,"ban4Ġshi4Ġchu4Ġ":8188,"qiu2Ġji4Ġ":8189,"tiao2Ġzheng3":8190,"Ġxi1Ġban1Ġya2Ġ":8191,"LĠ":8192,"luo2Ġli3Ġ":8193,"2025Ġnian2Ġ":8194,"ge2Ġla1Ġ":8195,"jiu4Ġdu2Ġ":8196,"diao4Ġkuai4Ġyi1Ġxiao3Ġshi2Ġ":8197,"9Ġnian2Ġ":8198,"ze2Ġzai4Ġ":8199,"ĠdeĠying3Ġxiang3Ġ":8200,"ying1Ġxiong2Ġ":8201,"shang1Ġye4":8202,"qiang2Ġdiao4Ġ":8203,"Ġji2ĠUTCĠ":8204,"ke1Ġxue2Ġyuan4Ġ":8205,"she4Ġyou3Ġxia4Ġling4Ġshi2Ġjian1Ġ":8206,"ĠdeĠshi2Ġqu1Ġwei4ĠUTCĠ":8207,"Ġer2Ġgai1Ġdi4Ġsuo3Ġcai3Ġyong4":8208,"Ġtong2Ġshi2Ġgai1Ġdi4Ġshe4Ġyou3Ġxia4Ġling4Ġshi2Ġjian1Ġ":8209,"Ġer2Ġgai1Ġdi4Ġsuo3Ġcai3Ġyong4ĠdeĠshi2Ġqu1Ġwei4ĠUTCĠ":8210,"Ġbai4Ġ":8211,"xiao1Ġfei4Ġ":8212,"Ġtong2Ġyang4":8213,"xin4Ġyang3Ġ":8214,"ta1ĠmenĠdeĠ":8215,"you2Ġji1Ġ":8216,"40Ġ":8217,"Ġda4Ġjiang3Ġ":8218,"jiao4Ġtang2":8219,"bao3Ġliu2":8220,"Ġling4Ġyou3Ġ":8221,"Ġyi1Ġsi1Ġlan2Ġ":8222,"yuan2Ġzhu4Ġ":8223,"tai4Ġdu4Ġ":8224,"chuan2Ġbo1Ġ":8225,"Ġgai1Ġcun1Ġ":8226,"suo3Ġzai4Ġdi4Ġ":8227,"que4ĠdeĠ":8228,"zhi1Ġjian1ĠdeĠ":8229,"ĠĠĠjiao1Ġtong1Ġ":8230,"fa1Ġshe4":8231,"Ġshi2Ġwu4Ġ":8232,"ding4Ġju1Ġ":8233,"Ġma3Ġlai2":8234,"Ġli4Ġshi3Ġshang4Ġ":8235,"gao1Ġyu2Ġhai3Ġping2Ġmian4Ġ":8236,"Ġzheng1Ġ":8237,"pei4Ġzhi4Ġ":8238,"Ġwei4Ġfu2Ġqi2Ġyu2Ġgang1Ġ":8239,"Ġhuan4Ġ":8240,"xing4Ġwei4Ġ":8241,"zhu2Ġjian4":8242,"kun4Ġ":8243,"Ġbu4Ġneng2":8244,"Ġgong1Ġjue2Ġ":8245,"Ġer3Ġduo1Ġ":8246,"Ġqi2Ġxia4Ġ":8247,"ĠÎ":8248,"ĠĠĠqing1Ġ":8249,"wu4Ġhe2Ġ":8250,"hu4Ġxiang1Ġ":8251,"Ġdan1":8252,"hui4Ġyu2Ġ":8253,"chu4ĠdeĠhai3Ġba2Ġwei4Ġ":8254,"chu4ĠdeĠhai3Ġba2Ġwei4Ġgao1Ġyu2Ġhai3Ġping2Ġmian4Ġ":8255,"hou4Ġwei4Ġ":8256,"Ġyin1Ġsu4Ġ":8257,"ti3Ġzhi4Ġ":8258,"alĠ":8259,"jing4Ġxuan3Ġ":8260,"wu4Ġshi4Ġ":8261,"qia4Ġ":8262,"Ġyu2Ġle4":8263,"chang3Ġsuo3Ġ":8264,"Ġzhi1Ġyi4Ġ":8265,"Ġhe2Ġpan4Ġ":8266,"Ġbu4Ġjin3Ġ":8267,"Ġyi3Ġxi1Ġ":8268,"Ġni3Ġ":8269,"fa1Ġxian4ĠdeĠ":8270,"zhong4Ġshi4Ġ":8271,"kuang2Ġ":8272,"Ġqi2Ġshi2Ġ":8273,"Ġsui2Ġzhu4Ġ":8274,"ĠĠĠma3Ġ":8275,"nan2Ġjing1":8276,"zhang3Ġda2Ġ":8277,"yun4Ġshu1":8278,"Ġ2008":8279,"Ġlian2Ġhe2Ġ":8280,"Ġ2017Ġnian2Ġ":8281,"he2ĠĠĠ":8282,"shu4Ġshi2Ġ":8283,"nei4Ġdi4Ġ":8284,"Ġxu1Ġ":8285,"shi2Ġqu1Ġ":8286,"gao1Ġxiong2":8287,"jian4Ġcheng2Ġ":8288,"geng1Ġxin1Ġ":8289,"isĠĠĠ":8290,"chan2Ġ":8291,"Ġyi1Ġjia1Ġ":8292,"Ġxi1Ġlan2Ġ":8293,"yun4Ġyong4Ġ":8294,"Ġzi4Ġran2Ġ":8295,"chong2Ġqing4":8296,"Ġdai4":8297,"Ġhu2":8298,"Ġzheng4Ġzhi4Ġ":8299,"Ġxie4Ġ":8300,"lu4Ġzhi4Ġ":8301,"bi4Ġye4Ġhou4Ġ":8302,"ĠĠĠran2":8303,"er4Ġji2Ġ":8304,"bian1Ġhao4Ġ":8305,"Ġli4Ġren4Ġ":8306,"shan1Ġfeng1Ġ":8307,"Ġwei4Ġyu2Ġgai1Ġ":8308,"wei2Ġer3Ġ":8309,"zhi2Ġzheng4Ġ":8310,"dian4Ġqi4Ġ":8311,"Ġ8Ġ":8312,"zhe3Ġshi4Ġ":8313,"wang2Ġshi4Ġ":8314,"Ġzuo4Ġchu1Ġ":8315,"Ġyi2":8316,"xia2Ġqu1Ġ":8317,"ĠĠĠben3":8318,"ceng2Ġwei4Ġ":8319,"bao1Ġwei2Ġ":8320,"bang4Ġqiu2Ġ":8321,"xue2Ġyuan2Ġ":8322,"cuo4Ġwu4Ġ":8323,"Ġdi4Ġqiu2":8324,"jin1Ġrong2Ġ":8325,"xiao4Ġqu1Ġ":8326,"Ġyu4Ġshi3Ġ":8327,"xuan1Ġchuan2":8328,"dong1Ġfang1Ġ":8329,"ĠMa":8330,"hou4Ġyi4Ġ":8331,"bei3Ġshi4Ġ":8332,"jing1Ġchang2":8333,"Ġran2Ġer2":8334,"Ġting2Ġ":8335,"jiu4Ġhui4Ġ":8336,"Ġjie2Ġke4Ġ":8337,"Ġsi1Ġke1Ġ":8338,"Ġdui4Ġshou3Ġ":8339,"Ġxing2Ġzheng4Ġqu1Ġ":8340,"zhen4Ġqu1ĠdeĠmian4Ġji1Ġwei4Ġ":8341,"Ġzhou1Ġci4Ġshi3Ġ":8342,"Ġsheng1Ġya2Ġ":8343,"Ġfa1Ġxing2Ġ":8344,"jia1Ġyi3Ġ":8345,"ju2ĠdeĠ":8346,"Ġbai3":8347,"fu2ĠdeĠ":8348,"ma3Ġke4Ġ":8349,"Ġta1Ġyi3Ġ":8350,"Ġyuan2Ġzi4Ġ":8351,"Ġli3Ġxi1Ġ":8352,"zao4Ġcheng2ĠdeĠ":8353,"zhi2Ġmin2Ġ":8354,"Ġ2023":8355,"Ġqin1Ġ":8356,"ping2Ġlun4":8357,"fu1Ġka3Ġ":8358,"Ġfu2Ġwu4Ġ":8359,"Ġdang1Ġshi2ĠdeĠ":8360,"ao4Ġzhou1Ġ":8361,"ke3Ġzai4Ġ":8362,"Ġyi1Ġju4Ġ":8363,"Ġgan3Ġ":8364,"ji4Ġyou3Ġ":8365,"shi3Ġjian4Ġyu2Ġ":8366,"ren4ĠdeĠ":8367,"ye3Ġbei4Ġ":8368,"mian4Ġshang4Ġ":8369,"shuai1Ġ":8370,"gong1Ġgong4Ġ":8371,"Ġsi1Ġke4":8372,"Ġer2Ġtong2Ġ":8373,"Ġfa1Ġxian4Ġ":8374,"Ġ2018Ġnian2Ġ":8375,"ming2Ġshi4Ġ":8376,"ban4ĠdeĠ":8377,"Ġxue2Ġzhe3Ġ":8378,"HĠ":8379,"pao3Ġ":8380,"Ġjian4Ġshe4":8381,"Ġwei2Ġrao4":8382,"Ġye3Ġbei4Ġ":8383,"qian1Ġshu3Ġ":8384,"Ġqi2Ġzhong1Ġbao1Ġkuo4Ġ":8385,"jia1Ġzai4Ġ":8386,"Ġ2009":8387,"tu1Ġran2Ġ":8388,"hai3Ġyang2Ġ":8389,"ji1Ġzai4Ġ":8390,"lai2Ġyin1Ġ":8391,"jun4Ġgong1Ġ":8392,"Ġji2Ġda4Ġ":8393,"Ġde2Ġzhi1Ġ":8394,"Ġji1Ġjin1Ġhui4Ġ":8395,"xiao4Ġli4Ġyu2Ġ":8396,"Ġ2019Ġnian2Ġ":8397,"ji4Ġnian4":8398,"qi4Ġche1":8399,"ling4Ġyi2Ġge4Ġ":8400,"xiao1Ġshi1Ġ":8401,"Ġsha1":8402,"Ġwei4Ġdui4Ġ":8403,"ru2Ġguo3Ġ":8404,"dang1Ġdi4ĠdeĠ":8405,"jiang4Ġling3Ġ":8406,"Ġ19":8407,"yan2Ġhai3Ġ":8408,"tao2Ġtai4Ġ":8409,"wei3Ġyuan2Ġhui4Ġwei3Ġyuan2Ġ":8410,"Ġxian1":8411,"Ġyun2Ġ":8412,"Ġli3Ġya4Ġ":8413,"tian2Ġjing4Ġ":8414,"Ġxing1":8415,"Ġ2Ġyue4Ġ":8416,"ĠĠĠjin3Ġ":8417,"ping2Ġyuan2Ġ":8418,"bei4Ġjing3Ġ":8419,"ka3Ġluo2Ġ":8420,"ĠĠĠsheng4Ġ":8421,"jin4Ġbu4Ġ":8422,"ding4Ġyu2Ġ":8423,"er4Ġren2Ġ":8424,"liang3Ġguo2Ġ":8425,"te4Ġding4Ġ":8426,"fen4Ġzi3":8427,"Ġci4Ġnian2Ġ":8428,"da4Ġbu4Ġ":8429,"dui4Ġqi2Ġ":8430,"Ġqi2ĠdeĠ":8431,"ĠdeĠbu4Ġfen4Ġ":8432,"zhi2Ġmin2Ġdi4Ġ":8433,"Ġe4Ġ":8434,"jiao4Ġda4Ġ":8435,"Ġzhi4Ġzuo4ĠdeĠ":8436,"Ġji1Ġdu1Ġ":8437,"dian4Ġnao3Ġ":8438,"gai3Ġzao4Ġ":8439,"chuan2Ġtong3ĠdeĠ":8440,"Ġchong1Ġ":8441,"shou3Ġzhong1Ġ":8442,"deng3Ġji2Ġ":8443,"sheng1Ġya2":8444,"Ġbu4Ġbu4Ġzhang3Ġ":8445,"guan1Ġjian4Ġ":8446,"jing1Ġshen2":8447,"Ġqian2Ġwang3Ġ":8448,"dian3Ġshi4Ġ":8449,"yi4Ġshu4Ġ":8450,"quan2Ġmian4Ġ":8451,"Ġdian4Ġying3":8452,"mo4Ġxi1Ġge1Ġ":8453,"Ġxian2Ġ":8454,"zhen4ĠdeĠ":8455,"tui1Ġchu1":8456,"1968Ġnian2Ġ":8457,"guo2Ġjia1":8458,"Ġdi4Ġtie3":8459,"Ġxian4Ġyi3Ġ":8460,"Ġji1Ġchu3":8461,"Ġju4Ġli2":8462,"li2Ġkai1":8463,"mu4ĠdeĠ":8464,"Ġluo2Ġma3Ġ":8465,"Ġgen1Ġ":8466,"ĠĠĠnan2Ġ":8467,"Ġshi2Ġduan4Ġ":8468,"jie1Ġduan4":8469,"liang3Ġci4Ġ":8470,"ai4Ġer3Ġlan2Ġ":8471,"san1Ġming2Ġ":8472,"hun1Ġyin1Ġ":8473,"touĠ":8474,"da4Ġlu4":8475,"Ġyi4Ġyu2Ġ":8476,"shu1Ġyuan4Ġ":8477,"Ġshan1Ġdong1Ġ":8478,"a1Ġla1Ġbo2Ġ":8479,"Ġliu4Ġ":8480,"Ġyou2Ġji1Ġ":8481,"wen2ĠdeĠ":8482,"bo1Ġsi1Ġ":8483,"hui4Ġzhang3Ġ":8484,"man3Ġzu2Ġ":8485,"Ġza2Ġzhi4Ġ":8486,"qi1Ġwei4Ġ":8487,"Ġdi4Ġdian3Ġ":8488,"jing4Ġzheng1Ġ":8489,"cai2Ġneng2Ġ":8490,"xin1Ġcheng2Ġ":8491,"liang3Ġwei4Ġ":8492,"pei4Ġyin1Ġ":8493,"seĠ":8494,"zheng4Ġju4Ġ":8495,"Ġwu2Ġfa3Ġ":8496,"lian2ĠdeĠ":8497,"xiu1Ġfu4Ġ":8498,"Ġbing4Ġyou2Ġ":8499,"la1Ġji1Ġ":8500,"kao4Ġjin4Ġ":8501,"Ġdi4Ġdai4Ġ":8502,"Ġli4Ġshi2Ġ":8503,"hu4Ġlian2Ġ":8504,"jie3Ġfang4Ġ":8505,"nei4Ġzhan4Ġ":8506,"bo1Ġshi4Ġ":8507,"Ġwei2Ġchi2":8508,"chu1Ġban3":8509,"zai1Ġpei2Ġ":8510,"neĠ":8511,"Ġshi4Ġde2Ġguo2Ġ":8512,"dui4Ġzhang3Ġ":8513,"fa1Ġqi3":8514,"ju1Ġzhu4Ġzai4Ġ":8515,"zao3Ġzai4Ġ":8516,"bing4Ġbu4Ġ":8517,"shou3Ġxiang4Ġ":8518,"shan1Ġqu1Ġ":8519,"zu2Ġqiu2Ġju4Ġle4Ġbu4Ġ":8520,"Ġkou3Ġ":8521,"ĠBĠ":8522,"juan4Ġ":8523,"jiao1Ġliu2":8524,"Ġguo2Ġwu4Ġyuan4Ġ":8525,"li3Ġcheng2Ġ":8526,"wei3Ġfu4Ġ":8527,"zhe4Ġshi4Ġ":8528,"qi3Ġyuan2Ġ":8529,"gou3Ġ":8530,"cun1Ġluo4Ġ":8531,"fu1ĠdeĠ":8532,"1970Ġnian2Ġ":8533,"ji1Ġchu3":8534,"Ġda4Ġlou2":8535,"yan2Ġse4Ġ":8536,"xiang4Ġzheng1Ġ":8537,"Ġwei2Ġsi1Ġ":8538,"tian1Ġti3Ġ":8539,"dou1Ġbei4Ġ":8540,"Ġbu4Ġbing1Ġ":8541,"Ġyu3Ġyan2":8542,"ĠĠĠdi4Ġer4Ġ":8543,"Ġ28":8544,"Ġ2004Ġnian2Ġ":8545,"liu4Ġshi2Ġ":8546,"Ġzhi4Ġliang4Ġ":8547,"Ġzhou1Ġfu3Ġ":8548,"Ġcan1Ġyu4Ġ":8549,"ĠĠĠ17":8550,"lang2Ġzhong1Ġ":8551,"Ġyi1Ġyuan4":8552,"Ġxing2Ġmu4Ġ":8553,"shen2Ġme":8554,"Ġding1Ġ":8555,"xing4Ġhe2Ġ":8556,"Ġyi3Ġwai4Ġ":8557,"chang2Ġdu4Ġ":8558,"luo4Ġfa2":8559,"laĠ":8560,"Ġzhi4Ġdi4Ġ":8561,"Ġyu3Ġyi1Ġ":8562,"wu2Ġzheng4Ġzhuang4Ġgan3Ġran3Ġzhe3Ġ":8563,"Ġyi4Ġshi4Ġ":8564,"ĠĠĠ2008":8565,"liang4Ġwei4Ġ":8566,"mu3ĠdeĠ":8567,"Ġde2Ġsi1Ġ":8568,"hĠ":8569,"Ġ2020Ġnian2Ġ":8570,"shou1Ġgou4Ġ":8571,"zui4Ġchu1":8572,"xie3Ġzuo4Ġ":8573,"meng4Ġjia1Ġ":8574,"Ġbao3":8575,"te4Ġxing4Ġ":8576,"shi1Ġqu4":8577,"Ġwei4Ġyu2Ġmei3Ġguo2Ġ":8578,"jia3Ġdi4Ġ":8579,"Ġzui4Ġjia1Ġ":8580,"ĠĠĠMa":8581,"fu4Ġhe2Ġ":8582,"chuang2Ġ":8583,"tai4Ġyang2":8584,"ao4Ġmen2":8585,"fu2Ġli4Ġ":8586,"ge2Ġshi4Ġ":8587,"1956Ġnian2Ġ":8588,"Ġxian4Ġji2Ġ":8589,"suo3ĠdeĠ":8590,"zhuan4ĠdeĠ":8591,"zong1Ġyi4Ġ":8592,"zi4Ġmu3Ġ":8593,"ling2Ġchen2Ġ":8594,"zhi2Ġye4Ġsheng1Ġya2Ġ":8595,"suo3Ġwei4Ġ":8596,"tou4Ġlu4Ġ":8597,"dong1Ġbei3":8598,"Ġyi2Ġge4":8599,"5Ġren2Ġ":8600,"ou3Ġxiang4Ġ":8601,"kao3Ġshi4Ġ":8602,"Ġfu2Ġjian4Ġ":8603,"ĠĠĠge4Ġren2Ġ":8604,"jue2Ġshi4Ġ":8605,"zong3Ġren2Ġkou3Ġ":8606,"siĠ":8607,"Ġdi4Ġfang1":8608,"Ġxian4Ġcheng2Ġ":8609,"Ġli3Ġke4Ġ":8610,"Ġde2Ġla1Ġ":8611,"kong1Ġqi4Ġ":8612,"Ġnuo4Ġ":8613,"na4ĠdeĠ":8614,"fen2Ġ":8615,"zuo4Ġwei2":8616,"zhu3Ġzhang1Ġ":8617,"xi1Ġhe2Ġ":8618,"ping2ĠdeĠ":8619,"1960Ġnian2Ġ":8620,"xi1Ġnan2Ġ":8621,"Ġtai4":8622,"hui2Ġyi4Ġ":8623,"1920Ġnian2Ġ":8624,"1981Ġnian2Ġ":8625,"Ġyi3Ġzai4Ġ":8626,"Ġye3Ġke3Ġyi3Ġ":8627,"pu2Ġtao2Ġya2Ġ":8628,"ĠĠĠren2Ġ":8629,"1964Ġnian2Ġ":8630,"Ġzuo4Ġzhan4Ġ":8631,"Ġku4Ġ":8632,"ĠĠĠRe":8633,"qi1Ġshi2Ġ":8634,"zou3Ġxiang4Ġ":8635,"Ġyi3Ġyu2Ġ":8636,"Ġcheng2Ġke4Ġ":8637,"su1Ġge2Ġlan2Ġ":8638,"Ġzhen1":8639,"guo4ĠleĠ":8640,"che1Ġdui4Ġ":8641,"Ġer3Ġshi4Ġ":8642,"Ġdiao4Ġ":8643,"Ġxiao3Ġshi2Ġ":8644,"Ġsun1Ġ":8645,"nan2ĠdeĠ":8646,"hu4Ġbu4Ġ":8647,"Ġdi4Ġtu2Ġ":8648,"Ġyuan2Ġben3":8649,"Ġchu1Ġdao4Ġ":8650,"yin4Ġni2Ġ":8651,"Ġ2007":8652,"Ġse4Ġ":8653,"Ġ2021Ġnian2Ġ":8654,"wu3Ġshi4Ġ":8655,"shou1Ġdao4Ġ":8656,"wa3Ġer3Ġsheng3Ġ":8657,"guan3Ġzhi4Ġ":8658,"gu3Ġli4Ġ":8659,"fei2Ġ":8660,"Ġgong1Ġli3ĠdeĠ":8661,"xin4Ġyang3":8662,"zhu3Ġyi4Ġzhe3Ġ":8663,"Ġ24":8664,"tou1Ġ":8665,"Ġwei4Ġyuan2Ġ":8666,"guo4Ġdu4Ġ":8667,"ou3Ġ":8668,"yan2Ġren2Ġ":8669,"luo4Ġcheng2Ġ":8670,"xian3Ġzhu4Ġ":8671,"baĠ":8672,"guo2Ġwu4Ġ":8673,"shi3Ġshang4Ġ":8674,"guang3Ġchang3":8675,"xun2Ġzhao3":8676,"Ġshi2Ġyan4Ġshi4Ġ":8677,"Ġsi1Ġling4Ġbu4Ġ":8678,"Ġkai3":8679,"shi3Ġren2Ġ":8680,"bi4ĠdeĠ":8681,"mai4Ġke4Ġ":8682,"Ġdi4Ġliu4Ġ":8683,"wang4Ġyuan3Ġ":8684,"ĠĠĠyue4Ġ":8685,"xi1Ġdi4Ġ":8686,"xiu1Ġdao4Ġ":8687,"hun2Ġ":8688,"Ġda4Ġgong1Ġ":8689,"Ġfu4Ġjin4ĠdeĠ":8690,"si4ĠdeĠ":8691,"ceng2Ġyu2Ġ":8692,"shou3Ġdu1":8693,"ge2Ġli2Ġ":8694,"shao4Ġnv3Ġ":8695,"ĠĠĠ2009":8696,"yu2Ġhe2Ġ":8697,"jiang1Ġyu2Ġ":8698,"dong1Ġjing1":8699,"zhuan1Ġye4":8700,"Ġzu2Ġ":8701,"di4Ġhe2Ġ":8702,"yan2Ġzhi4Ġ":8703,"du4Ġhe2Ġ":8704,"fang4Ġzai4Ġ":8705,"Ġji2Ġshi3Ġ":8706,"jian1Ġyu4Ġ":8707,"mian3Ġfei4Ġ":8708,"jiao3Ġdu4Ġ":8709,"zuo3Ġyi4Ġ":8710,"Ġcheng2Ġben3Ġ":8711,"wei2Ġzhu3Ġ":8712,"fan3Ġhui2":8713,"Ġdang3Ġ":8714,"1948Ġnian2Ġ":8715,"bei4Ġcheng1Ġwei2Ġ":8716,"Ġxing2Ġdong4":8717,"deng3Ġdeng3Ġ":8718,"cai3Ġqu3":8719,"guan3Ġli3Ġju2Ġ":8720,"Ġxie4":8721,"tai2Ġbei3Ġshi4Ġ":8722,"Ġjue2Ġding4Ġ":8723,"1975Ġnian2Ġ":8724,"Ġyue4Ġdui4Ġ":8725,"Ġshe4Ġyu2Ġ":8726,"Ġjun1Ġqu1Ġ":8727,"bi4Ġmian3":8728,"kong1Ġjian1":8729,"xing2Ġtai4Ġ":8730,"ĠĠĠdang1Ġ":8731,"she4Ġbei4Ġ":8732,"xiang1Ġshi4Ġ":8733,"ka3Ġsi1Ġ":8734,"cai3Ġfang3":8735,"shan1Ġxian4Ġ":8736,"Ġer2Ġfei1Ġ":8737,"gai3Ġshan4Ġ":8738,"fei4Ġchu2Ġ":8739,"stĠĠĠ":8740,"li3Ġlun4":8741,"xi1Ġbei3Ġ":8742,"zheng4Ġfu3ĠdeĠ":8743,"Ġ35":8744,"shang4Ġdi4Ġ":8745,"dao3Ġshang4Ġ":8746,"Ġzai4Ġhe2Ġ":8747,"Ġke4Ġer3Ġ":8748,"Ġshen2":8749,"Ġfeng4Ġ":8750,"ci3Ġtong2Ġshi2Ġ":8751,"luo4Ġshan1Ġji1Ġ":8752,"Ġ2002Ġnian2Ġ":8753,"ĠĠĠsi1Ġ":8754,"kai1Ġgong1Ġ":8755,"tong1Ġzhi1Ġ":8756,"xiang1Ġguan1ĠdeĠ":8757,"bo1Ġli2Ġ":8758,"jia4Ġshi3Ġ":8759,"Ġfen1Ġbie2Ġ":8760,"Ġcai4":8761,"Ġmi4Ġ":8762,"jiu4Ġyuan2Ġ":8763,"ĠdeĠju4Ġ":8764,"ĠĠĠzheng4Ġ":8765,"1952Ġnian2Ġ":8766,"Ġdi4Ġyi1Ġci4":8767,"7Ġren2Ġ":8768,"Ġyong3":8769,"ĠĠĠdeĠĠĠ":8770,"he2Ġzai4Ġ":8771,"ye3Ġhui4Ġ":8772,"wa2Ġ":8773,"Ġzhi1Ġshi4Ġ":8774,"hai3Ġan4":8775,"ci2Ġzhi2Ġ":8776,"hen3Ġkuai4Ġ":8777,"e2Ġluo2Ġsi1ĠdeĠ":8778,"shang4Ġxian4Ġ":8779,"Ġren2Ġda4Ġ":8780,"Ġyi4Ġjian4Ġ":8781,"Ġpu3":8782,"Ġwei4Ġzai4Ġ":8783,"xi3Ġhuan1Ġ":8784,"Ġ60":8785,"Ġxu4Ġ":8786,"kou3ĠdeĠ":8787,"zheng1Ġyue4Ġ":8788,"ti4Ġdai4Ġ":8789,"chu4Ġzhang3Ġ":8790,"chong1Ġtu1":8791,"Ġkai3Ġ":8792,"ĠĠĠba1Ġ":8793,"qiang2Ġzhi4Ġ":8794,"Ġshi2Ġxian4":8795,"jian1Ġdu1Ġ":8796,"ying3Ġshi4Ġ":8797,"ci2ĠdeĠ":8798,"huai4Ġ":8799,"ti2Ġchu1ĠleĠ":8800,"wai4Ġjiao1Ġbu4Ġ":8801,"zĠ":8802,"xue2Ġzhong1Ġ":8803,"Ġge4Ġguo2Ġ":8804,"yin3Ġyong4Ġ":8805,"min2Ġzhu3Ġdang3":8806,"shan1Ġdi4Ġ":8807,"jiu3ĠdeĠ":8808,"jin3Ġyou3Ġ":8809,"ji4Ġsuan4":8810,"Ġlei2":8811,"Ġe2Ġ":8812,"Ġsuo1Ġ":8813,"feng1Ġfu4Ġ":8814,"Ġzhu3Ġyan3Ġ":8815,"Ġfa3":8816,"si1Ġshi4Ġ":8817,"nuo2Ġwei1":8818,"ĠĠĠinĠĠĠ":8819,"ĠĠĠgu4Ġshi4Ġ":8820,"Ġsi1Ġma3Ġ":8821,"Ġge4Ġzhong3":8822,"Ġhao4Ġxian4":8823,"zhang3Ġguan1Ġ":8824,"zong1Ġjiao4":8825,"xiao3Ġxing2Ġxing1":8826,"ĠĠĠfu4Ġ":8827,"Ġshi2Ġhou4Ġ":8828,"mo4Ġxi1Ġge1":8829,"qiang2ĠdeĠ":8830,"Ġyou3Ġxie1":8831,"pu3Ġbian4":8832,"bu4ĠdeĠcun1Ġzhuang1Ġ":8833,"ĠĠĠyi3Ġxia4":8834,"2Ġge4Ġ":8835,"VĠ":8836,"Ġ26":8837,"guan3ĠdeĠ":8838,"zan4Ġzhu4Ġ":8839,"yin4Ġshua1":8840,"Ġchuan1Ġ":8841,"cu4Ġjin4Ġ":8842,"Ġyue4Ġlai2Ġyue4Ġ":8843,"liu2Ġyu4Ġ":8844,"Ġpa4Ġ":8845,"gu3Ġlao3":8846,"ma3Ġlai2Ġxi1Ġya4":8847,"ĠĠĠwei2Ġ":8848,"ta1Ġzai4Ġ":8849,"jiang4Ġyu3Ġ":8850,"liao3Ġjie3Ġ":8851,"jia1Ġting2Ġ":8852,"Ġzu2":8853,"Ġcai3Ġyong4Ġ":8854,"fu4Ġshi4Ġ":8855,"lie4Ġchu1Ġ":8856,"kou4Ġ":8857,"Ġcheng2Ġxian4":8858,"Ġzhi1Ġdi4Ġ":8859,"jing1Ġdian3Ġ":8860,"che1Ġxiang1Ġ":8861,"Ġdan4Ġbai2Ġ":8862,"a1Ġgen1Ġ":8863,"ce4Ġliang2Ġ":8864,"tian1Ġhou4Ġ":8865,"yun3Ġshi2Ġ":8866,"Ġxian4Ġshang4Ġ":8867,"qiang2Ġdu4Ġ":8868,"su1Ġwei2Ġ":8869,"guan4Ġjun1":8870,"stĠ":8871,"Ġbu4Ġshao3":8872,"Ġzhi1Ġjia1Ġ":8873,"can1Ġxuan3Ġ":8874,"Ġni3":8875,"Ġke4Ġhe2Ġ":8876,"lie4Ġru4Ġ":8877,"bi4Ġmian3Ġ":8878,"Ġì":8879,"ĠĠĠ4":8880,"Ġxiang1Ġdang1":8881,"tong2Ġxing4Ġ":8882,"ting2Ġche1Ġ":8883,"zao3Ġshang4Ġ":8884,"1966Ġnian2Ġ":8885,"zhu3Ġti2":8886,"fa1Ġdong4Ġji1Ġ":8887,"sen1Ġlin2":8888,"Ġfu4Ġze2Ġguan3Ġxia2Ġ":8889,"ao4Ġer3Ġ":8890,"la1ĠdeĠ":8891,"ming2Ġdan1Ġ":8892,"zhan4Ġtai2Ġ":8893,"guo2Ġshi4Ġ":8894,"hu1Ġyu4Ġ":8895,"Ġgong1Ġying4Ġ":8896,"jian1Ġren4Ġ":8897,"xuan3Ġju3Ġzhong1Ġ":8898,"Ġkuan1Ġ":8899,"Ġyi1Ġzhi2Ġ":8900,"guan1Ġfang1":8901,"suo3Ġyou3ĠdeĠ":8902,"jian4Ġzhu4":8903,"di1Ġqi4Ġ":8904,"Ġba3Ġ":8905,"cai2Ġliao4":8906,"ĠĠĠzeng1Ġzu3Ġ":8907,"6Ġren2Ġ":8908,"Ġkao3Ġ":8909,"sao1Ġ":8910,"nan2Ġzi":8911,"bo2Ġlin2Ġ":8912,"jing3Ġgao4Ġ":8913,"ti3Ġyu4Ġchang3Ġ":8914,"guang3Ġzhou1":8915,"WindowsĠĠĠ":8916,"la1Ġde2Ġ":8917,"shu1Ġchu1Ġ":8918,"1937Ġnian2Ġ":8919,"Ġgong1Ġneng2":8920,"NĠ":8921,"lan2Ġxi1Ġ":8922,"dun4ĠdeĠ":8923,"Ġbu4Ġman3Ġ":8924,"Ġqiu2ĠdeĠ":8925,"yin2Ġpai2Ġ":8926,"yao2Ġgun3":8927,"lian2Ġjie1":8928,"yin3Ġru4Ġ":8929,"zhao4Ġpian1Ġ":8930,"Ġer2Ġgai1Ġdi4ĠdeĠ":8931,"Ġye4":8932,"Ġjie1":8933,"hai2Ġzai4Ġ":8934,"nuo2Ġwei1Ġ":8935,"Ġnian2Ġqing1Ġ":8936,"guo2Ġwang2Ġ":8937,"Ġyu3Ġqi2Ġ":8938,"qi1Ġzi3":8939,"Ġ29":8940,"Ġshun4":8941,"chuang4Ġzuo4ĠdeĠ":8942,"xu4Ġli4Ġya4":8943,"an1Ġzhuang1Ġ":8944,"zao3Ġqi1ĠdeĠ":8945,"shi2Ġhe2Ġ":8946,"tu2ĠdeĠ":8947,"nu4Ġ":8948,"you1Ġxiu4":8949,"mou3Ġxie1":8950,"1946Ġnian2Ġ":8951,"1974Ġnian2Ġ":8952,"Ġji4Ġlu4":8953,"Ġchu1Ġyan3Ġ":8954,"zhi1Ġshi2Ġ":8955,"xia4Ġzai4Ġ":8956,"qiu2Ġhui4Ġ":8957,"ceng2ĠdeĠ":8958,"Ġbei4Ġer3":8959,"zhan4Ġdi4Ġ":8960,"zao1Ġyu4Ġ":8961,"Ġwei4Ġneng2":8962,"Ġjia1Ġting2":8963,"xia4Ġlai2Ġ":8964,"shen1Ġqing3":8965,"zhan4Ġshi2Ġ":8966,"Ġhe2Ġgu3Ġ":8967,"Ġcheng2ĠleĠ":8968,"Ġyi3Ġqian2Ġ":8969,"Ġji4Ġyi4Ġ":8970,"Ġke4Ġli4Ġ":8971,"gu3Ġla1Ġ":8972,"ĠĠĠfor":8973,"ĠĠĠIn":8974,"fei1Ġxing2":8975,"bian1Ġyuan2Ġ":8976,"mo4Ġer3Ġ":8977,"niang2Ġ":8978,"fa1Ġsheng1ĠdeĠ":8979,"Ġxiang1Ġtong2Ġ":8980,"Ġyi3Ġse4Ġlie4Ġ":8981,"te4Ġli4Ġ":8982,"1954Ġnian2Ġ":8983,"Ġshi2Ġbao4Ġ":8984,"xing1Ġqi1":8985,"4Ġge4Ġ":8986,"Ġfou3":8987,"qian2Ġhou4Ġ":8988,"shan1Ġdong1Ġsheng3Ġ":8989,"Ġzhao1Ġhe2Ġ":8990,"zu3ĠdeĠ":8991,"zhong1Ġyang1Ġ":8992,"Ġdui4Ġci3Ġ":8993,"Ġzhi3Ġzai4Ġ":8994,"ĠĠĠgai4Ġyao4Ġ":8995,"Ġ2006":8996,"dui4Ġyuan2Ġ":8997,"san1Ġda4Ġ":8998,"ĠdeĠzhu3Ġyao4Ġ":8999,"shi1Ġqu4Ġ":9000,"tai4Ġkong1Ġ":9001,"Ġzi4Ġyou2":9002,"Ġmo2":9003,"Ġqing3Ġ":9004,"yu2ĠĠĠ":9005,"Ġjun1Ġdi4Ġ":9006,"Ġsheng1Ġming2Ġ":9007,"Ġsong4":9008,"Ġ2000Ġnian2Ġ":9009,"ĠĠĠtoĠĠĠ":9010,"zha4Ġdan4Ġ":9011,"Ġwai4":9012,"wang3Ġshang4Ġ":9013,"ta3Ġer3Ġ":9014,"Ġdi4Ġzhen4Ġ":9015,"xia4Ġjiang4Ġ":9016,"Ġshou3Ġci4Ġ":9017,"ling3Ġdao3ĠdeĠ":9018,"yan2Ġjiu1Ġsheng1Ġ":9019,"te4Ġer3Ġ":9020,"bao3ĠdeĠ":9021,"Ġxian4Ġyou3Ġ":9022,"Ġyuan2Ġyin1":9023,"Ġ000Ġ":9024,"wu1Ġsi1Ġ":9025,"hao3Ġping2Ġ":9026,"pu4Ġ":9027,"zhai1Ġ":9028,"Ġzhong1Ġjian1Ġ":9029,"pu3Ġcha2Ġ":9030,"Ġcai2":9031,"duo1Ġci4":9032,"Ġji2Ġbing4Ġ":9033,"Ġguan3Ġ":9034,"tong2Ġming2Ġ":9035,"te4Ġyou3Ġ":9036,"bian1Ġwei4Ġ":9037,"bo2Ġjue2Ġ":9038,"Ġwei1Ġlian2Ġ":9039,"vĠ":9040,"Ġxian1Ġhou4Ġ":9041,"mi3ĠdeĠ":9042,"Ġxing2Ġbu4Ġ":9043,"qin1Ġwang2Ġ":9044,"kuai4Ġsu4":9045,"cun2ĠdeĠ":9046,"dian4Ġshi4Ġtai2":9047,"Ġguang3Ġdong1Ġ":9048,"qing2ĠdeĠ":9049,"Ġshi4Ġyi1Ġbu4Ġ":9050,"Ġxin1Ġzeng1Ġ":9051,"gai3Ġzhi4Ġwei4Ġ":9052,"hui2Ġgui1Ġ":9053,"ĠĠĠdi4Ġyi1Ġ":9054,"Ġtui1Ġ":9055,"gang3Ġyuan2Ġ":9056,"1955Ġnian2Ġ":9057,"fei4Ġyan2Ġ":9058,"shi1Ġgong1Ġ":9059,"fen3Ġsi1Ġ":9060,"zhui4Ġ":9061,"zhi3Ġkong4Ġ":9062,"mi4ĠdeĠ":9063,"xun1Ġ":9064,"beng1Ġ":9065,"che1Ġliang4":9066,"zan4Ġting2Ġ":9067,"shen1Ġshi4Ġ":9068,"da2Ġzhou1Ġ":9069,"ying3Ġxiang4Ġ":9070,"fang1Ġmi3Ġ":9071,"Ġzi4Ġdong4Ġ":9072,"ĠdeĠhua4Ġ":9073,"da4Ġqu1Ġ":9074,"sheng3Ġjie1Ġrang3Ġ":9075,"zai4ĠĠĠ":9076,"san1Ġren2Ġ":9077,"san1Ġge4":9078,"te4Ġzheng1":9079,"zhe3Ġhe2Ġ":9080,"Ġjie2Ġshu4Ġ":9081,"Ġzui4Ġda4Ġ":9082,"Ġ45":9083,"wu3Ġge4Ġ":9084,"Ġzhe4Ġyang4Ġ":9085,"Ġjin4Ġzhi3Ġ":9086,"rui4Ġdian3Ġ":9087,"Ġmai4Ġke4Ġ":9088,"Ġ25":9089,"Ġmao2Ġ":9090,"Ġbu4Ġyi1Ġ":9091,"Ġping2Ġlun4Ġ":9092,"jing4Ġnei4Ġgong4Ġyou3Ġ":9093,"lu4Ġyi4Ġsi1Ġ":9094,"si4Ġshi4Ġ":9095,"tai4ĠdeĠ":9096,"zhan3Ġlan3Ġ":9097,"Ġshui3":9098,"ĠĠĠjin1Ġ":9099,"you2Ġxing2Ġ":9100,"pei4Ġbei4Ġ":9101,"Ġnian2Ġling2Ġ":9102,"Ġshe4Ġhui4Ġzhu3Ġyi4Ġ":9103,"Ġguo1":9104,"Ġshan4Ġ":9105,"zhe3Ġhui4Ġ":9106,"huang1Ġ":9107,"Ġshi4Ġyi1Ġke1Ġ":9108,"Ġshuang1Ġfang1Ġ":9109,"Ġzai4Ġyi4Ġqi3Ġ":9110,"shi3Ġyu2Ġ":9111,"la1Ġhe2Ġ":9112,"hui2Ġguo2Ġ":9113,"Ġbu4Ġlai2Ġ":9114,"Ġshi2Ġxing4Ġ":9115,"Ġji4Ġzai3":9116,"xin1Ġwen2":9117,"bao3Ġluo2Ġ":9118,"jing4Ġzheng1":9119,"Ġ200":9120,"dang1Ġnian2Ġ":9121,"Ġji2Ġhou4Ġ":9122,"lv4Ġse4Ġ":9123,"can1Ġshu4Ġ":9124,"Ġjiang1Ġsu1Ġ":9125,"wu2Ġxian4Ġdian4Ġshi4Ġ":9126,"Ġchu3Ġ":9127,"Ġke3Ġneng2Ġ":9128,"sheng4Ġchu1Ġ":9129,"Ġdi4Ġzhi4Ġ":9130,"Ġzhi4Ġyi2Ġ":9131,"Ġxi1Ġer3Ġ":9132,"fei4Ġyong4Ġ":9133,"ying4Ġji2Ġ":9134,"Ġbei4Ġpo4Ġ":9135,"du4Ġshi3Ġ":9136,"chan3Ġsheng1ĠleĠ":9137,"enĠĠĠ":9138,"ĠĠĠ2019Ġnian2Ġ":9139,"ma3Ġke4Ġsi1Ġ":9140,"ku1Ġ":9141,"Ġguo2Ġjia1Ġdui4Ġ":9142,"tie3Ġlu4Ġche1Ġzhan4Ġ":9143,"Ġdong4Ġwu4Ġ":9144,"oĠĠĠ":9145,"Ġhu2Ġnan2Ġ":9146,"Ġgong1Ġqing3Ġ":9147,"Ġjia1Ġzu2":9148,"wang2Ġwei4Ġ":9149,"tui1Ġjian4Ġ":9150,"lian2Ġren4Ġ":9151,"lei4Ġxing2ĠdeĠ":9152,"si3Ġyu2Ġ":9153,"zhuo1Ġ":9154,"Ġta1Ġceng2Ġ":9155,"zhang3Ġzi3Ġ":9156,"bei3Ġfang1Ġ":9157,"Ġceng2Ġren4":9158,"ĠSĠ":9159,"Ġzhong4":9160,"ying1Ġli3Ġ":9161,"Ġgong1Ġgong4":9162,"Ġda4Ġdao4":9163,"fu2Ġluo2Ġli3Ġ":9164,"nong2Ġcun1Ġ":9165,"chuang4Ġzao4Ġ":9166,"Ġshi4Ġzhong1Ġhua2Ġren2Ġmin2Ġgong4Ġhe2Ġguo2Ġ":9167,"ying3Ġxiang3Ġli4Ġ":9168,"ĠdeĠzuo4Ġbiao1Ġwei4Ġ":9169,"OĠ":9170,"Ġ27":9171,"10Ġnian2Ġ":9172,"chong1Ġji1Ġ":9173,"sectionĠĠĠ":9174,"Ġshi4Ġhui4Ġ":9175,"qun2Ġdao3":9176,"Ġfu3Ġ":9177,"Ġ2022Ġnian2Ġ":9178,"san1Ġji2Ġ":9179,"Ġzai4Ġxin1Ġ":9180,"te4Ġdian3Ġ":9181,"tian1Ġran2Ġ":9182,"ĠĠĠjia1Ġting2Ġ":9183,"Ġqiu1Ġ":9184,"ĠĠĠ3Ġ":9185,"lv4ĠdeĠ":9186,"Ġzai4Ġta1ĠdeĠ":9187,"chu1Ġqi1Ġ":9188,"fang2Ġwu1Ġ":9189,"she4Ġhui4":9190,"ji2Ġbu4Ġ":9191,"sheng1Ġzhi4Ġ":9192,"fu4Ġjin4":9193,"fang1Ġxiang4":9194,"te4Ġla1Ġ":9195,"qing1Ġchao2Ġ":9196,"jing4Ġnei4":9197,"gu4Ġding4Ġ":9198,"geng4Ġduo1ĠdeĠ":9199,"Ġshen3Ġ":9200,"cong2Ġwei4Ġ":9201,"Ġyi1Ġren2Ġ":9202,"Ġdao4Ġhe2Ġ":9203,"gao1Ġda2Ġ":9204,"Ġnai3":9205,"ĠsectionĠĠĠ":9206,"ĠĠĠshi3Ġyong4Ġ":9207,"xin1Ġshi4Ġ":9208,"zhong1Ġyang1":9209,"Ġshi2Ġzhi4Ġ":9210,"Ġdao4Ġyi1Ġ":9211,"qi4Ġxuan2Ġ":9212,"ban1ĠdeĠ":9213,"zong4Ġ":9214,"xuan3Ġchu1Ġ":9215,"wan2Ġzheng3Ġ":9216,"ĠÑ":9217,"Ġtie3Ġ":9218,"yi2Ġdao4Ġ":9219,"ma1Ġ":9220,"sheng1Ġji1Ġ":9221,"guan1Ġce4Ġ":9222,"Ġye3Ġbu4Ġ":9223,"qing1Ġshao4Ġnian2Ġ":9224,"8Ġren2Ġ":9225,"Ġxu3Ġduo1":9226,"li2Ġmi3Ġ":9227,"Ġshi4Ġji4ĠdeĠ":9228,"Ġyou3Ġda4Ġ":9229,"1Ġge4Ġ":9230,"Ġ2024":9231,"jia1Ġgong1Ġ":9232,"luo4Ġsi1Ġ":9233,"Ġshi4Ġyou2":9234,"fu4Ġjin4ĠdeĠ":9235,"mei3Ġguo2Ġren2Ġ":9236,"Ġzhi3Ġshi4Ġ":9237,"zhang4Ġfu1Ġ":9238,"xue2Ġbu4Ġ":9239,"tie1Ġ":9240,"Ġyou3Ġzhu4Ġ":9241,"Ġan4":9242,"yi4Ġbu4Ġ":9243,"1947Ġnian2Ġ":9244,"guo2Ġhui4Ġ":9245,"xi1Ġbei3Ġbu4Ġ":9246,"Ġta1Ġren4Ġwei2Ġ":9247,"mu4Ġni2Ġ":9248,"qu3Ġxiao1":9249,"Ġtong2Ġpai2Ġ":9250,"kuo4Ġzhan3":9251,"si3Ġxing2Ġ":9252,"qing4Ġzhu4Ġ":9253,"ĠdeĠgu4Ġshi4Ġ":9254,"zhan4Ġling3":9255,"Ġtong2Ġyang4Ġ":9256,"ĠĠĠgen1Ġju4Ġ2020Ġnian2Ġmei3Ġguo2Ġren2Ġkou3Ġpu3Ġcha2ĠdeĠshu4Ġju4Ġ":9257,"zui4Ġwei4Ġ":9258,"guo2Ġli4Ġ":9259,"huang2Ġse4Ġ":9260,"zeng1Ġjia1ĠleĠ":9261,"ĠY":9262,"Ġdeng1Ġ":9263,"bing4Ġwei4Ġ":9264,"hai3Ġshang4Ġ":9265,"guo4Ġyu2Ġ":9266,"zhou2Ġ":9267,"fen1Ġpei4Ġ":9268,"na4Ġcui4":9269,"shang4Ġhai3Ġshi4Ġ":9270,"Ġbao1Ġhan2Ġ":9271,"quan2ĠdeĠ":9272,"zong3Ġhui4Ġ":9273,"hui2Ġhe2Ġ":9274,"reng2Ġzai4Ġ":9275,"lao3Ġshi1Ġ":9276,"1973Ġnian2Ġ":9277,"Ġzai4Ġta1Ġ":9278,"Ġyi1Ġzhi4Ġ":9279,"Ġchu1Ġfa1Ġ":9280,"se4Ġfu1Ġ":9281,"xiang1Ġji4Ġ":9282,"deng3ĠdeĠ":9283,"si4Ġda4Ġ":9284,"thĠ":9285,"50Ġ":9286,"qie4Ġer3Ġ":9287,"1971Ġnian2Ġ":9288,"jing1Ġji4":9289,"lian2Ġjie2Ġ":9290,"fang2Ġwei4Ġ":9291,"Ġkuan1":9292,"Ġ2003Ġnian2Ġ":9293,"Ġli4Ġshu3Ġ":9294,"Ġbing4Ġru4Ġ":9295,"ban1Ġjiang3Ġ":9296,"xing4Ġshi4Ġ":9297,"dui4Ġshou3Ġ":9298,"zhuan1Ġmen2Ġ":9299,"ĠdeĠji4Ġlu4Ġ":9300,"Ġku4":9301,"ai4ĠdeĠ":9302,"Ġji2Ġxing2Ġzheng4Ġ":9303,"Ġli4ĠziĠ":9304,"Ġye3Ġhui4Ġ":9305,"lai2Ġzi4Ġyu2Ġ":9306,"shou4Ġquan2Ġ":9307,"pian4ĠdeĠ":9308,"100Ġ":9309,"1977Ġnian2Ġ":9310,"9Ġren2Ġ":9311,"Ġbai2":9312,"fu2Ġli3Ġ":9313,"jiang3Ġshu4Ġ":9314,"zhao4Ġkai1":9315,"xie2Ġding4Ġ":9316,"Ġa1Ġla1Ġ":9317,"Ġ000Ġren2Ġ":9318,"Ġlei4Ġ":9319,"yi1Ġxie1Ġ":9320,"Ġyi3Ġzhi4Ġ":9321,"zhi2Ġye4":9322,"hai3Ġba2Ġgao1Ġ":9323,"Ġxiang1Ġdui4Ġ":9324,"can1Ġsai4":9325,"fang4Ġqi4":9326,"cun2Ġzai4ĠdeĠ":9327,"fu4Ġjia1Ġ":9328,"zhuang4Ġji1Ġ":9329,"Ġjian4Ġkang1Ġ":9330,"he2Ġwei4Ġ":9331,"dan1Ġyuan2Ġ":9332,"sheng3Ġdao4Ġ":9333,"lao2Ġgong1Ġ":9334,"hantĠ":9335,"xi1Ġnan2Ġbu4Ġ":9336,"Ġke4Ġyun4Ġ":9337,"ma3Ġla1Ġ":9338,"gai3Ġge2":9339,"nan2Ġji2Ġzhou1ĠdeĠ":9340,"wu3Ġqi4":9341,"xiao1Ġliang4Ġ":9342,"lei4Ġsi4ĠdeĠ":9343,"Ġ9Ġ":9344,"ĠhantĠ":9345,"mei3Ġjun1Ġ":9346,"ba1Ġer3Ġ":9347,"chuang4Ġxin1Ġ":9348,"tuo2Ġ":9349,"qiao3Ġ":9350,"Ġyou3Ġguan1":9351,"zheng4Ġxie2Ġ":9352,"Ġta1Ġdui4Ġ":9353,"shan1Ġmai4Ġ":9354,"Ġsi4Ġchuan1Ġ":9355,"hong1Ġzha4Ġji1Ġ":9356,"ĠĠĠran2Ġer2Ġ":9357,"chang2Ġjian4Ġ":9358,"chuan2Ġzhi1Ġ":9359,"lou4Ġ":9360,"Ġzhi1Ġzhan4Ġ":9361,"shou3Ġbo1Ġ":9362,"xing4Ġneng2Ġ":9363,"ying1Ġgai1":9364,"Ġxiao3Ġshuo1Ġ":9365,"yi1Ġbu4Ġfen4":9366,"fei1Ġzhou1":9367,"Ġxian4Ġzhi1Ġxian4Ġ":9368,"fa1Ġsheng1ĠleĠ":9369,"shu3ĠdeĠzhi2Ġwu4Ġ":9370,"Ġe2":9371,"ĠĠĠdan4":9372,"zhi2Ġzhi4Ġ":9373,"dian4ĠdeĠ":9374,"yao4ĠdeĠ":9375,"yan2Ġzhong4ĠdeĠ":9376,"sha1Ġsi3Ġ":9377,"Ġxi4Ġtong3":9378,"Ġling4Ġwai4":9379,"Ġche1Ġzhan4":9380,"li3Ġbu4Ġ":9381,"mi4Ġsi1Ġ":9382,"Ġjian4Ġshi4Ġ":9383,"suo3Ġshu3":9384,"Ġqian1":9385,"tou2Ġbu4Ġ":9386,"ni4Ġ":9387,"Ġyou2Ġci3Ġ":9388,"zu3Ġzhi3Ġ":9389,"Ġdong1Ġjing1Ġ":9390,"yun4Ġdong4ĠdeĠ":9391,"Ġdou1":9392,"xi1Ġshi4Ġ":9393,"jian1Ġshi4Ġ":9394,"dui4Ġwu3Ġ":9395,"zhu3Ġxi2":9396,"jiang1Ġta1Ġ":9397,"na4Ġde2Ġ":9398,"jiang4Ġdi1":9399,"Ġshi4Ġyi4Ġda4Ġli4Ġ":9400,"hui4Ġyi3Ġ":9401,"quan3Ġ":9402,"hei1Ġren2Ġ":9403,"ji1Ġben3Ġ":9404,"Ġzhi1Ġliu2Ġ":9405,"Ġshe4Ġji4ĠdeĠ":9406,"shuai4Ġling3Ġ":9407,"tu3Ġer3Ġqi2":9408,"Ġbao4":9409,"hui4Ġshi4Ġdi4Ġ":9410,"huan2Ġxing2Ġ":9411,"Ġzai4Ġyu3Ġ":9412,"Ġgong1Ġlu4":9413,"Ġde2Ġdao4ĠleĠ":9414,"Ġ40":9415,"bu4Ġfen4Ġ":9416,"can1Ġting1Ġ":9417,"bang1Ġzhu4":9418,"na2Ġpo4Ġ":9419,"zheng3Ġge4":9420,"xiang1Ġbi3Ġ":9421,"Ġshi4Ġyi1Ġzuo4Ġ":9422,"zhou1Ġbian1Ġ":9423,"Ġshi4Ġjie4Ġbei1Ġ":9424,"Ġma3Ġli4Ġ":9425,"xia4Ġxia2Ġyi3Ġxia4":9426,"WĠ":9427,"wa1Ġ":9428,"Ġxian4Ġjin1Ġ":9429,"hang2Ġtian1Ġ":9430,"ĠĠĠ3Ġyue4Ġ":9431,"shang4Ġbu4Ġ":9432,"zhang3Ġda4Ġ":9433,"luo2Ġde2Ġ":9434,"Ġda4Ġliang4":9435,"shuang1Ġda3Ġ":9436,"Ġguan1Ġfang1Ġ":9437,"Ġling3Ġ":9438,"zi4Ġwei4Ġ":9439,"yi2Ġchan3":9440,"yan2Ġshi2Ġ":9441,"Ġli4Ġyong4":9442,"Ġxing2Ġshi3Ġ":9443,"Ġji3Ġ":9444,"ge2Ġer3Ġ":9445,"zong3Ġcai2Ġ":9446,"la4Ġ":9447,"Ġnan2ĠziĠ":9448,"Ġsheng1Ġzhang3Ġyu2Ġ":9449,"Ġhuan2Ġ":9450,"Ġqin2Ġ":9451,"zhi3ĠdeĠ":9452,"Ġgong1Ġchi3":9453,"Ġqiu2Ġhui4Ġ":9454,"chuan2Ġmei2Ġ":9455,"hai3Ġba2Ġgao1Ġdu4Ġwei4Ġ":9456,"Ġxu1Ġyao4Ġ":9457,"ĠĠĠ2018Ġnian2Ġ":9458,"ji4Ġzai4Ġ":9459,"xin1Ġren2Ġ":9460,"ben3Ġxian4Ġ":9461,"ci3Ġshi2Ġ":9462,"zhe3Ġwei4Ġ":9463,"nuo4Ġyi1Ġ":9464,"Ġhe2Ġli3Ġ":9465,"Ġji2Ġlin2Ġ":9466,"xiang1Ġtong2ĠdeĠ":9467,"Ġzhong1Ġguo2Ġguo2Ġmin2Ġ":9468,"ĠĠĠofĠĠĠtheĠĠĠ":9469,"ĠĠĠ2007":9470,"1962Ġnian2Ġ":9471,"Ġzhe4Ġshou3Ġ":9472,"guang1Ġxu4Ġ":9473,"Ġliang3Ġge4Ġ":9474,"wu3Ġyue4Ġ":9475,"dan1Ġyi1Ġ":9476,"bie2ĠdeĠ":9477,"you2Ġtai4Ġren2Ġ":9478,"ya4Ġmu4Ġ":9479,"ĠdeĠcheng2Ġzhen4Ġ":9480,"la1Ġer3Ġ":9481,"xun2Ġqiu2Ġ":9482,"Ġbu4Ġer3Ġ":9483,"Ġxing2Ġxiang4Ġ":9484,"Ġwei2Ġchi2Ġ":9485,"yin3Ġzhong3Ġ":9486,"bu2Ġyao4Ġ":9487,"fĠ":9488,"Ġbao1Ġ":9489,"shang1ĠdeĠ":9490,"cong1Ġ":9491,"Ġbu4Ġdi2Ġ":9492,"Ġyu2Ġlei4Ġ":9493,"Ġjiang1Ġqi2Ġ":9494,"Ġhan2":9495,"Ġzhuan1Ġji2Ġ":9496,"ĠĠĠ5Ġyue4Ġ":9497,"Ġzai4Ġgai1Ġ":9498,"Ġguo2Ġmin2":9499,"ying2Ġye4Ġ":9500,"qian1Ġyue1Ġ":9501,"can1Ġyu4ĠleĠ":9502,"wei3Ġfu4Ġshu1Ġji4Ġ":9503,"e2Ġwei4Ġ":9504,"wu3Ġdi4Ġ":9505,"si1Ġlan2Ġ":9506,"Ġke4Ġla1Ġ":9507,"di3Ġkang4Ġ":9508,"zhi2Ġyuan2Ġ":9509,"Ġyi1Ġci2Ġ":9510,"Ġyi1Ġliao2Ġ":9511,"Ġjiao4Ġyu4":9512,"Ġhe2Ġji2Ġ":9513,"mei3Ġyuan2ĠdeĠ":9514,"Ġqi2Ġzhong1Ġnan2Ġxing4Ġ":9515,"Ġliu2Ġyu4Ġ":9516,"jiao4Ġyu2Ġ":9517,"ge1ĠdeĠ":9518,"huai2Ġyi2Ġ":9519,"Ġwei4Ġci3Ġ":9520,"Ġdi4Ġmian4Ġ":9521,"Ġdi4Ġ1Ġ":9522,"ti3Ġyu4":9523,"ceng2Ġshui3Ġyu4Ġ":9524,"rong2Ġna4Ġ":9525,"Ġjie2Ġgou4Ġ":9526,"gu3Ġfen4Ġyou3Ġxian4Ġgong1Ġsi1Ġ":9527,"zhuan4ĠdeĠxiao3Ġxing2Ġxing1Ġ":9528,"Ġhou4Ġqi1Ġ":9529,"Ġke4Ġlai2Ġ":9530,"jie1Ġren4Ġ":9531,"zhi3Ġding4Ġ":9532,"xiao4Ġying4Ġ":9533,"qian1Ġding4Ġ":9534,"Ġguang1":9535,"Ġ12Ġ":9536,"ĠĠĠping2Ġjia4Ġ":9537,"you2Ġqi2Ġ":9538,"liang2Ġshi2Ġ":9539,"Ġshi4Ġnei4Ġ":9540,"yue4Ġnan2Ġ":9541,"jing4Ġsai4Ġ":9542,"ĠdeĠdi4Ġer4":9543,"mo4Ġsi1Ġke1Ġ":9544,"you2Ġren2Ġgong1Ġ":9545,"zhang3Ġwei4Ġ":9546,"ge1Ġju4Ġ":9547,"Ġshi4Ġxi1Ġ":9548,"Ġyi1Ġzhi1Ġ":9549,"Ġshe4Ġji1Ġ":9550,"Ġjian4Ġli4ĠleĠ":9551,"Ġwu1Ġke4Ġlan2Ġ":9552,"ĠĠĠchu2ĠleĠ":9553,"chao2ĠdeĠ":9554,"tui1Ġchu1ĠdeĠ":9555,"ruan3Ġti3Ġ":9556,"1938Ġnian2Ġ":9557,"Ġnian2Ġqian2Ġ":9558,"gan3Ġlan3":9559,"tui1Ġguang3Ġ":9560,"Ġyou1Ġ":9561,"men2ĠdeĠ":9562,"Ġshi2Ġyong4Ġ":9563,"Ġlv3":9564,"zhong1Ġxin1Ġ":9565,"Ġsu2":9566,"shu4Ġshi4Ġ":9567,"Ġjian4Ġwei4Ġ":9568,"ba1Ġla1Ġ":9569,"Ġchao2Ġxian1Ġ":9570,"Ġqing3":9571,"erĠĠĠ":9572,"Ġer3Ġde2":9573,"shuo4Ġshi4Ġxue2Ġwei4Ġ":9574,"yun4Ġhe2Ġ":9575,"yang2Ġxian4Ġ":9576,"wei2Ġzhi3Ġ":9577,"hua2Ġsheng4Ġdun4":9578,"Ġ11Ġ":9579,"zhi1Ġyuan2Ġ":9580,"ge4Ġdi4Ġ":9581,"bian1Ġhao4Ġwei4Ġ":9582,"Ġzhi4Ġzao4":9583,"Ġyi1Ġtiao2Ġ":9584,"kai1Ġzhan3Ġ":9585,"fa3Ġting2Ġ":9586,"Ġqiu2Ġchang3Ġ":9587,"qun2Ġti3Ġ":9588,"leĠyi1Ġxie1Ġ":9589,"Ġgong1Ġcheng2Ġshi1Ġ":9590,"Ġtong1Ġguo4":9591,"wu4Ġzhong1Ġ":9592,"meng2Ġjun1Ġ":9593,"1939Ġnian2Ġ":9594,"luo2Ġbo2Ġte4Ġ":9595,"zong3Ġjian1Ġ":9596,"Ġzai4Ġdi4Ġer4Ġ":9597,"ping2Ġjun1Ġhai3Ġba2Ġgao1Ġdu4Ġwei4Ġ":9598,"Ġman3":9599,"Ġcheng2Ġshi4Ġ":9600,"ĠĠĠjing1Ġji4Ġ":9601,"zhi2Ġli4Ġ":9602,"Ġwei4Ġming2Ġ":9603,"Ġwei4Ġyu2Ġzhong1Ġhua2Ġren2Ġmin2Ġgong4Ġhe2Ġguo2Ġ":9604,"li2ĠziĠ":9605,"Ġren2Ġmin2Ġbi4Ġ":9606,"du1Ġdu1Ġ":9607,"5Ġmi3Ġ":9608,"1965Ġnian2Ġ":9609,"Ġxi1Ġyin3Ġ":9610,"ben3Ġtu3Ġ":9611,"jian3Ġdan1Ġ":9612,"deng1Ġchang2Ġ":9613,"Ġwu1":9614,"yang2Ġgong1Ġ":9615,"1936Ġnian2Ġ":9616,"Ġyou3Ġli4Ġ":9617,"Ġta1Ġye3":9618,"Ġer2Ġgai1Ġdi4ĠdeĠping2Ġjun1Ġhai3Ġba2Ġgao1Ġdu4Ġwei4Ġ":9619,"a1Ġer3":9620,"shi1Ġren2Ġ":9621,"qi3ĠleĠ":9622,"feng1ĠdeĠ":9623,"ni2Ġxi1Ġya4Ġ":9624,"cu4Ġjin4":9625,"han3Ġmo4":9626,"1959Ġnian2Ġ":9627,"Ġzai4Ġri4Ġben3Ġ":9628,"gong1Ġkai1Ġ":9629,"lu4Ġzhan4Ġ":9630,"jie1Ġshou1Ġ":9631,"ĠĠĠtian1Ġ":9632,"li4Ġzhong1Ġ":9633,"zu2Ġqiu2Ġdui4Ġ":9634,"2010Ġnian2Ġmei3Ġguo2Ġren2Ġkou3Ġpu3Ġcha2ĠdeĠshu4Ġju4Ġ":9635,"ji1Ġshi4Ġ":9636,"chu1Ġdao4Ġ":9637,"yan3Ġchu1":9638,"ying4Ġdui4Ġ":9639,"xue2Ġxi2":9640,"Ġzhi1Ġqian2":9641,"fa3Ġlan2Ġ":9642,"yin3Ġzhong3Ġzai1Ġpei2Ġ":9643,"Ġsa4":9644,"Ġyun2Ġnan2Ġ":9645,"lie4Ġshi4Ġ":9646,"Ġda4Ġqiao2Ġ":9647,"mian4Ġlin2Ġ":9648,"xun2Ġhuan2Ġ":9649,"huan4Ġzhe3Ġ":9650,"Ġwan2Ġcheng2Ġ":9651,"chu1Ġren4Ġ":9652,"boĠ":9653,"shuo1Ġshi4Ġ":9654,"Ġji2Ġshi3":9655,"ru4Ġqin1":9656,"sheng3Ġwei3Ġ":9657,"Ġxin1Ġzeng1":9658,"zhuang1Ġjia3":9659,"Ġzhi3Ġchu1Ġ":9660,"shen3Ġcha2Ġ":9661,"fei1Ġlv4Ġbin1":9662,"ka3Ġluo2Ġlai2Ġ":9663,"yuan2Ġdi4Ġ":9664,"shen1Ġshang4Ġ":9665,"1967Ġnian2Ġ":9666,"1935Ġnian2Ġ":9667,"kmĠ":9668,"Ġzai4Ġbei3Ġ":9669,"wei2Ġer3":9670,"Ġxi1Ġxi1Ġ":9671,"hen3Ġduo1":9672,"Ġpai2Ġ":9673,"zheng3Ġhe2Ġ":9674,"ji1Ġbai3Ġ":9675,"Ġji1Ġyin1Ġ":9676,"dong4Ġhua4":9677,"zhang3Ġyue1Ġ":9678,"suo3Ġchu4ĠdeĠhai3Ġba2Ġwei4Ġgao1Ġyu2Ġhai3Ġping2Ġmian4Ġ":9679,"na4Ġxie1Ġ":9680,"chuan2Ġbo1":9681,"gang3Ġkou3Ġ":9682,"zhan3Ġkai1":9683,"you2Ġren2Ġgong1Ġyin3Ġzhong3Ġzai1Ġpei2Ġ":9684,"Ġpai4Ġ":9685,"Ġzheng3Ġ":9686,"qing2Ġxing2Ġ":9687,"tai1Ġ":9688,"tong1Ġxun4Ġ":9689,"qing2Ġxu4Ġ":9690,"yong3Ġjiu3Ġ":9691,"re4Ġdai4Ġfeng1Ġbao4Ġ":9692,"Ġhe4":9693,"Ġxu3Ġ":9694,"Ġshen4Ġ":9695,"ju1Ġmin2Ġdian3Ġ":9696,"ji4Ġji2Ġ":9697,"ci4Ġwei4Ġ":9698,"Ġzhi1Ġfu3Ġ":9699,"Ġshe4Ġhui4":9700,"Ġhan4Ġzu2Ġ":9701,"ĠĠĠ2017Ġnian2Ġ":9702,"yu3Ġshi4Ġ":9703,"dong4Ġgong1Ġ":9704,"lu3Ġke4Ġ":9705,"Ġbu4Ġjia1Ġ":9706,"Ġyi3Ġshang4ĠdeĠ":9707,"Ġyu3Ġci3Ġtong2Ġshi2Ġ":9708,"mi3Ġya4Ġ":9709,"Ġzhu3Ġchi2Ġ":9710,"Ġsui2Ġzhe":9711,"fen1Ġbie2Ġwei4Ġ":9712,"xin1Ġjia1Ġpo1Ġ":9713,"Ġou1Ġzhou1Ġ":9714,"si4Ġming2Ġ":9715,"bing1Ġbu4Ġ":9716,"guai4Ġ":9717,"ĠdeĠyi1Ġxie1Ġ":9718,"di3Ġda2":9719,"Ġsu1Ġlian2Ġ":9720,"liao3Ġjie3":9721,"Ġtuan2Ġ":9722,"zhi3Ġyu2Ġ":9723,"gong3Ġ":9724,"zu3Ġcheng2":9725,"gao4Ġsu4Ġ":9726,"fa1Ġzhan3ĠdeĠ":9727,"xĠĠĠ":9728,"yi3Ġhou4Ġ":9729,"dui4Ġhe2Ġ":9730,"ge2Ġli4Ġ":9731,"deng1Ġji4Ġ":9732,"Ġsi1Ġka3Ġ":9733,"Ġwei2Ġya4Ġ":9734,"Ġzhong1Ġguo2Ġda4Ġlu4ĠdeĠ":9735,"xia4Ġxia2Ġyi3Ġxia4Ġdi4Ġqu1Ġ":9736,"chu1Ġsheng1Ġ":9737,"liu2ĠdeĠ":9738,"yan3Ġsheng1Ġ":9739,"da4Ġshi3Ġ":9740,"Ġxi1Ġan1Ġ":9741,"ju4Ġqing2Ġ":9742,"zi1Ġzhu4Ġ":9743,"fei1Ġfa3Ġ":9744,"ce4Ġliang2":9745,"Ġjiao4Ġshou4Ġ":9746,"chuang4Ġban4Ġ":9747,"ĠĠĠji4Ġ":9748,"bai2Ġzhi4Ġ":9749,"Ġzhi4Ġliao2":9750,"shou3Ġxi2Ġ":9751,"jie4Ġshao4":9752,"zhuang4Ġkuang4":9753,"Ġbi4Ġye4Ġyu2Ġ":9754,"Ġao4Ġda4Ġli4Ġ":9755,"xun2Ġyang2Ġjian4Ġ":9756,"fen1Ġzhi1Ġyi1Ġ":9757,"wen2Ġhua4ĠdeĠ":9758,"gui1Ġfan4Ġ":9759,"kong1Ġjun1":9760,"shun4Ġshi2Ġ":9761,"seĠĠĠ":9762,"mao1Ġ":9763,"1963Ġnian2Ġ":9764,"Ġbu4Ġbian4Ġ":9765,"Ġchu1Ġxi2Ġ":9766,"tu2Ġxiang4Ġ":9767,"wei1Ġxian3Ġ":9768,"Ġzhe4Ġbu4Ġ":9769,"Ġnian2Ġ7Ġyue4Ġ1Ġri4Ġ":9770,"wen4Ġti2ĠdeĠ":9771,"Ġjin4Ġshi4Ġchu1Ġshen1Ġ":9772,"ĠĠĠ2016Ġnian2Ġ":9773,"ceĠ":9774,"Ġzhi4Ġshao3":9775,"Ġxian4Ġru4Ġ":9776,"nan2Ġfang1Ġ":9777,"Ġbei4Ġqi2Ġ":9778,"Ġqi2Ġzhong1Ġnan2Ġ":9779,"mao2Ġze2Ġdong1Ġ":9780,"Ġtang1":9781,"Ġgai4Ġ":9782,"ĠnĠ":9783,"yu4Ġji4Ġ":9784,"ziĠhe2Ġ":9785,"da2Ġer3Ġ":9786,"lu3Ġshi4Ġ":9787,"Ġbu4Ġzhi4Ġ":9788,"Ġdi4Ġsi1Ġ":9789,"zi1Ġsheng3Ġ":9790,"pin2Ġlv4Ġ":9791,"Ġãĥ¼":9792,"ĠĠĠ10Ġyue4Ġ":9793,"han3Ġ":9794,"Ġzhong1Ġzui4Ġ":9795,"Ġji4Ġnian4":9796,"pan4Ġjue2Ġ":9797,"gong4Ġchan3Ġzhu3Ġyi4Ġ":9798,"Ġyi3Ġse4Ġlie4":9799,"ĠĠĠbei3Ġ":9800,"duo1Ġge4":9801,"qu3Ġjia1Ġ":9802,"liu3Ġ":9803,"1953Ġnian2Ġ":9804,"ju2Ġju2Ġzhang3Ġ":9805,"fan2Ġzhi2Ġ":9806,"gan1Ġsu4Ġ":9807,"Ġ15Ġ":9808,"Ġdan1Ġren4":9809,"zi4Ġxing2Ġche1Ġ":9810,"Ġ2005":9811,"miao2Ġhui4Ġ":9812,"Ġyi1Ġmei2Ġ":9813,"fen1Ġlei4":9814,"Ġping2Ġjia4Ġ":9815,"duo1Ġyang4Ġ":9816,"Ġnan2Ġbei3Ġ":9817,"shao4Ġjiang4Ġ":9818,"fei1Ġli4Ġ":9819,"Ġsi1Ġxiang3Ġ":9820,"yan2Ġzhong4":9821,"dang1Ġju2Ġ":9822,"Ġshi4Ġzhong1Ġxin1Ġ":9823,"ĠĠĠling4Ġwai4Ġ":9824,"hou4Ġshi4Ġ":9825,"zhu4Ġdi4Ġ":9826,"yin3Ġshi2Ġ":9827,"Ġshi4Ġwu1Ġke4Ġlan2":9828,"zhu3Ġchang3Ġ":9829,"an4Ġzhao4Ġ":9830,"Ġgong1Ġzuo4Ġshi4Ġ":9831,"can1Ġmou2Ġzhang3Ġ":9832,"xiang4Ġxi1Ġ":9833,"er4Ġzhan4Ġ":9834,"xue1Ġ":9835,"1969Ġnian2Ġ":9836,"Ġcheng2Ġshi4ĠdeĠ":9837,"Ġzhi1Ġji4Ġ":9838,"Ġda4Ġjia1Ġ":9839,"Ġming2Ġcheng1":9840,"Ġtong2Ġyi1Ġ":9841,"jiao1Ġhuan4Ġ":9842,"gai3Ġshan4":9843,"Ġhe2Ġbing4Ġwei4Ġ":9844,"Ġ80":9845,"yu3Ġyi3Ġ":9846,"ze2Ġyou3Ġ":9847,"luo4ĠdeĠ":9848,"ling2ĠdeĠ":9849,"ke1Ġfu1":9850,"dang1Ġxuan3":9851,"Ġgong1Ġkai1Ġsai4Ġ":9852,"hong1Ġzha4Ġ":9853,"ĠĠĠzhu4Ġ":9854,"Ġfen1Ġbie2Ġwei4Ġ":9855,"Ġji3":9856,"Ġchun1Ġ":9857,"zhe4Ġbu4Ġ":9858,"bao3Ġzheng4Ġ":9859,"1941Ġnian2Ġ":9860,"Ġyu2Ġdi4Ġ":9861,"ru4Ġxuan3":9862,"shang1Ġwang2Ġ":9863,"bian1Ġjing4Ġ":9864,"ai1Ġna4Ġ":9865,"ci4Ġda4Ġ":9866,"shen1Ġzhen4":9867,"chu1Ġsheng1Ġyu2Ġ":9868,"sui4Ġshi2Ġ":9869,"Ġdi4Ġguo2ĠdeĠ":9870,"bao3Ġcun2Ġ":9871,"bao4Ġzhi3Ġ":9872,"gai3Ġbian1Ġ":9873,"guang3Ġgao4":9874,"zeng1Ġqiang2Ġ":9875,"chĠ":9876,"qun2ĠdeĠ":9877,"Ġzai4Ġji1Ġ":9878,"Ġjian4Ġhe2Ġ":9879,"ji1Ġbu4Ġ":9880,"zhi1Ġming2Ġ":9881,"ru4ĠdeĠ":9882,"guo2Ġnei4Ġ":9883,"Ġgong1Ġzhan4Ġ":9884,"Ġyi3Ġnan2Ġ":9885,"xian4Ġfa3Ġ":9886,"zi3Ġnv3Ġ":9887,"wu2Ġren2Ġji1Ġ":9888,"chui2Ġ":9889,"chuan4Ġ":9890,"Ġxing2Ġcheng2ĠdeĠ":9891,"qu1Ġfen1Ġ":9892,"ba1Ġfa2":9893,"ban4Ġyan3Ġ":9894,"Ġ1998Ġnian2Ġ":9895,"ci3Ġzhi1Ġwai4Ġ":9896,"si1Ġxiang3Ġ":9897,"Ġda4Ġshi1Ġ":9898,"Ġchu1Ġxian4ĠleĠ":9899,"miao2Ġshu4":9900,"ĠdeĠming2Ġzi4Ġ":9901,"wai4Ġwei2Ġ":9902,"bai3Ġnian2Ġ":9903,"Ġdan4Ġyin1Ġ":9904,"sha1Ġhai4Ġ":9905,"Ġxia2Ġ":9906,"xia4ĠdeĠyi2Ġge4Ġ":9907,"huo4Ġshi4Ġ":9908,"Ġda4Ġzhong4Ġ":9909,"shou4Ġhai4Ġ":9910,"ying1Ġguo2ĠdeĠ":9911,"Ġfen1Ġbie2Ġshi4Ġ":9912,"zhi3Ġhui1Ġguan1Ġ":9913,"ĠRe":9914,"Ġbu3Ġ":9915,"wen2Ġzhong1Ġ":9916,"bo1Ġer3Ġ":9917,"Ġyue4Ġtai2":9918,"Ġnan2Ġjing1Ġ":9919,"bing4Ġmei2Ġyou3Ġ":9920,"jiao4Ġyu4Ġbu4Ġ":9921,"Ġre4Ġ":9922,"gong4Ġshi2Ġ":9923,"Ġwei4Ġyou2Ġ":9924,"fa3Ġling4Ġ":9925,"mian4Ġti3Ġ":9926,"cai2Ġwu4Ġ":9927,"yan2Ġjiu1Ġyuan4Ġ":9928,"ban4Ġnian2Ġ":9929,"Ġyuan2Ġshi3Ġ":9930,"Ġer3Ġzai4Ġ":9931,"jing3Ġguan1Ġ":9932,"Ġniu3Ġyue1":9933,"ceng2Ġshi4Ġ":9934,"nuo4Ġsi1Ġ":9935,"1980Ġnian2Ġdai4Ġ":9936,"ĠdeĠxiao3Ġ":9937,"Ġsheng1Ġzhang3Ġyu2Ġhai3Ġba2":9938,"Ġnei4":9939,"Ġgai3Ġwei2Ġ":9940,"ma3Ġtou2Ġ":9941,"zhan3Ġlan3":9942,"ĠĠĠ2006":9943,"sheng4Ġdi4Ġ":9944,"Ġdao4Ġshi4Ġ":9945,"Ġda4Ġxing2":9946,"jing1Ġying2":9947,"Ġpian4Ġ":9948,"Ġyan4Ġ":9949,"Ġpiao4Ġ":9950,"Ġpei2Ġ":9951,"ĠĠĠTheĠĠĠ":9952,"gao1Ġyuan2Ġ":9953,"cheng1Ġhao4Ġ":9954,"tao2Ġyuan2Ġ":9955,"Ġzai4Ġying1Ġguo2Ġ":9956,"hou4Ġlai2Ġ":9957,"Ġzhe4Ġyang4ĠdeĠ":9958,"pan4Ġluan4Ġ":9959,"Ġning2Ġ":9960,"dian3Ġwei4Ġ":9961,"Ġwei4Ġbei4Ġ":9962,"Ġhe2Ġfa3Ġ":9963,"Ġyi4Ġsi":9964,"Ġping2Ġlun4":9965,"Ġshang4Ġshu1Ġ":9966,"hang2Ġye4Ġ":9967,"Ġxin1Ġjia1Ġ":9968,"Ġ1990":9969,"ma3ĠdeĠ":9970,"qing2Ġjie2Ġ":9971,"Ġmu4Ġqian2Ġshang4Ġwei4Ġ":9972,"iĠĠĠ":9973,"Ġ2000":9974,"tu1Ġchu1Ġ":9975,"Ġdao4Ġbu4Ġ":9976,"ping2Ġmin2Ġ":9977,"guan1Ġfei4Ġyan2Ġ":9978,"Ġmi3ĠdeĠdi4Ġqu1Ġ":9979,"Ġkong1Ġ":9980,"ĠĠĠ16":9981,"shang4Ġyi1Ġ":9982,"Ġyi4Ġming2Ġ":9983,"Ġyi3Ġshi4Ġ":9984,"Ġzuo4Ġchu1":9985,"Ġxian4ĠdeĠyi2Ġge4Ġfei1Ġjian4Ġzhi4Ġdi4Ġqu1Ġ":9986,"ai4Ġguo2Ġ":9987,"1961Ġnian2Ġ":9988,"Ġyi4Ġji2Ġ":9989,"tian1Ġhuang2Ġ":9990,"fang2Ġzhi3Ġ":9991,"dou4Ġzheng1Ġ":9992,"wu4Ġzhong3ĠdeĠ":9993,"Ġ20Ġ":9994,"Ġhe2Ġta1ĠdeĠ":9995,"jing1Ġguo4":9996,"jiao4Ġshou4":9997,"luo2Ġji2Ġ":9998,"hong2Ġjun1Ġ":9999,"ka1Ġfei1Ġ":10000,"1957Ġnian2Ġ":10001,"Ġyu3Ġda4Ġ":10002,"Ġren4Ġming4":10003,"shi3Ġyong4ĠleĠ":10004,"sai1Ġna4Ġ":10005,"lai2Ġsi1Ġ":10006,"hao3Ġyou3Ġ":10007,"31Ġ":10008,"Ġzhong1Ġgong4Ġzhong1Ġyang1":10009,"mian4Ġshi4Ġ":10010,"chou2Ġbei4Ġ":10011,"zuo4Ġchu1":10012,"chang2Ġqi1":10013,"ling3Ġyu4":10014,"yuan2Ġzhong1Ġ":10015,"tian1Ġjia1Ġ":10016,"Ġyuan2Ġze2Ġ":10017,"dong1Ġni2Ġ":10018,"xiang3Ġfa3Ġ":10019,"pin3Ġpai2":10020,"ming4Ġling4":10021,"ni2ĠdeĠ":10022,"Ġzhi1Ġchu4Ġ":10023,"dai4Ġlai2Ġ":10024,"Ġdang1Ġxuan3":10025,"Ġmin2":10026,"fu2Ġer3Ġ":10027,"ding4Ġzai4Ġ":10028,"hang2Ġxian4Ġ":10029,"Ġji1Ġdu1Ġjiao4Ġ":10030,"Ġtong2Ġri4Ġ":10031,"Ġxing2Ġzheng4Ġzhen4Ġqu1Ġ":10032,"Ġyao2Ġ":10033,"ĠĠĠ2021Ġnian2Ġ":10034,"ĠdeĠli3Ġ":10035,"ĠdeĠxi1Ġ":10036,"Ġshi4Ġnan2Ġji2Ġzhou1ĠdeĠ":10037,"Ġhe2Ġdao4":10038,"Ġwei2":10039,"Ġtun2":10040,"Ġ1999Ġnian2Ġ":10041,"ĠĠĠsui2Ġ":10042,"heng1Ġ":10043,"Ġwei4Ġqi2Ġ":10044,"Ġshi2Ġdai4ĠdeĠ":10045,"Ġzuo4Ġbiao1Ġwei4Ġ":10046,"xing4Ġbie2Ġ":10047,"chang2Ġjiang1Ġ":10048,"Ġniu2Ġ":10049,"1944Ġnian2Ġ":10050,"Ġbu4Ġde2Ġ":10051,"li4Ġyong4Ġ":10052,"qi4Ġti3Ġ":10053,"chan3Ġye4":10054,"Ġzui4Ġchu1":10055,"Ġdi4Ġer4Ġci4Ġ":10056,"ao4Ġsi1Ġka3Ġ":10057,"Ġchao1":10058,"ĠCh":10059,"ĠĠĠzhan4Ġ":10060,"hui4Ġji2Ġ":10061,"zuo4Ġzhong1Ġ":10062,"pin3Ġzhi4Ġ":10063,"bin1Ġshi4Ġ":10064,"Ġgong1Ġjin1Ġ":10065,"shi1Ġbai4":10066,"fu2Ġhao4Ġ":10067,"Ġchu4Ġ":10068,"ĠĠĠzhu3Ġyao4Ġ":10069,"ge1Ġer3Ġ":10070,"cheng1Ġwei2":10071,"she4Ġhui4Ġzhu3Ġyi4Ġ":10072,"dang4Ġan4Ġ":10073,"ying2Ġde2ĠleĠ":10074,"Ġgong1Ġzuo4ĠdeĠ":10075,"chang3Ġjing3Ġ":10076,"Ġzhe4Ġci4Ġ":10077,"Ġnian2Ġ12Ġyue4Ġ31Ġri4Ġ":10078,"Ġfa1":10079,"ĠĠĠer2":10080,"zhan4Ġzhi4Ġ":10081,"zhan4Ġji4Ġ":10082,"jie1Ġjin4":10083,"wu3Ġming2Ġ":10084,"chang3Ġshang4Ġ":10085,"di3Ġzhi4Ġ":10086,"Ġyu3Ġzhou4":10087,"shang1Ġdian4Ġ":10088,"xiu1Ġgai3":10089,"Ġceng2Ġzai4Ġ":10090,"Ġsan1Ġshi2Ġ":10091,"niao3Ġlei4Ġ":10092,"lei4Ġsi4Ġyu2Ġ":10093,"dong1Ġxian4Ġ":10094,"Ġbu4Ġer3":10095,"Ġzhi4Ġding4Ġ":10096,"jing1Ġji4Ġxue2Ġ":10097,"Ġzhu3":10098,"Ġshou4Ġdao4Ġ":10099,"Ġxiong2Ġ":10100,"ĠĠĠdui4Ġyu2Ġ":10101,"zhong1Ġshi4Ġji4Ġ":10102,"yu4Ġdao4Ġ":10103,"dong4Ġyuan2Ġ":10104,"kuo4Ġzhang1Ġ":10105,"nan4Ġmin2Ġ":10106,"Ġming2Ġzi4Ġ":10107,"jie1Ġchu4":10108,"ren2Ġmin2Ġdai4Ġbiao3Ġda4Ġhui4Ġ":10109,"fen1Ġcheng2Ġ":10110,"Ġji1Ġxie4Ġ":10111,"lie4Ġru4":10112,"yan2Ġjiu1Ġsuo3":10113,"jiang1Ġsu1Ġsheng3Ġ":10114,"fu2Ġde2Ġ":10115,"yin3Ġli4Ġ":10116,"Ġxian4Ġdai4":10117,"gan3Ġran3":10118,"jiang3ĠdeĠ":10119,"Ġzhong1Ġshu1Ġ":10120,"Ġta1Ġshuo1Ġ":10121,"zhong4Ġzhi2Ġ":10122,"Ġ1Ġyue4Ġ":10123,"Ġxiong1Ġ":10124,"hou4Ġxuan3Ġren2Ġ":10125,"yan2Ġshen1Ġ":10126,"Ġdan4Ġbu4Ġ":10127,"Ġwei2Ġzhi3Ġ":10128,"zhu1Ġlong2Ġ":10129,"mu4Ġsi1Ġlin2Ġ":10130,"Ġ23":10131,"Ġ36":10132,"ĠĠĠke4Ġ":10133,"fang1Ġcheng2Ġ":10134,"che1Ġdao4Ġ":10135,"su1Ġli3Ġ":10136,"gua1Ġ":10137,"sheng1Ġming2Ġ":10138,"geng4Ġduo1":10139,"hai4Ġe2":10140,"Ġtai4Ġyang2Ġ":10141,"zu1Ġjie4Ġ":10142,"chen4Ġ":10143,"Ġjia1Ġjing4Ġ":10144,"ju4Ġfeng1Ġ":10145,"zhu4Ġce4Ġ":10146,"Ġyou2Ġyong3Ġ":10147,"deng3Ġzhi2Ġ":10148,"ban1Ġfa1Ġ":10149,"Ġbing4Ġqie3Ġzai4Ġ":10150,"ĠX":10151,"ren2Ġwei4Ġ":10152,"dui4Ġyou3Ġ":10153,"ti3Ġxing2Ġ":10154,"nu2Ġ":10155,"ye1Ġsu1":10156,"1951Ġnian2Ġ":10157,"Ġji1Ġchu3Ġ":10158,"Ġchu1Ġshen1Ġ":10159,"bao3Ġcun2":10160,"gong4Ġhe2Ġguo2ĠdeĠ":10161,"Ġwei4Ġfu2Ġqi2Ġyu2Ġgang1":10162,"lang3Ġde2Ġ":10163,"Ġchu1Ġru4Ġkou3Ġ":10164,"yan2Ġjiu1Ġyuan2Ġ":10165,"xie2Ġtiao2":10166,"Ġshi4Ġdi4Ġyi1Ġ":10167,"Ġhu4":10168,"ĠJR":10169,"Ġjiao3Ġ":10170,"ai4Ġde2Ġhua2Ġ":10171,"ĠĠĠ6Ġ":10172,"xian4Ġshi2Ġ":10173,"qi3ĠdeĠ":10174,"ban1Ġbu4Ġ":10175,"hang2Ġzhou1Ġ":10176,"jiao4Ġzuo4Ġ":10177,"nv3Ġyan3Ġyuan2Ġ":10178,"ling3Ġxiu4":10179,"kao3Ġgu3Ġ":10180,"mian4Ġji1Ġhe2Ġ":10181,"zui4Ġzao3ĠdeĠ":10182,"gui1Ġmo2ĠdeĠ":10183,"Ġwen1":10184,"diĠ":10185,"shi3Ġzhong1Ġ":10186,"qi4Ġhe2Ġ":10187,"cheng1Ġzhi1Ġwei4Ġ":10188,"pai2Ġde2Ġzhu3Ġ":10189,"bing1Ġli4Ġ":10190,"Ġjia1Ġmeng2Ġ":10191,"fen1Ġqu1Ġ":10192,"tong1Ġxin4Ġ":10193,"huo3Ġban4Ġ":10194,"che4Ġdi3Ġ":10195,"jin3Ġbiao1Ġsai4":10196,"5Ġge4Ġ":10197,"ĠĠĠCh":10198,"cheng2Ġzai4Ġ":10199,"xi1Ġyuan2Ġ":10200,"quan2Ġxian4Ġ":10201,"bai4Ġzhan4Ġ":10202,"reng2Ġyou3Ġ":10203,"Ġcheng2Ġxu4":10204,"Ġjian4Ġyou3Ġ":10205,"shou3Ġduan4Ġ":10206,"quan2Ġqiu2":10207,"Ġzhong1Ġfa1Ġxian4Ġ":10208,"zu2Ġxie2Ġ":10209,"mian3Ġdian1Ġ":10210,"zu2Ġren2Ġ":10211,"zao1Ġshou4Ġ":10212,"shou3Ġfu3Ġ":10213,"ma3Ġlai2Ġ":10214,"Ġzhong1Ġguo2Ġgong4Ġchan3Ġdang3":10215,"jiang1Ġshi4Ġ":10216,"ju2Ġyu2Ġ":10217,"Ġhe2Ġlan2":10218,"Ġgai1Ġdi4ĠdeĠ":10219,"Ġgong1Ġyuan2Ġqian2Ġ":10220,"Ġdi4Ġshi2Ġyi1Ġ":10221,"Ġqiu1":10222,"ĠĠĠfu2Ġ":10223,"ĠĠĠ2015Ġnian2Ġ":10224,"yi3Ġshang4Ġ":10225,"han4Ġyu3Ġ":10226,"arĠ":10227,"1930Ġnian2Ġ":10228,"Ġwei4Ġzhong1Ġguo2Ġ":10229,"fen1Ġli2Ġ":10230,"Ġqiu2Ġyun4Ġdong4Ġyuan2Ġ":10231,"ai4Ġqing2Ġ":10232,"tui4Ġxiu1":10233,"Ġling4Ġyi4Ġfang1Ġmian4Ġ":10234,"Ġbu4Ġde2Ġbu4Ġ":10235,"Ġmu4Ġqian2Ġshang4Ġwei4Ġyou2Ġren2Ġgong1Ġyin3Ġzhong3Ġzai1Ġpei2Ġ":10236,"Ġtou4Ġguo4Ġ":10237,"ĠĠĠCo":10238,"jian1Ġzhi4Ġ":10239,"hua2Ġda4Ġxue2Ġ":10240,"jiao1Ġcha1Ġ":10241,"cai2Ġchan3Ġ":10242,"wu4Ġli3Ġxue2Ġ":10243,"fen1Ġwei4Ġ":10244,"tou2ĠdeĠ":10245,"usĠ":10246,"1940Ġnian2Ġ":10247,"Ġzhe4Ġye3Ġshi4Ġ":10248,"bao4Ġzha4":10249,"gan3Ġjue2Ġ":10250,"Ġfen1Ġwei2Ġ":10251,"ĠĠĠ6":10252,"ĠĠĠ4Ġyue4Ġ":10253,"da2ĠdeĠ":10254,"wang3ĠdeĠ":10255,"mou2Ġsha1Ġ":10256,"Ġzai4Ġgong1Ġ":10257,"Ġjian4Ġzao4":10258,"Ġyin1ĠdeĠ":10259,"dao3Ġyan3":10260,"Ġxi1Ġban1Ġya2Ġyu3Ġ":10261,"an4Ġzhong1Ġ":10262,"yuan2Ġshi2Ġ":10263,"fa3Ġshi4Ġ":10264,"jin1Ġri4Ġ":10265,"lin2Ġsi1Ġ":10266,"ckĠ":10267,"1931Ġnian2Ġ":10268,"xue2Ġsheng1":10269,"ka3Ġluo2Ġlai2Ġna4":10270,"Ġyao1Ġqiu2":10271,"Ġji2Ġyi1Ġ":10272,"Ġchu1Ġyi1Ġ":10273,"Ġsui2ĠzheĠ":10274,"Ġren4Ġhe2Ġ":10275,"ji4Ġyu2Ġ":10276,"te4Ġhe2Ġ":10277,"rang4Ġta1Ġ":10278,"32Ġ":10279,"IIĠ":10280,"zhong1Ġbu4Ġ":10281,"Ġda4Ġyue1":10282,"sheng1Ġtai4Ġ":10283,"wei3Ġyuan2Ġhui4ĠdeĠ":10284,"Ġwen2Ġhua4":10285,"Ġdang1Ġxuan3Ġ":10286,"ĠDĠ":10287,"Ġzhi4Ġzuo4Ġren2Ġ":10288,"xia4Ġxia2ĠdeĠyi2Ġge4Ġxiang1Ġ":10289,"ĠÏ":10290,"Ġ2025":10291,"nan2Ġsi1Ġla1Ġ":10292,"tai4Ġhou4Ġ":10293,"gan4Ġxian4Ġ":10294,"Ġshi4Ġnan2Ġ":10295,"zu2Ġzi4Ġzhi4Ġ":10296,"xu4Ġshu4Ġ":10297,"ziĠgong1Ġsi1Ġ":10298,"Ġyue4Ġtuan2":10299,"Ġyi4Ġdian3Ġ":10300,"dui4Ġwai4Ġ":10301,"Ġhui4Ġbei4Ġ":10302,"yan2Ġchang2":10303,"qi3Ġsu4Ġ":10304,"zhong4Ġdian3":10305,"shui3Ġku4Ġ":10306,"Ġma3Ġlai2Ġxi1Ġya4Ġ":10307,"Ġfeng1":10308,"Ġ34":10309,"te4Ġji2Ġ":10310,"han4Ġzi4Ġ":10311,"Ġshi4Ġxiang1Ġgang3Ġ":10312,"shen1Ġzhen4Ġ":10313,"ti2Ġgong1ĠdeĠ":10314,"Ġbiao3Ġ":10315,"mu4Ġshi4Ġ":10316,"taĠ":10317,"Ġzai4Ġnan2Ġ":10318,"Ġhe2Ġtong2Ġ":10319,"shang4Ġshu4Ġ":10320,"wu3Ġhan4":10321,"qian1Ġshu3":10322,"ĠĠĠge4Ġren2Ġsheng1Ġhuo2Ġ":10323,"Ġkang1Ġxi1Ġ":10324,"jin4Ġji2Ġ":10325,"fu4Ġzhi4Ġ":10326,"cu1Ġ":10327,"Ġshi4Ġge4Ġ":10328,"ding4Ġqi1Ġ":10329,"san1Ġci4Ġ":10330,"gai3Ġwei2":10331,"Ġha1Ġer3Ġ":10332,"Ġji4Ġsuan4Ġji1Ġ":10333,"Ġà¸":10334,"ĠĠĠ7Ġyue4Ġ":10335,"zhan4Ġwei4Ġ":10336,"ru4Ġwei2Ġ":10337,"qi4Ġren2Ġ":10338,"xie2Ġdai4Ġ":10339,"wo4Ġer3Ġ":10340,"tan4Ġsuo3Ġ":10341,"codiceĠ":10342,"bo1Ġfang4":10343,"miao2Ġshu4Ġwei4Ġ":10344,"Ġdu4":10345,"Ġdi2":10346,"Ġfan3Ġdui4Ġ":10347,"ĠĠĠdong1Ġ":10348,"fu4Ġyou3Ġ":10349,"mei3Ġri4Ġ":10350,"xiu1Ġsi1Ġ":10351,"sao3Ġ":10352,"Ġcheng2Ġbao3Ġ":10353,"dui4Ġxiang4Ġ":10354,"Ġge4Ġzi4Ġ":10355,"ĠdeĠji1Ġhui4Ġ":10356,"ĠĠĠzhi4Ġzuo4Ġ":10357,"shi1Ġhe2Ġ":10358,"ren3Ġ":10359,"ben1Ġ":10360,"Ġyuan2Ġyou3Ġ":10361,"Ġge4Ġda4Ġ":10362,"Ġke4Ġli3Ġsi1Ġ":10363,"dong4Ġche1Ġ":10364,"tai2Ġbi4Ġ":10365,"zhu3Ġchi2Ġren2Ġ":10366,"shu4Ġhe2Ġ":10367,"jue2ĠleĠ":10368,"zhuan3Ġwei2Ġ":10369,"Ġbu4Ġzheng4Ġ":10370,"Ġguo2Ġgong1Ġ":10371,"Ġli4Ġke4Ġ":10372,"Ġgong1Ġkai1":10373,"lu4Ġshang4Ġ":10374,"ban1Ġci4Ġ":10375,"mo4Ġsi1Ġke1":10376,"fu1Ġfu4Ġ":10377,"zhuang4Ġbing4Ġdu2":10378,"thĠĠĠ":10379,"du3Ġ":10380,"1942Ġnian2Ġ":10381,"min2Ġjin4Ġ":10382,"ĠĠĠ2020Ġnian2Ġ":10383,"qi2Ġshi4Ġ":10384,"shou3Ġbu4Ġ":10385,"na4Ġsi1Ġ":10386,"hang2Ġzhan4Ġ":10387,"1933Ġnian2Ġ":10388,"jian4Ġzao4Ġ":10389,"tai2Ġwan1ĠdeĠ":10390,"pi1Ġping2":10391,"Ġ90":10392,"Ġgu4Ġshi4Ġ":10393,"an1Ġren2Ġ":10394,"ĠĠĠxiang1Ġgang3Ġ":10395,"jing1ĠdeĠ":10396,"1928Ġnian2Ġ":10397,"Ġzhong1Ġzhi3Ġ":10398,"zheng4Ġquan2Ġ":10399,"qu1Ġjian1Ġ":10400,"Ġcheng2Ġwei2Ġyi1Ġ":10401,"Ġyou3Ġyi1Ġxie1Ġ":10402,"kuo4Ġzhan3Ġ":10403,"jiu4Ġdu2Ġyu2Ġ":10404,"dong1ĠdeĠ":10405,"ba1Ġnen4":10406,"Ġxiang1Ġdang1Ġ":10407,"fan4Ġwei2":10408,"Ġguo2Ġmin2Ġdang3Ġ":10409,"Ġta3":10410,"Ġcai3Ġ":10411,"ĠĠĠ2014Ġnian2Ġ":10412,"bei4Ġshi4Ġ":10413,"ke1Ġer3Ġ":10414,"wu2Ġer3Ġ":10415,"Ġnian2Ġnian2Ġ":10416,"kai1Ġmu4Ġ":10417,"min2Ġzhu3":10418,"zhe4Ġzhong3":10419,"Ġzhan4Ġling3Ġ":10420,"tian1Ġtang2Ġ":10421,"yi2Ġmin2":10422,"ce4Ġlve4Ġ":10423,"jiang3Ġzui4Ġjia1Ġ":10424,"du2Ġte4ĠdeĠ":10425,"qiu2Ġdui4":10426,"zuo3Ġyou4":10427,"ĠĠĠX":10428,"ĠĠĠs":10429,"ĠĠĠla1Ġ":10430,"xian4Ġxiang4Ġ":10431,"jiu1Ġ":10432,"Ġhui4Ġshang4Ġ":10433,"feng1Ġge2":10434,"tong2Ġyang4":10435,"Ġna4Ġme":10436,"huo2Ġdong4ĠdeĠ":10437,"Ġci2":10438,"Ġpi2":10439,"ĠĠĠ4Ġ":10440,"yin4Ġxiang4Ġ":10441,"Ġming2Ġxing1Ġ":10442,"dian4Ġche1Ġ":10443,"Ġqian2Ġlong2Ġ":10444,"Ġ38":10445,"Ġgong1Ġbu4Ġ":10446,"Ġshan3Ġxi1Ġ":10447,"ĠĠĠ2010Ġnian2Ġ":10448,"shu1Ġshi4Ġ":10449,"Ġzai4Ġyuan2Ġ":10450,"Ġdi4Ġ2Ġ":10451,"Ġri4Ġqi1Ġ":10452,"nei4Ġmeng2Ġgu3Ġ":10453,"zhao4Ġpian1":10454,"xie2Ġshang1Ġ":10455,"Ġhua1":10456,"Ġ55":10457,"Ġdi4Ġba1Ġ":10458,"Ġji2Ġyi3Ġ":10459,"Ġguo2Ġyu3Ġ":10460,"fu3Ġzhu4Ġ":10461,"gui1Ġhua4":10462,"ling3Ġxian1Ġ":10463,"ĠĠĠMo":10464,"ĠĠĠ8Ġyue4Ġ":10465,"ĠĠĠsui1Ġran2Ġ":10466,"pin3ĠdeĠ":10467,"Ġzhou1Ġren2Ġ":10468,"xi4Ġlie4ĠdeĠ":10469,"Ġlao2Ġ":10470,"chuan1Ġyue4Ġ":10471,"Ġqi2Ġbing1Ġ":10472,"jin4Ġzhi3Ġ":10473,"Ġlu2":10474,"Ġ75":10475,"Ġyan2Ġjiu1Ġ":10476,"Ġou1Ġyuan2Ġ":10477,"e4Ġer3Ġ":10478,"lu4Ġyu3Ġ":10479,"duo1Ġming2Ġ":10480,"ju1Ġyu2Ġ":10481,"da4Ġxue2":10482,"Ġri4Ġyi4Ġ":10483,"xi1Ġwang4Ġ":10484,"sheng1Ġming4Ġ":10485,"you2Ġtai4Ġ":10486,"te4Ġqu1Ġ":10487,"Ġbing4Ġbiao3Ġshi4Ġ":10488,"zui4Ġduo1ĠdeĠ":10489,"Ġte4Ġbie2Ġ":10490,"jiao4Ġke1Ġ":10491,"Ġhe2Ġliu2Ġyu4Ġ":10492,"ĠĠĠDe":10493,"cheng2Ġshi2Ġ":10494,"ge2Ġsi1Ġ":10495,"Ġshi4Ġyuan2Ġ":10496,"ju4Ġda4ĠdeĠ":10497,"bao3Ġzhang4":10498,"jie1Ġwei4Ġzhi1Ġ":10499,"Ġshi4Ġyi2Ġge4Ġwei4Ġyu2Ġmei3Ġguo2Ġ":10500,"mian4Ġji1Ġhe2Ġren2Ġkou3Ġ":10501,"ĠĠĠ10":10502,"20Ġnian2Ġ":10503,"fang1Ġwei4Ġ":10504,"ci3Ġshi4Ġ":10505,"1943Ġnian2Ġ":10506,"Ġta1Ġjiang1Ġ":10507,"zong3Ġjing1Ġli3Ġ":10508,"ka3Ġla1Ġ":10509,"Ġtong2Ġshi2Ġye3Ġ":10510,"mi2Ġni3Ġ":10511,"Ġzhan4Ġdi4Ġ":10512,"cui1Ġhui3":10513,"Ġnong2Ġ":10514,"Ġdou1Ġshi4Ġ":10515,"xiang1ĠdeĠ":10516,"bian1Ġcheng2Ġ":10517,"jia3Ġji1Ġ":10518,"reĠ":10519,"shang4Ġxia4Ġ":10520,"zhu4Ġzhai2":10521,"fen1Ġlan2Ġ":10522,"ban4Ġyan3":10523,"ting2Ġkao4":10524,"ĠĠĠmu4Ġqian2Ġ":10525,"bo1Ġli4Ġ":10526,"nu2Ġli4Ġ":10527,"Ġchu1Ġren4":10528,"Ġjun1Ġguan1Ġ":10529,"huang2Ġjin1":10530,"Ġqi2Ġzhong1Ġyou3Ġ":10531,"Ġyin1Ġci3Ġzai4Ġ":10532,"hang2Ġkong1Ġgong1Ġsi1Ġ":10533,"Ġgai1Ġdi4ĠdeĠmian4Ġji1Ġhe2Ġren2Ġkou3Ġ":10534,"Ġgai1Ġdi4ĠdeĠmian4Ġji1Ġhe2Ġren2Ġkou3Ġjie1Ġwei4Ġzhi1Ġ":10535,"Ġcun1Ġ":10536,"Ġyuan3Ġ":10537,"Ġcai4Ġ":10538,"yue4Ġhe2Ġ":10539,"qu1Ġji2Ġ":10540,"wang2Ġhou4Ġ":10541,"chai2Ġ":10542,"run4Ġ":10543,"bian1Ġma3Ġ":10544,"han4Ġlin2Ġ":10545,"Ġzhi4Ġli4Ġyu2Ġ":10546,"yi2Ġji4Ġ":10547,"dai4Ġbu3Ġ":10548,"gao1Ġdeng3":10549,"jian4Ġkang1Ġ":10550,"Ġma":10551,"zu2Ġyi3Ġ":10552,"1912Ġnian2Ġ":10553,"Ġshi2Ġyue4Ġ":10554,"Ġyi1Ġtian1Ġ":10555,"he4Ġse4Ġ":10556,"Ġhuai2":10557,"Ġmeng4Ġ":10558,"fu4Ġyu3Ġ":10559,"dan1Ġxin1Ġ":10560,"ying1Ġjun1Ġ":10561,"bi3Ġer3Ġ":10562,"guo2Ġfang2":10563,"Ġchu1Ġxian4":10564,"Ġjia1Ġru4ĠleĠ":10565,"hui4Ġyi4Ġshang4Ġ":10566,"cun2Ġzai4Ġyu2Ġ":10567,"dian3Ġxing2ĠdeĠ":10568,"tang2ĠdeĠ":10569,"biao1Ġji4Ġ":10570,"Ġyi1Ġchang2Ġ":10571,"Ġde2Ġli4Ġ":10572,"Ġdai4Ġlai2Ġ":10573,"Ġceng2Ġjing1Ġ":10574,"ju4Ġzhong1Ġ":10575,"san1Ġwei4Ġ":10576,"jiu4Ġyou3Ġ":10577,"ting1ĠdeĠ":10578,"zhuang4ĠdeĠ":10579,"ji4Ġxu4":10580,"Ġke4Ġluo2Ġ":10581,"Ġjin4Ġji2Ġ":10582,"gao1Ġjia4Ġ":10583,"ĠĠĠwei4ĠleĠ":10584,"6Ġge4Ġ":10585,"Ġ22":10586,"Ġ2004":10587,"ĠMar":10588,"ĠĠĠ9Ġyue4Ġ":10589,"ĠĠĠ2012Ġnian2Ġ":10590,"ĠĠĠ2013Ġnian2Ġ":10591,"a1Ġji1Ġ":10592,"xi4Ġjun1Ġ":10593,"mu4Ġzhi4Ġ":10594,"fu2Ġshe4Ġ":10595,"Ġyi4Ġwai4Ġ":10596,"Ġda4Ġgui1Ġmo2Ġ":10597,"chan3Ġsheng1":10598,"shang1Ġpin3Ġ":10599,"Ġzhu3Ġchi2":10600,"que4Ġbao3Ġ":10601,"rui4Ġdian3":10602,"Ġji1Ġyu2Ġ":10603,"bo1Ġchu1":10604,"cha2Ġli3Ġ":10605,"1929Ġnian2Ġ":10606,"Ġshi3Ġyong4":10607,"ĠdeĠji4Ġhua4Ġ":10608,"Ġguo2Ġmin2Ġdang3":10609,"ĠĠĠ8":10610,"jian3Ġli4Ġ":10611,"gei3Ġta1Ġ":10612,"yi2Ġzhi3":10613,"meng2Ġte4Ġ":10614,"duan3Ġzan4":10615,"Ġguo2Ġmin2Ġzheng4Ġfu3Ġ":10616,"Ġzhu3Ġyao4Ġshi4Ġ":10617,"Ġshao4Ġ":10618,"zen3Ġ":10619,"Ġhe2Ġli4Ġ":10620,"Ġshi2Ġjian1ĠdeĠ":10621,"lu4Ġxu4Ġ":10622,"Ġxue2Ġxi2":10623,"jue2Ġsai4Ġzhong1Ġ":10624,"Ġfen1Ġbu4Ġzai4Ġ":10625,"hei1Ġlong2Ġjiang1Ġ":10626,"Ġ21":10627,"jia1Ġshi4Ġ":10628,"ping2Ġjun1":10629,"qian2Ġzai4Ġ":10630,"duan4Ġshi2Ġjian1Ġ":10631,"Ġyi3Ġ1Ġ":10632,"Ġxi1Ġli3Ġ":10633,"fa1Ġhui1":10634,"Ġwei2Ġqi2":10635,"dan1Ġda3Ġ":10636,"Ġzhu3Ġren4Ġ":10637,"Ġ70":10638,"Ġke3Ġneng2":10639,"diao4Ġyu2Ġ":10640,"Ġchu1Ġshou4Ġ":10641,"fa1Ġyan2Ġren2Ġ":10642,"ting2Ġyun4Ġ":10643,"ĠMĠ":10644,"Ġken3Ġ":10645,"ĠĠĠa":10646,"ĠĠĠqi2Ġzhong1Ġ":10647,"fu2Ġzhou1Ġ":10648,"1927Ġnian2Ġ":10649,"guan1Ġce4":10650,"ta3Ġni2":10651,"chuang4Ġshi3Ġren2Ġ":10652,"Ġ1997Ġnian2Ġ":10653,"shu4Ġren2Ġ":10654,"jue2Ġyu2Ġ":10655,"xu4Ġji2Ġ":10656,"chuan1Ġguo4Ġ":10657,"fu4Ġzhu3Ġxi2Ġ":10658,"Ġzhou1Ġwei2Ġ":10659,"Ġzong3Ġtong3Ġ":10660,"ĠdeĠyuan2Ġyin1Ġ":10661,"Ġkai1Ġfa1Ġ":10662,"Ġhao2Ġ":10663,"zhong1Ġhe2Ġ":10664,"wu4Ġyu3Ġ":10665,"Ġguo2Ġwang2":10666,"Ġzhi1Ġcheng1Ġ":10667,"Ġdan4Ġqi2Ġ":10668,"qun2Ġzhong4Ġ":10669,"Ġshi4Ġjie4ĠdeĠ":10670,"tan4Ġxian3":10671,"ni2Ġya4ĠdeĠ":10672,"ĠĠĠche1Ġzhan4Ġjie2Ġgou4Ġ":10673,"Ġjiang3":10674,"Ġqin2":10675,"xing2Ġxiang4Ġ":10676,"shi3Ġdi4Ġ":10677,"suan4Ġfa3Ġ":10678,"shu4Ġmu4Ġ":10679,"Ġer2Ġlai2Ġ":10680,"Ġfu4Ġgai4Ġ":10681,"ban3Ġben3ĠdeĠ":10682,"que4Ġding4":10683,"gao4Ġsu4":10684,"Ġnian2Ġdai4Ġchu1Ġ":10685,"ĠĠĠcan1Ġkao3Ġ":10686,"ci4Ġji1Ġ":10687,"1932Ġnian2Ġ":10688,"you3Ġguan1Ġ":10689,"zhi2Ġbo1Ġ":10690,"chuang4Ġzuo4":10691,"Ġcheng2Ġli4ĠleĠ":10692,"qu4Ġshi4Ġhou4Ġ":10693,"ao4Ġda4Ġli4Ġya4":10694,"Ġlan2":10695,"shen2ĠdeĠ":10696,"chong2Ġfu4Ġ":10697,"tui1Ġxing2Ġ":10698,"duo3Ġ":10699,"sonĠ":10700,"Ġshi4Ġbei4Ġ":10701,"Ġdao4Ġzhong1Ġ":10702,"hai3Ġyang2":10703,"ying1Ġchi3Ġ":10704,"ling3Ġyu4ĠdeĠ":10705,"ĠdeĠdi4Ġyi2Ġge4Ġ":10706,"shi1Ġdi4Ġ":10707,"zhan3Ġxian4Ġ":10708,"Ġyin1Ġyuan2Ġ":10709,"Ġyin1Ġqi2Ġ":10710,"fu2Ġhua4Ġ":10711,"jing4Ġnei4ĠdeĠ":10712,"ge1Ġci2Ġ":10713,"Ġlian2Ġjie1Ġ":10714,"Ġlu4Ġyi4Ġ":10715,"lĠĠĠ":10716,"Ġdeng1":10717,"Ġ46":10718,"yu4Ġbei4Ġ":10719,"lie4Ġsi1Ġ":10720,"du1Ġhui4Ġ":10721,"xi1Ġya4Ġ":10722,"zui4Ġzao3Ġ":10723,"wu3Ġdao3Ġ":10724,"jing4Ġwai4Ġ":10725,"Ġzi3Ġ":10726,"ĠĠĠ6Ġyue4Ġ":10727,"duo1Ġyuan2Ġ":10728,"zhe3Ġren4Ġwei2Ġ":10729,"song4Ġdao4Ġ":10730,"Ġda4Ġqiao2":10731,"Ġta1Ġhai2":10732,"zhu4Ġzhai2Ġ":10733,"e2Ġhai4Ġe2":10734,"Ġlian2Ġmeng2Ġ":10735,"guo2Ġjia1Ġdui4Ġ":10736,"zhe4Ġjiang1Ġsheng3Ġ":10737,"Ġsi3Ġ":10738,"Ġxuan2Ġ":10739,"zhi1Ġdao4Ġ":10740,"xiang3ĠdeĠ":10741,"Ġxing2Ġyu2Ġ":10742,"Ġyi3Ġlai2":10743,"Ġsheng1Ġcheng1Ġ":10744,"shen1Ġwang2Ġ":10745,"mi4Ġqie4":10746,"fan3Ġdui4":10747,"tan4Ġce4Ġ":10748,"ĠRĠ":10749,"an1Ġshi4Ġ":10750,"duan1ĠdeĠ":10751,"Ġdi4Ġzhong1Ġ":10752,"Ġren2Ġci4Ġ":10753,"Ġji2Ġer3Ġ":10754,"jing1Ġyou2Ġ":10755,"ji3Ġhe2Ġ":10756,"1934Ġnian2Ġ":10757,"Ġyi1Ġtong2":10758,"cai2Ġzheng4":10759,"fang2Ġjian1Ġ":10760,"man3Ġzu2":10761,"Ġ150":10762,"Ġdou4Ġ":10763,"jin4Ġxing2ĠdeĠ":10764,"Ġer3Ġyu3Ġ":10765,"tuan2Ġzhang3Ġ":10766,"pai2Ġhang2Ġbang3":10767,"Ġpeng2Ġ":10768,"hou4Ġbu4Ġjiu3Ġ":10769,"chu1Ġzhan4Ġ":10770,"fu4Ġbu4Ġzhang3Ġ":10771,"Ġli4Ġshu3":10772,"la1Ġte4Ġ":10773,"ba1Ġle4":10774,"qiang2Ġda4ĠdeĠ":10775,"Ġzeng1Ġ":10776,"Ġyi1Ġwei4Ġ":10777,"ĠĠĠaĠĠĠ":10778,"wang3Ġqiu2":10779,"kuo4Ġjian4Ġ":10780,"cheng2Ġji4Ġ":10781,"Ġji2Ġsi1Ġ":10782,"Ġri4Ġhou4Ġ":10783,"Ġjia1Ġsi1Ġ":10784,"Ġbing4Ġyou3Ġ":10785,"chang3Ġbi3Ġsai4Ġ":10786,"Ġya3":10787,"ĠĠĠxiang1Ġ":10788,"zhan4Ġzai4Ġ":10789,"Ġhe2Ġdong1Ġ":10790,"yi1Ġli4Ġ":10791,"ke1Ġfu1Ġ":10792,"tou2Ġxian2Ġ":10793,"Ġshou3Ġci4":10794,"Ġdun1Ġ":10795,"ĠĠĠgen1Ġju4":10796,"Ġxue2Ġhui4Ġ":10797,"ĠĠĠci3":10798,"ĠĠĠ2011Ġnian2Ġ":10799,"qi1Ġshi4Ġ":10800,"fen1ĠdeĠ":10801,"shuo1ĠdeĠ":10802,"zhen1Ġzheng4Ġ":10803,"Ġri4Ġyu3Ġ":10804,"Ġqi2Ġta1ĠdeĠ":10805,"zhi2Ġwu4":10806,"chang2Ġwei3Ġhui4Ġ":10807,"ban4Ġdao3":10808,"hang2Ġban1Ġ":10809,"wan2Ġcheng2ĠleĠ":10810,"an4Ġshi4Ġ":10811,"ĠĠĠri4Ġben3Ġ":10812,"ĠĠĠjian4Ġzhu4Ġ":10813,"di1ĠdeĠ":10814,"za2ĠdeĠ":10815,"1924Ġnian2Ġ":10816,"Ġzhong1Ġdui4Ġ":10817,"da4Ġliang4Ġ":10818,"zhan4Ġlve4Ġ":10819,"sai4Ġguan4Ġjun1Ġ":10820,"shou1Ġlu4":10821,"ĠPĠ":10822,"Ġguan1Ġzhi4Ġ":10823,"kĠĠĠ":10824,"ĠQ":10825,"ĠĠĠ5":10826,"ding4Ġli3Ġ":10827,"xiao4Ġshe4Ġ":10828,"xie3ĠleĠ":10829,"ceĠĠĠ":10830,"Ġji2Ġjiang1Ġ":10831,"pu3Ġtong1":10832,"gui1Ġze2":10833,"Ġguo2Ġji4Ġji1Ġchang3Ġ":10834,"ĠĠĠgen1Ġju4Ġ2010Ġnian2Ġmei3Ġguo2Ġren2Ġkou3Ġpu3Ġcha2ĠdeĠshu4Ġju4Ġ":10835,"Ġruan3":10836,"Ġ2003":10837,"Ġ180":10838,"ba1Ġshi2Ġ":10839,"sheng3Ġzheng4Ġfu3Ġ":10840,"bao3Ġwei4Ġ":10841,"Ġzai4Ġxian4Ġ":10842,"san1Ġzhong3Ġ":10843,"che4Ġtui4Ġ":10844,"ĠĠĠgao1Ġ":10845,"ren4Ġyi4Ġ":10846,"xiang2Ġxi4Ġ":10847,"kua4Ġ":10848,"chui2Ġzhi2Ġ":10849,"Ġchu1Ġxian4ĠdeĠ":10850,"xiao3Ġzu3":10851,"ke1Ġxue2":10852,"nuo4Ġman4Ġ":10853,"Ġwan3Ġ":10854,"Ġhe2Ġji1Ġ":10855,"Ġyi1Ġzhong3":10856,"Ġxing2Ġhe2Ġ":10857,"hu4Ġdong4Ġ":10858,"da3Ġsuan4Ġ":10859,"chong2Ġxin1":10860,"xue2Ġshi4Ġxue2Ġwei4Ġ":10861,"Ġmiao3Ġ":10862,"bu4Ġwei4Ġyu2Ġ":10863,"xiao4Ġyou3Ġ":10864,"zhang1ĠdeĠ":10865,"dou1Ġbu4Ġ":10866,"zang4Ġyu2Ġ":10867,"Ġhe2Ġnan2Ġsheng3Ġ":10868,"han3Ġmo4Ġde2Ġ":10869,"Ġchuang4":10870,"Ġhei1":10871,"ĠĠĠfa3Ġguo2Ġ":10872,"a1Ġli3Ġ":10873,"dang3Ġji2Ġ":10874,"Ġxian4Ġyu3Ġ":10875,"Ġyi1Ġlang3":10876,"Ġxian4Ġzai4ĠdeĠ":10877,"xiang1Ġhu4Ġ":10878,"Ġke4Ġsa4Ġsi1Ġ":10879,"chao2Ġting2Ġ":10880,"fang2Ġkong1Ġ":10881,"Ġqu3":10882,"Ġzhao1Ġ":10883,"hou4Ġta1Ġ":10884,"bai3Ġwan4Ġ":10885,"ren2Ġmin2":10886,"yan2Ġchang2Ġ":10887,"zi1Ġxun4":10888,"you1Ġxiu4Ġ":10889,"tan2Ġpan4":10890,"Ġting1Ġ":10891,"a1Ġfu4Ġ":10892,"zhen1Ġyu3Ġ":10893,"Ġshi4Ġdui4Ġ":10894,"Ġta1Ġcheng2Ġwei2Ġ":10895,"Ġzhou1Ġhe2Ġ":10896,"jie2Ġdu4Ġshi3Ġ":10897,"Ġren4Ġzhi2Ġ":10898,"tian1Ġqi4Ġ":10899,"Ġdang1Ġnian2Ġ":10900,"ban4Ġfa3Ġ":10901,"wu1Ġran3":10902,"liu2Ġxue2Ġ":10903,"gai3Ġming2Ġ":10904,"Ġzai4Ġqi2":10905,"Ġbu4Ġjin3":10906,"Ġda4Ġcheng2Ġ":10907,"bao3Ġzhang4Ġ":10908,"Ġquan2Ġmian4Ġ":10909,"pan4Ġchu3Ġ":10910,"Ġshi4Ġshi4Ġjie4":10911,"mao4Ġxian3Ġ":10912,"li3Ġshi4Ġhui4Ġ":10913,"Ġren2Ġkou3ĠdeĠ":10914,"tu2Ġshu1Ġguan3":10915,"Ġkuai4Ġ":10916,"Ġgui4Ġ":10917,"er2Ġtong2":10918,"zong3Ġzhan4Ġ":10919,"su4Ġshe4Ġ":10920,"chuan2Ġqi2Ġ":10921,"qu4ĠdeĠ":10922,"lian3Ġ":10923,"Ġshi4Ġzheng4Ġfu3Ġ":10924,"Ġsi1Ġfa3Ġ":10925,"fa1Ġbu4ĠdeĠ":10926,"Ġbing4Ġjiang1":10927,"na4Ġru4Ġ":10928,"ke4Ġyun4Ġ":10929,"qu3Ġde2ĠleĠ":10930,"Ġshuang1":10931,"ĠĠĠtong2":10932,"ben3Ġbu4Ġ":10933,"qian2Ġxian4Ġ":10934,"can1Ġyi4Ġyuan2Ġ":10935,"ci2Ġhui4Ġ":10936,"xing3Ġ":10937,"Ġzhi1Ġbu4Ġ":10938,"hu2Ġpo1Ġ":10939,"ming4Ġming2ĠdeĠ":10940,"zhuan3Ġyi2Ġ":10941,"Ġjiang1Ġxi1Ġ":10942,"ren2Ġda4Ġdai4Ġbiao3Ġ":10943,"ĠĠĠchen2Ġ":10944,"qian1Ġren2Ġ":10945,"liu4Ġge4Ġ":10946,"fou3Ġren4Ġ":10947,"ren4Ġzhi2Ġ":10948,"min2Ġzhong4":10949,"wai4Ġguan1Ġ":10950,"bian1Ġjie4":10951,"cĠĠĠ":10952,"Ġcom":10953,"Ġ1992Ġnian2Ġ":10954,"duo1Ġbu4Ġ":10955,"san1Ġyue4Ġ":10956,"dang4Ġzuo4Ġ":10957,"Ġshi4Ġyan4Ġ":10958,"fang1Ġcheng2Ġshi4Ġ":10959,"dan1Ġmai4":10960,"wang3Ġwang3Ġ":10961,"deng1Ġlu4":10962,"Ġri4Ġben3ĠdeĠ":10963,"luo2Ġma3Ġdi4Ġguo2Ġ":10964,"Ġxian4ĠdeĠyi2Ġge4Ġxing2Ġzheng4Ġzhen4Ġqu1Ġ":10965,"ĠĠĠ12":10966,"leĠdi4Ġ":10967,"wei2Ġren2Ġ":10968,"ying3Ġdai4Ġ":10969,"Ġwei4Ġwei4Ġ":10970,"Ġxiang1Ġsi4Ġ":10971,"yan3Ġzou4":10972,"mi4Ġdu4Ġ":10973,"ren2Ġkou3Ġpu3Ġcha2Ġ":10974,"Ġwang1":10975,"Ġyun4Ġ":10976,"kuang1Ġ":10977,"Ġjian4Ġzai4Ġ":10978,"Ġzhi1Ġhou4Ġzai4Ġ":10979,"fa3Ġguo2ĠdeĠ":10980,"liang4Ġxiang4Ġ":10981,"ru2Ġguo3":10982,"xing1Ġxi4Ġ":10983,"shan1Ġxi1Ġsheng3Ġ":10984,"Ġ37":10985,"Ġ1994Ġnian2Ġ":10986,"ĠĠĠyan2Ġge2Ġ":10987,"jia3Ġshe4Ġ":10988,"mian3Ġyi4Ġ":10989,"Ġbei4Ġjing3Ġ":10990,"Ġquan2ĠdeĠ":10991,"hui2Ġgui1":10992,"Ġtong2Ġshi2Ġye3Ġshi4Ġ":10993,"Ġqi1Ġjian1":10994,"Ġda4Ġbu4Ġfen4":10995,"Ġsheng1":10996,"ĠĠĠ2008Ġnian2Ġ":10997,"ĠĠĠyi3Ġxia4Ġ":10998,"ti3Ġji1Ġ":10999,"na4Ġhe2Ġ":11000,"13Ġnian2Ġ":11001,"Ġshi4Ġzhi3":11002,"Ġyi3Ġ2Ġ":11003,"zhe4Ġyang4ĠdeĠ":11004,"gai3Ġcheng1Ġ":11005,"Ġdong1Ġbei3":11006,"Ġliu2Ġyu4Ġmian4Ġji1Ġ":11007,"Ġchong2Ġxin1Ġ":11008,"chuan2Ġdi4Ġ":11009,"cun1ĠdeĠ":11010,"ka1Ġ":11011,"Ġxian4Ġzhong1Ġ":11012,"Ġda4Ġfu1Ġ":11013,"Ġdan4ĠdeĠ":11014,"wei3Ġyuan2Ġhui4Ġzhu3Ġxi2Ġ":11015,"Ġgen1Ġju4Ġ2020Ġnian2Ġmei3Ġguo2Ġren2Ġkou3Ġpu3Ġcha2ĠdeĠshu4Ġju4Ġ":11016,"guang3Ġfan4ĠdeĠ":11017,"you3Ġhe2Ġ":11018,"li2Ġshi4Ġ":11019,"chao2Ġshi2Ġ":11020,"ju2Ġshi4Ġ":11021,"zong3Ġmian4Ġji1Ġ":11022,"Ġheng1Ġli4Ġ":11023,"xin1Ġxing2Ġ":11024,"zi3Ġdan4Ġ":11025,"dang4ĠdeĠ":11026,"xue2Ġxi4Ġ":11027,"gai3Ġzao4":11028,"Ġan1Ġde2Ġ":11029,"Ġyao4":11030,"Ġqi4":11031,"Ġ400":11032,"ĠĠĠ18":11033,"zhen1ĠdeĠ":11034,"21Ġnian2Ġ":11035,"Ġzai4Ġbei4Ġ":11036,"Ġcheng2Ġli4ĠdeĠ":11037,"xi1Ġyang2":11038,"Ġbing4Ġfei1":11039,"Ġzi4Ġmu3Ġ":11040,"Ġbi4Ġxu1Ġ":11041,"hang2Ġkong1Ġmu3":11042,"cui1Ġhui3Ġ":11043,"fei1Ġlv4Ġbin1Ġ":11044,"Ġfeng2":11045,"Ġ39":11046,"Ġfa1Ġbu4Ġ":11047,"kai1Ġshe4":11048,"ge2Ġli3Ġ":11049,"chang2Ġbei4Ġ":11050,"jing3Ġyuan2Ġ":11051,"qian3Ġze2Ġ":11052,"CDĠ":11053,"bu4Ġtong2Ġ":11054,"Ġshi2Ġke4Ġ":11055,"yi4Ġbai3Ġ":11056,"Ġji1Ġxie4":11057,"dian4Ġzi3":11058,"Ġbu4Ġzai4Ġ":11059,"ĠĠĠtai2Ġwan1Ġ":11060,"zhang3Ġhe2Ġ":11061,"jiao1ĠdeĠ":11062,"cha2Ġer3Ġsi1Ġ":11063,"ji3Ġnian2Ġ":11064,"Ġshi2Ġyou2Ġ":11065,"jiao1Ġjie4Ġ":11066,"Ġ300":11067,"Ġchao1Ġ":11068,"fu2Ġshi4Ġ":11069,"25Ġnian2Ġ":11070,"edĠĠĠ":11071,"Ġxi1Ġfang1Ġ":11072,"Ġqi2Ġhou4Ġyu2Ġ":11073,"yi2Ġdu4":11074,"Ġn":11075,"Ġ19Ġ":11076,"Ġ1996Ġnian2Ġ":11077,"gen1Ġben3Ġ":11078,"pao3Ġdao4Ġ":11079,"Ġzhong1Ġqi1Ġ":11080,"Ġshi2Ġli4Ġ":11081,"zheng4Ġchang2Ġ":11082,"Ġzhi1Ġshang4Ġ":11083,"bao3Ġjia1":11084,"yi2Ġci4Ġshi4Ġjie4Ġda4Ġzhan4Ġ":11085,"shou1Ġcang2":11086,"de2Ġguo2ĠdeĠ":11087,"fu2Ġjian4Ġsheng3Ġ":11088,"ĠDe":11089,"Ġzao4Ġ":11090,"Ġluo2Ġsi1Ġ":11091,"ĠĠĠxiang1Ġgang3":11092,"te4Ġzai4Ġ":11093,"bo1Ġchu1ĠdeĠ":11094,"xing1Ġjian4":11095,"Ġren2Ġbei4Ġ":11096,"Ġge4Ġbu4Ġ":11097,"qiang2Ġdiao4":11098,"hao4ĠdeĠ":11099,"12Ġnian2Ġ":11100,"lyĠĠĠ":11101,"Ġyou3Ġliang3Ġ":11102,"li3Ġlan2Ġ":11103,"Ġzhou1Ġli4Ġ":11104,"Ġdui4Ġwai4Ġ":11105,"fen1Ġpei4":11106,"jin1Ġrong2":11107,"shou4Ġhuan1Ġ":11108,"xu4Ġlie4Ġ":11109,"bu3Ġchong1Ġ":11110,"Ġli4Ġshi3Ġxue2Ġjia1Ġ":11111,"dian4Ġying3ĠdeĠ":11112,"Ġmi3Ġzhi4Ġ":11113,"Ġyi4Ġshu4Ġjia1Ġ":11114,"ĠĠĠliu2Ġ":11115,"san1Ġbu4Ġ":11116,"si4Ġyue4Ġ":11117,"shou3Ġshu4Ġ":11118,"Ġdui4Ġwu3Ġ":11119,"fen1Ġlie4Ġ":11120,"jin1Ġshan1Ġ":11121,"Ġxiang1Ġbi3Ġ":11122,"qing2Ġbao4":11123,"yin1Ġsu4Ġ":11124,"Ġguang1Ġxu4Ġ":11125,"Ġqu4Ġ":11126,"yan3Ġjiang3Ġ":11127,"nv3Ġhai2Ġ":11128,"gui1Ġlei4":11129,"shang1Ġchang3Ġ":11130,"24Ġxiao3Ġshi2Ġ":11131,"fo2Ġjiao4":11132,"Ġhao3Ġ":11133,"sha1ĠdeĠ":11134,"Ġhe2Ġshang4Ġ":11135,"sheng1Ġyin1Ġ":11136,"yan2Ġlun4Ġ":11137,"Ġjin4Ġer2Ġ":11138,"luo2Ġla1Ġ":11139,"wei1Ġxie2":11140,"sa4Ġla1Ġ":11141,"Ġmian4Ġji1Ġ0":11142,"gu3Ġlao3ĠdeĠ":11143,"ĠCo":11144,"Ġzhuang4Ġ":11145,"ĠĠĠ15":11146,"gu3Ġji4Ġ":11147,"tao1Ġ":11148,"Ġshi2Ġda4Ġ":11149,"wang2Ġzi3Ġ":11150,"shui3Ġshen1Ġ":11151,"yi3Ġse4Ġ":11152,"Ġjin1Ġshu3Ġ":11153,"qiao2Ġliang2Ġ":11154,"ge4Ġzhong3":11155,"a1Ġer3Ġbei1Ġsi1Ġ":11156,"zhong4Ġdian3Ġwen2Ġwu4Ġbao3Ġhu4Ġdan1Ġwei4Ġ":11157,"jia1Ġli4Ġfu2Ġni2Ġya4Ġzhou1Ġ":11158,"di1Ġqi4Ġya1Ġ":11159,"dui4Ġta1Ġ":11160,"26Ġ":11161,"Ġshi4Ġxi1Ġban1Ġya2Ġ":11162,"Ġhe2Ġji4Ġ":11163,"Ġbu4Ġshi2Ġ":11164,"ren4Ġming4Ġ":11165,"Ġke3Ġshi4Ġ":11166,"Ġou1":11167,"chĠĠĠ":11168,"lai2Ġke4Ġ":11169,"fu2Ġyin1Ġ":11170,"ya4Ġsi1Ġ":11171,"Ġguo2Ġshi2Ġ":11172,"Ġyi4Ġda4Ġ":11173,"Ġyuan2ĠziĠ":11174,"xin1Ġjiang1Ġ":11175,"qian2Ġjin4Ġ":11176,"Ġshe4Ġying3Ġ":11177,"tu2Ġsha1Ġ":11178,"kong1Ġxi2Ġ":11179,"tan3Ġding1Ġ":11180,"kai1Ġfa1ĠdeĠ":11181,"Ġ2023Ġnian2Ġ":11182,"nv3Ġren2Ġ":11183,"ju2Ġbu4Ġ":11184,"27Ġ":11185,"tionĠ":11186,"Ġjun1Ġtuan2Ġ":11187,"nv3Ġzhu3Ġjue2Ġ":11188,"Ġjing3Ġfang1Ġ":11189,"ĠĠĠ2005":11190,"luo4Ġke4Ġ":11191,"hui2Ġjia1Ġ":11192,"shuo4Ġ":11193,"Ġgong1Ġgao4Ġ":11194,"Ġzhi1Ġhou4ĠdeĠ":11195,"mo2Ġte4":11196,"Ġshi4Ġyi1Ġke1":11197,"shou1Ġru4":11198,"guang3Ġzhou1Ġshi4Ġ":11199,"zhi2Ġsheng1Ġji1Ġ":11200,"fu2Ġlei2":11201,"sai4Ġche1Ġ":11202,"jing4Ġtou2Ġ":11203,"cheng2Ġli4Ġhou4Ġ":11204,"1970Ġnian2Ġdai4Ġ":11205,"Ġshi4Ġxing1Ġdeng3Ġwei4Ġ":11206,"pin1Ġ":11207,"yi1Ġyuan4Ġ":11208,"Ġyi3Ġbei3Ġ":11209,"Ġxian4Ġming2Ġ":11210,"yan2Ġjiu1Ġzhong1Ġxin1Ġ":11211,"Ġnian2Ġqing1ĠdeĠ":11212,"di2Ġshi4Ġni2Ġ":11213,"Ġpeng2":11214,"ĠÐ°":11215,"da4Ġyu2Ġ":11216,"jie1ĠdeĠ":11217,"zhuan1Ġli4Ġ":11218,"zhuan3Ġcheng2Ġ":11219,"Ġren2Ġdui4Ġ":11220,"Ġguo2Ġjun1Ġ":11221,"xuan3Ġqu1":11222,"Ġxia4ĠleĠ":11223,"pu3Ġluo2Ġ":11224,"gong4Ġji4Ġ":11225,"lun2Ġsi1Ġ":11226,"shen2Ġhua4Ġ":11227,"ĠĠĠPro":11228,"gao1Ġdi4Ġ":11229,"wu3Ġde2Ġ":11230,"luo4Ġzai4Ġ":11231,"zhi4Ġdu4Ġ":11232,"yu3Ġmao2":11233,"fang1Ġxiang4ĠdeĠ":11234,"Ġzheng4Ġquan2Ġ":11235,"yi2Ġding4ĠdeĠ":11236,"lan2Ġse4Ġ":11237,"ying1Ġxiong2":11238,"zhuan1Ġmen2":11239,"Ġtian1Ġjin1Ġ":11240,"fa3Ġlan2Ġxi1":11241,"Ġti2Ġchu1Ġ":11242,"19Ġnian2Ġ":11243,"duo1Ġli4Ġya4Ġ":11244,"jiu4Ġzai4Ġ":11245,"ting2ĠdeĠ":11246,"kuai4ĠdeĠ":11247,"33Ġ":11248,"Ġshi4Ġying1Ġguo2Ġ":11249,"Ġji2Ġbing4":11250,"pei2Ġxun4Ġ":11251,"gou4Ġmai3Ġ":11252,"wan2Ġzheng3ĠdeĠ":11253,"gong1Ġhe2Ġ":11254,"rao4Ġ":11255,"fei2Ġte4Ġ":11256,"Ġming2Ġxian3Ġ":11257,"dian4Ġying3Ġjie2Ġ":11258,"zhi1Ġjia1Ġ":11259,"jiu4Ġbei4Ġ":11260,"gu3ĠdeĠ":11261,"bian4Ġshi4Ġ":11262,"wan4Ġren2Ġ":11263,"gao4Ġshi4Ġ":11264,"1925Ġnian2Ġ":11265,"Ġxing2Ġrong2":11266,"nei4Ġrui4Ġ":11267,"tou2Ġshou3Ġ":11268,"Ġshi4Ġshi2Ġshang4Ġ":11269,"Ġwo4Ġ":11270,"18Ġnian2Ġ":11271,"1909Ġnian2Ġ":11272,"zhi4Ġzuo4":11273,"Ġji2Ġxian4Ġ":11274,"Ġri4Ġhe2Ġ":11275,"qu1Ġzhu2":11276,"Ġjun1Ġyou3Ġ":11277,"fu4Ġshi3Ġ":11278,"ben3Ġshen1Ġ":11279,"Ġzhou1Ġqi1Ġ":11280,"Ġyou2Ġxi4ĠdeĠ":11281,"mo2Ġfa3Ġ":11282,"zhun3Ġbei4":11283,"Ġliang2":11284,"Ġxiong1":11285,"da4Ġhe2Ġ":11286,"Ġwei4Ġli4Ġ":11287,"Ġshi2Ġpin3Ġ":11288,"Ġbing4Ġshi4Ġ":11289,"zhi3Ġkong4":11290,"Ġtong2Ġzhi4Ġ":11291,"qing1Ġchu3Ġ":11292,"chan3Ġwu4Ġ":11293,"zhuan4Ġxie3Ġ":11294,"ri4Ġben3ĠdeĠ":11295,"Ġ2002":11296,"ĠĠĠdao4Ġ":11297,"nan2Ġren2Ġ":11298,"shui3ĠdeĠ":11299,"wang3Ġyou3Ġ":11300,"zheng1Ġqu3Ġ":11301,"mei3Ġguo2Ġren2Ġkou3Ġpu3Ġcha2Ġ":11302,"sai1Ġer3Ġwei2Ġya4Ġ":11303,"Ġ1949":11304,"zhan4Ġhe2Ġ":11305,"ke4Ġsi1Ġ":11306,"ru4Ġqiu2Ġ":11307,"bian4ĠdeĠ":11308,"shui3Ġhe2Ġ":11309,"wan3Ġnian2Ġ":11310,"dan3Ġ":11311,"ji4Ġzai3Ġ":11312,"liu2Ġliang4Ġ":11313,"Ġwei4Ġyu2Ġyin2":11314,"an4Ġzhao4":11315,"su1Ġdan1Ġ":11316,"zhuan3Ġhuan4":11317,"Ġmei3Ġzhou1Ġ":11318,"ke3Ġneng2Ġxing4Ġ":11319,"shun4Ġxu4Ġ":11320,"Ġlu2Ġwa3Ġer3Ġsheng3Ġ":11321,"si4Ġchuan1Ġsheng3Ġ":11322,"Ġxing2Ġrong2Ġ":11323,"Ġbei4Ġren4Ġming4Ġwei4Ġ":11324,"zi1Ġxun2Ġ":11325,"liang4Ġzi3Ġ":11326,"Ġzhu3Ġti2Ġ":11327,"qiu2Ġchang3Ġ":11328,"Ġshi4Ġjie4Ġshang4Ġ":11329,"fang1Ġzai4Ġ":11330,"chuan1Ġxian4Ġ":11331,"Ġyu2Ġtong2":11332,"Ġyu2Ġshi2ĠdeĠren2Ġkou3Ġshu4Ġliang4Ġwei4Ġren2Ġ":11333,"Ġxing2Ġren2Ġ":11334,"gu3Ġdian3Ġ":11335,"zhuan3Ġhuan4Ġ":11336,"che4Ġxiao1":11337,"ti3Ġyu4Ġguan3Ġ":11338,"Ġwen1Ġ":11339,"hua4Ġshi4Ġ":11340,"tan2Ġhe2Ġ":11341,"Ġshang4ĠleĠ":11342,"Ġhuo4Ġzhe3":11343,"jian3Ġdan1ĠdeĠ":11344,"ying2Ġyun4":11345,"dai4Ġbiao3Ġtuan2Ġ":11346,"Ġwei4Ġyu2Ġgai1Ġguo2Ġxi1Ġbu4Ġ":11347,"bao1Ġhan2ĠleĠ":11348,"Ġzong1Ġ":11349,"Ġka3Ġer3Ġ":11350,"ĠĠĠhong2Ġ":11351,"ba1Ġbu4Ġ":11352,"chi4Ġjing1Ġ":11353,"Ġshi4Ġji4Ġzhong1Ġ":11354,"Ġyu2Ġ2021":11355,"Ġli4Ġtao2Ġ":11356,"Ġfei1Ġlv4Ġ":11357,"Ġyuan2Ġzhu4Ġmin2Ġ":11358,"ma3Ġli4Ġya4Ġ":11359,"bu3Ġzhu4Ġ":11360,"bei4Ġjing3":11361,"zheng1Ġfu2Ġ":11362,"wei3Ġtuo1Ġ":11363,"qu3Ġmu4Ġ":11364,"ruan3Ġtiao2Ġ":11365,"Ġyu4Ġji4Ġ":11366,"ĠAl":11367,"Ġ1949Ġnian2Ġ":11368,"hao4Ġwei4Ġ":11369,"pu3Ġji2Ġ":11370,"Ġda4Ġsai4Ġ":11371,"kai1Ġzhan3":11372,"jiang1Ġhu4":11373,"Ġxue2Ġshu4Ġ":11374,"ling3Ġtu3":11375,"tiao2Ġwen2Ġ":11376,"Ġpan1":11377,"ĠĠĠyou2Ġxi4Ġ":11378,"hou4Ġyi3Ġ":11379,"inĠĠĠ":11380,"zuo4Ġzhe3Ġ":11381,"you2Ġyong3Ġ":11382,"Ġde2Ġwei2Ġ":11383,"tong1Ġxun4":11384,"Ġtian1Ġjin1":11385,"su1Ġwei2Ġai1":11386,"jian1Ġwei4Ġ":11387,"ke3Ġjian4Ġ":11388,"bo1ĠdeĠ":11389,"du2ĠdeĠ":11390,"terĠ":11391,"Ġta1Ġren2Ġ":11392,"mei2Ġyou3Ġren4Ġhe2Ġ":11393,"yan2Ġshen1Ġzhi4Ġ":11394,"Ġ1995Ġnian2Ġ":11395,"zhong1ĠdeĠyi1Ġ":11396,"pin2Ġdao4":11397,"bei3Ġbu4ĠdeĠ":11398,"jie1Ġxia4Ġ":11399,"zhen4Ġrong2Ġ":11400,"bing4Ġru4Ġ":11401,"zhu3Ġyao4Ġshi4Ġ":11402,"Ġyou3Ġxian4Ġgong1Ġsi1":11403,"ge1Ġlun2Ġbi3Ġya4Ġ":11404,"Ġshi2Ġer4Ġnian2Ġ":11405,"ji1Ġguan1Ġ":11406,"kai1Ġtong1":11407,"tai4Ġshou3Ġ":11408,"dian4Ġshi4Ġdong4Ġhua4Ġ":11409,"Ġzui4Ġzao3":11410,"Ġchu2Ġci3Ġzhi1Ġwai4Ġ":11411,"qi2Ġzhong1Ġyi1Ġ":11412,"jie4Ġquan2Ġguo2Ġzheng4Ġxie2Ġ":11413,"bao4Ġfa1Ġhou4Ġ":11414,"JĠ":11415,"ĠHR":11416,"Ġlun2Ġ":11417,"Ġke1Ġxue2Ġ":11418,"shu4Ġjia1Ġ":11419,"qu3ĠdeĠ":11420,"orĠ":11421,"orĠĠĠ":11422,"pian4Ġzhong1Ġ":11423,"jia3Ġji2Ġ":11424,"Ġzai4Ġxiang1Ġgang3Ġ":11425,"Ġshi2Ġyi1Ġnian2Ġ":11426,"Ġji2Ġwei2Ġ":11427,"Ġyi3Ġbian4Ġ":11428,"wu3Ġhan4Ġ":11429,"si4Ġhu1":11430,"ge1Ġge1Ġ":11431,"fan4Ġzui4":11432,"Ġë":11433,"yuan2Ġbu4Ġ":11434,"fen4ĠdeĠ":11435,"mai3Ġ":11436,"Ġzhong1Ġxin1ĠdeĠ":11437,"Ġren2Ġyu3Ġ":11438,"Ġda4Ġxiao3Ġ":11439,"ge2Ġla1Ġsi1Ġ":11440,"ĠĠĠ7":11441,"ĠĠĠka3Ġ":11442,"30Ġnian2Ġ":11443,"hu1Ġxi1Ġ":11444,"35Ġ":11445,"Ġda4Ġli3Ġ":11446,"ju4Ġli2":11447,"fa3Ġlan2Ġke4Ġ":11448,"tong1Ġwang3Ġ":11449,"ĠdeĠdi4Ġsan1Ġ":11450,"hen3Ġda4ĠdeĠ":11451,"ĠEĠ":11452,"Ġfan2":11453,"Ġ1993Ġnian2Ġ":11454,"ji4Ġzhi4Ġ":11455,"che1Ġxing2Ġ":11456,"jie4Ġshi2Ġ":11457,"ha1Ġli3Ġ":11458,"huo3Ġli4Ġ":11459,"reng2Ġwei4Ġ":11460,"kua4Ġyue4Ġ":11461,"1923Ġnian2Ġ":11462,"Ġshi4Ġe2Ġluo2Ġsi1Ġ":11463,"lian2Ġluo4Ġ":11464,"dong4Ġwu4":11465,"shui3Ġliang4Ġ":11466,"xie2Ġtiao2Ġ":11467,"huo3Ġche1Ġzhan4Ġ":11468,"nong2Ġchang3Ġ":11469,"xuan1Ġyan2Ġ":11470,"Ġchi4Ġwei3Ġ":11471,"Ġhuan2":11472,"ĠĠĠshang4Ġ":11473,"ĠĠĠer4Ġ":11474,"ĠĠĠjian3Ġli4Ġ":11475,"zhan4Ġyou3Ġ":11476,"jie1Ġshi4Ġ":11477,"cheng1Ġshi4Ġ":11478,"gu3Ġxi1Ġla4":11479,"geng4Ġshi4Ġ":11480,"35Ġnian2Ġ":11481,"yi4Ġming2Ġ":11482,"wu4Ġpin3Ġ":11483,"duo1Ġzhong3":11484,"Ġyou2Ġtai4Ġ":11485,"hai3Ġnan2Ġ":11486,"sheng3Ġzhang3Ġ":11487,"huang2Ġjin1Ġ":11488,"Ġxi4Ġbao1Ġ":11489,"Ġxian4Ġshi2Ġyou2Ġ":11490,"ĠĠĠjin3Ġguan3Ġ":11491,"Ġlie4Ġche1Ġ":11492,"hai3ĠdeĠ":11493,"tu1Ġji1Ġ":11494,"Ġji2Ġgong1Ġ":11495,"Ġyi3Ġbu4Ġ":11496,"qu1Ġnei4Ġ":11497,"qian2Ġting3":11498,"zhi2Ġbang4":11499,"Ġjing1Ġchang2Ġ":11500,"chuang4Ġzao4":11501,"ĠSAO":11502,"qi1Ġzhi4Ġ":11503,"jun4ĠdeĠ":11504,"Ġdao4Ġda2":11505,"Ġde2Ġdao4":11506,"Ġzhe4Ġzuo4Ġ":11507,"ni2Ġsu1Ġ":11508,"mei3Ġxiao3Ġshi2Ġ":11509,"zhou1Ġbian1":11510,"Ġjian4Ġzhu4Ġwu4Ġ":11511,"mao2Ġdun4Ġ":11512,"ĠĠĠ2022Ġnian2Ġ":11513,"xin1Ġjian4Ġ":11514,"wan4Ġli4Ġ":11515,"zao4Ġxing2Ġ":11516,"22Ġnian2Ġ":11517,"Ġde2Ġjun1Ġ":11518,"shou1Ġfei4Ġ":11519,"Ġzhe4Ġshi2Ġ":11520,"wang4Ġyuan3Ġjing4Ġ":11521,"Ġcao2Ġ":11522,"deng3Ġyu2Ġ":11523,"ceng2Ġbei4Ġ":11524,"xu4ĠdeĠ":11525,"Ġda4Ġban3Ġ":11526,"Ġchu1Ġchang3Ġ":11527,"shen1Ġti3":11528,"long2Ġsheng3Ġ":11529,"xiu1Ġding4Ġ":11530,"ĠĠĠjing1Ġli4Ġ":11531,"liu4Ġming2Ġ":11532,"Ġdi4Ġyi1Ġwei4Ġ":11533,"Ġji2Ġhui4Ġ":11534,"Ġji2Ġqi2Ġta1Ġ":11535,"ju3Ġzhen4Ġ":11536,"zhong1Ġguo2Ġda4Ġlu4Ġ":11537,"chong1Ġman3Ġ":11538,"1Ġming2Ġ":11539,"pu1Ġ":11540,"seng1Ġ":11541,"Ġguo2Ġyou3Ġ":11542,"Ġchu1Ġxi2":11543,"lian2Ġluo4":11544,"Ġsheng1Ġtai4Ġ":11545,"nuo4Ġfu1Ġ":11546,"Ġguan1Ġzhuang4Ġbing4Ġdu2":11547,"Ġze2Ġshi4Ġ":11548,"Ġ2001":11549,"Ġpu2Ġtao2Ġya2":11550,"Ġren2Ġzhi4Ġ":11551,"Ġcheng2Ġyi1Ġ":11552,"yong4Ġhu4":11553,"xi4Ġjie2Ġ":11554,"Ġdui4Ġxiang4Ġ":11555,"shou4Ġhuan1Ġying2Ġ":11556,"mei3Ġtian1Ġ":11557,"cai2Ġpan4Ġ":11558,"shi3Ġyong4Ġzhe3Ġ":11559,"jiang3Ġjin1Ġ":11560,"can1Ġyi4Ġyuan4Ġ":11561,"Ġli4Ġfa3Ġhui4Ġ":11562,"Ġxiang1Ġdang1Ġyu2Ġ":11563,"5Ġgong1Ġli3Ġ":11564,"Ġa":11565,"Ġwei3":11566,"Ġxi4Ġtong3Ġ":11567,"Ġmi2Ġ":11568,"ĠĠĠping2Ġ":11569,"ĠĠĠlin2Ġ":11570,"xing2ĠdeĠ":11571,"ya4Ġhe2Ġ":11572,"na4Ġer3Ġ":11573,"chong2Ġjian4":11574,"fa4Ġ":11575,"Ġzai4Ġfa3Ġguo2Ġ":11576,"jiao1Ġgei3Ġ":11577,"guo4Ġyi1Ġ":11578,"15Ġnian2Ġ":11579,"Ġshi2Ġren4":11580,"Ġshi2Ġsan1Ġ":11581,"yan2Ġfa1Ġ":11582,"zhi3Ġshu4Ġ":11583,"Ġren4Ġming4Ġ":11584,"gui1Ġding4":11585,"biao3Ġxian4Ġchu1Ġ":11586,"Ġji2Ġxing2Ġzheng4Ġdan1Ġwei4Ġ":11587,"Ġao4Ġda4Ġli4Ġya4Ġ":11588,"Ġsong1Ġ":11589,"fang1Ġxing2Ġ":11590,"zhuang1Ġwei4Ġ":11591,"lun2ĠdeĠ":11592,"Ġer2Ġhou4Ġ":11593,"zhu3Ġdong4Ġ":11594,"jiao4Ġgao1Ġ":11595,"bi4Ġyao4Ġ":11596,"pai2Ġlie4Ġ":11597,"tuo1Ġli2Ġ":11598,"Ġyin2Ġwei3Ġ":11599,"0Ġzuo4Ġbiao1Ġwei4Ġ":11600,"ze2Ġbei4Ġ":11601,"ziĠshi4Ġ":11602,"60Ġ":11603,"wei2Ġyi1ĠdeĠ":11604,"Ġdan4Ġshi4Ġzai4Ġ":11605,"Ġqi2ĠB1900":11606,"Ġdan4Ġzui4Ġzhong1Ġ":11607,"xun4Ġsu4":11608,"ren2Ġmin2Ġzheng4Ġfu3Ġ":11609,"Ġhu2Ġbei3Ġ":11610,"Ġwei4Ġyu2Ġyin2Ġjing1Ġ":11611,"0Ġzuo4Ġbiao1Ġwei4Ġchi4Ġjing1Ġ":11612,"ĠĠĠsan1Ġ":11613,"ĠĠĠ11Ġyue4Ġ":11614,"xiang4Ġyu2Ġ":11615,"lian2Ġjun1Ġ":11616,"la1Ġwei2Ġ":11617,"fei1Ġdan4Ġ":11618,"sheng4Ġdan4Ġ":11619,"28Ġ":11620,"Ġzhong1Ġhua2":11621,"ji1Ġdu1Ġ":11622,"Ġxing2Ġtai4Ġ":11623,"tu3Ġrang3":11624,"Ġjian4Ġzhu4Ġmian4Ġji1Ġ":11625,"kong4Ġzhi4ĠdeĠ":11626,"gong4Ġhe2Ġdang3Ġ":11627,"Ġãĥ³":11628,"Ġwu1Ġke4Ġlan2":11629,"ĠĠĠfen1Ġbu4Ġ":11630,"ming2Ġhe2Ġ":11631,"hua4Ġyu3Ġ":11632,"suo3Ġyi3Ġ":11633,"jiao1Ġzhan4Ġ":11634,"bo2Ġer3Ġ":11635,"man4ĠdeĠ":11636,"ba3Ġta1Ġ":11637,"atĠĠĠ":11638,"1922Ġnian2Ġ":11639,"Ġsi1Ġzhi2Ġ":11640,"guan1Ġxi4ĠdeĠ":11641,"xiao1Ġfang2Ġ":11642,"geng4Ġda4ĠdeĠ":11643,"xuan1Ġcheng1Ġ":11644,"Ġqing1Ġchao2Ġzheng4Ġzhi4Ġren2Ġwu4Ġ":11645,"jiang1Ġjun1":11646,"11Ġnian2Ġ":11647,"zhen1Ġren2Ġ":11648,"si3ĠleĠ":11649,"Ġyu2Ġ2019":11650,"you2Ġxi4ĠdeĠ":11651,"xiao4Ġlv4Ġ":11652,"Ġzi1Ġ":11653,"ĠĠĠxiao3Ġ":11654,"sha1Ġren2Ġ":11655,"esĠĠĠ":11656,"1919Ġnian2Ġ":11657,"1911Ġnian2Ġ":11658,"zhong1Ġhua2Ġmin2Ġguo2Ġ":11659,"Ġji2Ġti3Ġ":11660,"bei4Ġer3Ġ":11661,"Ġmu3Ġqin1":11662,"ĠĠĠche1Ġzhan4Ġgou4Ġzao4Ġ":11663,"luo4Ġfa2Ġke4Ġ":11664,"Ġhui1Ġ":11665,"ĠĠĠchu2Ġ":11666,"bian1Ġzhi4Ġ":11667,"lun4Ġshi4Ġ":11668,"xie3Ġwei4Ġ":11669,"da1Ġzai4Ġ":11670,"Ġshi2Ġba1Ġ":11671,"Ġda4Ġjie1Ġ":11672,"jin1Ġshu3":11673,"Ġju4Ġqing2Ġ":11674,"ou1Ġmeng2Ġ":11675,"jie3Ġfang4Ġjun1":11676,"Ġzheng3Ġge4Ġ":11677,"ĠĠĠ0":11678,"ĠĠĠU":11679,"dao3Ġhe2Ġ":11680,"16Ġnian2Ġ":11681,"kang4Ġzhan4Ġ":11682,"ĠdeĠgao1Ġ":11683,"Ġji2Ġcheng2Ġ":11684,"ji1Ġche1Ġ":11685,"yi2Ġban4Ġ":11686,"tuan2Ġjie2Ġ":11687,"shou1Ġgou4":11688,"huo3Ġche1Ġ":11689,"ĠTĠ":11690,"ai4Ġer3Ġlan2":11691,"1Ġhao4Ġ":11692,"Ġkai1Ġshi3":11693,"Ġgong4Ġtong2Ġ":11694,"ĠĠĠSt":11695,"zhu3Ġquan2Ġ":11696,"Ġqiu2Ġdui4":11697,"Ġda4Ġbu4Ġfen4Ġ":11698,"Ġp":11699,"Ġlong2":11700,"nang2Ġ":11701,"Ġhe2Ġyuan2Ġ":11702,"zhi3Ġding4":11703,"jin3Ġzhang1Ġ":11704,"zhen1Ġzheng4ĠdeĠ":11705,"ĠJĠ":11706,"shun4Ġshi2Ġzhen1Ġyu3Ġ":11707,"Ġ160":11708,"Ġbin1Ġ":11709,"ming2Ġyu2Ġ":11710,"zhi2Ġxing2":11711,"ba1Ġsi1Ġ":11712,"can1Ġjian4Ġ":11713,"kan4Ġfa3Ġ":11714,"wen1Ġdai4Ġ":11715,"hun1Ġyin1":11716,"tie1Ġmu4":11717,"ĠdeĠxing2Ġ":11718,"Ġyi1Ġshi2Ġ":11719,"Ġyi3Ġdong1Ġ":11720,"Ġxian4Ġzhang3Ġ":11721,"zi4Ġwo3Ġ":11722,"wu4Ġti3Ġ":11723,"feng1Ġge2ĠdeĠ":11724,"ti2Ġqian2Ġ":11725,"zu2Ġqun2Ġ":11726,"xu3Ġke3Ġ":11727,"Ġyin3Ġfa1Ġ":11728,"lian2Ġmeng2ĠdeĠ":11729,"ĠĠĠ2009Ġnian2Ġ":11730,"nei4Ġsi1Ġ":11731,"ze2Ġyou2Ġ":11732,"Ġshi4Ġtai2Ġwan1Ġ":11733,"Ġda4Ġdui4Ġ":11734,"zhu3Ġda3Ġ":11735,"fang1Ġan4":11736,"Ġxiang1Ġguan1ĠdeĠ":11737,"pu3Ġla1Ġ":11738,"ĠĠĠgu3Ġ":11739,"ĠĠĠguo2Ġji4Ġ":11740,"lai2Ġshi4Ġ":11741,"zhen4Ġji2Ġxing2Ġzheng4Ġdan1Ġwei4Ġ":11742,"Ġbu4Ġcheng2Ġ":11743,"fang1Ġbian4Ġ":11744,"suo3Ġxu1":11745,"Ġyou2Ġzheng4Ġ":11746,"Ġzi4Ġran2":11747,"Ġzu3Ġzhi1Ġ":11748,"Ġtai4Ġguo2Ġ":11749,"ĠĠĠer2Ġ":11750,"ĠĠĠta1ĠdeĠ":11751,"lin2Ġjin4Ġ":11752,"wo3ĠdeĠ":11753,"Ġzhong1Ġyi1Ġ":11754,"Ġzhi4Ġyuan2Ġ":11755,"sheng1Ġge2Ġwei4Ġ":11756,"Ġjian4Ġkang1":11757,"Ġquan2Ġxian4Ġ":11758,"zui4Ġzhong4Ġyao4ĠdeĠ":11759,"Ġzhe4Ġyang4":11760,"tu2Ġan4Ġ":11761,"Ġwei1Ġer3Ġ":11762,"Ġni2":11763,"Ġ64":11764,"Ġxian3Ġshi4Ġ":11765,"ĠĠĠre":11766,"duo1Ġer3Ġ":11767,"qu4ĠleĠ":11768,"Ġshi4Ġlang2Ġ":11769,"Ġzai4Ġqian2Ġ":11770,"Ġzhong1Ġjiang4Ġ":11771,"Ġji2Ġbie2Ġ":11772,"Ġer2Ġtong2":11773,"Ġshang4Ġying4Ġ":11774,"tong2Ġyang4Ġ":11775,"can1Ġguan1Ġ":11776,"chong2Ġfan3Ġ":11777,"Ġren2Ġkou3Ġwei4Ġ":11778,"jing3Ġwei4Ġ":11779,"xian1Ġwei2Ġ":11780,"dong3Ġ":11781,"Ġyi1Ġliao2":11782,"guan1Ġkan4Ġ":11783,"Ġyin1Ġer2":11784,"jue2Ġse4ĠdeĠ":11785,"ding4Ġyi4Ġwei4Ġ":11786,"YĠ":11787,"Ġh":11788,"Ġá":11789,"an4Ġli4Ġ":11790,"ĠĠĠ5Ġ":11791,"sheng4ĠdeĠ":11792,"jia4ĠdeĠ":11793,"1926Ġnian2Ġ":11794,"yi4Ġhui4Ġ":11795,"Ġzhou1Ġzhang3Ġ":11796,"jian3Ġcha2":11797,"shen3Ġpan4Ġ":11798,"hun4Ġning2Ġ":11799,"Ġ58":11800,"shen1Ġyu2Ġ":11801,"Ġge4Ġguo2Ġjia1Ġ":11802,"Ġyu3Ġxi1Ġ":11803,"jian1Ġchi2Ġ":11804,"dan1Ġdu2Ġ":11805,"wang3Ġwang3":11806,"Ġxi4Ġlie4":11807,"cai3Ġyong4ĠleĠ":11808,"ĠFĠ":11809,"Ġguang3Ġxi1Ġ":11810,"ĠĠĠwang2Ġ":11811,"shi1Ġji2Ġ":11812,"lun4ĠdeĠ":11813,"xun4Ġxi1Ġ":11814,"Ġzhong1Ġduan4Ġ":11815,"Ġyu2Ġ2016":11816,"Ġda4Ġchen2":11817,"zhong3Ġlei4Ġ":11818,"cun1Ġmin2Ġ":11819,"qun2Ġdao3ĠdeĠ":11820,"e4Ġhua4Ġ":11821,"Ġ17Ġ":11822,"Ġzheng4Ġfu3ĠdeĠ":11823,"2Ġli4Ġ":11824,"Ġshu4":11825,"ĠĠĠluo2Ġ":11826,"xing4Ġming2Ġ":11827,"shou4Ġdao4ĠleĠ":11828,"Ġyu3Ġwen2Ġ":11829,"jiao4Ġlian4":11830,"zhu4Ġshou3Ġ":11831,"tian1Ġwen2Ġxue2Ġ":11832,"Ġyou2Ġqi2Ġ":11833,"Ġzhi2Ġjie1Ġ":11834,"Ġzhan4Ġhou4Ġ":11835,"Ġdu2Ġli4Ġ":11836,"ĠĠĠzuo4Ġwei2Ġ":11837,"ba1Ġji1Ġsi1Ġ":11838,"xian1ĠdeĠ":11839,"1918Ġnian2Ġ":11840,"ESTĠ":11841,"Ġshi4Ġcheng2Ġ":11842,"Ġshi4Ġchu1Ġ":11843,"Ġyou3Ġming2Ġ":11844,"Ġdao4Ġshi2Ġ":11845,"Ġyi3Ġci3Ġ":11846,"jian1Ġcha2":11847,"Ġzhou1Ġfu4Ġze2Ġguan3Ġxia2Ġ":11848,"wai4Ġlang2Ġ":11849,"mian4Ġxiang4Ġ":11850,"jia4Ġgou4Ġ":11851,"jiang3Ġpai2Ġ":11852,"Ġai4Ġer3Ġ":11853,"tiao2Ġyue1Ġti3Ġxi4Ġ":11854,"3Ġming2Ġ":11855,"Ġ47":11856,"Ġbiao1Ġ":11857,"asĠĠĠ":11858,"weng1Ġ":11859,"Ġzhong1Ġshan1":11860,"Ġping2Ġcheng2Ġ":11861,"Ġdi1Ġ":11862,"Ġ1988Ġnian2Ġ":11863,"ji4Ġbu4Ġ":11864,"dui4Ġdi4Ġ":11865,"wu4Ġbu4Ġ":11866,"suo3Ġshi4Ġ":11867,"ji1Ġhui4Ġ":11868,"hou4Ġqi1Ġ":11869,"zhu3Ġban4Ġ":11870,"fu4Ġmu3Ġ":11871,"jing1Ġyan4":11872,"gen1Ġsui2Ġ":11873,"Ġ1985Ġnian2Ġ":11874,"an1Ġxian4Ġ":11875,"ĠĠĠquan2Ġ":11876,"suan1Ġjian3Ġ":11877,"1914Ġnian2Ġ":11878,"Ġji1Ġfen1Ġ":11879,"xuan3Ġmin2Ġ":11880,"ke1Ġhui4Ġshi4Ġdi4Ġ":11881,"ge1Ġshou3":11882,"er4Ġshi2Ġnian2Ġ":11883,"su4Ġdu4":11884,"se4Ġcai3Ġ":11885,"cheng1Ġhu1Ġ":11886,"ĠdeĠshi2Ġjian1":11887,"pei2Ġxun4":11888,"Ġguo2Ġfang2Ġbu4Ġ":11889,"Ġ48":11890,"ĠĠĠ2007Ġnian2Ġ":11891,"Ġren2Ġquan2Ġ":11892,"Ġchu1Ġyu2Ġ":11893,"qian2Ġshen1Ġ":11894,"ci4Ġshu4Ġ":11895,"Ġlai2Ġzi4":11896,"Ġzhi2Ġxing2Ġ":11897,"nan2Ġji2Ġtiao2Ġyue1Ġti3Ġxi4Ġ":11898,"Ġmao2":11899,"Ġ600":11900,"tang2Ġhe2Ġ":11901,"ting1Ġdao4Ġ":11902,"tu1Ġran2":11903,"can2Ġji2Ġren2Ġ":11904,"Ġshi4Ġpin2Ġ":11905,"Ġbu4Ġlu3Ġ":11906,"Ġgong1Ġda3Ġ":11907,"zi4Ġsha1Ġ":11908,"xiang3Ġyao4Ġ":11909,"pin3Ġzhong3Ġ":11910,"ji3Ġnei4Ġ":11911,"Ġgai1Ġcun1Ġshi3Ġjian4Ġyu2Ġ":11912,"Ġfan4":11913,"Ġzu3Ġcheng2Ġ":11914,"yu2Ġwei4Ġ":11915,"zheng4Ġyi4Ġ":11916,"yin2Ġhe2Ġ":11917,"Ġzai4Ġnei4Ġ":11918,"wei2Ġye3Ġ":11919,"duo1Ġshu4":11920,"bian1Ġzu3Ġ":11921,"re4Ġdai4":11922,"Ġan1Ġhui1Ġ":11923,"Ġxing2Ġcheng2ĠleĠ":11924,"Ġjing4Ġnei4Ġ":11925,"qi2Ġzhong1Ġyi2Ġge4Ġ":11926,"xia4Ġxia2ĠdeĠyi2Ġge4Ġxiang1Ġzhen4Ġji2Ġxing2Ġzheng4Ġdan1Ġwei4Ġ":11927,"Ġzhui1Ġ":11928,"zhan4Ġwei4Ġyu2Ġ":11929,"zhu4Ġyou3Ġ":11930,"ma3Ġshi4Ġ":11931,"zhen4Ġdi4Ġ":11932,"Ġshi2Ġyou3Ġ":11933,"wei2Ġchi2":11934,"dian4Ġchi2Ġ":11935,"Ġrong2":11936,"ĠĠĠjin4":11937,"mei2Ġtong2Ġpai2Ġ":11938,"xiang3Ġyou3Ġ":11939,"ta3Ġji1Ġ":11940,"gong1Ġmin2Ġ":11941,"Ġcheng2Ġgong1ĠdeĠ":11942,"Ġsi1Ġdun4Ġ":11943,"Ġji1Ġben3":11944,"Ġjia1Ġli3Ġ":11945,"Ġke4Ġyu3Ġ":11946,"Ġde2Ġluo2Ġ":11947,"fu2Ġzhuang1Ġ":11948,"zhen4Ġya1Ġ":11949,"su4Ġsong4Ġ":11950,"qing2Ġgan3Ġ":11951,"pian4Ġduan4Ġ":11952,"shou1Ġcang2Ġ":11953,"pi1Ġpan4Ġ":11954,"Ġsi1Ġling4Ġyuan2Ġ":11955,"8Ġge4Ġ":11956,"Ġ1945":11957,"ĠLe":11958,"Ġguan3Ġli3Ġ":11959,"liang3Ġzuo4Ġ":11960,"nong2Ġli4Ġ":11961,"mai2Ġ":11962,"Ġzai4Ġna4Ġ":11963,"Ġyi4Ġxi2Ġ":11964,"Ġri4Ġyi3Ġ":11965,"Ġjian4Ġdao4Ġ":11966,"Ġhou4Ġzhe3":11967,"Ġke4Ġzai4Ġ":11968,"hua4Ġgui1Ġ":11969,"jiao4Ġda4ĠdeĠ":11970,"wen2Ġzhang1":11971,"Ġwei2Ġwu2Ġer3Ġ":11972,"jiang1Ġnan2Ġ":11973,"Ġzuo4Ġzhe3Ġ":11974,"bo1Ġte4Ġ":11975,"Ġjie2Ġhun1Ġ":11976,"ĠĠĠMe":11977,"Ġshi2Ġti3Ġ":11978,"Ġyue4Ġyu3Ġ":11979,"qi3Ġyuan2Ġyu2Ġ":11980,"rong2Ġliang4Ġ":11981,"ĠĠĠsui1Ġran2":11982,"yong4Ġzai4Ġ":11983,"te4Ġshi4Ġ":11984,"you4Ġyi4Ġ":11985,"fang2Ġxian4Ġ":11986,"17Ġnian2Ġ":11987,"50Ġnian2Ġ":11988,"1990Ġnian2Ġdai4Ġ":11989,"kuang1Ġjia4Ġ":11990,"Ġyi1Ġlai4":11991,"Ġxi1Ġte4Ġ":11992,"Ġbing4Ġbu2Ġshi4Ġ":11993,"qing1Ġxiang4Ġ":11994,"Ġxia4Ġlai2Ġ":11995,"mo4Ġqi1Ġ":11996,"kao3Ġcha2Ġ":11997,"Ġnian2Ġ4Ġyue4Ġ1Ġri4Ġ":11998,"yin4Ġni2":11999,"xiao3Ġxing2Ġxing1ĠdeĠ":12000,"nan2Ġji2Ġtiao2Ġyue1Ġti3Ġxi4Ġguan3Ġli3Ġ":12001,"Ġcao2":12002,"Ġtan2Ġ":12003,"Ġjie1Ġwei4Ġ":12004,"ĠĠĠhuo4Ġ":12005,"ĠĠĠzhi2Ġye4Ġsheng1Ġya2Ġ":12006,"wei2Ġgong1Ġ":12007,"ci2Ġji1Ġ":12008,"28Ġnian2Ġ":12009,"1950Ġnian2Ġ":12010,"bi2Ġ":12011,"1913Ġnian2Ġ":12012,"Ġzai4Ġcheng2Ġ":12013,"Ġda4Ġqi4Ġ":12014,"hui4Ġshang4Ġ":12015,"fa3Ġlan2Ġxi1Ġ":12016,"fen1Ġli2":12017,"Ġlian2Ġbang1":12018,"shao4Ġnv3":12019,"tian1Ġwen2Ġtai2Ġ":12020,"sheng3Ġfu4Ġze2Ġguan3Ġxia2Ġ":12021,"luo4Ġyi1Ġ":12022,"hu4Ġwei4Ġ":12023,"meĠĠĠ":12024,"lei3Ġji1Ġ":12025,"gen3Ġdi4Ġ":12026,"wei2Ġchi2Ġ":12027,"qian2Ġlai2Ġ":12028,"shang1Ġhai4Ġ":12029,"yi2Ġge4Ġyue4Ġ":12030,"dang1Ġxuan3Ġwei4Ġ":12031,"Ġjie1Ġshou4Ġ":12032,"Ġti3Ġyu4Ġ":12033,"Ġji2Ġbei3Ġmei3Ġ":12034,"Ġ1984Ġnian2Ġ":12035,"ri4Ġjun1Ġ":12036,"bian1Ġxing2Ġ":12037,"mie4Ġjue2Ġ":12038,"shan3Ġ":12039,"ĠdeĠzhi1Ġchi2Ġ":12040,"Ġshi4Ġzhi4Ġ":12041,"Ġcheng2Ġfen4Ġ":12042,"Ġzhi1Ġli3Ġ":12043,"Ġyuan2Ġyin1Ġshi4Ġ":12044,"xi1Ġwang4":12045,"Ġdan4Ġye3Ġ":12046,"Ġfu4Ġzhu3Ġxi2Ġ":12047,"fa1Ġbu4ĠleĠ":12048,"wei2Ġyi1Ġyi1Ġ":12049,"Ġi":12050,"Ġyan2Ġjiu1":12051,"ai4Ġhao4Ġ":12052,"ĠĠĠjie2Ġ":12053,"ĠĠĠwai4Ġbu4Ġ":12054,"leĠzhong1Ġguo2Ġ":12055,"zui4Ġyou3Ġ":12056,"jian3Ġyi4Ġ":12057,"sa4Ġke4Ġsi1Ġ":12058,"pen2Ġdi4Ġ":12059,"ping1Ġ":12060,"Ġge4Ġlei4Ġ":12061,"jiao4Ġzong1Ġ":12062,"Ġzheng4Ġce4":12063,"zhong4Ġliang4Ġ":12064,"yan3Ġhua4Ġ":12065,"tong2Ġmeng2":12066,"Ġshi4Ġjie4Ġbei1":12067,"Ġdian4ĠziĠ":12068,"Ġdong4Ġhua4Ġ":12069,"fei1Ġer3Ġde2Ġ":12070,"umĠ":12071,"Ġwei4Ġji2Ġ":12072,"Ġxi1Ġzang4Ġ":12073,"xia4Ġling4Ġ":12074,"fa3Ġxue2Ġ":12075,"sha1Ġbai2Ġ":12076,"jiu3Ġlong2":12077,"Ġnian2Ġdai4ĠdeĠ":12078,"ĠIn":12079,"Ġ800":12080,"Ġchao1Ġguo4Ġ":12081,"yu3Ġdi4Ġ":12082,"xi1Ġyu2Ġ":12083,"jian4Ġshe4":12084,"ĠdeĠqing2Ġkuang4Ġxia4Ġ":12085,"Ġcheng2Ġjiu4Ġ":12086,"Ġyi1Ġshi1Ġ":12087,"shou4Ġsun3Ġ":12088,"ting2Ġzhi3":12089,"jie3Ġsan4":12090,"Ġren2Ġmin2Ġzheng4Ġfu3":12091,"chi3Ġcun4":12092,"ĠĠĠzhong1Ġhua2Ġren2Ġmin2Ġgong4Ġhe2Ġguo2Ġ":12093,"Ġhua2Ġsheng4Ġ":12094,"can1Ġsai4Ġzi1Ġge2Ġ":12095,"shan1Ġmai4ĠdeĠyi1Ġbu4Ġfen4Ġ":12096,"Ġtai2":12097,"Ġlei3Ġji4Ġ":12098,"si4Ġwei4Ġ":12099,"shui3Ġdao4Ġ":12100,"sui2Ġji1Ġ":12101,"ren2Ġkou3Ġwei4Ġ":12102,"ji4Ġhua4":12103,"Ġyuan2Ġli3Ġ":12104,"Ġxian4Ġxing4Ġ":12105,"qu1Ġbie2Ġ":12106,"tong1Ġyong4Ġ":12107,"Ġzhu3Ġzhang1Ġ":12108,"tiao2Ġjie2Ġ":12109,"zheng4Ġzhi4Ġjia1Ġ":12110,"lei2Ġda2Ġ":12111,"re4Ġdai4Ġqi4Ġxuan2Ġ":12112,"Ġge4Ġyue4Ġhou4Ġ":12113,"wĠ":12114,"Ġ65":12115,"Ġbang1Ġzhu4Ġ":12116,"Ġ1991Ġnian2Ġ":12117,"hui4Ġwei4Ġ":12118,"hai3Ġshi4Ġ":12119,"mo4Ġnian2Ġ":12120,"xin4Ġren4Ġ":12121,"Ġzai4Ġshang4Ġ":12122,"Ġguo2Ġan1Ġ":12123,"Ġzhou1Ġkan1Ġ":12124,"tou2Ġxiang2":12125,"Ġtian1Ġwen2Ġ":12126,"ĠdeĠgong1Ġneng2Ġ":12127,"ĠsĠ":12128,"ĠĠĠ9":12129,"ĠĠĠe":12130,"jue2Ġwei4Ġ":12131,"1960Ġnian2Ġdai4Ġ":12132,"Ġyi1Ġran2":12133,"hai3Ġba2Ġgao1Ġdu4Ġ":12134,"jian3Ġce4Ġ":12135,"tang2Ġqu1Ġ":12136,"yin1Ġci3Ġ":12137,"Ġtong2Ġxing4Ġ":12138,"hui2Ġda2Ġ":12139,"ĠdeĠji4Ġshu4Ġ":12140,"wen3Ġding4ĠdeĠ":12141,"¡Ġ":12142,"Ġwa3":12143,"Ġju1Ġ":12144,"jie2Ġchu1Ġ":12145,"bing1ĠdeĠ":12146,"luan3Ġ":12147,"Ġhe2Ġyi4Ġ":12148,"Ġdi4Ġchan3Ġ":12149,"Ġyu2Ġ2024":12150,"Ġta1Ġyou3Ġ":12151,"guan1Ġlian2Ġ":12152,"qian2Ġfeng1Ġ":12153,"suo3Ġwei4ĠdeĠ":12154,"bao3Ġxian3Ġ":12155,"Ġhuo4Ġcheng1Ġ":12156,"du1Ġcha2Ġ":12157,"Ġjian3Ġcheng1":12158,"ĠLa":12159,"Ġ1989Ġnian2Ġ":12160,"ĠĠĠ2006Ġnian2Ġ":12161,"ceng2Ġren4Ġ":12162,"Ġli4Ġao4Ġ":12163,"Ġdui4Ġfang1Ġ":12164,"Ġquan2Ġshi4Ġ":12165,"ci2Ġdian3Ġ":12166,"dian4Ġshi4Ġjie2Ġmu4Ġ":12167,"fa1Ġbiao3ĠdeĠ":12168,"ya4Ġmei3Ġni2Ġya4Ġ":12169,"hu4Ġlian2Ġwang3Ġ":12170,"Ġsang1":12171,"nan2Ġshi4Ġ":12172,"xiang4Ġwei4Ġ":12173,"zeng1Ġshe4Ġ":12174,"tui1Ġli3Ġ":12175,"24Ġnian2Ġ":12176,"Ġzheng4Ġchang2Ġ":12177,"pu3Ġlu3Ġshi4Ġ":12178,"tui1Ġchu1ĠleĠ":12179,"xiu1Ġdao4Ġyuan4Ġ":12180,"Ġyin3":12181,"Ġkang1":12182,"Ġsheng3Ġ":12183,"Ġ1990Ġnian2Ġ":12184,"ĠĠĠzhang1Ġ":12185,"yu3Ġyi4Ġ":12186,"bei3Ġji2Ġ":12187,"ke1Ġli4Ġ":12188,"gai3Ġjin4Ġ":12189,"Ġyu2Ġ2018":12190,"Ġyu3Ġqi2":12191,"dao3Ġshi1Ġ":12192,"ĠdeĠshi4Ġjie4":12193,"Ġci3Ġci4Ġ":12194,"ĠHĠ":12195,"Ġqiao2Ġzhi4Ġ":12196,"ĠĠĠmin2Ġguo2Ġ":12197,"lu4Ġshi4Ġ":12198,"ceng2Ġyou3Ġ":12199,"qu3Ġzi4Ġ":12200,"hun1Ġli3Ġ":12201,"Ġcheng2Ġzuo4Ġ":12202,"su1Ġge2Ġlan2":12203,"Ġzao3Ġ":12204,"ĠĠĠyin1Ġyue4Ġ":12205,"dui4Ġzhong1Ġ":12206,"Ġhe2Ġzhi4Ġ":12207,"Ġta1Ġbu4Ġ":12208,"Ġxing2Ġchai2":12209,"Ġxing2Ġshi4ĠdeĠ":12210,"zheng4Ġce4":12211,"dai4Ġma3Ġ":12212,"ĠleĠyi2Ġge4Ġ":12213,"Ġxiang1Ġguan1":12214,"Ġxing2Ġzheng4Ġyuan4Ġ":12215,"Ġyou4Ġyi4Ġ":12216,"Ġchi2Ġ":12217,"ĠĠĠche1Ġzhan4":12218,"mei3ĠdeĠ":12219,"liu2Ġqiu2Ġ":12220,"chuan2ĠdeĠ":12221,"luo4Ġyu2Ġ":12222,"ting2Ġzhan4Ġ":12223,"na2Ġda4":12224,"37Ġnian2Ġ":12225,"Ġcheng2Ġdu1Ġ":12226,"ji1Ġbai4Ġ":12227,"Ġyu3Ġzhi1Ġ":12228,"Ġdai4Ġma3Ġwei4Ġ":12229,"liang2Ġhao3Ġ":12230,"li4Ġshi3Ġshang4Ġ":12231,"Ġxian4Ġshi2Ġyou2Ġnan2Ġji2Ġtiao2Ġyue1Ġti3Ġxi4Ġguan3Ġli3Ġ":12232,"Ġshu1":12233,"ĠĠĠsha1Ġ":12234,"bai2Ġren2Ġ":12235,"ding3Ġji2Ġ":12236,"zu1Ġjie4":12237,"Ġdi4Ġyu4Ġ":12238,"Ġzhi4Ġdu4":12239,"Ġchu1Ġlai2ĠdeĠ":12240,"te4Ġshu1":12241,"Ġduo1Ġci4Ġ":12242,"chong2Ġqing4Ġ":12243,"Ġe":12244,"Ġxue2":12245,"ĠĠĠwu3Ġ":12246,"jie2Ġshi2Ġ":12247,"ĠdeĠyou3Ġ":12248,"Ġyu2Ġ2015":12249,"Ġgong1Ġchang3":12250,"lu4Ġying3Ġdai4Ġ":12251,"liu2Ġdong4Ġ":12252,"Ġben3Ġzhan4Ġ":12253,"Ġben3Ġtu3Ġ":12254,"Ġdeng3Ġdeng3Ġ":12255,"Ġzhuan1":12256,"Ġlao3":12257,"Ġqu3Ġde2Ġ":12258,"ĠUĠ":12259,"pian4Ġren2Ġ":12260,"38Ġnian2Ġ":12261,"1901Ġnian2Ġ":12262,"Ġyu2Ġlei2Ġ":12263,"mian4Ġ2":12264,"liang3Ġan4Ġ":12265,"shen2Ġsheng4Ġ":12266,"Ġzai4Ġdi4Ġyi1Ġ":12267,"guan1Ġfei4Ġyan2Ġque4Ġzhen3Ġbing4Ġli4Ġ":12268,"bei3ĠdeĠ":12269,"bao3Ġhe2Ġ":12270,"jiao1Ġyou2Ġ":12271,"man4Ġdi4Ġguo2Ġ":12272,"zheng3Ġli3Ġ":12273,"Ġyu2Ġ2020":12274,"Ġren2Ġli4Ġ":12275,"da4Ġxing2Ġ":12276,"Ġyou3Ġguan1ĠdeĠ":12277,"Ġgong1Ġan1Ġ":12278,"yi3Ġjing1":12279,"fang2Ġwu1":12280,"Ġzhi2Ġli4Ġ":12281,"pei2Ġyang3":12282,"ĠĠĠzhe4Ġke1Ġ":12283,"Ġyi4Ġnian2Ġ":12284,"ri4Ġzhi4Ġ":12285,"tong2Ġwei4Ġ":12286,"hui2Ġdao4":12287,"veĠ":12288,"manĠ":12289,"Ġdi4Ġshang4Ġ":12290,"Ġdi4Ġjiu3Ġ":12291,"ji4Ġshu4":12292,"Ġyi1Ġran2Ġ":12293,"nei4Ġge2":12294,"ti2Ġgao1":12295,"Ġyou2Ġqi2":12296,"ĠÙ":12297,"min2Ġyi4Ġ":12298,"you4Ġzai4Ġ":12299,"zhui1Ġqiu2Ġ":12300,"ĠdeĠyou2Ġ":12301,"ĠdeĠzui4Ġ":12302,"ĠdeĠxing2Ġshi4Ġ":12303,"Ġshi4Ġchang3":12304,"ren2Ġyuan2Ġ":12305,"Ġyu2Ġ2013":12306,"Ġguo2Ġdao4Ġ":12307,"hua4Ġmian4Ġ":12308,"dan1Ġmai4Ġ":12309,"chuan2Ġshuo1":12310,"Ġnan2Ġxing4Ġ":12311,"jiu4Ġzhi3Ġ":12312,"jing3Ġqu1Ġ":12313,"jing3Ġdian3Ġ":12314,"tiao2Ġkuan3Ġ":12315,"ĠdeĠji1Ġchu3":12316,"3Ġmi3Ġ":12317,"ye4Ġhe2Ġ":12318,"sheng3Ġhui4Ġ":12319,"tong1Ġxing2Ġ":12320,"le4Ġyuan2Ġ":12321,"Ġshi4Ġxia4Ġxia2ĠdeĠyi2Ġge4Ġxiang1Ġzhen4Ġji2Ġxing2Ġzheng4Ġdan1Ġwei4Ġ":12322,"Ġyi3Ġbian4":12323,"Ġxing2Ġhao4Ġ":12324,"ye4Ġjian1Ġ":12325,"ru4Ġjing4Ġ":12326,"she4Ġying3Ġ":12327,"gui4Ġzu2":12328,"ai4Ġli4Ġ":12329,"ĠĠĠfen1Ġlei4Ġ":12330,"ji2Ġzhong1Ġxue2Ġ":12331,"ze2Ġxi1Ġ":12332,"ba1Ġli3Ġ":12333,"lin2Ġzhong1Ġ":12334,"jiang4Ġji2Ġ":12335,"gong1Ġji1Ġ":12336,"Ġyu2Ġ2012":12337,"Ġji4Ġhua4ĠdeĠ":12338,"fa1Ġjue2Ġ":12339,"Ġqi2Ġxia4ĠdeĠ":12340,"bo2Ġla1Ġ":12341,"Ġ1999":12342,"zong3Ġsi1Ġling4Ġ":12343,"luo4Ġshi2Ġ":12344,"xie1Ġer3Ġ":12345,"ban3Ġquan2Ġ":12346,"Ġzhong1Ġzheng4Ġ":12347,"zhu3Ġdao3Ġ":12348,"nan2Ġbu4ĠdeĠ":12349,"Ġbei4Ġbu3Ġ":12350,"guan1Ġguang1Ġ":12351,"lian2Ġsai4ĠdeĠ":12352,"yi2Ġmian4Ġ":12353,"Ġdan4Ġmei2Ġyou3Ġ":12354,"lun4Ġtan2Ġ":12355,"zhen1Ġcha2Ġ":12356,"Ġsan1Ġyue4Ġ":12357,"tong3Ġzhi4Ġzhe3Ġ":12358,"fan2Ġmang2":12359,"ĠGĠ":12360,"Ġhei1Ġlong2Ġjiang1Ġ":12361,"Ġyou3":12362,"Ġming2Ġwei4Ġ":12363,"Ġyang3Ġ":12364,"ku4Ġer3Ġ":12365,"endĠ":12366,"Ġyi3Ġji2Ġzai4Ġ":12367,"zhu3Ġliu2Ġ":12368,"ti3Ġyan4Ġ":12369,"Ġxia4Ġwu3Ġ":12370,"tong2Ġmeng2Ġ":12371,"Ġsui2Ġji2Ġ":12372,"mei4Ġmei4Ġ":12373,"ĠĠĠdao4":12374,"zuo4Ġzai4Ġ":12375,"ping2Ġren2Ġ":12376,"qian1Ġming2Ġ":12377,"geng4Ġgao1Ġ":12378,"qiu1Ġji4Ġ":12379,"ye2Ġer3Ġ":12380,"dou3Ġ":12381,"Ġshi4Ġxin1Ġ":12382,"Ġchu1Ġnian2Ġ":12383,"Ġqi2Ġzhi4Ġ":12384,"hua4Ġru4Ġ":12385,"yan3Ġzou4Ġ":12386,"li2Ġba1Ġnen4":12387,"mi4Ġsu1Ġli3Ġ":12388,"ĠLĠ":12389,"kang4Ġri4Ġzhan4Ġzheng1Ġ":12390,"Ġhe2Ġdao4Ġquan2Ġzhang3Ġ":12391,"ĠĠĠzheng1Ġyi4Ġ":12392,"te4Ġren2Ġ":12393,"Ġbu4Ġduan4":12394,"Ġyi1Ġci4":12395,"Ġyi1Ġer3Ġ":12396,"Ġdao4Ġji2Ġ":12397,"Ġxi1Ġyin3":12398,"feng1Ġsuo3Ġ":12399,"Ġye3Ġmei2Ġyou3Ġ":12400,"dong1Ġbu4Ġshi2Ġqu1Ġ":12401,"Ġgei3":12402,"Ġhou4Ġyu2Ġ":12403,"ĠĠĠwu2Ġ":12404,"yun4Ġzai4Ġ":12405,"tuo1Ġer3Ġ":12406,"veĠĠĠ":12407,"ĠdeĠhou4Ġ":12408,"gong1Ġye4Ġ":12409,"Ġgong1Ġjiao1Ġ":12410,"Ġcheng2Ġzhang3Ġ":12411,"Ġjun1Ġren2Ġ":12412,"dong1Ġqu1Ġ":12413,"luo4Ġte4Ġ":12414,"Ġma3Ġla1Ġ":12415,"Ġtai4Ġyang2Ġgong1Ġ":12416,"Ġnuo4":12417,"ĠÐ¾":12418,"ke4Ġli3Ġsi1Ġ":12419,
[...]
