#version: 0.2
n g
a n
s h
z h
j i
a ng
Ġ Ġ
o ng
x i
a o
a i
d e
e i
sh i
y u
o u
y i
e n
c h
i an
u o
e ng
l i
ĠĠ Ġ
ã Ģ
i ng
u i
w ei
u an
zh i
q i
n ian
zh ong
y ou
r en
u n
z ai
d i
g uo
ãĢ ģ
h e
b u
e r
g ong
xi ng
ch eng
d a
zh u
h u
yu an
s i
ji an
yu e
g e
f u
xi an
u e
k e
w u
ch u
sh u
sh eng
ji e
ji a
b i
d ao
z i
b ei
h ui
f a
xi ang
t i
zh eng
m i
t a
ji n
q u
2 0
t ong
r i
j u
ji ng
m ing
l e
h ou
sh ang
sh ou
d ong
c i
f ang
1 9
hu a
yi n
x ue
g uan
zh an
y e
yi ng
z uo
zh e
y an
m ei
ji ao
g u
ch ang
xi n
d ui
l u
b ing
b ao
f en
d an
h uo
j un
ji ang
d u
xi ao
d ian
y ong
q ian
sh e
t ai
xi a
m u
w en
g ai
zh ang
li ang
y a
r u
d ai
h ai
n an
zh ou
z u
w ang
l ai
b an
ji u
d ang
q ing
p ing
sh en
ãĢ ĭ
ãĢ Ĭ
w an
l ian
li ng
l uo
Â ·
mi n
q uan
p i
n i
b o
d uo
t e
b en
g ao
bi ao
s uo
l a
m a
k ai
b a
xi e
x u
b ian
de ng
y ao
y ang
m ian
zh en
d ing
qi u
z ui
s ai
li u
f an
x uan
f ei
s an
sh an
ch e
z ong
m en
ãĢ Į
ãĢ į
t u
t ian
h ao
s u
l ei
n ei
yu n
20 1
l an
f eng
m o
n a
z e
l v
h an
k ou
w ai
n eng
li n
ch uan
ch i
j ue
b ai
p ai
20 0
k u
c ai
z ao
t ing
zh uan
g ang
li e
gu ang
g ui
l un
s ui
p u
c eng
k ong
sh ui
1 0
ch ao
zhu ang
ch a
d ou
c an
t ou
r an
s e
d uan
c un
h uan
c ong
pi n
c e
ch an
x un
g ou
0 0
n v
zh ao
g an
ch ong
sh a
t an
1 8
qi n
k a
m eng
qi ang
hu ang
xi u
1 2
ti ao
m an
sh ao
k uo
l ong
p ian
sh uo
t uan
t ang
r ong
g eng
20 2
ch en
t ui
g en
q ue
ti e
1 1
qi e
w o
p o
p ei
h ang
h ong
19 9
b ang
li ao
chu ang
bi e
r e
t uo
t ao
s ong
w a
m ai
h a
1 5
p an
d un
di ao
qi ao
s a
m ao
l ang
k an
k ang
â Ģ
o r
l ao
z eng
1 6
19 8
k ao
xi ong
1 7
o n
n uo
mi ao
r ang
ku ang
h en
s uan
1 4
3 0
zh un
1 3
19 4
c ao
h un
q un
n ong
19 7
h eng
shu ang
l ou
g ei
ku ai
pi ao
zh a
h ei
ni u
19 5
s en
bi n
r eng
z ou
19 6
ch un
k uan
2 5
âĢ Ķ
r ui
s un
p ao
n ing
f or
p a
c ang
m ou
2 4
p eng
hu ai
2 1
19 3
2 3
mu la
for mula
2 8
z an
r uo
i n
2 2
ch ou
zh ui
a r
m e
2 6
5 0
20 20
2 7
n ai
n u
ï ¼
2 9
sh un
201 0
z a
00 0
lv e
zh ai
20 19
n e
r o
j uan
s t
r a
c ui
k un
201 6
shi Ġ
de Ġ
Ġ shiĠ
Ġ deĠ
yi Ġ
Ġ yiĠ
ji Ġ
wei Ġ
zhi Ġ
yu Ġ
Ġ weiĠ
Ġ jiĠ
Ġ nian
Ġ zhiĠ
Ġ yuĠ
Ġ li
Ġnian Ġ
zhong Ġ
Ġli Ġ
zai Ġ
ren Ġ
you Ġ
guo Ġ
he Ġ
qi Ġ
bu Ġ
di Ġ
Ġ youĠ
Ġ zaiĠ
Ġ renĠ
Ġ yue
Ġ zhongĠ
Ġ heĠ
da Ġ
xi Ġ
xing Ġ
er Ġ
yuan Ġ
gong Ġ
Ġyue Ġ
fu Ġ
si Ġ
ge Ġ
jian Ġ
Ġ guoĠ
wu Ġ
jia Ġ
Ġ buĠ
jie Ġ
ke Ġ
cheng Ġ
zhu Ġ
sheng Ġ
xiang Ġ
xian Ġ
dao Ġ
bei Ġ
zi Ġ
Ġ qiĠ
fa Ġ
hui Ġ
chu Ġ
jin Ġ
Ġ diĠ
shu Ġ
Ġ erĠ
ri Ġ
Ġ xiĠ
ju Ġ
qu Ġ
zheng Ġ
hou Ġ
shou Ġ
ming Ġ
shang Ġ
dong Ġ
le Ġ
ta Ġ
jing Ġ
xue Ġ
fang Ġ
yan Ġ
zhan Ġ
ci Ġ
bao Ġ
hua Ġ
ying Ġ
ye Ġ
tong Ġ
zuo Ġ
zhe Ġ
guan Ġ
Ġ daĠ
Ġ riĠ
yin Ġ
chang Ġ
xin Ġ
jiao Ġ
lu Ġ
dui Ġ
wen Ġ
ti Ġ
fen Ġ
qian Ġ
tai Ġ
jiang Ġ
xiao Ġ
bing Ġ
Ġ siĠ
jun Ġ
dian Ġ
zhang Ġ
ping Ġ
xia Ġ
du Ġ
huo Ġ
yong Ġ
dan Ġ
Ġ keĠ
Ġ jiaĠ
hai Ġ
gai Ġ
wang Ġ
dai Ġ
nan Ġ
ru Ġ
qing Ġ
mu Ġ
bi Ġ
ban Ġ
liang Ġ
lai Ġ
mei Ġ
ya Ġ
shen Ġ
zu Ġ
Ġ xingĠ
Ġ fuĠ
wan Ġ
she Ġ
lian Ġ
min Ġ
mi Ġ
zhou Ġ
an Ġ
jiu Ġ
qiu Ġ
zhen Ġ
ben Ġ
xu Ġ
gao Ġ
bo Ġ
Ġ taĠ
xie Ġ
te Ġ
bian Ġ
ling Ġ
luo Ġ
yao Ġ
deng Ġ
duo Ġ
yang Ġ
quan Ġ
che Ġ
suo Ġ
zui Ġ
tian Ġ
gu Ġ
biao Ġ
fan Ġ
hu Ġ
yun Ġ
xuan Ġ
su Ġ
shan Ġ
fei Ġ
ding Ġ
liu Ġ
zong Ġ
sai Ġ
dang Ġ
ma Ġ
kai Ġ
ba Ġ
hao Ġ
ĠdeĠ yiĠ
Ġ bingĠ
Ġ daoĠ
feng Ġ
kou Ġ
tu Ġ
mian Ġ
men Ġ
nei Ġ
la Ġ
ao Ġ
lei Ġ
san Ġ
e Ġ
cai Ġ
wai Ġ
chuan Ġ
jue Ġ
pai Ġ
chi Ġ
Ġ danĠ
lan Ġ
Ġ jinĠ
Ġ jianĠ
Ġ beiĠ
Ġ gongĠ
guang Ġ
ĠshiĠ yiĠ
a Ġ
ni Ġ
gui Ġ
bai Ġ
lin Ġ
ting Ġ
Ġ ziĠ
pu Ġ
Ġ zheĠ
neng Ġ
gang Ġ
na Ġ
lun Ġ
ai Ġ
1 Ġ
han Ġ
ze Ġ
lie Ġ
Ġ xiangĠ
cheng ĠweiĠ
mo Ġ
Ġ zhuĠ
Ġ yinĠ
2 Ġ
ĠshiĠ deĠ
mei ĠguoĠ
chan Ġ
shui Ġ
Ġ xianĠ
ĠdeĠ shiĠ
Ġ juĠ
zhuan Ġ
sui Ġ
Ġ gaiĠ
Ġ chuĠ
xun Ġ
lv Ġ
li Ġ
huan Ġ
1 ĠnianĠ
Ġ geĠ
zao Ġ
zhuang Ġ
ou Ġ
Ġ ta
tou Ġ
duan Ġ
5 ĠnianĠ
2 ĠnianĠ
se Ġ
Ġ wuĠ
ĠyiĠ jiĠ
4 ĠnianĠ
Ġ baoĠ
ceng Ġ
chong Ġ
8 ĠnianĠ
ĠweiĠ yuĠ
pin Ġ
3 ĠnianĠ
Ġ pingĠ
Ġ jieĠ
gou Ġ
cong Ġ
cha Ġ
cun Ġ
di ĠyiĠ
dou Ġ
5 Ġ
zhao Ġ
kong Ġ
7 ĠnianĠ
Ġ houĠ
gan Ġ
sha Ġ
3 Ġ
qiang Ġ
ce Ġ
ĠshiĠ jiĠ
chao Ġ
meng Ġ
man Ġ
long Ġ
kai ĠshiĠ
tang Ġ
kuo Ġ
tuan Ġ
tan Ġ
shuo Ġ
Ġ dan
ke ĠyiĠ
Ġ ciĠ
ĠyiĠ geĠ
Ġ yeĠ
0 Ġ
qin Ġ
0 ĠnianĠ
ka Ġ
ĠshiĠ weiĠ
gong ĠliĠ
ĠzhongĠ guoĠ
tie Ġ
9 ĠnianĠ
Ġ tong
pian Ġ
ĠshiĠ shiĠ
4 Ġ
shao Ġ
zhengĠ fuĠ
Ġ bing
hang Ġ
can Ġ
geng Ġ
t Ġ
huo ĠdeĠ
Ġ shengĠ
mian ĠjiĠ
6 ĠnianĠ
hong Ġ
tiao Ġ
tao Ġ
xiu Ġ
chen Ġ
ji ĠdeĠ
ĠshiĠ yongĠ
Ġ 200
pi Ġ
Ġ you
ran Ġ
huang Ġ
ren ĠweiĠ
ĠshiĠ jianĠ
zhi ĠyiĠ
6 Ġ
zhong ĠdeĠ
zheng ĠzhiĠ
ĠyiĠ zhiĠ
Ġ huoĠ
ĠshiĠ jieĠ
Ġ faĠ
Ġ dongĠ
zhongĠ guoĠ
nv Ġ
chuang Ġ
yue Ġ
Ġ chengĠ
ang Ġ
qu ĠdeĠ
guo ĠjiĠ
s Ġ
yi ĠshiĠ
wo Ġ
Ġ yuanĠ
renĠ kouĠ
xing ĠdeĠ
po Ġ
jinĠ xingĠ
rong Ġ
liao Ġ
tuo Ġ
song Ġ
diao Ġ
mei ĠyouĠ
nian Ġ
Ġli ĠdeĠ
Ġli ĠshiĠ
en Ġ
ĠweiĠ yuanĠ
Ġ dang
pei Ġ
pan Ġ
bang Ġ
ĠqiĠ zhongĠ
gongĠ siĠ
8 Ġ
zuo ĠweiĠ
qie Ġ
fa ĠguoĠ
biao ĠshiĠ
ĠĠĠ zaiĠ
yanĠ jiuĠ
ĠpingĠ fangĠ
zheng ĠshiĠ
Ġ 201
que Ġ
tui Ġ
7 Ġ
ĠdeĠ jiĠ
Ġ er
yin ĠweiĠ
Ġ shouĠ
s ĠĠĠ
dian ĠshiĠ
yunĠ dongĠ
Ġ zhe
Ġ haiĠ
ĠdeĠ diĠ
cheng ĠshiĠ
Ġ ri
Ġ suiĠ
Ġ xinĠ
zhi ĠshiĠ
ta ĠdeĠ
jian ĠdeĠ
lang Ġ
Ġ mingĠ
gong ĠheĠ
dun Ġ
shu ĠyuĠ
she ĠjiĠ
taiĠ wanĠ
ĠĠĠ 201
Ġ shangĠ
Ġ shuĠ
Ġ jiangĠ
qiao Ġ
ĠrenĠ minĠ
Ġ ã
ĠrenĠ kouĠ
zhi ĠdeĠ
Ġ meiĠ
10 ĠyueĠ
Ġ jingĠ
12 ĠyueĠ
ĠdeĠ zhiĠ
jing ĠjiĠ
7 ĠyueĠ
dianĠ yingĠ
zu ĠzhiĠ
9 ĠyueĠ
Ġ nanĠ
mao Ġ
Ġ fenĠ
8 ĠyueĠ
zhu ĠyiĠ
Ġ xiaĠ
3 ĠyueĠ
wa Ġ
Ġ 19
1 ĠyueĠ
ĠshiĠ qiĠ
daiĠ biaoĠ
kan Ġ
Ġ muĠ
riĠ benĠ
you ĠyiĠ
ying ĠguoĠ
Ġ zuiĠ
5 ĠyueĠ
kao Ġ
ji ĠshiĠ
6 ĠyueĠ
re Ġ
Ġ qianĠ
hen Ġ
eng Ġ
guo ĠdeĠ
4 ĠyueĠ
mai Ġ
Ġ zhangĠ
ĠshiĠ zhenĠ
ĠĠĠ S
xian ĠdeĠ
wei ĠyiĠ
11 ĠyueĠ
cheĠ zhanĠ
jiao ĠyuĠ
gen ĠjuĠ
buĠ fenĠ
yi ĠdeĠ
daĠ xueĠ
xiangĠ gangĠ
yu ĠshiĠ
Ġ C
ming ĠweiĠ
xueĠ yuanĠ
ĠdeĠ guoĠ
ĠyiĠ yuanĠ
gen Ġ
li ĠshiĠ
cao Ġ
yingĠ xiangĠ
ĠdeĠyiĠ geĠ
dan ĠrenĠ
kang Ġ
ĠzhiĠ houĠ
lao Ġ
Ġ tongĠ
bie Ġ
can ĠjiaĠ
9 Ġ
Ġ S
ĠyiĠ weiĠ
Ġ ruĠ
sa Ġ
Ġ 18
sheĠ huiĠ
xian ĠshiĠ
ĠdiĠ quĠ
Ġ huiĠ
shu ĠdeĠ
zeng Ġ
shang ĠdeĠ
xing ĠshiĠ
ye ĠshiĠ
qi ĠshiĠ
formula Ġ
Ġyou ĠyuĠ
ĠyinĠ ciĠ
00 Ġ
Ġ ran
guan ĠliĠ
gongĠ zuoĠ
tong ĠguoĠ
Ġ biĠ
le ĠyiĠ
uan Ġ
er ĠshiĠ
Ġ qingĠ
ĠĠĠ 200
xingĠ zhengĠ
bu ĠdeĠ
gongĠheĠ guoĠ
xiong Ġ
wei ĠshiĠ
ĠliĠ yaĠ
Ġnian ĠdeĠ
zhun Ġ
ren ĠdeĠ
Ġ 199
zi ĠjiĠ
Ġ xueĠ
da ĠdeĠ
ha Ġ
2 ĠyueĠ
ĠĠĠ C
kuang Ġ
ĠguoĠ jiaĠ
Ġ yingĠ
nong Ġ
zui ĠzhongĠ
Ġ A
ku Ġ
hui ĠyiĠ
Ġ yanĠ
yin ĠyueĠ
Ġ dengĠ
ĠĠĠ shengĠ
Ġ xiaoĠ
cheng ĠliĠ
faĠ xianĠ
miao Ġ
luo ĠsiĠ
ĠĠĠ 202
tiĠ gongĠ
chu ĠdeĠ
piao Ġ
hei Ġ
d ĠĠĠ
lou Ġ
faĠ zhanĠ
qi ĠdeĠ
Ġ 3
ĠbaoĠ kuoĠ
yuan ĠdeĠ
kuai Ġ
ĠshiĠ youĠ
ĠshiĠ zhiĠ
qiĠ taĠ
ĠqiĠ jianĠ
suo ĠyouĠ
nuo Ġ
si ĠdeĠ
you ĠyuĠ
shuang Ġ
1 ĠriĠ
tieĠ luĠ
ĠdaĠ xueĠ
quan ĠguoĠ
ĠshiĠ zaiĠ
Ġ M
Ġ lingĠ
Ġ taiĠ
dao ĠzhiĠ
tong ĠdeĠ
zhuĠ yaoĠ
dao ĠdeĠ
hun Ġ
cheng ĠdeĠ
can ĠyuĠ
sen Ġ
wenĠ huaĠ
Ġ liangĠ
baoĠ kuoĠ
di ĠliĠ
ĠĠĠ M
zhong ĠyiĠ
ĠtaĠ menĠ
lian ĠheĠ
di ĠdeĠ
ĠzhiĠ daoĠ
Ġ 4
Ġ wangĠ
Ġtong ĠshiĠ
bu ĠshiĠ
ĠpingĠfangĠ gongĠliĠ
ĠzhongĠ xinĠ
qianĠ miĠ
bei ĠbuĠ
Ġ zhengĠ
chengĠ yuanĠ
ĠĠĠ shiĠ
shu ĠjiĠ
yong ĠyuĠ
rang Ġ
ĠĠĠ yiĠ
qun Ġ
Ġ huaĠ
zai ĠyiĠ
xuan ĠbuĠ
2020 ĠnianĠ
guoĠ jiaĠ
o Ġ
ĠweiĠyuanĠ huiĠ
zuĠ qiuĠ
Ġ wanĠ
Ġ tianĠ
wenĠ tiĠ
Ġ maĠ
Ġnian ĠzhiĠ
Ġ dangĠ
Ġ zhanĠ
xueĠ xiaoĠ
Ġ guĠ
sheng ĠyuĠ
jian ĠyuĠ
zi ĠyouĠ
ĠshiĠ wuĠ
C Ġ
Ġ 198
Ġ luĠ
Ġ duiĠ
t ĠĠĠ
Ġ zongĠ
Ġ boĠ
gong ĠyouĠ
pingĠ fangĠ
guan ĠxiĠ
fang ĠshiĠ
kuan Ġ
biĠ saiĠ
ĠshiĠ zhongĠ
zuoĠ pinĠ
Ġ jiuĠ
Ġ shenĠ
huoĠ dongĠ
Ġ yinĠweiĠ
suan Ġ
ĠweiĠ zhiĠ
hua ĠrenĠminĠ
ying ĠdeĠ
jianĠ zhuĠ
Ġ luoĠ
heng Ġ
Ġ quanĠ
Ġ T
jian ĠliĠ
Ġ 202
yu ĠyiĠ
Ġ haoĠ
Ġ xuĠ
Ġ gai
ĠĠĠ liĠshiĠ
ji ĠyiĠ
fen ĠweiĠ
Ġ l
ĠdeĠ renĠ
she ĠyouĠ
c uo
ren ĠshiĠ
Ġ I
tong ĠshiĠ
guanĠ junĠ
Ġ a
da ĠliĠ
Ġ g
Ġ aĠ
ge ĠrenĠ
2010 ĠnianĠ
ĠĠĠshengĠ pingĠ
ĠĠĠ A
zhuan ĠjiĠ
Ġ benĠ
Ġ B
yu ĠdeĠ
beiĠ jingĠ
ĠdiĠ erĠ
Ġ miĠ
ĠjiĠ huaĠ
Ġ chengĠweiĠ
ĠyouĠ xiĠ
jiu ĠshiĠ
xiao ĠshiĠ
huaĠrenĠminĠ gongĠheĠguoĠ
chun Ġ
gei Ġ
Ġ 5
men ĠdeĠ
Ġli ĠyuĠ
dui ĠyuĠ
xi ĠdeĠ
zou Ġ
tong ĠyiĠ
ming ĠdeĠ
Ġ P
Ġta ĠdeĠ
Ġ anĠ
jun ĠshiĠ
di ĠshiĠ
diĠ erĠ
xueĠ jiaĠ
xin ĠdeĠ
er ĠdeĠ
y Ġ
qu ĠyuĠ
ĠbuĠ fenĠ
eĠ luoĠsiĠ
Ġ congĠ
xian ĠzhiĠ
Ġ liuĠ
shouĠ daoĠ
Ġ 15
k ui
taĠ menĠ
faĠ shengĠ
Ġ 194
Ġ baĠ
wei ĠdeĠ
Ġ sui
min ĠguoĠ
hou ĠdeĠ
un Ġ
ĠĠĠ P
sheng ĠdeĠ
lai ĠdeĠ
c u
fangĠ mianĠ
zhengĠ fu
d Ġ
dan ĠweiĠ
gong ĠjiĠ
Ġ tiĠ
Ġ jie
xing ĠweiĠ
ĠshiĠ renĠ
ĠyiĠ jingĠ
yong ĠyouĠ
2019 ĠnianĠ
faĠ xingĠ
you ĠjiĠ
A Ġ
2016 ĠnianĠ
Ġ 6
Ġ dianĠ
zhong ĠshiĠ
jin ĠshiĠ
ĠxiĠ tongĠ
jueĠ dingĠ
bu ĠyuĠ
Ġ D
ĠzhongĠ yangĠ
ju ĠyouĠ
Ġ mianĠjiĠ
liangĠ geĠ
tong ĠzhiĠ
Ġ changĠ
diĠ quĠ
niĠ yaĠ
chuĠ xianĠ
qu ĠweiĠ
ĠriĠ benĠ
you ĠdeĠ
sheng ĠjiĠ
xian ĠzaiĠ
mou Ġ
a l
zh Ġ
hua ĠdeĠ
ĠrenĠkouĠ miĠ
ci ĠshiĠ
juĠ xingĠ
Ġ zuoĠ
qi ĠyuĠ
zi ĠzhiĠ
ĠĠĠ B
wu ĠdeĠ
Ġ fengĠ
laiĠ ziĠ
ling ĠyiĠ
Ġta ĠzaiĠ
Ġ 16
jia ĠdeĠ
m Ġ
shu aiĠ
ĠweiĠ jiĠ
mianĠjiĠ weiĠ
hui ĠdeĠ
baoĠ huĠ
ĠjiĠ yuĠ
Ġ feiĠ
nan ĠbuĠ
Ġ jiaoĠ
zh uo
du ĠliĠ
Ġ huĠ
cang Ġ
shuĠ juĠ
zongĠ tongĠ
kong ĠzhiĠ
ĠshiĠ yuĠ
jinĠ ruĠ
ĠshiĠweiĠ yuĠ
Ġ 195
ĠliĠ ruĠ
Ġ gaoĠ
renĠ wuĠ
ĠĠĠ T
qu ĠshiĠ
zha Ġ
ke ĠliĠ
yaoĠ qiuĠ
r Ġ
Ġ fanĠ
Ġ suĠ
Ġ sanĠ
Ġ guanĠ
Ġg tĠ
gu ĠshiĠ
Ġ suo
wanĠ chengĠ
cheng ĠjiĠ
Ġran ĠerĠ
Ġ meiĠguoĠ
Ġ 197
ĠĠĠ deĠ
xueĠ shengĠ
Ġ lianĠ
ĠĠĠ yuĠ
Ġ woĠ
jin ĠdeĠ
Ġtong ĠnianĠ
Ġdan ĠshiĠ
minĠ zhuĠ
gong ĠshiĠ
keĠ nengĠ
ĠyiĠ qiĠ
lieĠ cheĠ
Ġ ru
Ġ 7
Ġl tĠ
ĠyiĠ buĠ
shen ĠzhiĠ
you ĠshiĠ
Ġbing ĠyuĠ
ren ĠzhiĠ
Ġ teĠ
y ĠĠĠ
Ġ wenĠ
Ġbing ĠzaiĠ
chao ĠguoĠ
ĠjiĠ shuĠ
ti ĠyuĠ
Ġ 10
yuan ĠshiĠ
qianĠ wangĠ
chengĠ gongĠ
cun ĠzaiĠ
Ġ guangĠ
ke ĠdeĠ
dang ĠshiĠ
ya ĠliĠ
Ġ E
si ĠshiĠ
xue ĠxiĠ
yong ĠdeĠ
ĠdeĠyiĠ ge
jing ĠguoĠ
nei ĠdeĠ
fa ĠbuĠ
zuo ĠdeĠ
ning Ġ
wuĠ keĠ
jian ĠyiĠ
pao Ġ
guan ĠyuĠ
he ĠĠĠ
T Ġ
ĠzhiĠ weiĠ
Ġ yongĠ
xiangĠ gang
wu ĠshiĠ
zhu ĠrenĠ
yinĠ duĠ
ĠzhiĠ jianĠ
Ġ duoĠ
Ġ 8
zhanĠ zhengĠ
ĠĠĠ diĠ
zhan ĠshiĠ
sun Ġ
ĠqiĠ taĠ
guo ĠshiĠ
bin Ġ
Ġ caiĠ
zhuĠ yao
shengĠ huoĠ
kaiĠ faĠ
xuĠ duoĠ
Ġ H
zhou ĠdeĠ
Ġ hanĠ
jian ĠzhiĠ
jieĠ shouĠ
ĠjiĠ weiĠ
fan ĠweiĠ
ĠyiĠ shuĠ
c o
ĠweiĠ erĠ
zhuĠ xiĠ
ĠjiĠ qiĠ
Ġ ceng
han ĠguoĠ
Ġ 17
ouĠ zhouĠ
niu Ġ
ĠpingĠfangĠ qianĠmiĠ
lu ĠdeĠ
fuĠ wuĠ
ĠyuĠ 201
Ġ suoĠ
qiuĠ duiĠ
daiĠ biao
ĠzhiĠ youĠ
ĠjiĠ zhongĠ
Ġ aoĠ
zeng ĠjiaĠ
Ġ L
ĠbuĠ guoĠ
Ġ 196
ban ĠdeĠ
gongĠ yuanĠ
ĠyouĠ xianĠ
xiaoĠ xingĠ
Ġ shuĠyuĠ
Ġ 9
huai Ġ
shangĠ haiĠ
Ġ 000
Ġ ba
xia ĠdeĠ
ĠĠĠ gaiĠ
Ġ R
ĠzheĠ xieĠ
he ĠyiĠ
duo ĠdeĠ
ĠzhiĠ chuĠ
Ġ puĠ
ti on
hou ĠyiĠ
san ĠshiĠ
0ĠnianĠ daiĠ
ĠĠĠ zhiĠ
ĠciĠ waiĠ
ju ĠliĠ
jiaoĠ tongĠ
fu ĠdeĠ
si ĠjiĠ
zuĠ chengĠ
yunĠdongĠ yuanĠ
Ġ zai
ĠyuĠ 200
ĠzhiĠ zuoĠ
Ġ genĠjuĠ
gaoĠ duĠ
ĠzhiĠ chiĠ
ma ĠweiĠ
chuĠ leĠ
zhuĠ jiaoĠ
chang ĠdeĠ
jueĠ seĠ
Ġ quĠ
xuĠ yaoĠ
Ġ zhĠ
Ġ bianĠ
Ġ jin
zheĠ xieĠ
ch aiĠ
Ġã ĥ
ge ĠzhongĠ
ĠzhiĠ wuĠ
Ġ N
n Ġ
chongĠ xinĠ
ti ĠdeĠ
tui ĠchuĠ
zheĠ geĠ
Ġli ĠjiĠ
Ġ yin
jing ĠliĠ
Ġ G
ĠzaiĠ ciĠ
di eĠ
xiang ĠdeĠ
ĠĠĠ 199
Ġ moĠ
gongĠ chengĠ
Ġ 1Ġ
ĠĠĠ 19
qi ĠyiĠ
da ĠshiĠ
l Ġ
Ġdang ĠshiĠ
Ġ zuiĠzhongĠ
o f
ĠrenĠ heĠ
Ġ shanĠ
wu ĠzhongĠ
du ĠweiĠ
renĠ minĠ
lianĠ saiĠ
zi ĠdeĠ
xuanĠ juĠ
chu ĠyuĠ
ni aoĠ
ziĠ jiĠdeĠ
ĠĠĠ diĠliĠ
jieĠ muĠ
geĠ quĠ
ĠweiĠ leĠ
ĠrenĠ wuĠ
jieĠ shuĠ
fuĠ zeĠ
S Ġ
dang ĠdiĠ
gongĠ chanĠ
ï¼ į
zhe ĠyiĠ
ĠĠĠ L
Ġ 193
Ġ cengĠ
Ġ F
ĠweiĠ qiĠ
Ġ baiĠ
ĠĠĠ weiĠ
ĠrenĠ yuanĠ
r aoĠ
ĠzhiĠ yuĠ
Ġ aiĠ
ĠĠĠ t
jie ĠdeĠ
liang ĠweiĠ
ya ĠdeĠ
n aoĠ
Ġ 0
chu ĠliĠ
shouĠ ciĠ
guan ĠdeĠ
rui Ġ
nv ĠziĠ
fanĠ yingĠ
sai ĠshiĠ
chuĠ banĠ
ye ĠyouĠ
ding ĠdeĠ
dui ĠdeĠ
riĠ ben
ruo Ġ
k Ġ
ĠĠĠ R
ĠhouĠ laiĠ
chanĠ shengĠ
jie ĠshiĠ
dongĠ wuĠ
ba ĠshiĠ
she ĠshiĠ
lei ĠsiĠ
ĠshiĠyiĠ geĠ
juan Ġ
jing ĠshiĠ
san ĠnianĠ
ĠjiĠ xuĠ
le ĠbuĠ
Ġ huo
xiang ĠshiĠ
bo ĠshiĠ
an ĠdeĠ
Ġ ma
lianĠ mengĠ
D Ġ
nanĠ ziĠ
s ouĠ
du ĠdeĠ
guanĠ xiaĠ
keĠ neng
hai ĠshiĠ
yang ĠdeĠ
dong ĠshiĠ
zaoĠ chengĠ
she ĠliĠ
yanĠ jiu
l o
Ġ kaiĠ
Ġ ai
zhong ĠzhiĠ
Ġ t
chou Ġ
shan ĠxiĠ
Ġ laiĠ
daoĠ leĠ
guo ĠyiĠ
Ġ mei
fen ĠbuĠ
nv ĠxingĠ
ĠjiĠ zhiĠ
ĠheĠ zuoĠ
dou ĠshiĠ
Ġ 1
Ġsuo ĠyiĠ
caiĠ yongĠ
jun ĠdeĠ
jiaoĠ shouĠ
ĠĠĠ qiĠ
dong ĠdeĠ
xiangĠ muĠ
dai ĠdeĠ
zheng ĠdeĠ
fangĠ faĠ
ĠzhiĠ zhiĠ
ĠĠĠ G
Ġ 14
xian ĠrenĠ
wu ĠliĠ
ĠyiĠ siĠ
fang ĠdeĠ
meiĠ pingĠfangĠ
guo ĠyuĠ
zhengĠzhiĠ renĠwuĠ
Ġ J
zhong ĠyuĠ
di ĠweiĠ
ĠĠĠ D
liang ĠdeĠ
ĠzaiĠ diĠ
ĠĠĠ renĠkouĠ
Ġ jiang
Ġã Ĥ
chuanĠ tongĠ
l uanĠ
zhan ĠdeĠ
zhu ĠdeĠ
Ġã ģ
huaĠ minĠguoĠ
xiĠ tongĠ
ĠĠĠ youĠ
cheng ĠrenĠ
jiaĠ ruĠ
reng Ġ
xinĠ wenĠ
xiangĠ guanĠ
fa ĠdeĠ
ge ĠshiĠ
yanĠ yuanĠ
Ġnian ĠyiĠ
mingĠ chengĠ
t h
zan Ġ
hao ĠdeĠ
Ġ 2Ġ
ĠliĠ siĠ
fu ĠshiĠ
taiĠ wan
ĠjiĠ jiĠ
ĠyiĠ huiĠ
tiĠ chuĠ
ye ĠyuĠ
Ġ cong
dao ĠshiĠ
bianĠ maĠweiĠ
ĠĠĠ jiĠ
bei ĠrenĠ
boĠ wuĠ
he ĠshiĠ
ĠjiĠ luĠ
lianĠ jieĠ
ĠtaĠ men
yuan ĠyuĠ
xue ĠdeĠ
hou ĠzaiĠ
k enĠ
ĠweiĠ fuĠ
ĠdeĠyiĠge ĠshiĠzhenĠ
a ĠerĠ
Ġ zhenĠ
er ĠnianĠ
ĠyiĠ yiĠ
z angĠ
f oĠ
ĠxueĠ mingĠ
xi ĠjiĠ
ĠĠĠ H
zui ĠjiaĠ
ĠxiĠ yaĠ
ying ĠyuĠ
r uanĠ
mu ĠsiĠ
baoĠ kuo
ãĢ ī
p Ġ
ãĢ Ī
ling ĠshiĠ
Ġ duĠ
xiao ĠdeĠ
hai ĠyouĠ
mian ĠdeĠ
ĠweiĠ zhuĠ
ĠrenĠkouĠmiĠ duĠ
ge ĠdeĠ
Ġli ĠyiĠ
Ġzhe ĠshiĠ
zuiĠ gaoĠ
zhui Ġ
ĠzhiĠ jieĠ
Ġ yaĠ
dong ĠjiĠ
ĠĠĠ jiaĠ
geĠ mingĠ
ĠshiĠyiĠ zhongĠ
Ġ naĠ
bei ĠshiĠ
yan ĠdeĠ
xia ĠjiĠ
gai ĠweiĠ
haiĠ junĠ
Ġ sheĠ
zai ĠdeĠ
10 Ġ
zhe ĠzhongĠ
Ġ yeĠshiĠ
yao ĠdeĠ
jieĠ gouĠ
shu ĠshiĠ
ĠyiĠ xieĠ
shengĠ wuĠ
jia ĠzhiĠ
Ġ yuĠshiĠ
chang ĠshiĠ
Ġ Ð
meiĠ tiĠ
hui ĠshiĠ
gai ĠguoĠ
peng Ġ
yan ĠzhongĠ
na ĠdaĠ
huiĠ fuĠ
ĠĠĠ F
zhu ĠshiĠ
pa Ġ
zheng ĠyiĠ
bian ĠdeĠ
ke ĠjiĠ
jie ĠguoĠ
ĠgongĠ siĠ
Ġ gu
wenĠ wuĠ
ĠzhiĠ qianĠ
zai ĠyuĠ
ĠĠĠ I
qingĠ kuang
minĠ zuĠ
xin ĠxiĠ
Ġ tuĠ
gao ĠdeĠ
ĠyiĠ zhongĠ
mi eĠ
yanĠ changĠ
xian ĠyuĠ
junĠ duiĠ
jian ĠshiĠ
qi ĠzhiĠ
zhai Ġ
Ġ han
ĠjiĠ zaiĠ
zhuĠ jianĠ
shui ĠyuĠ
qian ĠdeĠ
he ĠdeĠ
gongĠ kaiĠ
fanĠ duiĠ
ch ui
neng ĠliĠ
ĠweiĠ youĠ
ĠkeĠ siĠ
Ġ zong
Ġ yangĠ
gaoĠ suĠ
ĠĠĠ xingĠzhengĠ
Ġ 12
ge ĠliĠ
Ġ ci
hua ĠshiĠ
ĠbuĠ tongĠ
xing ĠzhiĠ
lei ĠdeĠ
Ġ liang
geĠ lanĠ
shangĠ yeĠ
Ġ chenĠ
jiangĠ junĠ
huanĠ jingĠ
Ġ guiĠ
p angĠ
20 Ġ
ĠzhuĠ yaoĠ
zhang ĠdeĠ
chuangĠ zuoĠ
Ġ zuoĠweiĠ
Ġ xuanĠ
ĠĠĠ benĠ
sai ĠjiĠ
f ouĠ
Ġ K
mo ĠshiĠ
o w
si ĠnianĠ
tong ĠjiĠ
ĠzaiĠ 200
zhe ĠdeĠ
ĠzheĠ geĠ
kun Ġ
shengĠ chanĠ
biaoĠ zhunĠ
biaoĠ xianĠ
Ġ zuĠ
wuĠ faĠ
ĠxiangĠ gangĠ
e l
ĠzhongĠ huaĠrenĠminĠgongĠheĠguoĠ
shengĠ yaĠ
Ġli ĠweiĠ
daĠ luĠ
zongĠ jiaoĠ
hangĠ kongĠ
biĠ yeĠ
zhu ĠliĠ
ge ĠyueĠ
sheng ĠliĠ
diaoĠ chaĠ
quan ĠliĠ
âĢ ĵ
dong ĠbuĠ
zhou ĠshiĠ
Ġ kaĠ
Ġnian ĠshiĠ
Ġ banĠ
ĠjiĠ tuanĠ
tou ĠguoĠ
ĠyiĠ banĠ
buĠ fen
xieĠ huiĠ
shenĠ fenĠ
ĠĠĠ genĠjuĠ
Ġ diĠyiĠ
ĠyiĠ ciĠ
ĠĠĠ ciĠ
Ġ fangĠ
ĠĠĠ formulaĠ
faĠ yuanĠ
Ġdang ĠdiĠ
di ĠzhiĠ
si ĠyuĠ
bing ĠbuĠ
gongĠ luĠ
jin ĠjiĠ
ĠĠĠ 198
ĠdeĠyiĠ buĠfenĠ
bu ĠyiĠ
dongĠ huaĠ
Ġ hongĠ
s angĠ
gongĠ zuo
xian ĠweiĠ
hui ĠzaiĠ
jia ĠliĠ
ni eĠ
anĠ quanĠ
cheng ĠzhongĠ
sai ĠdeĠ
feiĠ changĠ
quan ĠbuĠ
baĠ gaoĠduĠ
di ĠyuĠ
jiao ĠshiĠ
qiuĠ yuanĠ
jie ĠzhiĠ
Ġ huangĠ
bi ĠdeĠ
Ġ xieĠ
cha ĠdeĠ
Ġ wan
Ġ zeĠ
ziĠ liaoĠ
ĠzhiĠ xingĠ
xian ĠyiĠ
luoĠ maĠ
Ġ tangĠ
fu ĠheĠ
jing ĠdeĠ
tuanĠ tiĠ
Ġ leiĠ
qingĠ kuangĠ
Ġ 2
pingĠ junĠ
Ġ zhouĠ
r ou
âĢ ¦
Ġ keĠyiĠ
jinĠ biaoĠ
chao ĠxianĠ
neiĠ rongĠ
gai ĠdiĠ
ĠĠĠ 18
Ġ laĠ
ding ĠyiĠ
xingĠ dongĠ
Ġ linĠ
xia ĠyiĠ
wenĠ xueĠ
Ġ W
jieĠ fangĠ
qiĠ jianĠ
du ĠshiĠ
renĠkouĠ puĠ
r ouĠ
la ĠsiĠ
jia ĠjiĠ
Ġru ĠguoĠ
ĠyuĠ 202
juĠ minĠ
gongĠ gongĠ
fenĠ bie
ĠzhiĠ yuanĠ
Ġ taiĠwanĠ
ĠqiĠ houĠ
dongĠ beiĠ
ĠzhiĠ huiĠ
gu aĠ
shou ĠdeĠ
yanĠ chuĠ
shang ĠshiĠ
Ġ yunĠ
meiĠ yuanĠ
ĠjinĠ xingĠ
U T
er ĠjiĠ
Ġ yaoĠ
she ĠzhiĠ
. .
banĠ benĠ
t er
P Ġ
lve Ġ
faĠ biaoĠ
ĠbingĠ qieĠ
yuan ĠyiĠ
sai ĠzhongĠ
keĠ xueĠ
gongĠ tongĠ
ĠyuĠ jiĠ
yan ĠshiĠ
lingĠ daoĠ
ĠjiĠ diĠ
ren ĠyiĠ
Ġ 13
Ġ wo
sanĠ geĠ
zai ĠshiĠ
zuo ĠyouĠ
qing ĠnianĠ
ĠbingĠ qie
Ġ b
aoĠ yunĠ
zuoĠ pin
gaiĠ bianĠ
ĠdeĠ zhuĠ
Ġri ĠzaiĠ
28 ĠriĠ
kong ĠjianĠ
xing ĠjiĠ
z ang
ĠbaoĠ kuo
wu ĠzhiĠ
deng ĠdiĠ
30 Ġ
ĠlingĠ waiĠ
jia ĠshiĠ
ĠĠĠ 194
Ġ daiĠ
ĠdiĠ guoĠ
i l
youĠ xiĠ
Ġ liu
yuan ĠheĠ
fang ĠzhiĠ
Ġ niĠ
luĠ xianĠ
deng ĠrenĠ
ĠĠĠ E
xue ĠshiĠ
guan ĠzhongĠ
wu ĠnianĠ
zuoĠ yongĠ
lan ĠdeĠ
ĠĠĠ W
baoĠ daoĠ
s ang
xue ĠweiĠ
yuan ĠnianĠ
fen ĠzhongĠ
tongĠ changĠ
o l
shu ĠweiĠ
ze ĠshiĠ
ju ĠdeĠ
ai ĠerĠ
Ġli ĠzhiĠ
qi ĠweiĠ
ma ĠliĠ
Ġ 5Ġ
Ġer ĠshiĠ
ĠkeĠ nengĠ
aoĠ linĠ
he ĠjiĠ
chu ĠrenĠ
guo ĠliĠ
bang ĠzhuĠ
jiang ĠqiĠ
Ġ zhuanĠ
pi ĠkeĠ
gong ĠdeĠ
jingĠ neiĠ
ĠfuĠ zeĠ
zao ĠdaoĠ
danĠ quĠ
zu ĠdeĠ
ĠĠĠ zhongĠ
taĠ men
buĠ tongĠ
ĠyuĠ yanĠ
lu ĠdiĠ
gui ĠdaoĠ
ĠdaĠ daoĠ
15 ĠriĠ
ju ĠjiĠ
jie ĠheĠ
Ġdan ĠrenĠ
wuĠkeĠ lanĠ
shou ĠjiĠ
ĠyouĠ guanĠ
yaĠ zhouĠ
jia ĠyiĠ
fei ĠjiĠ
xianĠ daiĠ
taiĠ pingĠ
ĠyuĠ qiĠ
zhan ĠyiĠ
tu ĠdiĠ
bianĠ huaĠ
gongĠ yeĠ
sheng ĠdeĠyiĠgeĠshiĠzhenĠ
ĠzhiĠ jianĠdeĠ
Ġ si
xiĠ banĠ
zhengĠ ceĠ
wanĠ quanĠ
ĠĠĠ juĠ
ĠmuĠ qianĠ
hui ĠheĠ
ĠshiĠ xingĠ
jueĠ saiĠ
jiao ĠyiĠ
ĠsiĠ keĠ
guangĠ boĠ
zao ĠqiĠ
jiaoĠ huiĠ
on Ġ
xuanĠ zeĠ
ĠyiĠ youĠ
Ġ da
ye ĠdeĠ
yuanĠ yinĠ
xingĠ chengĠ
xiaoĠ shuoĠ
pi ĠpingĠ
Ġ zhaoĠ
ĠhaiĠ baĠgaoĠduĠ
25 ĠriĠ
miao ĠshuĠ
Ġ200 1ĠnianĠ
ĠĠĠ N
ĠbuĠ duiĠ
lianĠ bangĠ
ĠzhiĠ yeĠ
ĠerĠ siĠ
ĠsiĠ teĠ
UT CĠ
ĠzaiĠ 201
faĠ lvĠ
z un
ĠweiĠ zhongĠ
Ġ huoĠdeĠ
bo ĠliĠ
xie ĠyiĠ
t engĠ
zao ĠdeĠ
ĠheĠ wuĠ
mingĠ mingĠ
Ġyue ĠdeĠ
chu ĠshiĠ
jianĠ sheĠ
beiĠ chengĠweiĠ
chang ĠqiĠ
gongĠ si
zhuanĠ yeĠ
yunĠdongĠ huiĠ
dianĠ ziĠ
ĠdiĠ sanĠ
ĠyiĠ yuĠ
er ĠweiĠ
wenĠ hua
yuanĠ zhuĠ
30 ĠriĠ
ĠjianĠ chengĠ
chiĠ xuĠ
ĠshiĠ yanĠ
Ġdang ĠzhongĠ
zui ĠdaĠ
Ġ cheĠ
20 ĠriĠ
jieĠ daoĠ
Ġ jiu
zu ĠheĠ
duoĠ shuĠ
t o
se ĠdeĠ
10 0Ġ
Ġ nan
ta ĠzaiĠ
Ġ 3Ġ
paiĠ sheĠ
houĠ laiĠ
l uan
ĠweiĠ diĠ
Ġ neiĠ
10 ĠriĠ
lin ĠshiĠ
Ġta ĠshiĠ
Ġ eĠ
ba ĠliĠ
wuĠ yuanĠ
ziĠ geĠ
Ġ shuiĠ
Ġ chuanĠ
Ġ chongĠ
mi ĠdeĠ
sheng ĠheĠ
Ġ mo
bu ĠliĠ
Ġ bei
ĠyouĠ chengĠ
aĠ laĠ
fu ĠzhiĠ
ĠjiĠ gouĠ
chu ĠqiĠ
tong ĠnianĠ
luo ĠdeĠ
Ġ O
ĠyiĠ mingĠ
r uan
erĠ ziĠ
bu ĠjiĠ
dongĠ nanĠ
4 0
gao ĠzhongĠ
taĠ menĠdeĠ
Ġ Ã
ling ĠyuĠ
Ġdan ĠzaiĠ
za ĠzhiĠ
ĠdiĠ siĠ
faĠ zhan
Ġ gengĠ
ĠshiĠweiĠyuĠ meiĠguoĠ
ĠjiĠ jinĠ
Ġ 11
daĠ daoĠ
xing ĠyuĠ
wang ĠdeĠ
ĠjinĠ guanĠ
Ġ ye
ĠweiĠyuĠ gaiĠguoĠ
gai ĠnianĠ
Ġ ha
Ġ 6Ġ
v e
Ġyue ĠzhiĠ
baoĠ gaoĠ
ĠguoĠ minĠ
ĠliĠ keĠ
kui Ġ
tu ĠerĠ
boĠ chuĠ
sheng ĠweiĠ
ku aĠ
fangĠ xiangĠ
ĠshiĠjieĠ daĠ
I Ġ
zhong ĠjiĠ
24 ĠriĠ
boĠwuĠ guanĠ
Ġ c
guiĠ dingĠ
dao ĠyiĠ
ĠliĠ yongĠ
ĠliĠ kaiĠ
guangĠ dongĠ
nei ĠbuĠ
guoĠ minĠ
Ġ hou
26 ĠriĠ
yinĠ hangĠ
canĠ saiĠ
sheĠ quĠ
gongĠchanĠ dangĠ
Ġyue ĠshiĠ
muĠ biaoĠ
E E
guanĠ fangĠ
ĠsuiĠ houĠ
guan ĠzhiĠ
dian ĠliĠ
wuĠ xianĠ
ĠxiĠ lieĠ
bing ĠweiĠ
18 ĠriĠ
Ġzhe ĠzhongĠ
Ġ renĠweiĠ
ĠyuĠ zhiĠ
aoĠlinĠ piĠkeĠ
quanĠ qiuĠ
dang ĠdeĠ
Ġ mengĠ
juĠ banĠ
ĠweiĠ siĠ
lian ĠxiĠ
Ġ ling
gongĠ buĠ
yin ĠshiĠ
V Ġ
fu ĠliĠ
mu ĠdeĠ
lie ĠdeĠ
ĠjiĠ changĠ
Ġ yingĠguoĠ
shen ĠdeĠ
Ġ san
ĠĠĠ a
ĠfenĠ buĠyuĠ
ĠyouĠ qiĠ
chang ĠweiĠ
ĠerĠ shengĠ
bi ĠliĠ
tou ĠziĠ
zhe ĠshiĠ
shangĠ shuĠ
v i
mu ĠdiĠ
dongĠ jingĠ
Ġ junĠ
mi ĠerĠ
16 ĠriĠ
ding ĠweiĠ
xunĠ lianĠ
ĠyuĠ zhongĠ
ce ĠshiĠ
ĠjiĠ heĠ
mingĠ ziĠ
qi ong
fen ĠzhiĠ
baoĠ faĠ
yingĠ yongĠ
Ġ qie
fu ĠyiĠ
ĠĠĠ K
Ġta ĠyuĠ
kaiĠ fangĠ
Ġ 4Ġ
guo ĠzhiĠ
17 ĠriĠ
huaĠ xueĠ
21 Ġ
ĠdeĠ daoĠ
ĠyouĠxianĠ gongĠsiĠ
ĠĠĠ zhengĠzhiĠ
21 ĠriĠ
bu ĠzhiĠ
ĠshiĠ ziĠ
ĠdeĠshiĠ zhenĠ
ai ĠdeĠ
yin ĠqiĠ
27 ĠriĠ
c k
Ġ qieĠ
ka ĠerĠ
ĠzhongĠ xueĠ
8 ĠriĠ
jun ĠweiĠ
Ġ mianĠ
ĠliĠ faĠ
12 ĠriĠ
23 ĠriĠ
ĠchuĠ leĠ
shang ĠyouĠ
shou ĠyuĠ
ĠshiĠ heĠ
dao ĠyuĠ
suĠ lianĠ
7 ĠriĠ
xiĠ lieĠ
h i
ĠyinĠ ci
meiĠguoĠ renĠkouĠpuĠ
fei ĠxingĠ
shuĠ liangĠweiĠ
juĠ leĠbuĠ
teĠ bie
xueĠ zheĠ
E Ġ
fen ĠxiĠ
guiĠ moĠ
Ġ shaĠ
huang ĠdiĠ
biĠ xuĠ
nengĠ gouĠ
me Ġ
ban ĠshiĠ
11 ĠriĠ
l engĠ
Ġ waiĠ
qi ĠjiĠ
22 ĠriĠ
ĠshiĠ faĠguoĠ
gongĠ nengĠ
te ĠdeĠ
9 ĠriĠ
jiao ĠdeĠ
Ġ minĠ
shanĠ dongĠ
tai ĠdeĠ
zi ĠyuĠ
pingĠ jiaĠ
19 ĠriĠ
jin ĠzhiĠ
fengĠ geĠ
29 ĠriĠ
6 0
chu ĠyiĠ
geĠ diĠ
ĠfuĠ wuĠ
suoĠ shuĠdeĠ
ting ĠzhiĠ
guanĠ yuanĠ
zuiĠ daĠdeĠ
N S
jingĠ yingĠ
ying ĠshiĠ
she ĠdeĠ
ke ĠshiĠ
20 ĠnianĠ
ĠyueĠ hanĠ
fuĠ jinĠ
dian ĠdeĠ
shengĠ mingĠ
o o
jieĠ chuĠ
5 ĠriĠ
3 ĠriĠ
ĠjiĠ baiĠ
Ġ ming
qingĠkuang ĠxiaĠ
fu ĠyuĠ
zheng ĠzaiĠ
ĠĠĠ 197
a m
14 ĠriĠ
shou ĠshiĠ
tiao ĠjianĠ
quĠ huaĠ
Ġ19 0
yuan ĠjiĠ
nu Ġ
ĠsuiĠ ranĠ
yuan ĠzhiĠ
xi ĠshiĠ
shang ĠweiĠ
ĠĠĠ youĠyuĠ
zhu ĠzaiĠ
mai ĠkeĠ
ĠĠĠ 195
da ĠjiĠ
ĠĠĠ liĠ
ĠbuĠ jiuĠ
4 ĠriĠ
4 0Ġ
ĠdaĠ huiĠ
xiaoĠxingĠ xingĠ
2 ĠriĠ
Ġ songĠ
duoĠ geĠ
chao ĠjiĠ
liu ĠxingĠ
6 ĠriĠ
sheng ĠzaiĠ
teĠ zhengĠ
jieĠ duanĠ
qi ĠnianĠ
boĠ teĠ
B Ġ
ĠgongĠ chiĠ
nanĠ xingĠ
3 1ĠriĠ
ge ĠjiĠ
13 ĠriĠ
ĠzuiĠ houĠ
Ġ daoĠzhiĠ
ya ĠyuĠ
si ĠrenĠ
zong ĠheĠ
wenĠwuĠ baoĠhuĠ
ĠdeĠ weiĠ
hai ĠyuĠ
30 ĠnianĠ
ge ĠweiĠ
renĠ heĠ
ao ĠsiĠ
wu ĠjiĠ
lv ĠyouĠ
zuoĠ jiaĠ
ren ĠjiĠ
manĠ huaĠ
Ġ ganĠ
Ġri ĠzhiĠ
keĠ daĠ
geĠ shouĠ
xiong ĠdiĠ
yinĠ ciĠ
w Ġ
xuĠ duo
huang ĠjiaĠ
shengĠ fenĠ
lianĠ meng
ouĠ zhou
jian ĠweiĠ
Ġtong ĠguoĠ
zai ĠweiĠ
ĠdeĠ zhongĠ
fenĠ ziĠ
ju ĠrenĠ
lieĠ che
Ġ shenĠzhiĠ
banĠ daoĠ
niu ĠyueĠ
Ġb rĠ
zhuĠ tiĠ
ci ĠshiĠjieĠdaĠ
chengĠ duĠ
wangĠ luoĠ
ĠĠĠ jinĠ
zhong ĠweiĠ
ĠtaĠ cengĠ
cheng ĠyiĠ
ci ĠdeĠ
you ĠyiĠgeĠ
zhuangĠ taiĠ
nai Ġ
Ġ201 1ĠnianĠ
xian ĠdeĠyiĠgeĠ
ben ĠdeĠ
bian ĠweiĠ
ĠyouĠ mingĠ
pin ĠdaoĠ
ĠzhiĠ jiĠ
ju ĠzhongĠ
xuanĠ shouĠ
he ĠliĠ
mao ĠyiĠ
20 ĠshiĠjiĠ
buĠ zhangĠ
renĠkouĠ shuĠliangĠweiĠ
Ġ lingĠyiĠ
ĠzaiĠ qiĠ
duoĠ ciĠ
hui ĠyouĠ
baoĠ hanĠ
ĠĠĠ 196
ĠĠĠ ziĠ
qian ĠyiĠ
ĠĠĠ O
huiĠ daoĠ
bei ĠdeĠ
shuo ĠshiĠ
ĠyuĠ 199
liu ĠnianĠ
ĠzhiĠ liĠ
ĠrenĠ zhongĠ
mo ĠdeĠ
gao ĠjiĠ
zhun ĠbeiĠ
fangĠ anĠ
Ġ U
fa ĠshiĠ
ĠheĠ nanĠ
shengĠ chan
bing ĠliĠ
c a
wai ĠdeĠ
daĠ xingĠ
wuĠ qiĠ
sheĠ beiĠ
jie ĠjiĠ
gong ĠzhongĠ
ci ĠzhiĠ
xiangĠ tongĠ
ĠyiĠ laiĠ
ĠzhiĠ zhongĠ
bu ĠweiĠ
taiĠ yangĠ
shuĠ guanĠ
you ĠzhiĠ
le ĠyiĠgeĠ
m angĠ
yuan ĠweiĠ
ĠdiĠ fangĠ
haoĠ miĠ
dianĠshiĠ taiĠ
luĠ junĠ
ĠzhongĠ buĠ
zi ĠshiĠ
ĠdeĠyiĠ zhongĠ
xing ĠheĠ
ĠrenĠkouĠmiĠ duĠweiĠ
ju ĠshiĠ
deng ĠjiĠ
ĠrenĠ kou
zuiĠ houĠ
xuan ĠweiĠ
19 0
ĠsuiĠ ran
zheĠ jiangĠ
gu ĠjiĠ
zhanĠ douĠ
fang ĠyuĠ
jun ĠzaiĠ
hui ĠyuĠ
xin ĠliĠ
biaoĠ yanĠ
qiu ĠjiĠ
Ġ kaiĠshiĠ
gaiĠ geĠ
guangĠ changĠ
siĠ wangĠ
zai ĠjiĠ
meiĠ zhouĠ
ĠweiĠyuĠ faĠguoĠ
daĠ liangĠ
jianĠ chengĠ
n ao
nong ĠyeĠ
ĠzhiĠ jinĠ
dianĠshiĠ juĠ
zhanĠ kaiĠ
yang ĠshiĠ
ĠxiĠ banĠ
bianĠ chengĠ
shang ĠyiĠ
liu ĠshiĠ
k engĠ
ĠzhuĠ yao
wan ĠrenĠ
ĠshiĠ daiĠ
chanĠ pinĠ
xieĠ zhuĠ
Ġ lanĠ
wenĠwuĠbaoĠhuĠ danĠweiĠ
s aoĠ
muĠ qianĠ
ĠĠĠ daĠ
jia ĠheĠ
Ġ paiĠ
tiao ĠyueĠ
huoĠdeĠ leĠ
ĠjiaĠ ruĠ
ĠĠĠ J
Ġ qiuĠ
zhu ĠyuĠ
ĠdeĠ liĠ
ĠbuĠ zaiĠ
Ġ fan
zhenĠ quĠ
daoĠ luĠ
fenĠ leiĠ
4 8
Ġ saiĠ
Ġ 2010ĠnianĠ
youĠ zhengĠ
ri ĠqiĠ
fuĠ jianĠ
Ġ ranĠ
shouĠ duĠ
fa ĠyuĠ
gongĠyouĠ renĠkouĠ
Ġ que
cuo Ġ
i Ġ
ying ĠjiĠ
qun ĠdaoĠ
biĠ jiaoĠ
ĠyiĠ beiĠ
haiĠ baĠ
duan ĠdeĠ
qing ĠdeĠ
zhanĠ zheng
guiĠ huaĠ
Ġ piĠ
ĠbeiĠ qiĠ
Ġ qiangĠ
Ġ h
qiao ĠzhiĠ
Ġ lvĠ
ĠqiĠ yeĠ
suĠ duĠ
hangĠ kong
nv ĠerĠ
xiĠ buĠ
ĠxiĠ wangĠ
xi ĠweiĠ
ĠzhongĠ huaĠminĠguoĠ
ĠxingĠ zhengĠ
ku a
ĠzaiĠ zhongĠ
ĠbuĠ huiĠ
si ĠheĠ
ze ĠrenĠ
ĠzhiĠ zaiĠ
quĠ daiĠ
ĠgongĠ fenĠ
Ġ yiĠshiĠ
Ġ fei
dong ĠliĠ
meiĠpingĠfangĠ gongĠliĠ
ĠyuĠ weiĠ
dong ĠxiĠ
jiu ĠshiĠzhenĠ
jinĠ gongĠ
Ġ faĠguoĠ
diĠyiĠ geĠ
ĠkeĠ neng
ĠyiĠ yangĠ
e t
R Ġ
ĠĠĠ jianĠ
Ġzhe ĠyiĠ
z unĠ
dou ĠyouĠ
Ġ douĠ
ĠdeĠshiĠ jianĠ
Ġ chen
taiĠ beiĠ
ruĠ xiaĠ
Ġ V
3 5
ĠliĠ ziĠ
ĠĠĠ of
xiang ĠjiĠ
maĠ lai
hou ĠyuĠ
ĠyiĠ renĠ
ĠĠĠ xiĠ
si ĠweiĠ
rong ĠyuĠ
6 0Ġ
Ġ huanĠ
xiangĠ duiĠ
henĠ duoĠ
Ġ gangĠ
ĠĠĠ202 1ĠnianĠ
biaoĠ zhun
ĠfenĠ bie
fu ĠrenĠ
la ĠkeĠ
lianĠ xuĠ
shangĠ wuĠ
jinĠbiaoĠ saiĠ
jieĠ rang
Ġ meiĠyouĠ
ĠĠĠ 2019ĠnianĠ
chengĠ zhenĠ
yu ĠshiĠdeĠ
zong ĠliĠ
ĠciĠ houĠ
qu ĠyiĠ
ming ĠshiĠ
jian ĠyouĠ
ĠerĠ beiĠ
miĠ shuĠ
Ġ geng
wang ĠguoĠ
ci ĠjiĠ
Ġ zhao
ke ĠweiĠ
zhengĠ geĠ
ĠĠĠ fuĠ
min ĠzhongĠ
xiao ĠxiĠ
7 0
tie ĠdaoĠ
zuiĠ houĠyiĠ
8 0
12 Ġ
ĠĠĠ zheĠ
renĠkouĠshuĠliangĠweiĠ renĠ
diĠ sanĠ
Ġ chaoĠ
yeĠ wuĠ
cui Ġ
Ġ200 9ĠnianĠ
Ġ heiĠ
zhanĠ lingĠ
jue ĠdeĠ
Ġ touĠ
ĠĠĠ 2020ĠnianĠ
ren ĠyuĠ
xinĠ jiaĠ
ĠI NS
ĠyiĠ xiaĠ
M Ġ
ĠĠĠ zhuĠ
shouĠ geĠ
waiĠ jiaoĠ
shengĠ chengĠ
tianĠ zhuĠjiaoĠ
jiaĠ naĠdaĠ
qiĠ ta
zhen ĠshiĠ
ĠliĠ shuĠyuĠ
ĠINS EE
ĠchengĠ quĠ
quan ĠdeĠ
la ĠdeĠ
jianĠ chaĠ
fen ĠdeĠ
yuanĠ ziĠ
ĠerĠ qieĠ
wangĠ zhanĠ
ne Ġ
tianĠ wenĠ
niĠ ya
ĠĠĠ 3
reng Ġran
zuoĠ chuĠ
Ġnian ĠjiĠ
ĠzhongĠ xin
yuan ĠyouĠ
Ġran ĠhouĠ
daĠ xue
zhengĠ quanĠ
Ġ ni
Ġ nvĠ
nan ĠjiĠ
dianĠ ying
Ġ manĠ
quĠ xiaoĠ
puĠ taoĠ
juĠ jueĠ
ĠdeĠshiĠ houĠ
Ġ xianĠshiĠ
zhongĠ xinĠ
jieĠ jueĠ
ĠheĠ beiĠ
wu ĠyiĠ
lu ĠshiĠ
jiao ĠweiĠ
ĠrenĠ zaiĠ
xianĠ faĠ
ti ĠjiĠ
cheĠ liangĠ
shun Ġ
ĠĠĠt heĠĠĠ
ziĠ xingĠ
sheng ĠzhiĠ
dian ĠjiĠ
le ĠjiĠ
yunĠ yingĠ
ĠgaiĠ shengĠ
zhanĠ dou
he ĠweiĠ
ĠĠĠ V
da ĠliĠyaĠ
ci ĠyuĠ
ĠĠĠ201 8ĠnianĠ
Ġ chiĠ
diĠ fangĠ
zhen ĠdeĠ
lan ĠxiĠ
ĠzongĠ mianĠjiĠ
he ĠzhiĠ
ĠqiĠ ta
boĠ lanĠ
Ġjie ĠzhiĠ
ming ĠyiĠ
mengĠ guĠ
Ġ dingĠ
mo ĠxiĠ
ĠdeĠ yuĠ
202 2ĠnianĠ
p en
zao ĠnianĠ
ni ĠsiĠ
ĠriĠ ben
Ġyou ĠyiĠ
Ġ xin
gong ĠyiĠ
shu ĠzhiĠ
shao ĠnianĠ
faĠ dongĠ
xiaoĠ xueĠ
ĠdiĠ qiĠ
qing ĠshiĠ
shou ĠweiĠ
ĠrenĠkouĠmiĠduĠ meiĠpingĠfangĠgongĠliĠ
chaĠdeĠ shuĠjuĠ
youĠzhengĠ bianĠmaĠweiĠ
mu ĠshiĠ
gan ĠdaoĠ
diĠyiĠ ciĠ
di e
jiang ĠshiĠ
ĠshiĠzhenĠ bianĠmaĠweiĠ
ĠINSEE ĠshiĠzhenĠbianĠmaĠweiĠ
hui ĠzhiĠ
te ĠliĠ
ĠrenĠkouĠmiĠduĠweiĠ meiĠpingĠfangĠ
zhuo Ġ
ĠĠĠ buĠ
ãĢ İ
ĠxingĠ chengĠ
ĠxiaĠ lingĠshiĠ
ĠjianĠ zhuĠ
xi ĠliĠ
ke ĠzaiĠ
ĠĠĠ nianĠ
ãĢ ı
ye ĠzaiĠ
zuoĠ zhanĠ
xuanĠ quĠweiĠ
xian ĠheĠ
lei ĠjiĠ
yuĠshiĠdeĠ renĠkouĠshuĠliangĠweiĠrenĠ
jingĠ changĠ
meiĠguoĠrenĠkouĠpuĠ chaĠdeĠshuĠjuĠ
Ġ duiĠyuĠ
ĠĠĠ 193
zuo ĠyiĠ
lu ĠyiĠ
bao ĠdeĠ
Ġer ĠrenĠkouĠmiĠduĠweiĠmeiĠpingĠfangĠ
ĠdangĠdiĠ gongĠyouĠrenĠkouĠ
er ĠheĠ
yun ĠxingĠ
ĠhuoĠ jiuĠshiĠzhenĠ
p ang
huo ĠshiĠ
shengĠjiĠ xuanĠquĠweiĠ
wu ĠrenĠ
cong ĠshiĠ
yingĠ chiĠ
gaoĠ dengĠ
kuaiĠ suĠ
yangĠ huaĠ
zhang ĠdaĠ
a t
sheng ĠrenĠ
bian ĠjiĠ
ĠzhongĠ yang
f ou
jin ĠyiĠbuĠ
chong ĠjianĠ
fenĠweiĠ faĠguoĠ
ĠgaiĠshengĠ fenĠweiĠfaĠguoĠ
fa ĠqiĠ
yunĠ shuĠ
Ġ xiang
b e
wan ĠjiaĠ
zhengĠ mingĠ
ĠĠĠ201 7ĠnianĠ
2 ĠrenĠ
Ġ haĠ
gao ĠyuĠ
jiang ĠyuĠ
dui ĠzaiĠ
cheng ĠliĠyuĠ
Ġ shuangĠ
jia ĠzhongĠ
fuĠ qinĠ
yingĠ xiang
fanĠ huiĠ
jieĠrang ĠdeĠshiĠzhenĠ
na ĠdeĠ
mingĠ danĠ
lianĠheĠ guoĠ
suoĠshuĠdeĠ shengĠjiĠxuanĠquĠweiĠ
yanĠjiuĠ suoĠ
ĠteĠ bie
fang ĠqiĠ
zhongĠ huaĠrenĠminĠgongĠheĠguoĠ
daĠ quĠ
tai ĠguoĠ
ĠshiĠ changĠ
ziĠ yuanĠ
gou ĠdeĠ
ju ĠyuĠ
Ġ201 3ĠnianĠ
gongĠ xianĠ
ceng ĠzaiĠ
aoĠlinĠpiĠkeĠ yunĠdongĠhuiĠ
Ġ 2019ĠnianĠ
si ĠliĠ
zi ĠweiĠ
10 0
gong ĠrenĠ
shuoĠ faĠ
zhuĠ chiĠ
yuan ĠliĠ
bei ĠyiĠ
xianĠ xiangĠ
er ĠzaiĠ
ti ĠxiĠ
ce ĠdeĠ
pingĠ taiĠ
biao ĠweiĠ
xingĠ qiĠ
faĠ sheĠ
na ĠliĠ
ĠĠĠ heĠ
F Ġ
dao ĠrenĠ
reĠ daiĠ
xiĠbanĠ yaĠ
ĠbuĠ nengĠ
i t
hua ĠweiĠ
xian ĠjiĠ
luo ĠfuĠ
ĠxiĠ beiĠ
xiaĠ wuĠ
haoĠ xianĠ
Ġ kongĠ
si ĠzaiĠ
ba ĠnianĠ
wenĠ mingĠ
xiaoĠ zuĠ
xian ĠyouĠ
pai ĠdeĠ
bei ĠjiĠ
xiangĠ dangĠ
ĠdiĠ quĠdeĠ
jin ĠyiĠ
jinĠxingĠ leĠ
ĠĠĠ cheĠzhanĠ
ĠĠĠ 2016ĠnianĠ
jie ĠweiĠ
ĠzhiĠ chengĠ
chanĠ yeĠ
Ġer ĠzaiĠ
zhou ĠweiĠ
an ĠshiĠ
shouĠ shangĠ
ĠshiĠyiĠ mingĠ
t eng
ĠĠĠ202 2ĠnianĠ
Ġnian ĠyuĠ
xuanĠ chuanĠ
sheng ĠshiĠ
paiĠ mingĠ
jingĠ shenĠ
chaoĠ zhengĠzhiĠrenĠwuĠ
su ĠdeĠ
nanĠ shengĠ
p e
ĠĠĠ taĠ
jian ĠjiĠ
hao ĠweiĠ
diaoĠ cha
ĠĠĠ chuĠ
za Ġ
Ġ zhengĠshiĠ
zi ĠheĠ
ĠshiĠyiĠ weiĠ
ying ĠliĠ
jueĠ ding
t un
lv ĠshiĠ
zhanĠ houĠ
tongĠ xingĠ
hu ĠshiĠ
shu ĠzhongĠ
Ġ200 8ĠnianĠ
guanĠ zhuĠ
lie ĠweiĠ
202 1ĠnianĠ
xiĠ yangĠ
qiĠ zhongĠyiĠ
fuĠzeĠ guanĠxiaĠ
N Ġ
jiaĠ tingĠ
ziĠ ran
lian ĠdeĠ
xi ĠzaiĠ
jie ĠyiĠ
Ġ201 8ĠnianĠ
3 8
X Ġ
Ġ rang
da ĠweiĠ
shuĠ liangĠ
lanĠ qiuĠ
xi ĠyuĠ
liu ĠyuĠ
Ġ ze
ĠnianĠ jianĠ
wenĠ jianĠ
sai ĠerĠ
duĠ jiaoĠ
Ġyou ĠshiĠ
xuan ĠrenĠ
rengĠ ranĠ
zhengĠ juĠ
taoĠ lunĠ
11 Ġ
daoĠ yanĠ
ĠxiĠ nanĠ
ĠheĠ bingĠ
Ġ ruo
Ġ 2016ĠnianĠ
qiu ĠdeĠ
chengĠ xianĠ
Ġ bai
bo ĠerĠ
ĠyouĠ renĠ
pingĠ lunĠ
wang ĠshiĠ
yan ĠyiĠ
zhongĠ yangĠ
Ġyue ĠzaiĠ
baoĠ chiĠ
reĠ dai
Ġ kang
duo ĠzhongĠ
laiĠ yuanĠ
3 ĠrenĠ
3 7
zhengĠ dangĠ
0ĠnianĠ dai
Ġ201 4ĠnianĠ
ĠĠĠ beiĠ
fenĠ bieĠ
genĠ ju
foĠ jiaoĠ
1 ĠrenĠ
9 0
Ġ Î
lunĠ dun
4 ĠrenĠ
v er
mo ĠxingĠ
an dĠĠĠ
tiaoĠ zhanĠ
m pĠ
ri ĠzhiĠ
3 6
rui ĠshiĠ
ziĠ dongĠ
teĠ bieĠ
ĠdaoĠ leĠ
Ġ guoĠjiĠ
cengĠ jingĠ
Ġ 10ĠyueĠ
lv ĠkeĠ
ĠzhongĠ gongĠ
Ġri ĠqiĠ
diĠ siĠ
sheng ĠyiĠ
fan ĠdeĠ
Ġ peiĠ
Ġzong ĠrenĠkouĠ
xia ĠdeĠyiĠgeĠ
xuĠ yao
biaoĠ mingĠ
xuanĠ quĠ
da ĠyueĠ
xu ĠdeĠ
Ġ ouĠ
jiaoĠ tangĠ
luoĠ ma
hai ĠdeĠ
ĠjiĠ siĠ
ĠzhiĠ mingĠ
g h
fengĠ xianĠ
Ġ201 2ĠnianĠ
keĠliĠ siĠ
O Ġ
ĠshiĠ jianĠyuĠ
x Ġ
18 9
taiĠpingĠ yangĠ
t unĠ
jing ĠweiĠ
15 Ġ
peng ĠyouĠ
eĠ luoĠ
xing ĠyiĠ
ĠliĠ renĠ
nanĠ jingĠ
shen ĠweiĠ
ĠĠĠ201 4ĠnianĠ
jianĠ duiĠ
ĠdeĠdiĠ fangĠ
o m
ĠjiĠ huĠ
Ġ201 5ĠnianĠ
wu ĠweiĠ
ĠwuĠ keĠ
m ang
ĠbeiĠ jingĠ
gong ĠzhongĠyangĠ
zheng ĠbuĠ
ĠyiĠ liĠ
5 ĠrenĠ
ĠzhiĠ xianĠ
yanĠ geĠ
jiao ĠbuĠ
ru ĠheĠ
xingĠ buĠ
k en
jing ĠyouĠ
Ġ ciĠshiĠ
qian ĠshiĠ
chongĠ tuĠ
queĠ dingĠ
ĠguoĠ wangĠ
daoĠ daĠ
laiĠ shuoĠ
ĠĠĠ201 5ĠnianĠ
xunĠ huiĠ
bo ĠdeĠ
yingĠ geĠlanĠ
24 Ġ
Ġ chuangĠ
tui ĠyiĠ
i r
jian ĠrenĠ
ĠĠĠ xianĠ
biao ĠzhiĠ
jieĠ keĠ
Ġ longĠ
xia ĠshiĠ
qian ĠzhiĠ
lin ĠdeĠ
shangĠ yingĠ
Ġ ben
Ġ biaoĠshiĠ
xiao ĠguoĠ
liang ĠzhongĠ
ling ĠdeĠ
Ġ huang
Ġ202 1ĠnianĠ
shu ĠyiĠ
mei ĠnianĠ
dangĠ xuanĠ
ĠĠĠ201 3ĠnianĠ
dao ĠheĠ
p enĠ
ye ĠbuĠ
fengĠ baoĠ
ĠĠĠ suiĠ
lei ĠxingĠ
chuĠ shengĠ
shenĠ qingĠ
zhang ĠshiĠ
ĠdaĠ xue
Ġ200 7ĠnianĠ
jiu ĠnianĠ
Ġ e
guangĠ zhouĠ
queĠ zhenĠ
biao ĠdaĠ
shengĠ huo
lianĠ bang
zhongĠ yaoĠ
jiaoĠ quĠ
pingĠ mianĠ
biĠ yaĠ
ĠgongĠ yuanĠ
hou ĠyouĠ
qiĠ yeĠ
qiuĠ changĠ
xie ĠdeĠ
lunĠ dunĠ
ĠĠĠ de
gu a
yuanĠ suĠ
Ġ zaoĠ
dui ĠyiĠ
tiaoĠ zhengĠ
Ġ canĠ
anĠ jianĠ
ĠĠĠ U
zi ĠyiĠ
Ġceng ĠrenĠ
cha ĠyiĠ
luĠ siĠ
duiĠ shouĠ
ĠliĠ lunĠ
yuanĠ zhangĠ
Â °
ĠerĠrenĠkouĠmiĠduĠweiĠmeiĠpingĠfangĠ qianĠmiĠ
50 Ġ
ĠjiĠ beiĠ
yuan ĠzaiĠ
ĠshiĠ xianĠ
ĠliĠ daĠ
chuĠ shengĠyuĠ
puĠ tongĠ
202 3ĠnianĠ
ĠzhiĠ fuĠ
yaoĠ qingĠ
zhengĠ zhuangĠ
ruĠ ciĠ
neiĠ rong
tuanĠ duiĠ
ĠzhiĠ zaoĠ
ï ½
xiaoĠ shouĠ
Ġ qinĠ
xing ĠrenĠ
xi ĠheĠ
jieĠ jinĠ
lu ĠyuĠ
ĠjinĠ ruĠ
ĠtaĠ menĠdeĠ
Ġ bi
Ġ201 7ĠnianĠ
bao ĠweiĠ
heng ĠxingĠ
yinĠ hang
yan ĠzhiĠ
la ĠfuĠ
ĠĠĠ202 3ĠnianĠ
3 1Ġ
xueĠ shuĠ
zuo ĠshiĠ
ru ĠguoĠ
wangĠ luĠ
ĠyiĠ xiĠ
ĠerĠ qie
qi aĠ
you ĠweiĠ
hui ĠjiĠ
dianĠ taiĠ
beiĠrenĠ weiĠshiĠ
ĠzhongĠ youĠ
shouĠ ruĠ
ta ĠshiĠ
L Ġ
ĠyiĠ shangĠ
anĠ naĠ
Ġjie ĠguoĠ
Ġ 2020ĠnianĠ
caiĠ yong
you ĠliĠ
d ow
nu ĠliĠ
lun ĠdeĠ
ĠzhongĠ huaĠ
xin ĠshiĠ
ĠyuĠ ciĠ
jingĠ chaĠ
huoĠ dong
fan ĠyiĠ
jieĠfangĠ junĠ
Ġ 8ĠyueĠ
Ġ qiĠyuĠ
jia ĠrenĠ
quan ĠshiĠ
i c
xiaoĠ zhangĠ
gengĠ mingĠweiĠ
ziĠzhiĠ quĠ
ting ĠdeĠ
Ġ gao
shuĠ ziĠ
haiĠ ziĠ
Ġ200 5ĠnianĠ
zhuĠ yanĠ
min ĠdeĠ
lan ĠkeĠ
chuĠ shenĠ
qu ĠheĠ
chuang ĠliĠ
zongĠ duĠ
xu ĠshiĠ
Ġ zheng
Ġ laoĠ
ge ĠyouĠ
3 9
jiang ĠxiĠ
Ġyue ĠyuĠ
jiaĠ geĠ
gu aiĠ
touĠ piaoĠ
dan ĠdeĠ
Ġ maiĠ
xunĠ suĠ
wenĠ ziĠ
banĠ gongĠshiĠ
juĠ xingĠdeĠ
he ĠyuĠ
hou ĠqiĠ
jiangĠ xiangĠ
tion ĠĠĠ
sun ĠshiĠ
00Ġ wanĠ
6 ĠrenĠ
25 Ġ
guanĠ dianĠ
tion Ġ
g aĠ
ke ĠyuĠ
wu ĠyuĠ
dai ĠyouĠ
wenĠ zhangĠ
l eng
ĠtongĠ changĠ
ĠĠĠ wuĠ
202 4ĠnianĠ
sa ĠkeĠ
g a
ka ĠsiĠ
ĠjiĠ benĠ
Ġ s
ĠĠĠ xiaĠ
siĠ chuanĠ
4 7
ĠdeĠyiĠ zuoĠ
jiang ĠdiĠ
Ġ xiongĠ
paiĠ ming
shaoĠ shuĠ
kan ĠdaoĠ
nengĠ gou
ĠĠĠ geĠ
zai ĠzhiĠ
ĠliĠ heĠ
xiang ĠyuĠ
tou ĠxiangĠ
jieĠ quanĠguoĠ
luĠdiĠ mianĠjiĠweiĠ
zhan ĠjiĠ
fuĠ qin
shuiĠyuĠ mianĠjiĠweiĠ
ĠdaĠ quĠ
ĠjiĠ zheĠ
ĠdeĠdiĠ quĠ
huiĠ shangĠ
aoĠ menĠ
wen ĠyiĠ
12 ĠnianĠ
xingĠ jianĠ
Ġ suoĠyouĠ
ming ĠyuĠ
jiaoĠ liuĠ
kang ĠyiĠ
zhenĠ duiĠ
4 9
haiĠ anĠ
xin ĠrenĠ
tiĠ mingĠ
Ġ duo
ĠĠĠ keĠ
zuoĠ biaoĠweiĠ
jie ĠyuĠ
jingĠ dianĠ
ruĠ kouĠ
201 2ĠnianĠ
xiĠ beiĠ
wai ĠguoĠ
jianĠ shaoĠ
ziĠ ranĠ
ï½ ŀ
tianĠ jinĠ
Ġ18 9
wen ĠdeĠ
poĠ huaiĠ
xingĠ xingĠ
xi ĠzhiĠ
zhang ĠyuĠ
e a
4 5
zhangĠ keĠdaĠ
cuo ĠshiĠ
Ġa mpĠ
Ġ200 6ĠnianĠ
chuĠ faĠ
ming ĠzhiĠ
ĠshiĠ diĠ
jun ĠdiĠ
pei ĠheĠ
ĠshiĠ liĠ
ĠzaiĠ 199
ĠdangĠzhongĠ luĠdiĠmianĠjiĠweiĠ
ĠerĠ shuiĠyuĠmianĠjiĠweiĠ
Ġ zaiĠyiĠ
Ġ tuoĠ
bianĠ jieĠ
Ġ cheĠzhanĠ
ba ĠxiĠ
xianĠ changĠ
fang ĠweiĠ
xuanĠ ze
fu ĠjiĠ
chi ĠdeĠ
xi ĠyiĠ
xianĠ luĠ
rong ĠyiĠ
ĠzhongĠ yaoĠ
dao ĠjiĠ
Ġ lin
guang ĠxiĠ
luo ĠdiĠ
shan ĠjiĠ
touĠ ruĠ
fang ĠzaiĠ
cunĠ zhuangĠ
T A
ha ĠerĠ
duiĠ wuĠ
dengĠ luĠ
Ġ juĠliĠ
da ĠzhiĠ
ĠbeiĠ erĠ
da ĠzhongĠ
ĠdeĠzhiĠ chiĠ
Ġyue ĠyouĠ
ge ĠyiĠ
ni ĠdeĠ
gongĠ minĠ
nan ĠdeĠ
yueĠ taiĠ
ĠĠĠxingĠzhengĠ quĠhuaĠ
piĠ zhunĠ
chengĠ zuoĠ
ĠzaiĠ zheĠ
jianĠ zaoĠ
chengĠ xuĠ
Ġcong ĠerĠ
ĠweiĠ lianĠ
geĠ leiĠ
qianĠ shuĠ
yongĠ huĠ
d o
Ġ haiĠyouĠ
yuanĠ huiĠ
chang ĠyiĠ
ã ĥ
cun ĠdeĠ
dai ĠliĠ
ni ao
e s
ĠĠĠ201 2ĠnianĠ
Ġ 9ĠyueĠ
201 8ĠnianĠ
baoĠ liuĠ
tian ĠdeĠ
Ġyue ĠweiĠ
biĠ yeĠyuĠ
ĠzaiĠ beiĠ
Ġ jingĠguoĠ
nuo ĠweiĠ
yinĠ faĠ
Ġ jiĠshiĠ
du ĠyuĠ
g Ġ
er ĠrenĠ
jian ĠzhongĠ
ziĠ xunĠ
yingĠ pianĠ
ke ĠheĠ
Ġ tanĠ
hua ĠyuĠ
ziĠ jinĠ
tui ĠdongĠ
ĠshiĠ zhongĠguoĠ
tuĠerĠ qiĠ
tu ĠdeĠ
zhan ĠdiĠ
hun ĠheĠ
200 8ĠnianĠ
ĠzhiĠ xiaĠ
juĠ zhuĠ
wenĠ dingĠ
haiĠ daoĠ
biĠ saiĠzhongĠ
jun ĠyiĠ
tiĠ gaoĠ
leĠ siĠ
shu ĠheĠ
geĠ geĠ
ĠxiangĠ gang
Y ou
Ġ formulaĠ
ĠtiĠ zhangĠkeĠdaĠ
jinĠ ru
xi ĠzhongĠ
daĠ fuĠ
nanĠ beiĠ
hu ĠyuĠ
zi ĠliĠ
xinĠ haoĠ
fangĠ wenĠ
qiĠ ziĠ
Ġ 7ĠyueĠ
chu ĠjiĠ
yong ĠyiĠ
tian ĠqiĠ
jieĠshuĠ houĠ
ĠweiĠfuĠ qiĠyuĠ
ma ĠkeĠ
ĠrenĠ menĠ
cheng ĠyuĠ
heng ĠliĠ
gong ĠyuĠ
p er
di ĠjiĠ
zhuang ĠjiaĠ
xin ĠyiĠ
xianĠ houĠ
U Ġ
Ġ saĠ
ganĠ ran
ĠwoĠ menĠ
Ġ deng
201 4ĠnianĠ
ci ĠweiĠ
mo ĠerĠ
zuiĠ chuĠ
benĠ tuĠ
jian ĠheĠ
ĠshiĠ quĠ
jinĠ shuĠ
zhan ĠzhongĠ
houĠ xuanĠrenĠ
ĠyinĠ duĠ
jia ĠyuĠ
xiao ĠliĠ
Ġta ĠyiĠ
c Ġ
Ġ zhuan
zhuĠ mingĠ
jie ĠyouĠ
guangĠ fanĠ
Ġ202 2ĠnianĠ
Ġ 12ĠyueĠ
zhou ĠfuĠ
pinĠ paiĠ
gouĠ chengĠ
ĠzhiĠ nengĠ
8 ĠrenĠ
ni ĠkeĠ
zhuĠ mingĠdeĠ
she ĠyuĠ
zhong ĠliĠ
shang ĠrenĠ
xiaĠ laiĠ
Ġ an
heĠ zuoĠ
xueĠ huiĠ
ĠyiĠ daĠliĠ
mouĠ xieĠ
ĠjiĠ tuan
chuĠ zhanĠ
Ġ 21Ġ
shuiĠ pingĠ
Ġ 11ĠyueĠ
lingĠ waiĠ
ĠdeĠyiĠ zhiĠ
ĠnianĠ duĠ
ĠzaiĠ zhongĠguoĠ
yin ĠdeĠ
buĠ tongĠdeĠ
ĠdeĠshiĠ quĠweiĠ
Ġbing ĠyiĠ
ĠĠĠ202 4ĠnianĠ
cheng ĠzhiĠ
jiaĠ zuĠ
jiangĠ suĠ
in dow
zao ĠyuĠ
zhu ĠbuĠ
ĠĠĠdeĠ shiĠ
sa ĠerĠ
ĠzhongĠguoĠ gongĠchanĠdangĠ
dang ĠshiĠdeĠ
paiĠ chuĠ
3 3
er ĠyiĠ
buĠ duiĠ
ĠdiĠ qu
ĠjiaĠ shangĠ
4 6
ĠĠĠ erĠ
shan ĠdaĠ
keĠ siĠ
xuĠ qiuĠ
Ġhan sĠ
teĠ shuĠ
Ġt wĠ
ĠĠĠ in
nan ĠyiĠ
jieĠ rangĠ
bo ĠsiĠ
suo ĠdeĠ
xiangĠ siĠ
shan ĠdeĠ
meiĠ geĠ
daĠ chengĠ
aoĠ daĠliĠyaĠ
00 ĠnianĠ
biaoĠ mianĠ
ĠĠĠ qingĠ
lv ĠweiĠ
Ġ xianĠzaiĠ
Ġ rangĠ
xie ĠrenĠ
ĠbuĠ fen
banĠ gongĠ
r ao
junĠ gongĠ
bei ĠzhiĠ
201 5ĠnianĠ
18 ĠnianĠ
siĠ keĠ
chang ĠheĠ
jieĠ gou
changĠ pianĠ
ĠjiĠ guanĠ
sheĠhuiĠ zhuĠyiĠ
sui ĠdaoĠ
yingĠ wenĠ
ĠdanĠ taĠ
zhu ĠyouĠ
zhuang ĠzhiĠ
que ĠfaĠ
jingĠ yanĠ
yinĠ suĠ
jian ĠzaiĠ
22 Ġ
ĠxiĠ baoĠ
l l
ĠyuĠ renĠ
faĠ chuĠ
lingĠ tuĠ
Ġ xunĠ
pingĠfangĠ gongĠliĠ
wa ĠerĠ
ï¼ ı
16 Ġ
Ġ pa
ĠjiĠ renĠ
ĠĠĠ yuanĠ
ti ĠshiĠ
lu ĠzhiĠ
ĠrenĠ leiĠ
tu ĠzhongĠ
kong ĠzhongĠ
weiĠ zhiĠ
jueĠ se
8 0Ġ
b er
jiang ĠdeĠ
sha ĠsiĠ
ti ĠyiĠ
minĠ jianĠ
ĠhouĠ lai
Ġ eĠluoĠsiĠ
ci ĠyiĠ
hua ĠheĠ
yong ĠshiĠ
geng ĠjiaĠ
Ġ Ñ
Ġ bian
201 7ĠnianĠ
ĠjiĠ chengĠ
ĠĠĠ yuĠshiĠdeĠrenĠkouĠshuĠliangĠweiĠrenĠ
ĠĠĠ suoĠshuĠdeĠshengĠjiĠxuanĠquĠweiĠ
10 ĠnianĠ
tiĠ shengĠ
ĠĠĠdeĠ youĠzhengĠbianĠmaĠweiĠ
ĠĠĠyuĠ jieĠrangĠdeĠshiĠzhenĠ
ĠĠĠdeĠshiĠ quĠweiĠ
ĠzaiĠ daĠ
23 Ġ
le ĠshiĠ
ĠguoĠ chengĠ
huiĠ yingĠ
h o
kongĠ junĠ
zeng ĠzhangĠ
xiaoĠ shuo
guangĠ gaoĠ
Ġ zhang
zong ĠbuĠ
keĠ chengĠ
guanĠ biĠ
guĠ wenĠ
hanĠ shuĠ
er ĠyuĠ
da ĠyuĠ
ĠdiĠ daĠ
ĠtaĠ yeĠ
Ġ xiuĠ
28 ĠnianĠ
Ġ queĠ
18 8
ĠjiĠ nianĠ
te ĠerĠ
7 ĠrenĠ
ĠshiĠ meiĠguoĠ
ĠweiĠ shengĠ
shanĠ mai
xianĠ xingĠ
anĠ paiĠ
muĠ qinĠ
ĠbingĠ jiangĠ
zhengĠfu ĠdeĠ
woĠ menĠ
chao ĠshiĠ
feiĠ jianĠzhiĠ
ĠshengĠ huo
ĠxuĠ duoĠ
dai ĠbuĠ
quanĠ mianĠ
ĠĠĠ xinĠ
fang ĠbuĠ
ĠjiĠ youĠ
ĠheĠ xiĠ
xu ĠkeĠ
geĠ erĠ
Ġ mi
minĠzhuĠ dangĠ
zhuang ĠshiĠ
lang ĠdeĠ
jiaĠ ru
Ġ 6ĠyueĠ
25 ĠnianĠ
Ġbing ĠyouĠ
Ġh kĠ
ĠdeĠguoĠ jiaĠ
xingĠ taiĠ
cheĠ zhan
yunĠ xuĠ
k eng
shou ĠzhongĠ
jun ĠjiĠ
diĠ guoĠ
Ġ tingĠ
bao ĠliĠ
geĠ daĠ
ĠerĠ gaiĠ
zhuan ĠjiaĠ
gongĠ changĠ
hu ĠdeĠ
dang ĠzhongĠ
Ġ wang
ju ĠbuĠ
mingĠ lingĠ
pei ĠyinĠ
dui ĠshiĠ
rui ĠdianĠ
zuĠ chengĠdeĠ
Ġ jingĠjiĠ
ĠĠĠ 2010ĠnianĠ
luo ĠkeĠ
jiuĠ dianĠ
wei ĠyiĠgeĠ
tuĠ shuĠguanĠ
ĠzaiĠ meiĠguoĠ
huiĠ beiĠ
ouĠ yuanĠ
neiĠ luĠ
duo ĠrenĠ
201 1ĠnianĠ
13 Ġ
ĠheĠ erĠ
seĠ lieĠ
hua ĠzhongĠ
5 5
ĠyueĠ taiĠ
shan ĠshiĠ
bingĠ meiĠyouĠ
ĠĠĠ xiangĠ
ge ĠzhiĠ
ĠkeĠ xueĠ
Ġ laiĠziĠ
sanĠ jiaoĠ
siĠ xiangĠ
ĠqiĠ zhongĠyiĠ
jingĠ zhengĠ
feiĠjianĠzhiĠ diĠquĠ
Ġ 5ĠyueĠ
gongĠ siĠdeĠ
Ġ hong
fen ĠliĠ
ba ĠweiĠ
mingĠ mingĠweiĠ
3 4
ma ĠerĠ
zhuan ĠyiĠ
faĠ dianĠ
ĠxiĠ jieĠ
Ġ na
bing ĠshiĠ
jinĠ paiĠ
guo ĠweiĠ
laiĠ daoĠ
3 2Ġ
f o
shuĠ xueĠ
jiu ĠzhiĠ
xie ĠshiĠ
tan ĠkeĠ
ĠyouĠ qiĠshiĠ
xiaĠ jiangĠ
ĠĠĠ201 1ĠnianĠ
Ġ maoĠ
huanĠ yingĠ
jiu ĠdeĠ
ĠyiĠ jiaĠ
Ġ zhiĠshiĠ
24 ĠnianĠ
shengĠ zhangĠ
yanĠjiuĠ yuanĠ
ĠdiĠ xiaĠ
yingĠ yunĠ
shouĠ fuĠ
ĠshiĠjieĠ beiĠ
ĠliĠ ya
hua ĠrenĠ
moĠxiĠ geĠ
f i
Ġ ao
jun ĠyouĠ
deng ĠweiĠ
huiĠ zhangĠ
ĠĠĠjiaĠ zuĠ
19 ĠnianĠ
o na
5Ġ miĠ
xiu ĠgaiĠ
ĠweiĠyuanĠ hui
ĠliĠ buĠ
yongĠ laiĠ
ĠfaĠ xianĠ
ĠjiĠ chuĠ
lingĠ xianĠ
Ġ yeĠyouĠ
K Ġ
que ĠrenĠ
yeĠ beiĠ
dianĠ naoĠ
18 Ġ
jieĠ hunĠ
shou ĠzhiĠ
dui ĠqiĠ
ling ĠbuĠ
faĠ anĠ
A S
ĠĠĠ s
ĠdanĠ youĠyuĠ
a u
Ġ feng
wen ĠshiĠ
chengĠweiĠ leĠ
Ġ zhengĠfuĠ
ziĠ muĠ
beiĠ erĠ
ĠĠĠ zhĠ
ĠbuĠ tongĠdeĠ
ĠdiĠ tieĠ
shenĠ tiĠ
ĠgongĠ zuoĠ
maoĠ qiuĠ
gongĠ juĠ
sui ĠjiĠ
27 ĠnianĠ
Ġ minĠguoĠ
liao ĠjieĠ
feiĠ lvĠ
ĠdeĠdiĠ erĠ
t erĠ
zhu ĠjiĠ
boĠ fangĠ
ĠshiĠyiĠ ge
baiĠ seĠ
ĠĠĠ jieĠzhiĠ
201 3ĠnianĠ
chuĠ xiĠ
shenĠ jingĠ
ĠtaĠ beiĠ
caiĠ quĠ
Ġ 4ĠyueĠ
ĠheĠ diĠ
i s
duo ĠnianĠ
juĠ zhangĠ
21 ĠnianĠ
lieĠ biaoĠ
ĠshiĠyiĠ nianĠ
Ġ chuĠyuĠ
14 ĠnianĠ
ĠyiĠ nianĠ
chuanĠ boĠ
7 0Ġ
shou ĠxiĠ
gu ĠdeĠ
dang ĠyuĠ
ze ĠyouĠ
ĠweiĠ weiĠ
ĠtaĠ haiĠ
tieĠ lu
chang ĠdiĠ
cheĠ xiaoĠ
ĠzhongĠguoĠ renĠminĠ
Ġ 30
lv ĠxingĠ
9 ĠrenĠ
jiaoĠ lianĠ
huoĠ jianĠ
banĠ faĠ
zhuangĠ kuangĠ
canĠjiaĠ leĠ
ma ĠsiĠ
zhe ĠliĠ
zhuĠ zuoĠ
Ġ18 8
wangĠ qiuĠ
Ġ kangĠ
tong ĠyuĠ
che ĠdeĠ
fu ĠyouĠ
ma ĠdeĠ
su ĠweiĠ
qiuĠ huiĠ
neiĠ geĠ
Ġ hai
liang ĠshiĠ
ĠweiĠ liĠ
yanĠchangĠ huiĠ
ye ĠheĠ
zuĠ jianĠ
ĠĠĠ zhongĠguoĠ
ĠerĠ fuĠ
ĠĠĠ li
ĠyiĠ jianĠ
ĠliĠ ru
dian ĠqiĠ
ni e
wanĠ shangĠ
huaĠ yuanĠ
liang ĠrenĠ
ĠyiĠ juĠ
zhanĠ taiĠ
ziĠ zhuĠ
ĠqiĠ laiĠ
yueĠ hanĠ
ju ĠheĠ
tai ĠjiĠ
huaĠ shengĠ
zhaoĠ kaiĠ
ĠweiĠ renĠ
ni angĠ
s ou
xiangĠ xiĠ
chanĠ pin
shuoĠ mingĠ
maĠlai ĠxiĠyaĠ
a s
Ġ zhuangĠ
ruĠ xuanĠ
chanĠ shengĠdeĠ
ĠrenĠminĠ zhengĠfuĠ
wu ĠheĠ
chuĠ xianĠzaiĠ
2020ĠnianĠ meiĠguoĠrenĠkouĠpuĠchaĠdeĠshuĠjuĠ
xue ĠheĠ
ĠweiĠ nengĠ
yinĠ du
ĠshangĠ haiĠ
Ġ 00Ġ
ĠzaiĠ xiĠ
tongĠ cheĠ
yaoĠ wuĠ
Ġ 0Ġ
xu ĠliĠyaĠ
chao ĠdeĠ
leĠ taĠ
ĠjieĠ muĠ
qin ĠshiĠ
7 5
Ġ quanĠguoĠ
xin ĠjiĠ
ĠyiĠ zaiĠ
ĠyouĠ xiaoĠ
- -
ti ĠzhongĠ
or Ġ
kuo ĠdaĠ
15 ĠnianĠ
xueĠ xiao
suiĠ houĠ
1 ĠĠĠ
Ġ taoĠ
suan ĠjiĠ
22 ĠnianĠ
ĠzhiĠ diĠ
ze ĠweiĠ
ĠliĠ shuĠ
siĠ teĠ
wangĠ chaoĠ
3 ĠgeĠ
Ġ yingĠyuĠ
ĠĠĠ qianĠ
ĠdaĠ buĠfenĠ
guiĠ zeĠ
shanĠxiĠ shengĠ
xing ĠzhongĠ
tian ĠshiĠ
aoĠ diĠliĠ
tai ĠshiĠ
zhouĠ bianĠ
ri ĠzaiĠ
kong ĠbuĠ
huĠ beiĠ
ĠshiĠdeĠ yiĠ
gongĠ huiĠ
tuo ĠliĠ
mingĠ xianĠ
ĠyouĠ xieĠ
shen ĠshiĠ
29 ĠnianĠ
shangĠ hai
cheng ĠliĠdeĠ
shu aĠ
ĠfuĠ jinĠ
tong ĠbuĠ
chang ĠyuĠ
daĠ buĠfenĠ
Ġ zhongĠdeĠ
daĠ luĠdeĠ
teĠ seĠ
ĠgongĠ chengĠ
Ġ qian
wu ĠyueĠ
xingĠ xiangĠ
sheĠ jiĠdeĠ
lao ĠdongĠ
kaoĠ lvĠ
Ġ co
geĠ lan
zhuang ĠdeĠ
xingĠ quĠ
cu ĠjinĠ
11 ĠnianĠ
ĠyiĠ tongĠ
G Ġ
ĠzhiĠ duĠ
nan ĠshiĠ
ĠerĠ buĠ
ĠxiĠ laĠ
ĠxingĠ dongĠ
ĠliĠshiĠ shangĠ
jin ĠbuĠ
ding ĠyuĠ
zhuĠ changĠ
Ġliang ĠrenĠ
da ĠheĠ
lv ĠdeĠ
long ĠdeĠ
ĠjiĠ huiĠ
Ġ 20
jiaoĠ xueĠ
ĠmingĠ chaoĠzhengĠzhiĠrenĠwuĠ
daiĠbiao ĠdaĠhuiĠ
caoĠ zuoĠ
ĠC Ġ
bao ĠshiĠ
200 9ĠnianĠ
14 Ġ
ĠjiĠ erĠ
ping ĠweiĠ
ĠzheĠ jiangĠ
xiaĠjiĠ aoĠlinĠpiĠkeĠyunĠdongĠhuiĠ
puĠ bianĠ
3 5Ġ
gong ĠzhiĠ
18 7
yuanĠ gongĠ
I N
a ĠĠĠ
ceng ĠyuĠ
2 ĠĠĠ
ri ĠdeĠ
anĠ quan
chang ĠzaiĠ
de r
zhuan ĠxiangĠ
u r
jie ĠrenĠ
wuĠ zhuangĠ
changĠ pian
Ġ daiĠbiaoĠ
13 ĠnianĠ
wenĠ xianĠ
piaoĠ fangĠ
ĠyuĠ leĠ
yingĠ gaiĠ
6 5
feiĠ zhouĠ
jiuĠ longĠ
hongĠ seĠ
Ġ 3ĠyueĠ
ĠĠĠ xiaoĠ
lian ĠrenĠ
sa ĠsiĠ
dao ĠzhongĠ
ci ĠzaiĠ
ĠshiĠ tuĠ
kou ĠweiĠ
ĠfuĠ jianĠ
luo ĠjiĠ
yuanĠ xingĠ
dongĠ fangĠ
wuĠ taiĠ
zhuĠ zhangĠ
zheng ĠheĠ
23 ĠnianĠ
ĠxiĠ juĠ
fenĠ buĠyuĠ
zuiĠ hou
shou ĠyiĠ
biĠ sai
Ġ202 3ĠnianĠ
jieĠ shaoĠ
la ĠjiĠ
tongĠ daoĠ
zhao ĠdaoĠ
n o
meiĠ guoĠdeĠ
ĠĠĠ guoĠ
ĠbuĠ keĠ
lingĠ daoĠrenĠ
yunĠ dong
caiĠ liaoĠ
4 4
a c
e c
g i
sui ĠshiĠ
Ġ nvĠxingĠ
ĠĠĠ congĠ
qiĠzhongĠyiĠ zhongĠ
Ġ yaoĠqiuĠ
g unĠ
zhe ĠzaiĠ
jingĠ cha
ĠweiĠ laiĠ
Ġ qiaoĠ
siĠ lingĠ
chuĠ laiĠ
Ġ sĠĠĠ
ĠliĠ miĠ
ling ĠdiĠ
200 7ĠnianĠ
ĠshiĠweiĠ leĠ
ĠdeĠzhiĠ wuĠ
ĠĠĠ zaoĠnianĠ
wei ĠĠĠ
17 ĠnianĠ
hun ĠyinĠ
mingĠ xingĠ
Ġ sun
ĠweiĠ xingĠ
ĠxiĠ ya
dongĠ beiĠbuĠ
tiĠ daoĠ
qianĠ wang
faĠxianĠ leĠ
ti ĠzhiĠ
bian ĠshiĠ
chuĠ kouĠ
dianĠ huaĠ
Ġ2001ĠnianĠ renĠkouĠ
u b
jin ĠyouĠ
ĠweiĠ heĠ
dongĠ nanĠbuĠ
hu ĠbuĠ
ĠweiĠ huiĠ
Ġ200 4ĠnianĠ
hua ĠjiĠ
xu ĠzaiĠ
feiĠ chuĠ
ĠzheĠ xie
huoĠ zheĠ
bao ĠzhiĠ
liu ĠzaiĠ
ĠfaĠ xingĠ
Ġ ka
ge ĠheĠ
ĠxiĠ buĠ
ĠĠĠ200 8ĠnianĠ
Ġ panĠ
yin ĠdiĠ
Ġ à
daĠ chenĠ
siĠ geĠ
chi ĠyouĠ
wan ĠdeĠ
ĠĠĠ i
ke ĠyouĠ
ĠrenĠ shuĠ
ĠxingĠ qiĠ
Ġ hao
ĠzhiĠ ziĠ
Ġri ĠyuĠ
ruan ĠjianĠ
fangĠ wuĠ
duiĠ zhangĠ
gengĠ duoĠ
ĠĠĠI n
ĠbuĠ menĠ
zhengĠ changĠ
9 0Ġ
mei ĠdeĠ
ĠyiĠ ban
ĠweiĠ wuĠ
jieĠ mu
zhuĠ jueĠ
yongĠ zuoĠ
liang ĠnianĠ
tui ĠjinĠ
f Ġ
Ġ guanĠyuĠ
26 ĠnianĠ
junĠ quĠ
ben ĠdiĠ
taiĠ ziĠ
douĠ huiĠ
S TĠ
yeĠ huiĠ
tongĠ yangĠ
18 6
guoĠjiĠ jiĠ
gaoĠsuĠ gongĠluĠ
suo ĠzaiĠ
bian ĠxingĠ
jue ĠshiĠ
Ġ hanĠguoĠ
ta ĠyuĠ
4 5Ġ
xianĠ jinĠ
yaĠliĠ shanĠdaĠ
Ġ lu
jiao ĠyouĠ
b engĠ
Ġ jiaoĠyuĠ
jiao ĠdaĠ
ĠerĠshuiĠyuĠmianĠjiĠweiĠ 0
ãĥ »
Ã Ĺ
qingĠ baoĠ
bao ĠyuĠ
gui ĠdeĠ
dai ĠweiĠ
202 5ĠnianĠ
nei ĠyouĠ
16 ĠnianĠ
riĠ junĠ
ĠĠĠ202 5ĠnianĠ
tai ĠrenĠ
duiĠ xiangĠ
jing ĠyuĠ
tuan ĠdeĠ
xia ĠyouĠ
dengĠ shangĠ
xiang ĠyiĠ
haiĠ waiĠ
ĠdaĠ chengĠ
anĠ huiĠ
duiĠ waiĠ
zhou ĠqiĠ
zhangĠ aiĠ
zuoĠ quĠ
1ĠyueĠ 1ĠriĠ
poĠ huai
fu ĠzaiĠ
ĠdaĠ liangĠ
gouĠ zaoĠ
Ġ biaoĠ
Ġ caoĠ
Ġ zaoĠchengĠ
xiaoĠ quĠ
200 0ĠnianĠ
yongĠ tuĠ
cheng ĠnianĠ
ĠerĠ gaiĠdiĠ
ĠxiĠ tong
jun ĠyuĠ
la ĠheĠ
yanĠ shenĠ
qiang ĠdeĠ
gaiĠ shanĠ
lingĠ xiuĠ
jia ĠyouĠ
aoĠyunĠ huiĠ
gao ĠjiaĠ
ĠzhiĠ dingĠ
ĠheĠ pingĠ
ĠĠĠ200 9ĠnianĠ
san ĠjiĠ
xiĠ nanĠ
Ġ mai
chang ĠyouĠ
faĠ shouĠ
haiĠ xiaĠ
ĠdeĠshiĠ jieĠ
Ġ nai
biao ĠdeĠ
4 ĠgeĠ
Ġ xianĠrenĠ
mei ĠliĠ
ĠyiĠ duĠ
queĠzhenĠ bingĠliĠ
dun ĠdeĠ
Ġsui ĠzheĠ
Ġ tuiĠ
ĠyueĠ nanĠ
ã ģ
zhengĠ tiĠ
leĠ daĠ
ĠjiaĠ naĠdaĠ
miĠ miĠ
geĠ lunĠ
guan ĠshiĠ
shuĠ ruĠ
zengĠ zuĠ
Ġyin ĠerĠ
leĠ taĠdeĠ
xiaĠ xiaĠdeĠyiĠgeĠ
ĠĠĠ andĠĠĠ
yun ĠshiĠ
sui ĠzhuĠ
shouĠ luĠ
yunĠ zuoĠ
jue ĠyiĠ
ĠzaiĠ jiaĠ
canĠ mou
senĠ linĠ
Ġ qi
g un
longĠ jiangĠ
Ġ 7Ġ
ju ĠyiĠ
ĠyuĠ heĠ
Ġ shengĠyuĠ
ĠzaiĠ 19
yin ĠheĠ
banĠshiĠ chuĠ
fei ĠliĠ
wuĠ siĠ
ĠerĠ yanĠ
dongĠ zuoĠ
shuĠ yuanĠ
xiangĠ zhengĠ
Ġ shaoĠ
bei ĠshiĠweiĠ
zhan ĠzhiĠ
zuo ĠrenĠ
chuĠ daoĠ
liangĠ ciĠ
shanĠ quĠ
Ġ200 2ĠnianĠ
Ġ zu
kang ĠriĠ
kaiĠ zhanĠ
6 8
A T
â Ķ
junĠ guanĠ
Ġ zhong
jiangĠ huiĠ
shou ĠrenĠ
du ĠheĠ
de ĠĠĠ
suo ĠshiĠ
shouĠ zhangĠ
ĠshiĠwuĠ keĠ
ĠzhongĠ zaiĠ
huiĠ yuanĠ
deng ĠdeĠ
renĠ daĠ
ĠdongĠ linĠ
Ġnan ĠzhiĠ
Ġ po
bin ĠhaiĠ
ĠweiĠ keĠ
gu ĠliĠ
Ġ sheĠjiĠ
xiaĠ ling
xiu ĠfuĠ
17 Ġ
chuang ĠjianĠ
zhou ĠjiĠ
zhuang ĠbeiĠ
daiĠ laiĠ
an ĠdaĠ
chuan ĠzhiĠ
anĠ zhuangĠ
fanĠ zuiĠ
ĠbaoĠ hanĠ
Ġ chaĠ
ĠqiĠ ziĠ
biĠ mianĠ
caiĠ zhengĠ
w i
hou ĠshiĠ
dianĠ cheĠ
1 ĠliĠ
ĠĠĠ siĠ
ya ĠkeĠ
ĠyuĠ 198
t he
liu ĠdeĠ
juĠ qingĠ
zuiĠ gao
jingĠ xuanĠ
wanĠ gongĠ
Ġmei ĠnianĠ
Ġ pei
zhe ĠbuĠ
kaĠ luoĠ
tu ĠxingĠ
200 6ĠnianĠ
qin ĠziĠ
50 ĠnianĠ
ï¼ ħ
xiangĠ huĠ
ĠqiĠ zaiĠ
mian ĠshiĠ
wuĠkeĠ lan
shang ĠyuĠ
bing ĠdeĠ
waiĠ jiaoĠbuĠ
H Ġ
Ġ lieĠ
si ĠyiĠ
faĠ xingĠdeĠ
ĠyouĠ keĠ
geng ĠweiĠ
ĠerĠ tongĠ
baoĠ shouĠ
chuanĠ shuoĠ
jia ĠzaiĠ
zhou ĠnianĠ
ĠyiĠ meiĠyuanĠ
taiĠ fengĠ
ĠsiĠ lingĠ
zhangĠ guanĠ
ceĠ liangĠ
Ġ zhengĠzhiĠ
houĠ beiĠ
huĠ nanĠ
Ġ jianĠyuĠ
ch ai
hui ĠzhongĠ
fu ĠweiĠ
ban ĠliĠ
fangĠ mianĠdeĠ
bingĠ ruĠ
chaiĠ chuĠ
âĶ Ģ
ĠĠĠ dangĠ
gongĠ zhuĠ
ĠqiĠ xiangĠ
dingĠ juĠ
fanĠweiĠ neiĠ
jin ĠweiĠ
liang ĠjiĠ
guanĠ chaĠ
Ġ kuanĠ
guoĠ wangĠ
shengĠ yinĠ
kaiĠ tongĠ
fei ĠdeĠ
ĠyouĠ buĠ
junĠ zhuĠ
qingĠ chuĠ
que ĠdeĠ
jianĠ jieĠ
ĠdongĠ beiĠ
zhou ĠyiĠ
yingĠ yeĠ
ĠshengĠhuo ĠxiĠ
ruĠ qinĠ
touĠ luĠ
ai ĠjiĠ
ren ĠliĠ
yan ĠxiĠ
can ĠyiĠyuanĠ
pian ĠdeĠ
meng ĠdeĠ
ĠshiĠ daĠ
Ġ quan
hua ĠheĠwuĠ
zhan ĠqiĠjianĠ
gouĠ maiĠ
Ġ sheĠhuiĠ
Ġ hengĠ
ĠdiĠ wuĠ
ĠerĠ chengĠ
keĠyiĠ zaiĠ
pi ĠfuĠ
wai ĠbuĠ
ĠzaiĠ duĠ
ĠyueĠ tuanĠ
zhuĠyao ĠdeĠ
xingĠbuĠ mingĠ
Ġ dou
ke ĠzhiĠ
dui ĠyouĠ
ĠĠĠ c
ming ĠrenĠ
lei ĠdaĠ
jiang ĠjiĠ
zuĠ zhiĠdeĠ
du ĠliĠdeĠ
zhuan ĠdeĠ
Ġ sheĠyouĠ
maĠ laĠ
xiĠ juĠ
xinĠ yangĠ
O S
jieĠ sanĠ
6 4
ĠerĠ ziĠ
huoĠ shanĠ
Ġ18 7
ĠshengĠhuoĠxiĠ xingĠbuĠmingĠ
chang ĠzhiĠ
Ġ200 3ĠnianĠ
er ĠyueĠ
ĠqiĠ xiaĠ
jiangĠ lingĠ
fangĠ yanĠ
liangĠ xiangĠ
r un
tongĠ paiĠ
xinĠ xingĠ
suoĠ shuĠ
er ĠzhiĠ
xiu ĠjianĠ
Ġ chengĠliĠ
lu ĠjiĠ
guiĠ zuĠ
guanĠ jianĠ
ĠjuĠ xingĠ
A M
ĠĠĠ beiĠjingĠ
taiĠ beiĠshiĠ
5 8
xunĠ yangĠ
ĠmeiĠ geĠ
jiaĠliĠ fuĠ
liang ĠzhiĠ
jiuĠ duĠ
ĠĠĠ mingĠ
ĠyiĠ houĠ
ĠsiĠ wangĠ
a me
jing ĠzhongĠ
chengĠ benĠ
keĠneng ĠshiĠ
Ġ xuanĠbuĠ
cheng ĠheĠ
yingĠ xiongĠ
ĠĠĠciĠ waiĠ
9 9
o p
Ġ dianĠyingĠ
jingĠ fangĠ
2Ġ geĠ
Ġ se
kong ĠqiĠ
Ġyue ĠzhongĠ
zhuĠ yiĠdeĠ
bai ĠrenĠ
lunĠ wenĠ
ĠpingĠfangĠ miĠ
ĠzhongĠguoĠ daĠluĠ
shang ĠbuĠ
ĠzaiĠ ci
zheĠ xie
xiangĠ guanĠdeĠ
fuĠ jinĠdeĠ
faĠ huiĠ
kaoĠ guĠ
Ġ re
xinĠjiaĠ poĠ
quĠ leĠ
Ġ200 0ĠnianĠ
Ġ canĠjiaĠ
yuĠ yanĠ
zhongĠ dianĠ
Ġ niu
chu ĠbuĠ
qu ĠjiĠ
Ġ sha
Ġ 8Ġ
baoĠ zhangĠ
Ġ18 6
Ġ gongĠyouĠ
ĠĠĠ aĠ
man ĠdeĠ
ĠshiĠshiĠ jieĠ
qian ĠrenĠ
mo ĠsiĠkeĠ
geĠ ming
zhanĠ tingĠ
taiĠ duĠ
ĠĠĠjuĠ qingĠ
ĠkeĠ erĠ
ĠbiĠ ruĠ
huan ĠzheĠ
kao ĠjinĠ
shouĠ gouĠ
4 8Ġ
gao ĠdaĠ
zong ĠshiĠ
ĠĠĠM a
chengĠ keĠ
zuoĠ zheĠ
ĠshiĠjiĠ shangĠ
Ġ yongĠyouĠ
yunĠ nanĠ
Ġ zhongĠshiĠ
chuĠ yanĠ
guangĠdongĠ shengĠ
l ĠĠĠ
zhe ĠweiĠ
Ġ dong
200 5ĠnianĠ
yinĠ qingĠ
ĠsiĠ chuanĠ
w engĠ
ĠĠĠ ben
hua ĠyiĠ
ĠshiĠ riĠbenĠ
ĠweiĠ ciĠ
A R
ĠguoĠ chengĠzhongĠ
ĠĠĠ200 7ĠnianĠ
Ġ di
dang ĠnianĠ
faĠ lv
changĠ jianĠdeĠ
taoĠ taiĠ
Ġci ĠnianĠ
yuanĠ zeĠ
quanĠ zhangĠ
shuangĠ fangĠ
yang ĠjiĠ
ĠteĠbie ĠshiĠ
Ġ yongĠyuĠ
fang ĠyiĠ
chengĠ baoĠ
lao ĠdeĠ
ĠjiĠ fuĠ
youĠ xianĠ
ti c
qu ĠyiĠhuiĠ
200 4ĠnianĠ
chui Ġ
dai ĠshiĠ
shengĠ chuĠ
lian ĠzaiĠ
xiuĠ zhengĠ
Ġ diĠshiĠ
shengĠ taiĠ
zhouĠ ciĠshiĠ
kaiĠ sheĠ
hu ĠweiĠ
gan ĠbuĠ
ĠqiĠ xiĠ
huoĠ xingĠ
ĠshiĠdeĠ guoĠ
jueĠ duiĠ
19 Ġ
tiao ĠliĠ
hua ĠzhiĠ
shenĠ me
cuo ĠwuĠ
feng ĠweiĠ
shouĠ xiangĠ
ĠjiaĠ tingĠ
bianĠ juĠ
ĠchuĠ shengĠyuĠ
shi ĠĠĠ
Ġ duanĠ
faĠ lanĠxiĠ
ĠĠĠdiĠ fangĠ
ĠguoĠ huiĠ
ban ĠbuĠ
ĠgongĠ tongĠ
faĠ guanĠ
meiĠ shuĠ
ĠbingĠ duĠ
ĠĠĠ qiĠtaĠ
ling ĠrenĠ
hao ĠshiĠ
nengĠ liangĠ
ĠyiĠ xiaoĠshiĠ
ĠyouĠ ciĠ
ĠĠĠ meiĠguoĠ
yaoĠ qiu
dengĠ dengĠ
touĠ piao
zhou ĠzhiĠ
qingĠ qiuĠ
e e
Ġ bo
shu ĠliĠ
luĠ yingĠ
duo ĠweiĠ
zui ĠyouĠ
bai ĠdeĠ
chu ĠzhiĠ
200 1ĠnianĠ
qingĠ huaĠ
guĠ fen
dangĠ diĠdeĠ
Ġ kai
ĠĠĠ diĠerĠ
si ĠzhiĠ
xianĠ shengĠ
ĠwuĠ faĠ
6 7
Ġ canĠyuĠ
keĠdeĠ qiĠzhongĠyiĠzhongĠ
ĠwuĠkeĠ lanĠ
hui ĠbuĠ
r unĠ
zhi ĠdeĠshiĠ
han ĠyouĠ
heĠ xinĠ
kaiĠ fa
W indow
ĠyiĠ daiĠ
luĠ keĠ
ĠjieĠ shouĠ
qiangĠ diaoĠ
ĠzhongĠhuaĠrenĠminĠgongĠheĠguoĠ zhengĠzhiĠrenĠwuĠ
bei ĠweiĠ
lao ĠshiĠ
Ġ202 4ĠnianĠ
dang ĠweiĠ
Ġ juĠyouĠ
xiang ĠheĠ
hen ĠdaĠ
ĠrenĠ mingĠ
xiĠ laĠ
gaiĠ chengĠ
suoĠ chuĠdeĠ
ĠA Ġ
dao ĠbuĠ
qingĠ xingĠ
ĠxueĠ xiaoĠ
cui ĠhuiĠ
canĠ kaoĠ
v eĠ
en ĠshengĠ
xia ĠweiĠ
zhuang ĠjiĠ
ĠzaiĠ 198
gongĠ yingĠ
yaĠ junĠ
tongĠ mengĠ
muĠ qin
hongĠ zha
teĠ dingĠ
b Ġ
Ġ su
ĠĠĠ danĠ
xiang ĠweiĠ
henĠ kuaiĠ
lai ĠshiĠ
tianĠ jingĠ
dangĠ juĠ
T V
xiang ĠyouĠ
suo ĠzhiĠ
huan ĠxingĠ
I I
ĠĠĠ nian
zheng ĠweiĠ
wuĠ ziĠ
beiĠrenĠ mingĠweiĠ
I n
yuan ĠzhongĠ
zuiĠ gaoĠdeĠ
niĠyaĠ zhouĠ
Ġ reng
Ġ maiĠkeĠ
huan ĠdeĠ
yin ĠliĠ
xiaĠ quĠ
xieĠ daoĠ
le ĠyuĠ
ya ĠyiĠ
ĠjiĠ buĠ
ĠheĠ lanĠ
shangĠ haiĠshiĠ
laĠ dingĠ
tiĠyuĠ changĠ
xie ĠerĠ
huoĠ banĠ
1Ġ haoĠ
sheng ĠyouĠ
ĠyeĠ jiuĠshiĠ
Ġ cha
han ĠyuĠ
ĠdaĠ duoĠ
aĠlaĠ boĠ
kun ĠnanĠ
ĠdaĠ xingĠ
yinĠ ruĠ
ĠjieĠ keĠ
jiang ĠzaiĠ
tai ĠzhongĠ
renĠ yuanĠ
zhanĠ xianĠ
C O
gai ĠshiĠ
sui ĠdeĠ
ĠheĠ zhongĠ
e ĠĠĠ
keĠ xueĠyuanĠ
s o
jing ĠzhiĠ
tan ĠdeĠ
shun ĠliĠ
ĠyiĠ zuoĠ
ĠheĠ xinĠ
tiĠgongĠ leĠ
heiĠ seĠ
fenĠbuĠ zaiĠ
le ĠqiĠ
la y
ĠyuĠ 19
xiĠ baoĠ
wangĠ yuanĠ
cheng ĠguoĠ
xiaoĠ yuanĠ
zhaoĠ pianĠ
Ġxiang ĠnianĠ
k i
jun ĠzhiĠ
suo ĠweiĠ
ĠdaĠ fuĠ
qiangĠ lieĠ
ĠxiĠbanĠ yaĠ
ĠpingĠ junĠ
manĠ zuĠ
Ġsui ĠzhuĠ
neng ĠzaiĠ
daĠ huiĠ
haiĠ yangĠ
paiĠ hangĠ
zu ĠyiĠ
ĠjiĠ nian
I S
s ta
hou ĠweiĠ
ĠxiĠ erĠ
Ġ zengĠ
jiang ĠzhiĠ
xiangĠ xinĠ
chu ĠzaiĠ
chuan ĠdeĠ
ĠyiĠ fuĠ
ĠbuĠ jinĠ
beiĠ jingĠshiĠ
zhongĠguoĠ daĠluĠdeĠ
ganĠran ĠzheĠ
jia ĠweiĠ
haiĠ pingĠmianĠ
yaĠ meiĠ
huang ĠhouĠ
ĠtaĠcengĠ daiĠbiaoĠ
jing ĠheĠ
jiuĠ huiĠ
ĠĠĠ yinĠ
paiĠming ĠdiĠ
Ġ dui
lai ĠyueĠ
zui ĠweiĠ
ĠriĠ junĠ
Ġ 25
li ĠyuĠ
tuĠ poĠ
ciĠshiĠjieĠdaĠ zhanĠ
benĠ shenĠ
guĠ daiĠ
ĠchuĠ xianĠ
5 9
Ġ kanĠ
zhou ĠliĠ
renĠ leiĠ
shangĠ changĠ
ruĠ qin
Ġ meng
dangĠ yuanĠ
ĠzuĠ fuĠ
5 7
Ġ qiĠshiĠ
ta ĠweiĠ
jing ĠyiĠ
geiĠ leĠ
ĠshiĠ geĠ
wuĠ daoĠ
ĠtongĠshiĠ gaiĠdiĠ
zhu ĠzhiĠ
zhang ĠweiĠ
te ĠxingĠ
ĠshiĠ yong
huanĠ chengĠ
ĠdeĠjiĠ chuĠ
Ġ xiao
Ġ qing
bianĠ haoĠ
ĠtaiĠ wan
ĠjiĠ duĠ
liang ĠguoĠ
zuĠqiuĠ yunĠdongĠyuanĠ
ĠguangĠ dongĠ
boĠshiĠ xueĠweiĠ
tong ĠweiĠ
qiang ĠzhiĠ
chuangĠ banĠ
nongĠ minĠ
neiĠluĠ shengĠfenĠ
Ġa ĠerĠ
jiao ĠzhiĠ
ding ĠqiĠ
Ġyin ĠqiĠ
ĠĠĠ 1Ġ
cheng ĠshiĠdeĠ
daĠ jiangĠ
Ġ kuĠ
chu ĠyouĠ
keĠ fuĠ
tanĠ panĠ
jiu ĠyiĠ
bang ĠdeĠ
ĠzhongĠ ziĠ
chuĠ shouĠ
xunĠ zhangĠ
luĠ xuĠ
00Ġ miĠ
xiaĠling ĠshiĠjianĠ
s engĠ
Ġ cai
le ĠyouĠ
duan ĠshiĠ
ganĠ ranĠ
Ġ Z
le ĠzaiĠ
zhen ĠjiĠ
mo ĠsiĠ
shangĠ xiaĠ
fan ĠzhiĠ
ĠyuĠ diĠ
xiangĠ biĠ
banĠ ben
4 3
kuoĠ zhanĠ
Ġ liaoĠ
ĠbuĠ diĠ
juĠ daĠ
fangĠ jianĠ
zhou ĠheĠ
min ĠdiĠ
tang ĠdeĠ
wo ĠdeĠ
kaiĠshiĠ shiĠ
miĠ yaĠ
ĠmuĠ qian
Ġ xiong
muĠ niĠ
tianĠ tiĠ
ceng ĠweiĠ
ĠbuĠ luoĠ
jun ĠheĠ
gao ĠzhiĠ
chi ĠrenĠ
xiĠ wangĠ
wuĠ zhengĠzhuangĠ
shaĠ haiĠ
ĠĠĠjianĠ jieĠ
Ġ tieĠ
mu ĠzhiĠ
ling ĠyiĠgeĠ
zheĠ xueĠ
xuan ĠdeĠ
xiu ĠdeĠ
renĠ gongĠ
suoĠ youĠdeĠ
weiĠyiĠ yiĠ
E R
ni ĠerĠ
duiĠ ciĠ
diĠyiĠ weiĠ
kaiĠshiĠ zaiĠ
liangĠ mingĠ
yuanĠ xianĠ
ĠqiĠ cheĠ
wenĠ duĠ
ĠfuĠ qinĠ
ĠshiĠyiĠge ĠweiĠyuĠ
hui ĠguoĠ
bing ĠyiĠ
ĠweiĠ chiĠ
luĠ kouĠ
z uan
Ġ p
zi ĠzhongĠ
fei ĠerĠ
jiangĠ jinĠ
yueĠ nanĠ
aiĠerĠ lanĠ
5 6
xiĠ yaĠ
ĠyiĠsiĠ lanĠ
ĠĠĠdiĠfangĠ ziĠliaoĠ
Ġ pu
dian ĠheĠ
rong ĠheĠ
qu ĠzhiĠ
D TĠ
ĠĠĠ zengĠzuĠ
ye ĠjiĠ
feng ĠfuĠ
nanĠ fangĠ
changĠ jianĠ
bei ĠyuĠ
xue ĠyuĠ
ye ĠyiĠ
ping ĠdeĠ
zhen ĠyuĠ
ĠguoĠ quĠ
7 8
Ġ wenĠhuaĠ
ba ĠheĠ
nuo ĠfuĠ
aoĠ zhouĠ
Ġwan ĠjiaĠ
ou n
ĠĠĠ 17
shenĠ duĠ
gongĠ chengĠshiĠ
tongĠ mingĠ
yinĠ paiĠ
Ġ ruoĠ
san ĠjiaĠ
tian ĠfuĠ
pei ĠzhiĠ
zhanĠ lanĠ
changĠ suoĠ
Ġnian ĠweiĠ
ĠbuĠ duanĠ
jieĠ tiĠ
shanĠ fengĠ
zai ĠliĠ
nv ĠzhuĠ
ĠrenĠ qiĠ
daĠ xiĠyangĠ
ĠxianĠ houĠ
guanĠliĠ juĠ
wan ĠliĠ
yang ĠxingĠ
ĠjiaĠ zuĠ
Ġ waĠ
xian ĠliĠ
haiĠ baĠweiĠ
le ĠzhongĠ
ya ĠheĠ
xiaoĠ fangĠ
naĠ cui
ĠhuoĠ zheĠ
z Ġ
jie ĠzhongĠ
ti ĠweiĠ
liang ĠdaĠ
gaiĠ zaoĠ
dongĠshiĠ zhangĠ
ĠĠĠ zhengĠ
zou ĠxiangĠ
ĠjiĠ houĠ
geĠ juĠ
ĠkeĠ xiĠ
zhu ĠweiĠ
ri ĠyuĠ
N B
ding ĠshiĠ
ĠzaiĠ youĠ
suoĠ caiĠyong
4 2Ġ
Ġ xu
Ġ194 9ĠnianĠ
ĠshiĠyiĠ buĠ
6 9
ĠdaĠ duoĠshuĠ
Ġ199 8ĠnianĠ
jianĠ kangĠ
chuangĠ zaoĠ
jun ĠrenĠ
daĠ louĠ
ĠbuĠ erĠ
gaoĠ xiong
cheĠ xiangĠ
guĠ dingĠ
nengĠ yuanĠ
ĠchengĠ gongĠ
jie ĠliĠ
qianĠ dingĠ
ĠĠĠ jingĠ
wen ĠzhongĠ
ĠyouĠ zhongĠ
yanĠ seĠ
zhiĠshiĠ qiĠ
shangĠ shengĠ
boĠ linĠ
qinĠ wangĠ
z ei
Ġ te
Ġ zhiĠyiĠ
jun ĠzhongĠ
han ĠdeĠ
zhanĠ lve
mengĠ gu
ĠĠĠ jieĠ
san ĠweiĠ
man ĠdiĠ
ĠguoĠ neiĠ
ĠĠĠ 2Ġ
tai ĠheĠ
lun ĠshiĠ
Ġbing ĠweiĠ
ĠM a
erĠ tongĠ
xiaĠ lingĠ
muĠ qian
Ġ199 9ĠnianĠ
3 3Ġ
dao ĠweiĠ
ming ĠzhongĠ
zhengĠ xie
ĠweiĠyuĠ gaiĠ
xiaoĠ feiĠ
feiĠ erĠdeĠ
Ġ song
Ġ yinĠyueĠ
hui ĠyiĠyuanĠ
bian ĠyiĠ
san ĠdaĠ
kou ĠdeĠ
28 Ġ
shengĠ diĠ
mianĠ duiĠ
gong ĠliĠdeĠ
tiĠ xingĠ
diaoĠ kuai
yin Ġyue
ziĠ shenĠ
quĠ zhuĠ
leĠ zheĠ
liuĠ xiaĠ
ĠdeĠyiĠ shuĠ
ĠĠĠ200 6ĠnianĠ
zi ĠzaiĠ
yan ĠyuĠ
que ĠshiĠ
ĠweiĠ UTCĠ
nanĠ haiĠ
zhuĠyiĠ zheĠ
xiongĠ yaĠliĠ
lianĠheĠ huiĠ
A N
Ġ hu
in Ġ
yanĠ haiĠ
Ġc nĠ
zhu ĠheĠ
wen ĠheĠ
1Ġ geĠ
zhang ĠyueĠ
paiĠ qianĠ
diaoĠkuai ĠyiĠxiaoĠshiĠ
ĠĠĠ maĠ
ĠĠĠ jiaoĠtongĠ
cheng ĠyouĠ
luo ĠshiĠ
chong ĠjiĠ
zaiĠ ciĠ
guoĠ huiĠ
jingĠ gaoĠ
zhenĠ quĠdeĠ
yin ĠyuĠ
zhang ĠheĠ
ĠjiĠ UTCĠ
ĠxiĠ lie
sheĠyouĠ xiaĠlingĠshiĠjianĠ
miĠshuĠ zhangĠ
ĠdeĠshiĠquĠweiĠ UTCĠ
ĠerĠgaiĠdiĠ suoĠcaiĠyong
ĠtongĠshiĠgaiĠdiĠ sheĠyouĠxiaĠlingĠshiĠjianĠ
ĠerĠgaiĠdiĠsuoĠcaiĠyong ĠdeĠshiĠquĠweiĠUTCĠ
Ġ jiuĠshiĠ
shu ĠrenĠ
cai ĠdeĠ
shouĠ xianĠ
wanĠ yuanĠ
tianĠ houĠ
qun ĠzhongĠ
ĠyiĠ wuĠ
zuiĠ zao
biaoĠ benĠ
ĠdongĠ nanĠ
jianĠliĠ leĠ
dang ĠjiĠ
ĠerĠ qiĠ
lieĠ ruĠ
5Ġ gongĠliĠ
biĠyeĠ houĠ
bingĠ feiĠ
gaiĠ mingĠweiĠ
guan ĠheĠ
ĠqiĠzhongĠ baoĠkuoĠ
gaoĠyuĠ haiĠpingĠmianĠ
ĠqiĠ fuĠ
ĠerĠ feiĠ
ĠĠĠ anĠ
ĠshiĠ yeĠ
ru ĠdeĠ
ben ĠrenĠ
haiĠbaĠweiĠ gaoĠyuĠhaiĠpingĠmianĠ
7 9
st Ġ
xiangĠ tongĠdeĠ
jingĠ duĠ
pingĠ guĠ
suĠ geĠlanĠ
Ġ lao
xuan ĠzhongĠ
daĠ buĠfen
tuiĠ xiuĠ
suoĠchuĠdeĠ haiĠbaĠweiĠgaoĠyuĠhaiĠpingĠmianĠ
tan ĠxianĠ
ĠzhongĠ shanĠ
zhangĠ fuĠ
tuĠ jingĠ
Ġ Y
Ġ shuoĠ
v a
da ĠyiĠ
zhu aĠ
ze ĠzaiĠ
danĠ baiĠ
buĠshiĠ quĠ
fa ĠzhiĠ
fang ĠjiĠ
Ġling ĠyouĠ
.. .
shang ĠdiĠ
chao ĠyueĠ
guanĠ cha
sheĠ xianĠ
Ġ ku
tiao ĠjieĠ
jinĠ xingĠdeĠ
cunĠ luoĠ
6 6
ĠĠĠ yingĠ
gongĠ neng
zhengĠ ce
kaoĠ lv
Ġ shanĠxiĠ
yi ĠshiĠdeĠ
suo ĠzaiĠdiĠ
deng ĠzhiĠ
shuang ĠdaĠ
daiĠ lingĠ
caiĠ nengĠ
ĠzaiĠ taĠ
ĠdaĠ luĠ
changĠ jingĠ
Ġ chi
li ĠdeĠ
gong ĠweiĠ
duo ĠerĠ
5 3
ĠĠĠ19 0
Ġ ziĠyouĠ
ĠĠĠ 4
san ĠrenĠ
e w
e ĠdeĠ
u m
jueĠ sai
beiĠ fangĠ
shenĠ huaĠ
luoĠ faĠ
ĠT heĠĠĠ
Ġ genĠ
Ġ miaoĠ
jin ĠnianĠ
duan ĠshiĠjianĠ
huiĠ guiĠ
ou ĠxiangĠ
lai ĠsiĠ
yinĠ xiangĠ
zhenĠquĠdeĠ mianĠjiĠweiĠ
beiĠ siĠ
ĠdeĠjiĠ luĠ
le ĠdeĠ
yan ĠrenĠ
yan ĠheĠ
qian ĠyueĠ
ceng ĠdeĠ
ĠerĠ buĠshiĠ
naĠ xieĠ
ĠluoĠ maĠ
shou ĠbuĠ
ĠyuĠ xiĠ
chengĠ quĠ
juĠ leĠ
canĠ xuanĠ
Ġ 24
shu ĠbuĠ
dan ĠshiĠ
changĠ shangĠ
zuĠ cheng
zaiĠyiĠ qiĠ
zuĠqiuĠ duiĠ
A P
quan ĠyiĠ
mian ĠyiĠ
dou ĠzaiĠ
diĠ qiuĠ
geĠ laĠ
ĠqiĠ xuanĠ
yanĠ zhongĠdeĠ
lianĠ luoĠ
huĠ xiangĠ
ziĠ chanĠ
changĠ biĠsaiĠ
keĠnengĠ huiĠ
yunĠ yongĠ
kaĠ laĠ
ĠluĠ wa
p p
ĠĠĠ diĠyiĠ
Ġ10 Ġ
Ġ n
chu ĠzhongĠ
kong ĠxiĠ
xian ĠzhongĠ
Ġnian ĠshiĠjieĠ
ĠheĠ daoĠ
fuĠ xingĠ
qingĠ jieĠ
S ta
guan ĠyiĠ
se ĠfuĠ
zhongĠ yao
tongĠ xunĠ
geĠ guoĠ
fa ĠyiĠ
tu ĠjiĠ
ĠyuĠ beiĠ
ĠzhongĠ gongĠzhongĠyangĠ
baoĠ cunĠ
zhuanĠ menĠ
shuaiĠ lingĠ
kai ĠdeĠ
o ĠĠĠ
mu ĠerĠ
8 8
ĠĠĠ meiĠ
zhu ĠzhongĠ
baoĠ luoĠ
huaĠ jiaĠ
zhangĠ zhuanĠjiĠ
sheĠ jiĠshiĠ
mianĠ feiĠ
zhong ĠyiĠyuanĠ
heĠ liuĠ
zhengĠ bianĠ
duiĠ yingĠ
zuiĠ duoĠ
ĠshiĠ beiĠ
ĠzhiĠ shuĠ
taiĠ kongĠ
ĠgeĠ quĠ
Ġ 30Ġ
nei ĠdiĠ
ĠyiĠ shengĠ
shouĠ quanĠ
guanĠ ceĠ
shu ai
jing ĠzaiĠ
diĠ quĠdeĠ
xueĠ keĠ
zuĠqiuĠ juĠleĠbuĠ
qian ĠxiĠ
kao ĠshiĠ
xianĠ zhuĠ
ĠchengĠ yuanĠ
A C
Ġ 23
ti ĠheĠ
shang ĠjiĠ
yan ĠjiĠ
ru ĠweiĠ
ding ĠliĠ
xuanĠ ju
muĠsiĠ linĠ
wanĠ zhengĠ
Ġ chaoĠxianĠ
san ĠbuĠ
bianĠ jingĠ
quanĠ xianĠ
shen ĠyiĠ
guoĠ neiĠ
mianĠ dianĠ
Ġri ĠdeĠ
Ġ sa
gengĠ xinĠ
ĠmaĠ lai
Ġ 2ĠyueĠ
ĠĠĠ yanĠ
shanĠ xianĠ
feiĠ yanĠ
zaoĠ shangĠ
cu Ġ
Ġ tian
ĠĠĠ ran
Ġyue ĠyiĠ
wuĠ guanĠ
ĠdiĠ diĠ
zhou ĠrenĠ
00 ĠrenĠ
faĠ shengĠzaiĠ
B S
chu ĠweiĠ
ri ĠyiĠ
xue ĠzhongĠ
qing ĠrenĠ
ĠbuĠ laĠ
ping ĠguoĠ
wan ĠnianĠ
gao ĠshiĠ
feng ĠdeĠ
tui ĠjianĠ
faĠ mingĠ
liao ĠdeĠ
taiĠ houĠ
chuanĠ tongĠdeĠ
juĠ fengĠ
xieĠ zuoĠ
ĠĠĠ xingĠ
ge ĠyuĠ
lang ĠzhongĠ
huoĠ shengĠ
Ġ nuoĠ
jiang ĠyiĠ
xiu ĠdaoĠ
pian ĠzhongĠ
dai ĠyiĠ
miao ĠhuiĠ
ĠbuĠ xiangĠ
luoĠ shanĠjiĠ
cheĠ changĠ
tuĠ shuĠ
Ġ rongĠ
xianĠ ruĠ
jinĠ riĠ
quĠ jianĠ
zhongĠguoĠ daĠluĠ
ba ĠsiĠ
zan ĠzhuĠ
diĠ wuĠ
fuĠ zhuĠ
jiaoĠ huanĠ
xiaoĠ yingĠ
ĠbeiĠ chengĠweiĠ
ba ĠdaĠ
boĠ luoĠ
ĠshiĠ jiaĠ
ĠdiĠ qiuĠ
pingĠ lun
pingĠfangĠ qianĠmiĠ
Ġ 00
You T
ao ĠerĠ
li ĠziĠ
xingĠ muĠ
miĠ niĠ
ai ĠliĠ
liang ĠheĠ
jiuĠ yuanĠ
she ĠzaiĠ
bian ĠzhiĠ
chengĠ leĠ
geĠ siĠ
jiaoĠ duĠ
naĠ xiaĠ
ĠdeĠshiĠ yongĠ
xianĠzhiĠ xianĠ
ĠĠĠ gongĠ
re a
shouĠ boĠ
shangĠ xianĠ
ĠshiĠshiĠ yongĠ
dui ĠzhongĠ
lin ĠsiĠ
ĠzuiĠ gaoĠ
guoĠminĠ dangĠ
ĠzhiĠ waiĠ
chuĠ zhangĠ
zaoĠ chengĠdeĠ
ĠyuanĠ mingĠ
B C
Ġ 26
tai ĠyuĠ
gai ĠzhiĠweiĠ
juĠ benĠ
tianĠ zhuĠ
guiĠ mo
luo ĠliĠdaĠ
ba ĠerĠ
zong ĠyiĠ
zhangĠ ziĠ
ĠĠĠ 10
su ĠliĠ
zhanĠ muĠsiĠ
tiĠ chuĠdeĠ
Ġ199 7ĠnianĠ
luo ĠyuĠ
baoĠ hu
huĠ lianĠ
ĠshiĠjianĠ zhuĠ
ban ĠjiĠ
leiĠ siĠdeĠ
ĠĠĠ200 5ĠnianĠ
Ġ jueĠdingĠ
jue ĠyuĠ
luĠ zhanĠ
huoĠ cheĠ
piĠ zhun
ĠshanĠ dongĠ
ĠĠĠ renĠ
ĠĠĠ dongĠ
lie ĠshiĠ
fuĠ shuĠ
biĠ xu
boĠ lan
ĠĠĠ nanĠ
yun ĠdeĠ
tou ĠxianĠ
5 4
ĠĠĠ geĠrenĠ
shao ĠdeĠ
geĠ ziĠ
ĠhouĠ zheĠ
ĠĠĠ baĠ
faĠ sheng
jiaoĠ chaĠ
yao ĠshiĠ
huai ĠyiĠ
diĠ qiĠ
diĠ xiaĠ
ĠpuĠ taoĠ
c tionĠĠĠ
fa ĠliĠ
guan ĠjiĠ
ĠweiĠyuĠ zhongĠguoĠ
3 6Ġ
juĠ banĠdeĠ
xinĠ guanĠ
qiangĠ duĠ
Ġ zao
ma ĠshiĠ
can ĠyiĠ
ĠdiĠ yaĠ
huoĠ biĠ
Ġta ĠyouĠ
faĠ xianĠdeĠ
luoĠ chengĠ
zhuanĠ xieĠ
canĠ tingĠ
jingĠneiĠ gongĠyouĠ
zha ĠdanĠ
chuanĠ meiĠ
ĠĠĠ duiĠ
ding ĠjiĠ
Ġ lianĠheĠ
ĠshiĠ taĠ
bingĠ duĠ
teĠ quĠ
Ġai ĠerĠ
3 8Ġ
I C
xingĠzhengĠ quĠ
xue ĠliĠ
xiao ĠyuĠ
xia ĠzaiĠ
ĠweiĠ beiĠ
ĠĠĠ p
xiĠ nanĠbuĠ
xi ĠyouĠ
xing ĠzaiĠ
jiang ĠliĠ
zheng ĠjiĠ
luo ĠyiĠ
su ĠzhiĠ
bai ĠyuĠ
ĠshiĠ erĠ
ĠshiĠyiĠ keĠ
ĠgaiĠ bianĠ
huangĠ seĠ
xinĠjiaĠ po
Ġ zaĠzhiĠ
ĠzhongĠ xingĠ
xiangĠ faĠ
juĠ ban
ĠyingĠ wenĠ
zhe ĠheĠ
ĠzaiĠ 197
zhuĠ daoĠ
ĠdaĠ buĠfen
ĠĠĠ 16
sui ĠzheĠ
shangĠ wangĠ
tongĠ xinĠ
qianĠ tingĠ
Ġ199 2ĠnianĠ
Ġ199 4ĠnianĠ
chu ĠguoĠ
ĠshiĠ chengĠ
meiĠ junĠ
Ġ tiĠgongĠ
Ġ chunĠ
mi ĠsiĠ
zong ĠrenĠkouĠ
faĠ dongĠjiĠ
ba ĠdeĠ
ĠliĠ liangĠ
qingĠ zhuĠ
ĠbingĠ beiĠ
duanĠ pianĠ
7 6
9 5
c t
gan ĠyuĠ
qiĠ zhongĠ
ĠxiĠ yinĠ
sheĠ jiaoĠ
wuĠzhengĠzhuangĠ ganĠranĠzheĠ
Ġ yang
te ĠjiĠ
zuiĠ zaoĠ
ĠĠĠ houĠ
xue ĠjiĠ
xinĠ jianĠ
shenĠ shengĠ
ĠxiangĠ guanĠ
m er
Ġ hangĠ
pin ĠdeĠ
chengĠ jiuĠ
jinĠ rong
ĠĠĠL i
Ġ i
Ġ shao
Ġ kan
Ġ tang
xing ĠshiĠdeĠ
tou ĠdeĠ
ĠyiĠ dongĠ
aĠ genĠ
r y
u Ġ
shu ĠzaiĠ
ĠliĠ chengĠ
fuĠ muĠ
fangĠ mian
shanĠ maiĠ
suiĠ ranĠ
ao ĠdeĠ
dui ĠjiĠ
xu ĠjiĠ
200 2ĠnianĠ
ĠshiĠ houĠ
ĠzhiĠ buĠ
qiĠ cheĠ
zuĠ jieĠ
ĠdeĠyiĠ yuanĠ
ĠxinĠ wenĠ
Ġ zuĠzhiĠ
ta ĠyiĠ
dian ĠweiĠ
min ĠyiĠ
ĠshiĠrenĠ minĠ
che ĠdiĠ
qiĠ laiĠ
minĠ zu
lingĠ chenĠ
yunĠ dongĠdeĠ
ĠĠĠ liuĠ
daĠ xiaoĠ
leĠ yuanĠ
ĠĠĠshiĠ yongĠ
g ra
Ġ 29
ĠĠĠ tianĠ
ci ĠdiĠ
zhang ĠzhiĠ
te ĠheĠ
chuan ĠqiĠ
zhongĠ huaĠminĠguoĠ
guĠ laĠ
cheng ĠzaiĠ
qiĠ houĠ
zhengĠ quĠ
teĠ dianĠ
ĠT he
Ġ hei
xianĠ shangĠ
du ĠguoĠ
lin ĠjinĠ
wuĠ diĠ
h Ġ
han ĠziĠ
zan ĠshiĠ
yaĠ muĠ
xunĠ lian
ĠshouĠ ciĠ
Ġ199 6ĠnianĠ
an ĠzhiĠ
zui ĠdiĠ
ĠzhongĠ dianĠ
xiĠ beiĠbuĠ
bangĠ qiuĠ
buĠdeĠ cunĠzhuangĠ
chuĠbanĠ sheĠ
dan ĠdaĠ
xiangĠ yingĠ
xinĠ jiangĠ
laiĠ yinĠ
gaoĠ duĠweiĠ
gangĠ kouĠ
Ġer ĠdeĠ
ĠĠĠ co
gongĠzuo ĠshiĠ
yong ĠjiĠ
san ĠzhongĠ
faĠ tingĠ
suiĠ ran
Ġ194 5ĠnianĠ
shengĠ daoĠ
gongĠyuanĠ qianĠ
Ġta ĠheĠ
ĠcaiĠ yongĠ
ĠdiĠ zaiĠ
qianĠ jinĠ
daiĠbiaoĠ tuanĠ
xing ĠyouĠ
ziĠ xun
tiĠ daiĠ
Ġming ĠzhiĠ
ĠshuangĠ fangĠ
Ġ 27
siĠ daĠ
chengĠ weiĠyiĠ
yeĠ fuĠ
xinĠ jieĠ
jiangĠ shuĠ
bianĠ yuanĠ
ĠdeĠyiĠ xieĠ
e ĠguoĠ
Ġ Q
lieĠ chuĠ
3 7Ġ
8 7
Ġ 50
Ġ yanĠjiuĠ
dao ĠyouĠ
hui ĠweiĠ
sanĠ mingĠ
Ġ ì
hou ĠjiĠ
xiao ĠliĠyuĠ
ĠzaiĠ neiĠdeĠ
maĠ touĠ
Ġhuo ĠshiĠ
ĠjiaĠ laĠ
Ġsui ĠdeĠ
5 ĠgeĠ
shen ĠyuĠ
daĠ diĠ
a ĠliĠ
Ġ jueĠ
cheng ĠzhiĠweiĠ
bi ĠliĠshiĠ
ĠyuĠ 197
zanĠ tingĠ
Ġ 9Ġ
dan ĠyiĠ
ĠdaĠ jiaĠ
duiĠ fangĠ
t t
dui ĠheĠ
bai ĠkeĠ
xianĠ chengĠ
shuĠ chuĠ
ĠshouĠ daoĠ
tong ĠheĠ
jianĠ duĠ
Ġ199 3ĠnianĠ
N A
Ġ henĠ
ĠĠĠ daoĠ
yong ĠzaiĠ
pingĠ yuanĠ
ĠerĠgaiĠ diĠdeĠ
tan ĠheĠ
geĠ buĠ
ĠdaĠ jiangĠ
wangĠ wangĠ
ĠdanĠ yinĠ
Ġzhao ĠheĠ
Ġ weiĠyiĠ
ch Ġ
fen ĠqiĠ
n d
Ġ shuang
huo ĠzaiĠ
yeĠ keĠyiĠ
ĠgeĠ shouĠ
4 6Ġ
9 6
ge ĠnianĠ
yun ĠheĠ
ĠdeĠ huaĠ
wuĠ shuĠ
jingĠ guanĠ
ĠxuĠ yaoĠ
ĠĠĠgaiĠ yaoĠ
5 2Ġ
Ġ peng
na ĠheĠ
que ĠbaoĠ
ĠyiĠ gongĠ
ĠbuĠ daoĠ
chuangĠ zuoĠdeĠ
ĠweiĠfuĠqiĠyuĠ gang
z uanĠ
hao ĠyouĠ
Ġnian ĠĠĠ
siĠ lanĠ
fenĠ peiĠ
an ĠliĠ
dui ĠdiĠ
ĠqiĠ bingĠ
yanĠ jingĠ
canĠ shuĠ
5 00Ġ
9 8
200 3ĠnianĠ
Ġ X
ju ĠzaiĠ
guiĠ fanĠ
ĠĠĠ 6
fa ĠjiĠ
pei ĠbeiĠ
juĠ yuanĠ
xiaoĠ jieĠ
ĠchuĠ banĠ
ch uo
wu ĠyouĠ
ĠyiĠ bianĠ
fuĠ haoĠ
shangĠ zhenĠ
ĠdeĠshiĠ jiĠ
ya ĠrenĠ
Ġli ĠliĠ
beiĠ daĠ
sheĠ dingĠ
ĠĠĠjiaĠ tingĠ
chang ĠjiĠ
kuo ĠjianĠ
shouĠ shuĠ
shenĠ meĠ
ĠtaĠ renĠweiĠ
teĠ laĠ
ĠgongĠ yeĠ
3 4Ġ
dian ĠshiĠjieĠ
pin ĠzhongĠ
qianĠ houĠ
199 8ĠnianĠ
ĠyueĠ duiĠ
chuĠ ziĠ
ĠxiĠ tongĠdeĠ
quĠ fenĠ
Ġ jinĠshiĠ
jiu ĠzaiĠ
199 9ĠnianĠ
xiangĠ mu
Ġ xianĠweiĠ
zhuĠ ceĠ
dengĠ changĠ
ĠhuoĠ dongĠ
tuiĠ guangĠ
leĠyiĠ xieĠ
tuĠ xiangĠ
daĠshiĠ guanĠ
riĠben ĠdeĠ
ma ĠkeĠsiĠ
ĠjiĠ liĠ
ĠqiĠ zhong
duoĠ mingĠ
saiĠ erĠweiĠ
chiĠ xu
gengĠ duoĠdeĠ
Ġ202 5ĠnianĠ
qiu ĠshiĠ
beiĠ jing
th Ġ
ĠzhongĠguoĠrenĠminĠ jieĠfangĠjunĠ
xuan ĠshiĠ
yeĠ jianĠ
jin ĠyuĠ
la ĠweiĠ
qianĠ shenĠ
banĠ jiangĠ
tieĠluĠ cheĠzhanĠ
fuĠ za
chengĠ fenĠ
jiaoĠ tang
© Ġ
ceng ĠshiĠ
qiĠ yongĠ
ĠzhongĠ jianĠ
o h
ĠĠĠ wangĠ
qu ĠyouĠ
dou ĠbeiĠ
zhongĠ buĠ
changĠ duĠ
ĠxiangĠ muĠ
lvĠ seĠ
dao ĠzaiĠ
bei ĠliĠ
wang ĠweiĠ
18 5
al Ġ
O N
le ĠdiĠ
lai ĠyuĠ
18 4
ĠyouĠ zaiĠ
ĠheĠ liuĠ
fuĠ erĠ
yeĠ shengĠyaĠ
Ġtong ĠyiĠ
7 7
Ġ kouĠ
Ġ nengĠ
cong ĠweiĠ
yuanĠ benĠ
ĠqiĠ heĠ
yeĠ shengĠ
yinĠ yongĠ
suĠ lian
zeĠ dongĠ
ĠbiĠ saiĠ
buĠdeĠ buĠ
huang ĠjinĠ
mao ĠxianĠ
qingĠ chaoĠ
ĠzuiĠ chuĠ
ĠbuĠ siĠ
c aĠ
r t
Ġ sunĠ
mai ĠdeĠ
shouĠ feiĠ
banĠ yanĠ
cheĠ duiĠ
shan ĠdiĠ
ĠzaiĠ heĠ
baoĠ han
r ĠĠĠ
19 ĠshiĠjiĠ
wen ĠjiĠ
zhang ĠjiĠ
tou ĠbuĠ
keĠ yunĠ
ĠgongĠ qingĠ
ti ona
jun ĠbuĠ
deng ĠshiĠ
zuĠ fuĠ
Ġ198 5ĠnianĠ
ruanĠ tiĠ
s te
Ġ shui
xing ĠliĠ
deng ĠyuĠ
kaiĠ gongĠ
nan ĠsiĠ
dangĠ tianĠ
aĠlaĠ bo
chen ĠjiĠ
194 5ĠnianĠ
wuĠ zhuang
zheĠ yangĠ
xieĠ shangĠ
moĠ niĠ
ĠliangĠ geĠ
5 00
ĠzaiĠ jinĠ
luĠ shangĠ
haoĠ pingĠ
qunĠ tiĠ
zhengĠ shuĠ
ĠshiĠshiĠ shangĠ
zhang ĠyiĠ
shen ĠkeĠ
ĠzhiĠ shaoĠ
ĠyouĠ liangĠ
riĠ baoĠ
bi ĠerĠ
che ĠshiĠ
meiĠ yuanĠdeĠ
nongĠ cun
hua ĠzaiĠ
quan ĠjiĠ
zhuan ĠweiĠ
duiĠ kangĠ
ĠdeĠjiĠ huaĠ
M a
ĠxiĠ anĠ
Ġ199 5ĠnianĠ
senĠ lin
qiong Ġ
du ĠjiĠ
dongĠ xianĠ
xiaoĠ liangĠ
ĠĠĠP ro
ĠfuĠzeĠ guanĠxiaĠ
l y
le ĠĠĠ
wai ĠweiĠ
teĠ leiĠ
xuanĠ chengĠ
ĠshiĠshiĠ jiĠ
sha ĠdeĠ
ĠqiĠ dongĠ
fanĠ ying
1 20
Ġ Ï
Ġ niuĠ
ju ĠzhiĠ
lu ĠheĠ
zong ĠzhiĠ
xiaoĠ xiangĠ
xianĠdeĠyiĠgeĠ feiĠjianĠzhiĠdiĠquĠ
daĠ duoĠ
shaoĠ nvĠ
zhe ĠzhiĠ
bao ĠheĠ
huo ĠliĠ
feng ĠshiĠ
zongĠ jianĠ
mianĠ tiĠ
3Ġ miĠ
ĠfenĠ bieĠ
chaiĠ youĠjiĠ
ĠĠĠ guĠ
zai ĠyiĠgeĠ
qu ĠzhongĠ
ĠyouĠ zhuĠ
xiangĠ qiĠ
canĠ jia
ĠtaĠmen ĠzaiĠ
gongĠkaiĠ saiĠ
R e
haiĠ shangĠ
seĠ lie
Ġ195 0ĠnianĠ
an ĠjiĠ
ĠĠĠ zhangĠ
ĠqiĠ xiĠzaiĠ
6Ġ miĠ
hang ĠyeĠ
weiĠ yuanĠ
chuĠ xianĠdeĠ
laiĠ naĠ
feiĠlvĠ bin
4 1Ġ
huo ĠyiĠ
lie ĠsiĠ
Ġse ctionĠĠĠ
zhan ĠweiĠyuĠ
liang ĠbuĠ
biao ĠjiĠ
tuĠ chuĠ
ĠĠĠran ĠerĠ
jiang ĠyouĠ
199 6ĠnianĠ
fenĠ siĠ
Ġ000 Ġ
ĠĠĠt he
chang ĠdaĠ
dui ĠzhiĠ
bai ĠzhiĠ
ha ĠliĠ
beiĠ poĠ
huiĠ daĠ
ĠĠĠM o
niaoĠ leiĠ
Ġma ĠliĠ
zhan ĠyouĠ
hai ĠdiĠ
duo ĠshiĠ
changĠ jiangĠ
ĠqiĠzhongĠ nanĠxingĠ
ĠĠĠ guangĠ
ni ĠxiĠyaĠ
ĠzhongĠ qiĠ
yanĠ anĠ
boĠ jueĠ
feiĠ yongĠ
xie ĠweiĠ
buĠ menĠ
shenĠ zhenĠ
zhongĠguoĠ renĠminĠ
puĠtaoĠ yaĠ
Ġ xian
ĠĠĠ 2
ru ĠyiĠ
gongĠ jueĠ
jinĠ zhanĠ
shouĠ duanĠ
ĠsiĠ daĠ
ĠjiangĠ suĠ
ĠĠĠgenĠjuĠ 2020ĠnianĠmeiĠguoĠrenĠkouĠpuĠchaĠdeĠshuĠjuĠ
ĠĠĠ jingĠjiĠ
lu ĠyiĠsiĠ
xia ĠdiĠquĠ
xingĠ dong
daoĠ danĠ
zhanĠ shuĠ
â Ĩ
ĠĠĠ 12
guang ĠdeĠ
15 0Ġ
ĠguoĠ wuĠyuanĠ
ziĠ benĠ
zhengĠ mianĠ
c on
e ĠweiĠ
tian ĠjiaĠ
jieĠ duan
fenĠ zhiĠyiĠ
meiĠ guo
suĠweiĠ aiĠ
i e
gong ĠyueĠ
jiao ĠdiĠ
mu ĠyuĠ
ĠyiĠ keĠ
ĠheĠ qiĠtaĠ
xueĠ yeĠ
hou ĠzhiĠ
gen ĠsuiĠ
ĠzaiĠ buĠ
baoĠ zha
daiĠ maĠ
zongĠ caiĠ
cunĠ zaiĠdeĠ
yuanĠzhuĠ minĠ
w eng
ĠĠĠ chengĠ
zu ĠrenĠ
ĠguoĠ jiaĠdeĠ
kuoĠ zhangĠ
Ġ199 0ĠnianĠ
zhan ĠweiĠ
wo ĠerĠ
ciĠ daĠ
zheĠ yangĠdeĠ
ĠziĠ yuanĠ
zhuanĠ yongĠ
men ĠshiĠ
keĠ erĠ
taiĠ nanĠ
ri ĠjiĠ
shui ĠdeĠ
ĠguoĠ gongĠ
yanĠ jiangĠ
xuanĠ juĠzhongĠ
ĠgeĠ leiĠ
Ġ199 1ĠnianĠ
ĠweiĠyuanĠhui ĠweiĠyuanĠ
Ġ menĠ
Ġ lunĠ
shu ĠdeĠzhiĠwuĠ
bei ĠyueĠ
ban ĠnianĠ
baoĠ zhaĠ
guĠfen ĠyouĠxianĠgongĠsiĠ
3 2
ta ĠrenĠ
wang ĠjiĠ
cha ĠshiĠ
gan ĠxianĠ
ĠxingĠ jianĠ
ĠshiĠyiĠ zuoĠ
Ġ198 8ĠnianĠ
ĠĠĠ 8
mei ĠshiĠ
ĠyouĠ suoĠ
chuĠ changĠ
juĠ min
wenĠ tiĠdeĠ
ĠshiĠdeĠ shiĠ
zengĠ qiangĠ
chengĠliĠ houĠ
ĠyuĠ201 2ĠnianĠ
ĠjiĠjinĠ huiĠ
nanĠjiĠ zhouĠdeĠ
W Ġ
Ġ lv
hou ĠbuĠ
lai ĠkeĠ
yang ĠheĠ
guĠ dianĠ
ĠjinĠ shuĠ
2Ġ haoĠ
a ĠfuĠ
Ġ shou
gan ĠdeĠ
ĠyiĠ nian
xunĠyangĠ jianĠ
ĠĠĠqiĠ zhongĠ
ĠyuĠ202 1ĠnianĠ
ĠweiĠfuĠqiĠyuĠ gangĠ
Ġ jianĠliĠ
ing Ġ
fa ĠheĠ
duo ĠliĠyaĠ
nuo ĠyiĠ
zhuĠ banĠ
Ġhan tĠ
Ġ ceĠ
zuo ĠzhiĠ
gongĠ anĠ
keĠ luoĠ
jiaoĠ jieĠ
Ġ18 5
ĠyuĠ201 5ĠnianĠ
Ġliu ĠyuĠ
reĠdaiĠ fengĠbaoĠ
Ġ zhuanĠjiĠ
ĠĠĠ zhuĠyaoĠ
hu ĠxiĠ
hai ĠzaiĠ
xinĠ taiĠ
xuanĠ chuĠ
youĠyiĠ xieĠ
bie ĠdeĠ
pinĠ lvĠ
ĠB Ġ
Ġwan ĠliĠ
ĠdiĠ tuĠ
zuoĠ faĠ
ĠshiĠyiĠ zhiĠ
bing ĠyuĠ
ru ĠshiĠ
ĠliĠ gongĠ
faĠ shengĠdeĠ
jinĠ quĠ
leĠ duiĠ
ĠdaĠ erĠ
liangĠ ziĠ
xieĠ dingĠ
naĠ shengĠ
hangĠ tianĠ
canĠ kao
7 5Ġ
ya ĠzhongĠ
199 2ĠnianĠ
fangĠ miĠ
meiĠguoĠ renĠ
ĠyuĠ201 8ĠnianĠ
ĠĠĠ fanĠ
ding ĠxingĠ
ĠzhongĠ wenĠ
Ġ xiu
ĠĠĠ e
xue ĠbuĠ
qun ĠdeĠ
00Ġ mi
ĠĠĠ 0
ban ĠrenĠ
jiu ĠyouĠ
shouĠ faĠ
Ġ kaoĠ
ri ĠshiĠ
wuĠ geĠ
baiĠ wanĠ
ĠlingĠ wai
ĠlianĠ jieĠ
raoĠ taiĠyangĠ
ĠnianĠyiĠ laiĠ
fenĠbie ĠweiĠ
shang ĠweiĠyouĠ
ciĠ quĠ
wenĠ ti
7 4
ta ĠheĠ
ying ĠerĠ
yanĠ lunĠ
wangĠ houĠ
lianĠ sai
gaoĠ yuanĠ
leiĠ xingĠdeĠ
suo ĠyiĠ
ĠzhiĠ jingĠ
luĠ wa
chuan ĠguoĠ
danĠ shuiĠ
zongĠ huiĠ
2Ġ miĠ
3 00
ĠĠĠ 3ĠyueĠ
shang ĠheĠ
dai ĠyuĠ
ĠshiĠ xiĠ
faĠ lingĠ
yingĠ zhanĠ
ĠkeĠ luoĠ
ĠzheĠ yangĠ
ĠbaoĠ huĠ
ĠyuĠ201 4ĠnianĠ
6 ĠgeĠ
pingĠ jieĠ
duĠ huiĠ
wangĠ ziĠ
Ġta ĠjiĠ
ĠS Ġ
guoĠjiaĠ duiĠ
ĠR o
ĠĠĠqiĠ houĠ
Ġ bao
lei ĠweiĠ
Ġbing ĠbuĠ
ĠshiĠyongĠ leĠ
haiĠbaĠ gaoĠduĠweiĠ
jiangĠ beiĠ
gaoĠ xiaoĠ
jiaoĠyuĠ buĠ
Ġ cunĠ
bei ĠheĠ
xingĠ zheng
chengĠ zhangĠ
fenĠ jieĠ
Ġ pi
jin ĠzaiĠ
bing ĠzaiĠ
wai ĠxingĠ
shun ĠshiĠ
ĠyiĠ qianĠ
quanĠ shuĠ
maĠ laiĠ
Ġdan ĠqiĠ
Ġdang ĠshiĠdeĠ
ĠrenĠminĠ biĠ
wang ĠzhiĠ
tuan ĠjieĠ
gongĠ jiaoĠ
wuĠ zhongĠdeĠ
ĠdiĠ liuĠ
ĠsiĠ taĠ
xunĠ huanĠ
xunĠ zhaoĠ
Ġ fouĠ
Ġ touĠguoĠ
ĠĠĠ di
ci ĠzhongĠ
song ĠdaoĠ
shuĠ muĠ
jingĠ saiĠ
zhanĠ changĠ
ĠgongĠ kaiĠ
ĠxinĠ zengĠ
qiaoĠ liangĠ
ĠĠĠ luoĠ
ĠĠĠ pingĠjiaĠ
ju ĠweiĠ
ru ĠyuĠ
Ġyue ĠheĠ
tiĠ chuĠleĠ
ĠdeĠjiĠ huiĠ
ĠI S
xin ĠzhongĠ
ĠyiĠ chanĠ
chengĠ huĠ
ĠdiĠ dianĠ
zuiĠ zaoĠdeĠ
ĠĠĠR e
yingĠxiang ĠliĠ
Ġ paĠ
pu ĠliĠ
ĠyiĠ daĠ
Ġnian ĠnianĠ
duĠ duĠ
yangĠ xianĠ
ĠdeĠyiĠ meiĠ
ĠdaoĠ yanĠ
ĠshiĠyiĠ daĠliĠ
L E
ge ĠzaiĠ
fen ĠjiĠ
huoĠ yunĠ
cengĠ shuiĠyuĠ
Ġ wa
ĠĠĠ chuĠleĠ
junĠ tuanĠ
wangĠ shangĠ
Ġ15 Ġ
xiaĠyiĠ xiaĠdiĠquĠ
guo ĠshiĠqiĠ
duo ĠfuĠ
guoĠ chengĠ
ĠdaĠ louĠ
jianĠzhuĠ wuĠ
ĠĠĠ 15
ĠĠĠ faĠ
zheng ĠqiĠ
qing ĠyiĠ
lei ĠshiĠ
jiaĠ mengĠ
zhuanĠdeĠ xiaoĠxingĠxingĠ
fa ĠweiĠ
mingĠ juĠrenĠ
guoĠjiĠjiĠ changĠ
s sĠĠĠ
Ġ yong
Ġ nongĠ
ĠĠĠ jiangĠ
hua ĠerĠ
mu ĠheĠ
huang ĠshiĠ
guoĠ wuĠyuanĠ
lingĠ daoĠdeĠ
gangĠ yuanĠ
ĠI n
ĠĠĠ 5ĠyueĠ
ke ĠrenĠ
juĠ daĠdeĠ
baoĠ chi
wenĠ huaĠdeĠ
baĠ laĠ
neiĠ zhanĠ
ĠdeĠshiĠ wuĠ
ĠĠĠ200 4ĠnianĠ
Ġ198 3ĠnianĠ
zheĠjiangĠ shengĠ
n angĠ
ĠĠĠ 3Ġ
shou ĠheĠ
wang ĠsiĠ
jiu ĠrenĠ
zuĠ xieĠ
lianĠ tongĠ
guangĠ fan
shanĠdongĠ shengĠ
m p
bi ĠshiĠ
baoĠ xianĠ
tiĠ jiaoĠ
ĠyuĠ201 7ĠnianĠ
Ġ chengĠliĠyuĠ
yin ĠerĠ
xiao ĠyouĠ
gao ĠdiĠ
buĠ keĠ
shangĠ dianĠ
gongĠchanĠ dang
Ġ 28
jiang ĠzhongĠ
ru ĠzhiĠ
mingĠ jinĠshiĠ
pingĠ minĠ
huoĠ wuĠ
ĠfuĠ qin
Ġdan ĠweiĠ
7ĠyueĠ 1ĠriĠ
A O
Ġ keĠshiĠ
ya ĠzhiĠ
ĠjiĠ xingĠ
faĠ zhanĠdeĠ
wanĠ quan
xunĠ qiuĠ
tuiĠ chuĠdeĠ
Ġ198 9ĠnianĠ
9 7
sheng ĠbuĠ
guĠ fenĠ
Ġ min
zheng ĠyueĠ
zhan ĠyuĠ
la ĠerĠ
sheĠ yingĠ
si ĠyouĠ
ĠzaiĠ 196
daĠ guiĠmoĠ
fuĠ zhouĠ
jiaoĠ fuĠ
sanĠ ciĠ
Ġsui ĠshiĠ
pingĠjunĠ haiĠbaĠgaoĠduĠweiĠ
huaĠshengĠ dunĠ
Ġ sanĠshiĠ
Ġ chuĠrenĠ
su ĠshiĠ
song ĠdeĠ
zaoĠ shouĠ
shaoĠ jiangĠ
ye ĠzhiĠ
ĠshiĠ jiĠdeĠ
ganĠ suĠ
YouT ub
Ġ ziĠjiĠ
yin ĠzhongĠzaiĠ
tai ĠerĠ
yang ĠzhiĠ
lan ĠyuĠ
ĠliĠ fuĠ
gongĠ daĠ
jianĠ kang
qingĠ xiangĠ
banĠ ciĠ
ĠyuĠ201 3ĠnianĠ
ĠerĠgaiĠdiĠdeĠ pingĠjunĠhaiĠbaĠgaoĠduĠweiĠ
jiangĠ taĠ
laiĠ ziĠyuĠ
v Ġ
Ġ zuiĠjiaĠ
an ĠzhongĠ
ji ĠĠĠ
yin ĠzhiĠ
ma ĠliĠyaĠ
ĠshiĠ faĠ
naĠ ruĠ
liĠ lunĠ
Ġ198 4ĠnianĠ
2010ĠnianĠ meiĠguoĠrenĠkouĠpuĠchaĠdeĠshuĠjuĠ
ĠhanĠ zuĠ
shuoĠshiĠ xueĠweiĠ
yinĠzhongĠzaiĠ peiĠ
Ġ ouĠzhouĠ
wang ĠyuĠ
luo ĠzaiĠ
qie ĠerĠ
xianĠ zhangĠ
shouĠ haiĠ
ying ĠdiĠ
ĠyiĠ heĠ
ĠyiĠ erĠ
fuĠ ze
Ġ chao
ĠĠĠ yueĠ
xiang ĠzhiĠ
shuo ĠdeĠ
ĠdaĠ xiĠyangĠ
dianĠ yingĠdeĠ
Ġjiang ĠqiĠ
5 1Ġ
Ġ anĠdeĠ
pingĠfangĠ miĠ
fou ĠrenĠ
renĠgongĠ yinĠzhongĠzaiĠpeiĠ
s sĠ
yi ĠshiĠyongĠ
ĠxiĠ huanĠ
yingĠ duiĠ
guiĠ zhouĠ
ĠjieĠ shuĠ
diĠyiĠ renĠ
yanĠjiuĠ shengĠ
ĠyiĠ waiĠ
juĠ tiĠ
caiĠ chanĠ
3Ġ haoĠ
xiangĠshiĠ diĠ
Ġkang ĠxiĠ
Ġ huai
yu ĠĠĠ
ĠyiĠ xiangĠ
ĠzaiĠ gaiĠ
changĠ beiĠ
fenĠ quĠ
duanĠ zan
ĠyuĠciĠ tongĠshiĠ
k mĠ
reng ĠyouĠ
yuanĠ ben
jiaoĠ zuoĠ
panĠ jueĠ
Ġ nĠ
xuĠ shuĠ
canĠ guanĠ
ya ĠshiĠ
ping ĠshiĠ
hao ĠyuĠ
fuĠ gaiĠ
zhuĠ ruĠ
teĠ langĠ
a ĠjiĠ
ĠĠĠ taiĠwanĠ
long ĠshiĠ
buĠ luoĠ
mingĠ queĠ
hongĠ junĠ
m ĠĠĠ
zhan ĠheĠ
ĠheĠ panĠ
8Ġ miĠ
ĠquanĠ zhangĠ
chanĠshengĠ leĠ
zhen ĠrenĠ
rang ĠtaĠ
zhiĠ chiĠ
dianĠ ziĠyouĠ
Ġ mu
shengĠ muĠ
ĠzheĠ ciĠ
ĠshengĠ zhangĠyuĠ
7Ġ miĠ
s onĠ
Ġ shen
Ġ cu
xia ĠzhiĠ
douĠ zhengĠ
1 ĠnianĠzhiĠ
a d
ai ĠguoĠ
zhen ĠheĠ
jieĠ duĠshiĠ
dongĠ cheĠ
tanĠ dingĠ
ĠqianĠ wangĠ
ci ĠyouĠ
199 7ĠnianĠ
shu ĠqiĠ
nv eĠ
chuĠxianĠ leĠ
8 5
ĠĠĠ 10ĠyueĠ
da ĠzaiĠ
zheng ĠliĠ
zhuang ĠbingĠduĠ
zhuĠ zhai
baoĠ zhengĠ
Ġ000 ĠrenĠ
Ġãĥ ¼
e st
le ĠweiĠ
ĠyuĠ youĠ
yuanĠ quĠ
chengĠ haoĠ
chuĠ ruĠkouĠ
yanĠ huaĠ
yinĠ jingĠ
jiaoĠ keĠ
fenĠ lanĠ
â Ī
ĠĠĠ shenĠ
ku ĠdeĠ
qiang ĠjiĠ
siĠ tanĠ
jianĠ she
duiĠ huaĠ
ĠjiaĠ jingĠ
anĠ zhuang
ĠgongĠ buĠ
ĠĠĠR o
shang ĠzhiĠ
xianĠ dai
dongĠ niĠ
ĠbeiĠ keĠ
ĠxianĠ daiĠ
ming ĠyouĠ
ĠfuĠ leiĠ
ĠxueĠ shengĠ
Ġ keĠliĠ
fei ĠyiĠ
jianĠ zao
jianĠ guoĠ
ĠjuĠ qingĠ
u l
chu ĠnianĠ
ba ĠyueĠ
ĠyouĠ youĠ
fuĠ sheĠ
zhuĠ diĠ
juĠ beiĠ
duiĠ yuanĠ
aiĠ qingĠ
zhuangĠ kuang
ĠbaoĠ daoĠ
gongĠheĠ dangĠ
Ġgai ĠweiĠ
shengĠchan ĠdeĠ
Ġ diaoĠ
zhang ĠzaiĠ
zongĠ tong
ciĠzhiĠ waiĠ
s on
zhu ĠguoĠ
mian ĠyuĠ
ĠheĠ yueĠ
chongĠ qingĠ
ĠsuĠ lianĠ
ĠkeĠneng ĠshiĠ
i g
sheng ĠzhongĠ
mo ĠqiĠ
daoĠ shangĠ
fenĠ xiaoĠ
xiaĠ fangĠ
kaiĠ faĠdeĠ
4Ġ miĠ
aiĠdeĠ huaĠ
s ti
chaoĠ tingĠ
ĠshiĠzhongĠ huaĠrenĠminĠgongĠheĠguoĠ
zengĠjiaĠ leĠ
renĠminĠ daiĠbiaoĠdaĠhuiĠ
ĠĠĠsuiĠ ranĠ
8 9
ĠĠĠ lingĠwaiĠ
daĠ buĠ
te ĠshiĠ
ĠguoĠjiaĠ duiĠ
Ġ cui
chuan ĠdiĠ
kang ĠxiĠ
ĠjuĠ minĠ
ĠnaĠ me
Ġ ke
wang ĠyouĠ
ze ĠyiĠ
bin ĠshiĠ
ĠyinĠ faĠ
Ġ mao
yue ĠweiĠ
zheng ĠyuĠ
du ĠyiĠ
kan ĠdeĠ
dongĠ gongĠ
luoĠ boĠteĠ
12ĠyueĠ 31ĠriĠ
6 5Ġ
Ġ gongĠjiĠ
ni ang
hang ĠxianĠ
26 Ġ
Ġnian ĠliĠ
shangĠ jiaĠ
hanĠ moĠdeĠ
Ġ195 8ĠnianĠ
ziĠ liao
mingĠ luĠ
ĠyuĠ 196
ĠyouĠ taiĠ
ĠheĠ qiĠ
ĠbuĠ neng
jiaoĠ daoĠ
qingĠ shaoĠnianĠ
e ar
Ġ dianĠshiĠ
ĠĠĠ xiangĠgangĠ
ĠshiĠ yueĠ
ĠyuĠ qiĠtaĠ
youĠ guanĠ
benĠ xianĠ
1 ĠnianĠdeĠ
Ġ langĠ
han ĠyiĠ
jieĠ guanĠ
Ġ18 4
canĠmou ĠzhangĠ
â Ħ
Ġ ding
Ġ shun
ĠĠĠ 1
xun ĠfuĠ
zhuĠ liuĠ
shangĠ suĠ
qianĠ ruĠ
qingĠ xuĠ
caiĠ liao
shuiĠ kuĠ
Ġ194 6ĠnianĠ
âĨ Ĵ
Ġ chanĠ
ye ĠzhongĠ
huan ĠxiangĠ
huiĠ xiangĠ
xueĠ yuanĠdeĠ
ĠlingĠyiĠ fangĠmianĠ
bai ĠnianĠ
mianĠ linĠ
kong ĠdeĠ
18 0
shangĠ leĠ
anĠ zhaoĠ
huaĠrenĠminĠ gongĠheĠ
ĠaĠ laĠ
nvĠzhuĠ jueĠ
f f
z enĠ
ĠĠĠ zhanĠ
yin ĠjiĠ
jiao ĠheĠ
na ĠsiĠ
weiĠ yuĠ
ĠerĠ houĠ
shangĠ pinĠ
yingĠ junĠ
liangĠ ceĠ
meiĠ zhou
longĠ shengĠ
ĠshengĠzhangĠyuĠ haiĠbaĠ
zhui ĠsuĠ
changĠ wu
gouĠ mai
Ġ198 6ĠnianĠ
Ġ luo
pai ĠdeĠzhuĠ
pin ĠzhiĠ
ĠliĠ xinĠ
jinĠ qiuĠ
qingĠ daoĠ
waiĠ guanĠ
ĠxinĠ jiaĠ
zhanĠzheng ĠzhongĠ
L i
ĠĠĠ shouĠ
ye ĠerĠ
du ĠdaĠ
ben ĠkeĠ
lou ĠdeĠ
xiangĠ guan
duiĠ zhenĠ
huĠ poĠ
ĠbiĠ yeĠyuĠ
9 3
Ġ quĠdeĠ
zhong ĠdeĠyiĠ
dai ĠzhiĠ
fuĠ yinĠ
shengĠ fuĠ
ĠqiĠ chuĠ
dongĠ yuanĠ
haiĠ eĠ
nvĠ haiĠ
rongĠ naĠ
Ġt un
il l
xiang ĠzhongĠ
fenĠ lieĠ
moĠ luoĠ
198 8ĠnianĠ
ĠyiĠ riĠ
ĠjianĠ sheĠ
ĠbiĠ yeĠ
Ġ ju
guoĠ quĠ
daĠ qiĠ
leĠ gaiĠ
huĠ dongĠ
ĠfaĠ zhanĠ
xingĠzhengĠ zhenĠquĠ
quan ĠweiĠ
bo ĠkeĠ
27 Ġ
gongĠ shangĠ
tiĠ yanĠ
Ġli ĠshiĠdeĠ
shengĠ jingĠ
eĠluoĠ siĠdeĠ
n ĠĠĠ
suan ĠfaĠ
ĠnianĠ lingĠ
ĠbuĠ daĠ
tianĠ tangĠ
sh aiĠ
ye ĠweiĠ
zuĠ ziĠzhiĠ
ĠshiĠyongĠ zheĠ
ĠĠĠ taiĠ
199 1ĠnianĠ
kan ĠfaĠ
ĠzaiĠ renĠ
dianĠ nao
zhouĠ zhangĠ
ĠtianĠ jinĠ
xianĠdeĠyiĠgeĠ xingĠzhengĠzhenĠquĠ
Ġ genĠju
ĠĠĠ zongĠ
qing ĠxiĠ
ceng ĠrenĠ
ĠqiĠ youĠ
v en
hou ĠbuĠjiuĠ
yong ĠzhiĠ
sui ĠzhiĠ
xun ĠdeĠ
âĢ §
ĠshiĠ jingĠ
fuĠ zhuĠrenĠ
huiĠ huaĠ
zhengĠ duoĠ
niĠ yaĠdeĠ
ganĠ jueĠ
peiĠ yangĠ
ĠmaĠlai ĠxiĠyaĠ
ou r
er ĠyouĠ
gongĠ gaoĠ
chengĠ xiangĠ
shenĠ chaĠ
ĠyuĠ202 2ĠnianĠ
guiĠ moĠdeĠ
tuanĠ zhangĠ
mei ĠriĠ
zhuĠ dongĠ
tianĠ huangĠ
taiĠwan ĠdeĠ
I P
ming ĠheĠ
dong ĠyiĠ
huo ĠyueĠ
199 4ĠnianĠ
tongĠ wangĠ
huoĠ dongĠdeĠ
I T
fa ĠliĠyaĠ
dui ĠliĠ
zhen ĠdiĠ
shouĠ lingĠ
yanĠ wuĠ
duĠ jiaĠ
suĠ danĠ
ĠzhuĠ jianĠ
Ġyou ĠjiĠ
ĠqiĠzhongĠ nanĠ
. &
5 ĠĠĠ
fang ĠheĠ
zuo ĠzhongĠ
miao ĠdeĠ
jianĠ daoĠ
sheĠ hui
ĠdeĠrenĠ wuĠ
Ġ chengĠshiĠ
Ġ 20Ġ
tong ĠzhongĠ
hou ĠrenĠ
xia ĠerĠ
shengĠ xiaĠ
ĠshiĠyiĠ jiĠ
ĠguanĠ fangĠ
ĠrenĠzhongĠ gongĠ
meiĠ meiĠ
shenĠ wangĠ
t or
ĠĠĠ Y
mi ĠshiĠ
qian ĠzaiĠ
ĠbuĠ laiĠ
ĠbuĠ zuĠ
zhenĠ yaĠ
quanĠ qiu
tiĠyuĠ guanĠ
yi ĠshiĠjianĠ
jian ĠliĠdeĠ
ĠqiĠ yongĠ
tuĠ ranĠ
9Ġ miĠ
o k
Ġ chun
ĠĠĠ luĠ
zhe ĠyuĠ
xia ĠyuĠ
na ĠerĠ
haiĠ jun
mianĠjiĠ heĠ
ĠxiĠbanĠ yaĠyuĠ
ĠĠĠ yongĠ
daĠ duoĠshuĠ
shenĠ shangĠ
nvĠ yanĠyuanĠ
Ġ198 7ĠnianĠ
an ĠrenĠ
jie ĠweiĠzhiĠ
cha ĠliĠ
ha r
kaiĠ muĠ
Ġ194 8ĠnianĠ
ĠguoĠminĠ dangĠ
xiaĠxiaĠdeĠyiĠgeĠ xiangĠ
Ġ sheĠliĠ
fa ĠzhongĠ
fen ĠshiĠ
nanĠ feiĠ
guĠ dongĠ
ĠdeĠyiĠ siĠ
chongĠ manĠ
canĠyuĠ leĠ
Ġ198 2ĠnianĠ
mouĠ shaĠ
Ġ guang
ĠĠĠ feiĠ
shu ĠyouĠ
lu ĠzaiĠ
pan ĠchuĠ
ĠĠĠ200 3ĠnianĠ
ĠyuĠ201 1ĠnianĠ
6 3
6 1Ġ
6 4Ġ
la ĠyuĠ
re ĠĠĠ
chuĠ banĠdeĠ
leĠ liangĠ
laĠ teĠ
ĠmuĠqianĠ shangĠweiĠyouĠ
ĠĠĠ tongĠ
ĠĠĠ gaoĠ
yuan ĠrenĠ
la ĠliĠ
su ĠdaĠ
heĠ pingĠ
ĠyouĠ xingĠ
ĠzaiĠ naĠliĠ
jiaoĠ zongĠ
ĠshiĠzhongĠ xinĠ
xiangĠgang ĠdeĠ
chuang ĠshiĠrenĠ
xiĠ siĠ
shengĠ geĠweiĠ
chan ĠdeĠ
mingĠ ciĠ
biĠ ya
caiĠ wuĠ
hanĠ linĠ
Ġ zuiĠdaĠ
ĠweiĠ yaĠ
tiĠ gongĠdeĠ
danĠ yuanĠ
diĠyiĠ buĠ
Ġ197 8ĠnianĠ
ĠĠĠ 6Ġ
qu ĠzaiĠ
wa r
fuĠ luoĠliĠdaĠ
anĠ pai
ĠdongĠ jingĠ
ĠmuĠqianĠshangĠweiĠyouĠ renĠgongĠyinĠzhongĠzaiĠpeiĠ
I IĠ
a y
n enĠ
Ġ guĠshiĠ
mei ĠyiĠ
zhang ĠliĠ
shen ĠjiĠ
guĠ wuĠ
lianĠmeng ĠdeĠ
B CĠ
ji ong
ĠĠĠ shangĠ
di ceĠ
xiĠ zangĠ
ĠdaĠ chenĠ
bianĠ haoĠweiĠ
chuangĠ xinĠ
ĠhuĠ nanĠ
199 5ĠnianĠ
buĠ manĠ
shouĠ huiĠ
huanĠ jieĠ
ĠĠĠC om
0 1Ġ
ĠzhiĠ zhengĠ
keĠ xue
zhuĠ daĠ
daoĠ qianĠ
juĠ changĠ
ĠhaoĠ miĠ
Ġ lei
duo ĠbuĠ
chou ĠbeiĠ
ĠshiĠ baĠ
wuĠliĠ xueĠ
ĠĠĠ 4ĠyueĠ
zhou ĠfuĠzeĠguanĠxiaĠ
ĠqiĠ qiĠ
ruĠ jingĠ
cheĠ daoĠ
zaoĠ qiĠdeĠ
ĠqingĠ chaoĠ
3 000
a b
he ĠyiĠgeĠ
er ĠĠĠ
hao ĠjiĠ
tui ĠxingĠ
xinĠ zengĠ
wangĠ chao
laĠ geĠ
ĠgaiĠ diĠdeĠ
6 2Ġ
Ġ lai
zu ĠyuĠ
han ĠshiĠ
ĠzheĠ yeĠshiĠ
Ġdan ĠyiĠ
zhuĠyao ĠshiĠ
8 ĠgeĠ
ĠĠĠ boĠ
tai ĠdaĠ
xun ĠshiĠ
ĠxiĠ jinĠ
fangĠ chengĠ
tianĠ ran
saiĠ baiĠ
mianĠ shangĠ
ĠziĠ liaoĠ
3Ġ mingĠ
Ġ reĠ
ha ĠdeĠ
xiangĠ beiĠ
houĠ lai
yinĠ ziĠ
zongĠ duiĠ
neiĠ mengĠguĠ
ĠdongĠ wuĠ
shouĠdaoĠ leĠ
Ġha ĠerĠ
D V
xiang ĠzaiĠ
zeng ĠzhiĠ
faĠ biao
ĠerĠ zheĠ
xieĠ tiao
ĠgongĠ jinĠ
ĠkeĠnengĠ huiĠ
ĠĠĠgeĠrenĠ shengĠhuoĠ
Ġ sai
jin ĠzhongĠ
jiang ĠheĠ
ĠrenĠ min
yongĠ jiuĠ
yaĠ zhou
ĠdanĠ yeĠ
peiĠ xunĠ
Ġzhe ĠbuĠ
2 ĠnianĠzhiĠ
Ġ xie
Ġ ning
bu ĠweiĠyuĠ
lun ĠsiĠ
shengĠ xiaoĠ
jingĠjiĠ xueĠ
jiaoĠyuĠ jiĠ
ĠyingĠ chiĠ
3 00Ġ
Ġ poĠ
Ġ 1ĠyueĠ
tuo ĠfuĠ
daĠ xueĠdeĠ
zhuĠ longĠ
baoĠ anĠ
xinĠ shengĠ
ĠmeiĠ yuanĠ
Ġà ¸
âĦ ĥ
Ġ keĠliĠsiĠ
ĠĠĠ riĠ
niu ĠsiĠ
ne ĠshengĠ
ĠshiĠ guĠ
ĠshiĠ xiangĠgangĠ
ĠzhiĠ yaoĠ
xiangĠ lianĠ
ĠĠĠM e
Ġ kaĠerĠ
ciĠ huiĠ
Ġba ĠliĠ
ĠJ R
dao ĠliĠ
zhan ĠzaiĠ
yan ĠliĠ
Ġli ĠnianĠ
ciĠ keĠ
dianĠ chiĠ
gaiĠ mingĠ
tingĠ yunĠ
ĠbaoĠ gaoĠ
ĠquanĠ qiuĠ
YouTub eĠ
ĠĠĠ puĠ
qian ĠweiĠ
ĠyiĠ xingĠ
chengĠ danĠ
lingĠ yuĠdeĠ
saiĠ cheĠ
ĠbingĠ meiĠyouĠ
shuiĠ shenĠ
ĠĠĠjinĠ guanĠ
lay Sta
5 5Ġ
5 ĠnianĠzhiĠ
Ġ gui
wu ĠzaiĠ
lao ĠgongĠ
ĠheĠ heĠ
ĠxiĠ yuanĠ
ĠyuĠ202 4ĠnianĠ
ĠĠĠ 7
liang ĠjiaĠ
nuo ĠsiĠ
liĠ yongĠ
ĠR e
oo g
kaĠluoĠ laiĠnaĠ
2 ĠnianĠdeĠ
3 ĠnianĠzhiĠ
t heĠĠĠ
Ġ diao
qian ĠliĠ
duan ĠqiĠ
ĠzhiĠ chi
fuĠ huaĠ
zhanĠ shengĠ
zhanĠ zhengĠdeĠ
duiĠ taĠ
Ġ19 20ĠnianĠ
Ġ can
zhong ĠshiĠjiĠ
jie ĠzaiĠ
ĠshiĠ nanĠjiĠzhouĠdeĠ
ĠliĠ xueĠ
gongĠ zuoĠdeĠ
fuĠ jiaĠ
luoĠ xuanĠ
Ġ198 0ĠnianĠ
hou ĠguoĠ
nan ĠrenĠ
ra Ġ
ĠyuĠ202 3ĠnianĠ
Ġ dai
si ĠyueĠ
ni ĠshiĠ
ĠyiĠ xie
ĠnianĠ qingĠ
minĠ jinĠ
ĠyuĠ200 9ĠnianĠ
M A
Ġ 22
wai ĠjiĠ
ĠyiĠ chengĠ
jiaĠ zhouĠ
chongĠ zuĠ
faĠshengĠ leĠ
oh n
4 4Ġ
Ġ tiaoĠ
de n
ĠĠĠ 8ĠyueĠ
diĠ liuĠ
siĠ faĠ
jinĠ xing
luĠ duanĠ
pingĠ hengĠ
baĠ saiĠ
lanĠ seĠ
tingĠ kaoĠ
zhanĠzheng ĠqiĠjianĠ
jing ĠxiĠ
pan ĠdeĠ
ĠzaiĠ taĠdeĠ
fenĠ chengĠ
zhouĠ bian
zuiĠ duoĠdeĠ
ĠliĠshiĠ xueĠjiaĠ
ĠĠĠ yeĠ
ĠĠĠ quanĠ
ĠĠĠ guĠshiĠ
re e
weiĠ jiĠ
ĠyueĠ laiĠyueĠ
geĠ ciĠ
ziĠ gongĠsiĠ
jinĠ shanĠ
quĠ dongĠ
houĠ fangĠ
yanĠ xuĠ
boĠ laĠ
seĠ caiĠ
g o
Ġ gan
si ĠzhongĠ
che ĠliĠ
junĠ jianĠ
ĠfuĠ ze
dangĠ anĠ
huiĠyiĠ shangĠ
mianĠjiĠheĠ renĠkouĠ
Ġ bu
shou ĠerĠ
du ĠzhiĠ
erĠ beiĠ
jianĠ danĠ
nianĠ daiĠ
7 2Ġ
Ġ buĠshiĠ
ĠĠĠ laĠ
gai ĠzhiĠ
la ĠdiĠ
ding ĠzaiĠ
cha ĠjuĠ
yanĠ shengĠ
ĠdeĠjiĠ shuĠ
yingĠdeĠ leĠ
jiangĠsuĠ shengĠ
Ġ cao
she ĠliĠdeĠ
wang ĠyiĠ
jiaĠ qiangĠ
ciĠ shuĠ
dangĠ xuanĠweiĠ
a ĠdeĠ
19 00
pei ĠdeĠ
hang ĠxingĠ
ro s
siĠ xingĠ
quĠ neiĠ
tongĠ xueĠ
ĠdaĠ buĠ
xuanĠ chuan
tuĠ anĠ
heiĠ longĠjiangĠ
ĠgaiĠdiĠdeĠ mianĠjiĠheĠrenĠkouĠ
ĠgaiĠdiĠdeĠmianĠjiĠheĠrenĠkouĠ jieĠweiĠzhiĠ
t sĠ
t yĠ
ĠĠĠ duiĠyuĠ
ĠĠĠ muĠqianĠ
lu ĠweiĠ
zhongĠ xueĠ
ĠgaiĠ cun
ĠĠĠyouĠ xiĠ
chui ĠzhiĠ
E S
xin ĠheĠ
lei ĠheĠ
ce ĠqiĠ
ĠshiĠ buĠ
ĠliĠ qiĠ
jiangĠ zheĠ
zongĠ jingĠliĠ
ĠyiĠshuĠ jiaĠ
Ġ193 8ĠnianĠ
0 ĠrenĠ
wei ĠshiĠjieĠ
mi e
jiangĠ zuiĠjiaĠ
ĠqianĠ longĠ
ci ĠheĠ
ding ĠzhiĠ
quĠ ziĠ
miĠ duĠ
jiuĠ duĠyuĠ
R o
an ĠfuĠ
ĠĠĠS ta
zhengĠxie ĠweiĠyuanĠ
U S
Ġ Ø
Ġ qiao
dong ĠzhiĠ
zuo ĠyuĠ
mei ĠerĠ
zhuang ĠweiĠ
ĠshiĠ zhangĠ
jiaĠ naĠ
tongĠ chang
zongĠ shuĠ
bian ĠyuĠ
ĠdiĠ 1Ġ
gaiĠ jinĠ
kaĠ feiĠ
nongĠ changĠ
ĠĠĠyiĠ xiaĠ
Ġ194 7ĠnianĠ
ziĠxingĠ cheĠ
jiaĠliĠfuĠ niĠyaĠzhouĠ
c kĠ
ĠĠĠ jianĠliĠ
mi ĠjiĠ
ba ĠtaĠ
ĠzaiĠ nanĠ
ĠdaĠ qiaoĠ
ĠkeĠ laiĠ
ĠĠĠ jianĠzhuĠ
di ĠyiĠjiĠ
zhe ĠjiĠ
feng ĠyuĠ
chuan ĠyueĠ
199 3ĠnianĠ
ĠzhongĠ beiĠ
guĠ laoĠdeĠ
ĠwuĠ xianĠ
xiuĠ dingĠ
Ġ leĠ
ĠĠĠ 7ĠyueĠ
kuai ĠdeĠ
jinĠ rongĠ
zhanĠ juĠ
duĠ teĠdeĠ
liuĠ liangĠ
ĠshiĠjiĠ yuĠ
hangĠ zhanĠ
zuiĠzhongĠ yaoĠdeĠ
8 6
Ġ zhanĠdiĠ
ka ĠdeĠ
junĠ beiĠ
meiĠ tianĠ
J Ġ
an d
li ĠyiĠ
cheng ĠyiĠgeĠ
jiao ĠjiĠ
te ĠyuĠ
ĠyiĠ tiĠ
zhengĠ jiaoĠ
cheĠ tuiĠ
puĠ chaĠ
Ġ15 7
Ġ197 9ĠnianĠ
p h
Ġ ou
Ġ guanĠzhiĠ
Ġ leiĠjiĠ
ĠĠĠ 9ĠyueĠ
fu ĠzhongĠ
zhuĠ shouĠ
zhuĠ guanĠ
nanĠ minĠ
wanĠ meiĠyuanĠ
chiĠ jingĠ
ĠgongĠ gongĠ
geĠyueĠ houĠ
zhanĠdou ĠjiĠ
shou ĠliĠ
zao ĠxingĠ
ĠbuĠ luĠ
yanĠ faĠ
yinĠ niĠ
jiuĠ beiĠ
eĠ haiĠeĠ
ĠmingĠ chaoĠ
5 ĠnianĠdeĠ
zuo ĠheĠ
suan ĠdeĠ
wanĠ zhengĠdeĠ
linĠ shengĠ
ĠciĠ ciĠ
hangĠ banĠ
ĠfaĠ biaoĠ
ĠfanĠ duiĠ
ĠĠĠcheĠzhanĠ jieĠgouĠ
Ġ bangĠ
ĠĠĠ ta
baoĠ fuĠ
daiĠ tiĠ
Ġzai ĠyuĠ
wuĠxianĠ dianĠshiĠ
ĠĠĠ f
198 0ĠnianĠ
ĠliĠ youĠ
faĠ jueĠ
shangĠ fangĠ
meiĠ ti
mianĠ qianĠ
ĠfenĠbie ĠweiĠ
ĠĠĠ aiĠ
anĠ xianĠ
jin ĠqiĠ
mu ĠjiĠ
yingĠ guoĠdeĠ
zongĠ juĠ
ĠpingĠ taiĠ
ĠhuaĠ shengĠ
gongĠchanĠ zhuĠyiĠ
ĠliĠfaĠ huiĠ
P S
Ġ junĠshiĠ
ĠĠĠ jiuĠ
sheng ĠrenĠminĠzhengĠfuĠ
fang ĠdiĠ
duan ĠyuĠ
tuo ĠyuanĠ
ĠtongĠ riĠ
ĠĠĠ200 2ĠnianĠ
chengĠliĠ leĠ
ĠĠĠ muĠ
ya ĠsiĠ
fuĠ buĠzhangĠ
ziĠ shaĠ
huiĠ jiaĠ
luoĠfaĠ keĠ
fei ĠzhiĠ
ku ĠerĠ
zhuan ĠzhiĠ
juĠ feng
juĠ zhuĠzaiĠ
fangĠ xingĠ
zuoĠ leĠ
ĠqiĠzhongĠ youĠ
ĠĠĠzhiĠ zuoĠ
Ġ193 7ĠnianĠ
8 ĠnianĠzhiĠ
K B
e ĠerĠ
lu ĠxiĠ
kuang ĠjiaĠ
jianĠ chiĠ
gangĠ tieĠ
ĠdeĠshiĠ shiĠ
Ġtong ĠzhiĠ
tuiĠ fanĠ
sĠĠĠ of
Ġ10 0Ġ
ĠĠĠ194 9ĠnianĠ
w it
¡ Ġ
ĠĠĠ 6ĠyueĠ
bao ĠjiĠ
diĠ daĠ
jieĠ jieĠ
1 10
ĠĠĠ riĠbenĠ
dui ĠweiĠ
ĠyiĠ xueĠ
ĠyouĠ heĠ
jinĠ zhangĠ
zhuanĠ huanĠ
li ĠkeĠ
luo ĠweiĠ
zong ĠdeĠ
ĠshiĠ taiĠwanĠ
ĠheĠ chengĠ
jianĠ zhuĠshiĠ
ĠbuĠ heĠ
yanĠ shenĠzhiĠ
wenĠ geĠ
qianĠ laiĠ
ĠdeĠyiĠ jianĠ
xinĠxiĠ lanĠ
keĠ xueĠjiaĠ
fangĠ bianĠ
qianĠ xianĠ
taiĠ shouĠ
zhenĠ zhengĠ
2 ĠliĠ
lai ĠerĠ
199 0ĠnianĠ
jinĠ chengĠ
ĠdaĠ xueĠdeĠ
ĠfuĠ gaiĠ
bianĠ zuĠ
feiĠ chang
7 ĠnianĠdeĠ
o i
yan ĠqiĠ
ben ĠzhiĠ
ĠzaiĠ riĠbenĠ
xiangĠ jiaoĠ
n uanĠ
tai ĠweiĠ
shen ĠliĠ
shan ĠyuĠ
nei ĠsiĠ
ka ĠliĠ
194 4ĠnianĠ
hei ĠrenĠ
ĠkeĠ laĠ
muĠ jianĠ
ĠĠĠC o
Ġ12 Ġ
zu ĠshiĠ
zu ĠweiĠ
dang ĠzaiĠ
duo ĠliĠ
te dĠĠĠ
guoĠ fangĠbuĠ
ĠguoĠ fangĠ
chengĠ shuĠ
baĠ leĠsiĠ
panĠ luanĠ
H D
nian ĠdeĠ
po ĠerĠ
reng ĠzaiĠ
shuĠ shuĠ
mengĠ teĠ
ĠĠĠgenĠjuĠ 2010ĠnianĠmeiĠguoĠrenĠkouĠpuĠchaĠdeĠshuĠjuĠ
Ġ huiĠyiĠ
jin ĠheĠ
mei ĠzhongĠ
jiang ĠweiĠ
ĠxiĠ xiĠ
jingĠ quĠ
quanĠ tiĠ
liuĠ xueĠ
touĠ ru
chongĠ fanĠ
7 3
Ġ heng
ĠĠĠ huoĠ
xin ĠyuĠ
qian ĠqiĠ
hao ĠheĠ
banĠ benĠdeĠ
7 ĠgeĠ
Ġ 21
Ġ pianĠ
ri ĠerĠ
tui ĠliĠ
yuanĠ waiĠ
zhengĠ wuĠ
liuĠ chuanĠ
liĠ liangĠ
ĠbiĠ xuĠ
ĠĠĠ tangĠ
qian ĠyuĠ
chong ĠfuĠ
chen ĠdeĠ
Ġyue ĠrenĠ
chengĠ gongĠdeĠ
jingĠ yuanĠ
Ġer ĠheĠ
t y
Ġ zha
xiao ĠyiĠ
bai ĠshiĠ
xiĠ lie
huiĠ guanĠ
ĠriĠ baoĠ
fengĠ geĠdeĠ
quĠshiĠ houĠ
dang ĠheĠ
dang ĠriĠ
beiĠ meiĠ
fangĠ xiangĠdeĠ
duoĠ xiangĠ
tuĠ shaĠ
ĠtiĠ chuĠ
4 7Ġ
xian ĠbuĠ
gu ĠyiĠ
ceng ĠbeiĠ
huan ĠweiĠ
daĠ lu
paiĠ she
tanĠ suoĠ
ĠweiĠyuanĠ huiĠdeĠ
Ġ wu
ĠĠĠ yanĠgeĠ
kai ĠqiĠ
fan ĠfuĠ
pu ĠdeĠ
zhao ĠshiĠ
ĠkeĠ chengĠ
liuĠ geĠ
ĠdaoĠ daĠ
guangĠ fanĠdeĠ
xinĠguanĠ feiĠyanĠ
er ĠzhongĠ
ta ĠerĠ
ĠyuĠ 195
fenĠ xiangĠ
mianĠ xiangĠ
ĠshiĠshiĠ zhangĠ
caoĠ zuo
Ġfei ĠliĠ
O M
fei ĠshiĠ
che ĠrenĠ
sha ĠshiĠ
jiaĠ erĠ
leĠ xuĠduoĠ
caiĠ zhengĠbuĠ
Ġ198 1ĠnianĠ
Ġjin ĠnianĠ
194 1ĠnianĠ
wuĠ renĠjiĠ
jieĠ ruĠ
xiaoĠ sheĠ
huoĠ quĠ
liaoĠ ning
xingĠzhengĠ danĠweiĠ
sang ĠshiĠ
r yĠ
wan ĠqiĠ
rong ĠdeĠ
wuĠ buĠ
jinĠ siĠ
boĠ yinĠ
feiĠ faĠ
ĠhaiĠ junĠ
ĠzhengĠ geĠ
ĠyuĠ200 8ĠnianĠ
ĠcengĠ jingĠ
Ġjiang ĠxiĠ
ĠĠĠ18 9
hangĠkong ĠgongĠsiĠ
ĠshiĠyiĠgeĠweiĠyuĠ meiĠguoĠ
dao ĠguoĠ
xin ĠzhiĠ
tuo ĠerĠ
gei ĠtaĠ
shangĠ jiangĠ
qianĠ zeĠ
tingĠ zhangĠ
taoĠ wangĠ
ĠanĠ huiĠ
renĠdaĠ daiĠbiaoĠ
O R
ming ĠjiĠ
dian ĠyuĠ
tai ĠyiĠ
fuĠ qiĠ
zhuĠ chiĠrenĠ
faĠ buĠdeĠ
saiĠ guanĠjunĠ
kenĠ dingĠ
ĠfenĠbie ĠshiĠ
i gh
Ġ yuĠyiĠ
Ġ zhuo
fan ĠjiĠ
Ġri ĠyouĠ
Ġ15 8
Window sĠĠĠ
ĠliuĠyuĠ mianĠjiĠ
le ĠzhiĠ
che ĠxingĠ
shao ĠyouĠ
198 9ĠnianĠ
heĠ beiĠ
yuanĠ shuĠ
fuĠ siĠ
wuĠ erĠ
ĠbingĠ biaoĠshiĠ
caiĠ panĠ
touĠ shouĠ
keĠyiĠ tongĠguoĠ
l s
ting ĠshiĠ
renĠ min
xiangĠ daoĠ
liangĠ haoĠ
ĠxianĠ jinĠ
ĠfaĠ shengĠ
ĠM Ġ
Ġ4 0
ĠgenĠjuĠ 2020ĠnianĠmeiĠguoĠrenĠkouĠpuĠchaĠdeĠshuĠjuĠ
1 ĠjiaĠ
Ġ pengĠ
ben ĠjiĠ
ma ĠqiĠ
ĠyiĠ changĠ
geĠ tiĠ
jieĠ xiaĠ
shouĠ mingĠ
zuoĠ yeĠ
zhuanĠ quĠ
huoĠdeĠ deĠ
ĠyanĠ changĠ
rou n
3 5ĠnianĠ
4 ĠnianĠzhiĠ
ĠĠĠ X
ĠĠĠ gai
ben ĠbuĠ
san ĠyueĠ
nv ĠyouĠ
qiao ĠdeĠ
198 4ĠnianĠ
zhongĠ gongĠ
keĠ saĠsiĠ
ĠdiĠerĠ ciĠ
D S
hao ĠzaiĠ
tao ĠliĠ
qianĠ xiaĠ
pingĠ dingĠ
Ġ zhou
Ġ pinĠ
Ġ guanĠliĠ
Ġ chongĠxinĠ
guan ĠweiĠ
ying ĠheĠ
nan ĠyuĠ
