{
  "version": "1.0",
  "truncation": null,
  "padding": null,
  "added_tokens": [],
  "normalizer": null,
  "pre_tokenizer": {
    "type": "Sequence",
    "pretokenizers": [
      {
        "type": "Split",
        "pattern": {
          "Regex": "[^\\p{L}\\p{N}\\s]+|[\\r\\n]+"
        },
        "behavior": "Isolated",
        "invert": false
      },
      {
        "type": "ByteLevel",
        "add_prefix_space": false,
        "trim_offsets": true,
        "use_regex": false
      }
    ]
  },
  "post_processor": null,
  "decoder": null,
  "model": {
    "type": "BPE",
    "dropout": null,
    "unk_token": null,
    "continuing_subword_prefix": null,
    "end_of_word_suffix": null,
    "fuse_unk": false,
    "byte_fallback": false,
    "ignore_merges": false,
    "vocab": {
      "!": 0,
      "\"": 1,
      "#": 2,
      "$": 3,
      "%": 4,
      "&": 5,
      "'": 6,
      "(": 7,
      ")": 8,
      "*": 9,
      "+": 10,
      ",": 11,
      "-": 12,
      ".": 13,
      "/": 14,
      "0": 15,
      "1": 16,
      "2": 17,
      "3": 18,
      "4": 19,
      "5": 20,
      "6": 21,
      "7": 22,
      "8": 23,
      "9": 24,
      ":": 25,
      ";": 26,
      "=": 27,
      "?": 28,
      "@": 29,
      "A": 30,
      "B": 31,
      "C": 32,
      "D": 33,
      "E": 34,
      "F": 35,
      "G": 36,
      "H": 37,
      "I": 38,
      "J": 39,
      "K": 40,
      "L": 41,
      "M": 42,
      "N": 43,
      "O": 44,
      "P": 45,
      "Q": 46,
      "R": 47,
      "S": 48,
      "T": 49,
      "U": 50,
      "V": 51,
      "W": 52,
      "X": 53,
      "Y": 54,
      "Z": 55,
      "[": 56,
      "\\": 57,
      "]": 58,
      "^": 59,
      "_": 60,
      "`": 61,
      "a": 62,
      "b": 63,
      "c": 64,
      "d": 65,
      "e": 66,
      "f": 67,
      "g": 68,
      "h": 69,
      "i": 70,
      "j": 71,
      "k": 72,
      "l": 73,
      "m": 74,
      "n": 75,
      "o": 76,
      "p": 77,
      "q": 78,
      "r": 79,
      "s": 80,
      "t": 81,
      "u": 82,
      "v": 83,
      "w": 84,
      "x": 85,
      "y": 86,
      "z": 87,
      "|": 88,
      "~": 89,
      "¡": 90,
      "¢": 91,
      "£": 92,
      "¤": 93,
      "¥": 94,
      "¦": 95,
      "§": 96,
      "¨": 97,
      "©": 98,
      "ª": 99,
      "«": 100,
      "¬": 101,
      "®": 102,
      "¯": 103,
      "°": 104,
      "±": 105,
      "²": 106,
      "³": 107,
      "´": 108,
      "µ": 109,
      "¶": 110,
      "·": 111,
      "¸": 112,
      "¹": 113,
      "º": 114,
      "»": 115,
      "¼": 116,
      "½": 117,
      "¾": 118,
      "¿": 119,
      "Â": 120,
      "Ã": 121,
      "Ä": 122,
      "Å": 123,
      "Æ": 124,
      "Ç": 125,
      "È": 126,
      "É": 127,
      "Ê": 128,
      "Ë": 129,
      "Ì": 130,
      "Í": 131,
      "Î": 132,
      "Ï": 133,
      "Ð": 134,
      "Ñ": 135,
      "Ò": 136,
      "Ó": 137,
      "Ô": 138,
      "Õ": 139,
      "Ö": 140,
      "×": 141,
      "Ø": 142,
      "Ù": 143,
      "Ú": 144,
      "Û": 145,
      "Ü": 146,
      "Þ": 147,
      "ß": 148,
      "à": 149,
      "á": 150,
      "â": 151,
      "ã": 152,
      "ä": 153,
      "ê": 154,
      "ë": 155,
      "ì": 156,
      "í": 157,
      "î": 158,
      "ï": 159,
      "ð": 160,
      "ñ": 161,
      "Ċ": 162,
      "Ġ": 163,
      "ġ": 164,
      "Ģ": 165,
      "ģ": 166,
      "Ĥ": 167,
      "ĥ": 168,
      "Ħ": 169,
      "ħ": 170,
      "Ĩ": 171,
      "ĩ": 172,
      "Ī": 173,
      "ī": 174,
      "Ĭ": 175,
      "ĭ": 176,
      "Į": 177,
      "į": 178,
      "İ": 179,
      "ı": 180,
      "Ĳ": 181,
      "ĳ": 182,
      "Ĵ": 183,
      "ĵ": 184,
      "Ķ": 185,
      "ķ": 186,
      "ĸ": 187,
      "Ĺ": 188,
      "ĺ": 189,
      "Ļ": 190,
      "ļ": 191,
      "Ľ": 192,
      "ľ": 193,
      "Ŀ": 194,
      "ŀ": 195,
      "Ł": 196,
      "ł": 197,
      "Ń": 198,
      "ng": 199,
      "an": 200,
      "sh": 201,
      "zh": 202,
      "ji": 203,
      "ang": 204,
      "ĠĠ": 205,
      "ong": 206,
      "xi": 207,
      "ao": 208,
      "ai": 209,
      "de": 210,
      "ei": 211,
      "shi": 212,
      "yu": 213,
      "ou": 214,
      "yi": 215,
      "en": 216,
      "ch": 217,
      "ian": 218,
      "uo": 219,
      "eng": 220,
      "li": 221,
      "ĠĠĠ": 222,
      "ãĢ": 223,
      "ing": 224,
      "ui": 225,
      "wei": 226,
      "uan": 227,
      "zhi": 228,
      "qi": 229,
      "nian": 230,
      "zhong": 231,
      "you": 232,
      "ren": 233,
      "un": 234,
      "zai": 235,
      "di": 236,
      "guo": 237,
      "ãĢģ": 238,
      "he": 239,
      "bu": 240,
      "er": 241,
      "gong": 242,
      "xing": 243,
      "cheng": 244,
      "da": 245,
      "zhu": 246,
      "hu": 247,
      "yuan": 248,
      "si": 249,
      "jian": 250,
      "yue": 251,
      "ge": 252,
      "fu": 253,
      "xian": 254,
      "ue": 255,
      "ke": 256,
      "wu": 257,
      "chu": 258,
      "shu": 259,
      "sheng": 260,
      "jie": 261,
      "jia": 262,
      "bi": 263,
      "dao": 264,
      "zi": 265,
      "bei": 266,
      "hui": 267,
      "fa": 268,
      "xiang": 269,
      "ti": 270,
      "zheng": 271,
      "mi": 272,
      "ta": 273,
      "jin": 274,
      "qu": 275,
      "20": 276,
      "tong": 277,
      "ri": 278,
      "ju": 279,
      "jing": 280,
      "ming": 281,
      "le": 282,
      "hou": 283,
      "shang": 284,
      "shou": 285,
      "dong": 286,
      "ci": 287,
      "fang": 288,
      "19": 289,
      "hua": 290,
      "yin": 291,
      "xue": 292,
      "guan": 293,
      "zhan": 294,
      "ye": 295,
      "ying": 296,
      "zuo": 297,
      "zhe": 298,
      "yan": 299,
      "mei": 300,
      "jiao": 301,
      "gu": 302,
      "chang": 303,
      "xin": 304,
      "dui": 305,
      "lu": 306,
      "bing": 307,
      "bao": 308,
      "fen": 309,
      "dan": 310,
      "huo": 311,
      "jun": 312,
      "jiang": 313,
      "du": 314,
      "xiao": 315,
      "dian": 316,
      "yong": 317,
      "qian": 318,
      "she": 319,
      "tai": 320,
      "xia": 321,
      "mu": 322,
      "wen": 323,
      "gai": 324,
      "zhang": 325,
      "liang": 326,
      "ya": 327,
      "ru": 328,
      "dai": 329,
      "hai": 330,
      "nan": 331,
      "zhou": 332,
      "zu": 333,
      "wang": 334,
      "lai": 335,
      "ban": 336,
      "jiu": 337,
      "dang": 338,
      "qing": 339,
      "ping": 340,
      "shen": 341,
      "ãĢĭ": 342,
      "ãĢĬ": 343,
      "wan": 344,
      "lian": 345,
      "ling": 346,
      "luo": 347,
      "Â·": 348,
      "min": 349,
      "quan": 350,
      "pi": 351,
      "ni": 352,
      "bo": 353,
      "duo": 354,
      "te": 355,
      "ben": 356,
      "gao": 357,
      "biao": 358,
      "suo": 359,
      "la": 360,
      "ma": 361,
      "kai": 362,
      "ba": 363,
      "xie": 364,
      "xu": 365,
      "bian": 366,
      "deng": 367,
      "yao": 368,
      "yang": 369,
      "mian": 370,
      "zhen": 371,
      "ding": 372,
      "qiu": 373,
      "zui": 374,
      "sai": 375,
      "liu": 376,
      "fan": 377,
      "xuan": 378,
      "fei": 379,
      "san": 380,
      "shan": 381,
      "che": 382,
      "zong": 383,
      "men": 384,
      "ãĢĮ": 385,
      "ãĢį": 386,
      "tu": 387,
      "tian": 388,
      "hao": 389,
      "su": 390,
      "lei": 391,
      "nei": 392,
      "yun": 393,
      "201": 394,
      "lan": 395,
      "feng": 396,
      "mo": 397,
      "na": 398,
      "ze": 399,
      "lv": 400,
      "han": 401,
      "kou": 402,
      "wai": 403,
      "neng": 404,
      "lin": 405,
      "chuan": 406,
      "chi": 407,
      "jue": 408,
      "bai": 409,
      "pai": 410,
      "200": 411,
      "ku": 412,
      "cai": 413,
      "zao": 414,
      "ting": 415,
      "zhuan": 416,
      "gang": 417,
      "lie": 418,
      "guang": 419,
      "gui": 420,
      "lun": 421,
      "sui": 422,
      "pu": 423,
      "ceng": 424,
      "kong": 425,
      "shui": 426,
      "10": 427,
      "chao": 428,
      "zhuang": 429,
      "cha": 430,
      "dou": 431,
      "can": 432,
      "tou": 433,
      "ran": 434,
      "se": 435,
      "duan": 436,
      "cun": 437,
      "huan": 438,
      "cong": 439,
      "pin": 440,
      "ce": 441,
      "chan": 442,
      "xun": 443,
      "gou": 444,
      "00": 445,
      "nv": 446,
      "zhao": 447,
      "gan": 448,
      "chong": 449,
      "sha": 450,
      "tan": 451,
      "18": 452,
      "qin": 453,
      "ka": 454,
      "meng": 455,
      "qiang": 456,
      "huang": 457,
      "xiu": 458,
      "12": 459,
      "tiao": 460,
      "man": 461,
      "shao": 462,
      "kuo": 463,
      "long": 464,
      "pian": 465,
      "shuo": 466,
      "tuan": 467,
      "tang": 468,
      "rong": 469,
      "geng": 470,
      "202": 471,
      "chen": 472,
      "tui": 473,
      "gen": 474,
      "que": 475,
      "tie": 476,
      "11": 477,
      "qie": 478,
      "wo": 479,
      "po": 480,
      "pei": 481,
      "hang": 482,
      "hong": 483,
      "199": 484,
      "bang": 485,
      "liao": 486,
      "chuang": 487,
      "bie": 488,
      "re": 489,
      "tuo": 490,
      "tao": 491,
      "song": 492,
      "wa": 493,
      "mai": 494,
      "ha": 495,
      "15": 496,
      "pan": 497,
      "dun": 498,
      "diao": 499,
      "qiao": 500,
      "sa": 501,
      "mao": 502,
      "lang": 503,
      "kan": 504,
      "kang": 505,
      "âĢ": 506,
      "or": 507,
      "lao": 508,
      "zeng": 509,
      "16": 510,
      "198": 511,
      "kao": 512,
      "xiong": 513,
      "17": 514,
      "on": 515,
      "nuo": 516,
      "miao": 517,
      "rang": 518,
      "kuang": 519,
      "hen": 520,
      "suan": 521,
      "14": 522,
      "30": 523,
      "zhun": 524,
      "13": 525,
      "194": 526,
      "cao": 527,
      "hun": 528,
      "qun": 529,
      "nong": 530,
      "197": 531,
      "heng": 532,
      "shuang": 533,
      "lou": 534,
      "gei": 535,
      "kuai": 536,
      "piao": 537,
      "zha": 538,
      "hei": 539,
      "niu": 540,
      "195": 541,
      "sen": 542,
      "bin": 543,
      "reng": 544,
      "zou": 545,
      "196": 546,
      "chun": 547,
      "kuan": 548,
      "25": 549,
      "âĢĶ": 550,
      "rui": 551,
      "sun": 552,
      "pao": 553,
      "ning": 554,
      "for": 555,
      "pa": 556,
      "cang": 557,
      "mou": 558,
      "24": 559,
      "peng": 560,
      "huai": 561,
      "21": 562,
      "193": 563,
      "23": 564,
      "mula": 565,
      "formula": 566,
      "28": 567,
      "zan": 568,
      "ruo": 569,
      "in": 570,
      "22": 571,
      "chou": 572,
      "zhui": 573,
      "ar": 574,
      "me": 575,
      "26": 576,
      "50": 577,
      "2020": 578,
      "27": 579,
      "nai": 580,
      "nu": 581,
      "ï¼": 582,
      "29": 583,
      "shun": 584,
      "2010": 585,
      "za": 586,
      "000": 587,
      "lve": 588,
      "zhai": 589,
      "2019": 590,
      "ne": 591,
      "ro": 592,
      "juan": 593,
      "st": 594,
      "ra": 595,
      "cui": 596,
      "kun": 597,
      "2016": 598,
      "shiĠ": 599,
      "deĠ": 600,
      "ĠshiĠ": 601,
      "ĠdeĠ": 602,
      "yiĠ": 603,
      "ĠyiĠ": 604,
      "jiĠ": 605,
      "weiĠ": 606,
      "zhiĠ": 607,
      "yuĠ": 608,
      "ĠweiĠ": 609,
      "ĠjiĠ": 610,
      "Ġnian": 611,
      "ĠzhiĠ": 612,
      "ĠyuĠ": 613,
      "Ġli": 614,
      "ĠnianĠ": 615,
      "zhongĠ": 616,
      "ĠliĠ": 617,
      "zaiĠ": 618,
      "renĠ": 619,
      "youĠ": 620,
      "guoĠ": 621,
      "heĠ": 622,
      "qiĠ": 623,
      "buĠ": 624,
      "diĠ": 625,
      "ĠyouĠ": 626,
      "ĠzaiĠ": 627,
      "ĠrenĠ": 628,
      "Ġyue": 629,
      "ĠzhongĠ": 630,
      "ĠheĠ": 631,
      "daĠ": 632,
      "xiĠ": 633,
      "xingĠ": 634,
      "erĠ": 635,
      "yuanĠ": 636,
      "gongĠ": 637,
      "ĠyueĠ": 638,
      "fuĠ": 639,
      "siĠ": 640,
      "geĠ": 641,
      "jianĠ": 642,
      "ĠguoĠ": 643,
      "wuĠ": 644,
      "jiaĠ": 645,
      "ĠbuĠ": 646,
      "jieĠ": 647,
      "keĠ": 648,
      "chengĠ": 649,
      "zhuĠ": 650,
      "shengĠ": 651,
      "xiangĠ": 652,
      "xianĠ": 653,
      "daoĠ": 654,
      "beiĠ": 655,
      "ziĠ": 656,
      "ĠqiĠ": 657,
      "faĠ": 658,
      "huiĠ": 659,
      "chuĠ": 660,
      "jinĠ": 661,
      "ĠdiĠ": 662,
      "shuĠ": 663,
      "ĠerĠ": 664,
      "riĠ": 665,
      "ĠxiĠ": 666,
      "juĠ": 667,
      "quĠ": 668,
      "zhengĠ": 669,
      "houĠ": 670,
      "shouĠ": 671,
      "mingĠ": 672,
      "shangĠ": 673,
      "dongĠ": 674,
      "leĠ": 675,
      "taĠ": 676,
      "jingĠ": 677,
      "xueĠ": 678,
      "fangĠ": 679,
      "yanĠ": 680,
      "zhanĠ": 681,
      "ciĠ": 682,
      "baoĠ": 683,
      "huaĠ": 684,
      "yingĠ": 685,
      "yeĠ": 686,
      "tongĠ": 687,
      "zuoĠ": 688,
      "zheĠ": 689,
      "guanĠ": 690,
      "ĠdaĠ": 691,
      "ĠriĠ": 692,
      "yinĠ": 693,
      "changĠ": 694,
      "xinĠ": 695,
      "jiaoĠ": 696,
      "luĠ": 697,
      "duiĠ": 698,
      "wenĠ": 699,
      "tiĠ": 700,
      "fenĠ": 701,
      "qianĠ": 702,
      "taiĠ": 703,
      "jiangĠ": 704,
      "xiaoĠ": 705,
      "bingĠ": 706,
      "ĠsiĠ": 707,
      "junĠ": 708,
      "dianĠ": 709,
      "zhangĠ": 710,
      "pingĠ": 711,
      "xiaĠ": 712,
      "duĠ": 713,
      "huoĠ": 714,
      "yongĠ": 715,
      "danĠ": 716,
      "ĠkeĠ": 717,
      "ĠjiaĠ": 718,
      "haiĠ": 719,
      "gaiĠ": 720,
      "wangĠ": 721,
      "daiĠ": 722,
      "nanĠ": 723,
      "ruĠ": 724,
      "qingĠ": 725,
      "muĠ": 726,
      "biĠ": 727,
      "banĠ": 728,
      "liangĠ": 729,
      "laiĠ": 730,
      "meiĠ": 731,
      "yaĠ": 732,
      "shenĠ": 733,
      "zuĠ": 734,
      "ĠxingĠ": 735,
      "ĠfuĠ": 736,
      "wanĠ": 737,
      "sheĠ": 738,
      "lianĠ": 739,
      "minĠ": 740,
      "miĠ": 741,
      "zhouĠ": 742,
      "anĠ": 743,
      "jiuĠ": 744,
      "qiuĠ": 745,
      "zhenĠ": 746,
      "benĠ": 747,
      "xuĠ": 748,
      "gaoĠ": 749,
      "boĠ": 750,
      "ĠtaĠ": 751,
      "xieĠ": 752,
      "teĠ": 753,
      "bianĠ": 754,
      "lingĠ": 755,
      "luoĠ": 756,
      "yaoĠ": 757,
      "dengĠ": 758,
      "duoĠ": 759,
      "yangĠ": 760,
      "quanĠ": 761,
      "cheĠ": 762,
      "suoĠ": 763,
      "zuiĠ": 764,
      "tianĠ": 765,
      "guĠ": 766,
      "biaoĠ": 767,
      "fanĠ": 768,
      "huĠ": 769,
      "yunĠ": 770,
      "xuanĠ": 771,
      "suĠ": 772,
      "shanĠ": 773,
      "feiĠ": 774,
      "dingĠ": 775,
      "liuĠ": 776,
      "zongĠ": 777,
      "saiĠ": 778,
      "dangĠ": 779,
      "maĠ": 780,
      "kaiĠ": 781,
      "baĠ": 782,
      "haoĠ": 783,
      "ĠdeĠyiĠ": 784,
      "ĠbingĠ": 785,
      "ĠdaoĠ": 786,
      "fengĠ": 787,
      "kouĠ": 788,
      "tuĠ": 789,
      "mianĠ": 790,
      "menĠ": 791,
      "neiĠ": 792,
      "laĠ": 793,
      "aoĠ": 794,
      "leiĠ": 795,
      "sanĠ": 796,
      "eĠ": 797,
      "caiĠ": 798,
      "waiĠ": 799,
      "chuanĠ": 800,
      "jueĠ": 801,
      "paiĠ": 802,
      "chiĠ": 803,
      "ĠdanĠ": 804,
      "lanĠ": 805,
      "ĠjinĠ": 806,
      "ĠjianĠ": 807,
      "ĠbeiĠ": 808,
      "ĠgongĠ": 809,
      "guangĠ": 810,
      "ĠshiĠyiĠ": 811,
      "aĠ": 812,
      "niĠ": 813,
      "guiĠ": 814,
      "baiĠ": 815,
      "linĠ": 816,
      "tingĠ": 817,
      "ĠziĠ": 818,
      "puĠ": 819,
      "ĠzheĠ": 820,
      "nengĠ": 821,
      "gangĠ": 822,
      "naĠ": 823,
      "lunĠ": 824,
      "aiĠ": 825,
      "1Ġ": 826,
      "hanĠ": 827,
      "zeĠ": 828,
      "lieĠ": 829,
      "ĠxiangĠ": 830,
      "chengĠweiĠ": 831,
      "moĠ": 832,
      "ĠzhuĠ": 833,
      "ĠyinĠ": 834,
      "2Ġ": 835,
      "ĠshiĠdeĠ": 836,
      "meiĠguoĠ": 837,
      "chanĠ": 838,
      "shuiĠ": 839,
      "ĠxianĠ": 840,
      "ĠdeĠshiĠ": 841,
      "ĠjuĠ": 842,
      "zhuanĠ": 843,
      "suiĠ": 844,
      "ĠgaiĠ": 845,
      "ĠchuĠ": 846,
      "xunĠ": 847,
      "lvĠ": 848,
      "liĠ": 849,
      "huanĠ": 850,
      "1ĠnianĠ": 851,
      "ĠgeĠ": 852,
      "zaoĠ": 853,
      "zhuangĠ": 854,
      "ouĠ": 855,
      "Ġta": 856,
      "touĠ": 857,
      "duanĠ": 858,
      "5ĠnianĠ": 859,
      "2ĠnianĠ": 860,
      "seĠ": 861,
      "ĠwuĠ": 862,
      "ĠyiĠjiĠ": 863,
      "4ĠnianĠ": 864,
      "ĠbaoĠ": 865,
      "cengĠ": 866,
      "chongĠ": 867,
      "8ĠnianĠ": 868,
      "ĠweiĠyuĠ": 869,
      "pinĠ": 870,
      "3ĠnianĠ": 871,
      "ĠpingĠ": 872,
      "ĠjieĠ": 873,
      "gouĠ": 874,
      "congĠ": 875,
      "chaĠ": 876,
      "cunĠ": 877,
      "diĠyiĠ": 878,
      "douĠ": 879,
      "5Ġ": 880,
      "zhaoĠ": 881,
      "kongĠ": 882,
      "7ĠnianĠ": 883,
      "ĠhouĠ": 884,
      "ganĠ": 885,
      "shaĠ": 886,
      "3Ġ": 887,
      "qiangĠ": 888,
      "ceĠ": 889,
      "ĠshiĠjiĠ": 890,
      "chaoĠ": 891,
      "mengĠ": 892,
      "manĠ": 893,
      "longĠ": 894,
      "kaiĠshiĠ": 895,
      "tangĠ": 896,
      "kuoĠ": 897,
      "tuanĠ": 898,
      "tanĠ": 899,
      "shuoĠ": 900,
      "Ġdan": 901,
      "keĠyiĠ": 902,
      "ĠciĠ": 903,
      "ĠyiĠgeĠ": 904,
      "ĠyeĠ": 905,
      "0Ġ": 906,
      "qinĠ": 907,
      "0ĠnianĠ": 908,
      "kaĠ": 909,
      "ĠshiĠweiĠ": 910,
      "gongĠliĠ": 911,
      "ĠzhongĠguoĠ": 912,
      "tieĠ": 913,
      "9ĠnianĠ": 914,
      "Ġtong": 915,
      "pianĠ": 916,
      "ĠshiĠshiĠ": 917,
      "4Ġ": 918,
      "shaoĠ": 919,
      "zhengĠfuĠ": 920,
      "Ġbing": 921,
      "hangĠ": 922,
      "canĠ": 923,
      "gengĠ": 924,
      "tĠ": 925,
      "huoĠdeĠ": 926,
      "ĠshengĠ": 927,
      "mianĠjiĠ": 928,
      "6ĠnianĠ": 929,
      "hongĠ": 930,
      "tiaoĠ": 931,
      "taoĠ": 932,
      "xiuĠ": 933,
      "chenĠ": 934,
      "jiĠdeĠ": 935,
      "ĠshiĠyongĠ": 936,
      "Ġ200": 937,
      "piĠ": 938,
      "Ġyou": 939,
      "ranĠ": 940,
      "huangĠ": 941,
      "renĠweiĠ": 942,
      "ĠshiĠjianĠ": 943,
      "zhiĠyiĠ": 944,
      "6Ġ": 945,
      "zhongĠdeĠ": 946,
      "zhengĠzhiĠ": 947,
      "ĠyiĠzhiĠ": 948,
      "ĠhuoĠ": 949,
      "ĠshiĠjieĠ": 950,
      "ĠfaĠ": 951,
      "ĠdongĠ": 952,
      "zhongĠguoĠ": 953,
      "nvĠ": 954,
      "chuangĠ": 955,
      "yueĠ": 956,
      "ĠchengĠ": 957,
      "angĠ": 958,
      "quĠdeĠ": 959,
      "guoĠjiĠ": 960,
      "sĠ": 961,
      "yiĠshiĠ": 962,
      "woĠ": 963,
      "ĠyuanĠ": 964,
      "renĠkouĠ": 965,
      "xingĠdeĠ": 966,
      "poĠ": 967,
      "jinĠxingĠ": 968,
      "rongĠ": 969,
      "liaoĠ": 970,
      "tuoĠ": 971,
      "songĠ": 972,
      "diaoĠ": 973,
      "meiĠyouĠ": 974,
      "nianĠ": 975,
      "ĠliĠdeĠ": 976,
      "ĠliĠshiĠ": 977,
      "enĠ": 978,
      "ĠweiĠyuanĠ": 979,
      "Ġdang": 980,
      "peiĠ": 981,
      "panĠ": 982,
      "bangĠ": 983,
      "ĠqiĠzhongĠ": 984,
      "gongĠsiĠ": 985,
      "8Ġ": 986,
      "zuoĠweiĠ": 987,
      "qieĠ": 988,
      "faĠguoĠ": 989,
      "biaoĠshiĠ": 990,
      "ĠĠĠzaiĠ": 991,
      "yanĠjiuĠ": 992,
      "ĠpingĠfangĠ": 993,
      "zhengĠshiĠ": 994,
      "Ġ201": 995,
      "queĠ": 996,
      "tuiĠ": 997,
      "7Ġ": 998,
      "ĠdeĠjiĠ": 999,
      "Ġer": 1000,
      "yinĠweiĠ": 1001,
      "ĠshouĠ": 1002,
      "sĠĠĠ": 1003,
      "dianĠshiĠ": 1004,
      "yunĠdongĠ": 1005,
      "Ġzhe": 1006,
      "ĠhaiĠ": 1007,
      "ĠdeĠdiĠ": 1008,
      "chengĠshiĠ": 1009,
      "Ġri": 1010,
      "ĠsuiĠ": 1011,
      "ĠxinĠ": 1012,
      "zhiĠshiĠ": 1013,
      "taĠdeĠ": 1014,
      "jianĠdeĠ": 1015,
      "langĠ": 1016,
      "ĠmingĠ": 1017,
      "gongĠheĠ": 1018,
      "dunĠ": 1019,
      "shuĠyuĠ": 1020,
      "sheĠjiĠ": 1021,
      "taiĠwanĠ": 1022,
      "ĠĠĠ201": 1023,
      "ĠshangĠ": 1024,
      "ĠshuĠ": 1025,
      "ĠjiangĠ": 1026,
      "qiaoĠ": 1027,
      "ĠrenĠminĠ": 1028,
      "Ġã": 1029,
      "ĠrenĠkouĠ": 1030,
      "zhiĠdeĠ": 1031,
      "ĠmeiĠ": 1032,
      "10ĠyueĠ": 1033,
      "ĠjingĠ": 1034,
      "12ĠyueĠ": 1035,
      "ĠdeĠzhiĠ": 1036,
      "jingĠjiĠ": 1037,
      "7ĠyueĠ": 1038,
      "dianĠyingĠ": 1039,
      "zuĠzhiĠ": 1040,
      "9ĠyueĠ": 1041,
      "ĠnanĠ": 1042,
      "maoĠ": 1043,
      "ĠfenĠ": 1044,
      "8ĠyueĠ": 1045,
      "zhuĠyiĠ": 1046,
      "ĠxiaĠ": 1047,
      "3ĠyueĠ": 1048,
      "waĠ": 1049,
      "Ġ19": 1050,
      "1ĠyueĠ": 1051,
      "ĠshiĠqiĠ": 1052,
      "daiĠbiaoĠ": 1053,
      "kanĠ": 1054,
      "ĠmuĠ": 1055,
      "riĠbenĠ": 1056,
      "youĠyiĠ": 1057,
      "yingĠguoĠ": 1058,
      "ĠzuiĠ": 1059,
      "5ĠyueĠ": 1060,
      "kaoĠ": 1061,
      "jiĠshiĠ": 1062,
      "6ĠyueĠ": 1063,
      "reĠ": 1064,
      "ĠqianĠ": 1065,
      "henĠ": 1066,
      "engĠ": 1067,
      "guoĠdeĠ": 1068,
      "4ĠyueĠ": 1069,
      "maiĠ": 1070,
      "ĠzhangĠ": 1071,
      "ĠshiĠzhenĠ": 1072,
      "ĠĠĠS": 1073,
      "xianĠdeĠ": 1074,
      "weiĠyiĠ": 1075,
      "11ĠyueĠ": 1076,
      "cheĠzhanĠ": 1077,
      "jiaoĠyuĠ": 1078,
      "genĠjuĠ": 1079,
      "buĠfenĠ": 1080,
      "yiĠdeĠ": 1081,
      "daĠxueĠ": 1082,
      "xiangĠgangĠ": 1083,
      "yuĠshiĠ": 1084,
      "ĠC": 1085,
      "mingĠweiĠ": 1086,
      "xueĠyuanĠ": 1087,
      "ĠdeĠguoĠ": 1088,
      "ĠyiĠyuanĠ": 1089,
      "genĠ": 1090,
      "liĠshiĠ": 1091,
      "caoĠ": 1092,
      "yingĠxiangĠ": 1093,
      "ĠdeĠyiĠgeĠ": 1094,
      "danĠrenĠ": 1095,
      "kangĠ": 1096,
      "ĠzhiĠhouĠ": 1097,
      "laoĠ": 1098,
      "ĠtongĠ": 1099,
      "bieĠ": 1100,
      "canĠjiaĠ": 1101,
      "9Ġ": 1102,
      "ĠS": 1103,
      "ĠyiĠweiĠ": 1104,
      "ĠruĠ": 1105,
      "saĠ": 1106,
      "Ġ18": 1107,
      "sheĠhuiĠ": 1108,
      "xianĠshiĠ": 1109,
      "ĠdiĠquĠ": 1110,
      "ĠhuiĠ": 1111,
      "shuĠdeĠ": 1112,
      "zengĠ": 1113,
      "shangĠdeĠ": 1114,
      "xingĠshiĠ": 1115,
      "yeĠshiĠ": 1116,
      "qiĠshiĠ": 1117,
      "formulaĠ": 1118,
      "ĠyouĠyuĠ": 1119,
      "ĠyinĠciĠ": 1120,
      "00Ġ": 1121,
      "Ġran": 1122,
      "guanĠliĠ": 1123,
      "gongĠzuoĠ": 1124,
      "tongĠguoĠ": 1125,
      "ĠbiĠ": 1126,
      "leĠyiĠ": 1127,
      "uanĠ": 1128,
      "erĠshiĠ": 1129,
      "ĠqingĠ": 1130,
      "ĠĠĠ200": 1131,
      "xingĠzhengĠ": 1132,
      "buĠdeĠ": 1133,
      "gongĠheĠguoĠ": 1134,
      "xiongĠ": 1135,
      "weiĠshiĠ": 1136,
      "ĠliĠyaĠ": 1137,
      "ĠnianĠdeĠ": 1138,
      "zhunĠ": 1139,
      "renĠdeĠ": 1140,
      "Ġ199": 1141,
      "ziĠjiĠ": 1142,
      "ĠxueĠ": 1143,
      "daĠdeĠ": 1144,
      "haĠ": 1145,
      "2ĠyueĠ": 1146,
      "ĠĠĠC": 1147,
      "kuangĠ": 1148,
      "ĠguoĠjiaĠ": 1149,
      "ĠyingĠ": 1150,
      "nongĠ": 1151,
      "zuiĠzhongĠ": 1152,
      "ĠA": 1153,
      "kuĠ": 1154,
      "huiĠyiĠ": 1155,
      "ĠyanĠ": 1156,
      "yinĠyueĠ": 1157,
      "ĠdengĠ": 1158,
      "ĠĠĠshengĠ": 1159,
      "ĠxiaoĠ": 1160,
      "chengĠliĠ": 1161,
      "faĠxianĠ": 1162,
      "miaoĠ": 1163,
      "luoĠsiĠ": 1164,
      "ĠĠĠ202": 1165,
      "tiĠgongĠ": 1166,
      "chuĠdeĠ": 1167,
      "piaoĠ": 1168,
      "heiĠ": 1169,
      "dĠĠĠ": 1170,
      "louĠ": 1171,
      "faĠzhanĠ": 1172,
      "qiĠdeĠ": 1173,
      "Ġ3": 1174,
      "ĠbaoĠkuoĠ": 1175,
      "yuanĠdeĠ": 1176,
      "kuaiĠ": 1177,
      "ĠshiĠyouĠ": 1178,
      "ĠshiĠzhiĠ": 1179,
      "qiĠtaĠ": 1180,
      "ĠqiĠjianĠ": 1181,
      "suoĠyouĠ": 1182,
      "nuoĠ": 1183,
      "siĠdeĠ": 1184,
      "youĠyuĠ": 1185,
      "shuangĠ": 1186,
      "1ĠriĠ": 1187,
      "tieĠluĠ": 1188,
      "ĠdaĠxueĠ": 1189,
      "quanĠguoĠ": 1190,
      "ĠshiĠzaiĠ": 1191,
      "ĠM": 1192,
      "ĠlingĠ": 1193,
      "ĠtaiĠ": 1194,
      "daoĠzhiĠ": 1195,
      "tongĠdeĠ": 1196,
      "zhuĠyaoĠ": 1197,
      "daoĠdeĠ": 1198,
      "hunĠ": 1199,
      "chengĠdeĠ": 1200,
      "canĠyuĠ": 1201,
      "senĠ": 1202,
      "wenĠhuaĠ": 1203,
      "ĠliangĠ": 1204,
      "baoĠkuoĠ": 1205,
      "diĠliĠ": 1206,
      "ĠĠĠM": 1207,
      "zhongĠyiĠ": 1208,
      "ĠtaĠmenĠ": 1209,
      "lianĠheĠ": 1210,
      "diĠdeĠ": 1211,
      "ĠzhiĠdaoĠ": 1212,
      "Ġ4": 1213,
      "ĠwangĠ": 1214,
      "ĠtongĠshiĠ": 1215,
      "buĠshiĠ": 1216,
      "ĠpingĠfangĠgongĠliĠ": 1217,
      "ĠzhongĠxinĠ": 1218,
      "qianĠmiĠ": 1219,
      "beiĠbuĠ": 1220,
      "ĠzhengĠ": 1221,
      "chengĠyuanĠ": 1222,
      "ĠĠĠshiĠ": 1223,
      "shuĠjiĠ": 1224,
      "yongĠyuĠ": 1225,
      "rangĠ": 1226,
      "ĠĠĠyiĠ": 1227,
      "qunĠ": 1228,
      "ĠhuaĠ": 1229,
      "zaiĠyiĠ": 1230,
      "xuanĠbuĠ": 1231,
      "2020ĠnianĠ": 1232,
      "guoĠjiaĠ": 1233,
      "oĠ": 1234,
      "ĠweiĠyuanĠhuiĠ": 1235,
      "zuĠqiuĠ": 1236,
      "ĠwanĠ": 1237,
      "ĠtianĠ": 1238,
      "wenĠtiĠ": 1239,
      "ĠmaĠ": 1240,
      "ĠnianĠzhiĠ": 1241,
      "ĠdangĠ": 1242,
      "ĠzhanĠ": 1243,
      "xueĠxiaoĠ": 1244,
      "ĠguĠ": 1245,
      "shengĠyuĠ": 1246,
      "jianĠyuĠ": 1247,
      "ziĠyouĠ": 1248,
      "ĠshiĠwuĠ": 1249,
      "CĠ": 1250,
      "Ġ198": 1251,
      "ĠluĠ": 1252,
      "ĠduiĠ": 1253,
      "tĠĠĠ": 1254,
      "ĠzongĠ": 1255,
      "ĠboĠ": 1256,
      "gongĠyouĠ": 1257,
      "pingĠfangĠ": 1258,
      "guanĠxiĠ": 1259,
      "fangĠshiĠ": 1260,
      "kuanĠ": 1261,
      "biĠsaiĠ": 1262,
      "ĠshiĠzhongĠ": 1263,
      "zuoĠpinĠ": 1264,
      "ĠjiuĠ": 1265,
      "ĠshenĠ": 1266,
      "huoĠdongĠ": 1267,
      "ĠyinĠweiĠ": 1268,
      "suanĠ": 1269,
      "ĠweiĠzhiĠ": 1270,
      "huaĠrenĠminĠ": 1271,
      "yingĠdeĠ": 1272,
      "jianĠzhuĠ": 1273,
      "ĠluoĠ": 1274,
      "hengĠ": 1275,
      "ĠquanĠ": 1276,
      "ĠT": 1277,
      "jianĠliĠ": 1278,
      "Ġ202": 1279,
      "yuĠyiĠ": 1280,
      "ĠhaoĠ": 1281,
      "ĠxuĠ": 1282,
      "Ġgai": 1283,
      "ĠĠĠliĠshiĠ": 1284,
      "jiĠyiĠ": 1285,
      "fenĠweiĠ": 1286,
      "Ġl": 1287,
      "ĠdeĠrenĠ": 1288,
      "sheĠyouĠ": 1289,
      "cuo": 1290,
      "renĠshiĠ": 1291,
      "ĠI": 1292,
      "tongĠshiĠ": 1293,
      "guanĠjunĠ": 1294,
      "Ġa": 1295,
      "daĠliĠ": 1296,
      "Ġg": 1297,
      "ĠaĠ": 1298,
      "geĠrenĠ": 1299,
      "2010ĠnianĠ": 1300,
      "ĠĠĠshengĠpingĠ": 1301,
      "ĠĠĠA": 1302,
      "zhuanĠjiĠ": 1303,
      "ĠbenĠ": 1304,
      "ĠB": 1305,
      "yuĠdeĠ": 1306,
      "beiĠjingĠ": 1307,
      "ĠdiĠerĠ": 1308,
      "ĠmiĠ": 1309,
      "ĠjiĠhuaĠ": 1310,
      "ĠchengĠweiĠ": 1311,
      "ĠyouĠxiĠ": 1312,
      "jiuĠshiĠ": 1313,
      "xiaoĠshiĠ": 1314,
      "huaĠrenĠminĠgongĠheĠguoĠ": 1315,
      "chunĠ": 1316,
      "geiĠ": 1317,
      "Ġ5": 1318,
      "menĠdeĠ": 1319,
      "ĠliĠyuĠ": 1320,
      "duiĠyuĠ": 1321,
      "xiĠdeĠ": 1322,
      "zouĠ": 1323,
      "tongĠyiĠ": 1324,
      "mingĠdeĠ": 1325,
      "ĠP": 1326,
      "ĠtaĠdeĠ": 1327,
      "ĠanĠ": 1328,
      "junĠshiĠ": 1329,
      "diĠshiĠ": 1330,
      "diĠerĠ": 1331,
      "xueĠjiaĠ": 1332,
      "xinĠdeĠ": 1333,
      "erĠdeĠ": 1334,
      "yĠ": 1335,
      "quĠyuĠ": 1336,
      "ĠbuĠfenĠ": 1337,
      "eĠluoĠsiĠ": 1338,
      "ĠcongĠ": 1339,
      "xianĠzhiĠ": 1340,
      "ĠliuĠ": 1341,
      "shouĠdaoĠ": 1342,
      "Ġ15": 1343,
      "kui": 1344,
      "taĠmenĠ": 1345,
      "faĠshengĠ": 1346,
      "Ġ194": 1347,
      "ĠbaĠ": 1348,
      "weiĠdeĠ": 1349,
      "Ġsui": 1350,
      "minĠguoĠ": 1351,
      "houĠdeĠ": 1352,
      "unĠ": 1353,
      "ĠĠĠP": 1354,
      "shengĠdeĠ": 1355,
      "laiĠdeĠ": 1356,
      "cu": 1357,
      "fangĠmianĠ": 1358,
      "zhengĠfu": 1359,
      "dĠ": 1360,
      "danĠweiĠ": 1361,
      "gongĠjiĠ": 1362,
      "ĠtiĠ": 1363,
      "Ġjie": 1364,
      "xingĠweiĠ": 1365,
      "ĠshiĠrenĠ": 1366,
      "ĠyiĠjingĠ": 1367,
      "yongĠyouĠ": 1368,
      "2019ĠnianĠ": 1369,
      "faĠxingĠ": 1370,
      "youĠjiĠ": 1371,
      "AĠ": 1372,
      "2016ĠnianĠ": 1373,
      "Ġ6": 1374,
      "ĠdianĠ": 1375,
      "zhongĠshiĠ": 1376,
      "jinĠshiĠ": 1377,
      "ĠxiĠtongĠ": 1378,
      "jueĠdingĠ": 1379,
      "buĠyuĠ": 1380,
      "ĠD": 1381,
      "ĠzhongĠyangĠ": 1382,
      "juĠyouĠ": 1383,
      "ĠmianĠjiĠ": 1384,
      "liangĠgeĠ": 1385,
      "tongĠzhiĠ": 1386,
      "ĠchangĠ": 1387,
      "diĠquĠ": 1388,
      "niĠyaĠ": 1389,
      "chuĠxianĠ": 1390,
      "quĠweiĠ": 1391,
      "ĠriĠbenĠ": 1392,
      "youĠdeĠ": 1393,
      "shengĠjiĠ": 1394,
      "xianĠzaiĠ": 1395,
      "mouĠ": 1396,
      "al": 1397,
      "zhĠ": 1398,
      "huaĠdeĠ": 1399,
      "ĠrenĠkouĠmiĠ": 1400,
      "ciĠshiĠ": 1401,
      "juĠxingĠ": 1402,
      "ĠzuoĠ": 1403,
      "qiĠyuĠ": 1404,
      "ziĠzhiĠ": 1405,
      "ĠĠĠB": 1406,
      "wuĠdeĠ": 1407,
      "ĠfengĠ": 1408,
      "laiĠziĠ": 1409,
      "lingĠyiĠ": 1410,
      "ĠtaĠzaiĠ": 1411,
      "Ġ16": 1412,
      "jiaĠdeĠ": 1413,
      "mĠ": 1414,
      "shuaiĠ": 1415,
      "ĠweiĠjiĠ": 1416,
      "mianĠjiĠweiĠ": 1417,
      "huiĠdeĠ": 1418,
      "baoĠhuĠ": 1419,
      "ĠjiĠyuĠ": 1420,
      "ĠfeiĠ": 1421,
      "nanĠbuĠ": 1422,
      "ĠjiaoĠ": 1423,
      "zhuo": 1424,
      "duĠliĠ": 1425,
      "ĠhuĠ": 1426,
      "cangĠ": 1427,
      "shuĠjuĠ": 1428,
      "zongĠtongĠ": 1429,
      "kongĠzhiĠ": 1430,
      "ĠshiĠyuĠ": 1431,
      "jinĠruĠ": 1432,
      "ĠshiĠweiĠyuĠ": 1433,
      "Ġ195": 1434,
      "ĠliĠruĠ": 1435,
      "ĠgaoĠ": 1436,
      "renĠwuĠ": 1437,
      "ĠĠĠT": 1438,
      "quĠshiĠ": 1439,
      "zhaĠ": 1440,
      "keĠliĠ": 1441,
      "yaoĠqiuĠ": 1442,
      "rĠ": 1443,
      "ĠfanĠ": 1444,
      "ĠsuĠ": 1445,
      "ĠsanĠ": 1446,
      "ĠguanĠ": 1447,
      "ĠgtĠ": 1448,
      "guĠshiĠ": 1449,
      "Ġsuo": 1450,
      "wanĠchengĠ": 1451,
      "chengĠjiĠ": 1452,
      "ĠranĠerĠ": 1453,
      "ĠmeiĠguoĠ": 1454,
      "Ġ197": 1455,
      "ĠĠĠdeĠ": 1456,
      "xueĠshengĠ": 1457,
      "ĠlianĠ": 1458,
      "ĠĠĠyuĠ": 1459,
      "ĠwoĠ": 1460,
      "jinĠdeĠ": 1461,
      "ĠtongĠnianĠ": 1462,
      "ĠdanĠshiĠ": 1463,
      "minĠzhuĠ": 1464,
      "gongĠshiĠ": 1465,
      "keĠnengĠ": 1466,
      "ĠyiĠqiĠ": 1467,
      "lieĠcheĠ": 1468,
      "Ġru": 1469,
      "Ġ7": 1470,
      "ĠltĠ": 1471,
      "ĠyiĠbuĠ": 1472,
      "shenĠzhiĠ": 1473,
      "youĠshiĠ": 1474,
      "ĠbingĠyuĠ": 1475,
      "renĠzhiĠ": 1476,
      "ĠteĠ": 1477,
      "yĠĠĠ": 1478,
      "ĠwenĠ": 1479,
      "ĠbingĠzaiĠ": 1480,
      "chaoĠguoĠ": 1481,
      "ĠjiĠshuĠ": 1482,
      "tiĠyuĠ": 1483,
      "Ġ10": 1484,
      "yuanĠshiĠ": 1485,
      "qianĠwangĠ": 1486,
      "chengĠgongĠ": 1487,
      "cunĠzaiĠ": 1488,
      "ĠguangĠ": 1489,
      "keĠdeĠ": 1490,
      "dangĠshiĠ": 1491,
      "yaĠliĠ": 1492,
      "ĠE": 1493,
      "siĠshiĠ": 1494,
      "xueĠxiĠ": 1495,
      "yongĠdeĠ": 1496,
      "ĠdeĠyiĠge": 1497,
      "jingĠguoĠ": 1498,
      "neiĠdeĠ": 1499,
      "faĠbuĠ": 1500,
      "zuoĠdeĠ": 1501,
      "ningĠ": 1502,
      "wuĠkeĠ": 1503,
      "jianĠyiĠ": 1504,
      "paoĠ": 1505,
      "guanĠyuĠ": 1506,
      "heĠĠĠ": 1507,
      "TĠ": 1508,
      "ĠzhiĠweiĠ": 1509,
      "ĠyongĠ": 1510,
      "xiangĠgang": 1511,
      "wuĠshiĠ": 1512,
      "zhuĠrenĠ": 1513,
      "yinĠduĠ": 1514,
      "ĠzhiĠjianĠ": 1515,
      "ĠduoĠ": 1516,
      "Ġ8": 1517,
      "zhanĠzhengĠ": 1518,
      "ĠĠĠdiĠ": 1519,
      "zhanĠshiĠ": 1520,
      "sunĠ": 1521,
      "ĠqiĠtaĠ": 1522,
      "guoĠshiĠ": 1523,
      "binĠ": 1524,
      "ĠcaiĠ": 1525,
      "zhuĠyao": 1526,
      "shengĠhuoĠ": 1527,
      "kaiĠfaĠ": 1528,
      "xuĠduoĠ": 1529,
      "ĠH": 1530,
      "zhouĠdeĠ": 1531,
      "ĠhanĠ": 1532,
      "jianĠzhiĠ": 1533,
      "jieĠshouĠ": 1534,
      "ĠjiĠweiĠ": 1535,
      "fanĠweiĠ": 1536,
      "ĠyiĠshuĠ": 1537,
      "co": 1538,
      "ĠweiĠerĠ": 1539,
      "zhuĠxiĠ": 1540,
      "ĠjiĠqiĠ": 1541,
      "Ġceng": 1542,
      "hanĠguoĠ": 1543,
      "Ġ17": 1544,
      "ouĠzhouĠ": 1545,
      "niuĠ": 1546,
      "ĠpingĠfangĠqianĠmiĠ": 1547,
      "luĠdeĠ": 1548,
      "fuĠwuĠ": 1549,
      "ĠyuĠ201": 1550,
      "ĠsuoĠ": 1551,
      "qiuĠduiĠ": 1552,
      "daiĠbiao": 1553,
      "ĠzhiĠyouĠ": 1554,
      "ĠjiĠzhongĠ": 1555,
      "ĠaoĠ": 1556,
      "zengĠjiaĠ": 1557,
      "ĠL": 1558,
      "ĠbuĠguoĠ": 1559,
      "Ġ196": 1560,
      "banĠdeĠ": 1561,
      "gongĠyuanĠ": 1562,
      "ĠyouĠxianĠ": 1563,
      "xiaoĠxingĠ": 1564,
      "ĠshuĠyuĠ": 1565,
      "Ġ9": 1566,
      "huaiĠ": 1567,
      "shangĠhaiĠ": 1568,
      "Ġ000": 1569,
      "Ġba": 1570,
      "xiaĠdeĠ": 1571,
      "ĠĠĠgaiĠ": 1572,
      "ĠR": 1573,
      "ĠzheĠxieĠ": 1574,
      "heĠyiĠ": 1575,
      "duoĠdeĠ": 1576,
      "ĠzhiĠchuĠ": 1577,
      "ĠpuĠ": 1578,
      "tion": 1579,
      "houĠyiĠ": 1580,
      "sanĠshiĠ": 1581,
      "0ĠnianĠdaiĠ": 1582,
      "ĠĠĠzhiĠ": 1583,
      "ĠciĠwaiĠ": 1584,
      "juĠliĠ": 1585,
      "jiaoĠtongĠ": 1586,
      "fuĠdeĠ": 1587,
      "siĠjiĠ": 1588,
      "zuĠchengĠ": 1589,
      "yunĠdongĠyuanĠ": 1590,
      "Ġzai": 1591,
      "ĠyuĠ200": 1592,
      "ĠzhiĠzuoĠ": 1593,
      "ĠgenĠjuĠ": 1594,
      "gaoĠduĠ": 1595,
      "ĠzhiĠchiĠ": 1596,
      "maĠweiĠ": 1597,
      "chuĠleĠ": 1598,
      "zhuĠjiaoĠ": 1599,
      "changĠdeĠ": 1600,
      "jueĠseĠ": 1601,
      "ĠquĠ": 1602,
      "xuĠyaoĠ": 1603,
      "ĠzhĠ": 1604,
      "ĠbianĠ": 1605,
      "Ġjin": 1606,
      "zheĠxieĠ": 1607,
      "chaiĠ": 1608,
      "Ġãĥ": 1609,
      "geĠzhongĠ": 1610,
      "ĠzhiĠwuĠ": 1611,
      "ĠN": 1612,
      "nĠ": 1613,
      "chongĠxinĠ": 1614,
      "tiĠdeĠ": 1615,
      "tuiĠchuĠ": 1616,
      "zheĠgeĠ": 1617,
      "ĠliĠjiĠ": 1618,
      "Ġyin": 1619,
      "jingĠliĠ": 1620,
      "ĠG": 1621,
      "ĠzaiĠciĠ": 1622,
      "dieĠ": 1623,
      "xiangĠdeĠ": 1624,
      "ĠĠĠ199": 1625,
      "ĠmoĠ": 1626,
      "gongĠchengĠ": 1627,
      "Ġ1Ġ": 1628,
      "ĠĠĠ19": 1629,
      "qiĠyiĠ": 1630,
      "daĠshiĠ": 1631,
      "lĠ": 1632,
      "ĠdangĠshiĠ": 1633,
      "ĠzuiĠzhongĠ": 1634,
      "of": 1635,
      "ĠrenĠheĠ": 1636,
      "ĠshanĠ": 1637,
      "wuĠzhongĠ": 1638,
      "duĠweiĠ": 1639,
      "renĠminĠ": 1640,
      "lianĠsaiĠ": 1641,
      "ziĠdeĠ": 1642,
      "xuanĠjuĠ": 1643,
      "chuĠyuĠ": 1644,
      "niaoĠ": 1645,
      "ziĠjiĠdeĠ": 1646,
      "ĠĠĠdiĠliĠ": 1647,
      "jieĠmuĠ": 1648,
      "geĠquĠ": 1649,
      "ĠweiĠleĠ": 1650,
      "ĠrenĠwuĠ": 1651,
      "jieĠshuĠ": 1652,
      "fuĠzeĠ": 1653,
      "SĠ": 1654,
      "dangĠdiĠ": 1655,
      "gongĠchanĠ": 1656,
      "ï¼į": 1657,
      "zheĠyiĠ": 1658,
      "ĠĠĠL": 1659,
      "Ġ193": 1660,
      "ĠcengĠ": 1661,
      "ĠF": 1662,
      "ĠweiĠqiĠ": 1663,
      "ĠbaiĠ": 1664,
      "ĠĠĠweiĠ": 1665,
      "ĠrenĠyuanĠ": 1666,
      "raoĠ": 1667,
      "ĠzhiĠyuĠ": 1668,
      "ĠaiĠ": 1669,
      "ĠĠĠt": 1670,
      "jieĠdeĠ": 1671,
      "liangĠweiĠ": 1672,
      "yaĠdeĠ": 1673,
      "naoĠ": 1674,
      "Ġ0": 1675,
      "chuĠliĠ": 1676,
      "shouĠciĠ": 1677,
      "guanĠdeĠ": 1678,
      "ruiĠ": 1679,
      "nvĠziĠ": 1680,
      "fanĠyingĠ": 1681,
      "saiĠshiĠ": 1682,
      "chuĠbanĠ": 1683,
      "yeĠyouĠ": 1684,
      "dingĠdeĠ": 1685,
      "duiĠdeĠ": 1686,
      "riĠben": 1687,
      "ruoĠ": 1688,
      "kĠ": 1689,
      "ĠĠĠR": 1690,
      "ĠhouĠlaiĠ": 1691,
      "chanĠshengĠ": 1692,
      "jieĠshiĠ": 1693,
      "dongĠwuĠ": 1694,
      "baĠshiĠ": 1695,
      "sheĠshiĠ": 1696,
      "leiĠsiĠ": 1697,
      "ĠshiĠyiĠgeĠ": 1698,
      "juanĠ": 1699,
      "jingĠshiĠ": 1700,
      "sanĠnianĠ": 1701,
      "ĠjiĠxuĠ": 1702,
      "leĠbuĠ": 1703,
      "Ġhuo": 1704,
      "xiangĠshiĠ": 1705,
      "boĠshiĠ": 1706,
      "anĠdeĠ": 1707,
      "Ġma": 1708,
      "lianĠmengĠ": 1709,
      "DĠ": 1710,
      "nanĠziĠ": 1711,
      "souĠ": 1712,
      "duĠdeĠ": 1713,
      "guanĠxiaĠ": 1714,
      "keĠneng": 1715,
      "haiĠshiĠ": 1716,
      "yangĠdeĠ": 1717,
      "dongĠshiĠ": 1718,
      "zaoĠchengĠ": 1719,
      "sheĠliĠ": 1720,
      "yanĠjiu": 1721,
      "lo": 1722,
      "ĠkaiĠ": 1723,
      "Ġai": 1724,
      "zhongĠzhiĠ": 1725,
      "Ġt": 1726,
      "chouĠ": 1727,
      "shanĠxiĠ": 1728,
      "ĠlaiĠ": 1729,
      "daoĠleĠ": 1730,
      "guoĠyiĠ": 1731,
      "Ġmei": 1732,
      "fenĠbuĠ": 1733,
      "nvĠxingĠ": 1734,
      "ĠjiĠzhiĠ": 1735,
      "ĠheĠzuoĠ": 1736,
      "douĠshiĠ": 1737,
      "Ġ1": 1738,
      "ĠsuoĠyiĠ": 1739,
      "caiĠyongĠ": 1740,
      "junĠdeĠ": 1741,
      "jiaoĠshouĠ": 1742,
      "ĠĠĠqiĠ": 1743,
      "dongĠdeĠ": 1744,
      "xiangĠmuĠ": 1745,
      "daiĠdeĠ": 1746,
      "zhengĠdeĠ": 1747,
      "fangĠfaĠ": 1748,
      "ĠzhiĠzhiĠ": 1749,
      "ĠĠĠG": 1750,
      "Ġ14": 1751,
      "xianĠrenĠ": 1752,
      "wuĠliĠ": 1753,
      "ĠyiĠsiĠ": 1754,
      "fangĠdeĠ": 1755,
      "meiĠpingĠfangĠ": 1756,
      "guoĠyuĠ": 1757,
      "zhengĠzhiĠrenĠwuĠ": 1758,
      "ĠJ": 1759,
      "zhongĠyuĠ": 1760,
      "diĠweiĠ": 1761,
      "ĠĠĠD": 1762,
      "liangĠdeĠ": 1763,
      "ĠzaiĠdiĠ": 1764,
      "ĠĠĠrenĠkouĠ": 1765,
      "Ġjiang": 1766,
      "ĠãĤ": 1767,
      "chuanĠtongĠ": 1768,
      "luanĠ": 1769,
      "zhanĠdeĠ": 1770,
      "zhuĠdeĠ": 1771,
      "Ġãģ": 1772,
      "huaĠminĠguoĠ": 1773,
      "xiĠtongĠ": 1774,
      "ĠĠĠyouĠ": 1775,
      "chengĠrenĠ": 1776,
      "jiaĠruĠ": 1777,
      "rengĠ": 1778,
      "xinĠwenĠ": 1779,
      "xiangĠguanĠ": 1780,
      "faĠdeĠ": 1781,
      "geĠshiĠ": 1782,
      "yanĠyuanĠ": 1783,
      "ĠnianĠyiĠ": 1784,
      "mingĠchengĠ": 1785,
      "th": 1786,
      "zanĠ": 1787,
      "haoĠdeĠ": 1788,
      "Ġ2Ġ": 1789,
      "ĠliĠsiĠ": 1790,
      "fuĠshiĠ": 1791,
      "taiĠwan": 1792,
      "ĠjiĠjiĠ": 1793,
      "ĠyiĠhuiĠ": 1794,
      "tiĠchuĠ": 1795,
      "yeĠyuĠ": 1796,
      "Ġcong": 1797,
      "daoĠshiĠ": 1798,
      "bianĠmaĠweiĠ": 1799,
      "ĠĠĠjiĠ": 1800,
      "beiĠrenĠ": 1801,
      "boĠwuĠ": 1802,
      "heĠshiĠ": 1803,
      "ĠjiĠluĠ": 1804,
      "lianĠjieĠ": 1805,
      "ĠtaĠmen": 1806,
      "yuanĠyuĠ": 1807,
      "xueĠdeĠ": 1808,
      "houĠzaiĠ": 1809,
      "kenĠ": 1810,
      "ĠweiĠfuĠ": 1811,
      "ĠdeĠyiĠgeĠshiĠzhenĠ": 1812,
      "aĠerĠ": 1813,
      "ĠzhenĠ": 1814,
      "erĠnianĠ": 1815,
      "ĠyiĠyiĠ": 1816,
      "zangĠ": 1817,
      "foĠ": 1818,
      "ĠxueĠmingĠ": 1819,
      "xiĠjiĠ": 1820,
      "ĠĠĠH": 1821,
      "zuiĠjiaĠ": 1822,
      "ĠxiĠyaĠ": 1823,
      "yingĠyuĠ": 1824,
      "ruanĠ": 1825,
      "muĠsiĠ": 1826,
      "baoĠkuo": 1827,
      "ãĢī": 1828,
      "pĠ": 1829,
      "ãĢĪ": 1830,
      "lingĠshiĠ": 1831,
      "ĠduĠ": 1832,
      "xiaoĠdeĠ": 1833,
      "haiĠyouĠ": 1834,
      "mianĠdeĠ": 1835,
      "ĠweiĠzhuĠ": 1836,
      "ĠrenĠkouĠmiĠduĠ": 1837,
      "geĠdeĠ": 1838,
      "ĠliĠyiĠ": 1839,
      "ĠzheĠshiĠ": 1840,
      "zuiĠgaoĠ": 1841,
      "zhuiĠ": 1842,
      "ĠzhiĠjieĠ": 1843,
      "ĠyaĠ": 1844,
      "dongĠjiĠ": 1845,
      "ĠĠĠjiaĠ": 1846,
      "geĠmingĠ": 1847,
      "ĠshiĠyiĠzhongĠ": 1848,
      "ĠnaĠ": 1849,
      "beiĠshiĠ": 1850,
      "yanĠdeĠ": 1851,
      "xiaĠjiĠ": 1852,
      "gaiĠweiĠ": 1853,
      "haiĠjunĠ": 1854,
      "ĠsheĠ": 1855,
      "zaiĠdeĠ": 1856,
      "10Ġ": 1857,
      "zheĠzhongĠ": 1858,
      "ĠyeĠshiĠ": 1859,
      "yaoĠdeĠ": 1860,
      "jieĠgouĠ": 1861,
      "shuĠshiĠ": 1862,
      "ĠyiĠxieĠ": 1863,
      "shengĠwuĠ": 1864,
      "jiaĠzhiĠ": 1865,
      "ĠyuĠshiĠ": 1866,
      "changĠshiĠ": 1867,
      "ĠÐ": 1868,
      "meiĠtiĠ": 1869,
      "huiĠshiĠ": 1870,
      "gaiĠguoĠ": 1871,
      "pengĠ": 1872,
      "yanĠzhongĠ": 1873,
      "naĠdaĠ": 1874,
      "huiĠfuĠ": 1875,
      "ĠĠĠF": 1876,
      "zhuĠshiĠ": 1877,
      "paĠ": 1878,
      "zhengĠyiĠ": 1879,
      "bianĠdeĠ": 1880,
      "keĠjiĠ": 1881,
      "jieĠguoĠ": 1882,
      "ĠgongĠsiĠ": 1883,
      "Ġgu": 1884,
      "wenĠwuĠ": 1885,
      "ĠzhiĠqianĠ": 1886,
      "zaiĠyuĠ": 1887,
      "ĠĠĠI": 1888,
      "qingĠkuang": 1889,
      "minĠzuĠ": 1890,
      "xinĠxiĠ": 1891,
      "ĠtuĠ": 1892,
      "gaoĠdeĠ": 1893,
      "ĠyiĠzhongĠ": 1894,
      "mieĠ": 1895,
      "yanĠchangĠ": 1896,
      "xianĠyuĠ": 1897,
      "junĠduiĠ": 1898,
      "jianĠshiĠ": 1899,
      "qiĠzhiĠ": 1900,
      "zhaiĠ": 1901,
      "Ġhan": 1902,
      "ĠjiĠzaiĠ": 1903,
      "zhuĠjianĠ": 1904,
      "shuiĠyuĠ": 1905,
      "qianĠdeĠ": 1906,
      "heĠdeĠ": 1907,
      "gongĠkaiĠ": 1908,
      "fanĠduiĠ": 1909,
      "chui": 1910,
      "nengĠliĠ": 1911,
      "ĠweiĠyouĠ": 1912,
      "ĠkeĠsiĠ": 1913,
      "Ġzong": 1914,
      "ĠyangĠ": 1915,
      "gaoĠsuĠ": 1916,
      "ĠĠĠxingĠzhengĠ": 1917,
      "Ġ12": 1918,
      "geĠliĠ": 1919,
      "Ġci": 1920,
      "huaĠshiĠ": 1921,
      "ĠbuĠtongĠ": 1922,
      "xingĠzhiĠ": 1923,
      "leiĠdeĠ": 1924,
      "Ġliang": 1925,
      "geĠlanĠ": 1926,
      "shangĠyeĠ": 1927,
      "ĠchenĠ": 1928,
      "jiangĠjunĠ": 1929,
      "huanĠjingĠ": 1930,
      "ĠguiĠ": 1931,
      "pangĠ": 1932,
      "20Ġ": 1933,
      "ĠzhuĠyaoĠ": 1934,
      "zhangĠdeĠ": 1935,
      "chuangĠzuoĠ": 1936,
      "ĠzuoĠweiĠ": 1937,
      "ĠxuanĠ": 1938,
      "ĠĠĠbenĠ": 1939,
      "saiĠjiĠ": 1940,
      "fouĠ": 1941,
      "ĠK": 1942,
      "moĠshiĠ": 1943,
      "ow": 1944,
      "siĠnianĠ": 1945,
      "tongĠjiĠ": 1946,
      "ĠzaiĠ200": 1947,
      "zheĠdeĠ": 1948,
      "ĠzheĠgeĠ": 1949,
      "kunĠ": 1950,
      "shengĠchanĠ": 1951,
      "biaoĠzhunĠ": 1952,
      "biaoĠxianĠ": 1953,
      "ĠzuĠ": 1954,
      "wuĠfaĠ": 1955,
      "ĠxiangĠgangĠ": 1956,
      "el": 1957,
      "ĠzhongĠhuaĠrenĠminĠgongĠheĠguoĠ": 1958,
      "shengĠyaĠ": 1959,
      "ĠliĠweiĠ": 1960,
      "daĠluĠ": 1961,
      "zongĠjiaoĠ": 1962,
      "hangĠkongĠ": 1963,
      "biĠyeĠ": 1964,
      "zhuĠliĠ": 1965,
      "geĠyueĠ": 1966,
      "shengĠliĠ": 1967,
      "diaoĠchaĠ": 1968,
      "quanĠliĠ": 1969,
      "âĢĵ": 1970,
      "dongĠbuĠ": 1971,
      "zhouĠshiĠ": 1972,
      "ĠkaĠ": 1973,
      "ĠnianĠshiĠ": 1974,
      "ĠbanĠ": 1975,
      "ĠjiĠtuanĠ": 1976,
      "touĠguoĠ": 1977,
      "ĠyiĠbanĠ": 1978,
      "buĠfen": 1979,
      "xieĠhuiĠ": 1980,
      "shenĠfenĠ": 1981,
      "ĠĠĠgenĠjuĠ": 1982,
      "ĠdiĠyiĠ": 1983,
      "ĠyiĠciĠ": 1984,
      "ĠĠĠciĠ": 1985,
      "ĠfangĠ": 1986,
      "ĠĠĠformulaĠ": 1987,
      "faĠyuanĠ": 1988,
      "ĠdangĠdiĠ": 1989,
      "diĠzhiĠ": 1990,
      "siĠyuĠ": 1991,
      "bingĠbuĠ": 1992,
      "gongĠluĠ": 1993,
      "jinĠjiĠ": 1994,
      "ĠĠĠ198": 1995,
      "ĠdeĠyiĠbuĠfenĠ": 1996,
      "buĠyiĠ": 1997,
      "dongĠhuaĠ": 1998,
      "ĠhongĠ": 1999,
      "sangĠ": 2000,
      "gongĠzuo": 2001,
      "xianĠweiĠ": 2002,
      "huiĠzaiĠ": 2003,
      "jiaĠliĠ": 2004,
      "nieĠ": 2005,
      "anĠquanĠ": 2006,
      "chengĠzhongĠ": 2007,
      "saiĠdeĠ": 2008,
      "feiĠchangĠ": 2009,
      "quanĠbuĠ": 2010,
      "baĠgaoĠduĠ": 2011,
      "diĠyuĠ": 2012,
      "jiaoĠshiĠ": 2013,
      "qiuĠyuanĠ": 2014,
      "jieĠzhiĠ": 2015,
      "ĠhuangĠ": 2016,
      "biĠdeĠ": 2017,
      "ĠxieĠ": 2018,
      "chaĠdeĠ": 2019,
      "Ġwan": 2020,
      "ĠzeĠ": 2021,
      "ziĠliaoĠ": 2022,
      "ĠzhiĠxingĠ": 2023,
      "xianĠyiĠ": 2024,
      "luoĠmaĠ": 2025,
      "ĠtangĠ": 2026,
      "fuĠheĠ": 2027,
      "jingĠdeĠ": 2028,
      "tuanĠtiĠ": 2029,
      "ĠleiĠ": 2030,
      "qingĠkuangĠ": 2031,
      "Ġ2": 2032,
      "pingĠjunĠ": 2033,
      "ĠzhouĠ": 2034,
      "rou": 2035,
      "âĢ¦": 2036,
      "ĠkeĠyiĠ": 2037,
      "jinĠbiaoĠ": 2038,
      "chaoĠxianĠ": 2039,
      "neiĠrongĠ": 2040,
      "gaiĠdiĠ": 2041,
      "ĠĠĠ18": 2042,
      "ĠlaĠ": 2043,
      "dingĠyiĠ": 2044,
      "xingĠdongĠ": 2045,
      "ĠlinĠ": 2046,
      "xiaĠyiĠ": 2047,
      "wenĠxueĠ": 2048,
      "ĠW": 2049,
      "jieĠfangĠ": 2050,
      "qiĠjianĠ": 2051,
      "duĠshiĠ": 2052,
      "renĠkouĠpuĠ": 2053,
      "rouĠ": 2054,
      "laĠsiĠ": 2055,
      "jiaĠjiĠ": 2056,
      "ĠruĠguoĠ": 2057,
      "ĠyuĠ202": 2058,
      "juĠminĠ": 2059,
      "gongĠgongĠ": 2060,
      "fenĠbie": 2061,
      "ĠzhiĠyuanĠ": 2062,
      "ĠtaiĠwanĠ": 2063,
      "ĠqiĠhouĠ": 2064,
      "dongĠbeiĠ": 2065,
      "ĠzhiĠhuiĠ": 2066,
      "guaĠ": 2067,
      "shouĠdeĠ": 2068,
      "yanĠchuĠ": 2069,
      "shangĠshiĠ": 2070,
      "ĠyunĠ": 2071,
      "meiĠyuanĠ": 2072,
      "ĠjinĠxingĠ": 2073,
      "UT": 2074,
      "erĠjiĠ": 2075,
      "ĠyaoĠ": 2076,
      "sheĠzhiĠ": 2077,
      "..": 2078,
      "banĠbenĠ": 2079,
      "ter": 2080,
      "PĠ": 2081,
      "lveĠ": 2082,
      "faĠbiaoĠ": 2083,
      "ĠbingĠqieĠ": 2084,
      "yuanĠyiĠ": 2085,
      "saiĠzhongĠ": 2086,
      "keĠxueĠ": 2087,
      "gongĠtongĠ": 2088,
      "ĠyuĠjiĠ": 2089,
      "yanĠshiĠ": 2090,
      "lingĠdaoĠ": 2091,
      "ĠjiĠdiĠ": 2092,
      "renĠyiĠ": 2093,
      "Ġ13": 2094,
      "Ġwo": 2095,
      "sanĠgeĠ": 2096,
      "zaiĠshiĠ": 2097,
      "zuoĠyouĠ": 2098,
      "qingĠnianĠ": 2099,
      "ĠbingĠqie": 2100,
      "Ġb": 2101,
      "aoĠyunĠ": 2102,
      "zuoĠpin": 2103,
      "gaiĠbianĠ": 2104,
      "ĠdeĠzhuĠ": 2105,
      "ĠriĠzaiĠ": 2106,
      "28ĠriĠ": 2107,
      "kongĠjianĠ": 2108,
      "xingĠjiĠ": 2109,
      "zang": 2110,
      "ĠbaoĠkuo": 2111,
      "wuĠzhiĠ": 2112,
      "dengĠdiĠ": 2113,
      "30Ġ": 2114,
      "ĠlingĠwaiĠ": 2115,
      "jiaĠshiĠ": 2116,
      "ĠĠĠ194": 2117,
      "ĠdaiĠ": 2118,
      "ĠdiĠguoĠ": 2119,
      "il": 2120,
      "youĠxiĠ": 2121,
      "Ġliu": 2122,
      "yuanĠheĠ": 2123,
      "fangĠzhiĠ": 2124,
      "ĠniĠ": 2125,
      "luĠxianĠ": 2126,
      "dengĠrenĠ": 2127,
      "ĠĠĠE": 2128,
      "xueĠshiĠ": 2129,
      "guanĠzhongĠ": 2130,
      "wuĠnianĠ": 2131,
      "zuoĠyongĠ": 2132,
      "lanĠdeĠ": 2133,
      "ĠĠĠW": 2134,
      "baoĠdaoĠ": 2135,
      "sang": 2136,
      "xueĠweiĠ": 2137,
      "yuanĠnianĠ": 2138,
      "fenĠzhongĠ": 2139,
      "tongĠchangĠ": 2140,
      "ol": 2141,
      "shuĠweiĠ": 2142,
      "zeĠshiĠ": 2143,
      "juĠdeĠ": 2144,
      "aiĠerĠ": 2145,
      "ĠliĠzhiĠ": 2146,
      "qiĠweiĠ": 2147,
      "maĠliĠ": 2148,
      "Ġ5Ġ": 2149,
      "ĠerĠshiĠ": 2150,
      "ĠkeĠnengĠ": 2151,
      "aoĠlinĠ": 2152,
      "heĠjiĠ": 2153,
      "chuĠrenĠ": 2154,
      "guoĠliĠ": 2155,
      "bangĠzhuĠ": 2156,
      "jiangĠqiĠ": 2157,
      "ĠzhuanĠ": 2158,
      "piĠkeĠ": 2159,
      "gongĠdeĠ": 2160,
      "jingĠneiĠ": 2161,
      "ĠfuĠzeĠ": 2162,
      "zaoĠdaoĠ": 2163,
      "danĠquĠ": 2164,
      "zuĠdeĠ": 2165,
      "ĠĠĠzhongĠ": 2166,
      "taĠmen": 2167,
      "buĠtongĠ": 2168,
      "ĠyuĠyanĠ": 2169,
      "luĠdiĠ": 2170,
      "guiĠdaoĠ": 2171,
      "ĠdaĠdaoĠ": 2172,
      "15ĠriĠ": 2173,
      "juĠjiĠ": 2174,
      "jieĠheĠ": 2175,
      "ĠdanĠrenĠ": 2176,
      "wuĠkeĠlanĠ": 2177,
      "shouĠjiĠ": 2178,
      "ĠyouĠguanĠ": 2179,
      "yaĠzhouĠ": 2180,
      "jiaĠyiĠ": 2181,
      "feiĠjiĠ": 2182,
      "xianĠdaiĠ": 2183,
      "taiĠpingĠ": 2184,
      "ĠyuĠqiĠ": 2185,
      "zhanĠyiĠ": 2186,
      "tuĠdiĠ": 2187,
      "bianĠhuaĠ": 2188,
      "gongĠyeĠ": 2189,
      "shengĠdeĠyiĠgeĠshiĠzhenĠ": 2190,
      "ĠzhiĠjianĠdeĠ": 2191,
      "Ġsi": 2192,
      "xiĠbanĠ": 2193,
      "zhengĠceĠ": 2194,
      "wanĠquanĠ": 2195,
      "ĠĠĠjuĠ": 2196,
      "ĠmuĠqianĠ": 2197,
      "huiĠheĠ": 2198,
      "ĠshiĠxingĠ": 2199,
      "jueĠsaiĠ": 2200,
      "jiaoĠyiĠ": 2201,
      "ĠsiĠkeĠ": 2202,
      "guangĠboĠ": 2203,
      "zaoĠqiĠ": 2204,
      "jiaoĠhuiĠ": 2205,
      "onĠ": 2206,
      "xuanĠzeĠ": 2207,
      "ĠyiĠyouĠ": 2208,
      "Ġda": 2209,
      "yeĠdeĠ": 2210,
      "yuanĠyinĠ": 2211,
      "xingĠchengĠ": 2212,
      "xiaoĠshuoĠ": 2213,
      "piĠpingĠ": 2214,
      "ĠzhaoĠ": 2215,
      "ĠhaiĠbaĠgaoĠduĠ": 2216,
      "25ĠriĠ": 2217,
      "miaoĠshuĠ": 2218,
      "Ġ2001ĠnianĠ": 2219,
      "ĠĠĠN": 2220,
      "ĠbuĠduiĠ": 2221,
      "lianĠbangĠ": 2222,
      "ĠzhiĠyeĠ": 2223,
      "ĠerĠsiĠ": 2224,
      "ĠsiĠteĠ": 2225,
      "UTCĠ": 2226,
      "ĠzaiĠ201": 2227,
      "faĠlvĠ": 2228,
      "zun": 2229,
      "ĠweiĠzhongĠ": 2230,
      "ĠhuoĠdeĠ": 2231,
      "boĠliĠ": 2232,
      "xieĠyiĠ": 2233,
      "tengĠ": 2234,
      "zaoĠdeĠ": 2235,
      "ĠheĠwuĠ": 2236,
      "mingĠmingĠ": 2237,
      "ĠyueĠdeĠ": 2238,
      "chuĠshiĠ": 2239,
      "jianĠsheĠ": 2240,
      "beiĠchengĠweiĠ": 2241,
      "changĠqiĠ": 2242,
      "gongĠsi": 2243,
      "zhuanĠyeĠ": 2244,
      "yunĠdongĠhuiĠ": 2245,
      "dianĠziĠ": 2246,
      "ĠdiĠsanĠ": 2247,
      "ĠyiĠyuĠ": 2248,
      "erĠweiĠ": 2249,
      "wenĠhua": 2250,
      "yuanĠzhuĠ": 2251,
      "30ĠriĠ": 2252,
      "ĠjianĠchengĠ": 2253,
      "chiĠxuĠ": 2254,
      "ĠshiĠyanĠ": 2255,
      "ĠdangĠzhongĠ": 2256,
      "zuiĠdaĠ": 2257,
      "ĠcheĠ": 2258,
      "20ĠriĠ": 2259,
      "jieĠdaoĠ": 2260,
      "Ġjiu": 2261,
      "zuĠheĠ": 2262,
      "duoĠshuĠ": 2263,
      "to": 2264,
      "seĠdeĠ": 2265,
      "100Ġ": 2266,
      "Ġnan": 2267,
      "taĠzaiĠ": 2268,
      "Ġ3Ġ": 2269,
      "paiĠsheĠ": 2270,
      "houĠlaiĠ": 2271,
      "luan": 2272,
      "ĠweiĠdiĠ": 2273,
      "ĠneiĠ": 2274,
      "10ĠriĠ": 2275,
      "linĠshiĠ": 2276,
      "ĠtaĠshiĠ": 2277,
      "ĠeĠ": 2278,
      "baĠliĠ": 2279,
      "wuĠyuanĠ": 2280,
      "ziĠgeĠ": 2281,
      "ĠshuiĠ": 2282,
      "ĠchuanĠ": 2283,
      "ĠchongĠ": 2284,
      "miĠdeĠ": 2285,
      "shengĠheĠ": 2286,
      "Ġmo": 2287,
      "buĠliĠ": 2288,
      "Ġbei": 2289,
      "ĠyouĠchengĠ": 2290,
      "aĠlaĠ": 2291,
      "fuĠzhiĠ": 2292,
      "ĠjiĠgouĠ": 2293,
      "chuĠqiĠ": 2294,
      "tongĠnianĠ": 2295,
      "luoĠdeĠ": 2296,
      "ĠO": 2297,
      "ĠyiĠmingĠ": 2298,
      "ruan": 2299,
      "erĠziĠ": 2300,
      "buĠjiĠ": 2301,
      "dongĠnanĠ": 2302,
      "40": 2303,
      "gaoĠzhongĠ": 2304,
      "taĠmenĠdeĠ": 2305,
      "ĠÃ": 2306,
      "lingĠyuĠ": 2307,
      "ĠdanĠzaiĠ": 2308,
      "zaĠzhiĠ": 2309,
      "ĠdiĠsiĠ": 2310,
      "faĠzhan": 2311,
      "ĠgengĠ": 2312,
      "ĠshiĠweiĠyuĠmeiĠguoĠ": 2313,
      "ĠjiĠjinĠ": 2314,
      "Ġ11": 2315,
      "daĠdaoĠ": 2316,
      "xingĠyuĠ": 2317,
      "wangĠdeĠ": 2318,
      "ĠjinĠguanĠ": 2319,
      "Ġye": 2320,
      "ĠweiĠyuĠgaiĠguoĠ": 2321,
      "gaiĠnianĠ": 2322,
      "Ġha": 2323,
      "Ġ6Ġ": 2324,
      "ve": 2325,
      "ĠyueĠzhiĠ": 2326,
      "baoĠgaoĠ": 2327,
      "ĠguoĠminĠ": 2328,
      "ĠliĠkeĠ": 2329,
      "kuiĠ": 2330,
      "tuĠerĠ": 2331,
      "boĠchuĠ": 2332,
      "shengĠweiĠ": 2333,
      "kuaĠ": 2334,
      "fangĠxiangĠ": 2335,
      "ĠshiĠjieĠdaĠ": 2336,
      "IĠ": 2337,
      "zhongĠjiĠ": 2338,
      "24ĠriĠ": 2339,
      "boĠwuĠguanĠ": 2340,
      "Ġc": 2341,
      "guiĠdingĠ": 2342,
      "daoĠyiĠ": 2343,
      "ĠliĠyongĠ": 2344,
      "ĠliĠkaiĠ": 2345,
      "guangĠdongĠ": 2346,
      "neiĠbuĠ": 2347,
      "guoĠminĠ": 2348,
      "Ġhou": 2349,
      "26ĠriĠ": 2350,
      "yinĠhangĠ": 2351,
      "canĠsaiĠ": 2352,
      "sheĠquĠ": 2353,
      "gongĠchanĠdangĠ": 2354,
      "ĠyueĠshiĠ": 2355,
      "muĠbiaoĠ": 2356,
      "EE": 2357,
      "guanĠfangĠ": 2358,
      "ĠsuiĠhouĠ": 2359,
      "guanĠzhiĠ": 2360,
      "dianĠliĠ": 2361,
      "wuĠxianĠ": 2362,
      "ĠxiĠlieĠ": 2363,
      "bingĠweiĠ": 2364,
      "18ĠriĠ": 2365,
      "ĠzheĠzhongĠ": 2366,
      "ĠrenĠweiĠ": 2367,
      "ĠyuĠzhiĠ": 2368,
      "aoĠlinĠpiĠkeĠ": 2369,
      "quanĠqiuĠ": 2370,
      "dangĠdeĠ": 2371,
      "ĠmengĠ": 2372,
      "juĠbanĠ": 2373,
      "ĠweiĠsiĠ": 2374,
      "lianĠxiĠ": 2375,
      "Ġling": 2376,
      "gongĠbuĠ": 2377,
      "yinĠshiĠ": 2378,
      "VĠ": 2379,
      "fuĠliĠ": 2380,
      "muĠdeĠ": 2381,
      "lieĠdeĠ": 2382,
      "ĠjiĠchangĠ": 2383,
      "ĠyingĠguoĠ": 2384,
      "shenĠdeĠ": 2385,
      "Ġsan": 2386,
      "ĠĠĠa": 2387,
      "ĠfenĠbuĠyuĠ": 2388,
      "ĠyouĠqiĠ": 2389,
      "changĠweiĠ": 2390,
      "ĠerĠshengĠ": 2391,
      "biĠliĠ": 2392,
      "touĠziĠ": 2393,
      "zheĠshiĠ": 2394,
      "shangĠshuĠ": 2395,
      "vi": 2396,
      "muĠdiĠ": 2397,
      "dongĠjingĠ": 2398,
      "ĠjunĠ": 2399,
      "miĠerĠ": 2400,
      "16ĠriĠ": 2401,
      "dingĠweiĠ": 2402,
      "xunĠlianĠ": 2403,
      "ĠyuĠzhongĠ": 2404,
      "ceĠshiĠ": 2405,
      "ĠjiĠheĠ": 2406,
      "mingĠziĠ": 2407,
      "qiong": 2408,
      "fenĠzhiĠ": 2409,
      "baoĠfaĠ": 2410,
      "yingĠyongĠ": 2411,
      "Ġqie": 2412,
      "fuĠyiĠ": 2413,
      "ĠĠĠK": 2414,
      "ĠtaĠyuĠ": 2415,
      "kaiĠfangĠ": 2416,
      "Ġ4Ġ": 2417,
      "guoĠzhiĠ": 2418,
      "17ĠriĠ": 2419,
      "huaĠxueĠ": 2420,
      "21Ġ": 2421,
      "ĠdeĠdaoĠ": 2422,
      "ĠyouĠxianĠgongĠsiĠ": 2423,
      "ĠĠĠzhengĠzhiĠ": 2424,
      "21ĠriĠ": 2425,
      "buĠzhiĠ": 2426,
      "ĠshiĠziĠ": 2427,
      "ĠdeĠshiĠzhenĠ": 2428,
      "aiĠdeĠ": 2429,
      "yinĠqiĠ": 2430,
      "27ĠriĠ": 2431,
      "ck": 2432,
      "ĠqieĠ": 2433,
      "kaĠerĠ": 2434,
      "ĠzhongĠxueĠ": 2435,
      "8ĠriĠ": 2436,
      "junĠweiĠ": 2437,
      "ĠmianĠ": 2438,
      "ĠliĠfaĠ": 2439,
      "12ĠriĠ": 2440,
      "23ĠriĠ": 2441,
      "ĠchuĠleĠ": 2442,
      "shangĠyouĠ": 2443,
      "shouĠyuĠ": 2444,
      "ĠshiĠheĠ": 2445,
      "daoĠyuĠ": 2446,
      "suĠlianĠ": 2447,
      "7ĠriĠ": 2448,
      "xiĠlieĠ": 2449,
      "hi": 2450,
      "ĠyinĠci": 2451,
      "meiĠguoĠrenĠkouĠpuĠ": 2452,
      "feiĠxingĠ": 2453,
      "shuĠliangĠweiĠ": 2454,
      "juĠleĠbuĠ": 2455,
      "teĠbie": 2456,
      "xueĠzheĠ": 2457,
      "EĠ": 2458,
      "fenĠxiĠ": 2459,
      "guiĠmoĠ": 2460,
      "ĠshaĠ": 2461,
      "huangĠdiĠ": 2462,
      "biĠxuĠ": 2463,
      "nengĠgouĠ": 2464,
      "meĠ": 2465,
      "banĠshiĠ": 2466,
      "11ĠriĠ": 2467,
      "lengĠ": 2468,
      "ĠwaiĠ": 2469,
      "qiĠjiĠ": 2470,
      "22ĠriĠ": 2471,
      "ĠshiĠfaĠguoĠ": 2472,
      "gongĠnengĠ": 2473,
      "teĠdeĠ": 2474,
      "9ĠriĠ": 2475,
      "jiaoĠdeĠ": 2476,
      "ĠminĠ": 2477,
      "shanĠdongĠ": 2478,
      "taiĠdeĠ": 2479,
      "ziĠyuĠ": 2480,
      "pingĠjiaĠ": 2481,
      "19ĠriĠ": 2482,
      "jinĠzhiĠ": 2483,
      "fengĠgeĠ": 2484,
      "29ĠriĠ": 2485,
      "60": 2486,
      "chuĠyiĠ": 2487,
      "geĠdiĠ": 2488,
      "ĠfuĠwuĠ": 2489,
      "suoĠshuĠdeĠ": 2490,
      "tingĠzhiĠ": 2491,
      "guanĠyuanĠ": 2492,
      "zuiĠdaĠdeĠ": 2493,
      "NS": 2494,
      "jingĠyingĠ": 2495,
      "yingĠshiĠ": 2496,
      "sheĠdeĠ": 2497,
      "keĠshiĠ": 2498,
      "20ĠnianĠ": 2499,
      "ĠyueĠhanĠ": 2500,
      "fuĠjinĠ": 2501,
      "dianĠdeĠ": 2502,
      "shengĠmingĠ": 2503,
      "oo": 2504,
      "jieĠchuĠ": 2505,
      "5ĠriĠ": 2506,
      "3ĠriĠ": 2507,
      "ĠjiĠbaiĠ": 2508,
      "Ġming": 2509,
      "qingĠkuangĠxiaĠ": 2510,
      "fuĠyuĠ": 2511,
      "zhengĠzaiĠ": 2512,
      "ĠĠĠ197": 2513,
      "am": 2514,
      "14ĠriĠ": 2515,
      "shouĠshiĠ": 2516,
      "tiaoĠjianĠ": 2517,
      "quĠhuaĠ": 2518,
      "Ġ190": 2519,
      "yuanĠjiĠ": 2520,
      "nuĠ": 2521,
      "ĠsuiĠranĠ": 2522,
      "yuanĠzhiĠ": 2523,
      "xiĠshiĠ": 2524,
      "shangĠweiĠ": 2525,
      "ĠĠĠyouĠyuĠ": 2526,
      "zhuĠzaiĠ": 2527,
      "maiĠkeĠ": 2528,
      "ĠĠĠ195": 2529,
      "daĠjiĠ": 2530,
      "ĠĠĠliĠ": 2531,
      "ĠbuĠjiuĠ": 2532,
      "4ĠriĠ": 2533,
      "40Ġ": 2534,
      "ĠdaĠhuiĠ": 2535,
      "xiaoĠxingĠxingĠ": 2536,
      "2ĠriĠ": 2537,
      "ĠsongĠ": 2538,
      "duoĠgeĠ": 2539,
      "chaoĠjiĠ": 2540,
      "liuĠxingĠ": 2541,
      "6ĠriĠ": 2542,
      "shengĠzaiĠ": 2543,
      "teĠzhengĠ": 2544,
      "jieĠduanĠ": 2545,
      "qiĠnianĠ": 2546,
      "boĠteĠ": 2547,
      "BĠ": 2548,
      "ĠgongĠchiĠ": 2549,
      "nanĠxingĠ": 2550,
      "31ĠriĠ": 2551,
      "geĠjiĠ": 2552,
      "13ĠriĠ": 2553,
      "ĠzuiĠhouĠ": 2554,
      "ĠdaoĠzhiĠ": 2555,
      "yaĠyuĠ": 2556,
      "siĠrenĠ": 2557,
      "zongĠheĠ": 2558,
      "wenĠwuĠbaoĠhuĠ": 2559,
      "ĠdeĠweiĠ": 2560,
      "haiĠyuĠ": 2561,
      "30ĠnianĠ": 2562,
      "geĠweiĠ": 2563,
      "renĠheĠ": 2564,
      "aoĠsiĠ": 2565,
      "wuĠjiĠ": 2566,
      "lvĠyouĠ": 2567,
      "zuoĠjiaĠ": 2568,
      "renĠjiĠ": 2569,
      "manĠhuaĠ": 2570,
      "ĠganĠ": 2571,
      "ĠriĠzhiĠ": 2572,
      "keĠdaĠ": 2573,
      "geĠshouĠ": 2574,
      "xiongĠdiĠ": 2575,
      "yinĠciĠ": 2576,
      "wĠ": 2577,
      "xuĠduo": 2578,
      "huangĠjiaĠ": 2579,
      "shengĠfenĠ": 2580,
      "lianĠmeng": 2581,
      "ouĠzhou": 2582,
      "jianĠweiĠ": 2583,
      "ĠtongĠguoĠ": 2584,
      "zaiĠweiĠ": 2585,
      "ĠdeĠzhongĠ": 2586,
      "fenĠziĠ": 2587,
      "juĠrenĠ": 2588,
      "lieĠche": 2589,
      "ĠshenĠzhiĠ": 2590,
      "banĠdaoĠ": 2591,
      "niuĠyueĠ": 2592,
      "ĠbrĠ": 2593,
      "zhuĠtiĠ": 2594,
      "ciĠshiĠjieĠdaĠ": 2595,
      "chengĠduĠ": 2596,
      "wangĠluoĠ": 2597,
      "ĠĠĠjinĠ": 2598,
      "zhongĠweiĠ": 2599,
      "ĠtaĠcengĠ": 2600,
      "chengĠyiĠ": 2601,
      "ciĠdeĠ": 2602,
      "youĠyiĠgeĠ": 2603,
      "zhuangĠtaiĠ": 2604,
      "naiĠ": 2605,
      "Ġ2011ĠnianĠ": 2606,
      "xianĠdeĠyiĠgeĠ": 2607,
      "benĠdeĠ": 2608,
      "bianĠweiĠ": 2609,
      "ĠyouĠmingĠ": 2610,
      "pinĠdaoĠ": 2611,
      "ĠzhiĠjiĠ": 2612,
      "juĠzhongĠ": 2613,
      "xuanĠshouĠ": 2614,
      "heĠliĠ": 2615,
      "maoĠyiĠ": 2616,
      "20ĠshiĠjiĠ": 2617,
      "buĠzhangĠ": 2618,
      "renĠkouĠshuĠliangĠweiĠ": 2619,
      "ĠlingĠyiĠ": 2620,
      "ĠzaiĠqiĠ": 2621,
      "duoĠciĠ": 2622,
      "huiĠyouĠ": 2623,
      "baoĠhanĠ": 2624,
      "ĠĠĠ196": 2625,
      "ĠĠĠziĠ": 2626,
      "qianĠyiĠ": 2627,
      "ĠĠĠO": 2628,
      "huiĠdaoĠ": 2629,
      "beiĠdeĠ": 2630,
      "shuoĠshiĠ": 2631,
      "ĠyuĠ199": 2632,
      "liuĠnianĠ": 2633,
      "ĠzhiĠliĠ": 2634,
      "ĠrenĠzhongĠ": 2635,
      "moĠdeĠ": 2636,
      "gaoĠjiĠ": 2637,
      "zhunĠbeiĠ": 2638,
      "fangĠanĠ": 2639,
      "ĠU": 2640,
      "faĠshiĠ": 2641,
      "ĠheĠnanĠ": 2642,
      "shengĠchan": 2643,
      "bingĠliĠ": 2644,
      "ca": 2645,
      "waiĠdeĠ": 2646,
      "daĠxingĠ": 2647,
      "wuĠqiĠ": 2648,
      "sheĠbeiĠ": 2649,
      "jieĠjiĠ": 2650,
      "gongĠzhongĠ": 2651,
      "ciĠzhiĠ": 2652,
      "xiangĠtongĠ": 2653,
      "ĠyiĠlaiĠ": 2654,
      "ĠzhiĠzhongĠ": 2655,
      "buĠweiĠ": 2656,
      "taiĠyangĠ": 2657,
      "shuĠguanĠ": 2658,
      "youĠzhiĠ": 2659,
      "leĠyiĠgeĠ": 2660,
      "mangĠ": 2661,
      "yuanĠweiĠ": 2662,
      "ĠdiĠfangĠ": 2663,
      "haoĠmiĠ": 2664,
      "dianĠshiĠtaiĠ": 2665,
      "luĠjunĠ": 2666,
      "ĠzhongĠbuĠ": 2667,
      "ziĠshiĠ": 2668,
      "ĠdeĠyiĠzhongĠ": 2669,
      "xingĠheĠ": 2670,
      "ĠrenĠkouĠmiĠduĠweiĠ": 2671,
      "juĠshiĠ": 2672,
      "dengĠjiĠ": 2673,
      "ĠrenĠkou": 2674,
      "zuiĠhouĠ": 2675,
      "xuanĠweiĠ": 2676,
      "190": 2677,
      "ĠsuiĠran": 2678,
      "zheĠjiangĠ": 2679,
      "guĠjiĠ": 2680,
      "zhanĠdouĠ": 2681,
      "fangĠyuĠ": 2682,
      "junĠzaiĠ": 2683,
      "huiĠyuĠ": 2684,
      "xinĠliĠ": 2685,
      "biaoĠyanĠ": 2686,
      "qiuĠjiĠ": 2687,
      "ĠkaiĠshiĠ": 2688,
      "gaiĠgeĠ": 2689,
      "guangĠchangĠ": 2690,
      "siĠwangĠ": 2691,
      "zaiĠjiĠ": 2692,
      "meiĠzhouĠ": 2693,
      "ĠweiĠyuĠfaĠguoĠ": 2694,
      "daĠliangĠ": 2695,
      "jianĠchengĠ": 2696,
      "nao": 2697,
      "nongĠyeĠ": 2698,
      "ĠzhiĠjinĠ": 2699,
      "dianĠshiĠjuĠ": 2700,
      "zhanĠkaiĠ": 2701,
      "yangĠshiĠ": 2702,
      "ĠxiĠbanĠ": 2703,
      "bianĠchengĠ": 2704,
      "shangĠyiĠ": 2705,
      "liuĠshiĠ": 2706,
      "kengĠ": 2707,
      "ĠzhuĠyao": 2708,
      "wanĠrenĠ": 2709,
      "ĠshiĠdaiĠ": 2710,
      "chanĠpinĠ": 2711,
      "xieĠzhuĠ": 2712,
      "ĠlanĠ": 2713,
      "wenĠwuĠbaoĠhuĠdanĠweiĠ": 2714,
      "saoĠ": 2715,
      "muĠqianĠ": 2716,
      "ĠĠĠdaĠ": 2717,
      "jiaĠheĠ": 2718,
      "ĠpaiĠ": 2719,
      "tiaoĠyueĠ": 2720,
      "huoĠdeĠleĠ": 2721,
      "ĠjiaĠruĠ": 2722,
      "ĠĠĠJ": 2723,
      "ĠqiuĠ": 2724,
      "zhuĠyuĠ": 2725,
      "ĠdeĠliĠ": 2726,
      "ĠbuĠzaiĠ": 2727,
      "Ġfan": 2728,
      "zhenĠquĠ": 2729,
      "daoĠluĠ": 2730,
      "fenĠleiĠ": 2731,
      "48": 2732,
      "ĠsaiĠ": 2733,
      "Ġ2010ĠnianĠ": 2734,
      "youĠzhengĠ": 2735,
      "riĠqiĠ": 2736,
      "fuĠjianĠ": 2737,
      "ĠranĠ": 2738,
      "shouĠduĠ": 2739,
      "faĠyuĠ": 2740,
      "gongĠyouĠrenĠkouĠ": 2741,
      "Ġque": 2742,
      "cuoĠ": 2743,
      "iĠ": 2744,
      "yingĠjiĠ": 2745,
      "qunĠdaoĠ": 2746,
      "biĠjiaoĠ": 2747,
      "ĠyiĠbeiĠ": 2748,
      "haiĠbaĠ": 2749,
      "duanĠdeĠ": 2750,
      "qingĠdeĠ": 2751,
      "zhanĠzheng": 2752,
      "guiĠhuaĠ": 2753,
      "ĠpiĠ": 2754,
      "ĠbeiĠqiĠ": 2755,
      "ĠqiangĠ": 2756,
      "Ġh": 2757,
      "qiaoĠzhiĠ": 2758,
      "ĠlvĠ": 2759,
      "ĠqiĠyeĠ": 2760,
      "suĠduĠ": 2761,
      "hangĠkong": 2762,
      "nvĠerĠ": 2763,
      "xiĠbuĠ": 2764,
      "ĠxiĠwangĠ": 2765,
      "xiĠweiĠ": 2766,
      "ĠzhongĠhuaĠminĠguoĠ": 2767,
      "ĠxingĠzhengĠ": 2768,
      "kua": 2769,
      "ĠzaiĠzhongĠ": 2770,
      "ĠbuĠhuiĠ": 2771,
      "siĠheĠ": 2772,
      "zeĠrenĠ": 2773,
      "ĠzhiĠzaiĠ": 2774,
      "quĠdaiĠ": 2775,
      "ĠgongĠfenĠ": 2776,
      "ĠyiĠshiĠ": 2777,
      "Ġfei": 2778,
      "dongĠliĠ": 2779,
      "meiĠpingĠfangĠgongĠliĠ": 2780,
      "ĠyuĠweiĠ": 2781,
      "dongĠxiĠ": 2782,
      "jiuĠshiĠzhenĠ": 2783,
      "jinĠgongĠ": 2784,
      "ĠfaĠguoĠ": 2785,
      "diĠyiĠgeĠ": 2786,
      "ĠkeĠneng": 2787,
      "ĠyiĠyangĠ": 2788,
      "et": 2789,
      "RĠ": 2790,
      "ĠĠĠjianĠ": 2791,
      "ĠzheĠyiĠ": 2792,
      "zunĠ": 2793,
      "douĠyouĠ": 2794,
      "ĠdouĠ": 2795,
      "ĠdeĠshiĠjianĠ": 2796,
      "Ġchen": 2797,
      "taiĠbeiĠ": 2798,
      "ruĠxiaĠ": 2799,
      "ĠV": 2800,
      "35": 2801,
      "ĠliĠziĠ": 2802,
      "ĠĠĠof": 2803,
      "xiangĠjiĠ": 2804,
      "maĠlai": 2805,
      "houĠyuĠ": 2806,
      "ĠyiĠrenĠ": 2807,
      "ĠĠĠxiĠ": 2808,
      "siĠweiĠ": 2809,
      "rongĠyuĠ": 2810,
      "60Ġ": 2811,
      "ĠhuanĠ": 2812,
      "xiangĠduiĠ": 2813,
      "henĠduoĠ": 2814,
      "ĠgangĠ": 2815,
      "ĠĠĠ2021ĠnianĠ": 2816,
      "biaoĠzhun": 2817,
      "ĠfenĠbie": 2818,
      "fuĠrenĠ": 2819,
      "laĠkeĠ": 2820,
      "lianĠxuĠ": 2821,
      "shangĠwuĠ": 2822,
      "jinĠbiaoĠsaiĠ": 2823,
      "jieĠrang": 2824,
      "ĠmeiĠyouĠ": 2825,
      "ĠĠĠ2019ĠnianĠ": 2826,
      "chengĠzhenĠ": 2827,
      "yuĠshiĠdeĠ": 2828,
      "zongĠliĠ": 2829,
      "ĠciĠhouĠ": 2830,
      "quĠyiĠ": 2831,
      "mingĠshiĠ": 2832,
      "jianĠyouĠ": 2833,
      "ĠerĠbeiĠ": 2834,
      "miĠshuĠ": 2835,
      "Ġgeng": 2836,
      "wangĠguoĠ": 2837,
      "ciĠjiĠ": 2838,
      "Ġzhao": 2839,
      "keĠweiĠ": 2840,
      "zhengĠgeĠ": 2841,
      "ĠĠĠfuĠ": 2842,
      "minĠzhongĠ": 2843,
      "xiaoĠxiĠ": 2844,
      "70": 2845,
      "tieĠdaoĠ": 2846,
      "zuiĠhouĠyiĠ": 2847,
      "80": 2848,
      "12Ġ": 2849,
      "ĠĠĠzheĠ": 2850,
      "renĠkouĠshuĠliangĠweiĠrenĠ": 2851,
      "diĠsanĠ": 2852,
      "ĠchaoĠ": 2853,
      "yeĠwuĠ": 2854,
      "cuiĠ": 2855,
      "Ġ2009ĠnianĠ": 2856,
      "ĠheiĠ": 2857,
      "zhanĠlingĠ": 2858,
      "jueĠdeĠ": 2859,
      "ĠtouĠ": 2860,
      "ĠĠĠ2020ĠnianĠ": 2861,
      "renĠyuĠ": 2862,
      "xinĠjiaĠ": 2863,
      "ĠINS": 2864,
      "ĠyiĠxiaĠ": 2865,
      "MĠ": 2866,
      "ĠĠĠzhuĠ": 2867,
      "shouĠgeĠ": 2868,
      "waiĠjiaoĠ": 2869,
      "shengĠchengĠ": 2870,
      "tianĠzhuĠjiaoĠ": 2871,
      "jiaĠnaĠdaĠ": 2872,
      "qiĠta": 2873,
      "zhenĠshiĠ": 2874,
      "ĠliĠshuĠyuĠ": 2875,
      "ĠINSEE": 2876,
      "ĠchengĠquĠ": 2877,
      "quanĠdeĠ": 2878,
      "laĠdeĠ": 2879,
      "jianĠchaĠ": 2880,
      "fenĠdeĠ": 2881,
      "yuanĠziĠ": 2882,
      "ĠerĠqieĠ": 2883,
      "wangĠzhanĠ": 2884,
      "neĠ": 2885,
      "tianĠwenĠ": 2886,
      "niĠya": 2887,
      "ĠĠĠ3": 2888,
      "rengĠran": 2889,
      "zuoĠchuĠ": 2890,
      "ĠnianĠjiĠ": 2891,
      "ĠzhongĠxin": 2892,
      "yuanĠyouĠ": 2893,
      "ĠranĠhouĠ": 2894,
      "daĠxue": 2895,
      "zhengĠquanĠ": 2896,
      "Ġni": 2897,
      "ĠnvĠ": 2898,
      "nanĠjiĠ": 2899,
      "dianĠying": 2900,
      "ĠmanĠ": 2901,
      "quĠxiaoĠ": 2902,
      "puĠtaoĠ": 2903,
      "juĠjueĠ": 2904,
      "ĠdeĠshiĠhouĠ": 2905,
      "ĠxianĠshiĠ": 2906,
      "zhongĠxinĠ": 2907,
      "jieĠjueĠ": 2908,
      "ĠheĠbeiĠ": 2909,
      "wuĠyiĠ": 2910,
      "luĠshiĠ": 2911,
      "jiaoĠweiĠ": 2912,
      "ĠrenĠzaiĠ": 2913,
      "xianĠfaĠ": 2914,
      "tiĠjiĠ": 2915,
      "cheĠliangĠ": 2916,
      "shunĠ": 2917,
      "ĠĠĠtheĠĠĠ": 2918,
      "ziĠxingĠ": 2919,
      "shengĠzhiĠ": 2920,
      "dianĠjiĠ": 2921,
      "leĠjiĠ": 2922,
      "yunĠyingĠ": 2923,
      "ĠgaiĠshengĠ": 2924,
      "zhanĠdou": 2925,
      "heĠweiĠ": 2926,
      "ĠĠĠV": 2927,
      "daĠliĠyaĠ": 2928,
      "ciĠyuĠ": 2929,
      "ĠĠĠ2018ĠnianĠ": 2930,
      "ĠchiĠ": 2931,
      "diĠfangĠ": 2932,
      "zhenĠdeĠ": 2933,
      "lanĠxiĠ": 2934,
      "ĠzongĠmianĠjiĠ": 2935,
      "heĠzhiĠ": 2936,
      "ĠqiĠta": 2937,
      "boĠlanĠ": 2938,
      "ĠjieĠzhiĠ": 2939,
      "mingĠyiĠ": 2940,
      "mengĠguĠ": 2941,
      "ĠdingĠ": 2942,
      "moĠxiĠ": 2943,
      "ĠdeĠyuĠ": 2944,
      "2022ĠnianĠ": 2945,
      "pen": 2946,
      "zaoĠnianĠ": 2947,
      "niĠsiĠ": 2948,
      "ĠriĠben": 2949,
      "ĠyouĠyiĠ": 2950,
      "Ġxin": 2951,
      "gongĠyiĠ": 2952,
      "shuĠzhiĠ": 2953,
      "shaoĠnianĠ": 2954,
      "faĠdongĠ": 2955,
      "xiaoĠxueĠ": 2956,
      "ĠdiĠqiĠ": 2957,
      "qingĠshiĠ": 2958,
      "shouĠweiĠ": 2959,
      "ĠrenĠkouĠmiĠduĠmeiĠpingĠfangĠgongĠliĠ": 2960,
      "chaĠdeĠshuĠjuĠ": 2961,
      "youĠzhengĠbianĠmaĠweiĠ": 2962,
      "muĠshiĠ": 2963,
      "ganĠdaoĠ": 2964,
      "diĠyiĠciĠ": 2965,
      "die": 2966,
      "jiangĠshiĠ": 2967,
      "ĠshiĠzhenĠbianĠmaĠweiĠ": 2968,
      "ĠINSEEĠshiĠzhenĠbianĠmaĠweiĠ": 2969,
      "huiĠzhiĠ": 2970,
      "teĠliĠ": 2971,
      "ĠrenĠkouĠmiĠduĠweiĠmeiĠpingĠfangĠ": 2972,
      "zhuoĠ": 2973,
      "ĠĠĠbuĠ": 2974,
      "ãĢİ": 2975,
      "ĠxingĠchengĠ": 2976,
      "ĠxiaĠlingĠshiĠ": 2977,
      "ĠjianĠzhuĠ": 2978,
      "xiĠliĠ": 2979,
      "keĠzaiĠ": 2980,
      "ĠĠĠnianĠ": 2981,
      "ãĢı": 2982,
      "yeĠzaiĠ": 2983,
      "zuoĠzhanĠ": 2984,
      "xuanĠquĠweiĠ": 2985,
      "xianĠheĠ": 2986,
      "leiĠjiĠ": 2987,
      "yuĠshiĠdeĠrenĠkouĠshuĠliangĠweiĠrenĠ": 2988,
      "jingĠchangĠ": 2989,
      "meiĠguoĠrenĠkouĠpuĠchaĠdeĠshuĠjuĠ": 2990,
      "ĠduiĠyuĠ": 2991,
      "ĠĠĠ193": 2992,
      "zuoĠyiĠ": 2993,
      "luĠyiĠ": 2994,
      "baoĠdeĠ": 2995,
      "ĠerĠrenĠkouĠmiĠduĠweiĠmeiĠpingĠfangĠ": 2996,
      "ĠdangĠdiĠgongĠyouĠrenĠkouĠ": 2997,
      "erĠheĠ": 2998,
      "yunĠxingĠ": 2999,
      "ĠhuoĠjiuĠshiĠzhenĠ": 3000,
      "pang": 3001,
      "huoĠshiĠ": 3002,
      "shengĠjiĠxuanĠquĠweiĠ": 3003,
      "wuĠrenĠ": 3004,
      "congĠshiĠ": 3005,
      "yingĠchiĠ": 3006,
      "gaoĠdengĠ": 3007,
      "kuaiĠsuĠ": 3008,
      "yangĠhuaĠ": 3009,
      "zhangĠdaĠ": 3010,
      "at": 3011,
      "shengĠrenĠ": 3012,
      "bianĠjiĠ": 3013,
      "ĠzhongĠyang": 3014,
      "fou": 3015,
      "jinĠyiĠbuĠ": 3016,
      "chongĠjianĠ": 3017,
      "fenĠweiĠfaĠguoĠ": 3018,
      "ĠgaiĠshengĠfenĠweiĠfaĠguoĠ": 3019,
      "faĠqiĠ": 3020,
      "yunĠshuĠ": 3021,
      "Ġxiang": 3022,
      "be": 3023,
      "wanĠjiaĠ": 3024,
      "zhengĠmingĠ": 3025,
      "ĠĠĠ2017ĠnianĠ": 3026,
      "2ĠrenĠ": 3027,
      "ĠhaĠ": 3028,
      "gaoĠyuĠ": 3029,
      "jiangĠyuĠ": 3030,
      "duiĠzaiĠ": 3031,
      "chengĠliĠyuĠ": 3032,
      "ĠshuangĠ": 3033,
      "jiaĠzhongĠ": 3034,
      "fuĠqinĠ": 3035,
      "yingĠxiang": 3036,
      "fanĠhuiĠ": 3037,
      "jieĠrangĠdeĠshiĠzhenĠ": 3038,
      "naĠdeĠ": 3039,
      "mingĠdanĠ": 3040,
      "lianĠheĠguoĠ": 3041,
      "suoĠshuĠdeĠshengĠjiĠxuanĠquĠweiĠ": 3042,
      "yanĠjiuĠsuoĠ": 3043,
      "ĠteĠbie": 3044,
      "fangĠqiĠ": 3045,
      "zhongĠhuaĠrenĠminĠgongĠheĠguoĠ": 3046,
      "daĠquĠ": 3047,
      "taiĠguoĠ": 3048,
      "ĠshiĠchangĠ": 3049,
      "ziĠyuanĠ": 3050,
      "gouĠdeĠ": 3051,
      "juĠyuĠ": 3052,
      "Ġ2013ĠnianĠ": 3053,
      "gongĠxianĠ": 3054,
      "cengĠzaiĠ": 3055,
      "aoĠlinĠpiĠkeĠyunĠdongĠhuiĠ": 3056,
      "Ġ2019ĠnianĠ": 3057,
      "siĠliĠ": 3058,
      "ziĠweiĠ": 3059,
      "100": 3060,
      "gongĠrenĠ": 3061,
      "shuoĠfaĠ": 3062,
      "zhuĠchiĠ": 3063,
      "yuanĠliĠ": 3064,
      "beiĠyiĠ": 3065,
      "xianĠxiangĠ": 3066,
      "erĠzaiĠ": 3067,
      "tiĠxiĠ": 3068,
      "ceĠdeĠ": 3069,
      "pingĠtaiĠ": 3070,
      "biaoĠweiĠ": 3071,
      "xingĠqiĠ": 3072,
      "faĠsheĠ": 3073,
      "naĠliĠ": 3074,
      "ĠĠĠheĠ": 3075,
      "FĠ": 3076,
      "daoĠrenĠ": 3077,
      "reĠdaiĠ": 3078,
      "xiĠbanĠyaĠ": 3079,
      "ĠbuĠnengĠ": 3080,
      "it": 3081,
      "huaĠweiĠ": 3082,
      "xianĠjiĠ": 3083,
      "luoĠfuĠ": 3084,
      "ĠxiĠbeiĠ": 3085,
      "xiaĠwuĠ": 3086,
      "haoĠxianĠ": 3087,
      "ĠkongĠ": 3088,
      "siĠzaiĠ": 3089,
      "baĠnianĠ": 3090,
      "wenĠmingĠ": 3091,
      "xiaoĠzuĠ": 3092,
      "xianĠyouĠ": 3093,
      "paiĠdeĠ": 3094,
      "beiĠjiĠ": 3095,
      "xiangĠdangĠ": 3096,
      "ĠdiĠquĠdeĠ": 3097,
      "jinĠyiĠ": 3098,
      "jinĠxingĠleĠ": 3099,
      "ĠĠĠcheĠzhanĠ": 3100,
      "ĠĠĠ2016ĠnianĠ": 3101,
      "jieĠweiĠ": 3102,
      "ĠzhiĠchengĠ": 3103,
      "chanĠyeĠ": 3104,
      "ĠerĠzaiĠ": 3105,
      "zhouĠweiĠ": 3106,
      "anĠshiĠ": 3107,
      "shouĠshangĠ": 3108,
      "ĠshiĠyiĠmingĠ": 3109,
      "teng": 3110,
      "ĠĠĠ2022ĠnianĠ": 3111,
      "ĠnianĠyuĠ": 3112,
      "xuanĠchuanĠ": 3113,
      "shengĠshiĠ": 3114,
      "paiĠmingĠ": 3115,
      "jingĠshenĠ": 3116,
      "chaoĠzhengĠzhiĠrenĠwuĠ": 3117,
      "suĠdeĠ": 3118,
      "nanĠshengĠ": 3119,
      "pe": 3120,
      "ĠĠĠtaĠ": 3121,
      "jianĠjiĠ": 3122,
      "haoĠweiĠ": 3123,
      "diaoĠcha": 3124,
      "ĠĠĠchuĠ": 3125,
      "zaĠ": 3126,
      "ĠzhengĠshiĠ": 3127,
      "ziĠheĠ": 3128,
      "ĠshiĠyiĠweiĠ": 3129,
      "yingĠliĠ": 3130,
      "jueĠding": 3131,
      "tun": 3132,
      "lvĠshiĠ": 3133,
      "zhanĠhouĠ": 3134,
      "tongĠxingĠ": 3135,
      "huĠshiĠ": 3136,
      "shuĠzhongĠ": 3137,
      "Ġ2008ĠnianĠ": 3138,
      "guanĠzhuĠ": 3139,
      "lieĠweiĠ": 3140,
      "2021ĠnianĠ": 3141,
      "xiĠyangĠ": 3142,
      "qiĠzhongĠyiĠ": 3143,
      "fuĠzeĠguanĠxiaĠ": 3144,
      "NĠ": 3145,
      "jiaĠtingĠ": 3146,
      "ziĠran": 3147,
      "lianĠdeĠ": 3148,
      "xiĠzaiĠ": 3149,
      "jieĠyiĠ": 3150,
      "Ġ2018ĠnianĠ": 3151,
      "38": 3152,
      "XĠ": 3153,
      "Ġrang": 3154,
      "daĠweiĠ": 3155,
      "shuĠliangĠ": 3156,
      "lanĠqiuĠ": 3157,
      "xiĠyuĠ": 3158,
      "liuĠyuĠ": 3159,
      "Ġze": 3160,
      "ĠnianĠjianĠ": 3161,
      "wenĠjianĠ": 3162,
      "saiĠerĠ": 3163,
      "duĠjiaoĠ": 3164,
      "ĠyouĠshiĠ": 3165,
      "xuanĠrenĠ": 3166,
      "rengĠranĠ": 3167,
      "zhengĠjuĠ": 3168,
      "taoĠlunĠ": 3169,
      "11Ġ": 3170,
      "daoĠyanĠ": 3171,
      "ĠxiĠnanĠ": 3172,
      "ĠheĠbingĠ": 3173,
      "Ġruo": 3174,
      "Ġ2016ĠnianĠ": 3175,
      "qiuĠdeĠ": 3176,
      "chengĠxianĠ": 3177,
      "Ġbai": 3178,
      "boĠerĠ": 3179,
      "ĠyouĠrenĠ": 3180,
      "pingĠlunĠ": 3181,
      "wangĠshiĠ": 3182,
      "yanĠyiĠ": 3183,
      "zhongĠyangĠ": 3184,
      "ĠyueĠzaiĠ": 3185,
      "baoĠchiĠ": 3186,
      "reĠdai": 3187,
      "Ġkang": 3188,
      "duoĠzhongĠ": 3189,
      "laiĠyuanĠ": 3190,
      "3ĠrenĠ": 3191,
      "37": 3192,
      "zhengĠdangĠ": 3193,
      "0ĠnianĠdai": 3194,
      "Ġ2014ĠnianĠ": 3195,
      "ĠĠĠbeiĠ": 3196,
      "fenĠbieĠ": 3197,
      "genĠju": 3198,
      "foĠjiaoĠ": 3199,
      "1ĠrenĠ": 3200,
      "90": 3201,
      "ĠÎ": 3202,
      "lunĠdun": 3203,
      "4ĠrenĠ": 3204,
      "ver": 3205,
      "moĠxingĠ": 3206,
      "andĠĠĠ": 3207,
      "tiaoĠzhanĠ": 3208,
      "mpĠ": 3209,
      "riĠzhiĠ": 3210,
      "36": 3211,
      "ruiĠshiĠ": 3212,
      "ziĠdongĠ": 3213,
      "teĠbieĠ": 3214,
      "ĠdaoĠleĠ": 3215,
      "ĠguoĠjiĠ": 3216,
      "cengĠjingĠ": 3217,
      "Ġ10ĠyueĠ": 3218,
      "lvĠkeĠ": 3219,
      "ĠzhongĠgongĠ": 3220,
      "ĠriĠqiĠ": 3221,
      "diĠsiĠ": 3222,
      "shengĠyiĠ": 3223,
      "fanĠdeĠ": 3224,
      "ĠpeiĠ": 3225,
      "ĠzongĠrenĠkouĠ": 3226,
      "xiaĠdeĠyiĠgeĠ": 3227,
      "xuĠyao": 3228,
      "biaoĠmingĠ": 3229,
      "xuanĠquĠ": 3230,
      "daĠyueĠ": 3231,
      "xuĠdeĠ": 3232,
      "ĠouĠ": 3233,
      "jiaoĠtangĠ": 3234,
      "luoĠma": 3235,
      "haiĠdeĠ": 3236,
      "ĠjiĠsiĠ": 3237,
      "ĠzhiĠmingĠ": 3238,
      "gh": 3239,
      "fengĠxianĠ": 3240,
      "Ġ2012ĠnianĠ": 3241,
      "keĠliĠsiĠ": 3242,
      "OĠ": 3243,
      "ĠshiĠjianĠyuĠ": 3244,
      "xĠ": 3245,
      "189": 3246,
      "taiĠpingĠyangĠ": 3247,
      "tunĠ": 3248,
      "jingĠweiĠ": 3249,
      "15Ġ": 3250,
      "pengĠyouĠ": 3251,
      "eĠluoĠ": 3252,
      "xingĠyiĠ": 3253,
      "ĠliĠrenĠ": 3254,
      "nanĠjingĠ": 3255,
      "shenĠweiĠ": 3256,
      "ĠĠĠ2014ĠnianĠ": 3257,
      "jianĠduiĠ": 3258,
      "ĠdeĠdiĠfangĠ": 3259,
      "om": 3260,
      "ĠjiĠhuĠ": 3261,
      "Ġ2015ĠnianĠ": 3262,
      "wuĠweiĠ": 3263,
      "ĠwuĠkeĠ": 3264,
      "mang": 3265,
      "ĠbeiĠjingĠ": 3266,
      "gongĠzhongĠyangĠ": 3267,
      "zhengĠbuĠ": 3268,
      "ĠyiĠliĠ": 3269,
      "5ĠrenĠ": 3270,
      "ĠzhiĠxianĠ": 3271,
      "yanĠgeĠ": 3272,
      "jiaoĠbuĠ": 3273,
      "ruĠheĠ": 3274,
      "xingĠbuĠ": 3275,
      "ken": 3276,
      "jingĠyouĠ": 3277,
      "ĠciĠshiĠ": 3278,
      "qianĠshiĠ": 3279,
      "chongĠtuĠ": 3280,
      "queĠdingĠ": 3281,
      "ĠguoĠwangĠ": 3282,
      "daoĠdaĠ": 3283,
      "laiĠshuoĠ": 3284,
      "ĠĠĠ2015ĠnianĠ": 3285,
      "xunĠhuiĠ": 3286,
      "boĠdeĠ": 3287,
      "yingĠgeĠlanĠ": 3288,
      "24Ġ": 3289,
      "ĠchuangĠ": 3290,
      "tuiĠyiĠ": 3291,
      "ir": 3292,
      "jianĠrenĠ": 3293,
      "ĠĠĠxianĠ": 3294,
      "biaoĠzhiĠ": 3295,
      "jieĠkeĠ": 3296,
      "ĠlongĠ": 3297,
      "xiaĠshiĠ": 3298,
      "qianĠzhiĠ": 3299,
      "linĠdeĠ": 3300,
      "shangĠyingĠ": 3301,
      "Ġben": 3302,
      "ĠbiaoĠshiĠ": 3303,
      "xiaoĠguoĠ": 3304,
      "liangĠzhongĠ": 3305,
      "lingĠdeĠ": 3306,
      "Ġhuang": 3307,
      "Ġ2021ĠnianĠ": 3308,
      "shuĠyiĠ": 3309,
      "meiĠnianĠ": 3310,
      "dangĠxuanĠ": 3311,
      "ĠĠĠ2013ĠnianĠ": 3312,
      "daoĠheĠ": 3313,
      "penĠ": 3314,
      "yeĠbuĠ": 3315,
      "fengĠbaoĠ": 3316,
      "ĠĠĠsuiĠ": 3317,
      "leiĠxingĠ": 3318,
      "chuĠshengĠ": 3319,
      "shenĠqingĠ": 3320,
      "zhangĠshiĠ": 3321,
      "ĠdaĠxue": 3322,
      "Ġ2007ĠnianĠ": 3323,
      "jiuĠnianĠ": 3324,
      "Ġe": 3325,
      "guangĠzhouĠ": 3326,
      "queĠzhenĠ": 3327,
      "biaoĠdaĠ": 3328,
      "shengĠhuo": 3329,
      "lianĠbang": 3330,
      "zhongĠyaoĠ": 3331,
      "jiaoĠquĠ": 3332,
      "pingĠmianĠ": 3333,
      "biĠyaĠ": 3334,
      "ĠgongĠyuanĠ": 3335,
      "houĠyouĠ": 3336,
      "qiĠyeĠ": 3337,
      "qiuĠchangĠ": 3338,
      "xieĠdeĠ": 3339,
      "lunĠdunĠ": 3340,
      "ĠĠĠde": 3341,
      "gua": 3342,
      "yuanĠsuĠ": 3343,
      "ĠzaoĠ": 3344,
      "duiĠyiĠ": 3345,
      "tiaoĠzhengĠ": 3346,
      "ĠcanĠ": 3347,
      "anĠjianĠ": 3348,
      "ĠĠĠU": 3349,
      "ziĠyiĠ": 3350,
      "ĠcengĠrenĠ": 3351,
      "chaĠyiĠ": 3352,
      "luĠsiĠ": 3353,
      "duiĠshouĠ": 3354,
      "ĠliĠlunĠ": 3355,
      "yuanĠzhangĠ": 3356,
      "Â°": 3357,
      "ĠerĠrenĠkouĠmiĠduĠweiĠmeiĠpingĠfangĠqianĠmiĠ": 3358,
      "50Ġ": 3359,
      "ĠjiĠbeiĠ": 3360,
      "yuanĠzaiĠ": 3361,
      "ĠshiĠxianĠ": 3362,
      "ĠliĠdaĠ": 3363,
      "chuĠshengĠyuĠ": 3364,
      "puĠtongĠ": 3365,
      "2023ĠnianĠ": 3366,
      "ĠzhiĠfuĠ": 3367,
      "yaoĠqingĠ": 3368,
      "zhengĠzhuangĠ": 3369,
      "ruĠciĠ": 3370,
      "neiĠrong": 3371,
      "tuanĠduiĠ": 3372,
      "ĠzhiĠzaoĠ": 3373,
      "ï½": 3374,
      "xiaoĠshouĠ": 3375,
      "ĠqinĠ": 3376,
      "xingĠrenĠ": 3377,
      "xiĠheĠ": 3378,
      "jieĠjinĠ": 3379,
      "luĠyuĠ": 3380,
      "ĠjinĠruĠ": 3381,
      "ĠtaĠmenĠdeĠ": 3382,
      "Ġbi": 3383,
      "Ġ2017ĠnianĠ": 3384,
      "baoĠweiĠ": 3385,
      "hengĠxingĠ": 3386,
      "yinĠhang": 3387,
      "yanĠzhiĠ": 3388,
      "laĠfuĠ": 3389,
      "ĠĠĠ2023ĠnianĠ": 3390,
      "31Ġ": 3391,
      "xueĠshuĠ": 3392,
      "zuoĠshiĠ": 3393,
      "ruĠguoĠ": 3394,
      "wangĠluĠ": 3395,
      "ĠyiĠxiĠ": 3396,
      "ĠerĠqie": 3397,
      "qiaĠ": 3398,
      "youĠweiĠ": 3399,
      "huiĠjiĠ": 3400,
      "dianĠtaiĠ": 3401,
      "beiĠrenĠweiĠshiĠ": 3402,
      "ĠzhongĠyouĠ": 3403,
      "shouĠruĠ": 3404,
      "taĠshiĠ": 3405,
      "LĠ": 3406,
      "ĠyiĠshangĠ": 3407,
      "anĠnaĠ": 3408,
      "ĠjieĠguoĠ": 3409,
      "Ġ2020ĠnianĠ": 3410,
      "caiĠyong": 3411,
      "youĠliĠ": 3412,
      "dow": 3413,
      "nuĠliĠ": 3414,
      "lunĠdeĠ": 3415,
      "ĠzhongĠhuaĠ": 3416,
      "xinĠshiĠ": 3417,
      "ĠyuĠciĠ": 3418,
      "jingĠchaĠ": 3419,
      "huoĠdong": 3420,
      "fanĠyiĠ": 3421,
      "jieĠfangĠjunĠ": 3422,
      "Ġ8ĠyueĠ": 3423,
      "ĠqiĠyuĠ": 3424,
      "jiaĠrenĠ": 3425,
      "quanĠshiĠ": 3426,
      "ic": 3427,
      "xiaoĠzhangĠ": 3428,
      "gengĠmingĠweiĠ": 3429,
      "ziĠzhiĠquĠ": 3430,
      "tingĠdeĠ": 3431,
      "Ġgao": 3432,
      "shuĠziĠ": 3433,
      "haiĠziĠ": 3434,
      "Ġ2005ĠnianĠ": 3435,
      "zhuĠyanĠ": 3436,
      "minĠdeĠ": 3437,
      "lanĠkeĠ": 3438,
      "chuĠshenĠ": 3439,
      "quĠheĠ": 3440,
      "chuangĠliĠ": 3441,
      "zongĠduĠ": 3442,
      "xuĠshiĠ": 3443,
      "Ġzheng": 3444,
      "ĠlaoĠ": 3445,
      "geĠyouĠ": 3446,
      "39": 3447,
      "jiangĠxiĠ": 3448,
      "ĠyueĠyuĠ": 3449,
      "jiaĠgeĠ": 3450,
      "guaiĠ": 3451,
      "touĠpiaoĠ": 3452,
      "danĠdeĠ": 3453,
      "ĠmaiĠ": 3454,
      "xunĠsuĠ": 3455,
      "wenĠziĠ": 3456,
      "banĠgongĠshiĠ": 3457,
      "juĠxingĠdeĠ": 3458,
      "heĠyuĠ": 3459,
      "houĠqiĠ": 3460,
      "jiangĠxiangĠ": 3461,
      "tionĠĠĠ": 3462,
      "sunĠshiĠ": 3463,
      "00ĠwanĠ": 3464,
      "6ĠrenĠ": 3465,
      "25Ġ": 3466,
      "guanĠdianĠ": 3467,
      "tionĠ": 3468,
      "gaĠ": 3469,
      "keĠyuĠ": 3470,
      "wuĠyuĠ": 3471,
      "daiĠyouĠ": 3472,
      "wenĠzhangĠ": 3473,
      "leng": 3474,
      "ĠtongĠchangĠ": 3475,
      "ĠĠĠwuĠ": 3476,
      "2024ĠnianĠ": 3477,
      "saĠkeĠ": 3478,
      "ga": 3479,
      "kaĠsiĠ": 3480,
      "ĠjiĠbenĠ": 3481,
      "Ġs": 3482,
      "ĠĠĠxiaĠ": 3483,
      "siĠchuanĠ": 3484,
      "47": 3485,
      "ĠdeĠyiĠzuoĠ": 3486,
      "jiangĠdiĠ": 3487,
      "ĠxiongĠ": 3488,
      "paiĠming": 3489,
      "shaoĠshuĠ": 3490,
      "kanĠdaoĠ": 3491,
      "nengĠgou": 3492,
      "ĠĠĠgeĠ": 3493,
      "zaiĠzhiĠ": 3494,
      "ĠliĠheĠ": 3495,
      "xiangĠyuĠ": 3496,
      "touĠxiangĠ": 3497,
      "jieĠquanĠguoĠ": 3498,
      "luĠdiĠmianĠjiĠweiĠ": 3499,
      "zhanĠjiĠ": 3500,
      "fuĠqin": 3501,
      "shuiĠyuĠmianĠjiĠweiĠ": 3502,
      "ĠdaĠquĠ": 3503,
      "ĠjiĠzheĠ": 3504,
      "ĠdeĠdiĠquĠ": 3505,
      "huiĠshangĠ": 3506,
      "aoĠmenĠ": 3507,
      "wenĠyiĠ": 3508,
      "12ĠnianĠ": 3509,
      "xingĠjianĠ": 3510,
      "ĠsuoĠyouĠ": 3511,
      "mingĠyuĠ": 3512,
      "jiaoĠliuĠ": 3513,
      "kangĠyiĠ": 3514,
      "zhenĠduiĠ": 3515,
      "49": 3516,
      "haiĠanĠ": 3517,
      "xinĠrenĠ": 3518,
      "tiĠmingĠ": 3519,
      "Ġduo": 3520,
      "ĠĠĠkeĠ": 3521,
      "zuoĠbiaoĠweiĠ": 3522,
      "jieĠyuĠ": 3523,
      "jingĠdianĠ": 3524,
      "ruĠkouĠ": 3525,
      "2012ĠnianĠ": 3526,
      "xiĠbeiĠ": 3527,
      "waiĠguoĠ": 3528,
      "jianĠshaoĠ": 3529,
      "ziĠranĠ": 3530,
      "ï½ŀ": 3531,
      "tianĠjinĠ": 3532,
      "Ġ189": 3533,
      "wenĠdeĠ": 3534,
      "poĠhuaiĠ": 3535,
      "xingĠxingĠ": 3536,
      "xiĠzhiĠ": 3537,
      "zhangĠyuĠ": 3538,
      "ea": 3539,
      "45": 3540,
      "zhangĠkeĠdaĠ": 3541,
      "cuoĠshiĠ": 3542,
      "ĠampĠ": 3543,
      "Ġ2006ĠnianĠ": 3544,
      "chuĠfaĠ": 3545,
      "mingĠzhiĠ": 3546,
      "ĠshiĠdiĠ": 3547,
      "junĠdiĠ": 3548,
      "peiĠheĠ": 3549,
      "ĠshiĠliĠ": 3550,
      "ĠzaiĠ199": 3551,
      "ĠdangĠzhongĠluĠdiĠmianĠjiĠweiĠ": 3552,
      "ĠerĠshuiĠyuĠmianĠjiĠweiĠ": 3553,
      "ĠzaiĠyiĠ": 3554,
      "ĠtuoĠ": 3555,
      "bianĠjieĠ": 3556,
      "ĠcheĠzhanĠ": 3557,
      "baĠxiĠ": 3558,
      "xianĠchangĠ": 3559,
      "fangĠweiĠ": 3560,
      "xuanĠze": 3561,
      "fuĠjiĠ": 3562,
      "chiĠdeĠ": 3563,
      "xiĠyiĠ": 3564,
      "xianĠluĠ": 3565,
      "rongĠyiĠ": 3566,
      "ĠzhongĠyaoĠ": 3567,
      "daoĠjiĠ": 3568,
      "Ġlin": 3569,
      "guangĠxiĠ": 3570,
      "luoĠdiĠ": 3571,
      "shanĠjiĠ": 3572,
      "touĠruĠ": 3573,
      "fangĠzaiĠ": 3574,
      "cunĠzhuangĠ": 3575,
      "TA": 3576,
      "haĠerĠ": 3577,
      "duiĠwuĠ": 3578,
      "dengĠluĠ": 3579,
      "ĠjuĠliĠ": 3580,
      "daĠzhiĠ": 3581,
      "ĠbeiĠerĠ": 3582,
      "daĠzhongĠ": 3583,
      "ĠdeĠzhiĠchiĠ": 3584,
      "ĠyueĠyouĠ": 3585,
      "geĠyiĠ": 3586,
      "niĠdeĠ": 3587,
      "gongĠminĠ": 3588,
      "nanĠdeĠ": 3589,
      "yueĠtaiĠ": 3590,
      "ĠĠĠxingĠzhengĠquĠhuaĠ": 3591,
      "piĠzhunĠ": 3592,
      "chengĠzuoĠ": 3593,
      "ĠzaiĠzheĠ": 3594,
      "jianĠzaoĠ": 3595,
      "chengĠxuĠ": 3596,
      "ĠcongĠerĠ": 3597,
      "ĠweiĠlianĠ": 3598,
      "geĠleiĠ": 3599,
      "qianĠshuĠ": 3600,
      "yongĠhuĠ": 3601,
      "do": 3602,
      "ĠhaiĠyouĠ": 3603,
      "yuanĠhuiĠ": 3604,
      "changĠyiĠ": 3605,
      "ãĥ": 3606,
      "cunĠdeĠ": 3607,
      "daiĠliĠ": 3608,
      "niao": 3609,
      "es": 3610,
      "ĠĠĠ2012ĠnianĠ": 3611,
      "Ġ9ĠyueĠ": 3612,
      "2018ĠnianĠ": 3613,
      "baoĠliuĠ": 3614,
      "tianĠdeĠ": 3615,
      "ĠyueĠweiĠ": 3616,
      "biĠyeĠyuĠ": 3617,
      "ĠzaiĠbeiĠ": 3618,
      "ĠjingĠguoĠ": 3619,
      "nuoĠweiĠ": 3620,
      "yinĠfaĠ": 3621,
      "ĠjiĠshiĠ": 3622,
      "duĠyuĠ": 3623,
      "gĠ": 3624,
      "erĠrenĠ": 3625,
      "jianĠzhongĠ": 3626,
      "ziĠxunĠ": 3627,
      "yingĠpianĠ": 3628,
      "keĠheĠ": 3629,
      "ĠtanĠ": 3630,
      "huaĠyuĠ": 3631,
      "ziĠjinĠ": 3632,
      "tuiĠdongĠ": 3633,
      "ĠshiĠzhongĠguoĠ": 3634,
      "tuĠerĠqiĠ": 3635,
      "tuĠdeĠ": 3636,
      "zhanĠdiĠ": 3637,
      "hunĠheĠ": 3638,
      "2008ĠnianĠ": 3639,
      "ĠzhiĠxiaĠ": 3640,
      "juĠzhuĠ": 3641,
      "wenĠdingĠ": 3642,
      "haiĠdaoĠ": 3643,
      "biĠsaiĠzhongĠ": 3644,
      "junĠyiĠ": 3645,
      "tiĠgaoĠ": 3646,
      "leĠsiĠ": 3647,
      "shuĠheĠ": 3648,
      "geĠgeĠ": 3649,
      "ĠxiangĠgang": 3650,
      "You": 3651,
      "ĠformulaĠ": 3652,
      "ĠtiĠzhangĠkeĠdaĠ": 3653,
      "jinĠru": 3654,
      "xiĠzhongĠ": 3655,
      "daĠfuĠ": 3656,
      "nanĠbeiĠ": 3657,
      "huĠyuĠ": 3658,
      "ziĠliĠ": 3659,
      "xinĠhaoĠ": 3660,
      "fangĠwenĠ": 3661,
      "qiĠziĠ": 3662,
      "Ġ7ĠyueĠ": 3663,
      "chuĠjiĠ": 3664,
      "yongĠyiĠ": 3665,
      "tianĠqiĠ": 3666,
      "jieĠshuĠhouĠ": 3667,
      "ĠweiĠfuĠqiĠyuĠ": 3668,
      "maĠkeĠ": 3669,
      "ĠrenĠmenĠ": 3670,
      "chengĠyuĠ": 3671,
      "hengĠliĠ": 3672,
      "gongĠyuĠ": 3673,
      "per": 3674,
      "diĠjiĠ": 3675,
      "zhuangĠjiaĠ": 3676,
      "xinĠyiĠ": 3677,
      "xianĠhouĠ": 3678,
      "UĠ": 3679,
      "ĠsaĠ": 3680,
      "ganĠran": 3681,
      "ĠwoĠmenĠ": 3682,
      "Ġdeng": 3683,
      "2014ĠnianĠ": 3684,
      "ciĠweiĠ": 3685,
      "moĠerĠ": 3686,
      "zuiĠchuĠ": 3687,
      "benĠtuĠ": 3688,
      "jianĠheĠ": 3689,
      "ĠshiĠquĠ": 3690,
      "jinĠshuĠ": 3691,
      "zhanĠzhongĠ": 3692,
      "houĠxuanĠrenĠ": 3693,
      "ĠyinĠduĠ": 3694,
      "jiaĠyuĠ": 3695,
      "xiaoĠliĠ": 3696,
      "ĠtaĠyiĠ": 3697,
      "cĠ": 3698,
      "Ġzhuan": 3699,
      "zhuĠmingĠ": 3700,
      "jieĠyouĠ": 3701,
      "guangĠfanĠ": 3702,
      "Ġ2022ĠnianĠ": 3703,
      "Ġ12ĠyueĠ": 3704,
      "zhouĠfuĠ": 3705,
      "pinĠpaiĠ": 3706,
      "gouĠchengĠ": 3707,
      "ĠzhiĠnengĠ": 3708,
      "8ĠrenĠ": 3709,
      "niĠkeĠ": 3710,
      "zhuĠmingĠdeĠ": 3711,
      "sheĠyuĠ": 3712,
      "zhongĠliĠ": 3713,
      "shangĠrenĠ": 3714,
      "xiaĠlaiĠ": 3715,
      "Ġan": 3716,
      "heĠzuoĠ": 3717,
      "xueĠhuiĠ": 3718,
      "ĠyiĠdaĠliĠ": 3719,
      "mouĠxieĠ": 3720,
      "ĠjiĠtuan": 3721,
      "chuĠzhanĠ": 3722,
      "Ġ21Ġ": 3723,
      "shuiĠpingĠ": 3724,
      "Ġ11ĠyueĠ": 3725,
      "lingĠwaiĠ": 3726,
      "ĠdeĠyiĠzhiĠ": 3727,
      "ĠnianĠduĠ": 3728,
      "ĠzaiĠzhongĠguoĠ": 3729,
      "yinĠdeĠ": 3730,
      "buĠtongĠdeĠ": 3731,
      "ĠdeĠshiĠquĠweiĠ": 3732,
      "ĠbingĠyiĠ": 3733,
      "ĠĠĠ2024ĠnianĠ": 3734,
      "chengĠzhiĠ": 3735,
      "jiaĠzuĠ": 3736,
      "jiangĠsuĠ": 3737,
      "indow": 3738,
      "zaoĠyuĠ": 3739,
      "zhuĠbuĠ": 3740,
      "ĠĠĠdeĠshiĠ": 3741,
      "saĠerĠ": 3742,
      "ĠzhongĠguoĠgongĠchanĠdangĠ": 3743,
      "dangĠshiĠdeĠ": 3744,
      "paiĠchuĠ": 3745,
      "33": 3746,
      "erĠyiĠ": 3747,
      "buĠduiĠ": 3748,
      "ĠdiĠqu": 3749,
      "ĠjiaĠshangĠ": 3750,
      "46": 3751,
      "ĠĠĠerĠ": 3752,
      "shanĠdaĠ": 3753,
      "keĠsiĠ": 3754,
      "xuĠqiuĠ": 3755,
      "ĠhansĠ": 3756,
      "teĠshuĠ": 3757,
      "ĠtwĠ": 3758,
      "ĠĠĠin": 3759,
      "nanĠyiĠ": 3760,
      "jieĠrangĠ": 3761,
      "boĠsiĠ": 3762,
      "suoĠdeĠ": 3763,
      "xiangĠsiĠ": 3764,
      "shanĠdeĠ": 3765,
      "meiĠgeĠ": 3766,
      "daĠchengĠ": 3767,
      "aoĠdaĠliĠyaĠ": 3768,
      "00ĠnianĠ": 3769,
      "biaoĠmianĠ": 3770,
      "ĠĠĠqingĠ": 3771,
      "lvĠweiĠ": 3772,
      "ĠxianĠzaiĠ": 3773,
      "ĠrangĠ": 3774,
      "xieĠrenĠ": 3775,
      "ĠbuĠfen": 3776,
      "banĠgongĠ": 3777,
      "rao": 3778,
      "junĠgongĠ": 3779,
      "beiĠzhiĠ": 3780,
      "2015ĠnianĠ": 3781,
      "18ĠnianĠ": 3782,
      "siĠkeĠ": 3783,
      "changĠheĠ": 3784,
      "jieĠgou": 3785,
      "changĠpianĠ": 3786,
      "ĠjiĠguanĠ": 3787,
      "sheĠhuiĠzhuĠyiĠ": 3788,
      "suiĠdaoĠ": 3789,
      "yingĠwenĠ": 3790,
      "ĠdanĠtaĠ": 3791,
      "zhuĠyouĠ": 3792,
      "zhuangĠzhiĠ": 3793,
      "queĠfaĠ": 3794,
      "jingĠyanĠ": 3795,
      "yinĠsuĠ": 3796,
      "jianĠzaiĠ": 3797,
      "22Ġ": 3798,
      "ĠxiĠbaoĠ": 3799,
      "ll": 3800,
      "ĠyuĠrenĠ": 3801,
      "faĠchuĠ": 3802,
      "lingĠtuĠ": 3803,
      "ĠxunĠ": 3804,
      "pingĠfangĠgongĠliĠ": 3805,
      "waĠerĠ": 3806,
      "ï¼ı": 3807,
      "16Ġ": 3808,
      "Ġpa": 3809,
      "ĠjiĠrenĠ": 3810,
      "ĠĠĠyuanĠ": 3811,
      "tiĠshiĠ": 3812,
      "luĠzhiĠ": 3813,
      "ĠrenĠleiĠ": 3814,
      "tuĠzhongĠ": 3815,
      "kongĠzhongĠ": 3816,
      "weiĠzhiĠ": 3817,
      "jueĠse": 3818,
      "80Ġ": 3819,
      "ber": 3820,
      "jiangĠdeĠ": 3821,
      "shaĠsiĠ": 3822,
      "tiĠyiĠ": 3823,
      "minĠjianĠ": 3824,
      "ĠhouĠlai": 3825,
      "ĠeĠluoĠsiĠ": 3826,
      "ciĠyiĠ": 3827,
      "huaĠheĠ": 3828,
      "yongĠshiĠ": 3829,
      "gengĠjiaĠ": 3830,
      "ĠÑ": 3831,
      "Ġbian": 3832,
      "2017ĠnianĠ": 3833,
      "ĠjiĠchengĠ": 3834,
      "ĠĠĠyuĠshiĠdeĠrenĠkouĠshuĠliangĠweiĠrenĠ": 3835,
      "ĠĠĠsuoĠshuĠdeĠshengĠjiĠxuanĠquĠweiĠ": 3836,
      "10ĠnianĠ": 3837,
      "tiĠshengĠ": 3838,
      "ĠĠĠdeĠyouĠzhengĠbianĠmaĠweiĠ": 3839,
      "ĠĠĠyuĠjieĠrangĠdeĠshiĠzhenĠ": 3840,
      "ĠĠĠdeĠshiĠquĠweiĠ": 3841,
      "ĠzaiĠdaĠ": 3842,
      "23Ġ": 3843,
      "leĠshiĠ": 3844,
      "ĠguoĠchengĠ": 3845,
      "huiĠyingĠ": 3846,
      "ho": 3847,
      "kongĠjunĠ": 3848,
      "zengĠzhangĠ": 3849,
      "xiaoĠshuo": 3850,
      "guangĠgaoĠ": 3851,
      "Ġzhang": 3852,
      "zongĠbuĠ": 3853,
      "keĠchengĠ": 3854,
      "guanĠbiĠ": 3855,
      "guĠwenĠ": 3856,
      "hanĠshuĠ": 3857,
      "erĠyuĠ": 3858,
      "daĠyuĠ": 3859,
      "ĠdiĠdaĠ": 3860,
      "ĠtaĠyeĠ": 3861,
      "ĠxiuĠ": 3862,
      "28ĠnianĠ": 3863,
      "ĠqueĠ": 3864,
      "188": 3865,
      "ĠjiĠnianĠ": 3866,
      "teĠerĠ": 3867,
      "7ĠrenĠ": 3868,
      "ĠshiĠmeiĠguoĠ": 3869,
      "ĠweiĠshengĠ": 3870,
      "shanĠmai": 3871,
      "xianĠxingĠ": 3872,
      "anĠpaiĠ": 3873,
      "muĠqinĠ": 3874,
      "ĠbingĠjiangĠ": 3875,
      "zhengĠfuĠdeĠ": 3876,
      "woĠmenĠ": 3877,
      "chaoĠshiĠ": 3878,
      "feiĠjianĠzhiĠ": 3879,
      "ĠshengĠhuo": 3880,
      "ĠxuĠduoĠ": 3881,
      "daiĠbuĠ": 3882,
      "quanĠmianĠ": 3883,
      "ĠĠĠxinĠ": 3884,
      "fangĠbuĠ": 3885,
      "ĠjiĠyouĠ": 3886,
      "ĠheĠxiĠ": 3887,
      "xuĠkeĠ": 3888,
      "geĠerĠ": 3889,
      "Ġmi": 3890,
      "minĠzhuĠdangĠ": 3891,
      "zhuangĠshiĠ": 3892,
      "langĠdeĠ": 3893,
      "jiaĠru": 3894,
      "Ġ6ĠyueĠ": 3895,
      "25ĠnianĠ": 3896,
      "ĠbingĠyouĠ": 3897,
      "ĠhkĠ": 3898,
      "ĠdeĠguoĠjiaĠ": 3899,
      "xingĠtaiĠ": 3900,
      "cheĠzhan": 3901,
      "yunĠxuĠ": 3902,
      "keng": 3903,
      "shouĠzhongĠ": 3904,
      "junĠjiĠ": 3905,
      "diĠguoĠ": 3906,
      "ĠtingĠ": 3907,
      "baoĠliĠ": 3908,
      "geĠdaĠ": 3909,
      "ĠerĠgaiĠ": 3910,
      "zhuanĠjiaĠ": 3911,
      "gongĠchangĠ": 3912,
      "huĠdeĠ": 3913,
      "dangĠzhongĠ": 3914,
      "Ġwang": 3915,
      "juĠbuĠ": 3916,
      "mingĠlingĠ": 3917,
      "peiĠyinĠ": 3918,
      "duiĠshiĠ": 3919,
      "ruiĠdianĠ": 3920,
      "zuĠchengĠdeĠ": 3921,
      "ĠjingĠjiĠ": 3922,
      "ĠĠĠ2010ĠnianĠ": 3923,
      "luoĠkeĠ": 3924,
      "jiuĠdianĠ": 3925,
      "weiĠyiĠgeĠ": 3926,
      "tuĠshuĠguanĠ": 3927,
      "ĠzaiĠmeiĠguoĠ": 3928,
      "huiĠbeiĠ": 3929,
      "ouĠyuanĠ": 3930,
      "neiĠluĠ": 3931,
      "duoĠrenĠ": 3932,
      "2011ĠnianĠ": 3933,
      "13Ġ": 3934,
      "ĠheĠerĠ": 3935,
      "seĠlieĠ": 3936,
      "huaĠzhongĠ": 3937,
      "55": 3938,
      "ĠyueĠtaiĠ": 3939,
      "shanĠshiĠ": 3940,
      "bingĠmeiĠyouĠ": 3941,
      "ĠĠĠxiangĠ": 3942,
      "geĠzhiĠ": 3943,
      "ĠkeĠxueĠ": 3944,
      "ĠlaiĠziĠ": 3945,
      "sanĠjiaoĠ": 3946,
      "siĠxiangĠ": 3947,
      "ĠqiĠzhongĠyiĠ": 3948,
      "jingĠzhengĠ": 3949,
      "feiĠjianĠzhiĠdiĠquĠ": 3950,
      "Ġ5ĠyueĠ": 3951,
      "gongĠsiĠdeĠ": 3952,
      "Ġhong": 3953,
      "fenĠliĠ": 3954,
      "baĠweiĠ": 3955,
      "mingĠmingĠweiĠ": 3956,
      "34": 3957,
      "maĠerĠ": 3958,
      "zhuanĠyiĠ": 3959,
      "faĠdianĠ": 3960,
      "ĠxiĠjieĠ": 3961,
      "Ġna": 3962,
      "bingĠshiĠ": 3963,
      "jinĠpaiĠ": 3964,
      "guoĠweiĠ": 3965,
      "laiĠdaoĠ": 3966,
      "32Ġ": 3967,
      "fo": 3968,
      "shuĠxueĠ": 3969,
      "jiuĠzhiĠ": 3970,
      "xieĠshiĠ": 3971,
      "tanĠkeĠ": 3972,
      "ĠyouĠqiĠshiĠ": 3973,
      "xiaĠjiangĠ": 3974,
      "ĠĠĠ2011ĠnianĠ": 3975,
      "ĠmaoĠ": 3976,
      "huanĠyingĠ": 3977,
      "jiuĠdeĠ": 3978,
      "ĠyiĠjiaĠ": 3979,
      "ĠzhiĠshiĠ": 3980,
      "24ĠnianĠ": 3981,
      "shengĠzhangĠ": 3982,
      "yanĠjiuĠyuanĠ": 3983,
      "ĠdiĠxiaĠ": 3984,
      "yingĠyunĠ": 3985,
      "shouĠfuĠ": 3986,
      "ĠshiĠjieĠbeiĠ": 3987,
      "ĠliĠya": 3988,
      "huaĠrenĠ": 3989,
      "moĠxiĠgeĠ": 3990,
      "fi": 3991,
      "Ġao": 3992,
      "junĠyouĠ": 3993,
      "dengĠweiĠ": 3994,
      "huiĠzhangĠ": 3995,
      "ĠĠĠjiaĠzuĠ": 3996,
      "19ĠnianĠ": 3997,
      "ona": 3998,
      "5ĠmiĠ": 3999,
      "xiuĠgaiĠ": 4000,
      "ĠweiĠyuanĠhui": 4001,
      "ĠliĠbuĠ": 4002,
      "yongĠlaiĠ": 4003,
      "ĠfaĠxianĠ": 4004,
      "ĠjiĠchuĠ": 4005,
      "lingĠxianĠ": 4006,
      "ĠyeĠyouĠ": 4007,
      "KĠ": 4008,
      "queĠrenĠ": 4009,
      "yeĠbeiĠ": 4010,
      "dianĠnaoĠ": 4011,
      "18Ġ": 4012,
      "jieĠhunĠ": 4013,
      "shouĠzhiĠ": 4014,
      "duiĠqiĠ": 4015,
      "lingĠbuĠ": 4016,
      "faĠanĠ": 4017,
      "AS": 4018,
      "ĠĠĠs": 4019,
      "ĠdanĠyouĠyuĠ": 4020,
      "au": 4021,
      "Ġfeng": 4022,
      "wenĠshiĠ": 4023,
      "chengĠweiĠleĠ": 4024,
      "ĠzhengĠfuĠ": 4025,
      "ziĠmuĠ": 4026,
      "beiĠerĠ": 4027,
      "ĠĠĠzhĠ": 4028,
      "ĠbuĠtongĠdeĠ": 4029,
      "ĠdiĠtieĠ": 4030,
      "shenĠtiĠ": 4031,
      "ĠgongĠzuoĠ": 4032,
      "maoĠqiuĠ": 4033,
      "gongĠjuĠ": 4034,
      "suiĠjiĠ": 4035,
      "27ĠnianĠ": 4036,
      "ĠminĠguoĠ": 4037,
      "liaoĠjieĠ": 4038,
      "feiĠlvĠ": 4039,
      "ĠdeĠdiĠerĠ": 4040,
      "terĠ": 4041,
      "zhuĠjiĠ": 4042,
      "boĠfangĠ": 4043,
      "ĠshiĠyiĠge": 4044,
      "baiĠseĠ": 4045,
      "ĠĠĠjieĠzhiĠ": 4046,
      "2013ĠnianĠ": 4047,
      "chuĠxiĠ": 4048,
      "shenĠjingĠ": 4049,
      "ĠtaĠbeiĠ": 4050,
      "caiĠquĠ": 4051,
      "Ġ4ĠyueĠ": 4052,
      "ĠheĠdiĠ": 4053,
      "is": 4054,
      "duoĠnianĠ": 4055,
      "juĠzhangĠ": 4056,
      "21ĠnianĠ": 4057,
      "lieĠbiaoĠ": 4058,
      "ĠshiĠyiĠnianĠ": 4059,
      "ĠchuĠyuĠ": 4060,
      "14ĠnianĠ": 4061,
      "ĠyiĠnianĠ": 4062,
      "chuanĠboĠ": 4063,
      "70Ġ": 4064,
      "shouĠxiĠ": 4065,
      "guĠdeĠ": 4066,
      "dangĠyuĠ": 4067,
      "zeĠyouĠ": 4068,
      "ĠweiĠweiĠ": 4069,
      "ĠtaĠhaiĠ": 4070,
      "tieĠlu": 4071,
      "changĠdiĠ": 4072,
      "cheĠxiaoĠ": 4073,
      "ĠzhongĠguoĠrenĠminĠ": 4074,
      "Ġ30": 4075,
      "lvĠxingĠ": 4076,
      "9ĠrenĠ": 4077,
      "jiaoĠlianĠ": 4078,
      "huoĠjianĠ": 4079,
      "banĠfaĠ": 4080,
      "zhuangĠkuangĠ": 4081,
      "canĠjiaĠleĠ": 4082,
      "maĠsiĠ": 4083,
      "zheĠliĠ": 4084,
      "zhuĠzuoĠ": 4085,
      "Ġ188": 4086,
      "wangĠqiuĠ": 4087,
      "ĠkangĠ": 4088,
      "tongĠyuĠ": 4089,
      "cheĠdeĠ": 4090,
      "fuĠyouĠ": 4091,
      "maĠdeĠ": 4092,
      "suĠweiĠ": 4093,
      "qiuĠhuiĠ": 4094,
      "neiĠgeĠ": 4095,
      "Ġhai": 4096,
      "liangĠshiĠ": 4097,
      "ĠweiĠliĠ": 4098,
      "yanĠchangĠhuiĠ": 4099,
      "yeĠheĠ": 4100,
      "zuĠjianĠ": 4101,
      "ĠĠĠzhongĠguoĠ": 4102,
      "ĠerĠfuĠ": 4103,
      "ĠĠĠli": 4104,
      "ĠyiĠjianĠ": 4105,
      "ĠliĠru": 4106,
      "dianĠqiĠ": 4107,
      "nie": 4108,
      "wanĠshangĠ": 4109,
      "huaĠyuanĠ": 4110,
      "liangĠrenĠ": 4111,
      "ĠyiĠjuĠ": 4112,
      "zhanĠtaiĠ": 4113,
      "ziĠzhuĠ": 4114,
      "ĠqiĠlaiĠ": 4115,
      "yueĠhanĠ": 4116,
      "juĠheĠ": 4117,
      "taiĠjiĠ": 4118,
      "huaĠshengĠ": 4119,
      "zhaoĠkaiĠ": 4120,
      "ĠweiĠrenĠ": 4121,
      "niangĠ": 4122,
      "sou": 4123,
      "xiangĠxiĠ": 4124,
      "chanĠpin": 4125,
      "shuoĠmingĠ": 4126,
      "maĠlaiĠxiĠyaĠ": 4127,
      "as": 4128,
      "ĠzhuangĠ": 4129,
      "ruĠxuanĠ": 4130,
      "chanĠshengĠdeĠ": 4131,
      "ĠrenĠminĠzhengĠfuĠ": 4132,
      "wuĠheĠ": 4133,
      "chuĠxianĠzaiĠ": 4134,
      "2020ĠnianĠmeiĠguoĠrenĠkouĠpuĠchaĠdeĠshuĠjuĠ": 4135,
      "xueĠheĠ": 4136,
      "ĠweiĠnengĠ": 4137,
      "yinĠdu": 4138,
      "ĠshangĠhaiĠ": 4139,
      "Ġ00Ġ": 4140,
      "ĠzaiĠxiĠ": 4141,
      "tongĠcheĠ": 4142,
      "yaoĠwuĠ": 4143,
      "Ġ0Ġ": 4144,
      "xuĠliĠyaĠ": 4145,
      "chaoĠdeĠ": 4146,
      "leĠtaĠ": 4147,
      "ĠjieĠmuĠ": 4148,
      "qinĠshiĠ": 4149,
      "75": 4150,
      "ĠquanĠguoĠ": 4151,
      "xinĠjiĠ": 4152,
      "ĠyiĠzaiĠ": 4153,
      "ĠyouĠxiaoĠ": 4154,
      "--": 4155,
      "tiĠzhongĠ": 4156,
      "orĠ": 4157,
      "kuoĠdaĠ": 4158,
      "15ĠnianĠ": 4159,
      "xueĠxiao": 4160,
      "suiĠhouĠ": 4161,
      "1ĠĠĠ": 4162,
      "ĠtaoĠ": 4163,
      "suanĠjiĠ": 4164,
      "22ĠnianĠ": 4165,
      "ĠzhiĠdiĠ": 4166,
      "zeĠweiĠ": 4167,
      "ĠliĠshuĠ": 4168,
      "siĠteĠ": 4169,
      "wangĠchaoĠ": 4170,
      "3ĠgeĠ": 4171,
      "ĠyingĠyuĠ": 4172,
      "ĠĠĠqianĠ": 4173,
      "ĠdaĠbuĠfenĠ": 4174,
      "guiĠzeĠ": 4175,
      "shanĠxiĠshengĠ": 4176,
      "xingĠzhongĠ": 4177,
      "tianĠshiĠ": 4178,
      "aoĠdiĠliĠ": 4179,
      "taiĠshiĠ": 4180,
      "zhouĠbianĠ": 4181,
      "riĠzaiĠ": 4182,
      "kongĠbuĠ": 4183,
      "huĠbeiĠ": 4184,
      "ĠshiĠdeĠyiĠ": 4185,
      "gongĠhuiĠ": 4186,
      "tuoĠliĠ": 4187,
      "mingĠxianĠ": 4188,
      "ĠyouĠxieĠ": 4189,
      "shenĠshiĠ": 4190,
      "29ĠnianĠ": 4191,
      "shangĠhai": 4192,
      "chengĠliĠdeĠ": 4193,
      "shuaĠ": 4194,
      "ĠfuĠjinĠ": 4195,
      "tongĠbuĠ": 4196,
      "changĠyuĠ": 4197,
      "daĠbuĠfenĠ": 4198,
      "ĠzhongĠdeĠ": 4199,
      "daĠluĠdeĠ": 4200,
      "teĠseĠ": 4201,
      "ĠgongĠchengĠ": 4202,
      "Ġqian": 4203,
      "wuĠyueĠ": 4204,
      "xingĠxiangĠ": 4205,
      "sheĠjiĠdeĠ": 4206,
      "laoĠdongĠ": 4207,
      "kaoĠlvĠ": 4208,
      "Ġco": 4209,
      "geĠlan": 4210,
      "zhuangĠdeĠ": 4211,
      "xingĠquĠ": 4212,
      "cuĠjinĠ": 4213,
      "11ĠnianĠ": 4214,
      "ĠyiĠtongĠ": 4215,
      "GĠ": 4216,
      "ĠzhiĠduĠ": 4217,
      "nanĠshiĠ": 4218,
      "ĠerĠbuĠ": 4219,
      "ĠxiĠlaĠ": 4220,
      "ĠxingĠdongĠ": 4221,
      "ĠliĠshiĠshangĠ": 4222,
      "jinĠbuĠ": 4223,
      "dingĠyuĠ": 4224,
      "zhuĠchangĠ": 4225,
      "ĠliangĠrenĠ": 4226,
      "daĠheĠ": 4227,
      "lvĠdeĠ": 4228,
      "longĠdeĠ": 4229,
      "ĠjiĠhuiĠ": 4230,
      "Ġ20": 4231,
      "jiaoĠxueĠ": 4232,
      "ĠmingĠchaoĠzhengĠzhiĠrenĠwuĠ": 4233,
      "daiĠbiaoĠdaĠhuiĠ": 4234,
      "caoĠzuoĠ": 4235,
      "ĠCĠ": 4236,
      "baoĠshiĠ": 4237,
      "2009ĠnianĠ": 4238,
      "14Ġ": 4239,
      "ĠjiĠerĠ": 4240,
      "pingĠweiĠ": 4241,
      "ĠzheĠjiangĠ": 4242,
      "xiaĠjiĠaoĠlinĠpiĠkeĠyunĠdongĠhuiĠ": 4243,
      "puĠbianĠ": 4244,
      "35Ġ": 4245,
      "gongĠzhiĠ": 4246,
      "187": 4247,
      "yuanĠgongĠ": 4248,
      "IN": 4249,
      "aĠĠĠ": 4250,
      "cengĠyuĠ": 4251,
      "2ĠĠĠ": 4252,
      "riĠdeĠ": 4253,
      "anĠquan": 4254,
      "changĠzaiĠ": 4255,
      "der": 4256,
      "zhuanĠxiangĠ": 4257,
      "ur": 4258,
      "jieĠrenĠ": 4259,
      "wuĠzhuangĠ": 4260,
      "changĠpian": 4261,
      "ĠdaiĠbiaoĠ": 4262,
      "13ĠnianĠ": 4263,
      "wenĠxianĠ": 4264,
      "piaoĠfangĠ": 4265,
      "ĠyuĠleĠ": 4266,
      "yingĠgaiĠ": 4267,
      "65": 4268,
      "feiĠzhouĠ": 4269,
      "jiuĠlongĠ": 4270,
      "hongĠseĠ": 4271,
      "Ġ3ĠyueĠ": 4272,
      "ĠĠĠxiaoĠ": 4273,
      "lianĠrenĠ": 4274,
      "saĠsiĠ": 4275,
      "daoĠzhongĠ": 4276,
      "ciĠzaiĠ": 4277,
      "ĠshiĠtuĠ": 4278,
      "kouĠweiĠ": 4279,
      "ĠfuĠjianĠ": 4280,
      "luoĠjiĠ": 4281,
      "yuanĠxingĠ": 4282,
      "dongĠfangĠ": 4283,
      "wuĠtaiĠ": 4284,
      "zhuĠzhangĠ": 4285,
      "zhengĠheĠ": 4286,
      "23ĠnianĠ": 4287,
      "ĠxiĠjuĠ": 4288,
      "fenĠbuĠyuĠ": 4289,
      "zuiĠhou": 4290,
      "shouĠyiĠ": 4291,
      "biĠsai": 4292,
      "Ġ2023ĠnianĠ": 4293,
      "jieĠshaoĠ": 4294,
      "laĠjiĠ": 4295,
      "tongĠdaoĠ": 4296,
      "zhaoĠdaoĠ": 4297,
      "no": 4298,
      "meiĠguoĠdeĠ": 4299,
      "ĠĠĠguoĠ": 4300,
      "ĠbuĠkeĠ": 4301,
      "lingĠdaoĠrenĠ": 4302,
      "yunĠdong": 4303,
      "caiĠliaoĠ": 4304,
      "44": 4305,
      "ac": 4306,
      "ec": 4307,
      "gi": 4308,
      "suiĠshiĠ": 4309,
      "ĠnvĠxingĠ": 4310,
      "ĠĠĠcongĠ": 4311,
      "qiĠzhongĠyiĠzhongĠ": 4312,
      "ĠyaoĠqiuĠ": 4313,
      "gunĠ": 4314,
      "zheĠzaiĠ": 4315,
      "jingĠcha": 4316,
      "ĠweiĠlaiĠ": 4317,
      "ĠqiaoĠ": 4318,
      "siĠlingĠ": 4319,
      "chuĠlaiĠ": 4320,
      "ĠsĠĠĠ": 4321,
      "ĠliĠmiĠ": 4322,
      "lingĠdiĠ": 4323,
      "2007ĠnianĠ": 4324,
      "ĠshiĠweiĠleĠ": 4325,
      "ĠdeĠzhiĠwuĠ": 4326,
      "ĠĠĠzaoĠnianĠ": 4327,
      "weiĠĠĠ": 4328,
      "17ĠnianĠ": 4329,
      "hunĠyinĠ": 4330,
      "mingĠxingĠ": 4331,
      "Ġsun": 4332,
      "ĠweiĠxingĠ": 4333,
      "ĠxiĠya": 4334,
      "dongĠbeiĠbuĠ": 4335,
      "tiĠdaoĠ": 4336,
      "qianĠwang": 4337,
      "faĠxianĠleĠ": 4338,
      "tiĠzhiĠ": 4339,
      "bianĠshiĠ": 4340,
      "chuĠkouĠ": 4341,
      "dianĠhuaĠ": 4342,
      "Ġ2001ĠnianĠrenĠkouĠ": 4343,
      "ub": 4344,
      "jinĠyouĠ": 4345,
      "ĠweiĠheĠ": 4346,
      "dongĠnanĠbuĠ": 4347,
      "huĠbuĠ": 4348,
      "ĠweiĠhuiĠ": 4349,
      "Ġ2004ĠnianĠ": 4350,
      "huaĠjiĠ": 4351,
      "xuĠzaiĠ": 4352,
      "feiĠchuĠ": 4353,
      "ĠzheĠxie": 4354,
      "huoĠzheĠ": 4355,
      "baoĠzhiĠ": 4356,
      "liuĠzaiĠ": 4357,
      "ĠfaĠxingĠ": 4358,
      "Ġka": 4359,
      "geĠheĠ": 4360,
      "ĠxiĠbuĠ": 4361,
      "ĠĠĠ2008ĠnianĠ": 4362,
      "ĠpanĠ": 4363,
      "yinĠdiĠ": 4364,
      "Ġà": 4365,
      "daĠchenĠ": 4366,
      "siĠgeĠ": 4367,
      "chiĠyouĠ": 4368,
      "wanĠdeĠ": 4369,
      "ĠĠĠi": 4370,
      "keĠyouĠ": 4371,
      "ĠrenĠshuĠ": 4372,
      "ĠxingĠqiĠ": 4373,
      "Ġhao": 4374,
      "ĠzhiĠziĠ": 4375,
      "ĠriĠyuĠ": 4376,
      "ruanĠjianĠ": 4377,
      "fangĠwuĠ": 4378,
      "duiĠzhangĠ": 4379,
      "gengĠduoĠ": 4380,
      "ĠĠĠIn": 4381,
      "ĠbuĠmenĠ": 4382,
      "zhengĠchangĠ": 4383,
      "90Ġ": 4384,
      "meiĠdeĠ": 4385,
      "ĠyiĠban": 4386,
      "ĠweiĠwuĠ": 4387,
      "jieĠmu": 4388,
      "zhuĠjueĠ": 4389,
      "yongĠzuoĠ": 4390,
      "liangĠnianĠ": 4391,
      "tuiĠjinĠ": 4392,
      "fĠ": 4393,
      "ĠguanĠyuĠ": 4394,
      "26ĠnianĠ": 4395,
      "junĠquĠ": 4396,
      "benĠdiĠ": 4397,
      "taiĠziĠ": 4398,
      "douĠhuiĠ": 4399,
      "STĠ": 4400,
      "yeĠhuiĠ": 4401,
      "tongĠyangĠ": 4402,
      "186": 4403,
      "guoĠjiĠjiĠ": 4404,
      "gaoĠsuĠgongĠluĠ": 4405,
      "suoĠzaiĠ": 4406,
      "bianĠxingĠ": 4407,
      "jueĠshiĠ": 4408,
      "ĠhanĠguoĠ": 4409,
      "taĠyuĠ": 4410,
      "45Ġ": 4411,
      "xianĠjinĠ": 4412,
      "yaĠliĠshanĠdaĠ": 4413,
      "Ġlu": 4414,
      "jiaoĠyouĠ": 4415,
      "bengĠ": 4416,
      "ĠjiaoĠyuĠ": 4417,
      "jiaoĠdaĠ": 4418,
      "ĠerĠshuiĠyuĠmianĠjiĠweiĠ0": 4419,
      "ãĥ»": 4420,
      "ÃĹ": 4421,
      "qingĠbaoĠ": 4422,
      "baoĠyuĠ": 4423,
      "guiĠdeĠ": 4424,
      "daiĠweiĠ": 4425,
      "2025ĠnianĠ": 4426,
      "neiĠyouĠ": 4427,
      "16ĠnianĠ": 4428,
      "riĠjunĠ": 4429,
      "ĠĠĠ2025ĠnianĠ": 4430,
      "taiĠrenĠ": 4431,
      "duiĠxiangĠ": 4432,
      "jingĠyuĠ": 4433,
      "tuanĠdeĠ": 4434,
      "xiaĠyouĠ": 4435,
      "dengĠshangĠ": 4436,
      "xiangĠyiĠ": 4437,
      "haiĠwaiĠ": 4438,
      "ĠdaĠchengĠ": 4439,
      "anĠhuiĠ": 4440,
      "duiĠwaiĠ": 4441,
      "zhouĠqiĠ": 4442,
      "zhangĠaiĠ": 4443,
      "zuoĠquĠ": 4444,
      "1ĠyueĠ1ĠriĠ": 4445,
      "poĠhuai": 4446,
      "fuĠzaiĠ": 4447,
      "ĠdaĠliangĠ": 4448,
      "gouĠzaoĠ": 4449,
      "ĠbiaoĠ": 4450,
      "ĠcaoĠ": 4451,
      "ĠzaoĠchengĠ": 4452,
      "xiaoĠquĠ": 4453,
      "2000ĠnianĠ": 4454,
      "yongĠtuĠ": 4455,
      "chengĠnianĠ": 4456,
      "ĠerĠgaiĠdiĠ": 4457,
      "ĠxiĠtong": 4458,
      "junĠyuĠ": 4459,
      "laĠheĠ": 4460,
      "yanĠshenĠ": 4461,
      "qiangĠdeĠ": 4462,
      "gaiĠshanĠ": 4463,
      "lingĠxiuĠ": 4464,
      "jiaĠyouĠ": 4465,
      "aoĠyunĠhuiĠ": 4466,
      "gaoĠjiaĠ": 4467,
      "ĠzhiĠdingĠ": 4468,
      "ĠheĠpingĠ": 4469,
      "ĠĠĠ2009ĠnianĠ": 4470,
      "sanĠjiĠ": 4471,
      "xiĠnanĠ": 4472,
      "Ġmai": 4473,
      "changĠyouĠ": 4474,
      "faĠshouĠ": 4475,
      "haiĠxiaĠ": 4476,
      "ĠdeĠshiĠjieĠ": 4477,
      "Ġnai": 4478,
      "biaoĠdeĠ": 4479,
      "4ĠgeĠ": 4480,
      "ĠxianĠrenĠ": 4481,
      "meiĠliĠ": 4482,
      "ĠyiĠduĠ": 4483,
      "queĠzhenĠbingĠliĠ": 4484,
      "dunĠdeĠ": 4485,
      "ĠsuiĠzheĠ": 4486,
      "ĠtuiĠ": 4487,
      "ĠyueĠnanĠ": 4488,
      "ãģ": 4489,
      "zhengĠtiĠ": 4490,
      "leĠdaĠ": 4491,
      "ĠjiaĠnaĠdaĠ": 4492,
      "miĠmiĠ": 4493,
      "geĠlunĠ": 4494,
      "guanĠshiĠ": 4495,
      "shuĠruĠ": 4496,
      "zengĠzuĠ": 4497,
      "ĠyinĠerĠ": 4498,
      "leĠtaĠdeĠ": 4499,
      "xiaĠxiaĠdeĠyiĠgeĠ": 4500,
      "ĠĠĠandĠĠĠ": 4501,
      "yunĠshiĠ": 4502,
      "suiĠzhuĠ": 4503,
      "shouĠluĠ": 4504,
      "yunĠzuoĠ": 4505,
      "jueĠyiĠ": 4506,
      "ĠzaiĠjiaĠ": 4507,
      "canĠmou": 4508,
      "senĠlinĠ": 4509,
      "Ġqi": 4510,
      "gun": 4511,
      "longĠjiangĠ": 4512,
      "Ġ7Ġ": 4513,
      "juĠyiĠ": 4514,
      "ĠyuĠheĠ": 4515,
      "ĠshengĠyuĠ": 4516,
      "ĠzaiĠ19": 4517,
      "yinĠheĠ": 4518,
      "banĠshiĠchuĠ": 4519,
      "feiĠliĠ": 4520,
      "wuĠsiĠ": 4521,
      "ĠerĠyanĠ": 4522,
      "dongĠzuoĠ": 4523,
      "shuĠyuanĠ": 4524,
      "xiangĠzhengĠ": 4525,
      "ĠshaoĠ": 4526,
      "beiĠshiĠweiĠ": 4527,
      "zhanĠzhiĠ": 4528,
      "zuoĠrenĠ": 4529,
      "chuĠdaoĠ": 4530,
      "liangĠciĠ": 4531,
      "shanĠquĠ": 4532,
      "Ġ2002ĠnianĠ": 4533,
      "Ġzu": 4534,
      "kangĠriĠ": 4535,
      "kaiĠzhanĠ": 4536,
      "68": 4537,
      "AT": 4538,
      "âĶ": 4539,
      "junĠguanĠ": 4540,
      "Ġzhong": 4541,
      "jiangĠhuiĠ": 4542,
      "shouĠrenĠ": 4543,
      "duĠheĠ": 4544,
      "deĠĠĠ": 4545,
      "suoĠshiĠ": 4546,
      "shouĠzhangĠ": 4547,
      "ĠshiĠwuĠkeĠ": 4548,
      "ĠzhongĠzaiĠ": 4549,
      "huiĠyuanĠ": 4550,
      "dengĠdeĠ": 4551,
      "renĠdaĠ": 4552,
      "ĠdongĠlinĠ": 4553,
      "ĠnanĠzhiĠ": 4554,
      "Ġpo": 4555,
      "binĠhaiĠ": 4556,
      "ĠweiĠkeĠ": 4557,
      "guĠliĠ": 4558,
      "ĠsheĠjiĠ": 4559,
      "xiaĠling": 4560,
      "xiuĠfuĠ": 4561,
      "17Ġ": 4562,
      "chuangĠjianĠ": 4563,
      "zhouĠjiĠ": 4564,
      "zhuangĠbeiĠ": 4565,
      "daiĠlaiĠ": 4566,
      "anĠdaĠ": 4567,
      "chuanĠzhiĠ": 4568,
      "anĠzhuangĠ": 4569,
      "fanĠzuiĠ": 4570,
      "ĠbaoĠhanĠ": 4571,
      "ĠchaĠ": 4572,
      "ĠqiĠziĠ": 4573,
      "biĠmianĠ": 4574,
      "caiĠzhengĠ": 4575,
      "wi": 4576,
      "houĠshiĠ": 4577,
      "dianĠcheĠ": 4578,
      "1ĠliĠ": 4579,
      "ĠĠĠsiĠ": 4580,
      "yaĠkeĠ": 4581,
      "ĠyuĠ198": 4582,
      "the": 4583,
      "liuĠdeĠ": 4584,
      "juĠqingĠ": 4585,
      "zuiĠgao": 4586,
      "jingĠxuanĠ": 4587,
      "wanĠgongĠ": 4588,
      "ĠmeiĠnianĠ": 4589,
      "Ġpei": 4590,
      "zheĠbuĠ": 4591,
      "kaĠluoĠ": 4592,
      "tuĠxingĠ": 4593,
      "2006ĠnianĠ": 4594,
      "qinĠziĠ": 4595,
      "50ĠnianĠ": 4596,
      "ï¼ħ": 4597,
      "xiangĠhuĠ": 4598,
      "ĠqiĠzaiĠ": 4599,
      "mianĠshiĠ": 4600,
      "wuĠkeĠlan": 4601,
      "shangĠyuĠ": 4602,
      "bingĠdeĠ": 4603,
      "waiĠjiaoĠbuĠ": 4604,
      "HĠ": 4605,
      "ĠlieĠ": 4606,
      "siĠyiĠ": 4607,
      "faĠxingĠdeĠ": 4608,
      "ĠyouĠkeĠ": 4609,
      "gengĠweiĠ": 4610,
      "ĠerĠtongĠ": 4611,
      "baoĠshouĠ": 4612,
      "chuanĠshuoĠ": 4613,
      "jiaĠzaiĠ": 4614,
      "zhouĠnianĠ": 4615,
      "ĠyiĠmeiĠyuanĠ": 4616,
      "taiĠfengĠ": 4617,
      "ĠsiĠlingĠ": 4618,
      "zhangĠguanĠ": 4619,
      "ceĠliangĠ": 4620,
      "ĠzhengĠzhiĠ": 4621,
      "houĠbeiĠ": 4622,
      "huĠnanĠ": 4623,
      "ĠjianĠyuĠ": 4624,
      "chai": 4625,
      "huiĠzhongĠ": 4626,
      "fuĠweiĠ": 4627,
      "banĠliĠ": 4628,
      "fangĠmianĠdeĠ": 4629,
      "bingĠruĠ": 4630,
      "chaiĠchuĠ": 4631,
      "âĶĢ": 4632,
      "ĠĠĠdangĠ": 4633,
      "gongĠzhuĠ": 4634,
      "ĠqiĠxiangĠ": 4635,
      "dingĠjuĠ": 4636,
      "fanĠweiĠneiĠ": 4637,
      "jinĠweiĠ": 4638,
      "liangĠjiĠ": 4639,
      "guanĠchaĠ": 4640,
      "ĠkuanĠ": 4641,
      "guoĠwangĠ": 4642,
      "shengĠyinĠ": 4643,
      "kaiĠtongĠ": 4644,
      "feiĠdeĠ": 4645,
      "ĠyouĠbuĠ": 4646,
      "junĠzhuĠ": 4647,
      "qingĠchuĠ": 4648,
      "queĠdeĠ": 4649,
      "jianĠjieĠ": 4650,
      "ĠdongĠbeiĠ": 4651,
      "zhouĠyiĠ": 4652,
      "yingĠyeĠ": 4653,
      "ĠshengĠhuoĠxiĠ": 4654,
      "ruĠqinĠ": 4655,
      "touĠluĠ": 4656,
      "aiĠjiĠ": 4657,
      "renĠliĠ": 4658,
      "yanĠxiĠ": 4659,
      "canĠyiĠyuanĠ": 4660,
      "pianĠdeĠ": 4661,
      "mengĠdeĠ": 4662,
      "ĠshiĠdaĠ": 4663,
      "Ġquan": 4664,
      "huaĠheĠwuĠ": 4665,
      "zhanĠqiĠjianĠ": 4666,
      "gouĠmaiĠ": 4667,
      "ĠsheĠhuiĠ": 4668,
      "ĠhengĠ": 4669,
      "ĠdiĠwuĠ": 4670,
      "ĠerĠchengĠ": 4671,
      "keĠyiĠzaiĠ": 4672,
      "piĠfuĠ": 4673,
      "waiĠbuĠ": 4674,
      "ĠzaiĠduĠ": 4675,
      "ĠyueĠtuanĠ": 4676,
      "zhuĠyaoĠdeĠ": 4677,
      "xingĠbuĠmingĠ": 4678,
      "Ġdou": 4679,
      "keĠzhiĠ": 4680,
      "duiĠyouĠ": 4681,
      "ĠĠĠc": 4682,
      "mingĠrenĠ": 4683,
      "leiĠdaĠ": 4684,
      "jiangĠjiĠ": 4685,
      "zuĠzhiĠdeĠ": 4686,
      "duĠliĠdeĠ": 4687,
      "zhuanĠdeĠ": 4688,
      "ĠsheĠyouĠ": 4689,
      "maĠlaĠ": 4690,
      "xiĠjuĠ": 4691,
      "xinĠyangĠ": 4692,
      "OS": 4693,
      "jieĠsanĠ": 4694,
      "64": 4695,
      "ĠerĠziĠ": 4696,
      "huoĠshanĠ": 4697,
      "Ġ187": 4698,
      "ĠshengĠhuoĠxiĠxingĠbuĠmingĠ": 4699,
      "changĠzhiĠ": 4700,
      "Ġ2003ĠnianĠ": 4701,
      "erĠyueĠ": 4702,
      "ĠqiĠxiaĠ": 4703,
      "jiangĠlingĠ": 4704,
      "fangĠyanĠ": 4705,
      "liangĠxiangĠ": 4706,
      "run": 4707,
      "tongĠpaiĠ": 4708,
      "xinĠxingĠ": 4709,
      "suoĠshuĠ": 4710,
      "erĠzhiĠ": 4711,
      "xiuĠjianĠ": 4712,
      "ĠchengĠliĠ": 4713,
      "luĠjiĠ": 4714,
      "guiĠzuĠ": 4715,
      "guanĠjianĠ": 4716,
      "ĠjuĠxingĠ": 4717,
      "AM": 4718,
      "ĠĠĠbeiĠjingĠ": 4719,
      "taiĠbeiĠshiĠ": 4720,
      "58": 4721,
      "xunĠyangĠ": 4722,
      "ĠmeiĠgeĠ": 4723,
      "jiaĠliĠfuĠ": 4724,
      "liangĠzhiĠ": 4725,
      "jiuĠduĠ": 4726,
      "ĠĠĠmingĠ": 4727,
      "ĠyiĠhouĠ": 4728,
      "ĠsiĠwangĠ": 4729,
      "ame": 4730,
      "jingĠzhongĠ": 4731,
      "chengĠbenĠ": 4732,
      "keĠnengĠshiĠ": 4733,
      "ĠxuanĠbuĠ": 4734,
      "chengĠheĠ": 4735,
      "yingĠxiongĠ": 4736,
      "ĠĠĠciĠwaiĠ": 4737,
      "99": 4738,
      "op": 4739,
      "ĠdianĠyingĠ": 4740,
      "jingĠfangĠ": 4741,
      "2ĠgeĠ": 4742,
      "Ġse": 4743,
      "kongĠqiĠ": 4744,
      "ĠyueĠzhongĠ": 4745,
      "zhuĠyiĠdeĠ": 4746,
      "baiĠrenĠ": 4747,
      "lunĠwenĠ": 4748,
      "ĠpingĠfangĠmiĠ": 4749,
      "ĠzhongĠguoĠdaĠluĠ": 4750,
      "shangĠbuĠ": 4751,
      "ĠzaiĠci": 4752,
      "zheĠxie": 4753,
      "xiangĠguanĠdeĠ": 4754,
      "fuĠjinĠdeĠ": 4755,
      "faĠhuiĠ": 4756,
      "kaoĠguĠ": 4757,
      "Ġre": 4758,
      "xinĠjiaĠpoĠ": 4759,
      "quĠleĠ": 4760,
      "Ġ2000ĠnianĠ": 4761,
      "ĠcanĠjiaĠ": 4762,
      "yuĠyanĠ": 4763,
      "zhongĠdianĠ": 4764,
      "Ġniu": 4765,
      "chuĠbuĠ": 4766,
      "quĠjiĠ": 4767,
      "Ġsha": 4768,
      "Ġ8Ġ": 4769,
      "baoĠzhangĠ": 4770,
      "Ġ186": 4771,
      "ĠgongĠyouĠ": 4772,
      "ĠĠĠaĠ": 4773,
      "manĠdeĠ": 4774,
      "ĠshiĠshiĠjieĠ": 4775,
      "qianĠrenĠ": 4776,
      "moĠsiĠkeĠ": 4777,
      "geĠming": 4778,
      "zhanĠtingĠ": 4779,
      "taiĠduĠ": 4780,
      "ĠĠĠjuĠqingĠ": 4781,
      "ĠkeĠerĠ": 4782,
      "ĠbiĠruĠ": 4783,
      "huanĠzheĠ": 4784,
      "kaoĠjinĠ": 4785,
      "shouĠgouĠ": 4786,
      "48Ġ": 4787,
      "gaoĠdaĠ": 4788,
      "zongĠshiĠ": 4789,
      "ĠĠĠMa": 4790,
      "chengĠkeĠ": 4791,
      "zuoĠzheĠ": 4792,
      "ĠshiĠjiĠshangĠ": 4793,
      "ĠyongĠyouĠ": 4794,
      "yunĠnanĠ": 4795,
      "ĠzhongĠshiĠ": 4796,
      "chuĠyanĠ": 4797,
      "guangĠdongĠshengĠ": 4798,
      "lĠĠĠ": 4799,
      "zheĠweiĠ": 4800,
      "Ġdong": 4801,
      "2005ĠnianĠ": 4802,
      "yinĠqingĠ": 4803,
      "ĠsiĠchuanĠ": 4804,
      "wengĠ": 4805,
      "ĠĠĠben": 4806,
      "huaĠyiĠ": 4807,
      "ĠshiĠriĠbenĠ": 4808,
      "ĠweiĠciĠ": 4809,
      "AR": 4810,
      "ĠguoĠchengĠzhongĠ": 4811,
      "ĠĠĠ2007ĠnianĠ": 4812,
      "Ġdi": 4813,
      "dangĠnianĠ": 4814,
      "faĠlv": 4815,
      "changĠjianĠdeĠ": 4816,
      "taoĠtaiĠ": 4817,
      "ĠciĠnianĠ": 4818,
      "yuanĠzeĠ": 4819,
      "quanĠzhangĠ": 4820,
      "shuangĠfangĠ": 4821,
      "yangĠjiĠ": 4822,
      "ĠteĠbieĠshiĠ": 4823,
      "ĠyongĠyuĠ": 4824,
      "fangĠyiĠ": 4825,
      "chengĠbaoĠ": 4826,
      "laoĠdeĠ": 4827,
      "ĠjiĠfuĠ": 4828,
      "youĠxianĠ": 4829,
      "tic": 4830,
      "quĠyiĠhuiĠ": 4831,
      "2004ĠnianĠ": 4832,
      "chuiĠ": 4833,
      "daiĠshiĠ": 4834,
      "shengĠchuĠ": 4835,
      "lianĠzaiĠ": 4836,
      "xiuĠzhengĠ": 4837,
      "ĠdiĠshiĠ": 4838,
      "shengĠtaiĠ": 4839,
      "zhouĠciĠshiĠ": 4840,
      "kaiĠsheĠ": 4841,
      "huĠweiĠ": 4842,
      "ganĠbuĠ": 4843,
      "ĠqiĠxiĠ": 4844,
      "huoĠxingĠ": 4845,
      "ĠshiĠdeĠguoĠ": 4846,
      "jueĠduiĠ": 4847,
      "19Ġ": 4848,
      "tiaoĠliĠ": 4849,
      "huaĠzhiĠ": 4850,
      "shenĠme": 4851,
      "cuoĠwuĠ": 4852,
      "fengĠweiĠ": 4853,
      "shouĠxiangĠ": 4854,
      "ĠjiaĠtingĠ": 4855,
      "bianĠjuĠ": 4856,
      "ĠchuĠshengĠyuĠ": 4857,
      "shiĠĠĠ": 4858,
      "ĠduanĠ": 4859,
      "faĠlanĠxiĠ": 4860,
      "ĠĠĠdiĠfangĠ": 4861,
      "ĠguoĠhuiĠ": 4862,
      "banĠbuĠ": 4863,
      "ĠgongĠtongĠ": 4864,
      "faĠguanĠ": 4865,
      "meiĠshuĠ": 4866,
      "ĠbingĠduĠ": 4867,
      "ĠĠĠqiĠtaĠ": 4868,
      "lingĠrenĠ": 4869,
      "haoĠshiĠ": 4870,
      "nengĠliangĠ": 4871,
      "ĠyiĠxiaoĠshiĠ": 4872,
      "ĠyouĠciĠ": 4873,
      "ĠĠĠmeiĠguoĠ": 4874,
      "yaoĠqiu": 4875,
      "dengĠdengĠ": 4876,
      "touĠpiao": 4877,
      "zhouĠzhiĠ": 4878,
      "qingĠqiuĠ": 4879,
      "ee": 4880,
      "Ġbo": 4881,
      "shuĠliĠ": 4882,
      "luĠyingĠ": 4883,
      "duoĠweiĠ": 4884,
      "zuiĠyouĠ": 4885,
      "baiĠdeĠ": 4886,
      "chuĠzhiĠ": 4887,
      "2001ĠnianĠ": 4888,
      "qingĠhuaĠ": 4889,
      "guĠfen": 4890,
      "dangĠdiĠdeĠ": 4891,
      "Ġkai": 4892,
      "ĠĠĠdiĠerĠ": 4893,
      "siĠzhiĠ": 4894,
      "xianĠshengĠ": 4895,
      "ĠwuĠfaĠ": 4896,
      "67": 4897,
      "ĠcanĠyuĠ": 4898,
      "keĠdeĠqiĠzhongĠyiĠzhongĠ": 4899,
      "ĠwuĠkeĠlanĠ": 4900,
      "huiĠbuĠ": 4901,
      "runĠ": 4902,
      "zhiĠdeĠshiĠ": 4903,
      "hanĠyouĠ": 4904,
      "heĠxinĠ": 4905,
      "kaiĠfa": 4906,
      "Window": 4907,
      "ĠyiĠdaiĠ": 4908,
      "luĠkeĠ": 4909,
      "ĠjieĠshouĠ": 4910,
      "qiangĠdiaoĠ": 4911,
      "ĠzhongĠhuaĠrenĠminĠgongĠheĠguoĠzhengĠzhiĠrenĠwuĠ": 4912,
      "beiĠweiĠ": 4913,
      "laoĠshiĠ": 4914,
      "Ġ2024ĠnianĠ": 4915,
      "dangĠweiĠ": 4916,
      "ĠjuĠyouĠ": 4917,
      "xiangĠheĠ": 4918,
      "henĠdaĠ": 4919,
      "ĠrenĠmingĠ": 4920,
      "xiĠlaĠ": 4921,
      "gaiĠchengĠ": 4922,
      "suoĠchuĠdeĠ": 4923,
      "ĠAĠ": 4924,
      "daoĠbuĠ": 4925,
      "qingĠxingĠ": 4926,
      "ĠxueĠxiaoĠ": 4927,
      "cuiĠhuiĠ": 4928,
      "canĠkaoĠ": 4929,
      "veĠ": 4930,
      "enĠshengĠ": 4931,
      "xiaĠweiĠ": 4932,
      "zhuangĠjiĠ": 4933,
      "ĠzaiĠ198": 4934,
      "gongĠyingĠ": 4935,
      "yaĠjunĠ": 4936,
      "tongĠmengĠ": 4937,
      "muĠqin": 4938,
      "hongĠzha": 4939,
      "teĠdingĠ": 4940,
      "bĠ": 4941,
      "Ġsu": 4942,
      "ĠĠĠdanĠ": 4943,
      "xiangĠweiĠ": 4944,
      "henĠkuaiĠ": 4945,
      "laiĠshiĠ": 4946,
      "tianĠjingĠ": 4947,
      "dangĠjuĠ": 4948,
      "TV": 4949,
      "xiangĠyouĠ": 4950,
      "suoĠzhiĠ": 4951,
      "huanĠxingĠ": 4952,
      "II": 4953,
      "ĠĠĠnian": 4954,
      "zhengĠweiĠ": 4955,
      "wuĠziĠ": 4956,
      "beiĠrenĠmingĠweiĠ": 4957,
      "In": 4958,
      "yuanĠzhongĠ": 4959,
      "zuiĠgaoĠdeĠ": 4960,
      "niĠyaĠzhouĠ": 4961,
      "Ġreng": 4962,
      "ĠmaiĠkeĠ": 4963,
      "huanĠdeĠ": 4964,
      "yinĠliĠ": 4965,
      "xiaĠquĠ": 4966,
      "xieĠdaoĠ": 4967,
      "leĠyuĠ": 4968,
      "yaĠyiĠ": 4969,
      "ĠjiĠbuĠ": 4970,
      "ĠheĠlanĠ": 4971,
      "shangĠhaiĠshiĠ": 4972,
      "laĠdingĠ": 4973,
      "tiĠyuĠchangĠ": 4974,
      "xieĠerĠ": 4975,
      "huoĠbanĠ": 4976,
      "1ĠhaoĠ": 4977,
      "shengĠyouĠ": 4978,
      "ĠyeĠjiuĠshiĠ": 4979,
      "Ġcha": 4980,
      "hanĠyuĠ": 4981,
      "ĠdaĠduoĠ": 4982,
      "aĠlaĠboĠ": 4983,
      "kunĠnanĠ": 4984,
      "ĠdaĠxingĠ": 4985,
      "yinĠruĠ": 4986,
      "ĠjieĠkeĠ": 4987,
      "jiangĠzaiĠ": 4988,
      "taiĠzhongĠ": 4989,
      "renĠyuanĠ": 4990,
      "zhanĠxianĠ": 4991,
      "CO": 4992,
      "gaiĠshiĠ": 4993,
      "suiĠdeĠ": 4994,
      "ĠheĠzhongĠ": 4995,
      "eĠĠĠ": 4996,
      "keĠxueĠyuanĠ": 4997,
      "so": 4998,
      "jingĠzhiĠ": 4999,
      "tanĠdeĠ": 5000,
      "shunĠliĠ": 5001,
      "ĠyiĠzuoĠ": 5002,
      "ĠheĠxinĠ": 5003,
      "tiĠgongĠleĠ": 5004,
      "heiĠseĠ": 5005,
      "fenĠbuĠzaiĠ": 5006,
      "leĠqiĠ": 5007,
      "lay": 5008,
      "ĠyuĠ19": 5009,
      "xiĠbaoĠ": 5010,
      "wangĠyuanĠ": 5011,
      "chengĠguoĠ": 5012,
      "xiaoĠyuanĠ": 5013,
      "zhaoĠpianĠ": 5014,
      "ĠxiangĠnianĠ": 5015,
      "ki": 5016,
      "junĠzhiĠ": 5017,
      "suoĠweiĠ": 5018,
      "ĠdaĠfuĠ": 5019,
      "qiangĠlieĠ": 5020,
      "ĠxiĠbanĠyaĠ": 5021,
      "ĠpingĠjunĠ": 5022,
      "manĠzuĠ": 5023,
      "ĠsuiĠzhuĠ": 5024,
      "nengĠzaiĠ": 5025,
      "daĠhuiĠ": 5026,
      "haiĠyangĠ": 5027,
      "paiĠhangĠ": 5028,
      "zuĠyiĠ": 5029,
      "ĠjiĠnian": 5030,
      "IS": 5031,
      "sta": 5032,
      "houĠweiĠ": 5033,
      "ĠxiĠerĠ": 5034,
      "ĠzengĠ": 5035,
      "jiangĠzhiĠ": 5036,
      "xiangĠxinĠ": 5037,
      "chuĠzaiĠ": 5038,
      "chuanĠdeĠ": 5039,
      "ĠyiĠfuĠ": 5040,
      "ĠbuĠjinĠ": 5041,
      "beiĠjingĠshiĠ": 5042,
      "zhongĠguoĠdaĠluĠdeĠ": 5043,
      "ganĠranĠzheĠ": 5044,
      "jiaĠweiĠ": 5045,
      "haiĠpingĠmianĠ": 5046,
      "yaĠmeiĠ": 5047,
      "huangĠhouĠ": 5048,
      "ĠtaĠcengĠdaiĠbiaoĠ": 5049,
      "jingĠheĠ": 5050,
      "jiuĠhuiĠ": 5051,
      "ĠĠĠyinĠ": 5052,
      "paiĠmingĠdiĠ": 5053,
      "Ġdui": 5054,
      "laiĠyueĠ": 5055,
      "zuiĠweiĠ": 5056,
      "ĠriĠjunĠ": 5057,
      "Ġ25": 5058,
      "liĠyuĠ": 5059,
      "tuĠpoĠ": 5060,
      "ciĠshiĠjieĠdaĠzhanĠ": 5061,
      "benĠshenĠ": 5062,
      "guĠdaiĠ": 5063,
      "ĠchuĠxianĠ": 5064,
      "59": 5065,
      "ĠkanĠ": 5066,
      "zhouĠliĠ": 5067,
      "renĠleiĠ": 5068,
      "shangĠchangĠ": 5069,
      "ruĠqin": 5070,
      "Ġmeng": 5071,
      "dangĠyuanĠ": 5072,
      "ĠzuĠfuĠ": 5073,
      "57": 5074,
      "ĠqiĠshiĠ": 5075,
      "taĠweiĠ": 5076,
      "jingĠyiĠ": 5077,
      "geiĠleĠ": 5078,
      "ĠshiĠgeĠ": 5079,
      "wuĠdaoĠ": 5080,
      "ĠtongĠshiĠgaiĠdiĠ": 5081,
      "zhuĠzhiĠ": 5082,
      "zhangĠweiĠ": 5083,
      "teĠxingĠ": 5084,
      "ĠshiĠyong": 5085,
      "huanĠchengĠ": 5086,
      "ĠdeĠjiĠchuĠ": 5087,
      "Ġxiao": 5088,
      "Ġqing": 5089,
      "bianĠhaoĠ": 5090,
      "ĠtaiĠwan": 5091,
      "ĠjiĠduĠ": 5092,
      "liangĠguoĠ": 5093,
      "zuĠqiuĠyunĠdongĠyuanĠ": 5094,
      "ĠguangĠdongĠ": 5095,
      "boĠshiĠxueĠweiĠ": 5096,
      "tongĠweiĠ": 5097,
      "qiangĠzhiĠ": 5098,
      "chuangĠbanĠ": 5099,
      "nongĠminĠ": 5100,
      "neiĠluĠshengĠfenĠ": 5101,
      "ĠaĠerĠ": 5102,
      "jiaoĠzhiĠ": 5103,
      "dingĠqiĠ": 5104,
      "ĠyinĠqiĠ": 5105,
      "ĠĠĠ1Ġ": 5106,
      "chengĠshiĠdeĠ": 5107,
      "daĠjiangĠ": 5108,
      "ĠkuĠ": 5109,
      "chuĠyouĠ": 5110,
      "keĠfuĠ": 5111,
      "tanĠpanĠ": 5112,
      "jiuĠyiĠ": 5113,
      "bangĠdeĠ": 5114,
      "ĠzhongĠziĠ": 5115,
      "chuĠshouĠ": 5116,
      "xunĠzhangĠ": 5117,
      "luĠxuĠ": 5118,
      "00ĠmiĠ": 5119,
      "xiaĠlingĠshiĠjianĠ": 5120,
      "sengĠ": 5121,
      "Ġcai": 5122,
      "leĠyouĠ": 5123,
      "duanĠshiĠ": 5124,
      "ganĠranĠ": 5125,
      "ĠZ": 5126,
      "leĠzaiĠ": 5127,
      "zhenĠjiĠ": 5128,
      "moĠsiĠ": 5129,
      "shangĠxiaĠ": 5130,
      "fanĠzhiĠ": 5131,
      "ĠyuĠdiĠ": 5132,
      "xiangĠbiĠ": 5133,
      "banĠben": 5134,
      "43": 5135,
      "kuoĠzhanĠ": 5136,
      "ĠliaoĠ": 5137,
      "ĠbuĠdiĠ": 5138,
      "juĠdaĠ": 5139,
      "fangĠjianĠ": 5140,
      "zhouĠheĠ": 5141,
      "minĠdiĠ": 5142,
      "tangĠdeĠ": 5143,
      "woĠdeĠ": 5144,
      "kaiĠshiĠshiĠ": 5145,
      "miĠyaĠ": 5146,
      "ĠmuĠqian": 5147,
      "Ġxiong": 5148,
      "muĠniĠ": 5149,
      "tianĠtiĠ": 5150,
      "cengĠweiĠ": 5151,
      "ĠbuĠluoĠ": 5152,
      "junĠheĠ": 5153,
      "gaoĠzhiĠ": 5154,
      "chiĠrenĠ": 5155,
      "xiĠwangĠ": 5156,
      "wuĠzhengĠzhuangĠ": 5157,
      "shaĠhaiĠ": 5158,
      "ĠĠĠjianĠjieĠ": 5159,
      "ĠtieĠ": 5160,
      "muĠzhiĠ": 5161,
      "lingĠyiĠgeĠ": 5162,
      "zheĠxueĠ": 5163,
      "xuanĠdeĠ": 5164,
      "xiuĠdeĠ": 5165,
      "renĠgongĠ": 5166,
      "suoĠyouĠdeĠ": 5167,
      "weiĠyiĠyiĠ": 5168,
      "ER": 5169,
      "niĠerĠ": 5170,
      "duiĠciĠ": 5171,
      "diĠyiĠweiĠ": 5172,
      "kaiĠshiĠzaiĠ": 5173,
      "liangĠmingĠ": 5174,
      "yuanĠxianĠ": 5175,
      "ĠqiĠcheĠ": 5176,
      "wenĠduĠ": 5177,
      "ĠfuĠqinĠ": 5178,
      "ĠshiĠyiĠgeĠweiĠyuĠ": 5179,
      "huiĠguoĠ": 5180,
      "bingĠyiĠ": 5181,
      "ĠweiĠchiĠ": 5182,
      "luĠkouĠ": 5183,
      "zuan": 5184,
      "Ġp": 5185,
      "ziĠzhongĠ": 5186,
      "feiĠerĠ": 5187,
      "jiangĠjinĠ": 5188,
      "yueĠnanĠ": 5189,
      "aiĠerĠlanĠ": 5190,
      "56": 5191,
      "xiĠyaĠ": 5192,
      "ĠyiĠsiĠlanĠ": 5193,
      "ĠĠĠdiĠfangĠziĠliaoĠ": 5194,
      "Ġpu": 5195,
      "dianĠheĠ": 5196,
      "rongĠheĠ": 5197,
      "quĠzhiĠ": 5198,
      "DTĠ": 5199,
      "ĠĠĠzengĠzuĠ": 5200,
      "yeĠjiĠ": 5201,
      "fengĠfuĠ": 5202,
      "nanĠfangĠ": 5203,
      "changĠjianĠ": 5204,
      "beiĠyuĠ": 5205,
      "xueĠyuĠ": 5206,
      "yeĠyiĠ": 5207,
      "pingĠdeĠ": 5208,
      "zhenĠyuĠ": 5209,
      "ĠguoĠquĠ": 5210,
      "78": 5211,
      "ĠwenĠhuaĠ": 5212,
      "baĠheĠ": 5213,
      "nuoĠfuĠ": 5214,
      "aoĠzhouĠ": 5215,
      "ĠwanĠjiaĠ": 5216,
      "oun": 5217,
      "ĠĠĠ17": 5218,
      "shenĠduĠ": 5219,
      "gongĠchengĠshiĠ": 5220,
      "tongĠmingĠ": 5221,
      "yinĠpaiĠ": 5222,
      "ĠruoĠ": 5223,
      "sanĠjiaĠ": 5224,
      "tianĠfuĠ": 5225,
      "peiĠzhiĠ": 5226,
      "zhanĠlanĠ": 5227,
      "changĠsuoĠ": 5228,
      "ĠnianĠweiĠ": 5229,
      "ĠbuĠduanĠ": 5230,
      "jieĠtiĠ": 5231,
      "shanĠfengĠ": 5232,
      "zaiĠliĠ": 5233,
      "nvĠzhuĠ": 5234,
      "ĠrenĠqiĠ": 5235,
      "daĠxiĠyangĠ": 5236,
      "ĠxianĠhouĠ": 5237,
      "guanĠliĠjuĠ": 5238,
      "wanĠliĠ": 5239,
      "yangĠxingĠ": 5240,
      "ĠjiaĠzuĠ": 5241,
      "ĠwaĠ": 5242,
      "xianĠliĠ": 5243,
      "haiĠbaĠweiĠ": 5244,
      "leĠzhongĠ": 5245,
      "yaĠheĠ": 5246,
      "xiaoĠfangĠ": 5247,
      "naĠcui": 5248,
      "ĠhuoĠzheĠ": 5249,
      "zĠ": 5250,
      "jieĠzhongĠ": 5251,
      "tiĠweiĠ": 5252,
      "liangĠdaĠ": 5253,
      "gaiĠzaoĠ": 5254,
      "dongĠshiĠzhangĠ": 5255,
      "ĠĠĠzhengĠ": 5256,
      "zouĠxiangĠ": 5257,
      "ĠjiĠhouĠ": 5258,
      "geĠjuĠ": 5259,
      "ĠkeĠxiĠ": 5260,
      "zhuĠweiĠ": 5261,
      "riĠyuĠ": 5262,
      "NB": 5263,
      "dingĠshiĠ": 5264,
      "ĠzaiĠyouĠ": 5265,
      "suoĠcaiĠyong": 5266,
      "42Ġ": 5267,
      "Ġxu": 5268,
      "Ġ1949ĠnianĠ": 5269,
      "ĠshiĠyiĠbuĠ": 5270,
      "69": 5271,
      "ĠdaĠduoĠshuĠ": 5272,
      "Ġ1998ĠnianĠ": 5273,
      "jianĠkangĠ": 5274,
      "chuangĠzaoĠ": 5275,
      "junĠrenĠ": 5276,
      "daĠlouĠ": 5277,
      "ĠbuĠerĠ": 5278,
      "gaoĠxiong": 5279,
      "cheĠxiangĠ": 5280,
      "guĠdingĠ": 5281,
      "nengĠyuanĠ": 5282,
      "ĠchengĠgongĠ": 5283,
      "jieĠliĠ": 5284,
      "qianĠdingĠ": 5285,
      "ĠĠĠjingĠ": 5286,
      "wenĠzhongĠ": 5287,
      "ĠyouĠzhongĠ": 5288,
      "yanĠseĠ": 5289,
      "zhiĠshiĠqiĠ": 5290,
      "shangĠshengĠ": 5291,
      "boĠlinĠ": 5292,
      "qinĠwangĠ": 5293,
      "zei": 5294,
      "Ġte": 5295,
      "ĠzhiĠyiĠ": 5296,
      "junĠzhongĠ": 5297,
      "hanĠdeĠ": 5298,
      "zhanĠlve": 5299,
      "mengĠgu": 5300,
      "ĠĠĠjieĠ": 5301,
      "sanĠweiĠ": 5302,
      "manĠdiĠ": 5303,
      "ĠguoĠneiĠ": 5304,
      "ĠĠĠ2Ġ": 5305,
      "taiĠheĠ": 5306,
      "lunĠshiĠ": 5307,
      "ĠbingĠweiĠ": 5308,
      "ĠMa": 5309,
      "erĠtongĠ": 5310,
      "xiaĠlingĠ": 5311,
      "muĠqian": 5312,
      "Ġ1999ĠnianĠ": 5313,
      "33Ġ": 5314,
      "daoĠweiĠ": 5315,
      "mingĠzhongĠ": 5316,
      "zhengĠxie": 5317,
      "ĠweiĠyuĠgaiĠ": 5318,
      "xiaoĠfeiĠ": 5319,
      "feiĠerĠdeĠ": 5320,
      "Ġsong": 5321,
      "ĠyinĠyueĠ": 5322,
      "huiĠyiĠyuanĠ": 5323,
      "bianĠyiĠ": 5324,
      "sanĠdaĠ": 5325,
      "kouĠdeĠ": 5326,
      "28Ġ": 5327,
      "shengĠdiĠ": 5328,
      "mianĠduiĠ": 5329,
      "gongĠliĠdeĠ": 5330,
      "tiĠxingĠ": 5331,
      "diaoĠkuai": 5332,
      "yinĠyue": 5333,
      "ziĠshenĠ": 5334,
      "quĠzhuĠ": 5335,
      "leĠzheĠ": 5336,
      "liuĠxiaĠ": 5337,
      "ĠdeĠyiĠshuĠ": 5338,
      "ĠĠĠ2006ĠnianĠ": 5339,
      "ziĠzaiĠ": 5340,
      "yanĠyuĠ": 5341,
      "queĠshiĠ": 5342,
      "ĠweiĠUTCĠ": 5343,
      "nanĠhaiĠ": 5344,
      "zhuĠyiĠzheĠ": 5345,
      "xiongĠyaĠliĠ": 5346,
      "lianĠheĠhuiĠ": 5347,
      "AN": 5348,
      "Ġhu": 5349,
      "inĠ": 5350,
      "yanĠhaiĠ": 5351,
      "ĠcnĠ": 5352,
      "zhuĠheĠ": 5353,
      "wenĠheĠ": 5354,
      "1ĠgeĠ": 5355,
      "zhangĠyueĠ": 5356,
      "paiĠqianĠ": 5357,
      "diaoĠkuaiĠyiĠxiaoĠshiĠ": 5358,
      "ĠĠĠmaĠ": 5359,
      "ĠĠĠjiaoĠtongĠ": 5360,
      "chengĠyouĠ": 5361,
      "luoĠshiĠ": 5362,
      "chongĠjiĠ": 5363,
      "zaiĠciĠ": 5364,
      "guoĠhuiĠ": 5365,
      "jingĠgaoĠ": 5366,
      "zhenĠquĠdeĠ": 5367,
      "yinĠyuĠ": 5368,
      "zhangĠheĠ": 5369,
      "ĠjiĠUTCĠ": 5370,
      "ĠxiĠlie": 5371,
      "sheĠyouĠxiaĠlingĠshiĠjianĠ": 5372,
      "miĠshuĠzhangĠ": 5373,
      "ĠdeĠshiĠquĠweiĠUTCĠ": 5374,
      "ĠerĠgaiĠdiĠsuoĠcaiĠyong": 5375,
      "ĠtongĠshiĠgaiĠdiĠsheĠyouĠxiaĠlingĠshiĠjianĠ": 5376,
      "ĠerĠgaiĠdiĠsuoĠcaiĠyongĠdeĠshiĠquĠweiĠUTCĠ": 5377,
      "ĠjiuĠshiĠ": 5378,
      "shuĠrenĠ": 5379,
      "caiĠdeĠ": 5380,
      "shouĠxianĠ": 5381,
      "wanĠyuanĠ": 5382,
      "tianĠhouĠ": 5383,
      "qunĠzhongĠ": 5384,
      "ĠyiĠwuĠ": 5385,
      "zuiĠzao": 5386,
      "biaoĠbenĠ": 5387,
      "ĠdongĠnanĠ": 5388,
      "jianĠliĠleĠ": 5389,
      "dangĠjiĠ": 5390,
      "ĠerĠqiĠ": 5391,
      "lieĠruĠ": 5392,
      "5ĠgongĠliĠ": 5393,
      "biĠyeĠhouĠ": 5394,
      "bingĠfeiĠ": 5395,
      "gaiĠmingĠweiĠ": 5396,
      "guanĠheĠ": 5397,
      "ĠqiĠzhongĠbaoĠkuoĠ": 5398,
      "gaoĠyuĠhaiĠpingĠmianĠ": 5399,
      "ĠqiĠfuĠ": 5400,
      "ĠerĠfeiĠ": 5401,
      "ĠĠĠanĠ": 5402,
      "ĠshiĠyeĠ": 5403,
      "ruĠdeĠ": 5404,
      "benĠrenĠ": 5405,
      "haiĠbaĠweiĠgaoĠyuĠhaiĠpingĠmianĠ": 5406,
      "79": 5407,
      "stĠ": 5408,
      "xiangĠtongĠdeĠ": 5409,
      "jingĠduĠ": 5410,
      "pingĠguĠ": 5411,
      "suĠgeĠlanĠ": 5412,
      "Ġlao": 5413,
      "xuanĠzhongĠ": 5414,
      "daĠbuĠfen": 5415,
      "tuiĠxiuĠ": 5416,
      "suoĠchuĠdeĠhaiĠbaĠweiĠgaoĠyuĠhaiĠpingĠmianĠ": 5417,
      "tanĠxianĠ": 5418,
      "ĠzhongĠshanĠ": 5419,
      "zhangĠfuĠ": 5420,
      "tuĠjingĠ": 5421,
      "ĠY": 5422,
      "ĠshuoĠ": 5423,
      "va": 5424,
      "daĠyiĠ": 5425,
      "zhuaĠ": 5426,
      "zeĠzaiĠ": 5427,
      "danĠbaiĠ": 5428,
      "buĠshiĠquĠ": 5429,
      "faĠzhiĠ": 5430,
      "fangĠjiĠ": 5431,
      "ĠlingĠyouĠ": 5432,
      "...": 5433,
      "shangĠdiĠ": 5434,
      "chaoĠyueĠ": 5435,
      "guanĠcha": 5436,
      "sheĠxianĠ": 5437,
      "Ġku": 5438,
      "tiaoĠjieĠ": 5439,
      "jinĠxingĠdeĠ": 5440,
      "cunĠluoĠ": 5441,
      "66": 5442,
      "ĠĠĠyingĠ": 5443,
      "gongĠneng": 5444,
      "zhengĠce": 5445,
      "kaoĠlv": 5446,
      "ĠshanĠxiĠ": 5447,
      "yiĠshiĠdeĠ": 5448,
      "suoĠzaiĠdiĠ": 5449,
      "dengĠzhiĠ": 5450,
      "shuangĠdaĠ": 5451,
      "daiĠlingĠ": 5452,
      "caiĠnengĠ": 5453,
      "ĠzaiĠtaĠ": 5454,
      "ĠdaĠluĠ": 5455,
      "changĠjingĠ": 5456,
      "Ġchi": 5457,
      "liĠdeĠ": 5458,
      "gongĠweiĠ": 5459,
      "duoĠerĠ": 5460,
      "53": 5461,
      "ĠĠĠ190": 5462,
      "ĠziĠyouĠ": 5463,
      "ĠĠĠ4": 5464,
      "sanĠrenĠ": 5465,
      "ew": 5466,
      "eĠdeĠ": 5467,
      "um": 5468,
      "jueĠsai": 5469,
      "beiĠfangĠ": 5470,
      "shenĠhuaĠ": 5471,
      "luoĠfaĠ": 5472,
      "ĠTheĠĠĠ": 5473,
      "ĠgenĠ": 5474,
      "ĠmiaoĠ": 5475,
      "jinĠnianĠ": 5476,
      "duanĠshiĠjianĠ": 5477,
      "huiĠguiĠ": 5478,
      "ouĠxiangĠ": 5479,
      "laiĠsiĠ": 5480,
      "yinĠxiangĠ": 5481,
      "zhenĠquĠdeĠmianĠjiĠweiĠ": 5482,
      "beiĠsiĠ": 5483,
      "ĠdeĠjiĠluĠ": 5484,
      "leĠdeĠ": 5485,
      "yanĠrenĠ": 5486,
      "yanĠheĠ": 5487,
      "qianĠyueĠ": 5488,
      "cengĠdeĠ": 5489,
      "ĠerĠbuĠshiĠ": 5490,
      "naĠxieĠ": 5491,
      "ĠluoĠmaĠ": 5492,
      "shouĠbuĠ": 5493,
      "ĠyuĠxiĠ": 5494,
      "chengĠquĠ": 5495,
      "juĠleĠ": 5496,
      "canĠxuanĠ": 5497,
      "Ġ24": 5498,
      "shuĠbuĠ": 5499,
      "danĠshiĠ": 5500,
      "changĠshangĠ": 5501,
      "zuĠcheng": 5502,
      "zaiĠyiĠqiĠ": 5503,
      "zuĠqiuĠduiĠ": 5504,
      "AP": 5505,
      "quanĠyiĠ": 5506,
      "mianĠyiĠ": 5507,
      "douĠzaiĠ": 5508,
      "diĠqiuĠ": 5509,
      "geĠlaĠ": 5510,
      "ĠqiĠxuanĠ": 5511,
      "yanĠzhongĠdeĠ": 5512,
      "lianĠluoĠ": 5513,
      "huĠxiangĠ": 5514,
      "ziĠchanĠ": 5515,
      "changĠbiĠsaiĠ": 5516,
      "keĠnengĠhuiĠ": 5517,
      "yunĠyongĠ": 5518,
      "kaĠlaĠ": 5519,
      "ĠluĠwa": 5520,
      "pp": 5521,
      "ĠĠĠdiĠyiĠ": 5522,
      "Ġ10Ġ": 5523,
      "Ġn": 5524,
      "chuĠzhongĠ": 5525,
      "kongĠxiĠ": 5526,
      "xianĠzhongĠ": 5527,
      "ĠnianĠshiĠjieĠ": 5528,
      "ĠheĠdaoĠ": 5529,
      "fuĠxingĠ": 5530,
      "qingĠjieĠ": 5531,
      "Sta": 5532,
      "guanĠyiĠ": 5533,
      "seĠfuĠ": 5534,
      "zhongĠyao": 5535,
      "tongĠxunĠ": 5536,
      "geĠguoĠ": 5537,
      "faĠyiĠ": 5538,
      "tuĠjiĠ": 5539,
      "ĠyuĠbeiĠ": 5540,
      "ĠzhongĠgongĠzhongĠyangĠ": 5541,
      "baoĠcunĠ": 5542,
      "zhuanĠmenĠ": 5543,
      "shuaiĠlingĠ": 5544,
      "kaiĠdeĠ": 5545,
      "oĠĠĠ": 5546,
      "muĠerĠ": 5547,
      "88": 5548,
      "ĠĠĠmeiĠ": 5549,
      "zhuĠzhongĠ": 5550,
      "baoĠluoĠ": 5551,
      "huaĠjiaĠ": 5552,
      "zhangĠzhuanĠjiĠ": 5553,
      "sheĠjiĠshiĠ": 5554,
      "mianĠfeiĠ": 5555,
      "zhongĠyiĠyuanĠ": 5556,
      "heĠliuĠ": 5557,
      "zhengĠbianĠ": 5558,
      "duiĠyingĠ": 5559,
      "zuiĠduoĠ": 5560,
      "ĠshiĠbeiĠ": 5561,
      "ĠzhiĠshuĠ": 5562,
      "taiĠkongĠ": 5563,
      "ĠgeĠquĠ": 5564,
      "Ġ30Ġ": 5565,
      "neiĠdiĠ": 5566,
      "ĠyiĠshengĠ": 5567,
      "shouĠquanĠ": 5568,
      "guanĠceĠ": 5569,
      "shuai": 5570,
      "jingĠzaiĠ": 5571,
      "diĠquĠdeĠ": 5572,
      "xueĠkeĠ": 5573,
      "zuĠqiuĠjuĠleĠbuĠ": 5574,
      "qianĠxiĠ": 5575,
      "kaoĠshiĠ": 5576,
      "xianĠzhuĠ": 5577,
      "ĠchengĠyuanĠ": 5578,
      "AC": 5579,
      "Ġ23": 5580,
      "tiĠheĠ": 5581,
      "shangĠjiĠ": 5582,
      "yanĠjiĠ": 5583,
      "ruĠweiĠ": 5584,
      "dingĠliĠ": 5585,
      "xuanĠju": 5586,
      "muĠsiĠlinĠ": 5587,
      "wanĠzhengĠ": 5588,
      "ĠchaoĠxianĠ": 5589,
      "sanĠbuĠ": 5590,
      "bianĠjingĠ": 5591,
      "quanĠxianĠ": 5592,
      "shenĠyiĠ": 5593,
      "guoĠneiĠ": 5594,
      "mianĠdianĠ": 5595,
      "ĠriĠdeĠ": 5596,
      "Ġsa": 5597,
      "gengĠxinĠ": 5598,
      "ĠmaĠlai": 5599,
      "Ġ2ĠyueĠ": 5600,
      "ĠĠĠyanĠ": 5601,
      "shanĠxianĠ": 5602,
      "feiĠyanĠ": 5603,
      "zaoĠshangĠ": 5604,
      "cuĠ": 5605,
      "Ġtian": 5606,
      "ĠĠĠran": 5607,
      "ĠyueĠyiĠ": 5608,
      "wuĠguanĠ": 5609,
      "ĠdiĠdiĠ": 5610,
      "zhouĠrenĠ": 5611,
      "00ĠrenĠ": 5612,
      "faĠshengĠzaiĠ": 5613,
      "BS": 5614,
      "chuĠweiĠ": 5615,
      "riĠyiĠ": 5616,
      "xueĠzhongĠ": 5617,
      "qingĠrenĠ": 5618,
      "ĠbuĠlaĠ": 5619,
      "pingĠguoĠ": 5620,
      "wanĠnianĠ": 5621,
      "gaoĠshiĠ": 5622,
      "fengĠdeĠ": 5623,
      "tuiĠjianĠ": 5624,
      "faĠmingĠ": 5625,
      "liaoĠdeĠ": 5626,
      "taiĠhouĠ": 5627,
      "chuanĠtongĠdeĠ": 5628,
      "juĠfengĠ": 5629,
      "xieĠzuoĠ": 5630,
      "ĠĠĠxingĠ": 5631,
      "geĠyuĠ": 5632,
      "langĠzhongĠ": 5633,
      "huoĠshengĠ": 5634,
      "ĠnuoĠ": 5635,
      "jiangĠyiĠ": 5636,
      "xiuĠdaoĠ": 5637,
      "pianĠzhongĠ": 5638,
      "daiĠyiĠ": 5639,
      "miaoĠhuiĠ": 5640,
      "ĠbuĠxiangĠ": 5641,
      "luoĠshanĠjiĠ": 5642,
      "cheĠchangĠ": 5643,
      "tuĠshuĠ": 5644,
      "ĠrongĠ": 5645,
      "xianĠruĠ": 5646,
      "jinĠriĠ": 5647,
      "quĠjianĠ": 5648,
      "zhongĠguoĠdaĠluĠ": 5649,
      "baĠsiĠ": 5650,
      "zanĠzhuĠ": 5651,
      "diĠwuĠ": 5652,
      "fuĠzhuĠ": 5653,
      "jiaoĠhuanĠ": 5654,
      "xiaoĠyingĠ": 5655,
      "ĠbeiĠchengĠweiĠ": 5656,
      "baĠdaĠ": 5657,
      "boĠluoĠ": 5658,
      "ĠshiĠjiaĠ": 5659,
      "ĠdiĠqiuĠ": 5660,
      "pingĠlun": 5661,
      "pingĠfangĠqianĠmiĠ": 5662,
      "Ġ00": 5663,
      "YouT": 5664,
      "aoĠerĠ": 5665,
      "liĠziĠ": 5666,
      "xingĠmuĠ": 5667,
      "miĠniĠ": 5668,
      "aiĠliĠ": 5669,
      "liangĠheĠ": 5670,
      "jiuĠyuanĠ": 5671,
      "sheĠzaiĠ": 5672,
      "bianĠzhiĠ": 5673,
      "chengĠleĠ": 5674,
      "geĠsiĠ": 5675,
      "jiaoĠduĠ": 5676,
      "naĠxiaĠ": 5677,
      "ĠdeĠshiĠyongĠ": 5678,
      "xianĠzhiĠxianĠ": 5679,
      "ĠĠĠgongĠ": 5680,
      "rea": 5681,
      "shouĠboĠ": 5682,
      "shangĠxianĠ": 5683,
      "ĠshiĠshiĠyongĠ": 5684,
      "duiĠzhongĠ": 5685,
      "linĠsiĠ": 5686,
      "ĠzuiĠgaoĠ": 5687,
      "guoĠminĠdangĠ": 5688,
      "ĠzhiĠwaiĠ": 5689,
      "chuĠzhangĠ": 5690,
      "zaoĠchengĠdeĠ": 5691,
      "ĠyuanĠmingĠ": 5692,
      "BC": 5693,
      "Ġ26": 5694,
      "taiĠyuĠ": 5695,
      "gaiĠzhiĠweiĠ": 5696,
      "juĠbenĠ": 5697,
      "tianĠzhuĠ": 5698,
      "guiĠmo": 5699,
      "luoĠliĠdaĠ": 5700,
      "baĠerĠ": 5701,
      "zongĠyiĠ": 5702,
      "zhangĠziĠ": 5703,
      "ĠĠĠ10": 5704,
      "suĠliĠ": 5705,
      "zhanĠmuĠsiĠ": 5706,
      "tiĠchuĠdeĠ": 5707,
      "Ġ1997ĠnianĠ": 5708,
      "luoĠyuĠ": 5709,
      "baoĠhu": 5710,
      "huĠlianĠ": 5711,
      "ĠshiĠjianĠzhuĠ": 5712,
      "banĠjiĠ": 5713,
      "leiĠsiĠdeĠ": 5714,
      "ĠĠĠ2005ĠnianĠ": 5715,
      "ĠjueĠdingĠ": 5716,
      "jueĠyuĠ": 5717,
      "luĠzhanĠ": 5718,
      "huoĠcheĠ": 5719,
      "piĠzhun": 5720,
      "ĠshanĠdongĠ": 5721,
      "ĠĠĠrenĠ": 5722,
      "ĠĠĠdongĠ": 5723,
      "lieĠshiĠ": 5724,
      "fuĠshuĠ": 5725,
      "biĠxu": 5726,
      "boĠlan": 5727,
      "ĠĠĠnanĠ": 5728,
      "yunĠdeĠ": 5729,
      "touĠxianĠ": 5730,
      "54": 5731,
      "ĠĠĠgeĠrenĠ": 5732,
      "shaoĠdeĠ": 5733,
      "geĠziĠ": 5734,
      "ĠhouĠzheĠ": 5735,
      "ĠĠĠbaĠ": 5736,
      "faĠsheng": 5737,
      "jiaoĠchaĠ": 5738,
      "yaoĠshiĠ": 5739,
      "huaiĠyiĠ": 5740,
      "diĠqiĠ": 5741,
      "diĠxiaĠ": 5742,
      "ĠpuĠtaoĠ": 5743,
      "ctionĠĠĠ": 5744,
      "faĠliĠ": 5745,
      "guanĠjiĠ": 5746,
      "ĠweiĠyuĠzhongĠguoĠ": 5747,
      "36Ġ": 5748,
      "juĠbanĠdeĠ": 5749,
      "xinĠguanĠ": 5750,
      "qiangĠduĠ": 5751,
      "Ġzao": 5752,
      "maĠshiĠ": 5753,
      "canĠyiĠ": 5754,
      "ĠdiĠyaĠ": 5755,
      "huoĠbiĠ": 5756,
      "ĠtaĠyouĠ": 5757,
      "faĠxianĠdeĠ": 5758,
      "luoĠchengĠ": 5759,
      "zhuanĠxieĠ": 5760,
      "canĠtingĠ": 5761,
      "jingĠneiĠgongĠyouĠ": 5762,
      "zhaĠdanĠ": 5763,
      "chuanĠmeiĠ": 5764,
      "ĠĠĠduiĠ": 5765,
      "dingĠjiĠ": 5766,
      "ĠlianĠheĠ": 5767,
      "ĠshiĠtaĠ": 5768,
      "bingĠduĠ": 5769,
      "teĠquĠ": 5770,
      "ĠaiĠerĠ": 5771,
      "38Ġ": 5772,
      "IC": 5773,
      "xingĠzhengĠquĠ": 5774,
      "xueĠliĠ": 5775,
      "xiaoĠyuĠ": 5776,
      "xiaĠzaiĠ": 5777,
      "ĠweiĠbeiĠ": 5778,
      "ĠĠĠp": 5779,
      "xiĠnanĠbuĠ": 5780,
      "xiĠyouĠ": 5781,
      "xingĠzaiĠ": 5782,
      "jiangĠliĠ": 5783,
      "zhengĠjiĠ": 5784,
      "luoĠyiĠ": 5785,
      "suĠzhiĠ": 5786,
      "baiĠyuĠ": 5787,
      "ĠshiĠerĠ": 5788,
      "ĠshiĠyiĠkeĠ": 5789,
      "ĠgaiĠbianĠ": 5790,
      "huangĠseĠ": 5791,
      "xinĠjiaĠpo": 5792,
      "ĠzaĠzhiĠ": 5793,
      "ĠzhongĠxingĠ": 5794,
      "xiangĠfaĠ": 5795,
      "juĠban": 5796,
      "ĠyingĠwenĠ": 5797,
      "zheĠheĠ": 5798,
      "ĠzaiĠ197": 5799,
      "zhuĠdaoĠ": 5800,
      "ĠdaĠbuĠfen": 5801,
      "ĠĠĠ16": 5802,
      "suiĠzheĠ": 5803,
      "shangĠwangĠ": 5804,
      "tongĠxinĠ": 5805,
      "qianĠtingĠ": 5806,
      "Ġ1992ĠnianĠ": 5807,
      "Ġ1994ĠnianĠ": 5808,
      "chuĠguoĠ": 5809,
      "ĠshiĠchengĠ": 5810,
      "meiĠjunĠ": 5811,
      "ĠtiĠgongĠ": 5812,
      "ĠchunĠ": 5813,
      "miĠsiĠ": 5814,
      "zongĠrenĠkouĠ": 5815,
      "faĠdongĠjiĠ": 5816,
      "baĠdeĠ": 5817,
      "ĠliĠliangĠ": 5818,
      "qingĠzhuĠ": 5819,
      "ĠbingĠbeiĠ": 5820,
      "duanĠpianĠ": 5821,
      "76": 5822,
      "95": 5823,
      "ct": 5824,
      "ganĠyuĠ": 5825,
      "qiĠzhongĠ": 5826,
      "ĠxiĠyinĠ": 5827,
      "sheĠjiaoĠ": 5828,
      "wuĠzhengĠzhuangĠganĠranĠzheĠ": 5829,
      "Ġyang": 5830,
      "teĠjiĠ": 5831,
      "zuiĠzaoĠ": 5832,
      "ĠĠĠhouĠ": 5833,
      "xueĠjiĠ": 5834,
      "xinĠjianĠ": 5835,
      "shenĠshengĠ": 5836,
      "ĠxiangĠguanĠ": 5837,
      "mer": 5838,
      "ĠhangĠ": 5839,
      "pinĠdeĠ": 5840,
      "chengĠjiuĠ": 5841,
      "jinĠrong": 5842,
      "ĠĠĠLi": 5843,
      "Ġi": 5844,
      "Ġshao": 5845,
      "Ġkan": 5846,
      "Ġtang": 5847,
      "xingĠshiĠdeĠ": 5848,
      "touĠdeĠ": 5849,
      "ĠyiĠdongĠ": 5850,
      "aĠgenĠ": 5851,
      "ry": 5852,
      "uĠ": 5853,
      "shuĠzaiĠ": 5854,
      "ĠliĠchengĠ": 5855,
      "fuĠmuĠ": 5856,
      "fangĠmian": 5857,
      "shanĠmaiĠ": 5858,
      "suiĠranĠ": 5859,
      "aoĠdeĠ": 5860,
      "duiĠjiĠ": 5861,
      "xuĠjiĠ": 5862,
      "2002ĠnianĠ": 5863,
      "ĠshiĠhouĠ": 5864,
      "ĠzhiĠbuĠ": 5865,
      "qiĠcheĠ": 5866,
      "zuĠjieĠ": 5867,
      "ĠdeĠyiĠyuanĠ": 5868,
      "ĠxinĠwenĠ": 5869,
      "ĠzuĠzhiĠ": 5870,
      "taĠyiĠ": 5871,
      "dianĠweiĠ": 5872,
      "minĠyiĠ": 5873,
      "ĠshiĠrenĠminĠ": 5874,
      "cheĠdiĠ": 5875,
      "qiĠlaiĠ": 5876,
      "minĠzu": 5877,
      "lingĠchenĠ": 5878,
      "yunĠdongĠdeĠ": 5879,
      "ĠĠĠliuĠ": 5880,
      "daĠxiaoĠ": 5881,
      "leĠyuanĠ": 5882,
      "ĠĠĠshiĠyongĠ": 5883,
      "gra": 5884,
      "Ġ29": 5885,
      "ĠĠĠtianĠ": 5886,
      "ciĠdiĠ": 5887,
      "zhangĠzhiĠ": 5888,
      "teĠheĠ": 5889,
      "chuanĠqiĠ": 5890,
      "zhongĠhuaĠminĠguoĠ": 5891,
      "guĠlaĠ": 5892,
      "chengĠzaiĠ": 5893,
      "qiĠhouĠ": 5894,
      "zhengĠquĠ": 5895,
      "teĠdianĠ": 5896,
      "ĠThe": 5897,
      "Ġhei": 5898,
      "xianĠshangĠ": 5899,
      "duĠguoĠ": 5900,
      "linĠjinĠ": 5901,
      "wuĠdiĠ": 5902,
      "hĠ": 5903,
      "hanĠziĠ": 5904,
      "zanĠshiĠ": 5905,
      "yaĠmuĠ": 5906,
      "xunĠlian": 5907,
      "ĠshouĠciĠ": 5908,
      "Ġ1996ĠnianĠ": 5909,
      "anĠzhiĠ": 5910,
      "zuiĠdiĠ": 5911,
      "ĠzhongĠdianĠ": 5912,
      "xiĠbeiĠbuĠ": 5913,
      "bangĠqiuĠ": 5914,
      "buĠdeĠcunĠzhuangĠ": 5915,
      "chuĠbanĠsheĠ": 5916,
      "danĠdaĠ": 5917,
      "xiangĠyingĠ": 5918,
      "xinĠjiangĠ": 5919,
      "laiĠyinĠ": 5920,
      "gaoĠduĠweiĠ": 5921,
      "gangĠkouĠ": 5922,
      "ĠerĠdeĠ": 5923,
      "ĠĠĠco": 5924,
      "gongĠzuoĠshiĠ": 5925,
      "yongĠjiĠ": 5926,
      "sanĠzhongĠ": 5927,
      "faĠtingĠ": 5928,
      "suiĠran": 5929,
      "Ġ1945ĠnianĠ": 5930,
      "shengĠdaoĠ": 5931,
      "gongĠyuanĠqianĠ": 5932,
      "ĠtaĠheĠ": 5933,
      "ĠcaiĠyongĠ": 5934,
      "ĠdiĠzaiĠ": 5935,
      "qianĠjinĠ": 5936,
      "daiĠbiaoĠtuanĠ": 5937,
      "xingĠyouĠ": 5938,
      "ziĠxun": 5939,
      "tiĠdaiĠ": 5940,
      "ĠmingĠzhiĠ": 5941,
      "ĠshuangĠfangĠ": 5942,
      "Ġ27": 5943,
      "siĠdaĠ": 5944,
      "chengĠweiĠyiĠ": 5945,
      "yeĠfuĠ": 5946,
      "xinĠjieĠ": 5947,
      "jiangĠshuĠ": 5948,
      "bianĠyuanĠ": 5949,
      "ĠdeĠyiĠxieĠ": 5950,
      "eĠguoĠ": 5951,
      "ĠQ": 5952,
      "lieĠchuĠ": 5953,
      "37Ġ": 5954,
      "87": 5955,
      "Ġ50": 5956,
      "ĠyanĠjiuĠ": 5957,
      "daoĠyouĠ": 5958,
      "huiĠweiĠ": 5959,
      "sanĠmingĠ": 5960,
      "Ġì": 5961,
      "houĠjiĠ": 5962,
      "xiaoĠliĠyuĠ": 5963,
      "ĠzaiĠneiĠdeĠ": 5964,
      "maĠtouĠ": 5965,
      "ĠhuoĠshiĠ": 5966,
      "ĠjiaĠlaĠ": 5967,
      "ĠsuiĠdeĠ": 5968,
      "5ĠgeĠ": 5969,
      "shenĠyuĠ": 5970,
      "daĠdiĠ": 5971,
      "aĠliĠ": 5972,
      "ĠjueĠ": 5973,
      "chengĠzhiĠweiĠ": 5974,
      "biĠliĠshiĠ": 5975,
      "ĠyuĠ197": 5976,
      "zanĠtingĠ": 5977,
      "Ġ9Ġ": 5978,
      "danĠyiĠ": 5979,
      "ĠdaĠjiaĠ": 5980,
      "duiĠfangĠ": 5981,
      "tt": 5982,
      "duiĠheĠ": 5983,
      "baiĠkeĠ": 5984,
      "xianĠchengĠ": 5985,
      "shuĠchuĠ": 5986,
      "ĠshouĠdaoĠ": 5987,
      "tongĠheĠ": 5988,
      "jianĠduĠ": 5989,
      "Ġ1993ĠnianĠ": 5990,
      "NA": 5991,
      "ĠhenĠ": 5992,
      "ĠĠĠdaoĠ": 5993,
      "yongĠzaiĠ": 5994,
      "pingĠyuanĠ": 5995,
      "ĠerĠgaiĠdiĠdeĠ": 5996,
      "tanĠheĠ": 5997,
      "geĠbuĠ": 5998,
      "ĠdaĠjiangĠ": 5999,
      "wangĠwangĠ": 6000,
      "ĠdanĠyinĠ": 6001,
      "ĠzhaoĠheĠ": 6002,
      "ĠweiĠyiĠ": 6003,
      "chĠ": 6004,
      "fenĠqiĠ": 6005,
      "nd": 6006,
      "Ġshuang": 6007,
      "huoĠzaiĠ": 6008,
      "yeĠkeĠyiĠ": 6009,
      "ĠgeĠshouĠ": 6010,
      "46Ġ": 6011,
      "96": 6012,
      "geĠnianĠ": 6013,
      "yunĠheĠ": 6014,
      "ĠdeĠhuaĠ": 6015,
      "wuĠshuĠ": 6016,
      "jingĠguanĠ": 6017,
      "ĠxuĠyaoĠ": 6018,
      "ĠĠĠgaiĠyaoĠ": 6019,
      "52Ġ": 6020,
      "Ġpeng": 6021,
      "naĠheĠ": 6022,
      "queĠbaoĠ": 6023,
      "ĠyiĠgongĠ": 6024,
      "ĠbuĠdaoĠ": 6025,
      "chuangĠzuoĠdeĠ": 6026,
      "ĠweiĠfuĠqiĠyuĠgang": 6027,
      "zuanĠ": 6028,
      "haoĠyouĠ": 6029,
      "ĠnianĠĠĠ": 6030,
      "siĠlanĠ": 6031,
      "fenĠpeiĠ": 6032,
      "anĠliĠ": 6033,
      "duiĠdiĠ": 6034,
      "ĠqiĠbingĠ": 6035,
      "yanĠjingĠ": 6036,
      "canĠshuĠ": 6037,
      "500Ġ": 6038,
      "98": 6039,
      "2003ĠnianĠ": 6040,
      "ĠX": 6041,
      "juĠzaiĠ": 6042,
      "guiĠfanĠ": 6043,
      "ĠĠĠ6": 6044,
      "faĠjiĠ": 6045,
      "peiĠbeiĠ": 6046,
      "juĠyuanĠ": 6047,
      "xiaoĠjieĠ": 6048,
      "ĠchuĠbanĠ": 6049,
      "chuo": 6050,
      "wuĠyouĠ": 6051,
      "ĠyiĠbianĠ": 6052,
      "fuĠhaoĠ": 6053,
      "shangĠzhenĠ": 6054,
      "ĠdeĠshiĠjiĠ": 6055,
      "yaĠrenĠ": 6056,
      "ĠliĠliĠ": 6057,
      "beiĠdaĠ": 6058,
      "sheĠdingĠ": 6059,
      "ĠĠĠjiaĠtingĠ": 6060,
      "changĠjiĠ": 6061,
      "kuoĠjianĠ": 6062,
      "shouĠshuĠ": 6063,
      "shenĠmeĠ": 6064,
      "ĠtaĠrenĠweiĠ": 6065,
      "teĠlaĠ": 6066,
      "ĠgongĠyeĠ": 6067,
      "34Ġ": 6068,
      "dianĠshiĠjieĠ": 6069,
      "pinĠzhongĠ": 6070,
      "qianĠhouĠ": 6071,
      "1998ĠnianĠ": 6072,
      "ĠyueĠduiĠ": 6073,
      "chuĠziĠ": 6074,
      "ĠxiĠtongĠdeĠ": 6075,
      "quĠfenĠ": 6076,
      "ĠjinĠshiĠ": 6077,
      "jiuĠzaiĠ": 6078,
      "1999ĠnianĠ": 6079,
      "xiangĠmu": 6080,
      "ĠxianĠweiĠ": 6081,
      "zhuĠceĠ": 6082,
      "dengĠchangĠ": 6083,
      "ĠhuoĠdongĠ": 6084,
      "tuiĠguangĠ": 6085,
      "leĠyiĠxieĠ": 6086,
      "tuĠxiangĠ": 6087,
      "daĠshiĠguanĠ": 6088,
      "riĠbenĠdeĠ": 6089,
      "maĠkeĠsiĠ": 6090,
      "ĠjiĠliĠ": 6091,
      "ĠqiĠzhong": 6092,
      "duoĠmingĠ": 6093,
      "saiĠerĠweiĠ": 6094,
      "chiĠxu": 6095,
      "gengĠduoĠdeĠ": 6096,
      "Ġ2025ĠnianĠ": 6097,
      "qiuĠshiĠ": 6098,
      "beiĠjing": 6099,
      "thĠ": 6100,
      "ĠzhongĠguoĠrenĠminĠjieĠfangĠjunĠ": 6101,
      "xuanĠshiĠ": 6102,
      "yeĠjianĠ": 6103,
      "jinĠyuĠ": 6104,
      "laĠweiĠ": 6105,
      "qianĠshenĠ": 6106,
      "banĠjiangĠ": 6107,
      "tieĠluĠcheĠzhanĠ": 6108,
      "fuĠza": 6109,
      "chengĠfenĠ": 6110,
      "jiaoĠtang": 6111,
      "©Ġ": 6112,
      "cengĠshiĠ": 6113,
      "qiĠyongĠ": 6114,
      "ĠzhongĠjianĠ": 6115,
      "oh": 6116,
      "ĠĠĠwangĠ": 6117,
      "quĠyouĠ": 6118,
      "douĠbeiĠ": 6119,
      "zhongĠbuĠ": 6120,
      "changĠduĠ": 6121,
      "ĠxiangĠmuĠ": 6122,
      "lvĠseĠ": 6123,
      "daoĠzaiĠ": 6124,
      "beiĠliĠ": 6125,
      "wangĠweiĠ": 6126,
      "185": 6127,
      "alĠ": 6128,
      "ON": 6129,
      "leĠdiĠ": 6130,
      "laiĠyuĠ": 6131,
      "184": 6132,
      "ĠyouĠzaiĠ": 6133,
      "ĠheĠliuĠ": 6134,
      "fuĠerĠ": 6135,
      "yeĠshengĠyaĠ": 6136,
      "ĠtongĠyiĠ": 6137,
      "77": 6138,
      "ĠkouĠ": 6139,
      "ĠnengĠ": 6140,
      "congĠweiĠ": 6141,
      "yuanĠbenĠ": 6142,
      "ĠqiĠheĠ": 6143,
      "yeĠshengĠ": 6144,
      "yinĠyongĠ": 6145,
      "suĠlian": 6146,
      "zeĠdongĠ": 6147,
      "ĠbiĠsaiĠ": 6148,
      "buĠdeĠbuĠ": 6149,
      "huangĠjinĠ": 6150,
      "maoĠxianĠ": 6151,
      "qingĠchaoĠ": 6152,
      "ĠzuiĠchuĠ": 6153,
      "ĠbuĠsiĠ": 6154,
      "caĠ": 6155,
      "rt": 6156,
      "ĠsunĠ": 6157,
      "maiĠdeĠ": 6158,
      "shouĠfeiĠ": 6159,
      "banĠyanĠ": 6160,
      "cheĠduiĠ": 6161,
      "shanĠdiĠ": 6162,
      "ĠzaiĠheĠ": 6163,
      "baoĠhan": 6164,
      "rĠĠĠ": 6165,
      "19ĠshiĠjiĠ": 6166,
      "wenĠjiĠ": 6167,
      "zhangĠjiĠ": 6168,
      "touĠbuĠ": 6169,
      "keĠyunĠ": 6170,
      "ĠgongĠqingĠ": 6171,
      "tiona": 6172,
      "junĠbuĠ": 6173,
      "dengĠshiĠ": 6174,
      "zuĠfuĠ": 6175,
      "Ġ1985ĠnianĠ": 6176,
      "ruanĠtiĠ": 6177,
      "ste": 6178,
      "Ġshui": 6179,
      "xingĠliĠ": 6180,
      "dengĠyuĠ": 6181,
      "kaiĠgongĠ": 6182,
      "nanĠsiĠ": 6183,
      "dangĠtianĠ": 6184,
      "aĠlaĠbo": 6185,
      "chenĠjiĠ": 6186,
      "1945ĠnianĠ": 6187,
      "wuĠzhuang": 6188,
      "zheĠyangĠ": 6189,
      "xieĠshangĠ": 6190,
      "moĠniĠ": 6191,
      "ĠliangĠgeĠ": 6192,
      "500": 6193,
      "ĠzaiĠjinĠ": 6194,
      "luĠshangĠ": 6195,
      "haoĠpingĠ": 6196,
      "qunĠtiĠ": 6197,
      "zhengĠshuĠ": 6198,
      "ĠshiĠshiĠshangĠ": 6199,
      "zhangĠyiĠ": 6200,
      "shenĠkeĠ": 6201,
      "ĠzhiĠshaoĠ": 6202,
      "ĠyouĠliangĠ": 6203,
      "riĠbaoĠ": 6204,
      "biĠerĠ": 6205,
      "cheĠshiĠ": 6206,
      "meiĠyuanĠdeĠ": 6207,
      "nongĠcun": 6208,
      "huaĠzaiĠ": 6209,
      "quanĠjiĠ": 6210,
      "zhuanĠweiĠ": 6211,
      "duiĠkangĠ": 6212,
      "ĠdeĠjiĠhuaĠ": 6213,
      "Ma": 6214,
      "ĠxiĠanĠ": 6215,
      "Ġ1995ĠnianĠ": 6216,
      "senĠlin": 6217,
      "qiongĠ": 6218,
      "duĠjiĠ": 6219,
      "dongĠxianĠ": 6220,
      "xiaoĠliangĠ": 6221,
      "ĠĠĠPro": 6222,
      "ĠfuĠzeĠguanĠxiaĠ": 6223,
      "ly": 6224,
      "leĠĠĠ": 6225,
      "waiĠweiĠ": 6226,
      "teĠleiĠ": 6227,
      "xuanĠchengĠ": 6228,
      "ĠshiĠshiĠjiĠ": 6229,
      "shaĠdeĠ": 6230,
      "ĠqiĠdongĠ": 6231,
      "fanĠying": 6232,
      "120": 6233,
      "ĠÏ": 6234,
      "ĠniuĠ": 6235,
      "juĠzhiĠ": 6236,
      "luĠheĠ": 6237,
      "zongĠzhiĠ": 6238,
      "xiaoĠxiangĠ": 6239,
      "xianĠdeĠyiĠgeĠfeiĠjianĠzhiĠdiĠquĠ": 6240,
      "daĠduoĠ": 6241,
      "shaoĠnvĠ": 6242,
      "zheĠzhiĠ": 6243,
      "baoĠheĠ": 6244,
      "huoĠliĠ": 6245,
      "fengĠshiĠ": 6246,
      "zongĠjianĠ": 6247,
      "mianĠtiĠ": 6248,
      "3ĠmiĠ": 6249,
      "ĠfenĠbieĠ": 6250,
      "chaiĠyouĠjiĠ": 6251,
      "ĠĠĠguĠ": 6252,
      "zaiĠyiĠgeĠ": 6253,
      "quĠzhongĠ": 6254,
      "ĠyouĠzhuĠ": 6255,
      "xiangĠqiĠ": 6256,
      "canĠjia": 6257,
      "ĠtaĠmenĠzaiĠ": 6258,
      "gongĠkaiĠsaiĠ": 6259,
      "Re": 6260,
      "haiĠshangĠ": 6261,
      "seĠlie": 6262,
      "Ġ1950ĠnianĠ": 6263,
      "anĠjiĠ": 6264,
      "ĠĠĠzhangĠ": 6265,
      "ĠqiĠxiĠzaiĠ": 6266,
      "6ĠmiĠ": 6267,
      "hangĠyeĠ": 6268,
      "weiĠyuanĠ": 6269,
      "chuĠxianĠdeĠ": 6270,
      "laiĠnaĠ": 6271,
      "feiĠlvĠbin": 6272,
      "41Ġ": 6273,
      "huoĠyiĠ": 6274,
      "lieĠsiĠ": 6275,
      "ĠsectionĠĠĠ": 6276,
      "zhanĠweiĠyuĠ": 6277,
      "liangĠbuĠ": 6278,
      "biaoĠjiĠ": 6279,
      "tuĠchuĠ": 6280,
      "ĠĠĠranĠerĠ": 6281,
      "jiangĠyouĠ": 6282,
      "1996ĠnianĠ": 6283,
      "fenĠsiĠ": 6284,
      "Ġ000Ġ": 6285,
      "ĠĠĠthe": 6286,
      "changĠdaĠ": 6287,
      "duiĠzhiĠ": 6288,
      "baiĠzhiĠ": 6289,
      "haĠliĠ": 6290,
      "beiĠpoĠ": 6291,
      "huiĠdaĠ": 6292,
      "ĠĠĠMo": 6293,
      "niaoĠleiĠ": 6294,
      "ĠmaĠliĠ": 6295,
      "zhanĠyouĠ": 6296,
      "haiĠdiĠ": 6297,
      "duoĠshiĠ": 6298,
      "changĠjiangĠ": 6299,
      "ĠqiĠzhongĠnanĠxingĠ": 6300,
      "ĠĠĠguangĠ": 6301,
      "niĠxiĠyaĠ": 6302,
      "ĠzhongĠqiĠ": 6303,
      "yanĠanĠ": 6304,
      "boĠjueĠ": 6305,
      "feiĠyongĠ": 6306,
      "xieĠweiĠ": 6307,
      "buĠmenĠ": 6308,
      "shenĠzhenĠ": 6309,
      "zhongĠguoĠrenĠminĠ": 6310,
      "puĠtaoĠyaĠ": 6311,
      "Ġxian": 6312,
      "ĠĠĠ2": 6313,
      "ruĠyiĠ": 6314,
      "gongĠjueĠ": 6315,
      "jinĠzhanĠ": 6316,
      "shouĠduanĠ": 6317,
      "ĠsiĠdaĠ": 6318,
      "ĠjiangĠsuĠ": 6319,
      "ĠĠĠgenĠjuĠ2020ĠnianĠmeiĠguoĠrenĠkouĠpuĠchaĠdeĠshuĠjuĠ": 6320,
      "ĠĠĠjingĠjiĠ": 6321,
      "luĠyiĠsiĠ": 6322,
      "xiaĠdiĠquĠ": 6323,
      "xingĠdong": 6324,
      "daoĠdanĠ": 6325,
      "zhanĠshuĠ": 6326,
      "âĨ": 6327,
      "ĠĠĠ12": 6328,
      "guangĠdeĠ": 6329,
      "150Ġ": 6330,
      "ĠguoĠwuĠyuanĠ": 6331,
      "ziĠbenĠ": 6332,
      "zhengĠmianĠ": 6333,
      "con": 6334,
      "eĠweiĠ": 6335,
      "tianĠjiaĠ": 6336,
      "jieĠduan": 6337,
      "fenĠzhiĠyiĠ": 6338,
      "meiĠguo": 6339,
      "suĠweiĠaiĠ": 6340,
      "ie": 6341,
      "gongĠyueĠ": 6342,
      "jiaoĠdiĠ": 6343,
      "muĠyuĠ": 6344,
      "ĠyiĠkeĠ": 6345,
      "ĠheĠqiĠtaĠ": 6346,
      "xueĠyeĠ": 6347,
      "houĠzhiĠ": 6348,
      "genĠsuiĠ": 6349,
      "ĠzaiĠbuĠ": 6350,
      "baoĠzha": 6351,
      "daiĠmaĠ": 6352,
      "zongĠcaiĠ": 6353,
      "cunĠzaiĠdeĠ": 6354,
      "yuanĠzhuĠminĠ": 6355,
      "weng": 6356,
      "ĠĠĠchengĠ": 6357,
      "zuĠrenĠ": 6358,
      "ĠguoĠjiaĠdeĠ": 6359,
      "kuoĠzhangĠ": 6360,
      "Ġ1990ĠnianĠ": 6361,
      "zhanĠweiĠ": 6362,
      "woĠerĠ": 6363,
      "ciĠdaĠ": 6364,
      "zheĠyangĠdeĠ": 6365,
      "ĠziĠyuanĠ": 6366,
      "zhuanĠyongĠ": 6367,
      "menĠshiĠ": 6368,
      "keĠerĠ": 6369,
      "taiĠnanĠ": 6370,
      "riĠjiĠ": 6371,
      "shuiĠdeĠ": 6372,
      "ĠguoĠgongĠ": 6373,
      "yanĠjiangĠ": 6374,
      "xuanĠjuĠzhongĠ": 6375,
      "ĠgeĠleiĠ": 6376,
      "Ġ1991ĠnianĠ": 6377,
      "ĠweiĠyuanĠhuiĠweiĠyuanĠ": 6378,
      "ĠmenĠ": 6379,
      "ĠlunĠ": 6380,
      "shuĠdeĠzhiĠwuĠ": 6381,
      "beiĠyueĠ": 6382,
      "banĠnianĠ": 6383,
      "baoĠzhaĠ": 6384,
      "guĠfenĠyouĠxianĠgongĠsiĠ": 6385,
      "32": 6386,
      "taĠrenĠ": 6387,
      "wangĠjiĠ": 6388,
      "chaĠshiĠ": 6389,
      "ganĠxianĠ": 6390,
      "ĠxingĠjianĠ": 6391,
      "ĠshiĠyiĠzuoĠ": 6392,
      "Ġ1988ĠnianĠ": 6393,
      "ĠĠĠ8": 6394,
      "meiĠshiĠ": 6395,
      "ĠyouĠsuoĠ": 6396,
      "chuĠchangĠ": 6397,
      "juĠmin": 6398,
      "wenĠtiĠdeĠ": 6399,
      "ĠshiĠdeĠshiĠ": 6400,
      "zengĠqiangĠ": 6401,
      "chengĠliĠhouĠ": 6402,
      "ĠyuĠ2012ĠnianĠ": 6403,
      "ĠjiĠjinĠhuiĠ": 6404,
      "nanĠjiĠzhouĠdeĠ": 6405,
      "WĠ": 6406,
      "Ġlv": 6407,
      "houĠbuĠ": 6408,
      "laiĠkeĠ": 6409,
      "yangĠheĠ": 6410,
      "guĠdianĠ": 6411,
      "ĠjinĠshuĠ": 6412,
      "2ĠhaoĠ": 6413,
      "aĠfuĠ": 6414,
      "Ġshou": 6415,
      "ganĠdeĠ": 6416,
      "ĠyiĠnian": 6417,
      "xunĠyangĠjianĠ": 6418,
      "ĠĠĠqiĠzhongĠ": 6419,
      "ĠyuĠ2021ĠnianĠ": 6420,
      "ĠweiĠfuĠqiĠyuĠgangĠ": 6421,
      "ĠjianĠliĠ": 6422,
      "ingĠ": 6423,
      "faĠheĠ": 6424,
      "duoĠliĠyaĠ": 6425,
      "nuoĠyiĠ": 6426,
      "zhuĠbanĠ": 6427,
      "ĠhantĠ": 6428,
      "ĠceĠ": 6429,
      "zuoĠzhiĠ": 6430,
      "gongĠanĠ": 6431,
      "keĠluoĠ": 6432,
      "jiaoĠjieĠ": 6433,
      "Ġ185": 6434,
      "ĠyuĠ2015ĠnianĠ": 6435,
      "ĠliuĠyuĠ": 6436,
      "reĠdaiĠfengĠbaoĠ": 6437,
      "ĠzhuanĠjiĠ": 6438,
      "ĠĠĠzhuĠyaoĠ": 6439,
      "huĠxiĠ": 6440,
      "haiĠzaiĠ": 6441,
      "xinĠtaiĠ": 6442,
      "xuanĠchuĠ": 6443,
      "youĠyiĠxieĠ": 6444,
      "bieĠdeĠ": 6445,
      "pinĠlvĠ": 6446,
      "ĠBĠ": 6447,
      "ĠwanĠliĠ": 6448,
      "ĠdiĠtuĠ": 6449,
      "zuoĠfaĠ": 6450,
      "ĠshiĠyiĠzhiĠ": 6451,
      "bingĠyuĠ": 6452,
      "ruĠshiĠ": 6453,
      "ĠliĠgongĠ": 6454,
      "faĠshengĠdeĠ": 6455,
      "jinĠquĠ": 6456,
      "leĠduiĠ": 6457,
      "ĠdaĠerĠ": 6458,
      "liangĠziĠ": 6459,
      "xieĠdingĠ": 6460,
      "naĠshengĠ": 6461,
      "hangĠtianĠ": 6462,
      "canĠkao": 6463,
      "75Ġ": 6464,
      "yaĠzhongĠ": 6465,
      "1992ĠnianĠ": 6466,
      "fangĠmiĠ": 6467,
      "meiĠguoĠrenĠ": 6468,
      "ĠyuĠ2018ĠnianĠ": 6469,
      "ĠĠĠfanĠ": 6470,
      "dingĠxingĠ": 6471,
      "ĠzhongĠwenĠ": 6472,
      "Ġxiu": 6473,
      "ĠĠĠe": 6474,
      "xueĠbuĠ": 6475,
      "qunĠdeĠ": 6476,
      "00Ġmi": 6477,
      "ĠĠĠ0": 6478,
      "banĠrenĠ": 6479,
      "jiuĠyouĠ": 6480,
      "shouĠfaĠ": 6481,
      "ĠkaoĠ": 6482,
      "riĠshiĠ": 6483,
      "wuĠgeĠ": 6484,
      "baiĠwanĠ": 6485,
      "ĠlingĠwai": 6486,
      "ĠlianĠjieĠ": 6487,
      "raoĠtaiĠyangĠ": 6488,
      "ĠnianĠyiĠlaiĠ": 6489,
      "fenĠbieĠweiĠ": 6490,
      "shangĠweiĠyouĠ": 6491,
      "ciĠquĠ": 6492,
      "wenĠti": 6493,
      "74": 6494,
      "taĠheĠ": 6495,
      "yingĠerĠ": 6496,
      "yanĠlunĠ": 6497,
      "wangĠhouĠ": 6498,
      "lianĠsai": 6499,
      "gaoĠyuanĠ": 6500,
      "leiĠxingĠdeĠ": 6501,
      "suoĠyiĠ": 6502,
      "ĠzhiĠjingĠ": 6503,
      "luĠwa": 6504,
      "chuanĠguoĠ": 6505,
      "danĠshuiĠ": 6506,
      "zongĠhuiĠ": 6507,
      "2ĠmiĠ": 6508,
      "300": 6509,
      "ĠĠĠ3ĠyueĠ": 6510,
      "shangĠheĠ": 6511,
      "daiĠyuĠ": 6512,
      "ĠshiĠxiĠ": 6513,
      "faĠlingĠ": 6514,
      "yingĠzhanĠ": 6515,
      "ĠkeĠluoĠ": 6516,
      "ĠzheĠyangĠ": 6517,
      "ĠbaoĠhuĠ": 6518,
      "ĠyuĠ2014ĠnianĠ": 6519,
      "6ĠgeĠ": 6520,
      "pingĠjieĠ": 6521,
      "duĠhuiĠ": 6522,
      "wangĠziĠ": 6523,
      "ĠtaĠjiĠ": 6524,
      "ĠSĠ": 6525,
      "guoĠjiaĠduiĠ": 6526,
      "ĠRo": 6527,
      "ĠĠĠqiĠhouĠ": 6528,
      "Ġbao": 6529,
      "leiĠweiĠ": 6530,
      "ĠbingĠbuĠ": 6531,
      "ĠshiĠyongĠleĠ": 6532,
      "haiĠbaĠgaoĠduĠweiĠ": 6533,
      "jiangĠbeiĠ": 6534,
      "gaoĠxiaoĠ": 6535,
      "jiaoĠyuĠbuĠ": 6536,
      "ĠcunĠ": 6537,
      "beiĠheĠ": 6538,
      "xingĠzheng": 6539,
      "chengĠzhangĠ": 6540,
      "fenĠjieĠ": 6541,
      "Ġpi": 6542,
      "jinĠzaiĠ": 6543,
      "bingĠzaiĠ": 6544,
      "waiĠxingĠ": 6545,
      "shunĠshiĠ": 6546,
      "ĠyiĠqianĠ": 6547,
      "quanĠshuĠ": 6548,
      "maĠlaiĠ": 6549,
      "ĠdanĠqiĠ": 6550,
      "ĠdangĠshiĠdeĠ": 6551,
      "ĠrenĠminĠbiĠ": 6552,
      "wangĠzhiĠ": 6553,
      "tuanĠjieĠ": 6554,
      "gongĠjiaoĠ": 6555,
      "wuĠzhongĠdeĠ": 6556,
      "ĠdiĠliuĠ": 6557,
      "ĠsiĠtaĠ": 6558,
      "xunĠhuanĠ": 6559,
      "xunĠzhaoĠ": 6560,
      "ĠfouĠ": 6561,
      "ĠtouĠguoĠ": 6562,
      "ĠĠĠdi": 6563,
      "ciĠzhongĠ": 6564,
      "songĠdaoĠ": 6565,
      "shuĠmuĠ": 6566,
      "jingĠsaiĠ": 6567,
      "zhanĠchangĠ": 6568,
      "ĠgongĠkaiĠ": 6569,
      "ĠxinĠzengĠ": 6570,
      "qiaoĠliangĠ": 6571,
      "ĠĠĠluoĠ": 6572,
      "ĠĠĠpingĠjiaĠ": 6573,
      "juĠweiĠ": 6574,
      "ruĠyuĠ": 6575,
      "ĠyueĠheĠ": 6576,
      "tiĠchuĠleĠ": 6577,
      "ĠdeĠjiĠhuiĠ": 6578,
      "ĠIS": 6579,
      "xinĠzhongĠ": 6580,
      "ĠyiĠchanĠ": 6581,
      "chengĠhuĠ": 6582,
      "ĠdiĠdianĠ": 6583,
      "zuiĠzaoĠdeĠ": 6584,
      "ĠĠĠRe": 6585,
      "yingĠxiangĠliĠ": 6586,
      "ĠpaĠ": 6587,
      "puĠliĠ": 6588,
      "ĠyiĠdaĠ": 6589,
      "ĠnianĠnianĠ": 6590,
      "duĠduĠ": 6591,
      "yangĠxianĠ": 6592,
      "ĠdeĠyiĠmeiĠ": 6593,
      "ĠdaoĠyanĠ": 6594,
      "ĠshiĠyiĠdaĠliĠ": 6595,
      "LE": 6596,
      "geĠzaiĠ": 6597,
      "fenĠjiĠ": 6598,
      "huoĠyunĠ": 6599,
      "cengĠshuiĠyuĠ": 6600,
      "Ġwa": 6601,
      "ĠĠĠchuĠleĠ": 6602,
      "junĠtuanĠ": 6603,
      "wangĠshangĠ": 6604,
      "Ġ15Ġ": 6605,
      "xiaĠyiĠxiaĠdiĠquĠ": 6606,
      "guoĠshiĠqiĠ": 6607,
      "duoĠfuĠ": 6608,
      "guoĠchengĠ": 6609,
      "ĠdaĠlouĠ": 6610,
      "jianĠzhuĠwuĠ": 6611,
      "ĠĠĠ15": 6612,
      "ĠĠĠfaĠ": 6613,
      "zhengĠqiĠ": 6614,
      "qingĠyiĠ": 6615,
      "leiĠshiĠ": 6616,
      "jiaĠmengĠ": 6617,
      "zhuanĠdeĠxiaoĠxingĠxingĠ": 6618,
      "faĠweiĠ": 6619,
      "mingĠjuĠrenĠ": 6620,
      "guoĠjiĠjiĠchangĠ": 6621,
      "ssĠĠĠ": 6622,
      "Ġyong": 6623,
      "ĠnongĠ": 6624,
      "ĠĠĠjiangĠ": 6625,
      "huaĠerĠ": 6626,
      "muĠheĠ": 6627,
      "huangĠshiĠ": 6628,
      "guoĠwuĠyuanĠ": 6629,
      "lingĠdaoĠdeĠ": 6630,
      "gangĠyuanĠ": 6631,
      "ĠIn": 6632,
      "ĠĠĠ5ĠyueĠ": 6633,
      "keĠrenĠ": 6634,
      "juĠdaĠdeĠ": 6635,
      "baoĠchi": 6636,
      "wenĠhuaĠdeĠ": 6637,
      "baĠlaĠ": 6638,
      "neiĠzhanĠ": 6639,
      "ĠdeĠshiĠwuĠ": 6640,
      "ĠĠĠ2004ĠnianĠ": 6641,
      "Ġ1983ĠnianĠ": 6642,
      "zheĠjiangĠshengĠ": 6643,
      "nangĠ": 6644,
      "ĠĠĠ3Ġ": 6645,
      "shouĠheĠ": 6646,
      "wangĠsiĠ": 6647,
      "jiuĠrenĠ": 6648,
      "zuĠxieĠ": 6649,
      "lianĠtongĠ": 6650,
      "guangĠfan": 6651,
      "shanĠdongĠshengĠ": 6652,
      "mp": 6653,
      "biĠshiĠ": 6654,
      "baoĠxianĠ": 6655,
      "tiĠjiaoĠ": 6656,
      "ĠyuĠ2017ĠnianĠ": 6657,
      "ĠchengĠliĠyuĠ": 6658,
      "yinĠerĠ": 6659,
      "xiaoĠyouĠ": 6660,
      "gaoĠdiĠ": 6661,
      "buĠkeĠ": 6662,
      "shangĠdianĠ": 6663,
      "gongĠchanĠdang": 6664,
      "Ġ28": 6665,
      "jiangĠzhongĠ": 6666,
      "ruĠzhiĠ": 6667,
      "mingĠjinĠshiĠ": 6668,
      "pingĠminĠ": 6669,
      "huoĠwuĠ": 6670,
      "ĠfuĠqin": 6671,
      "ĠdanĠweiĠ": 6672,
      "7ĠyueĠ1ĠriĠ": 6673,
      "AO": 6674,
      "ĠkeĠshiĠ": 6675,
      "yaĠzhiĠ": 6676,
      "ĠjiĠxingĠ": 6677,
      "faĠzhanĠdeĠ": 6678,
      "wanĠquan": 6679,
      "xunĠqiuĠ": 6680,
      "tuiĠchuĠdeĠ": 6681,
      "Ġ1989ĠnianĠ": 6682,
      "97": 6683,
      "shengĠbuĠ": 6684,
      "guĠfenĠ": 6685,
      "Ġmin": 6686,
      "zhengĠyueĠ": 6687,
      "zhanĠyuĠ": 6688,
      "laĠerĠ": 6689,
      "sheĠyingĠ": 6690,
      "siĠyouĠ": 6691,
      "ĠzaiĠ196": 6692,
      "daĠguiĠmoĠ": 6693,
      "fuĠzhouĠ": 6694,
      "jiaoĠfuĠ": 6695,
      "sanĠciĠ": 6696,
      "ĠsuiĠshiĠ": 6697,
      "pingĠjunĠhaiĠbaĠgaoĠduĠweiĠ": 6698,
      "huaĠshengĠdunĠ": 6699,
      "ĠsanĠshiĠ": 6700,
      "ĠchuĠrenĠ": 6701,
      "suĠshiĠ": 6702,
      "songĠdeĠ": 6703,
      "zaoĠshouĠ": 6704,
      "shaoĠjiangĠ": 6705,
      "yeĠzhiĠ": 6706,
      "ĠshiĠjiĠdeĠ": 6707,
      "ganĠsuĠ": 6708,
      "YouTub": 6709,
      "ĠziĠjiĠ": 6710,
      "yinĠzhongĠzaiĠ": 6711,
      "taiĠerĠ": 6712,
      "yangĠzhiĠ": 6713,
      "lanĠyuĠ": 6714,
      "ĠliĠfuĠ": 6715,
      "gongĠdaĠ": 6716,
      "jianĠkang": 6717,
      "qingĠxiangĠ": 6718,
      "banĠciĠ": 6719,
      "ĠyuĠ2013ĠnianĠ": 6720,
      "ĠerĠgaiĠdiĠdeĠpingĠjunĠhaiĠbaĠgaoĠduĠweiĠ": 6721,
      "jiangĠtaĠ": 6722,
      "laiĠziĠyuĠ": 6723,
      "vĠ": 6724,
      "ĠzuiĠjiaĠ": 6725,
      "anĠzhongĠ": 6726,
      "jiĠĠĠ": 6727,
      "yinĠzhiĠ": 6728,
      "maĠliĠyaĠ": 6729,
      "ĠshiĠfaĠ": 6730,
      "naĠruĠ": 6731,
      "liĠlunĠ": 6732,
      "Ġ1984ĠnianĠ": 6733,
      "2010ĠnianĠmeiĠguoĠrenĠkouĠpuĠchaĠdeĠshuĠjuĠ": 6734,
      "ĠhanĠzuĠ": 6735,
      "shuoĠshiĠxueĠweiĠ": 6736,
      "yinĠzhongĠzaiĠpeiĠ": 6737,
      "ĠouĠzhouĠ": 6738,
      "wangĠyuĠ": 6739,
      "luoĠzaiĠ": 6740,
      "qieĠerĠ": 6741,
      "xianĠzhangĠ": 6742,
      "shouĠhaiĠ": 6743,
      "yingĠdiĠ": 6744,
      "ĠyiĠheĠ": 6745,
      "ĠyiĠerĠ": 6746,
      "fuĠze": 6747,
      "Ġchao": 6748,
      "ĠĠĠyueĠ": 6749,
      "xiangĠzhiĠ": 6750,
      "shuoĠdeĠ": 6751,
      "ĠdaĠxiĠyangĠ": 6752,
      "dianĠyingĠdeĠ": 6753,
      "ĠjiangĠqiĠ": 6754,
      "51Ġ": 6755,
      "ĠanĠdeĠ": 6756,
      "pingĠfangĠmiĠ": 6757,
      "fouĠrenĠ": 6758,
      "renĠgongĠyinĠzhongĠzaiĠpeiĠ": 6759,
      "ssĠ": 6760,
      "yiĠshiĠyongĠ": 6761,
      "ĠxiĠhuanĠ": 6762,
      "yingĠduiĠ": 6763,
      "guiĠzhouĠ": 6764,
      "ĠjieĠshuĠ": 6765,
      "diĠyiĠrenĠ": 6766,
      "yanĠjiuĠshengĠ": 6767,
      "ĠyiĠwaiĠ": 6768,
      "juĠtiĠ": 6769,
      "caiĠchanĠ": 6770,
      "3ĠhaoĠ": 6771,
      "xiangĠshiĠdiĠ": 6772,
      "ĠkangĠxiĠ": 6773,
      "Ġhuai": 6774,
      "yuĠĠĠ": 6775,
      "ĠyiĠxiangĠ": 6776,
      "ĠzaiĠgaiĠ": 6777,
      "changĠbeiĠ": 6778,
      "fenĠquĠ": 6779,
      "duanĠzan": 6780,
      "ĠyuĠciĠtongĠshiĠ": 6781,
      "kmĠ": 6782,
      "rengĠyouĠ": 6783,
      "yuanĠben": 6784,
      "jiaoĠzuoĠ": 6785,
      "panĠjueĠ": 6786,
      "ĠnĠ": 6787,
      "xuĠshuĠ": 6788,
      "canĠguanĠ": 6789,
      "yaĠshiĠ": 6790,
      "pingĠshiĠ": 6791,
      "haoĠyuĠ": 6792,
      "fuĠgaiĠ": 6793,
      "zhuĠruĠ": 6794,
      "teĠlangĠ": 6795,
      "aĠjiĠ": 6796,
      "ĠĠĠtaiĠwanĠ": 6797,
      "longĠshiĠ": 6798,
      "buĠluoĠ": 6799,
      "mingĠqueĠ": 6800,
      "hongĠjunĠ": 6801,
      "mĠĠĠ": 6802,
      "zhanĠheĠ": 6803,
      "ĠheĠpanĠ": 6804,
      "8ĠmiĠ": 6805,
      "ĠquanĠzhangĠ": 6806,
      "chanĠshengĠleĠ": 6807,
      "zhenĠrenĠ": 6808,
      "rangĠtaĠ": 6809,
      "zhiĠchiĠ": 6810,
      "dianĠziĠyouĠ": 6811,
      "Ġmu": 6812,
      "shengĠmuĠ": 6813,
      "ĠzheĠciĠ": 6814,
      "ĠshengĠzhangĠyuĠ": 6815,
      "7ĠmiĠ": 6816,
      "sonĠ": 6817,
      "Ġshen": 6818,
      "Ġcu": 6819,
      "xiaĠzhiĠ": 6820,
      "douĠzhengĠ": 6821,
      "1ĠnianĠzhiĠ": 6822,
      "ad": 6823,
      "aiĠguoĠ": 6824,
      "zhenĠheĠ": 6825,
      "jieĠduĠshiĠ": 6826,
      "dongĠcheĠ": 6827,
      "tanĠdingĠ": 6828,
      "ĠqianĠwangĠ": 6829,
      "ciĠyouĠ": 6830,
      "1997ĠnianĠ": 6831,
      "shuĠqiĠ": 6832,
      "nveĠ": 6833,
      "chuĠxianĠleĠ": 6834,
      "85": 6835,
      "ĠĠĠ10ĠyueĠ": 6836,
      "daĠzaiĠ": 6837,
      "zhengĠliĠ": 6838,
      "zhuangĠbingĠduĠ": 6839,
      "zhuĠzhai": 6840,
      "baoĠzhengĠ": 6841,
      "Ġ000ĠrenĠ": 6842,
      "Ġãĥ¼": 6843,
      "est": 6844,
      "leĠweiĠ": 6845,
      "ĠyuĠyouĠ": 6846,
      "yuanĠquĠ": 6847,
      "chengĠhaoĠ": 6848,
      "chuĠruĠkouĠ": 6849,
      "yanĠhuaĠ": 6850,
      "yinĠjingĠ": 6851,
      "jiaoĠkeĠ": 6852,
      "fenĠlanĠ": 6853,
      "âĪ": 6854,
      "ĠĠĠshenĠ": 6855,
      "kuĠdeĠ": 6856,
      "qiangĠjiĠ": 6857,
      "siĠtanĠ": 6858,
      "jianĠshe": 6859,
      "duiĠhuaĠ": 6860,
      "ĠjiaĠjingĠ": 6861,
      "anĠzhuang": 6862,
      "ĠgongĠbuĠ": 6863,
      "ĠĠĠRo": 6864,
      "shangĠzhiĠ": 6865,
      "xianĠdai": 6866,
      "dongĠniĠ": 6867,
      "ĠbeiĠkeĠ": 6868,
      "ĠxianĠdaiĠ": 6869,
      "mingĠyouĠ": 6870,
      "ĠfuĠleiĠ": 6871,
      "ĠxueĠshengĠ": 6872,
      "ĠkeĠliĠ": 6873,
      "feiĠyiĠ": 6874,
      "jianĠzao": 6875,
      "jianĠguoĠ": 6876,
      "ĠjuĠqingĠ": 6877,
      "ul": 6878,
      "chuĠnianĠ": 6879,
      "baĠyueĠ": 6880,
      "ĠyouĠyouĠ": 6881,
      "fuĠsheĠ": 6882,
      "zhuĠdiĠ": 6883,
      "juĠbeiĠ": 6884,
      "duiĠyuanĠ": 6885,
      "aiĠqingĠ": 6886,
      "zhuangĠkuang": 6887,
      "ĠbaoĠdaoĠ": 6888,
      "gongĠheĠdangĠ": 6889,
      "ĠgaiĠweiĠ": 6890,
      "shengĠchanĠdeĠ": 6891,
      "ĠdiaoĠ": 6892,
      "zhangĠzaiĠ": 6893,
      "zongĠtong": 6894,
      "ciĠzhiĠwaiĠ": 6895,
      "son": 6896,
      "zhuĠguoĠ": 6897,
      "mianĠyuĠ": 6898,
      "ĠheĠyueĠ": 6899,
      "chongĠqingĠ": 6900,
      "ĠsuĠlianĠ": 6901,
      "ĠkeĠnengĠshiĠ": 6902,
      "ig": 6903,
      "shengĠzhongĠ": 6904,
      "moĠqiĠ": 6905,
      "daoĠshangĠ": 6906,
      "fenĠxiaoĠ": 6907,
      "xiaĠfangĠ": 6908,
      "kaiĠfaĠdeĠ": 6909,
      "4ĠmiĠ": 6910,
      "aiĠdeĠhuaĠ": 6911,
      "sti": 6912,
      "chaoĠtingĠ": 6913,
      "ĠshiĠzhongĠhuaĠrenĠminĠgongĠheĠguoĠ": 6914,
      "zengĠjiaĠleĠ": 6915,
      "renĠminĠdaiĠbiaoĠdaĠhuiĠ": 6916,
      "ĠĠĠsuiĠranĠ": 6917,
      "89": 6918,
      "ĠĠĠlingĠwaiĠ": 6919,
      "daĠbuĠ": 6920,
      "teĠshiĠ": 6921,
      "ĠguoĠjiaĠduiĠ": 6922,
      "Ġcui": 6923,
      "chuanĠdiĠ": 6924,
      "kangĠxiĠ": 6925,
      "ĠjuĠminĠ": 6926,
      "ĠnaĠme": 6927,
      "Ġke": 6928,
      "wangĠyouĠ": 6929,
      "zeĠyiĠ": 6930,
      "binĠshiĠ": 6931,
      "ĠyinĠfaĠ": 6932,
      "Ġmao": 6933,
      "yueĠweiĠ": 6934,
      "zhengĠyuĠ": 6935,
      "duĠyiĠ": 6936,
      "kanĠdeĠ": 6937,
      "dongĠgongĠ": 6938,
      "luoĠboĠteĠ": 6939,
      "12ĠyueĠ31ĠriĠ": 6940,
      "65Ġ": 6941,
      "ĠgongĠjiĠ": 6942,
      "niang": 6943,
      "hangĠxianĠ": 6944,
      "26Ġ": 6945,
      "ĠnianĠliĠ": 6946,
      "shangĠjiaĠ": 6947,
      "hanĠmoĠdeĠ": 6948,
      "Ġ1958ĠnianĠ": 6949,
      "ziĠliao": 6950,
      "mingĠluĠ": 6951,
      "ĠyuĠ196": 6952,
      "ĠyouĠtaiĠ": 6953,
      "ĠheĠqiĠ": 6954,
      "ĠbuĠneng": 6955,
      "jiaoĠdaoĠ": 6956,
      "qingĠshaoĠnianĠ": 6957,
      "ear": 6958,
      "ĠdianĠshiĠ": 6959,
      "ĠĠĠxiangĠgangĠ": 6960,
      "ĠshiĠyueĠ": 6961,
      "ĠyuĠqiĠtaĠ": 6962,
      "youĠguanĠ": 6963,
      "benĠxianĠ": 6964,
      "1ĠnianĠdeĠ": 6965,
      "ĠlangĠ": 6966,
      "hanĠyiĠ": 6967,
      "jieĠguanĠ": 6968,
      "Ġ184": 6969,
      "canĠmouĠzhangĠ": 6970,
      "âĦ": 6971,
      "Ġding": 6972,
      "Ġshun": 6973,
      "ĠĠĠ1": 6974,
      "xunĠfuĠ": 6975,
      "zhuĠliuĠ": 6976,
      "shangĠsuĠ": 6977,
      "qianĠruĠ": 6978,
      "qingĠxuĠ": 6979,
      "caiĠliao": 6980,
      "shuiĠkuĠ": 6981,
      "Ġ1946ĠnianĠ": 6982,
      "âĨĴ": 6983,
      "ĠchanĠ": 6984,
      "yeĠzhongĠ": 6985,
      "huanĠxiangĠ": 6986,
      "huiĠxiangĠ": 6987,
      "xueĠyuanĠdeĠ": 6988,
      "ĠlingĠyiĠfangĠmianĠ": 6989,
      "baiĠnianĠ": 6990,
      "mianĠlinĠ": 6991,
      "kongĠdeĠ": 6992,
      "180": 6993,
      "shangĠleĠ": 6994,
      "anĠzhaoĠ": 6995,
      "huaĠrenĠminĠgongĠheĠ": 6996,
      "ĠaĠlaĠ": 6997,
      "nvĠzhuĠjueĠ": 6998,
      "ff": 6999,
      "zenĠ": 7000,
      "ĠĠĠzhanĠ": 7001,
      "yinĠjiĠ": 7002,
      "jiaoĠheĠ": 7003,
      "naĠsiĠ": 7004,
      "weiĠyuĠ": 7005,
      "ĠerĠhouĠ": 7006,
      "shangĠpinĠ": 7007,
      "yingĠjunĠ": 7008,
      "liangĠceĠ": 7009,
      "meiĠzhou": 7010,
      "longĠshengĠ": 7011,
      "ĠshengĠzhangĠyuĠhaiĠbaĠ": 7012,
      "zhuiĠsuĠ": 7013,
      "changĠwu": 7014,
      "gouĠmai": 7015,
      "Ġ1986ĠnianĠ": 7016,
      "Ġluo": 7017,
      "paiĠdeĠzhuĠ": 7018,
      "pinĠzhiĠ": 7019,
      "ĠliĠxinĠ": 7020,
      "jinĠqiuĠ": 7021,
      "qingĠdaoĠ": 7022,
      "waiĠguanĠ": 7023,
      "ĠxinĠjiaĠ": 7024,
      "zhanĠzhengĠzhongĠ": 7025,
      "Li": 7026,
      "ĠĠĠshouĠ": 7027,
      "yeĠerĠ": 7028,
      "duĠdaĠ": 7029,
      "benĠkeĠ": 7030,
      "louĠdeĠ": 7031,
      "xiangĠguan": 7032,
      "duiĠzhenĠ": 7033,
      "huĠpoĠ": 7034,
      "ĠbiĠyeĠyuĠ": 7035,
      "93": 7036,
      "ĠquĠdeĠ": 7037,
      "zhongĠdeĠyiĠ": 7038,
      "daiĠzhiĠ": 7039,
      "fuĠyinĠ": 7040,
      "shengĠfuĠ": 7041,
      "ĠqiĠchuĠ": 7042,
      "dongĠyuanĠ": 7043,
      "haiĠeĠ": 7044,
      "nvĠhaiĠ": 7045,
      "rongĠnaĠ": 7046,
      "Ġtun": 7047,
      "ill": 7048,
      "xiangĠzhongĠ": 7049,
      "fenĠlieĠ": 7050,
      "moĠluoĠ": 7051,
      "1988ĠnianĠ": 7052,
      "ĠyiĠriĠ": 7053,
      "ĠjianĠsheĠ": 7054,
      "ĠbiĠyeĠ": 7055,
      "Ġju": 7056,
      "guoĠquĠ": 7057,
      "daĠqiĠ": 7058,
      "leĠgaiĠ": 7059,
      "huĠdongĠ": 7060,
      "ĠfaĠzhanĠ": 7061,
      "xingĠzhengĠzhenĠquĠ": 7062,
      "quanĠweiĠ": 7063,
      "boĠkeĠ": 7064,
      "27Ġ": 7065,
      "gongĠshangĠ": 7066,
      "tiĠyanĠ": 7067,
      "ĠliĠshiĠdeĠ": 7068,
      "shengĠjingĠ": 7069,
      "eĠluoĠsiĠdeĠ": 7070,
      "nĠĠĠ": 7071,
      "suanĠfaĠ": 7072,
      "ĠnianĠlingĠ": 7073,
      "ĠbuĠdaĠ": 7074,
      "tianĠtangĠ": 7075,
      "shaiĠ": 7076,
      "yeĠweiĠ": 7077,
      "zuĠziĠzhiĠ": 7078,
      "ĠshiĠyongĠzheĠ": 7079,
      "ĠĠĠtaiĠ": 7080,
      "1991ĠnianĠ": 7081,
      "kanĠfaĠ": 7082,
      "ĠzaiĠrenĠ": 7083,
      "dianĠnao": 7084,
      "zhouĠzhangĠ": 7085,
      "ĠtianĠjinĠ": 7086,
      "xianĠdeĠyiĠgeĠxingĠzhengĠzhenĠquĠ": 7087,
      "ĠgenĠju": 7088,
      "ĠĠĠzongĠ": 7089,
      "qingĠxiĠ": 7090,
      "cengĠrenĠ": 7091,
      "ĠqiĠyouĠ": 7092,
      "ven": 7093,
      "houĠbuĠjiuĠ": 7094,
      "yongĠzhiĠ": 7095,
      "suiĠzhiĠ": 7096,
      "xunĠdeĠ": 7097,
      "âĢ§": 7098,
      "ĠshiĠjingĠ": 7099,
      "fuĠzhuĠrenĠ": 7100,
      "huiĠhuaĠ": 7101,
      "zhengĠduoĠ": 7102,
      "niĠyaĠdeĠ": 7103,
      "ganĠjueĠ": 7104,
      "peiĠyangĠ": 7105,
      "ĠmaĠlaiĠxiĠyaĠ": 7106,
      "our": 7107,
      "erĠyouĠ": 7108,
      "gongĠgaoĠ": 7109,
      "chengĠxiangĠ": 7110,
      "shenĠchaĠ": 7111,
      "ĠyuĠ2022ĠnianĠ": 7112,
      "guiĠmoĠdeĠ": 7113,
      "tuanĠzhangĠ": 7114,
      "meiĠriĠ": 7115,
      "zhuĠdongĠ": 7116,
      "tianĠhuangĠ": 7117,
      "taiĠwanĠdeĠ": 7118,
      "IP": 7119,
      "mingĠheĠ": 7120,
      "dongĠyiĠ": 7121,
      "huoĠyueĠ": 7122,
      "1994ĠnianĠ": 7123,
      "tongĠwangĠ": 7124,
      "huoĠdongĠdeĠ": 7125,
      "IT": 7126,
      "faĠliĠyaĠ": 7127,
      "duiĠliĠ": 7128,
      "zhenĠdiĠ": 7129,
      "shouĠlingĠ": 7130,
      "yanĠwuĠ": 7131,
      "duĠjiaĠ": 7132,
      "suĠdanĠ": 7133,
      "ĠzhuĠjianĠ": 7134,
      "ĠyouĠjiĠ": 7135,
      "ĠqiĠzhongĠnanĠ": 7136,
      ".&": 7137,
      "5ĠĠĠ": 7138,
      "fangĠheĠ": 7139,
      "zuoĠzhongĠ": 7140,
      "miaoĠdeĠ": 7141,
      "jianĠdaoĠ": 7142,
      "sheĠhui": 7143,
      "ĠdeĠrenĠwuĠ": 7144,
      "ĠchengĠshiĠ": 7145,
      "Ġ20Ġ": 7146,
      "tongĠzhongĠ": 7147,
      "houĠrenĠ": 7148,
      "xiaĠerĠ": 7149,
      "shengĠxiaĠ": 7150,
      "ĠshiĠyiĠjiĠ": 7151,
      "ĠguanĠfangĠ": 7152,
      "ĠrenĠzhongĠgongĠ": 7153,
      "meiĠmeiĠ": 7154,
      "shenĠwangĠ": 7155,
      "tor": 7156,
      "ĠĠĠY": 7157,
      "miĠshiĠ": 7158,
      "qianĠzaiĠ": 7159,
      "ĠbuĠlaiĠ": 7160,
      "ĠbuĠzuĠ": 7161,
      "zhenĠyaĠ": 7162,
      "quanĠqiu": 7163,
      "tiĠyuĠguanĠ": 7164,
      "yiĠshiĠjianĠ": 7165,
      "jianĠliĠdeĠ": 7166,
      "ĠqiĠyongĠ": 7167,
      "tuĠranĠ": 7168,
      "9ĠmiĠ": 7169,
      "ok": 7170,
      "Ġchun": 7171,
      "ĠĠĠluĠ": 7172,
      "zheĠyuĠ": 7173,
      "xiaĠyuĠ": 7174,
      "naĠerĠ": 7175,
      "haiĠjun": 7176,
      "mianĠjiĠheĠ": 7177,
      "ĠxiĠbanĠyaĠyuĠ": 7178,
      "ĠĠĠyongĠ": 7179,
      "daĠduoĠshuĠ": 7180,
      "shenĠshangĠ": 7181,
      "nvĠyanĠyuanĠ": 7182,
      "Ġ1987ĠnianĠ": 7183,
      "anĠrenĠ": 7184,
      "jieĠweiĠzhiĠ": 7185,
      "chaĠliĠ": 7186,
      "har": 7187,
      "kaiĠmuĠ": 7188,
      "Ġ1948ĠnianĠ": 7189,
      "ĠguoĠminĠdangĠ": 7190,
      "xiaĠxiaĠdeĠyiĠgeĠxiangĠ": 7191,
      "ĠsheĠliĠ": 7192,
      "faĠzhongĠ": 7193,
      "fenĠshiĠ": 7194,
      "nanĠfeiĠ": 7195,
      "guĠdongĠ": 7196,
      "ĠdeĠyiĠsiĠ": 7197,
      "chongĠmanĠ": 7198,
      "canĠyuĠleĠ": 7199,
      "Ġ1982ĠnianĠ": 7200,
      "mouĠshaĠ": 7201,
      "Ġguang": 7202,
      "ĠĠĠfeiĠ": 7203,
      "shuĠyouĠ": 7204,
      "luĠzaiĠ": 7205,
      "panĠchuĠ": 7206,
      "ĠĠĠ2003ĠnianĠ": 7207,
      "ĠyuĠ2011ĠnianĠ": 7208,
      "63": 7209,
      "61Ġ": 7210,
      "64Ġ": 7211,
      "laĠyuĠ": 7212,
      "reĠĠĠ": 7213,
      "chuĠbanĠdeĠ": 7214,
      "leĠliangĠ": 7215,
      "laĠteĠ": 7216,
      "ĠmuĠqianĠshangĠweiĠyouĠ": 7217,
      "ĠĠĠtongĠ": 7218,
      "ĠĠĠgaoĠ": 7219,
      "yuanĠrenĠ": 7220,
      "laĠliĠ": 7221,
      "suĠdaĠ": 7222,
      "heĠpingĠ": 7223,
      "ĠyouĠxingĠ": 7224,
      "ĠzaiĠnaĠliĠ": 7225,
      "jiaoĠzongĠ": 7226,
      "ĠshiĠzhongĠxinĠ": 7227,
      "xiangĠgangĠdeĠ": 7228,
      "chuangĠshiĠrenĠ": 7229,
      "xiĠsiĠ": 7230,
      "shengĠgeĠweiĠ": 7231,
      "chanĠdeĠ": 7232,
      "mingĠciĠ": 7233,
      "biĠya": 7234,
      "caiĠwuĠ": 7235,
      "hanĠlinĠ": 7236,
      "ĠzuiĠdaĠ": 7237,
      "ĠweiĠyaĠ": 7238,
      "tiĠgongĠdeĠ": 7239,
      "danĠyuanĠ": 7240,
      "diĠyiĠbuĠ": 7241,
      "Ġ1978ĠnianĠ": 7242,
      "ĠĠĠ6Ġ": 7243,
      "quĠzaiĠ": 7244,
      "war": 7245,
      "fuĠluoĠliĠdaĠ": 7246,
      "anĠpai": 7247,
      "ĠdongĠjingĠ": 7248,
      "ĠmuĠqianĠshangĠweiĠyouĠrenĠgongĠyinĠzhongĠzaiĠpeiĠ": 7249,
      "IIĠ": 7250,
      "ay": 7251,
      "nenĠ": 7252,
      "ĠguĠshiĠ": 7253,
      "meiĠyiĠ": 7254,
      "zhangĠliĠ": 7255,
      "shenĠjiĠ": 7256,
      "guĠwuĠ": 7257,
      "lianĠmengĠdeĠ": 7258,
      "BCĠ": 7259,
      "jiong": 7260,
      "ĠĠĠshangĠ": 7261,
      "diceĠ": 7262,
      "xiĠzangĠ": 7263,
      "ĠdaĠchenĠ": 7264,
      "bianĠhaoĠweiĠ": 7265,
      "chuangĠxinĠ": 7266,
      "ĠhuĠnanĠ": 7267,
      "1995ĠnianĠ": 7268,
      "buĠmanĠ": 7269,
      "shouĠhuiĠ": 7270,
      "huanĠjieĠ": 7271,
      "ĠĠĠCom": 7272,
      "01Ġ": 7273,
      "ĠzhiĠzhengĠ": 7274,
      "keĠxue": 7275,
      "zhuĠdaĠ": 7276,
      "daoĠqianĠ": 7277,
      "juĠchangĠ": 7278,
      "ĠhaoĠmiĠ": 7279,
      "Ġlei": 7280,
      "duoĠbuĠ": 7281,
      "chouĠbeiĠ": 7282,
      "ĠshiĠbaĠ": 7283,
      "wuĠliĠxueĠ": 7284,
      "ĠĠĠ4ĠyueĠ": 7285,
      "zhouĠfuĠzeĠguanĠxiaĠ": 7286,
      "ĠqiĠqiĠ": 7287,
      "ruĠjingĠ": 7288,
      "cheĠdaoĠ": 7289,
      "zaoĠqiĠdeĠ": 7290,
      "ĠqingĠchaoĠ": 7291,
      "3000": 7292,
      "ab": 7293,
      "heĠyiĠgeĠ": 7294,
      "erĠĠĠ": 7295,
      "haoĠjiĠ": 7296,
      "tuiĠxingĠ": 7297,
      "xinĠzengĠ": 7298,
      "wangĠchao": 7299,
      "laĠgeĠ": 7300,
      "ĠgaiĠdiĠdeĠ": 7301,
      "62Ġ": 7302,
      "Ġlai": 7303,
      "zuĠyuĠ": 7304,
      "hanĠshiĠ": 7305,
      "ĠzheĠyeĠshiĠ": 7306,
      "ĠdanĠyiĠ": 7307,
      "zhuĠyaoĠshiĠ": 7308,
      "8ĠgeĠ": 7309,
      "ĠĠĠboĠ": 7310,
      "taiĠdaĠ": 7311,
      "xunĠshiĠ": 7312,
      "ĠxiĠjinĠ": 7313,
      "fangĠchengĠ": 7314,
      "tianĠran": 7315,
      "saiĠbaiĠ": 7316,
      "mianĠshangĠ": 7317,
      "ĠziĠliaoĠ": 7318,
      "3ĠmingĠ": 7319,
      "ĠreĠ": 7320,
      "haĠdeĠ": 7321,
      "xiangĠbeiĠ": 7322,
      "houĠlai": 7323,
      "yinĠziĠ": 7324,
      "zongĠduiĠ": 7325,
      "neiĠmengĠguĠ": 7326,
      "ĠdongĠwuĠ": 7327,
      "shouĠdaoĠleĠ": 7328,
      "ĠhaĠerĠ": 7329,
      "DV": 7330,
      "xiangĠzaiĠ": 7331,
      "zengĠzhiĠ": 7332,
      "faĠbiao": 7333,
      "ĠerĠzheĠ": 7334,
      "xieĠtiao": 7335,
      "ĠgongĠjinĠ": 7336,
      "ĠkeĠnengĠhuiĠ": 7337,
      "ĠĠĠgeĠrenĠshengĠhuoĠ": 7338,
      "Ġsai": 7339,
      "jinĠzhongĠ": 7340,
      "jiangĠheĠ": 7341,
      "ĠrenĠmin": 7342,
      "yongĠjiuĠ": 7343,
      "yaĠzhou": 7344,
      "ĠdanĠyeĠ": 7345,
      "peiĠxunĠ": 7346,
      "ĠzheĠbuĠ": 7347,
      "2ĠnianĠzhiĠ": 7348,
      "Ġxie": 7349,
      "Ġning": 7350,
      "buĠweiĠyuĠ": 7351,
      "lunĠsiĠ": 7352,
      "shengĠxiaoĠ": 7353,
      "jingĠjiĠxueĠ": 7354,
      "jiaoĠyuĠjiĠ": 7355,
      "ĠyingĠchiĠ": 7356,
      "300Ġ": 7357,
      "ĠpoĠ": 7358,
      "Ġ1ĠyueĠ": 7359,
      "tuoĠfuĠ": 7360,
      "daĠxueĠdeĠ": 7361,
      "zhuĠlongĠ": 7362,
      "baoĠanĠ": 7363,
      "xinĠshengĠ": 7364,
      "ĠmeiĠyuanĠ": 7365,
      "Ġà¸": 7366,
      "âĦĥ": 7367,
      "ĠkeĠliĠsiĠ": 7368,
      "ĠĠĠriĠ": 7369,
      "niuĠsiĠ": 7370,
      "neĠshengĠ": 7371,
      "ĠshiĠguĠ": 7372,
      "ĠshiĠxiangĠgangĠ": 7373,
      "ĠzhiĠyaoĠ": 7374,
      "xiangĠlianĠ": 7375,
      "ĠĠĠMe": 7376,
      "ĠkaĠerĠ": 7377,
      "ciĠhuiĠ": 7378,
      "ĠbaĠliĠ": 7379,
      "ĠJR": 7380,
      "daoĠliĠ": 7381,
      "zhanĠzaiĠ": 7382,
      "yanĠliĠ": 7383,
      "ĠliĠnianĠ": 7384,
      "ciĠkeĠ": 7385,
      "dianĠchiĠ": 7386,
      "gaiĠmingĠ": 7387,
      "tingĠyunĠ": 7388,
      "ĠbaoĠgaoĠ": 7389,
      "ĠquanĠqiuĠ": 7390,
      "YouTubeĠ": 7391,
      "ĠĠĠpuĠ": 7392,
      "qianĠweiĠ": 7393,
      "ĠyiĠxingĠ": 7394,
      "chengĠdanĠ": 7395,
      "lingĠyuĠdeĠ": 7396,
      "saiĠcheĠ": 7397,
      "ĠbingĠmeiĠyouĠ": 7398,
      "shuiĠshenĠ": 7399,
      "ĠĠĠjinĠguanĠ": 7400,
      "laySta": 7401,
      "55Ġ": 7402,
      "5ĠnianĠzhiĠ": 7403,
      "Ġgui": 7404,
      "wuĠzaiĠ": 7405,
      "laoĠgongĠ": 7406,
      "ĠheĠheĠ": 7407,
      "ĠxiĠyuanĠ": 7408,
      "ĠyuĠ2024ĠnianĠ": 7409,
      "ĠĠĠ7": 7410,
      "liangĠjiaĠ": 7411,
      "nuoĠsiĠ": 7412,
      "liĠyongĠ": 7413,
      "ĠRe": 7414,
      "oog": 7415,
      "kaĠluoĠlaiĠnaĠ": 7416,
      "2ĠnianĠdeĠ": 7417,
      "3ĠnianĠzhiĠ": 7418,
      "theĠĠĠ": 7419,
      "Ġdiao": 7420,
      "qianĠliĠ": 7421,
      "duanĠqiĠ": 7422,
      "ĠzhiĠchi": 7423,
      "fuĠhuaĠ": 7424,
      "zhanĠshengĠ": 7425,
      "zhanĠzhengĠdeĠ": 7426,
      "duiĠtaĠ": 7427,
      "Ġ1920ĠnianĠ": 7428,
      "Ġcan": 7429,
      "zhongĠshiĠjiĠ": 7430,
      "jieĠzaiĠ": 7431,
      "ĠshiĠnanĠjiĠzhouĠdeĠ": 7432,
      "ĠliĠxueĠ": 7433,
      "gongĠzuoĠdeĠ": 7434,
      "fuĠjiaĠ": 7435,
      "luoĠxuanĠ": 7436,
      "Ġ1980ĠnianĠ": 7437,
      "houĠguoĠ": 7438,
      "nanĠrenĠ": 7439,
      "raĠ": 7440,
      "ĠyuĠ2023ĠnianĠ": 7441,
      "Ġdai": 7442,
      "siĠyueĠ": 7443,
      "niĠshiĠ": 7444,
      "ĠyiĠxie": 7445,
      "ĠnianĠqingĠ": 7446,
      "minĠjinĠ": 7447,
      "ĠyuĠ2009ĠnianĠ": 7448,
      "MA": 7449,
      "Ġ22": 7450,
      "waiĠjiĠ": 7451,
      "ĠyiĠchengĠ": 7452,
      "jiaĠzhouĠ": 7453,
      "chongĠzuĠ": 7454,
      "faĠshengĠleĠ": 7455,
      "ohn": 7456,
      "44Ġ": 7457,
      "ĠtiaoĠ": 7458,
      "den": 7459,
      "ĠĠĠ8ĠyueĠ": 7460,
      "diĠliuĠ": 7461,
      "siĠfaĠ": 7462,
      "jinĠxing": 7463,
      "luĠduanĠ": 7464,
      "pingĠhengĠ": 7465,
      "baĠsaiĠ": 7466,
      "lanĠseĠ": 7467,
      "tingĠkaoĠ": 7468,
      "zhanĠzhengĠqiĠjianĠ": 7469,
      "jingĠxiĠ": 7470,
      "panĠdeĠ": 7471,
      "ĠzaiĠtaĠdeĠ": 7472,
      "fenĠchengĠ": 7473,
      "zhouĠbian": 7474,
      "zuiĠduoĠdeĠ": 7475,
      "ĠliĠshiĠxueĠjiaĠ": 7476,
      "ĠĠĠyeĠ": 7477,
      "ĠĠĠquanĠ": 7478,
      "ĠĠĠguĠshiĠ": 7479,
      "ree": 7480,
      "weiĠjiĠ": 7481,
      "ĠyueĠlaiĠyueĠ": 7482,
      "geĠciĠ": 7483,
      "ziĠgongĠsiĠ": 7484,
      "jinĠshanĠ": 7485,
      "quĠdongĠ": 7486,
      "houĠfangĠ": 7487,
      "yanĠxuĠ": 7488,
      "boĠlaĠ": 7489,
      "seĠcaiĠ": 7490,
      "go": 7491,
      "Ġgan": 7492,
      "siĠzhongĠ": 7493,
      "cheĠliĠ": 7494,
      "junĠjianĠ": 7495,
      "ĠfuĠze": 7496,
      "dangĠanĠ": 7497,
      "huiĠyiĠshangĠ": 7498,
      "mianĠjiĠheĠrenĠkouĠ": 7499,
      "Ġbu": 7500,
      "shouĠerĠ": 7501,
      "duĠzhiĠ": 7502,
      "erĠbeiĠ": 7503,
      "jianĠdanĠ": 7504,
      "nianĠdaiĠ": 7505,
      "72Ġ": 7506,
      "ĠbuĠshiĠ": 7507,
      "ĠĠĠlaĠ": 7508,
      "gaiĠzhiĠ": 7509,
      "laĠdiĠ": 7510,
      "dingĠzaiĠ": 7511,
      "chaĠjuĠ": 7512,
      "yanĠshengĠ": 7513,
      "ĠdeĠjiĠshuĠ": 7514,
      "yingĠdeĠleĠ": 7515,
      "jiangĠsuĠshengĠ": 7516,
      "Ġcao": 7517,
      "sheĠliĠdeĠ": 7518,
      "wangĠyiĠ": 7519,
      "jiaĠqiangĠ": 7520,
      "ciĠshuĠ": 7521,
      "dangĠxuanĠweiĠ": 7522,
      "aĠdeĠ": 7523,
      "1900": 7524,
      "peiĠdeĠ": 7525,
      "hangĠxingĠ": 7526,
      "ros": 7527,
      "siĠxingĠ": 7528,
      "quĠneiĠ": 7529,
      "tongĠxueĠ": 7530,
      "ĠdaĠbuĠ": 7531,
      "xuanĠchuan": 7532,
      "tuĠanĠ": 7533,
      "heiĠlongĠjiangĠ": 7534,
      "ĠgaiĠdiĠdeĠmianĠjiĠheĠrenĠkouĠ": 7535,
      "ĠgaiĠdiĠdeĠmianĠjiĠheĠrenĠkouĠjieĠweiĠzhiĠ": 7536,
      "tsĠ": 7537,
      "tyĠ": 7538,
      "ĠĠĠduiĠyuĠ": 7539,
      "ĠĠĠmuĠqianĠ": 7540,
      "luĠweiĠ": 7541,
      "zhongĠxueĠ": 7542,
      "ĠgaiĠcun": 7543,
      "ĠĠĠyouĠxiĠ": 7544,
      "chuiĠzhiĠ": 7545,
      "ES": 7546,
      "xinĠheĠ": 7547,
      "leiĠheĠ": 7548,
      "ceĠqiĠ": 7549,
      "ĠshiĠbuĠ": 7550,
      "ĠliĠqiĠ": 7551,
      "jiangĠzheĠ": 7552,
      "zongĠjingĠliĠ": 7553,
      "ĠyiĠshuĠjiaĠ": 7554,
      "Ġ1938ĠnianĠ": 7555,
      "0ĠrenĠ": 7556,
      "weiĠshiĠjieĠ": 7557,
      "mie": 7558,
      "jiangĠzuiĠjiaĠ": 7559,
      "ĠqianĠlongĠ": 7560,
      "ciĠheĠ": 7561,
      "dingĠzhiĠ": 7562,
      "quĠziĠ": 7563,
      "miĠduĠ": 7564,
      "jiuĠduĠyuĠ": 7565,
      "Ro": 7566,
      "anĠfuĠ": 7567,
      "ĠĠĠSta": 7568,
      "zhengĠxieĠweiĠyuanĠ": 7569,
      "US": 7570,
      "ĠØ": 7571,
      "Ġqiao": 7572,
      "dongĠzhiĠ": 7573,
      "zuoĠyuĠ": 7574,
      "meiĠerĠ": 7575,
      "zhuangĠweiĠ": 7576,
      "ĠshiĠzhangĠ": 7577,
      "jiaĠnaĠ": 7578,
      "tongĠchang": 7579,
      "zongĠshuĠ": 7580,
      "bianĠyuĠ": 7581,
      "ĠdiĠ1Ġ": 7582,
      "gaiĠjinĠ": 7583,
      "kaĠfeiĠ": 7584,
      "nongĠchangĠ": 7585,
      "ĠĠĠyiĠxiaĠ": 7586,
      "Ġ1947ĠnianĠ": 7587,
      "ziĠxingĠcheĠ": 7588,
      "jiaĠliĠfuĠniĠyaĠzhouĠ": 7589,
      "ckĠ": 7590,
      "ĠĠĠjianĠliĠ": 7591,
      "miĠjiĠ": 7592,
      "baĠtaĠ": 7593,
      "ĠzaiĠnanĠ": 7594,
      "ĠdaĠqiaoĠ": 7595,
      "ĠkeĠlaiĠ": 7596,
      "ĠĠĠjianĠzhuĠ": 7597,
      "diĠyiĠjiĠ": 7598,
      "zheĠjiĠ": 7599,
      "fengĠyuĠ": 7600,
      "chuanĠyueĠ": 7601,
      "1993ĠnianĠ": 7602,
      "ĠzhongĠbeiĠ": 7603,
      "guĠlaoĠdeĠ": 7604,
      "ĠwuĠxianĠ": 7605,
      "xiuĠdingĠ": 7606,
      "ĠleĠ": 7607,
      "ĠĠĠ7ĠyueĠ": 7608,
      "kuaiĠdeĠ": 7609,
      "jinĠrongĠ": 7610,
      "zhanĠjuĠ": 7611,
      "duĠteĠdeĠ": 7612,
      "liuĠliangĠ": 7613,
      "ĠshiĠjiĠyuĠ": 7614,
      "hangĠzhanĠ": 7615,
      "zuiĠzhongĠyaoĠdeĠ": 7616,
      "86": 7617,
      "ĠzhanĠdiĠ": 7618,
      "kaĠdeĠ": 7619,
      "junĠbeiĠ": 7620,
      "meiĠtianĠ": 7621,
      "JĠ": 7622,
      "and": 7623,
      "liĠyiĠ": 7624,
      "chengĠyiĠgeĠ": 7625,
      "jiaoĠjiĠ": 7626,
      "teĠyuĠ": 7627,
      "ĠyiĠtiĠ": 7628,
      "zhengĠjiaoĠ": 7629,
      "cheĠtuiĠ": 7630,
      "puĠchaĠ": 7631,
      "Ġ157": 7632,
      "Ġ1979ĠnianĠ": 7633,
      "ph": 7634,
      "Ġou": 7635,
      "ĠguanĠzhiĠ": 7636,
      "ĠleiĠjiĠ": 7637,
      "ĠĠĠ9ĠyueĠ": 7638,
      "fuĠzhongĠ": 7639,
      "zhuĠshouĠ": 7640,
      "zhuĠguanĠ": 7641,
      "nanĠminĠ": 7642,
      "wanĠmeiĠyuanĠ": 7643,
      "chiĠjingĠ": 7644,
      "ĠgongĠgongĠ": 7645,
      "geĠyueĠhouĠ": 7646,
      "zhanĠdouĠjiĠ": 7647,
      "shouĠliĠ": 7648,
      "zaoĠxingĠ": 7649,
      "ĠbuĠluĠ": 7650,
      "yanĠfaĠ": 7651,
      "yinĠniĠ": 7652,
      "jiuĠbeiĠ": 7653,
      "eĠhaiĠeĠ": 7654,
      "ĠmingĠchaoĠ": 7655,
      "5ĠnianĠdeĠ": 7656,
      "zuoĠheĠ": 7657,
      "suanĠdeĠ": 7658,
      "wanĠzhengĠdeĠ": 7659,
      "linĠshengĠ": 7660,
      "ĠciĠciĠ": 7661,
      "hangĠbanĠ": 7662,
      "ĠfaĠbiaoĠ": 7663,
      "ĠfanĠduiĠ": 7664,
      "ĠĠĠcheĠzhanĠjieĠgouĠ": 7665,
      "ĠbangĠ": 7666,
      "ĠĠĠta": 7667,
      "baoĠfuĠ": 7668,
      "daiĠtiĠ": 7669,
      "ĠzaiĠyuĠ": 7670,
      "wuĠxianĠdianĠshiĠ": 7671,
      "ĠĠĠf": 7672,
      "1980ĠnianĠ": 7673,
      "ĠliĠyouĠ": 7674,
      "faĠjueĠ": 7675,
      "shangĠfangĠ": 7676,
      "meiĠti": 7677,
      "mianĠqianĠ": 7678,
      "ĠfenĠbieĠweiĠ": 7679,
      "ĠĠĠaiĠ": 7680,
      "anĠxianĠ": 7681,
      "jinĠqiĠ": 7682,
      "muĠjiĠ": 7683,
      "yingĠguoĠdeĠ": 7684,
      "zongĠjuĠ": 7685,
      "ĠpingĠtaiĠ": 7686,
      "ĠhuaĠshengĠ": 7687,
      "gongĠchanĠzhuĠyiĠ": 7688,
      "ĠliĠfaĠhuiĠ": 7689,
      "PS": 7690,
      "ĠjunĠshiĠ": 7691,
      "ĠĠĠjiuĠ": 7692,
      "shengĠrenĠminĠzhengĠfuĠ": 7693,
      "fangĠdiĠ": 7694,
      "duanĠyuĠ": 7695,
      "tuoĠyuanĠ": 7696,
      "ĠtongĠriĠ": 7697,
      "ĠĠĠ2002ĠnianĠ": 7698,
      "chengĠliĠleĠ": 7699,
      "ĠĠĠmuĠ": 7700,
      "yaĠsiĠ": 7701,
      "fuĠbuĠzhangĠ": 7702,
      "ziĠshaĠ": 7703,
      "huiĠjiaĠ": 7704,
      "luoĠfaĠkeĠ": 7705,
      "feiĠzhiĠ": 7706,
      "kuĠerĠ": 7707,
      "zhuanĠzhiĠ": 7708,
      "juĠfeng": 7709,
      "juĠzhuĠzaiĠ": 7710,
      "fangĠxingĠ": 7711,
      "zuoĠleĠ": 7712,
      "ĠqiĠzhongĠyouĠ": 7713,
      "ĠĠĠzhiĠzuoĠ": 7714,
      "Ġ1937ĠnianĠ": 7715,
      "8ĠnianĠzhiĠ": 7716,
      "KB": 7717,
      "eĠerĠ": 7718,
      "luĠxiĠ": 7719,
      "kuangĠjiaĠ": 7720,
      "jianĠchiĠ": 7721,
      "gangĠtieĠ": 7722,
      "ĠdeĠshiĠshiĠ": 7723,
      "ĠtongĠzhiĠ": 7724,
      "tuiĠfanĠ": 7725,
      "sĠĠĠof": 7726,
      "Ġ100Ġ": 7727,
      "ĠĠĠ1949ĠnianĠ": 7728,
      "wit": 7729,
      "¡Ġ": 7730,
      "ĠĠĠ6ĠyueĠ": 7731,
      "baoĠjiĠ": 7732,
      "diĠdaĠ": 7733,
      "jieĠjieĠ": 7734,
      "110": 7735,
      "ĠĠĠriĠbenĠ": 7736,
      "duiĠweiĠ": 7737,
      "ĠyiĠxueĠ": 7738,
      "ĠyouĠheĠ": 7739,
      "jinĠzhangĠ": 7740,
      "zhuanĠhuanĠ": 7741,
      "liĠkeĠ": 7742,
      "luoĠweiĠ": 7743,
      "zongĠdeĠ": 7744,
      "ĠshiĠtaiĠwanĠ": 7745,
      "ĠheĠchengĠ": 7746,
      "jianĠzhuĠshiĠ": 7747,
      "ĠbuĠheĠ": 7748,
      "yanĠshenĠzhiĠ": 7749,
      "wenĠgeĠ": 7750,
      "qianĠlaiĠ": 7751,
      "ĠdeĠyiĠjianĠ": 7752,
      "xinĠxiĠlanĠ": 7753,
      "keĠxueĠjiaĠ": 7754,
      "fangĠbianĠ": 7755,
      "qianĠxianĠ": 7756,
      "taiĠshouĠ": 7757,
      "zhenĠzhengĠ": 7758,
      "2ĠliĠ": 7759,
      "laiĠerĠ": 7760,
      "1990ĠnianĠ": 7761,
      "jinĠchengĠ": 7762,
      "ĠdaĠxueĠdeĠ": 7763,
      "ĠfuĠgaiĠ": 7764,
      "bianĠzuĠ": 7765,
      "feiĠchang": 7766,
      "7ĠnianĠdeĠ": 7767,
      "oi": 7768,
      "yanĠqiĠ": 7769,
      "benĠzhiĠ": 7770,
      "ĠzaiĠriĠbenĠ": 7771,
      "xiangĠjiaoĠ": 7772,
      "nuanĠ": 7773,
      "taiĠweiĠ": 7774,
      "shenĠliĠ": 7775,
      "shanĠyuĠ": 7776,
      "neiĠsiĠ": 7777,
      "kaĠliĠ": 7778,
      "1944ĠnianĠ": 7779,
      "heiĠrenĠ": 7780,
      "ĠkeĠlaĠ": 7781,
      "muĠjianĠ": 7782,
      "ĠĠĠCo": 7783,
      "Ġ12Ġ": 7784,
      "zuĠshiĠ": 7785,
      "zuĠweiĠ": 7786,
      "dangĠzaiĠ": 7787,
      "duoĠliĠ": 7788,
      "tedĠĠĠ": 7789,
      "guoĠfangĠbuĠ": 7790,
      "ĠguoĠfangĠ": 7791,
      "chengĠshuĠ": 7792,
      "baĠleĠsiĠ": 7793,
      "panĠluanĠ": 7794,
      "HD": 7795,
      "nianĠdeĠ": 7796,
      "poĠerĠ": 7797,
      "rengĠzaiĠ": 7798,
      "shuĠshuĠ": 7799,
      "mengĠteĠ": 7800,
      "ĠĠĠgenĠjuĠ2010ĠnianĠmeiĠguoĠrenĠkouĠpuĠchaĠdeĠshuĠjuĠ": 7801,
      "ĠhuiĠyiĠ": 7802,
      "jinĠheĠ": 7803,
      "meiĠzhongĠ": 7804,
      "jiangĠweiĠ": 7805,
      "ĠxiĠxiĠ": 7806,
      "jingĠquĠ": 7807,
      "quanĠtiĠ": 7808,
      "liuĠxueĠ": 7809,
      "touĠru": 7810,
      "chongĠfanĠ": 7811,
      "73": 7812,
      "Ġheng": 7813,
      "ĠĠĠhuoĠ": 7814,
      "xinĠyuĠ": 7815,
      "qianĠqiĠ": 7816,
      "haoĠheĠ": 7817,
      "banĠbenĠdeĠ": 7818,
      "7ĠgeĠ": 7819,
      "Ġ21": 7820,
      "ĠpianĠ": 7821,
      "riĠerĠ": 7822,
      "tuiĠliĠ": 7823,
      "yuanĠwaiĠ": 7824,
      "zhengĠwuĠ": 7825,
      "liuĠchuanĠ": 7826,
      "liĠliangĠ": 7827,
      "ĠbiĠxuĠ": 7828,
      "ĠĠĠtangĠ": 7829,
      "qianĠyuĠ": 7830,
      "chongĠfuĠ": 7831,
      "chenĠdeĠ": 7832,
      "ĠyueĠrenĠ": 7833,
      "chengĠgongĠdeĠ": 7834,
      "jingĠyuanĠ": 7835,
      "ĠerĠheĠ": 7836,
      "ty": 7837,
      "Ġzha": 7838,
      "xiaoĠyiĠ": 7839,
      "baiĠshiĠ": 7840,
      "xiĠlie": 7841,
      "huiĠguanĠ": 7842,
      "ĠriĠbaoĠ": 7843,
      "fengĠgeĠdeĠ": 7844,
      "quĠshiĠhouĠ": 7845,
      "dangĠheĠ": 7846,
      "dangĠriĠ": 7847,
      "beiĠmeiĠ": 7848,
      "fangĠxiangĠdeĠ": 7849,
      "duoĠxiangĠ": 7850,
      "tuĠshaĠ": 7851,
      "ĠtiĠchuĠ": 7852,
      "47Ġ": 7853,
      "xianĠbuĠ": 7854,
      "guĠyiĠ": 7855,
      "cengĠbeiĠ": 7856,
      "huanĠweiĠ": 7857,
      "daĠlu": 7858,
      "paiĠshe": 7859,
      "tanĠsuoĠ": 7860,
      "ĠweiĠyuanĠhuiĠdeĠ": 7861,
      "Ġwu": 7862,
      "ĠĠĠyanĠgeĠ": 7863,
      "kaiĠqiĠ": 7864,
      "fanĠfuĠ": 7865,
      "puĠdeĠ": 7866,
      "zhaoĠshiĠ": 7867,
      "ĠkeĠchengĠ": 7868,
      "liuĠgeĠ": 7869,
      "ĠdaoĠdaĠ": 7870,
      "guangĠfanĠdeĠ": 7871,
      "xinĠguanĠfeiĠyanĠ": 7872,
      "erĠzhongĠ": 7873,
      "taĠerĠ": 7874,
      "ĠyuĠ195": 7875,
      "fenĠxiangĠ": 7876,
      "mianĠxiangĠ": 7877,
      "ĠshiĠshiĠzhangĠ": 7878,
      "caoĠzuo": 7879,
      "ĠfeiĠliĠ": 7880,
      "OM": 7881,
      "feiĠshiĠ": 7882,
      "cheĠrenĠ": 7883,
      "shaĠshiĠ": 7884,
      "jiaĠerĠ": 7885,
      "leĠxuĠduoĠ": 7886,
      "caiĠzhengĠbuĠ": 7887,
      "Ġ1981ĠnianĠ": 7888,
      "ĠjinĠnianĠ": 7889,
      "1941ĠnianĠ": 7890,
      "wuĠrenĠjiĠ": 7891,
      "jieĠruĠ": 7892,
      "xiaoĠsheĠ": 7893,
      "huoĠquĠ": 7894,
      "liaoĠning": 7895,
      "xingĠzhengĠdanĠweiĠ": 7896,
      "sangĠshiĠ": 7897,
      "ryĠ": 7898,
      "wanĠqiĠ": 7899,
      "rongĠdeĠ": 7900,
      "wuĠbuĠ": 7901,
      "jinĠsiĠ": 7902,
      "boĠyinĠ": 7903,
      "feiĠfaĠ": 7904,
      "ĠhaiĠjunĠ": 7905,
      "ĠzhengĠgeĠ": 7906,
      "ĠyuĠ2008ĠnianĠ": 7907,
      "ĠcengĠjingĠ": 7908,
      "ĠjiangĠxiĠ": 7909,
      "ĠĠĠ189": 7910,
      "hangĠkongĠgongĠsiĠ": 7911,
      "ĠshiĠyiĠgeĠweiĠyuĠmeiĠguoĠ": 7912,
      "daoĠguoĠ": 7913,
      "xinĠzhiĠ": 7914,
      "tuoĠerĠ": 7915,
      "geiĠtaĠ": 7916,
      "shangĠjiangĠ": 7917,
      "qianĠzeĠ": 7918,
      "tingĠzhangĠ": 7919,
      "taoĠwangĠ": 7920,
      "ĠanĠhuiĠ": 7921,
      "renĠdaĠdaiĠbiaoĠ": 7922,
      "OR": 7923,
      "mingĠjiĠ": 7924,
      "dianĠyuĠ": 7925,
      "taiĠyiĠ": 7926,
      "fuĠqiĠ": 7927,
      "zhuĠchiĠrenĠ": 7928,
      "faĠbuĠdeĠ": 7929,
      "saiĠguanĠjunĠ": 7930,
      "kenĠdingĠ": 7931,
      "ĠfenĠbieĠshiĠ": 7932,
      "igh": 7933,
      "ĠyuĠyiĠ": 7934,
      "Ġzhuo": 7935,
      "fanĠjiĠ": 7936,
      "ĠriĠyouĠ": 7937,
      "Ġ158": 7938,
      "WindowsĠĠĠ": 7939,
      "ĠliuĠyuĠmianĠjiĠ": 7940,
      "leĠzhiĠ": 7941,
      "cheĠxingĠ": 7942,
      "shaoĠyouĠ": 7943,
      "1989ĠnianĠ": 7944,
      "heĠbeiĠ": 7945,
      "yuanĠshuĠ": 7946,
      "fuĠsiĠ": 7947,
      "wuĠerĠ": 7948,
      "ĠbingĠbiaoĠshiĠ": 7949,
      "caiĠpanĠ": 7950,
      "touĠshouĠ": 7951,
      "keĠyiĠtongĠguoĠ": 7952,
      "ls": 7953,
      "tingĠshiĠ": 7954,
      "renĠmin": 7955,
      "xiangĠdaoĠ": 7956,
      "liangĠhaoĠ": 7957,
      "ĠxianĠjinĠ": 7958,
      "ĠfaĠshengĠ": 7959,
      "ĠMĠ": 7960,
      "Ġ40": 7961,
      "ĠgenĠjuĠ2020ĠnianĠmeiĠguoĠrenĠkouĠpuĠchaĠdeĠshuĠjuĠ": 7962,
      "1ĠjiaĠ": 7963,
      "ĠpengĠ": 7964,
      "benĠjiĠ": 7965,
      "maĠqiĠ": 7966,
      "ĠyiĠchangĠ": 7967,
      "geĠtiĠ": 7968,
      "jieĠxiaĠ": 7969,
      "shouĠmingĠ": 7970,
      "zuoĠyeĠ": 7971,
      "zhuanĠquĠ": 7972,
      "huoĠdeĠdeĠ": 7973,
      "ĠyanĠchangĠ": 7974,
      "roun": 7975,
      "35ĠnianĠ": 7976,
      "4ĠnianĠzhiĠ": 7977,
      "ĠĠĠX": 7978,
      "ĠĠĠgai": 7979,
      "benĠbuĠ": 7980,
      "sanĠyueĠ": 7981,
      "nvĠyouĠ": 7982,
      "qiaoĠdeĠ": 7983,
      "1984ĠnianĠ": 7984,
      "zhongĠgongĠ": 7985,
      "keĠsaĠsiĠ": 7986,
      "ĠdiĠerĠciĠ": 7987,
      "DS": 7988,
      "haoĠzaiĠ": 7989,
      "taoĠliĠ": 7990,
      "qianĠxiaĠ": 7991,
      "pingĠdingĠ": 7992,
      "Ġzhou": 7993,
      "ĠpinĠ": 7994,
      "ĠguanĠliĠ": 7995,
      "ĠchongĠxinĠ": 7996,
      "guanĠweiĠ": 7997,
      "yingĠheĠ": 7998,
      "nanĠyuĠ": 7999
    },
    "merges": [
      [
        "n",
        "g"
      ],
      [
        "a",
        "n"
      ],
      [
        "s",
        "h"
      ],
      [
        "z",
        "h"
      ],
      [
        "j",
        "i"
      ],
      [
        "a",
        "ng"
      ],
      [
        "Ġ",
        "Ġ"
      ],
      [
        "o",
        "ng"
      ],
      [
        "x",
        "i"
      ],
      [
        "a",
        "o"
      ],
      [
        "a",
        "i"
      ],
      [
        "d",
        "e"
      ],
      [
        "e",
        "i"
      ],
      [
        "sh",
        "i"
      ],
      [
        "y",
        "u"
      ],
      [
        "o",
        "u"
      ],
      [
        "y",
        "i"
      ],
      [
        "e",
        "n"
      ],
      [
        "c",
        "h"
      ],
      [
        "i",
        "an"
      ],
      [
        "u",
        "o"
      ],
      [
        "e",
        "ng"
      ],
      [
        "l",
        "i"
      ],
      [
        "ĠĠ",
        "Ġ"
      ],
      [
        "ã",
        "Ģ"
      ],
      [
        "i",
        "ng"
      ],
      [
        "u",
        "i"
      ],
      [
        "w",
        "ei"
      ],
      [
        "u",
        "an"
      ],
      [
        "zh",
        "i"
      ],
      [
        "q",
        "i"
      ],
      [
        "n",
        "ian"
      ],
      [
        "zh",
        "ong"
      ],
      [
        "y",
        "ou"
      ],
      [
        "r",
        "en"
      ],
      [
        "u",
        "n"
      ],
      [
        "z",
        "ai"
      ],
      [
        "d",
        "i"
      ],
      [
        "g",
        "uo"
      ],
      [
        "ãĢ",
        "ģ"
      ],
      [
        "h",
        "e"
      ],
      [
        "b",
        "u"
      ],
      [
        "e",
        "r"
      ],
      [
        "g",
        "ong"
      ],
      [
        "xi",
        "ng"
      ],
      [
        "ch",
        "eng"
      ],
      [
        "d",
        "a"
      ],
      [
        "zh",
        "u"
      ],
      [
        "h",
        "u"
      ],
      [
        "yu",
        "an"
      ],
      [
        "s",
        "i"
      ],
      [
        "ji",
        "an"
      ],
      [
        "yu",
        "e"
      ],
      [
        "g",
        "e"
      ],
      [
        "f",
        "u"
      ],
      [
        "xi",
        "an"
      ],
      [
        "u",
        "e"
      ],
      [
        "k",
        "e"
      ],
      [
        "w",
        "u"
      ],
      [
        "ch",
        "u"
      ],
      [
        "sh",
        "u"
      ],
      [
        "sh",
        "eng"
      ],
      [
        "ji",
        "e"
      ],
      [
        "ji",
        "a"
      ],
      [
        "b",
        "i"
      ],
      [
        "d",
        "ao"
      ],
      [
        "z",
        "i"
      ],
      [
        "b",
        "ei"
      ],
      [
        "h",
        "ui"
      ],
      [
        "f",
        "a"
      ],
      [
        "xi",
        "ang"
      ],
      [
        "t",
        "i"
      ],
      [
        "zh",
        "eng"
      ],
      [
        "m",
        "i"
      ],
      [
        "t",
        "a"
      ],
      [
        "ji",
        "n"
      ],
      [
        "q",
        "u"
      ],
      [
        "2",
        "0"
      ],
      [
        "t",
        "ong"
      ],
      [
        "r",
        "i"
      ],
      [
        "j",
        "u"
      ],
      [
        "ji",
        "ng"
      ],
      [
        "m",
        "ing"
      ],
      [
        "l",
        "e"
      ],
      [
        "h",
        "ou"
      ],
      [
        "sh",
        "ang"
      ],
      [
        "sh",
        "ou"
      ],
      [
        "d",
        "ong"
      ],
      [
        "c",
        "i"
      ],
      [
        "f",
        "ang"
      ],
      [
        "1",
        "9"
      ],
      [
        "hu",
        "a"
      ],
      [
        "yi",
        "n"
      ],
      [
        "x",
        "ue"
      ],
      [
        "g",
        "uan"
      ],
      [
        "zh",
        "an"
      ],
      [
        "y",
        "e"
      ],
      [
        "yi",
        "ng"
      ],
      [
        "z",
        "uo"
      ],
      [
        "zh",
        "e"
      ],
      [
        "y",
        "an"
      ],
      [
        "m",
        "ei"
      ],
      [
        "ji",
        "ao"
      ],
      [
        "g",
        "u"
      ],
      [
        "ch",
        "ang"
      ],
      [
        "xi",
        "n"
      ],
      [
        "d",
        "ui"
      ],
      [
        "l",
        "u"
      ],
      [
        "b",
        "ing"
      ],
      [
        "b",
        "ao"
      ],
      [
        "f",
        "en"
      ],
      [
        "d",
        "an"
      ],
      [
        "h",
        "uo"
      ],
      [
        "j",
        "un"
      ],
      [
        "ji",
        "ang"
      ],
      [
        "d",
        "u"
      ],
      [
        "xi",
        "ao"
      ],
      [
        "d",
        "ian"
      ],
      [
        "y",
        "ong"
      ],
      [
        "q",
        "ian"
      ],
      [
        "sh",
        "e"
      ],
      [
        "t",
        "ai"
      ],
      [
        "xi",
        "a"
      ],
      [
        "m",
        "u"
      ],
      [
        "w",
        "en"
      ],
      [
        "g",
        "ai"
      ],
      [
        "zh",
        "ang"
      ],
      [
        "li",
        "ang"
      ],
      [
        "y",
        "a"
      ],
      [
        "r",
        "u"
      ],
      [
        "d",
        "ai"
      ],
      [
        "h",
        "ai"
      ],
      [
        "n",
        "an"
      ],
      [
        "zh",
        "ou"
      ],
      [
        "z",
        "u"
      ],
      [
        "w",
        "ang"
      ],
      [
        "l",
        "ai"
      ],
      [
        "b",
        "an"
      ],
      [
        "ji",
        "u"
      ],
      [
        "d",
        "ang"
      ],
      [
        "q",
        "ing"
      ],
      [
        "p",
        "ing"
      ],
      [
        "sh",
        "en"
      ],
      [
        "ãĢ",
        "ĭ"
      ],
      [
        "ãĢ",
        "Ĭ"
      ],
      [
        "w",
        "an"
      ],
      [
        "l",
        "ian"
      ],
      [
        "li",
        "ng"
      ],
      [
        "l",
        "uo"
      ],
      [
        "Â",
        "·"
      ],
      [
        "mi",
        "n"
      ],
      [
        "q",
        "uan"
      ],
      [
        "p",
        "i"
      ],
      [
        "n",
        "i"
      ],
      [
        "b",
        "o"
      ],
      [
        "d",
        "uo"
      ],
      [
        "t",
        "e"
      ],
      [
        "b",
        "en"
      ],
      [
        "g",
        "ao"
      ],
      [
        "bi",
        "ao"
      ],
      [
        "s",
        "uo"
      ],
      [
        "l",
        "a"
      ],
      [
        "m",
        "a"
      ],
      [
        "k",
        "ai"
      ],
      [
        "b",
        "a"
      ],
      [
        "xi",
        "e"
      ],
      [
        "x",
        "u"
      ],
      [
        "b",
        "ian"
      ],
      [
        "de",
        "ng"
      ],
      [
        "y",
        "ao"
      ],
      [
        "y",
        "ang"
      ],
      [
        "m",
        "ian"
      ],
      [
        "zh",
        "en"
      ],
      [
        "d",
        "ing"
      ],
      [
        "qi",
        "u"
      ],
      [
        "z",
        "ui"
      ],
      [
        "s",
        "ai"
      ],
      [
        "li",
        "u"
      ],
      [
        "f",
        "an"
      ],
      [
        "x",
        "uan"
      ],
      [
        "f",
        "ei"
      ],
      [
        "s",
        "an"
      ],
      [
        "sh",
        "an"
      ],
      [
        "ch",
        "e"
      ],
      [
        "z",
        "ong"
      ],
      [
        "m",
        "en"
      ],
      [
        "ãĢ",
        "Į"
      ],
      [
        "ãĢ",
        "į"
      ],
      [
        "t",
        "u"
      ],
      [
        "t",
        "ian"
      ],
      [
        "h",
        "ao"
      ],
      [
        "s",
        "u"
      ],
      [
        "l",
        "ei"
      ],
      [
        "n",
        "ei"
      ],
      [
        "yu",
        "n"
      ],
      [
        "20",
        "1"
      ],
      [
        "l",
        "an"
      ],
      [
        "f",
        "eng"
      ],
      [
        "m",
        "o"
      ],
      [
        "n",
        "a"
      ],
      [
        "z",
        "e"
      ],
      [
        "l",
        "v"
      ],
      [
        "h",
        "an"
      ],
      [
        "k",
        "ou"
      ],
      [
        "w",
        "ai"
      ],
      [
        "n",
        "eng"
      ],
      [
        "li",
        "n"
      ],
      [
        "ch",
        "uan"
      ],
      [
        "ch",
        "i"
      ],
      [
        "j",
        "ue"
      ],
      [
        "b",
        "ai"
      ],
      [
        "p",
        "ai"
      ],
      [
        "20",
        "0"
      ],
      [
        "k",
        "u"
      ],
      [
        "c",
        "ai"
      ],
      [
        "z",
        "ao"
      ],
      [
        "t",
        "ing"
      ],
      [
        "zh",
        "uan"
      ],
      [
        "g",
        "ang"
      ],
      [
        "li",
        "e"
      ],
      [
        "gu",
        "ang"
      ],
      [
        "g",
        "ui"
      ],
      [
        "l",
        "un"
      ],
      [
        "s",
        "ui"
      ],
      [
        "p",
        "u"
      ],
      [
        "c",
        "eng"
      ],
      [
        "k",
        "ong"
      ],
      [
        "sh",
        "ui"
      ],
      [
        "1",
        "0"
      ],
      [
        "ch",
        "ao"
      ],
      [
        "zhu",
        "ang"
      ],
      [
        "ch",
        "a"
      ],
      [
        "d",
        "ou"
      ],
      [
        "c",
        "an"
      ],
      [
        "t",
        "ou"
      ],
      [
        "r",
        "an"
      ],
      [
        "s",
        "e"
      ],
      [
        "d",
        "uan"
      ],
      [
        "c",
        "un"
      ],
      [
        "h",
        "uan"
      ],
      [
        "c",
        "ong"
      ],
      [
        "pi",
        "n"
      ],
      [
        "c",
        "e"
      ],
      [
        "ch",
        "an"
      ],
      [
        "x",
        "un"
      ],
      [
        "g",
        "ou"
      ],
      [
        "0",
        "0"
      ],
      [
        "n",
        "v"
      ],
      [
        "zh",
        "ao"
      ],
      [
        "g",
        "an"
      ],
      [
        "ch",
        "ong"
      ],
      [
        "sh",
        "a"
      ],
      [
        "t",
        "an"
      ],
      [
        "1",
        "8"
      ],
      [
        "qi",
        "n"
      ],
      [
        "k",
        "a"
      ],
      [
        "m",
        "eng"
      ],
      [
        "qi",
        "ang"
      ],
      [
        "hu",
        "ang"
      ],
      [
        "xi",
        "u"
      ],
      [
        "1",
        "2"
      ],
      [
        "ti",
        "ao"
      ],
      [
        "m",
        "an"
      ],
      [
        "sh",
        "ao"
      ],
      [
        "k",
        "uo"
      ],
      [
        "l",
        "ong"
      ],
      [
        "p",
        "ian"
      ],
      [
        "sh",
        "uo"
      ],
      [
        "t",
        "uan"
      ],
      [
        "t",
        "ang"
      ],
      [
        "r",
        "ong"
      ],
      [
        "g",
        "eng"
      ],
      [
        "20",
        "2"
      ],
      [
        "ch",
        "en"
      ],
      [
        "t",
        "ui"
      ],
      [
        "g",
        "en"
      ],
      [
        "q",
        "ue"
      ],
      [
        "ti",
        "e"
      ],
      [
        "1",
        "1"
      ],
      [
        "qi",
        "e"
      ],
      [
        "w",
        "o"
      ],
      [
        "p",
        "o"
      ],
      [
        "p",
        "ei"
      ],
      [
        "h",
        "ang"
      ],
      [
        "h",
        "ong"
[...]
