{"!":0,"\"":1,"#":2,"$":3,"%":4,"&":5,"'":6,"(":7,")":8,"*":9,"+":10,",":11,"-":12,".":13,"/":14,"0":15,"1":16,"2":17,"3":18,"4":19,"5":20,"6":21,"7":22,"8":23,"9":24,":":25,";":26,"=":27,"?":28,"@":29,"A":30,"B":31,"C":32,"D":33,"E":34,"F":35,"G":36,"H":37,"I":38,"J":39,"K":40,"L":41,"M":42,"N":43,"O":44,"P":45,"Q":46,"R":47,"S":48,"T":49,"U":50,"V":51,"W":52,"X":53,"Y":54,"Z":55,"[":56,"\\":57,"]":58,"^":59,"_":60,"`":61,"a":62,"b":63,"c":64,"d":65,"e":66,"f":67,"g":68,"h":69,"i":70,"j":71,"k":72,"l":73,"m":74,"n":75,"o":76,"p":77,"q":78,"r":79,"s":80,"t":81,"u":82,"v":83,"w":84,"x":85,"y":86,"z":87,"|":88,"~":89,"¡":90,"¢":91,"£":92,"¤":93,"¥":94,"¦":95,"§":96,"¨":97,"©":98,"ª":99,"«":100,"¬":101,"®":102,"¯":103,"°":104,"±":105,"²":106,"³":107,"´":108,"µ":109,"¶":110,"·":111,"¸":112,"¹":113,"º":114,"»":115,"¼":116,"½":117,"¾":118,"¿":119,"Â":120,"Ã":121,"Ä":122,"Å":123,"Æ":124,"Ç":125,"È":126,"É":127,"Ê":128,"Ë":129,"Ì":130,"Í":131,"Î":132,"Ï":133,"Ð":134,"Ñ":135,"Ò":136,"Ó":137,"Ô":138,"Õ":139,"Ö":140,"×":141,"Ø":142,"Ù":143,"Ú":144,"Û":145,"Ü":146,"Þ":147,"ß":148,"à":149,"á":150,"â":151,"ã":152,"ä":153,"ê":154,"ë":155,"ì":156,"í":157,"î":158,"ï":159,"ð":160,"ñ":161,"Ċ":162,"Ġ":163,"ġ":164,"Ģ":165,"ģ":166,"Ĥ":167,"ĥ":168,"Ħ":169,"ħ":170,"Ĩ":171,"ĩ":172,"Ī":173,"ī":174,"Ĭ":175,"ĭ":176,"Į":177,"į":178,"İ":179,"ı":180,"Ĳ":181,"ĳ":182,"Ĵ":183,"ĵ":184,"Ķ":185,"ķ":186,"ĸ":187,"Ĺ":188,"ĺ":189,"Ļ":190,"ļ":191,"Ľ":192,"ľ":193,"Ŀ":194,"ŀ":195,"Ł":196,"ł":197,"Ń":198,"ng":199,"i4":200,"an":201,"sh":202,"zh":203,"ng1":204,"ji":205,"u4":206,"ng2":207,"ĠĠ":208,"i2":209,"ao":210,"xi":211,"ng4":212,"an2":213,"i3":214,"i1":215,"de":216,"u3":217,"an4":218,"e4":219,"en":220,"ch":221,"uo":222,"u2":223,"ng3":224,"an1":225,"e2":226,"ai4":227,"u1":228,"ĠĠĠ":229,"ong1":230,"a1":231,"ãĢ":232,"shi4":233,"ei4":234,"ao4":235,"ian2":236,"a4":237,"yu":238,"ang1":239,"yo":240,"an3":241,"n1":242,"hu":243,"ang4":244,"nian2":245,"en2":246,"li":247,"ang3":248,"eng2":249,"uo4":250,"uo2":251,"wei4":252,"mi":253,"ao3":254,"zai4":255,"ãĢģ":256,"bi":257,"qi":258,"ang2":259,"e1":260,"he2":261,"yi":262,"eng1":263,"zhong1":264,"er":265,"bu4":266,"ou4":267,"a3":268,"e3":269,"n4":270,"shi2":271,"di4":272,"guo2":273,"ai2":274,"ui4":275,"ren2":276,"ao1":277,"xu":278,"yi1":279,"n2":280,"ong2":281,"yu2":282,"gu":283,"li4":284,"zhi4":285,"di":286,"we":287,"en4":288,"cheng2":289,"ong4":290,"yi4":291,"gong1":292,"ji2":293,"eng4":294,"en1":295,"yue4":296,"you3":297,"yuan2":298,"da4":299,"a2":300,"le":301,"ji4":302,"20":303,"yi3":304,"ju":305,"ai1":306,"pi":307,"xian4":308,"ou1":309,"jia1":310,"si1":311,"xing2":312,"ei3":313,"ti":314,"yu3":315,"ji1":316,"ta1":317,"ri4":318,"zhi1":319,"hou4":320,"li3":321,"ou3":322,"ai3":323,"wei2":324,"hui4":325,"dao4":326,"19":327,"ong3":328,"qi2":329,"uan2":330,"zheng4":331,"ming2":332,"xi1":333,"ao2":334,"jian4":335,"xue2":336,"chu1":337,"ge4":338,"zuo4":339,"uo1":340,"sheng1":341,"dui4":342,"you2":343,"uo3":344,"qu1":345,"shang4":346,"en3":347,"de2":348,"bei4":349,"shi3":350,"zhu":351,"zhan4":352,"n3":353,"xin1":354,"jun1":355,"er3":356,"she4":357,"ren4":358,"fa1":359,"wu4":360,"bing4":361,"ke4":362,"er2":363,"lu4":364,"dai4":365,"zhu3":366,"yi2":367,"shu4":368,"ju4":369,"jin4":370,"zi4":371,"yin1":372,"fu4":373,"fang1":374,"jing1":375,"nan2":376,"hua4":377,"zhou1":378,"ping2":379,"xia4":380,"lai2":381,"yong4":382,"guan1":383,"tong2":384,"yu4":385,"ãĢĭ":386,"ãĢĬ":387,"fa3":388,"zhu4":389,"mei3":390,"Â·":391,"jian1":392,"bo":393,"huo4":394,"ben3":395,"xiang1":396,"zhi2":397,"dong4":398,"xiang4":399,"min2":400,"zhe4":401,"jiang1":402,"qi1":403,"fen1":404,"shou3":405,"quan2":406,"wen2":407,"yan2":408,"suo3":409,"jiao4":410,"qian2":411,"dian4":412,"te4":413,"duo1":414,"zui4":415,"kai1":416,"jie2":417,"lian2":418,"zhi3":419,"xi4":420,"ke3":421,"eng3":422,"ei1":423,"dan4":424,"mu4":425,"ye4":426,"du4":427,"fu2":428,"shu":429,"ma3":430,"ye3":431,"dong1":432,"qiu2":433,"bei3":434,"ãĢĮ":435,"ãĢį":436,"gao1":437,"ya4":438,"ou2":439,"du":440,"jie1":441,"un2":442,"mian4":443,"hai3":444,"zhang3":445,"shi1":446,"jin1":447,"ci3":448,"nei4":449,"sai4":450,"san1":451,"tai2":452,"ge2":453,"xing4":454,"guo4":455,"201":456,"deng3":457,"yao4":458,"che1":459,"ci4":460,"su":461,"mo":462,"ru4":463,"wu3":464,"gai1":465,"ku":466,"ding4":467,"chang2":468,"biao3":469,"la1":470,"ti3":471,"gong4":472,"jie4":473,"shou4":474,"dao3":475,"shan1":476,"chang3":477,"si4":478,"lv":479,"ze2":480,"ti2":481,"ke1":482,"dang1":483,"neng2":484,"er4":485,"wai4":486,"ei2":487,"chu":488,"dan1":489,"qi3":490,"zi":491,"kou3":492,"xiao3":493,"zu3":494,"ba1":495,"jue2":496,"lin2":497,"liu2":498,"ni":499,"sheng3":500,"ying1":501,"lan2":502,"bi3":503,"luo2":504,"tong1":505,"200":506,"zhong4":507,"zhe3":508,"shu3":509,"tian1":510,"zhen4":511,"zhong3":512,"lie4":513,"qi4":514,"cheng1":515,"shu1":516,"yuan4":517,"bao3":518,"tai4":519,"fu3":520,"feng1":521,"mi3":522,"qing1":523,"shen1":524,"wang2":525,"yun4":526,"guan3":527,"fei1":528,"jiu4":529,"gu3":530,"liang3":531,"ceng2":532,"mei2":533,"10":534,"fen4":535,"hao4":536,"yan3":537,"wei3":538,"zong3":539,"xuan3":540,"xiao4":541,"da2":542,"na4":543,"liang4":544,"bo1":545,"zu2":546,"jing4":547,"bao4":548,"ni2":549,"wu2":550,"tong3":551,"hua2":552,"jiao1":553,"yue1":554,"ying3":555,"bian4":556,"xing1":557,"su4":558,"shui3":559,"yang2":560,"men":561,"bao1":562,"ge1":563,"bo2":564,"can1":565,"cong2":566,"dian3":567,"ru2":568,"ban4":569,"bi4":570,"bian1":571,"wang3":572,"qu3":573,"chan3":574,"se4":575,"zi1":576,"qu":577,"00":578,"chuan2":579,"nv":580,"sheng4":581,"ran2":582,"tu2":583,"zhang1":584,"xu4":585,"pu3":586,"gai3":587,"gang3":588,"nv3":589,"ling4":590,"luo4":591,"you4":592,"tou2":593,"hu4":594,"cha2":595,"ce4":596,"chi2":597,"18":598,"lv4":599,"qian1":600,"li2":601,"dou1":602,"12":603,"zheng1":604,"kuo4":605,"sha1":606,"lu":607,"dang3":608,"fan3":609,"gou4":610,"lei4":611,"xi2":612,"jing3":613,"tuan2":614,"wei1":615,"xie1":616,"ling3":617,"long2":618,"gui1":619,"xian1":620,"rong2":621,"huang2":622,"xiang3":623,"ban1":624,"jiu3":625,"ying4":626,"men2":627,"shang1":628,"shen2":629,"202":630,"ban3":631,"ka3":632,"cu":633,"mu3":634,"jin3":635,"fu1":636,"ju3":637,"mo2":638,"guang3":639,"ci2":640,"shuo1":641,"qing2":642,"zhan3":643,"hai2":644,"zhuang1":645,"mo4":646,"cai2":647,"ji3":648,"du2":649,"11":650,"pin3":651,"ting2":652,"chao2":653,"ying2":654,"wo":655,"tiao2":656,"po":657,"jian3":658,"tang2":659,"hui2":660,"duan4":661,"chen2":662,"gen1":663,"mi4":664,"wan4":665,"pai2":666,"wan1":667,"zao4":668,"hang2":669,"wan2":670,"biao1":671,"lun2":672,"199":673,"xie2":674,"jiang3":675,"han4":676,"ju2":677,"fan4":678,"fang2":679,"huo2":680,"gu4":681,"han2":682,"kong1":683,"tie3":684,"meng2":685,"bie2":686,"wu1":687,"jie3":688,"zhuan1":689,"yin3":690,"xu1":691,"zhen1":692,"jia4":693,"bing1":694,"ming4":695,"ling2":696,"hong2":697,"qin1":698,"zi3":699,"lun4":700,"tu":701,"or":702,"xin4":703,"chu4":704,"su1":705,"xiu1":706,"chu3":707,"zong1":708,"15":709,"hu2":710,"que4":711,"xiao1":712,"zhao4":713,"qiang2":714,"qu4":715,"cun1":716,"chong2":717,"pian4":718,"jiu1":719,"fang4":720,"sui2":721,"shou1":722,"geng4":723,"âĢ":724,"guang1":725,"ju1":726,"jia3":727,"chuang4":728,"di2":729,"zhuan3":730,"16":731,"guo3":732,"xun4":733,"man4":734,"pai4":735,"fei4":736,"pei4":737,"198":738,"da3":739,"tuo1":740,"xuan1":741,"chu2":742,"bai2":743,"la":744,"on":745,"zhu1":746,"du1":747,"tu3":748,"diao4":749,"xia2":750,"liu4":751,"17":752,"sui4":753,"hui1":754,"ting1":755,"qie3":756,"ta3":757,"qiao2":758,"ha1":759,"gan3":760,"zeng1":761,"xian3":762,"mai4":763,"huan2":764,"xu3":765,"wa3":766,"tui1":767,"wen4":768,"chao1":769,"tian2":770,"bai3":771,"cai3":772,"liang2":773,"ya2":774,"sa4":775,"ar":776,"bai4":777,"cun2":778,"jiao3":779,"shao3":780,"yan4":781,"zhuang4":782,"di3":783,"huo3":784,"lei2":785,"14":786,"jiang4":787,"chuan1":788,"yin4":789,"zao3":790,"yong3":791,"si3":792,"deng1":793,"30":794,"zhun3":795,"le4":796,"xun2":797,"nuo4":798,"huan4":799,"song4":800,"gao4":801,"lu3":802,"13":803,"194":804,"bang1":805,"lv3":806,"yang4":807,"hen3":808,"qun2":809,"zheng3":810,"guan4":811,"po4":812,"gang1":813,"wo3":814,"197":815,"hua1":816,"lei1":817,"hao3":818,"tao2":819,"kuang4":820,"pi1":821,"dun4":822,"nong2":823,"gei3":824,"sai1":825,"shuang1":826,"lian4":827,"kuai4":828,"in":829,"di1":830,"pan4":831,"xie3":832,"195":833,"kao3":834,"gai4":835,"he4":836,"hei1":837,"wang4":838,"liao4":839,"re4":840,"ge":841,"zuo3":842,"kong4":843,"196":844,"yang1":845,"chang4":846,"yin2":847,"reng2":848,"sen1":849,"bei1":850,"lu2":851,"piao4":852,"ya1":853,"ku4":854,"25":855,"bin1":856,"âĢĶ":857,"rang4":858,"chong1":859,"lou2":860,"bu3":861,"lao3":862,"zhu2":863,"jun4":864,"yang3":865,"rui4":866,"yao1":867,"xian2":868,"xie4":869,"nian4":870,"for":871,"you1":872,"tan2":873,"kang1":874,"pi2":875,"heng2":876,"yun2":877,"kan4":878,"ning2":879,"liao2":880,"shao4":881,"bu2":882,"qing3":883,"chi3":884,"24":885,"mu":886,"dou4":887,"mian3":888,"yong1":889,"tan3":890,"wan3":891,"hu1":892,"ru":893,"fan1":894,"al":895,"tu1":896,"gan1":897,"suan4":898,"ding1":899,"yuan3":900,"wen1":901,"tui4":902,"zhe":903,"st":904,"21":905,"xiu4":906,"ba3":907,"man3":908,"193":909,"23":910,"mula":911,"kang4":912,"formula":913,"28":914,"th":915,"mao2":916,"ruo4":917,"pian1":918,"mao4":919,"lang3":920,"qin2":921,"ba2":922,"na2":923,"zan4":924,"xi3":925,"gui3":926,"gui4":927,"re":928,"pin2":929,"wo4":930,"xiong2":931,"shan4":932,"22":933,"xiong1":934,"me":935,"sui1":936,"26":937,"shen3":938,"qing4":939,"miao2":940,"fang3":941,"50":942,"2020":943,"27":944,"lang2":945,"ou":946,"qiu1":947,"song1":948,"ri":949,"dang4":950,"geng1":951,"qiang1":952,"fa2":953,"zao1":954,"feng4":955,"zhang4":956,"ï¼":957,"hao2":958,"dun1":959,"zou3":960,"hai4":961,"qie4":962,"29":963,"tan4":964,"zu":965,"pao4":966,"pa4":967,"shun4":968,"peng2":969,"xuan2":970,"2010":971,"ni3":972,"000":973,"ding3":974,"niu3":975,"zai3":976,"zhao1":977,"zhui1":978,"lve4":979,"chun1":980,"2019":981,"hun1":982,"kong3":983,"che4":984,"duan1":985,"shen4":986,"xiang2":987,"duan3":988,"gan4":989,"ro":990,"te":991,"kan1":992,"lao2":993,"cao3":994,"2016":995,"si":996,"gu1":997,"pei2":998,"kuan3":999,"za2":1000,"2018":1001,"sun1":1002,"ye2":1003,"ya3":1004,"ra":1005,"po1":1006,"2021":1007,"zha4":1008,"chi4":1009,"duo2":1010,"2014":1011,"fan2":1012,"2011":1013,"2015":1014,"cuo4":1015,"2017":1016,"zhe2":1017,"yao2":1018,"pai1":1019,"tou4":1020,"cang2":1021,"2012":1022,"40":1023,"kai3":1024,"2013":1025,"2022":1026,"mi2":1027,"ruan3":1028,"suan1":1029,"cha1":1030,"zang4":1031,"miao4":1032,"lt":1033,"2009":1034,"zhao3":1035,"2008":1036,"huai2":1037,"ãĥ":1038,"ce":1039,"60":1040,"xue4":1041,"chou2":1042,"se":1043,"bang3":1044,"am":1045,"meng4":1046,"100":1047,"ti4":1048,"pu2":1049,"nao3":1050,"2023":1051,"zhuan4":1052,"gt":1053,"lei3":1054,"190":1055,"31":1056,"cai4":1057,"san4":1058,"mou2":1059,"tion":1060,"hun4":1061,"kuan1":1062,"2007":1063,"ta":1064,"niu2":1065,"mou3":1066,"tao3":1067,"die2":1068,"2001":1069,"teng2":1070,"sou1":1071,"ken3":1072,"qian3":1073,"chang1":1074,"ran3":1075,"que1":1076,"fou3":1077,"sun3":1078,"fo":1079,"ba4":1080,"2000":1081,"80":1082,"kao4":1083,"suo1":1084,"2006":1085,"niao3":1086,"pi3":1087,"chun2":1088,"2024":1089,"lan3":1090,"ãģ":1091,"zai1":1092,"co":1093,"xue3":1094,"hui3":1095,"el":1096,"ma":1097,"luan4":1098,"ting3":1099,"2005":1100,"zun1":1101,"bang4":1102,"la4":1103,"huan1":1104,"rang3":1105,"shui4":1106,"min3":1107,"35":1108,"lai4":1109,"cang1":1110,"70":1111,"fo2":1112,"pan2":1113,"nai4":1114,"wen3":1115,"ne":1116,"cao1":1117,"of":1118,"sang1":1119,"pang2":1120,"90":1121,"bing3":1122,"ï¼į":1123,"ter":1124,"zha1":1125,"ãĤ":1126,"shuai4":1127,"nie4":1128,"hou2":1129,"mei4":1130,"shao1":1131,"nu3":1132,"dong3":1133,"il":1134,"feng2":1135,"mie4":1136,"yun3":1137,"zou4":1138,"mai3":1139,"huai4":1140,"2004":1141,"45":1142,"lo":1143,"yan1":1144,"the":1145,"he":1146,"48":1147,"zhuo2":1148,"at":1149,"and":1150,"tao4":1151,"nai3":1152,"kun1":1153,"2025":1154,"zhen3":1155,"ck":1156,"ru3":1157,"kua4":1158,"kui2":1159,"ãĢī":1160,"ãĢĪ":1161,"gou1":1162,"36":1163,"et":1164,"cui1":1165,"es":1166,"38":1167,"cu4":1168,"shan3":1169,"rou4":1170,"diao1":1171,"2003":1172,"hu3":1173,"guo1":1174,"37":1175,"cui4":1176,"xu2":1177,"is":1178,"mang2":1179,"juan3":1180,"to":1181,"can2":1182,"dian1":1183,"zhan1":1184,"cao2":1185,"189":1186,"IN":1187,"2002":1188,"keng1":1189,"TC":1190,"ma2":1191,"34":1192,"leng3":1193,"as":1194,"zu1":1195,"cha4":1196,"75":1197,"âĢĵ":1198,"ow":1199,"su2":1200,"quan1":1201,"da1":1202,"chai1":1203,"lang4":1204,"kun4":1205,"46":1206,"tun2":1207,"fen3":1208,"1990":1209,"âĢ¦":1210,"ol":1211,"ve":1212,"zhou4":1213,"shang3":1214,"rao4":1215,"heng1":1216,"ti1":1217,"xun1":1218,"39":1219,"ne4":1220,"..":1221,"nan4":1222,"pan1":1223,"65":1224,"hong1":1225,"shu2":1226,"tan1":1227,"tang1":1228,"kan3":1229,"Ma":1230,"ni4":1231,"Ch":1232,"32":1233,"it":1234,"ST":1235,"han3":1236,"47":1237,"UTC":1238,"qian4":1239,"1999":1240,"1998":1241,"In":1242,"1980":1243,"188":1244,"500":1245,"33":1246,"64":1247,"qiang3":1248,"she2":1249,"shuo4":1250,"pao3":1251,"be":1252,"ka1":1253,"zhai2":1254,"SE":1255,"55":1256,"quan4":1257,"ni1":1258,"deng4":1259,"1997":1260,"The":1261,"Co":1262,"mian2":1263,"49":1264,"gao3":1265,"II":1266,"68":1267,"han":1268,"she3":1269,"zeng4":1270,"zhou2":1271,"zhai4":1272,"Re":1273,"1996":1274,"44":1275,"na":1276,"tie1":1277,"dao1":1278,"ad":1279,"br":1280,"1994":1281,"fei2":1282,"zong4":1283,"ir":1284,"qiong2":1285,"tiao4":1286,"chuang2":1287,"nd":1288,"1992":1289,"chui2":1290,"juan1":1291,"ci":1292,"chai2":1293,"miao3":1294,"ba":1295,"gua1":1296,"xue1":1297,"tong4":1298,"1995":1299,"fei3":1300,"chi1":1301,"meng3":1302,"wo1":1303,"67":1304,"shuai1":1305,"tuo2":1306,"chuang1":1307,"huan3":1308,"vi":1309,"1991":1310,"1970":1311,"58":1312,"1950":1313,"gua4":1314,"chan2":1315,"ca":1316,"300":1317,"wa1":1318,"1993":1319,"187":1320,"1949":1321,"ay":1322,"pe":1323,"sa1":1324,"tiao3":1325,"zha2":1326,"AT":1327,"1960":1328,"bian3":1329,"42":1330,"1945":1331,"ver":1332,"us":1333,"guai4":1334,"ku3":1335,"nu2":1336,"1988":1337,"du3":1338,"oo":1339,"1989":1340,"ig":1341,"pu4":1342,"69":1343,"liu3":1344,"ing":1345,"ur":1346,"ss":1347,"gong3":1348,"SEE":1349,"tuo4":1350,"ct":1351,"liao3":1352,"INSEE":1353,"59":1354,"sha4":1355,"tai1":1356,"43":1357,"66":1358,"chuan4":1359,"amp":1360,"chen4":1361,"57":1362,"1985":1363,"huang1":1364,"Ro":1365,"99":1366,"SA":1367,"ãĢİ":1368,"cun4":1369,"ãĢı":1370,"1984":1371,"hun2":1372,"41":1373,"um":1374,"pu1":1375,"kou4":1376,"ph":1377,"88":1378,"fen2":1379,"1986":1380,"rao3":1381,"St":1382,"au":1383,"id":1384,"run4":1385,"TV":1386,"150":1387,"zhuo1":1388,"ind":1389,"400":1390,"san3":1391,"1987":1392,"78":1393,"56":1394,"1982":1395,"ard":1396,"Li":1397,"nuo2":1398,"Me":1399,"1983":1400,"De":1401,"NA":1402,"gun3":1403,"ma1":1404,"tou":1405,"pin4":1406,"un":1407,"CD":1408,"chou1":1409,"ber":1410,"gou3":1411,"quan3":1412,"77":1413,"Mi":1414,"zhai1":1415,"qia4":1416,"per":1417,"mao1":1418,"qiao3":1419,"Mar":1420,"ku1":1421,"kuang2":1422,"ed":1423,"ang":1424,"rou2":1425,"98":1426,"der":1427,"lou4":1428,"OS":1429,"Â°":1430,"kui4":1431,"sang4":1432,"ï½":1433,"ly":1434,"180":1435,"BC":1436,"54":1437,"61":1438,"Al":1439,"1979":1440,"1920":1441,"ty":1442,"79":1443,"pen1":1444,"seng1":1445,"tw":1446,"52":1447,"You":1448,"1978":1449,"nu4":1450,"62":1451,"weng1":1452,"ye1":1453,"duo3":1454,"Le":1455,"53":1456,"xing3":1457,"juan4":1458,"ï½ŀ":1459,"BA":1460,"ts":1461,"ak":1462,"1946":1463,"CO":1464,"Mo":1465,"ction":1466,"51":1467,"1958":1468,"Sh":1469,"1981":1470,"Vi":1471,"man":1472,"1972":1473,"1948":1474,"zhui4":1475,"cong1":1476,"tou1":1477,"AM":1478,"63":1479,"AR":1480,"Jo":1481,"1941":1482,"Wind":1483,"wa2":1484,"BS":1485,"lian3":1486,"1930":1487,"Pro":1488,"luan3":1489,"ows":1490,"kuang1":1491,"ke2":1492,"qu2":1493,"tuo3":1494,"76":1495,"hans":1496,"1940":1497,"pi4":1498,"1937":1499,"1976":1500,"zui3":1501,"1944":1502,"89":1503,"1975":1504,"ry":1505,"ï¼ı":1506,"1968":1507,"niang2":1508,"po2":1509,"shua1":1510,"hk":1511,"con":1512,"ran":1513,"Te":1514,"yuan1":1515,"tao1":1516,"wang1":1517,"1000":1518,"Windows":1519,"95":1520,"pa":1521,"Ne":1522,"no":1523,"bi2":1524,"sao3":1525,"87":1526,"da":1527,"1966":1528,"85":1529,"fa4":1530,"peng1":1531,"600":1532,"ga1":1533,"lan4":1534,"120":1535,"1947":1536,"Ar":1537,"Sta":1538,"1956":1539,"AC":1540,"1964":1541,"dan3":1542,"cu1":1543,"1942":1544,"Ã©":1545,"1955":1546,"Se":1547,"Ra":1548,"chou3":1549,"1952":1550,"1939":1551,"1938":1552,"72":1553,"IS":1554,"va":1555,"74":1556,"Ga":1557,"ga":1558,"ht":1559,"nu":1560,"lay":1561,"ren3":1562,"1973":1563,"1974":1564,"1954":1565,"fi":1566,"qie1":1567,"ED":1568,"1900":1569,"--":1570,"Ja":1571,"AP":1572,"1943":1573,"bi1":1574,"Tu":1575,"ke":1576,"os":1577,"1977":1578,"Be":1579,"1971":1580,"pin1":1581,"man2":1582,"op":1583,"po3":1584,"ent":1585,"1967":1586,"sheng2":1587,"ment":1588,"mp":1589,"IC":1590,"800":1591,"La":1592,"ER":1593,"ia":1594,"86":1595,"1959":1596,"beng1":1597,"Sa":1598,"1965":1599,"son":1600,"JR":1601,"1969":1602,"dui1":1603,"Lo":1604,"pen2":1605,"ine":1606,"So":1607,"ãĥ»":1608,"ÃĹ":1609,"qiao4":1610,"chui1":1611,"ID":1612,"qiao1":1613,"Su":1614,"1936":1615,"97":1616,"160":1617,"ben1":1618,"zhua1":1619,"Da":1620,"Fa":1621,"1953":1622,"1962":1623,"MA":1624,"do":1625,"1961":1626,"tic":1627,"long3":1628,"âĶ":1629,"1935":1630,"ta4":1631,"rou":1632,"mai2":1633,"96":1634,"ON":1635,"Di":1636,"ï¼ħ":1637,"1951":1638,"1957":1639,"1963":1640,"Ca":1641,"ha":1642,"âĶĢ":1643,"ok":1644,"84":1645,"2026":1646,"can3":1647,"ore":1648,"82":1649,"Na":1650,"hi":1651,"bu":1652,"73":1653,"94":1654,"tun1":1655,"92":1656,"pp":1657,"IP":1658,"AN":1659,"Bo":1660,"sta":1661,"mer":1662,"1933":1663,"one":1664,"Mu":1665,"1931":1666,"nang2":1667,"les":1668,"niao4":1669,"71":1670,"bao2":1671,"ho":1672,"nuan3":1673,"gi":1674,"An":1675,"leng2":1676,"pa2":1677,"Pa":1678,"93":1679,"so":1680,"83":1681,"all":1682,"We":1683,"dou3":1684,"81":1685,"1918":1686,"HD":1687,"Si":1688,"sao1":1689,"wi":1690,"Uni":1691,"1928":1692,"luan2":1693,"1932":1694,"nen4":1695,"ll":1696,"ara":1697,"int":1698,"Ba":1699,"MV":1700,"SS":1701,"110":1702,"1912":1703,"IT":1704,"ki":1705,"1929":1706,"tui3":1707,"duo4":1708,"1927":1709,"com":1710,"tu4":1711,"1934":1712,"are":1713,"700":1714,"ga2":1715,"cn":1716,"ali":1717,"91":1718,"che":1719,"ted":1720,"ster":1721,"ff":1722,"by":1723,"huang3":1724,"col":1725,"ill":1726,"ot":1727,"250":1728,"sa":1729,"art":1730,"zei2":1731,"1924":1732,"Ri":1733,"...":1734,"1919":1735,"kui1":1736,"xuan4":1737,"130":1738,"piao1":1739,"1925":1740,"PS":1741,"pao1":1742,"xia1":1743,"140":1744,"Play":1745,"SM":1746,"PC":1747,"mes":1748,"1914":1749,"ste":1750,"zhai3":1751,"km":1752,"He":1753,"DV":1754,"pan":1755,"zhe1":1756,"YouTu":1757,"he1":1758,"end":1759,"Ha":1760,"Fi":1761,"ana":1762,"die1":1763,"ble":1764,"Con":1765,"Wi":1766,"la3":1767,"AS":1768,"1911":1769,"Bu":1770,"ka":1771,"shi":1772,"od":1773,"gra":1774,"nve4":1775,"ld":1776,"1926":1777,"Ge":1778,"Ti":1779,"den":1780,"our":1781,"1922":1782,"na3":1783,"deĠ":1784,"ĠdeĠ":1785,"shi4Ġ":1786,"Ġshi4Ġ":1787,"Ġnian2":1788,"Ġnian2Ġ":1789,"wei4Ġ":1790,"zai4Ġ":1791,"Ġwei4Ġ":1792,"Ġzai4Ġ":1793,"he2Ġ":1794,"Ġhe2Ġ":1795,"zhong1Ġ":1796,"bu4Ġ":1797,"di4Ġ":1798,"shi2Ġ":1799,"guo2Ġ":1800,"yu2Ġ":1801,"ren2Ġ":1802,"Ġbu4Ġ":1803,"yi1Ġ":1804,"Ġzhong1Ġ":1805,"li4Ġ":1806,"zhi4Ġ":1807,"gong1Ġ":1808,"Ġshi2Ġ":1809,"yue4Ġ":1810,"ji2Ġ":1811,"cheng2Ġ":1812,"yi4Ġ":1813,"you3Ġ":1814,"Ġdi4Ġ":1815,"Ġyue4Ġ":1816,"Ġyu2Ġ":1817,"Ġren2Ġ":1818,"Ġzhi4Ġ":1819,"da4Ġ":1820,"Ġji2Ġ":1821,"yuan2Ġ":1822,"Ġyou3Ġ":1823,"ji4Ġ":1824,"Ġguo2Ġ":1825,"Ġli4Ġ":1826,"Ġgong1Ġ":1827,"Ġyi4Ġ":1828,"Ġyi3":1829,"Ġcheng2Ġ":1830,"jia1Ġ":1831,"si1Ġ":1832,"yu3Ġ":1833,"Ġxian4":1834,"Ġri4":1835,"Ġyi1Ġ":1836,"Ġxing2":1837,"Ġta1":1838,"li3Ġ":1839,"ji1Ġ":1840,"Ġdao4":1841,"hou4Ġ":1842,"wei2Ġ":1843,"Ġzhi1":1844,"Ġda4Ġ":1845,"Ġyuan2Ġ":1846,"xi1Ġ":1847,"Ġri4Ġ":1848,"Ġge4":1849,"Ġyi3Ġ":1850,"xue2Ġ":1851,"hui4Ġ":1852,"leĠ":1853,"zuo4Ġ":1854,"Ġyu3Ġ":1855,"Ġdao4Ġ":1856,"ming2Ġ":1857,"Ġji4Ġ":1858,"bei4Ġ":1859,"Ġxing2Ġ":1860,"sheng1Ġ":1861,"Ġjian4":1862,"Ġchu1":1863,"Ġqi2":1864,"Ġsi1Ġ":1865,"Ġde2":1866,"zheng4Ġ":1867,"Ġxian4Ġ":1868,"Ġhou4Ġ":1869,"Ġji1Ġ":1870,"dui4Ġ":1871,"shang4Ġ":1872,"qu1Ġ":1873,"shi3Ġ":1874,"Ġer3":1875,"Ġjia1Ġ":1876,"you2Ġ":1877,"Ġta1Ġ":1878,"Ġxi1Ġ":1879,"Ġli3Ġ":1880,"Ġer2":1881,"zhan4Ġ":1882,"Ġjun1":1883,"Ġbing4":1884,"Ġzhi1Ġ":1885,"Ġge4Ġ":1886,"zhu3Ġ":1887,"ren4Ġ":1888,"fu4Ġ":1889,"zi4Ġ":1890,"wu4Ġ":1891,"xin1Ġ":1892,"dai4Ġ":1893,"ju4Ġ":1894,"ping2Ġ":1895,"Ġchu1Ġ":1896,"Ġke4":1897,"Ġzhou1":1898,"xiang1Ġ":1899,"Ġhui4Ġ":1900,"shu4Ġ":1901,"nan2Ġ":1902,"Ġshe4":1903,"Ġbei4Ġ":1904,"Ġming2Ġ":1905,"xia4Ġ":1906,"guan1Ġ":1907,"Ġer3Ġ":1908,"Ġde2Ġ":1909,"lu4Ġ":1910,"yu4Ġ":1911,"hua4Ġ":1912,"Ġjian4Ġ":1913,"jing1Ġ":1914,"yan2Ġ":1915,"fang1Ġ":1916,"Ġyin1":1917,"kai1Ġ":1918,"jian1Ġ":1919,"jiao4Ġ":1920,"fa1Ġ":1921,"yong4Ġ":1922,"Ġdan4":1923,"Ġer2Ġ":1924,"zhu4Ġ":1925,"lai2Ġ":1926,"min2Ġ":1927,"shou3Ġ":1928,"zhe4Ġ":1929,"xiang4Ġ":1930,"wen2Ġ":1931,"Ġjun1Ġ":1932,"xi4Ġ":1933,"qian2Ġ":1934,"ben3Ġ":1935,"te4Ġ":1936,"Ġwei2Ġ":1937,"zhi2Ġ":1938,"fa3Ġ":1939,"qi1Ġ":1940,"jie2Ġ":1941,"lian2Ġ":1942,"Ġbing4Ġ":1943,"dong4Ġ":1944,"dian4Ġ":1945,"Ġqi2Ġ":1946,"Ġke4Ġ":1947,"dong1Ġ":1948,"mu4Ġ":1949,"Ġjin4":1950,"Ġdui4Ġ":1951,"Ġhuo4":1952,"Ġzhan4Ġ":1953,"fen1Ġ":1954,"tai2Ġ":1955,"zhang3Ġ":1956,"du4Ġ":1957,"jiang1Ġ":1958,"Ġqiu2":1959,"Ġping2Ġ":1960,"gao1Ġ":1961,"ye4Ġ":1962,"suo3Ġ":1963,"bei3Ġ":1964,"Ġzhou1Ġ":1965,"shi1Ġ":1966,"ĠleĠ":1967,"duo1Ġ":1968,"jie1Ġ":1969,"ge2Ġ":1970,"Ġshang4Ġ":1971,"jin1Ġ":1972,"Ġzheng4Ġ":1973,"fu2Ġ":1974,"Ġzuo4Ġ":1975,"Ġyou2Ġ":1976,"Ġfu4Ġ":1977,"kou3Ġ":1978,"guo4Ġ":1979,"zhi3Ġ":1980,"Ġtong2":1981,"hai3Ġ":1982,"Ġren4Ġ":1983,"Ġquan2":1984,"ma3Ġ":1985,"tong1Ġ":1986,"ru4Ġ":1987,"zui4Ġ":1988,"Ġsheng1Ġ":1989,"Ġxue2Ġ":1990,"ci3Ġ":1991,"xing4Ġ":1992,"wai4Ġ":1993,"nei4Ġ":1994,"la1Ġ":1995,"ti3Ġ":1996,"jue2Ġ":1997,"ke3Ġ":1998,"qi3Ġ":1999,"shan1Ġ":2000,"tian1Ġ":2001,"chang3Ġ":2002,"deng3Ġ":2003,"zhen4Ġ":2004,"wu3Ġ":2005,"chang2Ġ":2006,"ziĠ":2007,"yao4Ġ":2008,"bi3Ġ":2009,"Ġju4Ġ":2010,"bao3Ġ":2011,"mi3Ġ":2012,"ya4Ġ":2013,"Ġye3":2014,"gai1Ġ":2015,"Ġyin1Ġ":2016,"Ġdai4Ġ":2017,"mian4Ġ":2018,"zhong4Ġ":2019,"Ġshe4Ġ":2020,"feng1Ġ":2021,"Ġzhe4Ġ":2022,"zhong3Ġ":2023,"ci4Ġ":2024,"yun4Ġ":2025,"yi2Ġ":2026,"liu2Ġ":2027,"che1Ġ":2028,"shou4Ġ":2029,"lin2Ġ":2030,"bao1Ġ":2031,"yi2Ġge4Ġ":2032,"sai4Ġ":2033,"jie4Ġ":2034,"ding4Ġ":2035,"shen1Ġ":2036,"sheng3Ġ":2037,"luo2Ġ":2038,"mei3Ġguo2Ġ":2039,"san1Ġ":2040,"qi4Ġ":2041,"xiao3Ġ":2042,"Ġdan4Ġ":2043,"neng2Ġ":2044,"shu1Ġ":2045,"ze2Ġ":2046,"lie4Ġ":2047,"xuan3Ġ":2048,"si4Ġ":2049,"qing1Ġ":2050,"zhe3Ġ":2051,"Ġqiu2Ġ":2052,"jing4Ġ":2053,"yuan4Ġ":2054,"ba1Ġ":2055,"an1Ġ":2056,"wang2Ġ":2057,"ke1Ġ":2058,"tai4Ġ":2059,"lan2Ġ":2060,"bao4Ġ":2061,"zong3Ġ":2062,"ying3Ġ":2063,"Ġhuo4Ġ":2064,"bi4Ġ":2065,"fu3Ġ":2066,"dao3Ġ":2067,"Ġxin1Ġ":2068,"gu3Ġ":2069,"ying1Ġ":2070,"Ġhao4":2071,"Ġxia4Ġ":2072,"Ġzi4Ġ":2073,"ge1Ġ":2074,"fen4Ġ":2075,"xiao4Ġ":2076,"yue1Ġ":2077,"ni2Ġ":2078,"jiao1Ġ":2079,"na4Ġ":2080,"Ġyu4Ġ":2081,"Ġmi3Ġ":2082,"zi1Ġ":2083,"er4Ġ":2084,"Ġxiang1Ġ":2085,"pu3Ġ":2086,"dan1Ġ":2087,"Ġzhu4Ġ":2088,"biao3Ġ":2089,"guan3Ġ":2090,"tou2Ġ":2091,"liang4Ġ":2092,"chuan2Ġ":2093,"Ġlu4Ġ":2094,"su4Ġ":2095,"wu2Ġ":2096,"Ġdang1":2097,"bo1Ġ":2098,"ru2Ġ":2099,"yan3Ġ":2100,"nv3Ġ":2101,"bo2Ġ":2102,"Ġzhong1Ġguo2Ġ":2103,"xing1Ġ":2104,"ti2Ġ":2105,"fei1Ġ":2106,"da2Ġ":2107,"se4Ġ":2108,"cheng1Ġ":2109,"mei3Ġ":2110,"Ġwei4Ġyu2Ġ":2111,"Ġjin4Ġ":2112,"ceng2Ġ":2113,"chan3Ġ":2114,"Ġnan2Ġ":2115,"shui3Ġ":2116,"tu2Ġ":2117,"bian4Ġ":2118,"gui1Ġ":2119,"Ġran2":2120,"a1Ġ":2121,"yang2Ġ":2122,"zhang1Ġ":2123,"gai3Ġ":2124,"dian3Ġ":2125,"cong2Ġ":2126,"jiu4Ġ":2127,"Ġben3Ġ":2128,"Ġquan2Ġ":2129,"sha1Ġ":2130,"bao1Ġkuo4":2131,"wang3Ġ":2132,"jian3Ġ":2133,"sheng4Ġ":2134,"zu3Ġ":2135,"shu3Ġ":2136,"gang3Ġ":2137,"hua2Ġ":2138,"lv4Ġ":2139,"an4Ġ":2140,"qing2Ġ":2141,"jing3Ġ":2142,"liang3Ġ":2143,"zu2Ġ":2144,"ban4Ġ":2145,"tong3Ġ":2146,"gong4Ġ":2147,"shang1Ġ":2148,"ao4Ġ":2149,"li2Ġ":2150,"hu4Ġ":2151,"1Ġ":2152,"tong2Ġ":2153,"bian1Ġ":2154,"jin4Ġ":2155,"long2Ġ":2156,"luo4Ġ":2157,"xu4Ġ":2158,"chi2Ġ":2159,"mei2Ġ":2160,"jin3Ġ":2161,"ban1Ġ":2162,"guang3Ġ":2163,"chu1Ġ":2164,"ce4Ġ":2165,"mi4Ġ":2166,"shen2Ġ":2167,"Ġta1Ġmen":2168,"zheng1Ġ":2169,"zhi1Ġ":2170,"ling3Ġ":2171,"you4Ġ":2172,"fan3Ġ":2173,"wei1Ġ":2174,"Ġzhu3Ġ":2175,"huo2Ġ":2176,"xi2Ġ":2177,"ting2Ġ":2178,"ka3Ġ":2179,"cha2Ġ":2180,"Ġgai1Ġ":2181,"Ġxiang4Ġ":2182,"cai2Ġ":2183,"2Ġ":2184,"gou4Ġ":2185,"shuo1Ġ":2186,"men2Ġ":2187,"ci2Ġ":2188,"xiang3Ġ":2189,"mu3Ġ":2190,"lei4Ġ":2191,"wei3Ġ":2192,"qu3Ġ":2193,"Ġgong1Ġli3Ġ":2194,"yan2Ġjiu1":2195,"Ġduo1Ġ":2196,"tuan2Ġ":2197,"yin3Ġ":2198,"jian4Ġ":2199,"Ġye3Ġ":2200,"chao2Ġ":2201,"ying4Ġ":2202,"chen2Ġ":2203,"tang2Ġ":2204,"xie1Ġ":2205,"qi2Ġ":2206,"pin3Ġ":2207,"Ġyi3Ġji2Ġ":2208,"jia4Ġ":2209,"shi3Ġyong4Ġ":2210,"jie3Ġ":2211,"hang2Ġ":2212,"yi3Ġ":2213,"lun2Ġ":2214,"rong2Ġ":2215,"jiang3Ġ":2216,"Ġyou2":2217,"pai2Ġ":2218,"fu1Ġ":2219,"jiu3Ġ":2220,"ling4Ġ":2221,"tai2Ġwan1":2222,"Ġhao4Ġ":2223,"Ġwan4":2224,"ĠdeĠdi4Ġ":2225,"xu1Ġ":2226,"ke3Ġyi3Ġ":2227,"huang2Ġ":2228,"xian1Ġ":2229,"duan4Ġ":2230,"ke4Ġ":2231,"dang3Ġ":2232,"mo2Ġ":2233,"can1Ġ":2234,"ying2Ġ":2235,"tiao2Ġ":2236,"biao1Ġ":2237,"ĠdeĠyi1Ġ":2238,"e2Ġ":2239,"kai1Ġshi3Ġ":2240,"quan2Ġ":2241,"zhan3Ġ":2242,"Ġcheng2Ġwei2Ġ":2243,"ye3Ġ":2244,"hong2Ġ":2245,"mei2Ġyou3Ġ":2246,"han4Ġ":2247,"yin1Ġ":2248,"wei3Ġyuan2Ġ":2249,"qian1Ġ":2250,"ban3Ġ":2251,"xian4Ġ":2252,"ling2Ġ":2253,"xiao1Ġ":2254,"Ġtong2Ġ":2255,"hui2Ġ":2256,"su1Ġ":2257,"fang2Ġ":2258,"meng2Ġ":2259,"zhuang1Ġ":2260,"kong1Ġ":2261,"ju2Ġ":2262,"cun1Ġ":2263,"bao1Ġkuo4Ġ":2264,"ren2Ġkou3Ġ":2265,"Ġqi2Ġzhong1Ġ":2266,"Ġgong1Ġsi1Ġ":2267,"huo4Ġ":2268,"zi3Ġ":2269,"xing2Ġ":2270,"dou1Ġ":2271,"ĠdeĠshi4Ġ":2272,"ĠĠĠzai4Ġ":2273,"qiang2Ġ":2274,"zhao4Ġ":2275,"du2Ġ":2276,"zheng4Ġzhi4Ġ":2277,"3Ġ":2278,"yi2Ġge4":2279,"mo4Ġ":2280,"bing1Ġ":2281,"cai3Ġ":2282,"fa3Ġguo2Ġ":2283,"Ġgao1Ġ":2284,"Ġda4Ġxue2Ġ":2285,"Ġshi4Ġyi1Ġ":2286,"hai2Ġ":2287,"hu2Ġ":2288,"chu4Ġ":2289,"Ġta1ĠdeĠ":2290,"qin1Ġ":2291,"lun4Ġ":2292,"Ġfen1Ġ":2293,"fan4Ġ":2294,"zhen1Ġ":2295,"guang1Ġ":2296,"wen4Ġ":2297,"man4Ġ":2298,"ai4Ġ":2299,"she4Ġ":2300,"Ġjie2Ġ":2301,"biao3Ġshi4Ġ":2302,"zhong1ĠdeĠ":2303,"ju1Ġ":2304,"Ġjiao4Ġ":2305,"zhuan1Ġ":2306,"diao4Ġ":2307,"bai2Ġ":2308,"da3Ġ":2309,"que4Ġ":2310,"dian4Ġshi4Ġ":2311,"Ġdong1Ġ":2312,"fei4Ġ":2313,"Ġshi4Ġwei4Ġ":2314,"Ġdu4Ġ":2315,"Ġmu4Ġ":2316,"han2Ġ":2317,"shi4ĠdeĠ":2318,"Ġte4Ġ":2319,"xun4Ġ":2320,"Ġjin1Ġ":2321,"pian4Ġ":2322,"ming4Ġ":2323,"ju3Ġ":2324,"tuo1Ġ":2325,"Ġjiang1Ġ":2326,"gu4Ġ":2327,"Ġren2Ġkou3Ġ":2328,"xiu1Ġ":2329,"Ġbu4Ġfen4Ġ":2330,"xie2Ġ":2331,"zao4Ġ":2332,"Ġhe2Ġguo2Ġ":2333,"zhong1Ġguo2Ġ":2334,"guo3Ġ":2335,"10Ġyue4Ġ":2336,"shou1Ġ":2337,"Ġzui4":2338,"xin4Ġ":2339,"12Ġyue4Ġ":2340,"7Ġyue4Ġ":2341,"5Ġ":2342,"9Ġyue4Ġ":2343,"zhuan3Ġ":2344,"ta1Ġ":2345,"dang1Ġ":2346,"wu1Ġ":2347,"mian4Ġji1Ġ":2348,"Ġren2Ġmin2Ġ":2349,"8Ġyue4Ġ":2350,"xun2Ġ":2351,"Ġdi4Ġqu1Ġ":2352,"3Ġyue4Ġ":2353,"4Ġ":2354,"Ġguo4Ġ":2355,"Ġshi1Ġ":2356,"1Ġyue4Ġ":2357,"Ġjing1Ġ":2358,"di2Ġ":2359,"gan3Ġ":2360,"huan2Ġ":2361,"jia3Ġ":2362,"xia2Ġ":2363,"5Ġyue4Ġ":2364,"Ġsuo3Ġ":2365,"ying1Ġguo2Ġ":2366,"dao4Ġ":2367,"Ġci3Ġ":2368,"di3Ġ":2369,"Ġshou3Ġ":2370,"zhu1Ġ":2371,"ting1Ġ":2372,"zheng4Ġshi4Ġ":2373,"chong2Ġ":2374,"huo3Ġ":2375,"zhou1Ġ":2376,"6Ġyue4Ġ":2377,"zhuang4Ġ":2378,"cheng2Ġshi4Ġ":2379,"4Ġyue4Ġ":2380,"Ġguo2Ġjia1Ġ":2381,"tian2Ġ":2382,"geng4Ġ":2383,"ĠĠĠdi4Ġ":2384,"fang4Ġ":2385,"yong3Ġ":2386,"shu3Ġyu2Ġ":2387,"Ġping2Ġfang1":2388,"po4Ġ":2389,"jun1Ġ":2390,"Ġdi4Ġyi1Ġ":2391,"Ġqian2Ġ":2392,"11Ġyue4Ġ":2393,"qun2Ġ":2394,"qu4Ġ":2395,"jiang4Ġ":2396,"tao2Ġ":2397,"Ġshi4Ġji4Ġ":2398,"Ġping2Ġfang1Ġgong1Ġli3Ġ":2399,"Ġtong2Ġshi2Ġ":2400,"dan1Ġren4Ġ":2401,"gen1Ġ":2402,"Ġru2Ġ":2403,"Ġma3Ġ":2404,"ji3Ġ":2405,"Ġdeng3Ġ":2406,"bie2Ġ":2407,"pai4Ġ":2408,"du1Ġ":2409,"liang2Ġ":2410,"shao3Ġ":2411,"hui1Ġ":2412,"tie3Ġ":2413,"nong2Ġ":2414,"Ġnian2Ġ1Ġyue4Ġ":2415,"ta3Ġ":2416,"dian4Ġying3Ġ":2417,"zong1Ġ":2418,"chu3Ġ":2419,"Ġqi1Ġ":2420,"Ġzhe4":2421,"si3Ġ":2422,"er3Ġ":2423,"Ġtian1Ġ":2424,"ĠdeĠshi2Ġ":2425,"shuang1Ġ":2426,"qiao2Ġ":2427,"tai2Ġwan1Ġ":2428,"Ġsui4":2429,"gen1Ġju4Ġ":2430,"li4Ġshi3Ġ":2431,"chu2Ġ":2432,"Ġshi4Ġzhen4Ġ":2433,"gao4Ġ":2434,"bai4Ġ":2435,"can1Ġjia1Ġ":2436,"yun4Ġdong4":2437,"sĠ":2438,"gang1Ġ":2439,"che1Ġzhan4Ġ":2440,"guo2ĠdeĠ":2441,"jiao3Ġ":2442,"Ġyin1Ġwei4Ġ":2443,"Ġri4Ġben3Ġ":2444,"Ġping2Ġfang1Ġ":2445,"li4ĠdeĠ":2446,"Ġnian2ĠdeĠ":2447,"gai4Ġ":2448,"pan4Ġ":2449,"Ġwen2Ġ":2450,"Ġhai3Ġ":2451,"zheng4Ġfu3Ġ":2452,"bing4Ġ":2453,"zhun3Ġ":2454,"Ġnian2Ġ12Ġyue4Ġ":2455,"wa3Ġ":2456,"yan4Ġ":2457,"6Ġ":2458,"wo3Ġ":2459,"gong4Ġhe2Ġguo2Ġ":2460,"Ġxian4ĠdeĠ":2461,"Ġfu2Ġ":2462,"ya2Ġ":2463,"yin2Ġ":2464,"fa1Ġxian4Ġ":2465,"formulaĠ":2466,"chuang4Ġ":2467,"hei1Ġ":2468,"huan4Ġ":2469,"qu1ĠdeĠ":2470,"song4Ġ":2471,"ha1Ġ":2472,"hen3Ġ":2473,"ti2Ġgong1Ġ":2474,"jin4Ġxing2Ġ":2475,"Ġsuo3":2476,"Ġbei3Ġ":2477,"lei2Ġ":2478,"2Ġyue4Ġ":2479,"jing1Ġji4Ġ":2480,"tong1Ġguo4Ġ":2481,"Ġnian2Ġ3Ġyue4Ġ":2482,"sui2Ġ":2483,"chuan1Ġ":2484,"Ġwan4Ġ":2485,"qie3Ġ":2486,"Ġzhong1Ġyang1":2487,"Ġguo2Ġji4Ġ":2488,"hua1Ġ":2489,"shang4ĠdeĠ":2490,"Ġyou2Ġyu2Ġ":2491,"lei1Ġ":2492,"Ġyou4Ġ":2493,"wei3Ġyuan2Ġhui4Ġ":2494,"kao3Ġ":2495,"Ġnian2Ġ7Ġyue4Ġ":2496,"wan2Ġ":2497,"cheng1Ġwei2Ġ":2498,"Ġnian2Ġ10Ġyue4Ġ":2499,"bai3Ġ":2500,"deng1Ġ":2501,"Ġshi4Ġjie4Ġ":2502,"Ġyin1Ġci3Ġ":2503,"ming2Ġwei4Ġ":2504,"Ġjin4Ġxing2Ġ":2505,"nuo4Ġ":2506,"Ġshi4Ġzai4Ġ":2507,"Ġran2Ġ":2508,"chong1Ġ":2509,"zhu3Ġyi4Ġ":2510,"Ġnian2Ġ9Ġyue4Ġ":2511,"Ġta1ĠmenĠ":2512,"kuai4Ġ":2513,"yan2Ġjiu1Ġ":2514,"tu3Ġ":2515,"Ġzhi1Ġhou4Ġ":2516,"qiu2Ġ":2517,"mai4Ġ":2518,"shi2ĠdeĠ":2519,"lian4Ġ":2520,"hao4Ġ":2521,"Ġnian2Ġ5Ġyue4Ġ":2522,"sa4Ġ":2523,"lu2Ġ":2524,"xi4Ġtong3Ġ":2525,"pei4Ġ":2526,"Ġzui4Ġ":2527,"lu3Ġ":2528,"Ġnian2Ġ4Ġyue4Ġ":2529,"chi3Ġ":2530,"liao4Ġ":2531,"Ġdang1Ġ":2532,"Ġnian2Ġ8Ġyue4Ġ":2533,"Ġnian2Ġ6Ġyue4Ġ":2534,"Ġlian2Ġ":2535,"Ġying1Ġ":2536,"Ġxing2ĠdeĠ":2537,"zeng1Ġ":2538,"ren2ĠdeĠ":2539,"xuan1Ġ":2540,"xiang1Ġgang3Ġ":2541,"Ġshi3Ġ":2542,"qi1Ġjian1Ġ":2543,"en1Ġ":2544,"de2Ġ":2545,"kuang4Ġ":2546,"guan3Ġli3Ġ":2547,"Ġgong1Ġzuo4Ġ":2548,"piao4Ġ":2549,"Ġzhi1Ġyi1Ġ":2550,"xu3Ġ":2551,"di1Ġ":2552,"heng2Ġ":2553,"da4ĠdeĠ":2554,"bu3Ġ":2555,"yang4Ġ":2556,"sen1Ġ":2557,"Ġzhong1Ġxin1Ġ":2558,"xuan1Ġbu4Ġ":2559,"tui1Ġ":2560,"Ġnian2Ġ11Ġyue4Ġ":2561,"zu3Ġzhi1Ġ":2562,"ri4Ġ":2563,"wang4Ġ":2564,"bu4ĠdeĠ":2565,"pi2Ġ":2566,"menĠ":2567,"chang4Ġ":2568,"Ġbao1Ġkuo4Ġ":2569,"ying3Ġxiang3Ġ":2570,"yang3Ġ":2571,"Ġta1Ġzai4Ġ":2572,"qian1Ġmi3Ġ":2573,"sai1Ġ":2574,"er2Ġ":2575,"ĠĠĠsheng1Ġ":2576,"Ġhuo4Ġde2Ġ":2577,"pi1Ġ":2578,"Ġshi4Ġjie4":2579,"luo2Ġsi1Ġ":2580,"he4Ġ":2581,"ke3Ġneng2":2582,"cheng2ĠdeĠ":2583,"Ġgai1":2584,"Ġqing1Ġ":2585,"nian4Ġ":2586,"dun4Ġ":2587,"xian2Ġ":2588,"sĠĠĠ":2589,"Ġmei3":2590,"lou2Ġ":2591,"qi2Ġta1Ġ":2592,"Ġnian2Ġ2Ġyue4Ġ":2593,"bang1Ġ":2594,"Ġcheng2Ġli4Ġ":2595,"ĠC":2596,"leĠyi1Ġ":2597,"huo2Ġdong4Ġ":2598,"Ġren4Ġwei2Ġ":2599,"liu4Ġ":2600,"Ġlai2Ġ":2601,"you1Ġ":2602,"Ġbi3Ġ":2603,"Ġshu4Ġ":2604,"ke1Ġxue2Ġ":2605,"fa1Ġzhan3Ġ":2606,"Ġfen1":2607,"huo4Ġde2Ġ":2608,"jun4Ġ":2609,"Ġzuo4Ġwei2Ġ":2610,"Ġluo2Ġ":2611,"ya1Ġ":2612,"Ġping2Ġfang1Ġqian1Ġmi3Ġ":2613,"Ġa1Ġ":2614,"hua2Ġren2Ġmin2Ġ":2615,"ri4Ġben3Ġ":2616,"Ġwu2Ġ":2617,"bei1Ġ":2618,"lao3Ġ":2619,"hui4Ġyi4Ġ":2620,"re4Ġ":2621,"Ġzhi2":2622,"ku4Ġ":2623,"tan2Ġ":2624,"jian1ĠdeĠ":2625,"tie3Ġlu4Ġ":2626,"Ġliu2Ġ":2627,"ĠdeĠren2Ġ":2628,"yong4Ġyu2Ġ":2629,"liao2Ġ":2630,"ning2Ġ":2631,"Ġshi2Ġjian1Ġ":2632,"ĠdeĠgong1Ġ":2633,"ge4Ġ":2634,"Ġshan1Ġ":2635,"mian3Ġ":2636,"mian4Ġji1":2637,"yin4Ġ":2638,"rui4Ġ":2639,"min2Ġguo2Ġ":2640,"wu1Ġke4Ġ":2641,"ou1Ġ":2642,"xian3Ġ":2643,"Ġyan2Ġ":2644,"le4Ġ":2645,"7Ġ":2646,"zuo3Ġ":2647,"ĠA":2648,"gong4Ġyou3Ġ":2649,"ĠĠĠli4Ġshi3Ġ":2650,"hao3Ġ":2651,"ai1Ġ":2652,"Ġzhang1Ġ":2653,"ĠĠĠsheng1Ġping2Ġ":2654,"hua2Ġren2Ġmin2Ġgong4Ġhe2Ġguo2Ġ":2655,"fang1Ġshi4Ġ":2656,"fa1Ġsheng1Ġ":2657,"gan1Ġ":2658,"Ġcong2Ġ":2659,"dou4Ġ":2660,"wen4Ġti2Ġ":2661,"Ġzhi2Ġ":2662,"guan4Ġjun1Ġ":2663,"zhu3Ġyao4Ġ":2664,"ran2Ġ":2665,"di4ĠdeĠ":2666,"Ġdi4Ġer4Ġ":2667,"dao3Ġzhi4Ġ":2668,"guan1Ġxi4Ġ":2669,"cun2Ġ":2670,"kang1Ġ":2671,"can1Ġyu4Ġ":2672,"yuan3Ġ":2673,"ĠĠĠS":2674,"Ġbu4Ġfen4":2675,"zheng3Ġ":2676,"Ġgong1Ġcheng2Ġ":2677,"wan2Ġcheng2Ġ":2678,"dan1Ġwei4Ġ":2679,"ke3Ġneng2Ġ":2680,"Ġxiao3Ġ":2681,"yi1Ġwei4Ġ":2682,"Ġjin3Ġ":2683,"Ġwu3Ġ":2684,"Ġzhi3Ġ":2685,"1Ġri4Ġ":2686,"xie4Ġ":2687,"geĠ":2688,"suo3Ġyou3Ġ":2689,"zhi4ĠdeĠ":2690,"Ġze2Ġ":2691,"wen2Ġhua4Ġ":2692,"Ġzong3Ġ":2693,"Ġcheng2Ġyuan2Ġ":2694,"ĠdeĠcheng2Ġ":2695,"8Ġ":2696,"lv3Ġ":2697,"gei3Ġ":2698,"Ġ18":2699,"yuan2ĠdeĠ":2700,"yong1Ġyou3Ġ":2701,"cun2Ġzai4Ġ":2702,"er4Ġshi2Ġ":2703,"Ġtong1Ġ":2704,"bei3Ġbu4Ġ":2705,"Ġba1Ġ":2706,"lian2Ġhe2Ġ":2707,"hou4ĠdeĠ":2708,"niu3Ġ":2709,"Ġshi4Ġzhong1Ġ":2710,"zheng4Ġfu3":2711,"you2Ġyu2Ġ":2712,"guo2Ġjia1Ġ":2713,"dui4Ġyu2Ġ":2714,"Ġnian2Ġzhi4Ġ":2715,"fa1Ġxing2Ġ":2716,"yi4ĠdeĠ":2717,"ju4Ġyou3Ġ":2718,"Ġjian4Ġzhu4Ġ":2719,"bi3Ġsai4Ġ":2720,"Ġbing4Ġzai4Ġ":2721,"Ġdao4ĠleĠ":2722,"Ġzhi3":2723,"xin1ĠdeĠ":2724,"si1ĠdeĠ":2725,"shen3Ġ":2726,"yun2Ġ":2727,"zi4Ġji3":2728,"yun4Ġdong4Ġ":2729,"xing2Ġzheng4Ġ":2730,"yin4Ġdu4Ġ":2731,"e2Ġluo2Ġsi1Ġ":2732,"Ġ15":2733,"bin1Ġ":2734,"Ġmian4Ġji1Ġ":2735,"dai4Ġbiao3Ġ":2736,"shao4Ġ":2737,"Ġmei3Ġguo2Ġ":2738,"xu3Ġduo1Ġ":2739,"Ġling4Ġ":2740,"Ġdan4Ġshi4Ġ":2741,"ren4Ġhe2Ġ":2742,"sheng1Ġyu2Ġ":2743,"tu1Ġ":2744,"gui4Ġ":2745,"Ġnian2Ġdai4Ġ":2746,"ding1Ġ":2747,"ĠS":2748,"liang3Ġge4Ġ":2749,"che4Ġ":2750,"Ġjian3Ġ":2751,"bao3Ġhu4Ġ":2752,"Ġren2Ġkou3Ġmi4Ġ":2753,"xiu4Ġ":2754,"Ġshi3":2755,"man3Ġ":2756,"zhĠ":2757,"e4Ġ":2758,"xuan2Ġ":2759,"Ġdang1Ġshi2Ġ":2760,"zhang4Ġ":2761,"ĠdeĠyi2Ġge4Ġ":2762,"nan2Ġbu4Ġ":2763,"ju3Ġxing2Ġ":2764,"zhuan1Ġji2Ġ":2765,"mian4Ġji1Ġwei4Ġ":2766,"Ġdian4Ġ":2767,"lai2ĠdeĠ":2768,"Ġ0":2769,"Ġxi4Ġ":2770,"fan1Ġ":2771,"zao3Ġ":2772,"Ġguan1Ġ":2773,"Ġzheng4Ġfu3Ġ":2774,"fu2Ġwu4Ġ":2775,"du2Ġli4Ġ":2776,"jue2Ġding4Ġ":2777,"Ġchu1ĠdeĠ":2778,"zhu3Ġyao4":2779,"ruo4Ġ":2780,"xie3Ġ":2781,"kai1Ġshi3":2782,"Ġli4Ġshi3Ġ":2783,"ĠĠĠC":2784,"qing3Ġ":2785,"Ġceng2Ġ":2786,"Ġshe4Ġji4Ġ":2787,"Ġsan1Ġ":2788,"Ġwang2Ġ":2789,"ming2ĠdeĠ":2790,"Ġmei3Ġ":2791,"hai4Ġ":2792,"rang4Ġ":2793,"Ġshi4Ġwei4Ġyu2Ġ":2794,"jiu4Ġshi4Ġ":2795,"Ġyou3Ġyi1Ġ":2796,"geng1Ġ":2797,"ĠP":2798,"gtĠ":2799,"ĠB":2800,"Ġci3":2801,"ĠgtĠ":2802,"xi3Ġ":2803,"ĠĠĠP":2804,"Ġjiang1":2805,"Ġqi2Ġta1Ġ":2806,"tan4Ġ":2807,"Ġxing2Ġzheng4Ġ":2808,"Ġfa3Ġ":2809,"pei2Ġ":2810,"jiao4Ġyu4Ġ":2811,"ĠĠĠA":2812,"Ġ16":2813,"shou4Ġdao4Ġ":2814,"ltĠ":2815,"Ġfeng1Ġ":2816,"ren4Ġwei2Ġ":2817,"fang3Ġ":2818,"Ġshi4Ġdi4Ġ":2819,"fa1Ġzhan3":2820,"wan3Ġ":2821,"kan1Ġ":2822,"she4Ġhui4Ġ":2823,"ĠltĠ":2824,"shan4Ġ":2825,"yi4Ġwei4Ġ":2826,"gu4Ġshi4Ġ":2827,"pian1Ġ":2828,"fang1Ġmian4Ġ":2829,"Ġxian4Ġzai4Ġ":2830,"qu1Ġwei4Ġ":2831,"Ġzui4Ġzhong1Ġ":2832,"Ġjie1Ġ":2833,"Ġbi4Ġ":2834,"qin2Ġ":2835,"Ġzhong1Ġyang1Ġ":2836,"Ġshi4Ġshi4Ġ":2837,"tui4Ġ":2838,"pao4Ġ":2839,"nei4ĠdeĠ":2840,"Ġjiu4Ġ":2841,"9Ġ":2842,"shu3ĠdeĠ":2843,"zheĠ":2844,"xiang1Ġgang3":2845,"xiao3Ġshi2Ġ":2846,"dan4Ġ":2847,"Ġli4Ġru2Ġ":2848,"zu2Ġqiu2Ġ":2849,"shu4Ġju4Ġ":2850,"Ġbu4Ġtong2":2851,"lie4Ġche1Ġ":2852,"xu1Ġyao4Ġ":2853,"hua4ĠdeĠ":2854,"zhi2Ġwu4Ġ":2855,"qiang1Ġ":2856,"Ġsui1":2857,"ren2Ġshi4Ġ":2858,"shi3Ġyong4":2859,"zuo4ĠdeĠ":2860,"zeng1Ġjia1Ġ":2861,"Ġji4Ġhua4Ġ":2862,"min2Ġzhu3Ġ":2863,"Ġshi2Ġqi1Ġ":2864,"zuo4Ġwei2Ġ":2865,"Ġqu1Ġ":2866,"Ġgu3Ġ":2867,"kong4Ġzhi4Ġ":2868,"Ġye3Ġshi4Ġ":2869,"duan3Ġ":2870,"tan3Ġ":2871,"Ġjian4ĠdeĠ":2872,"Ġdong4Ġ":2873,"yin1Ġyue4Ġ":2874,"Ġran2Ġer2Ġ":2875,"Ġ17":2876,"Ġyi3Ġjing1Ġ":2877,"lang2Ġ":2878,"Ġshu3Ġyu2Ġ":2879,"Ġhe2Ġzuo4Ġ":2880,"Ġzai4Ġdi4Ġ":2881,"ren2Ġmin2Ġ":2882,"Ġshi4Ġjian4Ġ":2883,"Ġren2Ġyuan2Ġ":2884,"Ġan1Ġ":2885,"ta1ĠdeĠ":2886,"Ġyou4":2887,"Ġjian4Ġyu2Ġ":2888,"xue2Ġyuan4Ġ":2889,"zu3Ġcheng2Ġ":2890,"Ġceng2":2891,"chao1Ġguo4Ġ":2892,"zuo4Ġpin3Ġ":2893,"Ġyin1Ġyue4Ġ":2894,"Ġma3":2895,"Ġge2Ġ":2896,"mao4Ġ":2897,"Ġquan2Ġguo2Ġ":2898,"xiong2Ġ":2899,"Ġke1Ġ":2900,"zai3Ġ":2901,"hu1Ġ":2902,"hui4ĠdeĠ":2903,"ji4ĠdeĠ":2904,"zong3Ġtong3Ġ":2905,"Ġsi4Ġ":2906,"Ġzhe4Ġxie1Ġ":2907,"suan4Ġ":2908,"Ġwei4ĠleĠ":2909,"Ġhou4Ġlai2Ġ":2910,"10Ġ":2911,"tĠ":2912,"yu2Ġshi4Ġ":2913,"Ġpu3Ġ":2914,"Ġzhang3Ġ":2915,"Ġshou4Ġ":2916,"Ġcheng2Ġgong1Ġ":2917,"fa1Ġbu4Ġ":2918,"Ġtai4Ġ":2919,"da4Ġli4Ġ":2920,"ti2Ġchu1Ġ":2921,"ĠT":2922,"Ġli4Ġya4Ġ":2923,"Ġ000":2924,"Ġyi4Ġyuan2Ġ":2925,"Ġshe4Ġyou3Ġ":2926,"Ġyin1Ġci3":2927,"yun4Ġdong4Ġyuan2Ġ":2928,"yao1Ġqiu2Ġ":2929,"han2Ġguo2Ġ":2930,"bu4Ġzai4Ġ":2931,"ni2Ġya4":2932,"you3ĠdeĠ":2933,"pin2Ġ":2934,"ĠM":2935,"ĠĠĠdeĠ":2936,"pu2Ġ":2937,"zao4Ġcheng2Ġ":2938,"ĠD":2939,"ou1Ġzhou1Ġ":2940,"cai3Ġyong4Ġ":2941,"xiao3Ġxing2Ġ":2942,"qiu1Ġ":2943,"Ġgong1Ġyuan2Ġ":2944,"ĠE":2945,"jia1ĠdeĠ":2946,"xing4ĠdeĠ":2947,"sheng1ĠdeĠ":2948,"ĠdeĠyi2Ġge4":2949,"Ġri4Ġzai4Ġ":2950,"dang1Ġshi2Ġ":2951,"kong4Ġ":2952,"ren2Ġwu4Ġ":2953,"feng4Ġ":2954,"Ġci3Ġwai4Ġ":2955,"Ġwo3Ġ":2956,"gong4Ġchan3Ġ":2957,"Ġsui2":2958,"Ġla1Ġ":2959,"ĠzhĠ":2960,"Ġãĥ":2961,"Ġcong2":2962,"kan4Ġ":2963,"ba3Ġ":2964,"wan1Ġ":2965,"Ġshi4Ġhe2Ġ":2966,"2010Ġnian2Ġ":2967,"Ġling4":2968,"Ġsha1Ġ":2969,"ma3Ġwei4Ġ":2970,"ĠdeĠbu4Ġ":2971,"xue2Ġjia1Ġ":2972,"you2Ġxi4Ġ":2973,"Ġnv3Ġ":2974,"song1Ġ":2975,"Ġti3Ġ":2976,"fan4Ġwei2Ġ":2977,"Ġbu4Ġtong2Ġ":2978,"Ġgen1Ġju4Ġ":2979,"kai1Ġfa1Ġ":2980,"she4Ġji4Ġ":2981,"mao2Ġ":2982,"san1Ġnian2Ġ":2983,"qu3Ġde2Ġ":2984,"chao1Ġ":2985,"dun1Ġ":2986,"ĠdeĠji1Ġ":2987,"Ġke3Ġ":2988,"ĠĠĠB":2989,"sai4Ġshi4Ġ":2990,"Ġ1":2991,"xiong1Ġ":2992,"Ġxing2Ġcheng2Ġ":2993,"ĠĠĠdi4Ġli3Ġ":2994,"ĠĠĠshi4Ġ":2995,"a1Ġer3Ġ":2996,"zi4Ġzhi4Ġ":2997,"chan3Ġsheng1Ġ":2998,"yao2Ġ":2999,"Ġwu4Ġ":3000,"ding3Ġ":3001,"ĠdeĠji4Ġ":3002,"jie2Ġmu4Ġ":3003,"wen1Ġ":3004,"shu1Ġji4Ġ":3005,"Ġsui4Ġ":3006,"Ġbing4Ġyu2Ġ":3007,"ni3Ġ":3008,"dou1Ġshi4Ġ":3009,"chong2Ġxin1Ġ":3010,"xi4Ġtong3":3011,"lve4Ġ":3012,"zan4Ġ":3013,"Ġshe4Ġhui4Ġ":3014,"Ġyi2Ġ":3015,"zhong4Ġyao4":3016,"li3ĠdeĠ":3017,"bu2Ġshi4Ġ":3018,"chun1Ġ":3019,"Ġdai4Ġbiao3Ġ":3020,"yi1Ġnian2Ġ":3021,"Ġxiang1Ġgang3Ġ":3022,"dian4Ġying3":3023,"Ġsi1Ġte4Ġ":3024,"Ġliang3Ġ":3025,"guan1Ġyu2Ġ":3026,"zhui1Ġ":3027,"dang4Ġ":3028,"aĠ":3029,"jue2Ġse4Ġ":3030,"ĠH":3031,"Ġna4Ġ":3032,"Ġfu2":3033,"jiao1Ġtong1Ġ":3034,"lang3Ġ":3035,"Ġyou2Ġxi4Ġ":3036,"da4Ġxue2Ġ":3037,"ji2ĠdeĠ":3038,"mi2Ġ":3039,"ge1Ġqu3Ġ":3040,"chu2ĠleĠ":3041,"Ġchu1Ġxian4Ġ":3042,"2020Ġnian2Ġ":3043,"tao3Ġ":3044,"Ġjie2":3045,"Ġzhi4Ġzuo4Ġ":3046,"Ġda4Ġxue2":3047,"ping2Ġjun1Ġ":3048,"Ġde2Ġguo2Ġ":3049,"yĠ":3050,"xian3Ġshi4Ġ":3051,"ĠĠĠT":3052,"Ġchen2Ġ":3053,"hua2Ġmin2Ġguo2Ġ":3054,"Ġnian2Ġzai4Ġ":3055,"Ġshen1Ġ":3056,"Ġzhong1Ġhua2Ġren2Ġmin2Ġgong4Ġhe2Ġguo2Ġ":3057,"kong3Ġ":3058,"hou4Ġzai4Ġ":3059,"kuo4Ġ":3060,"miao2Ġ":3061,"Ġnian2Ġdai4":3062,"er4Ġnian2Ġ":3063,"Ġliang3":3064,"xia4ĠdeĠ":3065,"yan3Ġyuan2Ġ":3066,"AĠ":3067,"Ġke4Ġsi1Ġ":3068,"Ġjian1Ġ":3069,"de2Ġguo2Ġ":3070,"xiang2Ġ":3071,"Ġ1Ġ":3072,"wei2Ġyi1Ġ":3073,"qing4Ġ":3074,"cao3Ġ":3075,"dang1Ġdi4Ġ":3076,"guo2Ġji4Ġ":3077,"dui4ĠdeĠ":3078,"Ġbao3Ġ":3079,"bo2Ġwu4Ġ":3080,"Ġjian4Ġli4Ġ":3081,"hun1Ġ":3082,"Ġdi4Ġguo2Ġ":3083,"ĠĠĠG":3084,"Ġbu4Ġyu2Ġ":3085,"ĠĠĠM":3086,"Ġfei1Ġ":3087,"fan3Ġdui4Ġ":3088,"qi1ĠdeĠ":3089,"duan1Ġ":3090,"wu4ĠdeĠ":3091,"zou3Ġ":3092,"xue4Ġ":3093,"yin1Ġwei4Ġ":3094,"qu1Ġyu4Ġ":3095,"Ġ2":3096,"qu4Ġshi4Ġ":3097,"yi1Ġbu4Ġfen4Ġ":3098,"ba2Ġgao1Ġ":3099,"wo4Ġ":3100,"que1Ġ":3101,"ĠG":3102,"2001Ġnian2Ġ":3103,"guan3Ġxia2Ġ":3104,"Ġchang2Ġ":3105,"du4Ġwei4Ġ":3106,"zheng4Ġzhi4Ġren2Ġwu4Ġ":3107,"ni2Ġya4Ġ":3108,"peng2Ġ":3109,"hai2Ġyou3Ġ":3110,"ĠĠĠren2Ġkou3Ġ":3111,"Ġka3Ġ":3112,"Ġdang1Ġdi4Ġ":3113,"zui4Ġzhong1Ġ":3114,"ĠãĤ":3115,"Ġãģ":3116,"Ġyue1Ġ":3117,"Ġta1Ġshi4Ġ":3118,"Ġbu4Ġdui4Ġ":3119,"lai2Ġzi4Ġ":3120,"kuan3Ġ":3121,"bi3Ġsai4":3122,"Ġxing2Ġshi4Ġ":3123,"chi4Ġ":3124,"zhi2Ġye4Ġ":3125,"qian2Ġwang3Ġ":3126,"Ġdan1Ġ":3127,"ding4ĠdeĠ":3128,"Ġwei1Ġ":3129,"quan2Ġguo2Ġ":3130,"Ġ3":3131,"ba1Ġshi4Ġ":3132,"ĠĠĠH":3133,"yi1Ġbu4Ġ":3134,"ĠdeĠyuan2Ġ":3135,"Ġzheng4Ġfu3":3136,"zhong4Ġyao4Ġ":3137,"diao4Ġcha2Ġ":3138,"Ġ19":3139,"Ġzhi1Ġjian1Ġ":3140,"Ġlin2Ġ":3141,"Ġchu2Ġ":3142,"bian1Ġma3Ġwei4Ġ":3143,"Ġfa1Ġ":3144,"Ġnian2Ġjian1Ġ":3145,"Ġhuang2Ġ":3146,"Ġxue2Ġming2Ġ":3147,"Ġ14":3148,"xue2Ġxiao4Ġ":3149,"ĠF":3150,"zhao1Ġ":3151,"zhu3Ġxi2Ġ":3152,"xuan3Ġju3Ġ":3153,"ĠĠĠF":3154,"Ġri4Ġzhi4Ġ":3155,"gai3Ġwei2Ġ":3156,"zu3Ġzhi1":3157,"mĠ":3158,"zhu3Ġjiao4Ġ":3159,"Ġnei4Ġ":3160,"zi1Ġliao4Ġ":3161,"fa2Ġ":3162,"hai3Ġjun1Ġ":3163,"gong1Ġshi4Ġ":3164,"Ġjun1Ġshi4Ġ":3165,"ĠdeĠda4Ġ":3166,"sun1Ġ":3167,"Ġren2Ġkou3Ġmi4Ġdu4Ġ":3168,"chu3Ġli3Ġ":3169,"zai1Ġ":3170,"ĠdeĠyi4Ġ":3171,"Ġjing4Ġ":3172,"fang1Ġfa3Ġ":3173,"kang4Ġ":3174,"fu4Ġze2Ġ":3175,"Ġduo1":3176,"Ġri4Ġben3":3177,"wu1Ġke4Ġlan2Ġ":3178,"ĠĠĠyu3Ġ":3179,"guan4Ġ":3180,"shu4ĠdeĠ":3181,"Ġyou3Ġxian4":3182,"dai4Ġbiao3":3183,"Ġbo1Ġ":3184,"Ġge4Ġren2Ġ":3185,"wu2Ġfa3Ġ":3186,"ying3Ġxiang3":3187,"Ġji4Ġshu4Ġ":3188,"Ġsan1":3189,"Ġshi4Ġyou2Ġ":3190,"jie1Ġrang3":3191,"zui4Ġgao1Ġ":3192,"ju1Ġmin2Ġ":3193,"pa4Ġ":3194,"Ġsheng4Ġ":3195,"ĠĠĠE":3196,"qie4Ġ":3197,"xi4Ġlie4Ġ":3198,"qi2Ġzhong1Ġ":3199,"Ġhua4Ġ":3200,"lu4ĠdeĠ":3201,"ĠÐ":3202,"Ġmei2Ġ":3203,"Ġjie4Ġ":3204,"xue2Ġsheng1Ġ":3205,"Ġ2Ġ":3206,"Ġ12":3207,"Ġzhi1Ġchi2Ġ":3208,"ĠN":3209,"zi4Ġyou2Ġ":3210,"wen3Ġ":3211,"biao1Ġzhun3Ġ":3212,"Ġhong2Ġ":3213,"xie2Ġhui4Ġ":3214,"shu4Ġliang4":3215,"an1Ġquan2Ġ":3216,"fan3Ġying4Ġ":3217,"ke3Ġyi3":3218,"ken3Ġ":3219,"hui4Ġzai4Ġ":3220,"yao1Ġ":3221,"ye2Ġ":3222,"Ġgai3Ġ":3223,"shen4Ġzhi4Ġ":3224,"bi3Ġli4Ġ":3225,"tong3Ġzhi4Ġ":3226,"lian2Ġmeng2Ġ":3227,"chuang4Ġzuo4Ġ":3228,"zhu3Ġren4Ġ":3229,"kai3Ġ":3230,"Ġsui2Ġ":3231,"ĠĠĠben3Ġ":3232,"Ġkai1Ġ":3233,"dong1Ġbu4Ġ":3234,"ĠdeĠyi2Ġge4Ġshi4Ġzhen4Ġ":3235,"Ġshi4Ġyi2Ġge4Ġ":3236,"Ġxin1":3237,"Ġgong1Ġsi1":3238,"Ġze2":3239,"Ġnan2":3240,"gai1Ġguo2Ġ":3241,"Ġfu4Ġze2Ġ":3242,"fan2Ġ":3243,"ya3Ġ":3244,"Ġdi4Ġsan1Ġ":3245,"ti3Ġyu4Ġ":3246,"Ġdi4Ġshi2Ġ":3247,"ĠĠĠxing2Ġzheng4Ġ":3248,"jie2Ġgou4Ġ":3249,"Ġsu1Ġ":3250,"Ġbu4Ġguo4Ġ":3251,"Ġdao4ĠdeĠ":3252,"Ġqi3Ġ":3253,"shi2Ġnian2Ġ":3254,"qing2Ġkuang4Ġ":3255,"neng2Ġli4Ġ":3256,"niu2Ġ":3257,"nan2ĠziĠ":3258,"eĠ":3259,"mou3Ġ":3260,"yĠĠĠ":3261,"zhong1Ġshi4Ġ":3262,"qing2Ġkuang4":3263,"si4Ġnian2Ġ":3264,"suo1Ġ":3265,"xi1Ġbu4Ġ":3266,"gong1Ġbu4Ġ":3267,"sheng1Ġhuo2Ġ":3268,"jie1Ġshou4Ġ":3269,"ĠK":3270,"Ġge1Ġ":3271,"nv3Ġzi3Ġ":3272,"Ġshui3Ġ":3273,"lu4Ġxian4Ġ":3274,"Ġao4":3275,"cheng2Ġli4Ġ":3276,"Ġzhong1Ġxue2Ġ":3277,"ĠĠĠformulaĠ":3278,"ĠÃ":3279,"mian4ĠdeĠ":3280,"gu1Ġ":3281,"huan1Ġ":3282,"wan4Ġ":3283,"Ġjin4Ġru4Ġ":3284,"yi4Ġshi4Ġ":3285,"Ġer3Ġsi1Ġ":3286,"lian2Ġsai4Ġ":3287,"bei3Ġjing1Ġ":3288,"Ġzhu3Ġyao4Ġ":3289,"Ġba1":3290,"you3Ġshi2Ġ":3291,"Ġyang2Ġ":3292,"Ġao4Ġ":3293,"Ġyi4Ġhui4Ġ":3294,"guang3Ġdong1Ġ":3295,"Ġming2":3296,"Ġke3Ġyi3Ġ":3297,"duo2Ġ":3298,"hao2Ġ":3299,"ĠĠĠjia1Ġ":3300,"lao2Ġ":3301,"jian4Ġzhu4Ġ":3302,"ya4Ġzhou1Ġ":3303,"dao3ĠdeĠ":3304,"Ġguo2Ġmin2Ġ":3305,"ye3Ġshi4Ġ":3306,"na2Ġda4Ġ":3307,"ĠĠĠthe":3308,"dong4Ġwu4Ġ":3309,"tai4Ġping2Ġ":3310,"Ġsuo3Ġyi3Ġ":3311,"Ġtai2Ġ":3312,"di4Ġwei4Ġ":3313,"Ġzhe4Ġshi4Ġ":3314,"ba2Ġgao1Ġdu4Ġ":3315,"da2Ġdao4Ġ":3316,"zi4Ġji3ĠdeĠ":3317,"li3Ġshi4Ġ":3318,"zhu2Ġjian4Ġ":3319,"Ġbing4Ġqie3":3320,"zhuan4Ġ":3321,"dai4ĠdeĠ":3322,"ĠĠĠD":3323,"ban3Ġben3Ġ":3324,"gui3Ġ":3325,"xiang4Ġmu4Ġ":3326,"ran3Ġ":3327,"xu3Ġduo1":3328,"zhe3ĠdeĠ":3329,"jiao4Ġshou4Ġ":3330,"2008Ġnian2Ġ":3331,"Ġxue2Ġxiao4Ġ":3332,"fei1Ġchang2Ġ":3333,"wu1Ġke4Ġlan2":3334,"2009Ġnian2Ġ":3335,"Ġxi1Ġya4Ġ":3336,"Ġda4":3337,"qing1Ġnian2Ġ":3338,"Ġhai2Ġ":3339,"Ġbing4Ġqie3Ġ":3340,"Ġer4Ġ":3341,"Ġzong3":3342,"Ġzhu3Ġyao4":3343,"la1Ġsi1Ġ":3344,"ĠĠĠgen1Ġju4Ġ":3345,"yi1Ġshi4Ġ":3346,"sui4Ġ":3347,"Ġcheng2Ġwei2":3348,"ri4Ġben3":3349,"Ġhu2Ġ":3350,"mo2Ġshi4Ġ":3351,"Ġ4":3352,"zhe2Ġ":3353,"niao3Ġ":3354,"wen2Ġwu4Ġ":3355,"Ġta1ĠmenĠdeĠ":3356,"Ġyi4Ġshu4Ġ":3357,"zhi3Ġyou3Ġ":3358,"cha1Ġ":3359,"Ġji4Ġlu4Ġ":3360,"Ġmu3Ġ":3361,"Ġzhou1ĠdeĠ":3362,"Ġai4Ġ":3363,"hang2Ġkong1Ġ":3364,"Ġyu2Ġshi4Ġ":3365,"wen2Ġxue2Ġ":3366,"fen1Ġwei2Ġ":3367,"Ġbo2Ġ":3368,"Ġqi2Ġshi4Ġ":3369,"Ġqi2Ġyu2Ġ":3370,"tong1Ġguo4":3371,"suan1Ġ":3372,"Ġmin2Ġ":3373,"zhi3Ġchu1Ġ":3374,"deng3Ġren2Ġ":3375,"Ġ10":3376,"hui3Ġ":3377,"28Ġri4Ġ":3378,"shuai4Ġ":3379,"cuo4Ġ":3380,"cang2Ġ":3381,"ren2Ġkou3Ġpu3Ġ":3382,"zhi2Ġxing2Ġ":3383,"tong2Ġshi2Ġ":3384,"hun4Ġ":3385,"ĠL":3386,"zhi2Ġjie1Ġ":3387,"Ġqiu2Ġdui4Ġ":3388,"zha4Ġ":3389,"Ġli4Ġya4":3390,"yan3Ġchu1Ġ":3391,"jin3Ġbiao1Ġ":3392,"Ġjin1":3393,"gai1Ġdi4Ġ":3394,"nĠ":3395,"Ġ13":3396,"ge2Ġlan2Ġ":3397,"2016Ġnian2Ġ":3398,"TĠ":3399,"zhe4Ġyi1Ġ":3400,"huo2Ġdong4":3401,"ren4Ġwei2":3402,"jin4Ġru4Ġ":3403,"Ġzhi1Ġjian1ĠdeĠ":3404,"Ġgong1Ġkai1Ġ":3405,"Ġdang1Ġzhong1Ġ":3406,"gong4Ġtong2Ġ":3407,"ĠI":3408,"xia4Ġji4Ġ":3409,"Ġdan4Ġzai4Ġ":3410,"Ġ5":3411,"zhan4Ġzheng1Ġ":3412,"wu3Ġnian2Ġ":3413,"jiang1Ġjun1Ġ":3414,"chou2Ġ":3415,"mei2Ġti3Ġ":3416,"le4Ġbu4Ġ":3417,"Ġyong4Ġ":3418,"ti3ĠdeĠ":3419,"che1Ġzhan4":3420,"tui1Ġchu1Ġ":3421,"jiao4Ġyu4":3422,"yun3Ġ":3423,"zhe4Ġxie1Ġ":3424,"Ġshi4Ġwu4Ġ":3425,"meng4Ġ":3426,"die2Ġ":3427,"po1Ġ":3428,"miao4Ġ":3429,"li2Ġkai1Ġ":3430,"ti4Ġ":3431,"Ġling4Ġwai4Ġ":3432,"huan2Ġjing4Ġ":3433,"Ġ6":3434,"2012Ġnian2Ġ":3435,"zhu2Ġ":3436,"teng2Ġ":3437,"lin2Ġpi3":3438,"Ġdi4Ġer4":3439,"shang1Ġye4Ġ":3440,"2011Ġnian2Ġ":3441,"chuan2Ġtong3Ġ":3442,"ĠĠĠnian2":3443,"15Ġri4Ġ":3444,"dan1Ġqu1Ġ":3445,"guan1ĠdeĠ":3446,"san1Ġshi2Ġ":3447,"jun1Ġshi4Ġ":3448,"liang4ĠdeĠ":3449,"Ġci4Ġ":3450,"jie1Ġdao4Ġ":3451,"san4Ġ":3452,"ji1ĠdeĠ":3453,"qian2ĠdeĠ":3454,"Ġzhe4ĠgeĠ":3455,"ren2Ġzai4Ġ":3456,"nei4Ġrong2Ġ":3457,"dong4Ġhua4Ġ":3458,"zang4Ġ":3459,"sai4Ġji4Ġ":3460,"Ġyin3Ġ":3461,"gao1ĠdeĠ":3462,"bo2Ġshi4Ġ":3463,"du4ĠdeĠ":3464,"Ġwei4Ġren2Ġ":3465,"meĠ":3466,"yin2Ġhang2Ġ":3467,"xuan3Ġju3":3468,"Ġwei4Ġzhi4Ġ":3469,"cheng2Ġzhong1Ġ":3470,"ming4Ġming2Ġ":3471,"deng3Ġdi4Ġ":3472,"Ġgong1Ġlu4Ġ":3473,"re4Ġdai4Ġ":3474,"sun3Ġ":3475,"Ġgu4Ġ":3476,"bei3Ġjing1":3477,"aĠĠĠ":3478,"Ġshi2Ġji4Ġ":3479,"yun4Ġdong4Ġhui4Ġ":3480,"xuan3Ġze2Ġ":3481,"Ġda4Ġli4Ġ":3482,"Ġer2Ġzai4Ġ":3483,"yuan2Ġnian2Ġ":3484,"bao4Ġgao4Ġ":3485,"ĠdeĠhe2Ġ":3486,"Ġmu4Ġqian2Ġ":3487,"bo1Ġchu1Ġ":3488,"zui4Ġjia1Ġ":3489,"Ġwu2":3490,"CĠ":3491,"ĠĠĠju4Ġ":3492,"zong1Ġjiao4Ġ":3493,"Ġhan4Ġ":3494,"xue2Ġwei4Ġ":3495,"tu3Ġdi4Ġ":3496,"Ġde2Ġdao4Ġ":3497,"PĠ":3498,"bang3Ġ":3499,"zui4Ġhou4Ġ":3500,"wen2Ġhua4":3501,"tuan2Ġti3Ġ":3502,"25Ġri4Ġ":3503,"Ġ5Ġ":3504,"Ġdi4Ġfang1Ġ":3505,"gui3Ġdao4Ġ":3506,"luan4Ġ":3507,"Ġwei4Ġdi4Ġ":3508,"jing1Ġli4Ġ":3509,"xi4ĠdeĠ":3510,"Ġzhi1Ġqian2Ġ":3511,"sheng3ĠdeĠyi2Ġge4Ġshi4Ġzhen4Ġ":3512,"fen1Ġbie2":3513,"Ġshi4Ġyi1Ġzhong3Ġ":3514,"Ġzhan4":3515,"Ġshi4Ġwei4Ġyu2Ġmei3Ġguo2Ġ":3516,"ji2Ġzhong1Ġ":3517,"Ġ9":3518,"Ġge4Ġyue4Ġ":3519,"Ġjun1ĠdeĠ":3520,"si3Ġwang2Ġ":3521,"xiang1Ġguan1Ġ":3522,"tĠĠĠ":3523,"shou3Ġci4Ġ":3524,"Ġye4Ġ":3525,"30Ġri4Ġ":3526,"Ġqi4Ġ":3527,"Ġbao1Ġkuo4":3528,"Ġji1Ġgou4Ġ":3529,"wei4ĠdeĠ":3530,"Ġmo2Ġ":3531,"ao4Ġlin2Ġpi3":3532,"Ġxing4Ġ":3533,"ling3Ġdao3Ġ":3534,"Ġyou3Ġguan1Ġ":3535,"Ġhai3Ġba2Ġgao1Ġdu4Ġ":3536,"Ġyi1Ġxie1Ġ":3537,"Ġtong2Ġnian2Ġ":3538,"huai2Ġ":3539,"2014Ġnian2Ġ":3540,"Ġmi3":3541,"yong4ĠdeĠ":3542,"ĠĠĠwei4Ġ":3543,"20Ġri4Ġ":3544,"mei3Ġyuan2Ġ":3545,"Ġxing2Ġdong4Ġ":3546,"Ġzai4Ġyi1Ġ":3547,"ji1Ġyu2Ġ":3548,"xue3Ġ":3549,"Ġzhong1Ġhua2Ġmin2Ġguo2Ġ":3550,"shui3Ġyu4Ġ":3551,"Ġjue2Ġ":3552,"11Ġ":3553,"bian4Ġhua4Ġ":3554,"shang4Ġwei4Ġ":3555,"Ġji2Ġtuan2":3556,"Ġzhong4Ġ":3557,"2018Ġnian2Ġ":3558,"Ġji4Ġxu4Ġ":3559,"zhi1Ġyi1Ġ":3560,"Ġshi2Ġdai4Ġ":3561,"chu3Ġyu2Ġ":3562,"SĠ":3563,"UTCĠ":3564,"gong4Ġhe2Ġ":3565,"jie2Ġshu4Ġ":3566,"Ġbu4Ġzhang3Ġ":3567,"zi4Ġji3Ġ":3568,"2019Ġnian2Ġ":3569,"Ġzi4Ġji3":3570,"zhi1Ġchi2Ġ":3571,"2005Ġnian2Ġ":3572,"guo4Ġcheng2Ġ":3573,"Ġhou4Ġlai2":3574,"shun4Ġ":3575,"Ġbai2Ġ":3576,"10Ġri4Ġ":3577,"min2Ġzu2Ġ":3578,"Ġwai4Ġ":3579,"2015Ġnian2Ġ":3580,"kong1Ġjian1Ġ":3581,"Ġ8":3582,"erĠ":3583,"shui4Ġ":3584,"bu2Ġhui4Ġ":3585,"ye4Ġyu2Ġ":3586,"Ġru2":3587,"tou4Ġguo4Ġ":3588,"nei4Ġbu4Ġ":3589,"mei4Ġ":3590,"2013Ġnian2Ġ":3591,"jie3Ġfang4":3592,"xin1Ġwen2Ġ":3593,"Ġzhi2Ġdao4Ġ":3594,"fen1Ġbu4Ġ":3595,"Ġyi4Ġzhi2Ġ":3596,"Ġ7":3597,"Ġsi4":3598,"gen1Ġju4":3599,"ĠR":3600,"Ġzhou1Ġshi4Ġ":3601,"pi1Ġping2Ġ":3602,"Ġji2Ġtuan2Ġ":3603,"2007Ġnian2Ġ":3604,"Ġcheng1Ġ":3605,"di4Ġqu1Ġ":3606,"ĠziĠ":3607,"ĠĠĠzhe4Ġ":3608,"Ġhe2Ġnan2Ġ":3609,"ta1Ġmen":3610,"Ġshi4Ġshi2Ġ":3611,"Ġyou3Ġxian4Ġgong1Ġsi1Ġ":3612,"Ġjiu4":3613,"ge2Ġming4Ġ":3614,"DĠ":3615,"wan2Ġjia1Ġ":3616,"gui1Ġding4Ġ":3617,"ĠĠĠof":3618,"20Ġ":3619,"Ġai4":3620,"Ġjing3Ġ":3621,"Ġjia1Ġru4Ġ":3622,"Ġshu3Ġ":3623,"wan2Ġquan2Ġ":3624,"Ġshen2Ġ":3625,"cheng2Ġwei2Ġ":3626,"xi1Ġban1Ġ":3627,"zi1Ġge2Ġ":3628,"26Ġri4Ġ":3629,"da4Ġlu4Ġ":3630,"Ġtang2Ġ":3631,"ĠĠĠgai1Ġ":3632,"2017Ġnian2Ġ":3633,"ao4Ġlin2Ġpi3Ġke4Ġ":3634,"Ġ3Ġ":3635,"Ġda4Ġhui4Ġ":3636,"24Ġri4Ġ":3637,"zai4ĠdeĠ":3638,"za2Ġzhi4Ġ":3639,"Ġzhe4Ġzhong3Ġ":3640,"ying1Ġyu3Ġ":3641,"pu2Ġtao2Ġ":3642,"lu4Ġdi4Ġ":3643,"he2ĠdeĠ":3644,"shang4Ġhai3Ġ":3645,"hao2Ġmi3Ġ":3646,"Ġyu3Ġyan2Ġ":3647,"qi3Ġye4Ġ":3648,"Ġying1Ġguo2Ġ":3649,"ĠĠĠyi1Ġ":3650,"qi2Ġta1":3651,"ĠĠĠK":3652,"fang1ĠdeĠ":3653,"hou4Ġyi1Ġ":3654,"luo2Ġma3Ġ":3655,"Ġmo4Ġ":3656,"wen4Ġti2":3657,"san1Ġge4Ġ":3658,"ĠĠĠW":3659,"Ġcheng2Ġqu1Ġ":3660,"Ġke3":3661,"se4ĠdeĠ":3662,"2006Ġnian2Ġ":3663,"chuan2Ġtong3":3664,"Ġshi4Ġfa3Ġguo2Ġ":3665,"yi1ĠdeĠ":3666,"18Ġri4Ġ":3667,"wu4Ġzhong3Ġ":3668,"Ġwei4Ġyu2Ġgai1Ġguo2Ġ":3669,"Ġli3Ġsi1Ġ":3670,"jing4Ġnei4Ġ":3671,"Ġbu4Ġtong2ĠdeĠ":3672,"Ġha1Ġ":3673,"Ġtai2Ġwan1Ġ":3674,"wu4Ġli3Ġ":3675,"Ġmo4":3676,"duo1ĠdeĠ":3677,"shu4Ġwei4Ġ":3678,"Ġdai4Ġbiao3":3679,"biao3Ġxian4Ġ":3680,"Ġshi4Ġjie4Ġda4Ġ":3681,"Ġtou2Ġ":3682,"sheng3Ġji2Ġ":3683,"fa3Ġlv4Ġ":3684,"miao2Ġshu4Ġ":3685,"jing1Ġguo4Ġ":3686,"guan1Ġyuan2Ġ":3687,"gan4Ġ":3688,"Ġlu2Ġ":3689,"chang1Ġ":3690,"Ġyao4Ġ":3691,"Ġzui4Ġhou4Ġ":3692,"21Ġ":3693,"Ġyi4Ġban1Ġ":3694,"ba4Ġ":3695,"po4Ġhuai4":3696,"Ġguo2Ġjia1":3697,"Ġa1":3698,"ying2Ġde2Ġ":3699,"kuan1Ġ":3700,"cai4Ġ":3701,"Ġsui2Ġhou4Ġ":3702,"zheng4Ġzai4Ġ":3703,"bao1Ġhan2Ġ":3704,"ĠĠĠL":3705,"Ġshi4Ġjian4":3706,"bo2Ġwu4Ġguan3Ġ":3707,"ĠO":3708,"Ġgong1Ġji1Ġ":3709,"shen4Ġ":3710,"ce4Ġshi4Ġ":3711,"chang3ĠdeĠ":3712,"ze2Ġshi4Ġ":3713,"Ġwei4Ġzhong1Ġ":3714,"Ġli4Ġyong4Ġ":3715,"bu4Ġhe2Ġ":3716,"na2Ġ":3717,"30Ġ":3718,"nie4Ġ":3719,"fei1Ġji1Ġ":3720,"Ġfen1Ġbu4Ġyu2Ġ":3721,"shi3ĠdeĠ":3722,"zhuan1Ġye4Ġ":3723,"zheng1Ġyi4Ġ":3724,"27Ġri4Ġ":3725,"chun2Ġ":3726,"fa3Ġyuan4Ġ":3727,"16Ġri4Ġ":3728,"Ġchao2Ġ":3729,"Ġ2001Ġnian2Ġ":3730,"Ġdi4Ġqu1":3731,"21Ġri4Ġ":3732,"yi4Ġshi2Ġ":3733,"yong1Ġ":3734,"17Ġri4Ġ":3735,"zao1Ġdao4Ġ":3736,"Ġshi4Ġyi4Ġ":3737,"Ġsheng1Ġhuo2Ġ":3738,"12Ġri4Ġ":3739,"BĠ":3740,"Ġbei4Ġcheng1Ġwei2Ġ":3741,"ding4Ġyi4Ġ":3742,"Ġzhong1Ġxin1":3743,"8Ġri4Ġ":3744,"Ġda4Ġqu1Ġ":3745,"Ġsui1Ġran2":3746,"zong1Ġhe2Ġ":3747,"Ġzhan4Ġzheng1Ġ":3748,"ĠW":3749,"xue2ĠdeĠ":3750,"Ġxian4Ġshi2Ġ":3751,"Ġzhong1Ġgong4":3752,"ji2Ġwei4Ġ":3753,"23Ġri4Ġ":3754,"2021Ġnian2Ġ":3755,"huang2Ġdi4Ġ":3756,"ĠdeĠzuo4Ġ":3757,"zhi3Ġshi4Ġ":3758,"a1Ġla1Ġ":3759,"2022Ġnian2Ġ":3760,"11Ġri4Ġ":3761,"sou1Ġ":3762,"ou1Ġzhou1":3763,"jiang1Ġqi2Ġ":3764,"Ġbing4Ġbu4Ġ":3765,"yuan2Ġyu2Ġ":3766,"Ġzhu1Ġ":3767,"fang1Ġxiang4Ġ":3768,"zhan4ĠdeĠ":3769,"liu4Ġnian2Ġ":3770,"e2Ġluo2Ġ":3771,"chu1Ġxian4Ġ":3772,"quan2Ġli4Ġ":3773,"ĠĠĠyu2Ġ":3774,"Ġchong2Ġ":3775,"gui1Ġmo2Ġ":3776,"22Ġri4Ġ":3777,"lie4Ġche1":3778,"7Ġri4Ġ":3779,"29Ġri4Ġ":3780,"lie4ĠdeĠ":3781,"zui4Ġda4ĠdeĠ":3782,"duo1Ġshu4Ġ":3783,"xiang4ĠdeĠ":3784,"nao3Ġ":3785,"xu1Ġyao4":3786,"hai2Ġshi4Ġ":3787,"yu4ĠdeĠ":3788,"neng2Ġgou4Ġ":3789,"yue1Ġhan4Ġ":3790,"ĠĠĠci3Ġ":3791,"Ġzhe4Ġxie1":3792,"9Ġri4Ġ":3793,"ding4Ġwei4Ġ":3794,"Ġlong2Ġ":3795,"tong3Ġji4Ġ":3796,"Ġxiang1Ġgang3":3797,"EĠ":3798,"19Ġri4Ġ":3799,"sang1Ġ":3800,"ĠĠĠzheng4Ġzhi4Ġ":3801,"Ġzai4Ġzhe4Ġ":3802,"xin4Ġxi1Ġ":3803,"lian2Ġmeng2":3804,"Ġci4":3805,"yang4ĠdeĠ":3806,"Ġxian4Ġzhi4Ġ":3807,"gong1ĠdeĠ":3808,"ju3Ġban4":3809,"qiu2Ġdui4Ġ":3810,"hong1Ġ":3811,"cha2ĠdeĠ":3812,"14Ġri4Ġ":3813,"ling4Ġyi1Ġ":3814,"chang2Ġshi4Ġ":3815,"5Ġri4Ġ":3816,"mei3Ġguo2Ġren2Ġkou3Ġpu3Ġ":3817,"niu3Ġyue1":3818,"zu3Ġhe2Ġ":3819,"Ġhuo4Ġde2":3820,"3Ġri4Ġ":3821,"lin2Ġshi2Ġ":3822,"31Ġri4Ġ":3823,"Ġzhong1Ġbu4Ġ":3824,"wei4Ġshi4Ġ":3825,"dong3Ġshi4Ġ":3826,"Ġfen1Ġbie2":3827,"ji1Ġdi4Ġ":3828,"ge1Ġshou3Ġ":3829,"dong1Ġnan2Ġ":3830,"ĠĠĠzhong1Ġ":3831,"hai3Ġba2":3832,"Ġlu4":3833,"bang1Ġzhu4Ġ":3834,"ĠdeĠshi4Ġzhen4Ġ":3835,"6Ġri4Ġ":3836,"bing3Ġ":3837,"Ġ4Ġ":3838,"mou2Ġ":3839,"pai1Ġshe4Ġ":3840,"Ġyi4Ġda4Ġli4Ġ":3841,"2000Ġnian2Ġ":3842,"Ġshe4Ġli4Ġ":3843,"2Ġri4Ġ":3844,"Ġyi4Ġban1":3845,"Ġren2Ġkou3":3846,"ge4Ġren2Ġ":3847,"ĠĠĠtheĠĠĠ":3848,"Ġ190":3849,"Ġgong4Ġ":3850,"she4Ġyou3Ġ":3851,"ĠdeĠzhong1Ġ":3852,"4Ġri4Ġ":3853,"Ġliu2":3854,"Ġhua2Ġ":3855,"Ġru4Ġ":3856,"sheng1Ġya2Ġ":3857,"yuan2Ġhe2Ġ":3858,"2004Ġnian2Ġ":3859,"Ġdi4Ġqu1ĠdeĠ":3860,"Ġxue2Ġsheng1Ġ":3861,"Ġdao3Ġzhi4Ġ":3862,"Ġbao4Ġ":3863,"tie3Ġlu4":3864,"zu2Ġqiu2":3865,"zao3Ġqi1Ġ":3866,"Ġqi2Ġta1":3867,"feng2Ġ":3868,"cang1Ġ":3869,"0Ġ":3870,"13Ġri4Ġ":3871,"xiong1Ġdi4Ġ":3872,"sheng1Ġzai4Ġ":3873,"dong1Ġbei3Ġ":3874,"12Ġ":3875,"tong1Ġchang2Ġ":3876,"mu4Ġdi4Ġ":3877,"hui1Ġfu4Ġ":3878,"ruan3Ġ":3879,"Ġshi4Ġchang3Ġ":3880,"Ġxue2Ġyuan4Ġ":3881,"Ġzhe4Ġyi1Ġ":3882,"shao1Ġ":3883,"Ġwo3":3884,"alĠĠĠ":3885,"shen1Ġfen4Ġ":3886,"ĠĠĠyou2Ġyu2Ġ":3887,"qu3Ġdai4Ġ":3888,"ge2Ġming4":3889,"zhi3Ġhui1Ġ":3890,"lian2Ġbang1Ġ":3891,"qing2Ġkuang4Ġxia4Ġ":3892,"yi2Ġbu4Ġ":3893,"su1Ġlian2Ġ":3894,"xie2Ġyi4Ġ":3895,"huang2Ġjia1Ġ":3896,"ke1Ġji4Ġ":3897,"fa1Ġxian4":3898,"dĠ":3899,"pan2Ġ":3900,"pang2Ġ":3901,"zheng3Ġge4Ġ":3902,"zhan1Ġ":3903,"Ġmei2Ġyou3Ġ":3904,"Ġbian4Ġ":3905,"ren2Ġhe2Ġ":3906,"Ġgong1Ġchi3Ġ":3907,"yao1Ġqiu2":3908,"yan1Ġ":3909,"chao1Ġji2Ġ":3910,"mao4Ġyi4Ġ":3911,"yue4ĠdeĠ":3912,"zhang3ĠdeĠ":3913,"xue2Ġyuan4":3914,"fan3Ġying4":3915,"ju3Ġban4Ġ":3916,"cui1Ġ":3917,"hang2Ġkong1":3918,"dĠĠĠ":3919,"xi2Ġji1Ġ":3920,"Ġye3Ġyou3Ġ":3921,"hua4Ġhe2Ġ":3922,"guan1Ġfang1Ġ":3923,"xiao3Ġshuo1Ġ":3924,"Ġfu4":3925,"Ġdi4Ġli4Ġ":3926,"3Ġnian2Ġ":3927,"IĠ":3928,"li4Ġhe2Ġ":3929,"nv3Ġxing4Ġ":3930,"Ġxi1Ġnan2Ġ":3931,"tu2Ġshu1Ġ":3932,"za2Ġ":3933,"4Ġnian2Ġ":3934,"xian1Ġhou4Ġ":3935,"bi4Ġye4Ġ":3936,"tong3Ġyi1Ġ":3937,"Ġha1":3938,"hou2Ġ":3939,"sai4ĠdeĠ":3940,"Ġgu4":3941,"Ġbr":3942,"zun1Ġ":3943,"Ġyi3Ġjing1":3944,"Ġhei1Ġ":3945,"lan3Ġ":3946,"ĠbrĠ":3947,"xie2Ġzhu4Ġ":3948,"Ġwei1":3949,"ci4Ġshi4Ġjie4Ġda4Ġ":3950,"Ġshu1Ġ":3951,"Ġ6Ġ":3952,"Ġdong1":3953,"Ġru2Ġguo3Ġ":3954,"shang4Ġshi4Ġ":3955,"qu1Ġhua4Ġ":3956,"Ġque4Ġ":3957,"fen1Ġxi1Ġ":3958,"yu3ĠdeĠ":3959,"ting3Ġ":3960,"Ġer3Ġsheng3Ġ":3961,"ren2Ġkou3Ġshu4Ġliang4":3962,"wen2Ġwu4Ġbao3Ġhu4Ġ":3963,"Ġhe2Ġyi1Ġ":3964,"Ġbu4Ġneng2Ġ":3965,"zi4Ġxing2Ġ":3966,"jie1Ġduan4Ġ":3967,"wu2Ġxian4Ġ":3968,"guang3Ġbo1Ġ":3969,"Ġqie3Ġ":3970,"Ġyi3Ġlai2Ġ":3971,"Ġxi1Ġban1Ġ":3972,"Ġzu3Ġ":3973,"dan1Ġren4":3974,"Ġben3":3975,"Ġshuang1Ġ":3976,"ĠĠĠO":3977,"Ġta1Ġceng2":3978,"chi2Ġxu4Ġ":3979,"tai2Ġbei3":3980,"5Ġnian2Ġ":3981,"gong4Ġchan3Ġdang3Ġ":3982,"Ġwu3":3983,"guo2Ġhe2Ġ":3984,"onĠ":3985,"ĠJ":3986,"Ġyi3Ġxia4Ġ":3987,"fa1Ġbiao3":3988,"qi1Ġnian2Ġ":3989,"te4ĠdeĠ":3990,"reng2Ġ":3991,"dao3Ġyan3Ġ":3992,"6Ġnian2Ġ":3993,"hou4Ġyu2Ġ":3994,"yan3Ġchang4":3995,"zhu4Ġzai4Ġ":3996,"xia4Ġxia2":3997,"tiao2Ġjian4Ġ":3998,"Ġman4Ġ":3999,"pin2Ġdao4Ġ":4000,"Ġgong1Ġzuo4":4001,"ye4ĠdeĠ":4002,"jiao1Ġyi4Ġ":4003,"Ġcai2Ġ":4004,"ĠĠĠN":4005,"Ġzai4Ġci4Ġ":4006,"iĠ":4007,"shao4Ġnian2Ġ":4008,"Ġp":4009,"jie2Ġshu4":4010,"Ġshi4Ġzhong1Ġguo2Ġ":4011,"lai4Ġ":4012,"hu3Ġ":4013,"bao4Ġdao4Ġ":4014,"Ġren2Ġkou3Ġmi4Ġdu4Ġwei4Ġ":4015,"qiu2Ġyuan2Ġ":4016,"Ġshi4Ġli4Ġ":4017,"Ġqie3":4018,"ĠĠĠbu4Ġ":4019,"jue2Ġsai4Ġ":4020,"ying4Ġyong4Ġ":4021,"wai4ĠdeĠ":4022,"you2Ġzheng4Ġ":4023,"jian4Ġli4Ġ":4024,"zao1Ġ":4025,"9Ġnian2Ġ":4026,"zi1Ġyuan2Ġ":4027,"sai1Ġer3Ġ":4028,"Ġzhang1":4029,"Ġjiu3Ġ":4030,"Ġqi2Ġhou4Ġ":4031,"Ġya4Ġ":4032,"zui4Ġda4Ġ":4033,"cao1Ġ":4034,"Ġbing4Ġwei4Ġ":4035,"hui2Ġdao4Ġ":4036,"su4Ġdu4Ġ":4037,"qi4Ġhou4Ġ":4038,"ke3Ġda2Ġ":4039,"Ġxi1":4040,"Ġwei4Ġyu2Ġfa3Ġguo2Ġ":4041,"gai3Ġge2Ġ":4042,"mi4Ġshu1Ġ":4043,"Ġyi1Ġyuan4Ġ":4044,"dian4Ġshi4Ġju4Ġ":4045,"zhuang4Ġtai4Ġ":4046,"Ġluo4Ġ":4047,"zhu4ĠdeĠ":4048,"fen4Ġwei4Ġ":4049,"ĠĠĠR":4050,"Ġgong1Ġye4Ġ":4051,"wang3Ġzhan4Ġ":4052,"gong1Ġsi1Ġ":4053,"kai1Ġfa1":4054,"jie2Ġguo3Ġ":4055,"suo3Ġshu3ĠdeĠ":4056,"Ġqian1Ġ":4057,"ĠdeĠdi4Ġyi1Ġ":4058,"hu2Ġnan2Ġ":4059,"Ġyi1Ġsi1Ġ":4060,"ya4Ġli4Ġ":4061,"Ġwei4Ġyi1Ġ":4062,"shou3Ġci4":4063,"zou4Ġ":4064,"shang4Ġhai3":4065,"Ġzhe4Ġge":4066,"20Ġshi4Ġji4Ġ":4067,"jie2Ġhe2Ġ":4068,"Ġjie3Ġ":4069,"Ġzuo4Ġpin3Ġ":4070,"Ġmai4":4071,"Ġzhao4Ġ":4072,"zuo3Ġyou4Ġ":4073,"xiao3Ġxue2Ġ":4074,"sheng4Ġli4Ġ":4075,"Ġzhong1Ġgong4Ġ":4076,"UĠ":4077,"Ġhao4Ġxian4Ġ":4078,"zhen4Ġqu1Ġ":4079,"2Ġnian2Ġ":4080,"ĠdeĠfu4Ġ":4081,"wen2Ġming2Ġ":4082,"Ġjian3Ġcheng1Ġ":4083,"yi2Ġzhi4Ġ":4084,"jiao4Ġhui4Ġ":4085,"sheng3Ġfen4Ġ":4086,"zhan3Ġkai1Ġ":4087,"yin4Ġdu4":4088,"shi2Ġqi1Ġ":4089,"Ġsuo3Ġyou3Ġ":4090,"ling3Ġdao3":4091,"Ġfa3Ġguo2Ġ":4092,"mu4Ġbiao1Ġ":4093,"Ġer2Ġshi4Ġ":4094,"gao1Ġji2Ġ":4095,"zhun3Ġbei4Ġ":4096,"fa1Ġbiao3Ġ":4097,"wang3Ġluo4Ġ":4098,"Ġjian4Ġshe4Ġ":4099,"xun4Ġlian4Ġ":4100,"ke1ĠdeĠ":4101,"Ġren2Ġwu4Ġ":4102,"xuan3Ġshou3Ġ":4103,"jiao1Ġtong1":4104,"hao3ĠdeĠ":4105,"zi4Ġran2Ġ":4106,"zhong4Ġyao4ĠdeĠ":4107,"dong1Ġjing1Ġ":4108,"chan3Ġpin3Ġ":4109,"gong4Ġyou3Ġren2Ġkou3Ġ":4110,"Ġxian4Ġdai4Ġ":4111,"Ġyi1Ġming2Ġ":4112,"Ġxi1Ġbei3Ġ":4113,"oĠ":4114,"feng1Ġge2Ġ":4115,"Ġfei1":4116,"Ġcheng2Ġji4Ġ":4117,"lei3Ġ":4118,"Ġhe2Ġdi4Ġ":4119,"yan2Ġzhong4Ġ":4120,"xiao3Ġxing2Ġxing1Ġ":4121,"eĠĠĠ":4122,"Ġjia3Ġ":4123,"ziĠdeĠ":4124,"liu2Ġxing2Ġ":4125,"mu4Ġqian2Ġ":4126,"wen2Ġwu4Ġbao3Ġhu4Ġdan1Ġwei4Ġ":4127,"juan3Ġ":4128,"Ġji1Ġchang3Ġ":4129,"bian4Ġcheng2Ġ":4130,"7Ġnian2Ġ":4131,"qiao2Ġzhi4Ġ":4132,"mie4Ġ":4133,"lei4Ġsi4":4134,"1Ġnian2Ġ":4135,"dian4Ġshi4Ġtai2Ġ":4136,"jie3Ġshi4Ġ":4137,"8Ġnian2Ġ":4138,"guo2Ġmin2Ġ":4139,"Ġyi4Ġqi3Ġ":4140,"Ġwu1Ġ":4141,"kai1Ġfang4Ġ":4142,"Ġlan2Ġ":4143,"Ġyong3Ġ":4144,"Ġmai4Ġ":4145,"Ġxia4Ġling4":4146,"ka3Ġer3Ġ":4147,"2003Ġnian2Ġ":4148,"Ġshen4Ġzhi4Ġ":4149,"xing2Ġshi4Ġ":4150,"dou1Ġyou3Ġ":4151,"2002Ġnian2Ġ":4152,"Ġyi2Ġge4Ġ":4153,"zhi1Ġhou4Ġ":4154,"hui4Ġhe2Ġ":4155,"mei3Ġping2Ġfang1Ġgong1Ġli3Ġ":4156,"ru4ĠleĠ":4157,"Ġyi1Ġyang4Ġ":4158,"Ġchu2ĠleĠ":4159,"Ġgong1Ġfen1Ġ":4160,"Ġshe4Ġzhi4Ġ":4161,"te4Ġzheng1Ġ":4162,"can1Ġsai4Ġ":4163,"Ġsi1Ġji1Ġ":4164,"ru2Ġxia4Ġ":4165,"zhen1Ġdui4Ġ":4166,"jiu4Ġshi4Ġzhen4Ġ":4167,"Ġshi4Ġfou3":4168,"Ġdan1Ġren4Ġ":4169,"Ġshi2Ġjian1":4170,"zhe4ĠgeĠ":4171,"Ġguang1Ġ":4172,"gao1Ġzhong1Ġ":4173,"Ġci3Ġhou4Ġ":4174,"Ġzai4Ġzhong1Ġ":4175,"bi4Ġxu1Ġ":4176,"wang2Ġguo2Ġ":4177,"bi3Ġjiao4Ġ":4178,"Ġ00":4179,"er4Ġshi4Ġ":4180,"wai4Ġjiao1":4181,"gui1Ġhua4Ġ":4182,"diao1Ġ":4183,"Ġyi4Ġzhi4Ġ":4184,"lei4Ġsi4Ġ":4185,"bang4Ġ":4186,"shan1Ġdong1Ġ":4187,"Ġran2Ġhou4Ġ":4188,"Ġyi4Ġzhi2":4189,"Ġli4Ġshu3Ġyu2Ġ":4190,"Ġsui1Ġran2Ġ":4191,"yuan2Ġshi4Ġ":4192,"dui4Ġzai4Ġ":4193,"zhu4Ġming2Ġ":4194,"yun2Ġnan2Ġ":4195,"Ġjia4Ġ":4196,"hen3Ġduo1Ġ":4197,"Ġer3ĠdeĠ":4198,"huo4Ġde2":4199,"sheng1Ġchan3Ġ":4200,"Ġyu3":4201,"zhan4Ġyi4Ġ":4202,"ĠĠĠgong1Ġ":4203,"dian4ĠziĠ":4204,"Ġbei3":4205,"Ġ11":4206,"zhong4ĠdeĠ":4207,"Ġjian4Ġzhi4Ġ":4208,"ĠĠĠda4Ġ":4209,"xin1Ġjia1Ġ":4210,"lai2Ġzi4":4211,"zhi4Ġzuo4Ġ":4212,"shan1Ġxi1Ġ":4213,"ren2Ġkou3Ġshu4Ġliang4Ġwei4Ġren2Ġ":4214,"ju4Ġji2Ġ":4215,"ĠdeĠyi1Ġzhong3Ġ":4216,"Ġgu3":4217,"ĠdeĠming2Ġ":4218,"ji2Ġhe2Ġ":4219,"Ġxi1Ġya4":4220,"tao4Ġ":4221,"lv3Ġyou2Ġ":4222,"Ġzhi4Ġzao4Ġ":4223,"Ġshang1Ġ":4224,"Ġxing2Ġwei2Ġ":4225,"ma3Ġlai2":4226,"bao4Ġfa1Ġ":4227,"nv3Ġer2Ġ":4228,"Ġren4":4229,"ĠINSEE":4230,"deĠĠĠ":4231,"zong3Ġli3Ġ":4232,"quan2Ġqiu2Ġ":4233,"si1Ġhe2Ġ":4234,"ĠdeĠzhu3Ġ":4235,"Ġshang4Ġhai3Ġ":4236,"sai4Ġzhong1Ġ":4237,"fa1Ġshe4Ġ":4238,"rui4Ġshi4Ġ":4239,"Ġche1Ġ":4240,"bao1Ġhan2":4241,"nong2Ġye4Ġ":4242,"Ġtu2Ġ":4243,"Ġdeng3":4244,"ye4Ġwu4Ġ":4245,"tou2Ġzi1Ġ":4246,"lu4Ġjun1Ġ":4247,"Ġdui4Ġyu2Ġ":4248,"wu4Ġzhi4Ġ":4249,"jue2ĠdeĠ":4250,"nai4Ġ":4251,"ao2Ġ":4252,"te4Ġbie2Ġ":4253,"Ġzu3":4254,"Ġjin4Ġshi4Ġ":4255,"ĠdeĠshi2Ġhou4Ġ":4256,"ao4Ġlin2Ġpi3Ġke4Ġyun4Ġdong4Ġhui4Ġ":4257,"ge2ĠdeĠ":4258,"Ġzhi4Ġjin1Ġ":4259,"fang1Ġan4Ġ":4260,"Ġbiao3Ġshi4Ġ":4261,"si1Ġren2Ġ":4262,"hua4Ġxue2Ġ":4263,"Ġte4Ġbie2":4264,"Ġda4Ġliang4Ġ":4265,"ji2Ġshi4Ġ":4266,"min3Ġ":4267,"ke3Ġneng2Ġshi4Ġ":4268,"lian2Ġjie1Ġ":4269,"jin4ĠdeĠ":4270,"Ġzhi1Ġwai4Ġ":4271,"fa1Ġdong4Ġ":4272,"si4Ġshi2Ġ":4273,"cao2Ġ":4274,"ĠV":4275,"Ġni2Ġ":4276,"xuan3Ġwei4Ġ":4277,"qian3Ġ":4278,"cha4Ġ":4279,"Ġshe4Ġshi1Ġ":4280,"chu4ĠdeĠ":4281,"tu3Ġer3":4282,"Ġli4Ġsi1Ġ":4283,"bo2Ġte4Ġ":4284,"Ġzong3Ġmian4Ġji1Ġ":4285,"luo2Ġma3":4286,"chuang4Ġli4Ġ":4287,"ĠdeĠli4Ġ":4288,"Ġde2Ġli3Ġ":4289,"xĠ":4290,"guang3Ġchang3Ġ":4291,"lian2Ġhe2Ġguo2Ġ":4292,"ji2Ġshi2Ġ":4293,"geng1Ġming2Ġwei4Ġ":4294,"zao3Ġnian2Ġ":4295,"2023Ġnian2Ġ":4296,"xiao4Ġli4Ġ":4297,"qi4ĠdeĠ":4298,"jue2Ġding4":4299,"biao3Ġyan3Ġ":4300,"XĠ":4301,"yi2Ġshi4Ġ":4302,"reng2Ġran2Ġ":4303,"Ġjun1Ġzai4Ġ":4304,"fang1Ġmian4":4305,"Ġgai1Ġsheng3Ġ":4306,"Ġgeng4Ġ":4307,"zong3Ġtong3":4308,"zhi4Ġshi4Ġ":4309,"da1Ġ":4310,"Ġgong1Ġneng2Ġ":4311,"Ġren2Ġkou3Ġmi4Ġdu4Ġmei3Ġping2Ġfang1Ġgong1Ġli3Ġ":4312,"Ġren2Ġkou3Ġmi4Ġdu4Ġwei4Ġmei3":4313,"Ġxia4Ġling4Ġshi2Ġ":4314,"you2Ġzheng4Ġbian1Ġma3Ġwei4Ġ":4315,"cha2ĠdeĠshu4Ġju4Ġ":4316,"Ġju4Ġle4Ġbu4Ġ":4317,"Ġshi4Ġzhen4Ġbian1Ġma3Ġwei4Ġ":4318,"ĠINSEEĠshi4Ġzhen4Ġbian1Ġma3Ġwei4Ġ":4319,"Ġxian1Ġ":4320,"Ġzhen1Ġ":4321,"ĠĠĠbei4Ġ":4322,"biao1Ġzhun3":4323,"Ġshe4ĠdeĠ":4324,"xuan3Ġqu1Ġwei4Ġ":4325,"jiu3Ġnian2Ġ":4326,"Ġzai4Ġci3Ġ":4327,"Ġbu4Ġguo4":4328,"pai2Ġming2Ġ":4329,"Ġguo2Ġwang2Ġ":4330,"dong4Ġli4Ġ":4331,"shi2ĠdeĠren2Ġkou3Ġshu4Ġliang4Ġwei4Ġren2Ġ":4332,"jie1Ġrang3ĠdeĠshi4Ġzhen4Ġ":4333,"mei3Ġguo2Ġren2Ġkou3Ġpu3Ġcha2ĠdeĠshu4Ġju4Ġ":4334,"cong2Ġshi4Ġ":4335,"jia1Ġli4Ġ":4336,"Ġer2Ġren2Ġkou3Ġmi4Ġdu4Ġwei4Ġmei3":4337,"ge2Ġlan2":4338,"Ġdang1Ġdi4Ġgong4Ġyou3Ġren2Ġkou3Ġ":4339,"fen1Ġlei4Ġ":4340,"jie3Ġjue2Ġ":4341,"shi3Ġyong4ĠdeĠ":4342,"zu2ĠdeĠ":4343,"Ġfen1Ġzhong1Ġ":4344,"gou1Ġ":4345,"da4Ġbu4Ġfen4":4346,"yi1Ġzhong3Ġ":4347,"FĠ":4348,"lĠ":4349,"ling3Ġyu4Ġ":4350,"Ġhuo4Ġjiu4Ġshi4Ġzhen4Ġ":4351,"he2Ġshi4Ġ":4352,"ĠĠĠli4Ġ":4353,"Ġchu1Ġban3Ġ":4354,"yun4Ġying2Ġ":4355,"sheng3Ġji2Ġxuan3Ġqu1Ġwei4Ġ":4356,"ji1Ġji2Ġ":4357,"ĠdeĠyi1Ġbu4Ġfen4Ġ":4358,"shi2Ġshi4Ġ":4359,"Ġnian2Ġdu4Ġ":4360,"er2ĠziĠ":4361,"zuo4Ġpin3":4362,"Ġxiang4":4363,"Ġzheng4Ġshi4Ġ":4364,"xuan3Ġren2Ġ":4365,"gai4Ġnian4Ġ":4366,"xing1ĠdeĠ":4367,"Ġer3Ġde2Ġ":4368,"sheng3Ġhe2Ġ":4369,"jie1Ġshou4":4370,"tiao2Ġyue1Ġ":4371,"Ġjin3Ġguan3Ġ":4372,"fen4Ġwei4Ġfa3Ġguo2Ġ":4373,"Ġgai1Ġsheng3Ġfen4Ġwei4Ġfa3Ġguo2Ġ":4374,"Ġchu1Ġban3":4375,"Ġzhi1Ġxian4Ġ":4376,"tie3Ġdao4Ġ":4377,"lian2Ġbang1":4378,"Ġdi4Ġsan1":4379,"Ġer2Ġqie3Ġ":4380,"Ġjun1Ġdui4Ġ":4381,"Ġsong4Ġ":4382,"guang3Ġzhou1Ġ":4383,"Ġbu4Ġjiu3Ġ":4384,"ao4Ġda4Ġli4Ġ":4385,"ĠĠĠ18":4386,"Ġwei4Ġshi2Ġ":4387,"Ġxi1Ġla4":4388,"fu2Ġjian4Ġ":4389,"Ġqing1":4390,"Ġhe2Ġbing4":4391,"Ġhan2Ġ":4392,"ba1Ġnian2Ġ":4393,"zhan4Ġzheng1":4394,"Ġyou3Ġren2Ġ":4395,"pai2Ġming2":4396,"zhan4Ġshi4Ġ":4397,"jin3Ġbiao1Ġsai4Ġ":4398,"zui4Ġhou4Ġyi1Ġ":4399,"jing3Ġcha2Ġ":4400,"qun2Ġdao3Ġ":4401,"lai2Ġyuan2Ġ":4402,"te4Ġbie2":4403,"Ġta1Ġbei4Ġ":4404,"Ġjiang3Ġ":4405,"xing1Ġjian4Ġ":4406,"Ġxiao1Ġ":4407,"lun2Ġdun1":4408,"Ġdui4":4409,"Ġwan4Ġren2Ġ":4410,"Ġchu1Ġsheng1Ġyu2Ġ":4411,"she4Ġli4Ġ":4412,"reng2Ġran2":4413,"di4Ġyi1Ġ":4414,"Ġri4ĠdeĠ":4415,"Ġruo4Ġ":4416,"ben3ĠdeĠ":4417,"wei3Ġhui4Ġ":4418,"Ġyou2Ġxi4":4419,"Ġkai1Ġshi3Ġ":4420,"Ġren2Ġgong1Ġ":4421,"xue2Ġxiao4":4422,"shan3Ġxi1Ġ":4423,"tong1Ġchang2":4424,"tian1Ġwen2Ġ":4425,"Ġyi4Ġwei4Ġ":4426,"Ġzhi4Ġyu2Ġ":4427,"lie4Ġwei4Ġ":4428,"ceng2Ġzai4Ġ":4429,"Ġbu4Ġming2Ġ":4430,"mu3Ġsi1Ġ":4431,"Ġming2Ġchao2Ġ":4432,"yun4Ġxing2Ġ":4433,"mei3Ġzhou1Ġ":4434,"Ġgeng4":4435,"cai3Ġyong4":4436,"Ġdi4Ġsi4Ġ":4437,"ang2Ġ":4438,"ao4Ġsi1Ġ":4439,"yan2Ġjiu1Ġsuo3Ġ":4440,"rou4Ġ":4441,"guang3Ġfan4Ġ":4442,"Ġxian4Ġlu4Ġ":4443,"ceĠ":4444,"meng2Ġgu3Ġ":4445,"Ġshi4Ġbu4Ġ":4446,"yi3Ġji2Ġ":4447,"Ġhe2Ġping2Ġ":4448,"hua4Ġshi2Ġ":4449,"jia1Ġru4Ġ":4450,"ĠĠĠta1":4451,"zhan4Ġhou4Ġ":4452,"nan2Ġji2Ġ":4453,"shuo1Ġfa3Ġ":4454,"gan3Ġran3Ġ":4455,"Ġdi2Ġ":4456,"xi1Ġzai4Ġ":4457,"Ġrang4":4458,"Ġjin4ĠdeĠ":4459,"Ġren4Ġwei2":4460,"Ġji1Ġben3Ġ":4461,"Ġju4Ġli2Ġ":4462,"Ġfei4Ġ":4463,"mo2Ġxing2Ġ":4464,"Ġjiao1Ġ":4465,"guo4Ġcheng2Ġzhong1Ġ":4466,"ĠdeĠdi4Ġfang1Ġ":4467,"wu2Ġren2Ġ":4468,"ĠdeĠxin1Ġ":4469,"ji4Ġshu4Ġ":4470,"Ġjian4Ġyi4Ġ":4471,"Ġta1Ġyu3Ġ":4472,"yun4Ġshu1Ġ":4473,"gou4Ġmai3":4474,"Ġfan4Ġ":4475,"wan2Ġquan2":4476,"wu3Ġshi2Ġ":4477,"Ġke4ĠdeĠ":4478,"ren4Ġwei2Ġshi4Ġ":4479,"Ġzai4Ġyi4Ġ":4480,"Ġge4Ġdi4Ġ":4481,"Ġda2Ġ":4482,"ban4Ġgong1Ġshi4Ġ":4483,"Ġ10Ġyue4Ġ":4484,"tong2Ġyi1Ġ":4485,"duo1Ġge4Ġ":4486,"wai4Ġguo2Ġ":4487,"Ġzong3Ġren2Ġkou3Ġ":4488,"xue2Ġshi4Ġ":4489,"jia4Ġzhi2Ġ":4490,"shang4Ġyou3Ġ":4491,"yuan2Ġwei4Ġ":4492,"ngĠ":4493,"Ġc":4494,"Ġcan1Ġ":4495,"fei1Ġxing2Ġ":4496,"gong1Ġzuo4Ġ":4497,"Ġzi4Ġji3Ġ":4498,"ni2Ġsi1Ġ":4499,"Ġzai4Ġzhong1Ġguo2Ġ":4500,"xue2Ġxi2Ġ":4501,"zhao3Ġ":4502,"yang3Ġhua4Ġ":4503,"Ġshou4":4504,"Ġchen2":4505,"quan1Ġ":4506,"ĠÎ":4507,"Ġai1":4508,"qi3Ġlai2Ġ":4509,"xuan1Ġchuan2Ġ":4510,"mo4Ġxi1Ġ":4511,"Ġyi1Ġxie1":4512,"xuan3Ġze2":4513,"cheng1Ġwei4Ġ":4514,"xiao1Ġxi1Ġ":4515,"Ġxian4Ġren2Ġ":4516,"ĠdeĠguan1Ġ":4517,"hai3Ġjun1":4518,"biao1Ġzhi4Ġ":4519,"Ġbu4Ġmen2Ġ":4520,"zhi4Ġwei4Ġ":4521,"Ġnian2Ġhou4Ġ":4522,"you2Ġxi4":4523,"ma2Ġ":4524,"huan2Ġjing4":4525,"fu4Ġze2Ġguan3Ġxia2Ġ":4526,"Ġwei2Ġzhu3Ġ":4527,"Ġshi3Ġyong4Ġ":4528,"jie4Ġquan2Ġguo2Ġ":4529,"xi4Ġbao1Ġ":4530,"Ġxing1Ġ":4531,"gou4Ġcheng2Ġ":4532,"che1Ġliang4Ġ":4533,"shi1ĠdeĠ":4534,"zhe2Ġxue2Ġ":4535,"an4ĠdeĠ":4536,"ĠĠĠyi3Ġ":4537,"1999Ġnian2Ġ":4538,"keng1Ġ":4539,"Ġji4Ġhua4":4540,"si1Ġzai4Ġ":4541,"zheng4ĠdeĠ":4542,"an1Ġquan2":4543,"dang3ĠdeĠ":4544,"Ġke1":4545,"Ġlin2":4546,"bi3Ġde2Ġ":4547,"Ġdao4Ġlu4Ġ":4548,"chao2Ġxian1Ġ":4549,"yin2Ġhang2":4550,"xi1ĠdeĠ":4551,"Ġshi4Ġmei3Ġguo2Ġ":4552,"Ġshi4Ġtu2Ġ":4553,"Ġan4Ġ":4554,"zhong1Ġzai4Ġ":4555,"Ġji4Ġnian4Ġ":4556,"zhu3Ġjue2Ġ":4557,"kĠ":4558,"si4Ġchuan1Ġ":4559,"bu4Ġwei4Ġ":4560,"Ġji2Ġqi2Ġ":4561,"peng2Ġyou3Ġ":4562,"Ġer4":4563,"Ġhua1Ġ":4564,"chi2Ġxu4":4565,"ai4Ġer3Ġ":4566,"24Ġ":4567,"Ġgong1Ġgong4Ġ":4568,"Ġzhi1Ġchi2":4569,"kang4Ġyi4Ġ":4570,"LĠ":4571,"ĠĠĠyou3Ġ":4572,"yue1Ġwei4Ġ":4573,"tai4Ġguo2Ġ":4574,"Ġer2Ġqie3":4575,"ĠĠĠV":4576,"jie1Ġwei4Ġ":4577,"xuan3Ġqu1Ġ":4578,"Ġying1Ġchi3Ġ":4579,"shi2Ġzai4Ġ":4580,"yi4Ġhe2Ġ":4581,"hui4Ġyou3Ġ":4582,"sheng1Ġwu4Ġ":4583,"xiao4Ġzhang3Ġ":4584,"wen2Ġjian4Ġ":4585,"Ġbei4Ġer3Ġ":4586,"ge1Ġqu3":4587,"Ġfan3Ġ":4588,"shou1Ġru4Ġ":4589,"Ġjie2Ġzhi4Ġ":4590,"Ġtai2Ġwan1":4591,"man4Ġhua4Ġ":4592,"Ġda3Ġ":4593,"biao1Ġwei4Ġ":4594,"Ġjie4":4595,"fo2Ġjiao4Ġ":4596,"rong2Ġyi4Ġ":4597,"ĠĠĠhe2Ġ":4598,"Ġdou1Ġ":4599,"ĠĠĠshi2Ġ":4600,"ao4Ġyun4":4601,"suo3Ġshu3ĠdeĠsheng3Ġji2Ġxuan3Ġqu1Ġwei4Ġ":4602,"ĠĠĠche1Ġzhan4Ġ":4603,"Ġsheng1Ġwu4Ġ":4604,"yan3ĠdeĠ":4605,"bian1Ġji2Ġ":4606,"qian4Ġ":4607,"Ġzhan4Ġzheng1":4608,"si1Ġdi4Ġ":4609,"ye3Ġyou3Ġ":4610,"qian2Ġwang3":4611,"Ġruo4":4612,"yu3Ġyan2Ġ":4613,"zheng4Ġce4Ġ":4614,"ji4Ġzhong1Ġ":4615,"mi3Ġer3Ġ":4616,"jun1Ġdui4Ġ":4617,"Ġqiang2Ġ":4618,"jie3Ġfang4Ġjun1Ġ":4619,"OĠ":4620,"tiao3Ġzhan4Ġ":4621,"Ġyuan2Ġzhu4Ġ":4622,"Ġchu1ĠleĠ":4623,"ao4Ġyun4Ġ":4624,"Ġzhi4Ġdu4Ġ":4625,"1998Ġnian2Ġ":4626,"Ġyou4Ġcheng1Ġ":4627,"gao1Ġyu2Ġ":4628,"Ġshi4Ġyi2Ġge4":4629,"Ġhuo4Ġshi4Ġ":4630,"gĠ":4631,"gan3Ġdao4Ġ":4632,"nan2Ġxing4Ġ":4633,"Ġyi3Ġshang4Ġ":4634,"ma3Ġli4Ġ":4635,"gai3Ġbian4Ġ":4636,"kun1Ġ":4637,"tou2Ġru4Ġ":4638,"Ġchang3Ġ":4639,"ĠĠĠ2021":4640,"Ġdi4Ġxia4Ġ":4641,"fo2Ġ":4642,"jie1Ġrang3Ġ":4643,"pei4Ġhe2Ġ":4644,"zhi3Ġhui1":4645,"jia1Ġren2Ġ":4646,"wen3Ġding4Ġ":4647,"zha1Ġ":4648,"MĠ":4649,"Ġzhong1Ġyou3Ġ":4650,"Ġzai4Ġbu4Ġ":4651,"ti2Ġming2Ġ":4652,"da2Ġcheng2Ġ":4653,"2024Ġnian2Ġ":4654,"Ġyi1Ġzhong3Ġ":4655,"ru3Ġ":4656,"ne4Ġ":4657,"mo4Ġsi1Ġ":4658,"fen1Ġzhi1Ġ":4659,"zai4Ġshi4Ġ":4660,"tong2ĠdeĠ":4661,"jian3Ġjie4Ġ":4662,"shen1Ġfen4":4663,"Ġyu4":4664,"tian1Ġzhu3Ġjiao4Ġ":4665,"Ġzhong1Ġguo2Ġren2Ġmin2Ġ":4666,"biao3Ġming2Ġ":4667,"duo2ĠdeĠ":4668,"ting2Ġzhi3Ġ":4669,"Ġque4":4670,"anĠ":4671,"Ġyan3Ġ":4672,"Ġer2Ġren2Ġkou3Ġmi4Ġdu4Ġwei4Ġmei3Ġping2Ġfang1Ġqian1Ġmi3Ġ":4673,"xiao3ĠdeĠ":4674,"Ġzi4":4675,"zheng4Ġshi2Ġ":4676,"ce4ĠdeĠ":4677,"zao4ĠdeĠ":4678,"Ġwei4Ġfu2":4679,"Ġhai2Ġyou3Ġ":4680,"juan1Ġ":4681,"que4Ġzhen3":4682,"Ġtong1Ġguo4Ġ":4683,"ĠĠĠ2020":4684,"Ġji1Ġbai4Ġ":4685,"Ġnian2Ġchu1Ġ":4686,"ban4Ġdao3Ġ":4687,"guo2Ġzai4Ġ":4688,"wu3Ġqi4Ġ":4689,"ta1ĠmenĠ":4690,"ĠĠĠyuan2Ġ":4691,"Ġjia1Ġna2Ġda4Ġ":4692,"Ġping2Ġfang1Ġmi3Ġ":4693,"zi4Ġzhi4Ġqu1Ġ":4694,"Ġ8Ġyue4Ġ":4695,"inĠ":4696,"la1Ġke4Ġ":4697,"lei4ĠdeĠ":4698,"hun4Ġhe2Ġ":4699,"Ġzi4Ġyou2Ġ":4700,"ĠĠĠzi4Ġ":4701,"Ġzai4Ġmei3Ġguo2Ġ":4702,"Ġshi2Ġyan4":4703,"Ġti2Ġ":4704,"ju3Ġren2Ġ":4705,"zui4Ġzao3":4706,"tuan2Ġdui4Ġ":4707,"di4Ġshi4Ġ":4708,"ke3Ġneng2Ġhui4Ġ":4709,"Ġpi2Ġ":4710,"ya1Ġli4Ġ":4711,"RĠ":4712,"quan2Ġbu4Ġ":4713,"Ġsu1":4714,"ji4Ġwei4Ġ":4715,"Ġer2Ġbei4Ġ":4716,"ji4Ġhua4Ġ":4717,"Ġji4Ġcheng2Ġ":4718,"gong4Ġxian4Ġ":4719,"xi1Ġban1Ġya2Ġ":4720,"ĠU":4721,"Ġshi2Ġshi1Ġ":4722,"jie2Ġmu4":4723,"Ġli2Ġ":4724,"Ġjie2Ġguo3Ġ":4725,"ĠThe":4726,"ngĠĠĠ":4727,"Ġdi4Ġtie3Ġ":4728,"Ġbo1":4729,"sheng1Ġchan3":4730,"lai2Ġshuo1Ġ":4731,"zhe4Ġzhong3Ġ":4732,"pĠ":4733,"li4Ġbu4Ġ":4734,"chan3Ġye4Ġ":4735,"Ġwang2":4736,"xing2Ġdong4Ġ":4737,"fan1Ġyi4Ġ":4738,"Ġqi1Ġjian1Ġ":4739,"Ġchu1Ġren4Ġ":4740,"Ġping2":4741,"shao3Ġshu4Ġ":4742,"cao1Ġzuo4Ġ":4743,"jian3Ġcha2Ġ":4744,"ban4Ġshi4Ġ":4745,"jia1Ġna2Ġda4Ġ":4746,"ying3Ġpian4Ġ":4747,"chong1Ġtu1Ġ":4748,"Ġzai4Ġda4Ġ":4749,"Ġta1Ġyu2Ġ":4750,"bao3Ġhu4":4751,"ji4Ġnian4Ġ":4752,"Ġzhuan1Ġ":4753,"an4Ġjian4Ġ":4754,"fen1Ġbie2Ġ":4755,"ceng2Ġjing1Ġ":4756,"chong2Ġjian4Ġ":4757,"shou3ĠdeĠ":4758,"ampĠ":4759,"Ġjian4Ġzhu4":4760,"rĠ":4761,"Ġmu4":4762,"Ġshi4Ġyi3Ġ":4763,"xin1Ġli3Ġ":4764,"xing2Ġwei2Ġ":4765,"Ġbei4":4766,"gong4Ġtong2":4767,"nan4Ġ":4768,"Ġshi2Ġfen1Ġ":4769,"Ġan1":4770,"dong4ĠdeĠ":4771,"kong1Ġjun1Ġ":4772,"ban4Ġgong1Ġ":4773,"Ġzhi3Ġyou3Ġ":4774,"Ġshi3ĠdeĠ":4775,"da4Ġbu4Ġfen4Ġ":4776,"Ġxian4Ġwei4Ġ":4777,"qi1Ġjian1":4778,"yang1Ġ":4779,"Ġzhi4Ġzuo4":4780,"jie2Ġgou4":4781,"lian2Ġsai4":4782,"lian2Ġxu4Ġ":4783,"jue2Ġse4":4784,"Ġyi4Ġyou3Ġ":4785,"Ġli4Ġru2":4786,"ji2Ġzai4Ġ":4787,"shen1ĠdeĠ":4788,"Ġhe2Ġbei3Ġ":4789,"Ġwei4Ġneng2Ġ":4790,"xiang1Ġdui4Ġ":4791,"mei2Ġti3":4792,"zhu3Ġti2Ġ":4793,"jian3Ġshao3Ġ":4794,"Ġmen2Ġ":4795,"ou1Ġyuan2Ġ":4796,"Ġhe2Ġliu2Ġ":4797,"gong1Ġyuan2Ġ":4798,"xiao3Ġzu3Ġ":4799,"tou4Ġ":4800,"Ġyou4Ġming2Ġ":4801,"tong4Ġ":4802,"Ġyi3Ġse4Ġ":4803,"fen4Ġzi3Ġ":4804,"xian4Ġdai4Ġ":4805,"Ġshi4Ġyi1Ġming2Ġ":4806,"Ġti3Ġzhang3Ġ":4807,"ĠĠĠ2019":4808,"Ġxi1Ġwang4Ġ":4809,"ying4ĠdeĠ":4810,"wei3Ġyuan2Ġhui4":4811,"zhe4Ġge":4812,"ming4Ġming2Ġwei4Ġ":4813,"Ġgong1Ġsi1ĠdeĠ":4814,"Ġliang3Ġren2Ġ":4815,"Ġbian1Ġ":4816,"yi4Ġzai4Ġ":4817,"dong4Ġji1Ġ":4818,"da3Ġji1Ġ":4819,"ĠdeĠdi4Ġqu1Ġ":4820,"zhan3Ġshi4Ġ":4821,"zhuo2Ġ":4822,"Ġhai2":4823,"Ġzhi2Ġzhi4Ġ":4824,"Ġhu4Ġ":4825,"Ġshe4Ġqu1Ġ":4826,"Ġji4Ġxu4":4827,"gui1Ġmo2":4828,"shou3Ġwei4Ġ":4829,"xun2Ġhui2Ġ":4830,"Ġsi1Ġling4":4831,"shu4Ġliang4Ġ":4832,"xia4Ġwu3Ġ":4833,"Ġchuan2Ġ":4834,"1996Ġnian2Ġ":4835,"yong4Ġlai2Ġ":4836,"lu4Ġdi4Ġmian4Ġji1Ġwei4Ġ":4837,"shui3Ġyu4Ġmian4Ġji1Ġwei4Ġ":4838,"Ġli4Ġji2Ġ":4839,"qi3Ġyong4Ġ":4840,"lei4Ġxing2Ġ":4841,"ren4Ġwu4Ġ":4842,"Ġguo2Ġli4Ġ":4843,"Ġshi2Ġzi4Ġ":4844,"Ġyi1Ġci4Ġ":4845,"duo1Ġci4Ġ":4846,"enĠ":4847,"ping2Ġjia4Ġ":4848,"bu4Ġshi4Ġ":4849,"Ġ2009Ġnian2Ġ":4850,"Ġfu4Ġjin4Ġ":4851,"fu2Ġhe2Ġ":4852,"ju3Ġxing2ĠdeĠ":4853,"ĠdeĠshou3Ġ":4854,"ĠĠĠ2018":4855,"wai4Ġjiao1Ġ":4856,"ti3Ġxi4Ġ":4857,"Ġzhe4Ġjiang1Ġ":4858,"nĠĠĠ":4859,"Ġling2Ġ":4860,"1997Ġnian2Ġ":4861,"Ġda4Ġshi3Ġ":4862,"liang3Ġge4":4863,"zuo4Ġjia1Ġ":4864,"Ġshe4Ġbei4Ġ":4865,"mei3Ġnian2Ġ":4866,"Ġzhen4Ġ":4867,"Ġli4Ġfa3Ġ":4868,"anĠĠĠ":4869,"zhu4Ġyi4Ġ":4870,"ĠampĠ":4871,"dian4Ġli4Ġ":4872,"de2Ġdao4Ġ":4873,"kui2Ġ":4874,"Ġsi1Ġling4Ġ":4875,"Ġcong2Ġer2Ġ":4876,"kao4Ġ":4877,"jiao4Ġtang2Ġ":4878,"fa3Ġlv4":4879,"Ġdang1Ġzhong1Ġlu4Ġdi4Ġmian4Ġji1Ġwei4Ġ":4880,"zhi4Ġhe2Ġ":4881,"zhi2ĠdeĠ":4882,"Ġer2Ġshui3Ġyu4Ġmian4Ġji1Ġwei4Ġ":4883,"qu3Ġxiao1Ġ":4884,"jie2Ġzhi4Ġ":4885,"sheng1Ġhuo2":4886,"fu2Ġwu4":4887,"xue2Ġzhe3Ġ":4888,"ĠĠĠ2022":4889,"ĠĠĠxi1Ġ":4890,"hai3Ġyu4Ġ":4891,"shui3Ġping2Ġ":4892,"dian1Ġ":4893,"nei4Ġrong2":4894,"ying1Ġge2Ġlan2Ġ":4895,"Ġzhi1Ġshi2Ġ":4896,"zhu4Ġzuo4Ġ":4897,"Ġlie4Ġ":4898,"Ġ9Ġyue4Ġ":4899,"Ġda4Ġchen2Ġ":4900,"Ġcheng2Ġli4Ġyu2Ġ":4901,"ĠĠĠgai4Ġ":4902,"tuo4Ġ":4903,"lun2Ġdun1Ġ":4904,"lv3Ġke4Ġ":4905,"zhi4Ġzai4Ġ":4906,"jie1Ġjin4Ġ":4907,"chang2Ġqi1Ġ":4908,"Ġxin1Ġwen2Ġ":4909,"Ġwei2Ġer3Ġ":4910,"gao1Ġsu4":4911,"ling4Ġwai4Ġ":4912,"tai4Ġyang2Ġ":4913,"ĠĠĠxing2Ġzheng4Ġqu1Ġhua4Ġ":4914,"ren4Ġming4":4915,"Ġjia1Ġshang4Ġ":4916,"bi3Ġsai4Ġzhong1Ġ":4917,"guo1Ġ":4918,"yuan4Ġzhang3Ġ":4919,"dian3ĠdeĠ":4920,"ji3Ġyu3Ġ":4921,"xi1Ġyang2Ġ":4922,"Ġyi3Ġhou4Ġ":4923,"Ġbian4":4924,"Ġjun1Ġwei4Ġ":4925,"min2ĠdeĠ":4926,"shuo4Ġshi4Ġ":4927,"cĠ":4928,"Ġde2ĠdeĠ":4929,"wei1Ġlian2Ġ":4930,"wei3Ġshu1Ġji4Ġ":4931,"Ġyi4Ġren2Ġ":4932,"jia1Ġhe2Ġ":4933,"1992Ġnian2Ġ":4934,"Ġxiao4Ġ":4935,"dao3Ġyu3Ġ":4936,"pi1Ġzhun3Ġ":4937,"dai4Ġyou3Ġ":4938,"heng1Ġli4Ġ":4939,"Ġguang3Ġ":4940,"Ġshi4Ġyi1Ġwei4Ġ":4941,"Ġxue2Ġxiao4":4942,"can1Ġyu4":4943,"Ġwei4Ġfu2Ġqi2Ġyu2Ġ":4944,"Ġ7Ġyue4Ġ":4945,"ci4Ġshi4Ġjie4Ġda4Ġzhan4Ġ":4946,"Ġshi4Ġqu1Ġ":4947,"fa1Ġchu1Ġ":4948,"quan4Ġ":4949,"xing4Ġzhi4Ġ":4950,"yan3Ġchang4Ġhui4Ġ":4951,"Ġyuan2Ġyin1Ġ":4952,"tao3Ġlun4Ġ":4953,"ĠformulaĠ":4954,"tui4Ġyi4Ġ":4955,"feng1Ġbao4Ġ":4956,"bi3Ġya4Ġ":4957,"ji1Ġzhi4Ġ":4958,"xin4Ġhao4Ġ":4959,"ya4ĠdeĠ":4960,"neng2Ġgou4":4961,"ĠĠĠyi4Ġ":4962,"shou4Ġshang1Ġ":4963,"Ġjian4Ġcheng2Ġ":4964,"lian2Ġxi4Ġ":4965,"Ġmeng2Ġ":4966,"wei4Ġzhi4Ġ":4967,"KĠ":4968,"ĠĠĠ2017":4969,"bao3Ġchi2Ġ":4970,"bi4Ġxu1":4971,"Ġru2Ġguo3":4972,"ru2Ġhe2Ġ":4973,"Ġti3Ġzhang3Ġke3Ġda2Ġ":4974,"Ġhui2Ġ":4975,"zhuan1Ġjia1Ġ":4976,"Ġer3Ġte4Ġ":4977,"fu1Ġren2Ġ":4978,"jiang3Ġxiang4Ġ":4979,"cha1Ġyi4Ġ":4980,"Ġtuo1Ġ":4981,"wo1Ġ":4982,"Ġji1Ġgou4":4983,"shou4Ġyu3Ġ":4984,"Ġzai4Ġyu2Ġ":4985,"ĠdeĠyi1Ġzuo4Ġ":4986,"Ġjing1Ġguo4Ġ":4987,"Ġtong1Ġchang2Ġ":4988,"Ġ2010Ġnian2Ġ":4989,"wang3Ġlu4Ġ":4990,"jing1Ġying2Ġ":4991,"Ġ12Ġyue4Ġ":4992,"Ġmin2Ġguo2Ġ":4993,"tan1Ġ":4994,"gong4Ġchan3Ġdang3":4995,"dian4Ġtai2Ġ":4996,"Ġci2Ġ":4997,"dong1Ġxi1Ġ":4998,"Ġke4Ġli3Ġ":4999,"Ġsheng1Ġchan3Ġ":5000,"Ġbu4Ġli3Ġ":5001,"Ġ21Ġ":5002,"Ġyi3Ġxia4":5003,"sui2Ġhou4Ġ":5004,"cun1Ġzhuang1Ġ":5005,"Ġ11Ġyue4Ġ":5006,"lai2Ġdao4Ġ":5007,"Ġzhi1Ġzhong1Ġ":5008,"xi4Ġlie4":5009,"bi4Ġye4Ġyu2Ġ":5010,"xun4Ġlian4":5011,"cuo4Ġshi1Ġ":5012,"fa3ĠdeĠ":5013,"15Ġ":5014,"Ġyi4Ġshu4":5015,"zong3Ġdu1Ġ":5016,"50Ġ":5017,"zhu4Ġming2ĠdeĠ":5018,"Ġshi4Ġyou3Ġ":5019,"lang4Ġ":5020,"Ġjian4Ġdui4Ġ":5021,"kuai4Ġsu4Ġ":5022,"zhu4Ġyu2Ġ":5023,"Ġchang2":5024,"1994Ġnian2Ġ":5025,"Ġshi2Ġren4Ġ":5026,"Ġyi1Ġsheng1Ġ":5027,"gu1Ġji4Ġ":5028,"hai2ĠziĠ":5029,"Ġer3Ġhe2Ġ":5030,"tai4Ġping2Ġyang2Ġ":5031,"yan2Ġge2Ġ":5032,"Ġzhu1":5033,"ĠĠĠ2016":5034,"tong2Ġyi4Ġ":5035,"leĠda4Ġ":5036,"sheng1Ġwei4Ġ":5037,"she2Ġ":5038,"dao3Ġshi4Ġ":5039,"cheng2Ġgong1Ġ":5040,"si4Ġge4Ġ":5041,"fa1Ġdian4Ġ":5042,"Ġjie2Ġmu4Ġ":5043,"Ġrang4Ġ":5044,"Ġshang4Ġhai3":5045,"zhan4Ġzhong1Ġ":5046,"ĠdeĠqian2Ġ":5047,"Ġren2Ġlei4Ġ":5048,"jie2Ġshu4Ġhou4Ġ":5049,"Ġgui1Ġ":5050,"Ġde2Ġyi3Ġ":5051,"pu3Ġtong1Ġ":5052,"ĠdeĠshi2Ġqu1Ġwei4Ġ":5053,"ĠĠĠJ":5054,"yu3Ġzhong1Ġ":5055,"Ġzheng4Ġce4Ġ":5056,"Ġming2Ġcheng1Ġ":5057,"che4Ġxiao1Ġ":5058,"Ġhuo3Ġ":5059,"shang3Ġ":5060,"tou2Ġpiao4Ġ":5061,"Ġtw":5062,"ĠĠĠzhi4Ġ":5063,"di3Ġda2Ġ":5064,"Ġyin4Ġdu4Ġ":5065,"Ġjin3Ġguan3":5066,"zhai2Ġ":5067,"ju2Ġzhang3Ġ":5068,"ĠdeĠshi2Ġjian1Ġ":5069,"geng4Ġjia1Ġ":5070,"miao3Ġ":5071,"fan3Ġhui2Ġ":5072,"1995Ġnian2Ġ":5073,"zhe4Ġxie1":5074,"Ġwei4Ġsheng1Ġ":5075,"zu3Ġcheng2ĠdeĠ":5076,"Ġsheng4":5077,"yue4Ġtai2Ġ":5078,"Ġping2Ġtai2Ġ":5079,"guang3Ġxi1Ġ":5080,"fei3Ġ":5081,"ha1Ġer3Ġ":5082,"hansĠ":5083,"kuo4Ġda4Ġ":5084,"ĠhansĠ":5085,"yi4Ġzhong1Ġ":5086,"deng1Ġlu4Ġ":5087,"Ġyang2":5088,"rong2Ġyu4Ġ":5089,"ĠtwĠ":5090,"yue4Ġshi2Ġ":5091,"fa1ĠdeĠ":5092,"zhong4Ġda4Ġ":5093,"Ġfang1Ġ":5094,"lu4Ġyi4Ġ":5095,"que4Ġding4Ġ":5096,"Ġqi1":5097,"Ġqian2":5098,"ĠĠĠI":5099,"zhi3Ġzai4Ġ":5100,"alĠ":5101,"Ġshi4Ġyan3Ġ":5102,"Ġgai3":5103,"ye4Ġhou4Ġ":5104,"25Ġ":5105,"Ġbu4Ġke3Ġ":5106,"Ġbing4Ġmei2Ġyou3Ġ":5107,"Ġsa4Ġ":5108,"Ġci3Ġshi2Ġ":5109,"ĠĠĠdeĠshi2Ġ":5110,"jin4Ġxing2":5111,"qi4Ġche1Ġ":5112,"Ġs":5113,"Ġwang3Ġ":5114,"Ġa1Ġer3Ġ":5115,"Ġxue2Ġxi2Ġ":5116,"Ġcheng1":5117,"wan3Ġshang4Ġ":5118,"jiao4Ġqu1Ġ":5119,"xiao1Ġshou4Ġ":5120,"Ġmu4Ġqian2":5121,"ming2Ġcheng1Ġ":5122,"gai3Ġbian1":5123,"ya4Ġli4Ġshan1":5124,"Ġ189":5125,"wu4Ġzhong3":5126,"guan1Ġzhong4Ġ":5127,"Ġguo2Ġwu4Ġ":5128,"Ġzhi1Ġyuan2Ġ":5129,"yuan4ĠdeĠ":5130,"Ġzhong1ĠdeĠ":5131,"ĠĠĠ2023":5132,"ba1Ġxi1Ġ":5133,"Ġgong1Ġye4":5134,"ru4Ġkou3Ġ":5135,"ba1Ġli2Ġ":5136,"Ġhuo4Ġzhe3Ġ":5137,"xiang1Ġtong2Ġ":5138,"ban3ĠdeĠ":5139,"ĠĠĠ2014":5140,"xue2Ġhe2Ġ":5141,"sun3Ġshi1Ġ":5142,"biao3Ġxian4":5143,"nai3Ġ":5144,"Ġshi2Ġxian4Ġ":5145,"xi1Ġla4":5146,"guan1Ġzhu4Ġ":5147,"fa1Ġxian4ĠleĠ":5148,"kan4Ġdao4Ġ":5149,"qi1Ġzi3Ġ":5150,"Ġceng2Ġren4Ġ":5151,"po4Ġhuai4Ġ":5152,"Ġlv4Ġ":5153,"qiang3Ġ":5154,"andĠĠĠ":5155,"Ġbing4Ġyi3Ġ":5156,"ĠÑ":5157,"pan1Ġ":5158,"xiong1Ġya2":5159,"Ġ6Ġyue4Ġ":5160,"ĠĠĠsuo3Ġshu3ĠdeĠsheng3Ġji2Ġxuan3Ġqu1Ġwei4Ġ":5161,"ĠĠĠdeĠyou2Ġzheng4Ġbian1Ġma3Ġwei4Ġ":5162,"ĠĠĠyu3Ġjie1Ġrang3ĠdeĠshi4Ġzhen4Ġ":5163,"ĠĠĠyu2Ġshi2ĠdeĠren2Ġkou3Ġshu4Ġliang4Ġwei4Ġren2Ġ":5164,"ĠĠĠdeĠshi2Ġqu1Ġwei4Ġ":5165,"zhuang1Ġzhi4Ġ":5166,"zhi2Ġwei4Ġ":5167,"22Ġ":5168,"Ġ2011":5169,"ji4Ġhe2Ġ":5170,"kai1Ġfang4":5171,"Ġzuo4Ġyong4Ġ":5172,"Ġquan2Ġzhang3Ġ":5173,"tu2Ġzhong1Ġ":5174,"su1Ġlian2":5175,"Ġxia4":5176,"can2Ġ":5177,"xu1Ġqiu2Ġ":5178,"lin2ĠdeĠ":5179,"Ġzhi1Ġming2Ġ":5180,"leĠĠĠ":5181,"Ġsi1Ġla1Ġ":5182,"shi2Ġwei4Ġ":5183,"heng2Ġxing1Ġ":5184,"mu3Ġqin1Ġ":5185,"tui1Ġdong4Ġ":5186,"wei2ĠdeĠ":5187,"Ġshi4Ġzhang3Ġ":5188,"Ġquan2Ġbu4Ġ":5189,"ĠĠĠji1Ġ":5190,"ru4Ġqin1Ġ":5191,"Ġchuang4Ġ":5192,"tai2Ġbei3Ġ":5193,"guan3Ġli3":5194,"Ġ2019":5195,"fu4ĠdeĠ":5196,"Ġjia1Ġting2Ġ":5197,"ru2Ġci3Ġ":5198,"Ġhk":5199,"yi2Ġdong4Ġ":5200,"yu3Ġhe2Ġ":5201,"Ġyi1Ġdai4Ġ":5202,"jin4Ġshi4Ġ":5203,"Ġchu1Ġxian4Ġzai4Ġ":5204,"fu4Ġqin1Ġ":5205,"zhe4Ġjiang1Ġ":5206,"Ġnian2Ġqing1":5207,"xiong1Ġya2Ġli4Ġ":5208,"ĠĠĠ2015":5209,"mu4Ġsi1Ġ":5210,"1991Ġnian2Ġ":5211,"Ġren2Ġshu4Ġ":5212,"Ġdan4Ġta1Ġ":5213,"Ġxi1Ġban1Ġya2":5214,"min2Ġzu2":5215,"guang3Ġbo1":5216,"zui4Ġchu1Ġ":5217,"tai2ĠdeĠ":5218,"16Ġ":5219,"Ġdi4Ġqiu2Ġ":5220,"Ġshi4Ġzhi3Ġ":5221,"Ġxiang3":5222,"ti2Ġsheng1Ġ":5223,"fei1Ġjian4Ġzhi4Ġ":5224,"Ġgan1Ġ":5225,"GĠ":5226,"Ġche1Ġzhan4Ġ":5227,"Ġ5Ġyue4Ġ":5228,"shu4Ġxue2Ġ":5229,"xun4Ġsu4Ġ":5230,"ĠhkĠ":5231,"Ġsi1Ġtan3Ġ":5232,"Ġduan4Ġ":5233,"Ġwei4Ġhe2Ġ":5234,"Ġbing4Ġli4Ġ":5235,"Ġcheng2Ġwei2ĠleĠ":5236,"ĠĠĠ2013":5237,"Ġjin3":5238,"niu3Ġyue1Ġ":5239,"fa1Ġxing2":5240,"zong3Ġbu4Ġ":5241,"Ġjin4Ġru4":5242,"te4Ġli3Ġ":5243,"kang4Ġri4Ġ":5244,"Ġhe2Ġxin1Ġ":5245,"Ġge4Ġzhong3Ġ":5246,"Ġjing1":5247,"gao3Ġ":5248,"ming2Ġyi4Ġ":5249,"Ġji2Ġqi2":5250,"fa1Ġsheng1":5251,"shou1Ġlu4Ġ":5252,"Ġshi4Ġren2Ġ":5253,"jiao4ĠdeĠ":5254,"mang2Ġ":5255,"lan2Ġke4Ġ":5256,"cai2Ġzheng4Ġ":5257,"chang4Ġpian4Ġ":5258,"ĠĠĠnian2Ġ":5259,"Ġzuo4Ġpin3":5260,"sa4Ġke4Ġ":5261,"Ġji4Ġzai3Ġ":5262,"Ġzhong1Ġwen2Ġ":5263,"jue2Ġsai4":5264,"jin4Ġgong1Ġ":5265,"Ġshi4Ġji2Ġ":5266,"qi3Ġyi4Ġ":5267,"can1Ġyi4Ġ":5268,"23Ġ":5269,"ĠĠĠin":5270,"can1Ġkao3Ġ":5271,"zhuang4Ġkuang4Ġ":5272,"Ġmian4Ġ":5273,"Ġxian4Ġyu2Ġ":5274,"Ġzao4Ġcheng2Ġ":5275,"lv4Ġwei4Ġ":5276,"ĠĠĠzhong1Ġguo2Ġ":5277,"leĠta1Ġ":5278,"zeng1Ġzhang3Ġ":5279,"gao1Ġdu4Ġ":5280,"chan3Ġpin3":5281,"fei1Ġjian4Ġzhi4Ġdi4Ġqu1Ġ":5282,"NĠ":5283,"13Ġ":5284,"zhan4Ġdou4Ġ":5285,"Ġzhuan3Ġ":5286,"dou1Ġhui4Ġ":5287,"sui1Ġran2Ġ":5288,"Ġhe2Ġbing4Ġ":5289,"Ġji4Ġsuan4":5290,"Ġsheng1Ġhuo2":5291,"wang2ĠdeĠ":5292,"zhong4Ġdian3Ġ":5293,"Ġe2Ġluo2Ġsi1Ġ":5294,"diao4Ġcha2":5295,"chai1Ġ":5296,"Ġda4Ġlou2Ġ":5297,"hai3Ġdao4Ġ":5298,"chang4Ġpian4":5299,"Ġren2ĠmenĠ":5300,"Ġhuang2":5301,"wei1Ġxie2Ġ":5302,"ao4Ġdi4Ġli4Ġ":5303,"Ġhe2Ġzhong1Ġ":5304,"shang4Ġshu1Ġ":5305,"Ġwei2Ġqi2Ġ":5306,"ling3Ġdao3Ġren2Ġ":5307,"kan3Ġ":5308,"jing1Ġshen2Ġ":5309,"Ġxiang1Ġguan1Ġ":5310,"jia1Ġzhong1Ġ":5311,"liang3Ġren2Ġ":5312,"Ġyin1Ġer2Ġ":5313,"yue4Ġzai4Ġ":5314,"Ġbu4Ġduan4Ġ":5315,"can1Ġjia1ĠleĠ":5316,"hua4Ġwei4Ġ":5317,"jiang1Ġxi1Ġ":5318,"ying2Ġyun4Ġ":5319,"ĠdeĠcheng2Ġyuan2Ġ":5320,"jie2Ġke4Ġ":5321,"tu2Ġshu1Ġguan3Ġ":5322,"Ġhe2Ġcheng2Ġ":5323,"zhu3Ġchi2Ġ":5324,"Ġzhong1Ġguo2Ġgong4Ġchan3Ġdang3Ġ":5325,"Ġhou4":5326,"ju4ĠdeĠ":5327,"na4Ġli3Ġ":5328,"Ġ4Ġyue4Ġ":5329,"min2Ġzhong4Ġ":5330,"onĠĠĠ":5331,"1988Ġnian2Ġ":5332,"jin4Ġru4":5333,"zi4Ġdong4Ġ":5334,"mou3Ġxie1Ġ":5335,"shen1Ġwei4Ġ":5336,"ju1Ġzhu4Ġ":5337,"xia4Ġji4Ġao4Ġlin2Ġpi3Ġke4Ġyun4Ġdong4Ġhui4Ġ":5338,"yin1Ġshi4Ġ":5339,"dao1Ġ":5340,"zhan4Ġdou4":5341,"tionĠ":5342,"shi2Ġjian1Ġ":5343,"Ġhua2":5344,"chan3Ġsheng1ĠdeĠ":5345,"Ġzai4Ġjia1Ġ":5346,"Ġyou3Ġshi2Ġ":5347,"ĠĠĠzhĠ":5348,"shuo1Ġming2Ġ":5349,"yin3Ġfa1Ġ":5350,"Ġzheng4Ġzhuang4Ġ":5351,"jiang1Ġsu1Ġ":5352,"Ġ20":5353,"Ġdao3Ġ":5354,"1993Ġnian2Ġ":5355,"Ġhuo4Ġde2ĠleĠ":5356,"Ġfang2Ġ":5357,"Ġzhi1Ġxia4Ġ":5358,"Ġshi4Ġwei1Ġ":5359,"xiao3Ġshuo1":5360,"Ġxiao3":5361,"Ġqiao2Ġ":5362,"Ġxu3Ġduo1Ġ":5363,"Ġwei3Ġ":5364,"ĠĠĠjia1Ġzu2Ġ":5365,"Ġzuo3Ġ":5366,"Ġshi4Ġzhen4":5367,"Ġgong1Ġren2Ġ":5368,"ding4ĠleĠ":5369,"orĠ":5370,"you1Ġshi4Ġ":5371,"lan2Ġqiu2Ġ":5372,"Ġda4Ġduo1Ġ":5373,"zhou1ĠdeĠ":5374,"ji4Ġshi2Ġ":5375,"Ġxiang4Ġmu4Ġ":5376,"xian3ĠdeĠ":5377,"zi1Ġxun4Ġ":5378,"ao4Ġyun4Ġhui4Ġ":5379,"cui4Ġ":5380,"su4ĠdeĠ":5381,"Ġda4Ġxing2Ġ":5382,"Ġxuan1Ġbu4Ġ":5383,"Ġtian1":5384,"Ġ2018":5385,"Ġyue4Ġnan2Ġ":5386,"chuang1Ġ":5387,"xiang4Ġmu4":5388,"Ġji2Ġli4Ġ":5389,"Ġzhong1Ġhua2Ġ":5390,"xiang1Ġdang1Ġ":5391,"ĠĠĠ19":5392,"qu3Ġde2":5393,"yuan2Ġzai4Ġ":5394,"Ġbu4Ġmen2":5395,"jie2Ġhun1Ġ":5396,"Ġlai2Ġzi4Ġ":5397,"Ġdan4Ġyou2Ġyu2Ġ":5398,"fang3Ġwen4Ġ":5399,"zhi2Ġdao4Ġ":5400,"sui1Ġran2":5401,"Ġli3Ġlun4Ġ":5402,"jiao4Ġwei2Ġ":5403,"Ġshi4Ġwei4ĠleĠ":5404,"pin3Ġpai2Ġ":5405,"xi2Ġwei4Ġ":5406,"Ġdi4Ġwu3Ġ":5407,"can1Ġjia1":5408,"Ġyue4Ġtai2Ġ":5409,"zhong1Ġwei4Ġ":5410,"Ġdu2Ġ":5411,"zhen1Ġshi2Ġ":5412,"zhong1Ġhua2Ġren2Ġmin2Ġgong4Ġhe2Ġguo2Ġ":5413,"you3Ġbu4Ġ":5414,"yin4Ġdi4Ġ":5415,"zhou4Ġ":5416,"mei3Ġshu4Ġ":5417,"ĠCĠ":5418,"xue2Ġshu4Ġ":5419,"Ġpei4Ġ":5420,"xing1Ġqi1Ġ":5421,"ming4Ġling4Ġ":5422,"Ġou1Ġ":5423,"ĠdeĠgong1Ġzuo4Ġ":5424,"2020Ġnian2Ġmei3Ġguo2Ġren2Ġkou3Ġpu3Ġcha2ĠdeĠshu4Ġju4Ġ":5425,"jian4Ġshe4Ġ":5426,"ju3Ġxing2":5427,"wu3Ġzhuang1Ġ":5428,"Ġlao3Ġ":5429,"fang2Ġyu4Ġ":5430,"Ġren4Ġwu4Ġ":5431,"tiao2Ġzheng3Ġ":5432,"bĠ":5433,"ĠĠĠ2025":5434,"yi2Ġchan3Ġ":5435,"bao4Ġdao3Ġ":5436,"ao4Ġmen2Ġ":5437,"Ġshi2Ġyi1Ġ":5438,"ti1Ġ":5439,"ti2Ġgao1Ġ":5440,"yun3Ġxu3Ġ":5441,"Ġjia1Ġru4":5442,"Ġzhi1Ġhou4":5443,"han2Ġshu4Ġ":5444,"1990Ġnian2Ġ":5445,"fei1Ġlv4Ġ":5446,"wa3Ġer3Ġ":5447,"yi3Ġlai2Ġ":5448,"leĠta1ĠdeĠ":5449,"hui4Ġyuan2Ġ":5450,"Ġshi2Ġqi1":5451,"ji4Ġlu4Ġ":5452,"Ġji1Ġguan1Ġ":5453,"du1Ġshi4Ġ":5454,"leĠyi2Ġge4Ġ":5455,"yi2Ġmin2Ġ":5456,"hua4Ġjia1Ġ":5457,"ji1Ġchang3Ġ":5458,"shu1ĠdeĠ":5459,"ju4Ġli2Ġ":5460,"shu4Ġzi4Ġ":5461,"Ġfu4Ġze2":5462,"yong4Ġhu4Ġ":5463,"Ġshi4Ġyi1Ġzhong3":5464,"jin1ĠdeĠ":5465,"Ġren2Ġlei4":5466,"Ġzheng4":5467,"Ġzhou1Ġnian2Ġ":5468,"hong1Ġzha4":5469,"Ġzi4Ġji3ĠdeĠ":5470,"erĠĠĠ":5471,"jie1Ġji2Ġ":5472,"duan4ĠdeĠ":5473,"du1Ġjiao4Ġ":5474,"li4Ġshi4Ġ":5475,"ke4Ġli3Ġ":5476,"ĠĠĠ2024":5477,"yan2ĠdeĠ":5478,"su2Ġ":5479,"ying2ĠdeĠ":5480,"hua1Ġyuan2Ġ":5481,"shan1Ġmai4":5482,"Ġzhuang1Ġ":5483,"sheng1Ġji2Ġ":5484,"yue1Ġyou3Ġ":5485,"Ġshi4Ġda4Ġ":5486,"wen2Ġzi4Ġ":5487,"chu1Ġban3Ġ":5488,"mian4Ġdui4Ġ":5489,"yao1Ġqing3Ġ":5490,"Ġ2011Ġnian2Ġ":5491,"dong1Ġji4Ġ":5492,"Ġhong2":5493,"deng3Ġwei4Ġ":5494,"zi1Ġjin1Ġ":5495,"Ġliang2Ġ":5496,"Ġli4Ġshi3":5497,"wu3Ġtai2Ġ":5498,"xiao4Ġguo3Ġ":5499,"Ġyu2Ġ18":5500,"Ġshe4Ġji2Ġ":5501,"Ġsui4ĠdeĠ":5502,"Ġwen2":5503,"Ġxu2":5504,"Ġzhi4Ġshi2Ġ":5505,"Ġzhi4Ġli4Ġ":5506,"gao1Ġdeng3Ġ":5507,"Ġ2016":5508,"Ġding4Ġ":5509,"Ġsuo3Ġyi3":5510,"Ġcheng1Ġwei2Ġ":5511,"yuan2Ġji2Ġ":5512,"Ġren2Ġmin2":5513,"Ġhe2Ġlan2Ġ":5514,"Ġ2005Ġnian2Ġ":5515,"dong4Ġzuo4Ġ":5516,"shen1Ġqing3Ġ":5517,"Ġxian4Ġhe2Ġ":5518,"Ġbian1":5519,"Ġ3Ġyue4Ġ":5520,"oĠĠĠ":5521,"Ġzhuan3":5522,"mei3Ġguo2ĠdeĠ":5523,"liang3Ġzhong3Ġ":5524,"Ġ2008Ġnian2Ġ":5525,"jiao4Ġlian4Ġ":5526,"Ġming2Ġchao2Ġzheng4Ġzhi4Ġren2Ġwu4Ġ":5527,"Ġjiu3":5528,"ĠĠĠzao3Ġnian2Ġ":5529,"Ġri4Ġjun1Ġ":5530,"xia4Ġling4":5531,"Ġwan4Ġmei3Ġyuan2Ġ":5532,"Ġhan2Ġguo2Ġ":5533,"ĠĠĠxin1Ġ":5534,"ling3Ġtu3Ġ":5535,"ba2Ġ":5536,"Ġyuan2Ġming2Ġ":5537,"nu3Ġli4Ġ":5538,"zheng4Ġming2Ġ":5539,"ĠĠĠhou4Ġ":5540,"lie4Ġbiao3Ġ":5541,"lu4Ġjun1":5542,"Ġzhong1Ġyu2Ġ":5543,"zuo4Ġyong4Ġ":5544,"jing1Ġchang2Ġ":5545,"Ġxie2Ġ":5546,"qu1Ġyu4":5547,"Ġzhao1":5548,"you3Ġzai4Ġ":5549,"Ġyi4Ġyi4Ġ":5550,"ying3Ġpian4":5551,"2Ġren2Ġ":5552,"Ġyuan2Ġgong1Ġ":5553,"Ġjin4Ġxing2":5554,"Ġnan2Ġzhi4Ġ":5555,"ĠĠĠyou2Ġ":5556,"Ġguo2Ġhui4Ġ":5557,"Ġgong1Ġhui4Ġ":5558,"guan1Ġxi4":5559,"Ġshang4":5560,"Ġju4":5561,"STĠ":5562,"Ġji4Ġzhe3Ġ":5563,"hui2Ġying4Ġ":5564,"li3Ġlun4Ġ":5565,"yong4Ġzuo4Ġ":5566,"nei4Ġlu4Ġ":5567,"zhao3Ġdao4Ġ":5568,"1984Ġnian2Ġ":5569,"wang2Ġchao2":5570,"jing1Ġli3Ġ":5571,"lv3Ġxing2Ġ":5572,"shen2Ġjing1Ġ":5573,"Ġshi4Ġhou4Ġ":5574,"jiu3Ġdian4Ġ":5575,"Ġgong1Ġchang3Ġ":5576,"fu4Ġjin4Ġ":5577,"yu2Ġzai4Ġ":5578,"Ġchi4Ġ":5579,"gui1Ġze2Ġ":5580,"tai4Ġren2Ġ":5581,"Ġhe2Ġgong1Ġ":5582,"bao3Ġchi2":5583,"qi4Ġxiang4Ġ":5584,"ke3Ġyi3Ġzai4Ġ":5585,"VĠ":5586,"sui4Ġdao4Ġ":5587,"zhi1Ġjian1Ġ":5588,"ti2Ġdao4Ġ":5589,"ĠCh":5590,"Ġxiu1Ġ":5591,"Ġcheng2Ġxian4Ġ":5592,"Ġnian2Ġ1Ġyue4Ġ1Ġri4Ġ":5593,"Ġli3":5594,"Ġshi1":5595,"Ġji1Ġche1Ġ":5596,"Ġwo3ĠmenĠ":5597,"Ġshi2Ġer4Ġ":5598,"ai1Ġji2Ġ":5599,"1989Ġnian2Ġ":5600,"Ġjue2":5601,"Ġbo2":5602,"ge2Ġwei4Ġ":5603,"shou3Ġji1Ġ":5604,"Ġguo2Ġfang2":5605,"kong1Ġzhong1Ġ":5606,"Ġnian2Ġshi4Ġjie4Ġ":5607,"shou3Ġdu1Ġ":5608,"Ġluo2":5609,"zhu4Ġli3Ġ":5610,"bei4Ġshi4Ġwei4Ġ":5611,"tong1Ġdao4Ġ":5612,"kong3Ġbu4Ġ":5613,"qi2Ġzhong1Ġyi1Ġzhong3Ġ":5614,"Ġtian2Ġ":5615,"zuo4Ġwei4Ġ":5616,"14Ġ":5617,"ĠdeĠzhi4Ġ":5618,"Ġpei4":5619,"ĠĠĠp":5620,"li4Ġwei4Ġ":5621,"shu1Ġji2Ġ":5622,"Ġer2Ġcheng2Ġ":5623,"Ġbi3":5624,"ji1Ġhe2Ġ":5625,"Ġ188":5626,"dong1Ġnan2Ġbu4Ġ":5627,"Ġying1":5628,"yi3Ġxia4Ġ":5629,"xin1Ġjia1Ġpo1":5630,"yan3Ġyi4Ġ":5631,"Ġxi1Ġwang4":5632,"da4Ġlu4ĠdeĠ":5633,"qi3Ġye4":5634,"Ġfan3":5635,"Ġzuo4Ġwei2":5636,"gu4Ġwen4Ġ":5637,"dai4Ġli3Ġ":5638,"ĠdeĠjia1Ġ":5639,"jin1Ġshu3Ġ":5640,"jin4Ġyi2Ġbu4Ġ":5641,"fen1Ġzhong1Ġ":5642,"10Ġnian2Ġ":5643,"Ġhen3Ġ":5644,"lao2Ġdong4Ġ":5645,"zhu3Ġchi2":5646,"jiao4Ġxue2Ġ":5647,"biao3Ġmian4Ġ":5648,"Ġlei2Ġ":5649,"Ġying1Ġyu3Ġ":5650,"Ġ30":5651,"ĠsĠĠĠ":5652,"meng3Ġ":5653,"cai2Ġliao4Ġ":5654,"ni1Ġ":5655,"Ġxuan3Ġ":5656,"ĠĠĠ3":5657,"Ġhe2Ġxi1Ġ":5658,"Ġbu4Ġbu4Ġ":5659,"Ġhe2Ġshi2Ġ":5660,"Ġyou3Ġji1Ġ":5661,"chao2Ġxian1":5662,"Ġ2001Ġnian2Ġren2Ġkou3Ġ":5663,"3Ġren2Ġ":5664,"Ġguan1":5665,"dao4Ġlu4Ġ":5666,"hua2Ġren2Ġ":5667,"Ġzai4Ġwei4Ġ":5668,"wo3Ġmen":5669,"Ġbei3Ġqi3Ġ":5670,"bao3Ġliu2Ġ":5671,"jing4ĠdeĠ":5672,"si3Ġhou4Ġ":5673,"bo1Ġlan2":5674,"tong1Ġche1Ġ":5675,"si1Ġli4Ġ":5676,"Ġzhong1Ġguo2Ġda4Ġlu4Ġ":5677,"bai2Ġse4Ġ":5678,"ya4Ġli4Ġshan1Ġda4Ġ":5679,"Ġzhong3Ġ":5680,"hui4Ġshi4Ġ":5681,"Ġyi3Ġbei4Ġ":5682,"Ġtu3Ġ":5683,"neĠ":5684,"ju1Ġmin2":5685,"Ġà":5686,"zhu3Ġli4Ġ":5687,"Ġping2Ġmian4Ġ":5688,"ni2Ġke4Ġ":5689,"Ġta1Ġwei4Ġ":5690,"yin3Ġqi3Ġ":5691,"Ġwan4Ġyuan2Ġ":5692,"Ġ2021":5693,"zhu3ĠdeĠ":5694,"Ġzhi1Ġjian1":5695,"yin3Ġqi3":5696,"mĠĠĠ":5697,"Ġsi1Ġte4":5698,"fa3Ġan4Ġ":5699,"zhao4Ġkai1Ġ":5700,"nv3Ġzi3":5701,"Ġxian4ĠdeĠyi2Ġge4Ġ":5702,"Ġdao4Ġda2Ġ":5703,"Ġnv3Ġxing4Ġ":5704,"zhai4Ġ":5705,"Ġdong1Ġnan2Ġ":5706,"yun4Ġzuo4Ġ":5707,"ĠĠĠofĠĠĠ":5708,"yi2Ġzhi3Ġ":5709,"wei4ĠĠĠ":5710,"jiao1Ġhui4Ġ":5711,"ĠĠĠ2012":5712,"shou3Ġge4Ġ":5713,"jie4ĠdeĠ":5714,"tui4Ġchu1Ġ":5715,"di4Ġer4Ġ":5716,"Ġer2Ġyan2Ġ":5717,"Ġxian4ĠdeĠyi2Ġge4":5718,"Ġbei4Ġren4Ġwei2Ġshi4Ġ":5719,"ceng2Ġjing1":5720,"li4Ġzai4Ġ":5721,"zha2Ġ":5722,"Ġji1Ġhu1":5723,"Ġke4Ġcheng2Ġ":5724,"wen2Ġzhang1Ġ":5725,"ji3Ġge4Ġ":5726,"Ġshi4Ġjia1Ġ":5727,"Ġyou3Ġyi4Ġ":5728,"te4Ġshu1Ġ":5729,"Ġxi1Ġsi1Ġ":5730,"xiang1Ġguan1":5731,"shi1Ġfan4":5732,"Ġfu4Ġqin1Ġ":5733,"wu2Ġfa3":5734,"can1Ġmou2":5735,"jin1Ġhui4Ġ":5736,"1985Ġnian2Ġ":5737,"jiao4Ġshi1Ġ":5738,"ĠĠĠxia4Ġ":5739,"fei1Ġzhou1Ġ":5740,"lv4Ġshi1Ġ":5741,"leng3Ġ":5742,"Ġshi4Ġyu3Ġ":5743,"xi1Ġban1Ġya2":5744,"da4Ġwei4Ġ":5745,"wei1Ġji1Ġ":5746,"Ġyi1Ġji2Ġ":5747,"chang2ĠdeĠ":5748,"Ġbu4Ġde2":5749,"Ġta1ĠmenĠzai4Ġ":5750,"Ġyi4Ġfang1Ġmian4Ġ":5751,"fa3Ġyuan4":5752,"Ġer2Ġshui3Ġyu4Ġmian4Ġji1Ġwei4Ġ0":5753,"Ġfeng2Ġ":5754,"Ġguo2Ġjia1ĠdeĠ":5755,"zhe3Ġzai4Ġ":5756,"Ġhe2Ġqi2Ġta1Ġ":5757,"xi4Ġtong3ĠdeĠ":5758,"duo1Ġnian2Ġ":5759,"ya4Ġzhou1":5760,"che1ĠdeĠ":5761,"jin1Ġpai2Ġ":5762,"Ġzhi1Ġwei4Ġ":5763,"Ġbing4Ġjiang1Ġ":5764,"Ġzhu3Ġxi2Ġ":5765,"kang1Ġxi1Ġ":5766,"yao4Ġwu4Ġ":5767,"1Ġren2Ġ":5768,"wen2Ġxian4Ġ":5769,"Ġcheng2Ġxu4Ġ":5770,"Ġ00Ġ":5771,"ze2Ġwei4Ġ":5772,"bian4Ġde2Ġ":5773,"biao3Ġda2":5774,"Ġmei3Ġnian2Ġ":5775,"da4Ġdi4Ġ":5776,"Ġcheng2Ġren4Ġ":5777,"zhi2Ġmin2":5778,"guo4Ġqu4Ġ":5779,"pu2Ġtao2Ġya2":5780,"Ġban1Ġ":5781,"Ġqu3Ġ":5782,"huan1Ġying2Ġ":5783,"Ġgang3Ġ":5784,"Ġju4Ġyou3Ġ":5785,"Ġzhi4Ġliao2Ġ":5786,"Ġsi1Ġke4Ġ":5787,"Ġjin4Ġxing2ĠleĠ":5788,"ĠĠĠcheng2Ġ":5789,"mu4Ġbiao1":5790,"fu2Ġyi4Ġ":5791,"zhuang1Ġshi4Ġ":5792,"terĠ":5793,"dong1Ġbei3Ġbu4Ġ":5794,"gou4Ġzao4Ġ":5795,"huo4Ġde2ĠleĠ":5796,"bo2Ġwu4Ġguan3":5797,"ao4Ġda4Ġli4Ġya4Ġ":5798,"Ġhai3":5799,"ben3Ġdi4Ġ":5800,"jiang1Ġhui4Ġ":5801,"Ġqiu2Ġyuan2Ġ":5802,"Ġfei4":5803,"Ġ100":5804,"Ġguan1Ġyu2Ġ":5805,"Ġer2Ġgai1Ġdi4Ġ":5806,"xian1Ġsheng1Ġ":5807,"Ġbu4Ġla1Ġ":5808,"Ġyu2Ġle4Ġ":5809,"bo1Ġlan2Ġ":5810,"Ġli2":5811,"1949Ġnian2Ġ":5812,"jia1Ġru4":5813,"fang4Ġqi4Ġ":5814,"jian4Ġyi4Ġ":5815,"Ġ2015":5816,"Ġwei4Ġyou3Ġ":5817,"yi4Ġda4Ġli4Ġ":5818,"ĠĠĠU":5819,"dang1Ġshi2ĠdeĠ":5820,"Ġqi1Ġxi1Ġzai4Ġ":5821,"mao2Ġze2Ġ":5822,"liang3Ġnian2Ġ":5823,"xiao4ĠdeĠ":5824,"sa4Ġsi1Ġ":5825,"Ġbing4Ġyu3Ġ":5826,"Ġda4Ġlu4Ġ":5827,"guang3Ġgao4Ġ":5828,"Ġbai3Ġ":5829,"Ġzhu4":5830,"Ġwei4Ġlai2Ġ":5831,"Ġban4Ġ":5832,"Ġyong1Ġyou3Ġ":5833,"Ġ2007Ġnian2Ġ":5834,"cheng1Ġzuo4Ġ":5835,"fu4Ġqin1":5836,"zi4Ġyou2":5837,"Ġjian4Ġzao4Ġ":5838,"liu2Ġzai4Ġ":5839,"shou1Ġshi4Ġ":5840,"ĠdeĠzheng4Ġ":5841,"Ġjin4Ġyi2Ġbu4Ġ":5842,"ĠĠĠcong2Ġ":5843,"nan2Ġjing1Ġ":5844,"Ġjin4Ġgong1Ġ":5845,"sa4Ġer3Ġ":5846,"luo2Ġdi4Ġ":5847,"Ġshi4Ġzheng4Ġ":5848,"Ġfu4Ġqin1":5849,"tian1ĠdeĠ":5850,"jin3Ġji2Ġ":5851,"xi4Ġju4Ġ":5852,"Ġhao4Ġwei4Ġ":5853,"esĠ":5854,"ji4Ġxu4Ġ":5855,"Ġji4Ġshu4":5856,"tan3Ġke4Ġ":5857,"4Ġren2Ġ":5858,"Ġge2":5859,"Ġbing1Ġ":5860,"Ġren2Ġmen":5861,"Ġri4Ġjun1":5862,"Ġqi3":5863,"Ġyi4Ġmei3Ġyuan2Ġ":5864,"ci4Ġshi3Ġ":5865,"Ġ2013":5866,"Ġzai4Ġci3":5867,"Ġte4Ġbie2Ġshi4Ġ":5868,"que4Ġren4Ġ":5869,"huo3Ġjian4Ġ":5870,"Ġjia1Ġzu2Ġ":5871,"piao4Ġfang2Ġ":5872,"qing3Ġqiu2Ġ":5873,"ĠdeĠsheng1Ġ":5874,"jing3Ġfang1Ġ":5875,"kao3Ġlv4":5876,"bi3Ġli4Ġshi2Ġ":5877,"1986Ġnian2Ġ":5878,"Ġshi4Ġri4Ġben3Ġ":5879,"Ġsi1Ġtan3":5880,"tai4Ġping2Ġyang2":5881,"zhan1Ġmu3Ġsi1Ġ":5882,"Ġjie2Ġguo3":5883,"Ġ2014":5884,"pai1Ġ":5885,"Ġchu1Ġsheng1Ġ":5886,"di4Ġzai4Ġ":5887,"Ġyi3Ġyou3Ġ":5888,"tou2Ġpiao4":5889,"bian1ĠdeĠ":5890,"shang4Ġwu3Ġ":5891,"ba1Ġli2":5892,"wang2Ġchao2Ġ":5893,"Ġwo3Ġmen":5894,"nei4Ġyou3Ġ":5895,"wan2Ġgong1Ġ":5896,"Ġzhi4Ġcheng2Ġ":5897,"guang3Ġdong1Ġsheng3Ġ":5898,"ĠĠĠjie2Ġzhi4Ġ":5899,"Ġxi4Ġlie4Ġ":5900,"Ġgao1":5901,"pai1Ġshe4":5902,"Ġyuan2Ġben3Ġ":5903,"cheng2Ġnian2Ġ":5904,"fen3Ġ":5905,"chi1Ġ":5906,"chang3Ġhe2Ġ":5907,"18Ġ":5908,"Ġqi2Ġzai4Ġ":5909,"Ġzhi1ĠziĠ":5910,"shen1Ġti3Ġ":5911,"meng2Ġgu3":5912,"Ġda4Ġyue1Ġ":5913,"Ġzhan4Ġdou4Ġ":5914,"Ġzhi1ĠdeĠ":5915,"gu3Ġfen4":5916,"yan3Ġchang4Ġ":5917,"xi2Ġxing4":5918,"geng4Ġduo1Ġ":5919,"guan1Ġbi4Ġ":5920,"hu2Ġbei3Ġ":5921,"Ġyue1Ġhan4Ġ":5922,"deng1Ġshang4Ġ":5923,"Ġxian4Ġchang3Ġ":5924,"ĠĠĠzeng1Ġ":5925,"suo3Ġzai4Ġ":5926,"min2Ġjian1Ġ":5927,"qing2Ġbao4Ġ":5928,"guang3Ġfan4":5929,"mu3Ġqin1":5930,"5Ġren2Ġ":5931,"Ġdeng4":5932,"Ġhe4Ġ":5933,"wai4Ġbu4Ġ":5934,"zhong4Ġyi4Ġ":5935,"mi4Ġmi4Ġ":5936,"Ġying1Ġwen2Ġ":5937,"Ġh":5938,"Ġti2Ġgong1Ġ":5939,"xiao4Ġyuan2Ġ":5940,"Ġshi4Ġye4Ġ":5941,"Ġzai4Ġqi2Ġ":5942,"ĠĠĠ2":5943,"kao3Ġlv4Ġ":5944,"e2Ġluo2Ġsi1":5945,"te4Ġse4Ġ":5946,"Ġjing1Ġji4Ġ":5947,"Ġai1Ġ":5948,"Ġyou3Ġxian4Ġ":5949,"sen1Ġlin2Ġ":5950,"ma3Ġsi1Ġ":5951,"Ġ2020":5952,"wu4Ġyuan2Ġ":5953,"an1Ġpai2Ġ":5954,"xia4Ġyi1Ġ":5955,"mei3Ġge4Ġ":5956,"Ġquan2Ġqiu2Ġ":5957,"er4Ġyue4Ġ":5958,"Ġda4Ġduo1Ġshu4Ġ":5959,"Ġbu4Ġjiu3":5960,"zhuang1Ġbei4Ġ":5961,"huan3Ġ":5962,"Ġda4Ġdao4Ġ":5963,"Ġ10Ġ":5964,"neng2Ġzai4Ġ":5965,"Ġji1Ġbai4":5966,"tu3Ġer3Ġqi2Ġ":5967,"Ġwo4":5968,"qian1Ġzhi4Ġ":5969,"zeng4Ġ":5970,"Ġdi4Ġyi1Ġci4Ġ":5971,"Ġzui4Ġgao1Ġ":5972,"chang3Ġdi4Ġ":5973,"min2Ġzhu3Ġdang3Ġ":5974,"nan2Ġyi3Ġ":5975,"xing4Ġqu4Ġ":5976,"cun4Ġ":5977,"Ġshi2Ġyan4Ġ":5978,"zuo4Ġzhan4Ġ":5979,"Ġji2Ġbei3Ġ":5980,"Ġchu1Ġlai2Ġ":5981,"tai2Ġfeng1Ġ":5982,"tian1Ġjin1Ġ":5983,"Ġcan1Ġjia1Ġ":5984,"Ġ2017":5985,"ban4Ġli3Ġ":5986,"Ġnian2ĠĠĠ":5987,"Ġzhi1Ġdao4Ġ":5988,"tian1Ġjin1":5989,"Ġxun2Ġ":5990,"long2Ġjiang1Ġ":5991,"Ġzhong1Ġshi4Ġ":5992,"ling3Ġshi4Ġ":5993,"Ġbu4Ġzu2Ġ":5994,"yong4Ġtu2Ġ":5995,"li3Ġgong1Ġ":5996,"Ġtong1Ġchang2":5997,"HĠ":5998,"Ġyuan2Ġsu4Ġ":5999,"Ġgang1Ġ":6000,"wei1Ġer3Ġ":6001,"nong2Ġye4":6002,"Ġqing1Ġchao2Ġ":6003,"ai1Ġer3Ġ":6004,"Ġkang1Ġ":6005,"chang2Ġjian4ĠdeĠ":6006,"Ġcheng2Ġdu4Ġ":6007,"zhan4Ġling3Ġ":6008,"jin4Ġxing2ĠleĠ":6009,"Ġshi3Ġjian4Ġyu2Ġ":6010,"Ġlv3Ġ":6011,"ĠĠĠming2Ġ":6012,"dao3Ġdan4Ġ":6013,"xiu1Ġzheng4Ġ":6014,"maĠ":6015,"Ġyue4Ġtuan2Ġ":6016,"zu3Ġjian4Ġ":6017,"gui4Ġzhou1Ġ":6018,"Ġta1Ġhai2Ġ":6019,"fen1Ġbu4Ġyu2Ġ":6020,"toĠĠĠ":6021,"ma3Ġlai2Ġxi1Ġya4Ġ":6022,"ĠĠĠxian4":6023,"xi3Ġju4Ġ":6024,"Ġgong1Ġzhu3Ġ":6025,"zhang4Ġai4Ġ":6026,"xi2Ġxing4Ġbu4Ġming2Ġ":6027,"Ġshi2Ġdai4":6028,"Ġf":6029,"Ġyan2":6030,"xiang4Ġshi4Ġ":6031,"Ġchu1Ġqi1Ġ":6032,"Ġzhan4Ġdou4":6033,"Ġwen2Ġhua4Ġ":6034,"teĠ":6035,"hua2Ġsheng4Ġ":6036,"sheng1Ġcheng2Ġ":6037,"1987Ġnian2Ġ":6038,"Ġyou3Ġxie1Ġ":6039,"jiao1Ġliu2Ġ":6040,"ren4Ġming4Ġwei4Ġ":6041,"Ġsheng1Ġchan3":6042,"Ġyi4Ġqi3":6043,"fa3Ġguan1Ġ":6044,"Ġye3Ġjiu4Ġshi4Ġ":6045,"Ġshou1Ġ":6046,"ĠĠĠta1Ġ":6047,"ĠdeĠfang1Ġshi4Ġ":6048,"Ġhe2Ġhe2Ġ":6049,"Ġsheng1Ġhuo2Ġxi2Ġxing4Ġbu4Ġming2Ġ":6050,"she4Ġzhi4Ġ":6051,"shou4Ġdao4":6052,"ti2Ġchu1":6053,"40Ġ":6054,"Ġheng2Ġ":6055,"ji1Ġchu3Ġ":6056,"Ġta1Ġye3Ġ":6057,"Ġchu3Ġyu2Ġ":6058,"hen3Ġda4Ġ":6059,"Ġtao2Ġ":6060,"zhi4Ġzhong1Ġ":6061,"tong2Ġnian2Ġ":6062,"bao4Ġfa1":6063,"zhu3Ġshi4Ġ":6064,"1980Ġnian2Ġ":6065,"ju4Ġjue2Ġ":6066,"Ġwan4Ġli4Ġ":6067,"ĠĠĠmei3Ġguo2Ġ":6068,"17Ġ":6069,"seĠ":6070,"ku3Ġ":6071,"chuan2Ġshuo1Ġ":6072,"chuang4Ġban4":6073,"Ġgen1Ġju4":6074,"ling3Ġxiu4Ġ":6075,"hua4Ġhe2Ġwu4Ġ":6076,"Ġgong4":6077,"Ġyin2Ġ":6078,"Ġer2Ġbu2Ġshi4Ġ":6079,"an1Ġzhuang1":6080,"ĠAĠ":6081,"Ġrui4Ġ":6082,"ren4Ġshi2Ġ":6083,"qiong2Ġ":6084,"1982Ġnian2Ġ":6085,"la1Ġding1":6086,"bao4Ġli4Ġ":6087,"an1Ġna4Ġ":6088,"Ġyi1Ġxue2Ġ":6089,"Ġluo4":6090,"zhi4Ġbu4Ġ":6091,"wen2Ġyi4Ġ":6092,"jia1Ġli4Ġfu2Ġ":6093,"Ġzhao4":6094,"Ġgong4Ġyou3Ġ":6095,"shu2Ġ":6096,"Ġyou3Ġyi2Ġge4Ġ":6097,"Ġxian4Ġxiang4Ġ":6098,"shang4Ġying4Ġ":6099,"Ġxuan1Ġ":6100,"fa3Ġyu3Ġ":6101,"Ġzai4Ġnei4ĠdeĠ":6102,"cĠĠĠ":6103,"gao1Ġsu4Ġ":6104,"ĠĠĠli3Ġ":6105,"Ġzai4Ġdu4Ġ":6106,"Ġer2Ġbu4Ġ":6107,"Ġpa4":6108,"ji4Ġshi4Ġ":6109,"yuan4Ġshi4Ġ":6110,"Ġwei4Ġxing1Ġ":6111,"yan2Ġshen1":6112,"hai3Ġan4Ġ":6113,"chuang4Ġjian4Ġ":6114,"bin1Ġhai3Ġ":6115,"shun4Ġli4Ġ":6116,"Ġli3Ġlun4":6117,"Ġdong1Ġbei3Ġ":6118,"wo3ĠmenĠ":6119,"ĠĠĠci3Ġwai4Ġ":6120,"Ġ2013Ġnian2Ġ":6121,"Ġka3":6122,"Ġhan4":6123,"lei2Ġsi1Ġ":6124,"ruan3Ġjian4Ġ":6125,"Ġsheng1Ġzhang3":6126,"shu1Ġru4Ġ":6127,"Ġyou2Ġqi2Ġshi4Ġ":6128,"tui1Ġjin4Ġ":6129,"Ġhe2Ġbu4Ġ":6130,"zi1Ġchan3Ġ":6131,"nv3Ġxing4":6132,"lun4Ġwen2Ġ":6133,"Ġxing2Ġzheng4":6134,"wang3Ġluo4":6135,"wang3Ġqiu2Ġ":6136,"hai3Ġwai4Ġ":6137,"zui4Ġgao1":6138,"ping2Ġlun4Ġ":6139,"Ġbu4Ġluo4Ġ":6140,"Ġda4Ġsha4":6141,"Ġna4":6142,"Ã©Ġ":6143,"zhu3Ġyi4ĠdeĠ":6144,"bao4Ġgao4":6145,"Ġ2010":6146,"1983Ġnian2Ġ":6147,"ying4Ġyong4":6148,"cai3Ġqu3Ġ":6149,"Ġ2012":6150,"jiao4Ġshi4Ġ":6151,"bian4Ġwei4Ġ":6152,"15Ġnian2Ġ":6153,"zu1Ġ":6154,"ban3Ġben3":6155,"pai2Ġming2Ġdi4Ġ":6156,"Ġsai1Ġ":6157,"Ġ2006Ġnian2Ġ":6158,"ju4Ġhe2Ġ":6159,"Ġshu3":6160,"Ġwa3Ġ":6161,"yu2ĠdeĠ":6162,"ze2Ġren4Ġ":6163,"fang1Ġmian4ĠdeĠ":6164,"tou2Ġzi1":6165,"bo1Ġfang4Ġ":6166,"Ġbei3Ġjing1Ġ":6167,"ĠĠĠqi2Ġ":6168,"san1Ġshi4Ġ":6169,"Ġzai4Ġxi1Ġ":6170,"ren2Ġda4Ġ":6171,"Ġde2Ġer3Ġ":6172,"Ġhou4Ġxuan3Ġren2Ġ":6173,"dian4Ġnao3":6174,"Ġta3Ġ":6175,"ma3Ġli3Ġ":6176,"ge4Ġzhong3Ġ":6177,"yin3Ġqing2Ġ":6178,"1945Ġnian2Ġ":6179,"Ġshi4Ġmin2Ġ":6180,"Ġhe2Ġda4Ġ":6181,"dian4Ġzi":6182,"ĠMa":6183,"ling3Ġdi4Ġ":6184,"21Ġnian2Ġ":6185,"Ġzai4Ġci4":6186,"fan4Ġwei2Ġnei4Ġ":6187,"rao3Ġ":6188,"ĠĠĠju4Ġqing2Ġ":6189,"ĠĠĠqian2Ġ":6190,"xiang1Ġshi4Ġdi4Ġ":6191,"zhe4Ġli3Ġ":6192,"13Ġnian2Ġ":6193,"Ġyu2Ġren2Ġ":6194,"zheng4Ġdang3Ġ":6195,"Ġri4Ġbao4Ġ":6196,"Ġling4Ġyi1Ġ":6197,"xing2Ġcheng2Ġ":6198,"fa1Ġxing2ĠdeĠ":6199,"Ġji1Ġhu1Ġ":6200,"zhi2Ġjie1":6201,"Ġliang4Ġ":6202,"feng1Ġwei4Ġ":6203,"pai4ĠdeĠ":6204,"ceĠĠĠ":6205,"Ġshi4Ġgu4Ġ":6206,"Ġzhi4Ġshao3Ġ":6207,"xi4Ġbao1":6208,"biao3Ġda2Ġ":6209,"yuan4Ġyi4Ġ":6210,"Ġta1Ġhe2Ġ":6211,"ju4Ġle4Ġbu4Ġ":6212,"du2Ġli4ĠdeĠ":6213,"e2Ġguo2Ġ":6214,"Ġzhi1Ġfu4Ġ":6215,"jiu3Ġlong2Ġ":6216,"dang1Ġxuan3Ġ":6217,"he4Ġer3Ġ":6218,"mian2Ġ":6219,"zi4Ġran2":6220,"Ġ30Ġ":6221,"Ġyou3Ġxiao4Ġ":6222,"ĠĠĠchu1Ġ":6223,"ĠĠĠxian4Ġ":6224,"bu2Ġ":6225,"wen1Ġdu4Ġ":6226,"ji4Ġcheng2Ġ":6227,"yun3Ġxu3":6228,"Ġyi1Ġxiao3Ġshi2Ġ":6229,"huo3Ġshan1Ġ":6230,"Ġda4Ġxi1Ġyang2Ġ":6231,"guo4Ġqu4":6232,"pai2Ġhang2Ġ":6233,"an1Ġde2Ġ":6234,"Ġdong1Ġlin2Ġ":6235,"jiu4Ġdu2":6236,"jing3Ġcha2":6237,"zhi1Ġchi2":6238,"fang3Ġwen4":6239,"Ġyong4Ġyu2Ġ":6240,"ming2Ġzi4Ġ":6241,"Ġzuo4Ġjia1Ġ":6242,"Ġlai2":6243,"Ġrong2Ġ":6244,"dang3Ġyuan2Ġ":6245,"xi3Ġhuan1":6246,"qu1Ġyi4Ġhui4Ġ":6247,"Ġda4Ġfu2Ġ":6248,"Ġde2Ġhua2Ġ":6249,"Ġ2012Ġnian2Ġ":6250,"huan4Ġcheng2Ġ":6251,"fang1Ġyan2Ġ":6252,"biao3Ġyan3":6253,"xian4Ġzhi4Ġ":6254,"dou1Ġzai4Ġ":6255,"Ġdi4Ġyi2Ġge4Ġ":6256,"stĠĠĠ":6257,"1Ġli4Ġ":6258,"Ġyu3Ġmao2":6259,"Ġchu1Ġzhan4Ġ":6260,"bi3Ġya4":6261,"ĠĠĠdi4Ġfang1Ġ":6262,"Ġbing4Ġbei4Ġ":6263,"Ġkong3Ġ":6264,"qu1Ġhe2Ġ":6265,"Ġyi1Ġtong2Ġ":6266,"xun2Ġyang2":6267,"Ġzhong1Ġhua2Ġren2Ġmin2Ġgong4Ġhe2Ġguo2Ġzheng4Ġzhi4Ġren2Ġwu4Ġ":6268,"Ġshi4Ġyu2Ġ":6269,"xiang1Ġdang1":6270,"jing1Ġyan4Ġ":6271,"tiao2Ġzheng3":6272,"Ġying2Ġ":6273,"pu3Ġbian4Ġ":6274,"Ġ7Ġ":6275,"Ġzhong1Ġbei4Ġ":6276,"guan1Ġdian3Ġ":6277,"jiang4Ġdi1Ġ":6278,"ke1ĠdeĠqi2Ġzhong1Ġyi1Ġzhong3Ġ":6279,"23Ġnian2Ġ":6280,"Ġgong1Ġyi4Ġ":6281,"Ġ0Ġ":6282,"Ġsheng1Ġyu2Ġ":6283,"liang3Ġming2Ġ":6284,"han2Ġyou3Ġ":6285,"zhong4Ġduo1Ġ":6286,"da4Ġzhi4Ġ":6287,"dian3Ġli3Ġ":6288,"Ġshi4Ġgong1Ġ":6289,"she3Ġ":6290,"Ġbing4Ġdu2":6291,"ya4Ġjun1Ġ":6292,"cheng2Ġyuan2Ġ":6293,"Ġqi2Ġzhong1Ġyi1Ġ":6294,"she4Ġqu1Ġ":6295,"Ġsai4Ġji4Ġ":6296,"kou3Ġwei4Ġ":6297,"Ġxian4Ġshi4Ġ":6298,"Ġji4Ġsuan4Ġ":6299,"zhi1Ġqian2Ġ":6300,"mi4Ġshu1Ġzhang3Ġ":6301,"Ġdi4Ġsi4":6302,"Ġsai4Ġ":6303,"zuo4Ġshi4Ġ":6304,"tiao2Ġli4Ġ":6305,"nei4Ġge2Ġ":6306,"yi2Ġdu4Ġ":6307,"shu4Ġyu3Ġ":6308,"wu2Ġzheng4Ġzhuang4Ġ":6309,"Ġxian4Ġren4Ġ":6310,"tu1Ġpo4Ġ":6311,"Ġjiu4Ġshi4Ġ":6312,"xie3Ġdao4Ġ":6313,"dang4Ġtian1Ġ":6314,"Ġzu3Ġfu4Ġ":6315,"gua4Ġ":6316,"Ġxing2Ġwei4Ġ":6317,"Ġping2Ġjun1Ġ":6318,"Ġgong1Ġmin2Ġ":6319,"xing1Ġdeng3Ġwei4Ġ":6320,"Ġtong2Ġyi4Ġ":6321,"hong2Ġse4Ġ":6322,"Ġshuo1Ġ":6323,"zheng4Ġbu4Ġ":6324,"shan1Ġshi4Ġ":6325,"wan2Ġzheng3":6326,"Ġbi3Ġsai4Ġ":6327,"kai1Ġshi3Ġzai4Ġ":6328,"7Ġren2Ġ":6329,"tuan2ĠdeĠ":6330,"gei3ĠleĠ":6331,"Ġji1Ġjin1Ġ":6332,"si3Ġwang2":6333,"zheng3Ġti3Ġ":6334,"Ġneng2Ġ":6335,"Ġcha2Ġ":6336,"yi4Ġnian2Ġ":6337,"ben3Ġren2Ġ":6338,"jue2Ġdui4Ġ":6339,"lu3Ġsi1Ġ":6340,"Ġliu4":6341,"Ġ500":6342,"Ġquan2Ġli4Ġ":6343,"yi2Ġding4Ġ":6344,"ying1Ġwen2Ġ":6345,"dai4Ġbiao3Ġda4Ġhui4Ġ":6346,"6Ġren2Ġ":6347,"Ġreng2":6348,"Ġhao2Ġmi3Ġ":6349,"ĠĠĠji2Ġ":6350,"chi2Ġyou3Ġ":6351,"Ġshi4Ġbing1Ġ":6352,"gai4Ġnian4":6353,"huang2Ġhou4Ġ":6354,"Ġgong1Ġju4Ġ":6355,"she4Ġshi1Ġ":6356,"Ġzui4Ġchu1Ġ":6357,"ĠĠĠ2011":6358,"Ġsun1":6359,"yang2Ġshi4Ġ":6360,"Ġzhe4Ġzhong3":6361,"xia4Ġxia2ĠdeĠyi2Ġge4Ġ":6362,"zhong3Ġzu2Ġ":6363,"ĠĠĠa1Ġ":6364,"zhi2Ġdao3Ġ":6365,"ni2Ġer3Ġ":6366,"ĠdeĠcheng2Ġji4Ġ":6367,"lai2Ġyue4Ġ":6368,"Ġji2Ġren2Ġ":6369,"qi3Ġdong4Ġ":6370,"Ġsui4Ġshi2Ġ":6371,"bao3Ġshou3Ġ":6372,"tou2Ġxiang2Ġ":6373,"gui4Ġzu2Ġ":6374,"Ġda2":6375,"yue4Ġzhong1Ġ":6376,"zhen4Ġqu1ĠdeĠ":6377,"zao3Ġqi1":6378,"bo2Ġshi4Ġxue2Ġwei4Ġ":6379,"Ġxin4Ġ":6380,"ĠĠĠ1":6381,"ĠĠĠqi2Ġta1Ġ":6382,"shan1Ġji1Ġ":6383,"kui4Ġ":6384,"Ġdian4Ġying3Ġ":6385,"Ġwei2Ġer3":6386,"jie4Ġshao4Ġ":6387,"Ġmei3Ġge4Ġ":6388,"yao1Ġqing3":6389,"ĠĠĠ2010":6390,"gu3Ġdai4Ġ":6391,"zhen3Ġ":6392,"tang1Ġ":6393,"Ġming2Ġdan1Ġ":6394,"ming2Ġren2Ġ":6395,"Ġde2Ġyu3Ġ":6396,"shen2ĠmeĠ":6397,"Ġyi1Ġzuo4Ġ":6398,"Ġyi3Ġji2":6399,"Ġer2Ġgai1Ġ":6400,"hei1Ġse4Ġ":6401,"Ġren2Ġmin2Ġzheng4Ġfu3Ġ":6402,"en1Ġsheng3Ġ":6403,"tou4Ġguo4":6404,"3Ġge4Ġ":6405,"Ġxiang3Ġnian2Ġ":6406,"wu2Ġzheng4Ġzhuang4Ġgan3Ġran3Ġ":6407,"19Ġ":6408,"sui2Ġzhu4Ġ":6409,"sa1Ġ":6410,"mu4Ġqian2":6411,"huo2Ġyue4Ġ":6412,"chang2Ġwu4Ġ":6413,"chang2Ġwei3Ġ":6414,"gai3Ġming2Ġwei4Ġ":6415,"que4Ġzhen3Ġbing4Ġli4Ġ":6416,"ming2Ġzhi4Ġ":6417,"Ġri4Ġyu2Ġ":6418,"chu1Ġshen1Ġ":6419,"Ġfan1Ġ":6420,"ĠĠĠIn":6421,"tun2Ġ":6422,"dian4Ġhua4Ġ":6423,"gao1Ġsu4Ġgong1Ġlu4Ġ":6424,"Ġ2022":6425,"Ġbu4Ġsi1Ġ":6426,"Ġji1Ġsi1Ġ":6427,"tai4ĠziĠ":6428,"geng4Ġwei2Ġ":6429,"Ġbi3Ġru2Ġ":6430,"ĠĠĠgai1":6431,"ke4Ġcheng2Ġ":6432,"kun4Ġnan2Ġ":6433,"Ġbu4Ġli4Ġ":6434,"ru4Ġxuan3Ġ":6435,"zui4Ġduo1Ġ":6436,"que1Ġfa2":6437,"dan1ĠdeĠ":6438,"long2ĠdeĠ":6439,"yi3Ġjing1Ġ":6440,"Ġer4Ġshi2Ġ":6441,"ti2Ġji2Ġ":6442,"Ġwei4Ġyu2Ġzhong1Ġguo2Ġ":6443,"sai1Ġer3Ġwei2Ġ":6444,"hui4Ġzhong1Ġ":6445,"shou1Ġji2Ġ":6446,"Ġli4Ġfa3":6447,"xue2Ġhui4Ġ":6448,"Ġbing4Ġfei1Ġ":6449,"hai3Ġxia2Ġ":6450,"zĠ":6451,"gou4ĠdeĠ":6452,"gong1Ġcheng2Ġ":6453,"Ġxi1Ġjie1Ġ":6454,"ge1Ġlun2Ġ":6455,"Ġji1Ġchang3":6456,"ju4Ġda4Ġ":6457,"duo1Ġren2Ġ":6458,"Ġcheng2Ġren2Ġ":6459,"fu4Ġze2":6460,"an1Ġna4":6461,"zu2Ġqiu2Ġyun4Ġdong4Ġyuan2Ġ":6462,"xie3ĠdeĠ":6463,"zuo4Ġchu1Ġ":6464,"zhui1Ġsu4":6465,"Ġxiang3Ġ":6466,"Ġ2014Ġnian2Ġ":6467,"1979Ġnian2Ġ":6468,"Ġtong2Ġshi2Ġgai1Ġdi4Ġ":6469,"Ġyong4":6470,"Ġkuan1":6471,"1972Ġnian2Ġ":6472,"bei1Ġsi1Ġ":6473,"Ġye3Ġzai4Ġ":6474,"fan4Ġzui4Ġ":6475,"sheng3ĠdeĠ":6476,"ling4Ġren2Ġ":6477,"arĠ":6478,"ĠĠĠ1Ġ":6479,"hui4Ġzhi4Ġ":6480,"Ġde2Ġzhu3Ġ":6481,"tao3Ġlun4":6482,"Ġji2Ġdi4Ġ":6483,"nei4Ġlu4Ġsheng3Ġfen4Ġ":6484,"1978Ġnian2Ġ":6485,"an1Ġhui1Ġ":6486,"ke1Ġxue2Ġjia1Ġ":6487,"ĠZ":6488,"tu2Ġxing2Ġ":6489,"pi1Ġzhun3":6490,"Ġyue1":6491,"Ġse":6492,"jiang1Ġzai4Ġ":6493,"Ġbing4Ġdu2Ġ":6494,"ci4ĠdeĠ":6495,"tiao4Ġ":6496,"yi2Ġding4":6497,"zhu2Ġbu4Ġ":6498,"ĠdeĠdi4Ġer4Ġ":6499,"shou4ĠdeĠ":6500,"shan1ĠdeĠ":6501,"Ġshi4Ġyin1Ġwei4Ġ":6502,"Ġke4Ġxi1Ġ":6503,"jie2Ġguo3":6504,"qiang2Ġlie4Ġ":6505,"ti2Ġgong1ĠleĠ":6506,"lian2Ġhe2Ġhui4Ġ":6507,"chao1Ġyue4Ġ":6508,"tai2Ġnan2":6509,"jian3Ġshao3":6510,"Ġyao1Ġqiu2Ġ":6511,"di1Ġyu2Ġ":6512,"Ġpo4Ġ":6513,"leĠzai4Ġ":6514,"pai4Ġqian3":6515,"xia4Ġling4Ġshi2Ġjian1Ġ":6516,"hai3Ġping2Ġmian4Ġ":6517,"bu2Ġdao4Ġ":6518,"Ġshi2Ġqi1ĠdeĠ":6519,"Ġyuan2Ġxing2Ġ":6520,"jia4Ġge2Ġ":6521,"ye3Ġzai4Ġ":6522,"Ġji1Ġhui4Ġ":6523,"Ġxue2Ġyuan4":6524,"hui1Ġfu4":6525,"guo4ĠdeĠ":6526,"ya4Ġmei3Ġ":6527,"bian1Ġjie4Ġ":6528,"Ġwan2Ġjia1Ġ":6529,"tou1Ġ":6530,"Ġguo2Ġnei4Ġ":6531,"dong3Ġshi4Ġzhang3Ġ":6532,"fang1Ġfa3":6533,"ti2Ġyi4Ġ":6534,"shu1Ġzhong1Ġ":6535,"xun1Ġzhang1Ġ":6536,"shi1Ġbai4Ġ":6537,"Ġjiao4Ġyu4Ġ":6538,"zhu3Ġyao4ĠdeĠ":6539,"zhu3Ġjiao4":6540,"Ġhao4ĠdeĠ":6541,"ni2Ġya4Ġzhou1Ġ":6542,"Ġhou4Ġbei4Ġ":6543,"guan1Ġcha2Ġ":6544,"Ġxue2Ġjia1Ġ":6545,"liu2Ġxia4Ġ":6546,"shuang1Ġfang1Ġ":6547,"ĠĠĠbei4Ġjing3Ġ":6548,"er2Ġtong2Ġ":6549,"1976Ġnian2Ġ":6550,"Ġyi1Ġli4Ġ":6551,"jia1Ġyi4Ġ":6552,"Ġbu4Ġdui4":6553,"Ġyi3Ġwei2Ġ":6554,"8Ġren2Ġ":6555,"wĠ":6556,"lian2Ġxu4":6557,"zhuang1Ġjia3Ġ":6558,"xian4ĠdeĠ":6559,"qin1Ġzi4Ġ":6560,"Ġer2ĠziĠ":6561,"bei3Ġjing1Ġshi4Ġ":6562,"Ġ1950":6563,"Ġyou3Ġsuo3Ġ":6564,"tionĠĠĠ":6565,"Ġzai4Ġshi2Ġ":6566,"zui4Ġgao1ĠdeĠ":6567,"hui4Ġyi4Ġyuan2Ġ":6568,"san1Ġjiao3":6569,"ĠĠĠdi4Ġfang1Ġzi1Ġliao4Ġ":6570,"ou3Ġ":6571,"fei1Ġchang2":6572,"ren4Ġwei4Ġ":6573,"ma3Ġer3Ġ":6574,"lan2ĠdeĠ":6575,"na2Ġxia4Ġ":6576,"ping2Ġtai2Ġ":6577,"ĠĠĠjian3Ġjie4Ġ":6578,"duo1Ġwei4Ġ":6579,"zu3Ġfu4Ġ":6580,"Ġhe2Ġyue1Ġ":6581,"1958Ġnian2Ġ":6582,"ĠĠĠ17":6583,"bei4ĠdeĠ":6584,"Ġli4Ġliang4Ġ":6585,"Ġchu1Ġkou3Ġ":6586,"gai3Ġbian4":6587,"Ġta1Ġceng2Ġdai4Ġbiao3Ġ":6588,"bian3Ġ":6589,"Ġdi4Ġli3Ġ":6590,"nan2Ġbei3Ġ":6591,"ping2Ġwei4Ġ":6592,"neng2Ġyuan2Ġ":6593,"laĠ":6594,"pi3Ġ":6595,"Ġdi4Ġqi1Ġ":6596,"Ġxian4Ġfa3Ġ":6597,"Ġhou4Ġzhe3Ġ":6598,"zi4ĠdeĠ":6599,"tai2Ġzhong1Ġ":6600,"di2Ġshi4Ġ":6601,"Ġzheng4Ġming2Ġ":6602,"Ġshi2Ġji4Ġshang4Ġ":6603,"Ġcheng2Ġzhen4Ġ":6604,"Ġmei3Ġyuan2Ġ":6605,"que1Ġfa2Ġ":6606,"Ġ2015Ġnian2Ġ":6607,"xuan3Ġzhong1Ġ":6608,"di2Ġren2Ġ":6609,"Ġli4Ġyi4Ġ":6610,"Ġ28":6611,"li3Ġhe2Ġ":6612,"sui2Ġji2Ġ":6613,"liao3Ġ":6614,"pai4Ġchu1Ġ":6615,"Ġzhong1Ġguo2Ġren2Ġmin2Ġjie3Ġfang4Ġjun1Ġ":6616,"duo1Ġzhong3Ġ":6617,"ying1Ġgai1Ġ":6618,"tan2Ġpan4Ġ":6619,"liao2Ġning2Ġ":6620,"Ġbu4Ġshao3Ġ":6621,"Ġsi1Ġta3Ġ":6622,"mian3Ġdian1":6623,"ti2Ġchu1ĠdeĠ":6624,"ying1Ġge2Ġlan2":6625,"tui4Ġxiu1Ġ":6626,"Ġda4Ġxue2ĠdeĠ":6627,"hai3Ġba2Ġwei4Ġ":6628,"Ġmei2":6629,"gan4Ġbu4Ġ":6630,"lei3Ġji4Ġ":6631,"Ġshi2Ġxing2Ġ":6632,"dang1Ġzhong1Ġ":6633,"jue2Ġyi4Ġ":6634,"xu4Ġli4Ġya4Ġ":6635,"shang1Ġren2Ġ":6636,"biao1Ġben3Ġ":6637,"fa1Ġsheng1Ġzai4Ġ":6638,"suo3Ġcai3Ġyong4":6639,"zhi3Ġdao3Ġ":6640,"Ġn":6641,"hua4Ġzhong1Ġ":6642,"mei3Ġzhou1":6643,"zan4Ġshi2Ġ":6644,"Ġju4Ġjue2Ġ":6645,"Ġba3":6646,"Ġfu4Ġjin4":6647,"Ġzhong1Ġgong4Ġzhong1Ġyang1Ġ":6648,"ceng2Ġwei4Ġ":6649,"Ġyi4Ġqing2Ġ":6650,"nong2Ġmin2Ġ":6651,"ci4Ġyu2Ġ":6652,"zhuan3Ġxiang4Ġ":6653,"chan2Ġ":6654,"fa1Ġshou4Ġ":6655,"ĠĠĠyin1Ġ":6656,"yi2Ġdai4Ġ":6657,"Ġde2Ġming2Ġ":6658,"xiu1Ġgai3Ġ":6659,"shui3Ġli4Ġ":6660,"rong2Ġhe2Ġ":6661,"Ġzhong1Ġguo2ĠdeĠ":6662,"fa1Ġming2Ġ":6663,"Ġqi2Ġwei4Ġ":6664,"zhi3Ġneng2Ġ":6665,"zi1Ġliao4":6666,"Ġming2Ġzhi4Ġ":6667,"Ġgong1Ġzhong4Ġ":6668,"zhu3Ġyan3Ġ":6669,"zhong3ĠziĠ":6670,"17Ġnian2Ġ":6671,"zi1Ġben3Ġ":6672,"a1Ġla1Ġbo2":6673,"xiang1Ġsi4Ġ":6674,"guan1Ġcha2":6675,"jie1Ġchu4Ġ":6676,"Ġbei3Ġjing1":6677,"kai1Ġshe4Ġ":6678,"xiu1Ġjian4Ġ":6679,"2025Ġnian2Ġ":6680,"jing4Ġji4Ġ":6681,"ĠdeĠshi4Ġjie4Ġ":6682,"Ġ2016Ġnian2Ġ":6683,"nu3Ġ":6684,"kai1Ġtong1Ġ":6685,"fa1Ġqi3Ġ":6686,"wu3Ġzhuang1":6687,"bao4Ġzha4Ġ":6688,"jie3Ġsan4Ġ":6689,"Ġcn":6690,"dian4Ġji1Ġ":6691,"stĠ":6692,"chai1Ġchu2Ġ":6693,"an1Ġpai2":6694,"ju3Ġban4ĠdeĠ":6695,"shen1Ġdu4Ġ":6696,"zhang1Ġzhuan1Ġji2Ġ":6697,"qu1Ġshi4Ġ":6698,"wei2Ġsi1Ġ":6699,"tuan2Ġti3":6700,"ji1Ġgou4Ġ":6701,"fu4Ġzhu3Ġren4Ġ":6702,"zu3Ġzhi1ĠdeĠ":6703,"Ġcha2":6704,"ze2Ġzai4Ġ":6705,"bian1Ġju4Ġ":6706,"feng1Ġxian3Ġ":6707,"diao4Ġkuai4":6708,"Ġ187":6709,"cheng2Ġhe2Ġ":6710,"isĠĠĠ":6711,"Ġyu3Ġqi2Ġta1Ġ":6712,"neng2Ġliang4Ġ":6713,"Ġsu4Ġ":6714,"ĠĠĠqi2":6715,"jie2ĠdeĠ":6716,"zao4ĠleĠ":6717,"Ġwei4ĠUTCĠ":6718,"Ġbu4Ġji2Ġ":6719,"Ġzhong1Ġshan1Ġ":6720,"shuai4Ġling3":6721,"ban4Ġshi4Ġchu4Ġ":6722,"ĠcnĠ":6723,"shou3Ġzhong1Ġ":6724,"pei4Ġzhi4Ġ":6725,"qiu2Ġji4Ġ":6726,"ying1Ġxiong2Ġ":6727,"Ġxi1Ġban1Ġya2Ġ":6728,"ĠĠĠdui4Ġ":6729,"you2Ġji1Ġ":6730,"luo2Ġli3Ġ":6731,"jiao4Ġtang2":6732,"ge2Ġla1Ġ":6733,"jiu4Ġdu2Ġ":6734,"shang1Ġye4":6735,"xiao1Ġfei4Ġ":6736,"diao4Ġkuai4Ġyi1Ġxiao3Ġshi2Ġ":6737,"kun4Ġ":6738,"ĠdeĠying3Ġxiang3Ġ":6739,"qiang2Ġdiao4Ġ":6740,"Ġtang2":6741,"Ġji2ĠUTCĠ":6742,"ke1Ġxue2Ġyuan4Ġ":6743,"she4Ġyou3Ġxia4Ġling4Ġshi2Ġjian1Ġ":6744,"ĠdeĠshi2Ġqu1Ġwei4ĠUTCĠ":6745,"Ġer2Ġgai1Ġdi4Ġsuo3Ġcai3Ġyong4":6746,"Ġtong2Ġshi2Ġgai1Ġdi4Ġshe4Ġyou3Ġxia4Ġling4Ġshi2Ġjian1Ġ":6747,"Ġer2Ġgai1Ġdi4Ġsuo3Ġcai3Ġyong4ĠdeĠshi2Ġqu1Ġwei4ĠUTCĠ":6748,"hou4Ġwei4Ġ":6749,"bao3Ġliu2":6750,"Ġtong2Ġyang4":6751,"xin4Ġyang3Ġ":6752,"ta1ĠmenĠdeĠ":6753,"shuai1Ġ":6754,"Ġda4Ġjiang3Ġ":6755,"Ġling4Ġyou3Ġ":6756,"Ġyi1Ġsi1Ġlan2Ġ":6757,"Ġge1":6758,"yuan2Ġzhu4Ġ":6759,"tai4Ġdu4Ġ":6760,"chuan2Ġbo1Ġ":6761,"Ġgai1Ġcun1Ġ":6762,"ĠĠĠ2Ġ":6763,"suo3Ġzai4Ġdi4Ġ":6764,"que4ĠdeĠ":6765,"zhi1Ġjian1ĠdeĠ":6766,"Ġce4Ġ":6767,"ĠĠĠjiao1Ġtong1Ġ":6768,"fa1Ġshe4":6769,"Ġshi2Ġwu4Ġ":6770,"ding4Ġju1Ġ":6771,"Ġli4Ġshi3Ġshang4Ġ":6772,"gao1Ġyu2Ġhai3Ġping2Ġmian4Ġ":6773,"Ġni3Ġ":6774,"xing4Ġwei4Ġ":6775,"Ġwei4Ġfu2Ġqi2Ġyu2Ġgang1Ġ":6776,"5Ġmi3Ġ":6777,"zhu2Ġjian4":6778,"Ġbu4Ġneng2":6779,"Ġgong1Ġjue2Ġ":6780,"Ġer3Ġduo1Ġ":6781,"Ġma3Ġlai2":6782,"wu4Ġhe2Ġ":6783,"hu4Ġxiang1Ġ":6784,"ĠĠĠqing1Ġ":6785,"Ġqi2Ġxia4Ġ":6786,"chu4ĠdeĠhai3Ġba2Ġwei4Ġ":6787,"chu4ĠdeĠhai3Ġba2Ġwei4Ġgao1Ġyu2Ġhai3Ġping2Ġmian4Ġ":6788,"Ġwei4Ġda4Ġ":6789,"Ġyin1Ġsu4Ġ":6790,"Ġjia3":6791,"ti3Ġzhi4Ġ":6792,"Ġyu2Ġle4":6793,"chang3Ġsuo3Ġ":6794,"jing4Ġxuan3Ġ":6795,"Ġlu3Ġ":6796,"wu4Ġshi4Ġ":6797,"qia4Ġ":6798,"Ġzhi1Ġyi4Ġ":6799,"gao1Ġxiong2":6800,"kuang2Ġ":6801,"Ġhe2Ġpan4Ġ":6802,"Ġbu4Ġjin3Ġ":6803,"Ġyi3Ġxi1Ġ":6804,"ĠĠĠ190":6805,"fa1Ġxian4ĠdeĠ":6806,"zhong4Ġshi4Ġ":6807,"ctionĠĠĠ":6808,"Ġqi2Ġshi2Ġ":6809,"Ġsui2Ġzhu4Ġ":6810,"Ġ8Ġ":6811,"nan2Ġjing1":6812,"zhang3Ġda2Ġ":6813,"yun4Ġshu1":6814,"Ġdan1":6815,"Ġ2008":6816,"Ġ2017Ġnian2Ġ":6817,"shi4ĠĠĠ":6818,"lu4Ġzhi4Ġ":6819,"shu4Ġshi2Ġ":6820,"nei4Ġdi4Ġ":6821,"bian1Ġhao4Ġ":6822,"shi2Ġqu1Ġ":6823,"chong2Ġqing4":6824,"jian4Ġcheng2Ġ":6825,"geng1Ġxin1Ġ":6826,"Ġyi1Ġjia1Ġ":6827,"Ġxi1Ġlan2Ġ":6828,"yun4Ġyong4Ġ":6829,"Ġzi4Ġran2Ġ":6830,"Ġzheng1Ġ":6831,"ĠĠĠma3Ġ":6832,"bi4Ġye4Ġhou4Ġ":6833,"Ġ24":6834,"Ġzheng4Ġzhi4Ġ":6835,"ĠĠĠran2":6836,"er4Ġji2Ġ":6837,"Ġli4Ġren4Ġ":6838,"wei2Ġer3Ġ":6839,"zhi2Ġzheng4Ġ":6840,"dian4Ġqi4Ġ":6841,"shan1Ġfeng1Ġ":6842,"xiao4Ġqu1Ġ":6843,"Ġwei4Ġyu2Ġgai1Ġ":6844,"16Ġnian2Ġ":6845,"60Ġ":6846,"Ġchu2":6847,"zhe3Ġshi4Ġ":6848,"wang2Ġshi4Ġ":6849,"veĠ":6850,"Ġwan2Ġ":6851,"jiu4Ġhui4Ġ":6852,"xia2Ġqu1Ġ":6853,"xuan1Ġchuan2":6854,"ĠĠĠben3":6855,"bao1Ġwei2Ġ":6856,"bang4Ġqiu2Ġ":6857,"Ġzuo4Ġchu1Ġ":6858,"Ġxie4Ġ":6859,"xue2Ġyuan2Ġ":6860,"cuo4Ġwu4Ġ":6861,"Ġdi4Ġqiu2":6862,"jin1Ġrong2Ġ":6863,"Ġyu4Ġshi3Ġ":6864,"Ġxu1Ġ":6865,"hou4Ġyi4Ġ":6866,"dong1Ġfang1Ġ":6867,"bei3Ġshi4Ġ":6868,"jing1Ġchang2":6869,"Ġran2Ġer2":6870,"Ġci4Ġnian2Ġ":6871,"veĠĠĠ":6872,"Ġjie2Ġke4Ġ":6873,"hui4Ġyu2Ġ":6874,"teĠĠĠ":6875,"Ġsi1Ġke1Ġ":6876,"Ġdui4Ġshou3Ġ":6877,"Ġxing2Ġzheng4Ġqu1Ġ":6878,"zhen4Ġqu1ĠdeĠmian4Ġji1Ġwei4Ġ":6879,"9Ġren2Ġ":6880,"Ġhu2":6881,"ming2Ġshi4Ġ":6882,"Ġzhou1Ġci4Ġshi3Ġ":6883,"Ġsheng1Ġya2Ġ":6884,"Ġhuan4Ġ":6885,"jia1Ġyi3Ġ":6886,"fu2ĠdeĠ":6887,"ju2ĠdeĠ":6888,"ke3Ġzai4Ġ":6889,"ma3Ġke4Ġ":6890,"Ġta1Ġyi3Ġ":6891,"Ġyuan2Ġzi4Ġ":6892,"zao4Ġcheng2ĠdeĠ":6893,"ĠY":6894,"Ġli3Ġxi1Ġ":6895,"zhi2Ġmin2Ġ":6896,"ping2Ġlun4":6897,"fu1Ġka3Ġ":6898,"Ġdang1Ġshi2ĠdeĠ":6899,"fĠ":6900,"Ġyi2":6901,"ao4Ġzhou1Ġ":6902,"Ġnian2Ġlai2Ġ":6903,"Ġyi1Ġju4Ġ":6904,"qian1Ġshu3Ġ":6905,"ji4Ġyou3Ġ":6906,"shi3Ġjian4Ġyu2Ġ":6907,"ren4ĠdeĠ":6908,"ye3Ġbei4Ġ":6909,"mian4Ġshang4Ġ":6910,"gong1Ġgong4Ġ":6911,"Ġsi1Ġke4":6912,"Ġer2Ġtong2Ġ":6913,"Ġ2018Ġnian2Ġ":6914,"Ġxue2Ġzhe3Ġ":6915,"Ġdai4":6916,"deng3Ġji2Ġ":6917,"pao3Ġ":6918,"1968Ġnian2Ġ":6919,"Ġjian4Ġshe4":6920,"Ġwei2Ġrao4":6921,"Ġye3Ġbei4Ġ":6922,"Ġqi2Ġzhong1Ġbao1Ġkuo4Ġ":6923,"jia1Ġzai4Ġ":6924,"Ġ2009":6925,"ban4ĠdeĠ":6926,"tu1Ġran2Ġ":6927,"hai3Ġyang2Ġ":6928,"qi4Ġche1":6929,"chu1Ġban3":6930,"lai2Ġyin1Ġ":6931,"ge2Ġshi4Ġ":6932,"ji1Ġzai4Ġ":6933,"jun4Ġgong1Ġ":6934,"Ġde2Ġzhi1Ġ":6935,"Ġji1Ġjin1Ġhui4Ġ":6936,"xiao1Ġshi1Ġ":6937,"xiao4Ġli4Ġyu2Ġ":6938,"Ġ2019Ġnian2Ġ":6939,"ji4Ġnian4":6940,"ru2Ġguo3Ġ":6941,"ling4Ġyi2Ġge4Ġ":6942,"tian2Ġjing4Ġ":6943,"tao2Ġtai4Ġ":6944,"Ġfu2Ġwu4Ġ":6945,"Ġdian4Ġshi4Ġ":6946,"chĠ":6947,"Ġwei4Ġdui4Ġ":6948,"Ġji2Ġda4Ġ":6949,"yan2Ġhai3Ġ":6950,"dang1Ġdi4ĠdeĠ":6951,"jiang4Ġling3Ġ":6952,"19Ġshi4Ġji4Ġ":6953,"ping2Ġyuan2Ġ":6954,"er4Ġren2Ġ":6955,"wei3Ġyuan2Ġhui4Ġwei3Ġyuan2Ġ":6956,"Ġli3Ġya4Ġ":6957,"Ġ2Ġyue4Ġ":6958,"ĠĠĠjin3Ġ":6959,"dui4Ġqi2Ġ":6960,"reĠ":6961,"bei4Ġjing3Ġ":6962,"ka3Ġluo2Ġ":6963,"Ġqin1Ġ":6964,"Ġlian2Ġhe2Ġ":6965,"jin4Ġbu4Ġ":6966,"liang3Ġguo2Ġ":6967,"te4Ġding4Ġ":6968,"fen4Ġzi3":6969,"da4Ġbu4Ġ":6970,"ding4Ġyu2Ġ":6971,"Ġqi2ĠdeĠ":6972,"ĠdeĠbu4Ġfen4Ġ":6973,"zhi2Ġmin2Ġdi4Ġ":6974,"Ġ26":6975,"ĠĠĠsheng4Ġ":6976,"gai3Ġzao4Ġ":6977,"Ġbai3":6978,"ao1Ġ":6979,"jiao4Ġda4Ġ":6980,"Ġzhi4Ġzuo4ĠdeĠ":6981,"Ġji1Ġdu1Ġ":6982,"chuan2Ġtong3ĠdeĠ":6983,"Ġ2023":6984,"guan1Ġjian4Ġ":6985,"sheng1Ġya2":6986,"Ġbu4Ġbu4Ġzhang3Ġ":6987,"Ġgan3Ġ":6988,"Ġyun2Ġ":6989,"enĠĠĠ":6990,"jing1Ġshen2":6991,"li2Ġkai1":6992,"Ġqian2Ġwang3Ġ":6993,"Ġe4Ġ":6994,"dian3Ġshi4Ġ":6995,"1970Ġnian2Ġ":6996,"yi4Ġshu4Ġ":6997,"shu1Ġyuan4Ġ":6998,"quan2Ġmian4Ġ":6999,"shou1Ġgou4Ġ":7000,"mo4Ġxi1Ġge1Ġ":7001,"zhen4ĠdeĠ":7002,"tui1Ġchu1":7003,"guo2Ġjia1":7004,"Ġdi4Ġtie3":7005,"Ġxian4Ġyi3Ġ":7006,"Ġji1Ġchu3":7007,"Ġju4Ġli2":7008,"Ġxian2Ġ":7009,"san1Ġming2Ġ":7010,"gou3Ġ":7011,"Ġluo2Ġma3Ġ":7012,"Ġxian1":7013,"Ġ23":7014,"wen2ĠdeĠ":7015,"Ġshi2Ġduan4Ġ":7016,"jie1Ġduan4":7017,"liang3Ġci4Ġ":7018,"cai2Ġneng2Ġ":7019,"ai4Ġer3Ġlan2Ġ":7020,"hun1Ġyin1Ġ":7021,"touĠ":7022,"da4Ġlu4":7023,"Ġyi4Ġyu2Ġ":7024,"Ġshan1Ġdong1Ġ":7025,"a1Ġla1Ġbo2Ġ":7026,"Ġsha1":7027,"mu4ĠdeĠ":7028,"liang3Ġwei4Ġ":7029,"jing4Ġzheng1Ġ":7030,"bo1Ġsi1Ġ":7031,"hui4Ġzhang3Ġ":7032,"man3Ġzu2Ġ":7033,"Ġdian4Ġying3":7034,"qi1Ġwei4Ġ":7035,"pei4Ġyin1Ġ":7036,"Ġdi4Ġdian3Ġ":7037,"Ġting2Ġ":7038,"ĠĠĠnan2Ġ":7039,"xin1Ġcheng2Ġ":7040,"1981Ġnian2Ġ":7041,"zheng4Ġju4Ġ":7042,"hu4Ġlian2Ġ":7043,"lian2ĠdeĠ":7044,"xiu1Ġfu4Ġ":7045,"Ġbing4Ġyou2Ġ":7046,"Ġyou2Ġji1Ġ":7047,"Ġfa1Ġxian4Ġ":7048,"la1Ġji1Ġ":7049,"kao4Ġjin4Ġ":7050,"1956Ġnian2Ġ":7051,"Ġdi4Ġdai4Ġ":7052,"Ġli4Ġshi2Ġ":7053,"jie3Ġfang4Ġ":7054,"Ġwu2Ġfa3Ġ":7055,"nei4Ġzhan4Ġ":7056,"bo1Ġshi4Ġ":7057,"Ġwei2Ġchi2":7058,"zai1Ġpei2Ġ":7059,"Ġshou3":7060,"Ġchong1Ġ":7061,"dui4Ġzhang3Ġ":7062,"fa1Ġqi3":7063,"ju1Ġzhu4Ġzai4Ġ":7064,"lĠĠĠ":7065,"zhe4Ġshi4Ġ":7066,"zao3Ġzai4Ġ":7067,"dian4Ġnao3Ġ":7068,"Ġz":7069,"bing4Ġbu4Ġ":7070,"shou3Ġxiang4Ġ":7071,"shan1Ġqu1Ġ":7072,"jiao1Ġliu2":7073,"zu2Ġqiu2Ġju4Ġle4Ġbu4Ġ":7074,"Ġbai4Ġ":7075,"li3Ġcheng2Ġ":7076,"tai4Ġyang2":7077,"Ġguo2Ġwu4Ġyuan4Ġ":7078,"Ġliu4Ġ":7079,"wei3Ġfu4Ġ":7080,"qi3Ġyuan2Ġ":7081,"Ġshi4Ġde2Ġguo2Ġ":7082,"yan2Ġse4Ġ":7083,"cun1Ġluo4Ġ":7084,"fu1ĠdeĠ":7085,"ji1Ġchu3":7086,"Ġda4Ġlou2":7087,"xiang4Ġzheng1Ġ":7088,"Ġwei2Ġsi1Ġ":7089,"tian1Ġti3Ġ":7090,"dou1Ġbei4Ġ":7091,"1960Ġnian2Ġ":7092,"Ġbu4Ġbing1Ġ":7093,"Ġyu3Ġyan2":7094,"ĠĠĠdi4Ġer4Ġ":7095,"Ġ2004Ġnian2Ġ":7096,"liu4Ġshi2Ġ":7097,"Ġzhi4Ġliang4Ġ":7098,"Ġzhou1Ġfu3Ġ":7099,"lang2Ġzhong1Ġ":7100,"Ġyi1Ġyuan4":7101,"Ġxing2Ġmu4Ġ":7102,"chang2Ġdu4Ġ":7103,"xing4Ġhe2Ġ":7104,"1920Ġnian2Ġ":7105,"Ġyi3Ġwai4Ġ":7106,"luo4Ġfa2":7107,"juan4Ġ":7108,"Ġzhi4Ġdi4Ġ":7109,"Ġyu3Ġyi1Ġ":7110,"shi1Ġqu4":7111,"wu2Ġzheng4Ġzhuang4Ġgan3Ġran3Ġzhe3Ġ":7112,"Ġxing1":7113,"zui4Ġchu1":7114,"liang4Ġwei4Ġ":7115,"mu3ĠdeĠ":7116,"Ġde2Ġsi1Ġ":7117,"Ġ2020Ġnian2Ġ":7118,"1964Ġnian2Ġ":7119,"xie3Ġzuo4Ġ":7120,"meng4Ġjia1Ġ":7121,"fu4Ġhe2Ġ":7122,"te4Ġxing4Ġ":7123,"Ġwei4Ġyu2Ġmei3Ġguo2Ġ":7124,"jia3Ġdi4Ġ":7125,"ao4Ġmen2":7126,"Ġzui4Ġjia1Ġ":7127,"2Ġge4Ġ":7128,"zhi2Ġye4Ġsheng1Ġya2Ġ":7129,"Ġding1Ġ":7130,"suo3ĠdeĠ":7131,"fu2Ġli4Ġ":7132,"Ġxian4Ġji2Ġ":7133,"suo3Ġwei4Ġ":7134,"jue2Ġshi4Ġ":7135,"zhuan4ĠdeĠ":7136,"ĠĠĠ2008":7137,"zong1Ġyi4Ġ":7138,"zi4Ġmu3Ġ":7139,"ling2Ġchen2Ġ":7140,"Ġbao3":7141,"tou4Ġlu4Ġ":7142,"chuang2Ġ":7143,"dong1Ġbei3":7144,"Ġyi4Ġshi4Ġ":7145,"ping2ĠdeĠ":7146,"1948Ġnian2Ġ":7147,"ou3Ġxiang4Ġ":7148,"kao3Ġshi4Ġ":7149,"Ġfu2Ġjian4Ġ":7150,"Ġyi2Ġge4":7151,"Ġgen1Ġ":7152,"Ġza2Ġzhi4Ġ":7153,"ĠĠĠge4Ġren2Ġ":7154,"zong3Ġren2Ġkou3Ġ":7155,"Ġdi4Ġfang1":7156,"Ġxian4Ġcheng2Ġ":7157,"Ġli3Ġke4Ġ":7158,"Ġde2Ġla1Ġ":7159,"kong1Ġqi4Ġ":7160,"Ġnuo4Ġ":7161,"xi1Ġhe2Ġ":7162,"na4ĠdeĠ":7163,"zuo4Ġwei2":7164,"zhu3Ġzhang1Ġ":7165,"xi1Ġnan2Ġ":7166,"Ġ50":7167,"hui2Ġyi4Ġ":7168,"fen2Ġ":7169,"1975Ġnian2Ġ":7170,"Ġyi3Ġzai4Ġ":7171,"Ġye3Ġke3Ġyi3Ġ":7172,"pu2Ġtao2Ġya2Ġ":7173,"Ġcan1Ġyu4Ġ":7174,"Ġzuo4Ġzhan4Ġ":7175,"xun2Ġzhao3":7176,"qi1Ġshi2Ġ":7177,"zou3Ġxiang4Ġ":7178,"1952Ġnian2Ġ":7179,"nan2ĠdeĠ":7180,"Ġcheng2Ġke4Ġ":7181,"su1Ġge2Ġlan2Ġ":7182,"Ġtai4":7183,"ĠĠĠ10":7184,"ĠĠĠren2Ġ":7185,"che1Ġdui4Ġ":7186,"Ġer3Ġshi4Ġ":7187,"hu4Ġbu4Ġ":7188,"Ġdi4Ġtu2Ġ":7189,"Ġyuan2Ġben3":7190,"Ġchu1Ġdao4Ġ":7191,"yin4Ġni2Ġ":7192,"Ġ2007":7193,"Ġ35":7194,"Ġsun1Ġ":7195,"Ġ2021Ġnian2Ġ":7196,"wu3Ġshi4Ġ":7197,"gu3Ġli4Ġ":7198,"shou1Ġdao4Ġ":7199,"wa3Ġer3Ġsheng3Ġ":7200,"shi3Ġshang4Ġ":7201,"shou3Ġdu1":7202,"xin4Ġyang3":7203,"Ġku4Ġ":7204,"guo4ĠleĠ":7205,"guan3Ġzhi4Ġ":7206,"luo4Ġcheng2Ġ":7207,"Ġgong1Ġli3ĠdeĠ":7208,"zhu3Ġyi4Ġzhe3Ġ":7209,"4Ġge4Ġ":7210,"Ġwei4Ġyuan2Ġ":7211,"Ġyi3Ġyu2Ġ":7212,"guo4Ġdu4Ġ":7213,"guang3Ġchang3":7214,"yan2Ġren2Ġ":7215,"xian3Ġzhu4Ġ":7216,"guo2Ġwu4Ġ":7217,"Ġshi2Ġyan4Ġshi4Ġ":7218,"Ġsi1Ġling4Ġbu4Ġ":7219,"shi3Ġren2Ġ":7220,"jiang1Ġyu2Ġ":7221,"du4Ġhe2Ġ":7222,"bi4ĠdeĠ":7223,"mai4Ġke4Ġ":7224,"baĠ":7225,"Ġdi4Ġliu4Ġ":7226,"zhuan1Ġye4":7227,"wang4Ġyuan3Ġ":7228,"xi1Ġdi4Ġ":7229,"shang4Ġxian4Ġ":7230,"si4ĠdeĠ":7231,"xiu1Ġdao4Ġ":7232,"siĠ":7233,"Ġda4Ġgong1Ġ":7234,"ge2Ġli2Ġ":7235,"Ġfu4Ġjin4ĠdeĠ":7236,"bei4Ġcheng1Ġwei2Ġ":7237,"shao4Ġnv3Ġ":7238,"yan2Ġzhi4Ġ":7239,"dong1Ġjing1":7240,"yu2Ġhe2Ġ":7241,"xiang1Ġguan1ĠdeĠ":7242,"deng3Ġdeng3Ġ":7243,"fan3Ġhui2":7244,"ĠĠĠyue4Ġ":7245,"di4Ġhe2Ġ":7246,"fang4Ġzai4Ġ":7247,"Ġji2Ġshi3Ġ":7248,"jian1Ġyu4Ġ":7249,"mian3Ġfei4Ġ":7250,"jiao3Ġdu4Ġ":7251,"zuo3Ġyi4Ġ":7252,"Ġcheng2Ġben3Ġ":7253,"wei2Ġzhu3Ġ":7254,"Ġzhen1":7255,"thĠ":7256,"Ġxing2Ġdong4":7257,"cai3Ġqu3":7258,"guan3Ġli3Ġju2Ġ":7259,"tai2Ġbei3Ġshi4Ġ":7260,"Ġ29":7261,"Ġdang3Ġ":7262,"ĠĠĠdang1Ġ":7263,"Ġyue4Ġdui4Ġ":7264,"Ġjun1Ġqu1Ġ":7265,"bi4Ġmian3":7266,"kong1Ġjian1":7267,"xing2Ġtai4Ġ":7268,"ao4Ġer3Ġ":7269,"she4Ġbei4Ġ":7270,"xiang1Ġshi4Ġ":7271,"ka3Ġsi1Ġ":7272,"cai3Ġfang3":7273,"fei4Ġchu2Ġ":7274,"shan1Ġxian4Ġ":7275,"Ġer2Ġfei1Ġ":7276,"luo4Ġshan1Ġji1Ġ":7277,"jia4Ġshi3Ġ":7278,"Ġ25":7279,"xi1Ġbei3Ġ":7280,"hen3Ġkuai4Ġ":7281,"zheng4Ġfu3ĠdeĠ":7282,"shang4Ġdi4Ġ":7283,"dao3Ġshang4Ġ":7284,"huai4Ġ":7285,"Ġzai4Ġhe2Ġ":7286,"Ġke4Ġer3Ġ":7287,"Ġshe4Ġyu2Ġ":7288,"gai3Ġshan4Ġ":7289,"Ġ27":7290,"ci3Ġtong2Ġshi2Ġ":7291,"Ġshen2":7292,"Ġ2002Ġnian2Ġ":7293,"ĠĠĠ2009":7294,"kai1Ġgong1Ġ":7295,"tong1Ġzhi1Ġ":7296,"li3Ġlun4":7297,"bo1Ġli2Ġ":7298,"Ġkai3Ġ":7299,"ci2Ġzhi2Ġ":7300,"Ġcai4":7301,"Ġfeng4Ġ":7302,"jiu4Ġyuan2Ġ":7303,"wa2Ġ":7304,"ĠĠĠsi1Ġ":7305,"ci2ĠdeĠ":7306,"hun2Ġ":7307,"Ġdi4Ġyi1Ġci4":7308,"Ġpu3":7309,"Ġxie4":7310,"ĠĠĠzheng4Ġ":7311,"he2Ġzai4Ġ":7312,"ye3Ġhui4Ġ":7313,"Ġzhi1Ġshi4Ġ":7314,"hai3Ġan4":7315,"e2Ġluo2Ġsi1ĠdeĠ":7316,"ĠĠĠc":7317,"ĠĠĠCh":7318,"kou3ĠdeĠ":7319,"Ġyi4Ġjian4Ġ":7320,"Ġyong3":7321,"Ġwei4Ġzai4Ġ":7322,"shen2Ġme":7323,"Ġsuo1Ġ":7324,"ĠĠĠRe":7325,"Ġdiao4Ġ":7326,"zheng1Ġyue4Ġ":7327,"ti4Ġdai4Ġ":7328,"Ġren2Ġda4Ġ":7329,"ji4Ġsuan4":7330,"chu4Ġzhang3Ġ":7331,"chong1Ġtu1":7332,"Ġxiao3Ġshi2Ġ":7333,"jiu3ĠdeĠ":7334,"jin3Ġyou3Ġ":7335,"qiang2Ġzhi4Ġ":7336,"Ġshi2Ġxian4":7337,"jian1Ġdu1Ġ":7338,"yin3Ġyong4Ġ":7339,"Ġse4Ġ":7340,"ĠĠĠMa":7341,"ying3Ġshi4Ġ":7342,"ti2Ġchu1ĠleĠ":7343,"wai4Ġjiao1Ġbu4Ġ":7344,"eng4Ġ":7345,"xue2Ġzhong1Ġ":7346,"qiang2ĠdeĠ":7347,"Ġge4Ġguo2Ġ":7348,"min2Ġzhu3Ġdang3":7349,"Ġjue2Ġding4Ġ":7350,"shan1Ġdi4Ġ":7351,"1966Ġnian2Ġ":7352,"Ġmi4Ġ":7353,"ĠĠĠba1Ġ":7354,"feng1Ġfu4Ġ":7355,"xi3Ġhuan1Ġ":7356,"hĠ":7357,"Ġban3Ġ":7358,"si1Ġshi4Ġ":7359,"nuo2Ġwei1":7360,"1937Ġnian2Ġ":7361,"Ġzhu3Ġyan3Ġ":7362,"Ġkai3":7363,"ĠĠĠgu4Ġshi4Ġ":7364,"Ġsi1Ġma3Ġ":7365,"Ġhao4Ġxian4":7366,"ceng2Ġyu2Ġ":7367,"Ġge4Ġzhong3":7368,"zhang3Ġguan1Ġ":7369,"zong1Ġjiao4":7370,"xiao3Ġxing2Ġxing1":7371,"Ġe2Ġ":7372,"tian1Ġhou4Ġ":7373,"Ġshi2Ġhou4Ġ":7374,"mo4Ġxi1Ġge1":7375,"1974Ġnian2Ġ":7376,"Ġyou3Ġxie1":7377,"pu3Ġbian4":7378,"Ġfen1Ġbie2Ġ":7379,"bu4ĠdeĠcun1Ġzhuang1Ġ":7380,"ĠĠĠyi3Ġxia4":7381,"guan3ĠdeĠ":7382,"li2Ġmi3Ġ":7383,"zan4Ġzhu4Ġ":7384,"fa1Ġdong4Ġji1Ġ":7385,"ce4Ġliang2Ġ":7386,"yin4Ġshua1":7387,"ĠĠĠCo":7388,"cu4Ġjin4Ġ":7389,"Ġyue4Ġlai2Ġyue4Ġ":7390,"liu2Ġyu4Ġ":7391,"lie4Ġru4Ġ":7392,"Ġkou3Ġ":7393,"kou4Ġ":7394,"gu3Ġlao3":7395,"a1Ġgen1Ġ":7396,"ma3Ġlai2Ġxi1Ġya4":7397,"ĠĠĠwei2Ġ":7398,"ta1Ġzai4Ġ":7399,"jiang4Ġyu3Ġ":7400,"liao3Ġjie3Ġ":7401,"jia1Ġting2Ġ":7402,"che1Ġxiang1Ġ":7403,"Ġfa3":7404,"Ġlei2":7405,"ĠĠĠf":7406,"fu4Ġshi4Ġ":7407,"lie4Ġchu1Ġ":7408,"ĠdeĠju4Ġ":7409,"Ġcheng2Ġxian4":7410,"Ġzhi1Ġdi4Ġ":7411,"jing1Ġdian3Ġ":7412,"Ġdan4Ġbai2Ġ":7413,"ting2Ġche1Ġ":7414,"Ġpa4Ġ":7415,"ying1Ġli3Ġ":7416,"yun3Ġshi2Ġ":7417,"1946Ġnian2Ġ":7418,"Ġxian4Ġshang4Ġ":7419,"can1Ġxuan3Ġ":7420,"qiang2Ġdu4Ġ":7421,"su1Ġwei2Ġ":7422,"guan4Ġjun1":7423,"Ġbu4Ġshao3":7424,"Ġzhi1Ġjia1Ġ":7425,"chuang4Ġzuo4ĠdeĠ":7426,"Ġtiao2Ġ":7427,"Ġchuan1Ġ":7428,"ĠĠĠfu4Ġ":7429,"Ġke4Ġhe2Ġ":7430,"bi4Ġmian3Ġ":7431,"ĠQ":7432,"shui2":7433,"tong2Ġxing4Ġ":7434,"zao3Ġshang4Ġ":7435,"ni4Ġ":7436,"1955Ġnian2Ġ":7437,"zhu3Ġti2":7438,"Ġxiang1Ġdang1":7439,"sen1Ġlin2":7440,"Ġfu4Ġze2Ġguan3Ġxia2Ġ":7441,"Ġì":7442,"la1ĠdeĠ":7443,"ming2Ġdan1Ġ":7444,"zhan4Ġtai2Ġ":7445,"cai2Ġliao4":7446,"guo2Ġshi4Ġ":7447,"hu1Ġyu4Ġ":7448,"Ġgong1Ġying4Ġ":7449,"jian1Ġren4Ġ":7450,"bo2Ġlin2Ġ":7451,"dian4Ġshi4Ġtai2":7452,"xuan3Ġju3Ġzhong1Ġ":7453,"xia4Ġzai4Ġ":7454,"Ġyi1Ġzhi2Ġ":7455,"guan1Ġfang1":7456,"suo3Ġyou3ĠdeĠ":7457,"jing3Ġgao4Ġ":7458,"jian4Ġzhu4":7459,"di1Ġqi4Ġ":7460,"ĠĠĠzeng1Ġzu3Ġ":7461,"Ġkao3Ġ":7462,"hai2Ġzai4Ġ":7463,"1954Ġnian2Ġ":7464,"nan2Ġzi":7465,"ti3Ġyu4Ġchang3Ġ":7466,"guang3Ġzhou1":7467,"sao1Ġ":7468,"lian2Ġjie1":7469,"a3Ġ":7470,"la1Ġde2Ġ":7471,"shu1Ġchu1Ġ":7472,"Ġgong1Ġneng2":7473,"yin3Ġru4Ġ":7474,"zhao4Ġpian1Ġ":7475,"lan2Ġxi1Ġ":7476,"dun4ĠdeĠ":7477,"Ġbu4Ġman3Ġ":7478,"Ġqiu2ĠdeĠ":7479,"yin2Ġpai2Ġ":7480,"yao2Ġgun3":7481,"Ġm":7482,"Ġt":7483,"ceng2ĠdeĠ":7484,"Ġer2Ġgai1Ġdi4ĠdeĠ":7485,"nuo2Ġwei1Ġ":7486,"guo2Ġwang2Ġ":7487,"Ġyu3Ġqi2Ġ":7488,"qi1Ġzi3":7489,"an1Ġzhuang1Ġ":7490,"Ġxu4Ġ":7491,"xu4Ġli4Ġya4":7492,"shen1Ġqing3":7493,"zao3Ġqi1ĠdeĠ":7494,"ĠĠĠ4":7495,"shi2Ġhe2Ġ":7496,"tu2ĠdeĠ":7497,"mou3Ġxie1":7498,"fei1Ġxing2":7499,"Ġji4Ġlu4":7500,"Ġchu1Ġyan3Ġ":7501,"Ġni3":7502,"zhi1Ġshi2Ġ":7503,"zhan4Ġdi4Ġ":7504,"qiu2Ġhui4Ġ":7505,"Ġbei4Ġer3":7506,"Ġ000Ġ":7507,"zhan4Ġshi2Ġ":7508,"zao1Ġyu4Ġ":7509,"Ġwei4Ġneng2":7510,"xia4Ġlai2Ġ":7511,"Ġzu2":7512,"Ġhe2Ġgu3Ġ":7513,"Ġcheng2ĠleĠ":7514,"Ġyi3Ġqian2Ġ":7515,"Ġji4Ġyi4Ġ":7516,"Ġke4Ġli4Ġ":7517,"fa1Ġsheng1ĠdeĠ":7518,"shi1Ġqu4Ġ":7519,"gu3Ġla1Ġ":7520,"Ġshun4":7521,"qian2Ġhou4Ġ":7522,"zu3ĠdeĠ":7523,"bian1Ġyuan2Ġ":7524,"mo4Ġer3Ġ":7525,"zhong1Ġyang1Ġ":7526,"Ġjia1Ġting2":7527,"Ġxiang1Ġtong2Ġ":7528,"xing1Ġqi1":7529,"you1Ġxiu4":7530,"Ġyi3Ġse4Ġlie4Ġ":7531,"dui4Ġyuan2Ġ":7532,"te4Ġli4Ġ":7533,"Ġshi2Ġbao4Ġ":7534,"shan1Ġdong1Ġsheng3Ġ":7535,"Ġzhao1Ġhe2Ġ":7536,"Ġzu2Ġ":7537,"chong3":7538,"Ġdui4Ġci3Ġ":7539,"ĠĠĠgai4Ġyao4Ġ":7540,"Ġ2006":7541,"san1Ġda4Ġ":7542,"mi3ĠdeĠ":7543,"niang2Ġ":7544,"tai4Ġkong1Ġ":7545,"Ġzi4Ġyou2":7546,"bao3ĠdeĠ":7547,"Ġjun1Ġdi4Ġ":7548,"Ġsheng1Ġming2Ġ":7549,"Ġzhi3Ġzai4Ġ":7550,"Ġqing3Ġ":7551,"Ġ2000Ġnian2Ġ":7552,"zha4Ġdan4Ġ":7553,"ĠRe":7554,"wang3Ġshang4Ġ":7555,"ta3Ġer3Ġ":7556,"Ġdi4Ġzhen4Ġ":7557,"xia4Ġjiang4Ġ":7558,"ling3Ġdao3ĠdeĠ":7559,"yan2Ġjiu1Ġsheng1Ġ":7560,"hui2Ġgui1Ġ":7561,"1Ġge4Ġ":7562,"te4Ġer3Ġ":7563,"zhai1Ġ":7564,"Ġxian4Ġyou3Ġ":7565,"Ġyuan2Ġyin1":7566,"Ġjie1":7567,"wu1Ġsi1Ġ":7568,"hao3Ġping2Ġ":7569,"ĠdeĠzhu3Ġyao4Ġ":7570,"Ġzhong1Ġjian1Ġ":7571,"pu3Ġcha2Ġ":7572,"hen4":7573,"Ġye4":7574,"Ġnian2Ġqing1Ġ":7575,"duo1Ġci4":7576,"Ġfou3":7577,"Ġwai4":7578,"tong2Ġming2Ġ":7579,"te4Ġyou3Ġ":7580,"bian1Ġwei4Ġ":7581,"Ġji2Ġbing4Ġ":7582,"bo2Ġjue2Ġ":7583,"Ġwei1Ġlian2Ġ":7584,"30Ġnian2Ġ":7585,"Ġxing2Ġbu4Ġ":7586,"qin1Ġwang2Ġ":7587,"kuai4Ġsu4":7588,"zan4Ġting2Ġ":7589,"shi1Ġgong1Ġ":7590,"dang1Ġnian2Ġ":7591,"cun2ĠdeĠ":7592,"Ġguang3Ġdong1Ġ":7593,"qing2ĠdeĠ":7594,"Ġshi4Ġyi1Ġbu4Ġ":7595,"Ġxin1Ġzeng1Ġ":7596,"gai3Ġzhi4Ġwei4Ġ":7597,"ĠĠĠdi4Ġyi1Ġ":7598,"gang3Ġyuan2Ġ":7599,"fei4Ġyan2Ġ":7600,"Ġ40":7601,"Ġguan3Ġ":7602,"Ġxian1Ġhou4Ġ":7603,"fen3Ġsi1Ġ":7604,"zhi3Ġkong4Ġ":7605,"Ġcai2":7606,"mi4ĠdeĠ":7607,"xun1Ġ":7608,"che1Ġliang4":7609,"Ġsong4":7610,"shen1Ġshi4Ġ":7611,"da2Ġzhou1Ġ":7612,"pei4Ġbei4Ġ":7613,"ying3Ġxiang4Ġ":7614,"Ġshou3Ġci4Ġ":7615,"uĠ":7616,"zhui4Ġ":7617,"fang1Ġmi3Ġ":7618,"ĠBĠ":7619,"ĠX":7620,"san1Ġren2Ġ":7621,"san1Ġge4":7622,"100Ġ":7623,"ĠdeĠhua4Ġ":7624,"da4Ġqu1Ġ":7625,"sheng3Ġjie1Ġrang3Ġ":7626,"Ġzi4Ġdong4Ġ":7627,"Ġre":7628,"ĠJo":7629,"ĠĠĠ0":7630,"zhe3Ġhe2Ġ":7631,"beng1Ġ":7632,"te4Ġzheng1":7633,"can1Ġshu4Ġ":7634,"Ġzui4Ġda4Ġ":7635,"rui4Ġdian3Ġ":7636,"Ġ45":7637,"wu3Ġge4Ġ":7638,"Ġzhe4Ġyang4Ġ":7639,"Ġjin4Ġzhi3Ġ":7640,"tui1Ġguang3Ġ":7641,"Ġmai4Ġke4Ġ":7642,"lu4Ġyi4Ġsi1Ġ":7643,"Ġmo2":7644,"Ġbu4Ġyi1Ġ":7645,"Ġping2Ġlun4Ġ":7646,"jing4Ġnei4Ġgong4Ġyou3Ġ":7647,"ĠĠĠjin1Ġ":7648,"si4Ġshi4Ġ":7649,"tai4ĠdeĠ":7650,"1947Ġnian2Ġ":7651,"zhan3Ġlan3Ġ":7652,"you2Ġxing2Ġ":7653,"sheng4Ġchu1Ġ":7654,"YouTube":7655,"Ġshe4Ġhui4Ġzhu3Ġyi4Ġ":7656,"zhe3Ġhui4Ġ":7657,"huang1Ġ":7658,"Ġshi4Ġyi1Ġke1Ġ":7659,"Ġjie2Ġshu4Ġ":7660,"Ġshuang1Ġfang1Ġ":7661,"Ġzai4Ġyi4Ġqi3Ġ":7662,"ĠĠĠ16":7663,"la1Ġhe2Ġ":7664,"hui2Ġguo2Ġ":7665,"Ġbu4Ġlai2Ġ":7666,"Ġshi2Ġxing4Ġ":7667,"Ġji4Ġzai3":7668,"xin1Ġwen2":7669,"bao3Ġluo2Ġ":7670,"jing4Ġzheng1":7671,"lv4Ġse4Ġ":7672,"Ġ200":7673,"Ġji2Ġhou4Ġ":7674,"Ġxi1Ġer3Ġ":7675,"Ġjiang1Ġsu1Ġ":7676,"wu2Ġxian4Ġdian4Ġshi4Ġ":7677,"Ġguo1":7678,"Ġshan4Ġ":7679,"Ġcai3Ġyong4Ġ":7680,"20Ġnian2Ġ":7681,"50Ġnian2Ġ":7682,"Ġzai4Ġ18":7683,"Ġdi4Ġzhi4Ġ":7684,"Ġzhi4Ġyi2Ġ":7685,"fei4Ġyong4Ġ":7686,"ĠĠĠ2019Ġnian2Ġ":7687,"ying4Ġji2Ġ":7688,"Ġbei4Ġpo4Ġ":7689,"du4Ġshi3Ġ":7690,"chan3Ġsheng1ĠleĠ":7691,"ma3Ġke4Ġsi1Ġ":7692,"1973Ġnian2Ġ":7693,"Ġguo2Ġjia1Ġdui4Ġ":7694,"tie3Ġlu4Ġche1Ġzhan4Ġ":7695,"Ġdong4Ġwu4Ġ":7696,"ĠÏ":7697,"Ġhu2Ġnan2Ġ":7698,"ku1Ġ":7699,"Ġgong1Ġqing3Ġ":7700,"Ġjia1Ġzu2":7701,"chuang4Ġzao4Ġ":7702,"wang2Ġwei4Ġ":7703,"tui1Ġjian4Ġ":7704,"1971Ġnian2Ġ":7705,"lian2Ġren4Ġ":7706,"bei3Ġfang1Ġ":7707,"ying1Ġchi3Ġ":7708,"san1Ġji2Ġ":7709,"lei4Ġxing2ĠdeĠ":7710,"Ġnian2Ġling2Ġ":7711,"Ġta1Ġceng2Ġ":7712,"zhang3Ġzi3Ġ":7713,"Ġgong1Ġgong4":7714,"Ġda4Ġdao4":7715,"fu2Ġluo2Ġli3Ġ":7716,"nong2Ġcun1Ġ":7717,"Ġshi4Ġzhong1Ġhua2Ġren2Ġmin2Ġgong4Ġhe2Ġguo2Ġ":7718,"Ġceng2Ġren4":7719,"ying3Ġxiang3Ġli4Ġ":7720,"ĠdeĠzuo4Ġbiao1Ġwei4Ġ":7721,"Ġba3Ġ":7722,"chong1Ġji1Ġ":7723,"Ġshi4Ġhui4Ġ":7724,"fang2Ġwu1Ġ":7725,"qun2Ġdao3":7726,"kĠĠĠ":7727,"Ġ2022Ġnian2Ġ":7728,"Ġzai4Ġxin1Ġ":7729,"te4Ġdian3Ġ":7730,"tian1Ġran2Ġ":7731,"qing1Ġchao2Ġ":7732,"chu1Ġqi1Ġ":7733,"gu4Ġding4Ġ":7734,"ĠĠĠjia1Ġting2Ġ":7735,"Ġxi2Ġ":7736,"lv4ĠdeĠ":7737,"si3Ġyu2Ġ":7738,"Ġzai4Ġta1ĠdeĠ":7739,"fu4Ġjin4":7740,"she4Ġhui4":7741,"Ġke3Ġneng2Ġ":7742,"ji2Ġbu4Ġ":7743,"sheng1Ġzhi4Ġ":7744,"cong2Ġwei4Ġ":7745,"fang1Ġxiang4":7746,"te4Ġla1Ġ":7747,"jing4Ġnei4":7748,"geng4Ġduo1ĠdeĠ":7749,"xin1Ġshi4Ġ":7750,"1977Ġnian2Ġ":7751,"Ġyi1Ġren2Ġ":7752,"Ġdao4Ġhe2Ġ":7753,"gao1Ġda2Ġ":7754,"ĠCo":7755,"Ġchu3Ġ":7756,"Ġshen3Ġ":7757,"Ġshi2Ġzhi4Ġ":7758,"Ġdao4Ġyi1Ġ":7759,"qi4Ġxuan2Ġ":7760,"ĠsectionĠĠĠ":7761,"Ġmao2Ġ":7762,"Ġxu3Ġduo1":7763,"ban1ĠdeĠ":7764,"qu3Ġxiao1":7765,"Ġnai3":7766,"xuan3Ġchu1Ġ":7767,"ĠIn":7768,"ĠĠĠshi3Ġyong4Ġ":7769,"yi2Ġdao4Ġ":7770,"shou4Ġquan2Ġ":7771,"zhou2Ġ":7772,"zhong1Ġyang1":7773,"sheng1Ġji1Ġ":7774,"guan1Ġce4Ġ":7775,"Ġye3Ġbu4Ġ":7776,"qing1Ġshao4Ġnian2Ġ":7777,"wan2Ġzheng3Ġ":7778,"Ġshi4Ġji4ĠdeĠ":7779,"Ġyou3Ġda4Ġ":7780,"Ġfu3Ġ":7781,"jia1Ġgong1Ġ":7782,"deng3ĠdeĠ":7783,"luo4Ġsi1Ġ":7784,"Ġshi4Ġyou2":7785,"fu4Ġjin4ĠdeĠ":7786,"mei3Ġguo2Ġren2Ġ":7787,"zhang4Ġfu1Ġ":7788,"xue2Ġbu4Ġ":7789,"tie1Ġ":7790,"Ġyou3Ġzhu4Ġ":7791,"Ġqiu1Ġ":7792,"yi4Ġbu4Ġ":7793,"shi3Ġyu2Ġ":7794,"pu4Ġ":7795,"guo2Ġhui4Ġ":7796,"xi1Ġbei3Ġbu4Ġ":7797,"Ġta1Ġren4Ġwei2Ġ":7798,"mu4Ġni2Ġ":7799,"Ġtong2Ġpai2Ġ":7800,"Ġzhi3Ġshi4Ġ":7801,"kuo4Ġzhan3":7802,"si3Ġxing2Ġ":7803,"qing4Ġzhu4Ġ":7804,"zhan4Ġling3":7805,"lian2Ġjie2Ġ":7806,"Ġtong2Ġyang4Ġ":7807,"ĠĠĠgen1Ġju4Ġ2020Ġnian2Ġmei3Ġguo2Ġren2Ġkou3Ġpu3Ġcha2ĠdeĠshu4Ġju4Ġ":7808,"ai4ĠdeĠ":7809,"bing4Ġwei4Ġ":7810,"zui4Ġwei4Ġ":7811,"hai3Ġshang4Ġ":7812,"reng2Ġzai4Ġ":7813,"guo2Ġli4Ġ":7814,"fen1Ġpei4Ġ":7815,"huang2Ġse4Ġ":7816,"xiao1Ġliang4Ġ":7817,"zhuan1Ġmen2Ġ":7818,"zeng1Ġjia1ĠleĠ":7819,"âĨ":7820,"Ġ2024":7821,"guo4Ġyu2Ġ":7822,"Ġzai4Ġta1Ġ":7823,"shang4Ġhai3Ġshi4Ġ":7824,"¡Ġ":7825,"Ġshui3":7826,"gun4":7827,"quan2ĠdeĠ":7828,"si4Ġda4Ġ":7829,"zong3Ġhui4Ġ":7830,"hui2Ġhe2Ġ":7831,"pian4ĠdeĠ":7832,"lao3Ġshi1Ġ":7833,"zong4Ġ":7834,"Ġyi1Ġzhi4Ġ":7835,"Ġchu1Ġfa1Ġ":7836,"se4Ġfu1Ġ":7837,"xie2Ġding4Ġ":7838,"xiang1Ġji4Ġ":7839,"qie4Ġer3Ġ":7840,"jing1Ġji4":7841,"ban1Ġjiang3Ġ":7842,"ĠĠĠs":7843,"fang2Ġwei4Ġ":7844,"ĠSĠ":7845,"Ġ9Ġ":7846,"Ġ2003Ġnian2Ġ":7847,"Ġli4Ġshu3Ġ":7848,"Ġbing4Ġru4Ġ":7849,"deng1Ġchang2Ġ":7850,"lei4Ġsi4ĠdeĠ":7851,"Ġtie3Ġ":7852,"xing4Ġshi4Ġ":7853,"dui4Ġshou3Ġ":7854,"ĠdeĠji4Ġlu4Ġ":7855,"Ġji2Ġxing2Ġzheng4Ġ":7856,"Ġli4ĠziĠ":7857,"Ġye3Ġhui4Ġ":7858,"can1Ġsai4":7859,"Ġyi3Ġzhi4Ġ":7860,"lai2Ġzi4Ġyu2Ġ":7861,"ĠSA":7862,"fu2Ġli3Ġ":7863,"dan1Ġyuan2Ġ":7864,"ckĠ":7865,"zhuo1Ġ":7866,"zhi2Ġye4":7867,"jiang3Ġshu4Ġ":7868,"zhao4Ġkai1":7869,"Ġa1Ġla1Ġ":7870,"Ġ000Ġren2Ġ":7871,"Ġhan":7872,"Ġbao1Ġhan2Ġ":7873,"ma1Ġ":7874,"yi1Ġxie1Ġ":7875,"hai3Ġba2Ġgao1Ġ":7876,"shuang1Ġda3Ġ":7877,"Ġfa1Ġxing2Ġ":7878,"ĠĠĠw":7879,"fu4Ġjia1Ġ":7880,"qi4Ġhe2Ġ":7881,"xing4Ġneng2Ġ":7882,"cun2Ġzai4ĠdeĠ":7883,"zhuang4Ġji1Ġ":7884,"Ġjian4Ġkang1Ġ":7885,"na4Ġcui4":7886,"Ġxiang1Ġdui4Ġ":7887,"geng3":7888,"Ġku4":7889,"he2Ġwei4Ġ":7890,"sheng3Ġdao4Ġ":7891,"lao2Ġgong1Ġ":7892,"xi1Ġnan2Ġbu4Ġ":7893,"Ġke4Ġyun4Ġ":7894,"ma3Ġla1Ġ":7895,"gai3Ġge2":7896,"nan2Ġji2Ġzhou1ĠdeĠ":7897,"Ġan4":7898,"ĠĠĠde":7899,"wa1Ġ":7900,"shou3Ġbo1Ġ":7901,"ying1Ġgai1":7902,"mei3Ġjun1Ġ":7903,"ba1Ġer3Ġ":7904,"chuang4Ġxin1Ġ":7905,"tuo2Ġ":7906,"Ġyou3Ġguan1":7907,"zheng4Ġxie2Ġ":7908,"Ġta1Ġdui4Ġ":7909,"shan1Ġmai4Ġ":7910,"Ġsi4Ġchuan1Ġ":7911,"hong1Ġzha4Ġji1Ġ":7912,"ĠĠĠran2Ġer2Ġ":7913,"ĠhantĠ":7914,"chang2Ġjian4Ġ":7915,"chuan2Ġzhi1Ġ":7916,"Ġzhi1Ġzhan4Ġ":7917,"Ġxiao3Ġshuo1Ġ":7918,"Ġbai2":7919,"yi1Ġbu4Ġfen4":7920,"dian4ĠdeĠ":7921,"fei1Ġzhou1":7922,"1962Ġnian2Ġ":7923,"Ġxian4Ġzhi1Ġxian4Ġ":7924,"sha1Ġsi3Ġ":7925,"fa1Ġsheng1ĠleĠ":7926,"shu3ĠdeĠzhi2Ġwu4Ġ":7927,"Ġe2":7928,"ĠĠĠdan4":7929,"zhi2Ġzhi4Ġ":7930,"yao4ĠdeĠ":7931,"IIĠ":7932,"quan3Ġ":7933,"lou4Ġ":7934,"yan2Ġzhong4ĠdeĠ":7935,"Ġling4Ġwai4":7936,"li3Ġbu4Ġ":7937,"mi4Ġsi1Ġ":7938,"qiao3Ġ":7939,"Ġjian4Ġshi4Ġ":7940,"suo3Ġshu3":7941,"yun4Ġdong4ĠdeĠ":7942,"mao3":7943,"xi1Ġshi4Ġ":7944,"tou2Ġbu4Ġ":7945,"dui4Ġwu3Ġ":7946,"Ġyou2Ġci3Ġ":7947,"zu3Ġzhi3Ġ":7948,"Ġdong1Ġjing1Ġ":7949,"fang4Ġqi4":7950,"jian1Ġshi4Ġ":7951,"na4Ġde2Ġ":7952,"nu4Ġ":7953,"Ġche1Ġzhan4":7954,"jiang1Ġta1Ġ":7955,"ĠdeĠgu4Ġshi4Ġ":7956,"jiang4Ġdi1":7957,"Ġshi4Ġyi4Ġda4Ġli4Ġ":7958,"luo3":7959,"hui4Ġyi3Ġ":7960,"can1Ġting1Ġ":7961,"Ġsa4":7962,"Ġ60":7963,"hei1Ġren2Ġ":7964,"ji1Ġben3Ġ":7965,"Ġzhi1Ġliu2Ġ":7966,"zhu3Ġxi2":7967,"shuai4Ġling3Ġ":7968,"tu3Ġer3Ġqi2":7969,"ĠĠĠThe":7970,"hui4Ġshi4Ġdi4Ġ":7971,"huan2Ġxing2Ġ":7972,"Ġzai4Ġyu3Ġ":7973,"Ġgong1Ġlu4":7974,"Ġde2Ġdao4ĠleĠ":7975,"Ġshe4Ġji4ĠdeĠ":7976,"bu4Ġfen4Ġ":7977,"bang1Ġzhu4":7978,"na2Ġpo4Ġ":7979,"WĠ":7980,"ĠĠĠ2007":7981,"shang4Ġbu4Ġ":7982,"zheng3Ġge4":7983,"xiang1Ġbi3Ġ":7984,"Ġshi4Ġyi1Ġzuo4Ġ":7985,"zhou1Ġbian1Ġ":7986,"xia4Ġxia2Ġyi3Ġxia4":7987,"ĠRo":7988,"ĠĠĠ3Ġyue4Ġ":7989,"Ġxian4Ġjin1Ġ":7990,"hang2Ġtian1Ġ":7991,"Ġshi4Ġjie4Ġbei1Ġ":7992,"yan2Ġshi2Ġ":7993,"zhang3Ġda4Ġ":7994,"luo2Ġde2Ġ":7995,"Ġda4Ġliang4":7996,"qian1Ġyue1Ġ":7997,"zi4Ġwei4Ġ":7998,"Ġli4Ġyong4":7999,"yi2Ġchan3":8000,"ge2Ġer3Ġ":8001,"Ġxing2Ġshi3Ġ":8002,"vĠ":8003,"Ġji3Ġ":8004,"xin1Ġren2Ġ":8005,"zong3Ġcai2Ġ":8006,"chuan2Ġmei2Ġ":8007,"Ġma3Ġli4Ġ":8008,"zhi3ĠdeĠ":8009,"por":8010,"Ġnan2ĠziĠ":8011,"chu1Ġsheng1Ġyu2Ġ":8012,"Ġsheng1Ġzhang3Ġyu2Ġ":8013,"ci3Ġshi2Ġ":8014,"Ġgong1Ġchi3":8015,"Ġqiu2Ġhui4Ġ":8016,"hai3Ġba2Ġgao1Ġdu4Ġwei4Ġ":8017,"ĠĠĠ2018Ġnian2Ġ":8018,"ben3Ġxian4Ġ":8019,"zhe3Ġwei4Ġ":8020,"nuo4Ġyi1Ġ":8021,"cong1Ġ":8022,"Ġji2Ġlin2Ġ":8023,"xiang1Ġtong2ĠdeĠ":8024,"Ġzhong1Ġguo2Ġguo2Ġmin2Ġ":8025,"Ġdi4Ġ1Ġ":8026,"ya4Ġmu4Ġ":8027,"Ġzhe4Ġshou3Ġ":8028,"guang1Ġxu4Ġ":8029,"can1Ġyu4ĠleĠ":8030,"Ġzhong4":8031,"ji4Ġzai4Ġ":8032,"wu3Ġyue4Ġ":8033,"dan1Ġyi1Ġ":8034,"bie2ĠdeĠ":8035,"1939Ġnian2Ġ":8036,"Ġhe2Ġli3Ġ":8037,"you2Ġtai4Ġren2Ġ":8038,"ĠdeĠcheng2Ġzhen4Ġ":8039,"ĠĠĠ12":8040,"la1Ġer3Ġ":8041,"xun2Ġqiu2Ġ":8042,"1938Ġnian2Ġ":8043,"Ġbu4Ġer3Ġ":8044,"Ġxing2Ġxiang4Ġ":8045,"Ġwei2Ġchi2Ġ":8046,"yin3Ġzhong3Ġ":8047,"Ġqin2Ġ":8048,"e2Ġwei4Ġ":8049,"bu2Ġyao4Ġ":8050,"ayĠ":8051,"Ġr":8052,"Ġxu1Ġyao4Ġ":8053,"shang1ĠdeĠ":8054,"1965Ġnian2Ġ":8055,"Ġbu4Ġdi2Ġ":8056,"Ġyu2Ġlei4Ġ":8057,"mei3Ġyuan2ĠdeĠ":8058,"ying2Ġye4Ġ":8059,"Ġguan1Ġfang1Ġ":8060,"ĠĠĠ5Ġyue4Ġ":8061,"1936Ġnian2Ġ":8062,"Ġzai4Ġgai1Ġ":8063,"Ġguo2Ġmin2":8064,"Ġjiang1Ġqi2Ġ":8065,"wei3Ġfu4Ġshu1Ġji4Ġ":8066,"cro":8067,"Ġdou1":8068,"wu3Ġdi4Ġ":8069,"1959Ġnian2Ġ":8070,"si1Ġlan2Ġ":8071,"Ġke4Ġla1Ġ":8072,"jie1Ġren4Ġ":8073,"zhi2Ġyuan2Ġ":8074,"Ġyi1Ġliao2Ġ":8075,"ti3Ġyu4":8076,"xiao4Ġying4Ġ":8077,"qian1Ġding4Ġ":8078,"Ġjiao4Ġyu4":8079,"Ġhuan2Ġ":8080,"1967Ġnian2Ġ":8081,"Ġyi1Ġci2Ġ":8082,"Ġqi2Ġzhong1Ġnan2Ġxing4Ġ":8083,"di3Ġkang4Ġ":8084,"Ġliu2Ġyu4Ġ":8085,"Ġbao4":8086,"ĠMar":8087,"Ġling3Ġ":8088,"yun4Ġhe2Ġ":8089,"ge1ĠdeĠ":8090,"huai2Ġyi2Ġ":8091,"Ġwei4Ġci3Ġ":8092,"Ġdi4Ġmian4Ġ":8093,"zhi3Ġding4Ġ":8094,"ceng2Ġshui3Ġyu4Ġ":8095,"rong2Ġna4Ġ":8096,"gu3Ġfen4Ġyou3Ġxian4Ġgong1Ġsi1Ġ":8097,"zhuan4ĠdeĠxiao3Ġxing2Ġxing1Ġ":8098,"Ġhou4Ġqi1Ġ":8099,"Ġke4Ġlai2Ġ":8100,"jing4Ġsai4Ġ":8101,"ĠĠĠping2Ġjia4Ġ":8102,"you2Ġqi2Ġ":8103,"ge1Ġju4Ġ":8104,"liang2Ġshi2Ġ":8105,"1935Ġnian2Ġ":8106,"Ġshi4Ġnei4Ġ":8107,"yue4Ġnan2Ġ":8108,"ĠdeĠdi4Ġer4":8109,"mo4Ġsi1Ġke1Ġ":8110,"Ġliang3Ġge4Ġ":8111,"you2Ġren2Ġgong1Ġ":8112,"zhang3Ġwei4Ġ":8113,"Ġshi4Ġxi1Ġ":8114,"Ġyi1Ġzhi1Ġ":8115,"Ġshe4Ġji1Ġ":8116,"ba1Ġla1Ġ":8117,"gan3Ġlan3":8118,"Ġjian4Ġli4ĠleĠ":8119,"Ġwu1Ġke4Ġlan2Ġ":8120,"chao2ĠdeĠ":8121,"tui1Ġchu1ĠdeĠ":8122,"ruan3Ġti3Ġ":8123,"ĠĠĠchu2ĠleĠ":8124,"jiao4Ġyu2Ġ":8125,"yang2Ġxian4Ġ":8126,"men2ĠdeĠ":8127,"Ġshi2Ġyong4Ġ":8128,"Ġsu2":8129,"zhong1Ġxin1Ġ":8130,"shu4Ġshi4Ġ":8131,"Ġjian4Ġwei4Ġ":8132,"Ġchao2Ġxian1Ġ":8133,"Ġqian1":8134,"Ġer3Ġde2":8135,"shuo4Ġshi4Ġxue2Ġwei4Ġ":8136,"bian1Ġhao4Ġwei4Ġ":8137,"wei2Ġzhi3Ġ":8138,"li2ĠziĠ":8139,"hua2Ġsheng4Ġdun4":8140,"zhi1Ġyuan2Ġ":8141,"ge4Ġdi4Ġ":8142,"Ġhe2Ġji2Ġ":8143,"Ġzhi4Ġzao4":8144,"Ġyi1Ġtiao2Ġ":8145,"kai1Ġzhan3Ġ":8146,"fa3Ġting2Ġ":8147,"Ġqiu2Ġchang3Ġ":8148,"qun2Ġti3Ġ":8149,"leĠyi1Ġxie1Ġ":8150,"Ġgong1Ġcheng2Ġshi1Ġ":8151,"Ġtui1Ġ":8152,"Ġ11Ġ":8153,"a1Ġer3":8154,"wu4Ġzhong1Ġ":8155,"meng2Ġjun1Ġ":8156,"bai3Ġnian2Ġ":8157,"luo2Ġbo2Ġte4Ġ":8158,"zong3Ġjian1Ġ":8159,"Ġjie2Ġgou4Ġ":8160,"Ġzai4Ġdi4Ġer4Ġ":8161,"ping2Ġjun1Ġhai3Ġba2Ġgao1Ġdu4Ġwei4Ġ":8162,"ĠĠĠjing1Ġji4Ġ":8163,"zhi2Ġli4Ġ":8164,"Ġwei4Ġming2Ġ":8165,"Ġwei4Ġyu2Ġzhong1Ġhua2Ġren2Ġmin2Ġgong4Ġhe2Ġguo2Ġ":8166,"Ġren2Ġmin2Ġbi4Ġ":8167,"du1Ġdu1Ġ":8168,"yang2Ġgong1Ġ":8169,"ban4Ġnian2Ġ":8170,"Ġxi1Ġyin3Ġ":8171,"ben3Ġtu3Ġ":8172,"chuan2Ġbo1":8173,"jian3Ġdan1Ġ":8174,"zhuang1Ġjia3":8175,"Ġhan2":8176,"12Ġnian2Ġ":8177,"gong1Ġkai1Ġ":8178,"Ġyou3Ġli4Ġ":8179,"Ġta1Ġye3":8180,"mian4Ġlin2Ġ":8181,"huan4Ġzhe3Ġ":8182,"Ġtong1Ġguo4":8183,"Ġer2Ġgai1Ġdi4ĠdeĠping2Ġjun1Ġhai3Ġba2Ġgao1Ġdu4Ġwei4Ġ":8184,"Ġyou1Ġ":8185,"chuo4":8186,"ĠĠĠtian1Ġ":8187,"shi1Ġren2Ġ":8188,"qi3ĠleĠ":8189,"feng1ĠdeĠ":8190,"zu2Ġqiu2Ġdui4Ġ":8191,"ni2Ġxi1Ġya4Ġ":8192,"cu4Ġjin4":8193,"han3Ġmo4":8194,"Ġzai4Ġri4Ġben3Ġ":8195,"lu4Ġzhan4Ġ":8196,"jie1Ġshou1Ġ":8197,"xun2Ġhuan2Ġ":8198,"Ġsui2Ġzhe":8199,"li4Ġzhong1Ġ":8200,"la4Ġ":8201,"1953Ġnian2Ġ":8202,"tu2Ġxiang4Ġ":8203,"2010Ġnian2Ġmei3Ġguo2Ġren2Ġkou3Ġpu3Ġcha2ĠdeĠshu4Ġju4Ġ":8204,"Ġman3":8205,"ĠĠĠandĠĠĠ":8206,"ji1Ġshi4Ġ":8207,"chu1Ġdao4Ġ":8208,"boĠ":8209,"yan3Ġchu1":8210,"ying4Ġdui4Ġ":8211,"Ġzhi1Ġqian2":8212,"fa3Ġlan2Ġ":8213,"yin3Ġzhong3Ġzai1Ġpei2Ġ":8214,"Ġyun2Ġnan2Ġ":8215,"Ġda4Ġqiao2Ġ":8216,"gui1Ġfan4Ġ":8217,"shen3Ġcha2Ġ":8218,"Ġxi4Ġtong3":8219,"fei1Ġlv4Ġbin1":8220,"Ġqing3":8221,"chu1Ġren4Ġ":8222,"shuo1Ġshi4Ġ":8223,"Ġji2Ġshi3":8224,"dong4Ġhua4":8225,"suo3Ġchu4ĠdeĠhai3Ġba2Ġwei4Ġgao1Ġyu2Ġhai3Ġping2Ġmian4Ġ":8226,"sheng3Ġwei3Ġ":8227,"Ġxin1Ġzeng1":8228,"ka3Ġluo2Ġlai2Ġ":8229,"yuan2Ġdi4Ġ":8230,"shen1Ġshang4Ġ":8231,"1963Ġnian2Ġ":8232,"Ġzai4Ġbei3Ġ":8233,"Ġxi1Ġxi1Ġ":8234,"ru4Ġqin1":8235,"hen3Ġduo1":8236,"lie4Ġshi4Ġ":8237,"kmĠ":8238,"ji1Ġbai3Ġ":8239,"wei2Ġer3":8240,"xue2Ġxi2":8241,"Ġji1Ġyin1Ġ":8242,"zhang3Ġyue1Ġ":8243,"tong1Ġxun4Ġ":8244,"na4Ġxie1Ġ":8245,"gang3Ġkou3Ġ":8246,"zhan3Ġkai1":8247,"yong3Ġjiu3Ġ":8248,"fen1Ġbie2Ġwei4Ġ":8249,"you2Ġren2Ġgong1Ġyin3Ġzhong3Ġzai1Ġpei2Ġ":8250,"Ġlv3":8251,"qing2Ġxing2Ġ":8252,"1941Ġnian2Ġ":8253,"qing2Ġxu4Ġ":8254,"ce4Ġliang2":8255,"re4Ġdai4Ġfeng1Ġbao4Ġ":8256,"Ġhe4":8257,"ci4Ġwei4Ġ":8258,"zheng3Ġhe2Ġ":8259,"han3Ġ":8260,"ju1Ġmin2Ġdian3Ġ":8261,"ĠĠĠ2017Ġnian2Ġ":8262,"ji4Ġji2Ġ":8263,"gong3Ġ":8264,"Ġzhi1Ġfu3Ġ":8265,"Ġshe4Ġhui4":8266,"Ġhan4Ġzu2Ġ":8267,"yu3Ġshi4Ġ":8268,"dong4Ġgong1Ġ":8269,"lu3Ġke4Ġ":8270,"Ġbu4Ġjia1Ġ":8271,"Ġyi3Ġshang4ĠdeĠ":8272,"Ġyu3Ġci3Ġtong2Ġshi2Ġ":8273,"mi3Ġya4Ġ":8274,"Ġzhu3Ġchi2Ġ":8275,"Ġbao1Ġ":8276,"Ġxu3Ġ":8277,"si4Ġming2Ġ":8278,"bing1Ġbu4Ġ":8279,"tai1Ġ":8280,"jie4Ġshao4":8281,"ĠdeĠyi1Ġxie1Ġ":8282,"di3Ġda2":8283,"Ġsu1Ġlian2Ġ":8284,"liao3Ġjie3":8285,"Ġi":8286,"Ġou1Ġzhou1Ġ":8287,"dui4Ġhe2Ġ":8288,"yu4Ġji4Ġ":8289,"Ġsi1Ġka3Ġ":8290,"shou3Ġxi2Ġ":8291,"zu3Ġcheng2":8292,"gao4Ġsu4Ġ":8293,"fa1Ġzhan3ĠdeĠ":8294,"NBA":8295,"Ġlei4Ġ":8296,"yi3Ġhou4Ġ":8297,"zhi3Ġyu2Ġ":8298,"ge2Ġli4Ġ":8299,"deng1Ġji4Ġ":8300,"1969Ġnian2Ġ":8301,"ju4Ġqing2Ġ":8302,"Ġwei2Ġya4Ġ":8303,"Ġzhong1Ġguo2Ġda4Ġlu4ĠdeĠ":8304,"chuang4Ġban4Ġ":8305,"Ġzhi3Ġchu1Ġ":8306,"xia4Ġxia2Ġyi3Ġxia4Ġdi4Ġqu1Ġ":8307,"Ġwan2Ġcheng2Ġ":8308,"ĠĠĠ2016Ġnian2Ġ":8309,"chu1Ġsheng1Ġ":8310,"liu2ĠdeĠ":8311,"yan3Ġsheng1Ġ":8312,"00Ġ":8313,"Ġzhi4Ġliao2":8314,"da4Ġshi3Ġ":8315,"Ġxi1Ġan1Ġ":8316,"zi1Ġzhu4Ġ":8317,"fei1Ġfa3Ġ":8318,"5Ġge4Ġ":8319,"bai2Ġzhi4Ġ":8320,"guai4Ġ":8321,"Ġjiao4Ġshou4Ġ":8322,"zhuang4Ġkuang4":8323,"Ġbi4Ġye4Ġyu2Ġ":8324,"xun2Ġyang2Ġjian4Ġ":8325,"fen1Ġzhi1Ġyi1Ġ":8326,"wen2Ġhua4ĠdeĠ":8327,"Ġao4Ġda4Ġli4Ġ":8328,"xin1Ġjia1Ġpo1Ġ":8329,"Ġcheng2Ġshi4Ġ":8330,"ĠĠĠji4Ġ":8331,"kong1Ġjun1":8332,"shun4Ġshi2Ġ":8333,"Ġbu4Ġbian4Ġ":8334,"Ġchu1Ġxi2Ġ":8335,"wei1Ġxian3Ġ":8336,"Ġzhe4Ġbu4Ġ":8337,"Ġnian2Ġ7Ġyue4Ġ1Ġri4Ġ":8338,"wen4Ġti2ĠdeĠ":8339,"Ġjin4Ġshi4Ġchu1Ġshen1Ġ":8340,"taĠ":8341,"Ġzhi4Ġshao3":8342,"Ġxian4Ġru4Ġ":8343,"nan2Ġfang1Ġ":8344,"Ġbei4Ġqi2Ġ":8345,"Ġqi2Ġzhong1Ġnan2Ġ":8346,"mao2Ġze2Ġdong1Ġ":8347,"Ġdeng1Ġ":8348,"ĠĠĠ10Ġyue4Ġ":8349,"ziĠhe2Ġ":8350,"da2Ġer3Ġ":8351,"lu3Ġshi4Ġ":8352,"Ġbu4Ġzhi4Ġ":8353,"Ġdi4Ġsi1Ġ":8354,"zi1Ġsheng3Ġ":8355,"pin2Ġlv4Ġ":8356,"xĠĠĠ":8357,"Ġtang1":8358,"Ġpai4Ġ":8359,"Ġshen4Ġ":8360,"1957Ġnian2Ġ":8361,"Ġzhong1Ġzui4Ġ":8362,"Ġji4Ġnian4":8363,"pan4Ġjue2Ġ":8364,"Ġ15Ġ":8365,"gong4Ġchan3Ġzhu3Ġyi4Ġ":8366,"Ġãĥ¼":8367,"Ġyi3Ġse4Ġlie4":8368,"Ġgai4Ġ":8369,"duo1Ġge4":8370,"qu3Ġjia1Ġ":8371,"yan2Ġzhong4":8372,"ju2Ġju2Ġzhang3Ġ":8373,"âĪ":8374,"ĠĠĠbei3Ġ":8375,"fan2Ġzhi2Ġ":8376,"zhu3Ġchang3Ġ":8377,"gan1Ġsu4Ġ":8378,"zi4Ġxing2Ġche1Ġ":8379,"Ġ2005":8380,"miao2Ġhui4Ġ":8381,"Ġyi1Ġmei2Ġ":8382,"fen1Ġlei4":8383,"Ġping2Ġjia4Ġ":8384,"duo1Ġyang4Ġ":8385,"Ġnan2Ġbei3Ġ":8386,"shao4Ġjiang4Ġ":8387,"fei1Ġli4Ġ":8388,"Ġsi1Ġxiang3Ġ":8389,"gai3Ġshan4":8390,"an4Ġzhao4Ġ":8391,"dang1Ġju2Ġ":8392,"Ġshi4Ġzhong1Ġxin1Ġ":8393,"Ġdan1Ġren4":8394,"ĠĠĠling4Ġwai4Ġ":8395,"hou4Ġshi4Ġ":8396,"zhu4Ġdi4Ġ":8397,"yin3Ġshi2Ġ":8398,"Ġshi4Ġwu1Ġke4Ġlan2":8399,"ai1Ġna4Ġ":8400,"Ġgong1Ġzuo4Ġshi4Ġ":8401,"can1Ġmou2Ġzhang3Ġ":8402,"xiang4Ġxi1Ġ":8403,"er4Ġzhan4Ġ":8404,"niang4":8405,"bao3Ġzheng4Ġ":8406,"xue1Ġ":8407,"Ġcheng2Ġshi4ĠdeĠ":8408,"Ġzhi1Ġji4Ġ":8409,"Ġda4Ġjia1Ġ":8410,"Ġming2Ġcheng1":8411,"Ġtong2Ġyi1Ġ":8412,"jiao1Ġhuan4Ġ":8413,"Ġhe2Ġbing4Ġwei4Ġ":8414,"Ġ80":8415,"yu3Ġyi3Ġ":8416,"ze2Ġyou3Ġ":8417,"ling2ĠdeĠ":8418,"usĠ":8419,"liu3Ġ":8420,"ke1Ġfu1":8421,"dang1Ġxuan3":8422,"Ġgong1Ġkai1Ġsai4Ġ":8423,"hong1Ġzha4Ġ":8424,"sui4Ġshi2Ġ":8425,"chuan4Ġ":8426,"ru4Ġxuan3":8427,"Ġzheng3Ġ":8428,"Ġ1998Ġnian2Ġ":8429,"ĠĠĠzhu4Ġ":8430,"zhe4Ġbu4Ġ":8431,"ji3Ġhe2Ġ":8432,"Ġyu2Ġdi4Ġ":8433,"shang1Ġwang2Ġ":8434,"bian1Ġjing4Ġ":8435,"wu2Ġren2Ġji1Ġ":8436,"ĠĠĠ2006":8437,"ci4Ġda4Ġ":8438,"wan4Ġren2Ġ":8439,"shen1Ġzhen4":8440,"guang3Ġgao4":8441,"RĠĠĠ":8442,"Ġzhuan1Ġji2Ġ":8443,"1961Ġnian2Ġ":8444,"Ġdi4Ġguo2ĠdeĠ":8445,"Ġjian4Ġhe2Ġ":8446,"bao3Ġcun2Ġ":8447,"bao4Ġzhi3Ġ":8448,"gai3Ġbian1Ġ":8449,"zeng1Ġqiang2Ġ":8450,"OĠĠĠ":8451,"Ġma":8452,"qun2ĠdeĠ":8453,"Ġzai4Ġji1Ġ":8454,"Ġfen1Ġbie2Ġwei4Ġ":8455,"Ġpai2Ġ":8456,"ji1Ġbu4Ġ":8457,"zhi1Ġming2Ġ":8458,"ru4ĠdeĠ":8459,"guo2Ġnei4Ġ":8460,"Ġgong1Ġzhan4Ġ":8461,"Ġyi3Ġnan2Ġ":8462,"xian4Ġfa3Ġ":8463,"zi3Ġnv3Ġ":8464,"chui2Ġ":8465,"Ġxing2Ġcheng2ĠdeĠ":8466,"qu1Ġfen1Ġ":8467,"ba1Ġfa2":8468,"ban4Ġyan3Ġ":8469,"ĠĠĠ3Ġ":8470,"en3Ġ":8471,"ci3Ġzhi1Ġwai4Ġ":8472,"wai4Ġwei2Ġ":8473,"luo4ĠdeĠ":8474,"si1Ġxiang3Ġ":8475,"Ġda4Ġshi1Ġ":8476,"fa3Ġling4Ġ":8477,"Ġchu1Ġxian4ĠleĠ":8478,"miao2Ġshu4":8479,"ĠdeĠming2Ġzi4Ġ":8480,"Ġguang1":8481,"he2ĠĠĠ":8482,"Ġdan4Ġyin1Ġ":8483,"shou4Ġhai4Ġ":8484,"sha1Ġhai4Ġ":8485,"zhi3Ġhui1Ġguan1Ġ":8486,"sti":8487,"xia4ĠdeĠyi2Ġge4Ġ":8488,"huo4Ġshi4Ġ":8489,"Ġda4Ġzhong4Ġ":8490,"ying1Ġguo2ĠdeĠ":8491,"Ġ20Ġ":8492,"wen2Ġzhong1Ġ":8493,"ceng2Ġshi4Ġ":8494,"bo1Ġer3Ġ":8495,"Ġyue4Ġtai2":8496,"Ġnan2Ġjing1Ġ":8497,"cai2Ġwu4Ġ":8498,"bing4Ġmei2Ġyou3Ġ":8499,"jiao4Ġyu4Ġbu4Ġ":8500,"gong4Ġshi2Ġ":8501,"Ġwei4Ġyou2Ġ":8502,"mian4Ġti3Ġ":8503,"yan2Ġjiu1Ġyuan4Ġ":8504,"Ġyuan2Ġshi3Ġ":8505,"jing3Ġguan1Ġ":8506,"6Ġge4Ġ":8507,"âĦ":8508,"Ġxia2Ġ":8509,"nuo4Ġsi1Ġ":8510,"1980Ġnian2Ġdai4Ġ":8511,"1944Ġnian2Ġ":8512,"ma3Ġtou2Ġ":8513,"shi3Ġyong4ĠleĠ":8514,"âĨĴ":8515,"Ġsheng1Ġzhang3Ġyu2Ġhai3Ġba2":8516,"nong4":8517,"cheng1Ġhao4Ġ":8518,"ĠdeĠxiao3Ġ":8519,"Ġzai4Ġying1Ġguo2Ġ":8520,"zhan3Ġlan3":8521,"Ġfen1Ġbie2Ġshi4Ġ":8522,"gao1Ġyuan2Ġ":8523,"sheng4Ġdi4Ġ":8524,"fei2Ġ":8525,"Ġdao4Ġshi4Ġ":8526,"Ġda4Ġxing2":8527,"jing1Ġying2":8528,"Ġwu1":8529,"Ġniu3Ġyue1":8530,"tao2Ġyuan2Ġ":8531,"hou4Ġlai2Ġ":8532,"pan4Ġluan4Ġ":8533,"ma3ĠdeĠ":8534,"dian3Ġwei4Ġ":8535,"heng1Ġ":8536,"Ġwei4Ġbei4Ġ":8537,"Ġyi4Ġsi":8538,"Ġshang4Ġshu1Ġ":8539,"Ġzhe4Ġyang4ĠdeĠ":8540,"hang2Ġye4Ġ":8541,"Ġxin1Ġjia1Ġ":8542,"ĠAl":8543,"Ġre4Ġ":8544,"Ġchun1Ġ":8545,"ai4Ġguo2Ġ":8546,"qing2Ġjie2Ġ":8547,"Ġmu4Ġqian2Ġshang4Ġwei4Ġ":8548,"Ġ2000":8549,"tu1Ġchu1Ġ":8550,"31Ġ":8551,"Ġhe2Ġfa3Ġ":8552,"Ġdao4Ġbu4Ġ":8553,"ping2Ġmin2Ġ":8554,"guan1Ġfei4Ġyan2Ġ":8555,"Ġping2Ġlun4":8556,"tuan2Ġzhang3Ġ":8557,"shang4Ġyi1Ġ":8558,"luo2Ġji2Ġ":8559,"Ġyi4Ġming2Ġ":8560,"Ġyi3Ġshi4Ġ":8561,"Ġmi3ĠdeĠdi4Ġqu1Ġ":8562,"Ġxian4ĠdeĠyi2Ġge4Ġfei1Ġjian4Ġzhi4Ġdi4Ġqu1Ġ":8563,"tian1Ġjia1Ġ":8564,"Ġyi4Ġji2Ġ":8565,"jiao4Ġshou4":8566,"Ġzuo4Ġchu1":8567,"tian1Ġhuang2Ġ":8568,"fang2Ġzhi3Ġ":8569,"dou4Ġzheng1Ġ":8570,"wu4Ġzhong3ĠdeĠ":8571,"Ġbu3Ġ":8572,"Ġgai3Ġwei2Ġ":8573,"hong2Ġjun1Ġ":8574,"Ġer3Ġzai4Ġ":8575,"jing1Ġguo4":8576,"Ġyan4Ġ":8577,"ka1Ġfei1Ġ":8578,"Ġhe2Ġta1ĠdeĠ":8579,"Ġyu3Ġda4Ġ":8580,"Ġren4Ġming4":8581,"sai1Ġna4Ġ":8582,"Ġpei2Ġ":8583,"lai2Ġsi1Ġ":8584,"hao3Ġyou3Ġ":8585,"1940Ġnian2Ġ":8586,"zuo4Ġchu1":8587,"chang2Ġqi1":8588,"ling3Ġyu4":8589,"Ġzhong1Ġgong4Ġzhong1Ġyang1":8590,"mian4Ġshi4Ġ":8591,"chou2Ġbei4Ġ":8592,"xiang3Ġfa3Ġ":8593,"yuan2Ġzhong1Ġ":8594,"Ġyuan2Ġze2Ġ":8595,"Ġzhi1Ġchu4Ġ":8596,"dong1Ġni2Ġ":8597,"shang1Ġdian4Ġ":8598,"pin3Ġpai2":8599,"ming4Ġling4":8600,"gan3Ġran3":8601,"ĠĠĠ2021Ġnian2Ġ":8602,"ni2ĠdeĠ":8603,"dai4Ġlai2Ġ":8604,"Ġdang1Ġxuan3":8605,"Ġning2Ġ":8606,"Ġ1999Ġnian2Ġ":8607,"fu2Ġer3Ġ":8608,"hang2Ġxian4Ġ":8609,"Ġji1Ġdu1Ġjiao4Ġ":8610,"Ġtong2Ġri4Ġ":8611,"Ġxing2Ġzheng4Ġzhen4Ġqu1Ġ":8612,"Ġmin2":8613,"ĠĠĠX":8614,"ĠdeĠli3Ġ":8615,"ĠdeĠxi1Ġ":8616,"Ġshi4Ġnan2Ġji2Ġzhou1ĠdeĠ":8617,"xiu1Ġgai3":8618,"ĠnĠ":8619,"ĠĠĠsui2Ġ":8620,"Ġwei4Ġqi2Ġ":8621,"Ġhe2Ġdao4":8622,"li4Ġyong4Ġ":8623,"Ġshi2Ġdai4ĠdeĠ":8624,"shi1Ġbai4":8625,"Ġzuo4Ġbiao1Ġwei4Ġ":8626,"xing4Ġbie2Ġ":8627,"chang2Ġjiang1Ġ":8628,"Ġwei2":8629,"ding4Ġzai4Ġ":8630,"âĢ§":8631,"Ġbu4Ġde2Ġ":8632,"fu2Ġhao4Ġ":8633,"qi4Ġti3Ġ":8634,"chan3Ġye4":8635,"Ġdi4Ġer4Ġci4Ġ":8636,"ao4Ġsi1Ġka3Ġ":8637,"ĠĠĠer2":8638,"hui4Ġji2Ġ":8639,"zuo4Ġzhong1Ġ":8640,"pin3Ġzhi4Ġ":8641,"bin1Ġshi4Ġ":8642,"1951Ġnian2Ġ":8643,"Ġgong1Ġjin1Ġ":8644,"cheng1Ġwei2":8645,"Ġtun2":8646,"Ġyao2Ġ":8647,"ĠĠĠzhu3Ġyao4Ġ":8648,"ge1Ġer3Ġ":8649,"chang3Ġjing3Ġ":8650,"Ġzui4Ġchu1":8651,"she4Ġhui4Ġzhu3Ġyi4Ġ":8652,"dang4Ġan4Ġ":8653,"ying2Ġde2ĠleĠ":8654,"Ġ1990":8655,"Ġgong1Ġzuo4ĠdeĠ":8656,"Ġyu3Ġzhou4":8657,"Ġzhe4Ġci4Ġ":8658,"Ġnian2Ġ12Ġyue4Ġ31Ġri4Ġ":8659,"ĠĠĠzhan4Ġ":8660,"zhan4Ġzhi4Ġ":8661,"zhan4Ġji4Ġ":8662,"yu4Ġdao4Ġ":8663,"jie1Ġjin4":8664,"wu3Ġming2Ġ":8665,"chang3Ġshang4Ġ":8666,"di3Ġzhi4Ġ":8667,"Ġsan1Ġshi2Ġ":8668,"niao3Ġlei4Ġ":8669,"dong1Ġxian4Ġ":8670,"Ġbu4Ġer3":8671,"Ġzhi4Ġding4Ġ":8672,"wu3Ġqi4":8673,"jing1Ġji4Ġxue2Ġ":8674,"lei4Ġsi4Ġyu2Ġ":8675,".&":8676,"zhong1Ġshi4Ġji4Ġ":8677,"dong4Ġyuan2Ġ":8678,"fen1Ġcheng2Ġ":8679,"kuo4Ġzhang1Ġ":8680,"nan4Ġmin2Ġ":8681,"run4Ġ":8682,"Ġming2Ġzi4Ġ":8683,"jie1Ġchu4":8684,"lie4Ġru4":8685,"ren2Ġmin2Ġdai4Ġbiao3Ġda4Ġhui4Ġ":8686,"Ġji1Ġxie4Ġ":8687,"ju4Ġfeng1Ġ":8688,"yan2Ġjiu1Ġsuo3":8689,"jiang1Ġsu1Ġsheng3Ġ":8690,"Ġniu2Ġ":8691,"ĠĠĠdui4Ġyu2Ġ":8692,"fu2Ġde2Ġ":8693,"yin3Ġli4Ġ":8694,"Ġxian4Ġdai4":8695,"zhong4Ġzhi2Ġ":8696,"jiang3ĠdeĠ":8697,"codi":8698,"nu2Ġ":8699,"1930Ġnian2Ġ":8700,"Ġta1Ġshuo1Ġ":8701,"5Ġgong1Ġli3Ġ":8702,"Ġchao1":8703,"Ġzhong1Ġshu1Ġ":8704,"hou4Ġxuan3Ġren2Ġ":8705,"yan2Ġshen1Ġ":8706,"Ġdan4Ġbu4Ġ":8707,"Ġwei2Ġzhi3Ġ":8708,"zhu1Ġlong2Ġ":8709,"mu4Ġsi1Ġlin2Ġ":8710,"Ġ36":8711,"Ġ1Ġyue4Ġ":8712,"ĠĠĠke4Ġ":8713,"fang1Ġcheng2Ġ":8714,"che1Ġdao4Ġ":8715,"su1Ġli3Ġ":8716,"chen4Ġ":8717,"sheng1Ġming2Ġ":8718,"deng3Ġzhi2Ġ":8719,"ban1Ġfa1Ġ":8720,"geng4Ġduo1":8721,"hai4Ġe2":8722,"hen2":8723,"Ġxiong1Ġ":8724,"zu1Ġjie4Ġ":8725,"32Ġ":8726,"ndĠ":8727,"Ġjia1Ġjing4Ġ":8728,"zhu4Ġce4Ġ":8729,"Ġyou2Ġyong3Ġ":8730,"Ġceng2Ġzai4Ġ":8731,"ren2Ġwei4Ġ":8732,"dui4Ġyou3Ġ":8733,"ti3Ġxing2Ġ":8734,"ye1Ġsu1":8735,"Ġji1Ġchu3Ġ":8736,"Ġchu1Ġshen1Ġ":8737,"fen1Ġqu1Ġ":8738,"bao3Ġcun2":8739,"ling3Ġxiu4":8740,"gong4Ġhe2Ġguo2ĠdeĠ":8741,"Ġwei4Ġfu2Ġqi2Ġyu2Ġgang1":8742,"Ġxiong2Ġ":8743,"shi3Ġzhong1Ġ":8744,"cheng1Ġzhi1Ġwei4Ġ":8745,"lang3Ġde2Ġ":8746,"90Ġnian2Ġ":8747,"Ġchu1Ġru4Ġkou3Ġ":8748,"tong1Ġxin4Ġ":8749,"yan2Ġjiu1Ġyuan2Ġ":8750,"xie2Ġtiao2":8751,"huo3Ġban4Ġ":8752,"Ġshi4Ġdi4Ġyi1Ġ":8753,"Ġbing4Ġqie3Ġzai4Ġ":8754,"jin3Ġbiao1Ġsai4":8755,"ĠJR":8756,"Ġshou4Ġdao4Ġ":8757,"ai4Ġde2Ġhua2Ġ":8758,"xian4Ġshi2Ġ":8759,"chuang3":8760,"ban1Ġbu4Ġ":8761,"hang2Ġzhou1Ġ":8762,"jiao4Ġzuo4Ġ":8763,"nv3Ġyan3Ġyuan2Ġ":8764,"kao3Ġgu3Ġ":8765,"mian4Ġji1Ġhe2Ġ":8766,"zui4Ġzao3ĠdeĠ":8767,"gui1Ġmo2ĠdeĠ":8768,"Ġ22":8769,"pai2Ġde2Ġzhu3Ġ":8770,"bing1Ġli4Ġ":8771,"1931Ġnian2Ġ":8772,"Ġjia1Ġmeng2Ġ":8773,"ma3Ġlai2Ġ":8774,"che4Ġdi3Ġ":8775,"Ġpian4Ġ":8776,"xi1Ġyuan2Ġ":8777,"quan2Ġxian4Ġ":8778,"qi3ĠdeĠ":8779,"bai4Ġzhan4Ġ":8780,"reng2Ġyou3Ġ":8781,"Ġcheng2Ġxu4":8782,"Ġjian4Ġyou3Ġ":8783,"shou3Ġduan4Ġ":8784,"fen1Ġli2Ġ":8785,"cheng2Ġzai4Ġ":8786,"quan2Ġqiu2":8787,"zu2Ġren2Ġ":8788,"Ġzhong1Ġfa1Ġxian4Ġ":8789,"shou3Ġfu3Ġ":8790,"zu2Ġxie2Ġ":8791,"zao1Ġshou4Ġ":8792,"Ġzhong1Ġguo2Ġgong4Ġchan3Ġdang3":8793,"Ġa":8794,"ĠĠĠ2015Ġnian2Ġ":8795,"jiang1Ġshi4Ġ":8796,"jiao1Ġcha1Ġ":8797,"Ġgai1Ġdi4ĠdeĠ":8798,"Ġgong1Ġyuan2Ġqian2Ġ":8799,"Ġdi4Ġshi2Ġyi1Ġ":8800,"ĠĠĠfu2Ġ":8801,"yi3Ġshang4Ġ":8802,"han4Ġyu3Ġ":8803,"gua1Ġ":8804,"mao1Ġ":8805,"1933Ġnian2Ġ":8806,"Ġwei4Ġzhong1Ġguo2Ġ":8807,"Ġhe2Ġlan2":8808,"Ġqiu2Ġyun4Ġdong4Ġyuan2Ġ":8809,"ti2Ġgong1ĠdeĠ":8810,"ai4Ġqing2Ġ":8811,"mian3Ġdian1Ġ":8812,"tui4Ġxiu1":8813,"Ġling4Ġyi4Ġfang1Ġmian4Ġ":8814,"Ġbu4Ġde2Ġbu4Ġ":8815,"Ġmu4Ġqian2Ġshang4Ġwei4Ġyou2Ġren2Ġgong1Ġyin3Ġzhong3Ġzai1Ġpei2Ġ":8816,"jian1Ġzhi4Ġ":8817,"hua2Ġda4Ġxue2Ġ":8818,"cai2Ġchan3Ġ":8819,"Ġtai4Ġyang2Ġ":8820,"wu4Ġli3Ġxue2Ġ":8821,"an4Ġzhong1Ġ":8822,"ĠĠĠ4Ġyue4Ġ":8823,"fen1Ġwei4Ġ":8824,"tou2ĠdeĠ":8825,"1928Ġnian2Ġ":8826,"Ġzhe4Ġye3Ġshi4Ġ":8827,"gan3Ġjue2Ġ":8828,"diĠ":8829,"da2ĠdeĠ":8830,"wang3ĠdeĠ":8831,"han4Ġzi4Ġ":8832,"mou2Ġsha1Ġ":8833,"Ġzai4Ġgong1Ġ":8834,"Ġjian4Ġzao4":8835,"Ġyin1ĠdeĠ":8836,"bao4Ġzha4":8837,"dao3Ġyan3":8838,"Ġxi1Ġban1Ġya2Ġyu3Ġ":8839,"Ġnei4":8840,"yuan2Ġshi2Ġ":8841,"jin1Ġri4Ġ":8842,"lin2Ġsi1Ġ":8843,"rang4Ġta1Ġ":8844,"amĠ":8845,"xue2Ġsheng1":8846,"Ġfen1Ġwei2Ġ":8847,"ka3Ġluo2Ġlai2Ġna4":8848,"Ġqiu1":8849,"fa3Ġshi4Ġ":8850,"1942Ġnian2Ġ":8851,"Ġji2Ġyi1Ġ":8852,"Ġchu1Ġyi1Ġ":8853,"ĠMi":8854,"fu4Ġyou3Ġ":8855,"te4Ġhe2Ġ":8856,"tai4Ġhou4Ġ":8857,"zhong1Ġbu4Ġ":8858,"Ġda4Ġyue1":8859,"sheng1Ġtai4Ġ":8860,"wei3Ġyuan2Ġhui4ĠdeĠ":8861,"qian1Ġshu3":8862,"Ġwen2Ġhua4":8863,"Ġdang1Ġxuan3Ġ":8864,"Ġzhi4Ġzuo4Ġren2Ġ":8865,"xia4Ġxia2ĠdeĠyi2Ġge4Ġxiang1Ġ":8866,"Ġkong1Ġ":8867,"Ġtou4Ġguo4Ġ":8868,"nan2Ġsi1Ġla1Ġ":8869,"gan4Ġxian4Ġ":8870,"Ġshi4Ġnan2Ġ":8871,"yan2Ġchang2":8872,"shui3Ġku4Ġ":8873,"zu2Ġzi4Ġzhi4Ġ":8874,"bian1Ġma3Ġ":8875,"xu4Ġshu4Ġ":8876,"Ġwen1":8877,"cho":8878,"ziĠgong1Ġsi1Ġ":8879,"Ġyue4Ġtuan2":8880,"Ġyi4Ġdian3Ġ":8881,"dui4Ġwai4Ġ":8882,"qi3Ġsu4Ġ":8883,"zhong4Ġdian3":8884,"ĠDĠ":8885,"Ġ34":8886,"ji4Ġyu2Ġ":8887,"te4Ġji2Ġ":8888,"bian1Ġcheng2Ġ":8889,"inĠĠĠ":8890,"1943Ġnian2Ġ":8891,"Ġshi4Ġxiang1Ġgang3Ġ":8892,"shen1Ġzhen4Ġ":8893,"Ġma3Ġlai2Ġxi1Ġya4Ġ":8894,"Ġ2025":8895,"Ġren4Ġhe2Ġ":8896,"mu4Ġshi4Ġ":8897,"New":8898,"Ġzai4Ġnan2Ġ":8899,"Ġhe2Ġtong2Ġ":8900,"shang4Ġshu4Ġ":8901,"Ġhui4Ġbei4Ġ":8902,"wu3Ġhan4":8903,"ding4Ġqi1Ġ":8904,"gai3Ġwei2":8905,"ĠĠĠge4Ġren2Ġsheng1Ġhuo2Ġ":8906,"Ġw":8907,"Ġkang1Ġxi1Ġ":8908,"ĠĠĠ7Ġyue4Ġ":8909,"jin4Ġji2Ġ":8910,"fu4Ġzhi4Ġ":8911,"Ġshi4Ġge4Ġ":8912,"san1Ġci4Ġ":8913,"bo1Ġfang4":8914,"ce4Ġlve4Ġ":8915,"Ġji4Ġsuan4Ġji1Ġ":8916,"feng3":8917,"Ġzhu3":8918,"Ġyao1Ġqiu2":8919,"zhan4Ġwei4Ġ":8920,"ru4Ġwei2Ġ":8921,"qi4Ġren2Ġ":8922,"xie2Ġdai4Ġ":8923,"wo4Ġer3Ġ":8924,"tan4Ġsuo3Ġ":8925,"dui4Ġxiang4Ġ":8926,"miao2Ġshu4Ġwei4Ġ":8927,"Ġha1Ġer3Ġ":8928,"Ġà¸":8929,"codiceĠ":8930,"ĠCD":8931,"Ġfan3Ġdui4Ġ":8932,"chao3":8933,"shu4Ġhe2Ġ":8934,"mei3Ġri4Ġ":8935,"shou3Ġbu4Ġ":8936,"shi1Ġhe2Ġ":8937,"xiu1Ġsi1Ġ":8938,"sao3Ġ":8939,"cu1Ġ":8940,"xi4Ġlie4ĠdeĠ":8941,"tai2Ġbi4Ġ":8942,"ban1Ġci4Ġ":8943,"ĠdeĠji1Ġhui4Ġ":8944,"jiong3":8945,"ĠĠĠdong1Ġ":8946,"zhuan3Ġwei2Ġ":8947,"Ġyuan2Ġyou3Ġ":8948,"Ġge4Ġda4Ġ":8949,"Ġke4Ġli3Ġsi1Ġ":8950,"dong4Ġche1Ġ":8951,"zhu3Ġchi2Ġren2Ġ":8952,"âĦĥ":8953,"2Ġmi3Ġ":8954,"ĠĠĠ2020Ġnian2Ġ":8955,"jue2ĠleĠ":8956,"ren3Ġ":8957,"ben1Ġ":8958,"Ġbu4Ġzheng4Ġ":8959,"Ġguo2Ġgong1Ġ":8960,"Ġli4Ġke4Ġ":8961,"Ġgong1Ġkai1":8962,"lu4Ġshang4Ġ":8963,"min2Ġjin4Ġ":8964,"gui1Ġhua4":8965,"Ġsui2ĠzheĠ":8966,"mo4Ġsi1Ġke1":8967,"an1Ġren2Ġ":8968,"ĠĠĠzhi4Ġzuo4Ġ":8969,"fu1Ġfu4Ġ":8970,"ari":8971,"zhuang4Ġbing4Ġdu2":8972,"asĠĠĠ":8973,"PlaySta":8974,"Ġcheng2Ġbao3Ġ":8975,"qi2Ġshi4Ġ":8976,"bei4Ġshi4Ġ":8977,"na4Ġsi1Ġ":8978,"hang2Ġzhan4Ġ":8979,"oun":8980,"jian4Ġzao4Ġ":8981,"tai2Ġwan1ĠdeĠ":8982,"pi1Ġping2":8983,"JĠ":8984,"jing1ĠdeĠ":8985,"Ġdi4Ġ2Ġ":8986,"zheng4Ġquan2Ġ":8987,"qu1Ġjian1Ġ":8988,"zuo3Ġyou4":8989,"ĠĠĠxiang1Ġgang3Ġ":8990,"Ġnian2Ġnian2Ġ":8991,"Ġcheng2Ġwei2Ġyi1Ġ":8992,"Ġge4Ġzi4Ġ":8993,"yi2Ġmin2":8994,"Ġxiang1Ġdang1Ġ":8995,"Ġyou3Ġyi1Ġxie1Ġ":8996,"kuo4Ġzhan3Ġ":8997,"jiu4Ġdu2Ġyu2Ġ":8998,"Ġfa1":8999,"dong1ĠdeĠ":9000,"ke1Ġer3Ġ":9001,"oog":9002,"Ġzhong1Ġzhi3Ġ":9003,"kai1Ġmu4Ġ":9004,"ba1Ġnen4":9005,"du2Ġte4ĠdeĠ":9006,"fan4Ġwei2":9007,"Ġguo2Ġmin2Ġdang3Ġ":9008,"Ġb":9009,"Ġe":9010,"Ġgu4Ġshi4Ġ":9011,"ĠĠĠla1Ġ":9012,"ĠĠĠ2014Ġnian2Ġ":9013,"xian4Ġxiang4Ġ":9014,"wu2Ġer3Ġ":9015,"ji3Ġnian2Ġ":9016,"Ġdi4Ġ2":9017,"min2Ġzhu3":9018,"zhe4Ġzhong3":9019,"Ġzhan4Ġling3Ġ":9020,"tian1Ġtang2Ġ":9021,"jiang3Ġzui4Ġjia1Ġ":9022,"qiu2Ġdui4":9023,"Ġbiao3Ġ":9024,"Ġhui4Ġshang4Ġ":9025,"feng1Ġge2":9026,"tong2Ġyang4":9027,"huo2Ġdong4ĠdeĠ":9028,"3000":9029,"ĠĠĠ2010Ġnian2Ġ":9030,"jiu1Ġ":9031,"yin4Ġxiang4Ġ":9032,"Ġming2Ġxing1Ġ":9033,"dian4Ġche1Ġ":9034,"fu3Ġzhu4Ġ":9035,"xie2Ġshang1Ġ":9036,"Ġqian2Ġlong2Ġ":9037,"cui1Ġhui3":9038,"Ġta3":9039,"Ġjiao3Ġ":9040,"Ġshan3Ġxi1Ġ":9041,"ĠĠĠ15":9042,"ĠĠĠ6Ġ":9043,"shu1Ġshi4Ġ":9044,"Ġzai4Ġyuan2Ġ":9045,"Ġri4Ġqi1Ġ":9046,"nei4Ġmeng2Ġgu3Ġ":9047,"zhao4Ġpian1":9048,"Ġci2":9049,"Ġpi2":9050,"Ġ38":9051,"ĠĠĠ8Ġyue4Ġ":9052,"thĠĠĠ":9053,"Ġdi4Ġba1Ġ":9054,"Ġji2Ġyi3Ġ":9055,"Ġguo2Ġyu3Ġ":9056,"Ġqi2Ġbing1Ġ":9057,"ling3Ġxian1Ġ":9058,"cai1Ġ":9059,"Ġ55":9060,"ĠĠĠsui1Ġran2Ġ":9061,"pin3ĠdeĠ":9062,"1912Ġnian2Ġ":9063,"Ġzhou1Ġren2Ġ":9064,"chuan1Ġyue4Ġ":9065,"xi1Ġwang4Ġ":9066,"sheng1Ġming4Ġ":9067,"jin4Ġzhi3Ġ":9068,"Ġ75":9069,"Ġlao2Ġ":9070,"e4Ġer3Ġ":9071,"lu4Ġyu3Ġ":9072,"da4Ġxue2":9073,"Ġri4Ġyi4Ġ":9074,"you2Ġtai4Ġ":9075,"te4Ġqu1Ġ":9076,"Ġbing4Ġbiao3Ġshi4Ġ":9077,"zui4Ġduo1ĠdeĠ":9078,"chang3Ġbi3Ġsai4Ġ":9079,"Ġte4Ġbie2Ġ":9080,"Ġdi2":9081,"jiao4Ġke1Ġ":9082,"Ġhe2Ġliu2Ġyu4Ġ":9083,"Ġcai3Ġ":9084,"cheng2Ġshi2Ġ":9085,"ge2Ġsi1Ġ":9086,"Ġshi4Ġyuan2Ġ":9087,"ju4Ġda4ĠdeĠ":9088,"bao3Ġzhang4":9089,"ban4Ġyan3":9090,"jie1Ġwei4Ġzhi1Ġ":9091,"Ġshi4Ġyi2Ġge4Ġwei4Ġyu2Ġmei3Ġguo2Ġ":9092,"mian4Ġji1Ġhe2Ġren2Ġkou3Ġ":9093,"ĠØ":9094,"Ġhua1":9095,"Ġ90":9096,"fang1Ġwei4Ġ":9097,"ci3Ġshi4Ġ":9098,"ju1Ġyu2Ġ":9099,"du3Ġ":9100,"1929Ġnian2Ġ":9101,"Ġta1Ġjiang1Ġ":9102,"zong3Ġjing1Ġli3Ġ":9103,"ka3Ġla1Ġ":9104,"Ġtong2Ġshi2Ġye3Ġ":9105,"he4Ġse4Ġ":9106,"xiang1ĠdeĠ":9107,"duo1Ġming2Ġ":9108,"bo1Ġchu1":9109,"jia3Ġji1Ġ":9110,"shang4Ġxia4Ġ":9111,"fen1Ġlan2Ġ":9112,"huang2Ġjin1":9113,"fĠĠĠ":9114,"Ġfeng1":9115,"Ġlu2":9116,"ĠĠĠmu4Ġqian2Ġ":9117,"wang2Ġhou4Ġ":9118,"bo1Ġli4Ġ":9119,"nu2Ġli4Ġ":9120,"1927Ġnian2Ġ":9121,"Ġchu1Ġren4":9122,"Ġjun1Ġguan1Ġ":9123,"Ġqi2Ġzhong1Ġyou3Ġ":9124,"mi2Ġni3Ġ":9125,"hang2Ġkong1Ġgong1Ġsi1Ġ":9126,"Ġgai1Ġdi4ĠdeĠmian4Ġji1Ġhe2Ġren2Ġkou3Ġ":9127,"Ġgai1Ġdi4ĠdeĠmian4Ġji1Ġhe2Ġren2Ġkou3Ġjie1Ġwei4Ġzhi1Ġ":9128,"diu1":9129,"yue4Ġhe2Ġ":9130,"qu1Ġji2Ġ":9131,"zhu4Ġzhai2":9132,"jian4Ġkang1Ġ":9133,"han4Ġlin2Ġ":9134,"ban3Ġben3ĠdeĠ":9135,"Ġzhi4Ġli4Ġyu2Ġ":9136,"Ġcai4Ġ":9137,"yi2Ġji4Ġ":9138,"zhang1ĠdeĠ":9139,"dai4Ġbu3Ġ":9140,"gao1Ġdeng3":9141,"ĠLe":9142,"fu4Ġyu3Ġ":9143,"dan1Ġxin1Ġ":9144,"zu2Ġyi3Ġ":9145,"Ġshi2Ġyue4Ġ":9146,"Ġyi1Ġtian1Ġ":9147,"dan1Ġda3Ġ":9148,"shang1Ġpin3Ġ":9149,"tuan2Ġjie2Ġ":9150,"Ġyin1Ġci3Ġzai4Ġ":9151,"ying1Ġjun1Ġ":9152,"bi3Ġer3Ġ":9153,"jiu4Ġyou3Ġ":9154,"xiang3ĠdeĠ":9155,"chai2Ġ":9156,"guo2Ġfang2":9157,"Ġchu1Ġxian4":9158,"Ġjia1Ġru4ĠleĠ":9159,"hui4Ġyi4Ġshang4Ġ":9160,"cun2Ġzai4Ġyu2Ġ":9161,"dian3Ġxing2ĠdeĠ":9162,"tang2ĠdeĠ":9163,"biao1Ġji4Ġ":9164,"Ġyi1Ġchang2Ġ":9165,"Ġde2Ġli4Ġ":9166,"Ġdai4Ġlai2Ġ":9167,"Ġhuai2":9168,"Ġyan2Ġjiu1Ġ":9169,"ĠĠĠ2013Ġnian2Ġ":9170,"e1Ġ":9171,"ju4Ġzhong1Ġ":9172,"san1Ġwei4Ġ":9173,"ting1ĠdeĠ":9174,"zhuang4ĠdeĠ":9175,"1932Ġnian2Ġ":9176,"ji4Ġxu4":9177,"Ġke4Ġluo2Ġ":9178,"Ġjin4Ġji2Ġ":9179,"gao1Ġjia4Ġ":9180,"yi2Ġzhi3":9181,"que4Ġbao3Ġ":9182,"chuang4Ġshi3Ġren2Ġ":9183,"ĠĠĠwei4ĠleĠ":9184,"Ġ2004":9185,"Ġyuan3Ġ":9186,"an1Ġshi4Ġ":9187,"ĠĠĠ2012Ġnian2Ġ":9188,"a1Ġji1Ġ":9189,"xi4Ġjun1Ġ":9190,"mu4Ġzhi4Ġ":9191,"fu2Ġshe4Ġ":9192,"Ġyi4Ġwai4Ġ":9193,"Ġda4Ġgui1Ġmo2Ġ":9194,"chan3Ġsheng1":9195,"Ġzhu3Ġchi2":9196,"rui4Ġdian3":9197,"ĠĠĠ9Ġyue4Ġ":9198,"cha2Ġli3Ġ":9199,"80Ġnian2Ġ":9200,"ĠdeĠji4Ġhua4Ġ":9201,"Ġguo2Ġmin2Ġdang3":9202,"jia2":9203,"ĠĠĠqi2Ġzhong1Ġ":9204,"jian3Ġli4Ġ":9205,"gei3Ġta1Ġ":9206,"zuan3":9207,"jue2Ġsai4Ġzhong1Ġ":9208,"meng2Ġte4Ġ":9209,"Ġguo2Ġmin2Ġzheng4Ġfu3Ġ":9210,"Ġzhu3Ġyao4Ġshi4Ġ":9211,"wa4":9212,"ping2Ġjun1":9213,"Ġshi2Ġjian1ĠdeĠ":9214,"lu4Ġxu4Ġ":9215,"hei1Ġlong2Ġjiang1Ġ":9216,"zhong1Ġhe2Ġ":9217,"jia1Ġshi4Ġ":9218,"shi1Ġdi4Ġ":9219,"duan4Ġshi2Ġjian1Ġ":9220,"Ġyi3Ġ1Ġ":9221,"Ġxi1Ġli3Ġ":9222,"fa1Ġhui1":9223,"fa1Ġyan2Ġren2Ġ":9224,"Ġwei2Ġqi2":9225,"Ġzhu3Ġren4Ġ":9226,"ting2Ġyun4Ġ":9227,"CĠĠĠ":9228,"Ġ70":9229,"ani":9230,"qian2Ġzai4Ġ":9231,"diao4Ġyu2Ġ":9232,"illi":9233,"Ġchu1Ġshou4Ġ":9234,"duan3Ġzan4":9235,"Ġnong2Ġ":9236,"Ġshao4Ġ":9237,"fu2Ġzhou1Ġ":9238,"guan1Ġce4":9239,"ta3Ġni2":9240,"Ġshi3Ġyong4":9241,"Ġzhan4Ġdi4Ġ":9242,"Ġdou1Ġshi4Ġ":9243,"Ġ1997Ġnian2Ġ":9244,"shu4Ġren2Ġ":9245,"xu4Ġji2Ġ":9246,"chuan1Ġguo4Ġ":9247,"fu4Ġzhu3Ġxi2Ġ":9248,"Ġzhou1Ġwei2Ġ":9249,"Ġfen1Ġbu4Ġzai4Ġ":9250,"Ġceng2Ġjing1Ġ":9251,"Ġna4Ġme":9252,"ĠdeĠyuan2Ġyin1Ġ":9253,"Ġken3Ġ":9254,"shi3Ġdi4Ġ":9255,"wu4Ġyu3Ġ":9256,"ci4Ġji1Ġ":9257,"jue2Ġyu2Ġ":9258,"Ġhe2Ġli4Ġ":9259,"Ġguo2Ġwang2":9260,"Ġzhi1Ġcheng1Ġ":9261,"Ġdan4Ġqi2Ġ":9262,"Ġxue2Ġxi2":9263,"ling3Ġyu4ĠdeĠ":9264,"que4Ġding4":9265,"qun2Ġzhong4Ġ":9266,"chuang4Ġzuo4":9267,"Ġshi4Ġjie4ĠdeĠ":9268,"Ġzong3Ġtong3Ġ":9269,"tan4Ġxian3":9270,"ni2Ġya4ĠdeĠ":9271,"ĠĠĠche1Ġzhan4Ġjie2Ġgou4Ġ":9272,"Ġgong1Ġbu4Ġ":9273,"Ġmeng4Ġ":9274,"xing2Ġxiang4Ġ":9275,"suan4Ġfa3Ġ":9276,"sonĠ":9277,"1934Ġnian2Ġ":9278,"shu4Ġmu4Ġ":9279,"Ġer2Ġlai2Ġ":9280,"zhi2Ġbo1Ġ":9281,"Ġfu4Ġgai4Ġ":9282,"gao4Ġsu4":9283,"Ġnian2Ġdai4Ġchu1Ġ":9284,"ao4Ġda4Ġli4Ġya4":9285,"ĠĠĠcan1Ġkao3Ġ":9286,"you3Ġguan1Ġ":9287,"zui4Ġzao3Ġ":9288,"Ġdang1Ġnian2Ġ":9289,"Ġcheng2Ġli4ĠleĠ":9290,"qu4Ġshi4Ġhou4Ġ":9291,"6Ġmi3Ġ":9292,"li1":9293,"Ġhu4":9294,"Ġke3Ġneng2":9295,"yu4Ġbei4Ġ":9296,"shen2ĠdeĠ":9297,"chong2Ġfu4Ġ":9298,"tui1Ġxing2Ġ":9299,"1924Ġnian2Ġ":9300,"Ġdao4Ġzhong1Ġ":9301,"hai3Ġyang2":9302,"ĠdeĠdi4Ġyi2Ġge4Ġ":9303,"5ĠĠĠ":9304,"an4Ġshi4Ġ":9305,"zhan3Ġxian4Ġ":9306,"duo3Ġ":9307,"Ġshi4Ġbei4Ġ":9308,"Ġyin1Ġyuan2Ġ":9309,"Ġyin1Ġqi2Ġ":9310,"zhu4Ġzhai2Ġ":9311,"fu2Ġhua4Ġ":9312,"jing4Ġnei4ĠdeĠ":9313,"ge1Ġci2Ġ":9314,"Ġli":9315,"Ġqin2":9316,"Ġ46":9317,"an4Ġshi2Ġ":9318,"ai3Ġ":9319,"lie4Ġsi1Ġ":9320,"du1Ġhui4Ġ":9321,"song4Ġdao4Ġ":9322,"Ġji2Ġer3Ġ":9323,"xi1Ġya4Ġ":9324,"wu3Ġdao3Ġ":9325,"jing4Ġwai4Ġ":9326,"mi4Ġqie4":9327,"e2Ġhai4Ġe2":9328,"Ġlu4Ġyi4Ġ":9329,"pai2Ġhang2Ġbang3":9330,"ĠĠĠ6Ġyue4Ġ":9331,"zhe3Ġren4Ġwei2Ġ":9332,"33Ġ":9333,"Ġda4Ġqiao2":9334,"fang2Ġjian1Ġ":9335,"guo2Ġjia1Ġdui4Ġ":9336,"zhe4Ġjiang1Ġsheng3Ġ":9337,"zhi1Ġdao4Ġ":9338,"duo1Ġyuan2Ġ":9339,"ssĠ":9340,"Ġyi3Ġlai2":9341,"shen1Ġwang2Ġ":9342,"fan3Ġdui4":9343,"tan4Ġce4Ġ":9344,"Ġdeng1":9345,"duan1ĠdeĠ":9346,"Ġdi4Ġzhong1Ġ":9347,"Ġta1Ġhai2":9348,"jing1Ġyou2Ġ":9349,"²Ġ":9350,"25Ġnian2Ġ":9351,"Ġyi1Ġtong2":9352,"Ġri4Ġhou4Ġ":9353,"Ġsheng1Ġcheng1Ġ":9354,"gui1Ġze2":9355,"cai2Ġzheng4":9356,"Ġlian2Ġjie1Ġ":9357,"man3Ġzu2":9358,"Ġ150":9359,"jin4Ġxing2ĠdeĠ":9360,"Ġer3Ġyu3Ġ":9361,"cun1Ġmin2Ġ":9362,"pen":9363,"hou4Ġbu4Ġjiu3Ġ":9364,"chu1Ġzhan4Ġ":9365,"fu4Ġbu4Ġzhang3Ġ":9366,"Ġli4Ġshu3":9367,"Ġxing2Ġyu2Ġ":9368,"la1Ġte4Ġ":9369,"ba1Ġle4":9370,"tou2Ġxian2Ġ":9371,"qiang2Ġda4ĠdeĠ":9372,"shou1Ġlu4":9373,"Ġyi1Ġwei4Ġ":9374,"ĠĠĠ2011Ġnian2Ġ":9375,"zhan4Ġzai4Ġ":9376,"fen1ĠdeĠ":9377,"wang3Ġqiu2":9378,"kuo4Ġjian4Ġ":9379,"cheng2Ġji4Ġ":9380,"Ġji2Ġsi1Ġ":9381,"Ġjia1Ġsi1Ġ":9382,"Ġbing4Ġyou3Ġ":9383,"Ġ12Ġ":9384,"Ġya3":9385,"kua4Ġ":9386,"yi1Ġli4Ġ":9387,"ke1Ġfu1Ġ":9388,"3Ġmi3Ġ":9389,"ĠĠĠgen1Ġju4":9390,"a1Ġli3Ġ":9391,"yu2ĠĠĠ":9392,"qi1Ġshi4Ġ":9393,"Ġhe2Ġdong1Ġ":9394,"Ġri4Ġyu3Ġ":9395,"zhan4Ġlve4Ġ":9396,"zhi2Ġwu4":9397,"Ġxue2Ġhui4Ġ":9398,"wan2Ġcheng2ĠleĠ":9399,"wan2Ġzheng3ĠdeĠ":9400,"Ġji1Ġyu2Ġ":9401,"ĠĠĠci3":9402,"shuo1ĠdeĠ":9403,"wor":9404,"zhen1Ġzheng4Ġ":9405,"Ġqi2Ġta1ĠdeĠ":9406,"chang2Ġwei3Ġhui4Ġ":9407,"ban4Ġdao3":9408,"hang2Ġban1Ġ":9409,"fang2Ġkong1Ġ":9410,"Ġpeng2Ġ":9411,"ĠĠĠxiang1Ġ":9412,"ĠĠĠri4Ġben3Ġ":9413,"ĠĠĠjian4Ġzhu4Ġ":9414,"di1ĠdeĠ":9415,"za2ĠdeĠ":9416,"Ġzhong1Ġdui4Ġ":9417,"da4Ġliang4Ġ":9418,"EN":9419,"Ġsi3Ġ":9420,"ding4Ġli3Ġ":9421,"xiao4Ġshe4Ġ":9422,"xie3ĠleĠ":9423,"etĠ":9424,"Ġji2Ġjiang1Ġ":9425,"Ġda4Ġsai4Ġ":9426,"pu3Ġtong1":9427,"Ġguo2Ġji4Ġji1Ġchang3Ġ":9428,"you1Ġxiu4Ġ":9429,"ĠĠĠgen1Ġju4Ġ2010Ġnian2Ġmei3Ġguo2Ġren2Ġkou3Ġpu3Ġcha2ĠdeĠshu4Ġju4Ġ":9430,"Ġ2003":9431,"Ġ180":9432,"Ġxuan2Ġ":9433,"ba1Ġshi2Ġ":9434,"sheng3Ġzheng4Ġfu3Ġ":9435,"bao3Ġwei4Ġ":9436,"dou1Ġbu4Ġ":9437,"Ġzai4Ġxian4Ġ":9438,"san1Ġzhong3Ġ":9439,"xiao3Ġzu3":9440,"hu4Ġdong4Ġ":9441,"chong2Ġxin1":9442,"che4Ġtui4Ġ":9443,"ĠMĠ":9444,"Ġguan1Ġzhi4Ġ":9445,"chĠĠĠ":9446,"ren4Ġyi4Ġ":9447,"xiang2Ġxi4Ġ":9448,"chui2Ġzhi2Ġ":9449,"Ġchu1Ġxian4ĠdeĠ":9450,"ke1Ġxue2":9451,"da3Ġsuan4Ġ":9452,"nuo4Ġman4Ġ":9453,"ĠPĠ":9454,"ĠĠĠgao1Ġ":9455,"panĠ":9456,"Ġyi1Ġzhong3":9457,"Ġxing2Ġhe2Ġ":9458,"xue2Ġshi4Ġxue2Ġwei4Ġ":9459,"Ġg":9460,"Ġwan3Ġ":9461,"ĠĠĠst":9462,"a1Ġfu4Ġ":9463,"bu4Ġwei4Ġyu2Ġ":9464,"xiao4Ġyou3Ġ":9465,"26Ġ":9466,"zang4Ġyu2Ġ":9467,"tsĠ":9468,"Ġhe2Ġji1Ġ":9469,"Ġyi1Ġlang3":9470,"Ġhe2Ġnan2Ġsheng3Ġ":9471,"han3Ġmo4Ġde2Ġ":9472,"Ġzeng1Ġ":9473,"qian1Ġren2Ġ":9474,"dang3Ġji2Ġ":9475,"bai3Ġwan4Ġ":9476,"28Ġ":9477,"Ġxian4Ġyu3Ġ":9478,"Ġxian4Ġzai4ĠdeĠ":9479,"xiang1Ġhu4Ġ":9480,"yan2Ġchang2Ġ":9481,"Ġke4Ġsa4Ġsi1Ġ":9482,"chao2Ġting2Ġ":9483,"2ĠĠĠ":9484,"hou4Ġta1Ġ":9485,"jiang3Ġzhong1Ġ":9486,"ren2Ġmin2":9487,"fa1Ġbu4ĠdeĠ":9488,"jie2Ġdu4Ġshi3Ġ":9489,"zi1Ġxun4":9490,"wu1Ġran3":9491,"Ġshou3Ġci4":9492,"tan2Ġpan4":9493,"Ġruan3":9494,"Ġgui4Ġ":9495,"zhen1Ġyu3Ġ":9496,"Ġshi4Ġdui4Ġ":9497,"Ġta1Ġcheng2Ġwei2Ġ":9498,"Ġzhou1Ġhe2Ġ":9499,"tian1Ġqi4Ġ":9500,"ban4Ġfa3Ġ":9501,"Ġzhao1Ġ":9502,"ĠĠĠfa3Ġguo2Ġ":9503,"ben3Ġbu4Ġ":9504,"liu2Ġxue2Ġ":9505,"gai3Ġming2Ġ":9506,"27Ġ":9507,"STAT":9508,"Ġda4Ġcheng2Ġ":9509,"Ġren4Ġzhi2Ġ":9510,"bao3Ġzhang4Ġ":9511,"na4Ġru4Ġ":9512,"Ġquan2Ġmian4Ġ":9513,"pan4Ġchu3Ġ":9514,"Ġshi4Ġshi4Ġjie4":9515,"mao4Ġxian3Ġ":9516,"li3Ġshi4Ġhui4Ġ":9517,"Ġren2Ġkou3ĠdeĠ":9518,"tu2Ġshu1Ġguan3":9519,"1Ġhao4Ġ":9520,"er2Ġtong2":9521,"zong3Ġzhan4Ġ":9522,"su4Ġshe4Ġ":9523,"chuan2Ġqi2Ġ":9524,"qu4ĠdeĠ":9525,"fou3Ġren4Ġ":9526,"lian3Ġ":9527,"Ġshi4Ġzheng4Ġfu3Ġ":9528,"Ġnian2Ġqian2Ġ":9529,"Ġzai4Ġqi2":9530,"Ġbu4Ġjin3":9531,"Ġsi1Ġfa3Ġ":9532,"min2Ġzhong4":9533,"Ġbing4Ġjiang1":9534,"ke4Ġyun4Ġ":9535,"zhuan3Ġyi2Ġ":9536,"qu3Ġde2ĠleĠ":9537,"Ġlan2":9538,"qian2Ġxian4Ġ":9539,"can1Ġyi4Ġyuan2Ġ":9540,"ci2Ġhui4Ġ":9541,"xing3Ġ":9542,"Ġzhi1Ġbu4Ġ":9543,"ren4Ġzhi2Ġ":9544,"wai4Ġguan1Ġ":9545,"ming4Ġming2ĠdeĠ":9546,"ren2Ġda4Ġdai4Ġbiao3Ġ":9547,"liu4Ġge4Ġ":9548,"Ġyi3Ġ2Ġ":9549,"wang3Ġwang3Ġ":9550,"bian1Ġjie4":9551,"hu2Ġpo1Ġ":9552,"deng1Ġlu4":9553,"Ġjiang1Ġxi1Ġ":9554,"Ġcom":9555,"Ġ1992Ġnian2Ġ":9556,"ĠĠĠchen2Ġ":9557,"wei2Ġren2Ġ":9558,"duo1Ġbu4Ġ":9559,"san1Ġyue4Ġ":9560,"dang4Ġzuo4Ġ":9561,"fang1Ġcheng2Ġshi4Ġ":9562,"liang4Ġxiang4Ġ":9563,"Ġri4Ġben3ĠdeĠ":9564,"luo2Ġma3Ġdi4Ġguo2Ġ":9565,"Ġxian4ĠdeĠyi2Ġge4Ġxing2Ġzheng4Ġzhen4Ġqu1Ġ":9566,"ying3Ġdai4Ġ":9567,"jia3Ġshe4Ġ":9568,"Ġshi4Ġyan4Ġ":9569,"Ġwei4Ġwei4Ġ":9570,"fa3Ġguo2ĠdeĠ":9571,"Ġxiang1Ġsi4Ġ":9572,"dan1Ġmai4":9573,"yan3Ġzou4":9574,"mi4Ġdu4Ġ":9575,"hui2Ġgui1":9576,"ren2Ġkou3Ġpu3Ġcha2Ġ":9577,"che1Ġren2Ġ":9578,"bo1Ġchu1ĠdeĠ":9579,"zhen1ĠdeĠ":9580,"80Ġ":9581,"Ġzhi1Ġhou4Ġzai4Ġ":9582,"ru2Ġguo3":9583,"xing1Ġxi4Ġ":9584,"shan1Ġxi1Ġsheng3Ġ":9585,"Ġchuang4":9586,"Ġ37":9587,"Ġ2023Ġnian2Ġ":9588,"Ġ1994Ġnian2Ġ":9589,"ĠĠĠyan2Ġge2Ġ":9590,"mian3Ġyi4Ġ":9591,"ka1Ġ":9592,"Ġjian4Ġzai4Ġ":9593,"Ġbei4Ġjing3Ġ":9594,"zhe4Ġyang4ĠdeĠ":9595,"Ġquan2ĠdeĠ":9596,"Ġtong2Ġshi2Ġye3Ġshi4Ġ":9597,"Ġqi1Ġjian1":9598,"Ġda4Ġbu4Ġfen4":9599,"ĠĠĠ2008Ġnian2Ġ":9600,"ĠĠĠyi3Ġxia4Ġ":9601,"ti3Ġji1Ġ":9602,"na4Ġhe2Ġ":9603,"Ġshi4Ġzhi3":9604,"gai3Ġcheng1Ġ":9605,"Ġdong1Ġbei3":9606,"wei3Ġyuan2Ġhui4Ġzhu3Ġxi2Ġ":9607,"guang3Ġfan4ĠdeĠ":9608,"Ġliu2Ġyu4Ġmian4Ġji1Ġ":9609,"Ġqu3":9610,"chuan2Ġdi4Ġ":9611,"cun1ĠdeĠ":9612,"Ġxian4Ġzhong1Ġ":9613,"Ġda4Ġfu1Ġ":9614,"Ġdan4ĠdeĠ":9615,"Ġlian2Ġmeng2Ġ":9616,"Ġgen1Ġju4Ġ2020Ġnian2Ġmei3Ġguo2Ġren2Ġkou3Ġpu3Ġcha2ĠdeĠshu4Ġju4Ġ":9617,"kai1Ġfa1ĠdeĠ":9618,"Ġfeng2":9619,"Ġwang1":9620,"you3Ġhe2Ġ":9621,"li2Ġshi4Ġ":9622,"chao2Ġshi2Ġ":9623,"ju2Ġshi4Ġ":9624,"tao1Ġ":9625,"zong3Ġmian4Ġji1Ġ":9626,"gai3Ġzao4":9627,"wit":9628,"Ġheng1Ġli4Ġ":9629,"xin1Ġxing2Ġ":9630,"kai1Ġshe4":9631,"chang2Ġbei4Ġ":9632,"zi3Ġdan4Ġ":9633,"dang4ĠdeĠ":9634,"xue2Ġxi4Ġ":9635,"shou1Ġcang2":9636,"Ġan1Ġde2Ġ":9637,"Ġ400":9638,"leĠdi4Ġ":9639,"48Ġ":9640,"isĠ":9641,"kuang1Ġ":9642,"Ġcheng2Ġli4ĠdeĠ":9643,"xi1Ġyang2":9644,"Ġbing4Ġfei1":9645,"Ġzi4Ġmu3Ġ":9646,"Ġbi4Ġxu1Ġ":9647,"hang2Ġkong1Ġmu3":9648,"Ġ39":9649,"ge2Ġli3Ġ":9650,"18Ġnian2Ġ":9651,"jing3Ġyuan2Ġ":9652,"qian3Ġze2Ġ":9653,"umĠ":9654,"Ġzai4Ġbei4Ġ":9655,"bu4Ġtong2Ġ":9656,"yi4Ġbai3Ġ":9657,"dian4Ġzi3":9658,"xu4Ġlie4Ġ":9659,"fei1Ġlv4Ġbin1Ġ":9660,"Ġsheng1":9661,"Ġshuang1":9662,"Ġ21":9663,"ĠĠĠtong2":9664,"ĠĠĠtai2Ġwan1Ġ":9665,"zhang3Ġhe2Ġ":9666,"jiao1ĠdeĠ":9667,"cha2Ġer3Ġsi1Ġ":9668,"wan3Ġnian2Ġ":9669,"60Ġnian2Ġ":9670,"Ġshi2Ġyou2Ġ":9671,"Ġji1Ġxie4":9672,"yi2Ġdu4":9673,"sai4Ġche1Ġ":9674,"jiao1Ġjie4Ġ":9675,"shang1Ġchang3Ġ":9676,"fu2Ġshi4Ġ":9677,"Ġxi1Ġfang1Ġ":9678,"Ġqi2Ġhou4Ġyu2Ġ":9679,"ting2Ġkao4":9680,"dian4Ġying3ĠdeĠ":9681,"Ġqi4":9682,"Ġ300":9683,"Ġ1996Ġnian2Ġ":9684,"ĠĠĠ189":9685,"xing1Ġjian4":9686,"gen1Ġben3Ġ":9687,"pao3Ġdao4Ġ":9688,"Ġzhong1Ġqi1Ġ":9689,"Ġshi2Ġli4Ġ":9690,"zheng4Ġchang2Ġ":9691,"Ġzhi1Ġshang4Ġ":9692,"bao3Ġjia1":9693,"yi2Ġci4Ġshi4Ġjie4Ġda4Ġzhan4Ġ":9694,"qiang2Ġdiao4":9695,"de2Ġguo2ĠdeĠ":9696,"bu3Ġchong1Ġ":9697,"fu2Ġjian4Ġsheng3Ġ":9698,"Ġji3":9699,"ĠSt":9700,"ĠDe":9701,"Ġluo2Ġsi1Ġ":9702,"ĠĠĠxiang1Ġgang3":9703,"40Ġnian2Ġ":9704,"Ġshi2Ġke4Ġ":9705,"Ġge4Ġbu4Ġ":9706,"fen1Ġpei4":9707,"fen1Ġlie4Ġ":9708,"cri":9709,"Ġting1Ġ":9710,"hao4ĠdeĠ":9711,"Ġyou3Ġliang3Ġ":9712,"li3Ġlan2Ġ":9713,"Ġzhou1Ġli4Ġ":9714,"shou3Ġshu4Ġ":9715,"Ġdui4Ġwai4Ġ":9716,"jin1Ġrong2":9717,"shou4Ġhuan1Ġ":9718,"wang2Ġzi3Ġ":9719,"gui1Ġlei4":9720,"Ġli4Ġshi3Ġxue2Ġjia1Ġ":9721,"Ġyi4Ġshu4Ġjia1Ġ":9722,"san1Ġbu4Ġ":9723,"si4Ġyue4Ġ":9724,"orĠĠĠ":9725,"35Ġ":9726,"Ġdui4Ġwu3Ġ":9727,"jin1Ġshan1Ġ":9728,"Ġxiang1Ġbi3Ġ":9729,"yan3Ġjiang3Ġ":9730,"nv3Ġhai2Ġ":9731,"qing2Ġbao4":9732,"yin1Ġsu4Ġ":9733,"Ġmi3Ġzhi4Ġ":9734,"Ġguang1Ġxu4Ġ":9735,"ĠĠĠ8":9736,"1925Ġnian2Ġ":9737,"yan2Ġlun4Ġ":9738,"wei1Ġxie2":9739,"a1Ġer3Ġbei1Ġsi1Ġ":9740,"cui1Ġhui3Ġ":9741,"24Ġxiao3Ġshi2Ġ":9742,"fo2Ġjiao4":9743,"ĠĠĠliu2Ġ":9744,"sha1ĠdeĠ":9745,"Ġhe2Ġshang4Ġ":9746,"sheng1Ġyin1Ġ":9747,"zhi2Ġsheng1Ġji1Ġ":9748,"Ġjin4Ġer2Ġ":9749,"luo2Ġla1Ġ":9750,"fan4Ġzui4":9751,"qiao2Ġliang2Ġ":9752,"sa4Ġla1Ġ":9753,"Ġmian4Ġji1Ġ0":9754,"fa1Ġbu4ĠleĠ":9755,"gu3Ġlao3ĠdeĠ":9756,"Ġchong2Ġxin1Ġ":9757,"chi":9758,"eri":9759,"gao1Ġdi4Ġ":9760,"gu3Ġji4Ġ":9761,"nv3Ġren2Ġ":9762,"meĠĠĠ":9763,"shui3Ġshen1Ġ":9764,"yi3Ġse4Ġ":9765,"Ġjin1Ġshu3Ġ":9766,"ge4Ġzhong3":9767,"chao1Ġguo4":9768,"zhong4Ġdian3Ġwen2Ġwu4Ġbao3Ġhu4Ġdan1Ġwei4Ġ":9769,"jia1Ġli4Ġfu2Ġni2Ġya4Ġzhou1Ġ":9770,"di1Ġqi4Ġya1Ġ":9771,"1Ġming2Ġ":9772,"ping1":9773,"19Ġnian2Ġ":9774,"dui4Ġta1Ġ":9775,"IDĠ":9776,"Ġshi4Ġxi1Ġban1Ġya2Ġ":9777,"Ġhe2Ġji4Ġ":9778,"Ġbu4Ġshi2Ġ":9779,"Ġshi2Ġda4Ġ":9780,"ren4Ġming4Ġ":9781,"jing4Ġtou2Ġ":9782,"lai2Ġke4Ġ":9783,"te4Ġzai4Ġ":9784,"fu2Ġyin1Ġ":9785,"ya4Ġsi1Ġ":9786,"Ġguo2Ġshi2Ġ":9787,"Ġyuan2ĠziĠ":9788,"xin1Ġjiang1Ġ":9789,"qian2Ġjin4Ġ":9790,"Ġshe4Ġying3Ġ":9791,"tu2Ġsha1Ġ":9792,"kong1Ġxi2Ġ":9793,"tan3Ġding1Ġ":9794,"Ġke3Ġshi4Ġ":9795,"Ġyao4":9796,"Ġhao3Ġ":9797,"ju2Ġbu4Ġ":9798,"14Ġnian2Ġ":9799,"shuo4Ġ":9800,"Ġyi4Ġda4Ġ":9801,"Ġjun1Ġtuan2Ġ":9802,"nv3Ġzhu3Ġjue2Ġ":9803,"shou1Ġru4":9804,"ĠRĠ":9805,"Ġjing3Ġfang1Ġ":9806,"EĠĠĠ":9807,"gen3":9808,"luo4Ġke4Ġ":9809,"hui2Ġjia1Ġ":9810,"Ġgong1Ġgao4Ġ":9811,"Ġzhi1Ġhou4ĠdeĠ":9812,"mo2Ġte4":9813,"Ġshi4Ġyi1Ġke1":9814,"Ġkuan1Ġ":9815,"guang3Ġzhou1Ġshi4Ġ":9816,"70Ġnian2Ġ":9817,"seng1Ġ":9818,"fu2Ġlei2":9819,"zi1Ġxun2Ġ":9820,"cheng2Ġli4Ġhou4Ġ":9821,"Ġbu4Ġzai4Ġ":9822,"1970Ġnian2Ġdai4Ġ":9823,"Ġshi4Ġxing1Ġdeng3Ġwei4Ġ":9824,"da4Ġyu2Ġ":9825,"zhuan3Ġcheng2Ġ":9826,"yi1Ġyuan4Ġ":9827,"Ġyi3Ġbei3Ġ":9828,"Ġxian4Ġming2Ġ":9829,"Ġming2Ġxian3Ġ":9830,"xuan3Ġqu1":9831,"ying1Ġxiong2":9832,"yan2Ġjiu1Ġzhong1Ġxin1Ġ":9833,"ĠÐ°":9834,"di2Ġshi4Ġni2Ġ":9835,"zhuan1Ġli4Ġ":9836,"Ġren2Ġdui4Ġ":9837,"Ġguo2Ġjun1Ġ":9838,"Ġxia4ĠleĠ":9839,"pu3Ġluo2Ġ":9840,"zhuan1Ġmen2":9841,"pei2Ġxun4Ġ":9842,"Ġnian2Ġqing1ĠdeĠ":9843,"Ġdu4":9844,"Ġdou4Ġ":9845,"jie1ĠdeĠ":9846,"wu3Ġde2Ġ":9847,"gong4Ġji4Ġ":9848,"jiu4Ġzai4Ġ":9849,"shui3ĠdeĠ":9850,"00Ġnian2Ġ":9851,"luo4Ġzai4Ġ":9852,"lun2Ġsi1Ġ":9853,"shen2Ġhua4Ġ":9854,"dian4Ġying3Ġjie2Ġ":9855,"3Ġming2Ġ":9856,"Ġkuai4Ġ":9857,"ĠĠĠ2005":9858,"jiu4Ġbei4Ġ":9859,"zhi4Ġdu4Ġ":9860,"yu3Ġmao2":9861,"Ġzheng4Ġquan2Ġ":9862,"yi2Ġding4ĠdeĠ":9863,"lan2Ġse4Ġ":9864,"fa3Ġlan2Ġxi1":9865,"ĠED":9866,"Ġyun4Ġ":9867,"duo1Ġli4Ġya4Ġ":9868,"bian4Ġshi4Ġ":9869,"ting2ĠdeĠ":9870,"kuai4ĠdeĠ":9871,"mai3Ġ":9872,"Ġshi4Ġying1Ġguo2Ġ":9873,"Ġji2Ġbing4":9874,"qu1Ġzhu2":9875,"fang1Ġxiang4ĠdeĠ":9876,"Ġtian1Ġjin1Ġ":9877,"5000":9878,"gong1Ġhe2Ġ":9879,"nan2Ġren2Ġ":9880,"fei2Ġte4Ġ":9881,"ti3Ġyu4Ġguan3Ġ":9882,"1ĠĠĠ":9883,"8Ġge4Ġ":9884,"zhi1Ġjia1Ġ":9885,"gu3ĠdeĠ":9886,"gao4Ġshi4Ġ":9887,"Ġxing2Ġrong2":9888,"ben3Ġshen1Ġ":9889,"nei4Ġrui4Ġ":9890,"tou2Ġshou3Ġ":9891,"mo2Ġfa3Ġ":9892,"ying2Ġyun4":9893,"zhuan3Ġhuan4":9894,"Ġshi4Ġshi2Ġshang4Ġ":9895,"Ġzi3Ġ":9896,"da4Ġhe2Ġ":9897,"shui3Ġhe2Ġ":9898,"zhi4Ġzuo4":9899,"Ġji2Ġxian4Ġ":9900,"Ġri4Ġhe2Ġ":9901,"Ġjun1Ġyou3Ġ":9902,"fu4Ġshi3Ġ":9903,"Ġzhou1Ġqi1Ġ":9904,"Ġyou2Ġxi4ĠdeĠ":9905,"zhi3Ġkong4":9906,"qing1Ġchu3Ġ":9907,"zhun3Ġbei4":9908,"Ġ1949Ġnian2Ġ":9909,"nang2Ġ":9910,"Ġshi2Ġpin3Ġ":9911,"Ġbing4Ġshi4Ġ":9912,"Ġtong2Ġzhi4Ġ":9913,"chan3Ġwu4Ġ":9914,"an4Ġzhao4":9915,"ri4Ġben3ĠdeĠ":9916,"Ġxiong1":9917,"Ġ2002":9918,"Ġchu4Ġ":9919,"wang3Ġyou3Ġ":9920,"Ġwei4Ġli4Ġ":9921,"Ġyu2Ġ2021":9922,"liu2Ġliang4Ġ":9923,"zheng1Ġqu3Ġ":9924,"zhuan3Ġhuan4Ġ":9925,"mei3Ġguo2Ġren2Ġkou3Ġpu3Ġcha2Ġ":9926,"ĠTheĠĠĠ":9927,"sai1Ġer3Ġwei2Ġya4Ġ":9928,"ĠĠĠdao4Ġ":9929,"zhan4Ġhe2Ġ":9930,"ke4Ġsi1Ġ":9931,"ru4Ġqiu2Ġ":9932,"bian4ĠdeĠ":9933,"dan3Ġ":9934,"Ġxing2Ġren2Ġ":9935,"liang4Ġzi3Ġ":9936,"Ġwei4Ġyu2Ġyin2":9937,"su1Ġdan1Ġ":9938,"ke3Ġneng2Ġxing4Ġ":9939,"zhuan4Ġxie3Ġ":9940,"shun4Ġxu4Ġ":9941,"Ġlu2Ġwa3Ġer3Ġsheng3Ġ":9942,"si4Ġchuan1Ġsheng3Ġ":9943,"³Ġ":9944,"Ġpeng2":9945,"Ġwo4Ġ":9946,"zai4ĠĠĠ":9947,"ingĠ":9948,"ji4Ġzai3Ġ":9949,"Ġxing2Ġrong2Ġ":9950,"Ġbei4Ġren4Ġming4Ġwei4Ġ":9951,"Ġzhu3Ġti2Ġ":9952,"qiu2Ġchang3Ġ":9953,"Ġshi4Ġjie4Ġshang4Ġ":9954,"Ġmei3Ġzhou1Ġ":9955,"gou4Ġmai3Ġ":9956,"fang1Ġzai4Ġ":9957,"chuan1Ġxian4Ġ":9958,"atĠĠĠ":9959,"Ġyu2Ġshi2ĠdeĠren2Ġkou3Ġshu4Ġliang4Ġwei4Ġren2Ġ":9960,"bei4Ġjing3":9961,"sai4Ġguan4Ġjun1Ġ":9962,"gu3Ġdian3Ġ":9963,"che4Ġxiao1":9964,"NH":9965,"Ġpan1":9966,"hua4Ġshi4Ġ":9967,"tan2Ġhe2Ġ":9968,"Ġshang4ĠleĠ":9969,"Ġhuo4Ġzhe3":9970,"jian3Ġdan1ĠdeĠ":9971,"wei3Ġtuo1Ġ":9972,"Ġwei4Ġyu2Ġgai1Ġguo2Ġxi1Ġbu4Ġ":9973,"bao1Ġhan2ĠleĠ":9974,"Ġwen1Ġ":9975,"ba1Ġbu4Ġ":9976,"chi4Ġjing1Ġ":9977,"35Ġnian2Ġ":9978,"Ġshi4Ġji4Ġzhong1Ġ":9979,"Ġli4Ġtao2Ġ":9980,"Ġfei1Ġlv4Ġ":9981,"Ġyuan2Ġzhu4Ġmin2Ġ":9982,"ai":9983,"Ġka3Ġer3Ġ":9984,"ma3Ġli4Ġya4Ġ":9985,"bu3Ġzhu4Ġ":9986,"kai1Ġzhan3":9987,"zheng1Ġfu2Ġ":9988,"tiao2Ġwen2Ġ":9989,"dai4Ġbiao3Ġtuan2Ġ":9990,"ruan3Ġtiao2Ġ":9991,"deng3Ġyu2Ġ":9992,"hao4Ġwei4Ġ":9993,"CDĠ":9994,"jiang1Ġhu4":9995,"tong1Ġxun4":9996,"ling3Ġtu3":9997,"qu3Ġmu4Ġ":9998,"Ġxiang1Ġdang1Ġyu2Ġ":9999,"lan":10000,"±Ġ":10001,"i3Ġ":10002,"ĠĠĠhong2Ġ":10003,"ĠĠĠyou2Ġxi4Ġ":10004,"ke3Ġjian4Ġ":10005,"pu3Ġji2Ġ":10006,"Ġta1Ġren2Ġ":10007,"zuo4Ġzhe3Ġ":10008,"you2Ġyong3Ġ":10009,"Ġde2Ġwei2Ġ":10010,"mei2Ġyou3Ġren4Ġhe2Ġ":10011,"Ġtian1Ġjin1":10012,"yan2Ġshen1Ġzhi4Ġ":10013,"Ġ1949":10014,"Ġti2Ġchu1Ġ":10015,"hou4Ġyi3Ġ":10016,"jian1Ġwei4Ġ":10017,"bo1ĠdeĠ":10018,"du2ĠdeĠ":10019,"rao4Ġ":10020,"qian2Ġting3":10021,"Ġ1995Ġnian2Ġ":10022,"Ġ1993Ġnian2Ġ":10023,"zhong1ĠdeĠyi1Ġ":10024,"jia3Ġji2Ġ":10025,"pin2Ġdao4":10026,"bei3Ġbu4ĠdeĠ":10027,"jie1Ġxia4Ġ":10028,"Ġxue2Ġshu4Ġ":10029,"zhen4Ġrong2Ġ":10030,"bing4Ġru4Ġ":10031,"zhu3Ġyao4Ġshi4Ġ":10032,"Ġyou3Ġxian4Ġgong1Ġsi1":10033,"qi2Ġzhong1Ġyi1Ġ":10034,"ge1Ġlun2Ġbi3Ġya4Ġ":10035,"su1Ġwei2Ġai1":10036,"Ġliang2":10037,"qu3ĠdeĠ":10038,"geng4Ġshi4Ġ":10039,"Ġshi2Ġer4Ġnian2Ġ":10040,"ji1Ġguan1Ġ":10041,"kai1Ġtong1":10042,"zhi2Ġbang4":10043,"si4Ġhu1":10044,"tai4Ġshou3Ġ":10045,"ge1Ġge1Ġ":10046,"dian4Ġshi4Ġdong4Ġhua4Ġ":10047,"Ġzui4Ġzao3":10048,"Ġchu2Ġci3Ġzhi1Ġwai4Ġ":10049,"jie4Ġquan2Ġguo2Ġzheng4Ġxie2Ġ":10050,"bao4Ġfa1Ġhou4Ġ":10051,"shu4Ġjia1Ġ":10052,"pian4Ġzhong1Ġ":10053,"Ġzai4Ġxiang1Ġgang3Ġ":10054,"Ġshi2Ġyi1Ġnian2Ġ":10055,"Ġji2Ġwei2Ġ":10056,"Ġyi3Ġbian4Ġ":10057,"tong1Ġwang3Ġ":10058,"wu3Ġhan4Ġ":10059,"Ġë":10060,"yuan2Ġbu4Ġ":10061,"che1Ġxing2Ġ":10062,"fen4ĠdeĠ":10063,"1919Ġnian2Ġ":10064,"Ġzhong1Ġxin1ĠdeĠ":10065,"Ġda4Ġxiao3Ġ":10066,"ge2Ġla1Ġsi1Ġ":10067,"Ġyu4Ġji4Ġ":10068,"OR":10069,"hn":10070,"Ġhei1":10071,"wan4Ġli4Ġ":10072,"hu1Ġxi1Ġ":10073,"Ġda4Ġli3Ġ":10074,"ju4Ġli2":10075,"fa3Ġlan2Ġke4Ġ":10076,"lian2Ġluo4Ġ":10077,"ĠdeĠdi4Ġsan1Ġ":10078,"hen3Ġda4ĠdeĠ":10079,"mao2Ġdun4Ġ":10080,"DNA":10081,"Ġfan2":10082,"ji4Ġzhi4Ġ":10083,"jie1Ġshi4Ġ":10084,"jie4Ġshi2Ġ":10085,"ha1Ġli3Ġ":10086,"huo3Ġli4Ġ":10087,"reng2Ġwei4Ġ":10088,"kua4Ġyue4Ġ":10089,"TVĠ":10090,"Ġshi4Ġe2Ġluo2Ġsi1Ġ":10091,"Ġren2Ġbei4Ġ":10092,"yong4Ġhu4":10093,"dong4Ġwu4":10094,"shui3Ġliang4Ġ":10095,"xie2Ġtiao2Ġ":10096,"shou1Ġgou4":10097,"huo3Ġche1Ġzhan4Ġ":10098,"nong2Ġchang3Ġ":10099,"chong1Ġman3Ġ":10100,"xuan1Ġyan2Ġ":10101,"Ġchi4Ġwei3Ġ":10102,"ĠĠĠer4Ġ":10103,"ĠĠĠjian3Ġli4Ġ":10104,"zhan4Ġyou3Ġ":10105,"cheng1Ġshi4Ġ":10106,"gu3Ġxi1Ġla4":10107,"22Ġnian2Ġ":10108,"yi4Ġming2Ġ":10109,"wu4Ġpin3Ġ":10110,"duo1Ġzhong3":10111,"Ġyou2Ġtai4Ġ":10112,"hai3Ġnan2Ġ":10113,"sheng3Ġzhang3Ġ":10114,"huang2Ġjin1Ġ":10115,"chuang4Ġzao4":10116,"Ġxian4Ġshi2Ġyou2Ġ":10117,"ĠĠĠjin3Ġguan3Ġ":10118,"ĠĠĠka3Ġ":10119,"hai3ĠdeĠ":10120,"tu1Ġji1Ġ":10121,"Ġren2Ġyu3Ġ":10122,"Ġji2Ġgong1Ġ":10123,"Ġyi3Ġbu4Ġ":10124,"qu1Ġnei4Ġ":10125,"shou1Ġfei4Ġ":10126,"qi1Ġzhi4Ġ":10127,"jun4ĠdeĠ":10128,"sisĠ":10129,"Ġdao4Ġda2":10130,"Ġde2Ġdao4":10131,"Ġzhe4Ġzuo4Ġ":10132,"ni2Ġsu1Ġ":10133,"mei3Ġxiao3Ġshi2Ġ":10134,"Ġjing1Ġchang2Ġ":10135,"zhou1Ġbian1":10136,"Ġjian4Ġzhu4Ġwu4Ġ":10137,"ght":10138,"Ġke1Ġxue2Ġ":10139,"xin1Ġjian4Ġ":10140,"zao4Ġxing2Ġ":10141,"Ġde2Ġjun1Ġ":10142,"shen1Ġti3":10143,"shi3Ġyong4Ġzhe3Ġ":10144,"Ġzhe4Ġshi2Ġ":10145,"wang4Ġyuan3Ġjing4Ġ":10146,"spanĠ":10147,"ĠĠĠ2022Ġnian2Ġ":10148,"ceng2Ġbei4Ġ":10149,"xu4ĠdeĠ":10150,"1922Ġnian2Ġ":10151,"Ġda4Ġban3Ġ":10152,"Ġchu1Ġchang3Ġ":10153,"long2Ġsheng3Ġ":10154,"xiu1Ġding4Ġ":10155,"je":10156,"ĠĠĠjing1Ġli4Ġ":10157,"liu4Ġming2Ġ":10158,"Ġdi4Ġyi1Ġwei4Ġ":10159,"Ġji2Ġhui4Ġ":10160,"Ġji2Ġqi2Ġta1Ġ":10161,"ju3Ġzhen4Ġ":10162,"zhong1Ġguo2Ġda4Ġlu4Ġ":10163,"ĠEĠ":10164,"luan3Ġ":10165,"fa4Ġ":10166,"Ġguo2Ġyou3Ġ":10167,"Ġchu1Ġxi2":10168,"xi4Ġjie2Ġ":10169,"lian2Ġluo4":10170,"Ġsheng1Ġtai4Ġ":10171,"mei3Ġtian1Ġ":10172,"jiang3Ġjin1Ġ":10173,"nuo4Ġfu1Ġ":10174,"Ġguan1Ġzhuang4Ġbing4Ġdu2":10175,"8Ġmi3Ġ":10176,"Ġ2001":10177,"Ġpu2Ġtao2Ġya2":10178,"na4Ġer3Ġ":10179,"11Ġnian2Ġ":10180,"ĠdeĠgao1Ġ":10181,"Ġren2Ġzhi4Ġ":10182,"Ġcheng2Ġyi1Ġ":10183,"Ġdui4Ġxiang4Ġ":10184,"shou4Ġhuan1Ġying2Ġ":10185,"gui1Ġding4":10186,"cai2Ġpan4Ġ":10187,"can1Ġyi4Ġyuan4Ġ":10188,"Ġli4Ġfa3Ġhui4Ġ":10189,"Ġlun2Ġ":10190,"ya4Ġhe2Ġ":10191,"chong2Ġjian4":10192,"pu1Ġ":10193,"tyĠ":10194,"Ġzai4Ġfa3Ġguo2Ġ":10195,"Ġqi2ĠB":10196,"tuo1Ġli2Ġ":10197,"xuan1Ġcheng1Ġ":10198,"ĠĠĠlin2Ġ":10199,"book":10200,"sheng4Ġdan4Ġ":10201,"ba3Ġta1Ġ":10202,"68Ġnian2Ġ":10203,"Ġshi2Ġren4":10204,"yan2Ġfa1Ġ":10205,"jiao4Ġgao1Ġ":10206,"zhi3Ġshu4Ġ":10207,"Ġren4Ġming4Ġ":10208,"pai2Ġlie4Ġ":10209,"Ġxi4Ġbao1Ġ":10210,"biao3Ġxian4Ġchu1Ġ":10211,"Ġji2Ġxing2Ġzheng4Ġdan1Ġwei4Ġ":10212,"Ġao4Ġda4Ġli4Ġya4Ġ":10213,"ma4":10214,"fang1Ġxing2Ġ":10215,"ze2Ġbei4Ġ":10216,"zhuang1Ġwei4Ġ":10217,"1911Ġnian2Ġ":10218,"Ġshi2Ġsan1Ġ":10219,"Ġyu2Ġ2019":10220,"Ġer2Ġhou4Ġ":10221,"zhu3Ġdong4Ġ":10222,"bi4Ġyao4Ġ":10223,"Ġyin2Ġwei3Ġ":10224,"0Ġzuo4Ġbiao1Ġwei4Ġ":10225,"2Ġli4Ġ":10226,"ĠJa":10227,"xing2ĠdeĠ":10228,"ziĠshi4Ġ":10229,"fei1Ġdan4Ġ":10230,"zhen1Ġren2Ġ":10231,"wei2Ġyi1ĠdeĠ":10232,"bei4Ġer3Ġ":10233,"Ġdan4Ġshi4Ġzai4Ġ":10234,"Ġdan4Ġzui4Ġzhong1Ġ":10235,"jiao1Ġgei3Ġ":10236,"xun4Ġsu4":10237,"huo3Ġche1Ġ":10238,"ren2Ġmin2Ġzheng4Ġfu3Ġ":10239,"Ġhu2Ġbei3Ġ":10240,"Ġwei4Ġyu2Ġyin2Ġjing1Ġ":10241,"Ġqi2ĠB1900":10242,"0Ġzuo4Ġbiao1Ġwei4Ġchi4Ġjing1Ġ":10243,"ĠĠĠ11Ġyue4Ġ":10244,"jiang1Ġjun1":10245,"lian2Ġjun1Ġ":10246,"la1Ġwei2Ġ":10247,"bo2Ġer3Ġ":10248,"lun2ĠdeĠ":10249,"ï¼İ":10250,"Ġzhong1Ġhua2":10251,"ji1Ġdu1Ġ":10252,"Ġxing2Ġtai4Ġ":10253,"geng4Ġda4ĠdeĠ":10254,"tu3Ġrang3":10255,"Ġjian4Ġzhu4Ġmian4Ġji1Ġ":10256,"kong4Ġzhi4ĠdeĠ":10257,"gong4Ġhe2Ġdang3Ġ":10258,"Ġwu1Ġke4Ġlan2":10259,"ĠĠĠsan1Ġ":10260,"ming2Ġhe2Ġ":10261,"hua4Ġyu3Ġ":10262,"suo3Ġyi3Ġ":10263,"jiao1Ġzhan4Ġ":10264,"peĠ":10265,"1926Ġnian2Ġ":10266,"Ġsi1Ġzhi2Ġ":10267,"guan1Ġxi4ĠdeĠ":10268,"xiao1Ġfang2Ġ":10269,"Ġqing1Ġchao2Ġzheng4Ġzhi4Ġren2Ġwu4Ġ":10270,"KB":10271,"Ġhuan2":10272,"ĠĠĠ6":10273,"ĠĠĠshang4Ġ":10274,"ĠĠĠfen1Ġbu4Ġ":10275,"xiang4Ġyu2Ġ":10276,"si3ĠleĠ":10277,"raĠ":10278,"you2Ġxi4ĠdeĠ":10279,"xiao4Ġlv4Ġ":10280,"ou1Ġmeng2Ġ":10281,"bian1Ġzhi4Ġ":10282,"sha1Ġren2Ġ":10283,"seĠĠĠ":10284,"zhong1Ġhua2Ġmin2Ġguo2Ġ":10285,"Ġji2Ġti3Ġ":10286,"Ġze2Ġshi4Ġ":10287,"ĠĠĠche1Ġzhan4Ġgou4Ġzao4Ġ":10288,"luo4Ġfa2Ġke4Ġ":10289,"Ġou1":10290,"Ġ1985Ġnian2Ġ":10291,"ĠĠĠping2Ġ":10292,"lun4Ġshi4Ġ":10293,"xie3Ġwei4Ġ":10294,"elĠ":10295,"75Ġnian2Ġ":10296,"Ġshi2Ġba1Ġ":10297,"Ġyu2Ġtong2":10298,"Ġda4Ġjie1Ġ":10299,"jin1Ġshu3":10300,"Ġju4Ġqing2Ġ":10301,"zu2Ġqun2Ġ":10302,"Ġmu3Ġqin1":10303,"jie3Ġfang4Ġjun1":10304,"ĠDa":10305,"ĠĠĠchu2Ġ":10306,"dao3Ġhe2Ġ":10307,"man4ĠdeĠ":10308,"kang4Ġzhan4Ġ":10309,"dong3Ġ":10310,"weng1Ġ":10311,"Ġji2Ġcheng2Ġ":10312,"ji1Ġche1Ġ":10313,"yi2Ġban4Ġ":10314,"xu3Ġke3Ġ":10315,"ai4Ġer3Ġlan2":10316,"la2":10317,"Ġzheng3Ġge4Ġ":10318,"da1Ġzai4Ġ":10319,"zhu3Ġquan2Ġ":10320,"Ġqiu2Ġdui4":10321,"cai3Ġyong4ĠleĠ":10322,"4Ġmi3Ġ":10323,"zhi2Ġxing2":10324,"nei4Ġsi1Ġ":10325,"wo3ĠdeĠ":10326,"zhi3Ġding4":10327,"jin3Ġzhang1Ġ":10328,"jia4Ġgou4Ġ":10329,"zhen1Ġzheng4ĠdeĠ":10330,"Ġda4Ġbu4Ġfen4Ġ":10331,"shun4Ġshi2Ġzhen1Ġyu3Ġ":10332,"Ġwei3":10333,"Ġ160":10334,"qin3":10335,"ba1Ġsi1Ġ":10336,"can1Ġjian4Ġ":10337,"kan4Ġfa3Ġ":10338,"wen1Ġdai4Ġ":10339,"hun1Ġyin1":10340,"64Ġnian2Ġ":10341,"tie1Ġmu4":10342,"1918Ġnian2Ġ":10343,"Ġyi1Ġshi2Ġ":10344,"Ġyi3Ġdong1Ġ":10345,"Ġxian4Ġzhang3Ġ":10346,"zi4Ġwo3Ġ":10347,"wu4Ġti3Ġ":10348,"feng1Ġge2ĠdeĠ":10349,"ti2Ġqian2Ġ":10350,"se4Ġcai3Ġ":10351,"lian2Ġmeng2ĠdeĠ":10352,"Ġzao4Ġ":10353,"ĠĠĠY":10354,"ze2Ġyou2Ġ":10355,"pin1Ġ":10356,"Ġshi4Ġtai2Ġwan1Ġ":10357,"Ġda4Ġdui4Ġ":10358,"zhu3Ġda3Ġ":10359,"suo3Ġxu1":10360,"pu3Ġla1Ġ":10361,"ĠĠĠ4Ġ":10362,"ĠĠĠ2009Ġnian2Ġ":10363,"lai2Ġshi4Ġ":10364,"zhen4Ġji2Ġxing2Ġzheng4Ġdan1Ġwei4Ġ":10365,"Ġbu4Ġcheng2Ġ":10366,"fang1Ġbian4Ġ":10367,"Ġyou2Ġzheng4Ġ":10368,"jue2Ġse4ĠdeĠ":10369,"ding4Ġyi4Ġwei4Ġ":10370,"Ġzi4Ġran2":10371,"tu2Ġan4Ġ":10372,"chong2Ġfan3Ġ":10373,"Ġyin3Ġfa1Ġ":10374,"7Ġmi3Ġ":10375,"Ġqu4Ġ":10376,"Ġlie4Ġche1Ġ":10377,"ĠĠĠta1ĠdeĠ":10378,"lin2Ġjin4Ġ":10379,"sheng4ĠdeĠ":10380,"jiang3Ġli4Ġ":10381,"Ġzhi4Ġyuan2Ġ":10382,"sheng1Ġge2Ġwei4Ġ":10383,"Ġjian4Ġkang1":10384,"Ġquan2Ġxian4Ġ":10385,"zui4Ġzhong4Ġyao4ĠdeĠ":10386,"Ġzhe4Ġyang4":10387,"Ġwei1Ġer3Ġ":10388,"Ġsong1Ġ":10389,"Ġkai1Ġfa1Ġ":10390,"an4Ġli4Ġ":10391,"duo1Ġer3Ġ":10392,"28Ġnian2Ġ":10393,"bi2Ġ":10394,"Ġshi4Ġlang2Ġ":10395,"Ġzai4Ġqian2Ġ":10396,"Ġzhong1Ġyi1Ġ":10397,"Ġji2Ġbie2Ġ":10398,"Ġer2Ġtong2":10399,"Ġshang4Ġying4Ġ":10400,"tong2Ġyang4Ġ":10401,"can1Ġguan1Ġ":10402,"Ġzheng4Ġfu3ĠdeĠ":10403,"Ġren2Ġkou3Ġwei4Ġ":10404,"ĠĠĠer2Ġ":10405,"ĠĠĠguo2Ġji4Ġ":10406,"jing3Ġwei4Ġ":10407,"xian1Ġwei2Ġ":10408,"jia4ĠdeĠ":10409,"1914Ġnian2Ġ":10410,"Ġzhong1Ġjiang4Ġ":10411,"Ġyi1Ġliao2":10412,"Ġyin1Ġer2":10413,"jian1Ġchi2Ġ":10414,"zhong3Ġlei4Ġ":10415,"ci4Ġshu4Ġ":10416,"ĠĠĠ7":10417,"ĠĠĠxiao3Ġ":10418,"ĠĠĠgu3Ġ":10419,"xian1ĠdeĠ":10420,"90Ġ":10421,"mai2Ġ":10422,"yi4Ġhui4Ġ":10423,"Ġyu2Ġ2016":10424,"Ġzhou1Ġzhang3Ġ":10425,"wang3Ġwang3":10426,"jian3Ġcha2":10427,"shen3Ġpan4Ġ":10428,"Ġ17Ġ":10429,"hun4Ġning2Ġ":10430,"Ġ58":10431,"shou4Ġdao4ĠleĠ":10432,"qu4ĠleĠ":10433,"65Ġnian2Ġ":10434,"Ġge4Ġguo2Ġjia1Ġ":10435,"Ġyu3Ġxi1Ġ":10436,"dan1Ġdu2Ġ":10437,"bian1Ġzu3Ġ":10438,"Ġtai4Ġguo2Ġ":10439,"Ġguang3Ġxi1Ġ":10440,"shi1Ġji2Ġ":10441,"shen1Ġyu2Ġ":10442,"lun4ĠdeĠ":10443,"xun4Ġxi1Ġ":10444,"esĠĠĠ":10445,"62Ġnian2Ġ":10446,"Ġzhong1Ġduan4Ġ":10447,"Ġda4Ġchen2":10448,"qun2Ġdao3ĠdeĠ":10449,"e4Ġhua4Ġ":10450,"ĠTĠ":10451,"Ġni2":10452,"Ġbin1Ġ":10453,"ming2Ġyu2Ġ":10454,"xing4Ġming2Ġ":10455,"1950Ġnian2Ġ":10456,"Ġyu3Ġwen2Ġ":10457,"zhu4Ġshou3Ġ":10458,"mian4Ġxiang4Ġ":10459,"Ġyou2Ġqi2Ġ":10460,"Ġzhan4Ġhou4Ġ":10461,"ĠSh":10462,"ba1Ġji1Ġsi1Ġ":10463,"Ġshi4Ġcheng2Ġ":10464,"Ġshi4Ġchu1Ġ":10465,"Ġyou3Ġming2Ġ":10466,"Ġdao4Ġshi2Ġ":10467,"Ġyi3Ġci3Ġ":10468,"jiao4Ġlian4":10469,"Ġzhou1Ġfu4Ġze2Ġguan3Ġxia2Ġ":10470,"wai4Ġlang2Ġ":10471,"tian1Ġwen2Ġxue2Ġ":10472,"xiang3Ġyao4Ġ":10473,"jiang3Ġpai2Ġ":10474,"gen1Ġsui2Ġ":10475,"Ġai4Ġer3Ġ":10476,"tiao2Ġyue1Ġti3Ġxi4Ġ":10477,"4Ġming2Ġ":10478,"7Ġge4Ġ":10479,"ven":10480,"Ġ47":10481,"an1Ġxian4Ġ":10482,"ĠĠĠluo2Ġ":10483,"ĠĠĠwang2Ġ":10484,"suo3Ġshi4Ġ":10485,"70Ġ":10486,"Ġzhong1Ġshan1":10487,"hou4Ġqi1Ġ":10488,"guan1Ġkan4Ġ":10489,"jing1Ġyan4":10490,"cheng1Ġhu1Ġ":10491,"pei2Ġxun4":10492,"Ġping2Ġcheng2Ġ":10493,"AL":10494,"ET":10495,"Ġ1988Ġnian2Ġ":10496,"ĠĠĠzuo4Ġwei2Ġ":10497,"ji4Ġbu4Ġ":10498,"wu4Ġbu4Ġ":10499,"ji1Ġhui4Ġ":10500,"zhu3Ġban4Ġ":10501,"fu4Ġmu3Ġ":10502,"jian1Ġcha2":10503,"ge1Ġshou3":10504,"Ġxiang1Ġguan1ĠdeĠ":10505,"su4Ġdu4":10506,"Ġzhi2Ġjie1Ġ":10507,"Ġzong1Ġ":10508,"Ġ1984Ġnian2Ġ":10509,"suan1Ġjian3Ġ":10510,"ĠdeĠxing2Ġ":10511,"fang1Ġan4":10512,"qian2Ġshen1Ġ":10513,"xuan3Ġmin2Ġ":10514,"ke1Ġhui4Ġshi4Ġdi4Ġ":10515,"er4Ġshi2Ġnian2Ġ":10516,"ĠdeĠshi2Ġjian1":10517,"Ġguo2Ġfang2Ġbu4Ġ":10518,"ĠĠĠ2007Ġnian2Ġ":10519,"Ġji1Ġfen1Ġ":10520,"you2Ġju2":10521,"pian4Ġduan4Ġ":10522,"Ġlai2Ġzi4":10523,"nan2Ġji2Ġtiao2Ġyue1Ġti3Ġxi4Ġ":10524,"Ġ600":10525,"ĠĠĠquan2Ġ":10526,"xiang3Ġyou3Ġ":10527,"tang2Ġhe2Ġ":10528,"ting1Ġdao4Ġ":10529,"yin2Ġhe2Ġ":10530,"tu1Ġran2":10531,"can2Ġji2Ġren2Ġ":10532,"Ġbu4Ġlu3Ġ":10533,"Ġren2Ġquan2Ġ":10534,"Ġgong1Ġda3Ġ":10535,"Ġchu1Ġyu2Ġ":10536,"zi4Ġsha1Ġ":10537,"pin3Ġzhong3Ġ":10538,"ji3Ġnei4Ġ":10539,"Ġgai1Ġcun1Ġshi3Ġjian4Ġyu2Ġ":10540,"vo":10541,"Ġ64":10542,"Ġzi1Ġ":10543,"yu2Ġwei4Ġ":10544,"zheng4Ġyi4Ġ":10545,"zhan4Ġwei4Ġyu2Ġ":10546,"zhu4Ġyou3Ġ":10547,"Ġshi4Ġpin2Ġ":10548,"Ġzai4Ġnei4Ġ":10549,"wei2Ġye3Ġ":10550,"dian4Ġchi2Ġ":10551,"duo1Ġshu4":10552,"qing2Ġgan3Ġ":10553,"rong2Ġliang4Ġ":10554,"re4Ġdai4":10555,"Ġzhi2Ġxing2Ġ":10556,"Ġan1Ġhui1Ġ":10557,"Ġxing2Ġcheng2ĠleĠ":10558,"Ġjing4Ġnei4Ġ":10559,"qi2Ġzhong1Ġyi2Ġge4Ġ":10560,"xia4Ġxia2ĠdeĠyi2Ġge4Ġxiang1Ġzhen4Ġji2Ġxing2Ġzheng4Ġdan1Ġwei4Ġ":10561,"Ġlong2":10562,"Ġzu3Ġzhi1Ġ":10563,"ma3Ġshi4Ġ":10564,"zhen4Ġdi4Ġ":10565,"wei2Ġchi2":10566,"zhen4Ġya1Ġ":10567,"Ġfan4":10568,"Ġdi1Ġ":10569,"Ġ1990Ġnian2Ġ":10570,"ĠĠĠjin4":10571,"ĠĠĠPro":10572,"a1Ġsi1Ġ":10573,"mei2Ġtong2Ġpai2Ġ":10574,"ta3Ġji1Ġ":10575,"gong1Ġmin2Ġ":10576,"Ġshi2Ġyou3Ġ":10577,"Ġcheng2Ġgong1ĠdeĠ":10578,"Ġji1Ġben3":10579,"Ġjia1Ġli3Ġ":10580,"Ġke4Ġyu3Ġ":10581,"jiang1Ġnan2Ġ":10582,"fu2Ġzhuang1Ġ":10583,"su4Ġsong4Ġ":10584,"kao3Ġcha2Ġ":10585,"pi1Ġpan4Ġ":10586,"ĠFĠ":10587,"Ġsi1Ġling4Ġyuan2Ġ":10588,"Ġkai1Ġshi3":10589,"liang3Ġzuo4Ġ":10590,"nong2Ġli4Ġ":10591,"Ġzai4Ġna4Ġ":10592,"Ġyi4Ġxi2Ġ":10593,"Ġri4Ġyi3Ġ":10594,"Ġyi1Ġlai4":10595,"Ġjian4Ġdao4Ġ":10596,"Ġhou4Ġzhe3":10597,"Ġde2Ġluo2Ġ":10598,"hua4Ġgui1Ġ":10599,"jiao4Ġda4ĠdeĠ":10600,"wen2Ġzhang1":10601,"Ġwei2Ġwu2Ġer3Ġ":10602,"Ġzuo4Ġzhe3Ġ":10603,"qi3Ġyuan2Ġyu2Ġ":10604,"bo1Ġte4Ġ":10605,"1Ġmi3Ġ":10606,"Ġshu4":10607,"yong4Ġzai4Ġ":10608,"Ġzai4Ġcheng2Ġ":10609,"Ġyue4Ġyu3Ġ":10610,"tian1Ġwen2Ġtai2Ġ":10611,"Ġmao2":10612,"ĠĠĠsui1Ġran2":10613,"te4Ġshi4Ġ":10614,"you4Ġyi4Ġ":10615,"fang2Ġxian4Ġ":10616,"1990Ġnian2Ġdai4Ġ":10617,"kuang1Ġjia4Ġ":10618,"Ġxi1Ġte4Ġ":10619,"Ġbing4Ġbu2Ġshi4Ġ":10620,"qing1Ġxiang4Ġ":10621,"Ġxia4Ġlai2Ġ":10622,"jie3Ġsan4":10623,"mo4Ġqi1Ġ":10624,"shou1Ġcang2Ġ":10625,"Ġnian2Ġ4Ġyue4Ġ1Ġri4Ġ":10626,"yin4Ġni2":10627,"xiao3Ġxing2Ġxing1ĠdeĠ":10628,"nan2Ġji2Ġtiao2Ġyue1Ġti3Ġxi4Ġguan3Ġli3Ġ":10629,"Ġxian3Ġshi4Ġ":10630,"ĠĠĠzhi2Ġye4Ġsheng1Ġya2Ġ":10631,"leĠzhong1Ġguo2Ġ":10632,"wei2Ġgong1Ġ":10633,"bian1Ġxing2Ġ":10634,"ci2Ġji1Ġ":10635,"shi2Ġyi1Ġ":10636,"Ġshi2Ġti3Ġ":10637,"Ġda4Ġqi4Ġ":10638,"hui4Ġshang4Ġ":10639,"fa3Ġlan2Ġxi1Ġ":10640,"fen1Ġli2":10641,"shao4Ġnv3":10642,"UN":10643,"Ġ1989Ġnian2Ġ":10644,"ke1Ġli4Ġ":10645,"sheng3Ġfu4Ġze2Ġguan3Ġxia2Ġ":10646,"luo4Ġyi1Ġ":10647,"hu4Ġwei4Ġ":10648,"lei3Ġji1Ġ":10649,"idĠ":10650,"san3Ġ":10651,"Ġdi4Ġyu4Ġ":10652,"wei2Ġchi2Ġ":10653,"qian2Ġlai2Ġ":10654,"shang1Ġhai4Ġ":10655,"tiao2Ġjie2Ġ":10656,"yi2Ġge4Ġyue4Ġ":10657,"Ġjie2Ġhun1Ġ":10658,"dang1Ġxuan3Ġwei4Ġ":10659,"Ġlian2Ġbang1":10660,"Ġji2Ġbei3Ġmei3Ġ":10661,"gen3Ġdi4Ġ":10662,"Ġ1945":10663,"ĠĠĠi":10664,"ri4Ġjun1Ġ":10665,"mie4Ġjue2Ġ":10666,"shan3Ġ":10667,"ĠdeĠzhi1Ġchi2Ġ":10668,"Ġshi4Ġzhi4Ġ":10669,"Ġcheng2Ġfen4Ġ":10670,"Ġzhi1Ġli3Ġ":10671,"Ġyuan2Ġyin1Ġshi4Ġ":10672,"xi1Ġwang4":10673,"Ġdan4Ġye3Ġ":10674,"Ġfu4Ġzhu3Ġxi2Ġ":10675,"zhong4Ġliang4Ġ":10676,"lei2Ġda2Ġ":10677,"Ġshi4Ġjie4Ġbei1":10678,"chi3Ġcun4":10679,"Ġjie1Ġshou4Ġ":10680,"wei2Ġyi1Ġyi1Ġ":10681,"IV":10682,"Ġcao2Ġ":10683,"ai4Ġhao4Ġ":10684,"ĠĠĠwai4Ġbu4Ġ":10685,"zui4Ġyou3Ġ":10686,"mo4Ġnian2Ġ":10687,"jian3Ġyi4Ġ":10688,"sa4Ġke4Ġsi1Ġ":10689,"ther":10690,"37Ġnian2Ġ":10691,"jiao4Ġzong1Ġ":10692,"Ġzheng4Ġce4":10693,"yan3Ġhua4Ġ":10694,"tong2Ġmeng2":10695,"ting2Ġzhi3":10696,"ĠJĠ":10697,"Ġhui1Ġ":10698,"fei1Ġer3Ġde2Ġ":10699,"pen2Ġdi4Ġ":10700,"Ġwei4Ġji2Ġ":10701,"Ġxi1Ġzang4Ġ":10702,"Ġke4Ġzai4Ġ":10703,"xia4Ġling4Ġ":10704,"fa3Ġxue2Ġ":10705,"sha1Ġbai2Ġ":10706,"jiu3Ġlong2":10707,"Ġnian2Ġdai4ĠdeĠ":10708,"Ġ800":10709,"jian4Ġshe4":10710,"si4Ġwei4Ġ":10711,"shui3Ġdao4Ġ":10712,"mentĠ":10713,"ĠdeĠqing2Ġkuang4Ġxia4Ġ":10714,"Ġdi4Ġ3Ġ":10715,"Ġyu2Ġ2018":10716,"Ġcheng2Ġjiu4Ġ":10717,"Ġyi1Ġshi1Ġ":10718,"Ġge4Ġlei4Ġ":10719,"Ġren2Ġmin2Ġzheng4Ġfu3":10720,"ĠĠĠzhong1Ġhua2Ġren2Ġmin2Ġgong4Ġhe2Ġguo2Ġ":10721,"Ġhua2Ġsheng4Ġ":10722,"can1Ġsai4Ġzi1Ġge2Ġ":10723,"shan1Ġmai4ĠdeĠyi1Ġbu4Ġfen4Ġ":10724,"Ġjie1Ġwei4Ġ":10725,"Ġlei3Ġji4Ġ":10726,"sui2Ġji1Ġ":10727,"ren2Ġkou3Ġwei4Ġ":10728,"ji4Ġhua4":10729,"Ġyi1Ġci4":10730,"Ġyuan2Ġli3Ġ":10731,"Ġxian4Ġxing4Ġ":10732,"qu1Ġbie2Ġ":10733,"tong1Ġyong4Ġ":10734,"shou4Ġsun3Ġ":10735,"tou2Ġxiang2":10736,"Ġzhu3Ġzhang1Ġ":10737,"hui2Ġda2Ġ":10738,"zheng4Ġzhi4Ġjia1Ġ":10739,"Ġ19Ġ":10740,"re4Ġdai4Ġqi4Ġxuan2Ġ":10741,"Ġge4Ġyue4Ġhou4Ġ":10742,"ĠSa":10743,"Ġdu2Ġli4Ġ":10744,"Ġchao1Ġ":10745,"Ġ1991Ġnian2Ġ":10746,"ĠĠĠjie2Ġ":10747,"hui4Ġwei4Ġ":10748,"hai3Ġshi4Ġ":10749,"xin4Ġren4Ġ":10750,"Ġzai4Ġshang4Ġ":10751,"Ġguo2Ġan1Ġ":10752,"qian2Ġfeng1Ġ":10753,"jian3Ġce4Ġ":10754,"dian4Ġshi4Ġjie2Ġmu4Ġ":10755,"ĠdeĠgong1Ġneng2Ġ":10756,"ĠĠĠEn":10757,"Ġguan3Ġli3Ġ":10758,"Ġchao1Ġguo4Ġ":10759,"jue2Ġwei4Ġ":10760,"24Ġnian2Ġ":10761,"1960Ġnian2Ġdai4Ġ":10762,"Ġdi4Ġchan3Ġ":10763,"Ġyi1Ġran2":10764,"suo3Ġwei4ĠdeĠ":10765,"hai3Ġba2Ġgao1Ġdu4Ġ":10766,"tang2Ġqu1Ġ":10767,"tiao2Ġkuan3Ġ":10768,"yin1Ġci3Ġ":10769,"Ġtong2Ġxing4Ġ":10770,"Ġ18Ġ":10771,"ĠdeĠji4Ġshu4Ġ":10772,"wen3Ġding4ĠdeĠ":10773,"xi1Ġyu2Ġ":10774,"jie2Ġchu1Ġ":10775,"bing1ĠdeĠ":10776,"Ġta1Ġyou3Ġ":10777,"guan1Ġlian2Ġ":10778,"Ġzhou1Ġkan1Ġ":10779,"bao3Ġxian3Ġ":10780,"Ġhuo4Ġcheng1Ġ":10781,"du1Ġcha2Ġ":10782,"Ġjian3Ġcheng1":10783,"fa1Ġbiao3ĠdeĠ":10784,"hu4Ġlian2Ġwang3Ġ":10785,"ĠLa":10786,"ĠĠĠ2006Ġnian2Ġ":10787,"yu3Ġyi4Ġ":10788,"xiang4Ġwei4Ġ":10789,"ceng2Ġren4Ġ":10790,"gai3Ġjin4Ġ":10791,"Ġhe2Ġyi4Ġ":10792,"Ġdui4Ġfang1Ġ":10793,"Ġquan2Ġshi4Ġ":10794,"ci2Ġdian3Ġ":10795,"ya4Ġmei3Ġni2Ġya4Ġ":10796,"Ġsang1":10797,"nan2Ġshi4Ġ":10798,"ceng2Ġyou3Ġ":10799,"zeng1Ġshe4Ġ":10800,"tui1Ġli3Ġ":10801,"zuan1Ġ":10802,"Ġzheng4Ġchang2Ġ":10803,"dao3Ġshi1Ġ":10804,"pu3Ġlu3Ġshi4Ġ":10805,"Ġdian4ĠziĠ":10806,"tui1Ġchu1ĠleĠ":10807,"xiu1Ġdao4Ġyuan4Ġ":10808,"Ġrong2":10809,"Ġwa3":10810,"Ġzhui1Ġ":10811,"ĠĠĠhuo4Ġ":10812,"lu4Ġshi4Ġ":10813,"bei3Ġji2Ġ":10814,"liu2Ġqiu2Ġ":10815,"qu3Ġzi4Ġ":10816,"yin3Ġjin4Ġ":10817,"Ġhe2Ġyuan2Ġ":10818,"Ġli4Ġao4Ġ":10819,"Ġyu3Ġqi2":10820,"ĠdeĠshi4Ġjie4":10821,"Ġdong4Ġhua4Ġ":10822,"Ġkang1":10823,"ĠĠĠmin2Ġguo2Ġ":10824,"hun1Ġli3Ġ":10825,"Ġyu2Ġ2020":10826,"Ġyu2Ġ2024":10827,"Ġcheng2Ġzuo4Ġ":10828,"su1Ġge2Ġlan2":10829,"Ġci3Ġci4Ġ":10830,"OM":10831,"Ġ65":10832,"Ġzu3Ġcheng2Ġ":10833,"Ġbang1Ġzhu4Ġ":10834,"Ġqiao2Ġzhi4Ġ":10835,"dui4Ġzhong1Ġ":10836,"andĠ":10837,"67Ġnian2Ġ":10838,"Ġdi4Ġjiu3Ġ":10839,"Ġta1Ġbu4Ġ":10840,"Ġxing2Ġchai2":10841,"Ġxing2Ġshi4ĠdeĠ":10842,"zheng4Ġce4":10843,"dai4Ġma3Ġ":10844,"ĠleĠyi2Ġge4Ġ":10845,"Ġxiang1Ġguan1":10846,"Ġxi4Ġlie4":10847,"Ġxing2Ġzheng4Ġyuan4Ġ":10848,"Ġyou4Ġyi4Ġ":10849,"mei3ĠdeĠ":10850,"bao3Ġhe2Ġ":10851,"chuan2ĠdeĠ":10852,"ting2Ġzhan4Ġ":10853,"na2Ġda4":10854,"38Ġnian2Ġ":10855,"dou3Ġ":10856,"Ġcheng2Ġdu1Ġ":10857,"ji1Ġbai4Ġ":10858,"Ġyu3Ġzhi1Ġ":10859,"Ġdai4Ġma3Ġwei4Ġ":10860,"liu2Ġdong4Ġ":10861,"liang2Ġhao3Ġ":10862,"li4Ġshi3Ġshang4Ġ":10863,"Ġpang1":10864,"Ġxian4Ġshi2Ġyou2Ġnan2Ġji2Ġtiao2Ġyue1Ġti3Ġxi4Ġguan3Ġli3Ġ":10865,"Ġsheng3Ġ":10866,"Ġbiao1Ġ":10867,"Ġtan2Ġ":10868,"ĠĠĠche1Ġzhan4":10869,"ping2Ġren2Ġ":10870,"bai2Ġren2Ġ":10871,"ding3Ġji2Ġ":10872,"zu1Ġjie4":10873,"edĠĠĠ":10874,"Ġyu2Ġ2015":10875,"Ġzhi4Ġdu4":10876,"Ġchu1Ġlai2ĠdeĠ":10877,"te4Ġshu1":10878,"mian4Ġ2":10879,"Ġduo1Ġci4Ġ":10880,"Ġgong4Ġtong2Ġ":10881,"ĠĠĠzhang1Ġ":10882,"jie2Ġshi2Ġ":10883,"ye4Ġhe2Ġ":10884,"luo4Ġyu2Ġ":10885,"Ġdi4Ġshang4Ġ":10886,"Ġgong1Ġchang3":10887,"lu4Ġying3Ġdai4Ġ":10888,"Ġben3Ġzhan4Ġ":10889,"Ġben3Ġtu3Ġ":10890,"shen2Ġsheng4Ġ":10891,"chong2Ġqing4Ġ":10892,"Ġtian1Ġwen2Ġ":10893,"Ġyan2Ġjiu1":10894,"ĠUĠ":10895,"ĠĠĠwu3Ġ":10896,"jiang3Ġxue2Ġ":10897,"pian4Ġren2Ġ":10898,"29Ġ":10899,"45Ġ":10900,"ardĠ":10901,"ĠdeĠyou3Ġ":10902,"Ġyu2Ġlei2Ġ":10903,"da4Ġxing2Ġ":10904,"ye4Ġjian1Ġ":10905,"ti2Ġgao1":10906,"liang3Ġan4Ġ":10907,"yi3Ġjing1":10908,"Ġzai4Ġdi4Ġyi1Ġ":10909,"guan1Ġfei4Ġyan2Ġque4Ġzhen3Ġbing4Ġli4Ġ":10910,"ĠĠĠsha1Ġ":10911,"ĠĠĠyin1Ġyue4Ġ":10912,"bei3ĠdeĠ":10913,"jiao1Ġyou2Ġ":10914,"man4Ġdi4Ġguo2Ġ":10915,"zheng3Ġli3Ġ":10916,"Ġyu2Ġ2013":10917,"Ġyou3Ġguan1ĠdeĠ":10918,"ji4Ġshu4":10919,"Ġgong1Ġan1Ġ":10920,"zhuang4Ġtai4":10921,"Ġzhi2Ġli4Ġ":10922,"pei2Ġyang3":10923,"ĠĠĠzhe4Ġke1Ġ":10924,"ri4Ġzhi4Ġ":10925,"tong2Ġwei4Ġ":10926,"hui2Ġdao4":10927,"manĠ":10928,"Ġren2Ġli4Ġ":10929,"Ġyi1Ġran2Ġ":10930,"Ġchu1Ġnian2Ġ":10931,"nei4Ġge2":10932,"dan1Ġmai4Ġ":10933,"jing3Ġdian3Ġ":10934,"Ġyou2Ġqi2":10935,"Ġdeng3Ġdeng3Ġ":10936,"Ġti3Ġyu4Ġ":10937,"âĪĴ":10938,"Ġlao3":10939,"min2Ġyi4Ġ":10940,"zhui1Ġqiu2Ġ":10941,"ĠdeĠxing2Ġshi4Ġ":10942,"Ġshi4Ġchang3":10943,"ren2Ġyuan2Ġ":10944,"Ġyu2Ġ2012":10945,"Ġguo2Ġdao4Ġ":10946,"Ġxing2Ġhao4Ġ":10947,"hua4Ġmian4Ġ":10948,"chuan2Ġshuo1":10949,"Ġnan2Ġxing4Ġ":10950,"jiu4Ġzhi3Ġ":10951,"jing3Ġqu1Ġ":10952,"fang2Ġwu1":10953,"ĠdeĠji1Ġchu3":10954,"YĠ":10955,"lin2Ġzhong1Ġ":10956,"sheng3Ġhui4Ġ":10957,"tong1Ġxing2Ġ":10958,"le4Ġyuan2Ġ":10959,"Ġshi4Ġxia4Ġxia2ĠdeĠyi2Ġge4Ġxiang1Ġzhen4Ġji2Ġxing2Ġzheng4Ġdan1Ġwei4Ġ":10960,"Ġyi3Ġbian4":10961,"fa1Ġjue2Ġ":10962,"ru4Ġjing4Ġ":10963,"yan3Ġzou4Ġ":10964,"she4Ġying3Ġ":10965,"zhuan1Ġyong4Ġ":10966,"Ġhai3Ġba2":10967,"gui4Ġzu2":10968,"ĠÐ¾":10969,"zen3Ġ":10970,"Ġchi2Ġ":10971,"ai4Ġli4Ġ":10972,"ĠĠĠfen1Ġlei4Ġ":10973,"ji2Ġzhong1Ġxue2Ġ":10974,"ze2Ġxi1Ġ":10975,"ba1Ġli3Ġ":10976,"luo4Ġshi2Ġ":10977,"jiang4Ġji2Ġ":10978,"gong1Ġji1Ġ":10979,"Ġji4Ġhua4ĠdeĠ":10980,"zhu3Ġdao3Ġ":10981,"guan1Ġguang1Ġ":10982,"bo2Ġla1Ġ":10983,"sof":10984,"Ġshu1":10985,"ĠsĠ":10986,"enterĠ":10987,"xiang4Ġji1Ġ":10988,"zong3Ġsi1Ġling4Ġ":10989,"you4Ġzai4Ġ":10990,"xie1Ġer3Ġ":10991,"ban3Ġquan2Ġ":10992,"ĠdeĠzui4Ġ":10993,"nan2Ġbu4ĠdeĠ":10994,"Ġbei4Ġbu3Ġ":10995,"lian2Ġsai4ĠdeĠ":10996,"Ġqi2Ġxia4ĠdeĠ":10997,"ti3Ġyan4Ġ":10998,"yi2Ġmian4Ġ":10999,"Ġdan4Ġmei2Ġyou3Ġ":11000,"lun4Ġtan2Ġ":11001,"zhen1Ġcha2Ġ":11002,"Ġsan1Ġyue4Ġ":11003,"tong3Ġzhi4Ġzhe3Ġ":11004,"fan2Ġmang2":11005,"Ġhei1Ġlong2Ġjiang1Ġ":11006,"Ġzhuan1":11007,"Ġyi4Ġnian2Ġ":11008,"ku4Ġer3Ġ":11009,"Ġyi3Ġji2Ġzai4Ġ":11010,"zhu3Ġliu2Ġ":11011,"dong1Ġqu1Ġ":11012,"Ġxia4Ġwu3Ġ":11013,"tong2Ġmeng2Ġ":11014,"ĠHĠ":11015,"mu2":11016,"Ġ1999":11017,"qian1Ġming2Ġ":11018,"geng4Ġgao1Ġ":11019,"qiu1Ġji4Ġ":11020,"ye2Ġer3Ġ":11021,"endĠ":11022,"Ġhe2Ġzhi4Ġ":11023,"Ġqi2Ġzhi4Ġ":11024,"hua4Ġru4Ġ":11025,"li2Ġba1Ġnen4":11026,"mi4Ġsu1Ġli3Ġ":11027,"Ġ16Ġ":11028,"kang4Ġri4Ġzhan4Ġzheng1Ġ":11029,"Ġhe2Ġdao4Ġquan2Ġzhang3Ġ":11030,"Ġyou3":11031,"ĠĠĠzheng1Ġyi4Ġ":11032,"yu3Ġdi4Ġ":11033,"zuo4Ġzai4Ġ":11034,"te4Ġren2Ġ":11035,"orld":11036,"Ġshi4Ġxin1Ġ":11037,"Ġbu4Ġduan4":11038,"Ġyu2Ġ2014":11039,"Ġyi1Ġer3Ġ":11040,"Ġdao4Ġji2Ġ":11041,"jian1Ġcha2Ġ":11042,"feng1Ġsuo3Ġ":11043,"Ġye3Ġmei2Ġyou3Ġ":11044,"xiang1Ġgang3ĠdeĠ":11045,"dong1Ġbu4Ġshi2Ġqu1Ġ":11046,"1Ġjia1Ġ":11047,"si4Ġren2Ġ":11048,"rong2ĠdeĠ":11049,"tuo1Ġer3Ġ":11050,"ke2Ġ":11051,"gong1Ġye4Ġ":11052,"Ġgong1Ġjiao1Ġ":11053,"Ġcheng2Ġzhang3Ġ":11054,"Ġjun1Ġren2Ġ":11055,"luo4Ġte4Ġ":11056,"Ġma3Ġla1Ġ":11057,"Ġtai4Ġyang2Ġgong1Ġ":11058,"clu":11059,"ĠĠĠÐ":11060,"ke4Ġli3Ġsi1Ġ":11061,"yun4Ġzai4Ġ":11062,"guang3Ġyi4Ġ":11063,"xuan1Ġshi4Ġ":11064,"di4Ġguo2Ġ":11065,"Ġxi1Ġyin3":11066,"dian4Ġtai2":11067,"bei3Ġhai3Ġdao4Ġ":11068,"Ġsui2Ġji2Ġ":11069,"la1Ġsi1Ġjia1Ġ":11070,"Ġ59":11071,"ĠMe":11072,"Ġqu3Ġde2Ġ":11073,"Ġhao2Ġ":11074,"Ġhou4Ġyu2Ġ":11075,"duo1Ġsi1Ġ":11076,"ze2Ġyi3Ġ":11077,"fei1ĠdeĠ":11078,"zhuang1ĠdeĠ":11079,"wan1Ġqu1Ġ":11080,"liu4Ġshi4Ġ":11081,"niu2Ġsi1Ġ":11082,"Ġyi1Ġqie4":11083,"Ġda4Ġlian2Ġmeng2Ġ":11084,"jiao4Ġdi1Ġ":11085,"yun4Ġying2":11086,"bao1Ġkuo4Ġyi3Ġxia4Ġ":11087,"gong1Ġyuan2Ġqian2Ġ":11088,"zhui1Ġsu4Ġdao4Ġ":11089,"Ġ49":11090,"Ġming2Ġwei4Ġ":11091,"ĠĠĠ9":11092,"ĠĠĠe":11093,"ĠĠĠwu2Ġ":11094,"a1Ġbu4Ġ":11095,"sheng1Ġhe2Ġ":11096,"fu4Ġyu2Ġ":11097,"yuan3ĠdeĠ":11098,"chun1Ġji4Ġ":11099,"lv4Ġhua4Ġ":11100,"xi2Ġji1":11101,"Ġdang1Ġdi4ĠdeĠ":11102,"Ġnei4Ġrong2Ġ":11103,"guo2Ġwu4Ġyuan4Ġ":11104,"ai1Ġna4Ġsheng3Ġ":11105,"ĠĠĠdao4":11106,"ĠĠĠLi":11107,"yu3Ġzhong1Ġguo2Ġ":11108,"te4Ġgong1Ġ":11109,"liang4Ġji2Ġ":11110,"dang3Ġzai4Ġ":11111,"atĠ":11112,"ĠdeĠhou4Ġ":11113,"ben3Ġke1Ġ":11114,"dong1Ġce4Ġ":11115,"shang1Ġwu4Ġ":11116,"dou1Ġmei2Ġyou3Ġ":11117,"zhun3Ġque4Ġ":11118,"ĠESTĠ":11119,"mei4Ġmei4Ġ":11120,"Ġzao3Ġ":11121,"qi1Ġyue4Ġ":11122,"69Ġnian2Ġ":11123,"Ġyou3Ġxu3Ġduo1Ġ":11124,"na4Ġxie1":11125,"guan3Ġxia2":11126,"guan3Ġkong4":11127,"ke3Ġyi3Ġtong1Ġguo4Ġ":11128,"zhong1Ġguo2Ġda4Ġlu4ĠdeĠ":11129,"ĠLĠ":11130,"ĠISTAT":11131,"Ġtian2":11132,"Ġnuo4":11133,"Ġyang3Ġ":11134,"Ġya3Ġ":11135,"hua2ĠdeĠ":11136,"fan3Ġji1Ġ":11137,"Ġyi1Ġqie4Ġ":11138,"ju4Ġfeng1":11139,"nan2Ġmei3Ġzhou1Ġ":11140,"ting2Ġkao4Ġ":11141,"Ġmo4Ġxi1Ġ":11142,"zhong4Ġyi4Ġyuan4Ġ":11143,"Ġshi4Ġyi1Ġke1Ġwei2Ġrao4":11144,"Ġfeng4":11145,"she4Ġji2Ġ":11146,"ren4Ġzhi1Ġ":11147,"sheng3Ġli4Ġ":11148,"Ġzhong1Ġyuan2Ġ":11149,"Ġxi1Ġer3":11150,"guan1Ġzhong4":11151,"guan1Ġzheng4Ġ":11152,"Ġping2Ġjie4Ġ":11153,"feng1Ġfu4ĠdeĠ":11154,"tou2Ġru4":11155,"Ġshi4Ġyi1Ġzuo4":11156,"wu1Ġran3Ġ":11157,"shou1Ġshi4Ġlv4Ġ":11158,"ping1Ġpang1":11159,"jie4Ġquan2Ġguo2Ġzheng4Ġxie2Ġwei3Ġyuan2Ġ":11160,"Ġcao2":11161,"li3Ġshi2Ġ":11162,"chuan2Ġyuan2Ġ":11163,"zhan3Ġchu1Ġ":11164,"ying2Ġli4Ġ":11165,"biao1Ġshi4Ġ":11166,"you1Ġhui4Ġ":11167,"Ġyu2Ġ2022":11168,"ju4Ġben3Ġ":11169,"yu4Ġwei2Ġ":11170,"Ġbing4Ġhuo4Ġde2Ġ":11171,"jie1Ġguan3Ġ":11172,"Ġju4Ġben3Ġ":11173,"shu1Ġniu3Ġ":11174,"heng2Ġxing1":11175,"dan4Ġshui3":11176,"bi3Ġsai4ĠdeĠ":11177,"jue2Ġdui4Ġxing1Ġdeng3Ġwei4Ġ":11178,"ĠLi":11179,"Ġju1Ġ":11180,"ĠĠĠSt":11181,"ĠĠĠguo2Ġ":11182,"li3Ġren2Ġ":11183,"de2Ġyi4Ġzhi4Ġ":11184,"zui4Ġchu1ĠdeĠ":11185,"xin4Ġhao4":11186,"27Ġnian2Ġ":11187,"gou1Ġtong1Ġ":11188,"Ġshi4Ġxia4Ġ":11189,"Ġli4Ġxue2Ġ":11190,"sheng1Ġcheng1Ġ":11191,"ping2Ġheng2Ġ":11192,"Ġbei4Ġjing3":11193,"lian2Ġzai3Ġ":11194,"duo1Ġxiang4Ġ":11195,"da3Ġsuan4":11196,"Ġjing1Ġguo4":11197,"Ġda4Ġzhi4Ġ":11198,"Ġ5Ġdiao4Ġkuai4Ġyi1Ġxiao3Ġshi2Ġ":11199,"ĠEDTĠ":11200,"Ġji2Ġbei3Ġmei3Ġdong1Ġbu4Ġshi2Ġqu1Ġ":11201,"Ġtai4Ġyang2Ġgong1Ġzhuan4ĠdeĠxiao3Ġxing2Ġxing1Ġ":11202,"Ġshi4Ġyi1Ġke1Ġwei2Ġrao4Ġtai4Ġyang2Ġgong1Ġzhuan4ĠdeĠxiao3Ġxing2Ġxing1Ġ":11203,"ĠĠĠwen2Ġhua4Ġ":11204,"ao4Ġke4Ġ":11205,"jian4ĠdeĠ":11206,"han2Ġyi4Ġ":11207,"fa1Ġbiao3ĠleĠ":11208,"xiao3Ġxing2Ġxing1ĠdeĠjue2Ġdui4Ġxing1Ġdeng3Ġwei4Ġ":11209,"cor":11210,"yu1":11211,"ĠĠĠ2005Ġnian2Ġ":11212,"ling3Ġdui4Ġ":11213,"pai1Ġshe4ĠdeĠ":11214,"yuan1Ġ":11215,"Ġhe2Ġyu3Ġ":11216,"Ġzhong1Ġli4Ġ":11217,"Ġgong1Ġshe4Ġ":11218,"Ġzhi1Ġchu1Ġ":11219,"Ġzuo4Ġqu3Ġ":11220,"ru4Ġkou3":11221,"Ġshi4Ġwu4Ġsuo3Ġ":11222,"ssi":11223,"ĠVi":11224,"Ġ1986Ġnian2Ġ":11225,"cha":11226,"ĠĠĠyu4Ġ":11227,"zhi3Ġchu1":11228,"fu2Ġji2Ġ":11229,"inu":11230,"Ġshi4Ġzui4Ġ":11231,"Ġzai4Ġli4Ġ":11232,"Ġxing2Ġxing1Ġ":11233,"Ġdan4Ġbei4Ġ":11234,"zu2Ġlian2Ġ":11235,"wu2Ġxian4Ġdian4Ġ":11236,"sheng1Ġchan3ĠdeĠ":11237,"ĠĠĠzhe4Ġke1Ġxiao3Ġxing2Ġxing1ĠdeĠjue2Ġdui4Ġxing1Ġdeng3Ġwei4Ġ":11238,"Ġzuo3":11239,"Ġ1998":11240,"ĠĠĠhuang2Ġ":11241,"xi1Ġxian4Ġ":11242,"ture":11243,"miao4Ġyu3Ġ":11244,"cebook":11245,"48Ġnian2Ġ":11246,"adĠ":11247,"Ġyi1Ġxiang4Ġ":11248,"shou3Ġxian1Ġ":11249,"Ġtong2Ġnian2Ġ12Ġyue4Ġ":11250,"ĠdeĠyi1Ġxiang4Ġ":11251,"ĠGĠ":11252,"bi3Ġli4Ġniu2Ġsi1Ġ":11253,"ne4Ġsheng3Ġ":11254,"Ġda4Ġsha4Ġ":11255,"Ġcun1Ġ":11256,"ĠĠĠri4Ġ":11257,"yao4Ġzai4Ġ":11258,"zhong3ĠdeĠ":11259,"menĠdeĠ":11260,"34Ġnian2Ġ":11261,"Ġxi1Ġce4Ġ":11262,"ke3Ġyong4Ġ":11263,"Ġxia4Ġling4Ġ":11264,"yan2Ġjiu1ĠdeĠ":11265,"ĠdeĠyi1Ġtiao2Ġ":11266,"tian1Ġwen2Ġxue2Ġjia1Ġ":11267,"zu3Ġcheng2Ġbu4Ġfen4Ġ":11268,"Ġá":11269,"Ġ2024Ġnian2Ġ":11270,"ĠĠĠguan1Ġyu2Ġ":11271,"ĠĠĠzao3Ġqi1Ġ":11272,"lai2Ġer3Ġ":11273,"jiu3Ġshi2Ġ":11274,"lei1Ġsi1Ġ":11275,"lu4Ġduan4Ġ":11276,"dian4Ġliu2Ġ":11277,"Ġfu4Ġmu3Ġ":11278,"zong3Ġling3Ġshi4Ġ":11279,"liang3Ġce4Ġ":11280,"Ġyin1Ġwei4Ġta1Ġ":11281,"hen3Ġshao3Ġ":11282,"liang3Ġda4Ġ":11283,"fou3Ġ":11284,"Ġwei4Ġguo2Ġ":11285,"Ġzai4Ġyou3Ġ":11286,"Ġzai4Ġdang1Ġshi2Ġ":11287,"Ġyuan2Ġlai2Ġ":11288,"xue2Ġke1Ġ":11289,"qu1Ġfu4Ġze2Ġguan3Ġxia2Ġ":11290,"ci3Ġtian1Ġti3Ġ":11291,"tu2Ġjing4Ġ":11292,"sheng4Ġjing1Ġ":11293,"zhuan1Ġji2ĠdeĠ":11294,"ke3Ġneng2ĠdeĠ":11295,"Ġdi4Ġshi2Ġsan1Ġ":11296,"2Ġhao4Ġ":11297,"ge3":11298,"ic":11299,"Ġgei3":11300,"Ġ1983Ġnian2Ġ":11301,"qian2Ġxi1Ġ":11302,"ni2Ġxi1Ġya4":11303,"sheng4Ġyu2Ġ":11304,"cha2Ġde2Ġ":11305,"wei1Ġli4Ġ":11306,"ctĠ":11307,"he2Ġliu2Ġ":11308,"Ġshi2Ġliu4Ġnian2Ġ":11309,"shang4Ġying4ĠdeĠ":11310,"Ġjia1Ġqiang2Ġ":11311,"ju4Ġyuan4Ġ":11312,"qi1Ġjian1ĠdeĠ":11313,"you4Ġcheng1Ġ":11314,"qu3Ġjue2Ġyu2Ġ":11315,"duan3Ġzan4Ġ":11316,"hun4Ġluan4Ġ":11317,"EC":11318,"IR":11319,"ko":11320,"Ġmo":11321,"Ġpiao4Ġ":11322,"man3Ġyi4Ġ":11323,"geng1Ġming2Ġ":11324,"shen1Ġru4Ġ":11325,"Ġzi4Ġci3Ġ":11326,"xi2Ġguan4Ġ":11327,"mo2Ġni3":11328,"Ġao4Ġmen2Ġ":11329,"min2Ġzu2Ġzhu3Ġyi4Ġ":11330,"Ġsang1Ġ":11331,"ĠĠĠMo":11332,"ci3Ġdi4Ġ":11333,"guo4Ġhou4Ġ":11334,"ke1Ġyi1Ġsheng1Ġ":11335,"hao3Ġlai2Ġ":11336,"sang4Ġshi1Ġ":11337,"Ġyi3Ġwai4ĠdeĠ":11338,"Ġli3Ġxue2Ġ":11339,"ben3Ġtu3":11340,"te4Ġding4":11341,"zhen4Ġwang2Ġ":11342,"Ġshe4Ġshi1":11343,"bian4Ġhuan4Ġ":11344,"tiao2Ġmu4Ġ":11345,"qian1Ġyin3Ġ":11346,"she4Ġjiao1Ġ":11347,"Ġdao3Ġyan3Ġ":11348,"Ġshan1Ġxi1Ġ":11349,"yong4Ġdi4Ġ":11350,"ben3Ġdi4Ġqu1Ġ":11351,"quan2Ġshi4Ġ":11352,"ziĠli3Ġ":11353,"fu3Ġzhi1Ġfu3Ġ":11354,"wan3Ġqi1Ġ":11355,"Ġwei4Ġxin1Ġ":11356,"Ġzai4Ġren2Ġ":11357,"Ġda4Ġduo1":11358,"Ġchu1Ġbu4Ġ":11359,"ti2Ġcai2Ġ":11360,"ĠdeĠzuo4Ġyong4Ġ":11361,"Ġba":11362,"Ġlian4Ġ":11363,"Ġhuai2Ġ":11364,"Ġ1958Ġnian2Ġ":11365,"an1ĠdeĠ":11366,"ĠĠĠyin1Ġwei4Ġ":11367,"lin4":11368,"fa3Ġer3Ġ":11369,"zong1ĠdeĠ":11370,"Ġhe2Ġjin1Ġ":11371,"Ġshi2Ġbei4Ġ":11372,"Ġde2Ġhe2Ġ":11373,"shu4Ġju4":11374,"xiao1Ġshou4":11375,"pei2Ġchang2Ġ":11376,"Ġji2Ġtuan2Ġjun1Ġ":11377,"Ġtong3Ġ":11378,"Ġkan1Ġ":11379,"Ġmi2Ġ":11380,"Ġguo1Ġ":11381,"ĠĠĠge4Ġ":11382,"wen2Ġsi1Ġ":11383,"nv3Ġer2":11384,"Ġnian2Ġshi4Ġ":11385,"Ġzai4Ġta1":11386,"Ġyuan2Ġqu1Ġ":11387,"lai2Ġkan4Ġ":11388,"jie2Ġlun4Ġ":11389,"Ġqi2Ġzhong1ĠdeĠ":11390,"zong3Ġe2Ġwei4Ġ":11391,"Ġnan2Ġjing1":11392,"liang3Ġtiao2Ġ":11393,"qiang2Ġhua4Ġ":11394,"Ġsai4":11395,"Ġchao1Ġji2Ġ":11396,"Ġgui4Ġzhou1Ġ":11397,"ĠĠĠa":11398,"ben3Ġzhi4Ġ":11399,"fen1Ġqi2Ġ":11400,"ti2Ġwei4Ġ":11401,"ba1Ġming2Ġ":11402,"shui3Ġzhong1Ġ":11403,"00Ġping2Ġfang1Ġqian1Ġmi3Ġ":11404,"pa4Ġer3Ġ":11405,"46Ġnian2Ġ":11406,"Ġwei4Ġsi1Ġ":11407,"Ġyu2Ġ2017":11408,"Ġqi2Ġyu3Ġ":11409,"Ġshe4Ġzai4Ġ":11410,"feng1Ġxian3":11411,"yi2Ġdong4":11412,"zhuan3Ġyi2Ġdao4Ġ":11413,"Ġfu2Ġlang3Ġ":11414,"Ġmi3ĠdeĠ":11415,"fei1Ġxing2Ġyuan2Ġ":11416,"1Ġri4":11417,"Ġdang4Ġ":11418,"ĠĠĠ2000":11419,"mei3Ġzhong1Ġbu4Ġ":11420,"te4Ġsi1Ġ":11421,"cha1Ġju4Ġ":11422,"zui3Ġ":11423,"bu4Ġfen4":11424,"Ġzhong1Ġwen2":11425,"Ġyi1Ġyang4":11426,"Ġjian4Ġzhong1Ġ":11427,"Ġzhi1Ġqian2ĠdeĠ":11428,"zhu3Ġjue2":11429,"Ġbei4Ġren4Ġwei2Ġ":11430,"Ġju4Ġti3Ġ":11431,"Ġsuo3Ġyou3ĠdeĠ":11432,"tui1Ġguang3":11433,"li3Ġshi4Ġzhang3Ġ":11434,"gong4Ġhe2Ġdang3":11435,"jiao1Ġyi4Ġsuo3Ġ":11436,"jie4Ġquan2Ġguo2Ġren2Ġmin2Ġdai4Ġbiao3Ġda4Ġhui4Ġ":11437,"ĠAr":11438,"Ġxi3Ġ":11439,"Ġ1987Ġnian2Ġ":11440,"ĠĠĠdang1":11441,"qu1Ġzhong1Ġ":11442,"cai2ĠdeĠ":11443,"Ġyou3Ġxiao4":11444,"Ġcheng2Ġnuo4Ġ":11445,"Ġge4Ġge4Ġ":11446,"Ġbing4Ġwu2Ġ":11447,"Ġshe4Ġxian2Ġ":11448,"ĠdeĠgong1Ġsi1Ġ":11449,"Ġhou4Ġlai2Ġzai4Ġ":11450,"chang4Ġpian4Ġgong1Ġsi1Ġ":11451,"Ġlei4":11452,"Ġxue1":11453,"ĠAn":11454,"ĠĠĠfor":11455,"ĠĠĠjian4Ġ":11456,"dui4Ġli4Ġ":11457,"che1Ġshi4Ġ":11458,"ti3Ġxian4Ġ":11459,"dang3Ġbu4Ġ":11460,"sui2Ġzhi1Ġ":11461,"61Ġnian2Ġ":11462,"Ġwei4Ġmei3Ġguo2Ġ":11463,"Ġji2Ġer3":11464,"Ġyi4Ġmei3Ġguo2Ġren2Ġ":11465,"Ġjun1Ġyi3Ġ":11466,"jie3Ġjue2":11467,"chu3Ġjue2Ġ":11468,"Ġa1Ġer3Ġbei1Ġsi1Ġ":11469,"guang3Ġbo1Ġgong1Ġsi1Ġ":11470,"fli":11471,"si1Ġdi4Ġli4Ġ":11472,"tiao1":11473,"dai4Ġdao4Ġ":11474,"qing1Ġdai4Ġ":11475,"mu3Ġsi1Ġte4Ġ":11476,"fu1Ġsi1Ġ":11477,"39Ġnian2Ġ":11478,"Ġyu2Ġ190":11479,"Ġxi1Ġfa3Ġ":11480,"yu4Ġce4Ġ":11481,"Ġdang1Ġri4Ġ":11482,"Ġta1ĠmenĠshi4Ġ":11483,"ĠdeĠyi1Ġjia1Ġ":11484,"dou1Ġke3Ġyi3Ġ":11485,"Ġci3Ġwai4":11486,"di3Ġceng2Ġshui3Ġyu4Ġ":11487,"lang3Ġpu3":11488,"mu4Ġsi1Ġlin2":11489,"fe":11490,"dui4Ġdi4Ġ":11491,"nan2Ġxi1Ġ":11492,"sui4ĠdeĠ":11493,"shao3ĠdeĠ":11494,"qing4Ġxia4Ġ":11495,"ba4Ġgong1Ġ":11496,"Ġyu2Ġ2023":11497,"qing1Ġzhen1Ġ":11498,"Ġ14Ġ":11499,"Ġcu4":11500,"ĠxĠ":11501,"xing2Ġren2Ġ":11502,"jun1Ġzhu3Ġ":11503,"xia4Ġshi4Ġ":11504,"Ġshi4Ġyi3":11505,"Ġsi1Ġda4Ġ":11506,"ren4Ġzheng4Ġ":11507,"Ġzhou1ĠdeĠyi2Ġge4Ġshi4Ġzhen4Ġ":11508,"qian2Ġting3Ġ":11509,"shi1Ġti3Ġ":11510,"jiao1Ġgei3":11511,"dan4Ġshui3Ġ":11512,"yin4Ġdi4Ġan1Ġna4":11513,"gua3":11514,"cheng2Ġwei4Ġ":11515,"yuan2Ġren2Ġmin2Ġbi4Ġ":11516,"yu3Ġwei4Ġ":11517,"jian4Ġdui4Ġ":11518,"xin1Ġyi1Ġ":11519,"mei3Ġli4Ġ":11520,"ĠdeĠji2Ġ":11521,"Ġzai4Ġdui4Ġ":11522,"Ġbu4Ġzhi1Ġ":11523,"Ġshi2Ġshi1":11524,"Ġyi4Ġbei4Ġ":11525,"Ġer3Ġbei4Ġ":11526,"zhan4Ġshu4Ġ":11527,"Ġbing4Ġcheng2Ġwei2Ġ":11528,"zi4Ġshen1Ġ":11529,"fen1Ġbu4Ġzai4Ġ":11530,"chuan2Ġmei2":11531,"bo2Ġge2Ġ":11532,"zao4Ġchuan2Ġ":11533,"Ġchang2Ġqi1Ġ":11534,"zhong4Ġyao4Ġxing4Ġ":11535,"song3":11536,"ub":11537,"Ġrui4Ġshi4Ġ":11538,"ĠĠĠ14":11539,"a1Ġke4Ġ":11540,"ping2Ġxian4Ġ":11541,"zhang3Ġji2Ġ":11542,"igh":11543,"kui1Ġ":11544,"Ġshi4Ġyin4Ġdu4Ġ":11545,"Ġhe2Ġchang4Ġ":11546,"Ġguo2Ġnei4":11547,"shou3Ġling3Ġ":11548,"qing1Ġdao3Ġ":11549,"zhuan3Ġbian4Ġ":11550,"xun2Ġfu3Ġ":11551,"liang2Ġhao3ĠdeĠ":11552,"Ġta1Ġceng2Ġdai4Ġbiao3":11553,"Ġshang4Ġhai3Ġshi4Ġ":11554,"jiang4Ġyu3Ġliang4Ġ":11555,"1Ġhao4":11556,"Ġxiong1Ġya2Ġli4Ġ":11557,"yi2ĠdeĠ":11558,"yun4Ġxing2":11559,"beg":11560,"Ġshi2Ġsan1Ġnian2Ġ":11561,"fu4Ġxing1Ġ":11562,"Ġke4Ġjia1Ġ":11563,"yan2Ġan4Ġ":11564,"sheng4Ġmu3Ġ":11565,"ye3Ġke3Ġyi3Ġ":11566,"Ġtun2Ġqi2Ġ":11567,"ĠSe":11568,"30Ġfen1Ġ":11569,"zuan4Ġshi2Ġ":11570,"sou1Ġsuo3Ġ":11571,"32Ġnian2Ġ":11572,"ji1Ġdu1Ġjiao4Ġ":11573,"you2Ġke4Ġ":11574,"fen1Ġxiao4Ġ":11575,"zui4Ġhou4ĠdeĠ":11576,"kao3Ġgu3":11577,"Ġmu3Ġqin1Ġ":11578,"Ġ13Ġ":11579,"ji4Ġsuan4Ġji1Ġ":11580,"Ġd":11581,"Ġying4Ġ":11582,"ce4Ġwei4Ġ":11583,"xie4Ġer3Ġ":11584,"26Ġnian2Ġ":11585,"zhui1Ġji1Ġ":11586,"rou4Ġshi2Ġxing4Ġ":11587,"man2Ġ":11588,"Ġyuan2Ġzi4":11589,"yu4Ġsuan4Ġ":11590,"shou3Ġren4Ġ":11591,"Ġzheng4Ġju4Ġ":11592,"Ġzuo4Ġye4Ġ":11593,"ĠdeĠyi1Ġci4Ġ":11594,"ĠdeĠshi4Ġqing2Ġ":11595,"duan3Ġpian4Ġ":11596,"ĠdeĠji1Ġchu3Ġ":11597,"ĠNĠ":11598,"Ġyi3Ġji2Ġzhong1Ġguo2Ġda4Ġlu4ĠdeĠ":11599,"mei3Ġzhong1Ġbu4Ġshi2Ġqu1Ġ":11600,"ZĠ":11601,"peng4Ġ":11602,"Ġtai2":11603,"Ġ1994":11604,"ĠMo":11605,"Ġ1982Ġnian2Ġ":11606,"ĠĠĠMe":11607,"ze2Ġer3Ġsheng3Ġ":11608,"ba1Ġyue4Ġ":11609,"ha1Ġli4Ġ":11610,"36Ġnian2Ġ":11611,"Ġdao4Ġta1Ġ":11612,"Ġer2Ġwen2Ġming2Ġ":11613,"tai2Ġzhong1Ġshi4Ġ":11614,"jin1Ġxiang4Ġ":11615,"tong1Ġxin4":11616,"yue1Ġse4Ġfu1Ġ":11617,"mo2Ġtuo1Ġ":11618,"bing1Ġtuan2Ġ":11619,"Ġgao1Ġsu4":11620,"Ġbai4":11621,"Ġlian2Ġhe2Ġguo2Ġ":11622,"lu4Ġhe2Ġ":11623,"qiang2Ġda4Ġ":11624,"2019Ġguan1Ġzhuang4Ġbing4Ġdu2":11625,"45Ġnian2Ġ":11626,"43Ġnian2Ġ":11627,"Ġshi2Ġwu3Ġnian2Ġ":11628,"Ġjin4Ġxing2ĠdeĠ":11629,"xuan3Ġshou3":11630,"liang3Ġzhong3":11631,"Ġshi4Ġyi1Ġjia1Ġ":11632,"ĠCSTĠ":11633,"ou1Ġmeng2":11634,"Ġcong2Ġci3Ġ":11635,"Ġceng2Ġjing1":11636,"Ġ6Ġdiao4Ġkuai4Ġyi1Ġxiao3Ġshi2Ġ":11637,"Ġji2Ġbei3Ġmei3Ġzhong1Ġbu4Ġshi2Ġqu1Ġ":11638,"ĠCDTĠ":11639,"fa":11640,"ul":11641,"Ġmin3":11642,"Ġdun1Ġ":11643,"dui4Ġshi4Ġ":11644,"mi3Ġer3":11645,"33Ġnian2Ġ":11646,"Ġdi4Ġming2Ġ":11647,"ji1Ġchang3":11648,"jing1Ġdu1Ġ":11649,"Ġshang4Ġshu4Ġ":11650,"nv3Ġwang2Ġ":11651,"tuo1Ġma3Ġsi1Ġ":11652,"Ġshi3Ġmi4Ġsi1Ġ":11653,"yin4Ġdu4ĠdeĠ":11654,"Ġlu3":11655,"Ġxi4Ġtong3Ġ":11656,"Ġ1945Ġnian2Ġ":11657,"Ġ1920Ġnian2Ġ":11658,"ji1Ġshi2Ġ":11659,"mei2Ġer3Ġ":11660,"fu1Ġsi1Ġji1Ġ":11661,"zhuan1Ġyuan2Ġ":11662,"Ġshi4Ġyi2Ġ":11663,"Ġcheng2Ġke4":11664,"qu1Ġzhu2Ġjian4Ġ":11665,"zhe4Ġshou3Ġ":11666,"Ġqiu2Ġbi3Ġsai4Ġ":11667,"wang3Ġlai2Ġ":11668,"cai2Ġneng2":11669,"zhuan1Ġqu1Ġ":11670,"Ġa1Ġli3Ġ":11671,"zhe2Ġxue2Ġjia1Ġ":11672,"Ġqi1Ġxi1Ġ":11673,"fei2Ġte4Ġlie4Ġ":11674,"gen":11675,"Ġming4Ġ":11676,"Ġlei1Ġ":11677,"shai1Ġ":11678,"ĠĠĠ13":11679,"ĠĠĠke1Ġ":11680,"jiao4Ġyou3Ġ":11681,"jiao1Ġfu4Ġ":11682,"que4Ġli4Ġ":11683,"31Ġnian2Ġ":11684,"li4Ġshi3":11685,"dong1Ġya4Ġ":11686,"zong3Ġju2Ġ":11687,"wei3Ġnei4Ġrui4Ġ":11688,"ran2Ġliao4Ġ":11689,"ĠHRĠĠĠ":11690,"Ġshi4Ġfou3Ġ":11691,"ĠĠĠ12Ġyue4Ġ":11692,"ĠĠĠ2023Ġnian2Ġ":11693,"shi2Ġshi4Ġji4Ġ":11694,"jin1Ġsi1Ġ":11695,"pei4Ġyue4Ġ":11696,"Ġwei4Ġcheng2Ġ":11697,"ge2Ġlei2Ġ":11698,"xing4Ġbie2":11699,"chang2Ġan1Ġ":11700,"liu2Ġchuan2Ġ":11701,"bo2Ġgen3Ġdi4Ġ":11702,"zu3Ġxian1Ġ":11703,"Ġgao1Ġxiong2":11704,"Ġyin1Ġwei4Ġta1":11705,"Ġwen2Ġzhang1Ġ":11706,"hu2Ġbei3Ġsheng3Ġ":11707,"yan2Ġhai3Ġsheng3Ġfen4Ġ":11708,"Ġsu2Ġcheng1Ġ":11709,"Ġduan4":11710,"Ġ1996":11711,"Ġhang2Ġ":11712,"en1Ġsi1Ġ":11713,"leĠbu4Ġ":11714,"di2Ġsi1Ġ":11715,"tui1Ġjin4":11716,"diao1Ġxiang4Ġ":11717,"zhai4Ġwu4Ġ":11718,"Ġyi1Ġlu4Ġ":11719,"qu1Ġdong4Ġ":11720,"shu4Ġbai3":11721,"Ġqi2Ġfu4Ġ":11722,"gao1Ġxiao4Ġ":11723,"Ġhuo4Ġwu4Ġ":11724,"bo2Ġlin2":11725,"chan3Ġliang4Ġ":11726,"bai3Ġxing4Ġ":11727,"Ġdi4Ġer4Ġci4":11728,"Ġao4Ġsi1Ġ":11729,"Ġ1950Ġnian2Ġ":11730,"ĠĠĠmu4Ġ":11731,"ĠĠĠying1Ġguo2Ġ":11732,"ĠĠĠgai1Ġdi4Ġ":11733,"bao4Ġfu4Ġ":11734,"xun4Ġhao4Ġ":11735,"jiao3ĠdeĠ":11736,"yi4Ġqi3Ġ":11737,"Ġren2Ġsheng1Ġ":11738,"Ġgong1Ġdian4Ġ":11739,"sheng1Ġren4Ġ":11740,"Ġtong2Ġnian2Ġ10Ġyue4Ġ":11741,"san1Ġjiao3Ġ":11742,"ling2Ġgan3Ġ":11743,"Ġyou4Ġcheng1":11744,"chong1Ġsheng2":11745,"zeng1Ġqiang2":11746,"a1Ġer3Ġba1Ġ":11747,"cao3Ġan4Ġ":11748,"Ġshi4Ġjian4ĠdeĠ":11749,"Ġling2":11750,"Ġgei3Ġ":11751,"Ġbu2Ġshi4Ġ":11752,"jian4Ġyu2Ġ":11753,"shu4Ġge4Ġ":11754,"ying1Ġer2Ġ":11755,"mo4ĠdeĠ":11756,"hen3Ġnan2Ġ":11757,"Ġwei4Ġjing1Ġ":11758,"shi2Ġqi1":11759,"Ġyou3ĠleĠ":11760,"Ġgong1Ġli4Ġ":11761,"fa1Ġsheng1Ġyu2Ġ":11762,"zhi2Ġjing4Ġ":11763,"Ġzhou1Ġbian1Ġ":11764,"go":11765,"Ġzeng1Ġjia1Ġ":11766,"zhang1Ġshi4Ġ":11767,"hu4Ġshi4Ġ":11768,"huang2Ġshi4Ġ":11769,"huan4Ġyou3Ġ":11770,"sang4Ġsheng1Ġ":11771,"cheng2Ġwei2":11772,"Ġer3Ġxi1Ġ":11773,"zhan4Ġlve4":11774,"xiang1Ġxin4Ġ":11775,"dong4Ġtai4Ġ":11776,"Ġsheng1Ġming4Ġ":11777,"guang3Ġdong1":11778,"huo4Ġzhe3Ġ":11779,"zheng4Ġzhi4Ġju2Ġ":11780,"qu1ĠdeĠfu4Ġze2Ġguan3Ġxia2Ġ":11781,"zheng3Ġti3":11782,"Ġjin3Ġci4Ġyu2Ġ":11783,"ya4Ġmei3Ġni2Ġya4":11784,"ĠĠĠ5Ġ":11785,"ĠĠĠte4Ġzheng1Ġ":11786,"xiao3Ġyu2Ġ":11787,"xuan3ĠdeĠ":11788,"han4Ġguo2Ġ":11789,"kan4Ġjian4Ġ":11790,"gui3Ġdian4Ġ":11791,"di4Ġfang1Ġ":11792,"Ġdi4Ġer4Ġshi2Ġ":11793,"Ġyi3Ġzhi1Ġ":11794,"wei2Ġji1Ġbai3Ġ":11795,"ben3Ġzhan4Ġ":11796,"Ġzhan4Ġtai2Ġ":11797,"xiao3Ġjie3Ġ":11798,"guan3Ġli3ĠdeĠ":11799,"Ġran2Ġhou4Ġzai4Ġ":11800,"pi2Ġfu1Ġ":11801,"Ġduo1Ġren2Ġ":11802,"an1Ġhui1Ġsheng3Ġ":11803,"2Ġming2Ġ":11804,"Ġ1997":11805,"ĠĠĠtang2Ġ":11806,"wei3ĠdeĠ":11807,"du2Ġzi4Ġ":11808,"44Ġnian2Ġ":11809,"Ġzhi4Ġjin1":11810,"Ġji2Ġke3Ġ":11811,"hua4Ġfen1Ġ":11812,"fu2Ġwu4ĠdeĠ":11813,"si4Ġchuan1":11814,"bi4Ġlu3":11815,"Ġshou3Ġxian1Ġ":11816,"zhu3Ġjiao4Ġlian4Ġ":11817,"ĠIĠ":11818,"ben4":11819,"ĠSu":11820,"ĠĠĠRo":11821,"zhong1Ġnian2Ġ":11822,"qu1Ġxian4Ġ":11823,"dian3Ġxing2Ġ":11824,"ban1Ġdao4Ġ":11825,"pi1Ġfu4Ġ":11826,"BCĠ":11827,"53Ġnian2Ġ":11828,"Ġshi4Ġqi2Ġ":11829,"Ġshi2Ġsi4Ġnian2Ġ":11830,"Ġli4Ġyu2Ġ":11831,"yan2Ġxu4":11832,"Ġzhe4Ġxiang4Ġ":11833,"sha1Ġtian2Ġ":11834,"guang1Ġpu3Ġ":11835,"xie2Ġhui4":11836,"Ġbu4Ġfen4ĠdeĠ":11837,"Ġding1":11838,"Ġyin4Ġdu4":11839,"ĠĠĠDe":11840,"yi4ĠdeĠshi4Ġ":11841,"leĠyuan2Ġ":11842,"liang2ĠdeĠ":11843,"Ġshi4Ġyong4Ġyu2Ġ":11844,"Ġda4Ġzheng4Ġ":11845,"te4Ġding4ĠdeĠ":11846,"xing4Ġge2Ġ":11847,"feng1Ġbao4":11848,"mei3Ġguo2Ġzong3Ġtong3Ġ":11849,"xiao4Ġguo3":11850,"bao1Ġkuo4ĠleĠ":11851,"ting1Ġzhang3Ġ":11852,"kuang4Ġwu4Ġ":11853,"ĠdeĠyi4ĠsiĠ":11854,"ying3Ġxiang3ĠdeĠ":11855,"wu4Ġli3Ġxue2Ġjia1Ġ":11856,"sheng3Ġdao4Ġtai2Ġ":11857,"ji1Ġli4Ġ":11858,"gu3Ġsi1Ġ":11859,"pu3Ġer3Ġ":11860,"qian1Ġzheng4Ġ":11861,"guang1ĠdeĠ":11862,"lei1ĠdeĠ":11863,"di4Ġer4":11864,"Ġji2Ġzhong1Ġzai4Ġ":11865,"yong4ĠleĠ":11866,"lai2Ġyuan2Ġyu2Ġ":11867,"huo2Ġxing4Ġ":11868,"jun1Ġguan1Ġ":11869,"tie3Ġlu4ĠdeĠ":11870,"en1Ġlai2Ġ":11871,"a1Ġgen1Ġting2Ġ":11872,"Ġyu2":11873,"Ġya1Ġ":11874,"Ġbei1Ġ":11875,"ĠXĠ":11876,"zuo4Ġyi3Ġ":11877,"qian2Ġwei4Ġ":11878,"jin1Ġri4":11879,"lang3Ġpu3Ġ":11880,"po1Ġer3Ġ":11881,"ight":11882,"Ġhe2Ġkou3Ġ":11883,"Ġli4Ġchang3Ġ":11884,"Ġyi1Ġkai1Ġshi3Ġ":11885,"Ġyu3Ġyuan2Ġ":11886,"Ġchu1Ġkou3":11887,"Ġyou2Ġtai4Ġren2Ġ":11888,"tian1Ġhuang2":11889,"xin4Ġtu2Ġ":11890,"ge1Ġlun2Ġbi3Ġya4":11891,"vel":11892,"Ġte":11893,"Ġhou4Ġzai4Ġ":11894,"ĠĠĠ2004Ġnian2Ġ":11895,"ming2Ġzai4Ġ":11896,"sheng1Ġbu4Ġ":11897,"ma3Ġqi2Ġ":11898,"luo4Ġhou4Ġ":11899,"gao4Ġzhi1Ġ":11900,"lv3Ġyou2":11901,"Ġda4Ġzhan4Ġ":11902,"fa1Ġdong4":11903,"xiang3Ġying4Ġ":11904,
[...]
