#version: 0.2
n g
a n
s h
z h
j i
a ng
Ġ Ġ
o ng
x i
a o
a i
d e
e i
sh i
y u
o u
y i
e n
c h
i an
u o
e ng
l i
ĠĠ Ġ
ã Ģ
i ng
u i
w ei
u an
zh i
q i
n ian
zh ong
y ou
r en
u n
z ai
d i
g uo
ãĢ ģ
h e
b u
e r
g ong
xi ng
ch eng
d a
zh u
h u
yu an
s i
ji an
yu e
g e
f u
xi an
u e
k e
w u
ch u
sh u
sh eng
ji e
ji a
b i
d ao
z i
b ei
h ui
f a
xi ang
t i
zh eng
m i
t a
ji n
q u
2 0
t ong
r i
j u
ji ng
m ing
l e
h ou
sh ang
sh ou
d ong
c i
f ang
1 9
hu a
yi n
x ue
g uan
zh an
y e
yi ng
z uo
zh e
y an
m ei
ji ao
g u
ch ang
xi n
d ui
l u
b ing
b ao
f en
d an
h uo
j un
ji ang
d u
xi ao
d ian
y ong
q ian
sh e
t ai
xi a
m u
w en
g ai
zh ang
li ang
y a
r u
d ai
h ai
n an
zh ou
z u
w ang
l ai
b an
ji u
d ang
q ing
p ing
sh en
ãĢ ĭ
ãĢ Ĭ
w an
l ian
li ng
l uo
Â ·
mi n
q uan
p i
n i
b o
d uo
t e
b en
g ao
bi ao
s uo
l a
m a
k ai
b a
xi e
x u
b ian
de ng
y ao
y ang
m ian
zh en
d ing
qi u
z ui
s ai
li u
f an
x uan
f ei
s an
sh an
ch e
z ong
m en
ãĢ Į
ãĢ į
t u
t ian
h ao
s u
l ei
n ei
yu n
20 1
l an
f eng
m o
n a
z e
l v
h an
k ou
w ai
n eng
li n
ch uan
ch i
j ue
b ai
p ai
20 0
k u
c ai
z ao
t ing
zh uan
g ang
li e
gu ang
g ui
l un
s ui
p u
c eng
k ong
sh ui
1 0
ch ao
zhu ang
ch a
d ou
c an
t ou
r an
s e
d uan
c un
h uan
c ong
pi n
c e
ch an
x un
g ou
0 0
n v
zh ao
g an
ch ong
sh a
t an
1 8
qi n
k a
m eng
qi ang
hu ang
xi u
1 2
ti ao
m an
sh ao
k uo
l ong
p ian
sh uo
t uan
t ang
r ong
g eng
20 2
ch en
t ui
g en
q ue
ti e
1 1
qi e
w o
p o
p ei
h ang
h ong
19 9
b ang
li ao
chu ang
bi e
r e
t uo
t ao
s ong
w a
m ai
h a
1 5
p an
d un
di ao
qi ao
s a
m ao
l ang
k an
k ang
â Ģ
o r
l ao
z eng
1 6
19 8
k ao
xi ong
1 7
o n
n uo
mi ao
r ang
ku ang
h en
s uan
1 4
3 0
zh un
1 3
19 4
c ao
h un
q un
n ong
19 7
h eng
shu ang
l ou
g ei
ku ai
pi ao
zh a
h ei
ni u
19 5
s en
bi n
r eng
z ou
19 6
ch un
k uan
2 5
âĢ Ķ
r ui
s un
p ao
n ing
f or
p a
c ang
m ou
2 4
p eng
hu ai
2 1
19 3
2 3
mu la
for mula
2 8
z an
r uo
i n
2 2
ch ou
zh ui
a r
m e
2 6
5 0
20 20
2 7
n ai
n u
ï ¼
2 9
sh un
201 0
z a
00 0
lv e
zh ai
20 19
n e
r o
j uan
s t
r a
c ui
k un
201 6
l uan
201 8
c uo
202 1
z ang
201 4
shu ai
201 1
201 5
201 7
201 2
4 0
201 3
n ao
202 2
di e
r uan
k ui
l t
r ou
c u
s ang
200 9
200 8
ã ĥ
6 0
ni ao
a l
r ao
ch ai
10 0
zh uo
202 3
g t
s ou
19 0
3 1
k en
200 7
200 1
t eng
p ang
f ou
c o
f o
gu a
200 0
8 0
200 6
202 4
ã ģ
200 5
z un
ti on
ku a
t he
3 5
7 0
ni e
l o
o f
9 0
l eng
ï¼ į
ã Ĥ
a m
t un
t er
mi e
200 4
t h
t o
4 5
4 8
m ang
202 5
v e
g a
ãĢ ī
ãĢ Ī
3 6
3 8
200 3
3 7
M a
ch ui
p en
l l
18 9
I N
200 2
k eng
T C
d o
3 4
7 5
âĢ ĵ
C o
4 6
c a
199 0
âĢ ¦
c k
3 9
. .
b e
6 5
3 2
S T
4 7
U TC
199 9
199 8
198 0
18 8
5 00
3 3
I n
6 4
s s
T he
v i
S E
5 5
199 7
R e
h i
4 9
I I
e l
6 8
e t
4 4
199 6
o o
qi ong
199 4
g un
b r
gu ai
199 2
199 5
M i
6 7
an d
s ao
e s
199 1
197 0
5 8
195 0
3 00
199 3
18 7
194 9
a t
A T
p e
196 0
4 2
194 5
L i
v er
qi a
198 8
t y
198 9
6 9
R o
i s
r un
SE E
ni ang
IN SEE
h o
5 9
4 3
6 6
5 7
198 5
9 9
S A
ãĢ İ
ãĢ ı
c t
198 4
4 1
8 8
198 6
w i
o l
w s
T V
r y
15 0
M e
n d
4 00
198 7
7 8
198 2
5 6
b eng
V i
P a
t s
198 3
am p
N A
D e
C D
g h
f i
w eng
b er
7 7
W in
p er
z uan
S ta
7 9
O S
W i
Â °
ï ½
de r
18 0
B C
5 4
197 9
6 1
19 20
a s
M o
s eng
9 8
5 2
Y ou
197 8
n o
6 2
5 3
l y
shu a
L a
ï½ ŀ
B A
194 6
C O
5 1
195 8
g i
J o
198 1
197 2
194 8
L e
t w
A M
6 3
A R
c tion
194 1
B S
G a
19 30
D a
P ro
T e
7 6
han s
194 0
193 7
197 6
194 4
J a
8 9
u s
D i
Win do
197 5
ï¼ ı
196 8
h k
c on
F i
u m
S i
10 00
Windo ws
9 5
8 7
na l
M ar
196 6
r d
8 5
N e
R a
k i
6 00
1 20
194 7
S e
A C
195 6
196 4
B e
194 2
Ã ©
195 5
195 2
I S
a d
193 9
193 8
7 2
u r
7 4
C a
v a
197 3
197 4
195 4
A r
A l
E D
19 00
- -
A P
194 3
T o
197 7
l d
197 1
c en
la y
196 7
B a
I C
8 00
P o
L o
E R
zhu a
s ta
8 6
195 9
B o
t t
196 5
J R
196 9
F a
ãĥ »
Ã Ĺ
I D
B i
s on
193 6
16 0
9 7
195 3
S a
M A
196 2
196 1
n en
N a
â Ķ
S o
193 5
co m
H o
ti c
9 6
O N
ï¼ ħ
195 1
S t
195 7
196 3
T u
âĶ Ģ
f e
s o
men t
8 4
H i
202 6
8 2
D o
m er
R i
7 3
n t
9 4
9 2
K i
H a
n ang
on e
I P
A N
l s
193 3
193 1
le s
7 1
n uan
Co m
8 3
9 3
te d
S u
8 1
T i
M u
19 18
N i
H D
U ni
19 28
p p
193 2
C ha
W e
y s
M V
S S
1 10
I T
19 12
N o
19 29
19 27
193 4
c n
7 00
g o
z ei
gh t
st er
25 0
9 1
r t
l li
19 24
ri s
.. .
19 19
nv e
1 30
P i
19 25
G i
P S
b y
e d
me s
A n
P C
14 0
A S
P lay
19 14
k m
D V
ti o
You Tu
S M
b le
g ra
k o
19 11
C on
C h
l la
19 26
l le
G e
P ar
i d
T a
19 22
L in
m p
19 17
H e
K a
E T
N BA
w n
I V
E N
19 23
19 21
sh ai
G oo
ch uo
17 0
à ¸
E C
M S
a li
A L
p h
se ction
YouTu be
E P
B L
19 13
C ar
B u
z en
H K
w e
h n
m m
v en
han t
â Ĩ
190 9
si on
In ter
c ro
M P
A I
W or
P e
d s
U S
p ro
DV D
o k
3 000
E n
19 10
D S
R O
c ou
S te
si s
1 12
G o
r k
A K
R E
19 16
W a
li a
ãĥ ¼
Sta tion
F or
N et
f f
Î ±
of t
in e
de n
l or
re a
tio nal
g n
tu re
g le
C P
U N
â Ī
ar d
19 15
g in
190 5
p s
F C
c al
v o
di a
M y
C N
â Ħ
âĨ Ĵ
ou r
er s
190 1
en t
A u
D NA
E x
âĢ §
9 00
en d
H R
di ce
. &
the r
ta l
C H
T A
T O
190 6
190 4
A V
te s
M O
ji ong
Jo hn
m y
er i
co dice
M an
âĦ ĥ
d y
Play Station
C hi
0 5
C C
ti ve
di u
A nd
190 7
di o
190 8
Goo gle
A G
C i
E ST
M I
S O
L E
si c
re e
B O
in t
wi t
B BC
S ch
A D
I G
lan d
II I
c ri
t on
15 00
5 000
c y
rou nd
w er
I ST
m s
r on
M E
C R
u l
3 D
j e
I A
le y
10 5
a u
Ð °
ri a
10 1
190 3
t or
G B
v an
0 9
T E
L u
190 2
B D
N C
P ri
F e
x t
3 50
p ou
Ã ¡
SA O
de s
D C
j a
Î ²
c ke
B 1900
bo ok
ha t
E S
al l
B M
ï¼ İ
ãĥ ³
R u
n er
189 8
re s
0 6
1 18
o p
ãģ ®
3 60
D R
Ne w
0 1
D A
H u
O pen
189 5
g er
12 5
S ho
H O
M C
S an
AT P
Mi cro
ct or
Ð ¾
10 8
f t
c or
o s
N G
K e
c lu
g y
gra m
p ri
wa rd
st y
I F
C u
F ran
O ne
ne t
s oft
k er
p t
âĪ Ĵ
0 7
0 8
2 30
Fa ce
10 4
pa ce
ls pan
C or
P er
B ar
Wor ld
A pp
ED T
IST AT
c uan
Lo ve
K o
à ¤
H ar
N O
S tu
189 6
L L
u x
10 9
D P
la s
A A
f li
R I
J u
p ha
S er
lu s
lin e
R T
t ri
S P
E X
B 48
10 6
18 90
r ai
s ti
mo n
C ST
M L
o d
un i
CD T
ber t
J e
r s
ru s
re d
D O
P u
k y
H E
C ou
a tion
M on
0 4
4 000
11 5
1 200
M 1
P re
0 3
l er
G P
de l
C E
Ä ģ
Li ve
be gin
188 9
oo l
Da vi
wi th
ar a
189 9
co lspan
tai n
ba ck
187 1
R S
st o
Face book
E d
S ha
Micro soft
mi c
te m
âĢ ĭ
24 0
16 00
L O
T ri
t en
ti n
B E
lo w
10 2
bo x
clu de
A d
T T
189 7
S ou
s er
N H
E E
D u
ce s
P P
11 7
S C
v al
0 2
po r
c m
Ma c
sty le
C he
r st
10 3
AK B48
D an
M D
N or
P h
10 7
ra l
H er
O n
p re
r ing
A s
a re
Wi lli
te l
Lin ux
li s
O ri
w w
D is
sh uan
g ue
ma s
4 50
B er
V ID
12 7
Mu sic
I s
A i
G re
c er
Ã ¼
tu s
V o
t ra
12 8
fli x
C L
Net flix
B ro
y o
189 4
Ga me
2 20
C an
G ra
ni n
re f
Ð ½
Willi am
B ri
I L
ali gn
S H
b li
or y
O r
T wit
18 80
Re d
ol d
Ã Ń
R NA
13 6
P G
Ð ¸
ãģ Ħ
ro m
T R
Te am
18 00
ãĤ ¹
Uni ver
g round
i a
188 5
l en
11 4
ãĤ ĵ
H z
co lor
G en
T y
11 6
28 0
U R
p le
Ð µ
11 3
188 6
ei n
ãĤ ¤
T S
P O
189 3
la r
e x
r n
y n
M c
na me
11 1
S L
ã Ħ
Su per
S he
st ra
A ll
G u
ci al
la ss
âĢ »
Davi d
13 5
je ct
A c
26 0
C en
E u
l f
18 60
po rt
ha m
Ge or
ch o
na tional
Cha r
U n
W TA
lv er
d ge
wo rk
H C
T h
t ro
Sch ool
B an
k s
ss o
t ch
ti s
188 8
M or
q ui
te xt
S D
Ã ³
- .
U A
rou p
ll y
ca tion
on y
back ground
Me ta
ro id
a c
mer i
T ra
12 9
G O
S to
di s
18 70
G N
ï ¹
re am
188 7
Sho w
Q u
c le
18 68
6 000
Ã ¶
Ñ Ģ
188 3
N F
V A
ma r
V er
da y
3 20
X box
C S
wa s
A ng
N HK
T ho
A F
F o
Twit ter
D D
l yin
on lyin
onlyin clude
+ +
K P
d on
18 64
âĢ ¢
Gi r
I ON
188 4
1 19
B la
R C
U E
ai n
mi u
12 2
V a
25 00
189 2
2 10
A 1
cen ter
cke t
15 5
IS O
â ħ
14 5
st ri
189 1
6 50
wa y
And roid
N S
C lu
ãĢ ķ
O R
f fi
h tt
m ber
ãĢ Ķ
18 50
F u
P hi
a ge
m b
w in
x y
C y
K u
k ing
Inter national
si a
18 67
lo gy
C e
I M
ãĥ Ī
187 9
Sta r
ri e
Ja mes
En ter
c c
ll er
3 80
A B
U P
ne y
E ng
187 6
S pe
W ar
n y
Stu dio
z o
Geor ge
A b
A ni
18 75
18 61
27 0
Univer si
Ga mes
B ra
I R
12 6
N T
Ã ¨
ti me
ar t
E s
P or
NG C
st ru
ãĥ «
187 3
H en
M G
p hi
er o
12 3
ãĥ ©
P V
n s
B en
D ra
H T
Co lle
G roup
P an
c ar
m pi
ran s
S un
i t
u t
16 8
cu s
CO VID
B lo
F M
M B
S ys
ou s
se d
18 65
Clu b
A O
A meri
P L
he r
i m
12 1
D E
D on
t hat
Ai r
Cen ter
17 5
ar y
ãģ Ĩ
We b
H 2
Y P
f rom
Ã ¤
14 00
MA X
cri tic
A le
t z
13 8
2 28
H an
T P
18 48
18 62
3 30
12 4
ãĤ ¢
188 1
188 2
7 37
Le a
A li
U C
h y
187 8
5 50
V e
sa u
b ri
bi t
187 2
E l
L C
In sta
M in
ra tion
IN K
Meta critic
el d
Ori con
S ai
W hi
s co
15 6
B oo
M TV
s p
16 5
L ED
18 40
IV E
Y a
c re
k in
7 50
ãĥ ĥ
13 00
ãģ Ĺ
H y
13 7
Mi cha
Mar k
7 000
H el
er a
D OS
S Q
U B
22 9
I U
G DP
K ing
O K
Ñ ģ
ty pe
G ran
ni c
Hi gh
T ai
a st
15 2
TV B
Ch ris
15 9
187 7
Ro bert
C han
p y
s y
t le
â Ĺ
ci en
18 66
H ou
i OS
o t
Ð »
Pro du
S K
S hi
si lver
18 69
âĢ ²
th i
T HE
U p
Da y
C ro
D M
E le
St re
Pe ter
I t
N ET
t ter
F ree
J an
Ð º
13 9
Ph one
Insta gram
A t
B I
S ur
p la
BL AC
Ty pe
Ð ²
or a
App le
D J
S y
W al
C G
W E
co de
ãĤ ¯
Micha el
D F
S h
ï ¸
1 100
ci a
15 8
ne ss
Bi g
2 25
P la
P at
S am
Y e
v in
ni a
30 5
13 3
IN E
Pa ul
Te ch
Na tional
t te
ou n
ni s
ãĥ ª
A ward
R A
Y O
13 2
Ste am
20 5
18 63
ra y
I E
pan y
Me dia
tain ment
2 15
B r
Universi ty
F O
L ou
V al
en sis
tion s
Bi ll
ph y
C A
F 1
K BS
bu r
14 8
13 1
S mi
k g
16 6
187 4
X X
de o
18 58
pa r
E F
s or
ri n
ru m
C ho
c lo
14 7
H ol
min i
F ri
25 6
ãģ ĭ
M 2
18 30
C BS
U T
g on
l m
18 51
Le e
B N
G A
H I
U I
li p
ri c
19 2
Par k
t d
Î ¼
8 000
M er
no w
Enter tainment
3 10
14 3
hi s
M k
18 55
Ci ty
Bla ck
Wi l
Po wer
C hu
E M
I X
S pace
g ar
w hi
G M
R AM
ð «
18 5
18 59
th o
ST AR
Ja ck
Char les
13 4
Ja va
Di re
A BC
G ar
T er
s pe
shi p
18 54
14 6
30 1
17 00
in ter
Vi u
sti tu
3 70
F la
K en
18 57
Al pha
L an
S tan
ou t
lo s
D ar
Ø §
29 0
ãģ ª
Li fe
ï¸ °
v s
Î ³
2 14
4 20
C am
Ñ Ĥ
Re cor
Com pany
F un
Î ¿
ãĢ ľ
18 56
18 53
Pro ject
D ream
F an
S en
di um
ãģ Ł
fi rst
Ti me
Tho mas
Hou se
P en
14 4
Sai nt
F A
O VA
P y
S pi
C ent
V O
e k
fa ce
A 2
I O
d d
v on
16 7
Ja pan
Stre et
3 A
C la
H S
S BS
ren ce
bi li
ri st
cha rd
18 41
ver y
Eu ro
L P
P lan
a k
i e
r p
ba l
et y
Ale x
3 40
P M
b un
i f
l ue
BLAC KP
S co
T al
d ra
ch er
20 8
se s
18 15
17 8
So ci
CP U
BLACKP INK
2 23
s pace
8 50
L GB
S ing
S po
e w
t ta
ce ss
oo d
ww w
I BM
z er
mi s
Ar t
por ts
B at
B ur
S F
20 7
ma tion
wo r
17 1
23 5
ãģ ¨
ãģ ¾
L IVE
S U
S oft
20 3
B 2
F er
V E
SQ L
t ha
18 46
16 4
Colle ge
A m
c ra
15 7
lt er
vi ce
ber g
Ameri can
B R
L T
N E
P ol
14 1
for d
IC E
A ma
B 1
P E
nv i
17 6
IN G
Gir ls
A sso
G er
L S
s te
Â ²
tu rn
pu bli
se lf
18 12
18 45
18 44
st ro
Ro ad
no t
O ffi
W o
d ro
ba ll
23 1
ar ch
c ture
c lass
l on
es ti
Ro ck
C l
H F
L td
M 3
p lay
le a
bo ard
ãĤ Ĭ
wit ch
LGB T
l lo
s g
he re
20 9
ãģ į
NA SA
Te le
GN U
L A
V an
g s
ta tion
Jo se
we ll
T our
IU CN
Smi th
2 16
P N
R ou
Î º
18 49
15 3
C T
N BC
20 4
23 8
ne s
Goo d
Produ ction
B B
C al
G T
b ra
de d
Vi deo
O 2
e p
f er
Ï ĥ
mi ted
pi e
ro w
H all
P R
da e
20 6
th y
Pa d
Ga la
Bo y
eri es
4 60
A f
T or
se t
18 14
ve l
der s
sau rus
2 18
E li
T ur
wo od
Je an
S I
T en
ne l
vi sion
IG N
A ct
L D
P A
f ra
â ĸ
Ri chard
F F
K ar
W S
o m
Ï Ģ
ta r
18 47
15 4
ve d
5 80
M BC
si de
ma c
che m
18 43
Be st
pt r
Sys tem
4 30
S ky
Z i
ri ch
ci s
17 7
40 1
ll s
4 10
F le
si n
man n
ãĤ ·
NF L
Viu TV
S witch
da r
16 3
AM D
Di gi
AP I
Par a
I CO
S ma
da ta
men ts
18 52
16 2
th on
Ma x
V II
ce d
18 20
ãģ ı
We st
A g
G lo
T un
V ol
a ch
z on
14 2
23 4
sta r
cri pt
V R
s ys
si gn
ma x
17 2
ãģ Ĭ
ãģ ķ
Co re
Recor ds
6 40
M et
l ti
16 9
35 00
th is
Li mited
B lue
K C
R an
T 1
c to
Â ±
18 39
23 2
Cou n
4 80
C M
17 9
ca de
In c
Gre en
u se
20 30
ri o
or g
14 9
36 5
In stitu
La u
lu m
tu be
18 21
wa r
ãĥ Ń
ãģ ¿
Vi r
Uni code
RO M
CC TV
3 90
B U
bu s
ti a
30 6
22 2
60 1
o na
17 3
Bo b
E A
F ar
G ui
J i
P F
Y u
Z e
k h
r ue
ba r
wa re
24 7
oo t
He a
Pri n
mpi on
E r
K K
M r
V en
X P
g na
j o
17 90
um p
2 11
5 60
O H
S N
z y
ke t
ci ation
or n
ne w
ãĥ ¬
B F
P ra
V M
t v
of f
ve lo
M U
P D
R en
S qu
S cien
18 3
17 95
30 3
For ce
âĹ ĭ
P H
T an
23 3
ãģ ¡
180 1
2 13
T rans
ta ry
ãĥ ŀ
He art
US B
M en
b ro
17 4
Po p
tt le
MV P
B el
C K
o per
Ï ģ
á Ģ
ì Ŀ
ke y
18 6
18 38
or s
Fi re
Sto re
5 20
C ri
D DR
s tan
mi ly
ha r
ck er
Ch rist
6 10
L on
a b
u p
16 1
50 1
ãĥ ī
htt p
2 24
C F
e m
i Pad
t to
bi le
su b
18 13
ãĤ ī
Ma g
Da ta
G E
Ï Ħ
ri ty
mo r
18 2
18 32
18 42
25 5
lo gi
as on
Soci ety
A E
d th
i Phone
su r
18 4
tie s
ãĤ «
do m
Mi ni
7 20
K I
Q ue
S cript
e le
g re
â ĺ
la te
18 36
17 93
ãĤ ª
Co mic
In tel
Ki Ha
Mu se
bun tu
2 21
H BO
M T
P in
f fe
mu s
18 33
17 89
cen t
Ho me
tic s
Ri ver
htt ps
Dire ct
Asso ciation
Gala xy
B al
D r
D AM
M 4
Q Q
a e
se arch
18 35
15 1
ar s
ãĤ ¿
wi dth
per i
tic al
Lea gue
2 19
2 17
3 38
F T
J YP
Q ui
R ai
S R
U buntu
W A
m g
ð Ĳ
fu l
âĢ °
do wn
180 4
ON E
CE O
4 70
7 40
8 30
B ui
f un
s si
v ing
ne d
Mar tin
Ban k
Hen ry
M ai
Y G
Ï Ĥ
Ð ´
â ī
li ght
bo r
ma t
Ma ster
To p
Cha mpion
D y
E ar
L INE
M W
Î ½
ma l
be l
AR T
Ne ws
Chi na
2 12
D K
D ou
E m
S p
Ñ ĥ
un ch
18 28
co re
ãĤ ³
AP AN
Ho t
Par t
Net work
Gen er
F R
F lo
L ong
d or
ci l
19 1
re w
30 2
You ng
Bill board
Offi ce
6 80
A da
E pi
F ra
G old
M Hz
P I
S ong
S NH
n m
p lo
Î ¹
ta ble
ri es
18 1
16 24
23 7
ãĤ ĭ
Ni ght
No te
Jose ph
SNH 48
F DA
J APAN
P K
à ¹
á ¹
pu r
16 44
30 8
Co de
CO M
4 40
C ra
D B
G R
z z
li st
ti al
le d
le ss
10 000
18 37
pa rt
23 9
st on
180 6
Si r
Ra dio
Uni ted
mac OS
C V
U 21
V is
s ing
Ã ¢
Ã ®
Î ´
à ¥
â ĳ
de f
su s
18 19
29 9
34 6
Re gi
HT ML
7 80
E ast
c s
un d
18 25
24 5
23 6
50 5
27 9
ãģ «
Ma ri
5 40
E V
G am
H 5
P al
m uni
rp m
3 25
Y o
t re
ri ght
00 1
17 76
ãģ ĺ
Chi ld
NC AA
Ser ver
Digi tal
F AT
K ong
te a
18 18
po n
mai n
pa ra
26 5
ãģ ĵ
es ta
Hel lo
G S
L ang
ai r
te lli
18 24
18 31
202 7
re y
Do wn
D ri
O b
R PG
p ho
s pi
Ã §
Ã ´
li o
si o
ri ck
la tion
38 6
Ma t
Ser vice
âħ ¡
Tech no
A na
A do
U M
n on
ren t
ge s
te mp
BS D
Py thon
1 A
C W
D en
X ML
Î »
sh o
27 5
27 00
You tube
Ed ward
Whi te
3 12
5 G
7 30
D es
H L
O M
T BS
en a
ha s
me d
26 4
29 5
180 2
Fi rst
BL UE
bur g
publi c
Institu te
6 30
E nvi
G ro
T M
o ri
y er
Ã º
Ã ł
su al
18 22
28 8
ãĤ ¸
Pol y
J T
O ut
S um
Ù Ħ
mo nd
24 4
ãĥ ķ
va te
To m
IT F
2 D
O T
i se
v ar
x el
re turn
24 9
90 3
ve s
Ca p
Squ are
H ong
P ID
S eries
T his
Z a
Ä «
Å ¡
ya l
tu m
tu al
24 3
28 00
Ra p
Cu p
D el
F X
J en
J ump
N P
_ _
s ch
si g
chu ai
18 10
16 22
17 92
30 7
st s
70 1
SA RS
Fran k
PO P
Gran d
9 60
K in
S HO
V V
s ca
Î µ
di t
tu r
16 50
80 1
Pa la
Ch ro
MI UI
Cou nt
Tun es
2 100
C ur
H or
c ci
Ð ¼
18 26
ha ve
15 73
st ory
Ste p
Un der
7 47
J our
y on
bu t
te ms
18 34
30 4
22 6
27 8
ãĥ Ł
ãĤ Ĥ
ter i
37 5
180 5
Di e
AC T
AP P
AI R
Au to
Nor th
B ran
H A
K an
c ing
i ce
pu s
00 7
29 6
29 8
38 5
AT A
Blo ck
3 35
5 90
9 000
B or
C U
S ports
W N
m l
r ei
Ï ī
â ĭ
le t
ding s
ha d
17 80
22 7
ãĥ ł
You r
IF A
3 15
L es
O s
P ho
R ei
i i
i Tunes
p H
Â »
gai n
25 1
27 7
Re al
gh ts
CN N
2 A
O p
O ver
R FC
di n
di tion
zi ne
ma d
ma p
mo re
15 82
17 99
25 9
24 6
24 8
180 9
Dan i
Eng ine
5 30
C 2
C as
D LC
E i
Â «
er e
18 23
16 21
27 2
40 5
vi lle
AT ION
Sta te
180 3
Inter net
EE E
val ue
pre ss
3 34
6 20
7 70
B ou
C lo
C lass
G ol
H al
S G
W at
a pp
b re
r ch
16 25
28 4
28 5
in o
lt on
ãĤ µ
Mi t
con d
3 11
8 80
C le
S ony
U r
V I
v y
Ã ī
á »
25 8
for m
27 6
ãģ Į
Wi i
Mo on
Mo bile
Ba y
G ri
K O
O per
T ru
X T
t han
à ¦
ge t
or k
25 3
35 7
ter s
Ma ria
Ra y
Pu bli
6 60
B on
C li
I m
N M
S V
U L
e e
u ng
Ð ¹
ue l
ãĥ Ĺ
ST A
vi a
Al f
Do t
IP v
Ni co
Uni x
Sou th
Ang e
Boo k
Euro pe
5 70
G et
U 19
W F
b lo
h r
Ð ³
18 27
15 70
ãģ Ĥ
ga zine
ck s
ss on
vi ew
Pi er
3 14
3 DS
6 90
B BS
C 6
D SM
I EEE
M ou
M al
S B
W WE
t rans
ta s
18 17
16 40
16 36
rang e
26 8
40 2
40 4
ãģ ¯
Sou nd
whi ch
4 G
A X
T W
f y
f ri
g al
de i
17 75
25 4
46 5
at or
3 23
G al
H P
O P
T re
de a
ti na
lu tion
17 50
30 9
vi s
No w
3 29
6 70
J on
N u
P lus
shi ng
tu de
18 16
ka r
po li
za tion
ãĥ ģ
ãĤ £
45 00
fi eld
CO N
Be au
Po li
TO P
pri nt
Cu be
. -
7 10
9 10
9 50
D I
H am
M K
a p
o ther
la ris
lou d
24 1
23 00
cu r
Me di
Fi lm
IS BN
Wa y
tv N
3 26
A sia
F in
L y
T 2
c tive
t ti
à ½
en ce
cha r
15 92
34 7
75 8
Gi l
op le
A ra
D T
T ro
c ti
e ven
ma rk
tu ral
sa l
16 28
17 88
25 2
24 2
26 9
ãĥ ĭ
Ma y
nal d
fe a
Ti k
Chan nel
3 18
3 36
9 78
C B
D L
F esti
M US
N 2
O 3
R un
á ĥ
hu r
la m
16 27
17 83
17 91
28 9
40 6
35 4
IN N
Jo y
To k
Pi xel
Dis ney
âĸ ¡
velo p
Vis ta
A cade
E L
F 4
I B
L AN
L TE
N an
P T
W an
17 97
nu m
ï¼ »
ï¼ ½
55 6
Re search
Be at
Ci r
Gir l
Lou is
Soft ware
D MS
F re
O F
T H
a g
g is
t r
17 79
17 96
60 7
ãģ ¤
ãģ ł
35 2
180 8
con o
ER T
fe rence
km 2
mp le
Wor ks
NC T
Ali ce
Chris tian
âĭ ¯
3 21
3 37
A 4
C er
C ry
T 3
d ri
ni ght
18 29
sa r
17 78
17 94
28 3
me ga
27 3
ãĥ £
ãĥ Ĳ
ãĤ ¨
th ing
ca st
oo m
ct ro
Vi sual
Jo han
AS C
YouTu ber
Ch ine
Is land
Bat tle
wor ld
3 13
5 10
8 40
8 60
I l
M net
R ain
S in
Ã ±
Î ¸
en i
17 98
ãģ ¦
45 6
37 2
EC T
ctor y
age ment
Award s
sys tem
4 48
8 70
r or
mi t
re ss
re ad
15 80
16 12
16 34
17 87
28 1
26 7
ãĥ ĩ
fo re
ãģ £
lo st
ãĤ ¦
vi l
ver n
Ro yal
Hi ll
we b
mm y
Pre mi
Fo re
Glo bal
9 11
D G
D ai
F oot
M F
T N
â ĩ
li ke
ren a
15 67
16 48
27 1
lt ra
pe dia
Mar y
Ar ts
BO X
rai n
Spe cial
Scien ce
Envi ro
A H
D er
E 3
H un
L et
M M
W ei
Y ork
o i
s che
po p
re t
26 2
36 7
ck y
OS HI
gi c
AC E
Ki m
Com pu
EN T
AG A
Gre at
Qu a
- &
3 22
G or
M ON
O li
O TT
S al
V B
f la
hu s
si ze
ti fi
ni ca
bo n
po si
15 50
15 68
or d
16 15
16 30
for mation
28 6
ar r
ãĥ ĸ
co l
Ma gazine
Mo del
CH 3
Bro wn
Ama zon
Muse um
Dani el
Festi val
C AS
E nd
F ro
F BI
L G
O 4
S IG
T ou
U SA
d t
o le
p lan
de nt
li na
ke s
che s
16 45
16 46
ãĤ Ń
33 3
and y
CO LL
AR D
Se cre
Com muni
En core
Go d
ture s
On line
Tai wan
Que en
Tik Tok
MUS IC
A h
A mi
C at
T hun
c ka
g g
Ø ±
an i
16 26
26 1
29 7
lt h
35 5
An to
Dar k
Gener al
Chine se
3 28
8 20
C rea
M ur
P RO
S 2
S on
o ver
p ra
da l
16 37
24 00
70 5
90 1
36 4
38 4
37 8
44 2
Me mo
Wi ki
gi o
Po int
VID IA
6 18
A U
C BC
H B
N VIDIA
T 48
Ð ¡
Ñ ĭ
ri ne
que s
16 10
16 42
25 7
28 2
me t
26 00
Sta dium
Se a
Ca pi
Ba se
160 9
one y
lli on
Red mi
Ye ar
Tal k
Ado be
7 60
7 67
C AN
P et
S et
U 17
V C
W on
W ho
W hat
a f
b ps
l k
Ñ Į
de on
ci o
te ch
po ration
15 85
15 83
sa y
ãĤ Ħ
Co l
ca s
58 3
wi ki
180 7
AR M
Te X
ther n
Cy clo
Sys tems
Met ro
9 30
F al
F IFA
J U
K E
L ei
M el
O D
S che
a te
b s
hou se
16 23
27 4
Pa y
Ar chi
To wn
Ni ko
Ge o
ï¹ ĳ
H2 O
B ru
C hang
E ye
E OS
F IN
I EC
J uni
p es
ti um
15 71
17 84
26 3
50 9
29 3
st ein
die s
rou gh
35 1
do s
99 9
De ep
con st
Ne o
Uni on
ster n
Ke y
rs tea
ple x
oun da
2 200
4 28
A J
D un
G UN
p to
u ts
w ing
x x
ch t
16 20
17 23
17 86
50 4
ãĥ ¥
35 3
ve y
39 5
Mi ke
So laris
St ra
so me
pri vate
Phi lip
Cro ss
Jour nal
Dot A
4 19
4 32
A 3
C loud
F N
G L
H as
S W
Å į
ì ķ
an der
14 50
ãģ Ļ
Ma u
Li ttle
ct s
cou n
Studio s
4 27
C ine
F E
H IV
I ma
K 6
V in
V PN
a ce
h oo
Ä į
ge l
zi lla
15 77
16 18
16 43
38 7
39 9
be th
Lin e
LO VE
Fle et
Techno logy
3 17
3 31
3 45
5 12
5 65
A ven
B ai
C r
F I
H 1
M Y
R 2
S 1
U 18
U SS
U ltra
Ñ ı
li ve
mi a
te st
ba se
mo l
ha rd
15 86
17 77
14 53
80 6
lo t
CD MA
Sta ge
Ra deon
AL L
Ex p
Va lve
Child ren
3 27
4 11
4 90
4 45
4 46
5 35
A th
M 87
O f
R am
U 23
W ol
w here
Ã ª
li c
ci ty
ma te
mo del
chi e
se y
ce ll
15 21
or o
17 65
17 74
on o
39 8
49 9
Po st
Mu lti
Ta y
BM W
Cent re
Acade my
Juni or
4 16
E MI
H TC
K B
O mega
k W
m 3
p ter
s tu
Å «
di na
da s
16 16
nu s
70 7
36 9
39 7
Pa ss
Sta tes
Wi re
Jo e
tio na
Fe de
GP U
bili ty
Dy na
6 13
G un
N R
W O
W OR
Z A
n or
Î ·
Î Ķ
Ð Ĳ
da rd
ran a
gan i
15 64
17 85
cu l
36 8
TV BS
De mo
Mar ket
Bi o
Lin k
My SQL
mis sion
3 C
8 10
B T
J r
K h
L ar
S ara
W I
b rea
e u
g ni
i o
j or
Ð Ķ
he ad
ci n
ci fi
ba s
16 62
in clude
26 6
29 1
58 8
Di stri
Ne xt
Be ta
vo id
MO D
Cor poration
M1 A1
GUN DAM
3 16
5 37
6 21
7 42
C I
E 48
E ric
N D
T I
c ted
h l
i l
o pen
Ã «
Ù Ĩ
qu a
po int
15 40
15 74
17 72
28 7
60 5
45 4
38 8
34 3
be s
88 8
La w
Su b
Man agement
Fri ed
Alex ander
4 25
4 75
M X
O ther
S ui
S ar
f lo
o b
ti ne
lan t
12 50
16 19
16 29
16 83
29 2
ro s
36 3
37 6
ST S
55 2
68 6
Mi ss
La dy
Fi nal
ad d
Ar c
Ho w
Au gu
wer e
Dra w
Sco tt
Lon don
Cyclo l
6 27
B RT
D ol
F L
T ar
h t
Ð ±
ni co
ï¼ Ĥ
st d
to s
48 8
Ma s
Pa s
fi ni
Spo t
ðĲ Ń
Sp ring
4 49
5 A
6 25
7 38
C ul
F ron
H ER
L and
P B
R ue
S c
T ony
V ER
W ing
e a
p per
s ky
t ran
Ð ļ
an a
ri na
pu t
sha red
15 90
15 79
16 33
ãĥ Ĭ
fo x
lo g
ãĤ °
Li ght
Ro se
150 7
De sign
La ke
CH 2
Ani max
Ear th
4 12
L F
L R
S mo
S ca
S ON
V 8
Ð ¿
í ķ
en s
mi x
bo dy
la unch
16 31
16 80
17 73
29 4
40 7
cu m
ãĤ Į
39 6
33 00
Le o
Fa mily
160 4
Ha mi
An der
Par ty
PG A
Dri ve
9 80
A re
C 4
F old
G C
H on
K at
L M
a da
c la
i r
i ni
y l
Ä ĩ
É Ļ
ke d
ri al
ri us
15 75
16 97
17 55
14 92
80 5
36 00
Ma d
46 7
47 1
The o
Si mon
Se cu
pp y
mic s
Ad van
ï¹ Ĳ
SK E48
Rou nd
Sum mer
Thun der
0 x
3 19
H ei
J 2
S ti
S we
T hi
X C
bi o
ma tic
15 61
15 89
15 95
17 81
14 65
50 8
st re
ãĥ Ĩ
ãģ ²
34 4
58 9
160 3
160 6
160 7
ko v
CN BLUE
Ru by
Epi c
velop ment
4 15
8 55
9 40
9 70
I r
L un
u age
x 86
Ã ¸
Ã ħ
Ã Ł
à ®
man i
15 22
15 26
15 56
16 13
16 60
50 2
50 6
ãĥ Ģ
37 7
47 8
55 4
Mi che
Vi ta
mer cial
Ti m
TO UR
William s
cation s
Hy per
oun tain
Br ian
ìĿ ´
âĺ Ĩ
Ange la
Foot ball
4 17
5 25
9 20
9 25
L U
M oo
P on
U K
U RI
W el
c ard
l ding
w ho
z zo
Ù ħ
mi r
ni o
ba by
che d
su re
se cond
15 25
15 91
16 67
40 8
48 5
64 3
AM O
Fi esta
Ba ck
tt en
Ste ve
DO HC
Mon t
Por t
Af ter
3 24
4 22
5 15
5 38
5 34
F ounda
G ao
Q S
R ang
S 4
S han
S yn
V T
a h
m RNA
x e
z za
Ä ĵ
â Ĥ
15 10
16 38
17 30
on ly
pa l
me dia
ãĥ ĳ
34 2
39 3
47 9
150 8
Vi lla
Mo zilla
La st
HK T48
Wa ter
Wa lter
vo lution
Ameri ca
Sur face
Chu rch
3 200
5 31
5 46
C amp
C las
E G
G Hz
I TV
J er
M ei
M BA
T G
T oo
V S
b les
i PS
p he
u d
li sh
mo nt
tan a
202 8
15 43
14 57
36 6
38 1
39 2
vi e
Hi story
Je ff
pla ce
1 st
4 13
4 26
E du
F 3
G PS
K ha
L Z
N I
R us
S or
T han
U 20
W nt
f b
Ù Ĭ
le ft
gen t
15 65
15 59
15 87
15 97
âĢ ł
16 35
16 88
17 33
17 82
st ry
ra t
60 6
al d
co me
ãģ ĳ
37 3
In du
el la
Wi ll
Al bert
Ti mes
Au stra
John son
tor y
sco re
Jan e
Coun cil
5 24
6 12
8 90
B y
F S
J im
M R
S ol
T ran
U D
i ts
l low
Â £
Ð Ł
Ñ ĩ
te x
lv a
15 88
15 98
50 7
al so
Co s
64 1
Re p
49 5
68 2
66 6
amp le
Com mon
CL A
sco pe
Pla ce
Tele gram
Pier re
Founda tion
3 32
4 A
4 K
4 35
5 75
7 90
A stro
B ad
T MA
e se
o la
an s
en do
li ty
bi rd
ti sh
ti ca
na r
15 23
15 35
16 49
16 61
17 70
14 99
nu mber
ra m
ãĤ ¬
ãĤ ı
36 1
46 6
39 1
.. ..
vi ces
55 1
fi nal
Mo der
Po d
160 1
PC I
ali ty
TO K
Fran cis
Ac Fun
tro l
Fla sh
wor th
cra ft
Won der
5 28
5 500
9 90
A nt
B ang
H TT
g ne
mi tte
ma ster
men tal
wo rd
15 11
17 60
17 69
in du
sou r
35 8
37 1
46 9
el low
68 4
58 7
Di a
St ory
pp m
SM AP
And rew
tri bu
Ed ge
ac tive
Gol den
Exp lor
5 48
A W
K ai
L ui
L oo
M AC
e xt
o ni
s ma
t hen
ei l
ch y
200 00
10 80
15 000
15 76
15 94
16 89
36 2
38 3
ll en
TC P
34 1
Mi s
NA SL
Pro gram
ki a
Se ven
cou nt
Sou l
Bri dge
Ang el
kin s
Mat the
Europe an
9 21
B un
L 1
M MC
N EX
R B
T as
U FO
V F
e f
z ar
ð ª
ri t
liu s
tou r
ce p
18 11
15 17
15 14
15 78
15 52
âĢ ķ
16 39
16 84
60 8
co s
to p
34 9
64 4
55 7
58 5
59 7
So me
No t
gin s
ther s
Dan ce
Eli za
Gam er
temp late
Step hen
Tay lor
3 48
4 36
5 49
A ST
B et
C re
D NS
F red
L am
R N
S pa
T F
b la
i c
si t
po ly
17 63
13 50
in te
ï¼ ĭ
40 3
90 8
Ma rie
do re
65 00
Ro man
150 5
Me ga
Vi ew
77 7
Ga ga
Te st
ki e
Ca st
Con ne
MG 42
Christ op
yon d
vern ment
5 47
5 67
6 68
A po
C 5
F ai
F AN
J us
K on
N K
T 4
Y OSHI
f is
p el
p pe
Â ³
Ñ ĸ
te c
na s
10 50
se l
tan t
po s
16 14
17 20
37 4
Co V
49 4
ver se
ly n
Ne ver
Ar ti
ID E
Hi t
Ki t
IP S
PS P
Pe ople
UN IX
San ta
Ju st
âħ ł
Phi l
Fra me
IPv 4
Explor er
5 14
5 22
5 45
5 68
6 19
6 75
B lu
C SS
D 1
E BU
J or
K T
M ountain
b n
un e
si e
si ness
la u
se a
15 16
15 13
15 34
15 47
15 69
16 V
14 60
st one
cu la
ãģ §
35 9
ter a
75 7
64 2
58 1
150 2
ction s
Ra w
So lo
Ge Force
à¸ £
SO HC
Ph y
Sun day
Art hur
Kar l
COLL AR
mitte e
4 18
4 14
4 24
4 33
5 44
A lan
C J
D TS
F 2
I nv
J O
M MO
P EN
T wo
T rue
X IV
r ian
w y
Ð Ĵ
er ing
si ve
ci ne
lan ds
man d
17 31
17 68
17 71
14 90
hei r
ne ws
40 9
ãĥ ı
60 4
80 2
ãĤ ±
ãĤ ĩ
ãĤ į
38 9
75 00
39 4
be en
47 6
49 3
Mo d
us ta
Be ll
ER O
Bo x
Hi p
Ri ft
Wor k
AG E
Pri me
pre sen
FO X
sor t
whi le
JT BC
âĩ Ķ
Cine ma
Aven ue
4 31
5 39
7 45
A ri
A BS
B re
D ro
E O
E ver
I ta
K er
L ord
O h
V 6
j q
s k
s ka
Ä ±
li ca
bo w
mo s
15 93
17 24
17 52
14 69
14 98
13 70
ro ws
ãģ Ī
ga te
38 2
75 5
46 4
44 4
57 1
150 1
Vi ctor
De velopment
Mo de
no va
gi nal
Na me
Ki ds
PS 3
pro t
Ex press
Cou rt
Bri tish
Dra gon
AGA SA
Fried rich
6 46
6 67
A sh
A lt
C IA
D 2
G W
H ard
I RT
K ei
M 6
X F
Z J
a po
b our
c z
c ca
e st
f ree
de x
ou ld
ti fy
she d
min e
na ment
15 20
15 60
15 53
16 51
17 40
14 93
60 2
90 4
to wn
ck ing
In telli
Re a
49 6
49 8
44 3
Vi a
Wi th
us er
Bo ys
Fa mi
MA N
Ho tel
Do nald
An na
UN G
AG UE
LE AGUE
qui d
Fire fox
Dou g
à¥ į
Ath lon
6 11
6 45
9 45
A pa
A gain
C 1
C BA
D EC
E a
N at
O ld
Q U
T el
T AM
U 2
t wo
u te
w is
x a
Ã ¥
á º
ai s
er gy
bi a
chang e
ma de
15 96
16 32
16 79
17 18
17 35
17 45
17 58
25 G
ï¼ Ŀ
lt y
cu lus
ãĥ ¡
90 7
ãĤ ģ
ãĤ Ĩ
Ma chi
58 4
150 6
De ar
Wi ld
Si de
Ne u
Ba by
160 5
We ek
nve st
pro du
RE AM
Ele ctro
Stan dard
Cent ral
Hea lth
Ada m
sio nal
Christop her
YOSHI KI
0 50
4 39
5 33
7 31
7 32
7 41
7 62
9 62
C ree
D al
E ve
G in
H 3
I CD
N U
N um
R CP
S hu
S and
T L
T ha
U CLA
W ood
a y
j an
Ï ħ
â Ļ
er t
ti ce
ze d
12 60
15 66
17 25
17 48
ãĥ Ħ
70 6
ãĤ Ī
ãĤ Ĵ
45 7
37 9
do or
75 6
ca se
In fo
ss or
55 3
67 3
Li st
Li ber
57 4
57 6
Vi sion
98 5
gi a
Bi r
97 3
pri se
Jack son
Alpha Fold
Mit che
Capi tal
Fleet line
Angela baby
Matthe w
5 16
6 17
6 39
7 22
7 35
D U
E cono
H MS
P 2
S ty
c ter
e b
g lo
n p
á ¸
20 50
ce l
15 28
15 72
16 52
17 27
17 61
13 68
ra s
ãĥ ¯
ãĥ İ
al s
35 6
70 4
48 2
65 5
br ary
Ro bin
AR E
Fi sh
To wer
sta te
Com mittee
Pi e
mp son
BL E
Har ry
Pre ss
Min d
Jon es
Ander son
Gao n
Eliza beth
4 47
8 63
9 26
9 61
C ru
J uan
L X
R ATP
S el
S port
T win
V P
W W
c rea
g or
n ers
v or
w el
z ing
de fea
la d
la de
mo d
15 31
15 38
16 47
16 81
in to
80 3
the y
70 8
ãĤ ĥ
45 2
45 3
Co lspan
be d
65 1
58 6
57 2
150 4
Le on
Be yond
ED G
AP G
Ba sic
IC A
fe ssor
170 1
ali s
HO ME
Dis co
cc ff
cc ccff
Eng lish
Pat rick
Gar den
Wo men
fra me
FIN AL
3 M
4 38
5 11
9 33
I LE
J am
S wi
S our
S NC
c ta
Î ©
Ð ·
Ø ª
ì ļ
sh op
li t
xu s
su m
lin k
15 30
15 37
17 36
ï¼ Ĩ
60 3
80 8
Co lor
46 1
46 8
vi ty
68 1
ki t
ON G
170 9
Car l
Ke vin
Sou thern
Game Spot
Twit ch
Ab du
Java Script
Direct X
Moder n
3 G
5 41
6 29
6 48
7 25
C AR
E LE
M ain
N N
N PC
P 4
R h
U RE
a mi
g ran
m bo
o van
v at
Ñ ħ
xi s
di re
er y
te am
su l
su per
re do
15 19
15 29
15 55
16 87
17 28
me l
me ter
ãĥ Ŀ
lo ca
90 5
48 4
Ma ker
be fore
65 3
55 9
49 1
67 9
Ro y
fi sh
79 6
OS S
Si lver
tt on
Sa u
MA D
Con cer
cke tt
UR L
AO A
Ya hoo
Spo tify
cture s
Prin ce
ASC II
Omega T
Frame work
prot ein
Mitche ll
4 23
5 36
6 32
7 15
8 25
8 33
A us
A rea
B 3
B rea
C AL
D 9
F low
G RO
J es
K 2
M oney
M bps
N ar
R DS
T hat
d f
p l
li b
li m
si ble
si cal
20 35
ri um
se u
11 20
wa rt
17 67
lo ve
47 3
49 2
66 1
56 2
Vi ole
De bian
De ad
as o
Bi rd
PS 2
An ne
Ed die
Her o
TR A
Zi co
sig ned
Chro me
Count down
Oper ation
Secre t
TOK YO
Viole tta
3 39
4 29
5 32
6 65
7 75
7 69
B and
D 5
F on
J I
O ff
R 1
R F
R ing
R on
S NS
T ol
Y an
g ma
Õ ¡
de lla
ou nd
ti er
ba t
men tary
su ch
lv in
se e
12 20
15 45
16 64
16 59
17 19
14 95
14 96
13 88
st or
70 2
70 3
do w
ST ATION
vi r
hi m
68 9
Mi l
Mi x
Li ke
69 2
79 8
Ja co
Fi l
ER S
sta l
St or
AN D
An ti
An th
gra phy
Ste ven
Fe li
IF F
Hen ri
Rai l
cifi c
Clas sic
0 10
4 34
6 36
7 29
7 61
8 78
A ction
B us
E 1
E ri
E 231
G EN
H and
I so
K ur
L 2
L en
M ang
M us
P AGASA
R K
Z ERO
b ble
o is
p res
Ð ĳ
Ð ľ
Ñ Ĩ
ì Ĺ
shi on
ian a
ri te
lai r
se ll
gen e
15 46
15 49
15 62
16 70
16 90
16 54
16 53
16 94
17 59
14 66
ar tic
ãĥ ¢
80 7
70 9
45 8
ga me
46 3
55 5
hi gh
59 6
66 2
Pa ris
gi e
con stru
Se e
St ri
Ha ppy
Cha l
Inter active
John ny
fli ght
Vo ice
Gu ard
Fo x
Ken ne
FA ST
Bui ld
HTT P
1 2000
5 27
6 38
6 69
7 12
7 11
B P
D REAM
H ein
I ng
I MAX
K 11
L V
M 5
N CC
R SA
Z en
k on
o v
o li
p et
Î ¬
di ca
ri sh
le e
la st
su ng
ce pt
wo n
15 58
15 81
17 38
14 74
13 75
pa ss
ST AT
47 7
In te
The re
68 000
AT E
59 5
59 8
59 9
57 8
Sta rs
Mo re
Ga lant
sta rs
160 8
Cha rt
EP A
pro gram
den ce
au to
EX ILE
GP L
Sam uel
NM B48
5 21
6 28
6 22
7 21
8 67
8 77
9 65
B Y
F 5
G on
J et
O ST
R X
S r
S chi
S UP
V EN
W P
Z Z
a th
e z
f in
f es
de pen
ri l
le m
she ll
bo ra
la ti
12 80
âĢ ³
16 65
17 32
17 44
17 56
14 89
14 87
13 40
000 rpm
cu lar
ãĥ ĵ
90 6
ãĤ º
45 1
99 7
ws ki
gi na
Pro to
Ja c
St ru
Play er
Bu siness
Chi ll
cke ts
pri n
Ani me
Wil son
SHO W
Mou nt
Fore ver
Secu rity
Sour ce
2 nd
5 19
5 17
6 24
6 23
8 35
8 76
9 38
9 54
9 51
A p
B 9
C AP
D 3
E U
F w
F ly
G DDR
I MD
L CD
N er
N IC
Q t
R yan
Y F
h in
s se
v as
w ould
y d
Ð ĺ
ð ¤
li fe
di ne
fa r
le u
ye ar
mu m
tu ra
mo de
se ed
mai l
15 24
15 32
15 84
16 58
16 57
16 99
17 62
13 37
ï¼ ŀ
ter o
47 2
47 4
64 9
49 7
68 7
68 8
69 8
Ro ber
57 9
78 4
Jo na
Da ve
Bi ke
Ho lly
140 6
Car los
DS P
à¤ ¾
SH IN
Cla u
Sma ck
âĺ ħ
Publi c
Compu ter
MON STA
Tou ch
ht ml
Smo sh
Apa che
0 54
6 16
7 19
8 65
9 46
9 88
D H
G 1
H 4
H 10
K y
P ha
S 3
S b
W HO
X G
Z o
b b
e g
u sed
Ã ¦
Ï Ĩ
mi cro
ci d
la w
san a
po wer
re l
wa ys
sa ge
16 68
17 39
17 64
for mat
fo llow
do x
Re s
300 00
Li brary
wi ll
78 7
Fi le
Al bu
PS V
Ta ke
170 2
Hu man
LL VM
tri e
Mer cu
Sen se
rows pan
Smack Down
0 52
4 21
4 37
6 14
6 26
6 37
8 15
8 16
9 75
B in
E cho
G F
I f
I ce
J P
M es
Y A
Z O
c li
d ley
k ha
Ð ł
ë °
en e
bi s
ti l
ri son
lei n
mo st
00 00
12 75
15 36
pan i
16 75
14 64
ra te
45 5
IN D
67 1
67 8
Jo s
Pro fessor
Te x
Ca ta
Fa shion
Bi t
St one
Hi sto
Gi ovan
Lin er
170 5
TO WN
App li
She et
lea se
KK BOX
Christ mas
fun ction
Champion ship
Lang uage
sca pe
Alf redo
af ter
5 42
6 34
8 21
9 12
C IT
C fb
D X
D ur
E di
H at
H PV
M OS
M IT
N XT
S Y
S pin
S IM
W H
W ong
c am
f le
g he
g roup
v ai
Ï ĩ
â ģ
ã ħ
ì Ħ
he a
lian ce
la tive
ma y
gen cy
re c
15 63
or t
16 17
16 63
16 85
17 53
on s
14 77
13 80
50 3
80 9
ãģ İ
the re
lo ck
ãĤ ½
48 3
48 6
Ma ch
Ma ke
Ma te
75 4
ca t
be ca
be at
65 6
The at
Re v
Mi d
67 6
AT X
SA N
78 5
56 1
NA S
AR K
AR P
Fi eld
Si ri
Mar s
ki yo
AC H
Bo ard
So cket
IP TV
AN G
We stern
à¸ ²
UN ES
Au dio
ron o
Fran ces
Mor ning
RC A
Colle ction
Han s
Space X
Fan ta
Af ri
TW ICE
Cir cle
Crea tive
Mel on
Wol f
Indu stri
SUP ER
2 DS
5 18
5 26
5 66
7 16
7 14
7 65
7 64
7 44
8 26
8 47
9 18
9 36
A bu
A ce
B ei
B NO
C in
E very
G I
I an
K ra
M RI
N am
R P
S UN
V IP
W TT
Y i
h p
i nv
o wn
Å Ĥ
Ù Ī
â Ĭ
ë ¦
ð ¬
an t
ci ous
du s
mu lti
te en
ma ry
10 24
16 69
16 56
16 72
16 92
17 54
14 20
14 80
in k
lve t
75 1
ca p
65 8
vi o
59 4
wi ck
79 1
Wi t
AM C
AM P
Ca the
Ri ght
Su l
IT A
170 4
170 8
Wa re
Wa ve
For t
AG P
ML B
Her e
Fu ture
DM R
Sh ine
Cla rk
Plan et
logi cal
part ment
Fron t
Moo re
2 B
7 13
7 27
7 48
7 68
8 75
9 15
9 29
9 47
B IG
C YP
E BS
F rom
G ian
I sa
I SA
J ason
N ICO
O ME
R 3
S ter
T rai
U F
V IS
X III
a w
i or
s ki
s yn
u er
x c
Ð ¢
Ø ³
an ti
un der
bu ry
chu s
hou t
te au
ma ri
10 75
12 77
12 79
12 76
11 11
14 40
14 88
14 72
13 71
ro ad
ãĥ §
90 2
48 9
In dian
69 9
99 2
88 1
98 6
tw e
Ja y
con fi
con tribu
AP M
160 2
com mercial
go s
Bu g
Inter play
cro ss
AI M
RE AS
CR H5
Gre g
Vo gue
Ver sion
Wal ker
Wil he
dd le
Ji mmy
Bui lding
Oper a
Distri ct
Thunder bird
Swe et
Fil ms
0 30
6 33
7 78
8 12
9 55
9 57
C 3
C 14
E Y
F ol
L NG
L IF
M IC
N Y
N int
P OS
R SS
S AT
T am
T NT
V ar
W here
a to
c co
d 4
g li
s po
t su
t heir
Ã ½
Ø ¨
Ø ¯
shi re
en ds
da d
ti no
ri ce
ci es
lai n
ban d
min al
la un
tu ry
00 2
00 4
12 30
long i
15 27
16 11
ãģ Ľ
48 7
ve ment
IN T
In formation
vi ch
vi er
55 8
68 5
ho l
57 7
78 1
Pa ge
per t
79 2
79 4
Wi MAX
98 1
CO 2
AR C
Ja lan
Si x
Sa y
fe ct
mer s
Ni ck
Ge mini
En ergy
Ste wart
112 2
RE S
ES PN
Tri ckett
As ian
All en
Sto p
Tho mpson
Por table
Ve lvet
Qui n
sho w
ìķ Ħ
Jona than
ð¬ ĵ
Nint endo
0 70
5 43
6 15
7 17
8 28
8 39
9 39
A zu
B as
C el
E 2
F D
G 2
G G
G y
K S
M ED
N 1
P ur
Q uan
R Y
S 7
U FC
V 1
V 2
X i
a ve
b ui
e sa
m 2
p pa
t ent
ã İ
ê °
da le
ti ful
pi s
ma jor
ba sed
wa ter
15 12
15 41
16 66
17 21
17 26
17 37
17 47
17 43
17 41
14 30
25 000
me di
ra d
48 1
Ma tch
67 4
Li quid
69 7
ho st
88 9
De uts
fi t
98 2
98 9
Ti tan
PC R
à¸ Ļ
AV E
Hu b
Ad ven
NH S
Gra ce
She r
Enter prise
hy th
Production s
Bru ce
Doug las
2 TV
5 13
8 46
8 66
8 57
B 12
C ong
F air
G ary
H Y
J 1
J XG
O culus
T D
W M
a gain
e y
k Hz
ng e
ke e
mi um
qu ali
bo v
ba ch
na e
12 17
12 74
gen er
po nen
15 15
15 42
17 12
17 11
17 15
14 35
14 56
13 28
13 85
for man
pa s
co la
ãģ ¶
48 00
do l
34 00
II T
Ro sa
Ro ger
150 9
Sta ff
as y
gi r
Di ck
Windo w
IS C
97 1
Ki ll
Ha y
No ve
AS H
Net scape
tal k
IG HT
Sho p
GP 40
Dra ma
hy dro
bri dge
nic s
Sur f
Pen tium
face book
Ten nis
Prin cess
Pin k
Del ta
SHIN ee
0 55
6 47
7 28
7 26
8 11
9 13
B run
C Z
C CD
C OS
H ai
I a
M g
P r
S ang
S now
T AI
U ta
W ai
W er
W oo
Z ero
c tus
d one
k ra
o c
p r
z zi
Î ¯
Î ¶
ian o
ta ge
ci sion
pi a
ni ty
sha rk
11 50
15 44
17 57
14 24
14 70
14 54
ar ray
29 00
ro om
90 9
45 9
37 00
75 9
Co o
be t
ST ER
67 2
58 2
AT S
ver s
ho me
59 1
99 3
SA P
gi on
Di vision
Lo st
Bo w
mer al
Ki r
Ni cho
Ta c
pro ject
shi Ġ
de Ġ
Ġ shiĠ
Ġ deĠ
yi Ġ
Ġ yiĠ
ji Ġ
wei Ġ
zhi Ġ
yu Ġ
Ġ weiĠ
Ġ jiĠ
Ġ nian
Ġ zhiĠ
Ġ yuĠ
Ġ li
Ġnian Ġ
zhong Ġ
Ġli Ġ
zai Ġ
Ġ you
ren Ġ
guo Ġ
he Ġ
qi Ġ
bu Ġ
Ġyou Ġ
di Ġ
Ġ zaiĠ
Ġ renĠ
Ġ yue
Ġ zhongĠ
Ġ heĠ
da Ġ
xi Ġ
xing Ġ
yuan Ġ
gong Ġ
er Ġ
Ġyue Ġ
fu Ġ
si Ġ
ge Ġ
jian Ġ
Ġ guoĠ
wu Ġ
jia Ġ
Ġ buĠ
jie Ġ
ke Ġ
cheng Ġ
zhu Ġ
sheng Ġ
xiang Ġ
xian Ġ
dao Ġ
bei Ġ
zi Ġ
Ġ qiĠ
fa Ġ
chu Ġ
hui Ġ
jin Ġ
Ġ diĠ
shu Ġ
Ġ erĠ
ri Ġ
Ġ xiĠ
qu Ġ
zheng Ġ
ju Ġ
hou Ġ
shou Ġ
ming Ġ
shang Ġ
dong Ġ
jing Ġ
ta Ġ
le Ġ
xue Ġ
fang Ġ
yan Ġ
zhan Ġ
ci Ġ
bao Ġ
hua Ġ
ying Ġ
Ġ daĠ
tong Ġ
ye Ġ
zuo Ġ
zhe Ġ
guan Ġ
Ġ riĠ
yin Ġ
chang Ġ
xin Ġ
jiao Ġ
lu Ġ
dui Ġ
wen Ġ
ti Ġ
fen Ġ
qian Ġ
tai Ġ
jiang Ġ
xiao Ġ
Ġ siĠ
bing Ġ
jun Ġ
dian Ġ
zhang Ġ
ping Ġ
xia Ġ
du Ġ
huo Ġ
yong Ġ
Ġ keĠ
Ġ jiaĠ
Ġ dan
gai Ġ
wang Ġ
hai Ġ
ru Ġ
dai Ġ
nan Ġ
qing Ġ
mu Ġ
bi Ġ
ban Ġ
liang Ġ
Ġ fuĠ
lai Ġ
ya Ġ
shen Ġ
mei Ġ
Ġ xingĠ
zu Ġ
wan Ġ
lian Ġ
she Ġ
min Ġ
mi Ġ
zhou Ġ
qiu Ġ
jiu Ġ
an Ġ
Ġ taĠ
zhen Ġ
ben Ġ
gao Ġ
xu Ġ
Ġ gongĠ
Ġ daoĠ
bo Ġ
luo Ġ
bian Ġ
xie Ġ
te Ġ
yao Ġ
deng Ġ
duo Ġ
Ġ xianĠ
yang Ġ
quan Ġ
che Ġ
zui Ġ
ling Ġ
tian Ġ
gu Ġ
xuan Ġ
suo Ġ
fan Ġ
yun Ġ
Ġ geĠ
Ġ bingĠ
dang Ġ
hu Ġ
shan Ġ
ĠdeĠ yiĠ
fei Ġ
sai Ġ
ding Ġ
biao Ġ
zong Ġ
kai Ġ
liu Ġ
ma Ġ
ba Ġ
hao Ġ
su Ġ
kou Ġ
tu Ġ
mian Ġ
men Ġ
you Ġ
Ġdan Ġ
lei Ġ
la Ġ
feng Ġ
nei Ġ
cai Ġ
jue Ġ
wai Ġ
Ġ beiĠ
Ġ jianĠ
Ġ jinĠ
pai Ġ
chuan Ġ
chi Ġ
ĠshiĠ yiĠ
guang Ġ
lan Ġ
san Ġ
ni Ġ
gui Ġ
bai Ġ
Ġ ziĠ
Ġ xiangĠ
Ġ zheĠ
lin Ġ
ting Ġ
pu Ġ
Ġ zhuĠ
neng Ġ
lun Ġ
gang Ġ
han Ġ
na Ġ
lie Ġ
cheng ĠweiĠ
ze Ġ
Ġ yinĠ
mo Ġ
Ġ chuĠ
ĠshiĠ deĠ
mei ĠguoĠ
chan Ġ
shui Ġ
Ġ juĠ
Ġ chengĠ
ĠdeĠ shiĠ
Ġ jieĠ
Ġ gaiĠ
Ġ wuĠ
sui Ġ
Ġ baoĠ
zhuan Ġ
xun Ġ
Ġ pingĠ
Ġ ta
lv Ġ
ao Ġ
zhuang Ġ
tou Ġ
li Ġ
duan Ġ
ĠyiĠ jiĠ
dan Ġ
se Ġ
huan Ġ
chong Ġ
ĠweiĠ yuĠ
pin Ġ
e Ġ
ceng Ġ
cong Ġ
cha Ġ
di ĠyiĠ
cun Ġ
zao Ġ
Ġ houĠ
kong Ġ
dou Ġ
zhao Ġ
a Ġ
gou Ġ
Ġ ciĠ
gan Ġ
sha Ġ
qiang Ġ
ĠshiĠ jiĠ
chao Ġ
meng Ġ
kai ĠshiĠ
man Ġ
tang Ġ
long Ġ
kuo Ġ
Ġ faĠ
Ġ yuanĠ
1 Ġ
ai Ġ
ke ĠyiĠ
ĠyiĠ geĠ
ce Ġ
Ġ yeĠ
tan Ġ
tuan Ġ
Ġ shengĠ
Ġ mingĠ
ĠshiĠ weiĠ
gong ĠliĠ
ĠzhongĠ guoĠ
ka Ġ
Ġ bing
Ġ tong
qin Ġ
tie Ġ
ĠshiĠ shiĠ
zhengĠ fuĠ
can Ġ
shao Ġ
pian Ġ
huo ĠdeĠ
mian ĠjiĠ
hang Ġ
hong Ġ
geng Ġ
Ġ huoĠ
ji ĠdeĠ
tiao Ġ
ĠshiĠ yongĠ
xiu Ġ
chen Ġ
shuo Ġ
pi Ġ
2 Ġ
Ġ dongĠ
ren ĠweiĠ
ĠshiĠ jianĠ
ran Ġ
tao Ġ
zhi ĠyiĠ
huang Ġ
zhong ĠdeĠ
zheng ĠzhiĠ
ĠyiĠ zhiĠ
ĠshiĠ jieĠ
Ġ ri
chuang Ġ
nv Ġ
zhongĠ guoĠ
yue Ġ
qu ĠdeĠ
guo ĠjiĠ
yi ĠshiĠ
ĠpingĠ fangĠ
wo Ġ
xing ĠdeĠ
po Ġ
Ġ miĠ
renĠ kouĠ
Ġ shouĠ
rong Ġ
jinĠ xingĠ
Ġ suiĠ
liao Ġ
diao Ġ
mei ĠyouĠ
tuo Ġ
song Ġ
ou Ġ
Ġli ĠdeĠ
nian Ġ
Ġli ĠshiĠ
Ġ dang
ĠweiĠ yuanĠ
Ġ fenĠ
Ġ wanĠ
pei Ġ
ĠqiĠ zhongĠ
zuo ĠweiĠ
biao ĠshiĠ
fa ĠguoĠ
Ġ er
ĠĠĠ zaiĠ
yanĠ jiuĠ
zheng ĠshiĠ
Ġ shangĠ
Ġ yin
Ġyou ĠyuĠ
ĠdeĠ jiĠ
pan Ġ
Ġ haoĠ
qie Ġ
tui Ġ
que Ġ
Ġ zhe
dian ĠshiĠ
yunĠ dongĠ
Ġ xinĠ
bang Ġ
Ġ haiĠ
Ġ taiĠ
Ġ meiĠ
ĠdeĠ diĠ
cheng ĠshiĠ
zhi ĠshiĠ
Ġ shuĠ
Ġ jingĠ
Ġ jiangĠ
jian ĠdeĠ
ta ĠdeĠ
gong ĠheĠ
shu ĠyuĠ
she ĠjiĠ
Ġ qianĠ
gongĠ siĠ
ĠrenĠ kouĠ
lang Ġ
Ġ yingĠ
ĠrenĠ minĠ
dun Ġ
zhi ĠdeĠ
qiao Ġ
10 ĠyueĠ
12 ĠyueĠ
ĠdeĠ zhiĠ
jing ĠjiĠ
7 ĠyueĠ
dianĠ yingĠ
Ġ xiaĠ
Ġ nanĠ
zu ĠzhiĠ
Ġ zhangĠ
9 ĠyueĠ
Ġ muĠ
8 ĠyueĠ
zhu ĠyiĠ
3 ĠyueĠ
Ġ zuiĠ
1 ĠyueĠ
mao Ġ
wa Ġ
ĠshiĠ qiĠ
5 ĠyueĠ
daiĠ biaoĠ
riĠ benĠ
ying ĠguoĠ
ji ĠshiĠ
kao Ġ
6 ĠyueĠ
3 Ġ
Ġyou ĠyiĠ
kan Ġ
guo ĠdeĠ
4 ĠyueĠ
Ġ huiĠ
ĠshiĠ zhenĠ
hen Ġ
mai Ġ
xian ĠdeĠ
Ġ tongĠ
Ġ biĠ
wei ĠyiĠ
11 ĠyueĠ
jiao ĠyuĠ
cheĠ zhanĠ
gen ĠjuĠ
yi ĠdeĠ
yu ĠshiĠ
ming ĠweiĠ
buĠ fenĠ
xueĠ yuanĠ
re Ġ
ĠyiĠ yuanĠ
ĠdeĠ guoĠ
Ġ ruĠ
li ĠshiĠ
ĠdeĠyiĠ geĠ
gen Ġ
ĠzhiĠ houĠ
ĠnianĠ 1ĠyueĠ
xiangĠ gangĠ
Ġ dengĠ
can ĠjiaĠ
cao Ġ
kang Ġ
ĠyiĠ weiĠ
daĠ xueĠ
sheĠ huiĠ
Ġ ye
Ġ tiĠ
xian ĠshiĠ
ĠdiĠ quĠ
sa Ġ
Ġ qingĠ
yingĠ xiangĠ
shu ĠdeĠ
taiĠ wanĠ
Ġ yanĠ
Ġ xueĠ
shang ĠdeĠ
xing ĠshiĠ
qi ĠshiĠ
formula Ġ
bie Ġ
Ġ ran
ĠyinĠ ciĠ
guan ĠliĠ
Ġ xiaoĠ
zeng Ġ
lao Ġ
le ĠyiĠ
ĠnianĠ 12ĠyueĠ
tong ĠguoĠ
bu ĠdeĠ
wei ĠshiĠ
Ġnian ĠdeĠ
xingĠ zhengĠ
gongĠheĠ guoĠ
er ĠshiĠ
Ġ liangĠ
ren ĠdeĠ
zhun Ġ
ĠliĠ yaĠ
zi ĠjiĠ
da ĠdeĠ
xiong Ġ
2 ĠyueĠ
5 Ġ
ĠguoĠ jiaĠ
zui ĠzhongĠ
ĠnianĠ 3ĠyueĠ
4 Ġ
hui ĠyiĠ
ĠĠĠ shengĠ
cheng ĠliĠ
ĠpingĠfangĠ gongĠliĠ
Ġ jiaoĠ
ĠdaĠ xueĠ
ku Ġ
luo ĠsiĠ
ĠnianĠ 7ĠyueĠ
kuang Ġ
ĠnianĠ 10ĠyueĠ
miao Ġ
Ġ wangĠ
chu ĠdeĠ
Ġ zhanĠ
Ġ lingĠ
faĠ xianĠ
ha Ġ
ĠbaoĠ kuoĠ
qi ĠdeĠ
Ġ tianĠ
gongĠ zuoĠ
faĠ zhanĠ
ĠshiĠ zhiĠ
ĠnianĠ 9ĠyueĠ
yuan ĠdeĠ
ĠnianĠ 5ĠyueĠ
ĠshiĠ zaiĠ
hei Ġ
ĠqiĠ jianĠ
piao Ġ
qiĠ taĠ
kuai Ġ
si ĠdeĠ
Ġ boĠ
ĠnianĠ 4ĠyueĠ
ĠnianĠ 6ĠyueĠ
ĠnianĠ 8ĠyueĠ
tieĠ luĠ
suo ĠyouĠ
Ġ luoĠ
dao ĠzhiĠ
dao ĠdeĠ
tong ĠdeĠ
cheng ĠdeĠ
Ġ zhengĠ
quan ĠguoĠ
ĠtaĠ menĠ
can ĠyuĠ
shuang Ġ
nuo Ġ
lou Ġ
wenĠ huaĠ
Ġ huaĠ
Ġ luĠ
Ġtong ĠshiĠ
Ġ duiĠ
di ĠliĠ
bu ĠshiĠ
zhong ĠyiĠ
ĠyouĠ xiĠ
Ġ sui
lian ĠheĠ
di ĠdeĠ
ĠnianĠ 11ĠyueĠ
ĠzhiĠ daoĠ
Ġ dangĠ
baoĠ kuoĠ
Ġ zuoĠ
Ġ shenĠ
ĠzhongĠ xinĠ
ĠĠĠ shiĠ
ĠdeĠ zhuĠ
yin ĠyueĠ
Ġ maĠ
sen Ġ
shu ĠjiĠ
yong ĠyuĠ
Ġ changĠ
Ġ jiuĠ
ĠĠĠ yiĠ
dan ĠrenĠ
bei ĠbuĠ
Ġ guĠ
zai ĠyiĠ
tiĠ gongĠ
ĠweiĠyuanĠ huiĠ
zuĠ qiuĠ
guoĠ jiaĠ
wenĠ tiĠ
Ġnian ĠzhiĠ
kuan Ġ
ĠshiĠ wuĠ
xuan ĠbuĠ
Ġyin ĠweiĠ
ĠshiĠ zhongĠ
xueĠ xiaoĠ
sheng ĠyuĠ
jian ĠyuĠ
fang ĠshiĠ
qianĠ miĠ
Ġ quanĠ
guan ĠxiĠ
gong ĠyouĠ
ĠweiĠ zhiĠ
hun Ġ
ĠnianĠ 2ĠyueĠ
rang Ġ
Ġ zongĠ
Ġ xuĠ
hua ĠrenĠminĠ
chengĠ yuanĠ
Ġ dianĠ
jianĠ zhuĠ
ying ĠdeĠ
huoĠ dongĠ
Ġ gai
biĠ saiĠ
jian ĠliĠ
tong ĠshiĠ
yu ĠyiĠ
suan Ġ
ren ĠshiĠ
en Ġ
nong Ġ
ĠĠĠ liĠshiĠ
ji ĠyiĠ
zi ĠyouĠ
fen ĠweiĠ
heng Ġ
ĠdeĠ renĠ
guanĠ junĠ
zuoĠ pinĠ
Ġ xian
she ĠyouĠ
Ġ benĠ
da ĠliĠ
Ġ chengĠweiĠ
ĠĠĠshengĠ pingĠ
ge ĠrenĠ
Ġ anĠ
Ġ jie
zhuan ĠjiĠ
jiu ĠshiĠ
6 Ġ
ĠdiĠ erĠ
beiĠ jingĠ
xiao ĠshiĠ
ĠjiĠ huaĠ
yu ĠdeĠ
qun Ġ
gei Ġ
yin ĠweiĠ
huaĠrenĠminĠ gongĠheĠguoĠ
Ġli ĠyuĠ
ĠbuĠ fenĠ
di ĠshiĠ
dui ĠyuĠ
ĠnianĠ daiĠ
jun ĠshiĠ
Ġ congĠ
Ġ aĠ
tong ĠyiĠ
men ĠdeĠ
diĠ erĠ
ming ĠdeĠ
Ġta ĠdeĠ
qu ĠyuĠ
xi ĠdeĠ
xueĠ jiaĠ
eĠ luoĠsiĠ
zou Ġ
xin ĠdeĠ
Ġ liuĠ
Ġ ling
Ġ gongĠliĠ
chun Ġ
Ġ baĠ
shouĠ daoĠ
Ġ suo
min ĠguoĠ
Ġ duoĠ
wei ĠdeĠ
zhengĠ fu
zhong ĠshiĠ
hou ĠdeĠ
lai ĠdeĠ
faĠ shengĠ
gong ĠjiĠ
sheng ĠdeĠ
jin ĠshiĠ
er ĠdeĠ
xing ĠweiĠ
fangĠ mianĠ
ĠyiĠ jingĠ
Ġ lianĠ
ĠshiĠ youĠ
yong ĠyouĠ
Ġ huĠ
ĠriĠ benĠ
ĠxiĠ tongĠ
bu ĠyuĠ
Ġ fanĠ
Ġ quĠ
ĠshiĠ renĠ
Ġ mianĠjiĠ
zhuĠ yaoĠ
1 ĠriĠ
tong ĠzhiĠ
liangĠ geĠ
niĠ yaĠ
diĠ quĠ
Ġ guanĠ
ju ĠyouĠ
qu ĠweiĠ
faĠ xingĠ
Ġ gaoĠ
jueĠ dingĠ
Ġ wenĠ
ĠzhongĠ yangĠ
sheng ĠjiĠ
Ġ fengĠ
ci ĠshiĠ
chuĠ xianĠ
zh Ġ
ĠrenĠkouĠ miĠ
Ġyou ĠshiĠ
taĠ menĠ
ĠweiĠ jiĠ
qi ĠyuĠ
Ġyou ĠdeĠ
zi ĠzhiĠ
Ġ teĠ
laiĠ ziĠ
Ġta ĠzaiĠ
juĠ xingĠ
hua ĠdeĠ
ĠjiĠ yuĠ
xian ĠzhiĠ
wu ĠdeĠ
mianĠjiĠ weiĠ
Ġ feiĠ
jia ĠdeĠ
ĠshiĠ yuĠ
du ĠliĠ
ĠpingĠfangĠ qianĠmiĠ
kong ĠzhiĠ
nan ĠbuĠ
shuĠ juĠ
ĠshiĠweiĠ yuĠ
Ġdan ĠshiĠ
qu ĠshiĠ
renĠ wuĠ
ĠliĠ ruĠ
mou Ġ
ke ĠliĠ
hui ĠdeĠ
yaoĠ qiuĠ
jinĠ ruĠ
ĠĠĠ deĠ
Ġ woĠ
gt Ġ
gu ĠshiĠ
Ġ gtĠ
Ġ ceng
Ġ wan
cheng ĠjiĠ
Ġdan ĠrenĠ
xiangĠ gang
Ġ suoĠ
Ġyou ĠjiĠ
Ġ meiĠguoĠ
ye ĠshiĠ
zongĠ tongĠ
lt Ġ
xueĠ shengĠ
ĠgongĠ siĠ
ĠĠĠ yuĠ
Ġ guangĠ
ĠyiĠ buĠ
gong ĠshiĠ
minĠ zhuĠ
Ġ bianĠ
Ġran ĠerĠ
wanĠ chengĠ
Ġ ru
jin ĠdeĠ
zha Ġ
Ġ ltĠ
ĠyiĠ qiĠ
shen ĠzhiĠ
Ġbing ĠyuĠ
Ġ caiĠ
ren ĠzhiĠ
pingĠ fangĠ
Ġbing ĠzaiĠ
chao ĠguoĠ
ĠjiĠ shuĠ
ti ĠyuĠ
yuan ĠshiĠ
cang Ġ
lieĠ cheĠ
Ġ sanĠ
dang ĠshiĠ
cun ĠzaiĠ
si ĠshiĠ
ya ĠliĠ
qianĠ wangĠ
ĠdeĠyiĠ ge
xue ĠxiĠ
ke ĠdeĠ
Ġ kaiĠ
keĠ nengĠ
Ġ yongĠ
jing ĠguoĠ
yong ĠdeĠ
ĠzhiĠ weiĠ
jian ĠyiĠ
guan ĠyuĠ
ĠĠĠ diĠ
fa ĠbuĠ
guo ĠshiĠ
ĠqiĠ taĠ
wu ĠshiĠ
zhan ĠshiĠ
wuĠ keĠ
yinĠ duĠ
zhu ĠrenĠ
sun Ġ
ĠyouĠ xianĠ
zuo ĠdeĠ
Ġ hanĠ
Ġ shanĠ
zhanĠ zhengĠ
pao Ġ
nei ĠdeĠ
ĠzhiĠ jianĠ
daiĠ biao
Ġ puĠ
shengĠ huoĠ
bin Ġ
jian ĠzhiĠ
ĠjiĠ weiĠ
zhou ĠdeĠ
ĠyiĠ shuĠ
fan ĠweiĠ
ĠweiĠ erĠ
Ġ a
chengĠ gongĠ
ĠjiĠ qiĠ
ouĠ zhouĠ
Ġ jin
han ĠguoĠ
Ġ ba
jieĠ shouĠ
xuĠ duoĠ
qiuĠ duiĠ
lu ĠdeĠ
Ġ shuĠyuĠ
Ġ zai
ĠjiĠ zhongĠ
zhong ĠzhiĠ
zeng ĠjiaĠ
fuĠ wuĠ
Ġ baiĠ
zhuĠ xiĠ
xiaoĠ xingĠ
ban ĠdeĠ
Ġ moĠ
ĠĠĠ gaiĠ
he ĠyiĠ
Ġ aoĠ
zhuĠ yao
hou ĠyiĠ
Ġ suĠ
ĠĠĠ zhiĠ
san ĠshiĠ
xia ĠdeĠ
duo ĠdeĠ
Ġ 000
shangĠ haiĠ
huai Ġ
ju ĠliĠ
si ĠjiĠ
zuĠ chengĠ
Ġ genĠjuĠ
ning Ġ
ĠciĠ waiĠ
yunĠdongĠ yuanĠ
ma ĠweiĠ
gaoĠ duĠ
fu ĠdeĠ
ĠzheĠ xieĠ
chuĠ leĠ
Ġ zhĠ
ĠzhiĠ zuoĠ
niu Ġ
ĠzaiĠ ciĠ
ge ĠzhongĠ
ĠbuĠ guoĠ
chang ĠdeĠ
ĠnianĠ qiĠ
chongĠ xinĠ
jueĠ seĠ
tui ĠchuĠ
Ġli ĠjiĠ
jing ĠliĠ
Ġdang ĠshiĠ
renĠ minĠ
zheĠ geĠ
Ġ zuiĠzhongĠ
ti ĠdeĠ
xuĠ yaoĠ
Ġ duĠ
da ĠshiĠ
qi ĠyiĠ
chu ĠyuĠ
ĠzhiĠ chuĠ
zheĠ xieĠ
xiang ĠdeĠ
wu ĠzhongĠ
du ĠweiĠ
Ġ ai
xuanĠ juĠ
Ġ mei
ĠzhiĠ wuĠ
ĠrenĠ heĠ
zhuĠ jiaoĠ
ĠĠĠ diĠliĠ
ĠzhiĠ chiĠ
ziĠ jiĠdeĠ
zi ĠdeĠ
Ġ ma
Ġ huo
ĠweiĠ leĠ
jiaoĠ tongĠ
Ġ sheĠ
Ġ cengĠ
ĠrenĠ wuĠ
Ġ banĠ
ĠnianĠ jianĠ
lianĠ saiĠ
ĠĠĠ weiĠ
kaiĠ faĠ
zhe ĠyiĠ
xian ĠzaiĠ
liang ĠweiĠ
Ġ laiĠ
ĠrenĠ yuanĠ
ĠweiĠ qiĠ
jieĠ shuĠ
chu ĠliĠ
sai ĠshiĠ
nv ĠziĠ
rui Ġ
dang ĠdiĠ
jieĠ muĠ
ya ĠdeĠ
2010 ĠnianĠ
gongĠ yuanĠ
ĠzhiĠ yuĠ
fanĠ yingĠ
ding ĠdeĠ
chanĠ shengĠ
juan Ġ
she ĠshiĠ
chuĠ banĠ
gongĠ chanĠ
guan ĠdeĠ
ĠyiĠ zhongĠ
ba ĠshiĠ
lei ĠsiĠ
shouĠ ciĠ
ruo Ġ
riĠ ben
jing ĠshiĠ
dongĠ wuĠ
ĠshiĠyiĠ geĠ
zhui Ġ
fuĠ zeĠ
jie ĠshiĠ
xiang ĠshiĠ
Ġ jiang
bo ĠshiĠ
ĠtaĠ men
jie ĠdeĠ
le ĠbuĠ
Ġ leiĠ
Ġ hai
geĠ quĠ
nanĠ ziĠ
Ġ daiĠ
guanĠ xiaĠ
san ĠnianĠ
dui ĠdeĠ
zao ĠchengĠ
Ġ aiĠ
keĠ neng
ĠhouĠ laiĠ
Ġ yangĠ
dong ĠshiĠ
yanĠ jiu
an ĠdeĠ
du ĠdeĠ
she ĠliĠ
dou ĠshiĠ
Ġ naĠ
yang ĠdeĠ
shan ĠxiĠ
Ġ zhenĠ
ĠjiĠ zhiĠ
ĠjiĠ xuĠ
zhong ĠyuĠ
nv ĠxingĠ
Ġ yaĠ
Ġ 1Ġ
Ġsuo ĠyiĠ
guo ĠyuĠ
guo ĠyiĠ
ĠĠĠ qiĠ
ĠzhiĠ zhiĠ
Ġ fen
fangĠ faĠ
2020 ĠnianĠ
ĠheĠ zuoĠ
gongĠ chengĠ
wu ĠliĠ
meiĠ pingĠfangĠ
jiaoĠ shouĠ
zhengĠzhiĠ renĠwuĠ
ĠyiĠ siĠ
zheng ĠdeĠ
lianĠ mengĠ
Ġ ranĠ
dai ĠdeĠ
di ĠweiĠ
Ġ xuanĠ
Ġ cong
jun ĠdeĠ
xiangĠ muĠ
caiĠ yongĠ
ĠzaiĠ diĠ
dong ĠdeĠ
fang ĠdeĠ
ĠĠĠ renĠkouĠ
ĠĠĠ you
liang ĠdeĠ
Ġ zong
yuan ĠyuĠ
Ġ hao
chuanĠ tongĠ
Ġ tuĠ
Ġri ĠzaiĠ
huaĠ minĠguoĠ
zhu ĠdeĠ
ge ĠshiĠ
2001 ĠnianĠ
Ġdan ĠweiĠ
Ġ bei
taiĠ wan
Ġnian ĠyiĠ
xinĠ wenĠ
zhan ĠdeĠ
yanĠ yuanĠ
xiĠ tongĠ
fu ĠshiĠ
ĠĠĠ jiĠ
ĠliĠ siĠ
jiaĠ ruĠ
ĠzhiĠ youĠ
daoĠ leĠ
xi ĠjiĠ
dao ĠshiĠ
fa ĠdeĠ
he ĠshiĠ
ying ĠyuĠ
bianĠ maĠweiĠ
ĠyiĠ huiĠ
xiangĠ guanĠ
Ġ guiĠ
boĠ wuĠ
hou ĠzaiĠ
Ġ 0
ĠjiĠ jiĠ
ĠjiĠ luĠ
ĠweiĠ fuĠ
Ġ zeĠ
ĠyiĠ yiĠ
baoĠ kuo
ĠdeĠyiĠge ĠshiĠzhenĠ
lianĠ jieĠ
ĠxueĠ mingĠ
zui ĠjiaĠ
tiĠ chuĠ
hai ĠshiĠ
mu ĠsiĠ
mingĠ chengĠ
Ġzhe ĠshiĠ
Ġ zhouĠ
ĠxiĠ yaĠ
xue ĠdeĠ
ĠweiĠ zhuĠ
ĠjiĠ zaiĠ
er ĠnianĠ
ĠrenĠkouĠmiĠ duĠ
jia ĠzhiĠ
ĠyiĠ xieĠ
ĠĠĠ jiaĠ
Ġ junĠ
Ġ ci
xiao ĠdeĠ
mian ĠdeĠ
ĠshiĠyiĠ zhongĠ
zuiĠ gaoĠ
dong ĠjiĠ
ge ĠdeĠ
Ġ yuĠshiĠ
Ġli ĠyiĠ
Ġ fangĠ
Ġ mi
Ġ kaĠ
shu ĠshiĠ
ling ĠshiĠ
ĠnianĠ zaiĠ
xia ĠjiĠ
gai ĠweiĠ
Ġ liang
zhe ĠzhongĠ
ĠzhiĠ jieĠ
haiĠ junĠ
chang ĠshiĠ
qingĠ kuang
hui ĠshiĠ
ĠzheĠ geĠ
Ġ laĠ
yao ĠdeĠ
zhu ĠshiĠ
Ġ zuoĠweiĠ
shengĠ wuĠ
zai ĠdeĠ
yan ĠdeĠ
zhai Ġ
yan ĠzhongĠ
na ĠdaĠ
qi ĠzhiĠ
ye ĠyuĠ
gai ĠguoĠ
huiĠ fuĠ
luan Ġ
zai ĠyuĠ
meiĠ tiĠ
Ġye ĠshiĠ
zheng ĠyiĠ
bian ĠdeĠ
Ġ xieĠ
ke ĠjiĠ
wenĠ wuĠ
peng Ġ
jian ĠshiĠ
xin ĠxiĠ
gao ĠdeĠ
ĠzhiĠ qianĠ
jie ĠguoĠ
minĠ zuĠ
shui ĠyuĠ
ĠbuĠ tongĠ
cheng ĠrenĠ
ĠkeĠ siĠ
yanĠ changĠ
Ġ keĠyiĠ
fanĠ duiĠ
neng ĠliĠ
ĠĠĠ xingĠzhengĠ
hua ĠshiĠ
he ĠdeĠ
qian ĠdeĠ
ge ĠliĠ
xing ĠzhiĠ
chou Ġ
Ġ niĠ
si ĠyuĠ
hao ĠdeĠ
7 Ġ
bei ĠshiĠ
ĠĠĠ of
jiangĠ junĠ
lei ĠdeĠ
jieĠ gouĠ
Ġ chongĠ
huanĠ jingĠ
xian ĠyuĠ
ĠĠĠ formulaĠ
baoĠ hu
zhuĠ jianĠ
zan Ġ
sai ĠjiĠ
Ġ 2Ġ
mo ĠshiĠ
ĠĠĠ benĠ
a ĠerĠ
Ġ hongĠ
ĠyiĠ banĠ
Ġ diĠyiĠ
ĠĠĠof ĠĠĠ
chuangĠ zuoĠ
zhang ĠdeĠ
baoĠ huĠ
Ġ liu
Ġli ĠweiĠ
Ġ ming
ĠzhuĠ yaoĠ
ĠzhongĠ huaĠrenĠminĠgongĠheĠguoĠ
tong ĠjiĠ
the ĠĠĠ
san ĠgeĠ
Ġ chenĠ
junĠ duiĠ
ĠxiangĠ gangĠ
biao ĠxianĠ
zhu ĠliĠ
biaoĠ zhunĠ
Ġnian ĠshiĠ
Ġ tangĠ
ge ĠyueĠ
sheng ĠliĠ
zhou ĠshiĠ
quan ĠliĠ
zhe ĠdeĠ
zongĠ jiaoĠ
buĠ fen
daĠ luĠ
shengĠ yaĠ
shangĠ yeĠ
ĠyiĠ ciĠ
si ĠnianĠ
diaoĠ chaĠ
Ġ gu
wuĠ faĠ
Ġ yunĠ
hangĠ kongĠ
ĠĠĠ genĠjuĠ
Ġ 1
ĠĠĠ ciĠ
dong ĠbuĠ
hui ĠzaiĠ
biĠ yeĠ
shenĠ fenĠ
di ĠzhiĠ
tou ĠguoĠ
ĠdeĠyiĠ buĠfenĠ
faĠ yuanĠ
bu ĠyiĠ
di ĠyuĠ
jia ĠliĠ
geĠ mingĠ
Ġ yaoĠ
cheng ĠzhongĠ
jin ĠjiĠ
Ġdang ĠdiĠ
ĠjiĠ tuanĠ
baĠ gaoĠduĠ
jiao ĠshiĠ
ĠjinĠ xingĠ
ĠtaiĠ wanĠ
xieĠ huiĠ
Ġ huangĠ
dongĠ huaĠ
qiuĠ yuanĠ
ĠzhiĠ xingĠ
feiĠ changĠ
Ġ zhuanĠ
dan ĠweiĠ
cha ĠdeĠ
fen ĠbuĠ
bi ĠdeĠ
ziĠ liaoĠ
biĠ sai
jie ĠzhiĠ
ĠyouĠ guanĠ
tuanĠ tiĠ
shengĠ chanĠ
A Ġ
bing ĠbuĠ
fu ĠheĠ
bei ĠrenĠ
fenĠ bie
10 Ġ
chao ĠxianĠ
ding ĠyiĠ
xia ĠyiĠ
quan ĠbuĠ
8 Ġ
gai ĠdiĠ
jing ĠdeĠ
neiĠ rongĠ
pingĠ junĠ
wenĠ xueĠ
du ĠshiĠ
dongĠ beiĠ
anĠ quanĠ
renĠkouĠ puĠ
ĠbingĠ qie
jia ĠjiĠ
la ĠsiĠ
luoĠ maĠ
jieĠ fangĠ
ling ĠdaoĠ
ĠzhiĠ yuanĠ
jinĠ biaoĠ
Ġ linĠ
xingĠ dongĠ
juĠ minĠ
shang ĠshiĠ
qingĠ kuangĠ
ĠyuĠ jiĠ
ĠzhiĠ huiĠ
ĠbaoĠ kuo
gongĠ kaiĠ
she ĠzhiĠ
ĠqiĠ houĠ
shou ĠdeĠ
ĠjiĠ diĠ
yuan ĠyiĠ
yan ĠshiĠ
yanĠ chuĠ
Ġ wo
zuo ĠyouĠ
zuoĠ pin
Ġ nan
keĠ xueĠ
Ġ da
ren ĠyiĠ
Ġ zuĠ
shang ĠweiĠ
ĠfuĠ zeĠ
Ġru ĠguoĠ
ĠkeĠ nengĠ
jia ĠshiĠ
zai ĠshiĠ
er ĠjiĠ
wu ĠzhiĠ
xing ĠjiĠ
28 ĠriĠ
kong ĠjianĠ
Ġer ĠshiĠ
fang ĠzhiĠ
gaiĠ bianĠ
Ġ zhaoĠ
aoĠ yunĠ
Ġ jiu
shu ĠweiĠ
xue ĠshiĠ
ĠdiĠ guoĠ
ĠyuĠ qiĠ
ĠbingĠ qieĠ
Ġ qiuĠ
deng ĠdiĠ
ze ĠshiĠ
guan ĠzhongĠ
luĠ xianĠ
xue ĠweiĠ
yuan ĠheĠ
qi ĠweiĠ
ĠdaĠ daoĠ
lan ĠdeĠ
ĠyiĠ mingĠ
Ġ huoĠdeĠ
Ġli ĠzhiĠ
deng ĠrenĠ
15 ĠriĠ
he ĠjiĠ
baoĠ daoĠ
ĠĠĠ youĠ
ĠlingĠ waiĠ
2008 ĠnianĠ
ju ĠdeĠ
qing ĠnianĠ
Ġ cheĠ
guo ĠliĠ
lve Ġ
aoĠ linĠ
bang ĠzhuĠ
faĠ biaoĠ
ĠĠĠ zhongĠ
2016 ĠnianĠ
pi ĠkeĠ
chu ĠrenĠ
zuoĠ yongĠ
ai ĠerĠ
zao ĠdaoĠ
ĠyuĠ yanĠ
gongĠ zuo
Ġri ĠzhiĠ
s Ġ
gong ĠdeĠ
ju ĠjiĠ
de ĠĠĠ
ye ĠyouĠ
lu ĠdiĠ
gui ĠdaoĠ
tongĠ changĠ
zu ĠdeĠ
jiang ĠqiĠ
ĠyiĠ yuĠ
shou ĠjiĠ
fei ĠjiĠ
gongĠ gongĠ
2009 ĠnianĠ
yuan ĠnianĠ
ma ĠliĠ
pa Ġ
sheng ĠdeĠyiĠgeĠshiĠzhenĠ
ĠzhiĠ jianĠdeĠ
Ġ shuiĠ
bianĠ huaĠ
jia ĠyiĠ
tu ĠdiĠ
taĠ men
yaĠ zhouĠ
ĠĠĠ juĠ
xiĠ banĠ
buĠ tongĠ
ĠshiĠ xingĠ
wu ĠnianĠ
taiĠ pingĠ
ĠmuĠ qianĠ
banĠ benĠ
jie ĠheĠ
2011 ĠnianĠ
hou ĠyuĠ
2012 ĠnianĠ
ĠsiĠ keĠ
Ġdan ĠzaiĠ
Ġ paiĠ
hui ĠheĠ
zhan ĠyiĠ
jiao ĠyiĠ
ĠweiĠ zhongĠ
jueĠ saiĠ
xian ĠrenĠ
zhengĠ ceĠ
ĠbuĠ duiĠ
pi ĠpingĠ
Ġ chuanĠ
Ġ 2
ĠhaiĠ baĠgaoĠduĠ
ta ĠzaiĠ
25 ĠriĠ
jiaoĠ huiĠ
xingĠ chengĠ
miao ĠshuĠ
Ġ dingĠ
ĠerĠ siĠ
zao ĠqiĠ
meiĠ yuanĠ
Ġ C
UTC Ġ
Ġta ĠyuĠ
er ĠweiĠ
bo ĠliĠ
ĠyouĠ qiĠ
yuanĠ yinĠ
ĠdeĠ daoĠ
ĠzhiĠ yeĠ
chu ĠshiĠ
Ġ san
ĠheĠ wuĠ
Ġ ha
xie ĠyiĠ
xuanĠ zeĠ
zao ĠdeĠ
xiaoĠ shuoĠ
wanĠ quanĠ
ĠsiĠ teĠ
yunĠdongĠ huiĠ
xianĠ daiĠ
lianĠ bangĠ
Ġ renĠweiĠ
ling ĠyiĠ
Ġ neiĠ
Ġyue ĠdeĠ
wenĠ hua
ĠjianĠ chengĠ
jianĠ sheĠ
Ġ mo
Ġta ĠshiĠ
Ġdang ĠzhongĠ
30 ĠriĠ
beiĠ chengĠweiĠ
ĠyouĠ chengĠ
10 ĠriĠ
chang ĠqiĠ
Ġ eĠ
zui ĠdaĠ
20 ĠriĠ
chiĠ xuĠ
jingĠ neiĠ
lin ĠshiĠ
yuanĠ zhuĠ
Ġ xunĠ
dianĠ ziĠ
Ġ si
xing ĠyuĠ
zu ĠheĠ
ĠweiĠ diĠ
2014 ĠnianĠ
mingĠ mingĠ
duoĠ shuĠ
se ĠdeĠ
Ġ 5Ġ
sai ĠdeĠ
bu ĠliĠ
ĠdiĠ sanĠ
fu ĠzhiĠ
wuĠ yuanĠ
ba ĠliĠ
zhuanĠ yeĠ
sheng ĠheĠ
gongĠ tongĠ
jieĠ daoĠ
ziĠ geĠ
2018 ĠnianĠ
ĠshiĠ yanĠ
bu ĠjiĠ
2019 ĠnianĠ
dongĠ nanĠ
gao ĠzhongĠ
Ġ qie
houĠ laiĠ
faĠ lvĠ
ĠdiĠ siĠ
ĠjiĠ jinĠ
Ġ mengĠ
za ĠzhiĠ
wuĠkeĠ lanĠ
faĠ zhan
danĠ quĠ
ĠshiĠweiĠyuĠ meiĠguoĠ
Ġ 12
ĠjiĠ gouĠ
ĠyuĠ zhongĠ
erĠ ziĠ
ĠguoĠ minĠ
2013 ĠnianĠ
ĠweiĠyuĠ gaiĠguoĠ
sheng ĠweiĠ
Ġyue ĠzhiĠ
kui Ġ
dao ĠyiĠ
chu ĠqiĠ
bing ĠweiĠ
Ġ mianĠ
ĠliĠ keĠ
zhong ĠjiĠ
tu ĠerĠ
ĠshiĠjieĠ daĠ
18 ĠriĠ
ĠyuĠ zhiĠ
24 ĠriĠ
2015 ĠnianĠ
baoĠ gaoĠ
Ġ gengĠ
guangĠ dongĠ
fangĠ xiangĠ
ĠdeĠ zhongĠ
ĠliĠ yongĠ
guoĠ minĠ
ĠbuĠ zaiĠ
Ġyue ĠshiĠ
die Ġ
ĠdeĠ weiĠ
26 ĠriĠ
boĠwuĠ guanĠ
ĠjinĠ guanĠ
ĠsuiĠ houĠ
2007 ĠnianĠ
daĠ daoĠ
dian ĠliĠ
guan ĠzhiĠ
xian ĠyiĠ
Ġtong ĠnianĠ
2005 ĠnianĠ
guiĠ dingĠ
Ġ ke
sheĠ quĠ
Ġ fei
Ġ yingĠguoĠ
Ġzhe ĠzhongĠ
fu ĠliĠ
Ġ duo
canĠ saiĠ
feng ĠgeĠ
ĠweiĠ siĠ
mingĠ ziĠ
luo ĠdeĠ
teĠ bie
lian ĠxiĠ
ĠfenĠ buĠyuĠ
aoĠlinĠ piĠkeĠ
yingĠ geĠ
16 ĠriĠ
Ġ waiĠ
you ĠxiĠ
muĠ biaoĠ
wang ĠdeĠ
Ġ shaĠ
chang ĠweiĠ
ĠchuĠ leĠ
Ġ 2001ĠnianĠ
17 ĠriĠ
Ġ ganĠ
ĠxiĠ lieĠ
ding ĠweiĠ
ĠjiĠ changĠ
bi ĠliĠ
zhe ĠshiĠ
B Ġ
ĠjiĠ heĠ
ĠerĠ shengĠ
tou ĠziĠ
taĠ menĠdeĠ
wuĠ xianĠ
juĠ banĠ
nei ĠbuĠ
2017 ĠnianĠ
quanĠ qiuĠ
yinĠ hangĠ
ĠyouĠxianĠ gongĠsiĠ
s ĠĠĠ
ĠshiĠ heĠ
fu ĠyiĠ
gongĠchanĠ dangĠ
dongĠ jingĠ
guo ĠzhiĠ
shangĠ shuĠ
dao ĠyuĠ
jun ĠweiĠ
ĠliĠ kaiĠ
mu ĠdeĠ
mu ĠdiĠ
lie ĠdeĠ
bu ĠzhiĠ
Ġ qieĠ
shen ĠdeĠ
ĠyinĠ ci
ĠshiĠ ziĠ
zi ĠyuĠ
huaĠ xueĠ
guanĠ fangĠ
kaiĠ fangĠ
8 ĠriĠ
shou ĠyuĠ
ĠĠĠ zhengĠzhiĠ
ĠdeĠshiĠ zhenĠ
gai ĠnianĠ
21 ĠriĠ
Ġ minĠ
paiĠ sheĠ
ĠzhongĠ xueĠ
ka ĠerĠ
7 ĠriĠ
ĠfuĠ wuĠ
27 ĠriĠ
aĠ laĠ
baoĠ faĠ
2006 ĠnianĠ
19 ĠriĠ
xian ĠweiĠ
ĠliĠ faĠ
ĠhaoĠ miĠ
11 ĠriĠ
Ġ que
23 ĠriĠ
yingĠ yongĠ
ce ĠshiĠ
12 ĠriĠ
Ġ songĠ
ĠĠĠ theĠĠĠ
si ĠheĠ
meiĠguoĠ renĠkouĠpuĠ
ĠzhiĠ jiĠ
shuĠ liangĠweiĠ
boĠ chuĠ
yin ĠshiĠ
suĠ lianĠ
9 ĠriĠ
fu ĠyuĠ
Ġ 3Ġ
xueĠ zheĠ
shang ĠyouĠ
ban ĠshiĠ
qi ĠjiĠ
qiĠ jianĠ
chu ĠyiĠ
hui ĠyuĠ
2021 ĠnianĠ
ye ĠdeĠ
ĠzhuĠ yao
juĠ leĠbuĠ
xuĠ duo
lieĠ che
huang ĠdiĠ
22 ĠriĠ
ĠshiĠ faĠguoĠ
14 ĠriĠ
kun Ġ
ying ĠshiĠ
dang ĠdeĠ
ĠyueĠ hanĠ
guiĠ moĠ
ling ĠyuĠ
shanĠ dongĠ
5 ĠriĠ
29 ĠriĠ
3 ĠriĠ
zuiĠ daĠdeĠ
zheng ĠzaiĠ
guanĠ yuanĠ
ting ĠzhiĠ
yuan ĠjiĠ
Ġ piĠ
2022 ĠnianĠ
biĠ xuĠ
xiĠ lieĠ
jingĠ yingĠ
suoĠ shuĠdeĠ
yin ĠqiĠ
ĠdaĠ huiĠ
pingĠ jiaĠ
xunĠ lianĠ
xi ĠshiĠ
shengĠ chan
shengĠ mingĠ
Ġ lvĠ
zhu ĠzaiĠ
shou ĠshiĠ
nengĠ gouĠ
The ĠĠĠ
gongĠ yeĠ
qingĠkuang ĠxiaĠ
Ġ saiĠ
sheng ĠzaiĠ
quĠ huaĠ
tiao ĠjianĠ
qian ĠyiĠ
13 ĠriĠ
te ĠdeĠ
jin ĠzhiĠ
Ġ kaiĠshiĠ
9 Ġ
mai ĠkeĠ
tai ĠdeĠ
ya ĠyuĠ
yuan ĠzhiĠ
lianĠ meng
4 ĠriĠ
ĠjiĠ baiĠ
Ġ daoĠzhiĠ
6 ĠriĠ
jiao ĠdeĠ
31 ĠriĠ
she ĠdeĠ
jieĠ chuĠ
xiaoĠxingĠ xingĠ
nai Ġ
ĠnianĠ dai
ĠbuĠ jiuĠ
zang Ġ
chao ĠjiĠ
ĠrenĠ zhongĠ
2 ĠriĠ
ĠgongĠ chiĠ
ge ĠjiĠ
ĠsuiĠ ranĠ
da ĠjiĠ
ĠzhongĠ yang
liu ĠxingĠ
nanĠ xingĠ
ĠzuiĠ houĠ
gongĠ buĠ
teĠ zhengĠ
xiong ĠdiĠ
dian ĠdeĠ
Ġ 14
ge ĠweiĠ
wu ĠjiĠ
ren ĠjiĠ
you ĠyiĠ
manĠ huaĠ
Ġ qiangĠ
jian ĠweiĠ
ĠyouĠ mingĠ
fuĠ jinĠ
zuoĠ jiaĠ
Ġ fan
si ĠrenĠ
Ġ jueĠ
si ĠzaiĠ
boĠ teĠ
zhong ĠweiĠ
keĠ daĠ
ouĠ zhou
Ġ shenĠzhiĠ
lv ĠyouĠ
fen ĠxiĠ
huang ĠjiaĠ
Ġ xin
br Ġ
Ġtong ĠguoĠ
zong ĠheĠ
shengĠ fenĠ
yinĠ ciĠ
cheng ĠyiĠ
ĠgongĠ zuoĠ
Ġ ze
bian ĠweiĠ
niu ĠyueĠ
ĠĠĠ jinĠ
wenĠwuĠ baoĠhu
Ġ brĠ
zai ĠweiĠ
banĠ daoĠ
si ĠweiĠ
ju ĠrenĠ
ĠriĠ ben
ĠgongĠ luĠ
guangĠ boĠ
ci ĠshiĠjieĠdaĠ
mao ĠyiĠ
Ġ tian
zhuangĠ taiĠ
qi ĠnianĠ
ĠsuiĠ ran
Ġ hou
Ġ 4Ġ
ĠrenĠ kou
pin ĠdaoĠ
Ġ 10
he ĠliĠ
20 ĠshiĠjiĠ
ĠzhiĠ zhongĠ
ĠkeĠ neng
renĠkouĠ shuĠliangĠweiĠ
ĠĠĠyou ĠyuĠ
buĠ zhangĠ
fenĠ ziĠ
ao ĠsiĠ
Ġ geng
shuo ĠshiĠ
2004 ĠnianĠ
ĠyouĠ renĠ
duoĠ geĠ
ju ĠzhongĠ
jieĠ duanĠ
xuanĠ shouĠ
fa ĠshiĠ
gao ĠjiĠ
Ġ zhou
Ġ douĠ
zhun ĠbeiĠ
fang ĠyuĠ
ĠzaiĠ qiĠ
bing ĠliĠ
mi ĠerĠ
ĠyingĠ chiĠ
duoĠ ciĠ
Ġ chen
fangĠ anĠ
ĠĠĠ liĠ
wai ĠdeĠ
ĠzhongĠ buĠ
yuan ĠweiĠ
ĠheĠ nanĠ
huiĠ daoĠ
shang ĠyiĠ
bu ĠweiĠ
Ġyou ĠzhiĠ
ĠĠĠ ziĠ
Ġ 3
chengĠ duĠ
ci ĠdeĠ
hai ĠyuĠ
mo ĠdeĠ
Ġ touĠ
fen ĠzhiĠ
2000 ĠnianĠ
ci ĠzhiĠ
ĠdiĠ fangĠ
wangĠ luoĠ
ĠĠĠ daĠ
liu ĠnianĠ
Ġ xianĠshiĠ
jie ĠjiĠ
bei ĠdeĠ
zi ĠshiĠ
ĠtaĠ cengĠ
jun ĠzaiĠ
Ġ gangĠ
fei ĠxingĠ
dianĠshiĠ taiĠ
ju ĠshiĠ
ĠyiĠ laiĠ
ĠdeĠyiĠ zhongĠ
le ĠyiĠgeĠ
deng ĠjiĠ
xuan ĠweiĠ
ĠrenĠkouĠmiĠ duĠweiĠ
Ġri ĠqiĠ
Ġ 13
Ġ yiĠshiĠ
21 Ġ
shuĠ guanĠ
ĠgongĠ yuanĠ
hai ĠyouĠ
Ġ chaoĠ
hui ĠyouĠ
gaiĠ geĠ
Ġ chiĠ
qiu ĠjiĠ
luĠ junĠ
wuĠ qiĠ
Ġ xiang
Ġ A
zheĠ jiangĠ
biaoĠ yanĠ
Ġ zhao
ĠweiĠyuĠ faĠguoĠ
zuiĠ houĠ
xiangĠ tongĠ
ĠxiĠ banĠ
dianĠshiĠ juĠ
sheĠ beiĠ
xing ĠheĠ
ĠzhiĠ jinĠ
gu ĠjiĠ
liu ĠshiĠ
meiĠ zhouĠ
zhu ĠyuĠ
zai ĠjiĠ
ai ĠdeĠ
Ġ lanĠ
ĠjiaĠ ruĠ
guangĠ changĠ
ĠshiĠ daiĠ
ĠyiĠ renĠ
fa ĠyuĠ
jia ĠheĠ
nu Ġ
Ġ meiĠyouĠ
wenĠwuĠbaoĠhu ĠdanĠweiĠ
xieĠ zhuĠ
ĠĠĠ zhuĠ
Ġ 6Ġ
tiao ĠyueĠ
ĠyiĠ beiĠ
yang ĠshiĠ
suĠ duĠ
siĠ wangĠ
Ġ zu
ĠzhiĠ liĠ
chanĠ pinĠ
hangĠ kong
bianĠ chengĠ
baoĠ hanĠ
ying ĠjiĠ
ĠfenĠ bie
ren ĠyuĠ
jiang ĠyuĠ
Ġ tiaoĠ
fuĠ jianĠ
gongĠyouĠ renĠkouĠ
ĠxingĠ zhengĠ
huoĠdeĠ leĠ
ĠzhiĠ zaiĠ
xi ĠweiĠ
Ġ zhang
qing ĠdeĠ
qun ĠdaoĠ
duan ĠdeĠ
haiĠ baĠ
zhanĠ zheng
ĠzhongĠ huaĠminĠguoĠ
zhenĠ quĠ
ĠbeiĠ qiĠ
muĠ qianĠ
ĠĠĠ jianĠ
qu ĠyiĠ
Ġ 11
cuo Ġ
Ġzhe ĠyiĠ
shouĠ duĠ
ĠgongĠ fenĠ
ĠqiĠ yeĠ
zhanĠ kaiĠ
biĠ jiaoĠ
guiĠ huaĠ
ju ĠyuĠ
zhanĠ douĠ
ĠĠĠ xiĠ
ĠzaiĠ zhongĠ
diĠyiĠ geĠ
nv ĠerĠ
jinĠ gongĠ
qiao ĠzhiĠ
ĠxiĠ wangĠ
biaoĠ zhun
rong ĠyuĠ
ĠliĠ ziĠ
nao Ġ
meiĠpingĠfangĠ gongĠliĠ
jiu ĠshiĠzhenĠ
ĠbuĠ huiĠ
dong ĠliĠ
dong ĠxiĠ
Ġ faĠguoĠ
geĠ diĠ
ĠdeĠshiĠ jianĠ
Ġ nvĠ
youĠ zhengĠ
ĠchengĠ quĠ
ken Ġ
ĠrenĠ zaiĠ
daĠ xingĠ
xiĠ buĠ
fenĠ leiĠ
maĠ lai
ĠyuĠ weiĠ
dou ĠyouĠ
ruĠ xiaĠ
geĠ shouĠ
la ĠdeĠ
la ĠkeĠ
taiĠ beiĠ
nong ĠyeĠ
Ġ kongĠ
quĠ daiĠ
daĠ liangĠ
xian ĠdeĠyiĠgeĠ
mi ĠdeĠ
shangĠ wuĠ
ĠerĠ beiĠ
yu ĠshiĠdeĠ
ĠyiĠ youĠ
ĠzhongĠ xin
zong ĠliĠ
ĠciĠ houĠ
Ġyou ĠyiĠgeĠ
cui Ġ
Ġ manĠ
ze ĠrenĠ
ĠĠĠ fuĠ
ĠĠĠ zheĠ
min ĠzhongĠ
xiao ĠxiĠ
renĠ heĠ
miĠ shuĠ
lianĠ xuĠ
reng Ġran
reĠ dai
xiangĠ duiĠ
zuiĠ houĠyiĠ
zhengĠ geĠ
jieĠ rang
wu ĠyiĠ
wang ĠguoĠ
Ġ S
tie ĠdaoĠ
cheĠ liangĠ
ci ĠjiĠ
renĠkouĠshuĠliangĠweiĠ renĠ
fu ĠrenĠ
jue ĠdeĠ
henĠ duoĠ
gaoĠ su
waiĠ jiaoĠ
jian ĠyouĠ
zhen ĠshiĠ
quan ĠdeĠ
xinĠ jiaĠ
jinĠbiaoĠ saiĠ
ĠliĠ shuĠyuĠ
tianĠ zhuĠjiaoĠ
yeĠ wuĠ
Ġ INSEE
jiao ĠweiĠ
ĠyiĠ xiaĠ
chengĠ zhenĠ
Ġnian ĠjiĠ
Ġ heiĠ
ci ĠyuĠ
niao Ġ
zhanĠ lingĠ
gong ĠzhongĠ
ceng ĠzaiĠ
jianĠ chaĠ
jiaĠ naĠdaĠ
ĠdeĠ yuĠ
quĠ xiaoĠ
Ġran ĠhouĠ
shouĠ geĠ
nan ĠjiĠ
gaoĠ suĠ
ĠyiĠ yangĠ
gongĠ nengĠ
lu ĠshiĠ
ĠheĠ beiĠ
shengĠ chengĠ
ni ĠsiĠ
ĠdeĠshiĠ houĠ
Ġ bai
diĠ fangĠ
Ġ zhengĠshiĠ
ĠqiĠ ta
ĠdaoĠ leĠ
yuan ĠyouĠ
zuoĠ chuĠ
ti ĠjiĠ
dianĠ ying
Ġjie ĠzhiĠ
Ġ 8
dian ĠjiĠ
sheng ĠzhiĠ
Ġ hu
he ĠweiĠ
diĠ sanĠ
ĠxingĠ chengĠ
ĠgaiĠ shengĠ
ĠjianĠ zhuĠ
he ĠzhiĠ
dui ĠzaiĠ
yingĠ xiang
juĠ jueĠ
Ġ duiĠyuĠ
le ĠjiĠ
lan ĠxiĠ
Ġer ĠzaiĠ
ĠzongĠ mianĠjiĠ
da ĠliĠyaĠ
qiĠ ta
Ġ D
ĠdeĠ liĠ
shu ĠzhiĠ
wangĠ zhanĠ
niĠ ya
shou ĠweiĠ
2002 ĠnianĠ
ĠshiĠ changĠ
ziĠ xingĠ
gong ĠyiĠ
yunĠ yingĠ
Ġ rang
2003 ĠnianĠ
tianĠ wenĠ
mo ĠxiĠ
zhengĠ quanĠ
zuo ĠyiĠ
zhen ĠdeĠ
ĠdiĠ qiĠ
hui ĠzhiĠ
ĠerĠ qieĠ
Ġling ĠyiĠ
ĠrenĠkouĠmiĠduĠ meiĠpingĠfangĠgongĠliĠ
xiaoĠ xueĠ
mu ĠshiĠ
qing ĠshiĠ
chaĠdeĠ shuĠjuĠ
puĠ taoĠ
youĠzhengĠ bianĠmaĠweiĠ
te ĠliĠ
ĠshiĠzhenĠ bianĠmaĠweiĠ
ĠINSEE ĠshiĠzhenĠbianĠmaĠweiĠ
ĠrenĠkouĠmiĠduĠweiĠ meiĠpingĠfangĠ
Ġ biaoĠshiĠ
ben ĠdeĠ
ĠxiaĠ lingĠshiĠ
Ġ bian
ĠĠĠ buĠ
xi ĠliĠ
Ġ shuangĠ
lei ĠjiĠ
xuanĠ quĠweiĠ
wu ĠrenĠ
gao ĠyuĠ
yuĠshiĠdeĠ renĠkouĠshuĠliangĠweiĠrenĠ
zhuo Ġ
jieĠ jueĠ
diĠyiĠ ciĠ
Ġ ruo
lu ĠyiĠ
meiĠguoĠrenĠkouĠpuĠ chaĠdeĠshuĠjuĠ
Ġer ĠrenĠkouĠmiĠduĠweiĠmeiĠpingĠfangĠ
ĠdangĠdiĠ gongĠyouĠrenĠkouĠ
xi ĠyuĠ
er ĠzaiĠ
jiang ĠshiĠ
faĠ dongĠ
zhanĠ dou
ĠteĠ bie
ĠweiĠ youĠ
ĠhuoĠ jiuĠshiĠzhenĠ
yun ĠxingĠ
zhongĠ xinĠ
zhuĠ tiĠ
xin ĠliĠ
Ġ E
Ġ huanĠ
shengĠjiĠ xuanĠquĠweiĠ
bao ĠdeĠ
Ġ 00
ĠĠĠ nianĠ
mengĠ guĠ
yuanĠ ziĠ
gan ĠdaoĠ
jingĠ changĠ
cong ĠshiĠ
shao ĠnianĠ
Ġ 15
chong ĠjianĠ
fenĠweiĠ faĠguoĠ
ĠgaiĠshengĠ fenĠweiĠfaĠguoĠ
si ĠliĠ
Ġ bo
ĠnianĠ chuĠ
daĠ xue
ye ĠzaiĠ
Ġnian ĠyuĠ
cheng ĠliĠyuĠ
ĠbuĠ fen
shuo ĠfaĠ
zuoĠ zhanĠ
jia ĠzhongĠ
sheng ĠrenĠ
Ġ guoĠjiĠ
yangĠ huaĠ
ming ĠyiĠ
ĠĠĠ heĠ
lunĠ dun
lianĠheĠ guoĠ
zhengĠ mingĠ
fa ĠqiĠ
na ĠdeĠ
gou ĠdeĠ
jin ĠyiĠbuĠ
fang ĠqiĠ
daĠ quĠ
aoĠlinĠpiĠkeĠ yunĠdongĠhuiĠ
huo ĠshiĠ
fanĠ huiĠ
zi ĠweiĠ
tai ĠguoĠ
xiang ĠjiĠ
suoĠshuĠdeĠ shengĠjiĠxuanĠquĠweiĠ
Ġ deng
yuan ĠliĠ
2023 ĠnianĠ
gaoĠ dengĠ
m Ġ
ziĠ ran
yunĠ shuĠ
jieĠrang ĠdeĠshiĠzhenĠ
20 Ġ
ĠxiĠ beiĠ
biao ĠweiĠ
na ĠliĠ
gong ĠrenĠ
hua ĠweiĠ
jianĠ chengĠ
xi ĠzaiĠ
guo ĠyouĠ
Ġ huang
ti ĠxiĠ
Ġ zaoĠ
xingĠ qiĠ
ziĠ yuanĠ
Ġ chuangĠ
daoĠ luĠ
xiaĠ wuĠ
luo ĠfuĠ
ĠzhongĠ gongĠ
Ġ haĠ
dao ĠrenĠ
ĠdiĠ quĠdeĠ
xiĠbanĠ yaĠ
bei ĠyiĠ
diaoĠ cha
sheng ĠshiĠ
jin ĠyiĠ
ni ĠkeĠ
ĠzhiĠ chengĠ
Ġ 30
boĠ lanĠ
ĠĠĠ cheĠzhanĠ
wenĠ mingĠ
Ġ 4
an ĠshiĠ
faĠ sheĠ
feng ĠxianĠ
Ġ peiĠ
ĠĠĠ and
ĠĠĠ chuĠ
lanĠ qiuĠ
sou Ġ
ĠnianĠ houĠ
Ġ kang
wan ĠjiaĠ
ĠgongĠ chengĠ
chaoĠ zhengĠzhiĠrenĠwuĠ
pai ĠdeĠ
ĠĠĠ a
jian ĠjiĠ
ce ĠdeĠ
ĠdaĠ xue
ĠweiĠ shengĠ
guanĠ zhuĠ
ĠshiĠyiĠ weiĠ
ĠshiĠyiĠ mingĠ
ying ĠliĠ
lv ĠshiĠ
zhongĠ huaĠrenĠminĠgongĠheĠguoĠ
nanĠ shengĠ
chanĠ yeĠ
bei ĠjiĠ
shouĠ shangĠ
za Ġ
zi ĠheĠ
jingĠ shenĠ
fuĠ qinĠ
jinĠxingĠ leĠ
mie Ġ
ĠbuĠ nengĠ
tongĠ xingĠ
lie ĠweiĠ
xiangĠ dangĠ
shu ĠzhongĠ
lian ĠdeĠ
qiĠ zhongĠyiĠ
ĠshiĠ xianĠ
paiĠ mingĠ
xuĠ yao
ĠĠĠ taĠ
er ĠheĠ
Ġyue ĠzaiĠ
fo ĠjiaoĠ
liu ĠyuĠ
yanĠjiuĠ suoĠ
zhanĠ houĠ
Ġ bi
Ġ ben
ĠxiĠ nanĠ
t Ġ
ĠjiĠ duĠ
luoĠ ma
da ĠweiĠ
jie ĠyiĠ
yan ĠyiĠ
ke ĠweiĠ
sai ĠerĠ
xiaoĠ zuĠ
ba ĠnianĠ
jiaĠ tingĠ
U Ġ
Ġ longĠ
ĠheĠ bingĠ
genĠ ju
ĠzhiĠ xianĠ
zhengĠ juĠ
shenĠ me
Ġ ouĠ
qiu ĠdeĠ
ĠĠĠ beiĠ
xuan ĠrenĠ
su ĠdeĠ
Ġ canĠ
shuĠ liangĠ
Ġ lin
wang ĠshiĠ
ĠdeĠzhuĠ yaoĠ
xiĠ yangĠ
laiĠ yuanĠ
ĠnianĠ duĠ
sheng ĠyiĠ
reng ĠranĠ
taoĠ lunĠ
Ġ P
mingĠ danĠ
Ġ 10ĠyueĠ
rui ĠshiĠ
Ġ tuoĠ
zao ĠnianĠ
wenĠ jianĠ
shuai Ġ
su ĠgeĠ
lv ĠkeĠ
zhengĠ dangĠ
yu ĠĠĠ
rao Ġ
ĠjiĠ siĠ
Ġzong ĠrenĠkouĠ
xia ĠdeĠyiĠgeĠ
fan ĠdeĠ
ziĠ dongĠ
ĠwuĠ keĠ
Ġ queĠ
jiaoĠ tangĠ
biaoĠ mingĠ
diĠ siĠ
Ġfen ĠzhongĠ
lu ĠyuĠ
Ġ quan
ĠzhiĠ mingĠ
ĠbeiĠ jingĠ
ming ĠshiĠ
xu ĠdeĠ
xing ĠyiĠ
keĠliĠ siĠ
ĠĠĠ xianĠ
pingĠ lunĠ
Ġ ciĠshiĠ
ĠshiĠ jianĠyuĠ
eĠ luoĠ
zhuĠ chiĠ
0 Ġ
pingĠ taiĠ
ĠjiĠ huĠ
nanĠ jingĠ
Ġ 9
peng ĠyouĠ
yanĠ geĠ
ĠtaĠ menĠdeĠ
yinĠ hang
ĠliĠ renĠ
ĠdeĠdiĠ fangĠ
ĠguoĠ wangĠ
da ĠyueĠ
gong ĠzhongĠyangĠ
ke ĠzaiĠ
zuo ĠshiĠ
shen ĠweiĠ
fuĠzeĠ guanĠxiaĠ
lianĠ bang
yuan ĠzaiĠ
zheng ĠbuĠ
Ġ miaoĠ
biao ĠzhiĠ
ĠerĠ qie
qian ĠzhiĠ
tui ĠyiĠ
xuanĠ quĠ
cengĠ jingĠ
jing ĠyouĠ
Ġ 6
shu ĠyiĠ
jiao ĠbuĠ
Ġ 16
qian ĠshiĠ
hua ĠyuĠ
hao ĠweiĠ
chongĠ tuĠ
Ġyou ĠweiĠ
ke ĠshiĠ
mo ĠxingĠ
baoĠ chiĠ
jian ĠrenĠ
zi ĠyiĠ
zhou ĠweiĠ
zhang ĠdaĠ
xingĠ buĠ
xuanĠ chuanĠ
ĠĠĠ 2021
ĠĠĠ suiĠ
jing ĠweiĠ
ĠĠĠ in
gongĠ xianĠ
dui ĠyiĠ
Ġyou ĠliĠ
ĠjinĠ ruĠ
xia ĠshiĠ
Ġ ou
Ġ tanĠ
zhongĠ yangĠ
Ġ 17
shangĠ yingĠ
ĠjiĠ beiĠ
xianĠ faĠ
dao ĠheĠ
ru ĠheĠ
sai ĠzhongĠ
Ġ gao
biao ĠdaĠ
taiĠpingĠ yangĠ
keĠ siĠ
fengĠ baoĠ
guangĠ zhouĠ
daoĠ yanĠ
xian ĠjiĠ
xie ĠdeĠ
shengĠ huo
dangĠ xuanĠ
ĠĠĠ 2020
wu ĠweiĠ
ding ĠyuĠ
kuaiĠ suĠ
xiao ĠguoĠ
cha ĠyiĠ
yan ĠzhiĠ
jiaoĠ quĠ
Ġceng ĠrenĠ
liang ĠzhongĠ
pingĠ mianĠ
rou Ġ
anĠ jianĠ
ĠerĠrenĠkouĠmiĠduĠweiĠmeiĠpingĠfangĠ qianĠmiĠ
luĠ siĠ
lei ĠxingĠ
tuanĠ duiĠ
Ġ qinĠ
yuanĠ zhangĠ
chengĠ xianĠ
neiĠ rong
shenĠ qingĠ
jiu ĠnianĠ
R Ġ
Ġ 5
Ġ dai
biĠ yaĠ
Ġ zheng
ĠliĠ daĠ
wu ĠyuĠ
ĠzhiĠ fuĠ
qiuĠ changĠ
puĠ tongĠ
ĠyiĠ xiĠ
jianĠ duiĠ
xiaoĠ shouĠ
Ġ han
xing ĠrenĠ
xian ĠheĠ
queĠ zhenĠ
ne Ġ
ĠyiĠ shangĠ
heng ĠxingĠ
fenĠ bieĠ
ruĠ ciĠ
xi ĠheĠ
tiaoĠ zhanĠ
duiĠ shouĠ
ĠzhiĠ zaoĠ
bao ĠweiĠ
ĠĠĠ geĠ
ĠyinĠ duĠ
cheng ĠyuĠ
Ġyue ĠyuĠ
laiĠ shuoĠ
ĠzhongĠ huaĠ
Ġ qiĠyuĠ
ri ĠqiĠ
Ġ xu
yaoĠ qingĠ
ĠshiĠ diĠ
xueĠ shuĠ
he ĠyuĠ
hou ĠyouĠ
Ġ K
hui ĠjiĠ
huoĠ dong
ĠĠĠand ĠĠĠ
gongĠ luĠ
caiĠ yong
nu ĠliĠ
yingĠgeĠ lanĠ
yuanĠ suĠ
wangĠ luĠ
anĠ naĠ
ni ĠdeĠ
nengĠ gou
bian ĠjiĠ
ĠxiangĠ gang
Ġ maiĠ
Ġ 8ĠyueĠ
fan ĠyiĠ
zhengĠ zhuangĠ
ĠshiĠyiĠ ge
fuĠ qin
ĠliĠ lunĠ
ziĠzhiĠ quĠ
Ġ pei
wei ĠĠĠ
jieĠfangĠ junĠ
Ġ xiaoĠshiĠ
xiaoĠ zhangĠ
teĠ bieĠ
lun ĠdeĠ
ĠyiĠ liĠ
2024 ĠnianĠ
ta ĠshiĠ
haiĠ ziĠ
lan ĠkeĠ
xiang ĠyuĠ
chuang ĠliĠ
shuĠ ziĠ
gengĠ mingĠweiĠ
dianĠ taiĠ
nei ĠgeĠ
ting ĠdeĠ
duo ĠzhongĠ
Ġ zaiĠyiĠ
she ĠyuĠ
1999 ĠnianĠ
zongĠ duĠ
M Ġ
qu ĠheĠ
jia ĠrenĠ
xin ĠshiĠ
xianĠ xiangĠ
min ĠdeĠ
Ġjie ĠguoĠ
ĠĠĠ 2019
jiang ĠxiĠ
ĠtongĠ changĠ
reĠ daiĠ
sun ĠshiĠ
ming ĠyuĠ
banĠ gongĠshiĠ
ru ĠguoĠ
bo ĠdeĠ
la ĠfuĠ
qiĠ yeĠ
shouĠ ruĠ
jiangĠ xiangĠ
jie ĠweiĠ
pang Ġ
ĠshiĠ you
jiaĠ geĠ
ĠĠĠ wuĠ
sa ĠkeĠ
chuĠ shenĠ
ka ĠsiĠ
jieĠ jinĠ
juĠ xingĠdeĠ
ĠĠĠ xiaĠ
jingĠ chaĠ
jie ĠyuĠ
zhan ĠjiĠ
lin ĠdeĠ
Ġ laoĠ
daoĠ daĠ
ĠĠĠ 2018
ĠdaĠ quĠ
xuanĠ ze
Ġ zhuan
hai ĠdeĠ
ĠliĠ heĠ
Ġ T
wenĠ zhangĠ
shaoĠ shuĠ
luĠdiĠ mianĠjiĠweiĠ
Ġ suoĠyouĠ
kan ĠdaoĠ
zai ĠzhiĠ
hou ĠqiĠ
shuiĠyuĠ mianĠjiĠweiĠ
Ġ xiongĠ
hu ĠshiĠ
jiang ĠdiĠ
Ġ 19
tou ĠxiangĠ
jieĠ quanĠguoĠ
ĠfaĠ xianĠ
Ġ zhiĠshiĠ
1998 ĠnianĠ
wen ĠyiĠ
lunĠ dunĠ
kang ĠyiĠ
ĠjiĠ benĠ
ĠdeĠdiĠ quĠ
guanĠ dianĠ
xingĠ jianĠ
huiĠ shangĠ
wenĠ ziĠ
qi ĠyouĠ
Ġ 7
zhuĠ yanĠ
Ġxian ĠzaiĠ
Ġ cheĠzhanĠ
xi ĠzhiĠ
amp Ġ
F Ġ
chuĠ shengĠ
haiĠ anĠ
ĠjiĠ zheĠ
zhang ĠshiĠ
ĠzheĠ xie
Ġ G
jun ĠdiĠ
ĠjiĠ tuan
ming ĠdiĠ
sang Ġ
xiĠ beiĠ
tiĠ mingĠ
ĠhouĠ lai
rong ĠyiĠ
Ġ ampĠ
ĠĠĠ keĠ
zhenĠ duiĠ
du ĠyuĠ
cuo ĠshiĠ
zhangĠ keĠdaĠ
Ġ shou
fang ĠzaiĠ
tianĠ jinĠ
tiaoĠ zhengĠ
poĠ huaiĠ
xin ĠrenĠ
ĠdangĠzhongĠ luĠdiĠmianĠjiĠweiĠ
wen ĠdeĠ
ĠerĠ shuiĠyuĠmianĠjiĠweiĠ
Ġ jiĠshiĠ
ĠĠĠ 2022
xi ĠyiĠ
jian ĠzhongĠ
ĠbeiĠ erĠ
Ġ juĠliĠ
xingĠ xingĠ
ĠdeĠyiĠ zuoĠ
chuĠ faĠ
zao ĠyuĠ
xi ĠzhongĠ
chi ĠdeĠ
teng Ġ
jingĠ dianĠ
ba ĠxiĠ
guang ĠxiĠ
luo ĠdiĠ
ruĠ kouĠ
Ġ TheĠĠĠ
gou ĠchengĠ
ĠyiĠ jianĠ
bianĠ jieĠ
ĠyouĠ buĠ
hao ĠxianĠ
da ĠzhongĠ
ĠshiĠ liĠ
ming ĠzhiĠ
fu ĠjiĠ
zhongĠ yaoĠ
ĠzaiĠ zheĠ
ĠĠĠxingĠzhengĠ quĠhuaĠ
shan ĠjiĠ
Ġ ao
Ġ jingĠguoĠ
cunĠ zhuangĠ
ĠdeĠzhiĠ chiĠ
ha ĠerĠ
yueĠ taiĠ
ĠyuĠ ciĠ
touĠ ruĠ
ĠshiĠ quĠ
duiĠ wuĠ
da ĠzhiĠ
xian ĠyouĠ
ĠnianĠ beiĠ
keng Ġ
Ġyue ĠyouĠ
ĠweiĠ lianĠ
jueĠ ding
aoĠ menĠ
wai ĠguoĠ
Ġcong ĠerĠ
Ġ saĠ
ĠzhongĠ yaoĠ
Ġ 9ĠyueĠ
dengĠ luĠ
ĠshiĠ yong
ye ĠbuĠ
chang ĠyiĠ
gongĠ si
Ġ formulaĠ
Ġyue ĠweiĠ
jinĠ ru
touĠ piaoĠ
ĠĠĠ 2017
taiĠ yangĠ
nuo ĠweiĠ
ĠshiĠ zhongĠguoĠ
yuanĠ huiĠ
biĠ yeĠyuĠ
zhang ĠyuĠ
dao ĠjiĠ
ĠzhiĠ xiaĠ
siĠ chuanĠ
fang ĠweiĠ
yinĠ faĠ
d Ġ
jia ĠyuĠ
cun ĠdeĠ
gong ĠyuĠ
tui ĠdongĠ
juĠ zhuĠ
queĠ dingĠ
zhan ĠdiĠ
mei ĠnianĠ
Ġ I
haiĠ daoĠ
qianĠ shuĠ
ĠyiĠ daĠliĠ
leĠ siĠ
ziĠ ranĠ
ganĠ ran
ĠtiĠ zhangĠkeĠdaĠ
hun ĠheĠ
ĠzaiĠ beiĠ
zi ĠliĠ
nanĠ beiĠ
Ġ 7ĠyueĠ
jun ĠyiĠ
tuĠerĠ qiĠ
shi ĠĠĠ
ke ĠyuĠ
piĠ zhunĠ
ĠweiĠfuĠ qiĠyuĠ
fen ĠdeĠ
heng ĠliĠ
fangĠ wenĠ
ĠrenĠ menĠ
shu ĠheĠ
ĠjiĠ chengĠ
tu ĠdeĠ
zhuang ĠjiaĠ
zhan ĠzhongĠ
Ġ zhongĠdeĠ
er ĠrenĠ
ma ĠkeĠ
ĠnianĠ heĠ
ĠĠĠ 2016
tiĠ gaoĠ
Ġta ĠyiĠ
qiĠ ziĠ
Ġ yong
Ġ biaoĠ
C Ġ
mo ĠerĠ
xiao ĠliĠ
jian ĠheĠ
chu ĠjiĠ
ziĠ jinĠ
er ĠyuĠ
wenĠ dingĠ
Ġ xiuĠ
Ġ 12ĠyueĠ
jieĠshuĠ houĠ
ci ĠweiĠ
baoĠ liuĠ
xin ĠyiĠ
ĠliĠ ya
ang Ġ
cheng ĠzhiĠ
Ġ feng
Ġ hong
zhong ĠliĠ
chengĠ zuoĠ
shang ĠrenĠ
ceng ĠyuĠ
benĠ tuĠ
yongĠ huĠ
houĠ xuanĠrenĠ
yingĠ pianĠ
ĠwoĠ menĠ
Ġ e
Ġ 11ĠyueĠ
ĠdeĠyiĠ zhiĠ
chuĠ zhanĠ
Ġ pa
jian ĠzaiĠ
ĠdiĠ qu
ĠtaĠ yeĠ
meiĠ geĠ
ĠdeĠshiĠ quĠweiĠ
di ĠjiĠ
xunĠ suĠ
ĠĠĠdeĠ shiĠ
biĠsai ĠzhongĠ
ĠjiaĠ shangĠ
Ġbing ĠyiĠ
Ġhai ĠyouĠ
18 Ġ
xueĠ huiĠ
sa ĠerĠ
jianĠ zaoĠ
xiaĠ laiĠ
guangĠ fanĠ
Ġ tw
dang ĠshiĠdeĠ
ĠĠĠ A
ĠnianĠ youĠ
shuiĠ pingĠ
shan ĠdaĠ
hans Ġ
heĠ zuoĠ
tu ĠzhongĠ
lingĠ waiĠ
ĠzhongĠguoĠ gongĠchanĠdangĠ
Ġ tingĠ
Ġ hansĠ
bo ĠerĠ
jianĠ shaoĠ
xuĠ qiuĠ
Ġtw Ġ
Ġ 21Ġ
ĠrenĠ leiĠ
daĠ fuĠ
paiĠ chuĠ
xinĠ haoĠ
nan ĠyiĠ
teĠ shuĠ
Ġ 2011
Ġ taoĠ
zhu ĠbuĠ
lv ĠweiĠ
ĠĠĠ erĠ
zuiĠ chuĠ
Ġ an
shan ĠdeĠ
buĠ duiĠ
ĠĠĠ qingĠ
Ġri ĠyuĠ
xu ĠshiĠ
jieĠ rangĠ
zhuĠ mingĠdeĠ
xiaoĠ shuo
banĠ gongĠ
ke ĠheĠ
zhuang ĠzhiĠ
jiangĠ suĠ
ĠĠĠ 2023
siĠ keĠ
pinĠ paiĠ
jinĠ shuĠ
ĠchengĠ yuanĠ
ĠyuĠ renĠ
mouĠ xieĠ
jie ĠyouĠ
ĠyiĠ jiaĠ
jieĠ keĠ
Ġ na
sheĠhuiĠ zhuĠyiĠ
aoĠ daĠliĠyaĠ
ĠjiĠ guanĠ
Ġ O
faĠ chuĠ
kong ĠzhongĠ
ĠxiĠ baoĠ
ĠĠĠ 2014
wa ĠerĠ
ziĠ xunĠ
Ġ 2010ĠnianĠ
lu ĠzhiĠ
jingĠ yanĠ
Ġ wang
ĠzaiĠ daĠ
jiaĠ zuĠ
Ġ jingĠjiĠ
1997 ĠnianĠ
Ġ eĠluoĠsiĠ
bei ĠzhiĠ
dang ĠzhongĠ
chang ĠheĠ
suo ĠdeĠ
yingĠ wenĠ
sha ĠsiĠ
ĠzhiĠ nengĠ
zhu ĠyouĠ
sui ĠdaoĠ
chuĠ shengĠyuĠ
ĠgongĠ tongĠ
ĠzaiĠ zhongĠguoĠ
ĠfaĠ xingĠ
minĠ jianĠ
Ġ zhuangĠ
Ġ chuĠyuĠ
jueĠ se
ĠĠĠ yuĠshiĠdeĠrenĠkouĠshuĠliangĠweiĠrenĠ
ĠĠĠ suoĠshuĠdeĠshengĠjiĠxuanĠquĠweiĠ
ĠjiĠ renĠ
ĠguoĠ chengĠ
ĠjieĠ muĠ
ĠĠĠdeĠ youĠzhengĠbianĠmaĠweiĠ
ĠĠĠyuĠ jieĠrangĠdeĠshiĠzhenĠ
ĠĠĠdeĠshiĠ quĠweiĠ
ĠĠĠ 2015
ĠĠĠ yuanĠ
Ġ 2019
ge ĠyouĠ
ĠheĠ xiĠ
ti ĠshiĠ
zeng ĠzhangĠ
xiangĠ siĠ
geng ĠjiaĠ
keĠ chengĠ
ĠbingĠ jiangĠ
Ġ 2009ĠnianĠ
nan ĠdeĠ
cheĠ zhan
jun ĠjiĠ
kongĠ junĠ
ĠdiĠ daĠ
guĠ wenĠ
1996 ĠnianĠ
ĠheĠ erĠ
huiĠ yingĠ
te ĠerĠ
jiang ĠdeĠ
Ġ hk
yinĠ suĠ
ĠshengĠ huo
zhou ĠfuĠ
lingĠ tuĠ
guangĠ gaoĠ
ĠĠĠ 2013
jiaoĠ lianĠ
chao ĠshiĠ
n Ġ
fo Ġ
he ĠyouĠ
geĠ geĠ
feiĠ jianĠzhiĠ
ti ĠyiĠ
daĠ chengĠ
jieĠ gou
tiĠ shengĠ
Ġ N
ci ĠyiĠ
ĠbuĠ tongĠdeĠ
da ĠyuĠ
guanĠ biĠ
ĠĠĠ xinĠ
hua ĠzhongĠ
Ġ 6ĠyueĠ
er ĠyiĠ
hua ĠheĠ
12 Ġ
Ġ xuanĠbuĠ
Ġhk Ġ
fang ĠbuĠ
ĠkeĠ xueĠ
ĠdeĠguoĠ jiaĠ
zhuang ĠshiĠ
lang ĠdeĠ
jiaĠ ru
gongĠ minĠ
ĠerĠ gaiĠ
bao ĠliĠ
xingĠ taiĠ
junĠ gongĠ
ge ĠyiĠ
hanĠ shuĠ
zong ĠbuĠ
ĠshiĠ meiĠguoĠ
minĠzhuĠ dangĠ
shanĠ mai
zhengĠfu ĠdeĠ
ĠĠĠ S
Ġbing ĠyouĠ
Ġ laiĠziĠ
dang ĠyuĠ
rui ĠdianĠ
tun Ġ
le ĠshiĠ
ĠjiĠ nianĠ
diĠ guoĠ
neiĠ luĠ
quanĠ mianĠ
luo ĠkeĠ
ĠyueĠ taiĠ
wei ĠyiĠgeĠ
zhuan ĠjiaĠ
ĠxuĠ duoĠ
ling ĠdeĠ
huiĠ beiĠ
zheĠ xie
shan ĠshiĠ
ĠyouĠ qiĠshiĠ
1992 ĠnianĠ
woĠ menĠ
jiuĠ dianĠ
Ġ maoĠ
ĠxiĠ jieĠ
Ġwan ĠrenĠ
wuĠkeĠ lan
chengĠ xuĠ
ĠqiĠ zhongĠyiĠ
anĠ quan
Ġ reng
Ġdan ĠtaĠ
tuĠ shuĠguanĠ
Ġ chaĠ
Ġ 5ĠyueĠ
feiĠjianĠzhiĠ diĠquĠ
ĠĠĠ xiangĠ
zuĠ chengĠdeĠ
ba ĠweiĠ
faĠ lv
dui ĠshiĠ
guo ĠweiĠ
ĠyouĠ xiaoĠ
siĠ xiangĠ
L Ġ
anĠ paiĠ
ju ĠbuĠ
tian ĠdeĠ
Ġ qian
Ġ lieĠ
dianĠ nao
chang ĠyuĠ
tan ĠkeĠ
tong ĠyuĠ
ma ĠerĠ
Ġ B
Ġ 2018
ge ĠzhiĠ
jiu ĠzhiĠ
ĠdiĠ xiaĠ
seĠ lieĠ
yanĠjiuĠ yuanĠ
moĠxiĠ geĠ
ĠĠĠ to
Ġ zhengĠfuĠ
jinĠ paiĠ
shuĠ xueĠ
xiaĠ jiangĠ
Ġ rangĠ
zhuĠ mingĠ
shouĠ fuĠ
huanĠ yingĠ
ĠshiĠjieĠ beiĠ
ĠĠĠ li
zhuan ĠyiĠ
ĠjiĠ chuĠ
jiu ĠdeĠ
ĠheĠ diĠ
sanĠ jiaoĠ
ĠĠĠjiaĠ zuĠ
mingĠ mingĠweiĠ
deng ĠweiĠ
shengĠ zhangĠ
laiĠ daoĠ
jingĠ zhengĠ
beiĠrenĠ weiĠshiĠ
xianĠ changĠ
xiu ĠgaiĠ
huiĠ zhangĠ
weiĠ zhiĠ
shuo ĠmingĠ
ĠweiĠyuanĠ hui
dai ĠliĠ
que ĠfaĠ
bing ĠshiĠ
ziĠ muĠ
hua ĠrenĠ
yongĠ laiĠ
muĠ qinĠ
xunĠ huiĠ
Ġdan ĠyouĠyuĠ
Ġ sheĠjiĠ
mingĠ lingĠ
dai ĠyouĠ
leng Ġ
ĠĠĠ zhĠ
wen ĠshiĠ
Ġ minĠguoĠ
yeĠ beiĠ
Ġyin ĠyueĠ
maoĠ qiuĠ
ĠdeĠdiĠ erĠ
ĠliĠ ru
ĠtaĠ beiĠ
Ġ 4ĠyueĠ
zhu ĠjiĠ
liao ĠjieĠ
Ġ kangĠ
zhe ĠliĠ
ta ĠyuĠ
dui ĠqiĠ
juĠ zhangĠ
feiĠ lvĠ
ĠzhongĠguoĠ renĠminĠ
yin ĠdeĠ
chengĠweiĠ leĠ
ĠĠĠ jieĠzhiĠ
ruan Ġ
caiĠ quĠ
quan ĠshiĠ
shou ĠzhongĠ
jun ĠyouĠ
sui ĠjiĠ
1995 ĠnianĠ
yingĠ yunĠ
shenĠ tiĠ
chanĠ pin
xu ĠkeĠ
beiĠ erĠ
cheĠ xiaoĠ
changĠ pianĠ
ĠshangĠ haiĠ
canĠjiaĠ leĠ
faĠ anĠ
tieĠ lu
Ġ 2016
Ġ caoĠ
ĠyiĠ juĠ
ĠerĠ fuĠ
boĠ fangĠ
ĠyiĠ nianĠ
Ġ kuanĠ
1994 ĠnianĠ
ĠyiĠ zaiĠ
11 Ġ
chang ĠdiĠ
ĠdaĠ buĠfenĠ
ma ĠsiĠ
banĠ faĠ
ti ĠzhongĠ
che ĠdeĠ
ĠrenĠ gongĠ
ĠliĠ buĠ
ĠxingĠ dongĠ
tai ĠjiĠ
faĠ dianĠ
shangĠ hai
baiĠ seĠ
ju ĠheĠ
Ġyou ĠyouĠ
ĠqiĠ laiĠ
ĠĠĠ zhongĠguoĠ
ziĠ zhuĠ
shenĠ jingĠ
ĠshiĠyiĠ nianĠ
gua Ġ
ĠdiĠ tieĠ
huaĠ yuanĠ
wangĠ qiuĠ
zhanĠ taiĠ
ĠliĠ shuĠ
chuĠ xiĠ
ĠerĠ buĠ
ĠfuĠ jinĠ
fu ĠyouĠ
dian ĠqiĠ
su ĠweiĠ
jieĠ hunĠ
xueĠ xiao
ĠrenĠminĠ zhengĠfuĠ
Ġ ka
huaĠ shengĠ
ĠdaĠ liangĠ
chang ĠzaiĠ
wanĠ shangĠ
2020ĠnianĠ meiĠguoĠrenĠkouĠpuĠchaĠdeĠshuĠjuĠ
gu ĠdeĠ
ma ĠdeĠ
ĠzhiĠ diĠ
ling ĠxianĠ
chanĠ shengĠdeĠ
yanĠchangĠ huiĠ
leĠ taĠ
xing ĠzhongĠ
ling ĠbuĠ
geĠ leiĠ
tongĠ cheĠ
zuĠ jianĠ
ĠweiĠ renĠ
yaoĠ wuĠ
Ġ daiĠbiaoĠ
xue ĠheĠ
que ĠrenĠ
ren ĠyouĠ
qin ĠshiĠ
ĠweiĠ weiĠ
ĠzaiĠ xiĠ
xianĠ houĠ
X Ġ
ĠĠĠ 2025
chao ĠdeĠ
yinĠ du
qiuĠ huiĠ
yunĠ xuĠ
maĠlai ĠxiĠyaĠ
Ġ yingĠyuĠ
ĠĠĠ 2024
chuĠ xianĠzaiĠ
ze ĠyouĠ
Ġ lao
kuo ĠdaĠ
xiangĠ xiĠ
huoĠ jianĠ
lieĠ biaoĠ
H Ġ
bu ĠyouĠ
ruĠ xuanĠ
Ġ lu
liang ĠshiĠ
ĠĠĠ qianĠ
wu ĠheĠ
ĠzaiĠ meiĠguoĠ
ĠjiĠ huiĠ
shanĠxiĠ shengĠ
tuo ĠliĠ
ĠzhiĠ duĠ
ĠshiĠdeĠ yiĠ
lv ĠxingĠ
dai ĠbuĠ
jiaoĠ liuĠ
huĠ beiĠ
1991 ĠnianĠ
changĠ pian
ĠĠĠ nian
cheng ĠliĠdeĠ
yueĠ hanĠ
ĠyouĠ xieĠ
aoĠ diĠliĠ
ĠxiĠ laĠ
ĠC Ġ
zhaoĠ kaiĠ
shen ĠshiĠ
wu ĠyueĠ
ze ĠweiĠ
suan ĠjiĠ
jing ĠyuĠ
tai ĠshiĠ
ĠyiĠ tongĠ
xingĠ xiangĠ
gongĠ changĠ
Ġ qiaoĠ
liang ĠrenĠ
pei ĠyinĠ
cu ĠjinĠ
Ġ quanĠguoĠ
daĠ luĠdeĠ
zhuang ĠdeĠ
xingĠ quĠ
guiĠ zeĠ
bingĠ meiĠyouĠ
fen ĠliĠ
ĠmingĠ chaoĠzhengĠzhiĠrenĠwuĠ
ĠliĠshiĠ shangĠ
ci ĠzaiĠ
gong ĠzhiĠ
ping ĠweiĠ
siĠ teĠ
daiĠbiao ĠdaĠhuiĠ
xin ĠjiĠ
ĠjiĠ erĠ
jin ĠbuĠ
long ĠdeĠ
ĠfuĠ jianĠ
ĠzheĠ jiangĠ
ĠzhongĠ youĠ
jiaoĠ xueĠ
zhuangĠ kuangĠ
ĠshiĠ tuĠ
xiaĠjiĠ aoĠlinĠpiĠkeĠyunĠdongĠhuiĠ
Ġ yaoĠqiuĠ
tong ĠbuĠ
yuanĠ gongĠ
ĠxiĠ juĠ
shun Ġ
ĠweiĠ liĠ
teĠ seĠ
yunĠ dong
suiĠ houĠ
zhe ĠzaiĠ
nan ĠshiĠ
kong ĠbuĠ
la ĠjiĠ
piaoĠ fangĠ
Ġliang ĠrenĠ
da ĠheĠ
bao ĠshiĠ
wenĠ xianĠ
Ġ panĠ
ĠĠĠ xiaoĠ
leĠ daĠ
k Ġ
Ġ 3ĠyueĠ
dao ĠzhongĠ
luo ĠjiĠ
ĠtaĠ haiĠ
feiĠ zhouĠ
puĠ bianĠ
Ġ 2011ĠnianĠ
kou ĠweiĠ
pei ĠheĠ
sa ĠsiĠ
ĠxiĠ ya
lian ĠrenĠ
xianĠ luĠ
sheĠ jiĠdeĠ
fen ĠzhongĠ
zhuan ĠxiangĠ
ĠbuĠ keĠ
wangĠ chaoĠ
ĠnianĠ qianĠ
kaoĠ lvĠ
ĠzhiĠ ziĠ
Ġ dou
Ġ jiaoĠyuĠ
meiĠ guoĠdeĠ
Ġ tuiĠ
Ġ nvĠxingĠ
jie ĠrenĠ
1988 ĠnianĠ
ĠweiĠ wuĠ
tongĠ daoĠ
ĠchengĠ gongĠ
mingĠ xianĠ
jingĠ cha
ĠdaĠ chengĠ
Ġ 2021
ĠweiĠ xingĠ
qiĠzhongĠyiĠ zhongĠ
ĠĠĠ guoĠ
zuiĠ hou
ĠtaiĠ wan
Ġ nai
Ġ saiĠjiĠ
fangĠ wuĠ
Ġ sun
ĠyiĠ ban
hongĠ seĠ
Ġ mai
zhao ĠdaoĠ
1993 ĠnianĠ
ĠweiĠ heĠ
caiĠ liaoĠ
Ġsui ĠdeĠ
ĠĠĠ congĠ
zheng ĠheĠ
ĠliĠ miĠ
buĠ tongĠdeĠ
ĠdeĠzhiĠ wuĠ
lingĠ daoĠrenĠ
hun ĠyinĠ
Ġ2001ĠnianĠ renĠkouĠ
ĠĠĠ 2012
sao Ġ
ĠyuĠ leĠ
ĠxingĠ qiĠ
ĠshiĠweiĠ leĠ
bao ĠzhiĠ
ĠweiĠ huiĠ
ti ĠzhiĠ
ĠweiĠ laiĠ
fenĠ buĠyuĠ
ĠtiĠ gongĠ
Ġ 2015
xie ĠrenĠ
xie ĠdaoĠ
ĠxiĠ buĠ
Ġ sĠĠĠ
jun ĠyuĠ
shou ĠzhiĠ
fu ĠzaiĠ
dongĠ nanĠbuĠ
chuanĠ boĠ
ĠshiĠ daĠ
ĠrenĠ shuĠ
biaoĠ mianĠ
jieĠ mu
dongĠ beiĠbuĠ
feiĠ chuĠ
Ġ 2005ĠnianĠ
he ĠĠĠ
dianĠ huaĠ
Ġ guanĠyuĠ
bao ĠyuĠ
ruan ĠjianĠ
t ĠĠĠ
dan ĠdeĠ
you ĠshiĠ
suo ĠzaiĠ
Ġ hanĠguoĠ
wuĠ taiĠ
duiĠ zhangĠ
Ġyin ĠerĠ
jin ĠyouĠ
tui ĠjinĠ
ge ĠheĠ
wuĠ zhuangĠ
zhengĠ changĠ
ling ĠdiĠ
tiĠ daoĠ
qianĠ wang
guoĠjiĠ jiĠ
chuĠ laiĠ
Ġ zaoĠchengĠ
ĠnianĠ diĠ
yaĠliĠ shanĠdaĠ
ĠzaiĠ jiaĠ
yingĠ gaiĠ
ĠjiaĠ naĠdaĠ
ĠxiĠ tong
ĠerĠshuiĠyuĠmianĠjiĠweiĠ 0
mei ĠdeĠ
siĠ lingĠ
yuanĠ xingĠ
gui ĠdeĠ
bo ĠsiĠ
faĠ biao
poĠ huai
Ġye ĠyouĠ
yin ĠdiĠ
J Ġ
jue ĠshiĠ
Ġ qi
ben ĠdiĠ
ĠyuĠ heĠ
daĠ buĠfenĠ
ye ĠheĠ
riĠ junĠ
dongĠ fangĠ
ĠpingĠfangĠ miĠ
ĠxianĠ houĠ
yongĠ zuoĠ
siĠ geĠ
anĠ huiĠ
xiang ĠyiĠ
mingĠ xingĠ
qingĠ baoĠ
jiao ĠdaĠ
bian ĠxingĠ
ĠshiĠ houĠ
ĠheĠ pingĠ
Ġ 2017
ĠĠĠ zaoĠnianĠ
faĠxianĠ leĠ
xu ĠzaiĠ
15 Ġ
ĠerĠ gaiĠdiĠ
canĠ mou
caoĠ zuoĠ
Ġ 2020
Ġ 2014
jiao ĠyouĠ
tai ĠrenĠ
nei ĠyouĠ
Ġ chi
Ġ 2013
qiang ĠdeĠ
l Ġ
ĠshiĠ geĠ
zuiĠ gao
Ġ dianĠyingĠ
ĠyiĠ duĠ
ĠdeĠshiĠ jieĠ
gengĠ duoĠ
aoĠyunĠ huiĠ
yeĠ huiĠ
ĠgeĠ quĠ
Ġ xiu
duiĠ xiangĠ
huoĠ zheĠ
ĠyueĠ nanĠ
jieĠ shaoĠ
tuan ĠdeĠ
mei ĠliĠ
zhouĠ bianĠ
ĠĠĠ K
ju ĠyiĠ
dun ĠdeĠ
ĠqiĠ zaiĠ
zuoĠ quĠ
Ġ shengĠyuĠ
bian ĠshiĠ
Ġ yang
gongĠ juĠ
dengĠ shangĠ
Ġsui ĠzheĠ
junĠ quĠ
hu ĠdeĠ
jia ĠzaiĠ
yong ĠshiĠ
jue ĠyiĠ
leĠ taĠdeĠ
ĠsiĠ lingĠ
xiaĠ xiaĠdeĠyiĠgeĠ
haiĠ xiaĠ
longĠ jiangĠ
Ġ dui
hu ĠyuĠ
ĠbuĠ menĠ
xiĠ nanĠ
yanĠ shenĠ
yongĠ tuĠ
zhengĠ tiĠ
zhan ĠzhiĠ
sui ĠzhuĠ
shuĠ ruĠ
douĠ huiĠ
ĠshiĠwuĠ keĠ
shouĠ zhangĠ
queĠzhenĠ bingĠliĠ
Ġ xiao
19 ĠshiĠjiĠ
xia ĠyouĠ
yun ĠshiĠ
gao ĠjiaĠ
Ġri ĠdeĠ
zuo ĠrenĠ
ĠerĠ yanĠ
yunĠ zuoĠ
la ĠheĠ
nie Ġ
tongĠ yangĠ
gouĠ zaoĠ
banĠshiĠ chuĠ
Ġnan ĠzhiĠ
you ĠyuĠ
liu ĠzaiĠ
ĠĠĠ zengĠ
hua ĠjiĠ
chang ĠyouĠ
ĠdaĠ xingĠ
22 Ġ
1990 ĠnianĠ
san ĠjiĠ
xiaĠ ling
ĠjuĠ xingĠ
Ġxian ĠrenĠ
Ġ chengĠliĠ
fei ĠliĠ
ĠerĠ ziĠ
ĠsiĠ wangĠ
ĠweiĠ keĠ
daĠ chenĠ
faĠ shouĠ
ĠqiĠ ziĠ
ĠzhongĠ zaiĠ
miĠ miĠ
ĠwanĠ meiĠyuanĠ
renĠ daĠ
guangĠ bo
Ġ 100
Ġ zhongĠshiĠ
shang ĠyuĠ
bin ĠhaiĠ
gongĠ siĠdeĠ
ĠnianĠ laiĠ
chuĠ kouĠ
junĠ guanĠ
haiĠ waiĠ
Ġ 2010
du ĠheĠ
ĠzhiĠ dingĠ
shuĠ yuanĠ
xiaoĠ quĠ
Ġ niu
Ġ shaoĠ
si ĠyiĠ
jia ĠyouĠ
kaiĠ zhanĠ
chuan ĠzhiĠ
chuang ĠjianĠ
ĠqiĠ xiangĠ
ĠdongĠ linĠ
shou ĠyiĠ
chai ĠchuĠ
liangĠ ciĠ
lingĠ xiuĠ
caiĠ zhengĠ
guan ĠshiĠ
huiĠ yuanĠ
ĠbaoĠ hanĠ
Ġ huan
Ġ zhengĠzhiĠ
reng Ġ
ĠyouĠ keĠ
wan ĠrenĠ
zhuĠ zuoĠ
gu ĠliĠ
zun Ġ
touĠ piao
ya ĠkeĠ
ĠerĠ tongĠ
Ġ jianĠyuĠ
an ĠdaĠ
ĠĠĠ siĠ
dongĠ zuoĠ
ĠjieĠ shouĠ
fu ĠweiĠ
shanĠ quĠ
bei ĠshiĠweiĠ
tu ĠxingĠ
ĠxianĠ luĠ
senĠ linĠ
qin ĠziĠ
zhuĠ jueĠ
kaĠ luoĠ
zhuang ĠbeiĠ
jiangĠ huiĠ
gaoĠsu ĠgongĠluĠ
wuĠ siĠ
ĠnianĠ1ĠyueĠ 1ĠriĠ
geng ĠweiĠ
Ġ hengĠ
hui ĠzhongĠ
jin ĠweiĠ
1989 ĠnianĠ
ban ĠliĠ
tian ĠshiĠ
ĠyiĠ meiĠyuanĠ
ĠzaiĠ duĠ
Ġ cai
ming ĠzhongĠ
Ġ yongĠyouĠ
liu ĠdeĠ
shouĠ luĠ
waiĠ jiaoĠbuĠ
Ġ kai
Ġ shun
Ġ 2007ĠnianĠ
ren ĠliĠ
biĠ mianĠ
ri ĠzhiĠ
juĠ qingĠ
ĠdongĠ beiĠ
xiangĠ zhengĠ
ĠerĠ chengĠ
shou ĠxiĠ
deng ĠdeĠ
baoĠ shouĠ
junĠ zhuĠ
zhangĠ guanĠ
qingĠ chuĠ
huĠ nanĠ
ceĠ liangĠ
Ġ 2008ĠnianĠ
ji ĠĠĠ
meng ĠdeĠ
ĠyiĠ houĠ
Ġnian ĠĠĠ
ĠjieĠ keĠ
ĠshengĠhuo ĠxiĠ
Ġ ni
ĠĠĠ dangĠ
can ĠyiĠyuanĠ
ĠqiĠ xiaĠ
chuĠ daoĠ
taiĠ fengĠ
kaiĠ tongĠ
yan ĠxiĠ
jingĠ xuanĠ
duiĠ waiĠ
chang ĠzhiĠ
Ġ sheĠhuiĠ
pian ĠdeĠ
1984 ĠnianĠ
guanĠ chaĠ
dingĠ juĠ
ĠmeiĠ geĠ
Ġ 2012
shengĠ yinĠ
taiĠ ziĠ
Ġ canĠjiaĠ
zhan ĠqiĠjianĠ
zu ĠfuĠ
pi ĠfuĠ
bingĠ ruĠ
daiĠ laiĠ
fanĠweiĠ neiĠ
xingĠbuĠ mingĠ
Ġ juĠyouĠ
hua ĠheĠwuĠ
liang ĠjiĠ
ĠweiĠ nengĠ
zhe ĠbuĠ
Ġ sheĠyouĠ
lao ĠdongĠ
du ĠliĠdeĠ
x Ġ
lei ĠdaĠ
ĠwuĠ faĠ
fei ĠdeĠ
guoĠ wangĠ
Ġ su
ĠĠĠ mingĠ
zhuan ĠdeĠ
jianĠ jieĠ
kang ĠriĠ
gouĠ maiĠ
ĠshengĠhuoĠxiĠ xingĠbuĠmingĠ
fangĠ mianĠdeĠ
er ĠyueĠ
le ĠĠĠ
jiang ĠjiĠ
maĠ laĠ
zhou ĠqiĠ
lv ĠdeĠ
xiangĠ huĠ
Ġ yongĠyuĠ
hou ĠshiĠ
wai ĠbuĠ
Ġ dong
ĠyiĠ daiĠ
zhuĠ zhangĠ
faĠ xingĠdeĠ
yingĠ yeĠ
zuoĠ biaoĠweiĠ
jiuĠ longĠ
zhuĠyao ĠdeĠ
que ĠdeĠ
c Ġ
er ĠzhiĠ
tian ĠqiĠ
tongĠ paiĠ
ĠĠĠ beiĠjingĠ
bing ĠdeĠ
xiĠ juĠ
liangĠ xiangĠ
ĠchuĠ xianĠ
jiaĠliĠ fuĠ
jing ĠzhongĠ
xinĠ xingĠ
liang ĠzhiĠ
touĠ luĠ
zuĠ zhiĠdeĠ
fanĠ zuiĠ
taiĠ beiĠshiĠ
ĠzhongĠguoĠ daĠluĠ
Ġ gongĠyouĠ
xinĠ yangĠ
jiangĠ lingĠ
lu ĠjiĠ
ĠzaiĠ ci
qu ĠjiĠ
muĠ qin
duo ĠrenĠ
Ġyue ĠzhongĠ
zhuĠ changĠ
guanĠ jianĠ
Ġ diĠshiĠ
ai ĠjiĠ
1985 ĠnianĠ
ruĠ qinĠ
jiuĠ duĠ
lunĠ wenĠ
ĠĠĠ ben
ĠĠĠciĠ waiĠ
chuanĠ shuoĠ
cheng ĠheĠ
23 Ġ
Ġ canĠyuĠ
mian ĠshiĠ
kong ĠqiĠ
16 Ġ
jingĠ fangĠ
keĠyiĠ zaiĠ
Ġ kaoĠ
ĠbingĠ duĠ
Ġ zhong
xianĠ xingĠ
anĠ zhuangĠ
ĠshiĠshiĠ jieĠ
tong ĠnianĠ
zhuĠ yiĠdeĠ
Ġ cha
Ġ 2009
xinĠjiaĠ poĠ
fangĠ yanĠ
ĠĠĠjuĠ qingĠ
lian ĠzaiĠ
mo ĠsiĠkeĠ
ĠshiĠ riĠbenĠ
man ĠdeĠ
cheng ĠnianĠ
kao ĠjinĠ
ĠdaĠ fuĠ
Ġ sha
Ġ AĠ
zhe ĠweiĠ
ĠrenĠ mingĠ
Ġ duanĠ
Ġ qiĠshiĠ
ĠzhiĠ you
zhangĠ aiĠ
gaiĠ shanĠ
ĠĠĠ 1Ġ
jieĠ sanĠ
ĠdaĠ duoĠ
yunĠ nanĠ
Ġyin ĠqiĠ
ĠyouĠ ciĠ
ĠĠĠ deĠĠĠ
shang ĠbuĠ
yuĠ yanĠ
ĠheĠ zhongĠ
ĠchuĠ shengĠyuĠ
guangĠdongĠ shengĠ
Ġ 2008
ĠguoĠ chengĠzhongĠ
taiĠ duĠ
guiĠ zuĠ
D Ġ
zhanĠ tingĠ
ĠbiĠ ruĠ
Ġ 1949
Ġ 2013ĠnianĠ
baoĠ zhangĠ
si ĠzhiĠ
suo ĠshiĠ
Ġ chu
ĠĠĠ G
ĠdiĠ wuĠ
gao ĠdaĠ
changĠ jianĠdeĠ
quanĠ zhangĠ
T Ġ
hua ĠyiĠ
qian ĠrenĠ
jiang ĠzaiĠ
ĠqiĠ xiĠ
zuoĠ zheĠ
hua ĠzhiĠ
faĠ huiĠ
shuangĠ fangĠ
ming ĠrenĠ
zong ĠshiĠ
nong Ġye
ĠsiĠ chuanĠ
suoĠ shuĠ
xiuĠ zhengĠ
Ġ zengĠ
fang ĠyiĠ
fuĠ jinĠdeĠ
yingĠ xiongĠ
huoĠ shanĠ
meiĠ zhou
xunĠ yangĠ
ĠteĠbie ĠshiĠ
ĠĠĠ P
qu ĠyiĠhuiĠ
baoĠ han
tiao ĠliĠ
ĠweiĠ ciĠ
shouĠ xiangĠ
ĠgongĠ kaiĠ
ĠshiĠjiĠ shangĠ
wanĠ gongĠ
ĠgongĠ yeĠ
ĠwanĠ yuanĠ
ĠjiaĠ tingĠ
le ĠyuĠ
cuo ĠwuĠ
quĠ leĠ
3 ĠgeĠ
gongĠ huiĠ
ĠguoĠ huiĠ
yinĠ qingĠ
ĠĠĠdiĠ fangĠ
chuĠ yanĠ
25 Ġ
ĠyiĠ xiaoĠshiĠ
bianĠ juĠ
ĠnianĠ kaiĠshiĠ
shengĠ taiĠ
ĠshiĠdeĠ guoĠ
Ġ qing
bai ĠrenĠ
geĠ lunĠ
ĠxueĠ xiaoĠ
Ġ 20
gan ĠbuĠ
faĠ lanĠxiĠ
1 ĠliĠ
Ġ nengĠ
shu ĠliĠ
feng ĠweiĠ
zhouĠ ciĠshiĠ
yaoĠ qiu
ĠĠĠ 2010
ĠjiĠ buĠ
ĠĠĠ 2011
dui ĠyouĠ
xianĠ jinĠ
Ġ henĠ
ĠĠĠ qiĠtaĠ
lao ĠdeĠ
qingĠ huaĠ
zui ĠyouĠ
ĠyueĠ tuanĠ
taoĠ taiĠ
ĠpingĠ junĠ
yin ĠheĠ
zhongĠ dianĠ
meiĠ shuĠ
keĠdeĠ qiĠzhongĠyiĠzhongĠ
Ġou ĠyuanĠ
yuanĠ zeĠ
luĠ yingĠ
zhi ĠdeĠshiĠ
guĠ fen
dangĠ diĠdeĠ
ĠjiĠ nian
qingĠ qiuĠ
ĠzhongĠhuaĠrenĠminĠgongĠheĠguoĠ zhengĠzhiĠrenĠwuĠ
suĠgeĠ lanĠ
ĠĠĠ 2Ġ
ĠĠĠ diĠerĠ
you ĠxianĠ
xia ĠweiĠ
huan ĠchengĠ
ĠheĠ xinĠ
huoĠ xingĠ
ĠĠĠ E
gaiĠ chengĠ
kaiĠ sheĠ
Ġ 2022
zhuang ĠjiĠ
heĠ xinĠ
dang ĠweiĠ
ĠbuĠ jinĠ
chengĠ keĠ
ĠyeĠ jiuĠshiĠ
yuan ĠzhongĠ
cui ĠhuiĠ
houĠ beiĠ
paiĠ mingĠdiĠ
ĠĠĠ meiĠguoĠ
bei ĠweiĠ
hen ĠdaĠ
qiangĠ diaoĠ
i Ġ
zheng ĠweiĠ
faĠ guanĠ
Ġwan ĠjiaĠ
ĠwuĠkeĠ lanĠ
xiangĠ guanĠdeĠ
Ġ 2006ĠnianĠ
Ġ maiĠkeĠ
en ĠshengĠ
ling ĠrenĠ
Ġ ge
tianĠ jingĠ
canĠ kaoĠ
r Ġ
neng ĠzaiĠ
ĠshiĠ xiĠ
ĠĠĠ aĠ
yaĠ junĠ
niĠyaĠ zhouĠ
dao ĠbuĠ
ya ĠyiĠ
shangĠ haiĠshiĠ
luĠ keĠ
suoĠ chuĠdeĠ
hui ĠbuĠ
ĠshiĠ beiĠ
xiaĠ quĠ
tiĠyuĠ changĠ
ĠkeĠ erĠ
Ġ meng
suo ĠzhiĠ
xie ĠerĠ
zuiĠ gaoĠdeĠ
ĠyiĠ fuĠ
ĠyouĠ zhongĠ
Ġ po
xiang ĠweiĠ
tuĠ poĠ
la ĠgeĠ
V Ġ
tai ĠzhongĠ
ĠzhiĠ liuĠ
chengĠ benĠ
dangĠ juĠ
Ġ wenĠhuaĠ
Ġ pu
Ġ xiong
chu ĠzaiĠ
kun ĠnanĠ
Ġ F
ĠĠĠ renĠ
Ġ M
jing ĠzhiĠ
xiu ĠfuĠ
keĠ xueĠyuanĠ
dianĠ cheĠ
S Ġ
ĠĠĠ yinĠ
zhanĠ xianĠ
ruĠ qin
Ġsui ĠzhuĠ
y Ġ
ban ĠbuĠ
dengĠ dengĠ
Ġxiang ĠnianĠ
duo ĠweiĠ
suo ĠweiĠ
ĠyiĠ zuoĠ
ĠxiĠ erĠ
aĠlaĠ boĠ
wangĠ yuanĠ
kaiĠ fa
huoĠ banĠ
hou ĠweiĠ
han ĠyuĠ
ĠheĠ lanĠ
ĠgeĠ shouĠ
Ġ 2012ĠnianĠ
jia ĠweiĠ
bai ĠdeĠ
ĠxiĠbanĠ yaĠ
Ġ jiuĠshiĠ
jun ĠzhiĠ
Ġ kuĠ
le ĠqiĠ
chuan ĠdeĠ
1980 ĠnianĠ
haiĠ pingĠmianĠ
huan ĠdeĠ
tan ĠdeĠ
wuĠ ziĠ
zhongĠguoĠ daĠluĠdeĠ
sheng ĠyouĠ
xiu ĠjianĠ
tongĠ mengĠ
qingĠ xingĠ
ganĠran ĠzheĠ
xue ĠyuĠ
zui ĠweiĠ
13 Ġ
ĠjiĠ youĠ
ciĠshiĠjieĠdaĠ zhanĠ
Ġ00 Ġ
shan ĠxianĠ
Ġzu ĠfuĠ
zu ĠyiĠ
chi ĠyouĠ
ĠriĠ junĠ
heiĠ seĠ
tai ĠyuĠ
lai ĠyueĠ
zhaoĠ pianĠ
zhen ĠyuĠ
ze ĠzaiĠ
1986 ĠnianĠ
yaĠ meiĠ
cheng ĠguoĠ
le ĠzaiĠ
yin ĠliĠ
ĠbuĠ xiangĠ
shouĠ gouĠ
shengĠ chuĠ
dangĠ yuanĠ
laĠ dingĠ
jing ĠyiĠ
zhang ĠweiĠ
ĠjiĠ fuĠ
ĠbuĠ luoĠ
li ĠyuĠ
qiangĠ lieĠ
ĠtongĠshiĠ gaiĠdiĠ
Ġ liaoĠ
bei ĠyuĠ
lai ĠshiĠ
te ĠxingĠ
huang ĠhouĠ
yinĠ ruĠ
xiaoĠ yuanĠ
guĠ daiĠ
nengĠ liangĠ
geiĠ leĠ
ĠguangĠ dongĠ
zhu ĠzhiĠ
ĠxiĠ lie
manĠ zuĠ
boĠshiĠ xueĠweiĠ
Ġ zhiĠyiĠ
teĠ dingĠ
ĠdeĠjiĠ chuĠ
Ġmei ĠnianĠ
ke ĠyouĠ
xu ĠliĠyaĠ
zuĠqiuĠ yunĠdongĠyuanĠ
g Ġ
duĠ jiaoĠ
neiĠluĠ shengĠfenĠ
xiang ĠyouĠ
jing ĠheĠ
Ġ tieĠ
shangĠ changĠ
Ġ kanĠ
cheng ĠshiĠdeĠ
tong ĠweiĠ
jiu ĠyiĠ
Ġa ĠerĠ
Ġ luo
nongĠ minĠ
ĠzhongĠ ziĠ
geĠ daĠ
keĠ fuĠ
hongĠ zha
ta ĠweiĠ
jiao ĠzhiĠ
mo ĠsiĠ
qiang ĠzhiĠ
xiaĠling ĠshiĠjianĠ
xiang ĠheĠ
jing ĠzaiĠ
gai ĠshiĠ
ĠzhongĠ daĠ
ĠbuĠ diĠ
xunĠ zhangĠ
keĠneng ĠshiĠ
zhen ĠjiĠ
sui ĠshiĠ
chuangĠ banĠ
bang ĠdeĠ
fou Ġ
chui Ġ
beng Ġ
jiuĠ huiĠ
ĠhuoĠ zheĠ
ding ĠqiĠ
daĠ jiangĠ
chengĠ baoĠ
kuoĠ zhanĠ
Ġ W
zao ĠzaiĠ
zhengĠ ce
ĠtaĠcengĠ daiĠbiaoĠ
wuĠ daoĠ
benĠ shenĠ
ĠĠĠto ĠĠĠ
shangĠ xiaĠ
ĠĠĠ jieĠ
ke ĠzhiĠ
min ĠdiĠ
wo ĠdeĠ
Ġbing ĠweiĠ
ĠĠĠjianĠ jieĠ
duan ĠshiĠ
diĠ qiuĠ
le ĠyouĠ
mu ĠzhiĠ
juĠ daĠ
tanĠ panĠ
weiĠyiĠ yiĠ
bianĠ haoĠ
Ġ 500
jun ĠheĠ
1945 ĠnianĠ
renĠ yuanĠ
luĠ xuĠ
tianĠ tiĠ
fan ĠzhiĠ
xuan ĠdeĠ
ĠkeĠ xiĠ
shaĠ haiĠ
ĠshiĠyiĠge ĠweiĠyuĠ
Ġ di
wan ĠdeĠ
tang ĠdeĠ
wuĠ zhengĠzhuangĠ
nanĠ fangĠ
liangĠ mingĠ
ni ĠerĠ
Ġ 1950
gongĠ zhuĠ
mengĠ gu
ĠĠĠdiĠfangĠ ziĠliaoĠ
Ġ 2014ĠnianĠ
hui ĠguoĠ
qu ĠzhiĠ
ri ĠdeĠ
liang ĠguoĠ
daĠ huiĠ
fei ĠerĠ
ĠrenĠ qiĠ
beiĠ jingĠshiĠ
wenĠ duĠ
jiangĠ jinĠ
chu ĠzhiĠ
bing ĠyiĠ
jiang ĠzhiĠ
gao ĠzhiĠ
Ġnian ĠweiĠ
diĠyiĠ weiĠ
Ġ dunĠ
zi ĠzhongĠ
yan ĠyuĠ
ya ĠheĠ
ĠdaĠ duoĠshuĠ
Ġ waĠ
ling ĠyiĠgeĠ
nuo ĠfuĠ
chuĠ shouĠ
yueĠ nanĠ
zi ĠzaiĠ
Ġ song
zheĠ xueĠ
duiĠ ciĠ
muĠ niĠ
Ġ ruoĠ
feng ĠfuĠ
ĠyiĠ wuĠ
ĠguoĠ quĠ
yinĠ paiĠ
zhu ĠweiĠ
miĠ yaĠ
gaoĠ xiong
aoĠ zhouĠ
liang ĠnianĠ
rong ĠheĠ
1987 ĠnianĠ
ĠshiĠ yeĠ
changĠ jianĠ
xiaoĠ fangĠ
ĠfuĠ qinĠ
ping ĠdeĠ
suo ĠyouĠdeĠ
shenĠ duĠ
paiĠ hangĠ
san ĠjiaĠ
nv ĠzhuĠ
ĠyuĠ xiĠ
naĠ cui
Ġ0 Ġ
ti ĠweiĠ
xiu ĠdeĠ
ĠbuĠ duanĠ
you ĠjiĠ
guanĠliĠ juĠ
Ġ hangĠ
Ġ piaoĠ
ĠbuĠ erĠ
haiĠ baĠweiĠ
d ĠĠĠ
dian ĠheĠ
zhengĠ xie
ĠjiaĠ zuĠ
Ġ genĠ
tongĠ mingĠ
zai ĠliĠ
chi ĠrenĠ
ĠjiĠ houĠ
ĠmeiĠ yuanĠ
dongĠshiĠ zhangĠ
xiangĠ biĠ
fangĠ mian
Ġ shuoĠ
zou ĠxiangĠ
han ĠyouĠ
pei ĠzhiĠ
xiĠ yaĠ
suoĠ caiĠyong
geĠ erĠ
muĠ qian
1982 ĠnianĠ
liang ĠdaĠ
shanĠ fengĠ
1983 ĠnianĠ
fangĠ jianĠ
Ġ ku
gaiĠ zaoĠ
ĠzhongĠ gongĠzhongĠyangĠ
xiĠ baoĠ
wen ĠzhongĠ
man ĠdiĠ
ĠĠĠ jingĠ
dao ĠweiĠ
ganĠ ranĠ
jun ĠzhongĠ
zhou ĠzhiĠ
dai ĠshiĠ
ĠdongĠ nanĠ
yong ĠyiĠ
mang Ġ
Ġ cn
ding ĠshiĠ
jieĠ tiĠ
ba ĠheĠ
leĠ zheĠ
zhanĠ lanĠ
ĠweiĠyuĠ gaiĠ
hu ĠbuĠ
jie ĠliĠ
hui ĠyiĠyuanĠ
huan ĠxingĠ
shangĠ shengĠ
zhanĠ lve
Ġhao ĠxianĠ
ĠĠĠ gongĠ
tai ĠheĠ
Ġsui ĠshiĠ
Ġwan ĠliĠ
gong ĠliĠdeĠ
hu ĠweiĠ
diaoĠ kuai
san ĠweiĠ
shou ĠrenĠ
ĠweiĠ UTCĠ
ĠdeĠyiĠ shuĠ
mianĠ duiĠ
lianĠheĠ huiĠ
erĠ tongĠ
shengĠ diĠ
Ġcn Ġ
Ġ kouĠ
yanĠ haiĠ
qinĠ wangĠ
zhiĠshiĠ qiĠ
xiongĠ yaĠliĠ
zhu ĠheĠ
chong ĠjiĠ
kaiĠshiĠ shiĠ
diaoĠkuai ĠyiĠxiaoĠshiĠ
ĠĠĠ zhengĠ
ĠjiĠ UTCĠ
xiaĠ lingĠ
sheĠyouĠ xiaĠlingĠshiĠjianĠ
ĠdeĠshiĠquĠweiĠ UTCĠ
ĠerĠgaiĠdiĠ suoĠcaiĠyong
ĠtongĠshiĠgaiĠdiĠ sheĠyouĠxiaĠlingĠshiĠjianĠ
ĠerĠgaiĠdiĠsuoĠcaiĠyong ĠdeĠshiĠquĠweiĠUTCĠ
Ġ rongĠ
ĠĠĠ jiaoĠtongĠ
jie ĠzhongĠ
san ĠdaĠ
nanĠ haiĠ
paiĠ qianĠ
aiĠerĠ lanĠ
jun ĠrenĠ
zhang ĠyueĠ
huan ĠzheĠ
ĠqiĠ fuĠ
cheĠ xiangĠ
Ġling ĠyouĠ
cheng ĠyouĠ
ĠerĠ qiĠ
I Ġ
xiaoĠ feiĠ
zongĠ tong
miĠshuĠ zhangĠ
4 ĠgeĠ
wen ĠheĠ
dang ĠjiĠ
kou ĠdeĠ
guoĠ huiĠ
boĠ linĠ
gaoĠyuĠ haiĠpingĠmianĠ
ĠĠĠ yingĠ
chu ĠyouĠ
ĠdaĠ luĠ
biĠyeĠ houĠ
zhou ĠjiĠ
lun ĠshiĠ
ceng ĠweiĠ
Ġyue ĠyiĠ
jianĠliĠ leĠ
daĠ xiĠyangĠ
ĠerĠ buĠshiĠ
da ĠyiĠ
shu ĠrenĠ
changĠ suoĠ
chuangĠ zaoĠ
quĠdeĠ mianĠjiĠweiĠ
haiĠbaĠweiĠ gaoĠyuĠhaiĠpingĠmianĠ
geĠ ming
juĠ leĠ
gaiĠ mingĠweiĠ
zhuĠyiĠ zheĠ
Ġ menĠ
xiangĠ xinĠ
zhuiĠ su
ru ĠdeĠ
shouĠ xianĠ
boĠ lan
tan ĠxianĠ
lao ĠshiĠ
Ã© Ġ
ĠqiĠzhongĠ baoĠkuoĠ
ĠĠĠ yanĠ
cai ĠdeĠ
qun ĠzhongĠ
jinĠ xingĠdeĠ
juĠ yuanĠ
jingĠ duĠ
lieĠ ruĠ
ĠhuoĠ dongĠ
ĠyiĠsiĠ lanĠ
Ġ shuang
Ġ ziĠyouĠ
fa ĠzhiĠ
guan ĠheĠ
chao ĠyueĠ
ĠyuĠ beiĠ
guanĠ cha
Ġ 2015ĠnianĠ
zhang ĠheĠ
banĠ ben
Ġ 2025
gong ĠweiĠ
quan ĠxianĠ
buĠshiĠ quĠ
Ġ shanĠxiĠ
dou ĠzaiĠ
tiao ĠjieĠ
zhangĠ fuĠ
tuĠ jingĠ
cunĠ luoĠ
yi ĠshiĠdeĠ
ĠyiĠ shengĠ
zhongĠ yao
guĠ dingĠ
feiĠ erĠdeĠ
kaiĠshiĠ zaiĠ
Ġ 10Ġ
ĠmuĠ qian
Ġ shen
Ġ 24
sheĠ xianĠ
suoĠchuĠdeĠ haiĠbaĠweiĠgaoĠyuĠhaiĠpingĠmianĠ
ziĠ shenĠ
biaoĠ benĠ
shang ĠdiĠ
te ĠjiĠ
daĠ buĠfen
xiangĠ tongĠdeĠ
changĠ jingĠ
ĠĠĠ anĠ
Ġ lv
li ĠdeĠ
suo ĠzaiĠdiĠ
duan ĠshiĠjianĠ
xiĠ wangĠ
tiĠ xingĠ
yongĠ leĠ
zhan ĠyuĠ
shenĠ huaĠ
Ġer ĠdeĠ
ĠluoĠ maĠ
lai ĠsiĠ
hao ĠshiĠ
ĠguoĠ neiĠ
luoĠ faĠ
tuiĠ xiuĠ
ge ĠyuĠ
se ĠfuĠ
ĠzaiĠ taĠ
xiĠ laĠ
yinĠ xiangĠ
jueĠ duiĠ
ĠdeĠjiĠ luĠ
kaoĠ guĠ
quĠ zhuĠ
jingĠ gaoĠ
zuĠ cheng
ye ĠyiĠ
qianĠ dingĠ
ĠĠĠin ĠĠĠ
ĠheĠ daoĠ
ĠĠĠ maĠ
bian ĠyiĠ
xuan ĠzhongĠ
zuĠqiuĠ duiĠ
Ġ sa
Ġ lunĠ
yan ĠrenĠ
ĠliĠ chengĠ
ĠyouĠ zaiĠ
ĠzhongĠ dianĠ
yan ĠheĠ
ben ĠrenĠ
ĠĠĠ for
ĠĠĠ diĠyiĠ
xiao ĠyuĠ
san ĠrenĠ
huĠ xiangĠ
kong ĠxiĠ
Ġnian ĠshiĠjieĠ
ĠzhiĠ shuĠ
diĠ quĠdeĠ
ĠxiangĠ guanĠ
ĠluĠ wa
p Ġ
caiĠ nengĠ
ĠnaĠ me
Ġ 2023
ĠĠĠ 2008
guan ĠyiĠ
ĠqiĠ xuanĠ
biĠ xu
Ġ 2016ĠnianĠ
gongĠ yingĠ
qingĠ jieĠ
canĠ xuanĠ
ĠshiĠ buĠ
diĠ xiaĠ
Ġ mu
ĠshiĠ jiaĠ
jianĠ kangĠ
Ġ hei
shang ĠjiĠ
quan ĠyiĠ
ziĠ xun
yanĠ zhongĠdeĠ
haiĠ yangĠ
ĠshouĠ daoĠ
zaiĠyiĠ qiĠ
fa ĠyiĠ
dai ĠweiĠ
deng ĠzhiĠ
tu ĠjiĠ
ĠmaĠ lai
Ġ 2007
faĠ shengĠzaiĠ
zhenĠ quĠdeĠmianĠjiĠweiĠ
ĠgongĠ buĠ
ĠbeiĠ chengĠweiĠ
naĠ xieĠ
Ġ chaoĠxianĠ
ĠĠĠ xingĠ
zhong ĠyiĠyuanĠ
yin ĠyuĠ
zhou ĠliĠ
kai ĠdeĠ
1978 ĠnianĠ
huaĠ jiaĠ
yan ĠjiĠ
she ĠzaiĠ
ru ĠweiĠ
feiĠ yanĠ
ĠĠĠ 2
ziĠ chanĠ
Ġ kan
Ġ dianĠshiĠ
shu ĠbuĠ
ding ĠliĠ
shuai ĠlingĠ
ĠshouĠ ciĠ
Ġ guang
qian ĠxiĠ
ĠweiĠ chiĠ
heĠ liuĠ
Ġ lianĠheĠ
beiĠ siĠ
sheĠ jiĠshiĠ
ĠdaoĠ luĠ
guiĠ mo
nei ĠdiĠ
yanĠ seĠ
cheĠ changĠ
jueĠ sai
ĠyuanĠ mingĠ
ĠshiĠ chengĠ
pingĠ guĠ
kaĠ laĠ
Ġ 2ĠyueĠ
baoĠ luoĠ
tiĠgongĠ leĠ
zhengĠ bianĠ
zuĠqiuĠ juĠleĠbuĠ
ĠshiĠ erĠ
mianĠ dianĠ
ĠzuiĠ gaoĠ
zhu ĠzhongĠ
tuĠ shuĠ
hua ĠzaiĠ
ĠyiĠ dongĠ
liuĠ xiaĠ
Ġ shao
ĠĠĠ C
ti ĠheĠ
ĠshiĠ taĠ
ĠĠĠ ran
yang ĠxingĠ
tui ĠjianĠ
ĠerĠ feiĠ
shu ĠzaiĠ
ping ĠguoĠ
duo ĠnianĠ
wuĠ guanĠ
baoĠ cunĠ
zuiĠ duoĠ
chuanĠ tongĠdeĠ
Ġ ju
cheng ĠzaiĠ
bing ĠyuĠ
ĠzhongĠ xingĠ
beiĠ fangĠ
duiĠ yingĠ
wanĠ zhengĠ
zhuanĠ menĠ
zaoĠ shangĠ
gengĠ xinĠ
fang ĠjiĠ
lang ĠzhongĠ
juĠ fengĠ
pingĠ lun
qian ĠyueĠ
tianĠ houĠ
keĠnengĠ huiĠ
ĠĠĠ meiĠ
chu ĠbuĠ
xie ĠshiĠ
yang ĠjiĠ
diĠ wuĠ
faĠ mingĠ
shangĠ xianĠ
daiĠ lingĠ
pian ĠzhongĠ
Ġ zaĠzhiĠ
miao ĠhuiĠ
ĠgongĠ gongĠ
bianĠ jingĠ
ceng ĠdeĠ
zan ĠzhuĠ
ĠdiĠ qiuĠ
jiuĠ yuanĠ
b Ġ
zhongĠguoĠ daĠluĠ
Ġ 18
Ġ 2019ĠnianĠ
qing ĠrenĠ
ĠdaĠ buĠfen
Ġ zuĠzhiĠ
yin Ġyue
ba ĠsiĠ
jue ĠyuĠ
zuiĠ zao
liao ĠdeĠ
ĠnianĠ daoĠ
muĠsiĠ linĠ
ĠqiĠ cheĠ
tongĠ xunĠ
ĠfuĠzeĠ guanĠxiaĠ
Ġ jueĠdingĠ
xue ĠzhongĠ
shun ĠliĠ
ĠzhiĠ waiĠ
guanĠ ceĠ
xieĠ zuoĠ
Ġ sang
li ĠziĠ
jinĠ riĠ
changĠ shangĠ
luoĠ shanĠjiĠ
Ġ nuoĠ
xing ĠzaiĠ
shuang ĠdaĠ
huiĠ guiĠ
le ĠdeĠ
san ĠbuĠ
feng ĠdeĠ
ĠjiĠ xu
ba ĠdaĠ
quĠ jianĠ
ĠshanĠ dongĠ
beiĠrenĠ mingĠweiĠ
3 ĠnianĠ
zhou ĠheĠ
daĠ louĠ
juĠ ban
Ġ R
ĠĠĠ 1
ĠĠĠ duiĠ
gai ĠzhiĠweiĠ
luo ĠliĠdaĠ
juĠ benĠ
shouĠ quanĠ
Ġ 2017ĠnianĠ
14 Ġ
jiaoĠ duĠ
Ġdan ĠyiĠ
ĠdeĠshiĠ yongĠ
piĠ zhun
ju ĠzaiĠ
zhangĠ zhuanĠjiĠ
lin ĠsiĠ
renĠ leiĠ
tianĠ zhuĠ
Ġ yanĠjiuĠ
ĠĠĠ 3
ĠĠĠ dongĠ
gao ĠshiĠ
fuĠ xingĠ
xiaoĠ yingĠ
ĠdaoĠ yanĠ
Ġ 2018ĠnianĠ
xia ĠzaiĠ
huai ĠyiĠ
zhangĠ ziĠ
huĠ lianĠ
zaoĠ chengĠdeĠ
ĠshiĠjianĠ zhuĠ
dui ĠzhongĠ
jiang ĠyiĠ
ĠliĠ liangĠ
ĠdiĠ diĠ
Ġ tang
ao ĠerĠ
han ĠdeĠ
zhanĠ muĠsiĠ
luĠ zhanĠ
ai ĠliĠ
ĠĠĠ danĠ
ye ĠjiĠ
shouĠ boĠ
zhou ĠyiĠ
yunĠ yongĠ
guoĠ neiĠ
ĠpuĠ taoĠ
Ġ chunĠ
ĠĠĠ nanĠ
ĠĠĠ geĠrenĠ
bian ĠzhiĠ
1958 ĠnianĠ
ĠyouĠ zhuĠ
ĠbiĠ saiĠ
Ġci ĠnianĠ
2 ĠgeĠ
guan ĠjiĠ
can ĠyiĠ
kao ĠshiĠ
1972 ĠnianĠ
ĠgongĠ nengĠ
ĠweiĠyuĠ zhongĠguoĠ
yun ĠdeĠ
ĠbingĠ beiĠ
mianĠ feiĠ
xingĠ muĠ
ĠxinĠ wenĠ
ĠyingĠ wenĠ
ĠĠĠ 2009
dao ĠzaiĠ
minĠ zu
Ġai ĠerĠ
ban ĠjiĠ
sheĠ jiaoĠ
leiĠ siĠdeĠ
ĠgaiĠ bianĠ
yao ĠshiĠ
ding ĠjiĠ
1979 ĠnianĠ
qiangĠ duĠ
Ġming ĠzhiĠ
ba ĠerĠ
su ĠliĠ
ĠdiĠ yaĠ
xinĠ guanĠ
ĠshiĠyiĠ buĠ
Ġ weiĠyiĠ
ĠdeĠ huaĠ
ĠyiĠ gongĠ
que ĠshiĠ
xueĠ keĠ
h Ġ
tou ĠxianĠ
cu Ġ
ĠzhiĠ buĠ
juĠ banĠdeĠ
xingĠzhengĠ quĠ
Ġ ceĠ
chuĠ zhangĠ
ĠĠĠzengĠ zuĠ
jiaoĠ chaĠ
miĠ niĠ
naĠ xiaĠ
ĠhouĠ zheĠ
ĠĠĠa ĠĠĠ
zheng ĠjiĠ
ĠrenĠ weiĠshiĠ
taiĠ houĠ
ĠshiĠyiĠ keĠ
xinĠjiaĠ po
zong ĠyiĠ
gan ĠyuĠ
ĠweiĠ beiĠ
faĠ xianĠdeĠ
taiĠ kongĠ
xue ĠliĠ
luo ĠyuĠ
shao ĠdeĠ
diĠ qiĠ
ĠtaĠmen ĠzaiĠ
fa ĠliĠ
ma ĠshiĠ
yang ĠxianĠ
tiĠ chuĠdeĠ
nengĠ yuanĠ
Ġ 2006
ĠĠĠ houĠ
bai ĠyuĠ
xiĠ nanĠbuĠ
fuĠ shuĠ
ĠshiĠshiĠ yongĠ
teĠ quĠ
ĠweiĠfuĠqiĠyuĠ gang
zong ĠrenĠkouĠ
fuĠ zhuĠ
ĠxiĠ yinĠ
qingĠ zhuĠ
ĠxuĠ yaoĠ
xue ĠjiĠ
mu ĠyuĠ
ĠliangĠ geĠ
jiang ĠliĠ
pin ĠdeĠ
tongĠ xinĠ
ĠxiangĠ muĠ
Ġma ĠliĠ
ĠqiĠ bingĠ
ĠdaĠ jiangĠ
Ġ shui
Ġ mao
Ġ 2004ĠnianĠ
lie ĠshiĠ
jinĠ rong
shangĠ wangĠ
aĠ genĠ
suiĠ ran
wuĠzhengĠzhuangĠ ganĠranĠzheĠ
xing ĠshiĠdeĠ
ĠyiĠ qianĠ
meiĠ junĠ
zhuanĠ xieĠ
Ġ 2021ĠnianĠ
chuanĠ meiĠ
xianĠzhiĠ xianĠ
ĠbuĠ daoĠ
xiangĠ faĠ
le ĠzhongĠ
zhe ĠheĠ
jiaoĠ huanĠ
xunĠ lian
Ġ bangĠ
Ġ zhuanĠjiĠ
dian ĠweiĠ
tou ĠdeĠ
ĠdiĠ zaiĠ
canĠ tingĠ
mi ĠsiĠ
luo ĠshiĠ
mian ĠyiĠ
zuĠ jieĠ
ĠdeĠyiĠ yuanĠ
P Ġ
xian ĠliĠ
ba ĠdeĠ
ĠyouĠ liangĠ
ĠchuĠ banĠ
Ġ 7Ġ
ĠĠĠ F
che ĠdiĠ
luoĠ chengĠ
yuanĠ xianĠ
ĠĠĠ B
min ĠyiĠ
30 Ġ
xinĠ jianĠ
huoĠ cheĠ
huangĠ seĠ
Ġ peng
Ġ 2020ĠnianĠ
Ġ BĠ
xuanĠ ju
ĠzhongĠ shanĠ
huoĠ biĠ
duanĠ pianĠ
ĠĠĠshiĠ yongĠ
Ġ sai
teĠ dianĠ
ou ĠxiangĠ
zhou ĠrenĠ
siĠ daĠ
buĠdeĠ cunĠzhuangĠ
chuan ĠqiĠ
sui ĠzheĠ
zha ĠdanĠ
zhengĠ quĠ
gaoĠ duĠweiĠ
lin ĠjinĠ
qiĠ laiĠ
faĠ sheng
lianĠ luoĠ
ĠcaiĠ yongĠ
ĠĠĠ baĠ
du ĠguoĠ
xinĠ jiangĠ
chiĠ xu
Ġ tao
zhang ĠzhiĠ
lai ĠyuĠ
chengĠ leĠ
Ġhuo ĠshiĠ
kai ĠgongĠ
Windows ĠĠĠ
geĠ guoĠ
Ġ cunĠ
xi ĠyouĠ
hui ĠweiĠ
shen ĠyiĠ
1960 ĠnianĠ
guoĠminĠ dangĠ
xiĠ beiĠbuĠ
lingĠ chenĠ
ĠshuangĠ fangĠ
dui ĠjiĠ
qiĠ zhongĠ
ĠheĠ panĠ
chengĠ jiuĠ
ĠdanĠ yinĠ
gongĠyuanĠ qianĠ
xian ĠzhongĠ
dang ĠnianĠ
shanĠ maiĠ
Ġta ĠheĠ
jingĠneiĠ gongĠyouĠ
zui ĠdiĠ
ĠdaĠ jiaĠ
o Ġ
ĠgeĠ leiĠ
Ġtong ĠyiĠ
Ġzhao ĠheĠ
Ġ lei
ta ĠyiĠ
1980 ĠnianĠdaiĠ
xinĠ jieĠ
laiĠ yinĠ
sanĠ mingĠ
xiao ĠliĠyuĠ
mu ĠerĠ
1976 ĠnianĠ
jiangĠ shuĠ
bingĠ duĠ
ĠgeĠ erĠ
ĠĠĠ daoĠ
cheng ĠzhiĠweiĠ
wuĠ diĠ
shengĠ daoĠ
guĠ laĠ
huo ĠzaiĠ
san ĠzhongĠ
ĠgongĠ qingĠ
lieĠ chuĠ
ĠlingĠ wai
bi ĠliĠshiĠ
daĠ xiaoĠ
faĠ tingĠ
yeĠ fuĠ
chuĠbanĠ sheĠ
yang ĠgongĠ
bai ĠkeĠ
chengĠ quĠ
ĠerĠgaiĠ diĠdeĠ
jin ĠyuĠ
meiĠ guo
ci ĠdiĠ
1920 ĠnianĠ
qiĠ houĠ
huoĠ shengĠ
ĠĠĠ dan
ĠĠĠ Re
dao ĠyouĠ
gangĠ kouĠ
Ġ ruan
chai Ġ
jianĠ duĠ
ĠĠĠgaiĠ yaoĠ
ĠliĠ fuĠ
henĠ kuaiĠ
xiu ĠdaoĠ
shuĠ chuĠ
Ġ jinĠshiĠ
dui ĠdiĠ
hai ĠzaiĠ
ĠheĠ liuĠ
qianĠ jinĠ
zuiĠ zaoĠ
ao ĠdeĠ
ya ĠrenĠ
pin ĠzhongĠ
1990 ĠnianĠdaiĠ
ĠyiĠ bianĠ
shou ĠbuĠ
shen ĠyuĠ
que ĠbaoĠ
ĠheĠ fuĠ
ĠjiaĠ laĠ
ĠxianĠ daiĠ
jiu ĠzaiĠ
jingĠ guanĠ
tiĠ daiĠ
maĠ touĠ
senĠ lin
an ĠliĠ
ĠĠĠ tianĠ
wangĠ wangĠ
ĠdeĠshiĠ jiĠ
ĠĠĠ O
ĠĠĠ shouĠ
Ġxian ĠweiĠ
kuo ĠjianĠ
jiaoĠ tang
ĠtaĠ renĠweiĠ
dian ĠshiĠjieĠ
qun ĠtiĠ
ĠyueĠ duiĠ
ĠxiĠ tongĠdeĠ
bianĠ yuanĠ
Ġ 2002ĠnianĠ
cong ĠweiĠ
jieĠ duan
xiangĠ yingĠ
quĠ fenĠ
qianĠ tingĠ
ĠdeĠyiĠ xieĠ
seĠ lie
ĠĠĠjiaĠ tingĠ
wang ĠweiĠ
yunĠ dongĠdeĠ
suĠ lian
Ġta ĠyouĠ
ĠzuiĠ chuĠ
Ġli ĠliĠ
ĠheĠ qiĠtaĠ
ĠqiĠ heĠ
pingĠ yuanĠ
ĠĠĠ wangĠ
chang ĠjiĠ
han ĠziĠ
wuĠ shuĠ
leĠ yuanĠ
ĠzhongĠguoĠrenĠminĠ jieĠfangĠjunĠ
Ġ bao
Ġ sunĠ
17 Ġ
bingĠ feiĠ
xing ĠyouĠ
19 Ġ
yong ĠzaiĠ
ma ĠkeĠsiĠ
ĠnianĠ qingĠ
wuĠ zhuang
beiĠ daĠ
yeĠ keĠyiĠ
fenĠ peiĠ
saiĠ erĠweiĠ
daĠshiĠ guanĠ
tieĠluĠ cheĠzhanĠ
riĠben ĠdeĠ
zanĠ tingĠ
e ĠguoĠ
zan ĠshiĠ
ĠbuĠ siĠ
fa ĠjiĠ
dui ĠheĠ
la ĠweiĠ
chengĠ weiĠyiĠ
gengĠ duoĠdeĠ
ĠĠĠ liuĠ
duo ĠerĠ
shangĠ zhenĠ
yaĠ muĠ
Ġ 1970
suiĠ ranĠ
tan ĠheĠ
duiĠ fangĠ
dengĠ changĠ
aĠlaĠ bo
xuan ĠshiĠ
yeĠ shengĠyaĠ
canĠ shuĠ
tuiĠ guangĠ
leĠyiĠ xieĠ
xu ĠjiĠ
guiĠ fanĠ
bangĠ qiuĠ
dou ĠbeiĠ
yeĠ shengĠ
qianĠ shenĠ
zeĠ dongĠ
bing ĠzaiĠ
yun ĠheĠ
lan ĠyuĠ
siĠ lanĠ
ĠjieĠ shuĠ
zhang ĠjiĠ
yeĠ jianĠ
mai ĠdeĠ
faĠ dongĠjiĠ
yong ĠjiĠ
wen ĠjiĠ
beiĠ jing
dongĠ xianĠ
changĠ duĠ
banĠ yanĠ
banĠ jiangĠ
kaoĠ lv
buĠdeĠ buĠ
Ġ30 Ġ
nongĠ cun
xing ĠliĠ
zhe ĠzhiĠ
huang ĠjinĠ
pei ĠbeiĠ
zhongĠ buĠ
chuĠ ziĠ
lvĠ seĠ
shan ĠdiĠ
daĠ diĠ
fuĠ haoĠ
changĠ biĠsaiĠ
sheĠ dingĠ
tuĠ xiangĠ
nan ĠsiĠ
qiu ĠshiĠ
ĠzaiĠ youĠ
deng ĠyuĠ
ĠzhongĠ jianĠ
ĠziĠ yuanĠ
an ĠjiĠ
ĠĠĠ chengĠ
du ĠjiĠ
50 Ġ
ĠqiĠ dongĠ
xieĠ shangĠ
bei ĠliĠ
chen ĠjiĠ
shuai Ġling
fuĠ za
riĠ baoĠ
le ĠdiĠ
1956 ĠnianĠ
ĠguoĠ gongĠ
ĠxiĠ anĠ
yanĠ jingĠ
fenĠ zhiĠyiĠ
jun ĠbuĠ
ĠyouĠ taiĠ
jinĠ quĠ
Ġ lai
ceng ĠshiĠ
weiĠ yuanĠ
xiaoĠ jieĠ
chuangĠ zuoĠdeĠ
ĠdeĠjiĠ huaĠ
Ġ H
zhuan ĠweiĠ
zhuĠ daoĠ
zhengĠ shuĠ
haoĠ pingĠ
ĠshiĠshiĠ jiĠ
1964 ĠnianĠ
xianĠ ruĠ
fanĠ ying
qu ĠzhongĠ
zheĠ yangĠ
lianĠ sai
ĠdanĠ quĠ
ĠĠĠ zhangĠ
ze ĠyuĠ
section ĠĠĠ
ĠyiĠ keĠ
teĠ laĠ
ĠĠĠofĠĠĠ theĠĠĠ
Ġ jianĠliĠ
ĠzhiĠ chi
xingĠ dong
xianĠ zhuĠ
qingĠ chaoĠ
ĠshiĠshiĠ shangĠ
ĠlianĠ jieĠ
Ġ pianĠ
wu ĠyouĠ
chai ĠyouĠjiĠ
ĠzhiĠ hou
zhongĠ huaĠminĠguoĠ
ĠqiĠ xiĠzaiĠ
zongĠ jianĠ
canĠ jia
ĠfenĠ bieĠ
Ġ pinĠ
zhong ĠyiĠgeĠ
chu ĠzhongĠ
ĠzaiĠ heĠ
guĠ dianĠ
deng ĠshiĠ
1968 ĠnianĠ
ĠzaiĠ neiĠdeĠ
baoĠ chi
ĠsiĠ daĠ
Ġdan ĠqiĠ
mianĠ tiĠ
1 ĠgeĠ
Ġ sectionĠĠĠ
quan ĠjiĠ
che ĠshiĠ
sha ĠdeĠ
ĠshiĠ bingĠ
dangĠ tianĠ
daiĠbiaoĠ tuanĠ
zhan ĠweiĠyuĠ
hang ĠyeĠ
xiangĠ qiĠ
shouĠ shuĠ
laiĠ naĠ
xuanĠ chengĠ
zong ĠzhiĠ
ĠyiĠ nian
chang ĠdaĠ
liang ĠheĠ
lie ĠsiĠ
fuĠ muĠ
tuĠ chuĠ
1Ġ haoĠ
ĠshiĠrenĠ minĠ
ĠS Ġ
Ġ zuiĠjiaĠ
dui ĠzhiĠ
biao ĠjiĠ
juĠ min
haiĠ shangĠ
ĠqiĠzhongĠ nanĠxingĠ
xie ĠweiĠ
yanĠ lunĠ
fenĠ siĠ
jiang ĠyouĠ
wai ĠweiĠ
rao ĠtaiĠ
ĠzhongĠ qiĠ
ĠguoĠ wuĠyuanĠ
xiaoĠ liangĠ
Ġ fou
ĠĠĠ T
zhan ĠweiĠ
ĠliĠ gongĠ
shenĠ zhenĠ
ĠjinĠ shuĠ
moĠ niĠ
ba ĠgeĠ
niao ĠleiĠ
changĠ jiangĠ
ĠxingĠ jianĠ
Ġliu ĠyuĠ
ĠĠĠgenĠjuĠ 2020ĠnianĠmeiĠguoĠrenĠkouĠpuĠchaĠdeĠshuĠjuĠ
puĠtaoĠ yaĠ
ĠĠĠ jingĠjiĠ
qu ĠyouĠ
lu ĠyiĠsiĠ
bai ĠzhiĠ
geĠ juĠ
Ġ quĠdeĠ
xia ĠdiĠquĠ
ni ĠxiĠyaĠ
te ĠheĠ
1981 ĠnianĠ
geĠ laĠ
jinĠ zhanĠ
xiaoĠ xiangĠ
laiĠ ziĠyuĠ
ĠjinĠ ru
ĠĠĠran ĠerĠ
buĠ menĠ
xianĠ dai
jiaoĠ tong
Ġ 2024
ĠĠĠ 2019ĠnianĠ
ha ĠliĠ
Ġbing ĠbuĠ
zhongĠguoĠ renĠminĠ
zai ĠyiĠgeĠ
gong ĠyueĠ
bi ĠerĠ
hai ĠdiĠ
chuĠ xianĠdeĠ
ĠdaĠ erĠ
feiĠ yongĠ
Ġ 2000ĠnianĠ
jiao ĠdiĠ
wan ĠliĠ
ĠyiĠ heĠ
kuoĠ zhangĠ
dang ĠzaiĠ
te ĠĠĠ
ziĠ benĠ
cheĠ duiĠ
guai Ġ
ĠyiĠ meiĠ
ĠjiangĠ suĠ
Ġ 2005
ĠĠĠ yueĠ
huo ĠliĠ
qiong Ġ
ĠzhiĠ jingĠ
ĠweiĠyuanĠhui ĠweiĠyuanĠ
shu ĠdeĠzhiĠwuĠ
tian ĠjiaĠ
ĠzaiĠ buĠ
keĠ yunĠ
jiaoĠ zuoĠ
xuanĠ chuan
feiĠlvĠ bin
ĠyiĠ daĠ
ĠzhongĠ wenĠ
wuĠ geĠ
luĠ shangĠ
xuanĠ juĠzhongĠ
ĠĠĠqiĠ zhongĠ
ĠjiĠjinĠ huiĠ
Ġ 1946
bei ĠyueĠ
xueĠ yeĠ
ĠfuĠ qin
wanĠ quan
ĠshiĠdeĠ shiĠ
ĠbaoĠ huĠ
ĠguanĠ fangĠ
gongĠzuo ĠshiĠ
shen ĠkeĠ
cha ĠshiĠ
wo ĠerĠ
hant Ġ
wenĠ ti
nanĠjiĠ zhouĠdeĠ
feng ĠshiĠ
1948 ĠnianĠ
xianĠ shengĠ
huiĠ daĠ
ĠdaĠ louĠ
teĠ leiĠ
chengĠliĠ houĠ
ĠĠĠ 2007
ding ĠxingĠ
ĠyouĠ suoĠ
zhanĠ shuĠ
shaoĠ nvĠ
yuanĠzhuĠ minĠ
guĠfen ĠyouĠxianĠgongĠsiĠ
Ġ niuĠ
Ġ hantĠ
ĠyiĠ xiangĠ
ĠheĠ yueĠ
ĠdiĠ tuĠ
duiĠ kangĠ
ĠĠĠ guangĠ
hou ĠjiĠ
gan ĠdeĠ
ĠguoĠ jiaĠdeĠ
1Ġ ri
ĠqianĠ wangĠ
reĠdaiĠ fengĠbaoĠ
hu ĠxiĠ
wang ĠjiĠ
chuĠ changĠ
canĠ kao
ya ĠzhongĠ
zu ĠrenĠ
duo ĠliĠyaĠ
hao ĠyouĠ
shui ĠdeĠ
tou ĠbuĠ
baoĠ zha
xinĠ taiĠ
Ġ touĠguoĠ
bie ĠdeĠ
yuanĠ benĠ
zheĠ yangĠdeĠ
ĠshiĠyiĠ zhiĠ
naĠ shengĠ
ĠshiĠ faĠ
ĠbingĠ meiĠyouĠ
ĠĠĠ jiangĠ
niang Ġ
ĠyuĠ diĠ
beiĠ poĠ
zongĠ caiĠ
xianĠdeĠyiĠgeĠ feiĠjianĠzhiĠdiĠquĠ
ĠyiĠ xueĠ
jiaoĠ jieĠ
ĠdaoĠ daĠ
baiĠ wanĠ
Ġ 200
Ġ wa
Ġ diaoĠ
Ġ 2022ĠnianĠ
fa ĠheĠ
ding ĠzaiĠ
keĠ luoĠ
zhengĠ mianĠ
zhuanĠ yongĠ
luo ĠyiĠ
zong ĠgongĠ
men ĠshiĠ
nuo ĠyiĠ
ĠnianĠ lingĠ
ĠbuĠ neng
keĠ erĠ
fangĠ miĠ
yanĠ jiangĠ
ĠsiĠ taĠ
ĠshiĠyiĠ zuoĠ
gan ĠxianĠ
1952 ĠnianĠ
Ġ leĠ
xiangĠ mu
luĠ wa
liangĠ ziĠ
cunĠ zaiĠdeĠ
Ġ yuan
ĠĠĠ guĠ
1975 ĠnianĠ
fuĠ zhouĠ
jianĠ kang
zhuĠ ceĠ
xianĠ shangĠ
maĠ laiĠ
zhuangĠ kuang
Ġ 2003ĠnianĠ
zhan ĠyouĠ
mei ĠshiĠ
luĠ kouĠ
wenĠ tiĠdeĠ
m ĠĠĠ
Ġ pi
ying ĠerĠ
1966 ĠnianĠ
1947 ĠnianĠ
ĠheĠ qiĠ
sanĠ ciĠ
ĠzhuĠ jianĠ
ĠfaĠ zhanĠ
xue ĠbuĠ
taiĠ nanĠ
guangĠ fan
K Ġ
e ĠweiĠ
Ġ ouĠzhouĠ
ĠyiĠ waiĠ
fuĠ erĠ
zongĠ huiĠ
ĠpingĠ taiĠ
guoĠjiaĠ duiĠ
Ġ chao
ĠĠĠ 3ĠyueĠ
liang ĠbuĠ
zuoĠ faĠ
ĠĠĠ fanĠ
ciĠ quĠ
ĠshiĠyongĠ leĠ
Ġdang ĠshiĠdeĠ
haiĠbaĠ gaoĠduĠweiĠ
chuan ĠguoĠ
1937 ĠnianĠ
xuanĠ chuĠ
ĠxinĠ zengĠ
ĠrenĠminĠ biĠ
jiaoĠyuĠ buĠ
Ġjiang ĠqiĠ
ĠĠĠqiĠ houĠ
lu ĠheĠ
qun ĠdeĠ
Ġ xia
ta ĠrenĠ
jin ĠzaiĠ
wang ĠyuĠ
ĠyiĠ chanĠ
anĠ zhuang
leiĠ xingĠdeĠ
ĠnianĠyiĠ laiĠ
fenĠbie ĠweiĠ
Ġ L
Ġ tuanĠ
wang ĠzhiĠ
wai ĠxingĠ
gen ĠsuiĠ
xieĠ dingĠ
ĠyouĠyiĠ xieĠ
Ġ chengĠliĠyuĠ
ĠĠĠ I
ban ĠrenĠ
na ĠheĠ
xingĠ zheng
yanĠ anĠ
ĠdeĠjiĠ huiĠ
Ġ ziĠjiĠ
ĠĠĠ pingĠjiaĠ
wuĠ zhongĠdeĠ
leĠ duiĠ
zhanĠ changĠ
duĠ huiĠ
jiu ĠyouĠ
ĠyiĠ xingĠ
daĠ guiĠmoĠ
shuĠ muĠ
sheĠ yingĠ
gaoĠ xiaoĠ
quanĠ shuĠ
duanĠ zan
qiaoĠ liangĠ
Ġ Z
Ġ hua
ĠĠĠ chuĠleĠ
chu ĠguoĠ
shang ĠheĠ
guoĠ chengĠ
fenĠ jieĠ
ĠkeĠ luoĠ
Ġdan ĠdeĠ
ĠshiĠyiĠ daĠliĠ
Ġta ĠjiĠ
ge ĠzaiĠ
duo ĠshiĠ
tuan ĠjieĠ
ĠdeĠyiĠ meiĠ
ĠzheĠ yangĠ
cengĠ shuiĠyuĠ
Ġri ĠyouĠ
a ĠfuĠ
ĠĠĠ faĠ
guang ĠdeĠ
shouĠ duanĠ
zhouĠ bian
xiaĠyiĠ xiaĠdiĠquĠ
yingĠxiang ĠliĠ
xunĠyangĠ jianĠ
pu ĠliĠ
ĠjiĠ xingĠ
shouĠ faĠ
gongĠkaiĠ saiĠ
ĠyiĠ erĠ
ĠfaĠ shengĠ
zhuanĠdeĠ xiaoĠxingĠxingĠ
Ġ 8Ġ
ru ĠyuĠ
pingĠ jieĠ
boĠ jueĠ
e ĠdeĠ
fa ĠweiĠ
wang ĠsiĠ
ĠdiĠ dianĠ
juĠ daĠdeĠ
xunĠ zhaoĠ
guoĠjiĠjiĠ changĠ
Ġ gui
ju ĠzhiĠ
zhe ĠyuĠ
Ġyue ĠheĠ
shaoĠ jiangĠ
Ġ she
ĠĠĠ 5ĠyueĠ
ĠĠĠ zhuĠyaoĠ
xin ĠzhongĠ
ĠdeĠshiĠ wuĠ
zheĠjiangĠ shengĠ
Ġ zi
ĠzaiĠ jinĠ
gongĠ chengĠshiĠ
wangĠ ziĠ
shanĠdongĠ shengĠ
Ġ zhen
ĠĠĠ luoĠ
hou ĠzhiĠ
che ĠdaoĠ
huang ĠshiĠ
guoĠ wuĠyuanĠ
zuiĠ zaoĠdeĠ
Ġ keĠliĠ
si ĠyouĠ
bao ĠheĠ
ru ĠyiĠ
ĠshiĠ yueĠ
jianĠzhuĠ wuĠ
Ġ sanĠshiĠ
guo ĠshiĠqiĠ
zuo ĠyuĠ
ĠshiĠ jiĠdeĠ
tiĠ chuĠleĠ
a ĠliĠ
Ġ chuĠrenĠ
yuanĠ ben
mingĠ juĠrenĠ
jiangĠ beiĠ
Ġ re
Ġ chun
Ġ huai
hou ĠbuĠ
song ĠdaoĠ
jiaĠ mengĠ
wangĠ shangĠ
yaoĠ gun
zheng ĠqiĠ
la ĠerĠ
jianĠ she
jiaoĠ fuĠ
pingĠjunĠ haiĠbaĠgaoĠduĠweiĠ
you ĠrenĠgongĠ
zhan ĠzaiĠ
buĠ luoĠ
fuĠ ze
yinĠ yongĠ
pingĠ minĠ
Ġgai ĠweiĠ
ĠĠĠ 3Ġ
da ĠzaiĠ
1954 ĠnianĠ
ĠweiĠfuĠqiĠyuĠ gangĠ
yin ĠzhongĠzaiĠ
faĠ shengĠdeĠ
ĠdiĠ liuĠ
duĠ duĠ
ĠxianĠ jinĠ
neiĠ zhanĠ
xunĠ qiuĠ
ĠerĠgaiĠdiĠdeĠ pingĠjunĠhaiĠbaĠgaoĠduĠweiĠ
ju ĠweiĠ
ya ĠzhiĠ
yang ĠheĠ
ĠbuĠ laĠ
baoĠ xianĠ
guĠ fenĠ
liĠ lunĠ
zhengĠshiĠ qiĠ
ĠnianĠqiĠ jianĠ
sheng ĠbuĠ
jiang ĠzhongĠ
tai ĠerĠ
song ĠdeĠ
ĠzheĠ ciĠ
zaoĠ shouĠ
ĠbiĠ yeĠ
ĠhanĠ zuĠ
2010ĠnianĠ meiĠguoĠrenĠkouĠpuĠchaĠdeĠshuĠjuĠ
shuoĠshiĠ xueĠweiĠ
yinĠzhongĠzaiĠ peiĠ
y ĠĠĠ
luo ĠzaiĠ
shun ĠshiĠ
ĠliĠ xueĠ
qie ĠerĠ
juĠ tiĠ
ĠbaoĠ daoĠ
zengĠ qiangĠ
Ġ anĠdeĠ
dai ĠyuĠ
baoĠ zhaĠ
zuĠ xieĠ
ganĠ suĠ
ĠxueĠ shengĠ
an ĠzhongĠ
ĠĠĠ 2018ĠnianĠ
ban ĠyuĠ
biao ĠdeĠ
suo ĠyiĠ
gongĠ neng
qingĠ xiangĠ
banĠ ciĠ
Ġ 2000
ying ĠdiĠ
shangĠ dianĠ
yingĠ zhanĠ
jiaoĠ keĠ
youĠrenĠgongĠ yinĠzhongĠzaiĠpeiĠ
ĠĠĠ 2006
ĠĠĠ shenĠ
ru ĠshiĠ
ma ĠliĠyaĠ
ruan ĠtiĠ
gongĠ anĠ
faĠ lingĠ
jiangĠ taĠ
lianĠ tongĠ
lingĠ daoĠdeĠ
baĠ laĠ
naĠ ruĠ
xiangĠshiĠ diĠ
bei ĠheĠ
zhang ĠyiĠ
dongĠ gongĠ
Ġkang ĠxiĠ
ĠyuĠciĠ tongĠshiĠ
chu ĠweiĠ
mao ĠxianĠ
ĠjiĠ liĠ
chengĠ fenĠ
ĠquanĠ zhangĠ
yi ĠshiĠyongĠ
qing ĠyiĠ
ĠbeiĠ keĠ
guiĠ zhouĠ
zheng ĠyueĠ
qu ĠzaiĠ
xiao ĠyouĠ
zhang ĠzaiĠ
shuo ĠdeĠ
chengĠ huĠ
chanĠshengĠ leĠ
Ġ nĠ
daĠ duoĠ
diĠyiĠ renĠ
yanĠjiuĠ shengĠ
huaĠrenĠminĠ gongĠheĠ
ĠĠĠ taiĠwanĠ
zheng ĠyuĠ
1955 ĠnianĠ
mingĠ jinĠshiĠ
boĠ luoĠ
caiĠ chanĠ
xunĠ huanĠ
ĠshiĠzhongĠ huaĠrenĠminĠgongĠheĠguoĠ
Ġ min
long ĠshiĠ
huoĠ yunĠ
xuĠ shuĠ
ĠshengĠ zhangĠyuĠ
an ĠzhiĠ
huoĠ wuĠ
Ġ gongĠjiĠ
mian ĠyuĠ
ĠzhiĠ shaoĠ
ĠjiaĠ jingĠ
benĠ xianĠ
ĠjuĠ minĠ
bi ĠshiĠ
te ĠshiĠ
teĠ langĠ
ĠĠĠ di
reng ĠyouĠ
ĠyiĠ xie
xianĠ chengĠ
yingĠ duiĠ
ĠdaĠ xiĠyangĠ
changĠ beiĠ
wenĠ huaĠdeĠ
zai ĠĠĠ
duo ĠfuĠ
douĠ zhengĠ
tanĠ dingĠ
panĠ jueĠ
ĠkaiĠ faĠ
Ġ ãĥ¼
ĠzhiĠ luĠ
jieĠ duĠshiĠ
tiĠ jiaoĠ
canĠ guanĠ
ĠĠĠ 10ĠyueĠ
ta ĠheĠ
lu ĠzaiĠ
ya ĠshiĠ
te ĠyuĠ
zhuang ĠbingĠduĠ
km Ġ
tuiĠ chuĠdeĠ
shu ĠqiĠ
qiang ĠjiĠ
on Ġ
1974 ĠnianĠ
qiĠ cheĠ
dongĠ niĠ
yinĠ jingĠ
ĠrenĠzhongĠ gongĠ
huaĠshengĠ dunĠ
Ġ cui
zheng ĠliĠ
zu ĠyuĠ
ping ĠshiĠ
HD ĠĠĠ
ĠzaiĠ gaiĠ
jianĠ daoĠ
faĠ zhanĠdeĠ
ĠdaĠ chenĠ
suĠweiĠ aiĠ
Ġ chengĠshiĠ
rang ĠtaĠ
ĠfuĠ leiĠ
Ġ ding
tong ĠheĠ
ĠyouĠ xingĠ
ĠjuĠ qingĠ
ĠsuĠ lianĠ
ai ĠguoĠ
zhong ĠdeĠyiĠ
le ĠweiĠ
duiĠ huaĠ
aiĠ qingĠ
chuĠxianĠ leĠ
Ġ qiao
su ĠshiĠ
Ġnian ĠliĠ
Ġ000 ĠrenĠ
100 Ġ
shengĠ muĠ
ĠfuĠ ze
ĠyinĠ faĠ
renĠminĠ daiĠbiaoĠdaĠhuiĠ
huan ĠjieĠ
yanĠ huaĠ
baoĠ zhengĠ
hongĠ junĠ
gongĠheĠ dangĠ
ciĠzhiĠ waiĠ
zhan ĠheĠ
ba ĠyueĠ
ku ĠdeĠ
junĠ tuanĠ
shenĠ shengĠ
Ġ cu
lai ĠkeĠ
zhuĠ ruĠ
duiĠ yuanĠ
gao ĠdiĠ
la ĠyuĠ
lei ĠweiĠ
shouĠ haiĠ
anĠ pai
chongĠ qingĠ
ĠguoĠjiaĠ duiĠ
zengĠjiaĠ leĠ
5 ĠgeĠ
ri ĠyiĠ
yin ĠerĠ
mu ĠheĠ
jianĠ zao
jinĠ qiuĠ
gouĠ mai
Ġmi ĠdeĠdiĠquĠ
ĠĠĠ 4
kang ĠxiĠ
geĠ ziĠ
jiaoĠ daoĠ
shenĠ wangĠ
Ġmi ĠdeĠ
ĠĠĠ shangĠ
zhu ĠguoĠ
bin ĠshiĠ
siĠ tanĠ
tiĠ quĠ
fenĠ quĠ
ĠfaĠ biaoĠ
aiĠdeĠ huaĠ
Ġ langĠ
ĠĠĠ 2017ĠnianĠ
duan ĠyuĠ
juĠ beiĠ
daiĠ maĠ
hanĠ moĠdeĠ
shengĠchan ĠdeĠ
yue ĠweiĠ
shang ĠzhiĠ
yang ĠzhiĠ
ziĠ liao
ĠĠĠ zhanĠ
ĠĠĠ 2016ĠnianĠ
xiang ĠzhiĠ
40 Ġ
zhiĠ chiĠ
xieĠ tiao
ĠdanĠ baiĠ
e ĠĠĠ
fei ĠyiĠ
chuan ĠdiĠ
kan ĠdeĠ
me Ġ
1977 ĠnianĠ
ĠbuĠ daĠ
ĠkeĠneng ĠshiĠ
G Ġ
ĠĠĠ TheĠĠĠ
ĠĠĠ lingĠwaiĠ
ke ĠrenĠ
fuĠ gaiĠ
pinĠ lvĠ
canĠmou ĠzhangĠ
Ġ genĠju
ĠĠĠ riĠ
ci ĠzhongĠ
pai ĠdeĠzhuĠ
xun ĠfuĠ
hang ĠxianĠ
ĠshiĠ jingĠ
mingĠ luĠ
sheĠ hui
caiĠ liao
ĠxinĠ jiaĠ
ĠbiĠ yeĠyuĠ
5 ĠnianĠ
ĠyiĠ riĠ
ĠliĠ xinĠ
huiĠ xiangĠ
hao ĠyuĠ
Ġ cao
fen ĠqiĠ
mo ĠqiĠ
ĠxiĠ huanĠ
luoĠ boĠteĠ
ĠlingĠyiĠ fangĠmianĠ
Ġ Ma
Ġ 1938
liu ĠgeĠ
kong ĠdeĠ
pin ĠzhiĠ
ĠheĠ chengĠ
geĠ lanĠ
chuĠ ruĠkouĠ
chaoĠ tingĠ
longĠ shengĠ
ĠshengĠzhangĠyuĠ haiĠbaĠ
Ġ pan
qian ĠzaiĠ
na ĠsiĠ
ciĠ daĠ
changĠ wu
xiaĠ fangĠ
gaoĠ yuanĠ
ĠĠĠsuiĠ ranĠ
E Ġ
z Ġ
du ĠdaĠ
wang ĠyouĠ
ĠerĠ houĠ
danĠ baiĠ
Ġzai ĠyuĠ
liangĠ ceĠ
ben ĠkeĠ
fuĠ sheĠ
ĠqiĠ chuĠ
qianĠ houĠ
dianĠ yingĠdeĠ
qingĠ daoĠ
ĠjianĠ sheĠ
ĠmuĠqianĠ shangĠweiĠ
xiangĠ guan
haiĠ eĠ
huĠ poĠ
mianĠ shangĠ
ĠboĠ chuĠ
ĠrenĠ min
fenĠ xiaoĠ
qingĠ xuĠ
ĠtianĠ jinĠ
nvĠzhuĠ jueĠ
4 ĠnianĠ
Ġ gan
ĠĠĠ taiĠ
lou ĠdeĠ
jieĠ guanĠ
mingĠ queĠ
dongĠ cheĠ
xingĠzhengĠ zhenĠquĠ
quan ĠweiĠ
guoĠ quĠ
daĠ qiĠ
chengĠ haoĠ
Ġ fu
zhen ĠheĠ
ĠshiĠ zhangĠ
Ġli ĠshiĠdeĠ
shengĠ jingĠ
shangĠ jiaĠ
dongĠ yuanĠ
ĠdongĠ wuĠ
eĠluoĠ siĠdeĠ
Ġ tun
ĠĠĠ Co
fen ĠjiĠ
biĠ ya
zhouĠ zhangĠ
anĠ zhaoĠ
moĠ luoĠ
2 ĠnianĠ
ye ĠerĠ
han ĠyiĠ
tiĠ yanĠ
ĠgongĠ jinĠ
huĠ dongĠ
ĠwuĠ xianĠ
rongĠ naĠ
ĠmaĠlai ĠxiĠyaĠ
zhanĠzheng ĠzhongĠ
Ġ buĠshiĠ
1962 ĠnianĠ
3 ĠrenĠ
xiang ĠzaiĠ
zuo ĠzhongĠ
lei ĠshiĠ
1971 ĠnianĠ
fuĠ zhuĠrenĠ
geĠ buĠ
shangĠ leĠ
quanĠ qiu
Ġ poĠ
jianĠ guoĠ
houĠ lai
tongĠ chang
Ġ xie
ri ĠjiĠ
ri ĠyuĠ
shou ĠheĠ
xun ĠdeĠ
nong ĠchangĠ
ĠbuĠ zuĠ
huiĠ huaĠ
shangĠ pinĠ
yingĠ junĠ
nvĠ haiĠ
ĠqianĠ miĠ
guiĠ moĠdeĠ
yin ĠzhiĠ
zao ĠxingĠ
28 Ġ
ĠyiĠ chengĠ
shengĠ fuĠ
zhenĠ yaĠ
shuiĠ kuĠ
hangĠ tianĠ
ĠshiĠyongĠ zheĠ
ĠqiĠzhongĠ nanĠ
Ġ ning
ĠyuĠ qiĠtaĠ
ĠbuĠ laiĠ
ĠquanĠ qiuĠ
Ġ chanĠ
jiao ĠheĠ
huo ĠyueĠ
qing ĠxiĠ
miao ĠdeĠ
zhuĠ diĠ
yinĠ shua
tianĠ tangĠ
meiĠguoĠ renĠ
ĠdeĠrenĠ wuĠ
ĠhuĠ nanĠ
taiĠwan ĠdeĠ
Ġ reĠ
ĠĠĠ 1949
ĠĠĠ luĠ
ĠĠĠ xiangĠgangĠ
ĠĠĠ heĠĠĠ
ĠzhiĠ zhengĠ
mingĠ ciĠ
yanĠ wuĠ
ĠshiĠyiĠ jiĠ
du ĠyiĠ
suan ĠfaĠ
ĠweiĠ yaĠ
ĠrenĠ jiaoĠ
fenĠ lieĠ
Ġ sheĠliĠ
Ġ 1998ĠnianĠ
mei ĠriĠ
buĠ keĠ
ĠzaiĠ renĠ
xianĠ zhangĠ
zhengĠ duoĠ
tongĠ wangĠ
jian ĠliĠdeĠ
dang ĠheĠ
bo ĠkeĠ
leĠ gaiĠ
qingĠ shaoĠnianĠ
ĠshiĠzhongĠ xinĠ
ĠxiĠbanĠ yaĠyuĠ
Ġ zuiĠdaĠ
yi ĠshiĠjianĠ
ming ĠyouĠ
ye ĠzhiĠ
na ĠerĠ
shenĠ chaĠ
Ġ guĠshiĠ
keĠ xue
ĠbaoĠ gaoĠ
mianĠjiĠ heĠ
a ĠĠĠ
Ġ diao
ĠĠĠ zongĠ
di ĠyouĠ
chu ĠnianĠ
sheng ĠzhongĠ
jie ĠweiĠzhiĠ
dong ĠyiĠ
dai ĠyiĠ
shengĠ xiaĠ
qianĠ ruĠ
ganĠ jueĠ
ĠdongĠ jingĠ
nvĠ yanĠyuanĠ
xiaĠxiaĠdeĠyiĠgeĠ xiangĠ
Ġ 2004
dui ĠliĠ
jiu ĠrenĠ
cha ĠliĠ
fuĠ yinĠ
fenĠ lanĠ
ĠdeĠyiĠ siĠ
kaiĠ muĠ
mouĠ shaĠ
Ġ JR
wu ĠzaiĠ
dan ĠdaĠ
guĠ dongĠ
ĠtiĠ chuĠ
Ġ15 Ġ
a ĠjiĠ
v Ġ
shengĠ geĠweiĠ
yongĠ jiuĠ
haiĠ jun
ĠgongĠ siĠdeĠ
ci ĠyouĠ
chan ĠdeĠ
ĠheĠ heĠ
ĠziĠ liaoĠ
Ġ 1ĠyueĠ
er ĠyouĠ
la ĠliĠ
1973 ĠnianĠ
leĠ liangĠ
duiĠ zhenĠ
duoĠ mingĠ
ĠgeĠ mingĠ
gangĠ yuanĠ
ĠnianĠ12ĠyueĠ 31ĠriĠ
tiĠyuĠ guanĠ
ĠĠĠ 2021ĠnianĠ
shu ĠyouĠ
fa ĠzhongĠ
su ĠdanĠ
1936 ĠnianĠ
zaiĠ ciĠ
tianĠ ran
hanĠ linĠ
chongĠ manĠ
ĠkeĠnengĠ huiĠ
jie ĠzaiĠ
chuang ĠshiĠrenĠ
ĠwanĠ pingĠfangĠ
an ĠrenĠ
ĠĠĠ W
weiĠ yuĠ
xiĠ siĠ
shouĠ feiĠ
Ġdan ĠbuĠ
meiĠ meiĠ
ĠguoĠminĠ dangĠ
ĠmuĠqianĠshangĠweiĠ youĠrenĠgongĠyinĠzhongĠzaiĠpeiĠ
Ġ 21
shen ĠjiĠ
ceng ĠrenĠ
1963 ĠnianĠ
ĠyiĠ tiĠ
shenĠ shangĠ
xianĠdeĠyiĠgeĠ xingĠzhengĠzhenĠquĠ
ĠshiĠ guĠ
ĠliĠ qiĠ
xiĠ lie
tianĠ huangĠ
peiĠ yangĠ
canĠyuĠ leĠ
xiangĠgang ĠdeĠ
1941 ĠnianĠ
1959 ĠnianĠ
ĠaĠ laĠ
ĠĠĠfor ĠĠĠ
Ġ can
xiang ĠzhongĠ
ĠzaiĠ naĠliĠ
bianĠ haoĠweiĠ
chuangĠ xinĠ
chou ĠbeiĠ
ĠqiĠ qiĠ
jinĠ xing
shouĠ lingĠ
jiaoĠ zongĠ
yaĠ zhou
waiĠ guanĠ
wuĠliĠ xueĠ
Ġzhou ĠnianĠ
Ġ 1999ĠnianĠ
ĠĠĠ boĠ
ĠĠĠ 4ĠyueĠ
su ĠdaĠ
juĠ changĠ
fangĠ chengĠ
ĠĠĠ In
he ĠyiĠgeĠ
caiĠ wuĠ
ĠgaiĠ diĠdeĠ
Ġke ĠshiĠ
ye ĠzhongĠ
tui ĠxingĠ
heĠ pingĠ
chengĠ zhangĠ
ĠxiĠ jinĠ
jingĠ saiĠ
wangĠ chao
Ġha ĠerĠ
dian ĠyuĠ
xun ĠshiĠ
ruĠ jingĠ
guĠ wuĠ
saiĠ baiĠ
zaoĠ qiĠdeĠ
jingĠjiĠ xueĠ
Ġba ĠliĠ
tai ĠdaĠ
kan ĠfaĠ
yuanĠ quĠ
zhuĠ dongĠ
Ġ kaĠerĠ
ĠĠĠ yue
yin ĠjiĠ
xia ĠyuĠ
zhang ĠliĠ
shouĠ huiĠ
nanĠ feiĠ
ĠĠĠgeĠrenĠ shengĠhuoĠ
Ġ seĠ
Ġ xingĠshiĠ
ĠĠĠ gaoĠ
ĠĠĠ feiĠ
mi ĠshiĠ
codice Ġ
buĠ manĠ
zhuĠ banĠ
yinĠ ziĠ
duĠ jiaĠ
bu ĠweiĠyuĠ
lun ĠsiĠ
zhuĠ zhai
ĠxiĠ yuanĠ
yingĠgeĠ lan
Ġ keĠliĠsiĠ
ĠĠĠ tongĠ
ĠĠĠ 7ĠyueĠ
ye ĠweiĠ
zhou ĠfuĠzeĠguanĠxiaĠ
tuo ĠfuĠ
1939 ĠnianĠ
ĠnianĠ7ĠyueĠ 1ĠriĠ
2 ĠrenĠ
Ġ zha
shen ĠfuĠ
niu ĠsiĠ
xueĠ yuanĠdeĠ
xinĠ zengĠ
laĠ teĠ
diĠyiĠ buĠ
Ġ paĠ
ze ĠyiĠ
duan ĠqiĠ
zeng ĠzhiĠ
ne ĠshengĠ
shengĠ xiaoĠ
baĠ fa
baĠ saiĠ
neiĠ mengĠguĠ
ĠjinĠ guan
ĠyuanĠ xingĠ
jiaoĠyuĠ jiĠ
zhen ĠdiĠ
gongĠ daĠ
xiangĠ beiĠ
ĠyanĠ changĠ
lianĠmeng ĠdeĠ
tong ĠzhongĠ
yan ĠliĠ
bian ĠyuĠ
tian ĠfuĠ
on ĠĠĠ
fuĠ luoĠliĠdaĠ
xinĠ shengĠ
tiĠ gongĠdeĠ
ĠĠĠ dianĠ
ĠĠĠ puĠ
zhong ĠshiĠjiĠ
hou ĠbuĠjiuĠ
xin ĠyuĠ
zongĠ duiĠ
ĠĠĠ 6Ġ
nuo ĠsiĠ
ĠrenĠ ciĠ
ĠyueĠ laiĠyueĠ
gaiĠ mingĠ
baĠ nen
kaĠluoĠ laiĠnaĠ
f Ġ
Ġ J
qian ĠweiĠ
qian ĠyuĠ
ĠshiĠ nanĠjiĠzhouĠdeĠ
ĠzaiĠ taĠdeĠ
ĠdaĠ buĠ
Ġdan ĠyuĠ
shuiĠ shenĠ
Ġ yao
Ġ tu
Ġ huiĠyiĠ
35 Ġ
siĠ faĠ
ĠerĠ zheĠ
jingĠ nei
ĠqingĠ chaoĠ
Ġ wu
jin ĠzhongĠ
qian ĠliĠ
wai ĠjiĠ
tingĠ yunĠ
ĠĠĠ quanĠ
dao ĠliĠ
jing ĠxiĠ
hou ĠrenĠ
fang ĠheĠ
II Ġ
1944 ĠnianĠ
1965 ĠnianĠ
liĠ yongĠ
Ġjie ĠweiĠ
Ġãĥ¼ Ġ
lao ĠgongĠ
1967 ĠnianĠ
huoĠ dongĠdeĠ
minĠ jinĠ
shouĠdaoĠ leĠ
Ġ bu
Ġ MĠ
yong ĠzhiĠ
xia ĠzhiĠ
han ĠshiĠ
huan ĠxiangĠ
1953 ĠnianĠ
daĠ buĠ
daĠ duoĠshuĠ
siĠ xingĠ
ziĠ gongĠsiĠ
lanĠ seĠ
ĠĠĠ 8ĠyueĠ
liang ĠjiaĠ
feng ĠyuĠ
cha ĠjuĠ
peiĠ xunĠ
ĠĠĠ M
ĠĠĠ Ma
ĠĠĠ guĠshiĠ
ĠshiĠ zhengĠ
Ġzhe ĠbuĠ
ĠĠĠ duiĠyuĠ
huo ĠyiĠ
chuan ĠxianĠ
zhuĠ daĠ
ciĠ huiĠ
ĠliĠshiĠ xueĠjiaĠ
yingĠdeĠ leĠ
mianĠjiĠheĠ renĠkouĠ
che ĠliĠ
ĠĠĠ jiuĠ
ĠĠĠ laĠ
du ĠzhiĠ
wang ĠyiĠ
ĠdaĠ qiaoĠ
ĠdeĠjiĠ shuĠ
ĠfanĠ duiĠ
zhanĠzheng ĠqiĠjianĠ
ĠjiĠduĠ jiaoĠ
Ġ junĠshiĠ
ĠĠĠ yeĠ
la ĠdiĠ
ding ĠzhiĠ
jiaĠ zhouĠ
xiangĠ lianĠ
daoĠ danĠ
boĠ laĠ
kaiĠ faĠdeĠ
ĠgaiĠ cun
jiangĠsuĠ shengĠ
ĠĠĠ 10
jiang ĠheĠ
ni ĠshiĠ
ce ĠqiĠ
hang ĠxingĠ
1930 ĠnianĠ
ĠmingĠ chaoĠ
nianĠ daiĠ
ĠĠĠjinĠ guanĠ
ĠgaiĠdiĠdeĠ mianĠjiĠheĠrenĠkouĠ
ĠgaiĠdiĠdeĠmianĠjiĠheĠrenĠkouĠ jieĠweiĠzhiĠ
si ĠzhongĠ
zuiĠ duoĠdeĠ
ĠbingĠ feiĠ
dangĠ xuanĠweiĠ
niĠ yaĠdeĠ
ĠqianĠ longĠ
heiĠ longĠjiangĠ
ĠboĠ luoĠ
Ġ 25
Ġ guanĠzhiĠ
ĠĠĠ 2015ĠnianĠ
zhen ĠrenĠ
ĠbuĠ luĠ
jinĠ shanĠ
tingĠ kaoĠ
ĠyiĠshuĠ jiaĠ
Ġ RĠ
wei ĠshiĠjieĠ
chui ĠzhiĠ
ĠwanĠ chengĠ
Ġ leiĠjiĠ
mei ĠerĠ
yanĠ xuĠ
jiangĠ zuiĠjiaĠ
nanĠ minĠ
ĠgongĠ zuo
zhengĠxie ĠweiĠyuanĠ
an ĠfuĠ
ĠĠĠ jianĠliĠ
shou ĠerĠ
shan ĠyuĠ
zhuang ĠweiĠ
ha ĠdeĠ
ĠdaĠ xueĠdeĠ
zhengĠfu ĠyuĠ
ĠĠĠ muĠqianĠ
zhongĠ xueĠ
ĠbuĠ heĠ
zhanĠ zhengĠdeĠ
ĠdaĠ diĠ
dianĠ naoĠ
zongĠ jingĠliĠ
tuĠ anĠ
Ġ zhuo
duiĠ taĠ
huoĠ jiangĠ
dangĠ anĠ
ĠciĠ ciĠ
ĠfenĠbie ĠweiĠ
jiaĠliĠfuĠ niĠyaĠzhouĠ
hou ĠguoĠ
lu ĠweiĠ
ĠshiĠ siĠ
houĠ fangĠ
qianĠ xianĠ
ĠwanĠ meiĠ
ĠtongĠ riĠ
Ġ zhanĠdiĠ
ĠĠĠ jianĠzhuĠ
ĠĠĠ 2014ĠnianĠ
nan ĠrenĠ
fou ĠrenĠ
gongĠ jueĠ
jiaĠ naĠ
quĠ dongĠ
Ġtong ĠzhiĠ
ĠĠĠyiĠ xiaĠ
Ġ 2003
Ġ tuiĠchuĠ
mei ĠyiĠ
chuan ĠyueĠ
sui ĠdeĠ
1935 ĠnianĠ
xiangĠ daoĠ
gaiĠ jinĠ
jiuĠ duĠyuĠ
zongĠ shuĠ
linĠ shengĠ
ĠshiĠjiĠ yuĠ
li ĠyiĠ
kuai ĠdeĠ
jiaĠ qiangĠ
ciĠ shuĠ
anĠ xianĠ
Ġmi ĠzhiĠ
Ġ 1940
Ġ com
gai ĠzhiĠ
te ĠzaiĠ
pei ĠdeĠ
ĠshiĠ baĠ
zhuĠ longĠ
tongĠ xueĠ
wenĠ geĠ
guĠ laoĠdeĠ
puĠ chaĠ
touĠ ru
Ġ heng
ĠĠĠ 9ĠyueĠ
jin ĠnianĠ
sui ĠzhiĠ
lingĠ yuĠdeĠ
chiĠ jingĠ
geĠyueĠ houĠ
ĠĠĠ 2020ĠnianĠ
cheng ĠyiĠgeĠ
xiangĠ jiaoĠ
yanĠ shengĠ
fenĠ chengĠ
liuĠ liangĠ
ĠhaiĠ junĠ
ĠD Ġ
shenĠme Ġ
ĠĠĠ muĠ
jiao ĠjiĠ
xia ĠerĠ
ya ĠsiĠ
juĠ feng
jingĠ quĠ
duĠ teĠdeĠ
ĠgeĠ guoĠ
ĠzheĠ yeĠshiĠ
faĠshengĠ leĠ
ĠĠĠzhiĠ zuoĠ
ĠĠĠcheĠzhanĠ jieĠgouĠ
Ġ fenĠweiĠ
si ĠyueĠ
ba ĠtaĠ
ĠshiĠ fuĠ
weiĠ jiĠ
erĠ beiĠ
miĠ duĠ
eĠ haiĠeĠ
ĠhuaĠ shengĠ
dong ĠzhiĠ
zhengĠ jiaoĠ
feiĠ chang
2Ġ haoĠ
Ġ gouĠ
ri ĠshiĠ
fang ĠdiĠ
ziĠ shaĠ
ĠzhuĠ chiĠ
huiĠyiĠ shangĠ
ĠzhengĠ geĠ
ziĠxingĠ cheĠ
jin ĠqiĠ
zhe ĠjiĠ
mu ĠjiĠ
lei ĠheĠ
suan ĠdeĠ
2025 ĠnianĠ
ĠyouĠ heĠ
jinĠ chengĠ
jinĠ rongĠ
ĠbiĠ xuĠ
ĠliĠfaĠ huiĠ
Ġ guanĠliĠ
sheng ĠrenĠminĠzhengĠfuĠ
shangĠ fangĠ
mianĠ linĠ
ĠshengĠ chengĠ
Ġ V
Ġ chongĠxinĠ
yinĠ niĠ
jiuĠ beiĠ
luoĠfaĠ keĠ
xin ĠheĠ
ĠzhongĠ beiĠ
zhuĠ liuĠ
ĠerĠ laiĠ
fangĠ xingĠ
ĠfuĠ gaiĠ
saiĠ cheĠ
ĠbingĠqie ĠzaiĠ
e ĠerĠ
ming ĠheĠ
dui ĠweiĠ
1969 ĠnianĠ
fuĠ buĠzhangĠ
yingĠ guoĠdeĠ
ĠzhuĠ xiĠ
ĠdeĠshiĠ shiĠ
Ġceng ĠzaiĠ
ĠĠĠ 2013ĠnianĠ
lu ĠxiĠ
kuang ĠjiaĠ
daĠ xueĠdeĠ
fuĠ jiaĠ
huiĠ jiaĠ
juĠ zhuĠzaiĠ
juĠ juĠzhangĠ
baoĠ fuĠ
ĠĠĠ riĠbenĠ
ĠĠĠ 6ĠyueĠ
ĠĠĠ 4Ġ
luo ĠweiĠ
ĠshiĠ taiĠwanĠ
diĠ liuĠ
gongĠ shangĠ
mianĠ qianĠ
xiuĠ dingĠ
Ġ man
Ġ 2002
di ĠyiĠjiĠ
dan ĠyiĠ
zu ĠweiĠ
ĠzhiĠ yaoĠ
fuĠ huaĠ
ĠguoĠ fangĠ
yanĠ faĠ
ĠdeĠyiĠ jianĠ
zuiĠzhongĠ yaoĠdeĠ
Ġ ga
li ĠkeĠ
shou ĠliĠ
yan ĠqiĠ
tai ĠweiĠ
zhuan ĠzhiĠ
ka ĠdeĠ
24 Ġ
1961 ĠnianĠ
1931 ĠnianĠ
gongĠ gaoĠ
ĠqiĠ yongĠ
Ġer ĠheĠ
N Ġ
bao ĠjiĠ
she ĠliĠdeĠ
1957 ĠnianĠ
yanĠ shenĠzhiĠ
muĠ jianĠ
luoĠ xuanĠ
ĠcengĠ jingĠ
Ġ yuĠyiĠ
ban ĠnianĠ
shen ĠliĠ
fei ĠzhiĠ
zong ĠdeĠ
ĠshiĠ shangĠ
zuoĠ leĠ
wanĠ zhengĠdeĠ
ĠtaiĠ pingĠ
chengĠliĠ leĠ
wuĠxianĠ dianĠshiĠ
ĠĠĠ 2010ĠnianĠ
te ĠgongĠ
ku ĠerĠ
tui ĠliĠ
26 Ġ
ĠxiĠ xiĠ
junĠ beiĠ
cheĠ tuiĠ
kaĠ feiĠ
Ġ qin
nan ĠyuĠ
quĠ ziĠ
luĠ duanĠ
ĠsiĠ lingĠbuĠ
zhenĠ zhengĠ
baĠ leĠsiĠ
liĠ liangĠ
chongĠ zuĠ
mengĠ teĠ
Ġ zao
ĠĠĠ 2012ĠnianĠ
mei ĠzhongĠ
geĠ ciĠ
ĠbuĠ shaoĠ
shuĠ shuĠ
ĠkeĠ laĠ
ĠĠĠgenĠjuĠ 2010ĠnianĠmeiĠguoĠrenĠkouĠpuĠchaĠdeĠshuĠjuĠ
ĠĠĠ gai
dai ĠzhiĠ
duo ĠliĠ
fan ĠgongĠ
reng ĠzaiĠ
1951 ĠnianĠ
ĠyiĠ jiaoĠ
Ġyou ĠĠĠ
yuanĠ waiĠ
ĠtaĠ jiangĠ
liuĠ xueĠ
ĠP Ġ
ka ĠliĠ
guoĠ fangĠbuĠ
zuĠ ziĠzhiĠ
tuiĠ fanĠ
zhengĠfu ĠzaiĠ
zhi ĠĠĠ
nei ĠsiĠ
po ĠerĠ
ĠzaiĠ riĠbenĠ
gongĠ jiaoĠ
shengĠ jieĠrangĠ
jinĠ zhangĠ
wangĠ houĠ
ĠfuĠ erĠ
jiang ĠweiĠ
lai ĠerĠ
ben ĠzhiĠ
taiĠ shouĠ
ĠkeĠ chengĠ
ĠjiaĠ ru
Ġfei ĠliĠ
Ġ pao
Ġ kuaiĠ
ĠĠĠ tangĠ
duo ĠbuĠ
jieĠ jieĠ
zhengĠ wuĠ
ĠkeĠ laiĠ
liaoĠ ning
ĠdeĠzhuĠ yao
quĠshiĠ houĠ
ĠĠĠyou ĠxiĠ
chen ĠdeĠ
ĠyiĠ qingĠ
faĠ xian
ĠriĠ baoĠ
feiĠ faĠ
zhuanĠ huanĠ
Ġjiang ĠxiĠ
Ġ U
ĠĠĠ yongĠ
ta ĠerĠ
dang ĠriĠ
jianĠ zhuĠshiĠ
fangĠ bianĠ
tuĠ ranĠ
guangĠ fanĠdeĠ
ĠĠĠ 2005
ĠĠĠ yanĠgeĠ
ri ĠerĠ
xiao ĠyiĠ
qian ĠqiĠ
hei ĠrenĠ
Ġyue ĠrenĠ
keĠ xueĠjiaĠ
meiĠ ti
xinĠguanĠ feiĠyanĠ
Ġ long
Ġ pengĠ
Ġ 9Ġ
zuo ĠheĠ
shangĠ suĠ
tuĠ ran
hangĠ banĠ
ĠjingĠ neiĠ
chong ĠfuĠ
huiĠ guanĠ
qianĠ laiĠ
quanĠ tiĠ
tuanĠ zhangĠ
4 ĠrenĠ
Ġ kua
jin ĠheĠ
liang ĠyuĠ
pan ĠdeĠ
daiĠ tiĠ
tuĠ shaĠ
mianĠ xiangĠ
xingĠzhengĠ danĠweiĠ
ĠanĠ huiĠ
ĠdiĠerĠ ciĠ
ĠĠĠ ruĠ
ci ĠheĠ
lei ĠyuĠ
rong ĠdeĠ
1960 ĠnianĠdaiĠ
jiaĠ erĠ
fangĠ xiangĠdeĠ
baoĠ anĠ
huoĠ quĠ
caiĠ zhengĠbuĠ
mouĠ xie
ĠshiĠyiĠgeĠweiĠyuĠ meiĠguoĠ
Ġ jiĠyiĠ
er ĠzhongĠ
pu ĠdeĠ
cun ĠyuĠ
tuo ĠerĠ
1933 ĠnianĠ
ĠyiĠ changĠ
tingĠ zhangĠ
woĠ men
mi ĠjiĠ
ben ĠjiĠ
gei ĠtaĠ
1942 ĠnianĠ
jingĠ yuanĠ
zhanĠ juĠ
saiĠ guanĠjunĠ
gangĠ tieĠ
ĠshiĠshiĠ zhangĠ
renĠdaĠ daiĠbiaoĠ
6 ĠgeĠ
kai ĠqiĠ
renĠ min
ĠzaiĠ nanĠ
ĠbingĠ biaoĠshiĠ
hangĠkong ĠgongĠsiĠ
ĠliuĠyuĠ mianĠjiĠ
Y Ġ
ming ĠjiĠ
ken ĠdingĠ
ĠshiĠ keĠ
1 ĠrenĠ
1928 ĠnianĠ
jinĠ siĠ
liuĠ chuanĠ
danĠ shuiĠ
ĠgenĠjuĠ 2020ĠnianĠmeiĠguoĠrenĠkouĠpuĠchaĠdeĠshuĠjuĠ
k ĠĠĠ
xin ĠzhiĠ
wan ĠqiĠ
che ĠxingĠ
shao ĠyouĠ
yuanĠ shuĠ
shangĠ jiangĠ
duoĠ xiangĠ
nv ĠyouĠ
heĠ beiĠ
keĠ saĠsiĠ
zuoĠ yeĠ
boĠ yinĠ
ĠyeĠ keĠyiĠ
Ġ 29
gu ĠyiĠ
tai ĠyiĠ
pingĠ hengĠ
chongĠ fanĠ
taoĠ wangĠ
ĠĠĠ zuiĠ
ĠĠĠ 2011ĠnianĠ
fan ĠfuĠ
zhao ĠshiĠ
ĠjiĠ cheĠ
jieĠ shou
ĠqiĠ houĠyuĠ
ĠerĠ ciĠ
ĠxiĠ siĠ
bianĠ zuĠ
caiĠ panĠ
zhuanĠ quĠ
touĠ shouĠ
huoĠdeĠ deĠ
gongĠchanĠ dang
ĠfenĠbie ĠshiĠ
ĠĠĠ D
nian ĠdeĠ
fen ĠshiĠ
ben ĠbuĠ
fan ĠjiĠ
huan ĠweiĠ
27 Ġ
jianĠ chiĠ
meiĠ tianĠ
chuangĠ zao
ĠyunĠ nanĠ
xueĠshiĠ xueĠweiĠ
lan ĠshiĠ
pan ĠchuĠ
shouĠ mingĠ
tongĠ yang
fenĠ xiangĠ
ze ĠdeĠ
ĠshiĠ xiĠbanĠyaĠ
ĠjieĠ fangĠ
ĠxinĠ zeng
ĠyingĠ xiangĠ
Ġ 45
Ġ 2023ĠnianĠ
ĠĠĠ faĠguoĠ
ceng ĠbeiĠ
shun ĠxuĠ
run Ġ
zhongĠ haiĠ
leĠ xuĠduoĠ
ĠdeĠyiĠ weiĠ
ĠdanĠ yeĠ
tanĠ suoĠ
ĠshiĠshiĠ yiĠ
xinĠxiĠ lanĠ
Ġ 1997ĠnianĠ
ying ĠheĠ
ma ĠqiĠ
lin ĠyuĠ
qiao ĠdeĠ
daĠ lu
wuĠ fa
jieĠ ruĠ
meiĠ guoĠyiĠ
ĠyinĠweiĠ taĠ
gongĠchanĠ zhuĠyiĠ
yao ĠzaiĠ
diĠ tieĠ
jianĠ shao
faĠ erĠ
qiangĠ daĠdeĠ
Ġ houĠyuĠ
Ġ 20Ġ
jieĠ xiaĠ
waiĠ jieĠ
ĠwoĠ men
n ĠĠĠ
Ġ chuang
Ġ bangĠzhuĠ
ĠĠĠ baiĠ
er ĠĠĠ
bai ĠxingĠ
gang ĠdeĠ
diĠ daĠ
xiaoĠ sheĠ
duoĠ lunĠ
keĠneng ĠxingĠ
Ġ rui
cha ĠerĠsiĠ
1912 ĠnianĠ
faĠ buĠdeĠ
qianĠ zeĠ
ranĠ liaoĠ
nvĠ wangĠ
wangĠyuanĠ jingĠ
yaĠmeiĠ niĠyaĠ
wen ĠyuĠ
ting ĠshiĠ
chengĠ gongĠdeĠ
daoĠ shangĠ
beiĠ qiĠ
yanĠ zou
ĠjieĠ gouĠ
Ġri ĠyiĠ
x ĠĠĠ
Ġ X
fu ĠzhongĠ
dao ĠguoĠ
zu ĠshiĠ
wan ĠnianĠ
ting ĠheĠ
sha ĠshiĠ
mao ĠdeĠ
huaĠ mianĠ
ĠdaĠ qiĠ
shenĠ ruĠ
ĠgeĠ lanĠ
Ġ000 Ġ
Ġ jing
ĠweiĠ daĠ
yinĠ jinĠ
suĠ songĠ
ĠdanĠ zheĠ
chuanĠ bo
ĠmianĠjiĠ 0
ĠĠĠ wenĠhuaĠ
san ĠyueĠ
ting ĠjiĠ
Ġli ĠnianĠ
pingĠ dingĠ
tiaoĠ wenĠ
ĠaoĠ daĠliĠyaĠ
ĠrenĠkou ĠdeĠ
Ġ 50
yu ĠdeĠguoĠ
yi ĠdeĠshiĠ
ĠĠĠ 12
zuo ĠzhiĠ
zhuĠ shouĠ
zhuĠ guanĠ
suĠ sheĠ
fengĠ geĠdeĠ
ĠjieĠ jinĠ
ĠyiĠjiĠ zaiĠ
huĠlianĠ wangĠ
ĠĠĠ X
qu ĠdiĠ
1927 ĠnianĠ
chuĠ xian
yeĠ naĠ
ĠshiĠshiĠ deĠ
Ġ zeng
ou ĠyuanĠ
ĠsiĠ geĠ
xieĠ daiĠ
Ġ Ð°
Ġ guoĠliĠ
you ĠdeĠ
yong ĠdiĠ
san ĠdeĠ
ĠliĠ jingĠ
diĠ mianĠ
ĠbuĠ tong
guanĠ xiĠdeĠ
jiaoĠ liu
fenĠ shuĠ
dangĠ xuan
dianĠyingĠ jieĠ
5 ĠmiĠ
zhou ĠdeĠyiĠgeĠshiĠzhenĠ
wuĠ renĠjiĠ
quĠ neiĠ
luĠ waĠ
wenĠ siĠ
shuiĠ mianĠ
hangĠ zhouĠ
ĠhuĠ beiĠ
ĠluĠwa ĠerĠshengĠ
Ġ yuanĠshiĠ
zuo ĠjiĠ
zu ĠjiĠ
shouĠ huanĠyingĠ
tongĠ baoĠ
duoĠ yuanĠ
ĠtongĠshiĠ yeĠ
ĠshiĠxingĠ dengĠweiĠ
Ġ zhongĠyuĠ
bi ĠyuĠ
guan Ġli
qing ĠheĠ
te ĠsiĠ
zun ĠzhongĠ
1943 ĠnianĠ
diĠ dianĠ
junĠ jianĠ
tianĠ wenĠxueĠ
ĠjingĠ fangĠ
ĠĠĠ guanĠ
fei ĠshiĠ
duiĠ fuĠ
qianĠ xiaĠ
ĠziĠ xingĠ
yanĠjiu ĠzhongĠxinĠ
renĠkouĠpuĠ chaĠ
Ġ xue
Ġ tan
le ĠxiĠ
guan ĠweiĠ
jiu ĠyueĠ
fan ĠdaĠxueĠ
ting ĠyuĠ
geĠ siĠ
ĠguoĠ jia
ĠdaĠ banĠ
qianĠ yinĠ
Ġdan ĠyouĠ
Ġ 400
1932 ĠnianĠ
1929 ĠnianĠ
ĠyueĠ tuan
xueĠ tangĠ
ĠweiĠyuanĠ huiĠdeĠ
ĠguangĠ xuĠ
aĠerĠ beiĠsiĠ
yi ĠĠĠ
wuĠ buĠ
quĠ bieĠ
tiĠ caiĠ
duĠ ziĠ
ĠgongĠ changĠ
zuoĠpin ĠdeĠ
Ġ 60
ĠĠĠ aiĠ
le ĠzhiĠ
shen ĠqiĠ
ĠzaiĠ wuĠ
ĠbuĠ yaoĠ
dianĠ chiĠ
boĠ chuĠdeĠ
ĠbingĠ chengĠ
ĠdeĠyiĠ ciĠ
neiĠ ruiĠ
xingĠzhengĠ quĠhuaĠ
biĠsai ĠdeĠ
qi ĠliĠ
fei ĠdanĠ
gongĠ zuoĠdeĠ
benĠ shuĠ
paiĠ lieĠ
Ġchi ĠweiĠ
Ġ 2001
Ġ siĠshiĠ
Ġ hengĠliĠ
yong ĠqiĠ
zhongĠ huaĠ
ĠzhongĠ yaoĠdeĠ
jiaĠ xiangĠ
chengĠ shuĠ
xinĠ zhuĠ
jiaoĠ gaoĠ
sheĠ huiĠdeĠ
puĠ luoĠ
panĠ luanĠ
yin ĠyouĠ
yong ĠheĠ
jue ĠweiĠ
ceng ĠyouĠ
huang ĠheĠ
miao ĠyuĠ
1934 ĠnianĠ
dianĠ liuĠ
duoĠ guanĠ
zhuĠyao ĠshiĠ
reĠdai ĠqiĠxuanĠ
ĠĠĠ zuoĠweiĠ
1924 ĠnianĠ
shuĠ faĠ
zhanĠ quĠ
tiĠ qianĠ
banĠ quanĠ
yiĠshiĠ daoĠ
Ġzai ĠshiĠ
ĠĠĠweiĠ leĠ
aĠgenĠ tingĠ
ĠĠĠ R
shuo ĠfuĠ
ĠzhiĠ ciĠ
gongĠ ye
tiĠ gong
ĠsiĠ houĠ
ĠxianĠ xingĠ
zhuanĠ jiĠdeĠ
ĠfeiĠ lvĠ
Ġ zui
Ġ gang
Ġ FĠ
ĠyiĠ xianĠ
diĠ fenĠ
geĠ tiĠ
jingĠ neiĠdeĠ
zuĠ xianĠ
diĠyiĠ baiĠ
henĠ duo
zhuiĠ qiuĠ
ti ĠbuĠ
te ĠweiĠ
dou ĠbuĠ
ĠzhongĠ yao
shengĠ huiĠ
quĠ muĠ
ĠdeĠyiĠ jiĠ
zongĠ zhanĠ
Ġ biĠdeĠ
ĠdiĠ renĠ
shouĠ cang
fangĠ zhenĠ
quanĠguoĠ zhongĠdianĠ
tao ĠyuanĠ
reng ĠweiĠ
faĠ jueĠ
ĠerĠ taĠ
ĠziĠ ranĠ
ĠchuĠ ciĠzhiĠwaiĠ
maoĠ dunĠ
ĠzuoĠ biaoĠweiĠ
Ġ11 Ġ
dianĠshiĠjieĠ muĠ
Ġ tiao
ĠĠĠ huoĠ
shen ĠheĠ
sa ĠdeĠ
buĠ zaiĠ
fangĠ chengĠshiĠ
daiĠ laiĠdeĠ
zongĠ juĠ
tingĠ zhanĠ
shaĠ baiĠ
ĠaoĠ menĠ
tianĠwenĠ taiĠ
ĠĠĠ 2008ĠnianĠ
zhuan ĠliĠ
yuanĠ jianĠ
jingĠ beiĠ
liangĠ haoĠ
ĠdeĠyiĠ xiangĠ
hanĠ gaiĠ
eĠ huaĠ
qiangĠ huaĠ
Ġ pang
Ġ 300
Ġ HR
ĠzhongĠ guoĠdeĠ
zhuĠ chiĠrenĠ
ziĠ woĠ
jinĠ huiĠ
ruĠ qiuĠ
banĠ benĠdeĠ
ĠgongĠ chanĠ
mengĠ junĠ
ĠshengĠ huoĠ
ĠshangĠ shuĠ
ĠzhuĠyao ĠshiĠ
Ġ qu
ĠĠĠ wanĠ
lu ĠerĠ
dang ĠbuĠ
fan ĠshiĠ
nv ĠrenĠ
zang ĠyuĠ
fangĠ xianĠ
jiangĠ xueĠ
ĠxianĠshiĠ youĠ
Ġ faĠbuĠ
tong ĠqiĠ
ĠjiĠ keĠ
jieĠ lunĠ
jingĠ touĠ
huaĠ guiĠ
liangĠ anĠ
shaĠ tianĠ
ĠshiĠshiĠ shiĠ
ĠdeĠguoĠ chengĠ
ciĠshiĠjieĠdaĠ zhanĠqiĠjianĠ
Ġ chaoĠguoĠ
ying ĠzhiĠ
jianĠ ceĠ
riĠ changĠ
xiaĠ xiaĠ
ĠkeĠ fuĠ
yangĠ ziĠ
ĠzheĠ zuoĠ
ĠĠĠ jingĠliĠ
ting ĠdaoĠ
xiangĠ dongĠ
yeĠ zhanĠ
gengĠ duo
kaoĠ chaĠ
ĠE Ġ
luoĠma ĠdiĠguoĠ
feiĠlvĠ binĠ
diao ĠyuĠ
ĠbuĠ zhangĠ
keĠyiĠ tongĠguoĠ
ceĠ lveĠ
taoĠ wanĠ
Ġ nei
Ġ SAO
ĠĠĠ guoĠjiĠ
zhe ĠyouĠ
kai ĠerĠ
faĠ daĠ
chanĠ wuĠ
shu ĠdiĠ
ĠsiĠ xiangĠ
duoĠ quĠ
liuĠ dongĠ
cunĠ zaiĠyuĠ
tuoĠ luoĠ
minĠzuĠ zhuĠyiĠ
baoĠfaĠ houĠ
5 ĠrenĠ
Ġ yingĠdeĠ
Ġ boĠshiĠ
ĠĠĠ hongĠ
ĠguoĠ junĠ
wuĠ erĠ
wuĠ pinĠ
ciĠ ciĠ
huoĠ cheĠzhanĠ
ĠjiaĠ erĠ
ĠfuĠ zhuĠ
meiĠ dongĠ
shanĠ dingĠ
caiĠ fangĠ
zhuanĠ bianĠ
meiĠguoĠrenĠkouĠpuĠ chaĠ
ĠdiĠqiĠ yaĠ
Ġ nuo
Ġ 23
Ġ 1994ĠnianĠ
ĠĠĠ re
zi ĠyouĠxiĠ
ta ĠyouĠ
qiu ĠyiĠ
ĠqiĠ yueĠ
yinĠ daoĠ
Ġ 22
ĠĠĠ huaĠ
wen ĠdiĠ
qing ĠliĠ
qiu ĠheĠ
fan ĠerĠ
ze ĠbeiĠ
ĠshiĠ eĠluoĠsiĠ
moĠ fangĠ
ĠtaiĠ beiĠ
ya ĠzaiĠ
duo ĠsiĠ
chi ĠdaoĠ
ĠguoĠ duĠ
zongĠ guanĠ
pianĠ duanĠ
ĠĠĠ fenĠleiĠ
gai ĠyouĠ
na ĠgeĠ
bang ĠdiĠ
tao ĠliĠ
niu ĠyueĠshiĠ
31 Ġ
ll Ġ
guoĠ chengĠzhongĠ
fuĠ qiĠ
jianĠ danĠ
shengĠ huoĠdeĠ
ĠjinĠ erĠ
zhaoĠ guĠ
Ġa ĠerĠbeiĠ
Ġ nongĠ
ĠĠĠ lingĠ
zhi ĠdeĠyiĠ
qu ĠdeĠyiĠgeĠ
guan ĠliĠdeĠ
gu ĠerĠ
nan ĠxiĠ
pu ĠsiĠ
fenĠ pei
ĠfuĠ langĠ
ĠzhuĠ zhangĠ
1Ġ riĠqiĠ
aiĠ haoĠ
ĠdeĠdiĠ sanĠ
xianĠdeĠ feiĠjianĠzhiĠdiĠquĠ
Ġgai ĠshiĠ
erĠdeĠ mingĠ
Ġ nu
neng ĠdeĠ
pu ĠjiĠ
geng ĠshiĠ
ĠyuĠ leiĠ
huiĠ sheĠ
mingĠ chengĠweiĠ
jiaoĠ xingĠ
jueĠ seĠdeĠ
ĠshiĠjiĠ zhongĠ
dianĠshiĠ dongĠhuaĠ
tongĠzhiĠ zheĠ
0 ĠzuoĠbiaoĠweiĠ
yu ĠyiĠgeĠ
ĠĠĠ yaĠ
ĠĠĠ zhenĠ
mo ĠliĠ
ĠqiĠ B1900
ĠweiĠyuĠ yinĠjingĠ
poĠ lunĠ
0ĠzuoĠbiaoĠweiĠ chiĠjingĠ
Ġ zou
Ġ JĠ
ĠĠĠ e
hua ĠerĠ
nan ĠzhiĠ
gan ĠshiĠ
ĠzhongĠ wen
houĠ daiĠ
yingĠ pian
nanĠ buĠdeĠ
ĠjinĠ biaoĠ
ĠyinĠci ĠzaiĠ
ĠweiĠwuĠ erĠ
le ĠheĠ
dui ĠdaĠ
luo ĠerĠ
bai ĠnianĠ
tang ĠheĠ
yuanĠ shengĠ
ĠqiĠ renĠ
dongĠ yaĠ
aoĠ daĠliĠ
ĠdeĠjiĠ benĠ
ĠqingĠ chaoĠzhengĠzhiĠrenĠwuĠ
Ġ12 Ġ
ĠĠĠ 11ĠyueĠ
te ĠzhiĠ
shui ĠzhongĠ
shao ĠweiĠ
buĠ duanĠ
yuanĠ xiaoĠ
huaĠ fenĠ
taoĠ lun
ĠliĠshiĠ huiĠ
zhanĠdou ĠjiĠ
Ġ 1992ĠnianĠ
Ġ HĠ
sen ĠdeĠ
chengĠ xiangĠ
zhuĠ zhaiĠ
zheĠ xiangĠ
ĠxingĠ zheng
ĠxianĠ faĠ
suoĠ weiĠdeĠ
saiĠ naĠ
ĠguoĠminĠ zhengĠfuĠ
ĠĠĠcheĠzhanĠ gouĠzaoĠ
Ġ 1945
Ġ duĠliĠ
ĠĠĠ 2022ĠnianĠ
tai ĠzaiĠ
wen ĠzhiĠ
liang ĠyiĠ
jingĠ lingĠ
miĠ qieĠ
henĠ daĠdeĠ
ĠĠĠ taĠdeĠ
ta ĠliĠ
bai ĠheĠ
ĠnianĠ qingĠdeĠ
heĠ lanĠ
fuĠ xianĠ
ĠxiĠ zhouĠ
juĠ dianĠ
xuanĠ yanĠ
ĠdongĠ huaĠ
biaoĠxianĠ chuĠ
fenĠbuĠ zaiĠ
xinĠtaiĠ biĠ
Ġ qiang
du ĠzaiĠ
sang ĠshiĠ
ĠbuĠ bingĠ
xueĠ xiaoĠdeĠ
zhanĠ lveĠ
leiĠ siĠyuĠ
xunĠ zhao
kongĠ zhiĠdeĠ
Ġ Q
ĠĠĠ biĠ
da ĠrenĠ
dong ĠheĠ
lu ĠzhongĠ
te ĠrenĠ
yun ĠzaiĠ
ĠweiĠ zaiĠ
zhongĠ gongĠ
yuanĠ zhengĠ
zhuĠ fangĠ
xianĠ zaiĠdeĠ
xinĠ quĠ
zongĠ shuĠjiĠ
ĠqiĠzhongĠ youĠ
shunĠshiĠ zhenĠyuĠ
Ġ kao
chuan ĠdaoĠ
bai ĠshiĠ
ĠshiĠ xiangĠgangĠ
ĠjiĠ xieĠ
dongĠ quĠ
huaĠ beiĠ
wanĠchengĠ leĠ
ĠweiĠyuĠgaiĠ shengĠ
Ġ changĠqiĠ
Ġ taiĠguoĠ
ĠĠĠ De
ĠĠĠ kaiĠ
zhan ĠyiĠzhongĠ
mu ĠliĠ
xun ĠxiĠ
suan ĠjianĠ
ĠshiĠ fenĠ
chuĠ saiĠ
ĠxiĠ geĠ
lianĠ saiĠdeĠ
ya ĠjiĠ
luo ĠheĠ
lan ĠheĠ
duan ĠweiĠ
wuĠ daĠ
faĠ she
ĠxianĠ shengĠ
ĠxiangĠ siĠ
hongĠ zhaĠ
ĠtongĠshiĠ yeĠshiĠ
ĠxingĠzhengĠ quĠ
geĠlunĠ biĠyaĠ
zhenĠjiĠ xingĠzhengĠdanĠweiĠ
Ġ minĠzhuĠ
Ġ guangĠxiĠ
ĠĠĠ sanĠ
fa ĠweiĠyuanĠ
wa ĠdeĠ
qia Ġ
daĠ geĠmingĠ
fuĠ zeĠrenĠ
wuĠ tiĠ
jiaoĠ tuĠ
paiĠ she
rongĠ liangĠ
ĠzongĠ tongĠ
ĠweiĠjiĠ chuĠ
ĠT Ġ
zhuiĠsu ĠdaoĠ
Ġ 1990
cong ĠzhongĠ
ĠqiĠ xi
ĠgongĠ zhuĠ
ĠziĠ ran
Ġ luoĠsiĠ
ĠĠĠ 5
fa ĠrenĠ
1909 ĠnianĠ
zhanĠ kai
changĠ changĠ
ĠzhanĠ houĠ
Ġ 40
zuo ĠdaĠ
wen ĠbuĠ
zhuan ĠkeĠ
xiu ĠsiĠ
ĠyiĠ you
ĠzaiĠ xinĠ
siĠ houĠ
jiaĠ shangĠ
zuoĠ weiĠyiĠ
jiangĠ nanĠ
kaiĠ chuĠ
ĠpingĠ chengĠ
Ġfen ĠbuĠzaiĠ
2 ĠliĠ
Ġ weiĠshiĠ
Ġ douĠshiĠ
Ġ aoĠsiĠ
Ġ 1993ĠnianĠ
ĠĠĠ Me
fei ĠdiĠ
zhuan ĠchengĠ
sha ĠrenĠ
gen ĠdiĠ
1970 ĠnianĠdaiĠ
leĠ biĠ
xueĠ tongĠ
yingĠ xiangĠdeĠ
fengĠ suoĠ
chuanĠ shuĠ
lvĠ huaĠ
5Ġ gongĠliĠ
zuĠqiuĠ lianĠsaiĠ
ĠcongĠ ciĠ
xiaĠxiaĠdeĠyiĠgeĠxiangĠ zhenĠjiĠxingĠzhengĠdanĠweiĠ
Ġ Re
ba ĠjiĠsiĠ
ĠyiĠ dingĠ
beiĠ renĠweiĠ
luĠ jingĠ
dianĠ xinĠ
ĠfuĠ jinĠdeĠ
laiĠ kanĠ
ĠxingĠ quĠ
benĠ zhanĠ
tiaoĠ kuanĠ
ĠĠĠ V
zhan ĠliĠ
buĠ huiĠ
zheĠ ciĠ
shenĠ panĠ
hunĠ ningĠ
ĠguanĠ zhuangĠbingĠduĠ
ĠĠĠ linĠ
ming ĠqiĠ
tu ĠshiĠ
ting ĠzhongĠ
rong ĠjiĠ
pao ĠdaoĠ
ĠjiĠ yinĠ
shouĠ sunĠ
wenĠ shuĠ
nanĠjiĠ tiaoĠyueĠ
Ġ cang
ĠĠĠ fengĠ
da ĠĠĠ
lian ĠshiĠ
mian ĠweiĠ
Ġyou ĠyiĠzhiĠ
shangĠ biaoĠ
yinĠ yingĠ
ĠxiangĠ dangĠyuĠ
gangĠ qinĠ
aoĠ men
ĠnanĠ beiĠ
Ġ ãĥ³
Ġ 1995ĠnianĠ
ĠĠĠ xiangĠgang
ĠĠĠ 2009ĠnianĠ
weng Ġ
EST Ġ
buĠ tong
ciĠ dianĠ
tiĠ anĠ
laiĠ zi
ĠjuĠ jueĠ
jiaĠruĠ leĠ
ĠĠĠ haiĠ
min ĠshiĠ
hao ĠzaiĠ
ĠdeĠ heĠ
shengĠ qiĠ
fangĠ kongĠ
yaĠ geĠ
ĠboĠ lanĠ
dongĠjingĠ duĠ
Ġ 1996ĠnianĠ
ao ĠkeĠ
ĠĠĠ H
ĠĠĠ fenĠ
ĠĠĠ sheĠjiĠ
di ĠshiĠyiĠ
shou ĠzaiĠ
du ĠyueĠ
ya ĠerĠ
long ĠkeĠ
pen ĠdiĠ
ĠyouĠ beiĠ
xiĠ tongĠdeĠ
fuĠ nvĠ
zhanĠ shengĠ
changĠ anĠ
luĠ yinĠ
ĠgaiĠ shuĠ
tu ĠsiĠ
chuan ĠshiĠ
tou ĠyuĠ
st Ġ
ĠyiĠ seĠlieĠ
ĠliĠ xianĠ
ĠrenĠ zhengĠ
shangĠ keĠ
xueĠ yuan
guanĠ zhengĠ
tianĠ xiaĠ
ceĠ lve
miaoĠ shuĠweiĠ
Ġa ĠliĠ
Ġha ĠliĠ
canĠsaiĠ ziĠgeĠ
nanĠjiĠtiaoĠyueĠ tiĠxiĠ
Ġ qiĠyiĠ
Ġ 18Ġ
ji ĠshiĠshiĠ
ĠĠĠ 8
jianĠ cha
jiaĠ suĠ
daoĠ qianĠ
mingĠ chaoĠ
jiaoĠ zhanĠ
jiangĠ paiĠ
ĠziĠ ciĠ
qiangĠ diao
ĠhuiĠ fuĠ
ĠweiĠyuanĠhuiĠ zhuĠxiĠ
ĠĠĠ shuĠ
ge ĠĠĠ
hun ĠliĠ
hun Ġyin
ĠshiĠ nianĠ
zhongĠ yang
buĠ zuĠ
shouĠ huanĠ
shangĠ jieĠ
gengĠ daĠdeĠ
xiuĠdaoĠ yuanĠ
Ġ 1999
jun ĠqiĠ
ban ĠzhiĠ
ping ĠrenĠ
tian ĠxianĠ
tao ĠfaĠ
sa ĠkeĠsiĠ
ĠjiĠ jieĠ
daĠ banĠ
jiaĠ sheĠ
chuĠ jingĠ
fangĠ shouĠ
guanĠ daoĠ
moĠ faĠ
ĠshangĠ yeĠ
ĠfanĠ yingĠ
tongĠxingĠ lianĠ
e ĠyuĠ
Ġ la
ji ĠshiĠjianĠ
ĠĠĠ chenĠ
shui ĠdaoĠ
ĠweiĠ xianĠ
shouĠ geĠquĠ
xiaoĠ huaĠ
ĠzheĠ yangĠdeĠ
seĠ caiĠ
ĠhuoĠ chengĠ
xiaoĠxingĠ xingĠdeĠ
ĠeĠ luoĠ
Ġ gei
Ġ 1996
Ġ jianĠyiĠ
Ġ qiuĠduiĠ
ying ĠyiĠ
erĠ chengĠ
baiĠ houĠ
ĠdianĠ ziĠ
Ġceng ĠyuĠ
tuo ĠkeĠ
ĠyouĠ xiĠdeĠ
faĠ yanĠrenĠ
guanĠ fang
zhouĠ kanĠ
zhenĠ zhuĠ
yunĠ huiĠ
ĠtongĠ yangĠ
ĠĠĠzhiĠ yeĠshengĠyaĠ
shanĠmai ĠdeĠyiĠbuĠfenĠ
quanĠguoĠzhongĠdianĠ wenĠwuĠbaoĠhuĠdanĠweiĠ
nanĠjiĠtiaoĠyueĠtiĠxiĠ guanĠliĠ
ĠĠĠ 6
ĠĠĠ liangĠ
qu ĠxiĠ
quan ĠzhiĠ
liu ĠyiĠ
san ĠxingĠ
se ĠĠĠ
xingĠ dengĠweiĠ
xiangĠ liangĠ
yanĠ zhengĠ
duiĠ kang
tianĠ huang
ĠshiĠyiĠ jiaĠ
puĠ luĠshiĠ
diĠerĠ ciĠ
Ġ zhui
ma ĠyiĠ
ding ĠyiĠweiĠ
qiang ĠdaĠ
ck Ġ
32 Ġ
ĠbuĠ ruĠ
faĠ lanĠkeĠ
qingĠ yuanĠ
sheĠ ruĠ
bianĠ maĠ
ĠziĠ shengĠ
zhengĠzhiĠ buĠ
Ġ1949 ĠnianĠ
Ġ zan
Ġ 1998
nei ĠyiĠ
han ĠjianĠ
shui ĠheĠ
ziĠ chengĠ
ĠdaĠ gongĠ
zuiĠ da
tangĠ quĠ
ĠyeĠ chengĠ
dongĠshiĠ huiĠ
jieĠquanĠguoĠ renĠminĠdaiĠbiaoĠdaĠhuiĠ
O Ġ
pa ĠerĠ
pen Ġ
mingĠ xianĠdeĠ
jingĠ tiĠ
zhanĠ jianĠ
bingĠ beiĠ
dianĠ xingĠdeĠ
luoĠ teĠ
bianĠ huanĠ
zuiĠ duo
fengĠ fuĠdeĠ
keĠyiĠ shengĠ
Ġwo ĠdeĠ
ĠĠĠ Pro
ĠĠĠ xuanĠ
ĠĠĠ kaĠ
zui ĠxingĠ
hao ĠheĠ
mie ĠwangĠ
1925 ĠnianĠ
keĠ leiĠ
ĠxiĠ fangĠ
houĠ xuĠ
shouĠ huĠ
ĠdaĠ jieĠ
nanĠ meiĠzhouĠ
ĠdanĠ reng
shuiĠ liangĠ
ĠjieĠ daoĠ
ĠwuĠ qiĠ
ĠyiĠzhiĠ zaiĠ
guoĠjiĠ zuĠ
waiĠbuĠ lianĠjieĠ
jia ĠliĠyaĠ
jing ĠbuĠ
lv ĠheĠ
pai ĠheĠ
wuĠ hanĠ
yingĠ xiong
biĠ yaoĠ
chongĠ shengĠ
ĠweiĠyuĠ zhongĠhuaĠrenĠminĠgongĠheĠguoĠ
zhaoĠ kai
peiĠ changĠ
yanĠjiu ĠdeĠ
ĠgaiĠcun ĠshiĠjianĠyuĠ
8 ĠgeĠ
ĠĠĠ zaoĠqiĠ
ĠĠĠ 2007ĠnianĠ
bei ĠzhongĠ
ma ĠheĠ
erĠ siĠ
ĠdiĠ mianĠ
pingĠ dengĠ
laiĠ wuĠ
boĠ geĠ
c ĠĠĠ
kua Ġ
guoĠ fangĠ
xiĠ diĠ
huiĠ baoĠ
shuĠ xingĠ
mingĠ niĠ
fenĠ geĠ
shenĠ yeĠ
ĠshiĠdeĠ renĠ
quĠdeĠ leĠ
Ġ zhaĠ
ĠĠĠ baoĠ
mie ĠjueĠ
zhuĠ quanĠ
zhengĠ xieĠ
guanĠ guangĠ
ĠxingĠ xingĠ
zhenĠ rongĠ
dangĠ daiĠ
ĠziĠ jiĠdeĠ
Ġda ĠyueĠ
le ĠyueĠ
cai ĠshiĠ
nv ĠdeĠ
ĠliĠ youĠ
jiaĠ siĠ
xuĠ lieĠ
caoĠ zuo
Ġ nong
Ġ kongĠzhiĠ
en ĠsiĠ
gu ĠsiĠ
xiao ĠzhiĠ
rong ĠhuoĠ
zhuĠ chengĠ
huaĠ ruĠ
guanĠ lianĠ
dianĠ changĠ
nanĠ daoĠ
meiĠ xiaoĠshiĠ
zuiĠ haoĠdeĠ
ĠweiĠyuĠgaiĠguoĠ xiĠbuĠ
faĠbiao ĠdeĠ
Ġ 1994
Ġ juanĠ
bu ĠdeĠyiĠgeĠ
bo ĠjiĠ
mian ĠyouĠ
ĠzaiĠ keĠ
gongĠ ziĠ
houĠ xuanĠ
mingĠ mingĠdeĠ
ĠkeĠ leiĠ
gaiĠ jianĠ
qingĠ ganĠ
hangĠ zhanĠ
maoĠ zeĠdongĠ
daiĠbiaoĠ tuan
juĠminĠ dianĠ
ĠĠĠ hanĠ
er ĠshiĠdeĠ
dong ĠyuĠ
du ĠbuĠ
san ĠzhiĠ
shui ĠshiĠ
xiu ĠshiĠ
ruan ĠtiaoĠ
ĠyiĠ diĠ
ĠliĠ aoĠ
xiĠ fangĠ
mingĠ dan
ĠdaĠ baiĠ
duiĠ biĠ
xiaoĠ lvĠ
shenĠ fen
ĠbingĠ chengĠweiĠ
dangĠ zuoĠ
shanĠ chuĠ
aiĠ naĠshengĠ
Ġ piao
dao ĠĠĠ
ĠyouĠ siĠ
ĠzaiĠ haiĠ
suoĠ xieĠ
ĠbingĠ xiangĠ
kaiĠ banĠ
paiĠ fangĠ
chuanĠ shuo
ĠquĠ daiĠ
maĠlai ĠxiĠya
zuoĠquĠ jiaĠ
Ġ kong
Ġ me
Ġ sĠ
Ġ 1985ĠnianĠ
shu ĠyueĠ
huo ĠerĠ
1923 ĠnianĠ
ĠjiĠ gou
daĠ lou
wuĠ ran
beiĠ luĠ
feiĠ teĠ
naĠ yangĠ
ĠĠĠzheĠ keĠ
Ġ sheng
Ġ 1992
ni ĠfuĠ
mou ĠzhongĠ
al Ġ
1922 ĠnianĠ
jiaoĠ dianĠ
bingĠ wuĠ
Ġdan ĠshiĠzaiĠ
ĠfuĠ zhuĠxiĠ
ĠyiĠjiĠ zhongĠguoĠdaĠluĠdeĠ
ĠÐ° Ġ
ĠĠĠ dengĠ
ming ĠzaiĠ
ni ĠyuĠ
chong ĠdeĠ
ĠzhongĠ zuĠ
ĠtaĠ duiĠ
ĠtaĠ shuoĠ
ĠgongĠ si
liuĠ qiuĠ
ganĠ qingĠ
ĠzuiĠ houĠyiĠ
zuĠcheng ĠbuĠfenĠ
dai ĠerĠ
ĠyouĠ yongĠ
siĠ tan
geĠ diĠdeĠ
tongĠ xiangĠ
maĠ zuĠ
ĠdeĠdiĠ diĠ
genĠ benĠ
Ġ hen
ĠĠĠ jiaoĠyuĠ
zhong ĠshiĠyongĠ
xiao ĠweiĠ
wang ĠzaiĠ
zong ĠsiĠlingĠ
24 ĠxiaoĠshiĠ
th ĠĠĠ
xiĠ zangĠ
ĠdiĠ 1Ġ
yeĠ chengĠweiĠ
xuanĠ gaoĠ
ĠdanĠ beiĠ
Ġ pinĠdaoĠ
Ġ UĠ
ti ĠqiĠ
zhao ĠjiĠ
xingĠ zhuangĠ
keĠ yiĠshiĠ
shengĠ dianĠ
faĠ xueĠ
shuĠ geĠ
tongĠ yongĠ
ĠgeĠ lunĠ
dangĠ di
zhengĠzhiĠ jiaĠ
ĠĠĠ 0
ĠweiĠ taĠ
ĠxiĠ shouĠ
guanĠ ce
duĠ shuĠ
haiĠ baĠgaoĠduĠ
qiuĠ miĠ
guĠ zhangĠ
fuĠzhiĠ fuĠ
ĠheiĠ longĠjiangĠ
l ĠĠĠ
Ġ jian
Ġ lieĠcheĠ
zai ĠdeĠguoĠ
mu ĠzhongĠ
geng ĠgaiĠ
1911 ĠnianĠ
fuĠ zhuĠxiĠ
chuĠ jueĠ
ĠxiĠ faĠ
jiaoĠ xiaoĠ
jiaoĠ daĠdeĠ
gaoĠ shanĠ
lunĠ tanĠ
kaiĠshiĠ yuĠ
diĠshiĠ niĠ
Ġba ĠyueĠ
xinĠguanĠfeiĠyanĠ queĠzhenĠbingĠliĠ
a ĠsiĠ
ĠĠĠ changĠ
ĠĠĠ waiĠbuĠlianĠjieĠ
xiang ĠliĠ
le ĠzhongĠguoĠ
xiu ĠxianĠ
nuo ĠdeĠ
diĠ anĠ
keĠ jianĠ
jinĠ shengĠ
yingĠ wuĠ
qianĠ daoĠ
Ġxian ĠyiĠ
ĠjiĠzhongĠ xueĠ
chuĠliĠ qiĠ
Ġ Ð¾
en ĠdeĠ
ĠĠĠ leiĠ
qu ĠyiĠyuanĠ
zhang ĠzhongĠ
liang ĠqiĠ
ĠheĠ huaĠ
jiangĠ zheĠ
laĠ maĠ
ĠsuoĠ xieĠ
ĠyaĠ zhouĠ
ĠdeĠweiĠ zhiĠ
luĠyingĠ daiĠ
Ġ mingĠweiĠ
ĠĠĠ zhengĠyiĠ
shang ĠzaiĠ
shuai ĠjiaoĠ
yanĠ jiuĠshiĠ
zhanĠ chuĠ
guanĠ kanĠ
Ġxian ĠzhiĠ
ĠsuĠ chengĠ
ĠxianĠshiĠyouĠ nanĠjiĠtiaoĠyueĠtiĠxiĠguanĠliĠ
7 ĠgeĠ
Ġ jue
Ġ LĠ
ĠĠĠ gu
ba ĠyiĠ
san ĠqiĠ
zong ĠjiĠ
cun ĠchuĠ
xingĠ nengĠ
jinĠ huaĠ
juĠ liuĠ
shouĠ cangĠ
gouĠ tongĠ
ganĠ lanĠqiuĠ
ĠbanĠ benĠ
ĠmengĠ guĠ
Ġ à¸
shan ĠheĠ
shui ĠweiĠ
deĠ guoĠ
ĠxiangĠ zhengĠ
cunĠ minĠ
chenĠ moĠ
Ġsui ĠjiĠ
Ġ ban
ge ĠyueĠdeĠ
guan ĠdiĠ
ĠdeĠ qiĠ
luĠ yinĠshiĠ
wenĠ dingĠdeĠ
ĠdeĠshiĠ qingĠ
ĠmingĠ mingĠ
Ġzhe ĠshiĠdeĠ
ĠdaiĠ maĠweiĠ
W Ġ
Ġ jun
Ġ 600
fei ĠqiĠ
ĠzaiĠ qianĠ
yanĠ xianĠ
haiĠ yang
ruĠ xueĠ
wanĠ jianĠ
zhenĠ wangĠ
dingĠ dianĠ
ĠdanĠ zuiĠzhongĠ
ĠshiĠyiĠ keĠweiĠ
ĠpingĠ lunĠ
ĠhaiĠ baĠ
meiĠdongĠ buĠshiĠquĠ
Ġ i
ĠĠĠ miĠ
ĠĠĠ fenĠbuĠ
cha ĠjiĠ
man ĠyiĠ
xingĠ bieĠ
siĠ zhangĠ
changĠ daoĠ
shenĠ miĠ
meiĠ guoĠzhiĠ
yunĠ xu
ĠshiĠjiĠ chuĠ
Ġ 1997
ĠĠĠ moĠ
ni ĠjiĠ
lin ĠzhongĠ
ĠyouĠ daĠ
geĠ laĠsiĠ
chengĠ danĠ
daiĠ daoĠ
suoĠ jianĠ
neiĠ yaĠ
ĠyiĠzhiĠ daoĠ
kuaiĠ su
Ġ19 Ġ
6 ĠrenĠ
yuan ĠrenĠ
bi ĠjiĠ
zhan ĠqiĠ
shui ĠliĠ
1926 ĠnianĠ
gongĠ zhanĠ
fuĠ chuĠ
xianĠ mingĠ
xinĠ tuĠ
ĠsiĠ maĠ
gaiĠ bian
ĠxianĠ changĠ
shanĠ huĠ
dingĠ leĠ
ĠdeĠshiĠ yiĠ
jiaoĠyiĠ suoĠ
raoĠtaiĠ yangĠgongĠ
Ġ s
guan ĠnianĠ
su ĠzhiĠ
ĠshiĠ xiaĠxiaĠdeĠyiĠgeĠxiangĠzhenĠjiĠxingĠzhengĠdanĠweiĠ
gongĠ sheĠ
xiangĠ nanĠ
boĠ duoĠ
ĠshouĠ fuĠ
ĠmuĠ qinĠ
Ġ ISTAT
an ĠheĠ
bi ĠheĠ
jing ĠdiĠ
nan ĠyueĠ
ba ĠkeĠ
ly ĠĠĠ
ĠyuĠ youĠ
jieĠ xiĠ
suoĠ zaiĠdeĠ
Ġ lun
Ġ ESTĠ
lai ĠzhiĠ
1970 ĠnianĠ
1919 ĠnianĠ
ruĠ leĠ
liangĠ zuoĠ
xieĠ tiaoĠ
ĠdeĠshiĠ liĠ
ĠyuanĠ ziĠ
Ġ EDT
Ġ 1990ĠnianĠ
ĠĠĠ 2006ĠnianĠ
xian ĠbuĠ
zhan ĠbuĠ
wen ĠweiĠ
tian ĠdiĠ
geng ĠdaĠ
gongĠ wuĠ
ĠguoĠ houĠ
beiĠ shangĠ
quĠ daoĠ
dongĠ ceĠ
xiaĠ leĠ
lianĠ junĠ
danĠ duĠ
ĠduiĠ ciĠ
ĠweiĠyuĠfaĠguoĠ ao
6 ĠnianĠ
Ġ ì
pian ĠweiĠ
yuanĠ yinĠshiĠ
gongĠ dianĠ
fuĠ luĠ
jiaoĠ gei
lingĠ ganĠ
zongĠ lingĠshiĠ
baĠ maĠ
ĠshiĠjieĠ shangĠ
caiĠyongĠ leĠ
guangĠbo ĠgongĠsiĠ
jueĠduiĠ xingĠdengĠweiĠ
jueĠsai ĠyiĠ
Ġ zeĠshiĠ
Ġ 1988ĠnianĠ
cheng ĠbuĠ
hu ĠzhiĠ
ni ĠdiĠ
ben ĠshiĠ
30 ĠfenĠ
ĠyouĠ leĠ
ĠfuĠ zhouĠ
tianĠ xinĠ
ĠjuĠ banĠ
Ġer ĠjiĠ
ĠxieĠ zhuĠ
Ġ5Ġ diaoĠkuaiĠyiĠxiaoĠshiĠ
biĠliĠ niuĠsiĠ
Ġ16 Ġ
ĠjiĠbeiĠ meiĠdongĠbuĠshiĠquĠ
ĠshiĠyiĠkeĠweiĠ raoĠtaiĠyangĠgongĠ
ĠEDT Ġ
ĠshiĠyiĠkeĠweiĠraoĠtaiĠyangĠgongĠ zhuanĠdeĠxiaoĠxingĠxingĠ
Ġ rou
Ġ 1984ĠnianĠ
ĠĠĠ banĠ
di ĠliĠyaĠ
guan ĠzaiĠ
zuo ĠzaiĠ
guang ĠyiĠ
gui ĠgeĠ
huan ĠbaoĠ
ĠyouĠ wuĠ
ĠzhongĠ renĠ
ĠyueĠ seĠfuĠ
jianĠ danĠdeĠ
shengĠ cunĠ
xianĠ daoĠ
ziĠ shengĠ
jinĠ junĠ
yeĠ suĠ
taiĠ bei
laĠ duoĠ
Ġta ĠweiĠ
aĠ miĠ
xiaoĠxingĠxingĠdeĠ jueĠduiĠxingĠdengĠweiĠ
Ġ boĠliĠ
Ġ qiaoĠzhiĠ
li ĠxiĠ
zhou ĠyuĠ
duo ĠdaĠ
na ĠshiĠ
taiĠ yang
xuanĠ minĠ
ĠyiĠzhiĠ yuĠ
ĠG Ġ
wang ĠheĠ
hao ĠjiĠ
cai ĠjiĠ
pu ĠerĠ
ĠnianĠ sheĠliĠ
ĠdaĠ poĠ
miĠ suĠliĠ
ĠdeĠyiĠ jiaĠ
ĠjuĠ leĠbuĠ
ĠbaoĠ liuĠ
yiĠshiĠ qiĠ
saĠ laĠ
erĠshiĠ nianĠ
nanĠsiĠ laĠfuĠ
ĠĠĠzheĠkeĠ xiaoĠxingĠxingĠdeĠjueĠduiĠxingĠdengĠweiĠ
Ġ 800
Ġ 2024ĠnianĠ
ĠĠĠ ta
ze ĠerĠ
shao ĠshiĠ
zhai ĠwuĠ
beiĠ meiĠ
tiaoĠ muĠ
xingĠzhengĠ yuanĠ
ĠjiĠzhongĠ zaiĠ
yinĠdiĠ anĠnaĠ
ĠSAO ĠĠĠ
Ġ 1989ĠnianĠ
ĠĠĠ N
qie ĠdeĠ
ĠyiĠ minĠ
ĠzhiĠ houĠzaiĠ
beiĠ buĠdeĠ
juĠ luoĠ
xinĠ fengĠ
shenĠ sheĠ
jiaĠru ĠzhongĠguoĠgongĠchanĠdangĠ
Ġ wai
xian ĠdeĠdiĠ
sen ĠbaoĠ
ĠshiĠ biĠ
ĠyiĠ jiĠyiĠ
jianĠ huaĠ
zhengĠ faĠ
wanĠ quĠ
diĠyiĠ jieĠ
douĠ keĠyiĠ
ĠyingĠ cunĠ
Ġ 1991ĠnianĠ
ĠĠĠ 7
yin ĠzaiĠ
bian ĠfuĠ
ciĠ tianĠtiĠ
guanĠ shangĠ
gangĠ tie
Ġ geĠrenĠ
ĠĠĠ shuiĠ
zao ĠyiĠ
1914 ĠnianĠ
houĠ laiĠdeĠ
yanĠ zouĠ
duĠ xingĠ
ĠshiĠyiĠ yuanĠ
meiĠguoĠ zongĠtongĠ
shouĠshiĠ lvĠ
ĠN Ġ
ĠheĠdaoĠ quanĠzhangĠ
Ġ cangĠ
shou ĠqiĠ
ma ĠjiĠ
pian ĠrenĠ
ĠdiĠ daiĠ
shangĠ yingĠdeĠ
huaĠ xianĠ
ĠdaĠ xiaoĠ
duĠ zheĠ
yongĠ yuanĠ
ĠkeĠ yunĠ
zaoĠ chuanĠ
kongĠ jun
meiĠyouĠ renĠheĠ
ĠnanĠ jingĠ
tuiĠchuĠ leĠ
ĠheĠnanĠ shengĠ
ĠshiĠrenĠminĠ zhengĠfuĠ
Ġ pai
Ġ bie
ĠĠĠ huiĠ
qi ĠshiĠshiĠ
xiao ĠheĠ
ma ĠdiĠ
ba ĠgongĠ
san ĠjianĠ
mo ĠnianĠ
ĠzhongĠ shuĠ
wuĠ ranĠ
quĠ fuĠzeĠguanĠxiaĠ
ĠchuĠ shengĠ
ĠshouĠ xianĠ
Ġjie ĠshiĠ
CD Ġ
ĠzhiĠ zhanĠ
ĠliĠ jieĠ
beiĠ faĠ
ĠqiĠ che
ĠdiĠ baĠ
yinĠ jieĠ
xinĠ chengĠ
minĠ dangĠ
ĠjiangĠ shuĠ
junĠshiĠ tanĠdingĠ
ĠĠĠgaiĠ shuĠ
duo ĠyuĠ
chan ĠyuĠ
chuang ĠshiĠ
shangĠ banĠ
yeĠ xianĠ
tianĠ jinĠshiĠ
lanĠ kaĠ
ĠyiĠweiĠ zheĠ
wenĠhua ĠyiĠchanĠ
siĠchuanĠ shengĠ
anĠhuiĠ shengĠ
baĠfa ĠliĠyaĠ
Ġ zuĠchengĠ
ze ĠerĠshengĠ
lie ĠjianĠ
cha ĠheĠ
chen ĠkeĠ
mingĠ jiaoĠ
qianĠ fangĠ
ĠkeĠ daĠ
zhenĠ zhengĠdeĠ
lingĠ xiu
ĠdeĠyiĠ yiĠ
zongĠ eĠweiĠ
ouĠ mengĠ
zuoĠpin ĠzhongĠ
eĠluoĠ si
ĠĠĠ huangĠ
ĠĠĠ yinĠyueĠ
xiao ĠjiĠ
ling ĠxingĠ
feng ĠzhiĠ
gou ĠjianĠ
2019 ĠguanĠzhuangĠbingĠduĠ
xiĠ yuanĠ
fuĠ zhuangĠ
fuĠ shuĠjiĠ
zuĠ qunĠ
fanĠ mang
gengĠ gaoĠ
ĠguiĠ zhouĠ
ĠzhiĠhuiĠ guanĠ
Ġãĥ³ Ġ
li ĠjieĠ
you ĠrenĠ
mi ĠliĠ
ci ĠrenĠ
xuan ĠjiĠ
1918 ĠnianĠ
1913 ĠnianĠ
jianĠ zhengĠ
ziĠ nvĠ
dianĠ zhanĠ
nvĠ shenĠ
yanĠjiuĠ suo
lianĠxuĠ juĠ
Ġ La
Ġ kuoĠ
qian ĠjiĠ
th Ġ
gun Ġ
ĠshiĠ fou
qiĠ renĠ
ĠzaiĠ yingĠguoĠ
xiĠ jieĠ
xiĠ jinĠ
yingĠ chaoĠ
xinĠ zang
tiĠ xianĠ
teĠ dingĠdeĠ
paiĠ qiuĠ
aoĠ di
yongĠyuĠ zhiĠ
Ġfan ĠerĠ
Ġhou ĠyouĠ
bi ĠqiĠ
xie ĠheĠ
mo ĠheĠ
ĠzaiĠ geĠ
ĠzaiĠ xiangĠ
ĠdaĠ shaĠ
fenĠ huiĠ
bingĠ qieĠ
daiĠ shuĠ
huĠ nanĠshengĠ
keĠliĠ miĠyaĠ
zhuanĠyiĠ daoĠ
ĠshiĠshiĠjieĠ shangĠ
Ġtun ĠqiĠ
ĠÐ¾ Ġ
Ġ ë
Ġ 1993
Ġ diĠyuĠ
ĠĠĠ guanĠyuĠ
hu ĠheĠ
bao ĠyouĠ
ni ĠheĠ
guoĠ jia
daĠ xuanĠ
beiĠ haiĠdaoĠ
xiaoĠ daoĠ
bingĠ buĠshiĠ
daiĠ zhuĠ
ĠjieĠ hunĠ
danĠ xinĠ
faĠbuĠ leĠ
ĠĠĠzhongĠ huaĠrenĠminĠgongĠheĠguoĠ
quĠyiĠhuiĠ xuanĠjuĠ
1 ĠjiaĠ
Ġ ruiĠ
ĠĠĠ zheĠgeĠ
hui ĠliĠshiĠ
la ĠĠĠ
00 ĠpingĠfangĠqianĠmiĠ
tuo ĠsiĠ
1950 ĠnianĠ
ĠzhiĠ heĠ
ĠliĠ wuĠ
shangĠ ye
wangĠ yeĠ
liangĠ duĠ
zhenĠ junĠ
suoĠ zhangĠ
zhuangĠ yuanĠ
ĠĠĠsuiĠ ran
yuanĠwaiĠ langĠ
Ġ shang
Ġ bin
cheng Ġli
bi ĠsiĠ
liu ĠyueĠ
ĠshiĠ yingĠ
ĠweiĠ boĠ
jingĠ feiĠ
zhanĠ ting
zuĠ qiu
Ġtong ĠnianĠ12ĠyueĠ
diĠshiĠ sanĠ
baoĠkuo ĠyiĠxiaĠ
ĠwuĠkeĠ lan
ni ĠxiĠ
mian ĠzhiĠ
ding ĠheĠ
xiĠ erĠ
qianĠ mingĠ
zhenĠ yingĠ
zuiĠ jinĠdeĠ
youĠ guanĠ
diaoĠ suĠ
ĠjingĠ changĠ
henĠ shaoĠ
gongĠzuo ĠrenĠyuanĠ
fan ĠdiĠ
zhuan ĠrenĠ
diao ĠxiangĠ
kuang ĠwuĠ
xiĠ shouĠ
ĠgeĠ siĠ
ĠzheĠ changĠ
ĠbaoĠ luoĠ
douĠ meiĠyouĠ
ĠmingĠ chengĠ
luoĠmaĠ niĠyaĠ
7 ĠnianĠ
Ġ qiong
Ġ yaĠliĠ
qing ĠyuĠ
1901 ĠnianĠ
ĠyiĠ daoĠ
qiĠ yuanĠ
ĠyouĠ zhengĠ
wuĠ gongĠ
fangĠ songĠ
muĠ biaoĠshiĠ
liangĠ zheĠ
teĠ shuĠdeĠ
ĠbingĠ huoĠdeĠ
chiĠ cunĠ
tuiĠ xiu
ĠzuiĠ zhongĠyiĠ
ĠĠĠshiĠ yiĠ
Ġ xĠ
end Ġ
ĠliĠ zaiĠ
Ġyou ĠzhiĠwuĠ
jingĠ baoĠ
ĠkeĠ jianĠ
ĠtaĠ chengĠweiĠ
yunĠ nanĠshengĠ
ĠdanĠ yuanĠ
piĠ panĠ
ĠnianĠ4ĠyueĠ 1ĠriĠ
Ġsan ĠyueĠ
Ġ zhuĠyouĠ
zheng ĠshiĠdeĠ
su ĠerĠ
zhanĠ fangĠ
laiĠ wangĠ
xunĠ luoĠ
Ġer ĠyuĠ
meiĠzhongĠ buĠshiĠquĠ
Ġ CST
gong ĠzaiĠ
fang ĠyouĠ
10 ĠnianĠ
xiangĠ yaoĠ
ĠqiĠ buĠ
zhengĠ guiĠ
fangĠ kong
xinĠ yang
zhenĠ xianĠ
luoĠ boĠ
bianĠ xieĠ
chuanĠ tong
chuanĠ yuanĠ
ĠgaiĠ cunĠ
Ġ 1991
Ġ CDT
ĠĠĠ yingĠxiangĠ
lai ĠyiĠ
sou ĠsuoĠ
ĠrenĠ tongĠ
jiuĠ baĠ
tingĠ cheĠchangĠ
lieĠ dianĠ
ĠyeĠ chengĠweiĠ
ĠdangĠ xuanĠ
Ġ6Ġ diaoĠkuaiĠyiĠxiaoĠshiĠ
ĠjiĠbeiĠ meiĠzhongĠbuĠshiĠquĠ
ĠCST Ġ
ĠCDT Ġ
ĠĠĠ 2005ĠnianĠ
liang ĠdiĠ
ping ĠjiĠ
man ĠdiĠguoĠ
ĠweiĠ mingĠ
shouĠ changĠ
gaiĠ zao
wangĠ laiĠ
muĠ fuĠ
sheĠ qun
paiĠ sheĠdeĠ
zhuanĠ yuanĠ
ĠI Ġ
saiĠerĠweiĠ yaĠ
3 ĠmingĠ
Ġ Co
zhen ĠsiĠ
ceng ĠdanĠrenĠ
zhao ĠheĠ
sang ĠshengĠ
Ġnian ĠshiĠjieĠbeiĠ
chuĠ siĠ
jiuĠ jingĠ
feiĠ zhou
caiĠ huiĠ
ĠjiĠtuanĠ junĠ
ch Ġ
ĠĠĠ saiĠ
1921 ĠnianĠ
ĠyiĠ luĠ
ĠjinĠ ciĠyuĠ
shuiĠ shouĠ
nuoĠ manĠdiĠ
ĠxuĠ duo
aoĠlinĠpiĠkeĠ yunĠdongĠ
aoĠsiĠ kaĠ
yanĠhaiĠ shengĠfenĠ
Ġ liao
er ĠliĠ
ken ĠtaĠjiĠ
fou ĠjueĠ
ĠbuĠ manĠ
chuĠ kou
xiaĠ tianĠ
zhenĠ xiangĠ
shuiĠ shangĠ
ĠshiĠweiĠ zheĠ
tuoĠ maĠsiĠ
ĠĠĠbenĠ shuĠ
o ĠĠĠ
Ġ chai
Ġ xinĠdeĠ
Ġ renĠzhiĠ
chu ĠheĠ
chi ĠzhiĠ
mai ĠjiaĠ
dun ĠheĠ
pao ĠdeĠ
xuanĠ zhuanĠ
ĠdeĠyiĠ mingĠ
waiĠ shuĠruĠ
Ġhuo ĠdeĠyiĠmeiĠ
ĠcheĠ xiaoĠ
jieĠquanĠguoĠ zhengĠxieĠweiĠyuanĠ
banĠjiangĠ dianĠliĠ
7 ĠrenĠ
bu ĠzhiĠdaoĠ
men ĠzaiĠ
tu ĠyuĠ
wenĠ quanĠ
lanĠ zhouĠ
ĠzhanĠ dou
Ġma ĠkeĠ
fenĠbie ĠshiĠ
Ġ ãģ
ĠĠĠ gaiĠdiĠ
hu ĠliĠ
jian Ġli
bing ĠheĠ
kan ĠjianĠ
zhui ĠjiĠ
ĠjiĠ suanĠ
faĠ yanĠ
luĠ saĠ
fenĠ fenĠ
liuĠ chengĠ
liĠ yaĠ
ĠshengĠ yaĠ
Ġ zengĠjiaĠ
ĠĠĠ 2000
ĠĠĠ 12ĠyueĠ
dang ĠrenĠ
ping ĠxiĠ
ĠdeĠ erĠ
ĠyueĠ qiĠ
ĠbuĠ xiĠ
ĠqiĠ taĠdeĠ
kouĠ jingĠ
ĠgaiĠ zhuangĠ
liĠ nuoĠyiĠ
chuangĠ zuo
ĠĠĠ zuoĠ
ĠĠĠ shaĠ
gu ĠheĠ
wan ĠzaiĠ
geng ĠmingĠ
geĠ xingĠ
jianĠ jinĠ
dongĠ taiĠ
ĠdaĠ siĠ
bingĠ yuanĠ
daiĠ muĠ
ĠfuĠ siĠ
shenĠ yangĠ
jiuĠ long
fanĠ zui
zhuanĠ shuĠ
lianĠsaiĠ guanĠjunĠ
Ġda ĠweiĠ
Ġ17 Ġ
Ġ hunĠ
ĠĠĠ 5Ġ
ying ĠzaiĠ
qing ĠzhiĠ
wo ĠsiĠ
jinĠ tianĠ
zhanĠ cheĠ
fenĠ zuĠ
junĠ tuan
laiĠ yuanĠyuĠ
jueĠ saiĠzhongĠ
ĠhongĠ zha
lieĠche ĠdeĠ
hongĠzha ĠjiĠ
mei ĠjiĠ
dian ĠliĠjiĠ
zhou ĠdaĠxueĠ
liu ĠjiĠ
shui ĠxianĠ
rong ĠweiĠ
kun ĠmingĠ
ĠshiĠ chuĠ
xiĠ anĠ
shuĠ jiaĠ
yeĠ meiĠyouĠ
wenĠ benĠ
luoĠ baiĠ
guangĠ puĠ
ĠzhuĠ yanĠ
aĠ boĠ
ĠtaĠcengĠ daiĠbiao
Ġ en
Ġ 1983ĠnianĠ
ĠĠĠ Mo
jiao ĠzhongĠ
dou ĠyiĠ
pian ĠyuĠ
jiangĠ huĠ
kouĠ haoĠ
ĠciĠ keĠ
keĠyiĠ zhiĠ
tieĠ luĠdeĠ
quĠdeĠ fuĠzeĠguanĠxiaĠ
Ġ chaoĠjiĠ
Ġ 20ĠshiĠjiĠ
ai ĠsiĠ
ĠĠĠ teĠzhengĠ
qu ĠweiĠyuĠ
yin ĠyiĠ
mu ĠweiĠ
hai ĠweiĠ
quan ĠyuĠ
ĠliĠ xingĠ
beiĠ jieĠ
ĠqiĠ zhuĠ
chuĠ juĠ
jingĠ xiangĠ
ĠdaĠ niĠ
cheĠ chuĠ
lvĠkeĠ tieĠdaoĠ
Ġ xi
an ĠyuĠ
ĠĠĠ yinĠweiĠ
huo ĠjiĠ
lei ĠerĠ
chuan ĠjiaĠ
meng ĠxiangĠ
po ĠdeĠ
buĠ nengĠ
diĠ diĠ
ĠzaiĠ faĠguoĠ
ĠyueĠ guoĠ
ĠbuĠ xingĠ
xianĠ qianĠ
huiĠ daoĠzhiĠ
ĠdaĠ dianĠ
xinĠ beiĠshiĠ
ĠxiangĠ duiĠ
ĠdongĠ fangĠ
Ġer ĠrenĠ
zengĠ sheĠ
Ġ huaiĠ
bing ĠqiĠ
Î± Ġ
heĠ bingĠ
fuĠ buĠ
xinĠ xianĠ
ĠkeĠ linĠ
gaiĠ liangĠ
baĠ baĠ
ĠgaiĠ jianĠ
ĠwuĠ ziĠ
Ġta ĠerĠ
ĠyuanĠ benĠ
ĠqingĠ huaĠ
gongĠgongĠ jiaoĠtongĠ
liu ĠjiaĠ
qin ĠdeĠ
shuai ĠxianĠ
ĠshiĠ yongĠdeĠ
geĠ jieĠ
qianĠ shuiĠ
wangĠ luo
yangĠ zhouĠ
seĠ qingĠ
ĠfaĠ yuanĠ
gongĠheĠ guoĠdeĠ
henĠ kuai
suĠgeĠ lan
Ġ teng
Ġ lianĠheĠguoĠ
ĠĠĠ L
zhi ĠshiĠyongĠ
xiao ĠzhongĠ
xia ĠdaĠ
la ĠshiĠ
liu ĠzhiĠ
ce ĠweiĠ
jiaĠ gouĠ
ĠfuĠ muĠ
ĠdanĠ meiĠyouĠ
zhuanĠ huiĠ
qiangĠ lieĠdeĠ
Ġer ĠyueĠ
Ġzai ĠjiĠ
quan ĠheĠ
ding ĠyouĠ
ce ĠĠĠ
erĠ yanĠ
jinĠ daiĠ
mingĠ eĠ
taiĠ yuanĠ
dianĠ xingĠ
ĠfuĠ buĠ
zuĠ gouĠ
zhouĠ moĠ
bianĠ quĠ
canĠ zhengĠ
peiĠ jueĠ
ĠxinĠjiaĠ poĠ
hui ĠqiĠ
huo ĠqiĠtaĠ
tu ĠxiĠ
tou ĠshiĠ
ĠyiĠ kaiĠshiĠ
shouĠ jieĠ
muĠ biao
ĠbaoĠ chiĠ
xunĠ haoĠ
danĠ yuanĠ
woĠ lunĠ
ĠmeiĠ tiĠ
xingĠzhengĠ quĠyuĠ
Ġ14 Ġ
Ġ du
Ġ 34
Ġ 1995
kun ĠchongĠ
chuĠ ban
dongĠ hua
kaiĠ yeĠ
ĠshiĠyiĠ yueĠ
kongĠ longĠ
aĠerĠ baĠ
ĠqiĠxi ĠzaiĠdiĠ
9 ĠshiĠ
Ġ shan
yu ĠshiĠjieĠ
zuo ĠweiĠyuĠ
she ĠweiĠ
xiu ĠxiĠ
man ĠyuĠ
guoĠ wuĠ
wuĠ jianĠ
ĠbuĠ lunĠ
xinĠ xinĠ
jiaoĠ shaoĠ
lianĠ boĠ
guĠ chengĠ
suĠ zhouĠ
ĠzhuĠ mingĠ
ĠdeĠshiĠ yanĠ
tanĠ pan
ĠnanĠ xingĠ
guoĠdeĠ te
ĠĠĠweiĠ yuĠ
Ġ13 Ġ
Ġ zhongĠzhiĠ
ling ĠyouĠ
ĠyouĠ baoĠ
gongĠ xueĠyuanĠ
leĠ ziĠjiĠdeĠ
yinĠ xingĠ
banĠ yan
zuiĠ houĠdeĠ
maĠ changĠ
tuĠ luĠ
Ġbing ĠzhiĠ
Ġfou ĠzeĠ
Ġ 1986ĠnianĠ
dian ĠzhiĠ
lun ĠjiĠ
ts Ġ
ĠheĠ ziĠ
ĠguoĠ daoĠ
ĠbuĠ shouĠ
ziĠ fuĠ
ĠyiĠjiĠ yuĠ
huanĠ qiuĠ
1Ġ mingĠ
ouĠ meng
hunĠ luanĠ
zhuĠyao ĠyouĠ
tianĠwenĠ xueĠjiaĠ
8 ĠrenĠ
Ġ niĠkeĠ
xue ĠzhiĠ
ha ĠfuĠ
1905 ĠnianĠ
chengĠ nuoĠ
ĠdiĠ tie
yinĠ mouĠ
xinĠ yongĠ
puĠ sheĠ
xunĠ wenĠ
Ġzai ĠweiĠ
fuĠjianĠ shengĠ
Ġ beiĠbuĠ
Ġ ruiĠdianĠ
gu ĠyuĠ
lu ĠqiĠ
gang ĠshiĠ
suan ĠyanĠ
ĠliĠ xiangĠ
geĠ shengĠ
jieĠ dianĠ
zongĠ mianĠjiĠ
zhongĠguoĠrenĠminĠ jieĠfangĠjunĠ
Ġ 80
Ġ De
Ġ wuĠshiĠ
ĠĠĠ xuĠ
ĠĠĠ 2023ĠnianĠ
ling ĠzhiĠ
yang ĠqiĠ
kuan ĠdeĠ
ĠdeĠ deĠ
wuĠ fuĠ
beiĠ fuĠ
ziĠ meiĠ
zhengĠ siĠ
mingĠ shengĠ
benĠ jieĠ
liĠ changĠ
ceĠ huaĠ
ĠtianĠ wenĠ
ĠdeĠzhuĠ tiĠ
dongĠnanĠ yaĠ
ĠdeĠzhongĠ yaoĠ
luoĠdiĠ yaĠ
Ġ 1989
Ġ louĠ
ling ĠyiĠzhongĠ
st ĠĠĠ
colspan Ġ
wuĠ chuĠ
ĠbuĠ shuĠ
gaiĠ shuĠ
ĠjieĠ zhuĠ
huanĠ guanĠ
eĠ waiĠ
ĠbenĠ jieĠ
ĠjiĠqiĠ renĠ
Ġ wuĠyueĠ
ĠĠĠ 2004
ĠĠĠ yingĠguoĠ
ĠshiĠ yingĠguoĠ
jianĠ leĠ
ĠqiĠ diĠ
ciĠ xingĠ
boĠ genĠdiĠ
puĠ laĠ
moĠ teĠerĠ
changĠweiĠ huiĠ
Ġ te
Ġ miao
Ġ juan
Ġ leiĠsiĠ
fang ĠzhongĠ
hai ĠheĠ
kou ĠyuĠ
ĠliĠ changĠ
jieĠ fuĠ
faĠ shengĠyuĠ
changĠ guiĠ
junĠ dui
nanĠ zhuĠjueĠ
dengĠ daiĠ
ĠziĠ dongĠ
ĠdeĠjiĠ zaiĠ
xiĠbanĠ ya
Ġ he
Ġ junĠzaiĠ
Ġ 1945ĠnianĠ
Ġ 1920ĠnianĠ
ĠĠĠ 2003
liu ĠrenĠ
ĠrenĠ lei
ĠqiĠ zhongĠdeĠ
ĠxiĠ lieĠdeĠ
juĠ zhenĠ
yingĠ jieĠ
yingĠ biĠ
zhangĠ woĠ
xiaĠ xunĠ
ĠjinĠ riĠ
moĠ tuoĠ
eĠ tuĠ
ĠshiĠjiĠ zhiĠ
ĠdeĠguoĠ chengĠzhongĠ
ĠduoĠ mingĠ
keĠneng ĠdeĠ
faĠlanĠxiĠ daĠquĠ
Ġ1950 ĠnianĠ
Ġ 1985
ren ĠyouĠxiĠ
ba ĠbuĠ
zhen ĠxingĠ
sai ĠheĠ
lan ĠdaĠ
nv ĠshiĠ
rou ĠshiĠxingĠ
dongĠ luĠ
ĠsiĠ tanĠ
ĠdeĠshiĠ qiĠ
ĠxiaĠ wuĠ
ĠweiĠfuĠ shuĠjiĠ
shengĠhuo ĠzaiĠ
Ġ 26
Ġ fuĠzhiĠ
ĠĠĠ 2004ĠnianĠ
yuan ĠyiĠyuanĠ
mu ĠyiĠ
xu ĠyiĠ
qiu ĠyuĠ
tu ĠweiĠ
pai ĠweiĠ
lie ĠdiĠ
heĠ yueĠ
ĠguoĠ min
shangĠ suoĠ
dongĠ haiĠ
dianĠ che
xiaĠ xiaĠyiĠxiaĠdiĠquĠ
ĠgongĠ minĠ
shuiĠ jingĠ
ĠnianĠ10ĠyueĠ 1ĠriĠ
enĠ laiĠ
nongĠ cunĠ
a ĠbuĠ
Ġ 1987ĠnianĠ
Ġ 1978ĠnianĠ
mei Ġyou
bo ĠxiĠ
duo ĠjiaĠ
que ĠliĠ
weiĠ yuanĠhuiĠ
xingĠ xiĠ
beiĠ ceĠ
shangĠ xiaoĠ
jiangĠ huaĠ
maĠ dingĠ
sanĠ xiangĠ
linĠ naĠ
feiĠxingĠ yuanĠ
2 ĠmingĠ
w Ġ
xian ĠshiĠdeĠ
zu ĠliĠ
jiu ĠjiĠ
guang ĠfuĠ
ĠshiĠ yinĠduĠ
diĠ baĠ
chuĠ ruĠ
bianĠ ruĠ
cheĠ shouĠ
danĠ yaoĠ
yiĠdeĠ daoĠ
ĠduoĠ geĠ
hangĠkongĠ muĠjianĠ
biaoĠzhun ĠdeĠ
Ġniu ĠyueĠshiĠ
Ġ junĠweiĠ
an ĠxiĠ
zi ĠyouĠshiĠ
bing ĠrenĠ
tai ĠdiĠ
lan ĠqiĠ
lin ĠxianĠ
zhuang ĠyouĠ
nv ĠgeĠshouĠ
qiĠ xiangĠ
xingĠ chengĠdeĠ
taĠ beiĠ
wanĠ yanĠ
guangĠ zhouĠshiĠ
chanĠ liangĠ
shuiĠ ku
ĠciĠ wai
shaoĠ liangĠ
ĠbeiĠqiĠ shunĠshiĠzhenĠyuĠ
Ġ 1980
Ġ XĠ
ĠĠĠ tong
dian ĠweiĠyuĠ
she ĠxingĠ
zhou ĠnianĠ
qing ĠweiĠ
lv ĠdiĠ
ĠyiĠ nanĠ
ĠzhongĠ duoĠ
ĠguoĠ fangĠbuĠ
xianĠ quĠ
chuĠ banĠdeĠ
shuĠ xieĠ
zhanĠ fuĠ
tongĠ huaĠ
bingĠ tuanĠ
xiaĠ weiĠyiĠ
Ġ shuo
Ġ 1982ĠnianĠ
lu ĠyouĠ
bing ĠzhiĠ
mu ĠqiĠ
quan ĠshiĠjieĠ
ni ĠdaĠquĠ
gou ĠwuĠ
zhao ĠdeĠ
re ĠĠĠ
wuĠ yeĠ
guanĠ yinĠ
junĠ fangĠ
piĠ ping
ĠHR ĠĠĠ
Ġ dongĠxiĠ
Ġ 1958ĠnianĠ
qu ĠdeĠyiĠ
gao ĠweiĠ
ĠyiĠ shangĠdeĠ
ĠliĠ jiaĠ
ĠzaiĠ xiangĠgangĠ
ĠerĠ keĠ
ĠzhuĠ tiĠ
lunĠ shuĠ
ĠruĠ jinĠ
ĠjinĠxingĠ leĠ
ĠwanĠpingĠfangĠ miĠ
Ġ kui
ling ĠjiĠ
lun ĠheĠ
dou ĠzhiĠ
nuo ĠbeiĠerĠ
nai ĠerĠ
xiangĠ qianĠ
jiangĠ zuoĠ
biĠ huaĠ
yaĠ dianĠ
meiĠ shuĠguanĠ
ĠgeĠ diĠ
caiĠ dingĠ
moĠ teĠ
ĠzuiĠzhongĠ zaiĠ
mingĠniĠ suĠdaĠ
Ġ zhiĠdeĠ
ban ĠheĠ
guang ĠxianĠ
ĠshiĠ miĠ
yuanĠ diĠ
gongĠ guoĠ
geĠ xiangĠ
chengĠ qiĠ
duĠ chaĠ
zuiĠ chuĠdeĠ
guangĠ xuĠ
Ġta ĠzhiĠ
renĠweiĠ yuanĠ
4 ĠmingĠ
Ġ kuangĠ
yuan ĠrenĠminĠbiĠ
wu ĠzhongĠxinĠ
yan ĠweiĠ
jiang ĠweiĠwuĠerĠ
kai ĠjiĠ
nei ĠheĠ
qiao ĠchuĠ
jianĠ jianĠ
keĠ huanĠ
shangĠ faĠlanĠxiĠdaĠquĠ
yingĠ shuĠ
jiangĠ zhangĠ
gaoĠ cengĠ
tianĠ ranĠ
gengĠ huanĠ
zhuĠjiaoĠ zuoĠ
3 ĠhaoĠ
ĠĠĠ is
yang ĠyuĠ
tion Ġ
33 Ġ
ĠshiĠ yinĠweiĠ
ĠyiĠ ziĠ
wuĠ dingĠ
keĠ huĠ
xinĠ huaĠ
jiangĠ xianĠ
xiaĠ banĠ
xuanĠ piaoĠ
ĠzhuĠ saiĠ
chongĠ fenĠ
chaoĠjiĠ lianĠsaiĠ
ren ĠshiĠdeĠ
wan ĠyuĠ
shui ĠxiĠ
hong ĠshiĠziĠ
ĠguoĠ anĠ
jieĠ meiĠ
baoĠ luĠ
guanĠ jieĠ
junĠ zhangĠ
nanĠ ceĠ
biĠ ciĠ
caiĠ neng
chanĠ sheng
zhuanĠ men
zhuanĠ boĠ
zhunĠ queĠ
faĠbiaoĠ leĠ
Z Ġ
Ġ 1988
li ĠyouĠ
she ĠheĠ
liang ĠzaiĠ
can ĠjiĠrenĠ
chou ĠkeĠ
ĠrenĠ shouĠshangĠ
ĠguoĠ jiaĠjiĠ
qiuĠ dui
luoĠ menĠ
ĠgeĠ daĠ
puĠ leiĠ
danĠ shengĠ
canĠ yanĠ
aiĠerĠ lan
hunĠningĠ tuĠ
Ġ zun
Ġ Li
Ġ chuanĠtongĠ
bing ĠjiĠ
zhou ĠzhongĠ
suo ĠjiĠ
sun ĠhaiĠ
ĠyiĠ shouĠ
ĠzhiĠ houĠdeĠ
ĠyouĠ huiĠ
ĠrenĠ mingĠweiĠ
xiangĠ muĠdeĠ
beiĠ gaoĠ
taiĠ zhongĠshiĠ
ĠjianĠ zaoĠ
ĠzheĠ xiangĠ
pinĠ fanĠ
Ġai ĠdeĠ
guiĠdaoĠ jiaoĠtongĠ
dianĠqiĠ huaĠ
Ġ Le
Ġ heĠyiĠ
mei ĠyuĠ
dian ĠzaiĠ
taiĠ nanĠshiĠ
muĠ hanĠmoĠdeĠ
bianĠ gengĠ
ĠxiangĠ biĠ
1Ġ mianĠ
8 ĠshiĠ
Ġ tie
Ġ Sa
bao ĠzhongĠ
xu ĠyuĠ
qiu ĠxingĠ
cai ĠfuĠ
qiĠ yongĠ
zhengĠ lunĠ
ĠdaĠ zhengĠ
pingĠ xianĠ
ĠkeĠ yiĠshiĠ
neiĠ zhengĠbuĠ
ĠgaiĠ wuĠzhongĠdeĠ
peiĠ xun
tuiĠ chu
Ġgai ĠjiĠ
sanĠjiaoĠ xingĠ
Ġ neng
Ġ zouĠ
Ġ xiangĠshiĠ
zai ĠshiĠjieĠ
dao ĠyiĠgeĠ
le ĠliĠ
mu ĠyouĠ
zhou ĠxiĠ
gao ĠliĠ
sai ĠyuĠ
1917 ĠnianĠ
ĠshiĠ miĠsiĠ
keĠ laiĠ
beiĠ songĠ
shouĠ yingĠ
yingĠ sheĠ
qiuĠ duiĠdeĠ
gaoĠ xiongĠ
hongĠ shuiĠ
gongĠzuoĠ zheĠ
shengĠwuĠ xueĠ
dongĠbuĠ daĠquĠ
ĠgongĠyuanĠ qianĠ
ĠK Ġ
aĠjiĠ tan
hui ĠshiĠyongĠ
jing ĠrenĠ
jiu ĠbuĠ
pai ĠxiĠ
ting ĠzaiĠ
lie ĠtaĠ
chen ĠshiĠ
ĠyiĠ jieĠ
wuĠ jiaĠ
wangĠ fanĠ
luoĠ houĠ
lingĠ shouĠ
guĠ geĠ
Ġtong ĠnianĠ10ĠyueĠ
zhengĠfu ĠheĠ
ĠzhenĠ duiĠ
wuĠliĠ xueĠjiaĠ
Ġ 36
ĠĠĠ duoĠ
qi ĠyiĠzhiĠ
dao ĠzhongĠguoĠ
rui ĠkeĠ
buĠ luĠ
zheĠ changĠ
fenĠ bianĠ
fenĠ kaiĠ
taiĠ yinĠ
dianĠ luĠ
wangĠ chaoĠdeĠ
ĠdaoĠ shangĠ
chuanĠ jiaoĠshiĠ
lieĠ ru
miaoĠ xieĠ
niuĠyueĠ zhouĠ
ĠĠĠ pingĠ
kai ĠxingĠ
es Ġ
xingĠ mingĠ
wuĠ mingĠ
xiangĠ cunĠ
ĠdiĠ chuĠ
zhanĠ qianĠ
ruĠ xuan
Ġri ĠheĠ
ĠzhanĠ zhengĠ
ĠguangĠ zhouĠ
Ġ houĠzaiĠ
shu ĠdeĠyiĠzhongĠ
mei ĠrenĠ
gai ĠdeĠ
tu ĠheĠ
us Ġ
yeĠ tiĠ
qianĠ fengĠ
zuĠ gouĠdeĠ
lingĠ duiĠ
tuoĠ leiĠ
ĠqiĠzhongĠ baoĠkuo
ĠtaiĠ yangĠ
ĠbuĠguoĠ zaiĠ
ĠaĠerĠbeiĠ siĠ
Ġ chou
ĠĠĠ jiaoĠ
ge Ġyue
xia ĠheĠ
gai ĠjiĠ
chun ĠjiĠ
ĠyiĠ fangĠ
jianĠ jiaoĠ
dongĠ wuĠdeĠ
ĠdaĠ lou
guanĠ kan
sheĠ zhiĠdeĠ
ĠgongĠ yingĠ
fanĠ dianĠ
zongĠ tiĠ
ĠyuanĠ yinĠ
shaoĠ huiĠ
faĠxianĠleĠ ciĠtianĠtiĠ
pingĠlun ĠjiaĠ
Ġ geiĠ
xing ĠdeĠshiĠ
yao ĠzhiĠ
huan ĠyouĠ
niu ĠjinĠ
daĠ shaĠ
yuanĠ shouĠ
jianĠ xiaoĠ
shuĠ niuĠ
ĠxiĠ lanĠ
tongĠ chengĠ
ĠjiaĠ qiangĠ
haiĠ guanĠ
gaoĠ fengĠ
fanĠ kangĠ
paiĠ ming
ĠshouĠ luĠ
Ġ lan
Ġ chong
pian ĠshiĠ
ry ĠĠĠ
Ã¡ Ġ
ĠyiĠ langĠ
ĠweiĠ guoĠ
huiĠ quĠ
shuĠ fuĠ
zhanĠ siĠ
qingĠ haiĠ
yaĠ chiĠ
lianĠ shuĠ
zhenĠ chaĠ
luoĠ niĠ
danĠ baiĠzhiĠ
ĠshangĠ hai
Ġbei ĠweiĠ
ĠchaoĠ tingĠ
Ġ ruiĠshiĠ
jiang ĠdaĠ
dian ĠzhongĠ
liang ĠkeĠ
xingĠ shengĠ
yingĠ jiuĠ
liangĠ tiaoĠ
liangĠ haoĠdeĠ
shenĠ yuanĠ
zuĠ zhangĠ
anĠ dongĠniĠ
biaoĠ tiĠ
danĠ mai
xianĠdeĠ chengĠshiĠ
zhuĠshiĠ huiĠsheĠ
9 ĠrenĠ
Ġ 28
Ġ biaoĠzhunĠ
Ġ yuanĠweiĠ
nian ĠjianĠ
zheng ĠzhongĠ
xin ĠnianĠ
tai ĠzhiĠ
zhen ĠzhongĠ
feng ĠxingĠ
pian ĠyiĠ
bang ĠjiaĠ
1910 ĠnianĠ
ĠshiĠ pinĠ
daĠ xiĠ
ĠguoĠ zhongĠ
beiĠ pingĠ
banĠ dianĠ
bianĠ jiangĠ
zuiĠ xinĠ
fanĠ sheĠ
kaiĠ boĠ
ĠdanĠ yinĠweiĠ
niĠ guĠlaĠ
leĠyiĠ zhongĠ
Ġ000 ĠmingĠ
jieĠyiĠ chanĠ
Ġ xingĠjiĠ
ĠĠĠ 2ĠyueĠ
ĠĠĠ minĠguoĠ
hu ĠjiĠ
ti ĠzaiĠ
na ĠzaiĠ
guang ĠdaĠ
lun ĠzhongĠ
heng ĠdeĠ
ning ĠxianĠ
son Ġ
ted ĠĠĠ
begin Ġ
ĠshiĠ fangĠ
siĠ maĠ
wuĠ juĠ
zhengĠ jianĠ
shouĠ piao
shangĠ chuanĠ
jingĠ jieĠ
jiaoĠ duoĠ
ĠxianĠ xiangĠ
linĠ jinĠdeĠ
qinĠ fanĠ
caoĠ anĠ
ĠzhiĠchiĠ zheĠ
Ġ geĠliĠ
ju ĠdiĠ
hua ĠbuĠ
gai ĠdiĠquĠ
ra Ġ
heĠ faĠ
wuĠ suoĠ
saiĠ tingĠ
zhaoĠ muĠ
ĠjingĠ waiĠshuĠruĠ
ĠĠĠshiĠ jianĠ
jieĠshouĠ leĠ
ĠĠĠ biĠsaiĠ
huo ĠzhiĠ
pai ĠrenĠ
bang ĠdanĠ
tuo ĠdeĠ
pao ĠbingĠ
zhiĠ zuoĠ
diĠ zhenĠ
yuanĠ chuangĠ
wuĠ luĠ
yeĠ keĠ
fanĠ xiangĠ
baĠ mianĠ
ĠchengĠ xianĠ
Ġjin ĠzhiĠ
zhuĠjiaoĠ lianĠ
taĠmen ĠzaiĠ
ĠdeĠjiĠchuĠ shangĠ
Ġ zhuiĠ
an ĠbuĠ
ĠĠĠ La
ĠĠĠ 1ĠyueĠ
chang ĠzhongĠ
bo ĠliĠyaĠ
xu ĠzhiĠ
sai ĠshiĠzhongĠ
hong ĠqiĠ
gei ĠshiĠzhongĠ
shuai ĠjunĠ
kua ĠyueĠ
ĠyouĠ xi
jieĠ mianĠ
beiĠ shaĠ
shouĠ qiangĠ
1Ġ wanĠ
wuĠxianĠ dianĠ
tunĠ menĠ
liaoĠning ĠshengĠ
bu ĠdeĠyiĠ
hu ĠrenĠ
gai ĠyiĠ
yao ĠxingĠ
sai ĠsiĠ
ĠyouĠ taiĠrenĠ
jianĠ zhu
jiaoĠ xiangĠ
luĠ xingĠmuĠ
xiaoĠ chuĠ
wanĠ shanĠ
ĠdaoĠ fuĠ
ĠchengĠ duĠ
touĠ mingĠ
Ġjin ĠjiĠ
ĠxunĠ huiĠ
Ġtian ĠqiĠ
zuiĠhouĠyiĠ ciĠ
ĠĠĠin ĠĠĠtheĠĠĠ
ĠsectionĠĠĠ beginĠ
Ġ daĠliĠ
ai ĠliĠsiĠ
mi ĠrenĠ
huo ĠweiĠ
nan ĠweiĠ
duo ĠyiĠ
ding ĠbuĠ
mo ĠzhiĠ
cao ĠyuanĠ
ĠyiĠ danĠ
ĠyouĠ zheĠ
huiĠ shouĠ
quĠ chuĠ
junĠ wangĠ
guĠ yongĠ
meiĠguoĠ guoĠjiaĠ
2Ġ mianĠ
Ġdang ĠnianĠ
kaoĠ ruĠ
Ġye ĠzaiĠ
Ġba ĠxiĠ
Ġming ĠshiĠ
ĠzaiĠci ĠqiĠjianĠ
zongĠyiĠ jieĠmuĠ
Ġ 1983
Ġ zhanĠshiĠ
ĠĠĠ J
zhongĠ yaoĠdeĠ
jianĠ ce
zhuĠ ming
jingĠ chengĠ
jiaoĠ geiĠ
nanĠ xiaĠ
bianĠ liangĠ
chuanĠ shangĠ
aiĠ shaĠ
panĠ duanĠ
touĠru ĠshiĠyongĠ
yong ĠliĠ
tu ĠzaiĠ
jue ĠqiĠ
gui ĠyuĠ
1946 ĠnianĠ
BD Ġ
renĠ kou
ĠqiĠ xiaĠdeĠ
houĠ zheĠ
luĠ jun
nanĠ yanĠyuanĠ
zuĠ ziĠzhiĠquĠ
yangĠ guangĠ
jueĠ saiĠdeĠ
ĠyiĠzhiĠ weiĠ
Ġjiu ĠyueĠ
Ġ xun
Ġ 1980ĠnianĠ
bi ĠzhiĠ
dan ĠshiĠ
dai ĠzhongĠ
jiu ĠyuĠ
bo ĠfuĠ
lin ĠheĠ
pin ĠweiĠ
mou ĠgeĠ
1908 ĠnianĠ
buĠ xiangĠ
huiĠ mianĠ
ĠxiĠ quĠ
yanĠ huĠ
zhanĠ duiĠ
xuĠ niĠ
suoĠ xuĠdeĠ
ĠjianĠ chaĠ
ĠjinĠ tianĠ
ĠshiĠweiĠ yuanĠhuiĠ
ĠwanĠ quanĠ
baĠshiĠ luĠxianĠ
xianĠdaiĠ huaĠ
guangĠboĠ dianĠtaiĠ
reĠdai ĠdiĠqiĠyaĠ
ke ĠshiĠyongĠ
ĠbuĠ langĠ
jieĠ quĠ
xinĠ wen
xiaoĠ haoĠ
duĠ teĠ
guĠ xiangĠ
fengĠ suĠ
haĠ laĠ
yinĠyueĠ huiĠ
diĠshiĠ erĠ
ĠĠĠ huĠ
bei ĠyouĠ
du ĠyouĠ
fei ĠsiĠ
cha ĠzhiĠ
chuang ĠyiĠ
cao ĠdiĠ
ter Ġ
1904 ĠnianĠ
ĠzaiĠ xianĠ
yuanĠ yuanĠ
gongĠ shuĠ
daoĠ qiĠ
beiĠ geĠ
riĠ houĠ
fenĠ juĠ
haiĠ junĠdeĠ
ĠfuĠ za
guangĠ dianĠ
ĠwangĠ luoĠ
Ġhai ĠshiĠ
ĠranĠ houĠzaiĠ
ĠjinĠshiĠ chuĠshenĠ
Ġ Al
Ġ daiĠbiao
Ġ qiĠzhiĠ
ĠĠĠ Ro
ke ĠbuĠ
bo ĠyuĠ
xu ĠjiaĠ
1915 ĠnianĠ
ĠyouĠ xie
chuĠ laiĠdeĠ
huiĠ jiangĠ
xueĠ guanĠ
daiĠ xieĠ
shanĠ kouĠ
zeĠ renĠweiĠ
ĠshiĠdeĠ jiĠ
yueĠ qiuĠ
zuiĠgaoĠ faĠyuanĠ
Ġsi ĠyueĠ
jiaĠliĠfuĠ niĠyaĠ
Ġ za
Ġ 65
Ġ nvĠziĠ
Ġ 22Ġ
yi ĠshiĠshiĠ
ren ĠĠĠ
yuan ĠyouĠdeĠ
ru ĠzhiĠ
10 ĠgeĠ
yingĠ bangĠ
nanĠ nvĠ
ĠgongĠ juĠ
ĠjinĠ gongĠ
ĠhouĠ beiĠ
ĠĠĠ zheĠxieĠ
yong ĠweiĠ
shan ĠzhiĠ
na ĠxiĠ
ĠdeĠ buĠ
ĠrenĠ siĠwangĠ
fuĠ mianĠ
jiaĠ shuĠ
huiĠ xingĠ
ĠdaĠ tongĠ
Ġdan ĠzhiĠ
daiĠ zheĠ
nanĠ luĠ
yaĠ suoĠ
zuiĠ juĠ
jueĠ zhuĠ
Ġ chuan
Ġ buĠliĠ
ĠĠĠ ma
bing ĠzhongĠ
lei ĠxiĠ
lei ĠkeĠ
cun ĠheĠ
po ĠshiĠ
ĠheĠ luĠ
gongĠ dangĠ
siĠ jiaĠ
ĠqiĠ yuanĠ
tiĠ qinĠ
banĠ shangĠ
haoĠ wuĠ
youĠ juĠyuĠ
juanĠ zengĠ
moĠshiĠ chan
ĠsectionĠĠĠ endĠ
xi ĠrenĠ
ĠĠĠ taĠzaiĠ
tong ĠrenĠ
lei ĠliĠ
12 ĠgeĠ
tui ĠdaoĠ
pei ĠyueĠ
ĠyueĠ duĠ
chengĠ qiangĠ
junĠ fuĠ
biĠ luĠ
bianĠ lunĠ
duoĠ yangĠ
yangĠ benĠ
fengĠ jingĠ
chuanĠ zhuĠ
ĠgaiĠ geĠ
xunĠ yanĠ
tuiĠ ceĠ
xiaoĠshiĠ houĠ
Ġ 46
da ĠliĠdeĠ
dang ĠzhiĠ
bian ĠbuĠ
zuan ĠshiĠ
ĠzaiĠ guoĠ
ĠqiĠ zhong
zuĠ qun
boĠ yingĠ
fengĠ mianĠ
ĠgaiĠ gongĠsiĠ
zhaoĠ huiĠ
ĠciĠ lieĠcheĠ
tieĠluĠ juĠ
miĠniĠ zhuanĠjiĠ
zi ĠbuĠ
neng ĠliĠdeĠ
daĠ baiĠ
yuanĠ chengĠ
jianĠ shuĠ
keĠ laĠ
tongĠ changĠshiĠ
laiĠ leĠ
zuiĠ mingĠ
suoĠ muĠ
Ġzhe ĠliĠ
ĠĠĠzhuĠ zuoĠ
saĠerĠ waĠ
yi ĠshiĠjiĠ
hui ĠliĠ
dan ĠyouĠ
bian ĠliĠ
shan ĠsiĠ
nei ĠzhiĠ
kong ĠjuĠ
1906 ĠnianĠ
John ĠĠĠ
shengĠ xingĠ
daoĠ diĠ
ĠdiĠ 2Ġ
ĠerĠ diĠ
ĠjiaĠ la
qingĠ daiĠ
muĠ houĠ
zuĠ zongĠ
douĠ yuĠshiĠ
Ġai ĠliĠ
Ġbei ĠzhiĠ
jiaoĠhuiĠ chuĠ
jiangĠyuĠ liangĠ
ĠjieĠweiĠ luĠdiĠ
shouĠhuanĠ yingĠdeĠ
Ġ gen
ĠĠĠ wuĠkeĠlanĠ
yuan ĠĠĠ
ying ĠyouĠ
ku ĠsiĠ
zao ĠchuĠ
bie ĠshuĠ
ry Ġ
ĠzhongĠ wuĠ
chengĠ faĠ
jiaoĠ xiaoĠdeĠ
ĠxingĠ bie
miĠ xieĠ
anĠ zhao
xuanĠ baĠ
huĠ tongĠ
u Ġ
Ġ 27
Ġ shengĠrenĠ
ĠĠĠ zhanĠhouĠ
ta ĠbuĠ
san ĠheĠ
gou ĠxiangĠ
guoĠ jiaĠdeĠ
xiĠ yinĠ
zhuĠ chi
beiĠ haiĠ
juĠ huiĠ
shangĠ huiĠ
huaĠ tiĠ
ĠdaĠ ziĠ
wanĠ chengĠdeĠ
dengĠ xiaoĠ
shanĠ luĠ
liuĠ xingĠdeĠ
ĠdeĠzhiĠ zuoĠ
ĠtongĠ chang
ĠmaĠ dingĠ
Ġ 1986
Ġ Si
xue ĠshiĠweiĠ
ling ĠheĠ
yang ĠrenĠ
chan ĠshiĠ
ĠyuĠ daĠ
qiĠ xiaĠ
juĠ ziĠ
fenĠ dianĠ
jiangĠ jieĠ
dianĠ ziĠyouĠxiĠ
baĠ saiĠerĠ
canĠ mouĠ
paiĠhangĠ bangĠ
2 ĠshiĠ
Ġ 1982
Ġ neiĠbuĠ
ĠĠĠ 2003ĠnianĠ
ban ĠyouĠ
na ĠweiĠ
song ĠshiĠ
pang ĠqiuĠ
ĠzaiĠ fuĠ
daĠ dongĠbuĠdaĠquĠ
ziĠ jiĠshiĠ
chuĠ shengĠzaiĠ
xiaĠ shuiĠ
wangĠ minĠ
ĠhouĠ yinĠ
ĠciĠ juĠ
ĠĠĠliĠshiĠ yanĠgeĠ
ĠyueĠzhongĠ xunĠ
Ġ 64
Ġ Mi
ĠĠĠ 9
ĠĠĠ suĠ
mei ĠheĠ
lai ĠweiĠ
lin ĠzhiĠ
60 Ġ
ĠjiĠ xianĠ
qiĠ zaiĠ
ĠqiĠ tuĠ
quĠ xianĠ
ĠfuĠ xingĠ
ĠfuĠ haoĠ
teĠ luoĠ
fanĠ paiĠ
ĠdanĠ dangĠ
Ġtong ĠyueĠ
woĠ menĠdeĠ
yanĠjiu ĠzhongĠ
ĠdeĠdaoĠ luĠ
ĠISTAT ĠdaiĠmaĠweiĠ
Ġ Ro
Ġ zhongĠyiĠ
Ġ jiaĠzhiĠ
ĠĠĠ duĠ
kan ĠwuĠ
nuo ĠkeĠ
daĠ lianĠmengĠ
huiĠ xianĠ
jiuĠ ciĠ
ĠjianĠ duĠ
diĠyiĠ mingĠ
huĠbeiĠ shengĠ
Ġ 75
Ġ 23Ġ
ĠĠĠ tuĠ
ĠĠĠ genĠju
zhou ĠsiĠ
min ĠzaiĠ
fan ĠyuĠ
han ĠrenĠ
ruo ĠdeĠ
ĠzhiĠ minĠ
jieĠ shangĠ
xiangĠ fuĠ
jinĠ saiĠ
jinĠ kouĠ
ĠdiĠ keĠ
shuĠ mingĠ
ĠerĠ jiaĠ
jiaoĠ wangĠ
qianĠ longĠ
xiaoĠ fuĠ
qingĠ fuĠ
ĠdanĠ xinĠ
saĠ moĠ
ĠjiaoĠ shouĠ
ĠluoĠ boĠ
ĠzuoĠ pinĠ
Ġgai ĠnianĠ
ĠyaĠ meiĠ
Ġ 700
yin ĠyueĠdeĠ
zhou ĠguoĠ
na ĠyiĠ
meng ĠyouĠ
geng ĠyouĠ
mao ĠkeĠ
lao ĠhuiĠ
1907 ĠnianĠ
ĠjiĠ daĠ
siĠ mingĠ
beiĠ faĠxianĠ
wenĠ daiĠ
haiĠ wanĠ
sheĠ xiangĠ
dengĠ baoĠ
ĠmeiĠ zhouĠ
ĠzongĠ jiaoĠ
ĠfeiĠ changĠ
shouĠhaiĠ zheĠ
5 ĠshiĠ
du ĠzhongĠ
dai ĠjiaĠ
kai ĠshiĠdeĠ
su ĠheĠ
ca Ġ
jiĠ shuĠ
ciĠ ziĠ
muĠ luĠ
banĠ zhangĠ
luoĠ yangĠ
liuĠ mingĠ
maĠ luĠ
danĠ maiĠ
aĠ saiĠbaiĠ
ĠshiĠyiĠkeĠ hengĠxingĠ
xin ĠdiĠ
yang ĠfuĠ
guang ĠdaoĠ
huan ĠshiĠ
keĠ qianĠwangĠ
jinĠ shenĠ
houĠ saiĠ
zuoĠ biaoĠ
fenĠ huaĠ
baĠ leiĠ
ĠjieĠ tiĠ
ĠhuaĠ xueĠ
ĠaoĠ diĠliĠ
Ġzheng ĠyueĠ
Ġ 38
Ġ fuĠliĠ
Ġ zhunĠbeiĠ
Ġ 1947ĠnianĠ
jian ĠyueĠ
jiao ĠxiĠ
gu ĠdiĠ
ba ĠqiĠ
wuĠ jieĠ
yanĠ se
tongĠ xun
muĠ diĠshiĠ
fanĠ xinĠ
nongĠ duĠ
qunĠ daoĠdeĠ
ĠbuĠfen ĠdeĠ
gaoĠxiong ĠshiĠ
r ĠĠĠ
Ġ Ca
jie ĠyueĠ
dui ĠrenĠ
11 ĠshiĠ
ĠzhiĠ neng
zhongĠ daĠ
quĠ zhuĠjianĠ
fangĠ yingĠ
shenĠ chuĠ
boĠ leiĠ
ĠchengĠ keĠ
ĠhuiĠ daoĠ
zongĠjiaoĠ quĠ
ĠriĠben ĠdeĠ
ĠpuĠtaoĠ yaĠyuĠ
an ĠdiĠ
quan ĠzhongĠ
feng ĠqiĠ
pai ĠjiĠ
shao ĠyuĠ
cao ĠdeĠ
style Ġ
ĠweiĠ fanĠ
jianĠ zaoĠdeĠ
beiĠ shouĠ
yinĠ duĠdeĠ
jiaoĠ gaoĠdeĠ
ĠjiaĠ mengĠ
shenĠ xueĠ
dengĠ zhanĠ
ĠxianĠ zaiĠdeĠ
guangĠ xueĠ
keĠyiĠ yongĠ
ĠshengĠ wuĠ
2Ġ wanĠ
nianĠ duĠ
weiĠyiĠ zhongĠ
laoĠ banĠ
tongĠguoĠ leĠ
tieĠluĠ gongĠsiĠ
faĠxingĠ leĠ
ĠbianĠ haoĠ
li ĠsiĠ
mei ĠkeĠ
cha ĠsiĠ
bang ĠshangĠ
ĠshiĠ duanĠ
gongĠ siĠheĠ
jieĠ jingĠ
zhengĠ jiuĠ
duiĠ gaiĠ
ĠgongĠ xianĠ
ĠgaiĠ dangĠ
2Ġ biĠ
chengĠduĠ shangĠ
xinĠliĠ xueĠ
zuiĠhou ĠyiĠgeĠ
ĠwanĠmeiĠ yuanĠdeĠ
Ġ tuĠerĠqiĠ
ke ĠĠĠ
dong ĠzhongĠ
hua ĠyouĠ
yin ĠrenĠ
rang ĠrenĠ
ĠjiĠ suan
ĠyuĠ zhouĠ
jiaĠ zhuangĠ
ĠxiĠ la
zhanĠ lieĠ
huaĠ wenĠ
duiĠ yingĠdeĠ
tiĠ neiĠ
zuĠ lianĠ
liuĠ jingĠ
ĠjianĠ shaoĠ
ĠgaiĠ chengĠ
ĠanĠ zhaoĠ
ĠguiĠ dingĠ
dianĠying ĠzhongĠ
zhanĠdou ĠzhongĠ
changĠpian ĠgongĠsiĠ
Ġ zuoĠyouĠ
min ĠheĠ
shan ĠdaoĠ
lv ĠbuĠ
tang ĠshiĠ
ĠdeĠ laĠ
Ġnian ĠzhiĠhouĠ
ĠyuĠ jingĠ
ĠnianĠ zhongĠ
jianĠ yanĠ
ĠbuĠ danĠ
leĠ jinĠ
shenĠ shouĠ
lianĠ xianĠ
haoĠ chengĠshiĠ
zhengĠshiĠ chengĠliĠ
ĠlianĠ xuĠ
ĠdeĠyiĠge ĠzhongĠ
ĠtuĠ jingĠ
fuĠshiĠ zhangĠ
ĠgaiĠshengĠfenĠweiĠfaĠguoĠ beiĠbuĠ
guoĠdeĠte ĠyouĠzhiĠwuĠ
Ġ 35
Ġ mĠ
ĠĠĠ wenĠ
zhan ĠshiĠqiĠ
qiu ĠdaĠ
han ĠsiĠ
guang ĠweiĠ
ĠzaiĠ shangĠ
ĠheĠ daĠ
xiĠ tong
shengĠ fuĠzeĠguanĠxiaĠ
yeĠ chengĠ
changĠ shuĠ
jiaoĠ yuanĠ
saiĠ juĠ
ĠciĠ qianĠ
1ĠriĠ pingĠjunĠ
keĠjiĠ daĠxueĠ
kongĠzhongĠ faĠxianĠ
Ġ lian
Ġ In
chao ĠxiĠ
tuo ĠyuanĠxingĠ
zou ĠdeĠ
zhai ĠdeĠ
ĠyouĠ fuĠ
gongĠ xiangĠ
jieĠ beiĠ
zuoĠ paiĠ
Ġdan ĠtaĠmenĠ
meiĠ laĠ
dingĠ muĠ
fengĠ biĠ
Ġye ĠbuĠ
Ġjiang ĠyuĠ
Ġhao ĠdeĠ
Ġliang ĠguoĠ
huanĠxingĠ shanĠ
Ġ diĠzhiĠ
Ġ fangĠzhiĠ
ĠĠĠ Sa
xiao ĠdiĠ
ru ĠdiĠ
bo ĠqiĠ
liu ĠqiĠ
bai ĠjinĠ
bang ĠdaĠ
ĠyuĠ yuĠ
ĠzaiĠ shengĠ
Ġyue ĠjiĠ
xiĠ quĠ
gongĠ buĠdeĠ
ĠguoĠ wuĠ
yingĠ yun
ĠdaĠ daĠ
ĠdaĠ shengĠ
tiĠ chu
tiĠ caoĠ
xiaoĠ zhenĠ
ĠfuĠ luoĠ
zuiĠ changĠ
paiĠ duiĠ
hanĠ baoĠ
yuĠyiĠ daĠliĠ
ĠbenĠ mingĠ
ĠlianĠ bangĠ
Ġjin ĠyiĠbuĠ
ĠerĠsiĠ keĠ
minĠjinĠ dangĠ
ming ĠliĠ
liu ĠdanĠ
zao ĠshiĠ
zhongĠ zuĠ
keĠ taĠ
shouĠ piĠ
wangĠ guoĠdeĠ
dingĠ lvĠ
ĠyeĠ keĠ
ĠweiĠzhongĠ xinĠ
ĠheĠbeiĠ shengĠ
ĠO Ġ
kaĠluoĠlaiĠnaĠ zhouĠ
Ġ 1948
ĠĠĠ sheĠ
ĠĠĠ faĠxingĠ
di ĠĠĠ
hua ĠliĠ
song ĠzhiĠ
ĠdeĠ fuĠ
ĠyiĠ guoĠ
ĠyiĠ wenĠ
Ġli ĠweiĠzhiĠ
wuĠ xuĠ
jieĠ zhuĠ
beiĠ anĠ
yanĠ bianĠ
lianĠ siĠjiĠ
teĠ se
shaoĠ nv
huoĠdeĠ diĠ
zhengĠzhiĠ xieĠshangĠ
langĠdeĠ shengĠ
ĠqiĠxiĠ shenĠduĠ
ĠĠĠ canĠkaoĠ
ni ĠgeĠ
zui ĠxianĠ
sai ĠshiĠdeĠ
pei ĠsiĠ
gei ĠchuĠ
align Ġ
ĠyuĠ jiaĠ
beiĠ diĠ
jinĠ zhuĠ
zhanĠ biĠ
zuoĠ chuĠleĠ
jiangĠ gaiĠ
dianĠ ciĠ
Ġdan ĠjiĠ
laiĠ meiĠ
minĠ yongĠ
ĠtaĠ biaoĠshiĠ
ĠbeiĠ jingĠshiĠ
ĠshiĠweiĠ shuĠjiĠ
ĠdengĠ dengĠ
guoĠminĠ dang
siĠlingĠ yuanĠ
moĠshiĠchan ĠdiĠzaiĠ
Ġ zaoĠqiĠ
ĠĠĠ Z
er ĠshiĠshiĠjiĠ
da ĠyouĠ
zheng ĠrenĠ
ying ĠweiĠ
xu ĠliĠ
tiao ĠshiĠ
ĠshiĠ gaiĠ
ĠzaiĠ neiĠ
keĠ xiĠ
shuĠ baiĠ
zhanĠ lieĠjianĠ
ĠxingĠ xiangĠ
wanĠ jieĠ
zhenĠ dongĠ
liuĠ fangĠ
ĠchuĠ daoĠ
Ġtong ĠnianĠ11ĠyueĠ
ĠliangĠ zheĠ
2010ĠnianĠ meiĠguoĠrenĠkouĠpuĠchaĠ
saĠkeĠ senĠ
Ġmin ĠjiĠ
ai ĠdiĠ
ĠĠĠ ruĠguoĠ
ing ĠĠĠ
chun ĠjieĠ
yinĠ yuanĠ
ruĠ zhuĠ
ĠgeĠ ziĠ
huĠ zhaoĠ
meiĠguoĠ haiĠjunĠ
ĠdeĠzhiĠ huiĠ
ĠmianĠ dianĠ
ji ĠyiĠjiĠ
ĠĠĠ Pa
ĠĠĠ xueĠ
ĠĠĠ dianĠyingĠ
qi ĠshiĠdeĠ
ye ĠliĠ
dai ĠheĠ
fan ĠrenĠ
tie ĠdeĠ
ĠyiĠ zhangĠ
fanĠ yingĠdeĠ
ĠyouĠyiĠ zuoĠ
Ġsi ĠliĠ
xunĠhuiĠ yanĠchangĠhuiĠ
ĠzhongĠshiĠ yanĠ
ĠjuĠqingĠ xiaĠ
Ġ zhuĠliĠ
Ġ 1948ĠnianĠ
qu ĠliĠ
gui ĠjiĠ
gongĠ bu
gongĠ siĠyuĠ
wuĠ changĠ
beiĠ mianĠ
jiaoĠ yuĠdeĠ
duiĠ chenĠ
ĠsiĠ tan
biĠ mian
ĠyinĠ hangĠ
ĠjieĠ chuĠ
huangĠ puĠ
zhuĠyiĠ daoĠ
ĠyanĠ yuanĠ
daoĠzhiĠ leĠ
Ġ1 ĠĠĠ
huaĠshengĠ dun
zhuiĠsu ĠzhiĠ
shuaiĠling ĠdeĠ
Ġ1946 ĠnianĠ
Ġ hun
Ġ xueĠxiĠ
Ġ jiaĠliĠ
ĠĠĠ houĠlaiĠ
you ĠkeĠ
sheng ĠyueĠ
nan ĠdaĠ
rong ĠqiĠ
ĠshiĠ congĠ
ĠzhiĠ xiangĠ
ĠrenĠ neiĠ
jinĠ jinĠ
fangĠ fa
huaĠ dongĠ
yeĠ shouĠ
ĠxingĠ bieĠ
teĠ shengĠ
ĠxiangĠ dangĠ
Ġgai ĠdiĠ
Ġjie ĠheĠ
Ġ Ra
Ġ tiĠyuĠ
Ġ 1956ĠnianĠ
ĠĠĠ U
nian ĠbeiĠ
sheng ĠdeĠyiĠgeĠ
ti ĠyouĠ
lan ĠxianĠ
ĠshiĠ zheĠ
ĠdeĠ siĠ
ĠyiĠ siĠshiĠ
faĠ guoĠdeĠ
jingĠ bao
yingĠ huaĠ
guanĠ jun
bingĠ chuanĠ
zuĠ chengĠyuanĠ
wanĠ huiĠ
suoĠ xuĠ
ĠwuĠ diĠ
tanĠ huaĠ
ĠnanĠ ziĠ
ĠyiĠweiĠ zhuĠ
gaoĠdengĠ xueĠxiaoĠ
naĠcui ĠdeĠguoĠ
Ġ jianĠzhiĠ
Ġ nuoĠweiĠ
ĠĠĠ huo
ĠĠĠ lingĠyiĠ
ĠĠĠ 2002ĠnianĠ
ta ĠjiĠ
guan ĠyouĠ
dai ĠzaiĠ
gao ĠxingĠ
tang ĠjiĠ
1950 ĠnianĠdaiĠ
yuanĠ laiĠdeĠ
ĠyueĠ qiuĠ
jiaĠ juĠ
ĠxiĠ zang
jingĠ xianĠ
fenĠ lei
jiangĠ daoĠ
ĠjiaĠ sheĠ
ĠxingĠ chaiĠyouĠjiĠ
ĠgeĠ laĠ
ĠzheĠ liangĠ
Ġtong ĠnianĠ9ĠyueĠ
nianĠ qingĠ
ĠkeĠxiĠ taĠ
ĠbiĠyeĠ houĠ
Ġ 1979ĠnianĠ
ĠĠĠ 2002
deng ĠyiĠ
lin ĠzaiĠ
ĠzhiĠ zuoĠdeĠ
jieĠ juĠ
guanĠ xi
ĠfuĠ lanĠkeĠ
teĠ lanĠ
zuiĠ jinĠ
fanĠ chuanĠ
fanĠ xueĠxiaoĠ
zhuanĠ anĠ
ziĠgeĠ saiĠ
manĠhuaĠ jiaĠ
Ġtian ĠfuĠ
8 ĠnianĠ
Ġ ya
Ġ 1987
Ġ Ba
Ġ ãĤĵ
Ġ gongĠliĠdeĠ
ĠĠĠ caiĠ
hu ĠxianĠ
wan ĠshiĠ
liu ĠheĠ
kang ĠdeĠ
lou ĠtiĠ
90 ĠnianĠdaiĠ
ĠyiĠ chuĠ
xingĠ haoĠ
minĠ zhengĠ
ĠdaoĠ danĠ
ĠshiĠyiĠ laiĠ
naĠ xie
ĠshengĠ chanĠ
Ġgu ĠjiĠ
maiĠkeĠ erĠ
Ġ 1984
Ġ iĠ
Ġ 1981ĠnianĠ
zai ĠshiĠyongĠ
hui ĠrenĠ
te ĠyiĠ
xiu ĠzhuĠ
fuĠ huoĠ
xiangĠ jiangĠ
ciĠ leiĠ
jiaoĠ chuĠ
jiuĠ keĠyiĠ
ĠgongĠ jueĠ
quanĠ zhouĠ
maĠ enĠshengĠ
ĠshiĠyiĠ jingĠ
ĠzheĠ yeĠ
aĠ erĠjiĠ
ĠbenĠ zhanĠ
ĠbuĠjiuĠ houĠ
Ġ quanĠbuĠ
Ġ ouĠzhou
ai ĠziĠ
ĠĠĠ renĠwuĠ
ĠĠĠ 20ĠshiĠjiĠ
ĠĠĠ 2024ĠnianĠ
xiao ĠshiĠdeĠ
ben ĠdiĠquĠ
tian ĠyiĠ
gang ĠguoĠ
1903 ĠnianĠ
heĠ chengĠ
xiĠ lieĠdeĠ
chengĠ duĠdeĠ
zhuĠ yanĠdeĠ
leĠ zheĠyiĠ
junĠ xianĠ
suoĠ shu
eĠ waiĠdeĠ
ouĠ zhouĠdeĠ
zhongĠshiĠ yanĠ
ĠzhongĠyang ĠweiĠyuanĠhuiĠ
muĠniĠ hei
ĠĠĠ yangĠ
ĠĠĠ niĠ
ĠĠĠ aoĠ
zhan ĠguoĠ
jiang ĠrenĠ
liu ĠweiĠ
fei ĠyuĠ
diao ĠrenĠ
42 Ġ
1900 ĠnianĠ
daĠ jiaĠ
gongĠ tingĠ
fuĠ siĠ
jianĠ dingĠ
xiangĠ xiangĠ
faĠ xianĠyuĠ
ĠerĠ geĠ
qianĠ liangĠ
pingĠ xingĠ
xiaĠ shuĠ
qingĠ xieĠ
boĠ luoĠdiĠ
zuiĠ zhuĠmingĠdeĠ
ĠwanĠ zhangĠ
minĠzhuĠ zhuĠyiĠ
ĠgaiĠwuĠzhongĠdeĠ moĠshiĠchanĠdiĠzaiĠ
Ġ Ka
Ġ binĠ
ĠĠĠ xiangĠguanĠ
wang ĠdaĠ
xiong ĠzhangĠ
ĠbuĠ leiĠ
ĠqiĠ chengĠ
taĠ duiĠ
wanĠ daoĠ
ĠgongĠ gaoĠ
ĠbingĠ duiĠ
guangĠ zhou
ĠxiangĠ tongĠ
ĠyinĠ qingĠ
touĠ yingĠ
manĠ guanĠ
panĠ luan
teĠbie ĠxingĠzhengĠquĠ
eĠhaiĠeĠ zhouĠ
9 ĠnianĠ
Ġ leng
Ġ 1979
Ġ feiĠjiĠ
Ġ naiĠ
you ĠyiĠgeĠ
xu ĠweiĠ
ĠzhiĠ liangĠ
ĠliĠ mianĠ
guoĠ duĠ
ĠzaiĠ jianĠ
ĠzaiĠ jingĠ
changĠ shaĠ
bingĠ faĠ
dianĠ yaĠ
ĠgongĠ chengĠshiĠ
xuanĠ xiuĠ
naĠ poĠlunĠ
eĠ junĠ
Ġbei ĠrenĠweiĠshiĠ
canĠsaiĠ zheĠ
Ġyong ĠyiĠ
Ġ 1955ĠnianĠ
da ĠliĠshiĠ
zhang ĠshiĠjianĠ
zui ĠxiĠ
hao ĠyueĠtaiĠ
wai ĠyuĠ
wai ĠkeĠ
chi ĠyuĠ
guang ĠshiĠ
man ĠweiĠ
chai ĠyouĠ
ga Ġ
Microsoft ĠĠĠ
ĠshiĠ gongĠ
ĠshiĠ xiangĠgang
renĠ menĠ
faĠ yinĠ
quĠ jueĠyuĠ
baĠ naĠ
fengĠ mingĠ
ĠshiĠwuĠkeĠ lanĠdeĠ
qingĠhuaĠ daĠxueĠ
Ġ gong
Ġ Se
Ġ yunĠdongĠ
Ġ henĠduoĠ
ĠĠĠ miaoĠshuĠ
yang ĠyiĠ
chun ĠdeĠ
pang ĠdeĠ
1916 ĠnianĠ
Î² Ġ
zhuĠ duoĠ
beiĠ keĠ
ĠdiĠ xingĠ
bingĠ qiuĠ
daiĠ huiĠ
dangĠ paiĠ
saiĠ puĠ
ĠyinĠ niĠ
zhengĠzhiĠ juĠ
fuĠqin ĠdeĠ
Ġ mou
an ĠĠĠ
nian ĠhouĠ
xian ĠyueĠ
zuo ĠbuĠ
ni ĠzaiĠ
bian ĠzhongĠ
sai ĠzhiĠ
al ĠĠĠ
jieĠ duĠ
beiĠ hanĠ
beiĠ panĠ
ĠerĠ xiĠ
dongĠ xingĠ
xinĠ jiaoĠ
liangĠ cengĠ
fanĠ dui
zongĠ zhangĠ
huanĠ manĠ
waĠ laĠ
yunĠshiĠ kengĠ
Ġ 70
Ġ piĠpingĠ
tong ĠyiĠgeĠ
shou ĠguoĠ
quan ĠdaoĠ
men ĠdaĠ
han ĠweiĠ
bang ĠshouĠ
nong ĠliĠ
29 Ġ
ĠshiĠ minĠ
erĠ yuanĠ
jieĠ touĠ
zhengĠ queĠ
yingĠ fuĠ
yeĠ kaiĠshiĠ
guanĠ muĠ
xinĠ zeng
taiĠ langĠ
cheĠ huiĠ
ĠbingĠ kaiĠshiĠ
saiĠ maĠ
saiĠ eĠ
ĠgaiĠ zuĠzhiĠ
Ġbing ĠshiĠ
ĠshuĠ rouĠshiĠxingĠ
reĠ menĠ
ĠĠĠyiĠ xieĠ
ĠĠĠ suoĠ
he ĠshiĠdeĠ
hu ĠyiĠ
jieĠ hun
ĠerĠ wenĠmingĠ
tongĠ meng
tiĠ shangĠ
zuiĠ zhangĠdeĠ
kaiĠ fang
Ġer ĠyiĠ
ĠlianĠ mengĠ
zongĠtongĠ fuĠ
Ġ jianĠrenĠ
Ġ zhiĠdeĠshiĠ
Ġ 1937ĠnianĠ
suo ĠheĠ
meng ĠjiaĠlaĠ
xiu ĠliĠ
ĠdiĠ zhenĠ
huaĠ feiĠ
ĠtaĠ yeĠshiĠ
teĠ ding
ĠdanĠ houĠlaiĠ
tingĠ huoĠ
nvĠ xingĠdeĠ
ĠhuaĠ xueĠshiĠweiĠ
kenĠ seĠ
3 ĠliĠ
Ġ wuĠliĠ
an ĠweiĠ
ĠĠĠ Be
wang ĠliĠ
gao ĠerĠfuĠ
mai ĠxiaĠ
sang ĠnaĠ
zun ĠshouĠ
45 Ġ
les Ġ
ĠnianĠ jinĠ
ĠyouĠ ziĠ
ĠzaiĠ taiĠwanĠ
ĠbuĠ bianĠ
shengĠ ziĠ
shangĠ yanĠ
dongĠ fengĠ
yinĠ qiĠdeĠ
luĠ xiangĠ
fenĠ sanĠ
ĠjiaĠ geĠ
wangĠ fuĠ
luoĠ shanĠ
yangĠ junĠ
ĠdeĠyiĠ buĠ
jueĠ xinĠ
huanĠ rao
huanĠ yuanĠ
ĠfaĠ lvĠ
ĠxiaĠ xiaĠ
kaĠsiĠ diĠliĠyaĠ
Ġ Pa
Ġ Mo
Ġ Ð¸
ĠĠĠ Le
ke ĠweiĠerĠ
chang ĠrenĠ
dan ĠjiĠ
dai ĠjiĠ
suo Ġyou
xu ĠheĠ
su ĠyuĠ
que ĠxianĠ
sa ĠzhuĠsaiĠ
pao ĠtaĠ
jiĠ chuĠ
ĠbuĠ mingĠ
juĠ mianĠ
guanĠ bingĠ
lianĠ xu
ĠdeĠyiĠ changĠ
suĠ lianĠdeĠ
ĠxiangĠ xiĠ
ĠzhuĠ gongĠ
ĠchuĠ xianĠzaiĠ
ĠchengĠ xuĠ
ĠzuiĠ hou
ĠteĠ langĠ
daiĠbiao ĠdeĠ
Ġmei ĠriĠ
ĠgengĠ mingĠweiĠ
ĠganĠ suĠ
lvĠweiĠ 0
ĠĠĠ quĠ
xiang ĠrenĠ
18 ĠshiĠjiĠ
zhongĠ xin
shengĠ yuanĠ
shengĠ zhengĠfuĠ
shouĠ xiaĠ
gaiĠ zhuangĠ
wanĠ meiĠ
lingĠ wai
leiĠ anĠjianĠ
baiĠ huoĠ
1Ġ biĠ
ĠyingĠ yongĠ
ziĠjiĠ zaiĠ
ĠranĠ erĠzaiĠ
Ġliu ĠyueĠ
Ġ shu
ĠĠĠ Li
kai ĠzhiĠ
ting ĠĠĠ
zhuan ĠxingĠ
shiĠ yiĠ
shuĠ liang
zhengĠ dang
shouĠ huoĠ
huaĠ daĠ
ĠjiaĠ naĠ
qiuĠ fanĠ
zongĠ zuoĠ
ganĠ junĠ
zengĠ qiang
ĠzhiĠweiĠ yuĠ
sanĠshiĠ nianĠ
a ĠdeĠ
Ġ 1952ĠnianĠ
guo ĠliĠshiĠ
fu ĠliĠdeĠ
wu ĠguoĠ
bo ĠheĠ
suo ĠbuĠtongĠ
shan ĠyiĠ
diao ĠdeĠ
by ĠĠĠ
weiĠ xieĠ
ĠyouĠ jinĠ
ĠbuĠ shao
keĠ keĠ
ziĠ jiaĠ
taiĠ shanĠ
qingĠ zhenĠsiĠ
kaiĠ guanĠ
shuiĠ zhunĠ
ĠyeĠ huiĠ
zhunĠ jueĠsaiĠ
taiĠpingĠ yang
baoĠhanĠ leĠ
diaoĠcha ĠjuĠ
ĠzaiĠzhongĠguoĠ daĠluĠ
Ġ 1958
Ġ Ðµ
Ġ duoĠdeĠ
Ġ neiĠrongĠ
ĠĠĠ AĠ
zu ĠzhongĠ
jiu ĠyiĠjingĠ
cang ĠdeĠ
siĠ yuanĠ
jiaĠ ciĠ
xiangĠ jinĠ
fangĠ ziĠ
ĠbingĠ jiangĠqiĠ
liuĠ tongĠ
kouĠ anĠ
sanĠ jieĠ
ĠguĠ ciĠ
juĠxingĠ leĠ
tiaoĠjianĠ xiaĠ
xue ĠqiĠ
mu ĠxiĠ
luo ĠliĠ
zhuang ĠzaiĠ
hen ĠyouĠ
bin ĠxiĠfaĠ
ĠyuĠ wenĠ
diĠ daiĠ
chuĠ xingĠ
shuĠ liangĠdeĠ
huaĠ banĠ
xinĠ aĠjiĠtan
pingĠ shenĠ
daiĠ kuanĠ
nanĠ duanĠ
biĠ huĠ
laiĠ teĠ
sheĠ zhangĠ
miĠ lanĠ
neiĠ sheĠyouĠ
paiĠ hang
sanĠ cengĠ
ĠyouĠyiĠ weiĠ
Ġling ĠyiĠgeĠ
Ġ faĠyuĠ
en ĠĠĠ
li ĠnianĠ
li ĠwuĠ
zan ĠchengĠ
ĠzaiĠ diĠerĠ
shengĠ qianĠ
houĠ huiĠ
huaĠ gongĠ
zheĠ huiĠ
xinĠ huiĠ
qianĠ zhengĠ
junĠ zhengĠ
yaĠ maĠ
meiĠ tiĠdeĠ
zhenĠ duanĠ
zuiĠ guĠlaoĠdeĠ
ĠxiangĠ jiaoĠyuĠ
chongĠ fengĠ
ĠshiĠjiĠ luĠ
manĠ zhouĠ
ĠyuanĠ zhuĠ
ĠzuiĠ zhongĠyuĠ
ĠjiaoĠ tongĠ
Ġ ping
zuo ĠguoĠ
pi ĠerĠ
deng ĠjiaĠ
na ĠdaoĠ
lin ĠyiĠ
shui ĠzhiĠ
pei ĠyuĠ
sun ĠziĠ
as ĠĠĠ
ĠshiĠ liuĠ
daĠ erĠ
gongĠ qingĠ
wuĠ quĠ
chuĠ bingĠ
haiĠ baoĠkuoĠ
anĠ niĠ
ĠtaĠ danĠrenĠ
dangĠ neiĠ
pinĠ kun
ĠshengĠ mingĠ
ĠdeĠjiĠ heĠ
Ġai ĠdeĠhuaĠ
ĠyouĠmingĠ BDĠ
tianĠran ĠqiĠ
Ġ luan
Ġ guanĠzhongĠ
bao ĠyiĠ
suo ĠfuĠ
ba ĠdiĠ
yao ĠdaoĠ
ĠliĠ kai
jianĠ tingĠ
zhuĠ biĠ
xiangĠ siĠdeĠ
ziĠ taiĠ
faĠ guiĠ
zhanĠ baiĠ
taiĠ leiĠ
shanĠ poĠ
chongĠ baiĠ
daiĠbiaoĠ duiĠ
ĠguoĠjiaĠ gongĠyuanĠ
Ġsan ĠjiaĠ
Ġsi ĠzhiĠ
ĠweiĠfuĠqiĠyuĠgangĠ luĠxingĠmuĠ
Ġ sanĠnianĠ
Ġ chuangĠzuoĠ
xi ĠyueĠ
ĠĠĠ 2001
ĠĠĠ 2001ĠnianĠ
ĠĠĠ 2000ĠnianĠ
yong ĠyouĠdeĠ
feng ĠjiĠ
cai ĠyouĠ
qiang ĠjianĠ
kao ĠdeĠ
hen ĠnanĠ
ĠyuĠ qianĠ
buĠ heĠ
ĠheĠ guĠ
xingĠ fuĠ
shengĠ riĠ
ĠqiĠ daĠ
dongĠ buĠdeĠ
junĠ duiĠdeĠ
dianĠ tiĠ
huoĠ fuĠ
zuiĠ xiaoĠ
ĠshiĠyiĠ huiĠ
linĠ quĠ
hanĠ liangĠ
ĠyiĠjiĠ weiĠ
chongĠ xin
gengĠ gaoĠdeĠ
ĠwangĠ zhanĠ
biĠyeĠ shengĠ
banĠgongĠ tingĠ
feiĠliĠ puĠ
wen ĠxiĠ
lian ĠjiĠ
chen ĠyiĠ
pao ĠjiĠ
1938 ĠnianĠ
ĠzaiĠ beiĠjingĠ
ĠheĠ siĠ
daĠ geĠ
jiaĠ qiĠ
ĠqiĠ mingĠ
ĠdiĠ jiuĠ
yanĠ houĠ
zhanĠ ling
dianĠ yuanĠ
banĠ jingĠ
ĠgeĠ linĠ
ĠjuĠ tiĠ
diĠyiĠ zhiĠ
ĠxueĠ zheĠ
ĠzuoĠ quĠ
ĠzhongĠxin ĠweiĠ
Ġ ãĤ¤
Ġ linĠshiĠ
ji ĠshiĠjieĠ
ĠĠĠ sheĠhuiĠ
jun ĠdaĠ
lun ĠyuĠ
reng ĠshiĠ
ĠshiĠ tiĠ
qiĠ dongĠ
gongĠ siĠzaiĠ
zhuĠ yiĠdeĠshiĠ
ĠjiaĠ siĠ
Ġdan ĠdaoĠ
haiĠ baoĠ
gaoĠ wenĠ
zongĠ jieĠ
caiĠ naĠ
ĠzheĠ liangĠgeĠ
tingĠ boĠ
kaiĠshiĠ houĠ
Ġmo ĠxiĠgeĠ
1 ĠnianĠ
Ġ niuĠyueĠ
Ġ qiuĠjiĠ
ĠĠĠ Se
wang ĠxiĠ
1930 ĠnianĠdaiĠ
ĠdeĠ junĠ
yuĠ leiĠ
diĠ tuĠ
ĠheĠ gongĠ
yuanĠ guĠ
xinĠ siĠ
taiĠ luoĠ
gaiĠ xiaoĠ
jiuĠ fenĠ
manĠ haĠ
faĠshengĠ houĠ
ĠtaĠmen ĠyuĠ
Ġduo ĠrenĠ
luĠyinĠshiĠ zhuanĠjiĠ
Ġ tou
Ġ 1981
Ġ renĠshiĠ
you ĠxingĠ
bi ĠzhongĠ
ti ĠliĠ
biao ĠshiĠweiĠ
zhen ĠzhiĠ
pin ĠyinĠ
hong ĠyiĠ
gaiĠ bianĠweiĠ
ĠfuĠ huaĠ
miĠ maĠ
duoĠ chuĠ
lingĠ muĠ
fanĠ changĠ
lanĠ jieĠ
xiangĠgangĠ dianĠyingĠ
chengĠyuanĠ guoĠ
ĠjiĠluĠ pianĠ
guangĠboĠ dianĠshiĠ
Ġ1938 ĠnianĠ
2 ĠĠĠ
ĠĠĠ songĠ
qian ĠyouĠ
liu ĠliĠ
zong ĠbingĠ
duan ĠdaoĠ
tan ĠwuĠ
qiang ĠxingĠ
48 Ġ
ve Ġ
New ĠĠĠ
ĠjiĠ geĠ
renĠ mingĠ
ĠzaiĠ xiaoĠ
yuanĠ mingĠ
ĠbuĠ qiĠ
shouĠ qiuĠ
xueĠ shengĠdeĠ
ciĠ juĠ
tongĠ yiĠdeĠ
zuĠ shuĠjiĠ
chuanĠ chuĠ
ĠciĠ zhanĠ
ĠdongĠ riĠbenĠ
ĠguoĠjiaĠ zuĠqiuĠduiĠ
bangĠzhuĠ xiaĠ
Ġ2 ĠĠĠ
zhuĠtiĠ quĠ
jiaoĠkeĠ wenĠ
Ġ shouĠjiĠ
Ġ 1954ĠnianĠ
guo ĠĠĠ
cheng ĠĠĠ
wen ĠliĠ
wang ĠjiaĠ
nang Ġ
Ã¼ Ġ
ĠshiĠ neiĠ
ĠzaiĠ dongĠ
jianĠ shouĠ
xiangĠ dang
ziĠ danĠ
duiĠ liuĠ
ĠdeĠyiĠ banĠ
baiĠ se
moĠ shouĠ
ĠfenĠ lanĠ
kangĠ zhanĠ
Ġsui ĠyiĠ
ziĠyouĠ dangĠ
shengĠjiĠ weiĠ
waiĠjiaoĠ guanĠxiĠ
ĠkeĠxiĠtaĠ niĠdaĠquĠ
Ġ gua
mi ĠxiĠxiĠ
san ĠguoĠ
ĠzaiĠ yuanĠ
ĠguoĠ qiĠ
wuĠ shengĠ
jieĠ xianĠ
ĠxiĠ zangĠ
baoĠ leiĠ
yeĠ luĠsaĠ
qingĠ shuiĠ
bianĠ dongĠ
quanĠ xinĠ
ĠxiangĠ xinĠ
chuangĠ banĠrenĠ
Ġzai ĠzhiĠ
suoĠshiĠ yongĠdeĠ
Ġ biaoĠzhiĠ
ji ĠshiĠyongĠ
guo ĠyiĠgeĠ
lian ĠsiĠ
na ĠĠĠ
bai ĠgongĠ
dou ĠyuĠ
huan ĠjiĠ
long ĠheĠ
lou ĠyuĠ
ĠjiĠ suanĠjiĠ
ĠyuĠ tiĠ
buĠ ruĠ
Ġyue ĠĠĠ
juĠ jue
yanĠ yongĠ
ciĠ zhanĠ
ciĠ qianĠ
ĠdaĠ suanĠ
jiangĠ shuiĠ
ĠfuĠ keĠ
tingĠ liuĠ
ĠchuĠ xiĠ
Ġtong ĠnianĠ8ĠyueĠ
Ġri ĠjiĠ
dongĠjiĠ aoĠlinĠpiĠkeĠyunĠdongĠhuiĠ
ĠchongĠ qingĠ
jieĠdaoĠ banĠshiĠchuĠ
Ġ yu
Ġ 55
Ġ Na
nan ĠdaĠxueĠ
nei ĠshiĠ
neng ĠyuĠ
cun ĠjiĠ
cun ĠzheĠ
ĠyiĠ chengĠweiĠ
ĠweiĠ xiaoĠ
guoĠ daoĠ
ĠzhongĠ duanĠ
fuĠ luoĠ
ĠbuĠ zhuĠ
beiĠ zhanĠ
guĠ quanĠ
shanĠ guĠ
neiĠ buĠdeĠ
baiĠ fangĠ
zhuanĠ zhuĠyuĠ
hangĠ tian
shuĠdeĠ dongĠwuĠ
haĠ saĠkeĠsiĠ
jinĠshiĠ chuĠshenĠ
luoĠmaĠ tianĠzhuĠjiaoĠ
aoĠlinĠ piĠ
muĠdiĠ diĠ
ĠniuĠyueĠshiĠ baoĠ
Ġ 1941
Ġ ref
ĠĠĠ mengĠ
ĠĠĠ eĠluoĠsiĠ
wei ĠdeĠguoĠ
fang ĠrenĠ
dui ĠzhongĠguoĠ
biao ĠyuĠ
suo ĠyuĠ
cai ĠzhiĠ
or ĠĠĠ
ĠweiĠ jingĠ
xingĠ geĠ
fuĠ daoĠ
fuĠ zaĠ
mingĠ yunĠ
zhangĠ ai
laiĠ shuo
xieĠ chengĠ
yaoĠ saiĠ
laĠ muĠ
Ġzhe ĠshiĠyiĠ
Ġsui ĠrenĠkouĠ
nongĠcun ĠjuĠminĠ
3 ĠshiĠ
Ġ xuan
Ġ chengĠjiĠ
Ġ ningĠ
Ġ huangĠdiĠ
er ĠshiĠweiĠ
hu ĠshiĠdaiĠ
xin ĠyueĠ
qian ĠheĠ
su ĠjiĠ
chuan ĠdaĠ
color Ġ
ĠshiĠ sanĠ
ĠyiĠ tianĠ
ĠzhongĠ yuanĠ
xiĠ guanĠ
ĠbuĠ men
zuoĠ weiĠshiĠ
guanĠ dongĠ
neiĠ waiĠ
zhuangĠ cunĠ
Ġceng ĠweiĠ
Ġfan ĠzhiĠ
shaoĠshuĠ minĠzuĠ
dangĠweiĠ shuĠjiĠ
Ġ chang
Ġ Vi
Ġ luĠyiĠ
ĠĠĠ bingĠ
ĠĠĠ styleĠ
dian ĠyouĠ
quan ĠliĠdeĠ
liao ĠliĠ
sun ĠshangĠ
zhongĠ xingĠ
daĠ liangĠdeĠ
fuĠ leiĠdeĠ
wuĠ xingĠ
jinĠ xiuĠ
yingĠ yongĠyuĠ
tongĠ guoĠdeĠ
lianĠ aiĠ
biaoĠ yan
ĠdanĠ shuiĠyuĠ
ĠwuĠ erĠ
ĠnianĠ11ĠyueĠ 1ĠriĠ
ĠnianĠzhiĠ qianĠ
ĠyongĠ laiĠ
chuĠbanĠ leĠ
ĠweiĠyuĠgaiĠguoĠ dongĠnanĠbuĠ
you ĠqiĠ
ge ĠnianĠ
jin ĠguoĠ
huo ĠdiĠ
zhang ĠyouĠ
che ĠweiĠ
90 Ġ
2026 ĠnianĠ
ĠyiĠ liangĠ
weiĠ erĠ
daĠ siĠ
ziĠ zhuanĠ
shuĠ xiĠ
ĠriĠ houĠ
haiĠ nanĠ
fengĠ shanĠ
ĠdeĠshiĠ tiĠ
pinĠ qingĠ
ganĠ shouĠ
ĠyeĠ beiĠ
ĠshouĠ duĠ
ĠshuĠ juĠ
ziĠyouĠ yongĠ
beiĠjingĠ daĠxueĠ
ĠduoĠ ciĠ
ĠqiangĠ diaoĠ
lanĠqiuĠ yunĠdongĠyuanĠ
Ġ sanĠgeĠ
Ġ shouĠyuĠ
Ġ 1909ĠnianĠ
you ĠliĠ
fa ĠzaiĠ
zu ĠguoĠ
qing ĠzhongĠ
bo ĠyiĠ
tian ĠzhiĠ
gang ĠxianĠ
long ĠdiĠ
ll ĠĠĠ
1902 ĠnianĠ
ĠyiĠ wanĠ
zhuĠ yuanĠ
xiangĠ wangĠ
ciĠ quanĠguoĠ
zheĠ zuoĠ
huoĠ paoĠ
ĠkeĠ xueĠjiaĠ
gaiĠ yaoĠ
liuĠ wangĠ
youĠ xiaoĠ
caiĠ jueĠ
tingĠ cheĠ
aĠ laĠsiĠ
poĠ haiĠ
zouĠ leĠ
ĠweiĠerĠ siĠ
ouĠzhou ĠguoĠjiaĠ
jingĠcha ĠjuĠ
zhengĠzhiĠxieĠshangĠ huiĠyiĠ
Ġ Mar
ĠĠĠ Con
ĠĠĠ with
wu ĠweiĠyuanĠhuiĠ
ta ĠĠĠ
20 ĠnianĠ
fen ĠheĠ
huo ĠrenĠ
zhen ĠweiĠ
tian ĠjiĠ
jue ĠjiĠ
cui ĠhuaĠ
ĠdeĠ jiaĠ
jianĠ qiao
ĠbuĠ jianĠ
ĠqiĠ daoĠ
ĠdiĠ guoĠdeĠ
yingĠ yuanĠ
biĠ nanĠ
jiuĠ zhouĠ
ĠtaĠ congĠ
quanĠ guo
lingĠ dao
tanĠ taoĠ
qinĠ lve
guoĠjiĠ saiĠ
ĠdangĠ tianĠ
ĠĠĠyiĠ xiaĠshiĠ
ĠaoĠ zhouĠ
Ġ 1966ĠnianĠ
ĠĠĠ cheĠzhan
bing ĠerĠchengĠ
12 ĠnianĠ
wa ĠjieĠ
zen Ġme
ĠshiĠ erĠyueĠ
daĠ gongĠ
yuanĠ junĠ
duiĠ taĠdeĠ
benĠ yingĠ
youĠ taiĠ
fengĠ tianĠ
chanĠ jieĠjiĠ
Ġta ĠbuĠ
ĠsheĠ xianĠ
ĠweiĠzhuĠ tiĠ
Ġ 1978
Ġ huangĠjiaĠ
zhang ĠguoĠ
zu ĠzaiĠ
xie ĠxingĠ
lun ĠweiĠ
chuang ĠyeĠ
wa ĠsiĠ
zeng ĠyuanĠ
kuang ĠyeĠ
der Ġ
ĠshiĠ dangĠdiĠ
ĠzhiĠ shangĠ
zhuĠ geĠ
huiĠ jianĠ
shuĠ ciĠ
baoĠ gao
changĠ chengĠ
huoĠ huaĠ
bianĠ huĠ
zongĠ jiao
maĠ piĠ
chuanĠ chengĠ
chongĠ xiuĠ
chaĠ bieĠ
kaiĠshiĠ leĠ
ĠshiĠshiĠ jianĠ
Ġri ĠshiĠ
Ġba ĠshiĠ
ĠshiĠweiĠyuĠmeiĠguoĠ miĠsuĠliĠ
ĠminĠ jinĠ
gaoĠsu ĠgongĠ
ĠxinĠzengĠ benĠtuĠ
wen ĠrenĠ
te ĠweiĠerĠ
che ĠzaiĠ
tu ĠqiĠ
wa ĠliĠ
background Ġ
buĠ shaoĠ
jingĠ jiĠdeĠ
fangĠ daĠ
baoĠ dongĠ
liangĠ zhouĠ
wanĠ biĠ
zhouĠ weiĠdeĠ
anĠ chaĠsiĠ
suoĠ zuoĠdeĠ
kaiĠ leĠ
ĠdeĠshiĠ daiĠ
ĠmeiĠ ciĠ
leĠyiĠ changĠ
ĠnianĠdai ĠzhongĠqiĠ
waiĠjiaoĠ guanĠ
aĠfuĠ hanĠ
neiĠruiĠ laĠ
Ġ Y
ĠĠĠ cong
ĠĠĠ colspanĠ
jing ĠqiĠ
qing ĠqiĠ
xu ĠyouĠ
nei ĠjiĠ
gang ĠweiĠ
ĠjiĠ bai
ĠjiĠ muĠ
jianĠ mianĠ
jinĠ gangĠ
shuĠ qianĠ
zhengĠ quan
shangĠ huoĠdeĠ
guanĠ junĠdeĠ
qianĠ quĠ
pingĠ pangĠqiuĠ
haiĠ an
benĠ pianĠ
yaoĠ suĠ
guĠ baĠ
zhuanĠ ye
longĠ leiĠ
canĠ junĠ
ĠĠĠshiĠ jieĠ
keĠliĠ fuĠ
fenĠbie ĠyuĠ
ĠweiĠyuĠgaiĠguoĠ beiĠbuĠ
ĠĠĠ i
nan ĠyouĠ
ben ĠzhongĠ
san ĠsiĠ
hao ĠzhongĠziĠ
lv ĠchengĠ
niu Ġyue
ĠheĠ dongĠ
jieĠ kouĠ
xiangĠ linĠ
shouĠ beiĠ
jingĠ juĠ
luoĠ wenĠ
ĠdeĠyiĠ keĠ
liuĠ langĠ
ĠmuĠ qin
ĠshiĠzhenĠ fanĠweiĠneiĠ
ĠĠĠshiĠ shiĠ
daiĠbiao ĠxingĠ
Ġjin ĠnianĠ
boĠshiĠ dunĠ
Ġmi ĠerĠ
ĠrenĠkou ĠweiĠ
ĠfuĠlangĠ shenĠ
Ġ 1939
Ġ sheĠzhiĠ
Ġ backgroundĠ
zi ĠyouĠdeĠ
gu ĠjiaĠ
ru ĠjiĠ
lai ĠbuĠ
ma ĠdeĠliĠ
che ĠrenĠciĠ
ĠyuĠ liĠ
jiaĠ banĠ
ziĠ diĠ
ĠdaĠ qiao
taiĠ kong
zhangĠ chengĠ
ĠjinĠ siĠ
ĠzhuĠ ruĠ
chongĠ qingĠshiĠ
ĠyeĠ meiĠyouĠ
ĠdeĠzhiĠ yeĠ
zengĠ jiaĠzhiĠ
ĠyongĠ huĠ
Ġma ĠerĠ
ĠnianĠyiĠ houĠ
Ġ jia
ĠĠĠ Mi
ĠĠĠ xianĠshiĠ
bi ĠyiĠ
bi ĠxiĠ
jiu ĠxingĠ
lian ĠxingĠ
ceng ĠyiĠ
ĠweiĠ juĠ
ĠyuĠ daoĠ
fuĠ fuĠ
zhuĠ xianĠ
ciĠ shanĠ
huaĠ fenĠweiĠ
yingĠ gai
zuoĠ wuĠ
banĠ qiuĠ
gaoĠ tieĠ
ĠziĠ jinĠ
lunĠ baoĠ
kaiĠshiĠ zhiĠ
ĠnianĠ6ĠyueĠ 30ĠriĠ
yinĠyueĠ jiaĠ
ĠyaoĠ qiu
miaoĠshuĠ leĠ
ĠhouĠlai ĠzaiĠ
yaĠmeiĠ niĠya
muĠniĠ heiĠ
9 ĠgeĠ
Ġ 1944
Ġ yingĠliĠ
ĠĠĠ Ba
che ĠheĠ
lun ĠjiaĠ
diao ĠkeĠ
zuan Ġ
yuanĠ dongĠ
siĠ huĠ
zhengĠ houĠ
zuoĠ keĠ
xinĠ cunĠ
zhangĠ jiaĠ
liangĠ ce
sheĠ tuanĠ
ĠyiĠzhiĠ jiĠ
ĠxianĠluĠ kouĠ
ĠgaiĠbianĠ ziĠ
luĠwa ĠerĠshengĠ
1 ĠĠĠ
5 ĠmingĠ
wei ĠyiĠjiĠ
luo ĠxiĠ
se ĠheĠ
ĠyiĠ tiaoĠ
ĠyouĠ shengĠ
ĠyouĠ liangĠgeĠ
siĠ taĠ
huiĠ laiĠ
ĠdaĠ suan
zuoĠ yong
jiuĠ mingĠ
chuanĠ jiaoĠ
canĠ zhanĠ
ĠluoĠ neĠ
wuĠkeĠ lanĠdeĠ
xingĠyuĠ leiĠ
ĠweiĠsiĠ teĠ
keĠsaĠsiĠ zhouĠ
Ġ 37
Ġ 1937
Ġ VĠ
Ġ 1964ĠnianĠ
Ġ 1977ĠnianĠ
min ĠzhiĠ
15 ĠnianĠ
ĠshiĠ jiĠshiĠ
ĠzaiĠ changĠ
yuanĠ shuai
chengĠ weiĠyiĠgeĠ
ĠxiĠ riĠbenĠ
juĠ xing
guanĠ wangĠ
qianĠ tiĠ
banĠ gong
liangĠ jieĠ
quanĠ shengĠ
kongĠ gu
ĠlianĠ saiĠ
riĠben ĠrenĠ
ĠtaĠmen ĠshiĠ
Ġ 1960
Ġ Fi
bi ĠliĠyaĠ
ming ĠĠĠ
lai ĠjiĠ
nu ĠsiĠ
cu ĠchengĠ
ĠshiĠ hanĠguoĠ
ĠweiĠ xieĠ
jianĠ guanĠ
chengĠ xiĠ
xianĠ fengĠ
chuĠ beiĠ
shuĠ niu
jingĠ taiĠ
taĠ shouĠ
yeĠ yinĠ
ĠfuĠ luĠ
zhouĠ wuĠ
jiuĠ yeĠ
huĠ anĠ
zongĠ seĠ
maĠ niĠ
youĠ taiĠrenĠ
sanĠ fenĠzhiĠ
ĠzheĠ shouĠ
ĠwuĠ lunĠ
chongĠ qing
ĠzhanĠ muĠsiĠ
ĠĠĠshiĠ jiĠ
ĠjianĠzhuĠ mianĠjiĠ
yingĠxiang ĠliĠdeĠ
ĠĠĠxiaĠ shuĠ
Ġ 39
si ĠweiĠerĠ
yao ĠyuĠ
wai ĠxianĠ
re ĠdeĠ
rui ĠshiĠdeĠ
guai ĠwuĠ
sis Ġ
ĠyouĠ chengĠweiĠ
jianĠ die
ĠqiĠ leĠ
ĠsiĠ faĠ
ĠfuĠ nieĠ
lianĠ suoĠ
bianĠ huiĠ
ĠyiĠjiĠ jiĠ
pinĠ pai
gouĠ ruĠ
ĠyuanĠ laiĠ
Ġcong ĠshiĠ
ĠdiĠyiĠ ciĠ
zongĠduĠ fuĠ
jiangĠxiĠ shengĠ
feiĠteĠ lieĠ
Ġ tuo
Ġ xueĠyuanĠ
Ġ qingĠnianĠ
lei ĠbuĠ
rong ĠyeĠ
sa ĠliĠ
lao ĠrenĠ
ĠyuĠ 2021
ĠheĠ geĠ
jieĠ shao
jieĠ daiĠ
ĠqiĠ yuanĠyuĠ
xinĠ jiangĠweiĠwuĠerĠ
jiaoĠ tongĠbuĠ
xiaoĠ duiĠ
huoĠ pao
haiĠ yaoĠ
guĠ yuanĠ
ĠbingĠ ruĠ
piĠ quanĠguoĠzhongĠdianĠwenĠwuĠbaoĠhuĠdanĠweiĠ
ĠshangĠ haiĠshiĠ
ĠtaiĠ beiĠshiĠ
kaoĠ liangĠ
ĠdeĠyiĠgeĠ quĠ
genĠ sui
yinĠqiĠ leĠ
ĠheiĠlongĠjiangĠ shengĠ
Ġ Lo
Ġ nengĠgouĠ
ĠĠĠ zaiĠyiĠ
ta ĠzhiĠ
ying ĠzhongĠ
gang ĠzhiĠ
1949 ĠnianĠ
III Ġ
ĠzhongĠ shan
xiangĠ taĠ
ziĠ ji
faĠ junĠ
xueĠ yanĠjiuĠ
ĠriĠ yuanĠ
bingĠ duiĠ
ĠjiaĠ qingĠ
gaiĠ sheĠ
ĠtaĠ keĠyiĠ
tuĠ jueĠ
ĠdanĠ shuiĠ
jueĠ ceĠ
chuanĠ foĠjiaoĠ
chuangĠ shangĠ
ĠtangĠ chaoĠ
ĠyunĠ xuĠ
luoĠfuĠ siĠkeĠ
shengĠdaoĠ taiĠ
ĠÐµ Ġ
Ġ qiu
Ġ nie
Ġ 1975ĠnianĠ
li ĠxiangĠ
da ĠliĠyuĠ
ping ĠheĠ
lian ĠyiĠ
kai ĠguoĠ
mian ĠbuĠ
sha ĠheĠ
shuang ĠxiangĠ
cang ĠyuĠ
ĠjiĠ jiaĠ
zhongĠ wenĠ
renĠ qiĠ
ĠheĠ shengĠ
xiĠ zang
geĠ changĠ
chengĠ daĠ
chengĠ menĠ
beiĠ po
jinĠ shengĠweiĠ
shouĠ tiĠ
dongĠ yinĠduĠ
yingĠ yangĠ
pingĠ fenĠ
ruĠ tongĠ
ĠfuĠ qiĠ
laiĠ enĠ
minĠ ganĠ
dengĠ jiangĠ
duoĠ yangĠxingĠ
paiĠ xuĠ
douĠ nengĠ
canĠyuĠ zheĠ
ĠshenĠ tiĠ
daoĠshiĠ yueĠtaiĠ
ĠhuoĠdeĠ leĠ
bianĠchengĠ leĠ
fuĠluoĠliĠdaĠ zhouĠ
ĠĠĠ 13
ĠĠĠ guiĠdaoĠ
cheng ĠliĠyiĠ
gu ĠzhiĠ
ling ĠweiĠ
weiĠ laiĠ
buĠ shuĠ
ĠdaĠ duiĠ
dianĠ dongĠ
ĠjiaĠ daĠ
feiĠ chengĠ
leiĠ bieĠ
paiĠ wangĠ
eĠ lieĠ
shaĠ shouĠ
nianĠ lingĠ
ĠshangĠ wuĠ
ĠshiĠweiĠyuĠ wuĠkeĠlanĠ
5 ĠwanĠ
j Ġ
Ġ zuo
Ġ 47
Ġ Ar
an ĠyiĠ
ao ĠbuĠ
ĠĠĠ dang
ĠĠĠ longĠ
ĠĠĠ juĠliĠ
ĠĠĠ 7Ġ
zhi ĠshiĠdeĠ
zhou ĠdiĠ
zong ĠrenĠkouĠdeĠ
gang ĠdaoĠ
pu ĠxianĠ
ĠweiĠ taiĠwanĠ
heĠ erĠ
ĠyouĠ gaiĠ
faĠ wenĠ
ĠdaĠ junĠ
ĠfuĠ fuĠ
yaĠ teĠ
zhouĠ xianĠ
guĠ tiĠ
guiĠ ding
ĠyiĠjiĠ qiĠtaĠ
ĠĠĠyiĠ xiaĠweiĠ
sheĠliĠ leĠ
ĠweiĠyuĠgaiĠguoĠ zhongĠbuĠ
taiĠfengĠ jingĠbao
0 ĠbiĠ
1 ĠzhiĠ
Ġ onlyinclude
Ġ luĠdeĠ
Ġ xinĠxiĠ
Ġ gaoĠzhongĠ
xin ĠshiĠzhenĠ
nan ĠheĠ
deng ĠzhiĠwuĠ
zhen ĠliĠ
zhuan ĠxianĠ
can ĠjianĠ
kun Ġnan
cu ĠshiĠ
zei Ġ
ĠyiĠ ge
guoĠ qiĠ
ĠyouĠ diĠ
shouĠ jiaĠ
changĠ wuĠ
duiĠ zhanĠ
ruĠ wuĠ
lianĠ qiuĠ
luoĠ naĠ
haoĠ maĠ
guiĠ ze
fuĠza ĠdeĠ
ĠhaĠerĠ binĠshiĠ
ĠfeiĠlvĠ binĠ
Ġonlyinclude Ġ
Ġ 32
quan ĠnianĠ
san ĠriĠ
lun ĠyiĠ
bie ĠrenĠ
ers Ġ
text Ġ
ĠshiĠ shengĠ
ĠdeĠ xinĠ
xiangĠ fanĠ
faĠ dingĠ
ĠxiĠ junĠ
baoĠ guangĠ
huaĠ leĠ
tongĠ kuĠ
junĠ yongĠ
ĠgeĠ luĠ
taoĠ huiĠ
ĠyouĠyiĠ zhongĠ
ĠnianĠjianĠ chengĠ
ruoĠ ganĠ
ĠkaĠ laĠ
ĠnvĠ xingĠweiĠ
ĠliĠheĠ wuĠzhengĠzhuangĠganĠranĠzheĠ
meiĠguoĠyiĠ liĠnuoĠyiĠ
a ĠkeĠ
Ġ kuan
Ġ 1960ĠnianĠ
ban ĠdiĠ
xu ĠyueĠ
sha ĠyuĠ
long ĠyuĠ
ĠyouĠ zhongĠguoĠ
siĠ wang
jianĠ puĠ
huiĠ gui
shuĠ xueĠjiaĠ
riĠ jianĠ
ĠxiĠ shuĠ
ciĠ keĠ
duiĠ daiĠ
ĠfuĠ teĠ
ĠtaĠ hai
baĠ biĠ
ĠbeiĠ fangĠ
ĠxiangĠ fanĠ
tangĠ chaoĠ
ĠyeĠ jianĠ
tanĠ ceĠ
leĠyiĠ zuoĠ
anĠdeĠ lieĠ
guoĠminĠ zhengĠfuĠ
ĠteĠbie ĠshiĠzaiĠ
Ġxu ĠliĠyaĠ
teĠlangĠ puĠ
baĠleĠsiĠ tanĠ
Ġ 1976ĠnianĠ
Ġ 1968ĠnianĠ
ĠĠĠ laiĠ
le ĠrenĠ
ceng ĠjiĠ
gun ĠqiuĠ
id Ġ
ĠweiĠ niĠ
daĠ gangĠ
shouĠ yaoĠ
zuoĠ ciĠ
taiĠ zongĠ
minĠ bingĠ
xieĠ huiĠdeĠ
yangĠ quĠ
suoĠ xiaoĠ
fanĠ chouĠ
ĠgeĠ geĠ
ĠdeĠyiĠ tiĠ
suĠ chengĠ
ĠzhuĠ changĠ
yiĠshiĠ xingĠtaiĠ
ĠjingĠ chaĠ
3Ġ gongĠliĠ
leĠyiĠ fenĠ
ĠgenĠjuĠ 2010ĠnianĠmeiĠguoĠrenĠkouĠpuĠchaĠ
kangĠriĠ zhanĠzhengĠ
youĠxianĠ gongĠsiĠ
Ġ lieĠche
bu ĠshiĠyongĠ
jin ĠliĠ
gu ĠgongĠ
gu ĠshiĠdeĠ
biao ĠzhongĠ
ma ĠdaĠ
kou ĠshiĠ
pu ĠbuĠ
mai ĠdiĠ
ĠyiĠ liao
ĠjiĠ yaĠ
guoĠ junĠ
xiĠ junĠ
xianĠ huaĠ
ĠqiĠ huaĠ
chuĠ dongĠ
ĠxiĠ wang
gaiĠ yongĠ
ĠdaoĠ guangĠ
bianĠ tiĠ
zuiĠ chu
yunĠ suanĠ
ĠbingĠ renĠweiĠ
shanĠ zhanĠ
ĠziĠ zhuĠ
tingĠ banĠ
ĠjuĠ baoĠdaoĠ
zhuanĠ huan
kaĠ teĠ
poĠ chanĠ
Ġ2011 ĠnianĠ12ĠyueĠ31ĠriĠ
tanĠxianĠ duiĠ
zhuanĠkeĠ xueĠxiaoĠ
ĠÐ¸ Ġ
Ġ To
Ġ shangĠdeĠ
Ġ kenĠ
ĠĠĠ waiĠ
bei ĠzaiĠ
wen ĠzaiĠ
mian ĠheĠ
na ĠkeĠ
bai ĠjiĠ
chen ĠyuĠ
mao ĠliĠ
ĠnianĠ zaiĠweiĠ
ĠyouĠ guoĠ
gongĠ keĠ
erĠ zhanĠ
geĠ quĠdeĠ
chuĠ fangĠ
huiĠ luĠ
jinĠ ciĠyuĠ
shuĠ maĠ
quĠ yuĠdeĠ
pingĠ heng
duoĠ huiĠ
quanĠ chengĠ
ĠbingĠ danĠrenĠ
huĠ guangĠ
caiĠ fangĠshiĠ
ĠjianĠ chiĠ
gangĠ quĠ
naĠ me
zaoĠ qi
Ġdang ĠriĠ
ĠweiĠyuĠgaiĠguoĠ nanĠbuĠ
gaoĠdengĠ jiaoĠyuĠ
zhuangĠweiĠ linĠ
Ġ 1935ĠnianĠ
ĠĠĠ piĠ
ĠĠĠ suiĠzhuĠ
mi ĠbuĠ
mu ĠzaiĠ
ling ĠzaiĠ
feng ĠyiĠ
lun ĠliĠ
hen ĠjiĠ
ĠweiĠ teĠ
ĠyouĠ yuanĠ
ĠyouĠ xuĠduoĠ
ĠzhongĠ liangĠ
ĠyueĠ tanĠ
fuĠ diĠ
chuĠ cunĠ
jinĠ jiangĠ
ĠxiĠ huan
zhengĠ zhaoĠ
zhengĠ queĠdeĠ
yinĠ siĠ
xiaĠ shuĠdeĠ
haiĠ zhanĠ
nanĠ yangĠ
qingĠ chao
xieĠ leĠ
shanĠ shangĠ
zongĠ tongĠdeĠ
ĠdanĠ que
aĠ muĠsiĠ
ĠyuanĠ ben
zhengĠzhiĠ weiĠyuanĠ
ĠzhangĠ danĠquĠ
ĠĠĠbuĠ guoĠ
huoĠdong ĠzhongĠ
jieĠquanĠguoĠ renĠdaĠdaiĠbiaoĠ
dongĠcheĠ zuĠ
ĠxinĠzeng ĠjingĠwaiĠshuĠruĠ
baoĠkuoĠyiĠxiaĠ wuĠzhongĠ
1 ĠyiĠ
Ġ Me
Ġ ziĠzhiĠ
Ġ chengĠrenĠ
ĠĠĠ dangĠshiĠ
ĠĠĠ 1999ĠnianĠ
zhong ĠdeĠyiĠgeĠ
dong ĠweiĠ
bian ĠzaiĠ
hun ĠxiaoĠ
ning ĠboĠ
mm Ġ
ĠzhiĠ liĠyuĠ
ĠyuĠ 2015
ĠyuĠ xianĠ
daĠ tongĠ
keĠ yongĠ
keĠ cheĠ
ĠqiĠ shengĠ
jingĠ yingĠdeĠ
qingĠ chun
suoĠ zuoĠ
biaoĠ zhangĠ
ĠbeiĠ poĠ
zuĠqiuĠ jiaĠjiĠ
xuanĠbuĠ jiangĠ
ĠyouĠxianĠ gongĠsi
ĠĠĠbenĠ zhanĠ
yuanĠzhuĠ min
ĠĠĠzaoĠnianĠ shengĠhuoĠ
Ġ qia
ĠĠĠ To
ing Ġ
feng ĠliĠ
feng ĠheĠ
sha ĠliĠ
ĠweiĠ neng
daĠ saiĠ
chuĠ quĠ
huiĠ seĠ
yanĠ chiĠ
changĠ yongĠ
xiaoĠ haiĠ
duĠ tongĠ
miĠ qie
miĠ teĠ
ĠtaĠ kaiĠshiĠ
maĠ tou
hanĠ minĠguoĠ
diĠyiĠ jiaĠ
ĠyuanĠ xianĠ
ĠyouĠyuĠ qiĠ
ĠnanĠ fangĠ
ĠshenĠ duĠ
dianĠying ĠzhiĠ
haĠerĠ keĠfuĠ
touĠruĠ fuĠwuĠ
Ġ tui
Ġ 1942
Ġ 1943
ĠĠĠ qiuĠ
ke ĠzhongĠ
zi ĠyueĠ
yong ĠrenĠ
ba ĠjiĠ
lei ĠgeĠ
bai ĠqiĠ
duan ĠzhiĠ
chong ĠxianĠ
ĠyuĠ fuĠ
heĠ nanĠ
wuĠ xiaoĠ
ĠbuĠ yuanĠ
zhuĠ muĠ
xiangĠ jieĠ
tongĠ banĠ
zuoĠ zhan
ĠfuĠ yinĠ
anĠ chaĠshiĠ
guangĠ huaĠ
ĠziĠ chengĠ
guoĠjiĠ saiĠshiĠ
kanĠ saĠsiĠ
ĠyanĠ jiu
qiĠshiĠ daiĠ
hengĠ kua
daiĠbiao ĠdaĠ
guoĠminĠ geĠmingĠ
waiĠguoĠ renĠ
siĠlanĠ jiaoĠ
xingĠzheng ĠzhongĠxinĠ
Ġ bieĠ
Ġ yaĠliĠshanĠdaĠ
sh Ġ
xi ĠzhiĠxingĠ
ying ĠqiĠ
mei ĠyiĠgeĠ
du ĠqiĠ
xiao ĠqiĠ
wai ĠdiĠ
lin ĠjiaĠ
ĠheĠ taĠdeĠ
wenĠ nuan
lingĠ jianĠ
yunĠ keng
laĠ shengĠ
baiĠ eĠluoĠsiĠ
shaĠ leĠ
gengĠ haoĠdeĠ
kanĠ dengĠ
Ġhou ĠrenĠ
wangĠqiuĠ gongĠkaiĠsaiĠ
ĠzaiĠjiaĠ shangĠ
ĠjinĠbiaoĠ saiĠ
Ġ zhu
Ġ ãĤ
Ġ 1975
Ġ wuĠdeĠ
Ġ wuĠyiĠ
Ġ tĠ
ĠĠĠ ha
ĠĠĠ xieĠ
ĠĠĠ yinĠciĠ
ĠĠĠ rongĠyuĠ
zhi ĠshiĠyiĠ
deng ĠgongĠ
fei ĠweiĠ
hao ĠyiĠ
na ĠyuĠ
nv ĠshengĠ
zang ĠliĠ
ziĠ shenĠdeĠ
ĠxiĠ ceĠ
quĠ fuĠ
juĠ huaĠ
qingĠ jingĠ
boĠ lin
saiĠ huiĠ
ĠdanĠ ciĠ
niĠ poĠerĠ
queĠ ding
ĠtongĠ yang
ĠdangĠ diĠdeĠ
wanĠchengĠ houĠ
jueĠseĠ banĠyan
Ġ1940 ĠnianĠ
Ġ ãģĦ
Ġ ãĤ¹
Ġ quĠyuĠ
Ġ gongĠshiĠ
Ġ 1934ĠnianĠ
ĠĠĠ shangĠyeĠ
qi ĠĠĠ
dao ĠyueĠ
ci ĠbuĠ
huo ĠzhongĠ
huo ĠqiĠ
lei ĠyiĠ
yun ĠjiĠ
chan ĠchuĠ
1940 ĠnianĠ
ĠshiĠ riĠben
ĠzhiĠ jiaĠ
ĠzhiĠ zhuĠ
jieĠ shuĠshiĠ
chuĠ waiĠ
ĠxiĠ linĠ
tongĠ zhiĠdeĠ
guanĠ zhangĠ
changĠ guanĠ
xiaoĠ mie
wangĠ gongĠ
kongĠ jianĠdeĠ
zhaoĠ mingĠ
Ġer ĠyouĠ
ĠnianĠ6ĠyueĠ 1ĠriĠ
guoĠshiĠ daiĠ
ĠranĠ er
ĠjinĠguanĠ ruĠciĠ
ĠshiĠziĠ lvĠ
xiuĠzhengĠ anĠ
Ġ zaoĠzaiĠ
yue ĠyouĠ
hui ĠweiĠyuanĠ
guan ĠliĠjiĠ
yao ĠyiĠ
tian ĠheĠ
na ĠjiĠ
wai ĠshiĠ
10 ĠshiĠ
ĠdeĠ daĠ
ĠjiĠ linĠ
ĠzaiĠ meiĠ
ĠzhongĠ jieĠ
jianĠ juĠ
xiangĠ yingĠdeĠ
yeĠ jiangĠ
xinĠ shangĠ
xiaĠ menĠ
nanĠ quĠ
ĠfuĠ jiaĠ
boĠ huiĠ
ĠgaiĠ mingĠ
ganĠ sheĠ
tangĠ naĠ
ĠboĠ geĠ
ĠgaoĠ su
sanĠshiĠ siĠnianĠ
zaĠ zhiĠdeĠ
ĠĠĠbenĠshuĠ baoĠkuoĠyiĠxiaĠwuĠzhongĠ
2 ĠjiaĠ
Ġ dun
Ġ 1947
lai ĠzaiĠ
shan ĠxingĠ
lie ĠzhiĠ
suan ĠshiĠ
13 ĠnianĠ
peng ĠzhangĠ
Ġli ĠĠĠ
diĠ qu
siĠ lingĠbuĠ
ĠdiĠ shangĠ
zhengĠ yiĠdeĠ
bingĠ qie
xiaĠ shu
shenĠ xiangĠ
gaoĠ chuĠ
suoĠ enĠ
maĠ geĠliĠ
leiĠ muĠ
sanĠ haoĠ
ĠyeĠ wuĠ
fanĠduiĠ paiĠ
zhouĠliĠ daĠxueĠ
Ġ zhunĠ
Ġ zaoĠdaoĠ
Ġ 1972ĠnianĠ
ĠĠĠ 11
ĠĠĠ 1945
ĠĠĠ zhouĠ
ĠĠĠ CĠ
mei ĠyouĠjiĠ
xin ĠweiĠ
xin ĠjiĠshuĠ
du ĠerĠ
fan ĠxingĠ
zhuang ĠxiangĠ
huan ĠxianĠ
80 ĠnianĠdaiĠ
daĠ jinĠ
jieĠ yanĠ
keĠ jiaĠ
xianĠ jingĠ
changĠ zhuĠ
qianĠ wanĠ
liangĠ jianĠ
bianĠ huaĠdeĠ
baĠ qiangĠ
puĠ bian
ĠgaiĠ mingĠweiĠ
gouĠ chengĠdeĠ
xueĠyuanĠ yuanĠzhangĠ
yinĠduĠ jiaoĠ
ĠmianĠ duiĠ
gaoĠsuĠ tieĠluĠ
ĠxiongĠ yaĠliĠ
ĠmaoĠ zeĠdongĠ
jiaoĠchaĠ kouĠ
puĠluoĠ wangĠsiĠ
6 ĠshiĠ
Ġ dongĠjiĠ
Ġ shanĠxiĠshengĠ
Ġ 1933ĠnianĠ
Ġ 1927ĠnianĠ
ĠĠĠ guiĠ
ĠĠĠ zheĠzhongĠ
cheng ĠyiĠzhiĠ
dong ĠdiĠ
huo ĠyouĠ
duo ĠyouĠ
nei ĠgongĠ
zhuang ĠheĠ
tuan ĠyuanĠ
ĠdeĠ chengĠjiĠ
ĠjiĠ dongĠ
ĠrenĠ junĠ
ĠbuĠ guo
yingĠ jianĠ
yeĠ zheĠ
biĠ yaoĠdeĠ
banĠ lvĠ
wanĠ juĠ
jiuĠ nengĠ
xuanĠ gua
fengĠ xiangĠ
ĠjinĠ gangĠ
shuiĠ yuanĠ
ĠfaĠ sheĠ
2Ġ ri
ranĠ seĠ
dianĠshiĠ tai
xingĠzhengĠ zhangĠguanĠ
Ġgao ĠshiĠ
ĠbuĠsiĠ baoĠ
ĠqiĠzhongĠnanĠ xingĠweiĠ
Ġ mang
Ġ jiaĠshiĠ
zhang ĠqiĠ
ya ĠqiĠ
sai ĠyiĠ
hao ĠzhiĠ
tan ĠxingĠ
tun ĠbingĠ
heĠ zhongĠ
xingĠ rongĠ
gongĠ kai
shuĠ zhangĠ
zheĠ xueĠjiaĠ
taiĠ zuĠ
wanĠ faĠ
ĠtaĠ yinĠ
shaĠ moĠ
tangĠ muĠ
erĠshiĠ yuĠ
ĠzuoĠ jiaĠ
ĠyiĠjingĠ beiĠ
ĠmeiĠguoĠ guoĠjiaĠ
ĠĠĠzhiĠ houĠ
xiangĠshiĠ juĠrenĠ
genĠju ĠdiĠ
ĠĠĠguangĠ xuĠ
Ġ ken
Ġ à¤
Ġ jingĠliĠ
ĠĠĠ Ca
ĠĠĠ shanĠ
ĠĠĠ mingĠchengĠ
jie ĠbuĠ
bing ĠdiĠ
bao ĠerĠ
she ĠyouĠyiĠ
ba ĠzaiĠ
liu ĠzhongĠ
tu ĠzhiĠ
neng ĠshiĠ
kan ĠchuĠ
zan ĠyangĠ
ĠweiĠ xinĠ
ĠjiĠ jiangĠ
fuĠ lang
shouĠ gou
yanĠ geĠdeĠ
shenĠ bianĠ
jiuĠ jinĠshanĠ
lingĠ hunĠ
tianĠ wangĠ
shaĠ teĠ
ĠzhongĠguoĠ guoĠjiaĠ
piĠ luĠ
2Ġ miĠ
ĠjiangĠ junĠ
ĠyingĠ pianĠ
shuangĠ chongĠ
2001ĠnianĠ zongĠrenĠkouĠ
ĠjiĠbaiĠ leĠ
ĠxingĠzhengĠ yuanĠ
Ġbo ĠerĠ
laĠjiĠ miĠerĠ
ĠyiĠsiĠlanĠ jiaoĠ
Ġ1970 ĠnianĠ
ĠĠĠgaiĠdiĠ 2001ĠnianĠzongĠrenĠkouĠ
Ġ zhan
Ġ nanĠbuĠ
ĠĠĠ Do
ban ĠzhongĠ
la ĠgongĠ
lan ĠrenĠ
gan ĠheĠ
bie ĠmingĠ
ĠweiĠ ruan
Ġyou ĠliĠdeĠ
xingĠ faĠ
gongĠ wuĠyuanĠ
chengĠ yuanĠdeĠ
ĠxiĠ guanĠ
houĠ qin
duĠ tuĠ
daiĠ haoĠ
ĠdanĠ gaiĠ
puĠ dunĠ
ĠyinĠ yingĠ
canĠ yuĠdeĠ
ĠtongĠ changĠshiĠ
hunĠ luan
ĠteĠ bieĠ
xueĠshengĠ huiĠ
ĠĠĠzhiĠ beiĠ
Ġmei ĠliĠ
Ġzong ĠheĠ
lingĠdaoĠ xiaĠ
chiĠxuĠ daoĠ
Ġhu ĠyuĠ
Ġbo ĠsiĠ
jinĠyiĠ buĠdeĠ
Ġ6 ĠsuiĠrenĠkouĠ
aiĠhaoĠ zheĠ
6 ĠmiĠ
Ġ 59
ĠĠĠ de
ĠĠĠ peiĠ
jin ĠweiĠzhiĠ
huo ĠdeĠyiĠ
deng ĠguoĠ
sui ĠyiĠ
cun ĠyouĠ
34 Ġ
ĠshiĠ qingĠ
ĠshiĠ douĠ
ĠweiĠ zhongĠguoĠ
xiĠ huanĠ
jianĠ geĠ
shangĠ beiĠ
zhanĠ zhengĠshiĠ
ĠsiĠ huĠ
xiaĠ laiĠdeĠ
ĠfuĠ lang
dangĠ zhuĠ
ĠbaoĠ han
ĠyiĠjiĠ qiĠ
aĠ kenĠseĠ
shaoĠ qingĠ
ĠwanĠ dunĠ
ĠshiĠwuĠ suoĠ
ĠwenĠ jianĠ
Ġmo ĠerĠ
yunĠshiĠ keng
zhuĠjiaoĠzuoĠ tangĠ
Ġ 1956
Ġ 1955
Ġ Ha
Ġ buĠyiĠ
ji ĠshiĠdeĠ
er ĠshiĠyiĠ
bao ĠzaiĠ
ping ĠyuĠ
duo ĠzaiĠ
tian ĠyuĠ
chao ĠrenĠ
18 ĠnianĠ
zan ĠshangĠ
ĠyiĠ shuoĠ
ĠweiĠ reĠdai
ĠyouĠ geĠ
daĠ geĠming
fuĠ kaĠ
baoĠ mingĠ
tiĠ duĠ
dianĠ ziĠyouĠ
yongĠ daoĠ
cheĠ shenĠ
maoĠ zeĠ
ĠzhanĠ douĠ
ĠdiĠerĠ geĠ
cuoĠ wuĠdeĠ
xiaoĠfeiĠ zheĠ
juĠfeng ĠzhongĠxinĠ
ĠgeĠlunĠ biĠyaĠ
3 ĠfenĠ
chu ĠyiĠgeĠ
zhuan ĠyiĠzhiĠ
chuang ĠliĠdeĠ
kan ĠqiĠlaiĠ
ĠrenĠ men
ĠzhongĠ zhengĠ
yuanĠ dingĠ
wuĠ laĠ
keĠ yanĠ
shengĠ tai
xiangĠ dangĠyuĠ
yanĠ jinĠ
ĠdaĠ xuanĠ
qianĠ zuoĠ
pingĠ tanĠ
duĠ chengĠ
muĠ changĠ
lianĠ huaĠ
haoĠ laiĠwuĠ
huanĠ jing
zhaoĠ shengĠ
ĠciĠ riĠ
ĠshiĠjiĠ weiĠ
Ġtong ĠnianĠ7ĠyueĠ
langĠ manĠ
zaiĠyiĠ ciĠ
ĠweiĠyuĠfaĠguoĠ daĠdongĠbuĠdaĠquĠ
chanĠpin ĠdeĠ
Ġlu ĠyiĠsiĠ
ĠW Ġ
2019ĠguanĠzhuangĠbingĠduĠ bingĠyiĠ
Ġ juĠjiĠ
Ġ hĠ
ĠĠĠ xingĠtaiĠ
xue ĠyiĠ
san ĠxianĠ
na ĠbuĠ
chuo ĠhaoĠ
ĠdeĠ guiĠdaoĠ
daoĠ xianĠ
huiĠ yanĠ
ĠxiĠ shengĠ
guanĠ mingĠ
wanĠ cheng
duoĠ tianĠ
baiĠ leĠ
cengĠ mianĠ
Ġtong ĠjiĠ
rongĠ ruĠ
shengĠwuĠ xueĠjiaĠ
ĠfenĠbuĠyuĠ nanĠmeiĠzhouĠ
ĠĠĠliĠ ruĠ
3 ĠmiĠ
Ġ heĠjiĠ
Ġ tuĠdiĠ
Ġ 1974ĠnianĠ
Ġ 1931ĠnianĠ
ĠĠĠ Si
ĠĠĠ Ho
ĠĠĠ cengĠ
ĠĠĠ yiĠshiĠ
ru ĠqiĠ
lin ĠjiĠ
tes Ġ
ĠyuĠ 2020
ĠrenĠ chengĠ
ĠrenĠ shouĠ
wuĠ junĠ
xianĠ qiĠ
beiĠ juĠ
yingĠ quĠ
xinĠ ze
duĠ caiĠ
quanĠ leiĠdaĠ
ĠgaiĠ xianĠ
diĠyiĠ zuoĠ
1Ġ gongĠliĠ
ranĠ shaoĠ
yueĠ laiĠyueĠ
ĠyinĠciĠ taĠ
kaiĠfaĠ quĠ
zhongĠyao ĠxingĠ
duoĠlunĠ duoĠ
baĠjiĠsiĠ tanĠ
Ġ ting
Ġ rong
Ġ 88
Ġ 1941ĠnianĠ
ĠĠĠ xiaoĠxingĠxingĠ
qi ĠshiĠyongĠ
jian ĠĠĠ
ge ĠshiĠjiĠ
shu ĠnianĠ
gu ĠxiĠlaĠ
dan ĠjieĠ
zhuan ĠzhuĠ
ss Ġ
ĠshiĠ baoĠ
zhongĠ jianĠ
ĠrenĠ quanĠ
xiĠ shengĠ
xingĠ rong
ĠyueĠ kanĠ
fuĠ wuĠdeĠ
jingĠ queĠ
fangĠ huĠ
huaĠ chengĠ
fenĠ duiĠ
ĠkeĠ jiaĠ
nanĠ duĠ
sheĠ qunĠ
luoĠ muĠ
laoĠ huĠ
anĠdeĠ luĠ
ĠshiĠwuĠkeĠ lanĠxiĠ
Ġ zhuĠrenĠ
ĠĠĠ zai
ni ĠrenĠ
nei ĠweiĠ
43 Ġ
name Ġ
ĠyuĠ 2019
daĠ chen
yeĠ cengĠ
sheĠ zhengĠ
tianĠ qiaoĠ
waiĠ jiao
ĠchuĠ ziĠ
ĠbaoĠ faĠ
huanĠ jingĠzhongĠ
cunĠ huoĠ
ĠpingĠfangĠ yingĠliĠ
ĠnianĠ8ĠyueĠ 1ĠriĠ
ĠzuoĠ zheĠ
ĠduoĠ shuĠ
ĠĠĠdiĠ sanĠ
Ġzu ĠjiĠ
ĠgaiĠshengĠfenĠweiĠfaĠguoĠ zhongĠ
Ġ qunĠ
Ġ cunĠzaiĠ
Ġ paoĠ
ĠĠĠ ai
ci ĠxiĠ
zhan ĠĠĠ
mei ĠyouĠdeĠ
tou ĠzhiĠ
ĠshiĠ dongĠ
ĠyuĠ 2016
ĠzaiĠ dangĠshiĠ
daĠ daĠ
jieĠ gouĠdeĠ
shengĠ danĠ
mingĠ daiĠ
tongĠ yangĠdeĠ
tiĠ huanĠ
fenĠ faĠ
haiĠ huiĠ
qingĠ bao
banĠ changĠ
ĠfuĠ qinĠshiĠ
zhouĠ quĠ
bianĠ houĠ
cheĠ huoĠ
ĠdeĠyiĠ tiaoĠ
laĠ dingĠyuĠ
ĠwuĠ hanĠ
yueĠ tuanĠ
zhuĠyiĠ heĠ
ĠnianĠ3ĠyueĠ 1ĠriĠ
baoĠkuoĠ leĠ
ĠdeĠrenĠ kouĠweiĠ
ĠneiĠ rong
liuĠxingĠ yinĠyueĠ
haĠerĠ bin
luĠzhanĠ duiĠ
8 ĠgongĠliĠ
Ġ siĠjiĠ
Ġ jueĠseĠ
Ġ huanĠjingĠ
mei ĠyouĠyiĠ
huo ĠyuĠ
liang ĠbuĠfenĠ
ma ĠĠĠ
men ĠheĠ
chuang ĠdeĠ
mao ĠsiĠ
ning ĠxiaĠ
ĠzhiĠ suoĠzaiĠ
ĠyouĠ haoĠ
zhuĠ gongĠ
daoĠ changĠ
shuĠ dianĠ
shangĠ qianĠ
jiaoĠ huiĠdeĠ
qianĠ jingĠ
pingĠ anĠ
quanĠ jingĠ
chuanĠ ran
lieĠ ning
ĠjieĠ jueĠ
ganĠ rao
ĠzhongĠguoĠ guoĠminĠdangĠ
songĠ jiangĠ
zuĠzhiĠ buĠ
leĠyiĠ xiĠlieĠ
ĠĠĠzhongĠ huaĠminĠguoĠ
ĠzhiĠluĠ houĠ
jiaoĠliu ĠdaoĠ
g ĠĠĠ
Ġ 120
Ġ My
bi ĠweiĠ
xiang ĠbuĠ
zheng ĠshiĠjieĠ
dong ĠqiĠ
gai ĠrenĠ
tian ĠgongĠ
tou ĠbaoĠ
piao ĠdeĠ
41 Ġ
MV Ġ
zhiĠ yeĠ
ĠzhiĠ qiĠ
ĠzhiĠ qiuĠduiĠ
ĠheĠ liuĠyuĠ
jieĠ riĠ
jieĠ ciĠ
zhuĠ huaĠ
chuĠ xianĠyuĠ
ĠdiĠ heĠ
mingĠ que
xueĠ sheng
yanĠ hai
tongĠ lingĠ
guanĠ shuiĠ
jiaoĠ xiang
xuĠ gouĠ
cheĠ tui
chengĠweiĠ jiĠ
touĠ sheĠ
keĠyiĠ zhuiĠsuĠdaoĠ
ĠnianĠ9ĠyueĠ 1ĠriĠ
Ġbi ĠliĠshiĠ
bengĠ kuiĠ
Ġcom Ġ
Ġ ying
Ġ 1971ĠnianĠ
ĠĠĠ Mar
ĠĠĠ wanĠliĠ
wei ĠyiĠzhiĠ
xian ĠshiĠqiĠ
dian ĠyiĠ
yong ĠguoĠ
liao ĠfaĠ
center Ġ
diĠ renĠ
ĠzaiĠ siĠ
yuanĠ laiĠ
erĠ geĠ
shouĠ ci
leĠ duoĠ
fenĠ shouĠ
haiĠ tanĠ
nanĠ changĠ
qingĠ chenĠ
shenĠ cha
yangĠ yunĠ
ĠzhuĠ geĠ
Ġtong ĠshiĠzaiĠ
ĠyingĠ gaiĠ
henĠ shao
ĠdeĠzhuĠ zuoĠ
ĠriĠqiĠ yongĠ
jianĠchaĠ yuĠshiĠ
Ġrang ĠtaĠ
jieĠmu ĠzhongĠ
Ġ Di
Ġ 05
ĠĠĠ tongĠshiĠ
gu ĠkeĠ
dui ĠbuĠ
she ĠyiĠ
nan ĠdiĠquĠ
ben ĠweiĠ
zhen ĠyiĠ
xuan ĠyiĠ
fei ĠxianĠ
ze ĠshiĠzaiĠ
tan ĠshiĠ
pao ĠtaiĠ
pa ĠlaĠ
ĠyuĠ 2018
ĠyuĠ 2013
ĠyuĠ 2024
chengĠ nuo
ĠqiĠ xingĠ
chuĠ xuanĠ
houĠ caiĠ
shouĠ dao
dongĠ zhengĠ
leĠ beiĠ
taiĠ shangĠ
yongĠ hu
banĠ kuaiĠ
teĠ sheĠ
menĠ jiangĠ
zhaoĠ pian
2Ġ gongĠliĠ
Ġri ĠĠĠ
ĠshenĠ zhenĠ
ĠĠĠyiĠ banĠ
ĠaĠ boĠ
ĠzhongĠyangĠ junĠweiĠ
boĠwuĠ yuanĠ
peiĠyinĠ yuanĠ
canĠmou ĠbuĠ
chengĠnianĠ renĠ
Ġ ×
Ġ jiaĠyiĠ
Ġ 25Ġ
Ġ pĠ
ou ĠdeĠ
ĠĠĠ Ha
ĠĠĠ neiĠ
ti ĠerĠ
le ĠyiĠzhiĠ
yan ĠyouĠ
bao ĠguoĠ
shao ĠxingĠ
shuo ĠdaoĠ
or Ġ
17 ĠshiĠjiĠ
pa ĠdeĠ
1898 ĠnianĠ
ĠjiĠ tiĠ
ĠliĠ yuanĠ
guoĠ min
diĠ yaĠ
zhuĠ houĠ
zhuĠ jiangĠ
shuĠ linĠ
shouĠ du
shouĠ ciĠzaiĠ
ciĠ changĠ
ĠdaĠ naĠ
qianĠ miĠrenĠ
xiaoĠ wuĠ
liangĠ duanĠ
yaĠ daoĠ
zhenĠ jingĠ
shanĠ beiĠ
puĠ jingĠ
suiĠ pianĠ
zhuanĠ lanĠ
diĠyiĠ piĠ
zaoĠ leĠ
ĠsuiĠ houĠzaiĠ
qunĠ dao
yanĠjiu ĠrenĠyuanĠ
ĠyiĠsiĠ lan
guangĠxiĠ zhuangĠ
ĠĠĠhouĠ xuĠ
Ġ 140
Ġ chanĠshengĠ
Ġ zhengĠdeĠ
Ġ 1928ĠnianĠ
yong ĠzhongĠ
ma ĠxiĠ
1896 ĠnianĠ
ĠdeĠ xiĠ
zhongĠ gongĠzhongĠyangĠ
jiaĠ ting
shengĠ zhangĠzaiĠ
chuĠ jiaĠ
huiĠ yiĠdeĠ
shangĠ cengĠ
xueĠ jieĠ
haiĠ meiĠyouĠ
ĠfuĠ sheĠ
benĠ shen
yangĠ chengĠ
kaiĠ yuanĠ
liuĠ ruĠ
maĠ saĠzhuĠsaiĠ
ĠshiĠjieĠ rangĠ
yiĠshiĠ zaiĠ
songĠ wangĠ
ĠxinĠ jiangĠ
dianĠyingĠ yuanĠ
leĠyiĠ xiangĠ
ĠnianĠ12ĠyueĠ 28ĠriĠ
ĠyouĠjiĠ duiĠ
mingĠziĠ mingĠmingĠ
ĠerĠrenĠkouĠmiĠduĠweiĠmeiĠpingĠfangĠ qianĠmiĠrenĠ
ĠzhongĠhuaĠ minĠ
juĠleĠ buĠdeĠ
ĠĠĠis ĠĠĠ
4 ĠhaoĠ
Ġ cheng
Ġ 1962ĠnianĠ
ĠĠĠ yanĠjiuĠ
hou ĠliĠ
lu ĠbuĠ
xia ĠdiĠ
dang ĠyiĠ
ment Ġ
ĠweiĠ huĠ
zhongĠ ziĠ
heĠ tongĠ
qiĠ zhongĠyiĠgeĠ
daĠ jieĠ
jieĠ shu
tongĠ riĠ
changĠ xiaoĠ
xinĠ geĠ
fanĠ shouĠ
guiĠ leiĠweiĠ
zeĠ huiĠ
ĠgaiĠ xiaoĠ
kaĠ cheĠ
nvĠ zi
ĠdeĠdiĠ xiaĠ
gaoĠdengĠ faĠyuanĠ
ĠãĤĵ Ġ
e ĠjiĠ
Ġ zhuang
Ġ 1951ĠnianĠ
ĠĠĠ chen
ĠĠĠ 1998
ĠĠĠ Bu
dian ĠshiĠjiĠ
pi ĠdeĠ
16 ĠnianĠ
shuai ĠluoĠ
DVD Ġ
1895 ĠnianĠ
ĠzhiĠ li
ĠyuĠ mingĠ
buĠ daoĠ
xingĠ zouĠ
zhuĠ boĠ
chuĠ qiĠdeĠ
zhengĠ xuanĠ
huaĠ zuoĠ
zhangĠ haoĠ
anĠ quanĠdeĠ
saiĠ teĠ
tuĠ po
guiĠ shuĠ
ĠchuĠ yanĠ
zhuanĠ touĠ
huanĠ jingĠdeĠ
kongĠ jiangĠ
ĠmeiĠ junĠ
ĠjingĠ yingĠ
ĠmuĠ qianĠyiĠ
ĠtongĠ chengĠ
tieĠluĠ xianĠ
ĠyinĠweiĠ taĠmenĠ
riĠben ĠdiĠguoĠ
dongĠliĠ xueĠ
lingĠxianĠ zhuĠyanĠ
7 ĠgongĠliĠ
Ġ Do
Ġ xiaĠjiĠ
Ġ 1959ĠnianĠ
ĠĠĠ hong
huo ĠyueĠyuĠ
shen ĠdaĠ
lie ĠrenĠ
qiang ĠjieĠ
shuo ĠtaĠ
ĠyuĠ 2012
gongĠ cheng
jiaĠ diĠ
beiĠ huiĠ
zheĠ liangĠ
ĠsiĠ wang
Ġdan ĠdaĠ
liuĠ shouĠ
liuĠ yanĠ
ĠpingĠ jieĠ
ĠshengĠ chuĠ
zhongĠguoĠ gongĠchanĠdangĠ
xueĠzheĠ renĠweiĠ
lianĠheĠguoĠ jiaoĠkeĠwenĠ
Ġ guan
Ġ zanĠ
Ġ 1973ĠnianĠ
Ġ 1936ĠnianĠ
ĠĠĠ jingĠguoĠ
yue ĠqiĠ
zhou ĠdaĠ
ding ĠjiaĠ
feng ĠxingĠqiĠ
cai ĠyiĠ
pang ĠdaĠ
kua ĠguoĠ
qiĠ tiĠ
ĠheĠ tongĠ
xingĠ cheĠ
ĠguoĠ xiaoĠ
beiĠ jingĠdeĠ
jinĠ xianĠ
zhanĠ gongĠ
baoĠ jianĠ
huaĠ nanĠ
yongĠ chiĠ
ĠkeĠ laĠkeĠ
biĠ shuĠ
shenĠ mingĠ
xuanĠ lvĠ
dingĠ baoĠ
niĠ aoĠ
ĠdeĠshiĠ yeĠ
aiĠ zhengĠ
ĠtaiĠ leiĠ
jingĠjiĠ heĠ
erĠshiĠ erĠnianĠ
ĠquanĠ chengĠ
ĠgaoĠ xiong
guoĠliĠ taiĠwan
ĠnianĠchuĠ shengĠyuĠ
faĠdianĠ changĠ
Ġ2011ĠnianĠ renĠkouĠ
guanĠli ĠweiĠyuanĠhuiĠ
Ġ 1968
ĠĠĠ 14
ĠĠĠ xueĠxiaoĠ
zi ĠrenĠ
qing ĠjiĠ
luo ĠweiĠqiĠ
la ĠqiĠ
deng ĠzaiĠ
tian ĠzaiĠ
tian ĠbuĠ
lin ĠliĠ
nie ĠciĠkeĠ
ĠyouĠ huaĠ
biĠ fenĠ
tianĠ kongĠ
suĠ xiangĠ
menĠ waiĠ
ĠzheĠ leiĠ
ĠgaiĠ pian
zhuanĠ ruĠ
junĠshiĠ xingĠdongĠ
jinĠruĠ leĠ
zhongĠyuĠ yanĠ
ĠweiĠyuĠgaiĠguoĠ dongĠbeiĠbuĠ
Ġ diĠliĠ
Ġ qiĠweiĠ
ĠĠĠ s
wei ĠshiĠjiĠ
ci ĠshiĠjianĠ
fei ĠheĠ
tian ĠzhongĠ
lei ĠdiĠ
10 ĠwanĠ
11 ĠgeĠ
ĠweiĠ baoĠ
ĠzaiĠ zheĠgeĠ
daĠ dangĠ
gongĠ duĠ
daoĠ fuĠ
xinĠ chengĠliĠdeĠ
jiaoĠ shou
bingĠ tuan
junĠ wuĠ
daiĠ shangĠ
qingĠ laiĠ
miĠ teĠliĠ
ĠbingĠ buĠshiĠ
dangĠ qianĠ
guiĠ dianĠcheĠ
ĠshengĠ muĠ
ĠdongĠ haiĠ
ĠdangĠ xuanĠweiĠ
Ġwan ĠnianĠ
sunĠ huaiĠ
xingĠchengĠ leĠ
Ġpei ĠheĠ
puĠchaĠ guiĠdingĠ
Ġ zaoĠnianĠ
Ġ 1963ĠnianĠ
ĠĠĠ suoĠyouĠ
ĠĠĠ zuoĠpinĠ
dan ĠdaoĠ
pei ĠerĠ
seng Ġ
EP Ġ
ĠyiĠ mianĠ
Ġli ĠshiĠjianĠzhuĠ
diĠ mingĠ
daĠ liang
jianĠ ruoĠ
shengĠ pingĠ
faĠ lanĠ
huiĠ guĠ
huaĠ bingĠ
daiĠ xiaoĠxingĠxingĠ
xieĠ tongĠ
dengĠ renĠdeĠ
guĠ piaoĠ
fanĠ rongĠ
suĠ lvĠ
tuĠ muĠ
ĠbeiĠ geĠ
ĠgaiĠ zhuang
aiĠ lunĠ
qinĠ shuĠ
ĠhuoĠ jianĠ
Ġer ĠweiĠ
Ġzhe ĠweiĠ
ĠdengĠ jinĠshiĠ
zhunĠ que
ĠnianĠ2ĠyueĠ 24ĠriĠ
Ġxian ĠyouĠ
Ġ1 ĠgeĠ
Ġmo ĠliĠ
Ġlin ĠjinĠ
chuangĠliĠ leĠ
ĠĠĠS Ġ
Ġ yun
Ġ 90
Ġ buĠdeĠ
Ġ zhuoĠ
Ġ 1930ĠnianĠ
hu ĠfuĠ
fa ĠyouĠ
xiang ĠguoĠ
jiang ĠbuĠ
duo ĠnianĠdeĠ
lei ĠzaiĠ
bai ĠliĠ
pai ĠshiĠ
pu ĠyiĠ
huan ĠheĠ
14 ĠnianĠ
pang ĠbianĠ
38 Ġ
ĠshiĠ haoĠ
ĠliĠ mingĠ
heĠ nanĠshengĠ
buĠ lieĠtaĠ
ĠzhongĠ shenĠ
jiaĠ zuĠdeĠ
jieĠ zouĠ
ĠerĠ zhanĠ
shouĠ ru
shangĠ kongĠ
yanĠ huiĠ
zuĠ muĠ
jiuĠ geĠ
duoĠ mianĠtiĠ
ĠxiangĠ guanĠdeĠ
puĠ saĠ
ĠyiĠjiĠ zhiĠ
tieĠ cheĠzhanĠ
mianĠjiĠ yueĠ
xiuĠ yangĠ
tuiĠ guang
ĠyouĠyiĠ dingĠ
genĠ zhouĠ
daĠxueĠ shengĠ
ĠĠĠshengĠ taiĠ
ĠchengĠweiĠ leĠ
Ġquan ĠxianĠ
tuiĠyiĠ houĠ
ĠxiĠtong ĠzhongĠ
aoĠdi ĠliĠdeĠ
6 ĠmingĠ
7 ĠshiĠ
q Ġ
Ġ kou
Ġ 98
Ġ 1972
Ġ keĠjiĠ
Ġ lunĠdun
Ġ 1913ĠnianĠ
Ġ centerĠ
ĠĠĠ Love
ĠĠĠ chongĠ
qu ĠĠĠ
la ĠdaĠ
ba ĠrenĠ
cun ĠyiĠ
nuo ĠweiĠqiĠ
to Ġ
ĠyiĠ zhaoĠ
ĠjiĠ longĠ
yuanĠ qiĠ
yuanĠ wangĠ
jianĠ xiĠ
beiĠ lieĠweiĠ
ĠqiĠ zhongĠyiĠgeĠ
yeĠ jieĠ
xiaĠ xingĠ
xiaĠ xiaĠdeĠ
ĠxingĠ buĠ
ĠgongĠ jiaoĠ
xieĠ xinĠ
quanĠ xinĠdeĠ
ĠdeĠyiĠ tiao
dingĠ xiangĠ
caiĠ jingĠ
meiĠguoĠ heĠ
ĠdeĠshiĠ changĠ
ĠshiĠshiĠ houĠ
canĠ baiĠ
chenĠ shuĠ
nvĠ zuoĠ
queĠ dianĠ
erĠshiĠ siĠ
ĠĠĠyiĠ geĠ
fangĠmianĠ junĠ
xiaĠjiĠ aoĠyunĠhuiĠ
geĠliĠ guanĠ
ĠweiĠyuĠgaiĠguoĠ xiĠnanĠbuĠ
aoĠsiĠ ka
jieĠjueĠ fangĠanĠ
kenĠtaĠjiĠ zhouĠ
dianĠliĠjiĠ cheĠ
Ġ nongĠyeĠ
ao ĠliĠ
ĠĠĠ lanĠ
ĠĠĠ xianĠdaiĠ
ci ĠqiĠ
chuan ĠyuĠ
pin ĠheĠ
fou ĠdingĠ
zun ĠxunĠ
01 Ġ
UA Ġ
COVID Ġ
ĠshiĠ nanĠ
ĠdeĠ mingĠ
ĠliĠ chaĠ
Ġyou ĠnianĠ
daĠ yingĠ
yuanĠ yin
wuĠ jiangĠ
zhuĠ zha
juĠ zhuĠdeĠ
xueĠ fuĠ
shenĠ xinĠ
meiĠ guiĠ
tianĠ eĠ
ĠbingĠ tongĠguoĠ
zongĠ buĠweiĠyuĠ
chuanĠ songĠ
ĠchuĠ shouĠ
keĠyiĠ beiĠ
ĠboĠ wuĠguanĠ
zaiĠyiĠ daĠliĠ
zuĠqiuĠ xieĠhuiĠ
yinĠduĠ niĠxiĠyaĠ
jinĠbiaoĠ sai
ziĠran ĠbaoĠhuĠ
Ġdi ĠshiĠyiĠ
ĠyiĠmeiĠ yuanĠdeĠ
heiĠlongĠjiangĠ shengĠ
jiangĠxueĠ jinĠ
Ġ 1920
Ġ 1953ĠnianĠ
yue ĠyuĠ
mi ĠyuĠ
dong ĠdiĠquĠ
zuo ĠqiĠ
gu ĠdaoĠ
she ĠrenĠ
xia ĠyiĠgeĠ
gao ĠjiĠzhongĠxueĠ
lan ĠsiĠ
lin ĠdiĠ
chi ĠyiĠ
lun ĠzaiĠ
dou ĠweiĠ
duan ĠjiĠ
ty Ġ
deĠ yiĠ
ĠyiĠ lang
gongĠ yongĠ
ĠbuĠ juĠ
leĠ daĠliangĠ
tongĠ leiĠ
ĠgongĠ ye
suoĠ zhuĠ
ĠdeĠyiĠ xiĠlieĠ
tuĠ rang
ĠwuĠ daoĠ
huanĠ quĠ
kaoĠ zhengĠ
ĠyouĠyiĠ mingĠ
haĠ saĠkeĠ
ĠdeĠrenĠ heĠ
Ġceng ĠdanĠrenĠ
lianĠbangĠ zhengĠfuĠ
Ġkang ĠriĠ
ĠshiĠyou ĠyuĠ
waiĠweiĠ saiĠ
Ġ biao
Ġ fo
Ġ xuanĠjuĠ
ĠĠĠ at
ĠĠĠ suiĠzheĠ
ĠĠĠ guoĠjiaĠduiĠ
tian ĠyouĠ
lie ĠyuĠ
chong ĠqiĠ
qin ĠjiaĠ
44 Ġ
ĠjiĠ suĠ
guoĠ jiaĠjiĠ
ĠrenĠ dingĠ
erĠ buĠ
fuĠ shanĠ
ĠguoĠ fuĠ
jinĠ ziĠ
jinĠ duĠ
jinĠ miĠ
ĠxiĠ xianĠ
quĠ xiangĠ
yanĠ shuoĠ
huaĠ tingĠ
ĠdaĠ yingĠ
qingĠ xiangĠyuĠ
ĠgongĠ huiĠ
xieĠ ziĠ
teĠ quanĠ
xuanĠ xiangĠ
maĠ yaĠ
shaĠ laĠ
chaoĠ xian
1Ġ haoĠxianĠ
ĠzhongĠguoĠ gongĠ
taoĠ tuoĠ
chuangĠ xiaĠ
sheĠhuiĠ keĠxueĠ
ĠluoĠ boĠteĠ
huiĠfuĠ zhuĠrenĠ
Ġque ĠfaĠ
ĠjiaĠruĠ leĠ
ĠshiĠwuĠkeĠ lan
puĠchaĠguiĠdingĠ juĠminĠdianĠ
Ġ ce
Ġ 1969
Ġ ãĦ
Ġ enĠ
Ġ minĠzuĠ
ĠĠĠ II
ya ĠweiĠ
zhen ĠzaiĠ
dou ĠdeĠ
wo ĠfuĠ
49 Ġ
nve ĠdaiĠ
ĠdeĠ shuoĠfaĠ
ĠzaiĠ zhe
ĠrenĠ daĠ
xiaoĠ mieĠ
haiĠ wai
laĠ tuo
ĠshiĠdeĠ guoĠdeĠ
hengĠ xingĠdeĠ
daoĠshiĠ zhanĠtaiĠ
muĠsiĠ lin
fenĠbie ĠzaiĠ
Ġda ĠjiĠ
ĠkongĠ tai
geĠlunĠ biĠya
daĠjiangĠ saiĠ
ĠliĠxinĠ lvĠweiĠ0
mingĠniĠsuĠdaĠ zhouĠ
ĠĠĠxiaĠshuĠ wuĠzhongĠ
ĠweiĠreĠdai ĠdanĠshuiĠyuĠ
Ġ ãĥ
Ġ 1959
yan ĠzaiĠ
lu ĠguoĠ
jiang ĠdaĠxueĠ
lv ĠyuĠ
shui ĠguoĠ
piao ĠjiaĠ
80 Ġ
70 Ġ
ĠyiĠ seĠlie
jiaĠ gongĠ
faĠ xiĠsiĠ
fangĠ xiang
banĠ xueĠ
ĠxingĠ chengĠdeĠ
dengĠ wenĠtiĠ
dingĠ yiĠdeĠ
fengĠ huangĠ
paiĠ ziĠ
ĠziĠ yangĠ
hanĠ guoĠdeĠ
kongĠ tiaoĠ
daiĠbiaoĠ zuoĠ
yingĠguoĠ huangĠjiaĠ
ĠqingĠ qiuĠ
Ġgai ĠguoĠ
ĠsuoĠ shuĠ
ĠzheĠshiĠ yinĠweiĠ
Ġgu ĠliĠ
xiaĠdeĠyiĠgeĠ shuĠ
ĠĠĠ Ra
yuan ĠshiĠdeĠ
zhou ĠerĠ
la ĠyiĠ
xie ĠliĠ
zhen ĠshiĠdeĠ
che ĠrenĠ
ran ĠshiĠ
gan ĠzhiĠ
huang ĠdaoĠ
ĠdeĠ shouĠ
Ġnian ĠnianĠ
ĠnianĠ zuoĠyouĠ
zhongĠ guoĠdeĠ
fuĠ yuanĠ
shouĠ quĠ
baoĠ liu
huaĠ jieĠ
zheĠ yang
xiaoĠ mingĠ
ĠtaĠ ceng
quanĠ wanĠ
feiĠ jiĠdeĠ
ĠdanĠ yeĠyouĠ
aoĠ duoĠ
duanĠ cengĠ
piĠ jiuĠ
tuoĠ xieĠ
yanĠjiuĠ zheĠ
tuiĠ chiĠ
henĠ gaoĠ
caoĠ zongĠ
ĠyanĠ chuĠ
heiĠ anĠ
6Ġ gongĠliĠ
ĠmianĠjiĠ 1Ġ
ĠfengĠ baoĠ
Ġba ĠerĠ
zaoĠchengĠ leĠ
ĠxuanĠ zeĠ
ĠhaiĠbaĠgaoĠduĠ 2Ġ
ĠrenĠkou ĠweiĠrenĠ
zhanĠlingĠ leĠ
ĠmeiĠnianĠ pingĠjunĠ
Ġ duan
Ġ wuĠnianĠ
Ġ 1939ĠnianĠ
Ġ 1912ĠnianĠ
ĠĠĠ daiĠ
he ĠshiĠyongĠ
san ĠyiĠ
gui ĠyiĠ
chen ĠxingĠ
ly Ġ
ĠdeĠ youĠ
ĠjiĠ hua
Ġli ĠshiĠshiĠ
gongĠ pingĠ
gongĠ fengĠ
shengĠ biĠdeĠ
huiĠ zhanĠ
jiaoĠ huĠ
xiaĠ lieĠ
banĠ daoĠdeĠ
zhenĠ tanĠ
tuĠ sha
tuĠ pianĠ
guangĠ mingĠ
moĠ huĠ
ĠhouĠ laiĠdeĠ
yiĠshiĠ zhiĠ
nianĠ daiĠweiĠ
yingĠxiangĠ leĠ
ĠnianĠ5ĠyueĠ 1ĠriĠ
diĠshiĠ siĠ
ĠguiĠ huaĠ
zuiĠgaoĠ dianĠweiĠ
faĠbiaoĠ shengĠmingĠ
maĠkeĠsiĠ zhuĠyiĠ
Ġ 51
Ġ Be
Ġ guanĠjunĠ
Ġ moĠshiĠ
Ġ heĠliĠ
Ġ tĠĠĠ
ĠĠĠ teĠ
ĠĠĠ riĠben
shu ĠguoĠ
ban ĠweiĠ
man ĠĠĠ
tie ĠdaĠniĠ
16 ĠshiĠjiĠ
21 ĠshiĠjiĠ
kun ĠjingĠ
ĠshiĠ yuanĠ
ĠdeĠ qianĠ
ĠyiĠ benĠ
zhongĠ qiĠ
zhongĠ duoĠ
Ġyou ĠliĠyuĠ
ĠzaiĠ yueĠ
jianĠ qiĠ
jieĠ chuĠdeĠ
zhuĠ junĠ
zhengĠ que
zhengĠ ceĠdeĠ
wenĠ dingĠxingĠ
tiĠ siĠ
jiuĠ kaiĠshiĠ
ĠtaĠ huiĠ
mianĠ jiĠdeĠ
ĠshiĠyiĠ yiĠ
ĠjuĠ shuoĠ
chaoĠ guoĠyiĠ
tieĠ muĠerĠ
tuoĠ puĠ
quanĠguoĠ renĠdaĠdaiĠbiaoĠ
ĠjiuĠ huiĠ
Ġling ĠdaoĠ
ĠbianĠ juĠ
Ġjin ĠyouĠ
xiaoĠxingĠ xingĠyuĠ
anĠdeĠ erĠ
Ġda ĠzhiĠ
4 ĠshiĠ
8 ĠmiĠ
e ĠsiĠ
Ġ zhuĠyiĠ
Ġ zhengĠzaiĠ
Ġ cuĠjinĠ
Ġ 1957ĠnianĠ
li ĠjiĠ
xing ĠĠĠ
shang ĠerĠ
ling ĠyiĠweiĠ
ding ĠxianĠ
liu ĠriĠ
lie ĠriĠ
kuai ĠjiĠ
rou ĠdaoĠ
ĠyouĠ zhuĠyuĠ
ĠzaiĠ yingĠ
ziĠ jianĠ
faĠ songĠ
quĠ jingĠ
fangĠ sheĠ
huaĠ wuĠ
zheĠ liangĠgeĠ
gaiĠ shan
lianĠ huanĠ
quanĠ ziĠ
ĠgeĠ guoĠjiaĠ
ĠdanĠ duĠ
congĠ shuĠ
ĠfaĠ dongĠ
aiĠ saiĠeĠ
ceĠ suoĠ
ĠyiĠzhiĠ youĠ
peiĠ tongĠ
jingĠjiĠ gongĠsiĠ
Ġma ĠliĠyaĠ
Ġliang ĠzhongĠ
Ġming ĠyiĠ
ĠxiĠbeiĠ jieĠ
Ġpo ĠshiĠ
raoĠtaiĠ yangĠyunĠ
ĠhuaĠshengĠ dun
banĠzhangĠ zhouĠweiĠ
Ġ lang
Ġ 1953
ĠĠĠ yingĠyongĠ
er ĠshiĠqiĠ
zi ĠĠĠ
lai ĠdaĠ
lai ĠfuĠ
ka ĠheĠ
kan ĠtaiĠ
pao ĠdanĠ
1889 ĠnianĠ
ĠshiĠ luoĠmaĠ
ĠnianĠ qing
ĠzhongĠ guoĠshiĠ
xingĠ bie
yuanĠ zuoĠ
gongĠ lvĠ
chengĠ diĠ
ziĠ keĠ
ĠxiĠ keĠ
tongĠ hangĠ
luĠ quĠ
minĠ suĠ
xuĠ muĠ
baĠ qianĠ
mianĠ baoĠ
caiĠ gouĠ
guangĠ chang
sanĠ baiĠ
linĠ chuangĠ
ĠgaiĠ xiaoĠxingĠxingĠyuĠ
ĠliuĠ jingĠ
Ġma ĠkeĠsiĠ
xiaĠjiĠ aoĠlinĠpiĠkeĠyunĠdongĠ
ĠzhuanĠ menĠ
ĠyiĠliĠ shaĠbaiĠ
pangĠ daĠdeĠ
foĠ jiao
fangĠdiĠ chanĠ
9 ĠyueĠzhiĠ
f ĠĠĠ
Ġ 89
Ġ dengĠrenĠ
di ĠshiĠwuĠ
ye ĠweiĠqiĠ
huo ĠbuĠ
duo ĠkeĠ
pu ĠshiĠ
Äģ Ġ
zhuĠ chuĠ
chuĠ shengĠdeĠ
jinĠ guanĠ
riĠ neiĠ
ĠxiĠ boĠ
zuoĠ chengĠ
liangĠ changĠ
shenĠ pan
zuĠ aiĠ
anĠ suanĠ
benĠ haiĠ
ĠjuĠ changĠ
ĠciĠ hou
tangĠ daiĠ
kuoĠ sanĠ
ĠshiĠjianĠ jieĠ
ĠsuiĠ jiĠyiĠ
songĠ huiĠ
faĠzhanĠ chuĠ
piaoĠ lvĠ
ĠbenĠ ciĠ
ĠaĠ genĠ
ĠmianĠjiĠ 1
cangĠ kuĠ
ĠpaiĠ sheĠ
ĠhaiĠbaĠgaoĠduĠ 1Ġ
Ġfei ĠxingĠ
ĠweiĠyuĠfaĠguoĠ xinĠaĠjiĠtan
ĠshiĠyiĠkeĠ raoĠtaiĠyangĠyunĠ
changĠwu ĠweiĠyuanĠhuiĠ
ĠshiĠxingĠdengĠweiĠ 6
ĠĠĠguiĠdaoĠ canĠshuĠ
ĠdeĠguiĠdaoĠ banĠzhangĠzhouĠweiĠ
ĠshiĠyiĠkeĠraoĠtaiĠyangĠyunĠ zhuanĠdeĠxiaoĠxingĠxingĠ
Ġ tieĠluĠ
ĠĠĠ So
shen ĠzhongĠ
xun ĠdaoĠ
rong ĠxingĠ
tao ĠdaoĠ
cang ĠshuĠ
ĠyiĠ gangĠyuanĠ
ĠqiĠ shouĠ
jinĠ xingĠshiĠ
yanĠ chuĠdeĠ
baoĠ jiaĠliĠyaĠ
ĠdaĠ xiĠ
bingĠ bu
pingĠ fanĠ
ĠjiaĠ suĠ
minĠ zuĠdeĠ
ĠgongĠ jinĠjiĠ
bianĠ qianĠ
guĠ dingĠdeĠ
ĠshiĠyiĠ kuan
niĠ yaĠyuĠ
ĠxiangĠ shouĠ
tingĠ kao
shuiĠ quĠ
cengĠ ciĠ
manĠ lianĠ
ĠtongĠ jinĠshiĠchuĠshenĠ
erĠshiĠ tingĠ
zengĠjiaĠ daoĠ
ĠweiĠzhuĠ xiaoĠxingĠxingĠ
taoĠtaiĠ saiĠ
guanĠcha ĠdaoĠ
junĠshiĠtanĠdingĠ baoĠ
ĠkongĠtai ĠdaĠquĠ
ĠweiĠzhuĠxiaoĠxingĠxingĠ daiĠxiaoĠxingĠxingĠ
Ġ 33
Ġ dianĠshiĠjuĠ
Ġ kaĠsiĠ
Ġ 1961ĠnianĠ
ĠĠĠ xuĠduoĠ
ĠĠĠ canĠkao
qu ĠqiĠ
yin ĠzhongĠ
yan ĠguoĠ
bing ĠyouĠ
pi ĠliĠ
xie ĠyuĠ
xu ĠliĠya
chan ĠzhiĠ
ka ĠshiĠ
meng ĠjiaĠla
huang ĠdeĠ
ĠjiĠ bingĠ
ĠzhiĠ jiaĠgeĠ
ĠrenĠ keĠ
ĠyueĠ keĠ
beiĠ xiĠ
ĠdiĠ 2
ĠdiĠ buĠ
ĠdaĠ piĠ
tongĠ huoĠ
guanĠ quĠ
Ġdan ĠxingĠ
haiĠ keĠyiĠ
meiĠ tongĠpaiĠ
ĠgongĠ sheĠ
xieĠ xiaĠ
ĠbeiĠ haiĠ
gangĠ taiĠ
ĠwuĠ yuanĠ
Ġri ĠqiĠjianĠ
yiĠshiĠ yuĠ
ĠluĠ junĠ
ĠwoĠ menĠdeĠ
ĠbianĠ chengĠ
jieĠshiĠ leĠ
kaĠerĠ waĠ
xianĠdeĠyiĠgeĠ zhenĠquĠ
laĠheĠ maĠ
ganĠsuĠ shengĠ
neiĠmengĠguĠ ziĠzhiĠquĠ
ĠshiĠwuĠkeĠlanĠdeĠ cunĠluoĠ
Ġ alignĠ
ĠĠĠ be
gong ĠzhongĠyang
huo ĠdeĠyiĠmeiĠ
pai ĠzaiĠ
sha ĠerĠ
peng ĠjiĠ
ĠyiĠ tuĠ
ĠweiĠ xiĠ
ĠyuĠ 2014
renĠ shuĠ
yuanĠ su
yuanĠ linĠ
gongĠ guĠ
gongĠ touĠ
fuĠ wu
zhuĠ keĠ
daoĠ taĠ
ĠqiĠ muĠ
faĠ fangĠ
juĠ fuĠ
biĠ jinĠ
liangĠ beiĠ
meiĠ ciĠ
jiuĠ chengĠ
quanĠ huiĠ
sanĠ tianĠ
ĠchuĠ kouĠ
ĠshiĠjiĠ shangĠshiĠ
1Ġ fenĠ
xiuĠ shanĠ
ĠdeĠdiĠ siĠ
zuĠzhiĠ jiĠ
yinĠyueĠ jieĠ
yinĠyueĠ juĠ
Ġxian ĠdeĠyiĠgeĠ
ĠshiĠweiĠyuĠ meiĠguoĠyiĠliĠnuoĠyiĠ
yaĠliĠ sangĠnaĠ
ĠĠĠdiĠ mingĠ
ĠhanĠ gaiĠ
ruiĠ dian
ĠĠĠjiaĠ jingĠ
Ġge ĠnianĠ
ĠliaoĠ ning
sheĠjiaoĠ meiĠtiĠ
Ġ 1976
Ġ chouĠ
Ġ pingĠguoĠ
Ġ 1942ĠnianĠ
Ġ 1932ĠnianĠ
ĠĠĠ 1997
ĠĠĠ yaoĠ
yan ĠbuĠ
bai ĠdaĠ
zhao ĠdaoĠleĠ
52 Ġ
ĠzhiĠ xuĠ
ĠzhiĠ zeĠ
ĠyuĠ gaoĠ
ĠliĠ fangĠ
daĠ duiĠ
daĠ suanĠ
gongĠ yanĠ
gongĠ chiĠ
jianĠ zhuĠdeĠ
wuĠ duanĠ
ĠbuĠ jiu
jieĠ jue
beiĠ dongĠ
shouĠ jiaoĠ
yanĠ xingĠ
ĠsiĠ xingĠ
xiaĠ guĠ
ĠxingĠ xiĠ
lianĠ huiĠ
benĠ haĠ
boĠ mingĠ
boĠ kuanĠ
luoĠ jieĠ
ĠbingĠ wuĠ
tuĠ rangĠ
fengĠ ciĠ
lieĠ wuĠ
chongĠ dangĠ
congĠ ciĠ
boĠwuĠ guan
pingĠjunĠ shuiĠpingĠ
guiĠmoĠ zuiĠdaĠdeĠ
ĠqiĠta ĠrenĠ
Ġcan ĠjianĠ
biĠliĠniuĠsiĠ shengĠ
5 ĠgongĠfenĠ
h ĠĠĠ
Ġ renĠdeĠ
Ġ kaoĠjinĠ
ou ĠerĠ
ĠĠĠ pa
ĠĠĠ 1999
zhi ĠshiĠjianĠ
zheng ĠdiĠ
ci ĠerĠ
jun ĠliĠ
hang ĠdeĠ
hang ĠyuanĠ
mou ĠyiĠ
chou ĠqianĠ
chou ĠwenĠ
sou ĠjiĠ
ĠyouĠ sanĠ
ĠzaiĠ duiĠ
ĠheĠ jinĠ
xianĠ jinĠdeĠ
shouĠ zhouĠ
tongĠ guoĠyiĠ
zheĠ ge
changĠ chun
zhouĠ chengĠ
benĠ zuoĠ
xuanĠ buĠyuĠ
suoĠ waĠ
ĠshengĠ jingĠ
ĠtianĠ zhuĠjiaoĠ
ĠchongĠ zhenĠ
gaiĠbianĠ ziĠ
ĠwanĠrenĠ ciĠ
Ġ hui
Ġ jiao
Ġ rao
Ġ Pi
Ġ yanĠzhongĠ
Ġ shangĠweiĠ
Ġ 1965ĠnianĠ
Ġ 1929ĠnianĠ
yu ĠshiĠyongĠ
yu ĠshiĠjianĠ
ĠĠĠ UAĠ
bing ĠerĠ
hai ĠzhongĠ
ban ĠyiĠ
te ĠdiĠ
bai ĠerĠ
ting ĠyiĠ
tao ĠdeĠ
nai ĠdeĠ
ĠdeĠ chengĠyuanĠ
ĠyuĠ 2017
ĠyuĠ zaiĠ
ĠzaiĠ zheĠzhongĠ
beiĠ guanĠ
yingĠ dangĠ
jiangĠ yuanĠ
xiaoĠ zu
zhangĠ jieĠ
muĠ lanĠ
ĠfuĠ shuĠ
ĠtaĠ xiangĠ
feiĠ chuanĠ
maĠ shangĠ
zhuanĠ tiĠ
danĠ ciĠ
cunĠ zai
kongĠ guĠ
ĠjingĠ shenĠ
ĠtiĠ gaoĠ
ouĠzhouĠ guanĠjunĠ
Ġhuo ĠerĠ
wenĠhua ĠheĠ
ĠminĠ jianĠ
ĠzhiĠzaoĠ shangĠ
minĠzhuĠzhuĠyiĠ renĠminĠ
ĠãĤ¤ Ġ
Ġ o
Ġ nao
Ġ colorĠ
Ġ textĠ
yuan ĠyiĠjiĠ
kai ĠshiĠyiĠ
Xbox ĠĠĠ
ĠzhongĠ duiĠ
ĠbuĠ lanĠ
chengĠ qingĠ
beiĠ guanĠjunĠ
ziĠ xiĠ
chuĠ seĠ
ĠdiĠ erĠjiĠ
dongĠ daoĠ
tongĠ luoĠ
wenĠ niĠ
fenĠ nuĠ
ĠsiĠ yuanĠ
meiĠ guoĠshiĠ
meiĠ zhouĠdeĠ
cheĠ liang
yunĠ songĠ
leiĠ dongĠwuĠ
Ġta ĠrenĠ
zhaoĠ shouĠ
manĠ zu
ĠrenĠkouĠ puĠ
ĠyingĠ xiongĠ
ĠshiĠzhenĠ mianĠjiĠweiĠ
xiangĠgang ĠdaoĠ
ĠshiĠwuĠkeĠ lanĠ
kaĠerĠwaĠ duoĠsiĠ
Ġ 31
Ġ 1935
li ĠchengĠ
ĠĠĠ dingĠyiĠ
ba ĠxianĠ
zhen ĠfuĠ
huan ĠbingĠ
ck ĠĠĠ
ĠshiĠ baiĠ
ĠjiĠ xiangĠ
ĠyouĠ jiaĠ
diĠ 1Ġ
ĠzhongĠ guo
ĠheĠ jiaĠ
siĠ quĠ
jianĠ dan
shengĠ geĠ
beiĠ quĠ
chuĠ mingĠ
shuĠ xia
ĠjiaĠ juĠ
anĠ dingĠ
ĠtaĠ keĠ
gaoĠ jieĠ
caiĠ pan
caiĠ yongĠdeĠ
linĠ yeĠ
ĠchuĠ laiĠ
ĠpingĠ jiaĠ
ĠzhongĠguoĠ zhengĠfuĠ
ĠbenĠ pianĠ
Ġjiu ĠzaiĠ
baoĠdaoĠ chengĠ
gongĠzhongĠ kaiĠfangĠ
ĠdeĠyiĠzuoĠ chengĠshiĠ
Ġ chui
Ġ quĠshiĠ
Ġ chuĠliĠ
Ġ fuĠshiĠ
ĠĠĠ 1994
ĠĠĠ 1997ĠnianĠ
dong ĠzaiĠ
ci ĠnianĠ
ni ĠxiĠya
hao ĠdiĠ
nei ĠerĠ
xiu ĠjieĠmuĠ
me ĠĠĠ
ĠyuĠ shangĠ
ĠbuĠ liaoĠ
wenĠ pingĠ
junĠ keĠ
junĠ shuĠ
ruĠ jinĠ
wanĠ yuanĠ
anĠ dongĠ
benĠ shenĠdeĠ
fanĠ xueĠyuanĠ
ĠdanĠ maiĠ
ĠbeiĠ jing
liĠ shaĠbaiĠ
duanĠ zanĠ
ĠfenĠ ziĠ
ĠnianĠ3ĠyueĠ 31ĠriĠ
zhengĠfu ĠyiĠ
ĠquĠ xiaoĠ
Ġhuo ĠyiĠ
xunĠhuiĠ saiĠ
duoĠerĠ duoĠ
zhuĠlongĠ caoĠ
ĠjingĠneiĠ gongĠyouĠ
Ġ 1966
Ġ shuĠjiĠ
Ġ chuĠqiĠ
Ġ 1944ĠnianĠ
li ĠqiĠ
qian ĠyiĠzhiĠ
sai ĠdaoĠ
chi ĠheĠ
zhao ĠriĠ
rong ĠziĠ
pan ĠxingĠ
mao ĠziĠ
bin ĠweiĠ
36 Ġ
ĠweiĠ buĠ
ĠheĠ kouĠ
jianĠ dui
ziĠ daĠ
faĠ shuĠ
huiĠ ru
fangĠ suoĠ
yinĠ shuĠ
taiĠ yangĠdeĠ
zhouĠ houĠ
ĠgongĠ jianĠ
ĠdanĠ yaoĠ
waiĠ shengĠ
ĠliĠshiĠ xueĠ
ĠnanĠ feiĠ
ĠzuiĠ houĠzaiĠ
daĠxueĠ jiaoĠshouĠ
ĠxiaoĠ fangĠ
ĠluoĠ lunĠ
ĠnianĠzhiĠ jinĠ
Ġling ĠrenĠ
ĠyouĠjiĠ huiĠ
zhanĠzhengĠ baoĠfaĠ
rengĠran ĠshiĠ
ĠxingĠchengĠ leĠ
Ġ niao
Ġ Ta
Ġ ãģĨ
Ġ siĠnianĠ
Ġ zhongĠjiĠ
bu ĠliĠsiĠ
er ĠshiĠyiĠnianĠ
wan ĠjiĠ
yao ĠjiĠ
pei ĠliĠ
zhui ĠzongĠ
jieĠ luĠ
chengĠ cheĠ
faĠ shouĠdeĠ
faĠ dianĠjiĠ
jinĠ lingĠ
guanĠ zhongĠdeĠ
gaiĠ zuĠ
meiĠ jieĠ
zuĠ gou
anĠ shaĠ
kaiĠ caiĠ
baĠ teĠ
paiĠ zhaoĠ
ĠfaĠ shouĠ
ĠdeĠjiĠ changĠ
Ġsuo ĠyouĠdeĠ
ĠyouĠqiĠshiĠ zaiĠ
3 ĠjiaĠ
Ġ 1965
Ġ geĠshiĠ
Ġ 1943ĠnianĠ
ĠĠĠ yinĠduĠ
qu ĠdeĠshiĠ
le ĠguoĠ
gu ĠzhongĠ
lin ĠguoĠ
geng ĠdiĠ
ĠshiĠ jinĠ
ĠweiĠ meiĠguoĠ
ĠzhiĠ daĠ
ĠzhiĠ shengĠ
ĠyuĠ 2022
ĠliĠ taoĠwanĠ
chuĠ fenĠ
tiĠ changĠ
fenĠ changĠ
lingĠ hun
shanĠ changĠ
biaoĠ jueĠ
kaiĠ fangĠshiĠ
suĠ qiuĠ
tuĠ zhuĠ
qiangĠ poĠ
tangĠ niao
quĠdeĠ deĠ
jingĠjiĠ buĠ
ĠzhengĠ mingĠ
yinĠyueĠ luĠyingĠdaiĠ
ĠyueĠhanĠ xunĠ
ĠgaiĠshengĠfenĠweiĠfaĠguoĠ xiĠbeiĠbuĠ
4 ĠĠĠ
b ĠĠĠ
Ġ Ri
Ġ kunĠ
Ġ Ã©Ġ
ĠĠĠ lianĠ
shu ĠĠĠ
lu ĠdaĠ
qing ĠdanĠ
duo ĠerĠshengĠ
lao ĠnianĠ
lao ĠyuanĠ
zang ĠzuĠ
die ĠdeĠ
cm Ġ
ĠshiĠ xiangĠ
ĠshiĠ baĠxiĠ
ĠjiĠ shangĠ
qiĠ bingĠ
fuĠ yuanĠzhangĠ
geĠ wuĠ
shouĠ menĠ
leĠ fuĠ
jiangĠ luoĠ
pingĠ min
kaiĠ fangĠdeĠ
liuĠ paiĠ
caiĠ beiĠ
baiĠ yinĠ
baiĠ tuoĠ
ĠchengĠ zuoĠ
ĠyeĠ yinĠciĠ
ĠliĠshiĠ zhangĠ
4Ġ gongĠliĠ
ĠzhengĠ tiĠ
wenĠhua ĠyiĠ
Ġfei ĠerĠ
xuĠduo ĠrenĠ
ĠerĠgaiĠdiĠ zuiĠgaoĠdianĠweiĠ
hangĠzhanĠ louĠ
ĠerĠgaiĠdiĠzuiĠgaoĠdianĠweiĠ haiĠbaĠgaoĠduĠ
5 ĠĠĠ
Ġ 1973
Ġ fangĠyuĠ
Ġ cuiĠ
Ġ shenĠweiĠ
Ġ 1967ĠnianĠ
ji ĠyiĠgeĠ
he ĠdeĠguoĠ
jie ĠshiĠweiĠ
she ĠerĠ
lai ĠxiĠ
jiu ĠshiĠjiĠ
duo ĠjiĠ
sai ĠshiĠyuĠ
su ĠxingĠ
shui ĠliĠfaĠ
zhao ĠzhiĠ
que ĠxiĠ
zhui ĠdongĠwuĠ
64 Ġ
ĠshiĠ yongĠyuĠ
diĠ tie
fuĠ zongĠtongĠ
juĠ dongĠ
yeĠ yinĠciĠ
gaiĠ daoĠ
gaoĠ yaĠ
chongĠ tu
diĠyiĠ daiĠ
douĠ yaoĠ
yueĠ duiĠ
ĠmeiĠ tianĠ
Ġye ĠyuĠ
ĠguoĠjiaĠ anĠquanĠ
ĠdianĠ nao
enĠ shengĠheĠ
ĠbingĠyuĠ tong
Ġwo ĠerĠ
neiĠrong ĠdeĠ
maĠkeĠ xiĠ
baoĠshouĠ dangĠ
ĠjinĠru ĠzhiĠluĠhouĠ
aoĠdaĠliĠ ya
e ĠyiĠ
Ġ 69
Ġ saĠerĠ
ĠĠĠ ruo
ĠĠĠ Car
xian ĠyouĠdeĠ
te ĠkeĠ
tian ĠxingĠ
han ĠzhongĠ
cai ĠyuĠ
lie ĠkeĠ
huang ĠziĠ
zha ĠerĠ
70 ĠnianĠdaiĠ
ĠheĠ buĠ
daĠ zhanĠ
xingĠ daoĠ
ĠbuĠ fuĠ
chengĠ jiangĠ
ziĠ junĠ
riĠ ziĠ
leĠ wuĠ
xueĠ paiĠ
fenĠ ziĠdeĠ
qingĠ junĠ
feiĠ cui
dingĠ gouĠ
chuanĠ mei
ĠxiangĠ huĠ
lunĠ taiĠ
ĠyinĠ suĠ
shuiĠ niĠ
ranĠ liao
Ġyin ĠdiĠ
ĠzhanĠ shenĠ
zhengĠfu ĠweiĠ
ĠfanĠ huiĠ
Ġdai ĠweiĠ
Ġ2010ĠnianĠ renĠkouĠ
daiĠlaiĠ leĠ
ziĠbenĠ zhuĠyiĠ
Ġ Da
Ġ 110
Ġ ãĥĥ
Ġ geĠzhongĠ
ao ĠweiĠhuiĠ
ĠĠĠ bianĠ
20 ĠgeĠ
dang ĠsiĠ
suo ĠerĠ
lv ĠbingĠ
xun ĠyiĠ
ĠyuĠ 2023
ĠheĠ changĠ
jieĠ cengĠ
jieĠ duanĠdeĠ
ĠqiĠ xianĠ
ciĠ huiĠyiĠ
shenĠ jing
lianĠ saiĠzhongĠ
benĠ laiĠ
ĠbingĠ yaoĠqiuĠ
dangĠ xiaoĠ
shanĠ chengĠ
sanĠ shengĠ
ĠchuĠ zhanĠ
ĠjieĠ shaoĠ
diaoĠ leĠ
ĠjiangĠ huiĠ
ĠdeĠzhiĠ daoĠ
ĠtaĠmenĠ renĠweiĠ
ĠbenĠ pian
chunĠ qiuĠ
baĠleĠsiĠ tan
Ġ 99
Ġ 1952
Ġ 130
Ġ tuiĠdongĠ
ĠĠĠ zhe
di ĠshiĠqiĠ
xiao ĠerĠ
gao ĠyiĠ
la ĠjiaĠ
zui ĠjiĠ
liu ĠguoĠ
ka ĠxiĠ
to ĠĠĠ
cal ĠĠĠ
ĠyiĠ zuĠ
Ġnian ĠdeĠyiĠ
ĠzhiĠ zao
ĠzhiĠ shao
ĠyouĠ jianĠ
gongĠ qiĠ
ĠyueĠ zhanĠ
huiĠ wuĠ
ĠerĠ bu
jingĠ shangĠ
huaĠ naĠ
yeĠ zhuĠ
taiĠ fuĠ
ĠkeĠ keĠ
gaiĠ ge
biĠ teĠ
ĠfuĠ nvĠ
duoĠ biĠ
ĠziĠ geĠ
ĠzhuĠ mingĠdeĠ
touĠ jiaoĠ
ganĠ xieĠ
ĠluĠ xianĠ
ĠnianĠzhiĠ jianĠ
ĠdiĠerĠ tianĠ
ĠlianĠ tongĠ
ĠniĠ guĠlaĠ
wuĠzhuang ĠbuĠduiĠ
jueĠseĠbanĠyan ĠyouĠxiĠ
Ġ 1974
Ġ yanĠshiĠ
Ġ 1924ĠnianĠ
ĠĠĠ Na
ru ĠjiaĠ
pi ĠshiĠ
gan ĠxingĠquĠ
100 ĠwanĠ
ĠzhiĠ kongĠ
buĠ bingĠ
ĠyouĠ meiĠguoĠ
diĠ biaoĠ
daĠ huoĠ
yuanĠ chuang
jiaĠ laiĠ
yanĠ shouĠ
huaĠ xiangĠ
zuoĠ yongĠdeĠ
ruĠ changĠ
qingĠ dianĠ
ĠtaĠ cengĠzaiĠ
bianĠ xiuĠ
suoĠ xiaĠdeĠyiĠgeĠ
caiĠ seĠ
ĠqingĠ chao
ĠnianĠ12ĠyueĠ 1ĠriĠ
haĠ maĠ
ĠweiĠjiĠ baiĠkeĠ
xiaoĠzuĠ saiĠ
yinĠhang ĠdeĠ
Ġdong ĠyuĠ
ĠpuĠtaoĠ yaĠ
ĠtaiĠpingĠ yangĠ
jieĠxiaĠ laiĠdeĠ
ĠweiĠyuĠfaĠguoĠao ĠkeĠxiĠtaĠniĠdaĠquĠ
ĠshiĠweiĠyuĠmeiĠguoĠmiĠsuĠliĠ zhouĠ
Ġ in
Ġ 150
Ġ 1954
Ġ JohnĠĠĠ
an ĠzaiĠ
li ĠzhiĠ
ĠĠĠ zhuanĠjiĠ
hai ĠrenĠ
wan ĠheĠ
mo ĠyuĠ
zhuan ĠshiĠ
zhuan ĠdaoĠ
shao ĠerĠ
guai ĠshouĠ
TV Ġ
zhongĠ cengĠshuiĠyuĠ
qiĠ dianĠ
ĠyouĠ zuoĠ
daĠ shangĠ
geĠ zhouĠ
chuĠ zuĠ
shuĠ shangĠ
quĠ shengĠ
shouĠ chuĠ
jingĠ ziĠ
ĠdaĠ mingĠ
jiangĠ huĠshiĠdaiĠ
ĠkeĠ luĠ
ĠfuĠ laiĠ
guĠ shengĠ
ĠshiĠyiĠ yue
ĠzhuĠ dongĠ
shuiĠ wuĠ
ĠchengĠ baoĠ
meiĠyouĠ renĠ
ĠdeĠzhiĠ yuanĠ
ĠyouĠyiĠ xiaĠ
erĠshiĠ sanĠnianĠ
Ġxian ĠheĠ
fuĠwuĠ qiĠ
beiĠrenĠ wei
jianĠchaĠ yuanĠ
Ġzhuan ĠrenĠ
ĠliĠru ĠzaiĠ
tianĠjingĠ yunĠdongĠyuanĠ
ĠĠĠdan ĠshiĠ
yeĠshengĠ dongĠwuĠ
ĠqiĠxiĠzaiĠdiĠ cengĠshuiĠyuĠ
1 ĠshiĠ
Ġ 1936
ĠĠĠ faĠzhanĠ
ĠĠĠ 1995ĠnianĠ
bi ĠzaiĠ
ya ĠdiĠ
bian ĠdiĠ
tian ĠguoĠ
zhuang ĠchengĠ
tiao ĠdeĠ
kuang ĠdeĠ
jieĠ shouĠdeĠ
chengĠ weiĠshiĠ
leĠ zheĠgeĠ
fangĠ wen
yeĠ ziĠ
guanĠ tongĠ
changĠ tuĠ
zhangĠ huĠ
wangĠ zhuĠ
suĠ junĠ
leiĠ teĠ
baiĠ fenĠ
ĠchengĠ weiĠyiĠ
ĠweiĠyuĠ taiĠwanĠ
diĠyiĠ ciĠshiĠjieĠdaĠzhanĠ
keĠyiĠ youĠ
2Ġ fenĠ
Ġsui ĠzhiĠ
yinĠyueĠ xueĠyuanĠ
ĠhongĠ seĠ
Ġao ĠerĠ
ĠdeĠzhiĠchiĠ zheĠ
zhuangĠjiĠ kengĠ
ĠgeĠlanĠ teĠ
3 ĠzhiĠ
3 ĠciĠ
Ġ Bo
yi ĠshiĠyiĠ
ĠĠĠ Al
ĠĠĠ tieĠluĠ
ĠĠĠ BĠ
ĠĠĠ lvĠyouĠ
ĠĠĠ taĠyuĠ
zhi ĠyiĠjiĠ
xing ĠshiĠweiĠ
yin ĠyueĠshiĠ
ye ĠdaĠ
wan ĠzhiĠ
xie ĠyouĠ
ding ĠdanĠ
sai ĠkeĠsiĠ
lin ĠweiĠ
re ĠheĠ
tic ĠĠĠ
ĠshiĠ zhengĠfuĠ
ĠzhiĠ renĠ
ĠzhiĠ liaoĠ
ĠyouĠ xiangĠ
keĠ chuanĠ
xiangĠ fenĠ
jingĠ shuĠ
jiaoĠ suoĠ
luĠ junĠdiĠ
nanĠ anĠ
qingĠ chunĠ
biĠ yaĠdeĠ
duoĠ luoĠ
ĠxianĠ fengĠ
lingĠ zhuĠ
ĠbeiĠ mianĠ
paiĠ chuĠdeĠ
ĠchengĠ huaĠ
ĠchengĠ haoĠ
danĠ niĠerĠ
diĠyiĠ zhangĠ
kaiĠshiĠ jinĠxingĠ
ĠfaĠ lanĠkeĠ
ĠshuĠ mingĠ
ĠjiangĠ taĠ
ĠqianĠ shenĠweiĠ
zouĠ langĠ
ĠhanĠ shuĠ
huiĠshiĠ diĠ
Ġliu ĠxingĠ
yingĠyongĠ chengĠshiĠ
waiĠjiaoĠbuĠ zhangĠ
ĠaĠerĠbeiĠsiĠ daĠquĠ
miĠxiĠxiĠ biĠ
Ġ 53
Ġ yuanĠyuĠ
Ġ manĠhuaĠ
Ġ 1969ĠnianĠ
ĠĠĠ lvĠ
ĠĠĠ taĠshiĠ
jian ĠdeĠshiĠ
ke ĠweiĠqiĠ
mei ĠyouĠshiĠ
she ĠfuĠ
shen ĠerĠ
bo ĠweiĠ
zhen ĠxiĠ
chi ĠzaiĠ
rui ĠdeĠ
nai ĠzhiĠ
62 Ġ
ĠyiĠ quĠ
Ġnian ĠnianĠdiĠ
gongĠ zhengĠ
shengĠ daĠ
xianĠ xianĠ
ĠqiĠ hou
jinĠ liangĠ
jinĠ menĠ
shouĠ keĠ
shouĠ lieĠ
xueĠ xi
jiaoĠ caiĠ
bingĠ daoĠ
ĠkeĠ zuoĠweiĠ
biĠ saiĠshiĠ
liangĠ xingĠ
shenĠ gaoĠ
sheĠ faĠ
zuiĠ zhongĠyiĠ
xuanĠ juĠdeĠ
ĠgeĠ xiangĠ
ĠjianĠ duiĠ
chuanĠ ruĠ
ĠzheĠ jiuĠshiĠ
linĠ ken
ĠwuĠ dingĠ
zhuanĠ huaĠweiĠ
touĠ suĠ
cunĠ zaiĠyiĠ
hongĠ se
shuoĠ huaĠ
tuoĠ zhanĠ
diĠerĠ ciĠshiĠjieĠdaĠ
zongĠtongĠ xuanĠjuĠ
ĠyeĠjiuĠshiĠ shuoĠ
ĠãģĦ Ġ
Ġ miaoĠshuĠ
Ġ chuĠshiĠ
Ġ fuĠyuĠ
ĠĠĠ 1994ĠnianĠ
19 ĠnianĠ
yin ĠguoĠ
xue ĠerĠ
zhe ĠdaĠ
mei ĠyueĠ
fan ĠliĠ
mo ĠjiĠ
lin ĠdaĠ
17 ĠnianĠ
ĠyiĠ zhuĠ
ĠzaiĠ zheĠliĠ
daĠ anĠ
fuĠ nv
geĠ ziĠdeĠ
faĠ diĠ
chuĠ shenĠdeĠ
huiĠ yinĠ
dongĠ ciĠ
zheĠ me
tiĠ cao
pingĠ jun
gaiĠ gongĠsiĠ
nanĠ zhanĠ
ĠdanĠ taĠdeĠ
chuanĠ dongĠ
ĠzhuĠ jiaoĠ
duanĠ tuĠ
qiangĠ lie
ĠyuanĠ chaoĠ
kaĠ luoĠsiĠ
tuoĠ baĠ
ĠyinĠweiĠ zaiĠ
Ġgu ĠerĠ
erĠheĠ panĠ
mingĠxingĠ saiĠ
Ġãĥĥ Ġ
Ġ 1967
Ġ 1951
Ġ Ki
Ġ 112
Ġ 900
Ġ ãĥ©
Ġ 1926ĠnianĠ
ĠĠĠ woĠ
ĠĠĠ RĠ
ĠĠĠ 1998ĠnianĠ
si ĠĠĠ
yin ĠbuĠ
ban ĠzaiĠ
ben ĠguoĠ
yao ĠyouĠ
zui ĠnianĠqingĠdeĠ
hao ĠbuĠ
shui ĠbuĠ
11 ĠnianĠ
ty ĠĠĠ
buĠ luĠkeĠ
xingĠ cunĠ
jiaĠ zhiĠdeĠ
jieĠ jianĠ
ĠqiĠ wangĠ
jinĠ biĠ
juĠ juĠ
jingĠ zhuĠ
ĠdaĠ xueĠshiĠ
huoĠ dongĠshiĠ
wanĠ baoĠ
boĠ dongĠ
cheĠ tiĠ
cheĠ zhanĠdeĠ
guĠ dai
liuĠ xiangĠ
niĠ ri
ĠyinĠ du
ĠjuĠ xingĠdeĠ
ĠliĠshiĠ youĠ
liĠshiĠ shangĠ
jueĠdingĠ jiangĠ
ĠfeiĠ zhouĠ
ĠĠĠqiĠ yuanĠ
buĠfen ĠdeĠ
ĠgaiĠshengĠfenĠweiĠfaĠguoĠbeiĠbuĠ neiĠluĠshengĠfenĠ
z ĠĠĠ
Ġ shengĠjiĠ
Ġ dongĠshiĠ
Ġ 1923ĠnianĠ
ĠĠĠ minĠ
ĠĠĠ biĠyeĠyuĠ
ĠĠĠ 1996ĠnianĠ
ren ĠyiĠqiĠ
bu ĠweiĠyuanĠ
chong ĠwuĠ
huang ĠgongĠ
xiu ĠjiĠ
hong ĠweiĠ
teng ĠbaoĠ
46 Ġ
ton Ġ
ĠyuĠ 2010
ĠliĠ baĠnen
qiĠ che
geĠ luoĠ
geĠ linĠ
chengĠ neiĠ
zhengĠ xianĠ
zhengĠ shouĠ
houĠ mianĠ
yanĠ zhuĠ
yanĠ zheĠ
zheĠ leiĠ
xinĠ fuĠ
qianĠ beiĠ
xiaĠ xianĠ
meiĠ lianĠ
lianĠ duiĠ
shanĠ cunĠ
baĠ mingĠ
ĠdanĠ queĠ
zeĠ biaoĠshiĠ
moĠ duanĠ
ĠgaiĠ shanĠ
ĠgaiĠ pianĠ
eĠ moĠ
ĠyingĠ geĠlanĠ
waĠ jueĠ
ĠjiuĠ xiangĠ
Ġa ĠfuĠ
Ġbei ĠyuĠweiĠ
nengĠgou ĠzaiĠ
ĠyiĠliĠ fangĠmiĠ
wenĠyiĠ fuĠ
ĠjiĠnian ĠbeiĠ
5 ĠhaoĠ
Ġ Ni
Ġ No
Ġ cĠ
ĠĠĠ 0Ġ
ĠĠĠ 1991ĠnianĠ
xing ĠshiĠjianĠ
yue ĠdeĠ
ju ĠheĠwuĠ
hua ĠguoĠ
qian ĠnianĠ
suo ĠliĠ
200 Ġ
man ĠheĠ
chen ĠzhiĠ
lao ĠshuĠ
xiong ĠshouĠ
ra ĠĠĠ
diĠ kangĠ
daĠ poĠ
siĠ duoĠ
jieĠ pou
ĠqiĠ erĠ
leĠ sanĠ
fangĠ huoĠ
shenĠ zhenĠshiĠ
ĠgongĠ zuoĠshiĠ
xuanĠ wuĠ
maĠ shuĠ
laĠ laĠ
ĠjuĠ chengĠ
tuanĠ tiĠdeĠ
ranĠ shao
suoĠyouĠ renĠ
diĠerĠ ciĠshiĠjieĠdaĠzhanĠ
Ġai ĠsiĠ
shengĠhuo ĠyuĠ
yinĠdiĠ anĠrenĠ
ĠĠĠjuĠqingĠ jianĠjieĠ
ĠlianĠheĠ taiĠfengĠjingĠbao
ĠliĠgongĠ daĠxueĠ
aiĠshaĠ niĠyaĠ
yeĠluĠsaĠ leng
Ġ p
li ĠbuĠ
zhi ĠshiĠshiĠ
hui ĠĠĠ
she ĠshiĠdeĠ
lai ĠliĠ
jiu ĠweiĠ
ni ĠjiaĠ
lan ĠzhiĠ
gang ĠjinĠ
xiu ĠxingĠ
kuo ĠdeĠ
56 Ġ
ĠyiĠ qie
ĠzhiĠ houĠyouĠ
ĠbuĠ buĠzhangĠ
juĠ tuanĠ
shouĠ jianĠ
dongĠ yongĠ
tongĠ qingĠ
guanĠ xinĠ
xinĠ baoĠ
gaiĠ jianĠweiĠ
miĠ laĠ
qiuĠ lingĠ
teĠ seĠdeĠ
dengĠ chuĠ
suĠ song
jueĠ ce
kongĠ queĠ
Ġbing ĠjiĠ
jingĠjiĠ changĠ
waĠ leiĠ
maiĠ aĠmiĠ
ĠbiĠ jiaoĠ
erĠshiĠ siĠnianĠ
shuangĠ bianĠ
ĠdangĠ juĠ
zuĠqiuĠ huiĠ
ĠweiĠyuĠgaiĠguoĠ xiĠbeiĠbuĠ
ĠliĠkaiĠ leĠ
Ġ nv
Ġ Lu
Ġ qiĠjiĠ
ĠĠĠ World
ĠĠĠ tiĠ
ĠĠĠ zuiĠzhongĠ
ti ĠdeĠshiĠ
mi ĠheĠ
zhan ĠshiĠdeĠ
ping ĠdiĠ
min ĠjiĠ
ben ĠyuĠ
san ĠdaoĠ
su ĠdiĠ
hong ĠdeĠ
kang ĠfuĠ
gongĠ ruĠ
jiaĠ meng
jieĠ erĠ
zhuĠ bianĠ
shengĠ mingĠdeĠ
ziĠ wo
jingĠ wuĠ
huaĠ huiĠ
liangĠ ge
ĠfuĠ ziĠ
meiĠ guoĠjiĠ
xuĠ zuoĠ
yaoĠ qing
zuiĠ xiaoĠdeĠ
ĠgeĠ ciĠ
ĠdanĠ mai
fengĠ jianĠ
caiĠ kaiĠshiĠ
ĠzheĠ yang
ĠjieĠ gou
ĠdeĠdiĠ dianĠ
juanĠ kuanĠ
ruoĠ gan
Ġci ĠjiĠ
ĠĠĠbenĠ jieĠ
ĠweiĠdiĠ qiĠ
Ġzhong ĠnianĠ
4 ĠmiĠ
Ġ Fa
xing ĠrenĠwuĠ
zheng ĠerĠ
bing ĠzhiĠyuĠ
dan ĠxingĠ
yong ĠdaĠ
mu ĠkeĠ
dai ĠqiĠ
lai ĠyouĠ
bian ĠyouĠ
zui ĠdeĠ
xuan ĠzhiĠ
ka ĠdiĠ
juan ĠruĠ
cuo ĠdeĠ
ga ĠerĠ
ĠshiĠ mingĠ
diĠ qiu
jianĠ zhangĠ
ĠbuĠ renĠ
zhuĠ ziĠ
xianĠ leĠ
ziĠ tiĠ
jingĠ ying
baoĠ cun
qianĠ fuĠ
shenĠ houĠ
jiuĠ xiangĠ
guĠ juĠ
guĠ jianĠzhuĠ
ĠdeĠyiĠ chuĠ
niĠ zhuanĠ
shuiĠ xiaĠ
ĠmingĠ mingĠweiĠ
diĠerĠ baiĠ
ĠgaoĠ suĠ
jingĠliĠ leĠ
ĠtongĠnianĠ wuĠyueĠ
ĠweiĠyuĠfaĠguoĠ boĠgenĠdiĠ
ĠjiĠzheĠ huiĠ
xinĠjiĠ neiĠyaĠ
maĠlaĠ yaĠ
ĠxingĠzheng ĠzhongĠxinĠweiĠ
canĠjiĠrenĠ aoĠlinĠpiĠkeĠyunĠdongĠhuiĠ
Ġ huaĠshiĠ
Ġ shengĠliĠ
Ġ luoĠdeĠ
Ġ buĠzhiĠ
Ġ 1911ĠnianĠ
ĠĠĠ 1990
ĠĠĠ chengĠshiĠ
wei ĠshiĠyongĠ
jin ĠnianĠlaiĠ
dui ĠxiĠ
jun ĠshiĠjiĠ
du ĠliĠshiĠ
mu ĠdaĠ
nan ĠdiĠ
pi ĠziĠ
huang ĠweiĠ
ed ĠĠĠ
ĠyuĠ tong
ĠyuĠ zhangĠ
ĠzaiĠ yeĠ
yuanĠ benĠdeĠ
fuĠ shangĠ
wuĠ xiangĠ
chengĠ mingĠ
daoĠ shuĠ
beiĠ jiaoĠ
riĠ shengĠ
dongĠ jieĠ
ĠdaoĠ qiĠ
huĠ hangĠ
maĠ muĠ
ĠjinĠ shenĠ
piĠ aiĠerĠ
2Ġ xianĠdeĠ
renĠweiĠ taĠ
taoĠ yuanĠshiĠ
poĠ lieĠ
ĠdeĠzhiĠ jieĠ
ĠzongĠ buĠweiĠyuĠ
ĠkeĠyiĠ zaiĠ
baoĠhuĠ quĠ
ĠzhuĠyao ĠyouĠ
sheĠhuiĠzhuĠyiĠ gongĠheĠguoĠ
tianĠzhuĠ jiao
Ġ ren
Ġ tai
Ġ silver
Ġ mouĠ
Ġ 1914ĠnianĠ
ĠĠĠ neiĠrongĠ
ci ĠguoĠgongĠ
lu ĠliĠ
huo ĠsiĠ
duo ĠqiĠ
te ĠzhongĠ
nei ĠkeĠ
can ĠzhongĠ
pian ĠliĠ
tui ĠwuĠ
sun ĠhuiĠ
ĠyouĠ erĠ
jiaĠ zhangĠ
jiaĠ binĠ
zhuĠ fuĠ
ĠerĠ jieĠ
fangĠ keĠ
zuoĠ fuĠ
jiaoĠ jieĠchuĠ
xiaoĠ ziĠ
xiaoĠ dongĠ
xiaoĠ xinĠ
quanĠ meiĠ
guĠ wen
guĠ shouĠ
lvĠ zhangĠ
diĠyiĠ ciĠshiĠjieĠdaĠ
ĠyuanĠ yinĠshiĠ
Ġtong ĠshiĠyiĠ
pianĠ changĠ
chuangĠ ruĠ
ĠmuĠ diĠshiĠ
ĠyongĠ zhengĠ
shengĠchanĠ zongĠzhiĠ
wenĠxueĠ jiangĠ
ĠwaiĠ jiaoĠ
juĠbanĠ leĠ
zhengĠquanĠ jiaoĠyiĠsuoĠ
yinĠfaĠ leĠ
junĠzhongĠ jiangĠ
ĠguoĠanĠ faĠ
3 ĠwanĠ
8 ĠmingĠ
Ġ n
Ġ 1961
ĠĠĠ haoĠ
ĠĠĠ zongĠjiaoĠ
ke ĠyiĠjiĠ
ju ĠqiĠ
zuo ĠyouĠdeĠ
qian ĠbuĠ
wang ĠzhongĠ
dang ĠnianĠdeĠ
xun ĠzhiĠ
tui ĠweiĠ
chou ĠjianĠ
63 Ġ
buĠ erĠ
ĠyouĠ yuĠshiĠ
diĠ fuĠ
ĠzaiĠ shangĠhaiĠ
ĠrenĠ wenĠ
jiaĠ jingĠ
jinĠ qianĠ
ĠxiĠ yaĠdeĠ
bingĠ fei
Ġdan ĠheĠ
muĠ shanĠ
ĠfuĠ huoĠ
minĠ shengĠ
jiuĠ chuĠ
zuiĠ haoĠ
kaiĠ huoĠ
fengĠ boĠ
sanĠ fenĠzhiĠyiĠ
ĠxiangĠ yaoĠ
Ġdang ĠtaĠ
ĠmuĠ fuĠ
ĠtongĠ xingĠ
miaoĠ zhun
ĠtianĠ jinĠshiĠ
renĠminĠ biĠ
renĠminĠ faĠyuanĠ
erĠjiĠ siĠ
ĠhuoĠdeĠ diĠ
ĠsaiĠ erĠweiĠ
shaĠsiĠ leĠ
zhengĠxie ĠfuĠzhuĠxiĠ
Ġ2025 ĠnianĠ
ĠĠĠxiangĠgang ĠshiĠjianĠ
ĠmeiĠnianĠpingĠjunĠ jiangĠyuĠliangĠ
Ġsilver Ġ
Ġ Su
Ġ fanĠweiĠ
Ġ kĠ
Ġ gĠ
ĠĠĠ Ar
ĠĠĠ Lo
ĠĠĠ tiĠyuĠ
qu ĠerĠ
dang ĠqiĠ
gui ĠweiĠ
lun ĠdiĠ
qiao ĠshiĠ
hen ĠhaoĠ
shuang ĠrenĠ
ĠyiĠ guanĠ
jianĠ qingĠ
shengĠ siĠ
beiĠ yongĠ
beiĠ xuanĠweiĠ
zhanĠ huoĠ
ĠriĠ zhiĠshiĠqiĠ
xinĠ ganĠxianĠ
wenĠ tiĠshiĠ
fenĠ miĠ
jiangĠ ciĠ
xiaoĠ shengĠ
dianĠ fuĠ
biĠ shangĠ
anĠ shanĠ
bianĠ geĠ
zuiĠ fanĠ
biaoĠ qianĠ
caiĠ yuanĠ
moĠ zuĠ
ĠwuĠ taiĠ
ĠyiĠzhiĠ zhiĠ
ĠtaiĠ ziĠ
ĠchangĠ biĠsaiĠ
Ġa ĠsiĠ
siĠliĠ lanĠkaĠ
shuangĠdaĠ guanĠjunĠ
Ġ saiĠshiĠ
Ġ biaoĠmingĠ
Ġ junĠjiĠ
ng Ġ
an ĠqiĠ
ĠĠĠ meiĠtiĠ
qu ĠbuĠ
zhe ĠqiĠ
she ĠqiĠ
duo ĠzhiĠ
te ĠyouĠdeĠ
ba ĠliĠdeĠ
che ĠxianĠ
chuan ĠyiĠ
dou ĠkeĠ
can ĠjiĠ
zhao ĠxiangĠ
qiang ĠheĠ
gen ĠzhuĠ
nu ĠerĠ
lve ĠyouĠ
niao ĠdeĠ
zhiĠ wuĠ
ĠyuĠ huiĠ
ĠzhongĠ heĠ
jieĠ mengĠ
chengĠ yuan
daoĠ taiĠ
beiĠ shouĠyuĠ
faĠ xueĠyuanĠ
yingĠ ziĠ
yeĠ beiĠchengĠweiĠ
jiaoĠ huan
jiaoĠ tongĠshiĠ
xiaoĠ sanĠ
zhangĠ zheĠ
wangĠ zhanĠdeĠ
baĠ wangĠ
hanĠ shuĠdeĠ
zhuanĠ bianĠweiĠ
aĠ leiĠ
Ġba ĠkeĠ
zheĠyiĠ dianĠ
ĠdiĠyiĠ geĠ
tongĠchangĠ huiĠ
kunĠ raoĠ
ĠxiĠbanĠ ya
qianĠshuĠ leĠ
Ġ 1971
Ġ rĠ
ĠĠĠ Music
ĠĠĠ School
mei ĠweiĠ
wang ĠweiĠjiĠ
lian ĠyuĠ
ling ĠtaĠ
che ĠzhiĠ
tian ĠliĠ
cai ĠheĠ
gui ĠfuĠ
tiao ĠheĠ
lao ĠsiĠ
chun ĠtianĠ
peng ĠhuĠ
zhui ĠhuiĠ
ĠyiĠ liaoĠ
ĠyouĠ gongĠ
ĠyouĠ qingĠ
ĠyouĠ guanĠdeĠ
xingĠ jingĠ
jieĠ naĠ
chengĠ jianĠ
fenĠ gongĠsiĠ
ĠkeĠ huĠ
liangĠ juĠ
ĠxingĠ rongĠ
lianĠ luo
zuiĠ changĠjianĠdeĠ
ĠbingĠ congĠ
moĠ ni
diĠyiĠ lunĠ
hangĠ yunĠ
Ġer ĠnianĠ
ĠdeĠzhiĠ liuĠ
ĠnianĠ2ĠyueĠ 1ĠriĠ
ĠĠĠdeĠ guoĠ
ĠyaoĠ qingĠ
faĠerĠ ciĠ
meiĠguoĠzhiĠ bangĠdaĠ
aoĠlinĠpiĠ ke
Ġ daĠshiĠ
Ġ juĠzhongĠ
ĠĠĠ 1991
ĠĠĠ idĠ
zhong ĠyiĠweiĠ
he ĠliĠdeĠ
jie ĠshiĠdeĠ
hai ĠerĠ
ping ĠriĠ
ben ĠxingĠ
suo ĠbuĠ
200 ĠmiĠ
ran ĠyouĠ
tan ĠdaoĠ
ĠnianĠ taĠ
fuĠ teĠ
beiĠ duanĠ
huiĠ tanĠ
jiaoĠ lvĠ
zhangĠ laoĠ
shenĠ xingĠ
ĠgongĠ neng
guĠ muĠ
suoĠ feiĠ
suoĠ niĠ
ĠziĠ xunĠ
aoĠ huiĠ
manĠ enĠ
taoĠ zouĠ
ĠmuĠ hanĠmoĠdeĠ
saĠ leiĠ
ĠaiĠ lunĠ
yaĠzhouĠ dianĠshiĠ
ĠnianĠdai ĠqiĠ
ĠhouĠlai ĠyouĠ
zhanĠweiĠyuĠ zhongĠhuaĠrenĠminĠgongĠheĠguoĠ
luĠwa ĠerĠheĠ
keĠxue ĠjiĠshuĠ
aĠerĠbaĠ niĠyaĠ
Ġ gou
Ġ wuĠweiĠ
ai ĠkeĠ
ch ĠĠĠ
ĠĠĠ 1950
ĠĠĠ was
di ĠweiĠyuĠ
tong ĠliĠ
tong ĠzaiĠ
zhang ĠerĠ
zhou ĠyouĠ
shen ĠzaiĠ
min ĠyuĠ
ba ĠdaoĠ
lun ĠzheĠ
can ĠyinĠ
duan ĠyiĠ
qiang ĠyuĠ
ha ĠbuĠsiĠbaoĠ
heng ĠliangĠ
lou ĠdongĠ
100 ĠmiĠ
2026 ĠnianĠ1ĠyueĠ
09 Ġ
weiĠ lianĠ
ĠjiĠ xiĠ
ĠyuĠ 2011
ĠliĠ xiĠ
ĠzhongĠ huaĠrenĠminĠgongĠheĠ
yuanĠ shuaiĠ
jianĠ diĠ
jianĠ wuĠ
ĠbuĠ jiaĠ
daoĠ jiaoĠ
huiĠ duiĠ
tongĠ guo
zuoĠ luoĠ
shenĠ xianĠ
zhenĠ xiaĠxiaĠyiĠxiaĠdiĠquĠ
teĠ xuĠ
ĠxianĠ chengĠ
zongĠ jueĠsaiĠ
youĠ xiuĠ
ĠdanĠ niĠerĠ
ĠjinĠ laiĠ
ĠjuĠ zhuĠzaiĠ
ĠgaiĠ juĠ
xunĠ huan
liaoĠ ningĠ
ĠnianĠ8ĠyueĠ 31ĠriĠ
zuĠqiuĠ jinĠbiaoĠsaiĠ
huaiĠ yunĠ
Ġai ĠjiĠ
Ġda ĠzhongĠ
jiangĠqiĠ shengĠgeĠweiĠ
zongĠheĠ xingĠ
ruĠxiaĠ biaoĠ
wuĠtaiĠ juĠ
Ġ2007ĠnianĠ renĠkouĠ
hongĠshiĠziĠ huiĠ
a ĠgeĠ
Ġ mouĠxieĠ
Ġ 1922ĠnianĠ
ĠĠĠ zheĠshiĠ
zhong ĠdeĠshiĠ
ming ĠxiĠ
gao ĠrenĠ
zong ĠjiĠweiĠ
lan ĠdiĠ
pian ĠjianĠ
wa ĠkeĠ
xiong ĠxingĠ
13 ĠgeĠ
chou ĠdeĠ
chou ĠxiangĠ
SA Ġ
us ĠĠĠ
ĠshiĠ duiĠ
yuĠ qiĠ
ĠheĠ zaiĠ
xingĠ yunĠ
fuĠ keĠ
beiĠ chengĠzuoĠ
ĠdaĠ xianĠ
jiaoĠ huoĠ
gaiĠ jieĠ
muĠ yangĠ
lingĠ quĠ
suoĠ duanĠ
waiĠ yuanĠ
ĠbeiĠ haiĠdaoĠ
ĠzheĠ shouĠgeĠ
ĠzhuĠ yaoĠdeĠ
diĠyiĠ qiĠ
tuoĠ miĠerĠ
ouĠ yangĠ
ĠboĠ teĠ
Ġzong ĠbuĠ
zuoĠpin ĠyouĠ
lunĠdun ĠdeĠ
xiaoĠshuo ĠjiaĠ
muĠqin ĠdeĠ
ĠsiĠtaĠ fuĠ
7 ĠmiĠ
Ġ se
Ġ 77
Ġ houĠyiĠ
Ġ shangĠyouĠ
Ġ 28Ġ
shang ĠzhongĠ
hua ĠqiĠ
mei ĠliĠdeĠ
chang ĠshiĠyongĠ
nan ĠjiaĠ
shan ĠweiĠ
bai ĠbeiĠ
lie ĠfuĠ
gui ĠzhiĠ
gen ĠdeĠ
liao ĠdongĠ
ha ĠliĠfaĠ
zha ĠdeĠ
58 Ġ
ĠdeĠ luoĠ
gongĠ xiaĠ
wuĠ xiĠ
beiĠ daoĠ
beiĠ fenĠ
jinĠ leĠ
ĠerĠ baiĠ
yingĠ lianĠbangĠ
tongĠ guanĠ
dianĠ yingĠshiĠ
yongĠ pinĠ
ĠjiaĠ zhuangĠ
ruĠ duĠ
zhouĠ enĠlaiĠ
jiuĠ huĠ
dengĠ shanĠ
duoĠ shaoĠ
lingĠ junĠ
ĠdeĠyiĠ suoĠ
chuangĠ kouĠ
ĠqianĠ houĠ
[...]
