#version: 0.2
n g
a n
s h
z h
j i
a ng
Ġ Ġ
o ng
x i
a o
a i
d e
e i
sh i
y u
o u
y i
e n
c h
i an
u o
e ng
l i
ĠĠ Ġ
ã Ģ
i ng
u i
w ei
u an
zh i
q i
n ian
zh ong
y ou
r en
u n
z ai
d i
g uo
ãĢ ģ
h e
b u
e r
g ong
xi ng
ch eng
d a
zh u
h u
yu an
s i
ji an
yu e
g e
f u
xi an
u e
k e
w u
ch u
sh u
sh eng
ji e
ji a
b i
d ao
z i
b ei
h ui
f a
xi ang
t i
zh eng
m i
t a
ji n
q u
2 0
t ong
r i
j u
ji ng
m ing
l e
h ou
sh ang
sh ou
d ong
c i
f ang
1 9
hu a
yi n
x ue
g uan
zh an
y e
yi ng
z uo
zh e
y an
m ei
ji ao
g u
ch ang
xi n
d ui
l u
b ing
b ao
f en
d an
h uo
j un
ji ang
d u
xi ao
d ian
y ong
q ian
sh e
t ai
xi a
m u
w en
g ai
zh ang
li ang
y a
r u
d ai
h ai
n an
zh ou
z u
w ang
l ai
b an
ji u
d ang
q ing
p ing
sh en
ãĢ ĭ
ãĢ Ĭ
w an
l ian
li ng
l uo
Â ·
mi n
q uan
p i
n i
b o
d uo
t e
b en
g ao
bi ao
s uo
l a
m a
k ai
b a
xi e
x u
b ian
de ng
y ao
y ang
m ian
zh en
d ing
qi u
z ui
s ai
li u
f an
x uan
f ei
s an
sh an
ch e
z ong
m en
ãĢ Į
ãĢ į
t u
t ian
h ao
s u
l ei
n ei
yu n
20 1
l an
f eng
m o
n a
z e
l v
h an
k ou
w ai
n eng
li n
ch uan
ch i
j ue
b ai
p ai
20 0
k u
c ai
z ao
t ing
zh uan
g ang
li e
gu ang
g ui
l un
s ui
p u
c eng
k ong
sh ui
1 0
ch ao
zhu ang
ch a
d ou
c an
t ou
r an
s e
d uan
c un
h uan
c ong
pi n
c e
ch an
x un
g ou
0 0
n v
zh ao
g an
ch ong
sh a
t an
1 8
qi n
k a
m eng
qi ang
hu ang
xi u
1 2
ti ao
m an
sh ao
k uo
l ong
p ian
sh uo
t uan
t ang
r ong
g eng
20 2
ch en
t ui
g en
q ue
ti e
1 1
qi e
w o
p o
p ei
h ang
h ong
19 9
b ang
li ao
chu ang
bi e
r e
t uo
t ao
s ong
w a
m ai
h a
1 5
p an
d un
di ao
qi ao
s a
m ao
l ang
k an
k ang
â Ģ
o r
l ao
z eng
1 6
19 8
k ao
xi ong
1 7
o n
n uo
mi ao
r ang
ku ang
h en
s uan
1 4
3 0
zh un
1 3
19 4
c ao
h un
q un
n ong
19 7
h eng
shu ang
l ou
g ei
ku ai
pi ao
zh a
h ei
ni u
19 5
s en
bi n
r eng
z ou
19 6
ch un
k uan
2 5
âĢ Ķ
r ui
s un
p ao
n ing
f or
p a
c ang
m ou
2 4
p eng
hu ai
2 1
19 3
2 3
mu la
for mula
2 8
z an
r uo
i n
2 2
ch ou
zh ui
a r
m e
2 6
5 0
20 20
2 7
n ai
n u
ï ¼
2 9
sh un
201 0
z a
00 0
lv e
zh ai
20 19
n e
r o
j uan
s t
r a
c ui
k un
201 6
l uan
201 8
c uo
202 1
z ang
201 4
shu ai
201 1
201 5
201 7
201 2
4 0
201 3
n ao
202 2
di e
r uan
k ui
l t
r ou
c u
s ang
200 9
200 8
ã ĥ
6 0
ni ao
a l
r ao
ch ai
10 0
zh uo
202 3
g t
s ou
19 0
3 1
k en
200 7
200 1
t eng
p ang
f ou
c o
f o
gu a
200 0
8 0
200 6
202 4
ã ģ
200 5
z un
ti on
ku a
t he
3 5
7 0
ni e
l o
o f
9 0
l eng
ï¼ į
ã Ĥ
a m
t un
t er
mi e
200 4
t h
t o
4 5
4 8
m ang
202 5
v e
g a
ãĢ ī
ãĢ Ī
3 6
3 8
200 3
3 7
M a
ch ui
p en
l l
18 9
I N
200 2
k eng
T C
d o
3 4
7 5
âĢ ĵ
C o
4 6
c a
199 0
âĢ ¦
c k
3 9
. .
b e
6 5
3 2
S T
4 7
U TC
199 9
199 8
198 0
18 8
5 00
3 3
I n
6 4
s s
T he
v i
S E
5 5
199 7
R e
h i
4 9
I I
e l
6 8
e t
4 4
199 6
o o
qi ong
199 4
g un
b r
gu ai
199 2
199 5
M i
6 7
an d
s ao
e s
199 1
197 0
5 8
195 0
3 00
199 3
18 7
194 9
a t
A T
p e
196 0
4 2
194 5
L i
v er
qi a
198 8
t y
198 9
6 9
R o
i s
r un
SE E
ni ang
IN SEE
h o
5 9
4 3
6 6
5 7
198 5
9 9
S A
ãĢ İ
ãĢ ı
c t
198 4
4 1
8 8
198 6
w i
o l
w s
T V
r y
15 0
M e
n d
4 00
198 7
7 8
198 2
5 6
b eng
V i
P a
t s
198 3
am p
N A
D e
C D
g h
f i
w eng
b er
7 7
W in
p er
z uan
S ta
7 9
O S
W i
Â °
ï ½
de r
18 0
B C
5 4
197 9
6 1
19 20
a s
M o
s eng
9 8
5 2
Y ou
197 8
n o
6 2
5 3
l y
shu a
L a
ï½ ŀ
B A
194 6
C O
5 1
195 8
g i
J o
198 1
197 2
194 8
L e
t w
A M
6 3
A R
c tion
194 1
B S
G a
19 30
D a
P ro
T e
7 6
han s
194 0
193 7
197 6
194 4
J a
8 9
u s
D i
Win do
197 5
ï¼ ı
196 8
h k
c on
F i
u m
S i
10 00
Windo ws
9 5
8 7
na l
M ar
196 6
r d
8 5
N e
R a
k i
6 00
1 20
194 7
S e
A C
195 6
196 4
B e
194 2
Ã ©
195 5
195 2
I S
a d
193 9
193 8
7 2
u r
7 4
C a
v a
197 3
197 4
195 4
A r
A l
E D
19 00
- -
A P
194 3
T o
197 7
l d
197 1
c en
la y
196 7
B a
I C
8 00
P o
L o
E R
zhu a
s ta
8 6
195 9
B o
t t
196 5
J R
196 9
F a
ãĥ »
Ã Ĺ
I D
B i
s on
193 6
16 0
9 7
195 3
S a
M A
196 2
196 1
n en
N a
â Ķ
S o
193 5
co m
H o
ti c
9 6
O N
ï¼ ħ
195 1
S t
195 7
196 3
T u
âĶ Ģ
f e
s o
men t
8 4
H i
202 6
8 2
D o
m er
R i
7 3
n t
9 4
9 2
K i
H a
n ang
on e
I P
A N
l s
193 3
193 1
le s
7 1
n uan
Co m
8 3
9 3
te d
S u
8 1
T i
M u
19 18
N i
H D
U ni
19 28
p p
193 2
C ha
W e
y s
M V
S S
1 10
I T
19 12
N o
19 29
19 27
193 4
c n
7 00
g o
z ei
gh t
st er
25 0
9 1
r t
l li
19 24
ri s
.. .
19 19
nv e
1 30
P i
19 25
G i
P S
b y
e d
me s
A n
P C
14 0
A S
P lay
19 14
k m
D V
ti o
You Tu
S M
b le
g ra
k o
19 11
C on
C h
l la
19 26
l le
G e
P ar
i d
T a
19 22
L in
m p
19 17
H e
K a
E T
N BA
w n
I V
E N
19 23
19 21
sh ai
G oo
ch uo
17 0
à ¸
E C
M S
a li
A L
p h
se ction
YouTu be
E P
B L
19 13
C ar
B u
z en
H K
w e
h n
m m
v en
han t
â Ĩ
190 9
si on
In ter
c ro
M P
A I
W or
P e
d s
U S
p ro
DV D
o k
3 000
E n
19 10
D S
R O
c ou
S te
si s
1 12
G o
r k
A K
R E
19 16
W a
li a
ãĥ ¼
Sta tion
F or
N et
f f
Î ±
of t
in e
de n
l or
re a
tio nal
g n
tu re
g le
C P
U N
â Ī
ar d
19 15
g in
190 5
p s
F C
c al
v o
di a
M y
C N
â Ħ
âĨ Ĵ
ou r
er s
190 1
en t
A u
D NA
E x
âĢ §
9 00
en d
H R
di ce
. &
the r
ta l
C H
T A
T O
190 6
190 4
A V
te s
M O
ji ong
Jo hn
m y
er i
co dice
M an
âĦ ĥ
d y
Play Station
C hi
0 5
C C
ti ve
di u
A nd
190 7
di o
190 8
Goo gle
A G
C i
E ST
M I
S O
L E
si c
re e
B O
in t
wi t
B BC
S ch
A D
I G
lan d
II I
c ri
t on
15 00
5 000
c y
rou nd
w er
I ST
m s
r on
M E
C R
u l
3 D
j e
I A
le y
10 5
a u
Ð °
ri a
10 1
190 3
t or
G B
v an
0 9
T E
L u
190 2
B D
N C
P ri
F e
x t
3 50
p ou
Ã ¡
SA O
de s
D C
j a
Î ²
c ke
B 1900
bo ok
ha t
E S
al l
B M
ï¼ İ
ãĥ ³
R u
n er
189 8
re s
0 6
1 18
o p
ãģ ®
3 60
D R
Ne w
0 1
D A
H u
O pen
189 5
g er
12 5
S ho
H O
M C
S an
AT P
Mi cro
ct or
Ð ¾
10 8
f t
c or
o s
N G
K e
c lu
g y
gra m
p ri
wa rd
st y
I F
C u
F ran
O ne
ne t
s oft
k er
p t
âĪ Ĵ
0 7
0 8
2 30
Fa ce
10 4
pa ce
ls pan
C or
P er
B ar
Wor ld
A pp
ED T
IST AT
c uan
Lo ve
K o
à ¤
H ar
N O
S tu
189 6
L L
u x
10 9
D P
la s
A A
f li
R I
J u
p ha
S er
lu s
lin e
R T
t ri
S P
E X
B 48
10 6
18 90
r ai
s ti
mo n
C ST
M L
o d
un i
CD T
ber t
J e
r s
ru s
re d
D O
P u
k y
H E
C ou
a tion
M on
0 4
4 000
11 5
1 200
M 1
P re
0 3
l er
G P
de l
C E
Ä ģ
Li ve
be gin
188 9
oo l
Da vi
wi th
ar a
189 9
co lspan
tai n
ba ck
187 1
R S
st o
Face book
E d
S ha
Micro soft
mi c
te m
âĢ ĭ
24 0
16 00
L O
T ri
t en
ti n
B E
lo w
10 2
bo x
clu de
A d
T T
189 7
S ou
s er
N H
E E
D u
ce s
P P
11 7
S C
v al
0 2
po r
c m
Ma c
sty le
C he
r st
10 3
AK B48
D an
M D
N or
P h
10 7
ra l
H er
O n
p re
r ing
A s
a re
Wi lli
te l
Lin ux
li s
O ri
w w
D is
sh uan
g ue
ma s
4 50
B er
V ID
12 7
Mu sic
I s
A i
G re
c er
Ã ¼
tu s
V o
t ra
12 8
fli x
C L
Net flix
B ro
y o
189 4
Ga me
2 20
C an
G ra
ni n
re f
Ð ½
Willi am
B ri
I L
ali gn
S H
b li
or y
O r
T wit
18 80
Re d
ol d
Ã Ń
R NA
13 6
P G
Ð ¸
ãģ Ħ
ro m
T R
Te am
18 00
ãĤ ¹
Uni ver
g round
i a
188 5
l en
11 4
ãĤ ĵ
H z
co lor
G en
T y
11 6
28 0
U R
p le
Ð µ
11 3
188 6
ei n
ãĤ ¤
T S
P O
189 3
la r
e x
r n
y n
M c
na me
11 1
S L
ã Ħ
Su per
S he
st ra
A ll
G u
ci al
la ss
âĢ »
Davi d
13 5
je ct
A c
26 0
C en
E u
l f
18 60
po rt
ha m
Ge or
ch o
na tional
Cha r
U n
W TA
lv er
d ge
wo rk
H C
T h
t ro
Sch ool
B an
k s
ss o
t ch
ti s
188 8
M or
q ui
te xt
S D
Ã ³
- .
U A
rou p
ll y
ca tion
on y
back ground
Me ta
ro id
a c
mer i
T ra
12 9
G O
S to
di s
18 70
G N
ï ¹
re am
188 7
Sho w
Q u
c le
18 68
6 000
Ã ¶
Ñ Ģ
188 3
N F
V A
ma r
V er
da y
3 20
X box
C S
wa s
A ng
N HK
T ho
A F
F o
Twit ter
D D
l yin
on lyin
onlyin clude
+ +
K P
d on
18 64
âĢ ¢
Gi r
I ON
188 4
1 19
B la
R C
U E
ai n
mi u
12 2
V a
25 00
189 2
2 10
A 1
cen ter
cke t
15 5
IS O
â ħ
14 5
st ri
189 1
6 50
wa y
And roid
N S
C lu
ãĢ ķ
O R
f fi
h tt
m ber
ãĢ Ķ
18 50
F u
P hi
a ge
m b
w in
x y
C y
K u
k ing
Inter national
si a
18 67
lo gy
C e
I M
ãĥ Ī
187 9
Sta r
ri e
Ja mes
En ter
c c
ll er
3 80
A B
U P
ne y
E ng
187 6
S pe
W ar
n y
Stu dio
z o
Geor ge
A b
A ni
18 75
18 61
27 0
Univer si
Ga mes
B ra
I R
12 6
N T
Ã ¨
ti me
ar t
E s
P or
NG C
st ru
ãĥ «
187 3
H en
M G
p hi
er o
12 3
ãĥ ©
P V
n s
B en
D ra
H T
Co lle
G roup
P an
c ar
m pi
ran s
S un
i t
u t
16 8
cu s
CO VID
B lo
F M
M B
S ys
ou s
se d
18 65
Clu b
A O
A meri
P L
he r
i m
12 1
D E
D on
t hat
Ai r
Cen ter
17 5
ar y
ãģ Ĩ
We b
H 2
Y P
f rom
Ã ¤
14 00
MA X
cri tic
A le
t z
13 8
2 28
H an
T P
18 48
18 62
3 30
12 4
ãĤ ¢
188 1
188 2
7 37
Le a
A li
U C
h y
187 8
5 50
V e
sa u
b ri
bi t
187 2
E l
L C
In sta
M in
ra tion
IN K
Meta critic
el d
Ori con
S ai
W hi
s co
15 6
B oo
M TV
s p
16 5
L ED
18 40
IV E
Y a
c re
k in
7 50
ãĥ ĥ
13 00
ãģ Ĺ
H y
13 7
Mi cha
Mar k
7 000
H el
er a
D OS
S Q
U B
22 9
I U
G DP
K ing
O K
Ñ ģ
ty pe
G ran
ni c
Hi gh
T ai
a st
15 2
TV B
Ch ris
15 9
187 7
Ro bert
C han
p y
s y
t le
â Ĺ
ci en
18 66
H ou
i OS
o t
Ð »
Pro du
S K
S hi
si lver
18 69
âĢ ²
th i
T HE
U p
Da y
C ro
D M
E le
St re
Pe ter
I t
N ET
t ter
F ree
J an
Ð º
13 9
Ph one
Insta gram
A t
B I
S ur
p la
BL AC
Ty pe
Ð ²
or a
App le
D J
S y
W al
C G
W E
co de
ãĤ ¯
Micha el
D F
S h
ï ¸
1 100
ci a
15 8
ne ss
Bi g
2 25
P la
P at
S am
Y e
v in
ni a
30 5
13 3
IN E
Pa ul
Te ch
Na tional
t te
ou n
ni s
ãĥ ª
A ward
R A
Y O
13 2
Ste am
20 5
18 63
ra y
I E
pan y
Me dia
tain ment
2 15
B r
Universi ty
F O
L ou
V al
en sis
tion s
Bi ll
ph y
C A
F 1
K BS
bu r
14 8
13 1
S mi
k g
16 6
187 4
X X
de o
18 58
pa r
E F
s or
ri n
ru m
C ho
c lo
14 7
H ol
min i
F ri
25 6
ãģ ĭ
M 2
18 30
C BS
U T
g on
l m
18 51
Le e
B N
G A
H I
U I
li p
ri c
19 2
Par k
t d
Î ¼
8 000
M er
no w
Enter tainment
3 10
14 3
hi s
M k
18 55
Ci ty
Bla ck
Wi l
Po wer
C hu
E M
I X
S pace
g ar
w hi
G M
R AM
ð «
18 5
18 59
th o
ST AR
Ja ck
Char les
13 4
Ja va
Di re
A BC
G ar
T er
s pe
shi p
18 54
14 6
30 1
17 00
in ter
Vi u
sti tu
3 70
F la
K en
18 57
Al pha
L an
S tan
ou t
lo s
D ar
Ø §
29 0
ãģ ª
Li fe
ï¸ °
v s
Î ³
2 14
4 20
C am
Ñ Ĥ
Re cor
Com pany
F un
Î ¿
ãĢ ľ
18 56
18 53
Pro ject
D ream
F an
S en
di um
ãģ Ł
fi rst
Ti me
Tho mas
Hou se
P en
14 4
Sai nt
F A
O VA
P y
S pi
C ent
V O
e k
fa ce
A 2
I O
d d
v on
16 7
Ja pan
Stre et
3 A
C la
H S
S BS
ren ce
bi li
ri st
cha rd
18 41
ver y
Eu ro
L P
P lan
a k
i e
r p
ba l
et y
Ale x
3 40
P M
b un
i f
l ue
BLAC KP
S co
T al
d ra
ch er
20 8
se s
18 15
17 8
So ci
CP U
BLACKP INK
2 23
s pace
8 50
L GB
S ing
S po
e w
t ta
ce ss
oo d
ww w
I BM
z er
mi s
Ar t
por ts
B at
B ur
S F
20 7
ma tion
wo r
17 1
23 5
ãģ ¨
ãģ ¾
L IVE
S U
S oft
20 3
B 2
F er
V E
SQ L
t ha
18 46
16 4
Colle ge
A m
c ra
15 7
lt er
vi ce
ber g
Ameri can
B R
L T
N E
P ol
14 1
for d
IC E
A ma
B 1
P E
nv i
17 6
IN G
Gir ls
A sso
G er
L S
s te
Â ²
tu rn
pu bli
se lf
18 12
18 45
18 44
st ro
Ro ad
no t
O ffi
W o
d ro
ba ll
23 1
ar ch
c ture
c lass
l on
es ti
Ro ck
C l
H F
L td
M 3
p lay
le a
bo ard
ãĤ Ĭ
wit ch
LGB T
l lo
s g
he re
20 9
ãģ į
NA SA
Te le
GN U
L A
V an
g s
ta tion
Jo se
we ll
T our
IU CN
Smi th
2 16
P N
R ou
Î º
18 49
15 3
C T
N BC
20 4
23 8
ne s
Goo d
Produ ction
B B
C al
G T
b ra
de d
Vi deo
O 2
e p
f er
Ï ĥ
mi ted
pi e
ro w
H all
P R
da e
20 6
th y
Pa d
Ga la
Bo y
eri es
4 60
A f
T or
se t
18 14
ve l
der s
sau rus
2 18
E li
T ur
wo od
Je an
S I
T en
ne l
vi sion
IG N
A ct
L D
P A
f ra
â ĸ
Ri chard
F F
K ar
W S
o m
Ï Ģ
ta r
18 47
15 4
ve d
5 80
M BC
si de
ma c
che m
18 43
Be st
pt r
Sys tem
4 30
S ky
Z i
ri ch
ci s
17 7
40 1
ll s
4 10
F le
si n
man n
ãĤ ·
NF L
Viu TV
S witch
da r
16 3
AM D
Di gi
AP I
Par a
I CO
S ma
da ta
men ts
18 52
16 2
th on
Ma x
V II
ce d
18 20
ãģ ı
We st
A g
G lo
T un
V ol
a ch
z on
14 2
23 4
sta r
cri pt
V R
s ys
si gn
ma x
17 2
ãģ Ĭ
ãģ ķ
Co re
Recor ds
6 40
M et
l ti
16 9
35 00
th is
Li mited
B lue
K C
R an
T 1
c to
Â ±
18 39
23 2
Cou n
4 80
C M
17 9
ca de
In c
Gre en
u se
20 30
ri o
or g
14 9
36 5
In stitu
La u
lu m
tu be
18 21
wa r
ãĥ Ń
ãģ ¿
Vi r
Uni code
RO M
CC TV
3 90
B U
bu s
ti a
30 6
22 2
60 1
o na
17 3
Bo b
E A
F ar
G ui
J i
P F
Y u
Z e
k h
r ue
ba r
wa re
24 7
oo t
He a
Pri n
mpi on
E r
K K
M r
V en
X P
g na
j o
17 90
um p
2 11
5 60
O H
S N
z y
ke t
ci ation
or n
ne w
ãĥ ¬
B F
P ra
V M
t v
of f
ve lo
M U
P D
R en
S qu
S cien
18 3
17 95
30 3
For ce
âĹ ĭ
P H
T an
23 3
ãģ ¡
180 1
2 13
T rans
ta ry
ãĥ ŀ
He art
US B
M en
b ro
17 4
Po p
tt le
MV P
B el
C K
o per
Ï ģ
á Ģ
ì Ŀ
ke y
18 6
18 38
or s
Fi re
Sto re
5 20
C ri
D DR
s tan
mi ly
ha r
ck er
Ch rist
6 10
L on
a b
u p
16 1
50 1
ãĥ ī
htt p
2 24
C F
e m
i Pad
t to
bi le
su b
18 13
ãĤ ī
Ma g
Da ta
G E
Ï Ħ
ri ty
mo r
18 2
18 32
18 42
25 5
lo gi
as on
Soci ety
A E
d th
i Phone
su r
18 4
tie s
ãĤ «
do m
Mi ni
7 20
K I
Q ue
S cript
e le
g re
â ĺ
la te
18 36
17 93
ãĤ ª
Co mic
In tel
Ki Ha
Mu se
bun tu
2 21
H BO
M T
P in
f fe
mu s
18 33
17 89
cen t
Ho me
tic s
Ri ver
htt ps
Dire ct
Asso ciation
Gala xy
B al
D r
D AM
M 4
Q Q
a e
se arch
18 35
15 1
ar s
ãĤ ¿
wi dth
per i
tic al
Lea gue
2 19
2 17
3 38
F T
J YP
Q ui
R ai
S R
U buntu
W A
m g
ð Ĳ
fu l
âĢ °
do wn
180 4
ON E
CE O
4 70
7 40
8 30
B ui
f un
s si
v ing
ne d
Mar tin
Ban k
Hen ry
M ai
Y G
Ï Ĥ
Ð ´
â ī
li ght
bo r
ma t
Ma ster
To p
Cha mpion
D y
E ar
L INE
M W
Î ½
ma l
be l
AR T
Ne ws
Chi na
2 12
D K
D ou
E m
S p
Ñ ĥ
un ch
18 28
co re
ãĤ ³
AP AN
Ho t
Par t
Net work
Gen er
F R
F lo
L ong
d or
ci l
19 1
re w
30 2
You ng
Bill board
Offi ce
6 80
A da
E pi
F ra
G old
M Hz
P I
S ong
S NH
n m
p lo
Î ¹
ta ble
ri es
18 1
16 24
23 7
ãĤ ĭ
Ni ght
No te
Jose ph
SNH 48
F DA
J APAN
P K
à ¹
á ¹
pu r
16 44
30 8
Co de
CO M
4 40
C ra
D B
G R
z z
li st
ti al
le d
le ss
10 000
18 37
pa rt
23 9
st on
180 6
Si r
Ra dio
Uni ted
mac OS
C V
U 21
V is
s ing
Ã ¢
Ã ®
Î ´
à ¥
â ĳ
de f
su s
18 19
29 9
34 6
Re gi
HT ML
7 80
E ast
c s
un d
18 25
24 5
23 6
50 5
27 9
ãģ «
Ma ri
5 40
E V
G am
H 5
P al
m uni
rp m
3 25
Y o
t re
ri ght
00 1
17 76
ãģ ĺ
Chi ld
NC AA
Ser ver
Digi tal
F AT
K ong
te a
18 18
po n
mai n
pa ra
26 5
ãģ ĵ
es ta
Hel lo
G S
L ang
ai r
te lli
18 24
18 31
202 7
re y
Do wn
D ri
O b
R PG
p ho
s pi
Ã §
Ã ´
li o
si o
ri ck
la tion
38 6
Ma t
Ser vice
âħ ¡
Tech no
A na
A do
U M
n on
ren t
ge s
te mp
BS D
Py thon
1 A
C W
D en
X ML
Î »
sh o
27 5
27 00
You tube
Ed ward
Whi te
3 12
5 G
7 30
D es
H L
O M
T BS
en a
ha s
me d
26 4
29 5
180 2
Fi rst
BL UE
bur g
publi c
Institu te
6 30
E nvi
G ro
T M
o ri
y er
Ã º
Ã ł
su al
18 22
28 8
ãĤ ¸
Pol y
J T
O ut
S um
Ù Ħ
mo nd
24 4
ãĥ ķ
va te
To m
IT F
2 D
O T
i se
v ar
x el
re turn
24 9
90 3
ve s
Ca p
Squ are
H ong
P ID
S eries
T his
Z a
Ä «
Å ¡
ya l
tu m
tu al
24 3
28 00
Ra p
Cu p
D el
F X
J en
J ump
N P
_ _
s ch
si g
chu ai
18 10
16 22
17 92
30 7
st s
70 1
SA RS
Fran k
PO P
Gran d
9 60
K in
S HO
V V
s ca
Î µ
di t
tu r
16 50
80 1
Pa la
Ch ro
MI UI
Cou nt
Tun es
2 100
C ur
H or
c ci
Ð ¼
18 26
ha ve
15 73
st ory
Ste p
Un der
7 47
J our
y on
bu t
te ms
18 34
30 4
22 6
27 8
ãĥ Ł
ãĤ Ĥ
ter i
37 5
180 5
Di e
AC T
AP P
AI R
Au to
Nor th
B ran
H A
K an
c ing
i ce
pu s
00 7
29 6
29 8
38 5
AT A
Blo ck
3 35
5 90
9 000
B or
C U
S ports
W N
m l
r ei
Ï ī
â ĭ
le t
ding s
ha d
17 80
22 7
ãĥ ł
You r
IF A
3 15
L es
O s
P ho
R ei
i i
i Tunes
p H
Â »
gai n
25 1
27 7
Re al
gh ts
CN N
2 A
O p
O ver
R FC
di n
di tion
zi ne
ma d
ma p
mo re
15 82
17 99
25 9
24 6
24 8
180 9
Dan i
Eng ine
5 30
C 2
C as
D LC
E i
Â «
er e
18 23
16 21
27 2
40 5
vi lle
AT ION
Sta te
180 3
Inter net
EE E
val ue
pre ss
3 34
6 20
7 70
B ou
C lo
C lass
G ol
H al
S G
W at
a pp
b re
r ch
16 25
28 4
28 5
in o
lt on
ãĤ µ
Mi t
con d
3 11
8 80
C le
S ony
U r
V I
v y
Ã ī
á »
25 8
for m
27 6
ãģ Į
Wi i
Mo on
Mo bile
Ba y
G ri
K O
O per
T ru
X T
t han
à ¦
ge t
or k
25 3
35 7
ter s
Ma ria
Ra y
Pu bli
6 60
B on
C li
I m
N M
S V
U L
e e
u ng
Ð ¹
ue l
ãĥ Ĺ
ST A
vi a
Al f
Do t
IP v
Ni co
Uni x
Sou th
Ang e
Boo k
Euro pe
5 70
G et
U 19
W F
b lo
h r
Ð ³
18 27
15 70
ãģ Ĥ
ga zine
ck s
ss on
vi ew
Pi er
3 14
3 DS
6 90
B BS
C 6
D SM
I EEE
M ou
M al
S B
W WE
t rans
ta s
18 17
16 40
16 36
rang e
26 8
40 2
40 4
ãģ ¯
Sou nd
whi ch
4 G
A X
T W
f y
f ri
g al
de i
17 75
25 4
46 5
at or
3 23
G al
H P
O P
T re
de a
ti na
lu tion
17 50
30 9
vi s
No w
3 29
6 70
J on
N u
P lus
shi ng
tu de
18 16
ka r
po li
za tion
ãĥ ģ
ãĤ £
45 00
fi eld
CO N
Be au
Po li
TO P
pri nt
Cu be
. -
7 10
9 10
9 50
D I
H am
M K
a p
o ther
la ris
lou d
24 1
23 00
cu r
Me di
Fi lm
IS BN
Wa y
tv N
3 26
A sia
F in
L y
T 2
c tive
t ti
à ½
en ce
cha r
15 92
34 7
75 8
Gi l
op le
A ra
D T
T ro
c ti
e ven
ma rk
tu ral
sa l
16 28
17 88
25 2
24 2
26 9
ãĥ ĭ
Ma y
nal d
fe a
Ti k
Chan nel
3 18
3 36
9 78
C B
D L
F esti
M US
N 2
O 3
R un
á ĥ
hu r
la m
16 27
17 83
17 91
28 9
40 6
35 4
IN N
Jo y
To k
Pi xel
Dis ney
âĸ ¡
velo p
Vis ta
A cade
E L
F 4
I B
L AN
L TE
N an
P T
W an
17 97
nu m
ï¼ »
ï¼ ½
55 6
Re search
Be at
Ci r
Gir l
Lou is
Soft ware
D MS
F re
O F
T H
a g
g is
t r
17 79
17 96
60 7
ãģ ¤
ãģ ł
35 2
180 8
con o
ER T
fe rence
km 2
mp le
Wor ks
NC T
Ali ce
Chris tian
âĭ ¯
3 21
3 37
A 4
C er
C ry
T 3
d ri
ni ght
18 29
sa r
17 78
17 94
28 3
me ga
27 3
ãĥ £
ãĥ Ĳ
ãĤ ¨
th ing
ca st
oo m
ct ro
Vi sual
Jo han
AS C
YouTu ber
Ch ine
Is land
Bat tle
wor ld
3 13
5 10
8 40
8 60
I l
M net
R ain
S in
Ã ±
Î ¸
en i
17 98
ãģ ¦
45 6
37 2
EC T
ctor y
age ment
Award s
sys tem
4 48
8 70
r or
mi t
re ss
re ad
15 80
16 12
16 34
17 87
28 1
26 7
ãĥ ĩ
fo re
ãģ £
lo st
ãĤ ¦
vi l
ver n
Ro yal
Hi ll
we b
mm y
Pre mi
Fo re
Glo bal
9 11
D G
D ai
F oot
M F
T N
â ĩ
li ke
ren a
15 67
16 48
27 1
lt ra
pe dia
Mar y
Ar ts
BO X
rai n
Spe cial
Scien ce
Envi ro
A H
D er
E 3
H un
L et
M M
W ei
Y ork
o i
s che
po p
re t
26 2
36 7
ck y
OS HI
gi c
AC E
Ki m
Com pu
EN T
AG A
Gre at
Qu a
- &
3 22
G or
M ON
O li
O TT
S al
V B
f la
hu s
si ze
ti fi
ni ca
bo n
po si
15 50
15 68
or d
16 15
16 30
for mation
28 6
ar r
ãĥ ĸ
co l
Ma gazine
Mo del
CH 3
Bro wn
Ama zon
Muse um
Dani el
Festi val
C AS
E nd
F ro
F BI
L G
O 4
S IG
T ou
U SA
d t
o le
p lan
de nt
li na
ke s
che s
16 45
16 46
ãĤ Ń
33 3
and y
CO LL
AR D
Se cre
Com muni
En core
Go d
ture s
On line
Tai wan
Que en
Tik Tok
MUS IC
A h
A mi
C at
T hun
c ka
g g
Ø ±
an i
16 26
26 1
29 7
lt h
35 5
An to
Dar k
Gener al
Chine se
3 28
8 20
C rea
M ur
P RO
S 2
S on
o ver
p ra
da l
16 37
24 00
70 5
90 1
36 4
38 4
37 8
44 2
Me mo
Wi ki
gi o
Po int
VID IA
6 18
A U
C BC
H B
N VIDIA
T 48
Ð ¡
Ñ ĭ
ri ne
que s
16 10
16 42
25 7
28 2
me t
26 00
Sta dium
Se a
Ca pi
Ba se
160 9
one y
lli on
Red mi
Ye ar
Tal k
Ado be
7 60
7 67
C AN
P et
S et
U 17
V C
W on
W ho
W hat
a f
b ps
l k
Ñ Į
de on
ci o
te ch
po ration
15 85
15 83
sa y
ãĤ Ħ
Co l
ca s
58 3
wi ki
180 7
AR M
Te X
ther n
Cy clo
Sys tems
Met ro
9 30
F al
F IFA
J U
K E
L ei
M el
O D
S che
a te
b s
hou se
16 23
27 4
Pa y
Ar chi
To wn
Ni ko
Ge o
ï¹ ĳ
H2 O
B ru
C hang
E ye
E OS
F IN
I EC
J uni
p es
ti um
15 71
17 84
26 3
50 9
29 3
st ein
die s
rou gh
35 1
do s
99 9
De ep
con st
Ne o
Uni on
ster n
Ke y
rs tea
ple x
oun da
2 200
4 28
A J
D un
G UN
p to
u ts
w ing
x x
ch t
16 20
17 23
17 86
50 4
ãĥ ¥
35 3
ve y
39 5
Mi ke
So laris
St ra
so me
pri vate
Phi lip
Cro ss
Jour nal
Dot A
4 19
4 32
A 3
C loud
F N
G L
H as
S W
Å į
ì ķ
an der
14 50
ãģ Ļ
Ma u
Li ttle
ct s
cou n
Studio s
4 27
C ine
F E
H IV
I ma
K 6
V in
V PN
a ce
h oo
Ä į
ge l
zi lla
15 77
16 18
16 43
38 7
39 9
be th
Lin e
LO VE
Fle et
Techno logy
3 17
3 31
3 45
5 12
5 65
A ven
B ai
C r
F I
H 1
M Y
R 2
S 1
U 18
U SS
U ltra
Ñ ı
li ve
mi a
te st
ba se
mo l
ha rd
15 86
17 77
14 53
80 6
lo t
CD MA
Sta ge
Ra deon
AL L
Ex p
Va lve
Child ren
3 27
4 11
4 90
4 45
4 46
5 35
A th
M 87
O f
R am
U 23
W ol
w here
Ã ª
li c
ci ty
ma te
mo del
chi e
se y
ce ll
15 21
or o
17 65
17 74
on o
39 8
49 9
Po st
Mu lti
Ta y
BM W
Cent re
Acade my
Juni or
4 16
E MI
H TC
K B
O mega
k W
m 3
p ter
s tu
Å «
di na
da s
16 16
nu s
70 7
36 9
39 7
Pa ss
Sta tes
Wi re
Jo e
tio na
Fe de
GP U
bili ty
Dy na
6 13
G un
N R
W O
W OR
Z A
n or
Î ·
Î Ķ
Ð Ĳ
da rd
ran a
gan i
15 64
17 85
cu l
36 8
TV BS
De mo
Mar ket
Bi o
Lin k
My SQL
mis sion
3 C
8 10
B T
J r
K h
L ar
S ara
W I
b rea
e u
g ni
i o
j or
Ð Ķ
he ad
ci n
ci fi
ba s
16 62
in clude
26 6
29 1
58 8
Di stri
Ne xt
Be ta
vo id
MO D
Cor poration
M1 A1
GUN DAM
3 16
5 37
6 21
7 42
C I
E 48
E ric
N D
T I
c ted
h l
i l
o pen
Ã «
Ù Ĩ
qu a
po int
15 40
15 74
17 72
28 7
60 5
45 4
38 8
34 3
be s
88 8
La w
Su b
Man agement
Fri ed
Alex ander
4 25
4 75
M X
O ther
S ui
S ar
f lo
o b
ti ne
lan t
12 50
16 19
16 29
16 83
29 2
ro s
36 3
37 6
ST S
55 2
68 6
Mi ss
La dy
Fi nal
ad d
Ar c
Ho w
Au gu
wer e
Dra w
Sco tt
Lon don
Cyclo l
6 27
B RT
D ol
F L
T ar
h t
Ð ±
ni co
ï¼ Ĥ
st d
to s
48 8
Ma s
Pa s
fi ni
Spo t
ðĲ Ń
Sp ring
4 49
5 A
6 25
7 38
C ul
F ron
H ER
L and
P B
R ue
S c
T ony
V ER
W ing
e a
p per
s ky
t ran
Ð ļ
an a
ri na
pu t
sha red
15 90
15 79
16 33
ãĥ Ĭ
fo x
lo g
ãĤ °
Li ght
Ro se
150 7
De sign
La ke
CH 2
Ani max
Ear th
4 12
L F
L R
S mo
S ca
S ON
V 8
Ð ¿
í ķ
en s
mi x
bo dy
la unch
16 31
16 80
17 73
29 4
40 7
cu m
ãĤ Į
39 6
33 00
Le o
Fa mily
160 4
Ha mi
An der
Par ty
PG A
Dri ve
9 80
A re
C 4
F old
G C
H on
K at
L M
a da
c la
i r
i ni
y l
Ä ĩ
É Ļ
ke d
ri al
ri us
15 75
16 97
17 55
14 92
80 5
36 00
Ma d
46 7
47 1
The o
Si mon
Se cu
pp y
mic s
Ad van
ï¹ Ĳ
SK E48
Rou nd
Sum mer
Thun der
0 x
3 19
H ei
J 2
S ti
S we
T hi
X C
bi o
ma tic
15 61
15 89
15 95
17 81
14 65
50 8
st re
ãĥ Ĩ
ãģ ²
34 4
58 9
160 3
160 6
160 7
ko v
CN BLUE
Ru by
Epi c
velop ment
4 15
8 55
9 40
9 70
I r
L un
u age
x 86
Ã ¸
Ã ħ
Ã Ł
à ®
man i
15 22
15 26
15 56
16 13
16 60
50 2
50 6
ãĥ Ģ
37 7
47 8
55 4
Mi che
Vi ta
mer cial
Ti m
TO UR
William s
cation s
Hy per
oun tain
Br ian
ìĿ ´
âĺ Ĩ
Ange la
Foot ball
4 17
5 25
9 20
9 25
L U
M oo
P on
U K
U RI
W el
c ard
l ding
w ho
z zo
Ù ħ
mi r
ni o
ba by
che d
su re
se cond
15 25
15 91
16 67
40 8
48 5
64 3
AM O
Fi esta
Ba ck
tt en
Ste ve
DO HC
Mon t
Por t
Af ter
3 24
4 22
5 15
5 38
5 34
F ounda
G ao
Q S
R ang
S 4
S han
S yn
V T
a h
m RNA
x e
z za
Ä ĵ
â Ĥ
15 10
16 38
17 30
on ly
pa l
me dia
ãĥ ĳ
34 2
39 3
47 9
150 8
Vi lla
Mo zilla
La st
HK T48
Wa ter
Wa lter
vo lution
Ameri ca
Sur face
Chu rch
3 200
5 31
5 46
C amp
C las
E G
G Hz
I TV
J er
M ei
M BA
T G
T oo
V S
b les
i PS
p he
u d
li sh
mo nt
tan a
202 8
15 43
14 57
36 6
38 1
39 2
vi e
Hi story
Je ff
pla ce
1 st
4 13
4 26
E du
F 3
G PS
K ha
L Z
N I
R us
S or
T han
U 20
W nt
f b
Ù Ĭ
le ft
gen t
15 65
15 59
15 87
15 97
âĢ ł
16 35
16 88
17 33
17 82
st ry
ra t
60 6
al d
co me
ãģ ĳ
37 3
In du
el la
Wi ll
Al bert
Ti mes
Au stra
John son
tor y
sco re
Jan e
Coun cil
5 24
6 12
8 90
B y
F S
J im
M R
S ol
T ran
U D
i ts
l low
Â £
Ð Ł
Ñ ĩ
te x
lv a
15 88
15 98
50 7
al so
Co s
64 1
Re p
49 5
68 2
66 6
amp le
Com mon
CL A
sco pe
Pla ce
Tele gram
Pier re
Founda tion
3 32
4 A
4 K
4 35
5 75
7 90
A stro
B ad
T MA
e se
o la
an s
en do
li ty
bi rd
ti sh
ti ca
na r
15 23
15 35
16 49
16 61
17 70
14 99
nu mber
ra m
ãĤ ¬
ãĤ ı
36 1
46 6
39 1
.. ..
vi ces
55 1
fi nal
Mo der
Po d
160 1
PC I
ali ty
TO K
Fran cis
Ac Fun
tro l
Fla sh
wor th
cra ft
Won der
5 28
5 500
9 90
A nt
B ang
H TT
g ne
mi tte
ma ster
men tal
wo rd
15 11
17 60
17 69
in du
sou r
35 8
37 1
46 9
el low
68 4
58 7
Di a
St ory
pp m
SM AP
And rew
tri bu
Ed ge
ac tive
Gol den
Exp lor
5 48
A W
K ai
L ui
L oo
M AC
e xt
o ni
s ma
t hen
ei l
ch y
200 00
10 80
15 000
15 76
15 94
16 89
36 2
38 3
ll en
TC P
34 1
Mi s
NA SL
Pro gram
ki a
Se ven
cou nt
Sou l
Bri dge
Ang el
kin s
Mat the
Europe an
9 21
B un
L 1
M MC
N EX
R B
T as
U FO
V F
e f
z ar
ð ª
ri t
liu s
tou r
ce p
18 11
15 17
15 14
15 78
15 52
âĢ ķ
16 39
16 84
60 8
co s
to p
34 9
64 4
55 7
58 5
59 7
So me
No t
gin s
ther s
Dan ce
Eli za
Gam er
temp late
Step hen
Tay lor
3 48
4 36
5 49
A ST
B et
C re
D NS
F red
L am
R N
S pa
T F
b la
i c
si t
po ly
17 63
13 50
in te
ï¼ ĭ
40 3
90 8
Ma rie
do re
65 00
Ro man
150 5
Me ga
Vi ew
77 7
Ga ga
Te st
ki e
Ca st
Con ne
MG 42
Christ op
yon d
vern ment
5 47
5 67
6 68
A po
C 5
F ai
F AN
J us
K on
N K
T 4
Y OSHI
f is
p el
p pe
Â ³
Ñ ĸ
te c
na s
10 50
se l
tan t
po s
16 14
17 20
37 4
Co V
49 4
ver se
ly n
Ne ver
Ar ti
ID E
Hi t
Ki t
IP S
PS P
Pe ople
UN IX
San ta
Ju st
âħ ł
Phi l
Fra me
IPv 4
Explor er
5 14
5 22
5 45
5 68
6 19
6 75
B lu
C SS
D 1
E BU
J or
K T
M ountain
b n
un e
si e
si ness
la u
se a
15 16
15 13
15 34
15 47
15 69
16 V
14 60
st one
cu la
ãģ §
35 9
ter a
75 7
64 2
58 1
150 2
ction s
Ra w
So lo
Ge Force
à¸ £
SO HC
Ph y
Sun day
Art hur
Kar l
COLL AR
mitte e
4 18
4 14
4 24
4 33
5 44
A lan
C J
D TS
F 2
I nv
J O
M MO
P EN
T wo
T rue
X IV
r ian
w y
Ð Ĵ
er ing
si ve
ci ne
lan ds
man d
17 31
17 68
17 71
14 90
hei r
ne ws
40 9
ãĥ ı
60 4
80 2
ãĤ ±
ãĤ ĩ
ãĤ į
38 9
75 00
39 4
be en
47 6
49 3
Mo d
us ta
Be ll
ER O
Bo x
Hi p
Ri ft
Wor k
AG E
Pri me
pre sen
FO X
sor t
whi le
JT BC
âĩ Ķ
Cine ma
Aven ue
4 31
5 39
7 45
A ri
A BS
B re
D ro
E O
E ver
I ta
K er
L ord
O h
V 6
j q
s k
s ka
Ä ±
li ca
bo w
mo s
15 93
17 24
17 52
14 69
14 98
13 70
ro ws
ãģ Ī
ga te
38 2
75 5
46 4
44 4
57 1
150 1
Vi ctor
De velopment
Mo de
no va
gi nal
Na me
Ki ds
PS 3
pro t
Ex press
Cou rt
Bri tish
Dra gon
AGA SA
Fried rich
6 46
6 67
A sh
A lt
C IA
D 2
G W
H ard
I RT
K ei
M 6
X F
Z J
a po
b our
c z
c ca
e st
f ree
de x
ou ld
ti fy
she d
min e
na ment
15 20
15 60
15 53
16 51
17 40
14 93
60 2
90 4
to wn
ck ing
In telli
Re a
49 6
49 8
44 3
Vi a
Wi th
us er
Bo ys
Fa mi
MA N
Ho tel
Do nald
An na
UN G
AG UE
LE AGUE
qui d
Fire fox
Dou g
à¥ į
Ath lon
6 11
6 45
9 45
A pa
A gain
C 1
C BA
D EC
E a
N at
O ld
Q U
T el
T AM
U 2
t wo
u te
w is
x a
Ã ¥
á º
ai s
er gy
bi a
chang e
ma de
15 96
16 32
16 79
17 18
17 35
17 45
17 58
25 G
ï¼ Ŀ
lt y
cu lus
ãĥ ¡
90 7
ãĤ ģ
ãĤ Ĩ
Ma chi
58 4
150 6
De ar
Wi ld
Si de
Ne u
Ba by
160 5
We ek
nve st
pro du
RE AM
Ele ctro
Stan dard
Cent ral
Hea lth
Ada m
sio nal
Christop her
YOSHI KI
0 50
4 39
5 33
7 31
7 32
7 41
7 62
9 62
C ree
D al
E ve
G in
H 3
I CD
N U
N um
R CP
S hu
S and
T L
T ha
U CLA
W ood
a y
j an
Ï ħ
â Ļ
er t
ti ce
ze d
12 60
15 66
17 25
17 48
ãĥ Ħ
70 6
ãĤ Ī
ãĤ Ĵ
45 7
37 9
do or
75 6
ca se
In fo
ss or
55 3
67 3
Li st
Li ber
57 4
57 6
Vi sion
98 5
gi a
Bi r
97 3
pri se
Jack son
Alpha Fold
Mit che
Capi tal
Fleet line
Angela baby
Matthe w
5 16
6 17
6 39
7 22
7 35
D U
E cono
H MS
P 2
S ty
c ter
e b
g lo
n p
á ¸
20 50
ce l
15 28
15 72
16 52
17 27
17 61
13 68
ra s
ãĥ ¯
ãĥ İ
al s
35 6
70 4
48 2
65 5
br ary
Ro bin
AR E
Fi sh
To wer
sta te
Com mittee
Pi e
mp son
BL E
Har ry
Pre ss
Min d
Jon es
Ander son
Gao n
Eliza beth
4 47
8 63
9 26
9 61
C ru
J uan
L X
R ATP
S el
S port
T win
V P
W W
c rea
g or
n ers
v or
w el
z ing
de fea
la d
la de
mo d
15 31
15 38
16 47
16 81
in to
80 3
the y
70 8
ãĤ ĥ
45 2
45 3
Co lspan
be d
65 1
58 6
57 2
150 4
Le on
Be yond
ED G
AP G
Ba sic
IC A
fe ssor
170 1
ali s
HO ME
Dis co
cc ff
cc ccff
Eng lish
Pat rick
Gar den
Wo men
fra me
FIN AL
3 M
4 38
5 11
9 33
I LE
J am
S wi
S our
S NC
c ta
Î ©
Ð ·
Ø ª
ì ļ
sh op
li t
xu s
su m
lin k
15 30
15 37
17 36
ï¼ Ĩ
60 3
80 8
Co lor
46 1
46 8
vi ty
68 1
ki t
ON G
170 9
Car l
Ke vin
Sou thern
Game Spot
Twit ch
Ab du
Java Script
Direct X
Moder n
3 G
5 41
6 29
6 48
7 25
C AR
E LE
M ain
N N
N PC
P 4
R h
U RE
a mi
g ran
m bo
o van
v at
Ñ ħ
xi s
di re
er y
te am
su l
su per
re do
15 19
15 29
15 55
16 87
17 28
me l
me ter
ãĥ Ŀ
lo ca
90 5
48 4
Ma ker
be fore
65 3
55 9
49 1
67 9
Ro y
fi sh
79 6
OS S
Si lver
tt on
Sa u
MA D
Con cer
cke tt
UR L
AO A
Ya hoo
Spo tify
cture s
Prin ce
ASC II
Omega T
Frame work
prot ein
Mitche ll
4 23
5 36
6 32
7 15
8 25
8 33
A us
A rea
B 3
B rea
C AL
D 9
F low
G RO
J es
K 2
M oney
M bps
N ar
R DS
T hat
d f
p l
li b
li m
si ble
si cal
20 35
ri um
se u
11 20
wa rt
17 67
lo ve
47 3
49 2
66 1
56 2
Vi ole
De bian
De ad
as o
Bi rd
PS 2
An ne
Ed die
Her o
TR A
Zi co
sig ned
Chro me
Count down
Oper ation
Secre t
TOK YO
Viole tta
3 39
4 29
5 32
6 65
7 75
7 69
B and
D 5
F on
J I
O ff
R 1
R F
R ing
R on
S NS
T ol
Y an
g ma
Õ ¡
de lla
ou nd
ti er
ba t
men tary
su ch
lv in
se e
12 20
15 45
16 64
16 59
17 19
14 95
14 96
13 88
st or
70 2
70 3
do w
ST ATION
vi r
hi m
68 9
Mi l
Mi x
Li ke
69 2
79 8
Ja co
Fi l
ER S
sta l
St or
AN D
An ti
An th
gra phy
Ste ven
Fe li
IF F
Hen ri
Rai l
cifi c
Clas sic
0 10
4 34
6 36
7 29
7 61
8 78
A ction
B us
E 1
E ri
E 231
G EN
H and
I so
K ur
L 2
L en
M ang
M us
P AGASA
R K
Z ERO
b ble
o is
p res
Ð ĳ
Ð ľ
Ñ Ĩ
ì Ĺ
shi on
ian a
ri te
lai r
se ll
gen e
15 46
15 49
15 62
16 70
16 90
16 54
16 53
16 94
17 59
14 66
ar tic
ãĥ ¢
80 7
70 9
45 8
ga me
46 3
55 5
hi gh
59 6
66 2
Pa ris
gi e
con stru
Se e
St ri
Ha ppy
Cha l
Inter active
John ny
fli ght
Vo ice
Gu ard
Fo x
Ken ne
FA ST
Bui ld
HTT P
1 2000
5 27
6 38
6 69
7 12
7 11
B P
D REAM
H ein
I ng
I MAX
K 11
L V
M 5
N CC
R SA
Z en
k on
o v
o li
p et
Î ¬
di ca
ri sh
le e
la st
su ng
ce pt
wo n
15 58
15 81
17 38
14 74
13 75
pa ss
ST AT
47 7
In te
The re
68 000
AT E
59 5
59 8
59 9
57 8
Sta rs
Mo re
Ga lant
sta rs
160 8
Cha rt
EP A
pro gram
den ce
au to
EX ILE
GP L
Sam uel
NM B48
5 21
6 28
6 22
7 21
8 67
8 77
9 65
B Y
F 5
G on
J et
O ST
R X
S r
S chi
S UP
V EN
W P
Z Z
a th
e z
f in
f es
de pen
ri l
le m
she ll
bo ra
la ti
12 80
âĢ ³
16 65
17 32
17 44
17 56
14 89
14 87
13 40
000 rpm
cu lar
ãĥ ĵ
90 6
ãĤ º
45 1
99 7
ws ki
gi na
Pro to
Ja c
St ru
Play er
Bu siness
Chi ll
cke ts
pri n
Ani me
Wil son
SHO W
Mou nt
Fore ver
Secu rity
Sour ce
2 nd
5 19
5 17
6 24
6 23
8 35
8 76
9 38
9 54
9 51
A p
B 9
C AP
D 3
E U
F w
F ly
G DDR
I MD
L CD
N er
N IC
Q t
R yan
Y F
h in
s se
v as
w ould
y d
Ð ĺ
ð ¤
li fe
di ne
fa r
le u
ye ar
mu m
tu ra
mo de
se ed
mai l
15 24
15 32
15 84
16 58
16 57
16 99
17 62
13 37
ï¼ ŀ
ter o
47 2
47 4
64 9
49 7
68 7
68 8
69 8
Ro ber
57 9
78 4
Jo na
Da ve
Bi ke
Ho lly
140 6
Car los
DS P
à¤ ¾
SH IN
Cla u
Sma ck
âĺ ħ
Publi c
Compu ter
MON STA
Tou ch
ht ml
Smo sh
Apa che
0 54
6 16
7 19
8 65
9 46
9 88
D H
G 1
H 4
H 10
K y
P ha
S 3
S b
W HO
X G
Z o
b b
e g
u sed
Ã ¦
Ï Ĩ
mi cro
ci d
la w
san a
po wer
re l
wa ys
sa ge
16 68
17 39
17 64
for mat
fo llow
do x
Re s
300 00
Li brary
wi ll
78 7
Fi le
Al bu
PS V
Ta ke
170 2
Hu man
LL VM
tri e
Mer cu
Sen se
rows pan
Smack Down
0 52
4 21
4 37
6 14
6 26
6 37
8 15
8 16
9 75
B in
E cho
G F
I f
I ce
J P
M es
Y A
Z O
c li
d ley
k ha
Ð ł
ë °
en e
bi s
ti l
ri son
lei n
mo st
00 00
12 75
15 36
pan i
16 75
14 64
ra te
45 5
IN D
67 1
67 8
Jo s
Pro fessor
Te x
Ca ta
Fa shion
Bi t
St one
Hi sto
Gi ovan
Lin er
170 5
TO WN
App li
She et
lea se
KK BOX
Christ mas
fun ction
Champion ship
Lang uage
sca pe
Alf redo
af ter
5 42
6 34
8 21
9 12
C IT
C fb
D X
D ur
E di
H at
H PV
M OS
M IT
N XT
S Y
S pin
S IM
W H
W ong
c am
f le
g he
g roup
v ai
Ï ĩ
â ģ
ã ħ
ì Ħ
he a
lian ce
la tive
ma y
gen cy
re c
15 63
or t
16 17
16 63
16 85
17 53
on s
14 77
13 80
50 3
80 9
ãģ İ
the re
lo ck
ãĤ ½
48 3
48 6
Ma ch
Ma ke
Ma te
75 4
ca t
be ca
be at
65 6
The at
Re v
Mi d
67 6
AT X
SA N
78 5
56 1
NA S
AR K
AR P
Fi eld
Si ri
Mar s
ki yo
AC H
Bo ard
So cket
IP TV
AN G
We stern
à¸ ²
UN ES
Au dio
ron o
Fran ces
Mor ning
RC A
Colle ction
Han s
Space X
Fan ta
Af ri
TW ICE
Cir cle
Crea tive
Mel on
Wol f
Indu stri
SUP ER
2 DS
5 18
5 26
5 66
7 16
7 14
7 65
7 64
7 44
8 26
8 47
9 18
9 36
A bu
A ce
B ei
B NO
C in
E very
G I
I an
K ra
M RI
N am
R P
S UN
V IP
W TT
Y i
h p
i nv
o wn
Å Ĥ
Ù Ī
â Ĭ
ë ¦
ð ¬
an t
ci ous
du s
mu lti
te en
ma ry
10 24
16 69
16 56
16 72
16 92
17 54
14 20
14 80
in k
lve t
75 1
ca p
65 8
vi o
59 4
wi ck
79 1
Wi t
AM C
AM P
Ca the
Ri ght
Su l
IT A
170 4
170 8
Wa re
Wa ve
For t
AG P
ML B
Her e
Fu ture
DM R
Sh ine
Cla rk
Plan et
logi cal
part ment
Fron t
Moo re
2 B
7 13
7 27
7 48
7 68
8 75
9 15
9 29
9 47
B IG
C YP
E BS
F rom
G ian
I sa
I SA
J ason
N ICO
O ME
R 3
S ter
T rai
U F
V IS
X III
a w
i or
s ki
s yn
u er
x c
Ð ¢
Ø ³
an ti
un der
bu ry
chu s
hou t
te au
ma ri
10 75
12 77
12 79
12 76
11 11
14 40
14 88
14 72
13 71
ro ad
ãĥ §
90 2
48 9
In dian
69 9
99 2
88 1
98 6
tw e
Ja y
con fi
con tribu
AP M
160 2
com mercial
go s
Bu g
Inter play
cro ss
AI M
RE AS
CR H5
Gre g
Vo gue
Ver sion
Wal ker
Wil he
dd le
Ji mmy
Bui lding
Oper a
Distri ct
Thunder bird
Swe et
Fil ms
0 30
6 33
7 78
8 12
9 55
9 57
C 3
C 14
E Y
F ol
L NG
L IF
M IC
N Y
N int
P OS
R SS
S AT
T am
T NT
V ar
W here
a to
c co
d 4
g li
s po
t su
t heir
Ã ½
Ø ¨
Ø ¯
shi re
en ds
da d
ti no
ri ce
ci es
lai n
ban d
min al
la un
tu ry
00 2
00 4
12 30
long i
15 27
16 11
ãģ Ľ
48 7
ve ment
IN T
In formation
vi ch
vi er
55 8
68 5
ho l
57 7
78 1
Pa ge
per t
79 2
79 4
Wi MAX
98 1
CO 2
AR C
Ja lan
Si x
Sa y
fe ct
mer s
Ni ck
Ge mini
En ergy
Ste wart
112 2
RE S
ES PN
Tri ckett
As ian
All en
Sto p
Tho mpson
Por table
Ve lvet
Qui n
sho w
ìķ Ħ
Jona than
ð¬ ĵ
Nint endo
0 70
5 43
6 15
7 17
8 28
8 39
9 39
A zu
B as
C el
E 2
F D
G 2
G G
G y
K S
M ED
N 1
P ur
Q uan
R Y
S 7
U FC
V 1
V 2
X i
a ve
b ui
e sa
m 2
p pa
t ent
ã İ
ê °
da le
ti ful
pi s
ma jor
ba sed
wa ter
15 12
15 41
16 66
17 21
17 26
17 37
17 47
17 43
17 41
14 30
25 000
me di
ra d
48 1
Ma tch
67 4
Li quid
69 7
ho st
88 9
De uts
fi t
98 2
98 9
Ti tan
PC R
à¸ Ļ
AV E
Hu b
Ad ven
NH S
Gra ce
She r
Enter prise
hy th
Production s
Bru ce
Doug las
2 TV
5 13
8 46
8 66
8 57
B 12
C ong
F air
G ary
H Y
J 1
J XG
O culus
T D
W M
a gain
e y
k Hz
ng e
ke e
mi um
qu ali
bo v
ba ch
na e
12 17
12 74
gen er
po nen
15 15
15 42
17 12
17 11
17 15
14 35
14 56
13 28
13 85
for man
pa s
co la
ãģ ¶
48 00
do l
34 00
II T
Ro sa
Ro ger
150 9
Sta ff
as y
gi r
Di ck
Windo w
IS C
97 1
Ki ll
Ha y
No ve
AS H
Net scape
tal k
IG HT
Sho p
GP 40
Dra ma
hy dro
bri dge
nic s
Sur f
Pen tium
face book
Ten nis
Prin cess
Pin k
Del ta
SHIN ee
0 55
6 47
7 28
7 26
8 11
9 13
B run
C Z
C CD
C OS
H ai
I a
M g
P r
S ang
S now
T AI
U ta
W ai
W er
W oo
Z ero
c tus
d one
k ra
o c
p r
z zi
Î ¯
Î ¶
ian o
ta ge
ci sion
pi a
ni ty
sha rk
11 50
15 44
17 57
14 24
14 70
14 54
ar ray
29 00
ro om
90 9
45 9
37 00
75 9
Co o
be t
ST ER
67 2
58 2
AT S
ver s
ho me
59 1
99 3
SA P
gi on
Di vision
Lo st
Bo w
mer al
Ki r
Ni cho
Ta c
pro ject
DS L
eri a
Fran ce
uni que
Univer sal
Gen e
ham mad
dge t
work s
âħ ¢
IM F
Eng land
stru ct
Ben ja
bri d
CG TN
Lou ise
Anto nio
Archi te
CDMA 2000
WOR LD
Rep Rap
Mis sion
seu do
Holly wood
8 23
8 29
9 27
9 35
A 5
A er
B all
E mi
F 7
F l
F our
G IS
J C
K N
K now
L MS
L PL
R al
T B
U SE
W D
b ran
c ken
e v
f ts
m un
o g
s cien
v ard
li er
li con
bi g
bei ng
mi cal
ri er
se ts
ce ae
12 35
12 64
15 54
or der
17 22
17 34
17 66
14 71
13 30
13 90
ne u
ãĥ į
60 9
the m
Ma kiyo
ll on
be ta
65 2
65 9
ss er
Re mix
pe d
69 5
57 3
78 3
Vi cto
De an
gh ter
fi ed
ber ry
77 1
Win d
Mo tor
Ga te
Si e
Ca re
Al liance
Ho p
ster s
Bu zz
âĪ Ī
Sho t
Ke lly
AA A
DO CO
ser va
Ori ginal
Bro thers
Or gani
Ac tive
Phi lli
Alpha Go
Para dox
Vir gi
ab out
Engine ering
ECT ION
tour nament
Cree k
defea ted
Concer t
trie ved
Surf shark
1 180
3 100
5 29
7 24
7 36
8 32
9 32
9 67
9 76
A rena
B EST
D N
F 6
F G
G as
H M
H Q
H oo
J ar
K A
K un
K am
M un
N 3
N ON
O L
O l
O ly
P RE
R AD
S RAM
U 16
V CD
X Y
g ers
g ood
i des
k t
p m
x on
Â ½
Ã £
Ï Į
Ð ŀ
× Ļ
ð ¡
de ri
eng er
le dge
min a
bo ot
te o
tu a
tan ce
15 57
15 51
16 55
16 78
16 96
17 46
17 49
14 75
14 41
14 84
13 99
st ring
ra p
Ma xi
75 2
Co oper
68 3
Ro d
Ro ss
Te a
87 4
Mar ga
AC S
sta tic
St r
Uni t
140 2
à¸ ¡
Pe ace
Man a
cy clo
CR H
Pri ze
BM T
Hu lu
Bro ad
Bro ok
Red dit
All stars
Mor gan
Val ley
Hol dings
GM MTV
VO CAL
ori gin
Pala zzo
Ur ban
IPv 6
Rain bow
Premi er
sma ll
PEN OME
fes sional
Mercu ry
DOCO MO
PENOME CO
6 35
8 64
9 31
9 37
9 56
9 72
E dition
F ren
F all
F IR
J in
K w
K or
L yn
N AT
P RI
S ue
T ang
b ber
f low
h on
m me
t hu
Ã ĸ
Å ĭ
Ñ Ī
ð °
en ne
ch s
di stri
gu s
ni cal
la v
ma tch
na rd
10 20
10 10
ran ce
12 66
12 61
po em
16 41
17 51
13 46
pa th
ne st
ãģ Ń
th ree
th rough
ga s
TC H
ca u
Mi r
Mi ra
Mi ller
99 5
88 4
88 5
88 6
Pa u
You Bike
Le ona
Te d
Si d
Si g
Se p
IS P
IS S
Lo ck
Hi g
An n
He ad
Wor d
AG M
M1 A2
CL OS
CS I
phi c
Sam sung
YO U
Sma ll
Coun ty
Wat ch
Beau tiful
Dai ly
Augu st
user name
Twin s
Giovan ni
Theat re
Wilhe lm
Benja min
0 60
5 64
6 64
8 17
8 31
8 53
9 19
9 58
9 42
9 59
9 79
B W
C hen
E c
F K
F NC
G UI
H g
I ATA
I nvest
J B
N L
N el
O C
P U
P X
P DF
Q R
U CC
a ma
c ry
g b
g ger
h or
m ba
t hus
Î £
Ð Ŀ
xi t
er on
si te
fa ri
fa mily
mo tion
pin e
12 84
202 9
16 73
17 13
14 25
14 68
13 82
for mer
ar chi
me mber
ãĥ ľ
80 4
ãģ ©
38 00
Ma de
Co lo
65 7
AT I
De partment
CO NC
AM X
AR I
Ga u
87 3
120 4
va ria
IC C
Fa ctory
Ho ward
Hi l
Do cu
Ha w
Pi a
à¸ ±
Car o
CR 400
Ser vices
SP A
od on
Nor d
Dis c
cre en
Fla g
Tru st
LAN D
Hun ter
Fede ration
brea k
Edu cation
Jor dan
contribu tor
5 69
6 31
7 88
8 27
8 45
8 52
A 330
B 7
B MP
E van
G 6
G IR
I Q
K ris
P el
R ER
S wing
T TC
Y S
f eld
g am
i bn
k no
l ling
Ä ĥ
ì ĭ
he l
si l
ta ra
ye s
mu r
lin es
chi ld
cha ft
12 27
12 83
12 91
ha u
ha us
15 39
16 95
16 82
17 10
14 81
13 56
me o
ne tt
ãĥ Ļ
ãģ µ
Ma la
In dia
vi rus
Re gu
44 1
67 7
69 1
Ro b
Ro bo
99 1
De f
79 7
89 7
Ra ja
AC G
ad y
Ca li
AP S
nen sis
Ho pe
Ki ss
Ki wi
Ni ke
No kia
140 5
Ge m
EN D
170 7
Car d
112 4
MI R
cri p
cke d
à¤ °
Har t
tri x
EX O
Ac cess
Es meral
mpi c
los ing
HS CR
Sing le
Asso cia
Sma rt
Vir tual
DK Z
Dou ble
Song s
Premi um
Chang e
coun ter
Wire Guard
Rus sell
Num ber
Sty le
Disco very
twe en
Nicho las
0 20
2 K
3 166
5 23
8 42
8 41
9 77
A Y
A e
A 320
B our
C hai
C rai
D 4
E B
E ven
G RE
I ni
J DG
K han
O u
O 305
P un
P 10
P res
R MS
R yo
T EP
V HS
W ri
W all
W right
W 3C
X M
Z n
d l
e du
f ai
h d
i re
o me
w hat
Â µ
Ã °
Ã »
Ð ĵ
ji to
de le
ei gn
you r
da m
da te
hu man
si r
bi na
zi e
fa u
ta u
ta x
ta le
ci r
ye d
ni k
la e
mo thy
10 66
dou ble
se o
12 41
12 95
que t
11 30
14 33
14 49
13 76
100 1
ãģ °
ãģ Ķ
ãĤ »
th ro
Ma j
46 2
be tween
69 6
SA E
78 6
56 3
per ia
no s
Ar ray
Al ber
sta mp
Ho spi
fe e
fe at
Do mini
Pi ctures
PC S
170 3
EC E
sion s
CH O
And y
AD A
Or der
Gu y
mar ch
time stamp
Blo od
type def
Tai pei
Shi p
thi rd
Free BSD
Val en
Stan d
Tal king
Cl 2
Memo rial
Stadium s
Advan ced
Dro p
Jaco b
Anth ony
Chal leng
Esmeral da
4 D
7 49
7 66
7 99
8 38
8 44
8 43
8 54
9 68
A y
A ve
B 6
C all
C andy
F B
G 3
I Z
I ron
N on
O BE
R d
R is
R IA
S ei
T in
T REAS
W B
a ta
a es
b ye
e ch
e ar
s eries
t rue
¸ ©
ì Ĥ
an y
di ffe
bi tal
mi d
ri d
mu se
ma la
na m
12 90
12 65
12 62
12 86
po st
ha ra
17 29
17 42
14 38
14 59
hei ght
ï¼ ĳ
ro me
st r
ãĤ §
ãĤ ħ
Co le
Re Mi
et te
Li p
Li sa
66 3
Me d
Me e
Mo jito
AR S
Di plo
Fi nan
AP EC
Fa ker
Na ture
Do ReMi
No va
RO R
Go vernment
van t
ser vice
ex e
âĹ ı
BLAC K
par ti
Sco re
Count ry
fri Day
Johan n
met ry
Austra lian
ðª ¸©
SNC F
Jac ques
B9 TL
TREAS URE
1 190
7 18
7 33
8 37
8 79
9 28
9 22
9 48
9 66
A 9
A Z
A la
B 5
B len
C 7
C our
C BD
E rn
F OR
G ai
K L
L lo
L SA
M n
M am
N RA
N eil
O ce
O BC
P ET
P DP
R ED
S chu
S 22
T es
U HF
a ri
e li
f fa
o va
â Ł
ì ł
di c
si ty
ti t
ti tle
bo y
lin s
lie s
10 40
12 40
12 70
gen ce
po inter
wa l
15 99
17 17
14 47
13 69
13 73
ãĥ ļ
lo ok
ãĤ ¶
Ma p
Ma tt
75 3
ca re
vi lla
Li ving
88 2
De fen
fi re
98 3
BA S
BA NG
Le vel
Le wis
con ne
Se cond
-- -
MA G
Mu l
140 3
AS P
Ch in
lla h
lla r
MP EG
112 1
ff er
Pri ce
Ru ss
IF PI
Fran ci
YO UNG
Spi rit
PE G
ICO CA
Far ms
Ven tures
gre en
DAM P
Ana ly
tiona ry
aso nic
depen dent
1 x
1 198
4 x
7 46
8 19
8 14
8 13
8 24
8 51
9 64
A ero
C ERT
D or
E p
E mer
F r
H in
M bit
P sy
R at
S py
U s
V L
W C
W u
a co
d ding
j ar
o su
á ŀ
ê ¸
ì ŀ
de ra
ren e
ge o
ta b
qu en
mu sic
dai n
nan ensis
te k
la ter
su p
ce pha
12 19
12 54
sa tion
16 76
17 14
14 29
14 34
14 44
14 62
14 51
14 83
13 64
ï¼ ¡
st en
cu t
lo ad
of fi
Ma h
Co ok
SE N
II c
Li te
59 3
99 6
88 3
Me lo
Pa cific
CD R
77 4
Win ter
Wi se
Le ga
Pro fessional
89 2
89 5
Se ason
IS IL
ur s
So phi
St rong
Hi ME
Ri ck
Ha ve
Gi b
140 7
gra ph
Con ference
Ka ren
à¸ Ń
pro cess
And rea
Fe a
Mon o
Ad rian
Che e
Dis play
ex ample
ãĦ §
ãĦ Ľ
DD 53
stru cture
Hel en
Cro wn
Ele ct
mini stra
Fun d
PH P
har ma
sing le
Ob ject
Cap tain
map frame
Get chu
Qua si
Gor don
NEX T
inte ger
Abdu l
Azu re
VOCAL O
2 S
3 rd
8 62
A no
E 5
G r
J AK
K 10
K is
N 64
P ai
P AS
R D
S wan
S na
S at
S OS
T 7
V G
a a
a way
g ing
g ro
j n
o re
s v
de t
ei s
ian s
zhu ai
si i
ti i
mi R
mi li
ri cal
le b
ma ge
10 86
ran e
ka ra
12 25
12 24
12 58
po t
sa ry
or dina
16 86
14 86
14 97
13 10
13 29
13 91
ï¼ Ĵ
al loca
the ory
ck i
Re public
hi cle
AT H
pe ople
Li sp
69 3
De ath
98 7
BA C
AR A
Ga ming
89 6
Fi t
Si m
Ne ss
Ne xus
Se an
com ment
so cket
110 8
go v
140 4
Con trol
mp h
ph one
Pe ar
For mation
âĪ ŀ
Ex tra
AV C
Pri x
DC T
Fran z
Per son
NO ME
Du al
SD K
sp lay
Sy m
Lan e
âī ¥
posi tion
Sca la
Cast le
apo re
Ner f
LIF E
Victo ria
Fren ch
Franci sco
VOCALO ID
0 40
0 80
6 A
7 23
8 500
8 58
8 59
9 14
9 34
9 44
9 69
9 53
B GM
B lair
E va
E lli
E MD
F lor
F RAM
G len
G NOME
H is
H IG
K no
K ara
L as
N 4
O G
O Z
P lu
P ST
P AL
R R
R GB
S lo
X peria
Y ellow
Z u
Z ICO
a me
d le
d ron
p ti
Ã ¯
Å Ľ
Ë ĭ
á ¼
ing s
ui nt
er ror
ti mes
tai l
pi d
ni g
bo l
dou bles
00 3
12 36
12 78
12 63
11 40
ha l
sa t
âĢ Į
17 16
14 42
14 78
13 60
13 65
13 33
13 41
pa y
st ream
lo cal
Co me
ST EM
AT M
78 2
fi cation
77 2
77 9
per s
ly s
Da ys
89 1
Mar t
Mar ch
Ra cing
120 8
Se x
IS IS
sta rt
Bi li
Bi lly
So cial
Ri ch
Ki ii
Com mission
Con ti
à¸ ŀ
Car ter
Car ol
AI L
sis tant
Ex peri
And re
SO 3
BO RN
au x
TE EN
PP P
ple te
Cen tury
cle ar
mb H
Hy brid
OK A
At lan
BI OS
Ter ry
LGBT Q
Qui ck
Part ners
Bran d
Pho to
Alf red
Fore st
Fro llo
cka ge
WI SE
Advan ce
Fanta sy
Ern st
1 a
1 194
8 34
8 49
9 41
A x
B ye
B WF
B OSS
C AT
D AI
E nt
F RE
F IA
G U
I van
J J
K al
M 24
O ur
P b
S pen
S ki
U l
W ang
W ha
W AN
a ting
c ty
d r
f x
o mp
u a
w ri
Å Ħ
× ķ
Ø ©
à ¼
ë ĭ
ì ĺ
de z
shi ps
li en
di gi
bu rn
bu cket
ti us
qu ar
ba ra
che ster
pu l
10 30
10 99
can s
12 21
12 72
re st
re cor
15 33
16 98
16 71
14 13
14 43
13 58
13 96
Ma tter
99 8
ry o
78 9
CD K
77 3
Ra b
Ra zer
ki en
120 6
Ar n
Ba si
Lo w
Bo dy
So rana
EP HE
HK IFF
MP I
pro per
dy na
Ko ta
Davi s
SC I
Char lie
Fu ll
im port
Min ute
UT F
Stan ley
Plan e
Sing apore
Ten sor
Bob by
ðĲ °
âī ¤
even t
Dyna mics
Sui te
íķ ľ
AMO LED
Appli cation
UNES CO
Crai g
OBC s
1 189
8 18
8 48
8 69
8 99
9 16
9 17
9 49
B lan
C s
C ream
D 7
D ong
D ino
D card
E mpi
G mbH
I mp
M ol
M ine
M rs
N EC
O ra
R M
R as
R ID
S m
S creen
T ER
V AL
X 2
g no
j our
p han
t ru
v ol
z one
Â ¥
Å Ł
Û Į
à ¨
ê ¹
ë Ĥ
ë ŀ
ì §
ai l
en ter
ch ei
li d
ue s
ri ous
ci pal
bo rn
ma to
ba d
wai i
10 60
sha ll
ka s
12 11
12 34
12 46
11 10
11 47
po l
po ssi
re g
re al
wa ld
15 48
14 58
niu m
me ta
ro st
fou r
leng th
ãĤ ¡
th or
Ma gic
Co ol
500 rpm
SE M
Re volution
Re trieved
hi bi
88 7
150 3
79 3
Mo vie
BS I
Se le
ED 79
-- --
IC S
Lo gic
ID S
Sa la
St ray
so le
Hi lls
Cha t
IT Z
Gi t
à¸ ´
pro vi
RO CK
112 3
MO ON
my TV
And r
CR 300
Lu cas
BD SM
os pace
tri c
sto re
PP TP
Ber g
lar ge
She ll
119 2
Pan asonic
Pla t
sor ted
tha l
NE WS
logi es
shing ton
Qua ke
Ami ga
fini ty
Cul ture
sour ce
Dia mond
Kei th
Machi ne
ð¬ĵ ĭ
ãİ ¡
forman ce
Oce an
0 12
8 68
9 74
A stra
B V
B b
B am
C 96
E 9
F lip
G 4
G 9
G SM
I o
J un
K F
K as
K EN
L MP
P ER
P ed
R G
S cor
V En
V IE
Y ang
Z E
Z one
a sh
a cid
e V
f ying
f ran
f re
g ge
t ty
v ian
â Ĵ
ru ng
la us
ma ra
men to
mo do
lv ad
10 27
10 70
10 49
00 6
12 32
man y
re lative
16 74
14 48
14 39
14 67
13 45
13 86
13 92
13 93
mou th
me a
ï¼ ľ
co ver
ãģ ļ
the ma
Ma lay
be ll
65 4
Re be
Li TV
99 4
Vi lade
La b
AM R
Si licon
IS H
IS M
Ar my
Ba ker
Lo s
Bo i
St ring
so lo
IP A
IP O
ris m
PS 4
Ka kao
à¸ ª
AL A
we e
MP 3
US H
Wa shington
Ex change
MI L
TE E
Lu d
BM G
DR 2700
Har old
106 46
Che r
Nor man
ple t
TS B
Th ree
Mor ris
UC I
LC K
Boo m
Gran t
Pat ri
Hol land
LP DDR
Fer nan
LT TE
LS ST
Cal li
Tur bo
oper ator
mark er
read s
sche ma
Sche me
stre et
Villa ge
Info com
ELE VEn
artic le
GDDR 5
F7 F
NON O
Str v
Vilade cans
4 200
9 63
A ge
A TC
A vi
C AM
C BE
D ang
H 6
H 9
J K
J IS
K V
L ai
L ing
M 60
M uni
N y
N TT
O x
O wn
O RI
P 5
P ao
R 9
S cha
S hang
V Y
V la
V CR
W en
c l
c chi
c les
f ly
h man
i de
i na
j k
k le
o bov
v re
x ml
z oom
Ä Ľ
ë Ŀ
ou gh
ch ro
li k
di d
bu g
zi o
ri m
dan ce
du le
min o
la mb
ma ke
ma le
che l
ze l
lin d
10 12
10 17
10 63
se mi
12 14
12 29
12 68
12 42
12 53
12 71
11 60
11 35
re ll
16 77
16 91
14 19
13 24
pa k
pa ren
ne ll
ro ot
ãĥ ´
ãĥ Ĵ
al y
co gni
fo ot
th od
ga u
ck ers
39 00
vi c
SE T
oo ls
pe x
ver sion
Ro th
Jo is
Da le
87 1
87 2
Ra dar
Be ach
va ge
ED A
cen se
Sa fari
Na tural
Do ctor
AN SI
Com pa
Ti ger
Ni k
Ni m
IT U
130 7
140 9
SM O
Ka te
à¸ ģ
MO MO
Fe ed
DR 2800
Ju lia
CE MS
Can a
Can ada
Gra phi
Qu ar
Qu ali
Phi lo
king s
Sh in
Alex and
Sing h
side nt
Direct Show
Cle ar
poli tan
Medi cal
Cer tifi
Oli ver
JU MP
Vin cent
Miche l
follow ing
ë¦ ¬
HIG H
à¼ ĭ
2 n
7 34
9 K
9 43
9 52
A 7
A de
A pri
A 380
B f
B is
B ol
C 9
C ai
D 6
G round
G usta
H ur
J S
J Y
M 9
M s
M 10
N FC
O wen
O re
O tto
P eri
R y
R oo
S BL
S ain
T s
T wi
U k
X I
X e
Y E
Y es
b g
e o
h yn
t ja
w hen
x 2
Å ł
Î Ľ
ê µ
ë ¹
Ĭ ¸
ang le
er ra
fa s
ti que
ti va
ru p
ban k
bo th
liu m
tu ng
pai gn
lie d
10 59
10 56
10 54
ran o
ce a
00 5
12 59
12 52
12 82
po lis
14 15
14 26
14 76
13 49
13 63
13 97
bin o
ar ning
ne o
st rong
co lle
the ra
lo v
ga tion
do ws
Co lum
be ar
In die
vi d
Re g
69 4
Ro s
wi e
wi ch
De li
ï½ £
AM A
AM G
Te mple
Fi ve
Mar cus
ki ta
IC T
Na vi
com plex
AN N
We a
130 8
Gi ve
Ta ble
Inter march
Ste fan
CN J
Ex ample
MI X
Fe el
Har ris
240 ZJ
EE Z
Ber nard
yo ga
SH IP
Gen ie
Th or
Qu ad
Spe ed
Por ta
King dom
Fri ends
IO C
dro p
Hea ven
Bel le
plo t
á¹ £
Chro mium
Ei dos
Ray mond
Sche ma
live door
Sc rum
TG V
sour ces
Loo k
eb ly
Tol kien
Kenne th
Rober ts
Virgi nia
Hospi tal
Lega cy
1 195
8 98
A k
A di
A IC
A ff
B ha
C AD
C BN
D in
H um
H ad
J D
K TV
K SK
M 12
M ET
M eri
N f
O range
R oom
R hyth
U G
U H
U 15
V eri
W DF
a la
f s
g 4
l ma
q uo
t ry
Â Ń
ð ł
en o
ui s
zi n
fa l
ti co
ti ty
ye ars
ya m
min ation
mo dore
na h
han a
10 19
10 11
10 15
10 16
10 32
10 47
chan i
00 8
12 12
12 97
re tt
14 12
13 14
13 13
13 94
sen t
lt z
al pha
100 6
co le
fo o
ãģ ³
ãģ »
ãĤ Ģ
to l
Ma cro
Co ver
46 00
ST D
Li e
ho w
wi g
Me ss
Vi ctory
per a
Wi de
98 00
Le gen
AM E
con trol
Ca u
To day
sta tion
Fa te
So da
Ri ve
Com man
Ni ce
We ebly
à¸ Ķ
pro to
cou t
112 7
AK E
For th
SO 2
TE 1
TE AM
Lu cky
Lu mia
NO 2
tem ber
Dan ny
Game Cube
IL D
280 ZJ
Geor g
AF I
119 1
Cy ber
Bra cket
Whi t
Produ ce
Pla za
lip se
Tele vision
Far m
à¹ Ģ
Cra zy
VV VF
teri al
Fre de
Il lu
Sara h
Lui s
16V 280ZJ
Fish er
Hein rich
lati tude
IMD b
Albu m
longi tude
ê° Ģ
Fl ying
Marga ret
TTC N
kno wn
Ryo na
Blen der
+ .
7 100
8 22
8 36
8 61
9 24
9 23
A gency
B 4
B 8
F PS
G an
G ul
H H
J ere
K ang
K ING
K lein
L W
M 1895
P ART
V ul
X 1
X S
Z FC
e mo
e es
e ffe
f lu
f ron
j p
k V
m ys
p ta
s sa
x 3
x ys
Ï į
Ð £
à §
à ¯
ð £
de ll
de sign
li ni
un a
si m
zi p
ta ri
20 31
ci na
lu ng
du ring
ya ma
pi c
pi o
la ce
mo sa
10 18
10 35
10 72
cha ra
se le
12 44
12 99
11 70
11 39
po ol
re mo
wa ve
or gani
14 21
14 55
14 61
14 85
13 000
13 55
13 43
13 87
13 72
sen s
pa t
me thy
ãģ Ŀ
to sh
Co nv
ST s
The y
SE P
hi ll
44 00
Mi li
at ten
42 17
wi cz
Vi lle
Pa ck
Mo na
Da ss
Da wn
Pro per
Mar c
AC P
Be e
Ca sa
Ca lvin
Ar ch
IC AO
IC HI
Lo ren
com ponen
Ho y
Ki rk
Com modore
Su san
Cha mber
130 4
PS Y
140 8
ET S
EN U
112 5
eri e
San t
sty les
à¤ ®
Stu art
EX IT
del ta
sto ck
mic ron
Du ke
MD T
On ly
As se
UR N
Ce ll
Ab ra
Ali ve
Free dom
Fri end
now ledge
EM U
GM M
Dire ctor
Ran t
gna ture
Scien ces
Gener ation
PI ECE
Yo shi
Techno logies
Rap per
Hor se
Ham l
flo at
ob ject
Dol by
Pas cal
Wing s
final s
Kai ser
Tas te
UCLA SS
Aus tin
GRO UP
Stor m
Proto col
Clau de
Fashion TV
BIG BANG
Aer ospace
Ral ph
Sep tember
Drop box
Bili bili
ëĿ ¼
0 90
0 67
1 1000
9 F
A FC
C m
C ris
D as
F ine
F ellow
G TE
G host
H SD
K 3
K M
K AD
K DE
L I
M ST
N TSB
O E
P 1
P W
P BS
P IE
P seudo
R ET
S d
S k
S la
T r
T ARD
W RC
Y ES
a ted
b ha
c 2
c 4
d g
e di
e very
e ach
h orn
i ty
n ou
p si
t 2
t rai
w ers
Å ļ
Ë ĩ
Î Ń
Ù Ĥ
â ¼
ð Ĵ
di nan
ge e
ti ger
20 40
20 47
ri dae
ru g
la h
men tation
mo no
chi n
10 46
tan i
tan o
ka l
ka wa
12 18
12 15
12 47
12 43
12 56
11 38
11 37
11 68
re z
re ti
wa tch
sa d
sa m
16 93
14 14
14 27
14 32
14 91
13 78
13 51
for nia
27 58
ï¼ ķ
ne z
lt s
ãĥ ĺ
100 2
co in
Ma ya
Co splay
ca pi
ca te
In stru
SE C
Re view
el se
et t
Mi ami
59 2
SA S
De vil
fi le
fi lter
ï½ ¢
98 4
You th
Jo an
Ga y
Mar co
120 7
Ar m
Lo cal
Sa vage
Tu ber
so lu
so ck
IP CC
110 6
go ri
go vernment
ster y
130 9
An ni
An sible
He ll
170 6
à¸ §
à¸ µ
AL X
âĨ Ĳ
112 9
ps y
Ex e
Ex ten
Chi ef
SO 4
BO T
cke y
118 5
IF T
Cor tex
à¤ ¿
NO W
LL C
mon s
Mon te
Pre cision
Nor thern
Super ia
mar ket
mb ly
Blo o
hy po
XX X
ð« ļ
SU V
Boy z
Para di
SN K
Master s
Champion ships
dor f
âĳ ł
Mari ne
Pal mer
telli te
Nico nico
Wan na
Demo cra
Lar ry
Fai th
Arti sts
Intelli gent
ìļ °
rec ei
Oly mpic
Invest ment
MIR ROR
ìĤ ¬
Quasi modo
OKA WA
bg color
Frede rick
TARD IS
0 13
0 65
1 N
1 202
4 B
5 100
5 400
7 43
9 600
A 8
A to
C lai
C SP
C UB
C IE
E mily
E volution
E asy
F IL
F ood
G ue
G all
G HC
J M
K W
K ol
K ent
K night
M PC
N ei
N IST
O LED
P hen
P ul
P DA
Q 3
R ho
S print
T 5
T hai
T on
V or
Z oo
a rea
b ou
b by
c las
c cer
d ral
e la
j s
m und
p pi
s port
x o
Ã ¹
Ä Į
Å ¾
Ë Ĭ
ì ĸ
ng a
sh er
de ca
bu tion
da ys
si ca
si den
ge ther
ke l
ti d
ti f
ci ent
ya r
te ction
la ted
ma g
ma th
tu plet
ting s
10 37
10 67
ce o
00 9
12 16
12 26
12 55
man a
11 55
11 58
11 42
11 43
11 54
wo o
re x
14 18
14 94
13 47
13 67
13 74
hei m
for ce
in dex
ï¼ Ĳ
ro t
al o
co c
co nv
ãģ Ĳ
ãĤ ®
Ma son
Ma jor
SE L
Re ference
el s
el lo
et ro
Mi ll
AT ENU
pe ti
is m
is o
wi de
Vi sa
Pa k
Pa per
fi lm
Sta dia
Mo ni
Ga p
us ing
con da
ki na
Be lie
Ca se
Ba k
Sa les
Na tion
Na ver
Ho ri
St ein
Do g
Ri ot
Com plex
Com mercial
Ni x
Uni ty
110 7
Pi tch
ed s
ET F
For eign
ff in
rea u
UN D
âĪ ¶
AV BW
AD HD
tor s
ja ve
DA Y
Hu ghe
Open MP
Per formance
Bar ry
Stu dies
ky o
Sha h
SC s
Vo cal
Can on
Univer se
len a
Eu gene
WTA 1000
ï¹ Ķ
win d
YP E
Mark down
STAR SHIP
vs ky
Spi ri
Japan ese
NE W
Zi p
Lau ren
stan ce
Den nis
Pho e
Cr ye
cul ture
TI ME
Arc GIS
LU NA
Syn the
Pod cast
16V 240ZJ
Electro nic
Econo mic
Iso xys
Inte gra
vai la
Cong ress
CRH 380
Cali fornia
Challeng e
Empi re
KAD OKAWA
0 23
0 62
1 B
7 39
7 63
A v
A lv
A ar
A ga
A IT
B rain
E ni
F is
J une
K 1
K ri
K CON
S VO
V AR
V Tuber
W TO
W RK
b ru
d 8
d z
e h
f on
f era
g gy
h of
k ei
o th
q a
s c
u k
u u
u lar
v 2
Ë Ĳ
Ì ģ
Ø Ń
ê ³
ei ra
un signed
he dron
mi ss
ri x
ri de
le h
gu ration
lu r
nan t
min or
la c
tu ring
10 H
10 14
can a
12 28
12 85
12 73
11 19
11 62
po ra
14 28
14 45
13 20
13 12
13 77
13 52
13 89
st ol
100 8
ter nal
Ma ple
IN A
SE A
Re ady
el y
AT R
pe a
Ro sen
Ro nald
ho s
Pa ri
77 6
Le c
Le pto
Ga g
Da me
ki r
Se arch
AP T
To Heart
To mmy
com pu
Ki ck
We ll
110 2
110 3
IT S
go t
140 1
ble m
ko m
lle d
He y
MS P
Bu tter
DS R
RE AL
Au di
Pri vate
Open GL
Per ry
Ko rea
à¤ ¤
Ju lian
SP ARC
Pu re
GP T
Du ra
Her bert
Is lands
WTA 125
Tra de
Show case
Ab out
Bra dley
DE ET
Lea der
CG I
clo se
ð« Ł
Sen ior
bili bili
space flight
Lau ra
CF 3
Mag num
Em ma
Envi ron
Gro ve
INN ER
Col lins
JU ST
Fede ral
XC 60
Shan e
C5 H5
Jus tice
MMO RPG
Alt o
BLE ACH
Tex as
Frances co
STER EO
Small talk
Docu mentary
Llo yd
sv g
alloca tor
ORI CON
lamb da
Graphi cs
CUB RID
Hughe s
ToHeart 2
0 21
0 33
0 43
0 53
1 b
4 300
8 X
A 6
A lo
A my
B G
C 8
C 13
D ASH
E at
F U
F AA
G ang
I re
I nvi
L ol
L ET
M H
M w
N g
N es
N ER
O O
O cto
P t
P AD
P TT
P tr
Q T
R oot
S 6
S ri
S 26
S us
S DR
T ong
T HC
T OSHI
V WF
W G
W es
a di
a se
a vaila
b l
b lue
f ety
g rou
i ta
k Da
l der
n n
o nal
s z
t one
Ã ²
Ð ¶
Ø ´
ë ³
ë ı
li x
li ch
ren o
si er
fu r
mi stry
ta tive
ri ca
la tions
ma xi
10 76
10 95
ran d
ran da
ka m
12 48
man s
11 18
11 31
11 45
11 78
re gu
re qui
sa s
on es
14 23
14 22
14 79
14 82
13 27
13 57
13 98
13 83
13 81
for mo
pa la
in formation
ar n
ï¼ ¢
ro ck
100 3
lo gue
Ma k
Ma ha
Co w
be st
In fan
In fra
Re port
el le
Mi ddle
Li bre
Ro cket
SA AB
Me mber
ts ch
Wi Fi
Mo jave
Jo int
AM MA
Ga bri
Da u
Da sh
Te m
Te ll
89 3
Be am
Al co
Po pu
com muni
Ri o
pp le
MV V
SS P
110 1
110 9
lli s
AS O
Par ti
Ta u
IV ER
BL S
Bu t
Bu bble
we ak
Hu ang
Ke e
Per l
Per fect
à¤ ¨
à¤ Ĥ
Har rison
NO 3
Ju lie
sti n
EE EE
Ori en
Gra ph
ï¹ ķ
Tho m
Fo rum
Phi li
War ri
Es ports
737 MAX
Wal k
ï¸ ģ
Smi le
Chu ck
spe cial
Wo man
Eli te
fra c
Blue s
CM OS
gre gate
âī Ī
á¹ Ń
FAT 32
Ob ser
Des k
sca le
Op ti
Medi cine
CAS H
COLL ECTION
Communi ty
Cul tural
Austra lia
Spa rk
Conne ct
alis m
Afri can
Cathe dral
archi ve
Evan s
gam er
TEP 70
Analy sis
Melo dy
Kota ku
rost ris
Git Hub
Dang er
Shang hai
Exe cu
0 18
0 46
0 32
0 73
0 93
2 O
2 PM
5 200
A z
C lay
D uo
D IN
E 6
E SA
E H10
G 7
G 10
G 11
G rea
H IS
I MI
J ST
J UN
K G
K r
L PGA
M 8
O ber
P ine
R 4
S 8
S IL
T rou
T ree
V III
W y
W AVE
Y U
Z an
Z IP
d B
e ss
e cho
g lio
p f
s r
u re
u me
Ä Ł
á ½
ë §
ì Ĩ
de c
ei ng
li l
li on
di er
si k
fu ll
ke ll
bi ke
mi l
le g
le z
ci p
ni er
bo t
ma k
mo te
ku s
ku ra
10 65
10 55
10 57
10 94
ran t
12 38
12 39
12 93
11 15
11 57
11 79
po pu
re su
15 18
lang uage
14 52
13 25
bin e
in clu
ar o
ne xt
ro e
ra ce
cu be
ãĥ ¤
al ly
the s
of fee
ãĤ ²
Ma gi
Co hen
Co ld
be e
In tro
SE VEN
Re turn
AT T
nd rome
De ce
De stru
fi shing
Mo s
Mo ha
Mo st
Jo sh
Pro motion
con tra
Fi tz
Ra di
IS L
Ca pe
To yo
To kyo
JR A
Fa ctor
Bi z
Sa ba
Na te
So nic
com pa
Ho we
IP C
AN ET
Mu hammad
We lls
Gi or
An y
SM RT
ko s
Ge ar
IV B
Bu sh
Bu ll
En ri
cou ld
112 6
AK B
RE M
For d
For tran
cal l
SO LO
Sch mi
IA U
ja po
res pon
118 4
Hu a
Open AI
HO L
RI SE
Ju lius
EX ID
od d
Je sus
Sha ke
Ad ministra
NH L
Ori gin
Dis k
ãĦ ľ
Th orn
tro ff
Ku ra
Universi t
Games Radar
Han teo
cre w
Hy dro
âĹ İ
Free style
Hol mes
Wil lie
Wo RMS
GT X
Tur tle
sin ce
Ag ri
Ran kings
CM AMMA
tia tive
Ren der
Comic s
Ear l
Flo wer
part ner
âĳ ¡
Tru th
OP EN
âĩ Ĵ
tech no
Fal com
Ima ge
Law rence
Rang e
âĤ ¬
LZ 77
Wonder ful
Jus tin
sea se
P2 P
meter y
WH IP
confi g
Hig gins
PX A
Associa tes
1x EV
Spen cer
Apri l
0 16
0 56
1 D
1 199
A mp
B K
B ET
B TR
B orn
B ERT
C yan
C hun
D um
D eri
D ATA
E v
E TC
F en
F lu
F oo
F ur
G ring
I AL
I den
J A
J SON
K ON
M ys
M 110
N SA
N TO
N ME
O MG
O EM
R V
R LE
R NC
S ci
S can
S NA
S CP
S ING
T X
T AS
V as
W R
W he
W INNER
X L
Y 2
Y ON
Z im
a 2
a lt
c ara
e qui
g ly
o id
o saurus
p un
s m
t land
v ine
Ð ķ
Ð Ľ
Õ ¶
Ø ¹
Ù ĩ
ð ¨
xi v
de g
yu ng
en se
ian t
di vi
da h
bi l
ti zen
mi ra
ta k
20 S
le vel
le vard
ye t
hai l
pi cal
la g
la k
la t
ma e
ba ss
yun nanensis
lan a
lv i
lin er
10 22
10 90
10 85
chan nel
12 13
12 57
12 94
12 92
po in
po sed
or bit
14 31
13 23
13 62
mou nt
ï¼ Ĭ
ne ar
ne ver
ro ll
cui t
100 4
fou nd
co ordina
ãģ ¸
ãĤ ´
ve ctor
IN AX
be lle
500 00
In dependent
64 00
hi r
hi sto
68 00
et ra
Mi i
Li li
ver sary
Ro dri
Pa le
De velo
Sta y
79 5
OS I
La bora
CO O
CO UN
Le vi
Te e
Di o
Si gnature
Ne ed
Ra re
600 00
AC M
To night
Lo go
sta ge
Do ta
Ri ghts
Ha u
Com pi
Su gar
Cha ra
IT E
IT Y
IT IL
IT ION
130 5
AS V
Con tent
Lin ked
à¸ ¥
à¸ Ħ
EP ROM
Car a
cou s
Go t
RE CO
vo lu
ent ry
end y
MO VIE
Man uel
SO HR
Lu ke
Ru sh
Ru th
NG O
Per ez
Har vey
Ad d
ser vices
Che y
len e
UR R
qui n
Tra vis
Ce le
Es sen
PL US
Shi r
Ele ven
Sur vey
GA INAX
dd r
SU MM
Ger man
Ger ald
Ag da
Vir gin
Er nest
GE O
ele ctro
à¹ Ī
Regi onal
OM ON
sch ool
Beau ty
Poli ce
oi re
Secre tary
Ah mad
Philip pe
Mau rice
Bai ley
FI BA
íķ ĺ
Rang er
Cinema Score
Cru sh
Brea k
hin d
beca use
NICO NICO
Greg ory
POS IX
Uta da
Pia zza
fau lt
Mam ba
Russ ian
Psy cho
Sophi e
Display Port
Ano ther
Tensor Flow
ê¹ Ģ
Ped ro
Calli gra
Paradi se
Octo ber
Dece mber
Gring oire
0 15
0 24
0 48
0 47
0 58
0 69
3 S
A bi
B li
B ED
B ron
C Y
C heng
C rui
C um
C rew
D ONG
E co
E lla
F ed
F t2
F IVB
G ru
G TA
G CC
G lass
G LP
H U
H ya
H indu
I K
K 230
L or
L SD
M ong
M 113
M ENT
N 6
O o
P AC
Q F
Q i
R yu
S li
U V
W as
X a
X DC
Z y
Z in
a le
a ck
a sso
c 3
c p
d 3
f r
i x
l b
m pa
r do
s ei
t ree
w es
z ero
Â ®
â ½
ë ª
an o
de li
de mo
en os
li ci
you ng
da k
da ra
da cty
ge m
ti vity
ta lis
20 32
ri k
du m
du ction
te t
ma b
ma h
ba c
men i
tu ber
su rance
mo na
mo ney
na u
10 34
10 44
10 87
10 93
se c
se cu
tan e
12 10
12 49
12 51
11 52
re vision
on to
on so
14 10
14 11
13 36
13 44
13 59
13 61
13 95
25 K
25 T
for t
in stru
ar do
me an
nu ll
ï¼ ĥ
ro v
ro y
ro se
100 7
100 9
35 000
th ia
Ma cin
46 A
be lla
47 00
In si
In dex
Re ser
58 00
at ta
ver i
Me a
400 00
Pa th
Pa ckage
De e
De m
De v
CD C
98 A
La ma
gi l
Pro vin
120 5
120 9
AP H
To tal
Ba hn
Po cket
So ccer
Com mand
Su ng
HD R
We e
SS D
Gi u
SM TOWN
Ch ing
lla tion
He ller
EN CE
à¸ ¢
Bu l
Inter face
My Radio
Man u
AG B
sic s
Sch o
je ctive
Lu ck
DR T
DA O
MC A
cor ding
Fran co
Per fu
à¤ ¦
Tri ple
Che mical
Dan cing
Nor mal
Is ra
Gre y
tra ck
Th ink
ï¹ ŀ
UE FA
Bra d
Pan zer
Cho w
whi te
Offi cial
FF T
ele ct
SR P
OM R
ori en
Pala ce
Step han
Clo stri
Mit chie
AX N
DI Y
Gil bert
Communi cations
Eye s
Lun ar
S4 N4
Jeff rey
Tran sit
vat ory
Mang a
Kenne dy
Industri es
VIS ION
Adven ture
Philli ps
Nel son
Finan cial
possi ble
Vla di
Cana dian
coc cus
AVBW U
Phoe bus
Aar on
Ire land
availa ble
COUN T
Linked In
Macin tosh
0 35
0 86
1 201
5 300
6 K
8 56
A ki
A ur
B ER
C hao
C 12
C offee
D MA
E I
E ry
E NA
E state
F W
F ei
F AD
F DG
G run
H 8
H ang
H 12
H oney
I de
I LO
I rish
J oo
J IT
M 7
M 16
M 41
M all
N V
P Q
P rai
P ool
P ain
P AO
R in
R AC
S wa
S andy
U lti
V es
W ard
W hy
a ction
c tic
d son
e xit
g oo
k or
p hen
p th
p lus
w he
Ä Ĺ
É Ľ
Î ¦
Î ¾
Î ļ
Ø ¬
ã Ī
ì ¤
ì Ĭ
í ĺ
ï »
de m
de v
de ad
ou ra
ch ing
un ders
di v
di no
bu ckets
da ll
si nensis
fa ctor
ti tude
mi ya
ta g
ta m
ta pe
ri i
ri ta
le ast
ci e
ling ton
ni i
ni al
te le
su la
lan o
lin o
ran i
se x
se qu
tang a
11 16
11 41
11 77
re u
wa ll
14 16
13 35
13 38
13 32
13 84
lou s
hei n
niu s
sen et
mou r
mou s
nu meri
000 1
ne a
st le
ãĥ Ķ
lo a
lo o
ãĤ ¼
tun e
ter ator
to k
Ma th
ca ta
ca pe
ST EP
In no
In former
64 BV
vi deo
Re ed
el ds
Mi le
Li on
ho p
Me tal
Vi l
Pa K
no include
La unch
CO P
Le u
Pro cess
Si lva
87 00
Be ar
ad van
Ca fe
Ar cade
Al pert
ED M
ED 60
cen ce
ER A
Bi l
Na tions
St ream
so cka
Su lli
Ni e
SS R
PS 5
gra phic
Con fi
Con fe
Con cept
Par ker
Lin d
ET SI
EP UB
âĨ Ķ
Pe ak
112 8
den s
cal led
CN BC
TA G
AG C
Sch ools
NC E
118 1
HO USE
clu b
Cor ne
NO AA
sti ce
Davi es
Ed win
NH 2
Her mann
CL I
Gra m
Gra y
Gra ham
Ty ler
ãĦ ı
Gu ar
Ban G
Tra ck
ï¹ Ŀ
George s
Ani mation
AO 3
Lea f
sy mbo
DM Z
Wal ly
3A 4
Plan t
Fer dinan
data base
cto id
Gui de
bro ad
peri al
à¥ ģ
EV ER
Ob last
Publi shing
NM DA
SV T
TH Q
Cer vo
Johan nes
Compu ting
tifi c
PRO DU
Has kell
stu dio
Round cube
Intelli gence
Nat han
GRO W
Rail way
laun ches
Gy m
HY BE
Archite cture
distri ct
Leona rd
Ec lipse
GIR L
hau sen
Gib son
Atlan tic
Ora cle
Malay sia
9K 37
Jere my
Mili tary
Anni versary
conda ry
Execu tive
Destru ctoid
XDC AM
Perfu me
socka ddr
PRODU CE
0 17
0 29
0 88
0 94
0 91
2 C
4 C
4 Minute
7 k
A men
A DV
A ES
A xe
B ing
C X
C 15
C 60
C ES
C 10H
D am
D IS
E 4
E VA
E 233
F P
F at
F TT
G li
G Sh
G HQ
H IDE
I RES
J 48
L 5
L US
L IM
L AB
M ID
M We
M RT
M BE
N BS
O W
O AD
O micron
P le
P han
P DC
P INK
R ao
R ein
S hen
S cu
S es
T eng
T ED
T FT
U 22
U AL
W NBA
Y Z
a 4
a ter
c ian
c tional
c tionary
d 6
d b
d ha
e ling
f 8
f ford
g la
m L
n oun
v u
Ï Ī
ê ·
ð §
an aly
ai re
you tube
he art
si x
fa st
ta h
20 77
ri on
hou gh
du r
ma u
ma ti
ma tan
ba u
na y
na lis
han d
10 21
10 69
10 88
10 61
10 62
10 97
10 96
se xu
se len
ce du
ka ya
12 37
12 67
12 87
11 75
11 33
ha lf
pan a
sa w
kan e
14 17
14 46
13 48
for mes
me mo
za s
ra ge
co lo
fo ld
ãģ Ĵ
ãģ ĸ
ga mes
Ma rio
IN I
Co A
Co p
Co x
Co in
ST OR
ss ue
vi si
vi ties
Re co
et s
Mi gue
ver al
Ro ma
Me V
Me yer
78 00
56 00
Vi k
De si
gh ting
fi er
Sta rt
Mo to
no on
La tin
BA BY
Ga re
Te ss
Fi lter
Si l
Mar ty
Se mi
AC AF
AP A
Ba la
IC K
Sa c
com pany
so m
Do gs
Ti cket
pp el
Cha pel
SS 2
IT H
IT X
Pi t
Gi use
EN G
ph in
we a
For m
ff y
rea ched
CH I
Chi esa
SO AP
Ru le
MC T
San tos
Cu t
pha se
mon y
sto wn
cm 3
Ber nar
Bri ght
PO 4
ac cess
OR F
Ce metery
Ani ma
im por
Air craft
tz er
Cro quet
At ta
pla yed
WE B
Cho ice
ð« Ĭ¸
out put
Euro gamer
ste p
LA Y
âĸ ³
cis m
star ter
sys tems
Coun ter
Ven us
PD T
ìĿ ĺ
DDR 3
Mag gie
Mini x
Mai l
à¹ ī
Frank lin
Jour ney
C6 H5
Tre o
cti ce
Pet ro
Deep Mind
WO W
Hami lton
Theo dore
Lun a
Miche lle
cep tion
bla ck
Ita lian
Mode ls
Ash ley
âĻ ¯
Robin son
Sel f
Feli x
artic les
Sul tan
laun ched
ave x
again st
gir l
serva tion
Kw K
CONC ACAF
Caro line
CR400 AF
crip tion
Ini tiative
ear ly
BAS IC
cepha lus
Elect ric
BAC net
Rab bit
Arn old
Plat form
Ox ford
Gusta v
Nf 6
OE CD
ALX 500
FIL M
Alco hol
Chey Tac
0 39
0 66
0 77
1 G
2 2000
7 400
9 100
9 500
A ka
A st
A AC
A DS
C lin
C 16
C ID
C ET
E ffe
F m
F el
F AM
F AC
F AI
F RS
G Y
G 20
G AS
H IT
H SPA
I UP
I bra
I gna
J W
J Script
K U
L at
M J
M N
M AR
M IPS
N ou
N as
O V
O mar
O UT
P ang
P TC
P ris
P DS
P las
P harma
R 7
S 5
S ke
S DO
T RI
T BF
T rain
U DP
V u
V MS
V ali
W hen
X 100
Y un
Y au
Z 99
a z
a chie
b h
d 2
e ffi
i k
i ma
i den
i Pod
j ang
n h
o logy
s 1
s ke
w d
Ã ģ
Î Ĵ
× ¨
× ľ
Ù ģ
Ù ĥ
á ¿
ã Ĩ
ê ²
ì ľ
an or
ai rs
shi n
ou l
en er
ch r
li i
li co
li day
di sh
er se
si ne
si zer
qu ad
ri da
gu re
du lt
ya sa
la ri
ma li
ba cter
che z
men ta
su c
na tiona
10 23
10 36
10 33
18 000
ka y
12 98
11 17
11 34
11 32
11 49
11 72
po ld
re ference
wa gon
ha ck
or ang
or nis
or bital
16 000
16 GB
17 000
14 37
13 34
sen d
in put
me thod
ro cket
st ria
cu lty
ãĥ Ľ
co tt
the se
ter m
th in
to o
to day
ga de
Ma z
Ma thema
TC HA
ST AGE
The ory
The lma
Re tro
Re sort
Re sources
br ing
Li ly
Li dl
ws on
78 X
NA D
NA L
Wi dget
ï½ ľ
La mi
La za
CO MP
Jo shua
Ga ze
Ja ke
Ja zz
Di ctionary
um ph
Mar shall
AC C
Be ck
Bo ss
St ro
so nal
IP B
Mu le
110 4
PS R
Con sole
Ch ri
Ka la
MS I
EP R
Car di
Car lo
Bu ck
MP 5
oft en
den ts
Ex po
Chi ca
SO HO
cy cle
Fe ars
ja y
op tera
Hu ng
MC B
Bar on
Bar bara
NO AH
Stu dy
SP E
DO WN
Mon key
Pre sen
Pre sident
sto ma
Sha un
Sha dow
ten ts
tin ue
BE J48
Ber ry
UR A
Super nova
Th in
Ban dar
ac cu
GO T7
Sto ck
âħ £
NS F
Spe ak
im g
Air port
kin son
229 E
DM M
Val ue
GA BA
Chu ng
spe cies
Lan tis
Spi r
Spo on
LT D
nvi lle
Tur ner
KK TV
Tan k
Cri tic
AE G
KI Z
Part ner
Ada ms
Code Camp
Regi ster
UM TS
Jen nie
Die go
value s
Tre at
dea th
Cry stal
CAN open
KE Y
ìķ ¼
Multi Cam
Sui ca
add r
add ress
yl ent
Pon t
Wel come
Jer ry
Sor t
Tran si
oni cal
Apo gee
free CodeCamp
Swi ft
ELE VEN
mode ls
âģ µ
VIS UAL
scien ce
FIR ST
B7 RLE
dele te
conne ct
Basi lica
hibi tion
Lud wig
Patri cia
paren tid
methy l
Hoy ts
Abra ham
gori th
LUNA R
techno logy
RECO RDS
Clostri dium
Migue l
Giuse ppe
0 11
0 14
0 25
0 28
0 26
0 84
0 82
1 197
5 D
6 200
A a
A pex
B J
B ren
B EC
C p
C RE
C SL
D Y
D SS
D iana
E o
E t
E AS
F SB
G Q
G rou
G ur
G ard
G ree
G row
H G
H V
H es
I ES
J E
J IN
K hu
K ine
L ao
M AT
N X
N oo
P iano
R W
S IV
S CN
S HR
T Z
T g
T ei
T um
T YPE
U ART
U senet
W is
W EC
W CT
W WF
X R
X 200
Y C
Z 17
a 1
a res
d den
d dy
e ver
f 1
f z
g ri
i st
j er
k la
l n
m ble
m Ah
o 3
p c
p x
r m
s per
s pha
t ei
v 1
w l
Ä ħ
Å Ļ
Ñ Ħ
Ñ ĳ
ë ¬
ì Ľ
en te
ch ol
eng e
bu bble
si mi
bi c
bi lis
fa ll
ti ma
ta t
ta to
ju st
ci pa
gu ar
du al
mu l
mu ch
ya h
lai s
bo rough
che ck
lan e
lan i
na tion
10 31
10 73
10 71
10 91
12 22
12 45
11 13
11 48
11 61
11 71
re an
re us
re stri
re search
sa me
sa ra
on line
13 66
for med
pa d
pa per
ar ti
ar ts
me x
ï¼ ĵ
lve s
60 61
100 5
co mo
fo lia
do c
do cu
Co lt
33 A
In nova
The ra
Mi ka
Li u
Ro le
ho c
66 00
SA D
88 00
NA DP
der ma
Mo hammad
CO 3
gi ven
Jo Jo
Pro tection
89 4
Di r
Fi lip
Si gn
Si erra
Ra d
Ra ma
Ra ce
Ra chel
600 V
120 3
120 km
Be gin
Al fa
Al le
Ba u
Ba ba
Po well
Lo ver
ER M
Bo s
ID C
ID F
son s
Sa me
St rai
Hi m
Hi de
Hi ka
Do me
mer a
Ri de
Ha ven
Com bina
Su la
SS L
130 2
Pi etro
Gi ll
ko b
Ta q
Ka bu
à¸ Ľ
ph ra
Bu dd
we en
cro wn
Pe w
cou rt
sis tance
For mat
lor y
rea ming
UN O
CH ILD
TO G
AG 600
Sch wei
Pri de
118 3
Cor p
à¤ µ
Ser ge
uni t
DO I
Pu t
ler c
Sha re
Sha rp
PP T
SC AR
SC AP
As sistant
Is la
Can al
don na
Star ship
War ren
Blo g
her ty
Ve vo
Ve hicle
thi c
Jan et
Ye ars
Br yan
Cho rus
tho rity
Cam pus
Cam paign
Spi ke
Jose f
Tor rent
Jean s
Sky pe
war m
Gui n
PH A
Trans port
USB 4
tto m
Data base
mor row
AE W
tre me
Les lie
Rei ch
Bou levard
app ro
Nico las
cur rent
Fre sh
ENT ER
Fro st
Anto ine
Mur ray
Mur phy
wiki text
nico nico
HER E
Sca le
Cos mo
Ant on
Ita lia
Ea gle
á¸ ¥
Cru z
crea te
Dead line
TRA IN
vir tual
Echo Link
CYP 3A4
syn tax
xc 3
Fol low
Titan ic
Brun o
Alber to
muse um
Defen se
ëĤ ĺ
Avi ation
Quali fying
Aff airs
fal se
Legen d
fron t
à¯ į
Asse mbly
Clai re
WRK Y
Obser vatory
cous tic
ack nowledge
Sulli van
Ferdinan d
Ticket master
s1 mple
Chica go
0 22
0 36
0 37
0 34
0 49
0 42
0 98
0 85
0 97
2 P
7 A
9 M
A sa
A 24
A way
A lter
A bel
B eng
B low
C res
D Q
D ry
D KP
E st
E qui
E GO
F as
F ET
F UN
F TA
F os
F RI
G TO
H AR
H orn
J as
J VC
K H
K ID
K HL
L TS
L 129
M ing
M HC
M 686
N ut
P J
P hu
P AG
Q 4
Q TE
R ISC
S 10
T 6
T hu
T ION
U ser
V 3
V K
V au
X in
Z IS
Z oom
c amp
d ney
e 5
e c
e pi
e th
e mp
e cono
f 2
h ood
i us
i nvest
o ke
p po
p ton
r 2
s n
u f
v ul
w c
¹ ¬
Â ¬
Ä ĳ
× Ł
à ª
ë Į
ì £
í ĥ
an e
an ce
de lle
de fault
en tion
ch th
ãĢ ħ
wei ght
di l
di al
di tional
bu ty
da u
fu sion
chu ng
zi a
ti vo
mi k
mi le
mi se
mi llion
20 38
ri ya
shou ld
19 S
nan ce
lai ne
min us
pi t
ni t
te ur
la ch
che lys
men s
tu la
chi a
10 A
10 28
10 89
se g
se ason
tan ding
12 23
12 31
11 76
11 74
po le
po se
re gi
re lation
wa ra
ha bi
13 21
hei mer
pa rk
ar ound
nu cle
ro d
ro l
sou nd
co ck
fo glio
to re
ga t
pen ame
IN LW
do main
Co lin
ca matan
ST AF
64 DD
Re x
oo ting
Mi llion
at ro
Li ver
Li cense
ct ly
ry so
Me h
Pa blo
fi na
BC G
Le arning
AM L
AR TS
Te en
Te mp
Te xt
Si lv
Si mple
Si rius
Ra j
Be d
Ca sh
va ri
Ar che
AP ER
cen a
cen e
Ba b
Ba p
Lo bo
Bi shop
Sa ga
âĶ ģ
com pani
so li
Do ck
AN GE
Su p
Ni tro
Cha se
We verse
110 5
No tes
130 1
130 3
Gi ba
ed ge
PC A
lle t
Ge off
Ta man
à¸ ¸
à¸ ĩ
âĨ ĳ
MP 7
US D
En sign
AK S
gn er
UN IQ
AV O
MI ME
SO D
LE I
ree ment
cy c
CR 200
Fe 2
Ru bber
Open street
Sho ck
Ko h
Har per
NO T
Ju ng
RT X
EX R
Pu b
HE LL
LO W
Tri nity
Tri umph
PP I
por tation
Nor ton
ring ton
cer e
Vo ya
tra x
PO VM
tis m
Sto ries
Show time
cle f
Fu ji
AB CD
zo g
Ani plex
PL G
Boo ks
clo sed
Hol y
GA Z
Black bear
gar h
GM RES
ð« Ľ
spe ct
Cam po
Rock y
Eli sa
fra g
BU M
Bel la
KI LL
ele ment
MT U
Pal m
Ob jective
Gro ss
Out look
SHO OT
teri um
Poli cy
Way ne
DL U
Joy ce
Nan o
Wan t
Beat les
ag gregate
size of
Crea te
cio nal
wiki pedia
Metro politan
Ima gina
cul tural
Fron tier
After noon
ITV 4
count ry
pl c
Hero es
high light
constru ctor
Stri ke
Bit Torrent
Wit hout
Match day
Deuts ch
NAT O
ð° ¹¬
Leona rdo
Ted dy
Mul lvad
Fea ture
Sna p
Wha ts
quar ter
proper ties
Muni cipal
Philo so
Uk rai
hyn chus
Rive lla
Arm strong
Synthe sizer
Integra ted
Lec lerc
Gabri el
SEVEN TEEN
Deri ved
Essen tial
DONG KIZ
Isra el
numeri c
cedu re
Ibra him
Lami go
SHR DLU
syntax highlight
Openstreet map
0 19
0 44
0 59
0 92
8 A
A zi
A ya
A ctor
A qua
A cid
B ong
B ring
C MP
D W
E xi
E CO
E sta
F rea
F rie
G 5
G J
G Pa
G las
G CM
G DB
H us
H AP
H our
H APP
I ETF
K R
K wan
K ryo
L J
M Pa
M CO
M IP
N W
O B
O FF
P SA
P H2
P FA
Q 2
R H
R 16
R NG
R AF
S 9
S ka
S ad
S car
S kin
T K
T at
U t
U TA
U FS
W 3
a x
a cu
c 1
d 1
d h
e xi
e qu
e How
f luo
f ro
f lor
f ps
f esti
g 2
g r
g hi
i u
i dea
j ara
l ers
o tt
s qu
v n
x ton
y x
É £
× ĳ
ë ¡
ë ¯
ì ²
an noun
de e
de re
shi ft
ch or
li zation
un o
di g
di r
di lla
bu l
er ry
si na
ge on
zi l
fa re
ti ali
ta ke
20 33
le en
gu l
du ce
ya t
ru le
ni te
ni on
ni fer
la b
la pa
la tt
ma cro
san t
mo ra
mo to
ku r
pu k
pu ra
10 48
10 58
10 77
10 98
10 84
se p
ce lo
12 33
man u
man ia
11 12
11 46
11 64
11 67
11 56
ha vi
sa le
14 000
14 36
14 73
13 22
13 39
13 79
13 53
for k
pa rd
pa tter
me e
st ei
ra th
100 m
co st
the ore
lo on
lo ss
to lo
Ma li
Ma ma
IN V
Co co
Co ast
Co py
ca pa
ca ster
be y
ST UD
The se
vi ta
vi vo
SE GA
Re c
hi story
Mi G
at s
42 V
ty pename
ho t
57 00
SA C
wi sh
Me chani
Pa pa
De O
Win Zip
Sta t
98 60
no de
La y
La te
La dies
BA E
CO B
gi um
gi ving
Jo lin
Jo ker
Te ach
Fi ghter
Si ght
1000 00
nal s
Mar sh
Mar ti
Ra fa
Se xy
AC A
Be ver
Ca f
Ar men
Ar gen
Al lan
To dd
IC LEI
sta ck
Sa fety
com plete
Ho mo
Ho lo
ON T
so lution
mer ce
Ha p
Com bat
Ti dal
We ber
SS RI
ster i
Con tro
lla rd
lla ble
Ta wan
Ka li
IV PP
EN S
AL BUM
BL G
Car r
RO Cm
cou r
AK A
RE APER
âĪ ĩ
My ki
CH A
my r
SO I
wit hout
AD P
GB U
Lu cy
Pri son
BM C
op sis
San to
San thal
net work
Cor ps
Bar nes
à¤ ª
à¤ ¸
Ju les
SP EC
Mon u
with in
sto m
tem po
Tri no
Tri logy
EE G
Che mistry
Ber n
Ber lin
127 47
cer a
CL R
Bro w
ex p
ex peri
dis play
Fu sion
AB B
War s
Por ter
PV C
FM EDA
UC IL
Gran de
High way
At las
Wal lace
Sh ort
KBS 2
EM BA
Jack ie
spe cific
Time Signature
Py Qt
Spi der
Cent ro
VO D
Sco tland
SU GO
Ama zing
Tour nament
Rou te
WS BL
Fle x
Vir tua
Hea th
KK day
MU K
Tan foglio
áĢ º
Lon Works
Bui lder
Flo rence
à¹ Į
zz le
Regi ment
Cur tis
Die Pie
Block berry
rei s
Os car
Real ly
print f
Run away
áĥ Ĳ
CAS P
Ah med
Wiki pedia
KE LT
ace ae
Ath le
Wire less
WO WOW
Market Axe
include d
Round s
Sti ll
âĤ Ĥ
Camp bell
Sor ry
ext ra
Kit ty
presen tation
Standard s
Bir th
Swi ss
Maker Ville
Hand s
Gon za
Stru cture
IMD B
052 D
Morning star
Industri al
own Cloud
bui lding
medi cal
Adven tures
Coo kie
Philli p
Mana ger
ð° ¾
CR400 BF
Wri ter
diffe rent
âŁ ¨
âŁ ©
ê¸ °
ëĭ ¤
Matter s
Mine craft
ash tanga
Mess enger
PART Y
solu te
ð«ļ ª
Kick starter
JUST HIS
Toyo ta
Biz Talk
Howe ver
Gior gio
Kura ki
analy sis
Yau tja
Hika ru
Pew DiePie
ëĮ Ģ
numeric TimeSignature
Virtua Real
MarketAxe ss
0 27
0 31
1 196
1 193
1 187
1 UP
2 G
2 H
7 200
8 300
9 200
A o
A lu
A te
A 10
A ber
A round
A QU
B rou
B ent
B MI
B ump
B lind
B c4
C 20
C lan
C 79
C SM
C era
D ARK
E AC
E MC
F ing
F EC
F ara
F TP
G AR
G ara
G AME
H ui
I d
I ra
J ou
J ing
K ao
K yi
K 12
K orn
L Y
M 20
M 14
M EN
N TV
N VS
O ro
O BS
O LE
O VER
P z
P ON
P 450
Q 1
R AIL
S w
S of
S eri
S DP
S par
T AP
T rea
U BA
V el
W IN
W MI
W CF
W ADA
X II
X HTML
Y ing
Y er
Z 1
Z 48
Z K6
a 8
a ka
a ble
c d
d 5
d ue
e 4
e lo
f MRI
g l
g gle
g old
h m
h ya
h Pa
i mp
k he
k is
k ine
m mol
n c
n dez
o sa
p our
p las
r ma
s pin
s wa
t l
t mp
u la
u sa
v us
x s
Ã ¬
Ä Ĳ
Ä Ļ
Æ °
É ĳ
Ê °
Î ®
Î ĳ
× ª
Ø µ
Ù ī
ì ĥ
ì Ī
ð ©
sh ei
de st
ch ts
ch os
un til
di sease
bu m
bu la
da tion
si us
fa c
ti k
mi i
mi er
qu er
20 48
ri se
le k
ci us
ci lia
ci lis
ya s
ru k
min ton
pi l
ni sh
bo re
bo ve
sai c
san d
mo du
na ya
ku l
10 13
10 39
10 68
10 53
10 83
tou ch
sha w
tan dings
ka sa
12 V
12 88
11 36
11 69
re gion
wa t
ha b
13 16
13 26
13 31
for ms
pa thy
24 K
in sta
me da
rou te
co o
lo e
lo op
of fer
th s
to m
ga ma
Ma ck
Ma ss
Ma donna
ST E
In clude
In finity
SE S
Re e
br ai
Mi k
Mi z
Mi na
Li l
Ro che
Ro ll
Ro gue
Ro gers
ho ld
Me la
Pa c
De c
De le
CD RI
ber ger
OS CAR
no tes
BA R
CO LO
AM PV
BS AT
Ga b
Te ars
con e
con s
con tent
con tinue
Ne XT
Ne xon
Ca ke
Ca mi
Ar row
Al li
Ba uer
Sa ve
MA O
nen tal
So C
So lu
com mon
Do c
Ri cky
Ha waii
Com plete
Ti mothy
HD MI
Cha pter
SS H
AS IA
DV B
SM E
SM P
Ta p
Ka th
IV A
à¸ ļ
Bu gs
we ek
AI BA
Pe tit
US GS
En cyclo
Go vern
My stery
CN S
CN ET
Au d
Ex cel
end l
Man i
Ci vil
ton s
IA ST
au f
TE A
Fe eling
ja va
ner f
DR M
cor d
Cor ner
Har mo
fli ghts
Ju ly
RT M
SP O
DO M
ation s
GP 2
LO V
tin y
BE A
PP A
Che ss
gue z
CL UB
Or che
ham med
Th ings
tch er
Tra vel
GO OD
GN Z48
CS X
AB P
PL AY
Ve ctor
sau lt
Ya ma
SQ U
Chris tine
Up per
At hen
pla sh
EF 52
Cho Co
Fri tz
Ter ra
stitu tion
publi shed
Tele com
Green e
Lau rent
BU G
PD W
Cri me
stan t
âī ¡
Network s
á¹ ĥ
COM IC
âĳ ¢
Regi na
ena ble
VV V
Cas ti
Im perial
PT FE
Beat s
Der ek
fla g
Fro g
plan e
Son s
FIN A
Stra te
Mas sa
Pas sion
SON Y
indu stri
1080 p
Arti st
Ea stern
Jes sica
Stor age
pres sion
Ky le
Albu ms
CIT Y
CIT ES
Bei ng
Nam co
xc b
Bug Bug
CRH5 A
MED LINE
gener al
Kir ara
Organi zation
Brook s
CONC ERT
varia ble
GIR LS
edu cation
aes pa
ìŀ Ĳ
geo metry
Chee ms
Elli ott
CR300 AF
E9 E9
thera py
plot lib
Proper ty
recei ved
Gall ery
Phen om
Belie ve
Spiri ts
kir che
Leader ship
Libre boot
inclu ding
Schmi dt
Develo per
Shir ley
SUMM ER
bac terium
Vladi mir
COUNT DOWN
Ulti mate
ìĬ ¤
symbo l
ENG INE
MCB MSP
Guin ness
ì£ ¼
ð«Ľ ļ
Whats App
HAPP Y
announ ced
Kyi v
NVS RAM
0 75
0 57
0 51
0 74
1 da
2 M
2 250
2 GB
4 S
6 300
8 600
A ta
A mo
A va
A very
B es
C TC
C RO
C lar
D 32
D AC
D IC
E k
E un
E 130
E PS
E vo
F BC
F ul
F VP
G ing
G es
G ly
G ent
H AL
H MC
H ALL
I WI
J AS
K ru
K re
K rish
K fz
L CS
M 50
M AM
M RS
N Z
N ai
N DS
N SC
N ero
O 5
O d
O la
O UR
P 3
P 6
P Z
P ei
P ing
P TS
P lease
P TCH
Q a
R and
S n
S is
S PS
T J
T ON
T sing
T ASC
T etra
U Z
U m
U SM
V on
V AD
X SD
Z ei
Z hang
Z ARD
a q
a ga
a ss
a ct
a ward
b ly
e X
f ine
g ren
g lu
g ine
i Heart
k J
k ho
n ter
o w
o vi
p ler
p her
p seudo
r r
w hy
w rite
x d4
y y
y en
Ã ĩ
Ã ľ
Î ł
Ð ¤
Ð Ĺ
Ñ Ĭ
Ñ į
× Ķ
à ¶
ë ĵ
ì Ļ
í Ļ
sh ort
li ttle
di ni
he e
he ld
ge dit
ti te
mi en
ta rio
20 46
ming ton
le o
le tter
ye v
lu b
ya va
min d
min ary
bo lt
la go
ma trix
sai d
shan ensis
tu p
lan ce
lan der
mo v
mo bile
na te
na tive
ze u
lv o
10 W
10 45
cha mpion
se ctor
18 F
ka waii
12 89
12 96
12 81
que st
11 51
po mo
re lease
ha ll
sa e
sa ka
13 54
bin s
pa ge
pa ten
in s
22 22
ar g
ar gu
me la
st rai
st ler
ra e
ra le
lt ers
ãĥ ¦
co ding
the a
lo se
lo go
to on
to ken
ve st
ve hicle
Ma thi
Ma terial
IN ET
IN AH
do es
do deca
Co on
be lie
be ck
In to
In side
64 BM
The ater
vi i
Re y
Re ason
Re lease
hi de
Mi les
Li m
ry n
der son
BC I
Mo vi
Mo ther
Mo vement
Mo saic
53 K
Le v
Di vi
con ds
con dition
Ra z
Ra pid
Ra hman
ki ll
ki es
Se ction
Be a
Ar kane
cen s
Ba c
IC EF
sta d
sta tis
sta dt
Bo m
Bo eing
Fa y
Fa culty
Na u
Na ta
Na val
So m
com b
com mit
so de
mer o
Ki ha
Ki Ro
Ha ri
Com p
Com merce
Su mo
Mu ch
Ni na
Ni gel
Cha mp
IT ER
No de
by te
An s
SM N
gra phi
gra cilis
ko k
ko va
Con tra
Con servation
Ka ppa
à¸ ķ
BL O
BL ITZ
MP A
AI K
Pe te
Go tt
CP AP
UN ICEF
My Video
Au dition
Ex cell
Ex hibition
AV N
my ces
Man da
CC C
LE E
LE O
BO YS
wit z
IG M
cy to
je ction
IA NA
BM NH
New Jeans
Hu t
Hu gh
Hu dson
Open NIC
à¤ ¯
LL M
rai l
sti ll
uni on
Tri bun
Ad di
NH 3
PP Po
por ting
por ter
Che ck
Ph ra
Vo LTE
CL C
Can onical
Bri stol
SH ISH
ãĦ ¨
All Music
HC l
Th ing
Mor a
Tra cker
dis c
VA X
DD K
KP L
win dow
xy gen
AB BA
Spe ct
Spe cies
War ner
Pan a
Web b
ration s
kin d
SK T
SK Y
Shi ning
Shi ft
Peter s
pla ced
Sy lv
FO MA
phy sical
par te
par ty
sor tium
UT 1
Cam bridge
Cam eron
Recor d
Fun ction
Alex a
LT M
NE O
play er
Van i
Richard son
tar ian
Ran dom
jo y
Trans form
ìĿ ¸
ðĲ İ
Ear ly
Em per
CV T
à¥ Ģ
HTML 5
Gam bas
Edward s
Des tiny
var man
Kin Ki
Pho eni
Wat son
app le
tas tic
fri end
Ara b
DL SS
Nan cy
DMS O
Oli via
Queen dom
ani ma
Dark ness
stu dy
PB PK
Leo pold
Hon oura
Secu re
0x 5
media te
EG FR
Bad minton
ext en
Jor ge
cula ria
Inv esti
Econo mics
Abdu llah
Schi ff
Wolf gang
Cathe rine
Gian t
Ster n
MIC H
gir ls
Sig nal
Season s
Kiii Kiii
Experi ence
FRE E
Quake 3
LMP 1
Fernan do
Pao lo
Feed ly
fas cia
Veri zon
B8 L
à§ į
remo ve
Pitch fork
requi red
Thom son
Danger ous
sr c
ð¨ ¥
Labora tory
Cele bri
advan ced
Ast rono
IUP AC
Gard ner
Kabu paten
STUD IO
SUGO CA
Solu tions
SHISH AMO
Honoura ble
0 64
0 63
0 89
0 72
1 s
2 187
3 B
3 E
4 th
6 LX
A ru
A nan
A id
A dult
B rai
C 11
C IS
C TO
D LE
D IG
D 3D
D oro
E h
E ra
E AN
E SET
F IS
F SS
G X
G one
H 7
H TV
H off
I 2
I MP
I vy
K Y
K AT
L n
L IT
L TR
L INK
M 18
M int
M NH
N un
N in
N is
N BL
N ine
O X
O hi
O IC
P IN
P ry
P UA
P tero
P USH
Q 6
Q AM
R ui
R ST
R AR
S J
S oo
S MA
S IP
S BD
T c
T hou
T su
T ry
T GM
V AN
W BC
X V
Z 4
a ti
a ster
a land
b be
c ss
d well
e Bay
e Mule
f 3
g han
g ha
h len
i da
i le
i te
k k
k l
k ker
k now
m per
n ya
p lu
r 4
s q
t RNA
v ara
w x
x 64
z ers
Å ĵ
Ê Ĥ
Ì į
Ñ İ
à ·
à º
â ¾
ë ©
ë Ĭ
de ter
de us
de velo
shi ne
eng ine
li te
you t
he llo
si en
si li
si st
chu rch
ta ta
ta te
ri ni
ri as
ri dge
ci ali
ci ple
ci dent
gu r
gu ng
lu me
dan a
du ng
tai r
tai ned
bo o
la l
la zy
su me
mo di
na p
pu ri
10 29
10 38
10 64
10 41
10 52
10 74
10 92
se seo
sha m
sha pe
11 Z
11 65
11 44
bie s
re k
re li
re cur
re cogni
wa gen
sa tellite
13 18
13 11
bin d
rui t
ar c
ï¼ £
ï¼ ¯
ï¼ ĸ
ne e
ro i
st op
st rom
al lo
al low
100 km
co ming
fo od
ãģ ¼
the rine
to v
ve t
ga ard
37 50
Ma e
Ma da
Ma sa
Ma cross
do t
ck o
ST O
64 GB
vi sor
et c
Mi ya
pe u
Li s
Ro me
Ro land
59 A
wi i
Me xi
Vi c
Vi ce
De pu
fi ve
77 00
Win Win
per sky
Wi z
Mo ri
no te
La bel
BA D
BA ND
CO R
Le cture
AM N
AR IN
Ja kob
Di ver
con ti
con du
Si ren
Mar ve
Ra u
Se at
Ca pri
Ca sio
Ar go
Al 2
To ys
Ba g
Ba ha
sta y
Bo a
Fa me
Fa bri
Sa w
Sa man
So ck
So bol
com m
Do herty
Ki d
Ha ru
Com peti
Su pre
Su made
Ti l
Ni chol
pp ly
go w
PC B
SM S
ko vi
Ge se
Ta les
He at
Ka za
ET A
EC S
MS N
Car s
MP LS
pro blem
Ste el
RE FL
Wa di
Wa les
For mosa
rea ch
Ex ping
CH 4
TA IN
Man o
Ci der
BO Y
AD D
AD L
Lu c
ES B
Ru do
res sion
118 6
Hu go
Open Critic
ATP 500
ATP 250
pri mary
Per e
Ko m
Ko ch
Ko ha
à¤ Ĺ
line ar
tri ple
od or
CE SS
Davi chi
Sha w
tem por
ten s
Ad mi
NH 4
NH MUK
PP D
SC SI
Che er
pre di
gue s
cer ato
Vo i
128 GB
Bro ther
Gra f
Bri tain
bli o
Or ni
PO W
stra te
Th reads
tis te
Tra m
Qu al
Fo ster
Fo cus
RC 5
mber g
win ter
Ce vio
IR AL
Por tu
MG H
ero y
Ben z
MB T
Don ut
Air lines
TP U
Hy de
King s
Produ ct
Sy dney
Wal king
Pat tab
Tech nical
Fri day
Gar cia
Ter esa
if config
Sco pe
space craft
SF 2
B2 B
Fer ra
BR B
ste ad
lea gue
Rou ter
CT U
Good bye
GT K
PR ISM
Tor re
Tur n
PA SS
VR DK
sign s
kh of
gna thus
MU D
áĢ ¯
stan dard
sur face
cil lus
á¹ ĩ
JT B
sig nal
SHO CK
âĭ ħ
Over ture
Clo se
Hal f
Wat cha
Cle ve
hr er
fri ed
char ge
Tro y
even tual
CB T
IB NS
cast le
Sin ce
Hun t
Communi cation
Base ball
Town ship
Post Script
Dyna mic
ini tial
stre l
Jer sey
Than k
Seven teen
template styles
Bet ter
poly mer
tera ture
bour ne
produ ction
Electro nics
Shu ttle
defea ting
Eri k
Hein z
Res pon
ìĦ ±
beca me
âĬ Ĩ
cap su
Nove mber
oc cur
XY Z
Lyn n
Pel key
Regu lar
Maj lis
Ay yava
Ris ing
quen cy
Pear son
Dino sa
Sele ction
ITZ Y
Kas persky
Rebe cca
Cher ry
xml ns
Certifi ed
Ore o
êµ Ń
Colum bia
effe ct
componen t
Pul se
formo sana
Trou ble
Enri que
japo nica
Administra tion
YON EX
Zim mer
Lili th
Add ress
Reser ve
ï» ¿
sequ ence
Confi guration
Amen d
compani es
CR200 J
SHOOT ER
flor a
squ are
SPEC IAL
Alli son
Orche stra
Clar ke
Coon ley
Pattab hi
Ayyava zhi
0 68
0 71
1 C
4 100
7 300
8 400
A gu
A can
A man
A in
A za
A ver
A les
A muse
B PM
B rew
C un
C hong
C 17
C 24
C SA
D 8
D ian
D TC
D AN
D BE
D rum
E H
E mo
E in
E mp
E WS
F NA
F AR
F rei
G 41
G lory
H f
H r
H IP
H SS
I LL
I dea
I terator
J ED
K t
K ST
K AN
K 101
K laus
L 3
L AC
L ys
L ens
M Q
M t
M and
M AP
M ER
M SM
M 1917
M TA
N c3
O 6
O a
O m
O mo
O il
P oo
P ers
R J
R 11
R um
R EC
R ous
S kou
S amp
S cri
S WE
T ian
T ren
T 3A
T LS
T heir
T UNES
U i
U tri
V 60
V IA
W ASP
X 3
Y Y
Y ar
Z 3
Z F
Z eni
a sa
b 8
b t
d ora
e 1
e long
f l
f fen
f fan
f one
g by
g ham
i v
i KON
k N
k b
k ka
o ria
r ho
t hou
t xt
v 3
y r
y le
Â ¹
Â º
Å ½
Ð ¦
Õ µ
an other
sh ot
shi ma
li ft
li bre
ren ces
da mo
da city
hu rst
si w
si ni
si tion
bi r
ti sta
ti enne
mi RNA
ta ct
ta tional
qu ality
20 36
ri no
ri cum
she s
mu ra
zu m
zu r
ban a
ling s
min ate
pi lot
bo ne
te e
te ls
te lla
la x
ma ta
ma chi
ma ss
ma cula
ba um
lei ne
mo on
mo ne
chi s
sui t
10 26
10 th
10 79
10 82
can t
ce y
gan o
12 69
que z
11 59
11 63
po d
re mai
14 63
13 42
for a
for ming
pa ti
mou n
ï¼ ĺ
ro p
ra cy
die d
lt en
co py
co lum
fo lk
ãģ ľ
lo way
ter y
th reads
Ma di
Ma ssi
Ma dri
Ma trix
do g
ca ted
ck le
be gan
be tter
In t
In surance
The r
vi dence
Re f
Re l
Re ality
br y
67 00
300 1
at tribu
AT V
pe z
ty pes
ho lo
wi re
Me et
NA VER
De ck
De vi
gh ty
fi r
OS D
OS PF
Wi tch
Mo ment
Mo nica
Mo lina
Mo tif
Mo hammed
53 E
gi ft
Jo a
Le ary
Ja guar
Di men
Fi gure
Si sters
Mar tha
Ra g
Se 2
Se y
IS N
ur on
ED ITION
To morrow
Ba sin
Lo we
Bo ston
Fa u
Fa st
Fa vo
Sa fe
Sa lva
Na tura
fe el
Do es
Do meni
Ki ller
Ha sh
AN T
Mu sa
Cha p
No vo
130 6
Pi l
Gi aco
mes sage
An nie
SM ART
gra tion
Con tents
Con sortium
lla ume
Lin da
Ka kita
à¸ «
ph on
Bu kit
Wor ds
Pe er
Ste lla
UN IVER
FC S
âĦ ¢
Au thority
Au dacity
MO RE
MO VE
MI M
SO V
SO UND
LE SS
Sch latt
ron d
au ri
TE U
Lu x
Fe ar
ja h
118 2
DA HL
Open CL
Open Solaris
HO Y
ATP 1000
Ke camatan
Ke pler
net te
à¤ ķ
EX E
ML S
Je ep
DO ME
Mon ta
Ed gar
Ed mund
Sha ron
ser ver
Du tch
Mac Book
Che l
As sault
Willi s
Ber khof
Vo lun
Game Spy
Game Rankings
Can yon
Gra de
Gra vity
Mc Ken
All Star
WTA 250
HC V
ac ti
Ang ular
AF S
AF T
Va ria
Ce sa
Eng el
Hen derson
MG 34
phi a
car go
TP MT
Min or
sp he
cre te
Hy po
Ele anor
Jan us
RA ID
CA SE
256 GB
M2 A4
HI RO
GM T
ð« Ħ
ð« ĵ
Lan cer
dra co
Sing les
Bur ger
Bur ns
Ger ard
Offi cer
PR IN
218 6
Zi on
XP COM
Pra da
VM ware
Men tal
Cri minal
sub ject
bor g
Fra ser
GR AIL
CV S
Ado lf
Den is
Poly gon
Cap con
Jen kins
Kin der
Cur ry
Cur rie
Bor land
Rei d
Ei ght
Cli mate
Nico le
trans port
TW h
Gal li
Poli tical
Ly co
fea turing
Cir cuit
Ami r
Memo ries
Set ting
Dun can
coun ts
dina ry
WOR D
Distri bution
fini tion
ðĲŃ ł
rina e
Hon or
855 12
Mont ju
Cos mic
PCI e
RB W
Tas k
Some where
Test B
Phy sics
bour g
Neu ro
Dal las
List en
Liber ty
Liber ation
Jes se
Bird s
Kur t
RSA SS
CAP COM
Mes sage
Histo rical
Appli cations
Socket FD
Afri ca
âĬ Ĺ
Isa ac
bran d
Sid ney
hel p
Number s
ê¸ Ģ
Sim mons
ìĺ ¤
gge d
mea sure
MOMO LAND
Deli cious
Comman der
sens chaft
Loren zo
ìĸ ´
siden tial
Fis cher
Dura tec
Phili ps
Warri ors
Moha med
Radi cal
HOL BORN
SING LE
coordina tes
Chara cter
asso cia
MID I
Vik tor
Spoon z
TOG AF
ENTER TAIN
buty ricum
ARTS VISION
Bap tiste
Voya ge
Elisa beth
ë¡ ľ
theore m
swa p
Aud rey
Gent le
PPPo E
Emper or
Depu ty
REFL ECTION
Utri cularia
Giaco mo
DAHL IA
ENTERTAIN MENT
0 38
0 95
0 641
1 188
2 185
2 H2O
4 GB
7 R
A 27
A be
A SA
A ko
A BL
A WS
A DSL
A tara
B MA
B TO
B TS
B hd
C d
C and
C TV
C ly
C EN
D BC
D roid
D NF
E W
E y
E ne
E 40
E thi
F PGA
G b
G el
G MP
G bit
H 14
H of
H mm
H end
H eri
H old
H MG
H ONG
I u
I MS
I tem
J ong
J ero
J ECT
K 5
K 7
K 8
K 15
K nu
K ro
K ry
K AI
K BE
K rist
K 232
K 308
K ISS
L LE
L unch
M one
M 1911
M CP
M ISL
N gu
N vi
N II
O RO
O CP
P v
P ren
P 15
P ME
P lea
P har
P ABP
R L
R IF
R PM
S eng
S hei
S ven
S IX
S late
S ATA
S lot
T hen
T MS
U ti
V J
V y
W 52
W AP
W ein
W endy
W ITH
Y R
Y ao
Y um
Y LE
Z r
a de
a lter
a cade
b hu
c lay
c ers
f th
h la
i p
i mm
i tation
o x
p hus
r hyth
s 2
u ss
v ain
Ã ĺ
Ã ŀ
Å ©
Æ Ĵ
Ê »
Î Ł
Ð §
Ö Ģ
à ¾
â ķ
ì °
ð ¥
de ci
de fen
de nd
de mon
de velop
de uts
ei ght
ch on
ren s
di i
di on
bu ll
er r
da ri
hu t
fu lly
bi ll
fa t
ti cus
mi o
le c
le ad
le cular
ci lio
chang ed
du a
du la
mu t
ya rd
min ster
pi na
pi ter
pi do
pi pe
ni x
ben ch
la rd
ma m
ma da
ma gazine
ba g
ba y
ba ba
san dro
che e
mo ni
na ti
na ta
na gar
na uts
lin ing
chi nensis
pai d
pu sh
10 43
10 81
se quen
se veral
se damo
ce ster
ce lls
man o
man agement
11 53
po la
po logy
re p
re si
ha y
ha rt
13 19
13 15
lou gh
ning s
for ma
for mis
pa tch
23 50
mula tor
in dica
me ans
nu ng
ï¼ Ķ
000 2
al bum
the sis
lo cation
ter n
ter ms
th ra
to na
pen t
do i
do o
do como
Co lon
Co vid
ca li
ca le
be c
be au
32 GB
In spi
ss y
SE CL
Re fu
hi l
49 00
el er
et ti
br ain
pe di
pe ta
Li ps
Ro a
Ro w
Ro vio
Ro zas
wi ld
ol s
ry s
Vi et
fi a
Win nie
Win ds
ï½ ¡
BC R
as se
Mo tion
BA SE
AM I
BS P
Da e
Da te
Pro league
76 00
Di d
Di m
Di or
Di et
Di tto
con so
con cer
Si ze
Si O2
Si gma
Mar cel
Se ct
AC K
Be ast
Ar s
Ar ms
To on
To ll
800 00
Po lo
Bo na
Fa ther
97 00
Na ka
So li
so cial
Hi ts
mer e
Ki l
Ki ta
Ki ri
Ki ev
Ha e
AN Y
SS B
IT ED
go ni
rt on
Pi lot
by tes
SM G
Con stru
Con nor
Con sul
Con rad
Ge cko
Ta g
Ta ri
Ta ku
He yo
Ka y
à¸ Ĺ
AL n
ph p
ph ora
Car ver
Bu reau
Bu enos
HK U
ven tion
MP K
Wa ke
vo ca
My Space
My self
Ex ternal
MO A
Ci tizen
SO A
SO FT
IG P
cri bed
van i
DC 600V
ES I
DR S
New rite
Open EXR
ger y
MC U
San ti
clu ster
pri ses
Cor n
Cor tina
Ko rean
NO C
Stu dent
RT S
Je ss
DO ALA
HE Y
HE ART
Mon ster
begin ning
Sha pe
BE V
BE AT
MD B
Her zog
pre ad
As k
tel lo
Vo x
CL AN
ex pe
Mc Car
Mc Can
stra at
Geor gia
WTA 500
Mor ph
ac fun
Tra cy
DD I
mb re
Spe ech
Por sche
Sun ny
PL ANET
Han nah
hy per
cre di
IU AV
Cro w
Ele ments
DF T
Br 2
Cho erry
Hol ding
Power Book
ð« Ķ
Gar rett
Ter minal
Alpha bet
Fan s
Fan t
Spi e
VO L
dra gon
Bur n
SF 3
SF X
Cl 3
PR PP
Para mount
Max well
Yu ri
Ze aland
KK A
BF G
Scien tific
oper a
logi e
gre ss
Muse o
Bal lad
peri od
Champion s
Dy lan
DK 1
Code x
GR APH
sing les
âĳ £
Mari na
Mari on
Pal o
FAT 16
RPG Fan
Jen ny
Jen nifer
__ __
tur er
Auto matic
CU DA
Clo pin
app li
bre vi
Gri ll
Bon d
UL AS
blo g
AX A
Gil lian
fea ture
Sal ly
posi um
Mur der
Memo ry
tech ni
tech nical
cas ting
FI RE
include only
Dol ce
XC 40
Too ls
NI H
TOK IO
Angel s
Bet ty
Bet ween
Apo llo
KT X
QU AKE
produ ct
Feli pe
Pha se
Cata logue
Edi tor
Bei t
inv o
Ster ling
gli se
ð¬ĵ ĳ
Quan tum
GP40 PH
hydro xy
Archite cts
Know ledge
Hoo k
FIR A
Mir ror
RIA A
Cour se
villa ge
process ing
Glen n
LGBTQ IA
ëŀ ĺ
Scor pio
Nim tz
Sain te
Roberts on
Bha rat
Whit ney
componen ts
Hori zon
fon t
Environ ment
Root kit
resu lt
Ev ang
secu rity
Insi der
FTT H
STOR Y
suc cess
nationa le
Cp G
EGO IST
STAF F
Pub Med
Imagina tion
Glas gow
INV ECS
cour se
Pz B
SQU ARE
MRS WS
Supre me
tempor ary
JED EC
Skou sen
Kakita an
Nvi dia
0 79
0 76
0 96
1 K
1 R
4 WD
5 V
6 G
8 100
9 A
A me
A es
A 95
A tt
A qui
A mber
A lvin
B 0
B j
B uo
B 10
B ON
C MA
C IP
C EST
C lip
D ru
D TV
D BA
D us
D AV
D harma
D ENCE
E na
E die
E gy
E lena
E EPROM
F 8
F H
F ang
F AS
F AL
F light
G V
G IA
G CS
G DF
G EM
H ao
H 11
H amp
H BL
H HT
H YP
I Y
I b
I g
I si
I SE
I MA
J F
J ai
J 300
J is
J ET
J 1120
K p
K ou
K ni
K wo
K oo
K IC
K BM
L TA
L CR
L HC
M b
M 198
M 13
M 32
M BS
M 73
M DS
N SM
N PO
N ECT
O i
O z
O pi
O ak
O CLC
P BA
P AR
P PC
P WM
Q 5
R hi
R AP
R AN
S X
S ino
S lim
S lee
T se
T AC
T EC
U bi
V GA
W IM
W LAN
X 5
X B
X press
X posed
Y ue
Z ai
a do
a bove
b c
b ound
c 8
e ta
e ye
e us
f d
f ony
g 1
g gs
h ler
i mage
k ri
k bit
o h
p ping
p pen
s pa
s tem
t si
t run
u ary
Â ´
Ã Ħ
Î ķ
Î ĺ
Ð Ń
Ñ Ĺ
Õ «
× ©
Ú ©
à °
ì ¹
an ia
ang a
ai se
de ep
de velopment
ch ka
li ga
li mited
li ties
ãĢ ĸ
ãĢ Ĺ
ãĢ Ŀ
ãĢ ŀ
ui l
di ch
he ar
er u
hu e
si no
si um
si bility
ge se
ge bra
ke V
ke ley
chu le
fa mi
fa ci
ti v
mi th
20 60
ri g
ri el
ri ed
ming ham
le tt
le pis
ci no
yan t
dui n
lu re
du k
she et
ru sh
dai ly
bo ol
te er
ben e
la to
ma ker
ma king
ba h
ba ri
ba rd
ba sis
men a
tu l
su a
su chus
nei der
mo ri
na mes
chi na
200 m
ku p
ting ui
pu la
pu ram
cha l
can o
ce ceo
ka u
ka da
man uel
gen i
11 73
po nd
po rate
re verse
ha ri
sa ki
on ka
sen a
pa ct
pa tri
in ed
in stance
me lo
me mb
ï¼ ¸
ï¼ Ļ
za m
000 K
ne ed
ro te
ra h
ra di
ra me
lt o
cu li
cu lation
al le
al la
fou n
co pe
co lla
fo table
80 km
lo tte
am pi
ter son
mie s
th os
th ink
to tal
ga e
ga ta
ga tive
Ma sh
Ma yer
Ma miya
pen ter
IN S
TC B
do ri
Co st
Co ck
Co lla
Co ven
ca e
ca use
be havi
ST R
In done
vi ous
SE R
SE NS
Re vi
Re play
Re cht
Re member
Re mote
hi cles
Mi lls
Mi lk
pe e
Li C
Li z
ver e
Ro lf
SA R
SA NA
SA SS
ws er
TV 4
ry l
Me Too
Vi vi
Pa lais
NA MCO
De ll
De frag
CD M
Win chester
Sta tis
Wi sh
Wi tt
Wi ener
BC A
Mo di
La go
La bs
gi fts
Le ung
Le gal
Te k
Ja ya
Ja wa
con side
Ne p
Ra te
ki m
Se bas
Be fore
IS U
Ca ri
Ca po
Ca me
Ca ble
Ar te
To gether
cen tra
IC U
Po e
Po m
Lo gan
sta u
sta ble
Bo th
ID TM
Sa ka
Sa lvad
Sa tellite
Na z
Na gar
Na cional
Ho s
Ho ts
Ho liday
so v
Do w
Do lo
Ri der
Ri dge
Ri cci
Ti na
Ti ffan
Mu sical
Ni shi
Cha d
SS M
No tre
No thing
An ders
PC V
DV I
ko t
ko wski
Ta le
mp ton
He mi
Ka therine
ET today
à¸ Ĭ
ali zation
Bu y
Bu tton
pro te
DS LR
Ste llar
Go ing
Wa gon
For ge
For mula
CP L
UN B
UN I
âĪ ¼
FC C
vo wel
My co
My Class
Ex treme
TO W
MO R
Ci t
SO M
SO CK
SO UL
LE ED
BO OK
BO CU
Sch war
AD E
AD O
IG O
ton o
ME A
CR M
CR T
CR IS
TE MP
Lu a
Pri mary
Fe st
350 1
ja ya
book s
op tional
New man
New type
Open Type
HO LiC
San a
cor ona
Per sonal
Bar o
Bar rett
à¤ ħ
Har mony
LL ION
las k
AA AA
Ju piter
Ser a
uni ver
Pu ra
Cou ch
Pre sto
Pre tty
Ed na
TT L
PP Is
SC UM
Dan a
Nor dic
As y
Ai res
Vo IP
Can cer
IL Y
SH I
Or tho
PG C
PO RT
SL 9
ãĦ ĩ
Un pa
Un ter
Tra ding
GN D
GN S
Ver a
Ver y
DD T
Star ry
zo na
Ab del
NT FS
Es cape
stru m
Ben e
Blo om
Ale xis
El se
Min k
Boo t
sp ring
sp here
Hel ena
sy ndrome
Shi eld
Free man
Sur vi
vin yasa
Lou nge
EF 15
ric s
Power PC
gar o
gar ten
Ter m
Ter ri
spe ctive
Lan ding
Dar ren
vs ki
Dream s
Dream cast
Fan tastic
Fer gu
Am man
NE SS
LA ST
SI MD
lls chaft
ICO MOS
Tun e
Institu t
Gui llaume
sub sp
Mini ster
Que st
âī ł
à¹ ģ
Code master
temp s
TM X
ori ginal
Kan e
á» ĩ
Mobile Me
Gri ffi
Gri ffin
UL TRA
STA YC
Alf onso
Mou se
Nu clear
Ham mer
Tro phy
Cry ENGINE
read y
Enviro 500
oi des
tifi cation
posi tive
Cat ch
PRO JECT
pra ctice
HB X
OD AP
Niko la
Fleet wood
Cr ying
Pass word
Dol lar
Tar get
Hon ne
ini t
Hei ghts
XC X
âĤ ĩ
NI KE
Than a
Sol stice
indu stry
AST RO
Roman ce
Conne ction
Solo mon
Ari el
Ever green
Rea ding
DEC A
Baby lon
H3 O
NU LL
âĻ Ń
WW C
crea tion
mod 7
Rh ino
Anth ro
Steven s
NCC s
Inte ger
DH CP
Bin ding
cli ent
Every body
Trai l
Quin n
Bas ket
Sher man
quali fier
TAI JI
Tac tical
Gene sis
Emi l
Motor ola
ð¡ İ
cau da
ìĭ ľ
DKZ 4
Even t
Ou de
fai led
Finan ce
parti cular
PET A
Price line
Sym posium
Flor a
PST N
Conti nental
proper ty
ì§ Ģ
provi de
CR300 BF
KEN TA
cover ed
LPDDR 5
Alexand ra
Macro media
Illu stra
â¼ Ģ
ð«Ł »
grou ps
EEEE EE
Grea test
ìĨ Į
cip les
crew ed
Render Ware
poin ts
Compi ler
Crui se
Package Reference
ì¤ ĳ
sexu al
Bernar do
impor tant
effi cient
Gaze tte
Chri sto
SPE ED
simi lar
Liver pool
Ensign bus
patter n
Brou gham
industri al
Krish na
strai ght
BLO OD
Excell ence
0x5 f
Ohi o
Rudo lf
cerato ps
Atara yo
BTO B
Indone sia
Tiffan y
SCUM M
0 87
0 83
0 81
1 S
1 MDB
2 1000
2 ZZ
3 mm
3 GP
6 D
8 P
9 C
9 x
A Q
A 11
A 300
A IS
A go
A AS
A 350
A las
A zer
A chie
A xis
A wes
B Z
B ian
B CD
B les
B ree
B ain
B oun
C ER
C MS
C FC
C rue
C ALL
D ei
D ue
D 50
D AR
D BS
D rea
D end
D HC
D rey
D HA
D ISC
E 7
E MA
E lf
E dit
E llen
F ou
F li
F eld
F ACE
F lask
G s
G ei
G ren
G 48
G II
G IG
G ANG
H 20
H yun
H ON
H AN
H CC
H ora
H ood
I z
I bn
I rene
J um
J ES
K 4
K 9
K el
K AR
K BL
K 105
K NO
K UNO
L amp
L um
L AP
L IV
L EC
L ara
M ao
M 80
M 76
M 1919
M DA
M TR
M ARK
M ISS
M SSR
N h
N gin
N IA
N IGHT
N ail
O 7
O ng
P ong
P si
P ES
P MC
P ony
P ARK
P ANG
R 8
R andy
S hou
S hai
S SA
S IS
S cra
T Y
T EN
T ool
T era
T LD
T DI
U 7
U IC
U PC
U CP
V ine
V LC
V H1
V BCI
W 2
W AR
W IST
W ool
W ere
X D
X PS
Y B
Z X
a v
a san
b 0
b 1
b 2
b 3
b lin
c 6
c b
c ue
c lai
e Shop
f 4
f el
f air
g 3
i g
j d
j on
k 1
k ol
m ler
p li
p tive
r g
r er
r man
s mo
t man
t sa
u ti
u sual
v ka
v ors
w yn
x an
y ya
z d
Ã µ
Å ¼
É ķ
Ê Ķ
Ë Ļ
Ï İ
Ð ¨
Ñ ī
Ò ¯
Ø ®
â Ŀ
ë £
ë ²
ë ¶
ë Ħ
ì ¡
ng er
ai ko
de tai
de lity
en ergy
li cense
ui d
bu te
bu siness
da rk
hu m
fu ss
bi tt
bi color
zi one
fa ther
ti g
ti ka
ti lla
ti num
ta e
ta li
ta tions
20 34
20 99
20 mm
ri bo
ri dis
ri ghts
ju ry
le ar
le arning
ci on
ci vi
ci lla
dan i
du ra
ya d
nan i
nan aco
ling er
min u
min is
ni ne
bo ttom
ma rt
ma gic
ma rine
ba da
ba si
men ted
tu k
tu ri
tu ro
mo t
mo ve
mo ther
mo tive
na mi
na ture
na ments
ze e
kou t
lin us
chi no
pai r
pu a
pu mp
10 25
10 500
10 78
10 51
se conds
gan te
ka ri
11 14
re ct
re ction
re cht
re gedit
wa k
sa c
sa k
17 A
pa u
24 000
28 50
in stitu
22 24
me z
me lan
27 50
ï¼ Ĺ
za tions
ro le
st ral
ra u
ra w
ra pper
cu lo
cu les
ãĥ ¶
chai n
ãģ ½
the l
35 B
35 mm
am bi
to mi
ga ster
36 34
Ma ta
Ma king
Ma teri
IN C
Co mi
Co ll
Co Mo
be k
be tan
In do
In fini
In door
vi et
Re ad
Mi ck
Mi ster
Mi lton
AT O
Li ghts
Li eu
69 00
Ro e
ho e
SA L
wi ller
Me dal
78 C
Vi en
Vi va
Pa pi
Pa vel
Pa ssi
ts ky
NA MA
NA SCAR
De vin
CD SS
Sta de
Mo dule
no v
La mont
CO DATA
gi ve
Jo el
AM S
Ga le
Ga tes
Ga stro
Pro cedure
Ja mie
Di mi
Fi na
Si te
Si mpson
Mar a
Ne ar
Ra vi
ki lo
Se la
Se condary
ad or
Ca tho
Ar ian
Ar mi
Al ma
Al lo
AP C
To y
To ku
cen tury
Ba h
IC ANN
Lo tus
Bo ris
ID A
Sa lv
Sa lt
Sa vo
Sa turn
Sa tur
Sa unders
MA SS
Na con
Na vel
Na vy
So lid
So ylent
Ho mes
tic le
St range
Do ming
Do CoMo
Ri t
Ri tter
Ha te
IP KF
Com fort
Ti ll
Mu ra
Ni el
Cha u
go ing
Pi Ta
Pi vo
Pi zza
mes tic
DV II
SM TP
gra d
Ch loe
He ar
He ctor
Ka ri
à¸ Ī
MS C
EP LUS
Car go
Inter sport
cro ft
DS C
Go v
AK I
AK ARI
Wa de
den sis
rea ction
gin ed
Ex pan
CH INA
TO D
TO R
AV RO
MO DE
MO OD
Man y
AG EN
Ci vi
SO C
LE X
BO L
int ro
IG BT
ME MS
CR TP
TE S
Pri ma
DC A
ES RI
Ru ben
res er
op hi
360 MC
DA A
One s
Stu r
Ju di
RT I
SP ACE
EX PO
DO TA
Pu ma
CE V
RS D
ten ant
Ad tran
ser ved
SC AD
MD MA
Ph ys
Her man
On tario
mas k
Vo da
Can ton
Bri t
Bri gade
TR PG
Gen Bank
TS I
ex changed
Mc Donald
Gu st
Eu gen
dge ts
ac cording
dis k
dis co
GN SS
ï¹ £
cle an
Bla ze
Fu ck
mb ro
Star z
War ning
Ani mal
Dra ke
PL C
Han a
Ali en
UC A
UC K
sp el
era h
Gran ada
Up date
DM F
Jan uary
pla t
Sy ndrome
Wal do
Pla te
par tial
Cho ku
Cho co
EM T
ð« ĺ
tho se
inter national
Cam era
Recor ding
VO G
IO P
Euro vision
dra u
Sing er
SF N
SU SE
VE L
Am bi
Ger hard
dro me
Tor onto
âĸ ł
mac s
Fle xi
Para de
Glo ria
Vol ks
Core Media
Ze pp
Ze tec
Ven ture
OH V
MU SE
Ren e
CK G48
ìĿ ¼
Fire works
logi c
Pin up
ONE US
Mai son
bor ne
bor der
FR ONT
Flo rida
Cra w
à¥ ĭ
Gam bit
Gro o
Kin d
Cur se
Under tale
Bran ch
Kan on
CU BS
Rei ma
Engine ers
C2 H5
Clo ck
Class path
Gol f
Ange les
C6 F5
trans form
Sound Cloud
poli tana
Fin d
Fin der
Wan der
Cry tek
Dai mler
Hun ting
Wei r
oi l
Amazon s
llion aire
Geo database
ounda ry
Dun n
xx x
419 c
Has bro
SW T
SW IFT
pter a
WOR KS
nor m
nor mal
cifi cation
ND MA
flo wer
HER O
Thunder bolt
à® ķ
534 D
Edu ard
Indu stry
HTT PS
Test A
Mountain s
Phy sical
JO Y
Hip par
áº ¿
Bir mingham
NN N
df n
Yan kee
Mil ky
Rail road
GEN ER
ìĹ °
LV TP
Tex ture
hea lth
SUN RISE
Trai ning
Nove ll
Sie ge
Sie mens
Tea cher
Kor pi
Hil bert
Robo t
Even ing
Gai a
ffa lo
Defen ce
Sophi a
Sym fony
pti de
uint 32
Conti nu
recor ds
ëŀ ĳ
Lucas Arts
Compa g
JY M
Indie Wire
pera ture
chara cter
sele ct
Cris tian
Democra cy
Ato mic
SDR AM
partner ed
deg ree
Hya dain
ëª ¨
dacty lus
Provin ce
Stephan ie
Chao s
Prai rie
Confe dera
MRT T
Rein hard
ê· ¸
memo ry
Sil ent
achie ved
chr 7
Partner ship
gorith m
MAT LAB
Dir ty
L129 A1
vul ga
regi ster
Nitro me
Philoso phy
Birth day
insta gram
meda list
continue d
LOV EPLUS
TASC AM
iHeart Radio
Phoeni x
triple S
auri tus
Cesa re
rhyth m
Spie gel
SENS ATION
Sebas tian
Salvad or
Fergu son
Achie vement
GANG AN
KUNO ICHI
Ngin x
PiTa Pa
MOOD YZ
Adtran z
0 99
0 78
2 N
2 202
3 K
3 x3
3 ASV
4 E
4 F
6 100
6 th
7 D
7 G
7 th
A nu
A BA
A CO
A ja
A lain
A IDS
A coustic
B t
B hu
B RE
B ard
B BN
B PI
B JP
B NSF
C Q
C ze
C is
C run
C ron
C IL
D Z
D ha
D 27
D et
D one
D LL
D BR
D rug
E f
E re
E ul
E IA
E vil
F 0
F V
F OS
F ris
F esta
F ound
G la
G 25
G IF
G GO
G bps
H 0
H eng
H ye
H 16
H MV
H ed
H MD
I 3
I H
I W
I na
I ran
I ME
I RI
I RC
I llionaire
J G
J ia
J PEG
K m
K lu
K la
K 16
K II
K CC
K TM
K bps
K 2186
L TV
L PS
L DR
L yon
M 78
M EP
M INI
N ao
N INE
N xd4
O rang
O rd
O PS
O US
O dd
O OH
O cta
P l
P ru
Q e
Q o
Q CD
R 0
R EN
R DO
S v
S me
S pur
S word
S pani
S cout
T hong
T AK
T 128
T NF
T 126
T ARA
U X
U PS
U FA
U STA
V ai
V 12
V CG
W 1
W EST
X A
X O
X MP
X CB
Y oo
Y AML
Z 9
Z C
Z K
Z ou
a the
a ker
a gent
b ba
b hp
c 5
c TV
c tual
d ream
e to
f m
g ian
g ol
i ch
k w
l les
l cp
m t
m ong
m bed
o pi
o ko
p 1
p sis
r b
r l
r RNA
s chi
s cu
s ol
s lot
t va
u ra
u tical
v 6
z c
Â ¼
Æ ¡
É ¯
Ê ¾
Ê ĥ
Î ¤
Ð ¯
Ó Ļ
Õ ¸
Õ ¿
× Ĺ
× Ŀ
Ø ²
Ø ·
á Ł
ê ±
ë ł
ì ¶
ĸ ĥ
an nu
de u
ei ro
ei ner
en da
en berg
li sa
li ber
li quid
di ty
da b
da ble
si bi
si ma
si tes
ge mei
ke ting
ti de
ti ni
ti cism
20 th
20 49
20 380
ri va
ri lla
le v
le ye
le ep
ci se
ye llow
lu x
lu ation
tai ne
ru rus
hai nanensis
nan o
lai de
wan t
min A
min s
ni l
bo i
bo ys
bo om
la ge
la va
la tor
ma gni
che t
men e
men o
tu des
su res
lan to
mo der
mo tor
na k
na t
na do
chi o
chi p
pai n
lie f
lun d
pu ng
10 42
can e
can ce
can us
ran ked
se ar
pin k
ce k
ce t
ce do
ce des
ce utical
chan t
12 306
gen y
gen era
que l
que ens
11 B
11 S
wo men
po lo
re sh
wa h
wa lk
ha li
sa ster
or al
on ce
rang er
30 mm
lou se
hei t
bin ding
reng th
pa lu
pa ka
pa ckage
in c
in come
in divi
ar di
me et
26 50
nu mer
ro a
ro ff
ra dio
cu ra
al ways
co t
35 30
lo m
lo th
lo wer
ãĤ ©
ter ia
ter ary
to rial
to gether
48 21
37 59
Ma ka
do za
do ck
75 000
Co la
ck r
In di
In ner
ss ing
ss ues
SE O
Re ve
Re presen
hi p
et ta
gun a
Mi ssi
Mi randa
at ors
AT i
pe st
Li b
Li la
Li terary
Ro lling
43 M
SA F
SA M
wi z
wi jk
ol ds
ol ence
Me an
Me dley
Me thod
Pa ta
Pa sha
Pa st
Pa cka
De lu
De but
gh ted
fi lters
Win ston
per son
Wi e
BC H
as ing
Mo sco
La k
La ws
BA CK
CO OH
gi i
Jo b
Le y
Ga vin
Pro c
Pro mise
Te rence
con ste
Fi r
Mar ks
Ra pi
Ra mon
Se th
Se as
AC SF3
Be th
IS PM
ad ministra
Ca sey
va li
va cci
Al la
AP O
AP U
Ba al
Ba gh
Po s
Lo t
Lo dge
sta ff
sta tus
Sa vi
Sa kura
Na tive
Na ked
So viet
ON D
Tu l
Tu cker
fe w
fe male
so la
so ma
Do S
Do k
mer y
Ri e
Ri ce
Ri bon
nt on
Ha re
IP E
IP N
IP MI
IP M1
Com ple
Su zu
Ti a
Ni p
HD P
pp ella
IT SO
No v
No ble
No bel
go go
Pi ck
Gi B
PC home
gra ms
Ge ek
mp hus
Ka de
Ka by
EN DS
EN SO
EC MA
MS NBC
ali a
AL C
Car bon
Car penter
Bu k
Bu ster
Bu lle
we st
Pe kan
Pe ggy
RO H
Go e
Go al
AK ER
Wa lt
Wa ters
Wa gner
For ward
For ces
ff ff
vo ice
CN H
ent ly
Ex o
Ex plo
dice a
TO RY
Man chester
Chi cken
MI Y
BO OM
AD ME
CR H2
van a
TE L
Lu ca
350 km
Ru bi
Ru gby
DR AM
New ton
DA WN
Open BSD
Sho e
HO ST
MC 68000
cor n
Ke m
soft ware
Per cy
Bar bie
Bar bus
World wide
Har rington
DP A
RI END
Ju dge
tri ton
SP 1
Je w
HE AT
Mon s
Mon sta
Live s
tain s
Ed dy
Sha m
Sha r
Tri p
Tri dent
ten sis
TT APS
ser a
NH C
SC M
por ted
are as
lis m
Ori gins
Ber keley
VID EO
Vo lume
ref le
SH U
Or l
TR AN
Ty pho
ex FAT
Mc Kin
name d
ãĦ Ŀ
Gu a
Gu ang
Ac cording
Eu g
Char lotte
Un cle
Th ri
Th rough
Ban co
SD 45
mar gin
Ver ge
DD D
age d
Cy g
Cy rus
Ku mar
Ce cil
IM G
IM X
cc TLD
UP A
UP R
Ab bey
Bra chy
MG C
PV S
Ben nett
MB N
AO KP
AO MG
Web ster
Ale k
Ve ga
Ya tes
Tai ls
Tai chung
ast ro
sy llable
Produ cts
Free ze
pla te
Sy fy
Sy base
Wal leye
Pla ty
RA E
Media Wiki
FO RE
EF 16
mini st
Mer cedes
Chu la
inter face
290 X
Pen ny
VO ICE
LP H
Plan ning
ak ko
dra w
space port
Fer n
Fer ry
Ama teur
PE ACH
LS 5
lea ding
Van der
Cal dwell
Boy d
Sma sh
Ag ni
Ag nes
234 B
Ran k
ona le
Gui ld
Ji g
Ji ll
Yu ng
Hea vy
Squ ares
Trans former
Trans portation
Men doza
bro ok
oper ated
áĢ Ģ
Cri tics
Lon ely
ele ction
ele ments
gre at
WA Y
á¹ ħ
á¹ Ľ
Cra fts
list en
esta bli
telli tes
Dri ver
pho s
pho to
Ana to
Des mond
Sum 41
tum n
POP 3
tur ned
Bran don
map ping
C2 C
Ei sen
Hal le
á» Ŀ
Wii Ware
Cli ent
NM R
SV 40
blo od
AX 3
Ham burg
ap pe
other s
Gil les
F4 U
Nan a
system d
fore st
sche me
Oli vier
fla sh
fla re
SIG GRAPH
Queen s
Ami go
HB OS
Capi tol
Metro polis
Metro politana
Fal ling
Niko lai
FN N
Ima ges
kW h
pter us
mission s
Kh KBM
Lar ge
bas sa
il lu
Augu ste
ht m
Wing less
ini tiali
LZ X
Ant ena
AW 50
Program me
cep ts
cep tor
Cre dit
kie wicz
Fai ry
FAN XY
Inv ent
Again st
Tel net
áº £
Week ly
Eve lyn
Sand wich
glo bal
LX I
Sport wagon
WW W
Garden s
Swi m
ìļ Ķ
team s
MAD TOWN
Jes per
RF ID
gene sis
constru ction
Gon z
Gon dor
Rober to
cli ffe
cam paign
Mid night
Gian ts
UF J
confi guration
EY ES
EY CA
Deuts che
Shop ping
Oly mpi
PRE SS
Made leine
ARI MA
Domini que
Valen tine
Tin y
Diplo pedia
Diplo derma
offi ce
SEN SES
Pai nt
Fit ness
Pear l
Ul ster
recor d
dyna mic
ì§ Ħ
sorted Array
Bb 4
cover age
Ade laide
Twi light
YE AR
ë¹ Ħ
Stefan i
Meri dian
Comman ders
atten tion
SEC IS
psy cho
Bloo dy
Moni tor
kina se
Eni x
Butter worth
Pure Script
NER F
ita minA
ëı Ļ
Infra structure
ASO BI
Warri or
Sonic Stage
Agri cultural
Iden tity
TAS Y
alt hough
Rodri guez
Fed ora
orien talis
FW 43
Ide as
whe el
Mile stone
Guar dian
Phan tom
Coin Desk
Reco Choku
Effe ct
Igna cio
Pharma ceutical
Ske tch
Gree k
ë¬ ¸
Begin ning
Budd ha
Est her
FRI ENDS
Frea k
Rafa el
myr mex
AQU OS
DARK NESS
Gara ge
ìĪ ĺ
Rogue like
Strate gy
PTS D
Movi es
Nis san
Mada me
Saman tha
Nichol son
Admi ral
Orni tho
Qual comm
Cleve land
Kaspersky OS
Amend ment
Madri d
Chap man
Varia ble
sphe ric
ORO CHI
âķ ±
Colon el
conso nant
Cortina rius
Ubi soft
tingui shed
Couch DB
Codemaster s
ð¡İ Ĭ
Lieu tenant
Voda fone
Reima gined
Hippar cos
GENER ATION
XMP P
Mosco w
Typho on
+ &
0 45
0 61
0 600
1 H
1 W
1 GB
2 a
2 Te
2 178
2 NE
2 MASS
3 2000
3 Si
7 SENSES
8 200
8 341
A j
A bo
A gui
A 12
A wa
A 13
A so
A ris
A UC
A tten
A ppe
B x
B one
B BL
C uo
C ran
C 57
C hk
C one
C AF
D 17
D 28
D 100
D oo
D ES
D rew
E Z
E lu
E lv
E SS
E ther
E 220
E UR
E macs
F ru
F luo
F ry
F EST
F PE
F PK
F ountain
G wen
G lie
G AL
G DC
H tt
H US
H SP
H AVO
I mi
I ll
I AN
I ris
I dol
J ian
J 85
J AXA
K um
K AC
K ul
K IA
K yo
K 1626
K 1122
K 1124
L v
L eng
L AG
L ena
L VT
L IGHT
M 200
M 31
M MS
M BO
M 240
N ue
N 19
N ya
N ES
N RC
N UT
O 8
O k
O ue
O ze
O ct
O IE
P eng
P is
Q C
R n
R PC
R Ser
R 136
R ING
R hein
S ni
S SE
S BC
S ko
S RI
S pha
S HE
S UR
S F1
S prin
T U
T wen
T sa
T AT
T Wi
T MP
T ATA
U 14
U MB
U O2
V ang
V 10
V room
W ye
W 89
W yn
W CW
W HA
X 4
Y 3
Y ong
Y in
Y ves
Z er
Z HR
Z DF
Z ONE
a S
a mo
a pen
a sana
b lan
d han
d ler
d din
d rug
e co
e va
e Cos
f ter
f red
g res
g ara
g ory
g art
h ma
i co
k 0
k ru
m bar
n j
n k
o xi
p 3
p 50
p lt
p hant
p df
s li
s can
s we
s eri
s low
u fotable
w sa
x ter
Å Į
Ç °
Ë §
Î ĵ
Ð ĸ
Ö ·
× ¤
× Ĳ
× ŀ
â ľ
ê ¦
ð ¢
ð ¦
ng i
ng en
de signed
shi rt
en vi
en ts
en ia
ch lo
ch ter
li g
li che
li que
li ter
li bra
ren sis
di x
di en
di da
di us
di ffi
di plo
he x
he ed
bu ck
bu lar
bu ffer
er son
da t
da ya
da hl
hu ri
si nu
si ly
si ght
si rai
si licon
fu s
bi ra
bi to
bi ts
ti st
ti mate
mi de
mi lian
mi te
mi st
mi ght
ta les
20 37
ri j
ri man
ri et
le w
le ed
ci de
ye on
yan a
du ced
du ate
lian t
pi xiv
ni fi
ni bus
bo ro
bo is
te ma
te tra
te ach
la ta
la ut
ma ck
ma cy
ma thema
ba cillus
san i
san ce
che v
su ra
lei gh
lan cy
mo rp
mo nas
mo dule
ze tima
wai t
lin da
cha se
tou t
tou rism
ran dom
se condary
pin o
tan d
ka ran
ka was
ka tsu
gen s
po ten
re at
re trieved
mai ne
sa tellites
or gan
25 50
pa ck
pa sta
pa wn
me m
me y
me tho
me dium
me tric
26 16
50 G
ï¼ ¤
000 m
ne lla
ne gative
st he
st Sock
ra tio
rou d
cu late
ãĥ Į
co lm
ãģ ·
the ast
lo i
ter rane
th ora
th read
to ria
to rio
ve hicles
ga tor
36 000
Ma re
Ma fia
TC O
do ctor
Co ve
Co lli
46 50
ca tional
be lli
ST FT
ST ICK
47 B
In n
In dies
The odor
vi ridis
SE RF
Re u
Re yn
Re ports
Re lief
II e
br un
Mi e
and ro
es ian
es tic
at tro
pe ed
Ro ver
run e
ho m
ho mo
ws ka
Me thy
Pa w
NA G
NA V
De b
De velop
De bora
De lancy
CD G
gh ters
Win k
Win 32
Sta rk
Wi lle
as si
Mo du
Mo mo
Mo ve
Mo lly
no itaminA
La la
La La
La yer
La bour
BA N
CO ME
51 A
Le et
Le ft
AR DS
Ga e
Ga rena
Te atro
Di al
Di ffe
con si
Fi ction
Fi tch
Mar tine
Ne ther
Ra ven
Se oul
Be hind
IS LAND
ur ban
Ca y
Ca en
Ca la
Ca leb
Ar ro
Ar mor
Al ban
Al one
Al ways
Al pine
ED F
AP D
AP FS
lay er
Ba bu
Ba re
Ba ss
Ba sed
IC AL
Po t
Lo co
Lo wer
ER P
sta den
Bo on
Bo lo
Fa ye
Sa v
MA J
Na zi
com pi
Ho g
Tu ng
so na
so apen
Hi HD
Hi cks
Do yle
Ri fle
Ki mi
Ki Ya
Ha san
Ha us
Ha yes
les cope
Com pani
Com ponen
Su pply
Ti tle
Mu sik
Ni c
Cha sma
We ar
We TV
We go
No ir
No ah
No rid
go nal
ster rei
Pi pe
PS I
PS K
PC P
AS tandings
Play boy
SM N2
ble y
Con su
Par c
Par lia
Ta x
mp el
mp ho
He ft
Ka tie
ET I
EN E
EN 1310
EN FOS
à¸ ¹
ali zed
EP I
Car son
we stern
Inter na
Inter val
MP 4
MP L
Pe ga
Pe ach
US LC
En tus
RO W
RO OK
Go Hands
âĪ §
âĪ ł
vo cal
My ers
Au tumn
AV G
Man ia
PlayStation 3
Chi p
CC A
AG U
Ci m
Ci el
MI LLION
BO OT
int en
Sch neider
AD DR
IG E
ria ge
van an
Lu ng
Lu mo
Fe bru
des cribed
DC S
hat tan
Ru b
DR DO
Hu mani
Open Office
Open SCAD
Sho re
os k
Cu re
Cu 2O
Ko ana
à¤ ¶
NO RT
NO RN
Stu d
pha rma
SP AN
SP ICA
Je wel
rs ch
LO T
LO GO
LO OP
LO VER
Tri o
BE AM
BE VG
Ad dr
ces sary
Che ster
Her story
pre vious
Dis tance
Ber ger
Is lam
Vo gel
tra m
Bro wser
yo shi
Gra mmy
William son
SH A
PG M
ple ss
ex cept
ãĦ ħ
Ac ti
Mor rison
qui re
SD L
SD 38
Sto kes
ï¹ Ĵ
Ver non
Ang lo
DD 51
Bla de
Bla ke
RC EP
âħ ¤
mb la
Cy games
Enter prises
Ab d
Ani ta
Por te
stru ctures
phi lia
123 I
PV M
ns oo
car bon
Sun shine
MB R
PL S
PL AN
DE MO
DE ATH
Han na
Ve la
sau ridae
bri ght
Sai d
750 V
OK O
Chan el
tter y
ora ble
DF 90
Sh ooting
Ye e
Ye zi
YO ASOBI
IE 8
Val le
CA ST
bur gh
EF 65
EF 54
UT 2
Mer ri
Black comb
Wil kinson
STAR T
Gar c
Ken ny
Lan ce
Stan is
IO I
HS DPA
Euro pa
Plan ts
if rame
space ports
ood le
Bat man
Bat sirai
Bur st
LT PS
Ger ry
LS B
stro y
esti ma
Rock s
Rou ge
LD H
Fle tcher
Ran dall
Lau gh
ona ry
Gui nsoo
Ji ang
Ze gna
Er b
Ren fe
Pop Matters
Cri cket
Cri tical
DDR 2
Mag gio
Mag nus
mor ning
mor phi
âĺ ī
Pin us
Bal ti
WA TCHA
mat plotlib
DK 2
pur pu
Regi on
pho p
pho rus
Den ise
Jen na
Auto motive
298 X
385 29
Rei chs
Op tion
Cas ca
á» ĳ
Tru mp
Publi cations
Bon ne
UL F
ee e
blo ck
Pier rot
C6 H4
Mal colm
Sound s
Sound track
print ln
ap pea
Film staden
à½ ĸ
char ya
May or
N2 O2
áĥ ĺ
EL LE
T3 B
Johan na
Let ters
MM X
ENT SO
plan t
God zilla
pra e
Geo Da
Eye finity
Deep State
Journal s
Bai Ya
H1 N1
WO O
ðĲŃ ª
ðĲŃ ¬
CH2 CH2
Leo pard
Kat z
Kat ha
Theo do
Thi rd
bio R
LU RE
UK A
AMO O
Mont go
Syn dica
Tran sa
Lui sa
llen nium
Program ming
Some thing
Lam b
Apo sto
Work ers
V6 B
free dom
wis senschaft
áº ¡
produ ced
Dal y
DU O
Econo my
VP 70
WW DC
dire ctly
super cell
protein s
D5 D
see ded
Mix tape
Classic s
GEN JI
pres sure
constru ct
pass word
Fw 200
GDDR 3
eg gs
GF RIEND
ë° ©
ë° Ķ
Dur ing
Edi th
Cin cin
Tam pa
INT ER
Pur ple
Quan tic
medi cine
Sher lock
gener ation
Wai t
Wer ner
neu ro
Gate way
Kun st
RAD IO
distri bution
Hig her
ìĭ ł
Wri ting
Maj estic
Mee H
Ala war
ìł ķ
conne ction
4x 4
K10 77
leb ration
Kno ck
Las er
pay load
Carol yn
Andre ws
Andre as
wri ting
wri tten
digi t
digi tal
pul se
LMP 2
semi finals
Cai t
Wea pon
Adi das
Rhyth mik
proto col
Sd n
Joan na
Exten ded
Nei gh
Thai land
Hori pro
Nix OS
kei t
sc rum
ê³ ł
Lepto dora
compu ter
Lol lapa
maxi mum
regu lar
Infra red
communi ty
Clay ton
Pine apple
popu lation
respon se
Xa vier
d3 fb
elect ric
Ery si
loo za
TED x
Chapel le
Aka de
FAM ILY
FAI LURE
Nou ve
Treat y
DSS SL
kla ani
ìĽ Ĳ
Innova tion
Combina tion
Cres cent
seg ment
Geoff rey
MIP I
equ ation
festi vities
Bever ly
ð°¾ Ń
Encyclo pedia
Govern or
MAM AMOO
OUR s
argu ment
dodeca hedron
Raz or
Nata lie
Celebri ty
Doro thy
MNH N
develo ped
Respon se
Dian e
FNA B
Omo saurus
elong ata
attribu te
Domeni co
acti vities
PRIN CESS
Hmm sim
Heri tage
Jero me
Morph XT
Aes pa
Kwo k
stau rant
Schwar z
Basket ball
0x5f 3759
3GP P
Awes ome
KNO CK
b0 d3fb
ë£ ¨
ëĦ Ī
Niel sen
AGEN CY
Phys X
Korpi klaani
Nip pon
Oze mpic
RSer Pool
kru puk
envi ron
stSock Addr
Debora h
soapen v
EN1310 90
Febru ary
Lollapa looza
0 41
0 800
1 X
2 F
2 k
2 AM
3 d
3 AM
3 MF
5 B
5 C
5 W
5 th
6 N
6 X
7 C
7 S
8 x
9 400
9 801
A 20
A the
A run
A per
A lam
A 321
A gent
A SAP
A vant
B X
B US
B RO
B UR
C ui
C IN
C MC
D ing
D 20
D re
D 15
D 40
D SE
D wi
D res
D MC
D ora
D IE
D har
D DVII
E 8
E 193
E th
E 1000
E SO
E sti
E gg
E xit
F IT
F AIR
F HP
G 8
G ha
G BA
G ON
G range
G lyn
G wy
G lad
H Z
H ue
H wang
H 18
H 21
H PP
I sh
I da
I chi
I do
I OS
I con
I ER
I mm
I gor
J CI
K 13
K 45
K amp
K ad
K UR
K 306
K 552
K 554
K 1191
L 4
L H
L er
L ju
L ST
L CP
L und
L GPL
L AMP
L IGO
M Z
M eng
M 26
M IN
M TC
M MP
M RO
M ARE
M NL
N 9
N 20
N 10
N ara
N LM
O y
O CR
P am
P AN
P TR
P ATH
P BMC
Q K
Q NL
R he
R 18
R AT
R OS
R GS
R USH
S mu
S ku
S BI
S NOW
T 8
T 11
T 195
T NA
T ris
T AL
T LE
T ara
T LC
T HF
T esta
T ono
U se
U 13
V D
V OS
V LS
V HF
V CT
V SB
V WO
W Y
W IP
W rap
X u
X M1
X ero
X R2
Y ai
Y am
Y ard
Z 2
Z U
Z am
Z om
a pi
a ba
b 4
b lu
b lind
c yan
c ting
c tes
c def
c lair
d x
d ner
d rin
e te
e ka
e dition
f rey
g gen
g row
h 3
h ra
i li
i er
i tu
i tem
i dae
j ong
j et
k ti
k han
k wa
k ers
k off
l ka
m 1
m ping
n 2
o e
o ta
o men
o ph
o cy
p F
p ment
p les
p Ka
p neu
r h
r chi
r ar
r ein
s tui
s ley
s ports
s witch
s qua
t se
t ley
t rain
u ses
u pon
v 7
v na
v ous
w 3
w ong
w et
x ed
x pr
z zy
Â §
Ä Ģ
É Ķ
Ê ·
Ë ©
Ì Į
Õ ¯
× ĵ
× ł
ë į
í Į
í Ķ
í ļ
í Ĭ¸
an chor
de b
de en
de si
de ls
de pth
shi d
shi m
li tion
li pop
ren ts
di q
di st
di ver
di tions
di stin
he m
er ian
da ran
da al
hu b
si ck
si tive
fu el
bi as
bi llion
fa h
fa ctory
ti z
ti le
ti nus
ti cum
mi la
mi ddle
ta ch
ta ya
ta ro
ta dor
20 W
20 75
ri en
ri co
ri ver
ju ris
le an
le do
le um
hou r
ci t
ci ta
lu k
du p
tai re
tai ning
ya ku
ru les
min ute
pi te
ni st
ni cus
bo ration
te ll
la ke
ma ru
ma ha
ma gne
ba sh
ba ld
ba rt
su di
su ke
su bor
lan do
na z
na mo
na ra
na go
na tural
ze s
lin dro
200 km
ku t
ku ten
pu ta
pu dding
cha m
cha t
tou cha
se tter
ce e
ce san
sha re
ka lo
man do
long er
11 66
re q
re ka
re sa
re tro
ha e
ha w
or f
16 A
17 G
30 77
13 17
hun d
sen su
bin ed
25 20
pa h
pa ri
pa gan
pa re
in ha
22 70
22 76
me tal
me yer
26 C
26 13
26 000
50 Hz
27 80
27 70
nai s
za l
lve o
ro o
ra c
ra k
rou n
rou ng
cu lt
60 M
co w
co se
fo cus
80 386
35 W
am ong
am ba
am 730
tun a
th me
th rin
to ld
to wer
to it
to string
ve ling
ga ri
37 DDK
Ma je
Ma tho
Ma vis
pen d
pen thes
Co ming
Co pa
Co sta
Co ach
Co pilot
ca me
ca ble
ST L
In dy
ss ment
ss ein
vi su
55 50
Re li
Re si
Re vo
Re publi
Re source
Re mington
hi g
II A
II B
et z
Mi c
Mi u
Mi zu
Mi ckey
es te
at to
AT SC
pe ak
pe ctive
Li a
Li es
Li sso
ver b
Ro m
SEE D
ho ri
99 99
SA 06
SA LT
SA MPA
wi m
wi se
TV er
TV ING
Me te
Me lan
Vi e
Vi si
fi ler
ber i
Win e
per fect
per formed
Sta dio
Sta dt
Sta llion
79 00
OS P
Wi r
Wi dgets
Mo han
Mo ran
no tus
no vel
La ter
La vi
La ger
BA RT
CO D
gi cal
Le f
Le an
Le ad
Le mon
Le vy
AR O
Da man
Da cent
Da hl
Pro je
Pro xy
Pro gress
Ja de
us ch
Fi les
Si mp
Si len
nal do
Mar f
Mar ian
Mar ce
Mar ry
Mar qui
Mar vel
Ra kuten
ki ck
ki ss
Se c
Se m
Se xu
Se ed
Se rena
Se minary
Be en
Ca e
Ca th
Ca be
Ca val
Ca rey
va le
va tion
Ar g
Ar k
Ar cha
Ar cher
To ni
To mas
Ba ch
Ba ri
Ba lan
Ba th
Ba um
IC F
IC ER
Lo g
ER ROR
sta t
sta ted
Bo h
Bo he
Bo is
Fa de
Bi rk
Bi blio
160 km
Sa le
Sa van
Na mes
Na rin
So lar
com peti
Ho b
Ho hen
ON LINE
fe ll
so ci
so ni
Hi la
Do na
Do re
Ri se
Ri ley
Ri chie
nt en
Ki osk
Ha le
IP EI
AN K
Su d
Ti er
Ti betan
Ni r
Uni nett
Cha s
Cha kra
go th
lli c
Pi x
Pi one
An nu
An tio
AS IL
Play ers
gra de
Con test
Con tact
lle ctual
Ge e
Par am
Par as
Par ks
Par sons
Ta b
mp s
mp ha
mp to
He e
Ka wee
EC R
ali st
ph or
BL T
BL U
Car rier
Car roll
Bu ng
Inter change
AI RI
Wor king
Pe a
Pe tite
Pe oria
RO X
cou ver
Ste ele
Go ver
RE A
Wa h
den sity
lor d
rea ding
gn y
CP I
UN IT
FC RAM
dia tion
My o
CN G
âĦ ķ
CH IC
CH AN
TA IPEI
tes ting
my Video
Man x2
Man hattan
Ci ao
MI MO
SO UR
SO GO
SO FR
LE AST
Sch le
cy te
IA EA
BD M
Pri vat
pou los
ES R
ner a
op ter
Open ing
ger a
Sho wer
HO T
cor dia
NG T48
One Shot
07 80
Cor ona
Bar ker
Bar tho
World s
Love s
Love ly
à¤ ¹
Har vest
Ju dy
Ju lio
Ser ra
RT L
RT SH
SP P
SP IRAL
rai t
sti ca
mon de
Pu lau
HE V
Cou rage
Pre cious
ler o
Sha ri
Sha red
Sha rath
tem perature
LO L
LO FT
Tri vi
Tri beca
Tri angle
tin ction
Du ck
Du ty
PP M
val ent
por tivo
Mac OS
Che ung
Che ese
rst en
Dan te
MD I
Nor ma
Her ald
On ce
pre tty
Dis tinguished
tra de
Bro d
Bro oke
Bri de
Bri en
SH 2
SH AZ
Gen s
PO R
ex pan
ex plo
ex change
SL I
SL S
ãĦ £
ãĦ Ĩ
ãĦ Ī
ãĦ ļ
Super star
stra tion
stra tus
Gu ru
ham ma
Th y
Th reat
sso ver
SD N
ac tiva
Qu en
Ver ti
Ang kasa
DD L
KP D
Ku ng
Ku ro
ller y
Ani mate
Bra m
Bra ve
Bra vo
Bra zil
Ben edi
ut m
PL A
Air ways
Ale c
Lea ve
El mer
Min er
Whi le
Whi plash
cre st
Hel p
py pasta
cien ce
cien ts
Stre tch
DJ S
Sh or
Pla teau
Pla tinum
nis m
YO YO
bur ne
bur ger
Cho i
gon o
BN P
Mer ry
EM DR
IX P
Ter min
spe ctor
vs k
Pen ang
Cla ra
Tal ent
ses sion
zer os
Bat tista
SF 9
College s
Tor o
Tor res
LD 50
PA X
âĸ ²
âĸ Ī
Glo be
Hea ther
Er win
Er ror
MU SEA
áĢ Ń
ìĿ Ģ
ab solute
CF L
logi a
Mini stry
Pin to
Bal d
Mai ne
ART IST
Flo res
Ada ptive
Epi sode
Gold man
list s
sing er
âĳ ¤
Pal la
Pal ma
Yo on
Hello World
Down load
Mat su
Mat thi
Des ert
Gro s
ori gina
var ian
tual ly
SHO T
Chro ni
Cur rent
teri on
Auto mation
Bor ough
CU BE
Op pen
C2 B
Cas ting
Cas tel
Bou nd
Clo wn
Hal o
Mit su
Im pact
SV ETA
tina e
vis ory
poli cy
Poli tics
Run ning
Run time
áĥ Ķ
EL ISA
OF DM
ag reement
dri ve
Der by
Let ter
Wei ss
Compu te
SIG MA
Tou louse
plan ned
Dark table
Who le
Fal se
432 b
Cloud flare
Mau ri
Mau su
Ima gine
Vin ce
Line ar
Ram say
Wol fe
ono re
stu dents
brea king
qua ke
flo ating
ðĲŃ «
Earth Bound
SON G
LM 12
Swe dish
Miche le
LU MO
Pon te
Wel lington
who le
xe 5
LZ 78
LZ SS
number s
Wonder land
tour naments
Fred rik
inte gra
Conne ll
Conne cti
Phy llo
Hip po
Work shop
presen t
presen ts
Ita ly
Hard core
lty pe
Cree pypasta
Liber al
Pie ces
crea ted
bed ded
Rh ian
Brea th
K2 188
Operation s
RF P
Mix ed
Steven son
GEN D
program ming
shell code
prin ciple
Source Forge
Pha l
Zo e
micro SD
Ice Frog
ZO V
Histo ric
ìĦ ľ
ìĦ ł
Rev enge
Cin dy
xc 6
Indian a
Fol der
Quin tet
Cel tic
bui lt
quali fied
quali fying
Wai ting
Emi lio
PRE MI
deri ved
rap tor
Maxi m
Broad casting
Lyn ch
pine ss
Colo m
Caro lina
Robo Master
Associa te
GRE E
dele ter
CHO CO
Ave x
Mee ting
ìł Ħ
Emer gency
sup port
K10 78
PAS K
Experi mental
Quick Time
Photo shop
Imp ro
enter tainment
Berg man
Kakao Talk
LPDDR 4
Ny lon
foot ball
êµ ¬
Navi gation
Quad ro
MET AL
flu en
SEP TA
Chamber lain
Ghost BSD
Democra tic
SEL ECT
hof er
cana densis
Environ mental
ë³ ´
Infan try
Orien tal
Phili pp
Desk top
JUN E
dec ltype
Fitz mau
HOL IC
ETC S
poin ted
Dio cesan
K230 UB
tane ous
Sung ai
Giu lio
Confe de
Corne lis
7k 7k
LIM ITED
Ple dis
Ses sion
Desi re
Clin ton
FAC TORY
Cardi nal
EAS L
spha te
Thera peu
9M 96
Xin U
Campo notus
Ukrai ne
ë¯ ¸
Mechani cal
Teach ers
Hap piness
SSRI s
Bern hard
imp ro
ð© ĸĥ
commit ment
Astrono my
Pry deri
Soo mpi
ëĬ Ķ
recur se
condu ctor
Seat tle
Boa dicea
Competi tion
Gese llschaft
Ales sandro
macula ta
Madi son
Dimen sion
UNIVER SE
Chel sea
Assault Cube
Volun teer
associa ted
Cand ler
Pren tice
McCan n
invo lve
DAV ICHI
Jis oo
LHC b
Dolo res
CRIS PR
Christo ph
Drey fuss
PES CO
usual ly
ì¡ °
Materi als
Pivo tal
Choco late
SEO UL
conste xpr
MIY AIRI
2NE 1
TWi T
mathema tical
Leet Code
Wego vy
ROOK IES
Balti more
Montgo mery
Cincin nati
Erysi phe
0x5f3759 df
subor bital
Matho matic
SHAZ NA
Fitzmau rice
. #
1 M
1 U
1 Sheet
2 ch
2 195
2 Se
3 H
3 N
3 GB
6 Sheet
8 GB
9 300
A 0
A q
A xi
A rd
A cer
A von
A ston
A via
B le
B IN
B AT
B old
B YO
B org
B link
C 18
C ys
C PS
C AI
C LE
C ME
C TE
C BM
C ray
C ARD
C EDA
D 19
D 10
D 14
D 21
D 23
D at
D 51
D ul
D HT
D IVE
D rin
D oom
D IVA
D WORD
D UNB
D DoS
E 0
E bo
E 21
E ro
E ter
E is
E ber
E go
E lle
E QU
F ong
F lei
F 10
F MP
F MC
F NH
F UT
F 9F
F IFT
G le
G lu
G 27
G Re
G BC
G MA
G ron
G CR
G LA
G DI
G mail
H 17
H 13
H 39
H AT
H EC
H AD
H ous
I 4
I e
I p
I v
I ch
I BA
I AS
I FC
I deo
I BF
I cono
I kon
I ssue
I pomo
I HDP
J L
J V
J DS
J CT
J FK
J ASO
K le
K ho
K ER
K os
K TR
K 1502
K 1504
K ONG
L 6
L SC
L MG
L BI
L GA
L ISP
M j
M 15
M 81
M 101
M 106
M RC
M 134
M ND
M AMA
N d
N 14
N IS
N ED
N one
N air
O si
O st
O th
O TA
O xy
O DM
O rana
P d
P n
P ou
P 90
P ter
P AM
P NG
P HS
P ump
Q x
Q LG
R TV
R UN
R gg
R FI
R APH
S f
S z
S TC
S as
S CE
S lam
S tout
T Q
T l
T ao
T ing
T ST
T 49
T we
T UN
T EST
T MC
T ora
T WA
T rent
T 295
T hur
U y
U ra
U CS
U HT
V ui
V 13
V all
V os
V BN
V UCA
W 4
W T
W PP
W CG
W rite
X y
Y at
Z 100
Z ara
Z IM
a lan
a wa
a ffi
b di
b rou
d ry
d der
e 8
e ti
e vidence
f ton
g eri
g all
g ler
g rin
g ges
h 2
i 7
i chi
i sa
i dio
i mple
i Folder
j en
j am
j at
k yu
k hu
k ris
k VA
k orn
k nowledge
k reis
l lan
l eri
l lus
o lo
o do
o cci
p D
p ong
p 65
p 52
p ron
p rana
q q
r ard
s la
s lo
s child
t wi
t ron
t res
t ler
t ford
u mi
u ri
u rus
v ue
v ok
w ha
w rote
x ley
y 2
y t
y lv
y ment
z t
z ne
Ä °
Å £
Å ģ
Å Ĩ
Ì ĥ
Ó ı
Ö ¸
× ¦
ë ħ
í Ħ
í ŀ
ĩ ´
sh ol
sh ooting
ji t
yu k
yu r
yu mi
yi eld
en dar
en burg
ch se
ch re
ch ner
uo r
li mi
li ta
li ly
ing er
ing ton
un sortedArray
di m
di ers
er to
da w
si ung
si mple
si fication
ge d
fu se
fu rt
bi d
zi k
zi er
fa ct
ti ci
ti re
ti ck
ti dae
ti sts
mi ll
ta la
ta gs
20 m
20 45
20 44
ri fi
ri tes
ju s
le ct
le ton
le tte
ci to
19 000
mei da
gu tta
chang es
lu de
dan e
jun i
mu d
gai l
ru r
ru ms
lai ns
ban e
min ar
pi g
pi the
pi es
ni na
bo s
bo ld
te ver
gao n
ma re
ma sti
ma terial
ba ma
ba hn
ba sic
ba sti
san o
che k
tu cci
tu cky
tian a
su ri
su ffi
mo da
mo th
mo ment
mo nia
mo vie
na ro
ze f
han i
lin or
chi i
chi m
chi ch
lun a
sui te
10 TION
ran king
se ven
se cre
se para
00 80
tan k
tan s
tan cy
ka t
ka zo
gen us
11 G
wo lf
re m
re ason
re view
re sistant
re lated
ha ppy
15 P
sa ma
âĢ İ
or tho
or ders
17 C
17 E
rang le
30 m
sen se
ning ham
pa rity
pa rent
pa thic
24 48
21 10
23 70
23 45
in cor
in ser
in telli
in stead
22 23
22 75
me g
me tro
me chani
me lano
26 A
26 B
50 mm
27 000
ï¼ ³
za ki
ne dain
ro rist
ro saurus
ra co
ra ther
ra tes
ra cks
cu p
cu le
cu lum
al titude
100 mm
31 a
co ld
co sts
ãģ ¬
ãģ ¹
35 C
70 31
nie s
lo h
lo ff
90 A
to i
to ri
45 000
ve a
ga y
ga ya
ga la
ga mo
ga tan
36 50
38 50
37 M
Ma gna
Ma cau
TC L
do k
do v
do va
do gs
Co y
Co ca
Co bra
Co bb
Co ordina
Co aster
Co lanto
ca h
ca tor
ca ses
39 86
be lt
ST IGE
UTC 10
In dra
64 K
vi z
Re fle
Re lative
Re charge
hi t
el f
el li
Mi B
Mi nas
es ch
es sa
58 70
at m
AT ED
pe er
pe at
pe tit
Li ang
Li gne
ty pical
Ro c
Ro l
Ro ya
Ro by
Ro cke
Ro ssi
Ro meo
is che
ho g
ho lm
SA X
wi ni
Me 2
Me da
Me me
Me tho
Me dium
Me mbla
Vi be
Vi Vi
Vi cen
Vi vian
Pa x
Pa ti
Pa ve
Pa tel
Pa ges
Pa chy
ts o
De a
De af
De finition
fi f
fi nan
fi ll
ber gen
ber land
Sta cy
54 AC
61 20
Mo ments
Mo jo
Mo hd
You tuber
ly sis
La wn
La bor
BA A
BA LL
BA SI
CO DE
gi t
Jo nas
Le vin
Le sson
AR MA
AR IA
BS C
BS 11
Da wson
Da erah
Pro vi
Ja red
Ja palu
89 00
Di v
Di sh
Di rk
Di xon
con f
con text
con sul
con centra
Fi ght
Fi elds
Fi delity
Si u
Si mi
Si lk
Mar vin
Mar sudi
Ra ffa
120 mm
Be er
ad ded
Ca ter
Ca ppella
va u
Ar mand
Al di
Al ley
Al bre
Al lied
Al gebra
Al meida
ED E
ED 10
ED IS
ED EN
ED TA
AP L
Ba pla
Ba yer
Po ta
sta sia
Bo d
Bo mb
ID 4
ID O
Bi ble
Sa li
Sa ma
Sa lem
Sa diq
MA GAZ
Na si
Na ga
Na var
Na vis
So yu
fe et
fe ed
fe ller
so lid
so ylent
Ri g
Ri m
Ri p
Ri ta
Ri na
Ri ga
Ri car
Ri jn
Ki mber
Ha D
Ha bi
Ha ya
Ha ma
Ha ger
IP V
ls ki
Su c
Ti fo
Ni l
Cha rity
IT AL
No vel
700 00
go re
go al
ster one
Pi wi
An da
An them
AS M
AS HI
AS SEM
Play house
SM C
Con temporary
lla ry
Ta kes
He li
He tero
Ka f
Ka pi
Ka wa
Ka thy
ET 3
ET HER
IV AL
EN O
EC M
MS IL
EP 3
EP O
Car men
Car at
Car rie
Car rot
Bu a
Bu chan
HK 416
HK EY
âĨ Ĺ
cro ze
MP 35
MP 54AC
AI A
Wor m
Wor cester
Pe e
US O
US DA
pro py
pro pel
En er
En ding
En ril
RO G
RO AD
RO OM
Go ds
AK U
For bes
For tune
ff le
âĪ ¨
gin o
vo i
vo s
vo ting
My cena
CN R
Au re
Au then
Ex ci
Ex pe
Ex ception
end ra
TO L
TO M
MO P
eri ni
Man n
Man or
Chi a
CC S
Ci u
Ci ties
LE VEL
LE GEND
AD K
wer k
ME MO
CR YP
09 70
TE M
BD 001
NC soft
NC BI
Pri va
DC I
ES L
Ru bin
Ru sty
Ru Pay
06 50
DR 2900
New castle
DA YS
Hu bert
Hu ssein
HO MO
MC S
MC AS
San s
San chez
NG A
Ke lvin
Ke ffa
Ke strel
IF I
Cu stom
Fran kie
ker nel
08 30
Cor k
Cor y
Cor tana
Per u
Per se
Per forming
Har lem
Har vard
LL S
las tic
RI M
RI ES
Ser vi
SP Y
SP OT
Pu sh
Mon th
Mon tes
Mon mouth
GP A
GP IB
Sha wn
Sha dows
Tri bute
BE L
BE AST
Ad ler
Ad visory
TT P
NH TV
Du ffy
por tun
Che m
Her n
Her mes
are z
lis sa
Dis cord
mas sive
Ber k
Ber had
Gre gor
Vo te
CL AMP
CL RG
Game Pro
Can non
Can tone
ref er
Bri tan
IL UB
SH P
Or z
Or bi
Or gan
Or tiz
TR OS
Ty son
ex d4
Mc P
Mc In
SL M
ãĦ ¡
ãĦ ¬
She ri
Gu t
Ac cent
lf ri
cho sis
Char ge
dge s
SD SS
ac cept
ac counts
Tra p
Tra dos
NF T
Ver o
CS V
DD G
RC T
Va ri
Va por
Va cation
Fu ng
Fu ller
mb s
mb our
win main
Cy pri
Cy cle
Cy world
Ku lai
Ce pha
Ce yx
Star r
UP 10TION
Eng e
Universi tas
IR IS
Es ch
Es pa
Por n
MG M
Ben son
Pan tai
car rier
Sun OS
AO G
PL M
PL EDIS
DE F
H2 S
Ve ge
Ve lo
sau ria
El sie
Insta llation
Boo th
Tai l
Chan cell
py r
py ro
tle dge
âĹ ¯
Hou ston
DM T
Ele k
Ele mentary
Ele phant
Stre pto
Free form
BI RT
pla tz
Sy r
Sy ner
Wal d
WE LL
DF 11Z
Big ben
Pat terson
YO UT
Media Works
Lou d
Val ues
XX XX
EF 58
GA E
Mer cy
Wil bur
Power VR
ð« ŀ
ð« ĩ´
tho ri
Jack sep
Ter ror
spe ed
spe ak
inter nal
Ken tucky
Lan des
Stan dings
out side
Dar by
Dar win
Recor dings
Fun k
Fun da
Sen sen
Cla rence
LP 1
LP 6
Plan ck
PM R
Sco tti
Soci e
223 1
Bur ning
B2 O3
NE ED
PE ER
Ger tru
Ger many
Road ster
Cl 4
lea ve
lea der
Van ce
Van tage
Van couver
BB P
pie ces
Tor n
Eli as
Fle ur
Digi t
Ag reement
star ted
Met view
Bob bito
Ji ve
Yu ki
Prin cipal
Ven e
Pra bha
Pra ctice
Tan ner
Men e
Bel gium
oper ation
áĢ Ķ
Christ en
501 D
iPad OS
Mag da
gre es
cent ral
Direct 3D
FT X
FT Island
Sp ra
Gold berg
Joseph ine
PK CS
Cra sh
DB RS
GR AND
CV H
CV SD
Mari ten
Mari time
Yo ga
sho ws
JT WC
OT HER
Cap com
Za cha
Jen sen
Cur ve
Die ter
HA EC
Block Buster
CU BA
Os kar
ii i
Bou dica
Cle ment
á» į
á» ĵ
Bon nie
Im per
SV D
SV X
Gal lo
Gal lag
Tre es
Nu tri
CON NECT
ap pointed
even ts
mark s
CB RE
áĥ ¡
Wan ted
Cir cus
thing s
like ly
oi dea
Sal on
tifi cial
End point
SIG FPE
lina e
Secre ts
ani mal
Crea tion
gio nal
ques tion
Base l
Fal con
Lei gh
some thing
private ly
Has san
Cine mas
Aven tador
806 A
Multi ple
stu dies
NR K
NR N
Bio Ware
Sara vanan
brea th
Final s
Draw 1Sheet
Draw 6Sheet
FL Y
PB P
SON IC
Ander sen
GC MG
cla use
Theo logy
Simon s
bio logy
Ir DA
Ir win
Syn c
Water fox
Edu ardo
Rus sia
Bang kok
word s
AW ARDS
Loo p
ext ent
Tas man
Kit chen
True Type
Bre tt
Dal croze
Sand ra
tice ye
ARE NA
Pie ter
gran dis
dire ction
dire ctor
Flow ers
Jes sie
stor age
IFF HS
Eri ka
Len na
ìĹ Ĳ
ZO O
Cata lina
Histo ria
SY S
Every thing
inv erse
own er
Front Page
Isa bella
spo t
Six TON
Sher ry
Dick in
hydro gen
COS MO
Four th
Buzz Feed
Organi c
Active X
Ol ga
PRE STIGE
RAD WIM
mina ted
Kw ong
thu b
thu mb
Pau line
Hg S
Colo nial
Haw kins
Mala ca
Rob bins
Double Vector
Bour ne
Chai n
Pun k
Domini c
Domini on
Challeng er
diffe rences
ìł ľ
Level 3
Aero Scope
Ep worth
later al
K10 23
PAS MO
Sna ke
Dual Sense
Ax H1
WAN NA
dyna mics
Chat Secure
Plat forms
Jun ction
Rebe llion
JY M2
ë¹ ł
fas ci
bino gi
Hum ph
Nf 3
Rhyth m
Gul f
Kang ar
Conv er
Yoshi ki
Fellow ship
HSD 2
â¼ Ī
hos ted
Pari bas
Lol lipop
ëı Ħ
formo san
communi cation
Orien ted
TEP70 BS
ë§ Ī
ìĨ ¡
resu lts
Enri co
Cyan o
Mys pace
Psycho logy
lb f
lici t
gem bira
mean ing
Scho lar
Brad ford
goo gle
íĺ ¸
loa ded
Process ing
Gram mar
nalis m
Anima ls
Fel on
PTC H1
ãĨ ¦
ê² ½
ê² Į
Maz da
Laza re
Presen ts
Thin king
Speak toit
Treat ment
Noo k
Piano Staff
Filip po
Alter native
chth ys
chth yo
nucle us
cyc lin
Snap dragon
quarter finals
Essential s
Azi z
LJ 200
UTA U
ë¯ ¼
mee ting
Contro ller
Monu ment
Brow ne
Athle tic
Jing le
Korn Shell
Trea sure
shei m
pil lai
Mik hail
SPO RTS
ChoCo 1
E9E9 E9
Eun os
UZ 413
eX TP
íĻ Ķ
zeu g
Fay lan
Ans wer
cyto sis
Vani lla
Stern berg
ð¨¥ Į
6LX B
Ln B
Nin ja
Kaza kh
Ferra ri
occur red
Dinosa ur
Acan tho
Cun ningham
LAC NIC
Samp son
SWE AT
Zeni th
colum n
Salva tore
McKen zie
ð«ĵ ´
Ene my
Plea sure
Uti lities
sequen ces
wild card
Viet nam
expe cted
McCar thy
appli cation
techni que
gese tz
fami lies
Cost co
conside red
Poe ms
Unpa cking
Thana gar
CER N
Crue l
Dend ro
NAMA NA
AVRO TROS
Cze ch
magni tude
Represen tative
Delu xe
Squares pace
bassa dor
AW50 F
Elv is
LAG EOS
poten tial
Reyn olds
Martine z
LOOP ERS
Maggio re
eee N
GON ZO
MNL 48
Zom bie
stui ver
Lisso triton
Dacent rurus
Bartho lo
Trivi um
Chroni cle
Oppen heimer
Connecti cut
DUNB INE
FNH TR
FIFT Y
GRe eeeN
Ipomo ea
Vui tton
ylv ania
íĦ °
Colanto nio
Rocke feller
Membla ze
Japalu ra
MAGAZ INE
Keffa ls
Cantone se
Jacksep ticeye
Prabha karan
Gallag her
SixTON ES
RADWIM PS
0 300
0 260
1 V
1 mm
2 E
2 160
2 240
3 P
3 R
3 x
3 240
3 456
3 O4
5 E
5 BC
7 M
8 K
8 p
A ke
A min
A ran
A 29
A ro
A ca
A 33
A NA
A AR
A ster
A EC
A cri
A ria
A BM
A rie
A rio
A kh
A stor
B Q
B q
B 20
B lin
B SA
B ris
B less
B usta
B URN
C g
C n
C 21
C PC
C ere
C IPS
C EPA
C tags
D MV
D ent
D ux
D ara
D NCE
E z
E min
E 22
E ster
E PC
E den
E red
E FM
E 131
E rin
E 610
E ason
E OM
E phe
E usta
E ternal
E laine
F Z
F TC
F IF
F AO
F ECT
F WD
G D
G K
G n
G ry
G La
G us
G AP
G AN
G our
G ARD
G INA
G HOST
H PO
H IE
H UT
H HL
H VC
H COO
I c
I co
I ts
I AV
I MO
I ain
I gni
J ui
J SM
J BL
J G1
K uo
K na
K lo
K GB
K op
K har
K DK
K RY
K DDI
K OKO
L K
L PC
L AS
L AD
L MD
L MT
L andy
L ARS
L eroy
L lew
M 40
M 48
M DR
N 5
N uo
N MI
N PR
N UM
N xc3
O le
O ka
O do
O CN
O CC
O PP
O TR
O GN
O PV
O uts
O LAY
O saka
P he
P and
P run
P fi
P AA
P ring
P UB
P IX
P unch
P ATA
P seu
P lain
P hel
P rism
Q W
R b
R AL
R AI
R MB
R RA
R AIR
S pan
S 21
S IN
S 32
S II
S CO
S RS
S por
S WF
S CHO
S warm
S plash
T 9
T 64
T is
T run
T IC
T PS
T DM
T B2
T 221
T rey
U 1
U 4
U GS
U DI
U ryso
V SS
V tuber
V IVA
V ampi
W 6
W ren
W BA
W AC
W ING
W PA
W FT
W ARS
X 28
X SS
Y uan
Y op
Y AO
Z T
Z 18
Z hong
Z ha
Z on
Z ar
Z el
Z MO
Z ie
a 3
a bu
a ci
a ya
a ku
a long
a pa
a der
a coustic
a bec
b ling
b st
b bs
c v
c ei
c loud
c tural
d dan
d tor
d roung
e 2
e ll
e ca
e les
e go
e volution
e asy
f ong
f ette
g 8
g nan
g ga
g lia
g ard
g lass
g rity
g hur
g iant
h h
h z
h ors
h siung
i ll
i do
i ca
i el
i Pro
i Nat
i Chart
i terator
j t
j al
j os
j ero
k hi
k ki
m mer
n de
n eri
n chez
o z
o ce
o rity
o mega
p n
p no
p 53
p lica
p lain
q t
r ha
r era
r dinary
s ers
s tus
s ein
s bury
s feld
t n
t ris
u li
u lus
u ltra
v m
y ne
z ys
» º
Â ¾
Ã ·
Ä ©
Ä ķ
Ì ©
Î Ŀ
Ð ¥
Ð ¬
Õ Ģ
Ö Ĥ
â ŀ
ì ¦
í Ĩ
ï ¿
Ĭ »
an te
sh oo
sh ment
sh oot
sh room
ji d
de ba
de ro
de es
de va
shi na
en han
en or
en ko
en code
ch oo
li ka
li ts
li tt
li tes
li brary
li terature
ui n
ui r
ui lle
qi r
ren d
ren ne
un es
di f
di te
di ra
di ent
di vision
he tero
bu sh
bu ted
da de
da el
da ted
da tes
hu ng
si d
si p
si le
si des
si RNA
ge low
chu k
bi ang
bi ni
bi us
bi um
fa x
ti ge
ti tan
ti cola
mi mi
mi ta
mi ka
mi to
mi tive
mi zation
mi mii
mi gration
ta ka
ta ria
20 80
20 39
20 42
20 63
ri am
ri cus
le x
le on
le gis
ci pan
ci dae
ye tte
gu m
xin e
du x
du sa
du cing
dian t
tai ner
mu si
wen t
ru mi
wan a
wan i
pi er
pi llar
ni ger
te ga
te ad
ben s
ben zo
la sh
la yout
ma tus
ba a
ba b
ba ta
ba la
ba tu
che y
che lla
su ma
lan s
mo i
mo va
mo ise
mo lecular
mo spheric
na d
na sium
ze j
chi son
pai red
10 600
cha ud
can i
ran te
se ment
se tup
ce lyn
00 000
00 40
gan j
sha d
ka mu
ka la
ka mp
12 A
12 m
man t
man tec
chen kov
11 A
wo man
po o
po da
po nt
re fu
re ta
re le
re ver
re port
re cent
re mix
re ality
re presen
re turned
re ceptor
re gional
ha shi
ha ma
ha ving
15 A
15 mm
pan da
sa ce
sa ble
sa fety
âĢ ¡
17 173
on ora
30 M
30 78
lou r
sen hausen
25 W
for th
for ward
pa dding
24 50
24 52
21 12
23 29
23 63
in no
in nova
22 27
22 79
ar ri
ar sen
ar ds
me sh
me er
nu t
nu clear
ï¼ ł
za e
ne se
ne tic
ro va
ro py
st os
st rength
ra j
ra ting
ra ture
40 50
cu re
ãĥ ¨
60 Hz
al one
al ls
rao rdinary
co ol
co sta
co mes
co il
co splay
ãģ ¥
nie l
lo b
lo ver
lo va
ter ri
to ni
to ok
to rium
to pia
48 V
ve ys
ve sic
ve tte
ga mi
ga le
36 80
Ma ru
Ma ca
Ma ys
Ma ris
Ma tte
Ma jo
pen sis
ll man
IN SA
IN DEC
TC I
Co q
Co ch
Co wan
Co met
ca ten
ca shire
ck ley
be low
65 nm
ST P
ST OP
ST YLE
In don
In put
In depen
In stant
The Wrap
vi ola
SE X
SE CON
Re el
Re lay
Re ef
Re volu
Re sistance
Re quest
hi ro
el ding
br on
Mi o
Mi ning
Mi gos
Mi ghty
Mi llennium
at t
Li na
Li am
Li ga
Li terature
Ro shan
Ro sso
run ning
SA I
SA CR
SA GE
88 59
88 88
wi r
wi ya
wi dget
150 P
Me li
Me gan
Me lissa
Vi b
Vi m
Vi z
Vi per
Vi meo
Vi olence
Pa re
Pa tah
Pa xton
ts on
De la
De NA
De us
De par
De von
De vice
De light
De plo
De Smu
fi l
fi ght
fi ggy
ber ge
per an
per ror
per sonal
per spective
Sta ck
as pe
Mo h
Mo i
Mo ses
no d
no ck
La c
La fa
La TeX
La wson
BA e
BA Co
BA FTA
gi le
gi ni
Jo vi
Le xi
AM BA
AR Y
Ga bor
Ga ston
Da la
Da mien
Da tuk
Pro blem
Te lin
Ja ma
Ja me
Ja cket
Ja bal
Ja vier
us r
Di xie
Di os
Di sease
Fi fth
Fi garo
Si ni
Si ms
Si eg
Mar che
Mar ko
Mar tius
Mar celo
rd s
Ne x
Ne ue
Ne me
Ne der
Ne penthes
Ra e
Ra h
ki sh
ki to
ki ds
600 1
120 Hz
Se o
Se ars
Se O4
Se dg
Be cause
IS I
ad s
Ca ve
Ca use
Ca meo
Ca dilla
Ca sino
va tive
va rious
Ar ma
Al juni
AP R
To d
Ba be
Ba ud
Po or
Po pe
Lo ad
Lo lly
Lo cation
Lo vers
Bo t
Bo lt
Bo ck
Bo at
Bo wie
Bo ttom
Fa bian
Fa ct
Bi os
Bi gelow
Sa ch
Sa ge
Sa bai
Sa ku
Sa lve
Sa to
Sa uron
MA I
MA S
MA NI
Na sh
Na ch
Na tur
So mer
com para
com mand
Ho tels
tic ians
ON FM
Tu be
Tu ris
so s
so phi
so nville
Hi st
Hi RISE
Hi dden
Hi phop
Do m
Do xygen
mer u
Ha cker
IP M
Com m
Ti mber
Ti em
Ti mur
Mu st
Ni ue
HD L
pp s
Cha e
We dding
MV C
MV G
SS S
SS W
No el
No tch
No body
lli a
130 J
Pi m
Pi r
Pi geon
Gi ga
PS L
AS BR
Play station
ble ms
ko w
Con s
Con stan
Con stitution
Ch rono
lle y
Ge V
Ta te
Ta pa
Lin col
He x
Ka to
Ka hn
Ka uf
à¸ °
EC U
MS K
AL OUS
EP 1
EP IC
Car ni
Car re
Bu dget
Bu ffalo
mm Hg
MP 40
US L
US NM
US PEER
pro je
pro fessor
En do
En ough
RO P
cou rs
Go tti
Go spel
RE SO
Wa lton
lia th
lia ble
Net vi
Net Burst
den se
den tial
den burg
CP R
My TV
âĦ ĸ
Ex am
ther ford
CH AP
AV S
MO V
Chi le
Chi ck
AG T
MI U
SO P
LE S
BO B
BO R
Sch er
Sch wart
AD C
AD AS
IG R
cri me
CR G6
je ong
105 BEVG
tor q
Lu ci
Lu cius
NC SA
Pri ns
Fe at
Fe male
350 2
pou nd
des k
ja ck
cke l
ES P
BM RT
Ru st
Ru les
op t
Sho al
MC 68
MC EM
cor porate
Ke ys
Ke ller
gy m
IF 7
IF N
Cu A2
net ti
07 W
Cor pus
Per eira
Bar tle
Bar celo
Bar tolo
App lied
à¤ ²
à¤ ļ
Har bour
Har riet
NO R
Stu tt
Ju bile
EX TRA
rai ne
Je lly
Je wish
DO HaD
Pu zzle
Mon roe
04 40
Pre da
Pre ston
Pre sent
Live Script
RS 232
Ed mond
Sha rk
LO G
Tri al
Tri ck
Ad ver
Ad visor
Du nge
ces sion
SC F
SC AND
Mac Donald
Her riman
pre hen
lis tic
Dis position
Dis patch
Ber gen
Is le
Is mail
cer tain
Vo gt
tra ction
220 6
Bri gi
Or th
TR Y
TR UE
ia e
len ko
Gen ius
Mc La
Mc Eni
SL T
ãĦ ī
ãĦ ĭ
ãĦ į
ãĦ Ĵ
260 X
Un win
Un ders
Un pretty
work ing
work ers
Th read
Ban que
Ban ner
Ban king
ks ys
qui ry
SD F
GO G
ï¹ Ļ
ï¹ ļ
Qu art
Qu ality
Qu attro
NF 1
Gir lfri
Va le
Va rious
win ner
Cy thon
Cy lindro
Ku a
Ku hn
Ku ala
Ce les
Ce cilia
IM AP
IM ATION
UP DRS
Spe ll
Ab solute
Bra hman
IR A
NT SC
Es te
MG 45
ns ylvania
Ben o
Ben di
Ben ny
Colle ctor
Pan da
Pan el
car o
car box
Sun rise
PL Z
Air borne
228 3
228 7
Han i
Han son
Ve lu
Insta ller
Min h
Min es
Whi stler
Whi rl
sco py
sco pus
Boo st
Ya man
Hel ene
SQ Lite
OK B
Gran ate
Chris tie
Chan dra
sy chosis
âĹ ģ
cien cy
thi l
Ele m
Ele onora
Peter son
At lus
Sy nago
Sy mantec
Sh ri
Pat rol
Sam my
RA H
RA IN
Val ery
XX I
clo sing
Lee la
Mer ced
Black well
Power ed
Power Shot
ð« Ĭ»
tho logy
spe cio
spe ech
inter est
inter action
inter mediate
Fla t
Fla mbo
Ken ya
Ken zo
Lan cashire
Stan ford
Life style
Pen nsylvania
Cent en
VO C
VO REAS
LP R
Alex ei
Sing ing
Bur g
B2 C
VE Y
publi que
lea sed
Tele vi
Tele pathy
Good man
GT 3
bra te
O2 O
O2 a2
fer t
Jean ne
LD L
West minster
Glo ck
Vol ley
234 A
star ting
Core y
use ful
Institu tion
Gui ded
Ze e
247 D
Prin temps
SN MP
BF 4
Pra tt
MU SA
Squ ad
áĢ Ĳ
ìĿ Ħ
CF D
mor ph
mor pha
AE K
AE SA
AE ON
Comic Walker
MT B
Home Pod
Direct 2D
fun ding
fun ctional
Em bedded
Hot Cha
Flo yd
Long horn
Epi k
à¹ Ĥ
pur na
Cra f
tre ss
Lang e
spi ra
temp sychosis
sho re
has bro
Poly dor
Out put
Sum mit
Rap star
Jen s
sig nifi
SHO P
Pala cio
Hor ner
Hor ses
cci o
teri na
Kan a
Bor d
Bor der
277 X
2A 6
Op tical
Ei leen
Gol ds
SG ML
Wat ts
Wat kins
bre gat
Cle an
á» ħ
á» Ľ
KO I
à¦ ¯
Bon us
Cli ff
Cli nical
Nico la
Ange lo
C6 H10
trans portation
Ham mond
cur vi
à½ ¢
à½ ¼
à½ ĺ
DT D
mark t
fea tures
áĥ Ľ
Acade mic
F4 F
PT I
ag ara
tr Ut
ERT Y
Christian ity
Cer ro
Sin clair
mit su
AH H
Qua y
Sal o
fla t
CH3 COO
End less
LG D
USA N
Communi st
God frey
gg ers
S2 N2
pra cti
Set tle
tech nic
OD BC
Pay ne
Eye Sight
some times
Cross Fire
Has tings
ìķ Ī
Mau re
coun ted
Vin ci
hoo k
MY M
806 B
ono v
Pass enger
Joe y
Dyna x
Gun ther
Bio graphy
Lar son
brea thing
Eric sson
hl berg
flo or
Miss ing
Augu sti
Augu stus
FL AG
FL ASH
Mas chi
Mas jid
Pas tel
ðĲŃ Ń
Spring s
Land s
tran sit
cla do
0x F
Ir ving
à® ¿
Port rait
Rang ers
Clas sical
TG F
Jeff erson
Kha led
By te
Sol dier
Common wea
Astro nauts
bird s
Lui gi
Loo king
Bun ker
ðª »º
Stephen s
Lam bert
ppe d
pos tures
Mod haus
Ker ber
Express way
Dragon s
Hard y
Intelli J
Rea der
Ea ster
Nat sume
á¸ «
cel lu
LX DE
wel come
FINAL E
ìļ ¸
NN RTI
gran d
dire ct
dire cted
Silver man
Fon t
Ring s
Henri k
Build root
pass enger
WP ATH
Jac que
vas cript
Clau dia
Res pawn
052 C
Dur ham
MOS FET
fle x
ìĦ ¸
hea vy
there fore
Siri on
Bei jing
Wit senhausen
Wave let
Opera ting
NY C
spo rium
INT RO
Cel eron
MED IA
MED LARS
Pur suit
bui ld
Deuts chen
kee per
dol ph
Snow man
Uta h
Wer ke
Wer fer
oc cu
pia zza
Bow l
Bow den
Tac tics
scien tific
Hop kins
Shot gun
Virgi l
Kam pung
Maxi mum
Rod chenkov
Sue z
Tang o
flow ers
cry stal
Gau mont
child ren
Chai r
bina ry
IZ AM
Llo bregat
Emer ald
offi cial
PAS GT
mili tary
Person s
Dual Shock
Elli s
OG LE
Slo va
Rich mond
JJ 20
Kal man
Ul rich
wri ter
digi ts
Plane tary
Ras mus
jour nals
tru st
thor ne
provi ded
Bam bino
fre qu
fre quency
ATC C
3900 PV
Roth schild
Quar ry
Bol onka
Hur st
M9 A1
Peri od
Sain ts
Twi ce
Xe on
Had ley
Vul ture
SEP v3
Kirk land
PSY CHO
object s
c2 c
every thing
Gue ss
Nei ll
ela ta
SEL ENE
Vocal oid
Butter fly
Dura torq
CF3 SO3
Invi sible
Nes bitt
NER V
Pt Se2
frac D
pf Sense
ë§ Į
Intro ducing
Mos ley
Administra tor
Whe at
lvi lle
electro nic
Cum berland
Mong o
Zin cke
onto logy
Manu al
elect ron
Aur ora
NV Me
Inno cence
Corne lius
CES U
Ses sions
Reco very
Sac red
Atta ck
CID G
TRI BE
á¿ ¶
Transi lien
Grow th
JE ALOUS
XR ATED
restri cted
NADP H
Sign s
Strai ts
Combina tor
phra se
Schwei z
PPT 2000
Isla mic
Blow fish
emp lo
econo my
invest ment
Sup port
Giba chan
Rubber Band
Deutsch land
vn Stat
Argen tina
Gonza lez
ð°¾ Ħ
Aber deen
Ira q
Kao hsiung
SDP 35
ZK6 105BEVG
fac turing
Ree ves
Mela yu
Cami lle
Kath ryn
CRO P
ëĵ ľ
fascia ta
ð¨¥ ĭ
LIT TLE
Thou ght
TGM 4
nap tic
Mexi co
BAND AI
Marve lous
Al2 O3
POW ER
DAN CE
Mand riva
Favo rite
Cly de
Ngu y
acade mic
dend ron
baba w
rep rene
resi dual
Constru ction
Consul tancy
Clip per
HYP ER
Cit rus
Anthro pology
Illustra ted
Feld man
asan as
jd k
Passi ve
Gastro dia
Catho lic
Satur day
Expan sion
Judi th
disco very
ð«ĺ ©
Volks wagen
Craw ford
vulga ris
Cis co
Qo S
ZC 45
ECMA Script
astro metry
Ether net
Htt p
Oue st
Sprin ter
Twen ty
morp ho
terrane an
STICK ER
Nether lands
Compani on
Consu mer
Interval Zero
NORN 9
LOVER S
TEDx Taichung
environ ment
BUR VEY
CIN ITY
Dwi ght
FAIR Y
íļ Į
hig her
Daman sara
Antio ch
SOUR CE
Quen tin
Verti go
Bald win
Whole sale
Phyllo scopus
PREMI UM
Ebo nics
Hous ing
TEST V
prana yama
Albre cht
Soyu z
Ricar do
portun ity
Vero nica
mbour g
Chancell or
Scotti sh
Dickin son
formosan us
Gn RH
GLa DOS
HIE I
Outs tanding
Pring le
Uryso hn
choo se
Indon esian
SECON D
DeSmu ME
Sedg wick
Cadilla c
Aljuni ed
MANI AC
Turis mo
Tiem po
Lincol n
Bartle tt
Barcelo na
SCAND AL
McEni ry
Granate 21
Flambo yant
trUt f8
Commonwea lth
JEALOUS Y
. _
0 301
1 E
1 T
1 TV
1 TB
2 150
2 1600
2 145
2 167
2 Sheet
4 2000
4 Sheet
5 X
5 g
5 109
5 354
6 B
6 F
6 174
7 E
7 K
7 127
8 B
9 E
9 S
9 mm
9 M3
A ch
A ye
A mu
A chi
A 53
A 51
A um
A mer
A AI
A ms
A van
A sti
A del
A mar
A xel
B H
B g
B 15
B IP
B IT
B las
B UT
B ret
B V1
B c5
C b
C lou
C 40
C AC
C CP
C line
C yn
C UP
C lair
C AMP
C rane
C Bee
D b
D eng
D du
D 30
D 34
D 99
D CO
D ON
D IP
D AL
D EP
D TE
D IR
D 301
D LD
D orn
D HL
D AKA
E Q
E lo
E MS
E dy
E os
E VE
E rich
E ach
F ad
F 3000
F ES
F uni
F ool
F NS
F DM
G Z
G ou
G uan
G lei
G IN
G hi
G OS
G 63
G um
G ER
G 03
G TS
G SL
G DM
G RA
G rp
G rena
G DH
H X
H AM
H one
H CN
H AV
H BM
H oot
H JK
I J
I k
I bu
I to
I TC
I RE
I BD
I chthyo
J 8
J AR
K D
K hai
K 48
K IN
K et
K one
K IV
K FC
K res
K rie
K 147
K Office
K 307
K POP
K 1625
K 1779
L B
L al
L AM
L AR
L ON
L CH
L ING
L MF
L ISA
M 30
M of
M 38
M 68
M um
M IS
M 1938
M ent
M CC
M 1903
M DP
M ood
M 689
M ARS
N B
N J
N en
N 95
N go
N EST
N SO
N TR
N NS
O A
O g
O de
O sa
O ry
O gi
O AS
O tis
O phi
O TP
O cci
O pus
O vis
O meg
P ui
P te
P AP
P les
P PS
P AK
P air
P JM
Q D
Q M
Q 10
Q 16
Q end
Q UE
Q b3
R s
R AS
R UR
S Z
S q
S x
S hao
S 13
S 25
S 100
S cen
S IC
S US
S cal
S int
S hat
S DA
S FM
S IDE
S m2
T si
T 10
T 50
T RE
T IA
T PP
T SC
T rom
T 129
T LP
T KK
T ars
T 2A
T KO
T FE
T wis
T AKE
U e
U da
U lu
U ne
U ST
U BS
U TE
U ral
U CL
U sed
U GA
V H
V X
V IN
V ST
V IC
V ent
V SO
V ara
V TT
V CS
W et
W PS
W MO
W BO
W op
W PT
W ARE
W AKER
W BSC
X ing
X 11
X 38
X 01
X SF
X eno
X treme
X Scale
Y 1
Y K
Y on
Y PG
Z D
Z I
Z or
Z EN
Z ent
Z 230
Z 216
Z 218
Z ach
Z 232
Z XC
a xi
a tus
a war
a sser
a mination
a lveo
b p
b ree
b ner
c r
c x
c ru
c ze
c kout
e 6
e chi
e do
e we
e lis
e ves
e MMC
e xis
f 6
f fo
f far
g P
g ru
g hen
g wick
g eria
h s
i 5
i Q
i ji
i um
i sit
j es
j son
k p
k r
k lub
l ders
m A
m pe
n 1
n z
n one
o ch
o ma
o ps
o ise
o cla
o strom
p ng
p fen
p tian
p pan
p tic
p ris
p ria
q an
r 8
r c
s chen
s sen
s cho
s tude
s creen
s pent
u lo
v r
v ra
v ve
v all
v eira
w ed
x 0
x 4
x 5
x en
x html
y ck
z m
z wei
z ard
Ã Ĩ
Ã İ
Å Ī
Å ĳ
Å ŀ
Ç İ
É ª
Ì ¥
Í ¡
Ó ĺ
× ¡
× ¢
× §
Ø ¡
Ø ¦
á Ĳ
ã ĩ
ð Ŀ
ĳ ľ
an da
an thro
sh ma
sh wa
sh kin
ji ca
ang ular
de te
de la
de au
de ville
de cla
de mand
de cision
de aux
shi ra
yu u
ou e
ou x
yi m
en ded
en coding
li O
li r
li ya
li chen
li dae
li ghts
li hood
ren tal
ren tial
un is
di men
di ns
di dae
he u
bu ng
bu ya
bu rst
er os
hu ke
hu ra
si mo
si as
si mp
si rostris
ge st
fu ture
ue h
chu set
bi er
zi g
fa bri
fa hr
ti r
ti sti
ti ques
ti gma
mi sh
mi ca
ta v
ta rt
ta dis
ta lity
qu us
20 A
20 90
20 65
20 55
20 54
20 52
20 73
20 93
ri ci
ri do
ri so
ri ft
ju ng
ju stice
le go
le gal
ci i
ci er
ci pi
ci ca
ci um
ci tizen
gu t
lu t
lu te
lu ca
du als
she v
tai na
mu ta
mu st
ru d
ru fi
hai r
zu s
lian a
ling a
ling uis
min ing
min es
ni r
ni ce
ni no
ni gs
bo a
bo la
bo na
bo ss
bo tt
te z
te ctive
la ting
ma ro
ma ll
ma gi
ma les
ma ble
ma lade
ba k
ba ya
ba lan
ba co
ba ttle
che mical
che mistry
men ko
men sis
su k
su cc
lan ding
lan um
lan dia
lan ders
mo a
mo c
mo lo
na x
na di
na le
na ki
na tus
ze t
han ds
chi k
ku m
lie st
lun ar
pu g
pu tation
10 400
cha rt
cha mp
can not
ran ta
se f
se en
se la
se as
se lla
se tte
se ek
ce ler
00 30
sha l
tan ts
12 GB
man ent
gen der
gen ys
po ro
po rus
re v
re set
song s
wa d
wa u
ha sh
ha da
ha gen
15 th
pan zer
sa ya
sa fe
sa les
sa ges
lang er
kan a
16 S
30 X
30 cm
25 60
25 66
25 41
25 1A
for ge
for ced
pa g
pa m
pa to
24 k
24 30
24 77
24 94
24 A1
21 30
21 st
23 90
23 96
28 60
28 52
28 800
zan o
in di
in es
in cre
in dependent
in jury
22 10
ar ing
ar te
ar gen
me ters
26 60
50 20
ï¼ «
ï¼ °
ï¼ ´
ï¼ ¶
29 K
29 60
29 38
ne yi
ne ck
ne lle
st ha
st rea
ra ve
ra mid
40 19
40 PPD
40 PPT2000
cu sto
60 km
al bi
co e
co i
co cha
co at
co nve
co efficient
fo l
fo lium
80 80
ãģ º
70 X
70 b
lo ts
lo gis
of i
of sky
90 B
90 75
ãĤ ¥
ãĤ ¾
tun es
ter e
ter re
ter minal
th resh
to la
to pe
to ries
45 67
45 66
48 000
ve sti
ga st
ga ff
ga sse
38 20
Ma cao
Ma ga
Ma tis
Ma vil
Ma til
pen sion
ll ner
IN CL
TC A
TC M
75 X
Co c
Co d
Co al
Co pper
ca ri
ca ria
be ating
65 000
32 KB
ST M
ST AND
33 70
In kle
In stance
In oue
ss ner
The me
vi ru
vi st
SE AS
Re st
Re lation
Re 465
Re vie
Re tail
Re solution
Re staurant
hi st
II PM
el m
Mi chi
Mi lli
58 50
300 5
300 mm
at ry
at ric
at titude
AT K
AT ER
AT EEZ
pe si
Li d
Li bert
ver ein
ver eign
Ro of
Ro we
Ro tem
is on
ho on
59 X
43 12
99 00
SA GA
ol y
ol di
ol ta
ry ona
Me mp
Me lio
nd on
400 3
Vi o
Vi tto
Vi llen
Vi ckers
Vi vid
Pa ci
Pa vi
Pa sar
Pa pers
amp li
NA K
NA 29
NA MI
NA DH
De mi
De al
De co
De mon
De cla
CD P
CD U
fi ra
ber s
ber man
Win ner
per cent
Sta tu
Sta tic
Sta ble
OS R
Wi es
Wi fe
Wi ley
as px
Mo e
Mo or
Mo ss
Mo ving
Mo bility
Mo reno
98 50
You Gov
no i
no don
La rus
CO UP
CO ZMO
gi ll
gi us
gi ate
Jo celyn
Le p
Le ver
Le eroy
AR B
Ga li
Ga ya
Da w
Da um
Pro ctor
Pro py
Pro tec
Te lescope
Ja bber
us o
Di na
Di on
Di st
Di ve
Di va
Di ther
Di ary
Di cty
Di dier
Di vine
Di saster
con tro
con ference
con cept
con ditional
Fi st
Fi at
Fi ona
Si S
Si mula
Si me
Si ro
Si am
Si ck
Si ster
Si gni
Si gur
Windows Azure
87 60
Mar iano
Mar kus
Mar riage
Ne e
Ne gro
Ra ya
Ra um
Ra pha
ki ni
Se ren
Se ver
Be li
Be ers
IS W
IS IR
IS C2
IS DN
Ca 2
Ca ran
Ca gaya
va lier
Al ba
Al cy
Al bur
Al ert
ED 75
ED BA
AP X
To mi
To by
To ggle
To bias
To nale
Ba ta
Ba pti
Po i
Po Lin
Po land
Po py
Po wers
Lo ri
Lo re
Lo mont
Lo mbar
sta g
sta lt
sta ll
sta lli
sta tes
Bo B
Bo T
Bo li
Bo la
Bo mba
JR N
Fa re
Fa us
ID EX
ID EA
Sa hi
Sa ver
Sa gi
Sa lus
MA DS
Na 2
Na dia
Na 2S
So p
So ar
So cks
com men
com ple
com position
Ho le
Ho ltz
Ho bby
so re
so lar
so nic
Hi lle
Hi tch
Hi ckey
Do ge
Do mestic
Ri tsu
Ki X
Ki e
Ha vok
AN Z
Com para
Com mun
Su zy
Ti x
Ti bet
Ni agara
HD AY
Uni que
pp b
Cha mpa
We d
SS K
IT AR
No ise
go d
go vern
go tten
250 4
250 km
91 W
Pi na
Pi tt
Pi cture
Pi kazo
Gi ao
Gi gan
Gi ft
Gi thub
PS N
by r
by ter
An hui
An no
An ly
An cient
AS HR
Play ground
SM TM
ko on
Con d
lla s
lla rs
Ta la
Ta se
Ta co
Ta blo
Ta dich
Lin es
Lin den
mp 3
mp y
He p
He ck
He lls
He lio
He lico
Ka u
Ka zi
Ka rin
ET ING
170 cm
EC G
ali d
AL P
AL PHA
EP 2
Car ne
Car ds
Car pet
Car rano
Bu d
Bu te
Bu ddy
HK RIA
ven s
ven ture
ven tures
MP Q
MP 36
AI X
ds p3
pro li
pro ba
pro cedure
En tity
RO SE
Ste ward
Go es
Go tta
RE BOOT
Wa pedia
For s
den tal
âĪ Ģ
FC I
vo d
vo or
dia gram
dia meter
My r
CN C
Au g
Au stria
900 1
CH P
CH S
TO ON
AV A
tes ti
MO C
my B
Man us
And rey
AG O
Ci e
Ci te
Ci tadis
MI G
MI KU
MI RAE
SO E
LE AP
Sch wy
AD M
IG S
cy on
ME ETING
CR C
CR F
CR TC
CR OSS
CR 2032
CR AFT
ul k
3D M
3D O
3D CG
je e
IA E
au lt
09 II
Lu ther
Lu cia
Fe ver
Fe minist
ja e
BM X
Ru ral
Ru pert
06 90
DR IVE
New port
DA B
DA F
Hu g
Hu ge
Hu rd
Hu ff
Hu stle
125 cc
Sho pee
HO LD
MC 1R
San tana
San jay
NG TS
gy ne
pri ce
ward s
Cu 2
Cor ri
Per fe
Bar n
Bar th
Bar nett
World Cat
à¤ ·
à¤ ľ
Har lan
Har der
Har ald
Stu mp
Stu pid
LL Y
LL OW
RI R
Ju lien
RT HK
tri fasciata
EX TASY
mon tan
mon th
Je a
Je ws
rs k
DO E
DO PA
Cou p
Mon d
Mon ter
Mon day
Mon tre
Pre sidential
ler a
GP 39
GP ON
GP WS
Davi son
sto w
sto red
Ed mun
Sha y
LO OK
Tri ni
Tri gger
Ad reno
Ad mira
Sou p
EE K
EE MO
Du bai
Du st
Du ff
Du blin
ces ses
PP G
PP TC
val ry
por tax
Che f
Nor a
pre y
ring e
As pi
As per
As surance
As sist
gue ss
450 1
Ber e
tra p
Game master
220 V
Can vas
Gra d
Gra pe
Gra phic
SH AFT
Or bital
Or phan
Team s
len s
UR NS
TS R
PO E
ex er
ex ha
Mc Ca
Mc Cor
SL IB
SL WT
ãĦ ¥
ãĦ Į
She ffi
Gu er
David son
Ac cu
Ac count
Ac credi
Cen tu
Eu ry
Eu reka
cho y
Char li
Char ter
Char ts
Un plu
tro pic
Ban cara
tis che
Mor k
Mor se
qui r
qui st
qui sition
ac tually
Tra k
Tra go
GO TO
GO LD
dis tance
dis lav
dis cip
GN I
GN TA
Show nu
VA AC
mar ck
Ang ry
AF L
DD H
210 000
Clu ster
OR IG
OR F4
Cy m
Cy press
Cy ril
UP I
UP N
Spe cification
War m
zo ni
Ab hi
Universi dad
Games com
Bra hma
IR Gs
NT P
Por tal
Hen ning
MG 74
phi s
phi lo
phi lic
HT PC
Pan ama
it self
MB P
AO L
im ba
Don ovan
H2 O2
1400 1
Han k
TP M
Ali ster
UC loud
hy brid
El lie
Min olta
Ya k
Hy dra
IU M
High land
Tai t
ast rome
Chan ce
sy m
sy lla
ot ta
ot to
Shi re
Shi elds
thi oni
Peter pan
Jan a
Sur round
CG S
DF A
Pla ying
Ye o
Ye ung
Tech ni
RA W
RA Y
Lou vain
phy ta
Hol m
Hol den
Hol low
M2 A1
Mer cer
Black burn
Black pink
Wil low
EM Y
Space Ship
gar de
Dire cTV
Ter race
spe c
inter pre
Fla k
Fla vors
Dar ling
Life time
Cam pan
Dream ers
Fan dom
Pen n
Pen ta
Pen cil
Spi ca
Cla do
bal loon
PM F
dra le
dra ft
tta ra
mis m
Bur ke
Bur ton
SF 31
Fer gus
Am bassador
American s
ste el
Tele graph
CT X
CT 270
BB W
BB Y
BB 84
Cal le
Cal led
bra cket
Video LAN
pie ce
PR s
Af ro
Tur ing
vision ing
FF Y
Fle ming
sin ha
ViuTV six
Digi tas
Sma randa
Ag gregate
Vol gren
sys te
Met ra
Ran ch
Ran king
Green wood
Lau rie
Lau rence
ona te
Far mer
Gui do
Gui nea
Yu en
Ze o
bar bus
Prin ciples
Er ne
gna c
jo in
Pra gue
off set
MU CH
Ren o
PH Y
Trans for
Trans fer
Trans formation
Men del
bro oke
Pop Corn
oper 1
oper ating
oper ations
áĢ ¸
áĢ Ļ
Cri sis
DDR 4
stan d
up per
CF U
AE COM
sur vey
Mini mi
720 p
Que s
MT el
MT BF
M4 A3
Qui ett
Rai ls
Rai nes
fun ded
fun ctions
Em manuel
FR P
Long man
Gold medalist
plo itation
PK X
à¹ Ħ
á¹ ¯
pur pose
GR B
à¥ Ĥ
def ine
Regi nald
Gam ers
Down s
Dri ft
pho sphate
Mat plotlib
Ana ta
Ado l
2700 G
Des cription
ena y
TM Y2
Sum mary
Tom kins
var iant
Cap ture
Cap ella
PID S
Za wiya
Del la
Jen nings
Kin dle
VV T
Hor st
Hor ney
Auto desk
Bran dy
CU Z
rei ch
Engine er
Cas ta
Ei shin
SG I
KO Z
à¦ ¨
à¦ °
à¦ ¾
à¦ ķ
Publi sher
Cli ck
Im ma
Im mor
STA NAG
Nico lae
Book Live
blo cks
Pier ce
BBS RAM
tas k
4G 32
4G 63
TW O
Tre k
TOP 1
TOP 20
Ham za
Fin ch
à½ ¦
ence pha
Tro t
N2 O
áĥ Ŀ
IB RA
Fre quency
TH INK
Cry pto
dri ven
Premi ere
TN X
Der ry
Der yck
sche mas
Compu tational
MON KEY
Oli ve
Oli go
Sal le
bon ne
USA F
plan et
lina ry
Thun ar
gg les
Memo ir
Wiki a
Point man
HB V
Pet r
Set Texture
Metro link
Fal ls
JU JU
Archi ves
Town send
Bru sh
Key board
Stra uss
Cross ing
coun ty
512 GB
hard t
ALL Y
Exp ression
Of fen
pter y
tiona tion
Gun ung
Gun nar
NR B
Bio tech
eu ve
M1A1 HA
CI RC
TI SAX
open ing
bes 8
Fried man
Sar ocla
ob tained
Draw 2Sheet
Draw 4Sheet
Dol phin
Mas k
fini te
Spot light
pper s
Light ning
Are va
Kat rina
Mad den
Mad Life
Hei m
Sti cker
Moo dy
Wel lin
Syn th
âĤ ĥ
Mei ster
phe us
Than ks
AW ARD
ext re
chy roll
count ries
Matthe ws
Bun des
NEX ON
Some times
Fred dy
Test Widget
Kon stan
Kon rad
lyn n
514 A
CJ K
Inv er
True HD
wy ddan
Bre wer
Ker n
IRT F
M6 A3
apo lis
apo ns
Machi nes
Neu ral
produ ce
âĻ ª
mod 2
Basic s
Disco ver
ìļ ´
Carl son
P4 S3
P4 S7
gran di
super cilio
Sau er
Sau ce
Brea king
Flow Back
Nar cis
Ron nie
ìĹ ¬
ìĹ Ń
Ing alls
K11 77
dica ted
pass wd
BY U
prin ce
Anime lo
Anime Japan
SHOW ROOM
Ap ly
CAP TCHA
Fly er
Fly me
leu co
follow ed
ë° ĺ
Cata log
Histo ire
MIT RAC
âģ »
âģ Ħ
ìĦ Ŀ
Mid way
Kra ft
cap ture
Here ford
Ster eo
Trai ns
Cel lu
Hub bard
forman s
pas sed
Woo dy
Emi lie
mun di
Sie vey
serva tions
Organi sation
F6 F
FG 00
deri vative
Maxi milian
Mana wyddan
mme tric
path ping
Mir za
Mira ge
Mira cle
Lock heed
Invest ments
PU FFY
PX I
varia bles
EB RC
Pres byter
human s
cir cle
cir cuit
Array List
Alber ta
Ship ping
Valen tin
Valen tino
Ris k
diffe rence
mid night
Cole gio
parti cipa
parti cipan
Schu l
Tes la
Tes ting
4x 100m
Strong er
2S 19
Pai ge
alloca te
Sym bian
Eva luation
Plu gins
Zu cker
á¼ °
Rich ter
Experi ment
JJ CC
Pb R
Wha tever
ìĺ ģ
recor ding
dyna sty
jour ney
enter ed
four th
thor pe
Sele ct
Sala zar
Chat GPT
PER FECT
Scor ched
VIE W
Scha ff
cl one
Compa ct
Alexand re
Certifi cation
Roo ts
rup tion
colle ction
Colum bus
Deli very
Table t
Stefan o
ðł µ
Rive st
proto type
effe cts
flu ence
tari at
Conv ention
Proper ties
Asse ssment
EMU 3000
LI ME
trai ning
coin s
capi tal
sock fd
Ato m
CSP N
Easy Language
Gue st
clas sic
DAY 6
Rosen berg
Julian a
ð«Ł ¶
PAD O
nn chen
fur ther
maxi ma
Dau ghter
Tell tale
Popu lar
Popu lation
frac tionation
Grea ter
Wy lie
Moha mad
OPEN ING
Amp hi
Foo ds
Scan dina
TX N
tak fir
near ly
Abi gail
Hindu tva
Lor raine
Ryu JIT
asso ciation
deli very
atta ck
Mea dow
Think r
6K H3
Joo E
rii dae
tele vision
broad cast
STOR M
Desi gna
Moto GP
Semi conductor
Sac cha
Atta ckers
WEB TOON
Petro leum
Effe cts
JW ST
Pris ma
Plas ma
Plas mo
ìľ ł
Mathema tical
accu racy
gorith ms
EAS Y
Grow ing
Tum bl
restri al
Thera py
Strai t
Serge ant
current ly
Ming a
invest ors
Silv io
vari ety
ANGE L
HELL O
quarter final
dere lla
bul bs
stei ne
Coco a
Mechani cs
9860 G
Teach ing
experi ence
Bent on
FEC A
Sw ine
Sof ia
TAP E
kine tics
ìĥ ģ
STE AM
Dele ter
Gab bana
MAO I
Tap Tap
BEA UT
Massa chuset
Ging a
ow ned
mien to
arg v
Mathi eu
belie ve
statis tical
Tribun e
Tribun al
Spect ral
Investi gation
Anan d
Hoff man
Marve ll
Bag gins
capsu le
Dinosa urs
Zimmer man
Aman da
Pers ian
moun tain
Ther mo
holo live
Galli era
Gentle man
Ako nadi
Krist en
Shei kh
deuts che
Winds or
Evang eli
Aqui la
Egy ptian
IY I
PPC 1400
names pace
Colla boration
Nep tune
Hots pur
Griffi ths
Boun ce
Drea mus
HON IA
MARK ET
NIA ID
ë¶ Ģ
melan in
Fina lly
Doming o
plat form
VOG UE
drau lic
Groo vy
Continu ous
Compag nie
Ord nance
Spani sh
mong oli
moder n
sear ches
Dok 2
Bulle tin
SD45 X
Cyg nus
FORE VER
establi shed
initiali zer
Pharmaceutical s
Appe al
Glie se
Sni per
leed si
teach ing
metho ds
Colli der
CDG VAL
Componen ts
Pipe Wire
Pega sus
Acti vision
morphi sm
purpu reus
wissenschaft en
Gwy dion
Glad ys
Xero x
ili sin
Resi dence
Silen ce
nten ance
Contact less
Bram well
Matthi as
origina lly
Rhian non
Confede rate
involve ment
brou ght
kris tinae
Vicen te
concentra tion
ASSEM BLE
Kaf ka
Buchan an
Ciu dad
Vapor fly
BIRT HDAY
ð«ŀ Ĺ
Gertru de
Magda lena
Lenna rt
Kangar oo
Bartholo me
GARD EN
HVC s
Igni te
NMI XX
SCHO OL
Vampi re
droung os
caten in
Indepen dence
Lafa yette
Schwart z
Stutt gart
Jubile e
Dunge on
Brigi tte
McLa ren
Girlfri end
Cylindro sporium
Yaman in
Elem Type
Volley ball
0xF Fu
frequ ently
Cyn thia
CBee bies
Grp 78
Omeg A
Qend resa
Tars ki
ZXC 21
awar ded
ostrom may
40PPD 2500
Memp his
Melio la
Villen euve
COUP LE
Cagaya ke
Alcy one
ASHR AE
Admira lty
Accredi tation
astrome tric
Smaranda che
Sarocla dium
Massachuset ts
0 120
0 900
0 240
1 EV
2 U
2 X
2 m
2 mm
2 113
2 156
2 WD
3 F
3 X
3 1000
3 140
3 142
4 chan
4 267
5 F
5 150
6 250
6 GB
7 B
7 x
7 2000
8 th
9 B
9 th
A cha
A sha
A gen
A 14
A 23
A 22
A cu
A 35
A 500
A cro
A BO
A AD
A UT
A mani
A mbro
A ksys
B l
B EN
B IM
B HP
B ATT
B oundary
C 19
C lang
C 22
C 26
C 56
C ed
C EP
C IF
C ler
C GO
C MB
C FO
C max
D sh
D 12
D 60
D 47
D ER
D IV
D 112
D ja
D DO
D ICE
D BU
D fb
D etro
D MPK
D oodle
E K
E b
E la
E 10
E nv
E 75
E 500
E ss
E ly
E ld
E 81
E MV
E AL
E 217
E rick
E mmy
E ras
E OKA
E gge
E cole
E manuel
F c
F 45
F 46
F et
F FC
F LO
F 5G
F eni
F IPS
G H
G l
G wa
G 44
G and
G EC
G AI
G CN
G end
G AD
G LO
G AO
G TP
G off
G DT
G LAY
H J
H W
H s
H 19
H 24
H 22
H ST
H 160
H UN
H int
H LA
H UD
I x
I shi
I nu
I ber
I gle
I HM
I EPI
J 0
J ha
J 2000
J PC
J eri
J CB
J NN
K he
K ling
K 30
K hun
K ne
K 70
K 75
K 32
K ok
K ron
K ham
K 401
K OH
K VM
K ors
K AE
K pop
K ono
K yung
K endy
K reis
L c
L ha
L ly
L CO
L ER
L DA
L RT
L esta
L IPS
L ONG
L ITE
M 43
M SA
M MA
M 1918
M FC
M TP
M 256
M 310
M andy
M pc
M UNI
M MEA
N ing
N ga
N ST
N PN
N PD
N MT
N ATION
N DI
N REM
N c6
N DAA
O 1
O U
O t
O ni
O to
O lle
O cho
O ste
O leg
O lek
P f
P li
P FC
P TA
P IM
P ray
P EM
P threads
Q 7
Q A
Q Y
Q uo
Q EW
Q BZ
R ha
R 100
R CS
R KP
R PL
R LC
R PF
R KB
R IVER
R AVN
S ze
S 11
S DS
S FC
S ent
S RC
S BB
S cent
S var
S cene
S HELL
S leep
S pain
T 14
T SA
T 88
T ad
T SS
T eri
T ron
T 118
T uni
T RS
T ory
T UR
T PV
T GA
T URN
U 3
U u
U zi
U ri
U la
U ber
U HD
U EC
U sti
U ML
U mar
U DE
U GC
U lys
U TRAN
V et
V SC
V ac
V FAT
V 342
V XI
W U
W 12
W nd
W HI
W IND
W ILD
W rath
X en
X DR
X VII
X FR
X EB
X AML
Y or
Y et
Y ur
Y 2K
Z Y
Z h
Z DM
Z EDE
a 5
a j
a gen
a ver
a pha
a red
a ffe
b ler
b rew
b oundary
c f
c run
c ris
c cia
c zy
c tical
d F
d da
d ru
e ff
e yes
f c
f j
f n
f ellow
f ruit
g ya
g gi
g rea
g ary
g ments
h 1
h ri
h ora
h off
i X
i ya
i ka
i 32
i ssue
i Homo
i ssues
j 2
j r
j jar
k n
k ya
k kai
k lo
k Pa
k reu
l ui
l lie
l son
l liant
m M
m n
m be
n M
o 1
o y
o se
o vo
o rie
o stro
o cto
o mics
o glo
o protein
o vich
o micron
p se
p ly
p Net
p here
r gen
r 16
s d
s f
s ian
s mi
s cri
s par
s pon
s crip
t ts
t wit
t rum
t cp
u b
u man
u ard
u ps
v 5
v ei
v ora
v eil
v Card
x l
y nos
z n
z os
z nia
£ ¾
¨ ¼
Ã ¾
Ã ĵ
Ã ļ
Ä ¾
Ç Ķ
É Ĺ
Ê Ĭ
Ê Ĵ
Ë Ī
Ë ŀ
Î Ĺ
Î Ļ
Î ŀ
Ï ¸
Ð ©
Ð ª
Ð ®
Ñ ĺ
Ò º
Ó ©
Ô ±
Õ °
Õ ½
â »
ä Ń
ê ¶
ë ¸
ë Ķ
ì ´
í Ŀ
ð ĵ
ð ĳľ
ĭ Ĺ
Ĵ ¹
ĸ Ļ
an na
an ut
sh ka
sh man
sh on
sh ko
ji san
de an
de ka
de ne
de vil
de finition
ei t
ei ni
ei lle
shi o
yu ki
yi sh
en v
en velo
ch ian
ch ron
ch op
ch ord
uo ri
li nal
li bri
li tzer
li minary
ing en
nian a
di k
di ve
di as
di ction
di ff
di jk
he rst
he dge
he ller
bu ch
bu dd
er k
er ts
da vi
da llah
hu da
si da
si ri
si or
si mula
si nia
si lon
si nus
ge ar
ge dy
ke sh
ke ta
ke to
ke ts
bi shi
bi ta
bi lt
zi lian
bei ts
fa y
fa cto
ti po
ti be
ti mer
ti les
ti ble
ti ation
ti ous
ti dings
mi p
mi cha
mi do
ta c
ta w
ta xi
ta do
ta lly
ta kes
ta mento
qu cha
20 58
20 41
20 85
20 74
20 71
20 386
ri ll
ri pe
ri os
ri fle
ju mper
ju mping
le ben
le man
le ga
le gs
le arn
ci ner
ci vil
dui no
lu p
dan t
dan te
du st
she e
tai led
mu zie
ya a
ru t
ru bi
zu ng
zu mab
lai man
ban o
ban daran
lian o
ling ham
min er
min ds
min ia
pi ni
pi one
ni ma
ni ck
ni tz
ni zation
ni gli
bo dies
bo lic
te u
te cture
te eg
la la
la ria
la tti
ma st
ma ga
ma yo
ma tter
ma kes
ma tica
ma binogi
ba shi
ba re
ba sa
ba cked
sai s
san dra
che f
che lor
su su
su pp
su red
su gar
su med
su gges
lan de
lan te
mo o
mo le
mo ly
mo rt
mo nic
mo ved
mo sus
mo sphere
ze m
ze y
wai n
lin ski
bai t
ku ri
ku lam
ku dain
ting en
lie b
gui tar
pu b
pu te
pu re
pu ts
pu rs
10 m
10 km
10 cm
cha mber
se k
se m
se lin
se ct
se ls
se lves
ce us
ce lla
ce leb
chan ce
00 60
00 UTC
00 214
gan s
sha ft
sha dow
tan y
18 O
18 W
ka li
ka mi
12 km
man te
man tic
long int
tang ulus
chen ko
gen Mod
que bus
11 F
11 600
po e
po w
po cket
po phy
po rium
re za
re main
re gia
re duction
re duce
re presentation
re ported
wa ta
ha v
ha lle
15 W
pan o
pan els
sa li
sa ri
sa la
sa ur
sa ys
sa fari
sa urs
lang e
âĢ Ĳ
âĢ ŀ
17 mm
on ne
14 C
14 K
14 V
30 21
30 50
30 th
30 45
30 33
30 km
lou sy
gei df
bin t
25 80
25 th
25 37
25 61
for ces
pa da
pa ges
pa tti
pa pers
mou d
24 60
24 80
24 01
23 000
28 000
28 3750
in fo
in et
in ner
in side
in fla
22 M
22 30
22 66
ar man
ar gs
ar tery
me dian
me chan
me ll
me tt
me so
me lla
26 62
26 03
50 M
50 34
50 km
27 60
nu r
29 80
za c
za ffar
lve d
ne h
ro bu
ro bo
ro of
ro tation
ro ckets
ro stratus
ra b
ra x
ra ta
ra ma
ra ble
40 20
40 40
40 80
40 65
40 km
rou s
cu um
cu ria
cu rus
60 K
60 mm
al bo
al gorithm
100 G
100 K
31 20
co x
co li
co lli
co ach
fo lius
80 48
80 UD
ãģ ±
ãģ ŀ
35 SP
70 mm
lo p
lo ni
lo mb
lo it
lo saurus
th it
th row
th ors
to pic
to oth
to ile
to ols
45 GP
48 78
ve c
ve j
ga g
ga be
36 10
36 40
38 70
38 66
38 D8
37 66
Ma le
Ma ter
Ma cy
Ma rin
Ma dra
Ma bel
Ma xis
do ch
do ni
do ll
do vi
do mini
34 50
34 60
34 90
75 mm
Co at
Co ali
Co pto
Co Vision
Co tton
Co imba
46 97
ca y
ca sa
ca bin
ca the
ca tive
ca tch
ca tho
ca vity
39 20
39 60
be come
be yond
32 20
ST IC
ST RO
ST REAM
UTC 12
33 000
In cor
In mar
In stan
In stin
In som
64 KB
ss ler
The ron
vi g
vi k
vi li
vi le
vi ridae
SE COM
SE LEX
55 000
55 55
55 83
55 mm
55 nm
Re la
Re su
Re za
Re con
Re gis
Re sident
Re lations
Re duce
Re porter
hi ni
hi ppo
II S
II HF
el les
68 14
et ten
oo k
oo oo
Mi hai
Mi lo
Mi thra
300 2
300 6
at re
at temp
AT AC
AT RE
AT EL
pe do
pe dium
Li en
Li ma
Li me
Li tt
Li SH
Li bra
Li tera
ver ty
ver tical
Ro que
Ro be
Ro tary
Ro tara
Ro chester
is ch
run i
ho lt
43 X
66 000
SA SU
SA FE
ct OS
41 A
88 A
TV 3
TV M
Me w
Me ad
Me gal
400 1
Vi t
Vi ll
Pa v
Pa les
Pa ste
Pa rish
Pa dilla
NA C
NA ME
NA NCE
De mand
De lica
De cision
De kker
De tective
fi de
fi li
fi elds
Win ka
per e
per o
Sta d
OS L
Wi d
Wi g
Wi m
Wi cked
Wi llard
Wi ckr
ï½ ¤
BC S
as tal
Mo t
Mo ED
Mo lecular
no ted
no ise
no ides
La x
La un
La be
La kes
La pua
CO VER
CO PPA
gi es
gi ves
Jo shi
Jo hor
Le h
Le m
Le ben
Le ar
Le eds
AM USE
Ga ri
Ga ma
Da h
Da ma
Da re
Da mon
Da lton
Da vy
Pro 2
Pro s
Pro te
Pro ven
Pro file
Pro spect
Ja g
Ja ques
Di f
Di ff
con n
con tains
um laut
Si mo
Si tes
Mar lin
Mar keting
rd y
Ne mo
Ne em
Ra k
Ra cco
Ra lik
Ra diation
ki l
Se ma
Se CN
Se ctions
Se quo
Se reno
Be 2
Be we
Be ans
ad ju
ad dition
ad get
72 A
74 A
Ca ge
Ca pa
Ca ctus
Ca det
Ca lvo
va da
va ti
va ux
Ar med
Ar dea
Ar tificial
Ar duino
Al bin
Al so
Al onso
Al gorithm
ED NRB
AP E
AP DS
To ma
Ba sh
Ba da
IC RA
Po po
Po on
Po et
Po inter
Lo i
Lo th
Lo ss
Lo is
sta sis
Bo e
Bo g
Bo er
Bo ll
Bo Bo
Fa w
Fa ci
ID L
Bi P
160 cm
97 70
Sa j
Sa ri
Sa ul
Sa lis
Sa cra
Sa mad
MA LL
nen t
Na N
Na e
Na der
Na tiona
So la
So to
So ho
So Fi
com prehen
Ho e
Ho m
Ho lt
Ho ste
Ho bart
St reaming
St einer
St G44
Tu as
fe y
fe de
so on
so ap
so cio
so ckets
Hi lton
Do b
Do min
Do or
Do ll
Do do
Do ria
Do dd
Do ors
Do Daum
Ri f
Ri vi
Ri go
Ri ptide
Ki na
Ha b
Ha ji
Ha ar
Ha ss
Ha ut
Ha dad
Ha shim
AN OTHER
AN IMATION
Com bo
Su pper
Su laiman
Ti e
Ti to
Mu d
Mu ang
Mu si
Mu rat
Mu jica
Mu zaffar
Ni le
Ni jisan
pp et
Cha ri
We dge
SS O
SS 40
IT TF
No wa
No vi
700 3
ght on
250 1
250 2
lli m
ris ing
Pi co
Pi per
Gi a
Gi na
Gi llis
Gi fford
An ny
An nals
An selin
PC L
PC N
PC CW
AS N
AS OS
AS IAN
gra ve
gra ss
ko p
ko me
Con way
Con sig
Con crete
Con cepts
Ch or
Ch ryso
Ge os
Par r
Par na
id s
Ta k
Ta kara
Lin o
Lin deg
He w
He lve
He be
Ka p
Ka mal
Ka plan
Ka rel
à¸ į
à¸ Ĵ
EC A
EC C
EC W
MS X
MS PD
MS CI
ali ve
ali gna
ph ro
ph ono
ph thal
Car dio
Bu ch
Bu cking
HK G
HK MA
we g
we hr
ven ess
Inter nal
Inter view
Inter scope
Inter mediate
cro wd
MP PE
AI AD
Pe li
Pe ck
pro j
pro of
pro ved
pro gres
En han
En zo
RO C
cou rage
Ste a
Ste yr
Go ku
Go re
RE SU
Wa gama
Wa vve
For k
For ty
For tis
For gotten
lor nis
CP E
CP T
UN K
UN CLOS
âĪ ©
âĪ Ĩ
vo y
vo li
vo ir
our s
Au berge
Ex pert
Ex ynos
900 2
900 X
900 00
ther ing
CH E
CH F
CH IN
CH UM
CH ANGE
TA BLE
TO MOR
MO U
MO BA
my Shared
eri c
eri o
eri tha
Man ju
Man ny
Man tle
PlayStation 2
Chi ang
CC R
And ro
dio nalis
AG N
Ci trix
SO ME
LE GO
BO O
BO MB
BO NAMANA
IG C
wer n
ME BOL
ul en
je k
je wel
au reus
GB H
van te
TE 120
TE num
Lu v
Lu ft
BD A
BD L
NC A
NC SC
Pri m
350 3
350 4
des tina
des pite
ja k
ES C
ES D
Ru dy
Ru sso
Ru therford
res sed
06 60
op lan
DR 28
Open VPN
Open Shot
HO 2
HO O
HO W
MC L
San der
San cti
cor relation
NG MC
Ke ling
Ke mp
Ke gl
clu sion
clu sive
Cu I
Fran ken
One Note
07 13
Cor so
Cor nish
Cor rect
Per bandaran
Bar a
Bar s
World Wide
App ro
Ko t
Ko w
Ko eni
Ko nica
à¤ Ł
à¤ Ń
NO M
NO D32
LL P
109 E
DP I
Ju ry
Ser ve
Ser gio
RT T
tri p
SP L
SP M
sti ska
mon te
ML A
ML D
uni ty
DO GE
Pu ng
Pu ll
Pu litzer
Cou pe
Mon k
Mon de
04 30
Pre sso
Pre fect
Pre liminary
03 30
GP 35
GP GPU
del lo
ara do
back ward
Sha le
Sha me
Sha der
LO EN
ten nis
BE WAVE
Ad voca
Sou sa
Du ro
Du bois
PP AR
por n
por te
cm d
Che z
Dan cer
Dan ie
MD 2
Nor folk
Her tz
pre ce
As sa
As pen
As sets
As sad
As sistance
As pNet
tel net
450 8
Ber t
Ber na
Ber tran
Ai mer
cer y
cer as
Vo lo
Vo lition
tra k
CL DR
Can ter
IL CE
SH H
SH ARP
Or dinan
Or dinary
Red fin
PG W
TR AC
TR IP
Team A
len oph
color s
Gen era
Ty r
TS N
ex r
Mc N
Mc Coy
Mc Alister
ãĦ ¢
ãĦ Ĳ
She l
Gu ng
Gu ys
Gu cci
Gu erra
Gu pta
Ac cen
Ac fun
Ac cident
ham mer
cho ice
Char ming
Un known
Un toucha
tro pis
sso m
tis ing
tis sima
Mor ton
lly wood
meri dionalis
Tra ce
129 A
GO TCH
Sto cking
dis order
Qu ery
NF S
Ver e
Ver ve
Ver dana
Xbox 360
CS F
Ang mar
Va la
Va con
650 9
NS U
OR Y
mb ra
win dows
Cy c
Ku ma
Ku ba
Ce ss
Ce tio
Ce lebration
AB R
AB U
Eng adget
Spe cta
Ab dallah
Ani m
Bra tis
Bra zilian
IR L
Por no
MG 3
PV P
ns ki
Dra per
Dra ft
Pan cha
Pan ther
Pan doc
Pan zers
Sun d
FM F
AO C
DE A
DE EN
Don t
Don og
Don nell
Air play
175 cm
Web 3
Web Kit
Web VTT
H2 PO4
228 1
Han sen
TP BL
TP DO
330 1
UC MP
hy d
Ve gas
sau ro
bri o
El der
Min u
Min ne
Whi s
sp ho
sp lit
Ya w
SQ S
OK C
sy l
Hou gh
ot r
ot ti
THE ATRE
Cro a
Cro ok
DM 11
BI O
Sy no
Wal sh
Pat ti
Tech nica
YO HO
IE A
Br 3
Val lis
phy lo
phy lla
phy sics
CA 6
XX L
par ticle
EF I
EF 14
sor ian
M2 A2
Park way
Mer lin
Mer kur
Mer tens
gar ding
STAR CHILD
Jack y
Dire ction
Gar ner
Ter minus
spe cta
Fla m
Fla me
Ken yu
Dar lin
Fan xy
Sen na
Time less
Pen tato
Spi t
VO iX
A2 K
IO NA
Street s
bili tation
bili ties
ak h
bal lo
if era
Tal sorian
Soci o
Soci ology
tta wa
Art X
tha la
tha ler
Am ong
Am trak
cra ter
NE L
Ama ran
PE SA
ste am
turn s
stro yer
stro phic
Wo w
Wo znia
Rock in
Cl O4
play off
PN P
Rou gh
CT F
Cal ling
Cal der
Cal endar
bra chy
fer n
PR Tase
Pad ma
Gala ctic
460 1
Ten nes
Act s
âĸ ·
Richard s
FF G
FF FF
Kar ao
Kar ma
WS IS
tar cti
Sky lake
Zi g
ICO M
162 cm
VR V
CM 4
CM N
390 3
tia ting
173 cm
EA SA
Gui l
Ze phy
Prin ciple
Er mene
jo b
jo int
jo ined
Pra e
VM BO
PD TC
PD MS
Scien tists
PH B
Pop pen
Bel erian
oper 2
áĢ ¬
áĢ ħ
Lon Talk
ab s
up date
tto re
sub type
sub sequ
Mag no
AE GIS
sur rection
184 v
Direct Draw
Bal lo
M4 M
Rai se
WA APA
ONE Y
fun c
ssi um
light ning
Master card
Sp lit
Flo or
Flo at
Long i
dor cas
pur chase
Cra ft
DB MS
GR P
GR U
âĳ §
âĳ ¨
def ined
299 X
cs m
EV ENT
Gam ma
Digital minds
FAT 12
para si
Ana stasia
UM F
TM Y
ise au
Del phi
Jen son
sig ning
Chro nic
teri zed
ACT H
ACT ION
Bran wen
Bran ds
Your self
Rei lly
C2 O4
Bou lenoph
Hal lo
app lied
Cle m
Ur qu
Moon light
Bon n
Cli nic
Cli max
Cli fford
UL B
Mou lin
Mal m
Mal o
tas n
fri ends
fri cative
Gal game
poli tical
CON MEBOL
DI AM
ap pend
Medi care
Fin ley
Fin nish
Ly ce
ctive ly
tti r
Ara tasn
DT 15
Tro pical
May be
May day
978 957
CB TC
CB FC
Run ner
EL IGHT
Christian s
Cry pta
Cry pton
sar co
eni um
eni gma
web mail
web site
âĩ ĭ
like lihood
AH Q
Hun ters
York shire
Great Fire
Gor o
Oli veira
tifi ed
posi te
posi tory
Model E
Son os
Pet ra
Pet ty
VC AM
say say
Col lin
Col ony
cas ei
wiki media
Bru g
pto p
xx xx
Stra tford
Cross wagon
A3 19
GL I
GL SL
Mau pin
hoo p
512 MB
oro v
Tay can
tiona lly
WOR K
Bio logical
eu ro
ND 4
open SUSE
Fron te
Sc reaming
Smo oth
íķ ´
Leo ni
Hami d
Ander sson
Hon da
Kat su
LM H
Theo logical
Lun e
Lun as
à® ¤
UK F
Mont pel
Shan non
VT EC
Jer ald
place ment
Kha li
Kha lil
NI K
NI JI
Than h
Than n
Wonder Swan
Ant ony
Bang lade
AW T
cos mo
597 c
Fred man
Fred die
bla d
bla st
poly lepis
Roman o
Mega Games
FAN ZA
Arti llery
Raw d
JO 1
Bre ed
Ker ry
Ker oro
M6 A1
est he
Tel star
Side bottom
NU DT15
âĻ ¡
âĻ ¥
á¸ ¤
á¸ ĩ
á¸ Ĺ
Pie ce
gor eng
Color ado
ery thro
sul cus
Sau di
MAD HOUSE
Framework Core
Dead ly
Chrome book
Fon tana
bat choy
Mil wau
Jaco bs
Rail ways
Mus k
ìĹ Ķ
constru cted
Sr c
fin d
Proto type
prin ciples
ð¤ £¾
ð¤ ĭĹ
ð¤ ĸĻ
Rober ta
Clau dio
S3 N
Sb F5
Zo ster
Zo ey
trie val
Bin dows
ZO OM
Language s
Dur on
SY SLIB
cam era
ghe st
ãħ Ĵ
hea ven
rec v
Mate o
Industri e
765 4
Every day
GI ZA
ë¦ Ħ
road s
confi r
Wilhe l
SAT ELIGHT
spo ns
INT Z
Six th
Six ty
Azu bu
GG K
Xi v
medi al
GP40 FH
Ia mus
Mg 2
TAI L
TAI WAN
Uta ma
Wer k
Woo ds
Woo llim
kra ft
Gene va
Ral ly
Care er
N3 O2
tua rio
Rod r
cyclo l
Fall en
Kor but
match ing
Sig fox
Ec cle
cry pt
hor se
Colo red
Haw k
G6 PD
Kris tang
Kris tina
Pel le
Regu lation
Rob son
END IP
Hart ley
Ae gi
Bour g
GRE AT
Pun ta
Pres tige
TEP 60
tau ght
Valen cia
Rd Rand
RIA J
ìĤ °
any thing
Cole man
wal ker
look ing
Map Reduce
4x 100
Ep stein
Emer y
Emer son
Rat haus
Cook s
process or
Andrea Mosaic
Fea ther
Elect rical
Object s
VG 247
6A 12
Flor ian
Come dy
Ent ry
FRE AK
ìĺ Ľ
Blan co
jour nalism
phan e
tru th
ëĤ ´
chei d
real ly
large st
âĴ Ī
âĴ ī
JK T48
Lai ka
ide al
chro matic
Nik las
Quar ter
Roo mie
Sain sbury
hyn chos
tja kudain
ë¹ Ľ
neo formans
Belle vue
alpha bet
Legen ds
Gan da
Vul can
design er
sele ction
atten dees
Loren z
EMU 500
Cris tina
HSD 11B
RET URNS
kawa say
reti re
Exten sions
JM ML
siden cy
woo sh
conv o
ello ws
Belie f
Nix dorf
ffin us
Spiri tual
Alv arez
Eni gma
ê³ ¼
ê³ Ħ
pora ted
Lec turer
JUST ICE
Eat on
LET TER
PAD I
Wes ley
adi das
requi re
Dash board
Tem pe
Bubble Sort
Duo mo
Kr zys
SIL VER
Zan e
popu lar
language s
inclu des
Magi cal
Intro duction
Mos que
contra ct
compa rison
Any where
japo nicus
Hua wei
Render Man
OPEN STEP
Amp elm
Chun soft
Mys tic
NSA ID
histo ire
Rodri go
Another Days
Bron ze
GLP K
demo cra
instru ction
null ptr
Mea dows
gil do
gil lus
Panzer b
Ide k
Ves pa
whe ther
unders tanding
Bil lie
Lind say
Guar ds
Nathan iel
Gym no
9K37 M1
Bing el
E4 X
Rao ul
db kl
access or
impor tan
output Area
PTC H2
Vali ente
iden tification
á¿ ¦
ìľ ¤
bacter ia
thin king
Mathema tics
Retro Arch
Laza da
COMP ANY
Aa ru
Bren dan
BEC CS
CRE AT
CRE ATE
Grou pon
Kine ct
ë¬ ´
research ers
Schwei zer
Serge y
appro ach
9M 38
Equi pment
Fos sil
Jas per
relation ship
fina list
Bed ford
Arche gos
Derived T
Acid 2
Scar let
W3 Schools
acu tangulus
exi st
fro g
festi val
ì² ł
capa ci
Rec ei
Holo live
Holo Lens
Contro lled
Trino van
Bern stein
exp lor
Athle tics
Gonza ga
Ate sh
C79 A2
Fing ers
GAR O
Sw etten
ZK6 180
Dele te
Kath leen
java c
Harmo nic
Harmo nia
Athen a
Casti llo
Rand net
Tsing hua
award s
ìĻ ¸
pomo dor
dodeca dodecahedron
CCC II
Thing ol
Sylv ia
LTM 1500
anima tor
fascia tus
Brai d
Eh ren
Hoff mann
OIC W
Q6 IX
SMA SH
bbe lin
sq rt
wx Widgets
deter mination
reli gion
recogni ze
Diver City
Haru to
predi ction
Voi ces
Portu gue
Portu gal
Brew eries
C24 H
Emp lo
FAR Q
REC ALL
bir th
machi ne
ð«Ħ ¬
Kinder garten
Ey ck
Ethi cs
Gb E
Knu th
Kry lov
imm uno
deuts ch
err ors
pipe line
Inspi ration
Refu ge
concer t
CLAN NAD
success ful
BON ES
Ena ble
Egy pt
FAL ENO
Hamp ton
Jai me
Kni ghts
Rhi zo
ì¹ ĺ
patri ck
memb rane
behavi or
SER ENDIP
Statis tics
Hots tar
Myco bacterium
Sana say
univer sity
DHCP v6
AAS W
Alas ka
Bles sed
Hora ce
Psi tta
clai med
detai led
Papi llon
reser ve
Hunting ton
Cristian o
DBR 4
MEP IS
oko it
ê± °
numer ous
Indi go
Missi le
Suzu ki
Guang zhou
Garage Band
Atten tion
Cuo ra
FEST IVAL
scan ning
libra ries
sinu so
silicon e
Dial og
Parlia ment
Cim rman
pharma co
LOT TE
Erb B
ULF 48
Theodo xus
Syndica te
Cait lyn
Aper tium
Eth no
Esti lo
Testa ment
daal der
Maje sty
visu ali
Proje kt
Simp ly
Sexu al
Cae sar
soci ety
Annu al
rsten tum
SDN 48
Mitsu bishi
integra l
PASK AU
Therapeu tics
Axi os
FUT URE
Osi ris
Sf 21
STC RP
Twe lve
zt of
chre ck
pithe cus
intelli gence
Roya le
Roby nn
fif teen
conf etti
Raffa ello
Navis works
Rijn dael
Gods peed
Expe dition
Priva cy
Perse phone
Sheri ff
Nutri tion
Cyano genMod
Kazakh stan
HPO 42
Prun us
PUB G
QW ERTY
SIN AD
WAC CM4
YAO I
moise lle
inno cent
arsen okoit
vesic le
Matte o
Instant Go
peran za
Neme sis
RESO NANCE
Netvi bes
MIU 404
CRG6 LX
Bartolo meo
Orth optera
Quart z
carbox y
Synago gue
specio sa
Centen nial
reprene ur
HYPER CAR
Kone ko
Twis ted
iji mae
stude nt
thresh old
Matil da
INCL UDE
SEAS ON
Dicty oglo
APX GP
Tomi stoma
Bomba y
Sahi b
KiX tart
Compara tive
Hells ing
MP36 PH
Entity FrameworkCore
Schwy z
Stump jumper
Jea lousy
Edmun ds
Asper gillus
Orphan age
Sheffi eld
Unplu gged
Trago portax
Angry pug
ORIG IN
Erne sto
Presbyter ian
Bartholome w
BATT LE
Ced ric
Detro it
M256 A1
Olle h
TUR BO
Ulys ses
XEB EC
äŃ ı
linal g
celeb rations
geidf ran
Coali tion
Coimba tore
Inmar sat
Instin ct
ATEL IER
LiSH 7
SASU KE
MoED AL
Racco on
Sequo ia
Bewe gung
Salis bury
Nijisan ji
Lindeg ren
aligna s
Bucking ham
AIAD MK
RESU LT
Wagama ma
TOMOR ROW
myShared Class
AspNet Core
Ordinan ce
GOTCH ARD
Panzers chreck
Donog hue
Ermene gildo
Belerian d
Digitalminds oft
Boulenoph rys
Montpel lier
Banglade sh
Milwau kee
Krzys ztof
Swetten ham
# #
. %
. __
0 W
0 100
0 190
0 700
0 140
0 230
0 603
1 Q
1 m
1 MF
2 R
2 e
2 190
2 km
2 115
2 280
2 129
2 175
2 124
2 147
2 Cl
2 172
2 O3
2 x2
3 k
3 m
3 250
3 114
3 116
3 H2O
3 sat
4 N
4 R
4 U
4 V
4 1000
4 250
4 122
4 192
4 234
4 298
4 388
5 S
5 m
5 DS
5 299
5 273
5 387
6 S
6 T
6 Li
6 H2O
7 201
7 mm
7 cm
7 291
8 D
8 F
8 S
8 202
8 250
8 Sheet
A si
A ku
A 40
A 37
A 34
A 75
A 64
A OS
A gi
A ID
A eri
A 01
A kin
A 310
A part
A 620
A 710
A ZA
A tari
A mbly
A gera
B h
B 11
B lou
B 27
B ho
B IA
B ES
B 01
B NT
B H2
B VE
B lon
B lum
B unch
B rent
B 612
B leu
B H4
B g4
C 23
C 28
C es
C 99
C 61
C MO
C AA
C LO
C TS
C MG
C FA
C VE
C VM
D ao
D 16
D 25
D 45
D AT
D 41
D 77
D 800
D 92
D DS
D ine
D IA
D 104
D ML
D rie
D MB
D TP
D UC
D HS
D esti
D 216
D 610
D ere
D habi
D IOP
E e
E 18
E nu
E cu
E 80
E 46
E der
E no
E us
E ur
E AP
E IT
E BD
E AA
E bert
E sto
E LO
E len
E ffi
E din
E IB
E ag
E 653
E 491
E region
E quality
E linor
F J
F Y
F 20
F na
F lie
F 12
F 40
F ER
F ok
F ein
F SI
F ROM
F IGHT
F HM
F PX
F EVER
F IDA
F moc
F MOC
F lynn
F ellows
G ya
G lan
G 16
G 80
G 36
G 75
G ST
G 33
G at
G 56
G 51
G AM
G ed
G MS
G US
G AG
G DR
G rus
G SC
G ain
G rie
G rin
G har
G SR
G lau
G ould
G LOW
G DNF
H 25
H 26
H 29
H et
H 44
H 41
H BC
H BS
H ET
H AI
H CP
H ARD
I ren
I ke
I on
I OR
I KK
I WC
J H
J N
J y
J AC
J AN
J CR
J 08
J it
J ie
J oom
J G11
K d
K l
K yu
K es
K IM
K ora
K 1624
K wiki
K AGE
K UNG
K 731
K ras
K 729
K V2
K 1235
K elle
K AKU
L 7
L OS
L us
L IC
L Au
L IL
L PG
L UC
L IE
L BN
L VM
L ARP
M 25
M 22
M 1935
M 82
M CR
M 109
M GP
M usta
M 586
M ERS
N ang
N yi
N ui
N 11
N al
N TC
N OS
N ur
N IP
N DP
N 02
N XP
N WA
N ais
N V2
N NTP
N BDL
O w
O tu
O rt
O RS
O val
O bli
O MB
O DF
O din
P 7
P ue
P 25
P es
P amp
P CD
P ly
P um
P ED
P IC
P EP
P all
P DO
P LO
P UR
P RC
P NS
P ous
P wy
P leu
P oul
P Blaze
P HEV
P lains
Q E
Q H
Q P
Q ing
Q F1
Q F4
Q ana
Q F3
Q F2
R U
R x
R BS
R IP
R ent
R DF
R MBA
R hab
R IPE
R 3078
S 20
S wen
S ting
S 12
S que
S 14
S ne
S cuo
S ve
S 39
S per
S no
S cy
S RT
S LO
S win
S IE
S lip
S char
S ZA
S cul
S hout
S lav
S hein
S nea
S vet
T 20
T 16
T sun
T ruo
T sang
T 100
T IN
T 99
T BA
T FC
T all
T BM
T res
T 103
T PG
T IM
T MB
T XT
T LR
T Person
U 6
U Y
U g
U h
U ng
U na
U 12
U we
U FI
U dara
U mbre
V 0
V 5
V N
V f
V ian
V TC
V ad
V MA
V IV
V CL
V ino
V ello
W K
W ad
W ON
W IT
W AL
W AV
W GA
W UI
W PF
W IPS
W ould
W ert
W alid
W EEK
W GBH
X 8
X ION
X BOX
Y en
Y 48
Y von
Y EA
Y eni
Y ana
Y 1B
Y AIBA
Z 8
Z S
Z W
Z hao
Z ol
Z um
Z IL
Z ep
Z 601
Z ona
Z ono
a 0
a si
a lu
a wi
a TV
a per
a va
a sia
a say
b bing
b 16
b oun
b bon
b 1a
c g
d A
d L
d j
d hi
d rus
d xe5
e ve
e mer
e ed
e vo
e IF
e ot
e gg
e SIM
f ru
f eri
f rei
g 0
g m
g p
g yu
g gia
h v
h na
h ne
i 2
i 3
i D
i si
i bo
i lle
i tes
i ler
i tch
i Cloud
i gno
j oo
j ad
k re
k ko
k cal
k tor
k bps
l de
l ha
l lum
m k
m v
m ue
m nt
n yi
n th
o C
o mi
o fo
o ho
o bli
o rum
o bs
o xa
p hu
p ru
p 105
p lein
q vist
r de
r di
r ya
r sen
r one
r hy
r hynchus
s ya
s ni
s pp
s IG
s old
s car
s kin
s cher
s cript
s wing
s wee
s pread
t k
t ue
t rou
t zen
t ner
t down
t hough
u le
u sen
u ki
u sage
v 4
v d
v ad
v ator
v ais
v OIC
w h
w rong
w ine
w ound
x 50
x BF
x 001
y lus
¡ ł
µ Ŀ
» ¸
¿ «
Å ı
Å Ń
É ²
Ê ¿
Ê İ
Ì ¯
Ì Ĥ
Ì Ħ
Ì Ĳ
Ò £
Ò ®
Ó ¨
Ö ¼
Ø ¢
Ø ¥
Ø °
Ø º
Ù İ
Ù ĳ
Ú ¯
Û ķ
à «
á Ī
á µĿ
â Į
ã ķ
ê ´
ë ĺ
ë ¨¼
ì ¢
ì ½
í ħ
í ı
Ħ Ĥ
an u
an tarcti
sh mi
sh or
sh tra
ji ma
ang el
xi c
xi ty
ai res
de h
de y
de na
de ss
de fi
de os
de stru
de vice
de posi
de gli
de kker
de stroy
de dicated
shi r
shi ta
shi eld
ou k
en na
en za
en tire
ch h
ch tel
ch ryso
eng ra
eng ers
li po
li ver
li des
li tis
li ving
li cs
li mit
li ghting
ui ne
wei gh
nian s
un de
un eu
un known
di z
di ta
di ol
di lay
di ness
di lation
di als
di date
he t
he ro
he ra
he lle
he lia
he ard
he dra
he xa
bu mp
bu lous
er an
er ga
er es
da g
da sh
da se
da wa
da lis
si tu
si ran
si ster
si ona
si nica
si gnature
ge a
ge tter
ge brai
ue va
ke h
ke k
wu k
chu m
bi ri
bi blio
zi no
fa ces
fa cture
ti guan
ti mo
ti eri
ti tative
mi ce
mi ck
mi les
mi dae
ta chi
ta ken
ta ll
ta rd
ta bility
qu al
qu ence
20 70
20 67
20 69
20 43
20 57
20 78
20 61
20 62
20 89
20 94
20 km
20 385
ri ei
ri me
ri sto
ri char
ri bada
ju re
le l
le co
le us
hou n
dong ensis
ci ni
ci do
ci pe
ci ted
ci ble
ci sis
ci tus
ci nae
ci ones
ye h
ye m
ye ast
gu sta
gu eri
dui t
lu ci
bao bab
du li
du ca
du ct
tai d
tai wan
tai rs
mu le
mu tan
mu th
mu sical
ya k
ya ya
ru ki
ru by
zu mi
lai re
dang o
dang er
wan na
pi on
pi ra
pi co
pi to
pi ck
pi RNA
pi xel
pi dus
pi cco
pi otta
ni kova
ni sien
bo m
bo lo
bo at
bo nd
bo sch
te ly
te sto
te ller
te bor
la wn
la res
la del
la rity
la mine
ma sh
ma rd
ma rs
ma jo
ma rina
ba ye
ba lt
ba to
ba rk
ba ses
ba ud
ding o
sai n
san s
che on
che ss
che lly
men di
men ti
men tum
tu t
tu rt
tu dio
tu Kiss
tu shkin
tian us
su f
lan di
mo or
na da
na vi
na ut
na tions
ze wski
lv id
lin ux
lin ois
chi r
ku mo
ting i
lie u
gui lty
pu h
pu ria
10 K
10 mg
cha s
cha u
dou r
can thus
ran ti
ran us
se h
se j
se ki
se tt
se llation
se vain
pin es
ce ps
ce cum
gou r
00 50
sha h
sha k
sha ped
sha mpel
18 G
18 K
12 C
12 500
pian o
chen bach
11 D
11 th
11 500
po i
po che
po re
po or
po ne
po ts
po ds
po ses
po lio
hang ire
bie sz
re du
re la
re ga
re lli
re tino
re start
re placed
re leased
re commen
re yish
wa rk
wa fer
ha k
ha ran
ha lt
15 X
dun it
sa si
sa gi
sa pp
sa mm
âĢ Ĵ
or ge
or hynchus
16 b
16 500
16 bit
17 F
rang ler
14 B
14 300
30 40
30 60
30 99
30 87
13 B
13 500
hun ting
sen ior
25 13
25 26
25 40
25 31
25 90
25 47
25 77
25 98
25 89
25 94
25 93
ning ton
for me
for eign
pa e
pa w
pa ta
pa ro
pa st
pa ys
pa lli
pa ration
pa cito
24 V
24 h
24 23
24 28
24 27
24 70
24 90
24 38
24 33
24 59
24 89
23 10
23 12
23 26
23 40
23 68
23 67
23 and
23 59
23 88
23 79
23 62
28 B
28 16
28 82
zan a
zan ne
in d
in do
in ts
in fra
in spi
in hibi
in sula
22 15
22 14
22 29
22 60
22 68
22 74
22 94
ar ms
ar matus
me ha
me me
26 14
26 22
26 34
26 33
26 67
26 72
26 91
50 66
50 53
50 cc
27 67
27 300
27 56
27 04
nu mpy
ï¼ ¨
ï¼ Ń
29 10
29 17
29 70
29 57
29 89
29 09
za d
za k
za t
000 4
000 6
ne eds
ne cessary
ro la
ro na
ro bin
ro th
st ris
st ool
st ood
ra a
ra f
ra g
ra z
ra da
ra ke
ra re
ra cu
40 27
40 46
40 39
40 XX
40 PPP
40 PPM
die t
rou ter
60 87
60 906
al most
100 MHz
100 Mbps
31 A
ken d
ken ing
co ni
co sa
co co
co les
co vers
fo t
fo ssa
80 K
the t
the on
the ca
35 A
35 S
35 80
35 PPT
35 PPC1400
70 27
70 47
70 km
lo l
lo ta
lo ws
lo ps
lo pho
lo vich
lo phone
lo wii
lo phus
of er
90 210
am y
am er
ter ie
th orn
to ol
to saurus
to rius
to kas
to nville
to morrow
45 nm
48 10
48 50
48 639
ve ur
ga do
ga ted
36 47
36 54
38 000
38 40
38 80
37 60
37 52
37 mm
Ma f
Ma st
Ma the
Ma ts
Ma us
Ma sta
Ma go
Ma her
Ma hara
Ma lik
Ma veri
pen ta
pen hagen
ll eri
ll erie
IN FIN
IN TEL
do ing
do ta
do zen
do Net
do nia
do nald
do follow
do minus
do mestic
do llars
34 D
34 J
34 10
34 40
34 46
34 39
Co e
Co Co
Co stan
Co stal
Co oli
Co 3O4
Co penhagen
46 39
ca ge
ca th
ca ris
ca tes
ca val
1990 s
ck man
ck land
ck ie
39 A
39 29
be a
be li
be am
be ts
be tes
32 10
32 15
ST U
ST PM
47 000
UTC 0
UTC 6
UTC 18
33 20
33 25
33 50
33 40
33 60
In er
In fi
In ser
In tra
In ns
In fer
In Design
In spector
64 E
64 29
ss ian
ss os
vi t
vi v
vi ni
vi on
vi us
vi ven
vi tz
SE DA
Re de
Re mi
Re ar
Re ga
Re ms
Re fer
Re vision
Re bel
Re verse
Re cogni
Re spect
Re peat
hi re
49 36
el lus
68 R
et or
44 50
oo doo
br ian
Mi h
Mi mi
Mi lan
Mi ki
Mi ley
Mi tra
Mi tch
Mi kul
Mi riam
67 13
67 400
es sen
es ted
es pace
300 4
300 PM
at han
at hen
AT 2018
pe de
pe ptide
Li ft
Li mit
Li ons
Li ghting
ver di
ver si
ty l
ty re
69 20
69 46
Ro i
Ro t
Ro x
Ro ller
Ro mero
Ro tokas
is mo
is chen
ho ma
ho we
59 G
59 00
43 80
SA A
wi l
TV SH
ry nge
Me 3
Me g
Me m
Me SH
Me tempsychosis
nd or
400 M
78 P
56 17
Vi er
Vi su
Vi ki
Vi dia
Vi cky
Vi colo
Vi jay
Vi Salus
Vi tushkin
Pa cket
Pa mela
Pa pua
Pa dova
Pa jero
ts ki
amp les
NA IA
NA ND
De p
De de
De er
De sa
De vo
De fy
De cca
De pot
De pth
De grees
CD 2
CD 4
CD E
CD F
gh ra
fi x
ber a
Win 7
Win FX
Win ners
per for
per formance
per manent
Sta ta
Sta at
Sta ten
Sta tus
OS R2
Wi ck
Wi fi
Wi red
Wi lly
der t
180 cm
BC 2
BC L
54 60
as er
as per
Mo m
Mo MA
Mo jang
Mo ghra
You rs
no k
no x
no ver
53 A
ly rics
La ce
La co
BA B
CO I
CO SA
CO NT
51 10
gi ous
gi dae
Le es
Le gion
AM 2
AM 3
AM T
AM NH
63 20
AR 5
AR F
AR SA
AR MS
AR CH
AR PA
BS 1
BS S
Ga ul
Ga lton
Ga dz
Da ft
Da ddy
Pro col
Pro sper
Pro pagan
Te V
Te ller
Te aser
Ja e
Ja vascript
Ja leco
89 P
us sa
us oo
Di l
Di Di
con y
con dy
con stitu
con tents
con stant
con tained
con tact
con taining
Fi gu
Fi ber
Fi zz
Fi ore
Fi elding
Fi doNet
Si k
Si mu
Si va
Si lly
Si mone
Si oux
95 C
Mar wan
Mar go
Mar ble
Mar tial
Mar tucci
Ne st
Ne go
Ne cessary
Ra mos
Ra diant
ki o
ki ee
Se al
Se ga
Se gun
Se tia
Se basti
Se quence
AC 3
AC AD
AC 4400
AC BSP
Be 3
Be h
Be y
Be an
Be ren
Be ur
Be cker
Be ars
Be sar
Be linda
IS RO
74 U
Ca O
Ca te
Ca to
Ca ps
Ca stro
Ca dence
va c
va e
va ble
va gina
va wong
Ar den
Ar tur
Al c
Al bi
Al ta
Al pen
Al der
Al right
Al loca
Al lah
Al tair
Al mere
ED AM
1900 C
1900 D
-- &
AP NIC
AP LUS
To i
To sh
To ri
To ken
To lo
To ts
To my
To mb
To wers
To moda
ld on
cen tri
Ba e
Ba ru
Ba gan
Ba za
Ba den
Ba tes
Ba kar
Ba yes
Ba ume
Ba cillus
Ba xter
Ba qir
Ba chelor
IC TV
IC ES
800 rpm
Po k
Po ling
Po lis
Po tter
Po tato
Po sition
Po ints
Lo k
Lo la
Lo se
Lo ki
Lo rin
Lo ire
Lo bby
Lo pez
ER 7
ER E
ER I
sta tions
Bo wen
Bo ni
Bo hn
Bo dies
Bo tani
Bo llywood
Fa z
Fa un
Fa ster
Fa mous
Fa tima
ID W
ID RA
Bi el
Bi au
Bi bli
Bi F5
97 A
Sa mi
Sa ya
Sa pi
Sa pp
Sa ys
Sa ab
Sa bre
Sa lim
Sa chs
Sa eed
MA Z
MA SA
Na v
Na Cl
So e
So le
So ma
So on
So so
So lari
com te
com mittee
com mun
com pression
Ho i
Ho ch
Ho mer
Ho mme
Ho chs
Ho esch
tic les
96 10
St rain
fe u
fe st
so nian
so ta
so rum
so dium
so ciali
so vereign
Hi to
Hi rst
Hi tachi
Do s
Do ve
Do ris
Do dge
Do main
Do minus
Ri bei
Ri tz
nt r
Ki ril
Ki tano
Ki hangire
Ha ck
Ha Na
Ha rum
IP DC
AN IME
ls berg
Com te
Com pression
Com bined
83 19
93 A
Su ri
Su lu
Su re
Su ra
Su mas
Su tton
Ti L
Ti g
Ti p
Ti le
Ti ra
Ti O2
Ti gers
Mu t
Mu ller
Mu shroom
Ni ghts
Ni ghting
Uni sys
Uni fied
pp 1
We y
ys sey
MV S
SS G
SS N
IT P
No lan
No na
No to
go ya
go es
go nia
go als
250 cc
ris k
ris sa
ris tic
Pi c
Pi z
Pi li
Pi et
Pi ed
Pi cker
Pi xiv
Pi rates
Gi m
Gi les
Gi ron
Gi gante
PS G
An di
An ka
An do
An chor
An thology
PC M
140 km
SM B
SM IRAL
gra do
gra duate
ko la
ko mo
ko na
Con nie
Con dor
Con soli
Ch oo
lla ma
Ge mei
Ge bel
Par alle
id ge
Ta e
Ta w
Ta bor
Ta citus
Lin de
Lin cecum
mp tion
mp et
He m
Ka b
Ka c
Ka shi
Ka yu
Ka le
Ka zu
Ka rim
ET AL
à¸ ·
à¸ ĵ
à¸ Ł
EC TS
AL GO
ph ony
EP G
EP DM
Car lis
Car har
Car lton
Car tier
Bu sters
Bu llet
hn er
mm s
mm VM
ven er
ven ir
ven sk
Inter est
Inter action
Inter nationale
MP AA
Pe u
Pe ta
Pe der
US ION
pro fi
pro vin
pro fessional
pro file
pro posed
pro blems
DS 30M
RO I
RO Y
Ste ps
Ste llan
Ste eles
sis ted
Go ni
Go th
Go mes
Go ssi
Go Fund
Go thic
Go mez
Go rilla
AK M
RE G
Wa Wa
Wa ltz
For ster
gn on
gle t
gle y
CP B
UN DP
cal ls
vo na
vo et
dia c
My sore
CN Y
CN CERT
âĦ ī
Au er
Au la
Au ra
Au burn
Au tono
Ex luna
HR A
HR T
ther mo
tal ent
CH M
CH ES
CH AMP
TO E
TO U
AV IF
tes tant
John s
my co
my self
my stery
Man di
Man sion
Man Live
Man sur
dy ne
Chi c
Chi valry
CC M
And ra
And rei
AG G
AG I
Ci ti
Ci tation
Ci lk
EST YLE
SO L
LE A
ree ve
BO 3
BO K
BO DY
int ra
wit zer
BBC 1
BBC 2
Sch wa
Sch ra
AD R
cri ticism
wer fer
IST A
ME SA
ME GA
CR P
CR Y
CR 223
CR H1
je m
au d
au g
au thor
au thority
tor a
tor nis
van e
van ce
TE AC
TE G6
Lu g
Lu z
Lu xe
NC S
Pri nt
Fe 3
pou t
des cription
DC B
DC G
DC MU
ES G
ES WC
Ru di
Ru ger
ner y
op ha
op tical
op portunity
DR 1000
DR 2850
DA Q
Hu ay
Hu ene
Hu xley
Open SSL
HO WA
HO OD
Micro Pro
Micro DVD
os lav
Ke ar
Ke ep
Ke SPA
Ke ane
IF UL
Cu 4
Cu lt
Cu A1
Cu usoo
Fran c
One ManLive
Face lift
Cor sai
Cor porate
Per sia
Per sona
Bar t
Bar ri
Bar low
App rop
Love joy
Ko to
Ko hn
Ko kia
Ko dak
Ko baco
à¤ ¡
à¤ ¬
NO x
Stu dents
LL A
DP D
DP U
las ti
AA AS
Ju de
Ju ma
Ser e
Ser bian
RT F
tri al
SP 2
SP AC
SP QR
EX 1
EX OD
EX PRESS
rai d
rai se
rai sed
sti na
mon tana
ML RS
rs ka
DO CK
Pu tt
HE AD
Cou pang
Mon tr
M1 E3
Pre view
Pre pare
GP RS
CE A
CE UM
Live strong
ara shi
ara ch
ara ta
RS C
sto mus
Sha de
Sha po
Sha ll
Sha ck
Sha dilay
LO ST
LO BE
LO CK
LO CAL
LO COS
Tri cho
ten stein
ten stei
BE LS
Sou theast
EE A
Du p
Du de
Du que
Du dley
SC B
SC V
por tional
Mac world
Mac qua
Che ers
Che uk
Nor vir
Nor theast
Ph ono
Her a
Her b
Her r
Her nan
On Game
pre mier
As cen
Dis crete
gue t
mas si
Ber nie
Ber tol
Gre go
Gre gg
cer os
Vo or
tra cker
yo m
220 5
Can e
Can o
Gra s
Gra ve
Gra dy
Gra ves
Gra duate
Bri e
Bri est
Bri nk
IL C
IL S
align ment
SH Y48
Or lando
Or tega
len sis
Gen der
ple a
ple xus
PO CO
ex tinction
ex amination
Mc Il
Mc Lean
SL R
ãĦ İ
Super man
Super massive
She a
She phe
She ldon
stra ct
All music
Gu d
Gu ber
Gu ate
Ac coun
Ac tivity
Eu pho
cho le
Char le
Un certain
HC 000
Ban i
Ban ana
sso la
Mor al
Mor timer
qui ck
-. -
ac tivity
Tra ve
Tra cing
dis color
dis cus
dis covered
ï¹ ¦
Qu ai
Qu er
Qu erini
mar gina
mar ried
mar keting
Ver de
Ver tical
Ver tex
320 5
CS R
CS IS
Ang ui
AF F
Fo ren
Fo to
Va j
Va cuum
2500 00
155 cm
650 2
NS B
NS SA
Clu be
OR F3
ffi c
Phi ladel
mb sa
Ku zne
Ce lia
Ce line
380 V
Eng le
Eng age
War wick
War saw
ny der
Ab bott
Ani mage
Bra dy
NT 855
time dia
Es capi
Por ts
ero v
ero sion
Colle ctive
Sun set
ut f
Blo gger
sed gwick
PL D
im perial
DE V
DE 10
DE AD
DE BUT
Web ber
Han over
Han dels
Han uman
TP E
TP F
330 5
330 8
Lea ch
Lea ding
Ali son
UC 200
hy draulic
Ve li
sau ra
El lo
El lington
Sai lor
Whi ttle
Whi stle
Whi sper
sco pic
Boo king
165 cm
SQ RT
High ness
159 24
Chan dler
py ri
py plot
Shi t
Shi buya
thi e
thi cal
Up link
Up grade
Cro s
Cro ssover
Stre lka
NET 88
Free DOS
Free view
At l
pla ces
pla cing
ora te
DJ Max
Sy rian
Sy mbo
Sy mpho
CG A
CG V
Sh ing
225 6
225 9
Pat ro
Sam son
Ye h
Ye on
vin yl
nia k
133 90
National sociali
RA e
YO MU
IE M
FO RT
Lou isa
bur gi
rin sic
Cho ir
Cho cola
clo ck
Hol loway
M2 c
UT M
gon osaurus
HI RE
Mer chant
Wil der
Wil mot
Chu rchi
STAR DOM
Gar land
Gar nett
spe ctro
spe cifi
inter net
inter val
inter media
Ken ney
Ken zie
Lan caster
vs kaya
Cam tok
Fan cy
Fan ny
Fan disc
Fan dango
Sen sa
Sen sation
Sen eca
Py r
Cent ra
face d
IO 3
IO NAL
Cla pton
HS RP
ak ers
PM 10
bun d
Sco losaurus
Tal ks
dra les
cher che
Soci alism
850 XP
Bur berry
SF R
Fer r
Fer mi
Fer ret
VE GF
tha mpton
Am mo
Am pex
cra zy
cra ssi
BR AS
BR SMG
LT PO
NE WAY
Pol ska
PE I
Ger n
ste a
Wo O
Cl F3
M3 29
play ers
lea f
lea ves
LA U
LA BELS
Van essa
Jose p
Tour s
Rou x
CT I
BB VA
Cal y
Cal gary
fer red
PR N
Boy er
Tor vo
218 1
Tur f
Tur k
Tur quo
wood pe
Act ress
LD AP
FF F
MBC Game
Fle u
Fle vo
163 cm
AMD 64
ICO N
data bases
Tun nel
Met z
Blue Sky
Blue tooth
Coun ci
Coun tach
Green wich
Lau ghter
BU MP
EA ST
EA EC
EA STS
Gui tar
Ji l
Ji mi
Ze st
Ze us
Ze lten
Er nie
Ven i
zy me
Pra etor
Ren ais
183 cm
PH Proxy
Tan a
Tan ya
Tan jong
bro wn
Pop pin
Pop teen
áĢ ±
áĢ ķ
ìĿ Į
ors k
Cri sto
ab c
up set
em bed
sub stitution
GE ON
logi que
logi st
Pin ko
cent re
River a
Bal main
Bal listic
338 8
SR G
SR M
ful ness
fun da
fun ds
Mai den
YG QK
Dy ke
MW C
Gener ator
FR B
dor sa
680 1
Epi sco
Epi logue
Cra ven
Cra dle
ston es
Vis count
âĳ ¥
East on
Mari us
Mari lyn
EV S
tre at
tea uneu
para tus
para meter
para dig
Lang en
Dri ll
pho spho
spi racy
CW C
CW nd
sho wn
Des pacito
HL SL
TM Z
Poly Gram
Poly hedra
Poly vinyl
Sum ling
Za y
Za ck
Frank furt
Kin o
Cur t
Cur rents
Hor ton
Hor net
Die u
Die voet
Bor go
let ti
Les bian
Pho tos
251 M
277 E
Dani sh
Bou chard
Clo ver
Clo ser
Gol gi
app s
app ly
Mit tel
Cle ments
VI BE
vy llama
á» ¥
á» ģ
á» ĭ
Gri m
Gri nd
KO REA
Tru man
à¦ ·
Maria DB
Publi sh
Bon es
Cli fton
Im peri
Im pulse
SV L
Book Tok
hr ma
C6 H12
Mal one
Mal lory
SB P
range ment
TW T
dea f
vis m
Nu ll
Nu tt
kar man
poli tics
CON TA
Beau mont
Beau monde
Poli tico
cur r
cur ry
cur vyllama
Medi na
Fin n
Fin lay
Fin land
Ly dekker
tti rostris
à½ ²
à½ º
à½ ĳ
à½ ĵ
à½ ł
Ara bia
DT MB
DL 6
N2 O5
áĥ ®
áĥ ł
INN IT
EL 61
PT L
TH X
TH ING
cono tus
Alice Soft
Cry pt
Il linois
Sin dar
Dai wa
MM R
Wei s
Wei rd
Wei ght
Wei shampel
Gor dy
MON TER
Oli vi
size d
Daniel s
End s
Tou gh
Tou rist
Secre tariat
Communi qu
God dard
Ah l
Ami ty
Cat cher
Cat ena
ani c
Crea tivity
Mur ders
Son ne
AU TO
ques tions
257 Fm
met ria
CAN YON
Fal ken
Lei p
Lei sure
Mel bourne
house work
house hold
Archi ve
Town s
Geo graphy
Eye d
Neo Geo
Dun lop
Stra w
Philip pine
Philip pines
GL AM
SW U
Mau ro
coun cil
Ima ging
Vin cen
VPN Filter
Aven ida
Stage State
Ram sey
Wol ff
mate x
499 P
Pass er
Pass port
Fede rico
Gun dam
nor mali
Bio logy
WI LL
Distri k
CI b
TI MS
Sub ject
Sub marine
add le
Augu stin
Draw 8Sheet
Tar n
Tar du
Tar sier
HER 2
Land kreis
VER SE
tran si
Rose crest
Design er
LF 106
Smo king
SON GS
íķ ©
íķ Ļ
Family Mart
C4 H8
Hon orable
cla thrin
ir b
0x 0
Sti r
bio tics
bio logical
Ir Simple
à® ®
à® °
à® ļ
Wel fare
zzo li
tten ham
zza ri
media ted
Villa r
Water ford
Jer zy
Mei sho
Mei jer
Mei tuKiss
phe ral
Sor row
Sol diers
UD X
Cos mos
Bad ger
endo cytosis
Bang umi
Edge worth
Loo mis
Mis sis
Bun ny
ðª ¿«
cep ted
Some body
AST M
Cre ator
Roman ian
Roman ia
Mega store
Christop he
tec tural
pos ture
Hit ler
Blu ff
Blu sens
CSS 3
cula ta
cula ted
Phy si
Inv erse
Hip poly
AGE IA
sort Array
Ari zona
Dro sera
EO EO
V6 X
ska ya
bow l
Ash ton
Anna belle
Anna purna
UNG ER
áº §
Wild life
produ cts
Electro nica
Health care
NU TS
Wood ward
Bir ken
Cru sa
vor bis
HOME S
sum mer
sum mary
Color ful
CAR 816
P4 S6
P4 S5
P4 S10
gran ts
team Lab
team liquid
Concer n
Secret Game
Fon te
Fon taine
Tol liver
stor m
Mil ne
Anti virus
Feli Ca
Feli cia
Hand book
Kur naz
Len non
Stri pes
DREAM S
Inte llectual
Inte grity
program me
Gon na
Jet Quay
Schi zo
fin der
Proto ste
SHOW CASE
Forever more
D3 FB
GDDR 4
hin us
vas oo
ð¤ Ĵ¹
far r
leu conotus
bb TV
Res cue
Mercu rio
Echo es
GF DL
Mes sa
ë° ķ
Edi son
Edi tions
WH ITE
âģ ¿
Make Finally
Mate us
cat l
Rev ue
SAN JI
ARP ANET
Mars eille
ANG ER
Frances ca
Fanta sia
Fanta gio
Kra mer
Yi p
inv esti
cious ness
multi ple
teen th
Wit ness
Sul pi
UF LL
teau x
Indian apolis
EY E
Var ric
hol ders
Xi ao
ãİ ľ
ê° Ĳ
HY DE
TD MA
kee ping
Window Long
Nove ls
GP40 P
Pink villa
COS MOS
Mg O
Sang h
Woo kiee
Zero Net
zzi ni
Kir mani
project s
Victo rino
Motor s
Motor sport
Hoo ver
Jar vis
Kun tur
Ol sen
PRE SEN
ð¡ ĵ
Rod gers
Marga re
Broad way
Broad cast
Brook lyn
Lyn x
NAT IONAL
PRI d
PRI x
path way
Mira max
Pau la
Pau linus
Ann un
Chen ey
Ec chi
cry stalli
archi tecture
member s
Made moiselle
Hil de
Hil da
Docu ment
Kris tin
Pel li
ìĭ Ŀ
sil ent
hau pt
Gem ci
END LESS
Ae gon
A320 neo
Chai ns
D4 Y2
Ini tiali
Ou ter
Pres er
XM 29
fai th
fai lure
your Name
zie hung
tau cher
thro pus
Guy ton
Iron s
Sei ne
WB G
mala kos
Mee bo
exe cu
A9 VG
FOR CE
Tes sellation
ari os
Mul timedia
Aero nau
Ep sode
Hin s
VL PO
VL BI
áŀ ĵ
ìŀ ¥
offi cer
Mah mud
Mah moud
SEN WELL
Lite OS
graph s
structure d
Elect ron
Kis ses
Flor al
Kno x
uint 64
nig ri
local host
SO3 F
Brand taucher
Photo graphy
849 22
Ent rez
Ent ropy
FRE SH
FRE ESTYLE
GU TS
WAN T
dez vous
CDK 1
ðĲ° ĥ
Empi res
jour na
jour nal
vol tage
à¨ °
à¨ ¹
à¨ ¾
ëĤ ł
ì§ ģ
chei lus
reg ard
Andr zej
Io T
PER FOR
RG SS
âĴ Ĭ
Malay sian
Lab VIEW
Silicon era
ISH ING
wee ks
LPDDR 3
Fernan dez
VCR 1
VCR 2
VCR 3
VCR 4
cchi o
chro mis
did n
paren ts
cogni tive
foot print
Alexand ria
Clear love
Bis marck
Cai ro
Owen s
Ore gon
Ts z
Ts vet
Indie gogo
Wea ther
Wea lth
Example Class
Thor nton
Quad rangle
UG H
UH ECR
ðł ¡ł
Cover age
Cau cus
Gul den
sele cted
wave let
organi zations
Mona stery
Kirk patrick
Friend ly
Friend ship
HSD 1
Pseudo monas
Sla sh
ðĴ Ģ
Instru ment
Instru mentation
Marco ni
solu tions
sock len
Exten sion
Bloo ming
hypo thesis
4B 40
Rho do
Rho des
Vor tex
clas sification
woo ds
alo gue
Synthe tic
CRH380 BL
Alv arado
Kri vasoo
leh re
lur ring
Audi tory
Alo fay
FU BAR
LET E
Sus sex
ë³ Ģ
Dau ghters
Parti do
But ler
Kee ping
Opti vision
Spark ling
SIL ENT
dec tes
aro ma
Fitz roy
Schmi tt
Dum b
Fen cing
Whe eler
alt o
equi valent
pun k
bass y
coordina te
histo rical
Rodri gues
Pale tte
Develo pers
Labora tories
Need less
Compi le
volu me
SUMM IT
Bli zz
IK EA
Lor ds
Zy go
sei gne
secu re
instru mental
atta cks
Sung ei
Wee kend
Bul mers
Franco is
orien ted
FAD H2
Grun der
PAO K
Rin poche
goo se
phen yl
pth read
ì¤ Ģ
íĺ Ħ
Lion el
Nie der
Lind sey
EVER GLOW
Gym nasium
Scu mmVM
Teng ine
ê· ľ
sexu ality
selen ocy
pana yan
Cop land
visi ted
Pit ts
AAC SB
FRS L
MN DAA
achie ve
jang ga
quad ri
menta ls
Mathema tica
COMP LETE
MP5 K
Expo sure
Hung er
Hung ama
accu mulator
img 1
Transi tion
Bren da
Gur k
Kine tic
TZ M
Tei k
docu mented
Innova tive
Rad wa
Alle gro
Strai ght
Him mel
TOG ETHER
Share Point
appro xi
Beng al
FRI END
Jas mine
L129 A2
PAG ER
íĥ ľ
STAF OC
Meh di
cyc lic
Snap chat
Philoso phi
Aya se
Esta tes
Esta dio
Frie deri
NW SL
manu facturing
patter ns
COB IT
Marti ll
Armen ian
Monu ments
12747 3530
12747 2363
Brow ning
Swiss port
Ao ki
Ao arashi
Alu ba
Ate ker
AQU APLUS
PON Y
ð© »¸
modu lus
Gab rie
Excel sior
Property Group
Ava tar
JAS DF
Ola ru
Tetra gonosaurus
glu ta
ëĵ ¤
letter s
arg c
Mathi as
64BM 2
Divi nity
Bea ver
Bac kup
statis ticians
graphi cal
Gott fried
Gott lieb
Manda rin
Hut chison
KPL GT
Spect rum
Peters burg
exten sive
D3D TSS
Ptero dactylus
bbe an
ë© Ģ
recogni tion
allo ws
allow ing
allow ed
food panda
Rau hut
Fabri ce
Gese tz
Voi th
Ferra gamo
capsu les
Agu st
ILL USION
Lens Craf
MAP ATS
Om ni
Pers pective
Rous se
Zeni Max
fl ying
remai ning
remai ns
Ther mal
Joa quin
Sey mour
Favo rites
UNIVER SAL
McKen na
Janus z
Nicole lis
Lyco des
Honor ary
Mone x
Ngu yen
Phar matex
Sven ska
alter native
deci ded
bill board
moni tor
Diet rich
Bona parte
Naka yoshi
Kiri lenko
Hae un
cluster ing
opera tional
____ __
appli cations
Ame lia
B0 D3FB
Buo n
Dus k
Isi dor
Isi dore
Kni fe
Oz ploitation
Slee ping
trun cated
memb ran
radi ko
Mash had
Remote Access
Statis tical
Lago on
corona virus
Else vier
Survi val
Survi vor
Terri tory
cauda tus
Bian ca
Bain s
Fli ckr
JES C
Kel ley
Shou ld
Tool bar
uti ls
uti lity
detai ls
Vien na
Dimi tri
Mara thon
Civi lization
intro duction
intro duced
Flexi ty
Compag nia
Confedera cy
BRE AK
Crun ch
Crun chyroll
Cron os
Ef nisien
IH SA
athe matic
indivi duals
Missi onary
Rapi ds
administra tion
Thri ller
Alek san
Vander bilt
Invent ory
Monitor ing
Sketch pad
Aso bi
Imi tation
RING ER
Vang uard
Wyn n
ico si
swe et
ð¢ ĦĤ
liter al
thora x
doctor al
rune lve
Deb bie
Wink ler
Wille m
consi sts
Arro wiz
Alban s
APFS DS
Bolo gna
Nic col
Interna zi
NORT H
Casca dia
Katha rine
Aposto lic
Neigh bor
Nouve lle
Dres den
KUR AKI
Sku ll
Tris tan
grow ing
tse va
cee dings
nais sance
hori zon
Mete or
Balan cer
Bohe mian
Bois sevain
Birk in
competi tion
Pix ar
Bung ie
CHAN NEL
LOFT ER
Duck worth
POR TABLE
activa ted
Benedi ct
Shor ts
varian ce
BYO B
Dat sun
Ero de
Eber hard
Pn P
lily pond
suffi x
chich te
inser t
metro politan
Vibe ology
IDO LiSH7
Navar ro
propel lant
Britan nica
Vari ety
Socie dad
Zacha ry
Bless ing
Emin em
LMD h
Nuo va
OPP O
Pand ora
Phel ps
RAIR IA
jt L
âŀ Ĭ
ì¦ Ī
íĨ ¨
rele vant
Coch rane
SACR A
aspe ct
Jame son
Bios cience
Saku rai
MP40 PH
Luci fer
Unders tanding
Bendi geidfran
Velu pillai
RAH MAN
O2a2 b1a
signifi cant
curvi rostratus
Settle ment
Maschi nen
Jacque line
9M3 17
AAI B
Edy ta
Funi mation
Hone st
Mof fat
M68 A1
NSO F
QUE EN
Sx S
Shat ter
Sm2 O3
Xing u
alveo laris
exis ting
iQ IYI
linguis tics
Matis off
atry gon
Vio let
Pavi lion
Decla ration
Protec taid
Dist Belief
Rapha el
Caran x
Bapti st
Sagi tta
Socks Cap
Hille berg
koon j
Helico pter
Montre al
Abhi yan
Imma culate
SetTexture StageState
CIRC US
supercilio sus
Narcis sus
participan ts
ðłµ ĩ
Scandina vian
Plasmo dium
Tumbl r
Minga Yo
BEAUT IFUL
Ginga MingaYo
Gwa wl
Ix tat
Igle sia
Oste o
Pf P
Svar ga
aver age
twit ter
envelo pe
budd ha
sugges ted
45GP 802
Rotara ct
Proven ce
Dif fusion
Goku be
WorldWide Web
Kow loon
Bertran d
Canter bury
McN ally
Untoucha ble
Dont nod
Minu tes
Woznia cki
Tennes see
Karao ke
Longi pes
Chronic les
Hallo ween
DIAM OND
Lyce um
Khali fa
NIJI SANJI
Pelle tier
comparison s
CREAT IVE
Trinovan tum
explor ation
pomodor osa
Blon de
Edin burgh
Joom bas
KAKU YOMU
LVM H
Pwy ll
Rhab do
Snea ker
Truo i
Zono phone
vOIC e
ëĺ Ĳ
gebrai c
tiguan odon
tebor gs
sagi ttirostris
23and Me
infra structure
40PPP 2500
40PPM 2500
35PPT 1000
Rems cheid
howe ver
rynge al
AC4400 CW
vawong sir
Tomoda chi
Bayes ian
Botani cal
Biau Kai
Kitano arata
ALGO L
Carlis le
Carhar tt
Stellan tis
GoFund Me
CHES HIRE
CR223 LD
Approp ria
EXOD US
OnGame Net
Guate mala
Philadel phia
Escapi st
sedgwick ii
Sympho nic
Churchi ll
Turquo ise
Renais sance
teauneu f
paradig m
MONTER EY
Wookiee pedia
Victorino x
PRESEN TS
selenocy steine
LensCraf ters
0 201
0 180
0 360
0 124
0 146
0 243
1 F
1 1898
1 A2
2 b
2 i
2 x
2 201
2 197
2 170
2 101
2 104
2 109
2 CE
2 102
2 SH
2 136
2 116
2 152
2 177
2 179
3 T
3 a
3 201
3 150
3 Com
3 BM
3 104
3 109
3 128
3 173
3 184
3 346
3 245
3 295
4 L
4 Y
4 150
4 km
4 116
4 155
4 152
4 279
4 257
4 Gamer
5 M
5 P
5 b
5 240
5 cm
5 260
5 270
5 204
6 C
6 V
6 f
6 198
6 240
6 229
6 152
6 1508
7 F
7 106
7 662
8 cm
8 260
9 D
9 192
9 394
A w
A an
A shi
A ren
A qu
A ci
A pi
A ba
A su
A 25
A 31
A ken
A 89
A we
A lia
A AV
A Open
A 220
A ffi
A WE
A 340
A ino
A mos
A cross
A dele
A chei
A mour
A bove
A bies
A 400M
B m
B ao
B 13
B TC
B II
B ry
B ly
B um
B end
B GB
B hat
B res
B PD
B und
B HL
B read
B HER
B KT
B lee
B HM
C 0
C w
C ao
C fa
C hou
C ya
C 200
C 10
C hei
C 25
C 35
C 70
C II
C NA
C 51
C ad
C ED
C IV
C uni
C GP
C ten
C SC
C 02
C MD
C TR
C GN
C VA
C ain
C AB
C TP
C INE
C rist
C lea
C rich
C tr
C 939
C TSB
D uan
D 13
D 46
D 33
D 58
D 57
D 83
D AS
D EN
D MP
D CC
D art
D UT
D 209
D war
D uel
D 940
D asy
D WAN
D ISM
D reaming
D CCC
D 3205
E ru
E xu
E po
E 60
E 36
E do
E el
E BC
E 92
E lia
E rs
E lis
E mb
E rie
E MB
E LC
E 235
E UM
E than
E wing
E stre
E HOME
E KF
E lves
E tika
E ttore
F y
F eng
F es
F AP
F SM
F IM
F INE
F oun
F RA
F SF
F WA
F SV
F EL
F m3
F GF
F lix
F ruit
F UCK
F ringe
G h
G m
G 15
G 13
G 60
G 32
G ho
G 76
G HR
G SO
G GP
G art
G her
G 351
H su
H wa
H 30
H 23
H ra
H 42
H SA
H AC
H PC
H ers
H UA
H IM
H INE
H Br
H und
H air
H QS
H MOS
H lav
H ONEY
I er
I gu
I ru
I AC
I lli
I AG
I RS
I HF
I ves
I mple
I ARC
I MAG
I gno
I veys
J ang
J al
J 31
J BC
J AM
J US
J SC
J PL
J OK
J BB
J FE
J SAT
J ANET
J SFX
J 2329
J yuu
K 0
K Q
K g
K ya
K lei
K wa
K wi
K BC
K eri
K DA
K DP
K line
K 102
K not
K 231
K rei
K 309
K 588
K 666
K eil
K usta
K 586
K ERS
K 1264
K ARA
K 779
K IDS
K roe
K Turtle
L b
L p
L t
L ian
L uo
L IP
L our
L DP
L DO
L 115
L TP
L F1
L NER
M ui
M 11
M 17
M 36
M 37
M 61
M 51
M 1951
M St
M SS
M 1934
M 117
M GO
M ero
M UB
M FA
M 231
M 249
M ATA
M STA
M yung
M zc
N 7
N b
N x
N ong
N 22
N 29
N 36
N 38
N 43
N 82
N MV
N CP
N III
N DC
N DR
N MD
N ain
N IM
N YP
N IE
N PCI
N JC
N xe5
N xc6
O ren
O 10
O 11
O SA
O no
O IS
O tt
O ster
O FC
O MC
O stra
O HC
O CA
O LT
O LD
O OP
O pal
O chs
O bama
O hashi
O ttawa
P Y
P s
P ye
P 30
P 21
P ty
P TV
P 63
P MA
P IP
P IT
P DV
P MP
P MI
P III
P IA
P HO
P IF
P uni
P RS
P VA
P Es
P FM
P lum
P 226
P ono
P UD
P ARC
P APA
P roud
P farr
Q G
Q V
Q 20
Q in
Q CJ
Q Widget
Q NX
R ong
R 15
R IS
R SM
R EP
R MP
R DC
R DA
R ory
R NS
R oun
R D1
R LX
R SO2
R DDL
S 0
S j
S ao
S tie
S kan
S nu
S 60
S 35
S vi
S Mi
S cro
S cou
S CC
S LE
S NG
S IR
S hy
S BR
S CDMA
S quid
S 3M
S crip
S yed
S later
S IDS
S JK
S erie
S tings
S gr
S porting
S FCS
S pread
S quir
S wern
S nyder
T 0
T j
T zi
T zu
T 13
T rui
T 65
T et
T one
T 81
T SM
T 05
T IG
T BD
T 01
T DA
T 08
T SH
T 116
T PO
T 270
T bit
T BN
T DK
T GS
T UM
T 277
T NM
T rian
T ues
T ULF
U 8
U O
U U
U W
U z
U ru
U ma
U CD
U RO
U RS
U BE
U VA
U mber
U IM
U DF
U sing
U O3
U bn
U VP
U kra
V x
V z
V ue
V 30
V 100
V at
V BS
V ed
V IR
V IO
V BR
V FX
V HP
V LAN
V Kon
V lad
V rij
V HDL
V oodoo
W eng
W rong
W 15
W MV
W EP
W CP
W ent
W ham
W ALL
W hor
W OND
W INTER
X J
X an
X 10
X cen
X 86
X 360
X tra
X VI
X SLT
Y H
Y ui
Y el
Y BC
Y as
Y FC
Y ul
Y it
Y AMA
Y MCA
Y hya
Z 5
Z P
Z ing
Z hou
Z 15
Z hen
Z ur
Z BD
Z IE
Z ak
Z ung
Z 372
Z 374
Z ones
Z KR
_ -
a fa
a han
a za
a ki
a les
a go
a ris
a tes
a tive
a king
a qua
a ctions
a dult
a yumi
b j
b m
b ong
b hai
b bo
b red
b low
b ham
b willer
c lou
c tio
c DNA
c rum
c lim
c fm
d M
d n
d w
d sen
d ys
d type
e lin
e 16
e ck
e Don
e ady
f ting
f pe
f ero
f bank
g c
g v
g hu
g lie
g ho
g pla
g rp
h w
h ru
h rt
h tons
i b
i ti
i mi
i ter
i con
i Fi
i Mac
i tems
i tera
i Player
i Disk
i MUSE
j l
j wa
j as
j andro
k li
k ku
k hun
k oo
l g
l man
l sa
l land
l dings
m W
m bor
n f
n ui
n ding
n der
n ders
n hofer
o man
o ck
o tic
o sis
o ms
o cca
o wicz
o witz
p g
p v
p 100
p so
p ted
p lum
p rono
q e
q y
q ar
q sort
r ara
r ors
r ches
s sh
s wan
s lin
s no
s ko
s cra
s word
s sel
s lim
s lee
s wick
s cription
s borough
s bourg
s leep
t sh
t hai
t hei
t ko
t ria
t ney
t rough
t raordinary
t tingen
u g
u ma
v 8
v ro
v ein
v WF
v log
w j
w r
w ui
w ler
w ned
x 6
x h
x or
x 80
y 1
y f
y na
z l
z s
z na
z or
z oo
z ara
z mann
z burg
z quez
¨ ĳ
Ã Ī
Ã į
Ã Ķ
Ä ī
Æ ´
È Ł
É ĵ
Ì £
Í ĺ
Ð ģ
Ð Ĩ
Ò ¢
Ò ĸ
Õ ¾
Ö ¹
Ø «
Ø Į
Ù Ĳ
Ú Ĩ
á ī
á Į
á ĳ
ê ľ
ë ķ
ë Ł
ì Ķ
í ĭ
í İ
í Ĺ
ï º
ï ¨ĳ
ģ Ĵ
ī Ħ
Ł ĥ
ng el
an dan
an ts
an no
an us
an teri
an cient
sh m
sh of
ai m
ai son
de ck
de ley
de red
de portivo
ei zh
ei ne
ei ther
shi ro
ou ter
ou ts
yi sm
en an
en ing
en ment
en nes
en cyclo
en ough
ch l
ch mod
ch rono
ch grp
eng kau
li ma
li se
li ce
li gen
li al
li lo
li vi
li tz
li jn
li cence
ing ens
ui t
ui cula
wei ler
wei ghted
ren z
ren to
ren der
un n
un t
un u
un as
un sor
un paid
di ya
di nal
di gy
di cho
di lly
di llo
di eria
di sser
di methyl
di saster
he s
he ta
he ri
he ll
he sia
bu y
bu ra
bu lum
bu lae
bu ffalo
er n
er ta
er as
da ge
da la
hu ge
si h
si la
si lo
si tta
si dae
si mir
si zing
si kawasay
ge y
ge ois
fu li
fu ck
ke m
ke lang
ke ep
ke camatan
bi sh
bi al
bi tch
bi byte
zi oni
bei t
fa le
fa eth
ti p
ti en
ti ss
ti ment
ti ght
ti llo
ti bility
ti gers
ti ssue
mi m
mi xi
mi ch
mi di
mi zu
mi ro
mi ts
mi as
mi ko
mi tes
mi tter
mi ii
mi lk
ta p
ta re
ta lia
ta pur
ta tum
ta rius
ta bles
ta ctic
20 64
20 68
20 98
20 97
20 82
20 92
20 81
20 381
ri f
ri di
ri ze
ri gi
ri nt
ri llo
ri ties
ri fera
ri cane
le gen
le ve
le pto
hou nd
hou rs
dong i
ci c
ci lie
ci der
ci ona
ci pes
ci nus
ye e
gu ri
gu ru
gu ard
lu g
lu ma
lu cia
lu cci
lu jah
dan ae
dan andan
jun ior
du c
du l
du ka
dian a
tai lle
xia l
xia s
mu ng
mu da
mu ter
mu tation
mu tual
mu hlen
ru b
ru l
ru shi
ru st
ru tia
nan ense
zu k
zu l
zu ca
ban ks
ling am
ling ua
pi ro
pi tt
pi vo
pi nas
ni m
ni ge
ni hi
ni son
ni cht
ni fication
ni tsky
bo k
bo ni
bo on
bo lus
te sta
te lle
te vant
la da
la min
la han
la ar
la ck
la mp
la tes
la bel
ma z
ma ting
ma ka
ma lo
ma ki
ma ted
ma lly
ma cher
ma teri
ma sak
ma charya
ba li
ba ge
ba ru
ba ron
ba tus
ba ret
ba uer
ba llis
xie s
sai lles
san e
san ti
san na
san ds
che er
che my
men or
men tos
men tale
tu x
tu bu
tu ck
tu ary
tu ration
tu mor
tu sirostris
su lin
su den
su tra
su dah
lei l
201 00
lan da
mo m
mo bi
mo the
mo ral
mo logy
mo vement
na c
na min
na th
na tor
na cle
na zee
na hada
ze h
ze ll
lv ing
lv rave
han e
lin ed
lin ks
lin ensis
lin sky
chi d
chi ni
chi dae
chi atric
200 mm
ku k
ku la
gui n
gui dance
pu y
pu le
10 800
10 110
10 mm
10 MB
10 MW
cha k
cha p
cha ster
dou in
dou reau
can ic
can onical
tou m
tou rist
ran z
ran ji
se q
se ye
se se
se th
se mble
ce le
ce ment
ce lli
ce ed
chan d
chan dra
00 20
00 42
00 41
sha r
sha der
tan j
18 E
ka w
ka de
ka ta
ka lis
ka ppa
ka kay
202 206
gen a
gen ic
gen ome
11 C
11 200
11 111
11 643
po ta
po ster
po tato
po nera
re o
re ge
re ba
re el
re fe
re ali
re publi
re member
re duced
re garding
re trieval
wa v
wa li
wa lla
wa my
mai d
mai ns
mai ntenance
ha la
ha ar
ha lo
ha ven
15 B
15 C
15 m
15 cm
pan e
pan el
dun um
sa h
sa ku
sa lt
sa bra
sa mple
kan o
or ni
lao s
16 B
16 C
16 M
17 500
on ke
rang es
14 E
14 500
30 16
30 30
30 34
30 44
30 88
30 N6
30 fps
13 P
hun di
sen e
sen i
sen ko
sen berg
sen ik
sen sitive
bin ti
25 A
25 18
25 17
25 14
25 35
25 39
25 64
25 58
25 54
25 76
25 95
25 74
25 92
25 81
25 91
25 kV
sun d
sun o
ning en
for te
for mal
pa c
pa ris
pa rie
mou che
24 10
24 11
24 21
24 26
24 75
24 32
24 64
24 84
24 06
21 19
21 Mbps
23 A
23 20
23 30
23 75
23 47
23 44
23 99
23 54
23 72
23 82
28 A
28 17
28 30
28 80
28 44
28 04
in er
in ju
in fe
in fer
in crea
in ette
in finity
in jection
in fluen
in fluence
22 12
22 21
22 90
22 77
22 98
22 62
22 95
22 97
22 71
ar m
ar cha
ar Xiv
me ti
me ss
me ly
26 11
26 15
26 28
26 80
26 88
26 76
26 86
26 94
50 S
50 11
50 24
50 75
50 68
50 77
50 MW
50 ETF
27 20
27 12
27 30
27 21
27 23
27 40
27 33
27 79
27 85
27 82
27 83
ï¼ ©
ï¼ º
29 46
29 79
29 54
29 87
29 92
29 07
za ri
za wa
000 5
ne k
ne ment
ne ls
ro ni
ro man
ro sa
ro yal
ro kee
st der
st ron
ra q
ra ya
ra ted
ra tive
ra mendi
kun a
40 K
40 M
40 m
40 15
40 mm
2013 fs
lt hy
rou ge
cu ba
cu bic
cu stom
60 27
60 th
60 GP
60 320
al li
al ti
al ta
al ba
al ert
al gebraic
100 88
sou l
sou p
sou th
co a
co d
co g
co don
co mis
co saurus
co march
co llis
co pies
fo cu
fo lo
fo nica
2000 s
80 49
80 79
80 63
80 86
ãģ ´
the k
the matic
35 10
35 50
35 70
35 67
35 PP
35 FPK
70 40
lo c
lo he
lo ge
lo ma
lo ba
lo ka
lo vi
lo pe
lo cations
lo gnathus
of e
90 70
90 90
90 Hz
90 nm
leng aw
am mo
am mon
ter mes
ter nity
ter mination
th n
th ren
th rix
to w
to y
to le
to ck
to gra
to ps
to nic
to ire
45 30
45 50
45 90
45 77
45 km
48 30
48 N6
ve ge
ga ge
ga sta
ga dis
ga tions
36 20
36 95
38 19
38 11
38 90
37 17
37 80
37 57
Ma q
Ma me
Ma con
Ma so
Ma gn
Ma ps
Ma yo
Ma Ya
Ma hin
Ma cie
Ma lek
Ma rek
Ma kovi
Ma kito
pen s
pen ded
pen sation
ll or
IN NO
IN NOC
TC G
do me
do so
do ors
do mus
do cking
do kawa
34 C
34 12
34 44
75 25
Co da
Co nan
Co mer
Co mes
Co des
Co rin
Co stu
Co astal
ca to
ca ts
ca sts
ca rina
ca mines
39 50
be g
be er
be om
be ach
be lum
65 10
65 50
65 79
65 89
65 92
32 M
32 13
ST V
ST ONE
47 c
47 90
47 68
47 99
500 3
In d
In san
In dica
In forma
64 B
64 32
64 MB
ss man
The Gamer
The Dogs
vi ca
vi ation
vi cti
vi ctory
vi sit
vi mpa
vi aroma
SE CR
SE TI
55 26
55 80
55 35
55 70
55 78
Re m
Re ge
Re te
Re ba
Re mo
Re gan
Re ven
Re ary
Re 460
Re ach
Re gal
Re ese
Re lati
Re cycle
Re chts
Re creation
Re minis
Re dux
Re surrection
Re pository
Re visited
hi a
hi d
hi y
hi me
49 86
II E
II K
68 K
68 10
68 59
44 AC
br era
Mi a
Mi sa
Mi st
Mi ld
Mi sta
Mi ght
Mi lle
Mi rk
Mi sty
Mi len
Mi cah
Mi gadis
67 74
es que
es cu
58 60
at ti
at on
at tra
AT B
AT F
AT OM
AT ase
pe li
pe arach
42 A
42 C
Li 2
Li ll
Li so
Li lli
Li PS
Li pt
Li ech
Li lac
Li brai
ver a
ver r
ver ts
ty ping
69 10
69 60
69 33
Ro mu
Ro na
Ro han
Ro ton
Ro tta
Ro ckets
is y
is ta
run ner
ho le
ho pe
ho ek
59 40
43 20
43 27
43 90
66 45
SA K
SA Y
SA 05
SA 8000
SA RY
SA BER
ct rine
wi c
wi ce
wi ts
[...]
