{"!":0,"\"":1,"#":2,"$":3,"%":4,"&":5,"'":6,"(":7,")":8,"*":9,"+":10,",":11,"-":12,".":13,"/":14,"0":15,"1":16,"2":17,"3":18,"4":19,"5":20,"6":21,"7":22,"8":23,"9":24,":":25,";":26,"=":27,"?":28,"@":29,"A":30,"B":31,"C":32,"D":33,"E":34,"F":35,"G":36,"H":37,"I":38,"J":39,"K":40,"L":41,"M":42,"N":43,"O":44,"P":45,"Q":46,"R":47,"S":48,"T":49,"U":50,"V":51,"W":52,"X":53,"Y":54,"Z":55,"[":56,"\\":57,"]":58,"^":59,"_":60,"`":61,"a":62,"b":63,"c":64,"d":65,"e":66,"f":67,"g":68,"h":69,"i":70,"j":71,"k":72,"l":73,"m":74,"n":75,"o":76,"p":77,"q":78,"r":79,"s":80,"t":81,"u":82,"v":83,"w":84,"x":85,"y":86,"z":87,"|":88,"~":89,"¡":90,"¢":91,"£":92,"¤":93,"¥":94,"¦":95,"§":96,"¨":97,"©":98,"ª":99,"«":100,"¬":101,"®":102,"¯":103,"°":104,"±":105,"²":106,"³":107,"´":108,"µ":109,"¶":110,"·":111,"¸":112,"¹":113,"º":114,"»":115,"¼":116,"½":117,"¾":118,"¿":119,"Â":120,"Ã":121,"Ä":122,"Å":123,"Æ":124,"Ç":125,"È":126,"É":127,"Ê":128,"Ë":129,"Ì":130,"Í":131,"Î":132,"Ï":133,"Ð":134,"Ñ":135,"Ò":136,"Ó":137,"Ô":138,"Õ":139,"Ö":140,"×":141,"Ø":142,"Ù":143,"Ú":144,"Û":145,"Ü":146,"Þ":147,"ß":148,"à":149,"á":150,"â":151,"ã":152,"ä":153,"ê":154,"ë":155,"ì":156,"í":157,"î":158,"ï":159,"ð":160,"ñ":161,"Ċ":162,"Ġ":163,"ġ":164,"Ģ":165,"ģ":166,"Ĥ":167,"ĥ":168,"Ħ":169,"ħ":170,"Ĩ":171,"ĩ":172,"Ī":173,"ī":174,"Ĭ":175,"ĭ":176,"Į":177,"į":178,"İ":179,"ı":180,"Ĳ":181,"ĳ":182,"Ĵ":183,"ĵ":184,"Ķ":185,"ķ":186,"ĸ":187,"Ĺ":188,"ĺ":189,"Ļ":190,"ļ":191,"Ľ":192,"ľ":193,"Ŀ":194,"ŀ":195,"Ł":196,"ł":197,"Ń":198,"ng":199,"an":200,"sh":201,"zh":202,"ji":203,"ang":204,"ĠĠ":205,"ong":206,"xi":207,"ao":208,"ai":209,"de":210,"ei":211,"shi":212,"yu":213,"ou":214,"yi":215,"en":216,"ch":217,"ian":218,"uo":219,"eng":220,"li":221,"ĠĠĠ":222,"ãĢ":223,"ing":224,"ui":225,"wei":226,"uan":227,"zhi":228,"qi":229,"nian":230,"zhong":231,"you":232,"ren":233,"un":234,"zai":235,"di":236,"guo":237,"ãĢģ":238,"he":239,"bu":240,"er":241,"gong":242,"xing":243,"cheng":244,"da":245,"zhu":246,"hu":247,"yuan":248,"si":249,"jian":250,"yue":251,"ge":252,"fu":253,"xian":254,"ue":255,"ke":256,"wu":257,"chu":258,"shu":259,"sheng":260,"jie":261,"jia":262,"bi":263,"dao":264,"zi":265,"bei":266,"hui":267,"fa":268,"xiang":269,"ti":270,"zheng":271,"mi":272,"ta":273,"jin":274,"qu":275,"20":276,"tong":277,"ri":278,"ju":279,"jing":280,"ming":281,"le":282,"hou":283,"shang":284,"shou":285,"dong":286,"ci":287,"fang":288,"19":289,"hua":290,"yin":291,"xue":292,"guan":293,"zhan":294,"ye":295,"ying":296,"zuo":297,"zhe":298,"yan":299,"mei":300,"jiao":301,"gu":302,"chang":303,"xin":304,"dui":305,"lu":306,"bing":307,"bao":308,"fen":309,"dan":310,"huo":311,"jun":312,"jiang":313,"du":314,"xiao":315,"dian":316,"yong":317,"qian":318,"she":319,"tai":320,"xia":321,"mu":322,"wen":323,"gai":324,"zhang":325,"liang":326,"ya":327,"ru":328,"dai":329,"hai":330,"nan":331,"zhou":332,"zu":333,"wang":334,"lai":335,"ban":336,"jiu":337,"dang":338,"qing":339,"ping":340,"shen":341,"ãĢĭ":342,"ãĢĬ":343,"wan":344,"lian":345,"ling":346,"luo":347,"Â·":348,"min":349,"quan":350,"pi":351,"ni":352,"bo":353,"duo":354,"te":355,"ben":356,"gao":357,"biao":358,"suo":359,"la":360,"ma":361,"kai":362,"ba":363,"xie":364,"xu":365,"bian":366,"deng":367,"yao":368,"yang":369,"mian":370,"zhen":371,"ding":372,"qiu":373,"zui":374,"sai":375,"liu":376,"fan":377,"xuan":378,"fei":379,"san":380,"shan":381,"che":382,"zong":383,"men":384,"ãĢĮ":385,"ãĢį":386,"tu":387,"tian":388,"hao":389,"su":390,"lei":391,"nei":392,"yun":393,"201":394,"lan":395,"feng":396,"mo":397,"na":398,"ze":399,"lv":400,"han":401,"kou":402,"wai":403,"neng":404,"lin":405,"chuan":406,"chi":407,"jue":408,"bai":409,"pai":410,"200":411,"ku":412,"cai":413,"zao":414,"ting":415,"zhuan":416,"gang":417,"lie":418,"guang":419,"gui":420,"lun":421,"sui":422,"pu":423,"ceng":424,"kong":425,"shui":426,"10":427,"chao":428,"zhuang":429,"cha":430,"dou":431,"can":432,"tou":433,"ran":434,"se":435,"duan":436,"cun":437,"huan":438,"cong":439,"pin":440,"ce":441,"chan":442,"xun":443,"gou":444,"00":445,"nv":446,"zhao":447,"gan":448,"chong":449,"sha":450,"tan":451,"18":452,"qin":453,"ka":454,"meng":455,"qiang":456,"huang":457,"xiu":458,"12":459,"tiao":460,"man":461,"shao":462,"kuo":463,"long":464,"pian":465,"shuo":466,"tuan":467,"tang":468,"rong":469,"geng":470,"202":471,"chen":472,"tui":473,"gen":474,"que":475,"tie":476,"11":477,"qie":478,"wo":479,"po":480,"pei":481,"hang":482,"hong":483,"199":484,"bang":485,"liao":486,"chuang":487,"bie":488,"re":489,"tuo":490,"tao":491,"song":492,"wa":493,"mai":494,"ha":495,"15":496,"pan":497,"dun":498,"diao":499,"qiao":500,"sa":501,"mao":502,"lang":503,"kan":504,"kang":505,"âĢ":506,"or":507,"lao":508,"zeng":509,"16":510,"198":511,"kao":512,"xiong":513,"17":514,"on":515,"nuo":516,"miao":517,"rang":518,"kuang":519,"hen":520,"suan":521,"14":522,"30":523,"zhun":524,"13":525,"194":526,"cao":527,"hun":528,"qun":529,"nong":530,"197":531,"heng":532,"shuang":533,"lou":534,"gei":535,"kuai":536,"piao":537,"zha":538,"hei":539,"niu":540,"195":541,"sen":542,"bin":543,"reng":544,"zou":545,"196":546,"chun":547,"kuan":548,"25":549,"âĢĶ":550,"rui":551,"sun":552,"pao":553,"ning":554,"for":555,"pa":556,"cang":557,"mou":558,"24":559,"peng":560,"huai":561,"21":562,"193":563,"23":564,"mula":565,"formula":566,"28":567,"zan":568,"ruo":569,"in":570,"22":571,"chou":572,"zhui":573,"ar":574,"me":575,"26":576,"50":577,"2020":578,"27":579,"nai":580,"nu":581,"ï¼":582,"29":583,"shun":584,"2010":585,"za":586,"000":587,"lve":588,"zhai":589,"2019":590,"ne":591,"ro":592,"juan":593,"st":594,"ra":595,"cui":596,"kun":597,"2016":598,"luan":599,"2018":600,"cuo":601,"2021":602,"zang":603,"2014":604,"shuai":605,"2011":606,"2015":607,"2017":608,"2012":609,"40":610,"2013":611,"nao":612,"2022":613,"die":614,"ruan":615,"kui":616,"lt":617,"rou":618,"cu":619,"sang":620,"2009":621,"2008":622,"ãĥ":623,"60":624,"niao":625,"al":626,"rao":627,"chai":628,"100":629,"zhuo":630,"2023":631,"gt":632,"sou":633,"190":634,"31":635,"ken":636,"2007":637,"2001":638,"teng":639,"pang":640,"fou":641,"co":642,"fo":643,"gua":644,"2000":645,"80":646,"2006":647,"2024":648,"ãģ":649,"2005":650,"zun":651,"tion":652,"kua":653,"the":654,"35":655,"70":656,"nie":657,"lo":658,"of":659,"90":660,"leng":661,"ï¼į":662,"ãĤ":663,"am":664,"tun":665,"ter":666,"mie":667,"2004":668,"th":669,"to":670,"45":671,"48":672,"mang":673,"2025":674,"ve":675,"ga":676,"ãĢī":677,"ãĢĪ":678,"36":679,"38":680,"2003":681,"37":682,"Ma":683,"chui":684,"pen":685,"ll":686,"189":687,"IN":688,"2002":689,"keng":690,"TC":691,"do":692,"34":693,"75":694,"âĢĵ":695,"Co":696,"46":697,"ca":698,"1990":699,"âĢ¦":700,"ck":701,"39":702,"..":703,"be":704,"65":705,"32":706,"ST":707,"47":708,"UTC":709,"1999":710,"1998":711,"1980":712,"188":713,"500":714,"33":715,"In":716,"64":717,"ss":718,"The":719,"vi":720,"SE":721,"55":722,"1997":723,"Re":724,"hi":725,"49":726,"II":727,"el":728,"68":729,"et":730,"44":731,"1996":732,"oo":733,"qiong":734,"1994":735,"gun":736,"br":737,"guai":738,"1992":739,"1995":740,"Mi":741,"67":742,"and":743,"sao":744,"es":745,"1991":746,"1970":747,"58":748,"1950":749,"300":750,"1993":751,"187":752,"1949":753,"at":754,"AT":755,"pe":756,"1960":757,"42":758,"1945":759,"Li":760,"ver":761,"qia":762,"1988":763,"ty":764,"1989":765,"69":766,"Ro":767,"is":768,"run":769,"SEE":770,"niang":771,"INSEE":772,"ho":773,"59":774,"43":775,"66":776,"57":777,"1985":778,"99":779,"SA":780,"ãĢİ":781,"ãĢı":782,"ct":783,"1984":784,"41":785,"88":786,"1986":787,"wi":788,"ol":789,"ws":790,"TV":791,"ry":792,"150":793,"Me":794,"nd":795,"400":796,"1987":797,"78":798,"1982":799,"56":800,"beng":801,"Vi":802,"Pa":803,"ts":804,"1983":805,"amp":806,"NA":807,"De":808,"CD":809,"gh":810,"fi":811,"weng":812,"ber":813,"77":814,"Win":815,"per":816,"zuan":817,"Sta":818,"79":819,"OS":820,"Wi":821,"Â°":822,"ï½":823,"der":824,"180":825,"BC":826,"54":827,"1979":828,"61":829,"1920":830,"as":831,"Mo":832,"seng":833,"98":834,"52":835,"You":836,"1978":837,"no":838,"62":839,"53":840,"ly":841,"shua":842,"La":843,"ï½ŀ":844,"BA":845,"1946":846,"CO":847,"51":848,"1958":849,"gi":850,"Jo":851,"1981":852,"1972":853,"1948":854,"Le":855,"tw":856,"AM":857,"63":858,"AR":859,"ction":860,"1941":861,"BS":862,"Ga":863,"1930":864,"Da":865,"Pro":866,"Te":867,"76":868,"hans":869,"1940":870,"1937":871,"1976":872,"1944":873,"Ja":874,"89":875,"us":876,"Di":877,"Windo":878,"1975":879,"ï¼ı":880,"1968":881,"hk":882,"con":883,"Fi":884,"um":885,"Si":886,"1000":887,"Windows":888,"95":889,"87":890,"nal":891,"Mar":892,"1966":893,"rd":894,"85":895,"Ne":896,"Ra":897,"ki":898,"600":899,"120":900,"1947":901,"Se":902,"AC":903,"1956":904,"1964":905,"Be":906,"1942":907,"Ã©":908,"1955":909,"1952":910,"IS":911,"ad":912,"1939":913,"1938":914,"72":915,"ur":916,"74":917,"Ca":918,"va":919,"1973":920,"1974":921,"1954":922,"Ar":923,"Al":924,"ED":925,"1900":926,"--":927,"AP":928,"1943":929,"To":930,"1977":931,"ld":932,"1971":933,"cen":934,"lay":935,"1967":936,"Ba":937,"IC":938,"800":939,"Po":940,"Lo":941,"ER":942,"zhua":943,"sta":944,"86":945,"1959":946,"Bo":947,"tt":948,"1965":949,"JR":950,"1969":951,"Fa":952,"ãĥ»":953,"ÃĹ":954,"ID":955,"Bi":956,"son":957,"1936":958,"160":959,"97":960,"1953":961,"Sa":962,"MA":963,"1962":964,"1961":965,"nen":966,"Na":967,"âĶ":968,"So":969,"1935":970,"com":971,"Ho":972,"tic":973,"96":974,"ON":975,"ï¼ħ":976,"1951":977,"St":978,"1957":979,"1963":980,"Tu":981,"âĶĢ":982,"fe":983,"so":984,"ment":985,"84":986,"Hi":987,"2026":988,"82":989,"Do":990,"mer":991,"Ri":992,"73":993,"nt":994,"94":995,"92":996,"Ki":997,"Ha":998,"nang":999,"one":1000,"IP":1001,"AN":1002,"ls":1003,"1933":1004,"1931":1005,"les":1006,"71":1007,"nuan":1008,"Com":1009,"83":1010,"93":1011,"ted":1012,"Su":1013,"81":1014,"Ti":1015,"Mu":1016,"1918":1017,"Ni":1018,"HD":1019,"Uni":1020,"1928":1021,"pp":1022,"1932":1023,"Cha":1024,"We":1025,"ys":1026,"MV":1027,"SS":1028,"110":1029,"IT":1030,"1912":1031,"No":1032,"1929":1033,"1927":1034,"1934":1035,"cn":1036,"700":1037,"go":1038,"zei":1039,"ght":1040,"ster":1041,"250":1042,"91":1043,"rt":1044,"lli":1045,"1924":1046,"ris":1047,"...":1048,"1919":1049,"nve":1050,"130":1051,"Pi":1052,"1925":1053,"Gi":1054,"PS":1055,"by":1056,"ed":1057,"mes":1058,"An":1059,"PC":1060,"140":1061,"AS":1062,"Play":1063,"1914":1064,"km":1065,"DV":1066,"tio":1067,"YouTu":1068,"SM":1069,"ble":1070,"gra":1071,"ko":1072,"1911":1073,"Con":1074,"Ch":1075,"lla":1076,"1926":1077,"lle":1078,"Ge":1079,"Par":1080,"id":1081,"Ta":1082,"1922":1083,"Lin":1084,"mp":1085,"1917":1086,"He":1087,"Ka":1088,"ET":1089,"NBA":1090,"wn":1091,"IV":1092,"EN":1093,"1923":1094,"1921":1095,"shai":1096,"Goo":1097,"chuo":1098,"170":1099,"à¸":1100,"EC":1101,"MS":1102,"ali":1103,"AL":1104,"ph":1105,"section":1106,"YouTube":1107,"EP":1108,"BL":1109,"1913":1110,"Car":1111,"Bu":1112,"zen":1113,"HK":1114,"we":1115,"hn":1116,"mm":1117,"ven":1118,"hant":1119,"âĨ":1120,"1909":1121,"sion":1122,"Inter":1123,"cro":1124,"MP":1125,"AI":1126,"Wor":1127,"Pe":1128,"ds":1129,"US":1130,"pro":1131,"DVD":1132,"ok":1133,"3000":1134,"En":1135,"1910":1136,"DS":1137,"RO":1138,"cou":1139,"Ste":1140,"sis":1141,"112":1142,"Go":1143,"rk":1144,"AK":1145,"RE":1146,"1916":1147,"Wa":1148,"lia":1149,"ãĥ¼":1150,"Station":1151,"For":1152,"Net":1153,"ff":1154,"Î±":1155,"oft":1156,"ine":1157,"den":1158,"lor":1159,"rea":1160,"tional":1161,"gn":1162,"ture":1163,"gle":1164,"CP":1165,"UN":1166,"âĪ":1167,"ard":1168,"1915":1169,"gin":1170,"1905":1171,"ps":1172,"FC":1173,"cal":1174,"vo":1175,"dia":1176,"My":1177,"CN":1178,"âĦ":1179,"âĨĴ":1180,"our":1181,"ers":1182,"1901":1183,"ent":1184,"Au":1185,"DNA":1186,"Ex":1187,"âĢ§":1188,"900":1189,"end":1190,"HR":1191,"dice":1192,".&":1193,"ther":1194,"tal":1195,"CH":1196,"TA":1197,"TO":1198,"1906":1199,"1904":1200,"AV":1201,"tes":1202,"MO":1203,"jiong":1204,"John":1205,"my":1206,"eri":1207,"codice":1208,"Man":1209,"âĦĥ":1210,"dy":1211,"PlayStation":1212,"Chi":1213,"05":1214,"CC":1215,"tive":1216,"diu":1217,"And":1218,"1907":1219,"dio":1220,"1908":1221,"Google":1222,"AG":1223,"Ci":1224,"EST":1225,"MI":1226,"SO":1227,"LE":1228,"sic":1229,"ree":1230,"BO":1231,"int":1232,"wit":1233,"BBC":1234,"Sch":1235,"AD":1236,"IG":1237,"land":1238,"III":1239,"cri":1240,"ton":1241,"1500":1242,"5000":1243,"cy":1244,"round":1245,"wer":1246,"IST":1247,"ms":1248,"ron":1249,"ME":1250,"CR":1251,"ul":1252,"3D":1253,"je":1254,"IA":1255,"ley":1256,"105":1257,"au":1258,"Ð°":1259,"ria":1260,"101":1261,"1903":1262,"tor":1263,"GB":1264,"van":1265,"09":1266,"TE":1267,"Lu":1268,"1902":1269,"BD":1270,"NC":1271,"Pri":1272,"Fe":1273,"xt":1274,"350":1275,"pou":1276,"Ã¡":1277,"SAO":1278,"des":1279,"DC":1280,"ja":1281,"Î²":1282,"cke":1283,"B1900":1284,"book":1285,"hat":1286,"ES":1287,"all":1288,"BM":1289,"ï¼İ":1290,"ãĥ³":1291,"Ru":1292,"ner":1293,"1898":1294,"res":1295,"06":1296,"118":1297,"op":1298,"ãģ®":1299,"360":1300,"DR":1301,"New":1302,"01":1303,"DA":1304,"Hu":1305,"Open":1306,"1895":1307,"ger":1308,"125":1309,"Sho":1310,"HO":1311,"MC":1312,"San":1313,"ATP":1314,"Micro":1315,"ctor":1316,"Ð¾":1317,"108":1318,"ft":1319,"cor":1320,"os":1321,"NG":1322,"Ke":1323,"clu":1324,"gy":1325,"gram":1326,"pri":1327,"ward":1328,"sty":1329,"IF":1330,"Cu":1331,"Fran":1332,"One":1333,"net":1334,"soft":1335,"ker":1336,"pt":1337,"âĪĴ":1338,"07":1339,"08":1340,"230":1341,"Face":1342,"104":1343,"pace":1344,"lspan":1345,"Cor":1346,"Per":1347,"Bar":1348,"World":1349,"App":1350,"EDT":1351,"ISTAT":1352,"cuan":1353,"Love":1354,"Ko":1355,"à¤":1356,"Har":1357,"NO":1358,"Stu":1359,"1896":1360,"LL":1361,"ux":1362,"109":1363,"DP":1364,"las":1365,"AA":1366,"fli":1367,"RI":1368,"Ju":1369,"pha":1370,"Ser":1371,"lus":1372,"line":1373,"RT":1374,"tri":1375,"SP":1376,"EX":1377,"B48":1378,"106":1379,"1890":1380,"rai":1381,"sti":1382,"mon":1383,"CST":1384,"ML":1385,"od":1386,"uni":1387,"CDT":1388,"bert":1389,"Je":1390,"rs":1391,"rus":1392,"red":1393,"DO":1394,"Pu":1395,"ky":1396,"HE":1397,"Cou":1398,"ation":1399,"Mon":1400,"04":1401,"4000":1402,"115":1403,"1200":1404,"M1":1405,"Pre":1406,"03":1407,"ler":1408,"GP":1409,"del":1410,"CE":1411,"Äģ":1412,"Live":1413,"begin":1414,"1889":1415,"ool":1416,"Davi":1417,"with":1418,"ara":1419,"1899":1420,"colspan":1421,"tain":1422,"back":1423,"1871":1424,"RS":1425,"sto":1426,"Facebook":1427,"Ed":1428,"Sha":1429,"Microsoft":1430,"mic":1431,"tem":1432,"âĢĭ":1433,"240":1434,"1600":1435,"LO":1436,"Tri":1437,"ten":1438,"tin":1439,"BE":1440,"low":1441,"102":1442,"box":1443,"clude":1444,"Ad":1445,"TT":1446,"1897":1447,"Sou":1448,"ser":1449,"NH":1450,"EE":1451,"Du":1452,"ces":1453,"PP":1454,"117":1455,"SC":1456,"val":1457,"02":1458,"por":1459,"cm":1460,"Mac":1461,"style":1462,"Che":1463,"rst":1464,"103":1465,"AKB48":1466,"Dan":1467,"MD":1468,"Nor":1469,"Ph":1470,"107":1471,"ral":1472,"Her":1473,"On":1474,"pre":1475,"ring":1476,"As":1477,"are":1478,"Willi":1479,"tel":1480,"Linux":1481,"lis":1482,"Ori":1483,"ww":1484,"Dis":1485,"shuan":1486,"gue":1487,"mas":1488,"450":1489,"Ber":1490,"VID":1491,"127":1492,"Music":1493,"Is":1494,"Ai":1495,"Gre":1496,"cer":1497,"Ã¼":1498,"tus":1499,"Vo":1500,"tra":1501,"128":1502,"flix":1503,"CL":1504,"Netflix":1505,"Bro":1506,"yo":1507,"1894":1508,"Game":1509,"220":1510,"Can":1511,"Gra":1512,"nin":1513,"ref":1514,"Ð½":1515,"William":1516,"Bri":1517,"IL":1518,"align":1519,"SH":1520,"bli":1521,"ory":1522,"Or":1523,"Twit":1524,"1880":1525,"Red":1526,"old":1527,"ÃŃ":1528,"RNA":1529,"136":1530,"PG":1531,"Ð¸":1532,"ãģĦ":1533,"rom":1534,"TR":1535,"Team":1536,"1800":1537,"ãĤ¹":1538,"Univer":1539,"ground":1540,"ia":1541,"1885":1542,"len":1543,"114":1544,"ãĤĵ":1545,"Hz":1546,"color":1547,"Gen":1548,"Ty":1549,"116":1550,"280":1551,"UR":1552,"ple":1553,"Ðµ":1554,"113":1555,"1886":1556,"ein":1557,"ãĤ¤":1558,"TS":1559,"PO":1560,"1893":1561,"lar":1562,"ex":1563,"rn":1564,"yn":1565,"Mc":1566,"name":1567,"111":1568,"SL":1569,"ãĦ":1570,"Super":1571,"She":1572,"stra":1573,"All":1574,"Gu":1575,"cial":1576,"lass":1577,"âĢ»":1578,"David":1579,"135":1580,"ject":1581,"Ac":1582,"260":1583,"Cen":1584,"Eu":1585,"lf":1586,"1860":1587,"port":1588,"ham":1589,"Geor":1590,"cho":1591,"national":1592,"Char":1593,"Un":1594,"WTA":1595,"lver":1596,"dge":1597,"work":1598,"HC":1599,"Th":1600,"tro":1601,"School":1602,"Ban":1603,"ks":1604,"sso":1605,"tch":1606,"tis":1607,"1888":1608,"Mor":1609,"qui":1610,"text":1611,"SD":1612,"Ã³":1613,"-.":1614,"UA":1615,"roup":1616,"lly":1617,"cation":1618,"ony":1619,"background":1620,"Meta":1621,"roid":1622,"ac":1623,"meri":1624,"Tra":1625,"129":1626,"GO":1627,"Sto":1628,"dis":1629,"1870":1630,"GN":1631,"ï¹":1632,"ream":1633,"1887":1634,"Show":1635,"Qu":1636,"cle":1637,"1868":1638,"6000":1639,"Ã¶":1640,"ÑĢ":1641,"1883":1642,"NF":1643,"VA":1644,"mar":1645,"Ver":1646,"day":1647,"320":1648,"Xbox":1649,"CS":1650,"was":1651,"Ang":1652,"NHK":1653,"Tho":1654,"AF":1655,"Fo":1656,"Twitter":1657,"DD":1658,"lyin":1659,"onlyin":1660,"onlyinclude":1661,"++":1662,"KP":1663,"don":1664,"1864":1665,"âĢ¢":1666,"Gir":1667,"ION":1668,"1884":1669,"119":1670,"Bla":1671,"RC":1672,"UE":1673,"ain":1674,"miu":1675,"122":1676,"Va":1677,"2500":1678,"1892":1679,"210":1680,"A1":1681,"center":1682,"cket":1683,"155":1684,"ISO":1685,"âħ":1686,"145":1687,"stri":1688,"1891":1689,"650":1690,"way":1691,"Android":1692,"NS":1693,"Clu":1694,"ãĢķ":1695,"OR":1696,"ffi":1697,"htt":1698,"mber":1699,"ãĢĶ":1700,"1850":1701,"Fu":1702,"Phi":1703,"age":1704,"mb":1705,"win":1706,"xy":1707,"Cy":1708,"Ku":1709,"king":1710,"International":1711,"sia":1712,"1867":1713,"logy":1714,"Ce":1715,"IM":1716,"ãĥĪ":1717,"1879":1718,"Star":1719,"rie":1720,"James":1721,"Enter":1722,"cc":1723,"ller":1724,"380":1725,"AB":1726,"UP":1727,"ney":1728,"Eng":1729,"1876":1730,"Spe":1731,"War":1732,"ny":1733,"Studio":1734,"zo":1735,"George":1736,"Ab":1737,"Ani":1738,"1875":1739,"1861":1740,"270":1741,"Universi":1742,"Games":1743,"Bra":1744,"IR":1745,"126":1746,"NT":1747,"Ã¨":1748,"time":1749,"art":1750,"Es":1751,"Por":1752,"NGC":1753,"stru":1754,"ãĥ«":1755,"1873":1756,"Hen":1757,"MG":1758,"phi":1759,"ero":1760,"123":1761,"ãĥ©":1762,"PV":1763,"ns":1764,"Ben":1765,"Dra":1766,"HT":1767,"Colle":1768,"Group":1769,"Pan":1770,"car":1771,"mpi":1772,"rans":1773,"Sun":1774,"it":1775,"ut":1776,"168":1777,"cus":1778,"COVID":1779,"Blo":1780,"FM":1781,"MB":1782,"Sys":1783,"ous":1784,"sed":1785,"1865":1786,"Club":1787,"AO":1788,"Ameri":1789,"PL":1790,"her":1791,"im":1792,"121":1793,"DE":1794,"Don":1795,"that":1796,"Air":1797,"Center":1798,"175":1799,"ary":1800,"ãģĨ":1801,"Web":1802,"H2":1803,"YP":1804,"from":1805,"Ã¤":1806,"1400":1807,"MAX":1808,"critic":1809,"Ale":1810,"tz":1811,"138":1812,"228":1813,"Han":1814,"TP":1815,"1848":1816,"1862":1817,"330":1818,"124":1819,"ãĤ¢":1820,"1881":1821,"1882":1822,"737":1823,"Lea":1824,"Ali":1825,"UC":1826,"hy":1827,"1878":1828,"550":1829,"Ve":1830,"sau":1831,"bri":1832,"bit":1833,"1872":1834,"El":1835,"LC":1836,"Insta":1837,"Min":1838,"ration":1839,"INK":1840,"Metacritic":1841,"eld":1842,"Oricon":1843,"Sai":1844,"Whi":1845,"sco":1846,"156":1847,"Boo":1848,"MTV":1849,"sp":1850,"165":1851,"LED":1852,"1840":1853,"IVE":1854,"Ya":1855,"cre":1856,"kin":1857,"750":1858,"ãĥĥ":1859,"1300":1860,"ãģĹ":1861,"Hy":1862,"137":1863,"Micha":1864,"Mark":1865,"7000":1866,"Hel":1867,"era":1868,"DOS":1869,"SQ":1870,"UB":1871,"229":1872,"IU":1873,"GDP":1874,"King":1875,"OK":1876,"Ñģ":1877,"type":1878,"Gran":1879,"nic":1880,"High":1881,"Tai":1882,"ast":1883,"152":1884,"TVB":1885,"Chris":1886,"159":1887,"1877":1888,"Robert":1889,"Chan":1890,"py":1891,"sy":1892,"tle":1893,"âĹ":1894,"cien":1895,"1866":1896,"Hou":1897,"iOS":1898,"ot":1899,"Ð»":1900,"Produ":1901,"SK":1902,"Shi":1903,"silver":1904,"1869":1905,"âĢ²":1906,"thi":1907,"THE":1908,"Up":1909,"Day":1910,"Cro":1911,"DM":1912,"Ele":1913,"Stre":1914,"Peter":1915,"It":1916,"NET":1917,"tter":1918,"Free":1919,"Jan":1920,"Ðº":1921,"139":1922,"Phone":1923,"Instagram":1924,"At":1925,"BI":1926,"Sur":1927,"pla":1928,"BLAC":1929,"Type":1930,"Ð²":1931,"ora":1932,"Apple":1933,"DJ":1934,"Sy":1935,"Wal":1936,"CG":1937,"WE":1938,"code":1939,"ãĤ¯":1940,"Michael":1941,"DF":1942,"Sh":1943,"ï¸":1944,"1100":1945,"cia":1946,"158":1947,"ness":1948,"Big":1949,"225":1950,"Pla":1951,"Pat":1952,"Sam":1953,"Ye":1954,"vin":1955,"nia":1956,"305":1957,"133":1958,"INE":1959,"Paul":1960,"Tech":1961,"National":1962,"tte":1963,"oun":1964,"nis":1965,"ãĥª":1966,"Award":1967,"RA":1968,"YO":1969,"132":1970,"Steam":1971,"205":1972,"1863":1973,"ray":1974,"IE":1975,"pany":1976,"Media":1977,"tainment":1978,"215":1979,"Br":1980,"University":1981,"FO":1982,"Lou":1983,"Val":1984,"ensis":1985,"tions":1986,"Bill":1987,"phy":1988,"CA":1989,"F1":1990,"KBS":1991,"bur":1992,"148":1993,"131":1994,"Smi":1995,"kg":1996,"166":1997,"1874":1998,"XX":1999,"deo":2000,"1858":2001,"par":2002,"EF":2003,"sor":2004,"rin":2005,"rum":2006,"Cho":2007,"clo":2008,"147":2009,"Hol":2010,"mini":2011,"Fri":2012,"256":2013,"ãģĭ":2014,"M2":2015,"1830":2016,"CBS":2017,"UT":2018,"gon":2019,"lm":2020,"1851":2021,"Lee":2022,"BN":2023,"GA":2024,"HI":2025,"UI":2026,"lip":2027,"ric":2028,"192":2029,"Park":2030,"td":2031,"Î¼":2032,"8000":2033,"Mer":2034,"now":2035,"Entertainment":2036,"310":2037,"143":2038,"his":2039,"Mk":2040,"1855":2041,"City":2042,"Black":2043,"Wil":2044,"Power":2045,"Chu":2046,"EM":2047,"IX":2048,"Space":2049,"gar":2050,"whi":2051,"GM":2052,"RAM":2053,"ð«":2054,"185":2055,"1859":2056,"tho":2057,"STAR":2058,"Jack":2059,"Charles":2060,"134":2061,"Java":2062,"Dire":2063,"ABC":2064,"Gar":2065,"Ter":2066,"spe":2067,"ship":2068,"1854":2069,"146":2070,"301":2071,"1700":2072,"inter":2073,"Viu":2074,"stitu":2075,"370":2076,"Fla":2077,"Ken":2078,"1857":2079,"Alpha":2080,"Lan":2081,"Stan":2082,"out":2083,"los":2084,"Dar":2085,"Ø§":2086,"290":2087,"ãģª":2088,"Life":2089,"ï¸°":2090,"vs":2091,"Î³":2092,"214":2093,"420":2094,"Cam":2095,"ÑĤ":2096,"Recor":2097,"Company":2098,"Fun":2099,"Î¿":2100,"ãĢľ":2101,"1856":2102,"1853":2103,"Project":2104,"Dream":2105,"Fan":2106,"Sen":2107,"dium":2108,"ãģŁ":2109,"first":2110,"Time":2111,"Thomas":2112,"House":2113,"Pen":2114,"144":2115,"Saint":2116,"FA":2117,"OVA":2118,"Py":2119,"Spi":2120,"Cent":2121,"VO":2122,"ek":2123,"face":2124,"A2":2125,"IO":2126,"dd":2127,"von":2128,"167":2129,"Japan":2130,"Street":2131,"3A":2132,"Cla":2133,"HS":2134,"SBS":2135,"rence":2136,"bili":2137,"rist":2138,"chard":2139,"1841":2140,"very":2141,"Euro":2142,"LP":2143,"Plan":2144,"ak":2145,"ie":2146,"rp":2147,"bal":2148,"ety":2149,"Alex":2150,"340":2151,"PM":2152,"bun":2153,"if":2154,"lue":2155,"BLACKP":2156,"Sco":2157,"Tal":2158,"dra":2159,"cher":2160,"208":2161,"ses":2162,"1815":2163,"178":2164,"Soci":2165,"CPU":2166,"BLACKPINK":2167,"223":2168,"space":2169,"850":2170,"LGB":2171,"Sing":2172,"Spo":2173,"ew":2174,"tta":2175,"cess":2176,"ood":2177,"www":2178,"IBM":2179,"zer":2180,"mis":2181,"Art":2182,"ports":2183,"Bat":2184,"Bur":2185,"SF":2186,"207":2187,"mation":2188,"wor":2189,"171":2190,"235":2191,"ãģ¨":2192,"ãģ¾":2193,"LIVE":2194,"SU":2195,"Soft":2196,"203":2197,"B2":2198,"Fer":2199,"VE":2200,"SQL":2201,"tha":2202,"1846":2203,"164":2204,"College":2205,"Am":2206,"cra":2207,"157":2208,"lter":2209,"vice":2210,"berg":2211,"American":2212,"BR":2213,"LT":2214,"NE":2215,"Pol":2216,"141":2217,"ford":2218,"ICE":2219,"Ama":2220,"B1":2221,"PE":2222,"nvi":2223,"176":2224,"ING":2225,"Girls":2226,"Asso":2227,"Ger":2228,"LS":2229,"ste":2230,"Â²":2231,"turn":2232,"publi":2233,"self":2234,"1812":2235,"1845":2236,"1844":2237,"stro":2238,"Road":2239,"not":2240,"Offi":2241,"Wo":2242,"dro":2243,"ball":2244,"231":2245,"arch":2246,"cture":2247,"class":2248,"lon":2249,"esti":2250,"Rock":2251,"Cl":2252,"HF":2253,"Ltd":2254,"M3":2255,"play":2256,"lea":2257,"board":2258,"ãĤĬ":2259,"witch":2260,"LGBT":2261,"llo":2262,"sg":2263,"here":2264,"209":2265,"ãģį":2266,"NASA":2267,"Tele":2268,"GNU":2269,"LA":2270,"Van":2271,"gs":2272,"tation":2273,"Jose":2274,"well":2275,"Tour":2276,"IUCN":2277,"Smith":2278,"216":2279,"PN":2280,"Rou":2281,"Îº":2282,"1849":2283,"153":2284,"CT":2285,"NBC":2286,"204":2287,"238":2288,"nes":2289,"Good":2290,"Production":2291,"BB":2292,"Cal":2293,"GT":2294,"bra":2295,"ded":2296,"Video":2297,"O2":2298,"ep":2299,"fer":2300,"Ïĥ":2301,"mited":2302,"pie":2303,"row":2304,"Hall":2305,"PR":2306,"dae":2307,"206":2308,"thy":2309,"Pad":2310,"Gala":2311,"Boy":2312,"eries":2313,"460":2314,"Af":2315,"Tor":2316,"set":2317,"1814":2318,"vel":2319,"ders":2320,"saurus":2321,"218":2322,"Eli":2323,"Tur":2324,"wood":2325,"Jean":2326,"SI":2327,"Ten":2328,"nel":2329,"vision":2330,"IGN":2331,"Act":2332,"LD":2333,"PA":2334,"fra":2335,"âĸ":2336,"Richard":2337,"FF":2338,"Kar":2339,"WS":2340,"om":2341,"ÏĢ":2342,"tar":2343,"1847":2344,"154":2345,"ved":2346,"580":2347,"MBC":2348,"side":2349,"mac":2350,"chem":2351,"1843":2352,"Best":2353,"ptr":2354,"System":2355,"430":2356,"Sky":2357,"Zi":2358,"rich":2359,"cis":2360,"177":2361,"401":2362,"lls":2363,"410":2364,"Fle":2365,"sin":2366,"mann":2367,"ãĤ·":2368,"NFL":2369,"ViuTV":2370,"Switch":2371,"dar":2372,"163":2373,"AMD":2374,"Digi":2375,"API":2376,"Para":2377,"ICO":2378,"Sma":2379,"data":2380,"ments":2381,"1852":2382,"162":2383,"thon":2384,"Max":2385,"VII":2386,"ced":2387,"1820":2388,"ãģı":2389,"West":2390,"Ag":2391,"Glo":2392,"Tun":2393,"Vol":2394,"ach":2395,"zon":2396,"142":2397,"234":2398,"star":2399,"cript":2400,"VR":2401,"sys":2402,"sign":2403,"max":2404,"172":2405,"ãģĬ":2406,"ãģķ":2407,"Core":2408,"Records":2409,"640":2410,"Met":2411,"lti":2412,"169":2413,"3500":2414,"this":2415,"Limited":2416,"Blue":2417,"KC":2418,"Ran":2419,"T1":2420,"cto":2421,"Â±":2422,"1839":2423,"232":2424,"Coun":2425,"480":2426,"CM":2427,"179":2428,"cade":2429,"Inc":2430,"Green":2431,"use":2432,"2030":2433,"rio":2434,"org":2435,"149":2436,"365":2437,"Institu":2438,"Lau":2439,"lum":2440,"tube":2441,"1821":2442,"war":2443,"ãĥŃ":2444,"ãģ¿":2445,"Vir":2446,"Unicode":2447,"ROM":2448,"CCTV":2449,"390":2450,"BU":2451,"bus":2452,"tia":2453,"306":2454,"222":2455,"601":2456,"ona":2457,"173":2458,"Bob":2459,"EA":2460,"Far":2461,"Gui":2462,"Ji":2463,"PF":2464,"Yu":2465,"Ze":2466,"kh":2467,"rue":2468,"bar":2469,"ware":2470,"247":2471,"oot":2472,"Hea":2473,"Prin":2474,"mpion":2475,"Er":2476,"KK":2477,"Mr":2478,"Ven":2479,"XP":2480,"gna":2481,"jo":2482,"1790":2483,"ump":2484,"211":2485,"560":2486,"OH":2487,"SN":2488,"zy":2489,"ket":2490,"ciation":2491,"orn":2492,"new":2493,"ãĥ¬":2494,"BF":2495,"Pra":2496,"VM":2497,"tv":2498,"off":2499,"velo":2500,"MU":2501,"PD":2502,"Ren":2503,"Squ":2504,"Scien":2505,"183":2506,"1795":2507,"303":2508,"Force":2509,"âĹĭ":2510,"PH":2511,"Tan":2512,"233":2513,"ãģ¡":2514,"1801":2515,"213":2516,"Trans":2517,"tary":2518,"ãĥŀ":2519,"Heart":2520,"USB":2521,"Men":2522,"bro":2523,"174":2524,"Pop":2525,"ttle":2526,"MVP":2527,"Bel":2528,"CK":2529,"oper":2530,"Ïģ":2531,"áĢ":2532,"ìĿ":2533,"key":2534,"186":2535,"1838":2536,"ors":2537,"Fire":2538,"Store":2539,"520":2540,"Cri":2541,"DDR":2542,"stan":2543,"mily":2544,"har":2545,"cker":2546,"Christ":2547,"610":2548,"Lon":2549,"ab":2550,"up":2551,"161":2552,"501":2553,"ãĥī":2554,"http":2555,"224":2556,"CF":2557,"em":2558,"iPad":2559,"tto":2560,"bile":2561,"sub":2562,"1813":2563,"ãĤī":2564,"Mag":2565,"Data":2566,"GE":2567,"ÏĦ":2568,"rity":2569,"mor":2570,"182":2571,"1832":2572,"1842":2573,"255":2574,"logi":2575,"ason":2576,"Society":2577,"AE":2578,"dth":2579,"iPhone":2580,"sur":2581,"184":2582,"ties":2583,"ãĤ«":2584,"dom":2585,"Mini":2586,"720":2587,"KI":2588,"Que":2589,"Script":2590,"ele":2591,"gre":2592,"âĺ":2593,"late":2594,"1836":2595,"1793":2596,"ãĤª":2597,"Comic":2598,"Intel":2599,"KiHa":2600,"Muse":2601,"buntu":2602,"221":2603,"HBO":2604,"MT":2605,"Pin":2606,"ffe":2607,"mus":2608,"1833":2609,"1789":2610,"cent":2611,"Home":2612,"tics":2613,"River":2614,"https":2615,"Direct":2616,"Association":2617,"Galaxy":2618,"Bal":2619,"Dr":2620,"DAM":2621,"M4":2622,"QQ":2623,"ae":2624,"search":2625,"1835":2626,"151":2627,"ars":2628,"ãĤ¿":2629,"width":2630,"peri":2631,"tical":2632,"League":2633,"219":2634,"217":2635,"338":2636,"FT":2637,"JYP":2638,"Qui":2639,"Rai":2640,"SR":2641,"Ubuntu":2642,"WA":2643,"mg":2644,"ðĲ":2645,"ful":2646,"âĢ°":2647,"down":2648,"1804":2649,"ONE":2650,"CEO":2651,"470":2652,"740":2653,"830":2654,"Bui":2655,"fun":2656,"ssi":2657,"ving":2658,"ned":2659,"Martin":2660,"Bank":2661,"Henry":2662,"Mai":2663,"YG":2664,"ÏĤ":2665,"Ð´":2666,"âī":2667,"light":2668,"bor":2669,"mat":2670,"Master":2671,"Top":2672,"Champion":2673,"Dy":2674,"Ear":2675,"LINE":2676,"MW":2677,"Î½":2678,"mal":2679,"bel":2680,"ART":2681,"News":2682,"China":2683,"212":2684,"DK":2685,"Dou":2686,"Em":2687,"Sp":2688,"Ñĥ":2689,"unch":2690,"1828":2691,"core":2692,"ãĤ³":2693,"APAN":2694,"Hot":2695,"Part":2696,"Network":2697,"Gener":2698,"FR":2699,"Flo":2700,"Long":2701,"dor":2702,"cil":2703,"191":2704,"rew":2705,"302":2706,"Young":2707,"Billboard":2708,"Office":2709,"680":2710,"Ada":2711,"Epi":2712,"Fra":2713,"Gold":2714,"MHz":2715,"PI":2716,"Song":2717,"SNH":2718,"nm":2719,"plo":2720,"Î¹":2721,"table":2722,"ries":2723,"181":2724,"1624":2725,"237":2726,"ãĤĭ":2727,"Night":2728,"Note":2729,"Joseph":2730,"SNH48":2731,"FDA":2732,"JAPAN":2733,"PK":2734,"à¹":2735,"á¹":2736,"pur":2737,"1644":2738,"308":2739,"Code":2740,"COM":2741,"440":2742,"Cra":2743,"DB":2744,"GR":2745,"zz":2746,"list":2747,"tial":2748,"led":2749,"less":2750,"10000":2751,"1837":2752,"part":2753,"239":2754,"ston":2755,"1806":2756,"Sir":2757,"Radio":2758,"United":2759,"macOS":2760,"CV":2761,"U21":2762,"Vis":2763,"sing":2764,"Ã¢":2765,"Ã®":2766,"Î´":2767,"à¥":2768,"âĳ":2769,"def":2770,"sus":2771,"1819":2772,"299":2773,"346":2774,"Regi":2775,"HTML":2776,"780":2777,"East":2778,"cs":2779,"und":2780,"1825":2781,"245":2782,"236":2783,"505":2784,"279":2785,"ãģ«":2786,"Mari":2787,"540":2788,"EV":2789,"Gam":2790,"H5":2791,"Pal":2792,"muni":2793,"rpm":2794,"325":2795,"Yo":2796,"tre":2797,"right":2798,"001":2799,"1776":2800,"ãģĺ":2801,"Child":2802,"NCAA":2803,"Server":2804,"Digital":2805,"FAT":2806,"Kong":2807,"tea":2808,"1818":2809,"pon":2810,"main":2811,"para":2812,"265":2813,"ãģĵ":2814,"esta":2815,"Hello":2816,"GS":2817,"Lang":2818,"air":2819,"telli":2820,"1824":2821,"1831":2822,"2027":2823,"rey":2824,"Down":2825,"Dri":2826,"Ob":2827,"RPG":2828,"pho":2829,"spi":2830,"Ã§":2831,"Ã´":2832,"lio":2833,"sio":2834,"rick":2835,"lation":2836,"386":2837,"Mat":2838,"Service":2839,"âħ¡":2840,"Techno":2841,"Ana":2842,"Ado":2843,"UM":2844,"non":2845,"rent":2846,"ges":2847,"temp":2848,"BSD":2849,"Python":2850,"1A":2851,"CW":2852,"Den":2853,"XML":2854,"Î»":2855,"sho":2856,"275":2857,"2700":2858,"Youtube":2859,"Edward":2860,"White":2861,"312":2862,"5G":2863,"730":2864,"Des":2865,"HL":2866,"OM":2867,"TBS":2868,"ena":2869,"has":2870,"med":2871,"264":2872,"295":2873,"1802":2874,"First":2875,"BLUE":2876,"burg":2877,"public":2878,"Institute":2879,"630":2880,"Envi":2881,"Gro":2882,"TM":2883,"ori":2884,"yer":2885,"Ãº":2886,"Ãł":2887,"sual":2888,"1822":2889,"288":2890,"ãĤ¸":2891,"Poly":2892,"JT":2893,"Out":2894,"Sum":2895,"ÙĦ":2896,"mond":2897,"244":2898,"ãĥķ":2899,"vate":2900,"Tom":2901,"ITF":2902,"2D":2903,"OT":2904,"ise":2905,"var":2906,"xel":2907,"return":2908,"249":2909,"903":2910,"ves":2911,"Cap":2912,"Square":2913,"Hong":2914,"PID":2915,"Series":2916,"This":2917,"Za":2918,"Ä«":2919,"Å¡":2920,"yal":2921,"tum":2922,"tual":2923,"243":2924,"2800":2925,"Rap":2926,"Cup":2927,"Del":2928,"FX":2929,"Jen":2930,"Jump":2931,"NP":2932,"__":2933,"sch":2934,"sig":2935,"chuai":2936,"1810":2937,"1622":2938,"1792":2939,"307":2940,"sts":2941,"701":2942,"SARS":2943,"Frank":2944,"POP":2945,"Grand":2946,"960":2947,"Kin":2948,"SHO":2949,"VV":2950,"sca":2951,"Îµ":2952,"dit":2953,"tur":2954,"1650":2955,"801":2956,"Pala":2957,"Chro":2958,"MIUI":2959,"Count":2960,"Tunes":2961,"2100":2962,"Cur":2963,"Hor":2964,"cci":2965,"Ð¼":2966,"1826":2967,"have":2968,"1573":2969,"story":2970,"Step":2971,"Under":2972,"747":2973,"Jour":2974,"yon":2975,"but":2976,"tems":2977,"1834":2978,"304":2979,"226":2980,"278":2981,"ãĥŁ":2982,"ãĤĤ":2983,"teri":2984,"375":2985,"1805":2986,"Die":2987,"ACT":2988,"APP":2989,"AIR":2990,"Auto":2991,"North":2992,"Bran":2993,"HA":2994,"Kan":2995,"cing":2996,"ice":2997,"pus":2998,"007":2999,"296":3000,"298":3001,"385":3002,"ATA":3003,"Block":3004,"335":3005,"590":3006,"9000":3007,"Bor":3008,"CU":3009,"Sports":3010,"WN":3011,"ml":3012,"rei":3013,"Ïī":3014,"âĭ":3015,"let":3016,"dings":3017,"had":3018,"1780":3019,"227":3020,"ãĥł":3021,"Your":3022,"IFA":3023,"315":3024,"Les":3025,"Os":3026,"Pho":3027,"Rei":3028,"ii":3029,"iTunes":3030,"pH":3031,"Â»":3032,"gain":3033,"251":3034,"277":3035,"Real":3036,"ghts":3037,"CNN":3038,"2A":3039,"Op":3040,"Over":3041,"RFC":3042,"din":3043,"dition":3044,"zine":3045,"mad":3046,"map":3047,"more":3048,"1582":3049,"1799":3050,"259":3051,"246":3052,"248":3053,"1809":3054,"Dani":3055,"Engine":3056,"530":3057,"C2":3058,"Cas":3059,"DLC":3060,"Ei":3061,"Â«":3062,"ere":3063,"1823":3064,"1621":3065,"272":3066,"405":3067,"ville":3068,"ATION":3069,"State":3070,"1803":3071,"Internet":3072,"EEE":3073,"value":3074,"press":3075,"334":3076,"620":3077,"770":3078,"Bou":3079,"Clo":3080,"Class":3081,"Gol":3082,"Hal":3083,"SG":3084,"Wat":3085,"app":3086,"bre":3087,"rch":3088,"1625":3089,"284":3090,"285":3091,"ino":3092,"lton":3093,"ãĤµ":3094,"Mit":3095,"cond":3096,"311":3097,"880":3098,"Cle":3099,"Sony":3100,"Ur":3101,"VI":3102,"vy":3103,"Ãī":3104,"á»":3105,"258":3106,"form":3107,"276":3108,"ãģĮ":3109,"Wii":3110,"Moon":3111,"Mobile":3112,"Bay":3113,"Gri":3114,"KO":3115,"Oper":3116,"Tru":3117,"XT":3118,"than":3119,"à¦":3120,"get":3121,"ork":3122,"253":3123,"357":3124,"ters":3125,"Maria":3126,"Ray":3127,"Publi":3128,"660":3129,"Bon":3130,"Cli":3131,"Im":3132,"NM":3133,"SV":3134,"UL":3135,"ee":3136,"ung":3137,"Ð¹":3138,"uel":3139,"ãĥĹ":3140,"STA":3141,"via":3142,"Alf":3143,"Dot":3144,"IPv":3145,"Nico":3146,"Unix":3147,"South":3148,"Ange":3149,"Book":3150,"Europe":3151,"570":3152,"Get":3153,"U19":3154,"WF":3155,"blo":3156,"hr":3157,"Ð³":3158,"1827":3159,"1570":3160,"ãģĤ":3161,"gazine":3162,"cks":3163,"sson":3164,"view":3165,"Pier":3166,"314":3167,"3DS":3168,"690":3169,"BBS":3170,"C6":3171,"DSM":3172,"IEEE":3173,"Mou":3174,"Mal":3175,"SB":3176,"WWE":3177,"trans":3178,"tas":3179,"1817":3180,"1640":3181,"1636":3182,"range":3183,"268":3184,"402":3185,"404":3186,"ãģ¯":3187,"Sound":3188,"which":3189,"4G":3190,"AX":3191,"TW":3192,"fy":3193,"fri":3194,"gal":3195,"dei":3196,"1775":3197,"254":3198,"465":3199,"ator":3200,"323":3201,"Gal":3202,"HP":3203,"OP":3204,"Tre":3205,"dea":3206,"tina":3207,"lution":3208,"1750":3209,"309":3210,"vis":3211,"Now":3212,"329":3213,"670":3214,"Jon":3215,"Nu":3216,"Plus":3217,"shing":3218,"tude":3219,"1816":3220,"kar":3221,"poli":3222,"zation":3223,"ãĥģ":3224,"ãĤ£":3225,"4500":3226,"field":3227,"CON":3228,"Beau":3229,"Poli":3230,"TOP":3231,"print":3232,"Cube":3233,".-":3234,"710":3235,"910":3236,"950":3237,"DI":3238,"Ham":3239,"MK":3240,"ap":3241,"other":3242,"laris":3243,"loud":3244,"241":3245,"2300":3246,"cur":3247,"Medi":3248,"Film":3249,"ISBN":3250,"Way":3251,"tvN":3252,"326":3253,"Asia":3254,"Fin":3255,"Ly":3256,"T2":3257,"ctive":3258,"tti":3259,"à½":3260,"ence":3261,"char":3262,"1592":3263,"347":3264,"758":3265,"Gil":3266,"ople":3267,"Ara":3268,"DT":3269,"Tro":3270,"cti":3271,"even":3272,"mark":3273,"tural":3274,"sal":3275,"1628":3276,"1788":3277,"252":3278,"242":3279,"269":3280,"ãĥĭ":3281,"May":3282,"nald":3283,"fea":3284,"Tik":3285,"Channel":3286,"318":3287,"336":3288,"978":3289,"CB":3290,"DL":3291,"Festi":3292,"MUS":3293,"N2":3294,"O3":3295,"Run":3296,"áĥ":3297,"hur":3298,"lam":3299,"1627":3300,"1783":3301,"1791":3302,"289":3303,"406":3304,"354":3305,"INN":3306,"Joy":3307,"Tok":3308,"Pixel":3309,"Disney":3310,"âĸ¡":3311,"velop":3312,"Vista":3313,"Acade":3314,"EL":3315,"F4":3316,"IB":3317,"LAN":3318,"LTE":3319,"Nan":3320,"PT":3321,"Wan":3322,"1797":3323,"num":3324,"ï¼»":3325,"ï¼½":3326,"556":3327,"Research":3328,"Beat":3329,"Cir":3330,"Girl":3331,"Louis":3332,"Software":3333,"DMS":3334,"Fre":3335,"OF":3336,"TH":3337,"ag":3338,"gis":3339,"tr":3340,"1779":3341,"1796":3342,"607":3343,"ãģ¤":3344,"ãģł":3345,"352":3346,"1808":3347,"cono":3348,"ERT":3349,"ference":3350,"km2":3351,"mple":3352,"Works":3353,"NCT":3354,"Alice":3355,"Christian":3356,"âĭ¯":3357,"321":3358,"337":3359,"A4":3360,"Cer":3361,"Cry":3362,"T3":3363,"dri":3364,"night":3365,"1829":3366,"sar":3367,"1778":3368,"1794":3369,"283":3370,"mega":3371,"273":3372,"ãĥ£":3373,"ãĥĲ":3374,"ãĤ¨":3375,"thing":3376,"cast":3377,"oom":3378,"ctro":3379,"Visual":3380,"Johan":3381,"ASC":3382,"YouTuber":3383,"Chine":3384,"Island":3385,"Battle":3386,"world":3387,"313":3388,"510":3389,"840":3390,"860":3391,"Il":3392,"Mnet":3393,"Rain":3394,"Sin":3395,"Ã±":3396,"Î¸":3397,"eni":3398,"1798":3399,"ãģ¦":3400,"456":3401,"372":3402,"ECT":3403,"ctory":3404,"agement":3405,"Awards":3406,"system":3407,"448":3408,"870":3409,"ror":3410,"mit":3411,"ress":3412,"read":3413,"1580":3414,"1612":3415,"1634":3416,"1787":3417,"281":3418,"267":3419,"ãĥĩ":3420,"fore":3421,"ãģ£":3422,"lost":3423,"ãĤ¦":3424,"vil":3425,"vern":3426,"Royal":3427,"Hill":3428,"web":3429,"mmy":3430,"Premi":3431,"Fore":3432,"Global":3433,"911":3434,"DG":3435,"Dai":3436,"Foot":3437,"MF":3438,"TN":3439,"âĩ":3440,"like":3441,"rena":3442,"1567":3443,"1648":3444,"271":3445,"ltra":3446,"pedia":3447,"Mary":3448,"Arts":3449,"BOX":3450,"rain":3451,"Special":3452,"Science":3453,"Enviro":3454,"AH":3455,"Der":3456,"E3":3457,"Hun":3458,"Let":3459,"MM":3460,"Wei":3461,"York":3462,"oi":3463,"sche":3464,"pop":3465,"ret":3466,"262":3467,"367":3468,"cky":3469,"OSHI":3470,"gic":3471,"ACE":3472,"Kim":3473,"Compu":3474,"ENT":3475,"AGA":3476,"Great":3477,"Qua":3478,"-&":3479,"322":3480,"Gor":3481,"MON":3482,"Oli":3483,"OTT":3484,"Sal":3485,"VB":3486,"fla":3487,"hus":3488,"size":3489,"tifi":3490,"nica":3491,"bon":3492,"posi":3493,"1550":3494,"1568":3495,"ord":3496,"1615":3497,"1630":3498,"formation":3499,"286":3500,"arr":3501,"ãĥĸ":3502,"col":3503,"Magazine":3504,"Model":3505,"CH3":3506,"Brown":3507,"Amazon":3508,"Museum":3509,"Daniel":3510,"Festival":3511,"CAS":3512,"End":3513,"Fro":3514,"FBI":3515,"LG":3516,"O4":3517,"SIG":3518,"Tou":3519,"USA":3520,"dt":3521,"ole":3522,"plan":3523,"dent":3524,"lina":3525,"kes":3526,"ches":3527,"1645":3528,"1646":3529,"ãĤŃ":3530,"333":3531,"andy":3532,"COLL":3533,"ARD":3534,"Secre":3535,"Communi":3536,"Encore":3537,"God":3538,"tures":3539,"Online":3540,"Taiwan":3541,"Queen":3542,"TikTok":3543,"MUSIC":3544,"Ah":3545,"Ami":3546,"Cat":3547,"Thun":3548,"cka":3549,"gg":3550,"Ø±":3551,"ani":3552,"1626":3553,"261":3554,"297":3555,"lth":3556,"355":3557,"Anto":3558,"Dark":3559,"General":3560,"Chinese":3561,"328":3562,"820":3563,"Crea":3564,"Mur":3565,"PRO":3566,"S2":3567,"Son":3568,"over":3569,"pra":3570,"dal":3571,"1637":3572,"2400":3573,"705":3574,"901":3575,"364":3576,"384":3577,"378":3578,"442":3579,"Memo":3580,"Wiki":3581,"gio":3582,"Point":3583,"VIDIA":3584,"618":3585,"AU":3586,"CBC":3587,"HB":3588,"NVIDIA":3589,"T48":3590,"Ð¡":3591,"Ñĭ":3592,"rine":3593,"ques":3594,"1610":3595,"1642":3596,"257":3597,"282":3598,"met":3599,"2600":3600,"Stadium":3601,"Sea":3602,"Capi":3603,"Base":3604,"1609":3605,"oney":3606,"llion":3607,"Redmi":3608,"Year":3609,"Talk":3610,"Adobe":3611,"760":3612,"767":3613,"CAN":3614,"Pet":3615,"Set":3616,"U17":3617,"VC":3618,"Won":3619,"Who":3620,"What":3621,"af":3622,"bps":3623,"lk":3624,"ÑĮ":3625,"deon":3626,"cio":3627,"tech":3628,"poration":3629,"1585":3630,"1583":3631,"say":3632,"ãĤĦ":3633,"Col":3634,"cas":3635,"583":3636,"wiki":3637,"1807":3638,"ARM":3639,"TeX":3640,"thern":3641,"Cyclo":3642,"Systems":3643,"Metro":3644,"930":3645,"Fal":3646,"FIFA":3647,"JU":3648,"KE":3649,"Lei":3650,"Mel":3651,"OD":3652,"Sche":3653,"ate":3654,"bs":3655,"house":3656,"1623":3657,"274":3658,"Pay":3659,"Archi":3660,"Town":3661,"Niko":3662,"Geo":3663,"ï¹ĳ":3664,"H2O":3665,"Bru":3666,"Chang":3667,"Eye":3668,"EOS":3669,"FIN":3670,"IEC":3671,"Juni":3672,"pes":3673,"tium":3674,"1571":3675,"1784":3676,"263":3677,"509":3678,"293":3679,"stein":3680,"dies":3681,"rough":3682,"351":3683,"dos":3684,"999":3685,"Deep":3686,"const":3687,"Neo":3688,"Union":3689,"stern":3690,"Key":3691,"rstea":3692,"plex":3693,"ounda":3694,"2200":3695,"428":3696,"AJ":3697,"Dun":3698,"GUN":3699,"pto":3700,"uts":3701,"wing":3702,"xx":3703,"cht":3704,"1620":3705,"1723":3706,"1786":3707,"504":3708,"ãĥ¥":3709,"353":3710,"vey":3711,"395":3712,"Mike":3713,"Solaris":3714,"Stra":3715,"some":3716,"private":3717,"Philip":3718,"Cross":3719,"Journal":3720,"DotA":3721,"419":3722,"432":3723,"A3":3724,"Cloud":3725,"FN":3726,"GL":3727,"Has":3728,"SW":3729,"Åį":3730,"ìķ":3731,"ander":3732,"1450":3733,"ãģĻ":3734,"Mau":3735,"Little":3736,"cts":3737,"coun":3738,"Studios":3739,"427":3740,"Cine":3741,"FE":3742,"HIV":3743,"Ima":3744,"K6":3745,"Vin":3746,"VPN":3747,"ace":3748,"hoo":3749,"Äį":3750,"gel":3751,"zilla":3752,"1577":3753,"1618":3754,"1643":3755,"387":3756,"399":3757,"beth":3758,"Line":3759,"LOVE":3760,"Fleet":3761,"Technology":3762,"317":3763,"331":3764,"345":3765,"512":3766,"565":3767,"Aven":3768,"Bai":3769,"Cr":3770,"FI":3771,"H1":3772,"MY":3773,"R2":3774,"S1":3775,"U18":3776,"USS":3777,"Ultra":3778,"Ñı":3779,"live":3780,"mia":3781,"test":3782,"base":3783,"mol":3784,"hard":3785,"1586":3786,"1777":3787,"1453":3788,"806":3789,"lot":3790,"CDMA":3791,"Stage":3792,"Radeon":3793,"ALL":3794,"Exp":3795,"Valve":3796,"Children":3797,"327":3798,"411":3799,"490":3800,"445":3801,"446":3802,"535":3803,"Ath":3804,"M87":3805,"Of":3806,"Ram":3807,"U23":3808,"Wol":3809,"where":3810,"Ãª":3811,"lic":3812,"city":3813,"mate":3814,"model":3815,"chie":3816,"sey":3817,"cell":3818,"1521":3819,"oro":3820,"1765":3821,"1774":3822,"ono":3823,"398":3824,"499":3825,"Post":3826,"Multi":3827,"Tay":3828,"BMW":3829,"Centre":3830,"Academy":3831,"Junior":3832,"416":3833,"EMI":3834,"HTC":3835,"KB":3836,"Omega":3837,"kW":3838,"m3":3839,"pter":3840,"stu":3841,"Å«":3842,"dina":3843,"das":3844,"1616":3845,"nus":3846,"707":3847,"369":3848,"397":3849,"Pass":3850,"States":3851,"Wire":3852,"Joe":3853,"tiona":3854,"Fede":3855,"GPU":3856,"bility":3857,"Dyna":3858,"613":3859,"Gun":3860,"NR":3861,"WO":3862,"WOR":3863,"ZA":3864,"nor":3865,"Î·":3866,"ÎĶ":3867,"ÐĲ":3868,"dard":3869,"rana":3870,"gani":3871,"1564":3872,"1785":3873,"cul":3874,"368":3875,"TVBS":3876,"Demo":3877,"Market":3878,"Bio":3879,"Link":3880,"MySQL":3881,"mission":3882,"3C":3883,"810":3884,"BT":3885,"Jr":3886,"Kh":3887,"Lar":3888,"Sara":3889,"WI":3890,"brea":3891,"eu":3892,"gni":3893,"io":3894,"jor":3895,"ÐĶ":3896,"head":3897,"cin":3898,"cifi":3899,"bas":3900,"1662":3901,"include":3902,"266":3903,"291":3904,"588":3905,"Distri":3906,"Next":3907,"Beta":3908,"void":3909,"MOD":3910,"Corporation":3911,"M1A1":3912,"GUNDAM":3913,"316":3914,"537":3915,"621":3916,"742":3917,"CI":3918,"E48":3919,"Eric":3920,"ND":3921,"TI":3922,"cted":3923,"hl":3924,"il":3925,"open":3926,"Ã«":3927,"ÙĨ":3928,"qua":3929,"point":3930,"1540":3931,"1574":3932,"1772":3933,"287":3934,"605":3935,"454":3936,"388":3937,"343":3938,"bes":3939,"888":3940,"Law":3941,"Sub":3942,"Management":3943,"Fried":3944,"Alexander":3945,"425":3946,"475":3947,"MX":3948,"Other":3949,"Sui":3950,"Sar":3951,"flo":3952,"ob":3953,"tine":3954,"lant":3955,"1250":3956,"1619":3957,"1629":3958,"1683":3959,"292":3960,"ros":3961,"363":3962,"376":3963,"STS":3964,"552":3965,"686":3966,"Miss":3967,"Lady":3968,"Final":3969,"add":3970,"Arc":3971,"How":3972,"Augu":3973,"were":3974,"Draw":3975,"Scott":3976,"London":3977,"Cyclol":3978,"627":3979,"BRT":3980,"Dol":3981,"FL":3982,"Tar":3983,"ht":3984,"Ð±":3985,"nico":3986,"ï¼Ĥ":3987,"std":3988,"tos":3989,"488":3990,"Mas":3991,"Pas":3992,"fini":3993,"Spot":3994,"ðĲŃ":3995,"Spring":3996,"449":3997,"5A":3998,"625":3999,"738":4000,"Cul":4001,"Fron":4002,"HER":4003,"Land":4004,"PB":4005,"Rue":4006,"Sc":4007,"Tony":4008,"VER":4009,"Wing":4010,"ea":4011,"pper":4012,"sky":4013,"tran":4014,"Ðļ":4015,"ana":4016,"rina":4017,"put":4018,"shared":4019,"1590":4020,"1579":4021,"1633":4022,"ãĥĬ":4023,"fox":4024,"log":4025,"ãĤ°":4026,"Light":4027,"Rose":4028,"1507":4029,"Design":4030,"Lake":4031,"CH2":4032,"Animax":4033,"Earth":4034,"412":4035,"LF":4036,"LR":4037,"Smo":4038,"Sca":4039,"SON":4040,"V8":4041,"Ð¿":4042,"íķ":4043,"ens":4044,"mix":4045,"body":4046,"launch":4047,"1631":4048,"1680":4049,"1773":4050,"294":4051,"407":4052,"cum":4053,"ãĤĮ":4054,"396":4055,"3300":4056,"Leo":4057,"Family":4058,"1604":4059,"Hami":4060,"Ander":4061,"Party":4062,"PGA":4063,"Drive":4064,"980":4065,"Are":4066,"C4":4067,"Fold":4068,"GC":4069,"Hon":4070,"Kat":4071,"LM":4072,"ada":4073,"cla":4074,"ir":4075,"ini":4076,"yl":4077,"Äĩ":4078,"ÉĻ":4079,"ked":4080,"rial":4081,"rius":4082,"1575":4083,"1697":4084,"1755":4085,"1492":4086,"805":4087,"3600":4088,"Mad":4089,"467":4090,"471":4091,"Theo":4092,"Simon":4093,"Secu":4094,"ppy":4095,"mics":4096,"Advan":4097,"ï¹Ĳ":4098,"SKE48":4099,"Round":4100,"Summer":4101,"Thunder":4102,"0x":4103,"319":4104,"Hei":4105,"J2":4106,"Sti":4107,"Swe":4108,"Thi":4109,"XC":4110,"bio":4111,"matic":4112,"1561":4113,"1589":4114,"1595":4115,"1781":4116,"1465":4117,"508":4118,"stre":4119,"ãĥĨ":4120,"ãģ²":4121,"344":4122,"589":4123,"1603":4124,"1606":4125,"1607":4126,"kov":4127,"CNBLUE":4128,"Ruby":4129,"Epic":4130,"velopment":4131,"415":4132,"855":4133,"940":4134,"970":4135,"Ir":4136,"Lun":4137,"uage":4138,"x86":4139,"Ã¸":4140,"Ãħ":4141,"ÃŁ":4142,"à®":4143,"mani":4144,"1522":4145,"1526":4146,"1556":4147,"1613":4148,"1660":4149,"502":4150,"506":4151,"ãĥĢ":4152,"377":4153,"478":4154,"554":4155,"Miche":4156,"Vita":4157,"mercial":4158,"Tim":4159,"TOUR":4160,"Williams":4161,"cations":4162,"Hyper":4163,"ountain":4164,"Brian":4165,"ìĿ´":4166,"âĺĨ":4167,"Angela":4168,"Football":4169,"417":4170,"525":4171,"920":4172,"925":4173,"LU":4174,"Moo":4175,"Pon":4176,"UK":4177,"URI":4178,"Wel":4179,"card":4180,"lding":4181,"who":4182,"zzo":4183,"Ùħ":4184,"mir":4185,"nio":4186,"baby":4187,"ched":4188,"sure":4189,"second":4190,"1525":4191,"1591":4192,"1667":4193,"408":4194,"485":4195,"643":4196,"AMO":4197,"Fiesta":4198,"Back":4199,"tten":4200,"Steve":4201,"DOHC":4202,"Mont":4203,"Port":4204,"After":4205,"324":4206,"422":4207,"515":4208,"538":4209,"534":4210,"Founda":4211,"Gao":4212,"QS":4213,"Rang":4214,"S4":4215,"Shan":4216,"Syn":4217,"VT":4218,"ah":4219,"mRNA":4220,"xe":4221,"zza":4222,"Äĵ":4223,"âĤ":4224,"1510":4225,"1638":4226,"1730":4227,"only":4228,"pal":4229,"media":4230,"ãĥĳ":4231,"342":4232,"393":4233,"479":4234,"1508":4235,"Villa":4236,"Mozilla":4237,"Last":4238,"HKT48":4239,"Water":4240,"Walter":4241,"volution":4242,"America":4243,"Surface":4244,"Church":4245,"3200":4246,"531":4247,"546":4248,"Camp":4249,"Clas":4250,"EG":4251,"GHz":4252,"ITV":4253,"Jer":4254,"Mei":4255,"MBA":4256,"TG":4257,"Too":4258,"VS":4259,"bles":4260,"iPS":4261,"phe":4262,"ud":4263,"lish":4264,"mont":4265,"tana":4266,"2028":4267,"1543":4268,"1457":4269,"366":4270,"381":4271,"392":4272,"vie":4273,"History":4274,"Jeff":4275,"place":4276,"1st":4277,"413":4278,"426":4279,"Edu":4280,"F3":4281,"GPS":4282,"Kha":4283,"LZ":4284,"NI":4285,"Rus":4286,"Sor":4287,"Than":4288,"U20":4289,"Wnt":4290,"fb":4291,"ÙĬ":4292,"left":4293,"gent":4294,"1565":4295,"1559":4296,"1587":4297,"1597":4298,"âĢł":4299,"1635":4300,"1688":4301,"1733":4302,"1782":4303,"stry":4304,"rat":4305,"606":4306,"ald":4307,"come":4308,"ãģĳ":4309,"373":4310,"Indu":4311,"ella":4312,"Will":4313,"Albert":4314,"Times":4315,"Austra":4316,"Johnson":4317,"tory":4318,"score":4319,"Jane":4320,"Council":4321,"524":4322,"612":4323,"890":4324,"By":4325,"FS":4326,"Jim":4327,"MR":4328,"Sol":4329,"Tran":4330,"UD":4331,"its":4332,"llow":4333,"Â£":4334,"ÐŁ":4335,"Ñĩ":4336,"tex":4337,"lva":4338,"1588":4339,"1598":4340,"507":4341,"also":4342,"Cos":4343,"641":4344,"Rep":4345,"495":4346,"682":4347,"666":4348,"ample":4349,"Common":4350,"CLA":4351,"scope":4352,"Place":4353,"Telegram":4354,"Pierre":4355,"Foundation":4356,"332":4357,"4A":4358,"4K":4359,"435":4360,"575":4361,"790":4362,"Astro":4363,"Bad":4364,"TMA":4365,"ese":4366,"ola":4367,"ans":4368,"endo":4369,"lity":4370,"bird":4371,"tish":4372,"tica":4373,"nar":4374,"1523":4375,"1535":4376,"1649":4377,"1661":4378,"1770":4379,"1499":4380,"number":4381,"ram":4382,"ãĤ¬":4383,"ãĤı":4384,"361":4385,"466":4386,"391":4387,"....":4388,"vices":4389,"551":4390,"final":4391,"Moder":4392,"Pod":4393,"1601":4394,"PCI":4395,"ality":4396,"TOK":4397,"Francis":4398,"AcFun":4399,"trol":4400,"Flash":4401,"worth":4402,"craft":4403,"Wonder":4404,"528":4405,"5500":4406,"990":4407,"Ant":4408,"Bang":4409,"HTT":4410,"gne":4411,"mitte":4412,"master":4413,"mental":4414,"word":4415,"1511":4416,"1760":4417,"1769":4418,"indu":4419,"sour":4420,"358":4421,"371":4422,"469":4423,"ellow":4424,"684":4425,"587":4426,"Dia":4427,"Story":4428,"ppm":4429,"SMAP":4430,"Andrew":4431,"tribu":4432,"Edge":4433,"active":4434,"Golden":4435,"Explor":4436,"548":4437,"AW":4438,"Kai":4439,"Lui":4440,"Loo":4441,"MAC":4442,"ext":4443,"oni":4444,"sma":4445,"then":4446,"eil":4447,"chy":4448,"20000":4449,"1080":4450,"15000":4451,"1576":4452,"1594":4453,"1689":4454,"362":4455,"383":4456,"llen":4457,"TCP":4458,"341":4459,"Mis":4460,"NASL":4461,"Program":4462,"kia":4463,"Seven":4464,"count":4465,"Soul":4466,"Bridge":4467,"Angel":4468,"kins":4469,"Matthe":4470,"European":4471,"921":4472,"Bun":4473,"L1":4474,"MMC":4475,"NEX":4476,"RB":4477,"Tas":4478,"UFO":4479,"VF":4480,"ef":4481,"zar":4482,"ðª":4483,"rit":4484,"lius":4485,"tour":4486,"cep":4487,"1811":4488,"1517":4489,"1514":4490,"1578":4491,"1552":4492,"âĢķ":4493,"1639":4494,"1684":4495,"608":4496,"cos":4497,"top":4498,"349":4499,"644":4500,"557":4501,"585":4502,"597":4503,"Some":4504,"Not":4505,"gins":4506,"thers":4507,"Dance":4508,"Eliza":4509,"Gamer":4510,"template":4511,"Stephen":4512,"Taylor":4513,"348":4514,"436":4515,"549":4516,"AST":4517,"Bet":4518,"Cre":4519,"DNS":4520,"Fred":4521,"Lam":4522,"RN":4523,"Spa":4524,"TF":4525,"bla":4526,"ic":4527,"sit":4528,"poly":4529,"1763":4530,"1350":4531,"inte":4532,"ï¼ĭ":4533,"403":4534,"908":4535,"Marie":4536,"dore":4537,"6500":4538,"Roman":4539,"1505":4540,"Mega":4541,"View":4542,"777":4543,"Gaga":4544,"Test":4545,"kie":4546,"Cast":4547,"Conne":4548,"MG42":4549,"Christop":4550,"yond":4551,"vernment":4552,"547":4553,"567":4554,"668":4555,"Apo":4556,"C5":4557,"Fai":4558,"FAN":4559,"Jus":4560,"Kon":4561,"NK":4562,"T4":4563,"YOSHI":4564,"fis":4565,"pel":4566,"ppe":4567,"Â³":4568,"Ñĸ":4569,"tec":4570,"nas":4571,"1050":4572,"sel":4573,"tant":4574,"pos":4575,"1614":4576,"1720":4577,"374":4578,"CoV":4579,"494":4580,"verse":4581,"lyn":4582,"Never":4583,"Arti":4584,"IDE":4585,"Hit":4586,"Kit":4587,"IPS":4588,"PSP":4589,"People":4590,"UNIX":4591,"Santa":4592,"Just":4593,"âħł":4594,"Phil":4595,"Frame":4596,"IPv4":4597,"Explorer":4598,"514":4599,"522":4600,"545":4601,"568":4602,"619":4603,"675":4604,"Blu":4605,"CSS":4606,"D1":4607,"EBU":4608,"Jor":4609,"KT":4610,"Mountain":4611,"bn":4612,"une":4613,"sie":4614,"siness":4615,"lau":4616,"sea":4617,"1516":4618,"1513":4619,"1534":4620,"1547":4621,"1569":4622,"16V":4623,"1460":4624,"stone":4625,"cula":4626,"ãģ§":4627,"359":4628,"tera":4629,"757":4630,"642":4631,"581":4632,"1502":4633,"ctions":4634,"Raw":4635,"Solo":4636,"GeForce":4637,"à¸£":4638,"SOHC":4639,"Phy":4640,"Sunday":4641,"Arthur":4642,"Karl":4643,"COLLAR":4644,"mittee":4645,"418":4646,"414":4647,"424":4648,"433":4649,"544":4650,"Alan":4651,"CJ":4652,"DTS":4653,"F2":4654,"Inv":4655,"JO":4656,"MMO":4657,"PEN":4658,"Two":4659,"True":4660,"XIV":4661,"rian":4662,"wy":4663,"ÐĴ":4664,"ering":4665,"sive":4666,"cine":4667,"lands":4668,"mand":4669,"1731":4670,"1768":4671,"1771":4672,"1490":4673,"heir":4674,"news":4675,"409":4676,"ãĥı":4677,"604":4678,"802":4679,"ãĤ±":4680,"ãĤĩ":4681,"ãĤį":4682,"389":4683,"7500":4684,"394":4685,"been":4686,"476":4687,"493":4688,"Mod":4689,"usta":4690,"Bell":4691,"ERO":4692,"Box":4693,"Hip":4694,"Rift":4695,"Work":4696,"AGE":4697,"Prime":4698,"presen":4699,"FOX":4700,"sort":4701,"while":4702,"JTBC":4703,"âĩĶ":4704,"Cinema":4705,"Avenue":4706,"431":4707,"539":4708,"745":4709,"Ari":4710,"ABS":4711,"Bre":4712,"Dro":4713,"EO":4714,"Ever":4715,"Ita":4716,"Ker":4717,"Lord":4718,"Oh":4719,"V6":4720,"jq":4721,"sk":4722,"ska":4723,"Ä±":4724,"lica":4725,"bow":4726,"mos":4727,"1593":4728,"1724":4729,"1752":4730,"1469":4731,"1498":4732,"1370":4733,"rows":4734,"ãģĪ":4735,"gate":4736,"382":4737,"755":4738,"464":4739,"444":4740,"571":4741,"1501":4742,"Victor":4743,"Development":4744,"Mode":4745,"nova":4746,"ginal":4747,"Name":4748,"Kids":4749,"PS3":4750,"prot":4751,"Express":4752,"Court":4753,"British":4754,"Dragon":4755,"AGASA":4756,"Friedrich":4757,"646":4758,"667":4759,"Ash":4760,"Alt":4761,"CIA":4762,"D2":4763,"GW":4764,"Hard":4765,"IRT":4766,"Kei":4767,"M6":4768,"XF":4769,"ZJ":4770,"apo":4771,"bour":4772,"cz":4773,"cca":4774,"est":4775,"free":4776,"dex":4777,"ould":4778,"tify":4779,"shed":4780,"mine":4781,"nament":4782,"1520":4783,"1560":4784,"1553":4785,"1651":4786,"1740":4787,"1493":4788,"602":4789,"904":4790,"town":4791,"cking":4792,"Intelli":4793,"Rea":4794,"496":4795,"498":4796,"443":4797,"Via":4798,"With":4799,"user":4800,"Boys":4801,"Fami":4802,"MAN":4803,"Hotel":4804,"Donald":4805,"Anna":4806,"UNG":4807,"AGUE":4808,"LEAGUE":4809,"quid":4810,"Firefox":4811,"Doug":4812,"à¥į":4813,"Athlon":4814,"611":4815,"645":4816,"945":4817,"Apa":4818,"Again":4819,"C1":4820,"CBA":4821,"DEC":4822,"Ea":4823,"Nat":4824,"Old":4825,"QU":4826,"Tel":4827,"TAM":4828,"U2":4829,"two":4830,"ute":4831,"wis":4832,"xa":4833,"Ã¥":4834,"áº":4835,"ais":4836,"ergy":4837,"bia":4838,"change":4839,"made":4840,"1596":4841,"1632":4842,"1679":4843,"1718":4844,"1735":4845,"1745":4846,"1758":4847,"25G":4848,"ï¼Ŀ":4849,"lty":4850,"culus":4851,"ãĥ¡":4852,"907":4853,"ãĤģ":4854,"ãĤĨ":4855,"Machi":4856,"584":4857,"1506":4858,"Dear":4859,"Wild":4860,"Side":4861,"Neu":4862,"Baby":4863,"1605":4864,"Week":4865,"nvest":4866,"produ":4867,"REAM":4868,"Electro":4869,"Standard":4870,"Central":4871,"Health":4872,"Adam":4873,"sional":4874,"Christopher":4875,"YOSHIKI":4876,"050":4877,"439":4878,"533":4879,"731":4880,"732":4881,"741":4882,"762":4883,"962":4884,"Cree":4885,"Dal":4886,"Eve":4887,"Gin":4888,"H3":4889,"ICD":4890,"NU":4891,"Num":4892,"RCP":4893,"Shu":4894,"Sand":4895,"TL":4896,"Tha":4897,"UCLA":4898,"Wood":4899,"ay":4900,"jan":4901,"Ïħ":4902,"âĻ":4903,"ert":4904,"tice":4905,"zed":4906,"1260":4907,"1566":4908,"1725":4909,"1748":4910,"ãĥĦ":4911,"706":4912,"ãĤĪ":4913,"ãĤĴ":4914,"457":4915,"379":4916,"door":4917,"756":4918,"case":4919,"Info":4920,"ssor":4921,"553":4922,"673":4923,"List":4924,"Liber":4925,"574":4926,"576":4927,"Vision":4928,"985":4929,"gia":4930,"Bir":4931,"973":4932,"prise":4933,"Jackson":4934,"AlphaFold":4935,"Mitche":4936,"Capital":4937,"Fleetline":4938,"Angelababy":4939,"Matthew":4940,"516":4941,"617":4942,"639":4943,"722":4944,"735":4945,"DU":4946,"Econo":4947,"HMS":4948,"P2":4949,"Sty":4950,"cter":4951,"eb":4952,"glo":4953,"np":4954,"á¸":4955,"2050":4956,"cel":4957,"1528":4958,"1572":4959,"1652":4960,"1727":4961,"1761":4962,"1368":4963,"ras":4964,"ãĥ¯":4965,"ãĥİ":4966,"als":4967,"356":4968,"704":4969,"482":4970,"655":4971,"brary":4972,"Robin":4973,"ARE":4974,"Fish":4975,"Tower":4976,"state":4977,"Committee":4978,"Pie":4979,"mpson":4980,"BLE":4981,"Harry":4982,"Press":4983,"Mind":4984,"Jones":4985,"Anderson":4986,"Gaon":4987,"Elizabeth":4988,"447":4989,"863":4990,"926":4991,"961":4992,"Cru":4993,"Juan":4994,"LX":4995,"RATP":4996,"Sel":4997,"Sport":4998,"Twin":4999,"VP":5000,"WW":5001,"crea":5002,"gor":5003,"ners":5004,"vor":5005,"wel":5006,"zing":5007,"defea":5008,"lad":5009,"lade":5010,"mod":5011,"1531":5012,"1538":5013,"1647":5014,"1681":5015,"into":5016,"803":5017,"they":5018,"708":5019,"ãĤĥ":5020,"452":5021,"453":5022,"Colspan":5023,"bed":5024,"651":5025,"586":5026,"572":5027,"1504":5028,"Leon":5029,"Beyond":5030,"EDG":5031,"APG":5032,"Basic":5033,"ICA":5034,"fessor":5035,"1701":5036,"alis":5037,"HOME":5038,"Disco":5039,"ccff":5040,"ccccff":5041,"English":5042,"Patrick":5043,"Garden":5044,"Women":5045,"frame":5046,"FINAL":5047,"3M":5048,"438":5049,"511":5050,"933":5051,"ILE":5052,"Jam":5053,"Swi":5054,"Sour":5055,"SNC":5056,"cta":5057,"Î©":5058,"Ð·":5059,"Øª":5060,"ìļ":5061,"shop":5062,"lit":5063,"xus":5064,"sum":5065,"link":5066,"1530":5067,"1537":5068,"1736":5069,"ï¼Ĩ":5070,"603":5071,"808":5072,"Color":5073,"461":5074,"468":5075,"vity":5076,"681":5077,"kit":5078,"ONG":5079,"1709":5080,"Carl":5081,"Kevin":5082,"Southern":5083,"GameSpot":5084,"Twitch":5085,"Abdu":5086,"JavaScript":5087,"DirectX":5088,"Modern":5089,"3G":5090,"541":5091,"629":5092,"648":5093,"725":5094,"CAR":5095,"ELE":5096,"Main":5097,"NN":5098,"NPC":5099,"P4":5100,"Rh":5101,"URE":5102,"ami":5103,"gran":5104,"mbo":5105,"ovan":5106,"vat":5107,"Ñħ":5108,"xis":5109,"dire":5110,"ery":5111,"team":5112,"sul":5113,"super":5114,"redo":5115,"1519":5116,"1529":5117,"1555":5118,"1687":5119,"1728":5120,"mel":5121,"meter":5122,"ãĥĿ":5123,"loca":5124,"905":5125,"484":5126,"Maker":5127,"before":5128,"653":5129,"559":5130,"491":5131,"679":5132,"Roy":5133,"fish":5134,"796":5135,"OSS":5136,"Silver":5137,"tton":5138,"Sau":5139,"MAD":5140,"Concer":5141,"ckett":5142,"URL":5143,"AOA":5144,"Yahoo":5145,"Spotify":5146,"ctures":5147,"Prince":5148,"ASCII":5149,"OmegaT":5150,"Framework":5151,"protein":5152,"Mitchell":5153,"423":5154,"536":5155,"632":5156,"715":5157,"825":5158,"833":5159,"Aus":5160,"Area":5161,"B3":5162,"Brea":5163,"CAL":5164,"D9":5165,"Flow":5166,"GRO":5167,"Jes":5168,"K2":5169,"Money":5170,"Mbps":5171,"Nar":5172,"RDS":5173,"That":5174,"df":5175,"pl":5176,"lib":5177,"lim":5178,"sible":5179,"sical":5180,"2035":5181,"rium":5182,"seu":5183,"1120":5184,"wart":5185,"1767":5186,"love":5187,"473":5188,"492":5189,"661":5190,"562":5191,"Viole":5192,"Debian":5193,"Dead":5194,"aso":5195,"Bird":5196,"PS2":5197,"Anne":5198,"Eddie":5199,"Hero":5200,"TRA":5201,"Zico":5202,"signed":5203,"Chrome":5204,"Countdown":5205,"Operation":5206,"Secret":5207,"TOKYO":5208,"Violetta":5209,"339":5210,"429":5211,"532":5212,"665":5213,"775":5214,"769":5215,"Band":5216,"D5":5217,"Fon":5218,"JI":5219,"Off":5220,"R1":5221,"RF":5222,"Ring":5223,"Ron":5224,"SNS":5225,"Tol":5226,"Yan":5227,"gma":5228,"Õ¡":5229,"della":5230,"ound":5231,"tier":5232,"bat":5233,"mentary":5234,"such":5235,"lvin":5236,"see":5237,"1220":5238,"1545":5239,"1664":5240,"1659":5241,"1719":5242,"1495":5243,"1496":5244,"1388":5245,"stor":5246,"702":5247,"703":5248,"dow":5249,"STATION":5250,"vir":5251,"him":5252,"689":5253,"Mil":5254,"Mix":5255,"Like":5256,"692":5257,"798":5258,"Jaco":5259,"Fil":5260,"ERS":5261,"stal":5262,"Stor":5263,"AND":5264,"Anti":5265,"Anth":5266,"graphy":5267,"Steven":5268,"Feli":5269,"IFF":5270,"Henri":5271,"Rail":5272,"cific":5273,"Classic":5274,"010":5275,"434":5276,"636":5277,"729":5278,"761":5279,"878":5280,"Action":5281,"Bus":5282,"E1":5283,"Eri":5284,"E231":5285,"GEN":5286,"Hand":5287,"Iso":5288,"Kur":5289,"L2":5290,"Len":5291,"Mang":5292,"Mus":5293,"PAGASA":5294,"RK":5295,"ZERO":5296,"bble":5297,"ois":5298,"pres":5299,"Ðĳ":5300,"Ðľ":5301,"ÑĨ":5302,"ìĹ":5303,"shion":5304,"iana":5305,"rite":5306,"lair":5307,"sell":5308,"gene":5309,"1546":5310,"1549":5311,"1562":5312,"1670":5313,"1690":5314,"1654":5315,"1653":5316,"1694":5317,"1759":5318,"1466":5319,"artic":5320,"ãĥ¢":5321,"807":5322,"709":5323,"458":5324,"game":5325,"463":5326,"555":5327,"high":5328,"596":5329,"662":5330,"Paris":5331,"gie":5332,"constru":5333,"See":5334,"Stri":5335,"Happy":5336,"Chal":5337,"Interactive":5338,"Johnny":5339,"flight":5340,"Voice":5341,"Guard":5342,"Fox":5343,"Kenne":5344,"FAST":5345,"Build":5346,"HTTP":5347,"12000":5348,"527":5349,"638":5350,"669":5351,"712":5352,"711":5353,"BP":5354,"DREAM":5355,"Hein":5356,"Ing":5357,"IMAX":5358,"K11":5359,"LV":5360,"M5":5361,"NCC":5362,"RSA":5363,"Zen":5364,"kon":5365,"ov":5366,"oli":5367,"pet":5368,"Î¬":5369,"dica":5370,"rish":5371,"lee":5372,"last":5373,"sung":5374,"cept":5375,"won":5376,"1558":5377,"1581":5378,"1738":5379,"1474":5380,"1375":5381,"pass":5382,"STAT":5383,"477":5384,"Inte":5385,"There":5386,"68000":5387,"ATE":5388,"595":5389,"598":5390,"599":5391,"578":5392,"Stars":5393,"More":5394,"Galant":5395,"stars":5396,"1608":5397,"Chart":5398,"EPA":5399,"program":5400,"dence":5401,"auto":5402,"EXILE":5403,"GPL":5404,"Samuel":5405,"NMB48":5406,"521":5407,"628":5408,"622":5409,"721":5410,"867":5411,"877":5412,"965":5413,"BY":5414,"F5":5415,"Gon":5416,"Jet":5417,"OST":5418,"RX":5419,"Sr":5420,"Schi":5421,"SUP":5422,"VEN":5423,"WP":5424,"ZZ":5425,"ath":5426,"ez":5427,"fin":5428,"fes":5429,"depen":5430,"ril":5431,"lem":5432,"shell":5433,"bora":5434,"lati":5435,"1280":5436,"âĢ³":5437,"1665":5438,"1732":5439,"1744":5440,"1756":5441,"1489":5442,"1487":5443,"1340":5444,"000rpm":5445,"cular":5446,"ãĥĵ":5447,"906":5448,"ãĤº":5449,"451":5450,"997":5451,"wski":5452,"gina":5453,"Proto":5454,"Jac":5455,"Stru":5456,"Player":5457,"Business":5458,"Chill":5459,"ckets":5460,"prin":5461,"Anime":5462,"Wilson":5463,"SHOW":5464,"Mount":5465,"Forever":5466,"Security":5467,"Source":5468,"2nd":5469,"519":5470,"517":5471,"624":5472,"623":5473,"835":5474,"876":5475,"938":5476,"954":5477,"951":5478,"Ap":5479,"B9":5480,"CAP":5481,"D3":5482,"EU":5483,"Fw":5484,"Fly":5485,"GDDR":5486,"IMD":5487,"LCD":5488,"Ner":5489,"NIC":5490,"Qt":5491,"Ryan":5492,"YF":5493,"hin":5494,"sse":5495,"vas":5496,"would":5497,"yd":5498,"Ðĺ":5499,"ð¤":5500,"life":5501,"dine":5502,"far":5503,"leu":5504,"year":5505,"mum":5506,"tura":5507,"mode":5508,"seed":5509,"mail":5510,"1524":5511,"1532":5512,"1584":5513,"1658":5514,"1657":5515,"1699":5516,"1762":5517,"1337":5518,"ï¼ŀ":5519,"tero":5520,"472":5521,"474":5522,"649":5523,"497":5524,"687":5525,"688":5526,"698":5527,"Rober":5528,"579":5529,"784":5530,"Jona":5531,"Dave":5532,"Bike":5533,"Holly":5534,"1406":5535,"Carlos":5536,"DSP":5537,"à¤¾":5538,"SHIN":5539,"Clau":5540,"Smack":5541,"âĺħ":5542,"Public":5543,"Computer":5544,"MONSTA":5545,"Touch":5546,"html":5547,"Smosh":5548,"Apache":5549,"054":5550,"616":5551,"719":5552,"865":5553,"946":5554,"988":5555,"DH":5556,"G1":5557,"H4":5558,"H10":5559,"Ky":5560,"Pha":5561,"S3":5562,"Sb":5563,"WHO":5564,"XG":5565,"Zo":5566,"bb":5567,"eg":5568,"used":5569,"Ã¦":5570,"ÏĨ":5571,"micro":5572,"cid":5573,"law":5574,"sana":5575,"power":5576,"rel":5577,"ways":5578,"sage":5579,"1668":5580,"1739":5581,"1764":5582,"format":5583,"follow":5584,"dox":5585,"Res":5586,"30000":5587,"Library":5588,"will":5589,"787":5590,"File":5591,"Albu":5592,"PSV":5593,"Take":5594,"1702":5595,"Human":5596,"LLVM":5597,"trie":5598,"Mercu":5599,"Sense":5600,"rowspan":5601,"SmackDown":5602,"052":5603,"421":5604,"437":5605,"614":5606,"626":5607,"637":5608,"815":5609,"816":5610,"975":5611,"Bin":5612,"Echo":5613,"GF":5614,"If":5615,"Ice":5616,"JP":5617,"Mes":5618,"YA":5619,"ZO":5620,"cli":5621,"dley":5622,"kha":5623,"Ðł":5624,"ë°":5625,"ene":5626,"bis":5627,"til":5628,"rison":5629,"lein":5630,"most":5631,"0000":5632,"1275":5633,"1536":5634,"pani":5635,"1675":5636,"1464":5637,"rate":5638,"455":5639,"IND":5640,"671":5641,"678":5642,"Jos":5643,"Professor":5644,"Tex":5645,"Cata":5646,"Fashion":5647,"Bit":5648,"Stone":5649,"Histo":5650,"Giovan":5651,"Liner":5652,"1705":5653,"TOWN":5654,"Appli":5655,"Sheet":5656,"lease":5657,"KKBOX":5658,"Christmas":5659,"function":5660,"Championship":5661,"Language":5662,"scape":5663,"Alfredo":5664,"after":5665,"542":5666,"634":5667,"821":5668,"912":5669,"CIT":5670,"Cfb":5671,"DX":5672,"Dur":5673,"Edi":5674,"Hat":5675,"HPV":5676,"MOS":5677,"MIT":5678,"NXT":5679,"SY":5680,"Spin":5681,"SIM":5682,"WH":5683,"Wong":5684,"cam":5685,"fle":5686,"ghe":5687,"group":5688,"vai":5689,"Ïĩ":5690,"âģ":5691,"ãħ":5692,"ìĦ":5693,"hea":5694,"liance":5695,"lative":5696,"may":5697,"gency":5698,"rec":5699,"1563":5700,"ort":5701,"1617":5702,"1663":5703,"1685":5704,"1753":5705,"ons":5706,"1477":5707,"1380":5708,"503":5709,"809":5710,"ãģİ":5711,"there":5712,"lock":5713,"ãĤ½":5714,"483":5715,"486":5716,"Mach":5717,"Make":5718,"Mate":5719,"754":5720,"cat":5721,"beca":5722,"beat":5723,"656":5724,"Theat":5725,"Rev":5726,"Mid":5727,"676":5728,"ATX":5729,"SAN":5730,"785":5731,"561":5732,"NAS":5733,"ARK":5734,"ARP":5735,"Field":5736,"Siri":5737,"Mars":5738,"kiyo":5739,"ACH":5740,"Board":5741,"Socket":5742,"IPTV":5743,"ANG":5744,"Western":5745,"à¸²":5746,"UNES":5747,"Audio":5748,"rono":5749,"Frances":5750,"Morning":5751,"RCA":5752,"Collection":5753,"Hans":5754,"SpaceX":5755,"Fanta":5756,"Afri":5757,"TWICE":5758,"Circle":5759,"Creative":5760,"Melon":5761,"Wolf":5762,"Industri":5763,"SUPER":5764,"2DS":5765,"518":5766,"526":5767,"566":5768,"716":5769,"714":5770,"765":5771,"764":5772,"744":5773,"826":5774,"847":5775,"918":5776,"936":5777,"Abu":5778,"Ace":5779,"Bei":5780,"BNO":5781,"Cin":5782,"Every":5783,"GI":5784,"Ian":5785,"Kra":5786,"MRI":5787,"Nam":5788,"RP":5789,"SUN":5790,"VIP":5791,"WTT":5792,"Yi":5793,"hp":5794,"inv":5795,"own":5796,"ÅĤ":5797,"ÙĪ":5798,"âĬ":5799,"ë¦":5800,"ð¬":5801,"ant":5802,"cious":5803,"dus":5804,"multi":5805,"teen":5806,"mary":5807,"1024":5808,"1669":5809,"1656":5810,"1672":5811,"1692":5812,"1754":5813,"1420":5814,"1480":5815,"ink":5816,"lvet":5817,"751":5818,"cap":5819,"658":5820,"vio":5821,"594":5822,"wick":5823,"791":5824,"Wit":5825,"AMC":5826,"AMP":5827,"Cathe":5828,"Right":5829,"Sul":5830,"ITA":5831,"1704":5832,"1708":5833,"Ware":5834,"Wave":5835,"Fort":5836,"AGP":5837,"MLB":5838,"Here":5839,"Future":5840,"DMR":5841,"Shine":5842,"Clark":5843,"Planet":5844,"logical":5845,"partment":5846,"Front":5847,"Moore":5848,"2B":5849,"713":5850,"727":5851,"748":5852,"768":5853,"875":5854,"915":5855,"929":5856,"947":5857,"BIG":5858,"CYP":5859,"EBS":5860,"From":5861,"Gian":5862,"Isa":5863,"ISA":5864,"Jason":5865,"NICO":5866,"OME":5867,"R3":5868,"Ster":5869,"Trai":5870,"UF":5871,"VIS":5872,"XIII":5873,"aw":5874,"ior":5875,"ski":5876,"syn":5877,"uer":5878,"xc":5879,"Ð¢":5880,"Ø³":5881,"anti":5882,"under":5883,"bury":5884,"chus":5885,"hout":5886,"teau":5887,"mari":5888,"1075":5889,"1277":5890,"1279":5891,"1276":5892,"1111":5893,"1440":5894,"1488":5895,"1472":5896,"1371":5897,"road":5898,"ãĥ§":5899,"902":5900,"489":5901,"Indian":5902,"699":5903,"992":5904,"881":5905,"986":5906,"twe":5907,"Jay":5908,"confi":5909,"contribu":5910,"APM":5911,"1602":5912,"commercial":5913,"gos":5914,"Bug":5915,"Interplay":5916,"cross":5917,"AIM":5918,"REAS":5919,"CRH5":5920,"Greg":5921,"Vogue":5922,"Version":5923,"Walker":5924,"Wilhe":5925,"ddle":5926,"Jimmy":5927,"Building":5928,"Opera":5929,"District":5930,"Thunderbird":5931,"Sweet":5932,"Films":5933,"030":5934,"633":5935,"778":5936,"812":5937,"955":5938,"957":5939,"C3":5940,"C14":5941,"EY":5942,"Fol":5943,"LNG":5944,"LIF":5945,"MIC":5946,"NY":5947,"Nint":5948,"POS":5949,"RSS":5950,"SAT":5951,"Tam":5952,"TNT":5953,"Var":5954,"Where":5955,"ato":5956,"cco":5957,"d4":5958,"gli":5959,"spo":5960,"tsu":5961,"their":5962,"Ã½":5963,"Ø¨":5964,"Ø¯":5965,"shire":5966,"ends":5967,"dad":5968,"tino":5969,"rice":5970,"cies":5971,"lain":5972,"band":5973,"minal":5974,"laun":5975,"tury":5976,"002":5977,"004":5978,"1230":5979,"longi":5980,"1527":5981,"1611":5982,"ãģĽ":5983,"487":5984,"vement":5985,"INT":5986,"Information":5987,"vich":5988,"vier":5989,"558":5990,"685":5991,"hol":5992,"577":5993,"781":5994,"Page":5995,"pert":5996,"792":5997,"794":5998,"WiMAX":5999,"981":6000,"CO2":6001,"ARC":6002,"Jalan":6003,"Six":6004,"Say":6005,"fect":6006,"mers":6007,"Nick":6008,"Gemini":6009,"Energy":6010,"Stewart":6011,"1122":6012,"RES":6013,"ESPN":6014,"Trickett":6015,"Asian":6016,"Allen":6017,"Stop":6018,"Thompson":6019,"Portable":6020,"Velvet":6021,"Quin":6022,"show":6023,"ìķĦ":6024,"Jonathan":6025,"ð¬ĵ":6026,"Nintendo":6027,"070":6028,"543":6029,"615":6030,"717":6031,"828":6032,"839":6033,"939":6034,"Azu":6035,"Bas":6036,"Cel":6037,"E2":6038,"FD":6039,"G2":6040,"GG":6041,"Gy":6042,"KS":6043,"MED":6044,"N1":6045,"Pur":6046,"Quan":6047,"RY":6048,"S7":6049,"UFC":6050,"V1":6051,"V2":6052,"Xi":6053,"ave":6054,"bui":6055,"esa":6056,"m2":6057,"ppa":6058,"tent":6059,"ãİ":6060,"ê°":6061,"dale":6062,"tiful":6063,"pis":6064,"major":6065,"based":6066,"water":6067,"1512":6068,"1541":6069,"1666":6070,"1721":6071,"1726":6072,"1737":6073,"1747":6074,"1743":6075,"1741":6076,"1430":6077,"25000":6078,"medi":6079,"rad":6080,"481":6081,"Match":6082,"674":6083,"Liquid":6084,"697":6085,"host":6086,"889":6087,"Deuts":6088,"fit":6089,"982":6090,"989":6091,"Titan":6092,"PCR":6093,"à¸Ļ":6094,"AVE":6095,"Hub":6096,"Adven":6097,"NHS":6098,"Grace":6099,"Sher":6100,"Enterprise":6101,"hyth":6102,"Productions":6103,"Bruce":6104,"Douglas":6105,"2TV":6106,"513":6107,"846":6108,"866":6109,"857":6110,"B12":6111,"Cong":6112,"Fair":6113,"Gary":6114,"HY":6115,"J1":6116,"JXG":6117,"Oculus":6118,"TD":6119,"WM":6120,"again":6121,"ey":6122,"kHz":6123,"nge":6124,"kee":6125,"mium":6126,"quali":6127,"bov":6128,"bach":6129,"nae":6130,"1217":6131,"1274":6132,"gener":6133,"ponen":6134,"1515":6135,"1542":6136,"1712":6137,"1711":6138,"1715":6139,"1435":6140,"1456":6141,"1328":6142,"1385":6143,"forman":6144,"pas":6145,"cola":6146,"ãģ¶":6147,"4800":6148,"dol":6149,"3400":6150,"IIT":6151,"Rosa":6152,"Roger":6153,"1509":6154,"Staff":6155,"asy":6156,"gir":6157,"Dick":6158,"Window":6159,"ISC":6160,"971":6161,"Kill":6162,"Hay":6163,"Nove":6164,"ASH":6165,"Netscape":6166,"talk":6167,"IGHT":6168,"Shop":6169,"GP40":6170,"Drama":6171,"hydro":6172,"bridge":6173,"nics":6174,"Surf":6175,"Pentium":6176,"facebook":6177,"Tennis":6178,"Princess":6179,"Pink":6180,"Delta":6181,"SHINee":6182,"055":6183,"647":6184,"728":6185,"726":6186,"811":6187,"913":6188,"Brun":6189,"CZ":6190,"CCD":6191,"COS":6192,"Hai":6193,"Ia":6194,"Mg":6195,"Pr":6196,"Sang":6197,"Snow":6198,"TAI":6199,"Uta":6200,"Wai":6201,"Wer":6202,"Woo":6203,"Zero":6204,"ctus":6205,"done":6206,"kra":6207,"oc":6208,"pr":6209,"zzi":6210,"Î¯":6211,"Î¶":6212,"iano":6213,"tage":6214,"cision":6215,"pia":6216,"nity":6217,"shark":6218,"1150":6219,"1544":6220,"1757":6221,"1424":6222,"1470":6223,"1454":6224,"array":6225,"2900":6226,"room":6227,"909":6228,"459":6229,"3700":6230,"759":6231,"Coo":6232,"bet":6233,"STER":6234,"672":6235,"582":6236,"ATS":6237,"vers":6238,"home":6239,"591":6240,"993":6241,"SAP":6242,"gion":6243,"Division":6244,"Lost":6245,"Bow":6246,"meral":6247,"Kir":6248,"Nicho":6249,"Tac":6250,"project":6251,"shiĠ":6252,"deĠ":6253,"ĠshiĠ":6254,"ĠdeĠ":6255,"yiĠ":6256,"ĠyiĠ":6257,"jiĠ":6258,"weiĠ":6259,"zhiĠ":6260,"yuĠ":6261,"ĠweiĠ":6262,"ĠjiĠ":6263,"Ġnian":6264,"ĠzhiĠ":6265,"ĠyuĠ":6266,"Ġli":6267,"ĠnianĠ":6268,"zhongĠ":6269,"ĠliĠ":6270,"zaiĠ":6271,"Ġyou":6272,"renĠ":6273,"guoĠ":6274,"heĠ":6275,"qiĠ":6276,"buĠ":6277,"ĠyouĠ":6278,"diĠ":6279,"ĠzaiĠ":6280,"ĠrenĠ":6281,"Ġyue":6282,"ĠzhongĠ":6283,"ĠheĠ":6284,"daĠ":6285,"xiĠ":6286,"xingĠ":6287,"yuanĠ":6288,"gongĠ":6289,"erĠ":6290,"ĠyueĠ":6291,"fuĠ":6292,"siĠ":6293,"geĠ":6294,"jianĠ":6295,"ĠguoĠ":6296,"wuĠ":6297,"jiaĠ":6298,"ĠbuĠ":6299,"jieĠ":6300,"keĠ":6301,"chengĠ":6302,"zhuĠ":6303,"shengĠ":6304,"xiangĠ":6305,"xianĠ":6306,"daoĠ":6307,"beiĠ":6308,"ziĠ":6309,"ĠqiĠ":6310,"faĠ":6311,"chuĠ":6312,"huiĠ":6313,"jinĠ":6314,"ĠdiĠ":6315,"shuĠ":6316,"ĠerĠ":6317,"riĠ":6318,"ĠxiĠ":6319,"quĠ":6320,"zhengĠ":6321,"juĠ":6322,"houĠ":6323,"shouĠ":6324,"mingĠ":6325,"shangĠ":6326,"dongĠ":6327,"jingĠ":6328,"taĠ":6329,"leĠ":6330,"xueĠ":6331,"fangĠ":6332,"yanĠ":6333,"zhanĠ":6334,"ciĠ":6335,"baoĠ":6336,"huaĠ":6337,"yingĠ":6338,"ĠdaĠ":6339,"tongĠ":6340,"yeĠ":6341,"zuoĠ":6342,"zheĠ":6343,"guanĠ":6344,"ĠriĠ":6345,"yinĠ":6346,"changĠ":6347,"xinĠ":6348,"jiaoĠ":6349,"luĠ":6350,"duiĠ":6351,"wenĠ":6352,"tiĠ":6353,"fenĠ":6354,"qianĠ":6355,"taiĠ":6356,"jiangĠ":6357,"xiaoĠ":6358,"ĠsiĠ":6359,"bingĠ":6360,"junĠ":6361,"dianĠ":6362,"zhangĠ":6363,"pingĠ":6364,"xiaĠ":6365,"duĠ":6366,"huoĠ":6367,"yongĠ":6368,"ĠkeĠ":6369,"ĠjiaĠ":6370,"Ġdan":6371,"gaiĠ":6372,"wangĠ":6373,"haiĠ":6374,"ruĠ":6375,"daiĠ":6376,"nanĠ":6377,"qingĠ":6378,"muĠ":6379,"biĠ":6380,"banĠ":6381,"liangĠ":6382,"ĠfuĠ":6383,"laiĠ":6384,"yaĠ":6385,"shenĠ":6386,"meiĠ":6387,"ĠxingĠ":6388,"zuĠ":6389,"wanĠ":6390,"lianĠ":6391,"sheĠ":6392,"minĠ":6393,"miĠ":6394,"zhouĠ":6395,"qiuĠ":6396,"jiuĠ":6397,"anĠ":6398,"ĠtaĠ":6399,"zhenĠ":6400,"benĠ":6401,"gaoĠ":6402,"xuĠ":6403,"ĠgongĠ":6404,"ĠdaoĠ":6405,"boĠ":6406,"luoĠ":6407,"bianĠ":6408,"xieĠ":6409,"teĠ":6410,"yaoĠ":6411,"dengĠ":6412,"duoĠ":6413,"ĠxianĠ":6414,"yangĠ":6415,"quanĠ":6416,"cheĠ":6417,"zuiĠ":6418,"lingĠ":6419,"tianĠ":6420,"guĠ":6421,"xuanĠ":6422,"suoĠ":6423,"fanĠ":6424,"yunĠ":6425,"ĠgeĠ":6426,"ĠbingĠ":6427,"dangĠ":6428,"huĠ":6429,"shanĠ":6430,"ĠdeĠyiĠ":6431,"feiĠ":6432,"saiĠ":6433,"dingĠ":6434,"biaoĠ":6435,"zongĠ":6436,"kaiĠ":6437,"liuĠ":6438,"maĠ":6439,"baĠ":6440,"haoĠ":6441,"suĠ":6442,"kouĠ":6443,"tuĠ":6444,"mianĠ":6445,"menĠ":6446,"youĠ":6447,"ĠdanĠ":6448,"leiĠ":6449,"laĠ":6450,"fengĠ":6451,"neiĠ":6452,"caiĠ":6453,"jueĠ":6454,"waiĠ":6455,"ĠbeiĠ":6456,"ĠjianĠ":6457,"ĠjinĠ":6458,"paiĠ":6459,"chuanĠ":6460,"chiĠ":6461,"ĠshiĠyiĠ":6462,"guangĠ":6463,"lanĠ":6464,"sanĠ":6465,"niĠ":6466,"guiĠ":6467,"baiĠ":6468,"ĠziĠ":6469,"ĠxiangĠ":6470,"ĠzheĠ":6471,"linĠ":6472,"tingĠ":6473,"puĠ":6474,"ĠzhuĠ":6475,"nengĠ":6476,"lunĠ":6477,"gangĠ":6478,"hanĠ":6479,"naĠ":6480,"lieĠ":6481,"chengĠweiĠ":6482,"zeĠ":6483,"ĠyinĠ":6484,"moĠ":6485,"ĠchuĠ":6486,"ĠshiĠdeĠ":6487,"meiĠguoĠ":6488,"chanĠ":6489,"shuiĠ":6490,"ĠjuĠ":6491,"ĠchengĠ":6492,"ĠdeĠshiĠ":6493,"ĠjieĠ":6494,"ĠgaiĠ":6495,"ĠwuĠ":6496,"suiĠ":6497,"ĠbaoĠ":6498,"zhuanĠ":6499,"xunĠ":6500,"ĠpingĠ":6501,"Ġta":6502,"lvĠ":6503,"aoĠ":6504,"zhuangĠ":6505,"touĠ":6506,"liĠ":6507,"duanĠ":6508,"ĠyiĠjiĠ":6509,"danĠ":6510,"seĠ":6511,"huanĠ":6512,"chongĠ":6513,"ĠweiĠyuĠ":6514,"pinĠ":6515,"eĠ":6516,"cengĠ":6517,"congĠ":6518,"chaĠ":6519,"diĠyiĠ":6520,"cunĠ":6521,"zaoĠ":6522,"ĠhouĠ":6523,"kongĠ":6524,"douĠ":6525,"zhaoĠ":6526,"aĠ":6527,"gouĠ":6528,"ĠciĠ":6529,"ganĠ":6530,"shaĠ":6531,"qiangĠ":6532,"ĠshiĠjiĠ":6533,"chaoĠ":6534,"mengĠ":6535,"kaiĠshiĠ":6536,"manĠ":6537,"tangĠ":6538,"longĠ":6539,"kuoĠ":6540,"ĠfaĠ":6541,"ĠyuanĠ":6542,"1Ġ":6543,"aiĠ":6544,"keĠyiĠ":6545,"ĠyiĠgeĠ":6546,"ceĠ":6547,"ĠyeĠ":6548,"tanĠ":6549,"tuanĠ":6550,"ĠshengĠ":6551,"ĠmingĠ":6552,"ĠshiĠweiĠ":6553,"gongĠliĠ":6554,"ĠzhongĠguoĠ":6555,"kaĠ":6556,"Ġbing":6557,"Ġtong":6558,"qinĠ":6559,"tieĠ":6560,"ĠshiĠshiĠ":6561,"zhengĠfuĠ":6562,"canĠ":6563,"shaoĠ":6564,"pianĠ":6565,"huoĠdeĠ":6566,"mianĠjiĠ":6567,"hangĠ":6568,"hongĠ":6569,"gengĠ":6570,"ĠhuoĠ":6571,"jiĠdeĠ":6572,"tiaoĠ":6573,"ĠshiĠyongĠ":6574,"xiuĠ":6575,"chenĠ":6576,"shuoĠ":6577,"piĠ":6578,"2Ġ":6579,"ĠdongĠ":6580,"renĠweiĠ":6581,"ĠshiĠjianĠ":6582,"ranĠ":6583,"taoĠ":6584,"zhiĠyiĠ":6585,"huangĠ":6586,"zhongĠdeĠ":6587,"zhengĠzhiĠ":6588,"ĠyiĠzhiĠ":6589,"ĠshiĠjieĠ":6590,"Ġri":6591,"chuangĠ":6592,"nvĠ":6593,"zhongĠguoĠ":6594,"yueĠ":6595,"quĠdeĠ":6596,"guoĠjiĠ":6597,"yiĠshiĠ":6598,"ĠpingĠfangĠ":6599,"woĠ":6600,"xingĠdeĠ":6601,"poĠ":6602,"ĠmiĠ":6603,"renĠkouĠ":6604,"ĠshouĠ":6605,"rongĠ":6606,"jinĠxingĠ":6607,"ĠsuiĠ":6608,"liaoĠ":6609,"diaoĠ":6610,"meiĠyouĠ":6611,"tuoĠ":6612,"songĠ":6613,"ouĠ":6614,"ĠliĠdeĠ":6615,"nianĠ":6616,"ĠliĠshiĠ":6617,"Ġdang":6618,"ĠweiĠyuanĠ":6619,"ĠfenĠ":6620,"ĠwanĠ":6621,"peiĠ":6622,"ĠqiĠzhongĠ":6623,"zuoĠweiĠ":6624,"biaoĠshiĠ":6625,"faĠguoĠ":6626,"Ġer":6627,"ĠĠĠzaiĠ":6628,"yanĠjiuĠ":6629,"zhengĠshiĠ":6630,"ĠshangĠ":6631,"Ġyin":6632,"ĠyouĠyuĠ":6633,"ĠdeĠjiĠ":6634,"panĠ":6635,"ĠhaoĠ":6636,"qieĠ":6637,"tuiĠ":6638,"queĠ":6639,"Ġzhe":6640,"dianĠshiĠ":6641,"yunĠdongĠ":6642,"ĠxinĠ":6643,"bangĠ":6644,"ĠhaiĠ":6645,"ĠtaiĠ":6646,"ĠmeiĠ":6647,"ĠdeĠdiĠ":6648,"chengĠshiĠ":6649,"zhiĠshiĠ":6650,"ĠshuĠ":6651,"ĠjingĠ":6652,"ĠjiangĠ":6653,"jianĠdeĠ":6654,"taĠdeĠ":6655,"gongĠheĠ":6656,"shuĠyuĠ":6657,"sheĠjiĠ":6658,"ĠqianĠ":6659,"gongĠsiĠ":6660,"ĠrenĠkouĠ":6661,"langĠ":6662,"ĠyingĠ":6663,"ĠrenĠminĠ":6664,"dunĠ":6665,"zhiĠdeĠ":6666,"qiaoĠ":6667,"10ĠyueĠ":6668,"12ĠyueĠ":6669,"ĠdeĠzhiĠ":6670,"jingĠjiĠ":6671,"7ĠyueĠ":6672,"dianĠyingĠ":6673,"ĠxiaĠ":6674,"ĠnanĠ":6675,"zuĠzhiĠ":6676,"ĠzhangĠ":6677,"9ĠyueĠ":6678,"ĠmuĠ":6679,"8ĠyueĠ":6680,"zhuĠyiĠ":6681,"3ĠyueĠ":6682,"ĠzuiĠ":6683,"1ĠyueĠ":6684,"maoĠ":6685,"waĠ":6686,"ĠshiĠqiĠ":6687,"5ĠyueĠ":6688,"daiĠbiaoĠ":6689,"riĠbenĠ":6690,"yingĠguoĠ":6691,"jiĠshiĠ":6692,"kaoĠ":6693,"6ĠyueĠ":6694,"3Ġ":6695,"ĠyouĠyiĠ":6696,"kanĠ":6697,"guoĠdeĠ":6698,"4ĠyueĠ":6699,"ĠhuiĠ":6700,"ĠshiĠzhenĠ":6701,"henĠ":6702,"maiĠ":6703,"xianĠdeĠ":6704,"ĠtongĠ":6705,"ĠbiĠ":6706,"weiĠyiĠ":6707,"11ĠyueĠ":6708,"jiaoĠyuĠ":6709,"cheĠzhanĠ":6710,"genĠjuĠ":6711,"yiĠdeĠ":6712,"yuĠshiĠ":6713,"mingĠweiĠ":6714,"buĠfenĠ":6715,"xueĠyuanĠ":6716,"reĠ":6717,"ĠyiĠyuanĠ":6718,"ĠdeĠguoĠ":6719,"ĠruĠ":6720,"liĠshiĠ":6721,"ĠdeĠyiĠgeĠ":6722,"genĠ":6723,"ĠzhiĠhouĠ":6724,"ĠnianĠ1ĠyueĠ":6725,"xiangĠgangĠ":6726,"ĠdengĠ":6727,"canĠjiaĠ":6728,"caoĠ":6729,"kangĠ":6730,"ĠyiĠweiĠ":6731,"daĠxueĠ":6732,"sheĠhuiĠ":6733,"Ġye":6734,"ĠtiĠ":6735,"xianĠshiĠ":6736,"ĠdiĠquĠ":6737,"saĠ":6738,"ĠqingĠ":6739,"yingĠxiangĠ":6740,"shuĠdeĠ":6741,"taiĠwanĠ":6742,"ĠyanĠ":6743,"ĠxueĠ":6744,"shangĠdeĠ":6745,"xingĠshiĠ":6746,"qiĠshiĠ":6747,"formulaĠ":6748,"bieĠ":6749,"Ġran":6750,"ĠyinĠciĠ":6751,"guanĠliĠ":6752,"ĠxiaoĠ":6753,"zengĠ":6754,"laoĠ":6755,"leĠyiĠ":6756,"ĠnianĠ12ĠyueĠ":6757,"tongĠguoĠ":6758,"buĠdeĠ":6759,"weiĠshiĠ":6760,"ĠnianĠdeĠ":6761,"xingĠzhengĠ":6762,"gongĠheĠguoĠ":6763,"erĠshiĠ":6764,"ĠliangĠ":6765,"renĠdeĠ":6766,"zhunĠ":6767,"ĠliĠyaĠ":6768,"ziĠjiĠ":6769,"daĠdeĠ":6770,"xiongĠ":6771,"2ĠyueĠ":6772,"5Ġ":6773,"ĠguoĠjiaĠ":6774,"zuiĠzhongĠ":6775,"ĠnianĠ3ĠyueĠ":6776,"4Ġ":6777,"huiĠyiĠ":6778,"ĠĠĠshengĠ":6779,"chengĠliĠ":6780,"ĠpingĠfangĠgongĠliĠ":6781,"ĠjiaoĠ":6782,"ĠdaĠxueĠ":6783,"kuĠ":6784,"luoĠsiĠ":6785,"ĠnianĠ7ĠyueĠ":6786,"kuangĠ":6787,"ĠnianĠ10ĠyueĠ":6788,"miaoĠ":6789,"ĠwangĠ":6790,"chuĠdeĠ":6791,"ĠzhanĠ":6792,"ĠlingĠ":6793,"faĠxianĠ":6794,"haĠ":6795,"ĠbaoĠkuoĠ":6796,"qiĠdeĠ":6797,"ĠtianĠ":6798,"gongĠzuoĠ":6799,"faĠzhanĠ":6800,"ĠshiĠzhiĠ":6801,"ĠnianĠ9ĠyueĠ":6802,"yuanĠdeĠ":6803,"ĠnianĠ5ĠyueĠ":6804,"ĠshiĠzaiĠ":6805,"heiĠ":6806,"ĠqiĠjianĠ":6807,"piaoĠ":6808,"qiĠtaĠ":6809,"kuaiĠ":6810,"siĠdeĠ":6811,"ĠboĠ":6812,"ĠnianĠ4ĠyueĠ":6813,"ĠnianĠ6ĠyueĠ":6814,"ĠnianĠ8ĠyueĠ":6815,"tieĠluĠ":6816,"suoĠyouĠ":6817,"ĠluoĠ":6818,"daoĠzhiĠ":6819,"daoĠdeĠ":6820,"tongĠdeĠ":6821,"chengĠdeĠ":6822,"ĠzhengĠ":6823,"quanĠguoĠ":6824,"ĠtaĠmenĠ":6825,"canĠyuĠ":6826,"shuangĠ":6827,"nuoĠ":6828,"louĠ":6829,"wenĠhuaĠ":6830,"ĠhuaĠ":6831,"ĠluĠ":6832,"ĠtongĠshiĠ":6833,"ĠduiĠ":6834,"diĠliĠ":6835,"buĠshiĠ":6836,"zhongĠyiĠ":6837,"ĠyouĠxiĠ":6838,"Ġsui":6839,"lianĠheĠ":6840,"diĠdeĠ":6841,"ĠnianĠ11ĠyueĠ":6842,"ĠzhiĠdaoĠ":6843,"ĠdangĠ":6844,"baoĠkuoĠ":6845,"ĠzuoĠ":6846,"ĠshenĠ":6847,"ĠzhongĠxinĠ":6848,"ĠĠĠshiĠ":6849,"ĠdeĠzhuĠ":6850,"yinĠyueĠ":6851,"ĠmaĠ":6852,"senĠ":6853,"shuĠjiĠ":6854,"yongĠyuĠ":6855,"ĠchangĠ":6856,"ĠjiuĠ":6857,"ĠĠĠyiĠ":6858,"danĠrenĠ":6859,"beiĠbuĠ":6860,"ĠguĠ":6861,"zaiĠyiĠ":6862,"tiĠgongĠ":6863,"ĠweiĠyuanĠhuiĠ":6864,"zuĠqiuĠ":6865,"guoĠjiaĠ":6866,"wenĠtiĠ":6867,"ĠnianĠzhiĠ":6868,"kuanĠ":6869,"ĠshiĠwuĠ":6870,"xuanĠbuĠ":6871,"ĠyinĠweiĠ":6872,"ĠshiĠzhongĠ":6873,"xueĠxiaoĠ":6874,"shengĠyuĠ":6875,"jianĠyuĠ":6876,"fangĠshiĠ":6877,"qianĠmiĠ":6878,"ĠquanĠ":6879,"guanĠxiĠ":6880,"gongĠyouĠ":6881,"ĠweiĠzhiĠ":6882,"hunĠ":6883,"ĠnianĠ2ĠyueĠ":6884,"rangĠ":6885,"ĠzongĠ":6886,"ĠxuĠ":6887,"huaĠrenĠminĠ":6888,"chengĠyuanĠ":6889,"ĠdianĠ":6890,"jianĠzhuĠ":6891,"yingĠdeĠ":6892,"huoĠdongĠ":6893,"Ġgai":6894,"biĠsaiĠ":6895,"jianĠliĠ":6896,"tongĠshiĠ":6897,"yuĠyiĠ":6898,"suanĠ":6899,"renĠshiĠ":6900,"enĠ":6901,"nongĠ":6902,"ĠĠĠliĠshiĠ":6903,"jiĠyiĠ":6904,"ziĠyouĠ":6905,"fenĠweiĠ":6906,"hengĠ":6907,"ĠdeĠrenĠ":6908,"guanĠjunĠ":6909,"zuoĠpinĠ":6910,"Ġxian":6911,"sheĠyouĠ":6912,"ĠbenĠ":6913,"daĠliĠ":6914,"ĠchengĠweiĠ":6915,"ĠĠĠshengĠpingĠ":6916,"geĠrenĠ":6917,"ĠanĠ":6918,"Ġjie":6919,"zhuanĠjiĠ":6920,"jiuĠshiĠ":6921,"6Ġ":6922,"ĠdiĠerĠ":6923,"beiĠjingĠ":6924,"xiaoĠshiĠ":6925,"ĠjiĠhuaĠ":6926,"yuĠdeĠ":6927,"qunĠ":6928,"geiĠ":6929,"yinĠweiĠ":6930,"huaĠrenĠminĠgongĠheĠguoĠ":6931,"ĠliĠyuĠ":6932,"ĠbuĠfenĠ":6933,"diĠshiĠ":6934,"duiĠyuĠ":6935,"ĠnianĠdaiĠ":6936,"junĠshiĠ":6937,"ĠcongĠ":6938,"ĠaĠ":6939,"tongĠyiĠ":6940,"menĠdeĠ":6941,"diĠerĠ":6942,"mingĠdeĠ":6943,"ĠtaĠdeĠ":6944,"quĠyuĠ":6945,"xiĠdeĠ":6946,"xueĠjiaĠ":6947,"eĠluoĠsiĠ":6948,"zouĠ":6949,"xinĠdeĠ":6950,"ĠliuĠ":6951,"Ġling":6952,"ĠgongĠliĠ":6953,"chunĠ":6954,"ĠbaĠ":6955,"shouĠdaoĠ":6956,"Ġsuo":6957,"minĠguoĠ":6958,"ĠduoĠ":6959,"weiĠdeĠ":6960,"zhengĠfu":6961,"zhongĠshiĠ":6962,"houĠdeĠ":6963,"laiĠdeĠ":6964,"faĠshengĠ":6965,"gongĠjiĠ":6966,"shengĠdeĠ":6967,"jinĠshiĠ":6968,"erĠdeĠ":6969,"xingĠweiĠ":6970,"fangĠmianĠ":6971,"ĠyiĠjingĠ":6972,"ĠlianĠ":6973,"ĠshiĠyouĠ":6974,"yongĠyouĠ":6975,"ĠhuĠ":6976,"ĠriĠbenĠ":6977,"ĠxiĠtongĠ":6978,"buĠyuĠ":6979,"ĠfanĠ":6980,"ĠquĠ":6981,"ĠshiĠrenĠ":6982,"ĠmianĠjiĠ":6983,"zhuĠyaoĠ":6984,"1ĠriĠ":6985,"tongĠzhiĠ":6986,"liangĠgeĠ":6987,"niĠyaĠ":6988,"diĠquĠ":6989,"ĠguanĠ":6990,"juĠyouĠ":6991,"quĠweiĠ":6992,"faĠxingĠ":6993,"ĠgaoĠ":6994,"jueĠdingĠ":6995,"ĠwenĠ":6996,"ĠzhongĠyangĠ":6997,"shengĠjiĠ":6998,"ĠfengĠ":6999,"ciĠshiĠ":7000,"chuĠxianĠ":7001,"zhĠ":7002,"ĠrenĠkouĠmiĠ":7003,"ĠyouĠshiĠ":7004,"taĠmenĠ":7005,"ĠweiĠjiĠ":7006,"qiĠyuĠ":7007,"ĠyouĠdeĠ":7008,"ziĠzhiĠ":7009,"ĠteĠ":7010,"laiĠziĠ":7011,"ĠtaĠzaiĠ":7012,"juĠxingĠ":7013,"huaĠdeĠ":7014,"ĠjiĠyuĠ":7015,"xianĠzhiĠ":7016,"wuĠdeĠ":7017,"mianĠjiĠweiĠ":7018,"ĠfeiĠ":7019,"jiaĠdeĠ":7020,"ĠshiĠyuĠ":7021,"duĠliĠ":7022,"ĠpingĠfangĠqianĠmiĠ":7023,"kongĠzhiĠ":7024,"nanĠbuĠ":7025,"shuĠjuĠ":7026,"ĠshiĠweiĠyuĠ":7027,"ĠdanĠshiĠ":7028,"quĠshiĠ":7029,"renĠwuĠ":7030,"ĠliĠruĠ":7031,"mouĠ":7032,"keĠliĠ":7033,"huiĠdeĠ":7034,"yaoĠqiuĠ":7035,"jinĠruĠ":7036,"ĠĠĠdeĠ":7037,"ĠwoĠ":7038,"gtĠ":7039,"guĠshiĠ":7040,"ĠgtĠ":7041,"Ġceng":7042,"Ġwan":7043,"chengĠjiĠ":7044,"ĠdanĠrenĠ":7045,"xiangĠgang":7046,"ĠsuoĠ":7047,"ĠyouĠjiĠ":7048,"ĠmeiĠguoĠ":7049,"yeĠshiĠ":7050,"zongĠtongĠ":7051,"ltĠ":7052,"xueĠshengĠ":7053,"ĠgongĠsiĠ":7054,"ĠĠĠyuĠ":7055,"ĠguangĠ":7056,"ĠyiĠbuĠ":7057,"gongĠshiĠ":7058,"minĠzhuĠ":7059,"ĠbianĠ":7060,"ĠranĠerĠ":7061,"wanĠchengĠ":7062,"Ġru":7063,"jinĠdeĠ":7064,"zhaĠ":7065,"ĠltĠ":7066,"ĠyiĠqiĠ":7067,"shenĠzhiĠ":7068,"ĠbingĠyuĠ":7069,"ĠcaiĠ":7070,"renĠzhiĠ":7071,"pingĠfangĠ":7072,"ĠbingĠzaiĠ":7073,"chaoĠguoĠ":7074,"ĠjiĠshuĠ":7075,"tiĠyuĠ":7076,"yuanĠshiĠ":7077,"cangĠ":7078,"lieĠcheĠ":7079,"ĠsanĠ":7080,"dangĠshiĠ":7081,"cunĠzaiĠ":7082,"siĠshiĠ":7083,"yaĠliĠ":7084,"qianĠwangĠ":7085,"ĠdeĠyiĠge":7086,"xueĠxiĠ":7087,"keĠdeĠ":7088,"ĠkaiĠ":7089,"keĠnengĠ":7090,"ĠyongĠ":7091,"jingĠguoĠ":7092,"yongĠdeĠ":7093,"ĠzhiĠweiĠ":7094,"jianĠyiĠ":7095,"guanĠyuĠ":7096,"ĠĠĠdiĠ":7097,"faĠbuĠ":7098,"guoĠshiĠ":7099,"ĠqiĠtaĠ":7100,"wuĠshiĠ":7101,"zhanĠshiĠ":7102,"wuĠkeĠ":7103,"yinĠduĠ":7104,"zhuĠrenĠ":7105,"sunĠ":7106,"ĠyouĠxianĠ":7107,"zuoĠdeĠ":7108,"ĠhanĠ":7109,"ĠshanĠ":7110,"zhanĠzhengĠ":7111,"paoĠ":7112,"neiĠdeĠ":7113,"ĠzhiĠjianĠ":7114,"daiĠbiao":7115,"ĠpuĠ":7116,"shengĠhuoĠ":7117,"binĠ":7118,"jianĠzhiĠ":7119,"ĠjiĠweiĠ":7120,"zhouĠdeĠ":7121,"ĠyiĠshuĠ":7122,"fanĠweiĠ":7123,"ĠweiĠerĠ":7124,"Ġa":7125,"chengĠgongĠ":7126,"ĠjiĠqiĠ":7127,"ouĠzhouĠ":7128,"Ġjin":7129,"hanĠguoĠ":7130,"Ġba":7131,"jieĠshouĠ":7132,"xuĠduoĠ":7133,"qiuĠduiĠ":7134,"luĠdeĠ":7135,"ĠshuĠyuĠ":7136,"Ġzai":7137,"ĠjiĠzhongĠ":7138,"zhongĠzhiĠ":7139,"zengĠjiaĠ":7140,"fuĠwuĠ":7141,"ĠbaiĠ":7142,"zhuĠxiĠ":7143,"xiaoĠxingĠ":7144,"banĠdeĠ":7145,"ĠmoĠ":7146,"ĠĠĠgaiĠ":7147,"heĠyiĠ":7148,"ĠaoĠ":7149,"zhuĠyao":7150,"houĠyiĠ":7151,"ĠsuĠ":7152,"ĠĠĠzhiĠ":7153,"sanĠshiĠ":7154,"xiaĠdeĠ":7155,"duoĠdeĠ":7156,"Ġ000":7157,"shangĠhaiĠ":7158,"huaiĠ":7159,"juĠliĠ":7160,"siĠjiĠ":7161,"zuĠchengĠ":7162,"ĠgenĠjuĠ":7163,"ningĠ":7164,"ĠciĠwaiĠ":7165,"yunĠdongĠyuanĠ":7166,"maĠweiĠ":7167,"gaoĠduĠ":7168,"fuĠdeĠ":7169,"ĠzheĠxieĠ":7170,"chuĠleĠ":7171,"ĠzhĠ":7172,"ĠzhiĠzuoĠ":7173,"niuĠ":7174,"ĠzaiĠciĠ":7175,"geĠzhongĠ":7176,"ĠbuĠguoĠ":7177,"changĠdeĠ":7178,"ĠnianĠqiĠ":7179,"chongĠxinĠ":7180,"jueĠseĠ":7181,"tuiĠchuĠ":7182,"ĠliĠjiĠ":7183,"jingĠliĠ":7184,"ĠdangĠshiĠ":7185,"renĠminĠ":7186,"zheĠgeĠ":7187,"ĠzuiĠzhongĠ":7188,"tiĠdeĠ":7189,"xuĠyaoĠ":7190,"ĠduĠ":7191,"daĠshiĠ":7192,"qiĠyiĠ":7193,"chuĠyuĠ":7194,"ĠzhiĠchuĠ":7195,"zheĠxieĠ":7196,"xiangĠdeĠ":7197,"wuĠzhongĠ":7198,"duĠweiĠ":7199,"Ġai":7200,"xuanĠjuĠ":7201,"Ġmei":7202,"ĠzhiĠwuĠ":7203,"ĠrenĠheĠ":7204,"zhuĠjiaoĠ":7205,"ĠĠĠdiĠliĠ":7206,"ĠzhiĠchiĠ":7207,"ziĠjiĠdeĠ":7208,"ziĠdeĠ":7209,"Ġma":7210,"Ġhuo":7211,"ĠweiĠleĠ":7212,"jiaoĠtongĠ":7213,"ĠsheĠ":7214,"ĠcengĠ":7215,"ĠrenĠwuĠ":7216,"ĠbanĠ":7217,"ĠnianĠjianĠ":7218,"lianĠsaiĠ":7219,"ĠĠĠweiĠ":7220,"kaiĠfaĠ":7221,"zheĠyiĠ":7222,"xianĠzaiĠ":7223,"liangĠweiĠ":7224,"ĠlaiĠ":7225,"ĠrenĠyuanĠ":7226,"ĠweiĠqiĠ":7227,"jieĠshuĠ":7228,"chuĠliĠ":7229,"saiĠshiĠ":7230,"nvĠziĠ":7231,"ruiĠ":7232,"dangĠdiĠ":7233,"jieĠmuĠ":7234,"yaĠdeĠ":7235,"2010ĠnianĠ":7236,"gongĠyuanĠ":7237,"ĠzhiĠyuĠ":7238,"fanĠyingĠ":7239,"dingĠdeĠ":7240,"chanĠshengĠ":7241,"juanĠ":7242,"sheĠshiĠ":7243,"chuĠbanĠ":7244,"gongĠchanĠ":7245,"guanĠdeĠ":7246,"ĠyiĠzhongĠ":7247,"baĠshiĠ":7248,"leiĠsiĠ":7249,"shouĠciĠ":7250,"ruoĠ":7251,"riĠben":7252,"jingĠshiĠ":7253,"dongĠwuĠ":7254,"ĠshiĠyiĠgeĠ":7255,"zhuiĠ":7256,"fuĠzeĠ":7257,"jieĠshiĠ":7258,"xiangĠshiĠ":7259,"Ġjiang":7260,"boĠshiĠ":7261,"ĠtaĠmen":7262,"jieĠdeĠ":7263,"leĠbuĠ":7264,"ĠleiĠ":7265,"Ġhai":7266,"geĠquĠ":7267,"nanĠziĠ":7268,"ĠdaiĠ":7269,"guanĠxiaĠ":7270,"sanĠnianĠ":7271,"duiĠdeĠ":7272,"zaoĠchengĠ":7273,"ĠaiĠ":7274,"keĠneng":7275,"ĠhouĠlaiĠ":7276,"ĠyangĠ":7277,"dongĠshiĠ":7278,"yanĠjiu":7279,"anĠdeĠ":7280,"duĠdeĠ":7281,"sheĠliĠ":7282,"douĠshiĠ":7283,"ĠnaĠ":7284,"yangĠdeĠ":7285,"shanĠxiĠ":7286,"ĠzhenĠ":7287,"ĠjiĠzhiĠ":7288,"ĠjiĠxuĠ":7289,"zhongĠyuĠ":7290,"nvĠxingĠ":7291,"ĠyaĠ":7292,"Ġ1Ġ":7293,"ĠsuoĠyiĠ":7294,"guoĠyuĠ":7295,"guoĠyiĠ":7296,"ĠĠĠqiĠ":7297,"ĠzhiĠzhiĠ":7298,"Ġfen":7299,"fangĠfaĠ":7300,"2020ĠnianĠ":7301,"ĠheĠzuoĠ":7302,"gongĠchengĠ":7303,"wuĠliĠ":7304,"meiĠpingĠfangĠ":7305,"jiaoĠshouĠ":7306,"zhengĠzhiĠrenĠwuĠ":7307,"ĠyiĠsiĠ":7308,"zhengĠdeĠ":7309,"lianĠmengĠ":7310,"ĠranĠ":7311,"daiĠdeĠ":7312,"diĠweiĠ":7313,"ĠxuanĠ":7314,"Ġcong":7315,"junĠdeĠ":7316,"xiangĠmuĠ":7317,"caiĠyongĠ":7318,"ĠzaiĠdiĠ":7319,"dongĠdeĠ":7320,"fangĠdeĠ":7321,"ĠĠĠrenĠkouĠ":7322,"ĠĠĠyou":7323,"liangĠdeĠ":7324,"Ġzong":7325,"yuanĠyuĠ":7326,"Ġhao":7327,"chuanĠtongĠ":7328,"ĠtuĠ":7329,"ĠriĠzaiĠ":7330,"huaĠminĠguoĠ":7331,"zhuĠdeĠ":7332,"geĠshiĠ":7333,"2001ĠnianĠ":7334,"ĠdanĠweiĠ":7335,"Ġbei":7336,"taiĠwan":7337,"ĠnianĠyiĠ":7338,"xinĠwenĠ":7339,"zhanĠdeĠ":7340,"yanĠyuanĠ":7341,"xiĠtongĠ":7342,"fuĠshiĠ":7343,"ĠĠĠjiĠ":7344,"ĠliĠsiĠ":7345,"jiaĠruĠ":7346,"ĠzhiĠyouĠ":7347,"daoĠleĠ":7348,"xiĠjiĠ":7349,"daoĠshiĠ":7350,"faĠdeĠ":7351,"heĠshiĠ":7352,"yingĠyuĠ":7353,"bianĠmaĠweiĠ":7354,"ĠyiĠhuiĠ":7355,"xiangĠguanĠ":7356,"ĠguiĠ":7357,"boĠwuĠ":7358,"houĠzaiĠ":7359,"Ġ0":7360,"ĠjiĠjiĠ":7361,"ĠjiĠluĠ":7362,"ĠweiĠfuĠ":7363,"ĠzeĠ":7364,"ĠyiĠyiĠ":7365,"baoĠkuo":7366,"ĠdeĠyiĠgeĠshiĠzhenĠ":7367,"lianĠjieĠ":7368,"ĠxueĠmingĠ":7369,"zuiĠjiaĠ":7370,"tiĠchuĠ":7371,"haiĠshiĠ":7372,"muĠsiĠ":7373,"mingĠchengĠ":7374,"ĠzheĠshiĠ":7375,"ĠzhouĠ":7376,"ĠxiĠyaĠ":7377,"xueĠdeĠ":7378,"ĠweiĠzhuĠ":7379,"ĠjiĠzaiĠ":7380,"erĠnianĠ":7381,"ĠrenĠkouĠmiĠduĠ":7382,"jiaĠzhiĠ":7383,"ĠyiĠxieĠ":7384,"ĠĠĠjiaĠ":7385,"ĠjunĠ":7386,"Ġci":7387,"xiaoĠdeĠ":7388,"mianĠdeĠ":7389,"ĠshiĠyiĠzhongĠ":7390,"zuiĠgaoĠ":7391,"dongĠjiĠ":7392,"geĠdeĠ":7393,"ĠyuĠshiĠ":7394,"ĠliĠyiĠ":7395,"ĠfangĠ":7396,"Ġmi":7397,"ĠkaĠ":7398,"shuĠshiĠ":7399,"lingĠshiĠ":7400,"ĠnianĠzaiĠ":7401,"xiaĠjiĠ":7402,"gaiĠweiĠ":7403,"Ġliang":7404,"zheĠzhongĠ":7405,"ĠzhiĠjieĠ":7406,"haiĠjunĠ":7407,"changĠshiĠ":7408,"qingĠkuang":7409,"huiĠshiĠ":7410,"ĠzheĠgeĠ":7411,"ĠlaĠ":7412,"yaoĠdeĠ":7413,"zhuĠshiĠ":7414,"ĠzuoĠweiĠ":7415,"shengĠwuĠ":7416,"zaiĠdeĠ":7417,"yanĠdeĠ":7418,"zhaiĠ":7419,"yanĠzhongĠ":7420,"naĠdaĠ":7421,"qiĠzhiĠ":7422,"yeĠyuĠ":7423,"gaiĠguoĠ":7424,"huiĠfuĠ":7425,"luanĠ":7426,"zaiĠyuĠ":7427,"meiĠtiĠ":7428,"ĠyeĠshiĠ":7429,"zhengĠyiĠ":7430,"bianĠdeĠ":7431,"ĠxieĠ":7432,"keĠjiĠ":7433,"wenĠwuĠ":7434,"pengĠ":7435,"jianĠshiĠ":7436,"xinĠxiĠ":7437,"gaoĠdeĠ":7438,"ĠzhiĠqianĠ":7439,"jieĠguoĠ":7440,"minĠzuĠ":7441,"shuiĠyuĠ":7442,"ĠbuĠtongĠ":7443,"chengĠrenĠ":7444,"ĠkeĠsiĠ":7445,"yanĠchangĠ":7446,"ĠkeĠyiĠ":7447,"fanĠduiĠ":7448,"nengĠliĠ":7449,"ĠĠĠxingĠzhengĠ":7450,"huaĠshiĠ":7451,"heĠdeĠ":7452,"qianĠdeĠ":7453,"geĠliĠ":7454,"xingĠzhiĠ":7455,"chouĠ":7456,"ĠniĠ":7457,"siĠyuĠ":7458,"haoĠdeĠ":7459,"7Ġ":7460,"beiĠshiĠ":7461,"ĠĠĠof":7462,"jiangĠjunĠ":7463,"leiĠdeĠ":7464,"jieĠgouĠ":7465,"ĠchongĠ":7466,"huanĠjingĠ":7467,"xianĠyuĠ":7468,"ĠĠĠformulaĠ":7469,"baoĠhu":7470,"zhuĠjianĠ":7471,"zanĠ":7472,"saiĠjiĠ":7473,"Ġ2Ġ":7474,"moĠshiĠ":7475,"ĠĠĠbenĠ":7476,"aĠerĠ":7477,"ĠhongĠ":7478,"ĠyiĠbanĠ":7479,"ĠdiĠyiĠ":7480,"ĠĠĠofĠĠĠ":7481,"chuangĠzuoĠ":7482,"zhangĠdeĠ":7483,"baoĠhuĠ":7484,"Ġliu":7485,"ĠliĠweiĠ":7486,"Ġming":7487,"ĠzhuĠyaoĠ":7488,"ĠzhongĠhuaĠrenĠminĠgongĠheĠguoĠ":7489,"tongĠjiĠ":7490,"theĠĠĠ":7491,"sanĠgeĠ":7492,"ĠchenĠ":7493,"junĠduiĠ":7494,"ĠxiangĠgangĠ":7495,"biaoĠxianĠ":7496,"zhuĠliĠ":7497,"biaoĠzhunĠ":7498,"ĠnianĠshiĠ":7499,"ĠtangĠ":7500,"geĠyueĠ":7501,"shengĠliĠ":7502,"zhouĠshiĠ":7503,"quanĠliĠ":7504,"zheĠdeĠ":7505,"zongĠjiaoĠ":7506,"buĠfen":7507,"daĠluĠ":7508,"shengĠyaĠ":7509,"shangĠyeĠ":7510,"ĠyiĠciĠ":7511,"siĠnianĠ":7512,"diaoĠchaĠ":7513,"Ġgu":7514,"wuĠfaĠ":7515,"ĠyunĠ":7516,"hangĠkongĠ":7517,"ĠĠĠgenĠjuĠ":7518,"Ġ1":7519,"ĠĠĠciĠ":7520,"dongĠbuĠ":7521,"huiĠzaiĠ":7522,"biĠyeĠ":7523,"shenĠfenĠ":7524,"diĠzhiĠ":7525,"touĠguoĠ":7526,"ĠdeĠyiĠbuĠfenĠ":7527,"faĠyuanĠ":7528,"buĠyiĠ":7529,"diĠyuĠ":7530,"jiaĠliĠ":7531,"geĠmingĠ":7532,"ĠyaoĠ":7533,"chengĠzhongĠ":7534,"jinĠjiĠ":7535,"ĠdangĠdiĠ":7536,"ĠjiĠtuanĠ":7537,"baĠgaoĠduĠ":7538,"jiaoĠshiĠ":7539,"ĠjinĠxingĠ":7540,"ĠtaiĠwanĠ":7541,"xieĠhuiĠ":7542,"ĠhuangĠ":7543,"dongĠhuaĠ":7544,"qiuĠyuanĠ":7545,"ĠzhiĠxingĠ":7546,"feiĠchangĠ":7547,"ĠzhuanĠ":7548,"danĠweiĠ":7549,"chaĠdeĠ":7550,"fenĠbuĠ":7551,"biĠdeĠ":7552,"ziĠliaoĠ":7553,"biĠsai":7554,"jieĠzhiĠ":7555,"ĠyouĠguanĠ":7556,"tuanĠtiĠ":7557,"shengĠchanĠ":7558,"AĠ":7559,"bingĠbuĠ":7560,"fuĠheĠ":7561,"beiĠrenĠ":7562,"fenĠbie":7563,"10Ġ":7564,"chaoĠxianĠ":7565,"dingĠyiĠ":7566,"xiaĠyiĠ":7567,"quanĠbuĠ":7568,"8Ġ":7569,"gaiĠdiĠ":7570,"jingĠdeĠ":7571,"neiĠrongĠ":7572,"pingĠjunĠ":7573,"wenĠxueĠ":7574,"duĠshiĠ":7575,"dongĠbeiĠ":7576,"anĠquanĠ":7577,"renĠkouĠpuĠ":7578,"ĠbingĠqie":7579,"jiaĠjiĠ":7580,"laĠsiĠ":7581,"luoĠmaĠ":7582,"jieĠfangĠ":7583,"lingĠdaoĠ":7584,"ĠzhiĠyuanĠ":7585,"jinĠbiaoĠ":7586,"ĠlinĠ":7587,"xingĠdongĠ":7588,"juĠminĠ":7589,"shangĠshiĠ":7590,"qingĠkuangĠ":7591,"ĠyuĠjiĠ":7592,"ĠzhiĠhuiĠ":7593,"ĠbaoĠkuo":7594,"gongĠkaiĠ":7595,"sheĠzhiĠ":7596,"ĠqiĠhouĠ":7597,"shouĠdeĠ":7598,"ĠjiĠdiĠ":7599,"yuanĠyiĠ":7600,"yanĠshiĠ":7601,"yanĠchuĠ":7602,"Ġwo":7603,"zuoĠyouĠ":7604,"zuoĠpin":7605,"Ġnan":7606,"keĠxueĠ":7607,"Ġda":7608,"renĠyiĠ":7609,"ĠzuĠ":7610,"shangĠweiĠ":7611,"ĠfuĠzeĠ":7612,"ĠruĠguoĠ":7613,"ĠkeĠnengĠ":7614,"jiaĠshiĠ":7615,"zaiĠshiĠ":7616,"erĠjiĠ":7617,"wuĠzhiĠ":7618,"xingĠjiĠ":7619,"28ĠriĠ":7620,"kongĠjianĠ":7621,"ĠerĠshiĠ":7622,"fangĠzhiĠ":7623,"gaiĠbianĠ":7624,"ĠzhaoĠ":7625,"aoĠyunĠ":7626,"Ġjiu":7627,"shuĠweiĠ":7628,"xueĠshiĠ":7629,"ĠdiĠguoĠ":7630,"ĠyuĠqiĠ":7631,"ĠbingĠqieĠ":7632,"ĠqiuĠ":7633,"dengĠdiĠ":7634,"zeĠshiĠ":7635,"guanĠzhongĠ":7636,"luĠxianĠ":7637,"xueĠweiĠ":7638,"yuanĠheĠ":7639,"qiĠweiĠ":7640,"ĠdaĠdaoĠ":7641,"lanĠdeĠ":7642,"ĠyiĠmingĠ":7643,"ĠhuoĠdeĠ":7644,"ĠliĠzhiĠ":7645,"dengĠrenĠ":7646,"15ĠriĠ":7647,"heĠjiĠ":7648,"baoĠdaoĠ":7649,"ĠĠĠyouĠ":7650,"ĠlingĠwaiĠ":7651,"2008ĠnianĠ":7652,"juĠdeĠ":7653,"qingĠnianĠ":7654,"ĠcheĠ":7655,"guoĠliĠ":7656,"lveĠ":7657,"aoĠlinĠ":7658,"bangĠzhuĠ":7659,"faĠbiaoĠ":7660,"ĠĠĠzhongĠ":7661,"2016ĠnianĠ":7662,"piĠkeĠ":7663,"chuĠrenĠ":7664,"zuoĠyongĠ":7665,"aiĠerĠ":7666,"zaoĠdaoĠ":7667,"ĠyuĠyanĠ":7668,"gongĠzuo":7669,"ĠriĠzhiĠ":7670,"sĠ":7671,"gongĠdeĠ":7672,"juĠjiĠ":7673,"deĠĠĠ":7674,"yeĠyouĠ":7675,"luĠdiĠ":7676,"guiĠdaoĠ":7677,"tongĠchangĠ":7678,"zuĠdeĠ":7679,"jiangĠqiĠ":7680,"ĠyiĠyuĠ":7681,"shouĠjiĠ":7682,"feiĠjiĠ":7683,"gongĠgongĠ":7684,"2009ĠnianĠ":7685,"yuanĠnianĠ":7686,"maĠliĠ":7687,"paĠ":7688,"shengĠdeĠyiĠgeĠshiĠzhenĠ":7689,"ĠzhiĠjianĠdeĠ":7690,"ĠshuiĠ":7691,"bianĠhuaĠ":7692,"jiaĠyiĠ":7693,"tuĠdiĠ":7694,"taĠmen":7695,"yaĠzhouĠ":7696,"ĠĠĠjuĠ":7697,"xiĠbanĠ":7698,"buĠtongĠ":7699,"ĠshiĠxingĠ":7700,"wuĠnianĠ":7701,"taiĠpingĠ":7702,"ĠmuĠqianĠ":7703,"banĠbenĠ":7704,"jieĠheĠ":7705,"2011ĠnianĠ":7706,"houĠyuĠ":7707,"2012ĠnianĠ":7708,"ĠsiĠkeĠ":7709,"ĠdanĠzaiĠ":7710,"ĠpaiĠ":7711,"huiĠheĠ":7712,"zhanĠyiĠ":7713,"jiaoĠyiĠ":7714,"ĠweiĠzhongĠ":7715,"jueĠsaiĠ":7716,"xianĠrenĠ":7717,"zhengĠceĠ":7718,"ĠbuĠduiĠ":7719,"piĠpingĠ":7720,"ĠchuanĠ":7721,"Ġ2":7722,"ĠhaiĠbaĠgaoĠduĠ":7723,"taĠzaiĠ":7724,"25ĠriĠ":7725,"jiaoĠhuiĠ":7726,"xingĠchengĠ":7727,"miaoĠshuĠ":7728,"ĠdingĠ":7729,"ĠerĠsiĠ":7730,"zaoĠqiĠ":7731,"meiĠyuanĠ":7732,"ĠC":7733,"UTCĠ":7734,"ĠtaĠyuĠ":7735,"erĠweiĠ":7736,"boĠliĠ":7737,"ĠyouĠqiĠ":7738,"yuanĠyinĠ":7739,"ĠdeĠdaoĠ":7740,"ĠzhiĠyeĠ":7741,"chuĠshiĠ":7742,"Ġsan":7743,"ĠheĠwuĠ":7744,"Ġha":7745,"xieĠyiĠ":7746,"xuanĠzeĠ":7747,"zaoĠdeĠ":7748,"xiaoĠshuoĠ":7749,"wanĠquanĠ":7750,"ĠsiĠteĠ":7751,"yunĠdongĠhuiĠ":7752,"xianĠdaiĠ":7753,"lianĠbangĠ":7754,"ĠrenĠweiĠ":7755,"lingĠyiĠ":7756,"ĠneiĠ":7757,"ĠyueĠdeĠ":7758,"wenĠhua":7759,"ĠjianĠchengĠ":7760,"jianĠsheĠ":7761,"Ġmo":7762,"ĠtaĠshiĠ":7763,"ĠdangĠzhongĠ":7764,"30ĠriĠ":7765,"beiĠchengĠweiĠ":7766,"ĠyouĠchengĠ":7767,"10ĠriĠ":7768,"changĠqiĠ":7769,"ĠeĠ":7770,"zuiĠdaĠ":7771,"20ĠriĠ":7772,"chiĠxuĠ":7773,"jingĠneiĠ":7774,"linĠshiĠ":7775,"yuanĠzhuĠ":7776,"ĠxunĠ":7777,"dianĠziĠ":7778,"Ġsi":7779,"xingĠyuĠ":7780,"zuĠheĠ":7781,"ĠweiĠdiĠ":7782,"2014ĠnianĠ":7783,"mingĠmingĠ":7784,"duoĠshuĠ":7785,"seĠdeĠ":7786,"Ġ5Ġ":7787,"saiĠdeĠ":7788,"buĠliĠ":7789,"ĠdiĠsanĠ":7790,"fuĠzhiĠ":7791,"wuĠyuanĠ":7792,"baĠliĠ":7793,"zhuanĠyeĠ":7794,"shengĠheĠ":7795,"gongĠtongĠ":7796,"jieĠdaoĠ":7797,"ziĠgeĠ":7798,"2018ĠnianĠ":7799,"ĠshiĠyanĠ":7800,"buĠjiĠ":7801,"2019ĠnianĠ":7802,"dongĠnanĠ":7803,"gaoĠzhongĠ":7804,"Ġqie":7805,"houĠlaiĠ":7806,"faĠlvĠ":7807,"ĠdiĠsiĠ":7808,"ĠjiĠjinĠ":7809,"ĠmengĠ":7810,"zaĠzhiĠ":7811,"wuĠkeĠlanĠ":7812,"faĠzhan":7813,"danĠquĠ":7814,"ĠshiĠweiĠyuĠmeiĠguoĠ":7815,"Ġ12":7816,"ĠjiĠgouĠ":7817,"ĠyuĠzhongĠ":7818,"erĠziĠ":7819,"ĠguoĠminĠ":7820,"2013ĠnianĠ":7821,"ĠweiĠyuĠgaiĠguoĠ":7822,"shengĠweiĠ":7823,"ĠyueĠzhiĠ":7824,"kuiĠ":7825,"daoĠyiĠ":7826,"chuĠqiĠ":7827,"bingĠweiĠ":7828,"ĠmianĠ":7829,"ĠliĠkeĠ":7830,"zhongĠjiĠ":7831,"tuĠerĠ":7832,"ĠshiĠjieĠdaĠ":7833,"18ĠriĠ":7834,"ĠyuĠzhiĠ":7835,"24ĠriĠ":7836,"2015ĠnianĠ":7837,"baoĠgaoĠ":7838,"ĠgengĠ":7839,"guangĠdongĠ":7840,"fangĠxiangĠ":7841,"ĠdeĠzhongĠ":7842,"ĠliĠyongĠ":7843,"guoĠminĠ":7844,"ĠbuĠzaiĠ":7845,"ĠyueĠshiĠ":7846,"dieĠ":7847,"ĠdeĠweiĠ":7848,"26ĠriĠ":7849,"boĠwuĠguanĠ":7850,"ĠjinĠguanĠ":7851,"ĠsuiĠhouĠ":7852,"2007ĠnianĠ":7853,"daĠdaoĠ":7854,"dianĠliĠ":7855,"guanĠzhiĠ":7856,"xianĠyiĠ":7857,"ĠtongĠnianĠ":7858,"2005ĠnianĠ":7859,"guiĠdingĠ":7860,"Ġke":7861,"sheĠquĠ":7862,"Ġfei":7863,"ĠyingĠguoĠ":7864,"ĠzheĠzhongĠ":7865,"fuĠliĠ":7866,"Ġduo":7867,"canĠsaiĠ":7868,"fengĠgeĠ":7869,"ĠweiĠsiĠ":7870,"mingĠziĠ":7871,"luoĠdeĠ":7872,"teĠbie":7873,"lianĠxiĠ":7874,"ĠfenĠbuĠyuĠ":7875,"aoĠlinĠpiĠkeĠ":7876,"yingĠgeĠ":7877,"16ĠriĠ":7878,"ĠwaiĠ":7879,"youĠxiĠ":7880,"muĠbiaoĠ":7881,"wangĠdeĠ":7882,"ĠshaĠ":7883,"changĠweiĠ":7884,"ĠchuĠleĠ":7885,"Ġ2001ĠnianĠ":7886,"17ĠriĠ":7887,"ĠganĠ":7888,"ĠxiĠlieĠ":7889,"dingĠweiĠ":7890,"ĠjiĠchangĠ":7891,"biĠliĠ":7892,"zheĠshiĠ":7893,"BĠ":7894,"ĠjiĠheĠ":7895,"ĠerĠshengĠ":7896,"touĠziĠ":7897,"taĠmenĠdeĠ":7898,"wuĠxianĠ":7899,"juĠbanĠ":7900,"neiĠbuĠ":7901,"2017ĠnianĠ":7902,"quanĠqiuĠ":7903,"yinĠhangĠ":7904,"ĠyouĠxianĠgongĠsiĠ":7905,"sĠĠĠ":7906,"ĠshiĠheĠ":7907,"fuĠyiĠ":7908,"gongĠchanĠdangĠ":7909,"dongĠjingĠ":7910,"guoĠzhiĠ":7911,"shangĠshuĠ":7912,"daoĠyuĠ":7913,"junĠweiĠ":7914,"ĠliĠkaiĠ":7915,"muĠdeĠ":7916,"muĠdiĠ":7917,"lieĠdeĠ":7918,"buĠzhiĠ":7919,"ĠqieĠ":7920,"shenĠdeĠ":7921,"ĠyinĠci":7922,"ĠshiĠziĠ":7923,"ziĠyuĠ":7924,"huaĠxueĠ":7925,"guanĠfangĠ":7926,"kaiĠfangĠ":7927,"8ĠriĠ":7928,"shouĠyuĠ":7929,"ĠĠĠzhengĠzhiĠ":7930,"ĠdeĠshiĠzhenĠ":7931,"gaiĠnianĠ":7932,"21ĠriĠ":7933,"ĠminĠ":7934,"paiĠsheĠ":7935,"ĠzhongĠxueĠ":7936,"kaĠerĠ":7937,"7ĠriĠ":7938,"ĠfuĠwuĠ":7939,"27ĠriĠ":7940,"aĠlaĠ":7941,"baoĠfaĠ":7942,"2006ĠnianĠ":7943,"19ĠriĠ":7944,"xianĠweiĠ":7945,"ĠliĠfaĠ":7946,"ĠhaoĠmiĠ":7947,"11ĠriĠ":7948,"Ġque":7949,"23ĠriĠ":7950,"yingĠyongĠ":7951,"ceĠshiĠ":7952,"12ĠriĠ":7953,"ĠsongĠ":7954,"ĠĠĠtheĠĠĠ":7955,"siĠheĠ":7956,"meiĠguoĠrenĠkouĠpuĠ":7957,"ĠzhiĠjiĠ":7958,"shuĠliangĠweiĠ":7959,"boĠchuĠ":7960,"yinĠshiĠ":7961,"suĠlianĠ":7962,"9ĠriĠ":7963,"fuĠyuĠ":7964,"Ġ3Ġ":7965,"xueĠzheĠ":7966,"shangĠyouĠ":7967,"banĠshiĠ":7968,"qiĠjiĠ":7969,"qiĠjianĠ":7970,"chuĠyiĠ":7971,"huiĠyuĠ":7972,"2021ĠnianĠ":7973,"yeĠdeĠ":7974,"ĠzhuĠyao":7975,"juĠleĠbuĠ":7976,"xuĠduo":7977,"lieĠche":7978,"huangĠdiĠ":7979,"22ĠriĠ":7980,"ĠshiĠfaĠguoĠ":7981,"14ĠriĠ":7982,"kunĠ":7983,"yingĠshiĠ":7984,"dangĠdeĠ":7985,"ĠyueĠhanĠ":7986,"guiĠmoĠ":7987,"lingĠyuĠ":7988,"shanĠdongĠ":7989,"5ĠriĠ":7990,"29ĠriĠ":7991,"3ĠriĠ":7992,"zuiĠdaĠdeĠ":7993,"zhengĠzaiĠ":7994,"guanĠyuanĠ":7995,"tingĠzhiĠ":7996,"yuanĠjiĠ":7997,"ĠpiĠ":7998,"2022ĠnianĠ":7999,"biĠxuĠ":8000,"xiĠlieĠ":8001,"jingĠyingĠ":8002,"suoĠshuĠdeĠ":8003,"yinĠqiĠ":8004,"ĠdaĠhuiĠ":8005,"pingĠjiaĠ":8006,"xunĠlianĠ":8007,"xiĠshiĠ":8008,"shengĠchan":8009,"shengĠmingĠ":8010,"ĠlvĠ":8011,"zhuĠzaiĠ":8012,"shouĠshiĠ":8013,"nengĠgouĠ":8014,"TheĠĠĠ":8015,"gongĠyeĠ":8016,"qingĠkuangĠxiaĠ":8017,"ĠsaiĠ":8018,"shengĠzaiĠ":8019,"quĠhuaĠ":8020,"tiaoĠjianĠ":8021,"qianĠyiĠ":8022,"13ĠriĠ":8023,"teĠdeĠ":8024,"jinĠzhiĠ":8025,"ĠkaiĠshiĠ":8026,"9Ġ":8027,"maiĠkeĠ":8028,"taiĠdeĠ":8029,"yaĠyuĠ":8030,"yuanĠzhiĠ":8031,"lianĠmeng":8032,"4ĠriĠ":8033,"ĠjiĠbaiĠ":8034,"ĠdaoĠzhiĠ":8035,"6ĠriĠ":8036,"jiaoĠdeĠ":8037,"31ĠriĠ":8038,"sheĠdeĠ":8039,"jieĠchuĠ":8040,"xiaoĠxingĠxingĠ":8041,"naiĠ":8042,"ĠnianĠdai":8043,"ĠbuĠjiuĠ":8044,"zangĠ":8045,"chaoĠjiĠ":8046,"ĠrenĠzhongĠ":8047,"2ĠriĠ":8048,"ĠgongĠchiĠ":8049,"geĠjiĠ":8050,"ĠsuiĠranĠ":8051,"daĠjiĠ":8052,"ĠzhongĠyang":8053,"liuĠxingĠ":8054,"nanĠxingĠ":8055,"ĠzuiĠhouĠ":8056,"gongĠbuĠ":8057,"teĠzhengĠ":8058,"xiongĠdiĠ":8059,"dianĠdeĠ":8060,"Ġ14":8061,"geĠweiĠ":8062,"wuĠjiĠ":8063,"renĠjiĠ":8064,"youĠyiĠ":8065,"manĠhuaĠ":8066,"ĠqiangĠ":8067,"jianĠweiĠ":8068,"ĠyouĠmingĠ":8069,"fuĠjinĠ":8070,"zuoĠjiaĠ":8071,"Ġfan":8072,"siĠrenĠ":8073,"ĠjueĠ":8074,"siĠzaiĠ":8075,"boĠteĠ":8076,"zhongĠweiĠ":8077,"keĠdaĠ":8078,"ouĠzhou":8079,"ĠshenĠzhiĠ":8080,"lvĠyouĠ":8081,"fenĠxiĠ":8082,"huangĠjiaĠ":8083,"Ġxin":8084,"brĠ":8085,"ĠtongĠguoĠ":8086,"zongĠheĠ":8087,"shengĠfenĠ":8088,"yinĠciĠ":8089,"chengĠyiĠ":8090,"ĠgongĠzuoĠ":8091,"Ġze":8092,"bianĠweiĠ":8093,"niuĠyueĠ":8094,"ĠĠĠjinĠ":8095,"wenĠwuĠbaoĠhu":8096,"ĠbrĠ":8097,"zaiĠweiĠ":8098,"banĠdaoĠ":8099,"siĠweiĠ":8100,"juĠrenĠ":8101,"ĠriĠben":8102,"ĠgongĠluĠ":8103,"guangĠboĠ":8104,"ciĠshiĠjieĠdaĠ":8105,"maoĠyiĠ":8106,"Ġtian":8107,"zhuangĠtaiĠ":8108,"qiĠnianĠ":8109,"ĠsuiĠran":8110,"Ġhou":8111,"Ġ4Ġ":8112,"ĠrenĠkou":8113,"pinĠdaoĠ":8114,"Ġ10":8115,"heĠliĠ":8116,"20ĠshiĠjiĠ":8117,"ĠzhiĠzhongĠ":8118,"ĠkeĠneng":8119,"renĠkouĠshuĠliangĠweiĠ":8120,"ĠĠĠyouĠyuĠ":8121,"buĠzhangĠ":8122,"fenĠziĠ":8123,"aoĠsiĠ":8124,"Ġgeng":8125,"shuoĠshiĠ":8126,"2004ĠnianĠ":8127,"ĠyouĠrenĠ":8128,"duoĠgeĠ":8129,"juĠzhongĠ":8130,"jieĠduanĠ":8131,"xuanĠshouĠ":8132,"faĠshiĠ":8133,"gaoĠjiĠ":8134,"Ġzhou":8135,"ĠdouĠ":8136,"zhunĠbeiĠ":8137,"fangĠyuĠ":8138,"ĠzaiĠqiĠ":8139,"bingĠliĠ":8140,"miĠerĠ":8141,"ĠyingĠchiĠ":8142,"duoĠciĠ":8143,"Ġchen":8144,"fangĠanĠ":8145,"ĠĠĠliĠ":8146,"waiĠdeĠ":8147,"ĠzhongĠbuĠ":8148,"yuanĠweiĠ":8149,"ĠheĠnanĠ":8150,"huiĠdaoĠ":8151,"shangĠyiĠ":8152,"buĠweiĠ":8153,"ĠyouĠzhiĠ":8154,"ĠĠĠziĠ":8155,"Ġ3":8156,"chengĠduĠ":8157,"ciĠdeĠ":8158,"haiĠyuĠ":8159,"moĠdeĠ":8160,"ĠtouĠ":8161,"fenĠzhiĠ":8162,"2000ĠnianĠ":8163,"ciĠzhiĠ":8164,"ĠdiĠfangĠ":8165,"wangĠluoĠ":8166,"ĠĠĠdaĠ":8167,"liuĠnianĠ":8168,"ĠxianĠshiĠ":8169,"jieĠjiĠ":8170,"beiĠdeĠ":8171,"ziĠshiĠ":8172,"ĠtaĠcengĠ":8173,"junĠzaiĠ":8174,"ĠgangĠ":8175,"feiĠxingĠ":8176,"dianĠshiĠtaiĠ":8177,"juĠshiĠ":8178,"ĠyiĠlaiĠ":8179,"ĠdeĠyiĠzhongĠ":8180,"leĠyiĠgeĠ":8181,"dengĠjiĠ":8182,"xuanĠweiĠ":8183,"ĠrenĠkouĠmiĠduĠweiĠ":8184,"ĠriĠqiĠ":8185,"Ġ13":8186,"ĠyiĠshiĠ":8187,"21Ġ":8188,"shuĠguanĠ":8189,"ĠgongĠyuanĠ":8190,"haiĠyouĠ":8191,"ĠchaoĠ":8192,"huiĠyouĠ":8193,"gaiĠgeĠ":8194,"ĠchiĠ":8195,"qiuĠjiĠ":8196,"luĠjunĠ":8197,"wuĠqiĠ":8198,"Ġxiang":8199,"ĠA":8200,"zheĠjiangĠ":8201,"biaoĠyanĠ":8202,"Ġzhao":8203,"ĠweiĠyuĠfaĠguoĠ":8204,"zuiĠhouĠ":8205,"xiangĠtongĠ":8206,"ĠxiĠbanĠ":8207,"dianĠshiĠjuĠ":8208,"sheĠbeiĠ":8209,"xingĠheĠ":8210,"ĠzhiĠjinĠ":8211,"guĠjiĠ":8212,"liuĠshiĠ":8213,"meiĠzhouĠ":8214,"zhuĠyuĠ":8215,"zaiĠjiĠ":8216,"aiĠdeĠ":8217,"ĠlanĠ":8218,"ĠjiaĠruĠ":8219,"guangĠchangĠ":8220,"ĠshiĠdaiĠ":8221,"ĠyiĠrenĠ":8222,"faĠyuĠ":8223,"jiaĠheĠ":8224,"nuĠ":8225,"ĠmeiĠyouĠ":8226,"wenĠwuĠbaoĠhuĠdanĠweiĠ":8227,"xieĠzhuĠ":8228,"ĠĠĠzhuĠ":8229,"Ġ6Ġ":8230,"tiaoĠyueĠ":8231,"ĠyiĠbeiĠ":8232,"yangĠshiĠ":8233,"suĠduĠ":8234,"siĠwangĠ":8235,"Ġzu":8236,"ĠzhiĠliĠ":8237,"chanĠpinĠ":8238,"hangĠkong":8239,"bianĠchengĠ":8240,"baoĠhanĠ":8241,"yingĠjiĠ":8242,"ĠfenĠbie":8243,"renĠyuĠ":8244,"jiangĠyuĠ":8245,"ĠtiaoĠ":8246,"fuĠjianĠ":8247,"gongĠyouĠrenĠkouĠ":8248,"ĠxingĠzhengĠ":8249,"huoĠdeĠleĠ":8250,"ĠzhiĠzaiĠ":8251,"xiĠweiĠ":8252,"Ġzhang":8253,"qingĠdeĠ":8254,"qunĠdaoĠ":8255,"duanĠdeĠ":8256,"haiĠbaĠ":8257,"zhanĠzheng":8258,"ĠzhongĠhuaĠminĠguoĠ":8259,"zhenĠquĠ":8260,"ĠbeiĠqiĠ":8261,"muĠqianĠ":8262,"ĠĠĠjianĠ":8263,"quĠyiĠ":8264,"Ġ11":8265,"cuoĠ":8266,"ĠzheĠyiĠ":8267,"shouĠduĠ":8268,"ĠgongĠfenĠ":8269,"ĠqiĠyeĠ":8270,"zhanĠkaiĠ":8271,"biĠjiaoĠ":8272,"guiĠhuaĠ":8273,"juĠyuĠ":8274,"zhanĠdouĠ":8275,"ĠĠĠxiĠ":8276,"ĠzaiĠzhongĠ":8277,"diĠyiĠgeĠ":8278,"nvĠerĠ":8279,"jinĠgongĠ":8280,"qiaoĠzhiĠ":8281,"ĠxiĠwangĠ":8282,"biaoĠzhun":8283,"rongĠyuĠ":8284,"ĠliĠziĠ":8285,"naoĠ":8286,"meiĠpingĠfangĠgongĠliĠ":8287,"jiuĠshiĠzhenĠ":8288,"ĠbuĠhuiĠ":8289,"dongĠliĠ":8290,"dongĠxiĠ":8291,"ĠfaĠguoĠ":8292,"geĠdiĠ":8293,"ĠdeĠshiĠjianĠ":8294,"ĠnvĠ":8295,"youĠzhengĠ":8296,"ĠchengĠquĠ":8297,"kenĠ":8298,"ĠrenĠzaiĠ":8299,"daĠxingĠ":8300,"xiĠbuĠ":8301,"fenĠleiĠ":8302,"maĠlai":8303,"ĠyuĠweiĠ":8304,"douĠyouĠ":8305,"ruĠxiaĠ":8306,"geĠshouĠ":8307,"laĠdeĠ":8308,"laĠkeĠ":8309,"taiĠbeiĠ":8310,"nongĠyeĠ":8311,"ĠkongĠ":8312,"quĠdaiĠ":8313,"daĠliangĠ":8314,"xianĠdeĠyiĠgeĠ":8315,"miĠdeĠ":8316,"shangĠwuĠ":8317,"ĠerĠbeiĠ":8318,"yuĠshiĠdeĠ":8319,"ĠyiĠyouĠ":8320,"ĠzhongĠxin":8321,"zongĠliĠ":8322,"ĠciĠhouĠ":8323,"ĠyouĠyiĠgeĠ":8324,"cuiĠ":8325,"ĠmanĠ":8326,"zeĠrenĠ":8327,"ĠĠĠfuĠ":8328,"ĠĠĠzheĠ":8329,"minĠzhongĠ":8330,"xiaoĠxiĠ":8331,"renĠheĠ":8332,"miĠshuĠ":8333,"lianĠxuĠ":8334,"rengĠran":8335,"reĠdai":8336,"xiangĠduiĠ":8337,"zuiĠhouĠyiĠ":8338,"zhengĠgeĠ":8339,"jieĠrang":8340,"wuĠyiĠ":8341,"wangĠguoĠ":8342,"ĠS":8343,"tieĠdaoĠ":8344,"cheĠliangĠ":8345,"ciĠjiĠ":8346,"renĠkouĠshuĠliangĠweiĠrenĠ":8347,"fuĠrenĠ":8348,"jueĠdeĠ":8349,"henĠduoĠ":8350,"gaoĠsu":8351,"waiĠjiaoĠ":8352,"jianĠyouĠ":8353,"zhenĠshiĠ":8354,"quanĠdeĠ":8355,"xinĠjiaĠ":8356,"jinĠbiaoĠsaiĠ":8357,"ĠliĠshuĠyuĠ":8358,"tianĠzhuĠjiaoĠ":8359,"yeĠwuĠ":8360,"ĠINSEE":8361,"jiaoĠweiĠ":8362,"ĠyiĠxiaĠ":8363,"chengĠzhenĠ":8364,"ĠnianĠjiĠ":8365,"ĠheiĠ":8366,"ciĠyuĠ":8367,"niaoĠ":8368,"zhanĠlingĠ":8369,"gongĠzhongĠ":8370,"cengĠzaiĠ":8371,"jianĠchaĠ":8372,"jiaĠnaĠdaĠ":8373,"ĠdeĠyuĠ":8374,"quĠxiaoĠ":8375,"ĠranĠhouĠ":8376,"shouĠgeĠ":8377,"nanĠjiĠ":8378,"gaoĠsuĠ":8379,"ĠyiĠyangĠ":8380,"gongĠnengĠ":8381,"luĠshiĠ":8382,"ĠheĠbeiĠ":8383,"shengĠchengĠ":8384,"niĠsiĠ":8385,"ĠdeĠshiĠhouĠ":8386,"Ġbai":8387,"diĠfangĠ":8388,"ĠzhengĠshiĠ":8389,"ĠqiĠta":8390,"ĠdaoĠleĠ":8391,"yuanĠyouĠ":8392,"zuoĠchuĠ":8393,"tiĠjiĠ":8394,"dianĠying":8395,"ĠjieĠzhiĠ":8396,"Ġ8":8397,"dianĠjiĠ":8398,"shengĠzhiĠ":8399,"Ġhu":8400,"heĠweiĠ":8401,"diĠsanĠ":8402,"ĠxingĠchengĠ":8403,"ĠgaiĠshengĠ":8404,"ĠjianĠzhuĠ":8405,"heĠzhiĠ":8406,"duiĠzaiĠ":8407,"yingĠxiang":8408,"juĠjueĠ":8409,"ĠduiĠyuĠ":8410,"leĠjiĠ":8411,"lanĠxiĠ":8412,"ĠerĠzaiĠ":8413,"ĠzongĠmianĠjiĠ":8414,"daĠliĠyaĠ":8415,"qiĠta":8416,"ĠD":8417,"ĠdeĠliĠ":8418,"shuĠzhiĠ":8419,"wangĠzhanĠ":8420,"niĠya":8421,"shouĠweiĠ":8422,"2002ĠnianĠ":8423,"ĠshiĠchangĠ":8424,"ziĠxingĠ":8425,"gongĠyiĠ":8426,"yunĠyingĠ":8427,"Ġrang":8428,"2003ĠnianĠ":8429,"tianĠwenĠ":8430,"moĠxiĠ":8431,"zhengĠquanĠ":8432,"zuoĠyiĠ":8433,"zhenĠdeĠ":8434,"ĠdiĠqiĠ":8435,"huiĠzhiĠ":8436,"ĠerĠqieĠ":8437,"ĠlingĠyiĠ":8438,"ĠrenĠkouĠmiĠduĠmeiĠpingĠfangĠgongĠliĠ":8439,"xiaoĠxueĠ":8440,"muĠshiĠ":8441,"qingĠshiĠ":8442,"chaĠdeĠshuĠjuĠ":8443,"puĠtaoĠ":8444,"youĠzhengĠbianĠmaĠweiĠ":8445,"teĠliĠ":8446,"ĠshiĠzhenĠbianĠmaĠweiĠ":8447,"ĠINSEEĠshiĠzhenĠbianĠmaĠweiĠ":8448,"ĠrenĠkouĠmiĠduĠweiĠmeiĠpingĠfangĠ":8449,"ĠbiaoĠshiĠ":8450,"benĠdeĠ":8451,"ĠxiaĠlingĠshiĠ":8452,"Ġbian":8453,"ĠĠĠbuĠ":8454,"xiĠliĠ":8455,"ĠshuangĠ":8456,"leiĠjiĠ":8457,"xuanĠquĠweiĠ":8458,"wuĠrenĠ":8459,"gaoĠyuĠ":8460,"yuĠshiĠdeĠrenĠkouĠshuĠliangĠweiĠrenĠ":8461,"zhuoĠ":8462,"jieĠjueĠ":8463,"diĠyiĠciĠ":8464,"Ġruo":8465,"luĠyiĠ":8466,"meiĠguoĠrenĠkouĠpuĠchaĠdeĠshuĠjuĠ":8467,"ĠerĠrenĠkouĠmiĠduĠweiĠmeiĠpingĠfangĠ":8468,"ĠdangĠdiĠgongĠyouĠrenĠkouĠ":8469,"xiĠyuĠ":8470,"erĠzaiĠ":8471,"jiangĠshiĠ":8472,"faĠdongĠ":8473,"zhanĠdou":8474,"ĠteĠbie":8475,"ĠweiĠyouĠ":8476,"ĠhuoĠjiuĠshiĠzhenĠ":8477,"yunĠxingĠ":8478,"zhongĠxinĠ":8479,"zhuĠtiĠ":8480,"xinĠliĠ":8481,"ĠE":8482,"ĠhuanĠ":8483,"shengĠjiĠxuanĠquĠweiĠ":8484,"baoĠdeĠ":8485,"Ġ00":8486,"ĠĠĠnianĠ":8487,"mengĠguĠ":8488,"yuanĠziĠ":8489,"ganĠdaoĠ":8490,"jingĠchangĠ":8491,"congĠshiĠ":8492,"shaoĠnianĠ":8493,"Ġ15":8494,"chongĠjianĠ":8495,"fenĠweiĠfaĠguoĠ":8496,"ĠgaiĠshengĠfenĠweiĠfaĠguoĠ":8497,"siĠliĠ":8498,"Ġbo":8499,"ĠnianĠchuĠ":8500,"daĠxue":8501,"yeĠzaiĠ":8502,"ĠnianĠyuĠ":8503,"chengĠliĠyuĠ":8504,"ĠbuĠfen":8505,"shuoĠfaĠ":8506,"zuoĠzhanĠ":8507,"jiaĠzhongĠ":8508,"shengĠrenĠ":8509,"ĠguoĠjiĠ":8510,"yangĠhuaĠ":8511,"mingĠyiĠ":8512,"ĠĠĠheĠ":8513,"lunĠdun":8514,"lianĠheĠguoĠ":8515,"zhengĠmingĠ":8516,"faĠqiĠ":8517,"naĠdeĠ":8518,"gouĠdeĠ":8519,"jinĠyiĠbuĠ":8520,"fangĠqiĠ":8521,"daĠquĠ":8522,"aoĠlinĠpiĠkeĠyunĠdongĠhuiĠ":8523,"huoĠshiĠ":8524,"fanĠhuiĠ":8525,"ziĠweiĠ":8526,"taiĠguoĠ":8527,"xiangĠjiĠ":8528,"suoĠshuĠdeĠshengĠjiĠxuanĠquĠweiĠ":8529,"Ġdeng":8530,"yuanĠliĠ":8531,"2023ĠnianĠ":8532,"gaoĠdengĠ":8533,"mĠ":8534,"ziĠran":8535,"yunĠshuĠ":8536,"jieĠrangĠdeĠshiĠzhenĠ":8537,"20Ġ":8538,"ĠxiĠbeiĠ":8539,"biaoĠweiĠ":8540,"naĠliĠ":8541,"gongĠrenĠ":8542,"huaĠweiĠ":8543,"jianĠchengĠ":8544,"xiĠzaiĠ":8545,"guoĠyouĠ":8546,"Ġhuang":8547,"tiĠxiĠ":8548,"ĠzaoĠ":8549,"xingĠqiĠ":8550,"ziĠyuanĠ":8551,"ĠchuangĠ":8552,"daoĠluĠ":8553,"xiaĠwuĠ":8554,"luoĠfuĠ":8555,"ĠzhongĠgongĠ":8556,"ĠhaĠ":8557,"daoĠrenĠ":8558,"ĠdiĠquĠdeĠ":8559,"xiĠbanĠyaĠ":8560,"beiĠyiĠ":8561,"diaoĠcha":8562,"shengĠshiĠ":8563,"jinĠyiĠ":8564,"niĠkeĠ":8565,"ĠzhiĠchengĠ":8566,"Ġ30":8567,"boĠlanĠ":8568,"ĠĠĠcheĠzhanĠ":8569,"wenĠmingĠ":8570,"Ġ4":8571,"anĠshiĠ":8572,"faĠsheĠ":8573,"fengĠxianĠ":8574,"ĠpeiĠ":8575,"ĠĠĠand":8576,"ĠĠĠchuĠ":8577,"lanĠqiuĠ":8578,"souĠ":8579,"ĠnianĠhouĠ":8580,"Ġkang":8581,"wanĠjiaĠ":8582,"ĠgongĠchengĠ":8583,"chaoĠzhengĠzhiĠrenĠwuĠ":8584,"paiĠdeĠ":8585,"ĠĠĠa":8586,"jianĠjiĠ":8587,"ceĠdeĠ":8588,"ĠdaĠxue":8589,"ĠweiĠshengĠ":8590,"guanĠzhuĠ":8591,"ĠshiĠyiĠweiĠ":8592,"ĠshiĠyiĠmingĠ":8593,"yingĠliĠ":8594,"lvĠshiĠ":8595,"zhongĠhuaĠrenĠminĠgongĠheĠguoĠ":8596,"nanĠshengĠ":8597,"chanĠyeĠ":8598,"beiĠjiĠ":8599,"shouĠshangĠ":8600,"zaĠ":8601,"ziĠheĠ":8602,"jingĠshenĠ":8603,"fuĠqinĠ":8604,"jinĠxingĠleĠ":8605,"mieĠ":8606,"ĠbuĠnengĠ":8607,"tongĠxingĠ":8608,"lieĠweiĠ":8609,"xiangĠdangĠ":8610,"shuĠzhongĠ":8611,"lianĠdeĠ":8612,"qiĠzhongĠyiĠ":8613,"ĠshiĠxianĠ":8614,"paiĠmingĠ":8615,"xuĠyao":8616,"ĠĠĠtaĠ":8617,"erĠheĠ":8618,"ĠyueĠzaiĠ":8619,"foĠjiaoĠ":8620,"liuĠyuĠ":8621,"yanĠjiuĠsuoĠ":8622,"zhanĠhouĠ":8623,"Ġbi":8624,"Ġben":8625,"ĠxiĠnanĠ":8626,"tĠ":8627,"ĠjiĠduĠ":8628,"luoĠma":8629,"daĠweiĠ":8630,"jieĠyiĠ":8631,"yanĠyiĠ":8632,"keĠweiĠ":8633,"saiĠerĠ":8634,"xiaoĠzuĠ":8635,"baĠnianĠ":8636,"jiaĠtingĠ":8637,"UĠ":8638,"ĠlongĠ":8639,"ĠheĠbingĠ":8640,"genĠju":8641,"ĠzhiĠxianĠ":8642,"zhengĠjuĠ":8643,"shenĠme":8644,"ĠouĠ":8645,"qiuĠdeĠ":8646,"ĠĠĠbeiĠ":8647,"xuanĠrenĠ":8648,"suĠdeĠ":8649,"ĠcanĠ":8650,"shuĠliangĠ":8651,"Ġlin":8652,"wangĠshiĠ":8653,"ĠdeĠzhuĠyaoĠ":8654,"xiĠyangĠ":8655,"laiĠyuanĠ":8656,"ĠnianĠduĠ":8657,"shengĠyiĠ":8658,"rengĠranĠ":8659,"taoĠlunĠ":8660,"ĠP":8661,"mingĠdanĠ":8662,"Ġ10ĠyueĠ":8663,"ruiĠshiĠ":8664,"ĠtuoĠ":8665,"zaoĠnianĠ":8666,"wenĠjianĠ":8667,"shuaiĠ":8668,"suĠgeĠ":8669,"lvĠkeĠ":8670,"zhengĠdangĠ":8671,"yuĠĠĠ":8672,"raoĠ":8673,"ĠjiĠsiĠ":8674,"ĠzongĠrenĠkouĠ":8675,"xiaĠdeĠyiĠgeĠ":8676,"fanĠdeĠ":8677,"ziĠdongĠ":8678,"ĠwuĠkeĠ":8679,"ĠqueĠ":8680,"jiaoĠtangĠ":8681,"biaoĠmingĠ":8682,"diĠsiĠ":8683,"ĠfenĠzhongĠ":8684,"luĠyuĠ":8685,"Ġquan":8686,"ĠzhiĠmingĠ":8687,"ĠbeiĠjingĠ":8688,"mingĠshiĠ":8689,"xuĠdeĠ":8690,"xingĠyiĠ":8691,"keĠliĠsiĠ":8692,"ĠĠĠxianĠ":8693,"pingĠlunĠ":8694,"ĠciĠshiĠ":8695,"ĠshiĠjianĠyuĠ":8696,"eĠluoĠ":8697,"zhuĠchiĠ":8698,"0Ġ":8699,"pingĠtaiĠ":8700,"ĠjiĠhuĠ":8701,"nanĠjingĠ":8702,"Ġ9":8703,"pengĠyouĠ":8704,"yanĠgeĠ":8705,"ĠtaĠmenĠdeĠ":8706,"yinĠhang":8707,"ĠliĠrenĠ":8708,"ĠdeĠdiĠfangĠ":8709,"ĠguoĠwangĠ":8710,"daĠyueĠ":8711,"gongĠzhongĠyangĠ":8712,"keĠzaiĠ":8713,"zuoĠshiĠ":8714,"shenĠweiĠ":8715,"fuĠzeĠguanĠxiaĠ":8716,"lianĠbang":8717,"yuanĠzaiĠ":8718,"zhengĠbuĠ":8719,"ĠmiaoĠ":8720,"biaoĠzhiĠ":8721,"ĠerĠqie":8722,"qianĠzhiĠ":8723,"tuiĠyiĠ":8724,"xuanĠquĠ":8725,"cengĠjingĠ":8726,"jingĠyouĠ":8727,"Ġ6":8728,"shuĠyiĠ":8729,"jiaoĠbuĠ":8730,"Ġ16":8731,"qianĠshiĠ":8732,"huaĠyuĠ":8733,"haoĠweiĠ":8734,"chongĠtuĠ":8735,"ĠyouĠweiĠ":8736,"keĠshiĠ":8737,"moĠxingĠ":8738,"baoĠchiĠ":8739,"jianĠrenĠ":8740,"ziĠyiĠ":8741,"zhouĠweiĠ":8742,"zhangĠdaĠ":8743,"xingĠbuĠ":8744,"xuanĠchuanĠ":8745,"ĠĠĠ2021":8746,"ĠĠĠsuiĠ":8747,"jingĠweiĠ":8748,"ĠĠĠin":8749,"gongĠxianĠ":8750,"duiĠyiĠ":8751,"ĠyouĠliĠ":8752,"ĠjinĠruĠ":8753,"xiaĠshiĠ":8754,"Ġou":8755,"ĠtanĠ":8756,"zhongĠyangĠ":8757,"Ġ17":8758,"shangĠyingĠ":8759,"ĠjiĠbeiĠ":8760,"xianĠfaĠ":8761,"daoĠheĠ":8762,"ruĠheĠ":8763,"saiĠzhongĠ":8764,"Ġgao":8765,"biaoĠdaĠ":8766,"taiĠpingĠyangĠ":8767,"keĠsiĠ":8768,"fengĠbaoĠ":8769,"guangĠzhouĠ":8770,"daoĠyanĠ":8771,"xianĠjiĠ":8772,"xieĠdeĠ":8773,"shengĠhuo":8774,"dangĠxuanĠ":8775,"ĠĠĠ2020":8776,"wuĠweiĠ":8777,"dingĠyuĠ":8778,"kuaiĠsuĠ":8779,"xiaoĠguoĠ":8780,"chaĠyiĠ":8781,"yanĠzhiĠ":8782,"jiaoĠquĠ":8783,"ĠcengĠrenĠ":8784,"liangĠzhongĠ":8785,"pingĠmianĠ":8786,"rouĠ":8787,"anĠjianĠ":8788,"ĠerĠrenĠkouĠmiĠduĠweiĠmeiĠpingĠfangĠqianĠmiĠ":8789,"luĠsiĠ":8790,"leiĠxingĠ":8791,"tuanĠduiĠ":8792,"ĠqinĠ":8793,"yuanĠzhangĠ":8794,"chengĠxianĠ":8795,"neiĠrong":8796,"shenĠqingĠ":8797,"jiuĠnianĠ":8798,"RĠ":8799,"Ġ5":8800,"Ġdai":8801,"biĠyaĠ":8802,"Ġzheng":8803,"ĠliĠdaĠ":8804,"wuĠyuĠ":8805,"ĠzhiĠfuĠ":8806,"qiuĠchangĠ":8807,"puĠtongĠ":8808,"ĠyiĠxiĠ":8809,"jianĠduiĠ":8810,"xiaoĠshouĠ":8811,"Ġhan":8812,"xingĠrenĠ":8813,"xianĠheĠ":8814,"queĠzhenĠ":8815,"neĠ":8816,"ĠyiĠshangĠ":8817,"hengĠxingĠ":8818,"fenĠbieĠ":8819,"ruĠciĠ":8820,"xiĠheĠ":8821,"tiaoĠzhanĠ":8822,"duiĠshouĠ":8823,"ĠzhiĠzaoĠ":8824,"baoĠweiĠ":8825,"ĠĠĠgeĠ":8826,"ĠyinĠduĠ":8827,"chengĠyuĠ":8828,"ĠyueĠyuĠ":8829,"laiĠshuoĠ":8830,"ĠzhongĠhuaĠ":8831,"ĠqiĠyuĠ":8832,"riĠqiĠ":8833,"Ġxu":8834,"yaoĠqingĠ":8835,"ĠshiĠdiĠ":8836,"xueĠshuĠ":8837,"heĠyuĠ":8838,"houĠyouĠ":8839,"ĠK":8840,"huiĠjiĠ":8841,"huoĠdong":8842,"ĠĠĠandĠĠĠ":8843,"gongĠluĠ":8844,"caiĠyong":8845,"nuĠliĠ":8846,"yingĠgeĠlanĠ":8847,"yuanĠsuĠ":8848,"wangĠluĠ":8849,"anĠnaĠ":8850,"niĠdeĠ":8851,"nengĠgou":8852,"bianĠjiĠ":8853,"ĠxiangĠgang":8854,"ĠmaiĠ":8855,"Ġ8ĠyueĠ":8856,"fanĠyiĠ":8857,"zhengĠzhuangĠ":8858,"ĠshiĠyiĠge":8859,"fuĠqin":8860,"ĠliĠlunĠ":8861,"ziĠzhiĠquĠ":8862,"Ġpei":8863,"weiĠĠĠ":8864,"jieĠfangĠjunĠ":8865,"ĠxiaoĠshiĠ":8866,"xiaoĠzhangĠ":8867,"teĠbieĠ":8868,"lunĠdeĠ":8869,"ĠyiĠliĠ":8870,"2024ĠnianĠ":8871,"taĠshiĠ":8872,"haiĠziĠ":8873,"lanĠkeĠ":8874,"xiangĠyuĠ":8875,"chuangĠliĠ":8876,"shuĠziĠ":8877,"gengĠmingĠweiĠ":8878,"dianĠtaiĠ":8879,"neiĠgeĠ":8880,"tingĠdeĠ":8881,"duoĠzhongĠ":8882,"ĠzaiĠyiĠ":8883,"sheĠyuĠ":8884,"1999ĠnianĠ":8885,"zongĠduĠ":8886,"MĠ":8887,"quĠheĠ":8888,"jiaĠrenĠ":8889,"xinĠshiĠ":8890,"xianĠxiangĠ":8891,"minĠdeĠ":8892,"ĠjieĠguoĠ":8893,"ĠĠĠ2019":8894,"jiangĠxiĠ":8895,"ĠtongĠchangĠ":8896,"reĠdaiĠ":8897,"sunĠshiĠ":8898,"mingĠyuĠ":8899,"banĠgongĠshiĠ":8900,"ruĠguoĠ":8901,"boĠdeĠ":8902,"laĠfuĠ":8903,"qiĠyeĠ":8904,"shouĠruĠ":8905,"jiangĠxiangĠ":8906,"jieĠweiĠ":8907,"pangĠ":8908,"ĠshiĠyou":8909,"jiaĠgeĠ":8910,"ĠĠĠwuĠ":8911,"saĠkeĠ":8912,"chuĠshenĠ":8913,"kaĠsiĠ":8914,"jieĠjinĠ":8915,"juĠxingĠdeĠ":8916,"ĠĠĠxiaĠ":8917,"jingĠchaĠ":8918,"jieĠyuĠ":8919,"zhanĠjiĠ":8920,"linĠdeĠ":8921,"ĠlaoĠ":8922,"daoĠdaĠ":8923,"ĠĠĠ2018":8924,"ĠdaĠquĠ":8925,"xuanĠze":8926,"Ġzhuan":8927,"haiĠdeĠ":8928,"ĠliĠheĠ":8929,"ĠT":8930,"wenĠzhangĠ":8931,"shaoĠshuĠ":8932,"luĠdiĠmianĠjiĠweiĠ":8933,"ĠsuoĠyouĠ":8934,"kanĠdaoĠ":8935,"zaiĠzhiĠ":8936,"houĠqiĠ":8937,"shuiĠyuĠmianĠjiĠweiĠ":8938,"ĠxiongĠ":8939,"huĠshiĠ":8940,"jiangĠdiĠ":8941,"Ġ19":8942,"touĠxiangĠ":8943,"jieĠquanĠguoĠ":8944,"ĠfaĠxianĠ":8945,"ĠzhiĠshiĠ":8946,"1998ĠnianĠ":8947,"wenĠyiĠ":8948,"lunĠdunĠ":8949,"kangĠyiĠ":8950,"ĠjiĠbenĠ":8951,"ĠdeĠdiĠquĠ":8952,"guanĠdianĠ":8953,"xingĠjianĠ":8954,"huiĠshangĠ":8955,"wenĠziĠ":8956,"qiĠyouĠ":8957,"Ġ7":8958,"zhuĠyanĠ":8959,"ĠxianĠzaiĠ":8960,"ĠcheĠzhanĠ":8961,"xiĠzhiĠ":8962,"ampĠ":8963,"FĠ":8964,"chuĠshengĠ":8965,"haiĠanĠ":8966,"ĠjiĠzheĠ":8967,"zhangĠshiĠ":8968,"ĠzheĠxie":8969,"ĠG":8970,"junĠdiĠ":8971,"ĠjiĠtuan":8972,"mingĠdiĠ":8973,"sangĠ":8974,"xiĠbeiĠ":8975,"tiĠmingĠ":8976,"ĠhouĠlai":8977,"rongĠyiĠ":8978,"ĠampĠ":8979,"ĠĠĠkeĠ":8980,"zhenĠduiĠ":8981,"duĠyuĠ":8982,"cuoĠshiĠ":8983,"zhangĠkeĠdaĠ":8984,"Ġshou":8985,"fangĠzaiĠ":8986,"tianĠjinĠ":8987,"tiaoĠzhengĠ":8988,"poĠhuaiĠ":8989,"xinĠrenĠ":8990,"ĠdangĠzhongĠluĠdiĠmianĠjiĠweiĠ":8991,"wenĠdeĠ":8992,"ĠerĠshuiĠyuĠmianĠjiĠweiĠ":8993,"ĠjiĠshiĠ":8994,"ĠĠĠ2022":8995,"xiĠyiĠ":8996,"jianĠzhongĠ":8997,"ĠbeiĠerĠ":8998,"ĠjuĠliĠ":8999,"xingĠxingĠ":9000,"ĠdeĠyiĠzuoĠ":9001,"chuĠfaĠ":9002,"zaoĠyuĠ":9003,"xiĠzhongĠ":9004,"chiĠdeĠ":9005,"tengĠ":9006,"jingĠdianĠ":9007,"baĠxiĠ":9008,"guangĠxiĠ":9009,"luoĠdiĠ":9010,"ruĠkouĠ":9011,"ĠTheĠĠĠ":9012,"gouĠchengĠ":9013,"ĠyiĠjianĠ":9014,"bianĠjieĠ":9015,"ĠyouĠbuĠ":9016,"haoĠxianĠ":9017,"daĠzhongĠ":9018,"ĠshiĠliĠ":9019,"mingĠzhiĠ":9020,"fuĠjiĠ":9021,"zhongĠyaoĠ":9022,"ĠzaiĠzheĠ":9023,"ĠĠĠxingĠzhengĠquĠhuaĠ":9024,"shanĠjiĠ":9025,"Ġao":9026,"ĠjingĠguoĠ":9027,"cunĠzhuangĠ":9028,"ĠdeĠzhiĠchiĠ":9029,"haĠerĠ":9030,"yueĠtaiĠ":9031,"ĠyuĠciĠ":9032,"touĠruĠ":9033,"ĠshiĠquĠ":9034,"duiĠwuĠ":9035,"daĠzhiĠ":9036,"xianĠyouĠ":9037,"ĠnianĠbeiĠ":9038,"kengĠ":9039,"ĠyueĠyouĠ":9040,"ĠweiĠlianĠ":9041,"jueĠding":9042,"aoĠmenĠ":9043,"waiĠguoĠ":9044,"ĠcongĠerĠ":9045,"ĠsaĠ":9046,"ĠzhongĠyaoĠ":9047,"Ġ9ĠyueĠ":9048,"dengĠluĠ":9049,"ĠshiĠyong":9050,"yeĠbuĠ":9051,"changĠyiĠ":9052,"gongĠsi":9053,"ĠformulaĠ":9054,"ĠyueĠweiĠ":9055,"jinĠru":9056,"touĠpiaoĠ":9057,"ĠĠĠ2017":9058,"taiĠyangĠ":9059,"nuoĠweiĠ":9060,"ĠshiĠzhongĠguoĠ":9061,"yuanĠhuiĠ":9062,"biĠyeĠyuĠ":9063,"zhangĠyuĠ":9064,"daoĠjiĠ":9065,"ĠzhiĠxiaĠ":9066,"siĠchuanĠ":9067,"fangĠweiĠ":9068,"yinĠfaĠ":9069,"dĠ":9070,"jiaĠyuĠ":9071,"cunĠdeĠ":9072,"gongĠyuĠ":9073,"tuiĠdongĠ":9074,"juĠzhuĠ":9075,"queĠdingĠ":9076,"zhanĠdiĠ":9077,"meiĠnianĠ":9078,"ĠI":9079,"haiĠdaoĠ":9080,"qianĠshuĠ":9081,"ĠyiĠdaĠliĠ":9082,"leĠsiĠ":9083,"ziĠranĠ":9084,"ganĠran":9085,"ĠtiĠzhangĠkeĠdaĠ":9086,"hunĠheĠ":9087,"ĠzaiĠbeiĠ":9088,"ziĠliĠ":9089,"nanĠbeiĠ":9090,"Ġ7ĠyueĠ":9091,"junĠyiĠ":9092,"tuĠerĠqiĠ":9093,"shiĠĠĠ":9094,"keĠyuĠ":9095,"piĠzhunĠ":9096,"ĠweiĠfuĠqiĠyuĠ":9097,"fenĠdeĠ":9098,"hengĠliĠ":9099,"fangĠwenĠ":9100,"ĠrenĠmenĠ":9101,"shuĠheĠ":9102,"ĠjiĠchengĠ":9103,"tuĠdeĠ":9104,"zhuangĠjiaĠ":9105,"zhanĠzhongĠ":9106,"ĠzhongĠdeĠ":9107,"erĠrenĠ":9108,"maĠkeĠ":9109,"ĠnianĠheĠ":9110,"ĠĠĠ2016":9111,"tiĠgaoĠ":9112,"ĠtaĠyiĠ":9113,"qiĠziĠ":9114,"Ġyong":9115,"ĠbiaoĠ":9116,"CĠ":9117,"moĠerĠ":9118,"xiaoĠliĠ":9119,"jianĠheĠ":9120,"chuĠjiĠ":9121,"ziĠjinĠ":9122,"erĠyuĠ":9123,"wenĠdingĠ":9124,"ĠxiuĠ":9125,"Ġ12ĠyueĠ":9126,"jieĠshuĠhouĠ":9127,"ciĠweiĠ":9128,"baoĠliuĠ":9129,"xinĠyiĠ":9130,"ĠliĠya":9131,"angĠ":9132,"chengĠzhiĠ":9133,"Ġfeng":9134,"Ġhong":9135,"zhongĠliĠ":9136,"chengĠzuoĠ":9137,"shangĠrenĠ":9138,"cengĠyuĠ":9139,"benĠtuĠ":9140,"yongĠhuĠ":9141,"houĠxuanĠrenĠ":9142,"yingĠpianĠ":9143,"ĠwoĠmenĠ":9144,"Ġe":9145,"Ġ11ĠyueĠ":9146,"ĠdeĠyiĠzhiĠ":9147,"chuĠzhanĠ":9148,"Ġpa":9149,"jianĠzaiĠ":9150,"ĠdiĠqu":9151,"ĠtaĠyeĠ":9152,"meiĠgeĠ":9153,"ĠdeĠshiĠquĠweiĠ":9154,"diĠjiĠ":9155,"xunĠsuĠ":9156,"ĠĠĠdeĠshiĠ":9157,"biĠsaiĠzhongĠ":9158,"ĠjiaĠshangĠ":9159,"ĠbingĠyiĠ":9160,"ĠhaiĠyouĠ":9161,"18Ġ":9162,"xueĠhuiĠ":9163,"saĠerĠ":9164,"jianĠzaoĠ":9165,"xiaĠlaiĠ":9166,"guangĠfanĠ":9167,"Ġtw":9168,"dangĠshiĠdeĠ":9169,"ĠĠĠA":9170,"ĠnianĠyouĠ":9171,"shuiĠpingĠ":9172,"shanĠdaĠ":9173,"hansĠ":9174,"heĠzuoĠ":9175,"tuĠzhongĠ":9176,"lingĠwaiĠ":9177,"ĠzhongĠguoĠgongĠchanĠdangĠ":9178,"ĠtingĠ":9179,"ĠhansĠ":9180,"boĠerĠ":9181,"jianĠshaoĠ":9182,"xuĠqiuĠ":9183,"ĠtwĠ":9184,"Ġ21Ġ":9185,"ĠrenĠleiĠ":9186,"daĠfuĠ":9187,"paiĠchuĠ":9188,"xinĠhaoĠ":9189,"nanĠyiĠ":9190,"teĠshuĠ":9191,"Ġ2011":9192,"ĠtaoĠ":9193,"zhuĠbuĠ":9194,"lvĠweiĠ":9195,"ĠĠĠerĠ":9196,"zuiĠchuĠ":9197,"Ġan":9198,"shanĠdeĠ":9199,"buĠduiĠ":9200,"ĠĠĠqingĠ":9201,"ĠriĠyuĠ":9202,"xuĠshiĠ":9203,"jieĠrangĠ":9204,"zhuĠmingĠdeĠ":9205,"xiaoĠshuo":9206,"banĠgongĠ":9207,"keĠheĠ":9208,"zhuangĠzhiĠ":9209,"jiangĠsuĠ":9210,"ĠĠĠ2023":9211,"siĠkeĠ":9212,"pinĠpaiĠ":9213,"jinĠshuĠ":9214,"ĠchengĠyuanĠ":9215,"ĠyuĠrenĠ":9216,"mouĠxieĠ":9217,"jieĠyouĠ":9218,"ĠyiĠjiaĠ":9219,"jieĠkeĠ":9220,"Ġna":9221,"sheĠhuiĠzhuĠyiĠ":9222,"aoĠdaĠliĠyaĠ":9223,"ĠjiĠguanĠ":9224,"ĠO":9225,"faĠchuĠ":9226,"kongĠzhongĠ":9227,"ĠxiĠbaoĠ":9228,"ĠĠĠ2014":9229,"waĠerĠ":9230,"ziĠxunĠ":9231,"Ġ2010ĠnianĠ":9232,"luĠzhiĠ":9233,"jingĠyanĠ":9234,"Ġwang":9235,"ĠzaiĠdaĠ":9236,"jiaĠzuĠ":9237,"ĠjingĠjiĠ":9238,"1997ĠnianĠ":9239,"ĠeĠluoĠsiĠ":9240,"beiĠzhiĠ":9241,"dangĠzhongĠ":9242,"changĠheĠ":9243,"suoĠdeĠ":9244,"yingĠwenĠ":9245,"shaĠsiĠ":9246,"ĠzhiĠnengĠ":9247,"zhuĠyouĠ":9248,"suiĠdaoĠ":9249,"chuĠshengĠyuĠ":9250,"ĠgongĠtongĠ":9251,"ĠzaiĠzhongĠguoĠ":9252,"ĠfaĠxingĠ":9253,"minĠjianĠ":9254,"ĠzhuangĠ":9255,"ĠchuĠyuĠ":9256,"jueĠse":9257,"ĠĠĠyuĠshiĠdeĠrenĠkouĠshuĠliangĠweiĠrenĠ":9258,"ĠĠĠsuoĠshuĠdeĠshengĠjiĠxuanĠquĠweiĠ":9259,"ĠjiĠrenĠ":9260,"ĠguoĠchengĠ":9261,"ĠjieĠmuĠ":9262,"ĠĠĠdeĠyouĠzhengĠbianĠmaĠweiĠ":9263,"ĠĠĠyuĠjieĠrangĠdeĠshiĠzhenĠ":9264,"ĠĠĠdeĠshiĠquĠweiĠ":9265,"ĠĠĠ2015":9266,"ĠĠĠyuanĠ":9267,"Ġ2019":9268,"geĠyouĠ":9269,"ĠheĠxiĠ":9270,"tiĠshiĠ":9271,"zengĠzhangĠ":9272,"xiangĠsiĠ":9273,"gengĠjiaĠ":9274,"keĠchengĠ":9275,"ĠbingĠjiangĠ":9276,"Ġ2009ĠnianĠ":9277,"nanĠdeĠ":9278,"cheĠzhan":9279,"junĠjiĠ":9280,"kongĠjunĠ":9281,"ĠdiĠdaĠ":9282,"guĠwenĠ":9283,"1996ĠnianĠ":9284,"ĠheĠerĠ":9285,"huiĠyingĠ":9286,"teĠerĠ":9287,"jiangĠdeĠ":9288,"Ġhk":9289,"yinĠsuĠ":9290,"ĠshengĠhuo":9291,"zhouĠfuĠ":9292,"lingĠtuĠ":9293,"guangĠgaoĠ":9294,"ĠĠĠ2013":9295,"jiaoĠlianĠ":9296,"chaoĠshiĠ":9297,"nĠ":9298,"foĠ":9299,"heĠyouĠ":9300,"geĠgeĠ":9301,"feiĠjianĠzhiĠ":9302,"tiĠyiĠ":9303,"daĠchengĠ":9304,"jieĠgou":9305,"tiĠshengĠ":9306,"ĠN":9307,"ciĠyiĠ":9308,"ĠbuĠtongĠdeĠ":9309,"daĠyuĠ":9310,"guanĠbiĠ":9311,"ĠĠĠxinĠ":9312,"huaĠzhongĠ":9313,"Ġ6ĠyueĠ":9314,"erĠyiĠ":9315,"huaĠheĠ":9316,"12Ġ":9317,"ĠxuanĠbuĠ":9318,"ĠhkĠ":9319,"fangĠbuĠ":9320,"ĠkeĠxueĠ":9321,"ĠdeĠguoĠjiaĠ":9322,"zhuangĠshiĠ":9323,"langĠdeĠ":9324,"jiaĠru":9325,"gongĠminĠ":9326,"ĠerĠgaiĠ":9327,"baoĠliĠ":9328,"xingĠtaiĠ":9329,"junĠgongĠ":9330,"geĠyiĠ":9331,"hanĠshuĠ":9332,"zongĠbuĠ":9333,"ĠshiĠmeiĠguoĠ":9334,"minĠzhuĠdangĠ":9335,"shanĠmai":9336,"zhengĠfuĠdeĠ":9337,"ĠĠĠS":9338,"ĠbingĠyouĠ":9339,"ĠlaiĠziĠ":9340,"dangĠyuĠ":9341,"ruiĠdianĠ":9342,"tunĠ":9343,"leĠshiĠ":9344,"ĠjiĠnianĠ":9345,"diĠguoĠ":9346,"neiĠluĠ":9347,"quanĠmianĠ":9348,"luoĠkeĠ":9349,"ĠyueĠtaiĠ":9350,"weiĠyiĠgeĠ":9351,"zhuanĠjiaĠ":9352,"ĠxuĠduoĠ":9353,"lingĠdeĠ":9354,"huiĠbeiĠ":9355,"zheĠxie":9356,"shanĠshiĠ":9357,"ĠyouĠqiĠshiĠ":9358,"1992ĠnianĠ":9359,"woĠmenĠ":9360,"jiuĠdianĠ":9361,"ĠmaoĠ":9362,"ĠxiĠjieĠ":9363,"ĠwanĠrenĠ":9364,"wuĠkeĠlan":9365,"chengĠxuĠ":9366,"ĠqiĠzhongĠyiĠ":9367,"anĠquan":9368,"Ġreng":9369,"ĠdanĠtaĠ":9370,"tuĠshuĠguanĠ":9371,"ĠchaĠ":9372,"Ġ5ĠyueĠ":9373,"feiĠjianĠzhiĠdiĠquĠ":9374,"ĠĠĠxiangĠ":9375,"zuĠchengĠdeĠ":9376,"baĠweiĠ":9377,"faĠlv":9378,"duiĠshiĠ":9379,"guoĠweiĠ":9380,"ĠyouĠxiaoĠ":9381,"siĠxiangĠ":9382,"LĠ":9383,"anĠpaiĠ":9384,"juĠbuĠ":9385,"tianĠdeĠ":9386,"Ġqian":9387,"ĠlieĠ":9388,"dianĠnao":9389,"changĠyuĠ":9390,"tanĠkeĠ":9391,"tongĠyuĠ":9392,"maĠerĠ":9393,"ĠB":9394,"Ġ2018":9395,"geĠzhiĠ":9396,"jiuĠzhiĠ":9397,"ĠdiĠxiaĠ":9398,"seĠlieĠ":9399,"yanĠjiuĠyuanĠ":9400,"moĠxiĠgeĠ":9401,"ĠĠĠto":9402,"ĠzhengĠfuĠ":9403,"jinĠpaiĠ":9404,"shuĠxueĠ":9405,"xiaĠjiangĠ":9406,"ĠrangĠ":9407,"zhuĠmingĠ":9408,"shouĠfuĠ":9409,"huanĠyingĠ":9410,"ĠshiĠjieĠbeiĠ":9411,"ĠĠĠli":9412,"zhuanĠyiĠ":9413,"ĠjiĠchuĠ":9414,"jiuĠdeĠ":9415,"ĠheĠdiĠ":9416,"sanĠjiaoĠ":9417,"ĠĠĠjiaĠzuĠ":9418,"mingĠmingĠweiĠ":9419,"dengĠweiĠ":9420,"shengĠzhangĠ":9421,"laiĠdaoĠ":9422,"jingĠzhengĠ":9423,"beiĠrenĠweiĠshiĠ":9424,"xianĠchangĠ":9425,"xiuĠgaiĠ":9426,"huiĠzhangĠ":9427,"weiĠzhiĠ":9428,"shuoĠmingĠ":9429,"ĠweiĠyuanĠhui":9430,"daiĠliĠ":9431,"queĠfaĠ":9432,"bingĠshiĠ":9433,"ziĠmuĠ":9434,"huaĠrenĠ":9435,"yongĠlaiĠ":9436,"muĠqinĠ":9437,"xunĠhuiĠ":9438,"ĠdanĠyouĠyuĠ":9439,"ĠsheĠjiĠ":9440,"mingĠlingĠ":9441,"daiĠyouĠ":9442,"lengĠ":9443,"ĠĠĠzhĠ":9444,"wenĠshiĠ":9445,"ĠminĠguoĠ":9446,"yeĠbeiĠ":9447,"ĠyinĠyueĠ":9448,"maoĠqiuĠ":9449,"ĠdeĠdiĠerĠ":9450,"ĠliĠru":9451,"ĠtaĠbeiĠ":9452,"Ġ4ĠyueĠ":9453,"zhuĠjiĠ":9454,"liaoĠjieĠ":9455,"ĠkangĠ":9456,"zheĠliĠ":9457,"taĠyuĠ":9458,"duiĠqiĠ":9459,"juĠzhangĠ":9460,"feiĠlvĠ":9461,"ĠzhongĠguoĠrenĠminĠ":9462,"yinĠdeĠ":9463,"chengĠweiĠleĠ":9464,"ĠĠĠjieĠzhiĠ":9465,"ruanĠ":9466,"caiĠquĠ":9467,"quanĠshiĠ":9468,"shouĠzhongĠ":9469,"junĠyouĠ":9470,"suiĠjiĠ":9471,"1995ĠnianĠ":9472,"yingĠyunĠ":9473,"shenĠtiĠ":9474,"chanĠpin":9475,"xuĠkeĠ":9476,"beiĠerĠ":9477,"cheĠxiaoĠ":9478,"changĠpianĠ":9479,"ĠshangĠhaiĠ":9480,"canĠjiaĠleĠ":9481,"faĠanĠ":9482,"tieĠlu":9483,"Ġ2016":9484,"ĠcaoĠ":9485,"ĠyiĠjuĠ":9486,"ĠerĠfuĠ":9487,"boĠfangĠ":9488,"ĠyiĠnianĠ":9489,"ĠkuanĠ":9490,"1994ĠnianĠ":9491,"ĠyiĠzaiĠ":9492,"11Ġ":9493,"changĠdiĠ":9494,"ĠdaĠbuĠfenĠ":9495,"maĠsiĠ":9496,"banĠfaĠ":9497,"tiĠzhongĠ":9498,"cheĠdeĠ":9499,"ĠrenĠgongĠ":9500,"ĠliĠbuĠ":9501,"ĠxingĠdongĠ":9502,"taiĠjiĠ":9503,"faĠdianĠ":9504,"shangĠhai":9505,"baiĠseĠ":9506,"juĠheĠ":9507,"ĠyouĠyouĠ":9508,"ĠqiĠlaiĠ":9509,"ĠĠĠzhongĠguoĠ":9510,"ziĠzhuĠ":9511,"shenĠjingĠ":9512,"ĠshiĠyiĠnianĠ":9513,"guaĠ":9514,"ĠdiĠtieĠ":9515,"huaĠyuanĠ":9516,"wangĠqiuĠ":9517,"zhanĠtaiĠ":9518,"ĠliĠshuĠ":9519,"chuĠxiĠ":9520,"ĠerĠbuĠ":9521,"ĠfuĠjinĠ":9522,"fuĠyouĠ":9523,"dianĠqiĠ":9524,"suĠweiĠ":9525,"jieĠhunĠ":9526,"xueĠxiao":9527,"ĠrenĠminĠzhengĠfuĠ":9528,"Ġka":9529,"huaĠshengĠ":9530,"ĠdaĠliangĠ":9531,"changĠzaiĠ":9532,"wanĠshangĠ":9533,"2020ĠnianĠmeiĠguoĠrenĠkouĠpuĠchaĠdeĠshuĠjuĠ":9534,"guĠdeĠ":9535,"maĠdeĠ":9536,"ĠzhiĠdiĠ":9537,"lingĠxianĠ":9538,"chanĠshengĠdeĠ":9539,"yanĠchangĠhuiĠ":9540,"leĠtaĠ":9541,"xingĠzhongĠ":9542,"lingĠbuĠ":9543,"geĠleiĠ":9544,"tongĠcheĠ":9545,"zuĠjianĠ":9546,"ĠweiĠrenĠ":9547,"yaoĠwuĠ":9548,"ĠdaiĠbiaoĠ":9549,"xueĠheĠ":9550,"queĠrenĠ":9551,"renĠyouĠ":9552,"qinĠshiĠ":9553,"ĠweiĠweiĠ":9554,"ĠzaiĠxiĠ":9555,"xianĠhouĠ":9556,"XĠ":9557,"ĠĠĠ2025":9558,"chaoĠdeĠ":9559,"yinĠdu":9560,"qiuĠhuiĠ":9561,"yunĠxuĠ":9562,"maĠlaiĠxiĠyaĠ":9563,"ĠyingĠyuĠ":9564,"ĠĠĠ2024":9565,"chuĠxianĠzaiĠ":9566,"zeĠyouĠ":9567,"Ġlao":9568,"kuoĠdaĠ":9569,"xiangĠxiĠ":9570,"huoĠjianĠ":9571,"lieĠbiaoĠ":9572,"HĠ":9573,"buĠyouĠ":9574,"ruĠxuanĠ":9575,"Ġlu":9576,"liangĠshiĠ":9577,"ĠĠĠqianĠ":9578,"wuĠheĠ":9579,"ĠzaiĠmeiĠguoĠ":9580,"ĠjiĠhuiĠ":9581,"shanĠxiĠshengĠ":9582,"tuoĠliĠ":9583,"ĠzhiĠduĠ":9584,"ĠshiĠdeĠyiĠ":9585,"lvĠxingĠ":9586,"daiĠbuĠ":9587,"jiaoĠliuĠ":9588,"huĠbeiĠ":9589,"1991ĠnianĠ":9590,"changĠpian":9591,"ĠĠĠnian":9592,"chengĠliĠdeĠ":9593,"yueĠhanĠ":9594,"ĠyouĠxieĠ":9595,"aoĠdiĠliĠ":9596,"ĠxiĠlaĠ":9597,"ĠCĠ":9598,"zhaoĠkaiĠ":9599,"shenĠshiĠ":9600,"wuĠyueĠ":9601,"zeĠweiĠ":9602,"suanĠjiĠ":9603,"jingĠyuĠ":9604,"taiĠshiĠ":9605,"ĠyiĠtongĠ":9606,"xingĠxiangĠ":9607,"gongĠchangĠ":9608,"ĠqiaoĠ":9609,"liangĠrenĠ":9610,"peiĠyinĠ":9611,"cuĠjinĠ":9612,"ĠquanĠguoĠ":9613,"daĠluĠdeĠ":9614,"zhuangĠdeĠ":9615,"xingĠquĠ":9616,"guiĠzeĠ":9617,"bingĠmeiĠyouĠ":9618,"fenĠliĠ":9619,"ĠmingĠchaoĠzhengĠzhiĠrenĠwuĠ":9620,"ĠliĠshiĠshangĠ":9621,"ciĠzaiĠ":9622,"gongĠzhiĠ":9623,"pingĠweiĠ":9624,"siĠteĠ":9625,"daiĠbiaoĠdaĠhuiĠ":9626,"xinĠjiĠ":9627,"ĠjiĠerĠ":9628,"jinĠbuĠ":9629,"longĠdeĠ":9630,"ĠfuĠjianĠ":9631,"ĠzheĠjiangĠ":9632,"ĠzhongĠyouĠ":9633,"jiaoĠxueĠ":9634,"zhuangĠkuangĠ":9635,"ĠshiĠtuĠ":9636,"xiaĠjiĠaoĠlinĠpiĠkeĠyunĠdongĠhuiĠ":9637,"ĠyaoĠqiuĠ":9638,"tongĠbuĠ":9639,"yuanĠgongĠ":9640,"ĠxiĠjuĠ":9641,"shunĠ":9642,"ĠweiĠliĠ":9643,"teĠseĠ":9644,"yunĠdong":9645,"suiĠhouĠ":9646,"zheĠzaiĠ":9647,"nanĠshiĠ":9648,"kongĠbuĠ":9649,"laĠjiĠ":9650,"piaoĠfangĠ":9651,"ĠliangĠrenĠ":9652,"daĠheĠ":9653,"baoĠshiĠ":9654,"wenĠxianĠ":9655,"ĠpanĠ":9656,"ĠĠĠxiaoĠ":9657,"leĠdaĠ":9658,"kĠ":9659,"Ġ3ĠyueĠ":9660,"daoĠzhongĠ":9661,"luoĠjiĠ":9662,"ĠtaĠhaiĠ":9663,"feiĠzhouĠ":9664,"puĠbianĠ":9665,"Ġ2011ĠnianĠ":9666,"kouĠweiĠ":9667,"peiĠheĠ":9668,"saĠsiĠ":9669,"ĠxiĠya":9670,"lianĠrenĠ":9671,"xianĠluĠ":9672,"sheĠjiĠdeĠ":9673,"fenĠzhongĠ":9674,"zhuanĠxiangĠ":9675,"ĠbuĠkeĠ":9676,"wangĠchaoĠ":9677,"ĠnianĠqianĠ":9678,"kaoĠlvĠ":9679,"ĠzhiĠziĠ":9680,"Ġdou":9681,"ĠjiaoĠyuĠ":9682,"meiĠguoĠdeĠ":9683,"ĠtuiĠ":9684,"ĠnvĠxingĠ":9685,"jieĠrenĠ":9686,"1988ĠnianĠ":9687,"ĠweiĠwuĠ":9688,"tongĠdaoĠ":9689,"ĠchengĠgongĠ":9690,"mingĠxianĠ":9691,"jingĠcha":9692,"ĠdaĠchengĠ":9693,"Ġ2021":9694,"ĠweiĠxingĠ":9695,"qiĠzhongĠyiĠzhongĠ":9696,"ĠĠĠguoĠ":9697,"zuiĠhou":9698,"ĠtaiĠwan":9699,"Ġnai":9700,"ĠsaiĠjiĠ":9701,"fangĠwuĠ":9702,"Ġsun":9703,"ĠyiĠban":9704,"hongĠseĠ":9705,"Ġmai":9706,"zhaoĠdaoĠ":9707,"1993ĠnianĠ":9708,"ĠweiĠheĠ":9709,"caiĠliaoĠ":9710,"ĠsuiĠdeĠ":9711,"ĠĠĠcongĠ":9712,"zhengĠheĠ":9713,"ĠliĠmiĠ":9714,"buĠtongĠdeĠ":9715,"ĠdeĠzhiĠwuĠ":9716,"lingĠdaoĠrenĠ":9717,"hunĠyinĠ":9718,"Ġ2001ĠnianĠrenĠkouĠ":9719,"ĠĠĠ2012":9720,"saoĠ":9721,"ĠyuĠleĠ":9722,"ĠxingĠqiĠ":9723,"ĠshiĠweiĠleĠ":9724,"baoĠzhiĠ":9725,"ĠweiĠhuiĠ":9726,"tiĠzhiĠ":9727,"ĠweiĠlaiĠ":9728,"fenĠbuĠyuĠ":9729,"ĠtiĠgongĠ":9730,"Ġ2015":9731,"xieĠrenĠ":9732,"xieĠdaoĠ":9733,"ĠxiĠbuĠ":9734,"ĠsĠĠĠ":9735,"junĠyuĠ":9736,"shouĠzhiĠ":9737,"fuĠzaiĠ":9738,"dongĠnanĠbuĠ":9739,"chuanĠboĠ":9740,"ĠshiĠdaĠ":9741,"ĠrenĠshuĠ":9742,"biaoĠmianĠ":9743,"jieĠmu":9744,"dongĠbeiĠbuĠ":9745,"feiĠchuĠ":9746,"Ġ2005ĠnianĠ":9747,"heĠĠĠ":9748,"dianĠhuaĠ":9749,"ĠguanĠyuĠ":9750,"baoĠyuĠ":9751,"ruanĠjianĠ":9752,"tĠĠĠ":9753,"danĠdeĠ":9754,"youĠshiĠ":9755,"suoĠzaiĠ":9756,"ĠhanĠguoĠ":9757,"wuĠtaiĠ":9758,"duiĠzhangĠ":9759,"ĠyinĠerĠ":9760,"jinĠyouĠ":9761,"tuiĠjinĠ":9762,"geĠheĠ":9763,"wuĠzhuangĠ":9764,"zhengĠchangĠ":9765,"lingĠdiĠ":9766,"tiĠdaoĠ":9767,"qianĠwang":9768,"guoĠjiĠjiĠ":9769,"chuĠlaiĠ":9770,"ĠzaoĠchengĠ":9771,"ĠnianĠdiĠ":9772,"yaĠliĠshanĠdaĠ":9773,"ĠzaiĠjiaĠ":9774,"yingĠgaiĠ":9775,"ĠjiaĠnaĠdaĠ":9776,"ĠxiĠtong":9777,"ĠerĠshuiĠyuĠmianĠjiĠweiĠ0":9778,"meiĠdeĠ":9779,"siĠlingĠ":9780,"yuanĠxingĠ":9781,"guiĠdeĠ":9782,"boĠsiĠ":9783,"faĠbiao":9784,"poĠhuai":9785,"ĠyeĠyouĠ":9786,"yinĠdiĠ":9787,"JĠ":9788,"jueĠshiĠ":9789,"Ġqi":9790,"benĠdiĠ":9791,"ĠyuĠheĠ":9792,"daĠbuĠfenĠ":9793,"yeĠheĠ":9794,"riĠjunĠ":9795,"dongĠfangĠ":9796,"ĠpingĠfangĠmiĠ":9797,"ĠxianĠhouĠ":9798,"yongĠzuoĠ":9799,"siĠgeĠ":9800,"anĠhuiĠ":9801,"xiangĠyiĠ":9802,"mingĠxingĠ":9803,"qingĠbaoĠ":9804,"jiaoĠdaĠ":9805,"bianĠxingĠ":9806,"ĠshiĠhouĠ":9807,"ĠheĠpingĠ":9808,"Ġ2017":9809,"ĠĠĠzaoĠnianĠ":9810,"faĠxianĠleĠ":9811,"xuĠzaiĠ":9812,"15Ġ":9813,"ĠerĠgaiĠdiĠ":9814,"canĠmou":9815,"caoĠzuoĠ":9816,"Ġ2020":9817,"Ġ2014":9818,"jiaoĠyouĠ":9819,"taiĠrenĠ":9820,"neiĠyouĠ":9821,"Ġchi":9822,"Ġ2013":9823,"qiangĠdeĠ":9824,"lĠ":9825,"ĠshiĠgeĠ":9826,"zuiĠgao":9827,"ĠdianĠyingĠ":9828,"ĠyiĠduĠ":9829,"ĠdeĠshiĠjieĠ":9830,"gengĠduoĠ":9831,"aoĠyunĠhuiĠ":9832,"yeĠhuiĠ":9833,"ĠgeĠquĠ":9834,"Ġxiu":9835,"duiĠxiangĠ":9836,"huoĠzheĠ":9837,"ĠyueĠnanĠ":9838,"jieĠshaoĠ":9839,"tuanĠdeĠ":9840,"meiĠliĠ":9841,"zhouĠbianĠ":9842,"ĠĠĠK":9843,"juĠyiĠ":9844,"dunĠdeĠ":9845,"ĠqiĠzaiĠ":9846,"zuoĠquĠ":9847,"ĠshengĠyuĠ":9848,"bianĠshiĠ":9849,"Ġyang":9850,"gongĠjuĠ":9851,"dengĠshangĠ":9852,"ĠsuiĠzheĠ":9853,"junĠquĠ":9854,"huĠdeĠ":9855,"jiaĠzaiĠ":9856,"yongĠshiĠ":9857,"jueĠyiĠ":9858,"leĠtaĠdeĠ":9859,"ĠsiĠlingĠ":9860,"xiaĠxiaĠdeĠyiĠgeĠ":9861,"haiĠxiaĠ":9862,"longĠjiangĠ":9863,"Ġdui":9864,"huĠyuĠ":9865,"ĠbuĠmenĠ":9866,"xiĠnanĠ":9867,"yanĠshenĠ":9868,"yongĠtuĠ":9869,"zhengĠtiĠ":9870,"zhanĠzhiĠ":9871,"suiĠzhuĠ":9872,"shuĠruĠ":9873,"douĠhuiĠ":9874,"ĠshiĠwuĠkeĠ":9875,"shouĠzhangĠ":9876,"queĠzhenĠbingĠliĠ":9877,"Ġxiao":9878,"19ĠshiĠjiĠ":9879,"xiaĠyouĠ":9880,"yunĠshiĠ":9881,"gaoĠjiaĠ":9882,"ĠriĠdeĠ":9883,"zuoĠrenĠ":9884,"ĠerĠyanĠ":9885,"yunĠzuoĠ":9886,"laĠheĠ":9887,"nieĠ":9888,"tongĠyangĠ":9889,"gouĠzaoĠ":9890,"banĠshiĠchuĠ":9891,"ĠnanĠzhiĠ":9892,"youĠyuĠ":9893,"liuĠzaiĠ":9894,"ĠĠĠzengĠ":9895,"huaĠjiĠ":9896,"changĠyouĠ":9897,"ĠdaĠxingĠ":9898,"22Ġ":9899,"1990ĠnianĠ":9900,"sanĠjiĠ":9901,"xiaĠling":9902,"ĠjuĠxingĠ":9903,"ĠxianĠrenĠ":9904,"ĠchengĠliĠ":9905,"feiĠliĠ":9906,"ĠerĠziĠ":9907,"ĠsiĠwangĠ":9908,"ĠweiĠkeĠ":9909,"daĠchenĠ":9910,"faĠshouĠ":9911,"ĠqiĠziĠ":9912,"ĠzhongĠzaiĠ":9913,"miĠmiĠ":9914,"ĠwanĠmeiĠyuanĠ":9915,"renĠdaĠ":9916,"guangĠbo":9917,"Ġ100":9918,"ĠzhongĠshiĠ":9919,"shangĠyuĠ":9920,"binĠhaiĠ":9921,"gongĠsiĠdeĠ":9922,"ĠnianĠlaiĠ":9923,"chuĠkouĠ":9924,"junĠguanĠ":9925,"haiĠwaiĠ":9926,"Ġ2010":9927,"duĠheĠ":9928,"ĠzhiĠdingĠ":9929,"shuĠyuanĠ":9930,"xiaoĠquĠ":9931,"Ġniu":9932,"ĠshaoĠ":9933,"siĠyiĠ":9934,"jiaĠyouĠ":9935,"kaiĠzhanĠ":9936,"chuanĠzhiĠ":9937,"chuangĠjianĠ":9938,"ĠqiĠxiangĠ":9939,"ĠdongĠlinĠ":9940,"shouĠyiĠ":9941,"chaiĠchuĠ":9942,"liangĠciĠ":9943,"lingĠxiuĠ":9944,"caiĠzhengĠ":9945,"guanĠshiĠ":9946,"huiĠyuanĠ":9947,"ĠbaoĠhanĠ":9948,"Ġhuan":9949,"ĠzhengĠzhiĠ":9950,"rengĠ":9951,"ĠyouĠkeĠ":9952,"wanĠrenĠ":9953,"zhuĠzuoĠ":9954,"guĠliĠ":9955,"zunĠ":9956,"touĠpiao":9957,"yaĠkeĠ":9958,"ĠerĠtongĠ":9959,"ĠjianĠyuĠ":9960,"anĠdaĠ":9961,"ĠĠĠsiĠ":9962,"dongĠzuoĠ":9963,"ĠjieĠshouĠ":9964,"fuĠweiĠ":9965,"shanĠquĠ":9966,"beiĠshiĠweiĠ":9967,"tuĠxingĠ":9968,"ĠxianĠluĠ":9969,"senĠlinĠ":9970,"qinĠziĠ":9971,"zhuĠjueĠ":9972,"kaĠluoĠ":9973,"zhuangĠbeiĠ":9974,"jiangĠhuiĠ":9975,"gaoĠsuĠgongĠluĠ":9976,"wuĠsiĠ":9977,"ĠnianĠ1ĠyueĠ1ĠriĠ":9978,"gengĠweiĠ":9979,"ĠhengĠ":9980,"huiĠzhongĠ":9981,"jinĠweiĠ":9982,"1989ĠnianĠ":9983,"banĠliĠ":9984,"tianĠshiĠ":9985,"ĠyiĠmeiĠyuanĠ":9986,"ĠzaiĠduĠ":9987,"Ġcai":9988,"mingĠzhongĠ":9989,"ĠyongĠyouĠ":9990,"liuĠdeĠ":9991,"shouĠluĠ":9992,"waiĠjiaoĠbuĠ":9993,"Ġkai":9994,"Ġshun":9995,"Ġ2007ĠnianĠ":9996,"renĠliĠ":9997,"biĠmianĠ":9998,"riĠzhiĠ":9999,"juĠqingĠ":10000,"ĠdongĠbeiĠ":10001,"xiangĠzhengĠ":10002,"ĠerĠchengĠ":10003,"shouĠxiĠ":10004,"dengĠdeĠ":10005,"baoĠshouĠ":10006,"junĠzhuĠ":10007,"zhangĠguanĠ":10008,"qingĠchuĠ":10009,"huĠnanĠ":10010,"ceĠliangĠ":10011,"Ġ2008ĠnianĠ":10012,"jiĠĠĠ":10013,"mengĠdeĠ":10014,"ĠyiĠhouĠ":10015,"ĠnianĠĠĠ":10016,"ĠjieĠkeĠ":10017,"ĠshengĠhuoĠxiĠ":10018,"Ġni":10019,"ĠĠĠdangĠ":10020,"canĠyiĠyuanĠ":10021,"ĠqiĠxiaĠ":10022,"chuĠdaoĠ":10023,"taiĠfengĠ":10024,"kaiĠtongĠ":10025,"yanĠxiĠ":10026,"jingĠxuanĠ":10027,"duiĠwaiĠ":10028,"changĠzhiĠ":10029,"ĠsheĠhuiĠ":10030,"pianĠdeĠ":10031,"1984ĠnianĠ":10032,"guanĠchaĠ":10033,"dingĠjuĠ":10034,"ĠmeiĠgeĠ":10035,"Ġ2012":10036,"shengĠyinĠ":10037,"taiĠziĠ":10038,"ĠcanĠjiaĠ":10039,"zhanĠqiĠjianĠ":10040,"zuĠfuĠ":10041,"piĠfuĠ":10042,"bingĠruĠ":10043,"daiĠlaiĠ":10044,"fanĠweiĠneiĠ":10045,"xingĠbuĠmingĠ":10046,"ĠjuĠyouĠ":10047,"huaĠheĠwuĠ":10048,"liangĠjiĠ":10049,"ĠweiĠnengĠ":10050,"zheĠbuĠ":10051,"ĠsheĠyouĠ":10052,"laoĠdongĠ":10053,"duĠliĠdeĠ":10054,"xĠ":10055,"leiĠdaĠ":10056,"ĠwuĠfaĠ":10057,"feiĠdeĠ":10058,"guoĠwangĠ":10059,"Ġsu":10060,"ĠĠĠmingĠ":10061,"zhuanĠdeĠ":10062,"jianĠjieĠ":10063,"kangĠriĠ":10064,"gouĠmaiĠ":10065,"ĠshengĠhuoĠxiĠxingĠbuĠmingĠ":10066,"fangĠmianĠdeĠ":10067,"erĠyueĠ":10068,"leĠĠĠ":10069,"jiangĠjiĠ":10070,"maĠlaĠ":10071,"zhouĠqiĠ":10072,"lvĠdeĠ":10073,"xiangĠhuĠ":10074,"ĠyongĠyuĠ":10075,"houĠshiĠ":10076,"waiĠbuĠ":10077,"Ġdong":10078,"ĠyiĠdaiĠ":10079,"zhuĠzhangĠ":10080,"faĠxingĠdeĠ":10081,"yingĠyeĠ":10082,"zuoĠbiaoĠweiĠ":10083,"jiuĠlongĠ":10084,"zhuĠyaoĠdeĠ":10085,"queĠdeĠ":10086,"cĠ":10087,"erĠzhiĠ":10088,"tianĠqiĠ":10089,"tongĠpaiĠ":10090,"ĠĠĠbeiĠjingĠ":10091,"bingĠdeĠ":10092,"xiĠjuĠ":10093,"liangĠxiangĠ":10094,"ĠchuĠxianĠ":10095,"jiaĠliĠfuĠ":10096,"jingĠzhongĠ":10097,"xinĠxingĠ":10098,"liangĠzhiĠ":10099,"touĠluĠ":10100,"zuĠzhiĠdeĠ":10101,"fanĠzuiĠ":10102,"taiĠbeiĠshiĠ":10103,"ĠzhongĠguoĠdaĠluĠ":10104,"ĠgongĠyouĠ":10105,"xinĠyangĠ":10106,"jiangĠlingĠ":10107,"luĠjiĠ":10108,"ĠzaiĠci":10109,"quĠjiĠ":10110,"muĠqin":10111,"duoĠrenĠ":10112,"ĠyueĠzhongĠ":10113,"zhuĠchangĠ":10114,"guanĠjianĠ":10115,"ĠdiĠshiĠ":10116,"aiĠjiĠ":10117,"1985ĠnianĠ":10118,"ruĠqinĠ":10119,"jiuĠduĠ":10120,"lunĠwenĠ":10121,"ĠĠĠben":10122,"ĠĠĠciĠwaiĠ":10123,"chuanĠshuoĠ":10124,"chengĠheĠ":10125,"23Ġ":10126,"ĠcanĠyuĠ":10127,"mianĠshiĠ":10128,"kongĠqiĠ":10129,"16Ġ":10130,"jingĠfangĠ":10131,"keĠyiĠzaiĠ":10132,"ĠkaoĠ":10133,"ĠbingĠduĠ":10134,"Ġzhong":10135,"xianĠxingĠ":10136,"anĠzhuangĠ":10137,"ĠshiĠshiĠjieĠ":10138,"tongĠnianĠ":10139,"zhuĠyiĠdeĠ":10140,"Ġcha":10141,"Ġ2009":10142,"xinĠjiaĠpoĠ":10143,"fangĠyanĠ":10144,"ĠĠĠjuĠqingĠ":10145,"lianĠzaiĠ":10146,"moĠsiĠkeĠ":10147,"ĠshiĠriĠbenĠ":10148,"manĠdeĠ":10149,"chengĠnianĠ":10150,"kaoĠjinĠ":10151,"ĠdaĠfuĠ":10152,"Ġsha":10153,"ĠAĠ":10154,"zheĠweiĠ":10155,"ĠrenĠmingĠ":10156,"ĠduanĠ":10157,"ĠqiĠshiĠ":10158,"ĠzhiĠyou":10159,"zhangĠaiĠ":10160,"gaiĠshanĠ":10161,"ĠĠĠ1Ġ":10162,"jieĠsanĠ":10163,"ĠdaĠduoĠ":10164,"yunĠnanĠ":10165,"ĠyinĠqiĠ":10166,"ĠyouĠciĠ":10167,"ĠĠĠdeĠĠĠ":10168,"shangĠbuĠ":10169,"yuĠyanĠ":10170,"ĠheĠzhongĠ":10171,"ĠchuĠshengĠyuĠ":10172,"guangĠdongĠshengĠ":10173,"Ġ2008":10174,"ĠguoĠchengĠzhongĠ":10175,"taiĠduĠ":10176,"guiĠzuĠ":10177,"DĠ":10178,"zhanĠtingĠ":10179,"ĠbiĠruĠ":10180,"Ġ1949":10181,"Ġ2013ĠnianĠ":10182,"baoĠzhangĠ":10183,"siĠzhiĠ":10184,"suoĠshiĠ":10185,"Ġchu":10186,"ĠĠĠG":10187,"ĠdiĠwuĠ":10188,"gaoĠdaĠ":10189,"changĠjianĠdeĠ":10190,"quanĠzhangĠ":10191,"TĠ":10192,"huaĠyiĠ":10193,"qianĠrenĠ":10194,"jiangĠzaiĠ":10195,"ĠqiĠxiĠ":10196,"zuoĠzheĠ":10197,"huaĠzhiĠ":10198,"faĠhuiĠ":10199,"shuangĠfangĠ":10200,"mingĠrenĠ":10201,"zongĠshiĠ":10202,"nongĠye":10203,"ĠsiĠchuanĠ":10204,"suoĠshuĠ":10205,"xiuĠzhengĠ":10206,"ĠzengĠ":10207,"fangĠyiĠ":10208,"fuĠjinĠdeĠ":10209,"yingĠxiongĠ":10210,"huoĠshanĠ":10211,"meiĠzhou":10212,"xunĠyangĠ":10213,"ĠteĠbieĠshiĠ":10214,"ĠĠĠP":10215,"quĠyiĠhuiĠ":10216,"baoĠhan":10217,"tiaoĠliĠ":10218,"ĠweiĠciĠ":10219,"shouĠxiangĠ":10220,"ĠgongĠkaiĠ":10221,"ĠshiĠjiĠshangĠ":10222,"wanĠgongĠ":10223,"ĠgongĠyeĠ":10224,"ĠwanĠyuanĠ":10225,"ĠjiaĠtingĠ":10226,"leĠyuĠ":10227,"cuoĠwuĠ":10228,"quĠleĠ":10229,"3ĠgeĠ":10230,"gongĠhuiĠ":10231,"ĠguoĠhuiĠ":10232,"yinĠqingĠ":10233,"ĠĠĠdiĠfangĠ":10234,"chuĠyanĠ":10235,"25Ġ":10236,"ĠyiĠxiaoĠshiĠ":10237,"bianĠjuĠ":10238,"ĠnianĠkaiĠshiĠ":10239,"shengĠtaiĠ":10240,"ĠshiĠdeĠguoĠ":10241,"Ġqing":10242,"baiĠrenĠ":10243,"geĠlunĠ":10244,"ĠxueĠxiaoĠ":10245,"Ġ20":10246,"ganĠbuĠ":10247,"faĠlanĠxiĠ":10248,"1ĠliĠ":10249,"ĠnengĠ":10250,"shuĠliĠ":10251,"fengĠweiĠ":10252,"zhouĠciĠshiĠ":10253,"yaoĠqiu":10254,"ĠĠĠ2010":10255,"ĠjiĠbuĠ":10256,"ĠĠĠ2011":10257,"duiĠyouĠ":10258,"xianĠjinĠ":10259,"ĠhenĠ":10260,"ĠĠĠqiĠtaĠ":10261,"laoĠdeĠ":10262,"qingĠhuaĠ":10263,"zuiĠyouĠ":10264,"ĠyueĠtuanĠ":10265,"taoĠtaiĠ":10266,"ĠpingĠjunĠ":10267,"yinĠheĠ":10268,"zhongĠdianĠ":10269,"meiĠshuĠ":10270,"keĠdeĠqiĠzhongĠyiĠzhongĠ":10271,"ĠouĠyuanĠ":10272,"yuanĠzeĠ":10273,"luĠyingĠ":10274,"zhiĠdeĠshiĠ":10275,"guĠfen":10276,"dangĠdiĠdeĠ":10277,"ĠjiĠnian":10278,"qingĠqiuĠ":10279,"ĠzhongĠhuaĠrenĠminĠgongĠheĠguoĠzhengĠzhiĠrenĠwuĠ":10280,"suĠgeĠlanĠ":10281,"ĠĠĠ2Ġ":10282,"ĠĠĠdiĠerĠ":10283,"youĠxianĠ":10284,"xiaĠweiĠ":10285,"huanĠchengĠ":10286,"ĠheĠxinĠ":10287,"huoĠxingĠ":10288,"ĠĠĠE":10289,"gaiĠchengĠ":10290,"kaiĠsheĠ":10291,"Ġ2022":10292,"zhuangĠjiĠ":10293,"heĠxinĠ":10294,"dangĠweiĠ":10295,"ĠbuĠjinĠ":10296,"chengĠkeĠ":10297,"ĠyeĠjiuĠshiĠ":10298,"yuanĠzhongĠ":10299,"cuiĠhuiĠ":10300,"houĠbeiĠ":10301,"paiĠmingĠdiĠ":10302,"ĠĠĠmeiĠguoĠ":10303,"beiĠweiĠ":10304,"henĠdaĠ":10305,"qiangĠdiaoĠ":10306,"iĠ":10307,"zhengĠweiĠ":10308,"faĠguanĠ":10309,"ĠwanĠjiaĠ":10310,"ĠwuĠkeĠlanĠ":10311,"xiangĠguanĠdeĠ":10312,"Ġ2006ĠnianĠ":10313,"ĠmaiĠkeĠ":10314,"enĠshengĠ":10315,"lingĠrenĠ":10316,"Ġge":10317,"tianĠjingĠ":10318,"canĠkaoĠ":10319,"rĠ":10320,"nengĠzaiĠ":10321,"ĠshiĠxiĠ":10322,"ĠĠĠaĠ":10323,"yaĠjunĠ":10324,"niĠyaĠzhouĠ":10325,"daoĠbuĠ":10326,"yaĠyiĠ":10327,"shangĠhaiĠshiĠ":10328,"luĠkeĠ":10329,"suoĠchuĠdeĠ":10330,"huiĠbuĠ":10331,"ĠshiĠbeiĠ":10332,"xiaĠquĠ":10333,"tiĠyuĠchangĠ":10334,"ĠkeĠerĠ":10335,"Ġmeng":10336,"suoĠzhiĠ":10337,"xieĠerĠ":10338,"zuiĠgaoĠdeĠ":10339,"ĠyiĠfuĠ":10340,"ĠyouĠzhongĠ":10341,"Ġpo":10342,"xiangĠweiĠ":10343,"tuĠpoĠ":10344,"laĠgeĠ":10345,"VĠ":10346,"taiĠzhongĠ":10347,"ĠzhiĠliuĠ":10348,"chengĠbenĠ":10349,"dangĠjuĠ":10350,"ĠwenĠhuaĠ":10351,"Ġpu":10352,"Ġxiong":10353,"chuĠzaiĠ":10354,"kunĠnanĠ":10355,"ĠF":10356,"ĠĠĠrenĠ":10357,"ĠM":10358,"jingĠzhiĠ":10359,"xiuĠfuĠ":10360,"keĠxueĠyuanĠ":10361,"dianĠcheĠ":10362,"SĠ":10363,"ĠĠĠyinĠ":10364,"zhanĠxianĠ":10365,"ruĠqin":10366,"ĠsuiĠzhuĠ":10367,"yĠ":10368,"banĠbuĠ":10369,"dengĠdengĠ":10370,"ĠxiangĠnianĠ":10371,"duoĠweiĠ":10372,"suoĠweiĠ":10373,"ĠyiĠzuoĠ":10374,"ĠxiĠerĠ":10375,"aĠlaĠboĠ":10376,"wangĠyuanĠ":10377,"kaiĠfa":10378,"huoĠbanĠ":10379,"houĠweiĠ":10380,"hanĠyuĠ":10381,"ĠheĠlanĠ":10382,"ĠgeĠshouĠ":10383,"Ġ2012ĠnianĠ":10384,"jiaĠweiĠ":10385,"baiĠdeĠ":10386,"ĠxiĠbanĠyaĠ":10387,"ĠjiuĠshiĠ":10388,"junĠzhiĠ":10389,"ĠkuĠ":10390,"leĠqiĠ":10391,"chuanĠdeĠ":10392,"1980ĠnianĠ":10393,"haiĠpingĠmianĠ":10394,"huanĠdeĠ":10395,"tanĠdeĠ":10396,"wuĠziĠ":10397,"zhongĠguoĠdaĠluĠdeĠ":10398,"shengĠyouĠ":10399,"xiuĠjianĠ":10400,"tongĠmengĠ":10401,"qingĠxingĠ":10402,"ganĠranĠzheĠ":10403,"xueĠyuĠ":10404,"zuiĠweiĠ":10405,"13Ġ":10406,"ĠjiĠyouĠ":10407,"ciĠshiĠjieĠdaĠzhanĠ":10408,"Ġ00Ġ":10409,"shanĠxianĠ":10410,"ĠzuĠfuĠ":10411,"zuĠyiĠ":10412,"chiĠyouĠ":10413,"ĠriĠjunĠ":10414,"heiĠseĠ":10415,"taiĠyuĠ":10416,"laiĠyueĠ":10417,"zhaoĠpianĠ":10418,"zhenĠyuĠ":10419,"zeĠzaiĠ":10420,"1986ĠnianĠ":10421,"yaĠmeiĠ":10422,"chengĠguoĠ":10423,"leĠzaiĠ":10424,"yinĠliĠ":10425,"ĠbuĠxiangĠ":10426,"shouĠgouĠ":10427,"shengĠchuĠ":10428,"dangĠyuanĠ":10429,"laĠdingĠ":10430,"jingĠyiĠ":10431,"zhangĠweiĠ":10432,"ĠjiĠfuĠ":10433,"ĠbuĠluoĠ":10434,"liĠyuĠ":10435,"qiangĠlieĠ":10436,"ĠtongĠshiĠgaiĠdiĠ":10437,"ĠliaoĠ":10438,"beiĠyuĠ":10439,"laiĠshiĠ":10440,"teĠxingĠ":10441,"huangĠhouĠ":10442,"yinĠruĠ":10443,"xiaoĠyuanĠ":10444,"guĠdaiĠ":10445,"nengĠliangĠ":10446,"geiĠleĠ":10447,"ĠguangĠdongĠ":10448,"zhuĠzhiĠ":10449,"ĠxiĠlie":10450,"manĠzuĠ":10451,"boĠshiĠxueĠweiĠ":10452,"ĠzhiĠyiĠ":10453,"teĠdingĠ":10454,"ĠdeĠjiĠchuĠ":10455,"ĠmeiĠnianĠ":10456,"keĠyouĠ":10457,"xuĠliĠyaĠ":10458,"zuĠqiuĠyunĠdongĠyuanĠ":10459,"gĠ":10460,"duĠjiaoĠ":10461,"neiĠluĠshengĠfenĠ":10462,"xiangĠyouĠ":10463,"jingĠheĠ":10464,"ĠtieĠ":10465,"shangĠchangĠ":10466,"ĠkanĠ":10467,"chengĠshiĠdeĠ":10468,"tongĠweiĠ":10469,"jiuĠyiĠ":10470,"ĠaĠerĠ":10471,"Ġluo":10472,"nongĠminĠ":10473,"ĠzhongĠziĠ":10474,"geĠdaĠ":10475,"keĠfuĠ":10476,"hongĠzha":10477,"taĠweiĠ":10478,"jiaoĠzhiĠ":10479,"moĠsiĠ":10480,"qiangĠzhiĠ":10481,"xiaĠlingĠshiĠjianĠ":10482,"xiangĠheĠ":10483,"jingĠzaiĠ":10484,"gaiĠshiĠ":10485,"ĠzhongĠdaĠ":10486,"ĠbuĠdiĠ":10487,"xunĠzhangĠ":10488,"keĠnengĠshiĠ":10489,"zhenĠjiĠ":10490,"suiĠshiĠ":10491,"chuangĠbanĠ":10492,"bangĠdeĠ":10493,"fouĠ":10494,"chuiĠ":10495,"bengĠ":10496,"jiuĠhuiĠ":10497,"ĠhuoĠzheĠ":10498,"dingĠqiĠ":10499,"daĠjiangĠ":10500,"chengĠbaoĠ":10501,"kuoĠzhanĠ":10502,"ĠW":10503,"zaoĠzaiĠ":10504,"zhengĠce":10505,"ĠtaĠcengĠdaiĠbiaoĠ":10506,"wuĠdaoĠ":10507,"benĠshenĠ":10508,"ĠĠĠtoĠĠĠ":10509,"shangĠxiaĠ":10510,"ĠĠĠjieĠ":10511,"keĠzhiĠ":10512,"minĠdiĠ":10513,"woĠdeĠ":10514,"ĠbingĠweiĠ":10515,"ĠĠĠjianĠjieĠ":10516,"duanĠshiĠ":10517,"diĠqiuĠ":10518,"leĠyouĠ":10519,"muĠzhiĠ":10520,"juĠdaĠ":10521,"tanĠpanĠ":10522,"weiĠyiĠyiĠ":10523,"bianĠhaoĠ":10524,"Ġ500":10525,"junĠheĠ":10526,"1945ĠnianĠ":10527,"renĠyuanĠ":10528,"luĠxuĠ":10529,"tianĠtiĠ":10530,"fanĠzhiĠ":10531,"xuanĠdeĠ":10532,"ĠkeĠxiĠ":10533,"shaĠhaiĠ":10534,"ĠshiĠyiĠgeĠweiĠyuĠ":10535,"Ġdi":10536,"wanĠdeĠ":10537,"tangĠdeĠ":10538,"wuĠzhengĠzhuangĠ":10539,"nanĠfangĠ":10540,"liangĠmingĠ":10541,"niĠerĠ":10542,"Ġ1950":10543,"gongĠzhuĠ":10544,"mengĠgu":10545,"ĠĠĠdiĠfangĠziĠliaoĠ":10546,"Ġ2014ĠnianĠ":10547,"huiĠguoĠ":10548,"quĠzhiĠ":10549,"riĠdeĠ":10550,"liangĠguoĠ":10551,"daĠhuiĠ":10552,"feiĠerĠ":10553,"ĠrenĠqiĠ":10554,"beiĠjingĠshiĠ":10555,"wenĠduĠ":10556,"jiangĠjinĠ":10557,"chuĠzhiĠ":10558,"bingĠyiĠ":10559,"jiangĠzhiĠ":10560,"gaoĠzhiĠ":10561,"ĠnianĠweiĠ":10562,"diĠyiĠweiĠ":10563,"ĠdunĠ":10564,"ziĠzhongĠ":10565,"yanĠyuĠ":10566,"yaĠheĠ":10567,"ĠdaĠduoĠshuĠ":10568,"ĠwaĠ":10569,"lingĠyiĠgeĠ":10570,"nuoĠfuĠ":10571,"chuĠshouĠ":10572,"yueĠnanĠ":10573,"ziĠzaiĠ":10574,"Ġsong":10575,"zheĠxueĠ":10576,"duiĠciĠ":10577,"muĠniĠ":10578,"ĠruoĠ":10579,"fengĠfuĠ":10580,"ĠyiĠwuĠ":10581,"ĠguoĠquĠ":10582,"yinĠpaiĠ":10583,"zhuĠweiĠ":10584,"miĠyaĠ":10585,"gaoĠxiong":10586,"aoĠzhouĠ":10587,"liangĠnianĠ":10588,"rongĠheĠ":10589,"1987ĠnianĠ":10590,"ĠshiĠyeĠ":10591,"changĠjianĠ":10592,"xiaoĠfangĠ":10593,"ĠfuĠqinĠ":10594,"pingĠdeĠ":10595,"suoĠyouĠdeĠ":10596,"shenĠduĠ":10597,"paiĠhangĠ":10598,"sanĠjiaĠ":10599,"nvĠzhuĠ":10600,"ĠyuĠxiĠ":10601,"naĠcui":10602,"Ġ0Ġ":10603,"tiĠweiĠ":10604,"xiuĠdeĠ":10605,"ĠbuĠduanĠ":10606,"youĠjiĠ":10607,"guanĠliĠjuĠ":10608,"ĠhangĠ":10609,"ĠpiaoĠ":10610,"ĠbuĠerĠ":10611,"haiĠbaĠweiĠ":10612,"dĠĠĠ":10613,"dianĠheĠ":10614,"zhengĠxie":10615,"ĠjiaĠzuĠ":10616,"ĠgenĠ":10617,"tongĠmingĠ":10618,"zaiĠliĠ":10619,"chiĠrenĠ":10620,"ĠjiĠhouĠ":10621,"ĠmeiĠyuanĠ":10622,"dongĠshiĠzhangĠ":10623,"xiangĠbiĠ":10624,"fangĠmian":10625,"ĠshuoĠ":10626,"zouĠxiangĠ":10627,"hanĠyouĠ":10628,"peiĠzhiĠ":10629,"xiĠyaĠ":10630,"suoĠcaiĠyong":10631,"geĠerĠ":10632,"muĠqian":10633,"1982ĠnianĠ":10634,"liangĠdaĠ":10635,"shanĠfengĠ":10636,"1983ĠnianĠ":10637,"fangĠjianĠ":10638,"Ġku":10639,"gaiĠzaoĠ":10640,"ĠzhongĠgongĠzhongĠyangĠ":10641,"xiĠbaoĠ":10642,"wenĠzhongĠ":10643,"manĠdiĠ":10644,"ĠĠĠjingĠ":10645,"daoĠweiĠ":10646,"ganĠranĠ":10647,"junĠzhongĠ":10648,"zhouĠzhiĠ":10649,"daiĠshiĠ":10650,"ĠdongĠnanĠ":10651,"yongĠyiĠ":10652,"mangĠ":10653,"Ġcn":10654,"dingĠshiĠ":10655,"jieĠtiĠ":10656,"baĠheĠ":10657,"leĠzheĠ":10658,"zhanĠlanĠ":10659,"ĠweiĠyuĠgaiĠ":10660,"huĠbuĠ":10661,"jieĠliĠ":10662,"huiĠyiĠyuanĠ":10663,"huanĠxingĠ":10664,"shangĠshengĠ":10665,"zhanĠlve":10666,"ĠhaoĠxianĠ":10667,"ĠĠĠgongĠ":10668,"taiĠheĠ":10669,"ĠsuiĠshiĠ":10670,"ĠwanĠliĠ":10671,"gongĠliĠdeĠ":10672,"huĠweiĠ":10673,"diaoĠkuai":10674,"sanĠweiĠ":10675,"shouĠrenĠ":10676,"ĠweiĠUTCĠ":10677,"ĠdeĠyiĠshuĠ":10678,"mianĠduiĠ":10679,"lianĠheĠhuiĠ":10680,"erĠtongĠ":10681,"shengĠdiĠ":10682,"ĠcnĠ":10683,"ĠkouĠ":10684,"yanĠhaiĠ":10685,"qinĠwangĠ":10686,"zhiĠshiĠqiĠ":10687,"xiongĠyaĠliĠ":10688,"zhuĠheĠ":10689,"chongĠjiĠ":10690,"kaiĠshiĠshiĠ":10691,"diaoĠkuaiĠyiĠxiaoĠshiĠ":10692,"ĠĠĠzhengĠ":10693,"ĠjiĠUTCĠ":10694,"xiaĠlingĠ":10695,"sheĠyouĠxiaĠlingĠshiĠjianĠ":10696,"ĠdeĠshiĠquĠweiĠUTCĠ":10697,"ĠerĠgaiĠdiĠsuoĠcaiĠyong":10698,"ĠtongĠshiĠgaiĠdiĠsheĠyouĠxiaĠlingĠshiĠjianĠ":10699,"ĠerĠgaiĠdiĠsuoĠcaiĠyongĠdeĠshiĠquĠweiĠUTCĠ":10700,"ĠrongĠ":10701,"ĠĠĠjiaoĠtongĠ":10702,"jieĠzhongĠ":10703,"sanĠdaĠ":10704,"nanĠhaiĠ":10705,"paiĠqianĠ":10706,"aiĠerĠlanĠ":10707,"junĠrenĠ":10708,"zhangĠyueĠ":10709,"huanĠzheĠ":10710,"ĠqiĠfuĠ":10711,"cheĠxiangĠ":10712,"ĠlingĠyouĠ":10713,"chengĠyouĠ":10714,"ĠerĠqiĠ":10715,"IĠ":10716,"xiaoĠfeiĠ":10717,"zongĠtong":10718,"miĠshuĠzhangĠ":10719,"4ĠgeĠ":10720,"wenĠheĠ":10721,"dangĠjiĠ":10722,"kouĠdeĠ":10723,"guoĠhuiĠ":10724,"boĠlinĠ":10725,"gaoĠyuĠhaiĠpingĠmianĠ":10726,"ĠĠĠyingĠ":10727,"chuĠyouĠ":10728,"ĠdaĠluĠ":10729,"biĠyeĠhouĠ":10730,"zhouĠjiĠ":10731,"lunĠshiĠ":10732,"cengĠweiĠ":10733,"ĠyueĠyiĠ":10734,"jianĠliĠleĠ":10735,"daĠxiĠyangĠ":10736,"ĠerĠbuĠshiĠ":10737,"daĠyiĠ":10738,"shuĠrenĠ":10739,"changĠsuoĠ":10740,"chuangĠzaoĠ":10741,"quĠdeĠmianĠjiĠweiĠ":10742,"haiĠbaĠweiĠgaoĠyuĠhaiĠpingĠmianĠ":10743,"geĠming":10744,"juĠleĠ":10745,"gaiĠmingĠweiĠ":10746,"zhuĠyiĠzheĠ":10747,"ĠmenĠ":10748,"xiangĠxinĠ":10749,"zhuiĠsu":10750,"ruĠdeĠ":10751,"shouĠxianĠ":10752,"boĠlan":10753,"tanĠxianĠ":10754,"laoĠshiĠ":10755,"Ã©Ġ":10756,"ĠqiĠzhongĠbaoĠkuoĠ":10757,"ĠĠĠyanĠ":10758,"caiĠdeĠ":10759,"qunĠzhongĠ":10760,"jinĠxingĠdeĠ":10761,"juĠyuanĠ":10762,"jingĠduĠ":10763,"lieĠruĠ":10764,"ĠhuoĠdongĠ":10765,"ĠyiĠsiĠlanĠ":10766,"Ġshuang":10767,"ĠziĠyouĠ":10768,"faĠzhiĠ":10769,"guanĠheĠ":10770,"chaoĠyueĠ":10771,"ĠyuĠbeiĠ":10772,"guanĠcha":10773,"Ġ2015ĠnianĠ":10774,"zhangĠheĠ":10775,"banĠben":10776,"Ġ2025":10777,"gongĠweiĠ":10778,"quanĠxianĠ":10779,"buĠshiĠquĠ":10780,"ĠshanĠxiĠ":10781,"douĠzaiĠ":10782,"tiaoĠjieĠ":10783,"zhangĠfuĠ":10784,"tuĠjingĠ":10785,"cunĠluoĠ":10786,"yiĠshiĠdeĠ":10787,"ĠyiĠshengĠ":10788,"zhongĠyao":10789,"guĠdingĠ":10790,"feiĠerĠdeĠ":10791,"kaiĠshiĠzaiĠ":10792,"Ġ10Ġ":10793,"ĠmuĠqian":10794,"Ġshen":10795,"Ġ24":10796,"sheĠxianĠ":10797,"suoĠchuĠdeĠhaiĠbaĠweiĠgaoĠyuĠhaiĠpingĠmianĠ":10798,"ziĠshenĠ":10799,"biaoĠbenĠ":10800,"shangĠdiĠ":10801,"teĠjiĠ":10802,"daĠbuĠfen":10803,"xiangĠtongĠdeĠ":10804,"changĠjingĠ":10805,"ĠĠĠanĠ":10806,"Ġlv":10807,"liĠdeĠ":10808,"suoĠzaiĠdiĠ":10809,"duanĠshiĠjianĠ":10810,"xiĠwangĠ":10811,"tiĠxingĠ":10812,"yongĠleĠ":10813,"zhanĠyuĠ":10814,"shenĠhuaĠ":10815,"ĠerĠdeĠ":10816,"ĠluoĠmaĠ":10817,"laiĠsiĠ":10818,"haoĠshiĠ":10819,"ĠguoĠneiĠ":10820,"luoĠfaĠ":10821,"tuiĠxiuĠ":10822,"geĠyuĠ":10823,"seĠfuĠ":10824,"ĠzaiĠtaĠ":10825,"xiĠlaĠ":10826,"yinĠxiangĠ":10827,"jueĠduiĠ":10828,"ĠdeĠjiĠluĠ":10829,"kaoĠguĠ":10830,"quĠzhuĠ":10831,"jingĠgaoĠ":10832,"zuĠcheng":10833,"yeĠyiĠ":10834,"qianĠdingĠ":10835,"ĠĠĠinĠĠĠ":10836,"ĠheĠdaoĠ":10837,"ĠĠĠmaĠ":10838,"bianĠyiĠ":10839,"xuanĠzhongĠ":10840,"zuĠqiuĠduiĠ":10841,"Ġsa":10842,"ĠlunĠ":10843,"yanĠrenĠ":10844,"ĠliĠchengĠ":10845,"ĠyouĠzaiĠ":10846,"ĠzhongĠdianĠ":10847,"yanĠheĠ":10848,"benĠrenĠ":10849,"ĠĠĠfor":10850,"ĠĠĠdiĠyiĠ":10851,"xiaoĠyuĠ":10852,"sanĠrenĠ":10853,"huĠxiangĠ":10854,"kongĠxiĠ":10855,"ĠnianĠshiĠjieĠ":10856,"ĠzhiĠshuĠ":10857,"diĠquĠdeĠ":10858,"ĠxiangĠguanĠ":10859,"ĠluĠwa":10860,"pĠ":10861,"caiĠnengĠ":10862,"ĠnaĠme":10863,"Ġ2023":10864,"ĠĠĠ2008":10865,"guanĠyiĠ":10866,"ĠqiĠxuanĠ":10867,"biĠxu":10868,"Ġ2016ĠnianĠ":10869,"gongĠyingĠ":10870,"qingĠjieĠ":10871,"canĠxuanĠ":10872,"ĠshiĠbuĠ":10873,"diĠxiaĠ":10874,"Ġmu":10875,"ĠshiĠjiaĠ":10876,"jianĠkangĠ":10877,"Ġhei":10878,"shangĠjiĠ":10879,"quanĠyiĠ":10880,"ziĠxun":10881,"yanĠzhongĠdeĠ":10882,"haiĠyangĠ":10883,"ĠshouĠdaoĠ":10884,"zaiĠyiĠqiĠ":10885,"faĠyiĠ":10886,"daiĠweiĠ":10887,"dengĠzhiĠ":10888,"tuĠjiĠ":10889,"ĠmaĠlai":10890,"Ġ2007":10891,"faĠshengĠzaiĠ":10892,"zhenĠquĠdeĠmianĠjiĠweiĠ":10893,"ĠgongĠbuĠ":10894,"ĠbeiĠchengĠweiĠ":10895,"naĠxieĠ":10896,"ĠchaoĠxianĠ":10897,"ĠĠĠxingĠ":10898,"zhongĠyiĠyuanĠ":10899,"yinĠyuĠ":10900,"zhouĠliĠ":10901,"kaiĠdeĠ":10902,"1978ĠnianĠ":10903,"huaĠjiaĠ":10904,"yanĠjiĠ":10905,"sheĠzaiĠ":10906,"ruĠweiĠ":10907,"feiĠyanĠ":10908,"ĠĠĠ2":10909,"ziĠchanĠ":10910,"Ġkan":10911,"ĠdianĠshiĠ":10912,"shuĠbuĠ":10913,"dingĠliĠ":10914,"shuaiĠlingĠ":10915,"ĠshouĠciĠ":10916,"Ġguang":10917,"qianĠxiĠ":10918,"ĠweiĠchiĠ":10919,"heĠliuĠ":10920,"ĠlianĠheĠ":10921,"beiĠsiĠ":10922,"sheĠjiĠshiĠ":10923,"ĠdaoĠluĠ":10924,"guiĠmo":10925,"neiĠdiĠ":10926,"yanĠseĠ":10927,"cheĠchangĠ":10928,"jueĠsai":10929,"ĠyuanĠmingĠ":10930,"ĠshiĠchengĠ":10931,"pingĠguĠ":10932,"kaĠlaĠ":10933,"Ġ2ĠyueĠ":10934,"baoĠluoĠ":10935,"tiĠgongĠleĠ":10936,"zhengĠbianĠ":10937,"zuĠqiuĠjuĠleĠbuĠ":10938,"ĠshiĠerĠ":10939,"mianĠdianĠ":10940,"ĠzuiĠgaoĠ":10941,"zhuĠzhongĠ":10942,"tuĠshuĠ":10943,"huaĠzaiĠ":10944,"ĠyiĠdongĠ":10945,"liuĠxiaĠ":10946,"Ġshao":10947,"ĠĠĠC":10948,"tiĠheĠ":10949,"ĠshiĠtaĠ":10950,"ĠĠĠran":10951,"yangĠxingĠ":10952,"tuiĠjianĠ":10953,"ĠerĠfeiĠ":10954,"shuĠzaiĠ":10955,"pingĠguoĠ":10956,"duoĠnianĠ":10957,"wuĠguanĠ":10958,"baoĠcunĠ":10959,"zuiĠduoĠ":10960,"chuanĠtongĠdeĠ":10961,"Ġju":10962,"chengĠzaiĠ":10963,"bingĠyuĠ":10964,"ĠzhongĠxingĠ":10965,"beiĠfangĠ":10966,"duiĠyingĠ":10967,"wanĠzhengĠ":10968,"zhuanĠmenĠ":10969,"zaoĠshangĠ":10970,"gengĠxinĠ":10971,"fangĠjiĠ":10972,"langĠzhongĠ":10973,"juĠfengĠ":10974,"pingĠlun":10975,"qianĠyueĠ":10976,"tianĠhouĠ":10977,"keĠnengĠhuiĠ":10978,"ĠĠĠmeiĠ":10979,"chuĠbuĠ":10980,"xieĠshiĠ":10981,"yangĠjiĠ":10982,"diĠwuĠ":10983,"faĠmingĠ":10984,"shangĠxianĠ":10985,"daiĠlingĠ":10986,"pianĠzhongĠ":10987,"ĠzaĠzhiĠ":10988,"miaoĠhuiĠ":10989,"ĠgongĠgongĠ":10990,"bianĠjingĠ":10991,"cengĠdeĠ":10992,"zanĠzhuĠ":10993,"ĠdiĠqiuĠ":10994,"jiuĠyuanĠ":10995,"bĠ":10996,"zhongĠguoĠdaĠluĠ":10997,"Ġ18":10998,"Ġ2019ĠnianĠ":10999,"qingĠrenĠ":11000,"ĠdaĠbuĠfen":11001,"ĠzuĠzhiĠ":11002,"yinĠyue":11003,"baĠsiĠ":11004,"jueĠyuĠ":11005,"zuiĠzao":11006,"liaoĠdeĠ":11007,"ĠnianĠdaoĠ":11008,"muĠsiĠlinĠ":11009,"ĠqiĠcheĠ":11010,"tongĠxunĠ":11011,"ĠfuĠzeĠguanĠxiaĠ":11012,"ĠjueĠdingĠ":11013,"xueĠzhongĠ":11014,"shunĠliĠ":11015,"ĠzhiĠwaiĠ":11016,"guanĠceĠ":11017,"xieĠzuoĠ":11018,"Ġsang":11019,"liĠziĠ":11020,"jinĠriĠ":11021,"changĠshangĠ":11022,"luoĠshanĠjiĠ":11023,"ĠnuoĠ":11024,"xingĠzaiĠ":11025,"shuangĠdaĠ":11026,"huiĠguiĠ":11027,"leĠdeĠ":11028,"sanĠbuĠ":11029,"fengĠdeĠ":11030,"ĠjiĠxu":11031,"baĠdaĠ":11032,"quĠjianĠ":11033,"ĠshanĠdongĠ":11034,"beiĠrenĠmingĠweiĠ":11035,"3ĠnianĠ":11036,"zhouĠheĠ":11037,"daĠlouĠ":11038,"juĠban":11039,"ĠR":11040,"ĠĠĠ1":11041,"ĠĠĠduiĠ":11042,"gaiĠzhiĠweiĠ":11043,"luoĠliĠdaĠ":11044,"juĠbenĠ":11045,"shouĠquanĠ":11046,"Ġ2017ĠnianĠ":11047,"14Ġ":11048,"jiaoĠduĠ":11049,"ĠdanĠyiĠ":11050,"ĠdeĠshiĠyongĠ":11051,"piĠzhun":11052,"juĠzaiĠ":11053,"zhangĠzhuanĠjiĠ":11054,"linĠsiĠ":11055,"renĠleiĠ":11056,"tianĠzhuĠ":11057,"ĠyanĠjiuĠ":11058,"ĠĠĠ3":11059,"ĠĠĠdongĠ":11060,"gaoĠshiĠ":11061,"fuĠxingĠ":11062,"xiaoĠyingĠ":11063,"ĠdaoĠyanĠ":11064,"Ġ2018ĠnianĠ":11065,"xiaĠzaiĠ":11066,"huaiĠyiĠ":11067,"zhangĠziĠ":11068,"huĠlianĠ":11069,"zaoĠchengĠdeĠ":11070,"ĠshiĠjianĠzhuĠ":11071,"duiĠzhongĠ":11072,"jiangĠyiĠ":11073,"ĠliĠliangĠ":11074,"ĠdiĠdiĠ":11075,"Ġtang":11076,"aoĠerĠ":11077,"hanĠdeĠ":11078,"zhanĠmuĠsiĠ":11079,"luĠzhanĠ":11080,"aiĠliĠ":11081,"ĠĠĠdanĠ":11082,"yeĠjiĠ":11083,"shouĠboĠ":11084,"zhouĠyiĠ":11085,"yunĠyongĠ":11086,"guoĠneiĠ":11087,"ĠpuĠtaoĠ":11088,"ĠchunĠ":11089,"ĠĠĠnanĠ":11090,"ĠĠĠgeĠrenĠ":11091,"bianĠzhiĠ":11092,"1958ĠnianĠ":11093,"ĠyouĠzhuĠ":11094,"ĠbiĠsaiĠ":11095,"ĠciĠnianĠ":11096,"2ĠgeĠ":11097,"guanĠjiĠ":11098,"canĠyiĠ":11099,"kaoĠshiĠ":11100,"1972ĠnianĠ":11101,"ĠgongĠnengĠ":11102,"ĠweiĠyuĠzhongĠguoĠ":11103,"yunĠdeĠ":11104,"ĠbingĠbeiĠ":11105,"mianĠfeiĠ":11106,"xingĠmuĠ":11107,"ĠxinĠwenĠ":11108,"ĠyingĠwenĠ":11109,"ĠĠĠ2009":11110,"daoĠzaiĠ":11111,"minĠzu":11112,"ĠaiĠerĠ":11113,"banĠjiĠ":11114,"sheĠjiaoĠ":11115,"leiĠsiĠdeĠ":11116,"ĠgaiĠbianĠ":11117,"yaoĠshiĠ":11118,"dingĠjiĠ":11119,"1979ĠnianĠ":11120,"qiangĠduĠ":11121,"ĠmingĠzhiĠ":11122,"baĠerĠ":11123,"suĠliĠ":11124,"ĠdiĠyaĠ":11125,"xinĠguanĠ":11126,"ĠshiĠyiĠbuĠ":11127,"ĠweiĠyiĠ":11128,"ĠdeĠhuaĠ":11129,"ĠyiĠgongĠ":11130,"queĠshiĠ":11131,"xueĠkeĠ":11132,"hĠ":11133,"touĠxianĠ":11134,"cuĠ":11135,"ĠzhiĠbuĠ":11136,"juĠbanĠdeĠ":11137,"xingĠzhengĠquĠ":11138,"ĠceĠ":11139,"chuĠzhangĠ":11140,"ĠĠĠzengĠzuĠ":11141,"jiaoĠchaĠ":11142,"miĠniĠ":11143,"naĠxiaĠ":11144,"ĠhouĠzheĠ":11145,"ĠĠĠaĠĠĠ":11146,"zhengĠjiĠ":11147,"ĠrenĠweiĠshiĠ":11148,"taiĠhouĠ":11149,"ĠshiĠyiĠkeĠ":11150,"xinĠjiaĠpo":11151,"zongĠyiĠ":11152,"ganĠyuĠ":11153,"ĠweiĠbeiĠ":11154,"faĠxianĠdeĠ":11155,"taiĠkongĠ":11156,"xueĠliĠ":11157,"luoĠyuĠ":11158,"shaoĠdeĠ":11159,"diĠqiĠ":11160,"ĠtaĠmenĠzaiĠ":11161,"faĠliĠ":11162,"maĠshiĠ":11163,"yangĠxianĠ":11164,"tiĠchuĠdeĠ":11165,"nengĠyuanĠ":11166,"Ġ2006":11167,"ĠĠĠhouĠ":11168,"baiĠyuĠ":11169,"xiĠnanĠbuĠ":11170,"fuĠshuĠ":11171,"ĠshiĠshiĠyongĠ":11172,"teĠquĠ":11173,"ĠweiĠfuĠqiĠyuĠgang":11174,"zongĠrenĠkouĠ":11175,"fuĠzhuĠ":11176,"ĠxiĠyinĠ":11177,"qingĠzhuĠ":11178,"ĠxuĠyaoĠ":11179,"xueĠjiĠ":11180,"muĠyuĠ":11181,"ĠliangĠgeĠ":11182,"jiangĠliĠ":11183,"pinĠdeĠ":11184,"tongĠxinĠ":11185,"ĠxiangĠmuĠ":11186,"ĠmaĠliĠ":11187,"ĠqiĠbingĠ":11188,"ĠdaĠjiangĠ":11189,"Ġshui":11190,"Ġmao":11191,"Ġ2004ĠnianĠ":11192,"lieĠshiĠ":11193,"jinĠrong":11194,"shangĠwangĠ":11195,"aĠgenĠ":11196,"suiĠran":11197,"wuĠzhengĠzhuangĠganĠranĠzheĠ":11198,"xingĠshiĠdeĠ":11199,"ĠyiĠqianĠ":11200,"meiĠjunĠ":11201,"zhuanĠxieĠ":11202,"Ġ2021ĠnianĠ":11203,"chuanĠmeiĠ":11204,"xianĠzhiĠxianĠ":11205,"ĠbuĠdaoĠ":11206,"xiangĠfaĠ":11207,"leĠzhongĠ":11208,"zheĠheĠ":11209,"jiaoĠhuanĠ":11210,"xunĠlian":11211,"ĠbangĠ":11212,"ĠzhuanĠjiĠ":11213,"dianĠweiĠ":11214,"touĠdeĠ":11215,"ĠdiĠzaiĠ":11216,"canĠtingĠ":11217,"miĠsiĠ":11218,"luoĠshiĠ":11219,"mianĠyiĠ":11220,"zuĠjieĠ":11221,"ĠdeĠyiĠyuanĠ":11222,"PĠ":11223,"xianĠliĠ":11224,"baĠdeĠ":11225,"ĠyouĠliangĠ":11226,"ĠchuĠbanĠ":11227,"Ġ7Ġ":11228,"ĠĠĠF":11229,"cheĠdiĠ":11230,"luoĠchengĠ":11231,"yuanĠxianĠ":11232,"ĠĠĠB":11233,"minĠyiĠ":11234,"30Ġ":11235,"xinĠjianĠ":11236,"huoĠcheĠ":11237,"huangĠseĠ":11238,"Ġpeng":11239,"Ġ2020ĠnianĠ":11240,"ĠBĠ":11241,"xuanĠju":11242,"ĠzhongĠshanĠ":11243,"huoĠbiĠ":11244,"duanĠpianĠ":11245,"ĠĠĠshiĠyongĠ":11246,"Ġsai":11247,"teĠdianĠ":11248,"ouĠxiangĠ":11249,"zhouĠrenĠ":11250,"siĠdaĠ":11251,"buĠdeĠcunĠzhuangĠ":11252,"chuanĠqiĠ":11253,"suiĠzheĠ":11254,"zhaĠdanĠ":11255,"zhengĠquĠ":11256,"gaoĠduĠweiĠ":11257,"linĠjinĠ":11258,"qiĠlaiĠ":11259,"faĠsheng":11260,"lianĠluoĠ":11261,"ĠcaiĠyongĠ":11262,"ĠĠĠbaĠ":11263,"duĠguoĠ":11264,"xinĠjiangĠ":11265,"chiĠxu":11266,"Ġtao":11267,"zhangĠzhiĠ":11268,"laiĠyuĠ":11269,"chengĠleĠ":11270,"ĠhuoĠshiĠ":11271,"kaiĠgongĠ":11272,"WindowsĠĠĠ":11273,"geĠguoĠ":11274,"ĠcunĠ":11275,"xiĠyouĠ":11276,"huiĠweiĠ":11277,"shenĠyiĠ":11278,"1960ĠnianĠ":11279,"guoĠminĠdangĠ":11280,"xiĠbeiĠbuĠ":11281,"lingĠchenĠ":11282,"ĠshuangĠfangĠ":11283,"duiĠjiĠ":11284,"qiĠzhongĠ":11285,"ĠheĠpanĠ":11286,"chengĠjiuĠ":11287,"ĠdanĠyinĠ":11288,"gongĠyuanĠqianĠ":11289,"xianĠzhongĠ":11290,"dangĠnianĠ":11291,"shanĠmaiĠ":11292,"ĠtaĠheĠ":11293,"jingĠneiĠgongĠyouĠ":11294,"zuiĠdiĠ":11295,"ĠdaĠjiaĠ":11296,"oĠ":11297,"ĠgeĠleiĠ":11298,"ĠtongĠyiĠ":11299,"ĠzhaoĠheĠ":11300,"Ġlei":11301,"taĠyiĠ":11302,"1980ĠnianĠdaiĠ":11303,"xinĠjieĠ":11304,"laiĠyinĠ":11305,"sanĠmingĠ":11306,"xiaoĠliĠyuĠ":11307,"muĠerĠ":11308,"1976ĠnianĠ":11309,"jiangĠshuĠ":11310,"bingĠduĠ":11311,"ĠgeĠerĠ":11312,"ĠĠĠdaoĠ":11313,"chengĠzhiĠweiĠ":11314,"wuĠdiĠ":11315,"shengĠdaoĠ":11316,"guĠlaĠ":11317,"huoĠzaiĠ":11318,"sanĠzhongĠ":11319,"ĠgongĠqingĠ":11320,"lieĠchuĠ":11321,"ĠlingĠwai":11322,"biĠliĠshiĠ":11323,"daĠxiaoĠ":11324,"faĠtingĠ":11325,"yeĠfuĠ":11326,"chuĠbanĠsheĠ":11327,"yangĠgongĠ":11328,"baiĠkeĠ":11329,"chengĠquĠ":11330,"ĠerĠgaiĠdiĠdeĠ":11331,"jinĠyuĠ":11332,"meiĠguo":11333,"ciĠdiĠ":11334,"1920ĠnianĠ":11335,"qiĠhouĠ":11336,"huoĠshengĠ":11337,"ĠĠĠdan":11338,"ĠĠĠRe":11339,"daoĠyouĠ":11340,"gangĠkouĠ":11341,"Ġruan":11342,"chaiĠ":11343,"jianĠduĠ":11344,"ĠĠĠgaiĠyaoĠ":11345,"ĠliĠfuĠ":11346,"henĠkuaiĠ":11347,"xiuĠdaoĠ":11348,"shuĠchuĠ":11349,"ĠjinĠshiĠ":11350,"duiĠdiĠ":11351,"haiĠzaiĠ":11352,"ĠheĠliuĠ":11353,"qianĠjinĠ":11354,"zuiĠzaoĠ":11355,"aoĠdeĠ":11356,"yaĠrenĠ":11357,"pinĠzhongĠ":11358,"1990ĠnianĠdaiĠ":11359,"ĠyiĠbianĠ":11360,"shouĠbuĠ":11361,"shenĠyuĠ":11362,"queĠbaoĠ":11363,"ĠheĠfuĠ":11364,"ĠjiaĠlaĠ":11365,"ĠxianĠdaiĠ":11366,"jiuĠzaiĠ":11367,"jingĠguanĠ":11368,"tiĠdaiĠ":11369,"maĠtouĠ":11370,"senĠlin":11371,"anĠliĠ":11372,"ĠĠĠtianĠ":11373,"wangĠwangĠ":11374,"ĠdeĠshiĠjiĠ":11375,"ĠĠĠO":11376,"ĠĠĠshouĠ":11377,"ĠxianĠweiĠ":11378,"kuoĠjianĠ":11379,"jiaoĠtang":11380,"ĠtaĠrenĠweiĠ":11381,"dianĠshiĠjieĠ":11382,"qunĠtiĠ":11383,"ĠyueĠduiĠ":11384,"ĠxiĠtongĠdeĠ":11385,"bianĠyuanĠ":11386,"Ġ2002ĠnianĠ":11387,"congĠweiĠ":11388,"jieĠduan":11389,"xiangĠyingĠ":11390,"quĠfenĠ":11391,"qianĠtingĠ":11392,"ĠdeĠyiĠxieĠ":11393,"seĠlie":11394,"ĠĠĠjiaĠtingĠ":11395,"wangĠweiĠ":11396,"yunĠdongĠdeĠ":11397,"suĠlian":11398,"ĠtaĠyouĠ":11399,"ĠzuiĠchuĠ":11400,"ĠliĠliĠ":11401,"ĠheĠqiĠtaĠ":11402,"ĠqiĠheĠ":11403,"pingĠyuanĠ":11404,"ĠĠĠwangĠ":11405,"changĠjiĠ":11406,"hanĠziĠ":11407,"wuĠshuĠ":11408,"leĠyuanĠ":11409,"ĠzhongĠguoĠrenĠminĠjieĠfangĠjunĠ":11410,"Ġbao":11411,"ĠsunĠ":11412,"17Ġ":11413,"bingĠfeiĠ":11414,"xingĠyouĠ":11415,"19Ġ":11416,"yongĠzaiĠ":11417,"maĠkeĠsiĠ":11418,"ĠnianĠqingĠ":11419,"wuĠzhuang":11420,"beiĠdaĠ":11421,"yeĠkeĠyiĠ":11422,"fenĠpeiĠ":11423,"saiĠerĠweiĠ":11424,"daĠshiĠguanĠ":11425,"tieĠluĠcheĠzhanĠ":11426,"riĠbenĠdeĠ":11427,"zanĠtingĠ":11428,"eĠguoĠ":11429,"zanĠshiĠ":11430,"ĠbuĠsiĠ":11431,"faĠjiĠ":11432,"duiĠheĠ":11433,"laĠweiĠ":11434,"chengĠweiĠyiĠ":11435,"gengĠduoĠdeĠ":11436,"ĠĠĠliuĠ":11437,"duoĠerĠ":11438,"shangĠzhenĠ":11439,"yaĠmuĠ":11440,"Ġ1970":11441,"suiĠranĠ":11442,"tanĠheĠ":11443,"duiĠfangĠ":11444,"dengĠchangĠ":11445,"aĠlaĠbo":11446,"xuanĠshiĠ":11447,"yeĠshengĠyaĠ":11448,"canĠshuĠ":11449,"tuiĠguangĠ":11450,"leĠyiĠxieĠ":11451,"xuĠjiĠ":11452,"guiĠfanĠ":11453,"bangĠqiuĠ":11454,"douĠbeiĠ":11455,"yeĠshengĠ":11456,"qianĠshenĠ":11457,"zeĠdongĠ":11458,"bingĠzaiĠ":11459,"yunĠheĠ":11460,"lanĠyuĠ":11461,"siĠlanĠ":11462,"ĠjieĠshuĠ":11463,"zhangĠjiĠ":11464,"yeĠjianĠ":11465,"maiĠdeĠ":11466,"faĠdongĠjiĠ":11467,"yongĠjiĠ":11468,"wenĠjiĠ":11469,"beiĠjing":11470,"dongĠxianĠ":11471,"changĠduĠ":11472,"banĠyanĠ":11473,"banĠjiangĠ":11474,"kaoĠlv":11475,"buĠdeĠbuĠ":11476,"Ġ30Ġ":11477,"nongĠcun":11478,"xingĠliĠ":11479,"zheĠzhiĠ":11480,"huangĠjinĠ":11481,"peiĠbeiĠ":11482,"zhongĠbuĠ":11483,"chuĠziĠ":11484,"lvĠseĠ":11485,"shanĠdiĠ":11486,"daĠdiĠ":11487,"fuĠhaoĠ":11488,"changĠbiĠsaiĠ":11489,"sheĠdingĠ":11490,"tuĠxiangĠ":11491,"nanĠsiĠ":11492,"qiuĠshiĠ":11493,"ĠzaiĠyouĠ":11494,"dengĠyuĠ":11495,"ĠzhongĠjianĠ":11496,"ĠziĠyuanĠ":11497,"anĠjiĠ":11498,"ĠĠĠchengĠ":11499,"duĠjiĠ":11500,"50Ġ":11501,"ĠqiĠdongĠ":11502,"xieĠshangĠ":11503,"beiĠliĠ":11504,"chenĠjiĠ":11505,"shuaiĠling":11506,"fuĠza":11507,"riĠbaoĠ":11508,"leĠdiĠ":11509,"1956ĠnianĠ":11510,"ĠguoĠgongĠ":11511,"ĠxiĠanĠ":11512,"yanĠjingĠ":11513,"fenĠzhiĠyiĠ":11514,"junĠbuĠ":11515,"ĠyouĠtaiĠ":11516,"jinĠquĠ":11517,"Ġlai":11518,"cengĠshiĠ":11519,"weiĠyuanĠ":11520,"xiaoĠjieĠ":11521,"chuangĠzuoĠdeĠ":11522,"ĠdeĠjiĠhuaĠ":11523,"ĠH":11524,"zhuanĠweiĠ":11525,"zhuĠdaoĠ":11526,"zhengĠshuĠ":11527,"haoĠpingĠ":11528,"ĠshiĠshiĠjiĠ":11529,"1964ĠnianĠ":11530,"xianĠruĠ":11531,"fanĠying":11532,"quĠzhongĠ":11533,"zheĠyangĠ":11534,"lianĠsai":11535,"ĠdanĠquĠ":11536,"ĠĠĠzhangĠ":11537,"zeĠyuĠ":11538,"sectionĠĠĠ":11539,"ĠyiĠkeĠ":11540,"teĠlaĠ":11541,"ĠĠĠofĠĠĠtheĠĠĠ":11542,"ĠjianĠliĠ":11543,"ĠzhiĠchi":11544,"xingĠdong":11545,"xianĠzhuĠ":11546,"qingĠchaoĠ":11547,"ĠshiĠshiĠshangĠ":11548,"ĠlianĠjieĠ":11549,"ĠpianĠ":11550,"wuĠyouĠ":11551,"chaiĠyouĠjiĠ":11552,"ĠzhiĠhou":11553,"zhongĠhuaĠminĠguoĠ":11554,"ĠqiĠxiĠzaiĠ":11555,"zongĠjianĠ":11556,"canĠjia":11557,"ĠfenĠbieĠ":11558,"ĠpinĠ":11559,"zhongĠyiĠgeĠ":11560,"chuĠzhongĠ":11561,"ĠzaiĠheĠ":11562,"guĠdianĠ":11563,"dengĠshiĠ":11564,"1968ĠnianĠ":11565,"ĠzaiĠneiĠdeĠ":11566,"baoĠchi":11567,"ĠsiĠdaĠ":11568,"ĠdanĠqiĠ":11569,"mianĠtiĠ":11570,"1ĠgeĠ":11571,"ĠsectionĠĠĠ":11572,"quanĠjiĠ":11573,"cheĠshiĠ":11574,"shaĠdeĠ":11575,"ĠshiĠbingĠ":11576,"dangĠtianĠ":11577,"daiĠbiaoĠtuanĠ":11578,"zhanĠweiĠyuĠ":11579,"hangĠyeĠ":11580,"xiangĠqiĠ":11581,"shouĠshuĠ":11582,"laiĠnaĠ":11583,"xuanĠchengĠ":11584,"zongĠzhiĠ":11585,"ĠyiĠnian":11586,"changĠdaĠ":11587,"liangĠheĠ":11588,"lieĠsiĠ":11589,"fuĠmuĠ":11590,"tuĠchuĠ":11591,"1ĠhaoĠ":11592,"ĠshiĠrenĠminĠ":11593,"ĠSĠ":11594,"ĠzuiĠjiaĠ":11595,"duiĠzhiĠ":11596,"biaoĠjiĠ":11597,"juĠmin":11598,"haiĠshangĠ":11599,"ĠqiĠzhongĠnanĠxingĠ":11600,"xieĠweiĠ":11601,"yanĠlunĠ":11602,"fenĠsiĠ":11603,"jiangĠyouĠ":11604,"waiĠweiĠ":11605,"raoĠtaiĠ":11606,"ĠzhongĠqiĠ":11607,"ĠguoĠwuĠyuanĠ":11608,"xiaoĠliangĠ":11609,"Ġfou":11610,"ĠĠĠT":11611,"zhanĠweiĠ":11612,"ĠliĠgongĠ":11613,"shenĠzhenĠ":11614,"ĠjinĠshuĠ":11615,"moĠniĠ":11616,"baĠgeĠ":11617,"niaoĠleiĠ":11618,"changĠjiangĠ":11619,"ĠxingĠjianĠ":11620,"ĠliuĠyuĠ":11621,"ĠĠĠgenĠjuĠ2020ĠnianĠmeiĠguoĠrenĠkouĠpuĠchaĠdeĠshuĠjuĠ":11622,"puĠtaoĠyaĠ":11623,"ĠĠĠjingĠjiĠ":11624,"quĠyouĠ":11625,"luĠyiĠsiĠ":11626,"baiĠzhiĠ":11627,"geĠjuĠ":11628,"ĠquĠdeĠ":11629,"xiaĠdiĠquĠ":11630,"niĠxiĠyaĠ":11631,"teĠheĠ":11632,"1981ĠnianĠ":11633,"geĠlaĠ":11634,"jinĠzhanĠ":11635,"xiaoĠxiangĠ":11636,"laiĠziĠyuĠ":11637,"ĠjinĠru":11638,"ĠĠĠranĠerĠ":11639,"buĠmenĠ":11640,"xianĠdai":11641,"jiaoĠtong":11642,"Ġ2024":11643,"ĠĠĠ2019ĠnianĠ":11644,"haĠliĠ":11645,"ĠbingĠbuĠ":11646,"zhongĠguoĠrenĠminĠ":11647,"zaiĠyiĠgeĠ":11648,"gongĠyueĠ":11649,"biĠerĠ":11650,"haiĠdiĠ":11651,"chuĠxianĠdeĠ":11652,"ĠdaĠerĠ":11653,"feiĠyongĠ":11654,"Ġ2000ĠnianĠ":11655,"jiaoĠdiĠ":11656,"wanĠliĠ":11657,"ĠyiĠheĠ":11658,"kuoĠzhangĠ":11659,"dangĠzaiĠ":11660,"teĠĠĠ":11661,"ziĠbenĠ":11662,"cheĠduiĠ":11663,"guaiĠ":11664,"ĠyiĠmeiĠ":11665,"ĠjiangĠsuĠ":11666,"Ġ2005":11667,"ĠĠĠyueĠ":11668,"huoĠliĠ":11669,"qiongĠ":11670,"ĠzhiĠjingĠ":11671,"ĠweiĠyuanĠhuiĠweiĠyuanĠ":11672,"shuĠdeĠzhiĠwuĠ":11673,"tianĠjiaĠ":11674,"ĠzaiĠbuĠ":11675,"keĠyunĠ":11676,"jiaoĠzuoĠ":11677,"xuanĠchuan":11678,"feiĠlvĠbin":11679,"ĠyiĠdaĠ":11680,"ĠzhongĠwenĠ":11681,"wuĠgeĠ":11682,"luĠshangĠ":11683,"xuanĠjuĠzhongĠ":11684,"ĠĠĠqiĠzhongĠ":11685,"ĠjiĠjinĠhuiĠ":11686,"Ġ1946":11687,"beiĠyueĠ":11688,"xueĠyeĠ":11689,"ĠfuĠqin":11690,"wanĠquan":11691,"ĠshiĠdeĠshiĠ":11692,"ĠbaoĠhuĠ":11693,"ĠguanĠfangĠ":11694,"gongĠzuoĠshiĠ":11695,"shenĠkeĠ":11696,"chaĠshiĠ":11697,"woĠerĠ":11698,"hantĠ":11699,"wenĠti":11700,"nanĠjiĠzhouĠdeĠ":11701,"fengĠshiĠ":11702,"1948ĠnianĠ":11703,"xianĠshengĠ":11704,"huiĠdaĠ":11705,"ĠdaĠlouĠ":11706,"teĠleiĠ":11707,"chengĠliĠhouĠ":11708,"ĠĠĠ2007":11709,"dingĠxingĠ":11710,"ĠyouĠsuoĠ":11711,"zhanĠshuĠ":11712,"shaoĠnvĠ":11713,"yuanĠzhuĠminĠ":11714,"guĠfenĠyouĠxianĠgongĠsiĠ":11715,"ĠniuĠ":11716,"ĠhantĠ":11717,"ĠyiĠxiangĠ":11718,"ĠheĠyueĠ":11719,"ĠdiĠtuĠ":11720,"duiĠkangĠ":11721,"ĠĠĠguangĠ":11722,"houĠjiĠ":11723,"ganĠdeĠ":11724,"ĠguoĠjiaĠdeĠ":11725,"1Ġri":11726,"ĠqianĠwangĠ":11727,"reĠdaiĠfengĠbaoĠ":11728,"huĠxiĠ":11729,"wangĠjiĠ":11730,"chuĠchangĠ":11731,"canĠkao":11732,"yaĠzhongĠ":11733,"zuĠrenĠ":11734,"duoĠliĠyaĠ":11735,"haoĠyouĠ":11736,"shuiĠdeĠ":11737,"touĠbuĠ":11738,"baoĠzha":11739,"xinĠtaiĠ":11740,"ĠtouĠguoĠ":11741,"bieĠdeĠ":11742,"yuanĠbenĠ":11743,"zheĠyangĠdeĠ":11744,"ĠshiĠyiĠzhiĠ":11745,"naĠshengĠ":11746,"ĠshiĠfaĠ":11747,"ĠbingĠmeiĠyouĠ":11748,"ĠĠĠjiangĠ":11749,"niangĠ":11750,"ĠyuĠdiĠ":11751,"beiĠpoĠ":11752,"zongĠcaiĠ":11753,"xianĠdeĠyiĠgeĠfeiĠjianĠzhiĠdiĠquĠ":11754,"ĠyiĠxueĠ":11755,"jiaoĠjieĠ":11756,"ĠdaoĠdaĠ":11757,"baiĠwanĠ":11758,"Ġ200":11759,"Ġwa":11760,"ĠdiaoĠ":11761,"Ġ2022ĠnianĠ":11762,"faĠheĠ":11763,"dingĠzaiĠ":11764,"keĠluoĠ":11765,"zhengĠmianĠ":11766,"zhuanĠyongĠ":11767,"luoĠyiĠ":11768,"zongĠgongĠ":11769,"menĠshiĠ":11770,"nuoĠyiĠ":11771,"ĠnianĠlingĠ":11772,"ĠbuĠneng":11773,"keĠerĠ":11774,"fangĠmiĠ":11775,"yanĠjiangĠ":11776,"ĠsiĠtaĠ":11777,"ĠshiĠyiĠzuoĠ":11778,"ganĠxianĠ":11779,"1952ĠnianĠ":11780,"ĠleĠ":11781,"xiangĠmu":11782,"luĠwa":11783,"liangĠziĠ":11784,"cunĠzaiĠdeĠ":11785,"Ġyuan":11786,"ĠĠĠguĠ":11787,"1975ĠnianĠ":11788,"fuĠzhouĠ":11789,"jianĠkang":11790,"zhuĠceĠ":11791,"xianĠshangĠ":11792,"maĠlaiĠ":11793,"zhuangĠkuang":11794,"Ġ2003ĠnianĠ":11795,"zhanĠyouĠ":11796,"meiĠshiĠ":11797,"luĠkouĠ":11798,"wenĠtiĠdeĠ":11799,"mĠĠĠ":11800,"Ġpi":11801,"yingĠerĠ":11802,"1966ĠnianĠ":11803,"1947ĠnianĠ":11804,"ĠheĠqiĠ":11805,"sanĠciĠ":11806,"ĠzhuĠjianĠ":11807,"ĠfaĠzhanĠ":11808,"xueĠbuĠ":11809,"taiĠnanĠ":11810,"guangĠfan":11811,"KĠ":11812,"eĠweiĠ":11813,"ĠouĠzhouĠ":11814,"ĠyiĠwaiĠ":11815,"fuĠerĠ":11816,"zongĠhuiĠ":11817,"ĠpingĠtaiĠ":11818,"guoĠjiaĠduiĠ":11819,"Ġchao":11820,"ĠĠĠ3ĠyueĠ":11821,"liangĠbuĠ":11822,"zuoĠfaĠ":11823,"ĠĠĠfanĠ":11824,"ciĠquĠ":11825,"ĠshiĠyongĠleĠ":11826,"ĠdangĠshiĠdeĠ":11827,"haiĠbaĠgaoĠduĠweiĠ":11828,"chuanĠguoĠ":11829,"1937ĠnianĠ":11830,"xuanĠchuĠ":11831,"ĠxinĠzengĠ":11832,"ĠrenĠminĠbiĠ":11833,"jiaoĠyuĠbuĠ":11834,"ĠjiangĠqiĠ":11835,"ĠĠĠqiĠhouĠ":11836,"luĠheĠ":11837,"qunĠdeĠ":11838,"Ġxia":11839,"taĠrenĠ":11840,"jinĠzaiĠ":11841,"wangĠyuĠ":11842,"ĠyiĠchanĠ":11843,"anĠzhuang":11844,"leiĠxingĠdeĠ":11845,"ĠnianĠyiĠlaiĠ":11846,"fenĠbieĠweiĠ":11847,"ĠL":11848,"ĠtuanĠ":11849,"wangĠzhiĠ":11850,"waiĠxingĠ":11851,"genĠsuiĠ":11852,"xieĠdingĠ":11853,"ĠyouĠyiĠxieĠ":11854,"ĠchengĠliĠyuĠ":11855,"ĠĠĠI":11856,"banĠrenĠ":11857,"naĠheĠ":11858,"xingĠzheng":11859,"yanĠanĠ":11860,"ĠdeĠjiĠhuiĠ":11861,"ĠziĠjiĠ":11862,"ĠĠĠpingĠjiaĠ":11863,"wuĠzhongĠdeĠ":11864,"leĠduiĠ":11865,"zhanĠchangĠ":11866,"duĠhuiĠ":11867,"jiuĠyouĠ":11868,"ĠyiĠxingĠ":11869,"daĠguiĠmoĠ":11870,"shuĠmuĠ":11871,"sheĠyingĠ":11872,"gaoĠxiaoĠ":11873,"quanĠshuĠ":11874,"duanĠzan":11875,"qiaoĠliangĠ":11876,"ĠZ":11877,"Ġhua":11878,"ĠĠĠchuĠleĠ":11879,"chuĠguoĠ":11880,"shangĠheĠ":11881,"guoĠchengĠ":11882,"fenĠjieĠ":11883,"ĠkeĠluoĠ":11884,"ĠdanĠdeĠ":11885,"ĠshiĠyiĠdaĠliĠ":11886,"ĠtaĠjiĠ":11887,"geĠzaiĠ":11888,"duoĠshiĠ":11889,"tuanĠjieĠ":11890,"ĠdeĠyiĠmeiĠ":11891,"ĠzheĠyangĠ":11892,"cengĠshuiĠyuĠ":11893,"ĠriĠyouĠ":11894,"aĠfuĠ":11895,"ĠĠĠfaĠ":11896,"guangĠdeĠ":11897,"shouĠduanĠ":11898,"zhouĠbian":11899,"xiaĠyiĠxiaĠdiĠquĠ":11900,"yingĠxiangĠliĠ":11901,"xunĠyangĠjianĠ":11902,"puĠliĠ":11903,"ĠjiĠxingĠ":11904,"shouĠfaĠ":11905,"gongĠkaiĠsaiĠ":11906,"ĠyiĠerĠ":11907,"ĠfaĠshengĠ":11908,"zhuanĠdeĠxiaoĠxingĠxingĠ":11909,"Ġ8Ġ":11910,"ruĠyuĠ":11911,"pingĠjieĠ":11912,"boĠjueĠ":11913,"eĠdeĠ":11914,"faĠweiĠ":11915,"wangĠsiĠ":11916,"ĠdiĠdianĠ":11917,"juĠdaĠdeĠ":11918,"xunĠzhaoĠ":11919,"guoĠjiĠjiĠchangĠ":11920,"Ġgui":11921,"juĠzhiĠ":11922,"zheĠyuĠ":11923,"ĠyueĠheĠ":11924,"shaoĠjiangĠ":11925,"Ġshe":11926,"ĠĠĠ5ĠyueĠ":11927,"ĠĠĠzhuĠyaoĠ":11928,"xinĠzhongĠ":11929,"ĠdeĠshiĠwuĠ":11930,"zheĠjiangĠshengĠ":11931,"Ġzi":11932,"ĠzaiĠjinĠ":11933,"gongĠchengĠshiĠ":11934,"wangĠziĠ":11935,"shanĠdongĠshengĠ":11936,"Ġzhen":11937,"ĠĠĠluoĠ":11938,"houĠzhiĠ":11939,"cheĠdaoĠ":11940,"huangĠshiĠ":11941,"guoĠwuĠyuanĠ":11942,"zuiĠzaoĠdeĠ":11943,"ĠkeĠliĠ":11944,"siĠyouĠ":11945,"baoĠheĠ":11946,"ruĠyiĠ":11947,"ĠshiĠyueĠ":11948,"jianĠzhuĠwuĠ":11949,"ĠsanĠshiĠ":11950,"guoĠshiĠqiĠ":11951,"zuoĠyuĠ":11952,"ĠshiĠjiĠdeĠ":11953,"tiĠchuĠleĠ":11954,"aĠliĠ":11955,"ĠchuĠrenĠ":11956,"yuanĠben":11957,"mingĠjuĠrenĠ":11958,"jiangĠbeiĠ":11959,"Ġre":11960,"Ġchun":11961,"Ġhuai":11962,"houĠbuĠ":11963,"songĠdaoĠ":11964,"jiaĠmengĠ":11965,"wangĠshangĠ":11966,"yaoĠgun":11967,"zhengĠqiĠ":11968,"laĠerĠ":11969,"jianĠshe":11970,"jiaoĠfuĠ":11971,"pingĠjunĠhaiĠbaĠgaoĠduĠweiĠ":11972,"youĠrenĠgongĠ":11973,"zhanĠzaiĠ":11974,"buĠluoĠ":11975,"fuĠze":11976,"yinĠyongĠ":11977,"pingĠminĠ":11978,"ĠgaiĠweiĠ":11979,"ĠĠĠ3Ġ":11980,"daĠzaiĠ":11981,"1954ĠnianĠ":11982,"ĠweiĠfuĠqiĠyuĠgangĠ":11983,"yinĠzhongĠzaiĠ":11984,"faĠshengĠdeĠ":11985,"ĠdiĠliuĠ":11986,"duĠduĠ":11987,"ĠxianĠjinĠ":11988,"neiĠzhanĠ":11989,"xunĠqiuĠ":11990,"ĠerĠgaiĠdiĠdeĠpingĠjunĠhaiĠbaĠgaoĠduĠweiĠ":11991,"juĠweiĠ":11992,"yaĠzhiĠ":11993,"yangĠheĠ":11994,"ĠbuĠlaĠ":11995,"baoĠxianĠ":11996,"guĠfenĠ":11997,"liĠlunĠ":11998,"zhengĠshiĠqiĠ":11999,"ĠnianĠqiĠjianĠ":12000,"shengĠbuĠ":12001,"jiangĠzhongĠ":12002,"taiĠerĠ":12003,"songĠdeĠ":12004,"ĠzheĠciĠ":12005,"zaoĠshouĠ":12006,"ĠbiĠyeĠ":12007,"ĠhanĠzuĠ":12008,"2010ĠnianĠmeiĠguoĠrenĠkouĠpuĠchaĠdeĠshuĠjuĠ":12009,"shuoĠshiĠxueĠweiĠ":12010,"yinĠzhongĠzaiĠpeiĠ":12011,"yĠĠĠ":12012,"luoĠzaiĠ":12013,"shunĠshiĠ":12014,"ĠliĠxueĠ":12015,"qieĠerĠ":12016,"juĠtiĠ":12017,"ĠbaoĠdaoĠ":12018,"zengĠqiangĠ":12019,"ĠanĠdeĠ":12020,"daiĠyuĠ":12021,"baoĠzhaĠ":12022,"zuĠxieĠ":12023,"ganĠsuĠ":12024,"ĠxueĠshengĠ":12025,"anĠzhongĠ":12026,"ĠĠĠ2018ĠnianĠ":12027,"banĠyuĠ":12028,"biaoĠdeĠ":12029,"suoĠyiĠ":12030,"gongĠneng":12031,"qingĠxiangĠ":12032,"banĠciĠ":12033,"Ġ2000":12034,"yingĠdiĠ":12035,"shangĠdianĠ":12036,"yingĠzhanĠ":12037,"jiaoĠkeĠ":12038,"youĠrenĠgongĠyinĠzhongĠzaiĠpeiĠ":12039,"ĠĠĠ2006":12040,"ĠĠĠshenĠ":12041,"ruĠshiĠ":12042,"maĠliĠyaĠ":12043,"ruanĠtiĠ":12044,"gongĠanĠ":12045,"faĠlingĠ":12046,"jiangĠtaĠ":12047,"lianĠtongĠ":12048,"lingĠdaoĠdeĠ":12049,"baĠlaĠ":12050,"naĠruĠ":12051,"xiangĠshiĠdiĠ":12052,"beiĠheĠ":12053,"zhangĠyiĠ":12054,"dongĠgongĠ":12055,"ĠkangĠxiĠ":12056,"ĠyuĠciĠtongĠshiĠ":12057,"chuĠweiĠ":12058,"maoĠxianĠ":12059,"ĠjiĠliĠ":12060,"chengĠfenĠ":12061,"ĠquanĠzhangĠ":12062,"yiĠshiĠyongĠ":12063,"qingĠyiĠ":12064,"ĠbeiĠkeĠ":12065,"guiĠzhouĠ":12066,"zhengĠyueĠ":12067,"quĠzaiĠ":12068,"xiaoĠyouĠ":12069,"zhangĠzaiĠ":12070,"shuoĠdeĠ":12071,"chengĠhuĠ":12072,"chanĠshengĠleĠ":12073,"ĠnĠ":12074,"daĠduoĠ":12075,"diĠyiĠrenĠ":12076,"yanĠjiuĠshengĠ":12077,"huaĠrenĠminĠgongĠheĠ":12078,"ĠĠĠtaiĠwanĠ":12079,"zhengĠyuĠ":12080,"1955ĠnianĠ":12081,"mingĠjinĠshiĠ":12082,"boĠluoĠ":12083,"caiĠchanĠ":12084,"xunĠhuanĠ":12085,"ĠshiĠzhongĠhuaĠrenĠminĠgongĠheĠguoĠ":12086,"Ġmin":12087,"longĠshiĠ":12088,"huoĠyunĠ":12089,"xuĠshuĠ":12090,"ĠshengĠzhangĠyuĠ":12091,"anĠzhiĠ":12092,"huoĠwuĠ":12093,"ĠgongĠjiĠ":12094,"mianĠyuĠ":12095,"ĠzhiĠshaoĠ":12096,"ĠjiaĠjingĠ":12097,"benĠxianĠ":12098,"ĠjuĠminĠ":12099,"biĠshiĠ":12100,"teĠshiĠ":12101,"teĠlangĠ":12102,"ĠĠĠdi":12103,"rengĠyouĠ":12104,"ĠyiĠxie":12105,"xianĠchengĠ":12106,"yingĠduiĠ":12107,"ĠdaĠxiĠyangĠ":12108,"changĠbeiĠ":12109,"wenĠhuaĠdeĠ":12110,"zaiĠĠĠ":12111,"duoĠfuĠ":12112,"douĠzhengĠ":12113,"tanĠdingĠ":12114,"panĠjueĠ":12115,"ĠkaiĠfaĠ":12116,"Ġãĥ¼":12117,"ĠzhiĠluĠ":12118,"jieĠduĠshiĠ":12119,"tiĠjiaoĠ":12120,"canĠguanĠ":12121,"ĠĠĠ10ĠyueĠ":12122,"taĠheĠ":12123,"luĠzaiĠ":12124,"yaĠshiĠ":12125,"teĠyuĠ":12126,"zhuangĠbingĠduĠ":12127,"kmĠ":12128,"tuiĠchuĠdeĠ":12129,"shuĠqiĠ":12130,"qiangĠjiĠ":12131,"onĠ":12132,"1974ĠnianĠ":12133,"qiĠcheĠ":12134,"dongĠniĠ":12135,"yinĠjingĠ":12136,"ĠrenĠzhongĠgongĠ":12137,"huaĠshengĠdunĠ":12138,"Ġcui":12139,"zhengĠliĠ":12140,"zuĠyuĠ":12141,"pingĠshiĠ":12142,"HDĠĠĠ":12143,"ĠzaiĠgaiĠ":12144,"jianĠdaoĠ":12145,"faĠzhanĠdeĠ":12146,"ĠdaĠchenĠ":12147,"suĠweiĠaiĠ":12148,"ĠchengĠshiĠ":12149,"rangĠtaĠ":12150,"ĠfuĠleiĠ":12151,"Ġding":12152,"tongĠheĠ":12153,"ĠyouĠxingĠ":12154,"ĠjuĠqingĠ":12155,"ĠsuĠlianĠ":12156,"aiĠguoĠ":12157,"zhongĠdeĠyiĠ":12158,"leĠweiĠ":12159,"duiĠhuaĠ":12160,"aiĠqingĠ":12161,"chuĠxianĠleĠ":12162,"Ġqiao":12163,"suĠshiĠ":12164,"ĠnianĠliĠ":12165,"Ġ000ĠrenĠ":12166,"100Ġ":12167,"shengĠmuĠ":12168,"ĠfuĠze":12169,"ĠyinĠfaĠ":12170,"renĠminĠdaiĠbiaoĠdaĠhuiĠ":12171,"huanĠjieĠ":12172,"yanĠhuaĠ":12173,"baoĠzhengĠ":12174,"hongĠjunĠ":12175,"gongĠheĠdangĠ":12176,"ciĠzhiĠwaiĠ":12177,"zhanĠheĠ":12178,"baĠyueĠ":12179,"kuĠdeĠ":12180,"junĠtuanĠ":12181,"shenĠshengĠ":12182,"Ġcu":12183,"laiĠkeĠ":12184,"zhuĠruĠ":12185,"duiĠyuanĠ":12186,"gaoĠdiĠ":12187,"laĠyuĠ":12188,"leiĠweiĠ":12189,"shouĠhaiĠ":12190,"anĠpai":12191,"chongĠqingĠ":12192,"ĠguoĠjiaĠduiĠ":12193,"zengĠjiaĠleĠ":12194,"5ĠgeĠ":12195,"riĠyiĠ":12196,"yinĠerĠ":12197,"muĠheĠ":12198,"jianĠzao":12199,"jinĠqiuĠ":12200,"gouĠmai":12201,"ĠmiĠdeĠdiĠquĠ":12202,"ĠĠĠ4":12203,"kangĠxiĠ":12204,"geĠziĠ":12205,"jiaoĠdaoĠ":12206,"shenĠwangĠ":12207,"ĠmiĠdeĠ":12208,"ĠĠĠshangĠ":12209,"zhuĠguoĠ":12210,"binĠshiĠ":12211,"siĠtanĠ":12212,"tiĠquĠ":12213,"fenĠquĠ":12214,"ĠfaĠbiaoĠ":12215,"aiĠdeĠhuaĠ":12216,"ĠlangĠ":12217,"ĠĠĠ2017ĠnianĠ":12218,"duanĠyuĠ":12219,"juĠbeiĠ":12220,"daiĠmaĠ":12221,"hanĠmoĠdeĠ":12222,"shengĠchanĠdeĠ":12223,"yueĠweiĠ":12224,"shangĠzhiĠ":12225,"yangĠzhiĠ":12226,"ziĠliao":12227,"ĠĠĠzhanĠ":12228,"ĠĠĠ2016ĠnianĠ":12229,"xiangĠzhiĠ":12230,"40Ġ":12231,"zhiĠchiĠ":12232,"xieĠtiao":12233,"ĠdanĠbaiĠ":12234,"eĠĠĠ":12235,"feiĠyiĠ":12236,"chuanĠdiĠ":12237,"kanĠdeĠ":12238,"meĠ":12239,"1977ĠnianĠ":12240,"ĠbuĠdaĠ":12241,"ĠkeĠnengĠshiĠ":12242,"GĠ":12243,"ĠĠĠTheĠĠĠ":12244,"ĠĠĠlingĠwaiĠ":12245,"keĠrenĠ":12246,"fuĠgaiĠ":12247,"pinĠlvĠ":12248,"canĠmouĠzhangĠ":12249,"ĠgenĠju":12250,"ĠĠĠriĠ":12251,"ciĠzhongĠ":12252,"paiĠdeĠzhuĠ":12253,"xunĠfuĠ":12254,"hangĠxianĠ":12255,"ĠshiĠjingĠ":12256,"mingĠluĠ":12257,"sheĠhui":12258,"caiĠliao":12259,"ĠxinĠjiaĠ":12260,"ĠbiĠyeĠyuĠ":12261,"5ĠnianĠ":12262,"ĠyiĠriĠ":12263,"ĠliĠxinĠ":12264,"huiĠxiangĠ":12265,"haoĠyuĠ":12266,"Ġcao":12267,"fenĠqiĠ":12268,"moĠqiĠ":12269,"ĠxiĠhuanĠ":12270,"luoĠboĠteĠ":12271,"ĠlingĠyiĠfangĠmianĠ":12272,"ĠMa":12273,"Ġ1938":12274,"liuĠgeĠ":12275,"kongĠdeĠ":12276,"pinĠzhiĠ":12277,"ĠheĠchengĠ":12278,"geĠlanĠ":12279,"chuĠruĠkouĠ":12280,"chaoĠtingĠ":12281,"longĠshengĠ":12282,"ĠshengĠzhangĠyuĠhaiĠbaĠ":12283,"Ġpan":12284,"qianĠzaiĠ":12285,"naĠsiĠ":12286,"ciĠdaĠ":12287,"changĠwu":12288,"xiaĠfangĠ":12289,"gaoĠyuanĠ":12290,"ĠĠĠsuiĠranĠ":12291,"EĠ":12292,"zĠ":12293,"duĠdaĠ":12294,"wangĠyouĠ":12295,"ĠerĠhouĠ":12296,"danĠbaiĠ":12297,"ĠzaiĠyuĠ":12298,"liangĠceĠ":12299,"benĠkeĠ":12300,"fuĠsheĠ":12301,"ĠqiĠchuĠ":12302,"qianĠhouĠ":12303,"dianĠyingĠdeĠ":12304,"qingĠdaoĠ":12305,"ĠjianĠsheĠ":12306,"ĠmuĠqianĠshangĠweiĠ":12307,"xiangĠguan":12308,"haiĠeĠ":12309,"huĠpoĠ":12310,"mianĠshangĠ":12311,"ĠboĠchuĠ":12312,"ĠrenĠmin":12313,"fenĠxiaoĠ":12314,"qingĠxuĠ":12315,"ĠtianĠjinĠ":12316,"nvĠzhuĠjueĠ":12317,"4ĠnianĠ":12318,"Ġgan":12319,"ĠĠĠtaiĠ":12320,"louĠdeĠ":12321,"jieĠguanĠ":12322,"mingĠqueĠ":12323,"dongĠcheĠ":12324,"xingĠzhengĠzhenĠquĠ":12325,"quanĠweiĠ":12326,"guoĠquĠ":12327,"daĠqiĠ":12328,"chengĠhaoĠ":12329,"Ġfu":12330,"zhenĠheĠ":12331,"ĠshiĠzhangĠ":12332,"ĠliĠshiĠdeĠ":12333,"shengĠjingĠ":12334,"shangĠjiaĠ":12335,"dongĠyuanĠ":12336,"ĠdongĠwuĠ":12337,"eĠluoĠsiĠdeĠ":12338,"Ġtun":12339,"ĠĠĠCo":12340,"fenĠjiĠ":12341,"biĠya":12342,"zhouĠzhangĠ":12343,"anĠzhaoĠ":12344,"moĠluoĠ":12345,"2ĠnianĠ":12346,"yeĠerĠ":12347,"hanĠyiĠ":12348,"tiĠyanĠ":12349,"ĠgongĠjinĠ":12350,"huĠdongĠ":12351,"ĠwuĠxianĠ":12352,"rongĠnaĠ":12353,"ĠmaĠlaiĠxiĠyaĠ":12354,"zhanĠzhengĠzhongĠ":12355,"ĠbuĠshiĠ":12356,"1962ĠnianĠ":12357,"3ĠrenĠ":12358,"xiangĠzaiĠ":12359,"zuoĠzhongĠ":12360,"leiĠshiĠ":12361,"1971ĠnianĠ":12362,"fuĠzhuĠrenĠ":12363,"geĠbuĠ":12364,"shangĠleĠ":12365,"quanĠqiu":12366,"ĠpoĠ":12367,"jianĠguoĠ":12368,"houĠlai":12369,"tongĠchang":12370,"Ġxie":12371,"riĠjiĠ":12372,"riĠyuĠ":12373,"shouĠheĠ":12374,"xunĠdeĠ":12375,"nongĠchangĠ":12376,"ĠbuĠzuĠ":12377,"huiĠhuaĠ":12378,"shangĠpinĠ":12379,"yingĠjunĠ":12380,"nvĠhaiĠ":12381,"ĠqianĠmiĠ":12382,"guiĠmoĠdeĠ":12383,"yinĠzhiĠ":12384,"zaoĠxingĠ":12385,"28Ġ":12386,"ĠyiĠchengĠ":12387,"shengĠfuĠ":12388,"zhenĠyaĠ":12389,"shuiĠkuĠ":12390,"hangĠtianĠ":12391,"ĠshiĠyongĠzheĠ":12392,"ĠqiĠzhongĠnanĠ":12393,"Ġning":12394,"ĠyuĠqiĠtaĠ":12395,"ĠbuĠlaiĠ":12396,"ĠquanĠqiuĠ":12397,"ĠchanĠ":12398,"jiaoĠheĠ":12399,"huoĠyueĠ":12400,"qingĠxiĠ":12401,"miaoĠdeĠ":12402,"zhuĠdiĠ":12403,"yinĠshua":12404,"tianĠtangĠ":12405,"meiĠguoĠrenĠ":12406,"ĠdeĠrenĠwuĠ":12407,"ĠhuĠnanĠ":12408,"taiĠwanĠdeĠ":12409,"ĠreĠ":12410,"ĠĠĠ1949":12411,"ĠĠĠluĠ":12412,"ĠĠĠxiangĠgangĠ":12413,"ĠĠĠheĠĠĠ":12414,"ĠzhiĠzhengĠ":12415,"mingĠciĠ":12416,"yanĠwuĠ":12417,"ĠshiĠyiĠjiĠ":12418,"duĠyiĠ":12419,"suanĠfaĠ":12420,"ĠweiĠyaĠ":12421,"ĠrenĠjiaoĠ":12422,"fenĠlieĠ":12423,"ĠsheĠliĠ":12424,"Ġ1998ĠnianĠ":12425,"meiĠriĠ":12426,"buĠkeĠ":12427,"ĠzaiĠrenĠ":12428,"xianĠzhangĠ":12429,"zhengĠduoĠ":12430,"tongĠwangĠ":12431,"jianĠliĠdeĠ":12432,"dangĠheĠ":12433,"boĠkeĠ":12434,"leĠgaiĠ":12435,"qingĠshaoĠnianĠ":12436,"ĠshiĠzhongĠxinĠ":12437,"ĠxiĠbanĠyaĠyuĠ":12438,"ĠzuiĠdaĠ":12439,"yiĠshiĠjianĠ":12440,"mingĠyouĠ":12441,"yeĠzhiĠ":12442,"naĠerĠ":12443,"shenĠchaĠ":12444,"ĠguĠshiĠ":12445,"keĠxue":12446,"ĠbaoĠgaoĠ":12447,"mianĠjiĠheĠ":12448,"aĠĠĠ":12449,"Ġdiao":12450,"ĠĠĠzongĠ":12451,"diĠyouĠ":12452,"chuĠnianĠ":12453,"shengĠzhongĠ":12454,"jieĠweiĠzhiĠ":12455,"dongĠyiĠ":12456,"daiĠyiĠ":12457,"shengĠxiaĠ":12458,"qianĠruĠ":12459,"ganĠjueĠ":12460,"ĠdongĠjingĠ":12461,"nvĠyanĠyuanĠ":12462,"xiaĠxiaĠdeĠyiĠgeĠxiangĠ":12463,"Ġ2004":12464,"duiĠliĠ":12465,"jiuĠrenĠ":12466,"chaĠliĠ":12467,"fuĠyinĠ":12468,"fenĠlanĠ":12469,"ĠdeĠyiĠsiĠ":12470,"kaiĠmuĠ":12471,"mouĠshaĠ":12472,"ĠJR":12473,"wuĠzaiĠ":12474,"danĠdaĠ":12475,"guĠdongĠ":12476,"ĠtiĠchuĠ":12477,"Ġ15Ġ":12478,"aĠjiĠ":12479,"vĠ":12480,"shengĠgeĠweiĠ":12481,"yongĠjiuĠ":12482,"haiĠjun":12483,"ĠgongĠsiĠdeĠ":12484,"ciĠyouĠ":12485,"chanĠdeĠ":12486,"ĠheĠheĠ":12487,"ĠziĠliaoĠ":12488,"Ġ1ĠyueĠ":12489,"erĠyouĠ":12490,"laĠliĠ":12491,"1973ĠnianĠ":12492,"leĠliangĠ":12493,"duiĠzhenĠ":12494,"duoĠmingĠ":12495,"ĠgeĠmingĠ":12496,"gangĠyuanĠ":12497,"ĠnianĠ12ĠyueĠ31ĠriĠ":12498,"tiĠyuĠguanĠ":12499,"ĠĠĠ2021ĠnianĠ":12500,"shuĠyouĠ":12501,"faĠzhongĠ":12502,"suĠdanĠ":12503,"1936ĠnianĠ":12504,"zaiĠciĠ":12505,"tianĠran":12506,"hanĠlinĠ":12507,"chongĠmanĠ":12508,"ĠkeĠnengĠhuiĠ":12509,"jieĠzaiĠ":12510,"chuangĠshiĠrenĠ":12511,"ĠwanĠpingĠfangĠ":12512,"anĠrenĠ":12513,"ĠĠĠW":12514,"weiĠyuĠ":12515,"xiĠsiĠ":12516,"shouĠfeiĠ":12517,"ĠdanĠbuĠ":12518,"meiĠmeiĠ":12519,"ĠguoĠminĠdangĠ":12520,"ĠmuĠqianĠshangĠweiĠyouĠrenĠgongĠyinĠzhongĠzaiĠpeiĠ":12521,"Ġ21":12522,"shenĠjiĠ":12523,"cengĠrenĠ":12524,"1963ĠnianĠ":12525,"ĠyiĠtiĠ":12526,"shenĠshangĠ":12527,"xianĠdeĠyiĠgeĠxingĠzhengĠzhenĠquĠ":12528,"ĠshiĠguĠ":12529,"ĠliĠqiĠ":12530,"xiĠlie":12531,"tianĠhuangĠ":12532,"peiĠyangĠ":12533,"canĠyuĠleĠ":12534,"xiangĠgangĠdeĠ":12535,"1941ĠnianĠ":12536,"1959ĠnianĠ":12537,"ĠaĠlaĠ":12538,"ĠĠĠforĠĠĠ":12539,"Ġcan":12540,"xiangĠzhongĠ":12541,"ĠzaiĠnaĠliĠ":12542,"bianĠhaoĠweiĠ":12543,"chuangĠxinĠ":12544,"chouĠbeiĠ":12545,"ĠqiĠqiĠ":12546,"jinĠxing":12547,"shouĠlingĠ":12548,"jiaoĠzongĠ":12549,"yaĠzhou":12550,"waiĠguanĠ":12551,"wuĠliĠxueĠ":12552,"ĠzhouĠnianĠ":12553,"Ġ1999ĠnianĠ":12554,"ĠĠĠboĠ":12555,"ĠĠĠ4ĠyueĠ":12556,"suĠdaĠ":12557,"juĠchangĠ":12558,"fangĠchengĠ":12559,"ĠĠĠIn":12560,"heĠyiĠgeĠ":12561,"caiĠwuĠ":12562,"ĠgaiĠdiĠdeĠ":12563,"ĠkeĠshiĠ":12564,"yeĠzhongĠ":12565,"tuiĠxingĠ":12566,"heĠpingĠ":12567,"chengĠzhangĠ":12568,"ĠxiĠjinĠ":12569,"jingĠsaiĠ":12570,"wangĠchao":12571,"ĠhaĠerĠ":12572,"dianĠyuĠ":12573,"xunĠshiĠ":12574,"ruĠjingĠ":12575,"guĠwuĠ":12576,"saiĠbaiĠ":12577,"zaoĠqiĠdeĠ":12578,"jingĠjiĠxueĠ":12579,"ĠbaĠliĠ":12580,"taiĠdaĠ":12581,"kanĠfaĠ":12582,"yuanĠquĠ":12583,"zhuĠdongĠ":12584,"ĠkaĠerĠ":12585,"ĠĠĠyue":12586,"yinĠjiĠ":12587,"xiaĠyuĠ":12588,"zhangĠliĠ":12589,"shouĠhuiĠ":12590,"nanĠfeiĠ":12591,"ĠĠĠgeĠrenĠshengĠhuoĠ":12592,"ĠseĠ":12593,"ĠxingĠshiĠ":12594,"ĠĠĠgaoĠ":12595,"ĠĠĠfeiĠ":12596,"miĠshiĠ":12597,"codiceĠ":12598,"buĠmanĠ":12599,"zhuĠbanĠ":12600,"yinĠziĠ":12601,"duĠjiaĠ":12602,"buĠweiĠyuĠ":12603,"lunĠsiĠ":12604,"zhuĠzhai":12605,"ĠxiĠyuanĠ":12606,"yingĠgeĠlan":12607,"ĠkeĠliĠsiĠ":12608,"ĠĠĠtongĠ":12609,"ĠĠĠ7ĠyueĠ":12610,"yeĠweiĠ":12611,"zhouĠfuĠzeĠguanĠxiaĠ":12612,"tuoĠfuĠ":12613,"1939ĠnianĠ":12614,"ĠnianĠ7ĠyueĠ1ĠriĠ":12615,"2ĠrenĠ":12616,"Ġzha":12617,"shenĠfuĠ":12618,"niuĠsiĠ":12619,"xueĠyuanĠdeĠ":12620,"xinĠzengĠ":12621,"laĠteĠ":12622,"diĠyiĠbuĠ":12623,"ĠpaĠ":12624,"zeĠyiĠ":12625,"duanĠqiĠ":12626,"zengĠzhiĠ":12627,"neĠshengĠ":12628,"shengĠxiaoĠ":12629,"baĠfa":12630,"baĠsaiĠ":12631,"neiĠmengĠguĠ":12632,"ĠjinĠguan":12633,"ĠyuanĠxingĠ":12634,"jiaoĠyuĠjiĠ":12635,"zhenĠdiĠ":12636,"gongĠdaĠ":12637,"xiangĠbeiĠ":12638,"ĠyanĠchangĠ":12639,"lianĠmengĠdeĠ":12640,"tongĠzhongĠ":12641,"yanĠliĠ":12642,"bianĠyuĠ":12643,"tianĠfuĠ":12644,"onĠĠĠ":12645,"fuĠluoĠliĠdaĠ":12646,"xinĠshengĠ":12647,"tiĠgongĠdeĠ":12648,"ĠĠĠdianĠ":12649,"ĠĠĠpuĠ":12650,"zhongĠshiĠjiĠ":12651,"houĠbuĠjiuĠ":12652,"xinĠyuĠ":12653,"zongĠduiĠ":12654,"ĠĠĠ6Ġ":12655,"nuoĠsiĠ":12656,"ĠrenĠciĠ":12657,"ĠyueĠlaiĠyueĠ":12658,"gaiĠmingĠ":12659,"baĠnen":12660,"kaĠluoĠlaiĠnaĠ":12661,"fĠ":12662,"ĠJ":12663,"qianĠweiĠ":12664,"qianĠyuĠ":12665,"ĠshiĠnanĠjiĠzhouĠdeĠ":12666,"ĠzaiĠtaĠdeĠ":12667,"ĠdaĠbuĠ":12668,"ĠdanĠyuĠ":12669,"shuiĠshenĠ":12670,"Ġyao":12671,"Ġtu":12672,"ĠhuiĠyiĠ":12673,"35Ġ":12674,"siĠfaĠ":12675,"ĠerĠzheĠ":12676,"jingĠnei":12677,"ĠqingĠchaoĠ":12678,"Ġwu":12679,"jinĠzhongĠ":12680,"qianĠliĠ":12681,"waiĠjiĠ":12682,"tingĠyunĠ":12683,"ĠĠĠquanĠ":12684,"daoĠliĠ":12685,"jingĠxiĠ":12686,"houĠrenĠ":12687,"fangĠheĠ":12688,"IIĠ":12689,"1944ĠnianĠ":12690,"1965ĠnianĠ":12691,"liĠyongĠ":12692,"ĠjieĠweiĠ":12693,"Ġãĥ¼Ġ":12694,"laoĠgongĠ":12695,"1967ĠnianĠ":12696,"huoĠdongĠdeĠ":12697,"minĠjinĠ":12698,"shouĠdaoĠleĠ":12699,"Ġbu":12700,"ĠMĠ":12701,"yongĠzhiĠ":12702,"xiaĠzhiĠ":12703,"hanĠshiĠ":12704,"huanĠxiangĠ":12705,"1953ĠnianĠ":12706,"daĠbuĠ":12707,"daĠduoĠshuĠ":12708,"siĠxingĠ":12709,"ziĠgongĠsiĠ":12710,"lanĠseĠ":12711,"ĠĠĠ8ĠyueĠ":12712,"liangĠjiaĠ":12713,"fengĠyuĠ":12714,"chaĠjuĠ":12715,"peiĠxunĠ":12716,"ĠĠĠM":12717,"ĠĠĠMa":12718,"ĠĠĠguĠshiĠ":12719,"ĠshiĠzhengĠ":12720,"ĠzheĠbuĠ":12721,"ĠĠĠduiĠyuĠ":12722,"huoĠyiĠ":12723,"chuanĠxianĠ":12724,"zhuĠdaĠ":12725,"ciĠhuiĠ":12726,"ĠliĠshiĠxueĠjiaĠ":12727,"yingĠdeĠleĠ":12728,"mianĠjiĠheĠrenĠkouĠ":12729,"cheĠliĠ":12730,"ĠĠĠjiuĠ":12731,"ĠĠĠlaĠ":12732,"duĠzhiĠ":12733,"wangĠyiĠ":12734,"ĠdaĠqiaoĠ":12735,"ĠdeĠjiĠshuĠ":12736,"ĠfanĠduiĠ":12737,"zhanĠzhengĠqiĠjianĠ":12738,"ĠjiĠduĠjiaoĠ":12739,"ĠjunĠshiĠ":12740,"ĠĠĠyeĠ":12741,"laĠdiĠ":12742,"dingĠzhiĠ":12743,"jiaĠzhouĠ":12744,"xiangĠlianĠ":12745,"daoĠdanĠ":12746,"boĠlaĠ":12747,"kaiĠfaĠdeĠ":12748,"ĠgaiĠcun":12749,"jiangĠsuĠshengĠ":12750,"ĠĠĠ10":12751,"jiangĠheĠ":12752,"niĠshiĠ":12753,"ceĠqiĠ":12754,"hangĠxingĠ":12755,"1930ĠnianĠ":12756,"ĠmingĠchaoĠ":12757,"nianĠdaiĠ":12758,"ĠĠĠjinĠguanĠ":12759,"ĠgaiĠdiĠdeĠmianĠjiĠheĠrenĠkouĠ":12760,"ĠgaiĠdiĠdeĠmianĠjiĠheĠrenĠkouĠjieĠweiĠzhiĠ":12761,"siĠzhongĠ":12762,"zuiĠduoĠdeĠ":12763,"ĠbingĠfeiĠ":12764,"dangĠxuanĠweiĠ":12765,"niĠyaĠdeĠ":12766,"ĠqianĠlongĠ":12767,"heiĠlongĠjiangĠ":12768,"ĠboĠluoĠ":12769,"Ġ25":12770,"ĠguanĠzhiĠ":12771,"ĠĠĠ2015ĠnianĠ":12772,"zhenĠrenĠ":12773,"ĠbuĠluĠ":12774,"jinĠshanĠ":12775,"tingĠkaoĠ":12776,"ĠyiĠshuĠjiaĠ":12777,"ĠRĠ":12778,"weiĠshiĠjieĠ":12779,"chuiĠzhiĠ":12780,"ĠwanĠchengĠ":12781,"ĠleiĠjiĠ":12782,"meiĠerĠ":12783,"yanĠxuĠ":12784,"jiangĠzuiĠjiaĠ":12785,"nanĠminĠ":12786,"ĠgongĠzuo":12787,"zhengĠxieĠweiĠyuanĠ":12788,"anĠfuĠ":12789,"ĠĠĠjianĠliĠ":12790,"shouĠerĠ":12791,"shanĠyuĠ":12792,"zhuangĠweiĠ":12793,"haĠdeĠ":12794,"ĠdaĠxueĠdeĠ":12795,"zhengĠfuĠyuĠ":12796,"ĠĠĠmuĠqianĠ":12797,"zhongĠxueĠ":12798,"ĠbuĠheĠ":12799,"zhanĠzhengĠdeĠ":12800,"ĠdaĠdiĠ":12801,"dianĠnaoĠ":12802,"zongĠjingĠliĠ":12803,"tuĠanĠ":12804,"Ġzhuo":12805,"duiĠtaĠ":12806,"huoĠjiangĠ":12807,"dangĠanĠ":12808,"ĠciĠciĠ":12809,"ĠfenĠbieĠweiĠ":12810,"jiaĠliĠfuĠniĠyaĠzhouĠ":12811,"houĠguoĠ":12812,"luĠweiĠ":12813,"ĠshiĠsiĠ":12814,"houĠfangĠ":12815,"qianĠxianĠ":12816,"ĠwanĠmeiĠ":12817,"ĠtongĠriĠ":12818,"ĠzhanĠdiĠ":12819,"ĠĠĠjianĠzhuĠ":12820,"ĠĠĠ2014ĠnianĠ":12821,"nanĠrenĠ":12822,"fouĠrenĠ":12823,"gongĠjueĠ":12824,"jiaĠnaĠ":12825,"quĠdongĠ":12826,"ĠtongĠzhiĠ":12827,"ĠĠĠyiĠxiaĠ":12828,"Ġ2003":12829,"ĠtuiĠchuĠ":12830,"meiĠyiĠ":12831,"chuanĠyueĠ":12832,"suiĠdeĠ":12833,"1935ĠnianĠ":12834,"xiangĠdaoĠ":12835,"gaiĠjinĠ":12836,"jiuĠduĠyuĠ":12837,"zongĠshuĠ":12838,"linĠshengĠ":12839,"ĠshiĠjiĠyuĠ":12840,"liĠyiĠ":12841,"kuaiĠdeĠ":12842,"jiaĠqiangĠ":12843,"ciĠshuĠ":12844,"anĠxianĠ":12845,"ĠmiĠzhiĠ":12846,"Ġ1940":12847,"Ġcom":12848,"gaiĠzhiĠ":12849,"teĠzaiĠ":12850,"peiĠdeĠ":12851,"ĠshiĠbaĠ":12852,"zhuĠlongĠ":12853,"tongĠxueĠ":12854,"wenĠgeĠ":12855,"guĠlaoĠdeĠ":12856,"puĠchaĠ":12857,"touĠru":12858,"Ġheng":12859,"ĠĠĠ9ĠyueĠ":12860,"jinĠnianĠ":12861,"suiĠzhiĠ":12862,"lingĠyuĠdeĠ":12863,"chiĠjingĠ":12864,"geĠyueĠhouĠ":12865,"ĠĠĠ2020ĠnianĠ":12866,"chengĠyiĠgeĠ":12867,"xiangĠjiaoĠ":12868,"yanĠshengĠ":12869,"fenĠchengĠ":12870,"liuĠliangĠ":12871,"ĠhaiĠjunĠ":12872,"ĠDĠ":12873,"shenĠmeĠ":12874,"ĠĠĠmuĠ":12875,"jiaoĠjiĠ":12876,"xiaĠerĠ":12877,"yaĠsiĠ":12878,"juĠfeng":12879,"jingĠquĠ":12880,"duĠteĠdeĠ":12881,"ĠgeĠguoĠ":12882,"ĠzheĠyeĠshiĠ":12883,"faĠshengĠleĠ":12884,"ĠĠĠzhiĠzuoĠ":12885,"ĠĠĠcheĠzhanĠjieĠgouĠ":12886,"ĠfenĠweiĠ":12887,"siĠyueĠ":12888,"baĠtaĠ":12889,"ĠshiĠfuĠ":12890,"weiĠjiĠ":12891,"erĠbeiĠ":12892,"miĠduĠ":12893,"eĠhaiĠeĠ":12894,"ĠhuaĠshengĠ":12895,"dongĠzhiĠ":12896,"zhengĠjiaoĠ":12897,"feiĠchang":12898,"2ĠhaoĠ":12899,"ĠgouĠ":12900,"riĠshiĠ":12901,"fangĠdiĠ":12902,"ziĠshaĠ":12903,"ĠzhuĠchiĠ":12904,"huiĠyiĠshangĠ":12905,"ĠzhengĠgeĠ":12906,"ziĠxingĠcheĠ":12907,"jinĠqiĠ":12908,"zheĠjiĠ":12909,"muĠjiĠ":12910,"leiĠheĠ":12911,"suanĠdeĠ":12912,"2025ĠnianĠ":12913,"ĠyouĠheĠ":12914,"jinĠchengĠ":12915,"jinĠrongĠ":12916,"ĠbiĠxuĠ":12917,"ĠliĠfaĠhuiĠ":12918,"ĠguanĠliĠ":12919,"shengĠrenĠminĠzhengĠfuĠ":12920,"shangĠfangĠ":12921,"mianĠlinĠ":12922,"ĠshengĠchengĠ":12923,"ĠV":12924,"ĠchongĠxinĠ":12925,"yinĠniĠ":12926,"jiuĠbeiĠ":12927,"luoĠfaĠkeĠ":12928,"xinĠheĠ":12929,"ĠzhongĠbeiĠ":12930,"zhuĠliuĠ":12931,"ĠerĠlaiĠ":12932,"fangĠxingĠ":12933,"ĠfuĠgaiĠ":12934,"saiĠcheĠ":12935,"ĠbingĠqieĠzaiĠ":12936,"eĠerĠ":12937,"mingĠheĠ":12938,"duiĠweiĠ":12939,"1969ĠnianĠ":12940,"fuĠbuĠzhangĠ":12941,"yingĠguoĠdeĠ":12942,"ĠzhuĠxiĠ":12943,"ĠdeĠshiĠshiĠ":12944,"ĠcengĠzaiĠ":12945,"ĠĠĠ2013ĠnianĠ":12946,"luĠxiĠ":12947,"kuangĠjiaĠ":12948,"daĠxueĠdeĠ":12949,"fuĠjiaĠ":12950,"huiĠjiaĠ":12951,"juĠzhuĠzaiĠ":12952,"juĠjuĠzhangĠ":12953,"baoĠfuĠ":12954,"ĠĠĠriĠbenĠ":12955,"ĠĠĠ6ĠyueĠ":12956,"ĠĠĠ4Ġ":12957,"luoĠweiĠ":12958,"ĠshiĠtaiĠwanĠ":12959,"diĠliuĠ":12960,"gongĠshangĠ":12961,"mianĠqianĠ":12962,"xiuĠdingĠ":12963,"Ġman":12964,"Ġ2002":12965,"diĠyiĠjiĠ":12966,"danĠyiĠ":12967,"zuĠweiĠ":12968,"ĠzhiĠyaoĠ":12969,"fuĠhuaĠ":12970,"ĠguoĠfangĠ":12971,"yanĠfaĠ":12972,"ĠdeĠyiĠjianĠ":12973,"zuiĠzhongĠyaoĠdeĠ":12974,"Ġga":12975,"liĠkeĠ":12976,"shouĠliĠ":12977,"yanĠqiĠ":12978,"taiĠweiĠ":12979,"zhuanĠzhiĠ":12980,"kaĠdeĠ":12981,"24Ġ":12982,"1961ĠnianĠ":12983,"1931ĠnianĠ":12984,"gongĠgaoĠ":12985,"ĠqiĠyongĠ":12986,"ĠerĠheĠ":12987,"NĠ":12988,"baoĠjiĠ":12989,"sheĠliĠdeĠ":12990,"1957ĠnianĠ":12991,"yanĠshenĠzhiĠ":12992,"muĠjianĠ":12993,"luoĠxuanĠ":12994,"ĠcengĠjingĠ":12995,"ĠyuĠyiĠ":12996,"banĠnianĠ":12997,"shenĠliĠ":12998,"feiĠzhiĠ":12999,"zongĠdeĠ":13000,"ĠshiĠshangĠ":13001,"zuoĠleĠ":13002,"wanĠzhengĠdeĠ":13003,"ĠtaiĠpingĠ":13004,"chengĠliĠleĠ":13005,"wuĠxianĠdianĠshiĠ":13006,"ĠĠĠ2010ĠnianĠ":13007,"teĠgongĠ":13008,"kuĠerĠ":13009,"tuiĠliĠ":13010,"26Ġ":13011,"ĠxiĠxiĠ":13012,"junĠbeiĠ":13013,"cheĠtuiĠ":13014,"kaĠfeiĠ":13015,"Ġqin":13016,"nanĠyuĠ":13017,"quĠziĠ":13018,"luĠduanĠ":13019,"ĠsiĠlingĠbuĠ":13020,"zhenĠzhengĠ":13021,"baĠleĠsiĠ":13022,"liĠliangĠ":13023,"chongĠzuĠ":13024,"mengĠteĠ":13025,"Ġzao":13026,"ĠĠĠ2012ĠnianĠ":13027,"meiĠzhongĠ":13028,"geĠciĠ":13029,"ĠbuĠshaoĠ":13030,"shuĠshuĠ":13031,"ĠkeĠlaĠ":13032,"ĠĠĠgenĠjuĠ2010ĠnianĠmeiĠguoĠrenĠkouĠpuĠchaĠdeĠshuĠjuĠ":13033,"ĠĠĠgai":13034,"daiĠzhiĠ":13035,"duoĠliĠ":13036,"fanĠgongĠ":13037,"rengĠzaiĠ":13038,"1951ĠnianĠ":13039,"ĠyiĠjiaoĠ":13040,"ĠyouĠĠĠ":13041,"yuanĠwaiĠ":13042,"ĠtaĠjiangĠ":13043,"liuĠxueĠ":13044,"ĠPĠ":13045,"kaĠliĠ":13046,"guoĠfangĠbuĠ":13047,"zuĠziĠzhiĠ":13048,"tuiĠfanĠ":13049,"zhengĠfuĠzaiĠ":13050,"zhiĠĠĠ":13051,"neiĠsiĠ":13052,"poĠerĠ":13053,"ĠzaiĠriĠbenĠ":13054,"gongĠjiaoĠ":13055,"shengĠjieĠrangĠ":13056,"jinĠzhangĠ":13057,"wangĠhouĠ":13058,"ĠfuĠerĠ":13059,"jiangĠweiĠ":13060,"laiĠerĠ":13061,"benĠzhiĠ":13062,"taiĠshouĠ":13063,"ĠkeĠchengĠ":13064,"ĠjiaĠru":13065,"ĠfeiĠliĠ":13066,"Ġpao":13067,"ĠkuaiĠ":13068,"ĠĠĠtangĠ":13069,"duoĠbuĠ":13070,"jieĠjieĠ":13071,"zhengĠwuĠ":13072,"ĠkeĠlaiĠ":13073,"liaoĠning":13074,"ĠdeĠzhuĠyao":13075,"quĠshiĠhouĠ":13076,"ĠĠĠyouĠxiĠ":13077,"chenĠdeĠ":13078,"ĠyiĠqingĠ":13079,"faĠxian":13080,"ĠriĠbaoĠ":13081,"feiĠfaĠ":13082,"zhuanĠhuanĠ":13083,"ĠjiangĠxiĠ":13084,"ĠU":13085,"ĠĠĠyongĠ":13086,"taĠerĠ":13087,"dangĠriĠ":13088,"jianĠzhuĠshiĠ":13089,"fangĠbianĠ":13090,"tuĠranĠ":13091,"guangĠfanĠdeĠ":13092,"ĠĠĠ2005":13093,"ĠĠĠyanĠgeĠ":13094,"riĠerĠ":13095,"xiaoĠyiĠ":13096,"qianĠqiĠ":13097,"heiĠrenĠ":13098,"ĠyueĠrenĠ":13099,"keĠxueĠjiaĠ":13100,"meiĠti":13101,"xinĠguanĠfeiĠyanĠ":13102,"Ġlong":13103,"ĠpengĠ":13104,"Ġ9Ġ":13105,"zuoĠheĠ":13106,"shangĠsuĠ":13107,"tuĠran":13108,"hangĠbanĠ":13109,"ĠjingĠneiĠ":13110,"chongĠfuĠ":13111,"huiĠguanĠ":13112,"qianĠlaiĠ":13113,"quanĠtiĠ":13114,"tuanĠzhangĠ":13115,"4ĠrenĠ":13116,"Ġkua":13117,"jinĠheĠ":13118,"liangĠyuĠ":13119,"panĠdeĠ":13120,"daiĠtiĠ":13121,"tuĠshaĠ":13122,"mianĠxiangĠ":13123,"xingĠzhengĠdanĠweiĠ":13124,"ĠanĠhuiĠ":13125,"ĠdiĠerĠciĠ":13126,"ĠĠĠruĠ":13127,"ciĠheĠ":13128,"leiĠyuĠ":13129,"rongĠdeĠ":13130,"1960ĠnianĠdaiĠ":13131,"jiaĠerĠ":13132,"fangĠxiangĠdeĠ":13133,"baoĠanĠ":13134,"huoĠquĠ":13135,"caiĠzhengĠbuĠ":13136,"mouĠxie":13137,"ĠshiĠyiĠgeĠweiĠyuĠmeiĠguoĠ":13138,"ĠjiĠyiĠ":13139,"erĠzhongĠ":13140,"puĠdeĠ":13141,"cunĠyuĠ":13142,"tuoĠerĠ":13143,"1933ĠnianĠ":13144,"ĠyiĠchangĠ":13145,"tingĠzhangĠ":13146,"woĠmen":13147,"miĠjiĠ":13148,"benĠjiĠ":13149,"geiĠtaĠ":13150,"1942ĠnianĠ":13151,"jingĠyuanĠ":13152,"zhanĠjuĠ":13153,"saiĠguanĠjunĠ":13154,"gangĠtieĠ":13155,"ĠshiĠshiĠzhangĠ":13156,"renĠdaĠdaiĠbiaoĠ":13157,"6ĠgeĠ":13158,"kaiĠqiĠ":13159,"renĠmin":13160,"ĠzaiĠnanĠ":13161,"ĠbingĠbiaoĠshiĠ":13162,"hangĠkongĠgongĠsiĠ":13163,"ĠliuĠyuĠmianĠjiĠ":13164,"YĠ":13165,"mingĠjiĠ":13166,"kenĠdingĠ":13167,"ĠshiĠkeĠ":13168,"1ĠrenĠ":13169,"1928ĠnianĠ":13170,"jinĠsiĠ":13171,"liuĠchuanĠ":13172,"danĠshuiĠ":13173,"ĠgenĠjuĠ2020ĠnianĠmeiĠguoĠrenĠkouĠpuĠchaĠdeĠshuĠjuĠ":13174,"kĠĠĠ":13175,"xinĠzhiĠ":13176,"wanĠqiĠ":13177,"cheĠxingĠ":13178,"shaoĠyouĠ":13179,"yuanĠshuĠ":13180,"shangĠjiangĠ":13181,"duoĠxiangĠ":13182,"nvĠyouĠ":13183,"heĠbeiĠ":13184,"keĠsaĠsiĠ":13185,"zuoĠyeĠ":13186,"boĠyinĠ":13187,"ĠyeĠkeĠyiĠ":13188,"Ġ29":13189,"guĠyiĠ":13190,"taiĠyiĠ":13191,"pingĠhengĠ":13192,"chongĠfanĠ":13193,"taoĠwangĠ":13194,"ĠĠĠzuiĠ":13195,"ĠĠĠ2011ĠnianĠ":13196,"fanĠfuĠ":13197,"zhaoĠshiĠ":13198,"ĠjiĠcheĠ":13199,"jieĠshou":13200,"ĠqiĠhouĠyuĠ":13201,"ĠerĠciĠ":13202,"ĠxiĠsiĠ":13203,"bianĠzuĠ":13204,"caiĠpanĠ":13205,"zhuanĠquĠ":13206,"touĠshouĠ":13207,"huoĠdeĠdeĠ":13208,"gongĠchanĠdang":13209,"ĠfenĠbieĠshiĠ":13210,"ĠĠĠD":13211,"nianĠdeĠ":13212,"fenĠshiĠ":13213,"benĠbuĠ":13214,"fanĠjiĠ":13215,"huanĠweiĠ":13216,"27Ġ":13217,"jianĠchiĠ":13218,"meiĠtianĠ":13219,"chuangĠzao":13220,"ĠyunĠnanĠ":13221,"xueĠshiĠxueĠweiĠ":13222,"lanĠshiĠ":13223,"panĠchuĠ":13224,"shouĠmingĠ":13225,"tongĠyang":13226,"fenĠxiangĠ":13227,"zeĠdeĠ":13228,"ĠshiĠxiĠbanĠyaĠ":13229,"ĠjieĠfangĠ":13230,"ĠxinĠzeng":13231,"ĠyingĠxiangĠ":13232,"Ġ45":13233,"Ġ2023ĠnianĠ":13234,"ĠĠĠfaĠguoĠ":13235,"cengĠbeiĠ":13236,"shunĠxuĠ":13237,"runĠ":13238,"zhongĠhaiĠ":13239,"leĠxuĠduoĠ":13240,"ĠdeĠyiĠweiĠ":13241,"ĠdanĠyeĠ":13242,"tanĠsuoĠ":13243,"ĠshiĠshiĠyiĠ":13244,"xinĠxiĠlanĠ":13245,"Ġ1997ĠnianĠ":13246,"yingĠheĠ":13247,"maĠqiĠ":13248,"linĠyuĠ":13249,"qiaoĠdeĠ":13250,"daĠlu":13251,"wuĠfa":13252,"jieĠruĠ":13253,"meiĠguoĠyiĠ":13254,"ĠyinĠweiĠtaĠ":13255,"gongĠchanĠzhuĠyiĠ":13256,"yaoĠzaiĠ":13257,"diĠtieĠ":13258,"jianĠshao":13259,"faĠerĠ":13260,"qiangĠdaĠdeĠ":13261,"ĠhouĠyuĠ":13262,"Ġ20Ġ":13263,"jieĠxiaĠ":13264,"waiĠjieĠ":13265,"ĠwoĠmen":13266,"nĠĠĠ":13267,"Ġchuang":13268,"ĠbangĠzhuĠ":13269,"ĠĠĠbaiĠ":13270,"erĠĠĠ":13271,"baiĠxingĠ":13272,"gangĠdeĠ":13273,"diĠdaĠ":13274,"xiaoĠsheĠ":13275,"duoĠlunĠ":13276,"keĠnengĠxingĠ":13277,"Ġrui":13278,"chaĠerĠsiĠ":13279,"1912ĠnianĠ":13280,"faĠbuĠdeĠ":13281,"qianĠzeĠ":13282,"ranĠliaoĠ":13283,"nvĠwangĠ":13284,"wangĠyuanĠjingĠ":13285,"yaĠmeiĠniĠyaĠ":13286,"wenĠyuĠ":13287,"tingĠshiĠ":13288,"chengĠgongĠdeĠ":13289,"daoĠshangĠ":13290,"beiĠqiĠ":13291,"yanĠzou":13292,"ĠjieĠgouĠ":13293,"ĠriĠyiĠ":13294,"xĠĠĠ":13295,"ĠX":13296,"fuĠzhongĠ":13297,"daoĠguoĠ":13298,"zuĠshiĠ":13299,"wanĠnianĠ":13300,"tingĠheĠ":13301,"shaĠshiĠ":13302,"maoĠdeĠ":13303,"huaĠmianĠ":13304,"ĠdaĠqiĠ":13305,"shenĠruĠ":13306,"ĠgeĠlanĠ":13307,"Ġ000Ġ":13308,"Ġjing":13309,"ĠweiĠdaĠ":13310,"yinĠjinĠ":13311,"suĠsongĠ":13312,"ĠdanĠzheĠ":13313,"chuanĠbo":13314,"ĠmianĠjiĠ0":13315,"ĠĠĠwenĠhuaĠ":13316,"sanĠyueĠ":13317,"tingĠjiĠ":13318,"ĠliĠnianĠ":13319,"pingĠdingĠ":13320,"tiaoĠwenĠ":13321,"ĠaoĠdaĠliĠyaĠ":13322,"ĠrenĠkouĠdeĠ":13323,"Ġ50":13324,"yuĠdeĠguoĠ":13325,"yiĠdeĠshiĠ":13326,"ĠĠĠ12":13327,"zuoĠzhiĠ":13328,"zhuĠshouĠ":13329,"zhuĠguanĠ":13330,"suĠsheĠ":13331,"fengĠgeĠdeĠ":13332,"ĠjieĠjinĠ":13333,"ĠyiĠjiĠzaiĠ":13334,"huĠlianĠwangĠ":13335,"ĠĠĠX":13336,"quĠdiĠ":13337,"1927ĠnianĠ":13338,"chuĠxian":13339,"yeĠnaĠ":13340,"ĠshiĠshiĠdeĠ":13341,"Ġzeng":13342,"ouĠyuanĠ":13343,"ĠsiĠgeĠ":13344,"xieĠdaiĠ":13345,"ĠÐ°":13346,"ĠguoĠliĠ":13347,"youĠdeĠ":13348,"yongĠdiĠ":13349,"sanĠdeĠ":13350,"ĠliĠjingĠ":13351,"diĠmianĠ":13352,"ĠbuĠtong":13353,"guanĠxiĠdeĠ":13354,"jiaoĠliu":13355,"fenĠshuĠ":13356,"dangĠxuan":13357,"dianĠyingĠjieĠ":13358,"5ĠmiĠ":13359,"zhouĠdeĠyiĠgeĠshiĠzhenĠ":13360,"wuĠrenĠjiĠ":13361,"quĠneiĠ":13362,"luĠwaĠ":13363,"wenĠsiĠ":13364,"shuiĠmianĠ":13365,"hangĠzhouĠ":13366,"ĠhuĠbeiĠ":13367,"ĠluĠwaĠerĠshengĠ":13368,"ĠyuanĠshiĠ":13369,"zuoĠjiĠ":13370,"zuĠjiĠ":13371,"shouĠhuanĠyingĠ":13372,"tongĠbaoĠ":13373,"duoĠyuanĠ":13374,"ĠtongĠshiĠyeĠ":13375,"ĠshiĠxingĠdengĠweiĠ":13376,"ĠzhongĠyuĠ":13377,"biĠyuĠ":13378,"guanĠli":13379,"qingĠheĠ":13380,"teĠsiĠ":13381,"zunĠzhongĠ":13382,"1943ĠnianĠ":13383,"diĠdianĠ":13384,"junĠjianĠ":13385,"tianĠwenĠxueĠ":13386,"ĠjingĠfangĠ":13387,"ĠĠĠguanĠ":13388,"feiĠshiĠ":13389,"duiĠfuĠ":13390,"qianĠxiaĠ":13391,"ĠziĠxingĠ":13392,"yanĠjiuĠzhongĠxinĠ":13393,"renĠkouĠpuĠchaĠ":13394,"Ġxue":13395,"Ġtan":13396,"leĠxiĠ":13397,"guanĠweiĠ":13398,"jiuĠyueĠ":13399,"fanĠdaĠxueĠ":13400,"tingĠyuĠ":13401,"geĠsiĠ":13402,"ĠguoĠjia":13403,"ĠdaĠbanĠ":13404,"qianĠyinĠ":13405,"ĠdanĠyouĠ":13406,"Ġ400":13407,"1932ĠnianĠ":13408,"1929ĠnianĠ":13409,"ĠyueĠtuan":13410,"xueĠtangĠ":13411,"ĠweiĠyuanĠhuiĠdeĠ":13412,"ĠguangĠxuĠ":13413,"aĠerĠbeiĠsiĠ":13414,"yiĠĠĠ":13415,"wuĠbuĠ":13416,"quĠbieĠ":13417,"tiĠcaiĠ":13418,"duĠziĠ":13419,"ĠgongĠchangĠ":13420,"zuoĠpinĠdeĠ":13421,"Ġ60":13422,"ĠĠĠaiĠ":13423,"leĠzhiĠ":13424,"shenĠqiĠ":13425,"ĠzaiĠwuĠ":13426,"ĠbuĠyaoĠ":13427,"dianĠchiĠ":13428,"boĠchuĠdeĠ":13429,"ĠbingĠchengĠ":13430,"ĠdeĠyiĠciĠ":13431,"neiĠruiĠ":13432,"xingĠzhengĠquĠhuaĠ":13433,"biĠsaiĠdeĠ":13434,"qiĠliĠ":13435,"feiĠdanĠ":13436,"gongĠzuoĠdeĠ":13437,"benĠshuĠ":13438,"paiĠlieĠ":13439,"ĠchiĠweiĠ":13440,"Ġ2001":13441,"ĠsiĠshiĠ":13442,"ĠhengĠliĠ":13443,"yongĠqiĠ":13444,"zhongĠhuaĠ":13445,"ĠzhongĠyaoĠdeĠ":13446,"jiaĠxiangĠ":13447,"chengĠshuĠ":13448,"xinĠzhuĠ":13449,"jiaoĠgaoĠ":13450,"sheĠhuiĠdeĠ":13451,"puĠluoĠ":13452,"panĠluanĠ":13453,"yinĠyouĠ":13454,"yongĠheĠ":13455,"jueĠweiĠ":13456,"cengĠyouĠ":13457,"huangĠheĠ":13458,"miaoĠyuĠ":13459,"1934ĠnianĠ":13460,"dianĠliuĠ":13461,"duoĠguanĠ":13462,"zhuĠyaoĠshiĠ":13463,"reĠdaiĠqiĠxuanĠ":13464,"ĠĠĠzuoĠweiĠ":13465,"1924ĠnianĠ":13466,"shuĠfaĠ":13467,"zhanĠquĠ":13468,"tiĠqianĠ":13469,"banĠquanĠ":13470,"yiĠshiĠdaoĠ":13471,"ĠzaiĠshiĠ":13472,"ĠĠĠweiĠleĠ":13473,"aĠgenĠtingĠ":13474,"ĠĠĠR":13475,"shuoĠfuĠ":13476,"ĠzhiĠciĠ":13477,"gongĠye":13478,"tiĠgong":13479,"ĠsiĠhouĠ":13480,"ĠxianĠxingĠ":13481,"zhuanĠjiĠdeĠ":13482,"ĠfeiĠlvĠ":13483,"Ġzui":13484,"Ġgang":13485,"ĠFĠ":13486,"ĠyiĠxianĠ":13487,"diĠfenĠ":13488,"geĠtiĠ":13489,"jingĠneiĠdeĠ":13490,"zuĠxianĠ":13491,"diĠyiĠbaiĠ":13492,"henĠduo":13493,"zhuiĠqiuĠ":13494,"tiĠbuĠ":13495,"teĠweiĠ":13496,"douĠbuĠ":13497,"ĠzhongĠyao":13498,"shengĠhuiĠ":13499,"quĠmuĠ":13500,"ĠdeĠyiĠjiĠ":13501,"zongĠzhanĠ":13502,"ĠbiĠdeĠ":13503,"ĠdiĠrenĠ":13504,"shouĠcang":13505,"fangĠzhenĠ":13506,"quanĠguoĠzhongĠdianĠ":13507,"taoĠyuanĠ":13508,"rengĠweiĠ":13509,"faĠjueĠ":13510,"ĠerĠtaĠ":13511,"ĠziĠranĠ":13512,"ĠchuĠciĠzhiĠwaiĠ":13513,"maoĠdunĠ":13514,"ĠzuoĠbiaoĠweiĠ":13515,"Ġ11Ġ":13516,"dianĠshiĠjieĠmuĠ":13517,"Ġtiao":13518,"ĠĠĠhuoĠ":13519,"shenĠheĠ":13520,"saĠdeĠ":13521,"buĠzaiĠ":13522,"fangĠchengĠshiĠ":13523,"daiĠlaiĠdeĠ":13524,"zongĠjuĠ":13525,"tingĠzhanĠ":13526,"shaĠbaiĠ":13527,"ĠaoĠmenĠ":13528,"tianĠwenĠtaiĠ":13529,"ĠĠĠ2008ĠnianĠ":13530,"zhuanĠliĠ":13531,"yuanĠjianĠ":13532,"jingĠbeiĠ":13533,"liangĠhaoĠ":13534,"ĠdeĠyiĠxiangĠ":13535,"hanĠgaiĠ":13536,"eĠhuaĠ":13537,"qiangĠhuaĠ":13538,"Ġpang":13539,"Ġ300":13540,"ĠHR":13541,"ĠzhongĠguoĠdeĠ":13542,"zhuĠchiĠrenĠ":13543,"ziĠwoĠ":13544,"jinĠhuiĠ":13545,"ruĠqiuĠ":13546,"banĠbenĠdeĠ":13547,"ĠgongĠchanĠ":13548,"mengĠjunĠ":13549,"ĠshengĠhuoĠ":13550,"ĠshangĠshuĠ":13551,"ĠzhuĠyaoĠshiĠ":13552,"Ġqu":13553,"ĠĠĠwanĠ":13554,"luĠerĠ":13555,"dangĠbuĠ":13556,"fanĠshiĠ":13557,"nvĠrenĠ":13558,"zangĠyuĠ":13559,"fangĠxianĠ":13560,"jiangĠxueĠ":13561,"ĠxianĠshiĠyouĠ":13562,"ĠfaĠbuĠ":13563,"tongĠqiĠ":13564,"ĠjiĠkeĠ":13565,"jieĠlunĠ":13566,"jingĠtouĠ":13567,"huaĠguiĠ":13568,"liangĠanĠ":13569,"shaĠtianĠ":13570,"ĠshiĠshiĠshiĠ":13571,"ĠdeĠguoĠchengĠ":13572,"ciĠshiĠjieĠdaĠzhanĠqiĠjianĠ":13573,"ĠchaoĠguoĠ":13574,"yingĠzhiĠ":13575,"jianĠceĠ":13576,"riĠchangĠ":13577,"xiaĠxiaĠ":13578,"ĠkeĠfuĠ":13579,"yangĠziĠ":13580,"ĠzheĠzuoĠ":13581,"ĠĠĠjingĠliĠ":13582,"tingĠdaoĠ":13583,"xiangĠdongĠ":13584,"yeĠzhanĠ":13585,"gengĠduo":13586,"kaoĠchaĠ":13587,"ĠEĠ":13588,"luoĠmaĠdiĠguoĠ":13589,"feiĠlvĠbinĠ":13590,"diaoĠyuĠ":13591,"ĠbuĠzhangĠ":13592,"keĠyiĠtongĠguoĠ":13593,"ceĠlveĠ":13594,"taoĠwanĠ":13595,"Ġnei":13596,"ĠSAO":13597,"ĠĠĠguoĠjiĠ":13598,"zheĠyouĠ":13599,"kaiĠerĠ":13600,"faĠdaĠ":13601,"chanĠwuĠ":13602,"shuĠdiĠ":13603,"ĠsiĠxiangĠ":13604,"duoĠquĠ":13605,"liuĠdongĠ":13606,"cunĠzaiĠyuĠ":13607,"tuoĠluoĠ":13608,"minĠzuĠzhuĠyiĠ":13609,"baoĠfaĠhouĠ":13610,"5ĠrenĠ":13611,"ĠyingĠdeĠ":13612,"ĠboĠshiĠ":13613,"ĠĠĠhongĠ":13614,"ĠguoĠjunĠ":13615,"wuĠerĠ":13616,"wuĠpinĠ":13617,"ciĠciĠ":13618,"huoĠcheĠzhanĠ":13619,"ĠjiaĠerĠ":13620,"ĠfuĠzhuĠ":13621,"meiĠdongĠ":13622,"shanĠdingĠ":13623,"caiĠfangĠ":13624,"zhuanĠbianĠ":13625,"meiĠguoĠrenĠkouĠpuĠchaĠ":13626,"ĠdiĠqiĠyaĠ":13627,"Ġnuo":13628,"Ġ23":13629,"Ġ1994ĠnianĠ":13630,"ĠĠĠre":13631,"ziĠyouĠxiĠ":13632,"taĠyouĠ":13633,"qiuĠyiĠ":13634,"ĠqiĠyueĠ":13635,"yinĠdaoĠ":13636,"Ġ22":13637,"ĠĠĠhuaĠ":13638,"wenĠdiĠ":13639,"qingĠliĠ":13640,"qiuĠheĠ":13641,"fanĠerĠ":13642,"zeĠbeiĠ":13643,"ĠshiĠeĠluoĠsiĠ":13644,"moĠfangĠ":13645,"ĠtaiĠbeiĠ":13646,"yaĠzaiĠ":13647,"duoĠsiĠ":13648,"chiĠdaoĠ":13649,"ĠguoĠduĠ":13650,"zongĠguanĠ":13651,"pianĠduanĠ":13652,"ĠĠĠfenĠleiĠ":13653,"gaiĠyouĠ":13654,"naĠgeĠ":13655,"bangĠdiĠ":13656,"taoĠliĠ":13657,"niuĠyueĠshiĠ":13658,"31Ġ":13659,"llĠ":13660,"guoĠchengĠzhongĠ":13661,"fuĠqiĠ":13662,"jianĠdanĠ":13663,"shengĠhuoĠdeĠ":13664,"ĠjinĠerĠ":13665,"zhaoĠguĠ":13666,"ĠaĠerĠbeiĠ":13667,"ĠnongĠ":13668,"ĠĠĠlingĠ":13669,"zhiĠdeĠyiĠ":13670,"quĠdeĠyiĠgeĠ":13671,"guanĠliĠdeĠ":13672,"guĠerĠ":13673,"nanĠxiĠ":13674,"puĠsiĠ":13675,"fenĠpei":13676,"ĠfuĠlangĠ":13677,"ĠzhuĠzhangĠ":13678,"1ĠriĠqiĠ":13679,"aiĠhaoĠ":13680,"ĠdeĠdiĠsanĠ":13681,"xianĠdeĠfeiĠjianĠzhiĠdiĠquĠ":13682,"ĠgaiĠshiĠ":13683,"erĠdeĠmingĠ":13684,"Ġnu":13685,"nengĠdeĠ":13686,"puĠjiĠ":13687,"gengĠshiĠ":13688,"ĠyuĠleiĠ":13689,"huiĠsheĠ":13690,"mingĠchengĠweiĠ":13691,"jiaoĠxingĠ":13692,"jueĠseĠdeĠ":13693,"ĠshiĠjiĠzhongĠ":13694,"dianĠshiĠdongĠhuaĠ":13695,"tongĠzhiĠzheĠ":13696,"0ĠzuoĠbiaoĠweiĠ":13697,"yuĠyiĠgeĠ":13698,"ĠĠĠyaĠ":13699,"ĠĠĠzhenĠ":13700,"moĠliĠ":13701,"ĠqiĠB1900":13702,"ĠweiĠyuĠyinĠjingĠ":13703,"poĠlunĠ":13704,"0ĠzuoĠbiaoĠweiĠchiĠjingĠ":13705,"Ġzou":13706,"ĠJĠ":13707,"ĠĠĠe":13708,"huaĠerĠ":13709,"nanĠzhiĠ":13710,"ganĠshiĠ":13711,"ĠzhongĠwen":13712,"houĠdaiĠ":13713,"yingĠpian":13714,"nanĠbuĠdeĠ":13715,"ĠjinĠbiaoĠ":13716,"ĠyinĠciĠzaiĠ":13717,"ĠweiĠwuĠerĠ":13718,"leĠheĠ":13719,"duiĠdaĠ":13720,"luoĠerĠ":13721,"baiĠnianĠ":13722,"tangĠheĠ":13723,"yuanĠshengĠ":13724,"ĠqiĠrenĠ":13725,"dongĠyaĠ":13726,"aoĠdaĠliĠ":13727,"ĠdeĠjiĠbenĠ":13728,"ĠqingĠchaoĠzhengĠzhiĠrenĠwuĠ":13729,"Ġ12Ġ":13730,"ĠĠĠ11ĠyueĠ":13731,"teĠzhiĠ":13732,"shuiĠzhongĠ":13733,"shaoĠweiĠ":13734,"buĠduanĠ":13735,"yuanĠxiaoĠ":13736,"huaĠfenĠ":13737,"taoĠlun":13738,"ĠliĠshiĠhuiĠ":13739,"zhanĠdouĠjiĠ":13740,"Ġ1992ĠnianĠ":13741,"ĠHĠ":13742,"senĠdeĠ":13743,"chengĠxiangĠ":13744,"zhuĠzhaiĠ":13745,"zheĠxiangĠ":13746,"ĠxingĠzheng":13747,"ĠxianĠfaĠ":13748,"suoĠweiĠdeĠ":13749,"saiĠnaĠ":13750,"ĠguoĠminĠzhengĠfuĠ":13751,"ĠĠĠcheĠzhanĠgouĠzaoĠ":13752,"Ġ1945":13753,"ĠduĠliĠ":13754,"ĠĠĠ2022ĠnianĠ":13755,"taiĠzaiĠ":13756,"wenĠzhiĠ":13757,"liangĠyiĠ":13758,"jingĠlingĠ":13759,"miĠqieĠ":13760,"henĠdaĠdeĠ":13761,"ĠĠĠtaĠdeĠ":13762,"taĠliĠ":13763,"baiĠheĠ":13764,"ĠnianĠqingĠdeĠ":13765,"heĠlanĠ":13766,"fuĠxianĠ":13767,"ĠxiĠzhouĠ":13768,"juĠdianĠ":13769,"xuanĠyanĠ":13770,"ĠdongĠhuaĠ":13771,"biaoĠxianĠchuĠ":13772,"fenĠbuĠzaiĠ":13773,"xinĠtaiĠbiĠ":13774,"Ġqiang":13775,"duĠzaiĠ":13776,"sangĠshiĠ":13777,"ĠbuĠbingĠ":13778,"xueĠxiaoĠdeĠ":13779,"zhanĠlveĠ":13780,"leiĠsiĠyuĠ":13781,"xunĠzhao":13782,"kongĠzhiĠdeĠ":13783,"ĠQ":13784,"ĠĠĠbiĠ":13785,"daĠrenĠ":13786,"dongĠheĠ":13787,"luĠzhongĠ":13788,"teĠrenĠ":13789,"yunĠzaiĠ":13790,"ĠweiĠzaiĠ":13791,"zhongĠgongĠ":13792,"yuanĠzhengĠ":13793,"zhuĠfangĠ":13794,"xianĠzaiĠdeĠ":13795,"xinĠquĠ":13796,"zongĠshuĠjiĠ":13797,"ĠqiĠzhongĠyouĠ":13798,"shunĠshiĠzhenĠyuĠ":13799,"Ġkao":13800,"chuanĠdaoĠ":13801,"baiĠshiĠ":13802,"ĠshiĠxiangĠgangĠ":13803,"ĠjiĠxieĠ":13804,"dongĠquĠ":13805,"huaĠbeiĠ":13806,"wanĠchengĠleĠ":13807,"ĠweiĠyuĠgaiĠshengĠ":13808,"ĠchangĠqiĠ":13809,"ĠtaiĠguoĠ":13810,"ĠĠĠDe":13811,"ĠĠĠkaiĠ":13812,"zhanĠyiĠzhongĠ":13813,"muĠliĠ":13814,"xunĠxiĠ":13815,"suanĠjianĠ":13816,"ĠshiĠfenĠ":13817,"chuĠsaiĠ":13818,"ĠxiĠgeĠ":13819,"lianĠsaiĠdeĠ":13820,"yaĠjiĠ":13821,"luoĠheĠ":13822,"lanĠheĠ":13823,"duanĠweiĠ":13824,"wuĠdaĠ":13825,"faĠshe":13826,"ĠxianĠshengĠ":13827,"ĠxiangĠsiĠ":13828,"hongĠzhaĠ":13829,"ĠtongĠshiĠyeĠshiĠ":13830,"ĠxingĠzhengĠquĠ":13831,"geĠlunĠbiĠyaĠ":13832,"zhenĠjiĠxingĠzhengĠdanĠweiĠ":13833,"ĠminĠzhuĠ":13834,"ĠguangĠxiĠ":13835,"ĠĠĠsanĠ":13836,"faĠweiĠyuanĠ":13837,"waĠdeĠ":13838,"qiaĠ":13839,"daĠgeĠmingĠ":13840,"fuĠzeĠrenĠ":13841,"wuĠtiĠ":13842,"jiaoĠtuĠ":13843,"paiĠshe":13844,"rongĠliangĠ":13845,"ĠzongĠtongĠ":13846,"ĠweiĠjiĠchuĠ":13847,"ĠTĠ":13848,"zhuiĠsuĠdaoĠ":13849,"Ġ1990":13850,"congĠzhongĠ":13851,"ĠqiĠxi":13852,"ĠgongĠzhuĠ":13853,"ĠziĠran":13854,"ĠluoĠsiĠ":13855,"ĠĠĠ5":13856,"faĠrenĠ":13857,"1909ĠnianĠ":13858,"zhanĠkai":13859,"changĠchangĠ":13860,"ĠzhanĠhouĠ":13861,"Ġ40":13862,"zuoĠdaĠ":13863,"wenĠbuĠ":13864,"zhuanĠkeĠ":13865,"xiuĠsiĠ":13866,"ĠyiĠyou":13867,"ĠzaiĠxinĠ":13868,"siĠhouĠ":13869,"jiaĠshangĠ":13870,"zuoĠweiĠyiĠ":13871,"jiangĠnanĠ":13872,"kaiĠchuĠ":13873,"ĠpingĠchengĠ":13874,"ĠfenĠbuĠzaiĠ":13875,"2ĠliĠ":13876,"ĠweiĠshiĠ":13877,"ĠdouĠshiĠ":13878,"ĠaoĠsiĠ":13879,"Ġ1993ĠnianĠ":13880,"ĠĠĠMe":13881,"feiĠdiĠ":13882,"zhuanĠchengĠ":13883,"shaĠrenĠ":13884,"genĠdiĠ":13885,"1970ĠnianĠdaiĠ":13886,"leĠbiĠ":13887,"xueĠtongĠ":13888,"yingĠxiangĠdeĠ":13889,"fengĠsuoĠ":13890,"chuanĠshuĠ":13891,"lvĠhuaĠ":13892,"5ĠgongĠliĠ":13893,"zuĠqiuĠlianĠsaiĠ":13894,"ĠcongĠciĠ":13895,"xiaĠxiaĠdeĠyiĠgeĠxiangĠzhenĠjiĠxingĠzhengĠdanĠweiĠ":13896,"ĠRe":13897,"baĠjiĠsiĠ":13898,"ĠyiĠdingĠ":13899,"beiĠrenĠweiĠ":13900,"luĠjingĠ":13901,"dianĠxinĠ":13902,"ĠfuĠjinĠdeĠ":13903,"laiĠkanĠ":13904,"ĠxingĠquĠ":13905,"benĠzhanĠ":13906,"tiaoĠkuanĠ":13907,"ĠĠĠV":13908,"zhanĠliĠ":13909,"buĠhuiĠ":13910,"zheĠciĠ":13911,"shenĠpanĠ":13912,"hunĠningĠ":13913,"ĠguanĠzhuangĠbingĠduĠ":13914,"ĠĠĠlinĠ":13915,"mingĠqiĠ":13916,"tuĠshiĠ":13917,"tingĠzhongĠ":13918,"rongĠjiĠ":13919,"paoĠdaoĠ":13920,"ĠjiĠyinĠ":13921,"shouĠsunĠ":13922,"wenĠshuĠ":13923,"nanĠjiĠtiaoĠyueĠ":13924,"Ġcang":13925,"ĠĠĠfengĠ":13926,"daĠĠĠ":13927,"lianĠshiĠ":13928,"mianĠweiĠ":13929,"ĠyouĠyiĠzhiĠ":13930,"shangĠbiaoĠ":13931,"yinĠyingĠ":13932,"ĠxiangĠdangĠyuĠ":13933,"gangĠqinĠ":13934,"aoĠmen":13935,"ĠnanĠbeiĠ":13936,"Ġãĥ³":13937,"Ġ1995ĠnianĠ":13938,"ĠĠĠxiangĠgang":13939,"ĠĠĠ2009ĠnianĠ":13940,"wengĠ":13941,"ESTĠ":13942,"buĠtong":13943,"ciĠdianĠ":13944,"tiĠanĠ":13945,"laiĠzi":13946,"ĠjuĠjueĠ":13947,"jiaĠruĠleĠ":13948,"ĠĠĠhaiĠ":13949,"minĠshiĠ":13950,"haoĠzaiĠ":13951,"ĠdeĠheĠ":13952,"shengĠqiĠ":13953,"fangĠkongĠ":13954,"yaĠgeĠ":13955,"ĠboĠlanĠ":13956,"dongĠjingĠduĠ":13957,"Ġ1996ĠnianĠ":13958,"aoĠkeĠ":13959,"ĠĠĠH":13960,"ĠĠĠfenĠ":13961,"ĠĠĠsheĠjiĠ":13962,"diĠshiĠyiĠ":13963,"shouĠzaiĠ":13964,"duĠyueĠ":13965,"yaĠerĠ":13966,"longĠkeĠ":13967,"penĠdiĠ":13968,"ĠyouĠbeiĠ":13969,"xiĠtongĠdeĠ":13970,"fuĠnvĠ":13971,"zhanĠshengĠ":13972,"changĠanĠ":13973,"luĠyinĠ":13974,"ĠgaiĠshuĠ":13975,"tuĠsiĠ":13976,"chuanĠshiĠ":13977,"touĠyuĠ":13978,"stĠ":13979,"ĠyiĠseĠlieĠ":13980,"ĠliĠxianĠ":13981,"ĠrenĠzhengĠ":13982,"shangĠkeĠ":13983,
[...]
