#version: 0.2
ä ¸
ä º
ç ļ
çļ Ħ
å ħ
å ı
æ ľ
ã Ģ
å ¹
ä »
å ¤
å ľ
å Ĳ
å Ī
å Ľ
å ®
å¹ ´
ä ½
æ Ĺ
ç Ķ
å į
æ ĸ
è ¿
å °
æ ĺ
ä ¹
ç »
ãĢ ģ
åľ ¨
ä¸ º
å Ĭ
æ Ī
ä ¼
ä¸ Ģ
å Ń
å Į
å ¸
è ¯
è ®
ä¸ Ń
å Ĩ
åĽ ½
äº º
æĺ ¯
å º
æ Ŀ
å ¼
å ·
äº İ
å ¾
é ĩ
ç ī
ç §
è ¡
ç º
å¤ §
æ ī
é Ģ
æľ ī
å ±
æ Ķ
å ĩ
å Ĵ
åĴ Į
2 0
æ Ń
é ĥ
è µ
è Ģ
æ ķ
å ½
å İ
æľ Ī
å ¯
æ °
é Ļ
æ ĭ
æĹ ¥
ç Ľ
è ĩ
æ ³
å ¥
æ ł
ç İ
1 9
é ĺ
ä» ¥
åĲ İ
æĹ ¶
â Ģ
å ĳ
äº Ĩ
åľ °
æ ²
ç «
æ µ
ä¼ ļ
åŃ ¦
è §
æ Ģ
è ¾
è ´
æĪ Ĳ
é Ĺ
è ½
é Ŀ
å Ł
ä¸ ª
ç Ĳ
ä¸ Ĭ
éĥ ¨
å ī
æĸ ¯
é ķ
ä¸ İ
è¡ Į
ä» ĸ
åĩ º
ä¸ į
æ ¯
åĮ º
æ ´
æ ŀ
æ Ĭ
æ İ
åħ ¬
ç ¬
åħ ¶
åı ĳ
æ ¸
ç ½
ä½ ľ
çĶ Ł
æ Ľ
å° Ķ
åĲ į
ä ¿
ä¸ »
åĪ Ĩ
è ¢
ç Ń
è ĥ
ä¹ ĭ
é ģ
æĸ ¹
ç¬ ¬
çĶ ¨
å® ¶
å §
ãĢ ĭ
ãĢ Ĭ
è ¥
å¹ ¶
ç ¾
è¥ ¿
æ³ ķ
åĪ °
å ¿
èĢ Į
Â ·
æ ¬
é ¢
åĨ Ľ
å »
åı Ĭ
è¢ «
ä ¾
æĶ ¿
ä½ į
ç ±
çĶ ±
æ Į
æľ ¬
ç ľ
æ ±
æ° ĳ
è ·
é Ľ
é ¦
ä¸ ĭ
å¸ Ĥ
å ĵ
å¯ ¹
åĲ Į
è ģ
è ĭ
åħ ĭ
åĬ ¨
æĿ ¥
çī ¹
éķ ¿
è¿ Ļ
å¤ ļ
ä» »
èĩ ª
å¼ Ģ
éĩ Į
åĳ ĺ
åį Ĺ
é ©
åŃ Ĳ
åı ¯
æĸ °
å¹ ³
è ī
å Ŀ
è İ
åĬ ł
å¾ ·
åĮ Ĺ
ãĢ Į
ãĢ į
æľ Ģ
æĸ ĩ
å £
åĪ ©
æ Ļ
ç¾ İ
é «
åī į
ä¸ ľ
ä» £
é« ĺ
äº ļ
éĿ ¢
æµ ·
æī Ģ
¦ ģ
å¾ Ĺ
èĩ ³
ç ¤
å» º
è Ī
éĹ ´
æŃ ¤
åĨ ħ
åĽ ł
äº ĭ
âĢ ľ
ä¸ ī
âĢ Ŀ
çİ °
è¿ Ľ
çĶ µ
) ,
ä¹ Ł
çī ©
è¿ ĩ
èµ Ľ
20 1
çŃ ī
åı °
åº ¦
è½ ¦
åħ ¥
è¯ ¥
ç» ı
å½ ĵ
éģ ĵ
ç ¥
è ¦ģ
ç« ĭ
æĪ ĺ
å° Ĩ
çĲ Ĩ
ç ©
è¡ ¨
ä½ ĵ
ç Ł
ç ķ
æĭ ī
é ¡
å ¦
è °
å ²
æľ º
æķ Ļ
æľ Ł
ä¸ ĸ
è Ĳ
é ļ
æ ı
å· ¥
åĪ ¶
ç ®
èĥ ½
äº Į
å¤ ĸ
åĲ Ī
æ į
è· ¯
å® ļ
åı £
çľ ģ
å¸ ĥ
æ¬ ¡
æ Ħ
é© ¬
è® ¾
åħ ±
æĢ §
éĺ Ł
åľ º
éĢ ļ
ä¸ ļ
å± ±
å° ı
20 0
çĲ ĥ
ä½ Ĩ
è Ĭ
ä½ ¿
é ĵ
è ¶
åį ģ
ä¸Ģ ä¸ª
èĢ ħ
å· ŀ
åĮ ĸ
åħ ¨
æ ĥ
ç ³
æķ °
ç§ į
é £
ç§ °
å¤ ©
è Ĥ
ç½ Ĺ
ç§ ĳ
ç ł
æ Ł
çº ¿
ç Ļ
å¼ ı
ç± ³
ç« Ļ
éĩ į
å® ī
é Ł
èģ Ķ
æ ģ
ç Ĥ
ä¸ ¤
é Ĥ
ç³ »
æ¯ Ķ
æ ¼
ç ¼
1 0
ç Ī
æ ¡
ç ¦
ç ¨
å ¢
æĢ »
éĢ ī
è¿ Ĳ
åĬ Ľ
åİ ¿
åħ °
å£ «
çĽ ¸
éĻ ¢
æ ¹
åŁ º
åħ ³
ä¸Ń åĽ½
éĥ ½
æ² »
åİ Ł
è¾ ¾
åŁ İ
ç» Ł
å ģ
æł ¼
èµ ·
ç» Ħ
æŃ £
æĺ İ
é »
çº ¦
åı ·
èĭ ±
æ° ´
å½ ±
å° ¼
æĪ ĸ
å± ŀ
åº ľ
å ¡
æİ ¥
åı ¸
è® ¡
éĩ ĳ
çĽ ®
é¦ ĸ
çİ ĭ
è® ®
æı Ĳ
åį İ
ç Ħ
ä» ¬
éĺ ¿
åĽ Ľ
ä» İ
åĪ Ĺ
åħ ĥ
ç ģ
æ¼ Ķ
å· ´
ç¾İ åĽ½
è ĳ
0 0
å¦ Ĥ
äº §
è¯ Ń
å Ģ
é ħ
åı Ĥ
åı ²
éĩ ı
å ŀ
æĶ ¹
å¸ ¸
å¥ ³
æ ®
æ ¶
éķ ĩ
åĲ ĳ
è £
è į
åĬ ¡
æŀ Ĺ
1 8
åĮ ħ
æ¸ ¯
å ¨
) .
æĽ ¾
æĹ ł
èİ ·
äºº åı£
çĦ ¶
äº ¤
å Ķ
å® ŀ
å¿ ĥ
é Ķ
åı Ĺ
é ľ
1 2
ä½į äºİ
ç» ´
æĦ ı
åİ Ĩ
ç» ĵ
èī ²
çķ Į
çº §
ä¹ Ĳ
æī ĭ
å§ ĭ
ä¿ Ŀ
å§ Ķ
åĪ Ļ
ä¹ ī
æ Ĵ
å¤ Ħ
åħ ļ
è§ Ĩ
ä¹ ¦
ç ´
åĽ ¢
0 å¹´
ç® ¡
å½ ¢
ç¨ ĭ
æ £
å¯ ¼
å ĭ
1 å¹´
è® ¤
æį ®
ç± »
æ² ³
å° ±
åį ¡
éĹ ¨
æ ·
æĮ ĩ
æľĪ 2
çĽ ´
20 2
5 å¹´
åį ķ
é Ĵ
ç ĥ
è¯ ´
éŁ ³
äº Ľ
å¹ ¿
åŀ ĭ
å· ²
åº Ķ
4 å¹´
æĺ Ł
éĽ Ĩ
ç¤ º
å¥ ¥
æµ ģ
é¢ Ĩ
ç¤ ¾
å ł
ä¼ ł
æ º
æĮ ģ
é ²
åĵ ģ
çĤ ¹
è º
æł ¡
æĽ ´
2 å¹´
å± ķ
å¤ «
3 å¹´
e r
ç ĭ
åĽ ŀ
è Į
ä¸ ¾
æĻ ®
1 1
æ¸ ¸
ä¸ ĩ
ç§ ¯
8 å¹´
èº «
6 å¹´
æ ¢
ç© º
åı į
é ª
èµ Ħ
æĶ¿ åºľ
æĥ ħ
å® ĺ
ç ¡
çº ª
äº Ķ
æ´ »
è¿ ĺ
é ¾
åĩ »
a n
æĶ ¯
é¦ Ļ
æł ĩ
æĬ ¥
æ »
o r
å¸ Ī
åĲ Ħ
æ¹ ¾
éĵ ģ
åĪ «
7 å¹´
è Ĵ
éĢ ł
å¤§ åŃ¦
çº ³
è Ļ
åı ĸ
ä½¿ çĶ¨
ç Ĭ
åı ¤
å² Ľ
ç ĸ
æĪĲ ä¸º
å¤ ª
æĹ¥ æľ¬
i n
åī §
å± Ģ
åħ¬ åı¸
åı ĺ
æĭ ¬
ç ı
æľ ¯
åŃ Ĺ
å ķ
å¥ ¹
ç Ŀ
æĹ ı
ä¸ ĵ
åĳ ½
åĮħ æĭ¬
åľ° åĮº
éĿ ŀ
å¸ ¦
èĳ Ĺ
åĽ½ å®¶
å¼ ł
è® º
è¿ ĳ
åį ³
å¼Ģ å§ĭ
çł Ķ
æľ Ŀ
æ± Ł
åĨ ³
ä¿ ¡
è§ £
æ´ ²
æĽ ²
èĬ Ĥ
ç Ĺ
ç¥ ŀ
é£ İ
o n
çī ĩ
å° ĳ
èģ Į
ä» ¶
ç ²
è¿Ľ è¡Į
ä¼ Ĭ
åĽ ¾
è Ħ
æľ ª
ç ĵ
è® °
åı ª
ç ¿
å¹³ æĸ¹
å® ĥ
æľĪ 1
æł ¹
æĿ ĥ
æ² ¡
çŁ ³
éĻ ħ
ç¬¬ ä¸Ģ
èĭ ı
æ¯ ı
ç¼ ĸ
è§ Ĵ
è½ ¬
åı¯ ä»¥
æĶ ¾
æ³ ¢
æ ¨
äº ¬
ä¾ ĭ
19 9
æĶ ¶
æĿ ¡
çļĦ ä¸Ģ
åĪ Ĵ
è° ĥ
é¾ Ļ
åħ¬ éĩĮ
é¦Ļ æ¸¯
åĳ ¨
åħ ī
åķ Ĩ
åĪ Ľ
æ¸ ħ
è¿ ŀ
åĪ Ŀ
9 å¹´
æ° Ķ
æŃ Į
ç¦ »
æĿ ĳ
å ĸ
æ ĳ
çī Ī
éĻ Ĩ
éĥ¨ åĪĨ
ç© ¶
å Ļ
å¾ Ģ
äºº æ°ĳ
å¤ ´
èİ· å¾Ĺ
è ±
åŃ £
çŁ ¥
ä¸ĸ çķĮ
åı Ī
éĿ¢ ç§¯
åħ Ī
çłĶ ç©¶
åİ »
å¯ Ĩ
æŀ Ħ
åŁ Ł
æ´ ¾
ä» ¤
æī ĵ
ç» Ń
æŀ ľ
åĬ ŀ
å¼ º
éļ ı
æŁ ¥
å¨ ģ
ä¸» è¦ģ
çĻ ½
åĨ į
åħ µ
äº ī
åº §
æŃ ¦
ä»ĸ ä»¬
ç¦ ı
å¤ į
è§ Ĥ
èĤ ²
è£ ħ
åİĨ åı²
å® Į
åħ Ń
l a
åĻ ¨
è®¤ ä¸º
å¼ ķ
é¡ ¹
æ® µ
æ ļ
é¢ ĺ
è¶ ³
åı° æ¹¾
åĵ Ī
æ²¡ æľī
ä¸ Ķ
æĿ İ
ç ĳ
å¡ Ķ
æľ į
éĻ ¤
å± ħ
å® £
æ¬ §
1 5
æĪ ı
ç½ ĳ
æĴ Ń
ç» Ī
è§ Ħ
æĭ ħ
åį ı
èĲ ¥
äº ¦
è® ¸
æİ ¨
è ı
çĵ ¦
åľ £
ä» ½
å§Ķ åĳĺ
å¥ ĸ
åľ Ł
æ¡ Ī
ç½ ®
å½ ķ
ä¿ ®
è´ ¨
è ¨
äº ²
èĲ ¨
è¨ Ģ
çĶ ·
å Ħ
a r
æº Ĳ
ç¬¬ äºĮ
åŃ ĺ
å¸ Ŀ
ä»£ è¡¨
éĹ ®
åĭ Ĵ
ä» Ĭ
è¯ Ħ
åĽ Ń
æ ¥
e n
åħ ·
ç» Ļ
æĬ ¤
ä¾ Ľ
éĽ ·
è¿Ĳ åĬ¨
é¦ Ĩ
æŃ »
æĬ ķ
åħ «
çĪ ±
æĶ¿ æ²»
çĶ± äºİ
æ³ķ åĽ½
éĢ Ł
åħ¶ ä»ĸ
åį ĥ
åĩ Ĩ
å® Ĺ
åį °
å¢ ŀ
è¾ ĥ
è¶ ħ
ä¼ ¯
å¢ ĥ
æ´ Ľ
å¸ Į
æ± Ĥ
åĬ Ł
è§ ģ
çĶµ å½±
çĶ »
çļĦ ä¸Ģä¸ª
æ± ī
1 6
èĩ ´
( ),
åĿ ĩ
åį ĩ
å¤ ĩ
åı ¦
è¯ º
åĬ ©
åį «
å·¥ ä½ľ
åį ļ
ç Į
çİ ĩ
èİ ±
éĺ ³
åĦ ¿
è¾ ¹
ä¼ Ĺ
å¥ ½
è Ĺ
é ¥
å ĥ
å® ¢
å® ¹
èĪ ª
ä¼ ¦
åĳ Ĭ
19 8
æĹ ©
æ¨ ¡
ç ª
ä¹ Į
åĲ ī
è¯ ķ
ä¿ Ħ
ä½ľ ä¸º
ä»¥ åıĬ
æİ Ĵ
åī ¯
èī º
æł ·
æµ İ
å¾ Ī
çģ «
çİ ¯
æķ ħ
å¡ ŀ
æĪ ĳ
æĶ »
åĽ½ éĻħ
é» Ħ
çĶ °
ç¾ ¤
å· ±
èĬ ±
åı¯ èĥ½
æ¯ į
ä¹ Ŀ
çĪ ¶
æĸ ½
åĵ į
çı Ń
è ħ
åĽ ´
ä¸Ń å¿ĥ
è¡¨ ç¤º
1 7
æĬ Ģ
æķ ´
é² ģ
æ² Ļ
ç» §
åĮ »
æĭħ ä»»
3 0
å¤ ±
å¸Ĥ éķĩ
çŃ ĳ
èĲ ½
çĹ ħ
ä¸Ń åįİ
åħ ´
è¯ ģ
ç» ĩ
) ãĢģ
ç³» ç»Ł
æ ¦
è´ £
ä¹ ¡
å¿ Ĺ
å¸ Ń
éĩ ĩ
éĺ ²
èĪ °
å® ¤
è Ń
å± Ĥ
æī ĺ
ä¸Ń çļĦ
éĿ Ĵ
çĽ Ł
ä¸ ĥ
æĦ Ł
èŃ ¦
éľ Ģ
çĻ »
åĨ ł
æĹ¶ éĹ´
çĭ ¬
èĭ± åĽ½
è´ Ł
åį Ĭ
é º
æ¹ ĸ
æ¸¸ æĪı
éĢļ è¿ĩ
å£ °
çĶµ è§Ĩ
å§ Ĩ
éĤ £
çĻ ¾
éħ į
ç ¢
èĩª å·±
åı Į
è½¦ ç«Ļ
éĻ Ī
æł¹ æį®
a l
åł Ĥ
é» ĳ
åıĳ çİ°
æĺ ĵ
çĥ Ń
çļ ĩ
åĨ Ļ
å½ĵ æĹ¶
è¡Į æĶ¿
( ,
ç¡ ®
çº ¢
çĬ ¶
é£ ŀ
åıĳ å±ķ
æĪĲ ç«ĭ
æģ ©
ä½ ķ
å¤ ı
æľŁ éĹ´
æ· ±
ä» į
èĢ ĥ
æŀ ģ
ä½ ı
åį ł
ç ħ
é ±
åħ± åĴĮ
æ£ ®
è¡ Ĺ
1 4
è¶ Ĭ
éĻ Ĳ
å¤ ®
å° Ħ
é ¸
é± ¼
çĶ ²
åĲĮ æĹ¶
æŃ ¥
a t
è®¾ è®¡
ç¤¾ ä¼ļ
âĢ Ķ
é£ Ł
è® ©
å»º çŃĳ
äºİ 19
åĥ ı
åŁ ĥ
è± ¡
ä¹ĭ ä¸Ģ
æĽ ¼
æĿ Ģ
å¯ Ł
è´ ¹
èĮ ĥ
å± Ĭ
æİ §
æī ¹
ç¥ ¨
ä» ħ
æ ½
è´ Ŀ
æĻ ¯
ç»Ħ ç»ĩ
æĸ Ļ
æ Ĥ
åŃ¦ éĻ¢
å¥ ĩ
e s
ä¸į åĲĮ
æ´ ĭ
å² ģ
åıĤ åĬł
æµ ĭ
çķ Ļ
èĢ ģ
ä¸Ń å¤®
å§Ķåĳĺ ä¼ļ
è¿ ª
åĨ ľ
æ¥ ¼
æĸĩ åĮĸ
ä½ İ
æŃ ¢
ä¸ĸ çºª
å· Ŀ
å½± åĵį
æ¯Ķ èµĽ
èĥ ľ
éĿ ©
è¯ į
åĵ ¥
ç§° ä¸º
å¾ ĭ
çī Į
é¡ ¿
æĥ ³
å±ŀ äºİ
æİ Ī
f or
æķ Ī
1 3
å ĺ
æ³ °
è¾ ĸ
ä¾ ¿
å¹³æĸ¹ åħ¬éĩĮ
æ ¤
æľ ¨
éĻ į
åĩ ł
ç§ »
è¿ °
çľ Ł
i c
æ ħ
åģ ľ
æī į
æ° ı
éĵ ¶
æ¡ ¥
( )
èĴ Ļ
æĪ ¿
å¿ µ
æĺ ¾
éŁ³ ä¹Ĳ
æī ¿
æĢ ģ
çĿ Ģ
è´ ¥
âĢĿ .
å ©
ç´ ¢
æ ¾
åħ±åĴĮ åĽ½
åº ķ
åº ·
åº ĵ
é¢ Ħ
ä¸» ä¹ī
é Ń
m u
åŃ¦ æł¡
å¾ ģ
ç´ ł
æ´» åĬ¨
çī Ļ
è¾ ĳ
çľ ĭ
å¼ ¹
åĶ ±
åħ ¸
ä½ľ åĵģ
æŃ£ å¼ı
æ¶ Ī
æıĲ ä¾Ľ
åĪ© äºļ
ç® Ģ
è®¡ åĪĴ
åĩº çİ°
ç½Ĺ æĸ¯
è½ ½
ä¹ ł
ä»ĸ çļĦ
æīĢ æľī
æģ ¯
ä» ·
å ³
ä¹ĭ éĹ´
éĻ Ħ
ç»ı æµİ
ç®¡ çĲĨ
åıĳ çĶŁ
æľĢ ç»Ī
éĵģ è·¯
çł ģ
ãĢį .
çĳ ŀ
æī §
æĹ¶ æľŁ
è¿ ľ
i s
åĿ ¦
æĪ ·
ä¸Ģ ç§į
å¹ ²
åı ĭ
åŁİ å¸Ĥ
åĨ µ
ç® Ĺ
ä¾ §
æķĻ èĤ²
ç¥ ĸ
éĢ Ģ
éŁ ©
å® Ī
æ» ¡
åĲİ æĿ¥
äº ĳ
æ³ ¨
èĪ ¹
mu la
å½ĵ åľ°
è¯ ·
è¯ Ŀ
æ¸ ©
éĤ ¦
for mula
åĢ Ļ
ä½ Ļ
ä½ Ľ
æ Ĳ
æĬ Ĭ
ç« ł
ä¸ ģ
ç² ¾
i t
æĬ Ĺ
å® ģ
çĽ ĳ
19 7
åĪ¶ ä½ľ
åł ¡
19 4
20 å¹´
æľ Ľ
a m
æĹ §
è´Ł è´£
å¾· åĽ½
å· ¦
æĪĲ åĳĺ
ä¸Ĭ çļĦ
æĭ ¿
éĹ® é¢ĺ
æľ Ĺ
éª Į
h e
åĬ ¿
è¿Ľ åħ¥
æĢ Ŀ
ä¸ ´
è®¸ å¤ļ
åĪ ĺ
å ´
çª ģ
é ¹
çł ´
å¿ «
å® «
æĹ ħ
ä¾ Ŀ
åİ ĭ
åº Ħ
ç¬¬ ä¸ī
åĲį ä¸º
èİ «
æľĢ åĲİ
ä¼ ¼
æĪĺ äºī
å¯ Į
ä¸Ģ äºĽ
æ¢ ħ
çĿ £
åĢ ¼
åģ ļ
åħ¨ åĽ½
æĶ¯ æĮģ
å° ģ
èĹ ı
æ° ¸
åĲ «
å» ¶
æĸ Ĺ
èĴ Ĥ
5 0
æĭ Ķ
çĶŁ æ´»
åĽł ä¸º
åİ ħ
ä¹ĭ åĲİ
åį ¢
äºº çļĦ
çħ §
äº ¡
æľį åĬ¡
å¼ Ĺ
éļ ¾
l e
åİ Ĥ
ç» Ĩ
æ¾ ³
åĪ ¤
æ ĵ
æł ¸
æŀ ¶
ä¸ ¹
å¤§ çļĦ
éģ Ĺ
ä¼ ¤
å°¼ äºļ
å®£ å¸ĥ
çļ ®
èĻ ½
å½ Ĵ
åį° åº¦
åı ³
ä¿Ħ ç½Ĺæĸ¯
å·² ç»ı
è¯ Ĩ
åº Ĩ
åıĤ ä¸İ
åľ° æĸ¹
ä¸¾ è¡Į
æĸ Ń
åħ³ ç³»
åıĳ è¡Į
éĹ »
19 6
ç Ĩ
è½ ®
é ½
åı ¶
ä¸ ½
æĿ °
åº Ĺ
æĸ¹ éĿ¢
ç¤ ¼
åĶ Ĳ
åĨ³ å®ļ
å·¥ ç¨ĭ
ï ¼
éĩį è¦ģ
è Ľ
è¶³ çĲĥ
r o
åĮĹ äº¬
åĪ ĩ
ä¸¤ ä¸ª
ä¼ ĺ
çŃ ĸ
ä¸ ¥
ä¸Ĭ æµ·
åº Ń
èµ °
ãĢį ,
å¿ ħ
è¯ »
æĭ ¥
ç» Ŀ
éģ Ń
0å¹´ ä»£
å° ļ
èģĶ åĲĪ
äºº çī©
å¼ Ĥ
r e
åĺ ī
éĥ ¡
äºĭ ä»¶
ç» ĥ
æį ¢
åĮĹ éĥ¨
åĨł åĨĽ
é© »
å½ ¹
èµ «
åŃ¦ å®¶
èĬĤ çĽ®
æ¤ į
å² ¸
éº ¦
éĩ İ
åŃ¦ çĶŁ
å¼ Ł
ä¼ļ è®®
19 5
æ² ¹
äººæ°ĳ åħ±åĴĮåĽ½
æĬĢ æľ¯
éĢ Ĳ
åĶ ®
èĥ Į
æ¯ ķ
æĿ ¾
åĪ° äºĨ
åĬł åħ¥
é ³
å¯ º
00 0
èī ¾
è ĵ
åį ´
ä¿Ŀ æĬ¤
e l
åĪĹ è½¦
ä¹ ħ
æĢ» ç»Ł
æ¬§ æ´²
ç½ ²
20 19
èı ²
éļ Ĩ
è®¾ æľī
æĻ ļ
é ¼
å¹³æĸ¹ åįĥ
èĪ ¬
s t
å ª
åĪĨ åĪ«
æĿ¥ èĩª
ç« ¯
20 20å¹´
çĽ® åīį
ç ¯
æĺ ¥
çŁ Ń
éĢ ģ
åħ ¹
åĪĨ å¸ĥ
åħĭ åħ°
éľĢ è¦ģ
ç³» åĪĹ
ä¹ ĺ
ä½ ³
å° ½
æĿ Ł
å® Ŀ
å®Į æĪĲ
ä¸Ńåįİ äººæ°ĳåħ±åĴĮåĽ½
éĢļ å¸¸
é¡ º
æ°ĳ åĽ½
ä» Ģ
åĲĮ å¹´
æ² ¿
æľ «
æĹ Ĺ
å»º ç«ĭ
åĲ ¯
èį ī
åįĹ éĥ¨
åº ı
åŃĺ åľ¨
éĺ ¶
éĺ µ
èį ¯
å¯¼ èĩ´
èĢ ¶
éĽ Ħ
éħ Ĵ
æļ ´
æĸ¯ çī¹
æ¯ Ľ
æĪĲ åĬŁ
i on
æ³ ½
åħ ¼
é¢ ĳ
äºİ 201
åħ± æľī
åĨ ²
è½ »
è¦ģ æ±Ĥ
æĳ Ħ
çĭ¬ ç«ĭ
è· Ŀ
çĦ¶ èĢĮ
2 5
ç»Ħ æĪĲ
ä¾ĭ å¦Ĥ
æĳ ©
è¿Ļ äºĽ
æľĢ é«ĺ
éĶ Ģ
æ¬ ¾
è¿Ļ ä¸ª
è¾ ĵ
åįķ ä½į
èĻ½ çĦ¶
æµ· æĭĶ
12 æľĪ
å¼Ģ åıĳ
æĭ¥ æľī
å¸ ķ
èĩª çĶ±
ãĢĭ (
ãĢĭ ãĢģ
çģ µ
åŃ Ļ
ä¸ĵ è¾ĳ
æĺ¯ åľ¨
çŃ ¾
åª Ĵ
çĽ¸ åħ³
ä¹Į åħĭåħ°
ç± į
å© ļ
çİ Ľ
æĥħ åĨµ
çĶ¨ äºİ
ç½ ª
19 3
é¡ »
èīº æľ¯
æĺ¯ ä¸Ģ
æĿ Ĥ
äºº åĳĺ
çº ½
é¥ °
æ£ Ģ
éĽ ħ
e t
é¡ ¶
çĲĥ éĺŁ
âĢĿ ,
éĢī ä¸¾
å¯Ĩ åº¦
æĿ ¨
èģĶ çĽŁ
éĩĩ çĶ¨
æŀ ª
i l
å Ĥ
æıĲ åĩº
2 4
ä» ĭ
äºĨ ä¸Ģ
åīį å¾Ģ
åĬ ³
ç§ Ģ
åħ į
o u
7 æľĪ
çķ ¥
åıĹ åĪ°
æ² ĥ
å· ®
æĭ į
éĢ ı
è¿ ½
å® ³
äº ¿
æ ¿
ãĢĭ ,
å· ¡
o l
æĸ¹ å¼ı
9 æľĪ
çĽ ĸ
åĩ ı
èĭ ¥
è§Ĵ èī²
è´ ¢
ä¸º äºĨ
10 æľĪ
éĴ Ł
è¢ Ń
8 æľĪ
è¿ ģ
éĩ Ĭ
åĽ½ æ°ĳ
äºĮ åįģ
æĿ ¿
èī ¯
a c
å° ¾
åĲ ´
å¤§ éĻĨ
è® Ń
è ŀ
åħ· æľī
èį £
æĿ ¯
åĲĪ ä½ľ
3 æľĪ
è° ·
çĪ Ĩ
éħ ¸
äº¤ éĢļ
æķ £
æı ´
æł ĳ
æŃĮ æĽ²
åĩº çīĪ
éĽĨ åĽ¢
èģĶ èµĽ
äº§ çĶŁ
ç £
æĺ ł
çļĦ å¤§
é¦ĸ æ¬¡
å® ĭ
ä¼ ģ
è¯ ĳ
è´ Ń
äº Ī
æķ° æį®
åĸ Ħ
± ä¹Ĳ
å¾ ®
é» İ
æ´ ¥
åħ¶ ä¸Ń
èĤ ¡
å° º
è¡ ¥
çī¹ åĪ«
æ¯ķ ä¸ļ
è® ¿
å± ĭ
ç»§ ç»Ń
å® ¡
è´ µ
äº Ĵ
è¡ Ģ
é«ĺ åº¦
é¡¹ çĽ®
ç»ĵ æĿŁ
6 æľĪ
æĻ ĭ
è½ ¨
çĶŁ äº§
çĥ Ī
åģ ĩ
åĽł æŃ¤
è® ¯
éŁ ¦
ã ĥ
ãĢĭãĢģ ãĢĬ
åħ »
éĻ ©
ç»ĵ æŀĦ
èĩ £
5 æľĪ
å¸Ŀ åĽ½
é¢ Ŀ
æı ı
æī ©
2 3
éĥ¨ éĺŁ
è¥¿ äºļ
ä¸ª äºº
è¯Ń è¨Ģ
æķ ĳ
äººåı£ å¯Ĩåº¦
æ¯ Ĵ
æİ§ åĪ¶
é² ľ
å¯¹ äºİ
åĸ ľ
ç§ĳ åŃ¦
æİ¥ åıĹ
å½¢ æĪĲ
ç« ŀ
1 æľĪ
åıĸ å¾Ĺ
ä»» ä½ķ
æĹ¶ ä»£
æµ· åĨĽ
è¡Į åĬ¨
ä¸» å¸Ń
åĮº åŁŁ
æĮ ¥
å³ °
éĿ¢ç§¯ ä¸º
æķħ äºĭ
å¤ º
æĿ ľ
æ°ĳ ä¸»
èĪ ŀ
æ¦ Ĥ
éĶ ¦
è¯ Ĺ
åĩº çĶŁ
æĹł æ³ķ
è® ²
4 æľĪ
éĢ Ĥ
11 æľĪ
éĢ Ķ
çļĦ æĺ¯
ä¹Ł æĺ¯
æĭ ľ
ä¸ °
æľº æŀĦ
çİ ©
çĶ ļ
å¢ŀ åĬł
åĮº çļĦ
éĢł æĪĲ
4 0
2019 å¹´
æľ ±
å¸ ģ
çĸ Ĺ
é½ Ĳ
æ¢ ģ
èį ·
è¾ Ĩ
éĻĦ è¿ĳ
ä¸» æķĻ
è¶ħ è¿ĩ
çļĦ äºº
ç§ ĺ
å» ·
é¢Ĩ å¯¼
æĮ ī
ä¼ł ç»Ł
ç»ĵ æŀľ
ç½Ĺ é©¬
å¾ Ħ
ä»¥ ä¸ĭ
ç ĩ
å® ¾
éļ ¶
202 1å¹´
ç ¦ģ
æĴ ¤
ä¸Ń åħ±
åĿ Ģ
æĿ Ĳ
åį Ī
in g
è´ §
åĩ ¯
åĬ¨ çī©
æ¸ Ĳ
çĬ ¯
èĥ ¡
202 2å¹´
a s
åĨĽ äºĭ
2 1
ç« ¥
æķ ¦
èĪª ç©º
åľ Ĩ
ä½ ©
çĽ Ĭ
çļĦ æĹ¶
ä» ª
å¤ Ł
æłĩ åĩĨ
o m
åıĳ å¸ĥ
5 æĹ¥
èģ ļ
è° ¢
10 0
æĸ° éĹ»
6 0
éª ¨
æ· ·
çĮ ®
çĽ Ľ
åĨħ çļĦ
è¿ Ķ
åıª æľī
ãĢĭ .
ä» ģ
éĥ İ
çī Ľ
çļ Ĩ
æķ° éĩı
æŁ Ĳ
è® ¨
å°± æĺ¯
ç¿ °
åĪ ĳ
ç© Ĩ
çĤ ¸
æį ķ
éĺ¿ å°Ķ
å¨ ľ
éĿ© åĳ½
èĮĥ åĽ´
äºİ 200
c h
å¤§ åĪ©
å¸ ®
åªĴ ä½ĵ
e d
éĻ¤ äºĨ
å® ½
å¾Ĺ åĪ°
æľº åľº
å¥³ æĢ§
èĮ ¨
å®ī åħ¨
è°ĥ æŁ¥
è¿ĩ ç¨ĭ
è§ ī
æİ ¢
ä¹ĭ åīį
æł¼ åħ°
ç»ı è¿ĩ
çĤ ®
æĻ º
åº Ļ
åĨħ å®¹
åħ¬ åĽŃ
çĪ¶ äº²
å¹ ķ
æĪ ª
åĲ ¦
éģ ĩ
å¤ ľ
: âĢľ
(, ),
éŁ© åĽ½
çĶ· åŃĲ
ä¹ Ķ
åįģ äºĮ
éľ į
èµ ŀ
åħ ħ
è Ķ
æĭ ©
2 2
è½ ¯
éĩį æĸ°
å¥³ åŃĲ
å¹³æĸ¹åįĥ ç±³
åĪ »
æīĢ ä»¥
éľ ²
èµĽ äºĭ
æĽ ¿
7 æĹ¥
ä¼ ĳ
å° ¤
ç§ ģ
åĪ º
ä½į ç½®
å¹³ åĿĩ
è ĸ
å «
èĩªå·± çļĦ
çİ ī
è¿ĲåĬ¨ åĳĺ
æŁ ĵ
çºª å¿µ
å±ħ æ°ĳ
6 æĹ¥
201 0å¹´
ä¸Ģ èĪ¬
é¸ Ł
åĪĽ ä½ľ
åıĳ è¡¨
åº Ł
ä¸Ģ åĲį
ç¼ º
éĿ ł
u s
ä¸ Ŀ
ã ģ
éĴ Ī
æķ Į
åĢ Ł
æĺ Į
çİ° ä»£
è®¾ ç«ĭ
ç» ©
è¯ ī
æº ª
æĬ µ
éĤ ®
æľī éĻĲ
èģĶ éĤ¦
åĲ Ľ
å· ¨
è ľ
åĲ ¸
å® ĩ
è¥¿ çıŃ
è· Ł
çĪ µ
ä¹ ±
å±ŀ çļĦ
èĵ Ŀ
è¥¿çıŃ çīĻ
éª ĳ
å¾ ¡
2 8
å® ª
æĹ¶ çļĦ
3 1
çľ ¼
è®® ä¼ļ
åıį å¯¹
æ¼Ķ åĳĺ
æ¤į çī©
ä¸Ģ çĽ´
åĿ ¡
æ® ¿
åħ± äº§
æķĻ æİĪ
æį Ł
å¾ Ĵ
éĽ ª
æĿ¥ çļĦ
å·¥ ä¸ļ
åĽ º
æ°ĳ æĹı
è¯ ¸
ä¾ µ
åĪ Ĭ
çīĪ æľ¬
åĮ ¹
æľī åħ³
ç¬¬ åĽĽ
éĢ ĥ
åħ¬ è·¯
çĽ´ æİ¥
çİ° åľ¨
éļ Ķ
202 3å¹´
è ª
å»º è®¾
4 æĹ¥
èģĮ ä¸ļ
æī ¾
çİ¯ å¢ĥ
è° ĭ
ä¸¾ åĬŀ
èĦ ĳ
æ¶ ¯
éļı åĲİ
ä¸Ń åŃ¦
3 æĹ¥
ä¹ İ
éĢī æĭ©
åĨĽ éĺŁ
çĹ ĩ
è¿ĺ æľī
éĿŀ å¸¸
ç¿ »
æ¬ ¢
èĭı èģĶ
åıį åºĶ
ç¼ĸ çłģ
ä½ ł
çĶ ³
åħ¬ å¼Ģ
d e
ä½ĵ èĤ²
å£ ¤
éĥ ĳ
å² ©
éĵ¶ è¡Į
æ¦ ľ
è£ ģ
èµĦ æĸĻ
åħ± åĲĮ
æ± ĩ
å½¢ å¼ı
åĨ³ èµĽ
ç© ¿
æĪĺ æĸĹ
è¡Į æĺŁ
åħ Ħ
åı ¬
éĥ½ æĺ¯
åĨ °
æĺ¾ ç¤º
éĤ »
æ¼ «
åįı ä¼ļ
2 æľĪ
æĢ ¥
æ¿ Ģ
åĲį ç§°
. âĢĿ
è·Ŀ ç¦»
2 7
o f
å¥ ī
æĸ¹ æ³ķ
ç» ľ
éķ ľ
æĪ Ī
åŁ ¹
u n
åĶ ¯
æİ¨ åĩº
Ġ åľ¨
Ġ 201
e Ġ
Ġ S
Ġ 200
Ġ C
Ġ M
Ġ çĶŁ
Ġ A
æľĪ1 æĹ¥
Ġ åİĨåı²
ĠçĶŁ å¹³
å¹¶ ä¸Ķ
Ġ P
ä»ĸ åľ¨
8 æĹ¥
Ġ t
è¿Ļ ç§į
19 2
è¿Ļ ä¸Ģ
å¹¶ åľ¨
Ġ B
l t
æŃ¤ å¤ĸ
ä½Ĩ æĺ¯
åľ° çĲĨ
z h
Ġ T
9 æĹ¥
æĺ¯ ä¸Ģä¸ª
g t
ä¸į è¿ĩ
a Ġ
åı¦ å¤ĸ
æĺ¯ ä½įäºİ
s Ġ
å°ı æĹ¶
y Ġ
å¦Ĥ æŀľ
d Ġ
è¡Į ä¸º
åĮº ä¸º
åħĭ æĸ¯
åĲį çļĦ
ä¹Ł æľī
è¯¥ åľ°
t Ġ
202 4å¹´
è¿Ļ æĺ¯
ä¸ī å¹´
19 0
å¤§ éĩı
æĶ¹ ä¸º
Ġ 199
ä¸Ģ èµ·
Ġ åľ°çĲĨ
è¯ ¾
å°ı è¯´
ç¬ ¦
èĥ ŀ
åĪ© çĶ¨
å¤ļ æķ°
åĲ ¬
éĥ¨ éķ¿
æľī ä¸Ģ
æ¯ ģ
è®® åĳĺ
èĬ ¬
è¿ «
ç¾İ åħĥ
ä¹¦ è®°
ä¼ģ ä¸ļ
è® ¢
è° Ī
æĸ° çļĦ
åĳ ¼
é» ĺ
åĮħ åĲ«
èĩª æ²»
ä¸į æĺ¯
å¾ ħ
æ³ķ å¾ĭ
éĽ ¨
é Ĩ
ç®¡ è¾ĸ
æĮĩ æĮ¥
åĳ Ī
èĤ ¯
å°Ķ æĸ¯
åģ ¥
å®Į åħ¨
ä¸» ä»»
æĢ Ģ
èĢ ³
åĪĨ ä¸º
åı° åĮĹ
ä¸Ńåįİ æ°ĳåĽ½
Ġ æľ¬
ï¼ į
çĸ ĳ
æ³ Ľ
å®¶ åºŃ
èµ µ
åĿ ļ
æĺ¯ çĶ±
ä¸ľ åĮĹ
æ³ķ éĻ¢
çĽ´ åĪ°
äºº ç±»
å¤Ħ çĲĨ
èİ ī
éĻ µ
æĦ ¿
âĢĶ âĢĶ
ã Ĥ
æĵ į
æĹ ĭ
æĪĳ ä»¬
å®¶ æĹı
èĩª çĦ¶
çĶŁ æ¶¯
å§ ĵ
åı¦ ä¸Ģ
åŃ¦ ä¹ł
åĨį æ¬¡
r i
æ¶ ī
çĶµ åŃĲ
æŀ ļ
æĮĩ åĩº
é¢ Ĺ
æĶ¿ çŃĸ
åħ³ äºİ
çĶŁ çī©
æĪ ´
æ¯ «
åŃ ©
èĦ ±
åĲİ çļĦ
æĢ§ çļĦ
åĬ¨ çĶ»
æī§ è¡Į
çĶļ èĩ³
çĲĨ è®º
Ġ L
è¡¨ çİ°
èŀ į
: ãĢĮ
ä¸Ģ å¹´
å°Ĩ åĨĽ
å¿ħ é¡»
åĮ» éĻ¢
å®ĥ ä»¬
æļ Ĥ
åŁº ç¡
åį ±
ç» ¿
ä»¥ æĿ¥
å¦ »
ç§ ĭ
çĽ ĺ
ä¸ľ éĥ¨
æľĢ ä½³
æģ Ĵ
å°½ ç®¡
å¢ĥ åĨħ
èĪ į
o w
æī İ
æľĢ åĪĿ
åĿ Ĳ
è Ŀ
é¡ ¾
æĸĩ åŃ¦
åŁºç¡ Ģ
åį ·
æ¨ ª
å½ĵ ä¸Ń
ä¸º ä¸»
ç¾ ½
æŁ ı
ä¸ŃåĽ½ å¤§éĻĨ
ä¹ Ī
åĬ ª
å®ĺ æĸ¹
Ġ R
ç¿ ¼
ç´ §
åįļ çī©
èī ĩ
åķĨ ä¸ļ
ç¯ ĩ
çľģ ä»½
è¾ Ľ
æĶ» åĩ»
æ» ¨
æĦı å¤§åĪ©
è´ ¡
åħ¬ åħ±
å¥ ı
ä¹ °
çī© ç§į
æŃ» äº¡
æĴŃ åĩº
u r
3 5
æ¡ ĳ
éĴ ±
æĬ¥ åĳĬ
ç±» ä¼¼
åĿ ı
200 1å¹´
æĻ® æŁ¥
éŃ Ķ
ç¼ ©
æľĿ é²ľ
æĶ¿æ²» äººçī©
æ´ ª
ãĢį (
è¯¥ åĽ½
å¸Ĥ åľº
æĹ© æľŁ
èĥ½ åĬĽ
¤ Ĳ
æ½ ľ
å®ŀ éĻħ
8 0
2 6
äºļ æ´²
è Ĩ
æıı è¿°
å¢ ĵ
è¯ ¯
201 1å¹´
ä¸ĭ çļĦ
æ¼Ķ åĩº
è§Ħ æ¨¡
Ġ D
ä¹ĭéĹ´ çļĦ
çº¦ ç¿°
åĽ¢ ä½ĵ
åĬł æĭ¿
åħ¶ åĲİ
éģ ¿
å¿ ł
åŃ¦ åĲį
åħ¨ çĲĥ
ç» į
æ® ĸ
åİ» ä¸ĸ
æĭį æĳĦ
å¤§ ä¼ļ
æł ĸ
æµ·æĭĶ é«ĺåº¦
çģ Ń
è¥¿ éĥ¨
å¤ĸ äº¤
, ãĢĬ
Ġ äººåı£
çļĦ åľ°
å¹¿ ä¸ľ
éľ ĩ
æµ Ļ
t er
åĪ¶ éĢł
éĵ ľ
èĥ½ å¤Ł
ä¸¥ éĩį
å» ī
ç¦» å¼Ģ
ç« ¹
çĸ «
åŁº æľ¬
å®Ĺ æķĻ
æģ ¶
æ± ½
å® ľ
è¿ ·
ä¼ į
çºª å½ķ
é³ į
ä½ľ çĶ¨
è¿ ¹
i g
éĹ Ń
å¥ Ĺ
æĮģ ç»Ń
Ġ G
äºİ 18
åĿ Ĺ
åģ ı
äºİ æĺ¯
ä» ĺ
è®¡ ç®Ĺ
è·¯ çº¿
200 9å¹´
æī ¬
ç¼ĸçłģ ä¸º
åħ±äº§ åħļ
äºĭ åĬ¡
åŃ Ķ
å¹¶ ä¸į
ç©º éĹ´
çļĦä¸Ģä¸ª å¸Ĥéķĩ
èµ ĸ
çļĦ ä¸»
è¡ £
è¿ İ
201 6å¹´
å¥¹ çļĦ
æ³ ī
åĪ ļ
è¾ ħ
å¸Į æľĽ
ä»» åĬ¡
çĽ® æłĩ
æŀ Ĳ
èĦ ī
æĺ¯ ä¸Ģç§į
æ± ł
200 8å¹´
ç»Ł æ²»
Ġ æł¹æį®
ä¸ī ä¸ª
æĸ¯ åĿ¦
æİ¥ å£¤
èª ī
ä¼ °
7 0
æĸ¹ åĲĳ
æ¸ ¡
æģ Ĳ
ç¼ ĺ
æĸĩ çī©
2 9
ç¬¬ åįģ
ä¸ľ åįĹ
åĬŁ èĥ½
äºİ 199
èĳ £
éļ ľ
å¼ ĥ
åįķ æĽ²
éĺ¿ æĭī
ãĢ ī
ãĢ Ī
åĬłæĭ¿ å¤§
çº½ çº¦
å¢ ¨
éĶ¦ æłĩ
æĭ Ľ
äº «
è· ¨
è®¾ æĸ½
æľĪ åı°
èµ ¤
å¯ »
å®ļ çļĦ
èµĽ åŃ£
èħ Ĭ
åī ĳ
éĢı è¿ĩ
çĶ ĺ
è¢« ç§°ä¸º
äº ķ
ä¿ ±ä¹Ĳ
éĶ ¡
éŃ ı
çĲĥ åĳĺ
éĢ Ĭ
ä¸Ģ æ¬¡
éĺ »
ä»į çĦ¶
åįļçī© é¦Ĩ
åıĺ åĮĸ
åĪĨå¸ĥ äºİ
ä¿±ä¹Ĳ éĥ¨
æĽ¾ ç»ı
æĥ ł
è´ ¸
201 2å¹´
è§£ æĶ¾
çĳ Ł
åĽ½ çİĭ
é¢ ģ
åħ¬ å¸ĥ
å·´ å£«
åĲĪ å¹¶
å¼Ģ æĶ¾
Ġ H
a d
å¹¿ æĴŃ
åĨ ¬
ç» ĺ
Ġ è¯¥
å°Ĩ åħ¶
åħĭ éĩĮ
å¤§ åĮº
äº ®
201 8å¹´
èĤ ī
è¾¾ åĪ°
ä¸į èĥ½
èĢĮ ä¸Ķ
å®ŀ éªĮ
èµ ¢
åĶ¯ ä¸Ģ
åİŁ åĽł
æİĴ åĲį
åĽĽ å¹´
. ãĢį
è ¸
éĢĲ æ¸Ĳ
201 4å¹´
æį ·
èı Į
åıĳ åĬ¨
çĥŃ å¸¦
çº ²
åĦ¿ åŃĲ
ç» ¼
é©¬ æĿ¥
202 5å¹´
äººåı£ æĻ®æŁ¥
åĵ ²
å½ĵ éĢī
çŁ ¿
4 5
è¿ŀ æİ¥
æ¨¡ å¼ı
å¾ Ĳ
è¡ĮæĶ¿ åĮº
19 1
ç ¹
è¾ ŀ
åľ¨ æŃ¤
ç¬¬ä¸Ģ æ¬¡
ä¸ľ äº¬
åı· çº¿
çģ ¾
èĴĻ åı¤
ä¸» æĮģ
å®ļ ä¹ī
è¿ĲåĬ¨ ä¼ļ
æľīéĻĲ åħ¬åı¸
çĽ¸ å½ĵ
éĺ ´
èĽ ĭ
åĲĦ ç§į
201 5å¹´
è®Ń ç»ĥ
201 3å¹´
Ġ F
æ´ ŀ
ç¨ ³
ç»Ĩ èĥŀ
æ½ ®
èĢħ çļĦ
åĩ» è´¥
å¦ ĩ
å¤ª å¹³
çĽ¸ åĲĮ
åı Ļ
Ġ I
æ¼Ķ åĶ±
Ġ ä¸İ
é£İ æł¼
çĬ ¹
å¤ª éĺ³
å¦ ¹
ç¹ ģ
æ° §
éģĵ è·¯
4 8
ä½ Ĳ
æĪĲ ç»©
æľĪ2 8æĹ¥
æļ Ĺ
(, )
æŃĮ æīĭ
æİ Į
æĭ Ĵ
å¥¥ è¿Ĳ
è§Ħ å®ļ
ä½¿ å¾Ĺ
æ» ĳ
æľĪ1 5æĹ¥
åı¸ ä»¤
æģ ¢
çİ© å®¶
ä¸ĵ ä¸ļ
Ġ formula
éĺ¶ æ®µ
éĴ ¢
äºº å£«
T C
e c
9 0
è¥¿ åįĹ
åĢ Ĵ
ä¸įåĲĮ çļĦ
åĨ ·
i r
ä¸Ģ æł·
åĨ Į
å°Ķ çľģ
æī¹ è¯Ħ
20 æĹ¥
çŃī äºº
è¥¿ åĮĹ
èĻ İ
çĲ ´
ç§ Ł
å¹´ çļĦ
å»º éĢł
è®¾ ç½®
äº§ åĵģ
ä¼ Ĳ
âĢ ĵ
201 7å¹´
åĬŀ åħ¬
è½¨ éģĵ
æĺ Ĥ
ç¨ İ
10 æĹ¥
é© ±
ä¿ Ĺ
I N
30 æĹ¥
å¾ ½
ä¸º äºº
çı ł
ä»ĸä»¬ çļĦ
éº »
èī ĺ
å¥ Ī
éĶ Ļ
ç¡ ¬
Ġ 198
åĿ ĳ
èĥĮ æĻ¯
åľ Ī
éĿĴ å¹´
o t
å¹ ¼
åĳ ³
çĶ º
çĪĨ åıĳ
å½ ¼
o s
æµĻ æ±Ł
åĪĨ éĴŁ
å°ı è¡ĮæĺŁ
æĤ £
Ġ çļĦ
çļĦä¸Ģ éĥ¨åĪĨ
éĺ ģ
èĳ ¡
å¤§ æĪĺ
å¢ Ļ
å½ ©
ä¼¦ æķ¦
ä¹ Ļ
åŃ¦ èĢħ
æµ ¦
æģ¢ å¤į
åľŁ åľ°
åºĶ çĶ¨
å¸Į èħĬ
ä¸ī åįģ
æĶ¹ éĿ©
åį ĸ
æ¯į äº²
è§ ¦
ä¸į ä¼ļ
èº« ä»½
çº ¸
å¯ ¿
u m
h an
éĥ¨ éĹ¨
èŃ¦ å¯Ł
1 æĹ¥
ç¬ Ķ
å±± ä¸ľ
200 7å¹´
è± ª
åĽ °
æ® ĭ
é£ŀ æľº
i m
åĪ¶ åº¦
çļĦ æĸ°
3 6
% ,
åī Ĥ
èİ İ
è ķ
ä¿ ĥ
ä¸ĭ è¾ĸ
æľĪ2 5æĹ¥
åĳ½ åĲį
è¯Ħ è®º
æĭī æĸ¯
è¿Ľ å£«
ç² ī
æľĢ å¤§
âĢ ¦
æĬķ èµĦ
èĦ ļ
éĢ Ŀ
é«ĺ éĢŁ
å¤§ éĥ¨åĪĨ
Ġ 18
ç½ĳ ç»ľ
en t
Ġt he
å¤ı åŃ£
è£ Ĥ
è¿Ļ æł·
è®° è½½
æ¡ £
æ¥ ļ
æµ ª
èµ ı
æ¢ ¦
å¯¼ æ¼Ķ
ä½Ĩ åľ¨
çļĦ çī¹
æ² ī
èµĦ æł¼
18 æĹ¥
ä¸į ä¹ħ
3 8
r a
éĽ ¶
ä¸¤ äºº
å¤© æ´¥
å¹¿ å·ŀ
æĺ Ń
äº ¨
äºĶ å¹´
åĮĸ åŃ¦
ãĢį ãĢģ
æŁ ±
æĭ Ł
å¾Ī å¤ļ
åģ ¶
åĨ Ī
å° Ĭ
çĶµè§Ĩ åı°
å¸® åĬ©
åįļ å£«
è´Ŀ å°Ķ
éĤ Ģ
çĽ Ĳ
å¼ ±
è® ·
çĸ Ĩ
åı «
âĢĿ (
éĻ ·
çŃī åľ°
ç¬¬ äºĶ
i d
æ¯« ç±³
åĩº çļĦ
åħ¨ éĥ¨
åĪĨ åŃĲ
å´ ĩ
æģ ĭ
ç»´ å°Ķ
ä» Ļ
æ¶ ħ
çĭ ±
ç Ĵ
è¯ Ĭ
at ion
ç¾¤ å²Ľ
éĿ Ļ
å¥¥ æŀĹ
ä»» åĳ½
èĭ± è¯Ń
éĻĨ åĨĽ
åĨľ ä¸ļ
æĿĤ å¿Ĺ
æ± Ĺ
3 7
ç» ķ
åŁº çĿ£
é ¤Ĳ
12 æĹ¥
200 5å¹´
200 6å¹´
åħ¬ å°º
æķ´ ä¸ª
è£ Ķ
åĲį åŃĹ
åĲ ķ
i v
ç®Ģ ç§°
çĶ· æĢ§
ç«ĭ æ³ķ
æ¶ ²
è ļ
å¤ļ æ¬¡
ç¥ Ń
é¢Ĩ åŁŁ
æŃ¤ åĲİ
èµ¢ å¾Ĺ
, âĢľ
å»º è®®
Ġ 194
Ġ E
Ġ W
ä½ľ å®¶
é¼ ĵ
ç¬¬äºĮ æ¬¡
ä¾ ¯
è¡Ĺ éģĵ
. .
åħĥ å¹´
æ ©
è¿ŀ ç»Ń
åľ° ä¸ĭ
11 æĹ¥
19 æĹ¥
åĪĨ æŀĲ
è¡¨ æ¼Ķ
çĸ ¾
ä¼ ´
åŁİ åĮº
ä¼ Ł
åįĹ äº¬
éĶ¦æłĩ èµĽ
åĲĮ æł·
èĻ ĳ
å¹¿ åľº
å¥¥æŀĹ åĮ¹
5 00
æĢ» äººåı£
ç»ı å¸¸
åħĪ åĲİ
ä¸ ĺ
åĽĽ å·Ŀ
ä¸Ń éĥ¨
åıĳ å°Ħ
çĦ¶ åĲİ
äºī è®®
åĩ ¤
åľ°åĮº çļĦ
é¢ĳ éģĵ
æľĪ2 4æĹ¥
å¹ ħ
é¢ ľ
éĥ Ń
å¡ŀ å°Ķ
å¼ķ èµ·
è§Ĩ ä¸º
åĪĻ æĺ¯
å¤ļ çļĦ
åıĬ åħ¶
ä¼Ĭ æĸ¯
æľĪ2 6æĹ¥
æĭ Ĩ
åľ° çĲĥ
çī §
éĢŁ åº¦
æĪª èĩ³
ç¤¾ åĮº
è®° å½ķ
è®¾ å¤ĩ
é© ¶
æ¯ı å¹´
ç¦ı å»º
æĲ Ń
åĩº ä»»
ä¿Ŀ æĮģ
æĿ¡ ä»¶
3 4
æ°´ åŁŁ
ç» ª
æľĪ1 6æĹ¥
è§Ħ åĪĴ
æĹ¥ åĨĽ
å¤§ çº¦
æŁ ¯
% .
æ²³ åįĹ
åıĤ èµĽ
ä¿¡ æģ¯
Ġ å¹´
o d
éģŃ åĪ°
a g
å¹³ åı°
æľĪ1 7æĹ¥
å±ħ ä½ı
å¤ı ä»¤
çļĦ ä¸»è¦ģ
æĺ¯ä½įäºİ ç¾İåĽ½
äºº ä»¬
çī© çĲĨ
é£ŀ è¡Į
U TC
åĤ ¨
ç»Ł è®¡
è¢Ń åĩ»
åĨħ éĥ¨
çĽ¸ å¯¹
å¹¿ æ³Ľ
èĻ «
æķĻ åłĤ
å®ĺ åĳĺ
è¿ĩ åİ»
2 æĹ¥
ä¸Ģ æŃ¥
è¶Ĭ åįĹ
èĩ³ ä»Ĭ
æĭĴ ç»Ŀ
æĪĺ å½¹
èĶ ¡
æĸ¯ ç§ĳ
æ£ Ĵ
å¤ļ ä¸ª
èĭ± æĸĩ
è´¸ æĺĵ
åħ ģ
è§ Ī
æłĸ æģ¯
å¥¥æŀĹåĮ¹ åħĭ
èĲ Ħ
æĺ¯ æ³ķåĽ½
æ¯Ķ äºļ
èĳ¡ èĲĦ
å¹ ¸
æĺİ æľĿ
ç³ ĸ
åŃ¦ ä½į
åĦ¿ ç«¥
æµģ è¡Į
æľĢ æĹ©
åĩ ½
ç§ ¦
an d
æ· ¡
åıĸ ä»£
æĹ ģ
æ¼« çĶ»
é¥° æ¼Ķ
éĻ ¶
è¿ Ŀ
ç¾İ æ´²
æľĪ2 7æĹ¥
æľª èĥ½
æ³¢ åħ°
æ± ¤
ç»ı åİĨ
ç¢ ĳ
åĩł ä¹İ
æĮ ĳ
å·´ é»İ
æ¦Ĥ å¿µ
èĻ ļ
é ŀ
å®ŀ çİ°
æľĪ2 1æĹ¥
æĮ ¯
31 æĹ¥
ä»¥ ä¸Ĭ
ç½ĳ ç«Ļ
æľĢ å¤§çļĦ
å¤Ħ äºİ
å·¦ åı³
äºĮ å¹´
é¾ Ħ
æľĪ2 æĹ¥
æĪĸ èĢħ
æľĪ2 2æĹ¥
è®° èĢħ
å°Ķ å¾·
" )
å®ŀ æĸ½
åįı åĬ©
. ãĢĬ
å® ¿
åĴĮ å¹³
éķ¿ çļĦ
åĩı å°ĳ
æĶ¹ åıĺ
èİ·å¾Ĺ äºĨ
æľĪ2 3æĹ¥
è· ĳ
ä¾ į
3 3
è¿ Ī
æ® Ĭ
è½¦ è¾Ĩ
èĳ ¬
çļĦ ç¬¬
ä¼ ¸
æĽ¾ ä»»
Ġ N
å±ķ å¼Ģ
éķ¿ æľŁ
åľ° éĵģ
åŀĭ çļĦ
çĨ Ļ
åĪĨ ç±»
çļĩ å¸Ŀ
æľĪ1 4æĹ¥
è¿Ĳ è¾ĵ
è¢« è®¤ä¸º
æĺ Ĩ
ç§ĳ æĬĢ
æľĪ2 9æĹ¥
èĭ± æł¼åħ°
å½± çīĩ
o p
åĩºçĶŁ äºİ
ä¹ ĥ
çº¿ çļĦ
4 6
èĮ ¶
çĬ¶ æĢģ
åİ¿ çļĦ
çļĦæĹ¶ åĮºä¸º
æ¯Ķ è¾ĥ
æĽ¾ åľ¨
éģ į
æľī çļĦ
S T
åįł é¢Ĩ
7 5
ç»ı èĲ¥
åī§ æĥħ
å¹¶ äºİ
æ¾³ éĹ¨
æĬķ ç¥¨
ç»§ æī¿
å® ħ
ä½ľ æĪĺ
çĥ §
b r
æ²» çĸĹ
åĽ½ çļĦ
æŃ¦ åĻ¨
æľĪ1 3æĹ¥
éĻĲ åĪ¶
ä¸ļ åĬ¡
åŁº äºİ
èį· åħ°
e m
çŃ ¹
è§£ åĨ³
çº ¯
å¤© ä¸»æķĻ
çĩ ĥ
3 2
èĪ° éĺŁ
å¨ģ å»ī
è½ °
ä¼ļ åľ¨
å¦ ®
ä¸ª æľĪ
ä½ĵ çļĦ
éĶ ®
å®£ ä¼ł
t h
çº¿ è·¯
åĭ ĭ
çı į
çģ ¯
çļĦ æĥħåĨµ
åİ ¦
åĩĨ å¤ĩ
çļĦ æķ°æį®
u b
ç´ ¯
éĽ ķ
å² Ń
åĿ Ľ
èµĦ æºĲ
è¾ ½
éļ Ĳ
æĬ ĺ
çļĦ å½±åĵį
åĭ ĩ
åĩº äºĨ
è¡ ¡
æĸ¯ çļĦ
ä½įäºİ è¯¥åĽ½
S E
èĢĮ åľ¨
åįģ å¹´
æĸ¹ æ¡Ī
èı ľ
: )
æĿ¥ æºĲ
è¯Ħ ä»·
ç»Ł ä¸Ģ
çĤ İ
è¯ķ åĽ¾
o Ġ
é½ ¿
æ¸ħ æľĿ
åĲĦ åľ°
çĶµè§Ĩ åī§
å³ ¡
æ±½ è½¦
åİŁ æľ¬
ä¹ĭ å¤ĸ
éĵģ éģĵ
æ¾³ å¤§
åħ´ å»º
åŃ Ł
åħĦ å¼Ł
åıĪ ç§°
éĢī æīĭ
18 9
çł´ åĿı
éģ £
ãĢįãĢģ ãĢĮ
é©¬æĿ¥ è¥¿äºļ
åįı è®®
ç£ ģ
æīĢ åľ¨
èĲ §
éĤ® æĶ¿
çĲ ³
åĽŀ åĪ°
è½ ´
5 5
l i
æķ ¬
3 9
éļı èĳĹ
åĶ± çīĩ
è¿Ľ ä¸ĢæŃ¥
S t
å£ ģ
åĪĿ æľŁ
è¿Ĳ è¡Į
é¥ ®
æĽ ¹
å¤§ æ¥¼
è ¦
æĶ¹ ç¼ĸ
çĬ¹ å¤ª
æħ Ī
å¤§ å¤ļæķ°
ç® Ń
è¿Ľ æĶ»
åŁº åľ°
èĩª åĬ¨
o c
å¹ »
è¡ Ķ
æķĻ ä¼ļ
å¨ ±ä¹Ĳ
ä¸Ń æĸĩ
200 4å¹´
ç²¾ ç¥ŀ
æķ ı
å°ı åŃ¦
åħŃ å¹´
ä¸º æ¯ı
èµ ł
ç»´ æĮģ
éĴĪ å¯¹
è¿ĺ æĺ¯
è§Ĥ ä¼Ĺ
æ¢ °
åŁº éĩĳ
è´ ¤
æ² Ī
åı Ľ
éĿ¢ çļĦ
è¿Ľè¡Į äºĨ
åŁİ éķĩ
æľº è½¦
ç»Ħ åĲĪ
ä» Ķ
200 0å¹´
æĢ» éĿ¢ç§¯
çļĦ åīį
è¿Ĳ èĲ¥
ä¸» è§Ĵ
è´ ¾
äººåı£ æķ°éĩı
è¾ Ĳ
éĶ ĭ
ä¸Ģ ä½į
ç¯ ®
ä¸ĩ äºº
å·ŀ çļĦ
çľģ çº§
å§ Ĳ
æŃ£ åľ¨
åĬł ä¸Ĭ
æĬ¥ éģĵ
çī¹ å¾ģ
çº ¹
å¤ªå¹³ æ´ĭ
éĥ¨ ä»½
èĹ ¤
çģ °
äº¤ æĺĵ
éĽĨ ä¸Ń
ä¸į å°ĳ
ç©º åĨĽ
ç»¼ åĲĪ
åĨ ¯
è´Łè´£ ç®¡è¾ĸ
åıĮ æĸ¹
éĤ ĵ
éĻ ķ
æ¯ı ä¸ª
æ¾³å¤§ åĪ©äºļ
Ġ æĶ¿æ²»
èµ ´
éĻĨ åľ°
åľ¨ ç¾İåĽ½
ç¡® å®ļ
çŃ Ķ
æĺ¯ åĲ¦
è§£ éĩĬ
Ġ çĶ±äºİ
ç¾İåĽ½ äººåı£æĻ®æŁ¥
è¯ģ æĺİ
åĽ¾ ä¹¦
å¤§ åŀĭ
ä»· åĢ¼
æĺ¯ ä¸ŃåĽ½
è¿Ķ åĽŀ
èĳ£ äºĭ
æīĢ å±ŀçļĦ
4 7
è¦ Ĩ
åİ ļ
åĲį åįķ
æĦŁ æŁĵ
åĪ Ģ
ç¨ĭ åº¦
éĩįè¦ģ çļĦ
äºĳ åįĹ
ä» °
ä»İ äºĭ
, ãĢĮ
a p
çľģ çļĦä¸Ģä¸ªå¸Ĥéķĩ
æ³ ³
è° ±
æ¹ĸ åįĹ
åĽ½ ä¼ļ
æ³ķ åħ°
æľī æĹ¶
çļĩ å®¶
æ²³ æµģ
çĥ Ł
åĢ į
äºİ 198
å°ı ç»Ħ
å®ĥ çļĦ
çİĭ æľĿ
ä¸» æ¼Ķ
åħĥ ç´ł
å¾· éĩĮ
é©¬ åħĭ
å¼ķ åıĳ
å¥³ åĦ¿
åĩ Ń
ä¿Ŀ çķĻ
Ġ c
çº µ
æľº ä¼ļ
ä¸´ æĹ¶
æĢ» çĲĨ
æĹħ æ¸¸
éķĩ åĮº
æľ ĭ
é¦ĸ éĥ½
å¸¸ è§ģ
è¶ħ çº§
é ¬
è´¢ æĶ¿
èĴ ĭ
çĶŁ äºİ
æ² Ł
åħ¬ åħĥ
åĩº èº«
çķ ª
å¤§ èĩ£
åĬł åĿ¡
å¤© æĸĩ
æī¹ åĩĨ
é«ĺ çº§
åĨ² çªģ
åĽ½ éĺ²
ç½ ķ
Ġ 197
ç±³ å°Ķ
è®¨ è®º
å° ĸ
åĬĽ éĩı
20 ä¸ĸçºª
ä¸į åĨį
å¦» åŃĲ
åĲĮ æĦı
ä½Ľ æķĻ
çĳŀ å£«
ãĢĬ ãĢĭ
åĽ½æ°ĳ åħļ
åĽ½ åĨħ
ä¸» é¢ĺ
çłĶç©¶ æīĢ
åı ¥
äºĨ ä¸Ģä¸ª
éĿ ĸ
æľº åħ³
è¶ £
åį¡ å°Ķ
é© ¾
æľī æķĪ
ä¸į æĸŃ
æ¡ ĥ
è®® éĻ¢
ç»ĵ åĲĪ
çļĦä¸Ģ ç§į
åĩ ¡
åĬĽ çļĦ
å¥½ çļĦ
äº§ ä¸ļ
å·ŀ å¸Ĥ
æľī äºĽ
è¾ ī
äºĮ ä¸ĸ
è· ³
æĸĩçī© ä¿ĿæĬ¤
6 5
æŁ ´
è¿ ħ
æĸ° åĬłåĿ¡
Ġ 195
åİ¿ çļĦä¸Ģä¸ª
æŃ¦ è£ħ
æĹ º
åĽ½ ç«ĭ
æĻ® éĢļ
ä¸Ĭ æĺł
å¹´ è½»
ç¼ ĵ
çĨ Ł
å¤§ ä½¿
æĺ¯ æĮĩ
ç§ĺ ä¹¦
å»º æĪĲ
åŁ Ķ
æ°Ķ åĢĻ
ãĢģ ãĢģ
æİ ª
éĢī åĮº
è§£æĶ¾ åĨĽ
æĸ¯ åŁº
ç¥ ¥
ä¸į åı¯
éģ Ĥ
æĺŁ æľŁ
3 00
æ §
æĶ¶ åħ¥
åıĸ æ¶Ī
ç¼ĸ åı·
äºº æķ°
æ½ ĺ
6 4
ä¸ĸçķĮ å¤§æĪĺ
æĸĩ ä»¶
åı¯ è¾¾
å¨ģ å°Ķ
æĬķ åħ¥
å¿« éĢŁ
æī¿ è®¤
äºº åľ¨
è¥¿ æ´ĭ
ä¸ŃåĽ½ äººæ°ĳ
è¥¿ çľģ
èĳĹ åĲį
ä¸ŃåĽ½ åħ±äº§åħļ
èŃ¦ æĸ¹
å·´ è¥¿
éĿŀ æ´²
å°ĳ å¹´
æĢ» éĥ¨
ç»´ äºļ
æł¸ å¿ĥ
( "
èĩ³ å°ĳ
é¹ ¿
å¿ Ĩ
ä¸Ģ ä¸ĸ
Ġ K
éļı çĿĢ
æĸĩçī©ä¿ĿæĬ¤ åįķä½į
è ©
Ġ s
ä» ĵ
æĿ¡ çº¦
ä»¥ èī²
åĭ ¤
é£İ æļ´
åĽ½ åĬ¡
ä½¿çĶ¨ çļĦ
ä¹ ı
èĭ Ĺ
èĥľ åĪ©
Ġ 1
æĸ¯ åħĭ
ç¬¬ ä¸Ģä¸ª
å¥¥ æĸ¯
å¦Ĥ ä¸ĭ
èĳĹ ä½ľ
åŃ Ŀ
åİ Ħ
ç¼ ħ
ä¸ĥ å¹´
åĪĽ ç«ĭ
ä»¥èī² åĪĹ
Ġ 196
æ³ Ĭ
åĮĸ çļĦ
éĩį å»º
ä»¥ åĲİ
è© ¹
4 9
ç§ Ĵ
å¥¥æŀĹåĮ¹åħĭ è¿ĲåĬ¨ä¼ļ
è®¿ éĹ®
æĹ¶ ä»»
åĽ¢ éĺŁ
æľª æĿ¥
u t
è´ ¯
a y
ç¬¬ åħŃ
çĮ İ
o v
çĹħ æ¯Ĵ
åħ¬ æ°ĳ
æ°ĳ ä¼Ĺ
çļĦ çłĶç©¶
çļĦ å¸Ĥéķĩ
åįĬ å²Ľ
éĥ½ ä¼ļ
æ±Ł èĭı
o g
èİ ²
æĶ¶ å½ķ
æħ ķ
åħģ è®¸
æĴ Ĵ
å®ª æ³ķ
è¯´ æ³ķ
ç ŀ
æµĭ è¯ķ
èĳ Ľ
è°ĥ æķ´
æĻ ¨
å§Ķ ä¼ļ
ä¼ ı
ç¨ĭ åºı
çĵ ľ
å°Ķ çļĦ
æĭī åħĭ
ä¹Ĳ åĽ¢
åĢ ¾
200 3å¹´
æµ· å²¸
çİĭ åĽ½
èĽĭ çĻ½
ç»ĵ å©ļ
éļ¶ å±ŀäºİ
æĻ ¶
çĶµ èĦĳ
åģľ æŃ¢
éĥ½ æľī
åħ¬ åĪĨ
ä½įäºİ æ³ķåĽ½
æ¢ ¯
çĶ¨ æĿ¥
é«ĺ çŃī
åį¢ çĵ¦
æ¨¡ åŀĭ
åĵĪ å°Ķ
æħ ¢
am p
éĺ¿æĭī ä¼¯
èī² çļĦ
èĥ ģ
æİ¥ è¿ĳ
èĢĥ èĻĳ
è¡ĮæĶ¿åĮº åĪĴ
ä¸ĭ åįĪ
å±± èĦī
çĲĥ åľº
è´ º
çĶ¨ çļĦ
æ®ĸ æ°ĳ
åĩ Į
å°± è¯»
æĢĿ æĥ³
è¿ĩç¨ĭ ä¸Ń
çĶµ åı°
å°¤ åħ¶
åľ¨ è¿Ļ
èĹ ©
æĪĺ åĲİ
åĳ¨ è¾¹
æĸ° å¢ŀ
éĤĢ è¯·
æµ ®
åĮ» çĸĹ
åľ° ä½į
çĽ´ èĩ³
åħ³ æ³¨
å¹´ åº¦
ç´ «
çİ° æĹ¶
a k
200 2å¹´
ç¡ ķ
é¬ ¼
çĶ³ è¯·
I I
ä¸Ģ å¸¦
æĥ Ĭ
èħ ¹
ä¸į æĺİ
ä¼¯ çī¹
è§Ĥ å¯Ł
åĿ İ
éĩį çĤ¹
èµ· æĿ¥
ç¥ĸ çĪ¶
æĶ¿ åħļ
åĨį åº¦
Ġ 2021å¹´
åįģ åĪĨ
Ġ 2
çĽ¸ ä¼¼
è¯¾ ç¨ĭ
å¡ ĳ
åŃ© åŃĲ
èĬ Ŀ
18 8
ä¹Ķ æ²»
åĮ Ī
a v
Ġ 2019å¹´
æĢ ª
ä¿ Ĭ
åĲĪ çī©
è¡¨ è¾¾
a b
é«ĺ ä¸Ń
åħ±æľī äººåı£
4 4
Ġ 3
Ġ è½¦ç«Ļ
åħ¥ ä¾µ
å£« åħµ
ä» ²
å®ī æİĴ
æĴ °
åĲ ¨
æĿ¥ è¯´
èĭ ¦
æ¯ķä¸ļ äºİ
åĬ ±
ç½ ļ
çļĦ å°ı
åĪ° è¾¾
åŃ¦ æľ¯
äººæ°ĳ æĶ¿åºľ
å¹¶ æ²¡æľī
å¥ ´
åĽł èĢĮ
æĶ¯ æı´
ç§» åĬ¨
çļĦæĹ¶ åĢĻ
æĺ¯ ç¾İåĽ½
Ġ O
æ³ ¥
æĴ ŀ
A T
éĶĢ åĶ®
å± ¿
åĢĻ éĢī
Ġ 193
æĿ ī
è·¯ æĺĵ
çĽ Ĺ
å¤ĸ çļĦ
çĽ® çļĦ
Ġ è¿Ļ
ç¦ Ħ
æĹł çº¿
ä¸º æ³ķåĽ½
è¯ ¦
ä¸ §
ä¼Ĭæĸ¯ åħ°
å Ĺ
è¥¿ åĵ¥
åºĶ è¯¥
âĢĿ ãĢģ
çĨ Ĭ
æĹ© å¹´
Ġ è¡ĮæĶ¿
æŃ¤ æĹ¶
in d
æĹ ¨
çļĦ é¦ĸ
å¸Ĥ éķ¿
çİ° è±¡
ç¢ į
åıª æĺ¯
å¦Ĥ æŃ¤
åīį çļĦ
Ġ 2020å¹´
éģĹ åĿĢ
çī¹ çļĦ
çĹ Ľ
ä»ĸ æĽ¾
å¹¶ æľª
5 8
çĶ¨ æĪ·
åıĺ æĪĲ
ç² Ĵ
åľ° åĪ©
çĮ ª
å¹´ éĹ´
éĩĳ å±ŀ
æĹ§ å¸Ĥéķĩ
ç±» åŀĭ
æĬµ è¾¾
ä»İ èĢĮ
æĿĲ æĸĻ
å¸Ĥ åĮº
é ī
æĪĸ æĺ¯
æĺİ æĺ¾
ä¹ ³
æĢ» çĿ£
èĩªæ²» åĮº
è´¨ éĩı
Ġ201 8å¹´
éĺ ħ
æıĲ åįĩ
é«ĺ çļĦ
å°¼ æĸ¯
çĦ ¦
æŀĦ æĪĲ
å°ĳ æķ°
Ġ b
åįģ åħ«
èģĮ åĬ¡
åº Ĭ
è· ĥ
çĩ ķ
å®ī è£ħ
äºİ19 7
æŁ ³
åį« æĺŁ
Ġ J
ç¬¬ ä¸ĥ
å½ Ń
ä¿¡ åı·
6 8
åı¯èĥ½ æĺ¯
æ± ¡
äººåı£å¯Ĩåº¦ ä¸ºæ¯ı
æĸ¹ çļĦ
éĢĿ ä¸ĸ
å·¥ åİĤ
æŁĲ äºĽ
åĪĹ ä¸º
æ¯Ķ åĪ©
å± ı
çī© è´¨
æ¡ Ĥ
é Ħ
ãĢģ (
èĪ Ĵ
ä½ĵ ç³»
æģĴ æĺŁ
ç¨³ å®ļ
æĬ ļ
åĴ ¸
å¯¹ æīĭ
èĢĮ æĺ¯
é¡ µ
å¡ ĺ
å¤± åİ»
: .
ä»ª å¼ı
åĿ Ĭ
å¥¥ åľ°åĪ©
éī ´
SE E
åĩ½ æķ°
åĩº åı£
çĶ ¸
ç§ĳ çļĦ
åĪĽ åĬŀ
æİ ī
éĶ ģ
å¢¨ è¥¿åĵ¥
äººåı£æķ°éĩı ä¸ºäºº
ä¸ľ è¥¿
å»º åĪ¶
åĲ ĥ
æľĭ åıĭ
çĶŁ éķ¿
è° ĵ
æĲ ľ
ä¸į è¶³
åĲĮ ä¸Ģ
æĵį ä½ľ
æİ¥å£¤ çļĦå¸Ĥéķĩ
è¯ ļ
æĸĩ ç«ł
æĸ ĳ
äºĭ ä¸ļ
æĦı è¯Ĩ
æĻ® éģį
æ¯ı å¹³æĸ¹åħ¬éĩĮ
ä¸į å¾Ĺ
åľ¨ 199
æ°§ åĮĸ
çº ¬
ç ĺ
i a
ç§» æ°ĳ
IN SEE
ç¿» è¯ĳ
ä¸Ģ åº¦
æĹł äºº
å¨ģ èĥģ
åĬ¨ åĬĽ
åıª èĥ½
èĤ ĥ
å§ĭ å»º
å°ļ æľª
éĤ®æĶ¿ ç¼ĸçłģä¸º
åĬŀåħ¬ å®¤
æł¡ éķ¿
å°Ķ çī¹
ä¸Ģ åĲĮ
çİ° åľº
å¹¿ åĳĬ
èº« ä½ĵ
åħ¥ åı£
( ;
æ¡Ī ä»¶
è¯ ŀ
åŀ Ĵ
æĹ ¢
æĮ Ĥ
æľº æ¢°
Ġ201 7å¹´
èĥ ¶
åĮĹ ç¾İ
éļ §
å¹³ éĿ¢
ä¸¤ ç§į
çĬ¶ åĨµ
æ¶Ī æģ¯
ä¹Ł åľ¨
éĺŁ çļĦ
éģĹ äº§
åı¬ å¼Ģ
è§Ĥ çĤ¹
å¾Ĺ ä»¥
å¤Ħ çļĦ
äº¤ æµģ
å¾ ª
è¡¨ æĺİ
æĦı ä¹ī
æĿĥ åĬĽ
æ°ĳä¸» åħļ
èĩª è¡Į
ä¸º ä¸Ģ
æĽ´ åĲįä¸º
åįĹ åĮĹ
å¼ ĺ
çľĭ åĪ°
åİ¿ äºº
åĭ ĥ
çŁ¥ éģĵ
æĮĳ æĪĺ
æķ° åŃĹ
èģĶ ç³»
èģĶåĲĪ åĽ½
çķ Ķ
åĽ¾ä¹¦ é¦Ĩ
æħ §
ç¦ģ æŃ¢
æıĲ é«ĺ
åħ¥ éĢī
å§Ĩ æĸ¯
ä»ĸ æĺ¯
åĵģ çīĮ
æłĩ å¿Ĺ
åģ¥ åº·
æĭ ĵ
å² ³
åĪĽ éĢł
æ¬§ åħĥ
å± ¯
ä¼ļ çļĦ
èĳ¡èĲĦ çīĻ
ç¥ Ŀ
Ġ201 6å¹´
è¢ ĸ
4 2
å¸ĥ æĭī
åıĳ çĶµ
æķĪ åĬĽ
å¤ıä»¤ æĹ¶
åľŁ èĢ³
ä¹ ¾
çº ·
éĩĮ çļĦ
å¤§ éģĵ
æ£® æŀĹ
æľī äºº
Ġ V
æĪ Ĵ
ä¹Ŀ å¹´
åıĳ èµ·
äººåı£å¯Ĩåº¦ æ¯ıå¹³æĸ¹åħ¬éĩĮ
T he
åŃĹ æ¯į
æį Ĳ
åľŁèĢ³ åħ¶
æ° ¢
ç® ±
æ°´ å¹³
å¤± è´¥
åŃĲ çļĦ
å¸Ĥéķĩ ç¼ĸçłģä¸º
INSEE å¸Ĥéķĩç¼ĸçłģä¸º
å½ĵæĹ¶ çļĦ
ãĢ İ
å¹³æĸ¹ ç±³
åİĨåı² ä¸Ĭ
ãĢ ı
å¹¶ éĿŀ
åħ ½
çĳŀ åħ¸
åį ĳ
äºİ æĹ¶çļĦ
åĮ» åŃ¦
äºİæĹ¶çļĦ äººåı£æķ°éĩıä¸ºäºº
æ£ ĭ
éĢī åĮºä¸º
ç¾İåĽ½äººåı£æĻ®æŁ¥ çļĦæķ°æį®
äººåı£å¯Ĩåº¦ä¸ºæ¯ı å¹³æĸ¹åįĥç±³
æĻ ĵ
èĢĮ äººåı£å¯Ĩåº¦ä¸ºæ¯ıå¹³æĸ¹åįĥç±³
å½ĵåľ° åħ±æľīäººåı£
æ²³ åĮĹ
åľ ³
åį ¿
æµ ħ
è¯¥ çľģä»½
æĪĸ æĹ§å¸Ĥéķĩ
å»¶ ä¼¸
çī¹ æ®Ĭ
å¼º è°ĥ
éħĴ åºĹ
I n
çļĦ æĸ¹å¼ı
çľģçº§ éĢīåĮºä¸º
æīĢå±ŀçļĦ çľģçº§éĢīåĮºä¸º
å¸ĥ é²ģ
åį« çĶŁ
çļĦ åİŁ
ãĢĭ ()
æľ¬ åľŁ
Ġ 2022å¹´
ç¼ĸ è¾ĳ
æĺ¯ä¸Ģ åĲį
è¯¥çľģä»½ ä¸ºæ³ķåĽ½
èĢĮ è¯¥åľ°
åĲİ èĢħ
å¥ĸ é¡¹
ä¸Ń å±±
18 7
æķĻ åĮº
åĳ½ ä»¤
éľĢ æ±Ĥ
er s
äºº å¤§
éģ¿ åħį
æĬ¥ å¯¼
åıĹ ä¼¤
èĲ¥ è¿Ĳ
ä¼° è®¡
è½° çĤ¸
ç¼º ä¹ı
è¿ħ éĢŁ
æĹ ¦
æıĲ åĲį
ĠS t
åħ¶ ä½Ļ
æµ· åŁŁ
äºİ19 4
æī °
ç¬¬ 1
åĽĽ ä¸ª
èĳĹ åĲįçļĦ
æĲ ¬
å¸Ĥ çļĦ
æ³¨ æĦı
æ¬¢ è¿İ
çĶŁ åĳ½
å¿ĥ çĲĨ
éļ§ éģĵ
æĶ¿ æĿĥ
éĥ Ĭ
åī ©
è¾¾ æĪĲ
åĲ¸ å¼ķ
çĹĩ çĬ¶
å®ī å¾·
t ion
æı Ĵ
é² į
åĸ Ģ
éĩĳ çīĮ
è§Ħ åĪĻ
ä»ĭ ç»į
ä¹ĺ å®¢
å¤§ è¥¿æ´ĭ
æĸ¯ å¡Ķ
å¤ĸ åĽ½
éĩĳ èŀį
æķĻ ç»ĥ
çļĦ ç¬¬ä¸Ģ
æĿ Ĩ
æĴ¤ éĶĢ
çİ »
ä¾ ¦
æĪĲä¸º äºĨ
éľ ¸
ä¸ ²
äºº åĴĮ
åı¯èĥ½ ä¼ļ
è´ ŀ
éĥ¨ èĲ½
å´ İ
Ġ201 4å¹´
ä¸» å¼ł
æķ° åŃ¦
S A
å¹¶ å°Ĩ
èĢĮ è¢«
éĵ ¾
æĦŁ åĪ°
6 7
4 00
åħ¬ ä¼Ĺ
æ¬ ²
å½¼ å¾Ĺ
èĥ İ
ä¹Ł è¢«
äºĭ å®ŀ
å°Ķ åħ°
æķĻ å¸Ī
ä» ¿
éĩĩ åıĸ
ä½ĵ éķ¿
åħ¨ éķ¿
9 9
Ġ201 5å¹´
æµ ĵ
æİ¨ åĬ¨
è ¹
ä¹ĭ ä¸ĭ
åľ¨ åħ¶
ä¼ł è¯´
èµĦ è®¯
è´Ń ä¹°
ä¿¡ ä»°
15 0
æī§ å¯¼
æŀ ¢
çĲĨ äºĭ
é¼ ł
ä¸Ńåħ± ä¸Ńå¤®
æľ¬ èº«
çļĦä¸Ģ åº§
è¯ ¢
ä¼ Ļ
ç¥ŀ ç»ı
å½ »
èĽ ĩ
åį ĵ
æĸ¯ èĴĤ
æĶ¾ å¼ĥ
åıĪ åĲį
æķĻ åŃ¦
äº¦ æľī
" ,
æĴŃ æĶ¾
éĩį åºĨ
Ġ p
åįģ åŃĹ
âĢĿãĢģ âĢľ
æ³ķ æ¡Ī
æĽ´ å¤ļ
æľĢåĲİ ä¸Ģ
ç¨ĭ å¼ı
Ġ201 3å¹´
åıĤ èĢĥ
è¥¿ æĸ¹
è´¡ çĮ®
æĭ ³
ç½ĳ è·¯
åįĹ æŀģ
18 6
æīĵ åĩ»
åľ° çļĦ
åĩº æĪĺ
äºİ19 6
å£ ®
èĭ± éĽĦ
å®¹ æĺĵ
ç¬ ĳ
åİ ĺ
åĨĽ çļĦ
æ³° åĽ½
ç§¯ æŀģ
æĵ İ
å½ĵ å±Ģ
æĬĹ è®®
æĺ¯ä¸Ģ ä½į
åĸľ æ¬¢
åĽ½åĬ¡ éĻ¢
æı Ń
æĺ¯ æĹ¥æľ¬
åī ²
çİ° ä»»
äºĭ æķħ
ä¹Ŀ é¾Ļ
å¤º å¾Ĺ
Ġ æŃ¤
çī ł
åħ¨ éĿ¢
äºİ19 5
è¯ģ æį®
åĲ¯ çĶ¨
æĢ§ è´¨
æİ¥ è§¦
is t
äº Ń
éĺŁ ä¼į
æ´ Ĺ
Ġ 4
åį ľ
è£ħ çĶ²
æī ®
åħ¶ å®ĥ
ä¹Ł ä¼ļ
å° Ŀ
ç»ĵæĿŁ åĲİ
Ġ of
åįģ ä¸Ģ
èµ Ĳ
çŁ¥ è¯Ĩ
å±Ĭ åħ¨åĽ½
çļĦ éĩįè¦ģ
èĤ º
åĲİ æľŁ
å¼º çĥĪ
æ¹ĸ åĮĹ
å¤ļ ç§į
çª Ĺ
èĬ ³
æĮ ª
å®ī å¾½
å¦Ĥ ä½ķ
å±ķ ç¤º
) ;
èĢĮ æĪĲ
çĸ ı
u l
å¤į æĿĤ
æ¶ī åıĬ
åŃ¦ ä¼ļ
æ¼ĶåĶ± ä¼ļ
ä¸ĸçķĮ æĿ¯
çł ²
ä¸ĩ åħĥ
çŁ¥ åİ¿
å®Į æķ´
çļĦ æµ·
èı² å¾ĭ
åĴĮ åħ¶ä»ĸ
éĩĮ äºļ
èı²å¾ĭ å®¾
æĿ Ń
çĻ½ èī²
ç»´ å¥ĩ
ç¾½ æ¯Ľ
çİ Ħ
ä¸ĩ ç¾İåħĥ
åħ¬ ä¸»
çĪ± å°Ķåħ°
è´ «
ç¬¬ 2
åĩºçİ° åľ¨
èį¯ çī©
C h
æĬ ¢
éĩĮ æĸ¯
ç¾İ æľ¯
åħī ç»ª
5 9
7 8
æĸĩ çĮ®
æĿĳ åºĦ
æĦı è§ģ
e v
çļĦ åľ°æĸ¹
è± Ĩ
éĢ Ĵ
éĵ º
æ°ĳ éĹ´
ä»Ģ ä¹Ī
2 äºº
Ġ m
æ¸ Ķ
å¼ķ æĵİ
éĢ Ĩ
åĨħ éĺģ
åŁĥ åıĬ
å¸Ĥ æ°ĳ
è¿Ļ æ¬¡
å£ ³
æĿĥ åĪ©
åĪĽ å»º
æĹħ å®¢
å« Į
åĢĻéĢī äºº
è´ ´
é«ĺ éĽĦ
5 6
æ¹ ¿
3 äºº
æĬ ½
çĬ ¬
å®¢ è¿Ĳ
çĪ¶ æ¯į
é¢Ĩ åľŁ
èĲ¨ åħĭ
ç®Ģ åįķ
o b
å¾ĭ å¸Ī
äºº å·¥
å°ı çļĦ
æº ¶
çº¢ èī²
æĿ° åħĭ
Ġ å¤§
æİĪ äºĪ
æİª æĸ½
æĭī ä¸ģ
éĽ ĩ
è¡¨ éĿ¢
å®ļ ä¸º
çĮ «
Ġ 2023å¹´
éĻ¢ éķ¿
ç®Ģ ä»ĭ
å¦ ĥ
ä¹¾ éļĨ
èŀ º
èĤ¡ ä»½
æķĪ æŀľ
çŃ¾ ç½²
åĩº éģĵ
èģ ĺ
è±¡ å¾ģ
N A
å¯ Ħ
ç² ®
åıĳ åĶ®
èį£ èªī
æĦı ä¸º
æĭī å¤«
å° ī
éĻį ä½İ
å£° ç§°
Ġ 6
é£ ĵ
æ·± åľ³
æĤ ¬
å½¢ è±¡
åľ° éľĩ
åħĭ ç½Ĺ
äºļ åİĨ
ç¡® è®¤
ç¡® è¯Ĭ
åĽł ç´ł
ä¸ľ åĮĹéĥ¨
å· §
æĿ¥ åĪ°
1 äºº
ç¢ ³
æĮī çħ§
çĬ¯ ç½ª
é£ĵ é£İ
çĽ ¾
e g
12 å¹´
çĪĨ çĤ¸
åı Ķ
è¿ Ł
éķ¿ åº¦
ä¹Ł åı¯ä»¥
åĮ» çĶŁ
é¢Ĩ è¢ĸ
ç«ŀ äºī
è¢ ģ
ä½ľ èĢħ
åľ° çĤ¹
çħ ¤
o k
å°Ĩ ä¼ļ
å·® å¼Ĥ
è¢«è®¤ä¸º æĺ¯
ä¼ł æĴŃ
ç¨ ¿
å® ı
æ´ ģ
æĽ´ åĬł
an g
ä¸ĵ éĹ¨
ä¸ Ī
æĸ ľ
æĸĩ åŃĹ
ä¼Ĭ æľĹ
åıĳ åĩº
åıĻ åĪ©äºļ
ä¸į æ»¡
å®ŀéĻħ ä¸Ĭ
çļĦ é«ĺ
ä¸ĵ å®¶
ç¾ Ĭ
åİĭ åĬĽ
ä¸Ģ å®ļ
åı¤ ä»£
ä¸¾è¡Į çļĦ
æ°Ķ è±¡
ä¸ Ļ
å¯¹ æŃ¤
å·¥ åħ·
ä¹¡ è¯ķ
èµĦ éĩĳ
Â °
åı° åįĹ
åŁºçĿ£ æķĻ
æĪı åī§
çī µ
æ¯ĶèµĽ ä¸Ń
èĨ ľ
8 8
èħ ¾
5 7
èµ· æºĲ
= "
æĬ ¼
å° ¸
å°ļ ä¹¦
æ²³ çķĶ
æįŁ å¤±
: "
ï ½
åĨ Ĵ
é«ĺ äºİ
å¤ļ å¹´
å¡ «
ç»Ļ äºĪ
æľī ä¸Ģä¸ª
è¾¹ çķĮ
é³į é±¼
ä¸ľ æĸ¹
å¸Ī èĮĥ
çĸ¾ çĹħ
T V
çļĦ ä½ľåĵģ
è¾ ©
åĿ¦ åħĭ
çĽ¸ æ¯Ķ
ç»ı éªĮ
è¡ į
çĹħ ä¾ĭ
å¥ ĳ
è£ ķ
éĴ ¦
æľī æīĢ
çĲĥ ä¼ļ
ä½ľ æĽ²
ä¸¾ äºº
äº¨ åĪ©
ä» ĳ
åľ¨ æĹ¥æľ¬
è¡ °
å§ »
æłĩ ä¸º
199 8å¹´
åĩº å¸Ń
æ° Ł
ç½ ¢
æĺ¯ ä»¥
åĪĹ è¡¨
è¸ ª
t w
éĢĢ å½¹
Ġ U
éĿ¢ å¯¹
å·¡ åĽŀ
çļĦ ä¸ī
ä¸į ä»ħ
å½ĵ å¹´
é¸ ¡
æĺİ æ²»
çº¦ ä¸º
æĶ¹ åĸĦ
æĢ§ åĪ«
çĻ» éĻĨ
è¥¿ èĹı
èĮ Ĥ
ä½ı å®ħ
å²ģ çļĦ
è ²
çĲ ī
ä¹ĭ ä¸Ń
ä¸¤ å¹´
æĶ¹ éĢł
åı¸ æ³ķ
å¹¶ åħ¥
åĪĹ åħ¥
åĽŀ åºĶ
åħĭ èİ±
ç«Ļ åı°
å® Ļ
çİĩ é¢Ĩ
éĤ£ éĩĮ
è´µ æĹı
èĪŀ åı°
6 6
è½¬ ç§»
åĪ¶ çļĦ
199 9å¹´
ç±³ çļĦ
ç¤¾ä¼ļ ä¸»ä¹ī
å¦ Ī
å®ŀ è¡Į
å£° æĺİ
åĨ¬ åŃ£
åľ° éĿ¢
ä¸Ģ å®¶
ç² ¹
ç§į æĹı
èĭ± å°º
çĶµ è½¦
æ¾³ æ´²
B C
èĤ ¥
åŁº åĽł
åıĤ è°ĭ
åĸ ·
åħ³ éĹŃ
ä¸Ģ åº§
åĳ½ åĲįä¸º
èį Ĵ
æµģ åŁŁ
åĥ §
æµ· æ´ĭ
æĪĲ æľ¬
Y ou
åıĤåĬł äºĨ
è£ħ ç½®
å¥¹ åľ¨
æ ĩ
éģ µ
çĭ Ħ
Ġ201 2å¹´
5 4
ç¤º å¨ģ
è¯Ń çļĦ
å½¢ æĢģ
çĸ« æĥħ
æµ ©
ä¸Ģ æĿ¡
æīį èĥ½
åıĺ å¾Ĺ
å²ģ æĹ¶
ç¡ķ å£«
èĬ¬ åħ°
åľ¨ ä¸ŃåĽ½
é¸ ¿
å´ Ķ
çİĽ ä¸½
åħ¬åı¸ çļĦ
åĳ¨ å¹´
ç¬¦ åĲĪ
é©± éĢĲ
æĦı æĢĿ
åį³ ä½¿
é«ĺéĢŁ åħ¬è·¯
æľº åĻ¨
æµĭ éĩı
n d
æµ· å¤ĸ
é³įé±¼ çº²
çļĦ åĽ½å®¶
æŃ£ å¸¸
å¸ ħ
éĢļ è½¦
èİ« æĸ¯ç§ĳ
æĸ° çĸĨ
å±Ģ éķ¿
å² Ĺ
è¾ĥ ä¸º
C D
æĥħ æĬ¥
ar d
Ġ d
åı¦ ä¸Ģä¸ª
é¥ Ń
é¡¾ éĹ®
å¯¹ è±¡
å¼Ģ è®¾
çĶµ åĬĽ
èĭı æł¼åħ°
å¼ ¥
éħį åĲĪ
æ·· åĲĪ
é£Ł çī©
éĻĦè¿ĳ çļĦ
æĢ Ĵ
åĩº æĿ¥
ä¿® æĶ¹
æ¶ µ
å§Ķ ä¹¦è®°
æĶ¶ è´Ń
æĻļ ä¸Ĭ
åı°åĮĹ å¸Ĥ
Ġ èĩª
åĵ² åŃ¦
ä¿ ĺ
å¾Ī å¿«
æķ´ ä½ĵ
è¾Ĳ é³įé±¼çº²
èĢ Ĺ
çģ« ç®Ń
å¹¶ ä»¥
åĩł ä¸ª
éĻĨåľ° éĿ¢ç§¯ä¸º
çŁ¥ åĲį
åĪĨ éħį
æ°´åŁŁ éĿ¢ç§¯ä¸º
3 ä¸ª
æ¬ £
10 å¹´
æ¶ ¦
åıĳçİ° äºĨ
æī© å¤§
u p
åŃ ¤
éħį éŁ³
èĢ Ģ
å·¥ äºº
å¼Ģ éĢļ
åĮĪ çīĻ
5 2
æŃ ĩ
æ¯Ķ ä¾ĭ
es t
çŁ ¶
çĭ Ĥ
æ³ķ å®ĺ
ä¸ľ åįĹéĥ¨
äº¿ åħĥ
al l
èµ ¶
å¹¿ä¸ľ çľģ
åĽĽ åįģ
å¯¼ å¼¹
æĮª å¨ģ
åĮĪçīĻ åĪ©
çļĦ åİĨåı²
ä¹ĭ åŃĲ
èĢĮ è¨Ģ
åĤ ħ
u c
åľ¨ è¯¥
å¢ŀ éķ¿
ç¥ Ģ
æĥ ¯
è£ħ å¤ĩ
çĭ ®
éĻ Ģ
åº· çĨĻ
å¯ ¸
çľģ åĴĮ
ç¿ Į
ï½ ŀ
ä»» èģĮ
è¯· æ±Ĥ
åĲĮ çĽŁ
åŁĥ å°Ķ
æıĲ åĪ°
æµ· å³¡
æģĲ æĢ
i k
çĶ¨ ä½ľ
åĬ¨ ä½ľ
åŀ Ĥ
æĪĺ çķ¥
ç¥¨ æĪ¿
å½ĵä¸Ń éĻĨåľ°éĿ¢ç§¯ä¸º
çļĦ ä¸Ń
èĢĮ æ°´åŁŁéĿ¢ç§¯ä¸º
ç§ĺ å¯Ĩ
å¤ª åŃĲ
èĦ Ĥ
9 8
å¤ ·
åİ ¢
ä¸ĭ éĻį
æŁ Ķ
e w
çļĦ æĹ¶éĹ´
ç§ģ äºº
ä¸ĭ æĿ¥
ç² ¤
äºļåİĨ å±±
18 å¹´
æŃ¦ æ±ī
æĤ ī
éĥ¨ çļĦ
å¸ĥ å°Ķ
ç¼ħ çĶ¸
åįİ çĽĽ
çĭ Ĺ
éĢĢ ä¼ĳ
i p
Ġ 19
çĶŁ çļĦ
èµ· ä¹ī
åĩº æ¼Ķ
å§ ļ
åĽŀ å½Ĵ
æ» ļ
e b
éĹ´ çļĦ
æŃ¥ åħµ
è¦Ĩ çĽĸ
; -
åħ« å¹´
Ġ è¡ĮæĶ¿åĮºåĪĴ
an dĠ
ä¸Ĭ åįĪ
è¯´ æĺİ
ç¼ĸ åī§
ç¢ İ
7 6
éĢ ¢
è§Ĥ æµĭ
ä¸ŃåĽ½äººæ°ĳ è§£æĶ¾åĨĽ
æľĢ è¿ĳ
éĩį å¤§
çĮ Ľ
åĬ³ åĬ¨
æī¾ åĪ°
e p
ä¸º è¾Ĳé³įé±¼çº²
O S
ä½ĵéķ¿ åı¯è¾¾
æ·± åº¦
çģ Į
æİ¨ è¿Ľ
åįİçĽĽ é¡¿
5 3
è¢« è¿«
é¢Ħ è®¡
å½ °
èĬ Ĵ
åĲĪ çº¦
åĬŀ äºĭ
åħ´ è¶£
å¥¥è¿Ĳ ä¼ļ
h a
æĳ ĩ
åĪ ¸
ç»Ħ å»º
çľŁ æŃ£
ç»ı åħ¸
çļĦ éĹ®é¢ĺ
é©¬ å°Ķ
è¯ķ éªĮ
åº ŀ
ç¬¬ åħ«
åĳ¨ åĽ´
é£İ éĻ©
æºĲ èĩª
å°Ŀ è¯ķ
ç¾İ åĨĽ
ä¿Ŀ åŃĺ
ä¸º æŃ¢
åĬł çĽŁ
å¼ķ åħ¥
æĬķ éĻį
éĺ² å¾¡
å¾¡ åı²
el l
æłĸæģ¯ åľ¨
å¹¿ è¥¿
æ» ©
èĬ± åĽŃ
æĿĢ æŃ»
i f
ä¸Ń æľī
ç¬ ¼
å» Ĭ
åľ° åĽ¾
åĮĹ èµ·
Ġ 2024å¹´
ä¼ ª
åĳ İ
åģ ·
å²Ľ å±¿
åĬ¿ åĬĽ
âĢ¦ âĢ¦
éĺ ª
åĮĹäº¬ å¸Ĥ
æľ¬ ç«Ļ
èį Ĳ
éļı åį³
Ġ æĽ¾
å¥ İ
è´£ ä»»
Ġ ä»İ
ä»£è¡¨ å¤§ä¼ļ
å¤§ è§Ħæ¨¡
éĢ »
ä¸İ åħ¶ä»ĸ
èĤ ĸ
å£° éŁ³
çļĦæĥħåĨµ ä¸ĭ
( ).
199 7å¹´
ä»¥ åīį
éħ ¶
æĹĹ ä¸ĭ
å¸¦ æĿ¥
è®º æĸĩ
çĶ¨ éĢĶ
çĶŁ æĢģ
åĽ½å®¶ éĺŁ
199 2å¹´
199 6å¹´
Ġ in
çı Ĭ
ä¾ ł
å¯¹ å¤ĸ
æ¸© åº¦
è®² è¿°
åĲ ¾
äº¿ ç¾İåħĥ
çħ§ çīĩ
4 3
B A
æŀ Ŀ
è¿Ĳ ä½ľ
ç»ĦæĪĲ çļĦ
ä¿ĥ è¿Ľ
ä»£ çłģ
çļĦ æĶ¯æĮģ
å¯¹ åºĶ
7 7
ä¼ĺ åĬ¿
è½¯ ä»¶
æľĢ å¤ļ
å¾Ĺ çŁ¥
è§£ æķ£
æ¹ ĺ
ç¿ ģ
ä¸¤ æ¬¡
æĮĩ å¯¼
å¤« äºº
è°Ī åĪ¤
çĴ ĥ
èµ ĭ
éļľ ç¢į
å¨ ĥ
åĵ¥ ä¼¦
å¤ıåŃ£ å¥¥æŀĹåĮ¹åħĭè¿ĲåĬ¨ä¼ļ
å¹´ é¾Ħ
åĲį ä¹ī
åįģ ä¸ī
æŀĦ éĢł
ä¿® å»º
ar t
éĺ Ķ
ç»ı çĲĨ
èĥ ¸
åľ¨ å¤§
å¼ ¦
åı° ä¸Ń
æģĲæĢ ĸ
Ġ 5
éŃ Ĥ
éļ¾ ä»¥
åį µ
æł ı
å°ı åŀĭ
æĮĩ æİ§
ä¸ĩ åİĨ
çļĦ å·¥ä½ľ
ä» ĩ
äºĨ è§£
Ġ æ¦Ĥ
åİĨ ä»»
åĲ Ĳ
è¢« è§Ĩä¸º
ä¸Ĭæµ· å¸Ĥ
çļĦ å¤ĸ
æľ ´
è¥¿ åįĹéĥ¨
é©¬ æĭī
æ¯ķä¸ļ åĲİ
han s
é©¾ é©¶
çļĦ å±±
ä»ĸ è¿ĺ
éĤ£ äºĽ
åĲ ı
ä¸ī è§Ĵ
h k
åı ł
æ· ĺ
194 5å¹´
åħĭ æĭī
éĤ ¨
çļĦ åıĳå±ķ
æ³¨ åĨĮ
an t
å©ļ å§»
Ġ201 1å¹´
å®ĩ å®Ļ
ind ow
æī® æ¼Ķ
4 1
è¥¿ å®ī
çŃī çŃī
ç½ĳ çĲĥ
å± ł
åĮĸ çŁ³
æĳĦ å½±
19 å¹´
ç¡ «
åĬł å¼º
æ¬¡ å¹´
éĩı çļĦ
èħ Ĳ
éĶĻ è¯¯
æĲ º
å¹´ ä»£
åĨĽ åĮº
èĪ ±
åı° é£İ
198 8å¹´
æ·¡ æ°´
å½ ¦
å®¶ äºº
å¤ª ç©º
9 5
æŁı æŀĹ
é¢ľ èī²
åľ¨ é¦Ļæ¸¯
åįģ åħŃ
èĦ Ĭ
æľį å½¹
åĲĪ æĪĲ
éĻĨ ç»Ń
éĢ ®
è² Į
å®¶ çļĦ
åĺ ´
199 4å¹´
A R
é¹ °
ä»ĸ è¢«
éĢĢ åĩº
åįĹ éĿŀ
B S
åĬł åĪ©
éĢļ éģĵ
Ġ 2010å¹´
æĶ¿ åįı
åįĹ æĸ¹
æŃ §
éļ¶ å±ŀ
äºİ19 3
åİŁ ä½ı
Ġ 10
æĹ ¬
è¥¿ åĮĹéĥ¨
å¸¦ æľī
ç¨ į
æĶ¿åºľ çļĦ
æ±Ł è¥¿
åı ī
åħĭ çļĦ
194 9å¹´
il l
ç¬¬ 3
çĲĥ åŃ£
ç³»ç»Ł çļĦ
ä»· æł¼
éĩĬ æĶ¾
ä¹Ĳ éĺŁ
ï¼ ı
å®ļ å±ħ
A M
å¤§ èµĽ
åĳĪ çİ°
ä¸Ģ èĩ´
ä½ľ åĩº
çĽ¸ ä¿¡
q u
Ġ 192
çļĦ æķħäºĭ
é¦ĸ åħĪ
å¨ ĺ
ä¿Ŀ ç½Ĺ
åĪĨåĪ« ä¸º
åĪ ·
ç¿ ł
åħ¼ ä»»
éĹ ½
æģ °
æİĴ è¡Į
Ġ çļĦæĹ¶åĮºä¸º
Ġ äºİæĹ¶çļĦäººåı£æķ°éĩıä¸ºäºº
Ġ æīĢå±ŀçļĦçľģçº§éĢīåĮºä¸º
æīĢ å±ŀ
éº¦ åħĭ
éĺ¶ çº§
Ġä¸İ æİ¥å£¤çļĦå¸Ĥéķĩ
ĠçļĦ éĤ®æĶ¿ç¼ĸçłģä¸º
7 9
ä¸¤ åĲį
èĿ ¶
e x
æ¸¸ æ³³
ä»»åĳ½ ä¸º
æĬĹ æĹ¥
æı ¡
çĽ¸ äºĴ
åħ³ éĶ®
ç«ĭ åį³
éĢļ è®¯
ç¯® çĲĥ
u d
èĸ Ħ
åĮĹ æµ·
éªĳ å£«
èĩª èº«
åĿ ª
æ¯Ķ å¦Ĥ
æ· »
éªĳ åħµ
åį± æľº
å© Ĩ
æĸ¯ æŀĹ
éĽ Ģ
å¸¦ é¢Ĩ
éĵ Ń
åİŁ åŃĲ
ä¸° å¯Į
1 æľĪ1æĹ¥
å¿ §
è¶ ĭ
ä¼ĺ ç§Ģ
éĨ Ĵ
ç¬¬äºĮæ¬¡ ä¸ĸçķĮå¤§æĪĺ
å· «
å¤§ èĩ´
æ· ®
å±ķ è§Ī
æĹ¶æľŁ çļĦ
æĸ¹ è¨Ģ
å¯¹ æĬĹ
éĢī ä¸º
4 äºº
è®¡ç®Ĺ æľº
åĨħ éĻĨ
ä¾Ľ åºĶ
çľŁ å®ŀ
è¯ ı
éĿŀ å»ºåĪ¶
æĦı å¿Ĺ
é¸ £
ç¾½æ¯Ľ çĲĥ
èīº äºº
é»ĳ èī²
è¾ĵ åħ¥
ä¼Ĺ å¤ļ
éĺŁ éķ¿
ä»ĸ ä¸İ
åĮĹ æĸ¹
åĽº å®ļ
ä¸Ģ çº§
ä¸Ĭ è¿°
6 9
æİ ĺ
åħĪ çĶŁ
åħ· ä½ĵ
åį° å°¼
ä»£ çĲĨ
å·ŀ åºľ
æľĿ å»·
éĺ ®
C O
æ´¾ éģ£
å µ
198 9å¹´
å¾Ģ å¾Ģ
æ£Ģ æµĭ
å§ ¬
éĥ½ å¸Ĥ
å¯» æī¾
é»Ħ éĩĳ
é¢Ĩå¯¼ äºº
éĿŀå»ºåĪ¶ åľ°åĮº
18 5
ä»£è¡¨ åĽ¢
çªģ çł´
é¼ »
Ġ ä»¥ä¸ĭ
ä½Ĩ çĶ±äºİ
Ġ 8
åįģ äºĶ
çģ« å±±
çī¹ èī²
åįĹ èĩ³
çĽĳ çĿ£
åĹ £
å¼Ģ å±ķ
æĦ Ī
æ³¢ æĸ¯
æĿī çŁ¶
6 2
å·² è¢«
æĽ´ ä¸º
ä¾ĭ åŃĲ
æ´Ľ æĿīçŁ¶
es s
æ° ¯
çĻ» ä¸Ĭ
a in
çĶµ è¯Ŀ
å½ĵ å¤©
ä¸¤ åĽ½
æĸ ¤
æĹ¥ æĬ¥
10 00
å±± è¥¿
åĦ Ĵ
åħ Ĩ
èĭ ĳ
çªģ çĦ¶
å®ŀéªĮ å®¤
èĮ µ
ä¾Ŀ æį®
åģ ¿
Ġ å®¶æĹı
ä¸º 2
åľº çļĦ
å°¼äºļ å·ŀ
çĽ¸åħ³ çļĦ
åħ¬ çĪµ
åĽ½å®¶ çļĦ
æĳ Ĩ
ä¸¹ éº¦
Ġ w
åį Ĵ
è¡Į çļĦ
æ± ª
ä¸ī ä¸ĸ
çī¹ å®ļ
199 3å¹´
åĲĽ ä¸»
å¯ ¨
åĨĽ å®ĺ
åĳĺ å·¥
: ),
Ġ f
ä¸º 1
å¤§ å¤ļ
199 5å¹´
Ġ åĴĮ
å°ĳ å¥³
å¦ĩ å¥³
å°± ä¼ļ
æ²¿ æµ·
æĺİ ç¡®
ä¸»è¦ģ çļĦ
6 00
æĪ¿ å±ĭ
éĢ® æįķ
çļĦ åĲĮ
åı² ä¸Ĭ
199 1å¹´
è½¬ åĲĳ
æī© å±ķ
4 ä¸ª
å¤ ķ
å¤§ æ¡¥
ä¾ ¨
å°¼ åħĭ
èµĦ äº§
on g
çļĦ çĶµå½±
èĦ ı
ä¸Ģ æ®µ
éĻ ¨
å®ĥ æĺ¯
æľº åĪ¶
éĵľ çīĮ
Ġ éĺ¿
è¯ģ å®ŀ
ä¸İ åħ¶
æŃ¤ æ¬¡
åĪ¶ å®ļ
ç»Ŀ å¯¹
åĬ Ŀ
å¤§ å¥ĸ
åĩ Ģ
ä¸ Ľ
è¾ °
5 1
18 0
æ£Ģ æŁ¥
å¤§ åİ¦
ç§ĳ å¤«
äºļ ç¾İ
åĮĸ åĲĪçī©
ç² Ĺ
åĲ¯ åĬ¨
Ã ©
æ³ķåħ° è¥¿
åĪĨ ç¦»
è§Ĩ é¢ĳ
éĵ ¸
çī¹åĪ« æĺ¯
åľ¨ äºİ
åī§ æľ¬
ç´§ æĢ¥
è¯Ħ ä¼°
åĿĩ ä¸º
Ġ zh
åĨľ æ°ĳ
åĵ¥ä¼¦ æ¯Ķäºļ
åĬł æĭī
æ¶ Ĥ
ä¸ ĳ
ä¸»è¦ģ æĺ¯
ä¸Ĭ æľī
ä¿Ŀ å®Ī
ä¹ł æĢ§
èĲ¨ æĸ¯
åī§ éĻ¢
åºŁ éĻ¤
åĬ «
åŁºéĩĳ ä¼ļ
2 ä¸ª
199 0å¹´
198 5å¹´
çŁ ©
åľº æ¯ĶèµĽ
åĢ ¡
h t
ä¹ĭ æĪĺ
æī «
è´ ©
èĢĮ éĿŀ
æ± °
è´¨ çĸĳ
çŃ¾ è®¢
ä¸Ń è¢«
çİ° ä»Ĭ
æ± Ģ
åİŁ åĪĻ
åĨĽ åĽ¢
å½¢ å®¹
éĻķ è¥¿
ä¸ĭ ä»¤
éĦ Ĥ
å¼ ¯
åŃ¦ å£«
ç±³ äºļ
åĬª åĬĽ
åħ¶ä¸Ń åĮħæĭ¬
ç»Ļ äºĨ
ä¼ļ éķ¿
ç»´ æĬ¤
å¸Ń ä½į
çīł ä»¬
æĭ ĺ
éĽ Į
çŃī ä¸º
åįĩ çº§
a st
é© ³
æĮĩ å®ļ
æ½ Ń
Ġ 7
é¾ Ł
æıĲä¾Ľ äºĨ
éĺ» æŃ¢
åı· çļĦ
èĥ½ éĩı
åŁİ åł¡
en d
èģĮä¸ļ çĶŁæ¶¯
åįİ äºº
ä¿Ŀ éļľ
åĭĭ ç«ł
æłĩ æľ¬
ç©Ĩ æĸ¯æŀĹ
åĽ° éļ¾
è¿Ļæł· çļĦ
æŃ» åĲİ
çļĩ åĲİ
ç§ĳ åŃ¦éĻ¢
æ¶ Į
198 4å¹´
äºļç¾İ å°¼äºļ
æĹ¶ æ®µ
æĥħåĨµ ä¸ĭ
æĺ¯ä¸Ģ é¢Ĺ
Ġ200 8å¹´
åħ¶ä¸Ń ä¸Ģç§į
åĲİ ç»Ń
åł ª
ç£ ¨
é¦ĸ ä¸ª
ç§į åŃĲ
çł ĸ
èĲ¨ å°Ķ
èĵ ¬
éĨ ĩ
å¯ Ĵ
åĪ© çĽĬ
äºĮ äºº
é©¬ éĩĮ
çķĻ ä¸ĭ
s p
äº¦ æĺ¯
æ»¡ è¶³
2020å¹´ ç¾İåĽ½äººåı£æĻ®æŁ¥çļĦæķ°æį®
å¥¥ å°Ķ
åĺī éĿĸ
å¿ ½
æĥ Ł
åĢ º
å¤§åŃ¦ çļĦ
æīĭ æľº
åĬ© çĲĨ
å»¶ éķ¿
çļĦ ä¸¤
åıĤ éĢī
æķ ¢
æľ¬ åľ°
Ġ æĹ©å¹´
ä¸» åĬŀ
åĬł å·ŀ
ä¹Ł ä¸į
æĶ¶ è§Ĩ
åĪº åı²
å° ¹
å¾· çļĦ
å¼Ĺ æľĹ
ä¸Ń éĹ´
åħ¬ å®ī
åĳ¨ æľŁ
èĮĥåĽ´ åĨħ
ä»¥ å¤ĸ
åįģ åĽĽ
åı¦ æľī
æ¶Ī è´¹
å¥ Ķ
la y
çļĦ åħ³ç³»
åĭ Ł
æ°Ķ æĹĭ
ä¸Ń æľŁ
æĬ ĳ
è®¾ å®ļ
ç»´ æĸ¯
æº ¯
æĽ´ æĸ°
ä¸ĸçķĮ ä¸Ĭ
åľ¨ åĨħçļĦ
å¤§ å¹ħ
å¤į åħ´
éĹ ª
å¹¶ ä¸İ
ä»¤ äºº
åĬŀäºĭ å¤Ħ
èº« ä¸º
çº³ ç²¹
1 ä¸ª
æ´» è·ĥ
ä¿® æŃ£
éĤ» è¿ĳ
æĺİæľĿ æĶ¿æ²»äººçī©
ä¸ľ ä¸´
ç©º æ°Ķ
åıį æĺł
é¢ ĩ
åİŁ åĲį
å½¢ çĽ®
é¤Ĳ åİħ
r an
èĩ³ äºİ
æī ¶
ä¸Ĭ ä¸ĭ
åĳĬ è¯ī
ç¢ Ł
æļ´ åĬĽ
- -
çļĦ æ°´
æĻĭ çº§
A C
ac k
198 6å¹´
Ġ200 9å¹´
åįı è°ĥ
çİ» çĴĥ
å½ķ éŁ³
æĤ ²
8 5
ä¸į åĪ°
è Ł
çİ° å®ŀ
ä¼ł åªĴ
ç¿ ħ
çĽĳ çĭ±
00 å¹´
æĭ ¼
æĭ ĸ
åĩº åıĳ
åĪ© æĸ¯
åħļ çļĦ
ä¼ļ ä¸Ĭ
å¾· å°Ķ
æİ¥ æĶ¶
ä¹¦ éĻ¢
åħ¸ ç¤¼
èķ ¾
æ·ĺ æ±°
æĹ¥ æľŁ
ä»Ĭ å¤©
éĢ ¼
æ¸ħ åįİ
åİŁ å§ĭ
åįģäºĮ å¹´
åįĩ ä»»
éĵ¶ çīĮ
é£Ł åĵģ
19 ä¸ĸçºª
æĸ¯ é¡¿
èģĮ ä½į
å½ĵåľ° çļĦ
æĸ Ĳ
å¯ ĵ
åıĳ æĺİ
ĠC h
ç«ĭ æĸ¹
å¸ĥ èİ±
æĤ£ èĢħ
æĹ¥ æ²»
æĳ §
å· ¢
ç¡®è¯Ĭ çĹħä¾ĭ
i an
å·² æľī
åħį è´¹
åİŁä½ı æ°ĳ
ç¨ »
é±¼ ç±»
äºļåİĨå±± å¤§
ä»ĸ ä¹Ł
æİ¨ å¹¿
æı´ åĬ©
E D
ä¸Ģ åľº
è¿ĳ å¹´
åĨľ æĿĳ
äº² çİĭ
çļĦ è®¾è®¡
è¥¿ åħ°
åº¦ çļĦ
ç»´ åŁĥ
èĢĥ åı¤
åī¯ ä¸»ä»»
äº§çĶŁ çļĦ
Ġ å½ĵ
æľī æľº
å¼ł ä¸ĵè¾ĳ
åľ¨ ä¸Ń
åĿ Ŀ
ç¥ ł
çĻ Į
ç«ŀ éĢī
198 0å¹´
åī¯ ä¸»å¸Ń
æĺ¾ èĳĹ
çĶŁ æĪĲ
çĶ± æŃ¤
åı¸ é©¬
6 3
ç» ³
æīĢ è°ĵ
çĲ ¼
å¿ į
å¹³ åİŁ
å¤© çļĩ
æĶ¹ åĲįä¸º
åħ¬åħĥ åīį
ä¾Ŀ çĦ¶
åĸľ åī§
æł ĭ
è£ħ é¥°
æĺŃ åĴĮ
çĲĨ è§£
åıĳåĬ¨ æľº
ç§° ä½ľ
è½¬ æį¢
é¾Ļ æ±Ł
17 9
åį± éĻ©
1 20
æĺ¯ å¾·åĽ½
ç»Ī äºİ
åľ Ń
ä¸Ģ è¯į
å±± åĮº
éĤ£ ä¹Ī
Ġ 2025å¹´
æ¸¸ è¡Į
A l
çļĦ æĪĲåĳĺ
éĿł è¿ĳ
8 7
å¿ Ļ
ç©º ä¸Ń
é¹ ¤
å®Į å·¥
è´§ å¸ģ
ä¿® å¤į
éļĶ ç¦»
åĩ Ŀ
åľ° å¸¦
ä¸Ī å¤«
æł¡ åĽŃ
ç¡® ä¿Ŀ
ä½ĵèĤ² åľº
2001å¹´ äººåı£
è¿Ľ æŃ¥
èĥ½ æºĲ
éĩĩ è®¿
æīĢæľī çļĦ
è¿Ĳ çĶ¨
äºĶ æľĪ
æīĵ ç®Ĺ
æ½ľ èīĩ
çĿ ¡
å¢ŀ å¼º
æľ¬ çīĩ
å¾· åįİ
çŁ Ľ
èĴ ¸
198 3å¹´
æ°´ åºĵ
18 4
W indow
æ¯ĶåĪ© æĹ¶
ä¼ļ åĳĺ
åį¡ ç½Ĺ
çłģ å¤´
ä¹ī å¤§åĪ©
é² ¤
æĴ° åĨĻ
èĢĮ ä¸įæĺ¯
å¯¹ æĸ¹
èĻ ¹
å¾Ĺ åĲį
éĢļ ä¿¡
æĭ¿ ä¸ĭ
E R
æł ½
æĸ¯ æĭīå¤«
æī§ æĶ¿
éĢĤ åĲĪ
æĭĨ éĻ¤
å§ Ĭ
æ³ķ çļĦ
æĸ¯ æīĺ
ä¹Ł å°±æĺ¯
èĴĻ çī¹
å»ºç«ĭ äºĨ
è©¹ å§Ĩæĸ¯
åĲ ģ
æ´¾ åĩº
Ġ ç¾İåĽ½
èµĦ æľ¬
çŁ³ æ²¹
å±±ä¸ľ çľģ
å¤§ ä¼Ĺ
èĢ Ĳ
æ³¢ ç½Ĺ
åĨħ æĪĺ
åĪĻ ä¸º
ä¹¦ ç±į
åĬŀ çĲĨ
198 7å¹´
æĮĩ ç¤º
I S
åĽ´ ç»ķ
çķĻ åľ¨
åī Ĭ
å¸Ĥ ä¸Ńå¿ĥ
ç¿ Ķ
7 2
å¼ı çļĦ
ä½Ľ ç½Ĺ
è´µ å·ŀ
I C
Ġ æĸ°
è®¤ è¯Ĩ
å»ºçŃĳ çī©
åį¢çĵ¦ å°Ķçľģ
æ³ ¡
æĪĲ å¹´
æ³ķ åºŃ
å¤© çĦ¶
åİĺ ç±³
åĩº åħ¥åı£
r ic
æĺ¯ä¸Ģ åº§
èĸ Ľ
6 1
ä¸Ģ æŀļ
æİĪ æĿĥ
åľĨ å½¢
æĶ¹ åĪ¶
ç®¡çĲĨ å±Ģ
Ġ ç¬¬
Ġ åħ¶ä»ĸ
äº ¥
å°Ĩ åľ¨
é¦ĸ çĽ¸
or t
åł Ĩ
è¾¹ å¢ĥ
æĿĢ å®³
ç»¿ èī²
èĩª æĿĢ
éĶĢ éĩı
å¸¸è§ģ çļĦ
A P
æĶ¶ éĽĨ
ãĥ »
èĢĮæ°´åŁŁéĿ¢ç§¯ä¸º 0
Ã Ĺ
éĹ ¸
æĦı åĳ³
çĽ Ĩ
æĺİ æĺŁ
åĲĦ èĩª
åĲĦ ç±»
è¾½ å®ģ
ä»¥ åįĹ
åĪĨ æĶ¯
æĢģ åº¦
æľĢ ä½İ
16 0
8 9
å¤§ éĢī
è®° å¿Ĩ
åı¯ä»¥ åľ¨
ä¸ŃåĽ½ çļĦ
åĿļ æĮģ
en s
åĲī æŀĹ
åĪĨ è£Ĥ
åĲĮ æĢ§
æł¼ æĭī
çĬ¹å¤ª äºº
éķ¿ å®ĺ
å¤« åį¡
6 äºº
æĸ ĭ
èŃ¦ åĳĬ
ä»Ĭ æĹ¥
è¾¾ å°Ķ
ä¸ĭè¾ĸ çļĦä¸Ģä¸ª
h er
æĬ ĵ
æ± Ŀ
èģĶåĲĪ ä¼ļ
åĽ½æ°ĳ æĶ¿åºľ
1 ä¾ĭ
èĥ º
å®¶ ä¸Ń
å¹³ æ°ĳ
æŁ´ æ²¹
æĹ¨ åľ¨
èĪ Ł
ç§ĳ åŃ¦å®¶
è¿ŀ ä»»
çİĩ ä¸º
æµĻæ±Ł çľģ
çļĦ åĲİ
å¼Ł å¼Ł
å¹¶ è¢«
å¿ħ è¦ģ
åĪĨåĪ« æĺ¯
ä¸ ŀ
çŃī çº§
æł ª
çļĦ äºĭ
å± Ī
Ġ 9
ä»¥ ä¸º
å¥¹ ä»¬
æĶ¯ æµģ
Ġ é¦Ļæ¸¯
åī§ éĽĨ
æĹħ è¡Į
âĢ Ļ
åħĭ æŀĹ
è¿Ļ é¦ĸ
äº² èĩª
æ¯Ľ æ³½
ç¤ ģ
èİ± èĮµ
198 2å¹´
æ»¨ æµ·
æĺ¯ é¦Ļæ¸¯
æĬ ±
äº¤ æį¢
æĭ ¨
é»Ħ èī²
éĴ »
è§Ħ èĮĥ
æĸ¯ æ´Ľ
å´ ©
Ġ ä»ĸ
æĪĲç«ĭ çļĦ
Ġ æĪªèĩ³
å¹ ½
æ¶Ī å¤±
å® °
é»ĳ é¾Ļæ±Ł
çł Ĥ
å°¤åħ¶ æĺ¯
èĪª å¤©
åįł åľ°
ä¸º æŃ¤
ä¸Ĭ å¸Ĥ
å·¥ç¨ĭ å¸Ī
è¿Ŀ åıį
i o
åĳ¼ åĲģ
æĳ§ æ¯ģ
8 00
çº§ åĪ«
ĠI n
æĦŁæŁĵ èĢħ
19 20å¹´
æĦı å¤ĸ
ç§į æ¤į
â Ķ
çĭ ¼
æĶ¶ èĹı
çŃ¾ çº¦
è¿ ¦
åľ¨ 197
å¤ļ å°Ķ
æ¬§ çĽŁ
åı¸ä»¤ éĥ¨
Ġ åī§æĥħ
æºĲ äºİ
éķ¿ åŃĲ
5 äºº
åįĩ ä¸º
æĺ¯ä¸Ģ éĥ¨
Ġ200 7å¹´
m an
æ ª
åŃ¦ çļĦ
èĭ± åĨĽ
åį¡ æĭī
åĲī å°Ķ
å°¼ è¥¿äºļ
éĻ ª
è½¦ åİ¢
è¯¥ æĿĳ
æł¡ åĮº
æ³¢ å°Ķ
n e
å¾· æĭī
å© ´
ä»¥ åĮĹ
æ¸¯ åı£
å¾Ī å¤§
æ¦ Ħ
ä»» æľŁ
å¦ Ļ
å®ī å¨ľ
195 0å¹´
æ¯Ľæ³½ ä¸ľ
åħ¶ å®ŀ
æŃĮ è¯į
è¿Ļ éĩĮ
èĦ ¸
å¾ª çİ¯
åį ¸
å°Ħ åĩ»
å¯¹ åħ¶
å¾Ĺ åĪ°äºĨ
ç§ĺä¹¦ éķ¿
Ġ æŃ¤å¤ĸ
æĬ «
åı¤ åħ¸
èµ° åĲĳ
çī¹ éĩĮ
äºļ åĨĽ
æİ¥ æĽ¿
æ¼Ķ å¥ı
èĳ£äºĭ éķ¿
I D
J R
çļĦ åĦ¿åŃĲ
ä¼ ½
é©¬ æĸ¯
æĢ§ èĥ½
200 0
åľº æīĢ
çĭ Ń
ï¼ ħ
é¡º åĪ©
b er
å¤§ å°ı
åĴ ĸ
å®¡ æŁ¥
åĮº è®®ä¼ļ
éĺ² æŃ¢
çĶŁæ´» ä¹łæĢ§
ç¦ ħ
é¦ĸ åºľ
in e
å¼º åº¦
åĽ ļ
é¦ĸ ä½į
ä¸»ä¹ī èĢħ
å¯ ®
æĪĲ éķ¿
è¢ ĭ
èĢĮ ä¸į
å·ŀ åĪºåı²
ç¥ŀ è¯Ŀ
å« ģ
å¤§ åį«
ç«ĭ åľº
7 4
äºĮ æĪĺ
ä» ķ
éĥ¨ çĶµå½±
ç´¯ è®¡
âĶ Ģ
æĭ ±
å¸Ĥ æĶ¿åºľ
çī¹ æĭī
éĢĶ ä¸Ń
è·Ł éļı
å® Ľ
éĽ į
å¾Ĺ ä¸»
é¢Ĩ äºĭ
åķĨ åĵģ
çļĦ éĥ¨åĪĨ
åįģ ä¹Ŀ
åŁ¹ è®Ń
æıĲ åıĬ
A N
æķ° ä½į
ä¸¤ èĢħ
(, ;
ç¼© åĨĻ
çļĦ éŁ³ä¹Ĳ
çĤ ī
åıĹ æ¬¢è¿İ
åĲĦ åĽ½
æł¹ å»·
ä¸» åľº
ä½Ĩ ä»ĸ
é¦ĸ æĴŃ
O N
çļĦ å¥³
çļĦ ç¬¬äºĮ
é¦ĸ å¸Ń
å¸ĥ éĩĮ
æ±Łèĭı çľģ
æĪĲ äºº
èĤ Į
åģľ éĿł
7 äºº
åĲ ¹
å°¼ å°Ķ
ä½¿ åħ¶
ä¸º åħ¶
çĤ¹ çļĦ
éĿ¢ ä¸´
éĻ· åħ¥
éķ¿ æ±Ł
çĶŁæ´»ä¹łæĢ§ ä¸įæĺİ
è¾ Ł
å¾· è¯Ń
é¼ İ
å¾· åĨĽ
è¾ ¨
éŁ µ
åĩºçīĪ ç¤¾
èĢ ķ
æľĪ çĲĥ
å°Ĩ é¢Ĩ
ç¦» åŃĲ
æ´¾ çļĦ
ä¸Ĭ åįĩ
æ£ ĺ
ç½Ĺé©¬ å°¼äºļ
æĥ ¨
èµ« å°Ķ
1 Ġ
åŁ ĭ
éķ¿ è¾¾
è¢« æįķ
èĭ ¯
ä»ħ æľī
çĶĺ èĤĥ
çļĦ è§Ĵèī²
çĶ «
åľº æĻ¯
ç °
çļĦä¸Ģ äºĽ
c e
å·´ å°Ķ
æī¿ è¯º
ä¼¼ ä¹İ
çĤ¸ å¼¹
éģ ¥
)ãĢģ ãĢĬ
éĽ ¾
å¤© ä½ĵ
åħļ åĳĺ
çłĶ åıĳ
éĽ· æĸ¯
åĲĦ ä¸ª
" .
Ġ èĻ½çĦ¶
é¢Ĩ åľ°
æ¯ı æĹ¥
æĿ¡ ä¾ĭ
æĺ¯ ä¹Įåħĭåħ°
åħ¬ æĸ¤
åīį åĲİ
éĥ½ åľ¨
ä¸Ģ åĪĩ
ä¸Ģ å°ıæĹ¶
å¸ Ĳ
æķ° çļĦ
èĢĥ è¯ķ
å¤ĸäº¤ éĥ¨
éħį å¤ĩ
è¾¹ ç¼ĺ
åĬłåĪ© ç¦ı
2 Ġ
éģĵ å¾·
è¹ Ī
éħ ·
çĪ± æĥħ
ä¼ļè®® åĳĺ
ä¸¤ ä¾§
æ¡ Ĩ
å¸¸ åĬ¡
æĶ¯ ä»ĺ
äººæ°ĳ å¸ģ
èı Ĭ
ar k
æ²¿ éĿ©
æĬµ æĬĹ
å¹¶ çĶ±
æĸĩ æĺİ
ç§¯ åĪĨ
åĩºçİ° äºĨ
Ġ èĥĮæĻ¯
åľ¨ åı°æ¹¾
æľ¬ äºº
åįģ æľĪ
åĮħ åĽ´
çĽĳ å¯Ł
åħ¬å¼Ģ èµĽ
1 åı·
å¤ ¹
åľ° è´¨
æĪĲ äºĨ
å¤ļ äºº
åı¦ä¸Ģ æĸ¹éĿ¢
çļĦ å¹³åĿĩ
è¥¿ ä¾§
å¹³ è¡¡
ç¦ı å·ŀ
äºİ19 2
æĢĢ çĸĳ
ä¸ŃåĽ½å¤§éĻĨ çļĦ
åĮº åĨħ
äºī åıĸ
è¾ŀ èģĮ
çĶŁ åŃĺ
å¼Ģ å¹ķ
è¨Ģ è®º
æ¸¸æĪı çļĦ
Ġ n
çļĦ ä½įç½®
èĥ Ĩ
r y
åľ¨ èĭ±åĽ½
åı¯ è§ģ
åĿ Ĥ
èĤ ł
ä¼¯ çĪµ
ou r
è ¤
Ġ ä¸ŃåĽ½
å¼ı æľĪåı°
æĮģ æľī
å·¡ æ´ĭ
åŃ ķ
æīĭ æľ¯
åºĨ ç¥Ŀ
çĲī çĲĥ
l y
è®¾ äºİ
å·¥ä½ľ å®¤
æī £
åĲ« æľī
æ±¡ æŁĵ
åıĳ æĮ¥
æīĢ éĩĩçĶ¨
èĭ± éĩĮ
å¥ ĭ
éĺ¿ æł¹å»·
åĪĻ åľ¨
æĬ¥ çº¸
æ² ª
æ£Ģ å¯Ł
è ¤Ĳ
æī ģ
åıĳ è¨Ģ
éĺ¿ éĩĮ
çŃĸ çķ¥
åĤ ¬
é¼ĵ åĬ±
åľ° åĲį
17 8
èĥľ åĩº
çŁŃ æļĤ
Ġ 12
éļ ĭ
çı Ģ
åħ¶ä¸Ń ä¸Ģ
çº¿ ä¸Ĭ
è¶³ å¤Ł
é¢ĳ çİĩ
é¡ ·
æıĲ è®®
æİ¨ èįĲ
çĪ± å¾·åįİ
èīºæľ¯ å®¶
åĲ §
ç«Ļ çļĦ
ic e
æ®ĸæ°ĳ åľ°
Ġ æį®
è¥ Ħ
è° Ń
åıĺ ä¸º
é¢ģ åıĳ
åĩĮ æĻ¨
è¯ ±
ç¬¦ åı·
éĹ ²
åĩº åĶ®
ä¸ľ ä¾§
è¾¾ å·ŀ
å¤§ èģĶçĽŁ
åįķ çĭ¬
çĻ» åľº
èĵĿ èī²
æĮ ĸ
åħ¶ä¸Ń çĶ·æĢ§
Ġ åľ°æĸ¹
çº ¤
æĪĲ å°±
ä¸ī æľĪ
éĢı éľ²
åĩ ī
åľº åľ°
ä»ĸä»¬ åľ¨
åĶĲ æľĿ
æĪĺ å£«
æµ· å¹³éĿ¢
Ġ æľī
ä½įäºİ ä¸ŃåĽ½
ä¿Ħ åĽ½
éĻĦ å±ŀ
éĢĤ åºĶ
å¢ĥåĨħ åħ±æľī
äºļ çĽ®
è½¦ éĺŁ
åĻ¨ çļĦ
åĨĻ ä½ľ
èµŀ åĬ©
çĽ´ å¾Ħ
å¼Ĺ éĩĮ
åľ¨ 196
è¿½ æº¯
é¢ģ å¥ĸ
åĩŃ åĢŁ
å°Ķ å¤«
éĿĴ å²Ľ
è¥¿ æİ¥
é¢ Ī
åĪ¶ çīĩ
æīĢ å¤ĦçļĦ
æł¼ ä¸º
åı² å¯Ĩ
195 8å¹´
æĽ¿ ä»£
èģĶ ç»ľ
æ²³ çļĦ
èº« åĪĨ
çĵ¦ å°Ķ
èĸ ª
A n
äººåı£ ä¸º
é¹ ħ
äºİ201 6å¹´
æ° ¨
åħ¬ äº¤
ç¬¬ ä¹Ŀ
æŃ£ éĿ¢
åĽĽ æľĪ
åĢ¾ åĲĳ
9 2
9 3
åĲ ŀ
æĿĳ èĲ½
8 6
f f
çļĦ å½¢å¼ı
åľ¨ ä¸Ģ
ä¸¤ ä½į
æĻ® é²ģ
èħ Ķ
æ£ ķ
æľª æľī
ä¸Ńåįİäººæ°ĳåħ±åĴĮåĽ½ æĶ¿æ²»äººçī©
çļĦ æĸ¹æ³ķ
æĹł çĹĩçĬ¶
éĽĨ åĲĪ
194 8å¹´
åįļå£« åŃ¦ä½į
æĽ °
æ±ī æĹı
æ²³åįĹ çľģ
çļĦ æĢ»
æ¸¸ åĩ»
è¶³ åįı
å®£ ç§°
æĸ ¥
å¥ ¶
å½ĵ æĹ¥
æŃ£ ç¡®
" ),
åľ¨ ä»ĸ
åĬ ²
å¿ ĺ
ç§ĳ å°Ķ
å·¡æ´ĭ èĪ°
é«ĺ è¾¾
å¤© åĲİ
é¢Ħ ç®Ĺ
åĲ¸ æĶ¶
åľ¨ æĸ°
éķ¿ æ²Ļ
æī© å¼ł
ç«ŀ èµĽ
Ġ200 6å¹´
å½ĵéĢī ä¸º
åĨ ķ
åĽ½ åĨĽ
7 3
o h
åı¤ èĢģ
éº Ł
000 äºº
æĺ¯ åĽłä¸º
æµ·æĭĶ ä¸º
ç§ĳçļĦ åħ¶ä¸Ńä¸Ģç§į
åĽ Ĭ
æĹ¶ åĢĻ
æ³ķ è¯Ń
è¶³çĲĥ éĺŁ
Ġ 0
æĸĩ èīº
åī§ åľº
æ¯ı å¤©
åŁ¹ åħ»
çĲ ª
åħ¬ åĳĬ
è¥¿ éĩĮ
æĪĳ çļĦ
Ġ åľ£
åĲ »
èĪŀ è¹Ī
éĴ ĵ
å·² çŁ¥
åĨ³ è®®
å¹² éĥ¨
èľ ľ
æľº çļĦ
æ°Ķ åİĭ
ç¢ §
æģ© çľģ
éĿŀ æ³ķ
è± «
ç¢ ±
éŃ ģ
ä¸¥ æł¼
éģŃ éģĩ
æķĪ åºĶ
å® ´
èĪ¹ åıª
äºĴ çĽ¸
è¿Ļ é¡¹
å®ī ä¸ľ
çĶµ æ°Ķ
æĹł è®º
åĪ¶ä½ľ çļĦ
äº« å¹´
è¶³çĲĥ è¿ĲåĬ¨åĳĺ
éĢĲ æŃ¥
é¸Ł ç±»
åī ª
åĪĽ å§ĭ
s s
æİ ł
åĲĪ æ³ķ
æ¼ ı
å¸Ĥ æĶ¿
åĲĮ æĹ¥
ç¾İåĽ½ çļĦ
è¶ħ è¶Ĭ
è®¾è®¡ çļĦ
åĪĨ åĮº
å§ ľ
è§Ĩ è§ī
å¤§ å¸Ī
èĢģ å¸Ī
è¶³çĲĥ ä¿±ä¹Ĳéĥ¨
åģ¶ åĥı
å§ĭå»º äºİ
Ġ ä¸Ń
ç© ·
å¤ĸ éĥ¨
æĪĲ éĥ½
åĬł éĢŁ
å½¢ çĬ¶
åıĳçĶŁ åľ¨
å®¡ åĪ¤
å½ķ å½±
åıĮ æīĵ
å¤§ éĺª
åĽł åħ¶
æ£ ī
æļ ¨
é¢Ħ æµĭ
æıı ç»ĺ
æł½ åŁ¹
æĿ¥ è¶Ĭ
çĽ´ éļ¶
un d
åĴ ¨
äºİ201 5å¹´
s h
194 6å¹´
çº¦ æľī
ä»İ æŃ¤
ç¾¤ ä½ĵ
ä¸»ä¹ī çļĦ
æıĲåĩº äºĨ
æķĳ æı´
åħħ æ»¡
åĵĪå°Ķ æ»¨
a i
åĪ ł
æĹ¶ åĮº
éĶ Ĳ
202 6å¹´
æ¸¸ å®¢
åĪĽ æĸ°
æļ ĸ
èĭı ä¸¹
ä»ĸæĽ¾ ä»£è¡¨
Ġ æĺ¯
è· µ
ä¸ī äºº
æİ¥ ä»»
æº ĥ
æĵ ħ
åģĩ è®¾
å¤ıä»¤ æĹ¶éĹ´
çļĦ ç¾İåĽ½
çĲĨ å·¥
æģ Ń
éĤ ª
å¯» æ±Ĥ
éĥ¨ ç½²
æĶ¶ åĪ°
æ¨¡ æĭŁ
è¶Ĭ æĿ¥è¶Ĭ
æĸĹ äºī
æĸ ©
æ¯ ħ
æļĤ åģľ
ç¦ıå»º çľģ
it h
å½± åĥı
èĮ ħ
åĽĽå·Ŀ çľģ
âĢĿ )
èģĶ ç½ĳ
åĬłåħ¥ äºĨ
ç§° åĳ¼
198 1å¹´
éĺ¿å°Ķ åįĳ
Ġ ä¸ĭ
å¸ ½
æĺ¯ ä¸º
çĲĨ æĥ³
éħį ç½®
è¿ģ èĩ³
å¼Ģå§ĭ åľ¨
çļĦ åĲįåŃĹ
ç¨ Ģ
è§Ĵ åº¦
åĽ½éĻħ æľºåľº
197 9å¹´
ç§ ©
æĹı ç¾¤
åĽ¾ åĥı
ub e
ä»¥ ä¾¿
18 3
è¾ĵ åĩº
æīĢåľ¨ åľ°
8 2
çļĦ åİŁåĽł
è¡Į ä¸ļ
å·¥ èīº
æīĭ æ®µ
èª ĵ
æļĤ æĹ¶
åĩ ¶
å» ĸ
å±ł æĿĢ
ä¸ľ æµ·
çĽ´ æĴŃ
æĺŁ çŃīä¸º
ä¼Ĭ åĪ©
ä¾Ŀ èµĸ
äºİ201 4å¹´
èģļ éĽĨ
åĲİ è¢«
åģľ è½¦
æĹłçĹĩçĬ¶ æĦŁæŁĵèĢħ
éĺ¿å°Ķåįĳ æĸ¯
å¸¸ å§Ķ
ä½İ äºİ
æĢ ķ
äºİ19 0
ç»Ħç»ĩ çļĦ
I P
ç¼ ´
ä¸¾åĬŀ çļĦ
ç¹ģ æ®ĸ
è·¯æĺĵ æĸ¯
èĤº çĤİ
åľ¨ ä¸Ģèµ·
on t
ä¼ļ æľī
æĸ¯ åį¡
åĪ¶ä½ľ äºº
éĹ» åĲį
ç« Ł
æķĻ å®Ĺ
äºĮ æľĪ
èĤ ¤
åħ±åĴĮ åħļ
å¸ ĸ
ç½Ĺ ä¼¯çī¹
ä¸Ń æľĢ
åľ¨ åĮĹäº¬
åĲĮæĹ¶ è¯¥åľ°
9 6
ãĢĭ ãĢĬ
ä¾ £
å·¨ å¤§
åĪ¶ æĪĲ
çļĦ è¯Ŀ
åħĭ å°Ķ
ç»´ å¤ļ
èĲ½ æĪĲ
éŀ ĭ
äºİ201 2å¹´
5 ä¸ª
5 ç±³
åŃ¦ ç§ĳ
å®¤ åĨħ
åĨħéĻĨ çľģä»½
æ¼ ł
çº¢ åĨĽ
äºİ201 8å¹´
ä¿Ŀ éĻ©
èĴ ²
çĶ° å¾Ħ
çļĦ æĥħ
æľª çŁ¥
å¯Ĩ åĪĩ
è´¹ çĶ¨
å° ¿
è®¤ åı¯
æ¶Ī éĺ²
Ġ ä¸º
å¤© åłĤ
éĺ² ç©º
è¾ħ åĬ©
v er
è½ ©
ä¸» äºĭ
èĭ± åĳİ
äº¤ ç»Ļ
äºĶ ä¸ª
çłĶç©¶ éĻ¢
è§Ĥ çľĭ
197 8å¹´
éĤ ±
æīĵ çł´
æ¡¥ æ¢ģ
| |
çļĦ æĹ¥
ä¸Ģ èģĮ
ç½Ĺ å¾·
ç¨ £
è®¤ è¯ģ
èĩª æĪĳ
è·¯ æ®µ
çĭ¬ç«ĭ çļĦ
æľĢé«ĺ çļĦ
åĨĴ éĻ©
éĥ¨ éĥ¨éķ¿
çĲĨ çĶ±
å§Ķ æīĺ
åķĨ åºĹ
çĶ» å®¶
å« ©
ä¼ļ è¯ķ
çī¹ åĮº
äºİ201 7å¹´
æ£Ĵ çĲĥ
âĢ ĺ
æĪĺ éĺŁ
èĢ¶ ç¨£
å¡ŀå°Ķ ç»´äºļ
å¥ ł
8 äºº
c om
äºº æĿĥ
å·´ æĭī
éĩı åŃĲ
åī¯ ä¹¦è®°
èģļ èĲ½
å¤© æ°Ķ
èµĦ åĬ©
èĬĤ åº¦
ç¬¬ 4
æ¼Ķ åĮĸ
æĶ¹ è¿Ľ
å¼Ĺ éĽ·
Ġ ç®Ģä»ĭ
ä»¥ ä¸ĬçļĦ
æĶ¹ ç§°
è¯Ħ ä¸º
é£Ł çĶ¨
æĴ¤ éĢĢ
å¤©æĸĩ åı°
æľ¬ ä½ľ
åĬł åĵ¥
æī© å»º
å½± è§Ĩ
æł Ĺ
åħ¶ä¸Ń ä¸Ģä¸ª
çļĨ ä¸º
çĽ¸åĲĮ çļĦ
èĬĿ åĬłåĵ¥
ç© ´
éĢļ çŁ¥
åİŁ åħĪ
é©¬ ä¸ģ
çĤ ¼
åº§ æłĩä¸º
æ´Ľ åħĭ
çĻ¾ ä¸ĩ
åıĳè¡Į çļĦ
è´§ è¿Ĳ
è½°çĤ¸ æľº
ĠæĽ¾ ç¥ĸ
A S
ä»¥ æŃ¤
ä¸į æķĮ
ä½įäºİ è¯¥
Ġåľ°æĸ¹ èµĦæĸĻ
äººæ°ĳ ä»£è¡¨å¤§ä¼ļ
æ¤ İ
äºİ201 3å¹´
å¤§ å¤«
èĭ ¹
å±ķ çİ°
çļĦ æĿĳåºĦ
çº³ åħ¥
è®¸ åı¯
ç» ¥
çľ ł
çī¹ æľĹ
æĸ¹éĿ¢ çļĦ
è´§ çī©
çİĭ åŃĲ
åıª è¦ģ
é¸ Ń
ä¸º æĸ°
æĹ¶ æĬ¥
ä¸ĭ ä¸Ģ
è¿Ļ åº§
ä¼Ĺ è®®éĻ¢
èħ ¿
æ¶µ çĽĸ
Ġ äº¤éĢļ
æĪĺæĸĹ æľº
æł¼ å°Ķ
éľ ŀ
çº¦ çĳŁ
åį³ å°Ĩ
ç¬¬ä¸Ģ ä½į
åħ« æľĪ
æĥ³ è¦ģ
äºİ 2019å¹´
æŃ» åĪĳ
è´¢ äº§
éª ļ
å· ·
æľī è®¸å¤ļ
ä¸į è¦ģ
ä¸ĥ æľĪ
åģļ åĩº
åıĽ ä¹±
c n
ä¸Ĭ éĺµ
æľ¬ çº¿
åĨħ èĴĻåı¤
ç«ŀ æĬĢ
u g
ç§° åı·
äºĶ åįģ
194 1å¹´
ä¸ ¸
äºİ 2020å¹´
æĸ¹ ä¾¿
å¨ ħ
èħ º
è½¯ ä½ĵ
å¤ļ åĲį
æľį è£ħ
éģŃ åıĹ
9 7
è¿Ľ åħļ
ä¹¦ ä¸Ń
åįķ åħĥ
èħ ĵ
åĮº éĹ´
, ),
çļĦ æĶ¿æ²»
æ¶ Ľ
æŁ¥ çĲĨ
åĲĮæĹ¶ ä¹Ł
å·¦ ç¿¼
å¤§ä½¿ é¦Ĩ
éĩį éĩı
åĽŀ å¿Ĩ
æĭī çī¹
èį ¡
oc k
ä¸ľ äºļ
è° Ĭ
éĩĳ å±±
è£ģ åĪ¤
åĮº åĪĨ
èµ· åĪĿ
å¨ ¶
çĽ´ åįĩ
ç¤¾ ç¾¤
è¿Ľè¡Į çļĦ
åĮĹæµ· éģĵ
9 äºº
è°ĥ å¿«
194 4å¹´
æ²³ è°·
åĨĻ éģĵ
æ¶ī å«Į
ä¹ĭ ä¸º
èĲ¥ ä¸ļ
åį« éĺŁ
é±¼ éĽ·
åĪĨå¸ĥ åľ¨
Ġ åħ¶
è® ¼
è¯¥ çīĩ
éĺ³ å¸Ĥ
æķĮ äºº
æŃ¤ ç«Ļ
ç©º è¢Ń
åįı å®ļ
16 2
ä¸º UTC
ä¼łç»Ł çļĦ
è¾Ĳ å°Ħ
æĺ¯ åı°æ¹¾
ä»¥ ä¸ľ
çī¹ å°Ķ
éĵ ĥ
åł ¤
å¾ģ æľį
èŀį åĲĪ
æ³ķ ä»¤
ä½Ĩ åĽł
æł¼ éĽ·
éĿĴ å°ĳå¹´
åĺī ä¹ī
æ¯ Ĺ
æĬ Ħ
æİ ©
åıĤ æķ°
è¿ŀ è½½
åĻ ¶
åıĤ è®®éĻ¢
æ¯ı åĳ¨
æĪĺ æľ¯
çļĦ ä¸į
è½¬ çļĦ
c eĠ
ç§į ç±»
éĩį è§Ĩ
) :
è¥¿ æĸ¯
é¢Ĩ åħĪ
ç»Ī çĤ¹
ç£ ·
è§ī å¾Ĺ
åı¯ åľ¨
Ġ200 5å¹´
æ³ķåħ° åħĭ
èĪ Į
å¦Ĥ ä»Ĭ
æħ °
è°ĥå¿« ä¸Ģå°ıæĹ¶
ç Ģ
ä¸Ģ ç³»åĪĹ
éĥ ģ
17 7
å§Ķåĳĺä¼ļ å§Ķåĳĺ
æ¿ Ĵ
ä¾į éĥİ
èĩ Ĥ
æĪĲ çĨŁ
å¸ĥ æľĹ
ç¤¾ äº¤
åį³ UTC
è®¾æľī å¤ıä»¤æĹ¶éĹ´
çļĦæĹ¶åĮºä¸º UTC
èĢĮè¯¥åľ° æīĢéĩĩçĶ¨
åĲĮæĹ¶è¯¥åľ° è®¾æľīå¤ıä»¤æĹ¶éĹ´
èĢĮè¯¥åľ°æīĢéĩĩçĶ¨ çļĦæĹ¶åĮºä¸ºUTC
æ¼Ķ è®²
åį¡ æĸ¯
è¿Ļ åľº
éķĩ åĮºçļĦ
äº¤ æ±ĩ
åįķ ä¸Ģ
ä½¿çĶ¨ äºĨ
æ»¡ æ´²
å»¶ ç»Ń
ä»£ çļĦ
éĢļ å¾Ģ
åŁİ çļĦ
çĥ ¯
çĪµ å£«
çļĦ æľĢ
å·¥ ä¼ļ
ä»İ æľª
åŀĭ åı·
8 4
è´ ·
æĦŁ è§ī
197 2å¹´
ç²ī ä¸Ŀ
é«ĺäºİ æµ·å¹³éĿ¢
M V
u re
æĢ» çĽĳ
æį· åħĭ
1 10
1 5å¹´
7 æľĪ1æĹ¥
æĮ ¡
è¯¥ åħ¬åı¸
ä½Ļ äºº
æİĴè¡Į æ¦ľ
ä¼ļ è¢«
åİ¿ çŁ¥åİ¿
çĽ¸å½ĵ äºİ
æīĢå¤ĦçļĦ æµ·æĭĶä¸º
æīĢå¤ĦçļĦæµ·æĭĶä¸º é«ĺäºİæµ·å¹³éĿ¢
ä¹ĭ å¤Ħ
éĥ½ è¢«
æŃ£ æľĪ
è¡¥ åħħ
a h
Ġ 190
åº ¶
æľī èĳĹ
çİ ²
åŃĲ å¥³
æķĻèĤ² éĥ¨
éª Ĺ
ä¼¤ äº¡
å®īå¾½ çľģ
å¸ Ĩ
ä¸» å¯¼
æĸ° åĨł
å¤§ éĿ©åĳ½
èģ ª
æĦ ¤
ä¿Ŀ è¯ģ
æĻ® ç½Ĺ
åıĤä¸İ äºĨ
æĹłäºº æľº
o x
å¼ ĵ
åľ° å½¢
çİ° åŃĺ
åķĨ äºº
I T
Ġ åı°æ¹¾
æ°¸ ä¹ħ
7 00
æĪĺ åľº
åĲĪ åĲĮ
æł¼ éĩĮ
é² ¸
æĹ© ä¸Ĭ
197 6å¹´
è¯¦ ç»Ĩ
ç»´å¤ļ åĪ©äºļ
èį Ĩ
äºİ201 0å¹´
èĦ± ç¦»
ç»ĺ çĶ»
æµ· ä¸Ĭ
åħ· å¤ĩ
å¾Ī å°ĳ
äºĴ åĬ¨
çİ°åľ¨ çļĦ
å·ŀ éķ¿
å°¼ åı¤
å²Ľ ä¸Ĭ
çĵ ¶
å¡Ķ å°Ķ
çĻ» è®°
195 6å¹´
8 1
éĿ¢ ä½ĵ
æ¡ Į
ä¼ł æķĻ
åį³ åĮĹç¾İ
æĮĩæĮ¥ å®ĺ
a w
æĺ¯ ä¿Ħç½Ĺæĸ¯
äºİ 2021å¹´
ç¥ ¯
è·¯ åı£
å²Ľ çļĦ
äº¬ éĥ½
è¯º å¤«
o y
æ¾ Ħ
æ© Ħ
éħ ®
èİ· èĥľ
åºı åĪĹ
èĤ¡ä»½ æľīéĻĲåħ¬åı¸
9 4
åľ° äºļ
åįģ ä¸ĥ
éĽĨ ä½ĵ
æ¸ ł
æ²³ éģĵ
æİ¢ éĻ©
éķĩåĮºçļĦ éĿ¢ç§¯ä¸º
äº ©
åį³ ä½į
. âĢľ
çļĦ æŃĮæĽ²
ä½ľ ä¸ļ
æĽ´ å¤ļçļĦ
æĸ½ å·¥
14 0
åº ĩ
ä»¥ è¥¿
åĲİ åľ¨
åĪĨ ä¹ĭä¸Ģ
æµģ ä¼ł
ç¿Į å¹´
çļĦ ç¥ŀ
äºĨ ä»ĸ
æĢ» è£ģ
éĢī åĩº
åĪĩ å°Ķ
èļ Ģ
ä¼Ĭæĸ¯åħ° æķĻ
çļĦ åıį
ä¼ ŀ
å§ ¿
èĩª ç§°
åĽĽ ä¸ĸ
è¾ĸ åĮº
193 7å¹´
æķĪåĬĽ äºİ
. (
å§ ĳ
å¤ļ æł·
å¾· æĦıå¿Ĺ
éĤ ĳ
å¤Ħ éķ¿
16 4
15 8
åįĹæŀģ æ´²
æ Ĩ
åĽ½ éģĵ
åħ¬ é¡·
çļĦ è¡Įä¸º
ä¸» åĬ¨
èĬ Ń
æ©Ħ æ¦Ħ
6 ä¸ª
ç» ĳ
è¡Į äºº
èĩ´ åĬĽ
çģŃ ç»Ŀ
ä½Ľç½Ĺ éĩĮ
ç»´ åŁº
æĿŃ å·ŀ
M A
Ġ æĹ¥æľ¬
çļĦ åŁºç¡Ģ
ä» Ĩ
åº ļ
æ³ Ħ
ä»ĸ ä¸º
åĨħ åľ°
æ» ķ
éŃĶ æ³ķ
G o
äºĮ çº§
æ¤ ħ
äºĴ èģĶç½ĳ
ä¹Ł æ²¡æľī
æĶ¹ å»º
å®¹ çº³
ä¸»æĮģ äºº
æľĢ ä¸º
ç»ı çĶ±
å·´ åĭĴ
195 2å¹´
ä¸ľåįĹ äºļ
i e
åľ¨ ä½į
æ±ī åŃĹ
k m
ç¥ Ī
éĢļ çĶ¨
çĽ¸ åıį
çıŃ æ¬¡
çĪ ·
å°ĳ å°Ĩ
åĩº åľº
æĶ¿ åıĺ
æ°Ķ ä½ĵ
193 8å¹´
çļĦ æīĢæľī
éĥ¨ å°ļä¹¦
è¢« åĳĬ
æ²¿ å²¸
ig n
ä¸İ æŃ¤
194 7å¹´
çĸ« èĭĹ
8 3
å±± è¥¿çľģ
åħŃ æľĪ
ç¾¤ ä¼Ĺ
i b
åŃ¦ ç³»
ç½ ©
åķĨ åľº
15 7
r am
Ġ çĶ±
çļĦ éĿ¢ç§¯
ä»¥ 1
åĬł å°Ķ
åį« è§Ĩ
æ¡£ æ¡Ī
çļĦ ç»ĵæŀľ
æ¼Ķ èīº
195 5å¹´
èĭ¹ æŀľ
o ok
p h
å¹¶ æĹł
æ¸¯ åħĥ
åķ ¡
Ġ v
åĬ £
æĺ¯ ä¸ª
æĭħ å¿ĥ
æĶ» åįł
çº§ èģĶèµĽ
æħ İ
Ġ ä¸ªäºº
ãĢĭ( "
éĢ ¸
å¸ĥ éĽ·
å®ŀ ä½ĵ
è¿ŀ ç»ĵ
äºİ201 1å¹´
s on
å±± åİ¿
æĥ §
æ¸ħ æ¥ļ
é¹ ı
æİ¢ ç´¢
éķĩ åİĭ
æĻ®é²ģ å£«
ð «
çļĦ çĶµ
éķ ĳ
éķ¿ çº¦
198 0å¹´ä»£
æł¸ éħ¸
æŀ¶ æŀĦ
è´ ª
çŁ ®
åįķ æīĵ
çĥ ·
å¼ķ çĶ¨
åĢ¼ å¾Ĺ
åĪ¤ åĨ³
æ°ĳ è¿Ľåħļ
16 3
èľ Ĥ
æĺ¯ä¸Ģä¸ª ä½įäºİ
p er
ç¬¬ 5
é³ ŀ
ä¸Ń å°Ĩ
çİ° ä¸º
H D
ç»´ åħĭ
æī ĳ
åĨĽ äºº
æľŁ çļĦ
å¥³ çİĭ
æ¨ ±
çļĦä¸Ģ æĿ¡
ç¦ı å¾·
è¡ĮæĶ¿ éĻ¢
æĪĲç«ĭ äºĨ
éĴ¢ çĲ´
ec tion
.. .
Ġ ä¸»è¦ģ
è´ ¼
åħ± è®¡
æĢ» ä¼ļ
æł¼ æŀĹ
æĶ¾ åľ¨
P S
äºİ 2022å¹´
åĲį äºº
å¹³ çŃī
åĪ© çļĦ
è° ´
çº³ å·ŀ
è¸ ı
å½» åºķ
åĮĹ ä¾§
å¤© çļĦ
å®ŀ è·µ
å»ºçŃĳ å¸Ī
æıĲåĩº çļĦ
åı²å¯Ĩ æĸ¯
c t
éĢ ¾
åİŁ ä¸º
æĺŁ ç³»
ä¿® éģĵ
ä¿Ħ åĨĽ
ä¹¡ éķĩ
196 8å¹´
i re
éĩį è¿Ķ
ä¿® è®¢
å±Ĥ çļĦ
2 åı·
ä¸ĭ äºĨ
å¤« å¦ĩ
ä¹Ŀ æľĪ
æ²³åĮĹ çľģ
u st
åĪĨ æł¡
æ±Ł æĪ·
å¸Į å°Ķ
åĬ³ å·¥
Ġ å¯¹
ä¸Ģ éĥ¨
ä¸» åĬĽ
åĵ ª
è¿ª å£«
çļĦ åŁİå¸Ĥ
åħ¶ ä¸º
çŃ Ĵ
æĸ° å»º
åĪĹ åĩº
æ¡ĥ åĽŃ
You T
Ġ è¥¿
Ġ é©¬
è¡Į èµ°
æµ· åįĹ
è¯¥ åħļ
ç»´ ä¿®
çª Ħ
èµ Ķ
åľ° ä¸Ń
åįĹ ä¾§
æł¼ é²ģ
193 9å¹´
e y
çĶ» éĿ¢
æķ´ åĲĪ
éĻ¨ çŁ³
å¤´ è¡Ķ
äº§çĶŁ äºĨ
äºĭå®ŀ ä¸Ĭ
Ġ çĽ®åīį
æķ ²
èĤ ¢
å¼ķ è¿Ľ
Ġ å®¶åºŃ
åıĹ å®³
å½ķ åĪ¶
å¥½ è¯Ħ
194 0å¹´
çº ł
æĬ Ľ
å½ĵ ä»£
èĹ »
ä¼¤ å®³
çĲĨ æŁ¥
å§Ķ ä»»
è¯ģ åĪ¸
è¿ªå£« å°¼
/ &
çļĦ æĹ¥æľ¬
ä¸Ĭ äºĨ
è¾ĥ ä½İ
ä»į åľ¨
A r
åĲ Ĭ
è° ¥
å¤© ä¸ĭ
196 0å¹´
195 4å¹´
ä¸Ģ é¡¹
åĨ Ģ
äºİ 2023å¹´
èµ· è¯ī
è®® å¸Ń
194 2å¹´
èĩªè¡Į è½¦
çļĦ è¯´æ³ķ
åĿ Ł
æŃ¤ åīį
ä¼Ĭ æĭīåħĭ
çĽŁ åĨĽ
åĩ ¸
åĮº åĪ«
ä¸» æĿĥ
éģ ®
ä½¿çĶ¨ èĢħ
çĻ¾ å¹´
åįł æį®
æĥ ©
å®ĺ èĩ³
o st
Ġ éĻ¤äºĨ
ãĢģ ãĢĬ
åľ¨ åĮĹ
å¤ļ é¡¹
ä»» æķĻ
å»º äºİ
åĶ¯ä¸Ģ çļĦ
g e
ä¹Ł æĽ¾
çĽ® çļĦæĺ¯
åĸ ĩ
åİĨåı² åŃ¦å®¶
åĲİ æĸ¹
æĴŀ åĩ»
7 1
å°ģ ä¸º
è¯Ĺ äºº
Ġ æĿİ
æŃ ī
è¯º æĽ¼
æĥ³ æ³ķ
æľĽ è¿ľ
Ġ åīį
Ġ çĦ¶èĢĮ
Ġ æķħäºĭ
æĪĺ åĪĹ
è®¤ åĲĮ
èĥĮ é³į
ç¬¬ä¸Ģæ¬¡ ä¸ĸçķĮå¤§æĪĺ
çĩĥ æĸĻ
i z
è¢« ä»»åĳ½ä¸º
æĹłçº¿ çĶµè§Ĩ
çĶ ľ
èµ £
åĪĻ æľī
æŃ¦ å¸Ŀ
194 3å¹´
Ġ èĢĮ
æľ µ
åĪ° çļĦ
æĶ» æīĵ
197 5å¹´
U n
å± ¥
æłĩ è®°
çĶ· å¥³
å®ĮæĪĲ äºĨ
æ¬¡ äºİ
æĥħ ç»ª
é£Ł æĢ§
197 0å¹´
æĲº å¸¦
æĹ¥ åĲİ
åħ¬ åĬ¡
é¢ ł
èĭı ç»´åŁĥ
S S
è®® é¢ĺ
æĤ ł
å¢ŀåĬł äºĨ
äºİ200 9å¹´
ç» µ
åŁİ å¢Ļ
äº¤ çķĮ
èĽĭçĻ½ è´¨
åİ ¥
ä¸Ĭ è¯ī
æĸ¯ åł¡
åĲĮ åĲį
äº¤ åıī
æ¨¡ çī¹
å¡ŀ çº³
è°´ è´£
åľ¨ æ³ķåĽ½
æ¸ Ĭ
éĻ¤ æŃ¤
åį° ç¬¬
ĠT he
æĦ¿ æĦı
èµĽ çļĦ
å®ļ æľŁ
èĬ Ļ
æ¢ ¨
è¿ĺ åľ¨
ç»ıæµİ åŃ¦
åħĪ è¿Ľ
15 6
15 9
æ¹ĸ æ³Ĭ
ä¸ĭè¾ĸ ä»¥ä¸ĭ
çŁĽ çĽ¾
åį §
çī© åĵģ
è¯¥ æł¡
çī¹æľĹ æĻ®
æĺ¯ ä¸Ńåįİäººæ°ĳåħ±åĴĮåĽ½
éĤ µ
éĵģè·¯ è½¦ç«Ļ
æĻº æħ§
å²© çŁ³
ç½Ĺ å¤«
åĽ¢ ç»ĵ
åºĶ å¯¹
éĺ³ åİ¿
è°ĭ æĿĢ
çļĦ ä¸ŃåĽ½
12æľĪ 31æĹ¥
ä¼Ļ ä¼´
çĽ´åįĩ æľº
å¼Ģ å·¥
åĿ ł
çĤ Ń
è¿ĳ ä»£
äºº æ¬¡
åī ¥
ä»£ æĽ¿
éģĵ åħī
æ²Ļ çĶ°
çĶŁéķ¿ äºİ
S p
Ġ ä½¿çĶ¨
æĶ¶ è´¹
ç«ĭæ³ķ ä¼ļ
e ar
i es
æľĢæĹ© çļĦ
æĶ¹åĪ¶ ä¸º
è¿ĩ çļĦ
éĥ½ çĿ£
æıĲ äº¤
å¸¸ å¸¸
æ¸ħ ä»£
ä»į æľī
éĢīä¸¾ ä¸Ń
å¦¹ å¦¹
æľĽè¿ľ éķľ
å¤§ éĺŁ
çº¿ æĢ§
a z
ä¸º 0
å¥ ¸
éĩĮ åħĭ
çĲĨ å¿µ
çķ ħ
æĽ´ æį¢
æĤ ¦
åıĳçĶŁ äºĨ
èı² åĪ©
å·¨ å¤§çļĦ
å¼Ģ åĬŀ
çº³ å¾·
ä¸ĵ çĶ¨
åĵĪ åĪ©
éļ¾ æ°ĳ
é¢ģ å¸ĥ
æŀ¢ çº½
éĢ» è¾ĳ
åį°ç¬¬ å®ī
æĮĩ æķ°
it y
çļĦ åľ°åĮº
ä¸ª ä½ĵ
æĶ¹ åĲį
æ´Ľ æĸ¯
éĻį éĽ¨
æĹ ±
æ±Ł åįĹ
ä¸Ģ äºº
ä¸» ç®¡
çľģ çļĦ
åĽĽ å¤§
æĹ¥æľ¬ çļĦ
ä¹ĭåĲİ çļĦ
æĶ¿ åĬ¡
å¯¹ éĺµ
æīĢ éľĢ
çĪ± åĽ½
S M
èµĽ ä¸Ń
åħ¨ ä½ĵ
è¯Ń éŁ³
èģĮ åĳĺ
å¼º åĪ¶
æ© ¡
i al
ä»¥ 2
V D
è¡Į é©¶
æİĴ åĪĹ
æµİ åįĹ
æĹ¶ä»£ çļĦ
(; ),
l u
èĤ ©
or d
ä¸º åŁºç¡Ģ
è½¬ ä¸º
åįı åķĨ
ä¹ł æĥ¯
å´ ĸ
196 4å¹´
åıĤè°ĭ éķ¿
å¯¹ ç§°
çİ° æľī
è° ģ
å¤ĸ è§Ĥ
éĢī ç§Ģ
è¿· ä½ł
ec t
m er
å° ĺ
æĹ¥ å¸¸
ä¸ī åĽ½
æĥ ľ
æł¼ åĭĴ
ä¹¦ åĨĻ
ç½Ĺé©¬ å¸ĿåĽ½
åĪĳ äºĭ
èĸ ĩ
ä¸įå¾Ĺ ä¸į
åĲĪ åĶ±
æĢ§ åĴĮ
æİ¥ èĳĹ
æł¹ æľ¬
å¤´ éĥ¨
å¥ĸ éĩĳ
åį° åĪ·
è¥¿çıŃçīĻ è¯Ń
åĴ¨ è¯¢
S h
ä¸Ń åıĳçİ°
æĺ¯ ä¸ºäºĨ
ç«ĭ éĻ¶
ä¸º ä¸ŃåĽ½
çī ²
æģ ¨
; /
äºĨ ä»ĸçļĦ
ãĢĮ ãĢį
èµĽ è½¦
æ¢ µ
è½¬ ä¼ļ
å¡Ķ å°¼
èĬĤåº¦ ä½¿
çļĦ åĨħå®¹
ä¸Ģ å¤©
ä½į çļĦ
å¯¹ è¯Ŀ
è° į
èħ °
ä¸¤ å²¸
çĪ ª
åĽ¾ æ¡Ī
ä¼Ĳ åĪ©äºļ
Ġ andĠ
è° Ĳ
åĩĨ ç¡®
åĨł çĬ¶
è®© ä»ĸ
1 30
åĲį è¯į
åĵ Ģ
èĩª æŃ¤
æŃ¤ äºĭ
é¦ĸ åº¦
é¢ĺ æĿĲ
ä½ı æĪ¿
çĽ Ī
çĶ¨ ä»¥
ç«Ļ æĪ¿
ç»¼ èīº
æĢ ¡
è§Ĥ åħī
çģ« è½¦
åľ¨ è¥¿
ä»ĸ è®¤ä¸º
é«ĺ åİŁ
å¼¹ èį¯
æĻº èĥ½
éķľ å¤´
ĠP ro
çĥŃå¸¦ é£İæļ´
åŃŁ åĬłæĭī
æ¹ĸåįĹ çľģ
éĵ İ
èĻ ı
æĪĲç«ĭ åĲİ
æİ¢ æµĭ
å½ķå½± å¸¦
èĩ Ģ
äºĨ è®¸å¤ļ
ä¸Ĭ å¸Ŀ
åĬ¨ è½¦
è° ¦
èī² å½©
äºİ200 8å¹´
é©¬åħĭ æĢĿ
çĽ¸ åºĶ
é¾Ļ çļĦ
Ġ 11
ç« £
ä½ĵ åĪ¶
ç»´ ä¹Ł
ç»§ ä»»
åıĭ å¥½
ç«ĭéĻ¶ å®Ľ
a la
æĪĲ æŀľ
2 50
ä½ĵ éªĮ
çĿ Ľ
çĻ¾ ç§ĳ
è¡į çĶŁ
å¼ Ħ
ç§ĳ ä¼ļè¯ķ
17 0
åĲĮæĹ¶ ä¹Łæĺ¯
åĨľ åľº
è¯Ĩ åĪ«
çºªå½ķ çīĩ
æĳĩ æ»ļ
ä¸Ģ æĶ¯
çĳ ľ
åįĩ æł¼ä¸º
ç¢ °
ic h
è´Łè´£ äºº
193 6å¹´
æİĮ æı¡
åĴĸ åķ¡
a u
Ġ st
åİŁ æĿ¥
æĽ¾ æĺ¯
æ· ĳ
æ±ī è¯Ń
éĿĴ æĺ¥
æŃ¥ æŀª
çŃ¹ å¤ĩ
Ġ å¤©
æ² ¼
ä¸» æīĵ
åīį è¿Ľ
èĤ Ŀ
çŁ¥ åºľ
åįĥ ç±³
æĻ¯ è§Ĥ
çº¦çĳŁ å¤«
ç¼ Ŀ
Ġ ç¬¬ä¸Ģ
æľ Ń
è¿Ļ ç±»
ç±³ åħ°
åĪ¤ å¤Ħ
èļ ģ
æ¹ĸåĮĹ çľģ
å¤ ¸
ç¼ĸåı· ä¸º
èĪ Ĩ
Ġæ¦Ĥ è¦ģ
çļĦ åľ£
åľ° äº§
è´ ¬
åħ¨ çº¿
çłĶç©¶ çĶŁ
åĲ¦ è®¤
c he
åľ¨ éĤ£éĩĮ
æĺ¯ ä¸į
åľ° ä¸Ĭ
åĬł åĪ©äºļ
é©±éĢĲ èĪ°
(,; )
ä¸» æµģ
çī¹ åħ°
åĨħ æĶ¿
è¯¥ å¸Ĥ
æİ¥ ç®¡
18 2
å®¹ éĩı
èĪª çıŃ
åįĬ å¹´
åĵ¥ åĵ¥
196 6å¹´
åĽ½éĺ² éĥ¨
çŁ© éĺµ
, )
çľģ éģĵ
åħĥ æľĿ
èĿ ł
å¥¥æĸ¯ åį¡
i aĠ
æľ¬ å±Ĭ
çĽ¸ ç»§
åħµ åĽ¢
æ³° åĭĴ
é¢Ħ å¤ĩ
ç®Ĺ æ³ķ
å® ł
å¼Ģ åĲ¯
æĪĺ èĥľ
æĳ Ķ
æµ Ĩ
è¢« åıĳçİ°
ç¥ Ĳ
æĶ¹ è£ħ
Ġ ç¬¬äºĮ
éĻķ è¥¿çľģ
Ġ å°½ç®¡
ä¹ĭ éĻħ
çģ« çģ¾
æĪ¿ éĹ´
å±ħä½ı åľ¨
åĲį è¿Ľå£«
çī© ä½ĵ
çļĦ æ¦Ĥå¿µ
à ¸
æ¼ Ĩ
æİ¨ ç¿»
å¿Ĺ æĦ¿
çĻ¾ å§ĵ
æĪĲ åĪĨ
é¢ ĸ
èĭ± éķĳ
åĽŀ åĽ½
å®¢ æĪ·
æĹ§ åĿĢ
äºİ200 7å¹´
çĮ ľ
åŀĤ çĽ´
åįĹ æµ·
åĽł åºĶ
çĶµ æ±ł
åĭ ĺ
æ²³æµģ åŁŁ
P C
Ġ åı¦å¤ĸ
åħ Ķ
æĺ¯ ä»İ
æĸ° åĮĹ
æĸ° ç«¹
åħ¥ åĽ´
å·´ ä¼ĲåĪ©äºļ
æł¡ èĪį
åģļ æ³ķ
ä¼ģ åĽ¾
éĢłæĪĲ çļĦ
ç¥Ń ç¥Ģ
Ġ de
äºİ æŃ¤
å¿ Į
éĿ¢ åĲĳ
éĢī æ°ĳ
äºİ åĲĮå¹´
æľ¬ ç§ĳ
è· Į
ç§° ä¹ĭä¸º
ä¸ŃåĽ½ åĽ½æ°ĳåħļ
ä¿Ŀ å®ī
éĩį å¤į
è¾ĥ å¤§
ä¹Į æĸ¯
èĽ Ľ
195 9å¹´
è¿ģ ç§»
ä¼Ĳ åħĭ
è¾ Ī
åıĺ æį¢
Ġ200 4å¹´
ç§© åºı
s e
Ġ æ¸¸æĪı
åĲĮ æŃ¥
ä¸ī ç§į
E T
çļĦ éķ¿
çļĦ åŃ¦çĶŁ
ou n
è¿« ä½¿
ç¬¬åįģ ä¸ī
éĺħ è¯»
æ° ®
æĹ© åľ¨
å°º å¯¸
ä¸ºè¾Ĳé³įé±¼çº² é²
å¤§ è¡Ĺ
å±± çļĦ
å¤§éĩı çļĦ
ä¸Ń é¥°æ¼Ķ
åĲį ä¸¾äºº
(; )
E C
çī© çļĦ
çªģ åĩº
èı² å°Ķå¾·
ä»ĸ åĴĮ
åıĳ æİĺ
èĢĮ æĿ¥
çī¹ æĢ§
å±± å¸Ĥ
åĵĪ éĩĮ
ä½ı åľ¨
éĥİ ä¸Ń
han t
åİ¦ éĹ¨
åĮĸ ä¸º
ç¼ĸ ç»Ħ
äºº ä¸º
åİ ī
åħ¬ ä¼ļ
ä»ĸ å¯¹
åĿ ŀ
æŁ¥ å°Ķæĸ¯
æħķ å°¼
ä½ ĳ
åĮ ł
å¸ĥ åħ°
æĽ´ æĺ¯
å¹² çº¿
éģĹ ä¼ł
é©± åĬ¨
èµ¢å¾Ĺ äºĨ
äºİ 2024å¹´
èĤ ĩ
çľ¼ çĿĽ
çĺ ¤
æĬĳ åĪ¶
9 1
çļĦ éĺ¿
å¤§ åħ¬
ä¸» ä½ĵ
å·´ èµ«
åĵģ è´¨
çĹħ éĢĿ
æĪĺäºī æľŁéĹ´
æŃ§ è§Ĩ
" (
ä¸º æľŁ
å¤§ å®¶
æ¡ Ĳ
æıĲ åīį
æµģ éĩı
èľ Ģ
æµ ¸
æĮ º
åįĹ æĸ¯æĭīå¤«
ä¸¤ æĿ¡
èŃ¦ æĬ¥
äºĭåĬ¡ æīĢ
ä¸ľäº¬ éĥ½
s ection
åİŁ çĲĨ
åķĨ åĬ¡
ç©¿ è¿ĩ
èµ Į
ä»» åĨħ
é© ¹
åĩĨ åĨ³èµĽ
çķĮ çļĦ
er n
æĥħ èĬĤ
åı¤ å·´
ä¹Ł åı¯
å®ŀ åĬĽ
åİ¿çļĦä¸Ģä¸ª éĿŀå»ºåĪ¶åľ°åĮº
è¤Ĳ èī²
æħķå°¼ é»ĳ
Ġ éĻĪ
æĪ Ĭ
å®¶ ä¹¡
çĵ ·
èİ± æĸ¯
åĩł ä½ķ
æĪĺäºī ä¸Ń
éĽķ å¡ĳ
åĨłçĬ¶ çĹħæ¯Ĵ
Ġ X
Ġ 16
æľ¬ ä¹¦
æ´Ľ å¤«
197 4å¹´
ä¾Ŀ çħ§
æĿ¥èĩª äºİ
ç±»ä¼¼ çļĦ
çīµ å¼ķ
ç»´ä¹Ł çº³
Ġ 191
æĹ¥ è¯Ń
çī¹ çĤ¹
èº« ä¸Ĭ
åĲİæĿ¥ çļĦ
. )
åįĹ ç¾İæ´²
äºĭ åĲİ
å¢ŀ è®¾
ä»ħ æ¬¡äºİ
ç«£ å·¥
y p
åıĬ åħ¶ä»ĸ
ç»ı çºª
éĻ¢ å£«
195 3å¹´
Ġ åĮĹ
æķĪ çİĩ
çļĦä¸» é¢ĺ
ä¿Ĺ ç§°
æ» ¤
æ» ĭ
åĪĴ å½Ĵ
å¹ķ åºľ
ä¸¥éĩį çļĦ
ä¸º çĶ±
åĨħ æľī
æŁ Ħ
èģĶ åĨĽ
æľ¯ è¯Ń
çļĦ åĽ½éĻħ
ä½įäºİ ä¸Ńåįİäººæ°ĳåħ±åĴĮåĽ½
èĮ Ħ
æĿĳ æ°ĳ
åĮ» åŃ¦éĻ¢
æ·» åĬł
å¤§ çĲĨ
çľģ æİ¥å£¤
çĶ² åŁº
ç»ĥ ä¹ł
I V
å°Ķ é¡¿
èĬ ¦
çº¦ 1
çĸ ¯
åľ£ ç»ı
ç»Ĩ èıĮ
æī Ń
ä¸Ĭ æĸ¹
éħ ¯
éģĩ åĪ°
ä¿®éģĵ éĻ¢
è¾¹ çļĦ
æ¿Ģ çĥĪ
å¤§ æ°Ķ
åīį èº«
ç§° èµŀ
åŁİ åİ¿
å¦Ĥ åĲĮ
ä¿Ŀ åĬłåĪ©äºļ
æĮĩ è´£
åĽŀ åĲĪ
èĢĥ å¯Ł
éĢĶ ç»ı
èĻļ æĭŁ
çļĦ çĶŁæ´»
çļĦ çĪ¶äº²
çļĦ æĪĲç»©
Ġæł¹æį® 2020å¹´ç¾İåĽ½äººåı£æĻ®æŁ¥çļĦæķ°æį®
M S
l l
ç¾İåĽ½ äºº
èİ· å¥ĸ
å°± åľ¨
äºī å¤º
åįģäºĮ æľĪ
â Ĩ
æĶ» åĬ¿
æī¿ æĭħ
çļ® èĤ¤
å¤ļ åħĥ
æ£ į
åŃ£ åĲİ
ä½ľæĽ² å®¶
1 4å¹´
åĪĨ æĪĲ
æĸ¹ ç¨ĭ
ä½Ĩ åħ¶
è¶ ģ
åĽ¢ éķ¿
æ£ ±
æľ« æľŁ
éĺŁ åĳĺ
åĲĳ åĮĹ
èİ· åıĸ
çĽ´ è·¯
ä¹¡ æĿĳ
197 3å¹´
é¡º åºı
è¸ ¢
8 ä¸ª
æĻ ´
åħĥ éŁ³
Ġ è¯Ħä»·
193 5å¹´
é¢Ĩå¯¼ çļĦ
åħ¬åħ± äº¤éĢļ
å¸ ľ
åı¸ èģĮ
æ» ¥
é»ĳ äºº
åľ°ä¸Ń æµ·
A L
åıĹ æįŁ
è± ¹
è¡ĮæĶ¿ ä¸Ńå¿ĥ
195 7å¹´
N BA
åĿ ¤
æĢ» ç«Ļ
å£« é¡¿
å±Ģ å±Ģéķ¿
åĳ¨ åĪĬ
èĲ¨ æĭī
Ġt oĠ
ç¥ ¸
å¥³ åŃ©
197 7å¹´
åĩº èµĽ
å¥³ ä¸»è§Ĵ
15 5
é¥ ¶
åĩł å¹´
å®ģ æ³¢
E N
æĺ¯ æĦıå¤§åĪ©
åįģ ä¸Ģå¹´
åĵģ ç§į
ç¥ĸ åħĪ
æĲ ŀ
éĺ´ è°ĭ
äºĳåįĹ çľģ
å¤ª åĲİ
æĿ¡ æ¬¾
15 2
çĮ ´
è´Ŀ åħĭ
åĩºçİ° çļĦ
å©´ åĦ¿
è¿Ļ ä¹Łæĺ¯
æ·· ä¹±
å±ŀçļĦ æ¤įçī©
æ§ ½
å·´ åŁº
åĵĪ æĭī
éĽ· è¾¾
åĬłåĪ©ç¦ı å°¼äºļå·ŀ
Ġ åħ¶ä¸Ń
å¦ ¥
ä¿¡ å¾Ĵ
æŃ» äºİ
ä½ĵèĤ² é¦Ĩ
äº® çĽ¸
iv eĠ
å¯ ĩ
å±± åľ°
çĶ· åŃ©
åľ¨ ä¸Ĭæµ·
èĲ Ŀ
æİ¨ æµĭ
æ¤ Ń
ç»Ĩ èĬĤ
çļĦ éĿ¢ç§¯ä¸º
åĬł ä»¥
æľĢ å¤ļçļĦ
æķ° åįģ
éĩį ç»Ħ
åĽ½å®¶ åħ¬åĽŃ
æİ¨ è¡Į
äºİ200 6å¹´
å·´åĭĴ æĸ¯åĿ¦
åıĸ èĩª
è®º åĿĽ
æĳ© å°Ķ
è¿Ļé¦ĸ æŃĮ
æ¡Ĩ æŀ¶
ä¸ľ åĮº
çĽ¸ è¿ŀ
å¤ľ éĹ´
è¯ī è®¼
åĳ¼ åĲ¸
é¥® é£Ł
ç¤ºå¨ģ èĢħ
é»ĳé¾Ļæ±Ł çľģ
i x
å¾ Ļ
çĤ ³
æĻ® æĭī
éĢģ åĪ°
éĢĶ å¾Ħ
å· ©
åĪĨ è§£
æ°´ éĩı
åı¯ä»¥ éĢļè¿ĩ
å¼ķ ç§į
é¥ ¼
éĻĦ åĬł
å¯Į æ±Ĺ
YouT ube
çļĦ åŁİéķĩ
æ¬ ł
197 1å¹´
æĸ°åĨł èĤºçĤİ
Ġ g
çļĦ ä¸ĸçķĮ
æŃĮ åĶ±
ç§» å±ħ
æĭ¿ çł´
è¿½ æ±Ĥ
å±ĭ é¡¶
å°±è¯» äºİ
èĩ´åĬĽ äºİ
è® ½
æĺ¯ è¥¿çıŃçīĻ
ä»ĸ äºº
æľº æŀª
çĽ¸ éĤ»
æĿ°åħĭ éĢĬ
n g
æľī çĿĢ
ç¾İåĽ½ æĢ»ç»Ł
éĽĨåĽ¢ åĨĽ
è¯Ĭ æĸŃ
ç«ĭæĸ¹ ç±³
æĭ¿çł´ ä»ĳ
. ãĢĮ
é«ĺ æŀ¶
çİ¯ å½¢
æī¹ åĪ¤
195 1å¹´
èĪªç©º åħ¬åı¸
ç¬¬åįģ ä¸Ģ
H K
e e
æĺ¯ èĭ±åĽ½
æ£ ļ
æµģ åĬ¨
æ»ĳ éĽª
ä¸Ń å¼ı
çī© èµĦ
å¦ ĸ
å¤ĸ åĽ´
æĢ» ç»ıçĲĨ
åĬĽ åŃ¦
ç»Ī æŃ¢
æħĪ åĸĦ
Ġ ä¸Ģ
æī ĩ
ä¸ī å¤§
ä¸ī çĶ²
è° £
æ¡ ĵ
åºķ å±Ĥ
å´ĩ ç¥¯
åĨ »
åı¸ æľº
èĳ µ
å§ĭ ç»Ī
æłĩ é¢ĺ
åħ¬éĩĮ çļĦ
åħµ åĬĽ
æ²Ī éĺ³
1 3å¹´
çļĦ æ¸¸æĪı
åĩº èĩª
åħ¶ åľ¨
è¿ĩ æ¸¡
ç¦ §
åĪĻ çĶ±
éĴ ©
å¾· åħĭ
å®ļ çĲĨ
å±± é¡¶
4 æľĪ1æĹ¥
ä¸Ń ä¸ĸçºª
ä¸ĭ æĸ¹
çĪ ¬
è£ ´
åľ£ æ¯į
è¿ĲåĬ¨ çļĦ
ç§ĺ é²ģ
å±ħæ°ĳ çĤ¹
ç²Ĵ åŃĲ
æĸ Į
æŁ ľ
åħĥ å¸ħ
å§Ķ åī¯ä¹¦è®°
æ²³ åı£
çģ« è½¦ç«Ļ
ä¸Ńå¿ĥ çļĦ
é³ Ħ
åħ¥ å¢ĥ
èĤ ¿
æ¼ Ĥ
å·¥ä½ľ çļĦ
17 5
è°¢ å°Ķ
å½¼ æŃ¤
Ġ æľĪ
å·¥ åķĨ
æ¯Ķ å°Ķ
æĴ ĳ
æ·± åħ¥
ç¬¬ä¸ī æ¬¡
000 åĲį
éŁ¦ å°Ķ
åħ¬ å¯ĵ
çĲĥ è¿·
ç»ĵ è®º
åĥı æĺ¯
om p
ç¡ķå£« åŃ¦ä½į
å± ¡
è¾ ±
æ¬¡ æĹ¥
æīĭ ä¸Ń
å±Ģ çļĦ
éĨ ī
M ar
åİ Į
äºĨ å¯¹
çĦ ļ
çİ¯ çĲĥ
èĵ Ħ
è¯ĳ ä¸º
è¯¥ åī§
èĭı éĩĮ
ç¦ı éŁ³
çª ĥ
æĵ ¦
E P
åľ¨ ä»ĸçļĦ
çŃī å¾ħ
æł¼ å¼ı
199 0å¹´ä»£
çªģ åİ¥
å¼Ĺ æĭī
ä¼ĺ åħĪ
å®ĥä»¬ çļĦ
å¤©æ´¥ å¸Ĥ
èģ Ĥ
åĮĹ éŁ©
çİĭ ä½į
åį° è±¡
åį°åº¦ æķĻ
æ© Ļ
è½¬çļĦ å°ıè¡ĮæĺŁ
çĶ± äººå·¥
è¶³çĲĥ èģĶèµĽ
P ro
çļĦ èĥ½åĬĽ
çļĦ å¥³åĦ¿
ä¸º é¦ĸ
åįģ ä¸īå¹´
æĽ² çĽ®
çīĪ çļĦ
é¢Ħ åĳĬ
æĹ©æľŁ çļĦ
r is
æĹ Ń
æĺ¯ åįĹæŀģæ´²
åıĳ éŁ³
åĬł åĭĴ
ä¸ī æ¬¡
èģĮ æ£Ĵ
ç¦ı åĪ©
ä½İ æ°Ķåİĭ
ç¿° æŀĹ
è¿ĩ äºİ
ç³ ķ
èĳĹ æľī
å¾® è½¯
çĥŃå¸¦ æ°ĶæĹĭ
çĲĨäºĭ ä¼ļ
B L
ç¬¼ èįī
Window s
æł¼ æĭīæĸ¯
è¯º ä¼Ĭ
åĪº æ¿Ģ
çĮª ç¬¼èįī
åİ Ŀ
è´ ¿
åı² èĴĤ
åī¯ ä½¿
åıĳçĶŁ çļĦ
åµ Į
åľ¨ ä¸Ģä¸ª
