{"!":0,"\"":1,"#":2,"$":3,"%":4,"&":5,"'":6,"(":7,")":8,"*":9,"+":10,",":11,"-":12,".":13,"/":14,"0":15,"1":16,"2":17,"3":18,"4":19,"5":20,"6":21,"7":22,"8":23,"9":24,":":25,";":26,"=":27,"?":28,"@":29,"A":30,"B":31,"C":32,"D":33,"E":34,"F":35,"G":36,"H":37,"I":38,"J":39,"K":40,"L":41,"M":42,"N":43,"O":44,"P":45,"Q":46,"R":47,"S":48,"T":49,"U":50,"V":51,"W":52,"X":53,"Y":54,"Z":55,"[":56,"\\":57,"]":58,"^":59,"_":60,"`":61,"a":62,"b":63,"c":64,"d":65,"e":66,"f":67,"g":68,"h":69,"i":70,"j":71,"k":72,"l":73,"m":74,"n":75,"o":76,"p":77,"q":78,"r":79,"s":80,"t":81,"u":82,"v":83,"w":84,"x":85,"y":86,"z":87,"|":88,"~":89,"¡":90,"¢":91,"£":92,"¤":93,"¥":94,"¦":95,"§":96,"¨":97,"©":98,"ª":99,"«":100,"¬":101,"®":102,"¯":103,"°":104,"±":105,"²":106,"³":107,"´":108,"µ":109,"¶":110,"·":111,"¸":112,"¹":113,"º":114,"»":115,"¼":116,"½":117,"¾":118,"¿":119,"Â":120,"Ã":121,"Ä":122,"Å":123,"Æ":124,"Ç":125,"È":126,"É":127,"Ê":128,"Ë":129,"Ì":130,"Í":131,"Î":132,"Ï":133,"Ð":134,"Ñ":135,"Ò":136,"Ó":137,"Ô":138,"Õ":139,"Ö":140,"×":141,"Ø":142,"Ù":143,"Ú":144,"Û":145,"Ü":146,"Þ":147,"ß":148,"à":149,"á":150,"â":151,"ã":152,"ä":153,"ê":154,"ë":155,"ì":156,"í":157,"î":158,"ï":159,"ð":160,"ñ":161,"Ċ":162,"Ġ":163,"ġ":164,"Ģ":165,"ģ":166,"Ĥ":167,"ĥ":168,"Ħ":169,"ħ":170,"Ĩ":171,"ĩ":172,"Ī":173,"ī":174,"Ĭ":175,"ĭ":176,"Į":177,"į":178,"İ":179,"ı":180,"Ĳ":181,"ĳ":182,"Ĵ":183,"ĵ":184,"Ķ":185,"ķ":186,"ĸ":187,"Ĺ":188,"ĺ":189,"Ļ":190,"ļ":191,"Ľ":192,"ľ":193,"Ŀ":194,"ŀ":195,"Ł":196,"ł":197,"Ń":198,"ng":199,"hÃ":200,"Ãł":201,"Äģ":202,"Ã¬":203,"Ã¡":204,"Ä«":205,"Ã¨":206,"Çİ":207,"ĠĠ":208,"Ã©":209,"ÃŃ":210,"shÃ":211,"Ã¹":212,"Ã¡n":213,"zh":214,"ÇĲ":215,"Åį":216,"ji":217,"de":218,"Ãłn":219,"Äĵ":220,"zhÃ":221,"sh":222,"ÄĽ":223,"Ã³":224,"ÇĶ":225,"xi":226,"Ã²":227,"Ãº":228,"Äģn":229,"ĠĠĠ":230,"Ãłi":231,"Å«":232,"Åįng":233,"ÇĴ":234,"ãĢ":235,"shÃ¬":236,"hu":237,"Ã¨i":238,"gu":239,"iÃ¡n":240,"hÃ©":241,"Ãło":242,"Äģng":243,"ÃŃng":244,"yu":245,"Çİn":246,"ch":247,"niÃ¡n":248,"yÄ«":249,"Çİng":250,"Ã©n":251,"ÇĴu":252,"Ã¬ng":253,"wÃ¨i":254,"Çİo":255,"zÃłi":256,"ãĢģ":257,"jÄ«":258,"Äĵng":259,"zhÅįng":260,"xÄ«":261,"bÃ¹":262,"jÃ¬":263,"Ãłng":264,"li":265,"zhÃ¨":266,"shÃŃ":267,"dÃ¬":268,"guÃ³":269,"yÃº":270,"rÃ©n":271,"Ã²ng":272,"chÃ":273,"Äģo":274,"du":275,"chÃ©":276,"yÇĲ":277,"lÃ¬":278,"Ã¡ng":279,"yÃ¬":280,"uÃ²":281,"Ã¡i":282,"zhÃ¬":283,"chÃ©ng":284,"Ã©i":285,"xu":286,"gÅįng":287,"jÃŃ":288,"²u":289,"ÄĽi":290,"iÃłn":291,"Äĵn":292,"Ã³ng":293,"yuÃ¨":294,"yÇĴu":295,"yuÃ¡n":296,"dÃł":297,"qi":298,"Åįu":299,"lÇĲ":300,"20":301,"Ã³u":302,"Äģi":303,"xiÃłn":304,"jiÄģ":305,"sÄ«":306,"Å«n":307,"xÃŃng":308,"yÇĶ":309,"Ã¨n":310,"ÇĴng":311,"ÃŃn":312,"tÄģ":313,"rÃ¬":314,"zhÄ«":315,"hÃ²u":316,"Çİi":317,"gÃ¨":318,"zhÃł":319,"Ã©ng":320,"le":321,"wÃ©i":322,"huÃ¬":323,"dÃło":324,"19":325,"bi":326,"shÃł":327,"qÄ«":328,"qÃŃ":329,"shÃ¨":330,"su":331,"zhÃ¨ng":332,"mÃŃng":333,"jiÃłn":334,"xuÃ©":335,"chÅ«":336,"yÃ¹":337,"ÄĽng":338,"zuÃ²":339,"shÄĵng":340,"duÃ¬":341,"yÃ³u":342,"qÅ«":343,"shÃłng":344,"ÄĽn":345,"dÃ©":346,"lÃ¹":347,"bÃ¨i":348,"chÃ¡":349,"ti":350,"shÇĲ":351,"zhÃłn":352,"zhÇĶ":353,"Äĵi":354,"qu":355,"jÃ¹":356,"xÄ«n":357,"jÅ«n":358,"zhu":359,"ÄĽr":360,"Ã¡o":361,"shÃ¹":362,"uÃ¬":363,"rÃ¨n":364,"fÄģ":365,"wÃ¹":366,"bÃ¬ng":367,"kÃ¨":368,"Ã©r":369,"dÃłi":370,"yÃŃ":371,"jÃ¬n":372,"zÃ¬":373,"yÄ«n":374,"fÃ¹":375,"fÄģng":376,"jÄ«ng":377,"nÃ¡n":378,"huÃł":379,"xÃ¬":380,"zhÅįu":381,"pÃŃng":382,"Ã²u":383,"xiÃł":384,"lÃ¡i":385,"yÃ²ng":386,"shu":387,"guÄģn":388,"tÃ³ng":389,"ãĢĭ":390,"ãĢĬ":391,"fÇİ":392,"zhÃ¹":393,"mÄĽi":394,"hÃ¡":395,"Â·":396,"jiÄģn":397,"jÇĲ":398,"huÃ²":399,"dÃ¹":400,"chu":401,"bÄĽn":402,"xiÄģng":403,"zhÃŃ":404,"dÃ²ng":405,"xiÃłng":406,"mÃŃn":407,"jiÄģng":408,"fÄĵn":409,"shÇĴu":410,"quÃ¡n":411,"wÃ©n":412,"yÃ¡n":413,"hÃł":414,"suÇĴ":415,"jiÃło":416,"qiÃ¡n":417,"diÃłn":418,"tÃ¨":419,"di":420,"duÅį":421,"Ãºn":422,"zuÃ¬":423,"kÄģi":424,"tu":425,"jiÃ©":426,"liÃ¡n":427,"zhÇĲ":428,"kÄĽ":429,"dÃłn":430,"mÃ¹":431,"yÃ¨":432,"fÃº":433,"mÇİ":434,"yÄĽ":435,"dÅįng":436,"qiÃº":437,"bÄĽi":438,"ãĢĮ":439,"ãĢį":440,"gÄģo":441,"yÃł":442,"qÇĲ":443,"jiÄĵ":444,"miÃłn":445,"hÇİi":446,"zhÇİng":447,"shÄ«":448,"jÄ«n":449,"cÇĲ":450,"lu":451,"nÃ¨i":452,"tÇĲ":453,"sÃłi":454,"sÄģn":455,"tÃ¡i":456,"gÃ©":457,"xÃ¬ng":458,"guÃ²":459,"rÃ¹":460,"201":461,"dÄĽng":462,"yÃło":463,"ju":464,"chÄĵ":465,"cÃ¬":466,"wÇĶ":467,"gÄģi":468,"dÃ¬ng":469,"chÃ¡ng":470,"biÇİo":471,"lÄģ":472,"gÃ²ng":473,"jiÃ¨":474,"shÃ²u":475,"dÇİo":476,"shÄģn":477,"chÇİng":478,"sÃ¬":479,"bÇĲ":480,"zÃ©":481,"tÃŃ":482,"kÄĵ":483,"dÄģng":484,"nÃ©ng":485,"Ã¨r":486,"wÃłi":487,"dÄģn":488,"xÃ¹":489,"zi":490,"kÇĴu":491,"xiÇİo":492,"zÇĶ":493,"bÄģ":494,"juÃ©":495,"lÃŃn":496,"liÃº":497,"shÄĽng":498,"yÄ«ng":499,"ku":500,"lÃ¡n":501,"luÃ³":502,"tÅįng":503,"200":504,"Ä«ng":505,"²ng":506,"mÇĲ":507,"zhÃ²ng":508,"en":509,"zhÄĽ":510,"shÇĶ":511,"tiÄģn":512,"zhÃ¨n":513,"Çļ":514,"qÃ¬":515,"zhÇĴng":516,"liÃ¨":517,"chÄĵng":518,"shÅ«":519,"yuÃłn":520,"bÇİo":521,"tÃłi":522,"fÇĶ":523,"fÄĵng":524,"gÇĶ":525,"qÄ«ng":526,"shÄĵn":527,"wÃ¡ng":528,"yÃ¹n":529,"guÇİn":530,"fÄĵi":531,"jiÃ¹":532,"liÇİng":533,"cÃ©ng":534,"mÃ©i":535,"10":536,"fÃ¨n":537,"hÃło":538,"³ng":539,"yÇİn":540,"wÄĽi":541,"zÇĴng":542,"xuÇİn":543,"xiÃło":544,"dÃ¡":545,"nÃł":546,"liÃłng":547,"bÅį":548,"zÃº":549,"jÃ¬ng":550,"bÃło":551,"nÃŃ":552,"wÃº":553,"tÇĴng":554,"huÃ¡":555,"jiÄģo":556,"yuÄĵ":557,"yÇĲng":558,"biÃłn":559,"xÄ«ng":560,"sÃ¹":561,"shuÇĲ":562,"yÃ¡ng":563,"hÃ¹":564,"men":565,"bÄģo":566,"gÄĵ":567,"bÃ³":568,"cÄģn":569,"cÃ³ng":570,"diÇİn":571,"bÃ¬":572,"rÃº":573,"bÃłn":574,"biÄģn":575,"wÇİng":576,"qÇĶ":577,"mi":578,"chÇİn":579,"sÃ¨":580,"zÄ«":581,"chuÃ¡n":582,"00":583,"shÃ¨ng":584,"rÃ¡n":585,"tÃº":586,"zhÄģng":587,"pÇĶ":588,"gÇİi":589,"gÇİng":590,"nÇļ":591,"lÃ¬ng":592,"luÃ²":593,"yÃ²u":594,"tÃ³u":595,"cÃ¨":596,"lÇ":597,"chÃŃ":598,"18":599,"lÇľ":600,"qiÄģn":601,"shÃ©":602,"lÃŃ":603,"dÅįu":604,"pÇĲ":605,"12":606,"zhÄĵng":607,"ni":608,"kuÃ²":609,"shÄģ":610,"dÇİng":611,"fÇİn":612,"gÃ²u":613,"lÃ¨i":614,"xÃŃ":615,"jÇĲng":616,"tuÃ¡n":617,"wÄĵi":618,"xiÄĵ":619,"lÇĲng":620,"lÃ³ng":621,"guÄ«":622,"xiÄģn":623,"rÃ³ng":624,"huÃ¡ng":625,"xiÇİng":626,"bÄģn":627,"jiÇĶ":628,"yÃ¬ng":629,"mÃ©n":630,"shÄģng":631,"shÃ©n":632,"202":633,"bÇİn":634,"kÇİ":635,"mÇĶ":636,"jÇĲn":637,"fÅ«":638,"jÇĶ":639,"mÃ³":640,"guÇİng":641,"cÃŃ":642,"shuÅį":643,"qÃŃng":644,"zhÇİn":645,"hÃ¡i":646,"zhuÄģng":647,"mÃ²":648,"cÃ¡i":649,"dÃº":650,"11":651,"pÇĲn":652,"tÃŃng":653,"chÃ¡o":654,"yÃŃng":655,"tiÃ¡o":656,"jiÇİn":657,"tÃ¡ng":658,"huÃŃ":659,"duÃłn":660,"chÃ©n":661,"gÄĵn":662,"mÃ¬":663,"wÃłn":664,"pÃ¡i":665,"wÄģn":666,"zÃło":667,"hÃ¡ng":668,"wÃ¡n":669,"biÄģo":670,"gÃ¹":671,"lÃºn":672,"199":673,"xiÃ©":674,"jiÇİng":675,"hÃłn":676,"jÃº":677,"fÃłn":678,"fÃ¡ng":679,"huÃ³":680,"hÃ¡n":681,"pi":682,"kÅįng":683,"or":684,"tiÄĽ":685,"mÃ©ng":686,"biÃ©":687,"wÅ«":688,"jiÄĽ":689,"zhuÄģn":690,"yÇĲn":691,"xÅ«":692,"zhÄĵn":693,"dÇĲ":694,"er":695,"chÃº":696,"hÃº":697,"jiÃł":698,"bÄ«ng":699,"mÃ¬ng":700,"lÃŃng":701,"hÃ³ng":702,"qÄ«n":703,"zÇĲ":704,"lÃ¹n":705,"xÃ¬n":706,"chÃ¹":707,"chÇĶ":708,"sÅ«":709,"an":710,"xiÅ«":711,"zÅįng":712,"15":713,"quÃ¨":714,"xiÄģo":715,"zhÃło":716,"qiÃ¡ng":717,"qÃ¹":718,"cÅ«n":719,"chÃ³ng":720,"piÃłn":721,"jiÅ«":722,"fÃłng":723,"suÃŃ":724,"shÅįu":725,"gÃ¨ng":726,"âĢ":727,"guÄģng":728,"Ã¨ng":729,"jÅ«":730,"on":731,"jiÇİ":732,"chuÃłng":733,"dÃŃ":734,"16":735,"zhuÇİn":736,"guÇĴ":737,"xÃ¹n":738,"mÃłn":739,"pÃłi":740,"fÃ¨i":741,"pÃ¨i":742,"198":743,"dÇİ":744,"tuÅį":745,"la":746,"xuÄģn":747,"bÃ¡i":748,"zhÅ«":749,"dÅ«":750,"tÇĶ":751,"diÃło":752,"xiÃ¡":753,"liÃ¹":754,"17":755,"suÃ¬":756,"huÄ«":757,"tÄ«ng":758,"qiÄĽ":759,"tÇİ":760,"qiÃ¡o":761,"hÄģ":762,"gÇİn":763,"zÄĵng":764,"xiÇİn":765,"mÃłi":766,"huÃ¡n":767,"xÇĶ":768,"wÇİ":769,"tuÄ«":770,"wÃ¨n":771,"chÄģo":772,"tiÃ¡n":773,"bÇİi":774,"cÇİi":775,"liÃ¡ng":776,"yÃ¡":777,"sÃł":778,"ar":779,"bÃłi":780,"cÃºn":781,"jiÇİo":782,"shÇİo":783,"yÃłn":784,"zhuÃłng":785,"huÇĴ":786,"lÃ©i":787,"14":788,"zu":789,"jiÃłng":790,"chuÄģn":791,"yÃ¬n":792,"zÇİo":793,"chÃł":794,"yÇĴng":795,"sÇĲ":796,"dÄĵng":797,"30":798,"zhÇĶn":799,"lÃ¨":800,"xÃºn":801,"nuÃ²":802,"kÃ¹":803,"huÃłn":804,"sÃ²ng":805,"gÃło":806,"lÇĶ":807,"13":808,"194":809,"bÄģng":810,"lÇļ":811,"pÄ«":812,"yÃłng":813,"hÄĽn":814,"qÃºn":815,"zhÄĽng":816,"guÃłn":817,"pÃ²":818,"gÄģng":819,"wÇĴ":820,"197":821,"huÄģ":822,"lÄĵi":823,"hÇİo":824,"tÃ¡o":825,"kuÃłng":826,"hÃ¨":827,"in":828,"dÃ¹n":829,"nÃ³ng":830,"gÄĽi":831,"sÄģi":832,"shuÄģng":833,"liÃłn":834,"kuÃłi":835,"dÄ«":836,"bÄ«":837,"pÃłn":838,"xiÄĽ":839,"195":840,"kÇİo":841,"gÃłi":842,"hÄĵi":843,"wÃłng":844,"liÃło":845,"rÃ¨":846,"ge":847,"zuÇĴ":848,"kÃ²ng":849,"196":850,"yÄģng":851,"chÃłng":852,"yÃŃn":853,"³u":854,"rÃ©ng":855,"sÄĵn":856,"bÄĵi":857,"lÃº":858,"piÃło":859,"yÄģ":860,"25":861,"bÄ«n":862,"âĢĶ":863,"rÃłng":864,"chÅįng":865,"lÃ³u":866,"bÇĶ":867,"lÇİo":868,"zhÃº":869,"jÃ¹n":870,"yÇİng":871,"ruÃ¬":872,"yÄģo":873,"xiÃ¡n":874,"xiÃ¨":875,"niÃłn":876,"for":877,"yÅįu":878,"tÃ¡n":879,"kÄģng":880,"pÃŃ":881,"hÃ©ng":882,"yÃºn":883,"xÇĲ":884,"kÃłn":885,"nÃŃng":886,"liÃ¡o":887,"shÃło":888,"bÃº":889,"24":890,"qÇĲng":891,"chÇĲ":892,"mu":893,"dÃ²u":894,"miÇİn":895,"yÅįng":896,"tÇİn":897,"wÇİn":898,"hÅ«":899,"fÄģn":900,"al":901,"tÅ«":902,"gÄģn":903,"suÃłn":904,"dÄ«ng":905,"yuÇİn":906,"wÄĵn":907,"tuÃ¬":908,"zhe":909,"21":910,"st":911,"xiÃ¹":912,"bÇİ":913,"mÇİn":914,"193":915,"23":916,"mula":917,"kÃłng":918,"formula":919,"28":920,"th":921,"mÃ¡o":922,"ruÃ²":923,"piÄģn":924,"chÃ¨":925,"mÃło":926,"lÇİng":927,"qÃŃn":928,"bÃ¡":929,"nÃ¡":930,"zÃłn":931,"guÇĲ":932,"guÃ¬":933,"ou":934,"pÃŃn":935,"wÃ²":936,"xiÃ³ng":937,"shÃłn":938,"re":939,"22":940,"xiÅįng":941,"me":942,"suÄ«":943,"Ã¼":944,"26":945,"shÄĽn":946,"qÃ¬ng":947,"miÃ¡o":948,"fÇİng":949,"50":950,"2020":951,"27":952,"lÃ¡ng":953,"ru":954,"qiÅ«":955,"sÅįng":956,"Ã¼Ã¨":957,"dÃłng":958,"gÄĵng":959,"qiÄģng":960,"ri":961,"fÃ¡":962,"zÄģo":963,"fÃ¨ng":964,"zhÃłng":965,"ï¼":966,"hÃ¡o":967,"dÅ«n":968,"zÇĴu":969,"hÃłi":970,"qiÃ¨":971,"29":972,"tÃłn":973,"pÃło":974,"pÃł":975,"shÃ¹n":976,"pÃ©ng":977,"xuÃ¡n":978,"2010":979,"nÇĲ":980,"000":981,"dÇĲng":982,"niÇĶ":983,"zÇİi":984,"zhÄģo":985,"zhuÄ«":986,"lÃ¼Ã¨":987,"chÅ«n":988,"2019":989,"hÅ«n":990,"kÇĴng":991,"duÄģn":992,"shÃ¨n":993,"xiÃ¡ng":994,"duÇİn":995,"gÃłn":996,"te":997,"ro":998,"kÄģn":999,"lÃ¡o":1000,"cÇİo":1001,"2016":1002,"si":1003,"gÅ«":1004,"pÃ©i":1005,"2018":1006,"kuÇİn":1007,"zÃ¡":1008,"sÅ«n":1009,"yÃ©":1010,"yÇİ":1011,"pÅį":1012,"2021":1013,"ra":1014,".5":1015,"chÃ¬":1016,"duÃ³":1017,"2014":1018,"fÃ¡n":1019,"2011":1020,"2015":1021,"cuÃ²":1022,"2017":1023,"zhÃ©":1024,"yÃ¡o":1025,"pÄģi":1026,"tÃ²u":1027,"cÃ¡ng":1028,"2012":1029,"40":1030,"kÇİi":1031,"2013":1032,"2022":1033,"mÃŃ":1034,"ruÇİn":1035,"suÄģn":1036,"chÄģ":1037,"zÃłng":1038,"miÃło":1039,"lt":1040,"2009":1041,"zhÇİo":1042,"2008":1043,"huÃ¡i":1044,"ãĥ":1045,"ce":1046,"60":1047,"am":1048,"cu":1049,"xuÃ¨":1050,"chÃ³u":1051,"se":1052,"bÇİng":1053,"mÃ¨ng":1054,"100":1055,"tÃ¬":1056,"pÃº":1057,"nÇİo":1058,"2023":1059,"zhuÃłn":1060,"gt":1061,"lÄĽi":1062,"190":1063,"31":1064,"cÃłi":1065,"cÃ¹":1066,"sÃłn":1067,"mÃ³u":1068,"tion":1069,"ta":1070,"hÃ¹n":1071,"ÇĶn":1072,"kuÄģn":1073,"2007":1074,"niÃº":1075,"mÇĴu":1076,"tÇİo":1077,"diÃ©":1078,"2001":1079,"ol":1080,"tÃ©ng":1081,"sÅįu":1082,"kÄĽn":1083,"qiÇİn":1084,"0.":1085,"chÄģng":1086,"rÇİn":1087,"quÄĵ":1088,"fÇĴu":1089,"sÇĶn":1090,"el":1091,"bÃł":1092,"2000":1093,"80":1094,"kÃło":1095,"suÅį":1096,"2006":1097,"niÇİo":1098,"chÃºn":1099,"ma":1100,"2024":1101,"lÇİn":1102,"ãģ":1103,"zÄģi":1104,"zhÃ¡":1105,"xuÄĽ":1106,"huÇĲ":1107,"luÃłn":1108,"1.":1109,"tÇĲng":1110,"2005":1111,"zÅ«n":1112,"bÃłng":1113,"lÃł":1114,"huÄģn":1115,"rÇİng":1116,"shuÃ¬":1117,"mÇĲn":1118,"35":1119,"lÃłi":1120,"cÄģng":1121,"70":1122,"fÃ³":1123,"pÃ¡n":1124,"of":1125,"nÃłi":1126,"wÄĽn":1127,"et":1128,"cÄģo":1129,"sÄģng":1130,"pÃ¡ng":1131,"90":1132,"2.":1133,"bÇĲng":1134,"ï¼į":1135,"zhÄģ":1136,"ãĤ":1137,"shuÃłi":1138,"niÃ¨":1139,"es":1140,"hÃ³u":1141,"mÃ¨i":1142,"shÄģo":1143,"nÇĶ":1144,"dÇĴng":1145,"il":1146,"at":1147,"ow":1148,"fÃ©ng":1149,"miÃ¨":1150,"yÇĶn":1151,"zÃ²u":1152,"mÇİi":1153,"huÃłi":1154,"2004":1155,"45":1156,"yÄģn":1157,"co":1158,"48":1159,"the":1160,"zhuÃ³":1161,"and":1162,"ter":1163,"he":1164,"tÃło":1165,"nÇİi":1166,"kÅ«n":1167,"2025":1168,"zhÄĽn":1169,"ck":1170,"rÇĶ":1171,"kuÃł":1172,"kuÃŃ":1173,"ãĢī":1174,"ãĢĪ":1175,"gÅįu":1176,"36":1177,"cuÄ«":1178,"38":1179,"shÇİn":1180,"rÃ²u":1181,"diÄģo":1182,"2003":1183,"hÇĶ":1184,"guÅį":1185,"37":1186,"cuÃ¬":1187,"ne":1188,"xÃº":1189,"mÃ¡ng":1190,"juÇİn":1191,"cÃ¡n":1192,"diÄģn":1193,"zhÄģn":1194,"cÃ¡o":1195,"189":1196,"IN":1197,"2002":1198,"3.":1199,"is":1200,"bo":1201,"kÄĵng":1202,"TC":1203,"ve":1204,"34":1205,"mÃ¡":1206,"lÄĽng":1207,"as":1208,"zÅ«":1209,"75":1210,"âĢĵ":1211,"sÃº":1212,"quÄģn":1213,"dÄģ":1214,"to":1215,"chÄģi":1216,"nu":1217,"lÃłng":1218,"kÃ¹n":1219,"46":1220,"tÃºn":1221,"fÄĽn":1222,"1990":1223,"âĢ¦":1224,"zhÃ²u":1225,"shÇİng":1226,"rÃło":1227,"hÄĵng":1228,"tÄ«":1229,"xÅ«n":1230,"39":1231,"nÃ¨":1232,"..":1233,"pÃ¬":1234,"nÃłn":1235,"pÄģn":1236,"65":1237,"hÅįng":1238,"shÃº":1239,"tÄģn":1240,"Ch":1241,"tÄģng":1242,"kÇİn":1243,"Ma":1244,"nÃ¬":1245,"32":1246,"In":1247,"ST":1248,"47":1249,"hÇİn":1250,"it":1251,"UTC":1252,"qiÃłn":1253,"1999":1254,"1998":1255,"1980":1256,"188":1257,"500":1258,"33":1259,"64":1260,"qiÇİng":1261,"shuÃ²":1262,"pÇİo":1263,"lo":1264,"be":1265,"kÄģ":1266,"zhÃ¡i":1267,".8":1268,"SE":1269,"55":1270,"quÃłn":1271,"nÄ«":1272,"dÃ¨ng":1273,"1997":1274,"The":1275,"miÃ¡n":1276,"49":1277,"gÇİo":1278,"II":1279,"68":1280,"Co":1281,"vi":1282,"shÄĽ":1283,"zÃ¨ng":1284,"Re":1285,"han":1286,"zhÃ³u":1287,"zhÃłi":1288,"44":1289,"1996":1290,"na":1291,"tiÄĵ":1292,"dÄģo":1293,"ad":1294,"br":1295,"1994":1296,"ver":1297,"fÃ©i":1298,"zÃ²ng":1299,"qiÃ³ng":1300,"ci":1301,"tiÃło":1302,"chuÃ¡ng":1303,".0":1304,".7":1305,"1992":1306,"ba":1307,"chuÃŃ":1308,"juÄģn":1309,"chÃ¡i":1310,"miÇİo":1311,"guÄģ":1312,"xuÄĵ":1313,"tÃ²ng":1314,"1995":1315,"fÄĽi":1316,".9":1317,"chÄ«":1318,"oo":1319,"mÄĽng":1320,"wÅį":1321,"67":1322,"ir":1323,"shuÄģi":1324,"tuÃ³":1325,"chuÄģng":1326,"huÇİn":1327,"1991":1328,"1970":1329,"58":1330,"ay":1331,"1950":1332,"ca":1333,"nd":1334,"guÃł":1335,"chÃ¡n":1336,"300":1337,"wÄģ":1338,"1993":1339,"187":1340,"1949":1341,".6":1342,"pe":1343,"sÄģ":1344,"tiÇİo":1345,"AT":1346,"1960":1347,"biÇİn":1348,"42":1349,"1945":1350,"ing":1351,"guÃłi":1352,"au":1353,"kÇĶ":1354,"nÃº":1355,"1988":1356,"dÇĶ":1357,"1989":1358,"ig":1359,"pÃ¹":1360,"69":1361,"liÇĶ":1362,"gÇĴng":1363,"SEE":1364,"tuÃ²":1365,"amp":1366,"ct":1367,"liÇİo":1368,"INSEE":1369,"59":1370,"tÄģi":1371,"43":1372,"66":1373,"chuÃłn":1374,"op":1375,"chÃ¨n":1376,"os":1377,"57":1378,"1985":1379,"huÄģng":1380,"99":1381,"SA":1382,"ãĢİ":1383,"cÃ¹n":1384,"ãĢı":1385,"1984":1386,"hÃºn":1387,"41":1388,"pÅ«":1389,"ly":1390,"us":1391,"kÃ²u":1392,"fÃ©n":1393,"88":1394,"1986":1395,"rÇİo":1396,"mp":1397,"St":1398,"id":1399,"rÃ¹n":1400,"TV":1401,"150":1402,"zhuÅį":1403,"ind":1404,"400":1405,"sÇİn":1406,"1987":1407,"78":1408,"un":1409,"ed":1410,"ha":1411,"1982":1412,"56":1413,"Li":1414,"ur":1415,"ard":1416,"nuÃ³":1417,"1983":1418,"NA":1419,"gÇĶn":1420,"Ro":1421,"De":1422,"ss":1423,"mÄģ":1424,"tou":1425,"pÃ¬n":1426,"CD":1427,"chÅįu":1428,"ber":1429,"gÇĴu":1430,"quÇİn":1431,"Mi":1432,"77":1433,"zhÄģi":1434,"Me":1435,"qiÃł":1436,"mÄģo":1437,"qiÇİo":1438,"Mar":1439,"tw":1440,"kÅ«":1441,"kuÃ¡ng":1442,"rÃ³u":1443,"der":1444,"79":1445,"lÃ²u":1446,"OS":1447,"Â°":1448,"kuÃ¬":1449,"sÃłng":1450,"ï½":1451,"Al":1452,"180":1453,"ty":1454,"BC":1455,"54":1456,"1979":1457,"61":1458,"1920":1459,".2":1460,"ang":1461,"pÄĵn":1462,"98":1463,"sÄĵng":1464,"52":1465,"You":1466,"ap":1467,"1978":1468,"nÃ¹":1469,".1":1470,"wÄĵng":1471,"62":1472,"yÄĵ":1473,"duÇĴ":1474,"Le":1475,"53":1476,"xÇĲng":1477,"juÃłn":1478,"ï½ŀ":1479,"BA":1480,"ke":1481,"1946":1482,"ts":1483,"CO":1484,"mo":1485,"ction":1486,"51":1487,"1958":1488,"1981":1489,".3":1490,"Vi":1491,"1972":1492,"1948":1493,"zhuÃ¬":1494,".4":1495,"cÅįng":1496,"tÅįu":1497,"AM":1498,"hi":1499,"63":1500,"man":1501,"ows":1502,"AR":1503,"ry":1504,"1941":1505,"Wind":1506,"BS":1507,"wÃ¡":1508,"liÇİn":1509,"1930":1510,"Mo":1511,"Pro":1512,"luÇİn":1513,"kuÄģng":1514,"qÃº":1515,"tuÇĴ":1516,"kÃ©":1517,"76":1518,"hans":1519,"va":1520,"1940":1521,"1937":1522,"con":1523,"1976":1524,"zuÇĲ":1525,"1944":1526,"Jo":1527,"89":1528,"1975":1529,"um":1530,"ï¼ı":1531,"Te":1532,"1968":1533,"niÃ¡ng":1534,"pÃ³":1535,"shuÄģ":1536,"hk":1537,"yuÄģn":1538,"tÄģo":1539,"per":1540,"wÄģng":1541,"ga":1542,"1000":1543,"ran":1544,"Windows":1545,"95":1546,"Ne":1547,"bÃŃ":1548,"sÇİo":1549,"da":1550,"87":1551,"1966":1552,"85":1553,"fÃł":1554,"pÄĵng":1555,"600":1556,"lÃłn":1557,"Se":1558,"Sta":1559,"sp":1560,"120":1561,"1947":1562,"Ga":1563,"Ar":1564,"ot":1565,"gÄģ":1566,"1956":1567,"AC":1568,"1964":1569,"dÇİn":1570,"cÅ«":1571,"1942":1572,"1955":1573,"chÇĴu":1574,"lay":1575,"1952":1576,"1939":1577,"IS":1578,"1938":1579,"72":1580,"74":1581,"ht":1582,"rÄĽn":1583,"1973":1584,"ace":1585,"fi":1586,"1974":1587,"1954":1588,"qiÄĵ":1589,"ED":1590,"1900":1591,"--":1592,"Be":1593,"AP":1594,"ore":1595,"1943":1596,"1977":1597,"Da":1598,"1971":1599,"pÄ«n":1600,"pÇĴ":1601,"mÃ¡n":1602,"1967":1603,"shÃ©ng":1604,"ment":1605,"IC":1606,"800":1607,"ER":1608,"La":1609,"86":1610,"1959":1611,"bÄĵng":1612,"son":1613,"1965":1614,"JR":1615,"1969":1616,"Ra":1617,"duÄ«":1618,"Di":1619,"ok":1620,"pÃ©n":1621,"ãĥ»":1622,"ÃĹ":1623,"qiÃło":1624,"chuÄ«":1625,"ID":1626,"qiÄģo":1627,"Su":1628,"ine":1629,"1936":1630,"160":1631,"97":1632,"bÄĵn":1633,"zhuÄģ":1634,"ent":1635,"1953":1636,"Sa":1637,"1962":1638,"MA":1639,"Tu":1640,"tic":1641,"1961":1642,"lÇĴng":1643,"ation":1644,"âĶ":1645,"1935":1646,"tÃł":1647,"mÃ¡i":1648,"Sh":1649,"96":1650,"ON":1651,"ak":1652,"ï¼ħ":1653,"1951":1654,"1957":1655,"1963":1656,"Lo":1657,"âĶĢ":1658,"one":1659,"rou":1660,"84":1661,"Ja":1662,"2026":1663,"do":1664,"cÇİn":1665,"82":1666,"gi":1667,"bu":1668,"mer":1669,"73":1670,"po":1671,"94":1672,"tÅ«n":1673,"92":1674,"So":1675,"AN":1676,"IP":1677,"An":1678,"ho":1679,"ali":1680,"1933":1681,"Mu":1682,"1931":1683,"nÃ¡ng":1684,"niÃło":1685,"les":1686,"71":1687,"bÃ¡o":1688,"nuÇİn":1689,"lÃ©ng":1690,"pÃ¡":1691,"83":1692,"93":1693,"ai":1694,"We":1695,"81":1696,"dÇĴu":1697,"1918":1698,"sta":1699,"HD":1700,"Bo":1701,"sÄģo":1702,"Uni":1703,"1928":1704,"luÃ¡n":1705,"ki":1706,"1932":1707,"wi":1708,"nÃ¨n":1709,"col":1710,"int":1711,"MV":1712,"SS":1713,"our":1714,"110":1715,"tÃ¹":1716,"IT":1717,"1912":1718,"all":1719,"1929":1720,"tuÇĲ":1721,"duÃ²":1722,"1927":1723,"cn":1724,"1934":1725,"are":1726,"Pa":1727,"700":1728,"1.5":1729,"gÃ¡":1730,"che":1731,"by":1732,"ted":1733,"ster":1734,"huÇİng":1735,"Si":1736,"250":1737,"ff":1738,"91":1739,"mm":1740,"Par":1741,"zÃ©i":1742,"Ri":1743,"1924":1744,"pp":1745,"ph":1746,"...":1747,"1919":1748,"kuÄ«":1749,"He":1750,"so":1751,"xuÃłn":1752,"130":1753,"piÄģo":1754,"no":1755,"1925":1756,"PS":1757,"Play":1758,"pÄģo":1759,"140":1760,"xiÄģ":1761,"Bu":1762,"Ca":1763,"SM":1764,"Con":1765,"Sp":1766,"PC":1767,"1914":1768,"ble":1769,"ste":1770,"zhÇİi":1771,"km":1772,"DV":1773,"zhÄĵ":1774,"En":1775,"mes":1776,"YouTu":1777,"com":1778,"Ba":1779,"hÄĵ":1780,"Fi":1781,"Ti":1782,"diÄĵ":1783,"ell":1784,"gra":1785,"lÇİ":1786,"AS":1787,"ia":1788,"1911":1789,"Wi":1790,"shi":1791,"end":1792,"ill":1793,"nÃ¼Ã¨":1794,"ana":1795,"ara":1796,"Ge":1797,"1926":1798,"den":1799,"1922":1800,"Na":1801,"nÇİ":1802,"sion":1803,"hÃ¨n":1804,"1917":1805,"ET":1806,"NBA":1807,"IV":1808,"shuÃŃ":1809,"cÄģi":1810,"rÃ¡o":1811,"EN":1812,"1923":1813,"art":1814,"1921":1815,"fe":1816,"pÃ¨ng":1817,"sa":1818,"ka":1819,"kuÄģ":1820,"Goo":1821,"ther":1822,"0.0":1823,"chÇĴng":1824,"To":1825,"170":1826,"à¸":1827,"EC":1828,"ld":1829,"mÇİo":1830,"nÃ²ng":1831,"AL":1832,"Ha":1833,"MS":1834,"section":1835,"Ni":1836,"YouTube":1837,"EP":1838,"hn":1839,"BL":1840,"1913":1841,"tiÄģo":1842,"Ju":1843,"HK":1844,"ler":1845,"2.5":1846,"âĨ":1847,"hant":1848,"gÃ¹n":1849,"1909":1850,"gin":1851,"Inter":1852,"cro":1853,"Ste":1854,"MP":1855,"AI":1856,"Ho":1857,"gÄĽng":1858,"Wor":1859,"nÃło":1860,"Po":1861,"fÄĽng":1862,"Do":1863,"luÇĴ":1864,"US":1865,"ant":1866,"go":1867,"ya":1868,"DVD":1869,"ort":1870,"zÅįu":1871,"ris":1872,"3000":1873,"Pi":1874,"cÄģ":1875,"Car":1876,"1910":1877,"RO":1878,"DS":1879,"Th":1880,"112":1881,"AK":1882,"My":1883,"pen":1884,"RE":1885,"pro":1886,"ven":1887,"1916":1888,"Station":1889,"ãĥ¼":1890,"chuÃ²":1891,"Net":1892,"Î±":1893,"Ki":1894,"Sch":1895,"olo":1896,"No":1897,"ari":1898,"ture":1899,"gn":1900,"Lin":1901,"CP":1902,"UN":1903,"gle":1904,"âĪ":1905,"ers":1906,"hÃ©n":1907,"1915":1908,"oun":1909,"niÃłng":1910,"1905":1911,"FC":1912,"my":1913,"Lu":1914,"ll":1915,"Wil":1916,"CN":1917,"âĦ":1918,"âĨĴ":1919,"1901":1920,"Fa":1921,"Au":1922,"ting":1923,"New":1924,"DNA":1925,"Ex":1926,"âĢ§":1927,"ary":1928,"900":1929,"Ph":1930,"sic":1931,"HR":1932,"dice":1933,"sis":1934,".&":1935,"CH":1936,"zÄĽn":1937,"TA":1938,"dia":1939,"Qu":1940,"TO":1941,"1906":1942,"len":1943,"1904":1944,"chuÇİng":1945,"2.0":1946,"AV":1947,"For":1948,"gÄĽn":1949,"John":1950,"we":1951,"ere":1952,"And":1953,"MO":1954,"ding":1955,"codice":1956,"chÇİo":1957,"jiÇĴng":1958,"âĦĥ":1959,"Ta":1960,"pa":1961,"ps":1962,"PlayStation":1963,"fu":1964,"ko":1965,"wÃł":1966,"bÃ¨ng":1967,"05":1968,"CC":1969,"ton":1970,"vo":1971,"eri":1972,"diÅ«":1973,"1907":1974,"1908":1975,"Google":1976,"AG":1977,"EST":1978,"0.5":1979,"MI":1980,"zuÃłn":1981,"SO":1982,"ory":1983,"tes":1984,"LE":1985,"Gu":1986,"jiÃ¡":1987,"zuÇİn":1988,"cy":1989,"lÄ«":1990,"chi":1991,"ley":1992,"BO":1993,"enter":1994,"BBC":1995,"AD":1996,"IG":1997,"cal":1998,"III":1999,"Cu":2000,"4.":2001,"cri":2002,"oft":2003,"1500":2004,"Ru":2005,"lin":2006,"5000":2007,"ori":2008,"zuÄģn":2009,"pu":2010,"Go":2011,"IST":2012,"shÄĵ":2013,"lÇĺ":2014,"Fe":2015,"Col":2016,"wor":2017,"Sy":2018,"Ka":2019,"ME":2020,"tive":2021,"CR":2022,"gen":2023,"3D":2024,"wit":2025,"round":2026,"6.":2027,"IA":2028,"guÇİ":2029,"105":2030,"je":2031,"ron":2032,"mÃł":2033,"Ð°":2034,"101":2035,"1903":2036,"GB":2037,"pÄ«ng":2038,"cha":2039,"shÃ¡":2040,"lan":2041,"09":2042,"TE":2043,"ree":2044,"Ad":2045,"Hu":2046,"cÃłn":2047,"cÃ©n":2048,"1902":2049,"BD":2050,"NC":2051,"land":2052,"can":2053,"ze":2054,"own":2055,"ess":2056,"pÄģng":2057,"xt":2058,"350":2059,"wa":2060,"ina":2061,"SAO":2062,"shÃ¡o":2063,"5.":2064,"DC":2065,"net":2066,"span":2067,"des":2068,"Î²":2069,"ght":2070,"lÃ¬n":2071,"ence":2072,"B1900":2073,"inc":2074,"B1900.0":2075,"book":2076,"del":2077,"ES":2078,"BM":2079,"ï¼İ":2080,"dy":2081,"ãĥ³":2082,"Hi":2083,"1898":2084,"06":2085,"118":2086,"Pe":2087,"ms":2088,"ãģ®":2089,"lÃ¡":2090,"pt":2091,"qÇĲn":2092,"tel":2093,"360":2094,"DR":2095,"mon":2096,"01":2097,"DA":2098,"gh":2099,"Open":2100,"1895":2101,"lÃło":2102,"yle":2103,"125":2104,"mÃº":2105,"lar":2106,"bÃ¨n":2107,"3.5":2108,"HO":2109,"Ko":2110,"1%":2111,"MC":2112,"ance":2113,"ATP":2114,"Micro":2115,"Ð¾":2116,"108":2117,"gy":2118,"2%":2119,"NG":2120,"pÅįu":2121,"igh":2122,"sy":2123,"cor":2124,"tt":2125,"dio":2126,"Ke":2127,"qiÃ©":2128,"za":2129,"App":2130,"Pu":2131,"ning":2132,"gram":2133,"IF":2134,"Fran":2135,"ft":2136,"res":2137,"Com":2138,"tin":2139,"âĪĴ":2140,"07":2141,"08":2142,"230":2143,"Face":2144,"104":2145,"Du":2146,"ref":2147,"One":2148,"World":2149,"old":2150,"Ser":2151,"soft":2152,"EDT":2153,"ISTAT":2154,"Mon":2155,"Stu":2156,"shÄģi":2157,".5%":2158,"sÇĴng":2159,"à¤":2160,"NO":2161,"ner":2162,"1896":2163,"Cor":2164,"LL":2165,"Bi":2166,"ger":2167,"lus":2168,"109":2169,"DP":2170,"yÅ«":2171,"las":2172,"AA":2173,"fli":2174,"Comp":2175,"rea":2176,"gÄĽ":2177,"RI":2178,"vel":2179,"ren":2180,"line":2181,"RT":2182,"suÇĲ":2183,"SP":2184,"xiÃ¡o":2185,"qiÇİ":2186,"EX":2187,"rÄĽ":2188,"Bar":2189,"Bri":2190,"ling":2191,"bert":2192,"B48":2193,"106":2194,"1890":2195,"ctor":2196,"CST":2197,"San":2198,"ML":2199,"CDT":2200,"Love":2201,"ity":2202,"mar":2203,"3%":2204,"zÄģng":2205,"row":2206,"DO":2207,"with":2208,"HE":2209,"fa":2210,"Per":2211,"pÄĵi":2212,"ward":2213,"Har":2214,"Man":2215,"ds":2216,"tional":2217,"tain":2218,"ja":2219,"04":2220,"4000":2221,"115":2222,"cuÃłn":2223,"1200":2224,"ky":2225,"ux":2226,"ound":2227,"ight":2228,"M1":2229,"50%":2230,"03":2231,"GP":2232,"pÃ¡o":2233,"CE":2234,"back":2235,"1889":2236,"begin":2237,"6%":2238,"Je":2239,"1899":2240,"ool":2241,"colspan":2242,"1871":2243,"ring":2244,"Ed":2245,"RS":2246,"ower":2247,"mic":2248,"Facebook":2249,"lude":2250,"Willi":2251,"Microsoft":2252,"âĢĭ":2253,"240":2254,"tur":2255,"Mac":2256,"1600":2257,"LO":2258,"Live":2259,"BE":2260,"cket":2261,"102":2262,"cc":2263,"ker":2264,"10%":2265,"box":2266,"TT":2267,"1897":2268,"Gi":2269,"NH":2270,"EE":2271,"chÃ²u":2272,"Pre":2273,"Tri":2274,"117":2275,"On":2276,"PP":2277,"qÃ¬n":2278,"4%":2279,"ks":2280,"Is":2281,"SC":2282,"02":2283,"van":2284,"5%":2285,"cm":2286,"shuÇİng":2287,"style":2288,"mb":2289,"103":2290,"AKB48":2291,"MD":2292,"yÇİo":2293,"107":2294,"Gra":2295,"bli":2296,"Music":2297,"Gre":2298,"ood":2299,"cÃ²u":2300,"0.00":2301,"Linux":2302,"include":2303,"Dis":2304,"Or":2305,"Tra":2306,"Pri":2307,"tÇİng":2308,"ww":2309,"Nor":2310,"pha":2311,"min":2312,"8%":2313,"Ori":2314,"ye":2315,"only":2316,"450":2317,"VID":2318,"tus":2319,"127":2320,"mas":2321,"tra":2322,"Davi":2323,"que":2324,"ane":2325,"128":2326,"align":2327,"4.5":2328,"lÄģo":2329,"lis":2330,"ous":2331,"1.2":2332,"Game":2333,"flix":2334,"9%":2335,"CL":2336,"ora":2337,"Netflix":2338,"El":2339,"1894":2340,"220":2341,"rin":2342,"Ber":2343,"Ð½":2344,"ser":2345,"William":2346,"IL":2347,"Vo":2348,"SH":2349,"sti":2350,"rom":2351,"Twit":2352,"1880":2353,"Red":2354,"yi":2355,"RNA":2356,"zÃ¡o":2357,"136":2358,"PG":2359,"Fu":2360,"Ð¸":2361,"ero":2362,"ãģĦ":2363,"TR":2364,"20%":2365,"stra":2366,"Team":2367,"7%":2368,"1800":2369,"Wa":2370,"ãĤ¹":2371,"Univer":2372,"ground":2373,"tor":2374,"1885":2375,"nge":2376,"liÇİ":2377,"114":2378,"ano":2379,"ãĤĵ":2380,"piÃ¡n":2381,"rus":2382,"Hz":2383,"Ty":2384,"Char":2385,"color":2386,"116":2387,"280":2388,"name":2389,"Star":2390,"Eu":2391,"Gen":2392,"UR":2393,"hy":2394,"Ðµ":2395,"113":2396,"era":2397,"lla":2398,"1886":2399,"7.":2400,"sing":2401,"ãĤ¤":2402,"TS":2403,"ten":2404,"School":2405,"PO":2406,"mÇİng":2407,"lass":2408,"1893":2409,".9%":2410,"irl":2411,"Bla":2412,"Mc":2413,"ex":2414,"1.8":2415,"nic":2416,"out":2417,"111":2418,"Mark":2419,"SL":2420,"irst":2421,"ãĦ":2422,".8%":2423,"cial":2424,"Super":2425,"Don":2426,"ac":2427,".4%":2428,"Wal":2429,".3%":2430,"ject":2431,"lex":2432,"mÇĴ":2433,"ans":2434,"âĢ»":2435,"tri":2436,"lia":2437,"ie":2438,"mÅį":2439,"135":2440,".7%":2441,"David":2442,"260":2443,"1860":2444,"90%":2445,"national":2446,"Geor":2447,"Mor":2448,"ys":2449,"nÃŃn":2450,"gue":2451,"tle":2452,"any":2453,"5.5":2454,"Pet":2455,"WTA":2456,"way":2457,".1%":2458,"roup":2459,"HC":2460,"Mat":2461,"80%":2462,"8.":2463,"nis":2464,"ces":2465,"UA":2466,"Un":2467,"was":2468,"ouse":2469,"ham":2470,"1888":2471,".2%":2472,"Ac":2473,"text":2474,".6%":2475,"SD":2476,"-.":2477,"cation":2478,"Bra":2479,"ony":2480,"roid":2481,"1.6":2482,"background":2483,"yÅ«n":2484,"dÇİi":2485,"ream":2486,"Show":2487,"129":2488,"GO":2489,"om":2490,"chÄĵn":2491,"1870":2492,"stri":2493,"GN":2494,"ï¹":2495,"30%":2496,"Che":2497,"nia":2498,"1887":2499,"bur":2500,"don":2501,"pri":2502,"shuÄģn":2503,"1868":2504,"6000":2505,"cle":2506,"Ã¶":2507,"ÑĢ":2508,"1883":2509,"Cy":2510,"NF":2511,"VA":2512,"lub":2513,"meri":2514,"Ku":2515,"ank":2516,"Meta":2517,"320":2518,"Ab":2519,"Xbox":2520,"CS":2521,"NHK":2522,"AF":2523,"DD":2524,"Twitter":2525,"KP":2526,"ny":2527,"onlyinclude":2528,"Tho":2529,"ens":2530,"piÃ¡o":2531,"++":2532,"bit":2533,"tÃłng":2534,"1864":2535,"âĢ¢":2536,"ION":2537,"1884":2538,"119":2539,"RC":2540,"UE":2541,"tis":2542,"122":2543,"Cl":2544,"2500":2545,"1892":2546,"210":2547,"6.5":2548,"A1":2549,"ong":2550,"ins":2551,"Wh":2552,"center":2553,"let":2554,"miÃ¹":2555,"155":2556,"Sou":2557,"ISO":2558,"âħ":2559,"145":2560,"1891":2561,"650":2562,"7.5":2563,"9.":2564,"pre":2565,"Android":2566,"Girl":2567,"sel":2568,"NS":2569,"car":2570,"vil":2571,"ãĢķ":2572,"sil":2573,"OR":2574,"yo":2575,"As":2576,"ãĢĶ":2577,"1850":2578,"ona":2579,"cuÅį":2580,"htt":2581,"red":2582,"low":2583,"xy":2584,"ensis":2585,"International":2586,"Day":2587,"cer":2588,"mÄ«":2589,"1867":2590,"stem":2591,"IM":2592,"pÃłng":2593,"ãĥĪ":2594,"All":2595,"Nation":2596,"sed":2597,"1879":2598,"mber":2599,"James":2600,"Enter":2601,"War":2602,"ffi":2603,"380":2604,"AB":2605,"UP":2606,"dis":2607,"40%":2608,"1876":2609,"Coun":2610,"Ver":2611,"1.4":2612,"Universi":2613,"im":2614,"vin":2615,"George":2616,"Her":2617,"1875":2618,"1861":2619,"270":2620,"Dra":2621,"td":2622,"lie":2623,"sia":2624,"eld":2625,"Air":2626,"Group":2627,"IR":2628,"cho":2629,"time":2630,"126":2631,"ama":2632,"2.4":2633,"NT":2634,"Pau":2635,"lor":2636,"inter":2637,"Ani":2638,"Spe":2639,"Games":2640,"NGC":2641,"Hy":2642,"stru":2643,"ãĥ«":2644,"1873":2645,"Hol":2646,"MG":2647,"123":2648,"ãĥ©":2649,"Eng":2650,"PV":2651,"100%":2652,"Ben":2653,"HT":2654,"val":2655,"Colle":2656,"day":2657,"MB":2658,"168":2659,"COVID":2660,"critic":2661,"Club":2662,"FM":2663,"Hen":2664,"lue":2665,"1865":2666,"ild":2667,"AO":2668,"PL":2669,"that":2670,"ass":2671,"Ameri":2672,"DE":2673,"121":2674,"Center":2675,"ut":2676,"cus":2677,"1.0":2678,"Blo":2679,"175":2680,"ãģĨ":2681,"Web":2682,"H2":2683,"YP":2684,"from":2685,"Ã¤":2686,"1400":2687,"Ali":2688,"od":2689,"MAX":2690,"work":2691,"par":2692,"138":2693,"228":2694,"TP":2695,"fer":2696,"1848":2697,"chÃłn":2698,"1.3":2699,"ast":2700,"ald":2701,"ney":2702,"liÅ«":2703,"1862":2704,"60%":2705,"330":2706,"dge":2707,"pÄĽng":2708,"124":2709,"ãĤ¢":2710,"1881":2711,"1882":2712,"737":2713,"age":2714,"Can":2715,"1878":2716,"550":2717,"Sha":2718,"guÇİi":2719,"ruÇĲ":2720,"1872":2721,"Ele":2722,"LC":2723,"bÃ¬n":2724,"70%":2725,"INK":2726,"Metacritic":2727,"Oricon":2728,"bor":2729,"nÃ¡o":2730,"156":2731,"MTV":2732,"UC":2733,"bri":2734,"165":2735,"comp":2736,"Boo":2737,"LED":2738,"fo":2739,"1840":2740,"niÇİn":2741,"IVE":2742,"High":2743,"Spi":2744,"core":2745,"dÄģi":2746,"wan":2747,"750":2748,"It":2749,"ns":2750,"tro":2751,"shÃłi":2752,"ãĥĥ":2753,"ology":2754,"ming":2755,"1300":2756,"ãģĹ":2757,"137":2758,"stagram":2759,"7000":2760,"1.1":2761,"93.":2762,"Bro":2763,"DOS":2764,"SQ":2765,"UB":2766,"229":2767,"IU":2768,"cre":2769,"zo":2770,"Chu":2771,"GDP":2772,"King":2773,"OK":2774,"Ñģ":2775,"ena":2776,"2.2":2777,"Lea":2778,"She":2779,"rand":2780,"152":2781,"als":2782,"Stre":2783,"TVB":2784,"Micha":2785,"Va":2786,"lip":2787,"159":2788,"1877":2789,"Robert":2790,"type":2791,"Sur":2792,"âĹ":2793,"kuÇĲ":2794,"1866":2795,"rist":2796,"Chi":2797,"Chris":2798,"Pat":2799,"iOS":2800,"Ð»":2801,"oly":2802,"Produ":2803,"SK":2804,"1869":2805,"âĢ²":2806,"silver":2807,"THE":2808,"Up":2809,"4.0":2810,"Ce":2811,"DM":2812,"gar":2813,"her":2814,"sen":2815,"xiÇĶ":2816,"15%":2817,"Fri":2818,"NET":2819,"Pla":2820,"2.8":2821,"Ðº":2822,"she":2823,"139":2824,"Instagram":2825,"Phone":2826,"BI":2827,"C++":2828,"star":2829,"BLAC":2830,"Type":2831,"Big":2832,"por":2833,"Ð²":2834,"DJ":2835,"rÄĵng":2836,"0.3":2837,"iss":2838,"Apple":2839,"CG":2840,"Hel":2841,"WE":2842,"ew":2843,"ray":2844,"ãĤ¯":2845,"code":2846,"Michael":2847,"At":2848,"DF":2849,"ï¸":2850,"ark":2851,"alk":2852,"1100":2853,"158":2854,"ons":2855,"ator":2856,"Tech":2857,"Paul":2858,"225":2859,"305":2860,"133":2861,"INE":2862,"cia":2863,"RA":2864,"sÇİ":2865,"ãĥª":2866,"Award":2867,"HI":2868,"YO":2869,"132":2870,"Steam":2871,"205":2872,"1863":2873,"Park":2874,"National":2875,"Bill":2876,"Ye":2877,"25%":2878,"1.7":2879,"tainment":2880,"215":2881,"Ci":2882,"bra":2883,"sto":2884,"new":2885,"University":2886,"FO":2887,"ral":2888,"3.6":2889,"Media":2890,"CA":2891,"F1":2892,"KBS":2893,"Val":2894,"148":2895,"131":2896,"Lou":2897,"Smi":2898,"166":2899,"arch":2900,"2.7":2901,"1874":2902,"sso":2903,"EF":2904,"Mer":2905,"XX":2906,"bal":2907,"kg":2908,"now":2909,"1858":2910,"Fin":2911,"Kar":2912,"Tran":2913,"gon":2914,"ves":2915,"147":2916,"2.6":2917,"space":2918,"Black":2919,"Ter":2920,"ach":2921,"gan":2922,"Peter":2923,"Gar":2924,"deo":2925,"256":2926,"ãģĭ":2927,"GA":2928,"IE":2929,"M2":2930,"kÇĶn":2931,"1830":2932,"2.3":2933,"Rich":2934,"CBS":2935,"UT":2936,"1851":2937,"Lee":2938,"BN":2939,"UI":2940,"192":2941,"zer":2942,"Î¼":2943,"ada":2944,"8000":2945,"chÄĽ":2946,"3.0":2947,"Jack":2948,"Entertainment":2949,"310":2950,"4.8":2951,"Jap":2952,"Win":2953,"lÇĲn":2954,"bin":2955,"mini":2956,"143":2957,"set":2958,"City":2959,"Mk":2960,"gÃłng":2961,"1855":2962,"rie":2963,"ater":2964,"Intel":2965,"Power":2966,"EM":2967,"IX":2968,"Sam":2969,"hÇİ":2970,"Space":2971,"RAM":2972,"ð«":2973,"185":2974,"1859":2975,"zuÃ³":2976,"STAR":2977,"ship":2978,"Charles":2979,"bel":2980,"py":2981,"134":2982,"Dire":2983,"Ang":2984,"ABC":2985,"Fla":2986,"ene":2987,"1854":2988,"146":2989,"301":2990,"enti":2991,"1700":2992,"Viu":2993,"Java":2994,"370":2995,"if":2996,"1857":2997,"Free":2998,"GM":2999,"Py":3000,"Tai":3001,"whi":3002,"stro":3003,"vs":3004,"Ø§":3005,"10.":3006,"ann":3007,"290":3008,"ãģª":3009,"Life":3010,"ï¸°":3011,"Er":3012,"Pan":3013,"Ve":3014,"Î³":3015,"214":3016,"420":3017,"Dream":3018,"Ya":3019,"ÑĤ":3020,"1.9":3021,"Recor":3022,"Alpha":3023,"Company":3024,"stitu":3025,"ek":3026,"fang":3027,"face":3028,"Î¿":3029,"ãĢľ":3030,"mis":3031,"1856":3032,"1853":3033,"Project":3034,"Am":3035,"House":3036,"Pop":3037,"first":3038,"dium":3039,"ãģŁ":3040,"ety":3041,"Time":3042,"Thomas":3043,"Cal":3044,"Min":3045,"ae":3046,"ox":3047,"von":3048,"vis":3049,"144":3050,"Saint":3051,"FA":3052,"Ken":3053,"OVA":3054,"75%":3055,"Cent":3056,"Tru":3057,"VO":3058,"bÃ²":3059,"A2":3060,"IO":3061,"167":3062,"Street":3063,"3A":3064,"HS":3065,"SBS":3066,"shÇİ":3067,"bili":3068,"kuÇİ":3069,"1841":3070,"very":3071,"Alex":3072,"Bat":3073,"LP":3074,"Lau":3075,"Tor":3076,"din":3077,"ric":3078,"340":3079,"PM":3080,"Por":3081,"Shi":3082,"chuÇİn":3083,"mat":3084,"mation":3085,"BLACKP":3086,"7.6":3087,"92.":3088,"Met":3089,"ple":3090,"zÄģ":3091,"208":3092,"1815":3093,"178":3094,"CPU":3095,"BLACKPINK":3096,"223":3097,"33.":3098,"Bur":3099,"cis":3100,"mÃ¨n":3101,"Soci":3102,"Studio":3103,"Euro":3104,"850":3105,"LGB":3106,"Sing":3107,"pla":3108,"cher":3109,"zuÅį":3110,"ses":3111,"Rock":3112,"www":3113,"IBM":3114,"spe":3115,"SF":3116,"207":3117,"die":3118,"play":3119,"sg":3120,"nie":3121,"171":3122,"235":3123,"tation":3124,"ãģ¨":3125,"ãģ¾":3126,"Dig":3127,"Fer":3128,"LIVE":3129,"Mr":3130,"PE":3131,"SU":3132,"VE":3133,"Yu":3134,"nÃ¬ng":3135,"203":3136,"B2":3137,"Whi":3138,"not":3139,"Art":3140,"SQL":3141,"Pad":3142,"1846":3143,"164":3144,"ford":3145,"oot":3146,"College":3147,"bre":3148,"cra":3149,"157":3150,"vice":3151,"berg":3152,"publi":3153,"BR":3154,"LT":3155,"NE":3156,"lit":3157,"141":3158,"ICE":3159,"4.7":3160,"4.6":3161,"8.5":3162,"B1":3163,"Cro":3164,"Cap":3165,"Sun":3166,"ond":3167,"176":3168,"thy":3169,"ING":3170,"board":3171,"Inc":3172,"Tele":3173,"American":3174,"Asso":3175,"LS":3176,"hÄģn":3177,"you":3178,"Â²":3179,"1812":3180,"1845":3181,"1844":3182,"sign":3183,"3.2":3184,"Road":3185,"Girls":3186,"self":3187,"Ze":3188,"sch":3189,"mit":3190,"231":3191,"Offi":3192,"cture":3193,"class":3194,"HF":3195,"Ltd":3196,"M3":3197,"Mil":3198,"Ros":3199,"ãĤĬ":3200,"witch":3201,"LGBT":3202,"Ag":3203,"ball":3204,"209":3205,"cess":3206,"ãģį":3207,"off":3208,"2.1":3209,"2.9":3210,"NASA":3211,"GNU":3212,"LA":3213,"wÄģi":3214,"ded":3215,"Jose":3216,"Smith":3217,"Cla":3218,"Ger":3219,"PA":3220,"Pra":3221,"ampi":3222,"IUCN":3223,"216":3224,"PN":3225,"Îº":3226,"1849":3227,"153":3228,"temp":3229,"ved":3230,"Good":3231,"CT":3232,"Fil":3233,"NBC":3234,"Tour":3235,"wh":3236,"zhÇĴu":3237,"sha":3238,"204":3239,"238":3240,"aurus":3241,"Production":3242,"BB":3243,"Cra":3244,"Gal":3245,"Hall":3246,"Sci":3247,"nal":3248,"oi":3249,"yn":3250,"vision":3251,"Video":3252,"Gala":3253,"GT":3254,"O2":3255,"lÄĵ":3256,"pm":3257,"ue":3258,"Ïĥ":3259,"mited":3260,"orts":3261,"ino":3262,"tions":3263,"Eli":3264,"PR":3265,"Sky":3266,"tal":3267,"206":3268,"lea":3269,"qui":3270,"mac":3271,"460":3272,"5.0":3273,"ab":3274,"mal":3275,"win":3276,"1814":3277,"org":3278,"218":3279,"ani":3280,"fra":3281,"eries":3282,"Richard":3283,"SI":3284,"lti":3285,"war":3286,"chÇĶn":3287,"rich":3288,"ange":3289,"IGN":3290,"5.8":3291,"Act":3292,"LD":3293,"âĸ":3294,"pic":3295,"Boy":3296,"Far":3297,"Tur":3298,"WS":3299,"ÏĢ":3300,"def":3301,"1847":3302,"154":3303,"3.4":3304,"turn":3305,"580":3306,"6.0":3307,"Ama":3308,"FF":3309,"bun":3310,"ep":3311,"fri":3312,"led":3313,"1843":3314,"mann":3315,"Best":3316,"phy":3317,"System":3318,"ptr":3319,"430":3320,"Mas":3321,"MBC":3322,"Plan":3323,"zz":3324,"177":3325,"401":3326,"chem":3327,"410":3328,"Bel":3329,"Sal":3330,"ãĤ·":3331,"NFL":3332,"ViuTV":3333,"Switch":3334,"Wo":3335,"king":3336,"163":3337,"0.2":3338,"AMD":3339,"API":3340,"West":3341,"Japan":3342,"ICO":3343,"bar":3344,"bus":3345,"up":3346,"ments":3347,"1852":3348,"162":3349,"thon":3350,"esti":3351,"Christ":3352,"cript":3353,"VII":3354,"1820":3355,"11.":3356,"orn":3357,"get":3358,"this":3359,"ãģı":3360,"Max":3361,"Fre":3362,"Prin":3363,"cil":3364,"142":3365,"234":3366,"ria":3367,"Roy":3368,"5.7":3369,"VR":3370,"172":3371,"ãģĬ":3372,"ãģķ":3373,"Records":3374,"640":3375,"Dan":3376,"Squ":3377,"Vir":3378,"wood":3379,"169":3380,"3500":3381,"Limited":3382,"Core":3383,"KC":3384,"T1":3385,"gs":3386,"phi":3387,"Â±":3388,"1839":3389,"ars":3390,"232":3391,"3.7":3392,"data":3393,"480":3394,"CM":3395,"cÄ«":3396,"179":3397,"thi":3398,"cade":3399,"ful":3400,"2030":3401,"eni":3402,"149":3403,"0.1":3404,"max":3405,"365":3406,"3.3":3407,"Institu":3408,"How":3409,"var":3410,"1821":3411,"ãĥŃ":3412,"ãģ¿":3413,"Cha":3414,"aya":3415,"Unicode":3416,"ROM":3417,"CCTV":3418,"390":3419,"BU":3420,"Res":3421,"Vol":3422,"XP":3423,"ness":3424,"tv":3425,"306":3426,"alo":3427,"222":3428,"601":3429,"0.4":3430,"unch":3431,"5.9":3432,"Fan":3433,"tube":3434,"173":3435,"itch":3436,"Bob":3437,"EA":3438,"PF":3439,"12.":3440,"247":3441,"ital":3442,"Camp":3443,"KK":3444,"lian":3445,"ping":3446,"1790":3447,"ders":3448,"211":3449,"560":3450,"Fun":3451,"OH":3452,"SN":3453,"kh":3454,"wid":3455,"ord":3456,"ãĥ¬":3457,"ciation":3458,"BF":3459,"Es":3460,"Top":3461,"VM":3462,"tran":3463,"3.8":3464,"Force":3465,"Hot":3466,"MU":3467,"PD":3468,"PH":3469,"Sir":3470,"shuÇİ":3471,"183":3472,"1795":3473,"303":3474,"rew":3475,"âĹĭ":3476,"use":3477,"lum":3478,"233":3479,"search":3480,"ãģ¡":3481,"1801":3482,"213":3483,"Tok":3484,"wÃ¨ng":3485,"ãĥŀ":3486,".0%":3487,"USB":3488,"dra":3489,"sub":3490,"174":3491,"run":3492,"3.1":3493,"Mag":3494,"MVP":3495,"CK":3496,"lli":3497,"zon":3498,"Ïģ":3499,"áĢ":3500,"ìĿ":3501,"186":3502,"1838":3503,"ors":3504,"Store":3505,"key":3506,"Heart":3507,"Direct":3508,"520":3509,"Bank":3510,"DDR":3511,"Glo":3512,"Zi":3513,"zy":3514,"mily":3515,"cker":3516,"Jean":3517,"610":3518,"Fle":3519,"iPad":3520,"rÇĴng":3521,"bile":3522,"161":3523,"501":3524,"ãĥī":3525,"Home":3526,"http":3527,"224":3528,"CF":3529,"Pen":3530,"ele":3531,"mg":3532,"sur":3533,"tia":3534,"1813":3535,"ãĤī":3536,"Phil":3537,"GE":3538,"Lon":3539,"kin":3540,"tz":3541,"ÏĦ":3542,"ense":3543,"182":3544,"1832":3545,"1842":3546,"lation":3547,"255":3548,"its":3549,"Society":3550,"AE":3551,"Gold":3552,"Han":3553,"Sco":3554,"fter":3555,"iPhone":3556,"184":3557,"0.6":3558,"ãĤ«":3559,"los":3560,"Mini":3561,"Data":3562,"720":3563,"KI":3564,"Script":3565,"dd":3566,"ise":3567,"âĺ":3568,"1836":3569,"late":3570,"1793":3571,"ãĤª":3572,"Comic":3573,"ving":3574,"Muse":3575,"KiHa":3576,"buntu":3577,"221":3578,"Cri":3579,"Dr":3580,"HBO":3581,"MT":3582,"Mel":3583,"Tun":3584,"gre":3585,"hÇĴu":3586,"tian":3587,"1833":3588,"nity":3589,"1789":3590,"tics":3591,"River":3592,"ount":3593,"https":3594,"Association":3595,"Galaxy":3596,"Bay":3597,"DAM":3598,"M4":3599,"QQ":3600,"cl":3601,"fin":3602,"nga":3603,"ties":3604,"1835":3605,"151":3606,"tho":3607,"ãĤ¿":3608,"ady":3609,"219":3610,"217":3611,"338":3612,"5.6":3613,"6.7":3614,"Cry":3615,"FT":3616,"JYP":3617,"Rap":3618,"SR":3619,"Ubuntu":3620,"WA":3621,"fy":3622,"lon":3623,"ðĲ":3624,"shang":3625,"âĢ°":3626,"tha":3627,"Martin":3628,"1804":3629,"ONE":3630,"CEO":3631,"width":3632,"470":3633,"740":3634,"830":3635,"nt":3636,"light":3637,"form":3638,"Tom":3639,"Henry":3640,"League":3641,"YG":3642,"dro":3643,"well":3644,"ÏĤ":3645,"Ð´":3646,"âī":3647,"Champi":3648,"Master":3649,".81":3650,"Gener":3651,"Ear":3652,"Fra":3653,"LINE":3654,"Phi":3655,"Vil":3656,"gÃł":3657,"uni":3658,"Î½":3659,"chel":3660,"mus":3661,"amer":3662,"top":3663,"ART":3664,"Green":3665,"ville":3666,"212":3667,"DK":3668,"cti":3669,"has":3670,"nm":3671,"Ñĥ":3672,"less":3673,"1828":3674,"0.7":3675,"ãĤ³":3676,"oper":3677,"APAN":3678,"rown":3679,"0%":3680,"Dy":3681,"Dou":3682,"FR":3683,"Mana":3684,"Night":3685,"Pin":3686,"ag":3687,"har":3688,"oni":3689,"191":3690,"dit":3691,"302":3692,"table":3693,"0.8":3694,"95%":3695,"Billboard":3696,"Office":3697,"680":3698,"Br":3699,"Bal":3700,"Jan":3701,"MHz":3702,"PI":3703,"SNH":3704,"ban":3705,"bro":3706,"kar":3707,"Î¹":3708,"181":3709,"1624":3710,"sts":3711,"237":3712,"side":3713,"main":3714,"ãĤĭ":3715,"China":3716,"Code":3717,"Young":3718,"cond":3719,"Note":3720,"Joseph":3721,"SNH48":3722,"4.9":3723,"Bir":3724,"Des":3725,"FDA":3726,"JAPAN":3727,"Ob":3728,"PK":3729,"à¹":3730,"á¹":3731,"1644":3732,"308":3733,"ston":3734,"0.9":3735,"Stra":3736,"COM":3737,"tical":3738,"Pala":3739,"440":3740,"DB":3741,"GR":3742,"Van":3743,"hun":3744,"tuÃŃ":3745,"10000":3746,"1837":3747,"239":3748,"than":3749,"rick":3750,"1806":3751,"Long":3752,"Song":3753,"United":3754,"Part":3755,"macOS":3756,"CV":3757,"East":3758,"MW":3759,"U21":3760,"Ã¢":3761,"Ã®":3762,"Î´":3763,"à¥":3764,"âĳ":3765,"1819":3766,"299":3767,"3.9":3768,"346":3769,"HTML":3770,"annel":3771,"780":3772,"Hill":3773,"Tw":3774,"Ten":3775,"Talk":3776,"jo":3777,"port":3778,"1825":3779,"245":3780,"236":3781,"505":3782,"279":3783,"ãģ«":3784,"Radio":3785,"Digital":3786,"540":3787,"7.8":3788,"Down":3789,"EV":3790,"H5":3791,"Ji":3792,"rpm":3793,"wn":3794,"lic":3795,"chÃ²ng":3796,"13.":3797,"sian":3798,"ella":3799,"News":3800,"325":3801,"7.9":3802,"Cat":3803,"Pas":3804,"001":3805,"1776":3806,"right":3807,"ãģĺ":3808,"long":3809,"but":3810,"dent":3811,"NCAA":3812,"Server":3813,"FAT":3814,"Sil":3815,"1818":3816,"14.":3817,"265":3818,"ãģĵ":3819,"ned":3820,"Que":3821,"Hello":3822,"Ban":3823,"Bru":3824,"Dri":3825,"Nu":3826,"Ven":3827,"Wat":3828,"1824":3829,"1831":3830,"2027":3831,"Cho":3832,"Hist":3833,"Kong":3834,"Em":3835,"GS":3836,"RPG":3837,"pr":3838,"Ã§":3839,"Ã´":3840,"tum":3841,"med":3842,"386":3843,"Child":3844,"Service":3845,"âħ¡":3846,"51.":3847,"UM":3848,"bet":3849,"hur":3850,"sual":3851,"rome":3852,"via":3853,"BSD":3854,"Frank":3855,"Island":3856,"Python":3857,"public":3858,"Science":3859,"1A":3860,"Blue":3861,"CW":3862,"Fore":3863,"XML":3864,"clo":3865,"Î»":3866,"275":3867,"2700":3868,"anda":3869,"Youtube":3870,"Jump":3871,"Edward":3872,"Under":3873,"White":3874,"312":3875,"5G":3876,"730":3877,"Bor":3878,"First":3879,"Grand":3880,"HL":3881,"OM":3882,"Poly":3883,"TBS":3884,"hÄģo":3885,"nes":3886,"rey":3887,"264":3888,"295":3889,"1802":3890,"BLUE":3891,"Institute":3892,"Champion":3893,"32.":3894,"630":3895,"Hor":3896,"Out":3897,"Sum":3898,"TM":3899,"ben":3900,"fun":3901,"sus":3902,"1822":3903,"niÄĵ":3904,"288":3905,"ration":3906,"ãĤ¸":3907,"aka":3908,"Envi":3909,"4.2":3910,"6.8":3911,"Cas":3912,"Lan":3913,"Les":3914,"Os":3915,"other":3916,"plo":3917,"pop":3918,"ÙĦ":3919,"list":3920,"lang":3921,"ared":3922,"244":3923,"ãĥķ":3924,"vate":3925,"ITF":3926,"2D":3927,"6.9":3928,"Gro":3929,"JT":3930,"Sof":3931,"cent":3932,"em":3933,"xel":3934,"launch":3935,"249":3936,"35%":3937,"903":3938,"North":3939,"Square":3940,"6.6":3941,"OT":3942,"PID":3943,"Series":3944,"ul":3945,"zation":3946,"Å¡":3947,"243":3948,"2800":3949,"Your":3950,"Hong":3951,"This":3952,"Cup":3953,"91.":3954,"FX":3955,"Lang":3956,"NP":3957,"__":3958,"hr":3959,"1810":3960,"15.":3961,"1622":3962,"1792":3963,"307":3964,"return":3965,"tas":3966,"701":3967,"SARS":3968,"POP":3969,"Techn":3970,"5.1":3971,"960":3972,"Cur":3973,"Ham":3974,"Ray":3975,"Sig":3976,"SHO":3977,"VV":3978,"ob":3979,"pÇİi":3980,"vy":3981,"Îµ":3982,"1650":3983,"801":3984,"view":3985,"Network":3986,"MIUI":3987,"burg":3988,"Tunes":3989,"2100":3990,"Pal":3991,"Ur":3992,"part":3993,"Ð¼":3994,"1826":3995,"anti":3996,"1573":3997,"oud":3998,"ason":3999,"cing":4000,"have":4001,"747":4002,"Cle":4003,"Jour":4004,"imp":4005,"tual":4006,"1834":4007,"304":4008,"ould":4009,"226":4010,"278":4011,"lta":4012,"ãĥŁ":4013,"ãĤĤ":4014,"375":4015,"add":4016,"1805":4017,"ACT":4018,"APP":4019,"AIR":4020,"ologi":4021,"Block":4022,"HA":4023,"Ly":4024,"Yo":4025,"hel":4026,"ii":4027,"rd":4028,"chen":4029,"007":4030,"oro":4031,"296":4032,"298":4033,"sig":4034,"385":4035,"ATA":4036,"Model":4037,"gain":4038,"Dani":4039,"Studi":4040,"335":4041,"590":4042,"9000":4043,"CU":4044,"Now":4045,"Ry":4046,"Ram":4047,"WN":4048,"ml":4049,"non":4050,"oc":4051,"Ïī":4052,"âĭ":4053,"12%":4054,"ork":4055,"1780":4056,"13%":4057,"ress":4058,"227":4059,"ãĥł":4060,"olf":4061,"map":4062,"May":4063,"Real":4064,"Sports":4065,"dings":4066,"IFA":4067,"315":4068,"63.":4069,"Gil":4070,"Jon":4071,"Op":4072,"Sc":4073,"had":4074,"iTunes":4075,"ken":4076,"Â»":4077,"251":4078,"ough":4079,"277":4080,"ato":4081,"oney":4082,"CNN":4083,"2A":4084,"Dar":4085,"Gran":4086,"Over":4087,"Ren":4088,"Rus":4089,"RFC":4090,"pH":4091,"zine":4092,"18.":4093,"1582":4094,"1799":4095,"259":4096,"246":4097,"248":4098,"1809":4099,"Internet":4100,"South":4101,"Engine":4102,"4G":4103,"530":4104,"C2":4105,"DLC":4106,"Sm":4107,"gÃ¨n":4108,"sÇİng":4109,"sin":4110,"Â«":4111,"lio":4112,"1823":4113,"ander":4114,"1621":4115,"272":4116,"rum":4117,"405":4118,"ATION":4119,"tware":4120,"1803":4121,"dae":4122,"State":4123,"stems":4124,"EEE":4125,"press":4126,"334":4127,"620":4128,"770":4129,"Class":4130,"SG":4131,"dition":4132,"lution":4133,"1625":4134,"ges":4135,"284":4136,"285":4137,"ãĤµ":4138,"Auto":4139,"Publi":4140,"311":4141,"880":4142,"Dot":4143,"Kh":4144,"Sony":4145,"VI":4146,"Ãī":4147,"á»":4148,"258":4149,"276":4150,"cur":4151,"ãģĮ":4152,"Alf":4153,"Mobile":4154,"Bus":4155,"KO":4156,"Oper":4157,"Sw":4158,"Way":4159,"XT":4160,"pres":4161,"à¦":4162,"253":4163,"aly":4164,"357":4165,"num":4166,"Maria":4167,"Moon":4168,"Wii":4169,"Pier":4170,"660":4171,"Cli":4172,"Get":4173,"NM":4174,"SV":4175,"UL":4176,"sm":4177,"Ð¹":4178,"dian":4179,"ãĥĹ":4180,"cks":4181,"STA":4182,"IPv":4183,"Unix":4184,"What":4185,"Europe":4186,"570":4187,"Cer":4188,"U19":4189,"WF":4190,"ee":4191,"mor":4192,"Ð³":4193,"tuÄģn":4194,"1827":4195,"1570":4196,"ãģĤ":4197,"gazine":4198,"Beau":4199,"0.01":4200,"Link":4201,"velop":4202,"Book":4203,"Trans":4204,"314":4205,"3DS":4206,"690":4207,"Bre":4208,"BBS":4209,"C6":4210,"DSM":4211,"IEEE":4212,"Men":4213,"SB":4214,"Sound":4215,"WWE":4216,"more":4217,"1817":4218,"1640":4219,"1636":4220,"268":4221,"402":4222,"404":4223,"ãģ¯":4224,"Regi":4225,"Rain":4226,"which":4227,"7.7":4228,"AX":4229,"Gri":4230,"blo":4231,"ini":4232,"nor":4233,"nger":4234,"laris":4235,"1775":4236,"254":4237,"ters":4238,"465":4239,"Medi":4240,"85%":4241,"Die":4242,"Tik":4243,"Francis":4244,"Commu":4245,"323":4246,"7.0":4247,"Ath":4248,"Cir":4249,"HP":4250,"OP":4251,"kÄģo":4252,"1750":4253,"309":4254,"oom":4255,"ople":4256,"Joy":4257,"fic":4258,"329":4259,"670":4260,"6.1":4261,"8.1":4262,"Dol":4263,"End":4264,"Plus":4265,"bon":4266,"pur":4267,"shing":4268,"guÄģi":4269,"1816":4270,"pin":4271,"lai":4272,"17.":4273,"fore":4274,"ãĥģ":4275,"ãĤ£":4276,"4500":4277,"Channel":4278,"cast":4279,"ings":4280,"CON":4281,"peri":4282,"TOP":4283,"Cube":4284,"Louis":4285,".-":4286,"710":4287,"910":4288,"950":4289,"DI":4290,"Imp":4291,"Lit":4292,"MK":4293,"Tro":4294,"ome":4295,"dea":4296,"pital":4297,"16%":4298,"lam":4299,"arr":4300,"241":4301,"2300":4302,"Research":4303,"ISBN":4304,"field":4305,"Poli":4306,"Film":4307,"tvN":4308,"326":4309,"Asia":4310,"Bou":4311,"Cam":4312,"Clo":4313,"PT":4314,"T2":4315,"ice":4316,"rch":4317,"try":4318,"à½":4319,"1592":4320,"45%":4321,"347":4322,"758":4323,"Stand":4324,"model":4325,"61.":4326,"Ara":4327,"Bon":4328,"DT":4329,"Lis":4330,"10.5":4331,"12.5":4332,"1628":4333,"1788":4334,"252":4335,"242":4336,"269":4337,"ãĥĭ":4338,"andy":4339,"Leon":4340,"Victor":4341,"Law":4342,"ffer":4343,"fea":4344,"tural":4345,"318":4346,"336":4347,"53.":4348,"9.5":4349,"978":4350,"Ado":4351,"CB":4352,"DL":4353,"Den":4354,"Festi":4355,"Jen":4356,"Mal":4357,"MUS":4358,"N2":4359,"O3":4360,"Tan":4361,"Tre":4362,"áĥ":4363,"char":4364,"biÄĵ":4365,"1627":4366,"1783":4367,"1791":4368,"alth":4369,"289":4370,"ros":4371,"406":4372,"ced":4373,"354":4374,"INN":4375,"Comm":4376,"Stan":4377,"app":4378,"Vista":4379,"gic":4380,"Pixel":4381,"Disney":4382,"âĸ¡":4383,"73.":4384,"90.":4385,"Acade":4386,"Cour":4387,"EL":4388,"F4":4389,"IB":4390,"LAN":4391,"LTE":4392,"OF":4393,"ich":4394,"pÄģ":4395,"tre":4396,"16.":4397,"1797":4398,"ï¼»":4399,"ï¼½":4400,"65%":4401,"Mach":4402,"556":4403,"Beat":4404,"aker":4405,"Software":4406,"Ange":4407,"DMS":4408,"TH":4409,"his":4410,"nÇİn":4411,"1779":4412,"1796":4413,"test":4414,"607":4415,"ãģ¤":4416,"ãģł":4417,"352":4418,"Mary":4419,"1808":4420,"ERT":4421,"km2":4422,"Nico":4423,"NCT":4424,"Alice":4425,"âĭ¯":4426,"321":4427,"337":4428,"4.3":4429,"A4":4430,"Ami":4431,"Sor":4432,"T3":4433,"cs":4434,"gis":4435,"ung":4436,"huÃłng":4437,"tude":4438,"1829":4439,"1778":4440,"1794":4441,"283":4442,"273":4443,"ãĥ£":4444,"ãĥĲ":4445,"ãĤ¨":4446,"cky":4447,"Visual":4448,"inese":4449,"YouTuber":4450,"ASC":4451,"Works":4452,"Elect":4453,"Battle":4454,"313":4455,"510":4456,"840":4457,"860":4458,"Foot":4459,"Mnet":4460,"Pho":4461,"llo":4462,"pat":4463,"vet":4464,"vance":4465,"Ã±":4466,"Î¸":4467,"shuÇİi":4468,"nica":4469,"night":4470,"1798":4471,"formation":4472,"22%":4473,"ãģ¦":4474,"456":4475,"372":4476,"Johan":4477,"ECT":4478,"system":4479,"Special":4480,"Awards":4481,".00":4482,"448":4483,"870":4484,"Blu":4485,"MF":4486,"Pay":4487,"io":4488,"ror":4489,"sca":4490,"18%":4491,"1580":4492,"1612":4493,"1634":4494,"1787":4495,"281":4496,"267":4497,"ãĥĩ":4498,"mad":4499,"ãģ£":4500,"ãĤ¦":4501,"nus":4502,"lost":4503,"mmy":4504,"web":4505,"Premi":4506,"Royal":4507,"Global":4508,"62.":4509,"911":4510,"DG":4511,"Fro":4512,"Mis":4513,"Oli":4514,"Set":4515,"TN":4516,"WO":4517,"dor":4518,"ev":4519,"fla":4520,"âĩ":4521,"shÇİi":4522,"hus":4523,"mina":4524,"1567":4525,"1648":4526,"alle":4527,"271":4528,"tech":4529,"ltra":4530,"Arts":4531,"ffe":4532,"BOX":4533,"Enviro":4534,"42.":4535,"52.":4536,"72.":4537,"AH":4538,"E3":4539,"Lam":4540,"MM":4541,"Mur":4542,"York":4543,"sor":4544,"19.":4545,"chuÅį":4546,"262":4547,"tai":4548,"367":4549,"vest":4550,"pedia":4551,"OSHI":4552,"Prof":4553,"const":4554,"ACE":4555,"ENT":4556,"AGA":4557,"Great":4558,"TikTok":4559,"-&":4560,"322":4561,"43.":4562,"Ah":4563,"MON":4564,"Not":4565,"OTT":4566,"Spo":4567,"VB":4568,"bian":4569,"1550":4570,"1568":4571,"ont":4572,"1615":4573,"1630":4574,"14%":4575,"286":4576,"ãĥĸ":4577,"Magazine":4578,"vern":4579,"CH3":4580,"Compu":4581,"Museum":4582,"Daniel":4583,"Festival":4584,"Brown":4585,"Cru":4586,"CAS":4587,"Dark":4588,"FBI":4589,"LG":4590,"Sau":4591,"SIG":4592,"USA":4593,"stu":4594,"12.7":4595,"piÄĵ":4596,"1645":4597,"1646":4598,"28%":4599,"read":4600,"zhÃ¡o":4601,"ãĤŃ":4602,"333":4603,".95":4604,"COLL":4605,"ARD":4606,"Secre":4607,"stein":4608,"Encore":4609,"tures":4610,"world":4611,"Online":4612,"Cloud":4613,"MUSIC":4614,"9.8":4615,"9.7":4616,"Hun":4617,"Lar":4618,"Let":4619,"cas":4620,"over":4621,"tan":4622,"Ø±":4623,"1626":4624,"stal":4625,"261":4626,"297":4627,"355":4628,"Chinese":4629,"49%":4630,"stea":4631,"Kim":4632,"328":4633,"820":4634,"Gor":4635,"Has":4636,"PRO":4637,"S2":4638,"Tou":4639,"gal":4640,"oli":4641,"sÇĴu":4642,"sco":4643,"ques":4644,"1637":4645,"2400":4646,"705":4647,"901":4648,"364":4649,"384":4650,"378":4651,"vey":4652,"33%":4653,"442":4654,"hai":4655,"cono":4656,"Point":4657,"VIDIA":4658,"General":4659,"618":4660,"70.":4661,"71.":4662,"AU":4663,"CBC":4664,"HB":4665,"NVIDIA":4666,"T48":4667,"ale":4668,"tr":4669,"Ð¡":4670,"Ñĭ":4671,"1610":4672,"1642":4673,"257":4674,"282":4675,"thing":4676,"2600":4677,"Mad":4678,"Stadium":4679,"1609":4680,"ality":4681,"stern":4682,"Exp":4683,"God":4684,"Redmi":4685,"Year":4686,"Adobe":4687,"5.4":4688,"760":4689,"767":4690,"CAN":4691,"Gol":4692,"Il":4693,"O4":4694,"Ome":4695,"U17":4696,"VC":4697,"bas":4698,"bps":4699,"jor":4700,"sk":4701,"sche":4702,"ÑĮ":4703,"deon":4704,"nior":4705,"1585":4706,"1583":4707,"13.5":4708,"hÃ¨ng":4709,"ãĤĦ":4710,"583":4711,"ctory":4712,"1807":4713,"ARM":4714,"TeX":4715,"wiki":4716,"thern":4717,"Systems":4718,"poration":4719,"930":4720,"Del":4721,"FIFA":4722,"JU":4723,"KE":4724,"OD":4725,"Town":4726,"Thun":4727,"Who":4728,"cto":4729,"dou":4730,"11%":4731,"1623":4732,"gel":4733,"274":4734,"size":4735,".04":4736,"Anto":4737,"Wiki":4738,"ï¹ĳ":4739,"H2O":4740,"trol":4741,"Taiwan":4742,"EOS":4743,"FIN":4744,"Ima":4745,"IEC":4746,"Kin":4747,"Kid":4748,"Tar":4749,"Won":4750,"ah":4751,"cat":4752,"esta":4753,"ket":4754,"tina":4755,"11.5":4756,"1571":4757,"17%":4758,"1784":4759,"263":4760,"509":4761,"293":4762,"351":4763,"osaurus":4764,"999":4765,"Deep":4766,"mod":4767,"value":4768,"Archi":4769,"Cast":4770,".10":4771,"2200":4772,"428":4773,"5.2":4774,"AJ":4775,"GUN":4776,"Tay":4777,"xx":4778,"1620":4779,"1723":4780,"1786":4781,"inte":4782,"stre":4783,"504":4784,"lton":4785,"ãĥ¥":4786,"353":4787,"395":4788,"beth":4789,"43%":4790,"Solaris":4791,"Post":4792,"private":4793,"Metro":4794,"clol":4795,"Manage":4796,"DotA":4797,"419":4798,"432":4799,"A3":4800,"FN":4801,"Fly":4802,"GL":4803,"Hap":4804,"Ron":4805,"bb":4806,"cci":4807,"card":4808,"ctive":4809,"pra":4810,"ìķ":4811,"1450":4812,"curi":4813,"ãģĻ":4814,"Chan":4815,"vers":4816,"Mike":4817,"ource":4818,"Key":4819,"LOVE":4820,"Market":4821,"Studios":4822,"Little":4823,"427":4824,"4.1":4825,"Band":4826,"Cine":4827,"FE":4828,"HIV":4829,"K6":4830,"Line":4831,"Rou":4832,"VPN":4833,"zÃ¨":4834,"Äį":4835,"like":4836,"zilla":4837,"1577":4838,"1618":4839,"1643":4840,"rop":4841,"sey":4842,"387":4843,"399":4844,".82":4845,".83":4846,"cts":4847,"ellow":4848,"ountain":4849,"Fleet":4850,"Technology":4851,"317":4852,"331":4853,"345":4854,"512":4855,"565":4856,"H1":4857,"MY":4858,"R2":4859,"S1":4860,"U18":4861,"USS":4862,"Ultra":4863,"bes":4864,"gg":4865,"lÅ«":4866,"Ñı":4867,"1586":4868,"lau":4869,"1777":4870,"1453":4871,"into":4872,"21%":4873,"sty":4874,"stan":4875,"sit":4876,"806":4877,"base":4878,"CDMA":4879,"Stage":4880,"Radeon":4881,"aki":4882,"Union":4883,"ALL":4884,"Valve":4885,"Children":4886,"Secret":4887,"327":4888,"411":4889,"490":4890,"445":4891,"446":4892,"535":4893,"Alt":4894,"Aven":4895,"FI":4896,"Found":4897,"Land":4898,"Mid":4899,"M87":4900,"U23":4901,"Will":4902,"WOR":4903,"ola":4904,"rstea":4905,"yer":4906,"Ãª":4907,"cht":4908,"endo":4909,"1521":4910,"1765":4911,"1774":4912,"sible":4913,"cel":4914,"second":4915,"398":4916,"47%":4917,"499":4918,"ook":4919,"Para":4920,"With":4921,"Junior":4922,"Adam":4923,"BMW":4924,"mond":4925,"Fried":4926,"Centre":4927,"where":4928,"Philip":4929,"Academy":4930,"416":4931,"Crea":4932,"EMI":4933,"HTC":4934,"KB":4935,"Sche":4936,"Soft":4937,"TW":4938,"bat":4939,"rent":4940,"mia":4941,"1616":4942,"26%":4943,"cul":4944,"707":4945,"ily":4946,"teri":4947,"369":4948,"397":4949,"Mau":4950,"verse":4951,"Joe":4952,"States":4953,"Multi":4954,"Wire":4955,"Niko":4956,"GPU":4957,"bility":4958,"Omega":4959,"613":4960,"6.4":4961,"Ari":4962,"Cou":4963,"NR":4964,"Port":4965,"WI":4966,"ZA":4967,"hau":4968,"house":4969,"pes":4970,"Î·":4971,"ÎĶ":4972,"ÐĲ":4973,"live":4974,"1564":4975,"1785":4976,"22.":4977,"368":4978,"lot":4979,".08":4980,"67%":4981,"TVBS":4982,"Mem":4983,"Next":4984,"Hea":4985,"some":4986,"Fire":4987,"MySQL":4988,"void":4989,"Origin":4990,"Amazon":4991,"3C":4992,"810":4993,"BT":4994,"Hon":4995,"Jr":4996,"Run":4997,"Sti":4998,"hl":4999,"m3":5000,"ÐĶ":5001,"1662":5002,"266":5003,"291":5004,"sist":5005,"elle":5006,"head":5007,"588":5008,"osa":5009,"Distri":5010,"Sub":5011,"rough":5012,"Base":5013,"MOD":5014,"volution":5015,"chie":5016,"Corporation":5017,"M1A1":5018,"ference":5019,"mission":5020,"velopment":5021,"GUNDAM":5022,"316":5023,"537":5024,"621":5025,"742":5026,"CI":5027,"E48":5028,"Eric":5029,"Fo":5030,"Fal":5031,"Sin":5032,"TI":5033,"Wel":5034,"Ã«":5035,"ÙĨ":5036,"anna":5037,"1540":5038,"1574":5039,"1772":5040,"24.":5041,"std":5042,"287":5043,"tee":5044,"605":5045,"454":5046,"388":5047,"343":5048,".86":5049,"open":5050,"888":5051,"Sund":5052,"point":5053,"0.02":5054,"Draw":5055,"Church":5056,"Alexander":5057,"Cross":5058,"Management":5059,"425":5060,"475":5061,"9.9":5062,"9.6":5063,"Lady":5064,"ND":5065,"Other":5066,"SW":5067,"Sar":5068,"cted":5069,"kÃ¡ng":5070,"kan":5071,"vat":5072,"were":5073,"jia":5074,"19%":5075,"1250":5076,"nico":5077,"1619":5078,"1629":5079,"1683":5080,"27%":5081,"29%":5082,"292":5083,"363":5084,"376":5085,"STS":5086,"552":5087,"686":5088,"ign":5089,"Demo":5090,"Arc":5091,"Augu":5092,"Cyclol":5093,"London":5094,"Scott":5095,"627":5096,"Bad":5097,"BRT":5098,"Der":5099,"Dun":5100,"FL":5101,"Ir":5102,"Kir":5103,"MX":5104,"Ora":5105,"Sto":5106,"Sara":5107,"Tony":5108,"hard":5109,"tru":5110,"Ð±":5111,"tish":5112,"14.5":5113,"24%":5114,"ally":5115,"ï¼Ĥ":5116,"31%":5117,"matic":5118,"488":5119,".84":5120,".88":5121,"99%":5122,"ida":5123,"Design":5124,"phen":5125,"Spot":5126,"Spring":5127,"Andrew":5128,"ðĲŃ":5129,"449":5130,"5A":5131,"625":5132,"738":5133,"81.":5134,"83.":5135,"Fron":5136,"HER":5137,"Of":5138,"PB":5139,"Round":5140,"VER":5141,"ire":5142,"und":5143,"Ðļ":5144,"shared":5145,"1590":5146,"1579":5147,"1633":5148,"ãĥĬ":5149,"ãĤ°":5150,"32%":5151,"1507":5152,"Beta":5153,"Lake":5154,"Simon":5155,"CH2":5156,"Cul":5157,"Syn":5158,"Animax":5159,"Earth":5160,"412":5161,"8.7":5162,"Fort":5163,"LF":5164,"LM":5165,"Sol":5166,"Sca":5167,"SON":5168,"V8":5169,"coun":5170,"hÄģng":5171,"tto":5172,"Ð¿":5173,"íķ":5174,"mir":5175,"mix":5176,"1631":5177,"1680":5178,"1773":5179,"21.":5180,"294":5181,"407":5182,"mate":5183,"ãĤĮ":5184,"body":5185,"396":5186,"3300":5187,"42%":5188,"mple":5189,"Sea":5190,"1604":5191,"Ander":5192,"Party":5193,"Hami":5194,"Family":5195,"PGA":5196,"Angel":5197,"Drive":5198,"Journal":5199,"41.":5200,"7.1":5201,"82.":5202,"8.6":5203,"980":5204,"Ap":5205,"Are":5206,"C4":5207,"Fold":5208,"GC":5209,"LR":5210,"Pol":5211,"cen":5212,"nan":5213,"Äĩ":5214,"ÉĻ":5215,"nical":5216,"1575":5217,"1697":5218,"1755":5219,"1492":5220,"sive":5221,"cum":5222,"805":5223,"3600":5224,"asa":5225,"467":5226,"471":5227,"Def":5228,"Neo":5229,"mics":5230,"ï¹Ĳ":5231,"SKE48":5232,"Dyna":5233,"Summer":5234,"Thunder":5235,"0x":5236,"319":5237,"Epic":5238,"Hal":5239,"J2":5240,"Kel":5241,"Nar":5242,"Swe":5243,"XC":5244,"fb":5245,"hoo":5246,"pan":5247,"zen":5248,"chy":5249,"lion":5250,"orig":5251,"1561":5252,"1589":5253,"1595":5254,"1781":5255,"1465":5256,"alan":5257,"508":5258,"ãĥĨ":5259,"ãģ²":5260,"344":5261,".85":5262,"44%":5263,".99":5264,"589":5265,"oph":5266,"1603":5267,"1606":5268,"1607":5269,"CNBLUE":5270,"Ruby":5271,"Council":5272,"Christian":5273,"print":5274,"415":5275,"855":5276,"940":5277,"970":5278,"Cre":5279,"Clar":5280,"Kat":5281,"Med":5282,"Miss":5283,"kes":5284,"pos":5285,"uage":5286,"x86":5287,"Ã¸":5288,"Ãħ":5289,"ÃŁ":5290,"à®":5291,"lina":5292,"nio":5293,"1522":5294,"1526":5295,"1556":5296,"1613":5297,"1660":5298,"502":5299,"506":5300,"ãĥĢ":5301,"tera":5302,"377":5303,"tos":5304,"478":5305,"554":5306,".07":5307,"ample":5308,"Mari":5309,"Alli":5310,"sport":5311,"mercial":5312,"TOUR":5313,"Williams":5314,"cations":5315,"Hyper":5316,"ìĿ´":5317,"âĺĨ":5318,"Angela":5319,"Football":5320,"417":5321,"525":5322,"7.4":5323,"920":5324,"925":5325,"After":5326,"Hit":5327,"LU":5328,"UK":5329,"URI":5330,"ite":5331,"lle":5332,"ud":5333,"Ùħ":5334,"sure":5335,"1525":5336,"1591":5337,"1667":5338,"indu":5339,"chÃ¨ng":5340,"ronic":5341,".55":5342,"408":5343,"485":5344,"46%":5345,"64%":5346,"643":5347,"ado":5348,"baby":5349,"ophi":5350,"AMO":5351,"Back":5352,"Fiesta":5353,"Steve":5354,"Qua":5355,"Rue":5356,"put":5357,"Advance":5358,"DOHC":5359,"America":5360,"324":5361,"422":5362,"515":5363,"538":5364,"534":5365,"Kit":5366,"Pap":5367,"QS":5368,"S4":5369,"VT":5370,"Vel":5371,"Water":5372,"hen":5373,"mRNA":5374,"who":5375,"zzo":5376,"âĤ":5377,"lish":5378,"tine":5379,"1510":5380,"1638":5381,"1730":5382,"media":5383,"ãĥĳ":5384,"ette":5385,"342":5386,"393":5387,"479":5388,".02":5389,".06":5390,"mph":5391,"Story":5392,"1508":5393,"Vita":5394,"Mozilla":5395,"Last":5396,"HKT48":5397,"lassic":5398,"Bern":5399,"Walter":5400,"Soul":5401,"Surface":5402,"7.62":5403,"Foundation":5404,".25":5405,"3200":5406,"531":5407,"546":5408,"7.2":5409,"EG":5410,"GHz":5411,"ITV":5412,"Jer":5413,"Jane":5414,"Mes":5415,"MBA":5416,"NI":5417,"Sen":5418,"Son":5419,"TG":5420,"VS":5421,"bles":5422,"iPS":5423,"kW":5424,"pal":5425,"2028":5426,"1543":5427,"1457":5428,".52":5429,"come":5430,"366":5431,"381":5432,"392":5433,"Indu":5434,".78":5435,"Arti":5436,"Buil":5437,"History":5438,".12":5439,"1st":5440,"413":5441,"426":5442,"6.3":5443,"Ai":5444,"Edu":5445,"F3":5446,"GPS":5447,"LZ":5448,"Light":5449,"Mos":5450,"U20":5451,"Wnt":5452,"cla":5453,"down":5454,"mol":5455,"yl":5456,"zÇİn":5457,"zar":5458,"ÙĬ":5459,"1565":5460,"1559":5461,"1587":5462,"1597":5463,"âĢł":5464,"1635":5465,"1688":5466,"1733":5467,"1782":5468,"also":5469,"stry":5470,"tex":5471,".53":5472,"606":5473,"ollow":5474,"ãģĳ":5475,"373":5476,"Albert":5477,"Times":5478,"lent":5479,"Johnson":5480,"Final":5481,".11":5482,"524":5483,"612":5484,"6.2":5485,"890":5486,"Ash":5487,"By":5488,"FS":5489,"Jim":5490,"Tol":5491,"UD":5492,"bs":5493,"est":5494,"ov":5495,"score":5496,"Â£":5497,"ÐŁ":5498,"Ñĩ":5499,"1588":5500,"1598":5501,"507":5502,"cell":5503,"amo":5504,"thew":5505,"34%":5506,"641":5507,"495":5508,"68%":5509,"682":5510,"Rep":5511,".97":5512,".69":5513,"666":5514,"Rod":5515,"Rose":5516,"Vio":5517,"0.05":5518,"Pod":5519,"Austra":5520,"Mont":5521,"Brian":5522,"CLA":5523,"Place":5524,"Telegram":5525,"trans":5526,"Pierre":5527,"332":5528,"4A":5529,"4K":5530,"435":5531,"575":5532,"790":5533,"Ale":5534,"Bet":5535,"Fl":5536,"Mus":5537,"TMA":5538,"ate":5539,"plan":5540,"sky":5541,"tiÃ¨":5542,"tial":5543,"ents":5544,"1523":5545,"1535":5546,"1649":5547,"1661":5548,"1770":5549,"1499":5550,"23%":5551,"then":5552,"0.25":5553,"ãĤ¬":5554,"ãĤı":5555,"361":5556,"number":5557,"466":5558,"391":5559,"....":5560,"551":5561,"vices":5562,".01":5563,"Moder":5564,"1601":5565,"Sho":5566,"gio":5567,"PCI":5568,"Tim":5569,"Hotel":5570,"TOK":5571,"AcFun":5572,"Flash":5573,"place":5574,"craft":5575,"Wonder":5576,"528":5577,"5500":5578,"990":5579,"Bang":5580,"Bell":5581,"Hard":5582,"HTT":5583,"Sma":5584,"Smo":5585,"Than":5586,"ey":5587,"fis":5588,"gni":5589,"shuÃłn":5590,"mine":5591,"12.8":5592,"1511":5593,"1760":5594,"1769":5595,"rit":5596,"358":5597,"cos":5598,"36%":5599,"371":5600,"469":5601,"itz":5602,"684":5603,"587":5604,"View":5605,"94.":5606,"ppm":5607,"But":5608,"SMAP":5609,"Geo":5610,"0.03":5611,"Edge":5612,"tribu":5613,"Explor":5614,"Golden":5615,"548":5616,"AW":5617,"Bil":5618,"Lor":5619,"Mir":5620,"MAC":5621,"Shan":5622,"air":5623,"even":5624,"para":5625,"vor":5626,"tiÇİn":5627,"20000":5628,"1080":5629,"15000":5630,"1576":5631,"1594":5632,"1689":5633,"362":5634,"383":5635,"TCP":5636,"341":5637,"41%":5638,"NASL":5639,"98%":5640,"Program":5641,"Bey":5642,"Some":5643,"Siri":5644,"Qui":5645,"Bridge":5646,"active":5647,"European":5648,"vernment":5649,"80.":5650,"921":5651,"Dance":5652,"Gun":5653,"L1":5654,"MR":5655,"Mind":5656,"MMC":5657,"NEX":5658,"RB":5659,"TF":5660,"UFO":5661,"VF":5662,"Var":5663,"bow":5664,"kins":5665,"rÃ¡ng":5666,"uts":5667,"ðª":5668,"hÃ²ng":5669,"huo":5670,"chÄĽng":5671,"20.":5672,"left":5673,"tica":5674,"mid":5675,"1811":5676,"1517":5677,"1514":5678,"1578":5679,"1552":5680,"âĢķ":5681,"1639":5682,"1684":5683,".51":5684,"608":5685,"master":5686,"38%":5687,"349":5688,"Mai":5689,"644":5690,"557":5691,"vie":5692,".05":5693,".76":5694,".79":5695,".92":5696,"ird":5697,"585":5698,"597":5699,"Development":5700,"Mod":5701,"Test":5702,"Seven":5703,"Raw":5704,"Week":5705,"Firef":5706,"Just":5707,"kov":5708,"Matthew":5709,"template":5710,"Eliza":5711,"Common":5712,"scope":5713,"Taylor":5714,"curity":5715,"348":5716,"436":5717,"549":5718,"8.2":5719,"AST":5720,"Bai":5721,"Brand":5722,"DNS":5723,"Fred":5724,"Jam":5725,"Kon":5726,"Mitch":5727,"Pres":5728,"RN":5729,"Ret":5730,"bum":5731,"ea":5732,"ext":5733,"ovan":5734,"pl":5735,"tio":5736,"ering":5737,"1763":5738,"1350":5739,"iness":5740,"ï¼ĭ":5741,"sie":5742,"403":5743,"cept":5744,"cuÃ³":5745,"sell":5746,"mani":5747,"908":5748,"ession":5749,"6500":5750,"case":5751,"1505":5752,"ardo":5753,"tour":5754,"777":5755,"Marie":5756,"anger":5757,"fied":5758,"fication":5759,"Pack":5760,"worth":5761,"Santa":5762,"MG42":5763,"Christop":5764,"Villa":5765,"547":5766,"567":5767,"668":5768,"C5":5769,"FAN":5770,"Mountain":5771,"NK":5772,"Rol":5773,"T4":5774,"YOSHI":5775,"bla":5776,"sÃło":5777,"Â³":5778,"Ñĸ":5779,"1050":5780,"1614":5781,"1720":5782,"27.":5783,"1.25":5784,"374":5785,"494":5786,"CoV":5787,".03":5788,".73":5789,"IDE":5790,"IPS":5791,"PSP":5792,"thers":5793,"Work":5794,"UNIX":5795,"People":5796,"Commit":5797,"âħł":5798,"Karl":5799,"Frame":5800,"IPv4":5801,"Explorer":5802,"4.4":5803,"514":5804,"522":5805,"545":5806,"568":5807,"5.3":5808,"619":5809,"675":5810,"Bau":5811,"CSS":5812,"D1":5813,"EBU":5814,"KT":5815,"Kw":5816,"Oh":5817,"Shu":5818,"Za":5819,"nÃ©":5820,"spi":5821,"sal":5822,"yÃ³ng":5823,"lete":5824,"1516":5825,"1513":5826,"1534":5827,"1547":5828,"1569":5829,"16V":5830,"1460":5831,"stone":5832,"26.":5833,"cula":5834,"ãģ§":5835,"359":5836,"757":5837,"642":5838,".89":5839,".93":5840,"581":5841,"aux":5842,"1502":5843,"ctions":5844,"51%":5845,"gani":5846,"alis":5847,"GeForce":5848,"à¸£":5849,"SOHC":5850,"Jackson":5851,"Arthur":5852,"Queen":5853,"COLLAR":5854,"Sunday":5855,"origin":5856,"418":5857,"414":5858,"424":5859,"433":5860,"544":5861,"Bos":5862,"CJ":5863,"DTS":5864,"F2":5865,"JO":5866,"Jus":5867,"MMO":5868,"PEN":5869,"Sand":5870,"Tel":5871,"XIV":5872,"bÅ«":5873,"cz":5874,"flo":5875,"hol":5876,"ith":5877,"pper":5878,"ski":5879,"zed":5880,"ÐĴ":5881,"1731":5882,"1768":5883,"1771":5884,"1490":5885,"mel":5886,"409":5887,"lter":5888,"ãĥı":5889,"604":5890,"802":5891,"ãĤ±":5892,"ãĤĩ":5893,"ãĤį":5894,"389":5895,"7500":5896,"394":5897,"476":5898,"been":5899,".87":5900,"493":5901,"vio":5902,".74":5903,".66":5904,"Vision":5905,"ERO":5906,"Box":5907,"Rift":5908,"AGE":5909,"Prime":5910,"FOX":5911,"while":5912,"True":5913,"JTBC":5914,"âĩĶ":5915,"Cinema":5916,"Avenue":5917,"431":5918,"539":5919,"745":5920,"ABS":5921,"Bit":5922,"Classic":5923,"EO":5924,"Gin":5925,"Gamer":5926,"Ker":5927,"Lord":5928,"Mit":5929,"Sk":5930,"Solo":5931,"V6":5932,"bn":5933,"bour":5934,"jq":5935,"zza":5936,"Ä±":5937,"shop":5938,"shed":5939,"change":5940,"biÃło":5941,"til":5942,"tice":5943,"tify":5944,"1593":5945,"1724":5946,"1752":5947,"1469":5948,"1498":5949,"1370":5950,"sili":5951,"sea":5952,"ãģĪ":5953,"ille":5954,"48%":5955,"382":5956,"755":5957,"464":5958,"444":5959,"cid":5960,"571":5961,"1501":5962,"Never":5963,"Gaga":5964,"nova":5965,"PS3":5966,"prote":5967,"Express":5968,"British":5969,"tdown":5970,"AGASA":5971,"Kids":5972,"Friedrich":5973,"646":5974,"667":5975,"CIA":5976,"D2":5977,"Ever":5978,"Gam":5979,"IRT":5980,"Kan":5981,"M6":5982,"Pass":5983,"Tam":5984,"XF":5985,"ZJ":5986,"ami":5987,"high":5988,"pto":5989,"say":5990,"tch":5991,"dex":5992,"lius":5993,"dies":5994,"1520":5995,"1560":5996,"1553":5997,"1651":5998,"1740":5999,"1493":6000,"23.":6001,"602":6002,"904":6003,"496":6004,"498":6005,"443":6006,"nament":6007,".72":6008,".96":6009,".62":6010,"Rail":6011,"MAN":6012,"Boys":6013,"Baby":6014,"Haw":6015,"produ":6016,"UNG":6017,"Fami":6018,"AGUE":6019,"LEAGUE":6020,"Guard":6021,"works":6022,"mont":6023,"Jeff":6024,"Donald":6025,"Intelli":6026,"à¥į":6027,"Communi":6028,"Athlon":6029,"Memori":6030,"Firefox":6031,"611":6032,"645":6033,"945":6034,"Again":6035,"Bas":6036,"C1":6037,"Cen":6038,"CBA":6039,"DEC":6040,"GW":6041,"Hay":6042,"Old":6043,"QU":6044,"TAM":6045,"U2":6046,"vol":6047,"Ã¥":6048,"áº":6049,"chan":6050,"dic":6051,"1596":6052,"ono":6053,"1632":6054,"1679":6055,"1718":6056,"1735":6057,"1745":6058,"1758":6059,"25G":6060,"ï¼Ŀ":6061,"tec":6062,"ram":6063,"ãĥ¡":6064,"culus":6065,"made":6066,"907":6067,"ãĤģ":6068,"ãĤĨ":6069,"584":6070,"1506":6071,"Dear":6072,"sson":6073,"two":6074,"mental":6075,"1605":6076,"Samu":6077,"gia":6078,"Anth":6079,"Side":6080,"Health":6081,"Fish":6082,"Name":6083,"REAM":6084,"Wild":6085,"Central":6086,"Doug":6087,"Standard":6088,"Violet":6089,"Christopher":6090,"YOSHIKI":6091,"050":6092,"439":6093,"533":6094,"731":6095,"732":6096,"741":6097,"762":6098,"962":6099,"Astro":6100,"Cree":6101,"Eye":6102,"Flor":6103,"H3":6104,"ICD":6105,"Kra":6106,"NU":6107,"Num":6108,"Off":6109,"RCP":6110,"TL":6111,"Thi":6112,"UCLA":6113,"Wood":6114,"ath":6115,"kit":6116,"np":6117,"phe":6118,"vari":6119,"wen":6120,"Ïħ":6121,"á¸":6122,"âĻ":6123,"bia":6124,"dina":6125,"1260":6126,"1566":6127,"16.5":6128,"law":6129,"lade":6130,"1725":6131,"1748":6132,"ãĥĦ":6133,"0.10":6134,"706":6135,"ãĤĪ":6136,"ãĤĴ":6137,"457":6138,"tery":6139,"379":6140,"aso":6141,"756":6142,"553":6143,"cio":6144,"673":6145,"574":6146,"576":6147,"mpson":6148,"List":6149,"Alan":6150,"985":6151,"973":6152,"Anna":6153,"Capital":6154,"Greg":6155,"AlphaFold":6156,"Operation":6157,"Fleetline":6158,"Angelababy":6159,"516":6160,"617":6161,"639":6162,"722":6163,"735":6164,"DU":6165,"Econo":6166,"HMS":6167,"Kha":6168,"P2":6169,"Tower":6170,"bble":6171,"ners":6172,"sÃ²u":6173,"2050":6174,"quid":6175,"1528":6176,"1572":6177,"onal":6178,"1652":6179,"1727":6180,"1761":6181,"1368":6182,".59":6183,"ãĥ¯":6184,"ãĥİ":6185,"356":6186,"704":6187,"482":6188,"37%":6189,"655":6190,"55.":6191,"brary":6192,".98":6193,"ault":6194,"ARE":6195,"gate":6196,"Gaon":6197,"ends":6198,"BLE":6199,"link":6200,"Color":6201,"telli":6202,"Harry":6203,"English":6204,"Garden":6205,"Two":6206,"Jones":6207,"Anderson":6208,"Elizabeth":6209,"Committee":6210,"447":6211,"863":6212,"926":6213,"961":6214,"Ana":6215,"Apa":6216,"Bow":6217,"Din":6218,"Ea":6219,"Epi":6220,"LX":6221,"RATP":6222,"Tha":6223,"VP":6224,"WW":6225,"eu":6226,"hal":6227,"pet":6228,"pas":6229,"defea":6230,"shan":6231,"lim":6232,"bird":6233,"eno":6234,"nin":6235,"ergy":6236,"1531":6237,"1538":6238,"1647":6239,"1681":6240,"stor":6241,"rat":6242,"803":6243,"708":6244,"ãĤĥ":6245,"452":6246,"453":6247,"they":6248,"651":6249,"bed":6250,"Cook":6251,"vir":6252,".09":6253,"586":6254,"572":6255,"Stro":6256,"1504":6257,"Neu":6258,"EDG":6259,"APG":6260,"ICA":6261,"door":6262,"Conne":6263,"Basic":6264,"1701":6265,"Stephen":6266,"Carl":6267,"Colspan":6268,"word":6269,"essor":6270,"HOME":6271,"ights":6272,"Appli":6273,"ccff":6274,"ccccff":6275,"Press":6276,"Disco":6277,"Twitch":6278,"prise":6279,"Patrick":6280,"frame":6281,"Women":6282,"FINAL":6283,"Beyond":6284,"3M":6285,"438":6286,"511":6287,"933":6288,"Bun":6289,"Hero":6290,"Hans":6291,"ILE":6292,"Jes":6293,"Rad":6294,"Say":6295,"SNC":6296,"aw":6297,"band":6298,"dÄĽi":6299,"gna":6300,"vity":6301,"wer":6302,"Î©":6303,"Ð·":6304,"Øª":6305,"ìļ":6306,"xus":6307,"hÃłng":6308,"mie":6309,"1530":6310,"1537":6311,"lati":6312,"1736":6313,"ï¼Ĩ":6314,"603":6315,"808":6316,"461":6317,"468":6318,"681":6319,"user":6320,"ONG":6321,"state":6322,"1709":6323,"Kevin":6324,"GameSpot":6325,"Abdu":6326,"Southern":6327,"news":6328,"JavaScript":6329,"Prince":6330,"DirectX":6331,"Silver":6332,"function":6333,"Modern":6334,"3G":6335,"541":6336,"629":6337,"648":6338,"725":6339,"Ak":6340,"CAR":6341,"Dor":6342,"ELE":6343,"Low":6344,"NN":6345,"Nan":6346,"NPC":6347,"P4":6348,"URE":6349,"Vis":6350,"cter":6351,"city":6352,"gas":6353,"gent":6354,"vent":6355,"Ñħ":6356,"such":6357,"super":6358,"dire":6359,"zing":6360,"1519":6361,"1529":6362,"1555":6363,"1687":6364,"last":6365,"1728":6366,"ardi":6367,"ink":6368,"team":6369,".56":6370,"ãĥĿ":6371,"cuÇĲ":6372,"905":6373,"esa":6374,"484":6375,"653":6376,"Maker":6377,"Info":6378,"before":6379,"55%":6380,"559":6381,"491":6382,".94":6383,"679":6384,".63":6385,"ped":6386,"796":6387,"OSS":6388,"fish":6389,"Saf":6390,"MAD":6391,"Paris":6392,"Concer":6393,"That":6394,"Fair":6395,"mark":6396,"ckett":6397,"URL":6398,"AOA":6399,"Yahoo":6400,"speci":6401,"ctures":6402,"Planet":6403,"ASCII":6404,"Spotify":6405,"OmegaT":6406,"Mitchell":6407,"423":6408,"536":6409,"632":6410,"715":6411,"825":6412,"833":6413,"Ala":6414,"B3":6415,"CAL":6416,"D9":6417,"Flow":6418,"Gy":6419,"GRO":6420,"Hau":6421,"Ita":6422,"K2":6423,"Money":6424,"Mbps":6425,"RDS":6426,"Zo":6427,"eb":6428,"ei":6429,"ide":6430,"san":6431,"sci":6432,"wart":6433,"huÅį":6434,"2035":6435,"1120":6436,"1767":6437,"50.":6438,".57":6439,"cking":6440,"Chrome":6441,"Main":6442,"473":6443,"49.":6444,"492":6445,"cap":6446,"nda":6447,".61":6448,"auto":6449,"661":6450,"562":6451,"Liber":6452,"Robin":6453,"Dead":6454,"Debian":6455,"Mega":6456,"Via":6457,"game":6458,"See":6459,"bucket":6460,"Anne":6461,"host":6462,"PS2":6463,"Fede":6464,"Eddie":6465,"TRA":6466,"Countdown":6467,"Zico":6468,"signed":6469,"TOKYO":6470,"Violetta":6471,"339":6472,"429":6473,"532":6474,"665":6475,"775":6476,"769":6477,"Ax":6478,"Area":6479,"D5":6480,"Eri":6481,"Fox":6482,"Hand":6483,"JI":6484,"Pur":6485,"R1":6486,"RF":6487,"SNS":6488,"ller":6489,"Õ¡":6490,"miÄĵ":6491,"1220":6492,"1545":6493,"1664":6494,"1659":6495,"1719":6496,"artic":6497,"1495":6498,"1496":6499,"1388":6500,"redo":6501,".58":6502,"cep":6503,"702":6504,"703":6505,"Chap":6506,"Chart":6507,"Mah":6508,"STATION":6509,"689":6510,"Rea":6511,".91":6512,"692":6513,"osp":6514,"Roman":6515,"Mix":6516,"798":6517,"him":6518,"splay":6519,"ott":6520,"74%":6521,"mentary":6522,"ERS":6523,"Jaco":6524,"AND":6525,"SM.81":6526,"graphy":6527,"Juan":6528,"gins":6529,"Steven":6530,"Phy":6531,"IFF":6532,"Bio":6533,"Dragon":6534,"Anime":6535,"Henri":6536,"Framework":6537,"010":6538,"434":6539,"636":6540,"729":6541,"761":6542,"878":6543,"Aus":6544,"Action":6545,"E1":6546,"E231":6547,"GEN":6548,"Jay":6549,"L2":6550,"PAGASA":6551,"RK":6552,"Too":6553,"ZERO":6554,"das":6555,"eg":6556,"hat":6557,"ira":6558,"Ðĳ":6559,"Ðľ":6560,"ÑĨ":6561,"ìĹ":6562,"tier":6563,"1546":6564,"1549":6565,"1562":6566,"1670":6567,"1690":6568,"1654":6569,"1653":6570,"1694":6571,"1759":6572,"aro":6573,"1466":6574,"thor":6575,"sio":6576,"ãĥ¢":6577,"807":6578,"709":6579,"458":6580,"463":6581,"log":6582,"555":6583,"596":6584,"662":6585,"Stri":6586,"under":6587,"Like":6588,"Michel":6589,"constru":6590,"ental":6591,"gie":6592,"posi":6593,"Build":6594,"shion":6595,"Interactive":6596,"Wilson":6597,"Johnny":6598,"della":6599,"Voice":6600,"FAST":6601,"Kenne":6602,"Court":6603,"Happy":6604,"HTTP":6605,"Samuel":6606,".39":6607,"12000":6608,"527":6609,"638":6610,"669":6611,"712":6612,"711":6613,"9.4":6614,"BP":6615,"Dal":6616,"DREAM":6617,"Hos":6618,"IMAX":6619,"Jos":6620,"K11":6621,"LV":6622,"Lind":6623,"M5":6624,"Nam":6625,"NCC":6626,"RSA":6627,"Sr":6628,"dan":6629,"ef":6630,"flu":6631,"ska":6632,"wy":6633,"Î¬":6634,"shell":6635,"xis":6636,"qiÅįng":6637,"lem":6638,"sung":6639,"tura":6640,"niÅ«":6641,"1558":6642,"1581":6643,"1738":6644,"1474":6645,"1375":6646,"cular":6647,"elli":6648,"neu":6649,"vement":6650,"STAT":6651,"477":6652,"love":6653,"68000":6654,"Cos":6655,"ATE":6656,"595":6657,"598":6658,"599":6659,"578":6660,"1608":6661,"Jac":6662,"Hein":6663,"dence":6664,"EPA":6665,"program":6666,"ween":6667,"0.5%":6668,"gene":6669,"syn":6670,"flight":6671,"EXILE":6672,"Person":6673,"GPL":6674,"Stars":6675,"stars":6676,"Galant":6677,"import":6678,"NMB48":6679,"521":6680,"628":6681,"622":6682,"721":6683,"867":6684,"877":6685,"8.3":6686,"965":6687,"Aer":6688,"BY":6689,"Care":6690,"F5":6691,"Jet":6692,"Mount":6693,"Ner":6694,"OST":6695,"RX":6696,"Sus":6697,"SUP":6698,"Source":6699,"VEN":6700,"WP":6701,"ZZ":6702,"cli":6703,"cin":6704,"fre":6705,"gli":6706,"ui":6707,"will":6708,"yd":6709,"guÃłng":6710,"yun":6711,"life":6712,"bio":6713,"1280":6714,"âĢ³":6715,"1665":6716,"lat":6717,"1732":6718,"1744":6719,"1756":6720,"1489":6721,"1487":6722,"1340":6723,"oul":6724,"met":6725,"29.":6726,"000rpm":6727,"ãĥĵ":6728,"906":6729,"ãĤº":6730,"451":6731,"Chill":6732,".71":6733,"997":6734,"Stru":6735,"idae":6736,"Security":6737,"Dave":6738,"Shar":6739,"wick":6740,"Player":6741,"Feli":6742,"ghts":6743,"Forever":6744,"SHOW":6745,"Business":6746,"2nd":6747,"519":6748,"517":6749,"624":6750,"623":6751,"835":6752,"876":6753,"938":6754,"954":6755,"951":6756,"Abu":6757,"B9":6758,"CAP":6759,"D3":6760,"Fw":6761,"Flo":6762,"GDDR":6763,"Hil":6764,"Hop":6765,"IMD":6766,"Kur":6767,"LCD":6768,"NIC":6769,"Pon":6770,"Qt":6771,"Sel":6772,"YF":6773,"eng":6774,"fan":6775,"mou":6776,"mos":6777,"ude":6778,"vas":6779,"would":6780,"xa":6781,"Ðĺ":6782,"ð¤":6783,"sum":6784,"qua":6785,"chuÃłi":6786,"1524":6787,"1532":6788,"1584":6789,"1658":6790,"1657":6791,"1699":6792,"lad":6793,"1762":6794,"1337":6795,"mum":6796,"ï¼ŀ":6797,"rai":6798,".54":6799,"seed":6800,"472":6801,"474":6802,"649":6803,"497":6804,"687":6805,"688":6806,"698":6807,"579":6808,"88%":6809,"784":6810,"Rober":6811,"Proto":6812,"72%":6813,"html":6814,"1406":6815,"Carlos":6816,"DSP":6817,"à¤¾":6818,"Bike":6819,"year":6820,"SHIN":6821,"Holly":6822,"Christmas":6823,"âĺħ":6824,"Public":6825,"scape":6826,"MONSTA":6827,"Computer":6828,"Touch":6829,"Smack":6830,"Smosh":6831,"Apache":6832,"054":6833,"616":6834,"719":6835,"865":6836,"946":6837,"988":6838,"Bran":6839,"DH":6840,"Dur":6841,"Esp":6842,"G1":6843,"Gau":6844,"H4":6845,"H10":6846,"Hat":6847,"Jona":6848,"More":6849,"S3":6850,"Sb":6851,"Sense":6852,"Wit":6853,"WHO":6854,"XG":6855,"jan":6856,"kra":6857,"used":6858,"Ã¦":6859,"ÏĨ":6860,"dus":6861,"tie":6862,"luÅį":6863,"enne":6864,"micro":6865,"11.2":6866,"pia":6867,"1668":6868,"1739":6869,"1764":6870,"format":6871,"28.":6872,"mail":6873,"30000":6874,"787":6875,"Library":6876,"Socket":6877,"Ann":6878,"sock":6879,"PSV":6880,"Control":6881,"1702":6882,"There":6883,"Take":6884,"Human":6885,"LLVM":6886,"rowspan":6887,"ways":6888,"break":6889,"Fanta":6890,"Ryan":6891,"SmackDown":6892,"052":6893,"421":6894,"437":6895,"614":6896,"626":6897,"637":6898,"815":6899,"816":6900,"975":6901,"Card":6902,"Echo":6903,"GF":6904,"If":6905,"Ice":6906,"JP":6907,"Rh":6908,"Wing":6909,"Wolf":6910,"YA":6911,"ZO":6912,"after":6913,"cine":6914,"free":6915,"hp":6916,"kha":6917,"won":6918,"wri":6919,"Ðł":6920,"ë°":6921,"depen":6922,"dig":6923,"0000":6924,"1275":6925,"11.3":6926,"1536":6927,"1675":6928,"1464":6929,"rad":6930,"may":6931,"major":6932,"455":6933,"IND":6934,"64.":6935,"lock":6936,".77":6937,"671":6938,"678":6939,"ops":6940,"most":6941,"ARP":6942,"Tex":6943,"97%":6944,"Sher":6945,"Anti":6946,"1705":6947,"Liner":6948,"Fashion":6949,"TOWN":6950,"erial":6951,"Giovan":6952,"Sheet":6953,"lease":6954,"KKBOX":6955,"Championship":6956,"Language":6957,"Alfredo":6958,"alysis":6959,"Professor":6960,"542":6961,"634":6962,"821":6963,"912":6964,"CIT":6965,"Cfb":6966,"DX":6967,"HPV":6968,"MOS":6969,"MIT":6970,"NXT":6971,"Ol":6972,"Pr":6973,"SY":6974,"Ster":6975,"SIM":6976,"Tig":6977,"WH":6978,"Wer":6979,"Well":6980,"Wong":6981,"count":6982,"df":6983,"dle":6984,"done":6985,"glo":6986,"ima":6987,"mme":6988,"nst":6989,"ois":6990,"pon":6991,"wind":6992,"Ïĩ":6993,"âģ":6994,"ãħ":6995,"ìĦ":6996,"ches":6997,"lib":6998,"leu":6999,"lein":7000,"miÄģo":7001,"1563":7002,"1617":7003,"1663":7004,"1685":7005,"17.5":7006,"1753":7007,"1477":7008,"1380":7009,"multi":7010,"stance":7011,"503":7012,"ras":7013,"see":7014,"809":7015,"ãģİ":7016,"ãĤ½":7017,"atan":7018,"483":7019,"486":7020,"asy":7021,"754":7022,"656":7023,"Mate":7024,"beat":7025,"beca":7026,"Theat":7027,"676":7028,"ATX":7029,"66%":7030,"99.":7031,"SAN":7032,"785":7033,"561":7034,"NAS":7035,"Mei":7036,"61%":7037,"ARK":7038,"Second":7039,"ACH":7040,"okia":7041,"84%":7042,"ANG":7043,"IPTV":7044,"Western":7045,"Board":7046,"File":7047,"Field":7048,"there":7049,"à¸²":7050,"UNES":7051,"gency":7052,"Frances":7053,"Morning":7054,"Brad":7055,"RCA":7056,"Collection":7057,"SpaceX":7058,"Melon":7059,"Circle":7060,"Mission":7061,"Creative":7062,"TWICE":7063,"Clark":7064,"Industri":7065,"SUPER":7066,"2DS":7067,"518":7068,"526":7069,"566":7070,"716":7071,"714":7072,"765":7073,"764":7074,"744":7075,"7.3":7076,"826":7077,"847":7078,"918":7079,"936":7080,"Afri":7081,"BNO":7082,"EU":7083,"Eve":7084,"Every":7085,"GI":7086,"Here":7087,"Ia":7088,"MRI":7089,"Pere":7090,"RP":7091,"Right":7092,"Rank":7093,"SUN":7094,"Vin":7095,"VIP":7096,"Wri":7097,"Ware":7098,"WTT":7099,"cam":7100,"cta":7101,"group":7102,"hÄģi":7103,"pho":7104,"town":7105,"ÅĤ":7106,"ÙĪ":7107,"âĬ":7108,"ë¦":7109,"ð¬":7110,"ngth":7111,"show":7112,"chin":7113,"ched":7114,"lity":7115,"chus":7116,"1024":7117,"1669":7118,"1656":7119,"1672":7120,"1692":7121,"1754":7122,"1420":7123,"1480":7124,"teen":7125,"31.":7126,"0.15":7127,"ilo":7128,"their":7129,"751":7130,"65.":7131,"658":7132,"Chang":7133,"Maki":7134,"Inte":7135,"594":7136,"Stone":7137,"791":7138,"AMC":7139,"AMP":7140,"Moore":7141,"Shine":7142,"ITA":7143,"Bug":7144,"1704":7145,"1708":7146,"Nick":7147,"Pie":7148,"ario":7149,"AGP":7150,"MLB":7151,"Manu":7152,"Vogue":7153,"Future":7154,"DMR":7155,"Front":7156,"RepRap":7157,"2B":7158,"713":7159,"727":7160,"748":7161,"768":7162,"875":7163,"8.8":7164,"915":7165,"929":7166,"947":7167,"Ace":7168,"BIG":7169,"Cr":7170,"CYP":7171,"Dam":7172,"Emp":7173,"EBS":7174,"Fai":7175,"From":7176,"ISA":7177,"NICO":7178,"OME":7179,"R3":7180,"Ring":7181,"UF":7182,"VIS":7183,"XIII":7184,"kon":7185,"xc":7186,"zÄģn":7187,"Ð¢":7188,"Ø³":7189,"lev":7190,"bie":7191,"bis":7192,"1075":7193,"1277":7194,"1279":7195,"1276":7196,"1111":7197,"ante":7198,"1440":7199,"1488":7200,"1472":7201,"1371":7202,"allo":7203,"story":7204,"rian":7205,"rice":7206,"road":7207,"ãĥ§":7208,"902":7209,"489":7210,"vier":7211,"699":7212,"ophy":7213,"992":7214,"881":7215,"986":7216,"Lew":7217,"contribu":7218,"APM":7219,"1602":7220,"dom":7221,"commercial":7222,"Interplay":7223,"cross":7224,"AIM":7225,"REAS":7226,"Wilhel":7227,"Audio":7228,"CRH5":7229,"Gene":7230,"Walker":7231,"Version":7232,"Films":7233,"Jimmy":7234,"District":7235,"Sweet":7236,"Building":7237,"030":7238,"633":7239,"778":7240,"812":7241,"955":7242,"957":7243,"9.3":7244,"Azu":7245,"Asian":7246,"C3":7247,"C14":7248,"EY":7249,"Im":7250,"Ian":7251,"Iso":7252,"Jalan":7253,"LNG":7254,"LIF":7255,"MIC":7256,"NY":7257,"Nint":7258,"POS":7259,"Rand":7260,"RSS":7261,"SAT":7262,"Sid":7263,"Stop":7264,"Ts":7265,"TNT":7266,"Yi":7267,"Yan":7268,"bÇĴ":7269,"cÃº":7270,"cÄĵn":7271,"d4":7272,"iro":7273,"rs":7274,"ute":7275,"Ã½":7276,"Ø¨":7277,"Ø¯":7278,"ledge":7279,"sul":7280,"tury":7281,"kuÇİi":7282,"10.6":7283,"002":7284,"004":7285,"1230":7286,"pis":7287,"1527":7288,"15.5":7289,"1611":7290,"array":7291,"rela":7292,"rix":7293,"rish":7294,"ols":7295,"ely":7296,"ãģĽ":7297,"487":7298,"nest":7299,"bov":7300,"46.":7301,"Chro":7302,"Information":7303,"558":7304,"685":7305,"vich":7306,"osau":7307,"577":7308,"781":7309,"792":7310,"794":7311,"Album":7312,"981":7313,"Lei":7314,"CO2":7315,"ARC":7316,"Dick":7317,"Shop":7318,"gion":7319,"poli":7320,"Six":7321,"Energy":7322,"WiMAX":7323,"shire":7324,"Gemini":7325,"Stewart":7326,"1122":7327,"RES":7328,"Tac":7329,"ories":7330,"ESPN":7331,"Trickett":7332,"minal":7333,"Wave":7334,"Thompson":7335,"Where":7336,"Portable":7337,"elect":7338,"ìķĦ":7339,"Thunderbird":7340,"Velvet":7341,"Jonathan":7342,"ð¬ĵ":7343,"Nintendo":7344,"070":7345,"543":7346,"615":7347,"717":7348,"828":7349,"839":7350,"939":7351,"Bin":7352,"E2":7353,"Edi":7354,"FD":7355,"G2":7356,"GG":7357,"Gr":7358,"Len":7359,"Lun":7360,"MED":7361,"N1":7362,"RY":7363,"S7":7364,"TD":7365,"UFC":7366,"V1":7367,"V2":7368,"ala":7369,"ic":7370,"kai":7371,"nar":7372,"poly":7373,"tar":7374,"wel":7375,"zzi":7376,"ãİ":7377,"ê°":7378,"lee":7379,"tinu":7380,"tiful":7381,"quali":7382,"dine":7383,"nig":7384,"1512":7385,"1541":7386,"1666":7387,"lak":7388,"1721":7389,"1726":7390,"1737":7391,"1747":7392,"1743":7393,"1741":7394,"archi":7395,"1430":7396,"30.":7397,"25000":7398,"former":7399,"teau":7400,"site":7401,"0.1%":7402,"481":7403,"ism":7404,"boy":7405,"47.":7406,"nation":7407,"adox":7408,"based":7409,"674":7410,"cate":7411,"697":7412,"889":7413,"Liquid":7414,"Deuts":7415,"77%":7416,"Allen":7417,"982":7418,"989":7419,"apu":7420,"pert":7421,"74.":7422,"fini":7423,"96%":7424,"post":7425,"81%":7426,"Page":7427,"Sport":7428,"PCR":7429,"0.04":7430,"à¸Ļ":7431,"AVE":7432,"NHS":7433,"Grace":7434,"hyth":7435,"Match":7436,"bury":7437,"Enterprise":7438,"Surf":7439,"Productions":7440,"about":7441,"Bruce":7442,"Douglas":7443,"2TV":7444,"513":7445,"846":7446,"866":7447,"857":7448,"B12":7449,"Ball":7450,"Gary":7451,"HY":7452,"J1":7453,"JXG":7454,"Kill":7455,"Oculus":7456,"Penti":7457,"WM":7458,"Zen":7459,"again":7460,"ever":7461,"kHz":7462,"power":7463,"wat":7464,"xe":7465,"zÃ¡n":7466,"dera":7467,"gus":7468,"zhuÇİ":7469,"mium":7470,"1217":7471,"1274":7472,"1515":7473,"1542":7474,"1712":7475,"1711":7476,"1715":7477,"1435":7478,"1456":7479,"1328":7480,"1385":7481,"forman":7482,"room":7483,"sele":7484,"elo":7485,"ãģ¶":7486,"1.05":7487,"48.":7488,"4800":7489,"INT":7490,"ison":7491,"3400":7492,"bach":7493,"pei":7494,"Stor":7495,"1509":7496,"Roger":7497,"Window":7498,"Motor":7499,"dale":7500,"Staff":7501,"ISC":7502,"971":7503,"Lock":7504,"ASH":7505,"fect":7506,"Netscape":7507,"IGHT":7508,"gener":7509,"GP40":7510,"hydro":7511,"brid":7512,"bridge":7513,"facebook":7514,"Princess":7515,"Pink":7516,"Tennis":7517,"SHINee":7518,"Pentium":7519,"055":7520,"647":7521,"728":7522,"726":7523,"811":7524,"8.4":7525,"913":7526,"CZ":7527,"CCD":7528,"COS":7529,"Ing":7530,"KS":7531,"Mg":7532,"Snow":7533,"TAI":7534,"Zero":7535,"fit":7536,"fig":7537,"fts":7538,"ila":7539,"sw":7540,"tta":7541,"uk":7542,"vad":7543,"yan":7544,"Î¯":7545,"Î¶":7546,"shark":7547,"lik":7548,"tit":7549,"chuÇİi":7550,"10.1":7551,"nik":7552,"1150":7553,"orbit":7554,"1544":7555,"1757":7556,"1424":7557,"1470":7558,"1454":7559,"str":7560,"thal":7561,"through":7562,"ril":7563,"rier":7564,"2900":7565,"amba":7566,"sets":7567,"909":7568,"459":7569,"38.":7570,"3700":7571,"iser":7572,"34.":7573,"759":7574,"STER":7575,"IIT":7576,"Cong":7577,"cision":7578,"672":7579,"582":7580,"ATS":7581,"69.":7582,"591":7583,"993":7584,"SAP":7585,"56.":7586,"Mars":7587,"Division":7588,"Lost":7589,"93%":7590,"Buzz":7591,"DSL":7592,"project":7593,"tten":7594,"France":7595,"Universal":7596,"hammad":7597,"Chee":7598,"âħ¢":7599,"IMF":7600,"Drama":7601,"struct":7602,"England":7603,"CGTN":7604,"Louise":7605,"Mercu":7606,"addr":7607,"Antonio":7608,"Archite":7609,"CDMA2000":7610,"WORLD":7611,"Alliance":7612,"Hollywood":7613,"823":7614,"829":7615,"8.9":7616,"927":7617,"935":7618,"9.2":7619,"A5":7620,"Emi":7621,"F7":7622,"Four":7623,"GIS":7624,"Hart":7625,"JC":7626,"Jason":7627,"KN":7628,"Know":7629,"LMS":7630,"LPL":7631,"Oly":7632,"Sang":7633,"TB":7634,"USE":7635,"WD":7636,"Zu":7637,"cca":7638,"feld":7639,"mpic":7640,"ole":7641,"ova":7642,"ppe":7643,"gun":7644,"tup":7645,"mical":7646,"1235":7647,"1264":7648,"order":7649,"1554":7650,"1722":7651,"1734":7652,"1766":7653,"1471":7654,"1330":7655,"1390":7656,"iner":7657,"range":7658,"ãĥį":7659,"cei":7660,"60.":7661,"609":7662,"them":7663,"ando":7664,"652":7665,"659":7666,"Maxi":7667,"Make":7668,"Remix":7669,"695":7670,"573":7671,"lyn":7672,"783":7673,"ssa":7674,"berry":7675,"771":7676,"kee":7677,"Gate":7678,"Arena":7679,"Shot":7680,"82%":7681,"meral":7682,"92%":7683,"Unit":7684,"sters":7685,"Paradox":7686,"âĪĪ":7687,"Adven":7688,"Hugh":7689,"Peace":7690,"ttle":7691,"AAA":7692,"DOCO":7693,"Reddit":7694,"Active":7695,"ensor":7696,"Benja":7697,"Spin":7698,"Brook":7699,"Brothers":7700,"AlphaGo":7701,"llion":7702,"unique":7703,"partment":7704,"Engineering":7705,"Opera":7706,"small":7707,"ECTION":7708,"Kelly":7709,"tournament":7710,"Creek":7711,"defeated":7712,"Concert":7713,"Makiyo":7714,"Surfshark":7715,"1180":7716,"3100":7717,"529":7718,"724":7719,"736":7720,"832":7721,"932":7722,"967":7723,"976":7724,"Ay":7725,"Ave":7726,"BEST":7727,"DN":7728,"Drop":7729,"Ey":7730,"F6":7731,"FG":7732,"Flu":7733,"Fall":7734,"Gon":7735,"HM":7736,"HQ":7737,"KA":7738,"Ky":7739,"Kor":7740,"Los":7741,"N3":7742,"NON":7743,"OL":7744,"Pia":7745,"PRE":7746,"RAD":7747,"SRAM":7748,"U16":7749,"VCD":7750,"Wol":7751,"XY":7752,"act":7753,"follow":7754,"gran":7755,"good":7756,"hd":7757,"mary":7758,"nch":7759,"nel":7760,"rence":7761,"tent":7762,"wo":7763,"Â½":7764,"Ã£":7765,"ÏĮ":7766,"Ðŀ":7767,"×Ļ":7768,"ð¡":7769,"deri":7770,"12.6":7771,"1557":7772,"1551":7773,"1655":7774,"1678":7775,"1696":7776,"lav":7777,"1746":7778,"1749":7779,"1475":7780,"1441":7781,"1484":7782,"1399":7783,"25.":7784,"string":7785,"rison":7786,"teo":7787,"eter":7788,"iller":7789,"andra":7790,"boot":7791,"752":7792,"being":7793,"683":7794,"Rev":7795,"Str":7796,"Rob":7797,"Marsh":7798,"vation":7799,"87%":7800,"874":7801,"ACS":7802,"86%":7803,"static":7804,"1402":7805,"à¸¡":7806,"wei":7807,"CRH":7808,"Hulu":7809,"nett":7810,"BMT":7811,"Disc":7812,"Allstars":7813,"Holdings":7814,"Broad":7815,"Valley":7816,"GMMTV":7817,"VOCAL":7818,"Miller":7819,"Palazzo":7820,"ological":7821,"IPv6":7822,"Rainbow":7823,"Electronic":7824,"Premier":7825,"PENOME":7826,"Mercury":7827,"DOCOMO":7828,"PENOMECO":7829,"635":7830,"864":7831,"931":7832,"937":7833,"956":7834,"972":7835,"Edition":7836,"Fren":7837,"FIR":7838,"Git":7839,"Had":7840,"Mou":7841,"Mol":7842,"Mill":7843,"NL":7844,"NAT":7845,"PRI":7846,"Ted":7847,"Tang":7848,"Wid":7849,"crea":7850,"exi":7851,"flow":7852,"gos":7853,"kn":7854,"prin":7855,"sort":7856,"xon":7857,"Ãĸ":7858,"Åĭ":7859,"ÑĪ":7860,"ð°":7861,"big":7862,"tig":7863,"distri":7864,"1020":7865,"1010":7866,"1266":7867,"1261":7868,"pid":7869,"1641":7870,"1751":7871,"arma":7872,"1346":7873,"mur":7874,"three":7875,"rest":7876,"seu":7877,"0.12":7878,"0.65":7879,"ãģŃ":7880,"cken":7881,"38.5":7882,"bot":7883,"TCH":7884,"beta":7885,"virus":7886,"995":7887,"884":7888,"885":7889,"886":7890,"Dean":7891,"Delta":7892,"Mira":7893,"54.":7894,"YouBike":7895,"motion":7896,"89%":7897,"Sele":7898,"Arm":7899,"ISP":7900,"ISS":7901,"Davis":7902,"Daily":7903,"Diam":7904,"poem":7905,"83%":7906,"kie":7907,"Paci":7908,"Sie":7909,"Head":7910,"socket":7911,"Word":7912,"AGM":7913,"crip":7914,"Hip":7915,"M1A2":7916,"Prize":7917,"Nord":7918,"CLOS":7919,"Access":7920,"CSI":7921,"County":7922,"parti":7923,"YOU":7924,"Samsung":7925,"match":7926,"Ross":7927,"Bird":7928,"Twins":7929,"longi":7930,"Beautiful":7931,"Original":7932,"August":7933,"username":7934,"Theatre":7935,"Wilhelm":7936,"Benjamin":7937,"060":7938,"564":7939,"664":7940,"817":7941,"831":7942,"853":7943,"919":7944,"958":7945,"942":7946,"959":7947,"979":7948,"Acc":7949,"Cali":7950,"FK":7951,"FNC":7952,"Gas":7953,"GUI":7954,"Hg":7955,"IATA":7956,"JB":7957,"Kore":7958,"Nel":7959,"PU":7960,"PX":7961,"Pit":7962,"Pha":7963,"PDF":7964,"QR":7965,"Schu":7966,"UCC":7967,"Winter":7968,"camp":7969,"cry":7970,"fran":7971,"gb":7972,"hÇĴng":7973,"hor":7974,"hon":7975,"ist":7976,"lf":7977,"rÅįng":7978,"Î£":7979,"ÐĿ":7980,"det":7981,"lier":7982,"tium":7983,"differ":7984,"1284":7985,"2029":7986,"1673":7987,"1713":7988,"aria":7989,"1425":7990,"1468":7991,"1382":7992,"member":7993,"lty":7994,"ãĥľ":7995,"seo":7996,"0.20":7997,"804":7998,"802.":7999,"ãģ©":8000,"1.75":8001,"cola":8002,"36.":8003,"3800":8004,"657":8005,"Made":8006,"Invest":8007,"nature":8008,"cious":8009,"bai":8010,"cau":8011,"ATI":8012,"57.":8013,"Lip":8014,"Department":8015,"CONC":8016,"AMX":8017,"ARI":8018,"Mode":8019,"873":8020,"1204":8021,"ICC":8022,"mers":8023,"graph":8024,"fee":8025,"0.09":8026,"à¸±":8027,"Nicho":8028,"Docu":8029,"Luis":8030,"Factory":8031,"CR400":8032,"ences":8033,"Services":8034,"SPA":8035,"family":8036,"5.56":8037,"Whit":8038,"creen":8039,"Flag":8040,"Trust":8041,"phic":8042,"Howard":8043,"ordan":8044,"final":8045,"Watch":8046,"Smart":8047,"presen":8048,"LAND":8049,"Metropo":8050,"Education":8051,"essional":8052,"Federation":8053,"Giovanni":8054,"contributor":8055,"569":8056,"631":8057,"788":8058,"827":8059,"845":8060,"852":8061,"9.1":8062,"A330":8063,"B7":8064,"Bol":8065,"Bak":8066,"Bour":8067,"BMP":8068,"Dau":8069,"Ess":8070,"Evan":8071,"G6":8072,"GIR":8073,"IQ":8074,"Lane":8075,"Lyn":8076,"Nokia":8077,"RER":8078,"TTC":8079,"Xi":8080,"YS":8081,"af":8082,"bber":8083,"cour":8084,"fal":8085,"ibn":8086,"nell":8087,"phan":8088,"pus":8089,"ular":8090,"water":8091,"your":8092,"Äĥ":8093,"ìĭ":8094,"ngi":8095,"quet":8096,"10.0":8097,"1227":8098,"1283":8099,"1291":8100,"piÄĽ":8101,"1539":8102,"1695":8103,"1682":8104,"1710":8105,"1481":8106,"1356":8107,"music":8108,"stamp":8109,"mea":8110,"rue":8111,"ãĥĻ":8112,"tau":8113,"tail":8114,"0.28":8115,"0.3%":8116,"ãģµ":8117,"39%":8118,"39.":8119,"Cher":8120,"68.":8121,"Regu":8122,"441":8123,"677":8124,"aun":8125,"iga":8126,"691":8127,"991":8128,"Style":8129,"edom":8130,"56%":8131,"March":8132,"797":8133,"53%":8134,"897":8135,"87.":8136,"Sep":8137,"ACG":8138,"APS":8139,"bye":8140,"song":8141,"1405":8142,"SMO":8143,"denti":8144,"END":8145,"1707":8146,"Nike":8147,"lers":8148,"1124":8149,"Kiwi":8150,"Extra":8151,"path":8152,"MIR":8153,"Guy":8154,"chaft":8155,"à¤°":8156,"EXO":8157,"Berg":8158,"Morgan":8159,"Valen":8160,"HSCR":8161,"Associa":8162,"what":8163,"Virtual":8164,"DKZ":8165,"Double":8166,"Songs":8167,"Russell":8168,"Premium":8169,"WireGuard":8170,"counter":8171,"Number":8172,"Discovery":8173,"Nicholas":8174,"020":8175,"2K":8176,"3166":8177,"523":8178,"842":8179,"841":8180,"977":8181,"AY":8182,"A320":8183,"C#":8184,"Cow":8185,"Cau":8186,"Call":8187,"D4":8188,"EB":8189,"Gru":8190,"Got":8191,"GRE":8192,"Ini":8193,"Jin":8194,"JDG":8195,"Kun":8196,"Nat":8197,"O305":8198,"P10":8199,"RMS":8200,"TEP":8201,"VHS":8202,"WC":8203,"Wright":8204,"W3C":8205,"XM":8206,"Zn":8207,"aes":8208,"cou":8209,"dri":8210,"ela":8211,"fl":8212,"fle":8213,"ls":8214,"m2":8215,"ody":8216,"pol":8217,"pay":8218,"Âµ":8219,"Ã°":8220,"Ã»":8221,"Ðĵ":8222,"jito":8223,"sho":8224,"lid":8225,"19.7":8226,"1066":8227,"18.5":8228,"1241":8229,"1295":8230,"nium":8231,"1130":8232,"later":8233,"1433":8234,"1449":8235,"1376":8236,"stad":8237,"third":8238,"mem":8239,"meo":8240,"simo":8241,"1001":8242,"tax":8243,"0.75":8244,"ãģ°":8245,"ãģĶ":8246,"ãĤ»":8247,"462":8248,"Chin":8249,"Change":8250,"Challe":8251,"Maj":8252,"India":8253,"vic":8254,"vid":8255,"58.":8256,"696":8257,"SAE":8258,"786":8259,"563":8260,"62%":8261,"mothy":8262,"owski":8263,"95.":8264,"Neil":8265,"Array":8266,"Wei":8267,"PCS":8268,"feat":8269,"0.07":8270,"0.08":8271,"1703":8272,"ECE":8273,"Hope":8274,"gov":8275,"Pictures":8276,"arius":8277,"CHO":8278,"Andy":8279,"ADA":8280,"lines":8281,"Government":8282,"Hub":8283,"Cl2":8284,"timestamp":8285,"Blood":8286,"typedef":8287,"ential":8288,"FreeBSD":8289,"Taipei":8290,"Single":8291,"Esmeral":8292,"Talking":8293,"between":8294,"Stadiums":8295,"Advanced":8296,"Memorial":8297,"Anthony":8298,"Jacob":8299,"Esmeralda":8300,"4D":8301,"749":8302,"766":8303,"799":8304,"838":8305,"844":8306,"843":8307,"854":8308,"968":8309,"Apo":8310,"B6":8311,"BW":8312,"Colo":8313,"Candy":8314,"Ep":8315,"FB":8316,"Fr":8317,"Fit":8318,"Faker":8319,"G3":8320,"Hig":8321,"IZ":8322,"Isa":8323,"Iron":8324,"Kam":8325,"Kiss":8326,"Loo":8327,"Mn":8328,"Non":8329,"OBE":8330,"Pl":8331,"Rd":8332,"RIA":8333,"Sat":8334,"Score":8335,"Tr":8336,"Tas":8337,"Tit":8338,"TREAS":8339,"Vinc":8340,"WB":8341,"Woo":8342,"ata":8343,"edu":8344,"emp":8345,"far":8346,"fil":8347,"gger":8348,"series":8349,"¸©":8350,"ÅĦ":8351,"ìĤ":8352,"zhÇİ":8353,"sult":8354,"dical":8355,"10.7":8356,"10.2":8357,"1290":8358,"1265":8359,"1262":8360,"1286":8361,"pit":8362,"1729":8363,"1742":8364,"1438":8365,"1459":8366,"14.4":8367,"21.5":8368,"ret":8369,"ï¼ĳ":8370,"sir":8371,"ãĤ§":8372,"ãĤħ":8373,"height":8374,"75.":8375,"Cole":8376,"ReMi":8377,"663":8378,"Mee":8379,"79%":8380,"Alber":8381,"63%":8382,"ARS":8383,"Mojito":8384,"76.":8385,"APEC":8386,"Diplo":8387,"71%":8388,"Rick":8389,"Nature":8390,"0.06":8391,"Nik":8392,"DoReMi":8393,"ROR":8394,"march":8395,"Order":8396,"service":8397,"Fund":8398,"Country":8399,"âĹı":8400,"BLACK":8401,"Ship":8402,"friDay":8403,"Ville":8404,"Swing":8405,"Lisa":8406,"Johann":8407,"Hunter":8408,"double":8409,"true":8410,"Australian":8411,"ðª¸©":8412,"protein":8413,"SNCF":8414,"Jacques":8415,"B9TL":8416,"seudo":8417,"TREASURE":8418,"1190":8419,"718":8420,"733":8421,"837":8422,"8.0":8423,"879":8424,"928":8425,"922":8426,"948":8427,"966":8428,"A9":8429,"AZ":8430,"B5":8431,"Blen":8432,"C7":8433,"CBD":8434,"FOR":8435,"His":8436,"Jordan":8437,"KL":8438,"Kaka":8439,"LSA":8440,"Ny":8441,"Ness":8442,"NRA":8443,"OC":8444,"Ou":8445,"Oce":8446,"OBC":8447,"Pil":8448,"PET":8449,"Psy":8450,"PDP":8451,"RED":8452,"S22":8453,"Sant":8454,"Tin":8455,"Ul":8456,"UHF":8457,"cÄĵng":8458,"fx":8459,"got":8460,"girl":8461,"nam":8462,"wal":8463,"âŁ":8464,"ìł":8465,"lips":8466,"19.5":8467,"title":8468,"zie":8469,"1040":8470,"1240":8471,"1270":8472,"1599":8473,"1717":8474,"1447":8475,"1369":8476,"1373":8477,"muse":8478,"mund":8479,"stand":8480,"station":8481,"sity":8482,"ãĥļ":8483,"amber":8484,"senger":8485,"tang":8486,"0.11":8487,"ãĤ¶":8488,"37.":8489,"753":8490,"Map":8491,"Malay":8492,"look":8493,"Revolution":8494,"882":8495,"Living":8496,"983":8497,"Level":8498,"BAS":8499,"BANG":8500,"valu":8501,"conne":8502,"89.":8503,"date":8504,"aceae":8505,"fire":8506,"---":8507,"oko":8508,"MAG":8509,"pointer":8510,"Helen":8511,"1403":8512,"Conference":8513,"ASP":8514,"MPEG":8515,"1121":8516,"lins":8517,"gence":8518,"IFPI":8519,"Price":8520,"exe":8521,"YOUNG":8522,"PEG":8523,"Craig":8524,"Farms":8525,"ICOCA":8526,"green":8527,"DAMP":8528,"Ventures":8529,"asonic":8530,"dependent":8531,"Lewis":8532,"1x":8533,"1198":8534,"4x":8535,"746":8536,"819":8537,"814":8538,"813":8539,"824":8540,"851":8541,"964":8542,"Cel":8543,"CERT":8544,"Eid":8545,"Emer":8546,"Gay":8547,"Hur":8548,"Kis":8549,"Khan":8550,"Kap":8551,"Kara":8552,"Las":8553,"Llo":8554,"Mun":8555,"Mbit":8556,"Ped":8557,"Ran":8558,"Ral":8559,"Swi":8560,"Tes":8561,"Us":8562,"VL":8563,"ave":8564,"ech":8565,"ear":8566,"fly":8567,"gÇİ":8568,"gor":8569,"gge":8570,"gil":8571,"ik":8572,"ides":8573,"pot":8574,"sar":8575,"wai":8576,"ware":8577,"áŀ":8578,"ê¸":8579,"ìŀ":8580,"dec":8581,"chang":8582,"1219":8583,"1254":8584,"11.9":8585,"11.4":8586,"oria":8587,"anus":8588,"1676":8589,"lah":8590,"lace":8591,"1714":8592,"1429":8593,"1434":8594,"1444":8595,"1462":8596,"1451":8597,"1483":8598,"1364":8599,"sten":8600,"22.5":8601,"rio":8602,"ï¼¡":8603,"tek":8604,"cut":8605,"sequ":8606,"0.13":8607,"0.24":8608,"1.35":8609,"comm":8610,"Mak":8611,"Inf":8612,"losing":8613,"SEN":8614,"IIc":8615,"Cooper":8616,"cir":8617,"593":8618,"996":8619,"883":8620,"Lite":8621,"Deli":8622,"CDR":8623,"774":8624,"apore":8625,"892":8626,"895":8627,"peria":8628,"ISIL":8629,"colo":8630,"1407":8631,"Spy":8632,"commu":8633,"Wise":8634,"Gem":8635,"à¸Ń":8636,"provi":8637,"Form":8638,"HiME":8639,"Franz":8640,"refer":8641,"Display":8642,"anese":8643,"single":8644,"example":8645,"nics":8646,"ãĦ§":8647,"ãĦĽ":8648,"DD53":8649,"structure":8650,"Spirit":8651,"Karen":8652,"ministra":8653,"Captain":8654,"PHP":8655,"Object":8656,"mapframe":8657,"Getchu":8658,"Gordon":8659,"integer":8660,"NEXT":8661,"Abdul":8662,"Azure":8663,"VOCALO":8664,"Pacific":8665,"3rd":8666,"862":8667,"9.0":8668,"Az":8669,"Ass":8670,"E5":8671,"Jar":8672,"JAK":8673,"K10":8674,"Kai":8675,"N64":8676,"Our":8677,"Pow":8678,"RD":8679,"SOS":8680,"Sophi":8681,"T7":8682,"Tal":8683,"Twi":8684,"VG":8685,"Wu":8686,"cco":8687,"dÇĶn":8688,"gro":8689,"ile":8690,"osu":8691,"dei":8692,"human":8693,"1086":8694,"miR":8695,"1225":8696,"1224":8697,"1258":8698,"orus":8699,"1686":8700,"lae":8701,"1486":8702,"1497":8703,"1310":8704,"1329":8705,"13.6":8706,"1391":8707,"ï¼Ĵ":8708,"tage":8709,"0.18":8710,"0.30":8711,"0.2%":8712,"theory":8713,"andro":8714,"hed":8715,"Indian":8716,"Republic":8717,"nap":8718,"cip":8719,"58%":8720,"people":8721,"ATH":8722,"69%":8723,"693":8724,"Death":8725,"77.":8726,"Mart":8727,"987":8728,"Leg":8729,"BAC":8730,"hicle":8731,"ARA":8732,"control":8733,"896":8734,"Nexus":8735,"Sean":8736,"Gaming":8737,"Rab":8738,"73%":8739,"1108":8740,"1404":8741,"comment":8742,"Nova":8743,"âĪŀ":8744,"mys":8745,"Experi":8746,"AVC":8747,"Formation":8748,"Fea":8749,"rono":8750,"DCT":8751,"Dual":8752,"Mono":8753,"NOME":8754,"Prix":8755,"Matt":8756,"SDK":8757,"clear":8758,"villa":8759,"Cele":8760,"Plat":8761,"Virgi":8762,"âī¥":8763,"Urban":8764,"Francisco":8765,"Lisp":8766,"Victoria":8767,"Photo":8768,"Professional":8769,"Castle":8770,"Scala":8771,"Nerf":8772,"LIFE":8773,"French":8774,"VOCALOID":8775,"040":8776,"080":8777,"2S":8778,"6A":8779,"723":8780,"8500":8781,"858":8782,"859":8783,"914":8784,"934":8785,"944":8786,"969":8787,"953":8788,"Ade":8789,"Bli":8790,"BGM":8791,"Crown":8792,"EMD":8793,"FRAM":8794,"GNOME":8795,"HIG":8796,"Kre":8797,"Kas":8798,"N4":8799,"OG":8800,"OZ":8801,"PST":8802,"PAL":8803,"RR":8804,"Rit":8805,"RGB":8806,"Slo":8807,"Scor":8808,"Tau":8809,"Tot":8810,"Xperia":8811,"Yellow":8812,"ZICO":8813,"ais":8814,"bol":8815,"fur":8816,"hand":8817,"jk":8818,"pter":8819,"sv":8820,"uint":8821,"Ã¯":8822,"ÅĽ":8823,"Ëĭ":8824,"á¼":8825,"times":8826,"dica":8827,"ency":8828,"10.9":8829,"003":8830,"1236":8831,"1278":8832,"12.1":8833,"1263":8834,"1140":8835,"error":8836,"âĢĮ":8837,"1716":8838,"1442":8839,"1478":8840,"1360":8841,"1365":8842,"1333":8843,"1341":8844,"13.2":8845,"24.5":8846,"sted":8847,"stream":8848,"semi":8849,"tab":8850,"0.26":8851,"0.35":8852,"els":8853,"2.75":8854,"45.":8855,"cole":8856,"como":8857,"Math":8858,"STEM":8859,"local":8860,"Theod":8861,"adow":8862,"version":8863,"ATM":8864,"66.":8865,"opera":8866,"782":8867,"Roth":8868,"772":8869,"779":8870,"Leo":8871,"76%":8872,"891":8873,"Sex":8874,"1208":8875,"ISIS":8876,"Racing":8877,"Shell":8878,"Social":8879,"Body":8880,"à¸ŀ":8881,"Have":8882,"AIL":8883,"Carter":8884,"Kiii":8885,"Quin":8886,"Andrea":8887,"SO3":8888,"BORN":8889,"TEEN":8890,"Add":8891,"cans":8892,"Pear":8893,"Bili":8894,"Presi":8895,"PPP":8896,"mbH":8897,"Blair":8898,"Days":8899,"Hybrid":8900,"OKA":8901,"BIOS":8902,"Atlan":8903,"Terry":8904,"Ernst":8905,"LGBTQ":8906,"varia":8907,"Partners":8908,"Forest":8909,"Alfred":8910,"Frollo":8911,"doubles":8912,"WISE":8913,"sistant":8914,"Billy":8915,"Retrie":8916,"Century":8917,"Fantasy":8918,"1a":8919,"1194":8920,"834":8921,"849":8922,"941":8923,"Ae":8924,"Bap":8925,"Bye":8926,"BWF":8927,"BOSS":8928,"CAT":8929,"DAI":8930,"Ec":8931,"Fon":8932,"FRE":8933,"FIA":8934,"GU":8935,"JJ":8936,"Look":8937,"Pb":8938,"Plu":8939,"Pun":8940,"Ras":8941,"Tap":8942,"Tak":8943,"Tensor":8944,"Uta":8945,"Wang":8946,"WAN":8947,"aa":8948,"ash":8949,"adi":8950,"bell":8951,"ctu":8952,"gri":8953,"gne":8954,"ging":8955,"how":8956,"kir":8957,"nn":8958,"osi":8959,"omp":8960,"pass":8961,"vant":8962,"wing":8963,"×ķ":8964,"Ø©":8965,"à¼":8966,"ëĭ":8967,"ìĺ":8968,"zhÅ«n":8969,"dez":8970,"1030":8971,"1099":8972,"1221":8973,"12.2":8974,"1272":8975,"1533":8976,"1698":8977,"1671":8978,"1413":8979,"1443":8980,"1358":8981,"1396":8982,"ines":8983,"recor":8984,"etti":8985,"atory":8986,"load":8987,"Come":8988,"Cool":8989,"59.":8990,"998":8991,"789":8992,"CDK":8993,"773":8994,"1206":8995,"Arch":8996,"figu":8997,"Rai":8998,"Razer":8999,"Suite":9000,"ources":9001,"chester":9002,"sole":9003,"ships":9004,"EPHE":9005,"HKIFF":9006,"MPI":9007,"proper":9008,"Schi":9009,"inae":9010,"dyna":9011,"lard":9012,"Kota":9013,"sys":9014,"Commission":9015,"SCI":9016,"Full":9017,"Charlie":9018,"UTF":9019,"Minute":9020,"Singapore":9021,"litary":9022,"Bobby":9023,"ðĲ°":9024,"drop":9025,"âī¤":9026,"operator":9027,"Stanley":9028,"Sorana":9029,"event":9030,"íķľ":9031,"Dynamics":9032,"AMOLED":9033,"Quick":9034,"Application":9035,"UNESCO":9036,"OBCs":9037,"1189":9038,"818":9039,"848":9040,"869":9041,"899":9042,"916":9043,"917":9044,"949":9045,"Adi":9046,"Bis":9047,"Cs":9048,"Cream":9049,"D7":9050,"Dcard":9051,"GSM":9052,"GmbH":9053,"Hou":9054,"Ivan":9055,"Lol":9056,"M24":9057,"Mine":9058,"NEC":9059,"Ore":9060,"RM":9061,"RID":9062,"Swan":9063,"Screen":9064,"TER":9065,"VAL":9066,"Wall":9067,"X2":9068,"acid":9069,"bad":9070,"care":9071,"ctus":9072,"dol":9073,"gau":9074,"jour":9075,"kt":9076,"kle":9077,"lk":9078,"oke":9079,"Â¥":9080,"ÅŁ":9081,"ÛĮ":9082,"à¨":9083,"ê¹":9084,"ëĤ":9085,"ëŀ":9086,"ì§":9087,"chÄģn":9088,"length":9089,"tino":9090,"1060":9091,"10.4":9092,"1211":9093,"1234":9094,"1246":9095,"1110":9096,"1147":9097,"11.1":9098,"orum":9099,"erra":9100,"1548":9101,"lao":9102,"laus":9103,"14.8":9104,"1458":9105,"13.8":9106,"inus":9107,"24.3":9108,"ries":9109,"tem":9110,"ãĤ¡":9111,"Chen":9112,"Chat":9113,"Choi":9114,"500rpm":9115,"SEM":9116,"Review":9117,"Reich":9118,"cipal":9119,"887":9120,"Stray":9121,"ido":9122,"1503":9123,"793":9124,"hibi":9125,"many":9126,"BSI":9127,"Movie":9128,"Arn":9129,"finity":9130,"ED79":9131,"----":9132,"Dale":9133,"ICS":9134,"Lab":9135,"IDS":9136,"Sui":9137,"Logic":9138,"bug":9139,"94%":9140,"ITZ":9141,"Sili":9142,"91%":9143,"à¸´":9144,"Julia":9145,"ROCK":9146,"1123":9147,"myTV":9148,"Lud":9149,"Lucas":9150,"Excel":9151,"Quar":9152,"lence":9153,"Andr":9154,"MOON":9155,"CR300":9156,"BDSM":9157,"large":9158,"Keith":9159,"PPTP":9160,"burn":9161,"1192":9162,"Boom":9163,"Panasonic":9164,"Calli":9165,"Fern":9166,"Mrs":9167,"NEWS":9168,"Hills":9169,"Empi":9170,"Clear":9171,"ologies":9172,"shington":9173,"Machine":9174,"Amiga":9175,"sorted":9176,"haus":9177,"Culture":9178,"Quake":9179,"ospace":9180,"ð¬ĵĭ":9181,"ãİ¡":9182,"formance":9183,"Retrieved":9184,"012":9185,"868":9186,"974":9187,"Aff":9188,"Astra":9189,"BV":9190,"Bb":9191,"Bam":9192,"Blan":9193,"Baker":9194,"C96":9195,"Dass":9196,"E9":9197,"Fay":9198,"G4":9199,"G9":9200,"KF":9201,"Kry":9202,"KEN":9203,"Lay":9204,"LMP":9205,"PER":9206,"RG":9207,"VEn":9208,"VIE":9209,"Yang":9210,"ZE":9211,"Zone":9212,"dn":9213,"eV":9214,"fs":9215,"four":9216,"gang":9217,"gers":9218,"jn":9219,"lÇĴu":9220,"lÅ«n":9221,"rt":9222,"squ":9223,"ua":9224,"âĴ":9225,"ngo":9226,"dem":9227,"xin":9228,"lei":9229,"zhuÄģi":9230,"1027":9231,"1070":9232,"1049":9233,"mento":9234,"mili":9235,"006":9236,"1232":9237,"nian":9238,"ants":9239,"1674":9240,"lamb":9241,"arn":9242,"1448":9243,"1439":9244,"1467":9245,"1345":9246,"13.4":9247,"1386":9248,"1392":9249,"1393":9250,"reg":9251,"ï¼ľ":9252,"tember":9253,"sii":9254,"rang":9255,"0.29":9256,"ãģļ":9257,"ats":9258,"cover":9259,"thema":9260,"tom":9261,"654":9262,"Chie":9263,"Magic":9264,"Reg":9265,"44.":9266,"nah":9267,"994":9268,"String":9269,"78.":9270,"Lie":9271,"LiTV":9272,"Devil":9273,"angle":9274,"Leop":9275,"Lega":9276,"Vilade":9277,"AMR":9278,"vage":9279,"Army":9280,"ISH":9281,"ISM":9282,"file":9283,"Labor":9284,"Raja":9285,"Sue":9286,"Supp":9287,"akh":9288,"IPA":9289,"IPO":9290,"kien":9291,"PS4":9292,"à¸ª":9293,"ALA":9294,"MP3":9295,"USH":9296,"orton":9297,"Three":9298,"Exchange":9299,"wee":9300,"MIL":9301,"TEE":9302,"BMG":9303,"DR2700":9304,"10646":9305,"marker":9306,"Harold":9307,"Washington":9308,"TSB":9309,"Morris":9310,"Holland":9311,"LCK":9312,"born":9313,"UCI":9314,"Patri":9315,"ports":9316,"LPDDR":9317,"LTTE":9318,"LSST":9319,"Turbo":9320,"Grant":9321,"reads":9322,"schema":9323,"street":9324,"Scheme":9325,"Village":9326,"ELEVEn":9327,"Infocom":9328,"article":9329,"GDDR5":9330,"F7F":9331,"NONO":9332,"Strv":9333,"Silicon":9334,"Viladecans":9335,"4200":9336,"963":9337,"ATC":9338,"Avi":9339,"Brow":9340,"CAM":9341,"Cell":9342,"Cana":9343,"CBE":9344,"H6":9345,"H9":9346,"Hus":9347,"JK":9348,"JIS":9349,"KV":9350,"Klein":9351,"Ling":9352,"M60":9353,"Ng":9354,"NTT":9355,"ORI":9356,"Own":9357,"P5":9358,"R9":9359,"VY":9360,"VCR":9361,"Wen":9362,"ating":9363,"cles":9364,"cator":9365,"dar":9366,"foot":9367,"obov":9368,"pap":9369,"ula":9370,"vre":9371,"xml":9372,"zone":9373,"zoom":9374,"ëĿ":9375,"jin":9376,"quar":9377,"1012":9378,"1017":9379,"10.3":9380,"1063":9381,"1214":9382,"1229":9383,"1268":9384,"1242":9385,"1253":9386,"1271":9387,"nier":9388,"1160":9389,"1135":9390,"1677":9391,"1691":9392,"ares":9393,"1419":9394,"1324":9395,"stel":9396,"store":9397,"thod":9398,"root":9399,"rap":9400,"ãĥ´":9401,"ãĥĴ":9402,"cepha":9403,"tale":9404,"0.45":9405,"male":9406,"make":9407,"1.45":9408,"cogni":9409,"both":9410,"3900":9411,"Mala":9412,"Major":9413,"SET":9414,"pex":9415,"oso":9416,"Margar":9417,"deral":9418,"79.":9419,"54%":9420,"Jois":9421,"rance":9422,"871":9423,"872":9424,"spon":9425,"EDA":9426,"Beach":9427,"ANSI":9428,"home":9429,"ITU":9430,"1.5%":9431,"1307":9432,"1409":9433,"Natural":9434,"therine":9435,"à¸ģ":9436,"Doctor":9437,"Ther":9438,"Nov":9439,"arian":9440,"Quali":9441,"Andre":9442,"MOMO":9443,"pul":9444,"Feed":9445,"Kate":9446,"DR2800":9447,"CEMS":9448,"Graphi":9449,"Norman":9450,"nism":9451,"Canada":9452,"Singh":9453,"litan":9454,"DirectShow":9455,"Scot":9456,"fying":9457,"Obser":9458,"Raymond":9459,"Certi":9460,"Break":9461,"Medical":9462,"Oliver":9463,"JUMP":9464,"Bernard":9465,"ganization":9466,"Radar":9467,"Safari":9468,"Hospital":9469,"Tiger":9470,"ë¦¬":9471,"Olympic":9472,"following":9473,"Vincent":9474,"HIGH":9475,"à¼ĭ":9476,"2n":9477,"734":9478,"9K":9479,"943":9480,"952":9481,"A7":9482,"Af":9483,"Aar":9484,"Age":9485,"Ast":9486,"Apri":9487,"A380":9488,"Bf":9489,"C9":9490,"D6":9491,"EI":9492,"Flip":9493,"Ground":9494,"JS":9495,"JY":9496,"Jun":9497,"KM":9498,"Kal":9499,"M9":9500,"Ms":9501,"M10":9502,"Mall":9503,"NFC":9504,"Ox":9505,"Otto":9506,"SBL":9507,"Ut":9508,"Vla":9509,"XI":9510,"YE":9511,"Yes":9512,"ame":9513,"ava":9514,"aster":9515,"able":9516,"bg":9517,"dos":9518,"fai":9519,"fron":9520,"hman":9521,"here":9522,"ining":9523,"jp":9524,"oid":9525,"plex":9526,"rint":9527,"solo":9528,"x2":9529,"Åł":9530,"ÎĽ":9531,"êµ":9532,"ë¹":9533,"Ĭ¸":9534,"chs":9535,"dule":9536,"bil":9537,"supp":9538,"kun":9539,"1059":9540,"1056":9541,"1054":9542,"005":9543,"1259":9544,"1252":9545,"1282":9546,"11.8":9547,"11.7":9548,"piÇİo":9549,"15.9":9550,"15.4":9551,"arning":9552,"1415":9553,"1426":9554,"14.6":9555,"1476":9556,"1349":9557,"1363":9558,"1397":9559,"27.5":9560,"sik":9561,"40.":9562,"sec":9563,"0.39":9564,"1.09":9565,"offi":9566,"ett":9567,"cki":9568,"ckers":9569,"nei":9570,"neo":9571,"Mail":9572,"Macro":9573,"Indie":9574,"bear":9575,"bang":9576,"694":9577,"Dem":9578,"Marcus":9579,"ï½£":9580,"AMA":9581,"AMG":9582,"Teach":9583,"Temple":9584,"gation":9585,"spor":9586,"Gabri":9587,"ICT":9588,"ations":9589,"96.":9590,"84.":9591,"ANN":9592,"Muni":9593,"1308":9594,"Cathe":9595,"Five":9596,"sage":9597,"Intermarch":9598,"Dog":9599,"Thorn":9600,"CNJ":9601,"Example":9602,"Quan":9603,"Quad":9604,"Table":9605,"0.55":9606,"MIX":9607,"Gusta":9608,"cyclo":9609,"Kath":9610,"vely":9611,"Harris":9612,"240ZJ":9613,"Give":9614,"EEZ":9615,"SHIP":9616,"Genie":9617,"acti":9618,"ffici":9619,"Speed":9620,"Shang":9621,"complex":9622,"Kingdom":9623,"Friends":9624,"stock":9625,"strong":9626,"IOC":9627,"á¹£":9628,"plot":9629,"Scrum":9630,"Schema":9631,"livedoor":9632,"Heaven":9633,"TGV":9634,"Tolkien":9635,"Fisher":9636,"ebly":9637,"Kenneth":9638,"mouth":9639,"Roberts":9640,"relative":9641,"Chromium":9642,"Eidos":9643,"Virginia":9644,"Legacy":9645,"1195":9646,"898":9647,"Aero":9648,"Bart":9649,"Cin":9650,"CAD":9651,"CBN":9652,"Dir":9653,"Hell":9654,"JD":9655,"KTV":9656,"KSK":9657,"M12":9658,"MET":9659,"Nf":9660,"Om":9661,"Roo":9662,"Rau":9663,"Rant":9664,"Room":9665,"Rhyth":9666,"UG":9667,"UH":9668,"U15":9669,"Vu":9670,"Vas":9671,"Wai":9672,"WDF":9673,"bara":9674,"foo":9675,"fus":9676,"g4":9677,"git":9678,"hara":9679,"ita":9680,"pad":9681,"sc":9682,"sat":9683,"ÂŃ":9684,"ðł":9685,"dell":9686,"child":9687,"lica":9688,"20.5":9689,"bino":9690,"tius":9691,"tiger":9692,"zio":9693,"1019":9694,"1011":9695,"1015":9696,"1016":9697,"1032":9698,"1047":9699,"008":9700,"1212":9701,"1297":9702,"niÄģn":9703,"pine":9704,"1412":9705,"1314":9706,"1313":9707,"13.7":9708,"13.3":9709,"1394":9710,"gee":9711,"start":9712,"23.5":9713,"rett":9714,"meta":9715,"methy":9716,"26.5":9717,"cure":9718,"1006":9719,"0.23":9720,"0.40":9721,"0.60":9722,"ãģ³":9723,"ãģ»":9724,"1.23":9725,"ãĤĢ":9726,"atten":9727,"4600":9728,"39.2":9729,"STD":9730,"Cover":9731,"cian":9732,".02%":9733,"Rocket":9734,"Marc":9735,"9800":9736,"Victory":9737,"manu":9738,"Temp":9739,"Dai":9740,"Soda":9741,"Anni":9742,"Anton":9743,"Weebly":9744,"area":9745,"Bul":9746,"Today":9747,"à¸Ķ":9748,"Nice":9749,"Hoy":9750,"Domini":9751,"1127":9752,"AKE":9753,"proto":9754,"Lucky":9755,"Lumia":9756,"Fate":9757,"Forth":9758,"SO2":9759,"TE1":9760,"TEAM":9761,"lands":9762,"Monte":9763,"NO2":9764,"market":9765,"years":9766,"GameCube":9767,"ILD":9768,"280ZJ":9769,"Bracket":9770,"Cyber":9771,"AFI":9772,"1191":9773,"yoga":9774,"lipse":9775,"Produce":9776,"Plaza":9777,"Porta":9778,"Television":9779,"Crazy":9780,"Farm":9781,"Frede":9782,"Danny":9783,"à¹Ģ":9784,"Histori":9785,"VVVF":9786,"Ryona":9787,"modore":9788,"Flying":9789,"Orange":9790,"Sarah":9791,"16V280ZJ":9792,"float":9793,"Strong":9794,"latitude":9795,"Heinrich":9796,"IMDb":9797,"ê°Ģ":9798,"known":9799,"longitude":9800,"TTCN":9801,"Blender":9802,"Margaret":9803,"+.":9804,"7100":9805,"822":9806,"836":9807,"861":9808,"924":9809,"923":9810,"AIC":9811,"Agency":9812,"B4":9813,"B8":9814,"Evolution":9815,"FPS":9816,"Glen":9817,"HH":9818,"Hoo":9819,"Jere":9820,"Krist":9821,"KING":9822,"LW":9823,"M1895":9824,"Pak":9825,"Pris":9826,"PART":9827,"Seni":9828,"Vul":9829,"Wes":9830,"X1":9831,"XS":9832,"ZFC":9833,"ase":9834,"aign":9835,"bson":9836,"brea":9837,"call":9838,"cchi":9839,"ees":9840,"found":9841,"gr":9842,"hof":9843,"jap":9844,"kV":9845,"lÃ²ng":9846,"t2":9847,"wig":9848,"wang":9849,"x3":9850,"Ïį":9851,"Ð£":9852,"à§":9853,"à¯":9854,"ð£":9855,"design":9856,"delta":9857,"during":9858,"2031":9859,"bir":9860,"lute":9861,"zin":9862,"zip":9863,"enberg":9864,"1018":9865,"1035":9866,"10.8":9867,"1072":9868,"mentation":9869,"1244":9870,"1299":9871,"1170":9872,"1139":9873,"11.6":9874,"pio":9875,"ery":9876,"16.8":9877,"aris":9878,"1421":9879,"1455":9880,"14.9":9881,"1461":9882,"1485":9883,"13000":9884,"1355":9885,"1343":9886,"1387":9887,"1372":9888,"alpha":9889,"rel":9890,"rung":9891,"rid":9892,"rock":9893,"sica":9894,"rate":9895,"0.21":9896,"0.22":9897,"0.27":9898,"0.46":9899,"0.32":9900,"0.33":9901,"0.49":9902,"0.41":9903,"0.95":9904,"else":9905,"ãģĿ":9906,"1.36":9907,"1.44":9908,"1.42":9909,"hea":9910,"asons":9911,"Chamber":9912,"STs":9913,"logy":9914,"bei":9915,"SEP":9916,"They":9917,"4400":9918,"4217":9919,"78%":9920,"eds":9921,"hang":9922,"mote":9923,"AME":9924,"Prote":9925,"Proper":9926,"ACP":9927,"Dawn":9928,"ICAO":9929,"ICHI":9930,"97.":9931,"alism":9932,"colle":9933,"allow":9934,"Sim":9935,"1304":9936,"PSY":9937,"1408":9938,"Wide":9939,"ETS":9940,"ENU":9941,"Juli":9942,"Dong":9943,"government":9944,"1125":9945,"Forum":9946,"Taste":9947,"Kaiser":9948,"Adrian":9949,"wave":9950,"Commodore":9951,"Duke":9952,"Stuart":9953,"à¤®":9954,"EXIT":9955,"micron":9956,"Only":9957,"MDT":9958,"minor":9959,"URN":9960,"Asse":9961,"Alive":9962,"compon":9963,"Friend":9964,"nowledge":9965,"EMU":9966,"Director":9967,"GMM":9968,"Calvin":9969,"Claude":9970,"when":9971,"Freedom":9972,"finals":9973,"Rapper":9974,"PIECE":9975,"Pascal":9976,"Sciences":9977,"Horse":9978,"Technologies":9979,"Haml":9980,"object":9981,"Dolby":9982,"Illu":9983,"styles":9984,"Kirk":9985,"UCLASS":9986,"GROUP":9987,"Austin":9988,"Aerospace":9989,"Protocol":9990,"FashionTV":9991,"BIGBANG":9992,"Storm":9993,"Dropbox":9994,"Diamond":9995,"September":9996,"Kakao":9997,"Ralph":9998,"Bilibili":9999,"ëĿ¼":10000,"090":10001,"067":10002,"11000":10003,"9F":10004,"Agu":10005,"Aur":10006,"AFC":10007,"Bes":10008,"Cm":10009,"Est":10010,"Fur":10011,"Fine":10012,"Fellow":10013,"GTE":10014,"Ghost":10015,"HSD":10016,"Joo":10017,"K3":10018,"Kol":10019,"Kang":10020,"Kali":10021,"Kris":10022,"KAD":10023,"KDE":10024,"LI":10025,"Lid":10026,"MST":10027,"NTSB":10028,"OE":10029,"P1":10030,"Pel":10031,"PBS":10032,"PIE":10033,"RET":10034,"Smal":10035,"Ton":10036,"TARD":10037,"Vor":10038,"Vali":10039,"WRC":10040,"Wings":10041,"Wanna":10042,"YES":10043,"bru":10044,"c4":10045,"clu":10046,"eh":10047,"eli":10048,"each":10049,"every":10050,"effe":10051,"gly":10052,"gori":10053,"hill":10054,"js":10055,"jar":10056,"jay":10057,"nas":10058,"pti":10059,"pak":10060,"xys":10061,"zel":10062,"Åļ":10063,"Ëĩ":10064,"ÎŃ":10065,"ÙĤ":10066,"â¼":10067,"ðĴ":10068,"sher":10069,"chro":10070,"2040":10071,"2047":10072,"19.6":10073,"sun":10074,"tif":10075,"tii":10076,"dier":10077,"lun":10078,"lung":10079,"1046":10080,"1218":10081,"1215":10082,"1247":10083,"1243":10084,"1256":10085,"nit":10086,"1138":10087,"1137":10088,"1168":10089,"ordina":10090,"1693":10091,"1414":10092,"1427":10093,"1432":10094,"1491":10095,"zuo":10096,"1378":10097,"1351":10098,"fornia":10099,"stris":10100,"recei":10101,"2758":10102,"ï¼ķ":10103,"roy":10104,".52%":10105,"ãĥĺ":10106,"1002":10107,"0.14":10108,"0.000":10109,"0.68":10110,"0.4%":10111,"1.04":10112,"35.":10113,"2.25":10114,"atta":10115,"cke":10116,"nez":10117,"Magi":10118,"Instru":10119,"SEC":10120,"Cosplay":10121,"peti":10122,"auri":10123,"592":10124,"opo":10125,"SAS":10126,"ards":10127,"Roma":10128,"Robo":10129,"Miami":10130,"Marco":10131,"Marine":10132,"ï½¢":10133,"98.":10134,"984":10135,"52%":10136,"Youth":10137,"mode":10138,"move":10139,"1207":10140,"Ark":10141,"Sul":10142,"Savage":10143,"Tuber":10144,"Local":10145,"bution":10146,"IPCC":10147,"Ansible":10148,"Boi":10149,"wide":10150,"wich":10151,"1106":10152,"1.52":10153,"1309":10154,"Spen":10155,"Navi":10156,"sions":10157,"1706":10158,"à¸§":10159,"à¸µ":10160,"ALX":10161,"âĨĲ":10162,"gina":10163,"Caro":10164,"Thor":10165,"1129":10166,"Exe":10167,"Exten":10168,"SO4":10169,"BOT":10170,"Feel":10171,"1185":10172,"IFT":10173,"à¤¿":10174,"NOW":10175,"Cortex":10176,"LLC":10177,"Precision":10178,"mbly":10179,"Northern":10180,"Superia":10181,"tric":10182,"Georg":10183,"Abra":10184,"Speci":10185,"Spiri":10186,"XXX":10187,"Japanese":10188,"ð«ļ":10189,"SUV":10190,"oire":10191,"Boyz":10192,"SNK":10193,"Zip":10194,"Masters":10195,"âĳł":10196,"Championships":10197,"Palmer":10198,"Yoshi":10199,"Niconico":10200,"Larry":10201,"Democra":10202,"Quasimo":10203,"Artists":10204,"Intelligent":10205,"tellite":10206,"Connect":10207,"ìļ°":10208,"Faith":10209,"802.11":10210,"Investment":10211,"MIRROR":10212,"ìĤ¬":10213,"OKAWA":10214,"bgcolor":10215,"Frederick":10216,"TARDIS":10217,"Quasimodo":10218,"013":10219,"065":10220,"1N":10221,"1202":10222,"4B":10223,"5100":10224,"5400":10225,"743":10226,"9600":10227,"A8":10228,"Abi":10229,"Amp":10230,"CSP":10231,"CUB":10232,"CIE":10233,"Dru":10234,"Dum":10235,"Exi":10236,"Even":10237,"Emily":10238,"Easy":10239,"Fol":10240,"Fis":10241,"Food":10242,"FIL":10243,"Gap":10244,"Gia":10245,"GHC":10246,"Hori":10247,"JM":10248,"KW":10249,"Kent":10250,"Mw":10251,"Mand":10252,"MPC":10253,"Nit":10254,"NIST":10255,"OLED":10256,"PW":10257,"PAS":10258,"PDA":10259,"Q3":10260,"Rid":10261,"T5":10262,"Wy":10263,"Xe":10264,"ade":10265,"bby":10266,"fera":10267,"gren":10268,"hop":10269,"horn":10270,"kas":10271,"og":10272,"pta":10273,"sr":10274,"tty":10275,"tja":10276,"wald":10277,"ÄĮ":10278,"Å¾":10279,"ËĬ":10280,"ìĸ":10281,"lich":10282,"lini":10283,"qiÄģ":10284,"lery":10285,"dise":10286,"tua":10287,"tun":10288,"1037":10289,"1067":10290,"009":10291,"1216":10292,"1226":10293,"1255":10294,"1155":10295,"1158":10296,"1142":10297,"1143":10298,"1154":10299,"pita":10300,"ornis":10301,"lari":10302,"1418":10303,"1494":10304,"1347":10305,"1367":10306,"1374":10307,"index":10308,"gether":10309,"force":10310,"ï¼Ĳ":10311,"rot":10312,"sier":10313,"amar":10314,"0.17":10315,"0.48":10316,"0.34":10317,"0.42":10318,"0.98":10319,"0.8%":10320,"ãģĲ":10321,"1.37":10322,"etro":10323,"etra":10324,"2.36":10325,"ãĤ®":10326,"att":10327,"SEL":10328,"Reference":10329,"vere":10330,"67.":10331,"ATENU":10332,"Moni":10333,"Search":10334,"Stadia":10335,"Belie":10336,"Sala":10337,"Shin":10338,"Unity":10339,"1107":10340,"Path":10341,"Pari":10342,"Riot":10343,"phone":10344,"Bull":10345,"Sprint":10346,"aracter":10347,"Naver":10348,"ETF":10349,"Nix":10350,"Pocket":10351,"Carol":10352,"Kick":10353,"UND":10354,"âĪ¶":10355,"tings":10356,"AVBW":10357,"ADHD":10358,"orium":10359,"DAY":10360,"OpenMP":10361,"Pul":10362,"Comman":10363,"Commercial":10364,"Biz":10365,"Complex":10366,"velo":10367,"Barry":10368,"Performance":10369,"jave":10370,"SCs":10371,"Vocal":10372,"Universe":10373,"Eugene":10374,"llah":10375,"Markdown":10376,"WTA1000":10377,"Brain":10378,"ï¹Ķ":10379,"YPE":10380,"Canon":10381,"STARSHIP":10382,"vsky":10383,"Lauren":10384,"special":10385,"NEW":10386,"school":10387,"Rosa":10388,"Mason":10389,"Belle":10390,"Crye":10391,"Studies":10392,"Dennis":10393,"Phoe":10394,".00%":10395,"culture":10396,"TIME":10397,"ArcGIS":10398,"Synthe":10399,"LUNA":10400,"Paper":10401,"Podcast":10402,"16V240ZJ":10403,"Economic":10404,"Susan":10405,"yunnan":10406,"Isoxys":10407,"Congress":10408,"tuplet":10409,"CRH380":10410,"California":10411,"Challenge":10412,"film":10413,"Ocean":10414,"Empire":10415,"Cathed":10416,"KADOKAWA":10417,"023":10418,"062":10419,"1B":10420,"739":10421,"763":10422,"7.5%":10423,"AIT":10424,"Eva":10425,"Gl":10426,"Hindu":10427,"Jor":10428,"K1":10429,"KCON":10430,"Knight":10431,"Nak":10432,"Pt":10433,"Ple":10434,"Pot":10435,"Row":10436,"Rho":10437,"Sad":10438,"SVO":10439,"VAR":10440,"VTuber":10441,"Wan":10442,"WTO":10443,"WRK":10444,"d8":10445,"pf":10446,"pel":10447,"pora":10448,"uu":10449,"v2":10450,"ËĲ":10451,"Ìģ":10452,"ØŃ":10453,"ê³":10454,"lium":10455,"20.8":10456,"leh":10457,"level":10458,"tik":10459,"quin":10460,"did":10461,"tung":10462,"lur":10463,"jun":10464,"10H":10465,"1014":10466,"1228":10467,"1285":10468,"1273":10469,"1119":10470,"1162":10471,"ert":10472,"15.8":10473,"15.6":10474,"1428":10475,"1445":10476,"14.7":10477,"1320":10478,"1312":10479,"13.9":10480,"1377":10481,"1352":10482,"1389":10483,"ints":10484,"information":10485,"21.3":10486,"regi":10487,"rocket":10488,"sim":10489,"race":10490,"ltalk":10491,"1008":10492,"tak":10493,"0.36":10494,"0.63":10495,"maxi":10496,"offee":10497,"etta":10498,"tern":10499,"tero":10500,"cked":10501,"INA":10502,"Maple":10503,"SEA":10504,"Ready":10505,"ATR":10506,"cty":10507,"optera":10508,"57%":10509,"88.":10510,"unsigned":10511,"Lili":10512,"Dee":10513,"776":10514,"Lec":10515,"filter":10516,"APT":10517,"Dash":10518,"Dame":10519,"pool":10520,"1102":10521,"1103":10522,"ITS":10523,"1401":10524,"Case":10525,"Spor":10526,"blem":10527,"ToHeart":10528,"Tommy":10529,"MSP":10530,"Nim":10531,"June":10532,"DSR":10533,"REAL":10534,"psy":10535,"0.52":10536,"Federal":10537,"Collins":10538,"Peak":10539,"OpenGL":10540,"Kee":10541,"Dura":10542,"à¤¤":10543,"rene":10544,"SPARC":10545,"Perry":10546,"GPT":10547,"ccer":10548,"Trade":10549,"Private":10550,"orage":10551,"WTA125":10552,"Showcase":10553,"About":10554,"Herbert":10555,"days":10556,"DEET":10557,"Shah":10558,"Leader":10559,"CGI":10560,"spaceflight":10561,"ð«Ł":10562,"belle":10563,"bilibili":10564,"Laura":10565,"Magnum":10566,"CF3":10567,"Generation":10568,"Emma":10569,"Islands":10570,"Foreign":10571,"close":10572,"Environ":10573,"Grove":10574,"INNER":10575,"JUST":10576,"Ronald":10577,"Alto":10578,"XC60":10579,"Shane":10580,"C5H5":10581,"Justice":10582,"MMORPG":10583,"BLEACH":10584,"Physic":10585,"Texas":10586,"Francesco":10587,"Bradley":10588,"allocator":10589,"archive":10590,"STEREO":10591,"Hughes":10592,"Korea":10593,"Documentary":10594,"Lloyd":10595,"hedron":10596,"svg":10597,"figuration":10598,"lambda":10599,"ORICON":10600,"Graphics":10601,"Senior":10602,"Smalltalk":10603,"CUBRID":10604,"ToHeart2":10605,"021":10606,"033":10607,"043":10608,"053":10609,"1b":10610,"4300":10611,"8X":10612,"A6":10613,"Aw":10614,"Amy":10615,"BG":10616,"Born":10617,"C8":10618,"C13":10619,"Cit":10620,"Cara":10621,"Dhar":10622,"Danger":10623,"DASH":10624,"Eat":10625,"FU":10626,"Figh":10627,"FAA":10628,"Ire":10629,"Kay":10630,"Kau":10631,"LET":10632,"MH":10633,"NER":10634,"OO":10635,"Ober":10636,"Owen":10637,"Peri":10638,"PAD":10639,"PTT":10640,"Ptr":10641,"QT":10642,"Qi":10643,"Rin":10644,"S6":10645,"S26":10646,"Scu":10647,"SDR":10648,"THC":10649,"TOSHI":10650,"Vit":10651,"Veri":10652,"VWF":10653,"WG":10654,"ack":10655,"bl":10656,"c2":10657,"fol":10658,"gamer":10659,"ix":10660,"ln":10661,"nen":10662,"oh":10663,"tton":10664,"Ð¶":10665,"Ø´":10666,"ë³":10667,"ëı":10668,"zhi":10669,"channel":10670,"lix":10671,"dun":10672,"lene":10673,"lena":10674,"tico":10675,"tique":10676,"kus":10677,"1076":10678,"1095":10679,"mind":10680,"miss":10681,"mistry":10682,"1248":10683,"1118":10684,"1131":10685,"1145":10686,"1178":10687,"16.7":10688,"lac":10689,"arti":10690,"aran":10691,"1423":10692,"1422":10693,"1479":10694,"14.1":10695,"1482":10696,"1327":10697,"1357":10698,"1398":10699,"13.1":10700,"1383":10701,"1381":10702,"fort":10703,"thes":10704,"regu":10705,"ï¼¢":10706,"teur":10707,".56%":10708,"1003":10709,"0.38":10710,"0.67":10711,"0.61":10712,"math":10713,"1.00":10714,"1.02":10715,"ets":10716,"ils":10717,"coc":10718,"cock":10719,"ternal":10720,"heim":10721,"near":10722,"asso":10723,"Mack":10724,"Indi":10725,"best":10726,"Report":10727,"bran":10728,"veri":10729,"bac":10730,"bau":10731,".92%":10732,"aud":10733,"SAAB":10734,"idal":10735,"Libre":10736,"Member":10737,"moni":10738,"AMMA":10739,"Mojave":10740,"continu":10741,"Josh":10742,"Joint":10743,"893":10744,"Gag":10745,"Bee":10746,"Beam":10747,"Shir":10748,"bul":10749,"Ant":10750,"Any":10751,"Analysis":10752,"aire":10753,"MVV":10754,"SSP":10755,"1101":10756,"1109":10757,"Rio":10758,"pher":10759,"Hei":10760,"Hey":10761,"Bubble":10762,"Cale":10763,"ASO":10764,"WiFi":10765,"endy":10766,"IVER":10767,"Tong":10768,"BLS":10769,"2.5%":10770,"vention":10771,"Factor":10772,"weak":10773,"Rush":10774,"orio":10775,"Pure":10776,"à¤¨":10777,"à¤Ĥ":10778,"NO3":10779,"Perl":10780,"Perfect":10781,"Harrison":10782,"EEEE":10783,"Graph":10784,"hyn":10785,"ï¹ķ":10786,"Thom":10787,"Warri":10788,"Universit":10789,"737MAX":10790,"crew":10791,"Chuck":10792,"Christi":10793,"sheng":10794,"ï¸ģ":10795,"Smile":10796,"Finan":10797,"Agri":10798,"Elite":10799,"Turtle":10800,"Plane":10801,"Woman":10802,"CMOS":10803,"Reser":10804,"Melody":10805,"gregate":10806,"âīĪ":10807,"Desk":10808,"á¹Ń":10809,"FAT32":10810,"Opti":10811,"Medicine":10812,"Community":10813,"Standings":10814,"Blues":10815,"mination":10816,"CASH":10817,"COLLECTION":10818,"Middle":10819,"Cultural":10820,"Australia":10821,"Loren":10822,"Package":10823,"Visa":10824,"position":10825,"Esports":10826,"Integra":10827,"watch":10828,"GitHub":10829,"Evans":10830,"TEP70":10831,"Plant":10832,"Kotaku":10833,"availa":10834,"Shanghai":10835,"Execu":10836,"Cathedral":10837,"018":10838,"046":10839,"032":10840,"073":10841,"093":10842,"2O":10843,"2PM":10844,"2O3":10845,"4.5%":10846,"5200":10847,"Aki":10848,"Bed":10849,"Bot":10850,"Clay":10851,"Cant":10852,"DIN":10853,"Das":10854,"E6":10855,"Ev":10856,"ESA":10857,"EH10":10858,"Fat":10859,"Fitz":10860,"G7":10861,"G10":10862,"G11":10863,"Io":10864,"Ide":10865,"IMI":10866,"JST":10867,"JUN":10868,"KG":10869,"Kr":10870,"Kamp":10871,"Lil":10872,"LPGA":10873,"M8":10874,"Moo":10875,"Octo":10876,"R4":10877,"Rat":10878,"Rang":10879,"Root":10880,"Range":10881,"S8":10882,"Sri":10883,"Ski":10884,"SIL":10885,"Trou":10886,"Tree":10887,"VIII":10888,"WAVE":10889,"YU":10890,"ZIP":10891,"ati":10892,"bank":10893,"could":10894,"dB":10895,"fas":10896,"kDa":10897,"kell":10898,"kara":10899,"using":10900,"ÄŁ":10901,"á½":10902,"ë§":10903,"ìĨ":10904,"lization":10905,"kura":10906,"mÇĲng":10907,"102.":10908,"1065":10909,"1055":10910,"1057":10911,"1094":10912,"18.3":10913,"1238":10914,"1239":10915,"12.9":10916,"1293":10917,"1115":10918,"1157":10919,"1179":10920,"pie":10921,"ancy":10922,"anensis":10923,"1518":10924,"ones":10925,"16.6":10926,"lab":10927,"17.8":10928,"1452":10929,"1325":10930,"mun":10931,"real":10932,"rell":10933,"requi":10934,"respon":10935,"22.3":10936,"metery":10937,"rup":10938,"roe":10939,"rote":10940,"ãĥ¤":10941,"cuÃ¡n":10942,"cube":10943,"0.19":10944,"0.66":10945,"0.99":10946,"0.62":10947,"0.87":10948,"0.7%":10949,"mag":10950,"mai":10951,"mato":10952,"1.38":10953,"1.06":10954,"1.07":10955,"1.08":10956,"ãĤ²":10957,"hei":10958,"next":10959,"Maya":10960,"Manga":10961,"Intro":10962,"bee":10963,"SEVEN":10964,"Cohen":10965,"Rela":10966,"nae":10967,"ndrome":10968,"ATT":10969,"opsis":10970,"edge":10971,"Lic":10972,"Dece":10973,"Destru":10974,"Mela":10975,"mans":10976,"Promotion":10977,"cone":10978,"contra":10979,"config":10980,"rane":10981,"Semi":10982,"Stay":10983,"ISL":10984,"fier":10985,"fishing":10986,"86.":10987,"JRA":10988,"ako":10989,"Sonic":10990,"ANET":10991,"IPC":10992,"Muhammad":10993,"1.55":10994,"1.57":10995,"Parti":10996,"som":10997,"Bush":10998,"Cape":10999,"SMRT":11000,"Conser":11001,"Gear":11002,"Nate":11003,"IVB":11004,"Julius":11005,"Step":11006,"Stein":11007,"1126":11008,"AKB":11009,"REM":11010,"Nove":11011,"Ford":11012,"full":11013,"SOLO":11014,"Cold":11015,"Symp":11016,"IAU":11017,"Administra":11018,"Huang":11019,"inclu":11020,"1184":11021,"OpenAI":11022,"HOL":11023,"Duo":11024,"Corne":11025,"RISE":11026,"EXID":11027,"Jesus":11028,"NHL":11029,"Disk":11030,"Elli":11031,"ãĦľ":11032,"Walk":11033,"GamesRadar":11034,"Hydro":11035,"Holmes":11036,"odd":11037,"troff":11038,"âĹİ":11039,"Freestyle":11040,"Truth":11041,"GTX":11042,"WoRMS":11043,"CMAMMA":11044,"Tokyo":11045,"Hanteo":11046,"Comics":11047,"Earl":11048,"âĳ¡":11049,"language":11050,"partner":11051,"since":11052,"OPEN":11053,"Lawrence":11054,"âĩĴ":11055,"techn":11056,"Image":11057,"practi":11058,"intosh":11059,"Falcom":11060,"Fortran":11061,"âĤ¬":11062,"LZ77":11063,"Flower":11064,"Wonderful":11065,"Butter":11066,"Justin":11067,"sease":11068,"P2P":11069,"WHIP":11070,"Wells":11071,"African":11072,"Rankings":11073,"PXA":11074,"Associates":11075,"Higgins":11076,"1xEV":11077,"Chief":11078,"April":11079,"japoni":11080,"016":11081,"056":11082,"1D":11083,"1199":11084,"8.3%":11085,"BK":11086,"Bry":11087,"BET":11088,"BTR":11089,"BERT":11090,"Clu":11091,"Cris":11092,"Deri":11093,"DATA":11094,"Ei":11095,"ETC":11096,"Fed":11097,"Gard":11098,"Gang":11099,"Gill":11100,"Gring":11101,"Glass":11102,"Ich":11103,"IAL":11104,"JSON":11105,"Kum":11106,"KON":11107,"M110":11108,"Mamba":11109,"NSA":11110,"NTO":11111,"NME":11112,"OMG":11113,"OEM":11114,"Pine":11115,"Pitch":11116,"Pseudo":11117,"RV":11118,"Rig":11119,"Rare":11120,"RLE":11121,"RNC":11122,"Ranger":11123,"Rights":11124,"SNA":11125,"S.4":11126,"SCP":11127,"SING":11128,"TX":11129,"TAS":11130,"WR":11131,"Was":11132,"WINNER":11133,"XL":11134,"YON":11135,"a2":11136,"bh":11137,"bou":11138,"blue":11139,"dal":11140,"eis":11141,"fr":11142,"hind":11143,"kk":11144,"lva":11145,"mÄĵng":11146,"vu":11147,"yr":11148,"Ðķ":11149,"ÐĽ":11150,"Õ¶":11151,"Ø¹":11152,"Ùĩ":11153,"ð¨":11154,"jing":11155,"xiv":11156,"yung":11157,"lil":11158,"dum":11159,"20S":11160,"lez":11161,"bine":11162,"bike":11163,"bins":11164,"div":11165,"dial":11166,"tuÇİn":11167,"ener":11168,"1022":11169,"1090":11170,"1085":11171,"1213":11172,"1257":11173,"1294":11174,"1292":11175,"nion":11176,"pical":11177,"anth":11178,"15.3":11179,"1431":11180,"1323":11181,"1362":11182,"gem":11183,"thia":11184,"oura":11185,"rei":11186,"mei":11187,"ï¼Ĭ":11188,"ltz":11189,"cuit":11190,"sex":11191,"1004":11192,"0.37":11193,"0.47":11194,"0.78":11195,"0.85":11196,"0.72":11197,"mae":11198,"ãģ¸":11199,"1.82":11200,"2.14":11201,"2.37":11202,"2.78":11203,"ãĤ´":11204,"illa":11205,"owa":11206,"45.5":11207,"hee":11208,"never":11209,"INAX":11210,"vector":11211,"Champ":11212,"Independent":11213,"50000":11214,"6400":11215,"lov":11216,"bey":11217,"6800":11218,"Cop":11219,"Colum":11220,"vian":11221,"ador":11222,"ayo":11223,"59%":11224,"Rot":11225,"Dev":11226,"Mii":11227,"795":11228,"OSI":11229,"apy":11230,"Lepto":11231,"COUN":11232,"Moham":11233,"Tea":11234,"person":11235,"Need":11236,"85.":11237,"60000":11238,"ACM":11239,"Sugar":11240,"entry":11241,"Saba":11242,"Sales":11243,"Logo":11244,"Another":11245,"alia":11246,"stage":11247,"ITE":11248,"ITY":11249,"ITIL":11250,"ITION":11251,"Param":11252,"ppen":11253,"1305":11254,"Content":11255,"Spark":11256,"Enri":11257,"Bahn":11258,"ASV":11259,"Toyo":11260,"Tonight":11261,"à¸¥":11262,"à¸Ħ":11263,"EPROM":11264,"Dota":11265,"RECO":11266,"Scho":11267,"Luci":11268,"Luke":11269,"2.08":11270,"MOVIE":11271,"pack":11272,"SOHR":11273,"Gui":11274,"Ruth":11275,"liner":11276,"5.00":11277,"NGO":11278,"Compi":11279,"vella":11280,"Harvey":11281,"Willie":11282,"Gior":11283,"Travis":11284,"services":11285,"URR":11286,"hypo":11287,"Chey":11288,"Kura":11289,"ensen":11290,"Animation":11291,"PLUS":11292,"Eleven":11293,"Survey":11294,"Transit":11295,"GAINAX":11296,"white":11297,"Ernest":11298,"Metal":11299,"Digi":11300,"SUMM":11301,"Agda":11302,"Gerald":11303,"tempor":11304,"friend":11305,"Virgin":11306,"Crystal":11307,"formos":11308,"à¹Ī":11309,"OMON":11310,"Signature":11311,"Russian":11312,"Beauty":11313,"Linked":11314,"Regional":11315,"Police":11316,"Command":11317,"scale":11318,"dorf":11319,"Ahmad":11320,"Crush":11321,"versary":11322,"Secretary":11323,"FIBA":11324,"Paradise":11325,"Philippe":11326,"Maurice":11327,"íķĺ":11328,"Rodri":11329,"Bailey":11330,"CinemaScore":11331,"Gregory":11332,"because":11333,"Perez":11334,"Manuel":11335,"NICONICO":11336,"levard":11337,"POSIX":11338,"Piazza":11339,"Pedro":11340,"DisplayPort":11341,"Sophie":11342,"TensorFlow":11343,"Utada":11344,"ê¹Ģ":11345,"Calligra":11346,"Affair":11347,"yunnanensis":11348,"October":11349,"December":11350,"Gringoire":11351,"015":11352,"024":11353,"048":11354,"047":11355,"058":11356,"069":11357,"3S":11358,"BED":11359,"Bron":11360,"CY":11361,"Cum":11362,"Crew":11363,"DONG":11364,"Fau":11365,"Fos":11366,"Ft2":11367,"FIVB":11368,"Gig":11369,"Gare":11370,"GTA":11371,"GCC":11372,"GLP":11373,"HU":11374,"Hum":11375,"Hai":11376,"IK":11377,"JA":11378,"Kri":11379,"Kno":11380,"K230":11381,"Lot":11382,"LSD":11383,"Lama":11384,"M113":11385,"MENT":11386,"N6":11387,"PAC":11388,"QF":11389,"Ryu":11390,"Sli":11391,"Tat":11392,"Tess":11393,"UV":11394,"Ukra":11395,"Xa":11396,"XDC":11397,"Zy":11398,"Zim":11399,"a4":11400,"aq":11401,"ax":11402,"az":11403,"action":11404,"c3":11405,"club":11406,"dt":11407,"echo":11408,"kre":11409,"kel":11410,"mble":11411,"plus":11412,"sam":11413,"sse":11414,"sol":11415,"tsu":11416,"vit":11417,"zas":11418,"zero":11419,"Â®":11420,"â½":11421,"ëª":11422,"dev":11423,"gui":11424,"dult":11425,"duction":11426,"2032":11427,"20.7":11428,"lett":11429,"sue":11430,"surance":11431,"shua":11432,"chuÄģi":11433,"ditional":11434,"tune":11435,"tuber":11436,"enos":11437,"1034":11438,"1044":11439,"1087":11440,"1093":11441,"meni":11442,"mil":11443,"1210":11444,"1249":11445,"1251":11446,"nii":11447,"nish":11448,"1152":11449,"anne":11450,"15.2":11451,"onso":11452,"lash":11453,"1410":11454,"1411":11455,"1336":11456,"1344":11457,"1359":11458,"1361":11459,"1395":11460,"indi":11461,"instru":11462,"geome":11463,"25K":11464,"25T":11465,"stol":11466,"rex":11467,"reus":11468,"revision":11469,"ï¼ĥ":11470,".55%":11471,".59%":11472,"cea":11473,"ceo":11474,"1007":11475,"1009":11476,"tanic":11477,"0.16":11478,"0.44":11479,"0.76":11480,"mah":11481,"1.18":11482,"1.12":11483,"1.17":11484,"1.27":11485,"1.29":11486,"1.63":11487,"35000":11488,"cohol":11489,"3.7%":11490,"isen":11491,"nung":11492,"null":11493,"46A":11494,"Chow":11495,"Chas":11496,"Ching":11497,"Insi":11498,"Index":11499,"4700":11500,"Theo":11501,"Rei":11502,"Rein":11503,"nay":11504,"bay":11505,".95%":11506,".99%":11507,"5800":11508,".69%":11509,"40000":11510,"Lion":11511,"ury":11512,"CDC":11513,"98A":11514,"apo":11515,"COO":11516,"ctionary":11517,"Most":11518,"Provin":11519,"Tee":11520,"1205":11521,"1209":11522,"APH":11523,"Dio":11524,"oka":11525,"Sult":11526,"Soccer":11527,"alist":11528,"HDR":11529,"SSD":11530,"Pata":11531,"1.54":11532,"1.58":11533,"SMTOWN":11534,"Spa":11535,"step":11536,"stead":11537,"Basili":11538,"dens":11539,"dents":11540,"ENCE":11541,"à¸¢":11542,"Interface":11543,"Think":11544,"MyRadio":11545,"process":11546,"aries":11547,"Luck":11548,"2.02":11549,"AGB":11550,"0.51":11551,"Sym":11552,"DRT":11553,"DAO":11554,"MCA":11555,"cording":11556,"à¤¦":11557,"Baron":11558,"lington":11559,"Macintosh":11560,"Triple":11561,"Isra":11562,"Grey":11563,"Normal":11564,"track":11565,"Ella":11566,"cessing":11567,"ï¹ŀ":11568,"Cheng":11569,"Chemical":11570,"UEFA":11571,"Speak":11572,"compu":11573,"company":11574,"vesti":11575,"Panzer":11576,"Official":11577,"Scienti":11578,"FFT":11579,"Dancing":11580,"Phillips":11581,"SRP":11582,"Palace":11583,"Silva":11584,"OMR":11585,"Casa":11586,"Gilbert":11587,"AXN":11588,"DIY":11589,"Clostri":11590,"Johannes":11591,"Bandar":11592,"standing":11593,"vatory":11594,"Stock":11595,"S4N4":11596,"Mitchie":11597,"Jeffrey":11598,"Communications":11599,"Kennedy":11600,"Industries":11601,"VISION":11602,"Lunar":11603,"Adventure":11604,"Eyes":11605,"Nelson":11606,"Total":11607,"Arnold":11608,"Aaron":11609,"Vladi":11610,"Spencer":11611,"AVBWU":11612,"Phoebus":11613,"Ireland":11614,"coccus":11615,"Financial":11616,"available":11617,"COUNT":11618,"LinkedIn":11619,"035":11620,"086":11621,"1201":11622,"5300":11623,"6K":11624,"856":11625,"BER":11626,"Brea":11627,"C12":11628,"Ces":11629,"Cano":11630,"Coffee":11631,"DMA":11632,"Dere":11633,"Ek":11634,"ENA":11635,"Ery":11636,"E5%":11637,"Estate":11638,"FW":11639,"Fen":11640,"FAD":11641,"FDG":11642,"H8":11643,"H12":11644,"Hang":11645,"Honey":11646,"ILO":11647,"Irish":11648,"JIT":11649,"Kind":11650,"Lat":11651,"M7":11652,"M16":11653,"M41":11654,"Meri":11655,"NV":11656,"Ok":11657,"PQ":11658,"PAO":11659,"Pont":11660,"RAC":11661,"Sandy":11662,"Tsu":11663,"Ulti":11664,"Ves":11665,"Ward":11666,"Why":11667,"Y2":11668,"Yama":11669,"a1":11670,"bha":11671,"cp":11672,"cana":11673,"d3":11674,"db":11675,"dam":11676,"eo":11677,"fir":11678,"gl":11679,"gat":11680,"glio":11681,"mpe":11682,"nos":11683,"pth":11684,"psi":11685,"qÅ«n":11686,"tree":11687,"uis":11688,"ws":11689,"ÄĹ":11690,"ÉĽ":11691,"Î¦":11692,"Î¾":11693,"Îļ":11694,"Ø¬":11695,"ãĪ":11696,"ì¤":11697,"ìĬ":11698,"íĺ":11699,"ï»":11700,"deli":11701,"dead":11702,"demo":11703,"shin":11704,"lipp":11705,"20.3":11706,"least":11707,"bing":11708,"titude":11709,"dil":11710,"miya":11711,"nix":11712,"1116":11713,"113.":11714,"1141":11715,"1177":11716,"arts":11717,"1416":11718,"1335":11719,"1338":11720,"1332":11721,"1384":11722,"25.5":11723,"25.6":11724,"reti":11725,"reau":11726,"result":11727,"mela":11728,"meter":11729,"rite":11730,"0001":11731,"rose":11732,"roll":11733,"rostris":11734,"sile":11735,"ãĥĶ":11736,"tape":11737,"tanga":11738,"0.50":11739,"0.71":11740,"elds":11741,"mab":11742,"1.15":11743,"1.13":11744,"1.80":11745,"1.68":11746,"1.3%":11747,"2.15":11748,"2.17":11749,"2.24":11750,"2.28":11751,"ãĤ¼":11752,"cott":11753,"terator":11754,"ckey":11755,"iso":11756,"numeri":11757,"Maz":11758,"Mang":11759,"Informer":11760,"STEP":11761,"64BV":11762,"Coast":11763,"video":11764,"Reed":11765,"hana":11766,".01%":11767,"cale":11768,"igne":11769,"Stream":11770,"Deb":11771,"Mile":11772,"Military":11773,"Alpert":11774,"appe":11775,"COP":11776,"hist":11777,"rys":11778,"rant":11779,"8700":11780,"Gale":11781,"Arcade":11782,"EDM":11783,"ED60":11784,"ERA":11785,"Sulli":11786,"posed":11787,"Mull":11788,"aic":11789,"SSR":11790,"PaK":11791,"stery":11792,"Parker":11793,"noinclude":11794,"PS5":11795,"Cafe":11796,"Concept":11797,"commit":11798,"graphic":11799,"dential":11800,"ETSI":11801,"EPUB":11802,"âĨĶ":11803,"Pool":11804,"1128":11805,"CNBC":11806,"TAG":11807,"2.03":11808,"fume":11809,"kom":11810,"volu":11811,"AGC":11812,"Guide":11813,"called":11814,"orian":11815,"Admi":11816,"Hua":11817,"NCE":11818,"Hide":11819,"1181":11820,"HOUSE":11821,"NOAA":11822,"lings":11823,"Perfume":11824,"Edwin":11825,"Gibson":11826,"NH2":11827,"Gray":11828,"Graham":11829,"Track":11830,"Davies":11831,"CLI":11832,"Tyler":11833,"Schools":11834,"ãĦı":11835,"Wally":11836,"ï¹Ŀ":11837,"Nations":11838,"Count":11839,"Georges":11840,"Hermann":11841,"AO3":11842,"Leaf":11843,"DMZ":11844,"senet":11845,"3A4":11846,"Launch":11847,"Ferdin":11848,"anies":11849,"database":11850,"GEO":11851,"Critic":11852,"Oblast":11853,"à¥ģ":11854,"EVER":11855,"7.92":11856,"BanG":11857,"launches":11858,"Render":11859,"sinensis":11860,"Publishing":11861,"NMDA":11862,"SVT":11863,"Whats":11864,"Cervo":11865,"Leonard":11866,"THQ":11867,"Computing":11868,"Haskell":11869,"PRODU":11870,"ctoid":11871,"Oracle":11872,"Roundcube":11873,"Railway":11874,"Intelligence":11875,"Gym":11876,"GROW":11877,"science":11878,"buckets":11879,"articles":11880,"sockaddr":11881,"HYBE":11882,"Architecture":11883,"exit":11884,"district":11885,"GIRL":11886,"Malaysia":11887,"Atlantic":11888,"Eclipse":11889,"Ludwig":11890,"Canadian":11891,"9K37":11892,"methyl":11893,"Anniversary":11894,"Jeremy":11895,"Executive":11896,"Destructoid":11897,"XDCAM":11898,"PRODUCE":11899,".2005":11900,"017":11901,"029":11902,"088":11903,"094":11904,"091":11905,"2C":11906,"4C":11907,"4Minute":11908,"7k":11909,"Amen":11910,"Asp":11911,"ADV":11912,"AES":11913,"Amb":11914,"Bing":11915,"Brew":11916,"CX":11917,"C15":11918,"C60":11919,"Clin":11920,"CES":11921,"C10H":11922,"Dry":11923,"DIS":11924,"E4":11925,"EVA":11926,"E233":11927,"FP":11928,"Foo":11929,"FTT":11930,"Gos":11931,"Gur":11932,"GSh":11933,"GHQ":11934,"HIDE":11935,"Id":11936,"Ira":11937,"IRES":11938,"J48":11939,"L5":11940,"LUS":11941,"LIM":11942,"LAB":11943,"MID":11944,"MWe":11945,"MRT":11946,"MBE":11947,"NBS":11948,"OW":11949,"Ole":11950,"OAD":11951,"Omar":11952,"Omicron":11953,"Pos":11954,"PDC":11955,"PINK":11956,"Sn":11957,"Tum":11958,"TED":11959,"TFT":11960,"U22":11961,"UAL":11962,"Vari":11963,"WNBA":11964,"YZ":11965,"cow":11966,"cara":11967,"d6":11968,"dson":11969,"f8":11970,"fz":11971,"fall":11972,"fford":11973,"goo":11974,"grou":11975,"kat":11976,"ktor":11977,"lb":11978,"llar":11979,"mL":11980,"mara":11981,"omi":11982,"send":11983,"yang":11984,"ÏĪ":11985,"ê·":11986,"ð§":11987,"guel":11988,"chia":11989,"lies":11990,"2077":11991,"sula":11992,"dish":11993,"lutions":11994,"ente":11995,"1021":11996,"1069":11997,"1088":11998,"1061":11999,"1062":12000,"1097":12001,"1096":12002,"18.8":12003,"18.7":12004,"1237":12005,"1267":12006,"12.3":12007,"1287":12008,"1175":12009,"1133":12010,"anor":12011,"1417":12012,"1446":12013,"1348":12014,"invest":12015,"25.4":12016,"formes":12017,"aland":12018,"21.9":12019,"stle":12020,"thro":12021,"research":12022,"22.6":12023,"tele":12024,"rol":12025,"six":12026,"rage":12027,".53%":12028,".54%":12029,"cedu":12030,"cele":12031,"sexu":12032,"sein":12033,"tative":12034,"0.79":12035,"0.81":12036,"elma":12037,"ãģĴ":12038,"ãģĸ":12039,"1.19":12040,"1.11":12041,"1.22":12042,"1.65":12043,"1.2%":12044,"1.03":12045,"1.4%":12046,"2.35":12047,"2.38":12048,"2.65":12049,"2.62":12050,"2.92":12051,"coin":12052,"coordina":12053,"heart":12054,"37.5":12055,"INI":12056,"3.98":12057,"3.06":12058,"3.8%":12059,"isse":12060,"tok":12061,"Maha":12062,"STOR":12063,"loe":12064,"CoA":12065,"Cox":12066,"Coin":12067,"visi":12068,"vities":12069,"Ree":12070,"Reco":12071,"veral":12072,"cili":12073,".06%":12074,".96%":12075,"irs":12076,"Start":12077,"7800":12078,"5600":12079,"MeV":12080,"Mecha":12081,"Meyer":12082,"Marty":12083,"Mario":12084,"Alcohol":12085,"BABY":12086,"dain":12087,"ACAF":12088,"APA":12089,"ICK":12090,"Lami":12091,"Latin":12092,"Raj":12093,"Sac":12094,"buil":12095,"Boe":12096,"Bom":12097,"SS2":12098,"ITH":12099,"ITX":12100,"ffy":12101,"mmons":12102,"noon":12103,"Bud":12104,"Confe":12105,"Filter":12106,"Ticket":12107,"Wiz":12108,"ENG":12109,"Nich":12110,"Dogs":12111,"Luna":12112,"CHI":12113,"Tag":12114,"SOAP":12115,"Cut":12116,"Rule":12117,"orien":12118,"Fee":12119,"jective":12120,"Him":12121,"Hipp":12122,"mony":12123,"ghter":12124,"MCT":12125,"systems":12126,"Put":12127,"Serge":12128,"reached":12129,"Bright":12130,"Santos":12131,"fast":12132,"factor":12133,"Edmund":12134,"Giu":12135,"Giuse":12136,"cm3":12137,"Train":12138,"Travel":12139,"stice":12140,"PO4":12141,"output":12142,"Petro":12143,"lette":12144,"ORF":12145,"Counter":12146,"Aircraft":12147,"Chiesa":12148,"Cemetery":12149,"starter":12150,"WEB":12151,"Atta":12152,"stoma":12153,"ð«Ĭ¸":12154,"Eurogamer":12155,"Croquet":12156,"youtube":12157,"LAY":12158,"German":12159,"âĸ³":12160,"default":12161,"PDT":12162,"Maggie":12163,"ìĿĺ":12164,"DDR3":12165,"tiative":12166,"Minix":12167,"broad":12168,"à¹ī":12169,"Catalo":12170,"Franklin":12171,"launched":12172,"Journey":12173,"Models":12174,"C6H5":12175,"Treo":12176,"Electric":12177,"WOW":12178,"DeepMind":12179,"hausen":12180,"Hamilton":12181,"Ashley":12182,"extra":12183,"black":12184,"KwK":12185,"Boss":12186,"Hawai":12187,"âĻ¯":12188,"Dinosau":12189,"Robinson":12190,"ception":12191,"Michelle":12192,"Felix":12193,"Self":12194,"against":12195,"cription":12196,"CONCACAF":12197,"CR400AF":12198,"BASIC":12199,"avex":12200,"early":12201,"Legend":12202,"BACnet":12203,"Rabbit":12204,"Platform":12205,"Theodore":12206,"Bapti":12207,"Choice":12208,"Oxford":12209,"front":12210,"Gustav":12211,"Nf6":12212,"OECD":12213,"ALX500":12214,"Caroline":12215,"Abraham":12216,"FILM":12217,"CheyTac":12218,".18":12219,"039":12220,"066":12221,"077":12222,"1G":12223,"22000":12224,"7400":12225,"9100":12226,"9500":12227,"Av":12228,"AAC":12229,"ADS":12230,"C16":12231,"CID":12232,"CET":12233,"Dit":12234,"Effe":12235,"Fm":12236,"FAM":12237,"FAC":12238,"FAI":12239,"FRS":12240,"GY":12241,"G20":12242,"Gree":12243,"Grow":12244,"HIS":12245,"HIT":12246,"HSPA":12247,"IUP":12248,"Ibra":12249,"JW":12250,"JScript":12251,"KU":12252,"Kil":12253,"Lily":12254,"MJ":12255,"MN":12256,"MAR":12257,"MIPS":12258,"Nou":12259,"Nes":12260,"Nas":12261,"OV":12262,"OUT":12263,"PTC":12264,"PDS":12265,"Plas":12266,"R7":12267,"Ris":12268,"Rhi":12269,"Race":12270,"S5":12271,"Sort":12272,"SDO":12273,"TRI":12274,"Trin":12275,"TBF":12276,"UDP":12277,"VMS":12278,"X100":12279,"Yau":12280,"Z99":12281,"alu":12282,"achie":12283,"bound":12284,"bring":12285,"dad":12286,"epi":12287,"equi":12288,"fold":12289,"iPod":12290,"jang":12291,"o3":12292,"ppi":12293,"rk":12294,"tam":12295,"ure":12296,"uri":12297,"umph":12298,"vard":12299,"vine":12300,"whe":12301,"wall":12302,"ylent":12303,"Ãģ":12304,"ÎĴ":12305,"×¨":12306,"×ľ":12307,"Ùģ":12308,"Ùĥ":12309,"á¿":12310,"ãĨ":12311,"ê²":12312,"ìľ":12313,"deca":12314,"delete":12315,"hui":12316,"guar":12317,"chr":12318,"ching":12319,"chard":12320,"liday":12321,"dur":12322,"20.1":12323,"19.8":12324,"1023":12325,"1036":12326,"1033":12327,"mik":12328,"minu":12329,"18000":12330,"1298":12331,"nite":12332,"1117":12333,"1134":12334,"1132":12335,"1149":12336,"1172":12337,"15.7":12338,"15.1":12339,"16000":12340,"16.2":12341,"16GB":12342,"lach":12343,"17000":12344,"17.7":12345,"17.1":12346,"arg":12347,"argu":12348,"1437":12349,"1334":12350,"input":12351,"24.7":12352,"stes":12353,"28.6":12354,"tham":12355,"ought":12356,"22.8":12357,"22.7":12358,"method":12359,"rod":12360,"simi":12361,"sizer":12362,".58%":12363,"ãĥĽ":12364,"culty":12365,"tag":12366,"0.80":12367,"elf":12368,"ello":12369,"1.16":12370,"1.30":12371,"1.47":12372,"1.66":12373,"1.76":12374,"1.1%":12375,"2.18":12376,"copy":12377,"these":12378,"term":12379,"3.14":12380,"TCHA":12381,"today":12382,"Mathema":12383,"32.5":12384,"Inno":12385,"Indone":12386,"STAGE":12387,"iten":12388,"Theory":12389,"Resi":12390,"Return":12391,"bacter":12392,"cape":12393,"ospha":12394,"78X":12395,"hack":12396,"urs":12397,"NAD":12398,"NAL":12399,"Miguel":12400,"derma":12401,"ï½ľ":12402,"Alle":12403,"COMP":12404,"Vic":12405,"Joshua":12406,"pers":12407,"gade":12408,"dak":12409,"Season":12410,"ACC":12411,"Bear":12412,"Beck":12413,"orem":12414,"Lai":12415,"Radi":12416,"Dictionary":12417,"Same":12418,"Shaun":12419,"Shadow":12420,"Jake":12421,"Jazz":12422,"bubble":12423,"IPB":12424,"Mul":12425,"Mule":12426,"inten":12427,"1104":12428,"chez":12429,"node":12430,"PSR":12431,"Buck":12432,"Bump":12433,"Cash":12434,"Console":12435,"MSI":12436,"EPR":12437,"Julie":12438,"MP5":12439,"rism":12440,"Thelma":12441,"prof":12442,"myr":12443,"Expo":12444,"Pharma":12445,"Taq":12446,"0.53":12447,"0.54":12448,"SOHO":12449,"Guin":12450,"Guil":12451,"cycle":12452,"4.25":12453,"often":12454,"orial":12455,"Fears":12456,"5.25":12457,"5.45":12458,"MCB":12459,"cord":12460,"Franco":12461,"ression":12462,"Monkey":12463,"Study":12464,"NOAH":12465,"SPE":12466,"Barbara":12467,"DOWN":12468,"BEJ48":12469,"Organization":12470,"phase":12471,"trax":12472,"Berry":12473,"URA":12474,"Supernova":12475,"accu":12476,"access":12477,"Acti":12478,"GOT7":12479,"Check":12480,"donna":12481,"âħ£":12482,"NSF":12483,"img":12484,"Airport":12485,"parenti":12486,"Shake":12487,"Spir":12488,"229E":12489,"Chung":12490,"Value":12491,"Chica":12492,"DMM":12493,"GABA":12494,"PM2.5":12495,"LTD":12496,"Clau":12497,"Turner":12498,"Resort":12499,"Resources":12500,"KKTV":12501,"Function":12502,"AEG":12503,"KIZ":12504,"unit":12505,"CodeCamp":12506,"Partner":12507,"Venus":12508,"UMTS":12509,"Lantis":12510,"Register":12511,"Diego":12512,"death":12513,"Jennie":12514,"appli":12515,"Spoon":12516,"CANopen":12517,"KEY":12518,"ìķ¼":12519,"Adams":12520,"MultiCam":12521,"Welcome":12522,"Jerry":12523,"ELEVEN":12524,"species":12525,"freeCodeCamp":12526,"âģµ":12527,"VISUAL":12528,"orbital":12529,"Marshall":12530,"FIRST":12531,"Widget":12532,"B7RLE":12533,"Initiative":12534,"stadt":12535,"Apogee":12536,"Titan":12537,"values":12538,"connect":12539,"Swift":12540,"reference":12541,"President":12542,"24.310":12543,"hibition":12544,"Suica":12545,"Patricia":12546,"Hoyts":12547,"Lidl":12548,"gorith":12549,"LUNAR":12550,"bacteri":12551,"technology":12552,"RECORDS":12553,"Basilica":12554,"Clostridium":12555,"Ferdinand":12556,"Giuseppe":12557,"Hawaii":12558,"parentid":12559,"011":12560,"014":12561,"025":12562,"028":12563,"026":12564,"084":12565,"082":12566,"1197":12567,"1mple":12568,"5D":12569,"6200":12570,"Apex":12571,"BJ":12572,"BEC":12573,"Cp":12574,"CRE":12575,"CSL":12576,"DY":12577,"Did":12578,"DSS":12579,"Eo":12580,"Eth":12581,"EAS":12582,"Fru":12583,"FSB":12584,"Follow":12585,"GQ":12586,"Ges":12587,"Gren":12588,"HG":12589,"HV":12590,"Hin":12591,"Icon":12592,"IES":12593,"Igna":12594,"JE":12595,"JIN":12596,"Khu":12597,"Kru":12598,"Lap":12599,"MAT":12600,"NX":12601,"Pig":12602,"Pai":12603,"RW":12604,"Rum":12605,"SIV":12606,"SCN":12607,"SHR":12608,"Scar":12609,"TZ":12610,"Tg":12611,"Tank":12612,"TYPE":12613,"UART":12614,"Usenet":12615,"WEC":12616,"WCT":12617,"WWF":12618,"XR":12619,"X200":12620,"YC":12621,"Yun":12622,"Z17":12623,"bÄģi":12624,"bass":12625,"ctic":12626,"d2":12627,"equ":12628,"edi":12629,"f1":12630,"gla":12631,"hood":12632,"ius":12633,"jer":12634,"ked":12635,"money":12636,"mAh":12637,"nh":12638,"rh":12639,"rine":12640,"sent":12641,"source":12642,"s1mple":12643,"talk":12644,"v1":12645,"wÇİi":12646,"woo":12647,"Äħ":12648,"ÅĻ":12649,"ÑĦ":12650,"Ñĳ":12651,"ë¬":12652,"ìĽ":12653,"zhou":12654,"lico":12655,"dual":12656,"19.2":12657,"bic":12658,"bilis":12659,"suc":12660,"tima":12661,"tizen":12662,"quo":12663,"diÃ¨":12664,"display":12665,"just":12666,"zil":12667,"1031":12668,"1073":12669,"1071":12670,"1091":12671,"1222":12672,"1245":12673,"12.4":12674,"1113":12675,"1148":12676,"1161":12677,"1171":12678,"eror":12679,"online":12680,"around":12681,"1366":12682,"formed":12683,"much":12684,"rez":12685,"restri":12686,"22.2":12687,"mex":12688,"ridge":12689,"ï¼ĵ":12690,"rau":12691,"6061":12692,"seg":12693,"1005":12694,"tato":12695,"0.70":12696,"0.88":12697,"0.93":12698,"mak":12699,"1.26":12700,"1.90":12701,"1.33":12702,"1.67":12703,"1.84":12704,"1.92":12705,"1.93":12706,"2.12":12707,"2.23":12708,"2.29":12709,"2.39":12710,"2.77":12711,"2.9%":12712,"coe":12713,"48.8":12714,"3.6%":12715,"Chau":12716,"Chorus":12717,"Into":12718,"Innova":12719,"33A":12720,"Colt":12721,"viri":12722,"vita":12723,"brand":12724,".71%":12725,".94%":12726,".97%":12727,".66%":12728,"igo":12729,"6600":12730,"SAD":12731,"8800":12732,"Lim":12733,"NADP":12734,"Miz":12735,"Meh":12736,"apon":12737,"appro":12738,"Leu":12739,"CO3":12740,"mana":12741,"Mohammad":12742,"JoJo":12743,"894":12744,"rano":12745,"600V":12746,"Sei":12747,"spar":12748,"1203":12749,"120km":12750,"Begin":12751,"ERM":12752,"Rachel":12753,"Diana":12754,"IDC":12755,"IDF":12756,"Sula":12757,"Sham":12758,"Share":12759,"Lover":12760,"docu":12761,"given":12762,"hoc":12763,"alization":12764,"SSL":12765,"Pale":12766,"Sierra":12767,"Ride":12768,"soci":12769,"1302":12770,"Budd":12771,"Bala":12772,"Titanic":12773,"saw":12774,"à¸Ľ":12775,"lerc":12776,"Dome":12777,"yah":12778,"Piano":12779,"Pietro":12780,"Carlo":12781,"Thin":12782,"UNO":12783,"Phen":12784,"CHILD":12785,"TOG":12786,"Format":12787,"erie":12788,"AG600":12789,"0.58":12790,"Gul":12791,"Kabu":12792,"1183":12793,"Pew":12794,"MC.":12795,"Combat":12796,"à¤µ":12797,"Corp":12798,"Bishop":12799,"reaming":12800,"DOI":12801,"Jeans":12802,"PPT":12803,"SCAR":12804,"SCAP":12805,"Pride":12806,"lism":12807,"oustic":12808,"Fuji":12809,"Starship":12810,"tents":12811,"When":12812,"Assistant":12813,"Warren":12814,"Spect":12815,"Blog":12816,"Canal":12817,"borough":12818,"folia":12819,"Spike":12820,"Chun":12821,"Years":12822,"Transport":12823,"Terra":12824,"Vevo":12825,"Vehicle":12826,"Torrent":12827,"played":12828,"Rosen":12829,"Josef":12830,"Claire":12831,"oides":12832,"Skype":12833,"warm":12834,"Fresh":12835,"thic":12836,"Campus":12837,"PHA":12838,"USB4":12839,"Philos":12840,"AEW":12841,"Database":12842,"Janet":12843,"Bruno":12844,"Leslie":12845,"Palm":12846,"current":12847,"Troy":12848,"Boulevard":12849,"models":12850,"treme":12851,"Nicolas":12852,"Frost":12853,"Murray":12854,"Murphy":12855,"ENTER":12856,"Cruz":12857,"wikitext":12858,"Antoine":12859,"sistance":12860,"niconico":12861,"HERE":12862,"Defense":12863,"industri":12864,"á¸¥":12865,"Eagle":12866,"virtual":12867,"Italia":12868,"Deadline":12869,"TRAIN":12870,"thority":12871,"syntax":12872,"Sharp":12873,"EchoLink":12874,"CYP3A4":12875,"xc3":12876,"create":12877,"presentation":12878,"false":12879,"museum":12880,"Powell":12881,"ëĤĺ":12882,"Aviation":12883,"cephalus":12884,"Qualifying":12885,"Observatory":12886,"à¯į":12887,"Protection":12888,"Assembly":12889,"WRKY":12890,"acknowledge":12891,"Affairs":12892,"Sullivan":12893,"Ticketmaster":12894,"Chicago":12895,"022":12896,"036":12897,"037":12898,"034":12899,"049":12900,"042":12901,"098":12902,"085":12903,"097":12904,"2P":12905,"4.8%":12906,"4.4%":12907,"7A":12908,"9M":12909,"A24":12910,"Aru":12911,"Ato":12912,"Away":12913,"Blow":12914,"DQ":12915,"DKP":12916,"Et":12917,"E6%":12918,"EGO":12919,"Fas":12920,"FET":12921,"FUN":12922,"FTA":12923,"FRI":12924,"Flex":12925,"Gad":12926,"GAS":12927,"GTO":12928,"Hes":12929,"HAR":12930,"Horn":12931,"Identi":12932,"Jas":12933,"JVC":12934,"KH":12935,"KID":12936,"Kine":12937,"Kari":12938,"KHL":12939,"LTS":12940,"L129":12941,"Ming":12942,"Mora":12943,"MHC":12944,"M686":12945,"Nut":12946,"Norton":12947,"PJ":12948,"Phu":12949,"Pru":12950,"Pand":12951,"Phan":12952,"PAG":12953,"Q4":12954,"QTE":12955,"RISC":12956,"Sd":12957,"S10":12958,"Samp":12959,"Snap":12960,"T6":12961,"Thu":12962,"Tell":12963,"TION":12964,"User":12965,"V3":12966,"VK":12967,"Want":12968,"Zin":12969,"Zoo":12970,"ZIS":12971,"Zoom":12972,"ao":12973,"aver":12974,"away":12975,"bÄĽng":12976,"cru":12977,"cere":12978,"e5":12979,"econo":12980,"fro":12981,"hir":12982,"hot":12983,"kor":12984,"kal":12985,"nals":12986,"ost":12987,"pun":12988,"r2":12989,"sn":12990,"sper":12991,"ulation":12992,"vul":12993,"wu":12994,"zÇİng":12995,"¹¬":12996,"Â¬":12997,"Äĳ":12998,"×Ł":12999,"àª":13000,"ëĮ":13001,"ì£":13002,"íĥ":13003,"ngu":13004,"shir":13005,"should":13006,"ãĢħ":13007,"hua":13008,"gues":13009,"lien":13010,"2038":13011,"20.4":13012,"19S":13013,"quad":13014,"chung":13015,"dion":13016,"juÄĵ":13017,"zia":13018,"kul":13019,"ening":13020,"shÇĶn":13021,"10A":13022,"1028":13023,"1089":13024,"mens":13025,"mile":13026,"mise":13027,"mino":13028,"minus":13029,"18.1":13030,"1223":13031,"1231":13032,"nial":13033,"1176":13034,"1174":13035,"ores":13036,"analysis":13037,"lal":13038,"lator":13039,"1321":13040,"geon":13041,"24.9":13042,"alla":13043,"21.2":13044,"21.1":13045,"ths":13046,"relation":13047,"mee":13048,"27.8":13049,"rik":13050,"ride":13051,"rion":13052,"tea":13053,"sition":13054,"sius":13055,"sium":13056,"ceae":13057,"season":13058,"0.43":13059,"0.74":13060,"0.97":13061,"eller":13062,"mali":13063,"mala":13064,"mass":13065,"mator":13066,"1.95":13067,"2.26":13068,"2.27":13069,"2.60":13070,"2.34":13071,"2.43":13072,"2.87":13073,"2.1%":13074,"2.6%":13075,"2.8%":13076,"atro":13077,"owi":13078,"cost":13079,"thea":13080,"INLW":13081,"3.15":13082,"3.75":13083,"3.04":13084,"too":13085,"STAF":13086,"64DD":13087,"Colin":13088,"Rex":13089,"Rey":13090,"advance":13091,"cional":13092,".08%":13093,".07%":13094,".79%":13095,"ooting":13096,"ayan":13097,"Stories":13098,"havi":13099,"Liver":13100,"ural":13101,"Miche":13102,"Mika":13103,"Marce":13104,"Alfa":13105,"BCG":13106,"Learning":13107,"AML":13108,"ARTS":13109,"Teen":13110,"Text":13111,"games":13112,"rana":13113,"dah":13114,"Gaz":13115,"Arrow":13116,"APER":13117,"âĶģ":13118,"Lobo":13119,"domain":13120,"buty":13121,"ANGE":13122,"Weverse":13123,"wicz":13124,"1105":13125,"Pain":13126,"Pablo":13127,"1.53":13128,"check":13129,"Simple":13130,"ffin":13131,"Rivella":13132,"1301":13133,"1303":13134,"SME":13135,"SMP":13136,"Spar":13137,"PCA":13138,"Ensign":13139,"Geoff":13140,"same":13141,"à¸¸":13142,"à¸ĩ":13143,"Nie":13144,"Jung":13145,"2.54":13146,"âĨĳ":13147,"MP7":13148,"USD":13149,"AKS":13150,"Schmid":13151,"Notes":13152,"UNIQ":13153,"Audi":13154,"2.05":13155,"AVO":13156,"0.59":13157,"MIME":13158,"SOD":13159,"LEI":13160,"cyc":13161,"Runa":13162,"Rubber":13163,"puk":13164,"CR200":13165,"reement":13166,"Adap":13167,"5.75":13168,"delle":13169,"Openstreet":13170,"NOT":13171,"109.":13172,"RTX":13173,"EXR":13174,"Santo":13175,"HELL":13176,"Harper":13177,"java":13178,"rington":13179,"LOW":13180,"Giba":13181,"Tribu":13182,"Trinity":13183,"Triumph":13184,"PPI":13185,"Voya":13186,"POVM":13187,"exp":13188,"Showtime":13189,"clef":13190,"Abel":13191,"tism":13192,"ABCD":13193,"Aniplex":13194,"Holy":13195,"PLG":13196,"1.0%":13197,"Books":13198,"foglio":13199,"zog":13200,"Vale":13201,"Heller":13202,"ators":13203,"Blackbear":13204,"GAZ":13205,"3.0%":13206,"ð«Ľ":13207,"bella":13208,"GMRES":13209,"stitution":13210,"Rocky":13211,"spect":13212,"Million":13213,"Elisa":13214,"Chase":13215,"BUM":13216,"element":13217,"KILL":13218,"MTU":13219,"chelys":13220,"aggregate":13221,"karu":13222,"Destin":13223,"closed":13224,"Outlook":13225,"Gross":13226,"SHOOT":13227,"address":13228,"Wayne":13229,"Joyce":13230,"Policy":13231,"Leonardo":13232,"DLU":13233,"Treat":13234,"Beatles":13235,"wikipedia":13236,"sizeof":13237,"Without":13238,"Create":13239,"cultural":13240,"Still":13241,"Frontier":13242,"Scale":13243,"Afternoon":13244,"ITV4":13245,"Shock":13246,"Sirius":13247,"plc":13248,"BitTorrent":13249,"Taman":13250,"highlight":13251,"half":13252,"Heroes":13253,"Italian":13254,"Strike":13255,"constructor":13256,"country":13257,"camatan":13258,"Deutsch":13259,"Matchday":13260,"NATO":13261,"Teddy":13262,"ð°¹¬":13263,"Armstrong":13264,"Feature":13265,"properties":13266,"quarter":13267,"sportation":13268,"Gabriel":13269,"Municipal":13270,"src":13271,"Synthesizer":13272,"Leclerc":13273,"hynchus":13274,"Integrated":13275,"SEVENTEEN":13276,"License":13277,"Derived":13278,"DONGKIZ":13279,"Israel":13280,"Vladimir":13281,"numeric":13282,"Mullvad":13283,"cedure":13284,"Lamigo":13285,"Confedera":13286,"Ibrahim":13287,"SHRDLU":13288,"syntaxhighlight":13289,"Openstreetmap":13290,".2020":13291,"019":13292,"044":13293,"059":13294,"092":13295,"2M":13296,"5.7%":13297,"7.8%":13298,"7.4%":13299,"8A":13300,"9.5%":13301,"9.6%":13302,"Alu":13303,"Azi":13304,"Aid":13305,"Aka":13306,"Actor":13307,"Amar":13308,"Acid":13309,"CMP":13310,"Clan":13311,"Camer":13312,"DW":13313,"ECO":13314,"Fir":13315,"G5":13316,"GJ":13317,"GPa":13318,"Glas":13319,"Grea":13320,"GCM":13321,"GDB":13322,"HAP":13323,"Holo":13324,"HAPP":13325,"IETF":13326,"Jak":13327,"KR":13328,"Kyle":13329,"LJ":13330,"Mig":13331,"MCO":13332,"MIP":13333,"NW":13334,"Nau":13335,"OB":13336,"Oak":13337,"OFF":13338,"PSA":13339,"Pana":13340,"PH2":13341,"PFA":13342,"Q2":13343,"RH":13344,"R16":13345,"RNG":13346,"RAF":13347,"S9":13348,"Swa":13349,"Skin":13350,"TK":13351,"Til":13352,"Trea":13353,"Tidal":13354,"UTA":13355,"UFS":13356,"W3":13357,"Wool":13358,"Xin":13359,"acu":13360,"bore":13361,"c1":13362,"cd":13363,"d1":13364,"eth":13365,"eHow":13366,"f2":13367,"fel":13368,"fare":13369,"fps":13370,"festi":13371,"g2":13372,"gam":13373,"gara":13374,"gart":13375,"hm":13376,"hall":13377,"ior":13378,"jara":13379,"kind":13380,"kill":13381,"mÄĵn":13382,"nÃ²u":13383,"och":13384,"px":13385,"pour":13386,"qa":13387,"sou":13388,"tti":13389,"tter":13390,"wd":13391,"xton":13392,"yam":13393,"yet":13394,"É£":13395,"×ĳ":13396,"ë¡":13397,"ë¯":13398,"ì²":13399,"hub":13400,"gul":13401,"chor":13402,"duce":13403,"2033":13404,"lec":13405,"19.9":13406,"sup":13407,"dir":13408,"tula":13409,"kur":13410,"1048":13411,"1058":13412,"1077":13413,"1098":13414,"1084":13415,"million":13416,"1233":13417,"nifer":13418,"1112":13419,"1146":13420,"1164":13421,"1167":13422,"1156":13423,"ordin":13424,"erry":13425,"lain":13426,"latt":13427,"17.6":13428,"17.3":13429,"aru":13430,"14000":13431,"1436":13432,"14.2":13433,"14.3":13434,"1473":13435,"1322":13436,"1339":13437,"13.0":13438,"1379":13439,"1353":13440,"inha":13441,"gebra":13442,"fork":13443,"mul":13444,"stant":13445,"stom":13446,"28.5":13447,"thin":13448,"mess":13449,"rica":13450,"rak":13451,"100m":13452,"take":13453,"talis":13454,"0.90":13455,"0.64":13456,"0.77":13457,"0.86":13458,"0.83":13459,"mati":13460,"mage":13461,"macro":13462,"mania":13463,"1.20":13464,"1.21":13465,"1.28":13466,"1.50":13467,"1.32":13468,"1.78":13469,"1.61":13470,"1.01":13471,"1.8%":13472,"eto":13473,"2.31":13474,"2.45":13475,"2.63":13476,"INV":13477,"3.33":13478,"3.1%":13479,"nucle":13480,"Mali":13481,"Male":13482,"Mani":13483,"STUD":13484,"SEGA":13485,"These":13486,"vivo":13487,"Rebel":13488,".73%":13489,"cata":13490,"caster":13491,"42V":13492,"auf":13493,"5700":13494,"SAC":13495,"lys":13496,"ids":13497,"hab":13498,"Liu":13499,"Role":13500,"DeO":13501,"berger":13502,"MiG":13503,"Allan":13504,"typen":13505,"angu":13506,"9860":13507,"apple":13508,"BAE":13509,"COB":13510,"history":13511,"Moto":13512,"Jolin":13513,"Joker":13514,"100000":13515,"dai":13516,"Section":13517,"Sexy":13518,"ACA":13519,"Bever":13520,"ICLEI":13521,"Late":13522,"Ladies":13523,"Rafa":13524,"Sung":13525,"Saga":13526,"Shen":13527,"ONT":13528,"gium":13529,"giving":13530,"merce":13531,"Weber":13532,"stack":13533,"wish":13534,"SSRI":13535,"ours":13536,"ppy":13537,"Bag":13538,"Baba":13539,"Figu":13540,"shift":13541,"Nathan":13542,"IVPP":13543,"ENS":13544,"Todd":13545,"ALBUM":13546,"Haven":13547,"BLG":13548,"July":13549,"Jules":13550,"2.59":13551,"Dock":13552,"ROCm":13553,"AKA":13554,"Myki":13555,"REAPER":13556,"gnat":13557,"âĪĩ":13558,"ounced":13559,"Lucy":13560,"llon":13561,"Fav":13562,"Aud":13563,"CHA":13564,"Qual":13565,"lensis":13566,"2.09":13567,"Tawan":13568,"eric":13569,"SOI":13570,"ADP":13571,"4.38":13572,"Gover":13573,"Fei":13574,"Syd":13575,"6.11":13576,"GBU":13577,"ownCloud":13578,"5.27":13579,"network":13580,"BMC":13581,"Hikaru":13582,"Petit":13583,"3.53":13584,"Kei":13585,"nings":13586,"Combi":13587,"Monu":13588,"à¤ª":13589,"à¤¸":13590,"Corps":13591,"SPEC":13592,"Barth":13593,"Barnes":13594,"Bring":13595,"Santhal":13596,"within":13597,"without":13598,"EEG":13599,"Trilogy":13600,"Isla":13601,"mbol":13602,"blio":13603,"included":13604,"Prison":13605,"12747":13606,"CLR":13607,"Bert":13608,"Berlin":13609,"server":13610,"Ful":13611,"Fusion":13612,"anov":13613,"experi":13614,"Wallace":13615,"trix":13616,"Peters":13617,"Matters":13618,"Chemistry":13619,"bital":13620,"ABB":13621,"PVC":13622,"FMEDA":13623,"UCIL":13624,"complete":13625,"Highway":13626,"Spider":13627,"herty":13628,"Atlas":13629,"KBS2":13630,"Jackie":13631,"WinZip":13632,"EMBA":13633,"PyQt":13634,"TimeSignature":13635,"VOD":13636,"Porter":13637,"Ferr":13638,"SUGO":13639,"Prai":13640,"Tournament":13641,"frag":13642,"WSBL":13643,"Amazing":13644,"zzle":13645,"Bella":13646,"Virtua":13647,"However":13648,"Campbell":13649,"Campaign":13650,"KKday":13651,"MUK":13652,"áĢº":13653,"surface":13654,"Phillip":13655,"LonWorks":13656,"Crime":13657,"Manager":13658,"Birth":13659,"Objective":13660,"à¹Į":13661,"Passion":13662,"32.4%":13663,"Oscar":13664,"Curtis":13665,"Blockberry":13666,"occur":13667,"Really":13668,"Grande":13669,"Small":13670,"Regiment":13671,"DiePie":13672,"Athle":13673,"Tanfoglio":13674,"áĥĲ":13675,"Sorry":13676,"WOWOW":13677,"Ahmed":13678,"CASP":13679,"studio":13680,"KELT":13681,"Wikipedia":13682,"Imagin":13683,"MarketAx":13684,"Route":13685,"Wireless":13686,"Heath":13687,"Rounds":13688,"printf":13689,"Kitty":13690,"âĤĤ":13691,"Messenger":13692,"Builder":13693,"Standards":13694,"Florence":13695,"Cookie":13696,"direct":13697,"MakerVille":13698,"Safety":13699,"specific":13700,"Hands":13701,"Structure":13702,"IMDB":13703,"052D":13704,"Morningstar":13705,"Industrial":13706,"Writer":13707,"Adventures":13708,"ð°¾":13709,"different":13710,"CR400BF":13711,"Metropolitan":13712,"court":13713,"Alberto":13714,"âŁ¨":13715,"âŁ©":13716,"ê¸°":13717,"Blind":13718,"ashtanga":13719,"ëĭ¤":13720,"Minecraft":13721,"Kryo":13722,"Scotland":13723,"PARTY":13724,"ð«ļª":13725,"Kickstarter":13726,"BizTalk":13727,"JUSTHIS":13728,"Fighter":13729,"Toyota":13730,"Giorgio":13731,"Kuraki":13732,"Sultan":13733,"Admiral":13734,"building":13735,"Yautja":13736,"PewDiePie":13737,"ëĮĢ":13738,"Runaway":13739,"numericTimeSignature":13740,"typename":13741,"VirtuaReal":13742,"MarketAxess":13743,"027":13744,"031":13745,"1196":13746,"1193":13747,"1187":13748,"1UP":13749,"2G":13750,"2H":13751,"7200":13752,"8300":13753,"8.9%":13754,"9200":13755,"A10":13756,"Ate":13757,"Aber":13758,"AQU":13759,"Bles":13760,"BMI":13761,"Bhar":13762,"Bc4":13763,"C20":13764,"C79":13765,"CSM":13766,"Dana":13767,"DARK":13768,"Equ":13769,"Ere":13770,"EAC":13771,"EMC":13772,"Fing":13773,"FEC":13774,"FTP":13775,"G.7":13776,"GAR":13777,"GAME":13778,"Jing":13779,"K12":13780,"Kyi":13781,"Korn":13782,"LY":13783,"M20":13784,"M14":13785,"MPa":13786,"MEN":13787,"NTV":13788,"Nano":13789,"NVS":13790,"OBS":13791,"OLE":13792,"OVER":13793,"Pz":13794,"PON":13795,"P450":13796,"Q1":13797,"Rhe":13798,"RAIL":13799,"Sla":13800,"SDP":13801,"Sight":13802,"Sons":13803,"Session":13804,"TAP":13805,"Twin":13806,"UBA":13807,"WIN":13808,"WMI":13809,"WCF":13810,"WADA":13811,"XII":13812,"XHTML":13813,"Yam":13814,"Ying":13815,"Z1":13816,"Z48":13817,"ZK6":13818,"a8":13819,"av":13820,"ather":13821,"cit":13822,"cout":13823,"d5":13824,"dh":13825,"dru":13826,"e4":13827,"eX":13828,"ez":13829,"fMRI":13830,"glu":13831,"hPa":13832,"hold":13833,"iu":13834,"kaya":13835,"mÄģn":13836,"nc":13837,"ndez":13838,"pc":13839,"pai":13840,"rn":13841,"ske":13842,"thu":13843,"tmp":13844,"wl":13845,"wara":13846,"yy":13847,"yasa":13848,"zor":13849,"ÄĲ":13850,"ÄĻ":13851,"Æ°":13852,"Éĳ":13853,"Ê°":13854,"Î®":13855,"Îĳ":13856,"×ª":13857,"Øµ":13858,"Ùī":13859,"ìĥ":13860,"ìĪ":13861,"ð©":13862,"ngen":13863,"dee":13864,"dest":13865,"dere":13866,"short":13867,"champi":13868,"2048":13869,"bies":13870,"tivo":13871,"church":13872,"dini":13873,"dilla":13874,"disease":13875,"1013":13876,"1039":13877,"1068":13878,"1053":13879,"1083":13880,"mier":13881,"00%":13882,"12V":13883,"1288":13884,"nine":13885,"1136":13886,"1169":13887,"anto":13888,"labor":13889,"14.0":13890,"1316":13891,"1326":13892,"1331":13893,"gets":13894,"25.8":13895,"forms":13896,"24K":13897,"21.8":13898,"stown":13899,"meda":13900,"rule":13901,"rim":13902,"teng":13903,"rale":13904,"sep":13905,"tat":13906,"taan":13907,"0.69":13908,"0.89":13909,"0.6%":13910,"1.40":13911,"1.70":13912,"1.46":13913,"1.49":13914,"1.69":13915,"1.43":13916,"1.99":13917,"1.72":13918,"1.74":13919,"1.97":13920,"1.91":13921,"offer":13922,"2.47":13923,"2.69":13924,"2.66":13925,"2.72":13926,"2.82":13927,"2.2%":13928,"2.4%":13929,"3.10":13930,"3.35":13931,"3.45":13932,"3.65":13933,"bove":13934,"Chal":13935,"Chess":13936,"Madonna":13937,"Infinity":13938,"STE":13939,"33.5":13940,"loon":13941,"loop":13942,"loss":13943,"beck":13944,"SES":13945,"Regina":13946,"capa":13947,"43.5":13948,"opus":13949,"mper":13950,"Sty":13951,"Storage":13952,"until":13953,"habi":13954,"Rogers":13955,"Devel":13956,"ssen":13957,"touch":13958,"CDRI":13959,"Meg":13960,"Meli":13961,"twa":13962,"OSCAR":13963,"ango":13964,"Lev":13965,"BAR":13966,"COLO":13967,"mov":13968,"mong":13969,"modu":13970,"modi":13971,"AMPV":13972,"manage":13973,"BSAT":13974,"Moha":13975,"condu":13976,"contain":13977,"content":13978,"Teng":13979,"Tears":13980,"NeXT":13981,"Nexon":13982,"Sebas":13983,"Around":13984,"otri":13985,"Daw":13986,"oki":13987,"Sumo":13988,"enton":13989,"MAO":13990,"Tul":13991,"Short":13992,"route":13993,"mera":13994,"SoC":13995,"hong":13996,"Wee":13997,"HDMI":13998,"SSH":13999,"Pac":14000,"1.59":14001,"chei":14002,"mmol":14003,"Ricky":14004,"sode":14005,"solute":14006,"Bugs":14007,"Caf":14008,"Cami":14009,"Cake":14010,"DVB":14011,"Encyclo":14012,"Bab":14013,"Timothy":14014,"graci":14015,"ASIA":14016,"endl":14017,"illon":14018,"Nata":14019,"IVA":14020,"à¸ļ":14021,"Nipp":14022,"crown":14023,"Stefa":14024,"AIBA":14025,"Homo":14026,"Doc":14027,"USGS":14028,"Carr":14029,"Things":14030,"Mystery":14031,"Networks":14032,"gnes":14033,"Luc":14034,"CNS":14035,"CNET":14036,"Phra":14037,"weight":14038,"week":14039,"4.13":14040,"Rud":14041,"orie":14042,"IAST":14043,"TEA":14044,"DRM":14045,"Koh":14046,"sylla":14047,"symbol":14048,"Pub":14049,"tinental":14050,"Monta":14051,"nerf":14052,"Corner":14053,"flights":14054,"Complete":14055,"RTM":14056,"SPO":14057,"DOM":14058,"GP2":14059,"BEA":14060,"PPA":14061,"Greene":14062,"Orche":14063,"minton":14064,"CLUB":14065,"Morph":14066,"guez":14067,"GOOD":14068,"GNZ48":14069,"CSX":14070,"predi":14071,"onale":14072,"Wars":14073,"ABP":14074,"PLAY":14075,"SQU":14076,"Kings":14077,"enable":14078,"Christine":14079,"Upper":14080,"garh":14081,"Fritz":14082,"Civil":14083,"EF52":14084,"announced":14085,"Vector":14086,"Minor":14087,"Laurent":14088,"published":14089,"Include":14090,"Telecom":14091,"shaw":14092,"Gallery":14093,"league":14094,"6.09":14095,"physic":14096,"BUG":14097,"PDW":14098,"ddle":14099,"âī¡":14100,"á¹ĥ":14101,"Strate":14102,"COMIC":14103,"âĳ¢":14104,"ChoCo":14105,"VVV":14106,"morph":14107,"Imperial":14108,"PTFE":14109,"Beats":14110,"Amir":14111,"Frog":14112,"flag":14113,"FINA":14114,"Alter":14115,"Kirara":14116,"SONY":14117,"possible":14118,"Artist":14119,"1080p":14120,"Bauer":14121,"Eastern":14122,"Jessica":14123,"Chapter":14124,"Namco":14125,"write":14126,"CITY":14127,"CITES":14128,"BugBug":14129,"xcb":14130,"CRH5A":14131,"Albums":14132,"MEDLINE":14133,"Cheems":14134,"Brooks":14135,"CONCERT":14136,"GIRLS":14137,"aespa":14138,"education":14139,"ìŀĲ":14140,"variable":14141,"kirche":14142,"Schiff":14143,"CR300AF":14144,"E9E9":14145,"plotlib":14146,"Property":14147,"received":14148,"Spirits":14149,"Believe":14150,"Leadership":14151,"Libreboot":14152,"Shirley":14153,"including":14154,"Elliott":14155,"SUMMER":14156,"geometry":14157,"COUNTDOWN":14158,"Ultimate":14159,"ìĬ¤":14160,"WhatsApp":14161,"ENGINE":14162,"Guinness":14163,"MCBMSP":14164,"bacterium":14165,"Phenom":14166,"ì£¼":14167,"Schmidt":14168,"ð«Ľļ":14169,"HAPPY":14170,"message":14171,"Kyiv":14172,"NVSRAM":14173,"Developer":14174,"075":14175,"057":14176,"051":14177,"074":14178,"1da":14179,"2250":14180,"2GB":14181,"4S":14182,"4.3%":14183,"5.5%":14184,"6300":14185,"8600":14186,"8.4%":14187,"Ain":14188,"Alo":14189,"Ada":14190,"Avery":14191,"Adult":14192,"Bound":14193,"CTC":14194,"CRO":14195,"Crow":14196,"Dro":14197,"Dil":14198,"D32":14199,"DAC":14200,"DIC":14201,"Eun":14202,"E130":14203,"EPS":14204,"FBC":14205,"Font":14206,"FVP":14207,"Gli":14208,"Gir":14209,"Ging":14210,"Gly":14211,"Gent":14212,"HAL":14213,"HMC":14214,"HALL":14215,"IWI":14216,"Jou":14217,"JAS":14218,"Kro":14219,"Kwan":14220,"Krish":14221,"Kfz":14222,"LCS":14223,"M50":14224,"MAM":14225,"MRS":14226,"Mama":14227,"Mass":14228,"NZ":14229,"Nap":14230,"NDS":14231,"Nina":14232,"NSC":14233,"Nero":14234,"O5":14235,"Ola":14236,"OUR":14237,"P3":14238,"P6":14239,"PZ":14240,"Pf":14241,"Ping":14242,"PTS":14243,"Please":14244,"PTCH":14245,"Sas":14246,"Sap":14247,"SPS":14248,"Scan":14249,"TJ":14250,"Try":14251,"TON":14252,"Tari":14253,"Tsing":14254,"TASC":14255,"Tetra":14256,"UZ":14257,"USM":14258,"Von":14259,"VAD":14260,"Wig":14261,"XSD":14262,"Yer":14263,"Zach":14264,"ZARD":14265,"award":14266,"acc":14267,"bly":14268,"clas":14269,"fine":14270,"gow":14271,"gore":14272,"ggle":14273,"hin":14274,"hra":14275,"hart":14276,"held":14277,"iHeart":14278,"idea":14279,"kJ":14280,"kl":14281,"kla":14282,"kil":14283,"kos":14284,"kina":14285,"nÄĽi":14286,"nana":14287,"odon":14288,"pace":14289,"pler":14290,"pton":14291,"rina":14292,"vn":14293,"vus":14294,"xs":14295,"xd4":14296,"yÅį":14297,"zai":14298,"Ãĩ":14299,"Ãľ":14300,"Îł":14301,"Ð¤":14302,"ÐĹ":14303,"ÑĬ":14304,"Ñį":14305,"×Ķ":14306,"à¶":14307,"ëĵ":14308,"ìĻ":14309,"íĻ":14310,"deg":14311,"dele":14312,"gur":14313,"chts":14314,"little":14315,"due":14316,"2046":14317,"19.3":14318,"bind":14319,"sui":14320,"tite":14321,"tiali":14322,"tista":14323,"tilla":14324,"turing":14325,"env":14326,"ento":14327,"10W":14328,"1045":14329,"mension":14330,"mimi":14331,"mian":14332,"mira":14333,"mies":14334,"mill":14335,"18F":14336,"18.4":14337,"1289":14338,"1296":14339,"1281":14340,"11.0":14341,"1151":14342,"oral":14343,"organi":14344,"lax":14345,"lations":14346,"1354":14347,"ined":14348,"gedit":14349,"24.8":14350,"muni":14351,"album":14352,"stay":14353,"23.3":14354,"reli":14355,"reich":14356,"release":14357,"remove":14358,"2222":14359,"50.8":14360,"rise":14361,"29.8":14362,"rain":14363,"rail":14364,"40.5":14365,"ãĥ¦":14366,"amy":14367,"amor":14368,"sector":14369,"100.":14370,"tata":14371,"0.31":14372,"0.96":14373,"mau":14374,"matrix":14375,"1.39":14376,"1.64":14377,"1.41":14378,"1.79":14379,"1.81":14380,"1.7%":14381,"2.20":14382,"2.13":14383,"2.40":14384,"2.44":14385,"2.67":14386,"2.93":14387,"2.3%":14388,"cope":14389,"coding":14390,"INET":14391,"INAH":14392,"3.41":14393,"3.61":14394,"3.63":14395,"3.05":14396,"bolt":14397,"vehicle":14398,"asse":14399,"toon":14400,"Inside":14401,"Instal":14402,"64BM":14403,"logo":14404,"belie":14405,"becca":14406,"Theater":14407,"Coon":14408,"Coco":14409,"Release":14410,"nati":14411,"ooth":14412,"cali":14413,"cated":14414,".62%":14415,"peu":14416,"aus":14417,"eda":14418,"Miles":14419,"Mea":14420,"Marvel":14421,"derson":14422,"BCI":14423,"anga":14424,"Levi":14425,"53K":14426,"Viktor":14427,"hio":14428,"hide":14429,"Movi":14430,"Mother":14431,"Movement":14432,"vali":14433,"conds":14434,"Joan":14435,"Secure":14436,"Seasons":14437,"Stat":14438,"Being":14439,"ICEF":14440,"sons":14441,"Rapid":14442,"Rahman":14443,"Save":14444,"Som":14445,"Solutions":14446,"hom":14447,"Much":14448,"tÃ¹n":14449,"ITER":14450,"Paolo":14451,"byte":14452,"mmar":14453,"soap":14454,"Catherine":14455,"SMN":14456,"Continu":14457,"comb":14458,"Filip":14459,"Tibet":14460,"graphi":14461,"Naval":14462,"said":14463,"kawas":14464,"kawai":14465,"à¸ķ":14466,"Nigel":14467,"BLO":14468,"BLITZ":14469,"Julian":14470,"2.52":14471,"2.58":14472,"MPA":14473,"AIK":14474,"anthus":14475,"Thing":14476,"MyVideo":14477,"Kiha":14478,"KiRo":14479,"Scha":14480,"Schwei":14481,"Node":14482,"CPAP":14483,"UNICEF":14484,"myces":14485,"Faculty":14486,"Audition":14487,"NewJeans":14488,"Exhibition":14489,"2.04":14490,"2.07":14491,"AVN":14492,"CCC":14493,"0.57":14494,"LEE":14495,"LEO":14496,"BOYS":14497,"IGM":14498,"4.15":14499,"Syl":14500,"Kala":14501,"6.25":14502,"IANA":14503,"jection":14504,"Advis":14505,"Hudson":14506,"zeu":14507,"BMNH":14508,"Pete":14509,"tella":14510,"mono":14511,"OpenNIC":14512,"Koch":14513,"Commerce":14514,"Mona":14515,"à¤¯":14516,"LLM":14517,"Bristol":14518,"LOV":14519,"Giant":14520,"NH3":14521,"PPPo":14522,"Orga":14523,"Tracker":14524,"minary":14525,"CLC":14526,"VoLTE":14527,"SHISH":14528,"still":14529,"eroy":14530,"Wadi":14531,"tens":14532,"ãĦ¨":14533,"trie":14534,"HCl":14535,"Matter":14536,"Material":14537,"VAX":14538,"DDK":14539,"KPL":14540,"xygen":14541,"AllMusic":14542,"Warner":14543,"ABBA":14544,"disc":14545,"Webb":14546,"park":14547,"party":14548,"fox":14549,"mington":14550,"Brother":14551,"SKT":14552,"SKY":14553,"FOMA":14554,"UT1":14555,"Record":14556,"Centro":14557,"Alexa":14558,"Alexand":14559,"Shining":14560,"Shift":14561,"player":14562,"LTM":14563,"NEO":14564,"young":14565,"frastructure":14566,"Richardson":14567,"fried":14568,"Massa":14569,"Freak":14570,"varman":14571,"ìĿ¸":14572,"mg%":14573,"kinson":14574,"ðĲİ":14575,"Early":14576,"CVT":14577,"à¥Ģ":14578,"HTML5":14579,"Queendo":14580,"Watson":14581,"Choco":14582,"Edwards":14583,"tastic":14584,"Signal":14585,"Transform":14586,"blog":14587,"Cambridge":14588,"DLSS":14589,"DMSO":14590,"Electro":14591,"Phoeni":14592,"paten":14593,"Olivia":14594,"sortium":14595,"Darkness":14596,"KinKi":14597,"strel":14598,"WORD":14599,"Honor":14600,"Honoura":14601,"Badminton":14602,"PBPK":14603,"0x5":14604,"Half":14605,"mediate":14606,"EGFR":14607,"Mosaic":14608,"Retro":14609,"Roll":14610,"cularia":14611,"Gambas":14612,"Economics":14613,"shanensis":14614,"Abdullah":14615,"Nancy":14616,"Wolfgang":14617,"Stern":14618,"window":14619,"MICH":14620,"Random":14621,"Sidney":14622,"general":14623,"Gonza":14624,"Kappa":14625,"Experience":14626,"KiiiKiii":14627,"FREE":14628,"Fernando":14629,"Quake3":14630,"LMP1":14631,"square":14632,"Leopold":14633,"Laboratory":14634,"Feedly":14635,"Astrono":14636,"B8L":14637,"à§į":14638,"Arkane":14639,"Species":14640,"Jorge":14641,"Dangerous":14642,"Verizon":14643,"Thomson":14644,"required":14645,"Conservation":14646,"Bryan":14647,"Gardner":14648,"Pitchfork":14649,"ð¨¥":14650,"Canonical":14651,"Boeing":14652,"IUPAC":14653,"Kabupaten":14654,"advanced":14655,"Destiny":14656,"Cameron":14657,"STUDIO":14658,"SUGOCA":14659,"gracilis":14660,"kawaii":14661,"SHISHAMO":14662,"Queendom":14663,"Honourable":14664,".14":14665,".32":14666,"064":14667,"063":14668,"089":14669,"072":14670,"1s":14671,"2187":14672,"3B":14673,"3E":14674,"4th":14675,"6.5%":14676,"6.9%":14677,"6LX":14678,"7.1%":14679,"Aya":14680,"Bond":14681,"C11":14682,"CIS":14683,"CTO":14684,"Cres":14685,"DLE":14686,"DIG":14687,"D3D":14688,"Eco":14689,"EAN":14690,"Edit":14691,"ESET":14692,"Fel":14693,"FIS":14694,"FSS":14695,"GX":14696,"Gle":14697,"Gone":14698,"Gott":14699,"H7":14700,"HTV":14701,"Hak":14702,"Hour":14703,"Hari":14704,"Hold":14705,"Hoff":14706,"I2":14707,"IMP":14708,"Ivy":14709,"Jig":14710,"KY":14711,"KAT":14712,"Kaki":14713,"Killer":14714,"Ln":14715,"LIT":14716,"LTR":14717,"Lys":14718,"LINK":14719,"M18":14720,"Mint":14721,"MNH":14722,"Nin":14723,"Nine":14724,"NBL":14725,"OX":14726,"Oz":14727,"Oil":14728,"OIC":14729,"PIN":14730,"Pir":14731,"Pry":14732,"PUA":14733,"PUSH":14734,"Q6":14735,"QAM":14736,"RST":14737,"RAR":14738,"SJ":14739,"Sit":14740,"SMA":14741,"SIP":14742,"SBD":14743,"Tc":14744,"TGM":14745,"Vig":14746,"VAN":14747,"Whe":14748,"Wed":14749,"WBC":14750,"XV":14751,"Z4":14752,"ated":14753,"acade":14754,"bene":14755,"css":14756,"cera":14757,"dding":14758,"eBay":14759,"eMule":14760,"f3":14761,"food":14762,"gÃ©n":14763,"gold":14764,"hlen":14765,"identi":14766,"kau":14767,"kker":14768,"know":14769,"lou":14770,"mpi":14771,"mals":14772,"nders":14773,"plu":14774,"r4":14775,"sq":14776,"stin":14777,"tRNA":14778,"wx":14779,"winter":14780,"x64":14781,"yas":14782,"Åĵ":14783,"ÊĤ":14784,"Ìį":14785,"Ñİ":14786,"à·":14787,"àº":14788,"â¾":14789,"ë©":14790,"ëĬ":14791,"deter":14792,"deus":14793,"demon":14794,"sham":14795,"shot":14796,"shine":14797,"hum":14798,"lig":14799,"lii":14800,"liÄĽ":14801,"lite":14802,"lind":14803,"libre":14804,"sume":14805,"quency":14806,"lume":14807,"1029":14808,"1038":14809,"1064":14810,"1041":14811,"1052":14812,"1074":14813,"1092":14814,"18.2":14815,"nius":14816,"11Z":14817,"1165":14818,"1144":14819,"11.4%":14820,"11.7%":14821,"16.9":14822,"lag":14823,"lated":14824,"lazy":14825,"arin":14826,"arna":14827,"zum":14828,"1318":14829,"1311":14830,"mura":14831,"21.7":14832,"stop":14833,"23.7":14834,"23.2":14835,"resi":14836,"recur":14837,"recogni":14838,"22.9":14839,"22.1":14840,"rig":14841,"ï¼£":14842,"ï¼¯":14843,"ï¼ĸ":14844,"29.5":14845,"tei":14846,"rong":14847,"sid":14848,"siw":14849,"sibility":14850,"raw":14851,"radi":14852,"ambi":14853,"seseo":14854,"100km":14855,"ãģ¼":14856,"1.10":14857,"1.34":14858,"1.98":14859,"1.89":14860,"1.85":14861,"1.86":14862,"1.96":14863,"etc":14864,"etz":14865,"2.10":14866,"2.70":14867,"2.48":14868,"2.42":14869,"2.61":14870,"2.73":14871,"owe":14872,"coming":14873,"andler":14874,"cko":14875,"3750":14876,"3.11":14877,"3.99":14878,"3.76":14879,"3.3%":14880,"asana":14881,"token":14882,"Chel":14883,"Chance":14884,"Mash":14885,"Madi":14886,"Mada":14887,"Machi":14888,"Macross":14889,"Int":14890,"STO":14891,"64GB":14892,"lose":14893,"vii":14894,"Reve":14895,"Rebecca":14896,"bry":14897,"cion":14898,"ciple":14899,"cident":14900,".09%":14901,"bag":14902,"pect":14903,"peak":14904,"59A":14905,"hain":14906,"Rome":14907,"Rogue":14908,"Dec":14909,"Desi":14910,"Depu":14911,"7700":14912,"Mexi":14913,"Marti":14914,"Lecture":14915,"BAD":14916,"BAND":14917,"COR":14918,"mobile":14919,"Vice":14920,"AMN":14921,"ARIN":14922,"vale":14923,"persky":14924,"gata":14925,"gaard":14926,"dacty":14927,"Sey":14928,"Seat":14929,"spot":14930,"Arg":14931,"Ars":14932,"Argen":14933,"five":14934,"Laz":14935,"Label":14936,"Rag":14937,"Diver":14938,"Supre":14939,"Sumade":14940,"Sav":14941,"dog":14942,"gical":14943,"pose":14944,"Sock":14945,"Solid":14946,"Sobol":14947,"kia":14948,"chee":14949,"steri":14950,"Rising":14951,"phin":14952,"Heat":14953,"note":14954,"Cata":14955,"Casio":14956,"Capit":14957,"SMS":14958,"Configuration":14959,"PCB":14960,"Bac":14961,"ETA":14962,"satellite":14963,"Toys":14964,"ECS":14965,"Hash":14966,"MSN":14967,"Steel":14968,"MPLS":14969,"Doherty":14970,"yava":14971,"Pick":14972,"Cars":14973,"Threads":14974,"REFL":14975,"Novel":14976,"arium":14977,"Fame":14978,"Fabri":14979,"Exping":14980,"CH4":14981,"TAIN":14982,"2.0%":14983,"Tales":14984,"kova":14985,"0.56":14986,"BOY":14987,"ADD":14988,"ADL":14989,"Fe2":14990,"Kaz":14991,"6.28":14992,"Hugo":14993,"ESB":14994,"1186":14995,"ptor":14996,"gher":14997,"OpenCritic":14998,"3.5%":14999,"3.54":15000,"Koha":15001,"ATP500":15002,"ATP250":15003,"Competi":15004,"à¤Ĺ":15005,"veland":15006,"linear":15007,"Britain":15008,"Harmo":15009,"CESS":15010,"NH4":15011,"NHMUK":15012,"PPD":15013,"SCSI":15014,"Graf":15015,"Gram":15016,"Orl":15017,"Orni":15018,"Tram":15019,"Orien":15020,"Davichi":15021,"128GB":15022,"strate":15023,"Wales":15024,"POW":15025,"Donut":15026,"Walking":15027,"triple":15028,"anyon":15029,"5.55":15030,"Cheer":15031,"primary":15032,"enschaft":15033,"RC5":15034,"Airlines":15035,"IRAL":15036,"Hyde":15037,"MGH":15038,"Benz":15039,"MBT":15040,"Bloom":15041,"TPU":15042,"Shaw":15043,"borg":15044,"companies":15045,"Vani":15046,"Pattab":15047,"Product":15048,"Cevio":15049,"Friday":15050,"issan":15051,"Technical":15052,"Cider":15053,"spacecraft":15054,"Teresa":15055,"Garcia":15056,"WinWin":15057,"Saman":15058,"ifconfig":15059,"Portu":15060,"placed":15061,"SF2":15062,"B2B":15063,"BRB":15064,"signs":15065,"signal":15066,"PASS":15067,"Goodbye":15068,"CTU":15069,"shape":15070,"Galli":15071,"GTK":15072,"PRISM":15073,"frac":15074,"Turn":15075,"cillus":15076,"VRDK":15077,"Respon":15078,"khof":15079,"MUD":15080,"áĢ¯":15081,"Scope":15082,"union":15083,"á¹ĩ":15084,"joy":15085,"Watcha":15086,"Boris":15087,"JTB":15088,"hrer":15089,"SHOCK":15090,"âĭħ":15091,"Overture":15092,"normal":15093,"Dollar":15094,"castle":15095,"Arab":15096,"CBT":15097,"charge":15098,"IBNS":15099,"techni":15100,"Lamb":15101,"study":15102,"Hunt":15103,"Township":15104,"PostScript":15105,"Router":15106,"laume":15107,"Baseball":15108,"Foster":15109,"Since":15110,"Apol":15111,"Dynamic":15112,"terature":15113,"Allison":15114,"Jersey":15115,"Better":15116,"Thank":15117,"eventual":15118,"Seventeen":15119,"templatestyles":15120,"exten":15121,"Roland":15122,"Shuttle":15123,"bourne":15124,"production":15125,"Communication":15126,"defeating":15127,"scienti":15128,"Heinz":15129,"engine":15130,"ìĦ±":15131,"became":15132,"âĬĨ":15133,"Editor":15134,"Ayyava":15135,"XYZ":15136,"Electronics":15137,"Selection":15138,"Lynn":15139,"Cherry":15140,"Regular":15141,"flora":15142,"Majlis":15143,"girls":15144,"sequence":15145,"common":15146,"Infant":15147,"Formosa":15148,"Kaspersky":15149,"Pearson":15150,"Oreo":15151,"ITZY":15152,"xmlns":15153,"Certified":15154,"êµŃ":15155,"fficient":15156,"component":15157,"Pelkey":15158,"effect":15159,"Pulse":15160,"Lilith":15161,"Reserve":15162,"Trouble":15163,"fascia":15164,"November":15165,"Administration":15166,"japonica":15167,"YONEX":15168,"Columbia":15169,"Enrique":15170,"formosana":15171,"Zimmer":15172,"Derek":15173,"ï»¿":15174,"Amend":15175,"CR200J":15176,"Elisabeth":15177,"SHOOTER":15178,"Jakob":15179,"gnathus":15180,"Sydney":15181,"SPECIAL":15182,"Orchestra":15183,"Coonley":15184,"Pattabhi":15185,".17":15186,".2016":15187,".2012":15188,".33":15189,".42":15190,"068":15191,"071":15192,"1C":15193,"33.6":15194,"4100":15195,"4.2%":15196,"5.2%":15197,"7300":15198,"7.6%":15199,"70.3":15200,"8400":15201,"8.7%":15202,"9.8%":15203,"Ach":15204,"ASM":15205,"Att":15206,"Amuse":15207,"Bere":15208,"BPM":15209,"Brun":15210,"Brough":15211,"Cd":15212,"C17":15213,"C24":15214,"CSA":15215,"Cun":15216,"Crist":15217,"Canyon":15218,"D8":15219,"Dat":15220,"Dow":15221,"DTC":15222,"DAN":15223,"DBE":15224,"Doro":15225,"EH":15226,"Esta":15227,"Eight":15228,"EWS":15229,"FNA":15230,"FAR":15231,"Gan":15232,"G41":15233,"Gara":15234,"Glor":15235,"Hf":15236,"Hr":15237,"Hof":15238,"HIP":15239,"HSS":15240,"Hass":15241,"Hook":15242,"ILL":15243,"Idea":15244,"Iterator":15245,"JED":15246,"Kt":15247,"KST":15248,"KAN":15249,"K101":15250,"Kane":15251,"Klaus":15252,"L3":15253,"LAC":15254,"Lance":15255,"Ligh":15256,"Lens":15257,"MQ":15258,"Mt":15259,"MAP":15260,"MER":15261,"MSM":15262,"M1917":15263,"MTA":15264,"Mental":15265,"Ngu":15266,"Nun":15267,"Nc3":15268,"O6":15269,"RJ":15270,"R11":15271,"Rel":15272,"REC":15273,"Rous":15274,"Rene":15275,"Sna":15276,"Sed":15277,"Ska":15278,"SWE":15279,"TWh":15280,"T3A":15281,"TLS":15282,"TUNES":15283,"Um":15284,"Utri":15285,"V60":15286,"VIA":15287,"Witch":15288,"WASP":15289,"X3":15290,"YY":15291,"Z3":15292,"ZF":15293,"api":15294,"b8":15295,"bt":15296,"bbe":15297,"bone":15298,"cence":15299,"dora":15300,"e1":15301,"egel":15302,"fau":15303,"fone":15304,"gha":15305,"gwick":15306,"ip":15307,"itu":15308,"imi":15309,"iKON":15310,"kN":15311,"kw":15312,"kap":15313,"kok":15314,"kine":15315,"mba":15316,"nter":15317,"oe":15318,"pseudo":15319,"sound":15320,"tte":15321,"txt":15322,"v3":15323,"vna":15324,"vot":15325,"wc":15326,"yx":15327,"yen":15328,"yama":15329,"zd":15330,"zers":15331,"Â¹":15332,"Âº":15333,"Å½":15334,"Ð¦":15335,"Õµ":15336,"dend":15337,"development":15338,"xie":15339,"gung":15340,"chara":15341,"lift":15342,"duk":15343,"2036":15344,"19.4":15345,"bill":15346,"suchus":15347,"tiva":15348,"tika":15349,"ticus":15350,"tienne":15351,"dich":15352,"died":15353,"diff":15354,"dino":15355,"lund":15356,"enig":15357,"enia":15358,"10th":15359,"1026":15360,"1079":15361,"1082":15362,"miRNA":15363,"12.0":15364,"1269":15365,"1159":15366,"1163":15367,"pina":15368,"pilot":15369,"orang":15370,"orrow":15371,"eron":15372,"onto":15373,"onka":15374,"16.1":15375,"16.4":15376,"lago":15377,"17.2":15378,"aring":15379,"1463":15380,"zur":15381,"30.9":15382,"1342":15383,"inson":15384,"forming":15385,"alli":15386,"alter":15387,"21.6":15388,"21.4":15389,"stler":15390,"stanti":15391,"23.8":15392,"23.6":15393,"threads":15394,"retrie":15395,"26.8":15396,"26.3":15397,"ricum":15398,"ï¼ĺ":15399,"sip":15400,"sien":15401,"racy":15402,"sei":15403,"tah":15404,"tact":15405,"oll":15406,"olan":15407,"elong":15408,"mach":15409,"mata":15410,"macula":15411,"ãģľ":15412,"1.31":15413,"1.94":15414,"35.5":15415,"etero":15416,"2.00":15417,"2.22":15418,"2.32":15419,"2.64":15420,"2.76":15421,"2.95":15422,"2.94":15423,"illu":15424,"illy":15425,"attribu":15426,"atops":15427,"owel":15428,"theorem":15429,"ckle":15430,"nee":15431,"3.36":15432,"3.88":15433,"3.09":15434,"boo":15435,"Chong":15436,"Chronic":15437,"Character":15438,"Mae":15439,"Insurance":15440,"loa":15441,"began":15442,".87%":15443,"Their":15444,"Copy":15445,"vidence":15446,"Ref":15447,"Reid":15448,"Reality":15449,"ads":15450,"adows":15451,"cie":15452,".04%":15453,".74%":15454,"6700":15455,"3001":15456,".61%":15457,"pez":15458,"ATV":15459,"41.5":15460,"56.5":15461,"NAVER":15462,"Deck":15463,"beri":15464,"Mikha":15465,"Meet":15466,"Martha":15467,"OSD":15468,"OSPF":15469,"Allo":15470,"types":15471,"Leary":15472,"53E":15473,"moi":15474,"mole":15475,"moon":15476,"Vivi":15477,"Moment":15478,"Monica":15479,"Motif":15480,"dacity":15481,"Se2":15482,"ISN":15483,"filt":15484,"EDITION":15485,"Bei":15486,"Beth":15487,"Beit":15488,"Laf":15489,"Rao":15490,"Radical":15491,"Sai":15492,"Saw":15493,"Shel":15494,"Jaguar":15495,"does":15496,"gian":15497,"gift":15498,"pomo":15499,"ANT":15500,"Annu":15501,"Wein":15502,"Boston":15503,"wire":15504,"1.56":15505,"Sisters":15506,"Simmons":15507,"ffen":15508,"pple":15509,"phra":15510,"phere":15511,"1306":15512,"notes":15513,"Bukit":15514,"Cath":15515,"SMART":15516,"Contra":15517,"Contents":15518,"Consortium":15519,"Tian":15520,"Naz":15521,"Natura":15522,"feel":15523,"therapy":15524,"Tools":15525,"à¸«":15526,"Hav":15527,"Stella":15528,"Words":15529,"Does":15530,"yani":15531,"Mys":15532,"problem":15533,"Schlatt":15534,"No.1":15535,"gner":15536,"UNIVER":15537,"FCS":15538,"Lux":15539,"âĦ¢":15540,"Fast":15541,"Authority":15542,"Audacity":15543,"MORE":15544,"MOVE":15545,"Taku":15546,"page":15547,"MIM":15548,"SOV":15549,"SOUND":15550,"LESS":15551,"cyto":15552,"4.22":15553,"4.36":15554,"Fear":15555,"6.22":15556,"6.27":15557,"6.75":15558,"6.32":15559,"rond":15560,"TEU":15561,"Adolf":15562,"Hung":15563,"1182":15564,"Peer":15565,"DAHL":15566,"OpenCL":15567,"OpenSolaris":15568,"HOY":15569,"ATP1000":15570,"Kecamatan":15571,"Kepler":15572,"Dutch":15573,"Stur":15574,"à¤ķ":15575,"NOC":15576,"Corn":15577,"EXE":15578,"MLS":15579,"margin":15580,"DOME":15581,"Haru":15582,"jah":15583,"Jeep":15584,"Edgar":15585,"Willis":15586,"turns":15587,"MacBook":15588,"Gian":15589,"mbar":15590,"Grade":15591,"Gravity":15592,"quez":15593,"quest":15594,"GameSpy":15595,"GameRankings":15596,"Berkhof":15597,"another":15598,"McKen":15599,"5.54":15600,"WTA250":15601,"HCV":15602,"Matrix":15603,"stria":15604,"AFS":15605,"AFT":15606,"Whis":15607,"cargo":15608,"AllStar":15609,"Hydra":15610,"MG34":15611,"Engel":15612,"Henderson":15613,"Bloo":15614,"TPMT":15615,"astrome":15616,"Eleanor":15617,"crete":15618,"olyn":15619,"Frie":15620,"issenschaft":15621,"RAID":15622,"HIRO":15623,"bration":15624,"CASE":15625,"256GB":15626,"M2A4":15627,"ð«Ħ":15628,"ð«ĵ":15629,"Angular":15630,"GMT":15631,"Torre":15632,"Burn":15633,"Burger":15634,"Burns":15635,"Singles":15636,"Capcon":15637,"Officer":15638,"Gerard":15639,"Prada":15640,"PRIN":15641,"2186":15642,"Amaz":15643,"Salvad":15644,"XPCOM":15645,"VMware":15646,"transport":15647,"draco":15648,"subject":15649,"Zion":15650,"Penn":15651,"Criminal":15652,"Tomorrow":15653,"Fraser":15654,"Philips":15655,"Ballad":15656,"Janus":15657,"Birds":15658,"GRAIL":15659,"CVS":15660,"better":15661,"hurst":15662,"Borland":15663,"Polygon":15664,"Lancer":15665,"Curry":15666,"Currie":15667,"help":15668,"hello":15669,"pression":15670,"Climate":15671,"Circuit":15672,"Political":15673,"Close":15674,"featuring":15675,"Denis":15676,"Jenkins":15677,"Nicole":15678,"patch":15679,"Setting":15680,"minate":15681,"Kinder":15682,"Coup":15683,"Distribution":15684,"Focus":15685,"Duncan":15686,"ðĲŃł":15687,"85512":15688,"Clarke":15689,"Medal":15690,"Message":15691,"Montju":15692,"plane":15693,"PCIe":15694,"Somewhere":15695,"RBW":15696,"TestB":15697,"original":15698,"bourg":15699,"Memories":15700,"Basin":15701,"Neuro":15702,"Applications":15703,"Jesse":15704,"capsu":15705,"Liberty":15706,"Liberation":15707,"Erik":15708,"Dallas":15709,"Linda":15710,"RSASS":15711,"Cosmic":15712,"Sharon":15713,"CAPCOM":15714,"Kurt":15715,"SocketFD":15716,"Africa":15717,"âĬĹ":15718,"Emperor":15719,"finition":15720,"hydroxy":15721,"swap":15722,"measure":15723,"Numbers":15724,"Isaac":15725,"Task":15726,"Psych":15727,"gged":15728,"ê¸Ģ":15729,"Delicious":15730,"Assault":15731,"Celebri":15732,"ìĺ¤":15733,"paper":15734,"MOMOLAND":15735,"Historical":15736,"Fischer":15737,"Giacomo":15738,"ìĸ´":15739,"Commander":15740,"Glory":15741,"Duratec":15742,"Environment":15743,"Physics":15744,"associa":15745,"Warriors":15746,"Lorenzo":15747,"HOLBORN":15748,"SINGLE":15749,"Mohammed":15750,"MIDI":15751,"coordinates":15752,"Baptiste":15753,"Spoonz":15754,"TOGAF":15755,"ENTERTAIN":15756,"ARTSVISION":15757,"butyricum":15758,"Voyage":15759,"ë¡ľ":15760,"Figure":15761,"Audrey":15762,"Mohamed":15763,"Gentle":15764,"PPPoE":15765,"Deputy":15766,"REFLECTION":15767,"Ayyavazhi":15768,"Utricularia":15769,"DAHLIA":15770,"ENTERTAINMENT":15771,".2021":15772,".2009":15773,"038":15774,"095":15775,"0641":15776,"1188":15777,"2185":15778,"2H2O":15779,"4GB":15780,"4.7%":15781,"5.3%":15782,"5.1%":15783,"6.2%":15784,"7R":15785,"7.9%":15786,"8.5%":15787,"9.9%":15788,"A27":15789,"Abe":15790,"ASA":15791,"ABL":15792,"Asy":15793,"AWS":15794,"ADSL":15795,"Bj":15796,"Bard":15797,"BMA":15798,"BTO":15799,"Bren":15800,"BTS":15801,"Bass":15802,"Bhd":15803,"Cay":15804,"Cly":15805,"CTV":15806,"Cai":15807,"CEN":15808,"Cort":15809,"Cald":15810,"DBC":15811,"Droid":15812,"DNF":15813,"Drum":15814,"EW":15815,"Eh":15816,"Ela":15817,"Ein":15818,"Era":15819,"E40":15820,"Evil":15821,"Fig":15822,"Fant":15823,"Fans":15824,"FPGA":15825,"Gb":15826,"Grou":15827,"GMP":15828,"Gbit":15829,"H14":15830,"Hmm":15831,"Hend":15832,"Heri":15833,"HMG":15834,"Hits":15835,"HONG":15836,"Ib":15837,"Iu":15838,"IMS":15839,"Item":15840,"Jess":15841,"Jero":15842,"JECT":15843,"K5":15844,"K7":15845,"K8":15846,"Kni":15847,"K15":15848,"Knu":15849,"KAI":15850,"KBE":15851,"K232":15852,"K308":15853,"KISS":15854,"LLE":15855,"Lunch":15856,"Mb":15857,"M1911":15858,"MCP":15859,"Mene":15860,"MISL":15861,"NII":15862,"Nvi":15863,"Nai":15864,"Opi":15865,"ORO":15866,"OCP":15867,"Pv":15868,"P15":15869,"Pis":15870,"Pok":15871,"PME":15872,"Pren":15873,"PABP":15874,"RL":15875,"RIF":15876,"RPM":15877,"Scri":15878,"SIX":15879,"Slate":15880,"SATA":15881,"Sket":15882,"Slot":15883,"Till":15884,"TMS":15885,"Uti":15886,"VJ":15887,"Vau":15888,"Vera":15889,"W52":15890,"WAP":15891,"Wendy":15892,"WITH":15893,"YR":15894,"Yar":15895,"Yum":15896,"YLE":15897,"Zr":15898,"Zeni":15899,"Zhang":15900,"bling":15901,"cv":15902,"clay":15903,"cina":15904,"cens":15905,"dana":15906,"dance":15907,"eva":15908,"eight":15909,"eye":15910,"fru":15911,"fony":15912,"gine":15913,"gby":15914,"gory":15915,"ggy":15916,"mbo":15917,"pÃ³u":15918,"rr":15919,"rhyth":15920,"s2":15921,"sau":15922,"tone":15923,"uer":15924,"wak":15925,"why":15926,"wild":15927,"yar":15928,"zc":15929,"zam":15930,"Ãĺ":15931,"Ãŀ":15932,"Å©":15933,"ÆĴ":15934,"Ê»":15935,"ÎŁ":15936,"Ð§":15937,"ÖĢ":15938,"à¾":15939,"âķ":15940,"ì°":15941,"ð¥":15942,"deci":15943,"develop":15944,"deuts":15945,"develo":15946,"shall":15947,"hut":15948,"chÇİ":15949,"chat":15950,"chka":15951,"dua":15952,"qiÃłng":15953,"20.6":15954,"20.2":15955,"suo":15956,"suit":15957,"tiz":15958,"tisti":15959,"tivity":15960,"quer":15961,"quir":15962,"kup":15963,"enko":15964,"1043":15965,"1081":15966,"10.3%":15967,"mith":15968,"18.6":15969,"12.1%":15970,"12.2%":15971,"1153":15972,"11.5%":15973,"11.2%":15974,"piter":15975,"pipe":15976,"orf":15977,"err":15978,"lani":15979,"lata":15980,"lato":15981,"lava":15982,"arte":15983,"arayo":15984,"30.3":15985,"30.4":15986,"1319":15987,"1315":15988,"inos":15989,"geme":15990,"25.2":15991,"fora":15992,"formis":15993,"mut":15994,"alone":15995,"stral":15996,"2350":15997,"mulator":15998,"28.8":15999,"28.9":16000,"think":16001,"rect":16002,"rection":16003,"mecha":16004,"means":16005,"rill":16006,"rical":16007,"ï¼Ķ":16008,"0002":16009,"tet":16010,"teach":16011,"sini":16012,"rah":16013,"cult":16014,"security":16015,"several":16016,"100.00%":16017,"tate":16018,"0.9%":16019,"elsen":16020,"mated":16021,"magazine":16022,"35.6":16023,"2.16":16024,"2.21":16025,"2.90":16026,"2.98":16027,"2.85":16028,"esome":16029,"colum":16030,"thesis":16031,"terms":16032,"3.20":16033,"3.25":16034,"3.22":16035,"3.27":16036,"3.46":16037,"3.86":16038,"3.82":16039,"3.83":16040,"3.08":16041,"3.03":16042,"botto":16043,"34.5":16044,"34.7":16045,"32GB":16046,"Inspi":16047,"beau":16048,".82%":16049,".84%":16050,"SECL":16051,"4900":16052,"Coo":16053,"Cock":16054,"Covid":16055,"Rest":16056,"Replay":16057,"nad":16058,"naya":16059,"adal":16060,"baba":16061,"baum":16062,"capi":16063,"ndar":16064,"pee":16065,"peta":16066,"auts":16067,"igi":16068,"uss":16069,"Liz":16070,"Lips":16071,"Rovio":16072,"Rozas":16073,"Devi":16074,"Mich":16075,"Miya":16076,"Marina":16077,"ï½¡":16078,"BCR":16079,"BASE":16080,"Viet":16081,"Viva":16082,"AMI":16083,"BSP":16084,"Motion":16085,"Molina":16086,"Process":16087,"Proleague":16088,"7600":16089,"vain":16090,"cons":16091,"concer":16092,"Joa":16093,"Jong":16094,"dation":16095,"Sect":16096,"Arche":16097,"Arms":16098,"otro":16099,"ACK":16100,"fia":16101,"Beng":16102,"Beast":16103,"Date":16104,"80000":16105,"Dior":16106,"Diet":16107,"9700":16108,"ently":16109,"Sale":16110,"Sainte":16111,"docomo":16112,"bula":16113,"bull":16114,"mere":16115,"mero":16116,"ANY":16117,"Annie":16118,"SSB":16119,"ITED":16120,"Papi":16121,"bytes":16122,"Size":16123,"SiO2":16124,"php":16125,"phil":16126,"Heyo":16127,"soli":16128,"sola":16129,"social":16130,"Buenos":16131,"Bureau":16132,"SMG":16133,"Constru":16134,"Connor":16135,"Conrad":16136,"Wish":16137,"shima":16138,"endra":16139,"Gecko":16140,"Nagar":16141,"sae":16142,"saf":16143,"à¸Ĺ":16144,"ALn":16145,"HKU":16146,"2.57":16147,"MPK":16148,"goni":16149,"Cari":16150,"Carver":16151,"Carthy":16152,"MySpace":16153,"Myself":16154,"Kiev":16155,"Novo":16156,"Father":16157,"Auth":16158,"Newrite":16159,"External":16160,"MOA":16161,"Tale":16162,"paid":16163,"SOA":16164,"SOFT":16165,"IGP":16166,"4.19":16167,"4.26":16168,"cribed":16169,"Rub":16170,"push":16171,"Gov":16172,"Colon":16173,"6.12":16174,"6.30":16175,"6.26":16176,"wagen":16177,"DC600V":16178,"ESI":16179,"DRS":16180,"OpenEXR":16181,"MCU":16182,"tinction":16183,"Monster":16184,"gery":16185,"lask":16186,"lastic":16187,"RTS":16188,"Sans":16189,"Santi":16190,"DOALA":16191,"HEY":16192,"HEART":16193,"beginning":16194,"turer":16195,"BEV":16196,"BEAT":16197,"MDB":16198,"oodle":16199,"includeonly":16200,"Ordin":16201,"Tracy":16202,"minster":16203,"CLAN":16204,"orah":16205,"Vox":16206,"straat":16207,"Wake":16208,"hyper":16209,"singles":16210,"McCan":16211,"acfun":16212,"Georgia":16213,"WTA500":16214,"8.75":16215,"Unter":16216,"Abdel":16217,"DDI":16218,"ensation":16219,"Cl3":16220,"Ask":16221,"sedamo":16222,"Herzog":16223,"interface":16224,"Speech":16225,"Hypo":16226,"Holding":16227,"PLANET":16228,"Shape":16229,"Elements":16230,"IUAV":16231,"creation":16232,"4.04":16233,"Plate":16234,"DFT":16235,"Terminal":16236,"Garrett":16237,"adain":16238,"4.89":16239,"Winnie":16240,"setz":16241,"PowerBook":16242,"ð«Ķ":16243,"Alphabet":16244,"VOL":16245,"rics":16246,"Porsche":16247,"SF3":16248,"SFX":16249,"Yuri":16250,"litz":16251,"4.74":16252,"Sunny":16253,"Zealand":16254,"oise":16255,"PRPP":16256,"6.06":16257,"Sally":16258,"Maxwell":16259,"fully":16260,"KKA":16261,"BFG":16262,"Siren":16263,"Hannah":16264,"Museo":16265,"gress":16266,"Champions":16267,"DK1":16268,"operation":16269,"Dylan":16270,"Br2":16271,"Codex":16272,"GR.1":16273,"GRAPH":16274,"âĳ£":16275,"FAT16":16276,"Choerry":16277,"RPGFan":16278,"bench":16279,"____":16280,"Sigma":16281,"CUDA":16282,"Gillian":16283,"Automatic":16284,"ULAS":16285,"Transformer":16286,"AXA":16287,"Grill":16288,"init":16289,"Dolce":16290,"period":16291,"Clopin":16292,"feature":16293,"Jenny":16294,"Jennifer":16295,"Course":16296,"technical":16297,"Murder":16298,"casting":16299,"FIRE":16300,"Couch":16301,"Memory":16302,"Angels":16303,"XC40":16304,"Marion":16305,"Papa":16306,"NIH":16307,"Toll":16308,"cells":16309,"Betty":16310,"Between":16311,"TOKIO":16312,"Mirror":16313,"KTX":16314,"Skous":16315,"product":16316,"QUAKE":16317,"Lowe":16318,"glise":16319,"Felipe":16320,"Sterling":16321,"chinensis":16322,"ð¬ĵĳ":16323,"nationale":16324,"GP40PH":16325,"Architects":16326,"Knowledge":16327,"FIRA":16328,"particular":16329,"Korean":16330,"Phase":16331,"crystal":16332,"cauda":16333,"Whitney":16334,"RIAA":16335,"standard":16336,"changed":16337,"communi":16338,"village":16339,"Scorpio":16340,"Address":16341,"LGBTQIA":16342,"osium":16343,"ëŀĺ":16344,"Quantum":16345,"Robertson":16346,"Glenn":16347,"components":16348,
[...]
