#version: 0.2
n g
h Ã
Ã ł
Ä ģ
Ã ¬
Ã ¡
Ä «
Ã ¨
Ç İ
Ġ Ġ
Ã ©
Ã Ń
s hÃ
Ã ¹
Ã¡ n
z h
Ç Ĳ
Å į
j i
d e
Ãł n
Ä ĵ
z hÃ
s h
Ä Ľ
Ã ³
Ç Ķ
x i
Ã ²
Ã º
Äģ n
ĠĠ Ġ
Ãł i
Å «
Åį ng
Ç Ĵ
ã Ģ
shÃ ¬
h u
Ã¨ i
g u
i Ã¡n
hÃ ©
Ãł o
Äģ ng
ÃŃ ng
y u
Çİ n
c h
n iÃ¡n
y Ä«
Çİ ng
Ã© n
ÇĴ u
Ã¬ ng
w Ã¨i
Çİ o
z Ãłi
ãĢ ģ
j Ä«
Äĵ ng
zh Åįng
x Ä«
b Ã¹
j Ã¬
Ãł ng
l i
zhÃ ¨
shÃ Ń
d Ã¬
gu Ã³
y Ãº
r Ã©n
Ã² ng
c hÃ
Äģ o
d u
c hÃ©
y ÇĲ
l Ã¬
Ã¡ ng
y Ã¬
u Ã²
Ã¡ i
zhÃ ¬
chÃ© ng
Ã© i
x u
g Åįng
j ÃŃ
² u
ÄĽ i
i Ãłn
Äĵ n
Ã³ ng
yu Ã¨
y ÇĴu
yu Ã¡n
d Ãł
q i
Åį u
l ÇĲ
2 0
Ã³ u
Äģ i
xi Ãłn
ji Äģ
s Ä«
Å« n
x ÃŃng
y ÇĶ
Ã¨ n
ÇĴ ng
ÃŃ n
t Äģ
r Ã¬
zh Ä«
hÃ ²u
Çİ i
g Ã¨
zhÃ ł
Ã© ng
l e
w Ã©i
hu Ã¬
d Ãło
1 9
b i
shÃ ł
q Ä«
q ÃŃ
shÃ ¨
s u
zhÃ¨ ng
m ÃŃng
ji Ãłn
xu Ã©
ch Å«
y Ã¹
ÄĽ ng
z uÃ²
sh Äĵng
du Ã¬
y Ã³u
q Å«
shÃł ng
ÄĽ n
d Ã©
l Ã¹
b Ã¨i
chÃ ¡
t i
sh ÇĲ
zhÃł n
zh ÇĶ
Äĵ i
q u
j Ã¹
xÄ« n
j Å«n
zh u
ÄĽ r
Ã¡ o
shÃ ¹
u Ã¬
r Ã¨n
f Äģ
w Ã¹
b Ã¬ng
k Ã¨
Ã© r
d Ãłi
y ÃŃ
jÃ¬ n
z Ã¬
yÄ« n
f Ã¹
f Äģng
jÄ« ng
n Ã¡n
hu Ãł
x Ã¬
zh Åįu
p ÃŃng
Ã² u
xi Ãł
l Ã¡i
y Ã²ng
sh u
gu Äģn
t Ã³ng
ãĢ ĭ
ãĢ Ĭ
f Çİ
zhÃ ¹
m ÄĽi
hÃ ¡
Â ·
ji Äģn
j ÇĲ
hu Ã²
d Ã¹
c hu
b ÄĽn
xi Äģng
zhÃ Ń
d Ã²ng
xi Ãłng
m ÃŃn
ji Äģng
f Äĵn
sh ÇĴu
qu Ã¡n
w Ã©n
y Ã¡n
hÃ ł
su ÇĴ
ji Ãło
q iÃ¡n
d iÃłn
t Ã¨
d i
du Åį
Ãº n
z uÃ¬
k Äģi
t u
ji Ã©
l iÃ¡n
zh ÇĲ
k ÄĽ
d Ãłn
m Ã¹
y Ã¨
f Ãº
m Çİ
y ÄĽ
d Åįng
qi Ãº
b ÄĽi
ãĢ Į
ãĢ į
g Äģo
y Ãł
q ÇĲ
ji Äĵ
m iÃłn
h Çİi
zh Çİng
sh Ä«
jÄ« n
c ÇĲ
l u
n Ã¨i
t ÇĲ
s Ãłi
s Äģn
t Ã¡i
g Ã©
x Ã¬ng
gu Ã²
r Ã¹
20 1
d ÄĽng
y Ãło
j u
ch Äĵ
c Ã¬
w ÇĶ
g Äģi
d Ã¬ng
chÃ¡ ng
bi Çİo
l Äģ
g Ã²ng
ji Ã¨
shÃ ²u
d Çİo
sh Äģn
ch Çİng
s Ã¬
b ÇĲ
z Ã©
t ÃŃ
k Äĵ
d Äģng
n Ã©ng
Ã¨ r
w Ãłi
d Äģn
x Ã¹
z i
k ÇĴu
xi Çİo
z ÇĶ
b Äģ
ju Ã©
l ÃŃn
li Ãº
sh ÄĽng
yÄ« ng
k u
l Ã¡n
lu Ã³
t Åįng
20 0
Ä« ng
² ng
m ÇĲ
zhÃ ²ng
e n
zh ÄĽ
sh ÇĶ
ti Äģn
zhÃ¨ n
Ç ļ
q Ã¬
zh ÇĴng
li Ã¨
ch Äĵng
sh Å«
yu Ãłn
b Çİo
t Ãłi
f ÇĶ
f Äĵng
g ÇĶ
qÄ« ng
sh Äĵn
w Ã¡ng
yÃ¹ n
gu Çİn
f Äĵi
ji Ã¹
li Çİng
c Ã©ng
m Ã©i
1 0
f Ã¨n
hÃł o
³ ng
y Çİn
w ÄĽi
z ÇĴng
xu Çİn
xi Ãło
d Ã¡
n Ãł
li Ãłng
b Åį
z Ãº
j Ã¬ng
b Ãło
n ÃŃ
w Ãº
t ÇĴng
hu Ã¡
ji Äģo
yu Äĵ
yÇĲ ng
b iÃłn
xÄ« ng
s Ã¹
shu ÇĲ
y Ã¡ng
hÃ ¹
m en
b Äģo
g Äĵ
b Ã³
c Äģn
c Ã³ng
di Çİn
b Ã¬
r Ãº
b Ãłn
bi Äģn
w Çİng
q ÇĶ
m i
ch Çİn
s Ã¨
z Ä«
chu Ã¡n
0 0
shÃ¨ ng
r Ã¡n
t Ãº
zh Äģng
p ÇĶ
g Çİi
g Çİng
n Çļ
l Ã¬ng
l uÃ²
y Ã²u
t Ã³u
c Ã¨
l Ç
chÃ Ń
1 8
lÇ ľ
qi Äģn
shÃ ©
l ÃŃ
d Åįu
p ÇĲ
1 2
zh Äĵng
n i
k uÃ²
sh Äģ
d Çİng
f Çİn
g Ã²u
l Ã¨i
x ÃŃ
jÇĲ ng
tu Ã¡n
w Äĵi
xi Äĵ
lÇĲ ng
l Ã³ng
gu Ä«
xi Äģn
r Ã³ng
hu Ã¡ng
xi Çİng
b Äģn
ji ÇĶ
y Ã¬ng
m Ã©n
sh Äģng
shÃ© n
20 2
b Çİn
k Çİ
m ÇĶ
jÇĲ n
f Å«
j ÇĶ
m Ã³
gu Çİng
c ÃŃ
shu Åį
q ÃŃng
zh Çİn
hÃ¡ i
zhu Äģng
m Ã²
c Ã¡i
d Ãº
1 1
pÇĲ n
t ÃŃng
chÃ¡ o
y ÃŃng
ti Ã¡o
ji Çİn
t Ã¡ng
hu ÃŃ
du Ãłn
chÃ© n
g Äĵn
m Ã¬
w Ãłn
p Ã¡i
w Äģn
z Ãło
hÃ¡ ng
w Ã¡n
bi Äģo
g Ã¹
l Ãºn
19 9
xi Ã©
ji Çİng
hÃł n
j Ãº
f Ãłn
f Ã¡ng
hu Ã³
hÃ¡ n
p i
k Åįng
o r
ti ÄĽ
m Ã©ng
bi Ã©
w Å«
ji ÄĽ
zhu Äģn
yÇĲ n
x Å«
zh Äĵn
d ÇĲ
e r
chÃ º
hÃ º
ji Ãł
b Ä«ng
m Ã¬ng
l ÃŃng
hÃ ³ng
qÄ« n
z ÇĲ
lÃ¹ n
xÃ¬ n
chÃ ¹
ch ÇĶ
s Å«
a n
xi Å«
z Åįng
1 5
qu Ã¨
xi Äģo
zhÃł o
qi Ã¡ng
q Ã¹
c Å«n
chÃ ³ng
p iÃłn
ji Å«
f Ãłng
su ÃŃ
sh Åįu
gÃ¨ ng
â Ģ
gu Äģng
Ã¨ ng
j Å«
o n
ji Çİ
chu Ãłng
d ÃŃ
1 6
zhu Çİn
gu ÇĴ
xÃ¹ n
m Ãłn
p Ãłi
f Ã¨i
p Ã¨i
19 8
d Çİ
tu Åį
l a
xu Äģn
b Ã¡i
zh Å«
d Å«
t ÇĶ
di Ãło
xi Ã¡
li Ã¹
1 7
su Ã¬
hu Ä«
t Ä«ng
qi ÄĽ
t Çİ
qi Ã¡o
h Äģ
g Çİn
z Äĵng
xi Çİn
m Ãłi
hu Ã¡n
x ÇĶ
w Çİ
tu Ä«
w Ã¨n
ch Äģo
t iÃ¡n
b Çİi
c Çİi
li Ã¡ng
y Ã¡
s Ãł
a r
b Ãłi
c Ãºn
ji Çİo
sh Çİo
y Ãłn
zhu Ãłng
hu ÇĴ
l Ã©i
1 4
z u
ji Ãłng
chu Äģn
yÃ¬ n
z Çİo
chÃ ł
y ÇĴng
s ÇĲ
d Äĵng
3 0
zhÇĶ n
l Ã¨
x Ãºn
n uÃ²
k Ã¹
hu Ãłn
s Ã²ng
g Ãło
l ÇĶ
1 3
19 4
b Äģng
l Çļ
p Ä«
y Ãłng
h ÄĽn
q Ãºn
zh ÄĽng
gu Ãłn
p Ã²
g Äģng
w ÇĴ
19 7
hu Äģ
l Äĵi
h Çİo
t Ã¡o
ku Ãłng
hÃ ¨
i n
dÃ¹ n
n Ã³ng
g ÄĽi
s Äģi
shu Äģng
li Ãłn
ku Ãłi
d Ä«
b Ä«
p Ãłn
xi ÄĽ
19 5
k Çİo
g Ãłi
h Äĵi
w Ãłng
li Ãło
r Ã¨
g e
zu ÇĴ
k Ã²ng
19 6
y Äģng
chÃł ng
y ÃŃn
³ u
r Ã©ng
s Äĵn
b Äĵi
l Ãº
pi Ãło
y Äģ
2 5
bÄ« n
âĢ Ķ
r Ãłng
ch Åįng
l Ã³u
b ÇĶ
l Çİo
zhÃ º
jÃ¹ n
y Çİng
r uÃ¬
y Äģo
xi Ã¡n
xi Ã¨
n iÃłn
f or
y Åįu
t Ã¡n
k Äģng
p ÃŃ
hÃ© ng
yÃº n
x ÇĲ
k Ãłn
n ÃŃng
li Ã¡o
shÃł o
b Ãº
2 4
qÇĲ ng
ch ÇĲ
m u
d Ã²u
mi Çİn
y Åįng
t Çİn
w Çİn
h Å«
f Äģn
a l
t Å«
g Äģn
su Ãłn
d Ä«ng
yu Çİn
w Äĵn
t uÃ¬
zh e
2 1
s t
xi Ã¹
b Çİ
m Çİn
19 3
2 3
mu la
k Ãłng
for mula
2 8
t h
m Ã¡o
r uÃ²
pi Äģn
chÃ ¨
m Ãło
l Çİng
q ÃŃn
b Ã¡
n Ã¡
z Ãłn
gu ÇĲ
gu Ã¬
o u
p ÃŃn
w Ã²
xi Ã³ng
shÃł n
r e
2 2
xi Åįng
m e
su Ä«
Ã ¼
2 6
sh ÄĽn
q Ã¬ng
mi Ã¡o
f Çİng
5 0
20 20
2 7
l Ã¡ng
r u
qi Å«
s Åįng
Ã¼ Ã¨
d Ãłng
g Äĵng
qi Äģng
r i
f Ã¡
z Äģo
f Ã¨ng
zhÃł ng
ï ¼
hÃ¡ o
d Å«n
z ÇĴu
hÃł i
qi Ã¨
2 9
t Ãłn
p Ãło
p Ãł
shÃ¹ n
p Ã©ng
xu Ã¡n
201 0
n ÇĲ
00 0
dÇĲ ng
ni ÇĶ
z Çİi
zh Äģo
zhu Ä«
l Ã¼Ã¨
ch Å«n
20 19
h Å«n
k ÇĴng
du Äģn
shÃ¨ n
xi Ã¡ng
du Çİn
g Ãłn
t e
r o
k Äģn
l Ã¡o
c Çİo
201 6
s i
g Å«
p Ã©i
201 8
ku Çİn
z Ã¡
s Å«n
y Ã©
y Çİ
p Åį
202 1
r a
chÃ ¬
du Ã³
201 4
f Ã¡n
201 1
201 5
c uÃ²
201 7
zhÃ ©
y Ã¡o
p Äģi
t Ã²u
c Ã¡ng
201 2
4 0
k Çİi
201 3
202 2
m ÃŃ
ru Çİn
su Äģn
ch Äģ
z Ãłng
mi Ãło
l t
200 9
zh Çİo
200 8
hu Ã¡i
ã ĥ
c e
6 0
a m
c u
xu Ã¨
chÃ ³u
s e
b Çİng
m Ã¨ng
10 0
t Ã¬
p Ãº
n Çİo
202 3
zhu Ãłn
g t
l ÄĽi
19 0
3 1
c Ãłi
c Ã¹
s Ãłn
m Ã³u
ti on
t a
hÃ¹ n
ÇĶ n
ku Äģn
200 7
ni Ãº
m ÇĴu
t Çİo
di Ã©
200 1
o l
t Ã©ng
s Åįu
k ÄĽn
qi Çİn
ch Äģng
r Çİn
qu Äĵ
f ÇĴu
s ÇĶn
e l
b Ãł
200 0
8 0
k Ãło
su Åį
200 6
ni Çİo
chÃº n
m a
202 4
l Çİn
ã ģ
z Äģi
zhÃ ¡
xu ÄĽ
hu ÇĲ
lu Ãłn
tÇĲ ng
200 5
z Å«n
b Ãłng
l Ãł
hu Äģn
r Çİng
sh uÃ¬
mÇĲ n
3 5
l Ãłi
c Äģng
7 0
f Ã³
p Ã¡n
o f
n Ãłi
w ÄĽn
e t
c Äģo
s Äģng
p Ã¡ng
9 0
bÇĲ ng
ï¼ į
zh Äģ
ã Ĥ
shu Ãłi
ni Ã¨
e s
hÃ ³u
m Ã¨i
sh Äģo
n ÇĶ
d ÇĴng
i l
a t
o w
f Ã©ng
mi Ã¨
yÇĶ n
z Ã²u
m Çİi
hu Ãłi
200 4
4 5
y Äģn
c o
4 8
th e
zhu Ã³
an d
t er
h e
t Ãło
n Çİi
k Å«n
202 5
zh ÄĽn
c k
r ÇĶ
ku Ãł
ku ÃŃ
ãĢ ī
ãĢ Ī
g Åįu
3 6
cu Ä«
3 8
sh Çİn
r Ã²u
di Äģo
200 3
h ÇĶ
gu Åį
3 7
c uÃ¬
n e
x Ãº
m Ã¡ng
ju Çİn
c Ã¡n
di Äģn
zh Äģn
c Ã¡o
18 9
I N
200 2
i s
b o
k Äĵng
T C
v e
3 4
m Ã¡
l ÄĽng
a s
z Å«
7 5
âĢ ĵ
s Ãº
qu Äģn
d Äģ
t o
ch Äģi
n u
l Ãłng
kÃ¹ n
4 6
t Ãºn
f ÄĽn
199 0
âĢ ¦
zhÃ ²u
sh Çİng
r Ãło
h Äĵng
t Ä«
x Å«n
3 9
n Ã¨
. .
p Ã¬
n Ãłn
p Äģn
6 5
h Åįng
shÃ º
t Äģn
C h
t Äģng
k Çİn
M a
n Ã¬
3 2
I n
S T
4 7
h Çİn
i t
U TC
q iÃłn
199 9
199 8
198 0
18 8
5 00
3 3
6 4
qi Çİng
sh uÃ²
p Çİo
l o
b e
k Äģ
zhÃ¡ i
S E
5 5
qu Ãłn
n Ä«
d Ã¨ng
199 7
T he
m iÃ¡n
4 9
g Çİo
I I
6 8
C o
v i
sh ÄĽ
z Ã¨ng
R e
h an
zhÃ ³u
zhÃł i
4 4
199 6
n a
ti Äĵ
d Äģo
a d
b r
199 4
v er
f Ã©i
z Ã²ng
qi Ã³ng
c i
ti Ãło
chu Ã¡ng
199 2
b a
chu ÃŃ
ju Äģn
chÃ¡ i
mi Çİo
gu Äģ
xu Äĵ
t Ã²ng
199 5
f ÄĽi
ch Ä«
o o
m ÄĽng
w Åį
6 7
i r
shu Äģi
tu Ã³
chu Äģng
hu Çİn
199 1
197 0
5 8
a y
195 0
c a
n d
gu Ãł
chÃ¡ n
3 00
w Äģ
199 3
18 7
194 9
p e
s Äģ
ti Çİo
A T
196 0
bi Çİn
4 2
194 5
i ng
gu Ãłi
a u
k ÇĶ
n Ãº
198 8
d ÇĶ
198 9
i g
p Ã¹
6 9
li ÇĶ
g ÇĴng
SE E
t uÃ²
am p
c t
li Çİo
IN SEE
5 9
t Äģi
4 3
6 6
chu Ãłn
o p
chÃ¨ n
o s
5 7
198 5
hu Äģng
9 9
S A
ãĢ İ
cÃ¹ n
ãĢ ı
198 4
hÃº n
4 1
p Å«
l y
u s
k Ã²u
f Ã©n
8 8
198 6
r Çİo
m p
S t
i d
rÃ¹ n
T V
15 0
zhu Åį
in d
4 00
s Çİn
198 7
7 8
u n
e d
h a
198 2
5 6
L i
u r
ar d
nu Ã³
198 3
N A
gÇĶ n
R o
D e
s s
m Äģ
t ou
pÃ¬ n
C D
ch Åįu
b er
g ÇĴu
qu Çİn
M i
7 7
zh Äģi
M e
qi Ãł
m Äģo
qi Çİo
M ar
t w
k Å«
ku Ã¡ng
r Ã³u
de r
7 9
l Ã²u
O S
Â °
k uÃ¬
s Ãłng
ï ½
A l
18 0
t y
B C
5 4
197 9
6 1
19 20
a ng
p Äĵn
9 8
s Äĵng
5 2
Y ou
a p
197 8
n Ã¹
w Äĵng
6 2
y Äĵ
du ÇĴ
L e
5 3
xÇĲ ng
ju Ãłn
ï½ ŀ
B A
k e
194 6
t s
C O
m o
c tion
5 1
195 8
198 1
V i
197 2
194 8
zhu Ã¬
c Åįng
t Åįu
A M
h i
6 3
m an
ow s
A R
r y
194 1
W ind
B S
w Ã¡
li Çİn
19 30
M o
P ro
lu Çİn
ku Äģng
q Ãº
tu ÇĴ
k Ã©
7 6
han s
v a
194 0
193 7
c on
197 6
zu ÇĲ
194 4
J o
8 9
197 5
u m
ï¼ ı
T e
196 8
ni Ã¡ng
p Ã³
shu Äģ
h k
yu Äģn
t Äģo
p er
w Äģng
g a
10 00
r an
Wind ows
9 5
N e
b ÃŃ
s Çİo
d a
8 7
196 6
8 5
f Ãł
p Äĵng
6 00
l Ãłn
S e
S ta
s p
1 20
194 7
G a
A r
o t
g Äģ
195 6
A C
196 4
d Çİn
c Å«
194 2
195 5
ch ÇĴu
la y
195 2
193 9
I S
193 8
7 2
7 4
h t
r ÄĽn
197 3
a ce
f i
197 4
195 4
qi Äĵ
E D
19 00
- -
B e
A P
or e
194 3
197 7
D a
197 1
pÄ« n
p ÇĴ
m Ã¡n
196 7
shÃ© ng
men t
I C
8 00
E R
L a
8 6
195 9
b Äĵng
s on
196 5
J R
196 9
R a
du Ä«
D i
o k
p Ã©n
ãĥ »
Ã Ĺ
qi Ãło
chu Ä«
I D
qi Äģo
S u
in e
193 6
16 0
9 7
b Äĵn
zhu Äģ
en t
195 3
S a
196 2
M A
T u
ti c
196 1
l ÇĴng
a tion
â Ķ
193 5
t Ãł
m Ã¡i
S h
9 6
O N
a k
ï¼ ħ
195 1
195 7
196 3
L o
âĶ Ģ
on e
r ou
8 4
J a
202 6
d o
c Çİn
8 2
g i
b u
m er
7 3
p o
9 4
t Å«n
9 2
S o
A N
I P
A n
h o
a li
193 3
M u
193 1
n Ã¡ng
ni Ãło
le s
7 1
b Ã¡o
nu Çİn
l Ã©ng
p Ã¡
8 3
9 3
a i
W e
8 1
d ÇĴu
19 18
st a
H D
B o
s Äģo
U ni
19 28
lu Ã¡n
k i
193 2
w i
n Ã¨n
c ol
in t
M V
S S
ou r
1 10
t Ã¹
I T
19 12
al l
19 29
tu ÇĲ
du Ã²
19 27
c n
193 4
ar e
P a
7 00
g Ã¡
ch e
b y
te d
st er
hu Çİng
S i
25 0
f f
9 1
m m
P ar
z Ã©i
R i
19 24
p p
p h
.. .
19 19
ku Ä«
H e
s o
xu Ãłn
1 30
pi Äģo
n o
19 25
P S
P lay
p Äģo
14 0
xi Äģ
B u
C a
S M
C on
S p
P C
19 14
b le
st e
zh Çİi
k m
D V
zh Äĵ
E n
me s
You Tu
co m
B a
h Äĵ
F i
T i
di Äĵ
el l
g ra
l Çİ
A S
i a
19 11
W i
sh i
en d
il l
n Ã¼Ã¨
an a
ar a
G e
19 26
de n
19 22
N a
n Çİ
si on
hÃ¨ n
19 17
E T
N BA
I V
shu ÃŃ
c Äģi
r Ã¡o
E N
19 23
ar t
19 21
f e
p Ã¨ng
s a
k a
ku Äģ
G oo
th er
ch ÇĴng
T o
17 0
à ¸
E C
l d
m Çİo
n Ã²ng
A L
H a
M S
se ction
N i
YouTu be
E P
h n
B L
19 13
ti Äģo
J u
H K
le r
â Ĩ
han t
gÃ¹ n
190 9
g in
In ter
c ro
S te
M P
A I
H o
g ÄĽng
W or
n Ãło
P o
f ÄĽng
D o
lu ÇĴ
U S
an t
g o
y a
DV D
or t
z Åįu
ri s
3 000
P i
c Äģ
C ar
19 10
R O
D S
T h
1 12
A K
M y
p en
R E
p ro
v en
19 16
Sta tion
ãĥ ¼
c huÃ²
N et
Î ±
K i
S ch
ol o
N o
ar i
tu re
g n
L in
C P
U N
g le
â Ī
er s
hÃ© n
19 15
ou n
ni Ãłng
190 5
F C
m y
L u
l l
W il
C N
â Ħ
âĨ Ĵ
190 1
F a
A u
ti ng
Ne w
D NA
E x
âĢ §
ar y
9 00
P h
si c
H R
di ce
si s
. &
C H
z ÄĽn
T A
di a
Q u
T O
190 6
le n
190 4
chu Çİng
A V
F or
g ÄĽn
Jo hn
w e
er e
A nd
M O
di ng
co dice
ch Çİo
ji ÇĴng
âĦ ĥ
T a
p a
p s
Play Station
f u
k o
w Ãł
b Ã¨ng
0 5
C C
t on
v o
er i
di Å«
190 7
190 8
Goo gle
A G
E ST
M I
zu Ãłn
S O
or y
te s
L E
G u
ji Ã¡
zu Çİn
c y
l Ä«
ch i
le y
B O
en ter
B BC
A D
I G
c al
II I
C u
c ri
of t
15 00
R u
li n
5 000
or i
zu Äģn
p u
G o
I ST
sh Äĵ
lÇ ĺ
F e
C ol
w or
S y
K a
M E
ti ve
C R
g en
3 D
w it
rou nd
I A
gu Çİ
10 5
j e
r on
m Ãł
Ð °
10 1
190 3
G B
p Ä«ng
ch a
shÃ ¡
l an
0 9
T E
re e
A d
H u
c Ãłn
c Ã©n
190 2
B D
N C
l and
c an
z e
ow n
es s
p Äģng
x t
3 50
w a
in a
SA O
shÃ¡ o
D C
n et
sp an
de s
Î ²
g ht
lÃ¬ n
en ce
B 1900
in c
bo ok
de l
E S
B M
ï¼ İ
d y
ãĥ ³
H i
189 8
0 6
1 18
P e
m s
ãģ ®
l Ã¡
p t
qÇĲ n
te l
3 60
D R
m on
0 1
D A
g h
O pen
189 5
l Ãło
y le
12 5
m Ãº
la r
b Ã¨n
H O
K o
M C
an ce
AT P
Mi cro
Ð ¾
10 8
g y
N G
p Åįu
ig h
s y
c or
t t
di o
K e
qi Ã©
z a
A pp
P u
ni ng
gra m
I F
F ran
f t
re s
Co m
ti n
âĪ Ĵ
0 7
0 8
2 30
F ace
10 4
D u
re f
O ne
Wor ld
ol d
S er
s oft
ED T
IST AT
M on
S tu
sh Äģi
s ÇĴng
à ¤
N O
n er
189 6
C or
L L
B i
g er
lu s
10 9
D P
y Å«
la s
A A
f li
Co mp
re a
g ÄĽ
R I
v el
r en
li ne
R T
su ÇĲ
S P
xi Ã¡o
qi Çİ
E X
r ÄĽ
B ar
B ri
li ng
ber t
B 48
10 6
18 90
ct or
C ST
S an
M L
CD T
Lo ve
it y
m ar
z Äģng
ro w
D O
wi th
H E
f a
P er
p Äĵi
w ard
H ar
M an
d s
tion al
ta in
j a
0 4
4 000
11 5
cu Ãłn
1 200
k y
u x
ou nd
ig ht
M 1
0 3
G P
p Ã¡o
C E
ba ck
188 9
be gin
J e
189 9
o ol
col span
187 1
ri ng
E d
R S
ow er
mi c
Face book
lu de
Wil li
Micro soft
âĢ ĭ
24 0
tu r
Ma c
16 00
L O
Li ve
B E
ck et
10 2
c c
k er
bo x
T T
189 7
G i
N H
E E
chÃ ²u
P re
T ri
11 7
O n
P P
qÃ¬ n
k s
I s
S C
0 2
v an
c m
shu Çİng
st yle
m b
10 3
AK B48
M D
y Çİo
10 7
G ra
b li
Mu sic
G re
oo d
c Ã²u
Lin ux
inc lude
D is
O r
T ra
P ri
t Çİng
w w
N or
p ha
mi n
O ri
y e
on ly
4 50
V ID
tu s
12 7
ma s
t ra
Da vi
qu e
an e
12 8
ali gn
l Äģo
li s
ou s
Ga me
fli x
C L
or a
Net flix
E l
189 4
2 20
r in
B er
Ð ½
s er
Willi am
I L
V o
S H
s ti
ro m
T wit
18 80
Re d
y i
R NA
z Ã¡o
13 6
P G
F u
Ð ¸
er o
ãģ Ħ
T R
st ra
Te am
18 00
W a
ãĤ ¹
Uni ver
g round
t or
188 5
ng e
li Çİ
11 4
an o
ãĤ ĵ
p iÃ¡n
ru s
H z
T y
Ch ar
col or
11 6
28 0
na me
St ar
E u
G en
U R
h y
Ð µ
11 3
er a
l la
188 6
si ng
ãĤ ¤
T S
t en
Sch ool
P O
m Çİng
la ss
189 3
ir l
B la
M c
e x
ni c
ou t
11 1
Mar k
S L
ir st
ã Ħ
ci al
Su per
D on
a c
W al
je ct
le x
m ÇĴ
an s
âĢ »
t ri
li a
i e
m Åį
13 5
Davi d
26 0
18 60
na tional
Ge or
M or
y s
n ÃŃn
gu e
t le
an y
P et
W TA
w ay
rou p
H C
M at
ni s
ce s
U A
U n
w as
ou se
h am
188 8
A c
te xt
S D
- .
ca tion
B ra
on y
ro id
back ground
y Å«n
d Çİi
re am
Sh ow
12 9
G O
o m
ch Äĵn
18 70
st ri
G N
ï ¹
C he
ni a
188 7
b ur
d on
p ri
shu Äģn
18 68
6 000
c le
Ã ¶
Ñ Ģ
188 3
C y
N F
V A
lu b
mer i
K u
an k
Me ta
3 20
A b
X box
C S
N HK
A F
D D
Twit ter
K P
n y
only include
T ho
en s
pi Ã¡o
+ +
bi t
t Ãłng
18 64
âĢ ¢
I ON
188 4
1 19
R C
U E
ti s
12 2
C l
25 00
189 2
2 10
A 1
o ng
in s
W h
c enter
le t
mi Ã¹
15 5
S ou
IS O
â ħ
14 5
189 1
6 50
p re
And roid
G irl
se l
N S
c ar
v il
ãĢ ķ
si l
O R
y o
A s
ãĢ Ķ
18 50
on a
cu Åį
ht t
re d
l ow
x y
en sis
Inter national
D ay
c er
m Ä«
18 67
ste m
I M
p Ãłng
ãĥ Ī
Al l
N ation
se d
187 9
m ber
Ja mes
En ter
W ar
f fi
3 80
A B
U P
di s
187 6
C oun
V er
Univer si
i m
v in
Geor ge
H er
18 75
18 61
27 0
D ra
t d
li e
si a
el d
A ir
G roup
I R
ch o
ti me
12 6
am a
N T
P au
l or
in ter
A ni
S pe
Ga mes
NG C
H y
st ru
ãĥ «
187 3
H ol
M G
12 3
ãĥ ©
E ng
P V
B en
H T
v al
Col le
d ay
M B
16 8
CO VID
cri tic
C lub
F M
H en
lu e
18 65
il d
A O
P L
th at
as s
A meri
D E
12 1
C enter
u t
cu s
B lo
17 5
ãģ Ĩ
We b
H 2
Y P
f rom
Ã ¤
14 00
A li
o d
MA X
wor k
p ar
13 8
2 28
T P
f er
18 48
chÃł n
a st
al d
ne y
li Å«
18 62
3 30
d ge
p ÄĽng
12 4
ãĤ ¢
188 1
188 2
7 37
a ge
C an
187 8
5 50
S ha
gu Çİi
ru ÇĲ
187 2
E le
L C
bÃ¬ n
IN K
Meta critic
Ori con
b or
n Ã¡o
15 6
M TV
U C
b ri
16 5
co mp
B oo
L ED
f o
18 40
ni Çİn
IV E
H igh
S pi
c ore
d Äģi
w an
7 50
I t
n s
t ro
shÃł i
ãĥ ĥ
olo gy
mi ng
13 00
ãģ Ĺ
13 7
sta gram
7 000
B ro
D OS
S Q
U B
22 9
I U
c re
z o
C hu
G DP
K ing
O K
Ñ ģ
en a
Le a
S he
r and
15 2
al s
St re
TV B
Mi cha
V a
li p
15 9
187 7
Ro bert
ty pe
S ur
â Ĺ
ku ÇĲ
18 66
ri st
Ch i
Ch ris
P at
i OS
Ð »
ol y
Pro du
S K
18 69
âĢ ²
sil ver
T HE
U p
C e
D M
g ar
h er
s en
xi ÇĶ
F ri
N ET
P la
Ð º
sh e
13 9
In stagram
Ph one
B I
st ar
BL AC
Ty pe
B ig
p or
Ð ²
D J
r Äĵng
is s
App le
C G
H el
W E
e w
ra y
ãĤ ¯
co de
Micha el
A t
D F
ï ¸
ar k
al k
1 100
15 8
on s
at or
Te ch
Pau l
2 25
30 5
13 3
IN E
ci a
R A
s Çİ
ãĥ ª
A ward
H I
Y O
13 2
Ste am
20 5
18 63
Par k
Nation al
B ill
Y e
tain ment
2 15
C i
b ra
st o
ne w
Universi ty
F O
r al
Me dia
C A
F 1
K BS
V al
14 8
13 1
L ou
S mi
16 6
ar ch
187 4
ss o
E F
M er
X X
b al
k g
n ow
18 58
F in
K ar
T ran
g on
v es
14 7
sp ace
Bla ck
T er
a ch
g an
Pet er
G ar
de o
25 6
ãģ ĭ
G A
I E
M 2
k ÇĶn
18 30
Ri ch
C BS
U T
18 51
Le e
B N
U I
19 2
z er
Î ¼
ad a
8 000
ch ÄĽ
Ja ck
Enter tainment
3 10
J ap
W in
lÇĲ n
bi n
mi ni
14 3
se t
C ity
M k
g Ãłng
18 55
ri e
at er
In tel
P ower
E M
I X
S am
h Çİ
Sp ace
R AM
ð «
18 5
18 59
zu Ã³
ST AR
shi p
Char les
b el
p y
13 4
Di re
A ng
A BC
F la
en e
18 54
14 6
30 1
en ti
17 00
Vi u
Ja va
3 70
i f
18 57
F ree
G M
P y
T ai
w hi
st ro
v s
Ø §
an n
29 0
ãģ ª
Li fe
ï¸ °
E r
P an
V e
Î ³
2 14
4 20
D ream
Y a
Ñ Ĥ
Re cor
Al pha
Comp any
sti tu
e k
f ang
f ace
Î ¿
ãĢ ľ
mi s
18 56
18 53
Pro ject
A m
H ouse
P op
f irst
di um
ãģ Ł
et y
Ti me
Tho mas
C al
M in
a e
o x
v on
v is
14 4
Sa int
F A
K en
O VA
C ent
T ru
V O
b Ã²
A 2
I O
16 7
Stre et
3 A
H S
S BS
sh Çİ
bi li
ku Çİ
18 41
ver y
A lex
B at
L P
L au
T or
di n
ri c
3 40
P M
P or
S hi
chu Çİn
ma t
ma tion
BLAC KP
M et
p le
z Äģ
20 8
18 15
17 8
CP U
BLACKP INK
2 23
B ur
c is
m Ã¨n
So ci
Stu dio
Eu ro
8 50
L GB
S ing
p la
ch er
zu Åį
se s
Ro ck
ww w
I BM
s pe
S F
20 7
di e
p lay
s g
ni e
17 1
23 5
ta tion
ãģ ¨
ãģ ¾
D ig
F er
L IVE
M r
P E
S U
V E
Y u
n Ã¬ng
20 3
B 2
W hi
n ot
Ar t
SQ L
P ad
18 46
16 4
for d
oo t
Colle ge
b re
c ra
15 7
vi ce
ber g
pu bli
B R
L T
N E
li t
14 1
IC E
B 1
C ro
C ap
S un
on d
17 6
th y
IN G
bo ard
In c
Te le
Ameri can
A sso
L S
h Äģn
y ou
Â ²
18 12
18 45
18 44
si gn
Ro ad
Girl s
sel f
Z e
s ch
mi t
23 1
O ffi
c ture
c lass
H F
L td
M 3
M il
R os
ãĤ Ĭ
wit ch
LGB T
A g
b all
20 9
ce ss
ãģ į
of f
NA SA
GN U
L A
w Äģi
de d
Jo se
Smi th
C la
G er
P A
P ra
am pi
IU CN
2 16
P N
Î º
18 49
15 3
te mp
ve d
Goo d
C T
F il
N BC
T our
w h
zh ÇĴu
sh a
20 4
23 8
au rus
Produ ction
B B
C ra
G al
H all
S ci
n al
o i
y n
vi sion
Vi deo
Ga la
G T
O 2
l Äĵ
p m
u e
Ï ĥ
mi ted
or ts
in o
tion s
E li
P R
S ky
t al
20 6
le a
qu i
ma c
4 60
a b
m al
w in
18 14
or g
2 18
a ni
f ra
eri es
Rich ard
S I
l ti
w ar
chÇĶ n
ri ch
ang e
IG N
A ct
L D
â ĸ
pi c
Bo y
F ar
T ur
W S
Ï Ģ
de f
18 47
15 4
tur n
5 80
A ma
F F
b un
e p
f ri
le d
18 43
man n
Be st
ph y
Sy stem
pt r
4 30
M as
M BC
P lan
z z
17 7
40 1
che m
4 10
B el
S al
ãĤ ·
NF L
Viu TV
S witch
W o
k ing
16 3
AM D
AP I
We st
Jap an
I CO
b ar
b us
u p
men ts
18 52
16 2
th on
es ti
Ch rist
cri pt
V II
18 20
or n
ge t
th is
ãģ ı
Ma x
F re
P rin
c il
14 2
23 4
ri a
Ro y
V R
17 2
ãģ Ĭ
ãģ ķ
Recor ds
6 40
D an
S qu
V ir
w ood
16 9
35 00
Li mited
C ore
K C
T 1
g s
p hi
Â ±
18 39
ar s
23 2
da ta
4 80
C M
c Ä«
17 9
th i
ca de
fu l
20 30
en i
14 9
ma x
36 5
In stitu
H ow
v ar
18 21
ãĥ Ń
ãģ ¿
Ch a
ay a
Uni code
RO M
CC TV
3 90
B U
R es
V ol
X P
n ess
t v
30 6
al o
22 2
60 1
un ch
F an
tu be
17 3
it ch
Bo b
E A
P F
24 7
it al
C amp
K K
li an
pi ng
17 90
der s
2 11
5 60
F un
O H
S N
k h
w id
or d
ãĥ ¬
ci ation
B F
E s
T op
V M
t ran
For ce
H ot
M U
P D
P H
S ir
shu Çİ
18 3
17 95
30 3
re w
âĹ ĭ
u se
lu m
23 3
se arch
ãģ ¡
180 1
2 13
T ok
w Ã¨ng
ãĥ ŀ
US B
d ra
su b
17 4
ru n
Ma g
MV P
C K
l li
z on
Ï ģ
á Ģ
ì Ŀ
18 6
18 38
or s
St ore
ke y
He art
Dire ct
5 20
B ank
D DR
G lo
Z i
z y
mi ly
ck er
Je an
6 10
F le
i Pad
r ÇĴng
bi le
16 1
50 1
ãĥ ī
Ho me
htt p
2 24
C F
P en
e le
m g
su r
ti a
18 13
ãĤ ī
Ph il
G E
L on
k in
t z
Ï Ħ
en se
18 2
18 32
18 42
la tion
25 5
it s
Soci ety
A E
G old
H an
S co
f ter
i Phone
18 4
ãĤ «
lo s
Mi ni
Da ta
7 20
K I
S cript
d d
i se
â ĺ
18 36
la te
17 93
ãĤ ª
Co mic
vi ng
Mu se
Ki Ha
bun tu
2 21
C ri
D r
H BO
M T
M el
T un
g re
h ÇĴu
ti an
18 33
ni ty
17 89
tic s
Ri ver
oun t
htt ps
Asso ciation
Gala xy
B ay
D AM
M 4
Q Q
c l
f in
ng a
ti es
18 35
15 1
th o
ãĤ ¿
ad y
2 19
2 17
3 38
C ry
F T
J YP
R ap
S R
U buntu
W A
f y
l on
ð Ĳ
sh ang
âĢ °
th a
Mar tin
180 4
ON E
CE O
wid th
4 70
7 40
8 30
n t
li ght
for m
To m
Hen ry
Lea gue
Y G
d ro
w ell
Ï Ĥ
Ð ´
â ī
Ch ampi
Ma ster
Gen er
E ar
F ra
L INE
P hi
V il
g Ãł
u ni
Î ½
ch el
mu s
am er
to p
AR T
Gre en
vil le
2 12
D K
c ti
h as
n m
Ñ ĥ
le ss
18 28
ãĤ ³
op er
AP AN
row n
D y
D ou
F R
M ana
N ight
P in
a g
h ar
o ni
19 1
di t
30 2
ta ble
Bill board
Offi ce
6 80
B r
B al
J an
M Hz
P I
S NH
b an
b ro
k ar
Î ¹
18 1
16 24
st s
23 7
si de
ma in
ãĤ ĭ
Ch ina
Co de
You ng
con d
No te
Jose ph
SNH 48
B ir
D es
F DA
J APAN
O b
P K
à ¹
á ¹
16 44
30 8
st on
St ra
CO M
tic al
Pa la
4 40
D B
G R
V an
hu n
tu ÃŃ
10 000
18 37
23 9
th an
ri ck
180 6
Lo ng
So ng
Uni ted
Par t
mac OS
C V
E ast
M W
U 21
Ã ¢
Ã ®
Î ´
à ¥
â ĳ
18 19
29 9
34 6
HT ML
ann el
7 80
H ill
T w
T en
T alk
j o
p ort
18 25
24 5
23 6
50 5
27 9
ãģ «
Ra dio
Dig ital
5 40
D own
E V
H 5
J i
r pm
w n
li c
chÃ ²ng
si an
el la
New s
3 25
C at
P as
00 1
17 76
ri ght
ãģ ĺ
lo ng
bu t
den t
NC AA
Ser ver
F AT
S il
18 18
26 5
ãģ ĵ
ne d
Qu e
Hel lo
B an
B ru
D ri
N u
V en
W at
18 24
18 31
202 7
Ch o
Hi st
Ko ng
E m
G S
R PG
p r
Ã §
Ã ´
tu m
me d
38 6
Ch ild
Ser vice
âħ ¡
U M
b et
hu r
su al
ro me
vi a
BS D
Fran k
Is land
Py thon
publi c
Sci ence
1 A
B lue
C W
F ore
X ML
c lo
Î »
27 5
27 00
and a
You tube
Ju mp
Ed ward
Un der
Whi te
3 12
5 G
7 30
B or
F irst
G rand
H L
O M
P oly
T BS
h Äģo
n es
re y
26 4
29 5
180 2
BL UE
Institu te
Champi on
6 30
H or
O ut
S um
T M
b en
f un
su s
18 22
ni Äĵ
28 8
ra tion
ãĤ ¸
ak a
En vi
C as
L an
L es
O s
o ther
p lo
p op
Ù Ħ
li st
la ng
ar ed
24 4
ãĥ ķ
va te
IT F
2 D
G ro
J T
S of
c ent
e m
x el
la unch
24 9
90 3
Nor th
Squ are
O T
P ID
S eries
u l
z ation
Å ¡
24 3
28 00
You r
Ho ng
Th is
Cu p
F X
L ang
N P
_ _
h r
18 10
16 22
17 92
30 7
re turn
ta s
70 1
SA RS
PO P
Tech n
9 60
C ur
H am
R ay
S ig
S HO
V V
o b
p Çİi
v y
Î µ
16 50
80 1
vi ew
Net work
MI UI
bur g
Tun es
2 100
P al
U r
p art
Ð ¼
18 26
an ti
15 73
ou d
as on
ci ng
ha ve
7 47
C le
J our
i mp
tu al
18 34
30 4
ou ld
22 6
27 8
lt a
ãĥ Ł
ãĤ Ĥ
37 5
ad d
180 5
AC T
AP P
AI R
olo gi
Blo ck
H A
L y
Y o
h el
i i
r d
ch en
00 7
or o
29 6
29 8
si g
38 5
AT A
Mo del
ga in
Da ni
Stu di
3 35
5 90
9 000
C U
N ow
R y
R am
W N
m l
n on
o c
Ï ī
â ĭ
or k
17 80
re ss
22 7
ãĥ ł
ol f
ma p
Ma y
Re al
Sp orts
ding s
IF A
3 15
G il
J on
O p
S c
h ad
i Tunes
k en
Â »
25 1
ou gh
27 7
at o
one y
CN N
2 A
D ar
G ran
O ver
R en
R us
R FC
p H
zi ne
15 82
17 99
25 9
24 6
24 8
180 9
Inter net
Sou th
Eng ine
4 G
5 30
C 2
D LC
S m
g Ã¨n
s Çİng
s in
Â «
li o
18 23
an der
16 21
27 2
ru m
40 5
AT ION
tw are
180 3
da e
Sta te
ste ms
EE E
pre ss
3 34
6 20
7 70
C lass
S G
di tion
lu tion
16 25
ge s
28 4
28 5
ãĤ µ
Au to
Pu bli
3 11
8 80
D ot
K h
S ony
V I
Ã ī
á »
25 8
27 6
cu r
ãģ Į
Al f
Mo bile
B us
K O
O per
S w
W ay
X T
p res
à ¦
25 3
al y
35 7
nu m
Mar ia
Mo on
Wi i
Pi er
6 60
C li
G et
N M
S V
U L
s m
Ð ¹
di an
ãĥ Ĺ
ck s
ST A
IP v
Uni x
Wh at
Euro pe
5 70
C er
U 19
W F
e e
m or
Ð ³
tu Äģn
18 27
15 70
ãģ Ĥ
ga zine
Be au
Lin k
vel op
Boo k
Tran s
3 14
3 DS
6 90
B re
B BS
C 6
D SM
I EEE
M en
S B
S ound
W WE
m ore
18 17
16 40
16 36
26 8
40 2
40 4
ãģ ¯
Re gi
Ra in
whi ch
A X
G ri
b lo
i ni
n or
ng er
la ris
17 75
25 4
ter s
46 5
Me di
Di e
Ti k
Fran cis
Com mu
3 23
A th
C ir
H P
O P
k Äģo
17 50
30 9
oo m
op le
Jo y
fi c
3 29
6 70
D ol
E nd
P lus
b on
p ur
sh ing
gu Äģi
18 16
pi n
la i
for e
ãĥ ģ
ãĤ £
45 00
Ch annel
ca st
ing s
CO N
per i
TO P
Cu be
Lou is
. -
7 10
9 10
9 50
D I
I mp
L it
M K
T ro
o me
de a
pi tal
la m
ar r
24 1
23 00
Re search
IS BN
fi eld
Po li
Fil m
tv N
3 26
A sia
B ou
C am
C lo
P T
T 2
i ce
r ch
t ry
à ½
15 92
34 7
75 8
St and
mo del
A ra
B on
D T
L is
16 28
17 88
25 2
24 2
26 9
ãĥ ĭ
and y
Le on
Vi ctor
La w
ff er
fe a
tur al
3 18
3 36
9 78
A do
C B
D L
D en
F esti
J en
M al
M US
N 2
O 3
T an
T re
á ĥ
ch ar
bi Äĵ
16 27
17 83
17 91
al th
28 9
ro s
40 6
ce d
35 4
IN N
Co mm
St an
ap p
Vi sta
gi c
Pi xel
Dis ney
âĸ ¡
A cade
C our
E L
F 4
I B
L AN
L TE
O F
i ch
p Äģ
t re
17 97
ï¼ »
ï¼ ½
Ma ch
55 6
Be at
ak er
Sof tware
A nge
D MS
T H
h is
n Çİn
17 79
17 96
te st
60 7
ãģ ¤
ãģ ł
35 2
Mar y
180 8
ER T
km 2
Ni co
NC T
Ali ce
âĭ ¯
3 21
3 37
A 4
A mi
S or
T 3
c s
g is
u ng
hu Ãłng
tu de
18 29
17 78
17 94
28 3
27 3
ãĥ £
ãĥ Ĳ
ãĤ ¨
ck y
Vi sual
ine se
YouTu ber
AS C
Wor ks
Ele ct
Bat tle
3 13
5 10
8 40
8 60
F oot
M net
P ho
l lo
p at
v et
v ance
Ã ±
Î ¸
shu Çİi
ni ca
ni ght
17 98
for mation
ãģ ¦
45 6
37 2
Jo han
EC T
sy stem
Spe cial
Award s
4 48
8 70
B lu
M F
P ay
i o
r or
s ca
15 80
16 12
16 34
17 87
28 1
26 7
ãĥ ĩ
ma d
ãģ £
ãĤ ¦
nu s
lo st
mm y
we b
Pre mi
Roy al
Glo bal
9 11
D G
F ro
M is
O li
S et
T N
W O
d or
e v
f la
â ĩ
sh Çİi
hu s
mi na
15 67
16 48
al le
27 1
te ch
lt ra
Ar ts
ff e
BO X
Envi ro
A H
E 3
L am
M M
M ur
Y ork
s or
chu Åį
26 2
ta i
36 7
ve st
pe dia
OS HI
Pro f
con st
AC E
EN T
AG A
Gre at
Tik Tok
- &
3 22
A h
M ON
N ot
O TT
S po
V B
bi an
15 50
15 68
on t
16 15
16 30
28 6
ãĥ ĸ
Ma gazine
ver n
CH 3
Comp u
Muse um
Dani el
Festi val
B rown
C ru
C AS
D ark
F BI
L G
S au
S IG
U SA
s tu
pi Äĵ
16 45
16 46
re ad
zhÃ¡ o
ãĤ Ń
33 3
CO LL
AR D
Se cre
ste in
En core
ture s
wor ld
On line
Cl oud
MUS IC
H un
L ar
L et
c as
o ver
t an
Ø ±
16 26
st al
26 1
29 7
35 5
Ch inese
ste a
Ki m
3 28
8 20
G or
H as
P RO
S 2
T ou
g al
o li
s ÇĴu
s co
qu es
16 37
24 00
70 5
90 1
36 4
38 4
37 8
ve y
44 2
ha i
con o
Po int
VID IA
Gener al
6 18
A U
C BC
H B
N VIDIA
T 48
a le
t r
Ð ¡
Ñ ĭ
16 10
16 42
25 7
28 2
th ing
26 00
Ma d
Sta dium
160 9
ali ty
ster n
Ex p
Go d
Red mi
Ye ar
Ado be
7 60
7 67
C AN
G ol
I l
O 4
O me
U 17
V C
b as
b ps
j or
s k
s che
Ñ Į
de on
ni or
15 85
15 83
hÃ¨ ng
ãĤ Ħ
58 3
ct ory
180 7
AR M
Te X
wi ki
ther n
Sy stems
por ation
9 30
D el
F IFA
J U
K E
O D
T own
T hun
W ho
c to
d ou
16 23
ge l
27 4
si ze
An to
Wi ki
ï¹ ĳ
H2 O
tro l
Tai wan
E OS
F IN
I ma
I EC
K in
K id
T ar
W on
a h
c at
e sta
k et
ti na
15 71
17 84
26 3
50 9
29 3
35 1
os aurus
99 9
De ep
mo d
va lue
Ar chi
Ca st
2 200
4 28
A J
G UN
T ay
x x
16 20
17 23
17 86
in te
st re
50 4
lt on
ãĥ ¥
35 3
39 5
be th
So laris
Po st
pri vate
Met ro
cl ol
Mana ge
Dot A
4 19
4 32
A 3
F N
F ly
G L
H ap
R on
b b
c ci
c ard
c tive
p ra
ì ķ
14 50
cu ri
ãģ Ļ
Ch an
ver s
Mi ke
our ce
Ke y
LO VE
Mark et
Studi os
Lit tle
4 27
B and
C ine
F E
H IV
K 6
L ine
R ou
V PN
z Ã¨
Ä į
li ke
zi lla
15 77
16 18
16 43
ro p
se y
38 7
39 9
ct s
ell ow
oun tain
Fle et
Techn ology
3 17
3 31
3 45
5 12
5 65
H 1
M Y
R 2
S 1
U 18
U SS
U ltra
b es
g g
l Å«
Ñ ı
15 86
la u
17 77
14 53
in to
st y
st an
si t
80 6
ba se
CD MA
Sta ge
Ra deon
ak i
Uni on
AL L
Val ve
Child ren
Secre t
3 27
4 11
4 90
4 45
4 46
5 35
A lt
A ven
F I
F ound
L and
M id
M 87
U 23
W ill
W OR
o la
r stea
y er
Ã ª
ch t
en do
15 21
17 65
17 74
si ble
ce l
se cond
39 8
49 9
oo k
Par a
Wi th
Ju nior
Ad am
BM W
mon d
Fri ed
Cent re
wh ere
Phi lip
Acade my
4 16
C rea
E MI
H TC
K B
S che
S oft
T W
b at
r ent
mi a
16 16
cu l
70 7
il y
ter i
36 9
39 7
Ma u
ver se
Jo e
Sta tes
Mu lti
Wi re
Ni ko
GP U
bili ty
Ome ga
6 13
A ri
C ou
N R
P ort
W I
Z A
h au
h ouse
p es
Î ·
Î Ķ
Ð Ĳ
li ve
15 64
17 85
36 8
lo t
TV BS
Me m
Ne xt
He a
so me
Fi re
My SQL
vo id
Ori gin
Ama zon
3 C
8 10
B T
H on
J r
R un
S ti
h l
m 3
Ð Ķ
16 62
26 6
29 1
si st
el le
he ad
58 8
os a
Di stri
Su b
rou gh
Ba se
MO D
vo lution
chi e
Cor poration
M1 A1
fer ence
mis sion
velop ment
GUN DAM
3 16
5 37
6 21
7 42
C I
E 48
E ric
F o
F al
S in
T I
W el
Ã «
Ù Ĩ
an na
15 40
15 74
17 72
st d
28 7
te e
60 5
45 4
38 8
34 3
op en
88 8
Su nd
po int
Dra w
Chu rch
Alex ander
Cro ss
Manage ment
4 25
4 75
L ady
N D
O ther
S W
S ar
c ted
k Ã¡ng
k an
v at
w ere
ji a
12 50
ni co
16 19
16 29
16 83
29 2
36 3
37 6
ST S
55 2
68 6
ig n
De mo
Ar c
Au gu
Cy clol
Lon don
Sco tt
6 27
B ad
B RT
D er
D un
F L
I r
K ir
M X
O ra
S to
S ara
T ony
h ard
t ru
Ð ±
ti sh
al ly
ï¼ Ĥ
ma tic
48 8
id a
De sign
ph en
Sp ot
Sp ring
And rew
ðĲ Ń
4 49
5 A
6 25
7 38
F ron
H ER
O f
P B
R ound
V ER
i re
u nd
Ð ļ
sh ared
15 90
15 79
16 33
ãĥ Ĭ
ãĤ °
150 7
Be ta
La ke
Si mon
CH 2
Cu l
Sy n
Ani max
Ear th
4 12
F ort
L F
L M
S ol
S ca
S ON
V 8
c oun
h Äģng
t to
Ð ¿
í ķ
mi r
mi x
16 31
16 80
17 73
29 4
40 7
ma te
ãĤ Į
bo dy
39 6
33 00
mp le
Se a
160 4
An der
Par ty
Ha mi
Fa mily
PG A
Ang el
Dri ve
Jour nal
9 80
A p
A re
C 4
F old
G C
L R
P ol
c en
n an
Ä ĩ
É Ļ
ni cal
15 75
16 97
17 55
14 92
si ve
cu m
80 5
36 00
as a
46 7
47 1
De f
Ne o
mic s
ï¹ Ĳ
SK E48
Dy na
Sum mer
Thun der
0 x
3 19
E pic
H al
J 2
K el
N ar
S we
X C
f b
h oo
p an
z en
ch y
li on
or ig
15 61
15 89
15 95
17 81
14 65
al an
50 8
ãĥ Ĩ
ãģ ²
34 4
58 9
op h
160 3
160 6
160 7
CN BLUE
Ru by
Coun cil
Chris tian
pr int
4 15
8 55
9 40
9 70
C re
C lar
K at
M ed
M iss
k es
p os
u age
x 86
Ã ¸
Ã ħ
Ã Ł
à ®
li na
ni o
15 22
15 26
15 56
16 13
16 60
50 2
50 6
ãĥ Ģ
ter a
37 7
to s
47 8
55 4
amp le
Mar i
Al li
sp ort
mer cial
TO UR
William s
cation s
Hy per
ìĿ ´
âĺ Ĩ
Ange la
Foot ball
4 17
5 25
9 20
9 25
A fter
H it
L U
U K
U RI
i te
l le
u d
Ù ħ
su re
15 25
15 91
16 67
in du
chÃ¨ ng
ro nic
40 8
48 5
64 3
ad o
ba by
op hi
AM O
Ba ck
Fi esta
Ste ve
Qu a
Ru e
pu t
Ad vance
DO HC
Ameri ca
3 24
4 22
5 15
5 38
5 34
K it
P ap
Q S
S 4
V T
V el
W ater
h en
m RNA
w ho
z zo
â Ĥ
li sh
ti ne
15 10
16 38
17 30
me dia
ãĥ ĳ
et te
34 2
39 3
47 9
mp h
St ory
150 8
Vi ta
Mo zilla
La st
HK T48
las sic
Ber n
Wal ter
Sou l
Sur face
Found ation
3 200
5 31
5 46
E G
G Hz
I TV
J er
J ane
M es
M BA
N I
S en
S on
T G
V S
b les
i PS
k W
p al
202 8
15 43
14 57
co me
36 6
38 1
39 2
In du
Ar ti
Bu il
Hist ory
1 st
4 13
4 26
A i
E du
F 3
G PS
L Z
L ight
M os
U 20
W nt
c la
d own
m ol
y l
z Çİn
z ar
Ù Ĭ
15 65
15 59
15 87
15 97
âĢ ł
16 35
16 88
17 33
17 82
al so
st ry
te x
60 6
ol low
ãģ ĳ
37 3
Al bert
Ti mes
len t
John son
Fin al
5 24
6 12
8 90
A sh
B y
F S
J im
T ol
U D
b s
e st
o v
s core
Â £
Ð Ł
Ñ ĩ
15 88
15 98
50 7
ce ll
am o
the w
64 1
49 5
68 2
Re p
66 6
Ro d
Ro se
Vi o
Po d
Au stra
Mon t
Bri an
CL A
Pla ce
Tele gram
tran s
Pier re
3 32
4 A
4 K
4 35
5 75
7 90
A le
B et
F l
M us
T MA
a te
p lan
s ky
ti Ã¨
ti al
en ts
15 23
15 35
16 49
16 61
17 70
14 99
th en
ãĤ ¬
ãĤ ı
36 1
nu mber
46 6
39 1
.. ..
55 1
vi ces
Mo der
160 1
Sh o
gi o
PC I
Ti m
Ho tel
TO K
Ac Fun
Fla sh
pla ce
cra ft
Won der
5 28
5 500
9 90
B ang
B ell
H ard
H TT
S ma
S mo
T han
e y
f is
g ni
shu Ãłn
mi ne
15 11
17 60
17 69
ri t
35 8
co s
37 1
46 9
it z
68 4
58 7
Vi ew
pp m
Bu t
SM AP
Ge o
Ed ge
tri bu
Exp lor
Gol den
5 48
A W
B il
L or
M ir
M AC
S han
a ir
e ven
p ara
v or
ti Çİn
200 00
10 80
15 000
15 76
15 94
16 89
36 2
38 3
TC P
34 1
NA SL
Pro gram
Be y
So me
Si ri
Qu i
Bri dge
ac tive
Europe an
vern ment
9 21
D ance
G un
L 1
M R
M ind
M MC
N EX
R B
T F
U FO
V F
V ar
b ow
k ins
r Ã¡ng
u ts
ð ª
hÃ ²ng
hu o
ch ÄĽng
le ft
ti ca
mi d
18 11
15 17
15 14
15 78
15 52
âĢ ķ
16 39
16 84
60 8
ma ster
34 9
Ma i
64 4
55 7
vi e
ir d
58 5
59 7
De velopment
Mo d
Te st
Se ven
Ra w
We ek
Fi ref
Ju st
ko v
Mat thew
temp late
Eli za
Comm on
sco pe
Tay lor
curi ty
3 48
4 36
5 49
A ST
B ai
B rand
D NS
F red
J am
K on
M itch
P res
R N
R et
b um
e a
e xt
o van
p l
ti o
er ing
17 63
13 50
in ess
ï¼ ĭ
si e
40 3
ce pt
cu Ã³
se ll
ma ni
90 8
es sion
65 00
ca se
150 5
ard o
tou r
77 7
Mar ie
ang er
fi ed
fi cation
Pa ck
wor th
San ta
MG 42
Christ op
Vil la
5 47
5 67
6 68
C 5
F AN
M ountain
N K
R ol
T 4
Y OSHI
b la
s Ãło
Â ³
Ñ ĸ
10 50
16 14
17 20
37 4
49 4
Co V
ID E
IP S
PS P
ther s
Wor k
UN IX
Pe ople
Com mit
âħ ł
Kar l
Fra me
IPv 4
Explor er
5 14
5 22
5 45
5 68
6 19
6 75
B au
C SS
D 1
E BU
K T
K w
O h
S hu
Z a
n Ã©
s pi
s al
y Ã³ng
le te
15 16
15 13
15 34
15 47
15 69
16 V
14 60
st one
cu la
ãģ §
35 9
75 7
64 2
58 1
au x
150 2
ction s
ga ni
ali s
Ge Force
à¸ £
SO HC
Jack son
Art hur
Que en
COLL AR
Sund ay
orig in
4 18
4 14
4 24
4 33
5 44
B os
C J
D TS
F 2
J O
J us
M MO
P EN
S and
T el
X IV
b Å«
c z
f lo
h ol
i th
p per
s ki
z ed
Ð Ĵ
17 31
17 68
17 71
14 90
me l
40 9
lt er
ãĥ ı
60 4
80 2
ãĤ ±
ãĤ ĩ
ãĤ į
38 9
75 00
39 4
47 6
be en
49 3
vi o
Vi sion
ER O
Bo x
Ri ft
AG E
Pri me
FO X
whi le
Tru e
JT BC
âĩ Ķ
Cine ma
Aven ue
4 31
5 39
7 45
A BS
B it
C lassic
E O
G in
G amer
K er
L ord
M it
S k
S olo
V 6
b n
b our
j q
z za
Ä ±
sh op
sh ed
ch ange
bi Ãło
ti l
ti ce
ti fy
15 93
17 24
17 52
14 69
14 98
13 70
si li
se a
ãģ Ī
il le
38 2
75 5
46 4
44 4
ci d
57 1
150 1
Ne ver
Ga ga
no va
PS 3
pro te
Ex press
Bri tish
td own
AGA SA
Kid s
Fried rich
6 46
6 67
C IA
D 2
E ver
G am
I RT
K an
M 6
P ass
T am
X F
Z J
a mi
h igh
p to
s ay
t ch
de x
li us
di es
15 20
15 60
15 53
16 51
17 40
14 93
60 2
90 4
49 6
49 8
44 3
na ment
Ra il
MA N
Bo ys
Ba by
Ha w
pro du
UN G
Fa mi
AG UE
LE AGUE
Gu ard
wor ks
mon t
Je ff
Don ald
Intel li
à¥ į
Commu ni
Ath lon
Mem ori
Firef ox
6 11
6 45
9 45
A gain
B as
C 1
C en
C BA
D EC
G W
H ay
O ld
Q U
T AM
U 2
v ol
Ã ¥
á º
ch an
di c
15 96
on o
16 32
16 79
17 18
17 35
17 45
17 58
25 G
ï¼ Ŀ
te c
ra m
ãĥ ¡
cu lus
ma de
90 7
ãĤ ģ
ãĤ Ĩ
58 4
150 6
De ar
ss on
tw o
ment al
160 5
Sa mu
gi a
An th
Si de
He alth
Fi sh
Na me
RE AM
Wil d
Cent ral
Dou g
Stand ard
Vio let
Christop her
YOSHI KI
0 50
4 39
5 33
7 31
7 32
7 41
7 62
9 62
A stro
C ree
E ye
F lor
H 3
I CD
K ra
N U
N um
O ff
R CP
T L
T hi
U CLA
W ood
a th
k it
n p
p he
v ari
w en
Ï ħ
á ¸
â Ļ
bi a
di na
12 60
15 66
la w
la de
17 25
17 48
ãĥ Ħ
70 6
ãĤ Ī
ãĤ Ĵ
45 7
ter y
37 9
as o
75 6
55 3
ci o
67 3
57 4
57 6
mp son
Li st
Al an
98 5
97 3
An na
Ca pital
Gre g
Alpha Fold
Oper ation
Fleet line
Angela baby
5 16
6 17
6 39
7 22
7 35
D U
E cono
H MS
K ha
P 2
T ower
b ble
n ers
s Ã²u
20 50
qu id
15 28
15 72
on al
16 52
17 27
17 61
13 68
ãĥ ¯
ãĥ İ
35 6
70 4
48 2
65 5
br ary
au lt
AR E
ga te
Ga on
end s
BL E
lin k
Col or
tel li
Har ry
Eng lish
Gar den
Tw o
Jon es
Ander son
Eliza beth
Commit tee
4 47
8 63
9 26
9 61
A na
A pa
B ow
D in
E a
E pi
L X
R ATP
T ha
V P
W W
e u
h al
p et
p as
de fea
sh an
li m
bi rd
en o
ni n
er gy
15 31
15 38
16 47
16 81
st or
ra t
80 3
70 8
ãĤ ĥ
45 2
45 3
the y
65 1
be d
Co ok
vi r
58 6
57 2
St ro
150 4
Ne u
ED G
AP G
IC A
do or
Con ne
Ba sic
170 1
Ste phen
Car l
Col span
wor d
ess or
HO ME
igh ts
App li
cc ff
cc ccff
Pre ss
Dis co
Twit ch
pri se
Pat rick
fra me
Wo men
FIN AL
Bey ond
3 M
4 38
5 11
9 33
B un
H ero
H ans
I LE
J es
R ad
S ay
S NC
a w
b and
d ÄĽi
g na
v ity
w er
Î ©
Ð ·
Ø ª
ì ļ
xu s
hÃł ng
mi e
15 30
15 37
la ti
17 36
ï¼ Ĩ
60 3
80 8
46 1
46 8
68 1
us er
ON G
sta te
170 9
Ke vin
Game Spot
Ab du
Sou thern
new s
Java Script
Prin ce
Direct X
Sil ver
fun ction
Moder n
3 G
5 41
6 29
6 48
7 25
A k
C AR
D or
E LE
L ow
N N
N an
N PC
P 4
U RE
V is
c ter
c ity
g as
g ent
v ent
Ñ ħ
su ch
su per
di re
zi ng
15 19
15 29
15 55
16 87
la st
17 28
ar di
in k
te am
ãĥ Ŀ
cu ÇĲ
90 5
es a
48 4
65 3
Ma ker
In fo
be fore
55 9
49 1
67 9
pe d
79 6
OS S
fi sh
Sa f
MA D
Par is
Con cer
Th at
Fa ir
mar k
cket t
UR L
AO A
Ya hoo
spe ci
cture s
Plan et
ASC II
Spo tify
Omega T
Mitch ell
4 23
5 36
6 32
7 15
8 25
8 33
A la
B 3
C AL
D 9
F low
G y
G RO
H au
I ta
K 2
M oney
M bps
R DS
Z o
e b
e i
i de
s an
s ci
w art
hu Åį
20 35
11 20
17 67
ck ing
Ch rome
Ma in
47 3
49 2
ca p
nd a
au to
66 1
56 2
Li ber
Ro bin
De ad
De bian
Me ga
Vi a
ga me
Se e
bu cket
An ne
ho st
PS 2
Fe de
Ed die
TR A
Coun tdown
Zi co
sig ned
TOK YO
Violet ta
3 39
4 29
5 32
6 65
7 75
7 69
A x
A rea
D 5
E ri
F ox
H and
J I
P ur
R 1
R F
S NS
l ler
Õ ¡
mi Äĵ
12 20
15 45
16 64
16 59
17 19
ar tic
14 95
14 96
13 88
re do
ce p
70 2
70 3
Ch ap
Ch art
Ma h
ST ATION
68 9
Re a
69 2
os p
Ro man
Mi x
79 8
hi m
sp lay
ot t
ment ary
ER S
Ja co
AN D
gra phy
Ju an
gin s
Ste ven
Ph y
IF F
Bi o
Dra gon
Ani me
Hen ri
Frame work
0 10
4 34
6 36
7 29
7 61
8 78
A us
A ction
E 1
E 231
G EN
J ay
L 2
P AGASA
R K
T oo
Z ERO
d as
e g
h at
i ra
Ð ĳ
Ð ľ
Ñ Ĩ
ì Ĺ
ti er
15 46
15 49
15 62
16 70
16 90
16 54
16 53
16 94
17 59
ar o
14 66
th or
si o
ãĥ ¢
80 7
70 9
45 8
46 3
lo g
55 5
59 6
66 2
St ri
un der
Li ke
Mi chel
con stru
ent al
gi e
po si
Bu ild
shi on
Inter active
Wil son
John ny
del la
Vo ice
FA ST
Ken ne
Cour t
Hap py
HTT P
Samu el
1 2000
5 27
6 38
6 69
7 12
7 11
B P
D al
D REAM
H os
I MAX
J os
K 11
L V
L ind
M 5
N am
N CC
R SA
S r
d an
e f
f lu
s ka
w y
Î ¬
sh ell
xi s
qi Åįng
le m
su ng
tu ra
ni Å«
15 58
15 81
17 38
14 74
13 75
cu lar
el li
ne u
ve ment
ST AT
47 7
lo ve
68 000
Co s
AT E
59 5
59 8
59 9
57 8
160 8
Ja c
He in
den ce
EP A
pro gram
we en
gen e
sy n
fli ght
EX ILE
Per son
GP L
Star s
star s
Gal ant
imp ort
NM B48
5 21
6 28
6 22
7 21
8 67
8 77
9 65
A er
B Y
C are
F 5
J et
M ount
N er
O ST
R X
S us
S UP
S ource
V EN
W P
Z Z
c li
c in
f re
g li
u i
w ill
y d
gu Ãłng
yu n
li fe
bi o
12 80
âĢ ³
16 65
la t
17 32
17 44
17 56
14 89
14 87
13 40
ou l
me t
000 rpm
ãĥ ĵ
90 6
ãĤ º
45 1
Ch ill
99 7
St ru
id ae
Se curity
Da ve
Sh ar
wi ck
Play er
Fe li
gh ts
Fore ver
SHO W
Bus iness
2 nd
5 19
5 17
6 24
6 23
8 35
8 76
9 38
9 54
9 51
A bu
B 9
C AP
D 3
F w
F lo
G DDR
H il
H op
I MD
K ur
L CD
N IC
P on
Q t
S el
Y F
e ng
f an
m ou
m os
u de
v as
w ould
x a
Ð ĺ
ð ¤
su m
qu a
chu Ãłi
15 24
15 32
15 84
16 58
16 57
16 99
la d
17 62
13 37
mu m
ï¼ ŀ
ra i
se ed
47 2
47 4
64 9
49 7
68 7
68 8
69 8
57 9
78 4
Ro ber
Pro to
ht ml
140 6
Car los
DS P
à¤ ¾
Bi ke
ye ar
SH IN
Hol ly
Christ mas
âĺ ħ
Publi c
sca pe
MON STA
Compu ter
Tou ch
Sma ck
Smo sh
Apa che
0 54
6 16
7 19
8 65
9 46
9 88
B ran
D H
D ur
E sp
G 1
G au
H 4
H 10
H at
J ona
M ore
S 3
S b
S ense
W it
W HO
X G
j an
k ra
u sed
Ã ¦
Ï Ĩ
du s
ti e
lu Åį
en ne
mi cro
pi a
16 68
17 39
17 64
for mat
ma il
300 00
78 7
Li brary
So cket
An n
so ck
PS V
Con trol
170 2
Th ere
Ta ke
Hu man
LL VM
row span
way s
bre ak
Fan ta
Ry an
Smack Down
0 52
4 21
4 37
6 14
6 26
6 37
8 15
8 16
9 75
C ard
E cho
G F
I f
I ce
J P
R h
W ing
W olf
Y A
Z O
a fter
c ine
f ree
h p
k ha
w on
w ri
Ð ł
ë °
de pen
di g
00 00
12 75
15 36
16 75
14 64
ra d
ma y
ma jor
45 5
IN D
lo ck
67 1
67 8
op s
mo st
AR P
Te x
Sh er
An ti
170 5
Lin er
Fa shion
TO WN
eri al
Gi ovan
She et
lea se
KK BOX
Champion ship
Lang uage
Alf redo
aly sis
Prof essor
5 42
6 34
8 21
9 12
C IT
C fb
D X
H PV
M OS
M IT
N XT
O l
P r
S Y
S ter
S IM
T ig
W H
W er
W ell
W ong
c ount
d f
d le
d one
g lo
i ma
m me
n st
o is
p on
w ind
Ï ĩ
â ģ
ã ħ
ì Ħ
ch es
li b
le u
le in
mi Äģo
15 63
16 17
16 63
16 85
17 53
14 77
13 80
mu lti
st ance
50 3
ra s
se e
80 9
ãģ İ
ãĤ ½
at an
48 3
48 6
as y
75 4
65 6
Ma te
be at
be ca
The at
67 6
AT X
SA N
78 5
56 1
NA S
Me i
AR K
Se cond
AC H
ok ia
AN G
IP TV
We stern
Bo ard
Fi le
Fi eld
ther e
à¸ ²
UN ES
gen cy
Fran ces
Mor ning
Bra d
RC A
Colle ction
Space X
Mel on
Cir cle
Mis sion
Crea tive
TW ICE
Clar k
Indu stri
SUP ER
2 DS
5 18
5 26
5 66
7 16
7 14
7 65
7 64
7 44
8 26
8 47
9 18
9 36
A fri
B NO
E U
E ve
E very
G I
H ere
I a
M RI
P ere
R P
R ight
R ank
S UN
V in
V IP
W ri
W are
W TT
c am
c ta
g roup
h Äģi
p ho
t own
Å Ĥ
Ù Ī
â Ĭ
ë ¦
ð ¬
ng th
sh ow
ch in
ch ed
li ty
chu s
10 24
16 69
16 56
16 72
16 92
17 54
14 20
14 80
te en
il o
the ir
75 1
65 8
Ch ang
Ma ki
In te
59 4
St one
79 1
AM C
AM P
Mo ore
Sh ine
IT A
Bu g
170 4
170 8
Ni ck
Pi e
ari o
AG P
ML B
Man u
Vo gue
Fu ture
DM R
Fron t
Rep Rap
2 B
7 13
7 27
7 48
7 68
8 75
9 15
9 29
9 47
A ce
B IG
C r
C YP
D am
E mp
E BS
F ai
F rom
I SA
N ICO
O ME
R 3
R ing
U F
V IS
X III
k on
x c
z Äģn
Ð ¢
Ø ³
le v
bi e
bi s
10 75
12 77
12 79
12 76
11 11
an te
14 40
14 88
14 72
13 71
al lo
st ory
ri an
ri ce
ro ad
ãĥ §
90 2
48 9
vi er
69 9
op hy
99 2
88 1
98 6
Le w
con tribu
AP M
160 2
do m
com mercial
Inter play
cro ss
AI M
RE AS
Wil hel
Au dio
CR H5
Gen e
Wal ker
Ver sion
Fil ms
Ji mmy
Distri ct
Swe et
Buil ding
0 30
6 33
7 78
8 12
9 55
9 57
A zu
A sian
C 3
C 14
E Y
I m
I an
I so
J alan
L NG
L IF
M IC
N Y
N int
P OS
R and
R SS
S AT
S id
S top
T s
T NT
Y i
Y an
b ÇĴ
c Ãº
c Äĵn
d 4
i ro
r s
u te
Ã ½
Ø ¨
Ø ¯
le dge
su l
tu ry
ku Çİi
00 2
00 4
12 30
pi s
15 27
16 11
ar ray
re la
ri x
ri sh
ol s
el y
ãģ Ľ
48 7
ne st
bo v
Ch ro
In formation
55 8
68 5
vi ch
os au
57 7
78 1
79 2
79 4
Al bum
98 1
Le i
CO 2
AR C
Di ck
Sh op
gi on
po li
Si x
En ergy
Wi MAX
shi re
Ge mini
Ste wart
112 2
RE S
Ta c
ori es
ES PN
Tri ckett
min al
Wa ve
Tho mpson
Wh ere
Por table
ele ct
ìķ Ħ
Thunder bird
Vel vet
Jona than
ð¬ ĵ
Nint endo
0 70
5 43
6 15
7 17
8 28
8 39
9 39
B in
E 2
E di
F D
G 2
G G
G r
L en
L un
M ED
N 1
R Y
S 7
T D
U FC
V 1
V 2
a la
i c
k ai
n ar
p oly
t ar
w el
z zi
ã İ
ê °
le e
ti nu
ti ful
qu ali
di ne
ni g
15 12
15 41
16 66
la k
17 21
17 26
17 37
17 47
17 43
17 41
ar chi
14 30
25 000
for mer
te au
si te
48 1
is m
bo y
na tion
ad ox
ba sed
67 4
ca te
69 7
88 9
Li quid
De uts
Al len
98 2
98 9
ap u
per t
fi ni
po st
Pa ge
Sp ort
PC R
à¸ Ļ
AV E
NH S
Gra ce
hy th
Mat ch
bur y
Enter prise
Sur f
Production s
ab out
Bru ce
Doug las
2 TV
5 13
8 46
8 66
8 57
B 12
B all
G ary
H Y
J 1
J XG
K ill
O culus
P enti
W M
Z en
a gain
e ver
k Hz
p ower
w at
x e
z Ã¡n
de ra
gu s
zhu Çİ
mi um
12 17
12 74
15 15
15 42
17 12
17 11
17 15
14 35
14 56
13 28
13 85
for man
ro om
se le
el o
ãģ ¶
48 00
IN T
is on
34 00
ba ch
pe i
St or
150 9
Ro ger
Wind ow
Mo tor
da le
Sta ff
IS C
97 1
Lo ck
AS H
fe ct
Net scape
IG HT
gen er
GP 40
hy dro
bri d
bri dge
face book
Prin cess
Pin k
Ten nis
SHIN ee
Penti um
0 55
6 47
7 28
7 26
8 11
9 13
C Z
C CD
C OS
I ng
K S
M g
S now
T AI
Z ero
f it
f ig
f ts
i la
s w
t ta
u k
v ad
y an
Î ¯
Î ¶
sh ark
li k
ti t
chu Çİi
ni k
11 50
or bit
15 44
17 57
14 24
14 70
14 54
st r
th al
th rough
ri l
ri er
29 00
am ba
se ts
90 9
45 9
37 00
is er
75 9
ST ER
II T
Co ng
ci sion
67 2
58 2
AT S
59 1
99 3
SA P
Mar s
Di vision
Lo st
Bu zz
DS L
pro ject
tt en
Fran ce
Univer sal
ham mad
Che e
âħ ¢
IM F
Dra ma
stru ct
Eng land
CG TN
Lou ise
Mer cu
add r
Anto nio
Archi te
CDMA 2000
WOR LD
Alli ance
Holly wood
8 23
8 29
9 27
9 35
A 5
E mi
F 7
F our
G IS
H art
J C
J ason
K N
K now
L MS
L PL
O ly
S ang
T B
U SE
W D
Z u
c ca
f eld
m pic
o le
o va
p pe
gu n
tu p
mi cal
12 35
12 64
or der
15 54
17 22
17 34
17 66
14 71
13 30
13 90
in er
ra nge
ãĥ į
ce i
60 9
the m
and o
65 2
65 9
Ma xi
Ma ke
Re mix
69 5
57 3
ly n
78 3
ss a
ber ry
77 1
ke e
Ga te
Ar ena
Sh ot
mer al
Uni t
ster s
Par adox
âĪ Ī
Ad ven
Hu gh
Pe ace
tt le
AA A
DO CO
Red dit
Ac tive
ens or
Ben ja
Spi n
Bro ok
Bro thers
Alpha Go
lli on
uni que
part ment
Engine ering
Oper a
sm all
ECT ION
Kel ly
tour nament
Cree k
defea ted
Concer t
Maki yo
Surf shark
1 180
3 100
5 29
7 24
7 36
8 32
9 32
9 67
9 76
A y
A ve
B EST
D N
D rop
E y
F 6
F G
F lu
F all
G on
H M
H Q
K A
K y
K or
L os
N 3
N ON
O L
P ia
P RE
R AD
S RAM
U 16
V CD
W ol
X Y
a ct
f ollow
g ran
g ood
h d
m ary
n ch
n el
r ence
t ent
w o
Â ½
Ã £
Ï Į
Ð ŀ
× Ļ
ð ¡
de ri
15 57
15 51
16 55
16 78
16 96
la v
17 46
17 49
14 75
14 41
14 84
13 99
st ring
ri son
te o
et er
il ler
and ra
bo ot
75 2
be ing
68 3
Re v
St r
Ro b
Mar sh
va tion
87 4
AC S
sta tic
140 2
à¸ ¡
we i
CR H
Hu lu
net t
BM T
Dis c
All stars
Hol dings
Bro ad
Val ley
GM MTV
VO CAL
Mil ler
Pala zzo
ologi cal
IPv 6
Rain bow
Elect ronic
Premi er
PEN OME
Mercu ry
DOCO MO
PENOME CO
6 35
8 64
9 31
9 37
9 56
9 72
E dition
F ren
F IR
G it
H ad
M ou
M ol
M ill
N L
N AT
P RI
T ed
T ang
W id
c rea
e xi
f low
g os
k n
p rin
s ort
x on
Ã ĸ
Å ĭ
Ñ Ī
ð °
bi g
ti g
di stri
10 20
10 10
12 66
12 61
pi d
16 41
17 51
ar ma
13 46
mu r
th ree
re st
se u
ãģ Ń
ck en
bo t
TC H
be ta
vi rus
99 5
88 4
88 5
88 6
De an
De lta
Mi ra
You Bike
mo tion
Se le
Ar m
IS P
IS S
Da vis
Da ily
Di am
po em
ki e
Pa ci
Si e
He ad
so cket
Wor d
AG M
cri p
Hi p
M1 A2
Pri ze
Nor d
CL OS
Ac cess
CS I
Coun ty
par ti
YO U
Sam sung
mat ch
Ros s
Bir d
Tw ins
long i
Beau tiful
Origin al
Augu st
user name
Theat re
Wilhel m
Benja min
0 60
5 64
6 64
8 17
8 31
8 53
9 19
9 58
9 42
9 59
9 79
A cc
C ali
F K
F NC
G as
G UI
H g
I ATA
J B
K ore
N el
P U
P X
P it
P ha
P DF
Q R
S chu
U CC
W inter
c amp
c ry
f ran
g b
h ÇĴng
h or
h on
i st
l f
r Åįng
Î £
Ð Ŀ
de t
li er
ti um
di ffer
12 84
202 9
16 73
17 13
ar ia
14 25
14 68
13 82
me mber
lt y
ãĥ ľ
se o
80 4
ãģ ©
co la
38 00
65 7
Ma de
In vest
na ture
ci ous
ba i
ca u
AT I
Li p
De partment
CO NC
AM X
AR I
Mo de
87 3
120 4
IC C
mer s
gra ph
fe e
à¸ ±
Ni cho
Do cu
Lu is
Fa ctory
CR 400
ence s
Ser vices
SP A
fa mily
Wh it
cre en
Fla g
Tru st
phi c
How ard
ord an
fin al
Wat ch
Sm art
pres en
LAN D
Metro po
Edu cation
ession al
Fede ration
Giovan ni
contribu tor
5 69
6 31
7 88
8 27
8 45
8 52
A 330
B 7
B ol
B ak
B our
B MP
D au
E ss
E van
G 6
G IR
I Q
L ane
L yn
N okia
R ER
T TC
X i
Y S
a f
b ber
c our
f al
i bn
n ell
p han
p us
u lar
w ater
y our
Ä ĥ
ì ĭ
ng i
qu et
12 27
12 83
12 91
pi ÄĽ
15 39
16 95
16 82
17 10
14 81
13 56
mu sic
st amp
me a
ru e
ãĥ Ļ
ta u
ta il
ãģ µ
Ch er
Re gu
44 1
67 7
au n
ig a
69 1
99 1
St yle
ed om
Mar ch
79 7
89 7
Se p
AC G
AP S
by e
so ng
140 5
SM O
den ti
EN D
170 7
Ni ke
ler s
112 4
Ki wi
Ex tra
pa th
MI R
Gu y
cha ft
à¤ °
EX O
Ber g
Mor gan
Va len
HS CR
Asso cia
wh at
Vir tual
DK Z
Dou ble
Song s
Rus sell
Premi um
Wire Guard
coun ter
Num ber
Disco very
Nicho las
0 20
2 K
3 166
5 23
8 42
8 41
9 77
A Y
A 320
C ow
C au
C all
D 4
E B
G ru
G ot
G RE
I ni
J in
J DG
K un
N at
O 305
P 10
R MS
T EP
V HS
W C
W right
W 3C
X M
Z n
a es
c ou
d ri
e la
f l
f le
l s
m 2
o dy
p ol
p ay
Â µ
Ã °
Ã »
Ð ĵ
ji to
sh o
li d
10 66
12 41
12 95
ni um
11 30
la ter
14 33
14 49
13 76
st ad
th ird
me m
me o
si mo
100 1
ta x
ãģ °
ãģ Ķ
ãĤ »
46 2
Ch in
Ch ange
Ch alle
Ma j
In dia
vi c
vi d
69 6
SA E
78 6
56 3
mo thy
ows ki
Ne il
Ar ray
We i
PC S
fe at
170 3
EC E
Ho pe
go v
Pi ctures
ari us
CH O
And y
AD A
lin es
Go vernment
Hu b
Cl 2
time stamp
Blo od
type def
enti al
Free BSD
Tai pei
Sing le
Es meral
Talk ing
bet ween
Stadium s
Advance d
Memori al
Anth ony
Jaco b
Esmeral da
4 D
7 49
7 66
7 99
8 38
8 44
8 43
8 54
9 68
A po
B 6
B W
C olo
C andy
E p
F B
F r
F it
F aker
G 3
H ig
I Z
I sa
I ron
K am
K iss
L oo
M n
N on
O BE
P l
R d
R IA
S at
S core
T r
T as
T it
T REAS
V inc
W B
W oo
a ta
e du
e mp
f ar
f il
g ger
s eries
¸ ©
Å Ħ
ì Ĥ
zh Çİ
su lt
di cal
12 90
12 65
12 62
12 86
pi t
17 29
17 42
14 38
14 59
re t
ï¼ ĳ
si r
ãĤ §
ãĤ ħ
he ight
Co le
Re Mi
66 3
Me e
Al ber
AR S
Mo jito
AP EC
Di plo
Ri ck
Na ture
Ni k
Do ReMi
RO R
mar ch
Or der
ser vice
Fu nd
Coun try
âĹ ı
BLAC K
Shi p
fri Day
Vil le
Sw ing
Lis a
Johan n
Hun ter
dou ble
tru e
Austra lian
ðª ¸©
prote in
SNC F
Jac ques
B9 TL
seu do
TREAS URE
1 190
7 18
7 33
8 37
8 79
9 28
9 22
9 48
9 66
A 9
A Z
B 5
B len
C 7
C BD
F OR
H is
J ordan
K L
K aka
L SA
N y
N ess
N RA
O C
O u
O ce
O BC
P il
P ET
P sy
P DP
R ED
S 22
S ant
T in
U l
U HF
c Äĵng
f x
g ot
g irl
n am
w al
â Ł
ì ł
li ps
ti tle
zi e
10 40
12 40
12 70
15 99
17 17
14 47
13 69
13 73
mu se
mu nd
st and
st ation
si ty
ãĥ ļ
am ber
se nger
ta ng
ãĤ ¶
75 3
Ma p
Ma lay
lo ok
Re volution
88 2
Li ving
98 3
Le vel
BA S
BA NG
va lu
con ne
da te
ace ae
fi re
-- -
ok o
MA G
po inter
He len
140 3
Con ference
AS P
MP EG
112 1
lin s
gen ce
IF PI
Pri ce
ex e
YO UNG
PE G
Cra ig
Far ms
ICO CA
gre en
DAM P
Ven tures
aso nic
depen dent
Lew is
1 x
1 198
4 x
7 46
8 19
8 14
8 13
8 24
8 51
9 64
C el
C ERT
E id
E mer
G ay
H ur
K is
K han
K ap
K ara
L as
L lo
M un
M bit
P ed
R an
R al
S wi
T es
U s
V L
a ve
e ch
e ar
f ly
g Çİ
g or
g ge
g il
i k
i des
p ot
s ar
w ai
w are
á ŀ
ê ¸
ì ŀ
de c
ch ang
12 19
12 54
or ia
an us
16 76
la h
la ce
17 14
14 29
14 34
14 44
14 62
14 51
14 83
13 64
st en
ri o
ï¼ ¡
te k
cu t
se qu
co mm
Ma k
In f
lo sing
SE N
II c
Co oper
ci r
59 3
99 6
88 3
Li te
De li
CD R
77 4
ap ore
89 2
89 5
per ia
IS IL
col o
140 7
Sp y
com mu
Wi se
Ge m
à¸ Ń
pro vi
For m
Hi ME
Fran z
ref er
Dis play
ane se
sing le
ex ample
nic s
ãĦ §
ãĦ Ľ
DD 53
stru cture
Spi rit
Kar en
mini stra
Cap tain
PH P
Ob ject
map frame
Get chu
Gor don
inte ger
NEX T
Abdu l
Azu re
VOCAL O
Paci fic
3 rd
8 62
A z
A ss
E 5
J ar
J AK
K 10
K ai
N 64
O ur
P ow
R D
S OS
S ophi
T 7
T al
T wi
V G
W u
c co
d ÇĶn
g ro
i le
o su
de i
hu man
10 86
mi R
12 25
12 24
12 58
or us
16 86
la e
14 86
14 97
13 10
13 29
13 91
ï¼ Ĵ
ta ge
the ory
and ro
he d
In dian
Re public
na p
ci p
pe ople
AT H
69 3
De ath
Mar t
98 7
Le g
BA C
hi cle
AR A
con trol
89 6
Ne xus
Se an
Ga ming
Ra b
110 8
140 4
com ment
No va
âĪ ŀ
my s
Ex peri
AV C
For mation
Fe a
ron o
DC T
Du al
Mon o
NO ME
Pri x
Mat t
SD K
cle ar
vil la
Ce le
Pla t
Vir gi
âī ¥
Ur ban
Francis co
Lis p
Victor ia
Pho to
Prof essional
Cast le
Sca la
Ner f
LIF E
Fren ch
VOCALO ID
0 40
0 80
2 S
6 A
7 23
8 500
8 58
8 59
9 14
9 34
9 44
9 69
9 53
A de
B li
B GM
C rown
E MD
F RAM
G NOME
H IG
K re
K as
N 4
O G
O Z
P ST
P AL
R R
R it
R GB
S lo
S cor
T au
T ot
X peria
Y ellow
Z ICO
a is
b ol
f ur
h and
j k
p ter
s v
u int
Ã ¯
Å Ľ
Ë ĭ
á ¼
ti mes
di ca
en cy
00 3
12 36
12 78
12 63
11 40
er ror
âĢ Į
17 16
14 42
14 78
13 60
13 65
13 33
13 41
st ed
st ream
se mi
ta b
el s
co le
co mo
Ma th
ST EM
lo cal
The od
ad ow
ver sion
AT M
op era
78 2
Ro th
77 2
77 9
Le o
89 1
Se x
120 8
IS IS
Ra cing
Sh ell
So cial
Bo dy
à¸ ŀ
Ha ve
AI L
Car ter
Ki ii
Qu in
And rea
SO 3
BO RN
TE EN
Ad d
can s
Pe ar
Bi li
Pre si
PP P
mb H
Bla ir
Day s
Hy brid
OK A
BI OS
At lan
Ter ry
Er nst
LGBT Q
var ia
Part ners
Fore st
Alf red
Fro llo
dou bles
WI SE
sist ant
Bil ly
Ret rie
Cen tury
Fanta sy
1 a
1 194
8 34
8 49
9 41
A e
B ap
B ye
B WF
B OSS
C AT
D AI
E c
F on
F RE
F IA
G U
J J
L ook
P b
P lu
P un
R as
T ap
T ak
T ensor
U ta
W ang
W AN
a a
a sh
a di
b ell
c tu
g ri
g ne
g ing
h ow
k ir
n n
o si
o mp
p ass
v ant
w ing
× ķ
Ø ©
à ¼
ë ĭ
ì ĺ
zh Å«n
de z
10 30
10 99
12 21
12 72
15 33
16 98
16 71
14 13
14 43
13 58
13 96
in es
re cor
et ti
at ory
lo ad
Co me
Co ol
99 8
78 9
CD K
77 3
120 6
Ar ch
fi gu
Ra i
Ra zer
Su ite
our ces
che ster
so le
shi ps
EP HE
HK IFF
MP I
pro per
Sch i
ina e
dy na
lar d
Ko ta
sy s
Com mission
SC I
Fu ll
Char lie
UT F
Min ute
Sing apore
lit ary
Bob by
ðĲ °
dro p
âī ¤
oper ator
Stan ley
Sor ana
ev ent
íķ ľ
Dyna mics
AMO LED
Qui ck
Appli cation
UNES CO
OBC s
1 189
8 18
8 48
8 69
8 99
9 16
9 17
9 49
A di
B is
C s
C ream
D 7
D card
G SM
G mbH
H ou
I van
L ol
M 24
M ine
N EC
O re
R M
R ID
S wan
S creen
T ER
V AL
W all
X 2
a cid
b ad
c are
c tus
d ol
g au
j our
k t
k le
l k
o ke
Â ¥
Å Ł
Û Į
à ¨
ê ¹
ë Ĥ
ë ŀ
ì §
ch Äģn
le ngth
ti no
10 60
12 11
12 34
12 46
11 10
11 47
or um
er ra
15 48
la o
la us
14 58
in us
ri es
te m
ãĤ ¡
Ch en
Ch at
Ch oi
500 rpm
SE M
Re view
Re ich
ci pal
88 7
St ray
id o
150 3
79 3
hi bi
man y
BS I
Mo vie
Ar n
fi nity
ED 79
-- --
Da le
IC S
La b
ID S
Su i
Lo gic
bu g
IT Z
Si li
à¸ ´
Ju lia
RO CK
112 3
my TV
Lu d
Lu cas
Ex cel
Qu ar
len ce
And r
MO ON
CR 300
BD SM
lar ge
Ke ith
PP TP
bur n
119 2
Boo m
Pan asonic
Cal li
Fer n
Mr s
NE WS
Hill s
Em pi
Cle ar
ologi es
shing ton
Mach ine
Ami ga
sor ted
hau s
Cul ture
Qua ke
osp ace
ð¬ĵ ĭ
ãİ ¡
forman ce
Retrie ved
0 12
8 68
9 74
A ff
A stra
B V
B b
B am
B lan
B aker
C 96
D ass
E 9
F ay
G 4
G 9
K F
K ry
K EN
L ay
L MP
P ER
R G
V En
V IE
Y ang
Z E
Z one
d n
e V
f s
f our
g ang
g ers
j n
l ÇĴu
l Å«n
r t
s qu
u a
â Ĵ
ng o
de m
xi n
le i
zhu Äģi
10 27
10 70
10 49
men to
mi li
00 6
12 32
ni an
an ts
16 74
la mb
ar n
14 48
14 39
14 67
13 45
13 86
13 92
13 93
re g
ï¼ ľ
te mber
si i
ra ng
ãģ ļ
at s
co ver
the ma
to m
65 4
Ch ie
Ma gic
Re g
na h
99 4
St ring
Li e
Li TV
De vil
ang le
Le op
Le ga
Vi lade
AM R
va ge
Ar my
IS H
IS M
fi le
La bor
Ra ja
Su e
Su pp
ak h
IP A
IP O
ki en
PS 4
à¸ ª
AL A
MP 3
US H
ort on
Th ree
Ex change
we e
MI L
TE E
BM G
DR 2700
106 46
mar ker
Har old
Wa shington
TS B
Mor ris
Hol land
LC K
bor n
UC I
Pat ri
por ts
LP DDR
LT TE
LS ST
Tur bo
Gran t
read s
sche ma
stre et
Sche me
Villa ge
ELE VEn
Info com
artic le
GDDR 5
F7 F
NON O
Str v
Sili con
Vilade cans
4 200
9 63
A TC
A vi
B row
C AM
C ell
C ana
C BE
H 6
H 9
H us
J K
J IS
K V
K lein
L ing
M 60
N g
N TT
O RI
O wn
P 5
R 9
V Y
V CR
W en
a ting
c les
c ator
d ar
f oot
o bov
p ap
u la
v re
x ml
z one
z oom
ë Ŀ
ji n
qu ar
10 12
10 17
10 63
12 14
12 29
12 68
12 42
12 53
12 71
ni er
11 60
11 35
16 77
16 91
ar es
14 19
13 24
st el
st ore
th od
ro ot
ra p
ãĥ ´
ãĥ Ĵ
ce pha
ta le
ma le
ma ke
co gni
bo th
39 00
Ma la
Ma jor
SE T
pe x
os o
Mar gar
der al
Jo is
ran ce
87 1
87 2
sp on
ED A
Be ach
AN SI
ho me
IT U
130 7
140 9
Na tural
ther ine
à¸ ģ
Do ctor
Th er
No v
ari an
Qu ali
And re
MO MO
pu l
Fe ed
Ka te
DR 2800
CE MS
Gra phi
Nor man
nis m
Can ada
Sing h
lit an
Direct Show
Sco t
fy ing
Ob ser
Ray mond
Cer ti
Bre ak
Medi cal
Oli ver
JU MP
Bern ard
gani zation
Rad ar
Saf ari
Hos pital
Tig er
ë¦ ¬
Oly mpic
follow ing
Vinc ent
HIG H
à¼ ĭ
2 n
7 34
9 K
9 43
9 52
A 7
A f
A ar
A ge
A st
A pri
A 380
B f
C 9
D 6
E I
F lip
G round
J S
J Y
J un
K M
K al
M 9
M s
M 10
M all
N FC
O x
O tto
S BL
U t
V la
X I
Y E
Y es
a me
a va
a ster
a ble
b g
d os
f ai
f ron
h man
h ere
i ning
j p
o id
p lex
r int
s olo
x 2
Å ł
Î Ľ
ê µ
ë ¹
Ĭ ¸
ch s
du le
bi l
su pp
ku n
10 59
10 56
10 54
00 5
12 59
12 52
12 82
pi Çİo
ar ning
14 15
14 26
14 76
13 49
13 63
13 97
si k
se c
of fi
et t
ck i
ck ers
ne i
ne o
Ma il
Ma cro
In die
be ar
ba ng
69 4
De m
Mar cus
ï½ £
AM A
AM G
Te ach
Te mple
ga tion
sp or
Ga bri
IC T
ation s
AN N
Mu ni
130 8
Ca the
Fi ve
sa ge
Inter march
Do g
Th orn
CN J
Ex ample
Qu an
Qu ad
Ta ble
MI X
Gu sta
cy clo
Ka th
vel y
Har ris
240 ZJ
Gi ve
EE Z
SH IP
Gen ie
ac ti
ffi ci
Spe ed
Sha ng
comp lex
King dom
Fri ends
sto ck
stro ng
IO C
á¹ £
plo t
Sc rum
Sche ma
live door
Hea ven
TG V
Tol kien
Fish er
eb ly
Kenne th
mou th
Rober ts
rela tive
Chro mium
Eid os
Virgi nia
Lega cy
1 195
8 98
A ero
B art
C in
C AD
C BN
D ir
H ell
J D
K TV
K SK
M 12
M ET
N f
O m
R oo
R au
R ant
R oom
R hyth
U G
U H
U 15
V u
V as
W ai
W DF
b ara
f oo
f us
g 4
g it
h ara
i ta
p ad
s c
s at
Â Ń
ð ł
de ll
ch ild
li ca
bi no
ti us
ti ger
zi o
10 19
10 11
10 15
10 16
10 32
10 47
00 8
12 12
12 97
ni Äģn
pi ne
14 12
13 14
13 13
13 94
ge e
st art
re tt
me ta
me thy
cu re
100 6
ãģ ³
ãģ »
ãĤ Ģ
at ten
46 00
ST D
Co ver
ci an
Ro cket
Mar c
98 00
Vi ctory
man u
Te mp
Da i
So da
An ni
An ton
We ebly
are a
Bu l
To day
à¸ Ķ
Ni ce
Ho y
Do mini
112 7
AK E
pro to
Lu cky
Lu mia
Fa te
For th
SO 2
TE 1
TE AM
land s
Mon te
NO 2
mar ket
ye ars
Game Cube
IL D
280 ZJ
Bra cket
Cy ber
AF I
119 1
yo ga
lip se
Produ ce
Pla za
Por ta
Tele vision
Cra zy
Far m
Fre de
Dan ny
à¹ Ģ
Hist ori
VV VF
Ry ona
mod ore
Fly ing
Ora nge
Sara h
16V 280ZJ
flo at
Stro ng
lati tude
Hein rich
IMD b
ê° Ģ
kn own
longi tude
TTC N
Blen der
Margar et
+ .
7 100
8 22
8 36
8 61
9 24
9 23
A IC
A gency
B 4
B 8
E volution
F PS
G len
H H
H oo
J ere
K rist
K ING
L W
M 1895
P ak
P ris
P ART
S eni
V ul
W es
X 1
X S
Z FC
a se
a ign
b son
b rea
c all
c chi
e es
f ound
g r
h of
j ap
k V
l Ã²ng
t 2
w ig
w ang
x 3
Ï į
Ð £
à §
à ¯
ð £
de sign
de lta
du ring
20 31
bi r
lu te
zi n
zi p
en berg
10 18
10 35
10 72
men tation
12 44
12 99
11 70
11 39
pi o
er y
ar is
14 21
14 55
14 61
14 85
13 000
13 55
13 43
13 87
13 72
al pha
re l
ru ng
ri d
ro ck
si ca
ra te
el se
ãģ Ŀ
he a
as ons
Ch amber
ST s
lo gy
be i
SE P
The y
44 00
42 17
ed s
ha ng
mo te
AM E
Pro te
Pro per
AC P
Da wn
IC AO
IC HI
ali sm
col le
all ow
Si m
130 4
PS Y
140 8
Wi de
ET S
EN U
Ju li
Do ng
go vernment
112 5
For um
Ta ste
Ka iser
Ad rian
wa ve
Com modore
Du ke
Stu art
à¤ ®
EX IT
mic ron
On ly
MD T
min or
UR N
As se
Ali ve
comp on
Fri end
now ledge
EM U
Dire ctor
GM M
Cal vin
Cla ude
wh en
Fre edom
fin als
Rap per
PI ECE
Pas cal
Science s
Hor se
Techn ologies
Ham l
ob ject
Dol by
Il lu
sty les
Kir k
UCLA SS
GRO UP
Aus tin
Aer ospace
Proto col
Fashion TV
BIG BANG
Stor m
Drop box
Diam ond
Sep tember
Kaka o
Ral ph
Bili bili
ëĿ ¼
0 90
0 67
1 1000
9 F
A gu
A ur
A FC
B es
C m
E st
F ur
F ine
F ellow
G TE
G host
H SD
J oo
K 3
K ol
K ang
K ali
K ris
K AD
K DE
L I
L id
M ST
N TSB
O E
P 1
P el
P BS
P IE
R ET
S mal
T on
T ARD
V or
V ali
W RC
W ings
W anna
Y ES
b ru
c 4
c lu
e h
e li
e ach
e very
e ffe
g ly
g ori
h ill
j s
j ar
j ay
n as
p ti
p ak
x ys
z el
Å ļ
Ë ĩ
Î Ń
Ù Ĥ
â ¼
ð Ĵ
sh er
ch ro
20 40
20 47
su n
ti f
ti i
di er
lu n
lu ng
10 46
12 18
12 15
12 47
12 43
12 56
ni t
11 38
11 37
11 68
or dina
16 93
14 14
14 27
14 32
14 91
zu o
13 78
13 51
for nia
st ris
re cei
27 58
ï¼ ķ
ro y
ãĥ ĺ
100 2
at ta
ck e
ne z
Ma gi
In stru
SE C
Co splay
pe ti
au ri
59 2
op o
SA S
ard s
Ro ma
Ro bo
Mi ami
Mar co
Mar ine
ï½ ¢
98 4
You th
mo de
mo ve
120 7
Ar k
Su l
Sa vage
Tu ber
Lo cal
bu tion
IP CC
An sible
Bo i
wi de
wi ch
110 6
130 9
Sp en
Na vi
sion s
170 6
à¸ §
à¸ µ
AL X
âĨ Ĳ
gin a
Car o
Th or
112 9
Ex e
Ex ten
SO 4
BO T
Fe el
118 5
IF T
à¤ ¿
NO W
Cor tex
LL C
Pre cision
mb ly
Nor thern
Super ia
tri c
Geor g
Ab ra
Spe ci
Spi ri
XX X
Jap anese
ð« ļ
SU V
oi re
Boy z
SN K
Zi p
Master s
âĳ ł
Champion ships
Pal mer
Yo shi
Nico nico
Lar ry
Demo cra
Qua simo
Arti sts
Intelli gent
telli te
Conne ct
ìļ °
Fai th
Invest ment
MIR ROR
ìĤ ¬
OKA WA
bg color
Frede rick
TARD IS
Quasimo do
0 13
0 65
1 N
1 202
4 B
5 100
5 400
7 43
9 600
A 8
A bi
A mp
C SP
C UB
C IE
D ru
D um
E xi
E ven
E mily
E asy
F ol
F is
F ood
F IL
G ap
G ia
G HC
H ori
J M
K W
K ent
M w
M and
M PC
N it
N IST
O LED
P W
P AS
P DA
Q 3
R id
T 5
W y
X e
a de
b by
f era
g ren
h op
h orn
k as
o g
p ta
s r
t ty
t ja
w ald
Ä Į
Å ¾
Ë Ĭ
ì ĸ
li ch
li ni
qi Äģ
le ry
di se
tu a
tu n
10 37
10 67
00 9
12 16
12 26
12 55
11 55
11 58
11 42
11 43
11 54
pi ta
or nis
la ri
14 18
14 94
13 47
13 67
13 74
in dex
ge ther
for ce
ï¼ Ĳ
ro t
si er
am ar
ãģ Ĳ
et ro
et ra
ãĤ ®
at t
SE L
Re ference
ver e
AT ENU
Mo ni
Se arch
Sta dia
Be lie
Sa la
Sh in
Uni ty
110 7
Pa th
Par i
Ri ot
ph one
Bu ll
Sp rint
ara cter
Na ver
ET F
Ni x
Po cket
Car ol
Ki ck
UN D
âĪ ¶
ting s
AV BW
AD HD
ori um
DA Y
Open MP
Pu l
Com man
Com mercial
Bi z
Comp lex
vel o
Bar ry
Per formance
ja ve
SC s
Vo cal
Univer se
Eu gene
lla h
Mark down
WTA 1000
Bra in
ï¹ Ķ
YP E
Can on
STAR SHIP
vs ky
Lau ren
spe cial
NE W
sch ool
Ros a
Mas on
Bel le
Cry e
Studi es
Den nis
Pho e
cul ture
TI ME
Arc GIS
Syn the
LU NA
Pap er
Pod cast
16V 240ZJ
Econo mic
Sus an
yun nan
Iso xys
Cong ress
tup let
CRH 380
Cali fornia
Challe nge
fil m
Oce an
Empi re
Cathe d
KAD OKAWA
0 23
0 62
1 B
7 39
7 63
A IT
E va
G l
H indu
J or
K 1
K CON
K night
N ak
P t
P le
P ot
R ow
R ho
S ad
S VO
V AR
V Tuber
W an
W TO
W RK
d 8
p f
p el
p ora
u u
v 2
Ë Ĳ
Ì ģ
Ø Ń
ê ³
li um
le h
le vel
ti k
qu in
di d
tu ng
lu r
ju n
10 H
10 14
12 28
12 85
12 73
11 19
11 62
er t
14 28
14 45
13 20
13 12
13 77
13 52
13 89
in ts
in formation
re gi
ro cket
si m
ra ce
lt alk
100 8
ta k
ma xi
of fee
et ta
ter n
ter o
ck ed
IN A
Ma ple
SE A
Re ady
AT R
ct y
op tera
un signed
Li li
De e
77 6
Le c
fi lter
AP T
Da sh
Da me
po ol
110 2
110 3
IT S
140 1
Ca se
Sp or
ble m
To Heart
To mmy
MS P
Ni m
Ju ne
DS R
RE AL
ps y
Fe deral
Col lins
Pe ak
Open GL
Ke e
Du ra
à¤ ¤
ren e
SP ARC
Per ry
GP T
cc er
Tra de
Pri vate
ora ge
WTA 125
Show case
Ab out
Her bert
day s
DE ET
Sha h
Lea der
CG I
space flight
ð« Ł
bel le
bili bili
Lau ra
Mag num
CF 3
Gener ation
Em ma
Island s
Fore ign
clo se
Envi ron
Gro ve
INN ER
JU ST
Ron ald
Alt o
XC 60
Shan e
C5 H5
Jus tice
MMO RPG
BLE ACH
Phy sic
Tex as
Frances co
Brad ley
allo cator
archi ve
STER EO
Hugh es
Kore a
Docu mentary
Llo yd
hed ron
sv g
figu ration
lamb da
ORI CON
Graphi cs
Seni or
Smal ltalk
CUB RID
ToHeart 2
0 21
0 33
0 43
0 53
1 b
4 300
8 X
A 6
A w
A my
B G
B orn
C 8
C 13
C it
C ara
D har
D anger
D ASH
E at
F U
F igh
F AA
I re
K ay
K au
L ET
M H
N ER
O O
O ber
O wen
P eri
P AD
P TT
P tr
Q T
Q i
R in
S 6
S 26
S cu
S DR
T HC
T OSHI
V it
V eri
V WF
W G
a ck
b l
c 2
f ol
g amer
i x
l n
n en
o h
t ton
Ð ¶
Ø ´
ë ³
ë ı
zh i
ch annel
li x
du n
le ne
le na
ti co
ti que
ku s
10 76
10 95
mi nd
mi ss
mi stry
12 48
11 18
11 31
11 45
11 78
la c
ar ti
ar an
14 23
14 22
14 79
14 82
13 27
13 57
13 98
13 83
13 81
for t
th es
re gu
ï¼ ¢
te ur
100 3
ma th
et s
il s
co c
co ck
ter nal
he im
ne ar
as so
Ma ck
In di
be st
Re port
br an
ver i
ba c
ba u
au d
SA AB
id al
Li bre
Me mber
mo ni
AM MA
Mo jave
con tinu
Jo sh
Jo int
89 3
Ga g
Be e
Be am
Sh ir
bu l
An t
An y
An alysis
ai re
MV V
SS P
110 1
110 9
Ri o
ph er
He i
He y
Bu bble
Ca le
AS O
Wi Fi
end y
IV ER
To ng
BL S
ven tion
Fa ctor
we ak
Ru sh
ori o
Pu re
à¤ ¨
à¤ Ĥ
NO 3
Per l
Per fect
Har rison
EE EE
Gra ph
hy n
ï¹ ķ
Tho m
War ri
Universi t
737 MAX
cre w
Chu ck
Chris ti
she ng
ï¸ ģ
Smi le
Fin an
Ag ri
Eli te
Tur tle
Plan e
Wo man
CM OS
Res er
Mel ody
gre gate
âī Ī
Des k
á¹ Ń
FAT 32
Op ti
Medi cine
Commu nity
Stan dings
Blu es
mina tion
CAS H
COLL ECTION
Mid dle
Cul tural
Austra lia
Lor en
Pack age
Vis a
posi tion
Esp orts
Inte gra
wat ch
Git Hub
Evan s
TEP 70
Pl ant
Kota ku
ava ila
Shang hai
Exe cu
Cathed ral
0 18
0 46
0 32
0 73
0 93
2 O
2 PM
2 O3
5 200
A ki
B ed
B ot
C lay
C ant
D IN
D as
E 6
E v
E SA
E H10
F at
F itz
G 7
G 10
G 11
I o
I de
I MI
J ST
J UN
K G
K r
K amp
L il
L PGA
M 8
M oo
O cto
R 4
R at
R ang
R oot
R ange
S 8
S ri
S ki
S IL
T rou
T ree
V III
W AVE
Y U
Z IP
a ti
b ank
c ould
d B
f as
k Da
k ell
k ara
u sing
Ä Ł
á ½
ë §
ì Ĩ
li zation
ku ra
mÇĲ ng
10 65
10 55
10 57
10 94
12 38
12 39
12 93
11 15
11 57
11 79
pi e
an cy
an ensis
15 18
on es
la b
14 52
13 25
mu n
re al
re ll
re qui
re spon
me tery
ru p
ro e
ro te
ãĥ ¤
cu Ã¡n
cu be
ma g
ma i
ma to
ãĤ ²
he i
ne xt
Ma ya
Ma nga
In tro
be e
SE VEN
Co hen
Re la
na e
nd rome
AT T
op sis
ed ge
Li c
De ce
De stru
Me la
man s
Pro motion
con e
con tra
con fig
ran e
Se mi
Sta y
IS L
fi er
fi shing
JR A
ak o
So nic
AN ET
IP C
Mu hammad
Par ti
so m
Bu sh
Ca pe
SM RT
Con ser
Ge ar
Na te
IV B
Ju lius
Ste p
Ste in
112 6
AK B
RE M
No ve
For d
fu ll
SO LO
Col d
Sy mp
IA U
Ad ministra
Hu ang
inc lu
118 4
Open AI
HO L
Du o
Cor ne
RI SE
EX ID
Je sus
NH L
Dis k
El li
ãĦ ľ
Wal k
Games Radar
Hy dro
Hol mes
od d
tro ff
âĹ İ
Free style
Tru th
GT X
Wo RMS
CM AMMA
Tok yo
Han teo
Comic s
Ear l
âĳ ¡
lang uage
part ner
sin ce
OP EN
Law rence
âĩ Ĵ
tech n
Ima ge
pra cti
into sh
Fal com
Fort ran
âĤ ¬
LZ 77
Fl ower
Wonder ful
But ter
Jus tin
sea se
P2 P
WH IP
Well s
Afri can
Rank ings
PX A
Associa tes
Hig gins
1x EV
Chie f
Apri l
jap oni
0 16
0 56
1 D
1 199
B K
B ry
B ET
B TR
B ERT
C lu
C ris
D eri
D ATA
E i
E TC
F ed
G ard
G ang
G ill
G ring
G lass
I ch
I AL
J SON
K um
K ON
M 110
M amba
N SA
N TO
N ME
O MG
O EM
P ine
P itch
P seudo
R V
R ig
R are
R LE
R NC
R anger
R ights
S NA
S CP
S ING
T X
T AS
W R
W as
W INNER
X L
Y ON
a 2
b h
b ou
b lue
d al
e is
f r
h ind
k k
l va
m Äĵng
v u
y r
Ð ķ
Ð Ľ
Õ ¶
Ø ¹
Ù ĩ
ð ¨
ji ng
xi v
yu ng
li l
du m
20 S
le z
bi ne
bi ke
bi ns
di v
di al
tu Çİn
en er
10 22
10 90
10 85
12 13
12 57
12 94
12 92
ni on
pi cal
an th
14 31
13 23
13 62
ge m
th ia
ou ra
re i
me i
ï¼ Ĭ
lt z
cu it
se x
100 4
ma e
ãģ ¸
ãĤ ´
il la
ow a
he e
ne ver
IN AX
ve ctor
Ch amp
In dependent
500 00
64 00
lo v
be y
68 00
Co p
Co lum
vi an
ad or
ay o
Ro t
De v
Mi i
79 5
OS I
ap y
Le pto
CO UN
Mo ham
Te a
per son
Ne ed
600 00
AC M
Su gar
ent ry
Sa ba
Sa les
Lo go
An other
ali a
sta ge
IT E
IT Y
IT IL
IT ION
Par am
pp en
130 5
Con tent
Sp ark
En ri
Ba hn
AS V
To yo
To night
à¸ ¥
à¸ Ħ
EP ROM
Do ta
RE CO
Sch o
Lu ci
Lu ke
MO VIE
pa ck
SO HR
Gu i
Ru th
lin er
NG O
Com pi
vel la
Har vey
Willi e
Gi or
Tra vis
ser vices
UR R
hy po
Che y
Ku ra
ens en
Ani mation
PL US
Ele ven
Sur vey
Tran sit
GA INAX
whi te
Er nest
Met al
Dig i
SU MM
Ag da
Ger ald
temp or
fri end
Vir gin
Cry stal
form os
à¹ Ī
OM ON
Sig nature
Rus sian
Beau ty
Link ed
Regi onal
Poli ce
Comm and
sca le
dor f
Ah mad
Cru sh
vers ary
Secret ary
FI BA
Para dise
Philip pe
Mau rice
íķ ĺ
Rod ri
Bai ley
Cinema Score
Greg ory
beca use
Pere z
Manu el
NICO NICO
lev ard
POS IX
Pia zza
Ped ro
Display Port
Sophi e
Tensor Flow
Uta da
ê¹ Ģ
Calli gra
Aff air
yunnan ensis
Octo ber
Dece mber
Gring oire
0 15
0 24
0 48
0 47
0 58
0 69
3 S
B ED
B ron
C Y
C um
C rew
D ONG
F au
F os
F t2
F IVB
G ig
G are
G TA
G CC
G LP
H U
H um
H ai
I K
J A
K ri
K no
K 230
L ot
L SD
L ama
M 113
M ENT
N 6
P AC
Q F
R yu
S li
T at
T ess
U V
U kra
X a
X DC
Z y
Z im
a 4
a q
a x
a z
a ction
c 3
c lub
d t
e cho
k re
k el
m ble
p lus
s am
s se
s ol
t su
v it
z as
z ero
Â ®
â ½
ë ª
de v
gu i
du lt
du ction
20 32
le tt
su e
su rance
shu a
chu Äģi
di tional
tu ne
tu ber
en os
10 34
10 44
10 87
10 93
men i
mi l
12 10
12 49
12 51
ni i
ni sh
11 52
an ne
on so
la sh
14 10
14 11
13 36
13 44
13 59
13 61
13 95
in di
in stru
ge ome
25 K
25 T
st ol
re x
re us
re vision
ï¼ ĥ
ce a
ce o
100 7
100 9
ta nic
ma h
35 000
co hol
is en
nu ng
nu ll
46 A
Ch ow
Ch as
Ch ing
In si
In dex
47 00
The o
Re i
Re in
na y
ba y
58 00
400 00
Li on
ur y
CD C
98 A
ap o
CO O
ction ary
Mo st
Pro vin
Te e
120 5
120 9
AP H
Di o
ok a
Su lt
So ccer
ali st
HD R
SS D
Pa ta
SM TOWN
Sp a
ste p
ste ad
Ba sili
den s
den ts
EN CE
à¸ ¢
Inter face
Th ink
My Radio
pro cess
ari es
Lu ck
AG B
Sy m
DR T
DA O
MC A
cor ding
à¤ ¦
Bar on
ling ton
Mac intosh
Tri ple
Is ra
Gre y
Nor mal
tra ck
El la
ces sing
ï¹ ŀ
Che ng
Che mical
UE FA
Spe ak
comp u
comp any
ves ti
Pan zer
Offi cial
Sci enti
FF T
Dan cing
Phil lips
SR P
Pala ce
Sil va
OM R
Cas a
Gil bert
AX N
DI Y
Clo stri
Johan nes
Band ar
stan ding
vat ory
Sto ck
S4 N4
Mit chie
Jeff rey
Communi cations
Kenne dy
Industri es
VIS ION
Lun ar
Adven ture
Ey es
Nel son
Tot al
Arn old
Aar on
Vla di
Spen cer
AVBW U
Phoe bus
Ire land
coc cus
Finan cial
availa ble
COUN T
Linked In
0 35
0 86
1 201
5 300
6 K
8 56
B ER
B rea
C 12
C es
C ano
C offee
D MA
D ere
E k
E NA
E ry
E state
F W
F en
F AD
F DG
H 8
H 12
H ang
H oney
I LO
I rish
J IT
K ind
L at
M 7
M 16
M 41
M eri
N V
O k
P Q
P AO
P ont
R AC
S andy
T su
U lti
V es
W ard
W hy
Y 2
Y ama
a 1
b ha
c p
c ana
d 3
d b
d am
e o
f ir
g l
g at
g lio
m pe
n os
p th
p si
q Å«n
t ree
u is
w s
Ä Ĺ
É Ľ
Î ¦
Î ¾
Î ļ
Ø ¬
ã Ī
ì ¤
ì Ĭ
í ĺ
ï »
de li
de ad
de mo
sh in
li pp
le ast
bi ng
ti tude
di l
mi ya
ni x
11 16
11 41
11 77
ar ts
14 16
13 35
13 38
13 32
13 84
re ti
re au
re sult
me la
me ter
ri te
000 1
ro se
ro ll
ro stris
si le
ãĥ Ķ
ta pe
ta nga
el ds
ma b
ãĤ ¼
co tt
ter ator
ck ey
is o
nu meri
Ma z
Ma ng
In former
ST EP
64 BV
Co ast
vi deo
Re ed
han a
ca le
ig ne
St ream
De b
Mi le
Mi litary
Al pert
ap pe
CO P
hi st
ry s
ran t
87 00
Ga le
Ar cade
ED M
ED 60
ER A
Su lli
po sed
Mu ll
ai c
SS R
Pa K
ster y
Par ker
no include
PS 5
Ca fe
Con cept
com mit
gra phic
den tial
ET SI
EP UB
âĨ Ķ
Po ol
112 8
CN BC
TA G
fu me
ko m
vo lu
AG C
Gu ide
cal led
ori an
Ad mi
Hu a
NC E
Hi de
118 1
HO USE
NO AA
ling s
Per fume
Ed win
Gi bson
NH 2
Gra y
Gra ham
Tra ck
Davi es
CL I
Ty ler
School s
ãĦ ı
Wal ly
ï¹ Ŀ
Nation s
Coun t
George s
Her mann
AO 3
Lea f
DM Z
sen et
3A 4
Lau nch
Fer din
ani es
data base
GE O
Cri tic
Ob last
à¥ ģ
EV ER
Ban G
launch es
Ren der
sin ensis
Publi shing
NM DA
SV T
What s
Cer vo
Leon ard
TH Q
Compu ting
Has kell
PRO DU
cto id
Ora cle
Round cube
Rail way
Intelli gence
Gy m
GRO W
sci ence
bucket s
artic les
sock addr
HY BE
Archite cture
exi t
distri ct
GIR L
Malay sia
Atlan tic
Ec lipse
Lud wig
Cana dian
9K 37
methy l
Anni versary
Jere my
Execu tive
Destru ctoid
XDC AM
PRODU CE
0 17
0 29
0 88
0 94
0 91
2 C
4 C
4 Minute
7 k
A men
A sp
A DV
A ES
A mb
B ing
B rew
C X
C 15
C 60
C lin
C ES
C 10H
D ry
D IS
E 4
E VA
E 233
F P
F oo
F TT
G os
G ur
G Sh
G HQ
H IDE
I d
I ra
I RES
J 48
L 5
L US
L IM
L AB
M ID
M We
M RT
M BE
N BS
O W
O le
O AD
O mar
O micron
P os
P DC
P INK
S n
T um
T ED
T FT
U 22
U AL
V ari
W NBA
Y Z
c ow
c ara
d 6
d son
f 8
f z
f all
f ford
g oo
g rou
k at
k tor
l b
l lar
m L
m ara
o mi
s end
y ang
Ï Ī
ê ·
ð §
gu el
ch ia
li es
20 77
su la
di sh
lu tions
en te
10 21
10 69
10 88
10 61
10 62
10 97
10 96
12 37
12 67
12 87
11 75
11 33
an or
14 17
14 46
13 48
in vest
for mes
al and
st le
th ro
re search
te le
ro l
si x
ra ge
ce du
ce le
se xu
se in
ta tive
el ma
ãģ Ĵ
ãģ ĸ
co in
co ordina
he art
IN I
is se
to k
Ma ha
ST OR
lo e
Co A
Co x
Co in
vi si
vi ties
Re e
Re co
ver al
ci li
ir s
St art
78 00
56 00
Me V
Me cha
Me yer
Mar ty
Mar io
Al cohol
BA BY
da in
AC AF
AP A
IC K
La mi
La tin
Ra j
Sa c
bu il
Bo e
Bo m
SS 2
IT H
IT X
ff y
mm ons
no on
Bu d
Con fe
Fi lter
Ti cket
Wi z
EN G
Ni ch
Do gs
Lu na
CH I
Ta g
SO AP
Cu t
Ru le
ori en
Fe e
je ctive
Hi m
Hi pp
mon y
gh ter
MC T
sy stems
Pu t
Ser ge
rea ched
Bri ght
San tos
fa st
fa ctor
Ed mund
Gi u
Gi use
cm 3
Tra in
Tra vel
sti ce
PO 4
out put
Pet ro
let te
OR F
Coun ter
Air craft
Chi esa
Ce metery
star ter
WE B
At ta
sto ma
ð« Ĭ¸
Euro gamer
Cro quet
you tube
LA Y
Ger man
âĸ ³
def ault
PD T
Mag gie
ìĿ ĺ
DDR 3
tia tive
Mini x
bro ad
à¹ ī
Cat alo
Frank lin
launch ed
Jour ney
Model s
C6 H5
Tre o
Elect ric
WO W
Deep Mind
hau sen
Hami lton
Ash ley
ext ra
bla ck
Kw K
Bos s
Haw ai
âĻ ¯
Din osau
Robin son
cep tion
Michel le
Feli x
Sel f
again st
crip tion
CONC ACAF
CR400 AF
BAS IC
ave x
ear ly
Leg end
BAC net
Rab bit
Plat form
Theod ore
Bap ti
Choi ce
Ox ford
fron t
Gusta v
Nf 6
OE CD
ALX 500
Caro line
Abra ham
FIL M
Chey Tac
0 39
0 66
0 77
1 G
2 2000
7 400
9 100
9 500
A v
A AC
A DS
C 16
C ID
C ET
D it
E ffe
F m
F AM
F AC
F AI
F RS
G Y
G 20
G ree
G row
H IS
H IT
H SPA
I UP
I bra
J W
J Script
K U
K il
L ily
M J
M N
M AR
M IPS
N ou
N es
N as
O V
O UT
P TC
P DS
P las
R 7
R is
R hi
R ace
S 5
S ort
S DO
T RI
T rin
T BF
U DP
V MS
X 100
Y au
Z 99
a lu
a chie
b ound
b ring
d ad
e pi
e qui
f old
i Pod
j ang
o 3
p pi
r k
t am
u re
u ri
u mph
v ard
v ine
w he
w all
y lent
Ã ģ
Î Ĵ
× ¨
× ľ
Ù ģ
Ù ĥ
á ¿
ã Ĩ
ê ²
ì ľ
de ca
de lete
hu i
gu ar
ch r
ch ing
ch ard
li day
du r
10 23
10 36
10 33
mi k
mi nu
18 000
12 98
ni te
11 17
11 34
11 32
11 49
11 72
16 000
16 GB
la ch
17 000
ar g
ar gu
14 37
13 34
in put
st es
th am
ou ght
me thod
ro d
si mi
si zer
ãĥ Ľ
cu lty
ta g
el f
el lo
co py
the se
ter m
TC HA
to day
Ma thema
In no
In done
ST AGE
it en
The ory
Re si
Re turn
ba cter
ca pe
os pha
78 X
ha ck
ur s
NA D
NA L
Mi guel
der ma
ï½ ľ
Al le
CO MP
Vi c
Jo shua
per s
ga de
da k
Se ason
AC C
Be ar
Be ck
ore m
La i
Ra di
Di ctionary
Sa me
Sh aun
Sh adow
Ja ke
Ja zz
bu bble
IP B
Mu l
Mu le
int en
110 4
che z
no de
PS R
Bu ck
Bu mp
Ca sh
Con sole
MS I
EP R
Ju lie
MP 5
ris m
Th elma
pro f
my r
Ex po
Ph arma
Ta q
SO HO
Gu in
Gu il
cy cle
oft en
ori al
Fe ars
MC B
cor d
Fran co
res sion
Mon key
Stu dy
NO AH
SP E
Bar bara
DO WN
BE J48
Or ganization
pha se
tra x
Ber ry
UR A
Super nova
ac cu
ac cess
Ac ti
GO T7
Che ck
don na
âħ £
NS F
im g
Air port
par enti
Sha ke
Spi r
229 E
Chu ng
Va lue
Chi ca
DM M
GA BA
LT D
Cla u
Tur ner
Res ort
Res ources
KK TV
Fun ction
AE G
KI Z
uni t
Code Camp
Part ner
Ven us
UM TS
Lan tis
Regi ster
Die go
dea th
Jen nie
app li
Spo on
CAN open
KE Y
ìķ ¼
Adam s
Multi Cam
Wel come
Jer ry
ELE VEN
speci es
free CodeCamp
âģ µ
VIS UAL
orbit al
Marsh all
FIR ST
Wid get
B7 RLE
Ini tiative
stad t
Apo gee
Tit an
valu es
conne ct
Swi ft
refer ence
Presi dent
hibi tion
Sui ca
Patri cia
Hoy ts
Lid l
gori th
LUNA R
bac teri
techn ology
RECO RDS
Basili ca
Clostri dium
Ferdin and
Giuse ppe
Hawai i
parenti d
0 11
0 14
0 25
0 28
0 26
0 84
0 82
1 197
1 mple
5 D
6 200
A pex
B J
B EC
C p
C RE
C SL
D Y
D id
D SS
E o
E th
E AS
F ru
F SB
F ollow
G Q
G es
G ren
H G
H V
H in
I con
I ES
I gna
J E
J IN
K hu
K ru
L ap
M AT
N X
P ig
P ai
R W
R um
S IV
S CN
S HR
S car
T Z
T g
T ank
T YPE
U ART
U senet
W EC
W CT
W WF
X R
X 200
Y C
Y un
Z 17
b Äģi
b ass
c tic
d 2
e qu
e di
f 1
g la
h ood
i us
j er
k ed
m oney
m Ah
n h
r h
r ine
s ent
s ource
s 1mple
t alk
v 1
w Çİi
w oo
Ä ħ
Å Ļ
Ñ Ħ
Ñ ĳ
ë ¬
ì Ľ
zh ou
li co
du al
bi c
bi lis
su c
ti ma
ti zen
qu o
di Ã¨
di splay
ju st
zi l
10 31
10 73
10 71
10 91
12 22
12 45
11 13
11 48
11 61
11 71
er or
on line
ar ound
13 66
for med
mu ch
re z
re stri
me x
ri dge
ï¼ ĵ
ra u
60 61
se g
100 5
ta to
ma k
co e
Ch au
Ch orus
In to
In nova
33 A
Co lt
vi ri
vi ta
br and
ig o
66 00
SA D
88 00
Li m
NA DP
Mi z
Me h
ap on
ap pro
Le u
CO 3
man a
Mo hammad
Jo Jo
89 4
ran o
600 V
Se i
sp ar
120 3
120 km
Be gin
ER M
Ra chel
Di ana
ID C
ID F
Su la
Sh am
Sh are
Lo ver
do cu
gi ven
ho c
ali zation
SS L
Pa le
Si erra
Ri de
so ci
130 2
Bu dd
Ba la
Ti tanic
sa w
à¸ Ľ
ler c
Do me
ya h
Pi ano
Pi etro
Car lo
Th in
UN O
Ph en
CH ILD
TO G
For mat
eri e
AG 600
Gu l
Ka bu
118 3
Pe w
Com bat
à¤ µ
Cor p
Bi shop
rea ming
DO I
Je ans
PP T
SC AR
SC AP
Pri de
lis m
ous tic
Fu ji
Star ship
ten ts
Wh en
As sistant
War ren
Spe ct
Blo g
Can al
bor ough
fo lia
Spi ke
Chu n
Ye ars
Tran sport
Ter ra
Ve vo
Ve hicle
Tor rent
play ed
Ros en
Jose f
Cla ire
oi des
Sky pe
war m
Fre sh
thi c
Camp us
PH A
USB 4
Phil os
AE W
Data base
Jan et
Bru no
Les lie
Pal m
cur rent
Tro y
Bou levard
model s
tre me
Nico las
Fro st
Mur ray
Mur phy
ENT ER
Cru z
wiki text
Anto ine
sist ance
nico nico
HER E
Def ense
indu stri
á¸ ¥
Ea gle
vir tual
Ita lia
Dead line
TRA IN
thor ity
syn tax
Shar p
Echo Link
CYP 3A4
xc 3
crea te
presen tation
fal se
muse um
Pow ell
ëĤ ĺ
Avi ation
cepha lus
Quali fying
Obser vatory
à¯ į
Prote ction
Asse mbly
WRK Y
ack nowledge
Affair s
Sulli van
Ticket master
Chica go
0 22
0 36
0 37
0 34
0 49
0 42
0 98
0 85
0 97
2 P
7 A
9 M
A 24
A ru
A to
A way
B low
D Q
D KP
E t
E GO
F as
F ET
F UN
F TA
F RI
F lex
G ad
G AS
G TO
H es
H AR
H orn
I denti
J as
J VC
K H
K ID
K ine
K ari
K HL
L TS
L 129
M ing
M ora
M HC
M 686
N ut
N orton
P J
P hu
P ru
P and
P han
P AG
Q 4
Q TE
R ISC
S d
S 10
S amp
S nap
T 6
T hu
T ell
T ION
U ser
V 3
V K
W ant
Z in
Z oo
Z IS
Z oom
a o
a ver
a way
b ÄĽng
c ru
c ere
e 5
e cono
f ro
h ir
h ot
k or
k al
n als
o st
p un
r 2
s n
s per
u lation
v ul
w u
z Çİng
¹ ¬
Â ¬
Ä ĳ
× Ł
à ª
ë Į
ì £
í ĥ
ng u
sh ir
sh ould
ãĢ ħ
hu a
gu es
li en
20 38
19 S
qu ad
chu ng
di on
ju Äĵ
zi a
ku l
en ing
shÇĶ n
10 A
10 28
10 89
men s
mi le
mi se
mi no
mi nus
12 23
12 31
ni al
11 76
11 74
or es
an alysis
la l
la tor
13 21
ge on
al la
th s
re lation
me e
ri k
ri de
ri on
te a
si tion
si us
si um
ce ae
se ason
el ler
ma li
ma la
ma ss
ma tor
at ro
ow i
co st
the a
IN LW
to o
ST AF
64 DD
Co lin
Re x
Re y
ad vance
ci onal
oo ting
ay an
St ories
ha vi
Li ver
ur al
Mi che
Mi ka
Mar ce
Al fa
BC G
Le arning
AM L
AR TS
Te en
Te xt
ga mes
ran a
da h
Ga z
Ar row
AP ER
âĶ ģ
Lo bo
do main
bu ty
AN GE
We verse
wi cz
110 5
Pa in
Pa blo
che ck
Si mple
ff in
Ri vella
130 1
130 3
SM E
SM P
Sp ar
PC A
En sign
Ge off
sa me
à¸ ¸
à¸ ĩ
Ni e
Ju ng
âĨ ĳ
MP 7
US D
AK S
Sch mid
No tes
UN IQ
Au di
AV O
MI ME
SO D
LE I
cy c
Ru na
Ru bber
pu k
CR 200
ree ment
Ad ap
del le
Open street
NO T
RT X
EX R
San to
HE LL
Har per
ja va
ring ton
LO W
Gi ba
Tri bu
Tri nity
Tri umph
PP I
Vo ya
PO VM
ex p
Show time
cle f
Ab el
tis m
AB CD
Ani plex
Hol y
PL G
Boo ks
fo glio
zo g
Va le
Hel ler
ator s
Black bear
GA Z
ð« Ľ
bel la
GM RES
stitu tion
Rock y
spe ct
Mil lion
Eli sa
Cha se
BU M
ele ment
KI LL
MT U
chel ys
ag gregate
kar u
Des tin
clo sed
Out look
Gro ss
SHO OT
add ress
Way ne
Joy ce
Poli cy
Leon ardo
DL U
Tre at
Beat les
wiki pedia
size of
With out
Crea te
cul tural
Sti ll
Fron tier
Sca le
After noon
ITV 4
Sho ck
Siri us
pl c
Bit Torrent
Tam an
high light
hal f
Hero es
Ita lian
Stri ke
constru ctor
count ry
cam atan
Deuts ch
Match day
NAT O
Ted dy
ð° ¹¬
Arm strong
Fea ture
proper ties
quar ter
spor tation
Gabri el
Muni cipal
sr c
Synthe sizer
Lec lerc
hyn chus
Integra ted
SEVEN TEEN
Lic ense
Deri ved
DONG KIZ
Isra el
Vladi mir
numeri c
Mull vad
cedu re
Lami go
Confe dera
Ibra him
SHR DLU
syntax highlight
Openstreet map
0 19
0 44
0 59
0 92
2 M
8 A
A lu
A zi
A id
A ka
A ctor
A mar
A cid
C MP
C lan
C amer
D W
E CO
F ir
G 5
G J
G Pa
G las
G rea
G CM
G DB
H AP
H olo
H APP
I ETF
J ak
K R
K yle
L J
M ig
M CO
M IP
N W
N au
O B
O ak
O FF
P SA
P ana
P H2
P FA
Q 2
R H
R 16
R NG
R AF
S 9
S wa
S kin
T K
T il
T rea
T idal
U TA
U FS
W 3
W ool
X in
a cu
b ore
c 1
c d
d 1
e th
e How
f 2
f el
f are
f ps
f esti
g 2
g am
g ara
g art
h m
h all
i or
j ara
k ind
k ill
m Äĵn
n Ã²u
o ch
p x
p our
q a
s ou
t ti
t ter
w d
x ton
y am
y et
É £
× ĳ
ë ¡
ë ¯
ì ²
hu b
gu l
ch or
du ce
20 33
le c
su p
di r
tu la
ku r
10 48
10 58
10 77
10 98
10 84
mi llion
12 33
ni fer
11 12
11 46
11 64
11 67
11 56
or din
er ry
la in
la tt
ar u
14 000
14 36
14 73
13 22
13 39
13 79
13 53
in ha
ge bra
for k
mu l
st ant
st om
th in
me ss
ri ca
ra k
100 m
ta ke
ta lis
ma ti
ma ge
ma cro
ma nia
et o
IN V
nu cle
Ma li
Ma le
Ma ni
ST UD
SE GA
The se
vi vo
Re bel
ca ta
ca ster
42 V
au f
57 00
SA C
ly s
id s
ha b
Li u
Ro le
De O
ber ger
Mi G
Al lan
ty pen
ang u
98 60
ap ple
BA E
CO B
hi story
Mo to
Jo lin
Jo ker
1000 00
da i
Se ction
Se xy
AC A
Be ver
IC LEI
La te
La dies
Ra fa
Su ng
Sa ga
Sh en
ON T
gi um
gi ving
mer ce
We ber
sta ck
wi sh
SS RI
our s
pp y
Ba g
Ba ba
Fi gu
shi ft
Na than
IV PP
EN S
To dd
AL BUM
Ha ven
BL G
Ju ly
Ju les
Do ck
RO Cm
AK A
My ki
RE APER
gn at
âĪ ĩ
oun ced
Lu cy
ll on
Fa v
Au d
CH A
Qu al
len sis
Ta wan
eri c
SO I
AD P
Go ver
Fe i
Sy d
GB U
own Cloud
net work
BM C
Hi karu
Pe tit
Ke i
ning s
Com bi
Mon u
à¤ ª
à¤ ¸
Cor ps
SP EC
Bar th
Bar nes
Bri ng
San thal
with in
with out
EE G
Tri logy
Is la
mb ol
bli o
include d
Pri son
127 47
CL R
Ber t
Ber lin
ser ver
Fu l
Fu sion
ano v
ex peri
Wal lace
tri x
Pet ers
Mat ters
Che mistry
bit al
AB B
PV C
FM EDA
UC IL
comp lete
High way
Spi der
her ty
At las
KBS 2
Jack ie
Win Zip
EM BA
Py Qt
Time Signature
VO D
Por ter
Fer r
SU GO
Pra i
Tour nament
fra g
WS BL
Ama zing
zz le
Bel la
Vir tua
How ever
Camp bell
Camp aign
KK day
MU K
áĢ º
sur face
Phil lip
Lon Works
Cri me
Mana ger
Bir th
Ob jective
à¹ Į
Pas sion
Os car
Cur tis
Block berry
oc cur
Real ly
Gran de
Sm all
Regi ment
Die Pie
Ath le
Tan foglio
áĥ Ĳ
Sor ry
WO WOW
Ah med
CAS P
stu dio
KE LT
Wiki pedia
Ima gin
Market Ax
Rou te
Wire less
Hea th
Round s
print f
Kit ty
âĤ Ĥ
Mes senger
Buil der
Standard s
Flor ence
Cook ie
dire ct
Maker Ville
Saf ety
speci fic
Hand s
Stru cture
IMD B
052 D
Morning star
Industri al
Wri ter
Adven tures
ð° ¾
differ ent
CR400 BF
Metropo litan
cour t
Alber to
âŁ ¨
âŁ ©
ê¸ °
Bli nd
ash tanga
ëĭ ¤
Mine craft
Kry o
Scot land
PART Y
ð«ļ ª
Kick starter
Biz Talk
JUST HIS
Figh ter
Toyo ta
Gior gio
Kura ki
Sult an
Admi ral
buil ding
Yau tja
Pew DiePie
ëĮ Ģ
Runa way
numeric TimeSignature
typen ame
Virtua Real
MarketAx ess
0 27
0 31
1 196
1 193
1 187
1 UP
2 G
2 H
7 200
8 300
9 200
A 10
A te
A ber
A QU
B les
B MI
B har
B c4
C 20
C 79
C SM
D ana
D ARK
E qu
E re
E AC
E MC
F ing
F EC
F TP
G AR
G AME
J ing
K 12
K yi
K orn
L Y
M 20
M 14
M Pa
M EN
N TV
N ano
N VS
O BS
O LE
O VER
P z
P ON
P 450
Q 1
R he
R AIL
S la
S DP
S ight
S ons
S ession
T AP
T win
U BA
W IN
W MI
W CF
W ADA
X II
X HTML
Y am
Y ing
Z 1
Z 48
Z K6
a 8
a v
a ther
c it
c out
d 5
d h
d ru
e 4
e X
e z
f MRI
g lu
h Pa
h old
i u
k aya
m Äģn
n c
n dez
p c
p ai
r n
s ke
t hu
t mp
w l
w ara
y y
y asa
z or
Ä Ĳ
Ä Ļ
Æ °
É ĳ
Ê °
Î ®
Î ĳ
× ª
Ø µ
Ù ī
ì ĥ
ì Ī
ð ©
ng en
de e
de st
de re
sh ort
ch ampi
20 48
bi es
ti vo
chu rch
di ni
di lla
di sease
10 13
10 39
10 68
10 53
10 83
mi er
12 V
12 88
ni ne
11 36
11 69
an to
la bor
13 16
13 26
13 31
ge ts
for ms
24 K
st own
me da
ru le
ri m
te ng
ra le
se p
ta t
ta an
of fer
bo ve
Ch al
Ch ess
Ma donna
In finity
ST E
lo on
lo op
lo ss
be ck
SE S
Re gina
ca pa
op us
mp er
St y
St orage
un til
ha bi
Ro gers
De vel
ss en
tou ch
CD RI
Me g
Me li
tw a
OS CAR
ang o
Le v
BA R
CO LO
mo v
mo ng
mo du
mo di
AM PV
man age
BS AT
Mo ha
con du
con tain
con tent
Te ng
Te ars
Ne XT
Ne xon
Se bas
Ar ound
ot ri
Da w
ok i
Su mo
ent on
MA O
Tu l
Sh ort
rou te
mer a
So C
ho ng
We e
HD MI
SS H
Pa c
che i
mm ol
Ri cky
so de
so lute
Bu gs
Ca f
Ca mi
Ca ke
DV B
En cyclo
Ba b
Ti mothy
gra ci
AS IA
end l
ill on
Na ta
IV A
à¸ ļ
Ni pp
cro wn
Ste fa
AI BA
Ho mo
Do c
US GS
Car r
Th ings
My stery
Net works
gn es
Lu c
CN S
CN ET
Ph ra
we ight
we ek
Ru d
ori e
IA ST
TE A
DR M
Ko h
sy lla
sy mbol
Pu b
tin ental
Mon ta
ner f
Cor ner
fli ghts
Comp lete
RT M
SP O
DO M
GP 2
BE A
PP A
Gre ene
Or che
min ton
CL UB
Mor ph
gue z
GO OD
GN Z48
CS X
pre di
ona le
War s
AB P
PL AY
SQ U
King s
ena ble
Chris tine
Up per
gar h
Fri tz
Ci vil
EF 52
ann ounced
Ve ctor
Min or
Lau rent
publi shed
Inc lude
Tele com
sha w
Gal lery
lea gue
phy sic
BU G
PD W
dd le
âī ¡
á¹ ĥ
Stra te
COM IC
âĳ ¢
Cho Co
VV V
mor ph
Imp erial
PT FE
Beat s
Ami r
Fro g
fla g
FIN A
Alt er
Kir ara
SON Y
pos sible
Arti st
1080 p
Bau er
Ea stern
Jes sica
Chap ter
Nam co
wri te
CIT Y
CIT ES
Bug Bug
xc b
CRH5 A
Album s
MED LINE
Chee ms
Brook s
CONC ERT
GIR LS
aes pa
edu cation
ìŀ Ĳ
varia ble
kir che
Schi ff
CR300 AF
E9 E9
plot lib
Proper ty
recei ved
Spiri ts
Belie ve
Leader ship
Libre boot
Shir ley
inclu ding
Elli ott
SUMM ER
geome try
COUNT DOWN
Ulti mate
ìĬ ¤
Whats App
ENG INE
Guin ness
MCB MSP
bacteri um
Phen om
ì£ ¼
Schmid t
ð«Ľ ļ
HAPP Y
mess age
Kyi v
NVS RAM
Devel oper
0 75
0 57
0 51
0 74
1 da
2 250
2 GB
4 S
6 300
8 600
A in
A lo
A da
A very
A dult
B ound
C TC
C RO
C row
D ro
D il
D 32
D AC
D IC
E un
E 130
E PS
F BC
F ont
F VP
G li
G ir
G ing
G ly
G ent
H AL
H MC
H ALL
I WI
J ou
J AS
K ro
K wan
K rish
K fz
L CS
M 50
M AM
M RS
M ama
M ass
N Z
N ap
N DS
N ina
N SC
N ero
O 5
O la
O UR
P 3
P 6
P Z
P f
P ing
P TS
P lease
P TCH
S as
S ap
S PS
S can
T J
T ry
T ON
T ari
T sing
T ASC
T etra
U Z
U SM
V on
V AD
W ig
X SD
Y er
Z ach
Z ARD
a ward
a cc
b ly
c las
f ine
g ow
g ore
g gle
h in
h ra
h art
h eld
i Heart
i dea
k J
k l
k la
k il
k os
k ina
n ÄĽi
n ana
o don
p ace
p ler
p ton
r ina
v n
v us
x s
x d4
y Åį
z ai
Ã ĩ
Ã ľ
Î ł
Ð ¤
Ð Ĺ
Ñ Ĭ
Ñ į
× Ķ
à ¶
ë ĵ
ì Ļ
í Ļ
de g
de le
gu r
ch ts
li ttle
du e
20 46
bi nd
su i
ti te
ti ali
ti sta
ti lla
tu ring
en v
en to
10 W
10 45
men sion
mi mi
mi an
mi ra
mi es
mi ll
18 F
12 89
12 96
12 81
11 51
or al
or gani
la x
la tions
13 54
in ed
ge dit
mu ni
al bum
st ay
re li
re ich
re lease
re move
22 22
ri se
ra in
ra il
ãĥ ¦
am y
am or
se ctor
ta ta
ma u
ma trix
co pe
co ding
IN ET
IN AH
bo lt
ve hicle
as se
to on
In side
In stal
64 BM
lo go
be lie
be cca
The ater
Co on
Co co
Re lease
na ti
oo th
ca li
ca ted
pe u
au s
ed a
Mi les
Me a
Mar vel
der son
BC I
ang a
Le vi
53 K
Vi ktor
hi o
hi de
Mo vi
Mo ther
Mo vement
va li
con ds
Jo an
Se cure
Se asons
Sta t
Be ing
IC EF
son s
Ra pid
Ra hman
Sa ve
So m
So lutions
ho m
Mu ch
tÃ¹ n
IT ER
Pa olo
by te
mm ar
so ap
Ca therine
SM N
Con tinu
com b
Fi lip
Ti bet
gra phi
Na val
sa id
ka was
ka wai
à¸ ķ
Ni gel
BL O
BL ITZ
Ju lian
MP A
AI K
ant hus
Th ing
My Video
Ki ha
Ki Ro
Sch a
Sch wei
No de
CP AP
UN ICEF
my ces
Fa culty
Au dition
New Jeans
Ex hibition
AV N
CC C
LE E
LE O
BO YS
IG M
Sy l
Ka la
IA NA
je ction
Ad vis
Hu dson
ze u
BM NH
Pe te
tel la
mon o
Open NIC
Ko ch
Com merce
Mon a
à¤ ¯
LL M
Bri stol
LO V
Gi ant
NH 3
PP Po
Or ga
Tra cker
min ary
CL C
Vo LTE
SH ISH
sti ll
ero y
Wa di
ten s
ãĦ ¨
tri e
HC l
Mat ter
Mat erial
VA X
DD K
KP L
xy gen
All Music
War ner
AB BA
dis c
Web b
par k
par ty
fo x
ming ton
Bro ther
SK T
SK Y
FO MA
UT 1
Recor d
Cent ro
Alex a
Alex and
Shi ning
Shi ft
play er
LT M
NE O
you ng
fra structure
Richard son
fri ed
Mas sa
Fre ak
var man
ìĿ ¸
kin son
ðĲ İ
Ear ly
CV T
à¥ Ģ
HTML 5
Que endo
Wat son
Cho co
Edward s
tas tic
Sig nal
Trans form
blo g
Cam bridge
DL SS
DMS O
Elect ro
Pho eni
pat en
Oli via
sor tium
Dark ness
Kin Ki
stre l
WOR D
Hon or
Hon oura
Bad minton
PB PK
0x 5
Hal f
media te
EG FR
Mos aic
Ret ro
Rol l
cula ria
Gam bas
Econo mics
shan ensis
Abdu llah
Nan cy
Wolf gang
Ster n
wind ow
MIC H
Rand om
Sid ney
gener al
Gon za
Kap pa
Experi ence
Kiii Kiii
FRE E
Fern ando
Quake 3
LMP 1
squ are
Leop old
Labor atory
Feed ly
Ast rono
B8 L
à§ į
Ark ane
Speci es
Jor ge
Danger ous
Veri zon
Thom son
requi red
Conser vation
Bry an
Gard ner
Pitch fork
ð¨ ¥
Cano nical
Boe ing
IUP AC
Kabu paten
advance d
Destin y
Camer on
STUD IO
SUGO CA
graci lis
kawai i
SHISH AMO
Queendo m
Honoura ble
0 64
0 63
0 89
0 72
1 s
2 187
3 B
3 E
4 th
6 LX
A ya
B ond
C 11
C IS
C TO
C res
D LE
D IG
D 3D
E co
E AN
E dit
E SET
F el
F IS
F SS
G X
G le
G one
G ott
H 7
H TV
H ak
H our
H ari
H old
H off
I 2
I MP
I vy
J ig
K Y
K AT
K aki
K iller
L n
L IT
L TR
L ys
L INK
M 18
M int
M NH
N in
N ine
N BL
O X
O z
O il
O IC
P IN
P ir
P ry
P UA
P USH
Q 6
Q AM
R ST
R AR
S J
S it
S MA
S IP
S BD
T c
T GM
V ig
V AN
W he
W ed
W BC
X V
Z 4
a ted
a cade
b ene
c ss
c era
d ding
e Bay
e Mule
f 3
f ood
g Ã©n
g old
h len
i denti
k au
k ker
k now
l ou
m pi
m als
n ders
p lu
r 4
s q
s tin
t RNA
w x
w inter
x 64
y as
Å ĵ
Ê Ĥ
Ì į
Ñ İ
à ·
à º
â ¾
ë ©
ë Ĭ
de ter
de us
de mon
sh am
sh ot
sh ine
hu m
li g
li i
li ÄĽ
li te
li nd
li bre
su me
qu ency
lu me
10 29
10 38
10 64
10 41
10 52
10 74
10 92
ni us
11 Z
11 65
11 44
la g
la ted
la zy
ar in
ar na
zu m
13 18
13 11
mu ra
st op
re si
re cur
re cogni
ri g
ï¼ £
ï¼ ¯
ï¼ ĸ
te i
ro ng
si d
si w
si bility
ra w
ra di
am bi
se seo
100 km
ãģ ¼
et c
et z
ow e
co ming
and ler
ck o
37 50
as ana
to ken
Ch el
Ch ance
Ma sh
Ma di
Ma da
Ma chi
Ma cross
In t
ST O
64 GB
lo se
vi i
Re ve
Re becca
br y
ci on
ci ple
ci dent
ba g
pe ct
pe ak
59 A
ha in
Ro me
Ro gue
De c
De si
De pu
77 00
Me xi
Mar ti
Le cture
BA D
BA ND
CO R
mo bile
Vi ce
AM N
AR IN
va le
per sky
ga ta
ga ard
da cty
Se y
Se at
sp ot
Ar g
Ar s
Ar gen
fi ve
La z
La bel
Ra g
Di ver
Su pre
Su made
Sa v
do g
gi cal
po se
So ck
So lid
So bol
ki a
che e
ster i
Ri sing
ph in
He at
no te
Ca ta
Ca sio
Ca pit
SM S
Con figuration
PC B
Ba c
ET A
sa tellite
To ys
EC S
Ha sh
MS N
Ste el
MP LS
Do herty
ya va
Pi ck
Car s
Th reads
RE FL
No vel
ari um
Fa me
Fa bri
Ex ping
CH 4
TA IN
Ta les
ko va
BO Y
AD D
AD L
Fe 2
Ka z
Hu go
ES B
118 6
pt or
gh er
Open Critic
Ko ha
ATP 500
ATP 250
Com peti
à¤ Ĺ
vel and
line ar
Bri tain
Har mo
CE SS
NH 4
NH MUK
PP D
SC SI
Gra f
Gra m
Or l
Or ni
Tra m
Ori en
Davi chi
128 GB
stra te
Wa les
PO W
Don ut
Wal king
tri ple
any on
Che er
pri mary
ens chaft
RC 5
Air lines
IR AL
Hy de
MG H
Ben z
MB T
Blo om
TP U
Sha w
bor g
comp anies
Va ni
Pat tab
Produ ct
Ce vio
Fri day
iss an
Tech nical
Ci der
space craft
Ter esa
Gar cia
Win Win
Sam an
if config
Por tu
pla ced
SF 2
B2 B
BR B
sign s
sign al
PA SS
Good bye
CT U
sha pe
Gal li
GT K
PR ISM
fra c
Tur n
cil lus
VR DK
Res pon
kh of
MU D
áĢ ¯
Sco pe
uni on
á¹ ĩ
jo y
Wat cha
Bor is
JT B
hr er
SHO CK
âĭ ħ
Over ture
nor mal
Dol lar
cast le
Ara b
CB T
char ge
IB NS
tech ni
Lam b
stu dy
Hun t
Town ship
Post Script
Rou ter
lau me
Base ball
Fo ster
Sin ce
Ap ol
Dyna mic
tera ture
Alli son
Jer sey
Bet ter
Than k
even tual
Seven teen
template styles
ext en
Rol and
Shu ttle
bour ne
produ ction
Communi cation
defea ting
sci enti
Hein z
eng ine
ìĦ ±
beca me
âĬ Ĩ
Edi tor
Ay yava
XY Z
Electronic s
Sele ction
Lyn n
Cher ry
Regu lar
fl ora
Maj lis
girl s
sequ ence
comm on
Inf ant
Form osa
Kas persky
Pear son
Ore o
ITZ Y
xml ns
Certi fied
êµ Ń
ffici ent
compon ent
Pel key
effe ct
Pul se
Lili th
Reser ve
Trou ble
fas cia
Nove mber
Administra tion
japoni ca
YON EX
Colum bia
Enri que
formos ana
Zim mer
Dere k
ï» ¿
Amen d
CR200 J
Elisa beth
SHOOT ER
Jak ob
gnat hus
Syd ney
SPEC IAL
Orche stra
Coon ley
Pattab hi
0 68
0 71
1 C
4 100
7 300
8 400
A ch
A SM
A tt
A muse
B ere
B PM
B run
B rough
C d
C 17
C 24
C SA
C un
C rist
C anyon
D 8
D at
D ow
D TC
D AN
D BE
D oro
E H
E sta
E ight
E WS
F NA
F AR
G an
G 41
G ara
G lor
H f
H r
H of
H IP
H SS
H ass
H ook
I LL
I dea
I terator
J ED
K t
K ST
K AN
K 101
K ane
K laus
L 3
L AC
L ance
L igh
L ens
M Q
M t
M AP
M ER
M SM
M 1917
M TA
M ental
N gu
N un
N c3
O 6
R J
R 11
R el
R EC
R ous
R ene
S na
S ed
S ka
S WE
T Wh
T 3A
T LS
T UNES
U m
U tri
V 60
V IA
W itch
W ASP
X 3
Y Y
Z 3
Z F
a pi
b 8
b t
b be
b one
c ence
d ora
e 1
e gel
f au
f one
g ha
g wick
i p
i tu
i mi
i KON
k N
k w
k ap
k ok
k ine
m ba
n ter
o e
p seudo
s ound
t te
t xt
v 3
v na
v ot
w c
y x
y en
y ama
z d
z ers
Â ¹
Â º
Å ½
Ð ¦
Õ µ
de nd
de velopment
xi e
gu ng
ch ara
li ft
du k
20 36
bi ll
su chus
ti va
ti ka
ti cus
ti enne
di ch
di ed
di ff
di no
lu nd
en ig
en ia
10 th
10 26
10 79
10 82
mi RNA
12 69
11 59
11 63
pi na
pi lot
or ang
or row
er on
on to
on ka
la go
ar ing
14 63
zu r
13 42
in son
for ming
al li
al ter
st ler
st anti
th reads
re trie
ri cum
ï¼ ĺ
si p
si en
ra cy
se i
ta h
ta ct
ol l
ol an
el ong
ma ch
ma ta
ma cula
ãģ ľ
et ero
il lu
il ly
at tribu
at ops
ow el
the orem
ck le
ne e
bo o
Ch ong
Ch ronic
Ch aracter
Ma e
In surance
lo a
be gan
The ir
Co py
vi dence
Re f
Re id
Re ality
ad s
ad ows
ci e
67 00
300 1
pe z
AT V
NA VER
De ck
ber i
Mi kha
Me et
Mar tha
OS D
OS PF
Al lo
ty pes
Le ary
53 E
mo i
mo le
mo on
Vi vi
Mo ment
Mo nica
Mo tif
da city
Se 2
IS N
fi lt
ED ITION
Be i
Be th
Be it
La f
Ra o
Ra dical
Sa i
Sa w
Sh el
Ja guar
do es
gi an
gi ft
po mo
AN T
An nu
We in
Bo ston
wi re
Si sters
Si mmons
ff en
pp le
ph ra
ph ere
130 6
no tes
Bu kit
Ca th
SM ART
Con tra
Con tents
Con sortium
Ti an
Na z
Na tura
fe el
ther apy
To ols
à¸ «
Ha v
Ste lla
Wor ds
Do es
ya ni
My s
pro blem
Sch latt
gn er
UN IVER
FC S
Lu x
âĦ ¢
Fa st
Au thority
Au dacity
MO RE
MO VE
Ta ku
pa ge
MI M
SO V
SO UND
LE SS
cy to
Fe ar
ron d
TE U
Ad olf
Hu ng
118 2
Pe er
DA HL
Open CL
Open Solaris
HO Y
ATP 1000
Ke camatan
Ke pler
Du tch
Stu r
à¤ ķ
NO C
Cor n
EX E
ML S
mar gin
DO ME
Har u
ja h
Je ep
Ed gar
Willi s
tur ns
Mac Book
Gi an
mb ar
Gra de
Gra vity
que z
que st
Game Spy
Game Rankings
Ber khof
ano ther
Mc Ken
WTA 250
HC V
Mat rix
stri a
AF S
AF T
Wh is
car go
All Star
Hy dra
MG 34
Eng el
Hen derson
Blo o
TP MT
ast rome
Ele anor
cre te
oly n
Fri e
iss enschaft
RA ID
HI RO
bra tion
CA SE
256 GB
M2 A4
ð« Ħ
ð« ĵ
Ang ular
GM T
Tor re
Bur n
Bur ger
Bur ns
Sing les
Cap con
Offi cer
Ger ard
Pra da
PR IN
218 6
Ama z
Sal vad
XP COM
VM ware
tran sport
dra co
sub ject
Zi on
Pen n
Cri minal
Tom orrow
Fra ser
Phi lips
Bal lad
Jan us
Bir ds
GR AIL
CV S
bet ter
hur st
Bor land
Poly gon
Lan cer
Cur ry
Cur rie
hel p
hel lo
pres sion
Cli mate
Cir cuit
Poli tical
Clo se
fea turing
Den is
Jen kins
Nico le
pat ch
Set ting
mina te
Kin der
Cou p
Distri bution
Fo cus
Dun can
ðĲŃ ł
855 12
Clar ke
Med al
Mes sage
Mont ju
plan e
PCI e
Some where
RB W
Test B
origin al
bour g
Memori es
Bas in
Neu ro
Appli cations
Jes se
cap su
Liber ty
Liber ation
Eri k
Dal las
Lind a
RSA SS
Cos mic
Shar on
CAP COM
Kur t
Socket FD
Afri ca
âĬ Ĺ
Emp eror
fini tion
hydro xy
sw ap
mea sure
Number s
Isa ac
Tas k
Psy ch
gge d
ê¸ Ģ
Deli cious
Ass ault
Cele bri
ìĺ ¤
pap er
MOMO LAND
Histori cal
Fis cher
Gia como
ìĸ ´
Comman der
Gl ory
Dura tec
Environ ment
Physic s
asso cia
Warri ors
Loren zo
HOL BORN
SING LE
Moham med
MID I
coordina tes
Bapti ste
Spoon z
TOG AF
ENTER TAIN
ARTS VISION
buty ricum
Voya ge
ë¡ ľ
Figu re
Aud rey
Moha med
Gent le
PPPo E
Depu ty
REFL ECTION
Ayyava zhi
Utri cularia
DAHL IA
ENTERTAIN MENT
0 38
0 95
0 641
1 188
2 185
2 H2O
4 GB
7 R
A 27
A be
A SA
A BL
A sy
A WS
A DSL
B j
B ard
B MA
B TO
B ren
B TS
B ass
B hd
C ay
C ly
C TV
C ai
C EN
C ort
C ald
D BC
D roid
D NF
D rum
E W
E h
E la
E in
E ra
E 40
E vil
F ig
F ant
F ans
F PGA
G b
G rou
G MP
G bit
H 14
H mm
H end
H eri
H MG
H its
H ONG
I b
I u
I MS
I tem
J ess
J ero
J ECT
K 5
K 7
K 8
K ni
K 15
K nu
K AI
K BE
K 232
K 308
K ISS
L LE
L unch
M b
M 1911
M CP
M ene
M ISL
N II
N vi
N ai
O pi
O RO
O CP
P v
P 15
P is
P ok
P ME
P ren
P ABP
R L
R IF
R PM
S cri
S IX
S late
S ATA
S ket
S lot
T ill
T MS
U ti
V J
V au
V era
W 52
W AP
W endy
W ITH
Y R
Y ar
Y um
Y LE
Z r
Z eni
Z hang
b ling
c v
c lay
c ina
c ens
d ana
d ance
e va
e ight
e ye
f ru
f ony
g ine
g by
g ory
g gy
m bo
p Ã³u
r r
r hyth
s 2
s au
t one
u er
w ak
w hy
w ild
y ar
z c
z am
Ã ĺ
Ã ŀ
Å ©
Æ Ĵ
Ê »
Î Ł
Ð §
Ö Ģ
à ¾
â ķ
ì °
ð ¥
de ci
de velop
de uts
de velo
sh all
hu t
ch Çİ
ch at
ch ka
du a
qi Ãłng
su o
su it
ti z
ti sti
ti vity
qu er
qu ir
ku p
en ko
10 43
10 81
mi th
11 53
pi ter
pi pe
or f
er r
la ni
la ta
la to
la va
ar te
ar ayo
13 19
13 15
in os
ge me
for a
for mis
mu t
al one
st ral
23 50
mula tor
th ink
re ct
re ction
me cha
me ans
ri ll
ri cal
ï¼ Ķ
000 2
te t
te ach
si ni
ra h
cu lt
se curity
se veral
ta te
el sen
ma ted
ma gazine
es ome
co lum
the sis
ter ms
bo tto
32 GB
In spi
be au
SE CL
49 00
Co o
Co ck
Co vid
Re st
Re play
na d
na ya
ad al
ba ba
ba um
ca pi
nd ar
pe e
pe ta
au ts
ig i
us s
Li z
Li ps
Ro vio
Ro zas
De vi
Mi ch
Mi ya
Mar ina
ï½ ¡
BC R
BA SE
Vi et
Vi va
AM I
BS P
Mo tion
Mo lina
Pro cess
Pro league
76 00
va in
con s
con cer
Jo a
Jo ng
da tion
Se ct
Ar che
Ar ms
ot ro
AC K
fi a
Be ng
Be ast
Da te
800 00
Di or
Di et
97 00
ent ly
Sa le
Sa inte
do como
bu la
bu ll
mer e
mer o
AN Y
An nie
SS B
IT ED
Pa pi
by tes
Si ze
Si O2
ph p
ph il
He yo
so li
so la
so cial
Bu enos
Bu reau
SM G
Con stru
Con nor
Con rad
Wi sh
shi ma
end ra
Ge cko
Na gar
sa e
sa f
à¸ Ĺ
AL n
HK U
MP K
go ni
Car i
Car ver
Car thy
My Space
My self
Ki ev
No vo
Fa ther
Au th
New rite
Ex ternal
MO A
Ta le
pa id
SO A
SO FT
IG P
cri bed
Ru b
pu sh
Go v
Col on
wa gen
DC 600V
ES I
DR S
Open EXR
MC U
tin ction
Mon ster
ger y
las k
las tic
RT S
San s
San ti
DO ALA
HE Y
HE ART
begin ning
tur er
BE V
BE AT
MD B
ood le
include only
Or din
Tra cy
min ster
CL AN
ora h
Vo x
stra at
Wa ke
hy per
sing les
Mc Can
ac fun
Geor gia
WTA 500
Un ter
Ab del
DD I
ens ation
Cl 3
As k
sed amo
Her zog
inter face
Spe ech
Hy po
Hol ding
PL ANET
Sha pe
Ele ments
IU AV
cre ation
Pla te
DF T
Ter minal
Gar rett
ada in
Win nie
set z
Power Book
ð« Ķ
Alpha bet
VO L
ric s
Por sche
SF 3
SF X
Yu ri
lit z
Sun ny
Ze aland
oi se
PR PP
Sal ly
Max well
ful ly
KK A
BF G
Sir en
Han nah
Muse o
gre ss
Champi ons
DK 1
oper ation
Dy lan
Br 2
Code x
GR APH
âĳ £
FAT 16
Cho erry
RPG Fan
ben ch
__ __
Sig ma
CU DA
Gil lian
Auto matic
UL AS
Trans former
AX A
Gri ll
ini t
Dol ce
peri od
Clo pin
fea ture
Jen ny
Jen nifer
Cour se
tech nical
Mur der
cas ting
FI RE
Cou ch
Mem ory
Angel s
XC 40
Mari on
Pap a
NI H
Tol l
cell s
Bet ty
Bet ween
TOK IO
Mir ror
KT X
Sk ous
produ ct
QU AKE
Low e
gli se
Feli pe
Ster ling
chin ensis
ð¬ĵ ĳ
nation ale
GP40 PH
Archite cts
Know ledge
FIR A
parti cular
Kore an
Pha se
cry stal
cau da
Whit ney
RIA A
stand ard
chang ed
commu ni
villa ge
Scor pio
Add ress
LGBTQ IA
osi um
ëŀ ĺ
Quan tum
Roberts on
Glen n
compon ents
clu ster
Nim tz
Root kit
hei mer
Param ount
tempor ary
Insi der
Scienti fic
FTT H
STOR Y
Nich ol
Catalo gue
Dit to
Cp G
suc cess
EGO IST
STAF F
Glas gow
INV ECS
Fav ori
Imagin ation
Bhar at
Pz B
manage ment
Pub Med
SQU ARE
MRS WS
Kaki taan
Supre me
Apol lo
JED EC
Nvi dia
0 79
0 76
0 96
1 K
1 R
2 N
4 WD
5 V
6 G
8 100
9 A
A me
A es
A nu
A 95
A mber
A zer
B 0
B l
B 10
B ok
B ON
B are
C MA
C IP
C EST
C lip
C ater
D us
D TV
D BA
D ell
D AV
D eni
D ENCE
E ne
E mo
E gy
E die
E thi
E EPROM
F 8
F H
F li
F ind
F ang
F AS
F ara
F AL
F eld
F light
G V
G h
G la
G el
G IA
G CS
G DF
G EM
H 11
H amp
H ana
H BL
H HT
H YP
I Y
I SE
I MA
J F
J is
J 300
J ET
J aya
J 1120
K n
K p
K ad
K ot
K IC
K BM
L amp
L TA
L CR
L HC
L ights
M 198
M 13
M 32
M BS
M 73
M DS
M ouse
N h
N SM
N ECT
O ude
O hio
O CLC
P se
P ter
P BA
P AR
P PC
P alo
P WM
Q 5
R AP
R AN
R ena
R olf
S X
S v
S is
S op
S eri
S lim
T se
T ow
T AC
T EC
T ina
T hai
U bi
V os
V GA
V ene
W is
W ha
W IM
W LAN
X 5
X B
X press
X posed
Z h
Z ha
a bove
b c
c 8
c ari
c ena
d g
d ry
d ark
e c
f d
f red
f ont
g 1
h ay
h ler
k b
k r
k ru
k ri
k bit
k asa
m ari
n Çİng
n ya
o xi
o pi
p po
s cu
s chaft
t run
t ario
u il
u na
u ary
u lus
v ell
v ka
v owel
w alk
w ski
Â ´
Ã Ħ
Î ķ
Î ĺ
Ð Ń
Ñ Ĺ
Õ «
× ©
Ú ©
à °
ì ¹
ng el
de ep
xi a
xi ng
ãĢ ĸ
ãĢ Ĺ
ãĢ Ŀ
ãĢ ŀ
hu e
gu a
ch is
ch ai
ch ina
li ci
li mited
du in
du ra
qi ÇĶ
20 60
le g
bi d
su ri
su es
chu le
di ty
tu ro
lu re
200 m
men a
ni ce
11 73
er k
er n
an ta
on ce
in stance
ge o
al do
st he
re ady
re verse
me ng
me lo
me lan
me tal
ï¼ ¸
ï¼ Ļ
000 K
te er
ro i
ra me
ce ceo
am an
cu Äģn
cu li
cu lation
se lla
ta ni
el ve
80 km
ma gi
ma ker
ma king
ma teri
et to
il and
co o
co t
ne ed
IN S
bo ol
TC B
as ay
to tal
nu mer
Ch ad
Ch ai
Ma miya
ST R
lo cation
be c
be havi
SE R
SE NS
Co mi
Co st
Co sm
vi ous
Re ason
Re cht
Re member
Re mote
ba o
ba sis
ca use
pe di
op a
op ro
op ter
op tional
SA R
SA NA
SA SS
TV 4
Li C
Li a
NA MCO
De frag
CD M
Mi th
Me mo
Me Too
Mar cel
Al ma
Al vin
BC A
Le ung
Le gal
ke V
ke ley
ts a
ts ch
mo ther
mo tive
hi cles
Mo ng
Mo di
va cc
con side
con dition
ga e
Ne p
Se ng
Ar men
Ar mi
Ar te
IS U
fi f
Be fore
Da e
IC U
La o
La la
La bs
son ant
Ra te
Di vi
ID TM
Sa tellite
Tu ne
tic le
Sh ara
Lo mb
gi fts
po d
po le
po lis
po ints
An ten
An ders
ali ng
sta ble
Bo a
Bo th
SS M
Si mpson
ff any
Ri e
Ri der
Ri cci
ph on
He mi
He ights
He lena
Bu y
Ca ble
Con tinental
PC V
DV I
En tre
Ba ch
Ti ffany
ia o
Wi ener
Ge e
Na cional
ET today
To y
To on
To gether
à¸ Ĭ
Ha e
Ju piter
ler t
Ste phan
Ste llar
Ho liday
Po e
Car bon
DS LR
My co
My Class
pen ter
Sch war
No thing
CP L
UN B
UN I
âĪ ¼
oun ts
FC C
ting ui
New man
New type
Ex treme
Ph ys
TO W
len s
For ge
For mula
MO R
ko vi
SO M
SO CK
SO UL
LE ED
BO OK
BO CU
AD E
AD O
IG O
Go ing
Fe st
Ka therine
ME A
CR M
CR T
CR IS
cha e
TE MP
Ad di
350 1
net te
book s
dy s
Open Type
HO LiC
sy ndrome
Pu ra
à¤ ħ
Cor tin
LL ION
AA AA
Comp ag
Bar n
Bar rett
fa mili
Har mony
Je wel
Ed na
TT L
Pre sto
Pre tty
Tri p
PP Is
SC UM
mb as
mb us
Or tho
Tra il
Tra ding
Pri mary
Nor dic
pha nie
El se
ser t
IL Y
Vo IP
SH I
PG C
stra ight
Wa gon
Char lot
Star ry
PO RT
SL 9
ãĦ ĩ
Wal d
nis ation
Bra chy
GN D
GN S
DD T
cer atops
Ver y
im mu
vin yasa
NT FS
Ani mal
stru m
Can cer
Ele na
Boo t
fo table
ming ham
Sur vi
por ter
At arayo
sto ire
Lou nge
EF 15
Fin ance
Ter m
Win chester
Power PC
Free man
vs ki
ann on
Dream s
Dream cast
Am man
Min k
Alex andra
Shi eld
pla t
Fer gu
bre vi
NE SS
Cap ri
ond or
LA ST
temp s
Cra w
SI MD
ICO MOS
thi as
Institu t
Vol ks
alo g
Fan tastic
Es cape
sub sp
Mag gi
Mini ster
Cry ing
Cry ENGINE
âī ł
Phi lipp
Code master
à¹ ģ
Pala is
Cat ch
Que st
Nu clear
TM X
Lan ding
Ham mer
Ly co
May er
Dar ren
á» ĩ
Alf onso
Mobile Me
Sw iss
UL TRA
STA YC
Gri ffi
Gri ffin
nor m
Tro phy
pat tern
Enviro 500
Cru ise
PRO JECT
HB X
OD AP
Tar get
mod 7
Fleet wood
Niko la
Ari el
Hon ne
Sol stice
XC X
indu stry
âĤ ĩ
Bern ardo
NI KE
Ai res
Ale xis
Fl ora
But ton
AST RO
sell schaft
Solo mon
Ever green
Pass word
Baby lon
Bas ket
DEC A
H3 O
NU LL
âĻ Ń
WW C
Conne ction
Rea ding
Roman ce
Steven s
posi tive
NCC s
Person al
import ant
cli ent
DH CP
Wit t
Sher man
ima ge
ima gin
Every body
Inte ger
Gene sis
Tac tical
elect ro
Bin ding
quali fier
Motor ola
TAI JI
Emi l
Gon z
ð¡ İ
Mill s
ìĭ ľ
DKZ 4
Pil ot
PET A
Price line
provi de
cip les
PST N
Quin n
proper ty
ì§ Ģ
Excel lence
CR300 BF
KEN TA
cover ed
LPDDR 5
fai led
nei der
Macro media
manu el
Illu stra
â¼ Ģ
Hori zon
Rid ge
pora te
ð«Ł »
EEEE EE
crew ed
Package Reference
ìĨ Į
Symp osium
practi ce
Compi ler
ì¤ ĳ
Render Ware
grou ps
sexu al
Fee ling
deca hedron
simi lar
Indone sia
Guil laume
SPE ED
industri al
Liver pool
Gaz ette
Ensign bus
Grea test
champi on
Rud olf
physic al
BLO OD
0x5 f
Brough am
Salvad or
BTO B
Skous en
SCUM M
0 87
0 83
0 81
1 S
1 MDB
2 1000
2 ZZ
3 mm
3 GP
6 D
8 P
9 C
9 x
A Q
A a
A 11
A ver
A 300
A IS
A sa
A 350
A less
A chie
A xis
A qua
B Z
B hu
B le
B CD
B oun
B ree
B ald
C is
C ER
C MS
C FC
C ALL
D 50
D AR
D BS
D end
D HC
D rew
D rey
D HA
D ISC
E 7
E MA
E qui
E vent
F ou
F and
F ACE
F lask
G s
G 48
G II
G IG
G olf
G ANG
H 20
H ed
H ON
H AN
H are
H CC
H ood
H ank
I g
I z
I bn
I rene
J ES
K 4
K 9
K le
K lu
K AR
K BL
K 105
K NO
K UNO
L AP
L ara
L IV
L EC
L apu
M 80
M 76
M 1919
M ori
M ina
M DA
M TR
M ARK
M ISS
M SSR
N ig
N gin
N IA
N PO
N IGHT
O 7
O o
O w
O dd
P olo
P ES
P MC
P ony
P ARK
P ANG
R 8
R ama
R andy
S le
S SA
S IS
S ven
S cra
S ino
S lee
T Y
T amp
T EN
T LD
T hur
T DI
U 7
U ra
U IC
U PC
U CP
V y
V LC
V H1
V BCI
W 2
W AR
W ere
W IST
X D
X PS
Y B
Z X
b 0
b 1
b 2
b 3
b hu
b art
b lin
c 6
c b
d z
e Shop
f 4
g 3
g ol
g ma
g hi
j d
j on
j al
j aya
k 1
k Ãłi
l ower
m t
n at
o se
o il
p ari
s of
v are
v ara
w yn
w iller
y in
y ya
Ã µ
Å ¼
É ķ
Ê Ķ
Ë Ļ
Ï İ
Ð ¨
Ñ ī
Ò ¯
Ø ®
â Ŀ
ë £
ë ²
ë ¶
ë Ħ
ì ¡
ji ang
de u
de lity
ch aracter
li ma
li ga
20 34
20 99
20 mm
le ar
le arning
bi tt
bi color
ti v
ti de
ti ves
ti num
di us
tu k
tu l
tu ri
ju ry
zi one
en ty
en son
en ergy
10 25
10 500
10 78
10 51
men ted
mi o
ni l
ni na
11 14
er ia
an u
an nu
an um
17 A
ar um
in stagram
in stitu
24 000
28 50
re ma
re cht
re gion
re gedit
22 24
me z
me an
me dical
27 50
ri ed
ri ghts
ï¼ Ĺ
ro v
ra pper
lt en
ãĥ ¶
cu lo
cu les
se conds
ta e
ta tional
ãģ ½
35 B
35 mm
il les
ter ia
he m
he alth
36 34
IN C
as an
as si
to gether
Ch loe
Ma king
Ma ison
In n
In door
In fini
In vesti
be k
Co Mo
vi et
vi sible
Re ad
na k
na te
na tive
na ments
ver sity
ci vi
ci ent
ci ans
oo se
ca e
nd o
AT O
69 00
op rote
SA L
us a
ind y
78 C
Li ter
Li eu
NA MA
NA SCAR
Ro e
Ro bot
De vin
CD SS
Mi ck
Mi ster
Mi lton
Mar tine
Al b
ap a
ap or
ap po
ke i
ke it
CO DATA
mo tor
AM S
ry n
ry so
Mo le
Mo mo
Mo dule
Pro cedure
Jo el
ga ster
ga tive
ran king
Ne ar
Sta de
sp ring
sp orts
Ga ia
Ga tes
Ga stro
Ar ma
ot ti
fi cial
Be li
AP C
Da im
IC ANN
Ra vi
Di a
Di m
Di ff
ID A
ent re
Sa k
Sa fe
Sa tur
Sa turn
MA SS
ak ra
ak es
Lo tus
Lo gan
Ja wa
gi ve
So ylent
IP KF
An aly
ho e
ali zed
Mu st
ai ko
We ir
sta tis
int on
int ro
are as
Pa vel
Si te
Si lent
ff a
ff alo
Par as
He ctor
Bu k
Ca la
Ca tho
SM TP
Sp ur
DV II
mes tic
Ba h
Ba gh
gra tion
den sis
Na il
Na con
Na vel
Na vy
To ku
To ol
à¸ Ī
Ha te
MS C
EP LUS
Ju di
Inter sport
cro ft
Ste phanie
Do mi
Do ming
Do CoMo
ant on
go ing
go go
Pi Ta
Pi zza
Car go
DS C
Th era
AK I
AK ARI
pro cessing
Ki ta
Ph ar
CH INA
TO D
TO R
AV RO
MO DE
MO OD
Ta il
pa g
pa ti
pa la
fu sion
ko ng
vo y
vo ice
AG EN
SO C
LE X
Gu st
BO L
IG BT
pu mp
Sy ndrome
ME MS
CR TP
ron auts
cha in
lan e
TE S
Ad tran
Hu tch
DC A
ES RI
Pe i
360 MC
DA A
lar s
sy lva
App ro
Pu ma
res er
Com fort
Ser a
Stu dent
Bi an
rea ch
rea ction
RT I
SP ACE
EX PO
Bri gade
DO TA
fa ir
fa ther
Man y
CE V
RS D
On es
On tario
Is lam
SC AD
MD MA
Music al
Tra ining
Pri ma
mas k
tra in
lis tic
El f
El len
ser ved
Vo da
Vo lun
Fu ck
TR PG
Wa de
Star z
Eu gen
Gen Bank
era h
era ture
TS I
ten ant
Bla ze
Mc Donald
ex changed
ac cording
Wal do
Mat eri
GN SS
ï¹ £
pri ses
mber g
War ning
dis k
dis co
Her man
Dra ke
Hy adain
Hol low
PL C
Ali en
Ele on
bor ne
bor der
UC A
UC K
Spi egel
Up date
Ce cil
DM F
she et
Ci vi
Ci tizen
bra in
Fin der
EM T
ð« ĺ
Recor ding
Am bi
Min o
VO G
IO P
Tor onto
Bur st
Euro vision
Sing er
SF N
SU SE
VE L
lit ana
Cro s
Ze pp
Ze tec
Mil k
Mil ky
Ag ni
Ger hard
Pra cti
oi dea
mac s
âĸ ł
Ama teur
Sal t
bus iness
Core Media
Cha os
OH V
MU SE
CK G48
ìĿ ¼
Fle xi
tho se
Cry tek
ONE US
FR ONT
Pin up
Jan uary
Bir mingham
Stra nge
à¥ ĭ
lic ense
Ven ture
Cho ku
Under tale
Gro o
Cur se
Sig n
CU BS
Gran ada
Rus s
Engine ers
C2 H5
Class path
C6 F5
Sound Cloud
Cam era
Clo ck
Ange les
Lam ont
tai led
Not re
Sau nders
Hun ting
Has bro
Exp an
xx x
419 c
Hap pi
bb s
WOR KS
Para de
Fire works
ND MA
SW T
SW IFT
Dun n
HER O
cen tury
Def ence
Thunder bolt
à® ķ
534 D
Indu stry
Edu ard
trans form
Mus a
plan et
HTT PS
Geo database
Var ia
Test A
Mountain s
JO Y
Gam bit
Kan on
Rail road
áº ¿
Flor ida
NN N
GEN ER
ìĹ °
LV TP
Cos mo
Hil bert
Bran ch
Tex ture
df n
Second ary
SUN RISE
sele ct
Kor pi
Sie ge
Sie mens
cour se
Kun st
fl ower
mem ory
Sophi a
Rit ter
uint 32
recor ds
jour na
ëŀ ĳ
Lucas Arts
Nov ell
Andre as
JY M
offi ce
Indie Wire
Teach er
Dir ty
fus s
pti de
auri tus
Democra cy
Even ing
Nit rome
Moni tor
regi ster
Spor twa
SDR AM
fol k
continu ed
Cant on
partner ed
Kum ar
ëª ¨
Rein hard
Provin ce
Sym fony
Ces are
MRT T
ê· ¸
Trin o
achie ved
chr 7
ospha te
Partner ship
gorith m
MAT LAB
Philos ophy
Ato mic
L129 A1
Prai rie
Birth day
meda list
TASC AM
iHeart Radio
nana co
deg ree
LOV EPLUS
Phoeni x
triple S
Glor ia
Amaz ons
rhyth m
botto m
SENS ATION
Fergu son
Achie vement
GANG AN
KUNO ICHI
Ngin x
Daim ler
PiTa Pa
MOOD YZ
Adtran z
0 99
0 78
2 202
3 K
3 x3
3 ASV
4 E
4 F
6 th
6 100
7 D
7 G
7 th
A o
A xi
A BA
A CO
A ga
A can
A qui
A IDS
A gnes
B t
B ha
B RE
B BN
B PI
B JP
B NSF
C Q
C art
C ron
C ze
C IL
C run
D Z
D 27
D et
D ad
D ok
D one
D LL
D BR
E is
E na
E IA
E vel
E nix
F 0
F V
F OS
F ry
F ris
G 25
G and
G IF
G GO
G bps
G ondor
H 0
H 16
H ir
H MV
H MD
H alo
H alle
I 3
I H
I W
I ll
I ME
I RI
I RC
I llion
J G
J ia
J ill
J PEG
K m
K 16
K la
K II
K oo
K op
K CC
K TM
K bps
K 2186
L ad
L TV
L PS
L DR
M 78
M EP
M ort
M INI
N ia
N INE
N xd4
N issan
O d
O y
O st
O ct
O PS
O US
O OH
O cta
P oo
P ang
P ers
P lea
P Cho
P tero
Q CD
R 0
R EN
R DO
T AK
T 128
T NF
T 126
T ARA
U X
U PS
U FA
U STA
V 12
V ere
V CG
W 1
W EST
X A
X O
X MP
X CB
Y ak
Y AML
Z 9
Z C
Z K
Z on
Z ou
Z ap
Z ah
b lu
b ana
b ari
b hp
c 5
c TV
d ream
e us
f m
g han
g no
g gs
h olo
i v
j en
j am
j et
j ak
k am
k ers
k Wh
l cp
m bed
o on
p 1
p ard
p ping
r b
r ho
r RNA
s si
s ley
s lot
t l
u lic
v 6
v ra
w ÄĽng
w ant
y ellow
z Çİ
z es
Â ¼
Æ ¡
É ¯
Ê ¾
Ê ĥ
Î ¤
Ð ¯
Ó Ļ
Õ ¸
Õ ¿
× Ĺ
× Ŀ
Ø ²
Ø ·
á Ł
ê ±
ë ł
ì ¶
ĸ ĥ
de ring
xi Ã²ng
hu ri
hu nd
gu na
ch et
li quid
du p
du la
20 th
20 49
20 380
le o
le ine
le igh
bi to
su res
ti le
ti dae
qu Ã©
di m
di os
tu des
lu x
ju ni
en burg
10 42
mi st
mi te
cÃ¨ ng
12 306
11 B
11 S
or ganization
an chor
la ge
ar cos
30 mm
in come
al ways
th ora
me et
26 50
ru rus
ri co
ri va
ri age
te or
si ma
si mp
si tes
ra g
ra dio
ra ptor
ce u
ce des
cu p
se ek
ta les
ta dor
ma ng
ma ck
ma gni
35 30
ãĤ ©
48 21
and s
ter son
he ar
ck r
37 59
bo ys
bo om
ve o
as ant
75 000
Ch il
In ner
In vent
In frastructure
it ar
SE O
Co la
Co ach
Re publi
Re imagin
na i
ad ministra
ver t
ci se
pe ed
AT i
43 M
os ci
SA F
SA M
St al
id den
ind o
Li b
Li bert
Li ves
Ro a
Ro m
Ro che
De le
De lu
De but
De velop
Mi zu
Me thod
Mar a
Mar g
Mar ks
BC H
Le y
Le mon
BA CK
ke ting
CO OH
mo t
mo der
Vi per
Mo t
Pro c
Pro mise
con figuration
con sonant
Te k
ran ked
Ne x
Ne ther
da ni
Se qu
Se th
Sta tis
sp a
Ga vin
Ar mor
AC SF3
IS PM
ht m
Be le
AP O
AP U
Ra th
Su d
Su zu
Sa kura
Tu cker
ON D
ak ko
Lo dge
do i
do za
bu i
bu ffer
So viet
IP E
IP N
IP MI
IP M1
An s
ai se
sta ff
sta tus
HD P
Bo on
wi e
IT SO
Pa w
Pa st
Pa int
ff ff
Ri ce
Ri bon
ph al
He ar
so ni
so lution
Bu ch
Bu ster
Bu lle
Ca me
Ca sey
Sp ani
Ba al
gra d
gra ms
Ge ek
EN DS
EN SO
fe w
fe male
ther a
EC MA
AL C
MS NBC
Ni c
Ju dge
ler on
Inter change
Do S
Do meni
Car din
Car oli
Car penter
RO H
Th y
Th rough
AK ER
My ers
Ki ri
No ble
No bel
Lin de
Lu ca
Lu nd
CN H
New ton
dice a
TO RY
For ward
For ces
Ta ils
vo ca
MI Y
Gu ar
Gu ang
chi p
ley e
BO OM
AD ME
Ru bi
Ru gby
pu ri
pu ra
Go al
Fe sta
Col l
Sy fy
Sy base
Ka w
Ka de
Ka by
CR H2
gen y
gen era
lan der
TE L
can e
ze e
350 km
wa h
Pe kan
Pe ggy
DR AM
DA WN
Open BSD
HO ST
MC 68000
sy l
cor n
cor ona
Ke m
World wide
Mon s
Mon sta
Mon tes
Bi blio
DP A
Comp le
RI END
SP 1
Bar bus
ling er
HE AT
fa ct
Per cy
Har rington
Man o
Man chester
Je w
Ed dy
tur ned
cc TLD
TT APS
Gi B
Gi ants
NH C
Tri dent
SC M
min A
min s
VID EO
que ens
rin k
Ber keley
Vo lume
SH U
TR AN
Wa it
Ty pho
name d
sing er
Mc Kin
ex pe
ex FAT
ãĦ Ŀ
Wal leye
tri es
Un pa
Un cle
Ac cording
Ac oustic
SD 45
bur gh
cle an
Cy g
Cy rus
Ab bey
DD D
Tho ng
ins oo
let ter
sel le
IM G
IM X
UP A
UP R
Ver ge
lie f
cho sis
inter national
MG C
PV S
Ben nett
MB N
AO KP
AO MG
Blo ody
Web ster
Va lu
Chi cken
Produ cts
Pla ty
iss ance
At mos
RA E
bra tions
FO RE
Media Wiki
EF 16
Mer cedes
Tran sportation
space port
Ter ence
Win ston
bin ding
mini st
ene y
Free ze
Tai chung
vs k
290 X
Er b
Ve ga
Ya tes
VO ICE
LP H
pla te
spe ctive
tation s
Fer ry
PE ACH
Yu e
Yu ng
Cap p
LS 5
temp o
Cra fts
lea ding
Boy d
Plan ning
zz y
234 B
Squ ares
Res o
dra w
dra gon
áĢ Ģ
Pen ny
ele ction
ele ments
Lon ely
Cri cket
Cri tics
gre at
WA Y
ag ent
Des mond
á¹ ħ
á¹ Ľ
Que ens
Ban co
Dri ver
Wat ers
tum n
sual ly
Sum 41
other s
POP 3
Ham burg
Cle veland
Ram on
map ping
Gil les
Sc out
C2 C
Kh KBM
á» Ŀ
Wii Ware
Cli ent
NM R
SV 40
Men doza
AX 3
blo od
ini tial
pin k
lai de
fore st
alth ough
F4 U
Ami go
system d
Oli ve
Oli vier
fla sh
fla re
SIG GRAPH
Lar ge
HB OS
Mad rid
sche me
Ima ges
esta bli
FN N
pra e
rop ology
Mid night
Niko lai
Hea vy
Origin s
mission s
Fal ling
Augu ste
Sto kes
Cre dit
Med ley
LZ X
Mos cow
Sho e
Sma sh
AW 50
Mir anda
Program me
Week ly
Brand on
cept or
FAN XY
Rol ling
Work shop
Kw ok
Sand wich
Tel net
Again st
áº £
List en
telli tes
Garden s
LX I
WW W
Jes per
ìļ Ķ
dire ction
team s
MAD TOWN
Fair y
Ala in
RF ID
cep ts
Chap el
Chap man
constru ction
cli ffe
Rober to
Wing less
dig ital
glo bal
UF J
EY ES
EY CA
Yan kee
Shop ping
poly mer
Deuts che
PRE SS
wo men
kie wicz
camp aign
Made leine
ARI MA
Metropo lis
Metropo litana
Valen tine
Fit ness
Diplo pedia
Diplo derma
Tin y
Ul ster
valu ation
Swi m
SEN SES
Twi light
Ade laide
opera ted
Pear l
recor d
dyna mic
ì§ Ħ
Reich s
sorted Array
Bb 4
cover age
YE AR
ë¹ Ħ
ita minA
atten tion
Domini que
Est her
SEC IS
Dru g
Comman ders
Nak ed
Physic al
NER F
ëı Ļ
ASO BI
Pure Script
Warri or
Agri cultural
Ide as
Sonic Stage
Butter worth
Fed ora
TAS Y
pack age
Rodri guez
indi vi
FW 43
Mile stone
hist ori
Coin Desk
Reco Choku
orien talis
Hipp arcos
Effe ct
Gree k
whe el
myr mex
Pharma ceu
Igna cio
ë¬ ¸
Begin ning
FRI ENDS
Identi ty
Phan tom
Rafa el
Qual comm
AQU OS
DARK NESS
Rhe in
ìĪ ĺ
Nipp on
Stefa ni
sylla ble
Strate gy
PTS D
Movi es
Mada me
hain anensis
Rogue like
Capit ol
Saman tha
Kaspersky OS
Amend ment
Gara ge
filt ers
Cald well
ORO CHI
Sket ch
âķ ±
Colon el
Couch DB
Nichol son
Ubi soft
Schwar z
tingui shed
Cortin arius
Charlot te
Codemaster s
ð¡İ Ĭ
sof tware
Liter ary
Lieu tenant
Voda fone
Varia ble
GENER ATION
Sportwa gon
Evel yn
Illion aire
PCho me
XMP P
Reimagin ed
Typho on
+ &
0 45
0 61
0 600
1 H
1 W
1 GB
2 a
2 Te
2 178
2 NE
2 MASS
3 2000
3 Si
7 SENSES
8 200
8 341
A qu
A 12
A 13
A va
A AS
A ja
A UC
A lta
A lam
A stor
A Standings
B x
B id
B ali
B BL
B olo
B ari
B ord
C 57
C ed
C ran
C one
C inc
C AF
C im
D 17
D 28
D 100
D oo
D ha
D ore
D ES
D res
D rea
D aly
E Z
E f
E lu
E SS
E ther
E vo
E 220
E UR
E macs
F ell
F EST
F let
F PE
F itch
F PK
F ountain
G AL
G ari
G DC
H US
H tt
H SP
H ye
H yun
H AVO
I sh
I AN
I ris
I dol
J 85
J AXA
K AC
K ok
K IA
K har
K 1626
K 1122
K 1124
L v
L AG
L ower
L VT
L IGHT
M 200
M am
M 31
M MS
M BO
M 240
N 19
N ir
N ana
N ES
N RC
N UT
N ue
O 8
O i
O ng
O ro
O ze
O IE
Q C
Q e
Q o
R n
R PC
R Ser
R 136
R ING
S z
S ni
S ne
S SE
S BC
S inc
S RI
S HE
S UR
S F1
S dn
T U
T AT
T Wi
T MP
T rey
T ATA
T rent
U i
U 14
U ri
U MB
U O2
V 10
V ai
V ero
V room
W ir
W 89
W ye
W yn
W CW
W HA
W ander
X 4
Y 3
Y in
Y ves
Z ay
Z HR
Z DF
Z ONE
a S
a j
a ba
a ga
c tes
d l
d r
e Cos
f en
f on
f ell
f ton
g ou
g row
h ya
i z
i kh
k 0
k ol
l Ã¨ng
l ouse
m are
m ora
m ountain
n chez
o a
o ce
o ma
o ck
o to
p 50
p lt
p hant
p df
r ar
r ared
s li
s lo
s witch
s aurus
t hus
u mi
u ra
u ne
u fotable
v ana
v ors
w il
w ad
w ana
w issenschaft
z t
z an
z al
z ona
Å Į
Ç °
Ë §
Î ĵ
Ð ĸ
Ö ·
× ¤
× Ĳ
× ŀ
â ľ
ê ¦
ð ¢
ð ¦
ng ers
ji Åįng
de signed
ch ant
ch ino
li ter
li ber
li che
li que
du ng
du ced
du ate
20 37
le w
le ad
le um
bi ra
bi ts
su ra
di i
di x
di ge
di plo
tu e
ju s
en vi
en za
en tin
men ta
mi la
mi ght
pi Ã¨
pi er
pi no
pi xiv
or an
la ut
la pal
ar m
ar ine
in ted
in vol
in dica
25 50
mu d
st at
st all
st Sock
th ys
th ough
th read
th rix
ou x
re sh
re at
re main
me y
me ll
me dium
26 16
50 G
ru sh
ri al
ri ver
ri man
ri um
ï¼ ¤
000 m
si ck
si ly
si ght
si rai
ãĥ Į
ce do
ce ster
cu late
el and
el ly
ma cy
ãģ ·
es tic
at ar
at tro
the ast
the matic
ter rane
he ed
36 000
ne gative
is ch
bo is
TC O
ve hicles
46 50
Ch k
Ma ca
Ma fia
In do
In dies
In stant
ST FT
ST ICK
47 B
lo p
SE RF
II e
Co lu
Co ve
Co sta
Re u
Re yn
Re ports
Re lief
na u
na z
na ta
br aries
ver ti
ci de
ci es
ci lia
ci lio
ba cillus
oo za
ay ama
ca tional
pe ng
au rant
os sa
mp ur
Li la
NA G
NA V
Ro ver
De a
De te
ss er
tou rism
CD G
Mi e
Mar f
Mar qu
Mar is
tw ood
Al one
Al ways
Al pine
ap er
Le et
Le ft
BA N
CO ME
mo dule
51 A
man o
AR DS
ry a
Mo du
Mo ve
va ted
con f
Jo b
Jo anna
Te atro
ga i
Ne igh
da ble
da ily
Se la
Se as
Se ed
Se oul
Sta nis
Ar ro
ot ta
lay er
IS LAND
fi ca
ED F
Be hind
AP D
AP FS
IC AL
ER P
La go
La bour
Ra sh
Ra ven
Ra zor
Di mi
Di ane
Di ffer
Di stance
Di mension
Sa id
Sa ka
MA J
Tu ng
Sh ore
Sh ooting
Lo g
Lo co
Ja i
do ctor
gi i
gi ni
bu ck
bu nd
bu lar
mer y
Mu sik
les cope
We ar
We TV
We go
We apon
sta ted
sta den
ki m
ki ta
ki es
wi jk
col m
Pa sha
che v
ster reich
Par c
Par lia
Ri j
Ri card
Ri fle
pp a
ph op
ph arma
He ft
no itaminA
PS I
PS K
Play boy
Ca en
Ca it
SM N2
Con test
Con sult
Sp rin
PC P
ble y
ste eg
En tus
com pi
Ba bu
Ba sed
Fi ction
Na zi
Na tive
ET I
EN E
EN 1310
EN FOS
sa tellites
To d
à¸ ¹
Ni elsen
EP I
Inter na
Inter val
MP 4
MP L
Wor king
Po m
Do yle
US LC
go ng
Pi c
Pi pe
Car son
Car roll
Car olyn
RO W
RO OK
Th en
Th ird
pro p
Ki mi
Ki Ya
Sch le
Sch neider
No ir
No ah
âĪ §
âĪ ł
Lu a
Lu mo
Wil kinson
Au dit
Au tumn
Ex pe
Ex plo
len nium
AV G
we igh
we stern
Ta x
pa ir
pa sta
PlayStation 3
CC A
ton s
vo cal
AG U
MI LLION
Gu t
Gu ild
Gu insoo
BO OT
AD DR
IG E
Cu re
Cu 2O
Ru st
ori us
pu ram
Go Hands
Fe bru
wor ds
Ka tie
cha se
Ad ri
Hu i
can o
can us
ze tima
wa it
DC S
des cribed
inc or
Hi HD
Hi cks
Pe ach
DR DO
Open Office
Open SCAD
Ko ana
Du e
Du ring
old s
Stu d
à¤ ¶
NO RT
NO RN
Comp on
SP AN
SP ICA
Bar bie
Bri t
tain ed
Je ffer
LO T
LO GO
LO OP
LO VER
BE AM
BE VG
mb la
Gra mmy
Or gani
Tra ce
Nor id
ye v
ane ous
ora ble
Ber ger
William son
Vo gel
SH A
PG M
Wa gner
Eu g
lla i
ten ham
Bla de
Bla ke
ex cept
ãĦ ħ
Mor rison
SD L
SD 38
Bra h
Bra m
ï¹ Ĵ
Che ster
Cy games
Ab d
DD 51
RC EP
âħ ¤
pre vious
car bon
Enter prises
Ver non
Her story
inter nal
Ani ta
stru ctures
123 I
PV M
MB R
PL S
PL AN
DE MO
DE ATH
par te
bri ght
High er
Spi t
750 V
OK O
rand om
Chi p
DF 90
YO ASOBI
Ye e
Ye zi
Ci el
CA ST
EF 65
EF 54
Tran sa
gon al
space ports
Black comb
Gar c
Gar ena
IE 8
UT 2
Win 32
STAR T
bel li
Ang lo
if rame
stro y
Ya o
Am or
Pop Matters
Ken ny
Tru mp
IO I
HS DPA
Bat man
Bat sirai
Lau gh
Por te
mat plotlib
Euro pa
Rock s
Fer nan
LT PS
Sun shine
LS B
Ze gna
sch ild
cess ary
Ger ry
Gal la
qui re
LD H
Plan ts
Cha ir
lli no
DDR 2
Han na
âĺ ī
Cri tical
Mel o
tho ds
WA TCHA
DK 2
Pin us
Bal ti
bro ok
Van der
lic it
Cas ti
Cas ca
plo y
pop ulation
Jour nals
ologi e
298 X
385 29
Ram say
May or
Op tion
Ren fe
sin us
Auto motive
Publi cations
á» ĳ
pres ent
pres sure
Pier rot
UL F
ee e
mor ning
C6 H4
Sound s
Sound track
Regi on
blo ck
ini tiali
pur pu
Film staden
à½ ĸ
Bon ne
Jen na
Mal colm
N2 O2
áĥ ĺ
EL LE
T3 B
Johan na
WO O
MM X
ENT SO
Let ters
Has an
God zilla
Del ancy
Deep State
inte t
bb ard
Chan el
vers al
Rou ge
H1 N1
second ary
Andrew s
ðĲŃ ª
ðĲŃ ¬
CH2 CH2
print ln
Kat z
LU RE
UK A
AMO O
Mont go
Geo Da
Program ming
Some thing
Bai Ya
pl ant
Work ers
Classic s
Mit su
V6 B
prote ins
produ ced
Hay es
áº ¡
dic ine
Eye finity
vari ant
DU O
Econo my
Tha iland
VP 70
WW DC
super cell
Ala war
Hau s
D5 D
Pur ple
Chap elle
Mix tape
GEN JI
eg gs
hat tan
constru ct
neu ro
fre edom
bio R
Fw 200
GDDR 3
GF RIEND
wri ting
wri tten
ë° ©
ë° Ķ
dig it
Sher lock
Wer ner
see ded
Wri ting
Rand all
elect ric
Edi th
INT ER
gener ation
Gate way
RAD IO
Mol ly
distri bution
Luis a
presen tative
Bour ne
Ess ential
ìĭ ł
pay load
later al
Maj estic
Tit le
Mee H
ìł ķ
conne ction
4x 4
Las er
Inf rared
commu nity
K10 77
semi finals
Theod or
Add r
ctu ring
pass word
Adi das
Lol lapal
Lay er
LMP 2
Leop ard
Supp ly
Brow ser
Quan tic
acti vities
Om osaurus
Rhyth mik
sc rum
proto col
Exten ded
Hori pro
Nix OS
ê³ ł
maxi mum
Aw esome
Dhar ma
regu lar
Cale b
Clay ton
respon se
Pine apple
Lepto dora
Kno ck
Xa vier
Chas ma
compu ter
Meri dian
d3 fb
Deb orah
TED x
FAM ILY
FAI LURE
argu ment
DSS SL
equ ation
ìĽ Ĳ
seg ment
Innova tion
viri dis
shir t
owi cz
Geoff rey
Treat y
Aka de
MIP I
festi vities
Bever ly
Gover nor
Combi nation
direct ly
ð°¾ Ń
dru g
Sebas tian
Encyclo pedia
Nata lie
Morph XT
MAM AMOO
OUR s
kla ani
kina se
soap env
Cres cent
MNH N
Madi son
dacty lus
Respon se
Doro thy
FNA B
retrie ved
elong ata
attribu te
PRIN CESS
Celebri ty
Hmm sim
Heri tage
Jero me
develo ped
Aes pa
Deni se
kru puk
Anten a
Phys X
Basket ball
0x5f 3759
3GP P
KNO CK
b0 d3fb
ë£ ¨
ëĦ Ī
AGEN CY
Korpi klaani
Cze ch
Domeni co
Cinc in
Flet cher
Oze mpic
RSer Pool
envi ron
stSock Addr
EN1310 90
Febru ary
Lollapal ooza
0 41
0 800
1 X
2 F
2 k
2 AM
3 d
3 AM
3 MF
5 B
5 C
5 W
5 th
6 N
6 X
7 C
7 S
8 x
9 400
9 801
A j
A 20
A per
A so
A ris
A 321
A SAP
A tten
A vant
B X
B one
B US
B RO
B old
B UR
B ona
B link
C IN
C MC
C las
C era
C andler
C iao
C indy
D 20
D 15
D 40
D SE
D ing
D op
D ap
D MC
D IE
D ino
D DVII
E 8
E ni
E 193
E 1000
E SO
E cc
E sti
E gg
F IT
F ool
F AIR
F HP
G 8
G ha
G BA
G ON
G ron
G run
G osp
G lyn
H Z
H 18
H 21
H PP
H wang
I x
I OS
I ran
I da
I ER
I gor
J ared
J CI
K 13
K 45
K os
K ana
K UR
K 306
K 552
K 554
K 1191
L 4
L H
L ju
L er
L ST
L op
L CP
L ena
L ater
L GPL
L AMP
L IGO
M Z
M 26
M IN
M TC
M MP
M RO
M ess
M ARE
M NL
N 9
N d
N 20
N 10
N LM
O a
O th
O TA
O CR
O xy
O ppen
P ou
P he
P AN
P ali
P TR
P ATH
P BMC
Q K
Q NL
R 18
R AT
R OS
R GS
R USH
S ku
S mu
S ari
S BI
S oom
S word
S NOW
T 8
T 11
T 195
T NA
T AL
T LE
T era
T LC
T HF
U y
U 13
U se
V D
V id
V OS
V ine
V LS
V HF
V CT
V SB
V WO
W Y
W ine
W IP
W rap
X u
X en
X M1
X ero
X R2
Y ard
Y ai
Z 2
Z U
Z am
Z om
a war
b 4
b ona
b run
c ers
c ino
c def
c zy
c lassic
d x
d au
d ha
e go
e dition
f ano
f rey
g res
g ano
g ama
g rand
g ons
h es
h our
h ori
h ora
i co
i ler
i tation
j ong
k sh
k Åįu
k amp
k ak
k ho
k ari
m 1
m am
m art
m ping
n 2
n j
n ano
o z
o cy
p F
p se
p au
p ment
p ent
p Ka
p ron
p neu
r g
r st
r ori
s chi
s tus
t va
t art
t old
u ses
u sually
v au
v ous
w 3
w ha
w ent
w sa
x ed
x pr
y t
y on
Â §
Ä Ģ
É Ķ
Ê ·
Ë ©
Ì Į
Õ ¯
× ĵ
× ł
ë į
í Į
í Ķ
í ļ
í Ĭ¸
ng os
de b
de en
de te
de pth
sh are
xi t
yu r
ch al
ch te
ch ter
ch ap
ch ron
li u
li Äģo
li tion
li ly
li sts
20 W
20 75
le en
le on
le ed
bi as
bi llion
su di
su ke
su mer
su bor
ti cum
qu anti
qu ality
di q
di Çİo
di st
di te
di da
di sa
di tions
tu na
ku ten
200 km
en na
en ding
en ded
en nes
mi de
mi nis
mi ddle
ni bus
11 66
pi g
pi te
pi do
er u
an es
16 A
la mp
la ke
la dium
17 G
ar c
ar sen
30 77
13 17
25 20
for ma
mu ne
th me
ou los
re ck
re ka
re tro
22 70
22 76
me tric
26 C
26 13
26 000
50 Hz
27 80
27 70
ru ÃŃ
ru les
ri j
ri el
ri et
ro le
ro ff
si ri
si tive
si phe
ra ine
ce e
ce t
60 M
am ous
am ong
am 730
cu e
cu ra
ta ch
ta ya
el an
80 386
ma ine
ma thema
35 W
of o
es ch
es en
il an
at m
at ter
at to
at os
ow itz
he it
37 DDK
ne dain
bo i
bo s
ve ling
as ci
as aurus
to ng
to string
Ch ae
Ch akra
Ma ine
Ma je
Ma vis
Ma tho
In dy
ST L
it on
lo i
55 50
II A
II B
Co e
Co pa
Co ming
Co pilot
vi g
vi le
vi su
Re fu
Re mington
na tural
br al
ver b
ci ta
ci us
ci pa
ba h
ba sh
ba si
ca me
AT SC
ing ton
au th
SEE D
op t
os k
99 99
SA 06
SA LT
SA MPA
mp to
TV er
TV ING
ind a
ha w
ha li
ss y
ss ment
tou cha
Mi c
Mi u
Mi ckey
Me ng
Me teor
Mar ry
79 00
OS P
Al gebra
Le f
Le ad
Le vin
Le oni
Le vy
BA RT
CO D
mo to
ows ka
AR O
Pro je
Pro xy
Pro gress
va ni
va tive
con ste
per formed
ga le
ga la
da al
da ct
Se c
Se o
Se gu
Se xu
Se minary
Sta dio
sp ons
Ga o
Ar cher
lay a
ht ar
fi ler
Be en
Be er
Da mi
Da cent
Da hl
IC F
IC ER
ER ROR
La vi
La ger
Ra kuten
Di sh
Su c
160 km
Sa van
Sh ari
Sh ower
Sh ared
ON LINE
Lo ves
Lo vely
one x
one se
rou d
Ja de
gi es
So li
So lar
AN K
IP EI
An tio
Mu si
We iss
Bo h
Bo ng
Bo he
Bo mb
Uni nett
ki ck
wi ni
are st
Si mi
Par ks
Par sons
Ri p
Ri se
Ri ley
Ri chie
pp el
ph os
ph eric
He e
so v
so ma
so lid
no v
no ck
no vel
Play ers
Con nell
Con tact
Sp ha
com bi
com peti
Ba ta
Fi les
Ti a
Ti er
gra de
AS IL
shi m
end re
Ge sellschaft
den sity
art en
sa c
ka la
ka wa
To mas
EC R
Ha le
Ha ar
BL T
BL U
Ju dy
Ju lio
Ste ele
AI RI
Ho g
go th
Pi x
Pi one
Pi vot
Car ni
Car rier
RO X
Th ri
Th reat
pen thes
RE A
ven s
Ki osk
CP I
UN IT
FC RAM
my Video
ll an
CN G
âĦ ķ
Fa de
Fa ct
Ph al
CH IC
CH AN
TA IPEI
Qu intet
we hr
Ta lent
fu el
eri ni
MI MO
SO UR
SO GO
SO FR
tes ting
LE AST
Gu ru
enter tainment
Ru ben
pu dding
Go e
Col li
Ka f
Ka wee
gen s
IA EA
BD M
ze f
del s
ES R
Hi to
Pe oria
Pe tite
mon de
mon as
Open ing
HO T
NG T48
sy ste
cor dia
Pu mp
Pu lau
07 80
Du ck
Du ty
One Shot
World s
Ser ra
Ser ena
à¤ ¹
ger a
rea ding
vel le
ren a
RT L
RT SH
SP P
SP IRAL
Bar ker
Bri de
Bri en
mar ine
row s
HE V
fa ctory
Per u
Har vest
Man x2
Man hattan
Mac OS
LO L
LO FT
Pre cious
Tri o
Tri vi
Tri beca
Tri angle
On ce
PP M
mb re
mb at
MD I
Gra nge
bli nd
Dis tinguished
Tra p
Pri vat
min ar
Ori ental
tra de
ane y
El mer
Vo lt
SH 2
SH AZ
stra tion
stra tus
tor s
Gen s
hy nch
PO R
Mc Carthy
ex plo
ex change
SL I
SL S
ãĦ £
ãĦ Ĩ
ãĦ Ī
ãĦ ļ
Super star
ie u
ces an
SD N
Bra ve
Bra vo
Bra zil
om or
Che ung
bur ne
bur ger
Cy n
Cy clo
Ku l
Ku ng
Ku ro
DD L
KP D
Cl own
pre tty
Her n
Her ald
Air ways
inter est
Ani mate
Ben e
val ry
PL A
ut m
par tial
fer t
dge t
bor o
It aly
Bro d
Bro oke
cre st
Chu la
Lea ve
Stre tch
lip op
Chi le
gar is
sen su
Pla tinum
she im
DJ S
Hel p
Hel le
YO YO
Val le
Lou d
Mer ry
BN P
zer os
Win k
rie i
EM DR
IX P
py pasta
Ang kasa
Fla m
Er win
Er ror
Ve la
Min er
Bat tista
Tor o
Tor res
cis m
pla sh
ses sion
spe ak
SF 9
Whi le
Whi plash
College s
Ag ent
Cla ra
PA X
temp erature
ab solute
LD 50
âĸ ²
âĸ Ī
Mas a
Sal vat
up on
Christ oph
cil la
Dan te
phi a
Res ource
Camp ono
Es c
MU SEA
Mag nus
áĢ Ń
ìĿ Ģ
Glo be
CF L
Pen ang
Gold man
Mini stry
dro me
ART IST
cti vely
Pin to
ag reement
Bal an
kar an
Des ert
Van cou
âĳ ¤
Down load
Ji an
Ji ang
long er
Hello World
Bor ough
Cas ting
Gro s
Cur rent
SHO T
Pal ma
imp le
imp ro
tual ly
oro v
CU BE
oc ci
Ren o
C2 B
Auto mation
pres ents
SV ETA
Trans formation
Dol ores
Imp ro
Imp act
Poli tics
Law s
áĥ Ķ
char ya
EL ISA
OF DM
Compu te
Dark table
SIG MA
stu dents
Cloud flare
Let ter
Tou louse
Ima gine
cat en
432 b
Line ar
teri on
Mau su
Mau ri
Cou rage
Hea ther
Run ning
Run time
Fal se
Wel lington
Der by
Ora ng
Sara van
ðĲŃ «
Earth Bound
LM 12
SON G
Swe dish
lina e
LU MO
ite m
Bern hard
LZ 78
LZ SS
Ale c
plan ned
number s
Wonder land
Hard core
Fred rik
tour naments
flo ating
Cree pypasta
Operation s
Epi sode
bed ded
Conne cti
K2 188
RF P
Mix ed
Steven son
GEN D
sio ning
shell code
program ming
gene sis
Care y
Source Forge
Pon te
qua ke
micro SD
break ing
Ice Frog
ZO V
ìĦ ľ
ìĦ ł
Vin ce
Pie ces
xc 6
poli cy
elect ronic
quali fied
quali fying
xe 5
Chee se
Emi lio
Maxi m
Ave x
PRE MI
Wol fe
deri ved
Broad casting
Wid gets
crea ted
prin ciple
lty pe
Lyn ch
Berg man
Associa te
GRE E
CHO CO
Mee ting
Ny lon
ìł Ħ
Cel tic
Emer gency
dec ltype
K10 78
Experi mental
Photo shop
pter us
Quick Time
LPDDR 4
foot ball
êµ ¬
supp ort
Teach ers
Quad ro
MET AL
Wai ting
manu fa
Histori c
Wes ley
hof er
alpha bet
Chamber lain
SEP TA
Kakao Talk
Ghost BSD
Robo Master
Navi gation
Democra tic
Exi t
Fol der
PAS K
SEL ECT
Ple dis
psy ch
Environ mental
ë³ ´
Indi ana
Christi ans
Desk top
Fitz mau
JUN E
HOL IC
Corne lis
ETC S
K230 UB
Ukra ine
kre is
Theo do
Dio cesan
Brea th
Ery siphe
cana densis
appe ar
commit ment
7k 7k
Clin ton
LIM ITED
Mecha nical
Giu lio
FAC TORY
minu te
EAS L
Budd ha
9M 96
Miche le
Adap tive
Xin U
ë¯ ¸
Sung ai
SSRI s
Barth olo
ð© ĸĥ
labor ation
condu ctor
otri ton
dele ter
Tibet an
Choco late
Astrono my
Pry deri
ëĬ Ķ
recur se
Chel sea
Reve nge
Desi re
Seat tle
Competi tion
Infant ry
macula ta
Mikha il
UNIVER SE
Assault Cube
associa ted
Pren tice
McCan n
DAV ICHI
Jis oo
LHC b
Shara th
Boa dicea
CRIS PR
Aless andro
Drey fuss
PES CO
ì¡ °
Domi nic
Thera peu
Volun teer
Materi als
Happi ness
SEO UL
Stal lion
bui lt
Cardin al
Caroli na
MIY AIRI
2NE 1
Cim r
TWi T
Leet Code
Wego vy
ROOK IES
Balti more
Montgo mery
0x5f3759 df
Cincin nati
Soom pi
subor bital
mathema tical
Matho matic
conste xpr
Pivot al
SHAZ NA
Campono tus
Fitzmau rice
. #
1 M
1 U
1 Sheet
2 ch
2 195
2 Se
3 H
3 N
3 R
3 GB
6 Sheet
8 GB
9 300
A 0
A q
A ta
A ster
A ther
A von
A ston
A via
B h
B IN
B AT
B ind
B ent
B ris
B YO
C 18
C PS
C AI
C ory
C LE
C ME
C TE
C BM
C ray
C ARD
C EDA
C yani
D w
D 19
D 10
D 14
D 21
D 23
D 51
D ora
D ama
D HT
D IVE
D yn
D oom
D IVA
D WORD
D UNB
D DoS
E 0
E b
E 21
E ro
E ter
E bo
E ber
E dy
E rin
E nge
E sch
E QU
F 10
F MP
F MC
F ight
F NH
F ong
F UT
F 9F
F IFT
G lu
G 27
G ow
G Re
G us
G BC
G MA
G CR
G lit
G LA
G DI
G wy
G mail
H 17
H 13
H 39
H AT
H EC
H AD
H aya
H etero
I 4
I e
I v
I BA
I AS
I FC
I BF
I kon
I pomo
I HDP
J L
J V
J ana
J DS
J CT
J FK
J ASO
J ensen
K ou
K lo
K ER
K TR
K ham
K itch
K 1502
K 1504
K ONG
L 6
L ace
L SC
L MG
L BI
L iss
L GA
L ISP
L igne
M j
M 15
M 81
M 101
M igh
M 106
M RC
M 134
M off
M ND
M AMA
N 14
N il
N IS
N ED
N one
N ya
N ook
O DM
O rana
P d
P am
P 90
P AM
P are
P NG
P HS
P ino
P unch
Q x
Q LG
R TV
R UN
R ina
R yo
R gg
R FI
R APH
S f
S TC
S ind
S ard
S ke
S ok
S ere
S CE
S ato
S lam
S ensen
S ensation
T Q
T l
T ST
T 49
T ad
T ing
T UN
T EST
T MC
T WA
T 295
U d
U nd
U CS
U HT
V 13
V ill
V ance
V BN
V apor
V UCA
W 4
W T
W ra
W PP
W CG
X y
Y ong
Z an
Z ar
Z 100
Z IM
a xi
a ku
b di
b ane
b ano
b ald
c ting
c lai
d op
e 8
e co
e vidence
f ina
g ru
g ay
g ig
g ler
g ari
g ral
g hur
h 2
h la
h ne
h ari
i 7
i ver
i chi
i Folder
j at
k yu
k han
k ot
k ris
k VA
k iss
k ada
k owski
k nowledge
l ka
l ant
m n
m ous
n ding
o vich
p D
p 65
p are
q q
r ard
r era
r sten
s ang
s can
s pin
t si
t res
t ank
t ford
t orio
u li
u th
v aux
w ong
w aka
w olf
w rote
x en
x ter
x ley
y 2
y ing
z ou
z ard
Ä °
Å £
Å ģ
Å Ĩ
Ì ĥ
Ó ı
Ö ¸
× ¦
ë ħ
í Ħ
í ŀ
ĩ ´
ji t
de si
de va
de tail
sh ol
sh ows
sh ina
sh ooting
hu ng
yu k
yu mi
ch am
ch se
ch amp
li gh
li ties
20 m
20 45
20 44
le ton
19 000
bi ÄĽ
bi ology
su ite
ti r
ti ni
ti ci
ti go
ti ano
di vi
tu cky
tu cci
lu t
zi k
zi er
ku t
10 TION
mi sh
00 80
shÃ© i
ni ta
11 G
or ta
or ders
an za
15 P
âĢ İ
la ry
la mine
17 C
17 E
ar os
30 m
in en
in verse
in telli
in flu
in stead
ge d
ge setz
24 48
al ong
al titude
21 10
st os
st rom
st orage
23 70
23 45
re q
re in
re view
re sistant
22 23
22 75
me tro
me yer
me ida
me dicine
26 A
26 B
50 mm
27 000
ru Ã¡n
ri ous
ï¼ ³
te ver
te tra
si ris
si ung
si fication
ra c
ra e
ra ni
ra ther
ra tes
ra tio
cu le
cu lum
se ven
se cre
se para
100 mm
31 a
ta gs
el ding
ma gic
ma lak
ãģ ¬
ãģ ¹
35 C
70 31
of i
of ollow
et os
90 A
es o
at on
45 000
co ng
co sts
co pus
he x
36 50
38 50
37 M
is an
TC L
ve a
to v
to ni
to it
nu r
39 86
Ch and
Ma o
Ma ta
Ma nia
Ma cau
In dra
ST IGE
it ton
UTC 10
64 K
lo o
lo gue
be lt
The ology
Co y
Co ca
Co bra
Co aster
vi z
Re li
Re du
Re gin
Re charge
na go
ad ap
ad ded
ci er
ci to
ba ge
ba hn
ba sic
ir an
58 70
ca h
ca ble
ca ses
nd s
nd on
pe at
pe tit
AT ED
op ho
op las
SA X
mp a
St out
un sortedArray
ha ppy
Li ang
Ro c
Ro by
Ro meo
De por
De af
De finition
ber gen
ber land
Mi B
Me 2
Me me
Me dium
Me thy
Me mbla
Mar vin
Mar ino
Mar iten
Mar sudi
Al di
Al la
Al ley
Al bre
Al meida
ty pical
54 AC
61 20
You tuber
ap ha
Le an
Le igh
BA A
BA LL
BA SI
ts ky
CO DE
mo th
mo da
mo ment
mo nia
mo ved
mo vie
Vi e
Vi be
hi a
hi ni
hi ro
AR MA
AR IA
BS C
BS 11
Mo e
Mo ments
Mo jo
Mo hd
Pro cessing
va ble
va lent
con text
con cent
89 00
Te mpe
per gil
ga il
Ne ue
da b
Sta d
Sta tu
Sta cy
Sta dt
sp 3
sp o
120 mm
Ga li
Ar go
ot to
ED E
ED 10
ED IS
ED EN
ED TA
AP L
Da erah
La La
La zar
Ra pi
Di eter
Di xon
ID 4
ID O
ine a
Sa lem
Sa diq
MA GAZ
Sh adows
Ja cket
Ja bal
do gs
gi ant
mer u
So yu
So le
IP V
An them
ho g
les ale
sta g
sta sia
Bo lt
wi m
wi se
col d
IT AL
all s
Pa o
Pa x
Pa ti
Pa ni
Pa ve
Pa tel
Pa ges
Pa chy
700 00
che k
che ng
ster one
Si u
Si mp
ff le
ff als
Ri ta
ph or
He m
He x
He li
so ylent
no d
Play house
Ca b
Ca pi
SM C
Con d
Con temporary
Sp ra
En ti
En er
En ding
En ril
Ba th
Ba ha
Ba sel
Fi f
Fi elds
Fi delity
Ti fo
AS HI
AS SEM
ana e
Na sh
Na ch
Na ir
Na vis
Na var
sion al
ET 3
ET HER
IV AL
EN O
fe et
fe ed
sa le
ka zo
EC M
Ha D
Ha bi
Ha ger
MS IL
EP 3
EP O
HK 416
HK EY
âĨ Ĺ
gin o
cro ze
Ste ph
Ste fan
MP 35
MP 54AC
AI A
Ho st
Ho hen
Wor m
Wor cester
US O
US DA
ant ar
go al
ya ku
Pi wi
Pi eter
Car men
Car rie
Car rot
RO G
RO AD
RO OM
AK U
My space
My cena
Ki mber
gn y
âĪ ¨
Lu i
Lu ng
Wil bur
CN R
Au re
New castle
Ex ci
Ex ception
Ph yl
TO L
TO M
len ko
len oph
For bes
For tune
we st
MO P
Ta b
pa thy
pa wn
CC S
vo ting
LE VEL
LE GEND
Gu lf
chi i
chi m
chi an
AD K
Cu stom
Ru i
Ru bin
Ru Pay
Ru sty
Go ds
Col anto
Sy r
Sy ner
Ka le
Ka mi
Ka thy
ME MO
CR YP
gen us
je k
09 70
TE M
Ad ler
Hu t
Hu bert
Hu mph
BD 001
NC soft
NC BI
own er
wa gon
DC I
net ti
ES L
06 50
Pe ng
DR 2900
DA YS
HO MO
MC S
MC AS
ance s
NG A
sy mme
Ke strel
Ke ffals
Pu sh
ning ham
IF I
Fran kie
08 30
Du l
Du ffy
Ser vi
Mon th
Mon mouth
Cor k
LL S
Bi ble
RI M
RI ES
ren o
SP Y
SP OT
Bri tan
San chez
mar anda
fa hr
Per se
Per forming
Har lem
Har vard
Man n
Man or
GP A
GP IB
BE L
BE AST
ker nel
TT P
NH TV
Is sue
mb s
mb our
Gra mmar
Dis cord
Or z
Or bi
Or tiz
Tra dos
Pri va
Nor ma
mas sive
Game Pro
CL AMP
CL RG
El vis
El sie
Ber k
Ber had
ser va
IL UB
Vo i
Vo te
SH P
yi eld
Fu nda
Fu ller
TR OS
Wa h
Ty son
Char ge
Char ity
Star k
Star r
hy dra
ex d4
out side
SL M
ãĦ ¡
ãĦ ¬
ac cept
tri a
Mat su
SD SS
Che m
pri or
Cy cle
Cy world
NF T
Ku z
Ku lai
CS V
DD G
RC T
Cl 4
pre si
car rier
UP 10TION
Universi tas
Her mes
IR IS
Pau line
Ani mals
MG M
Ben son
Ben edi
AO G
PL M
PL EDIS
DE F
H2 S
Can non
Sha wn
Ele k
Ele mentary
Ele phant
Boo th
fo cus
Stre pto
Va cation
âĹ ¯
Chi ck
Pat terson
Ce yx
DM T
sen se
BI RT
star ted
Big ben
por o
WE LL
DF 11Z
YO UT
Ci ties
Ci ud
Media Works
sso ver
EF 58
Mer cy
XX XX
Fin als
gon o
Ter ror
GA E
Jack sep
Jap alu
set te
set ter
Power VR
ð« ŀ
ð« ĩ´
py ro
enti als
Free form
Pan tai
Recor dings
Min as
vis o
Ken tucky
LP 1
LP 6
Tor n
PM R
Por n
Met view
223 1
Bur ning
pla in
pla tz
Rock ef
spe ed
Dig it
PE ER
Yu ki
B2 O3
NE ED
Cap com
Sun OS
Road ster
Ros si
Ag reement
Ger tru
Ger many
PA SMO
Pra bha
BB P
Cra sh
Eli as
lea ve
lea der
win main
ani on
ani mal
ani mator
fra ction
fri ca
Plan ck
Bel gium
Sal on
Prin cipal
Cha in
Bob bito
Fun k
áĢ Ķ
Direct 3D
Glo ck
Fle ur
iPad OS
501 D
dd an
gre es
FT X
FT Island
tha la
Joseph ine
PK CS
DB RS
GR AND
Van tage
CV H
CV SD
Ji ve
Sil k
Nu tri
Hist oria
Poly dor
Lan des
Os kar
list en
JT WC
OT HER
Cur ve
Cle ment
Block Buster
HA EC
Ly on
Yo ga
sig ni
sig na
CU BA
Jon as
Sc en
Dar by
Dar win
Rus sia
á» į
á» ĵ
SV D
SV X
Ath ena
Cir cus
End point
CON NECT
Bou dica
Bon nie
CB RE
Tan ner
Tre es
áĥ ¡
ros aurus
Nico la
mina ted
alle l
tai re
Cru el
SIG FPE
stu dies
stu iver
Secre ts
ARM v
tina e
private ly
Cine mas
sit ta
806 A
Aven tador
teri an
Multi ple
NR K
NR N
some thing
Fal con
Draw 1Sheet
Draw 6Sheet
vat ar
FL Y
Ir DA
Ir win
tru st
PB P
Simon s
Syn c
SON IC
Ander sen
GC MG
cen te
oph one
Cre ation
Clar ence
Mari time
Alli ed
lle ry
Qua si
Water fox
who le
Edu ardo
cla use
Fl ore
Bang kok
AW ARDS
even ts
Pres ents
ext ent
mani an
Kw ong
Sand ra
hol m
True Type
til s
tice ye
sili en
Haw kins
Greg or
ARE NA
Epi k
Jes sie
dire ctor
Flow ers
Zo e
Liber al
host ed
Ax H1
Eri ka
Phy si
IFF HS
Bio Ware
ìĹ Ĳ
Dal croze
flu oro
neu ve
Control ler
Rh ino
ZO O
Sher ry
Ol ga
SY S
Brad ford
Every thing
Wri te
pho to
Front Page
rela ted
Six TON
boy ant
sele no
hydro gen
COS MO
lik ely
Buzz Feed
Four th
Active X
PRE STIGE
RAD WIM
gran dis
Rob bins
Arm and
Hip po
Acc ent
Hg S
differ ences
Ess entials
mea ning
Double Vector
dri ve
Challe nger
Colo nial
Ep worth
Isa bella
Loo p
emp o
Psy cho
ìł ľ
Level 3
chang es
sequ ences
colo gy
K10 23
ile en
Dual Sense
Plat forms
fur t
dica ted
Bap la
Pun k
Tak es
WAN NA
osi tion
Hou ston
Lol lipop
Chat Secure
Fay e
Fay lan
Brow ne
Hus sein
Mala ca
JY M2
Jun ction
ë¹ ł
Aero Scope
Nf 3
Rhyth m
Vu itton
bino gi
Domini on
brea th
bir ds
Fellow ship
HSD 2
Kang ar
â¼ Ī
Yoshi ki
Pari bas
velo pe
Wan ted
ëı Ħ
TEP70 BS
Cant onese
Ev ange
ë§ Ī
ìĨ ¡
pie ces
gem bira
Scho lar
Speak toit
íĺ ¸
result s
Amb ass
goo gle
kat su
lb f
tele vision
Dinosau r
PTC H1
ãĨ ¦
ê² ½
ê² Į
appli cation
Piano Staff
Thin king
Samp son
Snap dragon
mee ting
Nie der
cyc lin
Tribu te
Treat ment
quarter finals
Azi z
LJ 200
Trea sure
UTA U
gart en
ë¯ ¼
ordin ary
nucle us
Rebel lion
Monu ment
Ferr ari
occur red
Athle tic
Jing le
Korn Shell
eX TP
Daw son
Cami lle
SPO RTS
ChoCo 1
E9E9 E9
Eun os
UZ 413
acc ounts
íĻ Ķ
Instal lation
Advis ory
zeu g
Orga nic
Stern berg
ð¨¥ Į
6LX B
Fel on
Ln B
Nin ja
Chance ll
Laz are
Cata lina
Kaz akh
Orien ted
Vani lla
techni que
Cun ningham
Hass an
LAC NIC
Sna ke
SWE AT
Chronic le
cyto sis
McKen zie
ð«ĵ ´
Psych ology
Cort ana
Uti lities
Zeni th
wild card
colum n
Viet nam
communi cation
Ene my
materi al
Cost co
conside red
Poe ms
famili es
Maggi ore
CER N
Dend ro
vare z
oprote in
NAMA NA
Martine z
appo inted
Catho lic
AVRO TROS
sylva nia
Practi ce
Plea sure
magni tude
osci ence
Delu xe
Ans wer
expe cted
Unpa cking
Valu es
Capp ella
Squares pace
AW50 F
LAG EOS
Reyn olds
LOOP ERS
Galla gher
eee N
environ ment
GON ZO
MNL 48
Oppen heimer
Zom bie
Dacent rurus
Trivi um
Salvat ore
Vancou ver
Saravan an
Connecti cut
DUNB INE
FNH TR
FIFT Y
GRe eeeN
Ipomo ea
Liss otriton
íĦ °
Membla ze
MAGAZ INE
Colanto nio
Jacksep ticeye
Japalu ra
Rockef eller
Prabha karan
SixTON ES
RADWIM PS
0 300
0 260
1 V
1 mm
2 E
2 160
2 240
3 P
3 x
3 240
3 456
3 O4
5 E
5 BC
7 M
8 K
8 p
A 29
A 33
A NA
A ke
A man
A AR
A ran
A mer
A EC
A del
A BM
A za
A las
A rie
A ria
A kh
A run
B Q
B q
B 20
B SA
B ara
B org
B URN
C g
C n
C 21
C PC
C ere
C ys
C IPS
C EPA
C tags
D re
D MV
D ina
D NCE
E 22
E ly
E ster
E PC
E den
E red
E FM
E 131
E 610
E OM
E ason
E phe
E ternal
E isen
E ury
E ileen
F Z
F TC
F us
F IF
F AO
F alk
F ECT
F WD
G D
G K
G n
G hi
G AP
G La
G AN
G our
G ama
G ARD
G wen
G iga
G INA
G HOST
H ind
H ano
H era
H PO
H als
H UT
H HL
H VC
H idden
I c
I mi
I ts
I mm
I AV
I MO
I gni
J SM
J BL
J ens
J ama
J G1
J elly
K ow
K ne
K ron
K GB
K DK
K RY
K DDI
K OKO
L K
L ed
L PC
L AS
L AD
L MD
L ange
L MT
L andy
L iga
L ARS
L eroy
L lew
M 40
M ow
M 48
M ant
M DR
N 5
N MI
N PR
N UM
N aka
N xc3
O t
O ka
O CN
O CC
O PP
O TR
O GN
O PV
O ue
O LAY
P n
P lo
P les
P ill
P AA
P ring
P UB
P IX
P anda
P ATA
P elle
Q W
R b
R op
R AL
R AI
R MB
R RA
R AIR
R ings
R ally
R elo
S 21
S IN
S 32
S II
S CO
S int
S ko
S RS
S WF
S cul
S CHO
S warm
T 9
T 64
T IC
T PS
T art
T ren
T DM
T B2
T 221
T ono
U 1
U 4
U k
U lu
U mar
U GS
U DI
U ryso
V SS
V all
V ampi
V eni
V tuber
V IVA
W 6
W BA
W AC
W ren
W ING
W PA
W FT
W ARS
X 28
X SS
Y or
Y at
Y oo
Y op
Y AO
Z T
Z 18
Z or
Z ara
Z MO
Z ie
Z hong
a 3
a gen
a ffi
a bility
a bec
b st
b lan
b ada
c tural
d ot
d rou
d tor
e 2
e ti
e mo
e ff
e ka
e volution
e asy
f ou
f at
f ill
f ight
f lex
f ong
g 8
g op
g eri
g rin
g lass
g ans
h 3
h h
h it
h os
h ors
h ook
i ca
i Pro
i Chart
i lers
i Nat
i terator
j ero
k hu
k he
k ali
k off
m bi
m ori
n ara
o ms
p 78
p 53
p ran
p anda
p lica
p rene
q t
r p
s la
s we
t ow
t ant
t ower
u z
u sion
u rus
u ltra
v m
v os
v ind
v ora
w et
x l
y la
y ck
z Ã¨n
z ys
z aki
» º
Â ¾
Ã ·
Ä ©
Ä ķ
Ì ©
Î Ŀ
Ð ¥
Ð ¬
Õ Ģ
Ö Ĥ
â ŀ
ì ¦
í Ĩ
ï ¿
Ĭ »
ng le
zh en
ji d
de la
de es
sh ar
sh oo
sh ore
sh ak
sh oot
sh room
gu m
gu ang
ch l
ch oose
li O
li r
li mi
li ts
li tes
li tt
li ning
li nus
li brary
li terature
du sa
du cing
qi r
20 80
20 39
20 42
20 63
le gis
le gal
le pis
bi ni
bi us
bi um
su a
su k
su cc
ti en
ti ge
ti fi
ti ana
ti tan
ti cola
chu k
chu an
di sp
di ent
di ers
di vision
di cate
tu nity
lu pi
lu na
lu ca
en han
en code
10 600
mi i
mi ca
mi lian
mi zation
mi litary
mi gration
00 000
00 40
12 A
12 m
ni Ã¹
ni th
ni ck
ni no
ni ger
ni zation
11 A
pi es
pi the
pi llar
or ter
or tho
er ator
an er
15 A
15 mm
âĢ ¡
la ir
la tive
17 173
ar ra
chÃł i
30 M
30 78
in de
in no
in nova
ge low
25 W
for th
for ward
24 50
24 52
al t
al bi
21 12
23 29
23 63
th il
th rop
ou ts
re k
re di
re fu
re por
re lea
re port
re cent
re ality
re mix
re hen
re turned
re ceptor
22 27
22 79
me sh
me er
ri dae
ï¼ ł
te ll
ro lo
ro sp
si as
si des
si RNA
ra ta
ra ma
ra co
ra it
ra ted
ra sa
ra ture
40 50
ãĥ ¨
60 Hz
cu n
se la
se tup
ta mi
ta ine
ol di
el m
el les
ma ha
ma les
ma tica
ãģ ¥
of sky
et ter
et ano
il k
il or
co il
co mes
co cha
co ach
co splay
48 V
and an
ter re
he xa
ck ley
36 80
ne tic
IN SA
IN DEC
is y
is son
is sues
bo a
bo la
bo tt
TC I
ve c
ve sic
as ser
to ok
nu t
nu clear
65 nm
Ch ir
Ch ara
Ch andra
Ma gn
Ma ys
In d
In ver
In put
In fan
In depen
In stance
In visible
ST P
ST OP
ST YLE
it ter
lo y
lo gic
SE X
SE CON
The Wrap
Co c
Co q
Co ch
Co met
vi ro
vi ola
Re el
Re vi
Re lay
Re ef
Re fle
Re sistance
Re quest
Re presentative
na c
na mi
na sium
ci pi
ci dae
ba b
ba te
ba ta
oo p
ay ette
ca shire
ca pita
nd am
pe a
pe er
pe st
au r
SA I
SA CR
SA GE
us r
88 59
88 88
mp ha
id an
id ance
150 P
ha shi
ha ving
Li am
Li es
Li terature
ard a
Ro x
Ro shan
De us
De NA
De par
De von
De vice
De light
De ploy
De Smu
ber s
ber ge
Mi st
Mi ning
Me gan
Mar e
Mar ko
Mar tius
Mar vell
Mar riage
tw or
der land
Al 2
Al ph
Al var
Al 2O3
Al juni
Le p
Le xi
BA e
BA Co
BA FTA
Vi m
Vi sh
Vi Vi
Vi meo
Vi vian
AM BA
hi b
man tic
man tec
AR Y
ry l
ry ona
Mo k
Pro di
Pro vi
Pro blem
con si
Jo ce
Jo vi
Te sta
Te lin
per a
per ror
per fect
ga on
ga st
ran s
Ne me
Ne ill
Ne penthes
da ted
da hl
600 1
Se ars
Se O4
Sta ck
sp y
sp read
120 Hz
Ga e
Ga bor
Ga ston
Ga bb
Ar gon
ot en
lay out
IS I
Be cause
AP R
Da tuk
La c
La TeX
Ra e
Di on
Di st
Di ct
Di os
Di sease
Sa ch
Sa li
Sa ge
Sa ints
MA I
MA S
MA NI
Tu be
Tu ris
Sh ri
Sh ark
ON FM
Lo th
Lo ad
Lo cation
Lo vers
Ja me
Ja mie
Ja vier
do d
do v
do ck
gi le
bu sh
bu ted
bu ild
po sit
So mer
IP M
An ato
Mu d
Mu k
HD L
Bo d
Bo er
Bo at
Bo ck
wi ya
col n
MV C
MV G
SS S
SS W
Pa v
Pa stel
Pa xton
che y
Si ni
Si ck
Si ms
mm Hg
Ri m
He w
He ng
He ck
He lene
He lico
130 J
PS L
Play station
Bu a
Bu chan
Bu ffalo
Bu dget
Ca g
Ca es
Ca ve
Ca be
Ca meo
Ca dilla
Con f
Con stitution
Con sumer
Sp ell
Sp lash
ble ms
En ough
Ba si
Ti mber
Ti mur
Ti empo
AS BR
ia e
end an
end orf
Ge V
den se
den cy
den burg
Na th
Na mes
Na tur
fe u
ka mu
à¸ °
EC U
AL OUS
Ha ku
Ha ni
Ha cker
MS K
Ni ue
EP 1
EP IC
Ju bile
MP 40
Ho mes
Po ng
Po or
Po pe
Do m
Do xygen
US L
US NM
US PEER
go vern
Pi m
Pi geon
Car di
Car ne
RO P
Th read
Th ought
My r
My TV
RE SO
Net Burst
Sch er
Sch wart
No el
No body
ari at
ari os
Lin coln
CP R
Lu igi
âĦ ĸ
Ex o
Ex am
ary n
CH AP
Qu ay
Qu art
Qu ality
Qu entin
Qu attro
AV S
we ig
we alth
MO V
Ta te
ko la
vo or
vo lt
AG T
MI U
SO P
LE S
Gu er
Gu ess
cy on
cy te
cy clol
lÄ« n
chi o
BO B
BO R
AD C
AD AS
IG R
cal ly
Cu A2
cri me
Ru les
Go vern
Fe at
Fe male
Sy lva
Sy nago
Sy mantec
Ka o
Ka hn
Ka oh
CR G6
105 BEVG
je e
je ong
ron a
Hu mani
NC SA
can ce
ze i
ze j
350 2
wa ni
des k
inc rea
ES P
BM RT
Hi RISE
Hi phop
yle ne
MC 68
MC EM
gy m
sy chosis
cor porate
Ke ys
za e
Pu er
Pu ll
Pu zzle
IF 7
IF N
Com bin
07 W
Du x
Du nge
Mon et
Mon roe
Stu tt
à¤ ²
à¤ ļ
NO R
Cor ri
Cor pus
Bi gelow
Comp anion
EX TRA
Bar ra
Bar cel
Bri git
ling uis
mar ks
DO HaD
fa x
Per si
Har bour
Har riet
Man di
ds en
ja ck
04 40
Je wish
Ed mond
RS 232
Mac Donald
LO G
Live Script
cket s
Pre ston
Tri al
Tri ck
Tri bun
Is le
Is mail
SC F
SC AND
Dis position
Dis patch
Or th
tra ction
lis in
El le
El lis
220 6
Ber gen
ser a
sti que
Fu ni
TR Y
TR UE
tor q
ano don
Gen ius
Mc Eni
SL T
ãĦ ī
ãĦ ĭ
ãĦ į
ãĦ Ĵ
ac oustic
Wal ton
ans ara
lia th
lia ble
260 X
ces sion
Un win
Un pretty
Ac er
SD F
Bra hman
GO G
ï¹ Ļ
ï¹ ļ
Cy ano
Cy thon
Cy lind
NF 1
Ku ru
Ku hn
Ku ala
Ab solute
ong o
Wh irl
car o
car is
car box
As sist
ona mi
Day ton
cer tain
IM AP
IM ATION
UP DRS
Ver tigo
Her riman
Dra gons
lie se
Air borne
IR A
NT SC
lor d
inter pre
inter action
inter mediate
MG 45
Eng age
Ben o
Ben ny
Colle ctor
day a
PL Z
work ing
work ers
par ity
228 3
228 7
Ele m
comp ara
Boo st
SQ Lite
OK B
Va lery
âĹ ģ
Chris tie
Pat rol
Ce les
Ce leron
Ce cilia
sen hausen
Pla in
Pla teau
star ting
At lus
RA H
RA IN
HI EI
bra te
Mer ri
Mer ced
XX I
Fin n
Tran sp
Tran silien
Black well
Peter son
Rich mond
Lee la
bin ary
Power ed
Power Shot
Sam my
ð« Ĭ»
bel ow
py l
Dire ction
Fla t
Life style
Pan el
Min h
Min es
vis or
Ken ya
Ken zo
Cent en
VO C
VO REAS
Alex ei
LP R
ple ss
Sing ing
spe ctor
spe ech
VE Y
B2 C
Whi stler
bre gat
publi que
lit zer
Sun rise
Tele pathy
Ze it
mit su
Mil lennium
Ros so
off in
Pra tt
temp sychosis
Good man
Cra fter
GT 3
O2 O
O2 a2
win ner
ani ty
LD L
Tur ki
Mas jid
West minster
Fre i
Prin s
Prin temps
234 A
Squ ad
Vir gil
Core y
ars ki
ful ness
Institu tion
Cha o
Res pawn
Vol ley
247 D
Camp o
SN MP
wid get
BF 4
tran sit
tran sportation
Hot Cha
MU SA
run ning
áĢ Ĳ
ìĿ Ħ
Direct 2D
Bank ing
Jean ne
Home Pod
CF D
sur vey
AE K
AE SA
AE ON
Gold berg
Han son
los copus
Comic Walker
MT B
cl oud
nga h
Rap star
cti o
has bro
à¹ Ĥ
Stra its
Pala cio
Long horn
Tw enty
Pas sive
Pas senger
Ban ner
Ban que
Wat ts
Wat kins
Em bedded
clo sing
Bor der
Hor ner
Hor ses
Out put
Out standing
Sum mit
fun ding
Cas ino
Lan cashire
Os aka
cent ral
Ham mond
Sig ns
SHO P
Ur qu
ii i
chen kov
Op tical
277 X
2A 6
Gran ate
SG ML
á» ħ
á» Ľ
KO I
à¦ ¯
Cli ff
Cli nical
Cer ro
Bre t
Bre tt
C6 H10
End less
Tro t
ome ter
ome ga
PT I
à½ ¢
à½ ¼
à½ ĺ
Bon us
DT D
Law son
fea tures
áĥ Ľ
Stan ford
Acade mic
F4 F
ERT Y
gis che
vet te
Blu et
Pay ne
Mis sing
Set tle
fla t
AH H
Lam bert
Not ch
ont ology
CH3 COO
LG D
Sau ron
USA N
Lar son
Has tings
S2 N2
ques tion
tr Ut
God frey
OD BC
Who lesale
Cast el
stre ngth
ìķ Ī
MY M
806 B
cel lu
Joe y
Port rait
some times
hl berg
Eric sson
Cross Fire
Augu stus
FL AG
FL ASH
Ir ving
Spring s
ðĲŃ Ń
Sol dier
Angel o
Ap pe
Dyna x
0x F
Kel ler
Kel vin
Nar in
pos tures
à® ¿
ophi lus
TG F
Mos ley
cla do
By te
Rod chenkov
Vio lence
Ale ks
Sho al
Hotel s
Hard y
Siri on
Gun ther
ðª »º
Mod haus
Common wealth
Fred dy
Pres ent
flo or
Classic al
Ker ber
Express way
high er
Intelli J
Communi st
Anth ropology
Eye Sight
vari ous
á¸ «
Kha led
Bow l
Bow den
Bow ie
Ea ster
LX DE
pas senger
Appli ed
FINAL E
Bun des
Bun ker
ìļ ¸
Silver man
function al
NN RTI
dire cted
mark t
Planet ary
sci ous
Pur suit
Rea der
Bio graphy
Henri k
thor ne
Build root
Jac que
Person s
WP ATH
fre qu
fre quency
Flo yd
Hop kins
vas cript
Dur ham
Gau mont
Wit senhausen
pia zza
052 C
wri ter
dig its
MOS FET
Wer ke
Wer fer
ìĦ ¸
there fore
Ia in
Pere ira
Vin ci
Manu al
Dam ansara
NY C
Dick inson
Tac tics
Wave let
elect ron
MED IA
MED LARS
wel come
Deuts chen
INT RO
Snow man
fig gy
Maxi mum
kee per
Shot gun
Opera ting
wo man
Had ley
Tang o
exi st
flow ers
cry pt
Bol onka
Valen tin
Cau se
Got ti
Nat sume
ela ta
mem br
IZ AM
Loo king
Ul rich
Emer ald
Hur st
Llo bregat
comm and
provi ded
Twi ce
nap tic
Dual Shock
OG LE
Slo va
Roth schild
JJ 20
gri ty
dyna mics
Hou sing
Lol ly
jour nals
Quar ry
Bam bino
rang le
Labor at
Sue z
Supp ort
ATC C
3900 PV
Scot tish
Ast ronauts
Kal man
M9 A1
offi cial
Kath ryn
Bart olo
Bart lett
Dir k
pad ding
child ren
Pris m
Vul ture
brea thing
cchi o
hea vy
SEP v3
PSY CHO
Juli ana
object s
Kirk land
Aur ora
every thing
Mand riva
PAS GT
Xe on
SEL ENE
Pari sh
Vocal oid
Pt Se2
pf Sense
regi onal
Dura torq
CF3 SO3
Cit rus
Kau f
NER V
Peri od
c2 c
Christi anity
Bot tom
Kamp ung
Rang ers
ë§ Į
Intro ducing
Mela yu
Administra tor
Corne lius
Butter fly
Enri co
Luci us
Gui ded
formos anus
Cum berland
apo lis
Pata h
NV Me
Maz da
CES U
Ira q
Vari ous
invest ment
Ree ves
Reco very
Sac red
Atta ck
CID G
Grow th
Nes bitt
TRI BE
á¿ ¶
Inno cence
Indone sian
prof essor
Clau dia
JE ALOUS
XR ATED
restri cted
viri dae
NADP H
PPT 2000
Blow fish
Zin cke
econo my
vul garis
Marce lo
Rubber Band
Giba chan
Deutsch land
Mig os
lec tual
Isla mic
ð°¾ Ħ
Aber deen
SDP 35
Session s
ZK6 105BEVG
Meli ssa
Alter native
CRO P
vn Stat
ëĵ ľ
reli gi
Instal ler
Marvel ous
Filip po
Scha ff
Schwei z
Gonza lez
ð¨¥ ĭ
LIT TLE
TGM 4
Wed ding
acade mic
resi dual
Mexi co
BAND AI
Argen tina
POW ER
frac D
scienti fic
DAN CE
Ngu y
Sed gwick
dend ron
mole cular
Bei jing
astrome try
Penn sylvania
Cly de
Ela ine
Fig aro
quir y
baba w
Constru ction
saf ety
Favori te
Clip per
Feld man
HYP ER
Pse ud
Craw ford
Volks wagen
Illustra ted
Bald win
Cis co
jd k
asan as
Gastro dia
Satur day
Judi th
disco very
Eleon ora
ð«ĺ ©
Cros sing
Expan sion
Acan tho
ZC 45
Nether lands
ECMA Script
Guar dian
Ether net
Htt p
Qo S
Sinc lair
Vero nica
terrane an
STICK ER
Ricard o
Consult ancy
Sprin ter
Interval Zero
Expe dition
NORN 9
Jeffer son
LOVER S
TEDx Taichung
BUR VEY
CIN ITY
FAIR Y
Gosp el
íļ Į
spons or
Dami en
Antio ch
SOUR CE
Flam boyant
PREMI UM
Dw ight
Ebo nics
Migh ty
TEST V
Albre cht
Soyu z
Fif th
Steph ens
Phyl loscopus
mbour g
Ciud ad
Chancell or
Gn RH
GLa DOS
Oue st
Pring le
Uryso hn
pran ayama
SECON D
DeSmu ME
Aljuni ed
MANI AC
Turis mo
Cadilla c
Kaoh siung
Combin ator
Barcel ona
SCAND AL
McEni ry
Granate 21
trUt f8
JEALOUS Y
. _
0 301
1 E
1 T
1 TV
1 TB
2 m
2 150
2 1600
2 145
2 167
2 Sheet
4 2000
4 Sheet
5 X
5 g
5 109
5 354
6 B
6 F
6 174
7 E
7 K
7 127
8 B
9 E
9 S
9 mm
9 M3
A mu
A ro
A bo
A ig
A ly
A 53
A mo
A 51
A um
A AI
A go
A cri
A van
A min
A ye
A sti
A xel
A tom
A lert
B H
B g
B 15
B IP
B IT
B lin
B UT
B V1
B enton
B c5
C b
C 40
C ig
C AC
C CP
C line
C ie
C UP
C AMP
C Bee
C rane
D b
D du
D 30
D 34
D 99
D CO
D ent
D ON
D IP
D are
D AL
D EP
D TE
D ans
D IR
D 301
D LD
D orn
D ella
D HL
D AKA
E Q
E z
E ck
E nu
E ld
E MS
E mb
E ach
E VE
E rich
E vol
E nig
E valuation
F ad
F ak
F are
F 3000
F ES
F NS
F DM
G Z
G IN
G OS
G 63
G um
G ore
G ER
G lan
G 03
G TS
G SL
G DM
G RA
G org
G aya
G DH
G liese
H X
H AM
H one
H CN
H AV
H ess
H BM
H oot
H itch
H ille
H JK
H COO
I J
I TC
I to
I do
I bu
I RE
I BD
I sid
J 8
J AR
J um
K D
K es
K 48
K IN
K one
K IV
K FC
K yo
K 147
K rie
K Office
K 307
K POP
K 1625
K 1779
K hai
L B
L lu
L al
L us
L AM
L AR
L um
L ON
L CH
L ING
L MF
L ISA
M 30
M 38
M 68
M um
M IS
M 1938
M CC
M 1903
M DP
M ood
M ens
M 689
M ARS
N B
N J
N 95
N ara
N ort
N EST
N SO
N igh
N TR
N NS
O A
O g
O ni
O ry
O AS
O tis
O TP
O vis
P te
P AP
P ant
P AK
P ray
P JM
Q D
Q M
Q a
Q 10
Q 16
Q UE
Q b3
Q endre
R s
R AS
R UR
R aya
R ural
S Z
S q
S x
S 13
S 25
S 100
S per
S IC
S US
S cal
S DA
S FM
S ena
S vet
S IDE
S maranda
T 10
T 50
T os
T all
T sa
T RE
T IA
T PP
T SC
T 129
T LP
T KK
T 2A
T KO
T WO
T FE
T apu
T AKE
T onale
T arski
U ru
U ST
U BS
U da
U TE
U CL
U sed
U ral
U GA
U Cloud
V H
V X
V IN
V ST
V IC
V olo
V SO
V TT
V CS
W ow
W op
W PS
W MO
W BO
W ank
W PT
W ARE
W AKER
W BSC
X 11
X 38
X ing
X ia
X 01
X SF
X treme
X Scale
Y 1
Y K
Y et
Y ur
Y PG
Z D
Z I
Z ig
Z ent
Z EN
Z 230
Z 216
Z 218
Z 232
Z XC
b p
b ree
b old
b ner
c x
c cia
c tical
d han
d rin
d sp3
e 6
e in
e se
e MMC
f 6
f ind
f lor
g A
g P
g ad
g ard
g ap
g gen
h s
h il
i 5
i Q
i ji
i sit
i lisin
j t
j es
j son
k p
k id
k ang
k wa
k lub
k ilo
m A
m and
m be
n 1
n k
n Ç
n Äģn
n art
n ant
o th
o ta
o vi
o vo
o cer
o mics
p n
p ng
p ou
p ang
p 52
p las
p ond
p tian
p hus
p ont
q an
r 8
r er
r ha
s d
s mi
s ad
s ap
s eri
s low
s cho
s ama
s cript
s creen
s ources
t ol
u b
u ti
u lo
u man
v ve
v all
v ada
w ir
w au
x 0
x 4
x 5
x html
y es
y ne
z l
z m
z os
z art
z ka
Ã Ĩ
Ã İ
Å Ī
Å ĳ
Å ŀ
É ª
Ì ¥
Í ¡
Ó ĺ
× ¡
× ¢
× §
Ø ¡
Ø ¦
á Ĳ
ã ĩ
ð Ŀ
ĳ ľ
ji ca
de p
de ro
de au
de ville
de cla
de aux
de cision
sh ma
sh kin
hu ke
hu mb
gu t
gu ess
gu tta
yu u
ch as
ch au
ch op
li th
li ed
li no
li bri
li dae
li ghts
li hood
du als
20 A
20 90
20 65
20 55
20 54
20 52
20 73
20 93
le man
le ment
bi ri
su med
su gge
ti ck
ti po
ti eri
ti nus
ti mate
chu set
di en
di et
di as
di ffi
di dae
di stance
tu t
tu si
lu k
lu nar
ju ng
ju stice
zi g
ku m
en de
en sive
en coding
10 400
men sis
men ko
mi ta
00 30
12 GB
ni r
ni ch
ni ak
ni gs
ni tz
or ge
or ga
or ted
an x
an os
15 th
16 S
la la
la wi
ar ri
ar man
ar gen
ar ina
zu s
30 X
30 cm
in u
in et
in ser
in fo
in dependent
in jury
25 60
25 66
25 41
25 1A
for ge
for ced
24 k
24 30
24 77
24 94
24 A1
mu st
mu si
al gebra
al veo
21 30
21 st
st am
23 90
23 96
28 60
28 52
28 800
th ai
th ous
th ouse
th orn
th ings
th resh
ou e
ou ds
re c
re v
re set
re ira
22 10
me th
me ga
me thods
26 60
50 20
ru r
ru bi
ri en
ri and
ri ga
ri ft
ï¼ «
ï¼ °
ï¼ ´
ï¼ ¶
29 K
29 60
29 38
ro bu
si da
si do
si ana
ra z
ra mid
40 19
40 PPD
40 PPT2000
ce k
60 km
am ount
cu sto
se f
se k
se en
se as
se va
se lin
ta v
ta xi
ta la
ta ka
ta dis
ol ph
ol fo
80 80
ma lay
ma ble
ma tes
ma lade
ãģ º
70 X
70 b
of fic
90 B
90 75
ãĤ ¥
ãĤ ¾
es sa
at z
at re
at ry
at ric
at titude
ow ay
ow ned
45 67
45 66
co at
co ok
co sta
co ins
co sm
48 000
and t
ter minal
he u
38 20
ne ck
IN CL
is a
is cher
is chen
is sue
bo ss
TC A
TC M
ve j
ve in
ve ys
as px
75 X
to pe
to pic
to pia
65 000
Ma tis
Ma vil
32 KB
In va
In kle
In oue
ST M
ST AND
it an
it self
33 70
be it
be ating
SE AS
The me
II PM
Co d
Co al
Co bb
Co pper
Co vent
Co ordina
vi ni
vi st
Re con
Re lation
Re 465
na mes
na tus
ad on
br on
br ought
ver si
ci c
ci st
ci um
ba k
ba tu
ba co
ba ya
oo sh
58 50
ca th
ca pital
nd y
300 5
300 mm
AT K
AT ER
AT EEZ
ing er
amp li
59 X
43 12
op f
op ha
op tic
os ome
99 00
SA GA
mp 3
mp ton
mp his
mp hus
400 3
un es
ha sh
ha il
ha ir
ha gen
ur on
NA K
NA 29
NA MI
NA DH
Ro sh
Ro of
Ro tem
De p
De mi
De co
De mon
De cla
CD P
CD U
ber man
Mi mi
Mi ki
Me an
Me lio
Me adow
Me mphis
Mar se
Mar kus
OS R
Al cy
Al bur
ang ular
98 50
You Gov
ap ons
Le ng
Le eroy
ke sh
ts pur
CO UP
CO ZMO
mo c
mo va
Vi vid
Vi ckers
Vi cente
hi p
man ent
AR B
Wind sor
Mo or
Mo han
Mo ses
Mo ving
Mo bility
Mo ngo
Pro ctor
Pro tec
Pro sper
va i
va lier
con ve
con ference
con cept
con ditional
con fir
Te i
Te m
Te lescope
per cent
ga ff
ga sus
Windows Azure
Ne i
Ne ural
da vi
87 60
Se m
Se ver
Sta tic
Sta ble
sp ru
sp ent
Ar meni
ot r
ot te
IS W
IS IR
IS C2
IS DN
fi ra
ED 75
ED BA
Be ers
Be we
AP X
Da la
La ch
La wn
JR N
Ra h
Ra z
Ra id
Di v
Di ve
Di ther
Di ary
Di ale
Di dier
Di vine
Di xie
ID EX
ID EA
Su zy
Sa e
Sa ver
Sa lus
Sa bai
Sa git
MA DS
Tu ring
tic als
Sh ay
ak ov
Lo mont
Ja g
Ja bber
do ng
gi us
gi ate
bu ri
bu ya
So la
So ar
So cks
AN Z
An and
An ly
An hui
An cient
ho on
ho lt
ho mo
ali ze
ali sti
Mu rat
We ather
sta ir
sta tes
sta tisti
HD AY
Bo B
Bo T
Bo li
Bo la
Bo ta
wi z
SS K
IT AR
Pa ir
Pa stor
che mical
che mistry
by r
Si S
Si k
Si mula
Si ro
Si am
Si ster
Si eg
Si lence
Si gur
250 4
250 km
91 W
Ri vest
pp b
ph alo
ph osphate
He im
so nic
no ise
PS N
Play ing
Play ground
Bu ng
Bu on
Bu te
Ca 2
Ca pita
SM TM
Con vention
ble d
ste el
ste ine
com men
Ba sh
Ba in
Ba be
Ba ga
Fi st
Fi at
Fi ona
Ti x
AS HR
Wi fe
Wi ley
ara ch
den tal
Na 2
Na v
Na si
Na dia
Na 2S
ET ING
fe ng
sa les
sa fe
To mi
To by
To ggle
To bias
170 cm
EC G
AL P
AL PHA
Ha z
Ni col
Ni shi
EP 2
hn ess
Ju de
HK RIA
Ste e
Ste ward
Ste fano
MP Q
MP 36
AI X
Ho m
Ho le
Ho dge
Ho bby
Ho ltz
Ho tspur
Po on
Po Lin
Po mpe
Do ge
Do min
Do dd
Do mestic
go c
ya le
Pi et
Pi cture
Pi kazo
Car at
Car pet
Car rano
RO SE
Th ay
My o
RE BOOT
pro ba
pro je
pro cedure
ven ture
ven ess
ven tures
Ki X
Ki e
Sch wy
No ise
ari as
ari ya
Lin es
Lin den
âĪ Ģ
FC I
my B
Lu t
Lu ther
Lu cia
CN C
Fa bian
Au g
New port
Ex pression
900 1
Ph el
Ph eno
CH P
CH S
dia gram
dia meter
Qu er
TO ON
AV A
For s
And rey
MO C
Ta o
Ta se
Ta co
Ta it
Ta blo
Ta dich
fu ture
ko on
vo d
vo i
vo ir
AG O
MI G
MI KU
MI RAE
SO E
LE AP
Gu cci
Gu est
Gu ido
Gu nung
Gu inea
enter ed
AD M
IG S
Cu 2
Ru pert
lin ary
Go es
Fe ver
Fe minist
Col laboration
Sy ste
Ka zi
ME ETING
CR C
CR F
CR TC
CR OSS
CR 2032
CR AFT
gen i
gen ys
3D M
3D O
3D CG
IA E
lan s
lan ding
lan ders
09 II
Ad reno
Hu g
Hu ge
Hu ff
Hu stle
Hu bbard
can not
ze k
ze wski
ina ted
BM X
dy lus
Hi ckey
Hi stoire
06 90
Pe a
Pe gasus
tel s
tel lo
DR IVE
mon a
mon th
DA B
DA F
gh ty
125 cc
HO LD
Ko m
MC 1R
gy ne
NG TS
Pu ff
res sed
tin al
Du st
Du ff
Du bai
Du blin
ref le
World Cat
Ser en
Mon d
Mon ter
Mon day
Mon tre
Stu mp
Stu pid
à¤ ·
à¤ ľ
Cor ona
LL Y
LL OW
Comp ara
Comp act
RI R
ren ts
RT HK
EX TASY
Bar o
Bar u
Bar nett
ling ham
San jay
mar king
DO E
DO PA
fa h
fa ci
Per fe
Per sian
Har der
Har lan
Har ald
Man us
ja e
GP 39
GP ON
GP WS
back ward
Je al
Je ws
ring e
LO OK
Gi ft
EE K
EE MO
Pre d
Tri gger
PP G
PP TC
Gra d
Gra pe
Gra phic
Gre ater
Dis aster
Or phan
Or dn
Or bital
Tra k
Tra ins
Pri mi
Nor a
min es
ye on
450 1
Game master
El lie
220 V
Vo gt
SH AFT
Fu ng
Team s
Wa pedia
tor ia
Char li
Char ter
Char ts
name space
Eu l
Eu ph
Eu reka
UR NS
hy brid
lla ry
TS R
PO E
Mc In
Mc Cor
Mc Lar
ex er
ex ha
SL IB
SL WT
ãĦ ¥
ãĦ Į
Don ovan
ac tually
Wal t
tri p
tri fascia
David son
Mor k
Mor an
Mor se
Mor eno
Pet r
Pet ra
Mat plotlib
Mat thias
ces ses
Un plu
Ac cu
Show nu
GO TO
GO LD
GN I
GN TA
Che f
bur st
pri ce
cle ro
Cy c
Cy press
Cy ril
VA AC
Ku a
Ab hi
Ab dal
AF L
DD H
210 000
Sou p
Girl friend
sil on
OR IG
OR F4
yo zel
As surance
ona di
War m
ffi x
UP I
UP N
dis lav
dis cip
Universi dad
lie b
lie st
IR Gs
cho y
cho le
NT P
Games com
Hy p
Hol m
Hol den
MG 74
HT PC
MB P
Hen ning
AO L
ass in
H2 O2
1400 1
Ali ster
TP M
Can vas
comp o
comp osition
fo lium
High land
Spi ca
IU M
zo ni
She ffi
She ikh
Sur round
Pat ti
Ce ti
gar de
sen ior
she v
CG S
DF A
Tech ni
RA W
RA Y
Ye ung
Ci te
Ci tadis
bra i
bra cket
Lou vain
Mer curi
bal loon
Fin ch
Fin ally
Kar in
Tran si
Black burn
Black pink
Ter rit
Ter race
gan j
Peter pan
M2 A1
Rich ter
ada o
Win ner
EM Y
Space Ship
Dire cTV
Ang ry
Fla k
Fla vors
stro phe
Life time
Er men
Pan ama
Dream ers
mis m
Am anda
Pop y
Pop ular
Pop ulation
Pop Corn
Cal le
Cal led
Lau n
Lau rie
Lau rence
PM F
Shi re
Shi elds
Met ra
Bur ke
Bur ton
spe c
SF 31
Fer gus
Yu en
Yu an
Cap ture
Cap ella
Tele graph
American s
Ze e
Ze o
Ros ali
Ros enberg
Ag gregate
off set
Cla ir
Cla us
Cla do
Pra et
Pra gue
CT X
CT 270
BB W
BB Y
BB 84
Video LAN
PR s
qui st
qui sition
ab s
Far mer
def ine
FF Y
fri ends
Mas si
Sal le
ViuTV six
bar bus
up per
Fre quency
Prin ciples
thi oni
How e
aya ke
Vol gren
Es cu
Es per
MU CH
PH Y
dra le
dra ft
Mag ni
Mag na
Mag dale
áĢ ¸
áĢ Ļ
DDR 4
Fle ming
CF U
Pen ta
Pen cil
AE COM
Gold medalist
los aurus
Mini mi
720 p
Cri sis
MT el
MT BF
M4 A3
cl one
fin ance
Cry pto
Rap ha
tha ler
Tom kins
chel la
Green wood
oper 1
oper ations
FR P
Mana wy
oni st
bro oke
Des cription
PK X
à¹ Ħ
á¹ ¯
Stra it
Stra uss
GR B
Long man
à¥ Ĥ
jo in
Pas ar
Sil vio
Ban cara
Bru sh
Em manuel
2700 G
Hor st
Hor ney
Sum mary
TM Y2
fun ded
fun ctions
Les son
plo itation
lang er
Sof ia
PID S
tas k
Ham za
Sig ni
VV T
ob tained
Cle an
lta le
ologi a
Yo on
hel le
CU Z
oc ladium
Op us
Dar ling
Engine er
4G 32
4G 63
Sm ooth
SG I
Auto desk
Publi sher
KO Z
Sw ine
à¦ ¨
à¦ °
à¦ ¾
à¦ ķ
Pier ce
Cli ck
Cli fton
STA NAG
Book Live
Trans fer
BBS RAM
Men del
Rain es
blo cks
ini tia
fic ant
bon ne
pur pose
TOP 1
TOP 20
Imp erator
à½ ¦
Jen nings
N2 O
Tre k
áĥ Ŀ
IB RA
Mach ines
TH INK
Nico lae
pat rick
Premi ere
Set Texture
TN X
tai ning
MON KEY
Compu tational
Sau er
Sau ce
USA F
Lar us
stal t
Point man
HB V
Mad den
Mad Life
Ome gA
sk aya
sche mas
JU JU
Town send
Thun ar
Wiki a
mod 2
Archi ves
Metro link
Fly er
Fly me
Ron nie
Key board
512 GB
bes 8
ALL Y
Land s
Mid way
Will ow
Fried man
bat tle
Mau re
NR B
Port al
Sti cker
M1A1 HA
CI RC
TI SAX
Wel lin
open ing
Draw 2Sheet
Draw 4Sheet
Sar ocladium
Augu stin
Der ry
Der yck
Spot light
Syn th
coun ty
coun ted
coun tries
Ap ly
Are va
Pol and
Nar cis
pan ts
pan zer
chy roll
Kat rina
tos aurus
Mari ano
Pap ers
âĤ ĥ
Mes sa
Light ning
Mus k
Sho pee
Than ks
AW ARD
Lor raine
Some times
Qui ett
Gun nar
NEX ON
mid night
Test Widget
Matthew s
Brand y
Kon rad
Pres en
Pres by
514 A
Za wiya
origin ally
CJ K
Tel ltale
True HD
cid al
IRT F
M6 A3
Rail s
produ ce
Cen tu
Flor es
Kra ft
vari ety
âĻ ª
Ana ta
pas sed
stor ed
Stro nger
Basic s
Carl son
Disco ver
ìļ ´
Ak onadi
P4 S3
P4 S7
Flow Back
cap ture
Anime lo
Anime Japan
ìĹ ¬
ìĹ Ń
thor pe
Dal ton
K11 77
BY U
SHOW ROOM
CAP TCHA
sock fd
Card s
ë° ĺ
dig m
MIT RAC
Ster eo
âģ »
âģ Ħ
ìĦ Ŀ
leu co
Mei ster
Here ford
Rank ing
ilo g
Manu fa
Emp a
allo cate
Im ma
Gr p78
Len nart
fini te
forman s
Lock heed
Ing alls
sw ers
Emi lie
Zu cker
Maxi milian
F6 F
FG 00
Los s
follow ed
gran di
deri vative
Git hub
prin ce
Mira ge
Mira cle
Sele ct
Davis on
Sie vey
Acc ount
Acc redi
PU FFY
PX I
Pit t
Pha il
Schu l
differ ence
Invest ments
presen ted
Bour g
Dau m
Dau ghter
cour s
path ping
Valen tino
Cow an
EB RC
Got ta
cou p
dri ven
Array List
Apo sto
Kam al
Woo dy
Cole gio
Alber ta
Ship ping
Ville neuve
Sant ana
got ten
4x 100m
Hur d
Ran ch
Tes la
Tes ting
pot ential
cir cle
cir cuit
Deli very
Pow ers
human s
Experi ment
2S 19
Kre is
Rit su
Scor ched
fur ther
á¼ °
Math ieu
opera ting
opera tive
Presi dential
varia bles
JJ CC
Pb R
Plu gins
Tap Tap
Uta h
nn chen
pass wd
ìĺ ģ
recor ding
dyna sty
jour ney
Chat GPT
PER FECT
VIE W
four th
dem and
Ther apy
Certi fication
Break ing
Teach ing
Table t
Roo ts
ðł µ
proto type
Pris ma
Proper ties
colle ction
Juli en
Asse ssment
EMU 3000
Joo E
LI ME
effe cts
chro matic
atta ck
Instru ment
auri dae
opo litan
Speci fication
Abi gail
CSP N
Easy Language
Gia o
Wy lie
vere ign
Sala zar
DAY 6
Hindu tva
Row e
pf en
tak fir
maxi ma
ð«Ł ¶
PAD O
near ly
asso ciation
bul bs
Moo dy
pie ce
mun di
rup tion
Rela tive
contra ct
Semi conductor
OPEN ING
Clu ster
Ei shin
TX N
Moham ad
person al
Digi tas
Ryu JIT
instru ction
Think r
Sym bian
6K H3
Kind le
Ves pa
Yama nin
deli very
mela nin
Foo ds
Tum bl
invest ors
STOR M
Mecha nics
Bud dy
Serge ant
Petro leum
WEB TOON
Atta ckers
broad cast
Catalo g
Dinosau rs
Effe cts
Grow ing
JW ST
Plas ma
Ris k
Rhi annon
ìľ ł
arg v
Mathema tical
Resi dence
inten ance
accu racy
Acti vision
gorith ms
EAS Y
Pai ge
rh ine
restri al
coe fficient
appro ach
Spect ral
current ly
Ming a
ost rom
quad ri
ANGE L
HELL O
Tribu ne
quarter final
Confedera te
9860 G
Moto GP
Bag gins
experi ence
Admiral ty
FEC A
TAP E
glu co
ìĥ ģ
dere lla
STE AM
mong oli
MAO I
BEA UT
predi ction
Ging a
Scan dina
belie ve
Coco a
Continu ous
Schwei zer
Orga nisation
Alexand re
Massa chuset
Hoff man
Whe at
Orni tho
Galli era
Zimmer man
kine tics
Laf ayette
Hav ok
Mys tic
astrome tric
capsu le
Gentle man
deuts che
teach ing
Rest aurant
Egy ptian
Gla dys
IY I
PPC 1400
Wha tever
Memo ir
Nep tune
Compag nie
plat form
Griffi ths
Boun ce
Fand om
HON IA
MARK ET
NIA ID
ë¶ Ģ
Investi gation
statis tical
Doming o
Mino lta
VOG UE
Groo vy
Aqui la
Dok 2
Nia gara
holo live
Dele ter
moder n
Bulle tin
Spani sh
SD45 X
Cyg nus
FORE VER
Reso lution
establi shed
Pharmaceu ticals
Drea mus
Sni per
wissenschaft en
invol vement
Maca o
Colu mbus
CDG VAL
Pipe Wire
prop ell
Compon ents
Bram well
initiali zer
purpu reus
Xero x
awar ded
leed si
Contact less
Colli der
Kaf ka
Cyn thia
caten in
Bartholo me
Gwy dion
Kitch en
Vapor fly
kris tinae
Regin ald
concent ration
Enti ty
ASSEM BLE
BIRT HDAY
ð«ŀ Ĺ
Gertru de
fraction ation
Kangar oo
Ambass ador
GARD EN
HVC s
Igni te
NMI XX
SCHO OL
Vampi re
drou ngos
lupi llai
rosp orium
Indepen dence
Joce lyn
Gabb ana
Buchan an
Cag ayake
Jubile e
Schwart z
Dunge on
Stutt gart
Brigit te
Tribun al
Cylind rosporium
Elem Type
Volley ball
Appe al
0xF Fu
frequ ently
CBee bies
Qendre sa
Smaranda che
ZXC 21
nÇ ľ
40PPD 2500
Melio la
Alcy one
COUP LE
ASHR AE
Ordn ance
McLar en
trifascia ta
Magdale na
Manawy ddan
Accredi tation
Massachuset ts
0 120
0 900
0 240
1 Q
1 EV
2 U
2 X
2 mm
2 113
2 156
2 WD
3 F
3 X
3 1000
3 140
3 142
4 267
4 chan
5 F
5 150
6 250
6 GB
7 B
7 x
7 2000
8 th
9 B
9 th
A 14
A 23
A 22
A cu
A 35
A 500
A cro
A BO
A AD
A gen
A UT
A fra
A mong
B op
B EN
B las
B IM
B lon
B HP
B leu
B ATT
C f
C 19
C 22
C 26
C 56
C EP
C ler
C ess
C IF
C GO
C MB
C FO
C max
D sh
D 12
D 60
D 47
D os
D ed
D ang
D ER
D ara
D 112
D ess
D DO
D ICE
D BU
D fb
D etro
D MPK
D oodle
E K
E 10
E 75
E 500
E 81
E MV
E AL
E UA
E 217
E rick
E mmy
E ras
E gge
E cole
E OKA
E manuel
F c
F et
F 45
F 46
F FC
F LO
F oi
F 5G
F IPS
G H
G 44
G op
G ry
G end
G EC
G AI
G CN
G AD
G ina
G LO
G AO
G TP
G oro
G DT
G LAY
H J
H W
H 19
H 24
H 22
H ST
H 160
H ali
H ia
H UN
H ora
H ann
H LA
H ough
H UD
I k
I gu
I on
I nu
I ly
I gle
I deo
I HM
I EPI
J 0
J ol
J 2000
J au
J PC
J eri
J CB
J NN
J ardi
J ury
K 30
K 70
K et
K he
K 75
K 32
K ho
K end
K ant
K ling
K ino
K 401
K OH
K VM
K AE
K pop
K ato
K endy
K yung
L c
L w
L ly
L CO
L ER
L ok
L ori
L ess
L DA
L RT
L ans
L IPS
L ONG
L ITE
M 43
M SA
M MA
M 1918
M FC
M TP
M 256
M 310
M andy
M orton
M pc
M UNI
M MEA
N en
N al
N ST
N ing
N PN
N PD
N MT
N ATION
N DI
N REM
N c6
N DAA
O 1
O U
O de
O to
O ste
O sa
O cci
O lle
O siris
P li
P si
P amp
P PS
P FC
P TA
P IM
P EM
P elli
P threads
P sitta
Q 7
Q A
Q Y
Q EW
Q BZ
R 100
R CS
R KP
R PL
R LC
R PF
R ough
R KB
R iga
R IVER
R AVN
S 11
S me
S ent
S ana
S DS
S FC
S ze
S old
S RC
S BB
S var
S cent
S HELL
T 14
T si
T SA
T 88
T ali
T SS
T ana
T ant
T ere
T eri
T ory
T ori
T ron
T 118
T RS
T UR
T PV
T als
T GA
T URN
U 3
U e
U zi
U ne
U na
U ber
U HD
U EC
U ML
U sti
U DE
U GC
U lys
U TRAN
V ad
V ak
V ell
V SC
V FAT
V 342
V XI
W U
W 12
W et
W nd
W HI
W IND
W ILD
W edge
W hee
X DR
X VII
X FR
X EB
X AML
Y as
Y 2K
Z Y
Z er
Z ane
Z DM
Z EDE
a 5
a mu
a les
a ff
a sia
a gar
a ffe
a dult
b are
b row
b ama
b bon
c f
c r
c ori
c run
c ato
c sm
d F
d at
d der
d hi
d ley
e te
e ves
f j
f n
f oun
f ellow
g gi
g all
g ary
g ments
g ato
h 1
h z
h ri
h na
h ig
h off
h etero
i X
i er
i 32
i os
i um
i mer
i den
i ka
i ling
i Homo
i mbat
j 2
j r
j ad
j oo
j os
j ant
j jar
k ku
k ran
k ki
k Pa
k ids
l lus
m M
m c
m oo
m ort
n M
n Äģ
n one
n yi
n ded
n amo
o 1
o nia
o micron
p ow
p ore
p les
p elli
r 16
r one
r gen
s le
s su
s mo
s ai
s no
s ina
s mal
s kin
s crip
t n
t Äĵng
t ari
t pa
t ory
t cp
u f
u le
u ro
v r
v ina
v ator
v Card
w ed
w ers
y ad
z ad
£ ¾
¨ ¼
Ã ¾
Ã ĵ
Ã ļ
Ä ¾
É Ĺ
Ê Ĭ
Ê Ĵ
Ë Ī
Ë ŀ
Î Ĺ
Î Ļ
Î ŀ
Ï ¸
Ð ©
Ð ª
Ð ®
Ñ ĺ
Ò º
Ó ©
Ô ±
Õ °
Õ ½
â »
ä Ń
ê ¶
ë ¸
ë Ķ
ì ´
í Ŀ
ð ĵ
ð ĳľ
ĭ Ĺ
Ĵ ¹
ĸ Ļ
zh a
ji san
de an
de ne
de vil
de finition
de tailed
sh amp
sh ko
sh adow
xi ne
gu itar
yu ki
ch ir
ch ot
ch ak
ch ance
ch lor
ch ord
ch amber
ch reck
li ka
li mit
li chen
li fera
li minary
li braries
du st
du ino
20 58
20 41
20 85
20 74
20 71
20 386
le ng
le gs
le arn
bi Ã¡ng
bi er
bi lt
bi shi
bi blio
su su
su ma
su sp
su red
su gar
ti d
ti mer
ti les
ti ous
ti dings
ti rostris
qu el
qu cha
shu i
di ve
di ction
di mension
ju mper
ju mping
zi lian
ku ri
ku lam
ku dain
en z
en bach
10 m
10 km
10 cm
men di
mi p
mi to
mi cha
mi tt
mi ning
00 60
00 UTC
00 214
18 O
18 W
12 km
ni m
ni el
ni es
ni ya
ni cus
ni gli
ni sien
11 F
11 600
pi an
pi one
pi red
or tax
er son
an j
15 W
âĢ Ĳ
âĢ ŀ
on et
on ne
on der
la pa
la mina
17 mm
ar f
ar ai
ar ena
ar gs
ar tery
ar ctu
14 C
14 K
14 V
zu mab
30 21
30 th
30 50
30 45
30 33
30 km
in se
in ner
in side
in fla
ge ar
ge dy
25 th
25 80
25 37
25 61
for ces
24 60
24 80
24 01
mu ta
mu zie
al g
al ti
al on
al bo
al thy
al gorithm
st ow
st ella
23 000
28 000
28 3750
th ou
th ra
th row
th rin
ou sy
re ga
re za
re ally
re gia
re duction
re presentation
re duce
re cv
22 M
22 30
22 66
me tt
me lla
me dian
26 62
26 03
50 M
50 34
50 km
27 60
ru ni
ri ni
ri ta
ri us
ri ble
ri fle
29 80
nÇĲ ng
te u
te z
te ga
te cture
ro c
ro ni
ro of
ro po
ro tation
si or
si mula
si nia
ra j
ra x
40 20
40 40
40 80
40 65
40 km
lt o
60 mm
am mon
cu b
cu um
cu ria
se m
se tt
100 G
100 K
31 20
ta c
ta w
ta ur
ta do
ta bli
ta kes
ta mine
ta mento
ol ol
ol os
80 48
80 UD
ma ga
ma da
ma kes
ma gne
ma binogi
ãģ ±
ãģ ŀ
35 SP
70 mm
et tenham
il do
il yn
at ti
at temp
45 GP
co x
co li
co ma
co nia
48 78
the on
ter ns
he st
he dge
ck a
36 10
36 40
38 70
38 66
38 D8
37 66
ne h
ne sto
is che
bo on
bo lic
bo dies
34 50
34 60
34 90
as co
as au
75 mm
to la
to ols
to ile
46 97
39 20
39 60
Ch am
Ch es
Ch oo
Ch ia
Ch ari
Ch rono
Ma it
Ma us
Ma cy
Ma ze
Ma bel
Ma dra
Ma til
Ma xis
32 20
In cor
In mar
In ves
In flu
In som
In stin
ST IC
ST RO
ST REAM
it l
it zer
UTC 12
33 000
64 KB
lo b
lo h
lo k
lo ye
be come
SE COM
SE LEX
55 000
55 55
55 83
55 mm
55 nm
The ological
II S
II HF
68 14
Co t
Co at
Co ali
Co ven
Co oli
Co Vision
Co pto
Co tton
Co imbat
vi k
vi li
vi ru
vi bes
vi lion
Re c
Re za
Re sur
Re lati
Re cei
Re visi
Re duce
Re illy
Re porter
na ki
na ut
na gar
na issance
ad ju
ad get
ad dition
ver di
ver ty
ver ts
ver tical
ci i
ci vil
ba it
ba shi
oo oo
ay i
ay s
ay say
ca ni
ca nic
ca tho
ca vity
300 2
300 6
pe de
pe dium
AT AC
AT RE
AT EL
au g
au thor
au reus
ig er
amp ton
ct OS
43 X
66 000
op lan
os sible
SA SU
SA FE
41 A
ly wood
88 A
mp y
mp el
mp ort
St reaming
St G44
id fran
TV 3
TV M
ind ra
400 1
ed ad
ha v
Li en
Li ma
Li SH
NA C
NA ME
NA NCE
Ro chester
Ro yale
De i
De ci
De lete
De cision
De cca
De pot
De kker
Mi a
Mi m
Mi o
Me w
Me ad
Me adows
Mar u
Mar xi
Mar lin
Mar keting
OS L
ï½ ¤
Al bi
Al so
Al ger
Al onso
Al gorithm
Al varez
ty re
BC S
ang el
ap art
ap arte
Le h
Le x
Le ar
Le ma
Le ak
Le ben
Le gion
Le eds
ts on
CO VER
CO PPA
mo nic
Vi z
Vi su
Vi si
Vi ct
AM USE
hi stoire
ry o
Wind s
Mo h
Mo ED
Mo gh
Pro 2
Pro se
Pro ven
Pro file
Pro spect
va ti
con di
con sist
con sul
Jo hor
um laut
Te len
per spective
ga g
Ne e
Ne em
Ne gro
da w
da de
da tes
Se CN
Se ctions
Se quo
sp h
sp ha
sp lit
Ga ther
Ar p
Ar on
Ar med
Ar dea
Ar chae
Ar duino
72 A
74 A
fi x
fi de
fi li
fi cations
fi elds
ED NRB
Be 2
Be a
Be ans
AP E
AP DS
Da h
Da vy
IC RA
La x
La kes
La ksh
Ra ise
Ra oul
Ra lik
Ra cco
Ra ffa
Di va
Di alog
ID L
Su p
Su lai
Su pper
160 cm
97 70
ent en
Sa j
Sa ku
Sa lis
Sa ins
Sa cra
Sa hib
MA LL
Tu as
Sh ad
Sh eri
ak an
ak is
ak ai
Lo is
Ja ques
do c
do mini
gi lis
gi ves
bu ch
bu dd
po e
po cket
po lio
po litan
So to
So ho
So Fi
AN OTHER
AN IMATION
An o
An ny
An selin
ho ma
ali d
ali ve
Mu ri
Mu ra
Mu ang
Mu za
Mu jica
ai red
We y
We is
sta sis
sta ina
Bo g
Bo Bo
Uni que
wi k
SS O
SS 40
IT TF
all ows
Pa les
Pa ste
Pa dilla
700 3
che f
che id
Si me
Si mo
Si tes
250 1
250 2
mm on
mm ando
Par r
Ri be
Ri ptide
pp s
pp or
pp an
pp et
ph ora
He p
He be
so on
so lar
no ted
no don
no ides
Bu cking
Ca ge
Ca sta
Ca det
Ca ctus
Con se
Con way
Con sig
Con crete
Con cepts
Sp lit
Sp read
PC L
PC N
PC CW
ste am
ste ps
En se
En han
En tro
En zo
En try
Ba las
Ba ins
Fi li
Ti e
Ti to
gra ve
gra ss
AS N
AS OS
AS IAN
Wi e
Wi m
Wi es
Wi cked
Wi ckr
shi ra
end on
ara ct
ara shi
Ge me
Na N
Na der
Na ga
ka mi
ka ze
ther m
ther ford
à¸ į
à¸ Ĵ
EC A
EC C
EC W
Ha b
Ha o
Ha ji
Ha ck
Ha ir
Ha shim
MS X
MS PD
MS CI
Ni sh
Ni le
Ni jisan
HK G
HK MA
Inter nal
Inter view
Inter scope
Inter mediate
cro w
cro wd
Ste l
Ste iner
Ste yr
MP PE
AI AD
Ho b
Ho bart
Po inter
Do or
Do ors
Do Daum
ant an
Pi co
Pi per
RO C
Th ar
RE SU
pro of
pro gres
Net Core
Net vibes
No on
No vi
ari e
ari ans
gn an
Lin o
CP E
CP T
UN K
UN CLOS
âĪ ©
âĪ Ĩ
oun ting
my Shared
Lu ne
ll and
Wil lard
Fa w
Au t
Au ton
Au berge
ting en
Ex yn
Ex pert
900 2
900 X
900 00
CH E
CH F
CH IN
CH UM
CH ANGE
TA BLE
Qu es
Qu anti
Qu ery
Qu erini
TO MOR
For k
For ty
For tis
For gotten
we g
MO U
MO BA
Ta w
Ta la
Ta bor
pa h
pa ges
PlayStation 2
CC R
vo x
vo li
eri tha
AG N
SO ME
LE GO
Gu ys
Gu erra
Gu pta
cy steine
chi k
chi ni
BO O
BO MB
BO NAMANA
IG C
Cu I
Cu ora
Ru di
Ru dy
Ru therford
lin alg
pu g
pu re
pu ts
Go ku
Col lin
Col ony
Ka b
ME BOL
gen der
gen Mod
je wel
GB H
cha o
TE 120
TE num
Ad verti
Hu nger
BD A
BD L
NC A
NC SC
land o
350 3
350 4
wa ta
des tina
des pite
del lo
ES C
ES D
Hi er
Hi ro
Hi lton
06 60
Pe li
Pe ck
tel le
tel net
DR 28
mon tan
Open VPN
Open Shot
yle pis
HO 2
HO O
HO W
Ko z
Ko nica
Ko enig
MC L
NG MC
sy naptic
cor relation
tt ara
Ke mp
Ke ling
Ke gl
za c
Pu litzer
Com bo
07 13
Du ch
Du ro
Du bois
One Note
World Wide
Ser gio
Ser eno
Mon k
Mon de
à¤ Ł
à¤ Ń
NO M
NO D32
Cor so
Cor sa
Cor nish
Cor rect
LL P
Bi P
Bi ological
109 E
DP I
RT T
SP L
SP M
Bar s
San der
San cti
San asay
ML A
ML D
DO GE
fa il
fa bri
fa cili
Per band
Man ju
Man ny
04 30
03 30
GP G
GP 35
GP GPU
back ed
LO EN
BE WAVE
cc in
ker k
Gi fford
Pre sso
Pre fect
Pre liminary
Tri ni
PP AR
van te
cm d
MD 2
Gra ves
Tra gop
Pri m
Pri or
Nor folk
450 8
tra k
tra m
tra p
tra cks
tra ining
que bus
align as
CL DR
ora te
El der
rin o
rin sic
IL CE
Vo lition
SH H
SH ARP
sti ne
Red fin
PG W
TR AC
TR IP
Team A
Wa gam
Wa vve
nge i
Ty r
Char le
Char ming
color s
lla ble
TS N
ten sis
ten nis
ten berg
Mc N
Mc Ca
Mc Coy
Mc Alister
ex r
ex cel
ãĦ ¢
ãĦ Ĳ
Don t
Don nell
Don og
ac er
ac ting
Wal sh
ans as
tle ri
any l
any thing
Pet ty
Mat er
Mat teo
Un known
Un toucha
ham a
Ac fun
Ac cident
Bra id
Bra tis
Bra zilian
129 A
GO TCH
om be
Che z
nia e
don tia
Cy pri
NF S
meri dion
Ab bas
Xbox 360
CS F
tis che
tis sima
Cl O4
Sou sa
650 9
pre ce
sel ves
NS U
OR Y
yo glo
As pi
As sets
As sistance
As pergil
ona te
cer y
AB R
AB U
dis cus
dis order
Ver ve
Ver dana
Her b
Her r
Her tz
Dra per
Dra ft
lie u
Air play
Group on
IR L
cho ice
Pau la
inter net
Ani m
Spe cta
MG 3
Eng adget
PV P
FM F
AO C
DE A
DE EN
175 cm
Web 3
Web Kit
Web VTT
H2 PO4
par ticle
228 1
TP BL
TP DO
fer n
330 1
Can ter
Sha le
Sha me
Sha der
UC MP
bri o
comp ati
comp rehen
Boo king
fo lius
SQ S
OK C
She pher
Va con
Chi en
Chi ang
THE ATRE
DM 11
gar in
gar ding
she e
BI O
Hel ve
Tech no
Tech nica
YO HO
Park way
bra chy
new sp
CA 6
Val lis
arch y
EF I
EF 14
Mer lin
Mer cer
Mer kur
Mer tens
Mer chant
XX L
bal lo
Fin ley
Fin nish
Kar el
Ter minus
Gar ner
IE A
M2 A2
Jack y
Win ka
bin t
Sam ad
STAR CHILD
Ang mar
Fla me
stro yer
stro phic
Er nesto
Pan ther
Pan zers
Ve gas
Ya w
Am trak
Pop pen
Time less
Cal der
Cal vo
Cal ling
Min u
Ken yu
VO iX
A2 K
IO NA
Street s
bili tation
bili ties
Por no
Bur g
Soci ology
Rock in
spe cta
play off
Fer ret
PE SA
Art X
cra ter
NE L
Cro a
Cro ok
Ze phy
Mil li
Mil wau
Cla ng
Pra e
PN P
CT F
sha ft
Cra ft
Gal le
Gal game
Gala ctic
PR Tase
Sky lake
460 1
ani el
Richard s
Act s
âĸ ·
WS IS
def ined
FF G
FF FF
phy si
phy lo
Mas k
Bel lev
Wo z
ICO M
up date
162 cm
Prin ciple
VR V
Dan cer
phi lia
CM 4
CM N
390 3
alo gue
Fan xy
173 cm
EA SA
Camp an
VM BO
Hot star
PD TC
PD MS
PH B
sub type
sub sequ
sub stitution
Mag no
lli ant
áĢ ¬
áĢ ħ
Direct Draw
Pen tato
Lon Talk
AE GIS
184 v
ise au
Bay e
Bay er
M4 M
fin alist
nga w
Cry pta
Cry pton
WA APA
ONE Y
light ning
Master card
uni versity
top us
cti ves
oper 2
ag ne
ag ing
Br 3
Br endan
Bal lo
Bir ch
Stra tford
DB MS
GR P
GR U
âĳ §
âĳ ¨
299 X
Tw elve
jo b
jo int
jo ined
Digital mind
EV ENT
lic ity
Cat ena
long int
FAT 12
Bru g
UM F
Hor ace
TM Y
ben zo
fun c
pop ular
Your self
tas n
tas sium
Sig fox
ob serva
Cle m
ACT H
ACT ION
Ly ce
hel ler
chen ko
sig ning
Model E
May be
May day
Gil lis
Sc ene
Sc reaming
Dar lin
Rus so
C2 O4
Sw ettenham
Moon light
Cli nic
Cli max
Cli fford
UL B
Bre ed
Medi care
Dol phin
pur na
pur chase
CON MEBOL
DI AM
Tro pical
ome dical
Bou lenoph
Ara tasn
Bon n
Bon es
DT 15
978 957
CB TC
CB FC
Jen son
Mal m
app end
EL IGHT
Elect rical
vet t
web mail
web site
Mis sile
dor cas
âĩ ĭ
tech nic
AH Q
Lam ar
York shire
Great Fire
Ah l
Sau l
Sau di
stu dent
Hun ters
cas a
oli ni
ale m
VC AM
wiki media
Del phi
Tay can
xx xx
inte gral
A3 19
GL I
GL SL
cci o
like lihood
512 MB
gg ers
stan tin
WOR K
bat choy
teri zed
Mau pin
Cou pe
WI TCH
hau pt
Hon da
Run ner
Fal len
open SUSE
Cross wagon
ND 4
phen yl
Fron te
Syn dicate
LM H
íķ ´
Hami d
Nar od
pan els
oph orus
Kat su
à® ¤
UK F
ado decahedron
VT EC
Bern stein
Jer ald
NI K
NI JI
Sen na
Son os
Arti ficial
Arti llery
Ai mer
Mos s
Mos que
amo to
Rod r
Mont pelli
Fl orian
then tic
Wonder Swan
Bang lade
Than h
Than n
Than agar
ey es
mine m
AW T
Mir za
Shan non
597 c
Raw d
Brand s
Fred man
Fred die
Pres tige
ext re
tio ning
case i
FAN ZA
bla d
bla st
JO 1
Tel star
Ker ry
Ker oro
sili cone
Gam ma
M6 A1
ami no
Rail ways
Haw k
Guard s
Side bottom
NU DT15
á¸ ¤
á¸ ĩ
á¸ Ĺ
âĻ ¡
âĻ ¥
Kha li
Kha lil
Color ed
Color ado
Ana stasia
eu ro
Cook s
Hans en
wer k
Ak sys
Dor ia
super cili
ardi no
MAD HOUSE
speci osa
Hau t
Zo ster
Zo ey
ide al
Chrome book
nda el
Dead ly
Mega Games
Mah m
Mah ara
Roman o
Jaco bs
Framework Core
eg ildo
ìĹ Ķ
under standing
constru cted
Lind say
Sr c
neu f
Care er
Flo or
Flo at
ð¤ £¾
ð¤ ĭĹ
ð¤ ĸĻ
Rober ta
Proto type
Bran t
Bran wen
Dur on
Esp a
S3 N
Sb F5
Ann als
Control led
Rh in
ZO OM
Language s
SY SLIB
Wer k
wind ows
ãħ Ĵ
Mate o
Industri e
765 4
Every day
GI ZA
Ia mus
cam era
ë¦ Ħ
Pie ce
Dam on
road s
ophy ta
Gene va
Azu bu
Rand net
SAT ELIGHT
sul cus
poli tical
Six th
Six ty
GG K
Lun as
apu ra
sele ction
INT Z
GP40 FH
Mg 2
TAI L
TAI WAN
Hart ley
Ey ck
Kor but
N3 O2
Wol ff
Rob son
Had ad
Mou lin
prin ciples
tig ma
socket s
parti cip
match ing
hor se
G6 PD
Xi v
phan e
tau ght
Regu lation
song s
END IP
Valen cia
GRE AT
TEP 60
cou rage
pol ylepis
Ep stein
Rd Rand
RIA J
Tas man
Woo ds
ìĤ °
Cole man
Nik las
tang ulus
Map Reduce
look ing
oko it
4x 100
Cel lu
Emer y
Emer son
Kap lan
dec adodecahedron
Object s
Ass ad
Ass assin
Twi sted
VG 247
Leg ends
Fea ther
Cele bration
6A 12
hand s
Andrea Mosaic
Ae gi
FRE AK
Pun ta
Tak ara
adi das
ìĺ Ľ
Come dy
Ore gon
dol l
ëĤ ´
Quar ter
large st
Blan co
Kry lov
âĴ Ī
âĴ ī
JK T48
Ther on
Af ro
Aar u
Ut ama
aster y
ë¹ Ľ
sec ant
neo formans
Dem and
Kath leen
ffici ents
ffici ency
Hell sing
Roo mie
Rau m
atten dees
Anton y
Krist en
Krist ang
Vul can
design er
bir th
hea ven
EMU 500
HSD 11B
Kris tina
RET URNS
Vali ente
clu sive
Exten sions
Amp hi
Amp elm
JM ML
Nit ro
tja kudain
Belie f
Nix dorf
pora ted
ê³ ¼
ê³ Ħ
rocket s
Lec turer
Dash board
JUST ICE
Cit rix
Eat on
LET TER
PAD I
Indi go
Any where
Bubble Sort
Cale ndar
Loren z
Bed ford
Ide k
Kr zys
SIL VER
requi re
Intro duction
Rela tions
inclu des
Duo mo
language s
OPEN STEP
japoni cus
Cris tian
Cris tina
Cris tiano
NSA ID
bey ond
ayo shi
Rot ary
Another Days
Rodri go
Fos sil
GLP K
vit t
null ptr
Spa in
process or
Panzer b
Scienti sts
db kl
demo cra
reti re
Hua wei
Render Man
9K37 M1
Asp en
Asp NetCore
Amb ro
Bing el
Brew eries
E4 X
Ole g
research ers
cele brations
Bom bay
Him mel
Serge y
Edmund s
output Area
PTC H2
Plas mo
Trin ovan
bound ary
whe ther
á¿ ¦
ìľ ¤
Mathema tics
Resi dent
COMP ANY
Lai ka
Radi ation
access or
Clau dio
appli ed
BEC CS
CRE AT
CRE ATE
Scar let
ë¬ ´
spar ent
soci ety
Chun soft
Philos ophi
9M 38
Jas per
Kine ct
Pru nus
Pand oc
fro g
relation ship
java c
exp lor
Derived T
Acid 2
Holo live
Holo Lens
W3 Schools
Wool lim
acu tangulus
festi val
ì² ł
thin king
Bert rand
Athle tics
Ate sh
Bles sed
C79 A2
GAR O
ZK6 180
contain s
Bound ary
Font ana
Krish na
award s
gore ng
ìĻ ¸
reli gion
kawas ay
Thing ol
CCC II
Syl via
Advis or
LTM 1500
Retro Arch
Gonza ga
Hoff mann
OIC W
Q6 IX
SMA SH
identi fication
sq rt
wx Widgets
deter mination
recogni ze
Laz ada
Diver City
Harmo nic
Harmo nia
Orni th
Portu gal
fascia tus
C24 H
FAR Q
REC ALL
bbe lin
mach ine
beri an
moi selle
pomo dor
Annu al
ð«Ħ ¬
Janus z
Kinder garten
Eh ren
Gb E
Kni ghts
Knu th
fru it
deuts ch
pipe line
err ors
Inspi ration
concer t
Arche gos
otro pic
Papi llon
saf ari
Ordin ary
Ordin ance
CLAN NAD
success ful
BON ES
Egy pt
Ethi cs
FAL ENO
Hamp ton
ì¹ ĺ
numer ous
behavi or
SER ENDIP
fif teen
Myco bacterium
DHCP v6
Equi pment
Lapu a
Sle ep
Mole cular
reser ve
Civi lization
Hunting ton
journa lism
Axi os
DBR 4
MEP IS
ê± °
thora x
Marg are
Statis tics
Bele riand
Suzu ki
Linde gren
Guang zhou
Erb B
Olive ira
Garage Band
AAS W
Ced ric
FEST IVAL
zt of
Instant Go
Dete ctive
conf etti
Neigh bor
Jai me
Parlia ment
Rij ndael
Cait lyn
LOT TE
Casti llo
ULF 48
Mitsu bishi
Aper tium
Atten tion
Ecc le
Esti lo
arsen okoit
Maje sty
visu alization
Refu ge
Proje kt
daal der
dact yl
Sexu al
hynch os
SDN 48
PASK AU
Theodo xus
Therapeu tics
Cimr man
Bind ows
FUT URE
Sf 21
STC RP
Wra th
clai med
rsten tum
scan ning
intelli gence
Roby nn
Simp ly
Navis works
Gods peed
Perse phone
Priva cy
Voi ces
frica tive
Nutri tion
Kazakh stan
Alas ka
HPO 42
Mant le
PUB G
QW ERTY
SIN AD
WAC CM4
YAO I
prene ur
inno cent
repor ted
vesic le
Testa ment
Neme sis
Dict yoglo
posit ory
Caes ar
Nath aniel
RESO NANCE
Quart z
MIU 404
Synago gue
CRG6 LX
Orth optera
Cyano genMod
carbox y
Centen nial
de Ġ
Ġ deĠ
shÃ¬ Ġ
Ġ shÃ¬Ġ
Ġ niÃ¡n
ĠniÃ¡n Ġ
wÃ¨i Ġ
zÃłi Ġ
Ġ wÃ¨iĠ
Ġ zÃłiĠ
hÃ© Ġ
Ġ hÃ©Ġ
zhÅįng Ġ
bÃ¹ Ġ
dÃ¬ Ġ
shÃŃ Ġ
guÃ³ Ġ
yÃº Ġ
rÃ©n Ġ
Ġ bÃ¹Ġ
yÄ« Ġ
Ġ zhÅįngĠ
lÃ¬ Ġ
zhÃ¬ Ġ
gÅįng Ġ
Ġ shÃŃĠ
yuÃ¨ Ġ
jÃŃ Ġ
chÃ©ng Ġ
yÃ¬ Ġ
yÇĴu Ġ
Ġ dÃ¬Ġ
Ġ yuÃ¨Ġ
Ġ yÃºĠ
Ġ rÃ©nĠ
Ġ zhÃ¬Ġ
dÃł Ġ
Ġ jÃŃĠ
yuÃ¡n Ġ
Ġ yÇĴuĠ
jÃ¬ Ġ
Ġ guÃ³Ġ
Ġ lÃ¬Ġ
Ġ gÅįngĠ
Ġ yÃ¬Ġ
Ġ yÇĲ
Ġ chÃ©ngĠ
jiÄģ Ġ
sÄ« Ġ
yÇĶ Ġ
Ġ xiÃłn
Ġ rÃ¬
Ġ yÄ«Ġ
Ġ xÃŃng
Ġ tÄģ
lÇĲ Ġ
jÄ« Ġ
Ġ dÃło
hÃ²u Ġ
wÃ©i Ġ
Ġ zhÄ«
Ġ dÃłĠ
Ġ yuÃ¡nĠ
xÄ« Ġ
ĠrÃ¬ Ġ
Ġ gÃ¨
ĠyÇĲ Ġ
xuÃ© Ġ
huÃ¬ Ġ
zuÃ² Ġ
le Ġ
Ġ yÇĶĠ
ĠdÃło Ġ
mÃŃng Ġ
Ġ jÃ¬Ġ
bÃ¨i Ġ
ĠxÃŃng Ġ
shÄĵng Ġ
Ġ jiÃłn
Ġ chÅ«
Ġ qÃŃ
Ġ sÄ«Ġ
Ġ dÃ©
zhÃ¨ng Ġ
ĠxiÃłn Ġ
Ġ hÃ²uĠ
Ġ jÄ«Ġ
duÃ¬ Ġ
shÃłng Ġ
qÅ« Ġ
shÇĲ Ġ
Ġ ÄĽr
Ġ jiÄģĠ
yÃ³u Ġ
ĠtÄģ Ġ
Ġ xÄ«Ġ
Ġ lÇĲĠ
Ġ Ã©r
zhÃłn Ġ
Ġ jÅ«n
Ġ bÃ¬ng
ĠzhÄ« Ġ
ĠgÃ¨ Ġ
zhÇĶ Ġ
rÃ¨n Ġ
fÃ¹ Ġ
zÃ¬ Ġ
wÃ¹ Ġ
xÄ«n Ġ
dÃłi Ġ
jÃ¹ Ġ
pÃŃng Ġ
ĠchÅ« Ġ
Ġ kÃ¨
Ġ zhÅįu
xiÄģng Ġ
Ġ huÃ¬Ġ
shÃ¹ Ġ
nÃ¡n Ġ
Ġ shÃ¨
Ġ bÃ¨iĠ
Ġ mÃŃngĠ
xiÃł Ġ
guÄģn Ġ
ĠÄĽr Ġ
ĠdÃ© Ġ
lÃ¹ Ġ
yÃ¹ Ġ
huÃł Ġ
ĠjiÃłn Ġ
jÄ«ng Ġ
yÃ¡n Ġ
fÄģng Ġ
Ġ yÄ«n
kÄģi Ġ
jiÄģn Ġ
jiÃło Ġ
fÄģ Ġ
yÃ²ng Ġ
Ġ dÃłn
ĠÃ©r Ġ
zhÃ¹ Ġ
lÃ¡i Ġ
mÃŃn Ġ
shÇĴu Ġ
zhÃ¨ Ġ
xiÃłng Ġ
wÃ©n Ġ
ĠjÅ«n Ġ
xÃ¬ Ġ
qiÃ¡n Ġ
bÄĽn Ġ
tÃ¨ Ġ
Ġ wÃ©iĠ
zhÃŃ Ġ
fÇİ Ġ
qÄ« Ġ
jiÃ© Ġ
liÃ¡n Ġ
ĠbÃ¬ng Ġ
dÃ²ng Ġ
diÃłn Ġ
ĠqÃŃ Ġ
ĠkÃ¨ Ġ
dÅįng Ġ
mÃ¹ Ġ
Ġ jÃ¬n
Ġ duÃ¬Ġ
Ġ huÃ²
Ġ zhÃłnĠ
fÄĵn Ġ
tÃ¡i Ġ
zhÇİng Ġ
dÃ¹ Ġ
jiÄģng Ġ
Ġ qiÃº
Ġ pÃŃngĠ
gÄģo Ġ
yÃ¨ Ġ
suÇĴ Ġ
bÄĽi Ġ
ĠzhÅįu Ġ
shÄ« Ġ
Ġ leĠ
duÅį Ġ
jiÄĵ Ġ
gÃ© Ġ
Ġ shÃłngĠ
jÄ«n Ġ
Ġ zhÃ¨ngĠ
fÃº Ġ
Ġ zuÃ²Ġ
Ġ yÃ³uĠ
Ġ fÃ¹Ġ
kÇĴu Ġ
guÃ² Ġ
zhÇĲ Ġ
Ġ tÃ³ng
hÇİi Ġ
Ġ rÃ¨nĠ
Ġ quÃ¡n
mÇİ Ġ
tÅįng Ġ
rÃ¹ Ġ
zuÃ¬ Ġ
Ġ shÄĵngĠ
Ġ xuÃ©Ġ
cÇĲ Ġ
xÃ¬ng Ġ
wÃłi Ġ
nÃ¨i Ġ
lÄģ Ġ
tÇĲ Ġ
juÃ© Ġ
kÄĽ Ġ
qÇĲ Ġ
shÄģn Ġ
tiÄģn Ġ
chÇİng Ġ
dÄĽng Ġ
zhÃ¨n Ġ
wÇĶ Ġ
chÃ¡ng Ġ
zi Ġ
yÃło Ġ
bÇĲ Ġ
Ġ jÃ¹Ġ
bÇİo Ġ
mÇĲ Ġ
yÃł Ġ
Ġ yÄĽ
gÄģi Ġ
ĠyÄ«n Ġ
Ġ dÃłiĠ
miÃłn Ġ
zhÃ²ng Ġ
ĠshÃ¨ Ġ
fÄĵng Ġ
Ġ zhÃ¨Ġ
zhÇĴng Ġ
cÃ¬ Ġ
yÃ¹n Ġ
yÃŃ Ġ
liÃº Ġ
chÄĵ Ġ
shÃ²u Ġ
lÃŃn Ġ
bÄģo Ġ
yÃŃ ĠgÃ¨Ġ
sÃłi Ġ
jiÃ¨ Ġ
dÃ¬ng Ġ
shÄĵn Ġ
shÄĽng Ġ
luÃ³ Ġ
mÄĽi ĠguÃ³Ġ
sÄģn Ġ
qÃ¬ Ġ
xiÇİo Ġ
ĠdÃłn Ġ
nÃ©ng Ġ
shÅ« Ġ
zÃ© Ġ
liÃ¨ Ġ
xuÇİn Ġ
sÃ¬ Ġ
qÄ«ng Ġ
zhÄĽ Ġ
ĠqiÃº Ġ
jÃ¬ng Ġ
yuÃłn Ġ
bÄģ Ġ
wÃ¡ng Ġ
kÄĵ Ġ
tÃłi Ġ
lÃ¡n Ġ
bÃło Ġ
zÇĴng Ġ
yÇĲng Ġ
Äģn Ġ
ĠhuÃ² Ġ
bÃ¬ Ġ
fÇĶ Ġ
dÇİo Ġ
Ġ xÄ«nĠ
gÇĶ Ġ
yÄ«ng Ġ
Ġ hÃło
Ġ xiÃłĠ
Ġ zÃ¬Ġ
gÄĵ Ġ
fÃ¨n Ġ
xiÃło Ġ
yuÄĵ Ġ
nÃŃ Ġ
jiÄģo Ġ
nÃł Ġ
Ġ yÃ¹Ġ
Ġ mÇĲĠ
zÄ« Ġ
Ã¨r Ġ
Ġ xiÄģngĠ
pÇĶ Ġ
dÄģn Ġ
Ġ zhÃ¹Ġ
biÇİo Ġ
guÇİn Ġ
tÃ³u Ġ
liÃłng Ġ
chuÃ¡n Ġ
Ġ lÃ¹Ġ
sÃ¹ Ġ
wÃº Ġ
Ġ dÄģng
bÅį Ġ
rÃº Ġ
yÇİn Ġ
nÇļ Ġ
bÃ³ Ġ
ĠzhÅįngĠ guÃ³Ġ
xÄ«ng Ġ
tÃŃ Ġ
fÄĵi Ġ
dÃ¡ Ġ
sÃ¨ Ġ
chÄĵng Ġ
mÄĽi Ġ
ĠwÃ¨iĠ yÃºĠ
ĠjÃ¬n Ġ
cÃ©ng Ġ
chÇİn Ġ
Ġ nÃ¡nĠ
shuÇĲ Ġ
tÃº Ġ
biÃłn Ġ
guÄ« Ġ
Ġ rÃ¡n
yÃ¡ng Ġ
Äģ Ġ
zhÄģng Ġ
gÇİi Ġ
diÇİn Ġ
cÃ³ng Ġ
jiÃ¹ Ġ
Ġ bÄĽnĠ
ĠquÃ¡n Ġ
shÄģ Ġ
bÄģoĠ kuÃ²
wÇİng Ġ
jiÇİn Ġ
shÃ¨ng Ġ
zÇĶ Ġ
shÇĶ Ġ
gÇİng Ġ
huÃ¡ Ġ
lÇľ Ġ
qÃŃng Ġ
jÇĲng Ġ
liÇİng Ġ
zÃº Ġ
bÃłn Ġ
tÇĴng Ġ
gÃ²ng Ġ
shÄģng Ġ
lÃŃ Ġ
hÃ¹ Ġ
tÃ³ng Ġ
biÄģn Ġ
jÃ¬n Ġ
lÃ³ng Ġ
luÃ² Ġ
Ãłn Ġ
xÃ¹ Ġ
chÃŃ Ġ
Ãło Ġ
mÃ©i Ġ
jÇĲn Ġ
bÄģn Ġ
guÇİng Ġ
chÅ« Ġ
cÃ¨ Ġ
mÃ¬ Ġ
shÃ©n Ġ
ĠtÄģĠ men
zhÄĵng Ġ
zhÄ« Ġ
lÇĲng Ġ
yÃ²u Ġ
fÇİn Ġ
wÄĵi Ġ
Ġ zhÇĶĠ
Ġ xiÃłngĠ
huÃ³ Ġ
xÃŃ Ġ
tÃŃng Ġ
kÇİ Ġ
chÃ¡ Ġ
Ġ gÄģiĠ
cÃ¡i Ġ
gÃ²u Ġ
shuÅį Ġ
mÃ©n Ġ
cÃŃ Ġ
xiÇİng Ġ
mÇĶ Ġ
lÃ¨i Ġ
wÄĽi Ġ
qÇĶ Ġ
ĠgÅįngĠ lÇĲĠ
yÃ¡nĠ jiÅ«
Ġ duÅįĠ
tuÃ¡n Ġ
yÇĲn Ġ
jiÃłn Ġ
ĠyÄĽ Ġ
chÃ¡o Ġ
yÃ¬ng Ġ
chÃ©n Ġ
Ġ wÃłn
tÃ¡ng Ġ
xiÄĵ Ġ
qÃŃ Ġ
pÇĲn Ġ
ĠyÇĲ ĠjÃŃĠ
jiÃł Ġ
shÇĲĠ yÃ²ngĠ
jiÄĽ Ġ
hÃ¡ng Ġ
yÇĲ Ġ
lÃºn Ġ
rÃ³ng Ġ
Ġ yÃ³u
jiÇİng Ġ
pÃ¡i Ġ
fÅ« Ġ
jiÇĶ Ġ
lÃ¬ng Ġ
Ã© Ġ
tÃ¡iĠ wÄģn
ĠhÃło Ġ
ĠdeĠ dÃ¬Ġ
xÅ« Ġ
kÄĽ ĠyÇĲĠ
huÃ¡ng Ġ
xiÄģn Ġ
duÃłn Ġ
kÃ¨ Ġ
dÇİng Ġ
mÃ³ Ġ
cÄģn Ġ
yÃŃng Ġ
tiÃ¡o Ġ
biÄģo Ġ
ĠdeĠ yÄ«Ġ
1 Ġ
kÄģiĠ shÇĲĠ
quÃ¡n Ġ
zhÇİn Ġ
ĠchÃ©ngĠ wÃ©iĠ
yÄĽ Ġ
hÃ³ng Ġ
mÃ©i ĠyÇĴuĠ
hÃłn Ġ
yÄ«n Ġ
wÄĽi ĠyuÃ¡nĠ
qiÄģn Ġ
bÇİn Ġ
xiÃłn Ġ
lÃŃng Ġ
xiÄģo Ġ
ĠtÃ³ng Ġ
huÃŃ Ġ
sÅ« Ġ
fÃ¡ng Ġ
mÃ©ng Ġ
zhuÄģng Ġ
kÅįng Ġ
jÃº Ġ
cÅ«n Ġ
bÄģoĠkuÃ² Ġ
rÃ©nĠ kÇĴuĠ
ĠqÃŃ ĠzhÅįngĠ
ĠgÅįngĠ sÄ«Ġ
huÃ² Ġ
zÇĲ Ġ
xÃŃng Ġ
dÅįu Ġ
ĠdeĠ shÃ¬Ġ
ĠĠĠ zÃłiĠ
Ġ fÄĵnĠ
qiÃ¡ng Ġ
zhÃło Ġ
zhÃ¨ng ĠzhÃ¬Ġ
dÃº Ġ
yÃŃ ĠgÃ¨
mÃ² Ġ
cÇİi Ġ
2 Ġ
bÄ«ng Ġ
fÇİ ĠguÃ³Ġ
Ġ gÄģoĠ
ĠdÃłĠ xuÃ©Ġ
ĠshÃ¬Ġ yÄ«Ġ
hÃ¡i Ġ
ĠtÄģ ĠdeĠ
hÃº Ġ
chÃ¹ Ġ
qÄ«n Ġ
lÃ¹n Ġ
fÃłn Ġ
zhÄĵn Ġ
guÄģng Ġ
wÃ¨n Ġ
mÃłn Ġ
Ġ jiÃ©Ġ
shÃ¨ Ġ
biÇİo ĠshÃ¬Ġ
zhÅįng ĠdeĠ
jÅ« Ġ
Ġ jiÃłoĠ
Ãłi Ġ
zhuÄģn Ġ
diÃło Ġ
bÃ¡i Ġ
dÇİ Ġ
quÃ¨ Ġ
diÃłn ĠshÃ¬Ġ
Ġ dÅįngĠ
Ġ dÃ¹Ġ
fÃ¨i Ġ
ĠshÃ¬Ġ wÃ¨iĠ
Ġ mÃ¹Ġ
hÃ¡n Ġ
shÃ¬ ĠdeĠ
Ġ tÃ¨Ġ
xÃ¹n Ġ
Ġ jÄ«nĠ
piÃłn Ġ
mÃ¬ng Ġ
jÇĶ Ġ
Ġ jiÄģngĠ
tuÅį Ġ
gÃ¹ Ġ
ĠrÃ©nĠ kÇĴuĠ
xiÅ« Ġ
ĠbÃ¹Ġ fÃ¨nĠ
xiÃ© Ġ
zÃło Ġ
ĠhÃ©Ġ guÃ³Ġ
zhÅįngĠ guÃ³Ġ
guÇĴ Ġ
10 ĠyuÃ¨Ġ
shÅįu Ġ
Ġ zuÃ¬
xÃ¬n Ġ
12 ĠyuÃ¨Ġ
7 ĠyuÃ¨Ġ
9 ĠyuÃ¨Ġ
Ġ shÄ«Ġ
zhuÇİn Ġ
tÄģ Ġ
dÄģng Ġ
miÃłn ĠjÄ«Ġ
ĠrÃ©nĠ mÃŃnĠ
8 ĠyuÃ¨Ġ
xÃºn Ġ
ĠdÃ¬Ġ qÅ«Ġ
wÅ« Ġ
3 ĠyuÃ¨Ġ
Ġ guÃ²Ġ
Ġ suÇĴĠ
1 ĠyuÃ¨Ġ
Ġ jÄ«ngĠ
Ġ shÇĴuĠ
gÇİn Ġ
huÃ¡n Ġ
dÃŃ Ġ
xiÃ¡ Ġ
jiÇİ Ġ
5 ĠyuÃ¨Ġ
yÄ«ng ĠguÃ³Ġ
Ġ cÇĲĠ
dÃło Ġ
dÇĲ Ġ
zhÅ« Ġ
tÄ«ng Ġ
zhÃ¨ng ĠshÃ¬Ġ
chÃ³ng Ġ
huÇĴ Ġ
zhÅįu Ġ
6 ĠyuÃ¨Ġ
zhuÃłng Ġ
chÃ©ng ĠshÃ¬Ġ
4 ĠyuÃ¨Ġ
ĠguÃ³Ġ jiÄģĠ
tiÃ¡n Ġ
gÃ¨ng Ġ
ĠĠĠ dÃ¬Ġ
fÃłng Ġ
yÇĴng Ġ
shÇĶ ĠyÃºĠ
ĠpÃŃngĠ fÄģng
pÃ² Ġ
jÅ«n Ġ
ĠdÃ¬Ġ yÄ«Ġ
Ġ qiÃ¡nĠ
Ġ dÄĽngĠ
11 ĠyuÃ¨Ġ
3 Ġ
qÃ¹ Ġ
qÃºn Ġ
jiÃłng Ġ
tÃ¡o Ġ
ĠshÃ¬Ġ jÃ¬Ġ
ĠpÃŃngĠfÄģng ĠgÅįngĠlÇĲĠ
ĠtÃ³ng ĠshÃŃĠ
Ġ mÇİĠ
dÄģn ĠrÃ¨nĠ
Ġ tiÄģnĠ
Ġ rÃºĠ
gÄĵn Ġ
biÃ© Ġ
Ġ suÃ¬
pÃłi Ġ
dÅ« Ġ
shÇİo Ġ
liÃ¡ng Ġ
huÄ« Ġ
tiÄĽ Ġ
nÃ³ng Ġ
jÇĲ Ġ
ĠniÃ¡nĠ 1ĠyuÃ¨Ġ
tÇİ Ġ
diÃłnĠ yÇĲngĠ
Ġ qÄ«Ġ
zÅįng Ġ
chÇĶ Ġ
Ġ zhÃ¨
sÇĲ Ġ
ÄĽr Ġ
ĠdeĠ shÃŃĠ
shuÄģng Ġ
tÃ¡iĠwÄģn Ġ
qiÃ¡o Ġ
gÄĵn ĠjÃ¹Ġ
lÃ¬Ġ shÇĲĠ
chÃº Ġ
ĠshÃ¬Ġ zhÃ¨nĠ
gÃło Ġ
bÃłi Ġ
cÄģn ĠjiÄģĠ
yÃ¹nĠ dÃ²ng
gÄģng Ġ
chÄĵ ĠzhÃłnĠ
guÃ³ ĠdeĠ
jiÇİo Ġ
ĠwÃłn Ġ
ĠyÄ«n ĠwÃ¨iĠ
ĠrÃ¬Ġ bÄĽnĠ
ĠpÃŃngĠ fÄģngĠ
lÃ¬ ĠdeĠ
ĠniÃ¡n ĠdeĠ
gÃłi Ġ
pÃłn Ġ
Ġ wÃ©nĠ
Ġ hÇİiĠ
zhÃ¨ngĠ fÇĶĠ
bÃ¬ng Ġ
zhÇĶn Ġ
ĠniÃ¡nĠ 12ĠyuÃ¨Ġ
wÇİ Ġ
yÃłn Ġ
wÇĴ Ġ
gÃ²ng ĠhÃ©ĠguÃ³Ġ
ĠxiÃłn ĠdeĠ
Ġ fÃºĠ
yÃ¡ Ġ
yÃŃn Ġ
fÄģ ĠxiÃłnĠ
formula Ġ
chuÃłng Ġ
hÄĵi Ġ
Ġ suÇĴ
qÅ« ĠdeĠ
sÃ²ng Ġ
huÃłn Ġ
hÄģ Ġ
hÄĽn Ġ
tÃŃ ĠgÅįngĠ
Ġ bÄĽiĠ
jÃ¬n ĠxÃŃngĠ
lÃ©i Ġ
Ġ yÄ«ngĠ
2 ĠyuÃ¨Ġ
jÄ«ng ĠjÃ¬Ġ
tÅįngĠ guÃ²Ġ
ĠniÃ¡nĠ 3ĠyuÃ¨Ġ
suÃŃ Ġ
chuÄģn Ġ
ĠzhÅįngĠ yÄģng
qiÄĽ Ġ
ĠguÃ³Ġ jÃ¬Ġ
huÄģ Ġ
shÃłng ĠdeĠ
ĠyÃ³u ĠyÃºĠ
Ġ yÃ²uĠ
lÄĵi Ġ
wÄĽiĠyuÃ¡nĠ huÃ¬Ġ
kÇİo Ġ
ĠniÃ¡nĠ 7ĠyuÃ¨Ġ
wÃ¡n Ġ
chÄĵng ĠwÃ©iĠ
ĠniÃ¡nĠ 10ĠyuÃ¨Ġ
dÄĵng Ġ
bÇİi Ġ
ĠshÃ¬Ġ jiÃ¨Ġ
5 Ġ
ĠyÄ«nĠ cÇĲĠ
mÃŃng ĠwÃ¨iĠ
ĠjÃ¬n ĠxÃŃngĠ
nuÃ² Ġ
ĠshÃ¬Ġ zÃłiĠ
chÅįng Ġ
ĠrÃ¡n Ġ
zhÇĶ ĠyÃ¬Ġ
ĠniÃ¡nĠ 9ĠyuÃ¨Ġ
Ġ liÃ¡nĠ
ĠzhÄ« ĠhÃ²uĠ
kuÃłi Ġ
yÃ¡nĠjiÅ« Ġ
4 Ġ
ĠtÄģĠmen Ġ
tÇĶ Ġ
qiÃº Ġ
mÃłi Ġ
shÃŃ ĠdeĠ
liÃłn Ġ
hÃło Ġ
ĠniÃ¡nĠ 5ĠyuÃ¨Ġ
sÃł Ġ
lÃº Ġ
xÃ¬Ġ tÇĴngĠ
Ġ zuÃ¬Ġ
pÃ¨i Ġ
lÇĶ Ġ
ĠniÃ¡nĠ 4ĠyuÃ¨Ġ
chÇĲ Ġ
liÃło Ġ
ĠdÄģng Ġ
ĠniÃ¡nĠ 8ĠyuÃ¨Ġ
ĠniÃ¡nĠ 6ĠyuÃ¨Ġ
ĠxÃŃng ĠdeĠ
zÄĵng Ġ
rÃ©n ĠdeĠ
Ġ shÇĲĠ
xiÄģngĠ gÇİngĠ
xuÄģn Ġ
qÄ«Ġ jiÄģnĠ
dÃ© Ġ
kuÃłng Ġ
guÇİn ĠlÇĲĠ
ĠgÅįngĠ zuÃ²Ġ
piÃło Ġ
ĠzhÄ« ĠyÄ«Ġ
xÇĶ Ġ
Ġ lÃ¡iĠ
dÄ« Ġ
dÃł ĠdeĠ
hÃ©ng Ġ
bÇĶ Ġ
ĠzhÅįngĠ xÄ«nĠ
yÃłng Ġ
xuÄģn ĠbÃ¹Ġ
sÄĵn Ġ
tuÄ« Ġ
ĠniÃ¡nĠ 11ĠyuÃ¨Ġ
zÇĶ ĠzhÄ«Ġ
rÃ¬ Ġ
bÃ¹ ĠdeĠ
wÃłng Ġ
pÃŃ Ġ
Ġ bÄģoĠkuÃ²Ġ
chÃłng Ġ
men Ġ
yÇĲngĠ xiÇİngĠ
ĠtÄģ ĠzÃłiĠ
yÇİng Ġ
qiÄģn ĠmÇĲĠ
Äĵn Ġ
ĠĠĠ shÄĵngĠ
ĠhuÃ² ĠdÃ©Ġ
ĠshÃ¬Ġ jiÃ¨
pÄ« Ġ
sÄģi Ġ
luÃ³ ĠsÄ«Ġ
hÃ¨ Ġ
kÄĽĠ nÃ©ng
chÃ©ng ĠdeĠ
Ġ gÄģi
Ġ qÄ«ngĠ
Ġ mÄĽi
Ã©r Ġ
dÃ¹n Ġ
niÃłn Ġ
xiÃ¡n Ġ
Ġ ÄģĠ
lÃ³u Ġ
qÃŃ ĠtÄģĠ
ĠniÃ¡nĠ 2ĠyuÃ¨Ġ
ĠchÃ©ngĠ lÃ¬Ġ
le ĠyÄ«Ġ
bÄģng Ġ
huÃ³Ġ dÃ²ngĠ
ĠrÃ¨nĠ wÃ©iĠ
Ġ fÄĵn
Ġ bÇĲĠ
yÅįu Ġ
liÃ¹ Ġ
Ġ shÃ¹Ġ
kÄĵ ĠxuÃ©Ġ
fÄģĠ zhÇİnĠ
huÃ² ĠdÃ©Ġ
jÃ¹n Ġ
Ġ luÃ³Ġ
ĠzuÃ²Ġ wÃ©iĠ
yÄģ Ġ
ĠpÃŃngĠfÄģngĠ qiÄģnĠmÇĲĠ
Ġ wÃºĠ
huÃ¡ ĠrÃ©nĠmÃŃnĠ
rÃ¬ ĠbÄĽnĠ
bÄĵi Ġ
lÇİo Ġ
huÃ¬ ĠyÃ¬Ġ
rÃ¨ Ġ
Ġ zhÃŃ
Ġ liÃºĠ
tÃ¡n Ġ
jiÄģn ĠdeĠ
kÃ¹ Ġ
tiÄĽ ĠlÃ¹Ġ
ĠdeĠ rÃ©nĠ
Ġ zhÄģngĠ
yÃ²ng ĠyÃºĠ
liÃ¡o Ġ
nÃŃng Ġ
ĠshÃŃĠ jiÄģnĠ
ĠdeĠ gÅįngĠ
Ġ shÄģnĠ
gÃ¨ Ġ
miÇİn Ġ
Ġ yÃ¡nĠ
miÃłnĠ jÄ«
mÃŃn ĠguÃ³Ġ
ruÃ¬ Ġ
wÅ« ĠkÃ¨Ġ
yÃ¬n Ġ
xiÇİn Ġ
lÃ¨ Ġ
zuÇĴ Ġ
6 Ġ
gÃ²ng ĠyÇĴuĠ
ĠĠĠ lÃ¬ĠshÇĲĠ
hÇİo Ġ
ĠĠĠshÄĵngĠ pÃŃngĠ
fÄģng ĠshÃ¬Ġ
Ġ zhÃŃĠ
fÄģĠ shÄĵngĠ
gÄģn Ġ
Ġ cÃ³ngĠ
dÃ²u Ġ
wÃ¨nĠ tÃŃĠ
guÃłn ĠjÅ«nĠ
zhÇĶĠ yÃłoĠ
rÃ¡n Ġ
dÃ¬ ĠdeĠ
ĠdÃ¬Ġ Ã¨rĠ
Ġ xiÇİoĠ
dÇİo ĠzhÃ¬Ġ
guÄģnĠ xÃ¬Ġ
cÃºn Ġ
kÄģng Ġ
cÄģn ĠyÃ¹Ġ
Ġ jÇĲnĠ
yuÇİn Ġ
ĠbÃ¹Ġ fÃ¨n
zhÄĽng Ġ
ĠgÅįngĠ chÃ©ngĠ
wÃ¡n ĠchÃ©ngĠ
dÄģn ĠwÃ¨iĠ
kÄĽĠ nÃ©ngĠ
Ġ zhÇĲĠ
Ġ wÇĶĠ
yÄ« ĠwÃ¨iĠ
Ġ zÃ©Ġ
1 ĠrÃ¬Ġ
xiÃ¨ Ġ
Ġ zÇĴngĠ
suÇĴ ĠyÇĴuĠ
zhÃ¬ ĠdeĠ
wÃ©nĠ huÃłĠ
ĠchÃ©ngĠ yuÃ¡nĠ
ĠdeĠ chÃ©ngĠ
gÄĽi Ġ
lÇļ Ġ
Ġ bÄģĠ
Ġ tÅįngĠ
yuÃ¡n ĠdeĠ
yÅįng ĠyÇĴuĠ
cÃºn ĠzÃłiĠ
Ã¨r ĠshÃŃĠ
bÄĽi ĠbÃ¹Ġ
Ġ xÃ¬Ġ
liÃ¡n ĠhÃ©Ġ
hÃ²u ĠdeĠ
niÇĶ Ġ
ĠshÃ¬Ġ zhÅįngĠ
zhÃ¨ngĠ fÇĶ
yÃ³u ĠyÃºĠ
guÃ³Ġ jiÄģĠ
duÃ¬ ĠyÃºĠ
ĠniÃ¡nĠ zhÃ¬Ġ
fÄģ ĠxÃŃngĠ
yÃ¬ ĠdeĠ
jÃ¹ ĠyÇĴuĠ
Ġ zhÇĲ
ĠjiÃłnĠ zhÃ¹Ġ
bÇĲĠ sÃłiĠ
ĠbÃ¬ng ĠzÃłiĠ
ĠdÃłoĠ leĠ
xÄ«n ĠdeĠ
sÄ« ĠdeĠ
Åįu Ġ
shÄĽn Ġ
zÃ¬Ġ jÇĲ
yÃ¹nĠ dÃ²ngĠ
yÃºn Ġ
xÃŃng ĠzhÃ¨ngĠ
yÃ¬n ĠdÃ¹Ġ
Ã©Ġ luÃ³ĠsÄ«Ġ
bÄ«n Ġ
Ġ miÃłnĠjÄ«Ġ
dÃłiĠ biÇİoĠ
Ġ mÄĽiĠguÃ³Ġ
shÃło Ġ
Ġ lÃ¬ngĠ
xÇĶ ĠduÅįĠ
ĠdÃłn ĠshÃ¬Ġ
rÃ¨n ĠhÃ©Ġ
Ã¨ Ġ
shÄĵng ĠyÃºĠ
tÅ« Ġ
guÃ¬ Ġ
Ġ jiÇİnĠ
mÇİn Ġ
ĠniÃ¡nĠ dÃłiĠ
dÄ«ng Ġ
liÇİng ĠgÃ¨Ġ
chÃ¨ Ġ
bÇİoĠ hÃ¹Ġ
ĠrÃ©nĠkÇĴuĠ mÃ¬Ġ
Ġ diÃłnĠ
Ġ shÇĲ
zh Ġ
Ġ guÄģnĠ
ĠdÄģng ĠshÃŃĠ
xiÃ¹ Ġ
ĠdeĠ yÃŃĠgÃ¨Ġ
nÃ¡n ĠbÃ¹Ġ
jÇĶ ĠxÃŃngĠ
zhÃłng Ġ
zhuÄģn ĠjÃŃĠ
miÃłnĠjÄ« ĠwÃ¨iĠ
xuÃ¡n Ġ
lÃ¡i ĠdeĠ
fÄģn Ġ
Ġ cÃ©ngĠ
zÇİo Ġ
ĠzhÃ¨ngĠ fÇĶĠ
dÃº ĠlÃ¬Ġ
fÃºĠ wÃ¹Ġ
juÃ©Ġ dÃ¬ngĠ
xiÄĽ Ġ
ĠchÅ« ĠdeĠ
ruÃ² Ġ
zhÇĶĠ yÃło
ge Ġ
kÄģiĠ shÇĲ
ĠlÃ¬Ġ shÇĲĠ
qÇĲng Ġ
Ġ sÄģnĠ
ĠshÃ¨ ĠjÃ¬Ġ
Ġ wÃ¡ngĠ
Ġ mÄĽiĠ
mÃŃng ĠdeĠ
hÃłi Ġ
rÃłng Ġ
ĠshÃ¬ĠwÃ¨iĠ yÃºĠ
jiÃ¹ ĠshÃ¬Ġ
ĠyÇĴuĠ yÄ«Ġ
Ġ jiÄģng
gÄĵng Ġ
gt Ġ
Ġ cÇĲ
Ġ gtĠ
xÇĲ Ġ
tÃłn Ġ
ĠqÃŃ ĠtÄģĠ
Ġ fÇİĠ
ĠxÃŃngĠ zhÃ¨ngĠ
pÃ©i Ġ
jiÃłoĠ yÃ¹Ġ
shÃ²u ĠdÃłoĠ
Ġ fÄĵngĠ
rÃ¨nĠ wÃ©iĠ
Ġ jiÄĵĠ
fÇİng Ġ
kÄģn Ġ
wÇİn Ġ
lt Ġ
ĠshÃ¬Ġ dÃ¬Ġ
fÄģĠ zhÇİn
Äģi Ġ
shÃ¨ ĠhuÃ¬Ġ
Ġ ltĠ
yÃ¬ ĠwÃ¨iĠ
gÃ¹ ĠshÃ¬Ġ
shÃłn Ġ
piÄģn Ġ
fÄģngĠ miÃłnĠ
ĠxiÃłn ĠzÃłiĠ
ĠzuÃ¬ ĠzhÅįngĠ
qÅ« ĠwÃ¨iĠ
Ġ bÃ¬Ġ
qÃŃn Ġ
ĠzhÅįngĠyÄģng Ġ
ĠshÃ¬Ġ shÃ¬Ġ
pÃło Ġ
tuÃ¬ Ġ
zhe Ġ
nÃ¨i ĠdeĠ
Ġ jiÃ¹Ġ
shÇĶ ĠdeĠ
xiÄģngĠ gÇİng
xiÇİo ĠshÃŃĠ
Ġ qÅ«Ġ
dÃłn Ġ
ĠlÃ¬Ġ rÃºĠ
zÃº ĠqiÃºĠ
ĠbÃ¹Ġ tÃ³ng
shÃ¹Ġ jÃ¹Ġ
liÃ¨Ġ chÄĵĠ
xÅ«Ġ yÃłoĠ
huÃł ĠdeĠ
Ġ dÃ²ngĠ
Ġ suÄ«
zhÃŃĠ wÃ¹Ġ
rÃ©n ĠshÃ¬Ġ
qiÄģng Ġ
zuÃ² ĠdeĠ
shÇĲĠ yÃ²ng
zÄĵng ĠjiÄģĠ
ĠjÃ¬Ġ huÃłĠ
mÃŃnĠ zhÇĶĠ
ĠshÃŃĠ qÄ«Ġ
zuÃ²Ġ wÃ©iĠ
Ġ gÇĶĠ
Ġ cÃ©ng
kÃ²ng ĠzhÃ¬Ġ
ĠyÄĽ ĠshÃ¬Ġ
duÇİn Ġ
tÇİn Ġ
ĠjiÃłn ĠdeĠ
yÄ«n ĠyuÃ¨Ġ
ĠrÃ¡n ĠÃ©rĠ
Ġ ÄģnĠ
Ġ shÇĶĠyÃºĠ
ĠyÇĲĠ jÄ«ngĠ
lÃ¡ng Ġ
ĠhÃ©Ġ zuÃ²Ġ
ĠzÃłiĠ dÃ¬Ġ
rÃ©nĠ mÃŃnĠ
ĠshÃ¬Ġ jiÃłnĠ
ĠrÃ©nĠ yuÃ¡nĠ
Ġ yÃ²u
Ġ kÄĵĠ
tÄģ ĠdeĠ
ĠjiÃłn ĠyÃºĠ
xuÃ©Ġ yuÃłnĠ
zÇĶ ĠchÃ©ngĠ
Ġ mÇİ
chÄģo ĠguÃ²Ġ
Ġ gÃ©Ġ
zuÃ²Ġ pÇĲnĠ
ĠyÄ«n ĠyuÃ¨Ġ
mÃło Ġ
ĠquÃ¡n ĠguÃ³Ġ
xiÃ³ng Ġ
zÇİi Ġ
hÅ« Ġ
huÃ¬ ĠdeĠ
jÃ¬ ĠdeĠ
Ġ sÃ¬Ġ
zÇĴngĠ tÇĴngĠ
suÃłn Ġ
ĠzhÃ¨Ġ xiÄĵĠ
ĠwÃ¨iĠ leĠ
ĠhÃ²uĠ lÃ¡iĠ
Ġ shÃ²uĠ
yÃº ĠshÃ¬Ġ
Ġ zhÇİngĠ
Ġ pÇĶĠ
Ġ tÃłiĠ
ĠchÃ©ngĠ gÅįngĠ
fÄģ ĠbÃ¹Ġ
dÃłĠ lÃ¬Ġ
tÃŃ ĠchÅ«Ġ
ĠsuÃ¬ Ġ
ĠlÃ¬Ġ yÃłĠ
ĠyÃ¬Ġ yuÃ¡nĠ
ĠshÃ¨ ĠyÇĴuĠ
ĠĠĠ deĠ
ĠyÄ«nĠ cÇĲ
yÃ¹nĠdÃ²ng ĠyuÃ¡nĠ
yÄģo ĠqiÃºĠ
hÃ¡n ĠguÃ³Ġ
bÃ¹ ĠzÃłiĠ
nÃŃĠ yÃł
pÃŃn Ġ
yÇĴu ĠdeĠ
pÃº Ġ
zÃło ĠchÃ©ngĠ
Åįu ĠzhÅįuĠ
qiÅ« Ġ
cÇİiĠ yÃ²ngĠ
xiÇİo ĠxÃŃngĠ
ĠgÅįngĠ yuÃ¡nĠ
jiÄģ ĠdeĠ
xÃ¬ng ĠdeĠ
bÇİ Ġ
Ġ 000
shÄĵng ĠdeĠ
ĠdeĠ yÃŃĠgÃ¨
ĠrÃ¬ ĠzÃłiĠ
dÄģng ĠshÃŃĠ
kÃ²ng Ġ
rÃ©nĠ wÃ¹Ġ
fÃ¨ng Ġ
ĠcÇĲĠ wÃłiĠ
Ġ suÃŃ
gÃ²ngĠ chÇİnĠ
Ġ lÄģĠ
kÃłn Ġ
Ġ zhĠ
Ġ cÃ³ng
Ġ wÇĴĠ
Ġ shÄģĠ
wÄģn Ġ
ĠshÃ¬Ġ hÃ©Ġ
2010 ĠniÃ¡nĠ
Ġ lÃ¬ng
Ġ gÄĵnĠjÃ¹Ġ
ĠdeĠ bÃ¹Ġ
Ġ tÇĲĠ
mÇİ ĠwÃ¨iĠ
xuÃ©Ġ jiÄģĠ
yÃ³uĠ xÃ¬Ġ
7 Ġ
sÅįng Ġ
fÃłn ĠwÃ©iĠ
ĠbÃ¹Ġ tÃ³ngĠ
mÃ¡o Ġ
dÅ«n Ġ
kÄģiĠ fÄģĠ
chÄģo Ġ
shÃ¨ ĠjÃ¬Ġ
Ġ kÄĽĠ
sÄģn ĠniÃ¡nĠ
qÇĶ ĠdÃ©Ġ
ĠdeĠ jÄ«Ġ
Ġ nÇļĠ
sÃłi ĠshÃ¬Ġ
Ġ jiÄģnĠ
ĠĠĠ shÃ¬Ġ
ĠxÃŃng ĠchÃ©ngĠ
ĠĠĠdÃ¬Ġ lÇĲĠ
xiÅįng Ġ
wÄĵn Ġ
zÃ¬ ĠzhÃ¬Ġ
Ġ yÃŃĠ
chÇİn ĠshÄĵngĠ
Ġ wÃ¹Ġ
Äģ ĠÄĽrĠ
yÃ¡o Ġ
ĠdeĠ jÃ¬Ġ
shÅ« ĠjÃ¬Ġ
ĠzhÅįngĠ huÃ¡ĠrÃ©nĠmÃŃnĠ
jiÃ©Ġ mÃ¹Ġ
ĠbÃ¬ng ĠyÃºĠ
Ġ liÇİngĠ
dÅįu ĠshÃ¬Ġ
nÇĲ Ġ
chÃ³ng ĠxÄ«nĠ
lÃ¼Ã¨ Ġ
chÅ«n Ġ
ĠshÃ¨ ĠhuÃ¬Ġ
zhÃ²ngĠ yÃło
lÇĲ ĠdeĠ
bÃº ĠshÃ¬Ġ
zÃłn Ġ
ĠdÃłiĠ biÇİoĠ
yÄ« ĠniÃ¡nĠ
ĠxiÄģngĠ gÇİngĠ
ĠsÄ«Ġ tÃ¨Ġ
guÄģn ĠyÃºĠ
dÃłng Ġ
zhuÄ« Ġ
diÃłnĠ yÇĲng
xÃ¬Ġ tÇĴng
Ġ nÃłĠ
juÃ©Ġ sÃ¨Ġ
Ġ fÃº
jiÄģoĠ tÅįngĠ
dÇĲng Ġ
lÇİng Ġ
ĠyÃ³uĠ xÃ¬Ġ
dÃłĠ xuÃ©Ġ
10 Ġ
jÃŃ ĠdeĠ
8 Ġ
gÄĵĠ qÇĶĠ
chÃº ĠleĠ
ĠchÅ« ĠxiÃłnĠ
Ġ jiÃ©
tÇİo Ġ
2020 ĠniÃ¡nĠ
mÃŃ Ġ
ĠzhÃ¬Ġ zuÃ²Ġ
ĠdÃłĠ xuÃ©
pÃŃng ĠjÅ«nĠ
Ġ chÃ©nĠ
ĠdÃ© ĠguÃ³Ġ
xiÇİn ĠshÃ¬Ġ
huÃ¡Ġ mÃŃnĠguÃ³Ġ
Ġ shÄĵnĠ
kuÃ² Ġ
ĠniÃ¡nĠ zÃłiĠ
kÇĴng Ġ
hÃ²u ĠzÃłiĠ
miÃ¡o Ġ
Ġ liÇİng
ĠniÃ¡nĠ dÃłi
Ã¨r ĠniÃ¡nĠ
xiÃł ĠdeĠ
yÇİn ĠyuÃ¡nĠ
ĠkÃ¨ ĠsÄ«Ġ
dÃ© ĠguÃ³Ġ
xiÃ¡ng Ġ
qÃ¬ng Ġ
Ġ bÇİoĠ
wÃ©i ĠyÄ«Ġ
cÇİo Ġ
dÄģng ĠdÃ¬Ġ
guÃ³Ġ jÃ¬Ġ
duÃ¬ ĠdeĠ
bÃ³Ġ wÃ¹Ġ
Ġ fÄĵiĠ
ĠjiÃłn ĠlÃ¬Ġ
hÅ«n Ġ
ĠdÃ¬Ġ guÃ³Ġ
ĠbÃ¹Ġ yÃºĠ
Ġ 1Ġ
fÇİn ĠduÃ¬Ġ
zÇĴu Ġ
qÄ« ĠdeĠ
duÄģn Ġ
wÃ¹ ĠdeĠ
xuÃ¨ Ġ
yÄ«n ĠwÃ¨iĠ
qÅ«Ġ yÃ¹Ġ
qÃ¹ ĠshÃ¬Ġ
kuÇİn Ġ
yÄ« ĠbÃ¹ĠfÃ¨nĠ
wÃ² Ġ
bÃ¡ ĠgÄģoĠ
Ġ chÃ¡ngĠ
quÄĵ Ġ
2001 ĠniÃ¡nĠ
guÇİnĠ xiÃ¡Ġ
dÃ¹ ĠwÃ¨iĠ
zhÃ¨ngĠzhÃ¬Ġ rÃ©nĠwÃ¹Ġ
Ġ kÇİĠ
Ġ fÄģĠ
nÃŃĠ yÃłĠ
hÃ¡i ĠyÇĴuĠ
pÃ©ng Ġ
ĠĠĠ rÃ©nĠkÇĴuĠ
ĠdÄģng ĠdÃ¬Ġ
zuÃ¬ ĠzhÅįngĠ
ĠtÄģ ĠshÃ¬Ġ
Ġ dÄģnĠ
ĠbÃ¹Ġ duÃ¬Ġ
Ġ yuÄĵĠ
chÃ¬ Ġ
ĠxÃŃng ĠshÃ¬Ġ
bÇĲĠ sÃłi
qiÃ¡nĠ wÇİngĠ
Ġ wÄĵiĠ
zhÃŃĠ yÃ¨Ġ
dÃ¬ng ĠdeĠ
quÃ¡n ĠguÃ³Ġ
bÄģ ĠshÃ¬Ġ
yÄ« ĠbÃ¹Ġ
ĠdeĠ yuÃ¡nĠ
ĠzhÃ¨ngĠ fÇĶ
Ġ chÃºĠ
lÃ¡iĠ zÃ¬Ġ
zhÃ²ngĠ yÃłoĠ
Ġ lÃŃnĠ
diÃłoĠ chÃ¡Ġ
ĠzhÄ«Ġ jiÄģnĠ
biÄģnĠ mÇİĠwÃ¨iĠ
Ġ huÃ¡ngĠ
ĠniÃ¡nĠ jiÄģnĠ
ĠxuÃ©Ġ mÃŃngĠ
xuÃ©Ġ xiÃłoĠ
zhÄģo Ġ
zhÇĶĠ xÃŃĠ
xuÇİnĠ jÇĶĠ
ĠrÃ¬ ĠzhÃ¬Ġ
Ġ mÃ©iĠ
gÇİi ĠwÃ©iĠ
zÇĶ ĠzhÄ«
Ġ nÃ¨iĠ
zhÇĶĠ jiÃłoĠ
fÃ¡ Ġ
zÄ«Ġ liÃłoĠ
Ġ jÃ¬ngĠ
hÇİi ĠjÅ«nĠ
gÅįng ĠshÃ¬Ġ
ĠjÅ«n ĠshÃ¬Ġ
ĠdeĠ dÃłĠ
ĠrÃ©nĠkÇĴuĠmÃ¬Ġ dÃ¹Ġ
chÇĶ ĠlÇĲĠ
zÄģi Ġ
kÃłng Ġ
sÅ«n Ġ
ĠdeĠ yÃ¬Ġ
fÄģngĠ fÇİĠ
fÃ¹Ġ zÃ©Ġ
Ġ cÃ¬Ġ
Ġ qÇĲĠ
ĠrÃ¬Ġ bÄĽn
wÅ«ĠkÃ¨Ġ lÃ¡nĠ
ĠĠĠ yÇĶĠ
Ġ duÅį
Ġ bÅįĠ
Ġ jiÃ¨Ġ
Ġ shÃ¨ngĠ
shÃ¹ ĠdeĠ
ĠyÇĴuĠ xiÃłn
dÃłiĠ biÇİo
guÃłn Ġ
Ġ sÄģn
ĠgÃ¨ ĠrÃ©nĠ
Ġ huÃłĠ
yÇĲngĠ xiÇİng
wÃºĠ fÇİĠ
Ġ kÄģiĠ
ĠjÃ¬Ġ shÃ¹Ġ
ĠshÃ¬Ġ yÃ³uĠ
jÅ«Ġ mÃŃnĠ
zuÃ¬Ġ gÄģoĠ
jiÄĵĠ rÇİng
Ġ gÇİiĠ
pÃł Ġ
qÃŃ ĠzhÅįngĠ
lÃ¹ ĠdeĠ
Ġ hÃ³ngĠ
Ġ zÃ©
xuÃ©Ġ shÄĵngĠ
ĠzhÄ«Ġ chÃŃĠ
zÃ¬Ġ yÃ³uĠ
wÄĽn Ġ
biÄģoĠ zhÇĶnĠ
xiÃ© ĠhuÃ¬Ġ
shÃ¹Ġ liÃłng
qiÃ¨ Ġ
Äģn ĠquÃ¡nĠ
fÇİnĠ yÃ¬ngĠ
kÄĽ ĠyÇĲ
huÃ¬ ĠzÃłiĠ
yÄģo Ġ
shÃ¨n ĠzhÃ¬Ġ
kÄĽn Ġ
yÃ© Ġ
bÇĲ ĠlÃ¬Ġ
tÇĴng ĠzhÃ¬Ġ
chuÃłng ĠzuÃ²Ġ
zhÇĶĠ rÃ¨nĠ
Ġ 2Ġ
Ġ suÃŃĠ
Ġ xÄ«n
ĠĠĠ bÄĽnĠ
Ġ 1
xÃ¬Ġ liÃ¨Ġ
dÅįng ĠbÃ¹Ġ
Ġ mÃŃng
ĠshÃ¬Ġ yÃŃĠgÃ¨Ġ
Ġ nÃ¡n
ĠgÅįngĠ sÄ«
liÃ¡nĠ mÃ©ngĠ
gÄģi ĠguÃ³Ġ
kÇİi Ġ
ĠfÃ¹Ġ zÃ©Ġ
fÃ¡n Ġ
yÇİ Ġ
ĠdÃ¬Ġ sÄģnĠ
ĠdÃ¬Ġ shÃŃĠ
ĠĠĠ xÃŃngĠzhÃ¨ngĠ
Ġ sÅ«Ġ
tÇĲĠ yÃ¹Ġ
ĠbÃ¹Ġ guÃ²Ġ
jiÃ©Ġ gÃ²uĠ
niÃº Ġ
ĠdÃło ĠdeĠ
shÃŃ ĠniÃ¡nĠ
qÃŃngĠ kuÃłngĠ
nÃ©ng ĠlÃ¬Ġ
Ġ shuÇĲĠ
nÃ¡nĠ ziĠ
zhÅįng ĠshÃ¬Ġ
qÃŃngĠ kuÃłng
sÃ¬ ĠniÃ¡nĠ
Ġ gÄĵĠ
Ġ yÃ¡ngĠ
xÄ« ĠbÃ¹Ġ
hÃ¡o Ġ
gÅįng ĠbÃ¹Ġ
shÄĵngĠ huÃ³Ġ
jiÄĵĠ shÃ²uĠ
mÇĴu Ġ
nÇļĠ zÇĲĠ
Ġ Ãło
lÃ¹ ĠxiÃłnĠ
chÃ©ngĠ lÃ¬Ġ
ĠĠĠ formulaĠ
suÅį Ġ
of ĠĠĠ
ĠzhÅįngĠ xuÃ©Ġ
gÅ« Ġ
huÄģn Ġ
miÃłn ĠdeĠ
ĠjÃ¬nĠ rÃ¹Ġ
Ġ kÄĽĠyÇĲĠ
yÃ¬ ĠshÃ¬Ġ
ĠĠĠ ofĠĠĠ
ĠÄĽr ĠsÄ«Ġ
ĠzhÇĶĠ yÃłoĠ
bÄĽiĠ jÄ«ngĠ
kuÄģn Ġ
Ġ bÄģ
the ĠĠĠ
yÇĴu ĠshÃŃĠ
ĠyÃ¬Ġ huÃ¬Ġ
guÇİngĠ dÅįngĠ
duÃ³ Ġ
liÃ¡nĠ sÃłiĠ
Ġ ÃłoĠ
Ġ tÃ¡iĠ
ĠĠĠ jiÄģĠ
lÃ¡o Ġ
jiÃłn ĠzhÃ¹Ġ
yÃł ĠzhÅįuĠ
dÇİo ĠdeĠ
ĠguÃ³Ġ mÃŃnĠ
yÄĽ ĠshÃ¬Ġ
nÃ¡ ĠdÃłĠ
tÃłi ĠpÃŃngĠ
dÃ²ngĠ wÃ¹Ġ
ĠsuÇĴ ĠyÇĲĠ
ĠbÃ¬ngĠ qiÄĽ
dÃ¬ ĠwÃ¨iĠ
rÇİn Ġ
guÇĲ Ġ
ĠzhÃ¨ ĠshÃ¬Ġ
bÃ¡ĠgÄģoĠ dÃ¹Ġ
dÃ¡ ĠdÃłoĠ
zÃ¬ĠjÇĲ ĠdeĠ
lÇĲ ĠshÃ¬Ġ
zhÃº ĠjiÃłnĠ
zhuÃłn Ġ
dÃłi ĠdeĠ
bÇİn ĠbÄĽnĠ
xÇĶĠ duÅį
Ġ hÃ¡iĠ
zhÄĽ ĠdeĠ
jiÃłoĠ shÃ²uĠ
2008 ĠniÃ¡nĠ
xiÃłngĠ mÃ¹Ġ
ĠxuÃ©Ġ xiÃłoĠ
Ġ mÇĶĠ
Ġ hÃºĠ
wÅ«ĠkÃ¨Ġ lÃ¡n
Ġ dÃł
2009 ĠniÃ¡nĠ
fÄĵiĠ chÃ¡ngĠ
ĠxÄ«Ġ yÃłĠ
Ġ Ã¨rĠ
qÄ«ng ĠniÃ¡nĠ
Ġ zÇĴng
ĠzhÇĶĠ yÃło
lÄģ ĠsÄ«Ġ
ĠĠĠ gÄĵnĠjÃ¹Ġ
yÄ« ĠshÃ¬Ġ
ĠchÃ©ngĠ wÃ©i
rÃ¬Ġ bÄĽn
ĠbÃ¬ngĠ qiÄĽĠ
mÃ³ ĠshÃ¬Ġ
zhÃ© Ġ
niÇİo Ġ
wÃ©nĠ wÃ¹Ġ
ĠtÄģĠmen ĠdeĠ
ĠyÃ¬Ġ shÃ¹Ġ
zhÇĲ ĠyÇĴuĠ
chÄģ Ġ
ĠjÃ¬Ġ lÃ¹Ġ
ĠzhÅįu ĠdeĠ
Ġ ÃłiĠ
Ġ mÃŃnĠ
hÃ¡ngĠ kÅįngĠ
Ġ yÃºĠshÃ¬Ġ
Ġ bÃ³Ġ
wÃ©nĠ xuÃ©Ġ
fÄĵn ĠwÃ©iĠ
suÄģn Ġ
huÇĲ Ġ
ĠqÃŃ ĠshÃ¬Ġ
ĠqÃŃ ĠyÃºĠ
dÄĽng ĠrÃ©nĠ
tÅįngĠ guÃ²
cÃ¡ng Ġ
zhÇĲ ĠchÅ«Ġ
Ġ yÃ²ngĠ
shuÃłi Ġ
28 ĠrÃ¬Ġ
rÃ©nĠkÇĴuĠ pÇĶĠ
cuÃ² Ġ
zhÃŃ ĠxÃŃngĠ
Ġ jÄ«n
tÃ³ng ĠshÃŃĠ
ĠqiÃº ĠduÃ¬Ġ
zhÃł Ġ
ĠlÃ¬Ġ yÃł
yÇİn ĠchÅ«Ġ
zhÃŃĠ jiÄĵĠ
gÄģi ĠdÃ¬Ġ
jÇĲnĠ biÄģoĠ
gÃ©Ġ lÃ¡nĠ
2016 ĠniÃ¡nĠ
huÃ³Ġ dÃ²ng
rÃ¨nĠ wÃ©i
zhÃ¨ ĠyÄ«Ġ
jÃ¬nĠ rÃ¹Ġ
ĠzhÄ«Ġ jiÄģnĠdeĠ
ĠgÅįngĠ kÄģiĠ
ĠdÄģng ĠzhÅįngĠ
hÃ¹n Ġ
9 Ġ
gÃ²ng ĠtÃ³ngĠ
xiÃł ĠjÃ¬Ġ
ĠdÃłn ĠzÃłiĠ
chÃ³u Ġ
zhÃłnĠ zhÄĵngĠ
wÇĶ ĠniÃ¡nĠ
Ġ wÃº
jiÄģng ĠjÅ«nĠ
lÃ¨ ĠbÃ¹Ġ
mÃ©iĠ tÇĲĠ
tÇĲ ĠdeĠ
pÅį Ġ
chÄĵĠ zhÃłn
tÃ¬ Ġ
15 ĠrÃ¬Ġ
mÃ¨ng Ġ
tuÄ« ĠchÅ«Ġ
diÃ© Ġ
jiÃłoĠ yÃ¹
yÇĶn Ġ
zhÃ¨Ġ xiÄĵĠ
ĠshÃ¬Ġ wÃ¹Ġ
miÃło Ġ
Ġ yÇĲnĠ
lÃŃĠ kÄģiĠ
ĠlÃ¬ngĠ wÃłiĠ
huÃ¡nĠ jÃ¬ngĠ
tÃ©ng Ġ
zhÃº Ġ
2012 ĠniÃ¡nĠ
lÃŃnĠ pÇĲ
ĠdÃ¬Ġ Ã¨r
shÄģngĠ yÃ¨Ġ
2011 ĠniÃ¡nĠ
chuÃ¡nĠ tÇĴngĠ
ĠĠĠ niÃ¡n
guÄģn ĠdeĠ
sÄģn ĠshÃŃĠ
jÅ«n ĠshÃ¬Ġ
dÄģnĠ qÅ«Ġ
liÃłng ĠdeĠ
sÃłn Ġ
jiÄĵ ĠdÃłoĠ
jÄ« ĠdeĠ
qiÃ¡n ĠdeĠ
rÃ©n ĠzÃłiĠ
zÃłng Ġ
nÃ¨iĠ rÃ³ngĠ
0 Ġ
sÃłi ĠjÃ¬Ġ
gÄģo ĠdeĠ
dÃ²ngĠ huÃłĠ
bÃ³ ĠshÃ¬Ġ
dÃ¹ ĠdeĠ
ĠwÃ¨iĠ rÃ©nĠ
Ġ mÇĲ
yÃŃnĠ hÃ¡ngĠ
sÇĶn Ġ
xuÇİnĠ jÇĶ
Ġ gÃ¹Ġ
ĠwÃ¨iĠ zhÃ¬Ġ
chÃ©ng ĠzhÅįngĠ
mÃ¬ng ĠmÃŃngĠ
dÄĽng ĠdÃ¬Ġ
bÇİng Ġ
ĠgÅįngĠ lÃ¹Ġ
rÃ¨ ĠdÃłiĠ
shÄĽng ĠdeĠyÃŃĠgÃ¨
bÄĽiĠ jÄ«ng
ĠshÃŃĠ jÃ¬Ġ
yÃ¹nĠdÃ²ng ĠhuÃ¬Ġ
xuÇİnĠ zÃ©Ġ
ĠdÃłĠ lÃ¬Ġ
ĠÃ©r ĠzÃłiĠ
Ġ hÃłnĠ
Ġ yÃ¨Ġ
yuÃ¡n ĠniÃ¡nĠ
bÃłoĠ gÃłoĠ
ĠmÃ¹Ġ qiÃ¡nĠ
ĠdeĠ hÃ©Ġ
bÅį ĠchÅ«Ġ
zuÃ¬ ĠjiÄģĠ
ĠĠĠ jÃ¹Ġ
zÅįng ĠjiÃłoĠ
xuÃ© ĠwÃ¨iĠ
tÇĶ ĠdÃ¬Ġ
ĠdÃ© ĠdÃłoĠ
ĠzhÃ¨Ġ geĠ
wÃ©nĠ huÃł
zuÃ¬ ĠhÃ²uĠ
tuÃ¡nĠ tÇĲĠ
25 ĠrÃ¬Ġ
Ġ mÃ³Ġ
Ġ zhÃłn
ĠdÃ¬Ġ fÄģngĠ
guÇĲ ĠdÃłoĠ
ĠwÃ¨iĠ dÃ¬Ġ
luÃłn Ġ
jÄ«ng ĠlÃ¬Ġ
xÃ¬ ĠdeĠ
ĠzhÄ«Ġ qiÃ¡nĠ
ĠshÃ¬ĠyÄ«Ġ zhÇĴngĠ
Ġ qÃ¬Ġ
suÃ¬ Ġ
Ġ xÃ¬ngĠ
ĠgÃ¨ ĠyuÃ¨Ġ
ĠzhÅįngĠ huÃ¡ĠmÃŃnĠguÃ³Ġ
ĠjÅ«n ĠdeĠ
sÇĲĠ wÃ¡ngĠ
xiÄģngĠ guÄģnĠ
Ġ bÄģoĠkuÃ²
30 ĠrÃ¬Ġ
ĠjÄ«Ġ gÃ²uĠ
wÃ¨i ĠdeĠ
Ġ 2
shÇĴuĠ cÃ¬Ġ
ÃłoĠ lÃŃnĠpÇĲ
fÄĵnĠ biÃ©
lÇĲngĠ dÇİoĠ
ĠyÇĴuĠ guÄģnĠ
ĠhÇİiĠ bÃ¡ĠgÄģoĠdÃ¹Ġ
Ġ zhÃ²ngĠ
ĠyÄ«Ġ xiÄĵĠ
ĠtÃ³ng ĠniÃ¡nĠ
Ġ juÃ©Ġ
yÃ²ng ĠdeĠ
2014 ĠniÃ¡nĠ
huÃ¡i Ġ
ĠĠĠ wÃ¨iĠ
20 ĠrÃ¬Ġ
ĠxÃŃngĠ dÃ²ngĠ
xuÄĽ Ġ
ĠzÃłiĠ yÄ«Ġ
jÄ« ĠyÃºĠ
jÃŃ ĠzhÅįngĠ
shuÇĲ ĠyÃ¹Ġ
biÃłnĠ huÃłĠ
10 ĠrÃ¬Ġ
shÃłng ĠwÃ¨iĠ
ĠjÃŃĠ tuÃ¡n
Ġ 5Ġ
2018 ĠniÃ¡nĠ
ĠjÃ¬Ġ xÃ¹Ġ
zhÄ« ĠyÄ«Ġ
ĠshÃŃĠ dÃłiĠ
chÇĶ ĠyÃºĠ
Ġ ziĠ
Ġ wÃłiĠ
Ġ bÃ¡iĠ
gÃ²ng ĠhÃ©Ġ
wÃłn Ġ
ĠbÃ¹Ġ zhÇİngĠ
UTC Ġ
zÃ¬Ġ jÇĲĠ
jiÃ©Ġ shÃ¹Ġ
2019 ĠniÃ¡nĠ
ĠzÃ¬Ġ jÇĲ
zhÄ«Ġ chÃŃĠ
2005 ĠniÃ¡nĠ
guÃ² ĠchÃ©ngĠ
ĠhÃ²uĠ lÃ¡i
mÄĽi ĠyuÃ¡nĠ
mÃŃnĠ zÃºĠ
shÃ¹n Ġ
2015 ĠniÃ¡nĠ
kÅįngĠ jiÄģnĠ
shuÃ¬ Ġ
mÃ¨i Ġ
bÃº ĠhuÃ¬Ġ
yÃ¨ ĠyÃºĠ
Ġ rÃº
Ġ chÄĵngĠ
tÃ²u ĠguÃ²Ġ
nÃ¨i ĠbÃ¹Ġ
Ġ sÃ¬
2013 ĠniÃ¡nĠ
jiÄĽĠ fÃłng
ĠzhÃŃ ĠdÃłoĠ
ĠyÃ¬Ġ zhÃŃĠ
Ġ jÇĲngĠ
xÄ«nĠ wÃ©nĠ
fÄĵn ĠbÃ¹Ġ
gÄĵnĠ jÃ¹
Ġ Ãłi
ĠzhÅįu ĠshÃ¬Ġ
pÄ« ĠpÃŃngĠ
Ġ jiÃ¹
ĠjÃŃĠ tuÃ¡nĠ
2007 ĠniÃ¡nĠ
Ġ shÇĶĠ
dÃ¬Ġ qÅ«Ġ
tÄģĠ men
ĠĠĠ zhÃ¨Ġ
ĠhÃ©Ġ nÃ¡nĠ
ĠshÃ¬Ġ shÃŃĠ
ĠyÇĴuĠxiÃłn ĠgÅįngĠsÄ«Ġ
Ġ shÃ©nĠ
wÃ¡n ĠjiÄģĠ
guÄ«Ġ dÃ¬ngĠ
ĠjiÄģĠ rÃ¹Ġ
gÃ©Ġ mÃ¬ngĠ
wÃ¡n ĠquÃ¡nĠ
chÃ©ngĠ wÃ©iĠ
Ġ tÃ¡ngĠ
xÄ«Ġ bÄģnĠ
zÄ«Ġ gÃ©Ġ
26 ĠrÃ¬Ġ
dÃłĠ lÃ¹Ġ
ĠĠĠ gÄģiĠ
ÃłoĠlÃŃnĠpÇĲ ĠkÃ¨Ġ
18 ĠrÃ¬Ġ
2017 ĠniÃ¡nĠ
ĠdÃłĠ huÃ¬Ġ
Ġ tÃ³uĠ
24 ĠrÃ¬Ġ
Ġ mÃ²Ġ
12 Ġ
zÃłi ĠdeĠ
zÃ¡ ĠzhÃ¬Ġ
Ġ kÄĽ
ĠĠĠ yÄ«Ġ
ĠzhÃ¨Ġ zhÇĴngĠ
yÄ«ng ĠyÇĶĠ
lÃ¹ ĠdÃ¬Ġ
Ġ yÄ«ngĠguÃ³Ġ
hÃ© ĠdeĠ
shÃłngĠ hÇİiĠ
hÃ¡o ĠmÇĲĠ
ĠyÇĶĠ yÃ¡nĠ
qÃŃ ĠtÄģ
pÃºĠ tÃ¡oĠ
qÇĲĠ yÃ¨Ġ
fÄģng ĠdeĠ
hÃ²u ĠyÄ«Ġ
luÃ³Ġ mÇİĠ
wÃ¨nĠ tÃŃ
ĠchÃ©ngĠ qÅ«Ġ
sÄģn ĠgÃ¨Ġ
sÃ¨ ĠdeĠ
2006 ĠniÃ¡nĠ
chuÃ¡nĠ tÇĴng
ĠshÃ¬Ġ fÇİĠguÃ³Ġ
yÄ« ĠdeĠ
Ġ yÃłoĠ
wÃ¹Ġ zhÇĴngĠ
A Ġ
Ġ tÃ¡iĠwÄģnĠ
ĠwÃ¨iĠyÃºĠ gÄģiĠguÃ³Ġ
Ġ hÄģĠ
ĠlÇĲĠ sÄ«Ġ
jÃ¬ngĠ nÃ¨iĠ
Ġ 3Ġ
ĠbÃ¹ĠtÃ³ng ĠdeĠ
Ġ mÃ²
wÃ¹ ĠlÇĲĠ
duÅį ĠdeĠ
shÃ¹ ĠwÃ¨iĠ
ĠdÃłiĠ biÇİo
biÇİo ĠxiÃłnĠ
ĠshÃ¬ĠjiÃ¨ ĠdÃłĠ
shÄĽng ĠjÃŃĠ
gÃłn Ġ
miÃ¡o ĠshÃ¹Ġ
fÇİĠ lÇľĠ
Ġ Äģ
bÃł Ġ
guÄģn ĠyuÃ¡nĠ
Ġ lÃºĠ
jÄ«ngĠ guÃ²Ġ
chÄģng Ġ
16 ĠrÃ¬Ġ
ĠzuÃ¬ ĠhÃ²uĠ
17 ĠrÃ¬Ġ
ĠyÃ¬Ġ bÄģnĠ
sÅįu Ġ
pÃ²Ġ huÃłi
ĠguÃ³Ġ jiÄģ
yÃŃng ĠdÃ©Ġ
cÃłi Ġ
ĠsuÃŃ ĠhÃ²uĠ
nÃ¡ Ġ
zhÃ¨ng ĠzÃłiĠ
12 ĠrÃ¬Ġ
bÄģoĠ hÃ¡nĠ
ĠshÃ¬Ġ jiÃłn
bÃ³ĠwÃ¹Ġ guÇİnĠ
ĠgÅįngĠ jÄ«Ġ
shÃ¨n Ġ
Ġ cÃ¬
cÃ¨ ĠshÃ¬Ġ
chÇİng ĠdeĠ
ĠwÃ¨iĠ zhÅįngĠ
chÃºn Ġ
ĠlÃ¬Ġ yÃ²ngĠ
bÃ¹ ĠhÃ©Ġ
Ġ chÃ¡oĠ
niÃ¨ Ġ
8 ĠrÃ¬Ġ
zÃ© ĠshÃ¬Ġ
fÄĵi ĠjÄ«Ġ
ĠfÄĵn ĠbÃ¹ĠyÃºĠ
zhuÄģnĠ yÃ¨Ġ
zhÄĵng ĠyÃ¬Ġ
27 ĠrÃ¬Ġ
fÇİĠ yuÃłnĠ
shÇĲ ĠdeĠ
ĠdÃ¬Ġ qÅ«
Ġ 2001ĠniÃ¡nĠ
yÅįng Ġ
21 ĠrÃ¬Ġ
yÃ¬ ĠshÃŃĠ
zÄģo ĠdÃłoĠ
ĠsuÄ« ĠrÃ¡n
Ġ chÃ³ngĠ
ĠshÃ¬Ġ yÃ¬Ġ
ĠshÄĵngĠ huÃ³Ġ
Ġ Ã©Ġ
ĠbÃ¨iĠ chÄĵngĠwÃ©iĠ
dÃ¬ng ĠyÃ¬Ġ
ĠzhÅįngĠ xÄ«n
ĠdÃłĠ qÅ«Ġ
zÅįng ĠhÃ©Ġ
ĠzhÃłnĠ zhÄĵngĠ
xuÃ© ĠdeĠ
ĠxiÃłn ĠshÃŃĠ
7 ĠrÃ¬Ġ
11 Ġ
ĠzhÅįngĠ gÃ²ng
19 ĠrÃ¬Ġ
jÃŃ ĠwÃ¨iĠ
23 ĠrÃ¬Ġ
2021 ĠniÃ¡nĠ
huÃ¡ng ĠdÃ¬Ġ
ĠdeĠ zuÃ²Ġ
Ġ zhÅ«Ġ
zhÇĲ ĠshÃ¬Ġ
2022 ĠniÃ¡nĠ
11 ĠrÃ¬Ġ
Åįu ĠzhÅįu
ÄģĠ lÄģĠ
jiÄģng ĠqÃŃĠ
ĠbÃ¬ng ĠbÃ¹Ġ
yuÃ¡n ĠyÃºĠ
de ĠĠĠ
fÄģngĠ xiÃłngĠ
9 ĠrÃ¬Ġ
liÃ¹ ĠniÃ¡nĠ
zhÃłn ĠdeĠ
ĠĠĠ yÃºĠ
liÃ¨Ġ chÄĵ
chÅ« ĠxiÃłnĠ
quÃ¡n ĠlÃ¬Ġ
nÇİo Ġ
guÄ«Ġ mÃ³Ġ
22 ĠrÃ¬Ġ
29 ĠrÃ¬Ġ
Ġ lÃ¹
liÃ¨ ĠdeĠ
14 ĠrÃ¬Ġ
zuÃ¬Ġ dÃłĠdeĠ
duÅįĠ shÃ¹Ġ
xiÃłng ĠdeĠ
xÅ«Ġ yÃło
hÃ¡i ĠshÃ¬Ġ
Ġ lÃ³ngĠ
ĠĠĠ theĠĠĠ
yÃ¹ ĠdeĠ
nÃ©ngĠ gÃ²uĠ
yuÄĵĠ hÃłnĠ
ĠzhÃ¨Ġ xiÄĵ
5 ĠrÃ¬Ġ
ĠĠĠ cÇĲĠ
dÃ¬ng ĠwÃ¨iĠ
tÇĴng ĠjÃ¬Ġ
ĠxiÄģngĠ gÇİng
Ġ zhÄģng
ĠfÄĵnĠ biÃ©
ĠĠĠ zhÃ¨ngĠzhÃ¬Ġ
sÄģng Ġ
ĠzÃłiĠ zhÃ¨Ġ
xÃ¬n ĠxÄ«Ġ
yÃłng ĠdeĠ
ĠxiÃłn ĠzhÃ¬Ġ
hÅįng Ġ
gÅįng ĠdeĠ
3 ĠrÃ¬Ġ
jÇĶĠ bÃłn
qiÃº ĠduÃ¬Ġ
chÃ¡ ĠdeĠ
lÃ¬ng ĠyÄ«Ġ
liÃ¡nĠ mÃ©ng
chÃ¡ng ĠshÃ¬Ġ
Ġ zÇĶĠ
6 ĠrÃ¬Ġ
niÇĶĠ yuÄĵ
ĠhuÃ² ĠdÃ©
zÇĶ ĠhÃ©Ġ
lÃŃn ĠshÃŃĠ
Ġ bÃłoĠ
31 ĠrÃ¬Ġ
ĠzhÅįngĠ bÃ¹Ġ
wÃ¨i ĠshÃ¬Ġ
dÇĴng ĠshÃ¬Ġ
jÄ« ĠdÃ¬Ġ
ĠĠĠ zhÅįngĠ
Ġ liÃº
gÄĵĠ shÇĴuĠ
Ġ rÃ¹Ġ
dÅįngĠ nÃ¡nĠ
hÇİiĠ bÃ¡
Ġ gÃ²ngĠ
bÄģng ĠzhÃ¹Ġ
Ġ huÃ¡Ġ
ĠdeĠshÃ¬Ġ zhÃ¨nĠ
4 ĠrÃ¬Ġ
pÄģi ĠshÃ¨Ġ
mÃ³u Ġ
ĠyÃ¬Ġ dÃłĠlÃ¬Ġ
ĠshÃ¨ ĠlÃ¬Ġ
13 ĠrÃ¬Ġ
ĠyÃ¬Ġ bÄģn
Ġ jiÃłĠ
2 ĠrÃ¬Ġ
ĠrÃ©nĠ kÇĴu
2000 ĠniÃ¡nĠ
gÃ¨ ĠrÃ©nĠ
shÃ¨ ĠyÇĴuĠ
ĠdeĠ zhÅįngĠ
shÄĵngĠ yÃ¡Ġ
yuÃ¡n ĠhÃ©Ġ
Ġ dÇİoĠzhÃ¬Ġ
ĠdÃ¬Ġ qÅ«ĠdeĠ
2004 ĠniÃ¡nĠ
ĠxuÃ©Ġ shÄĵngĠ
tiÄĽĠ lÃ¹
fÃ©ng Ġ
zÃº ĠqiÃº
zÇİo ĠqÄ«Ġ
ĠqÃŃ ĠtÄģ
The ĠĠĠ
pÃ¡n Ġ
ruÇİn Ġ
xiÅįng ĠdÃ¬Ġ
shÄĵng ĠzÃłiĠ
dÅįngĠ bÄĽiĠ
cÄģng Ġ
mÃ¹ ĠdÃ¬Ġ
Ġ wÇĴ
Ġ biÃłnĠ
tÅįngĠ chÃ¡ngĠ
huÄ« ĠfÃ¹Ġ
Ġ mÃ©iĠyÇĴuĠ
C Ġ
ĠzhÃ¨ ĠyÄ«Ġ
ĠshÃ¬Ġ chÇİngĠ
ĠxuÃ©Ġ yuÃłnĠ
shÄģo Ġ
shÄĵnĠ fÃ¨nĠ
ĠĠĠ yÃ³uĠyÃºĠ
qÇĶ ĠdÃłiĠ
gÃ©Ġ mÃ¬ng
zhÇĲĠ huÄ«Ġ
qÃŃngĠkuÃłng ĠxiÃłĠ
sÅ«Ġ liÃ¡nĠ
Ġ 4Ġ
yÃŃ ĠbÃ¹Ġ
xiÃ© ĠyÃ¬Ġ
huÃ¡ng ĠjiÄģĠ
Ġ fÃ¹
kÄĵ ĠjÃ¬Ġ
bÇĲng Ġ
fÄģ ĠxiÃłn
zhÄĽng ĠgÃ¨Ġ
Ġ hÄĵiĠ
rÃ©n ĠhÃ©Ġ
pÃ¡ng Ġ
ĠgÅįngĠ chÇĲĠ
yÄģo ĠqiÃº
yÄģn Ġ
liÃ¡nĠ bÄģngĠ
zhÄģn Ġ
chÄģo ĠjÃŃĠ
21 Ġ
mÃło ĠyÃ¬Ġ
yuÃ¨ ĠdeĠ
zhÇİng ĠdeĠ
xuÃ©Ġ yuÃłn
fÇİnĠ yÃ¬ng
jÇĶĠ bÃłnĠ
hÃ¡ngĠ kÅįng
xÃŃ ĠjÄ«Ġ
cuÄ« Ġ
ĠyÄĽ ĠyÇĴuĠ
nÇļĠ xÃ¬ngĠ
huÃł ĠhÃ©Ġ
xiÇİoĠ shuÅįĠ
ĠdÃ¬Ġ lÃ¬Ġ
tÇĲng Ġ
lÃ¬ ĠhÃ©Ġ
Ġ shÅ«Ġ
ĠxÄ«Ġ nÃ¡nĠ
tÃºĠ shÅ«Ġ
Ġ hÄģ
xiÄģn ĠhÃ²uĠ
Ġ shuÄģngĠ
tÇĴng ĠyÄ«Ġ
bÃ¬Ġ yÃ¨Ġ
guÄģnĠ fÄģngĠ
Ġ gÃ¹
Ġ dÅįng
Ġ quÃ¨Ġ
Ġ wÄĵi
br Ġ
Ġ mÃłnĠ
sÃłi ĠdeĠ
zÅ«n Ġ
ĠyÇĲĠ jÄ«ng
hÃ³u Ġ
zÃ¡ Ġ
Ġ brĠ
lÇİn Ġ
xiÃ© ĠzhÃ¹Ġ
cÃ¬ ĠshÃ¬ĠjiÃ¨ĠdÃłĠ
ĠrÃºĠ guÇĴĠ
Ġ qiÄģnĠ
shÃłng ĠshÃ¬Ġ
qÅ«Ġ huÃłĠ
fÄĵn ĠxÄ«Ġ
yÇĶ ĠdeĠ
ĠÄĽrĠ shÄĽngĠ
rÃ©nĠkÇĴuĠ shÃ¹ĠliÃłng
wÃ©nĠwÃ¹Ġ bÇİoĠhÃ¹Ġ
ĠhÃ©Ġ yÄ«Ġ
Ġ cÃ¡iĠ
ĠbÃ¹Ġ nÃ©ngĠ
Ġ bÄĽn
zÃ¬ ĠxÃŃngĠ
jiÄĵĠ duÃłnĠ
guÇİngĠ bÅįĠ
ĠyÇĲĠ lÃ¡iĠ
ĠxÄ«Ġ bÄģnĠ
Ġ qiÄĽĠ
Ġ 6Ġ
dÄģnĠ rÃ¨n
ĠzhÃ¨Ġ ge
Ġ wÇĶ
ĠtÄģĠ cÃ©ng
chÃŃĠ xÃ¹Ġ
tÃ¡iĠ bÄĽi
B Ġ
wÃº ĠxiÃłnĠ
gÃ²ngĠchÇİnĠ dÇİngĠ
guÃ³ ĠhÃ©Ġ
ĠyÇĲĠ xiÃłĠ
qÄ« ĠniÃ¡nĠ
tÃ¨ ĠdeĠ
dÇİoĠ yÇİnĠ
ĠyÄ«ngĠ chÇĲĠ
hÃ²u ĠyÃºĠ
lÃłi Ġ
yÇİnĠ chÃłng
zhÃ¹ ĠzÃłiĠ
rÃ©ng Ġ
fÄģĠ biÇİo
xiÃłĠ xiÃ¡
tiÃ¡o ĠjiÃłnĠ
Ġ jiÇĶĠ
pÃŃn ĠdÃłoĠ
ĠgÅįngĠ zuÃ²
yÃ¨ ĠdeĠ
jiÄģo ĠyÃ¬Ġ
hÇĶ Ġ
ĠzÃłiĠ cÃ¬Ġ
shÃło ĠniÃ¡nĠ
jiÃ©Ġ shÃ¹
ĠshÃ¬Ġ zhÅįngĠguÃ³Ġ
Ġ qiÄĽ
zÄģo Ġ
bÃło ĠdÃłoĠ
qiÃº ĠyuÃ¡nĠ
ĠshÃ¬Ġ lÃ¬Ġ
ĠĠĠ bÃ¹Ġ
juÃ©Ġ sÃłiĠ
Ġ yÃłĠ
yÃ¬ngĠ yÃ²ngĠ
wÃłi ĠdeĠ
yÃ³uĠ zhÃ¨ngĠ
20 Ġ
jiÃłn ĠlÃ¬Ġ
zÄ« ĠyuÃ¡nĠ
sÄģi ĠÄĽrĠ
ĠqÃŃ ĠhÃ²uĠ
Ġ xÄ«
Ġ zhÃłoĠ
zuÃ¬ ĠdÃłĠ
ĠbÃ¬ng ĠwÃ¨iĠ
huÃŃ ĠdÃłoĠ
cÄģo Ġ
sÃ¹Ġ dÃ¹Ġ
qÃ¬ ĠhÃ²uĠ
kÄĽĠ dÃ¡Ġ
ĠwÃ¨iĠyÃºĠ fÇİĠguÃ³Ġ
gÇİiĠ gÃ©Ġ
mÃ¬Ġ shÅ«Ġ
ĠyÄ«Ġ yuÃłnĠ
diÃłnĠshÃ¬Ġ jÃ¹Ġ
zhuÃłngĠ tÃłiĠ
zhÃ¹ ĠdeĠ
fÃ¨n ĠwÃ¨iĠ
ĠgÅįngĠ yÃ¨Ġ
Ġ luÃ²Ġ
wÇİng ĠzhÃłnĠ
Ġ jiÄĽĠ
Ġ lÃ¡nĠ
jiÃ©Ġ guÇĴĠ
gÅįngĠ sÄ«Ġ
suÇĴĠ shÇĶĠdeĠ
ĠdeĠdÃ¬Ġ yÄ«Ġ
Ġ mÃłi
hÃº ĠnÃ¡nĠ
ĠyÄ«Ġ sÄ«Ġ
yÃł ĠlÃ¬Ġ
ĠwÃ¨iĠ yÄ«Ġ
shÃłngĠ hÇİi
20 ĠshÃ¬ĠjÃ¬Ġ
ĠzuÃ²Ġ pÇĲnĠ
zuÇĴ ĠyÃ²uĠ
xiÇİo ĠxuÃ©Ġ
shÃ¨ng ĠlÃ¬Ġ
jiÃ© ĠhÃ©Ġ
ĠzhÅįngĠ gÃ²ngĠ
shÇĴuĠ cÃ¬
ĠsuÇĴ ĠyÇĴuĠ
ĠhÃło ĠxiÃłnĠ
zhÃ¨nĠ qÅ«Ġ
ĠdeĠ fÃ¹Ġ
wÃ©n ĠmÃŃngĠ
ĠjiÇİnĠ chÄĵngĠ
zhÇİnĠ kÄģiĠ
yÃŃ ĠzhÃ¬Ġ
jiÃło ĠhuÃ¬Ġ
shÄĽngĠ fÃ¨nĠ
yÃ¬nĠ dÃ¹
shÃŃĠ qÄ«Ġ
Ġ fÇİĠguÃ³Ġ
kÄģiĠ fÄģ
lÇĲngĠ dÇİo
mÃ¹Ġ biÄģoĠ
ĠÃ©r ĠshÃ¬Ġ
Ġ 3
gÄģo ĠjÃŃĠ
zhÇĶn ĠbÃ¨iĠ
wÇİngĠ luÃ²Ġ
juÇİn Ġ
Ġ fÄĵi
ĠjiÃłn ĠshÃ¨Ġ
xÃ¹nĠ liÃłnĠ
kÄĵ ĠdeĠ
ĠrÃ©nĠ wÃ¹Ġ
xuÇİnĠ shÇĴuĠ
jiÄģoĠ tÅįng
hÇİo ĠdeĠ
zÃ¬Ġ rÃ¡nĠ
zhÃ²ngĠyÃło ĠdeĠ
Ġ jiÇİĠ
dÅįngĠ jÄ«ngĠ
chÇİnĠ pÇĲnĠ
fÄģĠ biÇİoĠ
gÃ²ngĠyÇĴuĠ rÃ©nĠkÇĴuĠ
ĠxiÃłnĠ dÃłiĠ
ĠyÄ«Ġ mÃŃngĠ
lÄĽi Ġ
ĠxÄ«Ġ bÄĽiĠ
fÄĵngĠ gÃ©Ġ
ĠchÃ©ngĠ jÃ¬Ġ
zÃ²u Ġ
ĠhÃ©Ġ dÃ¬Ġ
xiÇİoĠxÃŃngĠ xÄ«ngĠ
yÃ¡nĠ zhÃ²ngĠ
Ġ dÄģnĠrÃ¨nĠ
miÃ¨ Ġ
mÃ¹Ġ qiÃ¡nĠ
zi ĠdeĠ
ĠjÄ«Ġ chÇİngĠ
Ġ guÄģngĠ
liÃº ĠxÃŃngĠ
biÃłn ĠchÃ©ngĠ
qiÃ¡o ĠzhÃ¬Ġ
Ġ mÃłiĠ
lÃ¨iĠ sÃ¬
diÃłnĠshÃ¬Ġ tÃ¡iĠ
Ġ yÇĴngĠ
jiÄĽ ĠshÃ¬Ġ
Ġ yÃŃĠgÃ¨Ġ
guÃ³Ġ mÃŃnĠ
ĠyÃ¬Ġ qÇĲĠ
Ġ dÄĽng
Ġ shÃ¨nĠzhÃ¬Ġ
kÄģiĠ fÃłngĠ
ĠxiÃłĠ lÃ¬ng
kÇİ ĠÄĽrĠ
2003 ĠniÃ¡nĠ
xÃŃng ĠshÃ¬Ġ
dÅįu ĠyÇĴuĠ
Ġ chÃºĠleĠ
2002 ĠniÃ¡nĠ
zhÄ« ĠhÃ²uĠ
huÃ¬ ĠhÃ©Ġ
rÃ¹ ĠleĠ
ĠgÅįngĠ fÄĵnĠ
ĠshÃ¨ ĠzhÃ¬Ġ
bÃłng Ġ
ĠyÄ«Ġ yÃłngĠ
tÃ¨Ġ zhÄĵngĠ
cÄģnĠ sÃłiĠ
ĠsÄ«Ġ jÄ«Ġ
Ġ wÅ«Ġ
rÃº ĠxiÃłĠ
zhÄĵn ĠduÃ¬Ġ
jiÃ¹ ĠshÃ¬ĠzhÃ¨nĠ
ĠshÃ¬Ġ fÇĴu
ĠshÃŃĠ jiÄģn
Ġ biÇİoĠshÃ¬Ġ
gÄģo ĠzhÅįngĠ
ĠcÇĲ ĠhÃ²uĠ
ĠzÃłiĠ zhÅįngĠ
bÃ¬Ġ xÅ«Ġ
Ġ chÄĵĠ
wÃ¡ng ĠguÃ³Ġ
bÇĲĠ jiÃłoĠ
Ġ yÇĶ
Ã¨r ĠshÃ¬Ġ
Ġ xiÃłng
wÃłiĠ jiÄģo
guÄ«Ġ huÃłĠ
ĠyÃ¬Ġ zhÃ¬Ġ
lÃ¨iĠ sÃ¬Ġ
dÃ¹ĠwÃ¨iĠ mÄĽi
shÄģnĠ dÅįngĠ
ĠrÃ¡n ĠhÃ²uĠ
Ġ shÄģngĠ
ĠyÃ¬Ġ zhÃŃ
ĠlÃ¬Ġ shÇĶĠyÃºĠ
me Ġ
ĠsuÄ« ĠrÃ¡nĠ
yuÃ¡n ĠshÃ¬Ġ
duÃ¬ ĠzÃłiĠ
zhÃ¹ ĠmÃŃngĠ
yÃºn ĠnÃ¡nĠ
hÄĽn ĠduÅįĠ
ĠÄĽr ĠdeĠ
huÃ² ĠdÃ©
shÄĵngĠ chÇİnĠ
15 Ġ
ĠĠĠ gÅįngĠ
30 Ġ
Ġ tÃºĠ
zhÃłn ĠyÃ¬Ġ
Ġ bÄĽi
zhÃ²ng ĠdeĠ
ĠĠĠ dÃłĠ
ĠjiÃłn ĠzhÃ¬Ġ
diÃłnĠ ziĠ
xÄ«n ĠjiÄģĠ
zhÃ¬Ġ zuÃ²Ġ
zhÃ¨Ġ geĠ
tÃło Ġ
shÄģn ĠxÄ«Ġ
Ġ gÇĶ
jÃ¹ ĠjÃŃĠ
ĠdeĠyÄ«Ġ zhÇĴngĠ
ĠdeĠ mÃŃngĠ
ĠwÃłn ĠrÃ©nĠ
jÃŃ ĠhÃ©Ġ
Ã©Ġ luÃ³Ġ
ĠxÄ«Ġ yÃł
lÇļ ĠyÃ³uĠ
ĠzhÃ¬Ġ zÃłoĠ
ĠxÃŃngĠ wÃ©iĠ
chÃł Ġ
mÇİĠ lÃ¡i
bÃłoĠ fÄģĠ
nÇļ ĠÃ©rĠ
lÃ¡iĠ zÃ¬
Ġ INSEE
Ġ rÃ¨n
zÇĴng ĠlÇĲĠ
Ġ duÃ¬ĠyÃºĠ
quÃ¡n ĠqiÃºĠ
sÄ« ĠhÃ©Ġ
ĠdeĠ zhÇĶĠ
fÄģ ĠshÃ¨Ġ
sÃłi ĠzhÅįngĠ
ĠshÃłngĠ hÇİiĠ
ruÃ¬ ĠshÃ¬Ġ
bÄģoĠ hÃ¡n
nÃ³ngĠ yÃ¨Ġ
yÃ¨Ġ wÃ¹Ġ
lÃ¹ ĠjÅ«nĠ
tÃ³uĠ zÄ«Ġ
Ġ zÇĶ
wÃ¹ ĠzhÃ¬Ġ
juÃ© ĠdeĠ
ĠfÄĵn ĠzhÅįngĠ
nÃłi Ġ
ĠjÃ¬n ĠshÃ¬Ġ
ĠdeĠshÃŃĠ hÃ²uĠ
ĠtÃ¨Ġ biÃ©
tÃ¨Ġ biÃ©Ġ
gÃ© ĠdeĠ
ĠzhÃ¬Ġ jÄ«nĠ
fÄģngĠ ÃłnĠ
sÄ« ĠrÃ©nĠ
huÃłĠ xuÃ©Ġ
Ġ gÃ¨ngĠ
ĠdÃłĠ liÃłngĠ
jÃŃ ĠshÃ¬Ġ
Ġ zhÃ¨ngĠshÃ¬Ġ
Ġ nÃŃĠ
mÇĲn Ġ
kÄĽĠnÃ©ng ĠshÃ¬Ġ
qiÇİn Ġ
ĠniÃ¡nĠ dÃ¹Ġ
jÃ¬n ĠdeĠ
ĠzhÄ«Ġ wÃłiĠ
sÃ¬ ĠshÃŃĠ
cÃ¡o Ġ
xuÇİn ĠwÃ¨iĠ
ĠshÃ¨Ġ shÄ«Ġ
chÃ¹ ĠdeĠ
tÇĶ ĠÄĽr
ĠlÃ¬Ġ sÄ«Ġ
bÃ³Ġ tÃ¨Ġ
ĠzÇĴngĠ miÃłnĠjÄ«Ġ
fÄģĠ dÃ²ngĠ
liÃ¡nĠ jiÄĵĠ
luÃ³Ġ mÇİ
chuÃłng ĠlÃ¬Ġ
ĠdeĠ lÃ¬Ġ
ĠniÃ¡nĠ hÃ²uĠ
ĠdÃ© ĠlÇĲĠ
guÇİngĠ chÇİngĠ
liÃ¡n ĠhÃ©ĠguÃ³Ġ
jÃŃ ĠshÃŃĠ
gÄĵngĠ mÃŃngĠwÃ¨iĠ
zÇİo ĠniÃ¡nĠ
diÄģo Ġ
xiÃło ĠlÃ¬Ġ
qÃ¬ ĠdeĠ
biÇİoĠ yÇİnĠ
yÃŃ ĠshÃ¬Ġ
dÄģ Ġ
ĠjÅ«n ĠzÃłiĠ
rÃ©ng ĠrÃ¡nĠ
fÄģngĠ miÃłn
juÃ©Ġ dÃ¬ng
Ġ zhÄĵnĠ
ĠgÄģiĠ shÄĽngĠ
Ġ xiÄģnĠ
zhÃ¬ ĠshÃ¬Ġ
ĠgÅįngĠ nÃ©ngĠ
Ġ hÃ¡nĠ
zÇĴngĠ tÇĴng
ĠxiÃłĠlÃ¬ng ĠshÃŃĠ
ĠĠĠ bÃ¨iĠ
chÃ¡ĠdeĠ shÃ¹ĠjÃ¹Ġ
ĠjÃ¹Ġ lÃ¨ĠbÃ¹Ġ
ĠINSEE ĠshÃ¬ĠzhÃ¨nĠ
Ġ xiÄģoĠ
biÄģoĠ zhÇĶn
ĠshÃ¨ ĠdeĠ
xuÇİnĠ qÅ«ĠwÃ¨iĠ
Ġ qÄ«ng
ĠzÃłiĠ cÇĲĠ
ĠbÃ¹Ġ guÃ²
pÃ¡i ĠmÃŃngĠ
ĠguÃ³Ġ wÃ¡ngĠ
dÃ²ng ĠlÃ¬Ġ
2023 ĠniÃ¡nĠ
jiÄģ ĠlÃ¬Ġ
cÃ³ng ĠshÃ¬Ġ
ĠÃ©r ĠrÃ©nĠkÇĴuĠmÃ¬Ġ
gÃ©Ġ lÃ¡n
jiÄĽĠ juÃ©Ġ
zÃº ĠdeĠ
Ġ jiÇİngĠ
dÃł ĠbÃ¹ĠfÃ¨n
yÄ«Ġ zhÇĴngĠ
Ġ kÄģiĠshÇĲĠ
lÇĲng ĠyÃ¹Ġ
ĠhuÃ²Ġ jiÃ¹ĠshÃ¬ĠzhÃ¨nĠ
ĠĠĠ lÃ¬Ġ
hÃ© ĠshÃ¬Ġ
fÄĵnĠ lÃ¨iĠ
shÇĲĠyÃ²ng ĠdeĠ
ĠchÅ«Ġ bÇİnĠ
gÅįu Ġ
yÃ¹nĠ yÃŃngĠ
jÄ« ĠjÃŃĠ
ĠdeĠ yÄ«ĠbÃ¹ĠfÃ¨nĠ
shÃŃ ĠshÃ¬Ġ
Ã©rĠ ziĠ
jiÇĶ ĠniÃ¡nĠ
zuÃ²Ġ pÇĲn
xuÇİn ĠrÃ©nĠ
xÄ«ng ĠdeĠ
ĠÄĽr ĠdÃ©Ġ
ĠjÇĲnĠ guÇİnĠ
shÄĽng ĠhÃ©Ġ
jiÄĵĠ shÃ²u
tiÃ¡oĠ yuÄĵĠ
fÃ¨nĠwÃ¨iĠ fÇİĠguÃ³Ġ
ĠchÅ«Ġ bÇİn
ĠzhÄ« ĠxiÃłnĠ
tiÄĽ ĠdÃłoĠ
liÃ¡nĠ bÄģng
ĠdÃ¬Ġ sÄģn
Ġ sÃ²ngĠ
ĠniÃ¡nĠ chÅ«Ġ
ĠjÅ«nĠ duÃ¬Ġ
ĠĠĠ and
guÇİng ĠzhÅįuĠ
ĠbÃ¹Ġ jiÇĶĠ
Ġ duÃ¬
Ãło ĠdÃłĠlÃ¬Ġ
ĠwÃ¨iĠ shÃŃĠ
ĠxÄ«Ġ lÃł
ĠÃ©rĠ qiÄĽĠ
fÃº ĠjiÃłnĠ
ĠhÃ©Ġ bÃ¬ng
zhÃłnĠ zhÄĵng
ĠyÇĴuĠ rÃ©nĠ
pÃ¡iĠ mÃŃng
gÃłiĠ niÃłnĠ
zhÃłn ĠshÃ¬Ġ
zuÃ¬Ġ hÃ²uĠyÄ«Ġ
tÃ¨Ġ biÃ©
qÃºnĠ dÇİoĠ
jÇĲnĠbiÄģoĠ sÃłiĠ
lÃ¡i ĠyuÃ¡nĠ
ĠtÄģĠ bÃ¨iĠ
jÇĲngĠ chÃ¡Ġ
Ġ gÃ¨ng
xÄ«ng ĠjiÃłnĠ
Ġ ruÃ²Ġ
ĠchÅ«Ġ shÄĵngĠyÃºĠ
bÄģ ĠniÃ¡nĠ
shÃ¨ ĠlÃ¬Ġ
Ġ yÃ¬ĠwÃ¨iĠ
rÃ©ng ĠrÃ¡n
dÃ¬Ġ yÄ«Ġ
ĠrÃ¬ ĠdeĠ
bÄĽn ĠdeĠ
wÄĽi ĠhuÃ¬Ġ
ĠyÃ³uĠ xÃ¬
lÃºnĠ dÅ«n
ĠrÃ©nĠ gÅįngĠ
xuÃ©Ġ xiÃło
shÇİn ĠxÄ«Ġ
Ġ s
Ġ shÇĲĠyÃ²ngĠ
ĠzhÃ¬Ġ yÃºĠ
liÃ¨ ĠwÃ¨iĠ
ĠbÃ¹Ġ mÃŃngĠ
Ġ jiÄģoĠ
Ġ fÃłnĠ
mÇĶ ĠsÄ«Ġ
ĠmÃŃngĠ chÃ¡oĠ
tÅįngĠ chÃ¡ng
yÃ¹n ĠxÃŃngĠ
cÃ©ng ĠzÃłiĠ
mÄĽi ĠzhÅįuĠ
cÇİiĠ yÃ²ng
ĠdÃ¬Ġ sÃ¬Ġ
yÃ¡nĠjiÅ« ĠsuÇĴĠ
guÇİngĠ fÃłnĠ
Ãło ĠsÄ«Ġ
ĠxiÃłnĠ lÃ¹Ġ
gÇİnĠ rÇİnĠ
rÃ²u Ġ
mÃ©ngĠ gÇĶĠ
ĠshÃ¬Ġ bÃ¹Ġ
ĠhÃ©Ġ pÃŃngĠ
yÇĲ ĠjÃŃĠ
ĠĠĠ tÄģ
huÃł ĠshÃŃĠ
zhÃłn ĠhÃ²uĠ
jiÄģĠ rÃ¹Ġ
tiÄģnĠ wÃ©nĠ
Ġ fÃ¨iĠ
nÃ¡n ĠjÃŃĠ
shuÅįĠ fÇİĠ
Ġ rÃłng
Ġ cÄģnĠ
xÄ« ĠzÃłiĠ
ĠjÃ¬n ĠdeĠ
ĠrÃ¨nĠ wÃ©i
Ġ dÃŃĠ
ĠjÄ«Ġ bÄĽnĠ
ĠjÃ¹Ġ lÃŃĠ
mÃ³ ĠxÃŃngĠ
Ġ chÃ©n
Ġ dÃ¡Ġ
guÃ²Ġ chÃ©ngĠzhÅįngĠ
ĠdeĠdÃ¬Ġ fÄģngĠ
ĠdeĠ xÄ«nĠ
jÃ¬Ġ shÃ¹Ġ
Ġ shÃ²u
ĠjiÃłn ĠyÃ¬Ġ
ĠtÄģ ĠyÇĶĠ
yÃ¹nĠ shÅ«Ġ
gÃ²uĠ mÇİi
wÃ¡n ĠquÃ¡n
wÇĶ ĠshÃŃĠ
ĠkÃ¨ ĠdeĠ
rÃ¨nĠwÃ©i ĠshÃ¬Ġ
ĠzÃłiĠ yÃ¬Ġ
ĠgÃ¨ ĠdÃ¬Ġ
Ġ 00
duÅį ĠgÃ¨Ġ
bÃłnĠ gÅįngĠshÃ¬Ġ
Ġ hÃ¹Ġ
Ġ 10ĠyuÃ¨Ġ
tÃ³ng ĠyÄ«Ġ
wÃłi ĠguÃ³Ġ
zhÇİo Ġ
ĠzÇĴng ĠrÃ©nĠkÇĴuĠ
xuÃ© ĠshÃ¬Ġ
shÃłng ĠyÇĴuĠ
yuÃ¡n ĠwÃ¨iĠ
Ġ xÄ«ngĠ
Ġ 4
quÄģn Ġ
gÅįngĠ zuÃ²Ġ
ĠzÃ¬Ġ jÇĲĠ
nÃŃ ĠsÄ«Ġ
ĠzÃłiĠ zhÅįngĠguÃ³Ġ
Ġ Äģi
xuÃ©Ġ xÃŃĠ
yÇİngĠ huÃłĠ
fÄĵi ĠxÃŃngĠ
Ġ chÇİngĠ
ĠyÄ«Ġ xiÄĵ
xuÄģnĠ chuÃ¡nĠ
mÃ² ĠxÄ«Ġ
xuÇİnĠ zÃ©
chÄĵng ĠwÃ¨iĠ
xiÄģo ĠxÄ«Ġ
ĠxiÃłn ĠrÃ©nĠ
ĠdeĠ guÄģnĠ
hÇİi ĠjÅ«n
biÄģo ĠzhÃ¬Ġ
ĠbÃ¹Ġ mÃ©nĠ
Ġ huÄģĠ
zhÃ¬ ĠwÃ¨iĠ
Ġ kÄĵ
qÇĲĠ lÃ¡iĠ
yÃ³uĠ xÃ¬
huÃ¡nĠ jÃ¬ng
fÃ¹ĠzÃ©Ġ guÇİnĠxiÃ¡Ġ
ĠwÃ©iĠ zhÇĶĠ
ĠĠĠ yÇĲĠ
jiÃ¨ ĠquÃ¡nĠguÃ³Ġ
Ġ dÇİĠ
Ġ ÃłnĠ
gÃ²u ĠchÃ©ngĠ
shÄ« ĠdeĠ
chÄĵĠ liÃłngĠ
zhÃ© ĠxuÃ©Ġ
kÄĵng Ġ
ĠjÃ¬Ġ huÃł
xÃ¬Ġ bÄģoĠ
mÃ¡ Ġ
Ġ lÃŃn
sÄ« ĠzÃłiĠ
zhÃ¨ng ĠdeĠ
Ġ dÅįuĠ
dÇİng ĠdeĠ
Äģn ĠquÃ¡n
bÇĲ ĠdÃ©Ġ
ĠdÃłoĠ lÃ¹Ġ
chÃ¡oĠ xiÄģnĠ
Ã¡ng Ġ
Ġ jiÃ¨
yÃŃnĠ hÃ¡ng
jiÃłĠ zhÃŃĠ
Ġ Ã¨r
xÄ« ĠdeĠ
ĠshÃ¬Ġ mÄĽiĠguÃ³Ġ
ĠshÃ¬Ġ tÃºĠ
ĠjÃ¬Ġ niÃłnĠ
zhÅįng ĠzÃłiĠ
zhÇĶĠ juÃ©Ġ
Ãłn ĠdeĠ
sÃ¬Ġ chuÄģnĠ
bÃ¹ ĠwÃ¨iĠ
ĠĠĠ hÃ©Ġ
pÃ©ng ĠyÇĴuĠ
1999 ĠniÃ¡nĠ
ĠjÃŃĠ qÃŃĠ
ĠĠĠand ĠĠĠ
Ġ fÇİnĠ
chÃŃĠ xÃ¹
ĠĠĠ yÇĴuĠ
Ãłi ĠÄĽrĠ
ĠgÅįngĠ gÃ²ngĠ
ĠzhÄ«Ġ chÃŃ
ĠÃ©rĠ qiÄĽ
kÃłng ĠyÃ¬Ġ
Ġ tÃ¡iĠwÄģn
yuÄĵ ĠwÃ¨iĠ
tÃłi ĠguÃ³Ġ
jiÄĵ ĠwÃ¨iĠ
xuÇİnĠ qÅ«Ġ
shÃŃ ĠzÃłiĠ
yÃ¬ ĠhÃ©Ġ
huÃ¬ ĠyÇĴuĠ
16 Ġ
shÄĵngĠ wÃ¹Ġ
xiÃłoĠ zhÇİngĠ
wÃ©n ĠjiÃłnĠ
ĠbÃ¨iĠ ÄĽrĠ
ĠjiÃ© ĠzhÃ¬Ġ
shÅįuĠ rÃ¹Ġ
gÄĵĠ qÇĶ
biÄģo ĠwÃ¨iĠ
fÃ³ ĠjiÃłoĠ
rÃ³ng ĠyÃ¬Ġ
ĠĠĠ shÃŃĠ
ÃłoĠ yÃ¹n
ĠĠĠ chÄĵĠzhÃłnĠ
ĠshÄĵngĠ wÃ¹Ġ
yÇİn ĠdeĠ
biÄģn ĠjÃŃĠ
qiÃłn Ġ
ĠzhÃłnĠ zhÄĵng
sÄ« ĠdÃ¬Ġ
yÄĽ ĠyÇĴuĠ
zhÃ¨ngĠ cÃ¨Ġ
qiÃ¡nĠ wÇİng
Ġ ruÃ²
mÇĲ ĠÄĽrĠ
yÇĶĠ yÃ¡nĠ
jÃ¬ ĠzhÅįngĠ
jÅ«n ĠduÃ¬Ġ
Ġ tÃŃĠ
jiÄĽĠfÃłng ĠjÅ«nĠ
ÃłoĠ yÃ¹nĠ
ĠyÃ²uĠ chÄĵngĠ
Ġ yÃ¹
Ġ yÇİnĠ
tiÇİo ĠzhÃłnĠ
ĠyuÃ¡nĠ zhÃ¹Ġ
ĠchÅ«Ġ leĠ
ĠzhÃ¬Ġ dÃ¹Ġ
Ġ tÅįngĠguÃ²Ġ
gÄģo ĠyÃºĠ
ĠshÃ¬Ġ yÃŃĠgÃ¨
wÃº ĠrÃ©nĠ
Ġ quÃ¨
ĠhuÃ² ĠshÃ¬Ġ
gÇİn ĠdÃłoĠ
nÃ¡nĠ xÃ¬ngĠ
ĠyÇĲĠ shÃłngĠ
mÃłnĠ huÃłĠ
gÇİiĠ biÃłnĠ
ĠĠĠ 2021
ĠdÃ¬Ġ xiÃłĠ
Ġ zÃ¬
fÃ³ Ġ
kÅ«n Ġ
zhÄĽn Ġ
mÇİ ĠlÃ¬Ġ
jiÄĵĠrÇİng Ġ
pÃ¨i ĠhÃ©Ġ
Ġ hÃ¡oĠmÇĲĠ
jiÄģ ĠrÃ©nĠ
wÄĽnĠ dÃ¬ngĠ
rÇĶ Ġ
1998 ĠniÃ¡nĠ
zhÇĲĠ huÄ«
ĠzhÅįngĠ yÇĴuĠ
tÃ³uĠ rÃ¹Ġ
ĠzÃłiĠ bÃ¹Ġ
Ġ zhuÄģnĠ
tÃŃ ĠmÃŃngĠ
dÃ¡ ĠchÃ©ngĠ
ĠyÄ«Ġ zhÇĴngĠ
mÃ² ĠsÄ«Ġ
nÃ¨ Ġ
zÃłi ĠshÃ¬Ġ
tÃ³ng ĠdeĠ
jiÇİnĠ jiÃ¨Ġ
zhÄģ Ġ
Ġ hÃ¡iĠyÇĴuĠ
ĠzhÅįngĠguÃ³Ġ rÃ©nĠmÃŃnĠ
Ġ pÃŃng
biÇİo ĠmÃŃngĠ
duÃ³ ĠdeĠ
tÃŃngĠ zhÇĲĠ
shÄĵnĠ fÃ¨n
juÄģn Ġ
xiÇİo ĠdeĠ
zhÃ¨ng ĠshÃŃĠ
cÃ¨ ĠdeĠ
zÃło ĠdeĠ
ĠwÃ¨iĠ fÃº
fÄĵn ĠzhÄ«Ġ
ĠĠĠ 2020
2024 ĠniÃ¡nĠ
Ġ bÅį
Ġ biÄģnĠ
ĠjÄ«Ġ bÃłiĠ
tiÄģnĠ zhÇĶĠjiÃłoĠ
ĠĠĠ yuÃ¡nĠ
bÃłnĠ dÇİoĠ
Ġ pÃŃĠ
guÃ³ ĠzÃłiĠ
wÇĶĠ qÃ¬Ġ
ĠjiÄģĠ nÃ¡ĠdÃłĠ
ĠpÃŃngĠfÄģngĠ mÇĲĠ
zÃ¬ĠzhÃ¬Ġ qÅ«Ġ
Ġ lÃŃĠ
Ġ 8ĠyuÃ¨Ġ
ĠĠĠ zÃ¬Ġ
lÄģ ĠkÃ¨Ġ
lÃ¨i ĠdeĠ
Ġ mÃ©nĠ
hÃ¹n ĠhÃ©Ġ
ĠzÃ¬Ġ yÃ³uĠ
ĠzÃłiĠ mÄĽiĠguÃ³Ġ
ĠshÃŃĠ yÃłn
zuÃ¬Ġ zÇİo
tÄģĠ menĠ
jÇĶ ĠrÃ©nĠ
tuÃ¡n ĠduÃ¬Ġ
dÃ¬ ĠshÃ¬Ġ
kÄĽĠnÃ©ng ĠhuÃ¬Ġ
yÄģ ĠlÃ¬Ġ
zhÃ¨Ġ ge
quÃ¡n ĠbÃ¹Ġ
Ġ sÅ«
jÃ¬ ĠwÃ¨iĠ
ĠÃ©r ĠbÃ¨iĠ
ĠjÃ¬Ġ chÃ©ngĠ
gÃ²ng ĠxiÃłnĠ
xÄ«ĠbÄģnĠ yÃ¡Ġ
jÃ¬Ġ huÃłĠ
Ġ bÃ¨i
ĠshÃŃĠ shÄ«Ġ
jiÃ©Ġ mÃ¹
ĠjiÃ©Ġ guÇĴĠ
Ġ qiÃ¡ngĠ
shÄĵngĠ chÇİn
Ġ hÃ¡i
lÃ¬ ĠbÃ¹Ġ
zhÃ¨Ġ zhÇĴngĠ
chÇİnĠ yÃ¨Ġ
Ġ wÃ¡ng
Ġ chuÃ¡nĠ
xÃŃngĠ dÃ²ngĠ
ĠqÄ«Ġ jiÄģnĠ
fÄģn ĠyÃ¬Ġ
ĠdÃ¬Ġ tiÄĽĠ
ĠchÅ«Ġ rÃ¨nĠ
shÇİoĠ shÃ¹Ġ
cÄģo ĠzuÃ²Ġ
bÃłn ĠshÃ¬Ġ
jiÄģĠ nÃ¡ĠdÃłĠ
yÇĲngĠ piÃłnĠ
jiÇİnĠ chÃ¡Ġ
chÅįngĠ tÅ«Ġ
ĠzÃłiĠ dÃłĠ
ĠtÄģ ĠyÃºĠ
[...]
