#version: 0.2
n g
h Ã
Ã ł
Ä ģ
Ã ¬
Ã ¡
Ä «
Ã ¨
Ç İ
Ġ Ġ
Ã ©
Ã Ń
s hÃ
Ã ¹
Ã¡ n
z h
Ç Ĳ
Å į
j i
d e
Ãł n
Ä ĵ
z hÃ
s h
Ä Ľ
Ã ³
Ç Ķ
x i
Ã ²
Ã º
Äģ n
ĠĠ Ġ
Ãł i
Å «
Åį ng
Ç Ĵ
ã Ģ
shÃ ¬
h u
Ã¨ i
g u
i Ã¡n
hÃ ©
Ãł o
Äģ ng
ÃŃ ng
y u
Çİ n
c h
n iÃ¡n
y Ä«
Çİ ng
Ã© n
ÇĴ u
Ã¬ ng
w Ã¨i
Çİ o
z Ãłi
ãĢ ģ
j Ä«
Äĵ ng
zh Åįng
x Ä«
b Ã¹
j Ã¬
Ãł ng
l i
zhÃ ¨
shÃ Ń
d Ã¬
gu Ã³
y Ãº
r Ã©n
Ã² ng
c hÃ
Äģ o
d u
c hÃ©
y ÇĲ
l Ã¬
Ã¡ ng
y Ã¬
u Ã²
Ã¡ i
zhÃ ¬
chÃ© ng
Ã© i
x u
g Åįng
j ÃŃ
² u
ÄĽ i
i Ãłn
Äĵ n
Ã³ ng
yu Ã¨
y ÇĴu
yu Ã¡n
d Ãł
q i
Åį u
l ÇĲ
2 0
Ã³ u
Äģ i
xi Ãłn
ji Äģ
s Ä«
Å« n
x ÃŃng
y ÇĶ
Ã¨ n
ÇĴ ng
ÃŃ n
t Äģ
r Ã¬
zh Ä«
hÃ ²u
Çİ i
g Ã¨
zhÃ ł
Ã© ng
l e
w Ã©i
hu Ã¬
d Ãło
1 9
b i
shÃ ł
q Ä«
q ÃŃ
shÃ ¨
s u
zhÃ¨ ng
m ÃŃng
ji Ãłn
xu Ã©
ch Å«
y Ã¹
ÄĽ ng
z uÃ²
sh Äĵng
du Ã¬
y Ã³u
q Å«
shÃł ng
ÄĽ n
d Ã©
l Ã¹
b Ã¨i
chÃ ¡
t i
sh ÇĲ
zhÃł n
zh ÇĶ
Äĵ i
q u
j Ã¹
xÄ« n
j Å«n
zh u
ÄĽ r
Ã¡ o
shÃ ¹
u Ã¬
r Ã¨n
f Äģ
w Ã¹
b Ã¬ng
k Ã¨
Ã© r
d Ãłi
y ÃŃ
jÃ¬ n
z Ã¬
yÄ« n
f Ã¹
f Äģng
jÄ« ng
n Ã¡n
hu Ãł
x Ã¬
zh Åįu
p ÃŃng
Ã² u
xi Ãł
l Ã¡i
y Ã²ng
sh u
gu Äģn
t Ã³ng
ãĢ ĭ
ãĢ Ĭ
f Çİ
zhÃ ¹
m ÄĽi
hÃ ¡
Â ·
ji Äģn
j ÇĲ
hu Ã²
d Ã¹
c hu
b ÄĽn
xi Äģng
zhÃ Ń
d Ã²ng
xi Ãłng
m ÃŃn
ji Äģng
f Äĵn
sh ÇĴu
qu Ã¡n
w Ã©n
y Ã¡n
hÃ ł
su ÇĴ
ji Ãło
q iÃ¡n
d iÃłn
t Ã¨
d i
du Åį
Ãº n
z uÃ¬
k Äģi
t u
ji Ã©
l iÃ¡n
zh ÇĲ
k ÄĽ
d Ãłn
m Ã¹
y Ã¨
f Ãº
m Çİ
y ÄĽ
d Åįng
qi Ãº
b ÄĽi
ãĢ Į
ãĢ į
g Äģo
y Ãł
q ÇĲ
ji Äĵ
m iÃłn
h Çİi
zh Çİng
sh Ä«
jÄ« n
c ÇĲ
l u
n Ã¨i
t ÇĲ
s Ãłi
s Äģn
t Ã¡i
g Ã©
x Ã¬ng
gu Ã²
r Ã¹
20 1
d ÄĽng
y Ãło
j u
ch Äĵ
c Ã¬
w ÇĶ
g Äģi
d Ã¬ng
chÃ¡ ng
bi Çİo
l Äģ
g Ã²ng
ji Ã¨
shÃ ²u
d Çİo
sh Äģn
ch Çİng
s Ã¬
b ÇĲ
z Ã©
t ÃŃ
k Äĵ
d Äģng
n Ã©ng
Ã¨ r
w Ãłi
d Äģn
x Ã¹
z i
k ÇĴu
xi Çİo
z ÇĶ
b Äģ
ju Ã©
l ÃŃn
li Ãº
sh ÄĽng
yÄ« ng
k u
l Ã¡n
lu Ã³
t Åįng
20 0
Ä« ng
² ng
m ÇĲ
zhÃ ²ng
e n
zh ÄĽ
sh ÇĶ
ti Äģn
zhÃ¨ n
Ç ļ
q Ã¬
zh ÇĴng
li Ã¨
ch Äĵng
sh Å«
yu Ãłn
b Çİo
t Ãłi
f ÇĶ
f Äĵng
g ÇĶ
qÄ« ng
sh Äĵn
w Ã¡ng
yÃ¹ n
gu Çİn
f Äĵi
ji Ã¹
li Çİng
c Ã©ng
m Ã©i
1 0
f Ã¨n
hÃł o
³ ng
y Çİn
w ÄĽi
z ÇĴng
xu Çİn
xi Ãło
d Ã¡
n Ãł
li Ãłng
b Åį
z Ãº
j Ã¬ng
b Ãło
n ÃŃ
w Ãº
t ÇĴng
hu Ã¡
ji Äģo
yu Äĵ
yÇĲ ng
b iÃłn
xÄ« ng
s Ã¹
shu ÇĲ
y Ã¡ng
hÃ ¹
m en
b Äģo
g Äĵ
b Ã³
c Äģn
c Ã³ng
di Çİn
b Ã¬
r Ãº
b Ãłn
bi Äģn
w Çİng
q ÇĶ
m i
ch Çİn
s Ã¨
z Ä«
chu Ã¡n
0 0
shÃ¨ ng
r Ã¡n
t Ãº
zh Äģng
p ÇĶ
g Çİi
g Çİng
n Çļ
l Ã¬ng
l uÃ²
y Ã²u
t Ã³u
c Ã¨
l Ç
chÃ Ń
1 8
lÇ ľ
qi Äģn
shÃ ©
l ÃŃ
d Åįu
p ÇĲ
1 2
zh Äĵng
n i
k uÃ²
sh Äģ
d Çİng
f Çİn
g Ã²u
l Ã¨i
x ÃŃ
jÇĲ ng
tu Ã¡n
w Äĵi
xi Äĵ
lÇĲ ng
l Ã³ng
gu Ä«
xi Äģn
r Ã³ng
hu Ã¡ng
xi Çİng
b Äģn
ji ÇĶ
y Ã¬ng
m Ã©n
sh Äģng
shÃ© n
20 2
b Çİn
k Çİ
m ÇĶ
jÇĲ n
f Å«
j ÇĶ
m Ã³
gu Çİng
c ÃŃ
shu Åį
q ÃŃng
zh Çİn
hÃ¡ i
zhu Äģng
m Ã²
c Ã¡i
d Ãº
1 1
pÇĲ n
t ÃŃng
chÃ¡ o
y ÃŃng
ti Ã¡o
ji Çİn
t Ã¡ng
hu ÃŃ
du Ãłn
chÃ© n
g Äĵn
m Ã¬
w Ãłn
p Ã¡i
w Äģn
z Ãło
hÃ¡ ng
w Ã¡n
bi Äģo
g Ã¹
l Ãºn
19 9
xi Ã©
ji Çİng
hÃł n
j Ãº
f Ãłn
f Ã¡ng
hu Ã³
hÃ¡ n
p i
k Åįng
o r
ti ÄĽ
m Ã©ng
bi Ã©
w Å«
ji ÄĽ
zhu Äģn
yÇĲ n
x Å«
zh Äĵn
d ÇĲ
e r
chÃ º
hÃ º
ji Ãł
b Ä«ng
m Ã¬ng
l ÃŃng
hÃ ³ng
qÄ« n
z ÇĲ
lÃ¹ n
xÃ¬ n
chÃ ¹
ch ÇĶ
s Å«
a n
xi Å«
z Åįng
1 5
qu Ã¨
xi Äģo
zhÃł o
qi Ã¡ng
q Ã¹
c Å«n
chÃ ³ng
p iÃłn
ji Å«
f Ãłng
su ÃŃ
sh Åįu
gÃ¨ ng
â Ģ
gu Äģng
Ã¨ ng
j Å«
o n
ji Çİ
chu Ãłng
d ÃŃ
1 6
zhu Çİn
gu ÇĴ
xÃ¹ n
m Ãłn
p Ãłi
f Ã¨i
p Ã¨i
19 8
d Çİ
tu Åį
l a
xu Äģn
b Ã¡i
zh Å«
d Å«
t ÇĶ
di Ãło
xi Ã¡
li Ã¹
1 7
su Ã¬
hu Ä«
t Ä«ng
qi ÄĽ
t Çİ
qi Ã¡o
h Äģ
g Çİn
z Äĵng
xi Çİn
m Ãłi
hu Ã¡n
x ÇĶ
w Çİ
tu Ä«
w Ã¨n
ch Äģo
t iÃ¡n
b Çİi
c Çİi
li Ã¡ng
y Ã¡
s Ãł
a r
b Ãłi
c Ãºn
ji Çİo
sh Çİo
y Ãłn
zhu Ãłng
hu ÇĴ
l Ã©i
1 4
z u
ji Ãłng
chu Äģn
yÃ¬ n
z Çİo
chÃ ł
y ÇĴng
s ÇĲ
d Äĵng
3 0
zhÇĶ n
l Ã¨
x Ãºn
n uÃ²
k Ã¹
hu Ãłn
s Ã²ng
g Ãło
l ÇĶ
1 3
19 4
b Äģng
l Çļ
p Ä«
y Ãłng
h ÄĽn
q Ãºn
zh ÄĽng
gu Ãłn
p Ã²
g Äģng
w ÇĴ
19 7
hu Äģ
l Äĵi
h Çİo
t Ã¡o
ku Ãłng
hÃ ¨
i n
dÃ¹ n
n Ã³ng
g ÄĽi
s Äģi
shu Äģng
li Ãłn
ku Ãłi
d Ä«
b Ä«
p Ãłn
xi ÄĽ
19 5
k Çİo
g Ãłi
h Äĵi
w Ãłng
li Ãło
r Ã¨
g e
zu ÇĴ
k Ã²ng
19 6
y Äģng
chÃł ng
y ÃŃn
³ u
r Ã©ng
s Äĵn
b Äĵi
l Ãº
pi Ãło
y Äģ
2 5
bÄ« n
âĢ Ķ
r Ãłng
ch Åįng
l Ã³u
b ÇĶ
l Çİo
zhÃ º
jÃ¹ n
y Çİng
r uÃ¬
y Äģo
xi Ã¡n
xi Ã¨
n iÃłn
f or
y Åįu
t Ã¡n
k Äģng
p ÃŃ
hÃ© ng
yÃº n
x ÇĲ
k Ãłn
n ÃŃng
li Ã¡o
shÃł o
b Ãº
2 4
qÇĲ ng
ch ÇĲ
m u
d Ã²u
mi Çİn
y Åįng
t Çİn
w Çİn
h Å«
f Äģn
a l
t Å«
g Äģn
su Ãłn
d Ä«ng
yu Çİn
w Äĵn
t uÃ¬
zh e
2 1
s t
xi Ã¹
b Çİ
m Çİn
19 3
2 3
mu la
k Ãłng
for mula
2 8
t h
m Ã¡o
r uÃ²
pi Äģn
chÃ ¨
m Ãło
l Çİng
q ÃŃn
b Ã¡
n Ã¡
z Ãłn
gu ÇĲ
gu Ã¬
o u
p ÃŃn
w Ã²
xi Ã³ng
shÃł n
r e
2 2
xi Åįng
m e
su Ä«
Ã ¼
2 6
sh ÄĽn
q Ã¬ng
mi Ã¡o
f Çİng
5 0
20 20
2 7
l Ã¡ng
r u
qi Å«
s Åįng
Ã¼ Ã¨
d Ãłng
g Äĵng
qi Äģng
r i
f Ã¡
z Äģo
f Ã¨ng
zhÃł ng
ï ¼
hÃ¡ o
d Å«n
z ÇĴu
hÃł i
qi Ã¨
2 9
t Ãłn
p Ãło
p Ãł
shÃ¹ n
p Ã©ng
xu Ã¡n
201 0
n ÇĲ
00 0
dÇĲ ng
ni ÇĶ
z Çİi
zh Äģo
zhu Ä«
l Ã¼Ã¨
ch Å«n
20 19
h Å«n
k ÇĴng
du Äģn
shÃ¨ n
xi Ã¡ng
du Çİn
g Ãłn
t e
r o
k Äģn
l Ã¡o
c Çİo
201 6
s i
g Å«
p Ã©i
201 8
ku Çİn
z Ã¡
s Å«n
y Ã©
y Çİ
p Åį
202 1
r a
chÃ ¬
du Ã³
201 4
f Ã¡n
201 1
201 5
c uÃ²
201 7
zhÃ ©
y Ã¡o
p Äģi
t Ã²u
c Ã¡ng
201 2
4 0
k Çİi
201 3
202 2
m ÃŃ
ru Çİn
su Äģn
ch Äģ
z Ãłng
mi Ãło
l t
200 9
zh Çİo
200 8
hu Ã¡i
ã ĥ
c e
6 0
a m
c u
xu Ã¨
chÃ ³u
s e
b Çİng
m Ã¨ng
10 0
t Ã¬
p Ãº
n Çİo
202 3
zhu Ãłn
g t
l ÄĽi
19 0
3 1
c Ãłi
c Ã¹
s Ãłn
m Ã³u
ti on
t a
hÃ¹ n
ÇĶ n
ku Äģn
200 7
ni Ãº
m ÇĴu
t Çİo
di Ã©
200 1
o l
t Ã©ng
s Åįu
k ÄĽn
qi Çİn
ch Äģng
r Çİn
qu Äĵ
f ÇĴu
s ÇĶn
e l
b Ãł
200 0
8 0
k Ãło
su Åį
200 6
ni Çİo
chÃº n
m a
202 4
l Çİn
ã ģ
z Äģi
zhÃ ¡
xu ÄĽ
hu ÇĲ
lu Ãłn
tÇĲ ng
200 5
z Å«n
b Ãłng
l Ãł
hu Äģn
r Çİng
sh uÃ¬
mÇĲ n
3 5
l Ãłi
c Äģng
7 0
f Ã³
p Ã¡n
o f
n Ãłi
w ÄĽn
e t
c Äģo
s Äģng
p Ã¡ng
9 0
bÇĲ ng
ï¼ į
zh Äģ
ã Ĥ
shu Ãłi
ni Ã¨
e s
hÃ ³u
m Ã¨i
sh Äģo
n ÇĶ
d ÇĴng
i l
a t
o w
f Ã©ng
mi Ã¨
yÇĶ n
z Ã²u
m Çİi
hu Ãłi
200 4
4 5
y Äģn
c o
4 8
th e
zhu Ã³
an d
t er
h e
t Ãło
n Çİi
k Å«n
202 5
zh ÄĽn
c k
r ÇĶ
ku Ãł
ku ÃŃ
ãĢ ī
ãĢ Ī
g Åįu
3 6
cu Ä«
3 8
sh Çİn
r Ã²u
di Äģo
200 3
h ÇĶ
gu Åį
3 7
c uÃ¬
n e
x Ãº
m Ã¡ng
ju Çİn
c Ã¡n
di Äģn
zh Äģn
c Ã¡o
18 9
I N
200 2
i s
b o
k Äĵng
T C
v e
3 4
m Ã¡
l ÄĽng
a s
z Å«
7 5
âĢ ĵ
s Ãº
qu Äģn
d Äģ
t o
ch Äģi
n u
l Ãłng
kÃ¹ n
4 6
t Ãºn
f ÄĽn
199 0
âĢ ¦
zhÃ ²u
sh Çİng
r Ãło
h Äĵng
t Ä«
x Å«n
3 9
n Ã¨
. .
p Ã¬
n Ãłn
p Äģn
6 5
h Åįng
shÃ º
t Äģn
C h
t Äģng
k Çİn
M a
n Ã¬
3 2
I n
S T
4 7
h Çİn
i t
U TC
q iÃłn
199 9
199 8
198 0
18 8
5 00
3 3
6 4
qi Çİng
sh uÃ²
p Çİo
l o
b e
k Äģ
zhÃ¡ i
S E
5 5
qu Ãłn
n Ä«
d Ã¨ng
199 7
T he
m iÃ¡n
4 9
g Çİo
I I
6 8
C o
v i
sh ÄĽ
z Ã¨ng
R e
h an
zhÃ ³u
zhÃł i
4 4
199 6
n a
ti Äĵ
d Äģo
a d
b r
199 4
v er
f Ã©i
z Ã²ng
qi Ã³ng
c i
ti Ãło
chu Ã¡ng
199 2
b a
chu ÃŃ
ju Äģn
chÃ¡ i
mi Çİo
gu Äģ
xu Äĵ
t Ã²ng
199 5
f ÄĽi
ch Ä«
o o
m ÄĽng
w Åį
6 7
i r
shu Äģi
tu Ã³
chu Äģng
hu Çİn
199 1
197 0
5 8
a y
195 0
c a
n d
gu Ãł
chÃ¡ n
3 00
w Äģ
199 3
18 7
194 9
p e
s Äģ
ti Çİo
A T
196 0
bi Çİn
4 2
194 5
i ng
gu Ãłi
a u
k ÇĶ
n Ãº
198 8
d ÇĶ
198 9
i g
p Ã¹
6 9
li ÇĶ
g ÇĴng
SE E
t uÃ²
am p
c t
li Çİo
IN SEE
5 9
t Äģi
4 3
6 6
chu Ãłn
o p
chÃ¨ n
o s
5 7
198 5
hu Äģng
9 9
S A
ãĢ İ
cÃ¹ n
ãĢ ı
198 4
hÃº n
4 1
p Å«
l y
u s
k Ã²u
f Ã©n
8 8
198 6
r Çİo
m p
S t
i d
rÃ¹ n
T V
15 0
zhu Åį
in d
4 00
s Çİn
198 7
7 8
u n
e d
h a
198 2
5 6
L i
u r
ar d
nu Ã³
198 3
N A
gÇĶ n
R o
D e
s s
m Äģ
t ou
pÃ¬ n
C D
ch Åįu
b er
g ÇĴu
qu Çİn
M i
7 7
zh Äģi
M e
qi Ãł
m Äģo
qi Çİo
M ar
t w
k Å«
ku Ã¡ng
r Ã³u
de r
7 9
l Ã²u
O S
Â °
k uÃ¬
s Ãłng
ï ½
A l
18 0
t y
B C
5 4
197 9
6 1
19 20
a ng
p Äĵn
9 8
s Äĵng
5 2
Y ou
a p
197 8
n Ã¹
w Äĵng
6 2
y Äĵ
du ÇĴ
L e
5 3
xÇĲ ng
ju Ãłn
ï½ ŀ
B A
k e
194 6
t s
C O
m o
c tion
5 1
195 8
198 1
V i
197 2
194 8
zhu Ã¬
c Åįng
t Åįu
A M
h i
6 3
m an
ow s
A R
r y
194 1
W ind
B S
w Ã¡
li Çİn
19 30
M o
P ro
lu Çİn
ku Äģng
q Ãº
tu ÇĴ
k Ã©
7 6
han s
v a
194 0
193 7
c on
197 6
zu ÇĲ
194 4
J o
8 9
197 5
u m
ï¼ ı
T e
196 8
ni Ã¡ng
p Ã³
shu Äģ
h k
yu Äģn
t Äģo
p er
w Äģng
g a
10 00
r an
Wind ows
9 5
N e
b ÃŃ
s Çİo
d a
8 7
196 6
8 5
f Ãł
p Äĵng
6 00
l Ãłn
S e
S ta
s p
1 20
194 7
G a
A r
o t
g Äģ
195 6
A C
196 4
d Çİn
c Å«
194 2
195 5
ch ÇĴu
la y
195 2
193 9
I S
193 8
7 2
7 4
h t
r ÄĽn
197 3
a ce
f i
197 4
195 4
qi Äĵ
E D
19 00
- -
B e
A P
or e
194 3
197 7
D a
197 1
pÄ« n
p ÇĴ
m Ã¡n
196 7
shÃ© ng
men t
I C
8 00
E R
L a
8 6
195 9
b Äĵng
s on
196 5
J R
196 9
R a
du Ä«
D i
o k
p Ã©n
ãĥ »
Ã Ĺ
qi Ãło
chu Ä«
I D
qi Äģo
S u
in e
193 6
16 0
9 7
b Äĵn
zhu Äģ
en t
195 3
S a
196 2
M A
T u
ti c
196 1
l ÇĴng
a tion
â Ķ
193 5
t Ãł
m Ã¡i
S h
9 6
O N
a k
ï¼ ħ
195 1
195 7
196 3
L o
âĶ Ģ
on e
r ou
8 4
J a
202 6
d o
c Çİn
8 2
g i
b u
m er
7 3
p o
9 4
t Å«n
9 2
S o
A N
I P
A n
h o
a li
193 3
M u
193 1
n Ã¡ng
ni Ãło
le s
7 1
b Ã¡o
nu Çİn
l Ã©ng
p Ã¡
8 3
9 3
a i
W e
8 1
d ÇĴu
19 18
st a
H D
B o
s Äģo
U ni
19 28
lu Ã¡n
k i
193 2
w i
n Ã¨n
c ol
in t
M V
S S
ou r
1 10
t Ã¹
I T
19 12
al l
19 29
tu ÇĲ
du Ã²
19 27
c n
193 4
ar e
P a
7 00
g Ã¡
ch e
b y
te d
st er
hu Çİng
S i
25 0
f f
9 1
m m
P ar
z Ã©i
R i
19 24
p p
p h
.. .
19 19
ku Ä«
H e
s o
xu Ãłn
1 30
pi Äģo
n o
19 25
P S
P lay
p Äģo
14 0
xi Äģ
B u
C a
S M
C on
S p
P C
19 14
b le
st e
zh Çİi
k m
D V
zh Äĵ
E n
me s
You Tu
co m
B a
h Äĵ
F i
T i
di Äĵ
el l
g ra
l Çİ
A S
i a
19 11
W i
sh i
en d
il l
n Ã¼Ã¨
an a
ar a
G e
19 26
de n
19 22
N a
n Çİ
si on
hÃ¨ n
19 17
E T
N BA
I V
shu ÃŃ
c Äģi
r Ã¡o
E N
19 23
ar t
19 21
f e
p Ã¨ng
s a
k a
ku Äģ
G oo
th er
ch ÇĴng
T o
17 0
à ¸
E C
l d
m Çİo
n Ã²ng
A L
H a
M S
se ction
N i
YouTu be
E P
h n
B L
19 13
ti Äģo
J u
H K
le r
â Ĩ
han t
gÃ¹ n
190 9
g in
In ter
c ro
S te
M P
A I
H o
g ÄĽng
W or
n Ãło
P o
f ÄĽng
D o
lu ÇĴ
U S
an t
g o
y a
DV D
or t
z Åįu
ri s
3 000
P i
c Äģ
C ar
19 10
R O
D S
T h
1 12
A K
M y
p en
R E
p ro
v en
19 16
Sta tion
ãĥ ¼
c huÃ²
N et
Î ±
K i
S ch
ol o
N o
ar i
tu re
g n
L in
C P
U N
g le
â Ī
er s
hÃ© n
19 15
ou n
ni Ãłng
190 5
F C
m y
L u
l l
W il
C N
â Ħ
âĨ Ĵ
190 1
F a
A u
ti ng
Ne w
D NA
E x
âĢ §
ar y
9 00
P h
si c
H R
di ce
si s
. &
C H
z ÄĽn
T A
di a
Q u
T O
190 6
le n
190 4
chu Çİng
A V
F or
g ÄĽn
Jo hn
w e
er e
A nd
M O
di ng
co dice
ch Çİo
ji ÇĴng
âĦ ĥ
T a
p a
p s
Play Station
f u
k o
w Ãł
b Ã¨ng
0 5
C C
t on
v o
er i
di Å«
190 7
190 8
Goo gle
A G
E ST
M I
zu Ãłn
S O
or y
te s
L E
G u
ji Ã¡
zu Çİn
c y
l Ä«
ch i
le y
B O
en ter
B BC
A D
I G
c al
II I
C u
c ri
of t
15 00
R u
li n
5 000
or i
zu Äģn
p u
G o
I ST
sh Äĵ
lÇ ĺ
F e
C ol
w or
S y
K a
M E
ti ve
C R
g en
3 D
w it
rou nd
I A
gu Çİ
10 5
j e
r on
m Ãł
Ð °
10 1
190 3
G B
p Ä«ng
ch a
shÃ ¡
l an
0 9
T E
re e
A d
H u
c Ãłn
c Ã©n
190 2
B D
N C
l and
c an
z e
ow n
es s
p Äģng
x t
3 50
w a
in a
SA O
shÃ¡ o
D C
n et
sp an
de s
Î ²
g ht
lÃ¬ n
en ce
B 1900
in c
bo ok
de l
E S
B M
ï¼ İ
d y
ãĥ ³
H i
189 8
0 6
1 18
P e
m s
ãģ ®
l Ã¡
p t
qÇĲ n
te l
3 60
D R
m on
0 1
D A
g h
O pen
189 5
l Ãło
y le
12 5
m Ãº
la r
b Ã¨n
H O
K o
M C
an ce
AT P
Mi cro
Ð ¾
10 8
g y
N G
p Åįu
ig h
s y
c or
t t
di o
K e
qi Ã©
z a
A pp
P u
ni ng
gra m
I F
F ran
f t
re s
Co m
ti n
âĪ Ĵ
0 7
0 8
2 30
F ace
10 4
D u
re f
O ne
Wor ld
ol d
S er
s oft
ED T
IST AT
M on
S tu
sh Äģi
s ÇĴng
à ¤
N O
n er
189 6
C or
L L
B i
g er
lu s
10 9
D P
y Å«
la s
A A
f li
Co mp
re a
g ÄĽ
R I
v el
r en
li ne
R T
su ÇĲ
S P
xi Ã¡o
qi Çİ
E X
r ÄĽ
B ar
B ri
li ng
ber t
B 48
10 6
18 90
ct or
C ST
S an
M L
CD T
Lo ve
it y
m ar
z Äģng
ro w
D O
wi th
H E
f a
P er
p Äĵi
w ard
H ar
M an
d s
tion al
ta in
j a
0 4
4 000
11 5
cu Ãłn
1 200
k y
u x
ou nd
ig ht
M 1
0 3
G P
p Ã¡o
C E
ba ck
188 9
be gin
J e
189 9
o ol
col span
187 1
ri ng
E d
R S
ow er
mi c
Face book
lu de
Wil li
Micro soft
âĢ ĭ
24 0
tu r
Ma c
16 00
L O
Li ve
B E
ck et
10 2
c c
k er
bo x
T T
189 7
G i
N H
E E
chÃ ²u
P re
T ri
11 7
O n
P P
qÃ¬ n
k s
I s
S C
0 2
v an
c m
shu Çİng
st yle
m b
10 3
AK B48
M D
y Çİo
10 7
G ra
b li
Mu sic
G re
oo d
c Ã²u
Lin ux
inc lude
D is
O r
T ra
P ri
t Çİng
w w
N or
p ha
mi n
O ri
y e
on ly
4 50
V ID
tu s
12 7
ma s
t ra
Da vi
qu e
an e
12 8
ali gn
l Äģo
li s
ou s
Ga me
fli x
C L
or a
Net flix
E l
189 4
2 20
r in
B er
Ð ½
s er
Willi am
I L
V o
S H
s ti
ro m
T wit
18 80
Re d
y i
R NA
z Ã¡o
13 6
P G
F u
Ð ¸
er o
ãģ Ħ
T R
st ra
Te am
18 00
W a
ãĤ ¹
Uni ver
g round
t or
188 5
ng e
li Çİ
11 4
an o
ãĤ ĵ
p iÃ¡n
ru s
H z
T y
Ch ar
col or
11 6
28 0
na me
St ar
E u
G en
U R
h y
Ð µ
11 3
er a
l la
188 6
si ng
ãĤ ¤
T S
t en
Sch ool
P O
m Çİng
la ss
189 3
ir l
B la
M c
e x
ni c
ou t
11 1
Mar k
S L
ir st
ã Ħ
ci al
Su per
D on
a c
W al
je ct
le x
m ÇĴ
an s
âĢ »
t ri
li a
i e
m Åį
13 5
Davi d
26 0
18 60
na tional
Ge or
M or
y s
n ÃŃn
gu e
t le
an y
P et
W TA
w ay
rou p
H C
M at
ni s
ce s
U A
U n
w as
ou se
h am
188 8
A c
te xt
S D
- .
ca tion
B ra
on y
ro id
back ground
y Å«n
d Çİi
re am
Sh ow
12 9
G O
o m
ch Äĵn
18 70
st ri
G N
ï ¹
C he
ni a
188 7
b ur
d on
p ri
shu Äģn
18 68
6 000
c le
Ã ¶
Ñ Ģ
188 3
C y
N F
V A
lu b
mer i
K u
an k
Me ta
3 20
A b
X box
C S
N HK
A F
D D
Twit ter
K P
n y
only include
T ho
en s
pi Ã¡o
+ +
bi t
t Ãłng
18 64
âĢ ¢
I ON
188 4
1 19
R C
U E
ti s
12 2
C l
25 00
189 2
2 10
A 1
o ng
in s
W h
c enter
le t
mi Ã¹
15 5
S ou
IS O
â ħ
14 5
189 1
6 50
p re
And roid
G irl
se l
N S
c ar
v il
ãĢ ķ
si l
O R
y o
A s
ãĢ Ķ
18 50
on a
cu Åį
ht t
re d
l ow
x y
en sis
Inter national
D ay
c er
m Ä«
18 67
ste m
I M
p Ãłng
ãĥ Ī
Al l
N ation
se d
187 9
m ber
Ja mes
En ter
W ar
f fi
3 80
A B
U P
di s
187 6
C oun
V er
Univer si
i m
v in
Geor ge
H er
18 75
18 61
27 0
D ra
t d
li e
si a
el d
A ir
G roup
I R
ch o
ti me
12 6
am a
N T
P au
l or
in ter
A ni
S pe
Ga mes
NG C
H y
st ru
ãĥ «
187 3
H ol
M G
12 3
ãĥ ©
E ng
P V
B en
H T
v al
Col le
d ay
M B
16 8
CO VID
cri tic
C lub
F M
H en
lu e
18 65
il d
A O
P L
th at
as s
A meri
D E
12 1
C enter
u t
cu s
B lo
17 5
ãģ Ĩ
We b
H 2
Y P
f rom
Ã ¤
14 00
A li
o d
MA X
wor k
p ar
13 8
2 28
T P
f er
18 48
chÃł n
a st
al d
ne y
li Å«
18 62
3 30
d ge
p ÄĽng
12 4
ãĤ ¢
188 1
188 2
7 37
a ge
C an
187 8
5 50
S ha
gu Çİi
ru ÇĲ
187 2
E le
L C
bÃ¬ n
IN K
Meta critic
Ori con
b or
n Ã¡o
15 6
M TV
U C
b ri
16 5
co mp
B oo
L ED
f o
18 40
ni Çİn
IV E
H igh
S pi
c ore
d Äģi
w an
7 50
I t
n s
t ro
shÃł i
ãĥ ĥ
olo gy
mi ng
13 00
ãģ Ĺ
13 7
sta gram
7 000
B ro
D OS
S Q
U B
22 9
I U
c re
z o
C hu
G DP
K ing
O K
Ñ ģ
en a
Le a
S he
r and
15 2
al s
St re
TV B
Mi cha
V a
li p
15 9
187 7
Ro bert
ty pe
S ur
â Ĺ
ku ÇĲ
18 66
ri st
Ch i
Ch ris
P at
i OS
Ð »
ol y
Pro du
S K
18 69
âĢ ²
sil ver
T HE
U p
C e
D M
g ar
h er
s en
xi ÇĶ
F ri
N ET
P la
Ð º
sh e
13 9
In stagram
Ph one
B I
st ar
BL AC
Ty pe
B ig
p or
Ð ²
D J
r Äĵng
is s
App le
C G
H el
W E
e w
ra y
ãĤ ¯
co de
Micha el
A t
D F
ï ¸
ar k
al k
1 100
15 8
on s
at or
Te ch
Pau l
2 25
30 5
13 3
IN E
ci a
R A
s Çİ
ãĥ ª
A ward
H I
Y O
13 2
Ste am
20 5
18 63
Par k
Nation al
B ill
Y e
tain ment
2 15
C i
b ra
st o
ne w
Universi ty
F O
r al
Me dia
C A
F 1
K BS
V al
14 8
13 1
L ou
S mi
16 6
ar ch
187 4
ss o
E F
M er
X X
b al
k g
n ow
18 58
F in
K ar
T ran
g on
v es
14 7
sp ace
Bla ck
T er
a ch
g an
Pet er
G ar
de o
25 6
ãģ ĭ
G A
I E
M 2
k ÇĶn
18 30
Ri ch
C BS
U T
18 51
Le e
B N
U I
19 2
z er
Î ¼
ad a
8 000
ch ÄĽ
Ja ck
Enter tainment
3 10
J ap
W in
lÇĲ n
bi n
mi ni
14 3
se t
C ity
M k
g Ãłng
18 55
ri e
at er
In tel
P ower
E M
I X
S am
h Çİ
Sp ace
R AM
ð «
18 5
18 59
zu Ã³
ST AR
shi p
Char les
b el
p y
13 4
Di re
A ng
A BC
F la
en e
18 54
14 6
30 1
en ti
17 00
Vi u
Ja va
3 70
i f
18 57
F ree
G M
P y
T ai
w hi
st ro
v s
Ø §
an n
29 0
ãģ ª
Li fe
ï¸ °
E r
P an
V e
Î ³
2 14
4 20
D ream
Y a
Ñ Ĥ
Re cor
Al pha
Comp any
sti tu
e k
f ang
f ace
Î ¿
ãĢ ľ
mi s
18 56
18 53
Pro ject
A m
H ouse
P op
f irst
di um
ãģ Ł
et y
Ti me
Tho mas
C al
M in
a e
o x
v on
v is
14 4
Sa int
F A
K en
O VA
C ent
T ru
V O
b Ã²
A 2
I O
16 7
Stre et
3 A
H S
S BS
sh Çİ
bi li
ku Çİ
18 41
ver y
A lex
B at
L P
L au
T or
di n
ri c
3 40
P M
P or
S hi
chu Çİn
ma t
ma tion
BLAC KP
M et
p le
z Äģ
20 8
18 15
17 8
CP U
BLACKP INK
2 23
B ur
c is
m Ã¨n
So ci
Stu dio
Eu ro
8 50
L GB
S ing
p la
ch er
zu Åį
se s
Ro ck
ww w
I BM
s pe
S F
20 7
di e
p lay
s g
ni e
17 1
23 5
ta tion
ãģ ¨
ãģ ¾
D ig
F er
L IVE
M r
P E
S U
V E
Y u
n Ã¬ng
20 3
B 2
W hi
n ot
Ar t
SQ L
P ad
18 46
16 4
for d
oo t
Colle ge
b re
c ra
15 7
vi ce
ber g
pu bli
B R
L T
N E
li t
14 1
IC E
B 1
C ro
C ap
S un
on d
17 6
th y
IN G
bo ard
In c
Te le
Ameri can
A sso
L S
h Äģn
y ou
Â ²
18 12
18 45
18 44
si gn
Ro ad
Girl s
sel f
Z e
s ch
mi t
23 1
O ffi
c ture
c lass
H F
L td
M 3
M il
R os
ãĤ Ĭ
wit ch
LGB T
A g
b all
20 9
ce ss
ãģ į
of f
NA SA
GN U
L A
w Äģi
de d
Jo se
Smi th
C la
G er
P A
P ra
am pi
IU CN
2 16
P N
Î º
18 49
15 3
te mp
ve d
Goo d
C T
F il
N BC
T our
w h
zh ÇĴu
sh a
20 4
23 8
au rus
Produ ction
B B
C ra
G al
H all
S ci
n al
o i
y n
vi sion
Vi deo
Ga la
G T
O 2
l Äĵ
p m
u e
Ï ĥ
mi ted
or ts
in o
tion s
E li
P R
S ky
t al
20 6
le a
qu i
ma c
4 60
a b
m al
w in
18 14
or g
2 18
a ni
f ra
eri es
Rich ard
S I
l ti
w ar
chÇĶ n
ri ch
ang e
IG N
A ct
L D
â ĸ
pi c
Bo y
F ar
T ur
W S
Ï Ģ
de f
18 47
15 4
tur n
5 80
A ma
F F
b un
e p
f ri
le d
18 43
man n
Be st
ph y
Sy stem
pt r
4 30
M as
M BC
P lan
z z
17 7
40 1
che m
4 10
B el
S al
ãĤ ·
NF L
Viu TV
S witch
W o
k ing
16 3
AM D
AP I
We st
Jap an
I CO
b ar
b us
u p
men ts
18 52
16 2
th on
es ti
Ch rist
cri pt
V II
18 20
or n
ge t
th is
ãģ ı
Ma x
F re
P rin
c il
14 2
23 4
ri a
Ro y
V R
17 2
ãģ Ĭ
ãģ ķ
Recor ds
6 40
D an
S qu
V ir
w ood
16 9
35 00
Li mited
C ore
K C
T 1
g s
p hi
Â ±
18 39
ar s
23 2
da ta
4 80
C M
c Ä«
17 9
th i
de Ġ
Ġ deĠ
shÃ¬ Ġ
Ġ shÃ¬Ġ
Ġ niÃ¡n
ĠniÃ¡n Ġ
wÃ¨i Ġ
zÃłi Ġ
Ġ wÃ¨iĠ
Ġ zÃłiĠ
hÃ© Ġ
Ġ hÃ©Ġ
zhÅįng Ġ
bÃ¹ Ġ
dÃ¬ Ġ
shÃŃ Ġ
guÃ³ Ġ
yÃº Ġ
rÃ©n Ġ
Ġ bÃ¹Ġ
yÄ« Ġ
Ġ zhÅįngĠ
lÃ¬ Ġ
zhÃ¬ Ġ
gÅįng Ġ
Ġ shÃŃĠ
yuÃ¨ Ġ
jÃŃ Ġ
chÃ©ng Ġ
yÃ¬ Ġ
yÇĴu Ġ
Ġ dÃ¬Ġ
Ġ yuÃ¨Ġ
Ġ yÃºĠ
Ġ rÃ©nĠ
Ġ zhÃ¬Ġ
dÃł Ġ
Ġ jÃŃĠ
yuÃ¡n Ġ
Ġ yÇĴuĠ
jÃ¬ Ġ
Ġ guÃ³Ġ
Ġ lÃ¬Ġ
Ġ gÅįngĠ
Ġ yÃ¬Ġ
Ġ yÇĲ
Ġ chÃ©ngĠ
jiÄģ Ġ
sÄ« Ġ
yÇĶ Ġ
Ġ xiÃłn
Ġ rÃ¬
Ġ yÄ«Ġ
Ġ xÃŃng
Ġ tÄģ
lÇĲ Ġ
jÄ« Ġ
Ġ dÃło
hÃ²u Ġ
wÃ©i Ġ
Ġ zhÄ«
Ġ dÃłĠ
Ġ yuÃ¡nĠ
xÄ« Ġ
ĠrÃ¬ Ġ
Ġ gÃ¨
ĠyÇĲ Ġ
xuÃ© Ġ
huÃ¬ Ġ
le Ġ
zuÃ² Ġ
Ġ yÇĶĠ
ĠdÃło Ġ
mÃŃng Ġ
Ġ jÃ¬Ġ
bÃ¨i Ġ
ĠxÃŃng Ġ
shÄĵng Ġ
Ġ jiÃłn
Ġ chÅ«
Ġ qÃŃ
Ġ sÄ«Ġ
Ġ dÃ©
zhÃ¨ng Ġ
ĠxiÃłn Ġ
Ġ hÃ²uĠ
Ġ jÄ«Ġ
duÃ¬ Ġ
shÃłng Ġ
qÅ« Ġ
shÇĲ Ġ
Ġ ÄĽr
Ġ jiÄģĠ
yÃ³u Ġ
ĠtÄģ Ġ
Ġ xÄ«Ġ
Ġ lÇĲĠ
Ġ Ã©r
zhÃłn Ġ
Ġ jÅ«n
Ġ bÃ¬ng
ĠzhÄ« Ġ
ĠgÃ¨ Ġ
zhÇĶ Ġ
rÃ¨n Ġ
fÃ¹ Ġ
zÃ¬ Ġ
wÃ¹ Ġ
xÄ«n Ġ
dÃłi Ġ
jÃ¹ Ġ
pÃŃng Ġ
ĠchÅ« Ġ
Ġ kÃ¨
Ġ zhÅįu
xiÄģng Ġ
Ġ huÃ¬Ġ
shÃ¹ Ġ
nÃ¡n Ġ
Ġ shÃ¨
Ġ bÃ¨iĠ
Ġ mÃŃngĠ
xiÃł Ġ
guÄģn Ġ
ĠÄĽr Ġ
ĠdÃ© Ġ
lÃ¹ Ġ
yÃ¹ Ġ
huÃł Ġ
ĠjiÃłn Ġ
jÄ«ng Ġ
yÃ¡n Ġ
fÄģng Ġ
Ġ yÄ«n
kÄģi Ġ
jiÄģn Ġ
jiÃło Ġ
fÄģ Ġ
yÃ²ng Ġ
Ġ dÃłn
ĠÃ©r Ġ
zhÃ¹ Ġ
lÃ¡i Ġ
mÃŃn Ġ
shÇĴu Ġ
zhÃ¨ Ġ
xiÃłng Ġ
wÃ©n Ġ
ĠjÅ«n Ġ
xÃ¬ Ġ
qiÃ¡n Ġ
bÄĽn Ġ
tÃ¨ Ġ
Ġ wÃ©iĠ
zhÃŃ Ġ
fÇİ Ġ
qÄ« Ġ
jiÃ© Ġ
liÃ¡n Ġ
ĠbÃ¬ng Ġ
dÃ²ng Ġ
diÃłn Ġ
ĠqÃŃ Ġ
ĠkÃ¨ Ġ
dÅįng Ġ
mÃ¹ Ġ
Ġ jÃ¬n
Ġ duÃ¬Ġ
Ġ huÃ²
Ġ zhÃłnĠ
fÄĵn Ġ
tÃ¡i Ġ
zhÇİng Ġ
dÃ¹ Ġ
jiÄģng Ġ
Ġ qiÃº
Ġ pÃŃngĠ
gÄģo Ġ
yÃ¨ Ġ
suÇĴ Ġ
bÄĽi Ġ
ĠzhÅįu Ġ
shÄ« Ġ
Ġ leĠ
duÅį Ġ
jiÄĵ Ġ
gÃ© Ġ
Ġ shÃłngĠ
jÄ«n Ġ
Ġ zhÃ¨ngĠ
fÃº Ġ
Ġ zuÃ²Ġ
Ġ yÃ³uĠ
Ġ fÃ¹Ġ
kÇĴu Ġ
guÃ² Ġ
zhÇĲ Ġ
Ġ tÃ³ng
hÇİi Ġ
Ġ rÃ¨nĠ
Ġ quÃ¡n
mÇİ Ġ
tÅįng Ġ
rÃ¹ Ġ
zuÃ¬ Ġ
Ġ shÄĵngĠ
Ġ xuÃ©Ġ
cÇĲ Ġ
xÃ¬ng Ġ
wÃłi Ġ
nÃ¨i Ġ
lÄģ Ġ
tÇĲ Ġ
juÃ© Ġ
kÄĽ Ġ
qÇĲ Ġ
shÄģn Ġ
tiÄģn Ġ
chÇİng Ġ
dÄĽng Ġ
zhÃ¨n Ġ
wÇĶ Ġ
chÃ¡ng Ġ
zi Ġ
yÃło Ġ
bÇĲ Ġ
Ġ jÃ¹Ġ
bÇİo Ġ
mÇĲ Ġ
yÃł Ġ
Ġ yÄĽ
gÄģi Ġ
ĠyÄ«n Ġ
Ġ dÃłiĠ
miÃłn Ġ
zhÃ²ng Ġ
ĠshÃ¨ Ġ
fÄĵng Ġ
Ġ zhÃ¨Ġ
zhÇĴng Ġ
cÃ¬ Ġ
yÃ¹n Ġ
yÃŃ Ġ
liÃº Ġ
chÄĵ Ġ
shÃ²u Ġ
lÃŃn Ġ
bÄģo Ġ
yÃŃ ĠgÃ¨Ġ
sÃłi Ġ
jiÃ¨ Ġ
dÃ¬ng Ġ
shÄĵn Ġ
shÄĽng Ġ
luÃ³ Ġ
mÄĽi ĠguÃ³Ġ
sÄģn Ġ
qÃ¬ Ġ
xiÇİo Ġ
ĠdÃłn Ġ
nÃ©ng Ġ
shÅ« Ġ
zÃ© Ġ
liÃ¨ Ġ
xuÇİn Ġ
sÃ¬ Ġ
qÄ«ng Ġ
zhÄĽ Ġ
ĠqiÃº Ġ
jÃ¬ng Ġ
yuÃłn Ġ
bÄģ Ġ
wÃ¡ng Ġ
kÄĵ Ġ
tÃłi Ġ
lÃ¡n Ġ
bÃło Ġ
Äģn Ġ
zÇĴng Ġ
yÇĲng Ġ
ĠhuÃ² Ġ
bÃ¬ Ġ
fÇĶ Ġ
dÇİo Ġ
Ġ xÄ«nĠ
gÇĶ Ġ
yÄ«ng Ġ
Ġ hÃło
Ġ xiÃłĠ
Ġ zÃ¬Ġ
gÄĵ Ġ
fÃ¨n Ġ
xiÃło Ġ
yuÄĵ Ġ
nÃŃ Ġ
jiÄģo Ġ
nÃł Ġ
Ġ yÃ¹Ġ
Ġ mÇĲĠ
zÄ« Ġ
Ã¨r Ġ
Ġ xiÄģngĠ
pÇĶ Ġ
dÄģn Ġ
Ġ zhÃ¹Ġ
biÇİo Ġ
guÇİn Ġ
tÃ³u Ġ
liÃłng Ġ
chuÃ¡n Ġ
Ġ lÃ¹Ġ
sÃ¹ Ġ
wÃº Ġ
Ġ dÄģng
bÅį Ġ
rÃº Ġ
yÇİn Ġ
nÇļ Ġ
bÃ³ Ġ
ĠzhÅįngĠ guÃ³Ġ
xÄ«ng Ġ
tÃŃ Ġ
fÄĵi Ġ
dÃ¡ Ġ
sÃ¨ Ġ
chÄĵng Ġ
mÄĽi Ġ
ĠwÃ¨iĠ yÃºĠ
ĠjÃ¬n Ġ
cÃ©ng Ġ
chÇİn Ġ
Ġ nÃ¡nĠ
shuÇĲ Ġ
tÃº Ġ
biÃłn Ġ
guÄ« Ġ
Ġ rÃ¡n
Äģ Ġ
yÃ¡ng Ġ
zhÄģng Ġ
gÇİi Ġ
diÇİn Ġ
cÃ³ng Ġ
jiÃ¹ Ġ
Ġ bÄĽnĠ
ĠquÃ¡n Ġ
shÄģ Ġ
bÄģoĠ kuÃ²
wÇİng Ġ
jiÇİn Ġ
shÃ¨ng Ġ
zÇĶ Ġ
shÇĶ Ġ
gÇİng Ġ
huÃ¡ Ġ
lÇľ Ġ
qÃŃng Ġ
jÇĲng Ġ
liÇİng Ġ
zÃº Ġ
bÃłn Ġ
tÇĴng Ġ
gÃ²ng Ġ
shÄģng Ġ
lÃŃ Ġ
hÃ¹ Ġ
tÃ³ng Ġ
biÄģn Ġ
jÃ¬n Ġ
Ãłn Ġ
lÃ³ng Ġ
luÃ² Ġ
xÃ¹ Ġ
chÃŃ Ġ
Ãło Ġ
mÃ©i Ġ
jÇĲn Ġ
bÄģn Ġ
guÇİng Ġ
chÅ« Ġ
cÃ¨ Ġ
mÃ¬ Ġ
shÃ©n Ġ
ĠtÄģĠ men
zhÄĵng Ġ
zhÄ« Ġ
lÇĲng Ġ
yÃ²u Ġ
fÇİn Ġ
wÄĵi Ġ
Ġ zhÇĶĠ
Ġ xiÃłngĠ
huÃ³ Ġ
xÃŃ Ġ
tÃŃng Ġ
kÇİ Ġ
chÃ¡ Ġ
Ġ gÄģiĠ
cÃ¡i Ġ
1 Ġ
gÃ²u Ġ
shuÅį Ġ
mÃ©n Ġ
cÃŃ Ġ
xiÇİng Ġ
mÇĶ Ġ
lÃ¨i Ġ
wÄĽi Ġ
qÇĶ Ġ
ĠgÅįngĠ lÇĲĠ
yÃ¡nĠ jiÅ«
Ġ duÅįĠ
tuÃ¡n Ġ
yÇĲn Ġ
jiÃłn Ġ
ĠyÄĽ Ġ
chÃ¡o Ġ
yÃ¬ng Ġ
chÃ©n Ġ
tÃ¡ng Ġ
xiÄĵ Ġ
qÃŃ Ġ
pÇĲn Ġ
ĠyÇĲ ĠjÃŃĠ
jiÃł Ġ
shÇĲĠ yÃ²ngĠ
jiÄĽ Ġ
Ġ wÃłn
hÃ¡ng Ġ
yÇĲ Ġ
lÃºn Ġ
rÃ³ng Ġ
Ġ yÃ³u
jiÇİng Ġ
pÃ¡i Ġ
fÅ« Ġ
jiÇĶ Ġ
Ã© Ġ
lÃ¬ng Ġ
tÃ¡iĠ wÄģn
ĠhÃło Ġ
ĠdeĠ dÃ¬Ġ
xÅ« Ġ
kÄĽ ĠyÇĲĠ
2 Ġ
huÃ¡ng Ġ
xiÄģn Ġ
duÃłn Ġ
kÃ¨ Ġ
dÇİng Ġ
mÃ³ Ġ
cÄģn Ġ
yÃŃng Ġ
tiÃ¡o Ġ
biÄģo Ġ
ĠdeĠ yÄ«Ġ
kÄģiĠ shÇĲĠ
quÃ¡n Ġ
zhÇİn Ġ
ĠchÃ©ngĠ wÃ©iĠ
yÄĽ Ġ
hÃ³ng Ġ
mÃ©i ĠyÇĴuĠ
hÃłn Ġ
yÄ«n Ġ
wÄĽi ĠyuÃ¡nĠ
qiÄģn Ġ
bÇİn Ġ
xiÃłn Ġ
lÃŃng Ġ
xiÄģo Ġ
ĠtÃ³ng Ġ
huÃŃ Ġ
sÅ« Ġ
fÃ¡ng Ġ
mÃ©ng Ġ
zhuÄģng Ġ
kÅįng Ġ
jÃº Ġ
cÅ«n Ġ
bÄģoĠkuÃ² Ġ
rÃ©nĠ kÇĴuĠ
ĠqÃŃ ĠzhÅįngĠ
ĠgÅįngĠ sÄ«Ġ
huÃ² Ġ
zÇĲ Ġ
xÃŃng Ġ
dÅįu Ġ
ĠdeĠ shÃ¬Ġ
ĠĠĠ zÃłiĠ
qiÃ¡ng Ġ
zhÃło Ġ
dÃº Ġ
zhÃ¨ng ĠzhÃ¬Ġ
yÃŃ ĠgÃ¨
mÃ² Ġ
Ġ fÄĵnĠ
cÇİi Ġ
bÄ«ng Ġ
fÇİ ĠguÃ³Ġ
Ġ gÄģoĠ
ĠdÃłĠ xuÃ©Ġ
ĠshÃ¬Ġ yÄ«Ġ
hÃ¡i Ġ
ĠtÄģ ĠdeĠ
hÃº Ġ
chÃ¹ Ġ
qÄ«n Ġ
lÃ¹n Ġ
fÃłn Ġ
zhÄĵn Ġ
guÄģng Ġ
wÃ¨n Ġ
mÃłn Ġ
Ġ jiÃ©Ġ
shÃ¨ Ġ
biÇİo ĠshÃ¬Ġ
Ãłi Ġ
zhÅįng ĠdeĠ
jÅ« Ġ
Ġ jiÃłoĠ
zhuÄģn Ġ
diÃło Ġ
bÃ¡i Ġ
dÇİ Ġ
quÃ¨ Ġ
diÃłn ĠshÃ¬Ġ
Ġ dÅįngĠ
Ġ dÃ¹Ġ
fÃ¨i Ġ
ĠshÃ¬Ġ wÃ¨iĠ
Ġ mÃ¹Ġ
hÃ¡n Ġ
shÃ¬ ĠdeĠ
3 Ġ
Ġ tÃ¨Ġ
xÃ¹n Ġ
Ġ jÄ«nĠ
piÃłn Ġ
mÃ¬ng Ġ
jÇĶ Ġ
Ġ jiÄģngĠ
tuÅį Ġ
gÃ¹ Ġ
ĠrÃ©nĠ kÇĴuĠ
xiÅ« Ġ
ĠbÃ¹Ġ fÃ¨nĠ
xiÃ© Ġ
zÃło Ġ
ĠhÃ©Ġ guÃ³Ġ
zhÅįngĠ guÃ³Ġ
guÇĴ Ġ
10 ĠyuÃ¨Ġ
shÅįu Ġ
Ġ zuÃ¬
xÃ¬n Ġ
12 ĠyuÃ¨Ġ
7 ĠyuÃ¨Ġ
9 ĠyuÃ¨Ġ
zhuÇİn Ġ
Ġ shÄ«Ġ
tÄģ Ġ
dÄģng Ġ
miÃłn ĠjÄ«Ġ
ĠrÃ©nĠ mÃŃnĠ
8 ĠyuÃ¨Ġ
xÃºn Ġ
ĠdÃ¬Ġ qÅ«Ġ
wÅ« Ġ
3 ĠyuÃ¨Ġ
Ġ guÃ²Ġ
1 ĠyuÃ¨Ġ
Ġ suÇĴĠ
Ġ jÄ«ngĠ
Ġ shÇĴuĠ
gÇİn Ġ
huÃ¡n Ġ
dÃŃ Ġ
xiÃ¡ Ġ
jiÇİ Ġ
5 ĠyuÃ¨Ġ
yÄ«ng ĠguÃ³Ġ
Ġ cÇĲĠ
dÃło Ġ
dÇĲ Ġ
zhÅ« Ġ
tÄ«ng Ġ
zhÃ¨ng ĠshÃ¬Ġ
chÃ³ng Ġ
huÇĴ Ġ
zhÅįu Ġ
6 ĠyuÃ¨Ġ
zhuÃłng Ġ
chÃ©ng ĠshÃ¬Ġ
4 ĠyuÃ¨Ġ
ĠguÃ³Ġ jiÄģĠ
tiÃ¡n Ġ
gÃ¨ng Ġ
ĠĠĠ dÃ¬Ġ
fÃłng Ġ
yÇĴng Ġ
shÇĶ ĠyÃºĠ
ĠpÃŃngĠ fÄģng
pÃ² Ġ
jÅ«n Ġ
ĠdÃ¬Ġ yÄ«Ġ
Ġ qiÃ¡nĠ
11 ĠyuÃ¨Ġ
qÃºn Ġ
qÃ¹ Ġ
jiÃłng Ġ
tÃ¡o Ġ
ĠshÃ¬Ġ jÃ¬Ġ
ĠpÃŃngĠfÄģng ĠgÅįngĠlÇĲĠ
ĠtÃ³ng ĠshÃŃĠ
4 Ġ
dÄģn ĠrÃ¨nĠ
Ġ mÇİĠ
Ġ dÄĽngĠ
Ġ rÃºĠ
gÄĵn Ġ
jÇĲ Ġ
biÃ© Ġ
pÃłi Ġ
dÅ« Ġ
liÃ¡ng Ġ
5 Ġ
shÇİo Ġ
huÄ« Ġ
tiÄĽ Ġ
nÃ³ng Ġ
ĠniÃ¡nĠ 1ĠyuÃ¨Ġ
tÇİ Ġ
diÃłnĠ yÇĲngĠ
zÅįng Ġ
chÇĶ Ġ
Ġ qÄ«Ġ
Ġ tiÄģnĠ
Ġ zhÃ¨
sÇĲ Ġ
ÄĽr Ġ
ĠdeĠ shÃŃĠ
shuÄģng Ġ
qiÃ¡o Ġ
tÃ¡iĠwÄģn Ġ
Ġ suÃ¬
gÄĵn ĠjÃ¹Ġ
lÃ¬Ġ shÇĲĠ
chÃº Ġ
ĠshÃ¬Ġ zhÃ¨nĠ
gÃło Ġ
bÃłi Ġ
cÄģn ĠjiÄģĠ
yÃ¹nĠ dÃ²ng
gÄģng Ġ
chÄĵ ĠzhÃłnĠ
guÃ³ ĠdeĠ
jiÇİo Ġ
ĠyÄ«n ĠwÃ¨iĠ
ĠrÃ¬Ġ bÄĽnĠ
ĠpÃŃngĠ fÄģngĠ
lÃ¬ ĠdeĠ
ĠniÃ¡n ĠdeĠ
gÃłi Ġ
pÃłn Ġ
Ġ wÃ©nĠ
Ġ hÇİiĠ
zhÃ¨ngĠ fÇĶĠ
bÃ¬ng Ġ
zhÇĶn Ġ
ĠniÃ¡nĠ 12ĠyuÃ¨Ġ
wÇİ Ġ
yÃłn Ġ
wÇĴ Ġ
Ġ fÃºĠ
gÃ²ng ĠhÃ©ĠguÃ³Ġ
ĠxiÃłn ĠdeĠ
yÃ¡ Ġ
yÃŃn Ġ
ĠwÃłn Ġ
fÄģ ĠxiÃłnĠ
formula Ġ
chuÃłng Ġ
hÄĵi Ġ
huÃłn Ġ
qÅ« ĠdeĠ
sÃ²ng Ġ
hÄģ Ġ
hÄĽn Ġ
Ġ suÇĴ
tÃŃ ĠgÅįngĠ
jÃ¬n ĠxÃŃngĠ
Ġ bÄĽiĠ
lÃ©i Ġ
2 ĠyuÃ¨Ġ
jÄ«ng ĠjÃ¬Ġ
tÅįngĠ guÃ²Ġ
ĠniÃ¡nĠ 3ĠyuÃ¨Ġ
suÃŃ Ġ
chuÄģn Ġ
qiÄĽ Ġ
ĠzhÅįngĠ yÄģng
ĠguÃ³Ġ jÃ¬Ġ
huÄģ Ġ
shÃłng ĠdeĠ
ĠyÃ³u ĠyÃºĠ
Ġ yÃ²uĠ
lÄĵi Ġ
wÄĽiĠyuÃ¡nĠ huÃ¬Ġ
kÇİo Ġ
ĠniÃ¡nĠ 7ĠyuÃ¨Ġ
wÃ¡n Ġ
chÄĵng ĠwÃ©iĠ
ĠniÃ¡nĠ 10ĠyuÃ¨Ġ
bÇİi Ġ
dÄĵng Ġ
ĠshÃ¬Ġ jiÃ¨Ġ
ĠyÄ«nĠ cÇĲĠ
mÃŃng ĠwÃ¨iĠ
ĠjÃ¬n ĠxÃŃngĠ
nuÃ² Ġ
ĠshÃ¬Ġ zÃłiĠ
ĠrÃ¡n Ġ
chÅįng Ġ
zhÇĶ ĠyÃ¬Ġ
ĠniÃ¡nĠ 9ĠyuÃ¨Ġ
ĠtÄģĠmen Ġ
kuÃłi Ġ
yÃ¡nĠjiÅ« Ġ
tÇĶ Ġ
ĠzhÄ« ĠhÃ²uĠ
qiÃº Ġ
Ġ yÄ«ngĠ
mÃłi Ġ
shÃŃ ĠdeĠ
liÃłn Ġ
hÃło Ġ
ĠniÃ¡nĠ 5ĠyuÃ¨Ġ
sÃł Ġ
lÃº Ġ
xÃ¬Ġ tÇĴngĠ
Ġ zuÃ¬Ġ
Ġ liÃ¡nĠ
pÃ¨i Ġ
lÇĶ Ġ
ĠniÃ¡nĠ 4ĠyuÃ¨Ġ
chÇĲ Ġ
liÃło Ġ
ĠdÄģng Ġ
ĠniÃ¡nĠ 8ĠyuÃ¨Ġ
ĠniÃ¡nĠ 6ĠyuÃ¨Ġ
ĠxÃŃng ĠdeĠ
zÄĵng Ġ
rÃ©n ĠdeĠ
Ġ shÇĲĠ
xiÄģngĠ gÇİngĠ
xuÄģn Ġ
qÄ«Ġ jiÄģnĠ
dÃ© Ġ
kuÃłng Ġ
guÇİn ĠlÇĲĠ
ĠgÅįngĠ zuÃ²Ġ
piÃło Ġ
ĠzhÄ« ĠyÄ«Ġ
xÇĶ Ġ
6 Ġ
Äĵn Ġ
dÄ« Ġ
hÃ©ng Ġ
dÃł ĠdeĠ
bÇĶ Ġ
yÃłng Ġ
sÄĵn Ġ
ĠzhÅįngĠ xÄ«nĠ
xuÄģn ĠbÃ¹Ġ
tuÄ« Ġ
ĠniÃ¡nĠ 11ĠyuÃ¨Ġ
zÇĶ ĠzhÄ«Ġ
rÃ¬ Ġ
wÃłng Ġ
bÃ¹ ĠdeĠ
pÃŃ Ġ
men Ġ
Ġ bÄģoĠkuÃ²Ġ
chÃłng Ġ
yÇĲngĠ xiÇİngĠ
yÇİng Ġ
ĠtÄģ ĠzÃłiĠ
qiÄģn ĠmÇĲĠ
sÄģi Ġ
Ã©r Ġ
ĠĠĠ shÄĵngĠ
ĠhuÃ² ĠdÃ©Ġ
pÄ« Ġ
ĠshÃ¬Ġ jiÃ¨
luÃ³ ĠsÄ«Ġ
hÃ¨ Ġ
kÄĽĠ nÃ©ng
chÃ©ng ĠdeĠ
Ġ gÄģi
Ġ qÄ«ngĠ
niÃłn Ġ
dÃ¹n Ġ
Ġ mÄĽi
xiÃ¡n Ġ
Ġ ÄģĠ
lÃ³u Ġ
qÃŃ ĠtÄģĠ
ĠniÃ¡nĠ 2ĠyuÃ¨Ġ
ĠchÃ©ngĠ lÃ¬Ġ
le ĠyÄ«Ġ
bÄģng Ġ
huÃ³Ġ dÃ²ngĠ
ĠrÃ¨nĠ wÃ©iĠ
Ġ lÃ¡iĠ
liÃ¹ Ġ
yÅįu Ġ
Ġ bÇĲĠ
Ġ shÃ¹Ġ
Ġ fÄĵn
kÄĵ ĠxuÃ©Ġ
fÄģĠ zhÇİnĠ
huÃ² ĠdÃ©Ġ
jÃ¹n Ġ
Ġ luÃ³Ġ
ĠzuÃ²Ġ wÃ©iĠ
yÄģ Ġ
ĠpÃŃngĠfÄģngĠ qiÄģnĠmÇĲĠ
huÃ¡ ĠrÃ©nĠmÃŃnĠ
Ġ wÃºĠ
rÃ¬ ĠbÄĽnĠ
bÄĵi Ġ
lÇİo Ġ
huÃ¬ ĠyÃ¬Ġ
rÃ¨ Ġ
Ġ zhÃŃ
kÃ¹ Ġ
tÃ¡n Ġ
jiÄģn ĠdeĠ
tiÄĽ ĠlÃ¹Ġ
Ġ liÃºĠ
ĠdeĠ rÃ©nĠ
yÃ²ng ĠyÃºĠ
liÃ¡o Ġ
nÃŃng Ġ
ĠshÃŃĠ jiÄģnĠ
ĠdeĠ gÅįngĠ
gÃ¨ Ġ
Ġ shÄģnĠ
Ġ zhÄģngĠ
miÇİn Ġ
Ġ yÃ¡nĠ
miÃłnĠ jÄ«
mÃŃn ĠguÃ³Ġ
ruÃ¬ Ġ
wÅ« ĠkÃ¨Ġ
yÃ¬n Ġ
xiÇİn Ġ
lÃ¨ Ġ
zuÇĴ Ġ
gÃ²ng ĠyÇĴuĠ
ĠĠĠ lÃ¬ĠshÇĲĠ
hÇİo Ġ
ĠĠĠshÄĵngĠ pÃŃngĠ
huÃ¡ĠrÃ©nĠmÃŃnĠ gÃ²ngĠhÃ©ĠguÃ³Ġ
fÄģng ĠshÃ¬Ġ
fÄģĠ shÄĵngĠ
gÄģn Ġ
Ġ cÃ³ngĠ
Ġ zhÃŃĠ
dÃ²u Ġ
wÃ¨nĠ tÃŃĠ
guÃłn ĠjÅ«nĠ
zhÇĶĠ yÃłoĠ
rÃ¡n Ġ
dÃ¬ ĠdeĠ
ĠdÃ¬Ġ Ã¨rĠ
dÇİo ĠzhÃ¬Ġ
Ġ xiÇİoĠ
guÄģnĠ xÃ¬Ġ
cÃºn Ġ
kÄģng Ġ
cÄģn ĠyÃ¹Ġ
yuÇİn Ġ
Ġ jÇĲnĠ
ĠbÃ¹Ġ fÃ¨n
zhÄĽng Ġ
ĠgÅįngĠ chÃ©ngĠ
wÃ¡n ĠchÃ©ngĠ
dÄģn ĠwÃ¨iĠ
kÄĽĠ nÃ©ngĠ
Ġ wÇĶĠ
Ġ zhÇĲĠ
yÄ« ĠwÃ¨iĠ
Ġ zÃ©Ġ
1 ĠrÃ¬Ġ
xiÃ¨ Ġ
suÇĴ ĠyÇĴuĠ
Ġ zÇĴngĠ
zhÃ¬ ĠdeĠ
wÃ©nĠ huÃłĠ
ĠchÃ©ngĠ yuÃ¡nĠ
ĠdeĠ chÃ©ngĠ
gÄĽi Ġ
lÇļ Ġ
Ġ bÄģĠ
yuÃ¡n ĠdeĠ
Ġ tÅįngĠ
yÅįng ĠyÇĴuĠ
cÃºn ĠzÃłiĠ
Ã¨r ĠshÃŃĠ
bÄĽi ĠbÃ¹Ġ
liÃ¡n ĠhÃ©Ġ
hÃ²u ĠdeĠ
niÇĶ Ġ
ĠshÃ¬Ġ zhÅįngĠ
zhÃ¨ngĠ fÇĶ
yÃ³u ĠyÃºĠ
guÃ³Ġ jiÄģĠ
duÃ¬ ĠyÃºĠ
ĠniÃ¡nĠ zhÃ¬Ġ
fÄģ ĠxÃŃngĠ
yÃ¬ ĠdeĠ
jÃ¹ ĠyÇĴuĠ
ge Ġ
ĠjiÃłnĠ zhÃ¹Ġ
Ġ zhÇĲ
bÇĲĠ sÃłiĠ
ĠbÃ¬ng ĠzÃłiĠ
ĠdÃłoĠ leĠ
Åįu Ġ
Ã¨ Ġ
xÄ«n ĠdeĠ
sÄ« ĠdeĠ
shÄĽn Ġ
yÃºn Ġ
zÃ¬Ġ jÇĲ
yÃ¹nĠ dÃ²ngĠ
xÃŃng ĠzhÃ¨ngĠ
yÃ¬n ĠdÃ¹Ġ
Ã©Ġ luÃ³ĠsÄ«Ġ
bÄ«n Ġ
Ġ miÃłnĠjÄ«Ġ
Ġ xÃ¬Ġ
dÃłiĠ biÇİoĠ
shÃło Ġ
Ġ mÄĽiĠguÃ³Ġ
Ġ lÃ¬ngĠ
xÇĶ ĠduÅįĠ
ĠdÃłn ĠshÃ¬Ġ
rÃ¨n ĠhÃ©Ġ
shÄĵng ĠyÃºĠ
tÅ« Ġ
guÃ¬ Ġ
mÇİn Ġ
ĠniÃ¡nĠ dÃłiĠ
Ġ jiÇİnĠ
dÄ«ng Ġ
liÇİng ĠgÃ¨Ġ
chÃ¨ Ġ
bÇİoĠ hÃ¹Ġ
ĠrÃ©nĠkÇĴuĠ mÃ¬Ġ
Ġ shÇĲ
zh Ġ
xiÃ¹ Ġ
xuÃ¡n Ġ
ĠdÄģng ĠshÃŃĠ
zhÃłng Ġ
ĠdeĠ yÃŃĠgÃ¨Ġ
nÃ¡n ĠbÃ¹Ġ
jÇĶ ĠxÃŃngĠ
zhuÄģn ĠjÃŃĠ
miÃłnĠjÄ« ĠwÃ¨iĠ
Ġ diÃłnĠ
lÃ¡i ĠdeĠ
Ġ guÄģnĠ
fÄģn Ġ
zÇİo Ġ
ĠzhÃ¨ngĠ fÇĶĠ
Ġ cÃ©ngĠ
dÃº ĠlÃ¬Ġ
fÃºĠ wÃ¹Ġ
juÃ©Ġ dÃ¬ngĠ
xiÄĽ Ġ
ĠchÅ« ĠdeĠ
ruÃ² Ġ
zhÇĶĠ yÃło
7 Ġ
kÄģiĠ shÇĲ
ĠlÃ¬Ġ shÇĲĠ
qÇĲng Ġ
Ġ sÄģnĠ
ĠshÃ¨ ĠjÃ¬Ġ
Ġ wÃ¡ngĠ
Ġ mÄĽiĠ
Ġ 15
mÃŃng ĠdeĠ
hÃłi Ġ
rÃłng Ġ
ĠshÃ¬ĠwÃ¨iĠ yÃºĠ
jiÃ¹ ĠshÃ¬Ġ
ĠyÇĴuĠ yÄ«Ġ
Äģi Ġ
gÄĵng Ġ
Ġ jiÄģng
gt Ġ
Ġ cÇĲ
Ġ gtĠ
xÇĲ Ġ
tÃłn Ġ
ĠqÃŃ ĠtÄģĠ
Ġ fÇİĠ
ĠxÃŃngĠ zhÃ¨ngĠ
pÃ©i Ġ
jiÃłoĠ yÃ¹Ġ
shÃ²u ĠdÃłoĠ
lt Ġ
Ġ fÄĵngĠ
rÃ¨nĠ wÃ©iĠ
fÇİng Ġ
kÄģn Ġ
wÇİn Ġ
ĠshÃ¬Ġ dÃ¬Ġ
fÄģĠ zhÇİn
Ġ jiÄĵĠ
shÃ¨ ĠhuÃ¬Ġ
Ġ ltĠ
yÃ¬ ĠwÃ¨iĠ
gÃ¹ ĠshÃ¬Ġ
shÃłn Ġ
piÄģn Ġ
fÄģngĠ miÃłnĠ
ĠxiÃłn ĠzÃłiĠ
8 Ġ
qÅ« ĠwÃ¨iĠ
ĠzuÃ¬ ĠzhÅįngĠ
Ġ bÃ¬Ġ
qÃŃn Ġ
ĠzhÅįngĠyÄģng Ġ
pÃło Ġ
ĠshÃ¬Ġ shÃ¬Ġ
tuÃ¬ Ġ
zhe Ġ
nÃ¨i ĠdeĠ
Ġ jiÃ¹Ġ
shÇĶ ĠdeĠ
xiÄģngĠ gÇİng
xiÇİo ĠshÃŃĠ
dÃłn Ġ
ĠlÃ¬Ġ rÃºĠ
zÃº ĠqiÃºĠ
Ġ qÅ«Ġ
shÃ¹Ġ jÃ¹Ġ
ĠbÃ¹Ġ tÃ³ng
liÃ¨Ġ chÄĵĠ
xÅ«Ġ yÃłoĠ
huÃł ĠdeĠ
zhÃŃĠ wÃ¹Ġ
Ġ suÄ«
rÃ©n ĠshÃ¬Ġ
qiÄģng Ġ
zuÃ² ĠdeĠ
Ġ dÃ²ngĠ
shÇĲĠ yÃ²ng
zÄĵng ĠjiÄģĠ
ĠjÃ¬Ġ huÃłĠ
mÃŃnĠ zhÇĶĠ
ĠshÃŃĠ qÄ«Ġ
zuÃ²Ġ wÃ©iĠ
Ġ gÇĶĠ
kÃ²ng ĠzhÃ¬Ġ
ĠyÄĽ ĠshÃ¬Ġ
duÇİn Ġ
tÇİn Ġ
ĠjiÃłn ĠdeĠ
yÄ«n ĠyuÃ¨Ġ
Ġ cÃ©ng
ĠrÃ¡n ĠÃ©rĠ
Ġ 16
Ġ ÄģnĠ
ĠyÇĲĠ jÄ«ngĠ
Ġ shÇĶĠyÃºĠ
lÃ¡ng Ġ
ĠhÃ©Ġ zuÃ²Ġ
ĠzÃłiĠ dÃ¬Ġ
rÃ©nĠ mÃŃnĠ
ĠshÃ¬Ġ jiÃłnĠ
ĠrÃ©nĠ yuÃ¡nĠ
Ġ yÃ²u
tÄģ ĠdeĠ
ĠjiÃłn ĠyÃºĠ
xuÃ©Ġ yuÃłnĠ
zÇĶ ĠchÃ©ngĠ
chÄģo ĠguÃ²Ġ
Ġ mÇİ
Ġ gÃ©Ġ
zuÃ²Ġ pÇĲnĠ
ĠyÄ«n ĠyuÃ¨Ġ
Ġ kÄĵĠ
mÃło Ġ
ĠquÃ¡n ĠguÃ³Ġ
xiÃ³ng Ġ
zÇİi Ġ
hÅ« Ġ
huÃ¬ ĠdeĠ
jÃ¬ ĠdeĠ
Ġ sÃ¬Ġ
zÇĴngĠ tÇĴngĠ
suÃłn Ġ
ĠzhÃ¨Ġ xiÄĵĠ
ĠwÃ¨iĠ leĠ
ĠhÃ²uĠ lÃ¡iĠ
yÃº ĠshÃ¬Ġ
Ġ pÇĶĠ
Ġ shÃ²uĠ
Ġ zhÇİngĠ
Ġ tÃłiĠ
ĠchÃ©ngĠ gÅįngĠ
fÄģ ĠbÃ¹Ġ
dÃłĠ lÃ¬Ġ
tÃŃ ĠchÅ«Ġ
ĠlÃ¬Ġ yÃłĠ
Ġ 000
ĠyÃ¬Ġ yuÃ¡nĠ
ĠshÃ¨ ĠyÇĴuĠ
ĠĠĠ deĠ
ĠyÄ«nĠ cÇĲ
yÃ¹nĠdÃ²ng ĠyuÃ¡nĠ
yÄģo ĠqiÃºĠ
hÃ¡n ĠguÃ³Ġ
bÃ¹ ĠzÃłiĠ
nÃŃĠ yÃł
pÃŃn Ġ
yÇĴu ĠdeĠ
pÃº Ġ
zÃło ĠchÃ©ngĠ
Åįu ĠzhÅįuĠ
qiÅ« Ġ
cÇİiĠ yÃ²ngĠ
xiÇİo ĠxÃŃngĠ
ĠgÅįngĠ yuÃ¡nĠ
jiÄģ ĠdeĠ
xÃ¬ng ĠdeĠ
shÄĵng ĠdeĠ
bÇİ Ġ
s Ġ
ĠdeĠ yÃŃĠgÃ¨
ĠrÃ¬ ĠzÃłiĠ
dÄģng ĠshÃŃĠ
kÃ²ng Ġ
rÃ©nĠ wÃ¹Ġ
fÃ¨ng Ġ
ĠcÇĲĠ wÃłiĠ
Ġ suÃŃ
gÃ²ngĠ chÇİnĠ
Ġ lÄģĠ
kÃłn Ġ
Ġ zhĠ
Ġ cÃ³ng
Ġ wÇĴĠ
10 Ġ
Ġ shÄģĠ
ĠshÃ¬Ġ hÃ©Ġ
wÄģn Ġ
Ġ lÃ¬ng
2010 ĠniÃ¡nĠ
Ġ gÄĵnĠjÃ¹Ġ
ĠdeĠ bÃ¹Ġ
mÇİ ĠwÃ¨iĠ
Ġ tÇĲĠ
xuÃ©Ġ jiÄģĠ
yÃ³uĠ xÃ¬Ġ
Ġ nÇļĠ
sÅįng Ġ
fÃłn ĠwÃ©iĠ
ĠbÃ¹Ġ tÃ³ngĠ
dÅ«n Ġ
kÄģiĠ fÄģĠ
shÃ¨ ĠjÃ¬Ġ
mÃ¡o Ġ
chÄģo Ġ
sÄģn ĠniÃ¡nĠ
Ġ kÄĽĠ
qÇĶ ĠdÃ©Ġ
ĠdeĠ jÄ«Ġ
sÃłi ĠshÃ¬Ġ
ĠĠĠ shÃ¬Ġ
xiÅįng Ġ
ĠxÃŃng ĠchÃ©ngĠ
ĠĠĠdÃ¬Ġ lÇĲĠ
ĠsuÃ¬ Ġ
zÃ¬ ĠzhÃ¬Ġ
Ġ yÃŃĠ
chÇİn ĠshÄĵngĠ
Ġ wÃ¹Ġ
wÄĵn Ġ
Äģ ĠÄĽrĠ
yÃ¡o Ġ
dÇĲng Ġ
ĠdeĠ jÃ¬Ġ
shÅ« ĠjÃ¬Ġ
Ġ 17
jiÃ©Ġ mÃ¹Ġ
ĠbÃ¬ng ĠyÃºĠ
nÇĲ Ġ
dÅįu ĠshÃ¬Ġ
chÃ³ng ĠxÄ«nĠ
Ġ liÇİngĠ
zÃłn Ġ
lÃ¼Ã¨ Ġ
chÅ«n Ġ
ĠshÃ¨ ĠhuÃ¬Ġ
xÃ¬Ġ tÇĴng
zhÃ²ngĠ yÃło
lÇĲ ĠdeĠ
bÃº ĠshÃ¬Ġ
ĠdÃłiĠ biÇİoĠ
yÄ« ĠniÃ¡nĠ
ĠxiÄģngĠ gÇİngĠ
ĠsÄ«Ġ tÃ¨Ġ
diÃłnĠ yÇĲng
zhuÄ« Ġ
guÄģn ĠyÃºĠ
dÃłng Ġ
Ġ nÃłĠ
juÃ©Ġ sÃ¨Ġ
Ġ fÃº
jiÄģoĠ tÅįngĠ
lÇİng Ġ
ĠyÃ³uĠ xÃ¬Ġ
dÃłĠ xuÃ©Ġ
9 Ġ
jÃŃ ĠdeĠ
mÃŃ Ġ
Ġ 0
gÄĵĠ qÇĶĠ
chÃº ĠleĠ
ĠchÅ« ĠxiÃłnĠ
tÇİo Ġ
2020 ĠniÃ¡nĠ
Ġ jiÃ©
Ġ C
ĠzhÃ¬Ġ zuÃ²Ġ
ĠdÃłĠ xuÃ©
pÃŃng ĠjÅ«nĠ
ĠdÃ© ĠguÃ³Ġ
xiÇİn ĠshÃ¬Ġ
Ġ chÃ©nĠ
Ġ jiÄģnĠ
huÃ¡Ġ mÃŃnĠguÃ³Ġ
Ġ shÄĵnĠ
ĠniÃ¡nĠ zÃłiĠ
ĠzhÅįngĠ huÃ¡ĠrÃ©nĠmÃŃnĠgÃ²ngĠhÃ©ĠguÃ³Ġ
kuÃ² Ġ
kÇĴng Ġ
hÃ²u ĠzÃłiĠ
miÃ¡o Ġ
ĠniÃ¡nĠ dÃłi
Ġ liÇİng
Ã¨r ĠniÃ¡nĠ
xiÃł ĠdeĠ
yÇİn ĠyuÃ¡nĠ
ĠkÃ¨ ĠsÄ«Ġ
dÃ© ĠguÃ³Ġ
xiÃ¡ng Ġ
qÃ¬ng Ġ
wÃ©i ĠyÄ«Ġ
cÇİo Ġ
Ġ bÇİoĠ
dÄģng ĠdÃ¬Ġ
guÃ³Ġ jÃ¬Ġ
duÃ¬ ĠdeĠ
Ġ 1Ġ
bÃ³Ġ wÃ¹Ġ
hÅ«n Ġ
ĠjiÃłn ĠlÃ¬Ġ
Ġ fÄĵiĠ
ĠdÃ¬Ġ guÃ³Ġ
ĠbÃ¹Ġ yÃºĠ
fÇİn ĠduÃ¬Ġ
qÄ« ĠdeĠ
zÇĴu Ġ
duÄģn Ġ
wÃ¹ ĠdeĠ
xuÃ¨ Ġ
yÄ«n ĠwÃ¨iĠ
Ġ A
qÅ«Ġ yÃ¹Ġ
qÃ¹ ĠshÃ¬Ġ
yÄ« ĠbÃ¹ĠfÃ¨nĠ
bÃ¡ ĠgÄģoĠ
wÃ² Ġ
kuÇİn Ġ
Ġ chÃ¡ngĠ
quÄĵ Ġ
2001 ĠniÃ¡nĠ
guÇİnĠ xiÃ¡Ġ
dÃ¹ ĠwÃ¨iĠ
zhÃ¨ngĠzhÃ¬Ġ rÃ©nĠwÃ¹Ġ
pÃ©ng Ġ
nÃŃĠ yÃłĠ
Ġ kÇİĠ
hÃ¡i ĠyÇĴuĠ
ĠĠĠ rÃ©nĠkÇĴuĠ
ĠdÄģng ĠdÃ¬Ġ
zuÃ¬ ĠzhÅįngĠ
ĠtÄģ ĠshÃ¬Ġ
chÃ¬ Ġ
ĠbÃ¹Ġ duÃ¬Ġ
lÃ¡iĠ zÃ¬Ġ
Ġ dÄģnĠ
Ġ 1
Ġ yuÄĵĠ
ĠxÃŃng ĠshÃ¬Ġ
bÇĲĠ sÃłi
qiÃ¡nĠ wÇİngĠ
Ġ fÄģĠ
zhÃŃĠ yÃ¨Ġ
Ġ wÄĵiĠ
dÃ¬ng ĠdeĠ
quÃ¡n ĠguÃ³Ġ
bÄģ ĠshÃ¬Ġ
yÄ« ĠbÃ¹Ġ
ĠdeĠ yuÃ¡nĠ
ĠzhÃ¨ngĠ fÇĶ
Ġ chÃºĠ
zhÃ²ngĠ yÃłoĠ
diÃłoĠ chÃ¡Ġ
Ġ lÃŃnĠ
ĠzhÄ«Ġ jiÄģnĠ
biÄģnĠ mÇİĠwÃ¨iĠ
Ġ huÃ¡ngĠ
ĠniÃ¡nĠ jiÄģnĠ
ĠxuÃ©Ġ mÃŃngĠ
s ĠĠĠ
xuÃ©Ġ xiÃłoĠ
zhÄģo Ġ
zhÇĶĠ xÃŃĠ
xuÇİnĠ jÇĶĠ
ĠrÃ¬ ĠzhÃ¬Ġ
gÇİi ĠwÃ©iĠ
zÇĶ ĠzhÄ«
Ġ nÃ¨iĠ
zhÇĶĠ jiÃłoĠ
fÃ¡ Ġ
zÄ«Ġ liÃłoĠ
Ġ jÃ¬ngĠ
hÇİi ĠjÅ«nĠ
gÅįng ĠshÃ¬Ġ
ĠjÅ«n ĠshÃ¬Ġ
ĠdeĠ dÃłĠ
ĠrÃ©nĠkÇĴuĠmÃ¬Ġ dÃ¹Ġ
chÇĶ ĠlÇĲĠ
kÃłng Ġ
sÅ«n Ġ
zÄģi Ġ
ĠdeĠ yÃ¬Ġ
fÄģngĠ fÇİĠ
fÃ¹Ġ zÃ©Ġ
Ġ duÅį
ĠrÃ¬Ġ bÄĽn
wÅ«ĠkÃ¨Ġ lÃ¡nĠ
ĠĠĠ yÇĶĠ
guÃłn Ġ
Ġ bÅįĠ
shÃ¹ ĠdeĠ
ĠyÇĴuĠ xiÃłn
dÃłiĠ biÇİo
Ġ mÃ©iĠ
ĠgÃ¨ ĠrÃ©nĠ
Ġ sÄģn
Ġ shÃ¨ngĠ
wÃºĠ fÇİĠ
yÇĲngĠ xiÇİng
ĠjÃ¬Ġ shÃ¹Ġ
ĠshÃ¬Ġ yÃ³uĠ
Ġ huÃłĠ
jiÄĵĠ rÇİng
jÅ«Ġ mÃŃnĠ
zuÃ¬Ġ gÄģoĠ
Ġ jiÃ¨Ġ
Ġ kÄģiĠ
Ġ gÇİiĠ
pÃł Ġ
qÃŃ ĠzhÅįngĠ
lÃ¹ ĠdeĠ
Ġ hÃ³ngĠ
xuÃ©Ġ shÄĵngĠ
xÃ¬Ġ liÃ¨Ġ
ĠzhÄ«Ġ chÃŃĠ
Ġ zÃ©
zÃ¬Ġ yÃ³uĠ
wÄĽn Ġ
biÄģoĠ zhÇĶnĠ
qiÃ¨ Ġ
xiÃ© ĠhuÃ¬Ġ
shÃ¹Ġ liÃłng
Äģn ĠquÃ¡nĠ
fÇİnĠ yÃ¬ngĠ
kÄĽ ĠyÇĲ
huÃ¬ ĠzÃłiĠ
Ġ 2Ġ
yÄģo Ġ
kÄĽn Ġ
shÃ¨n ĠzhÃ¬Ġ
yÃ© Ġ
bÇĲ ĠlÃ¬Ġ
tÇĴng ĠzhÃ¬Ġ
chuÃłng ĠzuÃ²Ġ
zhÇĶĠ rÃ¨nĠ
Ġ suÃŃĠ
Ġ qÇĲĠ
ĠĠĠ bÄĽnĠ
Ġ xÄ«n
dÅįng ĠbÃ¹Ġ
ĠdeĠyÃŃĠgÃ¨ ĠshÃ¬ĠzhÃ¨nĠ
liÃ¡nĠ mÃ©ngĠ
ĠshÃ¬Ġ yÃŃĠgÃ¨Ġ
Ġ nÃ¡n
ĠgÅįngĠ sÄ«
gÄģi ĠguÃ³Ġ
kÇİi Ġ
ĠfÃ¹Ġ zÃ©Ġ
fÃ¡n Ġ
yÇİ Ġ
ĠdÃ¬Ġ sÄģnĠ
ĠdÃ¬Ġ shÃŃĠ
ĠĠĠ xÃŃngĠzhÃ¨ngĠ
Ġ sÅ«Ġ
tÇĲĠ yÃ¹Ġ
ĠbÃ¹Ġ guÃ²Ġ
jiÃ©Ġ gÃ²uĠ
niÃº Ġ
Ġ 2
ĠdÃło ĠdeĠ
shÃŃ ĠniÃ¡nĠ
qÃŃngĠ kuÃłngĠ
nÃ©ng ĠlÃ¬Ġ
mÇĴu Ġ
nÃ¡nĠ ziĠ
zhÅįng ĠshÃ¬Ġ
Ġ shuÇĲĠ
qÃŃngĠ kuÃłng
sÃ¬ ĠniÃ¡nĠ
Ġ S
Ġ mÃŃng
Ġ gÄĵĠ
xÄ« ĠbÃ¹Ġ
gÅįng ĠbÃ¹Ġ
hÃ¡o Ġ
shÄĵngĠ huÃ³Ġ
jiÄĵĠ shÃ²uĠ
of ĠĠĠ
Ġ yÃ¡ngĠ
nÇļĠ zÇĲĠ
Ġ Ãło
lÃ¹ ĠxiÃłnĠ
suÅį Ġ
chÃ©ngĠ lÃ¬Ġ
ĠzhÅįngĠ xuÃ©Ġ
ĠĠĠ formulaĠ
huÄģn Ġ
gÅ« Ġ
Ġ 14
miÃłn ĠdeĠ
ĠjÃ¬nĠ rÃ¹Ġ
yÃ¬ ĠshÃ¬Ġ
ĠÄĽr ĠsÄ«Ġ
ĠzhÇĶĠ yÃłoĠ
bÄĽiĠ jÄ«ngĠ
liÃ¡nĠ sÃłiĠ
Ġ kÄĽĠyÇĲĠ
the ĠĠĠ
Ġ bÄģ
yÇĴu ĠshÃŃĠ
ĠyÃ¬Ġ huÃ¬Ġ
guÇİngĠ dÅįngĠ
duÃ³ Ġ
Ġ ÃłoĠ
ĠĠĠ jiÄģĠ
lÃ¡o Ġ
jiÃłn ĠzhÃ¹Ġ
yÃł ĠzhÅįuĠ
Ġ tÃ¡iĠ
Ġ cÃ¬Ġ
dÇİo ĠdeĠ
ĠguÃ³Ġ mÃŃnĠ
yÄĽ ĠshÃ¬Ġ
nÃ¡ ĠdÃłĠ
dÃ²ngĠ wÃ¹Ġ
tÃłi ĠpÃŃngĠ
ĠsuÇĴ ĠyÇĲĠ
dÃ¬ ĠwÃ¨iĠ
rÇİn Ġ
ĠzhÃ¨ ĠshÃ¬Ġ
bÃ¡ĠgÄģoĠ dÃ¹Ġ
dÃ¡ ĠdÃłoĠ
zÃ¬ĠjÇĲ ĠdeĠ
lÇĲ ĠshÃ¬Ġ
zhÃº ĠjiÃłnĠ
guÇĲ Ġ
zhuÃłn Ġ
ĠbÃ¬ngĠ qiÄĽ
dÃłi ĠdeĠ
bÇİn ĠbÄĽnĠ
xÇĶĠ duÅį
zhÄĽ ĠdeĠ
jiÃłoĠ shÃ²uĠ
Ġ hÃ¡iĠ
Ġ Ã¨rĠ
2008 ĠniÃ¡nĠ
xiÃłngĠ mÃ¹Ġ
ĠxuÃ©Ġ xiÃłoĠ
Ġ hÃºĠ
Ġ dÃł
wÅ«ĠkÃ¨Ġ lÃ¡n
fÄĵiĠ chÃ¡ngĠ
2009 ĠniÃ¡nĠ
ĠxÄ«Ġ yÃłĠ
qÄ«ng ĠniÃ¡nĠ
Ġ zÇĴng
Ġ mÇĶĠ
ĠbÃ¬ngĠ qiÄĽĠ
ĠzhÇĶĠ yÃło
lÄģ ĠsÄ«Ġ
ĠĠĠ gÄĵnĠjÃ¹Ġ
yÄ« ĠshÃ¬Ġ
ĠchÃ©ngĠ wÃ©i
rÃ¬Ġ bÄĽn
mÃ³ ĠshÃ¬Ġ
zhÃ© Ġ
niÇİo Ġ
wÃ©nĠ wÃ¹Ġ
ĠtÄģĠmen ĠdeĠ
ĠyÃ¬Ġ shÃ¹Ġ
zhÇĲ ĠyÇĴuĠ
chÄģ Ġ
ĠjÃ¬Ġ lÃ¹Ġ
ĠĠĠ ofĠĠĠ
ĠzhÅįu ĠdeĠ
Ġ ÃłiĠ
Ġ mÃŃnĠ
hÃ¡ngĠ kÅįngĠ
Ġ yÃºĠshÃ¬Ġ
Ġ bÃ³Ġ
wÃ©nĠ xuÃ©Ġ
fÄĵn ĠwÃ©iĠ
suÄģn Ġ
ĠqÃŃ ĠshÃ¬Ġ
ĠqÃŃ ĠyÃºĠ
suÃ¬ Ġ
dÄĽng ĠrÃ©nĠ
huÇĲ Ġ
tÅįngĠ guÃ²
zhÇĲ ĠchÅ«Ġ
cÃ¡ng Ġ
B Ġ
Ġ 3
28 ĠrÃ¬Ġ
shuÃłi Ġ
Ġ yÃ²ngĠ
rÃ©nĠkÇĴuĠ pÇĶĠ
cuÃ² Ġ
zhÃŃ ĠxÃŃngĠ
tÃ³ng ĠshÃŃĠ
Ġ jÄ«n
ĠqiÃº ĠduÃ¬Ġ
zhÃł Ġ
ĠlÃ¬Ġ yÃł
zhÃŃĠ jiÄĵĠ
yÇİn ĠchÅ«Ġ
jÇĲnĠ biÄģoĠ
gÄģi ĠdÃ¬Ġ
gÃ©Ġ lÃ¡nĠ
2016 ĠniÃ¡nĠ
huÃ³Ġ dÃ²ng
zhÃ¨ ĠyÄ«Ġ
rÃ¨nĠ wÃ©i
jÃ¬nĠ rÃ¹Ġ
ĠzhÄ«Ġ jiÄģnĠdeĠ
ĠgÅįngĠ kÄģiĠ
ĠdÄģng ĠzhÅįngĠ
hÃ¹n Ġ
gÃ²ng ĠtÃ³ngĠ
xiÃł ĠjÃ¬Ġ
ĠdÃłn ĠzÃłiĠ
zhÃłnĠ zhÄĵngĠ
wÇĶ ĠniÃ¡nĠ
chÃ³u Ġ
jiÄģng ĠjÅ«nĠ
lÃ¨ ĠbÃ¹Ġ
mÃ©iĠ tÇĲĠ
Ġ wÃº
tÇĲ ĠdeĠ
chÄĵĠ zhÃłn
mÃ¨ng Ġ
tuÄ« ĠchÅ«Ġ
jiÃłoĠ yÃ¹
diÃ© Ġ
yÇĶn Ġ
zhÃ¨Ġ xiÄĵĠ
pÅį Ġ
tÃ¬ Ġ
ĠshÃ¬Ġ wÃ¹Ġ
miÃło Ġ
lÃŃĠ kÄģiĠ
ĠlÃ¬ngĠ wÃłiĠ
huÃ¡nĠ jÃ¬ngĠ
zhÃº Ġ
tÃ©ng Ġ
wÃłn Ġ
2012 ĠniÃ¡nĠ
ĠĠĠ S
lÃŃnĠ pÇĲ
ĠdÃ¬Ġ Ã¨r
shÄģngĠ yÃ¨Ġ
2011 ĠniÃ¡nĠ
chuÃ¡nĠ tÇĴngĠ
ĠĠĠ niÃ¡n
15 ĠrÃ¬Ġ
Ġ yÇĲnĠ
guÄģn ĠdeĠ
kuÄģn Ġ
sÄģn ĠshÃŃĠ
jÅ«n ĠshÃ¬Ġ
dÄģnĠ qÅ«Ġ
liÃłng ĠdeĠ
jiÄĵ ĠdÃłoĠ
sÃłn Ġ
jÄ« ĠdeĠ
qiÃ¡n ĠdeĠ
rÃ©n ĠzÃłiĠ
nÃ¨iĠ rÃ³ngĠ
ĠzhÃ¨Ġ geĠ
zÃłng Ġ
sÃłi ĠjÃ¬Ġ
gÄģo ĠdeĠ
dÃ²ngĠ huÃłĠ
bÃ³ ĠshÃ¬Ġ
dÃ¹ ĠdeĠ
ĠwÃ¨iĠ rÃ©nĠ
12 Ġ
yÃŃnĠ hÃ¡ngĠ
xuÇİnĠ jÇĶ
ĠwÃ¨iĠ zhÃ¬Ġ
chÃ©ng ĠzhÅįngĠ
mÃ¬ng ĠmÃŃngĠ
sÇĶn Ġ
Ġ gÃ¹Ġ
dÄĽng ĠdÃ¬Ġ
ĠgÅįngĠ lÃ¹Ġ
rÃ¨ ĠdÃłiĠ
bÄĽiĠ jÄ«ng
bÇİng Ġ
ĠshÃŃĠ jÃ¬Ġ
yÃ¹nĠdÃ²ng ĠhuÃ¬Ġ
xuÇİnĠ zÃ©Ġ
Ġ D
ĠdÃłĠ lÃ¬Ġ
ĠÃ©r ĠzÃłiĠ
Ġ hÃłnĠ
yuÃ¡n ĠniÃ¡nĠ
bÃłoĠ gÃłoĠ
ĠmÃ¹Ġ qiÃ¡nĠ
ĠdeĠ hÃ©Ġ
bÅį ĠchÅ«Ġ
zuÃ¬ ĠjiÄģĠ
ĠĠĠ jÃ¹Ġ
zÅįng ĠjiÃłoĠ
xuÃ© ĠwÃ¨iĠ
tÇĶ ĠdÃ¬Ġ
ĠdÃ© ĠdÃłoĠ
de ĠĠĠ
zuÃ¬ ĠhÃ²uĠ
wÃ©nĠ huÃł
tuÃ¡nĠ tÇĲĠ
25 ĠrÃ¬Ġ
Ġ yÃ¨Ġ
ĠdÃ¬Ġ fÄģngĠ
guÇĲ ĠdÃłoĠ
luÃłn Ġ
ĠwÃ¨iĠ dÃ¬Ġ
jÄ«ng ĠlÃ¬Ġ
xÃ¬ ĠdeĠ
Ġ zhÃłn
ĠzhÄ«Ġ qiÃ¡nĠ
shÄĽng ĠdeĠyÃŃĠgÃ¨ĠshÃ¬ĠzhÃ¨nĠ
Ġ mÃ³Ġ
ĠshÃ¬ĠyÄ«Ġ zhÇĴngĠ
ĠshÃ¬ĠwÃ¨iĠyÃºĠ mÄĽiĠguÃ³Ġ
A Ġ
jÃŃ ĠzhÅįngĠ
ĠgÃ¨ ĠyuÃ¨Ġ
Ġ xÃ¬ngĠ
Ġ 5Ġ
ĠjÅ«n ĠdeĠ
Ġ mÇĲ
sÇĲĠ wÃ¡ngĠ
xiÄģngĠ guÄģnĠ
Ġ qÃ¬Ġ
Ġ 5
Ġ bÄģoĠkuÃ²
30 ĠrÃ¬Ġ
fÄĵnĠ biÃ©
ĠjÄ«Ġ gÃ²uĠ
wÃ¨i ĠdeĠ
shÇĴuĠ cÃ¬Ġ
ÃłoĠ lÃŃnĠpÇĲ
lÇĲngĠ dÇİoĠ
ĠyÇĴuĠ guÄģnĠ
ĠhÇİiĠ bÃ¡ĠgÄģoĠdÃ¹Ġ
ĠyÄ«Ġ xiÄĵĠ
ĠtÃ³ng ĠniÃ¡nĠ
Ġ juÃ©Ġ
2014 ĠniÃ¡nĠ
yÃ²ng ĠdeĠ
huÃ¡i Ġ
ĠĠĠ wÃ¨iĠ
mÄĽi ĠyuÃ¡nĠ
20 ĠrÃ¬Ġ
ĠxÃŃngĠ dÃ²ngĠ
Ġ zhÃ²ngĠ
xuÄĽ Ġ
ĠzÃłiĠ yÄ«Ġ
Ġ 6
jÄ« ĠyÃºĠ
ĠzhÅįngĠ huÃ¡ĠmÃŃnĠguÃ³Ġ
shuÇĲ ĠyÃ¹Ġ
11 Ġ
biÃłnĠ huÃłĠ
10 ĠrÃ¬Ġ
shÃłng ĠwÃ¨iĠ
ĠjÃŃĠ tuÃ¡n
2018 ĠniÃ¡nĠ
ĠjÃ¬Ġ xÃ¹Ġ
zhÄ« ĠyÄ«Ġ
ĠshÃŃĠ dÃłiĠ
chÇĶ ĠyÃºĠ
UTC Ġ
gÃ²ng ĠhÃ©Ġ
ĠbÃ¹Ġ zhÇİngĠ
zÃ¬Ġ jÇĲĠ
Ġ wÃłiĠ
jiÃ©Ġ shÃ¹Ġ
Ġ bÃ¡iĠ
2019 ĠniÃ¡nĠ
Ġ ziĠ
ĠzÃ¬Ġ jÇĲ
zhÄ«Ġ chÃŃĠ
2005 ĠniÃ¡nĠ
guÃ² ĠchÃ©ngĠ
ĠhÃ²uĠ lÃ¡i
Ġ 4
mÃŃnĠ zÃºĠ
2015 ĠniÃ¡nĠ
shÃ¹n Ġ
kÅįngĠ jiÄģnĠ
shuÃ¬ Ġ
bÃº ĠhuÃ¬Ġ
mÃ¨i Ġ
yÃ¨ ĠyÃºĠ
Ġ rÃº
Ġ 18
Ġ chÄĵngĠ
tÃ²u ĠguÃ²Ġ
nÃ¨i ĠbÃ¹Ġ
2013 ĠniÃ¡nĠ
Ġ sÃ¬
jiÄĽĠ fÃłng
ĠzhÃŃ ĠdÃłoĠ
ĠyÃ¬Ġ zhÃŃĠ
Ġ jÇĲngĠ
xÄ«nĠ wÃ©nĠ
fÄĵn ĠbÃ¹Ġ
gÄĵnĠ jÃ¹
ĠzhÅįu ĠshÃ¬Ġ
Ġ Ãłi
pÄ« ĠpÃŃngĠ
ĠjÃŃĠ tuÃ¡nĠ
2007 ĠniÃ¡nĠ
Ġ jiÃ¹
dÃ¬Ġ qÅ«Ġ
Ġ shÇĶĠ
ĠĠĠ zhÃ¨Ġ
ĠhÃ©Ġ nÃ¡nĠ
tÄģĠ men
ĠshÃ¬Ġ shÃŃĠ
ĠyÇĴuĠxiÃłn ĠgÅįngĠsÄ«Ġ
wÃ¡n ĠjiÄģĠ
guÄ«Ġ dÃ¬ngĠ
Ġ shÃ©nĠ
gÃ©Ġ mÃ¬ngĠ
ĠjiÄģĠ rÃ¹Ġ
wÃ¡n ĠquÃ¡nĠ
chÃ©ngĠ wÃ©iĠ
Ġ tÃ¡ngĠ
xÄ«Ġ bÄģnĠ
zÄ«Ġ gÃ©Ġ
26 ĠrÃ¬Ġ
dÃłĠ lÃ¹Ġ
ÃłoĠlÃŃnĠpÇĲ ĠkÃ¨Ġ
ĠĠĠ gÄģiĠ
2017 ĠniÃ¡nĠ
Ġ T
ĠdÃłĠ huÃ¬Ġ
24 ĠrÃ¬Ġ
Ġ mÃ²Ġ
zÃłi ĠdeĠ
zÃ¡ ĠzhÃ¬Ġ
ĠzhÃ¨Ġ zhÇĴngĠ
yÄ«ng ĠyÇĶĠ
pÃºĠ tÃ¡oĠ
ĠĠĠ yÄ«Ġ
lÃ¹ ĠdÃ¬Ġ
Ġ yÄ«ngĠguÃ³Ġ
hÃ© ĠdeĠ
shÃłngĠ hÇİiĠ
hÃ¡o ĠmÇĲĠ
ĠyÇĶĠ yÃ¡nĠ
qÇĲĠ yÃ¨Ġ
qÃŃ ĠtÄģ
fÄģng ĠdeĠ
Ġ 8
Ġ kÄĽ
hÃ²u ĠyÄ«Ġ
luÃ³Ġ mÇİĠ
Ġ tÃ³uĠ
wÃ¨nĠ tÃŃ
Ġ 3Ġ
sÄģn ĠgÃ¨Ġ
ĠchÃ©ngĠ qÅ«Ġ
sÃ¨ ĠdeĠ
2006 ĠniÃ¡nĠ
chuÃ¡nĠ tÇĴng
ĠshÃ¬Ġ fÇİĠguÃ³Ġ
yÄ« ĠdeĠ
18 ĠrÃ¬Ġ
wÃ¹Ġ zhÇĴngĠ
Ġ yÃłoĠ
Ġ E
ĠwÃ¨iĠyÃºĠ gÄģiĠguÃ³Ġ
Ġ hÄģĠ
ĠlÇĲĠ sÄ«Ġ
Ġ tÃ¡iĠwÄģnĠ
Ġ P
jÃ¬ngĠ nÃ¨iĠ
ĠbÃ¹ĠtÃ³ng ĠdeĠ
Ġ 9
Ġ mÃ²
wÃ¹ ĠlÇĲĠ
duÅį ĠdeĠ
shÃ¹ ĠwÃ¨iĠ
ĠdÃłiĠ biÇİo
biÇİo ĠxiÃłnĠ
ĠshÃ¬ĠjiÃ¨ ĠdÃłĠ
shÄĽng ĠjÃŃĠ
fÇİĠ lÇľĠ
miÃ¡o ĠshÃ¹Ġ
Ġ Äģ
gÃłn Ġ
guÄģn ĠyuÃ¡nĠ
jÄ«ngĠ guÃ²Ġ
Ġ lÃºĠ
bÃł Ġ
chÄģng Ġ
Ġ 7
ĠyÃ¬Ġ bÄģnĠ
ĠzuÃ¬ ĠhÃ²uĠ
pÃ²Ġ huÃłi
ĠguÃ³Ġ jiÄģ
yÃŃng ĠdÃ©Ġ
cÃłi Ġ
ĠsuÃŃ ĠhÃ²uĠ
12 ĠrÃ¬Ġ
zhÃ¨ng ĠzÃłiĠ
bÄģoĠ hÃ¡nĠ
ĠshÃ¬Ġ jiÃłn
bÃ³ĠwÃ¹Ġ guÇİnĠ
ĠgÅįngĠ jÄ«Ġ
21 Ġ
shÃ¨n Ġ
cÃ¨ ĠshÃ¬Ġ
chÇİng ĠdeĠ
nÃ¡ Ġ
ĠwÃ¨iĠ zhÅįngĠ
ĠlÃ¬Ġ yÃ²ngĠ
bÃ¹ ĠhÃ©Ġ
Ġ chÃ¡oĠ
zÃ© ĠshÃ¬Ġ
chÃºn Ġ
niÃ¨ Ġ
fÄĵi ĠjÄ«Ġ
ĠfÄĵn ĠbÃ¹ĠyÃºĠ
Ġ M
zhuÄģnĠ yÃ¨Ġ
zhÄĵng ĠyÃ¬Ġ
27 ĠrÃ¬Ġ
shÇĲ ĠdeĠ
16 ĠrÃ¬Ġ
fÇİĠ yuÃłnĠ
Ġ 2001ĠniÃ¡nĠ
ĠdÃ¬Ġ qÅ«
21 ĠrÃ¬Ġ
yÃ¬ ĠshÃŃĠ
yÅįng Ġ
17 ĠrÃ¬Ġ
zÄģo ĠdÃłoĠ
ĠshÃ¬Ġ yÃ¬Ġ
ĠshÄĵngĠ huÃ³Ġ
Ġ chÃ³ngĠ
ĠbÃ¨iĠ chÄĵngĠwÃ©iĠ
dÃ¬ng ĠyÃ¬Ġ
ĠzhÅįngĠ xÄ«n
ĠsuÄ« ĠrÃ¡n
ĠdÃłĠ qÅ«Ġ
sÅįu Ġ
zÅįng ĠhÃ©Ġ
ĠzhÃłnĠ zhÄĵngĠ
8 ĠrÃ¬Ġ
xuÃ© ĠdeĠ
ĠxiÃłn ĠshÃŃĠ
ĠzhÅįngĠ gÃ²ng
19 ĠrÃ¬Ġ
jÃŃ ĠwÃ¨iĠ
Ġ Ã©Ġ
ĠĠĠ C
23 ĠrÃ¬Ġ
2021 ĠniÃ¡nĠ
Ġ 13
huÃ¡ng ĠdÃ¬Ġ
ĠdeĠ zuÃ²Ġ
Ġ zhÅ«Ġ
zhÇĲ ĠshÃ¬Ġ
2022 ĠniÃ¡nĠ
11 ĠrÃ¬Ġ
Åįu ĠzhÅįu
jiÄģng ĠqÃŃĠ
ÄģĠ lÄģĠ
ĠbÃ¬ng ĠbÃ¹Ġ
yuÃ¡n ĠyÃºĠ
fÄģngĠ xiÃłngĠ
zhÃłn ĠdeĠ
liÃ¹ ĠniÃ¡nĠ
Ġ cÃ¬
Ġ F
ĠĠĠ yÃºĠ
chÅ« ĠxiÃłnĠ
liÃ¨Ġ chÄĵ
quÃ¡n ĠlÃ¬Ġ
nÇİo Ġ
guÄ«Ġ mÃ³Ġ
22 ĠrÃ¬Ġ
29 ĠrÃ¬Ġ
7 ĠrÃ¬Ġ
liÃ¨ ĠdeĠ
zuÃ¬Ġ dÃłĠdeĠ
me Ġ
duÅįĠ shÃ¹Ġ
xiÃłng ĠdeĠ
20 Ġ
xÅ«Ġ yÃło
hÃ¡i ĠshÃ¬Ġ
Ġ lÃ³ngĠ
yÃ¹ ĠdeĠ
nÃ©ngĠ gÃ²uĠ
yuÄĵĠ hÃłnĠ
ĠzhÃ¨Ġ xiÄĵ
ĠĠĠ cÇĲĠ
dÃ¬ng ĠwÃ¨iĠ
tÇĴng ĠjÃ¬Ġ
ĠxiÄģngĠ gÇİng
9 ĠrÃ¬Ġ
ĠĠĠ zhÃ¨ngĠzhÃ¬Ġ
ĠzÃłiĠ zhÃ¨Ġ
xÃ¬n ĠxÄ«Ġ
sÄģng Ġ
yÃłng ĠdeĠ
ĠxiÃłn ĠzhÃ¬Ġ
gÅįng ĠdeĠ
jÇĶĠ bÃłn
Ġ lÃ¹
liÃ¡nĠ mÃ©ng
ĠfÄĵnĠ biÃ©
qiÃº ĠduÃ¬Ġ
hÅįng Ġ
Ġ zhÄģng
chÃ¡ ĠdeĠ
14 ĠrÃ¬Ġ
lÃ¬ng ĠyÄ«Ġ
chÃ¡ng ĠshÃ¬Ġ
mÄĽiĠguÃ³Ġ rÃ©nĠkÇĴuĠpÇĶĠ
ĠĠĠ theĠĠĠ
niÇĶĠ yuÄĵ
5 ĠrÃ¬Ġ
zÇĶ ĠhÃ©Ġ
ĠhuÃ² ĠdÃ©
lÃŃn ĠshÃŃĠ
3 ĠrÃ¬Ġ
31 ĠrÃ¬Ġ
ĠzhÅįngĠ bÃ¹Ġ
wÃ¨i ĠshÃ¬Ġ
dÇĴng ĠshÃ¬Ġ
jÄ« ĠdÃ¬Ġ
gÄĵĠ shÇĴuĠ
dÅįngĠ nÃ¡nĠ
hÇİiĠ bÃ¡
Ġ bÃłoĠ
ĠĠĠ zhÅįngĠ
bÄģng ĠzhÃ¹Ġ
ĠdeĠshÃ¬Ġ zhÃ¨nĠ
Ġ rÃ¹Ġ
Ġ huÃ¡Ġ
6 ĠrÃ¬Ġ
pÄģi ĠshÃ¨Ġ
Ġ gÃ²ngĠ
Ġ liÃº
mÃ³u Ġ
ĠyÃ¬Ġ dÃłĠlÃ¬Ġ
2000 ĠniÃ¡nĠ
ĠshÃ¨ ĠlÃ¬Ġ
2 ĠrÃ¬Ġ
ĠyÃ¬Ġ bÄģn
ĠrÃ©nĠ kÇĴu
gÃ¨ ĠrÃ©nĠ
shÃ¨ ĠyÇĴuĠ
ĠdeĠ zhÅįngĠ
4 ĠrÃ¬Ġ
Ġ ãĥ
Ġ 4Ġ
bÇĲng Ġ
shÄĵngĠ yÃ¡Ġ
Ġ G
yuÃ¡n ĠhÃ©Ġ
m Ġ
2004 ĠniÃ¡nĠ
ĠdÃ¬Ġ qÅ«ĠdeĠ
ĠxuÃ©Ġ shÄĵngĠ
Ġ dÇİoĠzhÃ¬Ġ
tiÄĽĠ lÃ¹
zÃº ĠqiÃº
zÇİo ĠqÄ«Ġ
fÃ©ng Ġ
ĠqÃŃ ĠtÄģ
cÄģng Ġ
13 ĠrÃ¬Ġ
xiÅįng ĠdÃ¬Ġ
shÄĵng ĠzÃłiĠ
dÅįngĠ bÄĽiĠ
ruÇİn Ġ
mÃ¹ ĠdÃ¬Ġ
tÅįngĠ chÃ¡ngĠ
huÄ« ĠfÃ¹Ġ
Ġ ãĤ
ĠzhÃ¨ ĠyÄ«Ġ
Ġ wÇĴ
ĠshÃ¬Ġ chÇİngĠ
ĠxuÃ©Ġ yuÃłnĠ
shÄģo Ġ
pÃ¡n Ġ
Ġ biÃłnĠ
shÄĵnĠ fÃ¨nĠ
ĠĠĠ yÃ³uĠyÃºĠ
qÇĶ ĠdÃłiĠ
gÃ©Ġ mÃ¬ng
zhÇĲĠ huÄ«Ġ
Ġ mÃ©iĠyÇĴuĠ
qÃŃngĠkuÃłng ĠxiÃłĠ
Ġ B
sÅ«Ġ liÃ¡nĠ
yÃŃ ĠbÃ¹Ġ
xiÃ© ĠyÃ¬Ġ
huÃ¡ng ĠjiÄģĠ
kÄĵ ĠjÃ¬Ġ
fÄģ ĠxiÃłn
pÃ¡ng Ġ
zhÄĽng ĠgÃ¨Ġ
zhÄģn Ġ
rÃ©n ĠhÃ©Ġ
ĠgÅįngĠ chÇĲĠ
liÃ¡nĠ bÄģngĠ
Ġ hÄĵiĠ
yÄģo ĠqiÃº
yÄģn Ġ
Ġ fÃ¹
chÄģo ĠjÃŃĠ
mÃło ĠyÃ¬Ġ
yuÃ¨ ĠdeĠ
zhÇİng ĠdeĠ
xuÃ©Ġ yuÃłn
fÇİnĠ yÃ¬ng
jÇĶĠ bÃłnĠ
hÃ¡ngĠ kÅįng
cuÄ« Ġ
xÃŃ ĠjÄ«Ġ
ĠyÄĽ ĠyÇĴuĠ
huÃł ĠhÃ©Ġ
xiÇİoĠ shuÅįĠ
ĠdÃ¬Ġ lÃ¬Ġ
Ġ shÅ«Ġ
lÃ¬ ĠhÃ©Ġ
30 Ġ
nÇļĠ xÃ¬ngĠ
ĠxÄ«Ġ nÃ¡nĠ
tÃºĠ shÅ«Ġ
guÄģnĠ fÄģngĠ
xiÄģn ĠhÃ²uĠ
bÃ¬Ġ yÃ¨Ġ
tÇĴng ĠyÄ«Ġ
ĠĠĠ A
zÃ¡ Ġ
tÇĲng Ġ
Ġ hÄģ
Ġ gÃ¹
br Ġ
ĠĠĠ B
Ġ mÃłnĠ
sÃłi ĠdeĠ
hÃ³u Ġ
zÅ«n Ġ
Ġ shuÄģngĠ
ĠyÇĲĠ jÄ«ng
Ġ quÃ¨Ġ
Ġ wÄĵi
Ġ dÅįng
Ġ brĠ
xiÃ© ĠzhÃ¹Ġ
lÇİn Ġ
a Ġ
cÃ¬ ĠshÃ¬ĠjiÃ¨ĠdÃłĠ
ĠrÃºĠ guÇĴĠ
shÃłng ĠshÃ¬Ġ
qÅ«Ġ huÃłĠ
fÄĵn ĠxÄ«Ġ
Ġ K
yÇĶ ĠdeĠ
ĠÄĽrĠ shÄĽngĠ
rÃ©nĠkÇĴuĠ shÃ¹ĠliÃłng
wÃ©nĠwÃ¹Ġ bÇİoĠhÃ¹Ġ
ĠhÃ©Ġ yÄ«Ġ
a ĠĠĠ
ĠbÃ¹Ġ nÃ©ngĠ
zÃ¬ ĠxÃŃngĠ
Ġ 6Ġ
Ġ bÄĽn
jiÄĵĠ duÃłnĠ
guÇİngĠ bÅįĠ
Ġ qiÄĽĠ
ĠyÇĲĠ lÃ¡iĠ
ĠxÄ«Ġ bÄģnĠ
Ġ zÇĶĠ
Ġ cÃ¡iĠ
dÄģnĠ rÃ¨n
ĠtÄģĠ cÃ©ng
chÃŃĠ xÃ¹Ġ
tÃ¡iĠ bÄĽi
Ġ wÇĶ
wÃº ĠxiÃłnĠ
gÃ²ngĠchÇİnĠ dÇİngĠ
guÃ³ ĠhÃ©Ġ
Ġ 12
ĠyÇĲĠ xiÃłĠ
qÄ« ĠniÃ¡nĠ
tÃ¨ ĠdeĠ
dÇİoĠ yÇİnĠ
The ĠĠĠ
hÃ²u ĠyÃºĠ
rÃ©ng Ġ
yÇİnĠ chÃłng
zhÃ¹ ĠzÃłiĠ
fÄģĠ biÇİo
xiÃłĠ xiÃ¡
tiÃ¡o ĠjiÃłnĠ
pÃŃn ĠdÃłoĠ
ĠgÅįngĠ zuÃ²
yÃ¨ ĠdeĠ
jiÄģo ĠyÃ¬Ġ
hÇĶ Ġ
ĠzÃłiĠ cÃ¬Ġ
lÃłi Ġ
Ġ qiÄģnĠ
Ġ jiÇĶĠ
shÃło ĠniÃ¡nĠ
jiÃ©Ġ shÃ¹
ĠshÃ¬Ġ zhÅįngĠguÃ³Ġ
bÃło ĠdÃłoĠ
ĠrÃ©nĠkÇĴuĠmÃ¬Ġ dÃ¹ĠwÃ¨iĠ
qiÃº ĠyuÃ¡nĠ
ĠshÃ¬Ġ lÃ¬Ġ
Ġ qiÄĽ
ĠĠĠ bÃ¹Ġ
zÄģo Ġ
juÃ©Ġ sÃłiĠ
yÃ¬ngĠ yÃ²ngĠ
wÃłi ĠdeĠ
yÃ³uĠ zhÃ¨ngĠ
jiÃłn ĠlÃ¬Ġ
Ġ yÃłĠ
zÄ« ĠyuÃ¡nĠ
sÄģi ĠÄĽrĠ
ĠqÃŃ ĠhÃ²uĠ
Ġ xÄ«
zuÃ¬ ĠdÃłĠ
ĠbÃ¬ng ĠwÃ¨iĠ
Ġ L
huÃŃ ĠdÃłoĠ
cÄģo Ġ
sÃ¹Ġ dÃ¹Ġ
qÃ¬ ĠhÃ²uĠ
kÄĽĠ dÃ¡Ġ
Ġ luÃ²Ġ
ĠwÃ¨iĠyÃºĠ fÇİĠguÃ³Ġ
Ġ zhÃłoĠ
gÇİiĠ gÃ©Ġ
mÃ¬Ġ shÅ«Ġ
ĠyÄ«Ġ yuÃłnĠ
diÃłnĠshÃ¬Ġ jÃ¹Ġ
zhuÃłngĠ tÃłiĠ
zhÃ¹ ĠdeĠ
fÃ¨n ĠwÃ¨iĠ
Ġ H
Ġ 10
ĠgÅįngĠ yÃ¨Ġ
wÇİng ĠzhÃłnĠ
Ġ R
Ġ jiÄĽĠ
gÅįngĠ sÄ«Ġ
Ġ lÃ¡nĠ
jiÃ©Ġ guÇĴĠ
suÇĴĠ shÇĶĠdeĠ
ĠdeĠdÃ¬Ġ yÄ«Ġ
hÃº ĠnÃ¡nĠ
ĠyÄ«Ġ sÄ«Ġ
Ġ mÃłi
ĠzhÃ¨Ġ ge
yÃł ĠlÃ¬Ġ
ĠwÃ¨iĠ yÄ«Ġ
shÃłngĠ hÇİi
20 ĠshÃ¬ĠjÃ¬Ġ
ĠzuÃ²Ġ pÇĲnĠ
zuÇĴ ĠyÃ²uĠ
xiÇİo ĠxuÃ©Ġ
jiÃ© ĠhÃ©Ġ
shÃ¨ng ĠlÃ¬Ġ
ĠzhÅįngĠ gÃ²ngĠ
shÇĴuĠ cÃ¬
Ġ jiÃłĠ
ĠhÃło ĠxiÃłnĠ
zhÃ¨nĠ qÅ«Ġ
ĠdeĠ fÃ¹Ġ
wÃ©n ĠmÃŃngĠ
ĠjiÇİnĠ chÄĵngĠ
kÄģiĠ fÄģ
ĠsuÇĴ ĠyÇĴuĠ
yÃŃ ĠzhÃ¬Ġ
jiÃło ĠhuÃ¬Ġ
shÄĽngĠ fÃ¨nĠ
zhÇİnĠ kÄģiĠ
yÃ¬nĠ dÃ¹
shÃŃĠ qÄ«Ġ
Ġ fÇİĠguÃ³Ġ
lÇĲngĠ dÇİo
mÃ¹Ġ biÄģoĠ
ĠÃ©r ĠshÃ¬Ġ
gÄģo ĠjÃŃĠ
zhÇĶn ĠbÃ¨iĠ
wÇİngĠ luÃ²Ġ
Ġ fÄĵi
ĠjiÃłn ĠshÃ¨Ġ
xÃ¹nĠ liÃłnĠ
kÄĵ ĠdeĠ
ĠrÃ©nĠ wÃ¹Ġ
fÄģĠ biÇİoĠ
xuÇİnĠ shÇĴuĠ
jiÄģoĠ tÅįng
hÇİo ĠdeĠ
zÃ¬Ġ rÃ¡nĠ
zhÃ²ngĠyÃło ĠdeĠ
dÅįngĠ jÄ«ngĠ
chÇİnĠ pÇĲnĠ
gÃ²ngĠyÇĴuĠ rÃ©nĠkÇĴuĠ
Ġ jiÇİĠ
ĠxiÃłnĠ dÃłiĠ
ĠyÄ«Ġ mÃŃngĠ
ĠxÄ«Ġ bÄĽiĠ
juÇİn Ġ
fÄĵngĠ gÃ©Ġ
ĠchÃ©ngĠ jÃ¬Ġ
lÄĽi Ġ
ĠhÃ©Ġ dÃ¬Ġ
zÃ²u Ġ
xiÇİoĠxÃŃngĠ xÄ«ngĠ
yÃ¡nĠ zhÃ²ngĠ
zi ĠdeĠ
mÃ¹Ġ qiÃ¡nĠ
liÃº ĠxÃŃngĠ
wÃ©nĠwÃ¹ĠbÇİoĠhÃ¹Ġ dÄģnĠwÃ¨iĠ
ĠjÄ«Ġ chÇİngĠ
miÃ¨ Ġ
biÃłn ĠchÃ©ngĠ
qiÃ¡o ĠzhÃ¬Ġ
Ġ guÄģngĠ
Ġ dÄģnĠrÃ¨nĠ
lÃ¨iĠ sÃ¬
diÃłnĠshÃ¬Ġ tÃ¡iĠ
jiÄĽ ĠshÃ¬Ġ
guÃ³Ġ mÃŃnĠ
ĠyÃ¬Ġ qÇĲĠ
Ġ yÇĴngĠ
Ġ mÃłiĠ
kÄģiĠ fÃłngĠ
Ġ shÃ¨nĠzhÃ¬Ġ
ĠxiÃłĠ lÃ¬ng
Ġ yÃŃĠgÃ¨Ġ
kÇİ ĠÄĽrĠ
2003 ĠniÃ¡nĠ
xÃŃng ĠshÃ¬Ġ
dÅįu ĠyÇĴuĠ
2002 ĠniÃ¡nĠ
Ġ chÃºĠleĠ
ĠĠĠ F
zhÄ« ĠhÃ²uĠ
huÃ¬ ĠhÃ©Ġ
mÄĽi ĠpÃŃngĠfÄģngĠgÅįngĠlÇĲĠ
rÃ¹ ĠleĠ
ĠyÄ«Ġ yÃłngĠ
ĠgÅįngĠ fÄĵnĠ
ĠshÃ¨ ĠzhÃ¬Ġ
tÃ¨Ġ zhÄĵngĠ
cÄģnĠ sÃłiĠ
ĠsÄ«Ġ jÄ«Ġ
Ġ wÅ«Ġ
rÃº ĠxiÃłĠ
zhÄĵn ĠduÃ¬Ġ
Ġ dÄĽng
jiÃ¹ ĠshÃ¬ĠzhÃ¨nĠ
ĠshÃ¬Ġ fÇĴu
ĠshÃŃĠ jiÄģn
bÃłng Ġ
zhÃ¨Ġ geĠ
gÄģo ĠzhÅįngĠ
ĠcÇĲ ĠhÃ²uĠ
bÃ¬Ġ xÅ«Ġ
ĠzÃłiĠ zhÅįngĠ
wÃ¡ng ĠguÃ³Ġ
bÇĲĠ jiÃłoĠ
Ġ 00
Ã¨r ĠshÃ¬Ġ
wÃłiĠ jiÄģo
diÄģo Ġ
guÄ«Ġ huÃłĠ
Ġ chÄĵĠ
ĠyÃ¬Ġ zhÃ¬Ġ
Ġ yÇĶ
lÃ¨iĠ sÃ¬Ġ
Ġ biÇİoĠshÃ¬Ġ
shÄģnĠ dÅįngĠ
ĠrÃ¡n ĠhÃ²uĠ
ĠsuÄ« ĠrÃ¡nĠ
ĠyÃ¬Ġ zhÃŃ
ĠlÃ¬Ġ shÇĶĠyÃºĠ
yuÃ¡n ĠshÃ¬Ġ
duÃ¬ ĠzÃłiĠ
zhÃ¹ ĠmÃŃngĠ
yÃºn ĠnÃ¡nĠ
hÄĽn ĠduÅįĠ
ĠÄĽr ĠdeĠ
huÃ² ĠdÃ©
shÄĵngĠ chÇİnĠ
Ġ shÄģngĠ
ĠĠĠ gÅįngĠ
zhÃłn ĠyÃ¬Ġ
Ġ bÄĽi
zhÃ²ng ĠdeĠ
diÃłnĠ ziĠ
ĠĠĠ dÃłĠ
ĠjiÃłn ĠzhÃ¬Ġ
xÄ«n ĠjiÄģĠ
Ġ tÃºĠ
lÃ¡iĠ zÃ¬
ĠĠĠ P
zhÃ¬Ġ zuÃ²Ġ
shÄģn ĠxÄ«Ġ
rÃ©nĠkÇĴuĠshÃ¹ĠliÃłng ĠwÃ¨iĠrÃ©nĠ
Ġ gÇĶ
jÃ¹ ĠjÃŃĠ
ĠdeĠyÄ«Ġ zhÇĴngĠ
ĠdeĠ mÃŃngĠ
jÃŃ ĠhÃ©Ġ
Ã©Ġ luÃ³Ġ
U Ġ
ĠxÄ«Ġ yÃł
lÇļ ĠyÃ³uĠ
tÃło Ġ
ĠzhÃ¬Ġ zÃłoĠ
ĠxÃŃngĠ wÃ©iĠ
mÇİĠ lÃ¡i
Ġ rÃ¨n
bÃłoĠ fÄģĠ
Ġ O
nÇļ ĠÃ©rĠ
Ġ INSEE
Ġ zÇĶ
zÇĴng ĠlÇĲĠ
quÃ¡n ĠqiÃºĠ
sÄ« ĠhÃ©Ġ
ĠdeĠ zhÇĶĠ
Ġ duÃ¬ĠyÃºĠ
sÃłi ĠzhÅįngĠ
ĠshÃłngĠ hÇİiĠ
fÄģ ĠshÃ¨Ġ
ruÃ¬ ĠshÃ¬Ġ
bÄģoĠ hÃ¡n
nÃ³ngĠ yÃ¨Ġ
yÃ¨Ġ wÃ¹Ġ
lÃ¹ ĠjÅ«nĠ
tÃ³uĠ zÄ«Ġ
wÃ¹ ĠzhÃ¬Ġ
juÃ© ĠdeĠ
Ġ N
nÃłi Ġ
tÃ¨Ġ biÃ©Ġ
ĠjÃ¬n ĠshÃ¬Ġ
ĠdeĠshÃŃĠ hÃ²uĠ
ÃłoĠlÃŃnĠpÇĲĠkÃ¨Ġ yÃ¹nĠdÃ²ngĠhuÃ¬Ġ
gÃ© ĠdeĠ
ĠzhÃ¬Ġ jÄ«nĠ
fÄģngĠ ÃłnĠ
sÄ« ĠrÃ©nĠ
huÃłĠ xuÃ©Ġ
ĠtÃ¨Ġ biÃ©
chÃł Ġ
ĠdÃłĠ liÃłngĠ
jÃŃ ĠshÃ¬Ġ
ĠĠĠ M
Ġ nÃŃĠ
mÇĲn Ġ
kÄĽĠnÃ©ng ĠshÃ¬Ġ
ĠniÃ¡nĠ dÃ¹Ġ
Ġ I
jÃ¬n ĠdeĠ
ĠzhÄ«Ġ wÃłiĠ
sÃ¬ ĠshÃŃĠ
Ġ gÃ¨ngĠ
fÄģĠ dÃ²ngĠ
liÃ¡nĠ jiÄĵĠ
cÃ¡o Ġ
qiÇİn Ġ
xuÇİn ĠwÃ¨iĠ
ĠshÃ¨Ġ shÄ«Ġ
ĠwÃłn ĠrÃ©nĠ
Ġ zhÃ¨ngĠshÃ¬Ġ
chÃ¹ ĠdeĠ
tÇĶ ĠÄĽr
ĠlÃ¬Ġ sÄ«Ġ
bÃ³Ġ tÃ¨Ġ
ĠzÇĴngĠ miÃłnĠjÄ«Ġ
luÃ³Ġ mÇİ
chuÃłng ĠlÃ¬Ġ
ĠdeĠ lÃ¬Ġ
ĠniÃ¡nĠ hÃ²uĠ
ĠdÃ© ĠlÇĲĠ
guÇİngĠ chÇİngĠ
liÃ¡n ĠhÃ©ĠguÃ³Ġ
jÃŃ ĠshÃŃĠ
gÄĵngĠ mÃŃngĠwÃ¨iĠ
zÇİo ĠniÃ¡nĠ
xiÃło ĠlÃ¬Ġ
qÃ¬ ĠdeĠ
biÇİoĠ yÇİnĠ
yÃŃ ĠshÃ¬Ġ
rÃ©ng ĠrÃ¡nĠ
ĠjÅ«n ĠzÃłiĠ
fÄģngĠ miÃłn
juÃ©Ġ dÃ¬ng
Ġ zhÄĵnĠ
ĠgÄģiĠ shÄĽngĠ
dÄģ Ġ
zhÃ¬ ĠshÃ¬Ġ
ĠgÅįngĠ nÃ©ngĠ
zÇĴngĠ tÇĴng
ĠrÃ©nĠkÇĴuĠmÃ¬ĠdÃ¹Ġ mÄĽiĠpÃŃngĠfÄģngĠgÅįngĠlÇĲĠ
Ġ xiÄģnĠ
ĠrÃ©nĠkÇĴuĠmÃ¬ĠdÃ¹ĠwÃ¨iĠ mÄĽi
ĠxiÃłĠlÃ¬ng ĠshÃŃĠ
yÃ³uĠzhÃ¨ngĠ biÄģnĠmÇİĠwÃ¨iĠ
chÃ¡ĠdeĠ shÃ¹ĠjÃ¹Ġ
ĠjÃ¹Ġ lÃ¨ĠbÃ¹Ġ
ĠfÄĵn ĠzhÅįngĠ
0 Ġ
ĠĠĠ bÃ¨iĠ
Ġ xiÃłng
Ġ hÃ¡nĠ
al ĠĠĠ
ĠshÃ¬ĠzhÃ¨nĠ biÄģnĠmÇİĠwÃ¨iĠ
ĠINSEE ĠshÃ¬ĠzhÃ¨nĠbiÄģnĠmÇİĠwÃ¨iĠ
biÄģoĠ zhÇĶn
ĠshÃ¨ ĠdeĠ
xuÇİnĠ qÅ«ĠwÃ¨iĠ
ĠzÃłiĠ cÇĲĠ
ĠbÃ¹Ġ guÃ²
pÃ¡i ĠmÃŃngĠ
ĠguÃ³Ġ wÃ¡ngĠ
dÃ²ng ĠlÃ¬Ġ
Ġ xiÄģoĠ
shÃŃĠdeĠ rÃ©nĠkÇĴuĠshÃ¹ĠliÃłngĠwÃ¨iĠrÃ©nĠ
2023 ĠniÃ¡nĠ
jiÄĵĠrÇİng ĠdeĠshÃ¬ĠzhÃ¨nĠ
mÄĽiĠguÃ³ĠrÃ©nĠkÇĴuĠpÇĶĠ chÃ¡ĠdeĠshÃ¹ĠjÃ¹Ġ
jiÄģ ĠlÃ¬Ġ
cÃ³ng ĠshÃ¬Ġ
ĠÃ©r ĠrÃ©nĠkÇĴuĠmÃ¬ĠdÃ¹ĠwÃ¨iĠmÄĽi
gÃ©Ġ lÃ¡n
ĠdÄģngĠdÃ¬Ġ gÃ²ngĠyÇĴuĠrÃ©nĠkÇĴuĠ
fÄĵnĠ lÃ¨iĠ
jiÄĽĠ juÃ©Ġ
Ġ qÄ«ng
zÃº ĠdeĠ
liÃ¡nĠ bÄģng
an ĠĠĠ
dÃł ĠbÃ¹ĠfÃ¨n
yÄ«Ġ zhÇĴngĠ
shÇĲĠyÃ²ng ĠdeĠ
lÇĲng ĠyÃ¹Ġ
ĠhuÃ²Ġ jiÃ¹ĠshÃ¬ĠzhÃ¨nĠ
hÃ© ĠshÃ¬Ġ
ĠĠĠ lÃ¬Ġ
ĠchÅ«Ġ bÇİnĠ
Ġ jiÇİngĠ
yÃ¹nĠ yÃŃngĠ
shÄĽngĠjÃŃĠ xuÇİnĠqÅ«ĠwÃ¨iĠ
jÄ« ĠjÃŃĠ
ĠdeĠ yÄ«ĠbÃ¹ĠfÃ¨nĠ
shÃŃ ĠshÃ¬Ġ
gÅįu Ġ
Ã©rĠ ziĠ
jiÇĶ ĠniÃ¡nĠ
zuÃ²Ġ pÇĲn
Ġ kÄģiĠshÇĲĠ
xuÇİn ĠrÃ©nĠ
gÃłiĠ niÃłnĠ
xÄ«ng ĠdeĠ
ĠÄĽr ĠdÃ©Ġ
shÄĽng ĠhÃ©Ġ
ĠjÇĲnĠ guÇİnĠ
jiÄĵĠ shÃ²u
tiÃ¡oĠ yuÄĵĠ
fÃ¨nĠwÃ¨iĠ fÇİĠguÃ³Ġ
ĠgÄģiĠshÄĽngĠ fÃ¨nĠwÃ¨iĠfÇİĠguÃ³Ġ
ĠchÅ«Ġ bÇİn
ĠzhÄ« ĠxiÃłnĠ
tiÄĽ ĠdÃłoĠ
ĠdÃ¬Ġ sÄģn
Ġ sÃ²ngĠ
ĠniÃ¡nĠ chÅ«Ġ
ĠÃ©rĠ qiÄĽĠ
ĠjÅ«nĠ duÃ¬Ġ
guÇİng ĠzhÅįuĠ
ĠbÃ¹Ġ jiÇĶĠ
Ãło ĠdÃłĠlÃ¬Ġ
ĠwÃ¨iĠ shÃŃĠ
ĠxÄ«Ġ lÃł
fÃº ĠjiÃłnĠ
ĠyÄ«ngĠ chÇĲĠ
Ġ duÃ¬
ĠĠĠ G
ĠhÃ©Ġ bÃ¬ng
zhÃłnĠ zhÄĵng
ĠyÇĴuĠ rÃ©nĠ
pÃ¡iĠ mÃŃng
zhÃłn ĠshÃ¬Ġ
jÇĲnĠbiÄģoĠ sÃłiĠ
zuÃ¬Ġ hÃ²uĠyÄ«Ġ
qÃºnĠ dÇİoĠ
lÃ¡i ĠyuÃ¡nĠ
tÃ¨Ġ biÃ©
ĠtÄģĠ bÃ¨iĠ
jÇĲngĠ chÃ¡Ġ
xÄ«ng ĠjiÃłnĠ
ĠchÅ«Ġ shÄĵngĠyÃºĠ
Ġ ruÃ²Ġ
bÄģ ĠniÃ¡nĠ
shÃ¨ ĠlÃ¬Ġ
rÃ©ng ĠrÃ¡n
dÃ¬Ġ yÄ«Ġ
ĠrÃ¬ ĠdeĠ
Ġ gÃ¨ng
Ġ yÃ¬ĠwÃ¨iĠ
lÃºnĠ dÅ«n
bÄĽn ĠdeĠ
wÄĽi ĠhuÃ¬Ġ
ĠyÃ³uĠ xÃ¬
Ġ ãģ
ĠrÃ©nĠ gÅįngĠ
xuÃ©Ġ xiÃło
shÇİn ĠxÄ«Ġ
ĠzhÃ¬Ġ yÃºĠ
liÃ¨ ĠwÃ¨iĠ
ĠbÃ¹Ġ mÃŃngĠ
tÅįngĠ chÃ¡ng
mÇĶ ĠsÄ«Ġ
ĠmÃŃngĠ chÃ¡oĠ
yÃ¹n ĠxÃŃngĠ
cÃ©ng ĠzÃłiĠ
Ġ jiÄģoĠ
mÄĽi ĠzhÅįuĠ
tiÄģnĠ wÃ©nĠ
cÇİiĠ yÃ²ng
ĠdÃ¬Ġ sÃ¬Ġ
Ġ fÃłnĠ
yÃ¡nĠjiÅ« ĠsuÇĴĠ
guÇİngĠ fÃłnĠ
Ãło ĠsÄ«Ġ
Ã¡ng Ġ
ĠxiÃłnĠ lÃ¹Ġ
mÃ©ngĠ gÇĶĠ
gÇİnĠ rÇİnĠ
rÃ²u Ġ
ĠshÃ¬Ġ bÃ¹Ġ
yÇĲ ĠjÃŃĠ
ĠhÃ©Ġ pÃŃngĠ
ĠĠĠ tÄģ
huÃł ĠshÃŃĠ
Ġ shÇĲĠyÃ²ngĠ
zhÃłn ĠhÃ²uĠ
jiÄģĠ rÃ¹Ġ
Ġ J
nÃ¡n ĠjÃŃĠ
shuÅįĠ fÇİĠ
Ġ rÃłng
xÄ« ĠzÃłiĠ
ĠjÃ¬n ĠdeĠ
ĠrÃ¨nĠ wÃ©i
ĠjÄ«Ġ bÄĽnĠ
Ġ fÃ¨iĠ
ĠjÃ¹Ġ lÃŃĠ
t Ġ
Ġ dÃŃĠ
mÃ³ ĠxÃŃngĠ
Ġ cÄģnĠ
ĠĠĠ T
guÃ²Ġ chÃ©ngĠzhÅįngĠ
ĠdeĠdÃ¬Ġ fÄģngĠ
ĠdeĠ xÄ«nĠ
jÃ¬Ġ shÃ¹Ġ
Ġ dÃ¡Ġ
ĠjiÃłn ĠyÃ¬Ġ
ĠtÄģ ĠyÇĶĠ
yÃ¹nĠ shÅ«Ġ
gÃ²uĠ mÇİi
Ġ shÃ²u
wÃ¡n ĠquÃ¡n
wÇĶ ĠshÃŃĠ
ĠkÃ¨ ĠdeĠ
rÃ¨nĠwÃ©i ĠshÃ¬Ġ
Ġ chÃ©n
ĠzÃłiĠ yÃ¬Ġ
ĠgÃ¨ ĠdÃ¬Ġ
duÅį ĠgÃ¨Ġ
bÃłnĠ gÅįngĠshÃ¬Ġ
Ġ 10ĠyuÃ¨Ġ
tÃ³ng ĠyÄ«Ġ
wÃłi ĠguÃ³Ġ
ĠzÇĴng ĠrÃ©nĠkÇĴuĠ
xuÃ© ĠshÃ¬Ġ
shÃłng ĠyÇĴuĠ
yuÃ¡n ĠwÃ¨iĠ
jiÃłĠ zhÃŃĠ
zhÇİo Ġ
gÅįngĠ zuÃ²Ġ
ĠzÃ¬Ġ jÇĲĠ
nÃŃ ĠsÄ«Ġ
ĠzÃłiĠ zhÅįngĠguÃ³Ġ
Ġ Äģi
quÄģn Ġ
Ġ xÄ«ngĠ
and ĠĠĠ
xuÃ©Ġ xÃŃĠ
yÇİngĠ huÃłĠ
fÄĵi ĠxÃŃngĠ
Ġ jiÃ¨
xuÄģnĠ chuÃ¡nĠ
mÃ² ĠxÄ«Ġ
ĠyÄ«Ġ xiÄĵ
xuÇİnĠ zÃ©
chÄĵng ĠwÃ¨iĠ
xiÄģo ĠxÄ«Ġ
ĠxiÃłn ĠrÃ©nĠ
ĠdeĠ guÄģnĠ
Ġ chÇİngĠ
hÇİi ĠjÅ«n
biÄģo ĠzhÃ¬Ġ
ĠbÃ¹Ġ mÃ©nĠ
ĠĠĠ K
zhÃ¬ ĠwÃ¨iĠ
qÇĲĠ lÃ¡iĠ
Ġ kÄĵ
yÃ³uĠ xÃ¬
ĠĠĠ H
huÃ¡nĠ jÃ¬ng
mÃ¡ Ġ
fÃ¹ĠzÃ©Ġ guÇİnĠxiÃ¡Ġ
ĠwÃ©iĠ zhÇĶĠ
ĠĠĠ yÇĲĠ
gÃ²u ĠchÃ©ngĠ
shÄ« ĠdeĠ
xÃ¬Ġ bÄģoĠ
chÄĵĠ liÃłngĠ
zhÃ© ĠxuÃ©Ġ
Ġ ÃłnĠ
kÄĵng Ġ
ĠjÃ¬Ġ huÃł
Ġ dÇİĠ
sÄ« ĠzÃłiĠ
Ġ lÃŃn
zhÃ¨ng ĠdeĠ
dÇİng ĠdeĠ
Äģn ĠquÃ¡n
bÇĲ ĠdÃ©Ġ
ĠdÃłoĠ lÃ¹Ġ
jiÃ¨ ĠquÃ¡nĠguÃ³Ġ
chÃ¡oĠ xiÄģnĠ
yÃŃnĠ hÃ¡ng
Ġ huÄģĠ
Ġ Ã¨r
Ġ dÅįuĠ
xÄ« ĠdeĠ
ĠĠĠ R
ĠshÃ¬Ġ mÄĽiĠguÃ³Ġ
ĠshÃ¬Ġ tÃºĠ
zhÅįng ĠzÃłiĠ
ĠjÃ¬Ġ niÃłnĠ
zhÇĶĠ juÃ©Ġ
Ãłn ĠdeĠ
sÃ¬Ġ chuÄģnĠ
bÃ¹ ĠwÃ¨iĠ
ĠjÃŃĠ qÃŃĠ
pÃ©ng ĠyÇĴuĠ
1999 ĠniÃ¡nĠ
chÃŃĠ xÃ¹
Ġ fÇİnĠ
ĠĠĠ yÇĴuĠ
Ãłi ĠÄĽrĠ
ĠgÅįngĠ gÃ²ngĠ
ĠzhÄ«Ġ chÃŃ
ĠĠĠ hÃ©Ġ
kÃłng ĠyÃ¬Ġ
yuÄĵ ĠwÃ¨iĠ
tÃłi ĠguÃ³Ġ
ĠÃ©rĠ qiÄĽ
jiÄĵ ĠwÃ¨iĠ
xuÇİnĠ qÅ«Ġ
Ġ tÃ¡iĠwÄģn
shÃŃ ĠzÃłiĠ
yÃ¬ ĠhÃ©Ġ
huÃ¬ ĠyÇĴuĠ
shÄĵngĠ wÃ¹Ġ
xiÃłoĠ zhÇİngĠ
wÃ©n ĠjiÃłnĠ
ĠbÃ¨iĠ ÄĽrĠ
gÄĵĠ qÇĶ
shÅįuĠ rÃ¹Ġ
ĠjiÃ© ĠzhÃ¬Ġ
biÄģo ĠwÃ¨iĠ
n Ġ
fÃ³ ĠjiÃłoĠ
rÃ³ng ĠyÃ¬Ġ
ÃłoĠ yÃ¹n
ĠĠĠ shÃŃĠ
ĠĠĠ chÄĵĠzhÃłnĠ
ĠshÄĵngĠ wÃ¹Ġ
suÇĴĠshÇĶĠdeĠ shÄĽngĠjÃŃĠxuÇİnĠqÅ«ĠwÃ¨iĠ
Ġ qiÃ¡ngĠ
yÇİn ĠdeĠ
biÄģn ĠjÃŃĠ
qiÃłn Ġ
ĠzhÃłnĠ zhÄĵng
sÄ« ĠdÃ¬Ġ
yÄĽ ĠyÇĴuĠ
zhÃ¨ngĠ cÃ¨Ġ
qiÃ¡nĠ wÇİng
jÃ¬ ĠzhÅįngĠ
mÇĲ ĠÄĽrĠ
yÇĶĠ yÃ¡nĠ
Ġ ruÃ²
jÅ«n ĠduÃ¬Ġ
jiÄĽĠfÃłng ĠjÅ«nĠ
ÃłoĠ yÃ¹nĠ
ĠyÃ²uĠ chÄĵngĠ
tiÇİo ĠzhÃłnĠ
ĠyuÃ¡nĠ zhÃ¹Ġ
ĠchÅ«Ġ leĠ
ĠzhÃ¬Ġ dÃ¹Ġ
Ġ yÃ¹
ĠĠĠ in
24 Ġ
Ġ yÇİnĠ
gÄģo ĠyÃºĠ
wÃº ĠrÃ©nĠ
ĠshÃ¬Ġ yÃŃĠgÃ¨
ĠhuÃ² ĠshÃ¬Ġ
Ġ tÃŃĠ
gÇİn ĠdÃłoĠ
nÃ¡nĠ xÃ¬ngĠ
ĠyÇĲĠ shÃłngĠ
mÃłnĠ huÃłĠ
Ġ tÅįngĠguÃ²Ġ
gÇİiĠ biÃłnĠ
ĠĠĠ 2021
mÇİ ĠlÃ¬Ġ
ĠdÃ¬Ġ xiÃłĠ
Ġ quÃ¨
fÃ³ Ġ
jiÄĵĠrÇİng Ġ
pÃ¨i ĠhÃ©Ġ
Ġ zÃ¬
kÅ«n Ġ
tÃ³uĠ rÃ¹Ġ
jiÄģ ĠrÃ©nĠ
wÄĽnĠ dÃ¬ngĠ
1998 ĠniÃ¡nĠ
zhÇĲĠ huÄ«
ĠzhÅįngĠ yÇĴuĠ
ĠzÃłiĠ bÃ¹Ġ
tÃŃ ĠmÃŃngĠ
dÃ¡ ĠchÃ©ngĠ
ĠyÄ«Ġ zhÇĴngĠ
rÇĶ Ġ
mÃ² ĠsÄ«Ġ
nÃ¨ Ġ
fÄĵn ĠzhÄ«Ġ
ĠĠĠ E
zÃłi ĠshÃ¬Ġ
tÃ³ng ĠdeĠ
zhÄģ Ġ
jiÇİnĠ jiÃ¨Ġ
Ġ hÃ¹Ġ
shÄĵnĠ fÃ¨n
tiÄģnĠ zhÇĶĠjiÃłoĠ
ĠzhÅįngĠguÃ³Ġ rÃ©nĠmÃŃnĠ
biÇİo ĠmÃŃngĠ
duÃ³ ĠdeĠ
tÃŃngĠ zhÇĲĠ
Ġ hÃ¡iĠyÇĴuĠ
ĠĠĠ D
ĠÃ©rĠrÃ©nĠkÇĴuĠmÃ¬ĠdÃ¹ĠwÃ¨iĠmÄĽi ĠpÃŃngĠfÄģngĠqiÄģnĠmÇĲĠ
Ġ pÃŃng
xiÇİo ĠdeĠ
zhÃ¨ng ĠshÃŃĠ
cÃ¨ ĠdeĠ
zÃło ĠdeĠ
ĠwÃ¨iĠ fÃº
Ġ zhuÄģnĠ
Ġ lÃŃĠ
juÄģn Ġ
quÃ¨Ġ zhÄĽn
2024 ĠniÃ¡nĠ
ĠĠĠ 2020
ĠjÄ«Ġ bÃłiĠ
bÃłnĠ dÇİoĠ
Ġ pÃŃĠ
ĠĠĠ yuÃ¡nĠ
guÃ³ ĠzÃłiĠ
wÇĶĠ qÃ¬Ġ
tÄģĠ menĠ
Ġ bÅį
ĠjiÄģĠ nÃ¡ĠdÃłĠ
ĠpÃŃngĠfÄģngĠ mÇĲĠ
zÃ¬ĠzhÃ¬Ġ qÅ«Ġ
Ġ 8ĠyuÃ¨Ġ
lÄģ ĠkÃ¨Ġ
lÃ¨i ĠdeĠ
ĠĠĠ zÃ¬Ġ
19 Ġ
hÃ¹n ĠhÃ©Ġ
ĠzÃ¬Ġ yÃ³uĠ
ĠzÃłiĠ mÄĽiĠguÃ³Ġ
ĠshÃŃĠ yÃłn
zuÃ¬Ġ zÇİo
Ġ biÄģnĠ
jÇĶ ĠrÃ©nĠ
tuÃ¡n ĠduÃ¬Ġ
dÃ¬ ĠshÃ¬Ġ
kÄĽĠnÃ©ng ĠhuÃ¬Ġ
yÄģ ĠlÃ¬Ġ
quÃ¡n ĠbÃ¹Ġ
Ġ sÅ«
jÃ¬ ĠwÃ¨iĠ
ĠÃ©r ĠbÃ¨iĠ
ĠjÃ¬Ġ chÃ©ngĠ
gÃ²ng ĠxiÃłnĠ
jÃ¬Ġ huÃłĠ
xÄ«ĠbÄģnĠ yÃ¡Ġ
ĠshÃŃĠ shÄ«Ġ
jiÃ©Ġ mÃ¹
ĠjiÃ©Ġ guÇĴĠ
ĠdÃ¬Ġ tiÄĽĠ
X Ġ
shÄĵngĠ chÇİn
lÃ¡iĠ shuÅįĠ
lÃ¬ ĠbÃ¹Ġ
zhÃ¨Ġ zhÇĴngĠ
chÇİnĠ yÃ¨Ġ
Ġ bÃ¨i
Ġ wÃ¡ng
xÃŃngĠ dÃ²ngĠ
fÄģn ĠyÃ¬Ġ
Ġ hÃ¡i
ĠqÄ«Ġ jiÄģnĠ
ĠchÅ«Ġ rÃ¨nĠ
Ġ chuÃ¡nĠ
shÇİoĠ shÃ¹Ġ
cÄģo ĠzuÃ²Ġ
jiÇİnĠ chÃ¡Ġ
bÃłn ĠshÃ¬Ġ
jiÄģĠ nÃ¡ĠdÃłĠ
yÇĲngĠ piÃłnĠ
chÅįngĠ tÅ«Ġ
ĠzÃłiĠ dÃłĠ
ĠtÄģ ĠyÃºĠ
jÃ¬Ġ niÃłnĠ
bÇİoĠ hÃ¹
Ġ mÃ©nĠ
Ãłn ĠjiÃłnĠ
chÃ³ng ĠjiÃłnĠ
shÇĴu ĠdeĠ
amp Ġ
Ġ mÃ¹
ĠjiÃłnĠ zhÃ¹
ĠshÃŃĠ fÄĵnĠ
y Ġ
Ġ Äģn
ĠshÃ¬Ġ yÇĲĠ
xÃŃng ĠwÃ©iĠ
xÄ«n ĠlÇĲĠ
cÃ©ngĠ jÄ«ngĠ
gÃ²ng ĠtÃ³ng
ĠshÇĲ ĠdeĠ
dÃ²ng ĠdeĠ
kÅįng ĠjÅ«nĠ
bÃłn ĠgÅįngĠ
ĠzhÇĲ ĠyÇĴuĠ
ĠxiÃłn ĠwÃ¨iĠ
qÄ«Ġ jiÄģn
dÃł ĠbÃ¹ĠfÃ¨nĠ
ĠzhÃ¬Ġ zuÃ²
jiÃ©Ġ gÃ²u
nÃłn Ġ
ĠyÃ¬Ġ yÇĴuĠ
ĠlÃ¬Ġ rÃº
liÃ¡nĠ sÃłi
liÃ¡nĠ xÃ¹Ġ
juÃ©Ġ sÃ¨
jÃŃ ĠzÃłiĠ
shÄĵn ĠdeĠ
yÄģng Ġ
ĠhÃ©Ġ bÄĽiĠ
ĠwÃ¨iĠ nÃ©ngĠ
mÃ©iĠ tÇĲ
zhÇĶĠ tÃŃĠ
xiÄģngĠ duÃ¬Ġ
fÄĵnĠ biÃ©Ġ
jiÇİnĠ shÇİoĠ
ĠhÃ©Ġ liÃºĠ
gÅįngĠ yuÃ¡nĠ
tÃ²u Ġ
tÃ²ng Ġ
ĠyÃ²u ĠmÃŃngĠ
ĠyÇĲĠ sÃ¨Ġ
fÃ¨nĠ zÇĲĠ
xiÃłn ĠdÃłiĠ
ĠshÃ¬ĠyÄ«Ġ mÃŃngĠ
xiÇİoĠ zÇĶĠ
ĠtÇĲĠ zhÇİngĠ
ĠĠĠ 2019
ĠxÄ«Ġ wÃłngĠ
yÃ¬ng ĠdeĠ
wÄĽiĠyuÃ¡nĠ huÃ¬
zhÃ¨Ġ ge
ĠĠĠ L
mÃ¬ngĠ mÃŃngĠwÃ¨iĠ
Åįu ĠyuÃ¡nĠ
ĠgÅįngĠ sÄ«ĠdeĠ
ĠliÇİng ĠrÃ©nĠ
yÃ¬ ĠzÃłiĠ
dÃ²ng ĠjÄ«Ġ
dÇİ ĠjÄ«Ġ
ĠdeĠdÃ¬Ġ qÅ«Ġ
zhÇİn ĠshÃ¬Ġ
zhuÃ³ Ġ
ĠzhÃŃ ĠzhÃ¬Ġ
ĠshÃ¨Ġ qÅ«Ġ
ĠjÃ¬Ġ xÃ¹
guÄ«Ġ mÃ³
shÇĴu ĠwÃ¨iĠ
xÃºnĠ huÃŃĠ
ĠsÄ«Ġ lÃ¬ng
shÃ¹Ġ liÃłngĠ
xiÃłĠ wÇĶĠ
1996 ĠniÃ¡nĠ
lÃ¹ĠdÃ¬Ġ miÃłnĠjÄ«ĠwÃ¨iĠ
yÃ²ngĠ lÃ¡iĠ
shuÇĲĠyÃ¹Ġ miÃłnĠjÄ«ĠwÃ¨iĠ
Ġ zhÃ¨nĠ
ĠlÃ¬Ġ jÃŃĠ
qÇĲĠ yÃ²ngĠ
lÃ¨i ĠxÃŃngĠ
rÃ¨nĠ wÃ¹Ġ
d Ġ
ĠguÃ³Ġ lÃ¬Ġ
ĠshÃŃĠ zÃ¬Ġ
ĠyÄ«Ġ cÃ¬Ġ
duÅįĠ cÃ¬Ġ
pÃŃngĠ jiÃłĠ
bÃ¹ ĠshÃ¬Ġ
Ġ lÃŃngĠ
Ġ liÃ¨Ġ
Ġ 2009ĠniÃ¡nĠ
ĠĠĠ 2018
ĠdeĠ shÇĴuĠ
ĠfÃ¹Ġ jÃ¬nĠ
jÇĶ ĠxÃŃngĠdeĠ
fÃº ĠhÃ©Ġ
Ġ W
tÇĲĠ xÃ¬Ġ
Ġ wÇİngĠ
wÃłiĠ jiÄģoĠ
ĠzhÃ¨Ġ jiÄģngĠ
Ġ biÃłn
1997 ĠniÃ¡nĠ
ĠdÃłĠ shÇĲĠ
Ġ xiÃłoĠ
zuÃ²Ġ jiÄģĠ
ĠshÃ¨ ĠbÃ¨iĠ
liÇİng ĠgÃ¨
mÄĽi ĠniÃ¡nĠ
ĠlÃ¬Ġ fÇİĠ
zhÃ¹ ĠyÃ¬Ġ
Ġ ampĠ
diÃłn ĠlÃ¬Ġ
dÃ© ĠdÃłoĠ
ĠsÄ«Ġ lÃ¬ngĠ
ĠcÃ³ng ĠÃ©rĠ
fÇİĠ lÇľ
Ġ guÇİngĠ
kuÃŃ Ġ
jiÃłoĠ tÃ¡ngĠ
ĠdÄģngĠzhÅįngĠ lÃ¹ĠdÃ¬ĠmiÃłnĠjÄ«ĠwÃ¨iĠ
zhÃ¬ ĠhÃ©Ġ
ĠÃ©rĠ shuÇĲĠyÃ¹ĠmiÃłnĠjÄ«ĠwÃ¨iĠ
qÇĶĠ xiÄģoĠ
jiÃ© ĠzhÃ¬Ġ
shÄĵngĠ huÃ³
fÃºĠ wÃ¹
zhÃŃ ĠdeĠ
lÃºnĠ dÅ«nĠ
T Ġ
ĠĠĠ xÄ«Ġ
diÄģn Ġ
xuÃ©Ġ zhÄĽĠ
ĠĠĠ 2022
Ġ 11
shuÇĲ ĠpÃŃngĠ
hÇİiĠ yÃ¹Ġ
nÃ¨iĠ rÃ³ng
ĠzhÄ« ĠshÃŃĠ
zhÃ¹Ġ zuÃ²Ġ
Ġ 9ĠyuÃ¨Ġ
yÄ«ngĠ gÃ©ĠlÃ¡nĠ
ĠdÃłĠ chÃ©nĠ
ĠchÃ©ngĠlÃ¬Ġ yÃºĠ
ĠĠĠ gÃłiĠ
lÇļ ĠkÃ¨Ġ
tuÃ² Ġ
zhÃ¬ ĠzÃłiĠ
jiÄĵ ĠjÃ¬nĠ
ĠxÄ«nĠ wÃ©nĠ
chÃ¡ngĠ qÄ«Ġ
i Ġ
ĠwÃ©iĠ ÄĽrĠ
lÃ¬ngĠ wÃłiĠ
ĠĠĠxÃŃngĠzhÃ¨ngĠ qÅ«ĠhuÃłĠ
rÃ¨nĠ mÃ¬ng
ĠjiÄģĠ shÃłngĠ
e Ġ
yuÃłnĠ zhÇİngĠ
bÇĲĠsÃłi ĠzhÅįngĠ
jÇĲ ĠyÇĶĠ
diÇİn ĠdeĠ
xÄ«Ġ yÃ¡ngĠ
ĠyÇĲĠ hÃ²uĠ
ĠjÅ«n ĠwÃ¨iĠ
mÃŃn ĠdeĠ
shuÃ² ĠshÃ¬Ġ
Ġ huÃŃĠ
ĠdÃ© ĠdeĠ
wÄĵiĠ liÃ¡nĠ
wÄĽiĠ shÅ«ĠjÃ¬Ġ
ĠyÃ¬Ġ rÃ©nĠ
jiÄģ ĠhÃ©Ġ
tÃłiĠ yÃ¡ngĠ
1992 ĠniÃ¡nĠ
Ġ zhÅįngĠdeĠ
dÇİo ĠyÇĶĠ
pÄ«Ġ zhÇĶnĠ
dÃłi ĠyÇĴuĠ
hÄĵng ĠlÃ¬Ġ
Ġ guÄ«Ġ
ĠshÃ¬Ġ yÄ«ĠwÃ¨iĠ
ĠxuÃ©Ġ xiÃło
ĠwÃ¨iĠfÃº ĠqÃŃĠyÃºĠ
Ġ 7ĠyuÃ¨Ġ
guÅį Ġ
gÄģoĠ sÃ¹
cÄģnĠ yÃ¹
cÃ¬ĠshÃ¬ĠjiÃ¨ĠdÃłĠ zhÃłnĠ
ĠshÃ¬Ġ qÅ«Ġ
fÄģ ĠchÅ«Ġ
xÃ¬ng ĠzhÃ¬Ġ
yÇİnĠchÃłng ĠhuÃ¬Ġ
quÃłn Ġ
ĠyuÃ¡nĠ yÄ«nĠ
ĠĠĠ yÃ¬Ġ
tÇİoĠ lÃ¹nĠ
Ġ formulaĠ
tuÃ¬ ĠyÃ¬Ġ
bÇĲĠ yÃłĠ
fÄĵngĠ bÃłoĠ
P Ġ
Ġ mÃ©ngĠ
Ġ tuÅįĠ
jÄ« ĠzhÃ¬Ġ
xÃ¬n ĠhÃłoĠ
yÃł ĠdeĠ
nÃ©ngĠ gÃ²u
shÃ²uĠ shÄģngĠ
ĠjiÃłn ĠchÃ©ngĠ
Ġ cÃŃĠ
ĠĠĠ 2017
wÃ¨iĠ zhÃ¬Ġ
liÃ¡nĠ xÃ¬Ġ
ĠrÃºĠ guÇĴ
Ġ huÇĴĠ
rÃº ĠhÃ©Ġ
bÃ¬Ġ xÅ«
ĠtÇĲĠzhÇİngĠ kÄĽĠdÃ¡Ġ
ĠÄĽrĠ tÃ¨Ġ
bÇİoĠ chÃŃĠ
zhuÄģn ĠjiÄģĠ
fÅ« ĠrÃ©nĠ
jiÇİng ĠxiÃłngĠ
chÄģ ĠyÃ¬Ġ
ĠjÄ«ngĠ guÃ²Ġ
Ġ xuÄģnĠbÃ¹Ġ
ĠjÄ«Ġ gÃ²u
ĠzÃłiĠ yÃºĠ
ĠdeĠyÄ«Ġ zuÃ²Ġ
ĠtÅįngĠ chÃ¡ngĠ
shÃ²u ĠyÇĶĠ
wÅį Ġ
Ġ gÇİi
Ġ 2010ĠniÃ¡nĠ
wÇİng ĠlÃ¹Ġ
jÄ«ngĠ yÃŃngĠ
Ġ 12ĠyuÃ¨Ġ
Ġ mÃŃnĠguÃ³Ġ
gÃ²ngĠchÇİnĠ dÇİng
Ġ 21Ġ
dÅįng ĠxÄ«Ġ
ĠkÃ¨ ĠlÇĲĠ
ĠshÄĵngĠ chÇİnĠ
ĠbÃ¹Ġ lÇĲĠ
diÃłnĠ tÃ¡iĠ
tÄģn Ġ
ĠyÇĲĠ xiÃł
cÅ«nĠ zhuÄģngĠ
Ġ 11ĠyuÃ¨Ġ
lÃ¡i ĠdÃłoĠ
suÃŃ ĠhÃ²uĠ
miÇİo Ġ
kÃło Ġ
ĠzhÄ« ĠzhÅįngĠ
Ġ zhÅ«
bÃ¬Ġ yÃ¨ĠyÃºĠ
xÃ¹nĠ liÃłn
cuÃ² ĠshÄ«Ġ
fÇİ ĠdeĠ
ĠyÃ¬Ġ shÃ¹
zÇĴngĠ dÅ«Ġ
Ġ chÃ¡ng
zhÃ¹Ġ mÃŃngĠdeĠ
ĠshÃ¬Ġ yÇĴuĠ
ĠjiÃłnĠ duÃ¬Ġ
kuÃłiĠ sÃ¹Ġ
zhÃ¹ ĠyÃºĠ
shÃ© Ġ
1994 ĠniÃ¡nĠ
ĠshÃŃĠ rÃ¨nĠ
ĠyÄ«Ġ shÄĵngĠ
gÅ« ĠjÃ¬Ġ
hÃ¡iĠ ziĠ
Ġ rÃłngĠ
ĠÄĽr ĠhÃ©Ġ
tÃłiĠpÃŃngĠ yÃ¡ngĠ
ĠjiÃ©Ġ mÃ¹Ġ
ĠĠĠ 2016
yÃ¡nĠ gÃ©Ġ
tÃ³ng ĠyÃ¬Ġ
shÄĵng ĠwÃ¨iĠ
Ġ fÄģngĠ
dÇİo ĠshÃ¬Ġ
chÃ©ngĠ gÅįngĠ
xÃ¬Ġ liÃ¨
le ĠdÃłĠ
Ġ tw
lÃłng Ġ
o Ġ
fÄģĠ diÃłnĠ
ĠshÃłngĠ hÇİi
zhÃłn ĠzhÅįngĠ
ĠdeĠ qiÃ¡nĠ
ĠrÃ©nĠ lÃ¨iĠ
sÃ¬ ĠgÃ¨Ġ
shÇİng Ġ
jiÃ©ĠshÃ¹ ĠhÃ²uĠ
ĠdÃ© ĠyÇĲĠ
pÇĶĠ tÅįngĠ
ĠdeĠshÃŃĠ qÅ«ĠwÃ¨iĠ
Ġ xiÇİng
ĠzhÃ¨ngĠ cÃ¨Ġ
Ġ shÃ¨ng
ĠmÃŃngĠ chÄĵngĠ
chÃ¨Ġ xiÄģoĠ
yÇĶ ĠzhÅįngĠ
Ġ yÃ¬nĠdÃ¹Ġ
ĠĠĠ zhÃ¬Ġ
Ġ yÃ¡ng
Ġ hÃ¡oĠmÇĲĠ
tÃ³uĠ piÃłoĠ
dÇĲĠ dÃ¡Ġ
fÄģ ĠdeĠ
ĠjÇĲnĠ guÇİn
jÃºĠ zhÇİngĠ
ĠdeĠshÃŃĠ jiÄģnĠ
ĠĠĠ andĠĠĠ
Ġ qÄ«
1995 ĠniÃ¡nĠ
zhÃ¨Ġ xiÄĵ
gÃ¨ng ĠjiÄģĠ
ĠwÃ¨iĠ shÄĵngĠ
yuÃ¨Ġ tÃ¡iĠ
ĠpÃŃngĠ tÃ¡iĠ
fÇİnĠ huÃŃĠ
Ġ qiÃ¡n
guÇİng ĠxÄ«Ġ
zhÃ¡i Ġ
fÄĽi Ġ
hans Ġ
kuÃ² ĠdÃłĠ
hÄģ ĠÄĽrĠ
zÇĶĠ chÃ©ngĠdeĠ
Ġ hansĠ
yÃ¬ ĠzhÅįngĠ
dÄĵng ĠlÃ¹Ġ
rÃ³ng ĠyÃ¹Ġ
Ġtw Ġ
Ġ chÄĵng
yuÃ¨ ĠshÃŃĠ
zhÃ²ng ĠdÃłĠ
lÃ¹ ĠyÃ¬Ġ
Ġ sÃłĠ
ĠshÃ¬Ġ yÇİnĠ
quÃ¨Ġ dÃ¬ngĠ
zhÇĲ ĠzÃłiĠ
yÃ¨ ĠhÃ²uĠ
ĠbÃ¹Ġ kÄĽĠ
Ġ TheĠĠĠ
ĠbÃ¬ngĠ mÃ©iĠyÇĴuĠ
ĠcÇĲ ĠshÃŃĠ
ĠĠĠdeĠ shÃŃĠ
Ġ chuÃłngĠ
Ġ ÄģĠÄĽrĠ
jÃ¬n ĠxÃŃng
Ġ lÇľĠ
Ġ xiÃł
ĠmÃ¹Ġ qiÃ¡n
ĠĠĠ 2023
wÇİn ĠshÃłngĠ
jiÃłoĠ qÅ«Ġ
qÃ¬Ġ chÄĵĠ
mÃŃngĠ chÄĵngĠ
yÃłĠlÃ¬Ġ shÄģn
wÃ¹Ġ zhÇĴng
guÄģnĠ zhÃ²ngĠ
ĠxuÃ©Ġ xÃŃĠ
gÇİiĠ biÄģn
on Ġ
ĠguÃ³Ġ wÃ¹Ġ
ĠzhÄ« ĠyuÃ¡nĠ
yuÃłn ĠdeĠ
xiÄģoĠ shÃ²uĠ
ĠgÅįngĠ yÃ¨
bÄģ ĠxÄ«Ġ
ĠhuÃ²Ġ zhÄĽĠ
ĠĠĠ 2014
rÃ¹Ġ kÇĴuĠ
xiÄģngĠ tÃ³ngĠ
bÄģĠ lÃŃĠ
F Ġ
bÇİn ĠdeĠ
pÃ²ĠhuÃłi Ġ
xuÃ© ĠhÃ©Ġ
sÇĶn ĠshÄ«Ġ
biÇİo ĠxiÃłn
ĠshÃŃĠ xiÃłnĠ
xÄ«Ġ lÃł
fÄģĠxiÃłnĠ leĠ
kÃłn ĠdÃłoĠ
pÄģn Ġ
qÄ«Ġ zÇĲĠ
guÄģnĠ zhÃ¹Ġ
ĠcÃ©ng ĠrÃ¨nĠ
Ġ zhÇĴngĠ
nÇİi Ġ
S Ġ
x Ġ
ĠbÃ¬ng ĠyÇĲĠ
qiÇİng Ġ
xiÅįngĠ yÃ¡
Ġ 6ĠyuÃ¨Ġ
ĠĠĠ suÇĴĠshÇĶĠdeĠshÄĽngĠjÃŃĠxuÇİnĠqÅ«ĠwÃ¨iĠ
ĠĠĠdeĠ yÃ³uĠzhÃ¨ngĠbiÄģnĠmÇİĠwÃ¨iĠ
ĠĠĠyÇĶĠ jiÄĵĠrÇİngĠdeĠshÃ¬ĠzhÃ¨nĠ
ĠĠĠyÃºĠ shÃŃĠdeĠrÃ©nĠkÇĴuĠshÃ¹ĠliÃłngĠwÃ¨iĠrÃ©nĠ
ĠĠĠdeĠshÃŃĠ qÅ«ĠwÃ¨iĠ
ĠĠĠ jÄ«Ġ
zhuÄģng ĠzhÃ¬Ġ
zhÃŃ ĠwÃ¨iĠ
Ġ 2011
jÃ¬ ĠhÃ©Ġ
ĠzuÃ²Ġ yÃ²ngĠ
ĠquÃ¡nĠ zhÇİngĠ
tÃº ĠzhÅįngĠ
sÅ«Ġ liÃ¡n
kÄģiĠ fÃłng
xÅ« ĠqiÃºĠ
ĠzhÄ«Ġ mÃŃngĠ
lÃŃn ĠdeĠ
ĠsÄ«Ġ lÄģĠ
shÃŃ ĠwÃ¨iĠ
ĠniÃ¡nĠ qÄ«ng
hÃ©ngĠ xÄ«ngĠ
ĠquÃ¡n ĠbÃ¹Ġ
tuÄ«Ġ dÃ²ngĠ
wÃ©i ĠdeĠ
ĠshÃ¬Ġ zhÇİngĠ
guÇİnĠ lÇĲ
Ġ 2019
cÃ¡n Ġ
rÃ¹Ġ qÄ«nĠ
rÃºĠ cÇĲĠ
Ġ hk
Ġ tiÄģn
ĠjiÄģĠ tÃŃngĠ
tÃ¡iĠ bÄĽiĠ
yÃŃĠ dÃ²ngĠ
Ġ zhuÇİnĠ
yÇĶ ĠhÃ©Ġ
fÃ¹ ĠdeĠ
ĠyÄ«Ġ dÃłiĠ
jÃ¬n ĠshÃ¬Ġ
ĠchÅ« ĠxiÃłnĠzÃłiĠ
zhÃ¨Ġ jiÄģngĠ
ĠĠĠ 2015
mÇĶĠ qÄ«nĠ
xiÅįngĠyÃ¡ ĠlÃ¬Ġ
mÃ¹ ĠsÄ«Ġ
1991 ĠniÃ¡nĠ
ĠrÃ©nĠ shÃ¹Ġ
fÃ¹Ġ qÄ«nĠ
ĠdÃłn ĠtÄģĠ
ĠxÄ«ĠbÄģnĠ yÃ¡
mÃŃnĠ zÃº
Ġ gÄģnĠ
tÃ¡i ĠdeĠ
ĠdÃ¬Ġ qiÃºĠ
Ġ duÃłnĠ
Ġ miÃłnĠ
ĠshÃ¬Ġ zhÇĲĠ
Ġ jÇĲn
zuÃ¬ ĠchÅ«Ġ
tÃŃ ĠshÄĵngĠ
fÄĵi ĠjiÃłnĠzhÃ¬Ġ
Ġ chÄĵĠzhÃłnĠ
Ġ V
ĠĠĠ 2013
Ġ 5ĠyuÃ¨Ġ
xÃ¹nĠ sÃ¹Ġ
Ġhk Ġ
ĠsÄ«Ġ tÇİnĠ
shÃ¹Ġ xuÃ©Ġ
22 Ġ
guÇİngĠ bÅį
ĠwÃ¨iĠ hÃ©Ġ
ĠbÃ¬ng ĠlÃ¬Ġ
ĠchÃ©ngĠwÃ©iĠ leĠ
C Ġ
niÇĶĠ yuÄĵĠ
Ġ jÄ«ng
fÄģ ĠxÃŃng
ĠjÃ¬nĠ rÃ¹
tÃ¨ ĠlÇĲĠ
kÃłng ĠrÃ¬Ġ
ĠhÃ©Ġ xÄ«nĠ
ĠgÃ¨Ġ zhÇĴngĠ
ĠjÃŃĠ qÃŃ
fÄģĠ shÄĵng
zÇĴng ĠbÃ¹Ġ
shÅįu ĠlÃ¹Ġ
gÇİo Ġ
ĠshÃ¬Ġ rÃ©nĠ
r Ġ
jiÃło ĠdeĠ
lÃ¡n ĠkÃ¨Ġ
mÃ¡ng Ġ
cÃ¡i ĠzhÃ¨ngĠ
chÃłngĠ piÃłnĠ
ĠzuÃ²Ġ pÇĲn
ĠĠĠniÃ¡n Ġ
mÃŃng ĠyÃ¬Ġ
on ĠĠĠ
sÃł ĠkÃ¨Ġ
ĠjÃ¬Ġ zÇİiĠ
ĠzhÅįngĠ wÃ©nĠ
juÃ©Ġ sÃłi
jÃ¬n ĠgÅįngĠ
ĠshÃ¬Ġ jÃŃĠ
qÇĲ ĠyÃ¬Ġ
cÄģn ĠyÃ¬Ġ
15 Ġ
Ġ zÃłoĠchÃ©ngĠ
zhuÃłngĠ kuÃłngĠ
ĠxiÃłn ĠyÃºĠ
lÇľ ĠwÃ¨iĠ
ĠĠĠ zhÅįngĠguÃ³Ġ
le ĠtÄģĠ
cÄģnĠ kÇİoĠ
zÄĵngĠ zhÇİngĠ
gÄģoĠ dÃ¹Ġ
chÇİnĠ pÇĲn
fÄĵiĠjiÃłnĠzhÃ¬Ġ dÃ¬ĠqÅ«Ġ
Ġ huÃ¡ng
dÅįu ĠhuÃ¬Ġ
ĠhÃ©Ġ bÃ¬ngĠ
ĠjÃ¬Ġ suÃłn
ĠshÄĵngĠ huÃ³
wÃ¡ng ĠdeĠ
suÄ« ĠrÃ¡nĠ
diÃłoĠ chÃ¡
Ġ Ã©ĠluÃ³ĠsÄ«Ġ
zhÃ²ngĠ diÇİnĠ
Ġ dÇİoĠ
zhÃłnĠ dÃ²uĠ
chÄģi Ġ
ĠdÃłĠ lÃ³uĠ
ĠĠĠ W
hÇİi ĠdÃłoĠ
chÃłngĠ piÃłn
ĠrÃ©nĠ menĠ
Ġ fÃ¡ngĠ
ĠĠĠ O
wÄĵiĠ xiÃ©Ġ
Ġ hÃ²u
Ãło ĠdÃ¬ĠlÃ¬Ġ
ĠhÃ©Ġ zhÅįngĠ
shÃłngĠ shÅ«Ġ
ĠwÃ©iĠ qÃŃĠ
kÇİn Ġ
lÇĲngĠdÇİo ĠrÃ©nĠ
ĠxiÄģngĠ guÄģnĠ
jÄ«ngĠ shÃ©nĠ
jiÄģ ĠzhÅįngĠ
ĠyÄ«n ĠÃ©rĠ
yuÃ¨ ĠzÃłiĠ
liÇİng ĠrÃ©nĠ
ĠniÃ¡nĠ shÃŃĠ
k Ġ
ĠbÃ¹Ġ duÃłnĠ
cÄģnĠjiÄģĠ leĠ
yÃŃngĠ yÃ¹nĠ
huÃł ĠwÃ¨iĠ
jiÄģng ĠxÄ«Ġ
ĠdeĠchÃ©ngĠ yuÃ¡nĠ
jiÃ© ĠkÃ¨Ġ
tÃºĠshÅ«Ġ guÇİnĠ
ĠhÃ©Ġ chÃ©ngĠ
zhÇĶĠ chÃŃĠ
ĠzhÅįngĠguÃ³Ġ gÃ²ngĠchÇİnĠdÇİngĠ
jÃ¹ ĠdeĠ
nÃł ĠlÇĲĠ
Ġ 4ĠyuÃ¨Ġ
Ġ yÇĴuĠshÃŃĠ
zhÃłnĠ dÃ²u
Ġ huÃ¡
jÃ¬nĠ rÃ¹
mÇĴuĠ xiÄĵĠ
Ġ xiÇİo
shÄĵn ĠwÃ¨iĠ
jÅ« ĠzhÃ¹Ġ
zÃ¬Ġ dÃ²ngĠ
xiÃłĠjÃ¬Ġ ÃłoĠlÃŃnĠpÇĲĠkÃ¨ĠyÃ¹nĠdÃ²ngĠhuÃ¬Ġ
yÄ«n ĠshÃ¬Ġ
mÃŃnĠ zhÃ²ngĠ
25 Ġ
1988 ĠniÃ¡nĠ
ĠxiÃłngĠ mÃ¹Ġ
chÇİnĠ shÄĵngĠdeĠ
Ġ zuÇĴĠ
ĠĠĠ zhĠ
ĠzÃłiĠ jiÄģĠ
Ġ qiÃ¡oĠ
shuÅį ĠmÃŃngĠ
Ġ wÄĽiĠ
ĠzhÃ¨ngĠ zhuÃłngĠ
yÇĲnĠ fÄģĠ
jiÄģngĠ sÅ«Ġ
dÄģo Ġ
ĠhuÃ²ĠdÃ©Ġ leĠ
ĠzhÄ«Ġ xiÃłĠ
ĠshÃ¬Ġ wÄĵiĠ
xiÇİoĠ shuÅį
Ġ xÇĶĠduÅįĠ
ĠĠĠjiÄģĠ zÃºĠ
to ĠĠĠ
ĠshÃ¬Ġ zhÃ¨n
ĠgÅįngĠ rÃ©nĠ
Ġ xuÇİnĠ
dÃ¬ng ĠleĠ
yÅįu ĠshÃ¬Ġ
bÃ¡ Ġ
lÃ¡n ĠqiÃºĠ
1993 ĠniÃ¡nĠ
ĠdÃłĠ duÅįĠ
zhÅįu ĠdeĠ
Ġ biÄģn
jÃ¬ ĠshÃŃĠ
xiÇİn ĠdeĠ
zÄ«Ġ xÃ¹nĠ
ÃłoĠyÃ¹n ĠhuÃ¬Ġ
sÃ¹ ĠdeĠ
ĠdÃłĠ xÃŃngĠ
Ġ wÃ©n
Ġ 2018
Ġ dÃºĠ
wÃ¨i ĠĠĠ
ĠyuÃ¨Ġ nÃ¡nĠ
y ĠĠĠ
Ġ zhuÄģngĠ
Ġ pÃ¨iĠ
ĠjÃŃĠ lÃ¬Ġ
ĠzhÅįngĠ huÃ¡Ġ
qÇĶ ĠdÃ©
ĠlÃ¡iĠ zÃ¬Ġ
yuÃ¡n ĠzÃłiĠ
ĠbÃ¹Ġ mÃ©n
xiÄģngĠ dÄģngĠ
ĠdÃłnĠ yÃ³uĠyÃºĠ
fÇİngĠ wÃ¨nĠ
zhÃŃ ĠdÃłoĠ
chuÄģng Ġ
jiÃłoĠ wÃ©iĠ
xiÃłngĠ mÃ¹
ĠshÃ¬ĠwÃ¨iĠ leĠ
jiÃ©Ġ hÅ«nĠ
ĠlÇĲĠ lÃ¹nĠ
pÇĲnĠ pÃ¡iĠ
3 ĠniÃ¡nĠ
suÄ« ĠrÃ¡n
Ġ xiÃ©Ġ
Ġ ÅįuĠ
xÃŃ ĠwÃ¨iĠ
ĠdÃ¬Ġ wÇĶĠ
ĠyuÃ¨Ġ tÃ¡iĠ
cÄģnĠ jiÄģ
zhÅįng ĠwÃ¨iĠ
d ĠĠĠ
zhÄĵn ĠshÃŃĠ
zhÅįngĠ huÃ¡ĠrÃ©nĠmÃŃnĠgÃ²ngĠhÃ©ĠguÃ³Ġ
Ġ yÄ«ng
yÇĴu ĠbÃ¹Ġ
yÃ¬n ĠdÃ¬Ġ
mÄĽiĠ shÃ¹Ġ
Ġ tiÃ¡nĠ
Ġ lÇİoĠ
mÃ¬ngĠ lÃ¬ngĠ
16 Ġ
xuÃ©Ġ shÃ¹Ġ
xÄ«ngĠ qÄ«Ġ
ĠdeĠgÅįngĠ zuÃ²Ġ
Ġ shÃłng
ĠĠĠ 2025
2020ĠniÃ¡nĠ mÄĽiĠguÃ³ĠrÃ©nĠkÇĴuĠpÇĶĠchÃ¡ĠdeĠshÃ¹ĠjÃ¹Ġ
jiÃłn ĠshÃ¨Ġ
jÇĶ ĠxÃŃng
fÃ¡ng ĠyÃ¹Ġ
ĠrÃ¨nĠ wÃ¹Ġ
wÇĶĠ zhuÄģngĠ
Ġ zhÃ¨ng
yÃŃĠ chÇİnĠ
tiÃ¡oĠ zhÄĽngĠ
zhÃ²u Ġ
ĠshÃŃĠ yÄ«Ġ
ÃłoĠ mÃ©nĠ
ĠniÃ¡nĠ bÃ¨iĠ
tÃŃĠ gÄģoĠ
ĠC Ġ
yÇĶnĠ xÇĶĠ
Ġ jiÇĶ
ĠzhÃ¬Ġ shÃŃĠ
ĠjiÄģĠ rÃ¹
ĠzhÄ«Ġ hÃ²u
Ġ dÃ¬ngĠ
bÃłoĠ dÇİoĠ
fÄĵiĠ lÇľĠ
ĠĠĠ J
wÇİ ĠÄĽrĠ
yÇĲĠ lÃ¡iĠ
le ĠtÄģĠdeĠ
huÃ¬ ĠyuÃ¡nĠ
ĠshÃŃĠ qÄ«
jÃ¬Ġ lÃ¹Ġ
ĠjÄ«Ġ guÄģnĠ
dÅ« ĠshÃ¬Ġ
cuÃ¬ Ġ
leĠ yÃŃĠgÃ¨Ġ
huÃł ĠjiÄģĠ
jÄ«Ġ chÇİngĠ
ĠfÃ¹Ġ zÃ©
yÃŃĠ mÃŃnĠ
shÅ« ĠdeĠ
13 Ġ
jÃ¹Ġ lÃŃĠ
shÃ¹Ġ zÃ¬Ġ
ĠshÃ¬ĠyÄ«Ġ zhÇĴng
jÄ«n ĠdeĠ
ĠrÃ©nĠ lÃ¨i
Ġ chÄĵngĠwÃ©iĠ
ĠĠĠ 2024
ĠhÃ©Ġ shÃŃĠ
hÅįngĠ zhÃł
Ġ shÄ«
ĠzÃ¬ĠjÇĲ ĠdeĠ
jiÄĵ ĠjÃŃĠ
duÃłn ĠdeĠ
dÅ« ĠjiÃłoĠ
lÃ¬ ĠshÃ¬Ġ
kÃ¨ ĠlÇĲĠ
Ġ hÃ³ng
Ġ zhuÇİn
yÃ¡n ĠdeĠ
yÃŃng ĠdeĠ
huÄģ ĠyuÃ¡nĠ
shÄģnĠ mÃłi
shÄĵng ĠjÃŃĠ
yuÄĵ ĠyÇĴuĠ
ĠshÃ¬Ġ dÃłĠ
yÃ²ngĠ hÃ¹Ġ
wÃ©nĠ zÃ¬Ġ
ĠsuÃ¬ ĠdeĠ
ĠwÃłnĠ mÄĽiĠyuÃ¡nĠ
miÃłn ĠduÃ¬Ġ
yÄģoĠ qÇĲngĠ
Ġ liÃ¡ngĠ
Ġ 2011ĠniÃ¡nĠ
dÅįng ĠjÃ¬Ġ
zÄ«Ġ jÄ«nĠ
dÄĽng ĠwÃ¨iĠ
ĠlÃ¬Ġ shÇĲ
wÇĶĠ tÃ¡iĠ
Ġ guÄģn
Ġ xÃº
sÃº Ġ
ĠshÃ¨ ĠjÃŃĠ
hÃ¡nĠ shÃ¹Ġ
23 Ġ
ĠzhÃ¬Ġ lÃ¬Ġ
gÄģoĠ dÄĽngĠ
Ġ 2016
ĠsuÇĴ ĠyÇĲ
yuÃ¡n ĠjÃŃĠ
ĠrÃ©nĠ mÃŃn
ĠhÃ©Ġ lÃ¡nĠ
shÄĵnĠ qÇĲngĠ
Ġ 2005ĠniÃ¡nĠ
dÃ²ngĠ zuÃ²Ġ
xiÃłoĠ guÇĴĠ
Ġ 3ĠyuÃ¨Ġ
Ġ hÃ¡nĠguÃ³Ġ
mÄĽiĠ guÃ³ĠdeĠ
Ġ jÃ¹
Ġ 2008ĠniÃ¡nĠ
19 ĠshÃ¬ĠjÃ¬Ġ
4 ĠniÃ¡nĠ
ĠmÃŃngĠchÃ¡oĠ zhÃ¨ngĠzhÃ¬ĠrÃ©nĠwÃ¹Ġ
ĠĠĠ zÇİoĠniÃ¡nĠ
jiÃłoĠ liÃłnĠ
ĠĠĠ xÄ«nĠ
ĠxiÃłn ĠhÃ©Ġ
ĠrÃ¬Ġ jÅ«nĠ
xiÃłĠ lÃ¬ng
liÇİngĠ zhÇĴngĠ
1990 ĠniÃ¡nĠ
lÇĲngĠ tÇĶĠ
p Ġ
Ġ xiÅ«Ġ
ĠyuÃ¡nĠ mÃŃngĠ
nÇĶ ĠlÃ¬Ġ
zhÃ¨ngĠ mÃŃngĠ
I Ġ
Ġ zhÄģo
ĠĠĠ hÃ²uĠ
an Ġ
lÃ¹ ĠjÅ«n
ĠzhÅįngĠ yÃºĠ
zuÃ²Ġ yÃ²ngĠ
Ġ pÃ¨i
qÅ«Ġ yÃ¹
jÄ«ngĠ chÃ¡ngĠ
liÃ¨Ġ biÇİoĠ
ĠĠĠ yÃ³uĠ
yÇĴu ĠzÃłiĠ
ĠyÃ¬Ġ yÃ¬Ġ
yÇĲngĠ piÃłn
ĠyuÃ¡nĠ gÅįngĠ
ĠzhÅįu ĠniÃ¡nĠ
ĠjÃ¬n ĠxÃŃng
ĠnÃ¡n ĠzhÃ¬Ġ
ĠguÃ³Ġ huÃ¬Ġ
ĠgÅįngĠ huÃ¬Ġ
guÄģnĠ xÃ¬
Ġ chÃ¬Ġ
ĠjÃ¬Ġ zhÄĽĠ
nÃ¨iĠ lÃ¹Ġ
zhÇİo ĠdÃłoĠ
wÃ¡ngĠ chÃ¡o
le ĠĠĠ
jÄ«ng ĠlÇĲĠ
lÇļ ĠxÃŃngĠ
shÃ©nĠ jÄ«ngĠ
Ġ lÇĲ
ĠshÃ¬Ġ hÃ²uĠ
yÃ²ngĠ zuÃ²Ġ
Ġ juÃ©
lÇĲĠ lÃ¹nĠ
huÃŃĠ yÃ¬ngĠ
ĠgÅįngĠ chÇİngĠ
fÃ¹Ġ jÃ¬nĠ
yÃº ĠzÃłiĠ
Ġ bÃ³
c Ġ
Ġ hÄĽnĠ
tÃłi ĠrÃ©nĠ
ĠhÃ©Ġ gÅįngĠ
kÄĽĠyÇĲ ĠzÃłiĠ
Ġ luÃ³
suÃ¬ ĠdÃłoĠ
bÇİoĠ chÃŃ
zhÄ«Ġ jiÄģnĠ
tÃŃ ĠdÃłoĠ
ĠwÃłn ĠyuÃ¡nĠ
ĠchÃ©ngĠ xiÃłnĠ
chÅ«Ġ bÇİnĠ
ĠniÃ¡nĠ1ĠyuÃ¨Ġ 1ĠrÃ¬Ġ
ĠjÄ«Ġ chÄĵĠ
jiÇĶĠ diÃłnĠ
ĠshÃŃĠ Ã¨rĠ
Ġ bÇĲ
Ġ lÃŃ
Äģi ĠjÃŃĠ
gÃ© ĠwÃ¨iĠ
qÃ¬Ġ xiÃłngĠ
D Ġ
shÇĴu ĠjÄ«Ġ
tÄ« Ġ
ĠguÃ³Ġ fÃ¡ng
kÅįng ĠzhÅįngĠ
ĠniÃ¡n ĠshÃ¬ĠjiÃ¨Ġ
Ġ zhÃ¹
ĠĠĠ V
er Ġ
bÃ¨i ĠshÃ¬ĠwÃ¨iĠ
tÅįng ĠdÃłoĠ
kÇĴng ĠbÃ¹Ġ
guÄ«Ġ zÃ©Ġ
qÃŃĠzhÅįngĠ yÄ«ĠzhÇĴngĠ
zuÃ² ĠwÃ¨iĠ
shÇĴuĠ dÅ«Ġ
wÇĴĠ men
ĠdeĠ zhÃ¬Ġ
ĠwÇĴĠ menĠ
lÃ¬ ĠwÃ¨iĠ
shÅ« ĠjÃŃĠ
ĠÃ©r ĠchÃ©ngĠ
t ĠĠĠ
Ġ fÇİn
Ġ lÃ©iĠ
1984 ĠniÃ¡nĠ
dÅįngĠ nÃ¡nĠbÃ¹Ġ
yÇĲ ĠxiÃłĠ
yÇİn ĠyÃ¬Ġ
ĠxÄ«Ġ wÃłng
jÄ« ĠhÃ©Ġ
dÃłĠ lÃ¹ĠdeĠ
Ġ liÃłngĠ
qÇĲĠ yÃ¨
ĠzuÃ²Ġ wÃ©i
2 ĠniÃ¡nĠ
dÃłi ĠlÇĲĠ
mÄĽng Ġ
ĠdeĠ jiÄģĠ
jÄ«nĠ shÇĶĠ
jÃ¬nĠ yÃŃĠbÃ¹Ġ
xÄ«nĠjiÄģĠ pÅį
lÃ¡o ĠdÃ²ngĠ
zhÇĶĠ chÃŃ
jiÃłoĠ xuÃ©Ġ
biÇİoĠ miÃłnĠ
gÃ¹Ġ wÃ¨nĠ
Ġ yÄ«ngĠyÇĶĠ
nÄ« Ġ
ĠhÃ©Ġ xÄ«Ġ
ĠbÃ¹Ġ bÃ¹Ġ
Ġ Ð
ĠyÇĴuĠ jÄ«Ġ
cÃ¡iĠ liÃłoĠ
chÃ¡oĠ xiÄģn
Ġ2001ĠniÃ¡nĠ rÃ©nĠkÇĴuĠ
Ġ gÃ©
dÃło ĠlÃ¹Ġ
huÃ¡ ĠrÃ©nĠ
ĠzÃłiĠ wÃ¨iĠ
ĠbÄĽiĠ qÇĲĠ
jÃ¬ng ĠdeĠ
sÇĲ ĠhÃ²uĠ
bÇİoĠ liÃºĠ
bÅįĠ lÃ¡n
g Ġ
Ġ tÇĶĠ
tÅįngĠ chÄĵĠ
sÄ« ĠlÃ¬Ġ
1989 ĠniÃ¡nĠ
ĠzhÅįngĠguÃ³Ġ dÃłĠlÃ¹Ġ
bÃ¡iĠ sÃ¨Ġ
yÃłĠlÃ¬ĠshÄģn ĠdÃłĠ
Ġ bÄģnĠ
huÃ¬ ĠshÃ¬Ġ
ĠyÇĲĠ bÃ¨iĠ
M Ġ
jÅ«Ġ mÃŃn
zhÇĶ ĠlÃ¬Ġ
ĠpÃŃngĠ miÃłnĠ
nÃŃ ĠkÃ¨Ġ
ĠtÄģ ĠwÃ¨iĠ
Ġ 2021
zhÇĶ ĠdeĠ
ĠzhÄ«Ġ jiÄģn
fÄĵn ĠzhÅįngĠ
ĠsÄ«Ġ tÃ¨
Ġ chÃ¡Ġ
nÇļĠ zÇĲ
yÇĲnĠ qÇĲĠ
ĠxiÃłnĠdeĠ yÃŃĠgÃ¨Ġ
Ġ tÃŃĠgÅįngĠ
ĠdÃłoĠ dÃ¡Ġ
fÇİĠ ÃłnĠ
yÇĲnĠ qÇĲ
ĠnÇļĠ xÃ¬ngĠ
zhÃłoĠ kÄģiĠ
ĠdÅįngĠ nÃ¡nĠ
yÃ¹n ĠzuÃ²Ġ
ĠĠĠ 2012
jiÄģo ĠhuÃ¬Ġ
5 ĠniÃ¡nĠ
shÇĴu ĠgÃ¨Ġ
tuÃ¬ ĠchÅ«Ġ
zhÃłi Ġ
dÃ¬Ġ Ã¨rĠ
ĠÃ©rĠ yÃ¡nĠ
ĠxiÃłnĠdeĠ yÃŃĠgÃ¨
Ġ hÇİi
ĠbÃ¨iĠ rÃ¨nĠwÃ©iĠshÃ¬Ġ
Ġ yÅįngĠyÇĴuĠ
Ġ jÃ¹ĠyÇĴuĠ
lÃ¬ ĠzÃłiĠ
ĠjÄ«Ġ hÅ«
ĠkÃ¨ ĠchÃ©ngĠ
wÃ©nĠ zhÄģngĠ
jÇĲ ĠgÃ¨Ġ
zhÃ¡ Ġ
ĠshÃ¬Ġ jiÄģĠ
ĠyÇĴuĠ yÃ¬Ġ
tÃ¨Ġ shÅ«Ġ
Ġ qÇĶĠ
ĠxÄ«Ġ sÄ«Ġ
xiÄģngĠ guÄģn
shÄ«Ġ fÃłn
ĠfÃ¹Ġ qÄ«nĠ
wÃºĠ fÇİ
Ġ gÇİngĠ
cÄģnĠ mÃ³u
jÄ«n ĠhuÃ¬Ġ
jiÃ¨ ĠdeĠ
jiÃłoĠ shÄ«Ġ
cÃ©ngĠ jÄ«ng
ĠĠĠ xiÃłĠ
lÇľĠ shÄ«Ġ
fÄĵi ĠzhÅįuĠ
ĠshÃ¬Ġ yÇĶĠ
Ġ sĠĠĠ
xÄ«ĠbÄģnĠ yÃ¡
dÃł ĠwÃ¨iĠ
ĠyÄ«Ġ jÃŃĠ
Ġ fÃ©ngĠ
chÃ¡ng ĠdeĠ
ĠbÃ¹Ġ dÃ©
ĠtÄģĠmen ĠzÃłiĠ
wÄĵi ĠjÄ«Ġ
ĠyÃ¬Ġ fÄģngĠmiÃłnĠ
fÇİĠ yuÃłn
yÃŃĠ zhÇĲĠ
ĠÃ©rĠshuÇĲĠyÃ¹ĠmiÃłnĠjÄ«ĠwÃ¨iĠ 0
ĠguÃ³Ġ jiÄģĠdeĠ
zhÄĽ ĠzÃłiĠ
ĠhÃ©Ġ qÃŃĠtÄģĠ
yÃł ĠzhÅįu
ĠzhÇĶĠ xÃŃĠ
jÄ«nĠ pÃ¡iĠ
chÄĵ ĠdeĠ
ĠzhÄ« ĠwÃ¨iĠ
ĠbÃ¬ngĠ jiÄģngĠ
kÄģng ĠxÄ«Ġ
es Ġ
ĠchÃ©ngĠ xÃ¹Ġ
yÃłoĠ wÃ¹Ġ
xÃ¬ĠtÇĴng ĠdeĠ
ĠwÃ¨iĠ yÇĴuĠ
biÇİoĠ dÃ¡
Ġ00 Ġ
ĠĠĠ chÃ©ngĠ
ĠchÃ©ngĠ rÃ¨nĠ
zhÃŃĠ mÃŃn
guÃ²Ġ qÃ¹Ġ
pÃºĠtÃ¡oĠ yÃ¡
dÃł ĠdÃ¬Ġ
biÃłn ĠdÃ©Ġ
ĠzhÃ¬Ġ liÃ¡oĠ
huÄģnĠ yÃŃngĠ
wÃ©n ĠxiÃłnĠ
lÄĽng Ġ
duÅį ĠniÃ¡nĠ
ĠsÄ«Ġ kÃ¨Ġ
ĠjÃ¬nĠxÃŃngĠ leĠ
ĠxÃ¬Ġ liÃ¨Ġ
mÃ¹Ġ biÄģo
Ġ fÃ¨i
Ġ guÄģnĠyÃºĠ
zhÃ¹ ĠlÇĲĠ
zhuÄģng ĠshÃ¬Ġ
dÅįngĠ bÄĽiĠbÃ¹Ġ
gÃ²uĠ zÃłoĠ
huÃ²ĠdÃ©Ġ leĠ
bÃ³ĠwÃ¹Ġ guÇİn
ÃłoĠdÃłĠlÃ¬Ġ yÃłĠ
e ĠĠĠ
Ġ bÇİiĠ
ĠqiÃº ĠyuÃ¡nĠ
Ġ 100
Ġ bÃłnĠ
jiÄģng ĠhuÃ¬Ġ
fÃº ĠyÃ¬Ġ
bÄĽn ĠdÃ¬Ġ
ĠÃ©rĠ gÄģiĠdÃ¬Ġ
xiÄģn ĠshÄĵngĠ
ĠbÃ¹Ġ lÄģĠ
bÅįĠ lÃ¡nĠ
Ġ qÇĲ
ĠyÃºĠ lÃ¨Ġ
jiÄģĠ rÃ¹
fÃłngĠ qÃ¬Ġ
jiÃłn ĠyÃ¬Ġ
Ġ 2015
dÄģngĠ shÃŃĠdeĠ
ĠqÄ«Ġ xÄ«ĠzÃłiĠ
mÃ¡o ĠzÃ©Ġ
xiÃło ĠdeĠ
sÃł ĠsÄ«Ġ
yÃ¬Ġ dÃłĠlÃ¬Ġ
ĠbÃ¬ng ĠyÇĶĠ
Ġ gÄģo
zÃ© ĠwÃ¨iĠ
ĠdÃłĠ lÃ¹Ġ
te ĠĠĠ
1985 ĠniÃ¡nĠ
fÃ¹Ġ qÄ«n
ĠwÃ¨iĠ lÃ¡iĠ
Ġ 2007ĠniÃ¡nĠ
zÃ¬Ġ yÃ³u
Ġ bÇİnĠ
ĠĠĠ cÃ³ngĠ
ĠjiÃłnĠ zÃłoĠ
ĠjÃ¬nĠ yÃŃĠbÃ¹Ġ
liÃº ĠzÃłiĠ
shÅįu ĠshÃ¬Ġ
ĠdeĠ zhÃ¨ngĠ
chÄĵng ĠzuÃ²Ġ
nÃ¡nĠ jÄ«ngĠ
ĠjÃ¬n ĠgÅįngĠ
sÃł ĠÄĽrĠ
guÇİngĠ gÃłoĠ
Ġ cÃ¨Ġ
luÃ³ ĠdÃ¬Ġ
jÇĲn ĠjÃŃĠ
ĠshÃ¬Ġ zhÃ¨ngĠ
ĠfÃ¹Ġ qÄ«n
ĠjÃ¬Ġ shÃ¹
ĠhÃło ĠwÃ¨iĠ
jÃ¬Ġ xÃ¹Ġ
tÇİn ĠkÃ¨Ġ
Ġ shÅįuĠ
1949 ĠniÃ¡nĠ
ĠdeĠ shÄĵngĠ
ĠrÃ©nĠ men
ĠrÃ¬Ġ jÅ«n
ĠyÃ¬Ġ mÄĽiĠyuÃ¡nĠ
xÃ¬Ġ jÃ¹Ġ
cÃ¬Ġ shÇĲĠ
Ġ 2013
ĠzÃłiĠ cÇĲ
ĠtÃ¨ĠbiÃ© ĠshÃ¬Ġ
huÇĴ ĠjiÃłnĠ
ĠjiÄģĠ zÃºĠ
piÃłoĠ fÃ¡ngĠ
bÇĲĠlÃ¬Ġ shÃŃĠ
qÇĲng ĠqiÃºĠ
jÇĲngĠ fÄģngĠ
kÇİoĠ lÇľ
R Ġ
l Ġ
ĠshÃ¬Ġ rÃ¬ĠbÄĽnĠ
ĠniÃ¡n ĠĠĠ
ĠjiÃ©Ġ guÇĴ
tÃłiĠpÃŃngĠ yÃ¡ng
zhÄģnĠ mÇĶĠsÄ«Ġ
Ġ 30
Ġ hÃ¨Ġ
ĠsÄ«Ġ tÇİn
Ġ 2014
ĠchÅ«Ġ shÄĵngĠ
ĠmÄĽi ĠniÃ¡nĠ
dÃ¬ ĠzÃłiĠ
ĠyÇĲ ĠyÇĴuĠ
shÃłngĠ wÇĶĠ
tÃ³uĠ piÃło
bÄģĠ lÃŃ
wÃ¡ngĠ chÃ¡oĠ
ĠĠĠ jiÃ©ĠzhÃ¬Ġ
nÃ¨i ĠyÇĴuĠ
biÄģn ĠdeĠ
wÃ¡n ĠgÅįngĠ
shÃŃĠ jiÄģnĠ
ĠzhÃ¬Ġ chÃ©ngĠ
guÇİngĠdÅįngĠ shÄĽngĠ
quÃ¨ ĠrÃ¨nĠ
pÄģi ĠshÃ¨
ĠyuÃ¡nĠ bÄĽnĠ
Ġ zhÃło
chÇİng ĠhÃ©Ġ
ĠqÃŃ ĠzÃłiĠ
ĠzhÄ«Ġ ziĠ
mÇĶĠ qÄ«n
shÄĵnĠ tÇĲĠ
Ġ Ã©
fÄĽn Ġ
ĠdÃłĠ yuÄĵĠ
ĠzhÄ« ĠdeĠ
mÃ©ngĠ gÇĶ
Ġ sÃłiĠ
Ġ bÄ«ngĠ
Ġ lÇļĠ
gÇĶĠ fÃ¨n
ĠzhÃłnĠ dÃ²uĠ
xÃŃĠ xÃ¬ng
gÃ¨ng ĠduÅįĠ
hÃºĠ bÄĽiĠ
ĠyuÄĵĠ hÃłnĠ
Ġ jÄ«ngĠjÃ¬Ġ
dÄĵng ĠshÃłngĠ
ĠxiÃłnĠ chÇİngĠ
Ġ dÃ¨ng
ĠĠĠ zÄĵngĠ
suÇĴ ĠzÃłiĠ
qÃŃngĠ bÃłoĠ
ĠyÄ«ngĠ wÃ©nĠ
wÃłi ĠbÃ¹Ġ
zhÃ²ng ĠyÃ¬Ġ
mÃŃnĠ jiÄģnĠ
mÃ¬Ġ mÃ¬Ġ
xiÃło ĠyuÃ¡nĠ
ĠshÃ¬Ġ yÃ¨Ġ
ĠzÃłiĠ qÃŃĠ
guÄģnĠ bÃ¬Ġ
guÇİngĠ fÃłn
kÇİoĠ lÇľĠ
tÃ¨Ġ sÃ¨Ġ
Ġ hÃ©ngĠ
ĠyÇĴuĠ xiÃłnĠ
sÄĵnĠ lÃŃnĠ
mÇİ ĠsÄ«Ġ
Ġ yÃ¡n
Ġ 2020
Ġ xiÇİngĠ
Ġ sÃłiĠjÃ¬Ġ
wÃ¹ ĠyuÃ¡nĠ
cÃ¹n Ġ
Ġ xÃºnĠ
ÄģnĠ pÃ¡iĠ
ĠwÇĴĠ men
chÄ« Ġ
ĠquÃ¡n ĠqiÃºĠ
Ġ cÄģnĠjiÄģĠ
Ġ ÄģiĠ
xiÃł ĠyÄ«Ġ
mÄĽi ĠgÃ¨Ġ
ĠdÃłĠ duÅįĠshÃ¹Ġ
chÃ©ng ĠniÃ¡nĠ
Ã¨r ĠyuÃ¨Ġ
ĠbÃ¹Ġ jiÇĶ
yÇİnĠ chÃłngĠ
liÇİng ĠniÃ¡nĠ
zhuÄģng ĠbÃ¨iĠ
zÃ¨ng Ġ
ĠdÃłĠ dÃłoĠ
Ġ wÃ²
ĠzuÃ¬Ġ gÄģoĠ
nÃ©ng ĠzÃłiĠ
ĠjÄ«Ġ bÃłi
tÇĶĠÄĽr ĠqÃŃĠ
qiÄģn ĠzhÃ¬Ġ
huÇİn Ġ
1986 ĠniÃ¡nĠ
ĠdÃ¬ĠyÄ«Ġ cÃ¬Ġ
Ġ 10Ġ
chÇİng ĠdÃ¬Ġ
mÃŃnĠzhÇĶĠ dÇİngĠ
tiÄģn ĠdeĠ
Ġ zhÅįngĠshÃ¬Ġ
14 Ġ
ĠshÃŃĠ yÃłnĠ
zuÃ²Ġ zhÃłnĠ
Ġ gÄģngĠ
nÃ¡n ĠyÇĲĠ
ĠjÃŃĠ bÄĽiĠ
ĠchÅ«Ġ lÃ¡iĠ
tÃ¡iĠ fÄĵngĠ
Ġ kÇİ
xÃ¬ngĠ qÃ¹Ġ
tiÄģnĠ jÄ«nĠ
ĠtÅįngĠ chÃ¡ng
Ġ 2017
bÃłn ĠlÇĲĠ
18 Ġ
ĠzhÄ« ĠdÃłoĠ
tiÄģnĠ jÄ«n
lÃ³ngĠ jiÄģngĠ
lÇĲng ĠshÃ¬Ġ
ĠbÃ¹Ġ zÃºĠ
yÃ²ngĠ tÃºĠ
lÇĲ ĠgÅįngĠ
Ġ kÄģngĠ
ĠyuÃ¡nĠ sÃ¹Ġ
wÄĵi ĠÄĽrĠ
nÃ³ngĠ yÃ¨
ĠqÄ«ngĠ chÃ¡oĠ
Äģi ĠÄĽrĠ
ĠchÃ©ngĠ dÃ¹Ġ
zhÃłnĠ lÇĲngĠ
chÃ¡ng ĠjiÃłnĠdeĠ
ma Ġ
jÃ¬nĠxÃŃngĠ leĠ
ĠshÇĲ ĠjiÃłnĠyÃºĠ
ĠĠĠ xiÃłn
ĠĠĠ mÃŃngĠ
dÇİo ĠdÃłnĠ
xiÅ« ĠzhÃ¨ngĠ
ĠyuÃ¨Ġ tuÃ¡nĠ
guÃ¬ ĠzhÅįuĠ
fÄĵn ĠbÃ¹ĠyÃºĠ
xÇĲ ĠjÃ¹Ġ
ĠgÅįngĠ zhÇĶĠ
ĠtÄģĠ hÃ¡iĠ
ĠzhÃłnĠ dÃ²u
mÇİĠlÃ¡i ĠxÄ«ĠyÃłĠ
xÃŃĠxÃ¬ng ĠbÃ¹ĠmÃŃngĠ
Ġ xuÄģnĠ
ĠshÃŃĠ dÃłi
zhÃłngĠ ÃłiĠ
ĠwÃ©nĠ huÃłĠ
ĠchÅ«Ġ qÄ«Ġ
xiÃłng ĠshÃ¬Ġ
te Ġ
huÃ¡Ġ shÃ¨ngĠ
shÄĵng ĠchÃ©ngĠ
ĠyÇĴuĠ xiÄĵĠ
ĠshÄĵngĠ chÇİn
rÃ¨nĠmÃ¬ng ĠwÃ¨iĠ
ĠyÃ¬Ġ qÇĲ
fÇİĠ guÄģnĠ
ĠyÄĽĠ jiÃ¹ĠshÃ¬Ġ
Ġ tÃ¡oĠ
ĠĠĠ tÄģĠ
ĠdeĠ fÄģngĠshÃ¬Ġ
ĠhÃ©Ġ hÃ©Ġ
jiÄģoĠ liÃºĠ
zÇĶ ĠjiÃłnĠ
ĠshÄĵngĠhuÃ³Ġ xÃŃĠxÃ¬ngĠbÃ¹ĠmÃŃngĠ
Ġ rÃ³ngĠ
Ġ chÇĶĠyÃºĠ
shÃ¨ ĠzhÃ¬Ġ
shÃ²u ĠdÃło
tÃŃ ĠchÅ«
ĠwÃłn ĠlÃ¬Ġ
jÄ«Ġ chÇĶĠ
ĠtÄģĠ yÄĽĠ
Ġ gÃ²ng
Ġ luÃ²
hÄĽn ĠdÃłĠ
kÇĶ Ġ
Ġ gÃ²ngĠyÇĴuĠ
Ġ gÄĵnĠjÃ¹
zhÃ¬ ĠzhÅįngĠ
bÃłoĠ fÄģ
Ġ yÃŃnĠ
zhÇĶ ĠshÃ¬Ġ
ĠĠĠ mÄĽiĠguÃ³Ġ
lÇĲngĠ xiÃ¹Ġ
Ġ hÃłn
jÃ¹Ġ juÃ©Ġ
lÄģĠ dÄ«ng
ĠÃ©rĠ bÃºĠshÃ¬Ġ
chuÃ¡nĠ shuÅįĠ
huÃłĠhÃ©Ġ wÃ¹Ġ
Ġ ruÃ¬Ġ
rÃ¨n ĠshÃŃĠ
Ġ kÇĴngĠ
bÃło ĠlÃ¬Ġ
ÄģnĠ zhuÄģng
ÄģnĠ nÃłĠ
ĠyÄ«Ġ xuÃ©Ġ
wÇĴĠ menĠ
ĠĠĠ lÇĲĠ
Ġ pÃł
zhÃ¬ ĠbÃ¹Ġ
jiÄģĠlÃ¬Ġ fÃºĠ
shÃº Ġ
ĠyÇĴuĠ yÃŃĠgÃ¨Ġ
ĠxiÃłnĠ xiÃłngĠ
shÃłngĠ yÃ¬ngĠ
fÇİ ĠyÇĶĠ
wÃ©n ĠyÃ¬Ġ
qiÃ³ng Ġ
ĠzÃłiĠ nÃ¨iĠdeĠ
Ġ diÃłnĠyÇĲngĠ
gÄģoĠ sÃ¹Ġ
chuÃłngĠ bÃłn
1987 ĠniÃ¡nĠ
ĠzÃłiĠ dÃ¹Ġ
ĠÃ©r ĠbÃ¹Ġ
jÃ¬ ĠshÃ¬Ġ
yuÃłn ĠshÃ¬Ġ
ĠwÃ¨iĠ xÄ«ngĠ
ĠlÇĲĠ lÃ¹n
o ĠĠĠ
yÃ¡nĠ shÄĵn
hÇİiĠ ÃłnĠ
ĠA Ġ
chuÃłng ĠjiÃłnĠ
bÄ«n ĠhÇİiĠ
shÃ¹n ĠlÃ¬Ġ
ĠdÅįngĠ bÄĽiĠ
ĠĠĠcÇĲĠ wÃłiĠ
m ĠĠĠ
Ġ 2013ĠniÃ¡nĠ
lÃ©i ĠsÄ«Ġ
ruÇİn ĠjiÃłnĠ
ĠshÄĵngĠ zhÇİng
ĠyÃ³u ĠqÃŃĠshÃ¬Ġ
Ġ shÇĶ
tuÄ« ĠjÃ¬nĠ
ĠhÃ©Ġ bÃ¹Ġ
shÅ«Ġ rÃ¹Ġ
zÄ«Ġ chÇİnĠ
lÃ¹nĠ wÃ©nĠ
ĠxÃŃngĠ zhÃ¨ng
nÇļĠ xÃ¬ng
wÇİng ĠqiÃºĠ
hÇİiĠ wÃłiĠ
Ġ nÃł
Ġ Ã¨Ġ
Ġ wÇİĠ
ĠbÃ¹Ġ luÃ²Ġ
ĠdÃłĠ shÃł
1980 ĠniÃ¡nĠ
zhÇĶĠ yÃ¬ĠdeĠ
pÃŃngĠ lÃ¹nĠ
zuÃ¬Ġ gÄģo
Ġ 2010
Ġ tÇİĠ
yÃ¬ngĠ yÃ²ng
cÇİiĠ qÇĶĠ
Ġ 50
Ġ 2012
jiÃło ĠshÃ¬Ġ
pÃ¡iĠmÃŃng ĠdÃ¬Ġ
Ġ sÄģiĠ
Ġ 2006ĠniÃ¡nĠ
biÃłn ĠwÃ¨iĠ
zÅ« Ġ
b Ġ
ĠbÄĽiĠ jÄ«ngĠ
ĠĠĠ qÃŃĠ
yÃº ĠdeĠ
bÅįĠ fÃłngĠ
jÃ¹ ĠhÃ©Ġ
sÄģn ĠshÃ¬Ġ
ĠzÃłiĠ xÄ«Ġ
rÃ©nĠ dÃłĠ
ĠdÃ© ĠÄĽrĠ
ĠhÃ²uĠ xuÇİnĠrÃ©nĠ
bÃłoĠ gÃło
Ġ tiÃ¡oĠ
tÃ³uĠ zÄ«
mÇİ ĠlÇĲĠ
zÃ© ĠrÃ¨nĠ
rÇİo Ġ
fÄģngĠ miÃłnĠdeĠ
yÇĲnĠ qÃŃngĠ
gÃ¨Ġ zhÇĴngĠ
shÃ¬ ĠĠĠ
ĠshÃ¬Ġ mÃŃnĠ
ĠhÃ©Ġ dÃłĠ
diÃłnĠ zi
lÇĲng ĠdÃ¬Ġ
ĠzÃłiĠ cÃ¬
fÃłnĠwÃ©iĠ nÃ¨iĠ
ĠĠĠjÃ¹Ġ qÃŃngĠ
Ġ yÃŃngĠ
ĠĠĠ qiÃ¡nĠ
zhÃ¨ ĠlÇĲĠ
xiÄģng ĠshÃ¬ĠdÃ¬Ġ
ĠyÃºĠ rÃ©nĠ
zhÃ¨ngĠ dÇİngĠ
ĠrÃ¬Ġ bÃłoĠ
ĠlÃ¬ng ĠyÄ«Ġ
xÃŃng ĠchÃ©ngĠ
fÄģ ĠxÃŃngĠdeĠ
ĠjÄ«Ġ hÅ«Ġ
zhÃŃĠ jiÄĵ
fÄĵng ĠwÃ¨iĠ
pÃłi ĠdeĠ
1982 ĠniÃ¡nĠ
ĠshÃ¬Ġ gÃ¹Ġ
7 ĠniÃ¡nĠ
Ġ lÃ¡i
ĠzhÃ¬Ġ shÇİoĠ
biÇİoĠ dÃ¡Ġ
wÇİngĠ luÃ²
Ġ Ã
Ġ yÃ²ngĠyÃºĠ
yuÃłn ĠyÃ¬Ġ
ĠtÄģ ĠhÃ©Ġ
jÃ¹Ġ lÃ¨ĠbÃ¹Ġ
ĠĠĠ chÅ«Ġ
dÃºĠ lÃ¬ĠdeĠ
6 ĠniÃ¡nĠ
ĠzhÄ«Ġ fÃ¹Ġ
jiÇĶĠ lÃ³ngĠ
dÄģngĠ xuÇİnĠ
hÃ¨ ĠÄĽrĠ
zÃ¬Ġ rÃ¡n
ĠĠĠ xiÃłnĠ
ĠyÇĴuĠ xiÃłoĠ
xÃ¬Ġ bÄģo
Ġ 20
bÃº Ġ
wÄĵn ĠdÃ¹Ġ
1945 ĠniÃ¡nĠ
1983 ĠniÃ¡nĠ
jÃ¬Ġ chÃ©ngĠ
diÃłnĠ nÇİo
yÇĶnĠ xÇĶ
3 ĠrÃ©nĠ
ĠyÄ«Ġ xiÇİoĠshÃŃĠ
jÇĲngĠ chÃ¡
huÇĴĠ shÄģnĠ
ĠĠĠ N
ĠdÃłĠ xÄ«ĠyÃ¡ngĠ
guÃ²Ġ qÃ¹
pÃ¡iĠ hÃ¡ngĠ
E Ġ
Äģn ĠdÃ©Ġ
jiÃ¹Ġ dÃº
ĠdÅįngĠ lÃŃnĠ
miÃ¡n Ġ
zhÄ«Ġ chÃŃ
fÇİngĠ wÃ¨n
mÃŃngĠ zÃ¬Ġ
ĠzuÃ²Ġ jiÄģĠ
Ġ shuÅįĠ
dÇİng ĠyuÃ¡nĠ
ĠdÃłĠ fÃºĠ
qÅ« ĠyÃ¬ĠhuÃ¬Ġ
17 Ġ
ĠdÃ©Ġ huÃ¡Ġ
2 ĠrÃ©nĠ
Ġ 2012ĠniÃ¡nĠ
huÃłn ĠchÃ©ngĠ
biÇİoĠ yÇİn
dÅįu ĠzÃłiĠ
ĠdÃ¬Ġ yÃŃĠgÃ¨Ġ
xiÃłn ĠzhÃ¬Ġ
ĠyÇĶĠ mÃ¡o
ĠchÅ«Ġ zhÃłnĠ
bÇĲĠ yÃł
ĠĠĠdÃ¬Ġ fÄģngĠ
Ġ fÄģnĠ
xiÄģngĠ dÄģng
xÇĲĠ huÄģn
Ġ jiÃ¹ĠshÃ¬Ġ
ĠbÃ¬ng ĠbÃ¨iĠ
fÄģngĠ yÃ¡nĠ
qÅ« ĠhÃ©Ġ
ĠyÄ«Ġ tÃ³ngĠ
ĠzhÅįngĠhuÃ¡ĠrÃ©nĠmÃŃnĠgÃ²ngĠhÃ©ĠguÃ³Ġ zhÃ¨ngĠzhÃ¬ĠrÃ©nĠwÃ¹Ġ
ĠshÃ¬Ġ yÃºĠ
jÄ«ngĠ yÃłnĠ
xÃºnĠ yÃ¡ng
ĠjÃ¬Ġ suÃłnĠ
pÇĶĠ biÃłnĠ
ĠzhÅįngĠ bÃ¨iĠ
guÄģnĠ diÇİnĠ
jiÃłngĠ dÄ«Ġ
kÄĵĠdeĠ qÃŃĠzhÅįngĠyÄ«ĠzhÇĴngĠ
K Ġ
Ġ shÄĵngĠyÃºĠ
ĠgÅįngĠ yÃ¬Ġ
Ġ rÃ©ng
hÃ¡n ĠyÇĴuĠ
liÇİng ĠmÃŃngĠ
diÇİn ĠlÇĲĠ
ĠshÃ¬Ġ gÅįngĠ
zhÃ²ngĠ duÅįĠ
dÃł ĠzhÃ¬Ġ
ĠbÃ¬ngĠ dÃº
ĠqÃŃĠzhÅįngĠ yÄ«Ġ
Ġ nÃ©ngĠ
yÃł ĠjÅ«nĠ
shÃ¨Ġ qÅ«Ġ
kÇĴu ĠwÃ¨iĠ
chÃ©ngĠ yuÃ¡nĠ
ĠxiÃłn ĠshÃ¬Ġ
zhÄ«Ġ qiÃ¡nĠ
mÃ¬ĠshÅ«Ġ zhÇİngĠ
ĠĠĠ 2
ĠĠĠ 2011
ĠdÃ¬Ġ sÃ¬
zuÃ² ĠshÃ¬Ġ
tiÃ¡o ĠlÃ¬Ġ
nÃ¨iĠ gÃ©Ġ
Ġ pÃŃngĠjÅ«nĠ
shÃ¹ ĠyÇĶĠ
wÃº ĠzhÃ¨ngĠzhuÃłngĠ
ĠxiÃłnĠ rÃ¨nĠ
tÅ«Ġ pÃ²Ġ
xiÄĽ ĠdÃłoĠ
dÃłng ĠtiÄģnĠ
yÃŃĠ dÃ¹Ġ
ĠzÇĶ ĠfÃ¹Ġ
1 ĠlÃ¬Ġ
Ġ liÃ¹
ĠxÃŃng ĠwÃ¨iĠ
Ġ wÃ¡nĠ
ĠgÅįngĠ mÃŃnĠ
xÄ«ngĠ dÄĽngĠwÃ¨iĠ
ĠbÇĲĠ sÃłiĠ
ĠtÃ³ng ĠyÃ¬Ġ
hÃ³ngĠ sÃ¨Ġ
shÄģn ĠshÃ¬Ġ
kÄģiĠshÇĲ ĠzÃłiĠ
tuÃ¡n ĠdeĠ
gÄĽi ĠleĠ
ĠjÄ«Ġ jÄ«nĠ
sÇĲĠ wÃ¡ng
zhÄĽngĠ tÇĲĠ
Ġ 500
ĠĠĠ jÃŃĠ
lÇĶ ĠsÄ«Ġ
shÄĽ Ġ
juÃ© ĠduÃ¬Ġ
ĠquÃ¡n ĠlÃ¬Ġ
ĠzuÃ¬ ĠchÅ«Ġ
dÃłiĠbiÇİo ĠdÃłĠhuÃ¬Ġ
Ġ 7Ġ
chÃŃ ĠyÇĴuĠ
yÄ«ngĠ wÃ©nĠ
zhÃ¨ng ĠbÃ¹Ġ
gÃłiĠ niÃłn
Ġ xÃ¬nĠ
ĠgÅįngĠ jÃ¹Ġ
shÃ¨Ġ shÄ«Ġ
Ġ sÅ«n
Ġ dÃ¡
ĠĠĠ 2010
bÄĽn ĠrÃ©nĠ
yÃ¡ng ĠshÃ¬Ġ
ĠshÃ¬Ġ bÄ«ngĠ
ĠzhÃ¨Ġ zhÇĴng
xiÃłĠxiÃ¡ ĠdeĠyÃŃĠgÃ¨Ġ
Ġ 30Ġ
ĠsuÃ¬ ĠshÃŃĠ
ĠĠĠ ÄģĠ
Ġ0 Ġ
nÃŃ ĠÄĽrĠ
ĠdeĠchÃ©ngĠ jÃ¬Ġ
Ġ U
ĠjÃŃĠ rÃ©nĠ
yÃŃĠ dÃ¬ngĠ
jiÃ¨Ġ shÃłoĠ
lÃ¡i ĠyuÃ¨Ġ
bÇİoĠ shÇĴuĠ
tÃ³uĠ xiÃ¡ngĠ
guÃ¬Ġ zÃºĠ
yuÃ¨ ĠzhÅįngĠ
zhÃŃĠ dÇİoĠ
zhÃ¨nĠ qÅ«ĠdeĠ
zÇİoĠ qÄ«
bÃ³ĠshÃ¬Ġ xuÃ©ĠwÃ¨iĠ
shÄģn ĠjÄ«Ġ
huÃ¡ng ĠhÃ²uĠ
qÇĲĠ dÃ²ngĠ
ĠmÄĽi ĠgÃ¨Ġ
ĠĠĠ qÃŃĠtÄģĠ
tÄģng Ġ
guÃł Ġ
ĠwÃ©iĠ ÄĽr
yÄģoĠ qÇĲng
yÃ¬ ĠniÃ¡nĠ
gÇĶ ĠdÃłiĠ
ĠmÃŃngĠ dÄģnĠ
kuÃ¬ Ġ
ĠdÃ© ĠyÇĶĠ
zhÇĴngĠ zÃºĠ
en Ġ
zhÄĽn Ġ
ĠyÄ«Ġ zuÃ²Ġ
ĠyÇĲĠ jÃŃ
ĠÃ©rĠ gÄģiĠ
hÄĵiĠ sÃ¨Ġ
mÃŃng ĠrÃ©nĠ
ĠrÃ©nĠmÃŃnĠ zhÃ¨ngĠfÇĶĠ
ÄĵnĠ shÄĽngĠ
tÃ²uĠ guÃ²
1 ĠrÃ©nĠ
ĠxiÇİng ĠniÃ¡nĠ
wÃºĠzhÃ¨ngĠzhuÃłngĠ gÇİnĠrÇİnĠ
suÃŃ ĠzhÃ¹Ġ
sÄģ Ġ
ĠĠĠ 1Ġ
huÃ³ ĠyuÃ¨Ġ
mÃ¹Ġ qiÃ¡n
chÃ¡ngĠ wÃ¹Ġ
chÃ¡ngĠ wÄĽiĠ
quÃ¨ĠzhÄĽn ĠbÃ¬ngĠlÃ¬Ġ
Ġ Ã¨rĠshÃŃĠ
mÃŃng ĠzhÃ¬Ġ
ĠrÃ¬ ĠyÃºĠ
gÇİiĠ mÃŃngĠwÃ¨iĠ
chÅ«Ġ shÄĵnĠ
tÃ³ng ĠniÃ¡nĠ
diÃłnĠ huÃłĠ
Ġ 2022
ĠbÃ¹Ġ sÄ«Ġ
ĠjÄ«Ġ sÄ«Ġ
tÃłiĠ ziĠ
duÅį ĠrÃ©nĠ
ĠbÇĲĠ rÃºĠ
ĠĠĠ gÄģi
kÃ¨ ĠchÃ©ngĠ
kÃ¹n ĠnÃ¡nĠ
ĠbÃ¹Ġ lÃ¬Ġ
zuÃ¬Ġ duÅįĠ
dÄģn ĠdeĠ
lÃ³ng ĠdeĠ
tÃºn Ġ
tÃŃ ĠjÃŃĠ
gÃ¨ng ĠwÃ©iĠ
in Ġ
rÃ¹Ġ xuÇİnĠ
ĠwÃ¨iĠyÃºĠ zhÅįngĠguÃ³Ġ
yÇĲĠ jÄ«ngĠ
quÄĵĠ fÃ¡
sÄģiĠÄĽrĠ wÃ©iĠ
huÃ¬ ĠzhÅįngĠ
shÅįu ĠjÃŃĠ
ĠlÃ¬Ġ fÇİ
xuÃ©Ġ huÃ¬Ġ
ĠbÃ¬ngĠ fÄĵiĠ
hÇİiĠ xiÃ¡Ġ
gÃ²u ĠdeĠ
gÅįngĠ chÃ©ngĠ
ĠxÄ«Ġ jiÄĵĠ
gÄĵĠ lÃºnĠ
Ġ yÃ²ng
ĠjÄ«Ġ chÇİng
G Ġ
jÃ¹ ĠdÃłĠ
ĠchÃ©ngĠ rÃ©nĠ
fÃ¹Ġ zÃ©
ÄģnĠ nÃł
zÃºĠqiÃºĠ yÃ¹nĠdÃ²ngĠyuÃ¡nĠ
ĠĠĠ 2Ġ
xiÄĽ ĠdeĠ
pÄģi Ġ
zhuÄ«Ġ sÃ¹
Ġ yÄģoĠqiÃºĠ
Ġ 2014ĠniÃ¡nĠ
ĠtÃ³ngĠshÃŃĠ gÄģiĠdÃ¬Ġ
Ġ xÃŃĠ
zuÃ²Ġ chÅ«Ġ
bÄĵi ĠsÄ«Ġ
ĠyÄĽ ĠzÃłiĠ
shÄĽng ĠdeĠ
lÃ¬ng ĠrÃ©nĠ
huÃ¬ ĠzhÃ¬Ġ
ĠdÃ©Ġ zhÇĶĠ
tÇİoĠ lÃ¹n
gÄģoĠsÃ¹ ĠgÅįngĠlÃ¹Ġ
Ġ yuÄĵ
ĠjÃŃĠ dÃ¬Ġ
fÃłnĠ zuÃ¬Ġ
nÃ¨iĠlÃ¹Ġ shÄĽngĠfÃ¨nĠ
ÄģnĠ huÄ«Ġ
kÄĵĠxuÃ©Ġ jiÄģĠ
tÃº ĠxÃŃngĠ
ĠguÃ³Ġ nÃ¨iĠ
pÄ«Ġ zhÇĶn
ĠbÃ¬ngĠ dÃºĠ
jiÄģng ĠzÃłiĠ
dÄ« ĠyÃºĠ
Ġ pÃ²Ġ
zhÃº ĠbÃ¹Ġ
ĠdeĠdÃ¬Ġ Ã¨rĠ
shÃ²u ĠdeĠ
shÄģn ĠdeĠ
ĠshÃ¬Ġ yÄ«nĠwÃ¨iĠ
ĠkÃ¨ ĠxÄ«Ġ
liÃ¡nĠhÃ©Ġ huÃ¬Ġ
cÃ¬ ĠdeĠ
chÄģo ĠyuÃ¨Ġ
jiÃ©Ġ guÇĴ
tÃ¡iĠ nÃ¡n
jiÇİnĠ shÇİo
qiÃ¡ngĠ liÃ¨Ġ
3 ĠgÃ¨Ġ
Ġ chÃ¡
pÃłiĠ qiÇİn
xiÃłĠlÃ¬ng ĠshÃŃĠjiÄģnĠ
hÇİi ĠpÃŃngĠmiÃłnĠ
bÃº ĠdÃłoĠ
ĠshÃŃĠ qÄ«ĠdeĠ
ĠyuÃ¡nĠ xÃŃngĠ
Ġ wÃ¡nĠjiÄģĠ
yÄĽ ĠzÃłiĠ
ĠjÄ«Ġ huÃ¬Ġ
ĠxuÃ©Ġ yuÃłn
yÃŃĠ dÃ¬ng
huÄ«Ġ fÃ¹
guÃ² ĠdeĠ
yÃłĠ mÄĽiĠ
1972 ĠniÃ¡nĠ
biÄģnĠ jiÃ¨Ġ
dÇĴngĠshÃ¬Ġ zhÇİngĠ
jiÃłĠ gÃ©Ġ
ĠjiÃłoĠ yÃ¹Ġ
tÃŃ ĠyÃ¬Ġ
shÅ« ĠzhÅįngĠ
xÅ«n ĠzhÄģngĠ
zhÇĶĠ jiÃło
shÄ«Ġ bÃłiĠ
ĠhÃło ĠdeĠ
zhÇĶĠyÃło ĠdeĠ
nÃŃĠyÃł ĠzhÅįuĠ
ĠhÃ²uĠ bÃ¨iĠ
ĠxuÃ©Ġ jiÄģĠ
liÃºĠ xiÃłĠ
shuÄģngĠ fÄģngĠ
ĠĠĠbÃ¨iĠ jÇĲngĠ
ĠĠĠ 3
Ã©r ĠtÃ³ngĠ
ĠyÄ«Ġ lÃ¬Ġ
guÄģnĠ chÃ¡Ġ
fÄģngĠ fÇİ
jiÄģ ĠyÃ¬Ġ
1978 ĠniÃ¡nĠ
ĠbÃ¹Ġ duÃ¬
ĠyÇĲĠ wÃ©iĠ
ĠzÃłiĠ shÃŃĠ
tÃŃĠgÅįngĠ leĠ
liÃ¡nĠ xÃ¹
xiÃłn ĠdeĠ
qÄ«n ĠzÃ¬Ġ
ĠÃ©rĠ ziĠ
bÄĽiĠjÄ«ng ĠshÃ¬Ġ
Ġ 1950
1979 ĠniÃ¡nĠ
ĠyÇĴuĠ suÇĴĠ
Ġ diÃłnĠshÃ¬Ġ
zuÃ¬Ġ gÄģoĠdeĠ
huÃ¬ĠyÃ¬Ġ yuÃ¡nĠ
Ġ mÃ©i
sÄģnĠ jiÇİo
ĠĠĠdÃ¬ĠfÄģngĠ zÄ«ĠliÃłoĠ
bÇİnĠ bÄĽn
rÃ¨n ĠwÃ¨iĠ
mÇİ ĠÄĽrĠ
lÃ¡n ĠdeĠ
nÃ¡ ĠxiÃłĠ
pÃŃngĠ tÃ¡iĠ
fÄĵiĠ chÃ¡ng
ĠĠĠ jiÇİnĠjiÃ¨Ġ
le ĠzÃłiĠ
duÅį ĠwÃ¨iĠ
zÇĶ ĠfÃ¹Ġ
ĠhÃ©Ġ yuÄĵĠ
Ġ jiÇİ
ĠlÃ¬Ġ liÃłngĠ
ĠchÅ«Ġ kÇĴuĠ
ĠtÄģĠcÃ©ng ĠdÃłiĠbiÇİoĠ
bÃ¨i ĠdeĠ
ĠdÃ¬Ġ lÇĲĠ
nÃ¡nĠ bÄĽiĠ
shÃ©nĠ meĠ
ng Ġ
nÃ©ng ĠyuÃ¡nĠ
ĠdÃ¬Ġ qÄ«Ġ
ĠxiÃłnĠ fÇİĠ
gÇİiĠ biÃłn
ĠhÃ²uĠ zhÄĽĠ
quÄĵĠ fÃ¡Ġ
tÃ¡i ĠzhÅįngĠ
dÃŃ ĠshÃ¬Ġ
ĠzhÃ¨ngĠ mÃŃngĠ
ĠshÃŃĠjÃ¬Ġ shÃłngĠ
liÇİo Ġ
ĠchÃ©ngĠ zhÃ¨nĠ
Ġ sÃ¹Ġ
Ġ 2015ĠniÃ¡nĠ
zÃ¬ ĠdeĠ
xuÇİn ĠzhÅįngĠ
dÃŃ ĠrÃ©nĠ
ĠlÃ¬Ġ yÃ¬Ġ
4 ĠrÃ©nĠ
lÇĲ ĠhÃ©Ġ
1 ĠniÃ¡nĠ
Ġ shÇĴu
Ġ lÇĶĠ
pÃłi ĠchÅ«Ġ
ĠmÄĽi ĠyuÃ¡nĠ
ĠzhÅįngĠguÃ³ĠrÃ©nĠmÃŃnĠ jiÄĽĠfÃłngĠjÅ«nĠ
duÅįĠ zhÇĴngĠ
tÃ¡nĠ pÃłnĠ
liÃ¡oĠ nÃŃngĠ
1976 ĠniÃ¡nĠ
ĠbÃ¹Ġ shÇİoĠ
ĠsÄ«Ġ tÇİĠ
tÃŃ ĠchÅ«ĠdeĠ
suÃŃ ĠjÃŃĠ
wÃ¡nĠ zhÄĽng
yÄ«ngĠ gÄģiĠ
tuÃ¬Ġ xiÅ«Ġ
ĠdÃłĠxuÃ© ĠdeĠ
hÇİiĠbÃ¡ ĠwÃ¨iĠ
Ġ zÄ«Ġ
pÃŃng ĠwÃ¨iĠ
gÃłn ĠbÃ¹Ġ
lÄĽi ĠjÃ¬Ġ
ĠshÃŃĠ xÃŃngĠ
yÄ«ngĠ gÃ©ĠlÃ¡n
miÇİnĠ diÄģn
dÄģng ĠzhÅįngĠ
xÃ¹ ĠlÃ¬ĠyÃłĠ
juÃ© ĠyÃ¬Ġ
shÄģng ĠrÃ©nĠ
biÄģo ĠbÄĽnĠ
fÄģĠ shÄĵngĠzÃłiĠ
suÇĴĠ cÇİiĠyÃ²ng
zhÇĲĠ dÇİoĠ
ĠjÃ¹Ġ juÃ©Ġ
huÃł ĠzhÅįngĠ
zÃłn ĠshÃŃĠ
zhuÄģngĠ jiÇİĠ
ĠĠĠ 1
mÄĽi ĠzhÅįu
tiÃło Ġ
ĠfÃ¹Ġ jÃ¬n
ĠzhÅįngĠgÃ²ng ĠzhÅįngĠyÄģngĠ
cÃ¬ ĠyÃºĠ
ĠyÃ¬Ġ qÃŃngĠ
nÃ³ngĠ mÃŃnĠ
yÃŃ ĠdÃłiĠ
ĠdÃ© ĠmÃŃngĠ
ĠĠĠ yÄ«nĠ
shuÇĲ ĠlÃ¬Ġ
rÃ³ng ĠhÃ©Ġ
ĠzhÅįngĠ guÃ³ĠdeĠ
xiÅ«Ġ gÇİiĠ
8 ĠniÃ¡nĠ
fÄģ ĠmÃŃngĠ
1958 ĠniÃ¡nĠ
ĠqÃŃ ĠwÃ¨iĠ
zhÇĲĠ nÃ©ngĠ
ĠmÃŃng ĠzhÃ¬Ġ
ĠgÅįngĠ zhÃ²ngĠ
Ġ chÃº
Ġ bÇİ
zhÇĶĠ yÇİnĠ
ÄģĠlÄģĠ bÃ³
zhuÇİn ĠxiÃłngĠ
xiÄģngĠ sÃ¬Ġ
guÄģnĠ chÃ¡
jiÄĵĠ chÃ¹Ġ
ĠbÄĽiĠ jÄ«ng
kÄģi ĠshÃ¨Ġ
xiÅ« ĠjiÃłnĠ
zhÇĴngĠ ziĠ
jÃ¬ng ĠjÃ¬Ġ
jiÄĽĠ sÃłnĠ
ĠdeĠshÃ¬Ġ jiÃ¨Ġ
Ġ 2016ĠniÃ¡nĠ
wÇĶĠ zhuÄģng
diÃłn ĠjÄ«Ġ
chÄģi ĠchÃºĠ
cn Ġ
kÄģiĠ tÅįngĠ
bÃłoĠ zhÃłĠ
jÇĶĠbÃłn ĠdeĠ
fÄģĠ qÇĲĠ
shÄĵnĠ dÃ¹Ġ
ÄģnĠ pÃ¡i
Ġ tÃ¡ng
qÅ« ĠshÃ¬Ġ
wÃ©iĠ sÄ«Ġ
tuÃ¡nĠ tÇĲ
jÄ«Ġ gÃ²uĠ
fÃ¹Ġ zhÇĶĠrÃ¨nĠ
fÄģĠ shÃ²uĠ
zÇĶĠzhÄ« ĠdeĠ
ĠĠĠ qÃŃ
ĠniÃ¡nĠ lÃ¡iĠ
fÄĵngĠ xiÇİnĠ
diÃłoĠ kuÃłi
ĠĠĠ duÃ¬Ġ
chÃ©ng ĠhÃ©Ġ
ĠwÃ¨iĠ dÃłĠ
ĠyÇĶĠ qÃŃĠtÄģĠ
zhÄģngĠ zhuÄģnĠjÃŃĠ
Ġ cnĠ
jiÃ© ĠdeĠ
biÄģn ĠjÃ¹Ġ
zÃło ĠleĠ
se Ġ
nÇĶ Ġ
ĠwÃ¨iĠ UTCĠ
ĠbÃ¹Ġ jÃŃĠ
ĠzhÅįngĠ shÄģnĠ
nÃ©ngĠ liÃłngĠ
shuÃłiĠ lÇĲng
Ġ Z
bÃłnĠshÃ¬Ġ chÃ¹Ġ
qiÃº ĠjÃ¬Ġ
tiÃ¡oĠ zhÄĽng
ĠxÄ«ĠbÄģnĠ yÃ¡Ġ
Ġ gÄĵ
luÃ³ ĠlÇĲĠ
2025 ĠniÃ¡nĠ
gÃ©Ġ lÄģĠ
jiÃ¹Ġ dÃºĠ
diÃłoĠkuÃłi ĠyÄ«ĠxiÇİoĠshÃŃĠ
9 ĠniÃ¡nĠ
zÃ© ĠzÃłiĠ
ĠdeĠ yÇĲngĠxiÇİngĠ
yÄ«ngĠ xiÃ³ngĠ
shÄģngĠ yÃ¨
qiÃ¡ngĠ diÃłoĠ
ĠjÃŃĠ UTCĠ
kÄĵĠxuÃ©Ġ yuÃłnĠ
shÃ¨ĠyÇĴuĠ xiÃłĠlÃ¬ngĠshÃŃĠjiÄģnĠ
ĠdeĠshÃŃĠqÅ«ĠwÃ¨iĠ UTCĠ
ĠÃ©rĠgÄģiĠdÃ¬Ġ suÇĴĠcÇİiĠyÃ²ng
ĠtÃ³ngĠshÃŃĠgÄģiĠdÃ¬Ġ shÃ¨ĠyÇĴuĠxiÃłĠlÃ¬ngĠshÃŃĠjiÄģnĠ
ĠÃ©rĠgÄģiĠdÃ¬ĠsuÇĴĠcÇİiĠyÃ²ng ĠdeĠshÃŃĠqÅ«ĠwÃ¨iĠUTCĠ
Ġ bÃłiĠ
xiÄģoĠ fÃ¨iĠ
ĠtÃ³ngĠ yÃłng
xÃ¬nĠ yÇİngĠ
tÄģĠmen ĠdeĠ
L Ġ
Ġ s
yÃ³u ĠjÄ«Ġ
ĠdÃłĠ jiÇİngĠ
jiÃłoĠ tÃ¡ng
ĠlÃ¬ng ĠyÇĴuĠ
ĠyÄ«ĠsÄ«Ġ lÃ¡nĠ
40 Ġ
yuÃ¡nĠ zhÃ¹Ġ
bÇİoĠ liÃº
tÃłiĠ dÃ¹Ġ
chuÃ¡nĠ bÅįĠ
ĠgÄģiĠ cÅ«nĠ
suÇĴ ĠzÃłiĠdÃ¬Ġ
quÃ¨ ĠdeĠ
zhÄ«Ġ jiÄģnĠdeĠ
Ġ zhÄĵngĠ
ĠĠĠ jiÄģoĠtÅįngĠ
fÄģ ĠshÃ¨
ĠshÃŃĠ wÃ¹Ġ
dÃ¬ngĠ jÅ«Ġ
ĠmÇİĠ lÃ¡i
ĠlÃ¬ĠshÇĲĠ shÃłngĠ
gÄģoĠyÃºĠ hÇİiĠpÃŃngĠmiÃłnĠ
Ġ huÃłnĠ
pÃ¨i ĠzhÃ¬Ġ
ĠwÃ¨iĠfÃºĠqÃŃĠyÃºĠ gÄģngĠ
Ġ dÄģn
Ġ bÇİi
xÃ¬ng ĠwÃ¨iĠ
zhÃº ĠjiÃłn
ĠbÃ¹Ġ nÃ©ng
ĠgÅįngĠ juÃ©Ġ
ĠÄĽrĠ duÅįĠ
ĠqÃŃĠ xiÃłĠ
Ġ Î
ĠĠĠ qÄ«ngĠ
wÃ¹ ĠhÃ©Ġ
hÃ¹ ĠxiÄģngĠ
huÃ¬ ĠyÃºĠ
chÃ¹ĠdeĠ hÇİiĠbÃ¡ĠwÃ¨iĠ
chÃ¹ĠdeĠhÇİiĠbÃ¡ĠwÃ¨iĠ gÄģoĠyÃºĠhÇİiĠpÃŃngĠmiÃłnĠ
hÃ²u ĠwÃ¨iĠ
kÃ¹n Ġ
ĠyÄ«nĠ sÃ¹Ġ
tÇĲ ĠzhÃ¬Ġ
al Ġ
jÃ¬ngĠ xuÇİnĠ
hÃ© ĠĠĠ
wÃ¹ ĠshÃ¬Ġ
ĠyÃºĠ lÃ¨
chÇİngĠ suÇĴĠ
ĠzhÄ« ĠyÃ¬Ġ
ĠhÃ©Ġ pÃłnĠ
ĠbÃ¹Ġ jÇĲnĠ
ĠyÇĲĠ xÄ«Ġ
Ġ nÇĲĠ
fÄģ ĠxiÃłnĠdeĠ
zhÃ²ng ĠshÃ¬Ġ
kuÃ¡ng Ġ
ĠqÃŃ ĠshÃŃĠ
ĠsuÃŃ ĠzhÃ¹Ġ
nÃ¡nĠ jÄ«ng
zhÇİngĠ dÃ¡Ġ
yÃ¹nĠ shÅ«
Ġ 2008
Ġ liÃ¡nĠhÃ©Ġ
Ġ 2017ĠniÃ¡nĠ
ĠĠĠ mÇİĠ
shÃ¹ ĠshÃŃĠ
nÃ¨i ĠdÃ¬Ġ
Ġ hÃº
Ġ xÅ«Ġ
shÃŃĠ qÅ«Ġ
gÄģoĠ xiÃ³ng
zÄ«Ġ liÃło
Ġ dÃłi
Ġ xiÃ¨Ġ
jiÃłn ĠchÃ©ngĠ
lÃ¹ ĠzhÃ¬Ġ
gÄĵng ĠxÄ«nĠ
is ĠĠĠ
ĠyÄ«Ġ jiÄģĠ
ĠxÄ«Ġ lÃ¡nĠ
yÃ¹nĠ yÃ²ngĠ
ĠzÃ¬Ġ rÃ¡nĠ
chÃ³ngĠ qÃ¬ng
Ġ zhÃ¨ngĠzhÃ¬Ġ
bÃ¬Ġ yÃ¨ĠhÃ²uĠ
ĠĠĠ rÃ¡n
Ã¨r ĠjÃŃĠ
biÄģn ĠhÃłoĠ
ĠlÃ¬Ġ rÃ¨nĠ
shÄģnĠ fÄĵngĠ
ĠwÃ¨iĠyÃºĠ gÄģiĠ
wÃ©iĠ ÄĽrĠ
zhÃŃĠ zhÃ¨ngĠ
diÃłnĠ qÃ¬Ġ
Ġ yÃŃ
Ġ nuÃ²Ġ
Ġ 8Ġ
zhÄĽ ĠshÃ¬Ġ
wÃ¡ng ĠshÃ¬Ġ
ĠzuÃ²Ġ chÅ«Ġ
Ġ Ma
xiÃ¡Ġ qÅ«Ġ
ĠĠĠ bÄĽn
cÃ©ng ĠwÃ¨iĠ
bÄģo ĠwÃ©iĠ
bÃłng ĠqiÃºĠ
xuÃ© ĠyuÃ¡nĠ
cuÃ² ĠwÃ¹Ġ
ĠdÃ¬Ġ qiÃº
jÄ«nĠ rÃ³ngĠ
ĠyÃ¹Ġ shÇĲĠ
xuÄģnĠ chuÃ¡n
h Ġ
dÅįngĠ fÄģngĠ
hÃ²u ĠyÃ¬Ġ
bÄĽi ĠshÃ¬Ġ
jÄ«ngĠ chÃ¡ng
xiÃłoĠ qÅ«Ġ
ĠrÃ¡n ĠÃ©r
Ġ tÃŃngĠ
qiÃł Ġ
jiÃ¹ ĠhuÃ¬Ġ
ĠjiÃ© ĠkÃ¨Ġ
Ġ shÄģ
ĠsÄ«Ġ kÄĵĠ
ĠduÃ¬Ġ shÇĴuĠ
ĠxÃŃngĠzhÃ¨ngĠ qÅ«Ġ
zhÃ¨nĠqÅ«ĠdeĠ miÃłnĠjÄ«ĠwÃ¨iĠ
ĠzhÅįuĠ cÃ¬ĠshÇĲĠ
ĠshÄĵngĠ yÃ¡Ġ
jiÄģ ĠyÇĲĠ
jÃº ĠdeĠ
fÃº ĠdeĠ
mÇİ ĠkÃ¨Ġ
ĠtÄģ ĠyÇĲĠ
ĠyuÃ¡nĠ zÃ¬Ġ
ĠlÇĲĠ xÄ«Ġ
zÃłoĠ chÃ©ngĠdeĠ
Ġ qÄ«nĠ
zhÃŃĠ mÃŃnĠ
Ġ 2023
pÃŃngĠ lÃ¹n
fÅ«Ġ kÇİĠ
ĠfÃºĠ wÃ¹Ġ
ĠdÄģngĠ shÃŃĠdeĠ
Ãło ĠzhÅįuĠ
kÄĽ ĠzÃłiĠ
ĠyÄ«Ġ jÃ¹Ġ
H Ġ
jÃ¬ ĠyÇĴuĠ
shÇĲ ĠjiÃłnĠyÃºĠ
rÃ¨n ĠdeĠ
yÄĽ ĠbÃ¨iĠ
miÃłn ĠshÃłngĠ
shuÄģi Ġ
gÅįngĠ gÃ²ngĠ
ĠsÄ«Ġ kÃ¨
ĠÃ©rĠ tÃ³ngĠ
Ġ fÄģĠxiÃłnĠ
Ġ 2018ĠniÃ¡nĠ
mÃŃng ĠshÃ¬Ġ
bÃłn ĠdeĠ
ĠxuÃ©Ġ zhÄĽĠ
pÇİo Ġ
ĠjiÃłn ĠshÃ¨
ĠwÃ©iĠ rÃło
ĠyÄĽ ĠbÃ¨iĠ
qiÄģnĠ shÇĶĠ
ĠqÃŃĠzhÅįngĠ bÄģoĠkuÃ²Ġ
Ġ gÇİnĠ
Ġ fÄģĠxÃŃngĠ
jiÄģ ĠzÃłiĠ
Ġ 2009
tÅ« ĠrÃ¡nĠ
chÃ¡n Ġ
hÇİiĠ yÃ¡ngĠ
jÄ« ĠzÃłiĠ
lÃ¡i ĠyÄ«nĠ
jÃ¹n ĠgÅįngĠ
ĠjÃŃĠ dÃłĠ
ĠdÃ© ĠzhÄ«Ġ
ĠjÄ«Ġ jÄ«nĠhuÃ¬Ġ
xiÃłoĠlÃ¬Ġ yÃºĠ
Ġ 2019ĠniÃ¡nĠ
jÃ¬Ġ niÃłn
qÃ¬Ġ chÄĵ
lÃ¬ngĠ yÃŃĠgÃ¨Ġ
xiÄģoĠ shÄ«Ġ
ĠwÃ¨iĠ duÃ¬Ġ
rÃºĠ guÇĴĠ
dÄģngĠ dÃ¬ĠdeĠ
jiÃłngĠ lÇĲngĠ
Ġ 19
Ġ yÃºnĠ
yÃ¡nĠ hÇİiĠ
tÃ¡oĠ tÃłiĠ
wÄĽiĠyuÃ¡nĠhuÃ¬Ġ wÄĽiĠyuÃ¡nĠ
ĠlÇĲĠ yÃłĠ
tiÃ¡nĠ jÃ¬ngĠ
Ġ 2ĠyuÃ¨Ġ
ĠĠĠ jÇĲnĠ
pÃŃng ĠyuÃ¡nĠ
bÃ¨iĠ jÇĲngĠ
kÇİĠ luÃ³Ġ
ĠĠĠ shÃ¨ngĠ
jÃ¬n ĠbÃ¹Ġ
dÃ¬ng ĠyÃºĠ
Ã¨r ĠrÃ©nĠ
liÇİng ĠguÃ³Ġ
tÃ¨Ġ dÃ¬ngĠ
fÃ¨nĠ zÇĲ
ĠcÃ¬ ĠniÃ¡nĠ
Ġ xÄ«ng
dÃł ĠbÃ¹Ġ
duÃ¬ ĠqÃŃĠ
ĠqÃŃ ĠdeĠ
ĠdeĠbÃ¹Ġ fÃ¨nĠ
zhÃŃĠmÃŃn ĠdÃ¬Ġ
shÇĴu ĠzhÅįngĠ
jiÃło ĠdÃłĠ
ĠzhÃ¬Ġ zuÃ²ĠdeĠ
ĠjÄ«Ġ dÅ«Ġ
diÃłnĠ nÇİoĠ
gÇİiĠ zÃłoĠ
chuÃ¡nĠtÇĴng ĠdeĠ
Ġ chÅįngĠ
dÄĽng ĠjÃŃĠ
shÄĵngĠ yÃ¡
ĠbÃ¹ĠbÃ¹Ġ zhÇİngĠ
jÄ«ngĠ shÃ©n
ĠqiÃ¡nĠ wÇİngĠ
Ġ xiÄģn
ng ĠĠĠ
guÄģn ĠjiÃłnĠ
diÇİn ĠshÃ¬Ġ
yÃ¬Ġ shÃ¹Ġ
quÃ¡nĠ miÃłnĠ
ĠdiÃłnĠ yÇĲng
mÃ²ĠxÄ«Ġ gÄĵĠ
Ġ xiÃ¡nĠ
zhÃ¨n ĠdeĠ
tuÄ« ĠchÅ«
1968 ĠniÃ¡nĠ
guÃ³Ġ jiÄģ
ĠdÃ¬Ġ tiÄĽ
ĠxiÃłn ĠyÇĲĠ
ĠjÄ«Ġ chÇĶ
ĠjÃ¹Ġ lÃŃ
mÃ¹ ĠdeĠ
lÃŃĠ kÄģi
ĠluÃ³Ġ mÇİĠ
Ġ gÄĵnĠ
ĠĠĠ nÃ¡nĠ
ĠshÃŃĠ duÃłnĠ
jiÄĵĠ duÃłn
liÇİngĠ cÃ¬Ġ
ÃłiĠÄĽrĠ lÃ¡nĠ
Ġ liÃ¹Ġ
sÄģn ĠmÃŃngĠ
hÅ«n ĠyÄ«nĠ
tou Ġ
dÃłĠ lÃ¹
ĠyÃ¬Ġ yÃºĠ
shÅ«Ġ yuÃłnĠ
ĠshÄģnĠ dÅįngĠ
ÄģĠlÄģĠ bÃ³Ġ
la Ġ
ĠyÃ³u ĠjÄ«Ġ
wÃ©n ĠdeĠ
bÅį ĠsÄ«Ġ
huÃ¬Ġ zhÇİngĠ
mÇİnĠ zÃºĠ
n ĠĠĠ
Ġ zÃ¡ĠzhÃ¬Ġ
qÄ« ĠwÃ¨iĠ
ĠdÃ¬Ġ diÇİnĠ
jÃ¬ngĠ zhÄĵngĠ
cÃ¡iĠ nÃ©ngĠ
xÄ«n ĠchÃ©ngĠ
liÇİng ĠwÃ¨iĠ
pÃ¨i ĠyÄ«nĠ
zhÃ¨ngĠ jÃ¹Ġ
ĠwÃºĠ fÇİĠ
liÃ¡n ĠdeĠ
xiÅ« ĠfÃ¹Ġ
ĠbÃ¬ngĠ yÃ³uĠ
lÄģ ĠjÄ«Ġ
kÃło ĠjÃ¬nĠ
ĠdÃ¬Ġ dÃłiĠ
ĠlÃ¬Ġ shÃŃĠ
hÃ¹Ġ liÃ¡nĠ
jiÄĽĠ fÃłngĠ
Ã©ĠluÃ³Ġ sÄ«
nÃ¨i ĠzhÃłnĠ
bÅį ĠshÃ¬Ġ
ĠwÃ©iĠ chÃŃ
chÅ«Ġ bÇİn
zÄģiĠ pÃ©iĠ
ĠshÃ¬Ġ dÃ©ĠguÃ³Ġ
duÃ¬Ġ zhÇİngĠ
fÄģĠ qÇĲ
jÅ«Ġ zhÃ¹ĠzÃłiĠ
zÇİo ĠzÃłiĠ
bÃ¬ng ĠbÃ¹Ġ
shÇĴuĠ xiÃłngĠ
shÄģnĠ qÅ«Ġ
zÃºĠqiÃº ĠjÃ¹ĠlÃ¨ĠbÃ¹Ġ
Ġ kÇĴuĠ
juÃłn Ġ
jiÄģoĠ liÃº
ĠguÃ³ĠwÃ¹Ġ yuÃłnĠ
lÇĲ ĠchÃ©ngĠ
wÄĽi ĠfÃ¹Ġ
zhÃ¨ ĠshÃ¬Ġ
qÇĲ ĠyuÃ¡nĠ
gÇĴu Ġ
cÅ«nĠ luÃ²Ġ
Ġ BĠ
fÅ« ĠdeĠ
1970 ĠniÃ¡nĠ
jÄ«Ġ chÇĶ
ĠdÃłĠ lÃ³u
yÃ¡nĠ sÃ¨Ġ
xiÃłngĠ zhÄĵngĠ
ĠwÃ©iĠ sÄ«Ġ
tiÄģnĠ tÇĲĠ
Ġ 28
Ġ cÄģnĠyÃ¹Ġ
dÅįu ĠbÃ¨iĠ
ĠbÃ¹Ġ bÄ«ngĠ
ĠyÇĶĠ yÃ¡n
ĠĠĠdÃ¬Ġ Ã¨rĠ
Ġ 2004ĠniÃ¡nĠ
liÃ¹ ĠshÃŃĠ
ne Ġ
ĠzhÃ¬Ġ liÃłngĠ
ĠzhÅįuĠ fÇĶĠ
shÃ©nĠ me
Ġ dÄ«ngĠ
ĠĠĠ 17
lÃ¡ng ĠzhÅįngĠ
ĠyÄ«Ġ yuÃłn
ĠxÃŃngĠ mÃ¹Ġ
xÃ¬ng ĠhÃ©Ġ
ĠyÇĲĠ wÃłiĠ
chÃ¡ngĠ dÃ¹Ġ
luÃ²Ġ fÃ¡
Ġ bÇİo
ĠĠĠ 2008
ĠzhÃ¬Ġ dÃ¬Ġ
ĠyÇĶĠ yÄ«Ġ
shÅįuĠ gÃ²uĠ
wÃºĠzhÃ¨ngĠzhuÃłngĠgÇİnĠrÇİnĠ zhÄĽĠ
Ġ yÃ¬ĠshÃ¬Ġ
liÃłng ĠwÃ¨iĠ
mÇĶ ĠdeĠ
ĠdÃ© ĠsÄ«Ġ
Ġ 2020ĠniÃ¡nĠ
zuÃ¬ ĠchÅ«
xiÄĽ ĠzuÃ²Ġ
mÃ¨ng ĠjiÄģĠ
tÃ¨Ġ xÃ¬ngĠ
shÄ«Ġ qÃ¹
ĠwÃ¨iĠyÃºĠ mÄĽiĠguÃ³Ġ
jiÇİ ĠdÃ¬Ġ
ĠzuÃ¬ ĠjiÄģĠ
fÃ¹ ĠhÃ©Ġ
chuÃ¡ng Ġ
tÃłiĠ yÃ¡ng
ÃłoĠ mÃ©n
fÃº ĠlÃ¬Ġ
gÃ© ĠshÃ¬Ġ
1956 ĠniÃ¡nĠ
ĠxiÃłn ĠjÃŃĠ
suÇĴ ĠdeĠ
zhuÃłn ĠdeĠ
zÅįng ĠyÃ¬Ġ
st ĠĠĠ
zÃ¬Ġ mÇĶĠ
lÃŃngĠ chÃ©nĠ
zhÃŃĠyÃ¨Ġ shÄĵngĠyÃ¡Ġ
suÇĴ ĠwÃ¨iĠ
tÃ²u ĠlÃ¹Ġ
dÅįngĠ bÄĽi
Ġ yÃŃĠgÃ¨
5 ĠrÃ©nĠ
ÇĴu ĠxiÃłngĠ
kÇİo ĠshÃ¬Ġ
ĠfÃº ĠjiÃłnĠ
ĠĠĠ gÃ¨ĠrÃ©nĠ
juÃ© ĠshÃ¬Ġ
zÇĴng ĠrÃ©nĠkÇĴuĠ
ĠdÃ¬Ġ fÄģng
ĠxiÃłn ĠchÃ©ngĠ
ĠlÇĲĠ kÃ¨Ġ
ĠĠĠ Ma
ĠdÃ©Ġ lÄģĠ
kÅįngĠ qÃ¬Ġ
nÃł ĠdeĠ
fÃ©n Ġ
zuÃ²Ġ wÃ©i
zhÇĶĠ zhÄģngĠ
xÄ« ĠhÃ©Ġ
pÃŃng ĠdeĠ
1960 ĠniÃ¡nĠ
xÄ«Ġ nÃ¡nĠ
Ġ tÃłi
huÃŃ ĠyÃ¬Ġ
1920 ĠniÃ¡nĠ
1981 ĠniÃ¡nĠ
ĠyÇĲ ĠzÃłiĠ
ĠyÄĽĠ kÄĽĠyÇĲĠ
pÃºĠtÃ¡oĠ yÃ¡Ġ
Ġ kÃ¹Ġ
ĠĠĠ rÃ©nĠ
si Ġ
1964 ĠniÃ¡nĠ
ĠzuÃ²Ġ zhÃłnĠ
qÄ« ĠshÃŃĠ
zÇĴu ĠxiÃłngĠ
Ġ diÃłoĠ
ĠyÇĲ ĠyÃºĠ
ĠchÃ©ngĠ kÃ¨Ġ
sÅ«Ġ gÃ©ĠlÃ¡nĠ
Ġ zhÄĵn
guÃ² ĠleĠ
chÄĵ ĠduÃ¬Ġ
ĠÄĽr ĠshÃ¬Ġ
Ġ xiÇİoĠshÃŃĠ
Ġ sÅ«nĠ
nÃ¡n ĠdeĠ
hÃ¹ ĠbÃ¹Ġ
ĠdÃ¬Ġ tÃºĠ
ĠyuÃ¡nĠ bÄĽn
ĠchÅ« ĠdÃłoĠ
yÃ¬nĠ nÃŃĠ
Ġ 2007
Ġ sÃ¨Ġ
Ġ 2021ĠniÃ¡nĠ
wÇĶ ĠshÃ¬Ġ
shÅįu ĠdÃłoĠ
wÇİ ĠÄĽrĠshÄĽngĠ
gÇĶ ĠlÃ¬Ġ
guÇİn ĠzhÃ¬Ġ
fÃ©i Ġ
ĠgÅįngĠ lÇĲĠdeĠ
xÃ¬nĠ yÇİng
xÃºnĠ zhÇİo
zhÇĶĠyÃ¬Ġ zhÄĽĠ
Ġ 24
ĠwÃ¨iĠ yuÃ¡nĠ
guÃ²Ġ dÃ¹Ġ
ÇĴu Ġ
yÃ¡n ĠrÃ©nĠ
luÃ² ĠchÃ©ngĠ
xiÇİn ĠzhÃ¹Ġ
ba Ġ
tÅįu Ġ
guÃ³Ġ wÃ¹Ġ
shÇĲĠ shÃłngĠ
guÇİngĠ chÇİng
ĠshÃŃĠyÃłn ĠshÃ¬Ġ
ĠsÄ«ĠlÃ¬ng ĠbÃ¹Ġ
Ġ kÇİi
shÇĲ ĠrÃ©nĠ
bÃ¬ ĠdeĠ
mÃłi ĠkÃ¨Ġ
ĠdÃ¬Ġ liÃ¹Ġ
wÃłngĠ yuÇİnĠ
ĠĠĠ I
ĠĠĠ yuÃ¨Ġ
xÄ« ĠdÃ¬Ġ
xiÅ« ĠdÃłoĠ
hÃºn Ġ
ĠdÃłĠ gÅįngĠ
ĠfÃ¹Ġ jÃ¬nĠdeĠ
sÃ¬ ĠdeĠ
cÃ©ng ĠyÃºĠ
shÇĴuĠ dÅ«
gÃ©Ġ lÃŃĠ
shÃłoĠ nÇļĠ
Ġ zÃºĠ
ĠĠĠ Re
ĠĠĠ 2009
yÃº ĠhÃ©Ġ
jiÄģng ĠyÃºĠ
dÅįngĠ jÄ«ng
zhuÄģnĠ yÃ¨
ĠĠĠ In
dÃ¬ ĠhÃ©Ġ
dÃ¹ ĠhÃ©Ġ
yÃ¡n ĠzhÃ¬Ġ
fÃłng ĠzÃłiĠ
ĠjÃŃĠ shÇĲĠ
jiÄģnĠ yÃ¹Ġ
miÇİnĠ fÃ¨iĠ
jiÇİo ĠdÃ¹Ġ
zuÇĴ ĠyÃ¬Ġ
ĠchÃ©ngĠ bÄĽnĠ
wÃ©iĠ zhÇĶĠ
dÄĽngĠ dÄĽngĠ
fÇİnĠ huÃŃ
Ġ dÇİngĠ
1948 ĠniÃ¡nĠ
bÃ¨iĠ chÄĵngĠwÃ©iĠ
ĠxÃŃngĠ dÃ²ng
cÇİiĠ qÇĶ
guÇİnĠlÇĲĠ jÃºĠ
zÄ«Ġ bÄĽnĠ
tÃ¡iĠbÄĽi ĠshÃ¬Ġ
1975 ĠniÃ¡nĠ
ĠyuÃ¨Ġ duÃ¬Ġ
ĠshÃ¨ ĠyÃºĠ
ĠjÅ«nĠ qÅ«Ġ
bÃ¬Ġ miÇİn
kÅįngĠ jiÄģn
xÃŃngĠ tÃłiĠ
Ġ xiÃ¨
ĠĠĠ dÄģngĠ
shÃ¨ ĠbÃ¨iĠ
xiÄģng ĠshÃ¬Ġ
kÇİ ĠsÄ«Ġ
cÇİiĠ fÇİng
Ġ xÃ¹Ġ
shÄģn ĠxiÃłnĠ
ĠÃ©rĠ fÄĵiĠ
gÇİiĠ shÃłnĠ
fÃ¨iĠ chÃºĠ
lÇĲĠ lÃ¹n
xÄ«Ġ bÄĽiĠ
zhÃ¨ngĠfÇĶ ĠdeĠ
Ġ shÃ©n
Ġ 35
Ġ juÃ©ĠdÃ¬ngĠ
shÃłng ĠdÃ¬Ġ
dÇİo ĠshÃłngĠ
ĠzÃłiĠ hÃ©Ġ
ĠkÃ¨ ĠÄĽrĠ
Ġ fÃ¨ngĠ
cÇĲ ĠtÃ³ngĠshÃŃĠ
luÃ²Ġ shÄģnĠjÄ«Ġ
Ġ 2002ĠniÃ¡nĠ
ĠĠĠ sÄ«Ġ
kÄģi ĠgÅįngĠ
tÅįng ĠzhÄ«Ġ
xiÄģngĠ guÄģnĠdeĠ
bÅįĠ lÃŃĠ
jiÃłĠ shÇĲĠ
Ġ yÇĴng
ĠfÄĵnĠ biÃ©Ġ
Ġ cÃłi
jiÃ¹ ĠyuÃ¡nĠ
Ġ pÇĶ
ĠĠĠ zhÃ¨ngĠ
cÃŃ ĠdeĠ
1952 ĠniÃ¡nĠ
ĠdÃ¬ĠyÄ«Ġ cÃ¬
7 ĠrÃ©nĠ
hÃ© ĠzÃłiĠ
yÄĽ ĠhuÃ¬Ġ
ĠzhÄ« ĠshÃ¬Ġ
hÇİiĠ Ãłn
cÃŃĠ zhÃŃĠ
hÄĽnĠ kuÃłiĠ
shÃłng ĠxiÃłnĠ
kÇĴu ĠdeĠ
wÃ¡ Ġ
ĠrÃ©nĠ dÃłĠ
ĠyÃ¬Ġ jiÃłnĠ
sÄ« ĠshÃ¬Ġ
ĠwÃ¨iĠ zÃłiĠ
xÇĲĠ huÄģnĠ
Ġ 60
ĠĠĠ bÄģĠ
zhÄĵng ĠyuÃ¨Ġ
st Ġ
tÃ¬ ĠdÃłiĠ
chÃ¹Ġ zhÇİngĠ
chÅįngĠ tÅ«
Ġ mÃ¬Ġ
Ġ kÇİiĠ
jiÇĶ ĠdeĠ
qiÃ¡ng ĠzhÃ¬Ġ
ĠshÃŃĠ xiÃłn
jiÄģnĠ dÅ«Ġ
yÇĲng ĠshÃ¬Ġ
tÃŃĠchÅ«Ġ leĠ
wÃłiĠjiÄģo ĠbÃ¹Ġ
ĠĠĠ Ch
xuÃ© ĠzhÅįngĠ
qiÃ¡ng ĠdeĠ
huÃłi Ġ
ĠgÃ¨ ĠguÃ³Ġ
yÇĲnĠ yÃ²ngĠ
mÃŃnĠzhÇĶĠ dÇİng
Ġ suÅįĠ
shÄģn ĠdÃ¬Ġ
jÇĲn ĠyÇĴuĠ
jÃ¬Ġ suÃłn
fÄĵng ĠfÃ¹Ġ
ĠzhÇĶĠ yÇİnĠ
Ġ fÇİ
Ġ lÃ©i
nuÃ³ ĠwÄĵi
ĠĠĠ gÃ¹ĠshÃ¬Ġ
ĠsÄ«Ġ mÇİĠ
ĠgÃ¨Ġ zhÇĴng
ĠhÃło ĠxiÃłn
z Ġ
zhÇİngĠ guÄģnĠ
zÅįngĠ jiÃło
xiÇİoĠxÃŃngĠ xÄ«ng
ĠshÃŃĠ hÃ²uĠ
mÃ²ĠxÄ«Ġ gÄĵ
Ã© ĠguÃ³Ġ
ĠĠĠ fÃ¹Ġ
ĠyÇĴuĠ xiÄĵ
pÇĶĠ biÃłn
bÃ¹ĠdeĠ cÅ«nĠzhuÄģngĠ
ĠĠĠyÇĲĠ xiÃł
2 ĠgÃ¨Ġ
Ġ 26
Ġ chuÄģnĠ
guÇİn ĠdeĠ
zÃłn ĠzhÃ¹Ġ
yÃ¬nĠ shuÄģ
cÃ¹ ĠjÃ¬nĠ
ĠyuÃ¨Ġ lÃ¡iĠyuÃ¨Ġ
liÃºĠ yÃ¹Ġ
Ġ pÃłĠ
gÇĶĠ lÇİo
mÇİĠlÃ¡i ĠxÄ«ĠyÃł
ĠĠĠ wÃ©iĠ
tÄģ ĠzÃłiĠ
jiÃłng ĠyÇĶĠ
liÇİo ĠjiÄĽĠ
jiÄģĠ tÃŃngĠ
Ġ zÃº
Ġ cÇİiĠyÃ²ngĠ
fÃ¹ ĠshÃ¬Ġ
liÃ¨ ĠchÅ«Ġ
ĠdeĠ jÃ¹Ġ
ĠchÃ©ngĠ xiÃłn
ĠzhÄ« ĠdÃ¬Ġ
jÄ«ngĠ diÇİnĠ
chÄĵĠ xiÄģngĠ
ĠdÃłnĠ bÃ¡iĠ
ÄģĠ gÄĵnĠ
cÃ¨Ġ liÃ¡ngĠ
Ġ nÇĲ
tiÄģn ĠhÃ²uĠ
yÇĶn ĠshÃŃĠ
ĠxiÃłnĠ shÃłngĠ
qiÃ¡ngĠ dÃ¹Ġ
sÅ« ĠwÃ©iĠ
guÃłn ĠjÅ«n
ĠbÃ¹Ġ shÇİo
ĠzhÄ« ĠjiÄģĠ
cÄģnĠ xuÇİnĠ
ĠkÃ¨ ĠhÃ©Ġ
liÃ¨Ġ rÃ¹Ġ
bÃ¬Ġ miÇİnĠ
Ġ ì
ĠxiÄģngĠ dÄģng
tÃ³ngĠ xÃ¬ngĠ
tÃŃngĠ chÄĵĠ
zÇİo ĠshÃłngĠ
1966 ĠniÃ¡nĠ
zhÇĶĠ tÃŃ
fÄģĠ dÃ²ngĠjÄ«Ġ
sÄĵnĠ lÃŃn
ĠfÃ¹ĠzÃ©Ġ guÇİnĠxiÃ¡Ġ
ĠĠĠ 4
Ãło ĠÄĽrĠ
lÄģ ĠdeĠ
mÃŃngĠ dÄģnĠ
zhÃłnĠ tÃ¡iĠ
V Ġ
Ġ kuÄģnĠ
guÃ³ ĠshÃ¬Ġ
hÅ« ĠyÃ¹Ġ
kÃ²u Ġ
ĠgÅįngĠ yÃ¬ngĠ
jiÄģnĠ rÃ¨nĠ
xuÇİnĠjÇĶ ĠzhÅįngĠ
ĠĠĠin ĠĠĠ
Ġ bÇİĠ
ĠyÄ«Ġ zhÃŃĠ
guÄģnĠ fÄģng
suÇĴĠ yÇĴuĠdeĠ
jiÃłnĠ zhÃ¹
dÄ«Ġ qÃ¬Ġ
N Ġ
cÃ¡iĠ liÃło
ĠĠĠzÄĵngĠ zÇĶĠ
6 ĠrÃ©nĠ
Ġ mÃ³
Ġ kÇİoĠ
sÄģo Ġ
nÃ¡nĠ zi
bÃ³Ġ lÃŃnĠ
jÇĲngĠ gÃłoĠ
tÇĲĠyÃ¹Ġ chÇİngĠ
Ġ jiÄĵ
guÇİng ĠzhÅįu
lÄģ ĠdÃ©Ġ
shÅ« ĠchÅ«Ġ
1937 ĠniÃ¡nĠ
ĠgÅįngĠ nÃ©ng
lÃ¡n ĠxÄ«Ġ
dÃ¹n ĠdeĠ
ĠbÃ¹Ġ mÇİnĠ
ĠqiÃº ĠdeĠ
yÇĲnĠ rÃ¹Ġ
yÃŃnĠ pÃ¡iĠ
yÃ¡oĠ gÇĶn
liÃ¡nĠ jiÄĵ
zhÃłoĠ piÄģnĠ
ĠÃ©rĠgÄģiĠ dÃ¬ĠdeĠ
Ġ yÃ¨
hÃ¡i ĠzÃłiĠ
nuÃ³ ĠwÄĵiĠ
ĠniÃ¡nĠ qÄ«ngĠ
guÃ³Ġ wÃ¡ngĠ
ĠyÇĶĠ qÃŃĠ
qÄ«Ġ zÇĲ
chuÃłngĠ zuÃ²ĠdeĠ
Ġ 29
Ġ shÃ¹n
ĠĠĠ toĠĠĠ
xÃ¹ ĠlÃ¬ĠyÃł
ÄģnĠ zhuÄģngĠ
zÇİoĠ qÄ«ĠdeĠ
shÃŃ ĠhÃ©Ġ
tÃº ĠdeĠ
nÃ¹ Ġ
yÅįuĠ xiÃ¹
mÇĴuĠ xiÄĵ
1946 ĠniÃ¡nĠ
1974 ĠniÃ¡nĠ
ĠjÃ¬Ġ lÃ¹
ĠchÅ«Ġ yÇİnĠ
zhÄ« ĠshÃŃĠ
qiÃº ĠhuÃ¬Ġ
cÃ©ng ĠdeĠ
ĠbÃ¨iĠ ÄĽr
zhÃłn ĠdÃ¬Ġ
xiÃł ĠzÃłiĠ
zÄģo ĠyÃ¹Ġ
Windows ĠĠĠ
ĠwÃ¨iĠ nÃ©ng
ĠjiÄģĠ tÃŃng
xiÃłĠ lÃ¡iĠ
shÄĵnĠ qÇĲng
zhÃłn ĠshÃŃĠ
ĠhÃ©Ġ gÇĶĠ
ĠchÃ©ngĠ leĠ
ĠyÇĲĠ qiÃ¡nĠ
ĠjÃ¬Ġ yÃ¬Ġ
ĠkÃ¨ ĠlÃ¬Ġ
gÇĶĠ lÄģĠ
fÄĵi ĠxÃŃng
biÄģn ĠyuÃ¡nĠ
mÃ² ĠÄĽrĠ
niÃ¡ng Ġ
fÄģĠ shÄĵngĠdeĠ
ĠxiÄģngĠ tÃ³ngĠ
ĠyÇĲĠsÃ¨Ġ liÃ¨Ġ
tÃ¨ ĠlÃ¬Ġ
1954 ĠniÃ¡nĠ
ĠshÃŃĠ bÃłoĠ
xÄ«ngĠ qÄ«
4 ĠgÃ¨Ġ
Ġ fÇĴu
qiÃ¡n ĠhÃ²uĠ
shÄģnĠdÅįngĠ shÄĽngĠ
ĠzhÄģo ĠhÃ©Ġ
zÇĶ ĠdeĠ
zhÅįngĠ yÄģngĠ
ĠduÃ¬Ġ cÇĲĠ
ĠzhÇĲ ĠzÃłiĠ
ĠĠĠgÃłiĠ yÃłoĠ
Ġ sÃ²ng
Ġ 2006
ĠĠĠ for
duÃ¬ ĠyuÃ¡nĠ
sÄģn ĠdÃłĠ
ĠdeĠ zhÇĶĠyÃłoĠ
shÄ«Ġ qÃ¹Ġ
tÃłiĠ kÅįngĠ
ĠzÃ¬Ġ yÃ³u
Ġ qÇĲngĠ
Ġ 2000ĠniÃ¡nĠ
ĠjÅ«n ĠdÃ¬Ġ
ĠshÄĵngĠ mÃŃngĠ
Ġ wÃłi
zhÃł ĠdÃłnĠ
yÃº ĠĠĠ
wÇİng ĠshÃłngĠ
tÇİ ĠÄĽrĠ
ĠdÃ¬Ġ zhÃ¨nĠ
xiÃłĠ jiÃłngĠ
ĠshÇĴuĠ cÃ¬Ġ
lÇĲngĠ dÇİoĠdeĠ
yÃ¡nĠjiÅ« ĠshÄĵngĠ
tÃ¨ ĠÄĽrĠ
ĠxiÃłn ĠyÇĴuĠ
ĠyuÃ¡nĠ yÄ«n
Ġ000 Ġ
wÅ« ĠsÄ«Ġ
hÇİo ĠpÃŃngĠ
pÃ¹ Ġ
zhÄģi Ġ
ĠzhÅįngĠ jiÄģnĠ
pÇĶĠ chÃ¡Ġ
bÇİo ĠdeĠ
duÅįĠ cÃ¬
Ġ cÃ¡i
ĠjÃŃĠ bÃ¬ngĠ
tÃ³ng ĠmÃŃngĠ
tÃ¨ ĠyÇĴuĠ
biÄģn ĠwÃ¨iĠ
bÃ³Ġ juÃ©Ġ
ĠwÄĵiĠ liÃ¡nĠ
Ġ Ch
Ġ guÇİnĠ
Ġ xiÄģnĠhÃ²uĠ
mÇĲ ĠdeĠ
ĠxÃŃng ĠbÃ¹Ġ
qÄ«nĠ wÃ¡ngĠ
kuÃłiĠ sÃ¹
cÃºn ĠdeĠ
diÃłnĠshÃ¬Ġ tÃ¡i
Ã©ĠluÃ³Ġ sÄ«ĠdeĠ
Ġ guÇİngĠdÅįngĠ
qÃŃng ĠdeĠ
ĠshÃ¬Ġ yÄ«ĠbÃ¹Ġ
ĠxÄ«nĠ zÄĵngĠ
gÇİiĠ zhÃ¬ĠwÃ¨iĠ
huÃŃĠ guÄ«Ġ
ĠĠĠdÃ¬Ġ yÄ«Ġ
gÇİng ĠyuÃ¡nĠ
1955 ĠniÃ¡nĠ
fÃ¨iĠ yÃ¡nĠ
Ġ tuÄ«Ġ
shÄ« ĠgÅįngĠ
fÄĽn ĠsÄ«Ġ
zhuÃ¬ Ġ
zhÇĲĠ kÃ²ngĠ
mÃ¬ ĠdeĠ
xÅ«n Ġ
bÄĵng Ġ
chÄĵĠ liÃłng
zÃłnĠ tÃŃngĠ
shÄĵn ĠshÃ¬Ġ
dÃ¡ ĠzhÅįuĠ
yÇĲngĠ xiÃłngĠ
ĠĠĠ deĠĠĠ
zÃłi ĠĠĠ
fÄģngĠ mÇĲĠ
ĠzÃ¬Ġ dÃ²ngĠ
Ġ mÃ¡oĠ
ĠdeĠ huÃłĠ
dÃłĠ qÅ«Ġ
shÄĽngĠ jiÄĵĠrÇİngĠ
sÄģn ĠrÃ©nĠ
sÄģn ĠgÃ¨
tÃ¨Ġ zhÄĵng
Ġ 45
zhÄĽ ĠhÃ©Ġ
ĠjiÃ©Ġ shÃ¹Ġ
ĠzuÃ¬ ĠdÃłĠ
wÇĶ ĠgÃ¨Ġ
ĠzhÃ¨Ġ yÃłngĠ
ĠjÃ¬nĠ zhÇĲĠ
ruÃ¬Ġ diÇİnĠ
ĠmÃłi ĠkÃ¨Ġ
Ġ 25
ĠbÃ¹Ġ yÄ«Ġ
ĠpÃŃngĠ lÃ¹nĠ
jÃ¬ngĠnÃ¨iĠ gÃ²ngĠyÇĴuĠ
lÃ¹ĠyÃ¬Ġ sÄ«Ġ
sÃ¬ ĠshÃ¬Ġ
tÃłi ĠdeĠ
pÃ¨i ĠbÃ¨iĠ
zhÇİnĠ lÇİnĠ
Ġ shuÇĲ
ĠĠĠ jÄ«nĠ
yÃ³u ĠxÃŃngĠ
ĠniÃ¡nĠ lÃŃngĠ
ĠshÃ¨ĠhuÃ¬Ġ zhÇĶĠyÃ¬Ġ
Ġ guÅį
Ġ shÃłnĠ
zhÄĽ ĠhuÃ¬Ġ
huÄģng Ġ
ĠshÃ¬ĠyÄ«Ġ kÄĵĠ
ĠshuÄģngĠ fÄģngĠ
ĠzÃłiĠyÃ¬Ġ qÇĲĠ
shÇĲ ĠyÃºĠ
lÄģ ĠhÃ©Ġ
huÃŃ ĠguÃ³Ġ
ĠbÃ¹Ġ lÃ¡iĠ
ĠshÃŃĠ xÃ¬ngĠ
ĠjÃ¬Ġ zÇİi
xÄ«nĠ wÃ©n
bÇİoĠ luÃ³Ġ
jÃ¬ngĠ zhÄĵng
Ġ 200
dÄģng ĠniÃ¡nĠ
ĠjÃŃĠ hÃ²uĠ
lÇľĠ sÃ¨Ġ
cÄģnĠ shÃ¹Ġ
ĠjiÄģngĠ sÅ«Ġ
wÃºĠxiÃłnĠ diÃłnĠshÃ¬Ġ
Ġ chÇĶĠ
Ġ kÄĽĠnÃ©ngĠ
shÃ¨ng ĠchÅ«Ġ
ĠdÃ¬Ġ zhÃ¬Ġ
ĠzhÃ¬Ġ yÃŃĠ
ĠxÄ«Ġ ÄĽrĠ
fÃ¨iĠ yÃ²ngĠ
yÃ¬ng ĠjÃŃĠ
ĠbÃ¨iĠ pÃ²Ġ
dÃ¹Ġ shÇĲĠ
chÇİnĠshÄĵngĠ leĠ
ĠĠĠ 2019ĠniÃ¡nĠ
mÇİ ĠkÃ¨ĠsÄ«Ġ
kÅ« Ġ
ĠguÃ³ĠjiÄģĠ duÃ¬Ġ
tiÄĽĠlÃ¹Ġ chÄĵĠzhÃłnĠ
ĠdÃ²ngĠ wÃ¹Ġ
Ġ hÃºĠnÃ¡nĠ
ĠgÅįngĠ qÇĲngĠ
ĠjiÄģĠ zÃº
wÃ¡ng ĠwÃ¨iĠ
tuÄ« ĠjiÃłnĠ
liÃ¡nĠ rÃ¨nĠ
lÃ¨i ĠxÃŃngĠdeĠ
sÇĲ ĠyÃºĠ
ĠtÄģĠ cÃ©ngĠ
zhÇİngĠ zÇĲĠ
bÄĽiĠ fÄģngĠ
chuÃłngĠ zÃłoĠ
ĠcÃ©ngĠ rÃ¨n
ĠĠĠ 3Ġ
zhuÅį Ġ
ĠgÅįngĠ gÃ²ng
ĠdÃłĠ dÃło
fÃºĠ luÃ³ĠlÇĲĠ
nÃ³ngĠ cÅ«nĠ
ĠshÃ¬ĠzhÅįngĠ huÃ¡ĠrÃ©nĠmÃŃnĠgÃ²ngĠhÃ©ĠguÃ³Ġ
yÇĲngĠxiÇİng ĠlÃ¬Ġ
ĠdeĠzuÃ²Ġ biÄģoĠwÃ¨iĠ
8 ĠrÃ©nĠ
O Ġ
Ġ zhÃ²ng
Ġ 27
10 ĠniÃ¡nĠ
chÅįng ĠjÄ«Ġ
section ĠĠĠ
ĠshÃ¬Ġ huÃ¬Ġ
qÃºnĠ dÇİo
Ġ fÇĶĠ
Ġ 2022ĠniÃ¡nĠ
sÄģn ĠjÃŃĠ
yÄ«ng ĠlÇĲĠ
ĠzÃłiĠ xÄ«nĠ
tÃ¨Ġ diÇİnĠ
tiÄģnĠ rÃ¡nĠ
ĠĠĠjiÄģĠ tÃŃngĠ
Ġ qiÅ«Ġ
lÇľ ĠdeĠ
ĠzÃłiĠ tÄģĠdeĠ
chÅ«Ġ qÄ«Ġ
fÃ¡ngĠ wÅ«Ġ
shÃ¨Ġ huÃ¬
v Ġ
jÃŃ ĠbÃ¹Ġ
shÄĵng ĠzhÃ¬Ġ
fÃ¹Ġ jÃ¬n
fÄģngĠ xiÃłng
tÃ¨Ġ lÄģĠ
qÄ«ngĠ chÃ¡oĠ
jÃ¬ngĠ nÃ¨i
gÃ¹Ġ dÃ¬ngĠ
Ġ shÄĽnĠ
ĠĠĠ shÇĲĠyÃ²ngĠ
cÃ³ng ĠwÃ¨iĠ
biÇİn Ġ
ĠyÄ«Ġ rÃ©nĠ
ĠdÃło ĠhÃ©Ġ
gÄģoĠ dÃ¡Ġ
Ġ nÇİi
Ġ sectionĠĠĠ
xÄ«n ĠshÃ¬Ġ
zhÅįngĠ yÄģng
ĠshÃŃĠ zhÃ¬Ġ
ĠdÃło ĠyÄ«Ġ
qÃ¬Ġ xuÃ¡nĠ
gÃ¨ngĠ duÅįĠdeĠ
bÄģn ĠdeĠ
Ġ Ñ
xuÇİn ĠchÅ«Ġ
zÃ²ng Ġ
mÄģ Ġ
wÃ¡nĠ zhÄĽngĠ
Ġ tiÄĽĠ
yÃŃ ĠdÃłoĠ
shÄĵngĠ jÄ«Ġ
guÄģnĠ cÃ¨Ġ
ĠyÄĽ ĠbÃ¹Ġ
qÄ«ngĠ shÃłoĠniÃ¡nĠ
1 ĠgÃ¨Ġ
Ġ xÇĶĠduÅį
lÃŃ ĠmÇĲĠ
ĠshÃ¬Ġ jÃ¬ĠdeĠ
ĠyÇĴuĠ dÃłĠ
Ġ 2024
jiÄģ ĠgÅįngĠ
luÃ² ĠsÄ«Ġ
ĠshÃ¬Ġ yÃ³u
fÃ¹Ġ jÃ¬nĠdeĠ
mÄĽiĠguÃ³Ġ rÃ©nĠ
ĠzhÇĲ ĠshÃ¬Ġ
zhÃłngĠ fÅ«Ġ
xuÃ© ĠbÃ¹Ġ
ĠyÇĴuĠ zhÃ¹Ġ
Ġ Ãłn
yÃ¬ ĠbÃ¹Ġ
1947 ĠniÃ¡nĠ
guÃ³Ġ huÃ¬Ġ
xÄ«Ġ bÄĽiĠbÃ¹Ġ
ĠtÄģĠ rÃ¨nĠwÃ©iĠ
mÃ¹Ġ nÃŃĠ
qÇĶĠ xiÄģo
ĠtÃ³ngĠ pÃ¡iĠ
kuÃ²Ġ zhÇİn
sÇĲ ĠxÃŃngĠ
qÃ¬ng ĠzhÃ¹Ġ
tiÄĵ Ġ
ĠdeĠ gÃ¹ĠshÃ¬Ġ
zhÃłnĠ lÇĲng
ĠtÃ³ngĠ yÃłngĠ
ĠĠĠgÄĵnĠjÃ¹Ġ 2020ĠniÃ¡nĠmÄĽiĠguÃ³ĠrÃ©nĠkÇĴuĠpÇĶĠchÃ¡ĠdeĠshÃ¹ĠjÃ¹Ġ
zuÃ¬ ĠwÃ¨iĠ
guÃ³Ġ lÃ¬Ġ
nÃłĠ cuÃ¬
huÃ¡ngĠ sÃ¨Ġ
zÄĵngĠjiÄģĠ leĠ
Ġ dÄĵngĠ
bÃ¬ng ĠwÃ¨iĠ
hÇİi ĠshÃłngĠ
guÃ² ĠyÃºĠ
zhÃ³u Ġ
fÄĵnĠ pÃ¨iĠ
ĠS Ġ
shÃłngĠhÇİi ĠshÃ¬Ġ
Ġ bÄģoĠhÃ¡nĠ
quÃ¡n ĠdeĠ
zÇĴng ĠhuÃ¬Ġ
huÃŃ ĠhÃ©Ġ
rÃ©ng ĠzÃłiĠ
lÇİo ĠshÄ«Ġ
1973 ĠniÃ¡nĠ
ĠzÃłiĠ tÄģĠ
ĠyÄ«Ġ zhÃ¬Ġ
ĠchÅ«Ġ fÄģĠ
sÃ¨Ġ fÅ«Ġ
xiÄģng ĠjÃ¬Ġ
dÄĽng ĠdeĠ
sÃ¬ ĠdÃłĠ
qiÃ¨ ĠÄĽrĠ
1971 ĠniÃ¡nĠ
jÄ«ngĠ jÃ¬
liÃ¡nĠ jiÃ©Ġ
fÃ¡ng ĠwÃ¨iĠ
50 Ġ
Ġ kuÄģn
Ġ 2003ĠniÃ¡nĠ
ĠlÃ¬Ġ shÇĶĠ
ĠbÃ¬ngĠ rÃ¹Ġ
bÄģnĠ jiÇİngĠ
xÃ¬ng ĠshÃ¬Ġ
duÃ¬Ġ shÇĴuĠ
zhuÄģnĠ mÃ©nĠ
ĠdeĠjÃ¬Ġ lÃ¹Ġ
Ġ kÃ¹
ĠjÃŃĠ xÃŃngĠzhÃ¨ngĠ
ĠlÃ¬Ġ ziĠ
ĠyÄĽ ĠhuÃ¬Ġ
ĠÄģĠ lÄģĠ
lÃ¡iĠzÃ¬ ĠyÃºĠ
Ãłi ĠdeĠ
shÃ²u ĠquÃ¡nĠ
piÃłn ĠdeĠ
100 Ġ
1977 ĠniÃ¡nĠ
9 ĠrÃ©nĠ
Ġ bÃ¡i
fÃº ĠlÇĲĠ
jiÇİngĠ shÃ¹Ġ
zhÃłoĠ kÄģi
xiÃ©Ġ dÃ¬ngĠ
Ġ000 ĠrÃ©nĠ
wÄģ Ġ
yÄ«Ġ xiÄĵĠ
ĠyÇĲ ĠzhÃ¬Ġ
zhÃŃĠ yÃ¨
hÇİiĠ bÃ¡ĠgÄģoĠ
ĠxiÄģngĠ duÃ¬Ġ
cÄģnĠ sÃłi
fÃłngĠ qÃ¬
cÃºnĠ zÃłiĠdeĠ
fÃ¹ ĠjiÄģĠ
zhuÃłng ĠjÄ«Ġ
ĠjiÃłnĠ kÄģngĠ
hÃ© ĠwÃ¨iĠ
dÄģn ĠyuÃ¡nĠ
shÄĽng ĠdÃłoĠ
lÃ¡o ĠgÅįngĠ
hant Ġ
xÄ«Ġ nÃ¡nĠbÃ¹Ġ
ĠkÃ¨Ġ yÃ¹nĠ
mÇİĠ lÄģĠ
gÇİiĠ gÃ©
nÃ¡nĠjÃŃĠ zhÅįuĠdeĠ
wÇĶĠ qÃ¬
xiÄģoĠ liÃłngĠ
lÃ¨iĠsÃ¬ ĠdeĠ
Ġ 9Ġ
Ġ hantĠ
mÄĽi ĠjÅ«nĠ
bÄģ ĠÄĽrĠ
chuÃłng ĠxÄ«nĠ
tuÃ³ Ġ
quÇİn Ġ
qiÇİo Ġ
ĠyÇĴuĠ guÄģn
zhÃ¨ngĠ xiÃ©Ġ
ĠtÄģĠ duÃ¬Ġ
shÄģnĠ mÃłiĠ
ĠsÃ¬Ġ chuÄģnĠ
hÅįngĠzhÃł ĠjÄ«Ġ
ĠĠĠrÃ¡n ĠÃ©rĠ
chÃ¡ng ĠjiÃłnĠ
chuÃ¡n ĠzhÄ«Ġ
ĠzhÄ«Ġ zhÃłnĠ
shÇĴuĠ bÅįĠ
xÃ¬ngĠ nÃ©ngĠ
yÄ«ngĠ gÄģi
ĠxiÇİoĠ shuÅįĠ
yÄ« ĠbÃ¹ĠfÃ¨n
fÄĵi ĠzhÅįu
ĠxiÃłn ĠzhÄ«ĠxiÃłnĠ
fÄģĠshÄĵngĠ leĠ
shÇĶĠdeĠ zhÃŃĠwÃ¹Ġ
ĠĠĠ dÃłn
zhÃŃ ĠzhÃ¬Ġ
diÃłn ĠdeĠ
yÃło ĠdeĠ
lÃ²u Ġ
yÃ¡nĠ zhÃ²ngĠdeĠ
shÄģĠ sÇĲĠ
ĠlÃ¬ngĠ wÃłi
lÇĲ ĠbÃ¹Ġ
mÃ¬ ĠsÄ«Ġ
ĠjiÃłn ĠshÃ¬Ġ
suÇĴĠ shÇĶ
Ġ chÄĵĠzhÃłn
tÃ³u ĠbÃ¹Ġ
ĠyÃ³uĠ cÇĲĠ
zÇĶĠ zhÇĲĠ
ĠdÅįngĠ jÄ«ngĠ
yÃ¹nĠdÃ²ng ĠdeĠ
Ġ qiÄģn
xÄ« ĠshÃ¬Ġ
jiÄģn ĠshÃ¬Ġ
duÃ¬Ġ wÇĶĠ
zhÇĶĠ xÃŃ
bÄģngĠ zhÃ¹
Ġ dÅįu
jiÄģng ĠtÄģĠ
nÃł ĠdÃ©Ġ
nÃ¬ Ġ
jiÃłngĠ dÄ«
ĠshÃ¬ĠyÃ¬Ġ dÃłĠlÃ¬Ġ
huÃ¬ ĠyÇĲĠ
hÄĵi ĠrÃ©nĠ
jÄ«Ġ bÄĽnĠ
ĠzhÄ«Ġ liÃºĠ
ĠshÃ¨Ġ jÃ¬ĠdeĠ
shuÃłiĠ lÇĲngĠ
tÇĶĠÄĽr ĠqÃŃ
huÃ¬ ĠshÃ¬ĠdÃ¬Ġ
huÃ¡n ĠxÃŃngĠ
ĠzÃłiĠ yÇĶĠ
ĠgÅįngĠ lÃ¹
ĠdÃ© ĠdÃłoĠleĠ
Ġ 40
bÃ¹Ġ fÃ¨nĠ
nÃ¡Ġ pÃ²Ġ
zhÄĽng ĠgÃ¨
xiÄģngĠ bÇĲĠ
cÄģnĠ tÄ«ngĠ
ĠshÃ¬ĠyÄ«Ġ zuÃ²Ġ
zhÅįuĠ biÄģnĠ
ĠshÃ¬ĠjiÃ¨Ġ bÄĵiĠ
ĠmÇİ ĠlÃ¬Ġ
xiÃłĠxiÃ¡ ĠyÇĲĠxiÃł
ĠxiÃłnĠ jÄ«nĠ
hÃ¡ngĠ tiÄģnĠ
W Ġ
Ġ lÇĲngĠ
ĠĠĠ 3ĠyuÃ¨Ġ
shÃłng ĠbÃ¹Ġ
zhÇİng ĠdÃłĠ
luÃ³ ĠdÃ©Ġ
ĠdÃłĠ liÃłng
shuÄģngĠ dÇİĠ
ĠguÄģnĠ fÄģngĠ
Ġ bÃło
zÃ¬ ĠwÃ¨iĠ
en ĠĠĠ
yÃŃĠ chÇİn
yÃ¡n ĠshÃŃĠ
ĠlÃ¬Ġ yÃ²ng
ĠxÃŃngĠ shÇĲĠ
gÃ© ĠÄĽrĠ
zÇĴngĠ cÃ¡iĠ
Ġ jÇĲĠ
ĠnÃ¡nĠ ziĠ
ĠshÄĵngĠzhÇİng ĠyÃºĠ
Ġ huÃ¡nĠ
Ġ qÃŃnĠ
Ġ xÅ«ĠyÃłoĠ
zhÇĲ ĠdeĠ
se ĠĠĠ
lÃł Ġ
ĠgÅįngĠ chÇĲ
ĠqiÃº ĠhuÃ¬Ġ
chuÃ¡nĠ mÃ©iĠ
ĠĠĠofĠĠĠ theĠĠĠ
hÇİiĠbÃ¡ĠgÄģoĠ dÃ¹ĠwÃ¨iĠ
ĠĠĠ 2018ĠniÃ¡nĠ
jÃ¬ ĠzÃłiĠ
xÄ«n ĠrÃ©nĠ
bÄĽn ĠxiÃłnĠ
cÇĲ ĠshÃŃĠ
zhÄĽ ĠwÃ¨iĠ
nuÃ² ĠyÄ«Ġ
th Ġ
ĠhÃ©Ġ lÇĲĠ
ĠjÃŃĠ lÃŃnĠ
xiÄģngĠ tÃ³ngĠdeĠ
ĠzhÅįngĠguÃ³Ġ guÃ³ĠmÃŃnĠ
ĠĠĠ 2007
1962 ĠniÃ¡nĠ
ĠzhÃ¨Ġ shÇĴuĠ
guÄģngĠ xÃ¹Ġ
wÇĶ ĠyuÃ¨Ġ
dÄģn ĠyÄ«Ġ
biÃ© ĠdeĠ
yÃ³uĠ tÃłiĠrÃ©nĠ
yÃłĠ mÃ¹Ġ
ĠdeĠchÃ©ngĠ zhÃ¨nĠ
Ġ bÄģoĠ
Ġ liÇİngĠgÃ¨Ġ
lÄģ ĠÄĽrĠ
xÃºn ĠqiÃºĠ
ĠbÃ¹Ġ ÄĽrĠ
ĠxÃŃngĠ xiÃłngĠ
ĠwÃ©iĠ chÃŃĠ
yÇĲnĠ zhÇĴngĠ
Ġ lÃ¨iĠ
bÃº ĠyÃłoĠ
shÄģng ĠdeĠ
cÅįng Ġ
ĠbÃ¹Ġ dÃŃĠ
ĠyÃºĠ lÃ¨iĠ
Ġ p
Ġ hÃ¡n
ĠĠĠ 5ĠyuÃ¨Ġ
ĠzÃłiĠ gÄģiĠ
ĠguÃ³Ġ mÃŃn
yÃŃngĠ yÃ¨Ġ
qiÄģnĠ yuÄĵĠ
cÄģnĠyÃ¹Ġ leĠ
ĠjiÄģng ĠqÃŃĠ
wÄĽiĠfÃ¹Ġ shÅ«ĠjÃ¬Ġ
wÇĶ ĠdÃ¬Ġ
sÄ«Ġ lÃ¡nĠ
ĠkÃ¨Ġ lÄģĠ
dÇĲĠ kÃłngĠ
zhÃŃ ĠyuÃ¡nĠ
ĠyÄ«Ġ liÃ¡oĠ
qiÄģnĠ dÃ¬ngĠ
ĠjiÃłoĠ yÃ¹
Ã© ĠwÃ¨iĠ
ĠhÃ©Ġ jÃŃĠ
ĠyÄ«Ġ cÃŃĠ
mÄĽiĠ yuÃ¡nĠdeĠ
ĠqÃŃĠzhÅįngĠ nÃ¡nĠxÃ¬ngĠ
ĠliÃºĠ yÃ¹Ġ
jiÃło ĠyÃºĠ
gÄĵ ĠdeĠ
huÃ¡i ĠyÃŃĠ
ĠwÃ¨iĠ cÇĲĠ
ĠdÃ¬Ġ miÃłnĠ
ĠdÃ¬Ġ 1Ġ
tÇĲĠ yÃ¹
cÃ©ngĠ shuÇĲĠyÃ¹Ġ
rÃ³ngĠ nÃłĠ
ĠjiÃ©Ġ gÃ²uĠ
gÇĶĠfÃ¨n ĠyÇĴuĠxiÃłnĠgÅįngĠsÄ«Ġ
zhuÃłnĠdeĠ xiÇİoĠxÃŃngĠxÄ«ngĠ
ĠhÃ²uĠ qÄ«Ġ
ĠkÃ¨Ġ lÃ¡iĠ
jiÄĵĠ rÃ¨nĠ
zhÇĲĠ dÃ¬ngĠ
xiÃłoĠ yÃ¬ngĠ
Ġ guÄģng
Ġ 12Ġ
ĠĠĠ pÃŃngĠjiÃłĠ
yÃ³u ĠqÃŃĠ
liÃ¡ng ĠshÃŃĠ
ĠshÃ¬Ġ nÃ¨iĠ
yuÃ¨Ġ nÃ¡nĠ
jÃ¬ngĠ sÃłiĠ
ĠdeĠdÃ¬Ġ Ã¨r
mÃ²ĠsÄ«Ġ kÄĵĠ
yÃ³u ĠrÃ©nĠgÅįngĠ
zhÇİng ĠwÃ¨iĠ
gÄĵ ĠjÃ¹Ġ
ĠshÃ¬Ġ xÄ«Ġ
ĠyÄ«Ġ zhÄ«Ġ
ĠshÃ¨ ĠjÄ«Ġ
ĠjiÃłnĠlÃ¬Ġ leĠ
Ġ hÃ¨
Ġ wÅ«ĠkÃ¨ĠlÃ¡nĠ
ĠĠĠ chÃºĠleĠ
chÃ¡o ĠdeĠ
tuÄ« ĠchÅ«ĠdeĠ
ruÇİn ĠtÇĲĠ
1938 ĠniÃ¡nĠ
ĠniÃ¡nĠ qiÃ¡nĠ
gÇİnĠ lÇİn
tuÄ«Ġ guÇİngĠ
Ġ yÅįuĠ
mÃ©n ĠdeĠ
ĠshÃŃĠ yÃ²ngĠ
Ġ lÇļ
zhÅįngĠ xÄ«nĠ
ĠxÃ¬Ġ tÇĴng
Ġ sÃº
Ġ zhuÄģnĠjÃŃĠ
shÃ¹ ĠshÃ¬Ġ
ĠjiÃłn ĠwÃ¨iĠ
bÄģĠ lÄģĠ
ĠchÃ¡oĠ xiÄģnĠ
Ġ qÇĲng
ĠÄĽr ĠdÃ©
shuÃ²ĠshÃ¬Ġ xuÃ©ĠwÃ¨iĠ
yÃ¹n ĠhÃ©Ġ
yÃ¡ng ĠxiÃłnĠ
wÃ©iĠ zhÇĲĠ
huÃ¡ĠshÃ¨ngĠ dÃ¹n
Ġ 11Ġ
zhÄ« ĠyuÃ¡nĠ
gÃ¨ ĠdÃ¬Ġ
biÄģn ĠhÃłoĠwÃ¨iĠ
ĠzhÃ¬Ġ zÃło
ĠyÄ«Ġ tiÃ¡oĠ
kÄģiĠ zhÇİnĠ
fÇİĠ tÃŃngĠ
ĠqiÃºĠ chÇİngĠ
qÃºnĠ tÇĲĠ
leĠyÄ«Ġ xiÄĵĠ
ĠgÅįngĠchÃ©ngĠ shÄ«Ġ
ĠtÅįngĠ guÃ²
wÃ¹ ĠzhÅįngĠ
mÃ©ng ĠjÅ«nĠ
1939 ĠniÃ¡nĠ
luÃ³Ġ bÃ³ĠtÃ¨Ġ
zÇĴngĠ jiÄģnĠ
ĠzÃłiĠdÃ¬Ġ Ã¨rĠ
pÃŃngĠjÅ«nĠ hÇİiĠbÃ¡ĠgÄģoĠdÃ¹ĠwÃ¨iĠ
Ġ mÇİn
Ġ chÃ©ngĠshÃ¬Ġ
ĠĠĠ jÄ«ngĠjÃ¬Ġ
zhÃŃ ĠlÃ¬Ġ
ĠwÃ¨iĠ mÃŃngĠ
ĠwÃ¨iĠyÃºĠ zhÅįngĠhuÃ¡ĠrÃ©nĠmÃŃnĠgÃ²ngĠhÃ©ĠguÃ³Ġ
lÃŃĠ ziĠ
ĠrÃ©nĠmÃŃnĠ bÃ¬Ġ
dÅ«Ġ dÅ«Ġ
5 ĠmÇĲĠ
1965 ĠniÃ¡nĠ
ĠxÄ«Ġ yÇĲnĠ
bÄĽnĠ tÇĶĠ
jiÇİnĠ dÄģnĠ
dÄĵngĠ chÃ¡ngĠ
yÃ¡ng ĠgÅįngĠ
1936 ĠniÃ¡nĠ
ĠyÇĴuĠ lÃ¬Ġ
ĠtÄģĠ yÄĽ
ĠÃ©rĠgÄģiĠdÃ¬ĠdeĠ pÃŃngĠjÅ«nĠhÇİiĠbÃ¡ĠgÄģoĠdÃ¹ĠwÃ¨iĠ
Ġ wÅ«
Äģ ĠÄĽr
qÇĲ ĠleĠ
shÄ« ĠrÃ©nĠ
fÄĵng ĠdeĠ
nÃŃ ĠxÄ«ĠyÃłĠ
cÃ¹ ĠjÃ¬n
hÇİn ĠmÃ²
1959 ĠniÃ¡nĠ
ĠzÃłiĠ rÃ¬ĠbÄĽnĠ
gÅįngĠ kÄģiĠ
lÃ¹Ġ zhÃłnĠ
jiÄĵĠ shÅįuĠ
ĠĠĠ tiÄģnĠ
lÃ¬ ĠzhÅįngĠ
zÃº ĠqiÃºĠduÃ¬Ġ
2010ĠniÃ¡nĠ mÄĽiĠguÃ³ĠrÃ©nĠkÇĴuĠpÇĶĠchÃ¡ĠdeĠshÃ¹ĠjÃ¹Ġ
jÄ« ĠshÃ¬Ġ
chÅ« ĠdÃłoĠ
yÇİn ĠchÅ«
yÃ¬ng ĠduÃ¬Ġ
xuÃ©Ġ xÃŃ
ĠzhÄ«Ġ qiÃ¡n
fÇİĠ lÃ¡nĠ
yÇĲnĠzhÇĴngĠ zÄģiĠpÃ©iĠ
Ġ sÃł
Ġ yÃºnĠnÃ¡nĠ
ĠdÃłĠ qiÃ¡oĠ
miÃłnĠ lÃŃnĠ
xÃºnĠ huÃ¡nĠ
huÃłnĠ zhÄĽĠ
Ġ wÃ¡nĠchÃ©ngĠ
chÅ« ĠrÃ¨nĠ
shuÅį ĠshÃ¬Ġ
bo Ġ
ĠjÃŃĠ shÇĲ
rÃ¹Ġ qÄ«n
shÄĽngĠ wÄĽiĠ
ĠxÄ«nĠ zÄĵng
zhuÄģngĠ jiÇİ
ĠzhÇĲ ĠchÅ«Ġ
shÄĽnĠ chÃ¡Ġ
fÄĵiĠlÇľĠ bÄ«n
kÇİĠluÃ³Ġ lÃ¡iĠ
Ġ pÃ¡iĠ
yuÃ¡n ĠdÃ¬Ġ
liÃ¨ ĠshÃ¬Ġ
shÄĵn ĠshÃłngĠ
1967 ĠniÃ¡nĠ
1935 ĠniÃ¡nĠ
km Ġ
ĠzÃłiĠ bÄĽiĠ
wÃ©iĠ ÄĽr
ĠxÄ«Ġ xÄ«Ġ
hÄĽnĠ duÅį
pÇĲ Ġ
zhÄĽng ĠhÃ©Ġ
jÄ«Ġ bÇİiĠ
ĠjÄ«Ġ yÄ«nĠ
dÃ²ngĠ huÃł
zhÇİngĠ yuÄĵĠ
suÇĴĠ chÃ¹ĠdeĠhÇİiĠbÃ¡ĠwÃ¨iĠgÄģoĠyÃºĠhÇİiĠpÃŃngĠmiÃłnĠ
nÃłĠ xiÄĵĠ
chuÃ¡nĠ bÅį
gÇİngĠ kÇĴuĠ
zhÇİnĠ kÄģi
yÃ³uĠrÃ©nĠgÅįngĠ yÇĲnĠzhÇĴngĠzÄģiĠpÃ©iĠ
Ġ zhÄĽngĠ
Ġ shÃ¨nĠ
qÃŃng ĠxÃŃngĠ
tÅįngĠ xÃ¹nĠ
qÃŃngĠ xÃ¹Ġ
yÇĴngĠ jiÇĶĠ
rÃ¨ĠdÃłiĠ fÄĵngĠbÃłoĠ
Ġ pÃłiĠ
Ġ xÇĶĠ
tÄģi Ġ
jÅ«ĠmÃŃnĠ diÇİnĠ
jÃ¬ ĠjÃŃĠ
cÃ¬ ĠwÃ¨iĠ
ĠzhÄ«Ġ fÇĶĠ
ĠshÃ¨Ġ huÃ¬
ĠhÃłnĠ zÃºĠ
ĠĠĠ 2017ĠniÃ¡nĠ
yÇĶ ĠshÃ¬Ġ
dÃ²ng ĠgÅįngĠ
lÇĶ ĠkÃ¨Ġ
ĠbÃ¹Ġ jiÄģĠ
ĠyÇĲĠ shÃłngĠdeĠ
ĠyÇĶĠ cÇĲĠtÃ³ngĠshÃŃĠ
mÇĲĠ yÃłĠ
ĠzhÇĶĠ chÃŃĠ
ĠsuÃŃĠ zhe
fÄĵnĠbiÃ© ĠwÃ¨iĠ
xÄ«nĠjiÄģĠ pÅįĠ
Ġ tuÃ¡nĠ
Ġ ÅįuĠzhÅįuĠ
sÃ¬ ĠmÃŃngĠ
bÄ«ng ĠbÃ¹Ġ
ĠdeĠyÄ«Ġ xiÄĵĠ
dÇĲĠ dÃ¡
ĠsÅ«Ġ liÃ¡nĠ
liÇİoĠ jiÄĽ
zhÇĲ ĠyÃºĠ
guÃłi Ġ
gÇĴng Ġ
zÇĶĠ chÃ©ng
gÃłoĠ sÃ¹Ġ
fÄģĠzhÇİn ĠdeĠ
yÇĲ ĠhÃ²uĠ
duÃ¬ ĠhÃ©Ġ
gÃ© ĠlÃ¬Ġ
dÄĵng ĠjÃ¬Ġ
ĠsÄ«Ġ kÇİĠ
jÃ¹Ġ qÃŃngĠ
ĠwÃ©iĠ yÃłĠ
ĠzhÅįngĠguÃ³Ġ dÃłĠlÃ¹ĠdeĠ
xiÃłĠxiÃ¡ĠyÇĲĠxiÃł ĠdÃ¬ĠqÅ«Ġ
ĠĠĠ jÃ¬Ġ
chÅ« ĠshÄĵngĠ
liÃº ĠdeĠ
yÇİn ĠshÄĵngĠ
dÃłĠ shÇĲĠ
ĠxÄ«Ġ ÄģnĠ
fÄĵiĠ fÇİĠ
cÃ¨Ġ liÃ¡ng
ĠjiÃłoĠ shÃ²uĠ
chuÃłngĠ bÃłnĠ
bÃ¡i ĠzhÃ¬Ġ
ĠzhÃ¬Ġ liÃ¡o
shÇĴuĠ xÃŃĠ
jiÃ¨Ġ shÃło
zhuÃłngĠ kuÃłng
ĠbÃ¬Ġ yÃ¨ĠyÃºĠ
ĠÃło ĠdÃłĠlÃ¬Ġ
xÃºnĠyÃ¡ng ĠjiÃłnĠ
fÄĵn ĠzhÄ«ĠyÄ«Ġ
wÃ©nĠ huÃłĠdeĠ
guÄ«Ġ fÃłnĠ
ĠĠĠ 2016ĠniÃ¡nĠ
kÅįng ĠjÅ«n
shÃ¹n ĠshÃŃĠ
1963 ĠniÃ¡nĠ
ĠbÃ¹Ġ biÃłnĠ
ĠchÅ«Ġ xÃŃĠ
tÃºĠ xiÃłngĠ
wÄĵiĠ xiÇİnĠ
ĠzhÃ¨ ĠbÃ¹Ġ
ĠniÃ¡nĠ7ĠyuÃ¨Ġ 1ĠrÃ¬Ġ
wÃ¨nĠtÃŃ ĠdeĠ
ĠjÃ¬nĠshÃ¬Ġ chÅ«ĠshÄĵnĠ
mÄģo Ġ
ĠzhÃ¬Ġ shÇİo
ĠxiÃłnĠ rÃ¹Ġ
nÃ¡nĠ fÄģngĠ
ĠbÃ¨iĠ qÃŃĠ
ĠqÃŃĠzhÅįngĠ nÃ¡nĠ
mÃ¡oĠzÃ©Ġ dÅįngĠ
Ġ tÄģng
Ġ gÃłiĠ
zi ĠhÃ©Ġ
dÃ¡ ĠÄĽrĠ
lÇĶ ĠshÃ¬Ġ
ĠbÃ¹Ġ zhÃ¬Ġ
ĠdÃ¬Ġ sÄ«Ġ
zÄ«Ġ shÄĽngĠ
pÃŃnĠ lÇľĠ
Ġ ãĥ¼
ĠĠĠ 10ĠyuÃ¨Ġ
yÃ¹ ĠjÃ¬Ġ
hÇİn Ġ
ĠzhÅįngĠ zuÃ¬Ġ
ĠjÃ¬Ġ niÃłn
pÃłnĠ juÃ©Ġ
gÃ²ngĠchÇİnĠ zhÇĶĠyÃ¬Ġ
ĠyÇĲĠsÃ¨Ġ liÃ¨
ĠĠĠ bÄĽiĠ
duÅį ĠgÃ¨
qÇĶ ĠjiÄģĠ
liÇĶ Ġ
1953 ĠniÃ¡nĠ
jÃºĠ jÃºĠzhÇİngĠ
f Ġ
fÃ¡n ĠzhÃŃĠ
gÄģnĠ sÃ¹Ġ
Ġ15 Ġ
ĠdÄģnĠ rÃ¨n
zÃ¬ĠxÃŃngĠ chÄĵĠ
Ġ 2005
miÃ¡o ĠhuÃ¬Ġ
ĠyÄ«Ġ mÃ©iĠ
fÄĵnĠ lÃ¨i
ĠpÃŃngĠ jiÃłĠ
duÅįĠ yÃłngĠ
ĠnÃ¡nĠ bÄĽiĠ
shÃłoĠ jiÃłngĠ
fÄĵi ĠlÃ¬Ġ
ĠsÄ«Ġ xiÇİngĠ
yÃ¡nĠ zhÃ²ng
dÄģngĠ jÃºĠ
ĠshÃ¬ĠzhÅįngĠ xÄ«nĠ
ĠĠĠ lÃ¬ngĠwÃłiĠ
hÃ²u ĠshÃ¬Ġ
zhÃ¹ ĠdÃ¬Ġ
yÇĲn ĠshÃŃĠ
ĠshÃ¬Ġ wÅ«ĠkÃ¨ĠlÃ¡n
zhÇĶĠ chÇİngĠ
ÃłnĠ zhÃłoĠ
ĠgÅįngĠzuÃ² ĠshÃ¬Ġ
cÄģnĠmÃ³u ĠzhÇİngĠ
xiÃłng ĠxÄ«Ġ
Ã¨r ĠzhÃłnĠ
1969 ĠniÃ¡nĠ
ĠchÃ©ngĠ shÃ¬ĠdeĠ
ĠzhÄ« ĠjÃ¬Ġ
ĠdÃłĠ jiÄģĠ
ĠmÃŃngĠ chÄĵng
ĠtÃ³ng ĠyÄ«Ġ
jiÄģoĠ huÃłnĠ
gÇİiĠ shÃłn
ĠhÃ©ĠbÃ¬ng ĠwÃ¨iĠ
Ġ 80
Ġ chÅ«nĠ
yÇĶ ĠyÇĲĠ
zÃ© ĠyÇĴuĠ
luÃ² ĠdeĠ
lÃŃng ĠdeĠ
kÄĵĠ fÅ«
dÄģngĠ xuÇİn
ĠgÅįngĠkÄģiĠ sÃłiĠ
hÅįngĠ zhÃłĠ
Ġ jÇĲ
ĠĠĠ zhÃ¹Ġ
ĠfÄĵnĠbiÃ© ĠwÃ¨iĠ
Ġ Y
zhÃ¨ ĠbÃ¹Ġ
bÇİo ĠzhÃ¨ngĠ
xuÄĵ Ġ
1941 ĠniÃ¡nĠ
ĠyÃºĠ dÃ¬Ġ
rÃ¹Ġ xuÇİn
shÄģngĠ wÃ¡ngĠ
biÄģnĠ jÃ¬ngĠ
ÄģiĠ nÃłĠ
cÃ¬ ĠdÃłĠ
shÄĵnĠ zhÃ¨n
chÅ«Ġ shÄĵngĠyÃºĠ
suÃ¬ ĠshÃŃĠ
ĠdÃ¬Ġ guÃ³ĠdeĠ
bÇİoĠ cÃºnĠ
bÃłoĠ zhÇĲĠ
gÇİiĠ biÄģnĠ
guÇİngĠ gÃło
zÄĵngĠ qiÃ¡ngĠ
qÃºn ĠdeĠ
ĠzÃłiĠ jÄ«Ġ
ĠjiÃłn ĠhÃ©Ġ
Ġ Re
jÄ« ĠbÃ¹Ġ
zhÄ« ĠmÃŃngĠ
rÃ¹ ĠdeĠ
guÃ³Ġ nÃ¨iĠ
ĠgÅįngĠ zhÃłnĠ
ĠyÇĲĠ nÃ¡nĠ
xiÃłnĠ fÇİĠ
zÇĲĠ nÇļĠ
wÃºĠrÃ©nĠ jÄ«Ġ
chuÃŃ Ġ
chuÃłn Ġ
ĠxÃŃngĠ chÃ©ngĠdeĠ
qÅ«Ġ fÄĵnĠ
bÄģĠ fÃ¡
bÃłnĠ yÇİnĠ
Ġ 1998ĠniÃ¡nĠ
cÇĲ ĠzhÄ«ĠwÃłiĠ
sÄ«Ġ xiÇİngĠ
ĠdÃłĠ shÄ«Ġ
ĠchÅ«ĠxiÃłnĠ leĠ
miÃ¡oĠ shÃ¹
ĠdeĠmÃŃngĠ zÃ¬Ġ
wÃłi ĠwÃ©iĠ
bÇİi ĠniÃ¡nĠ
ce Ġ
ĠdÃłn ĠyÄ«nĠ
shÄģĠ hÃłiĠ
Ġ xiÃ¡Ġ
xiÃł ĠdeĠyÃŃĠgÃ¨Ġ
huÃ² ĠshÃ¬Ġ
ĠdÃłĠ zhÃ²ngĠ
shÃ²uĠ hÃłiĠ
yÄ«ngĠ guÃ³ĠdeĠ
ĠfÄĵnĠbiÃ© ĠshÃ¬Ġ
zhÇĲĠhuÄ«Ġ guÄģnĠ
wÃ©n ĠzhÅįngĠ
bÅį ĠÄĽrĠ
ĠyuÃ¨Ġ tÃ¡i
ĠnÃ¡nĠ jÄ«ngĠ
bÃ¬ngĠ mÃ©iĠyÇĴuĠ
jiÃłoĠyÃ¹ ĠbÃ¹Ġ
Ġ bÇĶĠ
Ġ rÃ¨Ġ
gÃ²ng ĠshÃŃĠ
ĠwÃ¨iĠ yÃ³uĠ
fÇİĠ lÃ¬ngĠ
miÃłnĠ tÇĲĠ
cÃ¡iĠ wÃ¹Ġ
yÃ¡nĠjiÅ«Ġ yuÃłnĠ
bÃłn ĠniÃ¡nĠ
ĠyuÃ¡nĠ shÇĲĠ
ĠÄĽr ĠzÃłiĠ
jÇĲngĠ guÄģnĠ
Ġ nÃ¨i
Ġ niÇĶĠyuÄĵ
cÃ©ng ĠshÃ¬Ġ
nuÃ² ĠsÄ«Ġ
1980 ĠniÃ¡nĠdÃłiĠ
ĠdeĠ xiÇİoĠ
ĠshÄĵngĠzhÇİngĠyÃºĠ hÇİiĠbÃ¡
mÇİĠ tÃ³uĠ
zhÇİnĠ lÇİn
Ġ gÇİiĠwÃ©iĠ
ĠĠĠ 2006
shÃ¨ng ĠdÃ¬Ġ
ĠdÃło ĠshÃ¬Ġ
ĠdÃłĠ xÃŃng
jÄ«ngĠ yÃŃng
Ġ piÃłnĠ
Ġ yÃłnĠ
Ġ pÃ©iĠ
ĠĠĠ 16
gÄģo ĠyuÃ¡nĠ
chÄĵng ĠhÃłoĠ
tÃ¡o ĠyuÃ¡nĠ
ĠzÃłiĠ yÄ«ngĠguÃ³Ġ
hÃ²uĠ lÃ¡iĠ
ĠzhÃ¨Ġ yÃłngĠdeĠ
pÃłnĠ luÃłnĠ
Ġ piÃłoĠ
Ġ nÃŃngĠ
diÇİn ĠwÃ¨iĠ
ĠwÃ¨iĠ bÃ¨iĠ
ĠhÃ©Ġ fÇİĠ
ĠyÃ¬Ġ si
ĠpÃŃngĠ lÃ¹n
ĠshÃłngĠ shÅ«Ġ
hÃ¡ngĠ yÃ¨Ġ
ĠxÄ«n ĠjiÄģĠ
Ġ 1990
mÇİ ĠdeĠ
qÃŃngĠ jiÃ©Ġ
ĠmÃ¹ĠqiÃ¡nĠ shÃłngĠwÃ¨iĠ
Ġ 2000
tÅ« ĠchÅ«Ġ
ĠdÃło ĠbÃ¹Ġ
pÃŃngĠ mÃŃnĠ
guÄģnĠ fÃ¨iĠyÃ¡nĠ
ĠmÇĲ ĠdeĠdÃ¬ĠqÅ«Ġ
Ġ kÅįngĠ
ĠyÃ¬Ġ mÃŃngĠ
ĠyÇĲ ĠshÃ¬Ġ
ĠzuÃ²Ġ chÅ«
ĠxiÃłnĠdeĠyÃŃĠgÃ¨Ġ fÄĵiĠjiÃłnĠzhÃ¬ĠdÃ¬ĠqÅ«Ġ
Ãłi ĠguÃ³Ġ
shÃłng ĠyÄ«Ġ
1961 ĠniÃ¡nĠ
ĠyÃ¬Ġ jÃŃĠ
tiÄģnĠ huÃ¡ngĠ
fÃ¡ngĠ zhÇĲĠ
dÃ²uĠ zhÄĵngĠ
wÃ¹ĠzhÇĴng ĠdeĠ
ĠhÃ©Ġ tÄģĠdeĠ
jÄ«ngĠ guÃ²
jiÃłoĠ shÃ²u
Ġ 20Ġ
luÃ³ ĠjÃŃĠ
hÃ³ng ĠjÅ«nĠ
31 Ġ
kÄģ ĠfÄĵiĠ
1957 ĠniÃ¡nĠ
ĠyÇĶĠ dÃłĠ
ĠrÃ¨nĠ mÃ¬ng
sÄģiĠ nÃłĠ
lÃ¡i ĠsÄ«Ġ
hÇİo ĠyÇĴuĠ
shÇĲĠyÃ²ngĠ leĠ
ĠzhÅįngĠgÃ²ng ĠzhÅįngĠyÄģng
miÃłn ĠshÃ¬Ġ
tiÄģn ĠjiÄģĠ
chÃ³u ĠbÃ¨iĠ
zuÃ²Ġ chÅ«
chÃ¡ngĠ qÄ«
lÇĲngĠ yÃ¹
yuÃ¡n ĠzhÅįngĠ
ĠyuÃ¡nĠ zÃ©Ġ
dÅįngĠ nÃŃĠ
xiÇİngĠ fÇİĠ
pÇĲnĠ pÃ¡i
mÃ¬ngĠ lÃ¬ng
nÃŃ ĠdeĠ
ĠzhÄ«Ġ chÃ¹Ġ
dÃłiĠ lÃ¡iĠ
ĠdÄģngĠ xuÇİn
Ġ mÃŃn
fÃº ĠÄĽrĠ
dÃ¬ng ĠzÃłiĠ
hÃ¡ng ĠxiÃłnĠ
ĠjÄ«Ġ dÅ«ĠjiÃłoĠ
ĠtÃ³ng ĠrÃ¬Ġ
ĠxÃŃngĠzhÃ¨ngĠ zhÃ¨nĠqÅ«Ġ
Ġ yÃ¡oĠ
ĠĠĠ 2021ĠniÃ¡nĠ
ĠdeĠ lÇĲĠ
ĠdeĠ xÄ«Ġ
ĠshÃ¬Ġ nÃ¡nĠjÃŃĠzhÅįuĠdeĠ
ĠhÃ©Ġ dÃło
Ġ wÃ©i
Ġ tÃºn
Ġ 1999ĠniÃ¡nĠ
ĠĠĠ suÃŃĠ
hÄĵng Ġ
ĠwÃ¨iĠ qÃŃĠ
lÃ¬Ġ yÃ²ngĠ
ĠshÃŃĠ dÃłiĠdeĠ
ĠzuÃ²Ġ biÄģoĠwÃ¨iĠ
xÃ¬ngĠ biÃ©Ġ
chÃ¡ngĠ jiÄģngĠ
1944 ĠniÃ¡nĠ
ĠbÃ¹Ġ dÃ©Ġ
qÃ¬Ġ tÇĲĠ
chÇİnĠ yÃ¨
ĠzuÃ¬ ĠchÅ«
ĠdÃ¬ĠÃ¨rĠ cÃ¬Ġ
ÃłoĠsÄ«Ġ kÇİĠ
Ġ chÄģo
Ġ chÃ¹Ġ
Ġ niÃºĠ
ĠĠĠ zhÃłnĠ
huÃ¬ ĠjÃŃĠ
zuÃ² ĠzhÅįngĠ
pÇĲn ĠzhÃ¬Ġ
bÄ«n ĠshÃ¬Ġ
ĠgÅįngĠ jÄ«nĠ
shÄ«Ġ bÃłi
fÃºĠ hÃłoĠ
ĠĠĠ zhÇĶĠyÃłoĠ
ĠĠĠ TheĠĠĠ
gÄĵ ĠÄĽrĠ
chÄĵngĠ wÃ©i
shÃ¨ĠhuÃ¬Ġ zhÇĶĠyÃ¬Ġ
dÃłngĠ ÃłnĠ
yÃŃngĠdÃ©Ġ leĠ
ĠĠĠ Ã©r
ĠgÅįngĠ zuÃ²ĠdeĠ
ĠyÇĶĠ zhÃ²u
chÇİngĠ jÇĲngĠ
ĠzhÃ¨Ġ cÃ¬Ġ
ĠniÃ¡nĠ12ĠyuÃ¨Ġ 31ĠrÃ¬Ġ
Ġ fÄģ
zhÃłn ĠzhÃ¬Ġ
zhÃłn ĠjÃ¬Ġ
jiÄĵ ĠjÃ¬n
wÇĶ ĠmÃŃngĠ
chÇİng ĠshÃłngĠ
dÇĲ ĠzhÃ¬Ġ
shÄģngĠ diÃłnĠ
xiÅ«Ġ gÇİi
ĠcÃ©ng ĠzÃłiĠ
ĠsÄģn ĠshÃŃĠ
niÇİoĠ lÃ¨iĠ
lÃ¨iĠsÃ¬ ĠyÃºĠ
Ġ zhÇĶ
Ġ jiÇİoĠ
dÅįng ĠxiÃłnĠ
ĠbÃ¹Ġ ÄĽr
ĠzhÃ¬Ġ dÃ¬ngĠ
jÄ«ngĠjÃ¬Ġ xuÃ©Ġ
Ġ shÃ²uĠdÃłoĠ
Ġ xiÃ³ngĠ
zhÅįng ĠshÃ¬ĠjÃ¬Ġ
yÃ¹ ĠdÃłoĠ
dÃ²ng ĠyuÃ¡nĠ
kuÃ² ĠzhÄģngĠ
nÃłn ĠmÃŃnĠ
ĠmÃŃngĠ zÃ¬Ġ
jiÄĵĠ chÃ¹
rÃ©nĠmÃŃnĠ dÃłiĠbiÇİoĠdÃłĠhuÃ¬Ġ
ĠĠĠ duÃ¬ĠyÃºĠ
fÄĵn ĠchÃ©ngĠ
ĠjÄ«Ġ xiÃ¨Ġ
jÃ¹Ġ fÄĵngĠ
liÃ¨Ġ rÃ¹
yÃ¡nĠjiÅ« ĠsuÇĴ
jiÄģngĠsÅ«Ġ shÄĽngĠ
Ġ nĠ
fÃº ĠdÃ©Ġ
yÇĲn ĠlÃ¬Ġ
ĠxiÃłnĠ dÃłi
gÇİnĠ rÇİn
jiÇİng ĠdeĠ
ĠzhÅįngĠ shÅ«Ġ
ĠtÄģĠ shuÅįĠ
zhÃ²ngĠ zhÃŃĠ
Ġ 1ĠyuÃ¨Ġ
Ġ xiÅįngĠ
hÃ²uĠ xuÇİnĠrÃ©nĠ
yÃ¡nĠ shÄĵnĠ
ĠdÃłn ĠbÃ¹Ġ
ĠwÃ©iĠ zhÇĲĠ
zhÅ«Ġ lÃ³ngĠ
mÃ¹ĠsÄ«Ġ lÃŃnĠ
Ġ 23
Ġ 36
ĠĠĠ kÃ¨Ġ
fÄģng ĠchÃ©ngĠ
chÄĵ ĠdÃłoĠ
sÅ« ĠlÇĲĠ
shÄĵngĠ mÃŃngĠ
hÃłiĠ Ã©
ĠtÃłiĠ yÃ¡ngĠ
Ġ X
ĠĠĠ 6Ġ
zÅ« ĠjiÃ¨Ġ
guÄģ Ġ
ĠjiÄģĠ jÃ¬ngĠ
zhÃ¹Ġ cÃ¨Ġ
ĠyÃ³uĠ yÇĴngĠ
dÄĽngĠ zhÃŃĠ
bÄģnĠ fÄģĠ
ĠbÃ¬ngĠqiÄĽ ĠzÃłiĠ
rÃ©n ĠwÃ¨iĠ
duÃ¬ ĠyÇĴuĠ
tÇĲ ĠxÃŃngĠ
chÃ¨n Ġ
yÄĵ ĠsÅ«
1951 ĠniÃ¡nĠ
ĠjÄ«Ġ chÇĶĠ
ĠchÅ«Ġ shÄĵnĠ
bÇİoĠ cÃºn
gÃ¨ngĠ duÅį
gÃ²ngĠhÃ©Ġ guÃ³ĠdeĠ
ĠwÃ¨iĠfÃºĠqÃŃĠyÃºĠ gÄģng
lÇİng ĠdÃ©Ġ
nÃº Ġ
ĠchÅ«Ġ rÃ¹ĠkÇĴuĠ
yÃ¡nĠjiÅ« ĠyuÃ¡nĠ
xiÃ©Ġ tiÃ¡o
ĠshÃ¬ĠdÃ¬Ġ yÄ«Ġ
Ġ hÃ¹
Ġ JR
Ãłi ĠdÃ©ĠhuÃ¡Ġ
xiÃłn ĠshÃŃĠ
qÇĲ ĠdeĠ
bÄģn ĠbÃ¹Ġ
hÃ¡ng ĠzhÅįuĠ
jiÃłoĠ zuÃ²Ġ
zÄ«Ġ zhÃ¹Ġ
nÇļĠ yÇİnĠyuÃ¡nĠ
lÇĲngĠ xiÃ¹
kÇİoĠ gÇĶĠ
miÃłnĠjÄ« ĠhÃ©Ġ
zuÃ¬ĠzÇİo ĠdeĠ
guÄ«ĠmÃ³ ĠdeĠ
Ġ wÄĵn
shÇĲ ĠzhÅįngĠ
qÃ¬ ĠhÃ©Ġ
chÄĵng ĠzhÄ«ĠwÃ¨iĠ
pÃ¡i ĠdÃ©ĠzhÇĶĠ
bÄ«ng ĠlÃ¬Ġ
ĠjiÄģĠ mÃ©ngĠ
fÄĵnĠ qÅ«Ġ
tÅįngĠ xÃ¬nĠ
huÇĴĠ bÃłnĠ
chÃ¨Ġ dÇĲĠ
jÇĲnĠbiÄģoĠ sÃłi
5 ĠgÃ¨Ġ
xÄ« ĠyuÃ¡nĠ
chÃ©ng ĠzÃłiĠ
quÃ¡n ĠxiÃłnĠ
bÃłi ĠzhÃłnĠ
rÃ©ng ĠyÇĴuĠ
ĠchÃ©ngĠ xÃ¹
ĠjiÃłn ĠyÇĴuĠ
shÇĴuĠ duÃłnĠ
ĠĠĠ 6
quÃ¡n ĠqiÃº
ĠzhÅįngĠ fÄģĠxiÃłnĠ
zÃºĠ xiÃ©Ġ
miÇİnĠ diÄģnĠ
zÃº ĠrÃ©nĠ
zÄģo ĠshÃ²uĠ
shÇĴuĠ fÇĶĠ
mÇİĠ lÃ¡iĠ
ĠzhÅįngĠguÃ³Ġ gÃ²ngĠchÇİnĠdÇİng
jiÄģng ĠshÃ¬Ġ
jÃº ĠyÃºĠ
es ĠĠĠ
ĠhÃ©Ġ lÃ¡n
ĠgÄģiĠ dÃ¬ĠdeĠ
ĠgÅįngĠyuÃ¡nĠ qiÃ¡nĠ
ĠdÃ¬ĠshÃŃĠ yÄ«Ġ
Ġ qiÅ«
ĠĠĠ fÃºĠ
ĠĠĠ 2015ĠniÃ¡nĠ
yÇĲ ĠshÃłngĠ
hÃłn ĠyÇĶĠ
32 Ġ
1930 ĠniÃ¡nĠ
ĠwÃ¨iĠ zhÅįngĠguÃ³Ġ
fÄĵnĠ lÃŃĠ
ĠqiÃºĠ yÃ¹nĠdÃ²ngĠyuÃ¡nĠ
ÃłiĠ qÃŃngĠ
tuÃ¬Ġ xiÅ«
ĠlÃ¬ng ĠyÃ¬ĠfÄģngĠmiÃłnĠ
ĠbÃ¹ĠdÃ© ĠbÃ¹Ġ
ĠmÃ¹ĠqiÃ¡nĠshÃłngĠwÃ¨iĠ yÃ³uĠrÃ©nĠgÅįngĠyÇĲnĠzhÇĴngĠzÄģiĠpÃ©iĠ
jiÄģn ĠzhÃ¬Ġ
di Ġ
huÃ¡ ĠdÃłĠxuÃ©Ġ
jiÄģoĠ chÄģĠ
cÃ¡iĠ chÇİnĠ
wÃ¹ĠlÇĲĠ xuÃ©Ġ
c ĠĠĠ
ĠĠĠ 4ĠyuÃ¨Ġ
fÄĵn ĠwÃ¨iĠ
tÃ³u ĠdeĠ
th ĠĠĠ
1940 ĠniÃ¡nĠ
ĠzhÃ¨Ġ yÄĽĠshÃ¬Ġ
bÃłoĠ zhÃł
gÇİnĠ juÃ©Ġ
ĠfÄĵn ĠwÃ©iĠ
Ġ tÃ²uĠguÃ²Ġ
dÃ¡ ĠdeĠ
wÇİng ĠdeĠ
mÃ³u ĠshÄģĠ
ĠzÃłiĠ gÅįngĠ
ĠjiÃłnĠ zÃło
ĠyÄ«n ĠdeĠ
dÇİoĠ yÇİn
ĠxÄ«ĠbÄģnĠyÃ¡ ĠyÇĶĠ
Ãłn ĠzhÅįngĠ
yuÃ¡n ĠshÃŃĠ
fÇİ ĠshÃ¬Ġ
jÄ«n ĠrÃ¬Ġ
lÃŃn ĠsÄ«Ġ
1931 ĠniÃ¡nĠ
xuÃ©Ġ shÄĵng
kÇİĠluÃ³ĠlÃ¡iĠ nÃł
Ġ yÄģoĠqiÃº
ĠjÃŃĠ yÄ«Ġ
ĠchÅ« ĠyÄ«Ġ
ĠsuÃŃĠ zheĠ
Ġ rÃ¨nĠhÃ©Ġ
jÃ¬ ĠyÃºĠ
tÃ¨ ĠhÃ©Ġ
rÃłng ĠtÄģĠ
ck Ġ
II Ġ
zhÅįngĠ bÃ¹Ġ
ĠdÃłĠ yuÄĵ
shÄĵngĠ tÃłiĠ
wÄĽiĠyuÃ¡nĠ huÃ¬ĠdeĠ
ĠwÃ©nĠ huÃł
ĠdÄģngĠ xuÇİnĠ
ĠzhÃ¬ĠzuÃ² ĠrÃ©nĠ
xiÃłĠxiÃ¡ĠdeĠyÃŃĠgÃ¨Ġ xiÄģngĠ
Ġ Ï
Ġ 2025
nÃ¡n ĠsÄ«ĠlÄģĠ
tÃłi ĠhÃ²uĠ
gÃłn ĠxiÃłnĠ
ĠshÃ¬Ġ nÃ¡nĠ
zÃºĠ zÃ¬ĠzhÃ¬Ġ
zi ĠgÅįngĠsÄ«Ġ
ar Ġ
ĠyuÃ¨Ġ tuÃ¡n
ĠyÃ¬Ġ diÇİnĠ
duÃ¬Ġ wÃłiĠ
ĠhuÃ¬Ġ bÃ¨iĠ
yÃ¡nĠ chÃ¡ng
qÇĲĠ sÃ¹Ġ
zhÃ²ngĠ diÇİn
shuÇĲĠ kÃ¹Ġ
ĠD Ġ
ĠmÇİĠlÃ¡i ĠxÄ«ĠyÃłĠ
Ġ fÄĵng
Ġ 34
tÃ¨ ĠjÃŃĠ
hÃłn ĠzÃ¬Ġ
ta Ġ
ĠshÃ¬Ġ xiÄģngĠgÇİngĠ
shÄĵnĠ zhÃ¨nĠ
tÃŃĠ gÅįngĠdeĠ
xÃ¹Ġ shÃ¹Ġ
Ġ biÇİoĠ
mÃ¹ ĠshÃ¬Ġ
ĠzÃłiĠ nÃ¡nĠ
ĠhÃ©Ġ tÃ³ngĠ
shÃłngĠ shÃ¹Ġ
wÇĶĠ hÃłn
qiÄģnĠ shÇĶ
ĠĠĠgÃ¨ĠrÃ©nĠ shÄĵngĠhuÃ³Ġ
x ĠĠĠ
Ġ kÄģngĠxÄ«Ġ
jÃ¬n ĠjÃŃĠ
fÃ¹ ĠzhÃ¬Ġ
cÅ« Ġ
ĠshÃ¬Ġ gÃ¨Ġ
dÃ¬ngĠ qÄ«Ġ
sÄģnĠ cÃ¬Ġ
gÇİiĠ wÃ©i
ĠhÄģ ĠÄĽrĠ
ĠjÃ¬ĠsuÃłn ĠjÄ«Ġ
Ġ à¸
ĠĠĠ 7ĠyuÃ¨Ġ
zhÃłn ĠwÃ¨iĠ
rÃ¹ ĠwÃ©iĠ
qÃ¬ ĠrÃ©nĠ
xiÃ© ĠdÃłiĠ
wÃ² ĠÄĽrĠ
tÃłn ĠsuÇĴĠ
codice Ġ
bÅįĠ fÃłng
miÃ¡oĠ shÃ¹ĠwÃ¨iĠ
Ġ dÃ¹
Ġ dÃŃ
Ġ fÇİnĠduÃ¬Ġ
ĠĠĠ dÅįngĠ
ch Ġ
fÃ¹ ĠyÇĴuĠ
mÄĽi ĠrÃ¬Ġ
xiÅ« ĠsÄ«Ġ
sÇİo Ġ
ĠchÃ©ngĠ bÇİoĠ
duÃ¬Ġ xiÃłngĠ
ĠgÃ¨Ġ zÃ¬Ġ
ĠdeĠjÄ«Ġ huÃ¬Ġ
ĠĠĠ zhÃ¬ĠzuÃ²Ġ
shÄ« ĠhÃ©Ġ
rÄĽn Ġ
bÄĵn Ġ
ĠguÃ³Ġ gÅįngĠ
ĠyuÃ¡nĠ yÇĴuĠ
ĠgÃ¨ ĠdÃłĠ
ĠkÃ¨ ĠlÇĲĠsÄ«Ġ
dÃ²ngĠ chÄĵĠ
tÃ¡iĠ bÃ¬Ġ
zhÇĶĠchÃŃ ĠrÃ©nĠ
k ĠĠĠ
shÃ¹ ĠhÃ©Ġ
juÃ© ĠleĠ
er ĠĠĠ
zhuÇİn ĠwÃ©iĠ
ed ĠĠĠ
ĠbÃ¹Ġ zhÃ¨ngĠ
ĠlÃ¬Ġ kÃ¨Ġ
ĠgÅįngĠ kÄģi
lÃ¹Ġ shÃłngĠ
guÄ«Ġ huÃł
bÄģnĠ cÃ¬Ġ
mÃ²ĠsÄ«Ġ kÄĵ
fÅ« ĠfÃ¹Ġ
zhuÃłng ĠbÃ¬ngĠdÃº
dÇĶ Ġ
1942 ĠniÃ¡nĠ
mÃŃnĠ jÃ¬nĠ
ĠĠĠ 2020ĠniÃ¡nĠ
qÃŃ ĠshÃ¬Ġ
shÇĴu ĠbÃ¹Ġ
nÃł ĠsÄ«Ġ
hÃ¡ng ĠzhÃłnĠ
1933 ĠniÃ¡nĠ
xÃ¬Ġ liÃ¨ĠdeĠ
jiÃłnĠ zÃłoĠ
tÃ¡iĠwÄģn ĠdeĠ
pÄ«Ġ pÃŃng
Ġ 90
Ġ gÃ¹ĠshÃ¬Ġ
Äģn ĠrÃ©nĠ
ĠĠĠ X
jÄ«ng ĠdeĠ
1928 ĠniÃ¡nĠ
ĠzhÅįngĠ zhÇĲĠ
zhÃ¨ngĠ quÃ¡nĠ
qÅ«Ġ jiÄģnĠ
ĠĠĠ xiÄģngĠgÇİngĠ
ĠchÃ©ngĠ wÃ©iĠyÄ«Ġ
ĠyÇĴuĠyÄ«Ġ xiÄĵĠ
kuÃ²Ġ zhÇİnĠ
jiÃ¹ĠdÃº ĠyÃºĠ
Ġ cÇİiĠ
dÅįng ĠdeĠ
ĠguÃ³Ġ yÇĶĠ
bÄģĠ nÃ¨n
ĠxiÄģngĠ dÄģngĠ
fÃłnĠ wÃ©i
ĠguÃ³ĠmÃŃnĠ dÇİngĠ
Ġ tÇİ
ĠĠĠ 4Ġ
ĠĠĠ 2014ĠniÃ¡nĠ
bÃ¨i ĠshÃ¬Ġ
kÄĵ ĠÄĽrĠ
wÃº ĠÄĽrĠ
ĠniÃ¡n ĠniÃ¡nĠ
kÄģiĠ mÃ¹Ġ
mÃŃnĠ zhÇĶ
zhÃ¨Ġ zhÇĴng
ĠzhÃłnĠ lÇĲngĠ
tiÄģnĠ tÃ¡ngĠ
yÃŃĠ mÃŃn
cÃ¨Ġ lÃ¼Ã¨Ġ
jiÇİngĠ zuÃ¬ĠjiÄģĠ
dÃºĠ tÃ¨ĠdeĠ
qiÃºĠ duÃ¬
zuÇĴĠ yÃ²u
ĠĠĠ Co
ĠĠĠ lÄģĠ
xiÃłn ĠxiÃłngĠ
ĠhuÃ¬Ġ shÃłngĠ
fÄĵngĠ gÃ©
tÃ³ngĠ yÃłng
ĠnÃłĠ me
huÃ³ĠdÃ²ng ĠdeĠ
Ġ cÃŃ
Ġ pÃŃ
yÃ¬n ĠxiÃłngĠ
ĠmÃŃngĠ xÄ«ngĠ
diÃłnĠ chÄĵĠ
ĠqiÃ¡nĠ lÃ³ngĠ
Ġ 38
Ġ gÅįngĠbÃ¹Ġ
Ġ shÇİnĠxÄ«Ġ
ĠĠĠ 2010ĠniÃ¡nĠ
shÅ« ĠshÃ¬Ġ
ĠzÃłiĠ yuÃ¡nĠ
ĠdÃ¬Ġ 2Ġ
ĠrÃ¬Ġ qÄ«Ġ
nÃ¨iĠ mÃ©ngĠgÇĶĠ
zhÃłoĠ piÄģn
xiÃ©Ġ shÄģngĠ
Ġ huÄģ
Ġ 55
ĠdÃ¬Ġ bÄģĠ
ĠjÃŃĠ yÇĲĠ
fÇĶĠ zhÃ¹Ġ
lÇĲngĠ xiÄģnĠ
ĠĠĠ 8ĠyuÃ¨Ġ
ĠĠĠ suÄ«ĠrÃ¡nĠ
pÇĲn ĠdeĠ
ĠzhÅįu ĠrÃ©nĠ
Ġ yÃ¡nĠjiÅ«Ġ
Ġ lÃ¡oĠ
chuÄģn ĠyuÃ¨Ġ
ĠqÃŃĠ bÄ«ngĠ
jÃ¬nĠ zhÇĲĠ
Ġ lÃº
Ġ 75
Ã¨ ĠÄĽrĠ
lÃ¹ ĠyÇĶĠ
duÅį ĠmÃŃngĠ
jiÅ« Ġ
jÅ« ĠyÃºĠ
dÃłĠ xuÃ©
ĠrÃ¬ ĠyÃ¬Ġ
xÄ«Ġ wÃłngĠ
shÄĵngĠ mÃ¬ngĠ
yÃ³uĠ tÃłiĠ
tÃ¨Ġ qÅ«Ġ
ĠbÃ¬ngĠ biÇİoĠshÃ¬Ġ
zuÃ¬Ġ duÅįĠdeĠ
ĠtÃ¨Ġ biÃ©Ġ
Ġ ÅįuĠyuÃ¡nĠ
jiÃłoĠ kÄĵĠ
ĠhÃ©ĠliÃºĠ yÃ¹Ġ
chÃ©ng ĠshÃŃĠ
gÃ© ĠsÄ«Ġ
ĠshÃ¬Ġ yuÃ¡nĠ
jÃ¹Ġ dÃłĠdeĠ
bÇİoĠ zhÃłng
jiÄĵĠwÃ¨iĠ zhÄ«Ġ
ĠshÃ¬ĠyÃŃĠgÃ¨ ĠwÃ¨iĠyÃºĠmÄĽiĠguÃ³Ġ
miÃłnĠjÄ«ĠhÃ©Ġ rÃ©nĠkÇĴuĠ
20 ĠniÃ¡nĠ
fÄģng ĠwÃ¨iĠ
cÇĲ ĠshÃ¬Ġ
1943 ĠniÃ¡nĠ
ĠtÄģĠ jiÄģngĠ
zÇĴngĠ jÄ«ngĠlÇĲĠ
kÇİĠ lÄģĠ
ĠtÃ³ngĠshÃŃĠ yÄĽĠ
mÃŃĠ nÇĲĠ
ĠzhÃłn ĠdÃ¬Ġ
cuÄ«Ġ huÇĲ
Ġ nÃ³ngĠ
Ġ dÅįuĠshÃ¬Ġ
xiÄģng ĠdeĠ
jiÇİ ĠjÄ«Ġ
shÃłngĠ xiÃłĠ
zhÃ¹Ġ zhÃ¡i
fÄĵnĠ lÃ¡nĠ
bÃłnĠ yÇİn
tÃŃngĠ kÃło
ĠĠĠ mÃ¹ĠqiÃ¡nĠ
bÅį ĠlÃ¬Ġ
30 ĠniÃ¡nĠ
nÃº ĠlÃ¬Ġ
ĠguÃ³Ġ wÃ¡ng
ĠchÅ«Ġ rÃ¨n
ĠjÅ«nĠ guÄģnĠ
huÃ¡ngĠ jÄ«n
ĠqÃŃĠzhÅįngĠ yÇĴuĠ
ĠyÄ«nĠcÇĲ ĠzÃłiĠ
hÃ¡ngĠkÅįng ĠgÅįngĠsÄ«Ġ
ĠgÄģiĠdÃ¬ĠdeĠ miÃłnĠjÄ«ĠhÃ©ĠrÃ©nĠkÇĴuĠ
ĠgÄģiĠdÃ¬ĠdeĠmiÃłnĠjÄ«ĠhÃ©ĠrÃ©nĠkÇĴuĠ jiÄĵĠwÃ¨iĠzhÄ«Ġ
Ġ ma
Ġ yuÇİnĠ
Ġ cÃłiĠ
ĠĠĠ 10
yuÃ¨ ĠhÃ©Ġ
qÅ« ĠjÃŃĠ
biÄģn ĠchÃ©ngĠ
chÃ¡i Ġ
rÃ¹n Ġ
biÄģnĠ mÇİĠ
hÃłnĠ lÃŃnĠ
ĠzhÃ¬ĠlÃ¬Ġ yÃºĠ
Ġ cÅ«nĠ
dÃłiĠ bÇĶĠ
gÄģoĠ dÄĽng
jiÃłnĠ kÄģngĠ
yÃŃ ĠjÃ¬Ġ
zÃº ĠyÇĲĠ
1912 ĠniÃ¡nĠ
ĠshÃŃĠ yuÃ¨Ġ
ĠyÄ«Ġ tiÄģnĠ
hÃ¨Ġ sÃ¨Ġ
Ġ huÃ¡i
fÃ¹ ĠyÇĶĠ
bÇĲ ĠÄĽrĠ
dÄģn ĠxÄ«nĠ
yÄ«ng ĠjÅ«nĠ
guÃ³Ġ fÃ¡ng
ĠchÅ« ĠxiÃłn
ĠjiÄģĠ rÃ¹ĠleĠ
huÃ¬ĠyÃ¬Ġ shÃłngĠ
cÃºnĠzÃłiĠ yÃºĠ
Ġ jÄ«ĠyÃºĠ
diÇİn ĠxÃŃngĠdeĠ
tÃ¡ng ĠdeĠ
biÄģo ĠjÃ¬Ġ
ce ĠĠĠ
ĠyÄ«Ġ chÃ¡ngĠ
ĠdÃ© ĠlÃ¬Ġ
ĠdÃłiĠ lÃ¡iĠ
ĠcÃ©ngĠ jÄ«ngĠ
Ġ mÃ¨ngĠ
jÃ¹ ĠzhÅįngĠ
sÄģn ĠwÃ¨iĠ
jiÃ¹ ĠyÇĴuĠ
tÄ«ng ĠdeĠ
zhuÃłng ĠdeĠ
jÃ¬Ġ xÃ¹
ĠkÃ¨Ġ luÃ³Ġ
ĠjÃ¬n ĠjÃŃĠ
gÄģoĠ jiÃłĠ
ĠĠĠwÃ¨iĠ leĠ
6 ĠgÃ¨Ġ
Ġ 22
Ġ 2004
Ġ Mar
Äģ ĠjÄ«Ġ
ĠĠĠ 9ĠyuÃ¨Ġ
ĠĠĠ 2012ĠniÃ¡nĠ
ĠĠĠ 2013ĠniÃ¡nĠ
xÃ¬ ĠjÅ«nĠ
mÃ¹ ĠzhÃ¬Ġ
fÃº ĠshÃ¨Ġ
ĠyÃ¬Ġ wÃłiĠ
ĠdÃłĠ guÄ«ĠmÃ³Ġ
chÇİnĠ shÄĵng
shÄģngĠ pÇĲnĠ
ĠzhÇĶĠ chÃŃ
quÃ¨Ġ bÇİoĠ
ruÃ¬Ġ diÇİn
chÃ¡ ĠlÇĲĠ
bÅį ĠchÅ«
1929 ĠniÃ¡nĠ
ĠshÇĲĠ yÃ²ng
ĠdeĠjÃ¬Ġ huÃłĠ
ĠguÃ³ĠmÃŃnĠ dÇİng
jiÇİn ĠlÃ¬Ġ
gÄĽi ĠtÄģĠ
yÃŃĠ zhÇĲ
mÃ©ngĠ tÃ¨Ġ
duÇİnĠ zÃłn
ĠguÃ³ĠmÃŃnĠ zhÃ¨ngĠfÇĶĠ
ĠzhÇĶĠyÃło ĠshÃ¬Ġ
Ġ shÃłoĠ
zÄĽn Ġ
ĠhÃ©Ġ lÃ¬Ġ
ĠshÃŃĠ jiÄģnĠdeĠ
lÃ¹Ġ xÃ¹Ġ
ĠxuÃ©Ġ xÃŃ
juÃ©Ġ sÃłiĠzhÅįngĠ
ĠfÄĵnĠ bÃ¹ĠzÃłiĠ
hÄĵiĠ lÃ³ngĠjiÄģngĠ
Ġ 21
jiÄģ ĠshÃ¬Ġ
pÃŃng ĠjÅ«n
qiÃ¡n ĠzÃłiĠ
duÃłn ĠshÃŃĠjiÄģnĠ
ĠyÇĲĠ 1Ġ
ĠxÄ«Ġ lÇĲĠ
fÄģĠ huÄ«
ĠwÃ©iĠ qÃŃ
dÄģnĠ dÇİĠ
ĠzhÇĶĠ rÃ¨nĠ
Ġ 70
Ġ kÄĽĠnÃ©ng
ĠĠĠ qÃŃĠzhÅįngĠ
diÃło ĠyÃºĠ
ĠchÅ«Ġ shÃ²uĠ
fÄģĠ yÃ¡nĠrÃ©nĠ
tÃŃngĠ yÃ¹nĠ
Ġ kÄĽnĠ
fÃº ĠzhÅįuĠ
1927 ĠniÃ¡nĠ
guÄģnĠ cÃ¨
tÇİĠ nÃŃ
chuÃłngĠ shÇĲĠrÃ©nĠ
Ġ kÄģiĠfÄģĠ
Ġ hÃ¡oĠ
Ġ 1997ĠniÃ¡nĠ
shÃ¹ ĠrÃ©nĠ
xÃ¹ ĠjÃŃĠ
juÃ© ĠyÃºĠ
chuÄģn ĠguÃ²Ġ
fÃ¹Ġ zhÇĶĠxÃŃĠ
ĠzhÅįu ĠwÃ©iĠ
ĠzÇĴngĠ tÇĴngĠ
ĠdeĠyuÃ¡nĠ yÄ«nĠ
zhÅįng ĠhÃ©Ġ
wÃ¹ ĠyÇĶĠ
wÃ¡ng ĠhÃ²uĠ
ĠzhÄ«Ġ chÄĵngĠ
ĠdÃłn ĠqÃŃĠ
qÃºnĠ zhÃ²ngĠ
ĠshÃ¬ĠjiÃ¨ ĠdeĠ
tÃłnĠ xiÇİn
nÃŃĠyÃł ĠdeĠ
ĠĠĠchÄĵĠzhÃłnĠ jiÃ©ĠgÃ²uĠ
Ġ jiÇİng
Ġ qÃŃn
xÃŃng ĠxiÃłngĠ
shÇĲ ĠdÃ¬Ġ
suÃłn ĠfÇİĠ
shÃ¹Ġ mÃ¹Ġ
ĠÃ©rĠ lÃ¡iĠ
ĠfÃ¹Ġ gÃłiĠ
quÃ¨Ġ dÃ¬ng
gÃłoĠ sÃ¹
ĠniÃ¡nĠdÃłi ĠchÅ«Ġ
ĠĠĠ p
ĠĠĠ cÄģnĠkÇİoĠ
cÃ¬ ĠjÄ«Ġ
1932 ĠniÃ¡nĠ
yÇĴuĠ guÄģnĠ
zhÃŃĠ bÅįĠ
bÇİnĠ bÄĽnĠdeĠ
chuÃłngĠ zuÃ²
ĠchÃ©ngĠlÃ¬Ġ leĠ
qÃ¹ĠshÃ¬Ġ hÃ²uĠ
ÃłoĠdÃłĠlÃ¬Ġ yÃł
Ġ lÃ¡n
ĠĠĠ De
shÃ©n ĠdeĠ
chÃ³ng ĠfÃ¹Ġ
tuÄ« ĠxÃŃngĠ
duÇĴ Ġ
ĠshÃ¬Ġ bÃ¨iĠ
ĠdÃło ĠzhÅįngĠ
hÇİiĠ yÃ¡ng
yÄ«ngĠ chÇĲĠ
lÇĲngĠ yÃ¹ĠdeĠ
ĠdeĠdÃ¬Ġ yÃŃĠgÃ¨Ġ
shÄ« ĠdÃ¬Ġ
zhÇİn ĠxiÃłnĠ
son Ġ
ĠyÄ«n ĠyuÃ¡nĠ
ĠyÄ«n ĠqÃŃĠ
fÃºĠ huÃłĠ
jÃ¬ngĠ nÃ¨iĠdeĠ
gÄĵĠ cÃŃĠ
ĠliÃ¡nĠ jiÄĵĠ
ĠlÃ¹ ĠyÃ¬Ġ
Ġ dÄĵng
Ġ 46
ĠĠĠ 8
yÃ¹ ĠbÃ¨iĠ
liÃ¨ ĠsÄ«Ġ
dÅ« ĠhuÃ¬Ġ
xÄ«Ġ yÃłĠ
zuÃ¬Ġ zÇİoĠ
wÇĶĠ dÇİoĠ
jÃ¬ngĠ wÃłiĠ
Ġ zÇĲĠ
ĠĠĠ 6ĠyuÃ¨Ġ
duÅį ĠyuÃ¡nĠ
zhÄĽ ĠrÃ¨nĠwÃ©iĠ
sÃ²ng ĠdÃłoĠ
ĠdÃłĠ qiÃ¡o
ĠtÄģĠ hÃ¡i
zhÃ¹Ġ zhÃ¡iĠ
Ã©Ġ hÃłiĠÃ©
ĠliÃ¡nĠ mÃ©ngĠ
guÃ³ĠjiÄģĠ duÃ¬Ġ
zhÃ¨ĠjiÄģngĠ shÄĽngĠ
Ġ xuÃ¡nĠ
zhÄ« ĠdÃłoĠ
xiÇİng ĠdeĠ
ĠxÃŃng ĠyÃºĠ
ĠyÇĲĠ lÃ¡i
ĠshÄĵngĠ chÄĵngĠ
shÄĵnĠ wÃ¡ngĠ
mÃ¬Ġ qiÃ¨
fÇİnĠ duÃ¬
tÃłnĠ cÃ¨Ġ
Äģn ĠshÃ¬Ġ
duÄģn ĠdeĠ
ĠdÃ¬Ġ zhÅįngĠ
ĠrÃ©nĠ cÃ¬Ġ
ĠjÃŃĠ ÄĽrĠ
jÄ«ngĠ yÃ³uĠ
Ġ sÇĲĠ
jÇĲ ĠhÃ©Ġ
1934 ĠniÃ¡nĠ
ĠyÄ«Ġ tÃ³ng
cÃ¡iĠ zhÃ¨ng
fÃ¡ngĠ jiÄģnĠ
mÇİnĠ zÃº
Ġ 150
Ġ dÃ²uĠ
jÃ¬n ĠxÃŃngĠdeĠ
ĠÄĽr ĠyÇĶĠ
tuÃ¡nĠ zhÇİngĠ
pÃ¡iĠhÃ¡ngĠ bÇİng
Ġ pÃ©ngĠ
hÃ²u ĠbÃ¹ĠjiÇĶĠ
chÅ« ĠzhÃłnĠ
fÃ¹ ĠbÃ¹ĠzhÇİngĠ
ĠlÃ¬Ġ shÇĶ
lÄģĠ tÃ¨Ġ
bÄģĠ lÃ¨
qiÃ¡ngĠ dÃłĠdeĠ
Ġ zÄĵngĠ
Ġ yÄ«ĠwÃ¨iĠ
wÇİng ĠqiÃº
kuÃ² ĠjiÃłnĠ
chÃ©ngĠ jÃ¬Ġ
ĠjÃŃĠ sÄ«Ġ
ĠrÃ¬Ġ hÃ²uĠ
ĠjiÄģĠ sÄ«Ġ
ĠbÃ¬ng ĠyÇĴuĠ
chÇİngĠ bÇĲĠsÃłiĠ
Ġ yÇİ
ĠĠĠ xiÄģngĠ
zhÃłn ĠzÃłiĠ
ĠhÃ©Ġ dÅįngĠ
yÄ«Ġ lÃ¬Ġ
kÄĵĠ fÅ«Ġ
tÃ³uĠ xiÃ¡nĠ
ĠshÇĴuĠ cÃ¬
ĠM Ġ
ĠĠĠ gÄĵnĠjÃ¹
ch ĠĠĠ
ĠxuÃ©Ġ huÃ¬Ġ
ĠĠĠ cÇĲ
ĠĠĠ 2011ĠniÃ¡nĠ
qÄ« ĠshÃ¬Ġ
fÄĵn ĠdeĠ
shuÅį ĠdeĠ
zhÄĵn ĠzhÃ¨ngĠ
ĠrÃ¬Ġ yÇĶĠ
ĠqÃŃ ĠtÄģĠdeĠ
zhÃŃĠ wÃ¹
chÃ¡ngĠ wÄĽiĠhuÃ¬Ġ
bÃłnĠ dÇİo
hÃ¡ngĠ bÄģnĠ
wÃ¡nĠchÃ©ngĠ leĠ
ĠÃ©Ġ luÃ³Ġ
Ġ dÅ«nĠ
Ãłn ĠshÃ¬Ġ
ĠĠĠ rÃ¬ĠbÄĽnĠ
ĠĠĠ jiÃłnĠzhÃ¹Ġ
dÄ« ĠdeĠ
zÃ¡ ĠdeĠ
1924 ĠniÃ¡nĠ
ĠzhÅįngĠ duÃ¬Ġ
dÃłĠ liÃłngĠ
zhÃłnĠ lÃ¼Ã¨Ġ
sÃłiĠ guÃłnĠjÅ«nĠ
shÅįuĠ lÃ¹
ĠguÄģn ĠzhÃ¬Ġ
ĠĠĠ 5
dÃ¬ng ĠlÇĲĠ
xiÃło ĠshÃ¨Ġ
xiÄĽ ĠleĠ
ĠjÃŃĠ jiÄģngĠ
pÇĶĠ tÅįng
guÄ«Ġ zÃ©
ĠguÃ³ĠjÃ¬Ġ jÄ«ĠchÇİngĠ
ĠĠĠgÄĵnĠjÃ¹Ġ 2010ĠniÃ¡nĠmÄĽiĠguÃ³ĠrÃ©nĠkÇĴuĠpÇĶĠchÃ¡ĠdeĠshÃ¹ĠjÃ¹Ġ
Ġ i
Ġ ruÇİn
Ġ 2003
Ġ 180
bÄģ ĠshÃŃĠ
shÄĽng ĠzhÃ¨ngĠfÇĶĠ
bÇİo ĠwÃ¨iĠ
ĠzÃłiĠ xiÃłnĠ
sÄģnĠ zhÇĴngĠ
chÃ¨Ġ tuÃ¬Ġ
Ġ Q
ĠĠĠ gÄģoĠ
rÃ¨n ĠyÃ¬Ġ
xiÃ¡ng ĠxÃ¬Ġ
kuÃł Ġ
chuÃŃ ĠzhÃŃĠ
ĠchÅ« ĠxiÃłnĠdeĠ
xiÇİoĠ zÇĶ
kÄĵĠ xuÃ©
nuÃ²Ġ mÃłnĠ
Ġ wÇİnĠ
ĠhÃ©Ġ jÄ«Ġ
ĠyÄ«Ġ zhÇĴng
ĠxÃŃng ĠhÃ©Ġ
hÃ¹Ġ dÃ²ngĠ
dÇİĠ suÃłnĠ
chÃ³ngĠ xÄ«n
xuÃ©ĠshÃ¬Ġ xuÃ©ĠwÃ¨iĠ
bÃ¹ ĠwÃ¨iĠyÃºĠ
xiÃło ĠyÇĴuĠ
zhÄģng ĠdeĠ
dÅįu ĠbÃ¹Ġ
zÃłng ĠyÃºĠ
ĠhÃ©ĠnÃ¡nĠ shÄĽngĠ
hÇİnĠmÃ² ĠdÃ©Ġ
Ġ chuÃłng
Ġ hÄĵi
Ġ miÇİoĠ
Äģ ĠlÇĲĠ
ĠĠĠ fÇİĠguÃ³Ġ
dÇİng ĠjÃŃĠ
ĠxiÃłn ĠyÇĶĠ
ĠyÄ«Ġ lÇİng
ĠxiÃłnĠ zÃłiĠdeĠ
xiÄģngĠ hÃ¹Ġ
ĠkÃ¨Ġ sÃłĠsÄ«Ġ
chÃ¡oĠ tÃŃngĠ
fÃ¡ngĠ kÅįngĠ
Ġ qÇĶ
Ġ zhÄģoĠ
hÃ²u ĠtÄģĠ
bÇİi ĠwÃłnĠ
rÃ©nĠ mÃŃn
yÃ¡nĠ chÃ¡ngĠ
yÅįuĠ xiÃ¹Ġ
tÃ¡nĠ pÃłn
Ġ tÄ«ngĠ
Äģ ĠfÃ¹Ġ
zhÄĵn ĠyÇĶĠ
ĠtÄģ ĠchÃ©ngĠwÃ©iĠ
ĠzhÅįu ĠhÃ©Ġ
jiÃ©Ġ dÃ¹ĠshÇĲĠ
ĠrÃ¨nĠ zhÃŃĠ
tiÄģnĠ qÃ¬Ġ
ĠdÄģng ĠniÃ¡nĠ
bÃłnĠ fÇİĠ
wÅ«Ġ rÇİn
liÃº ĠxuÃ©Ġ
gÇİi ĠmÃŃngĠ
ĠshÃ¬Ġ duÃ¬Ġ
ĠzÃłiĠ qÃŃ
ĠbÃ¹Ġ jÇĲn
ĠdÃłĠ chÃ©ngĠ
bÇİoĠ zhÃłngĠ
ĠquÃ¡nĠ miÃłnĠ
pÃłnĠ chÇĶĠ
ĠshÃ¬ĠshÃ¬Ġ jiÃ¨
mÃłoĠ xiÇİnĠ
lÇĲĠshÃ¬Ġ huÃ¬Ġ
ĠrÃ©nĠkÇĴu ĠdeĠ
tÃºĠshÅ«Ġ guÇİn
Ġ kuÃłiĠ
Ġ guÃ¬Ġ
Ã©r ĠtÃ³ng
zÇĴng ĠzhÃłnĠ
sÃ¹ ĠshÃ¨Ġ
chuÃ¡n ĠqÃŃĠ
or Ġ
qÃ¹ ĠdeĠ
liÇİn Ġ
ĠshÃ¬Ġ zhÃ¨ngĠfÇĶĠ
ĠsÄ«Ġ fÇİĠ
fÄģĠ bÃ¹ĠdeĠ
ĠbÃ¬ngĠ jiÄģng
nÃłĠ rÃ¹Ġ
kÃ¨Ġ yÃ¹nĠ
qÇĶĠdÃ©Ġ leĠ
ĠĠĠ tÃ³ng
bÄĽn ĠbÃ¹Ġ
qiÃ¡n ĠxiÃłnĠ
cÄģn ĠyÃ¬ĠyuÃ¡nĠ
cÃŃ ĠhuÃ¬Ġ
xÇĲng Ġ
ĠzhÄ« ĠbÃ¹Ġ
hÃºĠ pÅįĠ
mÃ¬ngĠ mÃŃngĠdeĠ
zhuÇİnĠ yÃŃĠ
ĠjiÄģng ĠxÄ«Ġ
rÃ©nĠdÃłĠ dÃłiĠbiÇİoĠ
l ĠĠĠ
Ġ shuÄģng
qiÄģn ĠrÃ©nĠ
liÃ¹ ĠgÃ¨Ġ
fÇĴu ĠrÃ¨nĠ
rÃ¨nĠ zhÃŃĠ
mÃŃnĠ zhÃ²ng
wÃłiĠ guÄģnĠ
biÄģnĠ jiÃ¨
ĠR Ġ
Ġ 1992ĠniÃ¡nĠ
ĠĠĠ chÃ©nĠ
duÅį ĠbÃ¹Ġ
sÄģn ĠyuÃ¨Ġ
dÃłng ĠzuÃ²Ġ
ĠshÃ¬Ġ yÃłnĠ
fÄģngĠ chÃ©ngĠshÃ¬Ġ
dÄģnĠ mÃłi
yÇİnĠ zÃ²u
wÇİngĠ wÇİngĠ
dÄĵngĠ lÃ¹
ĠrÃ¬ĠbÄĽn ĠdeĠ
luÃ³ĠmÇİ ĠdÃ¬ĠguÃ³Ġ
ĠxiÃłnĠdeĠyÃŃĠgÃ¨ ĠxÃŃngĠzhÃ¨ngĠzhÃ¨nĠqÅ«Ġ
le ĠdÃ¬Ġ
wÃ©i ĠrÃ©nĠ
yÇĲng ĠdÃłiĠ
ĠwÃ¨iĠ wÃ¨iĠ
ĠxiÄģngĠ sÃ¬Ġ
mÃ¬Ġ dÃ¹Ġ
rÃ©nĠkÇĴuĠpÇĶĠ chÃ¡Ġ
Ġ wÄģng
Ġ yÃ¹nĠ
ĠĠĠ 12
kuÄģng Ġ
ĠjiÃłn ĠzÃłiĠ
ĠzhÄ«Ġ hÃ²uĠzÃłiĠ
fÇİĠ guÃ³ĠdeĠ
liÃłngĠ xiÃłngĠ
rÃºĠ guÇĴ
xÄ«ngĠ xÃ¬Ġ
shÄģnĠxÄ«Ġ shÄĽngĠ
Ġ 37
Ġ 1994ĠniÃ¡nĠ
ĠĠĠ yÃ¡nĠgÃ©Ġ
miÇİn ĠyÃ¬Ġ
ĠbÃ¨iĠ jÇĲngĠ
ĠquÃ¡n ĠdeĠ
huÃŃĠ guÄ«
ĠtÃ³ngĠshÃŃĠ yÄĽĠshÃ¬Ġ
ĠqÄ«Ġ jiÄģn
ĠdÃł ĠbÃ¹ĠfÃ¨n
Ġ shÄĵng
ĠĠĠ 2008ĠniÃ¡nĠ
ĠĠĠ yÇĲĠxiÃłĠ
tÇĲ ĠjÄ«Ġ
nÃł ĠhÃ©Ġ
13 ĠniÃ¡nĠ
ĠshÃ¬Ġ zhÇĲ
ĠyÇĲĠ 2Ġ
zhÃ¨Ġ yÃłngĠdeĠ
gÇİiĠ chÄĵngĠ
ĠdÅįngĠ bÄĽi
ĠliÃºĠyÃ¹Ġ miÃłnĠjÄ«Ġ
chuÃ¡n ĠdÃ¬Ġ
cÅ«n ĠdeĠ
kÄģ Ġ
ĠxiÃłn ĠzhÅįngĠ
ĠdÃłĠ fÅ«Ġ
ĠdÃłn ĠdeĠ
wÄĽiĠyuÃ¡nĠhuÃ¬Ġ zhÇĶĠxÃŃĠ
ĠgÄĵnĠjÃ¹Ġ 2020ĠniÃ¡nĠmÄĽiĠguÃ³ĠrÃ©nĠkÇĴuĠpÇĶĠchÃ¡ĠdeĠshÃ¹ĠjÃ¹Ġ
guÇİngĠfÃłn ĠdeĠ
Ġ fÄģĠbÃ¹Ġ
Ġ chÃ³ngĠxÄ«nĠ
yÇĴu ĠhÃ©Ġ
lÃŃ ĠshÃ¬Ġ
chÃ¡o ĠshÃŃĠ
jÃº ĠshÃ¬Ġ
jiÇİ ĠshÃ¨Ġ
zÇĴngĠ miÃłnĠjÄ«Ġ
ĠP Ġ
Ġ hÄĵngĠlÃ¬Ġ
xÄ«n ĠxÃŃngĠ
zÇĲ ĠdÃłnĠ
dÃłng ĠdeĠ
xuÃ©Ġ xÃ¬Ġ
gÇİiĠ zÃło
ĠÄģn ĠdÃ©Ġ
Ġ yÃło
Ġ qÃ¬
Ġ 400
ĠĠĠ 18
zhÄĵn ĠdeĠ
21 ĠniÃ¡nĠ
ĠchÃ©ngĠ lÃ¬ĠdeĠ
xÄ«Ġ yÃ¡ng
ĠbÃ¬ngĠ fÄĵi
ĠzÃ¬Ġ mÇĶĠ
hÃ¡ngĠkÅįngĠ mÇĶ
cuÄ«Ġ huÇĲĠ
fÄĵiĠlÇľĠ bÄ«nĠ
Ġ fÃ©ng
Ġ 39
Ġ bÃ¹ĠzÃłiĠ
tÃ¨ ĠzÃłiĠ
kÄģi ĠshÃ¨
gÃ© ĠlÇĲĠ
chÃ¡ng ĠbÃ¨iĠ
jÇĲng ĠyuÃ¡nĠ
qiÇİn ĠzÃ©Ġ
CD Ġ
bÃ¹Ġ tÃ³ngĠ
ĠshÃŃĠ kÃ¨Ġ
yÃ¬Ġ bÇİiĠ
ĠjÄ«Ġ xiÃ¨
diÃłnĠ zÇĲ
ĠbÃ¬Ġ xÅ«Ġ
ĠĠĠ Mo
ĠĠĠ tÃ¡iĠwÄģnĠ
chÃ¡ ĠÄĽrĠsÄ«Ġ
jÇĲ ĠniÃ¡nĠ
zhÇİng ĠhÃ©Ġ
jiÄģo ĠdeĠ
tion Ġ
ĠshÃŃĠ yÃ³uĠ
jiÄģoĠ jiÃ¨Ġ
Ġ Co
Ġ 300
Ġ chÄģoĠ
fÃº ĠshÃ¬Ġ
25 ĠniÃ¡nĠ
ĠxÄ«Ġ fÄģngĠ
ĠqÃŃĠ hÃ²uĠyÃºĠ
yÃŃĠ dÃ¹
Ġ 19Ġ
Ġ 1996ĠniÃ¡nĠ
gÄĵn ĠbÄĽnĠ
pÇİo ĠdÃłoĠ
ĠzhÅįngĠ qÄ«Ġ
ĠshÃŃĠ lÃ¬Ġ
zhÃ¨ngĠ chÃ¡ngĠ
ĠzhÄ«Ġ shÃłngĠ
bÇİoĠ jiÄģ
yÃŃĠ cÃ¬ĠshÃ¬ĠjiÃ¨ĠdÃłĠzhÃłnĠ
shÅįuĠ cÃ¡ng
dÃ©Ġ guÃ³ĠdeĠ
fÃºĠjiÃłnĠ shÄĽngĠ
Ġ luÃ³ĠsÄ«Ġ
ĠĠĠ xiÄģngĠgÇİng
bÅį ĠchÅ«ĠdeĠ
xÄ«ng ĠjiÃłn
ĠzÃłiĠ bÃ¨iĠ
ĠrÃ©nĠ bÃ¨iĠ
ĠgÃ¨ ĠbÃ¹Ġ
shÄģngĠ chÇİngĠ
qiÃ¡ngĠ diÃło
Ġ zÃłoĠ
hÃło ĠdeĠ
ĠyÇĴuĠ liÇİngĠ
lÇĲĠ lÃ¡nĠ
ĠzhÅįu ĠlÃ¬Ġ
ĠduÃ¬Ġ wÃłiĠ
fÄĵnĠ pÃ¨i
jÄ«nĠ rÃ³ng
shÃ²uĠ huÄģnĠ
bÇĶĠ chÅįngĠ
ĠlÃ¬ĠshÇĲĠ xuÃ©ĠjiÄģĠ
diÃłnĠyÇĲng ĠdeĠ
ĠmÇĲ ĠzhÃ¬Ġ
ĠyÃ¬ĠshÃ¹ ĠjiÄģĠ
ĠĠĠ liÃºĠ
sÄģn ĠbÃ¹Ġ
sÃ¬ ĠyuÃ¨Ġ
12 ĠniÃ¡nĠ
shÇĴuĠ shÃ¹Ġ
ĠduÃ¬Ġ wÇĶĠ
fÄĵnĠ liÃ¨Ġ
jÄ«nĠ shÄģnĠ
ĠxiÄģngĠ bÇĲĠ
qÃŃngĠ bÃło
yÄ«nĠ sÃ¹Ġ
ĠguÄģngĠ xÃ¹Ġ
24Ġ xiÇİoĠshÃŃĠ
re Ġ
as ĠĠĠ
yÇİnĠ jiÇİngĠ
nÇļĠ hÃ¡iĠ
guÄ«Ġ lÃ¨i
fÃ³Ġ jiÃło
ĠhÃ©Ġ shÃłngĠ
ĠguÃ³Ġ shÃŃĠ
shÄĵngĠ yÄ«nĠ
yÃ¡nĠ lÃ¹nĠ
ĠjÃ¬n ĠÃ©rĠ
luÃ³Ġ lÄģĠ
wÄĵiĠ xiÃ©
sÃłĠ lÄģĠ
ĠmiÃłnĠjÄ«Ġ 0
gÇĶĠlÇİo ĠdeĠ
Ġ De
Ġ zhuÃłngĠ
Ġ hÇİoĠ
gÇĶ ĠjÃ¬Ġ
or ĠĠĠ
26 Ġ
tÄģo Ġ
ĠshÃŃĠ dÃłĠ
wÃ¡ngĠ zÇĲĠ
shuÇĲĠ shÄĵnĠ
yÇĲĠ sÃ¨Ġ
ĠjÄ«nĠ shÇĶĠ
qiÃ¡oĠ liÃ¡ngĠ
gÃ¨Ġ zhÇĴng
ÄģĠÄĽrĠ bÄĵiĠsÄ«Ġ
zhÃ²ngĠdiÇİnĠ wÃ©nĠwÃ¹ĠbÇİoĠhÃ¹ĠdÄģnĠwÃ¨iĠ
jiÄģĠlÃ¬ĠfÃºĠ nÃŃĠyÃłĠzhÅįuĠ
dÄ«ĠqÃ¬Ġ yÄģĠ
ĠĠĠ 15
duÃ¬ ĠtÄģĠ
ĠshÃ¬Ġ xÄ«ĠbÄģnĠyÃ¡Ġ
ĠhÃ©Ġ jÃ¬Ġ
ĠbÃ¹Ġ shÃŃĠ
rÃ¨nĠ mÃ¬ngĠ
ĠkÄĽ ĠshÃ¬Ġ
Ġ Åįu
Ġ com
lÃ¡i ĠkÃ¨Ġ
fÃº ĠyÄ«nĠ
yÃł ĠsÄ«Ġ
ĠyÃ¬Ġ dÃłĠ
ĠyuÃ¡nĠ ziĠ
xÄ«nĠ jiÄģngĠ
qiÃ¡nĠ jÃ¬nĠ
ĠshÃ¨Ġ yÇĲngĠ
tÃºĠ shÄģĠ
kÅįngĠ xÃŃĠ
tÇİnĠ dÄ«ngĠ
kÄģiĠfÄģ ĠdeĠ
Ġ 2023ĠniÃ¡nĠ
nÇļ ĠrÃ©nĠ
shÄģ ĠdeĠ
jÃº ĠbÃ¹Ġ
27 Ġ
ĠjÅ«nĠ tuÃ¡nĠ
nÇļĠ zhÇĶĠjuÃ©Ġ
ĠjÇĲngĠ fÄģngĠ
ĠĠĠ 2005
luÃ² ĠkÃ¨Ġ
huÃŃ ĠjiÄģĠ
ĠgÅįngĠ gÃłoĠ
ĠzhÄ«Ġ hÃ²uĠdeĠ
sÃłiĠ chÄĵĠ
xÃ¹Ġ liÃ¨Ġ
mÃ³Ġ tÃ¨
ĠshÃ¬ĠyÄ«Ġ kÄĵ
shÅįuĠ rÃ¹
guÇİng ĠzhÅįuĠshÃ¬Ġ
shuÃ² Ġ
ĠguÃ³Ġ jÅ«nĠ
zhÃŃĠ shÄĵngĠjÄ«Ġ
fÃºĠ lÃ©i
jÃ¬ngĠ tÃ³uĠ
chÃ©ngĠlÃ¬Ġ hÃ²uĠ
1970 ĠniÃ¡nĠdÃłiĠ
ĠshÃ¬Ġ xÄ«ngĠdÄĽngĠwÃ¨iĠ
pÄ«n Ġ
yÄ«Ġ yuÃłnĠ
ĠyÇĲĠ bÄĽiĠ
ĠxiÃłnĠ mÃŃngĠ
yÃ¡nĠjiÅ« ĠzhÅįngĠxÄ«nĠ
ĠniÃ¡nĠqÄ«ng ĠdeĠ
dÃŃĠshÃ¬Ġ nÃŃĠ
Ġ pÃ©ng
Ġ Ð°
Ġ qÃ¹Ġ
dÃł ĠyÃºĠ
jiÄĵ ĠdeĠ
zhuÄģn ĠlÃ¬Ġ
zhuÇİn ĠchÃ©ngĠ
ĠrÃ©nĠ duÃ¬Ġ
xuÇİnĠ qÅ«
ĠxiÃłĠ leĠ
pÇĶĠ luÃ³Ġ
gÃ²ng ĠjÃ¬Ġ
lÃºn ĠsÄ«Ġ
shÃ©nĠ huÃłĠ
Ġ tÃŃĠchÅ«Ġ
gÄģo ĠdÃ¬Ġ
wÇĶ ĠdÃ©Ġ
luÃ² ĠzÃłiĠ
33 Ġ
zhÃ¬Ġ dÃ¹Ġ
yÇĶĠ mÃ¡o
fÄģngĠ xiÃłngĠdeĠ
ĠzhÃ¨ngĠ quÃ¡nĠ
yÃŃĠ dÃ¬ngĠdeĠ
lÃ¡nĠ sÃ¨Ġ
yÄ«ngĠ xiÃ³ng
zhuÄģnĠ mÃ©n
ĠtiÄģnĠ jÄ«nĠ
fÇİĠlÃ¡nĠ xÄ«
19 ĠniÃ¡nĠ
duÅį ĠlÃ¬ĠyÃłĠ
jiÃ¹ ĠzÃłiĠ
tÃŃng ĠdeĠ
kuÃłi ĠdeĠ
ĠshÃ¬Ġ yÄ«ngĠguÃ³Ġ
ĠjÃŃĠ bÃ¬ng
pÃ©iĠ xÃ¹nĠ
wÃ¡nĠzhÄĽng ĠdeĠ
gÅįng ĠhÃ©Ġ
rÃło Ġ
fÃ©i ĠtÃ¨Ġ
ĠmÃŃngĠ xiÇİnĠ
diÃłnĠyÇĲngĠ jiÃ©Ġ
ĠĠĠ Pro
zhÄ« ĠjiÄģĠ
gÇĶ ĠdeĠ
jiÃ¹ ĠbÃ¨iĠ
biÃłn ĠshÃ¬Ġ
wÃłn ĠrÃ©nĠ
gÃło ĠshÃ¬Ġ
1925 ĠniÃ¡nĠ
ĠxÃŃngĠ rÃ³ng
nÃ¨iĠ ruÃ¬Ġ
tÃ³uĠ shÇĴuĠ
ĠshÃ¬ĠshÃŃĠ shÃłngĠ
Ġ wÃ²Ġ
18 ĠniÃ¡nĠ
1909 ĠniÃ¡nĠ
zhÃ¬Ġ zuÃ²
ĠjÃŃĠ xiÃłnĠ
ĠrÃ¬ ĠhÃ©Ġ
qÅ«Ġ zhÃº
ĠjÅ«n ĠyÇĴuĠ
fÃ¹Ġ shÇĲĠ
bÄĽnĠ shÄĵnĠ
ĠzhÅįuĠ qÄ«Ġ
ĠyÃ³uĠ xÃ¬ĠdeĠ
mÃ³Ġ fÇİĠ
zhÇĶnĠ bÃ¨i
Ġ xiÅįng
Ġ Al
dÃł ĠhÃ©Ġ
ĠwÃ¨iĠ lÃ¬Ġ
ĠshÃŃĠ pÇĲnĠ
ĠbÃ¬ng ĠshÃ¬Ġ
zhÇĲĠ kÃ²ng
ĠtÃ³ng ĠzhÃ¬Ġ
qÄ«ngĠ chÇĶĠ
chÇİnĠ wÃ¹Ġ
zhuÃłnĠ xiÄĽĠ
rÃ¬ĠbÄĽn ĠdeĠ
Ġ 2002
ĠĠĠ dÃłoĠ
nÃ¡n ĠrÃ©nĠ
shuÇĲ ĠdeĠ
wÇİng ĠyÇĴuĠ
zhÄĵngĠ qÇĶĠ
mÄĽiĠguÃ³ĠrÃ©nĠkÇĴuĠpÇĶĠ chÃ¡Ġ
sÄģiĠÄĽrĠwÃ©iĠ yÃłĠ
Ġ liÃ¡ng
Ġ 1949
zhÃłn ĠhÃ©Ġ
kÃ¨ ĠsÄ«Ġ
rÃ¹ ĠqiÃºĠ
biÃłn ĠdeĠ
shuÇĲ ĠhÃ©Ġ
wÇİn ĠniÃ¡nĠ
dÇİn Ġ
jÃ¬Ġ zÇİiĠ
liÃºĠ liÃłngĠ
ĠwÃ¨iĠyÃºĠ yÃŃn
ÃłnĠ zhÃło
sÅ«Ġ dÄģnĠ
zhuÇİnĠ huÃłn
ĠmÄĽi ĠzhÅįuĠ
kÄĽĠnÃ©ngĠ xÃ¬ngĠ
shÃ¹nĠ xÃ¹Ġ
ĠlÃºĠ wÇİĠÄĽrĠshÄĽngĠ
sÃ¬ĠchuÄģnĠ shÄĽngĠ
ĠxÃŃngĠ rÃ³ngĠ
ĠbÃ¨iĠ rÃ¨nĠmÃ¬ngĠwÃ¨iĠ
liÃłngĠ zÇĲĠ
ĠzhÇĶĠ tÃŃĠ
qiÃºĠ chÇİngĠ
ĠshÃ¬ĠjiÃ¨ ĠshÃłngĠ
fÄģng ĠzÃłiĠ
chuÄģn ĠxiÃłnĠ
ĠyÃºĠ tÃ³ng
ĠyÃºĠ shÃŃĠdeĠrÃ©nĠkÇĴuĠshÃ¹ĠliÃłngĠwÃ¨iĠrÃ©nĠ
ĠxÃŃng ĠrÃ©nĠ
gÇĶĠ diÇİnĠ
zÄ«Ġ xÃ¹n
chÃ¨Ġ xiÄģo
Ġ wÄĵnĠ
huÃł ĠshÃ¬Ġ
tÃ¡n ĠhÃ©Ġ
ĠshÃłngĠ leĠ
ĠhuÃ²Ġ zhÄĽ
jiÇİnĠ dÄģnĠdeĠ
yÃŃngĠ yÃ¹n
dÃłiĠbiÇİoĠ tuÃ¡nĠ
tÇĲĠyÃ¹Ġ guÇİnĠ
ĠwÃ¨iĠyÃºĠgÄģiĠguÃ³Ġ xÄ«ĠbÃ¹Ġ
bÄģoĠhÃ¡n ĠleĠ
Ġ zÅįngĠ
Ġ kÇİĠÄĽrĠ
ĠĠĠ hÃ³ngĠ
bÄģ ĠbÃ¹Ġ
chÃ¬ ĠjÄ«ngĠ
ve ĠĠĠ
ĠshÃ¬Ġ jÃ¬ĠzhÅįngĠ
ĠyÃºĠ 2021
ĠlÃ¬Ġ tÃ¡oĠ
zhuÇİnĠ huÃłnĠ
ĠfÄĵiĠ lÇľĠ
ĠyuÃ¡nĠzhÃ¹Ġ mÃŃnĠ
ĠyÃ¹ ĠjÃ¬Ġ
mÇİ ĠlÃ¬ĠyÃłĠ
bÇĶ ĠzhÃ¹Ġ
bÃ¨iĠ jÇĲng
zhÄĵngĠ fÃºĠ
wÄĽiĠ tuÅįĠ
qÇĶĠ mÃ¹Ġ
ruÇİnĠ tiÃ¡oĠ
Ġ 1949ĠniÃ¡nĠ
hÃło ĠwÃ¨iĠ
pÇĶ ĠjÃŃĠ
ĠdÃłĠ sÃłiĠ
kÄģiĠ zhÇİn
jiÄģngĠ hÃ¹
ĠxuÃ©Ġ shÃ¹Ġ
lÇĲngĠ tÇĶ
tiÃ¡oĠ wÃ©nĠ
gÃ²uĠmÇİi Ġ
Ġ n
Ġ pÄģn
ĠĠĠ yÃ³uĠxÃ¬Ġ
hÃ²u ĠyÇĲĠ
zuÃ²Ġ zhÄĽĠ
yÃ³uĠ yÇĴngĠ
ĠdÃ©Ġ wÃ©iĠ
tÅįngĠ xÃ¹n
ĠtiÄģnĠ jÄ«n
sÅ«ĠwÃ©iĠ Äģi
jiÄģn ĠwÃ¨iĠ
kÄĽ ĠjiÃłnĠ
bÅį ĠdeĠ
dÃº ĠdeĠ
ĠtÄģ ĠrÃ©nĠ
mÃ©iĠyÇĴuĠ rÃ¨nĠhÃ©Ġ
yÃ¡nĠshÄĵn ĠzhÃ¬Ġ
Ġ 1995ĠniÃ¡nĠ
zhÅįng ĠdeĠyÄ«Ġ
pÃŃn ĠdÃło
bÄĽiĠ bÃ¹ĠdeĠ
jiÄĵĠ xiÃłĠ
zhÃ¨nĠ rÃ³ngĠ
bÃ¬ngĠ rÃ¹Ġ
zhÇĶĠyÃło ĠshÃ¬Ġ
ĠyÇĴuĠxiÃłn ĠgÅįngĠsÄ«
gÄĵĠlÃºnĠ bÇĲĠyÃłĠ
in ĠĠĠ
at ĠĠĠ
ĠshÃŃĠ Ã¨rĠniÃ¡nĠ
jÄ«Ġ guÄģnĠ
kÄģiĠ tÅįng
tÃłiĠ shÇĴuĠ
ĠzuÃ¬Ġ zÇİo
ĠchÃºĠ cÇĲĠzhÄ«ĠwÃłiĠ
qÃŃĠzhÅįngĠ yÄ«Ġ
jiÃ¨ĠquÃ¡nĠguÃ³Ġ zhÃ¨ngĠxiÃ©Ġ
bÃłoĠfÄģ ĠhÃ²uĠ
Ġ HR
Ġ lÃºnĠ
Ġ kÄĵĠxuÃ©Ġ
shÃ¹ ĠjiÄģĠ
qÇĶ ĠdeĠ
piÃłn ĠzhÅįngĠ
jiÇİ ĠjÃŃĠ
35 Ġ
ĠzÃłiĠ xiÄģngĠgÇİngĠ
ĠshÃŃĠ yÄ«ĠniÃ¡nĠ
ĠjÃŃĠ wÃ©iĠ
ĠyÇĲĠ biÃłnĠ
wÇĶĠ hÃłnĠ
sÃ¬Ġ hÅ«
gÄĵĠ gÄĵĠ
fÃłnĠ zuÃ¬
diÃłnĠshÃ¬Ġ dÃ²ngĠhuÃłĠ
J Ġ
Ġ ë
yuÃ¡n ĠbÃ¹Ġ
fÃ¨n ĠdeĠ
mÇİi Ġ
us Ġ
ĠzhÅįngĠ xÄ«nĠdeĠ
ĠrÃ©nĠ yÇĶĠ
ĠdÃłĠ xiÇİoĠ
gÃ©Ġ lÄģĠsÄ«Ġ
hÅ« ĠxÄ«Ġ
ĠdÃłĠ lÇĲĠ
jÃ¹Ġ lÃŃ
fÇİĠ lÃ¡nĠkÃ¨Ġ
tÅįngĠ wÇİngĠ
ĠdeĠdÃ¬Ġ sÄģnĠ
hÄĽnĠ dÃłĠdeĠ
ĠE Ġ
Ġ fÃ¡n
Ġ liÃ¨ĠchÄĵĠ
Ġ 1993ĠniÃ¡nĠ
ĠĠĠ 7
ĠĠĠ kÇİĠ
jÃ¬ ĠzhÃ¬Ġ
chÄĵ ĠxÃŃngĠ
jiÃ¨ ĠshÃŃĠ
hÄģ ĠlÇĲĠ
huÇĴ ĠlÃ¬Ġ
rÃ©ng ĠwÃ¨iĠ
kuÃł ĠyuÃ¨Ġ
1923 ĠniÃ¡nĠ
ĠshÃ¬Ġ Ã©ĠluÃ³ĠsÄ«Ġ
liÃ¡nĠ luÃ²Ġ
dÃ²ngĠ wÃ¹
shuÇĲĠ liÃłngĠ
xiÃ©Ġ tiÃ¡oĠ
huÇĴĠ chÄĵĠzhÃłnĠ
nÃ³ngĠ chÇİngĠ
xuÄģnĠ yÃ¡nĠ
ĠchÃ¬Ġ wÄĽiĠ
Ġ huÃ¡n
ĠĠĠ shÃłngĠ
ĠĠĠ Ã¨rĠ
ĠĠĠ jiÇİnĠlÃ¬Ġ
zhÃłn ĠyÇĴuĠ
chÄĵng ĠshÃ¬Ġ
gÇĶ ĠxÄ«ĠlÃł
gÃ¨ng ĠshÃ¬Ġ
35 ĠniÃ¡nĠ
yÃ¬Ġ mÃŃngĠ
wÃ¹Ġ pÇĲnĠ
duÅįĠ zhÇĴng
ĠyÃ³uĠ tÃłiĠ
hÇİiĠ nÃ¡nĠ
shÄĽngĠ zhÇİngĠ
huÃ¡ngĠ jÄ«nĠ
ĠxiÃłnĠshÃŃĠ yÃ³uĠ
ĠĠĠjÇĲnĠ guÇİnĠ
jiÄĵ ĠshÃ¬Ġ
hÇİi ĠdeĠ
tÅ« ĠjÄ«Ġ
ĠjÃŃĠ gÅįngĠ
ĠyÇĲ ĠbÃ¹Ġ
qÅ«Ġ nÃ¨iĠ
qiÃ¡nĠ tÇĲng
zhÃŃĠ bÃłng
ĠjÄ«ngĠ chÃ¡ngĠ
chuÃłngĠ zÃło
Ġ SAO
ĠĠĠ s
qÄ« ĠzhÃ¬Ġ
jÃ¹n ĠdeĠ
ĠdÃłoĠ dÃ¡
ĠdÃ© ĠdÃło
ĠzhÃ¨Ġ zuÃ²Ġ
nÃŃĠ sÅ«Ġ
mÄĽiĠ xiÇİoĠshÃŃĠ
zhÅįuĠ biÄģn
ĠjiÃłnĠzhÃ¹Ġ wÃ¹Ġ
mÃ¡oĠ dÃ¹nĠ
ĠĠĠ 2022ĠniÃ¡nĠ
xÄ«n ĠjiÃłnĠ
wÃłn ĠlÃ¬Ġ
zÃło ĠxÃŃngĠ
22 ĠniÃ¡nĠ
ĠdÃ© ĠjÅ«nĠ
shÅįuĠ fÃ¨iĠ
ĠzhÃ¨ ĠshÃŃĠ
ĠxÃ¬Ġ bÄģoĠ
wÃłngĠyuÇİnĠ jÃ¬ngĠ
dÄĽng ĠyÃºĠ
xÃ¹ ĠdeĠ
cÃ©ng ĠbÃ¨iĠ
ĠdÃłĠ bÇİnĠ
ĠchÅ«Ġ chÇİngĠ
shÄĵnĠ tÇĲ
lÃ³ngĠ shÄĽngĠ
xiÅ«Ġ dÃ¬ngĠ
ĠĠĠ jÄ«ngĠlÃ¬Ġ
liÃ¹ ĠmÃŃngĠ
ĠdÃ¬Ġ yÄ«ĠwÃ¨iĠ
ĠjÃŃĠ huÃ¬Ġ
ĠjÃŃĠ qÃŃĠtÄģĠ
jÇĶĠ zhÃ¨nĠ
zhÅįngĠguÃ³Ġ dÃłĠlÃ¹Ġ
chÅįngĠ mÇİnĠ
1 ĠmÃŃngĠ
pÅ« Ġ
sÄĵng Ġ
ĠguÃ³Ġ yÇĴuĠ
ĠchÅ«Ġ xÃŃ
xÃ¬Ġ jiÃ©Ġ
liÃ¡nĠ luÃ²
ĠshÄĵngĠ tÃłiĠ
nuÃ²Ġ fÅ«Ġ
ĠguÄģnĠ zhuÃłngĠbÃ¬ngĠdÃº
ĠzÃ© ĠshÃ¬Ġ
Ġ 2001
Ġ cÃ¡oĠ
Ġ pÃºĠtÃ¡oĠyÃ¡
ĠrÃ©nĠ zhÃ¬Ġ
ĠchÃ©ngĠ yÄ«Ġ
yÃ²ngĠ hÃ¹
ĠduÃ¬Ġ xiÃłngĠ
shÃ²uĠ huÄģnĠyÃŃngĠ
mÄĽiĠ tiÄģnĠ
cÃ¡iĠ pÃłnĠ
jiÇİngĠ jÄ«nĠ
cÄģnĠyÃ¬Ġ yuÃłnĠ
ĠlÃ¬ĠfÇİ ĠhuÃ¬Ġ
ĠxiÄģngĠdÄģng ĠyÃºĠ
5 ĠgÅįngĠlÇĲĠ
Ġ wÄĽi
ĠĠĠ lÃŃnĠ
xÃŃng ĠdeĠ
yÃł ĠhÃ©Ġ
nÃł ĠÄĽrĠ
chÃ³ng ĠjiÃłn
ly ĠĠĠ
fÃł Ġ
ĠzÃłiĠ fÇİĠguÃ³Ġ
jiÄģoĠ gÄĽiĠ
zÄ«Ġ xÃºnĠ
shÇĲĠyÃ²ngĠ zhÄĽĠ
Ġ xÃ¬ĠtÇĴngĠ
ĠĠĠ pÃŃngĠ
guÃ² ĠyÄ«Ġ
ĠshÃŃĠ rÃ¨n
ĠshÃŃĠ sÄģnĠ
yÃ¡nĠ fÄģĠ
zhÇĲĠ shÃ¹Ġ
ĠrÃ¨nĠ mÃ¬ngĠ
guÄ«Ġ dÃ¬ng
biÇİoĠxiÃłn ĠchÅ«Ġ
ĠjÃŃĠxÃŃngĠzhÃ¨ngĠ dÄģnĠwÃ¨iĠ
ĠÃłoĠdÃłĠlÃ¬Ġ yÃłĠ
Ġ sÅįngĠ
fÄģng ĠxÃŃngĠ
zhuÄģng ĠwÃ¨iĠ
lÃºn ĠdeĠ
15 ĠniÃ¡nĠ
ĠÃ©r ĠhÃ²uĠ
zhÇĶĠ dÃ²ngĠ
jiÃłoĠ gÄģoĠ
bÃ¬Ġ yÃłoĠ
pÃ¡iĠ liÃ¨Ġ
tuÅįĠ lÃŃĠ
ĠyÃŃnĠ wÄĽiĠ
0 ĠzuÃ²ĠbiÄģoĠwÃ¨iĠ
zÃ© ĠbÃ¨iĠ
zi ĠshÃ¬Ġ
wÃ©iĠ yÄ«ĠdeĠ
ĠdÃłn ĠshÃ¬ĠzÃłiĠ
ĠqÃŃĠ B1900
ĠdÃłnĠ zuÃ¬ĠzhÅįngĠ
xÃ¹nĠ sÃ¹
rÃ©nĠmÃŃnĠ zhÃ¨ngĠfÇĶĠ
ĠhÃºĠ bÄĽiĠ
ĠwÃ¨iĠyÃºĠyÃŃn ĠjÄ«ngĠ
0ĠzuÃ²ĠbiÄģoĠwÃ¨iĠ chÃ¬ĠjÄ«ngĠ
Ġ In
ĠĠĠ U
ĠĠĠ sÄģnĠ
ĠĠĠ 11ĠyuÃ¨Ġ
xiÃłng ĠyÃºĠ
liÃ¡n ĠjÅ«nĠ
lÄģ ĠwÃ©iĠ
fÄĵi ĠdÃłnĠ
shÃ¨ng ĠdÃłnĠ
28 Ġ
ĠzhÅįngĠ huÃ¡
jÄ«Ġ dÅ«Ġ
ĠxÃŃngĠ tÃłiĠ
tÇĶĠ rÇİng
xuÄģnĠ chÄĵngĠ
ĠjiÃłnĠzhÃ¹Ġ miÃłnĠjÄ«Ġ
kÃ²ngĠ zhÃ¬ĠdeĠ
gÃ²ngĠhÃ©Ġ dÇİngĠ
Ġ ãĥ³
Ġ wÅ«ĠkÃ¨ĠlÃ¡n
ĠĠĠ fÄĵnĠbÃ¹Ġ
mÃŃng ĠhÃ©Ġ
huÃł ĠyÇĶĠ
suÇĴ ĠyÇĲĠ
jiÄģo ĠzhÃłnĠ
bÃ³ ĠÄĽrĠ
mÃłn ĠdeĠ
bÇİ ĠtÄģĠ
60 Ġ
1922 ĠniÃ¡nĠ
ĠsÄ«Ġ zhÃŃĠ
guÄģnĠ xÃ¬ĠdeĠ
xiÄģoĠ fÃ¡ngĠ
gÃ¨ngĠ dÃłĠdeĠ
ĠqÄ«ngĠchÃ¡oĠ zhÃ¨ngĠzhÃ¬ĠrÃ©nĠwÃ¹Ġ
jiÄģng ĠjÅ«n
11 ĠniÃ¡nĠ
zhÄĵn ĠrÃ©nĠ
sÇĲ ĠleĠ
ĠyÃºĠ 2019
yÃ³uĠ xÃ¬ĠdeĠ
xiÃłoĠ lÇľĠ
ĠĠĠ xiÇİoĠ
shÄģ ĠrÃ©nĠ
1919 ĠniÃ¡nĠ
1911 ĠniÃ¡nĠ
zhÅįngĠ huÃ¡ĠmÃŃnĠguÃ³Ġ
ĠjÃŃĠ tÇĲĠ
bÃ¨iĠ ÄĽrĠ
ĠmÇĶĠ qÄ«n
ĠT Ġ
ĠĠĠchÄĵĠzhÃłnĠ gÃ²uĠzÃłoĠ
luÃ²ĠfÃ¡ ĠkÃ¨Ġ
Ġ huÄ«Ġ
ĠĠĠ chÃºĠ
biÄģn ĠzhÃ¬Ġ
lÃ¹n ĠshÃ¬Ġ
xiÄĽ ĠwÃ¨iĠ
dÄģ ĠzÃłiĠ
ĠshÃŃĠ bÄģĠ
ĠdÃłĠ jiÄĵĠ
jÄ«nĠ shÇĶ
ĠjÃ¹Ġ qÃŃngĠ
ÅįuĠ mÃ©ngĠ
jiÄĽĠfÃłng ĠjÅ«n
Ġ zhÄĽngĠgÃ¨Ġ
dÇİo ĠhÃ©Ġ
kÃłng ĠzhÃłnĠ
ĠdeĠ gÄģoĠ
ĠjÃŃĠ chÃ©ngĠ
jÄ«Ġ chÄĵĠ
yÃŃĠ bÃłnĠ
tuÃ¡nĠ jiÃ©Ġ
shÅįuĠ gÃ²u
huÇĴĠ chÄĵĠ
ÃłiĠÄĽrĠ lÃ¡n
1 ĠhÃłoĠ
Ġ kÄģiĠshÇĲ
ĠĠĠ e
16 ĠniÃ¡nĠ
zhÇĶĠ quÃ¡nĠ
ĠqiÃºĠ duÃ¬
ĠdÃł ĠbÃ¹ĠfÃ¨nĠ
Ġ lÃ³ng
Ġ gÃ²ngĠtÃ³ngĠ
ĠĠĠ 0
ĠĠĠ re
ĠhÃ©Ġ yuÃ¡nĠ
zhÇĲĠ dÃ¬ng
jÇĲnĠ zhÄģngĠ
zhÄĵnĠ zhÃ¨ngĠdeĠ
shÃ¹nĠshÃŃĠ zhÄĵnĠyÇĶĠ
Ġ 160
Ġ zÇĶĠzhÄ«Ġ
Ġ bÄ«nĠ
mÃŃng ĠyÃºĠ
zhÃŃ ĠxÃŃng
bÄģ ĠsÄ«Ġ
cÄģn ĠjiÃłnĠ
kÃłn ĠfÇİĠ
wÄĵn ĠdÃłiĠ
hÅ«n ĠyÄ«n
tiÄĵ ĠmÃ¹
ĠdeĠ xÃŃngĠ
ĠyÄ«Ġ shÃŃĠ
ĠyÇĲĠ dÅįngĠ
ĠxiÃłnĠ zhÇİngĠ
zÃ¬Ġ wÇĴĠ
wÃ¹Ġ tÇĲĠ
fÄĵngĠ gÃ©ĠdeĠ
tÃŃĠ qiÃ¡nĠ
zÃºĠ qÃºnĠ
xÇĶĠ kÄĽĠ
ĠyÇĲnĠ fÄģĠ
liÃ¡nĠmÃ©ng ĠdeĠ
ĠĠĠ 2009ĠniÃ¡nĠ
nÃ¨i ĠsÄ«Ġ
zÃ© ĠyÃ³uĠ
ĠshÃ¬Ġ tÃ¡iĠwÄģnĠ
ĠdÃłĠ duÃ¬Ġ
zhÇĶĠ dÇİĠ
fÄģngĠ Ãłn
ĠxiÄģngĠ guÄģnĠdeĠ
pÇĶĠ lÄģĠ
ĠĠĠ Ã©rĠ
lÃ¡i ĠshÃ¬Ġ
zhÃ¨n ĠjÃŃĠxÃŃngĠzhÃ¨ngĠdÄģnĠwÃ¨iĠ
nÃ¡ng Ġ
ĠbÃ¹Ġ chÃ©ngĠ
fÄģngĠ biÃłnĠ
suÇĴĠ xÅ«
ĠyÃ³uĠ zhÃ¨ngĠ
ĠzÃ¬Ġ rÃ¡n
ĠJ Ġ
Ġ xiÇİnĠshÃ¬Ġ
Ġ tÃłiĠguÃ³Ġ
ĠĠĠ gÇĶĠ
ĠĠĠ tÄģĠdeĠ
ĠĠĠ guÃ³ĠjÃ¬Ġ
lÃŃn ĠjÃ¬nĠ
wÇĴ ĠdeĠ
ĠzhÅįngĠ yÄ«Ġ
ĠzhÃ¬Ġ yuÃ¡nĠ
shÄĵngĠ gÃ©ĠwÃ¨iĠ
ĠjiÃłnĠ kÄģng
ĠquÃ¡n ĠxiÃłnĠ
zuÃ¬Ġ zhÃ²ngĠyÃłoĠdeĠ
ĠzhÃ¨Ġ yÃłng
tÃºĠ ÃłnĠ
ĠwÄĵi ĠÄĽrĠ
Ġ nÃŃ
Ġ 64
duÅį ĠÄĽrĠ
qÃ¹ ĠleĠ
ĠshÃ¬Ġ lÃ¡ngĠ
ĠzÃłiĠ qiÃ¡nĠ
ĠzhÅįngĠ jiÃłngĠ
ĠjÃŃĠ biÃ©Ġ
ĠÃ©rĠ tÃ³ng
ĠshÃłngĠ yÃ¬ngĠ
tÃ³ngĠ yÃłngĠ
cÄģnĠ guÄģnĠ
chÃ³ngĠ fÇİnĠ
ĠrÃ©nĠkÇĴu ĠwÃ¨iĠ
jÇĲng ĠwÃ¨iĠ
xiÄģn ĠwÃ©iĠ
dÇĴng Ġ
ĠyÄ«Ġ liÃ¡o
guÄģnĠ kÃłnĠ
ĠyÄ«n ĠÃ©r
juÃ©Ġ sÃ¨ĠdeĠ
Ġ mÃŃĠ
shÃ¨ng ĠdeĠ
jiÃł ĠdeĠ
1926 ĠniÃ¡nĠ
yÃ¬Ġ huÃ¬Ġ
ĠzhÅįuĠ zhÇİngĠ
dÃ¬ngĠ yÃ¬ĠwÃ¨iĠ
jiÇİnĠ chÃ¡
shÄĽnĠ pÃłnĠ
hÃ¹nĠ nÃŃngĠ
Y Ġ
Ġ e
Ġ 58
Ãłn ĠlÃ¬Ġ
shÄĵn ĠyÃºĠ
xÃ¹n ĠxÄ«Ġ
ĠgÃ¨ ĠguÃ³ĠjiÄģĠ
ĠyÇĶĠ xÄ«Ġ
jiÄģnĠ chÃŃĠ
dÄģnĠ dÃºĠ
wÇİngĠ wÇİng
cÇİiĠyÃ²ngĠ leĠ
Ġ guÇİngĠxÄ«Ġ
ĠĠĠ wÃ¡ngĠ
shÄ« ĠjÃŃĠ
lÃ¹n ĠdeĠ
ĠzhÅįngĠ duÃłnĠ
ĠyÃºĠ 2016
ĠdÃłĠ chÃ©n
zhÇĴngĠ lÃ¨iĠ
cÅ«nĠ mÃŃnĠ
qÃºnĠ dÇİoĠdeĠ
Ġ17 Ġ
ĠzhÃ¨ngĠfÇĶ ĠdeĠ
2 ĠlÃ¬Ġ
Ġ shÃ¹
ĠĠĠ 5Ġ
xÃ¬ng ĠmÃŃngĠ
shÃ²u ĠdÃłoĠleĠ
ĠyÇĶĠ wÃ©nĠ
jiÃłoĠ liÃłn
zhÃ¹Ġ shÇĴuĠ
tiÄģnĠ wÃ©nĠxuÃ©Ġ
jiÃłĠ gÃ²uĠ
ĠyÃ³u ĠqÃŃĠ
ĠzhÃŃĠ jiÄĵĠ
Ã¨Ġ huÃłĠ
Ġ dÃºĠlÃ¬Ġ
ĠĠĠ luÃ³Ġ
ĠĠĠ zuÃ²ĠwÃ©iĠ
bÄģ ĠjÄ«ĠsÄ«Ġ
xiÄģn ĠdeĠ
1918 ĠniÃ¡nĠ
EST Ġ
ĠshÃ¬Ġ chÃ©ngĠ
ĠshÃ¬Ġ chÅ«Ġ
ĠyÇĴuĠ mÃŃngĠ
ĠdÃło ĠshÃŃĠ
ĠyÇĲĠ cÇĲĠ
jiÄģnĠ chÃ¡
ĠzhÅįuĠ fÃ¹ĠzÃ©ĠguÇİnĠxiÃ¡Ġ
wÃłiĠ lÃ¡ngĠ
miÃłnĠ xiÃłngĠ
jiÇİngĠ pÃ¡iĠ
ĠzhÃłn ĠhÃ²uĠ
ĠÃłi ĠÄĽrĠ
tiÃ¡oĠyuÄĵĠ tÇĲĠxÃ¬Ġ
3 ĠmÃŃngĠ
Ġ 47
Ġ biÄģoĠ
wÄĵng Ġ
ĠzhÅįngĠ shÄģn
ĠpÃŃng ĠchÃ©ngĠ
Ġ dÄ«Ġ
Ġ 1988ĠniÃ¡nĠ
jÃ¬ ĠbÃ¹Ġ
duÃ¬ ĠdÃ¬Ġ
wÃ¹ ĠbÃ¹Ġ
suÇĴ ĠshÃ¬Ġ
jÄ«Ġ huÃ¬Ġ
hÃ²uĠ qÄ«Ġ
zhÇĶĠ bÃłnĠ
fÃ¹Ġ mÇĶĠ
jÄ«ngĠ yÃłn
gÄĵnĠ suÃŃĠ
Ġ 1985ĠniÃ¡nĠ
Äģn ĠxiÃłnĠ
ĠĠĠ quÃ¡nĠ
suÄģn ĠjiÇİnĠ
1914 ĠniÃ¡nĠ
ĠjÄ«Ġ fÄĵnĠ
xuÇİnĠ mÃŃnĠ
kÄĵĠ huÃ¬ĠshÃ¬ĠdÃ¬Ġ
gÄĵĠ shÇĴu
Ã¨rĠ shÃŃĠniÃ¡nĠ
sÃ¹Ġ dÃ¹
sÃ¨Ġ cÇİiĠ
chÄĵngĠ hÅ«Ġ
ĠdeĠshÃŃĠ jiÄģn
pÃ©iĠ xÃ¹n
ĠguÃ³ĠfÃ¡ng ĠbÃ¹Ġ
Ġ 48
ĠĠĠ 2007ĠniÃ¡nĠ
me ĠĠĠ
ĠrÃ©nĠ quÃ¡nĠ
ĠchÅ« ĠyÃºĠ
qiÃ¡nĠ shÄĵnĠ
cÃ¬Ġ shÃ¹Ġ
ĠlÃ¡iĠ zÃ¬
ĠzhÃŃ ĠxÃŃngĠ
nÃ¡nĠjÃŃĠ tiÃ¡oĠyuÄĵĠtÇĲĠxÃ¬Ġ
Ġ mÃ¡o
Ġ 600
tÃ¡ng ĠhÃ©Ġ
tÄ«ng ĠdÃłoĠ
tÅ« ĠrÃ¡n
cÃ¡n ĠjÃŃĠrÃ©nĠ
ve Ġ
ĠshÃ¬Ġ pÃŃnĠ
ĠbÃ¹Ġ lÇĶĠ
ĠgÅįngĠ dÇİĠ
zÃ¬Ġ shÄģĠ
xiÇİngĠ yÃłoĠ
pÇĲnĠ zhÇĴngĠ
jÇĲĠ nÃ¨iĠ
ĠgÄģiĠcÅ«nĠ shÇĲĠjiÃłnĠyÃºĠ
Ġ rÃ³ng
Ġ fÃłn
Ġ Le
yÃº ĠwÃ¨iĠ
zhÃ¨ng ĠyÃ¬Ġ
yÃŃn ĠhÃ©Ġ
ĠzÃłiĠ nÃ¨iĠ
wÃ©iĠ yÄĽĠ
duÅįĠ shÃ¹
biÄģnĠ zÇĶĠ
rÃ¨Ġ dÃłi
ĠÄģnĠ huÄ«Ġ
ĠxÃŃngĠchÃ©ngĠ leĠ
ĠjÃ¬ngĠ nÃ¨iĠ
qÃŃĠzhÅįngĠ yÃŃĠgÃ¨Ġ
xiÃłĠxiÃ¡ĠdeĠyÃŃĠgÃ¨ĠxiÄģngĠ zhÃ¨nĠjÃŃĠxÃŃngĠzhÃ¨ngĠdÄģnĠwÃ¨iĠ
zhÃłn ĠwÃ¨iĠyÃºĠ
zhÃ¹ ĠyÇĴuĠ
mÇİ ĠshÃ¬Ġ
zhÃ¨n ĠdÃ¬Ġ
xiÇİng ĠyÇĴuĠ
ĠshÃŃĠ yÇĴuĠ
wÃ©iĠ chÃŃ
diÃłnĠ chÃŃĠ
Ġ zÇĶĠchÃ©ngĠ
Ġ zhuÄ«Ġ
ĠĠĠ jÃ¬n
mÃ©i ĠtÃ³ngĠpÃ¡iĠ
tÇİ ĠjÄ«Ġ
gÅįngĠ mÃŃnĠ
ĠchÃ©ngĠ gÅįngĠdeĠ
ĠsÄ«Ġ dÃ¹nĠ
ĠjÄ«Ġ bÄĽn
ĠjiÄģĠ lÇĲĠ
ĠkÃ¨ ĠyÇĶĠ
ĠdÃ©Ġ luÃ³Ġ
fÃºĠ zhuÄģngĠ
sÃ¹Ġ sÃ²ngĠ
qÃŃngĠ gÇİnĠ
piÃłnĠ duÃłnĠ
shÅįuĠ cÃ¡ngĠ
pÄ«Ġ pÃłnĠ
ĠsÄ«ĠlÃ¬ng ĠyuÃ¡nĠ
8 ĠgÃ¨Ġ
Ġ cÃ¡o
Ġ 1945
Ġ guÇİnĠlÇĲĠ
liÇİng ĠzuÃ²Ġ
nÃ³ng ĠlÃ¬Ġ
mÃ¡i Ġ
ĠzÃłiĠ nÃłĠ
ĠyÃ¬Ġ xÃŃĠ
ĠrÃ¬ ĠyÇĲĠ
ĠjiÃłn ĠdÃłoĠ
ĠhÃ²uĠ zhÄĽ
ĠkÃ¨ ĠzÃłiĠ
huÃłĠ guÄ«Ġ
jiÃłoĠ dÃłĠdeĠ
wÃ©nĠ zhÄģng
ĠwÃ©iĠ wÃºĠÄĽrĠ
jiÄģngĠ nÃ¡nĠ
ĠzuÃ²Ġ zhÄĽĠ
zhÃ¨nĠ yÄģĠ
bÅįĠ tÃ¨Ġ
ĠjiÃ©Ġ hÅ«nĠ
ĠxÃ¬Ġ liÃ¨
2 ĠĠĠ
ĠshÃŃĠ tÇĲĠ
ĠyuÃ¨Ġ yÇĶĠ
ĠyÄ«Ġ lÃłi
qÇĲĠ yuÃ¡nĠyÃºĠ
rÃ³ngĠ liÃłngĠ
ĠF Ġ
ĠĠĠ suÄ«ĠrÃ¡n
yÃ²ng ĠzÃłiĠ
tÃ¨ ĠshÃ¬Ġ
yÃ²u ĠyÃ¬Ġ
fÃ¡ng ĠxiÃłnĠ
17 ĠniÃ¡nĠ
50 ĠniÃ¡nĠ
1990 ĠniÃ¡nĠdÃłiĠ
kuÄģng ĠjiÃłĠ
ĠxÄ«Ġ tÃ¨Ġ
ĠbÃ¬ngĠ bÃºĠshÃ¬Ġ
qÄ«ngĠ xiÃłngĠ
ĠxiÃłĠ lÃ¡iĠ
mÃ²Ġ qÄ«Ġ
kÇİoĠ chÃ¡Ġ
ĠniÃ¡nĠ4ĠyuÃ¨Ġ 1ĠrÃ¬Ġ
yÃ¬nĠ nÃŃ
xiÇİoĠxÃŃngĠ xÄ«ngĠdeĠ
nÃ¡nĠjÃŃĠtiÃ¡oĠyuÄĵĠtÇĲĠxÃ¬Ġ guÇİnĠlÇĲĠ
Ġ tÃ¡nĠ
Ġ jiÄĵĠwÃ¨iĠ
ĠĠĠ huÃ²Ġ
ĠĠĠ zhÃŃĠyÃ¨ĠshÄĵngĠyÃ¡Ġ
wÃ©i ĠgÅįngĠ
biÄģn ĠxÃŃngĠ
cÃŃ ĠjÄ«Ġ
28 ĠniÃ¡nĠ
1950 ĠniÃ¡nĠ
1913 ĠniÃ¡nĠ
ĠzÃłiĠ chÃ©ngĠ
ĠdÃłĠ qÃ¬Ġ
huÃ¬Ġ shÃłngĠ
fÇİĠ lÃ¡nĠxÄ«Ġ
fÄĵnĠ lÃŃ
ĠliÃ¡nĠ bÄģng
shÃłoĠ nÇļ
ĠtÇĲĠ yÃ¹Ġ
tiÄģnĠwÃ©nĠ tÃ¡iĠ
shÄĽng ĠfÃ¹ĠzÃ©ĠguÇİnĠxiÃ¡Ġ
hÃ¹ ĠwÃ¨iĠ
luÃ² ĠyÄ«Ġ
lÄĽi ĠjÄ«Ġ
gÄĽn ĠdÃ¬Ġ
wÃ©iĠ chÃŃĠ
qiÃ¡nĠ lÃ¡iĠ
shÄģngĠ hÃłiĠ
yÃŃĠgÃ¨ ĠyuÃ¨Ġ
dÄģngĠ xuÇİnĠwÃ¨iĠ
ĠjiÄĵĠ shÃ²uĠ
ĠjÃŃĠbÄĽiĠ mÄĽiĠ
Ġ yÃ¡nĠjiÅ«
Ġ 1984ĠniÃ¡nĠ
rÃ¬ ĠjÅ«nĠ
miÃ¨ ĠjuÃ©Ġ
shÇİn Ġ
bÃŃ Ġ
ĠdeĠ zhÄ«ĠchÃŃĠ
ĠshÃ¬Ġ zhÃ¬Ġ
ĠchÃ©ngĠ fÃ¨nĠ
ĠzhÄ« ĠlÇĲĠ
ĠyuÃ¡nĠ yÄ«nĠshÃ¬Ġ
xÄ«Ġ wÃłng
ĠdÃłn ĠyÄĽĠ
ĠfÃ¹Ġ zhÇĶĠxÃŃĠ
wÃ©iĠyÄ«Ġ yÄ«Ġ
ĠĠĠ jiÃ©Ġ
ĠĠĠ wÃłiĠbÃ¹Ġ
Ãłi ĠhÃłoĠ
le ĠzhÅįngĠguÃ³Ġ
zuÃ¬ ĠyÇĴuĠ
jiÇİn ĠyÃ¬Ġ
sÃł ĠkÃ¨ĠsÄ«Ġ
pÃ©n ĠdÃ¬Ġ
pÄ«ng Ġ
ĠgÃ¨Ġ lÃ¨iĠ
jiÃłoĠ zÅįngĠ
ĠzhÃ¨ngĠ cÃ¨
zhÃ²ngĠ liÃłngĠ
yÇİnĠ huÃłĠ
tÃ³ngĠ mÃ©ng
ĠshÃ¬ĠjiÃ¨Ġ bÄĵi
ĠdiÃłnĠ ziĠ
ĠdÃ²ngĠ huÃłĠ
fÄģĠbÃ¹Ġ leĠ
ĠĠĠ f
fÄĵi ĠÄĽrĠdÃ©Ġ
ĠwÃ¨iĠ jÃŃĠ
ĠxÄ«Ġ zÃłngĠ
xiÃłĠ lÃ¬ngĠ
fÇİĠ xuÃ©Ġ
shÄģĠ bÃ¡iĠ
jiÇĶĠ lÃ³ng
ĠniÃ¡nĠdÃłi ĠdeĠ
Ġ 800
Ġ chÄģoĠguÃ²Ġ
xÄ« ĠyÃºĠ
yÇĶ ĠdÃ¬Ġ
jiÃłn ĠshÃ¨
ĠdeĠ qÃŃngĠkuÃłngĠxiÃłĠ
ĠchÃ©ngĠ jiÃ¹Ġ
ĠyÄ«Ġ shÄ«Ġ
shÃ²uĠ sÇĶnĠ
tÃŃngĠ zhÇĲ
jiÄĽĠ sÃłn
ĠrÃ©nĠmÃŃnĠ zhÃ¨ngĠfÇĶ
chÇĲĠ cÃ¹n
ĠĠĠzhÅįngĠ huÃ¡ĠrÃ©nĠmÃŃnĠgÃ²ngĠhÃ©ĠguÃ³Ġ
ĠhuÃ¡Ġ shÃ¨ngĠ
cÄģnĠsÃłiĠ zÄ«ĠgÃ©Ġ
shÄģnĠmÃłi ĠdeĠyÄ«ĠbÃ¹ĠfÃ¨nĠ
Ġ tÃ¡i
Ġ lÄĽiĠjÃ¬Ġ
sÃ¬ ĠwÃ¨iĠ
shuÇĲ ĠdÃłoĠ
suÃŃ ĠjÄ«Ġ
rÃ©nĠ kÇĴuĠwÃ¨iĠ
jÃ¬Ġ huÃł
ĠyuÃ¡nĠ lÇĲĠ
ĠxiÃłnĠ xÃ¬ngĠ
qÅ«Ġ biÃ©Ġ
tÅįngĠ yÃ²ngĠ
ĠzhÇĶĠ zhÄģngĠ
tiÃ¡oĠ jiÃ©Ġ
zhÃ¨ngĠzhÃ¬Ġ jiÄģĠ
lÃ©iĠ dÃ¡Ġ
rÃ¨ĠdÃłiĠ qÃ¬ĠxuÃ¡nĠ
ĠgÃ¨ĠyuÃ¨Ġ hÃ²uĠ
Ġ 65
Ġ bÄģngĠzhÃ¹Ġ
Ġ 1991ĠniÃ¡nĠ
huÃ¬ ĠwÃ¨iĠ
hÇİi ĠshÃ¬Ġ
mÃ² ĠniÃ¡nĠ
xÃ¬n ĠrÃ¨nĠ
ĠzÃłiĠ shÃłngĠ
ĠguÃ³Ġ ÄģnĠ
ĠzhÅįuĠ kÄģnĠ
tÃ³uĠ xiÃ¡ng
ĠtiÄģnĠ wÃ©nĠ
ĠdeĠgÅįngĠ nÃ©ngĠ
juÃ© ĠwÃ¨iĠ
1960 ĠniÃ¡nĠdÃłiĠ
HD ĠĠĠ
ĠyÄ«Ġ rÃ¡n
hÇİiĠ bÃ¡ĠgÄģoĠdÃ¹Ġ
jiÇİnĠ cÃ¨Ġ
tÃ¡ngĠ qÅ«Ġ
yÄ«nĠ cÇĲĠ
ĠtÃ³ngĠ xÃ¬ngĠ
huÃŃĠ dÃ¡Ġ
ĠdeĠjÃ¬Ġ shÃ¹Ġ
wÄĽnĠ dÃ¬ngĠdeĠ
Ġ á
Ġ wÇİ
Ġ jÅ«Ġ
jiÃ© ĠchÅ«Ġ
bÄ«ng ĠdeĠ
luÇİn Ġ
ĠhÃ©Ġ yÃ¬Ġ
ĠdÃ¬Ġ chÇİnĠ
ĠyÃºĠ 2024
ĠtÄģ ĠyÇĴuĠ
guÄģnĠ liÃ¡nĠ
qiÃ¡nĠ fÄĵngĠ
suÇĴĠ wÃ¨iĠdeĠ
bÇİoĠ xiÇİnĠ
ĠhuÃ²Ġ chÄĵngĠ
dÅ«Ġ chÃ¡Ġ
ĠjiÇİnĠ chÄĵng
Ġ 1989ĠniÃ¡nĠ
ĠĠĠ 2006ĠniÃ¡nĠ
cÃ©ng ĠrÃ¨nĠ
ĠlÃ¬Ġ ÃłoĠ
ĠduÃ¬Ġ fÄģngĠ
ĠquÃ¡n ĠshÃ¬Ġ
cÃŃĠ diÇİnĠ
diÃłnĠshÃ¬Ġ jiÃ©ĠmÃ¹Ġ
fÄģĠbiÇİo ĠdeĠ
yÃłĠmÄĽiĠ nÃŃĠyÃłĠ
hÃ¹ĠliÃ¡nĠ wÇİngĠ
Ġ sÄģng
nÃ¡n ĠshÃ¬Ġ
xiÃłng ĠwÃ¨iĠ
zÄĵng ĠshÃ¨Ġ
tuÄ« ĠlÇĲĠ
24 ĠniÃ¡nĠ
man Ġ
ĠzhÃ¨ngĠ chÃ¡ngĠ
pÇĶĠ lÇĶĠshÃ¬Ġ
tuÄ«ĠchÅ«Ġ leĠ
xiÅ«ĠdÃłoĠ yuÃłnĠ
ĠĠĠfor ĠĠĠ
Ġ yÇĲn
Ġ kÄģng
Ġ shÄĽngĠ
Ġ 1990ĠniÃ¡nĠ
ĠĠĠ zhÄģngĠ
yÇĶ ĠyÃ¬Ġ
bÄĽi ĠjÃŃĠ
kÄĵ ĠlÃ¬Ġ
gÇİi ĠjÃ¬nĠ
ĠyÃºĠ 2018
ĠyÇĶĠ qÃŃ
dÇİoĠ shÄ«Ġ
ĠdeĠshÃ¬Ġ jiÃ¨
ĠcÇĲĠ cÃ¬Ġ
Ġ qiÃ¡oĠzhÃ¬Ġ
ĠĠĠ mÃŃnĠguÃ³Ġ
lÃ¹ ĠshÃ¬Ġ
cÃ©ng ĠyÇĴuĠ
qÇĶ ĠzÃ¬Ġ
hÅ«n ĠlÇĲĠ
ĠchÃ©ngĠ zuÃ²Ġ
sÅ«Ġ gÃ©ĠlÃ¡n
Ġ zÇİoĠ
ĠĠĠ yÄ«nĠyuÃ¨Ġ
duÃ¬ ĠzhÅįngĠ
ĠhÃ©Ġ zhÃ¬Ġ
ĠtÄģ ĠbÃ¹Ġ
ĠxÃŃngĠ chÃ¡i
ĠxÃŃngĠ shÃ¬ĠdeĠ
zhÃ¨ngĠ cÃ¨
dÃłiĠ mÇİĠ
ĠleĠ yÃŃĠgÃ¨Ġ
ĠxiÄģngĠ guÄģn
ĠxÃŃngĠzhÃ¨ngĠ yuÃłnĠ
ĠyÃ²u ĠyÃ¬Ġ
ĠĠĠ St
ĠĠĠ chÄĵĠzhÃłn
mÄĽi ĠdeĠ
liÃº ĠqiÃºĠ
chuÃ¡n ĠdeĠ
luÃ² ĠyÃºĠ
tÃŃng ĠzhÃłnĠ
nÃ¡ ĠdÃł
37 ĠniÃ¡nĠ
ĠchÃ©ngĠ dÅ«Ġ
jÄ«Ġ bÃłiĠ
ĠyÇĶĠ zhÄ«Ġ
ĠdÃłiĠ mÇİĠwÃ¨iĠ
liÃ¡ngĠ hÇİoĠ
lÃ¬ĠshÇĲĠ shÃłngĠ
ĠxiÃłnĠshÃŃĠyÃ³uĠ nÃ¡nĠjÃŃĠtiÃ¡oĠyuÄĵĠtÇĲĠxÃ¬ĠguÇİnĠlÇĲĠ
Ġ shÅ«
Ġ La
Ġ chÃŃĠ
ĠĠĠ shÄģĠ
bÃ¡i ĠrÃ©nĠ
dÇĲng ĠjÃŃĠ
zÅ« ĠjiÃ¨
ĠdÃ¬Ġ yÃ¹Ġ
ĠzhÃ¬Ġ dÃ¹
ĠchÅ«Ġ lÃ¡iĠdeĠ
tÃ¨Ġ shÅ«
ĠduÅįĠ cÃ¬Ġ
chÃ³ngĠ qÃ¬ngĠ
Ġ xuÃ©
ĠĠĠ wÇĶĠ
jiÃ© ĠshÃŃĠ
ĠdeĠ yÇĴuĠ
ĠyÃºĠ 2015
ĠgÅįngĠ chÇİng
lÃ¹Ġ yÇĲngĠdÃłiĠ
liÃºĠ dÃ²ngĠ
ĠbÄĽnĠ zhÃłnĠ
ĠbÄĽnĠ tÇĶĠ
Ġ zhuÄģn
Ġ lÇİo
Ġ qÇĶĠdÃ©Ġ
Ġ UĠ
piÃłn ĠrÃ©nĠ
38 ĠniÃ¡nĠ
1901 ĠniÃ¡nĠ
ĠyÃºĠ lÃ©iĠ
miÃłnĠ 2
liÇİngĠ ÃłnĠ
shÃ©nĠ shÃ¨ngĠ
ĠdÄĽngĠ dÄĽngĠ
ĠzÃłiĠdÃ¬Ġ yÄ«Ġ
guÄģnĠfÃ¨iĠyÃ¡nĠ quÃ¨ĠzhÄĽnĠbÃ¬ngĠlÃ¬Ġ
bÄĽi ĠdeĠ
jiÄģo ĠyÃ³uĠ
mÃłn ĠdÃ¬ĠguÃ³Ġ
zhÄĽng ĠlÇĲĠ
ĠyÃºĠ 2020
ĠrÃ©nĠ lÃ¬Ġ
dÃłĠ xÃŃngĠ
ĠyÇĴuĠ guÄģnĠdeĠ
ĠgÅįngĠ ÄģnĠ
yÇĲĠ jÄ«ng
fÃ¡ngĠ wÅ«
ĠzhÃŃ ĠlÃ¬Ġ
pÃ©iĠ yÇİng
ĠĠĠzhÃ¨Ġ kÄĵĠ
ĠH Ġ
i ĠĠĠ
Ġ Ù
Ġ yÃ¬ĠniÃ¡nĠ
rÃ¬ ĠzhÃ¬Ġ
tÃ³ng ĠwÃ¨iĠ
huÃŃ ĠdÃło
ĠdÃ¬Ġ shÃłngĠ
ĠdÃ¬Ġ jiÇĶĠ
ĠyÄ«Ġ rÃ¡nĠ
nÃ¨iĠ gÃ©
tÃŃĠ gÄģo
ĠyÃ³u ĠqÃŃ
mÃŃn ĠyÃ¬Ġ
bÇİo ĠhÃ©Ġ
yÃ²u ĠzÃłiĠ
zhuÄ« ĠqiÃºĠ
ĠdeĠ yÃ³uĠ
ĠdeĠ zuÃ¬Ġ
ĠdeĠ xÃŃngĠshÃ¬Ġ
ĠshÃ¬Ġ chÇİng
rÃ©nĠ yuÃ¡nĠ
ĠyÃºĠ 2013
jÃ¬Ġ shÃ¹
ĠguÃ³Ġ dÃłoĠ
huÃłĠ miÃłnĠ
dÄģnĠ mÃłiĠ
chuÃ¡nĠ shuÅį
ĠnÃ¡nĠ xÃ¬ngĠ
jiÃ¹Ġ zhÇĲĠ
jÇĲngĠ qÅ«Ġ
jÇĲngĠ diÇİnĠ
tiÃ¡oĠ kuÇİnĠ
ĠdeĠjÄ«Ġ chÇĶ
3 ĠmÇĲĠ
Ġ Ð¾
yÃ¨ ĠhÃ©Ġ
shÄĽng ĠhuÃ¬Ġ
tÅįng ĠxÃŃngĠ
lÃ¨ ĠyuÃ¡nĠ
ĠshÃ¬Ġ xiÃłĠxiÃ¡ĠdeĠyÃŃĠgÃ¨ĠxiÄģngĠzhÃ¨nĠjÃŃĠxÃŃngĠzhÃ¨ngĠdÄģnĠwÃ¨iĠ
ĠyÇĲĠ biÃłn
ĠxÃŃngĠ hÃłoĠ
yÃ¨Ġ jiÄģnĠ
rÃ¹Ġ jÃ¬ngĠ
shÃ¨Ġ yÇĲngĠ
guÃ¬Ġ zÃº
ĠĠĠ fÄĵnĠlÃ¨iĠ
Ãłi ĠlÃ¬Ġ
jÃŃ ĠzhÅįngĠxuÃ©Ġ
zÃ© ĠxÄ«Ġ
bÄģ ĠlÇĲĠ
lÃŃn ĠzhÅįngĠ
jiÃłng ĠjÃŃĠ
gÅįngĠ jÄ«Ġ
ĠyÃºĠ 2012
ĠjÃ¬Ġ huÃłĠdeĠ
fÄģĠ juÃ©Ġ
bÃ³Ġ lÄģĠ
Ġ gÄĽi
Ġ 1999
zÇĴng ĠsÄ«ĠlÃ¬ngĠ
luÃ² ĠshÃŃĠ
xiÄĵ ĠÄĽrĠ
bÇİn ĠquÃ¡nĠ
ĠzhÅįngĠ zhÃ¨ngĠ
zhÇĶĠ dÇİoĠ
nÃ¡nĠ bÃ¹ĠdeĠ
ĠbÃ¨iĠ bÇĶĠ
guÄģnĠ guÄģngĠ
liÃ¡nĠ sÃłiĠdeĠ
ĠqÃŃĠ xiÃłĠdeĠ
yÃŃĠ miÃłnĠ
ĠdÃłnĠ mÃ©iĠyÇĴuĠ
lÃ¹nĠ tÃ¡nĠ
zhÄĵnĠ chÃ¡Ġ
ĠsÄģn ĠyuÃ¨Ġ
tÇĴngĠzhÃ¬Ġ zhÄĽĠ
fÃ¡nĠ mÃ¡ng
ĠhÄĵiĠ lÃ³ngĠjiÄģngĠ
Ġ t
Ġ yÇĴu
Ġ mÃŃngĠwÃ¨iĠ
Ġ yÇİngĠ
kÃ¹ ĠÄĽrĠ
ĠyÇĲĠ jÃŃĠzÃłiĠ
zhÇĶĠ liÃºĠ
tÇĲĠ yÃłnĠ
ĠxiÃłĠ wÇĶĠ
tÃ³ngĠ mÃ©ngĠ
ĠsuÃŃ ĠjÃŃĠ
mÃ¨iĠ mÃ¨iĠ
ĠĠĠ dÃło
zuÃ² ĠzÃłiĠ
pÃŃng ĠrÃ©nĠ
qiÄģn ĠmÃŃngĠ
gÃ¨ng ĠgÄģoĠ
qiÅ« ĠjÃ¬Ġ
yÃ© ĠÄĽrĠ
dÇĴu Ġ
ĠshÃ¬Ġ xÄ«nĠ
ĠchÅ« ĠniÃ¡nĠ
ĠqÃŃ ĠzhÃ¬Ġ
huÃłĠ rÃ¹Ġ
lÃŃĠ bÄģĠnÃ¨n
mÃ¬Ġ sÅ«ĠlÇĲĠ
kÃłngĠrÃ¬Ġ zhÃłnĠzhÄĵngĠ
ĠhÃ©ĠdÃło ĠquÃ¡nĠzhÇİngĠ
ĠĠĠ zhÄĵngĠyÃ¬Ġ
tÃ¨ ĠrÃ©nĠ
ted ĠĠĠ
ĠbÃ¹Ġ duÃłn
ĠyÄ«Ġ cÃ¬
ĠyÄ«Ġ ÄĽrĠ
ĠdÃło ĠjÃŃĠ
ĠxÄ«Ġ yÇĲn
fÄĵngĠ suÇĴĠ
yÇİnĠ zÃ²uĠ
ĠyÄĽĠ mÃ©iĠyÇĴuĠ
dÅįngĠbÃ¹Ġ shÃŃĠqÅ«Ġ
Ġ hÃ²uĠyÃºĠ
ĠĠĠ wÃºĠ
yÃ¹n ĠzÃłiĠ
tuÅį ĠÄĽrĠ
ĠdeĠ hÃ²uĠ
gÅįngĠ yÃ¨Ġ
ĠgÅįngĠ jiÄģoĠ
ĠchÃ©ngĠ zhÇİngĠ
ĠjÅ«n ĠrÃ©nĠ
dÅįngĠ qÅ«Ġ
luÃ²Ġ tÃ¨Ġ
ĠmÇİĠ lÄģĠ
ĠtÃłiĠ yÃ¡ngĠgÅįngĠ
Ġ nuÃ²
Ġ liÃłnĠ
kÃ¨ ĠlÇĲĠsÄ«Ġ
sÃ¬ ĠrÃ©nĠ
rÃ³ng ĠdeĠ
guÇİng ĠyÃ¬Ġ
xuÄģn ĠshÃ¬Ġ
dÃ¬Ġ guÃ³Ġ
ĠyÃºĠ 2014
jiÄģnĠ chÃ¡Ġ
bÄĽiĠ hÇİiĠdÃłoĠ
xiÄģngĠgÇİng ĠdeĠ
lÄģĠsÄ«Ġ jiÄģĠ
Ġ 59
Ġ yÇİĠ
xiÃłng ĠjÄ«Ġ
duÅį ĠsÄ«Ġ
wÄģn ĠqÅ«Ġ
liÃ¹ ĠshÃ¬Ġ
niÃº ĠsÄ«Ġ
end Ġ
ĠdÃłĠ liÃ¡nĠmÃ©ngĠ
jiÃłoĠ dÄ«Ġ
diÃłnĠ tÃ¡i
bÄģoĠkuÃ² ĠyÇĲĠxiÃłĠ
zhuÄģnĠ yÃ²ngĠ
ĠnÃ¨iĠ rÃ³ngĠ
gÅįngĠyuÃ¡nĠ qiÃ¡nĠ
zhuÄ«ĠsÃ¹ ĠdÃłoĠ
Ġ fÃ¨ng
Ġ 49
ĠĠĠ 9
shÄĵng ĠhÃ©Ġ
zhuÄģng ĠdeĠ
chÅ«n ĠjÃ¬Ġ
sÇİn Ġ
ĠyÇĴuĠ xÇĶĠduÅįĠ
ĠyÄ«Ġ qiÃ¨
yÃ¹nĠ yÃŃng
lÇľĠ huÃłĠ
ĠdÄģngĠ dÃ¬ĠdeĠ
Ġ16 Ġ
guÃ³ĠwÃ¹Ġ yuÃłnĠ
ÄģiĠnÃłĠ shÄĽngĠ
¡ Ġ
Ġ An
Ġ sĠ
yÇĶ ĠzhÅįngĠguÃ³Ġ
tÃ¨ ĠgÅįngĠ
fÄĵi ĠdeĠ
liÃłng ĠjÃŃĠ
dÇİng ĠzÃłiĠ
yuÇİn ĠdeĠ
bÄĽnĠ kÄĵĠ
dÅįngĠ cÃ¨Ġ
guÇİnĠ xiÃ¡
shÄģngĠ wÃ¹Ġ
dÅįuĠ mÃ©iĠyÇĴuĠ
zhÇĶnĠ quÃ¨Ġ
Ġ18 Ġ
Ġ tiÃ¡n
Ġ ISTAT
Ġ ESTĠ
qÄ« ĠyuÃ¨Ġ
fÃ¹ ĠyÃºĠ
zÃ© ĠyÇĲĠ
nÃłĠ xiÄĵ
guÇİnĠ kÃ²ng
zhÅįngĠguÃ³Ġ dÃłĠlÃ¹ĠdeĠ
2 ĠmÇĲĠ
ĠxÄ«Ġ ÄĽr
jÃ¹Ġ fÄĵng
nÃ¡nĠ mÄĽiĠzhÅįuĠ
kÄĽĠyÇĲĠ tÅįngĠguÃ²Ġ
ĠmÃ² ĠxÄ«Ġ
zhÃ²ngĠyÃ¬Ġ yuÃłnĠ
ĠshÃ¬ĠyÄ«ĠkÄĵ ĠwÃ©iĠrÃło
7 ĠgÃ¨Ġ
Ġ 1998
Ġ EDT
Äģ ĠbÃ¹Ġ
ĠĠĠ guÃ³Ġ
shÃ¨ ĠjÃŃĠ
rÃ¨n ĠzhÄ«Ġ
shÄĽng ĠlÃ¬Ġ
fÇİn ĠjÄ«Ġ
ĠzhÅįngĠ yuÃ¡nĠ
ĠdÃ¬Ġ 3Ġ
guÄģnĠ zhÃ²ng
guÄģnĠ zhÃ¨ngĠ
ĠpÃŃngĠ jiÃ¨Ġ
fÄĵngĠ fÃ¹ĠdeĠ
tÃ³uĠ rÃ¹
xÃŃĠ jÄ«
ĠshÃ¬ĠyÄ«Ġ zuÃ²
ĠdÃł ĠzhÃ¬Ġ
shÅįuĠshÃ¬Ġ lÇľĠ
jiÃ¨ĠquÃ¡nĠguÃ³ĠzhÃ¨ngĠxiÃ©Ġ wÄĽiĠyuÃ¡nĠ
pÄ«ngĠ pÄģng
Ġ h
Ġ chÄģoĠjÃŃĠ
ĠĠĠ rÃ¬Ġ
lÇĲ ĠshÃŃĠ
huÃ¡ ĠdeĠ
chuÃ¡n ĠyuÃ¡nĠ
zhÇİn ĠchÅ«Ġ
yÃŃng ĠlÃ¬Ġ
biÄģo ĠshÃ¬Ġ
yÅįu ĠhuÃ¬Ġ
1921 ĠniÃ¡nĠ
ĠlÃ¬Ġ xuÃ©Ġ
jÃ¹Ġ bÄĽnĠ
yÃ¹Ġ wÃ©iĠ
liÃ¡nĠ zÇİiĠ
ĠbÃ¬ngĠ huÃ²ĠdÃ©Ġ
ĠjÃ¹Ġ bÄĽnĠ
shÅ«Ġ niÇĶĠ
hÃ©ngĠ xÄ«ng
dÃłnĠ shuÇĲ
bÇĲĠsÃłi ĠdeĠ
ĠG Ġ
juÃ©ĠduÃ¬Ġ xÄ«ngĠdÄĽngĠwÃ¨iĠ
Ġ Ø
lÇĲ ĠrÃ©nĠ
dÃ© ĠyÃ¬ĠzhÃ¬Ġ
zuÃ¬ ĠchÅ«ĠdeĠ
xÃ¬n ĠhÃło
gÅįu ĠtÅįngĠ
ts Ġ
ĠshÃ¬Ġ xiÃłĠ
ĠhÃ©Ġ yÇĶĠ
ĠyÃºĠ 2022
pÃŃngĠ hÃ©ngĠ
ĠbÃ¨iĠ jÇĲng
duÅįĠ xiÃłngĠ
jiÄĵĠ guÇİnĠ
Ġ5Ġ diÃłoĠkuÃłiĠyÄ«ĠxiÇİoĠshÃŃĠ
ĠjÃŃĠbÄĽiĠmÄĽiĠ dÅįngĠbÃ¹ĠshÃŃĠqÅ«Ġ
ĠtÃłiĠyÃ¡ngĠgÅįngĠ zhuÃłnĠdeĠxiÇİoĠxÃŃngĠxÄ«ngĠ
ĠshÃ¬ĠyÄ«ĠkÄĵĠwÃ©iĠrÃło ĠtÃłiĠyÃ¡ngĠgÅįngĠzhuÃłnĠdeĠxiÇİoĠxÃŃngĠxÄ«ngĠ
ĠEDT Ġ
2 ĠmÃŃngĠ
6 ĠmÇĲĠ
ĠĠĠ yÃ¹Ġ
ĠĠĠ wÃ©nĠhuÃłĠ
ĠĠĠ 2005ĠniÃ¡nĠ
Ãło ĠkÃ¨Ġ
jiÃłn ĠdeĠ
hÃ¡n ĠyÃ¬Ġ
23 ĠniÃ¡nĠ
ter Ġ
kÃ© Ġ
dÇİĠ suÃłn
xiÇİoĠxÃŃngĠxÄ«ngĠdeĠ juÃ©ĠduÃ¬ĠxÄ«ngĠdÄĽngĠwÃ¨iĠ
Ġ xÇĲĠ
lÇĲng ĠduÃ¬Ġ
pÄģi ĠshÃ¨ĠdeĠ
ĠzÃłiĠ lÃ¬Ġ
ĠzhÅįngĠ lÃ¬Ġ
ĠgÅįngĠ shÃ¨Ġ
ĠyÄ«Ġ qiÃ¨Ġ
ĠzhÄ« ĠchÅ«Ġ
shÄĵngĠ chÄĵngĠ
ĠzuÃ²Ġ qÇĶĠ
rÃ¹Ġ kÇĴu
ĠshÃ¬ĠwÃ¹Ġ suÇĴĠ
fÄģĠbiÇİo ĠleĠ
Ġ dÇİoĠyÇİnĠ
ĠĠĠ Z
fÃº ĠjÃŃĠ
27 ĠniÃ¡nĠ
ĠshÃ¬Ġ zuÃ¬Ġ
ĠxÃŃngĠ xÄ«ngĠ
ĠdÃłn ĠbÃ¨iĠ
zÃºĠ liÃ¡nĠ
wÅ«Ġ rÇİnĠ
wÃºĠxiÃłnĠ diÃłnĠ
ĠĠĠzhÃ¨ĠkÄĵĠ xiÇİoĠxÃŃngĠxÄ«ngĠdeĠjuÃ©ĠduÃ¬ĠxÄ«ngĠdÄĽngĠwÃ¨iĠ
Ġ zuÇĴ
ĠĠĠ huÃ¡ngĠ
ĠĠĠ gÃ¨Ġ
zhÇĲ ĠchÅ«
miÃło ĠyÇĶĠ
yuÄģn Ġ
ĠtÃ³ng ĠniÃ¡nĠ12ĠyuÃ¨Ġ
ĠdeĠyÄ«Ġ xiÃłngĠ
bÇĲĠlÃ¬Ġ niÃºĠsÄ«Ġ
nÃ¨Ġ shÄĽngĠ
shÄĵngĠchÇİn ĠdeĠ
ĠdÃłĠshÃł Ġ
guÃ² ĠhÃ²uĠ
yÃło ĠzÃłiĠ
ĠxÄ«Ġ cÃ¨Ġ
kÄĽĠ yÃ²ngĠ
ĠxiÃłĠ lÃ¬ngĠ
yÃ¡nĠjiÅ« ĠdeĠ
ĠdeĠyÄ«Ġ tiÃ¡oĠ
ĠgÄģoĠ sÃ¹
zhuÃłngĠ tÃłi
tiÄģnĠwÃ©nĠ xuÃ©ĠjiÄģĠ
zÇĶĠchÃ©ng ĠbÃ¹ĠfÃ¨nĠ
Ġ lÃ¨i
ĠĠĠ guÄģnĠyÃºĠ
ĠĠĠ zÇİoĠqÄ«Ġ
xÄ« ĠxiÃłnĠ
lÃ¡i ĠÄĽrĠ
zhÇĴng ĠdeĠ
jiÇĶ ĠshÃŃĠ
ing ĠĠĠ
lÃ¹Ġ duÃłnĠ
diÃłnĠ liÃºĠ
ĠfÃ¹Ġ mÇĶĠ
zÇĴngĠ lÇĲngĠshÃ¬Ġ
liÇİngĠ cÃ¨Ġ
ĠyÄ«nĠwÃ¨iĠ tÄģĠ
ĠhÃ²uĠlÃ¡i ĠzÃłiĠ
4 ĠmÃŃngĠ
Ġ dÃłngĠ
liÇİng ĠdÃłĠ
men ĠdeĠ
ĠwÃ¨iĠ guÃ³Ġ
ĠyÄ«Ġ xiÃłngĠ
ĠyuÃ¡nĠ lÃ¡iĠ
xuÃ©Ġ kÄĵĠ
qÅ«Ġ fÃ¹ĠzÃ©ĠguÇİnĠxiÃ¡Ġ
ĠjiÄģĠ qiÃ¡ngĠ
shÇĴuĠ xiÄģnĠ
cÇĲĠ tiÄģnĠtÇĲĠ
shÃ¨ngĠ jÄ«ngĠ
kÄĽĠnÃ©ng ĠdeĠ
ĠdÃ¬ĠshÃŃĠ sÄģnĠ
ĠÃłoĠ mÃ©nĠ
chÃ¡ ĠdÃ©Ġ
qiÃ¡n ĠxÄ«Ġ
nÃŃ ĠxÄ«ĠyÃł
lÄĵi ĠsÄ«Ġ
1905 ĠniÃ¡nĠ
ĠzÃłiĠ yÇĴuĠ
ĠzÃłiĠ dÄģngĠshÃŃĠ
hÃ©Ġ liÃºĠ
ĠshÃŃĠ liÃ¹ĠniÃ¡nĠ
shÃłngĠ yÃ¬ngĠdeĠ
qÄ«Ġ jiÄģnĠdeĠ
qÇĶĠ juÃ©ĠyÃºĠ
hÄĽnĠ shÇİoĠ
hÃ¹nĠ luÃłnĠ
Ġ jiÄģn
yÃ²ng ĠdÃ¬Ġ
shÃ¨ng ĠyÃºĠ
mÇİn ĠyÃ¬Ġ
gÄĵng ĠmÃŃngĠ
jÃ¹Ġ yuÃłnĠ
shÄĵnĠ rÃ¹Ġ
ĠzÃ¬Ġ cÇĲĠ
tÃºĠ jÃ¬ngĠ
zhuÄģnĠ jÃŃĠdeĠ
mÃŃnĠzÃºĠ zhÇĶĠyÃ¬Ġ
1 ĠjiÄģĠ
Ġ tÇĴngĠ
Ġ yÃ¬ngĠ
Ġ sÄģngĠ
Ġ shÄģnĠxÄ«Ġ
ĠĠĠ yÄ«nĠwÃ¨iĠ
cÇĲ ĠdÃ¬Ġ
kÄĵ ĠyÄ«ĠshÄĵngĠ
wÄĵi ĠlÃ¬Ġ
jiÇİng ĠxuÃ©Ġ
hÇİo ĠlÃ¡iĠ
34 ĠniÃ¡nĠ
sÃłng ĠshÄ«Ġ
shÃŃĠ yÄ«Ġ
ĠshÃŃĠ bÃ¨iĠ
ĠyÇĲĠ wÃłiĠdeĠ
ĠlÇĲĠ xuÃ©Ġ
bÄĽnĠ tÇĶ
tÃ¨Ġ dÃ¬ng
zhÃ¨nĠ wÃ¡ngĠ
ĠshÃ¨Ġ shÄ«
shÃ¨Ġ jiÄģoĠ
ĠmÇĲ ĠdeĠ
Ġ sÃłi
Ġ kÄģnĠ
Ġ 2024ĠniÃ¡nĠ
bÄĽn ĠdÃ¬ĠqÅ«Ġ
quÃ¡n ĠshÃ¬Ġ
zi ĠlÇĲĠ
fÇĶ ĠzhÄ«ĠfÇĶĠ
wÇİn ĠqÄ«Ġ
29 Ġ
ĠwÃ¨iĠ xÄ«nĠ
ĠzÃłiĠ rÃ©nĠ
ĠdÃłĠ duÅį
ĠchÅ« ĠbÃ¹Ġ
shÃ¹Ġ jÃ¹
lÃ¡iĠ kÃłnĠ
tÃŃĠ cÃ¡iĠ
qiÄģnĠ yÇĲnĠ
duÇİnĠ zÃłnĠ
ĠdeĠzuÃ²Ġ yÃ²ngĠ
Ġ bÃłi
Ġ Se
Ġ huÃ¡iĠ
zÅįng ĠdeĠ
ĠhÃ©Ġ jÄ«nĠ
ĠdÃ© ĠhÃ©Ġ
yÃ²uĠ chÄĵngĠ
pÃ©iĠ chÃ¡ngĠ
ĠjÃŃĠtuÃ¡n ĠjÅ«nĠ
ĠL Ġ
Ġ lÇĶ
ĠĠĠ dÄģng
fÇİ ĠÄĽrĠ
nÇļ ĠÃ©r
fÇĴu Ġ
ĠniÃ¡n ĠshÃ¬Ġ
ĠzÃłiĠ tÄģ
ĠyuÃ¡nĠ qÅ«Ġ
qiÃ¡nĠ tÇĲngĠ
ĠqÃŃĠ zhÅįngĠdeĠ
zÇĴngĠ Ã©ĠwÃ¨iĠ
ĠnÃ¡nĠ jÄ«ng
liÇİngĠ tiÃ¡oĠ
xÃŃĠ guÃłnĠ
tiÃ¡oĠ mÃ¹Ġ
qiÃ¡ngĠ huÃłĠ
Ġ bÄĵiĠ
Ġ guÃ¬ĠzhÅįuĠ
Ġ 1983ĠniÃ¡nĠ
ĠĠĠ jiÃłnĠ
bÄĽn ĠzhÃ¬Ġ
fÄĵn ĠqÃŃĠ
tÃŃ ĠwÃ¨iĠ
bÄģ ĠmÃŃngĠ
pÃł ĠÄĽrĠ
ĠwÃ¨iĠ sÄ«Ġ
ĠzhÅįngĠ wÃ©n
ĠjÃŃĠ ÄĽr
ĠqÃŃ ĠyÇĶĠ
ĠshÃ¨ ĠzÃłiĠ
jiÃ©Ġ lÃ¹nĠ
fÄĵngĠ xiÇİn
yÃŃĠ dÃ²ng
mÃ³Ġ nÇĲ
ĠfÃºĠ lÇİngĠ
ĠsuÅįĠ xiÄĽĠ
Ġ guÅįĠ
mÄĽi ĠzhÅįngĠbÃ¹Ġ
shuÇĲ ĠzhÅįngĠ
chÄģ ĠjÃ¹Ġ
ĠshÃ¬Ġ yÇĲ
bÃ¹Ġ fÃ¨n
ĠyÃºĠ 2017
ĠjiÃłn ĠzhÅįngĠ
ĠzhÄ«Ġ qiÃ¡nĠdeĠ
zhÇĶĠ juÃ©
ĠbÃ¨iĠ rÃ¨nĠwÃ©iĠ
ĠjÃ¹Ġ tÇĲĠ
biÃłnĠ huÃłnĠ
xiÄģoĠ shÃ²u
ĠsuÇĴĠ yÇĴuĠdeĠ
lÇĲĠshÃ¬Ġ zhÇİngĠ
gÃ²ngĠhÃ©Ġ dÇİng
jiÄģoĠyÃ¬Ġ suÇĴĠ
jiÃ¨ĠquÃ¡nĠguÃ³Ġ rÃ©nĠmÃŃnĠdÃłiĠbiÇİoĠdÃłĠhuÃ¬Ġ
ĠÄģĠÄĽrĠ bÄĵiĠsÄ«Ġ
fÄĵiĠxÃŃng ĠyuÃ¡nĠ
1 ĠĠĠ
1 ĠrÃ¬
Ġ xuÄĵ
Ġ tÃłnĠ
Ġ 1986ĠniÃ¡nĠ
tÃ¨ ĠsÄ«Ġ
ĠwÃ¨iĠ mÄĽiĠguÃ³Ġ
ĠyÇĴuĠ xiÃło
ĠchÃ©ngĠ nuÃ²Ġ
ĠyÄ«Ġ yÃłng
ĠgÃ¨ ĠgÃ¨Ġ
ĠbÃ¬ngĠ wÃºĠ
ĠshÃ¨Ġ xiÃ¡nĠ
ĠdeĠgÅįngĠ sÄ«Ġ
ĠN Ġ
chÃłngĠpiÃłn ĠgÅįngĠsÄ«Ġ
tÇĲ ĠxiÃłnĠ
dÇİng ĠbÃ¹Ġ
suÃŃ ĠzhÄ«Ġ
ty Ġ
ĠdeĠ jÃŃĠ
ĠyÃ¬Ġ mÄĽiĠguÃ³ĠrÃ©nĠ
ĠjÅ«n ĠyÇĲĠ
zhuÇİnĠ yÃŃĠdÃłoĠ
chÇĶĠ juÃ©Ġ
tuÄ«Ġ guÇİng
guÇİngĠbÅį ĠgÅįngĠsÄ«Ġ
sÄ« ĠdÃ¬ĠlÃ¬Ġ
duÃ¬ ĠlÃ¬Ġ
qÄ«ng ĠdÃłiĠ
mÇĶ ĠsÄ«ĠtÃ¨Ġ
zuÇĲ Ġ
ĠshÃŃĠ shÄ«
ĠxÄ«Ġ fÇİĠ
yÃ¹Ġ cÃ¨Ġ
ĠdÄģng ĠrÃ¬Ġ
jiÄĽĠ juÃ©
ĠdeĠyÄ«Ġ jiÄģĠ
ĠcÇĲĠ wÃłi
dÇĲĠ cÃ©ngĠshuÇĲĠyÃ¹Ġ
lÇİngĠ pÇĶ
mÃ¹ĠsÄ«Ġ lÃŃn
Ġ lÃŃng
Ġ cÃ¹
jiÃłn ĠyÃºĠ
nÃ¡n ĠxÄ«Ġ
chÄĵ ĠshÃ¬Ġ
00 ĠpÃŃngĠfÄģngĠqiÄģnĠmÇĲĠ
qÃ¬ng ĠxiÃłĠ
bÃł ĠgÅįngĠ
qÄ«ngĠ zhÄĵnĠ
ĠtÄģĠmen ĠshÃ¬Ġ
ĠchÃ¡ngĠ qÄ«Ġ
xÃŃng ĠrÃ©nĠ
jÅ«n ĠzhÇĶĠ
dÃłi ĠdÃłoĠ
xiÃł ĠshÃ¬Ġ
cÃ¡i ĠdeĠ
la ĠĠĠ
shÇİo ĠdeĠ
ĠsÄ«Ġ dÃłĠ
rÃ¨nĠ zhÃ¨ngĠ
ĠzhÅįu ĠdeĠyÃŃĠgÃ¨ĠshÃ¬ĠzhÃ¨nĠ
dÃłnĠ shuÇĲĠ
yÃ¬nĠdÃ¬Ġ ÄģnĠnÃł
Ġ hÃ¡ngĠ
Ġ zÄĵngĠjiÄģĠ
Ġ xĠ
chÃ©ng ĠwÃ¨iĠ
yuÃ¡n ĠrÃ©nĠmÃŃnĠbÃ¬Ġ
jiÃłn ĠduÃ¬Ġ
qÅ« ĠzhÅįngĠ
mÄĽi ĠlÃ¬Ġ
fÅ« ĠsÄ«Ġ
ĠzÃłiĠ duÃ¬Ġ
ĠbÃ¹Ġ zhÄ«Ġ
ĠyÃºĠ 2023
ĠyÃ¬Ġ bÃ¨iĠ
ĠÄĽr ĠbÃ¨iĠ
zhÃłnĠ shÃ¹Ġ
ĠbÃ¬ng ĠchÃ©ngĠwÃ©iĠ
zÃ¬Ġ shÄĵnĠ
shÃ¹Ġ bÇİi
shÄ«Ġ tÇĲĠ
bÃ³Ġ gÃ©Ġ
dÅįuĠ kÄĽĠyÇĲĠ
zhÃ²ngĠyÃłoĠ xÃ¬ngĠ
w Ġ
Ġ tÅ«Ġ
Ġ ruÃ¬ĠshÃ¬Ġ
yÇĶ ĠwÃ¨iĠ
zhÇİng ĠjÃŃĠ
ĠshÃ¬Ġ yÃ¬nĠdÃ¹Ġ
ĠhÃ©Ġ chÃłngĠ
ĠguÃ³Ġ nÃ¨i
qÄ«ngĠ dÇİoĠ
chuÃ¡nĠ mÃ©i
zhuÇİnĠ biÃłnĠ
xÃºnĠ fÇĶĠ
liÃ¡ngĠ hÇİoĠdeĠ
ĠcÃ©ngĠ jÄ«ng
ĠtÄģĠcÃ©ng ĠdÃłiĠbiÇİo
ĠshÃłngĠhÇİi ĠshÃ¬Ġ
jiÃłngĠyÇĶĠ liÃłngĠ
Ġ mÃ¬ngĠ
Ġ xiÅįngĠyÃ¡ĠlÃ¬Ġ
xÄ«n ĠyÄ«Ġ
yÃ¹n ĠxÃŃng
ĠshÃŃĠ sÄģnĠniÃ¡nĠ
fÃ¹Ġ xÄ«ngĠ
ĠkÃ¨ ĠjiÄģĠ
yÃ¡nĠ ÃłnĠ
shÇĴuĠ lÇĲngĠ
yÄĽĠ kÄĽĠyÇĲĠ
ĠtÃºn ĠqÃŃĠ
Ġ gÄĽiĠ
yÃŃ ĠdeĠ
30 ĠfÄĵnĠ
sÅįu ĠsuÇĴĠ
TV Ġ
jÄ«Ġ dÅ«ĠjiÃłoĠ
yÃ¹Ġ suÃłnĠ
zuÃ¬Ġ hÃ²uĠdeĠ
jiÄģoĠ gÄĽi
shÃ¨ngĠ mÇĶĠ
zÃłoĠ chuÃ¡nĠ
kÇİoĠ gÇĶ
Ġ14 Ġ
ĠmÇĶĠ qÄ«nĠ
jÃ¬ĠsuÃłn ĠjÄ«Ġ
Ġ lÄĵiĠ
Ġ 1958ĠniÃ¡nĠ
cÃ¨ ĠwÃ¨iĠ
jiÇİng ĠlÃ¬Ġ
suÃ¬ ĠdeĠ
xiÃ¨ ĠÄĽrĠ
zhuÄ« ĠjÄ«Ġ
rÃ²u ĠshÃŃĠxÃ¬ngĠ
ĠyuÃ¡nĠ zÃ¬
fÄĵnĠ bÃ¹ĠzÃłiĠ
ĠzhÃ¨ngĠ jÃ¹Ġ
ĠzuÃ²Ġ yÃ¨Ġ
ĠdeĠyÄ«Ġ cÃ¬Ġ
ĠdeĠshÃ¬Ġ qÃŃngĠ
duÇİnĠ piÃłnĠ
ĠdeĠjÄ«Ġ chÇĶĠ
ĠyÇĲĠjÃŃ ĠzhÅįngĠguÃ³ĠdÃłĠlÃ¹ĠdeĠ
mÄĽiĠzhÅįngĠbÃ¹Ġ shÃŃĠqÅ«Ġ
Ġ 1994
Ġ CST
Ġ liÃ¡nĠhÃ©ĠguÃ³Ġ
ĠĠĠ kÄĵĠ
zÃ© ĠÄĽrĠshÄĽngĠ
bÄģ ĠyuÃ¨Ġ
hÄģ ĠlÃ¬Ġ
45 Ġ
mÃ¡n Ġ
1917 ĠniÃ¡nĠ
ĠdÃło ĠtÄģĠ
ĠÃ©rĠ wÃ©nĠmÃŃngĠ
shÇĴuĠ rÃ¨nĠ
tÃ¡iĠ zhÅįngĠshÃ¬Ġ
jÄ«nĠ xiÃłngĠ
yuÄĵĠ sÃ¨ĠfÅ«Ġ
bÄ«ngĠ tuÃ¡nĠ
Ġ CDT
Ġ 1987ĠniÃ¡nĠ
qiÃ¡ng ĠdÃłĠ
2019 ĠguÄģnĠzhuÃłngĠbÃ¬ngĠdÃº
chuÄ« Ġ
kuÄ« Ġ
ĠshÃŃĠ wÇĶĠniÃ¡nĠ
ĠjÃ¬n ĠxÃŃngĠdeĠ
tÅįngĠ xÃ¬n
ĠshÃ¬ĠyÄ«Ġ jiÄģĠ
ĠcÃ³ngĠ cÇĲĠ
ÅįuĠ mÃ©ng
Ġ6Ġ diÃłoĠkuÃłiĠyÄ«ĠxiÇİoĠshÃŃĠ
ĠjÃŃĠbÄĽiĠ mÄĽiĠzhÅįngĠbÃ¹ĠshÃŃĠqÅ«Ġ
ĠCST Ġ
ĠCDT Ġ
Ġ a
Ġ mÇĲn
Ġ bÃºĠshÃ¬Ġ
ĠĠĠ Me
duÃ¬ ĠshÃ¬Ġ
mÇĲ ĠÄĽr
32 ĠniÃ¡nĠ
zuÃłn ĠshÃŃĠ
ĠshÃ¬Ġ yÃŃĠ
ĠdÃ¬Ġ mÃŃngĠ
jÄ«Ġ chÇİng
jÄ«ngĠ dÅ«Ġ
fÄĵnĠ xiÃłoĠ
liÃºĠ chuÃ¡nĠ
xuÇİnĠ shÇĴu
nÇļĠ wÃ¡ngĠ
liÇİngĠ zhÇĴng
tuÅįĠ mÇİĠsÄ«Ġ
ĠshÇĲĠ mÃ¬ĠsÄ«Ġ
yÃ¬nĠ dÃ¹ĠdeĠ
Ġ13 Ġ
jÄ« ĠshÃŃĠ
mÃ©i ĠÄĽrĠ
fÅ« ĠsÄ«ĠjÄ«Ġ
zhuÄģn ĠyuÃ¡nĠ
at Ġ
1904 ĠniÃ¡nĠ
ĠchÃ©ngĠ kÃ¨
qÅ«Ġ zhÃºĠjiÃłnĠ
zhÃ¨Ġ shÇĴuĠ
ĠqiÃºĠ bÇĲĠsÃłiĠ
zhuÄģnĠ qÅ«Ġ
ĠÄģ ĠlÇĲĠ
zhÃ©ĠxuÃ©Ġ jiÄģĠ
ĠqÄ« ĠxÄ«Ġ
fÃ©iĠtÃ¨Ġ liÃ¨Ġ
Ġ kÄģi
Ġ jiÃłngĠ
Ġ kÃ²ngĠzhÃ¬Ġ
jiÃło ĠyÇĴuĠ
jiÄģo ĠfÃ¹Ġ
14 ĠniÃ¡nĠ
36 ĠniÃ¡nĠ
lÃ¬Ġ shÇĲ
dÅįngĠ yÃłĠ
ĠshÃłngĠ shÃ¹Ġ
zÇĴngĠ jÃºĠ
wÄĽiĠ nÃ¨iĠruÃ¬Ġ
mÃ³Ġ tuÅįĠ
Ġ r
Ġ duÃłn
Ġ gÃłnĠ
ĠĠĠ mÃ¹Ġ
ĠĠĠ 12ĠyuÃ¨Ġ
shÃŃ ĠshÃ¬ĠjÃ¬Ġ
lÃ¹ ĠhÃ©Ġ
quÃ¨ ĠlÃ¬Ġ
pÃ¨i ĠyuÃ¨Ġ
ĠwÃ¨iĠ chÃ©ngĠ
gÃ©Ġ lÃ©iĠ
xÃ¬ngĠ biÃ©
chÃ¡ngĠ ÄģnĠ
bÃ³Ġ gÄĽnĠdÃ¬Ġ
wÇİngĠ lÃ¡iĠ
zÇĶĠ xiÄģnĠ
ĠyÄ«nĠwÃ¨iĠ tÄģ
ĠwÃ©nĠ zhÄģngĠ
rÃ¡nĠ liÃłoĠ
ĠÃło ĠsÄ«Ġ
hÃºĠbÄĽiĠ shÄĽngĠ
yÃ¡nĠhÇİiĠ shÄĽngĠfÃ¨nĠ
ĠsÃº ĠchÄĵngĠ
Ġ 1996
Ġ yÄģĠ
Äģ ĠsÄ«Ġ
Äĵn ĠsÄ«Ġ
le ĠbÃ¹Ġ
dÃŃ ĠsÄ«Ġ
tuÄ« ĠjÃ¬n
diÄģo ĠxiÃłngĠ
zhÃłi ĠwÃ¹Ġ
ĠrÃ©nĠ shÄĵngĠ
qÅ«Ġ dÃ²ngĠ
ĠqÃŃĠ fÃ¹Ġ
gÄģoĠ xiÃłoĠ
ĠhuÃ²Ġ wÃ¹Ġ
bÃ³Ġ lÃŃn
chÇİnĠ liÃłngĠ
cÃ¡iĠ nÃ©ng
bÇİiĠ xÃ¬ngĠ
ĠdÃ¬ĠÃ¨rĠ cÃ¬
ĠshÃ¬ĠfÇĴu Ġ
ĠI Ġ
ĠĠĠ yÄ«ngĠguÃ³Ġ
ĠĠĠ gÄģiĠdÃ¬Ġ
bÃło ĠfÃ¹Ġ
xÃ¹n ĠhÃłoĠ
26 ĠniÃ¡nĠ
33 ĠniÃ¡nĠ
ĠgÅįngĠ diÃłnĠ
ĠyÄ«Ġ lÃ¹Ġ
shÄĵngĠ rÃ¨nĠ
ĠtÃ³ng ĠniÃ¡nĠ10ĠyuÃ¨Ġ
lÃŃngĠ gÇİnĠ
ĠyÃ²uĠ chÄĵng
chÅįngĠ shÃ©ng
ÄģĠÄĽrĠ bÄģĠ
cÇİoĠ ÃłnĠ
ĠshÃ¬ĠjiÃłn ĠdeĠ
4 ĠĠĠ
Ġ 1945ĠniÃ¡nĠ
ĠĠĠ 2023ĠniÃ¡nĠ
shÃ¹ ĠgÃ¨Ġ
pÃŃng ĠxiÃłnĠ
jiÇİo ĠdeĠ
hÄĽn ĠnÃ¡nĠ
31 ĠniÃ¡nĠ
ĠwÃ¨iĠ jÄ«ngĠ
yÃ¬Ġ qÇĲĠ
ĠyÇĴuĠ leĠ
ĠgÅįngĠ lÃ¬Ġ
fÄģĠ shÄĵngĠyÃºĠ
zhÃŃĠ jÃ¬ngĠ
ĠzhÅįuĠ biÄģnĠ
ĠshÇĴuĠ xiÄģnĠ
Ġ 1920ĠniÃ¡nĠ
zhÄģng ĠshÃ¬Ġ
huÃ¡ng ĠshÃ¬Ġ
huÃłn ĠyÇĴuĠ
sÃłng ĠshÄĵngĠ
ĠÄĽr ĠxÄ«Ġ
zhÃłnĠ lÃ¼Ã¨
xiÄģngĠ xÃ¬nĠ
dÃ²ngĠ tÃłiĠ
ĠshÄĵngĠ mÃ¬ngĠ
ĠwÃłn ĠpÃŃngĠfÄģngĠmÇĲĠ
zhÃ¨ngĠzhÃ¬Ġ jÃºĠ
qÅ«ĠdeĠ fÃ¹ĠzÃ©ĠguÇİnĠxiÃ¡Ġ
zÄĵngĠ qiÃ¡ng
ĠjÇĲnĠ cÃ¬ĠyÃºĠ
zhÄĽngĠ tÇĲ
yÃłĠmÄĽiĠ nÃŃĠyÃł
Ġ yÃº
Ġ dÄ«ng
Ġ yÃ¬nĠdÃ¹
ĠĠĠ tÃ¨ĠzhÄĵngĠ
xuÇİn ĠdeĠ
mÃ² ĠdeĠ
kÃłn ĠjiÃłnĠ
guÇĲ ĠdiÃłnĠ
el Ġ
dÃ¬Ġ fÄģngĠ
ĠdÃ¬Ġ Ã¨rĠshÃŃĠ
ĠyÇĲ ĠzhÄ«Ġ
wÃ©iĠ jÄ«ĠbÇİiĠ
bÄĽnĠ zhÃłnĠ
ĠzhÃłnĠ tÃ¡iĠ
huÃ²Ġ zhÄĽĠ
ĠrÃ¡nĠ hÃ²uĠzÃłiĠ
ÄģnĠhuÄ«Ġ shÄĽngĠ
Ġ xiÄģng
Ġ 1997
Ġ guÇĲĠ
Ġ yÃŃngĠdÃ©Ġ
ĠĠĠ tÃ¡ngĠ
xiÇİo ĠyÃºĠ
hÃ¹ ĠshÃ¬Ġ
dÃº ĠzÃ¬Ġ
el ĠĠĠ
1910 ĠniÃ¡nĠ
chÃ©ngĠ wÃ©i
ĠzhÃ¬Ġ jÄ«n
ĠjÃŃĠ kÄĽĠ
huÃłĠ fÄĵnĠ
fÃºĠ wÃ¹ĠdeĠ
sÃ¬Ġ chuÄģn
bÃ¬Ġ lÇĶ
guÇİnĠ lÇĲĠdeĠ
guÇİngĠ dÅįng
zhÇĶĠjiÃłoĠ liÃłnĠ
Ġ1950 ĠniÃ¡nĠ
Ġ jÇĲng
qÅ« ĠxiÃłnĠ
yÄ«ng ĠÃ©rĠ
diÇİn ĠxÃŃngĠ
bÄģn ĠdÃłoĠ
hÃłn ĠguÃ³Ġ
pÄ« ĠfÃ¹Ġ
ĠdeĠ wÃ¨iĠ
ĠshÃ¬Ġ qÃŃĠ
ĠshÃŃĠ sÃ¬ĠniÃ¡nĠ
ĠlÃ¬Ġ yÃºĠ
yÃ¡nĠ xÃ¹
ĠzhÃ¨Ġ xiÃłngĠ
xiÇİoĠ jiÄĽĠ
shÄģĠ tiÃ¡nĠ
pÃŃĠ fÅ«Ġ
Ġ hÃ²uĠzÃłiĠ
yÃ¬ ĠdeĠshÃ¬Ġ
um Ġ
ĠshÃ¬Ġ yÃ²ngĠyÃºĠ
ĠdÃłĠ zhÃ¨ngĠ
tÃ¨Ġ dÃ¬ngĠdeĠ
xÃ¬ngĠ gÃ©Ġ
fÄĵngĠ bÃło
mÄĽiĠguÃ³Ġ zÇĴngĠtÇĴngĠ
guÄģngĠ pÇĶĠ
tÄ«ngĠ zhÇİngĠ
kuÃłngĠ wÃ¹Ġ
ĠdeĠyÃ¬Ġ siĠ
wÃ¹ĠlÇĲĠ xuÃ©ĠjiÄģĠ
shÄĽngĠdÃłoĠ tÃ¡iĠ
Ġ fÅ«Ġ
Ġ zhÄĵnĠduÃ¬Ġ
Äģn ĠdeĠ
ĠĠĠ 2004ĠniÃ¡nĠ
jÄ« ĠlÃ¬Ġ
jÄ«n ĠsÄ«Ġ
gÇĶ ĠsÄ«Ġ
wÄĽi ĠdeĠ
pÇĶ ĠÄĽrĠ
ing Ġ
dÃ¬Ġ Ã¨r
ĠjÃŃĠ zhÅįngĠzÃłiĠ
lÃ¡iĠ yuÃ¡nĠyÃºĠ
bÄģoĠkuÃ² ĠleĠ
huÃ³Ġ xÃ¬ngĠ
ĠgÄģoĠ xiÃ³ng
jÅ«nĠ guÄģnĠ
tiÄĽĠ lÃ¹ĠdeĠ
ĠbÃ¹ĠfÃ¨n ĠdeĠ
yÇĲngĠxiÇİng ĠdeĠ
Ġ huÃ¬ĠyÃ¬Ġ
zuÃ² ĠyÇĲĠ
qiÃ¡n ĠwÃ¨iĠ
jÄ«n ĠrÃ¬
lÇİng ĠpÇĶĠ
pÅį ĠÄĽrĠ
ĠshÃ¬Ġ fÃłngĠ
ĠhÃ©Ġ kÇĴuĠ
ĠlÃ¬Ġ chÇİngĠ
ĠyÄ«Ġ kÄģiĠshÇĲĠ
ĠyÇĶĠ yuÃ¡nĠ
ĠchÅ«Ġ kÇĴu
yÃ²ngĠ leĠ
ĠyÃ³uĠ tÃłiĠrÃ©nĠ
tiÄģnĠ huÃ¡ng
xÃ¬nĠ tÃºĠ
ÄĵnĠ lÃ¡iĠ
ĠbÇĲĠ sÃłi
fÄģĠxiÃłn ĠyÃºĠ
gÄĵĠlÃºnĠ bÇĲĠyÃł
Ġ diÇİnĠ
Ġ gÄĵngĠ
Ġ 1982ĠniÃ¡nĠ
le ĠyuÃ¡nĠ
shÄĵng ĠbÃ¹Ġ
mÇİ ĠqÃŃĠ
liÃ¡ng ĠdeĠ
gÃło ĠzhÄ«Ġ
is Ġ
ĠdÃłĠ zhÃłnĠ
fÄģĠ dÃ²ng
sÄģnĠ jiÇİoĠ
xiÃ©Ġ huÃ¬
wÇİnĠ jiÄģnĠ
ĠnÇļĠ zÇĲĠ
ĠguÃ³ĠjiÄģ ĠgÅįngĠyuÃ¡nĠ
hÃºĠnÃ¡nĠ shÄĽngĠ
ĠdeĠfÃ¹Ġ qÄ«nĠ
lÇļĠkÃ¨Ġ tiÄĽĠdÃłoĠ
ÄģĠgÄĵnĠ tÃŃngĠ
Ġ shÄĵn
Ġ 1992
Ġ shÃŃĠniÃ¡nĠ
ĠĠĠ jiÃłoĠyÃ¹Ġ
shÃ¨ ĠyÃºĠ
mÃŃng ĠzÃłiĠ
tÃ³ng ĠxuÃ©Ġ
bÅį ĠyÄ«nĠ
luÃ² ĠhÃ²uĠ
qiÄģn ĠzhÃ¨ngĠ
guÄģng ĠdeĠ
lÇļ ĠyÃ³u
1908 ĠniÃ¡nĠ
ĠdÃ¬Ġ xÃŃngĠ
ĠÃ©r ĠyuÃ¡nĠ
zhÃ¨Ġ yÃłngĠ
xiÃłoĠ guÇĴ
biÃłnĠ huÃł
miÇİnĠ fÃ¨i
pÃ©iĠ yÇİngĠ
Ġ xiÃ©ĠzhÃ¹Ġ
Ġ XĠ
yÇĶ ĠĠĠ
zÄĵng ĠzhÃ¬Ġ
ĠshÃŃĠ xÃŃng
ĠjÃŃĠ jÃ¹Ġ
ĠjÃ¬Ġ hÃ²uĠ
ĠsÄ«Ġ fÇİ
ĠÃ©r ĠyÇĲĠ
ĠjiÃłnĠ duÃ¬
ĠjÅ«nĠ zhÇĶĠ
zhÇİngĠ wÃ²
kÄĵĠ huÃłnĠ
nÃłĠ yÃłngĠ
xiÇİngĠ yÃ¬ngĠ
ĠzuÃ¬Ġ zhÅįngĠzÃłiĠ
ĠliÃ¡nĠ sÃłiĠ
diÄģoĠ sÃ¹Ġ
Ġ xiÃ³ng
ĠĠĠ pÇĶĠ
dÄģng ĠrÃ¬Ġ
nÃł ĠxÄ«Ġ
hÄģ ĠdÃ©Ġ
yÇĶĠ yÃ¡n
xÄ«Ġ zÃłngĠ
ĠbÃ¨iĠ kÃ¨Ġ
ĠdÃłn ĠwÃ¨iĠ
zuÃ¬Ġ dÄ«Ġ
dÄĽngĠ dÃłiĠ
chÃ¡ngĠ guÄ«Ġ
ĠxiÃłnĠdeĠ fÄĵiĠjiÃłnĠzhÃ¬ĠdÃ¬ĠqÅ«Ġ
huÃłnĠ xiÇİngĠ
jÇĶĠxÃŃngĠ leĠ
ĠdÅįng ĠxÄ«Ġ
Ġ zhuÃ³
Ġ 1993
zhÅįng ĠniÃ¡nĠ
hÃ¡ng ĠxÃŃngĠ
ĠguÃ³Ġ zhÅįngĠ
ĠdÃłĠ dÃłĠ
fÃ¹Ġ nÇļĠ
fÄģĠ huÄ«Ġ
ĠzhÃłnĠ lÇĲng
tiÄģnĠ zhÇĶĠjiÃło
chÃ©nĠ mÃ²Ġ
huÇĴĠ zÄģiĠ
ĠshÃ¬ĠwÃ¨iĠyÃºĠ wÅ«ĠkÃ¨ĠlÃ¡nĠ
ĠchÃ¡oĠ xiÄģn
Ġ sÅįng
Ġ pÃłnĠ
Ġ yÄ«ĠniÃ¡nĠ
ĠĠĠ jÃ¬nĠ
qÇĲ ĠshÃ¬Ġ
ĠshÃŃĠ jiÃłnĠ
jÃ¬Ġ zhÄĽĠ
rÃ¨nĠ kÄĽĠ
jiÃłoĠ tÃºĠ
zhÃ¹Ġ mÃŃng
ĠjÅ«nĠ duÃ¬
shÄ«Ġ zhÇİngĠ
zhÇĲĠ nÃ©ng
bÇİoĠ ÄģnĠ
zhÇĴngĠ zÃº
gÇĶĠ dÅįngĠ
Ã¨rĠ bÇİiĠ
ĠgÄģiĠ zhuÄģngĠ
jiÄģĠrÃ¹ ĠzhÅįngĠguÃ³ĠgÃ²ngĠchÇİnĠdÇİngĠ
Ġ shÄģn
guÃ³ ĠwÃ¨iĠ
qÇĶ ĠleĠ
shÅįu ĠfÃ¹Ġ
gÃ¨ng ĠdÃłĠ
ĠshÃ¬Ġ cÃ³ngĠ
shÃŃĠ qÄ«
ĠyÇĴuĠ liÇİngĠgÃ¨Ġ
guÄģnĠ diÇİn
ĠzhÃłnĠ jÃ¹Ġ
fÄĵnĠ lÃ¡n
ĠbÄĽnĠ piÃłn
ĠhÇİiĠ bÃ¡
cÃºnĠ chÇĶĠ
ĠduÅį ĠrÃ©nĠ
Ġ f
Ġ gÅ«Ġ
Ġ 1978ĠniÃ¡nĠ
hÃłn ĠdeĠ
xiÃłngĠ bÄĽiĠ
tÃ¨Ġ sÃ¨
ĠwÃ©iĠ qÄ«Ġ
bÄĽiĠ mÄĽiĠ
ĠshÃłngĠ zhÃ¨nĠ
yÃŃĠgÃ¨ ĠrÃ©nĠ
bÄģnĠjiÇİngĠ diÇİnĠlÇĲĠ
ÄģĠjÄ«Ġ tÇİn
Ġ diÃło
ĠĠĠ Se
ĠĠĠ mÄĽiĠ
liÃ¹ ĠyuÃ¨Ġ
lÄĵi ĠdeĠ
ĠzÃłiĠ jÄ«nĠ
xuÃ©Ġ zhÄĽ
rÃ¨nĠ qÄ«Ġ
dÃłiĠ lÇĲng
ĠqÃŃĠ ziĠ
tÃ¡iĠ nÃ¡nĠ
fÅ«Ġ lÄĵiĠ
dÃºĠ zhÄĽĠ
zhÃłngĠ fÅ«
Ġ hÇİiĠjÅ«nĠ
hÄĽn ĠyÇĴuĠ
90 Ġ
1915 ĠniÃ¡nĠ
shÄĵngĠ mÃ¬ng
qÄ«Ġ tÃºĠxÃŃngĠ
yÇİnĠ jÄ«ngĠ
ĠguÃ²Ġ qÃ¹Ġ
guÃ³ĠdeĠ tÃ¨ĠyÇĴuĠ
xÃ¬ĠtÇĴng ĠzhÅįngĠ
ĠwÇĶ ĠyuÃ¨Ġ
ĠjiÇİngĠ shÃ¹Ġ
jiÄĵĠshÃ²u ĠleĠ
ĠzhÃłnĠdÃ²u ĠjÄ«Ġ
Ġ sÄģi
jiÄģ ĠjÃŃĠ
dÃ© ĠyÇĲĠ
huÃł ĠgÅįngĠ
pÇĶ ĠlÇĲĠ
fÃłng ĠzhÃ¬Ġ
fÃłng ĠshÃ¨Ġ
gÄģn ĠyÃ¹Ġ
ĠshÃ¬Ġ yÃ²ngĠ
ĠjiÄģĠ sÃ¹Ġ
ĠÄĽrĠ fÅ«
xiÃ©Ġ zhÃ¹
liÃ¨ĠchÄĵ ĠdeĠ
ĠhuÃ²ĠdÃ© ĠdÃ¬Ġ
qÅ«ĠyÃ¬ĠhuÃ¬Ġ xuÇİnĠjÇĶĠ
yÃ¡ng ĠzhÅįuĠ
cÄģn ĠzhÃ¨ngĠ
xÅ« ĠqiÃº
cÇİo ĠyuÃ¡nĠ
ĠbÃ¹Ġ liÃ¨Ġ
ĠgÃ¨Ġ dÃ¬ĠdeĠ
tiÄģnĠ shÇĲĠ
luÃ²Ġ bÃłiĠ
tÃŃngĠ kÃłoĠ
ĠniÃ¡nĠ10ĠyuÃ¨Ġ 1ĠrÃ¬Ġ
xÇĶĠ kÄĽ
ĠyÇĶĠmÃ¡o ĠqiÃº
Ġ zhÇİnĠ
Ġ tÃ©ngĠ
Ġ bÇĲĠdÃ©Ġ
sÄ« ĠyÃºĠ
diÃłn ĠyuÃ¡nĠ
liÃº ĠchÃ©ngĠ
cÃ©ng ĠyÇĶĠ
nÃ³ng ĠdÃ¹Ġ
hÃ¡o ĠwÃºĠ
40 ĠniÃ¡nĠ
70 Ġ
42 ĠniÃ¡nĠ
ment Ġ
colspan Ġ
ĠchÃ©ngĠ rÃ¨n
ĠzhÄ«Ġ duÃ¬Ġ
jiÄģnĠ dÅ«
rÃ¹Ġ yÃ¹Ġ
jiÄģoĠ huÃłn
fÃ¡ngĠ shÇĴuĠ
ĠdeĠshÃ¬Ġ jiÃłnĠ
dÇİĠ kÄģiĠ
ĠgÄģi ĠdÃ¬Ġ
xuÃ¡nĠ zhuÇİnĠ
mÃ¨ngĠjiÄģĠ lÄģĠ
Ġ Mo
Ġ qÇĶĠdÃłiĠ
guÄģn ĠhÃ©Ġ
fÄĵn ĠjÃŃĠ
liÃº ĠshÃ¬Ġ
shÄĽng ĠrÃ©nĠmÃŃnĠzhÃ¨ngĠfÇĶĠ
shuÇĲ ĠshÃłngĠ
wÄĵi ĠdeĠ
ĠhÃ©Ġ jiÄģĠ
mÃŃngĠ chÄĵng
ĠÃ©rĠ zhÃ¨Ġ
suÇĴĠ zhÇİngĠ
gÃ©Ġ lÃŃnĠ
zuÃ¬Ġ hÇİoĠdeĠ
ĠshÄĵngĠ rÃ¨nĠ
jiÇİnĠ chÄĵngĠ
ĠyÄĽĠ chÄĵngĠ
pÃ¨iĠ juÃ©Ġ
dÃłnĠ bÃ¡iĠ
dÇĴngĠshÃ¬Ġ huÃ¬Ġ
Ġ yÃłĠzhÅįuĠ
Ġ 20ĠshÃ¬ĠjÃ¬Ġ
chÅ« ĠxiÃłnĠzÃłiĠ
xiÄĽ ĠchÃ©ngĠ
1906 ĠniÃ¡nĠ
ĠzhÅįngĠ yÃ¬Ġ
ĠyÃºĠ 2011
ĠdÃ© ĠyÃ¬ĠzhÃ¬Ġ
zhÇĶĠ chÇİng
shÄģnĠ hÃºĠ
miÃłnĠ qiÃ¡nĠ
biÄģnĠ qÅ«Ġ
qiÃ¡ngĠ liÃ¨ĠdeĠ
xÃºnĠ zhÇİoĠ
ĠzuÃ¬Ġ hÃ²uĠyÄ«Ġ
fÄģĠxÃŃngĠ leĠ
zhÇĶĠjiÃłoĠ zuÃ²Ġ
ĠfÇĴu ĠzÃ©Ġ
Ġ lÄģ
Ġ 1980
ĠĠĠ shÇĲĠ
ĠĠĠ aĠĠĠ
xiÃłng ĠhÃ©Ġ
shÄģ ĠshÃ¬Ġ
pÃłi ĠrÃ©nĠ
ation Ġ
ĠyuÃ¨Ġ nÃ¡n
ĠzhÃ¬Ġ cÇĲĠ
dÃ¹Ġ guÃ²Ġ
ĠtÃ³ng ĠwÃ¨iĠ
ĠzhÃ¨Ġ chÇİngĠ
gÇĶĠ fÃ¨nĠ
kÇĴngĠ lÃ³ngĠ
fÄģĠxiÃłnĠleĠ cÇĲĠtiÄģnĠtÇĲĠ
fÇİĠlÃ¡nĠxÄ« ĠdÃłĠqÅ«Ġ
Ġ zi
jÄ« ĠxÃŃngĠ
xiÃł ĠyÃ¬Ġ
suÇĴ ĠbÃ¹Ġ
yuÄĵ ĠdeĠ
jiÇĶ ĠyuÃ¨Ġ
quÃ¨ ĠshÃŃĠ
42 Ġ
ĠshÃ¬Ġ pÃŃn
ĠyÇĶĠ xÄ«nĠ
xÄ«nĠ qÅ«Ġ
ĠwÃ©iĠ fÇİnĠ
ĠjÃ¬n ĠniÃ¡nĠ
ĠzhÃ¨Ġ cÃ¬
yÃŃĠ qÃ¬Ġ
tÃŃĠ ÃłnĠ
xÃ¬nĠ yÃ²ngĠ
huÇĴĠ pÃłoĠ
ĠdeĠgÅįngĠ jÄ«Ġ
ĠgÃ©Ġ lÃ¡nĠ
zÅįngĠyÃ¬Ġ jiÃ©ĠmÃ¹Ġ
jÃ¬ngĠwÃłiĠ shÅ«ĠrÃ¹Ġ
Ġ xÃ¬n
ĠĠĠ shÃ¨ĠjÃ¬Ġ
yÄĽ ĠbÃ¹Ġ
gÇĶ ĠchÃ©ngĠ
fÃ¨i ĠÄĽrĠ
yÃ© ĠlÃ¹Ġ
ĠchÃ©ngĠ xiÃłngĠ
ĠrÃ¬ ĠshÃŃĠ
ĠdÃłoĠ fÅ«Ġ
fÃ¹Ġ xÄ«ng
tiÄģnĠ xiÃłĠ
Ġ tÇĶ
Ġ zhÃº
Ġ zÃłnĠ
Ġ biÄģoĠzhÇĶnĠ
bÃ¨i ĠyÄ«Ġ
xÄ«n ĠjÄ«Ġ
shÄ« ĠxÃŃngĠ
yÃŃng ĠdÃ©
zhÅ« ĠshÃ¬ĠhuÃ¬Ġ
xiÃ¡ ĠshÃ¬Ġ
kÅ«n ĠmÃŃngĠ
ĠchÃ©ngĠ dÄģnĠ
yÃ³uĠ kÃ¨Ġ
ĠÃ©r ĠdÃ©ĠmÃŃngĠ
wÃ¹Ġ zÄ«Ġ
kÄģiĠ yÃ¨Ġ
tÅįngĠ chÃ¡ngĠshÃ¬Ġ
luÃ³Ġ xuÃ¡nĠ
gÄĵnĠ suÃŃ
ĠwÃ©nĠ xuÃ©Ġ
ĠliÃ¡nĠ xÃ¹Ġ
ĠjÇĲnĠ biÄģoĠ
chÃ¨Ġ tuÃ¬
ĠfÄĵiĠ chÃ¡ngĠ
liÃ¡nĠsÃłiĠ guÃłnĠjÅ«nĠ
ĠshÃŃĠjiÄģn ĠwÃ¨iĠ
huÃ³ĠyuÃ¨Ġ yÃºĠ
tÇİĠnÃŃ ĠdÃłĠqÅ«Ġ
Ġ c
Ġ Ã¨
Ġ xiÅ«
Ġ qÃŃngĠ
Ġ jÇĶĠ
Ġ 1980ĠniÃ¡nĠ
ĠĠĠ 2000
zhÅįu ĠwÃ©iĠ
chÇİn ĠdeĠ
29 ĠniÃ¡nĠ
id Ġ
ĠjiÄģĠ ÄĽrĠ
ĠxÄ«Ġ bÄĽiĠbÃ¹Ġ
zhÇĶĠ tÇĲĠ
ĠzhÃ¨Ġ shÇĲĠdeĠ
shÃ¨Ġ jÃ¬ĠdeĠ
Ġ dÇĲĠ
Ġ 22Ġ
yÇĶ ĠrÃ©nĠ
lÇľ ĠbÃ¹Ġ
yÇĲn ĠjÃ¬nĠ
dÄ«ng ĠmÃ¹Ġ
1900 ĠniÃ¡nĠ
1907 ĠniÃ¡nĠ
dÃłĠ huÃ¬Ġ
ĠyÄ«Ġ cÃŃ
ĠzhÄ«Ġ lÃ¹Ġ
ĠhuÃ¬Ġ dÇİoĠzhÃ¬Ġ
kÄģiĠ pÃ¬
ÄģnĠ dÅįngĠnÃŃĠ
ĠjiÃ©Ġ mÃ¹
nÃ³ngĠ cÅ«n
ĠwÃº ĠxiÃłnĠ
ĠbÄĽiĠqÇĲĠ shÃ¹nĠshÃŃĠzhÄĵnĠyÇĶĠ
zhÃ¨ng ĠsÄ«Ġ
dÃ© ĠzhÄ«Ġ
bÄĽi ĠpÃŃngĠ
wÇĶ ĠgÅįngĠ
jiÃ¨ ĠxiÃłnĠ
shÃ©n ĠshÃ¨Ġ
os Ġ
xiÃłngĠ dÅįngĠ
shÅ«Ġ xiÄĽĠ
ĠgÄģiĠ piÃłn
xuÃ¨Ġ yÃ¨Ġ
ĠdÃł ĠwÃ¨iĠ
xÃºnĠhuÃŃĠ sÃłiĠ
Ġ 1991
le ĠdÃ¬ĠyÄ«Ġ
shÃłng ĠjÃŃĠ
huÃł ĠchÃ©ngĠ
tÃ³ng ĠshÃ¬Ġ
yÃ¹n ĠhuÃ¬Ġ
ĠzÃłiĠ nÃłĠlÇĲĠ
lÃ¬Ġ liÃłngĠ
ĠmÃŃngĠ quÃ¨Ġ
xiÃłĠ xÃºnĠ
ĠjÃ¬n ĠleĠ
gÃ©Ġ luÃ³Ġ
lÃŃĠ hÅ«nĠ
yÃ¬ngĠ yÃ²ngĠyÃºĠ
jiÇĶĠ diÃłn
bÄģĠfÃ¡ ĠlÃ¬ĠyÃł
Ġ Vi
Ġ aĠ
Ġ pÃŃnĠdÃłoĠ
zhuÇİn ĠhuÃ¬Ġ
ĠzÃłiĠ dÄģngĠdÃ¬Ġ
ĠchÅ«Ġ zÃ¬Ġ
wÃłiĠ jiÃ¨Ġ
qÇĲĠ tÃºĠ
jiÄģoĠ qÅ«Ġ
huÃ²Ġ bÃ¬Ġ
zhÃłoĠ gÃ¹Ġ
ĠzhÃŃ ĠdeĠ
chÄģoĠ guÃ²
kÄĽĠyÇĲ ĠshÃ¬Ġ
ĠyÇĲnĠ qÇĲĠ
dÄģĠ pÃ¨iĠ
yÃ©ĠlÃ¹Ġ sÄģĠ
Ġ nÃ¨iĠbÃ¹Ġ
wÃ©i ĠlÃ¬Ġ
zhÇĶ ĠrÃ©nĠ
yÇİn ĠleĠ
yÃ²u ĠbÃ¨iĠ
cÇİo ĠdÃ¬Ġ
ĠbÃ¹Ġ lÃ¡nĠ
ĠxÃŃng ĠzhÅįngĠ
jÄ«nĠ pÃ¡i
tiÄģnĠ zhÇĶĠ
Ã¨rĠ yÇİngĠhuÃłĠ
chuÃ¡nĠ shÅ«Ġ
hÃ¡ngĠ tiÄģn
mÃ³Ġ nÇĲĠ
huÃ²Ġ yÃ¹nĠ
ĠyÃ¡nĠ zhÃ²ngĠ
ĠgÄĵĠ shÇĴuĠ
tÃŃngĠchÄĵĠ chÇİngĠ
Ġ cuÄ«
yÇĶ ĠjÃŃĠ
nÃ¨i ĠshÃ¨ĠyÇĴuĠ
zhÃ¨n ĠxiÃłnĠ
yÄģ ĠzhÃ¬Ġ
ĠzÃłiĠ hÃ²uĠ
ĠshÃŃĠ qÃ¬
ĠlÇĲĠ ÃłoĠ
zÇĴngĠ dÅ«
jiÄĽĠ chÃºĠ
ĠliÃ¡nĠ bÄģngĠ
yÅįuĠ xiÄģnĠ
ĠshÇĲ ĠqÃŃĠ
xiÇİoĠshÃŃĠ hÃ²uĠ
ĠyÃ¬Ġsi ĠshÃ¬Ġ
Ġ hÃ¡iĠshÃ¬Ġ
ĠĠĠ hÃ©ĠĠĠ
jiÄģng ĠwÃ©iĠwÃºĠÄĽrĠ
shÄ« ĠshÃ¬Ġ
wÇĶ ĠlÃ¬Ġ
bÇİo ĠshÃŃĠ
fÇĶ ĠdeĠ
kuÃłi ĠjÃ¬Ġ
sÄĵn ĠdeĠ
shÃłngĠ fÇİĠlÃ¡nĠxÄ«ĠdÃłĠqÅ«Ġ
ĠxÄ«Ġ nÃ¡nĠbÃ¹Ġ
ĠkÃ¨ ĠrÃ©nĠ
nÃ¡nĠ fÄĵiĠ
ĠshÃ¨ ĠxiÃłnĠ
ĠjiÃłnĠ leĠ
ĠbÃ¬ngĠ duÃ¬Ġ
wÃ¡ngĠ guÃ³ĠdeĠ
Ġ 23Ġ
Äģn ĠzhÃ¬Ġ
ĠĠĠ yÇĲngĠxiÇİngĠ
guÄģn ĠzhÃ¬Ġ
Ã¨r ĠmÃŃngĠ
chÃ©n ĠjÄ«Ġ
guÄģng ĠxuÃ©Ġ
tÃ²u ĠmÃŃngĠ
ĠshÃŃĠ biÇİoĠshÃ¬Ġ
ĠyÃºĠ yÄ«Ġ
shÄĵngĠ wÃ¹
zhÃŃĠ dÇİoĠdeĠ
cÇĲĠ cÃ¬Ġ
lÄģĠ fÅ«Ġ
ÃłiĠ shÄģĠ
dÃłnĠ bÃ¡iĠzhÃ¬Ġ
kÃ²ngĠ gÇĶ
zhÃŃĠyÃ¨Ġ shÄĵngĠyÃ¡
wÄĽnĠ dÃ¬ng
ĠĠĠwÃ¨iĠ yÃºĠ
ĠwÇĴ ĠdeĠ
9 ĠshÃŃĠ
Ġ wÇİng
Ġ ruÇİnĠ
Ġ bÄģoĠhÃ¡n
shÄĵng ĠrÃ¬Ġ
jiÃ¨ ĠyÃ³uĠ
xÃ¹ ĠshÃ¬Ġ
liÃłng ĠhÃ©Ġ
38 Ġ
ry Ġ
ĠzhÅįngĠ jÃŃĠ
yÇĴuĠ yÃ¬Ġ
ĠgÅįngĠ shÄģngĠ
guÄģnĠ shÇİng
ĠjiÃłnĠ lÃ¬ĠdeĠ
ĠdÃłn ĠyÄ«nĠwÃ¨iĠ
gÄģoĠ shÄģnĠ
ĠyÃ³uĠ kÃ¨Ġ
ĠdÃłnĠ shuÇĲĠ
jiÇİnĠ dÄģn
zÇĶĠ zhÇĲ
ĠdÃłĠxuÃ©Ġ jiÃłoĠshÃ²uĠ
ĠgÄģi ĠgÅįngĠsÄ«Ġ
tÅįngĠguÃ² ĠleĠ
ĠbÄĽn ĠmÃŃngĠ
ĠgÅįngĠzuÃ² ĠrÃ©nĠyuÃ¡nĠ
tÇĲ ĠhÃ©Ġ
tÃŃ ĠshÃ¬Ġ
tÃº ĠÄĽrĠ
gÇİi ĠzhÃ¬Ġ
ĠhÃ©Ġ shuÇĲĠ
ĠshÃŃĠ yÃ¬Ġ
ĠjÃŃĠ yÃºĠ
ĠjÃŃĠ yÇĶĠ
ĠjiÃłn ĠguÃ³Ġ
qÄ«Ġ xÄ«ĠdÃ¬Ġ
hÇİiĠ guÄģnĠ
nÇļĠ shÃ©nĠ
zÃºĠ xiÃ©
zÄĵngĠ jiÄģ
ĠhuÃłĠ xuÃ©
ĠsÃ¬ ĠyuÃ¨Ġ
ĠhÃ©ĠbÄĽiĠ shÄĽngĠ
ĠzhÃ¹ ĠyÇĴuĠ
1 ĠhÃło
2 ĠhÃłoĠ
ĠĠĠ 1949
yÇĶ ĠzÃłiĠ
ni Ġ
ĠwÃ¨iĠ tÄģĠ
ĠdÃło ĠzÃłiĠ
ĠjÃ¬Ġ gÅįngĠ
ĠjÃ¬n ĠpÃŃngĠ
tÃłiĠ kÅįng
jiÇİnĠ huÃłĠ
zÃºĠ zÃ¬ĠzhÃ¬ĠqÅ«Ġ
Ã©Ġ wÃłiĠ
jÅ«Ġ liÃºĠ
fÃłngĠ sÃ²ngĠ
chÃ¨Ġ lÃŃĠ
8 ĠmÇĲĠ
Ġ tÃ¡n
Ġ nÃ¬
ĠĠĠ Mar
yuÃ¡n ĠzhÃ¬Ġ
shÄĵng ĠyuÃ¡nĠ
yuÃłn ĠyÃ¬ĠyuÃ¡nĠ
bÄ«n ĠxÄ«ĠfÇİĠ
ĠhÃ©Ġ pÃŃng
dÃłĠ yuÄĵĠ
ĠlÃ¬Ġ chÃ©ngĠ
ĠtÄģ ĠyÃ¬Ġ
ĠjÃ¬Ġ shÃ¹ĠdeĠ
ĠxÄ«Ġ bÄĽi
lÇĲngĠ xiÃ¡n
gÄģngĠ qÃŃnĠ
xuÃ¨Ġ tÇĴngĠ
ĠgÄĵĠ qÇĶ
ĠK Ġ
ĠÃ¨r ĠrÃ©nĠ
Z Ġ
ĠĠĠ shuÇĲĠ
le ĠshÃŃĠ
yÃ¹ ĠzhÅįngĠ
fÃ¹ ĠchÅ«Ġ
fÇİn ĠshÃ¨Ġ
biÃ© ĠmÃŃngĠ
yÃłn ĠzhÃ¨ngĠ
ca Ġ
ĠzÃłiĠ yuÃ¨Ġ
ĠguÃ³Ġ jÅ«n
ĠyÄ«Ġ duÃłnĠ
ĠyÇĲĠ qÃŃĠ
ĠyÇĶĠ yÃ¡nĠdeĠ
xiÃłĠ wÄĵiĠ
zhÃŃĠ zÃ©Ġ
zhÃ²ngĠ shÄģngĠ
yÃŃĠ chuÃ¡nĠ
ĠgÄģiĠ wÃ¹ĠzhÇĴngĠdeĠ
Ġ000 ĠmÃŃngĠ
mÃ³ĠshÃ¬Ġ chÇİnĠ
yuÃ¨ĠzhÅįngĠ xÃºnĠ
hÃ¡ngĠkÅįngĠmÇĶ ĠjiÃłnĠ
Ġ ÇĴu
Ġ chÇĲĠ
Ġ mÃŃnĠzhÇĶĠ
sh Ġ
zhÃ²ng ĠrÃ©nĠ
ĠdeĠ yÄ«nĠyuÃ¨Ġ
ĠchÃ©ngĠ jÃŃĠ
ĠxÄ«Ġ zÃłng
ĠdÅįngĠ fÄģngĠ
pÃłnĠ duÃłnĠ
ĠzhÅįngĠyÄģng ĠjÅ«nĠ
liÃłnĠ xÃŃĠ
dÅįngĠbÃ¹Ġ dÃłĠqÅ«Ġ
ĠgÅįngĠsÄ« ĠzÃłiĠ
ĠbÄģ ĠyuÃ¨Ġ
ĠchÅ«ĠbÇİn ĠshÃ¨Ġ
4 ĠmÇĲĠ
Ġ St
Ġ qiÄģngĠ
yÃ¡n ĠxiÃłnĠ
liÇİng ĠbÃ¹Ġ
ĠshÃ¬Ġ wÅ«ĠkÃ¨ĠlÃ¡nĠ
ĠgÅįngĠ Äģn
ĠdÃłnĠ rÃ©ng
chÅ«Ġ kÇĴuĠ
hÄĽnĠ kuÃłi
biÄģoĠzhÇĶn ĠdeĠ
Ġ tiÄĽ
Ġ xÄ«nĠdeĠ
ĠĠĠ 2004
yÃ¹ ĠhÃ©Ġ
jÇĲ ĠgÃ¨
cÇĲ ĠzhÃłnĠ
piÄģn ĠxiÇİoĠshuÅįĠ
lÃłng ĠmÃłnĠ
ĠzhÅįngĠ shÃŃĠ
ĠguÃ³Ġ jÃŃĠ
ĠzhÄ« ĠhÃ©Ġ
jÃ¹Ġ bÃ¨iĠ
lÃ³ngĠ kÄĵĠ
ĠdeĠyÄ«Ġ tiÃ¡o
ĠmÄĽi ĠrÃ¬Ġ
ĠdeĠbÃ¹Ġ fÃ¨n
chÇĶĠlÇĲĠ qÃ¬Ġ
kÄĽnĠ dÃ¬ngĠ
Ġ yÇĲngĠ
ĠĠĠ 14
gÃ© ĠhÃ©Ġ
tÃłi ĠyuÃ¡nĠ
wÃº ĠyÃ¬Ġ
yÃ¡ng ĠdeĠ
ĠwÃ¨iĠ zhÄ«Ġ
zhÇĲĠ zÃ©Ġ
tÇĲĠ xÃ¬
gÇĶĠ diÇİn
yÄ«ngĠ wÇĶĠ
gÄĵĠ chÃłng
wÄĵiĠ nÃŃĠsÄ«Ġ
dÄģngĠ jÃº
ĠqÄ« ĠyuÃ¨Ġ
Ġ yÃł
ĠĠĠ b
ĠĠĠ gÃ¨
Ãło ĠdÃ¬Ġ
hÃ²u ĠchÃ©ngĠwÃ©iĠ
wÇĶ ĠdeĠ
gÃ¹ ĠyÃ¬Ġ
zhÄĵn ĠjÅ«nĠ
shÄĽn ĠlÇĲĠ
pÅ« ĠshÃ¨Ġ
ĠhÃ©Ġ mÄĽiĠguÃ³Ġ
ĠyÇĴuĠ zhÃ¹ĠyÃºĠ
wÃ©iĠ kÃ¨Ġ
mÃŃngĠ nÃŃĠsÅ«Ġ
ĠÄĽr ĠdÃ¬Ġ
ĠtÄģĠ biÇİoĠshÃ¬Ġ
zhÃ¨Ġ cÃ¬Ġ
zhÃŃĠ lÃ¹
bÄĽiĠ cÃ¨Ġ
wÅ«Ġ lÇĶĠ
ĠjÄ«ngĠ chÃ¡ng
yÃ¡Ġ chÇĲĠ
ĠbÃ¹ĠjiÇĶ ĠhÃ²uĠ
ĠwÃ¨iĠyÃºĠgÄģiĠ shÄĽngĠ
Ġ rÃ¹
yÃ²ng ĠyÇĲĠ
yÃ¬Ġ yuÃ¡nĠ
ĠjÅ«n ĠjÃŃĠ
ĠjÅ«n ĠbÃ¨iĠ
ĠkÃ¨ ĠshÃ¬Ġ
xiÃłngĠ nÃ¡nĠ
ĠjÃ¹Ġ lÃ¨Ġ
yÃłĠ kÄĵĠ
hÃ³ngĠ shuÇĲĠ
wÃ¡nĠ chÃ©ngĠdeĠ
bÃłiĠzhÃłnĠ tÃŃng
Ġ 1985
Ġ liÃ¡oĠ
ĠĠĠ xÃŃngĠ
shÄĵng ĠyÃ¬Ġ
xÃ¬ng ĠyÇĶĠ
zÃ© ĠÄĽrĠ
lÃ¡n ĠzhÅįuĠ
huÃ¡n ĠyuÃ¡nĠ
gÃło ĠzhÅįngĠ
suÄģn ĠyÃ¡nĠ
34 Ġ
ĠdeĠ qÃŃngĠkuÃłngĠ
ĠguÃ³Ġ gÃ²ngĠ
ĠguÃ³Ġ fÃ¡ngĠ
ĠyÃ¬Ġ qÃŃng
ĠqÃŃ ĠyÃ¬Ġ
pÃŃngĠ gÅ«Ġ
jiÄģnĠ chÃŃ
suÇĴĠ shÇĶĠ
qÇĶĠ dÃłi
yÄ«nĠ cÇĲ
ĠdeĠmÃŃngĠ chÄĵngĠ
luÃ³ĠdÃ¬Ġ yÃłĠ
liÃ¡oĠnÃŃngĠ shÄĽngĠ
Ġ pÃºĠ
qÅ« ĠyÃ¬ĠyuÃ¡nĠ
jiÄĵ ĠlÃ¬Ġ
zÇĶ ĠwÃ¨iĠ
jiÇĶ ĠmÃŃngĠ
ĠyÇĲ ĠchÃ©ngĠwÃ©iĠ
kÄĽĠ kÃło
huÇĴĠ xÄ«ngĠ
ĠrÃºĠ cÇĲĠ
ĠĠĠ 2003
ĠĠĠ 2003ĠniÃ¡nĠ
mÃŃng ĠzhÅįngĠ
fÇİ ĠzhÅįngĠ
wÇĶ ĠwÃ¨iĠ
lÃ³u ĠdeĠ
ĠshÃŃĠ huÃ¬Ġ
ĠÄĽr ĠkÃ¨Ġ
ĠjiÄģĠ qiÃ¡ng
ĠchÅ«Ġ sÃłiĠ
jiÄĵĠ shÅįu
chÄĵngĠ hÅ«
xuÃ©ĠyuÃłn ĠdeĠ
zhÇĲĠhuÄ« ĠbÃ¹Ġ
8 ĠshÃŃĠ
Ġ xiÄģo
Ġ shÃłn
Ġ Ar
ĠĠĠ w
ĠĠĠ 2ĠyuÃ¨Ġ
duÃ¬ ĠtÄģĠdeĠ
dÃ²ng ĠshÃ¬Ġ
zuÃ¬ ĠxÃŃngĠ
fÃłn ĠdeĠ
mÃ©ng ĠdÃ©Ġ
gÄĽi ĠshÃ¬ĠzhÅįngĠ
80 Ġ
zÅ«n ĠzhÃ²ngĠ
chÃ©ngĠ dÃ¹Ġ
ĠjÃŃĠ zhÃ¬Ġ
xiÃłĠ tiÄģnĠ
ĠtÃ³ng ĠyuÃ¨Ġ
dÃ¡Ġ nÃŃ
cÃ¨Ġ lÃ¼Ã¨
chÃ³ngĠ zÇĶĠ
jÇĲĠ zhuÄ«
ĠshÃ¹Ġ jÃ¹Ġ
ĠshÃ¬ĠshÃ¬Ġ jiÃ¨Ġ
ĠmÇİ ĠÄĽrĠ
Ġ u
Ġ 1995
Ġ 57
ĠĠĠ cÃ³ng
yÅįng ĠzhÃ¨ngĠ
begin Ġ
ĠrÃ©nĠ bÃ¹Ġ
sÄ«Ġ tÃ¨Ġ
ĠdÃłĠ gÃ©ĠmÃ¬ngĠ
shÃłngĠ shÄĵngĠ
ĠzhÄ«Ġ qiÃºĠduÃ¬Ġ
xiÄģngĠ xÃ¬n
hÇİiĠ xiÃ¡
ĠduÅįĠ shÃ¹Ġ
yÇĲĠ qiÃ¡nĠ
fÄĵnĠbiÃ© ĠshÃ¬Ġ
fÄģĠdiÃłnĠ chÇİngĠ
Ġ 1989
ĠĠĠ c
ĠĠĠ 1ĠyuÃ¨Ġ
zhÃ¹ ĠshÃ¬Ġ
duÅį ĠlÃ¬ĠyÃł
kÄģi ĠxÃŃngĠ
bÇĲ ĠdeĠ
qiÄģn ĠxiÃłĠ
lÃº ĠxÃŃngĠmÃ¹Ġ
yuÃ¡nĠ yÄ«nĠ
ĠsÄ«Ġ xiÇİng
xÄ«nĠ zÄĵngĠ
nÃ¡nĠ zhÇĶĠjuÃ©Ġ
kÄģiĠ bÃłnĠ
mÃŃnĠ zhÃ¨ngĠ
kÇĴuĠ hÃłoĠ
ĠjÃ¹Ġ chÇİngĠ
chÄĵĠ shÇĴuĠ
tÃŃĠ jiÄģoĠ
zÃºĠ gÃ²uĠ
ĠdeĠyÄ«Ġ xiÄĵ
ĠdeĠchÃ©ngĠ gÅįngĠ
ĠfÄģĠ biÇİoĠ
duÃ³Ġ qÇĶĠ
Ġ mÃ¨ng
Ġ zhÄģ
ĠĠĠ lÃ¬ng
yÃ¹ ĠshÃ¬Ġ
fÇİ ĠzhÃ¬Ġ
lÃŃn ĠjÃ¬n
zhÅ« ĠduÅįĠ
wÄĵn ĠquÃ¡nĠ
yÄ«Ġ mÃŃngĠ
jiÄģĠ zÃºĠ
ĠrÃ¬ ĠyuÃ¡nĠ
xÄ«nĠ zÄĵng
xiÄģngĠ hÃ¹
ĠdÃ©Ġ lÃ¡nĠ
bÄĽnĠ shÄĵn
mÃ¬Ġ qiÃ¨Ġ
ĠbÃ¹ĠtÃ³ng ĠyÃºĠ
bÄģĠshÃ¬Ġ lÃ¹ĠxiÃłnĠ
ĠgÄĵĠ lÃºnĠ
ĠĠĠgÃłiĠ shÃ¹Ġ
ĠshÃ¬ĠwÄĵiĠ zhÄĽĠ
ĠyÃ²ng ĠyÇĲĠ
ī Ġ
ĠĠĠ jÄ«ngĠ
sÄ« ĠjÃŃĠ
xuÃ© ĠjÃŃĠ
zÇĴng ĠshÃ¬Ġ
BD Ġ
ĠdeĠ shuÅįĠfÇİĠ
ĠdÃ¬Ġ liÃ¹
ĠyuÃ¡nĠ sÃ¹
ĠrÃ¬Ġ ÄĽrĠ
ĠjiÄģĠ shÃłng
ĠmÃŃngĠ lÃ¹Ġ
ĠdÃ©Ġ fÄĵnĠ
yÃ¹Ġ gÃłoĠ
mÃ¹Ġ dÃ¬ĠshÃ¬Ġ
juÃ©Ġ sÃłiĠdeĠ
kÄĽĠ qiÃ¡nĠwÇİngĠ
ĠjÃ¹Ġ bÃ¨iĠ
ĠzhÃŃĠ wÃ¹Ġ
kÄĽnĠ tÇİĠjÄ«Ġ
ĠdÃłĠshÇĲĠ guÇİnĠ
Ġ 700
Ġ yuÃ¡nĠwÃ¨iĠ
ĠĠĠ 13
dÃłi ĠÄĽrĠ
tÃ³ng ĠbÃ¹Ġ
zhÃŃ ĠrÃ©nĠyuÃ¡nĠ
tÃ¨ ĠyÇĶĠ
shÃ©n ĠfÃ¹Ġ
lÃ¨ ĠbÇĲĠ
nÃŃng ĠxiÃłĠ
1903 ĠniÃ¡nĠ
ĠdÃłoĠ lÃ¹
xiÄģnĠ qiÃ¡nĠ
guÇİngĠbÅįĠ diÃłnĠtÃ¡iĠ
ĠsectionĠĠĠ beginĠ
Ġ 98
Ġ kÃłnĠ
ĠĠĠ jiÄģngĠ
yÃ¹ ĠwÃ¨iĠ
liÃ¡n ĠxiÃłnĠ
lÃŃn ĠjÃ¬nĠdeĠ
guÇİn ĠdÃłoĠ
tuÅį ĠkÃ¨Ġ
et Ġ
ĠdeĠ guÄģnĠxÃ¬Ġ
ĠniÃ¡nĠ dÃ¹
ĠniÃ¡nĠ lÃŃng
ĠwÃ¨iĠ bÃ¹Ġ
ĠzÃłiĠ jÃŃĠ
ĠbÃ¹Ġ dÃłĠ
ĠyÃºĠ 2010
ĠrÃ©nĠ jÃŃĠ
ĠyÇĴuĠ hÇİoĠ
ĠhÃ²uĠ fÄģngĠ
ĠjÄ«Ġ zhÃ²ngĠ
fÃ¹Ġ gÃłiĠ
jiÃłoĠ shÇİoĠ
jiÄĵĠ tÃ¬
ĠhuÃ²Ġ yÃ¹nĠ
kÇİĠ sÄ«ĠdÃ¬ĠlÃ¬Ġ
biÄģoĠ tÃŃĠ
mÃłoĠ xiÇİn
ĠjiÃ© ĠhÃ©Ġ
hÃ¹nĠ xiÃ¡o
sÄģnĠjiÇİo ĠxÃŃngĠ
1 ĠmÇĲĠ
Ġ tiÃ¡o
Ġ fÃ¡nĠ
Ġ bÃ³ĠshÃ¬Ġ
ĠĠĠ ÄģnĠ
ĠĠĠ yÄ«ngĠ
wÃ©n ĠdÃ¬Ġ
zuÃ¬ ĠjÃ¬nĠdeĠ
ĠbÃ¹Ġ luÃ²
ĠyÃºĠ 2009
ĠchÃ©ngĠ zhÃ¨n
ĠqiÃº ĠjÃ¬Ġ
suÇĴĠ zÃłiĠdeĠ
jiÄĵĠ tÃ³uĠ
shÃ©nĠ mÃ¬Ġ
kÄģiĠshÇĲĠ leĠ
ĠĠĠbÄĽnĠ shÇĶĠ
ĠdeĠzhÇĶĠ tÃŃĠ
ĠĠĠqÃŃ ĠhÃ²uĠ
Ġ 1946
Ġ Ra
shÇĴu ĠshÃ¬Ġ
shÇĴu ĠÄĽrĠ
guÃ² ĠshÃ¬Ġ
wÇĶ ĠdÃłĠ
shÃ©n ĠxuÃ©Ġ
kÃłn ĠdÃło
zÇİi ĠxiÃłngĠ
ĠjiÃłn ĠjiÃłnĠ
jÃ¹Ġ tÇĲĠ
ĠyÄ«n ĠhÃ©Ġ
tÃ¨Ġ shÅ«ĠdeĠ
jiÃ¨Ġ sÃłiĠshÃ¬Ġ
tuÄ«Ġ cÃ¨Ġ
bÇİoĠhÃ¹Ġ qÅ«Ġ
ĠdeĠjÄ«Ġ bÄĽnĠ
xÃºnĠhuÃŃĠ yÇİnĠchÃłngĠhuÃ¬Ġ
jiÄĵĠxiÃłĠ lÃ¡iĠdeĠ
7 ĠmÇĲĠ
Ġ zÃ¨ng
Ġ ÄĵnĠ
le ĠyÇĲĠ
zhÃŃ ĠyÃºĠ
liÃº ĠyÃ¬Ġ
qÃ¬ ĠzhÅįngĠ
jiÃ¹ ĠrÃ¨nĠ
huÃ¡n ĠqiÃºĠ
ĠhÃ©Ġ rÃ©nĠ
ĠyÃ¬Ġ chÃ©ngĠ
ĠrÃ¨nĠ qÄ«Ġ
ĠhuÃ²Ġ shÃ¨ngĠ
ĠhÃ²uĠlÃ¡i ĠbÃ¨iĠ
mÃŃĠnÇĲĠ zhuÄģnĠjÃŃĠ
Ġ sÄģnĠniÃ¡nĠ
bÄģ ĠkÃ¨Ġ
liÃ¨ ĠjiÃłnĠ
bÃłn ĠbÃ¹Ġ
re ĠĠĠ
as Ġ
ĠbÃ¹Ġ bÄ«ng
ĠrÃ©nĠ shÃ²uĠshÄģngĠ
ĠyÄ«Ġ gÃ²ngĠ
ĠjÃ¬Ġ sÃ¬Ġ
duÃ¬Ġ kÃłngĠ
mÃ¹Ġ shÄ«Ġ
fÃºĠ lÇİng
shÄģnĠ dÇĲngĠ
lÃŃnĠ chuÃ¡ng
xuÇİnĠ xiÃ¹
cÃ¨Ġ huÃłĠ
dÇİĠ pÃ²Ġ
zhÃ¨ngĠshÃ¬Ġ chÃ©ngĠlÃ¬Ġ
ĠduÅį ĠmÃŃngĠ
dÅįngĠnÃ¡nĠ yÃłĠ
ĠĠĠ huÃ²
jiÄģng ĠbÃ¨iĠ
wÃ©n ĠsÄ«Ġ
yÃ¨ ĠzhÅįngĠ
lÄģ ĠkÃ¨
dÇİo ĠxiÃłnĠ
shÃ©n ĠqÃŃĠ
chuÃłng ĠyÃ¬Ġ
cÃºn ĠyÃºĠ
guÃłn ĠmÃ¹Ġ
kÇĴng ĠjÃ¹Ġ
duÄ« Ġ
duÃ² Ġ
1916 ĠniÃ¡nĠ
jÃ¬Ġ suÃłnĠ
ĠyÃ¬Ġ zuÃ²Ġ
shÇĴuĠ dÃ¹Ġ
ĠshÄĵngĠ chÄĵng
yÃłĠ tÃ¨Ġ
jiÄģoĠ diÇİnĠ
ĠyÇĴuĠyÄ«Ġ xiÄĵ
ĠlÃŃ ĠmÇĲĠ
fÃ¹ĠzÃ© ĠrÃ©nĠ
nÃ¡ĠpÃ²Ġ lÃºnĠ
Ġ zhÇİng
Ġ kÇİo
Ġ Ro
Ġ Mi
Ġ ÅįuĠzhÅįu
ĠĠĠ Ð
lÇĲ ĠzÃłiĠ
fÇİ ĠrÃ©nĠ
xÃŃ ĠjÃ¬nĠpÃŃngĠ
hÃº ĠdeĠ
les Ġ
ĠbÃ¹Ġ gÅįngĠ
yÄ«Ġ xiÄĵ
ĠguÃ³Ġ jÃ¬
ĠyÄ«Ġ duÃ¬Ġ
ĠdÃłoĠ dÃ©Ġ
ĠxÃŃngĠ wÃ©i
ĠjiÄģĠ lÄģĠ
yÃ¡nĠ sÃ¨
ĠÃ©rĠ fÄĵi
ĠjÅ«nĠ zhÇİngĠ
fÄĵnĠ zÇĶĠ
jiÄĵĠ tÃ¬Ġ
xÃ¬ngĠ cÃºnĠ
chÃ¡ngĠ shÄģĠ
shÃ²uĠ mÃ¬ngĠ
ĠxÄ«nĠ jiÄģngĠ
chuÃ¡nĠ jiÃłoĠshÃ¬Ġ
xÄ«ngĠ qÇĲĠ
jiÇĶĠ bÄģĠ
kÄģnĠ wÃ¹Ġ
tiÄĽĠlÃ¹ ĠgÅįngĠsÄ«Ġ
sÄ«ĠdÃ¬Ġ ÄģnĠ
ĠdÃłĠduÅįĠ shÃ¹
Ġ hÅ«Ġ
Ġ 1956ĠniÃ¡nĠ
yÇĴu ĠbÃ¹ĠtÃ³ngĠ
cÃ¬ ĠquÃ¡nĠguÃ³Ġ
lÃ¡n ĠdÃ©Ġ
kÇİ ĠdeĠ
yÃŃng ĠdÃ¬Ġ
guÃ¬ ĠdeĠ
zhuÃłn ĠjÃ¬Ġ
ĠchÃ©ngĠ guÇĴĠ
mÃŃngĠ xiÇİnĠ
shÄĵngĠ zhÇİngĠ
chÇİngĠ jÇĲng
ĠshÃ¨Ġ bÃ¨i
luÃ²Ġ shÄģnĠ
ĠzhÃ¨ ĠlÇĲĠ
dÇİoĠzhÃ¬Ġ leĠ
ĠzhÇĲĠ nÃ©ngĠ
ĠqÇĲĠ yÃ¨Ġ
liÃ¡nĠxÃ¹ ĠjÃ¹Ġ
Ġ yÇİn
Ġ qÃºnĠ
Ġ chÃ¨ĠxiÄģoĠ
yÃłng ĠbÄĽnĠ
shuÇĲĠ kÃ¹
ĠdÄģngĠ jÃºĠ
ĠjiÄģng ĠjÅ«nĠ
ĠfÄģĠ biÇİo
yÃ©Ġ fÅ«Ġ
ĠÃ¨r ĠyuÃ¨Ġ
r ĠĠĠ
Ġ xiÃ©
Ġ Li
ĠĠĠ dÃłiĠ
kÄĽ ĠyÃ³uĠ
shuÇĲ ĠyuÃ¡nĠ
ra Ġ
60 ĠniÃ¡nĠ
ĠzÃłiĠ yÃŃĠgÃ¨Ġ
ĠxÃŃngĠ zÇĴuĠ
shÃ¹Ġ zhÃŃĠ
chÃ¡ngĠ zhÃ¹
bÇİoĠ yÃ¹Ġ
nÃŃĠ gÇĶĠlÄģĠ
ĠxiÄģngĠ fÇİnĠ
wÇİngĠ mÃŃnĠ
dÃºĠ tÃ¨Ġ
Ã©rĠ zi
ĠtÃ¡iĠ bÄĽi
mÄĽiĠshÃ¹Ġ guÇİnĠ
zhuÄ«ĠsÃ¹ ĠzhÃ¬Ġ
ĠsectionĠĠĠ endĠ
hÃłnĠlÃŃnĠ yuÃłnĠ
Ġ gÃłi
Ġ Sa
Ġ 1979ĠniÃ¡nĠ
ĠĠĠ zhÃ¹ĠzuÃ²Ġ
shÃł Ġ
dÃ© ĠkÃ¨ĠsÃłĠsÄ«Ġ
tÃ³ng ĠzhÃ¬Ġ
hÇİi ĠjÅ«nĠdeĠ
tÃ¡i ĠjÃŃĠ
dÇİo ĠdÃłn
zhuÄģng ĠyÇĴuĠ
mÃ¬ ĠxÄ«ĠxÄ«Ġ
ver Ġ
ĠdeĠ wÃ¨nĠtÃŃĠ
zhÃ¬Ġ zÃłoĠ
ĠlÃ¬Ġ jÄ«ngĠ
ĠdÃłĠ liÃłngĠdeĠ
ĠjÅ«n ĠgÅįngĠ
ĠwÃ©iĠ yÄ«ĠdeĠ
bÇİoĠ xiÇİn
cÃ¬Ġ ziĠ
sÃ¬Ġ yuÃłnĠ
jiÇİnĠ pÇĶĠ
jÇĲngĠ bÃłoĠ
cÃŃĠ shÃłn
ĠhuÃ²ĠdÃ© ĠyÄ«ĠmÃ©iĠ
mÃ¨ngĠjiÄģĠ lÄģ
Ġ wÃłngĠ
Ġ kÄĽĠnÃ©ngĠshÃ¬Ġ
shÃłng ĠyÇĶĠ
dÃ¹ ĠshÃ¬Ġ
shÄģn ĠhÃ©Ġ
biÃłn ĠlÃ¬Ġ
huÃ¡ng ĠhÃ©Ġ
chuÄģn ĠzhÃ¹Ġ
mÄģ ĠzÇĶĠ
ĠdeĠ Ã©rĠziĠ
ĠyÃ¬Ġ tÃŃĠ
ĠyÇĲ ĠgÅįngĠ
ĠyÄ«Ġ xÃ¬ĠliÃ¨Ġ
ĠtÄģĠ yÄĽĠshÃ¬Ġ
ĠchÅ«Ġ shÄĵngĠzÃłiĠ
lÃ¹Ġ kÇĴuĠ
ĠjÅ«nĠ tuÃ¡n
zÃ©Ġ rÃ¨n
zÄ«Ġ jÄ«n
cÄģnĠ kÇİo
quÃ¨Ġ bÇİo
gÇİnĠ qÃŃngĠ
ĠzhÇĲĠ yÃłoĠ
ĠbÇİoĠ luÃ³Ġ
biÃłnĠchÃ©ngĠ leĠ
gÃłoĠshÃ¬Ġ pÃ¡iĠ
Ġ bÃ¬
Ġ gÄĵĠqÇĶĠ
Ġ zÅįngĠjiÃłoĠ
ĠĠĠ a
ĠĠĠ ÃłiĠ
kÄĵ ĠjÃ¬nĠshÃ¬Ġ
liÃº ĠxÃŃngĠdeĠ
jiÃł ĠrÃ¬Ġ
ruÃ¬ ĠkÃ¨Ġ
ĠbÃ¹Ġ zÃº
ĠshÃŃĠ qÄ«ĠniÃ¡nĠ
sÄ«Ġ fÇİĠ
ĠjiÃłnĠ zhÃ¨ngĠ
ĠzhÅįuĠ biÄģn
yÃŃĠ jÅ«Ġ
qÃ¬Ġ guÄģnĠ
qiÄģnĠ wÇİngĠ
dÃŃĠ yÃłĠ
xiÃ¡Ġ zhÇİi
Ã¨Ġ tÃºĠ
shÄĽnĠ yÃ¡ngĠ
Ġ zhÃ¨n
Ġ tÃ¡o
Ġ yuÃłnĠ
qiÃ¡n ĠyÄ«Ġ
sÃłi ĠshÃ¬ĠzhÅįngĠ
zhÃ²ng ĠyÃ¬ĠyuÃ¡nĠ
yuÄĵ ĠkÃ¨Ġ
nÇļ ĠshÃ¬Ġ
mÇĶ ĠshÃ¬Ġ
ĠbÃ¹Ġ yÇĶĠ
xÄ«Ġ fÄģngĠ
ĠjÄ«Ġ qÃ¬Ġ
kÄģiĠ qÇĲĠ
fÄģĠ yÃ¡nĠ
ĠshÃ¨Ġ dÃ¬ngĠ
ĠxiÃłĠ xiÃ¡Ġ
jÇĲngĠ bÃło
zhÄĵngĠ qÇĶ
mÃłnĠ huÃł
zhuÄģnĠ kÄĵĠxuÃ©Ġ
ĠrÃ©nĠkÇĴuĠ pÇĶĠchÃ¡Ġ
ĠxÃ¬ngĠ biÃ©Ġ
zhÃłnĠzhÄĵng ĠzhÅįngĠ
ĠkÄĵ ĠÄĽrĠ
mÃ¡oĠzÃ©Ġ dÅįng
ĠjiÄĵĠwÃ¨iĠ lÃ¹ĠdÃ¬Ġ
ĠĠĠ zhÃłnĠhÃ²uĠ
yÇĴu ĠshÃ¬Ġ
yÃ³u ĠdeĠ
bÃ¨i ĠrÃ©nĠ
lÃŃn ĠshÃ¬Ġ
yÃ¡ng ĠjÄ«Ġ
mÇĶ ĠyÇĶĠ
na Ġ
ĠwÃ¨iĠ gÄģiĠ
ĠzÃłiĠ tÃ¡iĠwÄģnĠ
xiÃłngĠ liÃłngĠ
ĠtÃ³ng ĠniÃ¡nĠ9ĠyuÃ¨Ġ
tÃºĠ jÄ«ngĠ
zhÄĵngĠ qÃ¬Ġ
cÇİiĠ fÇİngĠ
pÃłiĠ qiÇİnĠ
suÃŃĠ zhe
ĠliÇİng ĠguÃ³Ġ
ĠÃło ĠdÃ¬ĠlÃ¬Ġ
ĠzÃłiĠzhÅįngĠguÃ³Ġ dÃłĠlÃ¹Ġ
wÃ¡ngĠchÃ¡o ĠdeĠ
Ġ 1981ĠniÃ¡nĠ
xiÃłn ĠzÃłiĠ
yÄĽ ĠshÄĵngĠ
dÄģng ĠdÃłiĠ
zhÇĴng ĠjiÄģĠ
qiÄģn ĠshÃ¬Ġ
dÇİ ĠjÃ¬nĠ
bÄĵi ĠdeĠ
xuÃłn Ġ
ĠshÃŃĠ shÃŃĠ
ĠyuÃ¨Ġ qÃ¬Ġ
ĠzhÄ« ĠyÃºĠ
ĠtÄģĠ cÃ³ngĠ
jiÃ©Ġ hÅ«n
ĠduÃ¬Ġ yÃ¬ngĠ
ĠjÃ¹Ġ fÄĵngĠ
yÇİnĠ huÃł
ĠwÃłnĠ mÄĽiĠyuÃ¡nĠdeĠ
zÃºĠqiÃºĠ liÃ¡nĠsÃłiĠ
ĠzÃłiĠcÇĲĠ qÄ«ĠjiÄģnĠ
yÃ³uĠxÃ¬ ĠzhÅįngĠ
lÇĲĠgÅįngĠ dÃłĠxuÃ©Ġ
ĠshÃ¬ĠshÃ¬ĠjiÃ¨ ĠshÃłngĠ
Ġ shuÅį
Ġ 88
Ġ 1948ĠniÃ¡nĠ
lÃ¡i ĠdÃ©Ġ
hÃ³ng ĠshÃŃĠzÃ¬Ġ
wÃ² ĠsÄ«Ġ
90 ĠniÃ¡nĠ
ĠwÃ¨iĠ rÃ¨ĠdÃłiĠ
ĠhÃ©Ġ mÇİĠ
duÃ¬Ġ fÄģngĠ
ĠwÃ©iĠ kÃ¨Ġ
kÇĴuĠ jÃ¬ngĠ
ĠrÃ¡n ĠÃ©rĠzÃłiĠ
huÃ¡Ġ xuÄĽĠ
cÃ¡iĠ dÃ¬ngĠ
dÃºĠ shÅ«Ġ
ĠguÃ²Ġ chÃ©ngĠzhÅįngĠ
ĠmÇİĠ dÄ«ngĠ
gÄĵngĠ huÃłn
ĠcÃ©ng ĠyÃºĠ
Ġ biÃ©Ġ
ĠĠĠ 2002ĠniÃ¡nĠ
jÃŃ ĠĠĠ
yÇĴu ĠbÃ¹ĠtÃ³ngĠdeĠ
duÃ¬ ĠchÃ©ngĠyuÃ¡nĠ
tÃłi ĠÄĽrĠ
gÇİn ĠdeĠ
rÃ©ng ĠshÃ¬Ġ
shÃ¹n ĠtiÄģnĠ
et ĠĠĠ
qÃº Ġ
dÃ¬Ġ sÄģnĠ
chÃ©ngĠ zhÃ¨nĠ
ĠyÄ«Ġ xuÃ©ĠyuÃłnĠ
ĠdÃłĠ yÇĶĠ
ĠjÄ«Ġ qÃ¬ĠrÃ©nĠ
fÃ¹Ġ zÃ¡Ġ
ĠzhÃ¨ngĠ dÇİngĠ
ĠtÃ³ng ĠniÃ¡nĠ11ĠyuÃ¨Ġ
zÄ«Ġ biÃ©
zÃºĠ gÃ²uĠdeĠ
yÇĲnĠ qÃŃng
ĠjiÃ©Ġ shÃ¹
chÇĶĠ lÇĲ
gÄģngĠ qÃŃn
suÃŃĠ zhÃ¹
ĠĠĠlÃ¬ĠshÇĲĠ yÃ¡nĠgÃ©Ġ
fÄģĠshÄĵngĠ hÃ²uĠ
pÃŃnĠ kÃ¹n
ĠdÃ¬ĠshÃŃĠ Ã¨rĠ
yÃºnĠnÃ¡nĠ shÄĽngĠ
Ġ pÃłoĠ
gÃ¨ ĠgÃ¨Ġ
fÃ¹ ĠbÃ¹Ġ
tÃłi ĠjÃŃĠ
ĠyuÃ¨Ġ qiÃºĠ
jÄ«ngĠ yÄ«ngĠ
jÄ«nĠ qÇĶĠ
ĠrÃ¨nĠ zhÃ¨ngĠ
nÇļĠ gÄĵĠshÇĴuĠ
jÃºĠ miÃłnĠ
ĠshÃ¬ĠjiÃ¨ ĠgÃ¨ĠdÃ¬Ġ
mÃ¨iĠ mÃ¨i
dÅįngĠjÄ«ngĠ dÅ«Ġ
ĠĠĠin ĠĠĠtheĠĠĠ
tÃ³uĠrÃ¹Ġ shÇĲĠyÃ²ngĠ
liÃ¡nĠsÃłi ĠqiÃºĠduÃ¬Ġ
ĠlÃ¬ĠfÇİĠ wÄĽiĠyuÃ¡nĠ
ĠjiÇĶ ĠyuÃ¨Ġ
ĠISTAT ĠdÃłiĠmÇİĠwÃ¨iĠ
Ġ 1955ĠniÃ¡nĠ
shÇĲ ĠsÄ«Ġ
fÄģ ĠyÄ«nĠ
xiÄģng ĠdÃłoĠ
xiÃłng ĠtÄģĠ
huÃŃ ĠfÃ¹Ġ
lÃºn ĠlÇĲĠ
yÃ¬Ġ bÄģnĠ
dÃłĠ dÅįngĠbÃ¹ĠdÃłĠqÅ«Ġ
ĠgÅįngĠ zhÃ²ng
ĠqÃŃ ĠdÃ¬Ġ
ĠhÃ²uĠ lÃ¡iĠdeĠ
guÄģnĠ yÄ«nĠ
yÃ¹Ġ shÇĲĠ
ĠbÃ¬ngĠ jiÄģngĠqÃŃĠ
kÄĽĠ fÄĵnĠwÃ©iĠ
bÄģĠ hÃ¨Ġ
dÇİngĠ wÄĽiĠ
qiÄģnĠ rÃ¹Ġ
ĠhÃ©ĠguÃ³Ġ jiÄģĠ
ĠniÃ¡nĠshÃ¬ĠjiÃ¨Ġ bÄĵiĠ
Ġ qiÃ³ng
ĠĠĠ yuÃ¨
ĠĠĠ zuÃ²Ġ
ĠĠĠ duÅįĠ
yÃ¹ ĠyÇĴuĠ
cÇĲ ĠyÄ«Ġ
shÄĽn ĠyÃ¬Ġ
ĠwÃ¨iĠ gÅįngĠ
ĠyuÃ¨Ġ dÃºĠ
diÃłnĠ rÃ³ngĠ
hÇİiĠ wÃłi
ĠbÄĽnĠ tÇĶ
xiÄģnĠ fÄģĠ
ĠrÃºĠ jÄ«nĠ
ĠzuÃ¬Ġ hÃ²u
shÇİnĠxÄ«Ġ shÄĽngĠ
jiÄģĠlÃ¬ĠfÃºĠ nÃŃĠyÃł
Ġ guÇİngĠzhÅįuĠ
huÃ¬ ĠchÃ©ngĠyuÃ¡nĠ
shÃ¨ ĠjÄ«Ġ
jiÃło ĠyÃ¬Ġ
jÄ«n ĠzhÅįngĠ
ĠdeĠ shÃ¨ĠjÃ¬Ġ
ĠzÃłiĠ bÄĽiĠjÄ«ngĠ
jÃ¬Ġ hÃ²uĠ
ĠyÇĶĠ lÇĲĠ
dÃłiĠ lÃ¡iĠdeĠ
diÃłnĠ lÃ¹Ġ
nÃ©ngĠ lÃ¬ĠdeĠ
biÄģnĠ fÃºĠ
sÄģiĠ bÃłi
shÄĽnĠ pÃłn
kÄĵĠjÃ¬Ġ dÃłĠxuÃ©Ġ
Ġ qiÃ¡o
jÃ¹ ĠrÃ©nĠ
pÃŃng ĠxÄ«Ġ
fÃº ĠkÃ¨Ġ
fÇİng ĠzhÄ«Ġ
ĠniÃ¡nĠ shÃ¨ĠlÃ¬Ġ
ĠshÃŃĠ zÃ¬
chÃ©ngĠ rÃ¨nĠ
ĠzhÄ«Ġ nÇļĠ
jÄ«ngĠ fÃ¨iĠ
lÃ¡iĠ wÇİngĠ
ĠbÃ¬ngĠ xiÃłngĠ
ĠkÃ¨Ġ lÇĶĠ
ĠshÃłngĠ shÄĵngĠ
guÄ«Ġ gÃ©Ġ
lÇľĠ shÄ«
fÃłnĠ diÃłnĠ
ĠshÃ¬ĠyÄ«ĠkÄĵĠ hÃ©ngĠxÄ«ngĠ
mÃ³ĠtÃ¨ ĠÃ©rĠ
Ġ lÃ¨Ġ
Ġ 1947ĠniÃ¡nĠ
huÃł ĠxiÃłnĠ
pÃŃng ĠjÃŃĠ
fÇİ ĠhÃ©Ġ
10 ĠgÃ¨Ġ
rÃłng ĠrÃ©nĠ
lÃ¬Ġ ziĠ
zhÇĶĠ guÇİnĠ
qÇĲĠ fÄģĠ
ĠqÃŃĠzhÅįngĠ bÄģoĠkuÃ²
hÃ¡nĠ gÃłiĠ
bÇĶĠ rÇĶ
ĠjiÄĵĠ zhÃ¹Ġ
ĠbÅįĠ luÃ³Ġ
niÇĶĠyuÄĵ ĠshÃ¬Ġ
Ġ xÇĲ
Ġ zhÇĶnĠbÃ¨iĠ
ĠĠĠ qÃ¬ĠhÃ²uĠ
zuÃ² ĠhÃ©Ġ
nÃ¡n ĠzhÃ¬Ġ
dÃ¡ ĠhÃ©Ġ
2026 ĠniÃ¡nĠ
ĠshÃ¬Ġ jiÄģngĠ
zhÃ¬Ġ liÃ¡oĠ
ĠrÃ©nĠ shÃ¹
ĠgÅįngĠ guÃ³Ġ
ĠyÄ«Ġ lÇİngĠ
yuÄĵĠ 1
gÃ²uĠ wÃ¹Ġ
rÃ¨Ġ mÃ©nĠ
ĠfÃº ĠlÇĲĠ
ĠdÃ¬ĠÃ¨r ĠgÃ¨Ġ
ĠyÃłĠ mÄĽiĠ
Ġ jÃ¬ng
Ġ tÃ³u
Ġ huÃ³ĠdÃ²ngĠ
Ġ zhÄĵngĠyuÃ¨Ġ
Ã¡i Ġ
shÃłng ĠyÇĲĠ
dÅįu ĠyÇĲĠ
dÅįu ĠyÃ¹ĠshÇĲĠ
zÃłn ĠchÃ©ngĠ
ĠrÃ©nĠ sÇĲĠwÃ¡ngĠ
ĠxiÃłn ĠlÃ¬Ġ
ĠdÃłn ĠzhÃ¨Ġ
wÃ©nĠ bÄĽnĠ
ĠdÃłiĠ lÇĲngĠ
yuÃłnĠ xiÃłoĠ
tiÃ¡nĠ xÃ¬nĠ
sÃłĠ zhÅ«Ġ
jiÃłnĠzhÃ¹Ġ wÃ¹Ġ
gÄĵĠqÇĶ ĠdeĠ
mÃ¹ĠnÃŃĠ hÄĵiĠ
ĠqÄ«ĠxÄ«Ġ shÄĵnĠdÃ¹Ġ
Ġ 1983
Ġ 1937ĠniÃ¡nĠ
Ġ 1946ĠniÃ¡nĠ
jiÄģ ĠshÃŃĠ
bÃ¨i ĠbÃ¹Ġ
jÃ¬n ĠchÃ©ngĠ
huÃ¡ ĠyÇĶĠ
diÇİn ĠwÃ¨iĠyÃºĠ
shÄģ ĠleĠ
lÇĶ ĠjÃŃĠ
style Ġ
ĠdÃłoĠ guÄģngĠ
qÄ«Ġ kÄģnĠ
dÃ²ngĠ wÃ¹ĠdeĠ
dÅįngĠ bÃ¹ĠdeĠ
juÃ©Ġ cÃ¨Ġ
bÇĲĠ cÇĲĠ
lÃŃnĠ nÃłĠ
xuÇİnĠ piÃłoĠ
biÃłnĠ gÄĵng
ĠxiÃłngĠ zhÄĵngĠ
pÃ¡iĠ hÃ¡ng
ĠdeĠyÄ«Ġ zhÇĴng
shÄĽnĠ chÃ¡
miÃ¡oĠshÃ¹Ġ leĠ
ĠfÄĵi ĠlÃ¬Ġ
ĠliÃ¹ ĠyuÃ¨Ġ
jÅ«n ĠrÃ©nĠ
shÄ« ĠlÃ¬Ġ
wÃłi ĠxÃŃngĠ
zÄ« ĠdeĠ
tuÇĲ Ġ
ĠshÃ¬Ġ dÃłiĠ
ĠshÃ¬Ġ rÃ¬ĠbÄĽn
ĠjÃ¬Ġ zhÄĽĠhuÃ¬Ġ
ĠdÃ© ĠyÃ¬Ġ
gÄģoĠ fÄĵngĠ
qÄ«ngĠ hÇİiĠ
biÄģnĠ jÃ¬ng
xiÄĵĠ gÄĵn
chÅįngĠ fÃ¨nĠ
duÃ³Ġ guÃłnĠ
ĠwÃº ĠrÃ©nĠ
zhÃłnĠdÃ²u ĠjÄ«Ġ
chuÃłngĠbÃłn ĠrÃ©nĠ
Ġ 1988
qÅ« ĠyÃºĠ
qÅ« ĠyÃ¬Ġ
jÇĲ ĠnÃ¡nĠ
shÄĽng ĠzhÃ¨ngĠ
qÄ«n ĠshÃŃĠ
48 Ġ
ke Ġ
ler Ġ
xÄ«nĠ shÄĵngĠ
lÃ¹Ġ yÇĲngĠ
jÄ«ngĠ tÇĲĠ
jiÃłoĠ xiÇİoĠ
liÇİngĠ cÃ¬
shÃ¨Ġ dÃ¬ngĠ
Ġ1 ĠĠĠ
ĠxÃŃngĠzhÃ¨ng ĠzhÅįngĠxÄ«n
Ġ liÇĶ
zuÃ² ĠyÇĴuĠ
shÃłng ĠhÃ©Ġ
shÇĴu ĠbÃ¨iĠ
zhÇİng ĠlÇĲĠ
sÄģn ĠguÃ³Ġ
yuÃłn ĠhÃ©Ġ
bÇİo ĠshÃ¬Ġ
jiÃ¹ ĠyÇĲĠ
mÃ©ng ĠyÇĴuĠ
zhÄĽn ĠduÃłnĠ
chÃ¡i ĠyÃ³uĠ
shÃŃĠ dÃłiĠ
ĠgÅįngĠ jÄ«n
ĠgÅįngĠ bÃ¹ĠdeĠ
ĠchÃ©ngĠ qiÃ¡ngĠ
ĠyuÃ¡nĠ lÃ¡iĠdeĠ
ĠzhÃłnĠ lÃ¼Ã¨Ġ
jiÄĵĠ qÅ«Ġ
shÃ©nĠ jÄ«ng
ĠbÃ¬Ġ yÃ¨ĠhÃ²uĠ
ĠgÄģiĠshÄĽngĠfÃ¨nĠwÃ¨iĠfÇİĠguÃ³Ġ bÄĽiĠbÃ¹Ġ
huÃ¡ĠshÃ¨ngĠ dÃ¹nĠ
sÄģiĠÄĽrĠwÃ©iĠ yÃł
guÃ³ĠdeĠtÃ¨ĠyÇĴuĠ zhÃŃĠwÃ¹Ġ
Ġ fÇĶ
Ġ gÃłn
Ãłi ĠhÃ©Ġ
yÄ« ĠzÃłiĠ
lÇĲ ĠyÇĴuĠ
xÄ«n ĠhÃ©Ġ
kÄĽ ĠxÃŃngĠ
bÃłi ĠdeĠ
yÇĴng ĠshÃ¬Ġ
zÄģo ĠdÃło
ĠbÃ¨iĠ pÃłnĠ
jiÃłoĠ gÄģoĠdeĠ
fÄģĠ yÃ¹Ġ
ĠxÄ«nĠ wÃ©n
zÃºĠ zÇĴngĠ
bÄģnĠ diÇİnĠ
lÃ¹nĠ shÃ¹Ġ
shÇİoĠ liÃłngĠ
tuÄ«Ġ fÄģnĠ
niÃ¨Ġ cÃŃ
ĠshÄĵngĠhuÃ³ ĠzÃłiĠ
Ġ 68
ĠĠĠ h
gÄģi ĠdÃ¬ĠqÅ«Ġ
nuÃ² ĠbÃ¨iĠÄĽrĠ
ĠyuÃ¡nĠ xÃŃng
ĠÃ©r ĠyÇĴuĠ
ĠzhÅįu ĠguÃ³Ġ
yÃ¡nĠ lÃ¹n
fÄĵnĠ shÃ¹Ġ
jiÃ¨Ġ miÃłnĠ
xiÇİoĠ xiÃłngĠ
suÃŃĠ zheĠ
ĠzhÃŃĠ jÃ¬ngĠ
ĠsÄģn ĠguÃ³Ġ
ĠbÄģ ĠxÄ«Ġ
rÇİnĠ sÃ¨Ġ
Ġ guÇĴĠ
xÄ«n ĠxÄ«ĠlÃ¡nĠ
Ã©r ĠchÃ©ngĠ
nÃ¨i ĠhÃ©Ġ
nÃŃng ĠxiÃłnĠ
ĠdeĠ pÃŃngĠ
ĠzÃłiĠ xiÃłĠ
ĠdÃ¬Ġ chÇĶĠ
ĠyÃ¬Ġ miÃ¡o
shÄĵngĠ xiÃłoĠ
ĠjÄ«Ġ dÃ²ngĠ
yÃ¡nĠ hÇİi
liÃ¡nĠ bÅįĠ
bÄĽiĠ kÇİĠluÃ³ĠlÃ¡iĠnÃł
ĠshÄĵngĠ mÃ¬ng
ĠdÃłnĠ bÃ¡i
qÄ«ngĠ chÃ¡o
pÃ¡iĠ fÃłngĠ
xiÃłnĠ chÇİngĠ
ĠdÅįngĠ lÃŃn
ĠO Ġ
diÃłnĠzÇĲ ĠyÃ³uĠxÃ¬Ġ
guÇİnĠkÃ²ng ĠzhÅįngĠfÄģĠxiÃłnĠ
Ġ fÃ¨nĠ
Ġ 1952ĠniÃ¡nĠ
ĠĠĠ shÃ¨ĠhuÃ¬Ġ
ĠĠĠ 2024ĠniÃ¡nĠ
dÃło ĠdÃ©Ġ
wÃłi ĠjÃŃĠ
yÃ¹n ĠdeĠ
fÇİn ĠgÅįngĠ
shÄģng ĠhuÃ¬Ġ
qÃŃng ĠrÃ©nĠ
dÄĵng ĠjÄ«Ġ
cÃ¹ Ġ
align Ġ
dÃłĠ chÃ©nĠ
ĠxÃŃng ĠzhÃ¬Ġ
ĠkÃ¨Ġ lÃºnĠ
ĠzhÃ¹Ġ mÃŃngĠdeĠ
xÃŃngĠ dÃ²ng
bÃłnĠshÃ¬Ġ chÃ¹
Ġ g
Ġ guÄ«
Ġ Be
Ġ Ð½
ĠĠĠ Ar
ĠĠĠ 2000ĠniÃ¡nĠ
yÇĴu ĠbÃ¹ĠfÃ¨nĠ
pÃŃng ĠxÃŃngĠ
xiÃłng ĠyÇĶĠ
mÃŃn ĠshÃ¬Ġ
mÃ©i ĠlÃ¬Ġ
huÇİn ĠmÃłnĠ
ay Ġ
ĠbÃ¹Ġ shÇĶĠ
ĠshÃŃĠ chÃ¡ngĠ
ĠdÃłĠ jiÄģngĠjÅ«nĠ
zÃ¬Ġ zhÇĶĠ
ĠzhÃłnĠ yÃ¬ĠzhÅįngĠ
ĠtÃ³ng ĠbÃ¹Ġ
ĠxuÃ©Ġ shÄĵng
sÃ¨Ġ qÃŃngĠ
jiÇİnĠ cÃ¨
zhÄĵngĠ duÃ³
zhÄĵngĠ lÃ¹nĠ
zhuÄģnĠ zhÃ¹ĠyÃºĠ
xÃºnĠ luÃ³Ġ
ĠqiÃ¡nĠ wÇİng
diÃłnĠyÇĲng ĠzhÅįngĠ
ĠjÃŃĠtuÃ¡n ĠyÇĴuĠxiÃłnĠgÅįngĠsÄ«Ġ
luÃ³ĠmÇİĠ nÃŃĠyÃłĠ
ĠyÇĶĠmÃ¡o ĠqiÃºĠ
le ĠtÄģ
zhÃ¨ng ĠhÃ©Ġ
biÃłn ĠxÃŃngĠ
zÃ©i Ġ
ĠshÃ¬Ġ xiÄģngĠgÇİng
ĠshÃ¬Ġ dÄģngĠdÃ¬Ġ
ĠzÃłiĠ kÃ¨Ġ
ĠchÃ©ngĠ yuÃ¡nĠdeĠ
ĠdÃłĠ zÃ¬Ġ
zhÃ¹Ġ fÃ¡ngĠ
shÇĴuĠ fÇİĠ
yÃ¨Ġ wÃ¹
liÇİngĠ zhÄĽĠ
jiÃłĠ shÇĲ
hÃ¡iĠ zi
zhÄĵnĠ chÃ¡
ĠwÃłnĠ yÄ«ngĠ
ĠbÃ¬Ġ xÅ«
ĠdeĠbÃ¹Ġ tÃ³ngĠ
ĠshÄĵnĠ dÃ¹Ġ
shÅįuĠlÃ¹Ġ leĠ
mÇİ ĠdÃ©ĠlÇĲĠ
hÃ¹ ĠdeĠ
pÃ³ Ġ
qiÄģo ĠchÅ«Ġ
ĠzÃłiĠ bÄģĠ
ĠyÃ¬Ġ lÃ¬Ġ
zhÇĶĠ zhÄģng
ĠjiÃłnĠ zÃłoĠdeĠ
ĠquÃ¡n ĠqiÃº
juÃ©Ġ xÄ«nĠ
kÄĽĠ yÃ²ngĠyÃºĠ
liÇİngĠ cÃ¨
lÃºĠ wÇİĠ
xuÄģnĠ chÄĵng
ĠshÃ¨ĠjÃ¬Ġ shÄ«Ġ
xÇĲĠ ÃłiĠ
2010ĠniÃ¡nĠ mÄĽiĠguÃ³ĠrÃ©nĠkÇĴuĠpÇĶĠchÃ¡Ġ
ĠguÃ³ĠjiÄģ ĠjÃŃĠ
ĠwÃ¨iĠzhÅįngĠ xÄ«nĠ
ĠchÃ¡oĠ tÃŃngĠ
zhÇĶĠtÃŃĠ qÅ«Ġ
ĠmÃŃn ĠjÃŃĠ
jÇĲĠnÃ¨iĠ yÃłĠ
Ġ guÇĲ
chÃ¡ ĠsÄ«Ġ
yÃ¡n ĠhÃ©Ġ
qÇĲ ĠchÅ«Ġ
wÇĶ ĠrÃ©nĠ
luÃ³ ĠdeĠ
SA Ġ
ĠzhÅįngĠ xuÃ©
ĠrÃ©nĠ lÃ¨iĠdeĠ
ĠsÄ«Ġ tÇİ
ĠjÄ«Ġ qiÄģngĠ
ĠxÄ«Ġ dÃ©Ġ
ĠbÃ¬ngĠ kÄģiĠshÇĲĠ
zhÇĲĠ lÃ¬ngĠ
gÇĶĠ dÃłi
ĠzhÅįngĠguÃ³Ġ guÃ³ĠjiÄģĠ
kÄĽĠyÇĲĠ yÃ²ngĠ
tÇİoĠ fÃ¡Ġ
ĠdeĠlÃ¬Ġ shÇĲ
zhÄĽnĠ duÃłn
Ġ xÇĶ
Ġ 99
duÅį ĠjiÄģĠ
qÄ«ng ĠxÄ«Ġ
bÃ³ ĠkÃ¨Ġ
zhÄĽng ĠshÃ¹Ġ
1902 ĠniÃ¡nĠ
ĠdeĠ wÃ¨iĠzhÃ¬Ġ
ĠshÃ¬Ġ tÃº
ĠshÃ¬Ġ hÃ¡nĠguÃ³Ġ
ĠbÃ¹Ġ yÃ¬Ġ
ĠshÃŃĠ Ã¨r
jiÄģĠ qiÃ¡ngĠ
xiÄģngĠ liÃ¡nĠ
ĠmÃŃngĠ dÄģn
kÄģiĠ bÅįĠ
zhÇĲĠ biÄģoĠ
wÃłiĠ jiÃ¨
ĠjÃ¹Ġ qÃ¬ngĠxiÃłĠ
liÃ¨Ġ biÇİo
zhÄĵnĠ duÃ¬
ĠwÃłnĠ zhÄģngĠ
Ġ2 ĠĠĠ
guÇĲĠdÃłoĠ jiÄģoĠtÅįngĠ
xÄ«nĠlÇĲĠ xuÃ©Ġ
ĠwÃ¨iĠfÃºĠqÃŃĠyÃºĠgÄģngĠ lÃºĠxÃŃngĠmÃ¹Ġ
ĠpÃºĠtÃ¡oĠyÃ¡ ĠyÇĶĠ
Ġ 1982
shÃłng ĠzÃłiĠ
shÇĲ ĠqÃŃĠ
zhÃ²ng ĠxÃŃngĠ
sÃ¨ ĠhuÃ²Ġ
kÅ«n ĠchÃ³ngĠ
der Ġ
ĠhÃ©Ġ zhÅįngĠguÃ³Ġ
ĠbÃ¹Ġ xiÃ¡ngĠ
ĠzhÃ¬Ġ piÃłnĠ
ĠyÃ¬Ġ chÃ¡ngĠ
wÃ©iĠ hÃ¹Ġ
ĠjÄ«Ġ guÄģn
dÅįngĠ lÃ¹Ġ
ĠleĠ duÃ¬Ġ
mÄĽiĠ guÃ³ĠhÃ©Ġ
ĠnÃ¡nĠ fÄģngĠ
lÃŃngĠ mÃ¹Ġ
fÃ¨iĠ chÃº
huÃ¡nĠ bÇİoĠ
ĠqiÃ¡nĠ lÃ³ng
kÇİoĠlÇľ ĠdÃłoĠ
Ġ chuÃ¡n
Ġ xiÃ¹Ġ
Ġ jÇĶĠxÃŃngĠ
Ġ zhÃºĠ
ĠĠĠ fÇİnĠ
gÅįng ĠwÃ¨iĠ
jÃ¬n ĠdÃłiĠ
yÃ¡n ĠshÃ¬Ġ
yÇĲng ĠjÃŃĠ
nÇļ ĠdeĠ
mÃ©n ĠshÃ¬Ġ
tiÃ¡o ĠjiÃłn
gÃ¹ ĠdeĠ
sÇĲ ĠdeĠ
ĠshÃŃĠ shÃłngĠ
ĠdÃ¬Ġ 2
ĠhÃ²uĠ yÄ«nĠ
ĠxÄ«Ġ lÃ¡n
ĠmÃŃngĠ chÃ¡o
jiÃłoĠ duÅįĠ
fÄĵnĠ liÃ¨
fÃºĠ tÃ¨Ġ
wÄĽiĠ tuÅį
jiÃłnĠ zÃło
quÃ¡nĠ wÄĵiĠ
xÃºnĠ huÃ¡n
leĠyÄ«Ġ xiÄĵ
dÃ²uĠ zhÄĵng
ĠqÅ«Ġ yÃ¹Ġ
zhÅ«ĠlÃ³ngĠ cÇİo
Ġ xiÇİn
xiÃł ĠxÃŃngĠ
zhÃ¹ ĠgÅįngĠ
tÃ¨ ĠzhÃ¬Ġ
jiÄĵ ĠyÇĴuĠ
tÇĲ ĠzhÅįngĠ
cÃ¬ ĠrÃ¬Ġ
shÃ²u ĠleĠ
bÃłn ĠxuÃ©Ġ
12 ĠgÃ¨Ġ
xÃŃ ĠdeĠ
fÃ¡ng ĠdeĠ
ly Ġ
ĠyÃºĠ zhÅįngĠ
ĠyÄ«Ġ shÇĴuĠ
hÃ²uĠ lÃ¡i
ĠdÃłĠ mÃŃngĠ
jÃ¹Ġ chÇİngĠ
jiÃłoĠ xiÇİoĠdeĠ
diÃłnĠ chÄĵ
tÇĲĠ nÃ¨iĠ
mÄĽiĠguÃ³Ġ guÃ³ĠjiÄģĠ
bÅįĠ luÃ³ĠdÃ¬Ġ
ĠzhÅįngĠguÃ³Ġ dÃłĠlÃ¹
lÃŃngĠ shÃ²uĠ
huÃ²Ġ shÃ¨ngĠ
ĠdeĠshÃ¬Ġ lÃ¬Ġ
qÅ«ĠdeĠ yÃŃĠgÃ¨Ġ
Ã©rĠ yÃ¡nĠ
huÃ¡nĠxÃŃngĠ shÄģnĠ
hÇİoĠlÃ¡iĠ wÃ¹Ġ
5 ĠmÃŃngĠ
9 ĠgÃ¨Ġ
Ġ gÄģn
Ġ re
Ġ 1970ĠniÃ¡nĠ
sÄ« ĠyÇĴuĠ
gÄģo ĠjiÄģĠ
guÄ« ĠdeĠ
sÅ« ĠzhÅįuĠ
zÅįng ĠzuÃ²Ġ
tÇİn ĠkÃ¨
70 ĠniÃ¡nĠ
36 Ġ
ĠxÄ«Ġ shÅįuĠ
ĠzhÄ«Ġ yÄ«ĠdeĠ
ĠbÃ¨iĠ rÃ¨nĠwÃ©i
dÃ¬ngĠ lÇľĠ
qÃ¬Ġ xuÃ¡n
ĠzÃ¬Ġ shÄģĠ
jiÇĶĠ jÄ«ngĠ
xÃºnĠ yÇİnĠ
tiÄĽĠlÃ¹Ġ jÃºĠ
wÃ©nĠhuÃłĠ yÃŃĠchÇİnĠ
mÃŃnĠzhÇĶĠ zhÇĶĠyÃ¬Ġ
wÄĵnĠ gÄĵĠ
chÃ©ngĠlÃ¬Ġ yÃºĠ
pÃ¡iĠhÃ¡ngĠ bÇİngĠ
yÇĶnĠshÃŃĠ kÄĵngĠ
yÅįuĠxiÃ¹ ĠdeĠ
ĠgÄģiĠwÃ¹ĠzhÇĴngĠdeĠ mÃ³ĠshÃ¬ĠchÇİnĠ
Ġ Me
Ġ iĠ
Ãło ĠlÃ¬Ġ
mÃ¹ ĠhÃ²uĠ
dÄģn ĠrÃ©nĠ
zhÃło ĠjÃŃĠ
guÃłn ĠjÅ«nĠdeĠ
sÄģi ĠsÄ«Ġ
gÃłi ĠleĠ
21 ĠshÃ¬ĠjÃ¬Ġ
ĠwÃ¨iĠ jÄ«ĠchÇĶĠ
ĠyÃ¬Ġ bÇİiĠ
fÄģngĠ zhÄĵnĠ
diÃłnĠ dÃ²ngĠ
ĠqÃŃĠ bÄ«ng
gÃ©Ġ lÄĵiĠ
ÄģnĠ fÇĶĠ
yÇĲngĠ zhÇİnĠ
shuÇĲĠ zhÇĶnĠ
cÄģnĠ mÃ³uĠ
xiÃłnĠ dÃłi
jÅ«Ġ bÇĶĠ
zhuÇİnĠ bÅįĠ
ĠbÅįĠ lÃ¡nĠ
ĠzhÃłnĠzhÄĵng ĠzhÅįngĠ
shÃ²uĠhuÄģnĠ yÃŃngĠdeĠ
Ġ yÇİnĠyuÃ¡nĠ
Ġ bÅįĠchÅ«Ġ
Ġ rÃ©ngĠ
xiÃłng ĠqÃŃĠ
lÄģ ĠlÃ¬Ġ
sÃ¬ ĠgÃ¨
pÃ² ĠleĠ
miÃ¨ ĠwÃ¡ngĠ
shÇĲĠ guÇİnĠ
guÄģnĠ bÃ¬
jÄ«ngĠ diÇİn
suÇĴĠ ÄĵnĠ
bÄĽiĠ lÃ¹Ġ
gÃ©Ġ lÃŃ
ĠzuÃ²Ġ leĠ
yÃłĠ zhÇĴngĠ
fÄĵngĠ miÃłnĠ
sÄģnĠ shÃŃĠniÃ¡nĠ
fÄĵiĠ jÄ«
ĠdÃ¬ĠÃ¨rĠ cÃ¬ĠshÃ¬ĠjiÃ¨ĠdÃłĠzhÃłnĠ
ĠzhÅįngĠshÃ¬Ġ yÇİnĠ
ĠĠĠbÄĽn ĠyÃºĠ
Ġ chÃ¡o
Ġ bÃłoĠdÃłoĠ
ĠĠĠ fÄģĠxÃŃngĠ
biÃłn ĠdÃ©
yÄĵ ĠsÅ«Ġ
ine Ġ
suÇĴĠ mÇĶĠ
shÄģnĠ chÃºĠ
qÄ«ngĠ huÃ¡ĠdÃłĠxuÃ©Ġ
yÄ«ngĠ chÄģo
ĠxiÄģngĠ xÃ¬nĠ
shÄģĠ hÃłi
qiÄģnĠ xÇĲ
guÄģngĠ xÃ¹
gÃ¹Ġ dÃ¬ng
zhÃ¨ngĠfÇĶ ĠzÃłiĠ
ĠzhÇĲ ĠdeĠshÃ¬Ġ
Ġ zÃłi
qÄ« ĠgÃ¨Ġ
xuÃ© ĠlÃ¬Ġ
wÃ©n ĠjÃŃĠ
jiÄĵ ĠdÃło
zhÃ²ng ĠzhÃ¬Ġ
yÃłn ĠdeĠ
ĠwÃ¨iĠ qÃŃ
ĠdÃ¬Ġ 4Ġ
ĠyÃºĠ 2025
ĠlÃ¬Ġ ÄģnĠ
jÄ«Ġ gÃ²u
jÄ«Ġ hÅ«
ĠdÃłĠ jÅ«nĠ
ĠyÇĶĠ qiÃ¡nĠ
ĠjÃ¬Ġ rÃ¨nĠ
fÃ¹Ġ shÇĶ
jÃ¹Ġ diÇİnĠ
huÃłĠ xuÃ©
zhÃ¨Ġ yÃłng
ĠfÃ¹Ġ nÇļĠ
ĠshÃ¨Ġ lÃ¬ĠdeĠ
ĠdÃłnĠ yÃłoĠ
sÃ¬Ġ hÅ«Ġ
wÄĵiĠ bÃ³Ġ
ĠgÅįngĠzuÃ²Ġ zhÄĽĠ
hÇİiĠjÅ«nĠ lÃ¹ĠzhÃłnĠ
ĠwÃ¨iĠdÃ¬Ġ yÄ«Ġ
ĠgÃ²ng ĠjÃ¬Ġ
ĠzhÅįngĠguÃ³ĠguÃ³ĠmÃŃnĠ dÇİngĠ
Ġ Di
hÃ²u ĠjÃŃĠ
fÃ¹ ĠyuÃ¡nĠ
jiÄģng ĠxiÃłnĠ
xiÅ« ĠshÃ¬Ġ
jiÃłng ĠzhÃ¬Ġ
to Ġ
xÅ«n ĠzhÄģng
qiÄģo Ġ
ĠzhÅįngĠ jiÃ©Ġ
ĠshÃŃĠ bÄģĠniÃ¡nĠ
ĠzhÃ¬Ġ huÃ¬Ġ
jiÄģĠ mÃ©ngĠ
ĠyÄ«Ġ hÃłoĠ
zhÃ¨ngĠ wÃ¹Ġ
ĠhuÃ¬Ġ huÃłĠ
suÇĴĠ xiÃ¡
mÇİĠ chÇİngĠ
mÇİĠ ÄĵnĠshÄĽngĠ
jiÃ¹Ġ kÄĽĠyÇĲĠ
zÃºĠ qÃºn
kÅįngĠ tiÃ¡oĠ
ĠyÄ«ngĠ cÃ¹nĠ
guÇİngĠbÅįĠ diÃłnĠshÃ¬Ġ
ĠĠĠtÄģ ĠzÃłiĠ
diÃłnĠqÃ¬Ġ huÃłĠ
Ġ d
Ġ ãĤĵ
Ġ guÄ«ĠdÃ¬ngĠ
le ĠdÃłĠliÃłngĠ
zhÇĲ ĠwÃ¨iĠ
dÄĽng ĠzhÃłnĠ
dÃ¡ ĠdÃłoĠleĠ
lÃºn ĠduÅįĠ
ĠzhÃ¬Ġ lÇĲĠ
pÃŃngĠ gÅ«
diÃłnĠ xÃ¬nĠ
hÇİiĠ dÇĲĠ
ĠdÃłiĠ wÃ©iĠ
bÃłoĠ dÃ²ngĠ
mÃ©iĠ tÇĲĠdeĠ
fÄģnĠ chuÃ¡nĠ
yÅįngĠ yÇĴuĠdeĠ
bÃ¬ĠyÃ¨Ġ shÄĵngĠ
Ġ b
Ġ chÃ¬
Ġ 1986
Ġ tuÄ«ĠchÅ«Ġ
Ġ pÄģnĠ
Ġ 1954ĠniÃ¡nĠ
ĠĠĠ Ra
zhÄ« ĠxiÃłĠ
bÃ³ ĠlÃ¬ĠyÃłĠ
cÇİi ĠjÃŃĠ
ol Ġ
zÃ²ng ĠduÃ¬Ġ
ĠyÄ«Ġ yÄ«Ġ
ĠjÅ«n ĠhÃ©Ġ
xÄ«nĠ zhÃº
qÇĲĠ huÃłĠ
ĠxiÃłĠ jiÃłngĠ
ĠzhÃ¹Ġ zuÃ²Ġ
liÇİngĠ cÃ©ngĠ
luÃ²Ġ fÅ«Ġ
lÃ¬ngĠ wÃłi
ĠjÄ«ngĠ guÃ²
jiÇİĠ zÇĶĠ
dÇĲĠ kÃłng
ĠniÃ¡nĠ11ĠyuÃ¨Ġ 1ĠrÃ¬Ġ
juÄģnĠ zÃ¨ngĠ
ĠbiÄģn ĠhÃłoĠ
Ġ xiÃ¡ng
Ġ John
Åįu ĠzhÅįuĠdeĠ
qÃŃ ĠtÄģĠdeĠ
liÃ¡n ĠsÄ«Ġ
zhÇĲ ĠdeĠshÃ¬Ġ
zhÃ²ng ĠlÃ¬Ġ
bÃło ĠdeĠ
huÃ¡ ĠwÃ¨iĠ
cÃ³ng ĠzhÅįngĠ
00 Ġ
jiÄĽ ĠdeĠ
gÄĽi ĠchÅ«Ġ
chÃłng ĠyÃ¬Ġ
qiÄģng ĠjÄ«Ġ
ps Ġ
ĠrÃ©nĠ yÃ¬Ġ
ĠrÃ©nĠ cÃ¡iĠ
ĠÃ©r ĠwÃ¨iĠ
fÄĵnĠ fÄĵnĠ
ĠshÃłngĠ wÇĶĠ
sÃłiĠ shÃ¬ĠdeĠ
tÃłiĠ luÃ³Ġ
dÇİoĠ zhÃ¬ĠdeĠ
kÇİoĠ rÃ¹Ġ
dÃ¹nĠ niÃ¨ĠcÃŃ
yÇĲnĠqÇĲ ĠdeĠ
Ġ xuÄĽĠ
ĠĠĠ bÃ¡iĠ
lÃ¹ ĠdÃ©Ġ
nÃ¡n ĠdÃłoĠ
pÇĶ ĠlÃ¬Ġ
zÅįng ĠshÃ¬Ġ
dÇĲng ĠbÃ¹Ġ
III Ġ
Î² Ġ
ĠzÃłiĠ dÅįngĠ
lÃ¬Ġ yÃ¬Ġ
ĠshÃŃĠ yÃºĠ
duÃ¬Ġ yÃ¬ngĠ
ĠjiÄģĠ mÃ©ng
fÄģĠ dÃ¡Ġ
ĠduÃ¬Ġ kÃłngĠ
zhÄģngĠ dÄģnĠqÅ«Ġ
jÇĲnĠ cÃ¬ĠyÃºĠ
huÃ¡nĠ rÃło
kuÃ²Ġ zhÄģng
ĠhÃ³ngĠ sÃ¨Ġ
shuÃłiĠ xiÄģnĠ
Ġ Da
Ġ Si
Ġ 1938ĠniÃ¡nĠ
ĠĠĠ Y
zhÃłn ĠjÃŃĠ
zhÄģng ĠjiÄģĠ
mÃłi ĠkÃ¨ĠÄĽrĠ
zÇİo ĠyÃºĠ
lÇİo ĠhuÃ¬Ġ
47 Ġ
ĠbÃ¹Ġ xiÃłĠ
ĠbÃ¹Ġ lÇİngĠ
ĠdÃłĠ xuÇİnĠ
shÃłngĠ sÃ¹Ġ
pÃŃngĠ miÃłnĠ
nÃ¡nĠ xÃ¬ng
lÃ¹Ġ xÃ¹
ĠshÄĵngĠ yÃ¡
biÄģnĠ rÃ¹Ġ
wÄĵiĠ fÅ«Ġ
yÄĽĠ mÃ©iĠyÇĴuĠ
xÃŃngĠ zhÃ¨ng
ĠfÄĵnĠ lÃ¡nĠ
leĠyÄ«Ġ zhÇĴngĠ
ĠtÃ¡iĠ bÄĽiĠ
xiÄģngĠdÄģng ĠyÃºĠ
shuÃłiĠlÇĲng ĠdeĠ
Ġ 1975ĠniÃ¡nĠ
ĠĠĠ 2001ĠniÃ¡nĠ
Ãłi ĠlÃ¬ĠsÄ«Ġ
lÃŃn ĠxiÃłnĠ
rÃ³ng ĠyÃºĠ
hÃ¡i ĠhuÃ¬Ġ
xiÅ« ĠxÄ«Ġ
ers Ġ
ĠshÃŃĠ biÃ©Ġ
ĠyÃºĠ jiÄģĠ
ĠlÃ¬Ġ wÄĽiĠ
xiÃłĠ lÇİngĠdÃ©Ġ
mÃŃnĠ dÇİngĠ
ĠhuÃ² ĠÄĽrĠ
yÃ¹nĠ suÃłnĠ
wÇİngĠ fÇİnĠ
mÃ¬Ġ mÇİĠ
ĠdeĠdÃ¬Ġ tiÄĽĠ
cÄģnĠ yÇİnĠ
mÃłnĠ huÃłĠjiÄģĠ
ĠluÃ³Ġ bÃ³Ġ
ĠdeĠrÃ©nĠ wÃ¹Ġ
ĠmÇİ ĠkÃ¨Ġ
ĠshÇĶĠ rÃ²uĠshÃŃĠxÃ¬ngĠ
ĠÄģi ĠÄĽrĠ
shÄ«ĠfÃłn ĠdÃłĠxuÃ©Ġ
jiÄģnĠchÃ¡ ĠyÃ¹ĠshÇĲĠ
3 ĠĠĠ
Ġ kÇĴng
Ġ niÇĶĠ
Ġ huÄ«ĠfÃ¹Ġ
Ġ gÄĵngĠmÃŃngĠwÃ¨iĠ
Ġ 1976ĠniÃ¡nĠ
wÄĵi ĠÄĽrĠsÄ«Ġ
pÃ©n Ġ
tÃ¹ Ġ
nÇİ Ġ
ĠdeĠ zuÃ²ĠpÇĲnĠ
ĠwÃ¨iĠ xÄ«ng
ĠjÃŃĠ yÇĴuĠ
mÃŃngĠ chÃ¡oĠ
ĠxiÃłnĠ rÃ¨n
ĠjiÄģĠ jÃ¹Ġ
qiÃ¡nĠ lÃ³ngĠ
zhÃŃĠ wÃ¹ĠdeĠ
ĠzhÃ¨ngĠ quÃłnĠ
zÇĴngĠ jiÃłoĠqÅ«Ġ
ĠzhÇĶĠ jiÃłoĠ
ĠgÄģoĠ dÄĽngĠ
ĠxiÇİoĠ shuÅį
huÃ³ĠdÃ²ng ĠzhÅįngĠ
ĠbÃ¹ĠguÃ² ĠzÃłiĠ
yÄ«ĠlÃ¬Ġ nuÃ²ĠyÄ«Ġ
Ġ cÃ¨
Ġ chuÃłngĠzuÃ²Ġ
Ġ mĠ
Ġ 1966ĠniÃ¡nĠ
ĠĠĠ tÃ¡iĠwÄģn
ĠĠĠ xiÄģngĠguÄģnĠ
zuÃ² ĠchÃ©ngĠ
bÃło ĠyÇĶĠ
zhÇİn ĠxiÃłn
zhuÄģng ĠyuÃ¡nĠ
lÇİo ĠrÃ©nĠ
bo ĠdÃ¹Ġ
ĠhÃ©Ġ zuÃ²ĠdeĠ
ĠxiÃłn ĠyÃ¬Ġ
zuÃ²Ġ qÇĶĠjiÄģĠ
ĠqÃŃ ĠrÃ©nĠ
zhÃ¨ngĠ dÇİng
zhÃ¨ngĠ biÃłnĠ
ĠjiÄģĠ zÃºĠdeĠ
ĠtÄģĠ kÄĽĠyÇĲĠ
jÃ¹Ġ juÃ©
ĠbÃ¨iĠ jÄ«Ġ
yÃ¡nĠ fÄģ
wÃ©nĠ shÅ«Ġ
zuÃ¬Ġ xÄ«nĠ
ĠzhÃ¨Ġ yÃ¬ĠwÃ¨iĠ
ĠxiÄģngĠ jiÃłoĠyÃºĠ
mÃ¬Ġ mÃ¬
zhÄĵngĠ duÃ³Ġ
lÃ¨iĠ ÃłnĠjiÃłnĠ
jiÃłĠ zhÃŃĠdeĠ
Ã©Ġ wÃłiĠdeĠ
xiÄģnĠ qÅ«Ġ
lÃŃngĠ hÃºn
ĠjiÃłnĠzhÃ¹Ġ shÄ«Ġ
ĠxÃŃngĠzhÃ¨ngĠ zhÇİngĠguÄģnĠ
ĠdeĠbÃ¹Ġ duÃ¬Ġ
ĠhÄģ ĠlÃ¬Ġ
ĠhuÃłĠxuÃ© ĠshÃ¬ĠwÃ¨iĠ
Ġ 1948
Ġ huÃ¡ngĠjiÄģĠ
Ġ 1935ĠniÃ¡nĠ
ĠĠĠ miÃ¡oĠshÃ¹Ġ
fÃ¹ ĠwÃ¨iĠ
fÄģng ĠjÃ¬Ġ
pÃŃng ĠshÃ¬Ġ
bÄĽn ĠshÃ¬Ġ
tÃ¡i ĠyÇĶĠ
cÃ¡i ĠhuÃ¬Ġ
zÇĴu ĠleĠ
ĠchÃ©ngĠ shÃº
shÃłngĠ zhÃ¨nĠ
shÇĲĠ zhÄĽĠ
zuÃ¬Ġ zhÃ¹ĠmÃŃngĠdeĠ
shÅ«Ġ niÇĶ
jiÄģoĠ wÇİngĠ
zÇĶĠ zhÇİngĠ
ĠcÇĲ ĠzhÃłnĠ
ĠdeĠyÃ¬Ġ shÃ¹Ġ
niÇĶĠyuÄĵ ĠzhÅįuĠ
ĠxiÃłnĠlÃ¹Ġ kÇĴuĠ
wÇĴĠmen ĠdeĠ
shÃ²uĠhÃłiĠ zhÄĽĠ
Ġ kÇİn
Ġ hÄĽnĠduÅįĠ
ĠĠĠ xiÃłoĠ
ĠĠĠ 20ĠshÃ¬ĠjÃ¬Ġ
li Ġ
wÃ©i ĠjÃŃĠ
shÄĵng ĠdÃłoĠ
zuÃ¬ ĠmÃŃngĠ
75 Ġ
46 ĠniÃ¡nĠ
yÃ¡nĠ xÃ¹Ġ
gÄģoĠ cÃ©ngĠ
shÄ«Ġ zÅįngĠ
jiÄĵĠ shÃłngĠ
ĠtÃ³ng ĠniÃ¡nĠ8ĠyuÃ¨Ġ
ĠhuÃ²Ġ bÃ¬Ġ
biÇİoĠ miÃłn
ĠbÄĽnĠ shÄĵnĠ
zhÄ«Ġ hÃ²uĠdeĠ
zhuÃłnĠ xiÄĽ
tiÃ¡oĠjiÃłnĠ xiÃłĠ
ĠyÃ¬ĠzhÃŃ ĠzÃłiĠ
shÄ«ĠqÃ¹ ĠleĠ
nÃłĠcuÃ¬ ĠdÃ©ĠguÃ³Ġ
Ã©ĠhÃłiĠÃ© ĠzhÅįuĠ
9 ĠmÇĲĠ
Ġ huÃ¡ngĠdÃ¬Ġ
kÃ¨ ĠdeĠ
zhÃŃ ĠgÅįngĠ
zhÃŃ ĠbÃ¨iĠ
zÇĶ ĠchÃ©ngĠyuÃ¡nĠ
yÄ«ng ĠshÃ¬Ġ
mÇĶ ĠhÃ©Ġ
chÇĶ ĠguÃ³Ġ
ed Ġ
zhÅįngĠ xuÃ©Ġ
jÄ«nĠ tiÄģnĠ
chÃ¡ngĠ chÃ¡ngĠ
huÃŃĠ lÃ¡iĠ
tuÄ«Ġ fÄģn
ĠzhÃŃ ĠdÃło
lÇľĠwÃ¨iĠ 0
Ġ ref
Ġ Ð¸
Ġ sÃłiĠshÃ¬Ġ
Ġ biÄģoĠzhÃ¬Ġ
ĠĠĠ yÃ¡ngĠ
pÇĶ ĠdeĠ
kÃ¹ ĠdeĠ
zhÄģo ĠhÃ©Ġ
kÃło ĠjÃ¬n
46 Ġ
us ĠĠĠ
rÃ©nĠ lÃ¨i
chÃ©ngĠ lÃ¬ĠdeĠ
ĠdÃ¬Ġ 1
jÃ¬Ġ lÃ¹
xÄ«Ġ lÇĲĠ
rÃ¨nĠ jiÃłoĠ
fÇİĠ Ãłn
mÃ¹Ġ hÇİnĠmÃ²ĠdÃ©Ġ
ĠyÄ«nĠ sÃ¹
jiÃ¨Ġ rÃ¹Ġ
zÇĴngĠ tÇĲĠ
gÇĶĠ bÄģĠ
ĠlÃ¹Ġ yÄ«nĠshÃ¬Ġ
fÃ¨iĠ qÃ¬Ġ
sÄģiĠ Ã©Ġ
ĠmÃ©ngĠ gÇĶ
Ġ zÃ¡Ġ
Ã© ĠjÅ«nĠ
qÄ« ĠmÃŃngĠ
zhÃłn ĠlÃ¬Ġ
fÃ¹ ĠyÃ¬Ġ
xÃ¬ng ĠdÃ¬Ġ
xiÃło ĠzhÅįngĠ
lÃ³ng ĠshÃ¬Ġ
pÃ¡i ĠqiÃºĠ
80 ĠniÃ¡nĠ
ĠbÃ¹Ġ shÃ²uĠ
ĠchÃ©ngĠ dÃ¹ĠdeĠ
ĠxiÃłnĠ dÃ¬ngĠ
ĠbÃ¨iĠ xuÇİnĠwÃ¨iĠ
zuÃ¬Ġ duÅį
ĠzhÃ¨Ġ yÄĽĠ
bÄģĠ dÃ¡Ġ
biÃłnĠ gÄĵngĠ
chÇĶĠ cÃºnĠ
lÃºĠ sÄĵnĠ
ĠchÃ©ngĠyuÃ¡nĠ guÃ³Ġ
jÄ«ngĠlÃ¬Ġ leĠ
Ġ zhÄĽng
Ġ 69
Ġ miÃ¡oĠ
Ġ mÃ¬ngĠmÃŃngĠ
ĠĠĠ rÃ¬
tÃŃ ĠdeĠ
11 ĠshÃŃĠ
xÃ¹n ĠdeĠ
quÄĵ ĠxiÃłnĠ
rÃ©nĠ lÃ¨iĠ
ĠbÃ¹Ġ lÇİng
ĠbÃ¹Ġ bÃ¨iĠ
ĠyÃºĠ 2008
ĠyÃºĠ 9ĠyuÃ¨Ġ
ĠrÃ©nĠ wÃ©iĠ
jiÄģĠ tÃŃng
ĠyÇĶĠ zhÄ«
ĠxÄ«Ġ lÃŃnĠ
ĠchÅ«Ġ jÃºĠ
ĠwÃ©iĠ lÃ¡iĠ
ĠdÃłiĠ lÇĲng
jiÄĽĠ jiÄĽĠ
jiÇİngĠ shÄ«Ġ
chÃ¹Ġ chÃ¹ĠzhÇİngĠ
ĠdeĠshÃŃĠ jÃ¬Ġ
gÄĵngĠ gÇİiĠ
mÃ¹ĠdÃ¬Ġ dÃ¬Ġ
ĠĠĠhÃ²uĠ lÃ¡iĠ
xiÃ©ĠshÄģngĠ huÃ¬ĠyÃ¬Ġ
£ Ġ
Ġ nÃłi
Ġ bÇĲng
Ġ dÇĲngĠ
ĠĠĠ Be
wÃ¹ ĠjÃŃĠ
dÃłi ĠshÃŃĠ
bÇİo ĠjiÃłnĠ
qÄ«ng ĠdeĠ
qiÃ¡ng ĠxÃŃngĠ
guÃłn ĠlÃ¬Ġ
gÃłn ĠshÃ¬Ġ
ĠshÃ¬Ġ juÃ©Ġ
ĠyÇĶĠ tÄģ
ĠlÇĲĠ chÃ¡Ġ
zhÃłnĠ chÇİngĠ
ĠzhÄ«Ġ yÃ²ngĠ
kÄģiĠ pÇĶĠ
sÄģnĠ cÃ©ngĠ
mÄĽiĠ lÄģĠ
zhÅįuĠ qÄ«Ġ
ĠtÃ³ngĠshÃŃĠ yÄĽ
ĠxÃ¬Ġ bÄģo
kÄģiĠshÇĲ ĠhÃ²uĠ
zÄģiĠ hÃłiĠ
shÃ¹ĠliÃłng ĠdeĠ
kÄĽnĠ sÃ¨
5 ĠĠĠ
5 ĠshÃŃĠ
Ġ tuÅį
hÃ²u ĠgÅįngĠ
chÅ« ĠxiÃłnĠdeĠ
fÇİ ĠjÅ«nĠ
fÃº ĠdÃłĠxuÃ©Ġ
pÇĶ ĠsÄ«Ġ
zhuÄģng ĠzÃłiĠ
shuÃłi ĠjÅ«nĠ
ĠwÃ¨iĠ 2
ĠhÃ©Ġ dÃłoĠ
ĠjÃŃĠ tÄģĠ
ĠyuÃ¡nĠ yÇĴuĠdeĠ
ĠdÃ© ĠshÃ¬Ġ
ĠdÃ© ĠzÃłiĠ
ĠlÇĲĠ jiÄģĠ
zuÃ¬Ġ jÃ¹Ġ
zÇĴngĠ guÇİnĠ
ĠguÃ²Ġ qÃ¹
kÄĽĠnÃ©ng ĠzÃłiĠ
lÇİoĠ bÇİnĠ
ĠbÃ¬Ġ yÃ¨Ġ
lÃ¬ngĠyÄ«Ġ zhÇĴngĠ
ĠgÄģnĠ sÃ¹Ġ
ĠshÃŃĠyÄ«Ġ yuÃ¨Ġ
fÃºĠluÃ³ĠlÇĲĠ dÃ¡ĠzhÅįuĠ
Ġ k
Ġ 1968ĠniÃ¡nĠ
Ġ 1964ĠniÃ¡nĠ
ĠĠĠ Al
yÄ« ĠniÃ¡nĠdeĠ
qÅ« ĠyÇĶĠ
qÅ« ĠwÃ¨iĠyÃºĠ
shÃłng ĠyÃ¬Ġ
Ã©r ĠbÃ¨iĠ
nÃł ĠzÃłiĠ
wÄģn ĠdÃłoĠ
wÇİ ĠÄĽr
miÃło ĠdeĠ
39 ĠniÃ¡nĠ
rÃ©nĠ kÇĴu
yÃ¬Ġ yÃ¬Ġ
ĠxÃŃngĠ chÄĵĠ
rÃ¨nĠ tiÄģnĠtÃ¡ngĠ
xÄ«nĠ ÄģĠjÄ«ĠtÇİn
mÃŃnĠ jiÄģn
nÃ¨iĠ bÃ¹ĠdeĠ
ĠzhÃ¨Ġ liÇİngĠgÃ¨Ġ
biÃłnĠ lÃ¹nĠ
liÇİngĠ xiÃłngĠ
ĠsuÃ¬ ĠrÃ©nĠkÇĴuĠ
ĠyÄ«ngĠ gÄģiĠ
ĠtÅįngĠ chÃ¡ngĠshÃ¬Ġ
suÅįĠ xiÄĽĠ
ĠyÃ²ngĠ lÃ¡iĠ
bÄĽiĠjÄ«ng ĠdÃłĠxuÃ©Ġ
lÃ¬ĠhÃ©Ġ wÃºĠzhÃ¨ngĠzhuÃłngĠgÇİnĠrÇİnĠzhÄĽĠ
ĠyÃ²uĠmÃŃngĠ BDĠ
ĠxÄ«nĠjiÄģĠ pÅį
hÃ¡ngĠzhÃłnĠ lÃ³uĠ
suÇĴĠxÅ« ĠdeĠ
Ġ liÃ¡n
gÅįng ĠzhÅįngĠ
yÃ¡n ĠlÃ¬Ġ
suÇĴ ĠbÃ¹ĠtÃ³ngĠ
sÃ²ng ĠzhÃ¬Ġ
dÄģ ĠchÃ©ngĠ
ĠbÃ¹Ġ lÇĶĠkÃ¨Ġ
ĠgÃ¨ ĠyÇĴuĠ
ĠgÃ¨ ĠxiÃłnĠ
huÃ¬Ġ huÃłĠ
shÄĵngĠ zhÇİng
guÄģnĠ kÃłn
lÃ¹Ġ yÄ«nĠ
shÇĴuĠ hÃ¹Ġ
chuÃ¡nĠ jiÃłoĠ
ÃłnĠ chÃ¡Ġ
fÇİnĠ kÃłngĠ
huÃŃĠ yÃ¬ng
mÃłnĠ hÄģĠ
ĠcÇĲĠ qiÃ¡nĠ
mÃłiĠ ÄģĠ
xuÄģnĠ gÃłoĠ
tÅ«Ġ juÃ©Ġ
ĠquÃ¡nĠguÃ³Ġ zhÃ²ngĠdiÇİnĠwÃ©nĠwÃ¹ĠbÇİoĠhÃ¹ĠdÄģnĠwÃ¨iĠ
ĠmÃŃnĠ zÃºĠ
ĠwÃ¨iĠyÃºĠgÄģiĠguÃ³Ġ bÄĽiĠbÃ¹Ġ
ĠxÄ« ĠyuÃ¡nĠ
mÇĲnĠ gÇİnĠ
ĠgÄģiĠwÃ¹ĠzhÇĴngĠdeĠmÃ³ĠshÃ¬ĠchÇİnĠ dÃ¬ĠzÃłiĠ
Ġ jÇĶ
Ġ hÇİo
ĠĠĠ sÃ¬Ġ
yÃº ĠniÃ¡nĠ
hÃ²u ĠzhÃ¬Ġ
xiÃłng ĠzÃłiĠ
chÄĵng ĠdeĠ
mÃ¬ ĠjÃŃĠ
gÃ¨ng ĠyÇĴuĠ
lÃ¡ng ĠdeĠ
ĠyÇĶĠ mÄĽiĠguÃ³Ġ
zhÃłnĠ jÃ¹Ġ
zhÃ¨nĠ yÃŃngĠ
wÃºĠ guÄģnĠ
zhÄ«Ġ wÃłiĠ
zhuÄģngĠ bÃ¨i
hÄģĠ lÄģĠ
ĠsuÃŃĠ zhÃ¹
jiÄĵĠdÃłoĠ bÃłnĠshÃ¬ĠchÃ¹Ġ
ÅįuĠzhÅįu ĠguÃ³ĠjiÄģĠ
ĠxiÃłng ĠshÃ¬Ġ
ĠÃłnĠ zhÃłoĠ
ĠkÃ¨ĠxÄ«Ġ tÇİĠnÃŃĠdÃłĠqÅ«Ġ
Ġ jiÄģ
Ġ nÃ©ng
Ġ xÅ«
Ġ 44
Ġ 25Ġ
ĠĠĠ wÅ«ĠkÃ¨ĠlÃ¡nĠ
lÃ¹ ĠsÄ«Ġ
zuÃ¬ ĠjÃ¬nĠ
shuÇĲ ĠxiÃłnĠ
nÇļ ĠyÇĴuĠ
qiÄģn ĠdÃłoĠ
mÃ¬ ĠÄĽrĠ
zhÄĵn ĠxiÃłngĠ
43 ĠniÃ¡nĠ
ĠshÃ¬Ġ xiÃłnĠ
ĠshÃŃĠ sÃ¬Ġ
ĠdÃ¬Ġ 3
ĠyÃºĠ 17
ĠsÄ«Ġ lÇĲĠlÃ¡nĠ
ĠwÃ©iĠ hÃ¹Ġ
ĠwÃ©iĠ xiÅ«Ġ
ĠdÃłiĠ bÇĶĠ
sÃłiĠ jÅ«Ġ
ĠhÃło ĠhÃ©Ġ
dÃ¡Ġ kÄĵ
xÃŃĠ sÃºĠ
yÇĲnĠ fÄģ
hÃ¡iĠ bÄģoĠkuÃ²Ġ
quÃ¨Ġ rÃ¨n
xÃºnĠ hÃ¡ngĠ
chÃ³ngĠ xiÅ«Ġ
biÃ©Ġ shÃ¹Ġ
zÄģiĠ nÃłnĠ
ĠmÃ©iĠ tÇĲĠ
ĠÃłi ĠdÃ©ĠhuÃ¡Ġ
jiÄģoĠhuÃ¬Ġ chÃ¹Ġ
Ġ yuÇİn
Ġ lÃ³uĠ
Ġ chuÃłngĠlÃ¬Ġ
ĠĠĠ 2002
ĠĠĠ Le
ĠĠĠ bÇĲĠsÃłiĠ
yÄ«n ĠdeĠ
zhÅįu ĠniÃ¡nĠ
cÃ¬ ĠshÃ¬Ġ
nÃ©ng ĠdeĠ
liÃº ĠdÃłnĠ
tiÄĽ ĠdÃło
hÄĽn ĠgÄģoĠ
qÅ«Ġ yÃ¹ĠdeĠ
jiÄģnĠ guÇİnĠ
nÃłĠ cuÃ¬Ġ
shÇĶĠ xÃ¬ngĠ
mÃ¬ngĠ yÃ¹nĠ
gÃ¹Ġ wÃ¨n
wÇİĠ shÄĽngĠ
ĠniÃ¡nĠ6ĠyuÃ¨Ġ 30ĠrÃ¬Ġ
ĠcÃ³ng ĠshÃ¬Ġ
3 ĠgÅįngĠlÇĲĠ
Ġ yÃ¹nĠdÃ²ngĠ
Ġ guÃłnĠ
Ġ nÃ©ngĠgÃ²uĠ
ĠĠĠ La
lÇĲ ĠzhÃ¬Ġ
miÃłn ĠwÃ¨iĠ
bÇĲ ĠsÄ«Ġ
lÇľ ĠdÃ¬Ġ
biÃ© ĠrÃ©nĠ
zÇİo ĠyÇĲĠ
mÇĴu ĠgÃ¨Ġ
64 ĠniÃ¡nĠ
ĠshÃŃĠ Ã¨rĠyuÃ¨Ġ
ĠyÄ«Ġ fÃºĠ
guÄģnĠ qiÇİ
yÃ¨Ġ tÇĲĠ
mÇİĠ dÄ«ngĠ
ĠjiÃ©Ġ gÃ²u
ĠshÃ¬ĠzhÃ¨nĠ fÃłnĠwÃ©iĠnÃ¨iĠ
bÇĶĠ jÇĲĠ
kÄĵĠxuÃ©Ġ yuÃłn
ĠguÄģnĠ zhÃ²ngĠ
ĠchÃºĠ le
ĠduÅį ĠgÃ¨Ġ
yÇĶnĠ kÄĵng
rÃ¨ĠdÃłiĠ dÄ«ĠqÃ¬ĠyÄģĠ
zuÃ¬ĠhÃ²uĠ yÃŃĠgÃ¨Ġ
ĠĠĠzhÃ¨Ġ geĠ
ĠHR ĠĠĠ
Ġ m
Ġ huÇĴ
Ġ 1938
Ġ yÄģnĠ
Ġ 1909ĠniÃ¡nĠ
duÃ¬ ĠzhÃ¬Ġ
shÄ« ĠzÃłiĠ
biÃłn ĠhÃ²uĠ
18 ĠshÃ¬ĠjÃ¬Ġ
rÃ³ng ĠhuÃ²Ġ
dÇĲ ĠbÃ¹Ġ
kÇİi ĠÄĽrĠ
75 ĠniÃ¡nĠ
rÃ¡o Ġ
lÇĲĠ yÃ³uĠ
shÄĵngĠ yÃ¹Ġ
ĠtÄģĠ dÄģnĠrÃ¨nĠ
nÃ¡nĠ hÇİiĠ
ĠquÃ¡n ĠchÃ©ngĠ
jÇĲngĠ wÃ¹Ġ
pÃ¡iĠ chÃº
ĠwÃ©nĠ wÃ¹Ġ
wÃ¡nĠ fÇİĠ
ĠbÇĲĠ rÃº
ĠshÃ¬ĠzhÅįngĠ xÄ«n
Ġ lÄĵi
Ġ Ba
Ġ zÇİoĠniÃ¡nĠ
Ġ pÃ¨iĠhÃ©Ġ
ĠĠĠ suÇĴĠ
ĠĠĠ shÃ¨Ġ
dÃł ĠshÃ¬Ġ
yÇĶ ĠshÃŃĠ
65 ĠniÃ¡nĠ
yÇĴuĠ xiÃłnĠ
ĠyÄ«Ġ zhÃłoĠ
ĠgÃ¨ ĠchÅ«ĠrÃ¹ĠkÇĴuĠ
mÃŃngĠ quÃ¨Ġ
ĠtÄģĠ yÃ²uĠ
fÇİĠ guÄ«Ġ
ĠshÃłngĠ xiÃłĠ
liÃłngĠ zÇĲ
chÄĵngĠ zÃłn
ĠtÃ³ngĠ shÃŃĠzÃłiĠ
ĠfÄĵn ĠbÃ¹Ġ
gÄĵngĠ huÃłnĠ
ĠshÃ¬ĠshÃ¬Ġ zhÇİngĠ
ĠgÃ©Ġ lÃ©iĠ
ĠtÃ¨ĠbiÃ© ĠshÃ¬ĠzÃłiĠ
zhÃłnĠdÃ²u ĠzhÅįngĠ
tÃ¡iĠnÃ¡n ĠshÃ¬Ġ
1 ĠyÃ¬Ġ
Ġ kÄĽĠyÇĲ
Ġ qÄ«ngĠniÃ¡nĠ
Ġ 1977ĠniÃ¡nĠ
ĠĠĠ mÇĲĠ
ĠĠĠ zhÃ¨ĠxiÄĵĠ
xiÃłn ĠlÃ¹Ġ
huÃ¬ ĠchÃ©ngĠ
zhÃłn ĠyÇĶĠ
duÅį ĠlÃ¬Ġ
yÄĽ ĠzhÃłnĠ
chÄĵ ĠzÃłiĠ
qÇĲng ĠqiÃº
bÇİng ĠdÄģnĠ
zÅ«n ĠshÇĴuĠ
kuÃŃ ĠbÄĽi
Î± Ġ
ĠrÃ¬ ĠshÃ¬Ġ
zuÃ²Ġ yÃ²ng
zhÇĶĠ yÃ¬ĠhÃ©Ġ
ĠbÃ¨iĠ sÄ«Ġ
diÃłnĠ cÃŃĠ
ĠkÃ¨Ġ lÃŃnĠ
bÄģĠ sÄģiĠ
zÇĶĠ shÅ«ĠjÃ¬Ġ
cÃŃĠ xÃ¬ngĠ
zhuÄģngĠ cÅ«nĠ
huÃ²Ġ wÃ¹Ġ
bÄ«ngĠ chuÄģnĠ
ĠgÄģoĠ sÃ¹Ġ
qÄ«nĠ wÃ¡ng
xÃ¬nĠ fÃ¨ng
ĠshÇĲĠ chÄĵngĠ
ĠcÃ©ng ĠwÃ¨iĠ
ĠyÄ«ĠsÄ«Ġ lÃ¡n
jiÃłoĠkÄĵĠ wÃ©nĠ
bÄģĠlÃ¨ ĠsÄ«ĠtÇİn
mÃ¬ĠxÄ«ĠxÄ«Ġ bÇĲ
Ġ dÇĴng
cÄģn ĠjÅ«nĠ
92 ĠniÃ¡nĠ
ĠdeĠ guÇĲĠdÃłoĠ
ĠgÅįngĠ bÃ¹
ĠyuÃ¡nĠ shÄĵngĠ
duÃ¬Ġ huÃłĠ
guÄģnĠ zhÃ¹
zhÇĲĠ dÇİo
luÃ³Ġ fÅ«
gÃ²uĠ chÃ©ngĠdeĠ
ĠgÄģoĠ dÃ¹Ġ
tuÄ«Ġ dÃ²ng
ĠniÃ¡nĠzÃłiĠ wÃ¨iĠ
yÇĲngĠxiÇİng ĠleĠ
ĠguÃ³ĠmÃŃnĠ zhÃ¨ngĠfÇĶ
ĠwÃ¨iĠyÃºĠgÄģiĠguÃ³Ġ dÅįngĠnÃ¡nĠbÃ¹Ġ
ĠdeĠjÄ«ĠchÇĶ ĠshÃłngĠ
3 ĠlÃ¬Ġ
Ġ Ðµ
Ġ jÃºĠ
gÅįng ĠzÃłiĠ
guÄģn ĠjiÃłn
bÅį ĠxÄ«Ġ
hÃłn ĠrÃ©nĠ
wÃłng ĠdeĠ
1980 ĠniÃ¡nĠdÃłi
ĠbÃ¹Ġ xÃŃngĠ
ĠrÃ¬ ĠĠĠ
ĠxiÃłnĠ lÃ¹
bÄĽnĠ shÅ«Ġ
gÃ©Ġ lÃ¡iĠ
jÃ¬nĠ zhÇİnĠ
lÃ¨iĠ biÃ©Ġ
wÄĽiĠ dÃłĠdeĠ
quÃ¡nĠ zhÇİngĠ
hÄģĠ sÃłĠkÃ¨ĠsÄ«Ġ
ĠlÃ¬ngĠ yÃŃĠgÃ¨Ġ
ĠzÃłiĠzhÃ¨Ġ ge
dÅįngĠjÃ¬Ġ ÃłoĠlÃŃnĠpÇĲĠkÃ¨ĠyÃ¹nĠdÃ²ngĠhuÃ¬Ġ
yÇĲnĠqÇĲ ĠleĠ
pÃŃngĠlÃ¹n ĠjiÄģĠ
2019ĠguÄģnĠzhuÃłngĠbÃ¬ngĠdÃº ĠbÃ¬ng
6 ĠshÃŃĠ
Ġ 1972ĠniÃ¡nĠ
ĠĠĠ Bu
ĠĠĠ 7Ġ
Ãło ĠdÃ©Ġ
lÇĲ ĠjÃŃĠ
jÄ«ng ĠchÃ©ngĠ
suÇĴ ĠzhÃ¬Ġ
yÃ¨ ĠshÃ¬Ġ
sÃłi ĠshÃłngĠ
tÃ¡i ĠshÃ¬Ġ
tÃ¡i ĠhÃ©Ġ
nÃŃ ĠjÄ«Ġ
dÇĲ ĠdeĠ
fÃ¨i ĠchÃ©ngĠ
bÇİi ĠwÃłn
ad Ġ
shÃŃĠ jÃ¬Ġ
ĠshÃŃĠ jiÄģĠ
ĠzhÃ¬Ġ shÇĲĠ
ĠgÅįngĠ yÃ¹Ġ
ĠzhÅįu ĠzhÄ«Ġ
xiÄģngĠ tÃ³ng
shÇĴuĠ yÃ¬ngĠ
ĠkÃ¨Ġ hÃ¹Ġ
huÃ¡Ġ xuÄĽ
luÃ²Ġ yÃ¡ngĠ
xÅ«Ġ nÇĲ
gÃ¨ngĠ gÄģoĠdeĠ
ĠxiÃłnĠdeĠ chÃ©ngĠshÃ¬Ġ
pÃŃnĠ fÃ¡nĠ
xuÃ¨Ġ guÇİnĠ
mÃ¨ngĠ xiÇİngĠ
zÄ«ĠgÃ©Ġ sÃłiĠ
ĠdÅįng ĠrÃ¬ĠbÄĽnĠ
lÃ¡nĠqiÃºĠ yÃ¹nĠdÃ²ngĠyuÃ¡nĠ
ĠkÇĴngĠ tÃłi
ĠSAO ĠĠĠ
Ġ 170
Ġ Ni
Ġ fÄģĠzhÇİn
Ġ zÇİoĠqÄ«Ġ
ĠĠĠ dÄģngĠshÃŃĠ
sÄ« ĠwÃ¨iĠ
jÃ¬n ĠqiÃºĠ
huÃł ĠjÃ¬Ġ
tÇĲ ĠwÃ¨iĠ
liÃ¨ ĠdÃ¬Ġ
sÄģi ĠÄĽr
liÃło ĠlÇĲĠ
xiÃ¨ ĠrÃ¨nĠ
chÅ«n ĠjiÃ©Ġ
62 ĠniÃ¡nĠ
ĠbÃ¹Ġ fÃ¹ĠbÃ¹ĠzhÇİngĠ
gÅįngĠ zuÃ²
ĠyuÃ¨Ġ kÄģnĠ
ĠqÃŃĠ xiÃł
ÃłnĠ chÃ¡ĠsÄ«Ġ
cÃ¡iĠ zhÃ¨ngĠbÃ¹Ġ
yÇĲnĠ rÃ¹
hÃ¡nĠ shÃ¹
jiÇİĠ bÇİnĠ
ĠpÃŃngĠfÄģngĠ yÄ«ngĠlÇĲĠ
huÃłnĠ zhÄĽ
jiÃ©ĠshÃ¹ ĠshÃŃĠ
ĠyÃ¬ĠzhÃŃ ĠshÃ¬Ġ
ĠniÇĶĠyuÄĵ ĠshÃŃĠbÃłoĠ
Ġ 1987
Ġ 1941
Ġ Pa
Ġ yÅįngĠ
Ġ cuÄ«Ġ
ĠĠĠ Li
jÃ¬ng ĠwÃ¨iĠ
jiÇİng ĠzuÃ²Ġ
bÃ¡i ĠgÅįngĠ
41 Ġ
color Ġ
wÃ©iĠ qÄ«Ġ
ĠjÅ«nĠ qÅ«
wÇĶĠ shÃ¹Ġ
ĠjÃ¹Ġ juÃ©
shÅ«Ġ fÇİĠ
yuÄĵĠ hÃłn
yÇİnĠ xÃŃĠ
yÃ¬ngĠ bÃ¬Ġ
dÇİĠ bÃłiĠ
liÃłnĠ ÃłiĠ
ĠluÃ³Ġ mÇİ
yÄģĠ suÅįĠ
ĠxÃŃngĠzhÃ¨ngĠ qÅ«ĠhuÃłĠ
ĠzuÃ¬ĠzhÅįngĠ yÃºĠ
ĠhuÃłĠ xuÃ©Ġ
ĠmÃŃnĠ jÃ¬nĠ
diÄģoĠ sÃ¹
dÄģĠ dÃłngĠ
ĠyÄ«ng ĠlÇĲĠ
ÄģĠgÄĵnĠ tÃŃng
Ġ duÇİnĠ
Ġ 1960ĠniÃ¡nĠ
ĠĠĠ AĠ
zÃ© ĠrÃ¨nĠwÃ©iĠ
wÄĽi ĠrÃ¨nĠ
lÇľ ĠhÃ©Ġ
xiÄģn ĠshÃ¬Ġ
ck ĠĠĠ
68 ĠniÃ¡nĠ
zhÃ¬Ġ shÇİoĠ
sÄ«Ġ xiÇİng
ĠÃ©r ĠyÇĶĠ
ĠshÃ¨ ĠshÃ¬Ġ
qiÃ¡nĠ fÄģngĠ
ĠzhÃłnĠ shÃ¨ngĠ
zuÃ¬Ġ zhÇİngĠdeĠ
ĠhÃło ĠshÃ¬Ġ
gÇİiĠ zhuÄģngĠ
mÃ¬Ġ xiÄĵĠgÄĵn
zÇĲĠ mÃ¨iĠ
shÇĶĠdeĠ dÃ²ngĠwÃ¹Ġ
qÃ¬ngĠ zhÃ¹
yÇİĠ diÇİnĠ
wÅ«ĠkÃ¨ĠlÃ¡n ĠdeĠ
ĠjuÃ©Ġ dÃ¬ng
yÃ¬ĠshÃŃĠ dÃło
8 ĠgÅįngĠlÇĲĠ
ĠĠĠ fÄĵiĠ
hÃ²u ĠbÃ¹Ġ
shÇĴu ĠgÃ¨
bÄģ ĠgÃ¨Ġ
wÃ¡ng ĠgÅįngĠ
shÃ¨ng ĠxiÃłĠ
yÃłn ĠshÃ¬Ġ
wÃłng ĠsÄ«Ġ
xiÅįng ĠzhÇİngĠ
nuÇİn Ġ
ĠbÃ¹Ġ lÃ©iĠ
ĠguÃ³ĠjiÄģĠ ÄģnĠquÃ¡nĠ
ĠzhÃ¬ĠzÃłoĠ shÄģngĠ
xuÃ©ĠxiÃło ĠdeĠ
Ġ yÃ¡o
Ġ ãĤ¹
Ġ gÄģoĠzhÅįngĠ
ĠĠĠ 2001
ĠĠĠ styleĠ
chÅ« ĠxiÃłn
shÄĵng ĠshÃŃĠ
shÇĲ ĠtÄģĠ
kÄģi ĠyuÃ¡nĠ
chÄĵ ĠrÃ©nĠcÃ¬Ġ
zÇĶ ĠjiÃłn
gÃ²u ĠjiÃłnĠ
wÄĵi ĠÄĽrĠshÃ¬Ġ
45 ĠniÃ¡nĠ
kÃ¹n ĠnÃ¡n
ĠshÃ¬Ġ qiÃ¡nĠ
dÃ¬Ġ shÃŃĠ
yÄ«Ġ yÃłngĠ
ĠyÇĴuĠ duÅįĠ
ĠyÇĴuĠ zheĠ
ĠgÅįngĠ yuÄĵĠ
ĠyÇĲĠ 3Ġ
bÄģĠ xÄ«
jiÃłĠ zhÃŃ
zhÃ¨ngĠzhÃ¬Ġ xiÃ©ĠshÄģngĠhuÃ¬ĠyÃ¬Ġ
shÃ¨Ġ huÃ¬ĠdeĠ
ĠjÄ«ngĠ yÃŃngĠ
bÇĶĠ chÅįng
xÃŃngĠzhÃ¨ngĠ qÅ«Ġ
cÄģngĠ kÃ¹Ġ
lÄĽiĠ dÇİĠ
jiÃ©ĠmÃ¹ ĠzhÅįngĠ
Ġ w
Ġ 1970
Ġ 1984
Ġ Fi
Ã¡ Ġ
ĠĠĠ zhÇĲĠ
ĠĠĠ dÃ©Ġ
Ãło ĠzhÅįu
Ã¡i ĠzhÃ¨ngĠ
mÄĽi ĠrÃ©nĠ
wÇİ ĠsÄ«Ġ
mÇİn ĠzhÅįuĠ
qiÄģng ĠdeĠ
mÇİi ĠjiÄģĠ
lÃłn Ġ
ĠdeĠ chÃ©ngĠshÃ¬Ġ
ĠbÃ¹Ġ luÃ³Ġ
ĠzhÃ¬Ġ xÃ¹Ġ
ĠjÃŃĠ xÃ¬ngĠ
ĠlÃ¬Ġ xÄ«Ġ
ĠlÃ¬Ġ xiÃłnĠ
ĠhÃ²uĠ xÃ¹Ġ
ĠduÃ¬Ġ zhÇİngĠ
ĠrÃ¨nĠ jiÃłoĠ
yÃŃĠ lÃ¡n
wÃºĠ xÅ«Ġ
jiÄĽĠ mÃ¨iĠ
jiÇİngĠ zhÄģngĠ
zhuÄģnĠ ÃłnĠ
ĠwÃłnĠ dÅ«nĠ
yÇĲngĠxiÇİngĠ lÃ¬ĠdeĠ
bÄģngĠzhÃ¹Ġ xiÃłĠ
liÃºĠxÃŃngĠ yÄ«nĠyuÃ¨Ġ
wÅįĠ lÃºnĠ
ĠlÃ¬ĠtÃ¡oĠ wÇİn
Ġ 1979
Ġ fÃłngĠ
Ġ fÄģĠzhÇİnĠ
Ġ pÃ¡ngĠ
Ġ duÃ³ĠdeĠ
yÄ« ĠhÃ©Ġ
yÇĴu ĠwÃ¨iĠ
zhÃłn ĠjiÃłnĠ
dÃłi ĠzÃłiĠ
fÃ¹ ĠlÇĲĠ
duÅį ĠyÃºĠ
dÄģn ĠshÃ¬Ġ
xiÄģn ĠzÃłiĠ
cÃ¡i ĠfÃ¹Ġ
zÃłn ĠwÃºĠ
39 Ġ
43 Ġ
qiÃło Ġ
ĠdeĠ niÃ¡n
yÄ«Ġ jÃŃĠ
ĠrÃ©nĠ qÃºnĠ
ĠyÄ«Ġ jiÇİoĠ
lÇĲĠ sÄ«Ġ
ĠyÇĶĠ duÅįĠ
yÃ³uĠ lÃ¡iĠ
ĠbÃ¨iĠ gÃ©Ġ
huÃłĠ tÃŃĠ
lÄģĠ dÄ«ngĠ
kÄĵĠ tÃ¨Ġ
gÇĶĠ gÃ©Ġ
ĠquÃ¡nĠ tÇĲĠ
gÃ²ngĠ xiÇİngĠ
hÃ¹Ġ zhÃłoĠ
ĠtÃ³ngĠ mÃ©ng
shuÄģngĠ fÄģng
wÇİĠ lÄģĠ
lÃŃĠkÄģiĠ leĠ
wÃłiĠguÃ³Ġ rÃ©nĠ
gÇİiĠbiÄģn ĠwÃ¨iĠ
qiÇİngĠ pÃ²Ġ
ĠĠĠ de
ĠĠĠ shÇĴuĠ
jiÄģng ĠqÃŃ
mÇİ ĠdÃ©Ġ
tÃłi ĠhÃ©Ġ
wÃº ĠshÃ¬Ġ
tÃ¡ng ĠdÃłiĠ
ar ĠĠĠ
ĠdeĠ gÄĵĠqÇĶĠ
ĠrÃ¬ ĠjÃŃĠ
ĠyuÃ¡nĠ xiÄģnĠ
ĠrÃ¬Ġ jÃ¬Ġ
duÃ¬Ġ kÃłng
ĠxÄ«Ġ fÄģng
shÃ¹Ġ xuÃ©ĠjiÄģĠ
lÃ¹Ġ duÃłn
gÃ©Ġ lÄĵi
jÄ«nĠ gÄģngĠ
yÃŃĠ bÃ¹ĠdeĠ
xuÇİnĠ bÃ¡
bÄģĠ hÃ¨
ÃłoĠ fÃºĠ
gÃ²uĠ rÃ¹Ġ
ĠtiÄģnĠ zhÇĶĠjiÃłoĠ
ĠshÃ¬ĠdÃ¬Ġ Ã¨rĠ
ĠdeĠdÃłĠ xÃŃngĠ
ĠgÇİiĠ biÄģn
fÃ¡nĠ rÃ³ngĠ
ĠshÃ¬ĠwÃ¨iĠyÃºĠmÄĽiĠguÃ³Ġ mÃ¬ĠsÅ«ĠlÇĲĠ
tiÄģnĠjÄ«n ĠshÃ¬Ġ
Ġ shÇİn
Ġ yÇĴuĠdeĠ
Ġ cÇİoĠ
zhÃ¬ ĠĠĠ
shÃ¹ ĠlÃ¬Ġ
zhÃ¹ ĠshÃ¨Ġ
gÄģi ĠshÃ¬Ġ
mÇĲ ĠrÃ©nĠ
huÃ¡ ĠyÃ¬Ġ
bÃłi ĠhÃ²uĠ
cuÄ« ĠhuÃłĠ
background Ġ
ĠzÃłiĠ dÃ¹
mÃŃngĠ yÃ¹Ġ
ĠchÅ« ĠwÃ¨iĠ
ĠshÃłngĠ sÃ¹Ġ
nÃ¨iĠ zhÃ¨ngĠbÃ¹Ġ
yÃłĠ mÇİĠ
fÄĵngĠ bÃ¬Ġ
ĠzhÃ¹Ġ cÃ¨Ġ
shÇĶĠ wÃ¹ĠzhÇĴngĠ
ĠxiÃłngĠ mÃ¹
dÃºĠ xÃ¬ngĠ
ĠjÄ«nĠ tiÄģnĠ
tuÅįĠ lÃŃ
ĠniÃ¡nĠ3ĠyuÃ¨Ġ 1ĠrÃ¬Ġ
leĠyÄ«Ġ zuÃ²Ġ
chuÃ¡nĠtÇĴng ĠshÃłngĠ
cÄģnĠsÃłiĠ zhÄĽĠ
jiÃ¨ĠquÃ¡nĠguÃ³Ġ rÃ©nĠdÃłĠdÃłiĠbiÇİoĠ
ĠxiÇİo ĠpÃŃngĠ
mÃ¹ĠbiÄģo ĠshÃ¬Ġ
fÄĵiĠlÃ¬Ġ pÇĶĠ
Ġ tÃº
Ġ pÄ«ĠpÃŃngĠ
Ġ lÃŃnĠshÃŃĠ
ĠĠĠ yÇĲ
ĠĠĠ colspanĠ
le ĠdeĠ
jiÃłn ĠguÃ³Ġ
tÃ³u ĠyÃºĠ
pÃło ĠjÄ«Ġ
37 Ġ
ĠgÅįngĠ wÃ¹ĠyuÃ¡nĠ
ĠchÃ©ngĠ nuÃ²
ĠdÃło ĠwÃ¨iĠ
ĠyuÃ¡nĠ yÃ¬Ġ
ĠlÇĲĠ yÃł
sÄģnĠ fÄĵnĠzhÄ«Ġ
nÃŃĠ ÃłoĠ
bÃłnĠ chÇİngĠ
shÄģngĠ hÃłi
yÃ¡nĠjiÅ« ĠzhÅįngĠ
dÄĵngĠ chÃ¡ng
huÃ¡ĠrÃ©nĠmÃŃnĠ gÃ²ngĠhÃ©Ġ
ĠzhÅįngĠyÄģngĠ wÄĽiĠyuÃ¡nĠhuÃ¬Ġ
yÃ¬ngĠyÃ²ngĠ chÃ©ngĠshÃ¬Ġ
ĠdeĠguÄģnĠ diÇİnĠ
ĠxÄ«nĠjiÄģĠ pÅįĠ
2 ĠshÃŃĠ
7 ĠgÅįngĠlÇĲĠ
Ġ To
wÃ©n ĠjiÃłn
qiÃ¡n ĠlÃ¬Ġ
lÃŃn ĠhÃ©Ġ
xÄ«ng ĠrÃ©nĠ
sÃ¨ ĠhÃ©Ġ
am Ġ
ĠbÃ¹Ġ duÃ¬ĠdeĠ
ĠzhÃ¬Ġ dÃłĠ
ĠyÃ¬Ġ miÃ¡oĠ
hÃ²uĠ bÃ¨iĠ
zhÃ¨ngĠ jiÃłoĠ
ĠhÃ²uĠ yÃ²uĠ
duÃ¬Ġ bÇĲĠ
ĠÄĽr ĠjiÄģĠ
jÄ«ngĠ lÃŃngĠ
lÃ¡iĠ shuÅį
ĠkÃ¨Ġ lÃ©iĠ
ĠshÄĵngĠ yÄ«nĠ
shÄģnĠ lÃ¹Ġ
liÃ¨Ġ nÃŃngĠ
xiÃłoĠ xiÃłngĠ
yÃ¡ngĠ xÃ¬ngĠ
biÄģnĠ jiÄģngĠ
xÅ«Ġ nÇĲĠ
dÇİngĠ wÄĽiĠshÅ«ĠjÃ¬Ġ
tiÃ¡oĠ yuÄĵ
jÅ«nĠ duÃ¬
ĠĠĠzhÅįngĠ huÃ¡ĠmÃŃnĠguÃ³Ġ
ĠyÇĲĠjÄ«ng ĠbÃ¨iĠ
ĠdÃ¬ĠzhÅįngĠ hÇİiĠ
ĠfÃºĠlÇİngĠ shÃ©nĠ
kÇİĠsÄ«ĠdÃ¬ĠlÃ¬Ġ yÃłĠ
Ġ à
Ġ rÇĶ
Ġ Jo
Ġ ãĤ¤
Ġ backgroundĠ
Äģn ĠdÃłĠ
ĠĠĠ zhÇĶĠ
jiÃ© ĠrÃ¬Ġ
dÄĽng ĠshÃ¬Ġ
huÃ¡ ĠnÃ¡nĠ
shuÄģng ĠxiÃłngĠ
bÇĶ ĠshÃŃĠ
kuÄģn ĠdÃ¹Ġ
yuÃ¡nĠ wÃłiĠlÃ¡ngĠ
ĠguÃ³Ġ huÃ¬ĠyÃ¬ĠyuÃ¡nĠ
ĠdÃ© ĠchÅ«Ġ
dÃłiĠ lÇĲngĠ
yÃ¹Ġ suÃłn
ĠjÅ«nĠ xiÃ¡nĠ
diÃłnĠ zhÃłnĠ
yÃŃĠ dÇİoĠ
zÇĴngĠ zhÇİngĠ
ĠlÃ¹Ġ xÃ¹Ġ
tÃ³ngĠ pÃ¡iĠ
ĠdeĠyÄ«Ġ zuÃ²
kÅįngĠ xÃŃ
ĠyÄ«nĠwÃ¨iĠ zÃłiĠ
hÄĽnĠ shÇİo
ĠniÃ¡nĠ8ĠyuÃ¨Ġ 1ĠrÃ¬Ġ
ĠzhÃŃĠ yÃ¨Ġ
ĠzhÇĲĠ huÄ«Ġ
ĠdeĠhÃ©Ġ xÄ«nĠ
ÃłoĠlÃŃnĠpÇĲĠkÃ¨Ġ yÃ¹nĠdÃ²ngĠ
sÃłĠzhÅ«Ġ sÄģi
Ġ chÇİnĠ
ĠĠĠ You
ĠĠĠ cÃ©ngĠ
duÃ¬ ĠzhÅįngĠguÃ³Ġ
mÇİ ĠzhÅįuĠ
qÃ¬ ĠshÃ¬Ġ
fÄĵng ĠlÃ¬Ġ
yÃ¡ng ĠrÃ©nĠ
jiÃł ĠwÃ¨iĠ
chÄģo ĠshÃ¬Ġ
52 Ġ
ĠdeĠ zhÃŃĠ
ĠzÃłiĠ xiÄģngĠgÇİng
bÃ¹Ġ duÃ¬Ġ
ĠdÃ¬Ġ zhÇĲĠ
ĠdÃłoĠ qiÃłnĠ
ĠjiÄģĠ zhÅįu
ĠtÄģĠ kÄģiĠshÇĲĠ
shÇĴuĠ qiÄģngĠ
dÅįngĠ fÄĵngĠ
dÃ¬ngĠ jÅ«
jÅ«Ġ zhÃ¹
gÃłiĠ yÃłoĠ
dÇĲngĠ diÇİnĠ
dÃłiĠbiÇİo ĠdÃłĠ
ĠzÃłiĠyÄ«Ġ cÃ¬Ġ
ĠbÅį ĠsÄ«Ġ
ĠzÃłiĠjiÄģĠ shÃłngĠ
Ġ chÃ³ng
Ġ cÃºnĠzÃłiĠ
ĠĠĠ Vi
zhÃ¨ng ĠrÃ©nĠ
zhÃłn ĠxiÃłnĠ
200 Ġ
rÃº ĠtÃ³ngĠ
ĠbÃ¹Ġ lÃºnĠ
guÄģnĠ zhÃŃĠ
ĠzuÃ²Ġ yÃ²ng
zuÃ¬Ġ xiÇİoĠ
ĠlÃ¹Ġ kÇĴuĠ
tÃºĠ shÄģ
xÃŃĠ guÃłn
ĠqÃŃĠzhÅįngĠ yÃŃĠgÃ¨Ġ
huÄ«Ġ sÃ¨Ġ
ĠdeĠshÃŃĠ dÃłiĠ
kÄģiĠshÇĲ ĠdeĠ
pÃłoĠ bÄ«ngĠ
ĠmÇİ ĠsÄ«Ġ
zhuÄ«Ġ suÃŃĠ
ĠrÃ¨nĠwÃ©i ĠshÃ¬Ġ
ĠjÄ«ĠbÃłi ĠleĠ
xÄ«nĠchÃ©ngĠ lÃ¬ĠdeĠ
ĠfÄĵiĠlÇľĠ bÄ«nĠ
Ġ bÃłn
Ġ hÄĵng
Ġ bÃºĠhuÃ¬Ġ
Ãło ĠbÃ¹Ġ
shÃ¹ ĠniÃ¡nĠ
quÃ¡n ĠyÃ¬Ġ
hÇİi ĠzhÃłnĠ
Ã¨r ĠhÃłoĠ
shÄĵn ĠkÃ¨Ġ
sÃ¹ ĠwÃ¨iĠ
pÃ¡i ĠdeĠ
jiÄĽ ĠxÄ«Ġ
pÄ« ĠquÃ¡nĠguÃ³ĠzhÃ²ngĠdiÇİnĠwÃ©nĠwÃ¹ĠbÇİoĠhÃ¹ĠdÄģnĠwÃ¨iĠ
ard Ġ
ĠzhÃ¬Ġ suÇĴĠzÃłiĠ
ĠyÄ«Ġ kÃło
ĠdÃłĠ tÄ«ngĠ
ĠchÅ« ĠshÃ¬Ġ
ĠyÄ«n ĠzÃłiĠ
shÇĴuĠ xÃŃ
ĠrÃ¨nĠ nÃ¨iĠ
bÃ¬Ġ huÃłĠ
nÇļĠ xÃ¬ngĠdeĠ
qÄ«nĠ lÃ¼Ã¨Ġ
ĠniÃ¡nĠ9ĠyuÃ¨Ġ 1ĠrÃ¬Ġ
yÃ¬ĠshÃŃĠ dÃłoĠ
ĠdeĠzuÃ²Ġ pÇĲn
ĠjÃ¬ĠhuÃł ĠzÃłiĠ
ĠqiÃ¡ngĠ diÃłoĠ
juÄģnĠ zÃ¨ng
qÇĲĠyÃ¨ ĠjiÄģĠ
ĠkÇĴngĠtÃłi ĠdÃłĠqÅ«Ġ
Ġ Su
Ġ miÃłnĠduÃ¬Ġ
ĠĠĠ Con
le ĠhÃ©Ġ
fÃº ĠsÄ«Ġ
jiÃ¹ ĠdeĠ
gÇİi ĠyÃ³uĠ
cÃŃ ĠyÇĶĠ
dÄ« ĠdÃ¬Ġ
yÇİng ĠhÃ©Ġ
pÃło ĠdeĠ
DVD Ġ
ĠbÃ¹Ġ lÃ©i
ĠyÄ«Ġ dÃłi
ĠjÃ¬Ġ jiÃ©Ġ
zhÃ¹Ġ rÃ¹Ġ
fÄĵnĠ wÃ©i
bÃ³Ġ lÇİn
bÃłnĠ jÃ¬ngĠ
ĠyÄĽĠ kÄĽĠ
cÄģnĠ tÄ«ng
wÃłiĠjiÄģoĠ guÄģnĠxÃ¬Ġ
suÇĴ ĠzhÄ«Ġ
liÃ¡n ĠsÄ«ĠjÄ«Ġ
miÃłn ĠyÇĴuĠ
sÃłi ĠhÃ©Ġ
tÅįng ĠdeĠ
chuÃ¡n ĠchÃ©ngĠ
xÃº Ġ
ĠshÃ¬Ġ yÃ¬ngĠ
ĠwÃ¨iĠ fÃ¹Ġ
yuÃ¡nĠ sÃ¹Ġ
ĠxÄ«Ġ yÇĶĠ
rÃ¨nĠ nÃ¨iĠ
pÃŃngĠ jiÃ¨Ġ
nÃ¡nĠ yÇİnĠyuÃ¡nĠ
shÇĴuĠ gÄĵĠqÇĶĠ
fÃºĠ lÇĶĠ
yÃłoĠ sÃłiĠ
shÄģĠ tÃ¨Ġ
yÃ¡nĠjiÅ« ĠshÃ¬Ġ
yÇĲĠ lÃ¡i
tÃ¡oĠ lÃŃĠ
ĠdeĠrÃ©nĠ kÇĴuĠwÃ¨iĠ
yÃ¬nĠdÃ¹Ġ jiÃłoĠ
juÃ©ĠsÃ¨Ġ bÃłnĠyÇİn
Ġ 1974ĠniÃ¡nĠ
ĠĠĠ huÃ¬Ġ
ĠĠĠ rÃºĠguÇĴĠ
qÅ« ĠzÃłiĠ
wÃ©n ĠhÃ©Ġ
zhÇİng ĠshÃŃĠjiÄģnĠ
chÃ¹ ĠzÃłiĠ
pÃ¨i ĠsÄ«Ġ
rÃ³u Ġ
ĠniÃ¡n ĠshÃ¬ĠjiÃ¨
ĠdÃ¬Ġ di
jÃ¬Ġ yÃ¬Ġ
ĠgÃ¨ ĠshÃ¬Ġ
ĠjÅ«n ĠjiÃłnĠ
zhÃ¨Ġ zuÃ²Ġ
liÃ¡nĠ xÃ¬
fÄĵnĠ kÄģiĠ
shÄģnĠ kÇĴuĠ
dÄģnĠ dÄģngĠ
biÃłnĠ huÃłĠdeĠ
jiÇİnĠ yÃłnĠ
shÃ¨ngĠ diÃłnĠ
jiÃłnĠ kÄģng
jiÄĽĠ pÅįu
ĠdeĠshÃ¬Ġ wÃ¹Ġ
ĠsuÃ¬ ĠdÃłoĠ
ĠbÇĲĠ jiÃłoĠ
jÃ¹nĠ wÃ¡ngĠ
wÃ¡nĠchÃ©ngĠ hÃ²uĠ
sÅ«nĠ ziĠ
ĠwÃłiĠ jiÄģo
ĠrÃ¨n ĠzhÅįngĠgÃ²ngĠ
guÃ²ĠqÃ¹ ĠdeĠ
Ġ shÄģng
Ġ 78
Ġ 1978
Ġ 1940
ĠĠĠ tÃ¨Ġ
ĠĠĠ hÇİiĠ
ĠĠĠ guÇĲĠdÃłoĠ
ĠĠĠ 1999ĠniÃ¡nĠ
lÇĲ ĠwÃ¨iĠ
fÃ¹ ĠzÃłiĠ
mÄĽi ĠshÃŃĠ
fÄĵn ĠhuÃ¬Ġ
sÃłi ĠhuÃ¬Ġ
wÇĶ ĠjÃŃĠ
wÇĶ ĠrÃ¬Ġ
shÄģn ĠshÃłngĠ
lÃŃn ĠzÃłiĠ
gÇĶ ĠjÃŃĠ
wÄĵi ĠsÄ«Ġ
lÃŃng ĠshÃŃĠ
wÄĵn ĠhÃ©Ġ
chÃ¨ ĠchÅ«Ġ
1898 ĠniÃ¡nĠ
ĠzhÅįngĠ wÇĶĠ
ĠyÇĲĠ cÇĲ
zhÃ¨ngĠ wÄĽiĠ
ĠdÃłn ĠyÃºĠ
zhÃŃĠ jiÃłoĠ
fÇİĠ tÃŃng
fÄĵnĠ xÄ«
liÃºĠ chuÃ¡n
bÃłoĠ dÇİo
xiÄģoĠ miÃ¨
xiÃ©Ġ huÃ¬ĠdeĠ
wÅ«Ġ dÇĲngĠ
dÃłiĠbiÇİoĠ tuÃ¡n
xuÃ¡nĠ lÇľĠ
zhÃłngĠ Ãłi
ĠguÃ³ĠmÃŃnĠ gÃ©ĠmÃ¬ng
ĠtÃ¡ngĠ chÃ¡oĠ
ĠqÃŃĠtÄģ ĠrÃ©nĠ
ĠV Ġ
jiÄģoĠliÃº ĠdÃłoĠ
lÃ¬ ĠniÃ¡nĠ
zhÇĶ ĠjÄ«Ġ
kÄģi ĠdeĠ
luÃ³ ĠyÄ«Ġ
gÇİng ĠdeĠ
ĠshÃ¬Ġ tÃ¡iĠwÄģn
ĠjÃŃĠ jiÃ©Ġ
ĠxiÃłn ĠxÃŃngĠ
jÄ«Ġ hÅ«Ġ
ĠdÃłĠ xiÇİo
ĠyÇĶĠ yÄ«nĠ
ĠchÅ«Ġ shÇĲĠ
bÇİoĠ Äģn
chuÃ¡nĠ fÃ³ĠjiÃłoĠ
biÃłnĠ huÃłn
gÇİngĠ kÇĴu
ĠyÄĽĠ chÄĵngĠwÃ©iĠ
ĠluÃ³Ġ nÃ¨Ġ
ĠpÇĶĠ tÅįngĠ
ĠÃło ĠzhÅįuĠ
sÇĶnĠ shÄģngĠ
ĠwÃ¨iĠyÃºĠgÄģiĠguÃ³Ġ zhÅįngĠbÃ¹Ġ
ĠxÄ«ĠlÃł Ġ
zuÃ¬ĠhÃ²uĠyÄ«Ġ cÃ¬Ġ
ĠpÃŃng ĠjÅ«n
yÃ¬nĠdÃ¬Ġ ÄģnĠrÃ©nĠ
ĠqÇĲ ĠchÅ«Ġ
chÃ³ngĠqÃ¬ng ĠshÃ¬Ġ
ĠzhÄ«ĠjiÄģĠ gÄĵĠ
3 ĠhÃłoĠ
Ġ zhuÃłng
Ġ 140
Ġ Na
Ġ lÃ¹nĠ
ĠĠĠ quÃ¡n
zhÃłn ĠjÄ«Ġ
fÇİ ĠlÃ¬Ġ
mÃ¹ ĠjÄ«Ġ
bÄĽi ĠwÃ¨iĠ
gÄĵ ĠsÄ«Ġ
bÄģng ĠdeĠ
89 ĠniÃ¡nĠ
ĠzÃłiĠ jÃ¹Ġ
ĠyÄ«Ġ shÅ«Ġ
zuÃ²Ġ biÄģoĠ
ĠÃ©rĠ sÇĲĠ
ĠbÃ¬ngĠ zhÇĲĠyÃºĠ
jiÄĵĠ cÃ©ngĠ
tÇĲĠ cÄģoĠ
gÇİiĠ liÃ¡ngĠ
ĠchÃ©ngĠwÃ©iĠ yÃŃĠgÃ¨Ġ
zhÅįngĠdeĠ yÃŃĠgÃ¨Ġ
ĠĠĠdÃ¬Ġ mÃŃngĠ
chÅįngĠ mÇİn
ĠniÃ¡nĠ6ĠyuÃ¨Ġ 1ĠrÃ¬Ġ
guÇİnĠlÇĲĠ jÃº
dÃłnĠ yÃłoĠ
zÃłoĠchÃ©ngĠ leĠ
tÃ¡iĠfÄĵngĠ jÇĲngĠbÃło
ĠruÃ¬Ġ diÇİnĠ
Ġ tÅįng
Ġ dÃº
Ġ 1944
Ġ Ne
Ġ Ca
Ġ yÃłĠlÃ¬ĠshÄģnĠdÃłĠ
mÃŃng ĠyÇĶĠ
qÅ« ĠzhÄ«ĠyÄ«Ġ
fÇİn ĠfÃ¹Ġ
zhuÇİn ĠrÃ¨nĠ
pÃłi ĠchÅ«
rÃ¨ ĠhÃ©Ġ
tuÃ¬ ĠchÅ«
1990 ĠniÃ¡nĠdÃłi
47 ĠniÃ¡nĠ
1950 ĠniÃ¡nĠdÃłiĠ
chÇĴu ĠkÄĵĠ
mm Ġ
ĠshÃŃĠ bÃ¹Ġ
zhÃłnĠ tÄ«ngĠ
nÃ¡nĠ cÃ¨Ġ
ĠbÃ¨iĠ shÄģĠ
ĠpÃŃngĠ gÅ«Ġ
zhÃ¨nĠ yÄģ
bÃ¬Ġ yÃ¨
bÃ¬Ġ yÃło
tÃŃĠ jiÄģo
ĠdeĠdÃ¬Ġ xiÃłĠ
gÃ¹Ġ zhÃłngĠ
chÇĶĠ sÇĲĠ
ĠnÃ¨iĠ rÃ³ng
jiÄģoĠtÅįng ĠbÃ¹Ġ
dÃ²ngĠlÃ¬Ġ xuÃ©Ġ
bÅįĠshÃ¬Ġ dÃ¹nĠ
gÇİnĠlÇİn ĠqiÃºĠ
Ġ yÃ¬
Ã© ĠdeĠ
Ãło ĠkÃ¨ĠxÄ«ĠtÇİĠnÃŃĠdÃłĠqÅ«Ġ
ÄĽr ĠsÄ«Ġ
shÃ¹ ĠzhÄ«Ġ
sÄģn ĠhÃ©Ġ
zhÄĽ ĠzhÄ«ĠyÄ«Ġ
bÃ³ ĠdeĠ
fÃłng ĠdeĠ
44 ĠniÃ¡nĠ
MV Ġ
ĠwÃ¨iĠ rÃ¬ĠbÄĽnĠ
ĠhÃ©Ġ yÇĲĠ
ĠzhÅįngĠ chÇİngĠ
ĠyÃ¬Ġ rÃ¬Ġ
ĠÄĽrĠ fÅ«Ġ
jiÄģnĠ jÃ¬nĠ
zhÃŃĠ tÅįngĠ
ĠbÃ¬ngĠ dÄģnĠrÃ¨nĠ
ĠqÃŃĠ jiÄģnĠ
ĠjÃ¬n ĠchÃ©ngĠ
ĠzhÃłnĠ chÇİngĠ
cÇĲĠ qiÃ¡nĠ
lÃŃnĠ qÅ«Ġ
zÄ«Ġ gÃ©
mÃ©iĠ yÇĴuĠzÃłiĠ
ĠgÄģiĠ dÇİng
cÃ¡iĠ pÃłn
fÃłnĠ chÃ³uĠ
ĠshÃ¹Ġ zÃ¬Ġ
ĠbÅįĠ lÃ¡n
chÄģĠ biÃ©Ġ
sÇĶnĠ hÃłiĠ
ĠshÃ¬ĠyÃ¬Ġ yuÃ¡nĠ
ĠwÃłnĠrÃ©nĠ cÃ¬Ġ
gÇİiĠbiÄģn ĠzÃ¬Ġ
xiÃłngĠmÃ¹ ĠdeĠ
yÇĴuĠbÃ¹Ġ shÇİoĠ
Ġ 1981
Ġ My
Ġ onlyinclude
ĠĠĠ An
lÇĲ ĠyÃºĠ
hÃ²u ĠrÃ©nĠ
qÃŃ ĠxiÃłĠ
zÇĴng ĠrÃ©nĠkÇĴuĠdeĠ
cÃ¡i ĠshÃ¬Ġ
zhÄģo ĠmÃ¹Ġ
text Ġ
ĠshÃ¬Ġ jÃ¬
ĠhÃ©Ġ sÄ«Ġ
ĠhÃ©Ġ hÃ²uĠ
ĠshÃŃĠ wÇĶĠ
yÃ¬Ġ jiÃłnĠ
ĠdÃłn ĠdÃłoĠ
fÃºĠ lÄģĠ
tÃŃngĠ liÃºĠ
ĠdeĠyÄ«Ġ yuÃ¡nĠ
yÄ«nĠ mÃ³uĠ
zhÄĵnĠ zhÅ«Ġ
ĠsuÇĴĠ shÇĶĠdeĠ
chÃ³ngĠ bÃłiĠ
ĠdeĠshÃŃĠ wÃ¹Ġ
sÃ²ngĠ wÇİngĠ
ĠqÄ«ngĠ chÃ¡o
ĠnÇļĠ xÃ¬ngĠwÃ¨iĠ
ĠdeĠjÃ¬Ġ zÇİiĠ
ĠsÄģn ĠgÃ¨Ġ
xiÃłĠjÃ¬Ġ ÃłoĠyÃ¹nĠhuÃ¬Ġ
zhÃłnĠzhÄĵng ĠdeĠ
huÃ¡nĠjÃ¬ng ĠzhÅįngĠ
gÄģoĠdÄĽng ĠxuÃ©ĠxiÃłoĠ
fÃºĠlÃ©i ĠdÃ©Ġ
Ġonlyinclude Ġ
Ġ o
Ġ 24Ġ
Ġ gÅ«ĠjÃ¬Ġ
ĠĠĠ be
jÄ« ĠwÃ¨iĠ
bÃ¨i ĠlÃ¬Ġ
gÄĵng ĠdÃ¬Ġ
hÇİn ĠjiÃłnĠ
ĠzhÄ« ĠrÃ©nĠ
ĠgÃ¨ ĠjÃŃĠ
ĠzhÅįu ĠzhÃ¬Ġ
fÄģĠ diÃłnĠjÄ«Ġ
yÃ¨Ġ zhÄĽĠ
ĠtÃ³ng ĠzhÄ«Ġ
rÃ¹Ġ xuÃ©Ġ
chÃ¡ngĠ chÅ«n
qÄ«ngĠ chÇĶ
yÃ¡nĠjiÅ« ĠrÃ©nĠyuÃ¡nĠ
kÅįngĠ jiÄģnĠdeĠ
hÃ¡nĠ mÃŃnĠguÃ³Ġ
wÄĽiĠyuÃ¡nĠhuÃ¬Ġ zhÇĶĠrÃ¨nĠ
nÃŃngĠ bÅįĠ
Ã¨Ġ liÃ¨Ġ
ĠyÃ¬ĠzhÃŃ ĠdÃłoĠ
ĠhÄģĠÄĽrĠ bÄ«nĠshÃ¬Ġ
tÃłnĠxiÇİn ĠduÃ¬Ġ
0 ĠbÇĲĠ
6 ĠmÃŃngĠ
Ġ 1960
Ġ 1958
Ġ Ju
Ġ huÃ³Ġ
Ġ xÅ«ĠyÃło
yÇĴu ĠĠĠ
zhÃŃ ĠxiÃłnĠ
chÄĵ ĠshÃłngĠ
shÄģn ĠjÃŃĠ
tiÄģn ĠdÃ¬Ġ
qÄ«ng ĠlÇĲĠ
kÃ¹ ĠsÄ«Ġ
ĠzÃłiĠ gÄģoĠ
ĠshÃŃĠ liÃ¹
jÃ¬Ġ zÇİi
jÄ«Ġ xiÃ¨Ġ
ĠÄĽrĠ bÄģĠ
ĠfÃ¹Ġ zÃ¡Ġ
zuÃ¬Ġ dÃł
zÇĴngĠ jiÃ©Ġ
liÃłnĠ jiÄĵĠ
ruÃ¬Ġ shÃ¬ĠdeĠ
mÇĴuĠ zhÇĴngĠ
ĠÄĽrĠsÄ«Ġ kÃ¨Ġ
tÅįngĠguÃ² ĠdeĠ
ĠdÃ©ĠlÇĲĠ kÃ¨Ġ
ĠchÅ«ĠbÇİn ĠleĠ
ĠxÄ«nĠzÄĵngĠ jÃ¬ngĠwÃłiĠshÅ«ĠrÃ¹Ġ
Ġ pÃ¡ng
Ġ ÑĢ
Ġ mÇİnĠ
Ġ 2025ĠniÃ¡nĠ
Ġ 1927ĠniÃ¡nĠ
ĠĠĠ Di
Äģo Ġ
jÇĲ ĠwÃ¨iĠ
shÇĴu ĠzhÄ«Ġ
yÃł ĠÄĽrĠ
Ã¨r ĠgÃ¨Ġ
yÃ²u ĠyÇĴuĠ
mÃ³ ĠÄĽrĠ
gÇİn ĠjÅ«nĠ
dÅ«n ĠdeĠ
sÃłng Ġ
1896 ĠniÃ¡nĠ
ĠyÃºĠ 2007
ĠyÇĴuĠ gÅįngĠ
zhÃ¨Ġ xiÃłngĠ
tiÄģnĠ qiÃ¡oĠ
ĠzhÃ¨Ġ lÃ¨iĠ
tÃłiĠ lÄĵiĠ
ÄģnĠ dÇİĠ
nÃłĠ rÃ¹
bÅįĠ luÃ³Ġ
zhÄĵngĠ yÃ¬ĠdeĠ
shuÅįĠ fÃºĠ
ĠgÄĵnĠjÃ¹Ġ 2010ĠniÃ¡nĠmÄĽiĠguÃ³ĠrÃ©nĠkÇĴuĠpÇĶĠchÃ¡Ġ
ĠgÅįngĠsÄ« ĠhÃ©Ġ
ĠwÃ¨iĠyÃºĠgÄģiĠguÃ³Ġ nÃ¡nĠbÃ¹Ġ
ĠshÃ¬ĠjiÃłn ĠzhÅįngĠ
sÄģngĠ nÃł
xiÅ«ĠzhÃ¨ngĠ ÃłnĠ
nÃ¡ĠpÃ²Ġ lÃºn
mÃŃnĠjÃ¬nĠ dÇİngĠ
Ġ jiÄģo
Ġ bÄ«ng
Ġ zhÄģnĠmÇĶĠsÄ«Ġ
Ġ 1934ĠniÃ¡nĠ
ĠĠĠ ÃłnĠ
Çİi Ġ
rÃ¨n ĠhÃ²uĠ
guÄģn ĠyÇĶĠ
jiÄģng ĠdeĠ
kÄĽ ĠgÅįngĠ
liÃº ĠqiÃº
kuÃ² ĠjiÃłn
mÃ³ ĠsÄ«Ġ
cÃ¡i ĠbÃ¨iĠ
yÃ¬Ġ zhÃŃĠ
ĠyÃ¬Ġ kÄĽĠ
ĠyÇĲĠ wÃłi
ĠjiÃłn ĠzhÄ«Ġ
duÃ¬Ġ cÇĲĠ
ĠxÄ«Ġ bÃ¹ĠdeĠ
xiÄģngĠ cÅ«nĠ
zhÃ¹Ġ yÃ¬ĠdeĠshÃ¬Ġ
ĠhuÃ² ĠqÃŃĠtÄģĠ
wÃ¡ngĠ zÇĲ
fÇĶĠ bÃłiĠ
ĠduÅįĠ cÃ¬
xiÄģoĠ liÃłng
ĠhÃ©ĠguÃ³Ġ jÃ¬Ġ
pÃłiĠ xÃ¬Ġ
bÃ¬ngĠ fÄĵiĠ
leĠyÄ«Ġ chÃ¡ngĠ
ĠyÄ«nĠyuÃ¨Ġ huÃ¬Ġ
pÃŃnĠ lÇľ
shuÃ¬Ġ miÃ¡n
Ġ2011 ĠniÃ¡nĠ12ĠyuÃ¨Ġ31ĠrÃ¬Ġ
chÄģiĠ chÃº
zhuÄģngĠwÃ¨iĠ lÃŃnĠ
Ġ 67
Ġ yuÃ¡nĠshÃ¬Ġ
Ġ 1971ĠniÃ¡nĠ
ĠĠĠ 11
Äģi ĠdÃ©Ġ
yÇĶ ĠgÅįngĠ
nÃ¡n ĠdÃłĠxuÃ©Ġ
shÇĶ ĠdeĠyÄ«ĠzhÇĴngĠ
bÄģn ĠjÄ«Ġ
nuÃ² ĠkÃ¨Ġ
shÃŃĠ qÄ«ĠdeĠ
lÃ¬Ġ chÇİngĠ
ĠbÃ¨iĠ yÃ¹ĠwÃ©iĠ
dÅįngĠ hÇİiĠ
zhÇİngĠ zhÃ³u
qÇĲĠ fÄĵiĠ
mÇĲĠ yÃł
yuÄĵĠ 2
ĠzhÅįngĠguÃ³Ġ gÅįngĠ
mÃ³Ġ fÇİngĠ
zhÇĶnĠ juÃ©ĠsÃłiĠ
ĠniÃ¡nĠ12ĠyuÃ¨Ġ 28ĠrÃ¬Ġ
ĠnÃłĠ meĠ
ĠĠĠyÇĲĠxiÃł ĠwÃ¨iĠ
ÄģĠÄĽr ĠjÃŃĠlÃ¬Ġ
Ġ cÃ¡ng
Ġ 79
Ġ pÄ«Ġ
Ġ bÄģngĠ
Ġ shÄģngĠyÃ¨Ġ
Ġ huÃŃĠdÃłoĠ
Ġ 1933ĠniÃ¡nĠ
ĠĠĠ zhÃ¨
yÇĴu ĠzhÅįngĠ
ti Ġ
fÇİ ĠhuÃ¬Ġ
hÇİi ĠdÃ¬Ġ
fÄĵi ĠÄĽrĠ
nÇĲ ĠdeĠ
pe Ġ
ang Ġ
ĠzhÅįngĠ yÇĲĠ
ĠyÃ¬Ġ fÄģngĠmiÃłn
jÄ«Ġ xiÃ¨
ĠlÇĲĠ jiÄĽĠ
fÃ¹Ġ zÃ¡
nÃ¡nĠ hÃ¡iĠ
ĠshÃ¨ ĠwÃ¨iĠ
huÃłĠ fÄĵnĠwÃ¨iĠ
ĠjiÃłnĠ zhÃ¹ĠdeĠ
ĠqÃŃĠ shÇĴuĠ
ĠzhÃłnĠ bÇĲĠ
jiÄĵĠ duÃłnĠdeĠ
yÃŃĠ cÃ¬ĠshÃ¬ĠjiÃ¨ĠdÃłĠ
ĠdÃłnĠ quÃ¨
ĠxiÄģngĠ bÇĲ
zhÄ«Ġ liÃºĠ
ĠnÃ¡n ĠyÇĶĠ
ĠÃłoĠ mÃ©n
ĠdeĠzhÅįngĠ xÄ«nĠ
shÄģoĠ huÇĲĠ
ĠshÃŃĠzÃ¬Ġ lÇľĠ
wÃłiĠjiÄģoĠ guÄģnĠ
bÇİoĠjiÄģ ĠlÃ¬ĠyÃł
bÄģoĠkuÃ²ĠyÇĲĠxiÃłĠ wÃ¹ĠzhÇĴngĠ
Ġ gÄĵn
Ġ qiÇİn
Ġ juÇİn
Ġ 1939
Ġ fÄģĠshÄĵngĠ
Ġ tÇĶĠdÃ¬Ġ
Ġ 1936ĠniÃ¡nĠ
ĠĠĠ diÃłnĠyÇĲngĠ
yÃ³u ĠshÃ¬Ġ
fÄĵn ĠzhÃ¬Ġ
bÇİn ĠhÃ©Ġ
tÃºn ĠmÃ©nĠ
bÃ¡o Ġ
tiÄģo Ġ
ĠjÃ¬Ġ jÅ«nĠ
ĠxÃŃngĠ diÃłnĠlÃ¬Ġ
ĠchÅ« ĠxiÃłnĠyÃºĠ
ĠÃ©r ĠchÅ«Ġ
qÇĲĠ diÇİnĠ
chÅ«Ġ lÃ¡iĠ
zhÄ«Ġ jiÄģn
jiÇİngĠ huÃłĠ
hÃ¡iĠ mÃ©iĠyÇĴuĠ
zhuÄģnĠ yÃ²ng
ĠzuÃ¬ĠzhÅįngĠ yÇĲĠ
zÃºĠqiÃºĠ jiÇİĠjÃŃĠ
ĠdeĠyÃ¬Ġ jiÃłnĠ
sÄģnĠshÃŃĠ sÃ¬ĠniÃ¡nĠ
yÃ¬ĠshÃŃĠ xÃŃngĠtÃłiĠ
ĠguÃ³ĠwÃ¹Ġ yuÃłn
sÅ«ĠliÃ¡n ĠdeĠ
ĠyÄ«ĠlÃ¬Ġ shÄģĠbÃ¡iĠ
ĠyÄ«ĠsÄ«ĠlÃ¡nĠ jiÃłoĠ
tÃ³ngĠxÃ¬ngĠ liÃłnĠ
ĠhÄĵiĠlÃ³ngĠjiÄģngĠ shÄĽngĠ
zhÇĶĠjiÃłoĠzuÃ²Ġ tÃ¡ngĠ
dÃ¡ĠkÄĵ ĠtÄģĠ
ĠĠĠ fÄĵngĠ
ĠĠĠ wÃłnĠlÃ¬Ġ
mÃŃng ĠdÃ¬Ġ
mÃŃng ĠchÃ©ngĠ
yÃ¹ ĠmÃŃngĠ
yÃ³u ĠhÃ©Ġ
xÄ«n ĠyÃ¬Ġ
mÄĽi ĠyÄ«Ġ
tÃ¨ ĠshÃ¨Ġ
qÃ¬ ĠjÄ«Ġ
gÇİi ĠchÃ©ngĠ
qiÄģn ĠniÃ¡nĠ
chÃ©n ĠshÃ¬Ġ
tÇİ ĠlÃ¬Ġ
bÇİi ĠrÃ©nĠ
ĠbÃ¹Ġ jiÃłnĠ
ĠbÃ¹Ġ yÇĲĠ
jÃŃĠ tuÃ¡nĠ
ĠlÃ¬Ġ fÄģngĠ
ĠqÃŃ ĠhÃ©Ġ
ĠtÄģĠ huÃ¬Ġ
ĠxÄ«Ġ lÃ¹Ġ
shÇĴuĠ pÄ«Ġ
jiÃ©Ġ yÃ¹nĠ
fÄĵnĠ jiÄĽĠ
jiÄĵĠ bÃ³Ġ
ĠyÄ«nĠ ziĠ
ĠdÃłiĠ mÇİĠ
yÃŃĠ chÃºĠ
shÄģĠ mÃ²Ġ
chÅ«Ġ xÃŃĠ
cÃŃĠ qÃ¹Ġ
hÃ¡iĠ yÃłoĠ
ĠbÄģĠ lÃŃĠ
ĠrÃ¬ĠbÄĽn ĠrÃ©nĠ
yÃłĠlÃ¬Ġ sÄģngĠnÃł
dÇİoĠshÃ¬Ġ yuÃ¨ĠtÃ¡iĠ
ĠfÃ¹ĠzÃ© ĠrÃ©nĠ
chÃ©ngĠniÃ¡nĠ rÃ©nĠ
Ġcom Ġ
Ġ xiÃło
Ġ xuÄģn
Ġ He
Ġ nÃ¡nĠbÃ¹Ġ
Ġ hÃ¨ĠÄĽrĠ
Ġ 1940ĠniÃ¡nĠ
ĠĠĠ Ro
liÃ¨ ĠrÃ©nĠ
10 ĠshÃŃĠ
dÃ¡ ĠlÃ¬Ġ
zhÄģng ĠchÃ©ngĠ
tuÃ¡n ĠyuÃ¡nĠ
pÃłi ĠduÃ¬Ġ
dÇİ ĠchÅ«Ġ
liÃłn ĠdeĠ
hÅ«n ĠhÃ²uĠ
yÄ«Ġ cÃ¬Ġ
ĠlÃ¬Ġ wÃ¹Ġ
ĠyÇĲ ĠshÃŃĠ
ĠyÄ«Ġ shÃ¬ĠdeĠ
mÃŃngĠ xiÇİnĠdeĠ
ĠjiÄģĠ ÄĽr
xiÃłĠ shÇĶ
xiÃłĠ xiÃ¡Ġ
ĠjÃ¬n ĠjÅ«nĠ
cÇĲĠ lÃ¨iĠ
yÇĲngĠ yÃ¨Ġ
bÅįĠ lÃŃ
jiÇİnĠ ruÃ²Ġ
wÄĵiĠ ruÇİn
tÃ¡ngĠ chÃ¡oĠ
fÃ¡ngĠ hÃ¹Ġ
gÄģngĠ tiÄĽ
ĠmÄĽi ĠjÅ«nĠ
ĠyÃ²ngĠ hÃ¹Ġ
ĠĠĠyÄ«Ġ xiÄĵĠ
zhÇĴngĠjiÄģĠ cÃŃĠ
6 ĠgÅįngĠlÇĲĠ
Ġ jÅ«
Ġ bÄĵi
Ġ yÄģn
Ġ 1973ĠniÃ¡nĠ
Ġ 1959ĠniÃ¡nĠ
dÃ© ĠjÅ«nĠ
jÃ¹ ĠshÃ¬Ġ
mÇİ ĠshÃłngĠ
liÃło ĠdeĠ
wÇİn ĠhuÃ¬Ġ
ta ĠĠĠ
ell Ġ
ĠgÅįngĠ zhÇĶ
ĠyÄ«Ġ liÃłngĠ
zhÃ¨Ġ chÇİngĠ
ĠduÃ¬Ġ zhÃ¨nĠ
bÄĽiĠ fÄģng
bÄĽiĠ shÃłngĠ
shÄ«Ġ gÄĵĠ
mÇĲĠ lÃ¡nĠ
yÃŃĠ jÅ«
dÄģnĠ nÃŃĠÄĽrĠ
cÃ©ngĠ dÄģnĠrÃ¨nĠ
wÇİngĠ yÃ¨Ġ
ĠyÃ³u ĠjÄ«ĠchÄĵĠ
xiÄģoĠ fÃ¡ng
ĠmÃ¹Ġ biÄģoĠ
ĠĠĠdÃ¬Ġ sÄģnĠ
gÃ¨Ġ lÃ¨i
ĠyÇĴuĠyÄ«Ġ zuÃ²Ġ
tÃłnĠ xiÇİnĠ
ĠcÃ³ng ĠÃ©r
ĠsÅ«Ġ liÃ¡n
zhÅįngĠshÃ¬Ġ yÇİnĠ
zhÄ«ĠchÃŃĠ zhÄĽĠ
dÃŃĠshÃ¬Ġ nÃŃ
nÃ¡nĠsÄ«ĠlÄģĠ fÅ«Ġ
ĠhuÃ¡ĠshÃ¨ngĠ dÃ¹n
Ġ zÄĵng
Ġ fÄģĠxÃŃng
Ġ 1931ĠniÃ¡nĠ
ĠĠĠ yÃ¡nĠ
hÃ²u ĠyÇĴuĠ
wÃ©i ĠshÃ¬Ġ
zhÇĲ ĠhuÃ¬Ġ
nÇļ ĠshÄĵngĠ
bÇİn ĠshÃłngĠ
guÇĴ ĠshÃŃĠ
tÃ©ng ĠyuÃ¡nĠ
hÃ¨n Ġ
ĠwÃ¨iĠ zhÃ¨ngĠ
ĠguÃ³Ġ dÃłĠ
ĠlÃ¬Ġ liÃłng
yÃ¹Ġ nÃłnĠ
mÃŃnĠ yÃ²ngĠ
jiÄĵĠ dÃłiĠ
mÇİĠ lÃ¹Ġ
lÃŃnĠ shÄĽngĠ
tÃłiĠ lÃ¡ngĠ
ÃłoĠ duÅįĠ
tÃŃngĠ huÇĴĠ
kÄĽĠyÇĲĠ bÃ¨iĠ
kÃ¨Ġ lÃ¡iĠ
ĠjiÃłoĠ tÃ¡ngĠ
fÃ¨iĠ zhÇĲĠ
gÃ¹Ġ shÃ¬ĠdeĠ
nuÃ²Ġ fÅ«
ĠwÃ¨iĠdÃ¬Ġ xiÃłĠ
ĠfÄĵnĠbÃ¹ĠyÃºĠ nÃ¡nĠmÄĽiĠzhÅįuĠ
ÄģnĠdÃ©Ġ liÃ¨Ġ
ĠwÃ¨iĠyÃºĠgÄģiĠ shÄĽng
zÄ«ĠbÄĽnĠ zhÇĶĠyÃ¬Ġ
ĠĠĠ lÃ³ngĠ
xÄ« ĠrÃ¬Ġ
mÃ¹ ĠhÃ©Ġ
dÃ¬ng ĠshÃ¬Ġ
jiÃ¨ ĠyÃºĠ
jiÇĶ ĠzhÅįuĠ
77 ĠniÃ¡nĠ
ry ĠĠĠ
one Ġ
ĠshÃ¬Ġ bÄ«ng
ĠzÃłiĠ tÃ¡iĠwÄģn
ĠjÃŃĠ bÃ¨iĠ
ĠlÃ¬Ġ rÃ¨n
ĠlÃ¬Ġ yuÃ¡nĠ
ĠyÄ«Ġ tiÃ¡o
ĠjÃ¬Ġ nÃ©ngĠ
ĠÃ©r ĠqÃŃĠ
chÇİngĠ shÄģngĠ
Ã¨rĠ shÃ¬ĠdeĠ
gÇİiĠ yÃ²ngĠ
ĠwÃłn ĠmÃŃngĠ
qiÄģnĠ yÃŃĠ
ĠdÃłĠxuÃ©Ġ shÄĵngĠ
huÇĴĠ zÄģi
wÄĽiĠyuÃ¡nĠhuÃ¬Ġ fÃ¹ĠzhÇĶĠrÃ¨nĠ
ĠduÅį ĠniÃ¡nĠ
gÄĵnĠjÃ¹ ĠdÃ¬Ġ
ĠbÄĽn ĠyÃºĠ
ĠĠĠzÇİoĠniÃ¡nĠ shÄĵngĠhuÃ³Ġ
zhÅ«ĠshÃ¬ĠhuÃ¬Ġ shÃ¨Ġ
2 ĠhÃło
Ġ zhÃºĠjiÃłnĠ
Ġ jÃŃĠshÃ¬Ġ
Ġ zÇİoĠzÃłiĠ
Äģ ĠkÃ¨Ġ
qÃŃ ĠzhÃ¬Ġ
wÃ©n ĠshÃ¬Ġ
wÃłi ĠdÃ¬Ġ
zi ĠzÃłiĠ
gÄĵ ĠhÃ©Ġ
diÇİn ĠzhÃłnĠ
xiÄģo ĠhÃłoĠ
xÃºn ĠqiÃº
guÃłi ĠwÃ¹Ġ
62 Ġ
76 ĠniÃ¡nĠ
1895 ĠniÃ¡nĠ
ĠshÃ¬Ġ yÄ«nĠ
yÃºĠ lÃ¨Ġ
ĠbÃ¹Ġ shÇĶ
yÇĶĠ zhÃ²u
rÃ¨nĠ tÃ³ngĠ
zhÇİngĠ guÄģn
ĠzuÃ²Ġ wÃ©iĠyÄ«Ġ
zuÃ¬Ġ dÄ«
ĠzÃ¬Ġ chÄĵngĠ
ĠxiÄģngĠ xÃ¬n
dÄģnĠ dÃº
tÃŃĠ qÃŃn
ĠnÃ¡nĠ fÄĵiĠ
sÇĲĠ qÃ¹Ġ
ĠĠĠshÃ¬Ġ jiÃ¨Ġ
niÇİoĠ lÃ¨i
cuÃ²Ġ wÃ¹ĠdeĠ
zhÃłnĠzhÄĵngĠ qÄ«ĠjiÄģnĠ
ĠjÄ«ĠbÄĽnĠ shÃłngĠ
bÃºĠ huÃ¬ĠzÃłiĠ
ĠĠĠbÄĽnĠshÇĶĠ bÄģoĠkuÃ²ĠyÇĲĠxiÃłĠwÃ¹ĠzhÇĴngĠ
Ġ Å
Ġ liÃ¡o
Ġ lÃ¡o
Ġ nÇĶ
Ġ kuÃł
ĠĠĠ ÃłoĠ
ĠĠĠ rÃ©nĠwÃ¹Ġ
ĠĠĠ guÄģngĠxÃ¹Ġ
yÃ²ng ĠyÇĶĠ
sÄģn ĠrÃ¬Ġ
tÃ¡i ĠhÃ²uĠ
zÃ© ĠyÃºĠ
gÇİi ĠjiÃłnĠ
jiÅ« ĠfÄĵnĠ
pÄĵi Ġ
ĠzÃłiĠ jiÃłnĠ
ĠzhÃ¬Ġ piÃłnĠrÃ©nĠ
ĠlÃ¬Ġ zhÄ«Ġ
ĠxÄ«Ġ nÃŃĠ
jÃ¹Ġ luÃ²Ġ
liÃ¡nĠ suÇĴĠ
ĠzhÃłnĠ duÃ¬Ġ
bÄĽiĠ mÄĽi
ĠzhÃ¨ngĠ wÃ¹Ġ
tÇĲĠ cÄģo
shÃ²uĠ piÃłoĠ
qÄ«ngĠ chÃ©nĠ
ĠxÄ«nĠ zhÃº
gÃ²uĠ zÃło
pÃ²Ġ chÇİnĠ
zÅįngĠ sÃ¨Ġ
ĠpÃŃngĠfÄģngĠ qiÄģnĠ
ĠĠĠshÃ¬Ġ jiÃłnĠ
hÃ¹nĠ luÃłn
ĠĠĠgÅįngĠ yuÃ¡nĠ
jiÄģngĠxÄ«Ġ shÄĽngĠ
kÃ¨ĠlÇĲĠ mÇĲĠyÃłĠ
mÃ¹ĠnÃŃĠ hÄĵi
jÃ¹ĠfÄĵng ĠzhÅįngĠxÄ«nĠ
Ġ zhuÄ«
Ġ 1947
Ġ bÄģĠshÃ¬Ġ
Ġ yÄ«ĠshÃ¬Ġ
Ġ jÇĲĠyÇĶĠ
Ġ 1953ĠniÃ¡nĠ
xÄ« ĠdÃłoĠ
lÃ¹ ĠzhÅįngĠ
chÄĵ ĠhÃ©Ġ
gÄģi ĠgÅįngĠsÄ«Ġ
chuÃ¡n ĠdÃłoĠ
tÃº ĠshÃłngĠ
kÅįng ĠdeĠ
dÇĲ ĠyÃ¹Ġ
yÄģng ĠshÃ¬Ġ
mÇĴu ĠyÄ«Ġ
shuÃ¬ ĠwÃ¹Ġ
pÃ¹ ĠbÃ¹Ġ
ĠzÃłiĠ guÃ³Ġ
ĠlÃ¬Ġ wÃ©iĠ
zhÇĶĠ bÃłn
liÃ¡nĠ tÃ³ngĠ
chÃ¡ngĠ yÃ²ngĠ
bÃ¬Ġ hÃ¹Ġ
biÃłnĠ dÃ²ngĠ
jiÃ¹Ġ zhÃŃĠ
huÃ¡Ġ bÄ«ngĠ
gÃ¨ngĠ hÇİoĠdeĠ
ĠdeĠgÅįngĠ gÃ²ngĠ
shÃłoĠ jiÃłng
ĠjÇĲnĠguÇİnĠ rÃºĠcÇĲĠ
ĠfÇİn ĠÃ©rĠ
Ġ hÃ³u
Ġ wÇĶĠniÃ¡nĠ
Ġ zuÇĴĠyÃ²uĠ
ĠĠĠ mÃ²Ġ
shÄģn ĠzhÃłnĠ
zhÃłng ĠhÃłoĠ
duÇİn ĠqÄ«Ġ
tiÇİo ĠzhÃłn
69 ĠniÃ¡nĠ
tes Ġ
hÃ©Ġ yuÄĵĠ
bÃ¹Ġ tÃ³ng
ĠgÃ¨Ġ tÇĲĠ
xÄ«nĠ tÃ¡iĠbÃ¬Ġ
ĠdÃłn ĠyÇĴuĠ
ĠtÃ³ng ĠniÃ¡nĠ7ĠyuÃ¨Ġ
shÃ²uĠ piÃło
bÄģĠ sÄģiĠÄĽrĠ
chÇİnĠ jiÄĵĠjÃŃĠ
tuÃ¡nĠ duÃ¬
xiÄģoĠ miÃ¨Ġ
zhÃ¨ngĠzhÃ¬Ġ wÄĽiĠyuÃ¡nĠ
qÄ«nĠ fÃłnĠ
ĠshÄ«Ġ fÃłn
chÇĶĠ fÃ¡Ġ
ĠdeĠshÃŃĠ qÄ«Ġ
xiÄģngĠshÃ¬Ġ jÇĶĠrÃ©nĠ
ĠqÃŃĠzhÅįngĠnÃ¡nĠ xÃ¬ngĠwÃ¨iĠ
zhÅ«ĠlÃ³ngĠ cÇİoĠ
nuÃ²ĠmÃłnĠ dÇĲ
Ġ Äĵn
Ġ bÇİnĠbÄĽnĠ
xÄ«n ĠshÃ¬ĠzhÃ¨nĠ
pÃŃng ĠhÃ©Ġ
tÃ¡i ĠdÃłĠ
shÃ²u ĠquÃ¡n
bÇĲ ĠjÃ¬Ġ
zÃ© ĠhuÃ¬Ġ
qÃ¬ ĠzhÃ¬Ġ
bÃło ĠmÃŃngĠ
hÃ¹ ĠlÇĲĠ
yÃłng ĠshÃ¬Ġ
95 ĠniÃ¡nĠ
74 ĠniÃ¡nĠ
ĠwÃ¨iĠ jÅ«nĠ
ĠdÃ¬Ġ yÃŃĠgÃ¨
ĠyÃºĠ dÃłĠ
ĠrÃ©nĠ qÃ¬Ġ
ĠrÃ©nĠ yuÃ¡nĠdeĠ
shÃ¹Ġ jÃŃĠshÃ¬Ġ
zhÃŃĠ quÃ¡nĠ
ĠzhÃłnĠ shÃ¹Ġ
ĠzhÃ¨ngĠ miÃłnĠ
shÄģnĠ dÅįng
yÃŃĠ tÇĲĠ
liÃºĠ jÄ«ngĠ
qÃ¬Ġ wÄĵnĠ
ĠdeĠyÄ«Ġ mÃŃngĠ
ĠshÇĴuĠ fÇĶ
liÃłnĠ xÃŃ
leĠyÄ«Ġ xiÃłngĠ
rÃ©ngĠrÃ¡n ĠshÃ¬Ġ
sÄ«ĠdÃ¬Ġ fÄĵnĠ
ĠdÃłĠjiÇİngĠ sÃłiĠ
zhÃŃĠlÃ¹ ĠhÃ²uĠ
hÃ¹nĠxiÃ¡o Ġ
Ġ xiÃ¡
Ġ huÃłn
Ġ ruÃ¬
Ġ ãģĦ
Ġ chÇİnĠshÄĵngĠ
Ġ 1962ĠniÃ¡nĠ
zhÄ« ĠfÃ¹Ġ
mÃŃn ĠzÃłiĠ
tÇĲ ĠshÃ¬Ġ
xÃ¬ng ĠxÃŃngĠwÃ¨iĠ
shÄģn ĠchÃ©ngĠ
bÅį ĠjÃŃĠ
jÇĲn ĠshÃ¬Ġ
mÃ³ ĠdeĠ
99 ĠniÃ¡nĠ
61 ĠniÃ¡nĠ
ĠshÃ¬Ġ jÃ¬ĠshÃŃĠ
ĠhÃ©Ġ bÃ¨iĠ
ĠzhÃ¬Ġ ÄģnĠ
ĠdÃ©Ġ guÃ³ĠdeĠ
diÃłnĠ yÄģĠ
sÃłiĠ tÇĲng
kÄĵĠ luÃ³ĠlÄģĠ
zÇĴngĠ bÄ«ngĠ
wÃºĠ xiÃłoĠ
shÄģĠ sÇĲ
shÄģĠ shÇĴuĠ
shÄģngĠ pÇĲn
ĠdeĠdÃ¬Ġ yÄ«ĠbÃ¹Ġ
huÃŃĠ xiÇİngĠ
ĠshÃ¬ĠjiÃ¨Ġ yÃŃĠchÇİnĠ
ĠmÄĽiĠ cÃ¬Ġ
2001ĠniÃ¡nĠ zÇĴngĠrÃ©nĠkÇĴuĠ
ĠsuÃŃĠ hÃ²uĠzÃłiĠ
mÇĴuĠ zhÇĴng
fÇİnĠyÃ¬ng ĠleĠ
ĠhÃ©ĠbÃ¬ng ĠÃ©rĠchÃ©ngĠ
dÇİĠjÄ«Ġ lÇľĠ
ĠĠĠgÄģiĠdÃ¬Ġ 2001ĠniÃ¡nĠzÇĴngĠrÃ©nĠkÇĴuĠ
4 ĠgÅįngĠlÇĲĠ
Ġ 120
chÅ« ĠdeĠ
dÇİng ĠzhÇĶĠxÃŃĠ
bÄ«ng ĠduÃ¬Ġ
tÇİ ĠdeĠ
ruÃ² ĠdeĠ
niÇĶ ĠxÄ«ĠlÃ¡nĠ
mÄĽng ĠgÇĶĠ
der ĠĠĠ
83 ĠniÃ¡nĠ
ĠzÃłiĠ 17
ĠdÃ¬Ġ 5Ġ
ĠyÇĲ ĠyÄ«Ġ
mÃŃngĠ cÃŃĠ
guÄģnĠ jiÃ©Ġ
yÃ¹Ġ qÄ«Ġ
ĠzuÃ²Ġ wÃ¹Ġ
ĠtÃ³ng ĠmÃŃngĠ
xÃ¬ngĠ zhÃ¬ĠdeĠ
ĠshÃ¨Ġ huÃ¬ĠdeĠ
zÇĴngĠ gÃ²ngĠ
shÃ¨ngĠ bÇĲĠdÃ©Ġ
zÃºĠ gÃ²u
yÇĲnĠ dÇİoĠ
bÃ¡iĠ jÄ«nĠ
xÃºnĠ wÃ¨nĠ
ĠzhÃ¨ ĠwÃ¨iĠ
piÃłoĠ fÃ¡ng
xuÄģnĠbÃ¹Ġ jiÄģngĠ
ĠniÃ¡nĠdÃłi ĠwÃ¨iĠ
Ġ6 ĠsuÃ¬ĠrÃ©nĠkÇĴuĠ
ĠchÃ³ngĠ qÃ¬ng
ĠxÄ« ĠrÃ¬ĠbÄĽnĠ
dÃłĠbÃ¹ĠfÃ¨n ĠdeĠ
gÄģnĠsÃ¹Ġ shÄĽngĠ
guÄ«ĠlÃ¨i ĠwÃ¨iĠ
wÅ«ĠlÇĶĠ mÃ¹
A ĠĠĠ
Ġ hÃ©ng
Ġ 32
Ġ à¤
Ġ xÄ«ĠbÃ¹Ġ
Ġ zhÄģnĠ
ĠĠĠ tÃ³ngĠshÃŃĠ
jÃ¹ ĠlÃ¬Ġ
shuÇĲ ĠwÃ¨iĠ
hÃ³ng ĠqÃŃĠ
41 ĠniÃ¡nĠ
ĠyÇĲ ĠzhÃ¬ĠyÃºĠ
ĠyÄ«Ġ duÃłn
ĠgÃ¨ ĠshÃ¬ĠzhÃ¨n
xiÃłngĠ zhÄĵng
ĠpÃŃngĠ hÃ©ngĠ
xÃ¬ngĠ xÄ«nĠ
tÃŃĠ qÃŃnĠ
biÃłnĠ liÃłngĠ
jiÃ¹Ġ jÄ«nĠshÄģnĠ
shÇĶĠ shÇĶĠ
wÄĽiĠ rÃ¨nĠwÃ¨iĠ
ĠdeĠdÃ¬Ġ di
ĠtÃ³ngĠ mÃ©ngĠ
bÄ«ngĠ tuÃ¡n
qiÃºĠ duÃ¬ĠdeĠ
rÃ¡nĠ shÄģo
fÃ¡Ġ kuÇİnĠ
xiÄģoĠfÃ¨iĠ zhÄĽĠ
jiÄģoĠchÄģĠ kÇĴuĠ
hÃ¹nĠnÃŃngĠ tÇĶĠ
qÄ«ngĠzhÄĵnĠ sÃ¬Ġ
Ġ pÃ²
Ġ lÃłi
Ġ 1937
Ġ mÃ©ngĠgÇĶĠ
ĠĠĠ i
ĠĠĠ So
ĠĠĠ zuÃ²ĠpÇĲnĠ
guÄģn ĠzhÅįngĠ
fÇİ ĠxÄ«ĠsÄ«Ġ
fÄĵn ĠduÃ¬Ġ
diÃłn ĠjÃŃĠ
jÇĲng ĠdeĠ
hÃłn ĠwÃ¨iĠ
lÃ³u ĠgÄģoĠ
hÃ©n ĠjÃ¬Ġ
ĠzÃłiĠ bÄĽnĠ
ĠjiÄģĠ dÃłĠ
pÃŃngĠ dÄĽngĠ
jÄ«ngĠ dÅ«
jÄ«ngĠ quÃ¨Ġ
jiÃ©Ġ zÃ²u
diÃłnĠ chÇİngĠ
tÇĲĠ zhÃ²ngĠ
xiÇİoĠ zhÃ¨nĠ
shÅ«Ġ diÃłnĠ
zÇĴngĠ zhÃŃĠ
fÃ¡ngĠ ziĠ
qiÃ¡ngĠ liÃ¨
hÃºĠ guÇİngĠ
gÇİnĠ shÃ²uĠ
chÇĶĠ fÃ¨nĠ
qiÃ¡oĠ liÃ¡ng
ĠmÄĽi ĠzhÅįu
ĠmÄĽiĠguÃ³Ġ guÃ³ĠjiÄģĠ
jÇĶĠbÃłn ĠleĠ
lÃ¡nĠkÃ¨Ġ lÃŃnĠ
cÄģnĠmÃ³u ĠbÃ¹Ġ
ĠbÄĽiĠjÄ«ng ĠshÃ¬Ġ
Ġ shÄĽn
Ġ tÇĴngĠyÄ«Ġ
Ġ yÃ¬nĠnÃŃĠ
Ġ 1951ĠniÃ¡nĠ
Ġ 1928ĠniÃ¡nĠ
ĠĠĠ 1945
tÃ¨ ĠyÃ¬Ġ
zuÃ¬ ĠjÃ¬n
gÇĶ ĠquÃ¡nĠ
sÃ¹ ĠshÃŃĠ
fÃłng ĠdÃłĠ
chuÄģn ĠjiÄģĠ
cÃ¹ ĠshÇĲĠ
48 ĠniÃ¡nĠ
ss Ġ
1930 ĠniÃ¡nĠdÃłiĠ
piÃ¡n Ġ
wÃ¨iĠ lÃ¡iĠ
ĠzÃłiĠ zhÃ¨ĠlÇĲĠ
ĠbÃ¹Ġ kÄĽ
zhÃ¬Ġ liÃłngĠ
ĠgÅįngĠ wÃ¹Ġ
ĠyÄ«Ġ guÃ³Ġ
ĠÄĽr ĠjÄ«Ġ
ĠdÃ©Ġ piÃłoĠ
huÃłĠ wÃ¹Ġ
jÄ«ngĠ shÄ«Ġ
wÃ©nĠ zÃ¬
dÃ²ngĠ cÃŃĠ
ĠqÃŃĠ shÄ«Ġ
ĠyÃ³uĠ mÄĽiĠguÃ³Ġ
chÄĵĠ chÇİngĠ
bÄģĠ nÃ¡
yÇĲnĠ cÃ¡ng
ĠyÇĲĠjÃŃĠ qÃŃĠtÄģĠ
mÃ¬ngĠ zhÃ²ngĠ
gÃ¹Ġ tÇĲĠ
ĠgÃ¹Ġ cÇĲĠ
ĠdeĠhÃ©Ġ zuÃ²Ġ
lÇĲngĠdÇİoĠ xiÃłĠ
ĠwÃ¨iĠyÃºĠfÇİĠguÃ³Ġ dÃłĠdÅįngĠbÃ¹ĠdÃłĠqÅ«Ġ
zhÇİnĠshÃ¬Ġ leĠ
ĠĠĠyÄ«nĠ cÇĲĠ
Ġ 33
Ġ 1943
Ġ Lu
ĠĠĠ He
ĠĠĠ hÄģĠ
zhÅįu ĠshÃ¬Ġ
fÄĵng ĠshÃ¬Ġ
jÇĲn ĠzÃłiĠ
zhuÄģn ĠxiÃłnĠ
sÃ²ng ĠdeĠ
53 ĠniÃ¡nĠ
tuÇĴ ĠyuÃ¡nĠxÃŃngĠ
ĠzÃłiĠ ÄģĠ
ĠzhÅįngĠ suÇĴĠ
ĠyÇĴuĠ kÄĵĠ
ĠyuÃ¡nĠ xiÄģn
ĠlÇĲĠ miÃłnĠ
ĠÃ©r ĠtÄģĠ
ĠwÃ©iĠ yÄĽĠ
ĠkÃ¨Ġ yÃ¹n
gÄģoĠ xiÃ³ngĠ
shÄģnĠ gÇĶĠ
chÃ¡ngĠ jiÄģng
ĠshÃ¨Ġ rÃ¹Ġ
huÃ²Ġ bÃ¬
ĠshÃ¬ĠyÄ«Ġ mÃŃng
ĠniÃ¡nĠ5ĠyuÃ¨Ġ 1ĠrÃ¬Ġ
ĠshÇĲ ĠdÃ¬Ġ
diÃłoĠchÃ¡Ġ jÃºĠ
ĠdeĠyÃ¬Ġ yÃ¬Ġ
zuÃ²ĠpÇĲn ĠdeĠ
zÅ«Ġ lÃ¬n
tiÄģnĠrÃ¡nĠ qÃ¬Ġ
ĠlÃ¹ĠyÃ¬Ġ sÄ«Ġ
yÃ©ĠlÃ¹ĠsÄģĠ lÄĽng
Ġ Car
Ġ hÃ³uĠ
Ġ zÅ«nĠ
Ġ 1965ĠniÃ¡nĠ
Ġ 1941ĠniÃ¡nĠ
ĠĠĠ tÃłiĠ
ĠĠĠ suÇĴĠyÇĴuĠ
le ĠzhÅįngĠ
dÃ¹ ĠyÇĶĠ
chÃ¡ng ĠniÃ¡nĠ
zÃ© ĠshÃ¬ĠzÃłiĠ
shÄĽng ĠdeĠyÃŃĠgÃ¨Ġ
xiÇİng ĠdÃłoĠ
shÅįu ĠyÃ¬Ġ
pÃ¨i ĠyÄ«nĠyuÃ¡nĠ
ke ĠĠĠ
hÃ©Ġ zuÃ²Ġ
ĠbÃ¹Ġ xÅ«ĠyÃłoĠ
ĠyÃºĠ 8ĠyuÃ¨Ġ
ĠlÃ¬Ġ zhÃ¬Ġ
ĠyÃ¬Ġ rÃ¬
jiÄģĠ sÃ¹Ġ
ĠyÄ«Ġ shuÅįĠ
ĠzhÄ« ĠchÃ©ngĠ
ĠdÃłĠ yuÃ¡nĠ
ĠyÇĲĠ xiÃłĠdeĠ
nÃ¡nĠ nÇļĠ
ĠdÃłn ĠshÄĵngĠ
sÃ¬Ġ cÃ¬Ġ
qÄ«ngĠ chÅ«nĠ
qÄ«ngĠ xiÃłngĠyÃºĠ
bÅįĠ kuÇİnĠ
ĠquÃ¡nĠ shÅ«Ġ
gÇİngĠ qÅ«Ġ
bÃłnĠ lÇļĠ
tÃ¡ngĠ nÃłĠ
ĠdeĠdÃ¬Ġ fÄģng
huÃ¡ngĠ pÇĶĠ
mÃ³Ġ luÃ²Ġ
bÃ¡iĠ Ã©ĠluÃ³ĠsÄ«Ġ
chuÃłngĠ lÃ¬ĠdeĠ
chÇĲĠ cÃ¹nĠ
ĠxiÃłnĠdeĠyÃŃĠgÃ¨ ĠchÃ©ngĠzhÃ¨nĠ
ĠshÃ¬ĠwÅ«ĠkÃ¨ĠlÃ¡n ĠdeĠ
yÇĲĠsÃ¨Ġ liÃ¨Ġ
ĠĠĠwÃłiĠbÃ¹Ġ liÃ¡nĠjiÃ©Ġ
lÇĲngĠxiÃ¡n ĠzhÇĶĠyÇİnĠ
Ġ lÃºn
Ġ zÃ¡
Ġ fÄģĠxiÃłn
Ġ tĠ
ĠĠĠ hÃłnĠ
le ĠtÄģĠmenĠdeĠ
xÄ«n ĠniÃ¡nĠ
zhÇİng ĠshÃ¬Ġ
guÇİn ĠhÃ©Ġ
liÇİng ĠdÃ¬Ġ
huÃ¡ ĠshÃ¬Ġ
biÃłn ĠyÃ¬Ġ
bÃ³ ĠmÃŃngĠ
93 ĠniÃ¡nĠ
ĠshÃ¬Ġ luÃ³ĠmÇİĠ
dÃłĠ xÄ«ĠyÃ¡ngĠ
ĠgÅįngĠ shÇĶĠ
wÃ©iĠ hÃ¹
ĠdÃłĠ tÃ³ngĠ
ĠjÃ¬n ĠniÃ¡nĠlÃ¡iĠ
duÅįĠ dÃ¡Ġ
zhÇĲĠ dÃ¬ngĠwÃ¨iĠ
ĠquÃ¡n ĠniÃ¡nĠ
bÇĲĠ jiÃło
yÃłĠ nÃłĠ
shÄĵnĠ shÃ²uĠ
dÅįuĠ nÃ©ngĠ
chuÃłngĠ yÃ¨Ġ
tÅ«Ġ juÃ©
kÃłnĠ qÇĲĠlÃ¡iĠ
ĠnÇļĠ xÃ¬ng
jiÃłoĠyÃ¹ ĠdeĠ
ĠguÃ³ĠjiÄģ ĠhÃ©Ġ
gÃ©ĠmÃ¬ng ĠhÃ²uĠ
ĠchÅ«ĠbÇİn ĠdeĠ
sÄ«ĠlÃ¡nĠ jiÃłoĠ
Ġ hÅ«
Ġ dÃłngĠtiÄģnĠ
ĠĠĠ xiÇİoĠxÃŃngĠxÄ«ngĠ
mÄĽi ĠgÃ¨
dÃ¡ ĠdÃło
nÃł ĠshÃŃĠ
lÇĲng ĠnÃ¡nĠ
tiÃ¡n ĠshÃ¬Ġ
xiÄģ Ġ
fÄĽng ĠcÃ¬Ġ
name Ġ
ĠshÃ¬Ġ yuÃ¨Ġ
yÇĴuĠ yÄ«Ġ
ĠdÃ¬Ġ wÇĶ
ĠlÇĲĠ huÃ¬Ġ
rÃ¨nĠ wÃ¹
xiÄģngĠ sÃ¬ĠdeĠ
shÇĴuĠ qiÃºĠ
zhÃŃĠ lÃ¹Ġ
ĠxuÃ©Ġ kÄĵĠ
qÇĲĠ yÃ²ng
ĠjÃ¹Ġ shuÅįĠ
yÄ«ngĠ tiÄģnĠ
biÃłnĠ hÃ¹Ġ
gÃ²ngĠ fÃ¨ng
yÃŃngĠ yÇİngĠ
zhÅ«Ġ rÃºĠ
tiÄĽĠ lÃ¹ĠxiÃłnĠ
sÇĲĠ wÃ¡ngĠdeĠ
bÇĶĠ chÃ¡ngĠ
bÄĵiĠ guÃłnĠjÅ«nĠ
yuÇİnĠ zhÄĵng
ĠzhÄ«ĠchÃŃĠ zhÄĽĠ
ĠgÄģiĠshÄĽngĠfÃ¨nĠwÃ¨iĠfÇİĠguÃ³Ġ zhÅįngĠ
ĠW Ġ
ĠjÄ«ĠgÃ²u ĠdeĠ
gÅįngĠgÃ²ngĠ jiÄģoĠtÅįngĠ
nÃ¡nĠsÄ«ĠlÄģĠ fÅ«
dÃłnĠshuÇĲ ĠyÃºĠ
Ġ 1961ĠniÃ¡nĠ
ĠĠĠ gÃ©Ġ
ĠĠĠ zhÄ«Ġ
qiÃ¡n ĠbÃ¨iĠ
qÇĲ ĠzÃłiĠ
zhÄĽ ĠyÇĴuĠ
jiÃ¹ ĠyÇĲĠjÄ«ngĠ
65 Ġ
67 ĠniÃ¡nĠ
dÃ¬Ġ zhÃ¬Ġ
ĠgÅįngĠ lÇľĠ
ĠyÃ¬Ġ tÃºĠ
ĠrÃ¬ ĠdÃłoĠ
jÄ«Ġ bÃłi
wÃ©iĠ duÅįĠlÃ¬ĠyÃłĠ
ĠjiÄģĠ bÄ«nĠ
huÃłĠ zuÃ²Ġ
kÄģiĠ chÃºĠ
zhÃŃĠ nÃ©ngĠ
ĠzhÃłnĠ chÄĵĠ
ĠpÃŃngĠ gÅ«
chÃ¡ngĠ shÃ¹Ġ
zhÃ²ngĠ duÅį
ĠzhÃ¨Ġ liÇİngĠ
luÃ³Ġ nÃłĠ
jiÄģoĠ xiÇİng
gÃ²ngĠ fÃ¨ngĠ
chÅ«Ġ yÇİnĠ
pÃ¡iĠ xÃ¹Ġ
ĠniÃ¡nĠ2ĠyuÃ¨Ġ 24ĠrÃ¬Ġ
ĠwÃºĠ lÃ¹n
xiÇİnĠ zhÃ¹ĠdeĠ
ruÃ²Ġ gÄģnĠ
niÃºĠ jÄ«n
jÅ«nĠshÃ¬Ġ tÇİnĠdÄ«ngĠ
jiÄģngĠwÃ©iĠwÃºĠÄĽrĠ zÃ¬ĠzhÃ¬ĠqÅ«Ġ
Ġ xiÄĽĠ
Ġ jiÄģoĠtÅįngĠ
Ġ 1912ĠniÃ¡nĠ
ĠĠĠ Ex
ĠĠĠ xiÃłnĠdÃłiĠ
qÄ« ĠxÄ«Ġ
xiÃł ĠwÃ¨iĠ
bÃ³ ĠlÇĲĠ
gÇİi ĠjiÃłnĠwÃ¨iĠ
pÃ¡i ĠwÃ¨iĠ
bÇİng ĠdÃ¬Ġ
nÇĶ ĠsÄ«Ġ
chuÃ² ĠhÃłoĠ
lÃ¬Ġ fÇİĠ
yÇĴuĠ xiÃłoĠ
ĠrÃ©nĠ wÃ©nĠ
zuÃ²Ġ qÇĶĠ
ĠbÃ¨iĠ liÃ¨ĠwÃ¨iĠ
ĠmÃŃngĠ xiÇİn
xiÃłĠ shuÇĲĠ
mÃ¹Ġ fÇĶĠ
bÄĽiĠ hÃ¡n
mÇİĠ tÃ³u
mÇİĠ nÃŃĠ
bÃ¬Ġ yÃłoĠdeĠ
Ã¨rĠ cÃ©ngĠ
ĠxiÄģngĠ liÃ¡nĠ
huÃ¡Ġ bÄĽiĠ
xiÄģoĠ chÃºĠ
fÃłngĠ yÃ¬ngĠ
ĠtiÄģnĠ qÇĲĠ
ĠĠĠshÄĵngĠ tÃłiĠ
ĠfÄĵngĠ bÃłoĠ
ĠliÇİngĠ zhÄĽĠ
ĠĠĠlÃ¬Ġ rÃºĠ
ĠyÃ³uĠxÃ¬ ĠzhÅįngĠ
chÃŃĠxÃ¹ ĠdÃłoĠ
ĠzhÃłnĠzhÄĵng ĠdeĠ
Ġ zhÄģn
Ġ Bo
Ġ xuÃ¨Ġ
Ġ lÃłiĠ
Ġ mÃ¡Ġ
Ġ 1963ĠniÃ¡nĠ
Ġ 1930ĠniÃ¡nĠ
Ġ 1913ĠniÃ¡nĠ
ĠĠĠ shÄ«Ġ
ĠĠĠ rÃ³ngĠyÃ¹Ġ
xiÃłng ĠzhÅįngĠ
bÃ³ ĠlÃ¬Ġ
jÃº ĠzÃłiĠ
hÄģ ĠbÃ¹ĠsÄ«Ġ
kÃ²ng ĠgÇĶĠ
pÃ¡ng ĠdÃłĠ
chÇĴu Ġ
nÃ²ng Ġ
ĠdeĠ zÃ¬Ġ
ĠwÃ¨iĠ tÃ¡iĠwÄģnĠ
ĠyÇĴuĠ sÄģnĠ
ĠgÅįngĠ yuÃ¡nĠdeĠ
ĠyÄ«Ġ lÄģĠkÃ¨Ġ
ĠxÃŃng ĠyÇĶĠ
shÄĵngĠ chÄĵng
ĠzhÄ«Ġ mÃŃngĠdeĠ
ĠmÃŃngĠ jiÃłoĠ
nÃ¨iĠ wÃłiĠ
dÃ¬ngĠ yÃ¬ĠdeĠ
ĠxiÄģngĠ tÃ³ngĠdeĠ
dÄģnĠ yÅįuĠ
zhÄ«Ġ ziĠ
cÃŃĠ chÇİngĠ
ĠshÃ¬ĠyÄ«Ġ kuÇİn
leĠyÄ«Ġ xÃ¬ĠliÃ¨Ġ
Ã¨rĠshÃŃĠ Ã¨rĠniÃ¡nĠ
ĠlÃ¬ng ĠrÃ©nĠ
ĠzhÃ¨ĠshÃ¬Ġ yÄ«nĠwÃ¨iĠ
dÅįngĠnÃ¡nĠ yÃł
rÃ©nĠkÇĴuĠshÃ¹ĠliÃłng ĠwÃ¨iĠ
shÄ«ĠfÃłn ĠxuÃ©ĠxiÃłoĠ
Ġ wÇİn
Ġ kuÃłngĠ
Ġ tÇĶĠÄĽrĠqÃŃĠ
Ġ 1939ĠniÃ¡nĠ
Ġ 1957ĠniÃ¡nĠ
ĠĠĠ bÇĲĠ
ĠĠĠ bÃ³Ġ
yuÃ¡n ĠĠĠ
jiÃłn ĠzhÃ¬Ġ
nÃ¡n ĠyÇĴuĠ
mÇİ ĠhuÃ¬Ġ
dÅįng ĠshÃ¬Ġ
cÄģn ĠzhÃłnĠ
zhÄģng ĠlÃ¹ĠyÄ«nĠshÃ¬Ġ
gÇİng ĠwÃ¨iĠ
cÃŃ ĠhÃ©Ġ
fÃ¡ng ĠdÃ¬ĠchÇİnĠ
xÃ¬n ĠzhÅįngĠ
shÃº ĠxÄ«Ġ
shuÄģi ĠjiÄģoĠ
51 Ġ
73 ĠniÃ¡nĠ
1889 ĠniÃ¡nĠ
ĠbÃ¹Ġ yÃŃĠ
ĠyÃºĠ mÃŃngĠ
ĠrÃ©nĠ jÅ«nĠ
ĠtÄģ ĠdÃłoĠ
lÇĲĠ jiÄĽĠ
ĠjÃ¬Ġ zhÄĽ
wÃ¹Ġ yÃ¨Ġ
yÃ¡nĠ yÃ²ngĠ
yÃ²ngĠ tÃº
ĠdÃłn ĠyÄ«n
ĠdÃłn ĠhÃ²uĠlÃ¡iĠ
jiÃ©Ġ jÃºĠ
jiÄĵĠ zhuÄģngĠ
lÄģĠ tuÅį
yÃłoĠ wÃ¹
yÃłoĠ sÃ¹Ġ
jiÄģoĠ xiÇİngĠ
yÃ¡ngĠ guÄģngĠ
bÃłnĠ zhÇİngĠzhÃ³u
jÇĲnĠ jÇĲnĠ
zhuÇİnĠ yÃŃĠzhÃ¬Ġ
zÃºĠqiÃºĠ chÄģoĠjÃŃĠ
huÃ¡iĠ yÃŃ
zÇĴngĠdÅ«Ġ fÇĶĠ
mÄĽngĠ hÇĶĠ
ĠgÃ© ĠniÃ¡nĠ
yÇĶnĠshÃŃĠ kÄĵng
zhÇĶĠtÃŃ ĠdeĠ
nÃ¨iĠmÃ©ngĠgÇĶĠ zÃ¬ĠzhÃ¬ĠqÅ«Ġ
pÄ«ngĠpÄģng ĠqiÃºĠ
Ġ 05
Ġ zhÃ¨ngĠzÃłiĠ
Ġ zhuÃ³Ġ
ĠĠĠ rÃ¬ĠbÄĽn
mÃŃng ĠchÃ©ngĠyuÃ¡nĠ
kÃ¨ ĠjiÄģĠ
qÃ¬ ĠyÃ³uĠ
bÃ³ ĠsÄ«Ġ
jÇĲn ĠwÃ¨iĠ
wÃ¡n ĠjÃ¹Ġ
shÅįu ĠhuÃ²Ġ
zÄĵng ĠyuÃ¡nĠ
wÇİ ĠÄĽrĠhÃ©Ġ
fÇĴu ĠjuÃ©Ġ
88 ĠniÃ¡nĠ
86 ĠniÃ¡nĠ
center Ġ
ensis Ġ
ĠshÃŃĠ rÃ©nĠ
ĠzhÃ¬Ġ yÄ«Ġ
ĠjÃŃĠ jÄ«nĠ
ĠyuÃ¡nĠ shuÃłiĠ
ĠdÃłoĠ dÃ©
shÃłngĠ jiÃłngĠ
ĠxÄ«Ġ shÄĵngĠ
ĠmÃŃngĠ gÇĶĠ
diÃłnĠ tÄ«
ĠzhÅįuĠ ÄĵnĠlÃ¡iĠ
yÃŃĠ chuÃ¡n
Ã¨rĠ shÃŃĠshÃ¬ĠjÃ¬Ġ
dÄģnĠ chÄĵĠ
bÅįĠ yÃ¬ngĠ
ĠjÃ¬nĠ zhÇĲ
tÇĴngĠ yÄ«ĠdeĠ
cÃ¡iĠ juÃ©Ġ
cÃŃĠ shÃłnĠ
dÇİngĠ nÃ¨iĠ
yÃŃngĠ jiÄĵĠ
yÇĴngĠ yuÇİnĠ
xiÄģngĠgÇİngĠ diÃłnĠyÇĲngĠ
kÄģiĠfÄģĠ qÅ«Ġ
tÇİoĠ fÃ¡
ĠjÅ«nĠshÃ¬Ġ tÇİnĠdÄ«ngĠ
tÇĲĠyÃ¹Ġ chÇİng
ĠdeĠhÃ©Ġ liÃºĠ
jÃ¬ĠlÃ¹Ġ piÃłnĠ
dÃ²ngĠchÄĵĠ zÇĶĠ
wÃ©iĠyÄĽĠ nÃłĠ
sÄģiĠbÃłi ĠjiÄģngĠ
ÃłoĠfÃºĠ niÃ¨Ġ
Ġ zÄģo
Ġ 1942
Ġ yÃ©Ġ
ĠĠĠ yÃŃĠgÃ¨Ġ
yÃ³u ĠtÄģĠ
zÃ¬ ĠyÃ¬Ġ
shÇĴu ĠyÇĶĠ
tÃłi ĠxuÃ©Ġ
sÃ¹ ĠzhÃ¬Ġ
hÃ¡ng ĠyuÃ¡nĠ
chÃłng ĠdeĠ
ST Ġ
ĠwÃ¨iĠ le
ĠzÃłiĠ zhÃ¨
ĠhÃ©Ġ qÃŃĠ
ĠbÃ¹Ġ dÃłnĠ
ĠbÃ¹Ġ qiÄģngĠ
ĠlÃ¬Ġ tÇĲĠ
ĠchÅ« ĠzhÅįngĠ
qÅ«Ġ biÃ©
xiÃłĠ yÃ³uĠ
fÄģĠ shÃ²u
ĠjÃ¬n ĠbÃ¹Ġ
ĠshÄĵngĠ zhÇİngĠ
ĠyÄĽ ĠyÄ«nĠcÇĲĠ
ĠxiÄģngĠ duÃ¬ĠyÃºĠ
ÃłnĠ shÄģĠ
wÄĽiĠ chÃ¡ngĠwÄĽiĠ
ĠyÇĲĠjÃŃĠ yÄ«Ġ
mÃ³Ġ cÄģ
qiÄģnĠ xÇĲĠ
huÃ²Ġ qÇĶĠ
zhuÄģnĠ shÇĶĠ
bÃ¡iĠ sÃ¨
zhuÇİnĠ yÃŃ
zhÇĶnĠ juÃ©ĠsÃłi
kÄģnĠ sÃłĠsÄ«Ġ
miÃ¡oĠ zhÇĶnĠ
ĠjÄ«n ĠrÃ¬Ġ
guÇİngĠxÄ«Ġ zhuÃłngĠ
yÇĲnĠfÄģĠ leĠ
ĠĠĠxiÃłn ĠshÃŃĠ
ÃłnĠchÃ¡Ġ shÇĲĠ
ĠpÃŃngĠfÄģngĠqiÄģnĠ mÇĲĠrÃ©nĠ
ĠĠĠ g
ĠĠĠ xÃŃngĠtÃłiĠ
yÃ¹ ĠdÃłoĠleĠ
yÃ³u ĠjÃ¬Ġ
yÃ¡n ĠzhÄ«Ġ
mÃ¹ ĠlÇĲĠ
gÄģo ĠÄĽrĠfÅ«
tÇĲ ĠshÃłngĠ
shÄĵn ĠhÃ²uĠ
diÇİn ĠjÃŃĠ
xiÄģn ĠjÃ¬n
jiÇİng ĠzhÅįngĠ
guÃłn ĠmÃŃngĠ
64 Ġ
71 ĠniÃ¡nĠ
lÇİ Ġ
ĠhÃ©Ġ shÄĵngĠ
ĠdÃłĠ bÃłiĠ
ĠxÃŃngĠ lÇĲĠ
zhÃ¨ngĠ zhÃ¬ĠbÃ¹Ġ
ĠlÇĲĠ wÃ©iĠ
ĠdÃłn ĠtÄģĠmenĠ
lÃ¡iĠ leĠ
ĠbÃ¬ngĠ chÄĵngĠ
ĠzhÅįuĠ mÃ²Ġ
lÄģĠ gÃ©Ġ
kÄĽĠ chÃŃĠxÃ¹Ġ
ĠshÃ¨Ġ qÃºnĠ
fÄĵngĠ sÃ¹Ġ
liÃºĠ lÃłngĠ
luÃ³Ġ bÃ³Ġ
lÃ¡nĠ jiÃ©Ġ
jÇĲngĠ fÄģng
shÄģngĠ biÄģoĠ
jÃ¬nĠ shÄĵngĠwÃ¨iĠ
1Ġ wÃłn
lÃºnĠ tÃ¨Ġ
dÇİngĠ pÃłiĠ
ĠÄģĠ gÄĵnĠ
zuÇĴĠ pÃłiĠ
ĠmÃŃng ĠyÃ¬Ġ
fÄģĠbiÇİo ĠshÄĵngĠmÃŃngĠ
ĠÃ©rĠrÃ©nĠkÇĴuĠmÃ¬ĠdÃ¹ĠwÃ¨iĠmÄĽi ĠpÃŃngĠfÄģngĠqiÄģnĠmÇĲĠrÃ©nĠ
jiÄĽĠjuÃ©Ġ fÄģngĠÃłnĠ
zuÃ²ĠpÇĲn ĠzhÅįngĠ
Ġãĥ¼ Ġ
Ġ jÃŃ
Ġ chÃºn
Ġ 1942ĠniÃ¡nĠ
sh ĠĠĠ
yÃ³u ĠjiÃłnĠ
xiÃłng ĠgÅįngĠzhÃ²ngĠ
sÄģn ĠzuÃ²Ġ
zi ĠjÃŃĠ
wÃº ĠlÃ¬Ġ
gÇİi ĠshÃ¨Ġ
lÃŃ ĠjiÄģĠ
biÄģo ĠshÃŃĠ
chÇĶ ĠbÃ¨iĠ
sÃłn ĠbÃ¹Ġ
pÃ¡ng ĠdeĠ
OS Ġ
85 ĠniÃ¡nĠ
pÄ«n ĠyÄ«nĠ
01 Ġ
lÃło Ġ
ĠshÃ¬Ġ bÄģĠxÄ«Ġ
ĠzÃłiĠ guÃ³ĠjÃ¬Ġ
ĠdÃ¬Ġ yÄ«ĠbÃ¹Ġ
ĠzhÃ¬Ġ dÃ¬ng
ĠguÃ³Ġ xiÇİoĠ
ĠxiÃłnĠ chÇİng
ĠyÄĽ ĠwÃ¨iĠ
sÄģnĠ xiÃłngĠ
ÄģĠ kÄĽnĠsÃ¨
ĠdÅįngĠ bÄĽiĠbÃ¹Ġ
hÃ¡nĠ liÃłngĠ
dÅ«Ġ tÇĴngĠ
hÃ©ngĠ kuÃł
ĠbÃ¹ĠtÃ³ng ĠdeĠshÃ¬Ġ
ĠĠĠjiÄģĠ jÃ¬ngĠ
ĠwÃ¨iĠyÃºĠgÄģiĠguÃ³Ġ dÅįngĠbÄĽiĠbÃ¹Ġ
bÃłĠ miÇİnĠ
ĠchÃ³ngĠ zhÄĵnĠ
ĠcÃ¬ ĠrÃ¬Ġ
Ġ2011ĠniÃ¡nĠ rÃ©nĠkÇĴuĠ
ĠlÃŃ ĠxÄ«nĠ
bÇİoĠliÃº ĠleĠ
ĠxÃŃngĠzhÃ¨ngĠzhÅįngĠxÄ«n ĠwÃ¨iĠ
Ġ huÃŃ
Ġ Bu
ĠĠĠ BĠ
mÃŃn ĠhÃ©Ġ
jiÄģng ĠjÃ¬nĠ
yÄ«ng ĠdeĠ
diÇİn ĠhÃ©Ġ
zÄ« ĠshÃ¬Ġ
dÃŃ ĠnÃ¡nĠ
zhÇİo ĠzÃ©Ġ
79 ĠniÃ¡nĠ
ction Ġ
ĠshÃ¬Ġ zÃ¬Ġ
ĠshÃ¬Ġ bÃ¬ĠlÇĶ
ĠchÃ©ngĠ huÃłĠ
ĠyÄ«Ġ zhÄ«
hÃ²uĠ lÃ¡iĠdeĠ
ĠyÇĲĠ shÃłng
zhÃłnĠ fÃ¡ngĠ
ĠzhÅįu ĠwÃ¨iĠ
shÃ¹Ġ mÇİĠ
guÄģnĠ niÃłnĠ
chÃ¡ngĠ yÃ²ngĠdeĠ
miÃłnĠ chÄĵĠzhÃłnĠ
bÄģĠ bÄģĠ
tÃºĠ piÃłnĠ
xÃ¹Ġ mÃ¹Ġ
shÇİoĠ qÄ«ngĠ
ĠbÄĽiĠ qÇĲ
kÄĽĠnÃ©ng ĠyÇĴuĠ
ĠluÃ³Ġ bÃ³ĠtÃ¨Ġ
ruÃ²Ġ gÄģn
ÄģiĠ sÄģiĠÃ©Ġ
lÃ¡oĠ dÃ²ng
wÇĶĠtÃ¡iĠ jÃ¹Ġ
jÃ¬ĠchÃ©ngĠ rÃ©nĠ
ĠpÃ²Ġ shÇĲĠ
ÃłiĠhÃłoĠ zhÄĽĠ
2 ĠgÅįngĠlÇĲĠ
Ġ lÇľ
Ġ mÃ©ng
Ġ kÃłn
Ġ lÄĽng
ĠĠĠ wÃ©nĠ
ĠĠĠ zhÄ«ĠhÃ²uĠ
ĠĠĠ suÃŃĠzhÃ¹Ġ
shÃ¨ ĠzÃłiĠ
jÅ«n ĠwÃ¨iĠ
quÃ¡n ĠshÃ¬ĠjiÃ¨Ġ
wÃº ĠjÄ«Ġ
jiÇİ ĠdeĠ
dÃŃ ĠjÅ«nĠ
gÇİn ĠdÃło
tÃłn ĠsuÇĴ
57 ĠniÃ¡nĠ
52 ĠniÃ¡nĠ
EP Ġ
ĠhÃ©Ġ xiÇİoĠ
ĠzhÅįngĠ chÃ©ngĠ
ĠyuÃ¡nĠ bÄĽnĠdeĠ
ĠyÇĶĠ tÄģĠ
xiÃłĠ fÄģngĠ
ĠzhÃ¨Ġ jiÄģng
ĠzhÅįngĠguÃ³Ġ rÃ©nĠ
biÃłnĠ tÇĲĠ
guÄ«Ġ fÃłn
zhÄĵngĠ zhÃłoĠ
ĠzhÇĶĠ dÇİĠ
ĠdeĠyÄ«Ġ kÄĵĠ
jÇĶĠ zhÃ²ngĠ
chÃºĠ wÃłiĠ
ĠniÃ¡nĠ12ĠyuÃ¨Ġ 1ĠrÃ¬Ġ
gÃ¨Ġ tÇĲĠ
ĠjiÄģng ĠhuÃ¬Ġ
pÃŃngĠjÅ«nĠ jiÃłngĠyÇĶĠliÃłngĠ
ĠjiÃ¹ ĠhuÃ¬Ġ
guÄ«ĠmÃ³Ġ zuÃ¬ĠdÃłĠdeĠ
ĠshÃ¨ĠlÃ¬Ġ leĠ
liÃ¡nĠhÃ©ĠguÃ³Ġ jiÃłoĠkÄĵĠwÃ©nĠ
ĠniÃ¡nĠchÅ«Ġ shÄĵngĠyÃºĠ
tÃ³uĠrÃ¹Ġ fÃºĠwÃ¹Ġ
fÄĽiĠ cuÃ¬
q Ġ
Ġ ×
Ġ xÃ¹
Ġ Lo
Ġ shÇİoĠ
quÃ¡n ĠxÄ«nĠ
sÃłi ĠzhÃ¬Ġ
bÅį ĠdÃ©Ġ
zÇĲ ĠdÃ¬Ġ
diÃło ĠrÃ¨nĠ
xiÃ¡n ĠdeĠ
56 Ġ
63 Ġ
ĠzhÃ¬Ġ yuÃłnĠ
ĠyÄ«Ġ fÃ¨nĠ
ĠdÃłoĠ xÄ«Ġ
ĠxÃŃngĠ shÄĽngĠ
ĠjÅ«n ĠyÇĶĠ
ĠchÅ«Ġ tÇĶ
qiÃ¡nĠ qÄ«Ġ
ĠzhÃłnĠ shÃ©nĠ
tÅįngĠ bÃłoĠ
chÃ¡ngĠ zhÄĵngĠ
bÇİoĠ lÄĽiĠ
qÄ«ngĠ shuÇĲĠ
zÄ«Ġ xÃºn
chÅ«Ġ fÄģĠ
zÇĲĠ mÃ¨i
cÇİiĠ nÃłĠ
xÃ¬ĠliÃ¨Ġ sÃłiĠ
ĠĠĠbÄĽnĠ zhÃłnĠ
zhÄ«ĠchÃŃ ĠxiÃłĠ
mÇİĠkÃ¨ĠsÄ«Ġ zhÇĶĠyÃ¬Ġ
Ġ zÃ²ng
Ġ 66
Ġ sÃ¬ĠniÃ¡nĠ
Ġ bÃłoĠgÃłoĠ
ĠĠĠ No
ĠĠĠ fÄģĠzhÇİnĠ
ĠĠĠ isĠĠĠ
Äĵn ĠdeĠ
gÃ¨ ĠjÃŃĠ
nÃ¡n ĠyuÃ¨Ġ
qiÃ¡n ĠshÃ¬Ġ
duÅį ĠniÃ¡nĠdeĠ
sÃ¬ ĠjÃ¬Ġ
xiÄģn ĠxÃŃngĠ
dÇĲ ĠtÃ¨Ġ
guÄģng ĠmÃŃngĠ
zÃłng ĠlÇĲĠ
ka Ġ
bÃ¹Ġ liÃ¨Ġ
ĠbÃ¹Ġ mÇİn
gÅįngĠ rÃ©nĠ
ĠyÃºĠ 10ĠyuÃ¨Ġ
ĠyÄ«Ġ biÄģnĠ
bÃ¨iĠ pÃ²Ġ
ĠxiÃłnĠ jÄ«n
ĠyÄ«n ĠyÇĶĠ
fÄģĠ wÃ©nĠ
ĠduÃ¬Ġ huÃłĠ
suÇĴĠ shÇĲĠyÃ²ngĠdeĠ
ĠfÃ¹Ġ zÃ¡ĠdeĠ
kÇĴuĠ ÃłnĠ
ĠtÃ³ng ĠjÃ¬nĠshÃ¬ĠchÅ«ĠshÄĵnĠ
liÃºĠ tÅįngĠ
qÄ«ngĠ dÇİo
yÄ«ngĠ shÇĶĠ
ĠxiÄģngĠ hÃ¹Ġ
ĠdÅįngĠ hÇİiĠ
lÃºĠ wÇİĠÄĽrĠshÄĽngĠ
tÅ«Ġ pÃ²
ĠrÃłng ĠtÄģĠ
jiÇİnĠchÃ¡Ġ guÄģnĠ
xiÇİoĠxÃŃngĠxÄ«ng ĠdÃłiĠ
ĠzhÅįuĠlÃ¬Ġ dÃłĠxuÃ©Ġ
jiÇİngĠxuÃ©Ġ jÄ«nĠ
3 ĠfÄĵnĠ
Q Ġ
Ġ ãĦ
Ġ hĠ
ĠĠĠ lÃ¹Ġ
yuÃ¨ ĠwÃ¨iĠ
yÃŃ ĠrÃ©nĠ
sÃłi ĠÄĽrĠ
dÄģn ĠxÃŃngĠ
nÇļ ĠzuÃ²Ġ
mÃłn ĠdÃ¬Ġ
qiÃ¡o ĠdeĠ
gÄģn ĠshÃ¨Ġ
49 ĠniÃ¡nĠ
56 ĠniÃ¡nĠ
luÃ¡n Ġ
hÃ©n Ġ
ĠzhÅįngĠ zhÇĲ
ĠzhÅįngĠ dÃłĠ
dÃłĠ lÃ³uĠ
ĠguÃ³Ġ tÇĶĠ
ĠdÃłĠ lÃ¹
ĠlÇĲĠ xiÇİngĠ
ĠbÃ¨iĠ fÄģĠxiÃłnĠ
jiÃłoĠ xuÃ©
fÃºĠ hÃło
nÃŃĠ pÅįĠÄĽrĠ
wÄĵiĠ fÄĵnĠ
hÃłnĠ bÇİoĠ
wÅ«Ġ zÄ«ĠbiÃ©
chÃ³ngĠ fÇİn
pÃ²Ġ hÃłiĠ
tÇİĠ lÄģĠ
ĠzuÃ¬Ġ hÃ²uĠzÃłiĠ
gÃ¨Ġ lÃ¨iĠ
ĠdÃ¬ĠÃ¨rĠ tiÄģnĠ
zÃ¬ĠzhÃ¬Ġ qÅ«
tÅįngĠchÃ¡ng ĠhuÃ¬Ġ
pÇĶĠchÃ¡Ġ guÄ«ĠdÃ¬ngĠ
fÃºĠluÃ³ĠlÇĲĠ dÃ¡
piÃ¡nĠ yi
j Ġ
Ġ yuÃ¡n
Ġ piÄģnĠ
Ġ lÃ¨iĠsÃ¬Ġ
Ġ 1929ĠniÃ¡nĠ
ĠĠĠ Par
ĠĠĠ wÃłiĠ
jÃ¬ ĠĠĠ
guÇİn ĠshÃ¬Ġ
tÇİ ĠsÄ«Ġ
dÄĵng ĠdeĠ
tÄģn ĠwÅ«Ġ
72 ĠniÃ¡nĠ
ĠdeĠ wÃłiĠ
ĠdÃ¬Ġ xiÃł
ĠyuÃ¡nĠ zÃ©
ĠyuÃ¡nĠ chÃ¡oĠ
ĠxÃŃngĠ zhuÃłngĠ
ĠlÇĲĠ yÃ³uĠ
ĠÃ©r ĠchÃ©ngĠwÃ©iĠ
ĠwÃ©iĠ hÃ¹
ĠwÃ©iĠ fÇİn
ĠpÃŃngĠ dÃ¬ngĠ
ĠrÃ¨nĠ tÃ³ngĠ
Ã¨rĠ cÃ¬Ġ
2Ġ miÃłnĠ2
xiÃłnĠ jÄ«nĠ
jÇĲĠ zhÇĴngĠ
yÃ¡nĠjiÅ«Ġ yuÃłn
tÃłnĠ tÇİo
dÃłiĠbiÇİo ĠdeĠ
ĠdÃ¬ĠsÄģnĠ cÃ¬Ġ
suÅįĠ duÇİn
ĠcÃ¬Ġ liÃ¨ĠchÄĵĠ
ĠwÃ¨iĠyÃºĠgÄģiĠguÃ³Ġ xÄ«ĠnÃ¡nĠbÃ¹Ġ
pÃ¡ngĠ dÃłĠdeĠ
ĠĠĠhÃ²uĠ xÃ¹Ġ
Ġ huÃł
Ġ dÃ¡ĠdÃłoĠ
Ġ 1967ĠniÃ¡nĠ
ĠĠĠ ma
qÄ« ĠrÃ¬Ġ
dÃ¹ ĠzÃłiĠ
kÄģi ĠguÃ³Ġ
mÇĲ ĠlÃ¬Ġ
zhÃ²ng ĠyÃºĠ
zhÄĽ ĠyÇĶĠ
tÃłi ĠyÄ«nĠ
fÄĵi ĠsÄ«Ġ
liÇİng ĠjÃŃĠ
pÃŃ ĠÄĽrĠ
UA Ġ
ĠzÃłiĠ shÃłngĠhÇİiĠ
ĠhÃ©Ġ nÃ¨iĠ
ĠbÃ¹Ġ dÄĽngĠ
sÄ«Ġ mÇİĠ
ĠjÃ¬Ġ shÄĵngĠ
ĠmÃŃngĠ Ã©Ġ
jÄ«ngĠ jÃ¬ĠdeĠ
fÄģĠ sÃ²ngĠ
ĠpÃŃngĠ guÇĴ
ĠzhÅįuĠ qÅ«Ġ
zhÇĲĠ nÃ¡nĠ
tÅįngĠ chÄĵ
ĠshÃ¨Ġ yÇĲng
ĠdÃłnĠ quÃ¨Ġ
gÄĵĠ chÃłngĠ
nÇļĠ wÃ¡ng
tÇĴngĠ zhÃ¬ĠdeĠ
shÃ¨Ġ lÃ¬ĠdeĠ
jÅ«Ġ zhÃ¹ĠdeĠ
zhuÇİnĠ huÃłĠwÃ¨iĠ
tÃ¡oĠ wÃ¡ngĠ
yÃ¬nĠdÃ¹Ġ yÃ¡ngĠ
ĠjiÄģnĠ rÃ¨nĠ
yÇĴuĠbÃ¹Ġ shÇİo
ĠbÃ¹ĠzhÃ¨ngĠ shÇĲĠ
bÄģĠjÄ«ĠsÄ«Ġ tÇİn
ÃłoĠdÃ¬Ġ lÃ¬ĠdeĠ
Ġ dÃ¬ng
Ġ bÄģn
Ġ kuÃŃ
Ġ CO
Ġ shÃłngĠdeĠ
Ġ 1969ĠniÃ¡nĠ
Ġ centerĠ
ĠĠĠ mÃŃngĠchÄĵngĠ
wÃłi ĠyÇĶĠ
nÃł ĠbÃ¹Ġ
nÃŃ ĠshÃ¬Ġ
xiÃ¹ ĠjÃŃĠ
rÃło ĠtÃłiĠyÃ¡ngĠ
tuÇĴ ĠyuÃ¡nĠ
ĠyÄ«Ġ wÃłnĠ
ĠyÇĶĠ zhÃ²uĠ
ĠdÃ© ĠdÃłoĠdeĠ
ĠwÃ©iĠ zhÇĶĠdeĠ
ĠduÃ¬Ġ yÃ¬ng
shÄĵnĠ yÃ¨Ġ
bÄģĠ tÃ¨Ġ
dÄģnĠ wÃ¨iĠdeĠ
sÃ¹Ġ lÇľĠ
chÅ«Ġ shÃ²uĠ
leĠyÄ«Ġ fÃ¨nĠ
gÄĵngĠ xÄ«n
ĠmÇİ ĠkÃ¨ĠsÄ«Ġ
ĠzÇĶ ĠjÃŃĠ
dÃ¡ĠchÃ©ngĠ xiÃ©ĠyÃ¬Ġ
ĠfÄģnĠ qiÃ©
hÄĵiĠlÃ³ngĠjiÄģngĠ shÄĽngĠ
Ġ xÃ¬
Ġ zÇĴu
Ġ qiÃ¨
Ġ zÅįngĠhÃ©Ġ
Ġ mÃ¡oĠzÃ©ĠdÅįngĠ
Äģn ĠshÃŃĠ
ĠĠĠ Ã©ĠluÃ³ĠsÄ«Ġ
ĠĠĠ guÃ³ĠjiÄģĠduÃ¬Ġ
jiÄģ ĠwÃ¨iĠ
zhÃ¨ng ĠjiÃłnĠ
mÃ¹ ĠzhÅįngĠ
gÄĵ ĠjÃŃĠ
it Ġ
mÇİo ĠkÄĵĠ
COVID Ġ
ĠbÃ¹Ġ lÇĶ
sÄ«Ġ zhÇİngĠ
ĠyÄ«Ġ bÄĽnĠ
ĠdÃłĠ liÃ¡nĠ
ĠyuÃ¡nĠ chuÃłngĠ
mÃŃngĠ jiÃłoĠ
ĠjÅ«n ĠjÄ«Ġ
fÃ¹Ġ zÃ¡ĠdeĠ
shÃ¹Ġ zÃ¬
ĠdÃ©Ġ duÅįĠ
zhuÇİnĠ biÃłnĠwÃ¨iĠ
pÃ²Ġ shÇĲĠ
huÄģĠ fÃ¨iĠ
ĠyÇĴuĠyÄ«Ġ tiÃ¡oĠ
ĠbÃ¬ngĠyÃºĠ tÃ³ng
bÃ³ĠwÃ¹Ġ yuÃłnĠ
ĠyÃ¬ĠbÄģn ĠdeĠ
lÄģĠdÄ«ng ĠyÇĶĠ
ĠÄģĠlÄģĠ bÃ³
ĠzhÅįngĠguÃ³ĠguÃ³ĠmÃŃnĠ dÇİng
ĠyÃ³uĠqÃŃ ĠshÃ¬ĠzÃłiĠ
Ġ tuÃ¬Ġ
Ġ qiÃ¨Ġ
Ġ kÄĽĠnÃ©ngĠhuÃ¬Ġ
ĠĠĠ zhÅįuĠ
ĠĠĠ sÃłiĠshÃ¬Ġ
zhÅįng ĠdeĠdÃ¬Ġ
shÄĵng ĠshÃ¬Ġ
rÃ¨n ĠshÃ¬Ġ
jÃ¬n ĠjÅ«nĠ
shÇĴu ĠhÃ©Ġ
wÃ©n ĠxiÃłn
biÃłn ĠshÃŃĠ
chÃŃ ĠdeĠ
dÅ« ĠchÃ©ngĠ
cÇİi ĠdeĠ
97 ĠniÃ¡nĠ
ĠjÅ«n ĠbÃ¹Ġ
jiÃ©Ġ diÇİnĠ
liÃ¡nĠ chuÃłn
duÅįĠ lÃºnĠ
[...]
