#version: 0.2
n g
h Ã
Ã ł
Ä ģ
Ã ¬
Ã ¡
Ä «
Ã ¨
Ç İ
Ġ Ġ
Ã ©
Ã Ń
s hÃ
Ã ¹
Ã¡ n
z h
Ç Ĳ
Å į
j i
d e
Ãł n
Ä ĵ
z hÃ
s h
Ä Ľ
Ã ³
Ç Ķ
x i
Ã ²
Ã º
Äģ n
ĠĠ Ġ
Ãł i
Å «
Åį ng
Ç Ĵ
ã Ģ
shÃ ¬
h u
Ã¨ i
g u
i Ã¡n
hÃ ©
Ãł o
Äģ ng
ÃŃ ng
y u
Çİ n
c h
n iÃ¡n
y Ä«
Çİ ng
Ã© n
ÇĴ u
Ã¬ ng
w Ã¨i
Çİ o
z Ãłi
ãĢ ģ
j Ä«
Äĵ ng
zh Åįng
x Ä«
b Ã¹
j Ã¬
Ãł ng
l i
zhÃ ¨
shÃ Ń
d Ã¬
gu Ã³
y Ãº
r Ã©n
Ã² ng
c hÃ
Äģ o
d u
c hÃ©
y ÇĲ
l Ã¬
Ã¡ ng
y Ã¬
u Ã²
Ã¡ i
zhÃ ¬
chÃ© ng
Ã© i
x u
g Åįng
j ÃŃ
² u
ÄĽ i
i Ãłn
Äĵ n
Ã³ ng
yu Ã¨
y ÇĴu
yu Ã¡n
d Ãł
q i
Åį u
l ÇĲ
2 0
Ã³ u
Äģ i
xi Ãłn
ji Äģ
s Ä«
Å« n
x ÃŃng
y ÇĶ
Ã¨ n
ÇĴ ng
ÃŃ n
t Äģ
r Ã¬
zh Ä«
hÃ ²u
Çİ i
g Ã¨
zhÃ ł
Ã© ng
l e
w Ã©i
hu Ã¬
d Ãło
1 9
b i
shÃ ł
q Ä«
q ÃŃ
shÃ ¨
s u
zhÃ¨ ng
m ÃŃng
ji Ãłn
xu Ã©
ch Å«
y Ã¹
ÄĽ ng
z uÃ²
sh Äĵng
du Ã¬
y Ã³u
q Å«
shÃł ng
ÄĽ n
d Ã©
l Ã¹
b Ã¨i
chÃ ¡
t i
sh ÇĲ
zhÃł n
zh ÇĶ
Äĵ i
q u
j Ã¹
xÄ« n
j Å«n
zh u
ÄĽ r
Ã¡ o
shÃ ¹
u Ã¬
r Ã¨n
f Äģ
w Ã¹
b Ã¬ng
k Ã¨
Ã© r
d Ãłi
y ÃŃ
jÃ¬ n
z Ã¬
yÄ« n
f Ã¹
f Äģng
jÄ« ng
n Ã¡n
hu Ãł
x Ã¬
zh Åįu
p ÃŃng
Ã² u
xi Ãł
l Ã¡i
y Ã²ng
sh u
gu Äģn
t Ã³ng
ãĢ ĭ
ãĢ Ĭ
f Çİ
zhÃ ¹
m ÄĽi
hÃ ¡
Â ·
ji Äģn
j ÇĲ
hu Ã²
d Ã¹
c hu
b ÄĽn
xi Äģng
zhÃ Ń
d Ã²ng
xi Ãłng
m ÃŃn
ji Äģng
f Äĵn
sh ÇĴu
qu Ã¡n
w Ã©n
y Ã¡n
hÃ ł
su ÇĴ
ji Ãło
q iÃ¡n
d iÃłn
t Ã¨
d i
du Åį
Ãº n
z uÃ¬
k Äģi
t u
ji Ã©
l iÃ¡n
zh ÇĲ
k ÄĽ
d Ãłn
m Ã¹
y Ã¨
f Ãº
m Çİ
y ÄĽ
d Åįng
qi Ãº
b ÄĽi
ãĢ Į
ãĢ į
g Äģo
y Ãł
q ÇĲ
ji Äĵ
m iÃłn
h Çİi
zh Çİng
sh Ä«
jÄ« n
c ÇĲ
l u
n Ã¨i
t ÇĲ
s Ãłi
s Äģn
t Ã¡i
g Ã©
x Ã¬ng
gu Ã²
r Ã¹
20 1
d ÄĽng
y Ãło
j u
ch Äĵ
c Ã¬
w ÇĶ
g Äģi
d Ã¬ng
chÃ¡ ng
bi Çİo
l Äģ
g Ã²ng
ji Ã¨
shÃ ²u
d Çİo
sh Äģn
ch Çİng
s Ã¬
b ÇĲ
z Ã©
t ÃŃ
k Äĵ
d Äģng
n Ã©ng
Ã¨ r
w Ãłi
d Äģn
x Ã¹
z i
k ÇĴu
xi Çİo
z ÇĶ
b Äģ
ju Ã©
l ÃŃn
li Ãº
sh ÄĽng
yÄ« ng
k u
l Ã¡n
lu Ã³
t Åįng
20 0
Ä« ng
² ng
m ÇĲ
zhÃ ²ng
e n
zh ÄĽ
sh ÇĶ
ti Äģn
zhÃ¨ n
Ç ļ
q Ã¬
zh ÇĴng
li Ã¨
ch Äĵng
sh Å«
yu Ãłn
b Çİo
t Ãłi
f ÇĶ
f Äĵng
g ÇĶ
qÄ« ng
sh Äĵn
w Ã¡ng
yÃ¹ n
gu Çİn
f Äĵi
ji Ã¹
li Çİng
c Ã©ng
m Ã©i
1 0
f Ã¨n
hÃł o
³ ng
y Çİn
w ÄĽi
z ÇĴng
xu Çİn
xi Ãło
d Ã¡
n Ãł
li Ãłng
b Åį
z Ãº
j Ã¬ng
b Ãło
n ÃŃ
w Ãº
t ÇĴng
hu Ã¡
ji Äģo
yu Äĵ
yÇĲ ng
b iÃłn
xÄ« ng
s Ã¹
shu ÇĲ
y Ã¡ng
hÃ ¹
m en
b Äģo
g Äĵ
b Ã³
c Äģn
c Ã³ng
di Çİn
b Ã¬
r Ãº
b Ãłn
bi Äģn
w Çİng
q ÇĶ
m i
ch Çİn
s Ã¨
z Ä«
chu Ã¡n
0 0
shÃ¨ ng
r Ã¡n
t Ãº
zh Äģng
p ÇĶ
g Çİi
g Çİng
n Çļ
l Ã¬ng
l uÃ²
y Ã²u
t Ã³u
c Ã¨
l Ç
chÃ Ń
1 8
lÇ ľ
qi Äģn
shÃ ©
l ÃŃ
d Åįu
p ÇĲ
1 2
zh Äĵng
n i
k uÃ²
sh Äģ
d Çİng
f Çİn
g Ã²u
l Ã¨i
x ÃŃ
jÇĲ ng
tu Ã¡n
w Äĵi
xi Äĵ
lÇĲ ng
l Ã³ng
gu Ä«
xi Äģn
r Ã³ng
hu Ã¡ng
xi Çİng
b Äģn
ji ÇĶ
y Ã¬ng
m Ã©n
sh Äģng
shÃ© n
20 2
b Çİn
k Çİ
m ÇĶ
jÇĲ n
f Å«
j ÇĶ
m Ã³
gu Çİng
c ÃŃ
shu Åį
q ÃŃng
zh Çİn
hÃ¡ i
zhu Äģng
m Ã²
c Ã¡i
d Ãº
1 1
pÇĲ n
t ÃŃng
chÃ¡ o
y ÃŃng
ti Ã¡o
ji Çİn
t Ã¡ng
hu ÃŃ
du Ãłn
chÃ© n
g Äĵn
m Ã¬
w Ãłn
p Ã¡i
w Äģn
z Ãło
hÃ¡ ng
w Ã¡n
bi Äģo
g Ã¹
l Ãºn
19 9
xi Ã©
ji Çİng
hÃł n
j Ãº
f Ãłn
f Ã¡ng
hu Ã³
hÃ¡ n
p i
k Åįng
o r
ti ÄĽ
m Ã©ng
bi Ã©
w Å«
ji ÄĽ
zhu Äģn
yÇĲ n
x Å«
zh Äĵn
d ÇĲ
e r
chÃ º
hÃ º
ji Ãł
b Ä«ng
m Ã¬ng
l ÃŃng
hÃ ³ng
qÄ« n
z ÇĲ
lÃ¹ n
xÃ¬ n
chÃ ¹
ch ÇĶ
s Å«
a n
xi Å«
z Åįng
1 5
qu Ã¨
xi Äģo
zhÃł o
qi Ã¡ng
q Ã¹
c Å«n
chÃ ³ng
p iÃłn
ji Å«
f Ãłng
su ÃŃ
sh Åįu
gÃ¨ ng
â Ģ
gu Äģng
Ã¨ ng
j Å«
o n
ji Çİ
chu Ãłng
d ÃŃ
1 6
zhu Çİn
gu ÇĴ
xÃ¹ n
m Ãłn
p Ãłi
f Ã¨i
p Ã¨i
19 8
d Çİ
tu Åį
l a
xu Äģn
b Ã¡i
zh Å«
d Å«
t ÇĶ
di Ãło
xi Ã¡
li Ã¹
1 7
su Ã¬
hu Ä«
t Ä«ng
qi ÄĽ
t Çİ
qi Ã¡o
h Äģ
g Çİn
z Äĵng
xi Çİn
m Ãłi
hu Ã¡n
x ÇĶ
w Çİ
tu Ä«
w Ã¨n
ch Äģo
t iÃ¡n
b Çİi
c Çİi
li Ã¡ng
y Ã¡
s Ãł
a r
b Ãłi
c Ãºn
ji Çİo
sh Çİo
y Ãłn
zhu Ãłng
hu ÇĴ
l Ã©i
1 4
z u
ji Ãłng
chu Äģn
yÃ¬ n
z Çİo
chÃ ł
y ÇĴng
s ÇĲ
d Äĵng
3 0
zhÇĶ n
l Ã¨
x Ãºn
n uÃ²
k Ã¹
hu Ãłn
s Ã²ng
g Ãło
l ÇĶ
1 3
19 4
b Äģng
l Çļ
p Ä«
y Ãłng
h ÄĽn
q Ãºn
zh ÄĽng
gu Ãłn
p Ã²
g Äģng
w ÇĴ
19 7
hu Äģ
l Äĵi
h Çİo
t Ã¡o
ku Ãłng
hÃ ¨
i n
dÃ¹ n
n Ã³ng
g ÄĽi
s Äģi
shu Äģng
li Ãłn
ku Ãłi
d Ä«
b Ä«
p Ãłn
xi ÄĽ
19 5
k Çİo
g Ãłi
h Äĵi
w Ãłng
li Ãło
r Ã¨
g e
zu ÇĴ
k Ã²ng
19 6
y Äģng
chÃł ng
y ÃŃn
³ u
r Ã©ng
s Äĵn
b Äĵi
l Ãº
pi Ãło
y Äģ
2 5
bÄ« n
âĢ Ķ
r Ãłng
ch Åįng
l Ã³u
b ÇĶ
l Çİo
zhÃ º
jÃ¹ n
y Çİng
r uÃ¬
y Äģo
xi Ã¡n
xi Ã¨
n iÃłn
f or
y Åįu
t Ã¡n
k Äģng
p ÃŃ
hÃ© ng
yÃº n
x ÇĲ
k Ãłn
n ÃŃng
li Ã¡o
shÃł o
b Ãº
2 4
qÇĲ ng
ch ÇĲ
m u
d Ã²u
mi Çİn
y Åįng
t Çİn
w Çİn
h Å«
f Äģn
a l
t Å«
g Äģn
su Ãłn
d Ä«ng
yu Çİn
w Äĵn
t uÃ¬
zh e
2 1
s t
xi Ã¹
b Çİ
m Çİn
19 3
2 3
mu la
k Ãłng
for mula
2 8
t h
m Ã¡o
r uÃ²
pi Äģn
chÃ ¨
m Ãło
l Çİng
q ÃŃn
b Ã¡
n Ã¡
z Ãłn
gu ÇĲ
gu Ã¬
o u
p ÃŃn
w Ã²
xi Ã³ng
shÃł n
r e
2 2
xi Åįng
m e
su Ä«
Ã ¼
2 6
sh ÄĽn
q Ã¬ng
mi Ã¡o
f Çİng
5 0
20 20
2 7
l Ã¡ng
r u
qi Å«
s Åįng
Ã¼ Ã¨
d Ãłng
g Äĵng
qi Äģng
r i
f Ã¡
z Äģo
f Ã¨ng
zhÃł ng
ï ¼
hÃ¡ o
d Å«n
z ÇĴu
hÃł i
qi Ã¨
2 9
t Ãłn
p Ãło
p Ãł
shÃ¹ n
p Ã©ng
xu Ã¡n
201 0
n ÇĲ
00 0
dÇĲ ng
ni ÇĶ
z Çİi
zh Äģo
zhu Ä«
l Ã¼Ã¨
ch Å«n
20 19
h Å«n
k ÇĴng
du Äģn
shÃ¨ n
xi Ã¡ng
du Çİn
g Ãłn
t e
r o
k Äģn
l Ã¡o
c Çİo
201 6
s i
g Å«
p Ã©i
201 8
ku Çİn
z Ã¡
s Å«n
y Ã©
y Çİ
p Åį
202 1
r a
. 5
chÃ ¬
du Ã³
201 4
f Ã¡n
201 1
201 5
c uÃ²
201 7
zhÃ ©
y Ã¡o
p Äģi
t Ã²u
c Ã¡ng
201 2
4 0
k Çİi
201 3
202 2
m ÃŃ
ru Çİn
su Äģn
ch Äģ
z Ãłng
mi Ãło
l t
200 9
zh Çİo
200 8
hu Ã¡i
ã ĥ
c e
6 0
a m
c u
xu Ã¨
chÃ ³u
s e
b Çİng
m Ã¨ng
10 0
t Ã¬
p Ãº
n Çİo
202 3
zhu Ãłn
g t
l ÄĽi
19 0
3 1
c Ãłi
c Ã¹
s Ãłn
m Ã³u
ti on
t a
hÃ¹ n
ÇĶ n
ku Äģn
200 7
ni Ãº
m ÇĴu
t Çİo
di Ã©
200 1
o l
t Ã©ng
s Åįu
k ÄĽn
qi Çİn
0 .
ch Äģng
r Çİn
qu Äĵ
f ÇĴu
s ÇĶn
e l
b Ãł
200 0
8 0
k Ãło
su Åį
200 6
ni Çİo
chÃº n
m a
202 4
l Çİn
ã ģ
z Äģi
zhÃ ¡
xu ÄĽ
hu ÇĲ
lu Ãłn
1 .
tÇĲ ng
200 5
z Å«n
b Ãłng
l Ãł
hu Äģn
r Çİng
sh uÃ¬
mÇĲ n
3 5
l Ãłi
c Äģng
7 0
f Ã³
p Ã¡n
o f
n Ãłi
w ÄĽn
e t
c Äģo
s Äģng
p Ã¡ng
9 0
2 .
bÇĲ ng
ï¼ į
zh Äģ
ã Ĥ
shu Ãłi
ni Ã¨
e s
hÃ ³u
m Ã¨i
sh Äģo
n ÇĶ
d ÇĴng
i l
a t
o w
f Ã©ng
mi Ã¨
yÇĶ n
z Ã²u
m Çİi
hu Ãłi
200 4
4 5
y Äģn
c o
4 8
th e
zhu Ã³
an d
t er
h e
t Ãło
n Çİi
k Å«n
202 5
zh ÄĽn
c k
r ÇĶ
ku Ãł
ku ÃŃ
ãĢ ī
ãĢ Ī
g Åįu
3 6
cu Ä«
3 8
sh Çİn
r Ã²u
di Äģo
200 3
h ÇĶ
gu Åį
3 7
c uÃ¬
n e
x Ãº
m Ã¡ng
ju Çİn
c Ã¡n
di Äģn
zh Äģn
c Ã¡o
18 9
I N
200 2
3 .
i s
b o
k Äĵng
T C
v e
3 4
m Ã¡
l ÄĽng
a s
z Å«
7 5
âĢ ĵ
s Ãº
qu Äģn
d Äģ
t o
ch Äģi
n u
l Ãłng
kÃ¹ n
4 6
t Ãºn
f ÄĽn
199 0
âĢ ¦
zhÃ ²u
sh Çİng
r Ãło
h Äĵng
t Ä«
x Å«n
3 9
n Ã¨
. .
p Ã¬
n Ãłn
p Äģn
6 5
h Åįng
shÃ º
t Äģn
C h
t Äģng
k Çİn
M a
n Ã¬
3 2
I n
S T
4 7
h Çİn
i t
U TC
q iÃłn
199 9
199 8
198 0
18 8
5 00
3 3
6 4
qi Çİng
sh uÃ²
p Çİo
l o
b e
k Äģ
zhÃ¡ i
. 8
S E
5 5
qu Ãłn
n Ä«
d Ã¨ng
199 7
T he
m iÃ¡n
4 9
g Çİo
I I
6 8
C o
v i
sh ÄĽ
z Ã¨ng
R e
h an
zhÃ ³u
zhÃł i
4 4
199 6
n a
ti Äĵ
d Äģo
a d
b r
199 4
v er
f Ã©i
z Ã²ng
qi Ã³ng
c i
ti Ãło
chu Ã¡ng
. 0
. 7
199 2
b a
chu ÃŃ
ju Äģn
chÃ¡ i
mi Çİo
gu Äģ
xu Äĵ
t Ã²ng
199 5
f ÄĽi
. 9
ch Ä«
o o
m ÄĽng
w Åį
6 7
i r
shu Äģi
tu Ã³
chu Äģng
hu Çİn
199 1
197 0
5 8
a y
195 0
c a
n d
gu Ãł
chÃ¡ n
3 00
w Äģ
199 3
18 7
194 9
. 6
p e
s Äģ
ti Çİo
A T
196 0
bi Çİn
4 2
194 5
i ng
gu Ãłi
a u
k ÇĶ
n Ãº
198 8
d ÇĶ
198 9
i g
p Ã¹
6 9
li ÇĶ
g ÇĴng
SE E
t uÃ²
am p
c t
li Çİo
IN SEE
5 9
t Äģi
4 3
6 6
chu Ãłn
o p
chÃ¨ n
o s
5 7
198 5
hu Äģng
9 9
S A
ãĢ İ
cÃ¹ n
ãĢ ı
198 4
hÃº n
4 1
p Å«
l y
u s
k Ã²u
f Ã©n
8 8
198 6
r Çİo
m p
S t
i d
rÃ¹ n
T V
15 0
zhu Åį
in d
4 00
s Çİn
198 7
7 8
u n
e d
h a
198 2
5 6
L i
u r
ar d
nu Ã³
198 3
N A
gÇĶ n
R o
D e
s s
m Äģ
t ou
pÃ¬ n
C D
ch Åįu
b er
g ÇĴu
qu Çİn
M i
7 7
zh Äģi
M e
qi Ãł
m Äģo
qi Çİo
M ar
t w
k Å«
ku Ã¡ng
r Ã³u
de r
7 9
l Ã²u
O S
Â °
k uÃ¬
s Ãłng
ï ½
A l
18 0
t y
B C
5 4
197 9
6 1
19 20
. 2
a ng
p Äĵn
9 8
s Äĵng
5 2
Y ou
a p
197 8
n Ã¹
. 1
w Äĵng
6 2
y Äĵ
du ÇĴ
L e
5 3
xÇĲ ng
ju Ãłn
ï½ ŀ
B A
k e
194 6
t s
C O
m o
c tion
5 1
195 8
198 1
. 3
V i
197 2
194 8
zhu Ã¬
. 4
c Åįng
t Åįu
A M
h i
6 3
m an
ow s
A R
r y
194 1
W ind
B S
w Ã¡
li Çİn
19 30
M o
P ro
lu Çİn
ku Äģng
q Ãº
tu ÇĴ
k Ã©
7 6
han s
v a
194 0
193 7
c on
197 6
zu ÇĲ
194 4
J o
8 9
197 5
u m
ï¼ ı
T e
196 8
ni Ã¡ng
p Ã³
shu Äģ
h k
yu Äģn
t Äģo
p er
w Äģng
g a
10 00
r an
Wind ows
9 5
N e
b ÃŃ
s Çİo
d a
8 7
196 6
8 5
f Ãł
p Äĵng
6 00
l Ãłn
S e
S ta
s p
1 20
194 7
G a
A r
o t
g Äģ
195 6
A C
196 4
d Çİn
c Å«
194 2
195 5
ch ÇĴu
la y
195 2
193 9
I S
193 8
7 2
7 4
h t
r ÄĽn
197 3
a ce
f i
197 4
195 4
qi Äĵ
E D
19 00
- -
B e
A P
or e
194 3
197 7
D a
197 1
pÄ« n
p ÇĴ
m Ã¡n
196 7
shÃ© ng
men t
I C
8 00
E R
L a
8 6
195 9
b Äĵng
s on
196 5
J R
196 9
R a
du Ä«
D i
o k
p Ã©n
ãĥ »
Ã Ĺ
qi Ãło
chu Ä«
I D
qi Äģo
S u
in e
193 6
16 0
9 7
b Äĵn
zhu Äģ
en t
195 3
S a
196 2
M A
T u
ti c
196 1
l ÇĴng
a tion
â Ķ
193 5
t Ãł
m Ã¡i
S h
9 6
O N
a k
ï¼ ħ
195 1
195 7
196 3
L o
âĶ Ģ
on e
r ou
8 4
J a
202 6
d o
c Çİn
8 2
g i
b u
m er
7 3
p o
9 4
t Å«n
9 2
S o
A N
I P
A n
h o
a li
193 3
M u
193 1
n Ã¡ng
ni Ãło
le s
7 1
b Ã¡o
nu Çİn
l Ã©ng
p Ã¡
8 3
9 3
a i
W e
8 1
d ÇĴu
19 18
st a
H D
B o
s Äģo
U ni
19 28
lu Ã¡n
k i
193 2
w i
n Ã¨n
c ol
in t
M V
S S
ou r
1 10
t Ã¹
I T
19 12
al l
19 29
tu ÇĲ
du Ã²
19 27
c n
193 4
ar e
P a
7 00
1 .5
g Ã¡
ch e
b y
te d
st er
hu Çİng
S i
25 0
f f
9 1
m m
P ar
z Ã©i
R i
19 24
p p
p h
.. .
19 19
ku Ä«
H e
s o
xu Ãłn
1 30
pi Äģo
n o
19 25
P S
P lay
p Äģo
14 0
xi Äģ
B u
C a
S M
C on
S p
P C
19 14
b le
st e
zh Çİi
k m
D V
zh Äĵ
E n
me s
You Tu
co m
B a
h Äĵ
F i
T i
di Äĵ
el l
g ra
l Çİ
A S
i a
19 11
W i
sh i
en d
il l
n Ã¼Ã¨
an a
ar a
G e
19 26
de n
19 22
N a
n Çİ
si on
hÃ¨ n
19 17
E T
N BA
I V
shu ÃŃ
c Äģi
r Ã¡o
E N
19 23
ar t
19 21
f e
p Ã¨ng
s a
k a
ku Äģ
G oo
th er
0. 0
ch ÇĴng
T o
17 0
à ¸
E C
l d
m Çİo
n Ã²ng
A L
H a
M S
se ction
N i
YouTu be
E P
h n
B L
19 13
ti Äģo
J u
H K
le r
2 .5
â Ĩ
han t
gÃ¹ n
190 9
g in
In ter
c ro
S te
M P
A I
H o
g ÄĽng
W or
n Ãło
P o
f ÄĽng
D o
lu ÇĴ
U S
an t
g o
y a
DV D
or t
z Åįu
ri s
3 000
P i
c Äģ
C ar
19 10
R O
D S
T h
1 12
A K
M y
p en
R E
p ro
v en
19 16
Sta tion
ãĥ ¼
c huÃ²
N et
Î ±
K i
S ch
ol o
N o
ar i
tu re
g n
L in
C P
U N
g le
â Ī
er s
hÃ© n
19 15
ou n
ni Ãłng
190 5
F C
m y
L u
l l
W il
C N
â Ħ
âĨ Ĵ
190 1
F a
A u
ti ng
Ne w
D NA
E x
âĢ §
ar y
9 00
P h
si c
H R
di ce
si s
. &
C H
z ÄĽn
T A
di a
Q u
T O
190 6
le n
190 4
chu Çİng
2. 0
A V
F or
g ÄĽn
Jo hn
w e
er e
A nd
M O
di ng
co dice
ch Çİo
ji ÇĴng
âĦ ĥ
T a
p a
p s
Play Station
f u
k o
w Ãł
b Ã¨ng
0 5
C C
t on
v o
er i
di Å«
190 7
190 8
Goo gle
A G
E ST
0 .5
M I
zu Ãłn
S O
or y
te s
L E
G u
ji Ã¡
zu Çİn
c y
l Ä«
ch i
le y
B O
en ter
B BC
A D
I G
c al
II I
C u
4 .
c ri
of t
15 00
R u
li n
5 000
or i
zu Äģn
p u
G o
I ST
sh Äĵ
lÇ ĺ
F e
C ol
w or
S y
K a
M E
ti ve
C R
g en
3 D
w it
rou nd
6 .
I A
gu Çİ
10 5
j e
r on
m Ãł
Ð °
10 1
190 3
G B
p Ä«ng
ch a
shÃ ¡
l an
0 9
T E
re e
A d
H u
c Ãłn
c Ã©n
190 2
B D
N C
l and
c an
z e
ow n
es s
p Äģng
x t
3 50
w a
in a
SA O
shÃ¡ o
5 .
D C
n et
sp an
de s
Î ²
g ht
lÃ¬ n
en ce
B 1900
in c
B1900 .0
bo ok
de l
E S
B M
ï¼ İ
d y
ãĥ ³
H i
189 8
0 6
1 18
P e
m s
ãģ ®
l Ã¡
p t
qÇĲ n
te l
3 60
D R
m on
0 1
D A
g h
O pen
189 5
l Ãło
y le
12 5
m Ãº
la r
b Ã¨n
3 .5
H O
K o
1 %
M C
an ce
AT P
Mi cro
Ð ¾
10 8
g y
2 %
N G
p Åįu
ig h
s y
c or
t t
di o
K e
qi Ã©
z a
A pp
P u
ni ng
gra m
I F
F ran
f t
re s
Co m
ti n
âĪ Ĵ
0 7
0 8
2 30
F ace
10 4
D u
re f
O ne
Wor ld
ol d
S er
s oft
ED T
IST AT
M on
S tu
sh Äģi
.5 %
s ÇĴng
à ¤
N O
n er
189 6
C or
L L
B i
g er
lu s
10 9
D P
y Å«
la s
A A
f li
Co mp
re a
g ÄĽ
R I
v el
r en
li ne
R T
su ÇĲ
S P
xi Ã¡o
qi Çİ
E X
r ÄĽ
B ar
B ri
li ng
ber t
B 48
10 6
18 90
ct or
C ST
S an
M L
CD T
Lo ve
it y
m ar
3 %
z Äģng
ro w
D O
wi th
H E
f a
P er
p Äĵi
w ard
H ar
M an
d s
tion al
ta in
j a
0 4
4 000
11 5
cu Ãłn
1 200
k y
u x
ou nd
ig ht
M 1
50 %
0 3
G P
p Ã¡o
C E
ba ck
188 9
be gin
6 %
J e
189 9
o ol
col span
187 1
ri ng
E d
R S
ow er
mi c
Face book
lu de
Wil li
Micro soft
âĢ ĭ
24 0
tu r
Ma c
16 00
L O
Li ve
B E
ck et
10 2
c c
k er
10 %
bo x
T T
189 7
G i
N H
E E
chÃ ²u
P re
T ri
11 7
O n
P P
qÃ¬ n
4 %
k s
I s
S C
0 2
v an
5 %
c m
shu Çİng
st yle
m b
10 3
AK B48
M D
y Çİo
10 7
G ra
b li
Mu sic
G re
oo d
c Ã²u
0. 00
Lin ux
inc lude
D is
O r
T ra
P ri
t Çİng
w w
N or
p ha
mi n
8 %
O ri
y e
on ly
4 50
V ID
tu s
12 7
ma s
t ra
Da vi
qu e
an e
12 8
ali gn
4 .5
l Äģo
li s
ou s
1. 2
Ga me
fli x
9 %
C L
or a
Net flix
E l
189 4
2 20
r in
B er
Ð ½
s er
Willi am
I L
V o
S H
s ti
ro m
T wit
18 80
Re d
y i
R NA
z Ã¡o
13 6
P G
F u
Ð ¸
er o
ãģ Ħ
T R
20 %
st ra
Te am
7 %
18 00
W a
ãĤ ¹
Uni ver
g round
t or
188 5
ng e
li Çİ
11 4
an o
ãĤ ĵ
p iÃ¡n
ru s
H z
T y
Ch ar
col or
11 6
28 0
na me
St ar
E u
G en
U R
h y
Ð µ
11 3
er a
l la
188 6
7 .
si ng
ãĤ ¤
T S
t en
Sch ool
P O
m Çİng
la ss
189 3
.9 %
ir l
B la
M c
e x
1. 8
ni c
ou t
11 1
Mar k
S L
ir st
ã Ħ
.8 %
ci al
Su per
D on
a c
.4 %
W al
.3 %
je ct
le x
m ÇĴ
an s
âĢ »
t ri
li a
i e
m Åį
13 5
.7 %
Davi d
26 0
18 60
90 %
na tional
Ge or
M or
y s
n ÃŃn
gu e
t le
an y
5 .5
P et
W TA
w ay
.1 %
rou p
H C
M at
80 %
8 .
ni s
ce s
U A
U n
w as
ou se
h am
188 8
.2 %
A c
te xt
.6 %
S D
- .
ca tion
B ra
on y
ro id
1. 6
back ground
y Å«n
d Çİi
re am
Sh ow
12 9
G O
o m
ch Äĵn
18 70
st ri
G N
ï ¹
30 %
C he
ni a
188 7
b ur
d on
p ri
shu Äģn
18 68
6 000
c le
Ã ¶
Ñ Ģ
188 3
C y
N F
V A
lu b
mer i
K u
an k
Me ta
3 20
A b
X box
C S
N HK
A F
D D
Twit ter
K P
n y
only include
T ho
en s
pi Ã¡o
+ +
bi t
t Ãłng
18 64
âĢ ¢
I ON
188 4
1 19
R C
U E
ti s
12 2
C l
25 00
189 2
2 10
6 .5
A 1
o ng
in s
W h
c enter
le t
mi Ã¹
15 5
S ou
IS O
â ħ
14 5
189 1
6 50
7 .5
9 .
p re
And roid
G irl
se l
N S
c ar
v il
ãĢ ķ
si l
O R
y o
A s
ãĢ Ķ
18 50
on a
cu Åį
ht t
re d
l ow
x y
en sis
Inter national
D ay
c er
m Ä«
18 67
ste m
I M
p Ãłng
ãĥ Ī
Al l
N ation
se d
187 9
m ber
Ja mes
En ter
W ar
f fi
3 80
A B
U P
di s
40 %
187 6
C oun
V er
1. 4
Univer si
i m
v in
Geor ge
H er
18 75
18 61
27 0
D ra
t d
li e
si a
el d
A ir
G roup
I R
ch o
ti me
12 6
am a
2. 4
N T
P au
l or
in ter
A ni
S pe
Ga mes
NG C
H y
st ru
ãĥ «
187 3
H ol
M G
12 3
ãĥ ©
E ng
P V
100 %
B en
H T
v al
Col le
d ay
M B
16 8
CO VID
cri tic
C lub
F M
H en
lu e
18 65
il d
A O
P L
th at
as s
A meri
D E
12 1
C enter
u t
cu s
1. 0
B lo
17 5
ãģ Ĩ
We b
H 2
Y P
f rom
Ã ¤
14 00
A li
o d
MA X
wor k
p ar
13 8
2 28
T P
f er
18 48
chÃł n
1. 3
a st
al d
ne y
li Å«
18 62
60 %
3 30
d ge
p ÄĽng
12 4
ãĤ ¢
188 1
188 2
7 37
a ge
C an
187 8
5 50
S ha
gu Çİi
ru ÇĲ
187 2
E le
L C
bÃ¬ n
70 %
IN K
Meta critic
Ori con
b or
n Ã¡o
15 6
M TV
U C
b ri
16 5
co mp
B oo
L ED
f o
18 40
ni Çİn
IV E
H igh
S pi
c ore
d Äģi
w an
7 50
I t
n s
t ro
shÃł i
ãĥ ĥ
olo gy
mi ng
13 00
ãģ Ĺ
13 7
sta gram
7 000
1. 1
9 3.
B ro
D OS
S Q
U B
22 9
I U
c re
z o
C hu
G DP
K ing
O K
Ñ ģ
en a
2. 2
Le a
S he
r and
15 2
al s
St re
TV B
Mi cha
V a
li p
15 9
187 7
Ro bert
ty pe
S ur
â Ĺ
ku ÇĲ
18 66
ri st
Ch i
Ch ris
P at
i OS
Ð »
ol y
Pro du
S K
18 69
âĢ ²
sil ver
T HE
U p
4 .0
C e
D M
g ar
h er
s en
xi ÇĶ
15 %
F ri
N ET
P la
2. 8
Ð º
sh e
13 9
In stagram
Ph one
B I
C ++
st ar
BL AC
Ty pe
B ig
p or
Ð ²
D J
r Äĵng
0. 3
is s
App le
C G
H el
W E
e w
ra y
ãĤ ¯
co de
Micha el
A t
D F
ï ¸
ar k
al k
1 100
15 8
on s
at or
Te ch
Pau l
2 25
30 5
13 3
IN E
ci a
R A
s Çİ
ãĥ ª
A ward
H I
Y O
13 2
Ste am
20 5
18 63
Par k
Nation al
B ill
Y e
25 %
1. 7
tain ment
2 15
C i
b ra
st o
ne w
Universi ty
F O
r al
3. 6
Me dia
C A
F 1
K BS
V al
14 8
13 1
L ou
S mi
16 6
ar ch
2. 7
187 4
ss o
E F
M er
X X
b al
k g
n ow
18 58
F in
K ar
T ran
g on
v es
14 7
2. 6
sp ace
Bla ck
T er
a ch
g an
Pet er
G ar
de o
25 6
ãģ ĭ
G A
I E
M 2
k ÇĶn
18 30
2. 3
Ri ch
C BS
U T
18 51
Le e
B N
U I
19 2
z er
Î ¼
ad a
8 000
ch ÄĽ
3. 0
Ja ck
Enter tainment
3 10
4 .8
J ap
W in
lÇĲ n
bi n
mi ni
14 3
se t
C ity
M k
g Ãłng
18 55
ri e
at er
In tel
P ower
E M
I X
S am
h Çİ
Sp ace
R AM
ð «
18 5
18 59
zu Ã³
ST AR
shi p
Char les
b el
p y
13 4
Di re
A ng
A BC
F la
en e
18 54
14 6
30 1
en ti
17 00
Vi u
Ja va
3 70
i f
18 57
F ree
G M
P y
T ai
w hi
st ro
v s
Ø §
10 .
an n
29 0
ãģ ª
Li fe
ï¸ °
E r
P an
V e
Î ³
2 14
4 20
D ream
Y a
Ñ Ĥ
1. 9
Re cor
Al pha
Comp any
sti tu
e k
f ang
f ace
Î ¿
ãĢ ľ
mi s
18 56
18 53
Pro ject
A m
H ouse
P op
f irst
di um
ãģ Ł
et y
Ti me
Tho mas
C al
M in
a e
o x
v on
v is
14 4
Sa int
F A
K en
O VA
75 %
C ent
T ru
V O
b Ã²
A 2
I O
16 7
Stre et
3 A
H S
S BS
sh Çİ
bi li
ku Çİ
18 41
ver y
A lex
B at
L P
L au
T or
di n
ri c
3 40
P M
P or
S hi
chu Çİn
ma t
ma tion
BLAC KP
7 .6
9 2.
M et
p le
z Äģ
20 8
18 15
17 8
CP U
BLACKP INK
2 23
3 3.
B ur
c is
m Ã¨n
So ci
Stu dio
Eu ro
8 50
L GB
S ing
p la
ch er
zu Åį
se s
Ro ck
ww w
I BM
s pe
S F
20 7
di e
p lay
s g
ni e
17 1
23 5
ta tion
ãģ ¨
ãģ ¾
D ig
F er
L IVE
M r
P E
S U
V E
Y u
n Ã¬ng
20 3
B 2
W hi
n ot
Ar t
SQ L
P ad
18 46
16 4
for d
oo t
Colle ge
b re
c ra
15 7
vi ce
ber g
pu bli
B R
L T
N E
li t
14 1
IC E
4 .7
4 .6
8 .5
B 1
C ro
C ap
S un
on d
17 6
th y
IN G
bo ard
In c
Te le
Ameri can
A sso
L S
h Äģn
y ou
Â ²
18 12
18 45
18 44
si gn
3. 2
Ro ad
Girl s
sel f
Z e
s ch
mi t
23 1
O ffi
c ture
c lass
H F
L td
M 3
M il
R os
ãĤ Ĭ
wit ch
LGB T
A g
b all
20 9
ce ss
ãģ į
of f
2. 1
2. 9
NA SA
GN U
L A
w Äģi
de d
Jo se
Smi th
C la
G er
P A
P ra
am pi
IU CN
2 16
P N
Î º
18 49
15 3
te mp
ve d
Goo d
C T
F il
N BC
T our
w h
zh ÇĴu
sh a
20 4
23 8
au rus
Produ ction
B B
C ra
G al
H all
S ci
n al
o i
y n
vi sion
Vi deo
Ga la
G T
O 2
l Äĵ
p m
u e
Ï ĥ
mi ted
or ts
in o
tion s
E li
P R
S ky
t al
20 6
le a
qu i
ma c
4 60
5 .0
a b
m al
w in
18 14
or g
2 18
a ni
f ra
eri es
Rich ard
S I
l ti
w ar
chÇĶ n
ri ch
ang e
IG N
5 .8
A ct
L D
â ĸ
pi c
Bo y
F ar
T ur
W S
Ï Ģ
de f
18 47
15 4
3. 4
tur n
5 80
6 .0
A ma
F F
b un
e p
f ri
le d
18 43
man n
Be st
ph y
Sy stem
pt r
4 30
M as
M BC
P lan
z z
17 7
40 1
che m
4 10
B el
S al
ãĤ ·
NF L
Viu TV
S witch
W o
k ing
16 3
0. 2
AM D
AP I
We st
Jap an
I CO
b ar
b us
u p
men ts
18 52
16 2
th on
es ti
Ch rist
cri pt
V II
18 20
11 .
or n
ge t
th is
ãģ ı
Ma x
F re
P rin
c il
14 2
23 4
ri a
Ro y
5 .7
V R
17 2
ãģ Ĭ
ãģ ķ
Recor ds
6 40
D an
S qu
V ir
w ood
16 9
35 00
Li mited
C ore
K C
T 1
g s
p hi
Â ±
18 39
ar s
23 2
3. 7
da ta
4 80
C M
c Ä«
17 9
th i
ca de
fu l
20 30
en i
14 9
0. 1
ma x
36 5
3. 3
In stitu
H ow
v ar
18 21
ãĥ Ń
ãģ ¿
Ch a
ay a
Uni code
RO M
CC TV
3 90
B U
R es
V ol
X P
n ess
t v
30 6
al o
22 2
60 1
0. 4
un ch
5 .9
F an
tu be
17 3
it ch
Bo b
E A
P F
12 .
24 7
it al
C amp
K K
li an
pi ng
17 90
der s
2 11
5 60
F un
O H
S N
k h
w id
or d
ãĥ ¬
ci ation
B F
E s
T op
V M
t ran
3. 8
For ce
H ot
M U
P D
P H
S ir
shu Çİ
18 3
17 95
30 3
re w
âĹ ĭ
u se
lu m
23 3
se arch
ãģ ¡
180 1
2 13
T ok
w Ã¨ng
ãĥ ŀ
.0 %
US B
d ra
su b
17 4
ru n
3. 1
Ma g
MV P
C K
l li
z on
Ï ģ
á Ģ
ì Ŀ
18 6
18 38
or s
St ore
ke y
He art
Dire ct
5 20
B ank
D DR
G lo
Z i
z y
mi ly
ck er
Je an
6 10
F le
i Pad
r ÇĴng
bi le
16 1
50 1
ãĥ ī
Ho me
htt p
2 24
C F
P en
e le
m g
su r
ti a
18 13
ãĤ ī
Ph il
G E
L on
k in
t z
Ï Ħ
en se
18 2
18 32
18 42
la tion
25 5
it s
Soci ety
A E
G old
H an
S co
f ter
i Phone
18 4
0. 6
ãĤ «
lo s
Mi ni
Da ta
7 20
K I
S cript
d d
i se
â ĺ
18 36
la te
17 93
ãĤ ª
Co mic
vi ng
Mu se
Ki Ha
bun tu
2 21
C ri
D r
H BO
M T
M el
T un
g re
h ÇĴu
ti an
18 33
ni ty
17 89
tic s
Ri ver
oun t
htt ps
Asso ciation
Gala xy
B ay
D AM
M 4
Q Q
c l
f in
ng a
ti es
18 35
15 1
th o
ãĤ ¿
ad y
2 19
2 17
3 38
5 .6
6 .7
C ry
F T
J YP
R ap
S R
U buntu
W A
f y
l on
ð Ĳ
sh ang
âĢ °
th a
Mar tin
180 4
ON E
CE O
wid th
4 70
7 40
8 30
n t
li ght
for m
To m
Hen ry
Lea gue
Y G
d ro
w ell
Ï Ĥ
Ð ´
â ī
Ch ampi
Ma ster
.8 1
Gen er
E ar
F ra
L INE
P hi
V il
g Ãł
u ni
Î ½
ch el
mu s
am er
to p
AR T
Gre en
vil le
2 12
D K
c ti
h as
n m
Ñ ĥ
le ss
18 28
0. 7
ãĤ ³
op er
AP AN
row n
0 %
D y
D ou
F R
M ana
N ight
P in
a g
h ar
o ni
19 1
di t
30 2
ta ble
0. 8
95 %
Bill board
Offi ce
6 80
B r
B al
J an
M Hz
P I
S NH
b an
b ro
k ar
Î ¹
18 1
16 24
st s
23 7
si de
ma in
ãĤ ĭ
Ch ina
Co de
You ng
con d
No te
Jose ph
SNH 48
4 .9
B ir
D es
F DA
J APAN
O b
P K
à ¹
á ¹
16 44
30 8
st on
0. 9
St ra
CO M
tic al
Pa la
4 40
D B
G R
V an
hu n
tu ÃŃ
10 000
18 37
23 9
th an
ri ck
180 6
Lo ng
So ng
Uni ted
Par t
mac OS
C V
E ast
M W
U 21
Ã ¢
Ã ®
Î ´
à ¥
â ĳ
18 19
29 9
3. 9
34 6
HT ML
ann el
7 80
H ill
T w
T en
T alk
j o
p ort
18 25
24 5
23 6
50 5
27 9
ãģ «
Ra dio
Dig ital
5 40
7 .8
D own
E V
H 5
J i
r pm
w n
li c
chÃ ²ng
13 .
si an
el la
New s
3 25
7 .9
C at
P as
00 1
17 76
ri ght
ãģ ĺ
lo ng
bu t
den t
NC AA
Ser ver
F AT
S il
18 18
14 .
26 5
ãģ ĵ
ne d
Qu e
Hel lo
B an
B ru
D ri
N u
V en
W at
18 24
18 31
202 7
Ch o
Hi st
Ko ng
E m
G S
R PG
p r
Ã §
Ã ´
tu m
me d
38 6
Ch ild
Ser vice
âħ ¡
5 1.
U M
b et
hu r
su al
ro me
vi a
BS D
Fran k
Is land
Py thon
publi c
Sci ence
1 A
B lue
C W
F ore
X ML
c lo
Î »
27 5
27 00
and a
You tube
Ju mp
Ed ward
Un der
Whi te
3 12
5 G
7 30
B or
F irst
G rand
H L
O M
P oly
T BS
h Äģo
n es
re y
26 4
29 5
180 2
BL UE
Institu te
Champi on
3 2.
6 30
H or
O ut
S um
T M
b en
f un
su s
18 22
ni Äĵ
28 8
ra tion
ãĤ ¸
ak a
En vi
4 .2
6 .8
C as
L an
L es
O s
o ther
p lo
p op
Ù Ħ
li st
la ng
ar ed
24 4
ãĥ ķ
va te
IT F
2 D
6 .9
G ro
J T
S of
c ent
e m
x el
la unch
24 9
35 %
90 3
Nor th
Squ are
6 .6
O T
P ID
S eries
u l
z ation
Å ¡
24 3
28 00
You r
Ho ng
Th is
Cu p
9 1.
F X
L ang
N P
_ _
h r
18 10
15 .
16 22
17 92
30 7
re turn
ta s
70 1
SA RS
PO P
Tech n
5 .1
9 60
C ur
H am
R ay
S ig
S HO
V V
o b
p Çİi
v y
Î µ
16 50
80 1
vi ew
Net work
MI UI
bur g
Tun es
2 100
P al
U r
p art
Ð ¼
18 26
an ti
15 73
ou d
as on
ci ng
ha ve
7 47
C le
J our
i mp
tu al
18 34
30 4
ou ld
22 6
27 8
lt a
ãĥ Ł
ãĤ Ĥ
37 5
ad d
180 5
AC T
AP P
AI R
olo gi
Blo ck
H A
L y
Y o
h el
i i
r d
ch en
00 7
or o
29 6
29 8
si g
38 5
AT A
Mo del
ga in
Da ni
Stu di
3 35
5 90
9 000
C U
N ow
R y
R am
W N
m l
n on
o c
Ï ī
â ĭ
12 %
or k
17 80
13 %
re ss
22 7
ãĥ ł
ol f
ma p
Ma y
Re al
Sp orts
ding s
IF A
3 15
6 3.
G il
J on
O p
S c
h ad
i Tunes
k en
Â »
25 1
ou gh
27 7
at o
one y
CN N
2 A
D ar
G ran
O ver
R en
R us
R FC
p H
zi ne
18 .
15 82
17 99
25 9
24 6
24 8
180 9
Inter net
Sou th
Eng ine
4 G
5 30
C 2
D LC
S m
g Ã¨n
s Çİng
s in
Â «
li o
18 23
an der
16 21
27 2
ru m
40 5
AT ION
tw are
180 3
da e
Sta te
ste ms
EE E
pre ss
3 34
6 20
7 70
C lass
S G
di tion
lu tion
16 25
ge s
28 4
28 5
ãĤ µ
Au to
Pu bli
3 11
8 80
D ot
K h
S ony
V I
Ã ī
á »
25 8
27 6
cu r
ãģ Į
Al f
Mo bile
B us
K O
O per
S w
W ay
X T
p res
à ¦
25 3
al y
35 7
nu m
Mar ia
Mo on
Wi i
Pi er
6 60
C li
G et
N M
S V
U L
s m
Ð ¹
di an
ãĥ Ĺ
ck s
ST A
IP v
Uni x
Wh at
Euro pe
5 70
C er
U 19
W F
e e
m or
Ð ³
tu Äģn
18 27
15 70
ãģ Ĥ
ga zine
Be au
0.0 1
Lin k
vel op
Boo k
Tran s
3 14
3 DS
6 90
B re
B BS
C 6
D SM
I EEE
M en
S B
S ound
W WE
m ore
18 17
16 40
16 36
26 8
40 2
40 4
ãģ ¯
Re gi
Ra in
whi ch
7 .7
A X
G ri
b lo
i ni
n or
ng er
la ris
17 75
25 4
ter s
46 5
Me di
85 %
Di e
Ti k
Fran cis
Com mu
3 23
7 .0
A th
C ir
H P
O P
k Äģo
17 50
30 9
oo m
op le
Jo y
fi c
3 29
6 70
6 .1
8 .1
D ol
E nd
P lus
b on
p ur
sh ing
gu Äģi
18 16
pi n
la i
17 .
for e
ãĥ ģ
ãĤ £
45 00
Ch annel
ca st
ing s
CO N
per i
TO P
Cu be
Lou is
. -
7 10
9 10
9 50
D I
I mp
L it
M K
T ro
o me
de a
pi tal
16 %
la m
ar r
24 1
23 00
Re search
IS BN
fi eld
Po li
Fil m
tv N
3 26
A sia
B ou
C am
C lo
P T
T 2
i ce
r ch
t ry
à ½
15 92
45 %
34 7
75 8
St and
mo del
6 1.
A ra
B on
D T
L is
10 .5
12 .5
16 28
17 88
25 2
24 2
26 9
ãĥ ĭ
and y
Le on
Vi ctor
La w
ff er
fe a
tur al
3 18
3 36
5 3.
9 .5
9 78
A do
C B
D L
D en
F esti
J en
M al
M US
N 2
O 3
T an
T re
á ĥ
ch ar
bi Äĵ
16 27
17 83
17 91
al th
28 9
ro s
40 6
ce d
35 4
IN N
Co mm
St an
ap p
Vi sta
gi c
Pi xel
Dis ney
âĸ ¡
7 3.
9 0.
A cade
C our
E L
F 4
I B
L AN
L TE
O F
i ch
p Äģ
t re
16 .
17 97
ï¼ »
ï¼ ½
65 %
Ma ch
55 6
Be at
ak er
Sof tware
A nge
D MS
T H
h is
n Çİn
17 79
17 96
te st
60 7
ãģ ¤
ãģ ł
35 2
Mar y
180 8
ER T
km 2
Ni co
NC T
Ali ce
âĭ ¯
3 21
3 37
4 .3
A 4
A mi
S or
T 3
c s
g is
u ng
hu Ãłng
tu de
18 29
17 78
17 94
28 3
27 3
ãĥ £
ãĥ Ĳ
ãĤ ¨
ck y
Vi sual
ine se
YouTu ber
AS C
Wor ks
Ele ct
Bat tle
3 13
5 10
8 40
8 60
F oot
M net
P ho
l lo
p at
v et
v ance
Ã ±
Î ¸
shu Çİi
ni ca
ni ght
17 98
for mation
22 %
ãģ ¦
45 6
37 2
Jo han
EC T
sy stem
Spe cial
Award s
. 00
4 48
8 70
B lu
M F
P ay
i o
r or
s ca
18 %
15 80
16 12
16 34
17 87
28 1
26 7
ãĥ ĩ
ma d
ãģ £
ãĤ ¦
nu s
lo st
mm y
we b
Pre mi
Roy al
Glo bal
6 2.
9 11
D G
F ro
M is
O li
S et
T N
W O
d or
e v
f la
â ĩ
sh Çİi
hu s
mi na
15 67
16 48
al le
27 1
te ch
lt ra
Ar ts
ff e
BO X
Envi ro
4 2.
5 2.
7 2.
A H
E 3
L am
M M
M ur
Y ork
s or
19 .
chu Åį
26 2
ta i
36 7
ve st
pe dia
OS HI
Pro f
con st
AC E
EN T
AG A
Gre at
Tik Tok
- &
3 22
4 3.
A h
M ON
N ot
O TT
S po
V B
bi an
15 50
15 68
on t
16 15
16 30
14 %
28 6
ãĥ ĸ
Ma gazine
ver n
CH 3
Comp u
Muse um
Dani el
Festi val
B rown
C ru
C AS
D ark
F BI
L G
S au
S IG
U SA
s tu
12 .7
pi Äĵ
16 45
16 46
28 %
re ad
zhÃ¡ o
ãĤ Ń
33 3
.9 5
CO LL
AR D
Se cre
ste in
En core
ture s
wor ld
On line
Cl oud
MUS IC
9 .8
9 .7
H un
L ar
L et
c as
o ver
t an
Ø ±
16 26
st al
26 1
29 7
35 5
Ch inese
49 %
ste a
Ki m
3 28
8 20
G or
H as
P RO
S 2
T ou
g al
o li
s ÇĴu
s co
qu es
16 37
24 00
70 5
90 1
36 4
38 4
37 8
ve y
33 %
44 2
ha i
con o
Po int
VID IA
Gener al
6 18
7 0.
7 1.
A U
C BC
H B
N VIDIA
T 48
a le
t r
Ð ¡
Ñ ĭ
16 10
16 42
25 7
28 2
th ing
26 00
Ma d
Sta dium
160 9
ali ty
ster n
Ex p
Go d
Red mi
Ye ar
Ado be
5 .4
7 60
7 67
C AN
G ol
I l
O 4
O me
U 17
V C
b as
b ps
j or
s k
s che
Ñ Į
de on
ni or
15 85
15 83
13 .5
hÃ¨ ng
ãĤ Ħ
58 3
ct ory
180 7
AR M
Te X
wi ki
ther n
Sy stems
por ation
9 30
D el
F IFA
J U
K E
O D
T own
T hun
W ho
c to
d ou
11 %
16 23
ge l
27 4
si ze
.0 4
An to
Wi ki
ï¹ ĳ
H2 O
tro l
Tai wan
E OS
F IN
I ma
I EC
K in
K id
T ar
W on
a h
c at
e sta
k et
ti na
11 .5
15 71
17 %
17 84
26 3
50 9
29 3
35 1
os aurus
99 9
De ep
mo d
va lue
Ar chi
Ca st
. 10
2 200
4 28
5 .2
A J
G UN
T ay
x x
16 20
17 23
17 86
in te
st re
50 4
lt on
ãĥ ¥
35 3
39 5
be th
43 %
So laris
Po st
pri vate
Met ro
cl ol
Mana ge
Dot A
4 19
4 32
A 3
F N
F ly
G L
H ap
R on
b b
c ci
c ard
c tive
p ra
ì ķ
14 50
cu ri
ãģ Ļ
Ch an
ver s
Mi ke
our ce
Ke y
LO VE
Mark et
Studi os
Lit tle
4 27
4 .1
B and
C ine
F E
H IV
K 6
L ine
R ou
V PN
z Ã¨
Ä į
li ke
zi lla
15 77
16 18
16 43
ro p
se y
38 7
39 9
.8 2
.8 3
ct s
ell ow
oun tain
Fle et
Techn ology
3 17
3 31
3 45
5 12
5 65
H 1
M Y
R 2
S 1
U 18
U SS
U ltra
b es
g g
l Å«
Ñ ı
15 86
la u
17 77
14 53
in to
21 %
st y
st an
si t
80 6
ba se
CD MA
Sta ge
Ra deon
ak i
Uni on
AL L
Val ve
Child ren
Secre t
3 27
4 11
4 90
4 45
4 46
5 35
A lt
A ven
F I
F ound
L and
M id
M 87
U 23
W ill
W OR
o la
r stea
y er
Ã ª
ch t
en do
15 21
17 65
17 74
si ble
ce l
se cond
39 8
47 %
49 9
oo k
Par a
Wi th
Ju nior
Ad am
BM W
mon d
Fri ed
Cent re
wh ere
Phi lip
Acade my
4 16
C rea
E MI
H TC
K B
S che
S oft
T W
b at
r ent
mi a
16 16
26 %
cu l
70 7
il y
ter i
36 9
39 7
Ma u
ver se
Jo e
Sta tes
Mu lti
Wi re
Ni ko
GP U
bili ty
Ome ga
6 13
6 .4
A ri
C ou
N R
P ort
W I
Z A
h au
h ouse
p es
Î ·
Î Ķ
Ð Ĳ
li ve
15 64
17 85
22 .
36 8
lo t
.0 8
67 %
TV BS
Me m
Ne xt
He a
so me
Fi re
My SQL
vo id
Ori gin
Ama zon
3 C
8 10
B T
H on
J r
R un
S ti
h l
m 3
Ð Ķ
16 62
26 6
29 1
si st
el le
he ad
58 8
os a
Di stri
Su b
rou gh
Ba se
MO D
vo lution
chi e
Cor poration
M1 A1
fer ence
mis sion
velop ment
GUN DAM
3 16
5 37
6 21
7 42
C I
E 48
E ric
F o
F al
S in
T I
W el
Ã «
Ù Ĩ
an na
15 40
15 74
17 72
24 .
st d
28 7
te e
60 5
45 4
38 8
34 3
.8 6
op en
88 8
Su nd
po int
0.0 2
Dra w
Chu rch
Alex ander
Cro ss
Manage ment
4 25
4 75
9 .9
9 .6
L ady
N D
O ther
S W
S ar
c ted
k Ã¡ng
k an
v at
w ere
ji a
19 %
12 50
ni co
16 19
16 29
16 83
27 %
29 %
29 2
36 3
37 6
ST S
55 2
68 6
ig n
De mo
Ar c
Au gu
Cy clol
Lon don
Sco tt
6 27
B ad
B RT
D er
D un
F L
I r
K ir
M X
O ra
S to
S ara
T ony
h ard
t ru
Ð ±
ti sh
14 .5
24 %
al ly
ï¼ Ĥ
31 %
ma tic
48 8
.8 4
.8 8
99 %
id a
De sign
ph en
Sp ot
Sp ring
And rew
ðĲ Ń
4 49
5 A
6 25
7 38
8 1.
8 3.
F ron
H ER
O f
P B
R ound
V ER
i re
u nd
Ð ļ
sh ared
15 90
15 79
16 33
ãĥ Ĭ
ãĤ °
32 %
150 7
Be ta
La ke
Si mon
CH 2
Cu l
Sy n
Ani max
Ear th
4 12
8 .7
F ort
L F
L M
S ol
S ca
S ON
V 8
c oun
h Äģng
t to
Ð ¿
í ķ
mi r
mi x
16 31
16 80
17 73
21 .
29 4
40 7
ma te
ãĤ Į
bo dy
39 6
33 00
42 %
mp le
Se a
160 4
An der
Par ty
Ha mi
Fa mily
PG A
Ang el
Dri ve
Jour nal
4 1.
7 .1
8 2.
8 .6
9 80
A p
A re
C 4
F old
G C
L R
P ol
c en
n an
Ä ĩ
É Ļ
ni cal
15 75
16 97
17 55
14 92
si ve
cu m
80 5
36 00
as a
46 7
47 1
De f
Ne o
mic s
ï¹ Ĳ
SK E48
Dy na
Sum mer
Thun der
0 x
3 19
E pic
H al
J 2
K el
N ar
S we
X C
f b
h oo
p an
z en
ch y
li on
or ig
15 61
15 89
15 95
17 81
14 65
al an
50 8
ãĥ Ĩ
ãģ ²
34 4
.8 5
44 %
.9 9
58 9
op h
160 3
160 6
160 7
CN BLUE
Ru by
Coun cil
Chris tian
pr int
4 15
8 55
9 40
9 70
C re
C lar
K at
M ed
M iss
k es
p os
u age
x 86
Ã ¸
Ã ħ
Ã Ł
à ®
li na
ni o
15 22
15 26
15 56
16 13
16 60
50 2
50 6
ãĥ Ģ
ter a
37 7
to s
47 8
55 4
.0 7
amp le
Mar i
Al li
sp ort
mer cial
TO UR
William s
cation s
Hy per
ìĿ ´
âĺ Ĩ
Ange la
Foot ball
4 17
5 25
7 .4
9 20
9 25
A fter
H it
L U
U K
U RI
i te
l le
u d
Ù ħ
su re
15 25
15 91
16 67
in du
chÃ¨ ng
ro nic
.5 5
40 8
48 5
46 %
64 %
64 3
ad o
ba by
op hi
AM O
Ba ck
Fi esta
Ste ve
Qu a
Ru e
pu t
Ad vance
DO HC
Ameri ca
3 24
4 22
5 15
5 38
5 34
K it
P ap
Q S
S 4
V T
V el
W ater
h en
m RNA
w ho
z zo
â Ĥ
li sh
ti ne
15 10
16 38
17 30
me dia
ãĥ ĳ
et te
34 2
39 3
47 9
.0 2
.0 6
mp h
St ory
150 8
Vi ta
Mo zilla
La st
HK T48
las sic
Ber n
Wal ter
Sou l
Sur face
7.6 2
Found ation
. 25
3 200
5 31
5 46
7 .2
E G
G Hz
I TV
J er
J ane
M es
M BA
N I
S en
S on
T G
V S
b les
i PS
k W
p al
202 8
15 43
14 57
.5 2
co me
36 6
38 1
39 2
In du
.7 8
Ar ti
Bu il
Hist ory
. 12
1 st
4 13
4 26
6 .3
A i
E du
F 3
G PS
L Z
L ight
M os
U 20
W nt
c la
d own
m ol
y l
z Çİn
z ar
Ù Ĭ
15 65
15 59
15 87
15 97
âĢ ł
16 35
16 88
17 33
17 82
al so
st ry
te x
.5 3
60 6
ol low
ãģ ĳ
37 3
Al bert
Ti mes
len t
John son
Fin al
. 11
5 24
6 12
6 .2
8 90
A sh
B y
F S
J im
T ol
U D
b s
e st
o v
s core
Â £
Ð Ł
Ñ ĩ
15 88
15 98
50 7
ce ll
am o
the w
34 %
64 1
49 5
68 %
68 2
Re p
.9 7
.6 9
66 6
Ro d
Ro se
Vi o
0.0 5
Po d
Au stra
Mon t
Bri an
CL A
Pla ce
Tele gram
tran s
Pier re
3 32
4 A
4 K
4 35
5 75
7 90
A le
B et
F l
M us
T MA
a te
p lan
s ky
ti Ã¨
ti al
en ts
15 23
15 35
16 49
16 61
17 70
14 99
23 %
th en
0. 25
ãĤ ¬
ãĤ ı
36 1
nu mber
46 6
39 1
.. ..
55 1
vi ces
.0 1
Mo der
160 1
Sh o
gi o
PC I
Ti m
Ho tel
TO K
Ac Fun
Fla sh
pla ce
cra ft
Won der
5 28
5 500
9 90
B ang
B ell
H ard
H TT
S ma
S mo
T han
e y
f is
g ni
shu Ãłn
mi ne
12 .8
15 11
17 60
17 69
ri t
35 8
co s
36 %
37 1
46 9
it z
68 4
58 7
Vi ew
94 .
pp m
Bu t
SM AP
Ge o
0.0 3
Ed ge
tri bu
Exp lor
Gol den
5 48
A W
B il
L or
M ir
M AC
S han
a ir
e ven
p ara
v or
ti Çİn
200 00
10 80
15 000
15 76
15 94
16 89
36 2
38 3
TC P
34 1
41 %
NA SL
98 %
Pro gram
Be y
So me
Si ri
Qu i
Bri dge
ac tive
Europe an
vern ment
8 0.
9 21
D ance
G un
L 1
M R
M ind
M MC
N EX
R B
T F
U FO
V F
V ar
b ow
k ins
r Ã¡ng
u ts
ð ª
hÃ ²ng
hu o
ch ÄĽng
20 .
le ft
ti ca
mi d
18 11
15 17
15 14
15 78
15 52
âĢ ķ
16 39
16 84
.5 1
60 8
ma ster
38 %
34 9
Ma i
64 4
55 7
vi e
.0 5
.7 6
.7 9
.9 2
ir d
58 5
59 7
De velopment
Mo d
Te st
Se ven
Ra w
We ek
Fi ref
Ju st
ko v
Mat thew
temp late
Eli za
Comm on
sco pe
Tay lor
curi ty
3 48
4 36
5 49
8 .2
A ST
B ai
B rand
D NS
F red
J am
K on
M itch
P res
R N
R et
b um
e a
e xt
o van
p l
ti o
er ing
17 63
13 50
in ess
ï¼ ĭ
si e
40 3
ce pt
cu Ã³
se ll
ma ni
90 8
es sion
65 00
ca se
150 5
ard o
tou r
77 7
Mar ie
ang er
fi ed
fi cation
Pa ck
wor th
San ta
MG 42
Christ op
Vil la
5 47
5 67
6 68
C 5
F AN
M ountain
N K
R ol
T 4
Y OSHI
b la
s Ãło
Â ³
Ñ ĸ
10 50
16 14
17 20
27 .
1. 25
37 4
49 4
Co V
.0 3
.7 3
ID E
IP S
PS P
ther s
Wor k
UN IX
Pe ople
Com mit
âħ ł
Kar l
Fra me
IPv 4
Explor er
4 .4
5 14
5 22
5 45
5 68
5 .3
6 19
6 75
B au
C SS
D 1
E BU
K T
K w
O h
S hu
Z a
n Ã©
s pi
s al
y Ã³ng
le te
15 16
15 13
15 34
15 47
15 69
16 V
14 60
st one
26 .
cu la
ãģ §
35 9
75 7
64 2
.8 9
.9 3
58 1
au x
150 2
ction s
51 %
ga ni
ali s
Ge Force
à¸ £
SO HC
Jack son
Art hur
Que en
COLL AR
Sund ay
orig in
4 18
4 14
4 24
4 33
5 44
B os
C J
D TS
F 2
J O
J us
M MO
P EN
S and
T el
X IV
b Å«
c z
f lo
h ol
i th
p per
s ki
z ed
Ð Ĵ
17 31
17 68
17 71
14 90
me l
40 9
lt er
ãĥ ı
60 4
80 2
ãĤ ±
ãĤ ĩ
ãĤ į
38 9
75 00
39 4
47 6
be en
.8 7
49 3
vi o
.7 4
.6 6
Vi sion
ER O
Bo x
Ri ft
AG E
Pri me
FO X
whi le
Tru e
JT BC
âĩ Ķ
Cine ma
Aven ue
4 31
5 39
7 45
A BS
B it
C lassic
E O
G in
G amer
K er
L ord
M it
S k
S olo
V 6
b n
b our
j q
z za
Ä ±
sh op
sh ed
ch ange
bi Ãło
ti l
ti ce
ti fy
15 93
17 24
17 52
14 69
14 98
13 70
si li
se a
ãģ Ī
il le
48 %
38 2
75 5
46 4
44 4
ci d
57 1
150 1
Ne ver
Ga ga
no va
PS 3
pro te
Ex press
Bri tish
td own
AGA SA
Kid s
Fried rich
6 46
6 67
C IA
D 2
E ver
G am
I RT
K an
M 6
P ass
T am
X F
Z J
a mi
h igh
p to
s ay
t ch
de x
li us
di es
15 20
15 60
15 53
16 51
17 40
14 93
23 .
60 2
90 4
49 6
49 8
44 3
na ment
.7 2
.9 6
.6 2
Ra il
MA N
Bo ys
Ba by
Ha w
pro du
UN G
Fa mi
AG UE
LE AGUE
Gu ard
wor ks
mon t
Je ff
Don ald
Intel li
à¥ į
Commu ni
Ath lon
Mem ori
Firef ox
6 11
6 45
9 45
A gain
B as
C 1
C en
C BA
D EC
G W
H ay
O ld
Q U
T AM
U 2
v ol
Ã ¥
á º
ch an
di c
15 96
on o
16 32
16 79
17 18
17 35
17 45
17 58
25 G
ï¼ Ŀ
te c
ra m
ãĥ ¡
cu lus
ma de
90 7
ãĤ ģ
ãĤ Ĩ
58 4
150 6
De ar
ss on
tw o
ment al
160 5
Sa mu
gi a
An th
Si de
He alth
Fi sh
Na me
RE AM
Wil d
Cent ral
Dou g
Stand ard
Vio let
Christop her
YOSHI KI
0 50
4 39
5 33
7 31
7 32
7 41
7 62
9 62
A stro
C ree
E ye
F lor
H 3
I CD
K ra
N U
N um
O ff
R CP
T L
T hi
U CLA
W ood
a th
k it
n p
p he
v ari
w en
Ï ħ
á ¸
â Ļ
bi a
di na
12 60
15 66
16 .5
la w
la de
17 25
17 48
ãĥ Ħ
0. 10
70 6
ãĤ Ī
ãĤ Ĵ
45 7
ter y
37 9
as o
75 6
55 3
ci o
67 3
57 4
57 6
mp son
Li st
Al an
98 5
97 3
An na
Ca pital
Gre g
Alpha Fold
Oper ation
Fleet line
Angela baby
5 16
6 17
6 39
7 22
7 35
D U
E cono
H MS
K ha
P 2
T ower
b ble
n ers
s Ã²u
20 50
qu id
15 28
15 72
on al
16 52
17 27
17 61
13 68
.5 9
ãĥ ¯
ãĥ İ
35 6
70 4
48 2
37 %
65 5
55 .
br ary
.9 8
au lt
AR E
ga te
Ga on
end s
BL E
lin k
Col or
tel li
Har ry
Eng lish
Gar den
Tw o
Jon es
Ander son
Eliza beth
Commit tee
4 47
8 63
9 26
9 61
A na
A pa
B ow
D in
E a
E pi
L X
R ATP
T ha
V P
W W
e u
h al
p et
p as
de fea
sh an
li m
bi rd
en o
ni n
er gy
15 31
15 38
16 47
16 81
st or
ra t
80 3
70 8
ãĤ ĥ
45 2
45 3
the y
65 1
be d
Co ok
vi r
.0 9
58 6
57 2
St ro
150 4
Ne u
ED G
AP G
IC A
do or
Con ne
Ba sic
170 1
Ste phen
Car l
Col span
wor d
ess or
HO ME
igh ts
App li
cc ff
cc ccff
Pre ss
Dis co
Twit ch
pri se
Pat rick
fra me
Wo men
FIN AL
Bey ond
3 M
4 38
5 11
9 33
B un
H ero
H ans
I LE
J es
R ad
S ay
S NC
a w
b and
d ÄĽi
g na
v ity
w er
Î ©
Ð ·
Ø ª
ì ļ
xu s
hÃł ng
mi e
15 30
15 37
la ti
17 36
ï¼ Ĩ
60 3
80 8
46 1
46 8
68 1
us er
ON G
sta te
170 9
Ke vin
Game Spot
Ab du
Sou thern
new s
Java Script
Prin ce
Direct X
Sil ver
fun ction
Moder n
3 G
5 41
6 29
6 48
7 25
A k
C AR
D or
E LE
L ow
N N
N an
N PC
P 4
U RE
V is
c ter
c ity
g as
g ent
v ent
Ñ ħ
su ch
su per
di re
zi ng
15 19
15 29
15 55
16 87
la st
17 28
ar di
in k
te am
.5 6
ãĥ Ŀ
cu ÇĲ
90 5
es a
48 4
65 3
Ma ker
In fo
be fore
55 %
55 9
49 1
.9 4
67 9
.6 3
pe d
79 6
OS S
fi sh
Sa f
MA D
Par is
Con cer
Th at
Fa ir
mar k
cket t
UR L
AO A
Ya hoo
spe ci
cture s
Plan et
ASC II
Spo tify
Omega T
Mitch ell
4 23
5 36
6 32
7 15
8 25
8 33
A la
B 3
C AL
D 9
F low
G y
G RO
H au
I ta
K 2
M oney
M bps
R DS
Z o
e b
e i
i de
s an
s ci
w art
hu Åį
20 35
11 20
17 67
50 .
.5 7
ck ing
Ch rome
Ma in
47 3
49 .
49 2
ca p
nd a
.6 1
au to
66 1
56 2
Li ber
Ro bin
De ad
De bian
Me ga
Vi a
ga me
Se e
bu cket
An ne
ho st
PS 2
Fe de
Ed die
TR A
Coun tdown
Zi co
sig ned
TOK YO
Violet ta
3 39
4 29
5 32
6 65
7 75
7 69
A x
A rea
D 5
E ri
F ox
H and
J I
P ur
R 1
R F
S NS
l ler
Õ ¡
mi Äĵ
12 20
15 45
16 64
16 59
17 19
ar tic
14 95
14 96
13 88
re do
.5 8
ce p
70 2
70 3
Ch ap
Ch art
Ma h
ST ATION
68 9
Re a
.9 1
69 2
os p
Ro man
Mi x
79 8
hi m
sp lay
ot t
74 %
ment ary
ER S
Ja co
AN D
SM .81
gra phy
Ju an
gin s
Ste ven
Ph y
IF F
Bi o
Dra gon
Ani me
Hen ri
Frame work
0 10
4 34
6 36
7 29
7 61
8 78
A us
A ction
E 1
E 231
G EN
J ay
L 2
P AGASA
R K
T oo
Z ERO
d as
e g
h at
i ra
Ð ĳ
Ð ľ
Ñ Ĩ
ì Ĺ
ti er
15 46
15 49
15 62
16 70
16 90
16 54
16 53
16 94
17 59
ar o
14 66
th or
si o
ãĥ ¢
80 7
70 9
45 8
46 3
lo g
55 5
59 6
66 2
St ri
un der
Li ke
Mi chel
con stru
ent al
gi e
po si
Bu ild
shi on
Inter active
Wil son
John ny
del la
Vo ice
FA ST
Ken ne
Cour t
Hap py
HTT P
Samu el
. 39
1 2000
5 27
6 38
6 69
7 12
7 11
9 .4
B P
D al
D REAM
H os
I MAX
J os
K 11
L V
L ind
M 5
N am
N CC
R SA
S r
d an
e f
f lu
s ka
w y
Î ¬
sh ell
xi s
qi Åįng
le m
su ng
tu ra
ni Å«
15 58
15 81
17 38
14 74
13 75
cu lar
el li
ne u
ve ment
ST AT
47 7
lo ve
68 000
Co s
AT E
59 5
59 8
59 9
57 8
160 8
Ja c
He in
den ce
EP A
pro gram
we en
0.5 %
gen e
sy n
fli ght
EX ILE
Per son
GP L
Star s
star s
Gal ant
imp ort
NM B48
5 21
6 28
6 22
7 21
8 67
8 77
8 .3
9 65
A er
B Y
C are
F 5
J et
M ount
N er
O ST
R X
S us
S UP
S ource
V EN
W P
Z Z
c li
c in
f re
g li
u i
w ill
y d
gu Ãłng
yu n
li fe
bi o
12 80
âĢ ³
16 65
la t
17 32
17 44
17 56
14 89
14 87
13 40
ou l
me t
29 .
000 rpm
ãĥ ĵ
90 6
ãĤ º
45 1
Ch ill
.7 1
99 7
St ru
id ae
Se curity
Da ve
Sh ar
wi ck
Play er
Fe li
gh ts
Fore ver
SHO W
Bus iness
2 nd
5 19
5 17
6 24
6 23
8 35
8 76
9 38
9 54
9 51
A bu
B 9
C AP
D 3
F w
F lo
G DDR
H il
H op
I MD
K ur
L CD
N IC
P on
Q t
S el
Y F
e ng
f an
m ou
m os
u de
v as
w ould
x a
Ð ĺ
ð ¤
su m
qu a
chu Ãłi
15 24
15 32
15 84
16 58
16 57
16 99
la d
17 62
13 37
mu m
ï¼ ŀ
ra i
.5 4
se ed
47 2
47 4
64 9
49 7
68 7
68 8
69 8
57 9
88 %
78 4
Ro ber
Pro to
72 %
ht ml
140 6
Car los
DS P
à¤ ¾
Bi ke
ye ar
SH IN
Hol ly
Christ mas
âĺ ħ
Publi c
sca pe
MON STA
Compu ter
Tou ch
Sma ck
Smo sh
Apa che
0 54
6 16
7 19
8 65
9 46
9 88
B ran
D H
D ur
E sp
G 1
G au
H 4
H 10
H at
J ona
M ore
S 3
S b
S ense
W it
W HO
X G
j an
k ra
u sed
Ã ¦
Ï Ĩ
du s
ti e
lu Åį
en ne
mi cro
11 .2
pi a
16 68
17 39
17 64
for mat
28 .
ma il
300 00
78 7
Li brary
So cket
An n
so ck
PS V
Con trol
170 2
Th ere
Ta ke
Hu man
LL VM
row span
way s
bre ak
Fan ta
Ry an
Smack Down
0 52
4 21
4 37
6 14
6 26
6 37
8 15
8 16
9 75
C ard
E cho
G F
I f
I ce
J P
R h
W ing
W olf
Y A
Z O
a fter
c ine
f ree
h p
k ha
w on
w ri
Ð ł
ë °
de pen
di g
00 00
12 75
11 .3
15 36
16 75
14 64
ra d
ma y
ma jor
45 5
IN D
64 .
lo ck
.7 7
67 1
67 8
op s
mo st
AR P
Te x
97 %
Sh er
An ti
170 5
Lin er
Fa shion
TO WN
eri al
Gi ovan
She et
lea se
KK BOX
Champion ship
Lang uage
Alf redo
aly sis
Prof essor
5 42
6 34
8 21
9 12
C IT
C fb
D X
H PV
M OS
M IT
N XT
O l
P r
S Y
S ter
S IM
T ig
W H
W er
W ell
W ong
c ount
d f
d le
d one
g lo
i ma
m me
n st
o is
p on
w ind
Ï ĩ
â ģ
ã ħ
ì Ħ
ch es
li b
le u
le in
mi Äģo
15 63
16 17
16 63
16 85
17 .5
17 53
14 77
13 80
mu lti
st ance
50 3
ra s
se e
80 9
ãģ İ
ãĤ ½
at an
48 3
48 6
as y
75 4
65 6
Ma te
be at
be ca
The at
67 6
AT X
66 %
99 .
SA N
78 5
56 1
NA S
Me i
61 %
AR K
Se cond
AC H
ok ia
84 %
AN G
IP TV
We stern
Bo ard
Fi le
Fi eld
ther e
à¸ ²
UN ES
gen cy
Fran ces
Mor ning
Bra d
RC A
Colle ction
Space X
Mel on
Cir cle
Mis sion
Crea tive
TW ICE
Clar k
Indu stri
SUP ER
2 DS
5 18
5 26
5 66
7 16
7 14
7 65
7 64
7 44
7 .3
8 26
8 47
9 18
9 36
A fri
B NO
E U
E ve
E very
G I
H ere
I a
M RI
P ere
R P
R ight
R ank
S UN
V in
V IP
W ri
W are
W TT
c am
c ta
g roup
h Äģi
p ho
t own
Å Ĥ
Ù Ī
â Ĭ
ë ¦
ð ¬
ng th
sh ow
ch in
ch ed
li ty
chu s
10 24
16 69
16 56
16 72
16 92
17 54
14 20
14 80
te en
31 .
0. 15
il o
the ir
75 1
65 .
65 8
Ch ang
Ma ki
In te
59 4
St one
79 1
AM C
AM P
Mo ore
Sh ine
IT A
Bu g
170 4
170 8
Ni ck
Pi e
ari o
AG P
ML B
Man u
Vo gue
Fu ture
DM R
Fron t
Rep Rap
2 B
7 13
7 27
7 48
7 68
8 75
8 .8
9 15
9 29
9 47
A ce
B IG
C r
C YP
D am
E mp
E BS
F ai
F rom
I SA
N ICO
O ME
R 3
R ing
U F
V IS
X III
k on
x c
z Äģn
Ð ¢
Ø ³
le v
bi e
bi s
10 75
12 77
12 79
12 76
11 11
an te
14 40
14 88
14 72
13 71
al lo
st ory
ri an
ri ce
ro ad
ãĥ §
90 2
48 9
vi er
69 9
op hy
99 2
88 1
98 6
Le w
con tribu
AP M
160 2
do m
com mercial
Inter play
cro ss
AI M
RE AS
Wil hel
Au dio
CR H5
Gen e
Wal ker
Ver sion
Fil ms
Ji mmy
Distri ct
Swe et
Buil ding
0 30
6 33
7 78
8 12
9 55
9 57
9 .3
A zu
A sian
C 3
C 14
E Y
I m
I an
I so
J alan
L NG
L IF
M IC
N Y
N int
P OS
R and
R SS
S AT
S id
S top
T s
T NT
Y i
Y an
b ÇĴ
c Ãº
c Äĵn
d 4
i ro
r s
u te
Ã ½
Ø ¨
Ø ¯
le dge
su l
tu ry
ku Çİi
10 .6
00 2
00 4
12 30
pi s
15 27
15 .5
16 11
ar ray
re la
ri x
ri sh
ol s
el y
ãģ Ľ
48 7
ne st
bo v
46 .
Ch ro
In formation
55 8
68 5
vi ch
os au
57 7
78 1
79 2
79 4
Al bum
98 1
Le i
CO 2
AR C
Di ck
Sh op
gi on
po li
Si x
En ergy
Wi MAX
shi re
Ge mini
Ste wart
112 2
RE S
Ta c
ori es
ES PN
Tri ckett
min al
Wa ve
Tho mpson
Wh ere
Por table
ele ct
ìķ Ħ
Thunder bird
Vel vet
Jona than
ð¬ ĵ
Nint endo
0 70
5 43
6 15
7 17
8 28
8 39
9 39
B in
E 2
E di
F D
G 2
G G
G r
L en
L un
M ED
N 1
R Y
S 7
T D
U FC
V 1
V 2
a la
i c
k ai
n ar
p oly
t ar
w el
z zi
ã İ
ê °
le e
ti nu
ti ful
qu ali
di ne
ni g
15 12
15 41
16 66
la k
17 21
17 26
17 37
17 47
17 43
17 41
ar chi
14 30
30 .
25 000
for mer
te au
si te
0. 1%
48 1
is m
bo y
47 .
na tion
ad ox
ba sed
67 4
ca te
69 7
88 9
Li quid
De uts
77 %
Al len
98 2
98 9
ap u
per t
74 .
fi ni
96 %
po st
81 %
Pa ge
Sp ort
PC R
0.0 4
à¸ Ļ
AV E
NH S
Gra ce
hy th
Mat ch
bur y
Enter prise
Sur f
Production s
ab out
Bru ce
Doug las
2 TV
5 13
8 46
8 66
8 57
B 12
B all
G ary
H Y
J 1
J XG
K ill
O culus
P enti
W M
Z en
a gain
e ver
k Hz
p ower
w at
x e
z Ã¡n
de ra
gu s
zhu Çİ
mi um
12 17
12 74
15 15
15 42
17 12
17 11
17 15
14 35
14 56
13 28
13 85
for man
ro om
se le
el o
ãģ ¶
1. 05
48 .
48 00
IN T
is on
34 00
ba ch
pe i
St or
150 9
Ro ger
Wind ow
Mo tor
da le
Sta ff
IS C
97 1
Lo ck
AS H
fe ct
Net scape
IG HT
gen er
GP 40
hy dro
bri d
bri dge
face book
Prin cess
Pin k
Ten nis
SHIN ee
Penti um
0 55
6 47
7 28
7 26
8 11
8 .4
9 13
C Z
C CD
C OS
I ng
K S
M g
S now
T AI
Z ero
f it
f ig
f ts
i la
s w
t ta
u k
v ad
y an
Î ¯
Î ¶
sh ark
li k
ti t
chu Çİi
10 .1
ni k
11 50
or bit
15 44
17 57
14 24
14 70
14 54
st r
th al
th rough
ri l
ri er
29 00
am ba
se ts
90 9
45 9
38 .
37 00
is er
34 .
75 9
ST ER
II T
Co ng
ci sion
67 2
58 2
AT S
69 .
59 1
99 3
SA P
56 .
Mar s
Di vision
Lo st
93 %
Bu zz
DS L
pro ject
tt en
Fran ce
Univer sal
ham mad
Che e
âħ ¢
IM F
Dra ma
stru ct
Eng land
CG TN
Lou ise
Mer cu
add r
Anto nio
Archi te
CDMA 2000
WOR LD
Alli ance
Holly wood
8 23
8 29
8 .9
9 27
9 35
9 .2
A 5
E mi
F 7
F our
G IS
H art
J C
J ason
K N
K now
L MS
L PL
O ly
S ang
T B
U SE
W D
Z u
c ca
f eld
m pic
o le
o va
p pe
gu n
tu p
mi cal
12 35
12 64
or der
15 54
17 22
17 34
17 66
14 71
13 30
13 90
in er
ra nge
ãĥ į
ce i
60 .
60 9
the m
and o
65 2
65 9
Ma xi
Ma ke
Re mix
69 5
57 3
ly n
78 3
ss a
ber ry
77 1
ke e
Ga te
Ar ena
Sh ot
82 %
mer al
92 %
Uni t
ster s
Par adox
âĪ Ī
Ad ven
Hu gh
Pe ace
tt le
AA A
DO CO
Red dit
Ac tive
ens or
Ben ja
Spi n
Bro ok
Bro thers
Alpha Go
lli on
uni que
part ment
Engine ering
Oper a
sm all
ECT ION
Kel ly
tour nament
Cree k
defea ted
Concer t
Maki yo
Surf shark
1 180
3 100
5 29
7 24
7 36
8 32
9 32
9 67
9 76
A y
A ve
B EST
D N
D rop
E y
F 6
F G
F lu
F all
G on
H M
H Q
K A
K y
K or
L os
N 3
N ON
O L
P ia
P RE
R AD
S RAM
U 16
V CD
W ol
X Y
a ct
f ollow
g ran
g ood
h d
m ary
n ch
n el
r ence
t ent
w o
Â ½
Ã £
Ï Į
Ð ŀ
× Ļ
ð ¡
de ri
12 .6
15 57
15 51
16 55
16 78
16 96
la v
17 46
17 49
14 75
14 41
14 84
13 99
25 .
st ring
ri son
te o
et er
il ler
and ra
bo ot
75 2
be ing
68 3
Re v
St r
Ro b
Mar sh
va tion
87 %
87 4
AC S
86 %
sta tic
140 2
à¸ ¡
we i
CR H
Hu lu
net t
BM T
Dis c
All stars
Hol dings
Bro ad
Val ley
GM MTV
VO CAL
Mil ler
Pala zzo
ologi cal
IPv 6
Rain bow
Elect ronic
Premi er
PEN OME
Mercu ry
DOCO MO
PENOME CO
6 35
8 64
9 31
9 37
9 56
9 72
E dition
F ren
F IR
G it
H ad
M ou
M ol
M ill
N L
N AT
P RI
T ed
T ang
W id
c rea
e xi
f low
g os
k n
p rin
s ort
x on
Ã ĸ
Å ĭ
Ñ Ī
ð °
bi g
ti g
di stri
10 20
10 10
12 66
12 61
pi d
16 41
17 51
ar ma
13 46
mu r
th ree
re st
se u
0. 12
0. 65
ãģ Ń
ck en
38 .5
bo t
TC H
be ta
vi rus
99 5
88 4
88 5
88 6
De an
De lta
Mi ra
54 .
You Bike
mo tion
89 %
Se le
Ar m
IS P
IS S
Da vis
Da ily
Di am
po em
83 %
ki e
Pa ci
Si e
He ad
so cket
Wor d
AG M
cri p
Hi p
M1 A2
Pri ze
Nor d
CL OS
Ac cess
CS I
Coun ty
par ti
YO U
Sam sung
mat ch
Ros s
Bir d
Tw ins
long i
Beau tiful
Origin al
Augu st
user name
Theat re
Wilhel m
Benja min
0 60
5 64
6 64
8 17
8 31
8 53
9 19
9 58
9 42
9 59
9 79
A cc
C ali
F K
F NC
G as
G UI
H g
I ATA
J B
K ore
N el
P U
P X
P it
P ha
P DF
Q R
S chu
U CC
W inter
c amp
c ry
f ran
g b
h ÇĴng
h or
h on
i st
l f
r Åįng
Î £
Ð Ŀ
de t
li er
ti um
di ffer
12 84
202 9
16 73
17 13
ar ia
14 25
14 68
13 82
me mber
lt y
ãĥ ľ
se o
0. 20
80 4
80 2.
ãģ ©
1. 75
co la
36 .
38 00
65 7
Ma de
In vest
na ture
ci ous
ba i
ca u
AT I
57 .
Li p
De partment
CO NC
AM X
AR I
Mo de
87 3
120 4
IC C
mer s
gra ph
fe e
0.0 9
à¸ ±
Ni cho
Do cu
Lu is
Fa ctory
CR 400
ence s
Ser vices
SP A
fa mily
5.5 6
Wh it
cre en
Fla g
Tru st
phi c
How ard
ord an
fin al
Wat ch
Sm art
pres en
LAN D
Metro po
Edu cation
ession al
Fede ration
Giovan ni
contribu tor
5 69
6 31
7 88
8 27
8 45
8 52
9 .1
A 330
B 7
B ol
B ak
B our
B MP
D au
E ss
E van
G 6
G IR
I Q
L ane
L yn
N okia
R ER
T TC
X i
Y S
a f
b ber
c our
f al
i bn
n ell
p han
p us
u lar
w ater
y our
Ä ĥ
ì ĭ
ng i
qu et
10 .0
12 27
12 83
12 91
pi ÄĽ
15 39
16 95
16 82
17 10
14 81
13 56
mu sic
st amp
me a
ru e
ãĥ Ļ
ta u
ta il
0. 28
0. 3%
ãģ µ
39 %
39 .
Ch er
68 .
Re gu
44 1
67 7
au n
ig a
69 1
99 1
St yle
ed om
56 %
Mar ch
79 7
53 %
89 7
87 .
Se p
AC G
AP S
by e
so ng
140 5
SM O
den ti
EN D
170 7
Ni ke
ler s
112 4
Ki wi
Ex tra
pa th
MI R
Gu y
cha ft
à¤ °
EX O
Ber g
Mor gan
Va len
HS CR
Asso cia
wh at
Vir tual
DK Z
Dou ble
Song s
Rus sell
Premi um
Wire Guard
coun ter
Num ber
Disco very
Nicho las
0 20
2 K
3 166
5 23
8 42
8 41
9 77
A Y
A 320
C #
C ow
C au
C all
D 4
E B
G ru
G ot
G RE
I ni
J in
J DG
K un
N at
O 305
P 10
R MS
T EP
V HS
W C
W right
W 3C
X M
Z n
a es
c ou
d ri
e la
f l
f le
l s
m 2
o dy
p ol
p ay
Â µ
Ã °
Ã »
Ð ĵ
ji to
sh o
li d
19 .7
10 66
18 .5
12 41
12 95
ni um
11 30
la ter
14 33
14 49
13 76
st ad
th ird
me m
me o
si mo
100 1
ta x
0. 75
ãģ °
ãģ Ķ
ãĤ »
46 2
Ch in
Ch ange
Ch alle
Ma j
In dia
vi c
vi d
58 .
69 6
SA E
78 6
56 3
62 %
mo thy
ows ki
95 .
Ne il
Ar ray
We i
PC S
fe at
0.0 7
0.0 8
170 3
EC E
Ho pe
go v
Pi ctures
ari us
CH O
And y
AD A
lin es
Go vernment
Hu b
Cl 2
time stamp
Blo od
type def
enti al
Free BSD
Tai pei
Sing le
Es meral
Talk ing
bet ween
Stadium s
Advance d
Memori al
Anth ony
Jaco b
Esmeral da
4 D
7 49
7 66
7 99
8 38
8 44
8 43
8 54
9 68
A po
B 6
B W
C olo
C andy
E p
F B
F r
F it
F aker
G 3
H ig
I Z
I sa
I ron
K am
K iss
L oo
M n
N on
O BE
P l
R d
R IA
S at
S core
T r
T as
T it
T REAS
V inc
W B
W oo
a ta
e du
e mp
f ar
f il
g ger
s eries
¸ ©
Å Ħ
ì Ĥ
zh Çİ
su lt
di cal
10 .7
10 .2
12 90
12 65
12 62
12 86
pi t
17 29
17 42
14 38
14 59
14 .4
21 .5
re t
ï¼ ĳ
si r
ãĤ §
ãĤ ħ
he ight
75 .
Co le
Re Mi
66 3
Me e
79 %
Al ber
63 %
AR S
Mo jito
76 .
AP EC
Di plo
71 %
Ri ck
Na ture
0.0 6
Ni k
Do ReMi
RO R
mar ch
Or der
ser vice
Fu nd
Coun try
âĹ ı
BLAC K
Shi p
fri Day
Vil le
Sw ing
Lis a
Johan n
Hun ter
dou ble
tru e
Austra lian
ðª ¸©
prote in
SNC F
Jac ques
B9 TL
seu do
TREAS URE
1 190
7 18
7 33
8 37
8 .0
8 79
9 28
9 22
9 48
9 66
A 9
A Z
B 5
B len
C 7
C BD
F OR
H is
J ordan
K L
K aka
L SA
N y
N ess
N RA
O C
O u
O ce
O BC
P il
P ET
P sy
P DP
R ED
S 22
S ant
T in
U l
U HF
c Äĵng
f x
g ot
g irl
n am
w al
â Ł
ì ł
li ps
19 .5
ti tle
zi e
10 40
12 40
12 70
15 99
17 17
14 47
13 69
13 73
mu se
mu nd
st and
st ation
si ty
ãĥ ļ
am ber
se nger
ta ng
0. 11
ãĤ ¶
37 .
75 3
Ma p
Ma lay
lo ok
Re volution
88 2
Li ving
98 3
Le vel
BA S
BA NG
va lu
con ne
89 .
da te
ace ae
fi re
-- -
ok o
MA G
po inter
He len
140 3
Con ference
AS P
MP EG
112 1
lin s
gen ce
IF PI
Pri ce
ex e
YO UNG
PE G
Cra ig
Far ms
ICO CA
gre en
DAM P
Ven tures
aso nic
depen dent
Lew is
1 x
1 198
4 x
7 46
8 19
8 14
8 13
8 24
8 51
9 64
C el
C ERT
E id
E mer
G ay
H ur
K is
K han
K ap
K ara
L as
L lo
M un
M bit
P ed
R an
R al
S wi
T es
U s
V L
a ve
e ch
e ar
f ly
g Çİ
g or
g ge
g il
i k
i des
p ot
s ar
w ai
w are
á ŀ
ê ¸
ì ŀ
de c
ch ang
12 19
12 54
11 .9
11 .4
or ia
an us
16 76
la h
la ce
17 14
14 29
14 34
14 44
14 62
14 51
14 83
13 64
st en
22 .5
ri o
ï¼ ¡
te k
cu t
se qu
0. 13
0. 24
1. 35
co mm
Ma k
In f
lo sing
SE N
II c
Co oper
ci r
59 3
99 6
88 3
Li te
De li
CD R
77 4
ap ore
89 2
89 5
per ia
IS IL
col o
140 7
Sp y
com mu
Wi se
Ge m
à¸ Ń
pro vi
For m
Hi ME
Fran z
ref er
Dis play
ane se
sing le
ex ample
nic s
ãĦ §
ãĦ Ľ
DD 53
stru cture
Spi rit
Kar en
mini stra
Cap tain
PH P
Ob ject
map frame
Get chu
Gor don
inte ger
NEX T
Abdu l
Azu re
VOCAL O
Paci fic
3 rd
8 62
9 .0
A z
A ss
E 5
J ar
J AK
K 10
K ai
N 64
O ur
P ow
R D
S OS
S ophi
T 7
T al
T wi
V G
W u
c co
d ÇĶn
g ro
i le
o su
de i
hu man
10 86
mi R
12 25
12 24
12 58
or us
16 86
la e
14 86
14 97
13 10
13 29
13 .6
13 91
ï¼ Ĵ
ta ge
0. 18
0. 30
0. 2%
the ory
and ro
he d
In dian
Re public
na p
ci p
58 %
pe ople
AT H
69 %
69 3
De ath
77 .
Mar t
98 7
Le g
BA C
hi cle
AR A
con trol
89 6
Ne xus
Se an
Ga ming
Ra b
73 %
110 8
140 4
com ment
No va
âĪ ŀ
my s
Ex peri
AV C
For mation
Fe a
ron o
DC T
Du al
Mon o
NO ME
Pri x
Mat t
SD K
cle ar
vil la
Ce le
Pla t
Vir gi
âī ¥
Ur ban
Francis co
Lis p
Victor ia
Pho to
Prof essional
Cast le
Sca la
Ner f
LIF E
Fren ch
VOCALO ID
0 40
0 80
2 S
6 A
7 23
8 500
8 58
8 59
9 14
9 34
9 44
9 69
9 53
A de
B li
B GM
C rown
E MD
F RAM
G NOME
H IG
K re
K as
N 4
O G
O Z
P ST
P AL
R R
R it
R GB
S lo
S cor
T au
T ot
X peria
Y ellow
Z ICO
a is
b ol
f ur
h and
j k
p ter
s v
u int
Ã ¯
Å Ľ
Ë ĭ
á ¼
ti mes
di ca
en cy
10 .9
00 3
12 36
12 78
12 .1
12 63
11 40
er ror
âĢ Į
17 16
14 42
14 78
13 60
13 65
13 33
13 41
13 .2
24 .5
st ed
st ream
se mi
ta b
0. 26
0. 35
el s
2. 75
45 .
co le
co mo
Ma th
ST EM
lo cal
The od
ad ow
ver sion
AT M
66 .
op era
78 2
Ro th
77 2
77 9
Le o
76 %
89 1
Se x
120 8
IS IS
Ra cing
Sh ell
So cial
Bo dy
à¸ ŀ
Ha ve
AI L
Car ter
Ki ii
Qu in
And rea
SO 3
BO RN
TE EN
Ad d
can s
Pe ar
Bi li
Pre si
PP P
mb H
Bla ir
Day s
Hy brid
OK A
BI OS
At lan
Ter ry
Er nst
LGBT Q
var ia
Part ners
Fore st
Alf red
Fro llo
dou bles
WI SE
sist ant
Bil ly
Ret rie
Cen tury
Fanta sy
1 a
1 194
8 34
8 49
9 41
A e
B ap
B ye
B WF
B OSS
C AT
D AI
E c
F on
F RE
F IA
G U
J J
L ook
P b
P lu
P un
R as
T ap
T ak
T ensor
U ta
W ang
W AN
a a
a sh
a di
b ell
c tu
g ri
g ne
g ing
h ow
k ir
n n
o si
o mp
p ass
v ant
w ing
× ķ
Ø ©
à ¼
ë ĭ
ì ĺ
zh Å«n
de z
10 30
10 99
12 21
12 .2
12 72
15 33
16 98
16 71
14 13
14 43
13 58
13 96
in es
re cor
et ti
at ory
lo ad
Co me
Co ol
59 .
99 8
78 9
CD K
77 3
120 6
Ar ch
fi gu
Ra i
Ra zer
Su ite
our ces
che ster
so le
shi ps
EP HE
HK IFF
MP I
pro per
Sch i
ina e
dy na
lar d
Ko ta
sy s
Com mission
SC I
Fu ll
Char lie
UT F
Min ute
Sing apore
lit ary
Bob by
ðĲ °
dro p
âī ¤
oper ator
Stan ley
Sor ana
ev ent
íķ ľ
Dyna mics
AMO LED
Qui ck
Appli cation
UNES CO
OBC s
1 189
8 18
8 48
8 69
8 99
9 16
9 17
9 49
A di
B is
C s
C ream
D 7
D card
G SM
G mbH
H ou
I van
L ol
M 24
M ine
N EC
O re
R M
R ID
S wan
S creen
T ER
V AL
W all
X 2
a cid
b ad
c are
c tus
d ol
g au
j our
k t
k le
l k
o ke
Â ¥
Å Ł
Û Į
à ¨
ê ¹
ë Ĥ
ë ŀ
ì §
ch Äģn
le ngth
ti no
10 60
10 .4
12 11
12 34
12 46
11 10
11 47
11 .1
or um
er ra
15 48
la o
la us
14 .8
14 58
13 .8
in us
24 .3
ri es
te m
ãĤ ¡
Ch en
Ch at
Ch oi
500 rpm
SE M
Re view
Re ich
ci pal
88 7
St ray
id o
150 3
79 3
hi bi
man y
BS I
Mo vie
Ar n
fi nity
ED 79
-- --
Da le
IC S
La b
ID S
Su i
Lo gic
bu g
94 %
IT Z
Si li
91 %
à¸ ´
Ju lia
RO CK
112 3
my TV
Lu d
Lu cas
Ex cel
Qu ar
len ce
And r
MO ON
CR 300
BD SM
lar ge
Ke ith
PP TP
bur n
119 2
Boo m
Pan asonic
Cal li
Fer n
Mr s
NE WS
Hill s
Em pi
Cle ar
ologi es
shing ton
Mach ine
Ami ga
sor ted
hau s
Cul ture
Qua ke
osp ace
ð¬ĵ ĭ
ãİ ¡
forman ce
Retrie ved
0 12
8 68
9 74
A ff
A stra
B V
B b
B am
B lan
B aker
C 96
D ass
E 9
F ay
G 4
G 9
K F
K ry
K EN
L ay
L MP
P ER
R G
V En
V IE
Y ang
Z E
Z one
d n
e V
f s
f our
g ang
g ers
j n
l ÇĴu
l Å«n
r t
s qu
u a
â Ĵ
ng o
de m
xi n
le i
zhu Äģi
10 27
10 70
10 49
men to
mi li
00 6
12 32
ni an
an ts
16 74
la mb
ar n
14 48
14 39
14 67
13 45
13 .4
13 86
13 92
13 93
re g
ï¼ ľ
te mber
si i
ra ng
0. 29
ãģ ļ
at s
co ver
the ma
to m
65 4
Ch ie
Ma gic
Re g
44 .
na h
99 4
St ring
78 .
Li e
Li TV
De vil
ang le
Le op
Le ga
Vi lade
AM R
va ge
Ar my
IS H
IS M
fi le
La bor
Ra ja
Su e
Su pp
ak h
IP A
IP O
ki en
PS 4
à¸ ª
AL A
MP 3
US H
ort on
Th ree
Ex change
we e
MI L
TE E
BM G
DR 2700
106 46
mar ker
Har old
Wa shington
TS B
Mor ris
Hol land
LC K
bor n
UC I
Pat ri
por ts
LP DDR
LT TE
LS ST
Tur bo
Gran t
read s
sche ma
stre et
Sche me
Villa ge
ELE VEn
Info com
artic le
GDDR 5
F7 F
NON O
Str v
Sili con
Vilade cans
4 200
9 63
A TC
A vi
B row
C AM
C ell
C ana
C BE
H 6
H 9
H us
J K
J IS
K V
K lein
L ing
M 60
N g
N TT
O RI
O wn
P 5
R 9
V Y
V CR
W en
a ting
c les
c ator
d ar
f oot
o bov
p ap
u la
v re
x ml
z one
z oom
ë Ŀ
ji n
qu ar
10 12
10 17
10 .3
10 63
12 14
12 29
12 68
12 42
12 53
12 71
ni er
11 60
11 35
16 77
16 91
ar es
14 19
13 24
st el
st ore
th od
ro ot
ra p
ãĥ ´
ãĥ Ĵ
ce pha
ta le
0. 45
ma le
ma ke
1. 45
co gni
bo th
39 00
Ma la
Ma jor
SE T
pe x
os o
Mar gar
der al
79 .
54 %
Jo is
ran ce
87 1
87 2
sp on
ED A
Be ach
AN SI
ho me
IT U
1.5 %
130 7
140 9
Na tural
ther ine
à¸ ģ
Do ctor
Th er
No v
ari an
Qu ali
And re
MO MO
pu l
Fe ed
Ka te
DR 2800
CE MS
Gra phi
Nor man
nis m
Can ada
Sing h
lit an
Direct Show
Sco t
fy ing
Ob ser
Ray mond
Cer ti
Bre ak
Medi cal
Oli ver
JU MP
Bern ard
gani zation
Rad ar
Saf ari
Hos pital
Tig er
ë¦ ¬
Oly mpic
follow ing
Vinc ent
HIG H
à¼ ĭ
2 n
7 34
9 K
9 43
9 52
A 7
A f
A ar
A ge
A st
A pri
A 380
B f
C 9
D 6
E I
F lip
G round
J S
J Y
J un
K M
K al
M 9
M s
M 10
M all
N FC
O x
O tto
S BL
U t
V la
X I
Y E
Y es
a me
a va
a ster
a ble
b g
d os
f ai
f ron
h man
h ere
i ning
j p
o id
p lex
r int
s olo
x 2
Å ł
Î Ľ
ê µ
ë ¹
Ĭ ¸
ch s
du le
bi l
su pp
ku n
10 59
10 56
10 54
00 5
12 59
12 52
12 82
11 .8
11 .7
pi Çİo
15 .9
15 .4
ar ning
14 15
14 26
14 .6
14 76
13 49
13 63
13 97
27 .5
si k
40 .
se c
0. 39
1. 09
of fi
et t
ck i
ck ers
ne i
ne o
Ma il
Ma cro
In die
be ar
ba ng
69 4
De m
Mar cus
ï½ £
AM A
AM G
Te ach
Te mple
ga tion
sp or
Ga bri
IC T
ation s
96 .
84 .
AN N
Mu ni
130 8
Ca the
Fi ve
sa ge
Inter march
Do g
Th orn
CN J
Ex ample
Qu an
Qu ad
Ta ble
0.5 5
MI X
Gu sta
cy clo
Ka th
vel y
Har ris
240 ZJ
Gi ve
EE Z
SH IP
Gen ie
ac ti
ffi ci
Spe ed
Sha ng
comp lex
King dom
Fri ends
sto ck
stro ng
IO C
á¹ £
plo t
Sc rum
Sche ma
live door
Hea ven
TG V
Tol kien
Fish er
eb ly
Kenne th
mou th
Rober ts
rela tive
Chro mium
Eid os
Virgi nia
Lega cy
1 195
8 98
A ero
B art
C in
C AD
C BN
D ir
H ell
J D
K TV
K SK
M 12
M ET
N f
O m
R oo
R au
R ant
R oom
R hyth
U G
U H
U 15
V u
V as
W ai
W DF
b ara
f oo
f us
g 4
g it
h ara
i ta
p ad
s c
s at
Â Ń
ð ł
de ll
ch ild
li ca
20 .5
bi no
ti us
ti ger
zi o
10 19
10 11
10 15
10 16
10 32
10 47
00 8
12 12
12 97
ni Äģn
pi ne
14 12
13 14
13 13
13 .7
13 .3
13 94
ge e
st art
23 .5
re tt
me ta
me thy
26 .5
cu re
100 6
0. 23
0. 40
0. 60
ãģ ³
ãģ »
1. 23
ãĤ Ģ
at ten
46 00
39 .2
ST D
Co ver
ci an
.0 2%
Ro cket
Mar c
98 00
Vi ctory
man u
Te mp
Da i
So da
An ni
An ton
We ebly
are a
Bu l
To day
à¸ Ķ
Ni ce
Ho y
Do mini
112 7
AK E
pro to
Lu cky
Lu mia
Fa te
For th
SO 2
TE 1
TE AM
land s
Mon te
NO 2
mar ket
ye ars
Game Cube
IL D
280 ZJ
Bra cket
Cy ber
AF I
119 1
yo ga
lip se
Produ ce
Pla za
Por ta
Tele vision
Cra zy
Far m
Fre de
Dan ny
à¹ Ģ
Hist ori
VV VF
Ry ona
mod ore
Fly ing
Ora nge
Sara h
16V 280ZJ
flo at
Stro ng
lati tude
Hein rich
IMD b
ê° Ģ
kn own
longi tude
TTC N
Blen der
Margar et
+ .
7 100
8 22
8 36
8 61
9 24
9 23
A IC
A gency
B 4
B 8
E volution
F PS
G len
H H
H oo
J ere
K rist
K ING
L W
M 1895
P ak
P ris
P ART
S eni
V ul
W es
X 1
X S
Z FC
a se
a ign
b son
b rea
c all
c chi
e es
f ound
g r
h of
j ap
k V
l Ã²ng
t 2
w ig
w ang
x 3
Ï į
Ð £
à §
à ¯
ð £
de sign
de lta
du ring
20 31
bi r
lu te
zi n
zi p
en berg
10 18
10 35
10 .8
10 72
men tation
12 44
12 99
11 70
11 39
11 .6
pi o
er y
16 .8
ar is
14 21
14 55
14 .9
14 61
14 85
13 000
13 55
13 43
13 87
13 72
al pha
re l
ru ng
ri d
ro ck
si ca
ra te
0. 21
0. 22
0. 27
0. 46
0. 32
0. 33
0. 49
0. 41
0. 95
el se
ãģ Ŀ
1. 36
1. 44
1. 42
he a
as ons
Ch amber
ST s
lo gy
be i
SE P
The y
44 00
42 17
78 %
ed s
ha ng
mo te
AM E
Pro te
Pro per
AC P
Da wn
IC AO
IC HI
97 .
ali sm
col le
all ow
Si m
130 4
PS Y
140 8
Wi de
ET S
EN U
Ju li
Do ng
go vernment
112 5
For um
Ta ste
Ka iser
Ad rian
wa ve
Com modore
Du ke
Stu art
à¤ ®
EX IT
mic ron
On ly
MD T
min or
UR N
As se
Ali ve
comp on
Fri end
now ledge
EM U
Dire ctor
GM M
Cal vin
Cla ude
wh en
Fre edom
fin als
Rap per
PI ECE
Pas cal
Science s
Hor se
Techn ologies
Ham l
ob ject
Dol by
Il lu
sty les
Kir k
UCLA SS
GRO UP
Aus tin
Aer ospace
Proto col
Fashion TV
BIG BANG
Stor m
Drop box
Diam ond
Sep tember
Kaka o
Ral ph
Bili bili
ëĿ ¼
0 90
0 67
1 1000
9 F
A gu
A ur
A FC
B es
C m
E st
F ur
F ine
F ellow
G TE
G host
H SD
J oo
K 3
K ol
K ang
K ali
K ris
K AD
K DE
L I
L id
M ST
N TSB
O E
P 1
P el
P BS
P IE
R ET
S mal
T on
T ARD
V or
V ali
W RC
W ings
W anna
Y ES
b ru
c 4
c lu
e h
e li
e ach
e very
e ffe
g ly
g ori
h ill
j s
j ar
j ay
n as
p ti
p ak
x ys
z el
Å ļ
Ë ĩ
Î Ń
Ù Ĥ
â ¼
ð Ĵ
sh er
ch ro
20 40
20 47
19 .6
su n
ti f
ti i
di er
lu n
lu ng
10 46
12 18
12 15
12 47
12 43
12 56
ni t
11 38
11 37
11 68
or dina
16 93
14 14
14 27
14 32
14 91
zu o
13 78
13 51
for nia
st ris
re cei
27 58
ï¼ ķ
ro y
.5 2%
ãĥ ĺ
100 2
0. 14
0. 000
0. 68
0. 4%
1. 04
35 .
2. 25
at ta
ck e
ne z
Ma gi
In stru
SE C
Co splay
pe ti
au ri
59 2
op o
SA S
ard s
Ro ma
Ro bo
Mi ami
Mar co
Mar ine
ï½ ¢
98 .
98 4
52 %
You th
mo de
mo ve
120 7
Ar k
Su l
Sa vage
Tu ber
Lo cal
bu tion
IP CC
An sible
Bo i
wi de
wi ch
110 6
1.5 2
130 9
Sp en
Na vi
sion s
170 6
à¸ §
à¸ µ
AL X
âĨ Ĳ
gin a
Car o
Th or
112 9
Ex e
Ex ten
SO 4
BO T
Fe el
118 5
IF T
à¤ ¿
NO W
Cor tex
LL C
Pre cision
mb ly
Nor thern
Super ia
tri c
Geor g
Ab ra
Spe ci
Spi ri
XX X
Jap anese
ð« ļ
SU V
oi re
Boy z
SN K
Zi p
Master s
âĳ ł
Champion ships
Pal mer
Yo shi
Nico nico
Lar ry
Demo cra
Qua simo
Arti sts
Intelli gent
telli te
Conne ct
ìļ °
Fai th
802. 11
Invest ment
MIR ROR
ìĤ ¬
OKA WA
bg color
Frede rick
TARD IS
Quasimo do
0 13
0 65
1 N
1 202
4 B
5 100
5 400
7 43
9 600
A 8
A bi
A mp
C SP
C UB
C IE
D ru
D um
E xi
E ven
E mily
E asy
F ol
F is
F ood
F IL
G ap
G ia
G HC
H ori
J M
K W
K ent
M w
M and
M PC
N it
N IST
O LED
P W
P AS
P DA
Q 3
R id
T 5
W y
X e
a de
b by
f era
g ren
h op
h orn
k as
o g
p ta
s r
t ty
t ja
w ald
Ä Į
Å ¾
Ë Ĭ
ì ĸ
li ch
li ni
qi Äģ
le ry
di se
tu a
tu n
10 37
10 67
00 9
12 16
12 26
12 55
11 55
11 58
11 42
11 43
11 54
pi ta
or nis
la ri
14 18
14 94
13 47
13 67
13 74
in dex
ge ther
for ce
ï¼ Ĳ
ro t
si er
am ar
0. 17
0. 48
0. 34
0. 42
0. 98
0. 8%
ãģ Ĳ
1. 37
et ro
et ra
2. 36
ãĤ ®
at t
SE L
Re ference
ver e
67 .
AT ENU
Mo ni
Se arch
Sta dia
Be lie
Sa la
Sh in
Uni ty
110 7
Pa th
Par i
Ri ot
ph one
Bu ll
Sp rint
ara cter
Na ver
ET F
Ni x
Po cket
Car ol
Ki ck
UN D
âĪ ¶
ting s
AV BW
AD HD
ori um
DA Y
Open MP
Pu l
Com man
Com mercial
Bi z
Comp lex
vel o
Bar ry
Per formance
ja ve
SC s
Vo cal
Univer se
Eu gene
lla h
Mark down
WTA 1000
Bra in
ï¹ Ķ
YP E
Can on
STAR SHIP
vs ky
Lau ren
spe cial
NE W
sch ool
Ros a
Mas on
Bel le
Cry e
Studi es
Den nis
Pho e
.00 %
cul ture
TI ME
Arc GIS
Syn the
LU NA
Pap er
Pod cast
16V 240ZJ
Econo mic
Sus an
yun nan
Iso xys
Cong ress
tup let
CRH 380
Cali fornia
Challe nge
fil m
Oce an
Empi re
Cathe d
KAD OKAWA
0 23
0 62
1 B
7 39
7 63
7 .5%
A IT
E va
G l
H indu
J or
K 1
K CON
K night
N ak
P t
P le
P ot
R ow
R ho
S ad
S VO
V AR
V Tuber
W an
W TO
W RK
d 8
p f
p el
p ora
u u
v 2
Ë Ĳ
Ì ģ
Ø Ń
ê ³
li um
20 .8
le h
le vel
ti k
qu in
di d
tu ng
lu r
ju n
10 H
10 14
12 28
12 85
12 73
11 19
11 62
er t
15 .8
15 .6
14 28
14 45
14 .7
13 20
13 12
13 .9
13 77
13 52
13 89
in ts
in formation
21 .3
re gi
ro cket
si m
ra ce
lt alk
100 8
ta k
0. 36
0. 63
ma xi
of fee
et ta
ter n
ter o
ck ed
IN A
Ma ple
SE A
Re ady
AT R
ct y
op tera
57 %
88 .
un signed
Li li
De e
77 6
Le c
fi lter
AP T
Da sh
Da me
po ol
110 2
110 3
IT S
140 1
Ca se
Sp or
ble m
To Heart
To mmy
MS P
Ni m
Ju ne
DS R
RE AL
ps y
0.5 2
Fe deral
Col lins
Pe ak
Open GL
Ke e
Du ra
à¤ ¤
ren e
SP ARC
Per ry
GP T
cc er
Tra de
Pri vate
ora ge
WTA 125
Show case
Ab out
Her bert
day s
DE ET
Sha h
Lea der
CG I
space flight
ð« Ł
bel le
bili bili
Lau ra
Mag num
CF 3
Gener ation
Em ma
Island s
Fore ign
clo se
Envi ron
Gro ve
INN ER
JU ST
Ron ald
Alt o
XC 60
Shan e
C5 H5
Jus tice
MMO RPG
BLE ACH
Phy sic
Tex as
Frances co
Brad ley
allo cator
archi ve
STER EO
Hugh es
Kore a
Docu mentary
Llo yd
hed ron
sv g
figu ration
lamb da
ORI CON
Graphi cs
Seni or
Smal ltalk
CUB RID
ToHeart 2
0 21
0 33
0 43
0 53
1 b
4 300
8 X
A 6
A w
A my
B G
B orn
C 8
C 13
C it
C ara
D har
D anger
D ASH
E at
F U
F igh
F AA
I re
K ay
K au
L ET
M H
N ER
O O
O ber
O wen
P eri
P AD
P TT
P tr
Q T
Q i
R in
S 6
S 26
S cu
S DR
T HC
T OSHI
V it
V eri
V WF
W G
a ck
b l
c 2
f ol
g amer
i x
l n
n en
o h
t ton
Ð ¶
Ø ´
ë ³
ë ı
zh i
ch annel
li x
du n
le ne
le na
ti co
ti que
ku s
10 76
10 95
mi nd
mi ss
mi stry
12 48
11 18
11 31
11 45
11 78
16 .7
la c
ar ti
ar an
14 23
14 22
14 79
14 .1
14 82
13 27
13 57
13 98
13 .1
13 83
13 81
for t
th es
re gu
ï¼ ¢
te ur
.5 6%
100 3
0. 38
0. 67
0. 61
ma th
1. 00
1. 02
et s
il s
co c
co ck
ter nal
he im
ne ar
as so
Ma ck
In di
be st
Re port
br an
ver i
ba c
ba u
.9 2%
au d
SA AB
id al
Li bre
Me mber
mo ni
AM MA
Mo jave
con tinu
Jo sh
Jo int
89 3
Ga g
Be e
Be am
Sh ir
bu l
An t
An y
An alysis
ai re
MV V
SS P
110 1
110 9
Ri o
ph er
He i
He y
Bu bble
Ca le
AS O
Wi Fi
end y
IV ER
To ng
BL S
2.5 %
ven tion
Fa ctor
we ak
Ru sh
ori o
Pu re
à¤ ¨
à¤ Ĥ
NO 3
Per l
Per fect
Har rison
EE EE
Gra ph
hy n
ï¹ ķ
Tho m
War ri
Universi t
737 MAX
cre w
Chu ck
Chris ti
she ng
ï¸ ģ
Smi le
Fin an
Ag ri
Eli te
Tur tle
Plan e
Wo man
CM OS
Res er
Mel ody
gre gate
âī Ī
Des k
á¹ Ń
FAT 32
Op ti
Medi cine
Commu nity
Stan dings
Blu es
mina tion
CAS H
COLL ECTION
Mid dle
Cul tural
Austra lia
Lor en
Pack age
Vis a
posi tion
Esp orts
Inte gra
wat ch
Git Hub
Evan s
TEP 70
Pl ant
Kota ku
ava ila
Shang hai
Exe cu
Cathed ral
0 18
0 46
0 32
0 73
0 93
2 O
2 PM
2 O3
4 .5%
5 200
A ki
B ed
B ot
C lay
C ant
D IN
D as
E 6
E v
E SA
E H10
F at
F itz
G 7
G 10
G 11
I o
I de
I MI
J ST
J UN
K G
K r
K amp
L il
L PGA
M 8
M oo
O cto
R 4
R at
R ang
R oot
R ange
S 8
S ri
S ki
S IL
T rou
T ree
V III
W AVE
Y U
Z IP
a ti
b ank
c ould
d B
f as
k Da
k ell
k ara
u sing
Ä Ł
á ½
ë §
ì Ĩ
li zation
ku ra
mÇĲ ng
10 2.
10 65
10 55
10 57
10 94
18 .3
12 38
12 39
12 .9
12 93
11 15
11 57
11 79
pi e
an cy
an ensis
15 18
on es
16 .6
la b
17 .8
14 52
13 25
mu n
re al
re ll
re qui
re spon
22 .3
me tery
ru p
ro e
ro te
ãĥ ¤
cu Ã¡n
cu be
0. 19
0. 66
0. 99
0. 62
0. 87
0. 7%
ma g
ma i
ma to
1. 38
1. 06
1. 07
1. 08
ãĤ ²
he i
ne xt
Ma ya
Ma nga
In tro
be e
SE VEN
Co hen
Re la
na e
nd rome
AT T
op sis
ed ge
Li c
De ce
De stru
Me la
man s
Pro motion
con e
con tra
con fig
ran e
Se mi
Sta y
IS L
fi er
fi shing
86 .
JR A
ak o
So nic
AN ET
IP C
Mu hammad
1.5 5
1.5 7
Par ti
so m
Bu sh
Ca pe
SM RT
Con ser
Ge ar
Na te
IV B
Ju lius
Ste p
Ste in
112 6
AK B
RE M
No ve
For d
fu ll
SO LO
Col d
Sy mp
IA U
Ad ministra
Hu ang
inc lu
118 4
Open AI
HO L
Du o
Cor ne
RI SE
EX ID
Je sus
NH L
Dis k
El li
ãĦ ľ
Wal k
Games Radar
Hy dro
Hol mes
od d
tro ff
âĹ İ
Free style
Tru th
GT X
Wo RMS
CM AMMA
Tok yo
Han teo
Comic s
Ear l
âĳ ¡
lang uage
part ner
sin ce
OP EN
Law rence
âĩ Ĵ
tech n
Ima ge
pra cti
into sh
Fal com
Fort ran
âĤ ¬
LZ 77
Fl ower
Wonder ful
But ter
Jus tin
sea se
P2 P
WH IP
Well s
Afri can
Rank ings
PX A
Associa tes
Hig gins
1x EV
Chie f
Apri l
jap oni
0 16
0 56
1 D
1 199
8 .3%
B K
B ry
B ET
B TR
B ERT
C lu
C ris
D eri
D ATA
E i
E TC
F ed
G ard
G ang
G ill
G ring
G lass
I ch
I AL
J SON
K um
K ON
M 110
M amba
N SA
N TO
N ME
O MG
O EM
P ine
P itch
P seudo
R V
R ig
R are
R LE
R NC
R anger
R ights
S NA
S .4
S CP
S ING
T X
T AS
W R
W as
W INNER
X L
Y ON
a 2
b h
b ou
b lue
d al
e is
f r
h ind
k k
l va
m Äĵng
v u
y r
Ð ķ
Ð Ľ
Õ ¶
Ø ¹
Ù ĩ
ð ¨
ji ng
xi v
yu ng
li l
du m
20 S
le z
bi ne
bi ke
bi ns
di v
di al
tu Çİn
en er
10 22
10 90
10 85
12 13
12 57
12 94
12 92
ni on
pi cal
an th
15 .3
14 31
13 23
13 62
ge m
th ia
ou ra
re i
me i
ï¼ Ĭ
lt z
cu it
se x
100 4
0. 37
0. 47
0. 78
0. 85
0. 72
ma e
ãģ ¸
1. 82
2. 14
2. 37
2. 78
ãĤ ´
il la
ow a
45 .5
he e
ne ver
IN AX
ve ctor
Ch amp
In dependent
500 00
64 00
lo v
be y
68 00
Co p
Co lum
vi an
ad or
ay o
59 %
Ro t
De v
Mi i
79 5
OS I
ap y
Le pto
CO UN
Mo ham
Te a
per son
Ne ed
85 .
600 00
AC M
Su gar
ent ry
Sa ba
Sa les
Lo go
An other
ali a
sta ge
IT E
IT Y
IT IL
IT ION
Par am
pp en
130 5
Con tent
Sp ark
En ri
Ba hn
AS V
To yo
To night
à¸ ¥
à¸ Ħ
EP ROM
Do ta
RE CO
Sch o
Lu ci
Lu ke
2.0 8
MO VIE
pa ck
SO HR
Gu i
Ru th
lin er
5. 00
NG O
Com pi
vel la
Har vey
Willi e
Gi or
Tra vis
ser vices
UR R
hy po
Che y
Ku ra
ens en
Ani mation
PL US
Ele ven
Sur vey
Tran sit
GA INAX
whi te
Er nest
Met al
Dig i
SU MM
Ag da
Ger ald
temp or
fri end
Vir gin
Cry stal
form os
à¹ Ī
OM ON
Sig nature
Rus sian
Beau ty
Link ed
Regi onal
Poli ce
Comm and
sca le
dor f
Ah mad
Cru sh
vers ary
Secret ary
FI BA
Para dise
Philip pe
Mau rice
íķ ĺ
Rod ri
Bai ley
Cinema Score
Greg ory
beca use
Pere z
Manu el
NICO NICO
lev ard
POS IX
Pia zza
Ped ro
Display Port
Sophi e
Tensor Flow
Uta da
ê¹ Ģ
Calli gra
Aff air
yunnan ensis
Octo ber
Dece mber
Gring oire
0 15
0 24
0 48
0 47
0 58
0 69
3 S
B ED
B ron
C Y
C um
C rew
D ONG
F au
F os
F t2
F IVB
G ig
G are
G TA
G CC
G LP
H U
H um
H ai
I K
J A
K ri
K no
K 230
L ot
L SD
L ama
M 113
M ENT
N 6
P AC
Q F
R yu
S li
T at
T ess
U V
U kra
X a
X DC
Z y
Z im
a 4
a q
a x
a z
a ction
c 3
c lub
d t
e cho
k re
k el
m ble
p lus
s am
s se
s ol
t su
v it
z as
z ero
Â ®
â ½
ë ª
de v
gu i
du lt
du ction
20 32
20 .7
le tt
su e
su rance
shu a
chu Äģi
di tional
tu ne
tu ber
en os
10 34
10 44
10 87
10 93
men i
mi l
12 10
12 49
12 51
ni i
ni sh
11 52
an ne
15 .2
on so
la sh
14 10
14 11
13 36
13 44
13 59
13 61
13 95
in di
in stru
ge ome
25 K
25 T
st ol
re x
re us
re vision
ï¼ ĥ
.5 5%
.5 9%
ce a
ce o
100 7
100 9
ta nic
0. 16
0. 44
0. 76
ma h
1. 18
1. 12
1. 17
1. 27
1. 29
1. 63
35 000
co hol
3. 7%
is en
nu ng
nu ll
46 A
Ch ow
Ch as
Ch ing
In si
In dex
47 00
The o
Re i
Re in
na y
ba y
.9 5%
.9 9%
58 00
.6 9%
400 00
Li on
ur y
CD C
98 A
ap o
CO O
ction ary
Mo st
Pro vin
Te e
120 5
120 9
AP H
Di o
ok a
Su lt
So ccer
ali st
HD R
SS D
Pa ta
1.5 4
1.5 8
SM TOWN
Sp a
ste p
ste ad
Ba sili
den s
den ts
EN CE
à¸ ¢
Inter face
Th ink
My Radio
pro cess
ari es
Lu ck
2.0 2
AG B
0.5 1
Sy m
DR T
DA O
MC A
cor ding
à¤ ¦
Bar on
ling ton
Mac intosh
Tri ple
Is ra
Gre y
Nor mal
tra ck
El la
ces sing
ï¹ ŀ
Che ng
Che mical
UE FA
Spe ak
comp u
comp any
ves ti
Pan zer
Offi cial
Sci enti
FF T
Dan cing
Phil lips
SR P
Pala ce
Sil va
OM R
Cas a
Gil bert
AX N
DI Y
Clo stri
Johan nes
Band ar
stan ding
vat ory
Sto ck
S4 N4
Mit chie
Jeff rey
Communi cations
Kenne dy
Industri es
VIS ION
Lun ar
Adven ture
Ey es
Nel son
Tot al
Arn old
Aar on
Vla di
Spen cer
AVBW U
Phoe bus
Ire land
coc cus
Finan cial
availa ble
COUN T
Linked In
0 35
0 86
1 201
5 300
6 K
8 56
B ER
B rea
C 12
C es
C ano
C offee
D MA
D ere
E k
E NA
E ry
E 5%
E state
F W
F en
F AD
F DG
H 8
H 12
H ang
H oney
I LO
I rish
J IT
K ind
L at
M 7
M 16
M 41
M eri
N V
O k
P Q
P AO
P ont
R AC
S andy
T su
U lti
V es
W ard
W hy
Y 2
Y ama
a 1
b ha
c p
c ana
d 3
d b
d am
e o
f ir
g l
g at
g lio
m pe
n os
p th
p si
q Å«n
t ree
u is
w s
Ä Ĺ
É Ľ
Î ¦
Î ¾
Î ļ
Ø ¬
ã Ī
ì ¤
ì Ĭ
í ĺ
ï »
de li
de ad
de mo
sh in
li pp
20 .3
le ast
bi ng
ti tude
di l
mi ya
ni x
11 16
11 3.
11 41
11 77
ar ts
14 16
13 35
13 38
13 32
13 84
25 .5
25 .6
re ti
re au
re sult
me la
me ter
ri te
000 1
ro se
ro ll
ro stris
si le
ãĥ Ķ
ta pe
ta nga
0. 50
0. 71
el ds
ma b
1. 15
1. 13
1. 80
1. 68
1. 3%
2. 15
2. 17
2. 24
2. 28
ãĤ ¼
co tt
ter ator
ck ey
is o
nu meri
Ma z
Ma ng
In former
ST EP
64 BV
Co ast
vi deo
Re ed
han a
.0 1%
ca le
ig ne
St ream
De b
Mi le
Mi litary
Al pert
ap pe
CO P
hi st
ry s
ran t
87 00
Ga le
Ar cade
ED M
ED 60
ER A
Su lli
po sed
Mu ll
ai c
SS R
Pa K
ster y
Par ker
no include
PS 5
Ca fe
Con cept
com mit
gra phic
den tial
ET SI
EP UB
âĨ Ķ
Po ol
112 8
CN BC
TA G
2.0 3
fu me
ko m
vo lu
AG C
Gu ide
cal led
ori an
Ad mi
Hu a
NC E
Hi de
118 1
HO USE
NO AA
ling s
Per fume
Ed win
Gi bson
NH 2
Gra y
Gra ham
Tra ck
Davi es
CL I
Ty ler
School s
ãĦ ı
Wal ly
ï¹ Ŀ
Nation s
Coun t
George s
Her mann
AO 3
Lea f
DM Z
sen et
3A 4
Lau nch
Fer din
ani es
data base
GE O
Cri tic
Ob last
à¥ ģ
EV ER
7.9 2
Ban G
launch es
Ren der
sin ensis
Publi shing
NM DA
SV T
What s
Cer vo
Leon ard
TH Q
Compu ting
Has kell
PRO DU
cto id
Ora cle
Round cube
Rail way
Intelli gence
Gy m
GRO W
sci ence
bucket s
artic les
sock addr
HY BE
Archite cture
exi t
distri ct
GIR L
Malay sia
Atlan tic
Ec lipse
Lud wig
Cana dian
9K 37
methy l
Anni versary
Jere my
Execu tive
Destru ctoid
XDC AM
PRODU CE
. 2005
0 17
0 29
0 88
0 94
0 91
2 C
4 C
4 Minute
7 k
A men
A sp
A DV
A ES
A mb
B ing
B rew
C X
C 15
C 60
C lin
C ES
C 10H
D ry
D IS
E 4
E VA
E 233
F P
F oo
F TT
G os
G ur
G Sh
G HQ
H IDE
I d
I ra
I RES
J 48
L 5
L US
L IM
L AB
M ID
M We
M RT
M BE
N BS
O W
O le
O AD
O mar
O micron
P os
P DC
P INK
S n
T um
T ED
T FT
U 22
U AL
V ari
W NBA
Y Z
c ow
c ara
d 6
d son
f 8
f z
f all
f ford
g oo
g rou
k at
k tor
l b
l lar
m L
m ara
o mi
s end
y ang
Ï Ī
ê ·
ð §
gu el
ch ia
li es
20 77
su la
di sh
lu tions
en te
10 21
10 69
10 88
10 61
10 62
10 97
10 96
18 .8
18 .7
12 37
12 67
12 .3
12 87
11 75
11 33
an or
14 17
14 46
13 48
in vest
25 .4
for mes
al and
21 .9
st le
th ro
re search
22 .6
te le
ro l
si x
ra ge
.5 3%
.5 4%
ce du
ce le
se xu
se in
ta tive
0. 79
0. 81
el ma
ãģ Ĵ
ãģ ĸ
1. 19
1. 11
1. 22
1. 65
1. 2%
1. 03
1. 4%
2. 35
2. 38
2. 65
2. 62
2. 92
co in
co ordina
he art
37 .5
IN I
3. 98
3. 06
3. 8%
is se
to k
Ma ha
ST OR
lo e
Co A
Co x
Co in
vi si
vi ties
Re e
Re co
ver al
ci li
.0 6%
.9 6%
ir s
St art
78 00
56 00
Me V
Me cha
Me yer
Mar ty
Mar io
Al cohol
BA BY
da in
AC AF
AP A
IC K
La mi
La tin
Ra j
Sa c
bu il
Bo e
Bo m
SS 2
IT H
IT X
ff y
mm ons
no on
Bu d
Con fe
Fi lter
Ti cket
Wi z
EN G
Ni ch
Do gs
Lu na
CH I
Ta g
SO AP
Cu t
Ru le
ori en
Fe e
je ctive
Hi m
Hi pp
mon y
gh ter
MC T
sy stems
Pu t
Ser ge
rea ched
Bri ght
San tos
fa st
fa ctor
Ed mund
Gi u
Gi use
cm 3
Tra in
Tra vel
sti ce
PO 4
out put
Pet ro
let te
OR F
Coun ter
Air craft
Chi esa
Ce metery
star ter
WE B
At ta
sto ma
ð« Ĭ¸
Euro gamer
Cro quet
you tube
LA Y
Ger man
âĸ ³
def ault
PD T
Mag gie
ìĿ ĺ
DDR 3
tia tive
Mini x
bro ad
à¹ ī
Cat alo
Frank lin
launch ed
Jour ney
Model s
C6 H5
Tre o
Elect ric
WO W
Deep Mind
hau sen
Hami lton
Ash ley
ext ra
bla ck
Kw K
Bos s
Haw ai
âĻ ¯
Din osau
Robin son
cep tion
Michel le
Feli x
Sel f
again st
crip tion
CONC ACAF
CR400 AF
BAS IC
ave x
ear ly
Leg end
BAC net
Rab bit
Plat form
Theod ore
Bap ti
Choi ce
Ox ford
fron t
Gusta v
Nf 6
OE CD
ALX 500
Caro line
Abra ham
FIL M
Chey Tac
. 18
0 39
0 66
0 77
1 G
2 2000
7 400
9 100
9 500
A v
A AC
A DS
C 16
C ID
C ET
D it
E ffe
F m
F AM
F AC
F AI
F RS
G Y
G 20
G ree
G row
H IS
H IT
H SPA
I UP
I bra
J W
J Script
K U
K il
L ily
M J
M N
M AR
M IPS
N ou
N es
N as
O V
O UT
P TC
P DS
P las
R 7
R is
R hi
R ace
S 5
S ort
S DO
T RI
T rin
T BF
U DP
V MS
X 100
Y au
Z 99
a lu
a chie
b ound
b ring
d ad
e pi
e qui
f old
i Pod
j ang
o 3
p pi
r k
t am
u re
u ri
u mph
v ard
v ine
w he
w all
y lent
Ã ģ
Î Ĵ
× ¨
× ľ
Ù ģ
Ù ĥ
á ¿
ã Ĩ
ê ²
ì ľ
de ca
de lete
hu i
gu ar
ch r
ch ing
ch ard
li day
du r
20 .1
19 .8
10 23
10 36
10 33
mi k
mi nu
18 000
12 98
ni te
11 17
11 34
11 32
11 49
11 72
15 .7
15 .1
16 000
16 .2
16 GB
la ch
17 000
17 .7
17 .1
ar g
ar gu
14 37
13 34
in put
24 .7
st es
28 .6
th am
ou ght
22 .8
22 .7
me thod
ro d
si mi
si zer
.5 8%
ãĥ Ľ
cu lty
ta g
0. 80
el f
el lo
1. 16
1. 30
1. 47
1. 66
1. 76
1. 1%
2. 18
co py
the se
ter m
3. 14
TC HA
to day
Ma thema
32 .5
In no
In done
ST AGE
it en
The ory
Re si
Re turn
ba cter
ca pe
os pha
78 X
ha ck
ur s
NA D
NA L
Mi guel
der ma
ï½ ľ
Al le
CO MP
Vi c
Jo shua
per s
ga de
da k
Se ason
AC C
Be ar
Be ck
ore m
La i
Ra di
Di ctionary
Sa me
Sh aun
Sh adow
Ja ke
Ja zz
bu bble
IP B
Mu l
Mu le
int en
110 4
che z
no de
PS R
Bu ck
Bu mp
Ca sh
Con sole
MS I
EP R
Ju lie
MP 5
ris m
Th elma
pro f
my r
Ex po
Ph arma
Ta q
0.5 3
0.5 4
SO HO
Gu in
Gu il
cy cle
4. 25
oft en
ori al
Fe ars
5. 25
5. 45
MC B
cor d
Fran co
res sion
Mon key
Stu dy
NO AH
SP E
Bar bara
DO WN
BE J48
Or ganization
pha se
tra x
Ber ry
UR A
Super nova
ac cu
ac cess
Ac ti
GO T7
Che ck
don na
âħ £
NS F
im g
Air port
par enti
Sha ke
Spi r
229 E
Chu ng
Va lue
Chi ca
DM M
GA BA
PM 2.5
LT D
Cla u
Tur ner
Res ort
Res ources
KK TV
Fun ction
AE G
KI Z
uni t
Code Camp
Part ner
Ven us
UM TS
Lan tis
Regi ster
Die go
dea th
Jen nie
app li
Spo on
CAN open
KE Y
ìķ ¼
Adam s
Multi Cam
Wel come
Jer ry
ELE VEN
speci es
free CodeCamp
âģ µ
VIS UAL
orbit al
Marsh all
FIR ST
Wid get
B7 RLE
Ini tiative
stad t
Apo gee
Tit an
valu es
conne ct
Swi ft
refer ence
Presi dent
24.3 10
hibi tion
Sui ca
Patri cia
Hoy ts
Lid l
gori th
LUNA R
bac teri
techn ology
RECO RDS
Basili ca
Clostri dium
Ferdin and
Giuse ppe
Hawai i
parenti d
0 11
0 14
0 25
0 28
0 26
0 84
0 82
1 197
1 mple
5 D
6 200
A pex
B J
B EC
C p
C RE
C SL
D Y
D id
D SS
E o
E th
E AS
F ru
F SB
F ollow
G Q
G es
G ren
H G
H V
H in
I con
I ES
I gna
J E
J IN
K hu
K ru
L ap
M AT
N X
P ig
P ai
R W
R um
S IV
S CN
S HR
S car
T Z
T g
T ank
T YPE
U ART
U senet
W EC
W CT
W WF
X R
X 200
Y C
Y un
Z 17
b Äģi
b ass
c tic
d 2
e qu
e di
f 1
g la
h ood
i us
j er
k ed
m oney
m Ah
n h
r h
r ine
s ent
s ource
s 1mple
t alk
v 1
w Çİi
w oo
Ä ħ
Å Ļ
Ñ Ħ
Ñ ĳ
ë ¬
ì Ľ
zh ou
li co
du al
19 .2
bi c
bi lis
su c
ti ma
ti zen
qu o
di Ã¨
di splay
ju st
zi l
10 31
10 73
10 71
10 91
12 22
12 45
12 .4
11 13
11 48
11 61
11 71
er or
on line
ar ound
13 66
for med
mu ch
re z
re stri
22 .2
me x
ri dge
ï¼ ĵ
ra u
60 61
se g
100 5
ta to
0. 70
0. 88
0. 93
ma k
1. 26
1. 90
1. 33
1. 67
1. 84
1. 92
1. 93
2. 12
2. 23
2. 29
2. 39
2. 77
2. 9%
co e
48 .8
3. 6%
Ch au
Ch orus
In to
In nova
33 A
Co lt
vi ri
vi ta
br and
.7 1%
.9 4%
.9 7%
.6 6%
ig o
66 00
SA D
88 00
Li m
NA DP
Mi z
Me h
ap on
ap pro
Le u
CO 3
man a
Mo hammad
Jo Jo
89 4
ran o
600 V
Se i
sp ar
120 3
120 km
Be gin
ER M
Ra chel
Di ana
ID C
ID F
Su la
Sh am
Sh are
Lo ver
do cu
gi ven
ho c
ali zation
SS L
Pa le
Si erra
Ri de
so ci
130 2
Bu dd
Ba la
Ti tanic
sa w
à¸ Ľ
ler c
Do me
ya h
Pi ano
Pi etro
Car lo
Th in
UN O
Ph en
CH ILD
TO G
For mat
eri e
AG 600
0.5 8
Gu l
Ka bu
118 3
Pe w
MC .
Com bat
à¤ µ
Cor p
Bi shop
rea ming
DO I
Je ans
PP T
SC AR
SC AP
Pri de
lis m
ous tic
Fu ji
Star ship
ten ts
Wh en
As sistant
War ren
Spe ct
Blo g
Can al
bor ough
fo lia
Spi ke
Chu n
Ye ars
Tran sport
Ter ra
Ve vo
Ve hicle
Tor rent
play ed
Ros en
Jose f
Cla ire
oi des
Sky pe
war m
Fre sh
thi c
Camp us
PH A
USB 4
Phil os
AE W
Data base
Jan et
Bru no
Les lie
Pal m
cur rent
Tro y
Bou levard
model s
tre me
Nico las
Fro st
Mur ray
Mur phy
ENT ER
Cru z
wiki text
Anto ine
sist ance
nico nico
HER E
Def ense
indu stri
á¸ ¥
Ea gle
vir tual
Ita lia
Dead line
TRA IN
thor ity
syn tax
Shar p
Echo Link
CYP 3A4
xc 3
crea te
presen tation
fal se
muse um
Pow ell
ëĤ ĺ
Avi ation
cepha lus
Quali fying
Obser vatory
à¯ į
Prote ction
Asse mbly
WRK Y
ack nowledge
Affair s
Sulli van
Ticket master
Chica go
0 22
0 36
0 37
0 34
0 49
0 42
0 98
0 85
0 97
2 P
4 .8%
4 .4%
7 A
9 M
A 24
A ru
A to
A way
B low
D Q
D KP
E t
E 6%
E GO
F as
F ET
F UN
F TA
F RI
F lex
G ad
G AS
G TO
H es
H AR
H orn
I denti
J as
J VC
K H
K ID
K ine
K ari
K HL
L TS
L 129
M ing
M ora
M HC
M 686
N ut
N orton
P J
P hu
P ru
P and
P han
P AG
Q 4
Q TE
R ISC
S d
S 10
S amp
S nap
T 6
T hu
T ell
T ION
U ser
V 3
V K
W ant
Z in
Z oo
Z IS
Z oom
a o
a ver
a way
b ÄĽng
c ru
c ere
e 5
e cono
f ro
h ir
h ot
k or
k al
n als
o st
p un
r 2
s n
s per
u lation
v ul
w u
z Çİng
¹ ¬
Â ¬
Ä ĳ
× Ł
à ª
ë Į
ì £
í ĥ
ng u
sh ir
sh ould
ãĢ ħ
hu a
gu es
li en
20 38
20 .4
19 S
qu ad
chu ng
di on
ju Äĵ
zi a
ku l
en ing
shÇĶ n
10 A
10 28
10 89
men s
mi le
mi se
mi no
mi nus
18 .1
12 23
12 31
ni al
11 76
11 74
or es
an alysis
la l
la tor
13 21
ge on
24 .9
al la
21 .2
21 .1
th s
re lation
me e
27 .8
ri k
ri de
ri on
te a
si tion
si us
si um
ce ae
se ason
0. 43
0. 74
0. 97
el ler
ma li
ma la
ma ss
ma tor
1. 95
2. 26
2. 27
2. 60
2. 34
2. 43
2. 87
2. 1%
2. 6%
2. 8%
at ro
ow i
co st
the a
IN LW
3. 15
3. 75
3. 04
to o
ST AF
64 DD
Co lin
Re x
Re y
ad vance
ci onal
.0 8%
.0 7%
.7 9%
oo ting
ay an
St ories
ha vi
Li ver
ur al
Mi che
Mi ka
Mar ce
Al fa
BC G
Le arning
AM L
AR TS
Te en
Te xt
ga mes
ran a
da h
Ga z
Ar row
AP ER
âĶ ģ
Lo bo
do main
bu ty
AN GE
We verse
wi cz
110 5
Pa in
Pa blo
1.5 3
che ck
Si mple
ff in
Ri vella
130 1
130 3
SM E
SM P
Sp ar
PC A
En sign
Ge off
sa me
à¸ ¸
à¸ ĩ
Ni e
Ju ng
2.5 4
âĨ ĳ
MP 7
US D
AK S
Sch mid
No tes
UN IQ
Au di
2.0 5
AV O
0.5 9
MI ME
SO D
LE I
cy c
Ru na
Ru bber
pu k
CR 200
ree ment
Ad ap
5. 75
del le
Open street
NO T
109 .
RT X
EX R
San to
HE LL
Har per
ja va
ring ton
LO W
Gi ba
Tri bu
Tri nity
Tri umph
PP I
Vo ya
PO VM
ex p
Show time
cle f
Ab el
tis m
AB CD
Ani plex
Hol y
PL G
1.0 %
Boo ks
fo glio
zo g
Va le
Hel ler
ator s
Black bear
GA Z
3.0 %
ð« Ľ
bel la
GM RES
stitu tion
Rock y
spe ct
Mil lion
Eli sa
Cha se
BU M
ele ment
KI LL
MT U
chel ys
ag gregate
kar u
Des tin
clo sed
Out look
Gro ss
SHO OT
add ress
Way ne
Joy ce
Poli cy
Leon ardo
DL U
Tre at
Beat les
wiki pedia
size of
With out
Crea te
cul tural
Sti ll
Fron tier
Sca le
After noon
ITV 4
Sho ck
Siri us
pl c
Bit Torrent
Tam an
high light
hal f
Hero es
Ita lian
Stri ke
constru ctor
count ry
cam atan
Deuts ch
Match day
NAT O
Ted dy
ð° ¹¬
Arm strong
Fea ture
proper ties
quar ter
spor tation
Gabri el
Muni cipal
sr c
Synthe sizer
Lec lerc
hyn chus
Integra ted
SEVEN TEEN
Lic ense
Deri ved
DONG KIZ
Isra el
Vladi mir
numeri c
Mull vad
cedu re
Lami go
Confe dera
Ibra him
SHR DLU
syntax highlight
Openstreet map
. 2020
0 19
0 44
0 59
0 92
2 M
5 .7%
7 .8%
7 .4%
8 A
9 .5%
9 .6%
A lu
A zi
A id
A ka
A ctor
A mar
A cid
C MP
C lan
C amer
D W
E CO
F ir
G 5
G J
G Pa
G las
G rea
G CM
G DB
H AP
H olo
H APP
I ETF
J ak
K R
K yle
L J
M ig
M CO
M IP
N W
N au
O B
O ak
O FF
P SA
P ana
P H2
P FA
Q 2
R H
R 16
R NG
R AF
S 9
S wa
S kin
T K
T il
T rea
T idal
U TA
U FS
W 3
W ool
X in
a cu
b ore
c 1
c d
d 1
e th
e How
f 2
f el
f are
f ps
f esti
g 2
g am
g ara
g art
h m
h all
i or
j ara
k ind
k ill
m Äĵn
n Ã²u
o ch
p x
p our
q a
s ou
t ti
t ter
w d
x ton
y am
y et
É £
× ĳ
ë ¡
ë ¯
ì ²
hu b
gu l
ch or
du ce
20 33
le c
19 .9
su p
di r
tu la
ku r
10 48
10 58
10 77
10 98
10 84
mi llion
12 33
ni fer
11 12
11 46
11 64
11 67
11 56
or din
er ry
la in
la tt
17 .6
17 .3
ar u
14 000
14 36
14 .2
14 .3
14 73
13 22
13 39
13 .0
13 79
13 53
in ha
ge bra
for k
mu l
st ant
st om
28 .5
th in
me ss
ri ca
ra k
100 m
ta ke
ta lis
0. 90
0. 64
0. 77
0. 86
0. 83
ma ti
ma ge
ma cro
ma nia
1. 20
1. 21
1. 28
1. 50
1. 32
1. 78
1. 61
1. 01
1. 8%
et o
2. 31
2. 45
2. 63
IN V
3. 33
3. 1%
nu cle
Ma li
Ma le
Ma ni
ST UD
SE GA
The se
vi vo
Re bel
.7 3%
ca ta
ca ster
42 V
au f
57 00
SA C
ly s
id s
ha b
Li u
Ro le
De O
ber ger
Mi G
Al lan
ty pen
ang u
98 60
ap ple
BA E
CO B
hi story
Mo to
Jo lin
Jo ker
1000 00
da i
Se ction
Se xy
AC A
Be ver
IC LEI
La te
La dies
Ra fa
Su ng
Sa ga
Sh en
ON T
gi um
gi ving
mer ce
We ber
sta ck
wi sh
SS RI
our s
pp y
Ba g
Ba ba
Fi gu
shi ft
Na than
IV PP
EN S
To dd
AL BUM
Ha ven
BL G
Ju ly
Ju les
2.5 9
Do ck
RO Cm
AK A
My ki
RE APER
gn at
âĪ ĩ
oun ced
Lu cy
ll on
Fa v
Au d
CH A
Qu al
len sis
2.0 9
Ta wan
eri c
SO I
AD P
4. 38
Go ver
Fe i
Sy d
6. 11
GB U
own Cloud
5. 27
net work
BM C
Hi karu
Pe tit
3.5 3
Ke i
ning s
Com bi
Mon u
à¤ ª
à¤ ¸
Cor ps
SP EC
Bar th
Bar nes
Bri ng
San thal
with in
with out
EE G
Tri logy
Is la
mb ol
bli o
include d
Pri son
127 47
CL R
Ber t
Ber lin
ser ver
Fu l
Fu sion
ano v
ex peri
Wal lace
tri x
Pet ers
Mat ters
Che mistry
bit al
AB B
PV C
FM EDA
UC IL
comp lete
High way
Spi der
her ty
At las
KBS 2
Jack ie
Win Zip
EM BA
Py Qt
Time Signature
VO D
Por ter
Fer r
SU GO
Pra i
Tour nament
fra g
WS BL
Ama zing
zz le
Bel la
Vir tua
How ever
Camp bell
Camp aign
KK day
MU K
áĢ º
sur face
Phil lip
Lon Works
Cri me
Mana ger
Bir th
Ob jective
à¹ Į
Pas sion
32. 4%
Os car
Cur tis
Block berry
oc cur
Real ly
Gran de
Sm all
Regi ment
Die Pie
Ath le
Tan foglio
áĥ Ĳ
Sor ry
WO WOW
Ah med
CAS P
stu dio
KE LT
Wiki pedia
Ima gin
Market Ax
Rou te
Wire less
Hea th
Round s
print f
Kit ty
âĤ Ĥ
Mes senger
Buil der
Standard s
Flor ence
Cook ie
dire ct
Maker Ville
Saf ety
speci fic
Hand s
Stru cture
IMD B
052 D
Morning star
Industri al
Wri ter
Adven tures
ð° ¾
differ ent
CR400 BF
Metropo litan
cour t
Alber to
âŁ ¨
âŁ ©
ê¸ °
Bli nd
ash tanga
ëĭ ¤
Mine craft
Kry o
Scot land
PART Y
ð«ļ ª
Kick starter
Biz Talk
JUST HIS
Figh ter
Toyo ta
Gior gio
Kura ki
Sult an
Admi ral
buil ding
Yau tja
Pew DiePie
ëĮ Ģ
Runa way
numeric TimeSignature
typen ame
Virtua Real
MarketAx ess
0 27
0 31
1 196
1 193
1 187
1 UP
2 G
2 H
7 200
8 300
8 .9%
9 200
A 10
A te
A ber
A QU
B les
B MI
B har
B c4
C 20
C 79
C SM
D ana
D ARK
E qu
E re
E AC
E MC
F ing
F EC
F TP
G .7
G AR
G AME
J ing
K 12
K yi
K orn
L Y
M 20
M 14
M Pa
M EN
N TV
N ano
N VS
O BS
O LE
O VER
P z
P ON
P 450
Q 1
R he
R AIL
S la
S DP
S ight
S ons
S ession
T AP
T win
U BA
W IN
W MI
W CF
W ADA
X II
X HTML
Y am
Y ing
Z 1
Z 48
Z K6
a 8
a v
a ther
c it
c out
d 5
d h
d ru
e 4
e X
e z
f MRI
g lu
h Pa
h old
i u
k aya
m Äģn
n c
n dez
p c
p ai
r n
s ke
t hu
t mp
w l
w ara
y y
y asa
z or
Ä Ĳ
Ä Ļ
Æ °
É ĳ
Ê °
Î ®
Î ĳ
× ª
Ø µ
Ù ī
ì ĥ
ì Ī
ð ©
ng en
de e
de st
de re
sh ort
ch ampi
20 48
bi es
ti vo
chu rch
di ni
di lla
di sease
10 13
10 39
10 68
10 53
10 83
mi er
00 %
12 V
12 88
ni ne
11 36
11 69
an to
la bor
14 .0
13 16
13 26
13 31
ge ts
25 .8
for ms
24 K
21 .8
st own
me da
ru le
ri m
te ng
ra le
se p
ta t
ta an
0. 69
0. 89
0. 6%
1. 40
1. 70
1. 46
1. 49
1. 69
1. 43
1. 99
1. 72
1. 74
1. 97
1. 91
of fer
2. 47
2. 69
2. 66
2. 72
2. 82
2. 2%
2. 4%
3. 10
3. 35
3. 45
3. 65
bo ve
Ch al
Ch ess
Ma donna
In finity
ST E
33 .5
lo on
lo op
lo ss
be ck
SE S
Re gina
ca pa
43 .5
op us
mp er
St y
St orage
un til
ha bi
Ro gers
De vel
ss en
tou ch
CD RI
Me g
Me li
tw a
OS CAR
ang o
Le v
BA R
CO LO
mo v
mo ng
mo du
mo di
AM PV
man age
BS AT
Mo ha
con du
con tain
con tent
Te ng
Te ars
Ne XT
Ne xon
Se bas
Ar ound
ot ri
Da w
ok i
Su mo
ent on
MA O
Tu l
Sh ort
rou te
mer a
So C
ho ng
We e
HD MI
SS H
Pa c
1.5 9
che i
mm ol
Ri cky
so de
so lute
Bu gs
Ca f
Ca mi
Ca ke
DV B
En cyclo
Ba b
Ti mothy
gra ci
AS IA
end l
ill on
Na ta
IV A
à¸ ļ
Ni pp
cro wn
Ste fa
AI BA
Ho mo
Do c
US GS
Car r
Th ings
My stery
Net works
gn es
Lu c
CN S
CN ET
Ph ra
we ight
we ek
4. 13
Ru d
ori e
IA ST
TE A
DR M
Ko h
sy lla
sy mbol
Pu b
tin ental
Mon ta
ner f
Cor ner
fli ghts
Comp lete
RT M
SP O
DO M
GP 2
BE A
PP A
Gre ene
Or che
min ton
CL UB
Mor ph
gue z
GO OD
GN Z48
CS X
pre di
ona le
War s
AB P
PL AY
SQ U
King s
ena ble
Chris tine
Up per
gar h
Fri tz
Ci vil
EF 52
ann ounced
Ve ctor
Min or
Lau rent
publi shed
Inc lude
Tele com
sha w
Gal lery
lea gue
6.0 9
phy sic
BU G
PD W
dd le
âī ¡
á¹ ĥ
Stra te
COM IC
âĳ ¢
Cho Co
VV V
mor ph
Imp erial
PT FE
Beat s
Ami r
Fro g
fla g
FIN A
Alt er
Kir ara
SON Y
pos sible
Arti st
1080 p
Bau er
Ea stern
Jes sica
Chap ter
Nam co
wri te
CIT Y
CIT ES
Bug Bug
xc b
CRH5 A
Album s
MED LINE
Chee ms
Brook s
CONC ERT
GIR LS
aes pa
edu cation
ìŀ Ĳ
varia ble
kir che
Schi ff
CR300 AF
E9 E9
plot lib
Proper ty
recei ved
Spiri ts
Belie ve
Leader ship
Libre boot
Shir ley
inclu ding
Elli ott
SUMM ER
geome try
COUNT DOWN
Ulti mate
ìĬ ¤
Whats App
ENG INE
Guin ness
MCB MSP
bacteri um
Phen om
ì£ ¼
Schmid t
ð«Ľ ļ
HAPP Y
mess age
Kyi v
NVS RAM
Devel oper
0 75
0 57
0 51
0 74
1 da
2 250
2 GB
4 S
4 .3%
5 .5%
6 300
8 600
8 .4%
A in
A lo
A da
A very
A dult
B ound
C TC
C RO
C row
D ro
D il
D 32
D AC
D IC
E un
E 130
E PS
F BC
F ont
F VP
G li
G ir
G ing
G ly
G ent
H AL
H MC
H ALL
I WI
J ou
J AS
K ro
K wan
K rish
K fz
L CS
M 50
M AM
M RS
M ama
M ass
N Z
N ap
N DS
N ina
N SC
N ero
O 5
O la
O UR
P 3
P 6
P Z
P f
P ing
P TS
P lease
P TCH
S as
S ap
S PS
S can
T J
T ry
T ON
T ari
T sing
T ASC
T etra
U Z
U SM
V on
V AD
W ig
X SD
Y er
Z ach
Z ARD
a ward
a cc
b ly
c las
f ine
g ow
g ore
g gle
h in
h ra
h art
h eld
i Heart
i dea
k J
k l
k la
k il
k os
k ina
n ÄĽi
n ana
o don
p ace
p ler
p ton
r ina
v n
v us
x s
x d4
y Åį
z ai
Ã ĩ
Ã ľ
Î ł
Ð ¤
Ð Ĺ
Ñ Ĭ
Ñ į
× Ķ
à ¶
ë ĵ
ì Ļ
í Ļ
de g
de le
gu r
ch ts
li ttle
du e
20 46
19 .3
bi nd
su i
ti te
ti ali
ti sta
ti lla
tu ring
en v
en to
10 W
10 45
men sion
mi mi
mi an
mi ra
mi es
mi ll
18 F
18 .4
12 89
12 96
12 81
11 .0
11 51
or al
or gani
la x
la tions
13 54
in ed
ge dit
24 .8
mu ni
al bum
st ay
23 .3
re li
re ich
re lease
re move
22 22
50 .8
ri se
29 .8
ra in
ra il
40 .5
ãĥ ¦
am y
am or
se ctor
100 .
ta ta
0. 31
0. 96
ma u
ma trix
1. 39
1. 64
1. 41
1. 79
1. 81
1. 7%
2. 20
2. 13
2. 40
2. 44
2. 67
2. 93
2. 3%
co pe
co ding
IN ET
IN AH
3. 41
3. 61
3. 63
3. 05
bo lt
ve hicle
as se
to on
In side
In stal
64 BM
lo go
be lie
be cca
The ater
Co on
Co co
Re lease
na ti
oo th
ca li
ca ted
.6 2%
pe u
au s
ed a
Mi les
Me a
Mar vel
der son
BC I
ang a
Le vi
53 K
Vi ktor
hi o
hi de
Mo vi
Mo ther
Mo vement
va li
con ds
Jo an
Se cure
Se asons
Sta t
Be ing
IC EF
son s
Ra pid
Ra hman
Sa ve
So m
So lutions
ho m
Mu ch
tÃ¹ n
IT ER
Pa olo
by te
mm ar
so ap
Ca therine
SM N
Con tinu
com b
Fi lip
Ti bet
gra phi
Na val
sa id
ka was
ka wai
à¸ ķ
Ni gel
BL O
BL ITZ
Ju lian
2.5 2
2.5 8
MP A
AI K
ant hus
Th ing
My Video
Ki ha
Ki Ro
Sch a
Sch wei
No de
CP AP
UN ICEF
my ces
Fa culty
Au dition
New Jeans
Ex hibition
2.0 4
2.0 7
AV N
CC C
0.5 7
LE E
LE O
BO YS
IG M
4. 15
Sy l
Ka la
6. 25
IA NA
je ction
Ad vis
Hu dson
ze u
BM NH
Pe te
tel la
mon o
Open NIC
Ko ch
Com merce
Mon a
à¤ ¯
LL M
Bri stol
LO V
Gi ant
NH 3
PP Po
Or ga
Tra cker
min ary
CL C
Vo LTE
SH ISH
sti ll
ero y
Wa di
ten s
ãĦ ¨
tri e
HC l
Mat ter
Mat erial
VA X
DD K
KP L
xy gen
All Music
War ner
AB BA
dis c
Web b
par k
par ty
fo x
ming ton
Bro ther
SK T
SK Y
FO MA
UT 1
Recor d
Cent ro
Alex a
Alex and
Shi ning
Shi ft
play er
LT M
NE O
you ng
fra structure
Richard son
fri ed
Mas sa
Fre ak
var man
ìĿ ¸
mg %
kin son
ðĲ İ
Ear ly
CV T
à¥ Ģ
HTML 5
Que endo
Wat son
Cho co
Edward s
tas tic
Sig nal
Trans form
blo g
Cam bridge
DL SS
DMS O
Elect ro
Pho eni
pat en
Oli via
sor tium
Dark ness
Kin Ki
stre l
WOR D
Hon or
Hon oura
Bad minton
PB PK
0x 5
Hal f
media te
EG FR
Mos aic
Ret ro
Rol l
cula ria
Gam bas
Econo mics
shan ensis
Abdu llah
Nan cy
Wolf gang
Ster n
wind ow
MIC H
Rand om
Sid ney
gener al
Gon za
Kap pa
Experi ence
Kiii Kiii
FRE E
Fern ando
Quake 3
LMP 1
squ are
Leop old
Labor atory
Feed ly
Ast rono
B8 L
à§ į
Ark ane
Speci es
Jor ge
Danger ous
Veri zon
Thom son
requi red
Conser vation
Bry an
Gard ner
Pitch fork
ð¨ ¥
Cano nical
Boe ing
IUP AC
Kabu paten
advance d
Destin y
Camer on
STUD IO
SUGO CA
graci lis
kawai i
SHISH AMO
Queendo m
Honoura ble
. 14
. 32
0 64
0 63
0 89
0 72
1 s
2 187
3 B
3 E
4 th
6 .5%
6 .9%
6 LX
7 .1%
A ya
B ond
C 11
C IS
C TO
C res
D LE
D IG
D 3D
E co
E AN
E dit
E SET
F el
F IS
F SS
G X
G le
G one
G ott
H 7
H TV
H ak
H our
H ari
H old
H off
I 2
I MP
I vy
J ig
K Y
K AT
K aki
K iller
L n
L IT
L TR
L ys
L INK
M 18
M int
M NH
N in
N ine
N BL
O X
O z
O il
O IC
P IN
P ir
P ry
P UA
P USH
Q 6
Q AM
R ST
R AR
S J
S it
S MA
S IP
S BD
T c
T GM
V ig
V AN
W he
W ed
W BC
X V
Z 4
a ted
a cade
b ene
c ss
c era
d ding
e Bay
e Mule
f 3
f ood
g Ã©n
g old
h len
i denti
k au
k ker
k now
l ou
m pi
m als
n ders
p lu
r 4
s q
s tin
t RNA
w x
w inter
x 64
y as
Å ĵ
Ê Ĥ
Ì į
Ñ İ
à ·
à º
â ¾
ë ©
ë Ĭ
de ter
de us
de mon
sh am
sh ot
sh ine
hu m
li g
li i
li ÄĽ
li te
li nd
li bre
su me
qu ency
lu me
10 29
10 38
10 64
10 41
10 52
10 74
10 92
18 .2
ni us
11 Z
11 65
11 44
11 .4%
11 .7%
16 .9
la g
la ted
la zy
ar in
ar na
zu m
13 18
13 11
mu ra
21 .7
st op
23 .7
23 .2
re si
re cur
re cogni
22 .9
22 .1
ri g
ï¼ £
ï¼ ¯
ï¼ ĸ
29 .5
te i
ro ng
si d
si w
si bility
ra w
ra di
am bi
se seo
100 km
ãģ ¼
1. 10
1. 34
1. 98
1. 89
1. 85
1. 86
1. 96
et c
et z
2. 10
2. 70
2. 48
2. 42
2. 61
2. 73
ow e
co ming
and ler
ck o
37 50
3. 11
3. 99
3. 76
3. 3%
as ana
to ken
Ch el
Ch ance
Ma sh
Ma di
Ma da
Ma chi
Ma cross
In t
ST O
64 GB
lo se
vi i
Re ve
Re becca
br y
ci on
ci ple
ci dent
.0 9%
ba g
pe ct
pe ak
59 A
ha in
Ro me
Ro gue
De c
De si
De pu
77 00
Me xi
Mar ti
Le cture
BA D
BA ND
CO R
mo bile
Vi ce
AM N
AR IN
va le
per sky
ga ta
ga ard
da cty
Se y
Se at
sp ot
Ar g
Ar s
Ar gen
fi ve
La z
La bel
Ra g
Di ver
Su pre
Su made
Sa v
do g
gi cal
po se
So ck
So lid
So bol
ki a
che e
ster i
Ri sing
ph in
He at
no te
Ca ta
Ca sio
Ca pit
SM S
Con figuration
PC B
Ba c
ET A
sa tellite
To ys
EC S
Ha sh
MS N
Ste el
MP LS
Do herty
ya va
Pi ck
Car s
Th reads
RE FL
No vel
ari um
Fa me
Fa bri
Ex ping
CH 4
TA IN
2.0 %
Ta les
ko va
0.5 6
BO Y
AD D
AD L
Fe 2
Ka z
6. 28
Hu go
ES B
118 6
pt or
gh er
Open Critic
3.5 %
3.5 4
Ko ha
ATP 500
ATP 250
Com peti
à¤ Ĺ
vel and
line ar
Bri tain
Har mo
CE SS
NH 4
NH MUK
PP D
SC SI
Gra f
Gra m
Or l
Or ni
Tra m
Ori en
Davi chi
128 GB
stra te
Wa les
PO W
Don ut
Wal king
tri ple
any on
5.5 5
Che er
pri mary
ens chaft
RC 5
Air lines
IR AL
Hy de
MG H
Ben z
MB T
Blo om
TP U
Sha w
bor g
comp anies
Va ni
Pat tab
Produ ct
Ce vio
Fri day
iss an
Tech nical
Ci der
space craft
Ter esa
Gar cia
Win Win
Sam an
if config
Por tu
pla ced
SF 2
B2 B
BR B
sign s
sign al
PA SS
Good bye
CT U
sha pe
Gal li
GT K
PR ISM
fra c
Tur n
cil lus
VR DK
Res pon
kh of
MU D
áĢ ¯
Sco pe
uni on
á¹ ĩ
jo y
Wat cha
Bor is
JT B
hr er
SHO CK
âĭ ħ
Over ture
nor mal
Dol lar
cast le
Ara b
CB T
char ge
IB NS
tech ni
Lam b
stu dy
Hun t
Town ship
Post Script
Rou ter
lau me
Base ball
Fo ster
Sin ce
Ap ol
Dyna mic
tera ture
Alli son
Jer sey
Bet ter
Than k
even tual
Seven teen
template styles
ext en
Rol and
Shu ttle
bour ne
produ ction
Communi cation
defea ting
sci enti
Hein z
eng ine
ìĦ ±
beca me
âĬ Ĩ
Edi tor
Ay yava
XY Z
Electronic s
Sele ction
Lyn n
Cher ry
Regu lar
fl ora
Maj lis
girl s
sequ ence
comm on
Inf ant
Form osa
Kas persky
Pear son
Ore o
ITZ Y
xml ns
Certi fied
êµ Ń
ffici ent
compon ent
Pel key
effe ct
Pul se
Lili th
Reser ve
Trou ble
fas cia
Nove mber
Administra tion
japoni ca
YON EX
Colum bia
Enri que
formos ana
Zim mer
Dere k
ï» ¿
Amen d
CR200 J
Elisa beth
SHOOT ER
Jak ob
gnat hus
Syd ney
SPEC IAL
Orche stra
Coon ley
Pattab hi
. 17
. 2016
. 2012
. 33
. 42
0 68
0 71
1 C
3 3.6
4 100
4 .2%
5 .2%
7 300
7 .6%
7 0.3
8 400
8 .7%
9 .8%
A ch
A SM
A tt
A muse
B ere
B PM
B run
B rough
C d
C 17
C 24
C SA
C un
C rist
C anyon
D 8
D at
D ow
D TC
D AN
D BE
D oro
E H
E sta
E ight
E WS
F NA
F AR
G an
G 41
G ara
G lor
H f
H r
H of
H IP
H SS
H ass
H ook
I LL
I dea
I terator
J ED
K t
K ST
K AN
K 101
K ane
K laus
L 3
L AC
L ance
L igh
L ens
M Q
M t
M AP
M ER
M SM
M 1917
M TA
M ental
N gu
N un
N c3
O 6
R J
R 11
R el
R EC
R ous
R ene
S na
S ed
S ka
S WE
T Wh
T 3A
T LS
T UNES
U m
U tri
V 60
V IA
W itch
W ASP
X 3
Y Y
Z 3
Z F
a pi
b 8
b t
b be
b one
c ence
d ora
e 1
e gel
f au
f one
g ha
g wick
i p
i tu
i mi
i KON
k N
k w
k ap
k ok
k ine
m ba
n ter
o e
p seudo
s ound
t te
t xt
v 3
v na
v ot
w c
y x
y en
y ama
z d
z ers
Â ¹
Â º
Å ½
Ð ¦
Õ µ
de nd
de velopment
xi e
gu ng
ch ara
li ft
du k
20 36
19 .4
bi ll
su chus
ti va
ti ka
ti cus
ti enne
di ch
di ed
di ff
di no
lu nd
en ig
en ia
10 th
10 26
10 79
10 82
mi RNA
12 .0
12 69
11 59
11 63
pi na
pi lot
or ang
or row
er on
on to
on ka
16 .1
16 .4
la go
17 .2
ar ing
14 63
zu r
30 .9
13 42
in son
for ming
al li
al ter
21 .6
21 .4
st ler
st anti
23 .8
23 .6
th reads
re trie
26 .8
26 .3
ri cum
ï¼ ĺ
si p
si en
ra cy
se i
ta h
ta ct
ol l
ol an
el ong
ma ch
ma ta
ma cula
ãģ ľ
1. 31
1. 94
35 .5
et ero
2. 00
2. 22
2. 32
2. 64
2. 76
2. 95
2. 94
il lu
il ly
at tribu
at ops
ow el
the orem
ck le
ne e
3. 36
3. 88
3. 09
bo o
Ch ong
Ch ronic
Ch aracter
Ma e
In surance
lo a
be gan
.8 7%
The ir
Co py
vi dence
Re f
Re id
Re ality
ad s
ad ows
ci e
.0 4%
.7 4%
67 00
300 1
.6 1%
pe z
AT V
41 .5
56 .5
NA VER
De ck
ber i
Mi kha
Me et
Mar tha
OS D
OS PF
Al lo
ty pes
Le ary
53 E
mo i
mo le
mo on
Vi vi
Mo ment
Mo nica
Mo tif
da city
Se 2
IS N
fi lt
ED ITION
Be i
Be th
Be it
La f
Ra o
Ra dical
Sa i
Sa w
Sh el
Ja guar
do es
gi an
gi ft
po mo
AN T
An nu
We in
Bo ston
wi re
1.5 6
Si sters
Si mmons
ff en
pp le
ph ra
ph ere
130 6
no tes
Bu kit
Ca th
SM ART
Con tra
Con tents
Con sortium
Ti an
Na z
Na tura
fe el
ther apy
To ols
à¸ «
Ha v
Ste lla
Wor ds
Do es
ya ni
My s
pro blem
Sch latt
No .1
gn er
UN IVER
FC S
Lu x
âĦ ¢
Fa st
Au thority
Au dacity
MO RE
MO VE
Ta ku
pa ge
MI M
SO V
SO UND
LE SS
cy to
4. 22
4. 36
Fe ar
6. 22
6. 27
6. 75
6. 32
ron d
TE U
Ad olf
Hu ng
118 2
Pe er
DA HL
Open CL
Open Solaris
HO Y
ATP 1000
Ke camatan
Ke pler
Du tch
Stu r
à¤ ķ
NO C
Cor n
EX E
ML S
mar gin
DO ME
Har u
ja h
Je ep
Ed gar
Willi s
tur ns
Mac Book
Gi an
mb ar
Gra de
Gra vity
que z
que st
Game Spy
Game Rankings
Ber khof
ano ther
Mc Ken
5.5 4
WTA 250
HC V
Mat rix
stri a
AF S
AF T
Wh is
car go
All Star
Hy dra
MG 34
Eng el
Hen derson
Blo o
TP MT
ast rome
Ele anor
cre te
oly n
Fri e
iss enschaft
RA ID
HI RO
bra tion
CA SE
256 GB
M2 A4
ð« Ħ
ð« ĵ
Ang ular
GM T
Tor re
Bur n
Bur ger
Bur ns
Sing les
Cap con
Offi cer
Ger ard
Pra da
PR IN
218 6
Ama z
Sal vad
XP COM
VM ware
tran sport
dra co
sub ject
Zi on
Pen n
Cri minal
Tom orrow
Fra ser
Phi lips
Bal lad
Jan us
Bir ds
GR AIL
CV S
bet ter
hur st
Bor land
Poly gon
Lan cer
Cur ry
Cur rie
hel p
hel lo
pres sion
Cli mate
Cir cuit
Poli tical
Clo se
fea turing
Den is
Jen kins
Nico le
pat ch
Set ting
mina te
Kin der
Cou p
Distri bution
Fo cus
Dun can
ðĲŃ ł
855 12
Clar ke
Med al
Mes sage
Mont ju
plan e
PCI e
Some where
RB W
Test B
origin al
bour g
Memori es
Bas in
Neu ro
Appli cations
Jes se
cap su
Liber ty
Liber ation
Eri k
Dal las
Lind a
RSA SS
Cos mic
Shar on
CAP COM
Kur t
Socket FD
Afri ca
âĬ Ĺ
Emp eror
fini tion
hydro xy
sw ap
mea sure
Number s
Isa ac
Tas k
Psy ch
gge d
ê¸ Ģ
Deli cious
Ass ault
Cele bri
ìĺ ¤
pap er
MOMO LAND
Histori cal
Fis cher
Gia como
ìĸ ´
Comman der
Gl ory
Dura tec
Environ ment
Physic s
asso cia
Warri ors
Loren zo
HOL BORN
SING LE
Moham med
MID I
coordina tes
Bapti ste
Spoon z
TOG AF
ENTER TAIN
ARTS VISION
buty ricum
Voya ge
ë¡ ľ
Figu re
Aud rey
Moha med
Gent le
PPPo E
Depu ty
REFL ECTION
Ayyava zhi
Utri cularia
DAHL IA
ENTERTAIN MENT
. 2021
. 2009
0 38
0 95
0 641
1 188
2 185
2 H2O
4 GB
4 .7%
5 .3%
5 .1%
6 .2%
7 R
7 .9%
8 .5%
9 .9%
A 27
A be
A SA
A BL
A sy
A WS
A DSL
B j
B ard
B MA
B TO
B ren
B TS
B ass
B hd
C ay
C ly
C TV
C ai
C EN
C ort
C ald
D BC
D roid
D NF
D rum
E W
E h
E la
E in
E ra
E 40
E vil
F ig
F ant
F ans
F PGA
G b
G rou
G MP
G bit
H 14
H mm
H end
H eri
H MG
H its
H ONG
I b
I u
I MS
I tem
J ess
J ero
J ECT
K 5
K 7
K 8
K ni
K 15
K nu
K AI
K BE
K 232
K 308
K ISS
L LE
L unch
M b
M 1911
M CP
M ene
M ISL
N II
N vi
N ai
O pi
O RO
O CP
P v
P 15
P is
P ok
P ME
P ren
P ABP
R L
R IF
R PM
S cri
S IX
S late
S ATA
S ket
S lot
T ill
T MS
U ti
V J
V au
V era
W 52
W AP
W endy
W ITH
Y R
Y ar
Y um
Y LE
Z r
Z eni
Z hang
b ling
c v
c lay
c ina
c ens
d ana
d ance
e va
e ight
e ye
f ru
f ony
g ine
g by
g ory
g gy
m bo
p Ã³u
r r
r hyth
s 2
s au
t one
u er
w ak
w hy
w ild
y ar
z c
z am
Ã ĺ
Ã ŀ
Å ©
Æ Ĵ
Ê »
Î Ł
Ð §
Ö Ģ
à ¾
â ķ
ì °
ð ¥
de ci
de velop
de uts
de velo
sh all
hu t
ch Çİ
ch at
ch ka
du a
qi Ãłng
20 .6
20 .2
su o
su it
ti z
ti sti
ti vity
qu er
qu ir
ku p
en ko
10 43
10 81
10 .3%
mi th
18 .6
12 .1%
12 .2%
11 53
11 .5%
11 .2%
pi ter
pi pe
or f
er r
la ni
la ta
la to
la va
ar te
ar ayo
30 .3
30 .4
13 19
13 15
in os
ge me
25 .2
for a
for mis
mu t
al one
st ral
23 50
mula tor
28 .8
