#version: 0.2
ä ¸
ä º
ç ļ
çļ Ħ
å ħ
å ı
æ ľ
ã Ģ
å ¹
ä »
å ¤
å ľ
å Ĳ
å Ī
å Ľ
å ®
å¹ ´
ä ½
æ Ĺ
ç Ķ
å į
æ ĸ
è ¿
å °
æ ĺ
ä ¹
ç »
ãĢ ģ
åľ ¨
ä¸ º
å Ĭ
æ Ī
ä ¼
ä¸ Ģ
å Ń
å Į
å ¸
è ¯
è ®
ä¸ Ń
å Ĩ
åĽ ½
äº º
æĺ ¯
å º
æ Ŀ
å ¼
å ·
äº İ
å ¾
é ĩ
ç ī
ç §
è ¡
ç º
å¤ §
æ ī
é Ģ
æľ ī
å ±
æ Ķ
å ĩ
å Ĵ
åĴ Į
2 0
æ Ń
é ĥ
è µ
è Ģ
æ ķ
å ½
å İ
æľ Ī
å ¯
æ °
é Ļ
æ ĭ
æĹ ¥
ç Ľ
è ĩ
æ ³
å ¥
æ ł
ç İ
1 9
é ĺ
ä» ¥
åĲ İ
æĹ ¶
â Ģ
å ĳ
äº Ĩ
åľ °
æ ²
ç «
æ µ
ä¼ ļ
åŃ ¦
è §
æ Ģ
è ¾
è ´
æĪ Ĳ
é Ĺ
è ½
é Ŀ
å Ł
ä¸ ª
ç Ĳ
ä¸ Ĭ
éĥ ¨
å ī
æĸ ¯
é ķ
ä¸ İ
è¡ Į
ä» ĸ
åĩ º
ä¸ į
æ ¯
åĮ º
æ ´
æ ŀ
æ Ĭ
æ İ
åħ ¬
ç ¬
åħ ¶
åı ĳ
æ ¸
ç ½
ä½ ľ
çĶ Ł
æ Ľ
å° Ķ
åĲ į
ä ¿
ä¸ »
åĪ Ĩ
è ¢
ç Ń
è ĥ
ä¹ ĭ
é ģ
æĸ ¹
ç¬ ¬
çĶ ¨
å® ¶
å §
ãĢ ĭ
ãĢ Ĭ
è ¥
å¹ ¶
ç ¾
è¥ ¿
æ³ ķ
åĪ °
å ¿
èĢ Į
Â ·
æ ¬
é ¢
åĨ Ľ
å »
åı Ĭ
è¢ «
ä ¾
æĶ ¿
ä½ į
ç ±
çĶ ±
æ Į
æľ ¬
ç ľ
æ ±
æ° ĳ
è ·
é Ľ
é ¦
ä¸ ĭ
å¸ Ĥ
å ĵ
å¯ ¹
åĲ Į
è ģ
è ĭ
åħ ĭ
åĬ ¨
æĿ ¥
çī ¹
éķ ¿
è¿ Ļ
å¤ ļ
ä» »
èĩ ª
å¼ Ģ
éĩ Į
åĳ ĺ
åį Ĺ
é ©
åŃ Ĳ
åı ¯
æĸ °
å¹ ³
è ī
å Ŀ
è İ
åĬ ł
å¾ ·
åĮ Ĺ
ãĢ Į
ãĢ į
æľ Ģ
æĸ ĩ
å £
åĪ ©
æ Ļ
ç¾ İ
é «
åī į
ä¸ ľ
ä» £
é« ĺ
äº ļ
éĿ ¢
æµ ·
æī Ģ
¦ ģ
å¾ Ĺ
èĩ ³
ç ¤
å» º
è Ī
éĹ ´
æŃ ¤
åĨ ħ
åĽ ł
äº ĭ
âĢ ľ
ä¸ ī
âĢ Ŀ
çİ °
è¿ Ľ
çĶ µ
) ,
ä¹ Ł
çī ©
è¿ ĩ
èµ Ľ
20 1
çŃ ī
åı °
åº ¦
è½ ¦
åħ ¥
è¯ ¥
ç» ı
å½ ĵ
éģ ĵ
ç ¥
è ¦ģ
ç« ĭ
æĪ ĺ
å° Ĩ
çĲ Ĩ
ç ©
è¡ ¨
ä½ ĵ
ç Ł
ç ķ
æĭ ī
é ¡
å ¦
è °
å ²
æľ º
æķ Ļ
æľ Ł
ä¸ ĸ
è Ĳ
é ļ
æ ı
å· ¥
åĪ ¶
ç ®
èĥ ½
äº Į
å¤ ĸ
åĲ Ī
æ į
è· ¯
å® ļ
åı £
çľ ģ
å¸ ĥ
æ¬ ¡
æ Ħ
é© ¬
è® ¾
åħ ±
æĢ §
éĺ Ł
åľ º
éĢ ļ
ä¸ ļ
å± ±
å° ı
20 0
çĲ ĥ
ä½ Ĩ
è Ĭ
ä½ ¿
é ĵ
è ¶
åį ģ
ä¸Ģ ä¸ª
èĢ ħ
å· ŀ
åĮ ĸ
åħ ¨
æ ĥ
ç ³
æķ °
ç§ į
é £
ç§ °
å¤ ©
è Ĥ
ç½ Ĺ
ç§ ĳ
ç ł
æ Ł
çº ¿
ç Ļ
å¼ ı
ç± ³
ç« Ļ
éĩ į
å® ī
é Ł
èģ Ķ
æ ģ
ç Ĥ
ä¸ ¤
é Ĥ
ç³ »
æ¯ Ķ
æ ¼
ç ¼
1 0
ç Ī
æ ¡
ç ¦
ç ¨
å ¢
æĢ »
éĢ ī
è¿ Ĳ
åĬ Ľ
åİ ¿
åħ °
å£ «
çĽ ¸
éĻ ¢
æ ¹
åŁ º
åħ ³
ä¸Ń åĽ½
éĥ ½
æ² »
åİ Ł
è¾ ¾
åŁ İ
ç» Ł
å ģ
æł ¼
èµ ·
ç» Ħ
æŃ £
æĺ İ
é »
çº ¦
åı ·
èĭ ±
æ° ´
å½ ±
å° ¼
æĪ ĸ
å± ŀ
åº ľ
å ¡
æİ ¥
åı ¸
è® ¡
éĩ ĳ
çĽ ®
é¦ ĸ
çİ ĭ
è® ®
æı Ĳ
åį İ
ç Ħ
ä» ¬
éĺ ¿
åĽ Ľ
ä» İ
åĪ Ĺ
åħ ĥ
ç ģ
æ¼ Ķ
å· ´
ç¾İ åĽ½
è ĳ
0 0
å¦ Ĥ
äº §
è¯ Ń
å Ģ
é ħ
åı Ĥ
åı ²
éĩ ı
å ŀ
æĶ ¹
å¸ ¸
å¥ ³
æ ®
æ ¶
éķ ĩ
åĲ ĳ
è £
è į
åĬ ¡
æŀ Ĺ
1 8
åĮ ħ
æ¸ ¯
å ¨
) .
æĽ ¾
æĹ ł
èİ ·
äºº åı£
çĦ ¶
äº ¤
å Ķ
å® ŀ
å¿ ĥ
é Ķ
åı Ĺ
é ľ
1 2
ä½į äºİ
ç» ´
æĦ ı
åİ Ĩ
ç» ĵ
èī ²
çķ Į
çº §
ä¹ Ĳ
æī ĭ
å§ ĭ
ä¿ Ŀ
å§ Ķ
åĪ Ļ
ä¹ ī
æ Ĵ
å¤ Ħ
åħ ļ
è§ Ĩ
ä¹ ¦
ç ´
åĽ ¢
0 å¹´
ç® ¡
å½ ¢
ç¨ ĭ
æ £
å¯ ¼
å ĭ
1 å¹´
è® ¤
æį ®
ç± »
æ² ³
å° ±
åį ¡
éĹ ¨
æ ·
æĮ ĩ
æľĪ 2
çĽ ´
20 2
5 å¹´
åį ķ
é Ĵ
ç ĥ
è¯ ´
éŁ ³
äº Ľ
å¹ ¿
åŀ ĭ
å· ²
åº Ķ
4 å¹´
æĺ Ł
éĽ Ĩ
ç¤ º
å¥ ¥
æµ ģ
é¢ Ĩ
ç¤ ¾
å ł
ä¼ ł
æ º
æĮ ģ
é ²
åĵ ģ
çĤ ¹
è º
æł ¡
æĽ ´
2 å¹´
å± ķ
å¤ «
3 å¹´
e r
ç ĭ
åĽ ŀ
è Į
ä¸ ¾
æĻ ®
1 1
æ¸ ¸
ä¸ ĩ
ç§ ¯
8 å¹´
èº «
6 å¹´
æ ¢
ç© º
åı į
é ª
èµ Ħ
æĶ¿ åºľ
æĥ ħ
å® ĺ
ç ¡
çº ª
äº Ķ
æ´ »
è¿ ĺ
é ¾
åĩ »
a n
æĶ ¯
é¦ Ļ
æł ĩ
æĬ ¥
æ »
o r
å¸ Ī
åĲ Ħ
æ¹ ¾
éĵ ģ
åĪ «
7 å¹´
è Ĵ
éĢ ł
å¤§ åŃ¦
çº ³
è Ļ
åı ĸ
ä½¿ çĶ¨
ç Ĭ
åı ¤
å² Ľ
ç ĸ
æĪĲ ä¸º
å¤ ª
æĹ¥ æľ¬
i n
åī §
å± Ģ
åħ¬ åı¸
åı ĺ
æĭ ¬
ç ı
æľ ¯
åŃ Ĺ
å ķ
å¥ ¹
ç Ŀ
æĹ ı
ä¸ ĵ
åĳ ½
åĮħ æĭ¬
åľ° åĮº
éĿ ŀ
å¸ ¦
èĳ Ĺ
åĽ½ å®¶
å¼ ł
è® º
è¿ ĳ
åį ³
å¼Ģ å§ĭ
çł Ķ
æľ Ŀ
æ± Ł
åĨ ³
ä¿ ¡
è§ £
æ´ ²
æĽ ²
èĬ Ĥ
ç Ĺ
ç¥ ŀ
é£ İ
o n
çī ĩ
å° ĳ
èģ Į
ä» ¶
ç ²
è¿Ľ è¡Į
ä¼ Ĭ
åĽ ¾
è Ħ
æľ ª
ç ĵ
è® °
åı ª
ç ¿
å¹³ æĸ¹
å® ĥ
æľĪ 1
æł ¹
æĿ ĥ
æ² ¡
çŁ ³
éĻ ħ
ç¬¬ ä¸Ģ
èĭ ı
æ¯ ı
ç¼ ĸ
è§ Ĵ
è½ ¬
åı¯ ä»¥
æĶ ¾
æ³ ¢
æ ¨
äº ¬
ä¾ ĭ
19 9
æĶ ¶
æĿ ¡
çļĦ ä¸Ģ
åĪ Ĵ
è° ĥ
é¾ Ļ
åħ¬ éĩĮ
é¦Ļ æ¸¯
åĳ ¨
åħ ī
åķ Ĩ
åĪ Ľ
æ¸ ħ
è¿ ŀ
åĪ Ŀ
9 å¹´
æ° Ķ
æŃ Į
ç¦ »
æĿ ĳ
å ĸ
æ ĳ
çī Ī
éĻ Ĩ
éĥ¨ åĪĨ
ç© ¶
å Ļ
å¾ Ģ
äºº æ°ĳ
å¤ ´
èİ· å¾Ĺ
è ±
åŃ £
çŁ ¥
ä¸ĸ çķĮ
åı Ī
éĿ¢ ç§¯
åħ Ī
çłĶ ç©¶
åİ »
å¯ Ĩ
æŀ Ħ
åŁ Ł
æ´ ¾
ä» ¤
æī ĵ
ç» Ń
æŀ ľ
åĬ ŀ
å¼ º
éļ ı
æŁ ¥
å¨ ģ
ä¸» è¦ģ
çĻ ½
åĨ į
åħ µ
äº ī
åº §
æŃ ¦
ä»ĸ ä»¬
ç¦ ı
å¤ į
è§ Ĥ
èĤ ²
è£ ħ
åİĨ åı²
å® Į
åħ Ń
l a
åĻ ¨
è®¤ ä¸º
å¼ ķ
é¡ ¹
æ® µ
æ ļ
é¢ ĺ
è¶ ³
åı° æ¹¾
åĵ Ī
æ²¡ æľī
ä¸ Ķ
æĿ İ
ç ĳ
å¡ Ķ
æľ į
éĻ ¤
å± ħ
å® £
æ¬ §
1 5
æĪ ı
ç½ ĳ
æĴ Ń
ç» Ī
è§ Ħ
æĭ ħ
åį ı
èĲ ¥
äº ¦
è® ¸
æİ ¨
è ı
çĵ ¦
åľ £
ä» ½
å§Ķ åĳĺ
å¥ ĸ
åľ Ł
æ¡ Ī
ç½ ®
å½ ķ
ä¿ ®
è´ ¨
è ¨
äº ²
èĲ ¨
è¨ Ģ
çĶ ·
å Ħ
a r
æº Ĳ
ç¬¬ äºĮ
åŃ ĺ
å¸ Ŀ
ä»£ è¡¨
éĹ ®
åĭ Ĵ
ä» Ĭ
è¯ Ħ
åĽ Ń
æ ¥
e n
åħ ·
ç» Ļ
æĬ ¤
ä¾ Ľ
éĽ ·
è¿Ĳ åĬ¨
é¦ Ĩ
æŃ »
æĬ ķ
åħ «
çĪ ±
æĶ¿ æ²»
çĶ± äºİ
æ³ķ åĽ½
éĢ Ł
åħ¶ ä»ĸ
åį ĥ
åĩ Ĩ
å® Ĺ
åį °
å¢ ŀ
è¾ ĥ
è¶ ħ
ä¼ ¯
å¢ ĥ
æ´ Ľ
å¸ Į
æ± Ĥ
åĬ Ł
è§ ģ
çĶµ å½±
çĶ »
çļĦ ä¸Ģä¸ª
æ± ī
1 6
èĩ ´
( ),
åĿ ĩ
åį ĩ
å¤ ĩ
åı ¦
è¯ º
åĬ ©
åį «
å·¥ ä½ľ
åį ļ
ç Į
çİ ĩ
èİ ±
éĺ ³
åĦ ¿
è¾ ¹
ä¼ Ĺ
å¥ ½
è Ĺ
é ¥
å ĥ
å® ¢
å® ¹
èĪ ª
ä¼ ¦
åĳ Ĭ
19 8
æĹ ©
æ¨ ¡
ç ª
ä¹ Į
åĲ ī
è¯ ķ
ä¿ Ħ
ä½ľ ä¸º
ä»¥ åıĬ
æİ Ĵ
åī ¯
èī º
æł ·
æµ İ
å¾ Ī
çģ «
çİ ¯
æķ ħ
å¡ ŀ
æĪ ĳ
æĶ »
åĽ½ éĻħ
é» Ħ
çĶ °
ç¾ ¤
å· ±
èĬ ±
åı¯ èĥ½
æ¯ į
ä¹ Ŀ
çĪ ¶
æĸ ½
åĵ į
çı Ń
è ħ
åĽ ´
ä¸Ń å¿ĥ
è¡¨ ç¤º
1 7
æĬ Ģ
æķ ´
é² ģ
æ² Ļ
ç» §
åĮ »
æĭħ ä»»
3 0
å¤ ±
å¸Ĥ éķĩ
çŃ ĳ
èĲ ½
çĹ ħ
ä¸Ń åįİ
åħ ´
è¯ ģ
ç» ĩ
) ãĢģ
ç³» ç»Ł
æ ¦
è´ £
ä¹ ¡
å¿ Ĺ
å¸ Ń
éĩ ĩ
éĺ ²
èĪ °
å® ¤
è Ń
å± Ĥ
æī ĺ
ä¸Ń çļĦ
éĿ Ĵ
çĽ Ł
ä¸ ĥ
æĦ Ł
èŃ ¦
éľ Ģ
çĻ »
åĨ ł
æĹ¶ éĹ´
çĭ ¬
èĭ± åĽ½
è´ Ł
åį Ĭ
é º
æ¹ ĸ
æ¸¸ æĪı
éĢļ è¿ĩ
å£ °
çĶµ è§Ĩ
å§ Ĩ
éĤ £
çĻ ¾
éħ į
ç ¢
èĩª å·±
åı Į
è½¦ ç«Ļ
éĻ Ī
æł¹ æį®
a l
åł Ĥ
é» ĳ
åıĳ çİ°
æĺ ĵ
çĥ Ń
çļ ĩ
åĨ Ļ
å½ĵ æĹ¶
è¡Į æĶ¿
( ,
ç¡ ®
çº ¢
çĬ ¶
é£ ŀ
åıĳ å±ķ
æĪĲ ç«ĭ
æģ ©
ä½ ķ
å¤ ı
æľŁ éĹ´
æ· ±
ä» į
èĢ ĥ
æŀ ģ
ä½ ı
åį ł
ç ħ
é ±
åħ± åĴĮ
æ£ ®
è¡ Ĺ
1 4
è¶ Ĭ
éĻ Ĳ
å¤ ®
å° Ħ
é ¸
é± ¼
çĶ ²
åĲĮ æĹ¶
æŃ ¥
a t
è®¾ è®¡
ç¤¾ ä¼ļ
âĢ Ķ
é£ Ł
è® ©
å»º çŃĳ
äºİ 19
åĥ ı
åŁ ĥ
è± ¡
ä¹ĭ ä¸Ģ
æĽ ¼
æĿ Ģ
å¯ Ł
è´ ¹
èĮ ĥ
å± Ĭ
æİ §
æī ¹
ç¥ ¨
ä» ħ
æ ½
è´ Ŀ
æĻ ¯
ç»Ħ ç»ĩ
æĸ Ļ
æ Ĥ
åŃ¦ éĻ¢
å¥ ĩ
e s
ä¸į åĲĮ
æ´ ĭ
å² ģ
åıĤ åĬł
æµ ĭ
çķ Ļ
èĢ ģ
ä¸Ń å¤®
å§Ķåĳĺ ä¼ļ
è¿ ª
åĨ ľ
æ¥ ¼
æĸĩ åĮĸ
ä½ İ
æŃ ¢
ä¸ĸ çºª
å· Ŀ
å½± åĵį
æ¯Ķ èµĽ
èĥ ľ
éĿ ©
è¯ į
åĵ ¥
ç§° ä¸º
å¾ ĭ
çī Į
é¡ ¿
æĥ ³
å±ŀ äºİ
æİ Ī
f or
æķ Ī
1 3
å ĺ
æ³ °
è¾ ĸ
ä¾ ¿
å¹³æĸ¹ åħ¬éĩĮ
æ ¤
æľ ¨
éĻ į
åĩ ł
ç§ »
è¿ °
çľ Ł
i c
æ ħ
åģ ľ
æī į
æ° ı
éĵ ¶
æ¡ ¥
( )
èĴ Ļ
æĪ ¿
å¿ µ
æĺ ¾
éŁ³ ä¹Ĳ
æī ¿
æĢ ģ
çĿ Ģ
è´ ¥
âĢĿ .
å ©
ç´ ¢
æ ¾
åħ±åĴĮ åĽ½
åº ķ
åº ·
åº ĵ
é¢ Ħ
ä¸» ä¹ī
é Ń
m u
åŃ¦ æł¡
å¾ ģ
ç´ ł
æ´» åĬ¨
çī Ļ
è¾ ĳ
çľ ĭ
å¼ ¹
åĶ ±
åħ ¸
ä½ľ åĵģ
æŃ£ å¼ı
æ¶ Ī
æıĲ ä¾Ľ
åĪ© äºļ
ç® Ģ
è®¡ åĪĴ
åĩº çİ°
ç½Ĺ æĸ¯
è½ ½
ä¹ ł
ä»ĸ çļĦ
æīĢ æľī
æģ ¯
ä» ·
å ³
ä¹ĭ éĹ´
éĻ Ħ
ç»ı æµİ
ç®¡ çĲĨ
åıĳ çĶŁ
æľĢ ç»Ī
éĵģ è·¯
çł ģ
ãĢį .
çĳ ŀ
æī §
æĹ¶ æľŁ
è¿ ľ
i s
åĿ ¦
æĪ ·
ä¸Ģ ç§į
å¹ ²
åı ĭ
åŁİ å¸Ĥ
åĨ µ
ç® Ĺ
ä¾ §
æķĻ èĤ²
ç¥ ĸ
éĢ Ģ
éŁ ©
å® Ī
æ» ¡
åĲİ æĿ¥
äº ĳ
æ³ ¨
èĪ ¹
mu la
å½ĵ åľ°
è¯ ·
è¯ Ŀ
æ¸ ©
éĤ ¦
for mula
åĢ Ļ
ä½ Ļ
ä½ Ľ
æ Ĳ
æĬ Ĭ
ç« ł
ä¸ ģ
ç² ¾
i t
æĬ Ĺ
å® ģ
çĽ ĳ
19 7
åĪ¶ ä½ľ
åł ¡
19 4
20 å¹´
æľ Ľ
a m
æĹ §
è´Ł è´£
å¾· åĽ½
å· ¦
æĪĲ åĳĺ
ä¸Ĭ çļĦ
æĭ ¿
éĹ® é¢ĺ
æľ Ĺ
éª Į
h e
åĬ ¿
è¿Ľ åħ¥
æĢ Ŀ
ä¸ ´
è®¸ å¤ļ
åĪ ĺ
å ´
çª ģ
é ¹
çł ´
å¿ «
å® «
æĹ ħ
ä¾ Ŀ
åİ ĭ
åº Ħ
ç¬¬ ä¸ī
åĲį ä¸º
èİ «
æľĢ åĲİ
ä¼ ¼
æĪĺ äºī
å¯ Į
ä¸Ģ äºĽ
æ¢ ħ
çĿ £
åĢ ¼
åģ ļ
åħ¨ åĽ½
æĶ¯ æĮģ
å° ģ
èĹ ı
æ° ¸
åĲ «
å» ¶
æĸ Ĺ
èĴ Ĥ
5 0
æĭ Ķ
çĶŁ æ´»
åĽł ä¸º
åİ ħ
ä¹ĭ åĲİ
åį ¢
äºº çļĦ
çħ §
äº ¡
æľį åĬ¡
å¼ Ĺ
éļ ¾
l e
åİ Ĥ
ç» Ĩ
æ¾ ³
åĪ ¤
æ ĵ
æł ¸
æŀ ¶
ä¸ ¹
å¤§ çļĦ
éģ Ĺ
ä¼ ¤
å°¼ äºļ
å®£ å¸ĥ
çļ ®
èĻ ½
å½ Ĵ
åį° åº¦
åı ³
ä¿Ħ ç½Ĺæĸ¯
å·² ç»ı
è¯ Ĩ
åº Ĩ
åıĤ ä¸İ
åľ° æĸ¹
ä¸¾ è¡Į
æĸ Ń
åħ³ ç³»
åıĳ è¡Į
éĹ »
19 6
ç Ĩ
è½ ®
é ½
åı ¶
ä¸ ½
æĿ °
åº Ĺ
æĸ¹ éĿ¢
ç¤ ¼
åĶ Ĳ
åĨ³ å®ļ
å·¥ ç¨ĭ
ï ¼
éĩį è¦ģ
è Ľ
è¶³ çĲĥ
r o
åĮĹ äº¬
åĪ ĩ
ä¸¤ ä¸ª
ä¼ ĺ
çŃ ĸ
ä¸ ¥
ä¸Ĭ æµ·
åº Ń
èµ °
ãĢį ,
å¿ ħ
è¯ »
æĭ ¥
ç» Ŀ
éģ Ń
0å¹´ ä»£
å° ļ
èģĶ åĲĪ
äºº çī©
å¼ Ĥ
r e
åĺ ī
éĥ ¡
äºĭ ä»¶
ç» ĥ
æį ¢
åĮĹ éĥ¨
åĨł åĨĽ
é© »
å½ ¹
èµ «
åŃ¦ å®¶
èĬĤ çĽ®
æ¤ į
å² ¸
éº ¦
éĩ İ
åŃ¦ çĶŁ
å¼ Ł
ä¼ļ è®®
19 5
æ² ¹
äººæ°ĳ åħ±åĴĮåĽ½
æĬĢ æľ¯
éĢ Ĳ
åĶ ®
èĥ Į
æ¯ ķ
æĿ ¾
åĪ° äºĨ
åĬł åħ¥
é ³
å¯ º
00 0
èī ¾
è ĵ
åį ´
ä¿Ŀ æĬ¤
e l
åĪĹ è½¦
ä¹ ħ
æĢ» ç»Ł
æ¬§ æ´²
ç½ ²
20 19
èı ²
éļ Ĩ
è®¾ æľī
æĻ ļ
é ¼
å¹³æĸ¹ åįĥ
èĪ ¬
s t
å ª
åĪĨ åĪ«
æĿ¥ èĩª
ç« ¯
20 20å¹´
çĽ® åīį
ç ¯
æĺ ¥
çŁ Ń
éĢ ģ
åħ ¹
åĪĨ å¸ĥ
åħĭ åħ°
éľĢ è¦ģ
ç³» åĪĹ
ä¹ ĺ
ä½ ³
å° ½
æĿ Ł
å® Ŀ
å®Į æĪĲ
ä¸Ńåįİ äººæ°ĳåħ±åĴĮåĽ½
éĢļ å¸¸
é¡ º
æ°ĳ åĽ½
ä» Ģ
åĲĮ å¹´
æ² ¿
æľ «
æĹ Ĺ
å»º ç«ĭ
åĲ ¯
èį ī
åįĹ éĥ¨
åº ı
åŃĺ åľ¨
éĺ ¶
éĺ µ
èį ¯
å¯¼ èĩ´
èĢ ¶
éĽ Ħ
éħ Ĵ
æļ ´
æĸ¯ çī¹
æ¯ Ľ
æĪĲ åĬŁ
i on
æ³ ½
åħ ¼
é¢ ĳ
äºİ 201
åħ± æľī
åĨ ²
è½ »
è¦ģ æ±Ĥ
æĳ Ħ
çĭ¬ ç«ĭ
è· Ŀ
çĦ¶ èĢĮ
2 5
ç»Ħ æĪĲ
ä¾ĭ å¦Ĥ
æĳ ©
è¿Ļ äºĽ
æľĢ é«ĺ
éĶ Ģ
æ¬ ¾
è¿Ļ ä¸ª
è¾ ĵ
åįķ ä½į
èĻ½ çĦ¶
æµ· æĭĶ
12 æľĪ
å¼Ģ åıĳ
æĭ¥ æľī
å¸ ķ
èĩª çĶ±
ãĢĭ (
ãĢĭ ãĢģ
çģ µ
åŃ Ļ
ä¸ĵ è¾ĳ
æĺ¯ åľ¨
çŃ ¾
åª Ĵ
çĽ¸ åħ³
ä¹Į åħĭåħ°
ç± į
å© ļ
çİ Ľ
æĥħ åĨµ
çĶ¨ äºİ
ç½ ª
19 3
é¡ »
èīº æľ¯
æĺ¯ ä¸Ģ
æĿ Ĥ
äºº åĳĺ
çº ½
é¥ °
æ£ Ģ
éĽ ħ
e t
é¡ ¶
çĲĥ éĺŁ
âĢĿ ,
éĢī ä¸¾
å¯Ĩ åº¦
æĿ ¨
èģĶ çĽŁ
éĩĩ çĶ¨
æŀ ª
i l
å Ĥ
æıĲ åĩº
2 4
ä» ĭ
äºĨ ä¸Ģ
åīį å¾Ģ
åĬ ³
ç§ Ģ
åħ į
o u
7 æľĪ
çķ ¥
åıĹ åĪ°
æ² ĥ
å· ®
æĭ į
éĢ ı
è¿ ½
å® ³
äº ¿
æ ¿
ãĢĭ ,
å· ¡
o l
æĸ¹ å¼ı
9 æľĪ
çĽ ĸ
åĩ ı
èĭ ¥
è§Ĵ èī²
è´ ¢
ä¸º äºĨ
10 æľĪ
éĴ Ł
è¢ Ń
8 æľĪ
è¿ ģ
éĩ Ĭ
åĽ½ æ°ĳ
äºĮ åįģ
æĿ ¿
èī ¯
a c
å° ¾
åĲ ´
å¤§ éĻĨ
è® Ń
è ŀ
åħ· æľī
èį £
æĿ ¯
åĲĪ ä½ľ
3 æľĪ
è° ·
çĪ Ĩ
éħ ¸
äº¤ éĢļ
æķ £
æı ´
æł ĳ
æŃĮ æĽ²
åĩº çīĪ
éĽĨ åĽ¢
èģĶ èµĽ
äº§ çĶŁ
ç £
æĺ ł
çļĦ å¤§
é¦ĸ æ¬¡
å® ĭ
ä¼ ģ
è¯ ĳ
è´ Ń
äº Ī
æķ° æį®
åĸ Ħ
± ä¹Ĳ
å¾ ®
é» İ
æ´ ¥
åħ¶ ä¸Ń
èĤ ¡
å° º
è¡ ¥
çī¹ åĪ«
æ¯ķ ä¸ļ
è® ¿
å± ĭ
ç»§ ç»Ń
å® ¡
è´ µ
äº Ĵ
è¡ Ģ
é«ĺ åº¦
é¡¹ çĽ®
ç»ĵ æĿŁ
6 æľĪ
æĻ ĭ
è½ ¨
çĶŁ äº§
çĥ Ī
åģ ĩ
åĽł æŃ¤
è® ¯
éŁ ¦
ã ĥ
ãĢĭãĢģ ãĢĬ
åħ »
éĻ ©
ç»ĵ æŀĦ
èĩ £
5 æľĪ
å¸Ŀ åĽ½
é¢ Ŀ
æı ı
æī ©
2 3
éĥ¨ éĺŁ
è¥¿ äºļ
ä¸ª äºº
è¯Ń è¨Ģ
æķ ĳ
äººåı£ å¯Ĩåº¦
æ¯ Ĵ
æİ§ åĪ¶
é² ľ
å¯¹ äºİ
åĸ ľ
ç§ĳ åŃ¦
æİ¥ åıĹ
å½¢ æĪĲ
ç« ŀ
1 æľĪ
åıĸ å¾Ĺ
ä»» ä½ķ
æĹ¶ ä»£
æµ· åĨĽ
è¡Į åĬ¨
ä¸» å¸Ń
åĮº åŁŁ
æĮ ¥
å³ °
éĿ¢ç§¯ ä¸º
æķħ äºĭ
å¤ º
æĿ ľ
æ°ĳ ä¸»
èĪ ŀ
æ¦ Ĥ
éĶ ¦
è¯ Ĺ
åĩº çĶŁ
æĹł æ³ķ
è® ²
4 æľĪ
éĢ Ĥ
11 æľĪ
éĢ Ķ
çļĦ æĺ¯
ä¹Ł æĺ¯
æĭ ľ
ä¸ °
æľº æŀĦ
çİ ©
çĶ ļ
å¢ŀ åĬł
åĮº çļĦ
éĢł æĪĲ
4 0
2019 å¹´
æľ ±
å¸ ģ
çĸ Ĺ
é½ Ĳ
æ¢ ģ
èį ·
è¾ Ĩ
éĻĦ è¿ĳ
ä¸» æķĻ
è¶ħ è¿ĩ
çļĦ äºº
ç§ ĺ
å» ·
é¢Ĩ å¯¼
æĮ ī
ä¼ł ç»Ł
ç»ĵ æŀľ
ç½Ĺ é©¬
å¾ Ħ
ä»¥ ä¸ĭ
ç ĩ
å® ¾
éļ ¶
202 1å¹´
ç ¦ģ
æĴ ¤
ä¸Ń åħ±
åĿ Ģ
æĿ Ĳ
åį Ī
in g
è´ §
åĩ ¯
åĬ¨ çī©
æ¸ Ĳ
çĬ ¯
èĥ ¡
202 2å¹´
a s
åĨĽ äºĭ
2 1
ç« ¥
æķ ¦
èĪª ç©º
åľ Ĩ
ä½ ©
çĽ Ĭ
çļĦ æĹ¶
ä» ª
å¤ Ł
æłĩ åĩĨ
o m
åıĳ å¸ĥ
5 æĹ¥
èģ ļ
è° ¢
10 0
æĸ° éĹ»
6 0
éª ¨
æ· ·
çĮ ®
çĽ Ľ
åĨħ çļĦ
è¿ Ķ
åıª æľī
ãĢĭ .
ä» ģ
éĥ İ
çī Ľ
çļ Ĩ
æķ° éĩı
æŁ Ĳ
è® ¨
å°± æĺ¯
ç¿ °
åĪ ĳ
ç© Ĩ
çĤ ¸
æį ķ
éĺ¿ å°Ķ
å¨ ľ
éĿ© åĳ½
èĮĥ åĽ´
äºİ 200
c h
å¤§ åĪ©
å¸ ®
åªĴ ä½ĵ
e d
éĻ¤ äºĨ
å® ½
å¾Ĺ åĪ°
æľº åľº
å¥³ æĢ§
èĮ ¨
å®ī åħ¨
è°ĥ æŁ¥
è¿ĩ ç¨ĭ
è§ ī
æİ ¢
ä¹ĭ åīį
æł¼ åħ°
ç»ı è¿ĩ
çĤ ®
æĻ º
åº Ļ
åĨħ å®¹
åħ¬ åĽŃ
çĪ¶ äº²
å¹ ķ
æĪ ª
åĲ ¦
éģ ĩ
å¤ ľ
: âĢľ
(, ),
éŁ© åĽ½
çĶ· åŃĲ
ä¹ Ķ
åįģ äºĮ
éľ į
èµ ŀ
åħ ħ
è Ķ
æĭ ©
2 2
è½ ¯
éĩį æĸ°
å¥³ åŃĲ
å¹³æĸ¹åįĥ ç±³
åĪ »
æīĢ ä»¥
éľ ²
èµĽ äºĭ
æĽ ¿
7 æĹ¥
ä¼ ĳ
å° ¤
ç§ ģ
åĪ º
ä½į ç½®
å¹³ åĿĩ
è ĸ
å «
èĩªå·± çļĦ
çİ ī
è¿ĲåĬ¨ åĳĺ
æŁ ĵ
çºª å¿µ
å±ħ æ°ĳ
6 æĹ¥
201 0å¹´
ä¸Ģ èĪ¬
é¸ Ł
åĪĽ ä½ľ
åıĳ è¡¨
åº Ł
ä¸Ģ åĲį
ç¼ º
éĿ ł
u s
ä¸ Ŀ
ã ģ
éĴ Ī
æķ Į
åĢ Ł
æĺ Į
çİ° ä»£
è®¾ ç«ĭ
ç» ©
è¯ ī
æº ª
æĬ µ
éĤ ®
æľī éĻĲ
èģĶ éĤ¦
åĲ Ľ
å· ¨
è ľ
åĲ ¸
å® ĩ
è¥¿ çıŃ
è· Ł
çĪ µ
ä¹ ±
å±ŀ çļĦ
èĵ Ŀ
è¥¿çıŃ çīĻ
éª ĳ
å¾ ¡
2 8
å® ª
æĹ¶ çļĦ
3 1
çľ ¼
è®® ä¼ļ
åıį å¯¹
æ¼Ķ åĳĺ
æ¤į çī©
ä¸Ģ çĽ´
åĿ ¡
æ® ¿
åħ± äº§
æķĻ æİĪ
æį Ł
å¾ Ĵ
éĽ ª
æĿ¥ çļĦ
å·¥ ä¸ļ
åĽ º
æ°ĳ æĹı
è¯ ¸
ä¾ µ
åĪ Ĭ
çīĪ æľ¬
åĮ ¹
æľī åħ³
ç¬¬ åĽĽ
éĢ ĥ
åħ¬ è·¯
çĽ´ æİ¥
çİ° åľ¨
éļ Ķ
202 3å¹´
è ª
å»º è®¾
4 æĹ¥
èģĮ ä¸ļ
æī ¾
çİ¯ å¢ĥ
è° ĭ
ä¸¾ åĬŀ
èĦ ĳ
æ¶ ¯
éļı åĲİ
ä¸Ń åŃ¦
3 æĹ¥
ä¹ İ
éĢī æĭ©
åĨĽ éĺŁ
çĹ ĩ
è¿ĺ æľī
éĿŀ å¸¸
ç¿ »
æ¬ ¢
èĭı èģĶ
åıį åºĶ
ç¼ĸ çłģ
ä½ ł
çĶ ³
åħ¬ å¼Ģ
d e
ä½ĵ èĤ²
å£ ¤
éĥ ĳ
å² ©
éĵ¶ è¡Į
æ¦ ľ
è£ ģ
èµĦ æĸĻ
åħ± åĲĮ
æ± ĩ
å½¢ å¼ı
åĨ³ èµĽ
ç© ¿
æĪĺ æĸĹ
è¡Į æĺŁ
åħ Ħ
åı ¬
éĥ½ æĺ¯
åĨ °
æĺ¾ ç¤º
éĤ »
æ¼ «
åįı ä¼ļ
2 æľĪ
æĢ ¥
æ¿ Ģ
åĲį ç§°
. âĢĿ
è·Ŀ ç¦»
2 7
o f
å¥ ī
æĸ¹ æ³ķ
ç» ľ
éķ ľ
æĪ Ī
åŁ ¹
u n
åĶ ¯
æİ¨ åĩº
åĲį çļĦ
è¯ ¾
å°ı è¯´
ç¬ ¦
èĥ ŀ
åĪ© çĶ¨
å¤ļ æķ°
åĲ ¬
çĶŁ æ¶¯
æ¯ ģ
è®® åĳĺ
èĬ ¬
è¿ «
ç¾İ åħĥ
çĽ´ åĪ°
æĸ¯ åĿ¦
ä¹¦ è®°
ä¼ģ ä¸ļ
è® ¢
è° Ī
åĳ ¼
é» ĺ
åĮħ åĲ«
èĩª æ²»
å¾ ħ
æ³ķ å¾ĭ
éĽ ¨
é Ĩ
ä¸Ģ èµ·
ç®¡ è¾ĸ
æĮĩ æĮ¥
åĳ Ī
èĤ ¯
S t
è¿Ļ ä¸Ģ
åģ ¥
å®Į åħ¨
ä¸» ä»»
æĢ Ģ
èĢ ³
åı° åĮĹ
ä¸Ńåįİ æ°ĳåĽ½
çĶŁ çī©
æĸ° çļĦ
ï¼ į
çĸ ĳ
æ³ Ľ
å®¶ åºŃ
èµ µ
åĿ ļ
ä¸ľ åĮĹ
ä¸į æĺ¯
2 6
æ³ķ éĻ¢
äºº ç±»
èİ ī
éĻ µ
æĦ ¿
en t
âĢĶ âĢĶ
ã Ĥ
an d
æĵ į
æĹ ĭ
æĪĳ ä»¬
å®¶ æĹı
èĩª çĦ¶
å§ ĵ
åı¦ ä¸Ģ
æľī ä¸Ģ
åŃ¦ ä¹ł
åľ° çļĦ
åĨį æ¬¡
r i
202 4å¹´
æ¶ ī
çĶµ åŃĲ
å¤§ éĩı
æŀ ļ
æĮĩ åĩº
é¢ Ĺ
æĶ¿ çŃĸ
åħ³ äºİ
æĪ ´
æ¯ «
åŃ ©
èĦ ±
æī§ è¡Į
åĬ¨ çĶ»
çĶļ èĩ³
åĪĨ ä¸º
201 6å¹´
çĲĨ è®º
3 5
è¡¨ çİ°
èŀ į
: ãĢĮ
æľĪ1 æĹ¥
åĲİ çļĦ
å¿ħ é¡»
åĮ» éĻ¢
2 9
æļ Ĥ
åŁº ç¡
åį ±
ç» ¿
ä»¥ æĿ¥
è¡Į ä¸º
å°Ĩ åĨĽ
å¦ »
ç§ ĭ
ä¸ľ éĥ¨
çĽ ĺ
æľĢ ä½³
æģ Ĵ
å¢ĥ åĨħ
å°½ ç®¡
201 1å¹´
èĪ į
o w
æī İ
æĢ§ çļĦ
æľĢ åĪĿ
åĿ Ĳ
è Ŀ
é¡ ¾
æĸĩ åŃ¦
åŁºç¡ Ģ
æĶ¹ ä¸º
åį ·
æ¨ ª
201 8å¹´
ç¾ ½
æŁ ı
ä¸ŃåĽ½ å¤§éĻĨ
ä¹ Ī
åĬ ª
å®ĺ æĸ¹
ç¿ ¼
ç´ §
åįļ çī©
èī ĩ
åķĨ ä¸ļ
ç¯ ĩ
çľģ ä»½
è¾ Ľ
æĶ» åĩ»
æ» ¨
æĦı å¤§åĪ©
è´ ¡
åħ¬ åħ±
å¥ ı
ä¹ °
çī© ç§į
æŃ» äº¡
æĴŃ åĩº
u r
æ¡ ĳ
éĴ ±
æĬ¥ åĳĬ
ç±» ä¼¼
åĿ ı
æĻ® æŁ¥
éŃ Ķ
ç¼ ©
æľĿ é²ľ
æĶ¿æ²» äººçī©
æ´ ª
å¸Ĥ åľº
201 4å¹´
æĹ© æľŁ
èĥ½ åĬĽ
¤ Ĳ
æ½ ľ
å®ŀ éĻħ
äºļ æ´²
è Ĩ
æıı è¿°
å¢ ĵ
a d
è¯ ¯
æ¼Ķ åĩº
è§Ħ æ¨¡
8 0
çº¦ ç¿°
åĽ¢ ä½ĵ
åĬł æĭ¿
éģ ¿
å¿ ł
åħ¨ çĲĥ
ç» į
æ® ĸ
åİ» ä¸ĸ
æĭį æĳĦ
å¤Ħ çĲĨ
æĺ¯ ä¸Ģä¸ª
æł ĸ
æµ·æĭĶ é«ĺåº¦
çģ Ń
ä¹ĭéĹ´ çļĦ
è¥¿ éĥ¨
å¤ĸ äº¤
å¹¿ ä¸ľ
ä¸ĭ çļĦ
éľ ĩ
æµ Ļ
201 7å¹´
201 2å¹´
åĪ¶ éĢł
éĵ ľ
201 5å¹´
èĥ½ å¤Ł
ä¸¥ éĩį
å¤§ ä¼ļ
å» ī
ç¦» å¼Ģ
ç« ¹
çļĦ åľ°
çĸ «
åŁº æľ¬
ãĢį (
å®Ĺ æķĻ
æģ ¶
æ± ½
å® ľ
è¿ ·
i g
ä¼ į
çºª å½ķ
é³ į
ä¸º ä¸»
ä½ľ çĶ¨
è¿ ¹
è¿Ļ ç§į
éĹ Ń
å¥ Ĺ
200 1å¹´
æĮģ ç»Ń
åĿ Ĺ
åģ ı
å°ı æĹ¶
ä» ĺ
è®¡ ç®Ĺ
201 3å¹´
è·¯ çº¿
200 9å¹´
18 9
t h
æī ¬
åħ±äº§ åħļ
äºĭ åĬ¡
åŃ Ķ
è¯¥ åĽ½
ç©º éĹ´
çļĦä¸Ģä¸ª å¸Ĥéķĩ
èµ ĸ
è¡ £
8 æĹ¥
è¿ İ
7 0
å°Ķ æĸ¯
æ³ ī
åĪ ļ
è¾ ħ
t he
å¸Į æľĽ
ä»» åĬ¡
çĽ® æłĩ
æŀ Ĳ
èĦ ī
ä¸ī ä¸ª
å¥¹ çļĦ
æ± ł
ç»Ł æ²»
æİ¥ å£¤
èª ī
ä¼ °
åı¦ å¤ĸ
æĸ¹ åĲĳ
æ¸ ¡
æģ Ĳ
ç¼ ĺ
æĸĩ çī©
ç¬¬ åįģ
ä¸ľ åįĹ
åĬŁ èĥ½
èĳ £
éļ ľ
å¼ ĥ
å¹´ çļĦ
åįķ æĽ²
éĺ¿ æĭī
ãĢ ī
ãĢ Ī
åĬłæĭ¿ å¤§
çº½ çº¦
å¢ ¨
éĶ¦ æłĩ
æĭ Ľ
äº «
è· ¨
è®¾ æĸ½
æľĪ åı°
èµ ¤
å¯ »
19 2
èµĽ åŃ£
èħ Ĭ
æĺ¯ çĶ±
åī ĳ
éĢı è¿ĩ
çĶ ĺ
äº ķ
ä¿ ±ä¹Ĳ
è§Ħ å®ļ
ä¸» æĮģ
éĶ ¡
éŃ ı
çĲĥ åĳĺ
éĢ Ĭ
ä¿±ä¹Ĳ éĥ¨
éĺ »
åĪĨå¸ĥ äºİ
ä»į çĦ¶
åįļçī© é¦Ĩ
éĢī åĮº
åıĺ åĮĸ
æĥ ł
åĲĪ å¹¶
è´ ¸
è§£ æĶ¾
åĽ½ çİĭ
çĳ Ł
ä¸Ģ æ¬¡
é¢ ģ
åħ¬ å¸ĥ
å·´ å£«
å¼Ģ æĶ¾
å¹¿ æĴŃ
åĨ ¬
åħĭ æĸ¯
ç» ĺ
å¦Ĥ æŀľ
åħĭ éĩĮ
äº ®
200 8å¹´
ä»ĸ åľ¨
èĤ ī
è¾¾ åĪ°
å®ŀ éªĮ
èµ ¢
ä¹Ł æľī
åĶ¯ ä¸Ģ
åİŁ åĽł
è ¸
å½ĵ ä¸Ń
éĢĲ æ¸Ĳ
æį ·
èı Į
åıĳ åĬ¨
éĥ¨ éķ¿
äººåı£ æĻ®æŁ¥
çĥŃ å¸¦
çº ²
åĦ¿ åŃĲ
ç» ¼
é©¬ æĿ¥
åĵ ²
çŁ ¿
è¿ŀ æİ¥
å½ĵ éĢī
4 5
æ¨¡ å¼ı
å¾ Ĳ
ç ¹
å¤§ åĮº
è¾ ŀ
ç¬¬ä¸Ģ æ¬¡
ä¸ľ äº¬
åı· çº¿
çģ ¾
èĴĻ åı¤
è¿ĲåĬ¨ ä¼ļ
å®ļ ä¹ī
i d
æľīéĻĲ åħ¬åı¸
o s
çĽ¸ å½ĵ
éĺ ´
èĽ ĭ
åĲĦ ç§į
è®Ń ç»ĥ
æ´ ŀ
ç¨ ³
ç»Ĩ èĥŀ
æ½ ®
çĽ¸ åĲĮ
r a
åĩ» è´¥
å¦ ĩ
åı Ļ
æ¼Ķ åĶ±
é£İ æł¼
å¤ª å¹³
çĬ ¹
å¤ª éĺ³
å¦ ¹
19 0
èĢħ çļĦ
ç¹ ģ
I N
æ° §
éģĵ è·¯
ä½ Ĳ
c t
æĪĲ ç»©
4 8
æļ Ĺ
æŃĮ æīĭ
æİ Į
T C
æĭ Ĵ
å¥¥ è¿Ĳ
æ» ĳ
åı¸ ä»¤
æģ ¢
çİ© å®¶
ä¸ĵ ä¸ļ
å¹¶ ä¸į
éĺ¶ æ®µ
äºº å£«
t er
éĴ ¢
è¥¿ åįĹ
åĢ Ĵ
202 5å¹´
åĨ ·
åĨ Į
æī¹ è¯Ħ
. ãĢį
è¥¿ åĮĹ
èĻ İ
çĲ ´
ä¸įåĲĮ çļĦ
ç§ Ł
å»º éĢł
ä¸Ģ æł·
è®¾ ç½®
äº§ åĵģ
ä¼ Ĳ
âĢ ĵ
åĬŀ åħ¬
è½¨ éģĵ
æĺ Ĥ
ç¨ İ
é© ±
ä¿ Ĺ
å¾ ½
äºİ 199
ä¸į è¿ĩ
è¡ĮæĶ¿ åĮº
çı ł
è¢« ç§°ä¸º
éº »
èī ĺ
å¥ Ī
éĶ Ļ
ç¡ ¬
åĿ ĳ
èĥĮ æĻ¯
åľ Ī
å®ļ çļĦ
å¹ ¼
åĳ ³
çĶ º
çĪĨ åıĳ
å½ ¼
æµĻ æ±Ł
åĪĨ éĴŁ
å°ı è¡ĮæĺŁ
æĤ £
çļĦä¸Ģ éĥ¨åĪĨ
éĺ ģ
èĳ ¡
å¢ Ļ
å½ ©
ä¼¦ æķ¦
ä¹ Ļ
9 0
åŃ¦ èĢħ
å¤§ æĪĺ
æµ ¦
æģ¢ å¤į
åºĶ çĶ¨
å¸Į èħĬ
ä¸ī åįģ
æĶ¹ éĿ©
çļĦ ä¸»
åį ĸ
æ¯į äº²
è§ ¦
9 æĹ¥
èº« ä»½
çº ¸
å¯ ¿
u m
3 6
éĥ¨ éĹ¨
èŃ¦ å¯Ł
æİĴ åĲį
ç¬ Ķ
å±± ä¸ľ
è± ª
åĽ °
æ® ĭ
é£ŀ æľº
i m
åĪ¶ åº¦
åī Ĥ
ä¸Ģ ä½į
éĿĴ å¹´
ä¸į èĥ½
èİ İ
è ķ
ä¿ ĥ
ä¸ĭ è¾ĸ
è¯Ħ è®º
è¿Ľ å£«
ç² ī
æĽ¾ ç»ı
æľĢ å¤§
âĢ ¦
æĬķ èµĦ
èĦ ļ
éĢ Ŀ
é«ĺ éĢŁ
ç½ĳ ç»ľ
i r
å¤ı åŃ£
o t
è£ Ĥ
è®° è½½
æ¡ £
æ¥ ļ
æµ ª
èµ ı
æ¢ ¦
å°Ĩ åħ¶
å¯¼ æ¼Ķ
3 8
åĮĸ åŃ¦
æ² ī
èµĦ æł¼
éĽ ¶
å¤© æ´¥
o d
å¹¿ å·ŀ
æĺ Ń
äº ¨
ãĢį ãĢģ
æŁ ±
æĭ Ł
å¾Ī å¤ļ
åģ ¶
åĨ Ī
å° Ĭ
çĶµè§Ĩ åı°
å¸® åĬ©
åįļ å£«
éĤ Ģ
çļĦ æĸ°
çĽ Ĳ
200 7å¹´
å¼ ±
è® ·
çĸ Ĩ
åı «
ç¬¬ äºĶ
éĻ ·
åħ¨ éĥ¨
åĪĨ åŃĲ
å´ ĩ
æģ ĭ
ä» Ļ
æ¶ ħ
çĭ ±
ç Ĵ
è¯ Ĭ
at ion
3 7
ç¾¤ å²Ľ
äºİ 18
éĿ Ļ
å¥¥ æŀĹ
ä»» åĳ½
éĻĨ åĨĽ
åĨľ ä¸ļ
æĿĤ å¿Ĺ
æ± Ĺ
ç» ķ
åŁº çĿ£
é ¤Ĳ
I n
çļĦ çī¹
ä¸į ä¼ļ
åħ¬ å°º
æķ´ ä¸ª
åĲį åŃĹ
è£ Ķ
v e
åĲ ķ
ç®Ģ ç§°
çĶ· æĢ§
ç«ĭ æ³ķ
æ¶ ²
è ļ
å¤ļ æ¬¡
ç¥ Ń
é¢Ĩ åŁŁ
èµ¢ å¾Ĺ
å»º è®®
åıĬ åħ¶
è´Ŀ å°Ķ
ä½ľ å®¶
é¼ ĵ
ç¬¬äºĮ æ¬¡
ä¾ ¯
æ ©
è¿ŀ ç»Ń
åĪĨ æŀĲ
è¡¨ æ¼Ķ
çĸ ¾
ä¼ ´
ä¼ Ł
åįĹ äº¬
i a
ä»ĸä»¬ çļĦ
éĶ¦æłĩ èµĽ
åĲĮ æł·
èĻ ĳ
å¹¿ åľº
å¥¥æŀĹ åĮ¹
æĢ» äººåı£
ç»ı å¸¸
åĩº çļĦ
åĪĻ æĺ¯
ä¸ ĺ
åĽĽ å·Ŀ
åĮº ä¸º
åħĪ åĲİ
åıĳ å°Ħ
ä¸Ń éĥ¨
äºī è®®
5 00
åĩ ¤
å¹ ħ
åľ° ä¸ĭ
é¢ ľ
éĥ Ń
åľ° çĲĥ
æĭ Ĩ
çī §
çŃī äºº
éĢŁ åº¦
æĪª èĩ³
è®° å½ķ
è®¾ å¤ĩ
é© ¶
ç¦ı å»º
äºº ä»¬
ç»´ å°Ķ
æĲ Ń
åĩº ä»»
ä¿Ŀ æĮģ
åľ°åĮº çļĦ
æĿ¡ ä»¶
å¼ķ èµ·
æ°´ åŁŁ
200 6å¹´
ç» ª
æĭī æĸ¯
çľģ çļĦä¸Ģä¸ªå¸Ĥéķĩ
è§Ħ åĪĴ
æĹ¥ åĨĽ
ä¼Ĭ æĸ¯
æŁ ¯
æ²³ åįĹ
åıĤ èµĽ
ä¿¡ æģ¯
éģŃ åĪ°
å¹³ åı°
å±ħ ä½ı
å¤ı ä»¤
å¤ļ çļĦ
è¯¥ åľ°
é£ŀ è¡Į
U TC
åĤ ¨
ç»Ł è®¡
è¢Ń åĩ»
åĨħ éĥ¨
çĽ¸ å¯¹
å¹¿ æ³Ľ
èĻ «
çī© çĲĨ
è¿ĩ åİ»
æķĻ åłĤ
å®ĺ åĳĺ
è¶Ĭ åįĹ
S T
èĩ³ ä»Ĭ
ä¸Ģ æŃ¥
æĪĺ å½¹
200 5å¹´
æĭĴ ç»Ŀ
èĶ ¡
æĸ¯ ç§ĳ
å¤ļ ä¸ª
æ£ Ĵ
èĭ± æĸĩ
è´¸ æĺĵ
åħ ģ
è§ Ī
æłĸ æģ¯
çĵ¦ å°Ķ
å¥¥æŀĹåĮ¹ åħĭ
åŁİ åĮº
èĲ Ħ
æ¯Ķ äºļ
èĳ¡ èĲĦ
å¹ ¸
æĺİ æľĿ
ç³ ĸ
åĦ¿ ç«¥
a g
æµģ è¡Į
æľĢ æĹ©
åĩ ½
å¡ŀ å°Ķ
ç§ ¦
æ· ¡
åıĸ ä»£
æľĪ2 1
æĹ ģ
é¢ĳ éģĵ
æ¼« çĶ»
é¥° æ¼Ķ
éĻ ¶
è¿ Ŀ
ç¾İ æ´²
æľª èĥ½
æ³¢ åħ°
ç»ı åİĨ
è¡Ĺ éģĵ
æ± ¤
ç¢ ĳ
çļĦ ä¸»è¦ģ
æľĪ2 2
åĩł ä¹İ
æĮ ĳ
å·´ é»İ
æ¦Ĥ å¿µ
èĻ ļ
é ŀ
å®ŀ çİ°
æĮ ¯
âĢĿ (
ç½ĳ ç«Ļ
å¤Ħ äºİ
æľĢ å¤§çļĦ
å·¦ åı³
é¾ Ħ
çĦ¶ åĲİ
è®° èĢħ
å®ŀ æĸ½
åįı åĬ©
å® ¿
åĩı å°ĳ
æĶ¹ åıĺ
èİ·å¾Ĺ äºĨ
è§Ĩ ä¸º
è· ĳ
ä¾ į
è¿ Ī
æ® Ĭ
è½¦ è¾Ĩ
èĳ ¬
åľ° éĵģ
ä¼ ¸
éķ¿ æľŁ
å±ķ å¼Ģ
çĨ Ļ
åĪĨ ç±»
çļĩ å¸Ŀ
è¿Ĳ è¾ĵ
æĺ Ĩ
ç§ĳ æĬĢ
å¤§ éĥ¨åĪĨ
èĭ± æł¼åħ°
åĩºçĶŁ äºİ
éķ¿ çļĦ
å½± çīĩ
ç±» åŀĭ
o p
ä¼ļ åľ¨
ä¹ ĥ
èĮ ¶
çĬ¶ æĢģ
çļĦæĹ¶ åĮºä¸º
æ¯Ķ è¾ĥ
éģ į
ç¬¬ ä¸Ģä¸ª
ç»ı èĲ¥
åįł é¢Ĩ
åİ¿ çļĦ
åī§ æĥħ
æ¾³ éĹ¨
çº¿ çļĦ
æĬķ ç¥¨
ç»§ æī¿
å® ħ
ä½ľ æĪĺ
çĥ §
åĽ½ çļĦ
æ²» çĸĹ
æŃ¦ åĻ¨
éĻĲ åĪ¶
3 4
åįģ ä¸Ģ
b r
ä¸ļ åĬ¡
åŁº äºİ
èį· åħ°
çŃ ¹
è§£ åĨ³
çº ¯
å¤© ä¸»æķĻ
çĩ ĥ
èĪ° éĺŁ
å¨ģ å»ī
è½ °
åĴĮ å¹³
å¦ ®
éĶ ®
å®£ ä¼ł
l i
çº¿ è·¯
åĭ ĭ
çı į
S E
çģ ¯
åľŁ åľ°
åİ ¦
åĩĨ å¤ĩ
u b
ç´ ¯
éĽ ķ
å² Ń
åĿ Ľ
èµĦ æºĲ
T he
è¾ ½
éļ Ĳ
æĬ ĺ
çļĦ æķ°æį®
åĭ ĩ
3 9
åĩº äºĨ
è¡ ¡
s e
ä½ĵ çļĦ
a y
æĸ¹ æ¡Ī
èı ľ
æĿ¥ æºĲ
ç»Ł ä¸Ģ
è¯Ħ ä»·
çĤ İ
è¯ķ åĽ¾
é½ ¿
æ¸ħ æľĿ
çĶµè§Ĩ åī§
å³ ¡
æ±½ è½¦
åİŁ æľ¬
I I
æ¾³ å¤§
å¤§ çº¦
å®ĥ ä»¬
æĸ¯ çļĦ
åħ´ å»º
åŃ Ł
åħĦ å¼Ł
çļĦ æĥħåĨµ
éĵģ éģĵ
éĢī æīĭ
äºº åľ¨
çł´ åĿı
ãĢįãĢģ ãĢĮ
éģ £
é©¬æĿ¥ è¥¿äºļ
åįı è®®
ç£ ģ
æīĢ åľ¨
èĲ §
éĤ® æĶ¿
7 5
çĲ ³
åĽŀ åĪ°
C h
è½ ´
æķ ¬
éļı èĳĹ
åĶ± çīĩ
ä¸º æ¯ı
è¿Ľ ä¸ĢæŃ¥
å£ ģ
åĪĿ æľŁ
çļĦ å½±åĵį
è¿Ĳ è¡Į
. .
4 6
é¥ ®
ä¸» è§Ĵ
æĽ ¹
è ¦
æĶ¹ ç¼ĸ
çĬ¹ å¤ª
æħ Ī
ç® Ń
è¿Ľ æĶ»
èĩª åĬ¨
å¹ »
è¡ Ķ
å¨ ±ä¹Ĳ
è¿ĺ æĺ¯
ç²¾ ç¥ŀ
æķ ı
å°ı åŃ¦
èµ ł
ç»´ æĮģ
éĴĪ å¯¹
ä¸Ń æĸĩ
è§Ĥ ä¼Ĺ
æ¢ °
åŁº éĩĳ
e m
è´ ¤
æ² Ī
åı Ľ
è¿Ľè¡Į äºĨ
åŁİ éķĩ
æľº è½¦
18 8
å¤§ æ¥¼
çĶŁ äºİ
ç»Ħ åĲĪ
ä» Ķ
æĢ» éĿ¢ç§¯
è¿Ĳ èĲ¥
è´ ¾
ä¸» é¢ĺ
äººåı£ æķ°éĩı
åľ¨ æŃ¤
è¾ Ĳ
ä¸į ä¹ħ
éĶ ĭ
ç¯ ®
çī¹ å¾ģ
çľģ çº§
å§ Ĳ
æŃ£ åľ¨
çº ¹
å¤ªå¹³ æ´ĭ
. ãĢĬ
éĥ¨ ä»½
åĬł ä¸Ĭ
å·ŀ çļĦ
èĹ ¤
è¢« è®¤ä¸º
çģ °
äº¤ æĺĵ
o c
v er
éĿ¢ çļĦ
ç©º åĨĽ
ç»¼ åĲĪ
åĨ ¯
å¤§ åŀĭ
è´Łè´£ ç®¡è¾ĸ
åıĮ æĸ¹
éĤ ĵ
ç¡® å®ļ
éĻ ķ
æ¾³å¤§ åĪ©äºļ
èµ ´
æķĻ ä¼ļ
% .
çŃ Ķ
æľī çļĦ
è§£ éĩĬ
ç¾İåĽ½ äººåı£æĻ®æŁ¥
è¯ģ æĺİ
åĽ¾ ä¹¦
ä»· åĢ¼
è¿Ķ åĽŀ
èĳ£ äºĭ
è¦ Ĩ
åĲį åįķ
åİ ļ
æīĢ å±ŀçļĦ
å¾· éĩĮ
æĦŁ æŁĵ
åĪ Ģ
ç¨ĭ åº¦
Ġ åľ¨
e Ġ
Ġ S
Ġ M
Ġ C
Ġ A
Ġ çĶŁ
Ġ åİĨåı²
ĠçĶŁ å¹³
Ġ P
å¹¶ ä¸Ķ
Ġ B
æŃ¤ å¤ĸ
l t
ä½Ĩ æĺ¯
å¹¶ åľ¨
z h
åľ° çĲĨ
s Ġ
g t
æĺ¯ ä½įäºİ
y Ġ
a Ġ
Ġ T
Ġ L
è¿Ļ æĺ¯
Ġ 199
Ġ R
Ġ åľ°çĲĨ
ä¸ī å¹´
Ġ D
Ġ æľ¬
Ġ G
Ġ H
åŃ¦ åĲį
, ãĢĬ
Ġ äººåı£
åħ¶ åĲİ
äºİ æĺ¯
Ġ F
ç¼ĸçłģ ä¸º
Ġ æł¹æį®
æĺ¯ ä¸Ģç§į
Ġ 200
Ġ è¯¥
èĢĮ ä¸Ķ
19 1
åĽĽ å¹´
Ġ W
Ġ ä¸İ
æľĪ2 8æĹ¥
(, )
ä½¿ å¾Ĺ
æľĪ1 5æĹ¥
Ġ formula
20 æĹ¥
10 æĹ¥
Ġ E
30 æĹ¥
Ġ 198
ä¸º äºº
Ġ çļĦ
% ,
æľĪ2 5æĹ¥
åĳ½ åĲį
o Ġ
è¿Ļ æł·
ä½Ĩ åľ¨
18 æĹ¥
äºĶ å¹´
æ¯« ç±³
ä¸Ģ å¹´
èĭ± è¯Ń
12 æĹ¥
, âĢľ
Ġ 194
æŃ¤ åĲİ
åħĥ å¹´
11 æĹ¥
19 æĹ¥
æľĪ2 4æĹ¥
æľĪ2 6æĹ¥
Ġ N
ç¤¾ åĮº
ä¸¤ äºº
æľĪ1 6æĹ¥
Ġ the
Ġ å¹´
æľĪ1 7æĹ¥
æĺ¯ä½įäºİ ç¾İåĽ½
çŃī åľ°
æ¯ı å¹´
æĺ¯ æ³ķåĽ½
åŃ¦ ä½į
h an
æľĪ2 7æĹ¥
æľĪ21 æĹ¥
31 æĹ¥
ä»¥ ä¸Ĭ
äºĮ å¹´
æľĪ2 æĹ¥
æĪĸ èĢħ
æľĪ22 æĹ¥
" )
æľĪ2 3æĹ¥
3 2
æĽ¾ ä»»
æľĪ1 4æĹ¥
å¹¶ äºİ
æľĪ2 9æĹ¥
æĽ¾ åľ¨
æľĪ1 3æĹ¥
Ġ c
ä¸ª æľĪ
ä½įäºİ è¯¥åĽ½
èĢĮ åľ¨
åįģ å¹´
: )
ä¹ĭ å¤ĸ
3 3
åıĪ ç§°
5 5
å°Ķ å¾·
å¤§ å¤ļæķ°
200 4å¹´
åħŃ å¹´
200 0å¹´
çļĦ åīį
æĬ¥ éģĵ
éĽĨ ä¸Ń
ä¸į å°ĳ
t Ġ
æ¯ı ä¸ª
Ġ æĶ¿æ²»
ä¸ĩ äºº
æĺ¯ åĲ¦
Ġ çĶ±äºİ
æĺ¯ ä¸ŃåĽ½
åľ¨ ç¾İåĽ½
4 7
éĻĨ åľ°
éĩįè¦ģ çļĦ
äºĳ åįĹ
ä» °
ä»İ äºĭ
, ãĢĮ
æ³ ³
è° ±
æ¹ĸ åįĹ
åĽ½ ä¼ļ
æ³ķ åħ°
æľī æĹ¶
çļĩ å®¶
æ²³ æµģ
å®ĥ çļĦ
çĥ Ł
åĢ į
å°ı ç»Ħ
çİĭ æľĿ
ä¸» æ¼Ķ
åħĥ ç´ł
é©¬ åħĭ
å¼ķ åıĳ
å¥³ åĦ¿
åĩ Ń
ä¿Ŀ çķĻ
çº µ
ä¸´ æĹ¶
a p
æĢ» çĲĨ
æľº ä¼ļ
æĹħ æ¸¸
éķĩ åĮº
æľ ĭ
æ¨¡ åŀĭ
é¦ĸ éĥ½
å¸¸ è§ģ
è¶ħ çº§
é ¬
äºİ 198
è´¢ æĶ¿
èĴ ĭ
æ² Ł
åħ¬ åħĥ
åĩº èº«
çķ ª
å¤§ èĩ£
åĬł åĿ¡
å¤© æĸĩ
åŁº åľ°
æī¹ åĩĨ
é«ĺ çº§
ç±³ å°Ķ
åĨ² çªģ
åĽ½ éĺ²
Ġ 197
ç½ ķ
Ġ K
è®¨ è®º
å° ĸ
åĬĽ éĩı
20 ä¸ĸçºª
ä¸į åĨį
å¦» åŃĲ
åĲĮ æĦı
ä½Ľ æķĻ
çĳŀ å£«
ç¬¬ åħŃ
ãĢĬ ãĢĭ
åĽ½æ°ĳ åħļ
åĽ½ åĨħ
åı ¥
äºĨ ä¸Ģä¸ª
éĿ ĸ
çłĶç©¶ æīĢ
æľº åħ³
è¶ £
åį¡ å°Ķ
é© ¾
æľī æķĪ
ä¸į æĸŃ
åĬĽ çļĦ
æ¡ ĥ
è®® éĻ¢
ç»ĵ åĲĪ
çļĦä¸Ģ ç§į
å¥½ çļĦ
åĩ ¡
äº§ ä¸ļ
å·ŀ å¸Ĥ
æľī äºĽ
è¾ ī
äºĮ ä¸ĸ
è· ³
æĸĩçī© ä¿ĿæĬ¤
6 5
æŁ ´
è¿ ħ
æĸ° åĬłåĿ¡
Ġ 195
åİ¿ çļĦä¸Ģä¸ª
æŃ¦ è£ħ
æĹ º
åĽ½ ç«ĭ
å¹´ è½»
æĻ® éĢļ
ä¸Ĭ æĺł
ç¼ ĵ
çĨ Ł
å¤§ ä½¿
æĺ¯ æĮĩ
ç§ĺ ä¹¦
å»º æĪĲ
åŁ Ķ
æ°Ķ åĢĻ
ãĢģ ãĢģ
æİ ª
æĸ¯ åŁº
è§£æĶ¾ åĨĽ
ç¥ ¥
ä¸į åı¯
éģ Ĥ
æĺŁ æľŁ
3 00
æ §
æĶ¶ åħ¥
åıĸ æ¶Ī
ç¼ĸ åı·
Ġ 1
äºº æķ°
æ½ ĺ
6 4
ä¸ĸçķĮ å¤§æĪĺ
æĸĩ ä»¶
åı¯ è¾¾
å¨ģ å°Ķ
æĬķ åħ¥
å¿« éĢŁ
æī¿ è®¤
è¥¿ æ´ĭ
ä¸ŃåĽ½ äººæ°ĳ
è¥¿ çľģ
èĳĹ åĲį
ä¸ŃåĽ½ åħ±äº§åħļ
èŃ¦ æĸ¹
Ġ O
éĿŀ æ´²
æĢ» éĥ¨
å·´ è¥¿
ç»´ äºļ
å°ĳ å¹´
æł¸ å¿ĥ
( "
èĩ³ å°ĳ
é¹ ¿
Ġ b
å¿ Ĩ
éļı çĿĢ
æĸĩçī©ä¿ĿæĬ¤ åįķä½į
è ©
ä» ĵ
ä½¿çĶ¨ çļĦ
æĿ¡ çº¦
ä»¥ èī²
åĭ ¤
é£İ æļ´
åĽ½ åĬ¡
ä¹ ı
èĭ Ĺ
èĥľ åĪ©
æĸ¯ åħĭ
å¥¥ æĸ¯
å¦Ĥ ä¸ĭ
èĳĹ ä½ľ
åŃ Ŀ
åİ Ħ
ç¼ ħ
ä¸ĥ å¹´
åĮĸ çļĦ
åĪĽ ç«ĭ
ä»¥èī² åĪĹ
Ġ 196
æ³ Ĭ
u t
éĩį å»º
ä»¥ åĲİ
è© ¹
4 9
ç§ Ĵ
å¥¥æŀĹåĮ¹åħĭ è¿ĲåĬ¨ä¼ļ
Ġ 2
è®¿ éĹ®
åĵĪ å°Ķ
æĹ¶ ä»»
åĽ¢ éĺŁ
æľª æĿ¥
è´ ¯
çĮ İ
çĹħ æ¯Ĵ
åħ¬ æ°ĳ
æ°ĳ ä¼Ĺ
çļĦ å¸Ĥéķĩ
åįĬ å²Ľ
Ġ 18
çļĦ çłĶç©¶
éĥ½ ä¼ļ
æ±Ł èĭı
o g
èİ ²
æĶ¶ å½ķ
æħ ķ
åħģ è®¸
æĴ Ĵ
Ġ s
å®ª æ³ķ
è¯´ æ³ķ
ç ŀ
æµĭ è¯ķ
èĳ Ľ
è°ĥ æķ´
æĻ ¨
å§Ķ ä¼ļ
ä¼ ı
ç¨ĭ åºı
çĵ ľ
æĭī åħĭ
ä¹Ĳ åĽ¢
åĢ ¾
200 3å¹´
ä¸Ģ ä¸ĸ
æµ· å²¸
èĽĭ çĻ½
çİĭ åĽ½
ç»ĵ å©ļ
éļ¶ å±ŀäºİ
æĻ ¶
çĶµ èĦĳ
åģľ æŃ¢
éĥ½ æľī
åħ¬ åĪĨ
ç¬¬ ä¸ĥ
ä½įäºİ æ³ķåĽ½
é«ĺ çŃī
æ¢ ¯
çĶ¨ æĿ¥
Ġ J
å°Ķ çļĦ
æħ ¢
am p
éĺ¿æĭī ä¼¯
èĥ ģ
çĶ¨ çļĦ
èī² çļĦ
æİ¥ è¿ĳ
èĢĥ èĻĳ
è¡ĮæĶ¿åĮº åĪĴ
ä¸ĭ åįĪ
å±± èĦī
çĲĥ åľº
è´ º
æ®ĸ æ°ĳ
åĩ Į
å°± è¯»
æĢĿ æĥ³
è¿ĩç¨ĭ ä¸Ń
çĶµ åı°
å°¤ åħ¶
èĹ ©
æĪĺ åĲİ
åĳ¨ è¾¹
åľ¨ è¿Ļ
æĸ° å¢ŀ
åľ° ä½į
éĤĢ è¯·
æµ ®
åĮ» çĸĹ
çĽ´ èĩ³
å¹´ åº¦
åħ³ æ³¨
Ġ 3
ç´ «
çİ° æĹ¶
200 2å¹´
ç¡ ķ
é¬ ¼
çĶ³ è¯·
ä¸Ģ å¸¦
æĥ Ĭ
èħ ¹
in d
ä¸į æĺİ
ä¼¯ çī¹
è§Ĥ å¯Ł
åĿ İ
éĩį çĤ¹
èµ· æĿ¥
ç¥ĸ çĪ¶
æĶ¿ åħļ
åĨį åº¦
Ġ 2021å¹´
åįģ åĪĨ
çĽ¸ ä¼¼
è¯¾ ç¨ĭ
å¡ ĳ
åŃ© åŃĲ
èĬ Ŀ
åĲĦ åľ°
ä¹Ķ æ²»
åĮ Ī
Ġ 2019å¹´
æĢ ª
ä¿ Ĭ
åĲĪ çī©
è¡¨ è¾¾
é«ĺ ä¸Ń
åħ±æľī äººåı£
4 4
Ġ è½¦ç«Ļ
åħ¥ ä¾µ
çĽ® çļĦ
å£« åħµ
ä» ²
å®ī æİĴ
æĴ °
åĲ ¨
æĿ¥ è¯´
èĭ ¦
æ¯ķä¸ļ äºİ
a k
åĬ ±
ç½ ļ
åĪ° è¾¾
åŃ¦ æľ¯
äººæ°ĳ æĶ¿åºľ
å¹¶ æ²¡æľī
å¥ ´
åĽł èĢĮ
æĶ¯ æı´
ç§» åĬ¨
çļĦæĹ¶ åĢĻ
æĺ¯ ç¾İåĽ½
æ³ ¥
æĴ ŀ
çļĦ å°ı
A T
Ġ 193
éĶĢ åĶ®
å± ¿
åĢĻ éĢī
å¤ĸ çļĦ
Ġ t
æĿ ī
è·¯ æĺĵ
çĽ Ĺ
Ġ è¿Ļ
Ġ of
ç¦ Ħ
æĹł çº¿
ä¸º æ³ķåĽ½
è¯ ¦
ä¸ §
ä¼Ĭæĸ¯ åħ°
å Ĺ
è¥¿ åĵ¥
åºĶ è¯¥
âĢĿ ãĢģ
çĨ Ĭ
æĹ© å¹´
Ġ è¡ĮæĶ¿
åīį çļĦ
æĹ ¨
çī¹ çļĦ
å¸Ĥ éķ¿
çİ° è±¡
ç¢ į
æŃ¤ æĹ¶
åıª æĺ¯
å¦Ĥ æŃ¤
Ġ 2020å¹´
èĲ¨ åħĭ
éģĹ åĿĢ
çĹ Ľ
ä»ĸ æĽ¾
å¹¶ æľª
5 8
çĶ¨ æĪ·
åıĺ æĪĲ
ç² Ĵ
å¹´ éĹ´
åľ° åĪ©
çĮ ª
éĩĳ å±ŀ
æĹ§ å¸Ĥéķĩ
æĬµ è¾¾
å¸Ĥ åĮº
ä»İ èĢĮ
æĿĲ æĸĻ
é ī
æĪĸ æĺ¯
æĺİ æĺ¾
ä¹ ³
æĢ» çĿ£
èĩªæ²» åĮº
Ġ 2018å¹´
çļĦ é¦ĸ
è´¨ éĩı
éĺ ħ
æıĲ åįĩ
é«ĺ çļĦ
å°¼ æĸ¯
çĦ ¦
æŀĦ æĪĲ
å°ĳ æķ°
åįģ åħ«
èģĮ åĬ¡
a b
åº Ĭ
Ġ V
è· ĥ
çĩ ķ
å®ī è£ħ
äºİ19 7
æŁ ³
åį« æĺŁ
å½ Ń
æĸ¹ çļĦ
ä¿¡ åı·
6 8
åı¯èĥ½ æĺ¯
æ± ¡
äººåı£å¯Ĩåº¦ ä¸ºæ¯ı
éĢĿ ä¸ĸ
å·¥ åİĤ
ar d
æŁĲ äºĽ
åĪĹ ä¸º
æ¯Ķ åĪ©
å± ı
æ¡ Ĥ
é Ħ
ãĢģ (
èĪ Ĵ
ä½ĵ ç³»
æģĴ æĺŁ
ç¨³ å®ļ
æĬ ļ
çī© è´¨
åĴ ¸
å¯¹ æīĭ
èĢĮ æĺ¯
é¡ µ
å¡ ĺ
å¤± åİ»
å»º äºİ
: .
SE E
ä»ª å¼ı
åĿ Ĭ
å¥¥ åľ°åĪ©
éī ´
ç§ĳ çļĦ
åĩ½ æķ°
åĩº åı£
çĶ ¸
åĪĽ åĬŀ
æİ ī
éĶ ģ
å¢¨ è¥¿åĵ¥
äººåı£æķ°éĩı ä¸ºäºº
ä¸ľ è¥¿
å»º åĪ¶
åĲ ĥ
åĲĮ ä¸Ģ
çĶŁ éķ¿
æľĭ åıĭ
è° ĵ
æĲ ľ
ä¸į è¶³
æĵį ä½ľ
æİ¥å£¤ çļĦå¸Ĥéķĩ
è¯ ļ
æĸĩ ç«ł
æĸ ĳ
ç¬¬ 1
IN SEE
äºĭ ä¸ļ
ä¸į å¾Ĺ
æĦı è¯Ĩ
æĻ® éģį
æ¯ı å¹³æĸ¹åħ¬éĩĮ
æ°§ åĮĸ
çº ¬
ç ĺ
ç§» æ°ĳ
åľ¨ 199
ç¿» è¯ĳ
æĹł äºº
ä¸Ģ åº¦
å¨ģ èĥģ
åĬ¨ åĬĽ
åıª èĥ½
éĺŁ çļĦ
èĤ ĥ
å°ļ æľª
éĤ®æĶ¿ ç¼ĸçłģä¸º
åĬŀåħ¬ å®¤
æł¡ éķ¿
Ġ p
ä¸Ģ åĲĮ
çİ° åľº
å¹¿ åĳĬ
èº« ä½ĵ
åħ¥ åı£
( ;
æ¡Ī ä»¶
è¯ ŀ
åŀ Ĵ
æĹ ¢
æĮ Ĥ
æľº æ¢°
Ġ 2017å¹´
èĥ ¶
åĮĹ ç¾İ
éļ §
å¹³ éĿ¢
ä¸¤ ç§į
çĬ¶ åĨµ
æ¶Ī æģ¯
ä¹Ł åľ¨
éģĹ äº§
åı¬ å¼Ģ
è§Ĥ çĤ¹
å¾Ĺ ä»¥
å¤Ħ çļĦ
äº¤ æµģ
å¾ ª
è¡¨ æĺİ
æĦı ä¹ī
æĿĥ åĬĽ
æ°ĳä¸» åħļ
èĩª è¡Į
ä¸º ä¸Ģ
æĽ´ åĲįä¸º
åįĹ åĮĹ
å¼ ĺ
çľĭ åĪ°
åİ¿ äºº
åĭ ĥ
çŁ¥ éģĵ
æĮĳ æĪĺ
æķ° åŃĹ
èģĶ ç³»
èģĶåĲĪ åĽ½
çķ Ķ
åĽ¾ä¹¦ é¦Ĩ
ä¼ļ çļĦ
æħ §
ç¦ģ æŃ¢
æıĲ é«ĺ
åħ¥ éĢī
ä»ĸ æĺ¯
å§Ĩ æĸ¯
åĵģ çīĮ
æłĩ å¿Ĺ
åģ¥ åº·
æĭ ĵ
å² ³
åĪĽ éĢł
æ¬§ åħĥ
éĩĮ çļĦ
å± ¯
èĳ¡èĲĦ çīĻ
ç¥ Ŀ
4 2
Ġ 2016å¹´
è¢ ĸ
å¸ĥ æĭī
åıĳ çĶµ
å¤ıä»¤ æĹ¶
åľŁ èĢ³
ä¹ ¾
çº ·
å¤§ éģĵ
æ£® æŀĹ
æľī äºº
æķĪ åĬĽ
æĪ Ĵ
åŃĲ çļĦ
ä¹Ŀ å¹´
åıĳ èµ·
äººåı£å¯Ĩåº¦ æ¯ıå¹³æĸ¹åħ¬éĩĮ
åŃĹ æ¯į
æį Ĳ
åľŁèĢ³ åħ¶
æ° ¢
ç® ±
æ°´ å¹³
å¤± è´¥
å½ĵæĹ¶ çļĦ
å¸Ĥéķĩ ç¼ĸçłģä¸º
INSEE å¸Ĥéķĩç¼ĸçłģä¸º
ãĢ İ
å¹³æĸ¹ ç±³
åİĨåı² ä¸Ĭ
ãĢ ı
å¹¶ éĿŀ
åħ ½
çĳŀ åħ¸
åį ĳ
äºİ æĹ¶çļĦ
åĮ» åŃ¦
äºİæĹ¶çļĦ äººåı£æķ°éĩıä¸ºäºº
æ£ ĭ
éĢīåĮº ä¸º
ç¾İåĽ½äººåı£æĻ®æŁ¥ çļĦæķ°æį®
äººåı£å¯Ĩåº¦ä¸ºæ¯ı å¹³æĸ¹åįĥç±³
æĻ ĵ
èĢĮ äººåı£å¯Ĩåº¦ä¸ºæ¯ıå¹³æĸ¹åįĥç±³
å½ĵåľ° åħ±æľīäººåı£
æ²³ åĮĹ
åľ ³
åį ¿
æµ ħ
è¯¥ çľģä»½
æĪĸ æĹ§å¸Ĥéķĩ
å»¶ ä¼¸
çī¹ æ®Ĭ
å¼º è°ĥ
éħĴ åºĹ
çļĦ æĸ¹å¼ı
çľģçº§ éĢīåĮºä¸º
æīĢå±ŀçļĦ çľģçº§éĢīåĮºä¸º
å¸ĥ é²ģ
åį« çĶŁ
ãĢĭ ()
Ġ 2022å¹´
çľģ åĴĮ
çļĦ åİŁ
æľ¬ åľŁ
ç¼ĸ è¾ĳ
æĺ¯ä¸Ģ åĲį
è¯¥çľģä»½ ä¸ºæ³ķåĽ½
åĲİ èĢħ
ç¬¬ 2
å¥ĸ é¡¹
ä¸Ń å±±
18 7
å°Ķ çī¹
æķĻ åĮº
åĳ½ ä»¤
éľĢ æ±Ĥ
äºº å¤§
éģ¿ åħį
æĬ¥ å¯¼
åıĹ ä¼¤
èĲ¥ è¿Ĳ
ä¼° è®¡
è½° çĤ¸
ç¼º ä¹ı
è¿ħ éĢŁ
æĹ ¦
æıĲ åĲį
Ġ m
åħ¶ ä½Ļ
æµ· åŁŁ
äºİ19 4
æī °
å¸Ĥ çļĦ
åĽĽ ä¸ª
èĳĹ åĲįçļĦ
æĲ ¬
æ³¨ æĦı
æ¬¢ è¿İ
çĶŁ åĳ½
å¿ĥ çĲĨ
éļ§ éģĵ
æĶ¿ æĿĥ
éĥ Ĭ
åī ©
è¾¾ æĪĲ
åĲ¸ å¼ķ
çĹĩ çĬ¶
å®ī å¾·
æı Ĵ
é² į
åĸ Ģ
éĩĳ çīĮ
Ġ 4
è§Ħ åĪĻ
ä»ĭ ç»į
ä¹ĺ å®¢
å¤§ è¥¿æ´ĭ
æĸ¯ å¡Ķ
å¤ĸ åĽ½
éĩĳ èŀį
æķĻ ç»ĥ
æĿ Ĩ
æĴ¤ éĶĢ
çİ »
ä¾ ¦
æĪĲä¸º äºĨ
çļĦ ç¬¬ä¸Ģ
éľ ¸
ä¸ ²
äºº åĴĮ
ä¸» å¼ł
è´ ŀ
åı¯èĥ½ ä¼ļ
Ġ 2014å¹´
éĥ¨ èĲ½
å´ İ
æķ° åŃ¦
S A
å¹¶ å°Ĩ
èĢĮ è¢«
éĵ ¾
æĦŁ åĪ°
6 7
åħ¬ ä¼Ĺ
æ¬ ²
å½¼ å¾Ĺ
èĥ İ
ä¹Ł è¢«
äºĭ å®ŀ
å°Ķ åħ°
æķĻ å¸Ī
ä» ¿
éĩĩ åıĸ
ä½ĵ éķ¿
åħ¨ éķ¿
Ġ 2015å¹´
æµ ĵ
æİ¨ åĬ¨
è ¹
ä¹ĭ ä¸ĭ
ä¼ł è¯´
èµĦ è®¯
è´Ń ä¹°
åľ¨ åħ¶
çĲĨ äºĭ
ä¿¡ ä»°
15 0
æī§ å¯¼
æŀ ¢
é¼ ł
ä¸Ńåħ± ä¸Ńå¤®
æľ¬ èº«
çļĦä¸Ģ åº§
è¯ ¢
ä¼ Ļ
ç¥ŀ ç»ı
å½ »
èĽ ĩ
åį ĵ
æĸ¯ èĴĤ
æĶ¾ å¼ĥ
9 9
åıĪ åĲį
æķĻ åŃ¦
æľĢåĲİ ä¸Ģ
äº¦ æľī
" ,
åĨĽ çļĦ
æĴŃ æĶ¾
éĩį åºĨ
åįģ åŃĹ
âĢĿãĢģ âĢľ
æ³ķ æ¡Ī
æĽ´ å¤ļ
ç¨ĭ å¼ı
åıĤ èĢĥ
Ġ 2013å¹´
è¥¿ æĸ¹
è´¡ çĮ®
æĭ ³
ç½ĳ è·¯
åįĹ æŀģ
æīĵ åĩ»
åĩº æĪĺ
äºİ19 6
å£ ®
èĭ± éĽĦ
18 6
å®¹ æĺĵ
u l
Ġ I
ç¬ ĳ
åİ ĺ
æ³° åĽ½
ç§¯ æŀģ
is t
æĵ İ
å½ĵ å±Ģ
æĬĹ è®®
æĺ¯ä¸Ģ ä½į
åĸľ æ¬¢
åĽ½åĬ¡ éĻ¢
æı Ń
4 00
æĺ¯ æĹ¥æľ¬
åī ²
çİ° ä»»
äºĭ æķħ
ä¸¾è¡Į çļĦ
ä¹Ŀ é¾Ļ
å¤º å¾Ĺ
Ġ æŃ¤
çī ł
Ġ d
åħ¨ éĿ¢
äºİ19 5
è¯ģ æį®
æĢ§ è´¨
æİ¥ è§¦
åĲ¯ çĶ¨
äº Ń
éĺŁ ä¼į
æ´ Ĺ
åį ľ
è£ħ çĶ²
æī ®
åħ¶ å®ĥ
å° Ŀ
ç»ĵæĿŁ åĲİ
èµ Ĳ
çŁ¥ è¯Ĩ
å±Ĭ åħ¨åĽ½
çļĦ éĩįè¦ģ
ä¹Ł ä¼ļ
èĤ º
åĲİ æľŁ
å¼º çĥĪ
æ¹ĸ åĮĹ
å¤ļ ç§į
çª Ĺ
èĬ ³
æĮ ª
å®ī å¾½
å¦Ĥ ä½ķ
å±ķ ç¤º
an g
) ;
èĢĮ æĪĲ
çĸ ı
å¤į æĿĤ
æ¶ī åıĬ
åŃ¦ ä¼ļ
ä¸ĸçķĮ æĿ¯
çł ²
ä¸ĩ åħĥ
çŁ¥ åİ¿
å®Į æķ´
æ¼ĶåĶ± ä¼ļ
çļĦ æµ·
èı² å¾ĭ
åĴĮ åħ¶ä»ĸ
éĩĮ äºļ
èı²å¾ĭ å®¾
æĿ Ń
çĻ½ èī²
ç»´ å¥ĩ
ç¾½ æ¯Ľ
çİ Ħ
ä¸ĩ ç¾İåħĥ
åħ¬ ä¸»
çĪ± å°Ķåħ°
è´ «
åĩºçİ° åľ¨
èį¯ çī©
æĬ ¢
ç¾İ æľ¯
åħī ç»ª
éĩĮ æĸ¯
5 9
7 8
æĸĩ çĮ®
æĿĳ åºĦ
æĦı è§ģ
è± Ĩ
éĢ Ĵ
éĵ º
æ°ĳ éĹ´
ä»Ģ ä¹Ī
Ġ 6
æ¸ Ķ
çļĦ åľ°æĸ¹
å¼ķ æĵİ
éĢ Ĩ
åĨħ éĺģ
è¿Ļ æ¬¡
åŁĥ åıĬ
å¸Ĥ æ°ĳ
å£ ³
æĿĥ åĪ©
æĹħ å®¢
å« Į
Ġ U
åĢĻéĢī äºº
è´ ´
é«ĺ éĽĦ
5 6
æ¹ ¿
æĬ ½
é¢Ĩ åľŁ
çĬ ¬
å®¢ è¿Ĳ
çĪ¶ æ¯į
ç®Ģ åįķ
3 äºº
o b
å¾ĭ å¸Ī
å°Ķ çľģ
å°ı çļĦ
äºº å·¥
æº ¶
çº¢ èī²
æĿ° åħĭ
æİĪ äºĪ
æİª æĸ½
æĭī ä¸ģ
Ġ å¤§
éĽ ĩ
è¡¨ éĿ¢
çĮ «
Ġ 2023å¹´
å®ļ ä¸º
éĻ¢ éķ¿
ç®Ģ ä»ĭ
å¦ ĥ
ä¹¾ éļĨ
èŀ º
èĤ¡ ä»½
2 äºº
æķĪ æŀľ
çŃ¾ ç½²
åĩº éģĵ
èģ ĺ
è±¡ å¾ģ
å¯ Ħ
ç² ®
åıĳ åĶ®
èį£ èªī
N A
æĦı ä¸º
æĭī å¤«
å° ī
éĻį ä½İ
å£° ç§°
é£ ĵ
æ·± åľ³
æĤ ¬
å½¢ è±¡
åľ° éľĩ
åħĭ ç½Ĺ
äºļ åİĨ
ç¡® è®¤
ç¡® è¯Ĭ
åĽł ç´ł
ä¸ľ åĮĹéĥ¨
å· §
æĿ¥ åĪ°
ç¢ ³
æĮī çħ§
çĬ¯ ç½ª
é£ĵ é£İ
çĽ ¾
1 äºº
12 å¹´
çĪĨ çĤ¸
åı Ķ
è¿ Ł
éķ¿ åº¦
ä¹Ł åı¯ä»¥
åĮ» çĶŁ
é¢Ĩ è¢ĸ
ç«ŀ äºī
åľ° çĤ¹
çļĦ é«ĺ
è¢ ģ
çħ ¤
ä½ľ èĢħ
o k
å°Ĩ ä¼ļ
es t
å·® å¼Ĥ
è¢«è®¤ä¸º æĺ¯
ä¼ł æĴŃ
ç¨ ¿
å® ı
æ´ ģ
æĽ´ åĬł
ä¸ĵ éĹ¨
ä¸ Ī
æĸ ľ
æĸĩ åŃĹ
ä¼Ĭ æľĹ
åıĳ åĩº
åıĻ åĪ©äºļ
ä¸į æ»¡
å®ŀéĻħ ä¸Ĭ
ä¸ĵ å®¶
ç¾ Ĭ
åİĭ åĬĽ
åı¤ ä»£
æ°Ķ è±¡
ä¸ Ļ
å¯¹ æŃ¤
å·¥ åħ·
ä¹¡ è¯ķ
èµĦ éĩĳ
Â °
Ġ in
åı° åįĹ
åŁºçĿ£ æķĻ
æĪı åī§
çī µ
æ¯ĶèµĽ ä¸Ń
èĨ ľ
èħ ¾
5 7
èµ· æºĲ
= "
T V
æĬ ¼
å° ¸
8 8
é«ĺ äºİ
å°ļ ä¹¦
çļĦ ä½ľåĵģ
æ²³ çķĶ
æįŁ å¤±
: "
ï ½
åĨ Ĵ
å¡ «
ç»Ļ äºĪ
e g
å¤ļ å¹´
æľī ä¸Ģä¸ª
è¾¹ çķĮ
é³į é±¼
ä¸ľ æĸ¹
å¸Ī èĮĥ
çĸ¾ çĹħ
è¾ ©
çĽ¸ æ¯Ķ
åĿ¦ åħĭ
ç»ı éªĮ
ä¸Ģ å®ļ
è¡ į
çĹħ ä¾ĭ
å¥ ĳ
è£ ķ
éĴ ¦
æľī æīĢ
a v
ä½ľ æĽ²
çĲĥ ä¼ļ
ä¸¾ äºº
äº¨ åĪ©
ä» ĳ
åľ¨ æĹ¥æľ¬
è¡ °
å§ »
æłĩ ä¸º
199 8å¹´
çļĦ ä¸ī
åĩº å¸Ń
æ° Ł
ç½ ¢
æĺ¯ ä»¥
åĪĹ è¡¨
è¸ ª
éĢĢ å½¹
éĿ¢ å¯¹
å·¡ åĽŀ
t w
ä¸į ä»ħ
å½ĵ å¹´
å²ģ çļĦ
åĪĽ å»º
é¸ ¡
æĺİ æ²»
æĶ¹ åĸĦ
æĢ§ åĪ«
çĻ» éĻĨ
è¥¿ èĹı
èĮ Ĥ
ä½ı å®ħ
è ²
çĲ ī
ä¹ĭ ä¸Ń
æĶ¹ éĢł
çº¦ ä¸º
ä¸¤ å¹´
åı¸ æ³ķ
å¹¶ åħ¥
åĪĹ åħ¥
åĽŀ åºĶ
åħĭ èİ±
åĪ¶ çļĦ
ç«Ļ åı°
å® Ļ
çİĩ é¢Ĩ
éĤ£ éĩĮ
è´µ æĹı
6 6
èĪŀ åı°
è½¬ ç§»
199 9å¹´
ç±³ çļĦ
åľ° éĿ¢
ç¤¾ä¼ļ ä¸»ä¹ī
å¦ Ī
å®ŀ è¡Į
å£° æĺİ
åĨ¬ åŃ£
ç² ¹
ç§į æĹı
èĭ± å°º
e c
ä¸Ģ å®¶
çĶµ è½¦
æ¾³ æ´²
B C
èĤ ¥
åŁº åĽł
n d
åıĤ è°ĭ
åĸ ·
åħ³ éĹŃ
ç¬¬ åħ«
åĳ½ åĲįä¸º
æµ· æ´ĭ
èį Ĵ
æµģ åŁŁ
åĥ §
Ġ St
æĪĲ æľ¬
Y ou
åıĤåĬł äºĨ
è£ħ ç½®
å¥¹ åľ¨
æ ĩ
Ġ 2012å¹´
éģ µ
çĭ Ħ
5 4
ä¸Ģ åº§
å°ı åŀĭ
ç¤º å¨ģ
åį¢ çĵ¦å°Ķ
è¯Ń çļĦ
å½¢ æĢģ
çĸ« æĥħ
æµ ©
åħ¬åı¸ çļĦ
æīį èĥ½
åıĺ å¾Ĺ
å²ģ æĹ¶
ç¡ķ å£«
èĬ¬ åħ°
åľ¨ ä¸ŃåĽ½
é¸ ¿
å´ Ķ
çİĽ ä¸½
ç¬¦ åĲĪ
é©± éĢĲ
ä¸Ģ æĿ¡
æĦı æĢĿ
åĳ¨ å¹´
çļĦ åĽ½å®¶
æµ· å¤ĸ
åį³ ä½¿
é«ĺéĢŁ åħ¬è·¯
æľº åĻ¨
æµĭ éĩı
é³įé±¼ çº²
æŃ£ å¸¸
å¸ ħ
éĢļ è½¦
è¾ĥ ä¸º
èİ« æĸ¯ç§ĳ
æĸ° çĸĨ
å±Ģ éķ¿
å² Ĺ
æĥħ æĬ¥
åı¦ ä¸Ģä¸ª
é¥ Ń
éĻĦè¿ĳ çļĦ
é¡¾ éĹ®
å¯¹ è±¡
å¼Ģ è®¾
çĶµ åĬĽ
èĭı æł¼åħ°
å¼ ¥
éħį åĲĪ
é£Ł çī©
æ·· åĲĪ
æĢ Ĵ
åĩº æĿ¥
ä¿® æĶ¹
C D
æ¶ µ
å§Ķ ä¹¦è®°
æĶ¶ è´Ń
æĻļ ä¸Ĭ
Ġ èĩª
åı°åĮĹ å¸Ĥ
åĵ² åŃ¦
ä¿ ĺ
å¾Ī å¿«
æķ´ ä½ĵ
è¾Ĳ é³įé±¼çº²
èĢ Ĺ
çģ« ç®Ń
å¹¶ ä»¥
åĩł ä¸ª
éĻĨåľ° éĿ¢ç§¯ä¸º
çŁ¥ åĲį
åĪĨ éħį
æ°´åŁŁ éĿ¢ç§¯ä¸º
3 ä¸ª
æ¬ £
10 å¹´
æ¶ ¦
åıĳçİ° äºĨ
æī© å¤§
u p
åŁĥ å°Ķ
åŃ ¤
éħį éŁ³
èĢ Ģ
5 2
å¼Ģ éĢļ
å·¥ äºº
åĮĪ çīĻ
æŃ ĩ
æ¯Ķ ä¾ĭ
çŁ ¶
çĭ Ĥ
æ³ķ å®ĺ
ä¸ľ åįĹéĥ¨
al l
äº¿ åħĥ
èµ ¶
å¯¼ å¼¹
æĮª å¨ģ
åĮĪçīĻ åĪ©
åľ¨ è¯¥
ä¹ĭ åŃĲ
èĢĮ è¨Ģ
åĤ ħ
çļĦ åİĨåı²
çļĦ ä¸Ń
å¢ŀ éķ¿
Ġ 19
ç¥ Ģ
æĥ ¯
è£ħ å¤ĩ
çĭ ®
å¹¿ä¸ľ çľģ
éĻ Ģ
åº· çĨĻ
å¯ ¸
ç¿ Į
ï½ ŀ
ä»» èģĮ
è¯· æ±Ĥ
åĲĮ çĽŁ
æıĲ åĪ°
æµ· å³¡
æģĲ æĢ
i k
çĶ¨ ä½ľ
åĬ¨ ä½ľ
åŀ Ĥ
æĪĺ çķ¥
ç¥¨ æĪ¿
å½ĵä¸Ń éĻĨåľ°éĿ¢ç§¯ä¸º
èĢĮ æ°´åŁŁéĿ¢ç§¯ä¸º
ç§ĺ å¯Ĩ
éĥ¨ çļĦ
å¤ª åŃĲ
èĦ Ĥ
å¤ ·
åİ ¢
çĶŁ çļĦ
ä¸ĭ éĻį
æŁ Ķ
ç§ģ äºº
ä¸ĭ æĿ¥
ç² ¤
äºļåİĨ å±±
éĹ´ çļĦ
18 å¹´
æŃ¦ æ±ī
æĤ ī
å¸ĥ å°Ķ
ç¼ħ çĶ¸
åįİ çĽĽ
çĭ Ĺ
éĢĢ ä¼ĳ
i p
e b
åĩº æ¼Ķ
å§ ļ
èµ· ä¹ī
åĽŀ å½Ĵ
æ» ļ
æŃ¥ åħµ
è¦Ĩ çĽĸ
; -
Ġ è¡ĮæĶ¿åĮºåĪĴ
9 8
e w
ä¸Ĭ åįĪ
è¯´ æĺİ
ç¼ĸ åī§
ç¢ İ
7 6
éĢ ¢
è§Ĥ æµĭ
åħ« å¹´
ä¸ŃåĽ½äººæ°ĳ è§£æĶ¾åĨĽ
æľĢ è¿ĳ
éĩį å¤§
çĮ Ľ
åĬ³ åĬ¨
æī¾ åĪ°
ä¸º è¾Ĳé³įé±¼çº²
O S
ç¬¬ 3
ä½ĵéķ¿ åı¯è¾¾
5 3
æ·± åº¦
çģ Į
æİ¨ è¿Ľ
åįİçĽĽ é¡¿
è¢« è¿«
é¢Ħ è®¡
å½ °
èĬ Ĵ
åĲĪ çº¦
åĬŀ äºĭ
åħ´ è¶£
çļĦ éĹ®é¢ĺ
æĳ ĩ
å¥¥è¿Ĳ ä¼ļ
åĪ ¸
çľŁ æŃ£
ç»ı åħ¸
åįģ ä¸ī
é©¬ å°Ķ
è¯ķ éªĮ
åº ŀ
ç»Ħ å»º
åĳ¨ åĽ´
el l
é£İ éĻ©
æºĲ èĩª
å°Ŀ è¯ķ
ç¾İ åĨĽ
ä¿Ŀ åŃĺ
ä¸º æŃ¢
åĬł çĽŁ
å¼ķ åħ¥
æĬķ éĻį
éĺ² å¾¡
å¾¡ åı²
åľ° åĽ¾
æłĸæģ¯ åľ¨
å¹¿ è¥¿
æ» ©
èĬ± åĽŃ
æĿĢ æŃ»
i f
ä¸Ń æľī
ç¬ ¼
å» Ĭ
åĮĹ èµ·
Ġ 2024å¹´
ä¼ ª
åĳ İ
åģ ·
å²Ľ å±¿
åĬ¿ åĬĽ
âĢ¦ âĢ¦
éĺ ª
åĮĹäº¬ å¸Ĥ
Ġ æĽ¾
çļĦ æĹ¶éĹ´
æľ¬ ç«Ļ
èį Ĳ
éļı åį³
å¥ İ
è´£ ä»»
Ġ ä»İ
ä»£è¡¨ å¤§ä¼ļ
å¤§ è§Ħæ¨¡
éĢ »
ä¸İ åħ¶ä»ĸ
èĤ ĸ
199 7å¹´
å£° éŁ³
( ).
Ġ w
ä»¥ åīį
éħ ¶
æĹĹ ä¸ĭ
å¸¦ æĿ¥
è®º æĸĩ
çļĦæĥħåĨµ ä¸ĭ
çĶ¨ éĢĶ
199 6å¹´
çĶŁ æĢģ
199 2å¹´
åĽ½å®¶ éĺŁ
çı Ĭ
ar t
ä¾ ł
ç»ĦæĪĲ çļĦ
Ġ 5
4 3
å¯¹ å¤ĸ
æ¸© åº¦
è®² è¿°
åĲ ¾
äº¿ ç¾İåħĥ
çħ§ çīĩ
B A
e p
çļĦ æĶ¯æĮģ
æŀ Ŀ
è¿Ĳ ä½ľ
ä¿ĥ è¿Ľ
ä»£ çłģ
7 7
å¯¹ åºĶ
ä¼ĺ åĬ¿
è½¯ ä»¶
å¾Ĺ çŁ¥
è§£ æķ£
æľĢ å¤ļ
æ¹ ĺ
ç¿ ģ
ä¸¤ æ¬¡
æĮĩ å¯¼
è°Ī åĪ¤
çĴ ĥ
an t
èµ ĭ
åįģ åħŃ
å¤« äºº
éļľ ç¢į
å¨ ĥ
åĵ¥ ä¼¦
å¤ıåŃ£ å¥¥æŀĹåĮ¹åħĭè¿ĲåĬ¨ä¼ļ
å¹´ é¾Ħ
åĲį ä¹ī
æŀĦ éĢł
éĺ Ķ
ç»ı çĲĨ
çļĦ å¤ĸ
èĥ ¸
çļĦ å·¥ä½ľ
å¼ ¦
åı° ä¸Ń
æģĲæĢ ĸ
éŃ Ĥ
éļ¾ ä»¥
åį µ
æł ı
æĮĩ æİ§
ä¸ĩ åİĨ
ä» ĩ
åľ¨ å¤§
äºĨ è§£
h a
Ġ æ¦Ĥ
åİĨ ä»»
åĲ Ĳ
è¢« è§Ĩä¸º
ä¸Ĭæµ· å¸Ĥ
çļĦ å±±
æľ ´
è¥¿ åįĹéĥ¨
é©¬ æĭī
æ¯ķä¸ļ åĲİ
é©¾ é©¶
ä»ĸ è¿ĺ
éĤ£ äºĽ
åĲ ı
ä¸ī è§Ĵ
åı ł
æ· ĺ
194 5å¹´
åħĭ æĭī
éĤ ¨
han s
çļĦ åıĳå±ķ
æ³¨ åĨĮ
å©ļ å§»
Ġ 2011å¹´
å®ĩ å®Ļ
ind ow
æī® æ¼Ķ
è¥¿ å®ī
çŃī çŃī
ç½ĳ çĲĥ
h k
Ġ f
4 1
å± ł
åĮĸ çŁ³
æĳĦ å½±
19 å¹´
ç¡ «
éĩı çļĦ
åĬł å¼º
æ¬¡ å¹´
198 8å¹´
èħ Ĳ
éĶĻ è¯¯
å¹´ ä»£
æĲ º
åĨĽ åĮº
èĪ ±
åı° é£İ
æ·¡ æ°´
è¯¥ åľ°çļĦ
å½ ¦
å¤ª ç©º
Ġ 10
å®¶ äºº
æŁı æŀĹ
é¢ľ èī²
åįģ äºĶ
èĦ Ĭ
æľį å½¹
åľ¨ é¦Ļæ¸¯
å®¶ çļĦ
åĲĪ æĪĲ
éĻĨ ç»Ń
éĢ ®
è² Į
199 4å¹´
åĺ ´
A R
åİŁ ä½ı
é¹ °
ä»ĸ è¢«
éĢĢ åĩº
7 9
åįĹ éĿŀ
B S
åĬł åĪ©
éĢļ éģĵ
Ġ 2010å¹´
æĶ¿ åįı
åŀĭ çļĦ
u d
æŃ §
åįĹ æĸ¹
éļ¶ å±ŀ
äºİ19 3
åħĭ çļĦ
æĹ ¬
è¥¿ åĮĹéĥ¨
ç³»ç»Ł çļĦ
il l
æĶ¿åºľ çļĦ
å¸¦ æľī
ç¨ į
æ±Ł è¥¿
åı ī
ä¸º 1
194 9å¹´
çĲĥ åŃ£
ä»· æł¼
éĩĬ æĶ¾
ï¼ ı
å®ļ å±ħ
6 9
ä¹Ĳ éĺŁ
A M
çļĦ æķħäºĭ
å¤§ èµĽ
åĳĪ çİ°
ä¸Ģ èĩ´
ä½ľ åĩº
çĽ¸ ä¿¡
é¦ĸ åħĪ
å¨ ĺ
ä¿Ŀ ç½Ĺ
q u
åĪ ·
ç¿ ł
åħ¼ ä»»
éĹ ½
æģ °
æİĴ è¡Į
Ġ çļĦæĹ¶åĮºä¸º
Ġ äºİæĹ¶çļĦäººåı£æķ°éĩıä¸ºäºº
Ġ æīĢå±ŀçļĦçľģçº§éĢīåĮºä¸º
æīĢ å±ŀ
éº¦ åħĭ
éĺ¶ çº§
Ġä¸İ æİ¥å£¤çļĦå¸Ĥéķĩ
ĠçļĦ éĤ®æĶ¿ç¼ĸçłģä¸º
ä¸¤ åĲį
èĿ ¶
ct ion
æ¸¸ æ³³
ä»»åĳ½ ä¸º
æĬĹ æĹ¥
æı ¡
çĽ¸ äºĴ
åħ³ éĶ®
ç«ĭ åį³
éĢļ è®¯
ç¯® çĲĥ
èĸ Ħ
åĮĹ æµ·
éªĳ å£«
èĩª èº«
åĿ ª
æ¯Ķ å¦Ĥ
æ· »
éªĳ åħµ
åį± æľº
å© Ĩ
æĸ¯ æŀĹ
éĽ Ģ
å¸¦ é¢Ĩ
éĵ Ń
æĹ¶æľŁ çļĦ
Ġ 192
åİŁ åŃĲ
ä¿® å»º
ä¸° å¯Į
1 æľĪ1æĹ¥
Ġ 201
å¿ §
è¶ ĭ
ä¼ĺ ç§Ģ
éĨ Ĵ
ç¬¬äºĮæ¬¡ ä¸ĸçķĮå¤§æĪĺ
å· «
å¤§ èĩ´
æ· ®
å±ķ è§Ī
æĸ¹ è¨Ģ
å¯¹ æĬĹ
éĢī ä¸º
4 äºº
è®¡ç®Ĺ æľº
åĨħ éĻĨ
ä¾Ľ åºĶ
çľŁ å®ŀ
è¯ ı
éĿŀ å»ºåĪ¶
æĦı å¿Ĺ
é¸ £
ç¾½æ¯Ľ çĲĥ
é»ĳ èī²
è¾ĵ åħ¥
ä¼Ĺ å¤ļ
éĺŁ éķ¿
èīº äºº
ä»ĸ ä¸İ
åĮĹ æĸ¹
ä¸Ģ çº§
ä¸Ĭ è¿°
åĽº å®ļ
åħ· ä½ĵ
æİ ĺ
en d
åĪĨåĪ« ä¸º
Ġ 8
åį° å°¼
ä»£ çĲĨ
å·ŀ åºľ
æľĿ å»·
éĺ ®
åħĪ çĶŁ
æ´¾ éģ£
å µ
198 9å¹´
å¾Ģ å¾Ģ
æ£Ģ æµĭ
å§ ¬
éĥ½ å¸Ĥ
å¯» æī¾
C O
a in
é»Ħ éĩĳ
éĿŀå»ºåĪ¶ åľ°åĮº
Ġ and
18 5
ä»£è¡¨ åĽ¢
çªģ çł´
é¼ »
9 5
Ġ ä»¥ä¸ĭ
é¢Ĩå¯¼ äºº
ä½Ĩ çĶ±äºİ
çģ« å±±
Ġ åĴĮ
çī¹ èī²
åįĹ èĩ³
çĽĳ çĿ£
åĹ £
6 2
å¼Ģ å±ķ
æĦ Ī
æĿī çŁ¶
å·² è¢«
æ³¢ æĸ¯
ä¾ĭ åŃĲ
æ´Ľ æĿīçŁ¶
æ° ¯
ä¸¤ åĽ½
æĽ´ ä¸º
çĻ» ä¸Ĭ
çĶµ è¯Ŀ
å½ĵ å¤©
æĸ ¤
æĹ¥ æĬ¥
å±± è¥¿
åĦ Ĵ
åħ Ĩ
èĭ ĳ
åľº çļĦ
10 00
çªģ çĦ¶
å®ŀéªĮ å®¤
èĮ µ
ä¾Ŀ æį®
çļĦ çĶµå½±
è¡Į çļĦ
åģ ¿
Ġ å®¶æĹı
ä¸º 2
åħ¬ çĪµ
æĳ Ĩ
ä¸¹ éº¦
å°¼äºļ å·ŀ
åį Ĵ
æ± ª
ä¸ī ä¸ĸ
åĽ½å®¶ çļĦ
199 3å¹´
çĽ¸åħ³ çļĦ
åĲĽ ä¸»
å¯ ¨
åĨĽ å®ĺ
åĳĺ å·¥
: ),
å¤§ å¤ļ
199 5å¹´
çī¹ å®ļ
å°ĳ å¥³
å¦ĩ å¥³
æ²¿ æµ·
h t
çļĦ åĲĮ
æĺİ ç¡®
å°± ä¼ļ
6 00
æĪ¿ å±ĭ
éĢ® æįķ
åı² ä¸Ĭ
199 1å¹´
on g
è½¬ åĲĳ
ä¸»è¦ģ çļĦ
æī© å±ķ
4 ä¸ª
å¤ ķ
å¤§ æ¡¥
ä¾ ¨
å°¼ åħĭ
èµĦ äº§
èĦ ı
ä¸Ģ æ®µ
éĻ ¨
å®ĥ æĺ¯
Ġ éĺ¿
æľº åĪ¶
éĵľ çīĮ
è¯ģ å®ŀ
ä¸İ åħ¶
åĪ¶ å®ļ
ç»Ŀ å¯¹
e x
åĬ Ŀ
å¤§ å¥ĸ
åĩ Ģ
ä¸ Ľ
è¾ °
18 0
æ£Ģ æŁ¥
å¤§ åİ¦
ç§ĳ å¤«
äºļ ç¾İ
5 1
åĮĸ åĲĪçī©
Ġ In
ç² Ĺ
åĲ¯ åĬ¨
Ã ©
æŃ¤ æ¬¡
æ³ķåħ° è¥¿
åĪĨ ç¦»
è§Ĩ é¢ĳ
éĵ ¸
çī¹åĪ« æĺ¯
Ġ 7
åľ¨ äºİ
åī§ æľ¬
ç´§ æĢ¥
è¯Ħ ä¼°
åĿĩ ä¸º
Ġ zh
åĨľ æ°ĳ
åĵ¥ä¼¦ æ¯Ķäºļ
åĬł æĭī
æ¶ Ĥ
ä¸ ĳ
ä¸»è¦ģ æĺ¯
ä¸Ĭ æľī
ä¿Ŀ å®Ī
ä¹ł æĢ§
èĲ¨ æĸ¯
åī§ éĻ¢
åºŁ éĻ¤
åĬ «
198 5å¹´
199 0å¹´
åŁºéĩĳ ä¼ļ
çŁ ©
åľº æ¯ĶèµĽ
åĢ ¡
ä¹ĭ æĪĺ
æī «
è´ ©
èĢĮ éĿŀ
æ± °
åįģ åĽĽ
è´¨ çĸĳ
çŃ¾ è®¢
ä¸Ń è¢«
çİ° ä»Ĭ
æ± Ģ
åĨĽ åĽ¢
åİŁ åĪĻ
å½¢ å®¹
éĻķ è¥¿
ä¸ĭ ä»¤
éĦ Ĥ
åı· çļĦ
å¼ ¯
åŃ¦ å£«
ç±³ äºļ
åĬª åĬĽ
2 ä¸ª
åĲİ ç»Ń
åħ¶ä¸Ń åĮħæĭ¬
ç»Ļ äºĨ
ä¼ļ éķ¿
ç»´ æĬ¤
å¸Ń ä½į
çīł ä»¬
a st
æĭ ĺ
éĽ Į
çŃī ä¸º
åįĩ çº§
é© ³
æĮĩ å®ļ
æ½ Ń
é¾ Ł
æıĲä¾Ľ äºĨ
éĺ» æŃ¢
èĥ½ éĩı
åŁİ åł¡
èģĮä¸ļ çĶŁæ¶¯
åįİ äºº
ä¿Ŀ éļľ
er s
æĥħåĨµ ä¸ĭ
åĭĭ ç«ł
çļĦ ç¬¬
æłĩ æľ¬
ç©Ĩ æĸ¯æŀĹ
åĽ° éļ¾
æŃ» åĲİ
198 4å¹´
çļĩ åĲİ
è¿Ļæł· çļĦ
ç§ĳ åŃ¦éĻ¢
æ¶ Į
äºļç¾İ å°¼äºļ
Ġ 2008å¹´
æĹ¶ æ®µ
æĺ¯ä¸Ģ é¢Ĺ
åħ¶ä¸Ń ä¸Ģç§į
é¦ĸ ä¸ª
åł ª
ç£ ¨
å¥¥ å°Ķ
ç§į åŃĲ
çł ĸ
èĲ¨ å°Ķ
èĵ ¬
éĨ ĩ
å¯ Ĵ
åĪ© çĽĬ
é©¬ éĩĮ
çķĻ ä¸ĭ
äºĮ äºº
äº¦ æĺ¯
æ»¡ è¶³
2020å¹´ ç¾İåĽ½äººåı£æĻ®æŁ¥çļĦæķ°æį®
å¤§åŃ¦ çļĦ
åĺī éĿĸ
å¿ ½
æĥ Ł
åĢ º
es s
o v
æīĭ æľº
åĬ© çĲĨ
å»¶ éķ¿
ä¸» åĬŀ
å¾· çļĦ
åıĤ éĢī
æķ ¢
Ġ æĹ©å¹´
åĬł å·ŀ
çļĦ ä¸¤
æĶ¶ è§Ĩ
åĪº åı²
å° ¹
å¼Ĺ æľĹ
åħ¬ å®ī
ä¹Ł ä¸į
åĳ¨ æľŁ
èĮĥåĽ´ åĨħ
åı¦ æľī
æ¶Ī è´¹
ä¸Ń éĹ´
å¥ Ķ
æľ¬ åľ°
çļĦ åħ³ç³»
ä»¥ å¤ĸ
åĭ Ł
æ°Ķ æĹĭ
ä¸Ń æľŁ
æĬ ĳ
è®¾ å®ļ
ç»´ æĸ¯
æº ¯
æĽ´ æĸ°
ä¸ĸçķĮ ä¸Ĭ
åľ¨ åĨħçļĦ
å¤§ å¹ħ
å¤į åħ´
éĹ ª
å¹¶ ä¸İ
ä»¤ äºº
åĬŀäºĭ å¤Ħ
èº« ä¸º
çº³ ç²¹
æ´» è·ĥ
ä¿® æŃ£
éĤ» è¿ĳ
æĺİæľĿ æĶ¿æ²»äººçī©
n e
ä¸ľ ä¸´
ç©º æ°Ķ
åıį æĺł
çļĦ æ°´
é¢ ĩ
åİŁ åĲį
é¤Ĳ åİħ
èĩ³ äºİ
å½¢ çĽ®
æī ¶
ä¸Ĭ ä¸ĭ
åĳĬ è¯ī
198 6å¹´
ç¢ Ł
æļ´ åĬĽ
- -
s p
æĻĭ çº§
1 ä¸ª
A C
la y
ac k
Ġ 2009å¹´
åįı è°ĥ
çİ» çĴĥ
å½ķ éŁ³
æĤ ²
ä¸į åĪ°
åħļ çļĦ
r an
è Ł
å¾· å°Ķ
çİ° å®ŀ
ä¼ł åªĴ
ç¿ ħ
çĽĳ çĭ±
00 å¹´
æĭ ¼
æĭ ĸ
åĩº åıĳ
åĪ© æĸ¯
ä¼ļ ä¸Ĭ
æİ¥ æĶ¶
ä¹¦ éĻ¢
åħ¸ ç¤¼
èķ ¾
æ·ĺ æ±°
æĹ¥ æľŁ
ä»Ĭ å¤©
éĢ ¼
åİŁ å§ĭ
æ¸ħ åįİ
åįģäºĮ å¹´
åİŁä½ı æ°ĳ
åįĩ ä»»
éĵ¶ çīĮ
é£Ł åĵģ
19 ä¸ĸçºª
æĸ¯ é¡¿
èģĮ ä½į
æĸ Ĳ
å¯ ĵ
åıĳ æĺİ
8 5
ç«ĭ æĸ¹
ä»ĸ ä¹Ł
å¸ĥ èİ±
æĹ¥ æ²»
æĳ §
æĤ£ èĢħ
å· ¢
å·² æľī
ç¡®è¯Ĭ çĹħä¾ĭ
åħį è´¹
ç¨ »
or t
é±¼ ç±»
äºļåİĨå±± å¤§
åľ¨ ä¸Ģ
æİ¨ å¹¿
å½ĵåľ° çļĦ
æı´ åĬ©
i an
e v
è¿ĳ å¹´
åĨľ æĿĳ
çļĦ è®¾è®¡
äº² çİĭ
E D
åº¦ çļĦ
è¥¿ åħ°
ç»´ åŁĥ
èĢĥ åı¤
Ġ å½ĵ
èĢĮ ä¸įæĺ¯
åī¯ ä¸»ä»»
äº§çĶŁ çļĦ
æľī æľº
å¼ł ä¸ĵè¾ĳ
åĿ Ŀ
ç¥ ł
çĻ Į
198 0å¹´
ç«ŀ éĢī
6 3
åī¯ ä¸»å¸Ń
æĺ¾ èĳĹ
åľ¨ ä¸Ń
çĶŁ æĪĲ
çĶ± æŃ¤
åı¸ é©¬
ç» ³
æīĢ è°ĵ
çĲ ¼
å¿ į
å¹³ åİŁ
å¤© çļĩ
æĶ¹ åĲįä¸º
åħ¬åħĥ åīį
ä¾Ŀ çĦ¶
åĸľ åī§
æł ĭ
è£ħ é¥°
æĺŃ åĴĮ
çĲĨ è§£
åıĳåĬ¨ æľº
ç§° ä½ľ
è½¬ æį¢
é¾Ļ æ±Ł
17 9
åį± éĻ©
æĺ¯ å¾·åĽ½
ç»Ī äºİ
åľ Ń
ä¸Ģ è¯į
å±± åĮº
éĤ£ ä¹Ī
Ġ 2025å¹´
æ¸¸ è¡Į
éĿł è¿ĳ
å¿ Ļ
ç©º ä¸Ń
é¹ ¤
1 20
çļĦ æĪĲåĳĺ
å®Į å·¥
è´§ å¸ģ
ä¿® å¤į
éļĶ ç¦»
åĩ Ŀ
7 2
åľ° å¸¦
ä¸Ī å¤«
A l
æł¡ åĽŃ
ç¡® ä¿Ŀ
ä½ĵèĤ² åľº
2001å¹´ äººåı£
è¿Ľ æŃ¥
èĥ½ æºĲ
éĩĩ è®¿
è¿Ĳ çĶ¨
æīĢæľī çļĦ
å¤ļ å°Ķ
äºĶ æľĪ
æīĵ ç®Ĺ
198 3å¹´
æ½ľ èīĩ
çĿ ¡
å¢ŀ å¼º
æľ¬ çīĩ
å¾· åįİ
i ve
çŁ Ľ
èĴ ¸
18 4
æ°´ åºĵ
åĽĽ åįģ
æ¯ĶåĪ© æĹ¶
ä¼ļ åĳĺ
åį¡ ç½Ĺ
çłģ å¤´
ä¹ī å¤§åĪ©
é² ¤
æĴ° åĨĻ
èĻ ¹
å¯¹ æĸ¹
å¾Ĺ åĲį
éĢļ ä¿¡
æĭ¿ ä¸ĭ
æł ½
æ³ķ çļĦ
æĸ¯ æĭīå¤«
æī§ æĶ¿
éĢĤ åĲĪ
æĭĨ éĻ¤
å§ Ĭ
æĸ¯ æīĺ
ä¹Ł å°±æĺ¯
å»ºç«ĭ äºĨ
è©¹ å§Ĩæĸ¯
èĴĻ çī¹
åĲ ģ
æ´¾ åĩº
Ġ ç¾İåĽ½
èµĦ æľ¬
çŁ³ æ²¹
å±±ä¸ľ çľģ
å¤§ ä¼Ĺ
èĢ Ĳ
æ³¢ ç½Ĺ
198 7å¹´
åĨħ æĪĺ
ä¹¦ ç±į
åĬŀ çĲĨ
åĪĻ ä¸º
æĮĩ ç¤º
E R
åĽ´ ç»ķ
I S
Ġ ç¬¬
åī Ĭ
å¸Ĥ ä¸Ńå¿ĥ
å¼ı çļĦ
ç¿ Ķ
8 7
Ġ æĸ°
ä½Ľ ç½Ĺ
è´µ å·ŀ
I C
è®¤ è¯Ĩ
å»ºçŃĳ çī©
çķĻ åľ¨
æ³ ¡
æĪĲ å¹´
æ³ķ åºŃ
å¤© çĦ¶
åİĺ ç±³
åĩº åħ¥åı£
6 1
r ic
æĺ¯ä¸Ģ åº§
èĸ Ľ
æİĪ æĿĥ
åľĨ å½¢
é¦ĸ çĽ¸
æĶ¹ åĪ¶
ç®¡çĲĨ å±Ģ
Ġ åħ¶ä»ĸ
äº ¥
ä¸Ģ æŀļ
åł Ĩ
è¾¹ å¢ĥ
æĿĢ å®³
ç»¿ èī²
èĩª æĿĢ
å°Ĩ åľ¨
éĶĢ éĩı
å¸¸è§ģ çļĦ
Ġ Ch
A P
200 0
æĶ¶ éĽĨ
ãĥ »
èĢĮæ°´åŁŁéĿ¢ç§¯ä¸º 0
Ã Ĺ
éĹ ¸
æĦı åĳ³
çĽ Ĩ
æĺİ æĺŁ
åĲĦ èĩª
è¾½ å®ģ
Ġ 9
ä»¥ åįĹ
åĪĨ æĶ¯
æĢģ åº¦
æľĢ ä½İ
16 0
å¤§ éĢī
ä¸ŃåĽ½ çļĦ
è®° å¿Ĩ
un d
åĿļ æĮģ
åĲī æŀĹ
åĪĨ è£Ĥ
åĲĮ æĢ§
æł¼ æĭī
éķ¿ å®ĺ
å¤« åį¡
çĬ¹å¤ª äºº
8 9
æĸ ĭ
èŃ¦ åĳĬ
6 äºº
è¾¾ å°Ķ
ä»Ĭ æĹ¥
ä¸ĭè¾ĸ çļĦä¸Ģä¸ª
æĬ ĵ
æ± Ŀ
åĽ½æ°ĳ æĶ¿åºľ
1 ä¾ĭ
èģĶåĲĪ ä¼ļ
èĥ º
å®¶ ä¸Ń
å¹³ æ°ĳ
æŁ´ æ²¹
åĲĦ ç±»
æĹ¨ åľ¨
èĪ Ł
ç§ĳ åŃ¦å®¶
Ġ n
èĢĮ è¯¥åľ°
è¿ŀ ä»»
æµĻæ±Ł çľģ
çļĦ åĲİ
çİĩ ä¸º
å¼Ł å¼Ł
å¹¶ è¢«
å¿ħ è¦ģ
åĪĨåĪ« æĺ¯
ä¸ ŀ
çŃī çº§
æł ª
åı¯ä»¥ åľ¨
å± Ī
ä»¥ ä¸º
å¥¹ ä»¬
çļĦ äºĭ
æĶ¯ æµģ
Ġ é¦Ļæ¸¯
åī§ éĽĨ
æĹħ è¡Į
âĢ Ļ
åħĭ æŀĹ
è¿Ļ é¦ĸ
äº² èĩª
198 2å¹´
æĪĲç«ĭ çļĦ
æ¯Ľ æ³½
ç¤ ģ
èİ± èĮµ
æ»¨ æµ·
æĺ¯ é¦Ļæ¸¯
æĬ ±
äº¤ æį¢
æĭ ¨
é»Ħ èī²
éĴ »
è§Ħ èĮĥ
5 äºº
æĸ¯ æ´Ľ
å´ ©
i v
Ġ ä»ĸ
Ġ æĪªèĩ³
å¹ ½
æ¶Ī å¤±
å® °
é»ĳ é¾Ļæ±Ł
çł Ĥ
å°¤åħ¶ æĺ¯
èĪª å¤©
åįł åľ°
ä¸º æŃ¤
å·¥ç¨ĭ å¸Ī
è¿Ŀ åıį
åĳ¼ åĲģ
æĳ§ æ¯ģ
ä¸Ĭ å¸Ĥ
çº§ åĪ«
æĦŁæŁĵ èĢħ
19 20å¹´
æĦı å¤ĸ
8 00
ç§į æ¤į
â Ķ
çĭ ¼
æĶ¶ èĹı
çŃ¾ çº¦
è¿ ¦
åľ¨ 197
æ¬§ çĽŁ
æºĲ äºİ
Ġ åī§æĥħ
åı¸ä»¤ éĥ¨
åŃ¦ çļĦ
éķ¿ åŃĲ
Ġ 2007å¹´
åįĩ ä¸º
æĺ¯ä¸Ģ éĥ¨
c e
æ ª
èĭ± åĨĽ
åį¡ æĭī
åĲī å°Ķ
å°¼ è¥¿äºļ
m an
éĻ ª
å¾· æĭī
è½¦ åİ¢
è¯¥ æĿĳ
æł¡ åĮº
æ³¢ å°Ķ
å© ´
ä»¥ åĮĹ
çī¹ éĩĮ
æ¸¯ åı£
æ¦ Ħ
ä»» æľŁ
å¦ Ļ
å®ī å¨ľ
å¾Ī å¤§
195 0å¹´
æ¯Ľæ³½ ä¸ľ
åħ¶ å®ŀ
æŃĮ è¯į
èĦ ¸
å¾ª çİ¯
åį ¸
in e
å°Ħ åĩ»
å¯¹ åħ¶
è¿Ļ éĩĮ
å¾Ĺ åĪ°äºĨ
ç§ĺä¹¦ éķ¿
Ġ æŃ¤å¤ĸ
æĬ «
åı¤ åħ¸
èµ° åĲĳ
äºļ åĨĽ
æİ¥ æĽ¿
é¦ĸ åºľ
æ¼Ķ å¥ı
èĳ£äºĭ éķ¿
J R
b er
çļĦ åĦ¿åŃĲ
ä¼ ½
æĢ§ èĥ½
é©¬ æĸ¯
åľº æīĢ
çĭ Ń
ï¼ ħ
é¡º åĪ©
I D
åĴ ĸ
å®¡ æŁ¥
å¤§ å°ı
éĺ² æŃ¢
çĶŁæ´» ä¹łæĢ§
åĮº è®®ä¼ļ
ç¦ ħ
å¼º åº¦
åĽ ļ
é¦ĸ ä½į
å¯ ®
æĪĲ éķ¿
è¢ ĭ
å·ŀ åĪºåı²
ç¥ŀ è¯Ŀ
ä¸»ä¹ī èĢħ
å« ģ
å¤§ åį«
ç«ĭ åľº
7 4
äºĮ æĪĺ
ä» ķ
éĥ¨ çĶµå½±
ç´¯ è®¡
âĶ Ģ
çļĦ éŁ³ä¹Ĳ
æĭ ±
å¸Ĥ æĶ¿åºľ
çī¹ æĭī
éĢĶ ä¸Ń
è·Ł éļı
å® Ľ
éĽ į
å¾Ĺ ä¸»
é¢Ĩ äºĭ
åķĨ åĵģ
åįģ ä¹Ŀ
åŁ¹ è®Ń
ä¸» åľº
é¦ĸ å¸Ń
æıĲ åıĬ
A N
æķ° ä½į
åĲĦ åĽ½
(, ;
ç¼© åĨĻ
çĤ ī
åıĹ æ¬¢è¿İ
æł¹ å»·
O N
çļĦ éĥ¨åĪĨ
çļĦ ç¬¬äºĮ
ä¸¤ èĢħ
é¦ĸ æĴŃ
ä½Ĩ ä»ĸ
å¸ĥ éĩĮ
æ±Łèĭı çľģ
æĪĲ äºº
èĤ Į
åģľ éĿł
7 äºº
çļĦ å¥³
åĲ ¹
å°¼ å°Ķ
ä½¿ åħ¶
1 Ġ
ä¸º åħ¶
çĤ¹ çļĦ
éĿ¢ ä¸´
éķ¿ æ±Ł
éĻ· åħ¥
çĶŁæ´»ä¹łæĢ§ ä¸įæĺİ
è¾ Ł
å¾· è¯Ń
é¼ İ
æ´¾ çļĦ
ä¸Ģ åľº
è¾ ¨
éŁ µ
åĩºçīĪ ç¤¾
èĢ ķ
æľĪ çĲĥ
å°Ĩ é¢Ĩ
ç¦» åŃĲ
ä¸Ĭ åįĩ
å¾· åĨĽ
æ£ ĺ
ç½Ĺé©¬ å°¼äºļ
æĥ ¨
èµ« å°Ķ
åŁ ĭ
éķ¿ è¾¾
è¢« æįķ
èĭ ¯
çĶĺ èĤĥ
çļĦ è§Ĵèī²
èĢĮ ä¸į
ä»ħ æľī
çĶ «
åľº æĻ¯
ç °
å·´ å°Ķ
çļĦä¸Ģ äºĽ
æī¿ è¯º
ä¼¼ ä¹İ
çĤ¸ å¼¹
éģ ¥
)ãĢģ ãĢĬ
éĽ ¾
å¤© ä½ĵ
åħļ åĳĺ
çłĶ åıĳ
éĽ· æĸ¯
Ġ èĻ½çĦ¶
åĲĦ ä¸ª
" .
æ¯ı æĹ¥
æĿ¡ ä¾ĭ
2 Ġ
i o
æĺ¯ ä¹Įåħĭåħ°
åħ¬ æĸ¤
åīį åĲİ
æķ° çļĦ
å¸ Ĳ
èĢĥ è¯ķ
å¤ĸäº¤ éĥ¨
éħį å¤ĩ
åľ¨ åı°æ¹¾
è¾¹ ç¼ĺ
åĬłåĪ© ç¦ı
éģĵ å¾·
è¹ Ī
éħ ·
çĪ± æĥħ
ä¼ļè®® åĳĺ
ä¸¤ ä¾§
æ¡ Ĩ
å¸¸ åĬ¡
æĶ¯ ä»ĺ
äººæ°ĳ å¸ģ
èı Ĭ
ar k
æ¸¸æĪı çļĦ
æ²¿ éĿ©
æĬµ æĬĹ
åľ° è´¨
å¹¶ çĶ±
æĸĩ æĺİ
ç§¯ åĪĨ
åĩºçİ° äºĨ
Ġ èĥĮæĻ¯
ä¸Ģ åĪĩ
åįģ æľĪ
åĮħ åĽ´
çĽĳ å¯Ł
åħ¬å¼Ģ èµĽ
å¤ ¹
ä¸Ģ å°ıæĹ¶
æĪĲ äºĨ
æľ¬ äºº
åı¦ä¸Ģ æĸ¹éĿ¢
è¥¿ ä¾§
å¹³ è¡¡
äºİ19 2
æĢĢ çĸĳ
ä¸ŃåĽ½å¤§éĻĨ çļĦ
åĮº åĨħ
å¤ļ äºº
äºī åıĸ
ç¦ı å·ŀ
è¾ŀ èģĮ
çļĦ ä½įç½®
çĶŁ åŃĺ
å¼Ģ å¹ķ
è¨Ģ è®º
èĥ Ĩ
éĥ½ åľ¨
é¢Ĩ åľ°
Ġ 12
åı¯ è§ģ
åĿ Ĥ
èĤ ł
ä¼¯ çĪµ
è ¤
Ġ ä¸ŃåĽ½
åľ¨ èĭ±åĽ½
è®¾ äºİ
å¼ı æľĪåı°
æĮģ æľī
å·¡ æ´ĭ
åŃ ķ
åľ° åĲį
æīĭ æľ¯
åºĨ ç¥Ŀ
ou r
çĲī çĲĥ
1 åı·
å·¥ä½ľ å®¤
æī £
åĲ« æľī
æ±¡ æŁĵ
åıĳ æĮ¥
æīĢ éĩĩçĶ¨
èĭ± éĩĮ
å¥ ĭ
éĺ¿ æł¹å»·
æĬ¥ çº¸
æ² ª
æ£Ģ å¯Ł
è ¤Ĳ
æī ģ
åıĳ è¨Ģ
éĺ¿ éĩĮ
çŃĸ çķ¥
åĤ ¬
é¼ĵ åĬ±
17 8
èĥľ åĩº
çŁŃ æļĤ
éļ ĭ
çı Ģ
åħ¶ä¸Ń ä¸Ģ
çº¿ ä¸Ĭ
è¶³ å¤Ł
é¢ĳ çİĩ
é¡ ·
æıĲ è®®
æİ¨ èįĲ
çĪ± å¾·åįİ
èīºæľ¯ å®¶
åĲ §
ç«Ļ çļĦ
ic e
Ġ æį®
è¥ Ħ
åĪĻ åľ¨
åıĺ ä¸º
è° Ń
é¢ģ åıĳ
åĩĮ æĻ¨
è¯ ±
ç¬¦ åı·
éĹ ²
åĩº åĶ®
ä¸ľ ä¾§
è¾¾ å·ŀ
å¤§ èģĶçĽŁ
åħĭ å°Ķ
å§ĭ å»ºäºİ
åįķ çĭ¬
èĵĿ èī²
Ġ æľī
æĮ ĸ
çĻ» åľº
åħ¶ä¸Ń çĶ·æĢ§
Ġ åľ°æĸ¹
çº ¤
æĪĲ å°±
ä¸ī æľĪ
éĢı éľ²
åĩ ī
åĶĲ æľĿ
o h
æĪĺ å£«
åľº åľ°
æµ· å¹³éĿ¢
ä¿Ħ åĽ½
ä½įäºİ ä¸ŃåĽ½
åĻ¨ çļĦ
éĻĦ å±ŀ
éĢĤ åºĶ
å¢ĥåĨħ åħ±æľī
åľ¨ 196
äºļ çĽ®
è½¦ éĺŁ
åĨĻ ä½ľ
èµŀ åĬ©
ç¬¬ ä¹Ŀ
çĽ´ å¾Ħ
å¼Ĺ éĩĮ
è¿½ æº¯
é¢ģ å¥ĸ
åĩŃ åĢŁ
éĿĴ å²Ľ
å°Ķ å¤«
è¥¿ æİ¥
é¢ Ī
åĪ¶ çīĩ
æ®ĸæ°ĳ åľ°
æīĢ å¤ĦçļĦ
æł¼ ä¸º
åı² å¯Ĩ
æ²³ çļĦ
195 8å¹´
æĽ¿ ä»£
èģĶ ç»ľ
èº« åĪĨ
èĸ ª
W indow
äººåı£ ä¸º
é¹ ħ
äºİ201 6å¹´
Ġ 0
çļĦ å½¢å¼ı
æ° ¨
åħ¬ äº¤
ä»ĸä»¬ åľ¨
æŃ£ éĿ¢
åĽĽ æľĪ
åĢ¾ åĲĳ
åĲ ŀ
æĿĳ èĲ½
f f
ä¸¤ ä½į
æĻ® é²ģ
èħ Ķ
æ£ ķ
æľª æľī
ä¸Ńåįİäººæ°ĳåħ±åĴĮåĽ½ æĶ¿æ²»äººçī©
æĹł çĹĩçĬ¶
194 8å¹´
åįļå£« åŃ¦ä½į
s h
çļĦ æĸ¹æ³ķ
æĽ °
æ±ī æĹı
æ²³åįĹ çľģ
éĽĨ åĲĪ
æ¸¸ åĩ»
è¶³ åįı
å®£ ç§°
çļĦ æĢ»
æĸ ¥
å¥ ¶
å½ĵ æĹ¥
æŃ£ ç¡®
" ),
9 3
åĬ ²
å¿ ĺ
ç§ĳ å°Ķ
8 6
9 2
å·¡æ´ĭ èĪ°
A n
åľ¨ ä»ĸ
é«ĺ è¾¾
å¤© åĲİ
é¢Ħ ç®Ĺ
åĲ¸ æĶ¶
éķ¿ æ²Ļ
æī© å¼ł
ç«ŀ èµĽ
å½ĵéĢī ä¸º
Ġ 2006å¹´
åľ¨ æĸ°
åĨ ķ
åĽ½ åĨĽ
åı¤ èĢģ
éº Ł
7 3
æĺ¯ åĽłä¸º
æµ·æĭĶ ä¸º
ç§ĳçļĦ åħ¶ä¸Ńä¸Ģç§į
åĽ Ĭ
æĹ¶ åĢĻ
æ³ķ è¯Ń
æĪĳ çļĦ
è¶³çĲĥ éĺŁ
l y
æĸĩ èīº
åī§ åľº
æ¯ı å¤©
000 äºº
åŁ¹ åħ»
çĲ ª
åħ¬ åĳĬ
è¥¿ éĩĮ
Ġ åľ£
åĲ »
èĪŀ è¹Ī
æľº çļĦ
éĴ ĵ
å·² çŁ¥
åĨ³ è®®
å¹² éĥ¨
it h
èľ ľ
æ°Ķ åİĭ
ç¢ §
ç¾İåĽ½ çļĦ
æģ© çľģ
åĪ¶ä½ľ çļĦ
éĿŀ æ³ķ
è± «
ç¢ ±
éŃ ģ
ä¸¥ æł¼
éģŃ éģĩ
æķĪ åºĶ
å® ´
èĪ¹ åıª
äºĴ çĽ¸
r y
è¿Ļ é¡¹
å®ī ä¸ľ
çĶµ æ°Ķ
æĹł è®º
äº« å¹´
è¶³çĲĥ è¿ĲåĬ¨åĳĺ
éĢĲ æŃ¥
é¸Ł ç±»
åī ª
åĪĽ å§ĭ
Ġ ä¸Ń
æİ ł
æ¼ ı
è®¾è®¡ çļĦ
å¸Ĥ æĶ¿
åĲĮ æĹ¥
åĲĪ æ³ķ
è¶ħ è¶Ĭ
åĪĨ åĮº
å§ ľ
å§ĭ å»º
è§Ĩ è§ī
å¤§ å¸Ī
èĢģ å¸Ī
è¶³çĲĥ ä¿±ä¹Ĳéĥ¨
åģ¶ åĥı
ç© ·
å¤ĸ éĥ¨
Ġ æĺ¯
æĪĲ éĥ½
åĬł éĢŁ
å½¢ çĬ¶
åıĳçĶŁ åľ¨
å®¡ åĪ¤
å½ķ å½±
åıĮ æīĵ
u c
å¤§ éĺª
åĽł åħ¶
æ£ ī
æļ ¨
é¢Ħ æµĭ
æıı ç»ĺ
æł½ åŁ¹
æĿ¥ è¶Ĭ
çĽ´ éļ¶
åĴ ¨
äºİ201 5å¹´
194 6å¹´
çº¦ æľī
ä»İ æŃ¤
ç¾¤ ä½ĵ
ä¸»ä¹ī çļĦ
æıĲåĩº äºĨ
æķĳ æı´
åħħ æ»¡
åĵĪå°Ķ æ»¨
åĪ ł
æĹ¶ åĮº
éĶ Ĳ
202 6å¹´
æ¸¸ å®¢
åĪĽ æĸ°
æļ ĸ
èĭı ä¸¹
ä»ĸæĽ¾ ä»£è¡¨
è· µ
æİ¥ ä»»
æº ĥ
198 1å¹´
æĵ ħ
åģĩ è®¾
å¤ıä»¤ æĹ¶éĹ´
çĲĨ å·¥
æģ Ń
éĤ ª
å¯» æ±Ĥ
çļĦ ç¾İåĽ½
éĥ¨ ç½²
æĶ¶ åĪ°
æ¨¡ æĭŁ
è¶Ĭ æĿ¥è¶Ĭ
æĸĹ äºī
æĸ ©
æ¯ ħ
ä¸ī äºº
æļĤ åģľ
ç¦ıå»º çľģ
å½± åĥı
èĮ ħ
åĽĽå·Ŀ çľģ
âĢĿ )
èģĶ ç½ĳ
åĬłåħ¥ äºĨ
æĺ¯ ä¸º
ç§° åĳ¼
éĺ¿å°Ķ åįĳ
ä¸¾åĬŀ çļĦ
Ġ ä¸ĭ
å¸ ½
çĲĨ æĥ³
on t
éħį ç½®
è¿ģ èĩ³
å¼Ģå§ĭ åľ¨
ç¨ Ģ
è§Ĵ åº¦
åĽ½éĻħ æľºåľº
197 9å¹´
çļĦ åĲįåŃĹ
ç§ ©
æĹı ç¾¤
åĽ¾ åĥı
ub e
ä»¥ ä¾¿
18 3
è¾ĵ åĩº
çļĦ åİŁåĽł
åľ¨ ä¸Ģèµ·
è¡Į ä¸ļ
å·¥ èīº
æīĭ æ®µ
èª ĵ
æļĤ æĹ¶
åĩ ¶
å» ĸ
å±ł æĿĢ
ä¸ľ æµ·
çĽ´ æĴŃ
æĺŁ çŃīä¸º
ä¼Ĭ åĪ©
ç»Ħç»ĩ çļĦ
ä¾Ŀ èµĸ
äºİ201 4å¹´
èģļ éĽĨ
åĲİ è¢«
åģľ è½¦
æĹłçĹĩçĬ¶ æĦŁæŁĵèĢħ
éĺ¿å°Ķåįĳ æĸ¯
å¸¸ å§Ķ
ä½İ äºİ
æĢ ķ
äºİ19 0
æīĢåľ¨ åľ°
ç¼ ´
ç¹ģ æ®ĸ
èĤº çĤİ
en s
è·¯æĺĵ æĸ¯
8 2
ä¼ļ æľī
æĸ¯ åį¡
åĪ¶ä½ľ äºº
éĹ» åĲį
ç« Ł
æķĻ å®Ĺ
äºĮ æľĪ
èĤ ¤
åħ±åĴĮ åħļ
å¸ ĸ
ç½Ĺ ä¼¯çī¹
I P
ä¸Ń æľĢ
åĲĮæĹ¶ è¯¥åľ°
5 ç±³
ãĢĭ ãĢĬ
ä¾ £
å·¨ å¤§
åĪ¶ æĪĲ
5 ä¸ª
ç»´ å¤ļ
èĲ½ æĪĲ
åıĳè¡Į çļĦ
éŀ ĭ
åľ¨ åĮĹäº¬
äºİ201 2å¹´
çļĦ è¯Ŀ
åŃ¦ ç§ĳ
å®¤ åĨħ
åĨħéĻĨ çľģä»½
æ¼ ł
äºİ201 8å¹´
ä¿Ŀ éĻ©
èĴ ²
çĶ° å¾Ħ
çº¢ åĨĽ
Ġ ä¸º
æľª çŁ¥
çļĦ æĥħ
å¯Ĩ åĪĩ
è´¹ çĶ¨
å° ¿
ç¬¬ 4
è®¤ åı¯
æ¶Ī éĺ²
n i
å¤© åłĤ
éĺ² ç©º
è¾ħ åĬ©
è½ ©
ä¸» äºĭ
èĭ± åĳİ
äº¤ ç»Ļ
çłĶç©¶ éĻ¢
è§Ĥ çľĭ
197 8å¹´
éĤ ±
æīĵ çł´
æ¡¥ æ¢ģ
ä¸»æĮģ äºº
| |
çļĦ æĹ¥
ä¸Ģ èģĮ
ç½Ĺ å¾·
ç¨ £
è®¤ è¯ģ
æľĢé«ĺ çļĦ
èĩª æĪĳ
è·¯ æ®µ
åĨĴ éĻ©
éĥ¨ éĥ¨éķ¿
çĲĨ çĶ±
å§Ķ æīĺ
äºĶ ä¸ª
åķĨ åºĹ
çĶ» å®¶
çĭ¬ç«ĭ çļĦ
å« ©
ä¼ļ è¯ķ
çī¹ åĮº
äºİ201 7å¹´
æ£Ĵ çĲĥ
9 6
a i
âĢ ĺ
æĪĺ éĺŁ
èĢ¶ ç¨£
å¡ŀå°Ķ ç»´äºļ
8 äºº
äºº æĿĥ
å¥ ł
å·´ æĭī
éĩı åŃĲ
åī¯ ä¹¦è®°
èģļ èĲ½
å¤© æ°Ķ
æ¼Ķ åĮĸ
èµĦ åĬ©
èĬĤ åº¦
æŃ¤ ç«Ļ
æĶ¹ è¿Ľ
å¼Ĺ éĽ·
Ġ ç®Ģä»ĭ
ä»¥ ä¸ĬçļĦ
æĶ¹ ç§°
è¯Ħ ä¸º
é£Ł çĶ¨
æĴ¤ éĢĢ
å¤©æĸĩ åı°
æľ¬ ä½ľ
åĬł åĵ¥
çĻ¾ ä¸ĩ
ä¸ĭ ä¸Ģ
å½± è§Ĩ
æī© å»º
æł Ĺ
åħ¶ä¸Ń ä¸Ģä¸ª
çļĨ ä¸º
çĽ¸åĲĮ çļĦ
èĬĿ åĬłåĵ¥
ç© ´
éĢļ çŁ¥
åİŁ åħĪ
é©¬ ä¸ģ
çĤ ¼
åº§ æłĩä¸º
æ´Ľ åħĭ
è´§ è¿Ĳ
ĠæĽ¾ ç¥ĸ
A S
ä¸į æķĮ
ä½įäºİ è¯¥
è½°çĤ¸ æľº
Ġåľ°æĸ¹ èµĦæĸĻ
äººæ°ĳ ä»£è¡¨å¤§ä¼ļ
æ¤ İ
æĸ¹éĿ¢ çļĦ
äºİ201 3å¹´
çļĦ æĿĳåºĦ
å¤§ å¤«
èĭ ¹
å±ķ çİ°
çº³ åħ¥
è®¸ åı¯
ç» ¥
çľ ł
çī¹ æľĹ
è´§ çī©
çİĭ åŃĲ
åıª è¦ģ
é¸ Ń
ä¸º æĸ°
æĹ¶ æĬ¥
è¿Ļ åº§
ä¼Ĺ è®®éĻ¢
èħ ¿
æ¶µ çĽĸ
Ġ äº¤éĢļ
ç¬¬ä¸Ģ ä½į
æĪĺæĸĹ æľº
æł¼ å°Ķ
éľ ŀ
çº¦ çĳŁ
åį³ å°Ĩ
åħ« æľĪ
æĥ³ è¦ģ
æŃ» åĪĳ
äºİ 2019å¹´
è´¢ äº§
éª ļ
å· ·
æľī è®¸å¤ļ
ä¸į è¦ģ
ä¸ĥ æľĪ
åģļ åĩº
åıĽ ä¹±
ä¸Ĭ éĺµ
æľ¬ çº¿
åĨħ èĴĻåı¤
ç«ŀ æĬĢ
m ent
u g
ç§° åı·
194 1å¹´
c n
ä¸ ¸
äºİ 2020å¹´
æĸ¹ ä¾¿
åįģ ä¸ĥ
å¨ ħ
èħ º
è½¯ ä½ĵ
åįģä¸Ģ å¹´
å¤ļ åĲį
è¿Ľè¡Į çļĦ
æľį è£ħ
éģŃ åıĹ
è¿Ľ åħļ
ä¹¦ ä¸Ń
åįķ åħĥ
èħ ĵ
åĲĮæĹ¶ ä¹Ł
åĮº éĹ´
, ),
æ¶ Ľ
æŁ¥ çĲĨ
å·¦ ç¿¼
å¤§ä½¿ é¦Ĩ
éĩį éĩı
åĽŀ å¿Ĩ
çī¹ å°Ķ
èį ¡
oc k
ä¸ľ äºļ
è° Ĭ
éĩĳ å±±
è£ģ åĪ¤
åĮº åĪĨ
èµ· åĪĿ
å¨ ¶
çĽ´ åįĩ
ç¤¾ ç¾¤
åĮĹæµ· éģĵ
c om
çļĦ æĶ¿æ²»
ä»¥ æŃ¤
è°ĥ å¿«
194 4å¹´
æ²³ è°·
åĨĻ éģĵ
æ¶ī å«Į
ä¹ĭ ä¸º
èĲ¥ ä¸ļ
é±¼ éĽ·
åĪĨå¸ĥ åľ¨
Ġ åħ¶
è® ¼
è¯¥ çīĩ
åį« éĺŁ
éĺ³ å¸Ĥ
æķĮ äºº
æĭī çī¹
ç©º è¢Ń
åįı å®ļ
16 2
ä¸º UTC
è¾Ĳ å°Ħ
æĺ¯ åı°æ¹¾
ä»¥ ä¸ľ
éĵ ĥ
åł ¤
å¾ģ æľį
ä¼łç»Ł çļĦ
æ³ķ ä»¤
ä½Ĩ åĽł
æł¼ éĽ·
åĺī ä¹ī
èŀį åĲĪ
æ¯ Ĺ
æĬ Ħ
c eĠ
p h
æİ ©
åıĤ æķ°
è¿ŀ è½½
åĻ ¶
éĿĴ å°ĳå¹´
åıĤ è®®éĻ¢
æ¯ı åĳ¨
æĪĺ æľ¯
è½¬ çļĦ
éĩį è§Ĩ
) :
è¥¿ æĸ¯
é¢Ĩ åħĪ
ç»Ī çĤ¹
ç£ ·
è§ī å¾Ĺ
9 7
9 äºº
æ³ķåħ° åħĭ
ä»£ çļĦ
èĪ Į
å¦Ĥ ä»Ĭ
æħ °
è°ĥå¿« ä¸Ģå°ıæĹ¶
ç Ģ
éĥ ģ
åı¯ åľ¨
17 7
å§Ķåĳĺä¼ļ å§Ķåĳĺ
æ¿ Ĵ
ä¾į éĥİ
èĩ Ĥ
æĪĲ çĨŁ
å¸ĥ æľĹ
ç¤¾ äº¤
åį³ UTC
å¡Ķ å°Ķ
è®¾æľī å¤ıä»¤æĹ¶éĹ´
çļĦæĹ¶åĮºä¸º UTC
èĢĮè¯¥åľ° æīĢéĩĩçĶ¨
åĲĮæĹ¶è¯¥åľ° è®¾æľīå¤ıä»¤æĹ¶éĹ´
èĢĮè¯¥åľ°æīĢéĩĩçĶ¨ çļĦæĹ¶åĮºä¸ºUTC
ä¸Ģ ç³»åĪĹ
è¿Ļ åľº
æ¼Ķ è®²
åį¡ æĸ¯
çļĦ æľĢ
éķĩ åĮºçļĦ
äº¤ æ±ĩ
åįķ ä¸Ģ
ä½¿çĶ¨ äºĨ
æ»¡ æ´²
å»¶ ç»Ń
Ġ 2005å¹´
éĢļ å¾Ģ
åŁİ çļĦ
çĥ ¯
çĪµ å£«
ä»İ æľª
åŀĭ åı·
a h
è´ ·
å·¥ ä¼ļ
æĦŁ è§ī
197 2å¹´
ç²ī ä¸Ŀ
é«ĺäºİ æµ·å¹³éĿ¢
M V
s on
u re
æĢ» çĽĳ
æį· åħĭ
1 10
1 5å¹´
7 æľĪ1æĹ¥
æĮ ¡
è¯¥ åħ¬åı¸
ä½Ļ äºº
æİĴè¡Į æ¦ľ
ä¼ļ è¢«
åİ¿ çŁ¥åİ¿
çĽ¸å½ĵ äºİ
æīĢå¤ĦçļĦ æµ·æĭĶä¸º
æīĢå¤ĦçļĦæµ·æĭĶä¸º é«ĺäºİæµ·å¹³éĿ¢
8 4
ä¹ĭ å¤Ħ
éĥ½ è¢«
æŃ£ æľĪ
è¡¥ åħħ
Ġ 190
åº ¶
æľī èĳĹ
çİ ²
åŃĲ å¥³
ä¸» å¯¼
éª Ĺ
æķĻèĤ² éĥ¨
ä¼¤ äº¡
å®īå¾½ çľģ
æĸ° åĨł
å¸ Ĩ
å¤§ éĿ©åĳ½
èģ ª
æĦ ¤
ä¿Ŀ è¯ģ
æĻ® ç½Ĺ
åıĤä¸İ äºĨ
æĹłäºº æľº
o x
Ġ åı°æ¹¾
å¼ ĵ
åľ° å½¢
çİ° åŃĺ
æ°¸ ä¹ħ
7 00
æµ· ä¸Ĭ
æĪĺ åľº
åĲĪ åĲĮ
æł¼ éĩĮ
é² ¸
æĹ© ä¸Ĭ
197 6å¹´
è¯¦ ç»Ĩ
ç»´å¤ļ åĪ©äºļ
a w
èį Ĩ
åķĨ äºº
äºİ201 0å¹´
çİ°åľ¨ çļĦ
èĦ± ç¦»
ç»ĺ çĶ»
å²Ľ çļĦ
åħ· å¤ĩ
å¾Ī å°ĳ
äºĴ åĬ¨
å·ŀ éķ¿
å°¼ åı¤
or d
å²Ľ ä¸Ĭ
çĵ ¶
çĻ» è®°
195 6å¹´
éĿ¢ ä½ĵ
æ¡ Į
ä¼ł æķĻ
åį³ åĮĹç¾İ
æĮĩæĮ¥ å®ĺ
æĺ¯ ä¿Ħç½Ĺæĸ¯
äºİ 2021å¹´
ç¥ ¯
è·¯ åı£
äº¬ éĥ½
è¯º å¤«
çļĦ æŃĮæĽ²
æ¾ Ħ
æ© Ħ
éħ ®
èİ· èĥľ
åºı åĪĹ
èĤ¡ä»½ æľīéĻĲåħ¬åı¸
çļĦ ä¸į
åľ° äºļ
éĽĨ ä½ĵ
15 8
æ¸ ł
æ²³ éģĵ
æİ¢ éĻ©
éķĩåĮºçļĦ éĿ¢ç§¯ä¸º
äº ©
åį³ ä½į
. âĢľ
ä½ľ ä¸ļ
æĽ´ å¤ļçļĦ
æĸ½ å·¥
14 0
I T
åº ĩ
ä»¥ è¥¿
åĲİ åľ¨
åĪĨ ä¹ĭä¸Ģ
æµģ ä¼ł
ç¿Į å¹´
9 4
äºĨ ä»ĸ
æĢ» è£ģ
éĢī åĩº
åĪĩ å°Ķ
èļ Ģ
ä¼Ĭæĸ¯åħ° æķĻ
çļĦ åıį
çļĦ è¡Įä¸º
ä¼ ŀ
å§ ¿
èĩª ç§°
åĬł å°Ķ
åĽĽ ä¸ĸ
è¾ĸ åĮº
193 7å¹´
æķĪåĬĽ äºİ
. (
çļĦ ç¥ŀ
å§ ĳ
å¤ļ æł·
å¾· æĦıå¿Ĺ
éĤ ĳ
å¤Ħ éķ¿
16 4
åįĹæŀģ æ´²
8 1
o y
æ Ĩ
åĽ½ éģĵ
åħ¬ é¡·
ä¸» åĬ¨
èĬ Ń
ç§į ç±»
æ©Ħ æ¦Ħ
6 ä¸ª
G o
çļĦ åŁºç¡Ģ
ç» ĳ
è¡Į äºº
èĩ´ åĬĽ
çģŃ ç»Ŀ
ä½Ľç½Ĺ éĩĮ
Ġ æĹ¥æľ¬
ç»´ åŁº
M A
ä» Ĩ
åº ļ
æ³ Ħ
ä»ĸ ä¸º
æ» ķ
éŃĶ æ³ķ
æĿŃ å·ŀ
åĨħ åľ°
äºĮ çº§
æ¤ ħ
äºĴ èģĶç½ĳ
ä¹Ł æ²¡æľī
æľĢ ä¸º
å®¹ çº³
ç»ı çĶ±
å·´ åĭĴ
195 2å¹´
ä¸ľåįĹ äºļ
åľ¨ ä½į
æ±ī åŃĹ
ç¥ Ī
éĢļ çĶ¨
çĽ¸ åıį
çıŃ æ¬¡
çĪ ·
å°ĳ å°Ĩ
k m
æĶ¿ åıĺ
æ°Ķ ä½ĵ
193 8å¹´
éĥ¨ å°ļä¹¦
åĩº åľº
è¢« åĳĬ
æĶ¹ å»º
æ²¿ å²¸
ä¸İ æŃ¤
194 7å¹´
çĸ« èĭĹ
å±± è¥¿çľģ
åħŃ æľĪ
ç¾¤ ä¼Ĺ
Ġ v
åŃ¦ ç³»
ç½ ©
åķĨ åľº
15 7
r am
Ġ çĶ±
çļĦ ç»ĵæŀľ
ä»¥ 1
åį« è§Ĩ
æ¡£ æ¡Ī
æ¼Ķ èīº
195 5å¹´
ig n
èĭ¹ æŀľ
o ok
çļĦ æīĢæľī
å¹¶ æĹł
æ¸¯ åħĥ
åķ ¡
8 3
i e
çļĦ çĶµ
åĬ £
æĺ¯ ä¸ª
æĭħ å¿ĥ
æĶ» åįł
çº§ èģĶèµĽ
æħ İ
Ġ ä¸ªäºº
ãĢĭ( "
éĢ ¸
å¸ĥ éĽ·
å®ŀ ä½ĵ
è¿ŀ ç»ĵ
äºİ201 1å¹´
ç¬¬ 5
å±± åİ¿
æĥ §
æ¸ħ æ¥ļ
é¹ ı
æİ¢ ç´¢
s s
éķĩ åİĭ
æĻ®é²ģ å£«
ð «
éķ ĳ
éķ¿ çº¦
198 0å¹´ä»£
æł¸ éħ¸
æŀ¶ æŀĦ
è´ ª
çŁ ®
åįķ æīĵ
çĥ ·
å¼ķ çĶ¨
16 3
åĢ¼ å¾Ĺ
åĪ¤ åĨ³
æ°ĳ è¿Ľåħļ
èľ Ĥ
æĺ¯ä¸Ģä¸ª ä½įäºİ
æľŁ çļĦ
é³ ŀ
Ġ de
ä¸Ń å°Ĩ
çİ° ä¸º
å¹³ çŃī
å¤© çļĦ
ç»´ åħĭ
æī ĳ
åĨĽ äºº
å¥³ çİĭ
æ¨ ±
çļĦä¸Ģ æĿ¡
è¡ĮæĶ¿ éĻ¢
æĪĲç«ĭ äºĨ
æıĲåĩº çļĦ
éĴ¢ çĲ´
.. .
Ġ ä¸»è¦ģ
è´ ¼
åħ± è®¡
æł¼ æŀĹ
æĶ¾ åľ¨
P S
i b
åĲį äºº
è° ´
æĢ» ä¼ļ
çº³ å·ŀ
ç¦ı å¾·
la t
è¸ ı
å½» åºķ
H D
p er
äºİ 2022å¹´
åĮĹ ä¾§
åĪ© çļĦ
å®ŀ è·µ
å±Ĥ çļĦ
å»ºçŃĳ å¸Ī
åı²å¯Ĩ æĸ¯
éĢ ¾
åİŁ ä¸º
æĺŁ ç³»
ä¿® éģĵ
ä¿Ħ åĨĽ
ä¹¡ éķĩ
196 8å¹´
i re
éĩį è¿Ķ
äºĶ åįģ
ä¿® è®¢
å¸Į å°Ķ
Ġ å¯¹
ä¸ĭ äºĨ
å¤« å¦ĩ
ä¹Ŀ æľĪ
æ²³åĮĹ çľģ
u st
åĪĨ æł¡
æ±Ł æĪ·
åĬ³ å·¥
ä¸» åĬĽ
åĵ ª
è¿ª å£«
åħ¶ ä¸º
çŃ Ĵ
æĸ° å»º
åĪĹ åĩº
æ¡ĥ åĽŃ
You T
åį¢çĵ¦å°Ķ çľģ
Ġ è¥¿
Ġ é©¬
ä¸Ģ éĥ¨
è¡Į èµ°
æµ· åįĹ
ç»´ ä¿®
çª Ħ
èµ Ķ
åľ° ä¸Ń
åįĹ ä¾§
è¯¥ åħļ
æł¼ é²ģ
193 9å¹´
çļĦ åŁİå¸Ĥ
çĶ» éĿ¢
éĻ¨ çŁ³
å¤´ è¡Ķ
æķ´ åĲĪ
äº§çĶŁ äºĨ
äºĭå®ŀ ä¸Ĭ
Ġ çĽ®åīį
æķ ²
ä¸» æĿĥ
èĤ ¢
å¼ķ è¿Ľ
Ġ å®¶åºŃ
åıĹ å®³
å½ķ åĪ¶
å¥½ è¯Ħ
194 0å¹´
çº ł
æĬ Ľ
å½ĵ ä»£
èĹ »
ä¼¤ å®³
çĲĨ æŁ¥
å§Ķ ä»»
è¯ģ åĪ¸
2 åı·
åĵĪ èĲ¨åħĭ
è¿ªå£« å°¼
/ &
ä¸Ĭ äºĨ
è¾ĥ ä½İ
ä»į åľ¨
åĲ Ĭ
è° ¥
å¤© ä¸ĭ
196 0å¹´
195 4å¹´
åĨ Ģ
äºİ 2023å¹´
çļĦ æĹ¥æľ¬
èµ· è¯ī
è®® å¸Ń
194 2å¹´
èĩªè¡Į è½¦
ä¸Ģ é¡¹
åĿ Ł
æŃ¤ åīį
ä¼Ĭ æĭīåħĭ
çĽŁ åĨĽ
åĩ ¸
åĮº åĪ«
éģ ®
ä½¿çĶ¨ èĢħ
çĻ¾ å¹´
åįł æį®
çļĦ è¯´æ³ķ
æĥ ©
å®ĺ èĩ³
o st
Ġ éĻ¤äºĨ
ãĢģ ãĢĬ
Ġ st
åľ¨ åĮĹ
å¤ļ é¡¹
ä»» æķĻ
åĶ¯ä¸Ģ çļĦ
åĪ° çļĦ
ä¹Ł æĽ¾
çĽ® çļĦæĺ¯
åĸ ĩ
åİĨåı² åŃ¦å®¶
7 1
æĹ¥ åĲİ
èµĽ çļĦ
æĴŀ åĩ»
S h
Ġ æĿİ
åĲİ æĸ¹
å°ģ ä¸º
è¯Ĺ äºº
æŃ ī
è¯º æĽ¼
æĥ³ æ³ķ
æľĽ è¿ľ
Ġ åīį
Ġ çĦ¶èĢĮ
Ġ æķħäºĭ
æĪĺ åĪĹ
è®¤ åĲĮ
èĥĮ é³į
ç¬¬ä¸Ģæ¬¡ ä¸ĸçķĮå¤§æĪĺ
çĩĥ æĸĻ
è¢« ä»»åĳ½ä¸º
æĹłçº¿ çĶµè§Ĩ
çĶ ľ
èµ £
åĪĻ æľī
æŃ¦ å¸Ŀ
194 3å¹´
Ġ èĢĮ
æľ µ
æĶ» æīĵ
197 5å¹´
å± ¥
æłĩ è®°
çĶ· å¥³
å®ĮæĪĲ äºĨ
æ¬¡ äºİ
æĥħ ç»ª
é£Ł æĢ§
197 0å¹´
æĲº å¸¦
åħ¬ åĬ¡
é¢ ł
èĭı ç»´åŁĥ
S S
è®® é¢ĺ
æĤ ł
å¢ŀåĬł äºĨ
äºİ200 9å¹´
ç» µ
åŁİ å¢Ļ
äº¤ çķĮ
èĽĭçĻ½ è´¨
åİ ¥
ä¸Ĭ è¯ī
æĸ¯ åł¡
åĲĮ åĲį
äº¤ åıī
æ¨¡ çī¹
å¡ŀ çº³
è°´ è´£
åľ¨ æ³ķåĽ½
æ¸ Ĭ
éĻ¤ æŃ¤
åį° ç¬¬
æĦ¿ æĦı
å®ļ æľŁ
èĬ Ļ
æ¢ ¨
è¿ĺ åľ¨
ç»ıæµİ åŃ¦
ä¹ĭåĲİ çļĦ
åħĪ è¿Ľ
15 6
15 9
æ¹ĸ æ³Ĭ
ä¸ĭè¾ĸ ä»¥ä¸ĭ
çŁĽ çĽ¾
åį §
çī© åĵģ
è¯¥ æł¡
çī¹æľĹ æĻ®
æĺ¯ ä¸Ńåįİäººæ°ĳåħ±åĴĮåĽ½
éĤ µ
éĵģè·¯ è½¦ç«Ļ
æĻº æħ§
å²© çŁ³
è¿ĩ çļĦ
ç½Ĺ å¤«
åĽ¢ ç»ĵ
åºĶ å¯¹
éĺ³ åİ¿
è°ĭ æĿĢ
ä¸ŃåĽ½ åĽ½æ°ĳåħļ
12æľĪ 31æĹ¥
ä¼Ļ ä¼´
çĽ´åįĩ æľº
g e
å¼Ģ å·¥
åĿ ł
çĤ Ń
è¿ĳ ä»£
A r
Ġ ä½¿çĶ¨
äºº æ¬¡
åī ¥
ä»£ æĽ¿
éģĵ åħī
æ²Ļ çĶ°
æľĢæĹ© çļĦ
çĶŁéķ¿ äºİ
çľģ çļĦ
on d
æĶ¶ è´¹
ç«ĭæ³ķ ä¼ļ
æĹ¥æľ¬ çļĦ
æĶ¹åĪ¶ ä¸º
éĥ½ çĿ£
æıĲ äº¤
å¸¸ å¸¸
æ¸ħ ä»£
ä»į æľī
éĢīä¸¾ ä¸Ń
å¦¹ å¦¹
æľĽè¿ľ éķľ
çº¿ æĢ§
åĽĽ å¤§
ä¸º 0
å¥ ¸
çĲĨ å¿µ
çķ ħ
æĽ´ æį¢
æĤ ¦
åıĳçĶŁ äºĨ
èı² åĪ©
å·¨ å¤§çļĦ
i es
å¼Ģ åĬŀ
éĩĮ åħĭ
çº³ å¾·
ä¸ĵ çĶ¨
åĵĪ åĪ©
éļ¾ æ°ĳ
é¢ģ å¸ĥ
æŀ¢ çº½
éĢ» è¾ĳ
åį°ç¬¬ å®ī
S p
æĮĩ æķ°
æĹ¶ä»£ çļĦ
ä¸ª ä½ĵ
æĶ¹ åĲį
éĻį éĽ¨
æĹ ±
æ±Ł åįĹ
a z
ä¸» ç®¡
çļĦ åľ°åĮº
æĶ¿ åĬ¡
å¯¹ éĺµ
æīĢ éľĢ
çĪ± åĽ½
æ´Ľ æĸ¯
S M
l u
èµĽ ä¸Ń
åħ¨ ä½ĵ
è¯Ń éŁ³
èģĮ åĳĺ
å¼º åĪ¶
æ© ¡
ä»¥ 2
V D
i z
l d
å¤§ éĺŁ
è¡Į é©¶
æİĴ åĪĹ
æµİ åįĹ
åıĳçİ° çļĦ
(; ),
èĤ ©
ä¸º åŁºç¡Ģ
ä¸Ģ äºº
åįı åķĨ
ä¹ł æĥ¯
å´ ĸ
åıĤè°ĭ éķ¿
å¯¹ ç§°
çİ° æľī
è° ģ
éĢī ç§Ģ
è½¬ ä¸º
196 4å¹´
è¿· ä½ł
çļĦ åĨħå®¹
å° ĺ
æĹ¥ å¸¸
ä¸ī åĽ½
æĥ ľ
æł¼ åĭĴ
ä¹¦ åĨĻ
ç½Ĺé©¬ å¸ĿåĽ½
åĪĳ äºĭ
èĸ ĩ
ä¸įå¾Ĺ ä¸į
åĲĪ åĶ±
æĢ§ åĴĮ
æİ¥ èĳĹ
æł¹ æľ¬
å¤´ éĥ¨
å¥ĸ éĩĳ
åį° åĪ·
è¥¿çıŃçīĻ è¯Ń
åĴ¨ è¯¢
m er
æĺ¯ ä¸ºäºĨ
ç«ĭ éĻ¶
çī ²
ä½į çļĦ
æģ ¨
; /
e ct
äºĨ ä»ĸçļĦ
ãĢĮ ãĢį
èµĽ è½¦
æ¢ µ
è½¬ ä¼ļ
è§Ĥ åħī
å¡Ķ å°¼
ic h
èĬĤåº¦ ä½¿
i al
å¯¹ è¯Ŀ
è° į
èħ °
ĠP ro
ä¸¤ å²¸
çĪ ª
åĽ¾ æ¡Ī
ä¼Ĳ åĪ©äºļ
åĲį è¯į
è° Ĳ
åĩĨ ç¡®
åĨł çĬ¶
è®© ä»ĸ
ä¸Ģ å¤©
åĵ Ģ
èĩª æŃ¤
æŃ¤ äºĭ
é¦ĸ åº¦
é¢ĺ æĿĲ
ä½ı æĪ¿
1 30
çĽ Ī
çĶ¨ ä»¥
ç«Ļ æĪ¿
ç»¼ èīº
Ġ 11
æĢ ¡
çģ« è½¦
åľ¨ è¥¿
ä»ĸ è®¤ä¸º
å¼¹ èį¯
æĻº èĥ½
éķľ å¤´
çĥŃå¸¦ é£İæļ´
åŃŁ åĬłæĭī
æ¹ĸåįĹ çľģ
é«ĺ åİŁ
å¤ĸ è§Ĥ
éĵ İ
èĻ ı
æĪĲç«ĭ åĲİ
æİ¢ æµĭ
å½ķå½± å¸¦
èĩ Ģ
äºĨ è®¸å¤ļ
ä¸Ĭ å¸Ŀ
åĬ¨ è½¦
è° ¦
èī² å½©
é¾Ļ çļĦ
äºİ200 8å¹´
é©¬åħĭ æĢĿ
çĽ¸ åºĶ
ç« £
ç»´ ä¹Ł
ç»§ ä»»
åıĭ å¥½
ç«ĭéĻ¶ å®Ľ
æĪĲ æŀľ
ä½ĵ åĪ¶
ä½ĵ éªĮ
çĿ Ľ
çĻ¾ ç§ĳ
è¡į çĶŁ
2 50
å¼ Ħ
ç§ĳ ä¼ļè¯ķ
17 0
åĲĮæĹ¶ ä¹Łæĺ¯
åĨľ åľº
è¯Ĩ åĪ«
çºªå½ķ çīĩ
æĳĩ æ»ļ
èĢĮ è¯¥åľ°çļĦ
çĳ ľ
åįĩ æł¼ä¸º
ç¢ °
è´Łè´£ äºº
193 6å¹´
æİĮ æı¡
åĴĸ åķ¡
a u
ä¸Ģ æĶ¯
åīį è¿Ľ
åİŁ æĿ¥
æĽ¾ æĺ¯
æ· ĳ
æ±ī è¯Ń
éĿĴ æĺ¥
æŃ¥ æŀª
çŃ¹ å¤ĩ
Ġ å¤©
æ² ¼
ä¸» æīĵ
èĤ Ŀ
çŁ¥ åºľ
åįĥ ç±³
æĻ¯ è§Ĥ
çº¦çĳŁ å¤«
ç¼ Ŀ
e ar
Ġ g
Ġ ç¬¬ä¸Ģ
æľ Ń
ç±³ åħ°
åĪ¤ å¤Ħ
èļ ģ
æ¹ĸåĮĹ çľģ
h er
å¤ ¸
çłĶç©¶ çĶŁ
ç¼ĸåı· ä¸º
ä¸» æµģ
èĪ Ĩ
Ġæ¦Ĥ è¦ģ
çļĦ åľ£
åľ° äº§
è´ ¬
åħ¨ çº¿
è°¢ å°Ķ
åĲ¦ è®¤
æĺ¯ ä¸į
åľ° ä¸Ĭ
çī¹ åħ°
åĬł åĪ©äºļ
é©±éĢĲ èĪ°
(,; )
åĨħ æĶ¿
è¯¥ å¸Ĥ
æİ¥ ç®¡
18 2
å®¹ éĩı
èĪª çıŃ
åįĬ å¹´
åĵ¥ åĵ¥
196 6å¹´
åĽ½éĺ² éĥ¨
çŁ© éĺµ
, )
åľ¨ éĤ£éĩĮ
çľģ éģĵ
åħĥ æľĿ
èĿ ł
å¥¥æĸ¯ åį¡
æľ¬ å±Ĭ
çĽ¸ ç»§
åħµ åĽ¢
æ³° åĭĴ
é¢Ħ å¤ĩ
ç®Ĺ æ³ķ
å® ł
å¼Ģ åĲ¯
ä¸º ä¸ŃåĽ½
æĪĺ èĥľ
æĳ Ķ
it y
æµ Ĩ
c he
ç¥ Ĳ
æĶ¹ è£ħ
Ġ X
Ġ ç¬¬äºĮ
éĻķ è¥¿çľģ
Ġ å°½ç®¡
çļĦ æ¦Ĥå¿µ
ä¹ĭ éĻħ
çģ« çģ¾
æĪ¿ éĹ´
å±ħä½ı åľ¨
åĲį è¿Ľå£«
çī© ä½ĵ
à ¸
ä¸ī ç§į
æ¼ Ĩ
æİ¨ ç¿»
å¿Ĺ æĦ¿
çĻ¾ å§ĵ
æĪĲ åĪĨ
é¢ ĸ
è¿Ļ ç±»
èĭ± éķĳ
åĽŀ åĽ½
å®¢ æĪ·
æĹ§ åĿĢ
äºİ200 7å¹´
çļĦ ä¸ŃåĽ½
çĮ ľ
åŀĤ çĽ´
Ġ The
åįĹ æµ·
åĽł åºĶ
åĭ ĺ
æ²³æµģ åŁŁ
P C
Ġ åı¦å¤ĸ
åħ Ķ
æĺ¯ ä»İ
æĸ° åĮĹ
æĸ° ç«¹
åħ¥ åĽ´
å·´ ä¼ĲåĪ©äºļ
æł¡ èĪį
åģļ æ³ķ
ä¼ģ åĽ¾
ç¥Ń ç¥Ģ
äºİ æŃ¤
å¿ Į
éĿ¢ åĲĳ
çĶµ æ±ł
éĢī æ°ĳ
äºİ åĲĮå¹´
è· Į
ç§° ä¹ĭä¸º
ä¿Ŀ å®ī
éĢłæĪĲ çļĦ
æľ¬ ç§ĳ
éĩį å¤į
ä¹Į æĸ¯
èĽ Ľ
195 9å¹´
è¿ģ ç§»
ä¼Ĳ åħĭ
è¾ Ī
åıĺ æį¢
Ġ200 4å¹´
ç§© åºı
åĲĮ æŃ¥
Ġ æ¸¸æĪı
è¿« ä½¿
ç¬¬åįģ ä¸ī
éĺħ è¯»
æ° ®
æĹ© åľ¨
å°º å¯¸
å¤§éĩı çļĦ
ä¸ºè¾Ĳé³įé±¼çº² é²
å¤§ è¡Ĺ
å±± çļĦ
ä¸Ń é¥°æ¼Ķ
åĲį ä¸¾äºº
çī© çļĦ
(; )
a la
çªģ åĩº
èı² å°Ķå¾·
se ction
E T
ä»ĸ åĴĮ
åıĳ æİĺ
èĢĮ æĿ¥
å±± å¸Ĥ
åĵĪ éĩĮ
ä½ı åľ¨
éĥİ ä¸Ń
åİ¦ éĹ¨
E C
çī¹ æĢ§
åĮĸ ä¸º
ç¼ĸ ç»Ħ
çļĦ åŃ¦çĶŁ
äºº ä¸º
åİ ī
åħ¬ ä¼ļ
ä»ĸ å¯¹
åĿ ŀ
æŁ¥ å°Ķæĸ¯
æħķ å°¼
ä½ ĳ
ä¸º æľŁ
åĮ ł
ä¸» ä½ĵ
å¸ĥ åħ°
æĽ´ æĺ¯
å¹² çº¿
éģĹ ä¼ł
é©± åĬ¨
èµ¢å¾Ĺ äºĨ
Ġt oĠ
çļĦ éķ¿
äºİ 2024å¹´
å¤§ åħ¬
èĤ ĩ
çľ¼ çĿĽ
çĺ ¤
æĬĳ åĪ¶
å·´ èµ«
åĵģ è´¨
çĹħ éĢĿ
æĪĺäºī æľŁéĹ´
han t
æŃ§ è§Ĩ
" (
å¤§ å®¶
æ¡ Ĳ
æıĲ åīį
æµģ éĩı
èľ Ģ
Ġ 16
çļĦ éĺ¿
æµ ¸
æĮ º
åįĹ æĸ¯æĭīå¤«
ä¸¤ æĿ¡
èŃ¦ æĬ¥
äºĭåĬ¡ æīĢ
ä¸ľäº¬ éĥ½
çľģ æİ¥å£¤
åķĨ åĬ¡
ç©¿ è¿ĩ
9 1
èµ Į
ä»» åĨħ
é© ¹
åĩĨ åĨ³èµĽ
åİŁ çĲĨ
æĥħ èĬĤ
åı¤ å·´
Ġ éĻĪ
æĹ¥ è¯Ń
ä¹Ł åı¯
å®ŀ åĬĽ
çķĮ çļĦ
æĪĺäºī ä¸Ń
åİ¿çļĦä¸Ģä¸ª éĿŀå»ºåĪ¶åľ°åĮº
è¤Ĳ èī²
æħķå°¼ é»ĳ
æĪ Ĭ
å®¶ ä¹¡
çĵ ·
èİ± æĸ¯
åĩł ä½ķ
éĽķ å¡ĳ
åĨłçĬ¶ çĹħæ¯Ĵ
æľ¬ ä¹¦
çī¹ çĤ¹
æ´Ľ å¤«
197 4å¹´
ä¾Ŀ çħ§
æĿ¥èĩª äºİ
ç±»ä¼¼ çļĦ
çīµ å¼ķ
ç»´ä¹Ł çº³
n g
Ġ 191
èº« ä¸Ĭ
åĲİæĿ¥ çļĦ
. )
åįĹ ç¾İæ´²
äºĭ åĲİ
å¢ŀ è®¾
ä»ħ æ¬¡äºİ
ç«£ å·¥
n t
åıĬ åħ¶ä»ĸ
ç»ı çºª
éĻ¢ å£«
195 3å¹´
Ġ åĮĹ
æķĪ çİĩ
ä¿Ĺ ç§°
y p
æ» ¤
æ» ĭ
åĪĴ å½Ĵ
å¹ķ åºľ
ä¸¥éĩį çļĦ
ä¸º çĶ±
åĨħ æľī
æŁ Ħ
èģĶ åĨĽ
æľ¯ è¯Ń
ä½įäºİ ä¸Ńåįİäººæ°ĳåħ±åĴĮåĽ½
èĮ Ħ
æĿĳ æ°ĳ
åĮ» åŃ¦éĻ¢
æ·» åĬł
çļĦ åĽ½éĻħ
å¤§ çĲĨ
è¾¹ çļĦ
çĶ² åŁº
ç»ĥ ä¹ł
I V
èĬ ¦
çº¦ 1
çĸ ¯
åľ£ ç»ı
è¾ĥ å¤§
ç»Ĩ èıĮ
l l
æī Ń
ä¸Ĭ æĸ¹
åīį èº«
éħ ¯
ä¿®éģĵ éĻ¢
æ¿Ģ çĥĪ
å¤§ æ°Ķ
ç§° èµŀ
åŁİ åİ¿
å¦Ĥ åĲĮ
ä¿Ŀ åĬłåĪ©äºļ
æĮĩ è´£
åĽŀ åĲĪ
èĢĥ å¯Ł
éĢĶ ç»ı
èĻļ æĭŁ
çļĦ çĪ¶äº²
é¢Ĩå¯¼ çļĦ
éģĩ åĪ°
Ġæł¹æį® 2020å¹´ç¾İåĽ½äººåı£æĻ®æŁ¥çļĦæķ°æį®
çļĦ æĪĲç»©
èİ· å¥ĸ
äºī å¤º
åįģäºĮ æľĪ
â Ĩ
çļĦ çĶŁæ´»
æĶ» åĬ¿
æī¿ æĭħ
çļ® èĤ¤
å¤ļ åħĥ
ç¾İåĽ½ äºº
æ£ į
åŃ£ åĲİ
ä½ľæĽ² å®¶
M S
åĪĨ æĪĲ
æĸ¹ ç¨ĭ
ä½Ĩ åħ¶
è¶ ģ
åĽ¢ éķ¿
æ£ ±
å°± åľ¨
æľ« æľŁ
éĺŁ åĳĺ
åĲĳ åĮĹ
èİ· åıĸ
çĽ´ è·¯
ä¹¡ æĿĳ
197 3å¹´
é¡º åºı
è¸ ¢
1 4å¹´
8 ä¸ª
æĻ ´
åħĥ éŁ³
Ġ è¯Ħä»·
or e
193 5å¹´
åħ¬åħ± äº¤éĢļ
å¸ ľ
åı¸ èģĮ
æ» ¥
åľ°ä¸Ń æµ·
A L
åıĹ æįŁ
è± ¹
é»ĳ äºº
è¡ĮæĶ¿ ä¸Ńå¿ĥ
195 7å¹´
N BA
åĿ ¤
æĢ» ç«Ļ
å£« é¡¿
å¥³ åŃ©
å±Ģ å±Ģéķ¿
åĳ¨ åĪĬ
èĲ¨ æĭī
åĩºçİ° çļĦ
ä¸Ń åıĳçİ°
ç¥ ¸
197 7å¹´
Ġ aĠ
åĩº èµĽ
å¥³ ä¸»è§Ĵ
15 5
é¥ ¶
åĩł å¹´
å®ģ æ³¢
æĺ¯ æĦıå¤§åĪ©
åĵģ ç§į
ç¥ĸ åħĪ
æĲ ŀ
éĺ´ è°ĭ
äºĳåįĹ çľģ
å¤ª åĲİ
æĿ¡ æ¬¾
15 2
çĮ ´
è´Ŀ åħĭ
å©´ åĦ¿
Ġ åħ¶ä¸Ń
è¿Ļ ä¹Łæĺ¯
æ·· ä¹±
å±ŀçļĦ æ¤įçī©
æ§ ½
å·´ åŁº
åĵĪ æĭī
éĽ· è¾¾
å¦ ¥
ä¿¡ å¾Ĵ
æŃ» äºİ
ä½ĵèĤ² é¦Ĩ
äº® çĽ¸
åĬłåĪ©ç¦ı å°¼äºļå·ŀ
å¯ ĩ
æľĢ å¤ļçļĦ
çĶ· åŃ©
çļĦ æ¸¸æĪı
èĲ Ŀ
æİ¨ æµĭ
æ¤ Ń
ç»Ĩ èĬĤ
om p
åľ¨ ä¸Ĭæµ·
åĬł ä»¥
éĩį ç»Ħ
åĽ½å®¶ åħ¬åĽŃ
æİ¨ è¡Į
äºİ200 6å¹´
å·´åĭĴ æĸ¯åĿ¦
E N
æķ° åįģ
åıĸ èĩª
è®º åĿĽ
æĳ© å°Ķ
çļĦä¸» é¢ĺ
è¿Ļé¦ĸ æŃĮ
æ¡Ĩ æŀ¶
ä¸ľ åĮº
å±± åľ°
çĽ¸ è¿ŀ
æĻ® æĭī
è¯ī è®¼
åĳ¼ åĲ¸
é¥® é£Ł
ç¤ºå¨ģ èĢħ
é»ĳé¾Ļæ±Ł çľģ
çļĦ éĿ¢ç§¯ä¸º
å¾ Ļ
è¢« åıĳçİ°
çĤ ³
éĢģ åĪ°
éĢĶ å¾Ħ
å¤ľ éĹ´
å· ©
åĪĨ è§£
æ°´ éĩı
åı¯ä»¥ éĢļè¿ĩ
å¼ķ ç§į
é¥ ¼
éĻĦ åĬł
å¯Į æ±Ĺ
YouT ube
çļĦ åŁİéķĩ
æ¬ ł
197 1å¹´
æĸ°åĨł èĤºçĤİ
in t
æŃĮ åĶ±
ç§» å±ħ
æĭ¿ çł´
è¿½ æ±Ĥ
å±ĭ é¡¶
å°±è¯» äºİ
èĩ´åĬĽ äºİ
Ġ ä¸Ģ
çļĦ ä¸ĸçķĮ
è® ½
æĺ¯ è¥¿çıŃçīĻ
æľº æŀª
çĽ¸ éĤ»
æĿ°åħĭ éĢĬ
æľī çĿĢ
ä»ĸ äºº
ç¾İåĽ½ æĢ»ç»Ł
è¯Ĭ æĸŃ
ç«ĭæĸ¹ ç±³
æĭ¿çł´ ä»ĳ
. ãĢĮ
Ġ l
é«ĺ æŀ¶
çİ¯ å½¢
æī¹ åĪ¤
195 1å¹´
èĪªç©º åħ¬åı¸
ç¬¬åįģ ä¸Ģ
H K
æĺ¯ èĭ±åĽ½
å¾· åħĭ
æ£ ļ
æµģ åĬ¨
æ»ĳ éĽª
r u
çī© èµĦ
å¦ ĸ
å¤ĸ åĽ´
æ¯Ķ å°Ķ
æĢ» ç»ıçĲĨ
åĬĽ åŃ¦
ç»Ī æŃ¢
æħĪ åĸĦ
æī ĩ
ä¸ī å¤§
ä¸ī çĶ²
è° £
æ¡ ĵ
åı¸ æľº
åħ¬éĩĮ çļĦ
åºķ å±Ĥ
éĽĨåĽ¢ åĨĽ
å´ĩ ç¥¯
åĨ »
èĳ µ
å§ĭ ç»Ī
æłĩ é¢ĺ
åħµ åĬĽ
æ²Ī éĺ³
1 3å¹´
ä¸Ń å¼ı
åĩº èĩª
åħ¶ åľ¨
è¿ĩ æ¸¡
ç¦ §
åĪĻ çĶ±
éĴ ©
e e
å®ļ çĲĨ
å±± é¡¶
è¿ĲåĬ¨ çļĦ
å·¥ä½ľ çļĦ
4 æľĪ1æĹ¥
ä¸ĭ æĸ¹
çĪ ¬
è£ ´
åľ£ æ¯į
ä¸Ńå¿ĥ çļĦ
éŁ¦ å°Ķ
ç§ĺ é²ģ
å±ħæ°ĳ çĤ¹
ç²Ĵ åŃĲ
æĸ Į
æŁ ľ
åħĥ å¸ħ
å§Ķ åī¯ä¹¦è®°
æ²³ åı£
çģ« è½¦ç«Ļ
é³ Ħ
å½¼ æŃ¤
åħ¥ å¢ĥ
èĤ ¿
æ¼ Ĥ
17 5
ol d
Ġ æľĪ
ä¸Ń ä¸ĸçºª
å·¥ åķĨ
æĴ ĳ
å±Ģ çļĦ
æ·± åħ¥
ç¬¬ä¸ī æ¬¡
000 åĲį
åħ¬ å¯ĵ
çĲĥ è¿·
ç»ĵ è®º
å½¢ çļĦ
åĥı æĺ¯
ç¡ķå£« åŃ¦ä½į
å± ¡
è¾ ±
æ¬¡ æĹ¥
æīĭ ä¸Ń
éĨ ī
åİ Į
äºĨ å¯¹
çĦ ļ
çİ¯ çĲĥ
èĵ Ħ
è¯ĳ ä¸º
è¯¥ åī§
èĭı éĩĮ
ç¦ı éŁ³
çª ĥ
æĵ ¦
å®ĥä»¬ çļĦ
M ar
åľ¨ ä»ĸçļĦ
çŃī å¾ħ
æł¼ å¼ı
199 0å¹´ä»£
çªģ åİ¥
å¼Ĺ æĭī
ä¼ĺ åħĪ
å¤©æ´¥ å¸Ĥ
r is
å°Ķ é¡¿
èģ Ĥ
åĮĹ éŁ©
çİĭ ä½į
åį° è±¡
åį°åº¦ æķĻ
æ© Ļ
è½¬çļĦ å°ıè¡ĮæĺŁ
çĶ± äººå·¥
çīĪ çļĦ
è¶³çĲĥ èģĶèµĽ
çļĦ å¥³åĦ¿
ä¸º é¦ĸ
æĽ² çĽ®
é¢Ħ åĳĬ
çļĦ èĥ½åĬĽ
æĹ Ń
ä¸º 3
æĺ¯ åįĹæŀģæ´²
åıĳ éŁ³
åĬł åĭĴ
ä¸ī æ¬¡
èģĮ æ£Ĵ
ç¦ı åĪ©
ä½İ æ°Ķåİĭ
ç¿° æŀĹ
æĹ©æľŁ çļĦ
è¿ĩ äºİ
ç³ ķ
çº§ çļĦ
èĳĹ æľī
å¾® è½¯
å¹³åĿĩ æµ·æĭĶé«ĺåº¦
çĥŃå¸¦ æ°ĶæĹĭ
çĲĨäºĭ ä¼ļ
B L
ç¬¼ èįī
e y
æł¼ æĭīæĸ¯
è¯º ä¼Ĭ
åĪº æ¿Ģ
çĮª ç¬¼èįī
åİ Ŀ
è´ ¿
å¾· æĸ¯
åı² èĴĤ
åī¯ ä½¿
åıĳçĶŁ çļĦ
åµ Į
P ro
å¹¶ ä¸įæĺ¯
åįģ ä¸īå¹´
åıĸå¾Ĺ äºĨ
åħħ åĪĨ
éĻ¤æŃ¤ ä¹ĭå¤ĸ
p p
çº º
æľī åı¯èĥ½
19 00
åİ¿ åŁİ
çīĩ æ®µ
å¼º åĮĸ
éĢĤ çĶ¨äºİ
åħ±äº§ ä¸»ä¹ī
åľ¨ ä¸Ģä¸ª
ä¸Ģ çĻ¾
è¯¥ åľ°åĮº
ç¼ Ķ
åĭ ¾
èº ²
çĪ± çļĦ
ä¸ģ åł¡
ç½ķ é»ĺ
åħĭç½Ĺ åľ°äºļ
å°¸ ä½ĵ
åĴĮ å¤§
åĲį èªī
ä¸ĭ è½½
è¿Ļ ä¸¤ä¸ª
çĶµ åĬ¨
å¥½ åıĭ
é¥ ¥
r it
å»º åĽ½
åıĤ è§Ĥ
æ¯ı æ¬¡
åĲİ åıĪ
çİĭ å®¤
é£ŀ å¼¹
å½¢æĪĲ çļĦ
æİ§ èĤ¡
åģļ ä¸º
åħ¹ çľģ
ãĥ ¼
åıĻ è¿°
Ġ200 3å¹´
èĢĮè¯¥åľ°çļĦ å¹³åĿĩæµ·æĭĶé«ĺåº¦
å·´åŁº æĸ¯åĿ¦
å¼ķç§į æł½åŁ¹
0 5
åı° å¸ģ
å¸¸ å§Ķä¼ļ
å¥³ æ¼Ķåĳĺ
èº« äº¡
è®¾è®¡ å¸Ī
196 7å¹´
å¼Ĥ å¸¸
è´¢ åĬ¡
E P
Ġ ç»ıæµİ
æĺ ı
è¿Ľ åı£
er t
éĿ¢ç§¯ 1
2010å¹´ ç¾İåĽ½äººåı£æĻ®æŁ¥çļĦæķ°æį®
åĢŁ çĶ±
ä¸İæŃ¤ åĲĮæĹ¶
éķ¿ å®ī
ä»» å¤©åłĤ
æĽ¾ ä¸º
éģĹ è¿¹
è¿Ļ æ®µ
éģĵ çļĦ
è£ ¸
æĿĥ çļĦ
èĪª çº¿
çģ« æĺŁ
ä¹ĺ åĿĲ
çĶŁäº§ çļĦ
è¿Ľå£« åĩºèº«
Î ±
ãĢį ;
åĸ ī
å®£ åĳĬ
ä¿Ħ äº¥
196 5å¹´
ä¿Ħäº¥ ä¿Ħ
å»º æľī
ç§ĳ å¹»
çº³ å°Ķ
ç¥ŀ åľ£
ç¬¬ä¸Ģ å±Ĭ
çħ§ é¡¾
æĸ¯ éĩĮ
åĲĮ åŃ¦
å¤© ä½¿
10 æľĪ1æĹ¥
è½¬ ä»»
åĪĿ å¹´
çĶ±äººå·¥ å¼ķç§įæł½åŁ¹
ç¼ĸ åĨĻ
çĭ¬ çī¹çļĦ
éĤ£ æł·
å¥´ éļ¶
æķ° çĻ¾
è¿Ĳ æ²³
æīĭ æŀª
å®£ è¨Ģ
1 6å¹´
P lay
åľ¨ åĨħ
ä¸Ĭ æ¸¸
åŃĲ å¼¹
åŁº è¾ħ
çĶµè§Ĩ åĬ¨çĶ»
çļĦå¤§ åŀĭ
ä¸ĭè¾ĸä»¥ä¸ĭ åľ°åĮº
äºº ç§°
å·´ å¡ŀå°Ķ
èį ĥ
èĻ Ĳ
åįģä¸Ģ æľĪ
" ).
åİ ¨
åīį çº¿
æ¶ ¡
åĪĴ åĪĨ
åĮ» å¸Ī
çºªå¿µ ç¢ĳ
e am
Ġ ä»¥
ä¸Ģ éĥ¨åĪĨ
ä¸Ń ä¹¦
ä¹ĭ åĲį
æĹł éĻĲ
ç½ĳ ä¸Ĭ
i de
æĭ ¦
æĸ° äºº
çķ ľ
åı· ä¸º
æµģ ç»ı
è°ĥ èĬĤ
é²ģ æĸ¯
196 9å¹´
æĿ¥ å¾Ģ
å°¼ å¥¥
éĩĳ åĪļ
å½¢æĪĲ äºĨ
èĤ¯ å®ļ
è¿Ļ éĥ¨
æĸĩ æľ¬
æĢ» é¢Ŀ
ä¼Ĭ å°Ķ
è¯º æĸ¯
åı£ å¾Ħ
å¸¸ è§Ħ
åĽŀ çŃĶ
èİ·å¾Ĺ ä¸Ģæŀļ
æĶ¹ç¼ĸ èĩª
Ġ æĭī
ä»¥ å¤ĸçļĦ
åĮº åĴĮ
åŁº éļĨ
å°± æľī
åŃĺåľ¨ çļĦ
éĺµ å®¹
æ®ĭ çĸ¾
å¹¸ åŃĺ
å¥¥æĸ¯ æĽ¼
M ic
åĽ½ è¯Ń
åİŁ åĪĽ
éĺ¿ å¯Įæ±Ĺ
è®¤ å®ļ
æŀģ ç«¯
è¯ŀ çĶŁ
åĲĮæĢ§ æģĭ
çĽ ²
ä¸į åıĺ
éķ¿ å¤§
ç»´ åĲ¾
èĭı å·ŀ
éĿ¢ç§¯ 0
ä¾Ľ å¥ī
èĢ¶ å¤«
193 3å¹´
éĩĩçĶ¨ äºĨ
æĮī å¯Ł
ç©Ĩ ç½ķé»ĺ
æĮ ¤
åħ³ èģĶ
åĲĳ åįĹ
ç®¡ åĪ¶
è®¤ çŁ¥
è¿ĺ åĮħæĭ¬
åĬŀ æ³ķ
16 8
åī¯ éĥ¨éķ¿
åĪ¤ æĸŃ
ç´§ å¼ł
ä½įäºİè¯¥ çľģ
1 1å¹´
â Ī
Ġ for
æĶ Ģ
åĴĮ ä»ĸçļĦ
å¾Ĺ åĪĨ
ä¹Ł åĽłæŃ¤
åĸ »
è¯į æ±ĩ
çĽ®åīį å°ļæľª
T A
å² Ĳ
çĹ ķ
æ°Ķ æ¸©
æ²ĥ å°Ķ
ç©¿ è¶Ĭ
ç»´åĲ¾ å°Ķ
1 7å¹´
äºĨ ä¸ĢäºĽ
æį ī
é» Ľ
ç¾İåĽ½ åĽ½å®¶
éħ ĭ
åħļ ç»Ħ
åī© ä½Ļ
å¤ĸ çķĮ
å¿ĥ èĦı
éª ı
17 6
ç²® é£Ł
æ¬ º
å·´ å¸ĥ
éħ ¿
in c
æĬķ æīĭ
çĶµè§Ĩ èĬĤçĽ®
éĹ®é¢ĺ çļĦ
æľĹ å¾·
çĩĥ çĥ§
D S
ä¸ĭ æĿ¥çļĦ
çĶµ æµģ
193 0å¹´
ac h
å®¿ èĪį
D VD
åŁ ł
åĬł å·¥
æ¬¡ æķ°
åİŁ æľī
æį¢ ä¹ĺ
éľį å°Ķ
7 ä¸ª
O R
ç¬¬ 6
é¢ Ĥ
åĵĪ å¾·
çªģ åĩ»
åĨ² åĩ»
M P
åĩº äºİ
çĶŁ æķĪ
åŃĲ åħ¬åı¸
æĪĺ è½¦
ç«Ļ åİħ
ç¾İåĽ½ æµ·åĨĽ
çĶŁæ´» åľ¨
çļĦå¤§ éĥ¨åĪĨ
åħĭéĩĮ æĸ¯
æľºåĻ¨ äºº
oh n
Ġ é«ĺ
åı¯ åīįå¾Ģ
æ²¡æľī ä»»ä½ķ
è¾ĥ é«ĺ
æĬĹ æĪĺ
ä¸´ åºĬ
çī©ç§į çļĦ
æģĲ é¾Ļ
åĪĽå§ĭ äºº
Ġ Y
ä¸ī åĲį
ç³ Ĭ
æĹı äºº
ç¥ŀ ç§ĺ
æĸ° çķĮ
å¾Ĺ ç¥¨
éĢļ è¡Į
åħ° å·ŀ
éħ ī
ç±» çļĦ
åıį èĢĮ
å¥ĸ çīĮ
æĹĹ å¸ľ
ig ht
çļĦå±± å³°
åĨĽ åľ¨
å¡ Į
åıĹ åĪ°äºĨ
æĦı åĽ¾
èĬĤ å¥ı
åŃĺ åĤ¨
193 1å¹´
å¤º åıĸ
æĪĪ å°Ķ
ç±»ä¼¼ äºİ
å¹¶ä¸Ķ åľ¨
3 0å¹´
å¼Ģ ä¸ļ
æĺİ å°¼
å¤ª éĥİ
å®ĥ åľ¨
å®Ī æĬ¤
åĽ½ æľī
å¹¶ ä¸º
è¢« åĪĹä¸º
è¾ĥ å°ĳ
çĶµå½± èĬĤ
æ°¸ è¿ľ
çĶŁéķ¿äºİ æµ·æĭĶ
æ³ ª
æŃ¤ ä¸¾
éĢļå¸¸ æĺ¯
è° ¨
åįģ å¤§
æŃ£ ä¹ī
ä¼ł å¥ĩ
èĻ ¾
åıĳå±ķ çļĦ
å§Ķåĳĺä¼ļ ä¸»å¸Ń
è¿ª äºļ
æĹĭ è½¬
åĿĲ èĲ½
çī©çĲĨ åŃ¦
æĺ Ķ
æľī ä¸¤ä¸ª
åĬ¨ åĳĺ
åŀ ¦
å¥¹ æĽ¾
è¶³ èģĶ
æīĺ é©¬æĸ¯
åĩºçīĪ çļĦ
åĲĪå¹¶ ä¸º
Ġ åįĹ
Ġ åĪ¶ä½ľ
ä¸Ń æĸŃ
â Ħ
æĹ¶ éĴĪ
è¿Ľ èĢĮ
ç¬¬äºĮ ä¸ª
ç¡® å®ŀ
âĨ Ĵ
åħ¬ çº¦
åħ¥ çĲĥ
åħ¨ ä¸ĸçķĮ
åħī è°±
æıı åĨĻ
ç±³çļĦ åľ°åĮº
Ġ çİĭ
æĪ Į
æķĻ ç§ĳ
å·´ åħĭ
ä¿Ŀ åį«
åĩ» ä¸Ń
16 6
éĻĲ äºİ
æ¶Ī çģŃ
èĻļ æŀĦ
l es
Ġ 13
ãĢĭ (),
æĸ° è¥¿åħ°
æĢ§ æł¼
é¦ĸ é¢Ĩ
äº§ éĩı
çĳ Ļ
åĿĩ æľī
ro m
åĿĲ æłĩä¸º
Ġ å¯¹äºİ
ä¸ĭ å±ŀ
ä¹Ĳ åĻ¨
å¢ĥ å¤ĸ
æĬĢ èĥ½
æ¸© å¸¦
åĺī åºĨ
ä¼į å¾·
ĠS p
0 1
å¤§ æī¹
ä¿¡ ä»»
16 5
14 5
åį¢ çĵ¦
åį°åº¦ å°¼è¥¿äºļ
å¸ķ å°Ķ
åıĳçĶµ åİĤ
3 åı·
Ġ æĹ¥
éĢī ä¸Ń
åĲĳ ä¸ľ
196 2å¹´
éĴ¢ éĵģ
T h
çļĦ é©¬
æĢ ¨
åīį èĢħ
çº¿ åĴĮ
èµ· çĤ¹
å®¢ å®¶
åı¯èĥ½ æĢ§
æĶ¯æĮģ èĢħ
çº¤ ç»´
Ġ ç®Ģ
ä»¥ å¾Ģ
è· ĭ
çī¹ åĭĴ
å¤ļ ä¸º
è¿ĩ åº¦
æĢ» å±Ģ
çª Ŀ
çģµ éŃĤ
éĢı æĺİ
å¸ĿåĽ½ çļĦ
St ation
å¤§ è¿ŀ
åĴĮ äººåı£
éķ¿ æĺ¥
åįİ åĮĹ
or g
ä»¥ åħ¶
äºĮ æ¬¡
or k
æĤ ¼
Ġ éĩĳ
åĽ½ æĹĹ
ä»ĸ å°Ĩ
åĲį å½ķ
è¿Ļ ä¸¤
å¥¥ åħĭ
çº³ æĸ¯
è§£ éĻ¤
èı ±
è¡ĮæĶ¿ éķĩåĮº
ç¡® ç«ĭ
æĻļ æľŁ
çļĦåľ° ä½į
ä¸Ń æŃ£
æ¸¯ éĵģ
åĸ Ŀ
å¾Ģ è¿Ķ
åħŃ ä¸ª
éĢī ç¥¨
éĶ ħ
åħĭéĩĮ ç±³äºļ
æ²Ł éĢļ
éĹ ¹
ä½Ĩ ä¸į
åĶ ¤
éļı ä¹ĭ
è¾ŀ åİ»
æĲŃ è½½
é£ŀè¡Į åĳĺ
ç±»åŀĭ çļĦ
C P
Ġ ä¸ºäºĨ
éĺ ľ
å·¥ åħļ
é»ĳ æļĹ
é¸ ¦
æıĲä¾Ľ çļĦ
Ġ 20
çļĦ éģĵè·¯
åĽ½ å®ī
å®ļ ä½į
åįģ äºĶå¹´
æ¸¸æĪı ä¸Ń
æ¢ħ å°Ķ
åİ¿çļĦä¸Ģä¸ª è¡ĮæĶ¿éķĩåĮº
æĺ¯ å¯¹
æľī ä¸¤
çĽ Ĵ
ä¹ĭ åľ°
å¸ĥ æĶ¿
çĽ¸ è¾ĥ
æ³¢ çī¹
æīĵ å¼Ģ
ä¹Į æĭī
; &
âĢ §
ç«ĭ å¤§åŃ¦
Ġæľ¬ ç«Ļ
4 Ġ
A K
U N
å° §
ä¸ĭ çļĦä¸Ģä¸ª
å£« åĿ¦
äº§ çī©
åĲĳ éĩı
æĶ¾ éĢģ
åĵį åºĶ
193 2å¹´
èī¯ å¥½
H R
O M
åĮ ª
åıĬ åĲİ
äºĭ æĥħ
äºĭ åıĺ
æµģ æµª
åħĪ åīį
am e
èĲ¨æĸ¯ å·ŀ
åľ° å¤Ħ
æĺİ ä»£
ç¥ŀ ç¤¾
192 8å¹´
ç§Ł çķĮ
çļĦ å¼Ģ
åĪ© å¥¥
äº§ åľ°
ä¹¦ æ³ķ
åıĳå¸ĥ äºĨ
æįĲ èµł
äººå¤§ ä»£è¡¨
å¸ĪèĮĥ å¤§åŃ¦
12 5
åį³ åı¯
æ¯į èĪ°
è¯» ä¹¦
ä¼ļè®® ä¸Ĭ
å·¡ éĢ»
Ġ h
åĮĹ å¹³
éĹ´ è°į
çĥ Ĥ
åºĵ å°Ķ
ä¸»æķĻ ç»ĥ
èķ ĥ
å°Ĭ éĩį
Ġ200 2å¹´
æ°ĳ æĶ¿
æľĢ éĩįè¦ģçļĦ
åĲĳ è¥¿
196 1å¹´
å¼Ģåıĳ çļĦ
æĺ¯ä¸Ģ å®¶
çļĦ æ¯ĶèµĽ
çļĦ åº§æłĩä¸º
äºº æīį
çłĶç©¶ åĳĺ
çłĶç©¶ ä¸Ńå¿ĥ
ic k
æĺĨ æĺİ
æ§ Ł
Ġ ä¸ī
Ġ ä½ľä¸º
çļĦ è®¡åĪĴ
å¤§ åĲĮ
æĢ İ
ç¼ Ģ
åİŁ å®ļ
åİŁ åŀĭ
æĪĸ ç§°
æ® ·
èĮ İ
å¼º çļĦ
å¼º å¤§çļĦ
ç²¾ çģµ
åĤ¨ åŃĺ
å»¶ä¼¸ èĩ³
å¤§ åŃĹ
çŃī èģĮ
ä¼¯ æł¼
èĽ Ļ
å°¼åı¤ æĭī
çļĦ ä»£è¡¨
åĬ ¾
ä¸Ĭ éĿ¢
ä»ĸ è¯´
æ³ķ åŃ¦
æŃ¤ ç±»
çŃī äºİ
æĺ¥ ç§ĭ
çº· çº·
U S
a x
è¯ Ī
åħ¬ ç¤¾
åĬ¨ æĢģ
ä¹Ŀ å·ŀ
éĺ² å®Ī
å·Ŀ åİ¿
åģľ è¿Ĳ
å§ĵ æ°ı
F C
åıĳ è¾¾
éĥ½ ä¸į
æĽ¾ è¢«
ç®¡ æİ§
å¼ł åįķæĽ²
äºİ200 5å¹´
åĲĽ å£«åĿ¦
çļĦ åĲįç§°
äºº ç¾¤
éĴ ł
èı ©
å°ģ éĹŃ
çŃī çļĦ
æĮĩ çļĦæĺ¯
å¥ĸ æľĢä½³
å¢ĥ åĨħçļĦ
åı¦ ä¸Ģç§į
æĪ· éĥ¨
å¾® åįļ
éĹ ¯
è¿Ļ æĹ¶
çĲĨ åŃ¦
è½¬ åıĺ
èĽ ®
o ve
åĳĺ å¤ĸ
åıĤ è®®åĳĺ
æĺŁ çļĦ
æĿĢ äºº
æĻ¯ çĤ¹
å°ģ éĶģ
ro s
ä½ £
åħ¬ å¼ı
åħĭ éĽ·
åĬł æĸ¯
éĢł åŀĭ
åħ¶ä»ĸ çļĦ
æ´»åĬ¨ çļĦ
æ³¨ åħ¥
ation al
A I
è¿Ľ çĲĥ
éĺŁ åľ¨
æ³¢ å£«é¡¿
çľĭ è§ģ
ä¸»é¢ĺ æĽ²
æŃĩ å°Ķ
/ /
åŀ £
æĶ¹ èī¯
ä¸ĵ ç§ĳ
ä¸ĵ æ³¨
éĩİ çĶŁ
å±¯ éĹ¨
åįģ åĽĽå¹´
ç¦ ¾
çĦ °
åıĤ æ¼Ķ
è°ĥ ä»»
æŀģ ä¸º
çĽ®åīįå°ļæľª çĶ±äººå·¥å¼ķç§įæł½åŁ¹
Ġ å»ºçŃĳ
åĪĨ äº«
ä»» æĦı
èī ®
æľŁ åĪĬ
ç½Ĺ è®·
éĺ¿ åŁº
å¯¼ å¸Ī
çľŁæŃ£ çļĦ
Ġ 189
åīį æĿ¥
é«ĺ å±Ĥ
ç»ı è´¹
åįģ åħŃå¹´
å°¼ æ³Ĭ
éĺ¿ å§Ĩ
åİĭ ç¼©
å·¡ æĬļ
éŀ į
åıĳè¨Ģ äºº
) (
éĺ Ģ
é«ĺ æł¡
ä½ĵ æĵį
ç²¾ ç¡®
åı³ ç¿¼
éĺµ äº¡
ter n
èĭ į
er n
éļı æľº
çķĻ åŃ¦
è¯» èĢħ
éĽħ åħ¸
å®ľ åħ°
äºİ18 8
Ġ194 9å¹´
Ġä¸ªäºº çĶŁæ´»
C N
è®¾ åľ¨
æ¶ ¨
èĤ¡ ä¸ľ
åīį éĶĭ
å°Ĩ ä»ĸ
è·¯ å¾Ħ
é¦ĸ å°Ķ
åı¤ å¸ĮèħĬ
çİĩ åĨĽ
196 3å¹´
åħį çĸ«
è¶ĭ åĬ¿
ç©Ĩç½ķé»ĺ å¾·
ä¸Ń åİŁ
çķ ı
åĪĿ æŃ¥
è´Ń çī©
æ´ª æ°´
ç»Łæ²» èĢħ
å¤©æĸĩ åŃ¦å®¶
çļĦ æľī
çº¦ åħĭ
æıĲ æ¡Ī
åĬłåħ¥ ä¸ŃåĽ½åħ±äº§åħļ
E S
äºº ä¸İ
äºº æĸĩ
æĺ¯ ä¸ĭè¾ĸçļĦä¸Ģä¸ª
æĹ¶ åĪ»
å°ı å§Ĳ
æĦŁ æĥħ
èĭ±åĽ½ çļĦ
æ²¿ çĶ¨
åĽłæŃ¤ åľ¨
éĤ® å±Ģ
å§Ĭ å¦¹
ä¸Ģ å¼Ģå§ĭ
åıĳ èĤ²
ãĢĬ ãĢĭ(
æľ¬ æ¬¡
åı¯ éĿł
ç¼ Ĩ
æ°´ ä¸Ĭ
æ°´ æ·±
å·´ æĸ¯
æĥħ æĦŁ
å±Ģ åĬ¿
æĬĢ å·§
èĢĥ åħ¥
èį£ èİ·
è®¨ ä¼Ĳ
æĪª æŃ¢
è¡¨çİ° åĩº
Q u
m m
èĥ Ģ
å½ĵ ä½ľ
éĢī æĭĶ
åĸ Ļ
è®¤ä¸º æĺ¯
ä»ħ ä»ħ
å½Ĵ ç±»
æĻļ éĹ´
æĭľ åįł
ä¸Ģ åı·
ä¼ļ ç¤¾
å¹¶ è¡¨ç¤º
éĿ¢ ä¸Ĭ
é¦ĸ æī¹
ç¦» å©ļ
åĶ® ç¥¨
od ice
çļĦ ç¤¾ä¼ļ
ä¸ļ ä½Ļ
éĤ ¹
äº¤ æĪĺ
å¤Ħ åĨ³
çļĦä¸Ģ æ¬¡
çħ Į
æľĢç»Ī åľ¨
èµĭ äºĪ
çļĦ èº«ä»½
åĴ ı
å®ī å¦®
åº§ åłĤ
å®¢ è½¦
èŀº æĹĭ
æĶ¿åįı å§Ķåĳĺ
éĻ¨çŁ³ åĿĳ
âĦ ĥ
åĩº åľŁ
ä¹ĭ ä¸Ĭ
å¤ļ ä¼¦
ä½ĵ éĩį
ç¼ ¸
åİ¿ éķ¿
åĨ³ çŃĸ
åĽŃ åĮº
å½±åĵį åĬĽ
am es
åİ»ä¸ĸ åĲİ
ä¸į çŁ¥
ä¸į ä½³
åĨĽ æĸ¹
å¤© åºľ
15 4
å¹¶ æľī
æ¬¡ åĪĹè½¦
éĽĨ çļĦ
å¤ª å®Ī
193 4å¹´
çī§ å¸Ī
éĽķ åĥı
æĦıæĢĿ æĺ¯
E ST
çļĦ ä¸Ĭ
åŃ ļ
åĲİ åĽł
è§Ĥ éŁ³
ä¼¦ æĸ¯
å¤± è¸ª
æ£® åł¡
çĨ Ķ
åĺī å®¾
åĲ¦ åĪĻ
åıĳè¡¨ äºĨ
çļĦ ç»ıæµİ
æĪĺ ç»©
éĩĬ åĩº
192 9å¹´
èİİ çĻ½
3 Ġ
åľ¨ å½ĵæĹ¶
äºĨ è¯¥
çĶµ è·¯
å·´ å«©
ç¦ı å°Ķ
å·¥ä½ľ äººåĳĺ
æ½ľ åľ¨
ä¿ĥ ä½¿
æ°Ł åĮĸ
åľ¨ ä¸İ
è§Ħ æł¼
è§ģ äºİ
çĥŃ éĹ¨
æĬĹæĹ¥ æĪĺäºī
çļĦ åħ¨
ä»¥ 3
è¢ ľ
ä¹Ĳ åĽŃ
éĴ §
æĶ¯ çº¿
é¹ ¦
æľĢé«ĺ æ³ķéĻ¢
èŁ ¹
Ġ æ³ķåĽ½
çļĦ æ´»åĬ¨
çļĦ ç¬¬ä¸ī
ä¸º åı°æ¹¾
14 9
æľĢé«ĺ çĤ¹
og le
Ġ åıĤèĢĥ
åľ¨ æ¬§æ´²
æĭ ¯
èĩª ä¸»
éĽĨ ç»ĵ
ä¼ł éĢĴ
å¨ģ å°¼æĸ¯
èĪª ç«Ļ
ä¾¦ å¯Ł
èı²åĪ© æĻ®
5 åħ¬éĩĮ
çļĦ ä¼łç»Ł
é¢ Į
ä½ĵ ç§¯
é¦ĸ æŃĮæĽ²
é»İ å·´å«©
æ¸ħåįİ å¤§åŃ¦
3 ç±³
ç¬¬ 10
åı¤ è¿¹
ç½® äºİ
èŃ¦ åĳĺ
æĲľ ç´¢
äººå¤§ å¸¸å§Ķä¼ļ
åı¯ æĺ¯
æĪĺ åĽ½
æį® è¯´
å¤ª åİŁ
éĿ¢ç§¯ åĴĮäººåı£
è§Ĥ èµı
æ¸© æ³ī
äºĮåįģ å¹´
é¢Ŀ å¤ĸ
æĴ¤ ç¦»
å®Įæķ´ çļĦ
ç²¤ è¯Ń
r es
åĵ º
ä½Ĩ ä»į
ç±» åĪ«
ç¡ ħ
çłĶ åĪ¶
ig h
ç¡¬ å¸ģ
çļĦ åĪĨ
å£ ¬
éĺŁ åıĭ
äº¤ åĵį
éĽĨ ä¼ļ
è§Ĥ å¿µ
éº ĵ
æ²¿ çº¿
192 7å¹´
æĲŃ éħį
i x
æĪ İ
èĩ³ 2
è¯¥ åºĦ
é©¬ åĬĽ
æİĴ éĻ¤
æĪĲåĬŁ çļĦ
æĺ¯ä¸Ģä¸ªä½įäºİ ç¾İåĽ½
D NA
åº ¸
å¹³ æĪĲ
ç¥ ·
é¦ĸ ä»»
æĹĹ ä¸ĭçļĦ
192 4å¹´
èĢĮè¯¥åľ°çļĦå¹³åĿĩæµ·æĭĶé«ĺåº¦ ä¸º
o ol
Ġ 2001å¹´
19 12å¹´
æĢ» åħ±
æĽ¾ æĭħä»»
å°± åı¯ä»¥
ä¸ĩ å¹´
è¾ĥ å¤§çļĦ
éĴĵ é±¼
ð ¬
æŃ ¼
åĨħ äºļ
æķĻ å¾Ĵ
ä¼ł è¾ĵ
æĳ ĺ
çļĨ æľªçŁ¥
èĿ Ļ
æııè¿° ä¸º
å·¡åĽŀ èµĽ
è¯¥åľ°çļĦ éĿ¢ç§¯åĴĮäººåı£
è¯¥åľ°çļĦéĿ¢ç§¯åĴĮäººåı£ çļĨæľªçŁ¥
æľ¬ åľ°åĮº
ä¹Ł ç§°
æ´Ľ çī¹
æĿ° åĩº
æĭľåįł åºŃ
Ġ re
ä¸ ¢
å°± ä»»
an n
åĭĴ æĸ¯
æĶ¿æ²» å®¶
æĸĩåĮĸ å¤§éĿ©åĳ½
ä¾Ŀ éĿł
é¡º æĹ¶éĴĪ
ac t
æĦıè¯Ĩ åĪ°
2 ç±³
åĨ ¢
èĩ³ æŃ¤
åĳ½ åĲįçļĦ
åĪĴ åħ¥
çŃĸ åĪĴ
ent er
èĿĻ èĿł
i er
çļĦ æ²³æµģ
è´ ¦
åĩº æĿ¥çļĦ
å¼Ģ æĴŃ
ç¾İ ä¸½
è¿Ľ åĨĽ
è° ķ
åĪ¶ åĵģ
å±± åı£
ç«Ļ èĩ³
ç½ĳ åıĭ
æ¨¡ ä»¿
éĺ² åį«
å©ļ ç¤¼
ç´¯ ç§¯
æĹłçº¿ çĶµ
æľ¬ æĿ¥
åĲĪ çĲĨ
è¯Ħè®º å®¶
è¾½å®ģ çľģ
( )ãĢģ
æ° Ľ
æĹ¥ çĽĬ
é«ĺ å±±
æ» ŀ
å¡ŀ æĭľ
Ġ 17
ç§ ī
æĸ¹ ç¨ĭå¼ı
ç½Ĺ ä¼¯
åĥ ļ
Ġ200 0å¹´
åħ¬åĬ¡ åĳĺ
æĪĲ çļĦ
åĪĨ ä¹ĭ
æŃ£ æĺ¯
é» ı
åıĤ è§ģ
æ²Ļ æ¼ł
å¤ı å¨ģ
å¯º éĻ¢
è®¯ æģ¯
t on
Ġ åħ¨
ä¸Ģ ä»½
æ± ¶
æĪĺ ä¸Ń
éĵ Ŀ
åĶ ĩ
åıį æĬĹ
æĸĩåĮĸ éģĹäº§
å¼Ĺ åħ°
èĢ¶ å°Ķ
è¡Ģ æ¶²
åŁºæľ¬ ä¸Ĭ
C C
Ġ ä¸ľ
çļĦ åħ¶ä»ĸ
å¾· ç½Ĺ
ãĢį )
ä½ĵ åŀĭ
åĽĽ äºº
æĮĩ ä»¤
çĻ½ ä¿Ħç½Ĺæĸ¯
éħį ä¹Ĳ
ä¼ĳ æģ¯
æ¯« æĹł
ĠA r
çļĦ åĲĮæĹ¶
éķ ¶
åĲį åı«
åįİ ä¸º
æĿĥ å¨ģ
é¦Ļæ¸¯ çļĦ
åħ´ èµ·
çľŁ äºº
åĮħåĲ« äºĨ
äº¤æĺĵ æīĢ
9 00
è¡Į è½¦
ä¹ĭ æĹ¶
å¹¶ èİ·å¾Ĺ
è¯Ń ä¸Ń
åł µ
ç¬¬ä¸Ģ çĻ¾
ç¼ĸ åĪ¶
äºĪ ä»¥
çº½çº¦ å¸Ĥ
ä¸į åıĹ
ä¿ ±
åĬ¨ å·¥
è¿Ĳ ç®Ĺ
ä¹ī åĬ¡
åĬ© äºİ
çİ¯ ä¿Ŀ
æĹ¶éĹ´ çļĦ
åŁİå¸Ĥ çļĦ
åı¬ éĽĨ
çģŃ äº¡
å¹» æĥ³
Ġè½¦ç«Ļ ç»ĵæŀĦ
çļĦ çĽ®æłĩ
åĴĮ ç¾İåĽ½
ç¬¬ åįģäºĮ
åı° ä¸ľ
èĥ½ åľ¨
æķ° åįĥ
æĢ» æĺ¯
èĭ± è¶ħ
å½± è¯Ħ
å¥³ ç¥ŀ
æĿ¡ çĽ®
æİ¢ è®¨
éļĶ å¹´
A D
i um
çļĦ å¯¹
çļĦ æīĭ
åĵ Ń
æŃ¤ åľ°
åħ° åį¡
è¯´ æľį
åĳ¨ æľ«
åī¯ æĢ»ç»Ł
å§Ķåĳĺä¼ļ çļĦ
æ¾ İ
ro und
çīĪæľ¬ çļĦ
åİĦ å°Ķ
åıĹå®³ èĢħ
A V
ç¬¬ 8
çİ° å·²
ä½ĵ çİ°
æĭī å¾·
å¸ĥ å±Ģ
è¯Ń åĴĮ
åĽ½å®¶ å®īåħ¨
æķ´ çĲĨ
éĿĴ æµ·
è´¹ å°Ķ
æł¼åħ° çī¹
åĪĽä½ľ çļĦ
è·ĳ éģĵ
Ġ æĹ©æľŁ
åľ° åĿĢ
çĶ± æĿ¥
ä¸ĭ æ¸¸
éĩĮ éĿ¢
ä¸ĵ åĪ©
æīĵ è´¥
è§ģ åĪ°
çīĻ é½¿
åĨ° å·Ŀ
åŁºçĿ£ å¾Ĵ
æ¸ħæľĿ æĶ¿æ²»äººçī©
åįģåħ« å¹´
ä¸º è¯¥
ç¬¬ 7
æľº åĬ¨
å¸Ī éķ¿
ç»Ī èº«
çģµ æĦŁ
ç¾İæľ¯ é¦Ĩ
Play Station
P h
çļĦ è¥¿
çļĦ å»ºçŃĳ
åĵ ©
æĿ¥ çľĭ
åĪ¶ è£ģ
è¿ĳ å¹³
æ±ī åł¡
çľĭ æ³ķ
éĿ©åĳ½ åĨĽ
ä¾µ çĬ¯
åĲ ĵ
å¹¶ æĪĲä¸º
éĵ ħ
åıĺ æĽ´
æīĵ éĢł
åĿĩ åľ¨
è´Ŀ æł¼
åıĭ è°Ĭ
å¯º åºĻ
æİ¨åĩº çļĦ
åĪł éĻ¤
çļĦ æľºä¼ļ
ä¸º å¤§
ä»ĸ ä»¥
èĥ ĥ
ä¸ī çº§
å¤© æĸĩåŃ¦
çĪ± å¥½
æ¦ ´
un g
II I
Ġ é»Ħ
åľ° åŁŁ
åĲį é¢Ŀ
æ¬¡ åŃĲ
æŃĮ åī§
å®£å¸ĥ å°Ĩ
èĭ¥ å¹²
1 12
Ġ å°ı
èĢĮ éĹ»åĲį
çĭ Ĳ
çŁŃ çīĩ
åĿĲ æłĩ
å®ļä¹ī ä¸º
æĦıåĳ³ çĿĢ
åģľè½¦ åľº
Ġ æŃ£
Ġ åį¡
çī º
åĨĽ å§Ķ
æĢ» åı¸ä»¤
åĪĻ ä»¥
è¡ĮæĶ¿ åįķä½į
åĨ³èµĽ ä¸Ń
ä¸º é£Ł
ä¸Ģ æĹ¦
å¹³ å®ī
æ¢ Ń
å¼Ģå§ĭ äºĨ
åľŁ å£¤
is h
é¡º æ²»
æį· è¿Ĳ
èĪªç«Ļ æ¥¼
å¤ıå¨ģ å¤·
çļĦ å¤ļ
åľ¨ åīį
æĪ ļ
çĻ ¸
å°± åĥı
éŁ³ èĬĤ
æ´» æĢ§
ä¸ĵ åĳĺ
ãĢī ãĢģ
ç½ķ è§ģ
åĲīæŀĹ çľģ
Ġ th
èĤ ¾
ä¾¿ æĺ¯
éĺµ èĲ¥
æŁĲ ç§į
å´ĩ æĭľ
ç¿Į æĹ¥
æ±Ł è¥¿çľģ
æĽ¼ èģĶ
ä¹ł è¿ĳå¹³
æĻļ å¹´
åŃĺåľ¨ äºİ
èĩĢ é³į
. &
0 6
åĨĽ èĪ°
éĩĮ æĺĤ
å·ŀ è´Łè´£ç®¡è¾ĸ
éĢł èĪ¹
çĳ ļ
èĲ½ åĲİ
åħ¸ åŀĭ
çº½çº¦ å·ŀ
è·¨ è¶Ĭ
æ¢¦ æĥ³
æĺ¯ä½įäºİ ä¹Įåħĭåħ°
åĲį ç§°ä¸º
éĥ½ åı¯ä»¥
éĶ ¥
åĽ¾ å½¢
ç¼ĸ åħ¥
è½¬ ä¹ĺ
èĲ½ è´¥
æĻ¶ ä½ĵ
éĩįçĤ¹ æĸĩçī©ä¿ĿæĬ¤åįķä½į
éĩĳ éĹ¨
ä¸ĸçķĮ éģĹäº§
çĶ· ä¸»è§Ĵ
çª ĳ
çģ« åĬĽ
äº« æľī
çļĦ éĿŀ
åĳ¨ æģ©
åı°æ¹¾ çļĦ
ä¼¯ åĪ©äºļ
èĪª è¡Į
å·¡ æ¼Ķ
è¡¥ ç»Ļ
éŀ Ń
Ġæł¹æį® 2010å¹´ç¾İåĽ½äººåı£æĻ®æŁ¥çļĦæķ°æį®
I ST
åĴĮ ç¤¾ä¼ļ
æľ¬ è´¨
ç«ĭ å§Ķ
ä½Ĩ æľĢç»Ī
è¯Ħ å®¡
é¢ĳ ç¹ģ
åı« åģļ
0 9
t e
ãĢĬ ãĢĭ,
èĭ± å¯¸
çīº çī²
åį ¯
æ°´ åĪ©
è¡ĮæĶ¿ éķ¿å®ĺ
å¹¿å·ŀ å¸Ĥ
æĺĨ èĻ«
6 ç±³
p en
ä¸Ń çŃī
æ³ķ åĨĽ
å¹³ å®ļ
å®Į ç¾İ
èĲ¥ åħ»
S c
Ġ 202
Ġ 14
åŃ¦ åłĤ
æķ° ä¸ª
æĶ¹ ç»Ħ
åŃ£ èĬĤ
æ¹ĸ å¹¿
24 å°ıæĹ¶
åľ¨è¿Ļ éĩĮ
i le
19 18å¹´
æĸ¯ åľ¨
è¢« æĿĢ
æĥ ĳ
äº¤ ä»ĺ
å¹¿æ³Ľ çļĦ
å½° åĮĸ
çļĦ è¡¨çİ°
ä¸Ģ è·¯
ä¸į ä½Ĩ
æľ¬ åĲį
ç«ĭ ä½ĵ
çķ ´
åį³ ä¸º
èģĮ è´£
å¾Ģ æĿ¥
197 0å¹´ä»£
å°¼æ³Ĭ å°Ķ
æ¸ Ĺ
å®¶ å±ŀ
æĪĺ è´¥
ç¦ ¹
å½± å±ķ
æıĲ çĲ´
é£İ æĻ¯
åħī åŃ¦
åıĪ åľ¨
æĹ§ éĩĳå±±
éĢĥ ç¦»
åĲ¬ åĪ°
çĪĨåıĳ åĲİ
æĶ¶è§Ĩ çİĩ
ä¸» äºº
ä¸ī ä½į
é©¬ æģ©çľģ
çĲĥ è¿ĲåĬ¨åĳĺ
éĻ¢ æł¡
é¾Ļ ç§ĳ
è¡¥ åĬ©
as s
èµ¤ çº¬
ä¸Ģ åħ±
ç¬¬ 11
12 7
in eĠ
å¥¹ ä¸İ
å¸¦ æĿ¥çļĦ
ç½ĳ æ°ĳ
ä¸ĸçºª çļĦ
æľĢåĲİ ä¸Ģæ¬¡
å±ı ä¸ľ
çļĦ åľŁåľ°
ä¸Ģ èĩ³
æľī çº¿
éĺ Ĳ
è¿Ļ ä½į
ä¸Ģä¸ª æľĪ
æĢ» ä½ĵ
å°± è¢«
äº¦ ä¸º
çİ¯ ç»ķ
æĸĩåĮĸ çļĦ
ä¹ĭåīį çļĦ
æĵħ éķ¿
s k
æĸ¯ åĴĮ
å¹¶ åĲĳ
å¤ı å¤©
åĨľ åİĨ
ç´¢ æģ©
ç³»åĪĹ çļĦ
é¢ģå¥ĸ åħ¸ç¤¼
ç»´åŁº çĻ¾ç§ĳ
çļĦ åĨĽäºĭ
ä»» ä¸Ńåħ±
è¿Ľ å±ķ
è½¬ åŀĭ
å¯Ĩ èĭıéĩĮ
çĻ½ äºº
è¯º è´Ŀå°Ķ
éĺ¿å°Ķ å·´
ä¿ĺ èĻı
æ¯Ĺ éĤ»
3 åĲį
o od
ä¸Ĭ å°Ĩ
åħ¶ åŃĲ
æĸ° åı°å¸ģ
æ¹ Ľ
è®® éķ¿
æ· Ģ
æĶ» åħ¥
æĻº åĪ©
éĽ¶ åĶ®
èĳ£äºĭ ä¼ļ
éĽį æŃ£
Ġ æ²¿éĿ©
å¤§ å¸Ŀ
åĴĮ 1
éĩĮ å¥¥
å·ŀ çļĦä¸Ģä¸ªå¸Ĥéķĩ
åİ¿ æ²»
å¸¸ ä½ı
æĻ® æŀĹ
or ld
åĲĦ åľ°çļĦ
æ¯ı ä¸Ģ
çģ« çĤ®
è´Ł éĿ¢
åĢĻ è½¦
æīĢè°ĵ çļĦ
è¿½æº¯ åĪ°
æĺ¯ æľī
çī ¢
åħ¶ ä¸ŃçļĦ
åĲĮ å¿Ĺ
äºļ ç§ĳ
æĽ´ æĶ¹
æĽ´ å¤§çļĦ
ä¿¡ çĶ¨
ç¦ı çī¹
æĭħ å½ĵ
æī§ æ³ķ
ä¹ĺ è½¦
çĭ® åŃĲ
G B
èī °
æĢ» ä¹¦è®°
è§Ĩ æĺŁçŃīä¸º
é¥ ²
ä¹Į é²ģ
æł¹æį® 2020å¹´ç¾İåĽ½äººåı£æĻ®æŁ¥çļĦæķ°æį®
at h
äºİ200 4å¹´
ç«ĭæ³ķ å§Ķåĳĺ
é«ĺéĽĦ å¸Ĥ
æ¨¡çī¹ åĦ¿
C H
I A
åĮ ¿
ä¸Ń æĹ¬
åĩ °
ä¸ĭ åįĬ
æĸ° åŁİ
åħ± è¯Ĩ
æľĢåĲİ çļĦ
æĪĺäºī çļĦ
æĻĭ åįĩ
ĠS h
æĺİæĺ¾ çļĦ
èĴ¸ æ±½
% ;
2 ä¾ĭ
i eĠ
u k
æĻ® åıĬ
15 3
èİ± æĺĤ
30 åĪĨ
åĭĩ å£«
191 4å¹´
èµĶ åģ¿
0 8
N et
çļĦ æľĢé«ĺ
çļĦ æłĩåĩĨ
äºİ 2025å¹´
æľī äºĨ
æľī å¤ļ
æİ ·
å¾· åĪ©
è½¦ éģĵ
10 5
éħ ¬
éª ¸
å±Ģ éĥ¨
åı°æ¹¾ çľģ
å®« å»·
ç§ģ ç«ĭ
è¯¢ éĹ®
æĪĺåĪĹ èĪ°
äºº çĶŁ
æĺ¯ æľĢ
æĹ¥ çļĦ
çī¹ éĽ·
éĩį ä¿®
çīĪ æĿĥ
èĪªç©º æ¯įèĪ°
èªī ä¸º
æĹ¥æ²» æĹ¶æľŁ
w it
äºİ 189
è¾ £
éª ¤
åľ£ è¯ŀ
çĭ¬ çī¹
é¢Ħ å®ļ
B BC
y n
åĪĨ ç»Ħ
æµ· åħ³
å½± ä¸ļ
çĽ´ è¾ĸ
æĶ¯ çĲĥéĺŁ
çĵ £
å·¦ æ´¾
å°ģ éĿ¢
åıĳè¡Į äºĨ
è¯¸ å¤ļ
æĭĽ åĭŁ
åħ¬å¸ĥ ä¸º
çļĦ åĽĽ
å¤§ å°ĨåĨĽ
æĸ¯ å¤§
çľ ī
æ± ķ
éģĵ æŃī
éľ ĸ
ä¼Ĺ äºº
åĶ±çīĩ åħ¬åı¸
å±Ĭåħ¨åĽ½ äººæ°ĳä»£è¡¨å¤§ä¼ļ
Ð °
è¿ Ħ
çº Ĥ
å¤§ åŁĶ
åī ¿
ä½ľ çī©
è¢« éĢīä¸º
çļĦä¸Ģ é¡¹
å¤į æ´»
çĽĳ åĪ¶
0 2
a f
çļĦ éĩĳ
çļĦ åĮºåŁŁ
åī§ ä¸Ń
æ¡Ī ä¾ĭ
æĽ¿ æį¢
æģ¶ åĮĸ
è¿ĳå¹´ æĿ¥
Ġ å¼ł
çľģ éķ¿
æŁ ¬
å¨ ¥
äº¤ çĶ±
å·² åľ¨
æĻ® äº¬
åĨ³ äºİ
èĪ¹ åĳĺ
åĬłåĭĴ æ¯Ķ
äºº æ°Ķ
çī Ł
ä¾ Ħ
ä¸¤ åº§
çĶ² æĿ¿
ä¹ł ä¿Ĺ
çĳŀ æĭī
å¹¿æĴŃ åħ¬åı¸
l and
çļĦ åŃĺåľ¨
çļĦ è¦ģæ±Ĥ
å¯ ¡
ä¸Ĭ ä»»
åĽł åŃĲ
ç½Ĺ å§Ĩ
åĪĿ çº§
æļ´ åĬ¨
è½¯ æĿ¡
çģ¾ éļ¾
Ġ ä¹Įåħĭåħ°
ä¸į è¯¦
æĭī å¤ļ
ä½Ĩ åį´
å±ķ åĩº
æ²Ļ çī¹
å¼Ł åŃĲ
è£ģ å®ļ
æģĲ æĥ§
ç¨ĭåº¦ ä¸Ĭ
æµģåŁŁ éĿ¢ç§¯
æľĢè¿ĳ çļĦ
0 7
çļĦ åıĮ
å¾· å·Ŀ
é¢Ħ éĺ²
åħ¸ åŀĭçļĦ
åĸľ çĪ±
èĪĨ è®º
æĭ¯ æķĳ
åĽ½ ä¼ļè®®åĳĺ
æ³ķ å°Ķ
é© °
æ²» å®ī
at eĠ
æŃ¢ äºİ
è¾© è®º
åı¤èĢģ çļĦ
èµ ¦
æĹ¥ è®°
åħĭ åĬ³
ä¸ĸ çļĦ
å®ī ç½®
åį¡ çī¹
åıį å°Ħ
åĲĦ é¡¹
äºī è®º
çĽĳ ç®¡
é¹ ī
ow n
çļĦ ç»Ŀå¯¹
åĽ½ åħ±
ä½ľ çļĦ
éĺ¿ å¸ĥ
çĭ ©
in a
è½¬ æĴŃ
è¡Ģ ç»Ł
è®¯ åı·
æİ¨åĩº äºĨ
çĶµåŃĲ æ¸¸æĪı
çļĦçī¹ å¾ģ
ä¸Ģ æĸ¹
æĹ¶ å¸¸
åĬł é¾Ļ
æľŁ æľĽ
åĪĹ å®ģ
æĽ¾ æľī
åĽ¢ çļĦ
æ¸ħ çľŁ
åĬŁ çİĩ
å·® è·Ŀ
åīį æĸ¹
é«ĺ å³°
çŁ³ åĻ¨
13 6
èĮ¨ åħĭ
åįĹ å®ĭ
æµ· æ°´
è½¦ åŀĭ
æŃ£ è§Ħ
éħ °
ç§ĭ åŃ£
èµ¤ ç»ı
å¹´è½» çļĦ
ç¼ĵ æħ¢
åĵº ä¹³
ä¹ĭ å¥³
æ± ģ
å¤ļ å¤«
ç³» çļĦ
éĥ½ æ²¡æľī
åĮħæĭ¬ äºĨ
å¾Ī éļ¾
æ·± åĪ»
å¹² é¢Ħ
é©» æīİ
è¿ģ å¾Ģ
æİ¥åıĹ äºĨ
æ½ľ æ°´
3 000
Ġ åĽ½éĻħ
Ġ åĪĨç±»
æľī åĪ©
èĥ °
å¹³ è¡Į
äºļ å½ĵ
è¯¥ ç»Ħç»ĩ
æ· ³
æĹı èĩªæ²»
çĭ¬ èĩª
å£° ä¼ĺ
æŀģ å¤§
è¡Ĺ å¤´
è¿ľ ä¸ľ
åı°åįĹ å¸Ĥ
æĸ¯éĩĮ åħ°åį¡
o la
æĸ¯ åĽ¾
éĩĮ ç¨ĭ
åĮĹ çº¦
è½¦ æīĭ
æł¡ åıĭ
æ» ´
æ´Ľ éĺ³
é©» åľ°
æľĢåĪĿ çļĦ
åıĤèµĽ èµĦæł¼
I G
Ġ Z
Ġ å®ĥ
åĴĮ ä¸Ń
å®ī åİ¿
æ²» çĲĨ
å¹¿ ä¹ī
äººæ°ĳ æ³ķéĻ¢
å¨ģ å°Ķæĸ¯
å¤į åĲĪ
çİĩ åħĪ
ä»ª åĻ¨
åīĳ æ¡¥
èµ·æºĲ äºİ
èħĵ çī¹
Go ogle
åĲİ åį«
æĸ¹ å½¢
æ³ķ å®ļ
å®ļ å¾ĭ
æĶ¹ çĶ±
æĶ¯ éĺŁ
åĲĦ å¤§
ä¸ĵ æ¡Ī
åĻ¨ å®ĺ
åŃĻ ä¸Ńå±±
æ£Ģ éªĮ
å¤ĦçĲĨ åĻ¨
çļĦåīį èº«
åĲ Ĺ
æĪĲ åĮĸ
åħĭ åĪ©
åħ± äº«
å¢ ħ
æīĵ è¿Ľ
é»Ħ æ²³
æĤ Ł
å¹² æī°
æĪĳä»¬ çļĦ
èĳ¬ äºİ
ç½¢ å·¥
è½¬ç§» åĪ°
å¤§ æŃ£
åįĹ æĺĮ
å·´ é©¬
å§Ķ åĨħ
å¤§åŃ¦ æķĻæİĪ
æĶ¾ ç½®
æ¤ Ĵ
é¢Ħ æľŁ
è¿ľ å¾ģ
å¤º åĨł
å¹¿æĴŃ çĶµåı°
ä½Ľç½ĹéĩĮ è¾¾å·ŀ
ä¿Ħäº¥ä¿Ħ å·ŀ
èħĵçī¹ çĥĪ
å¤§ åİħ
ä¸Ĭ çº¿
è¢« æĮĩ
åħĭ é²ģ
çĶµ ä¿¡
èµĽ èīĩ
æķ° åĢ¼
åİ¿ æĶ¿åºľ
çº¦ 2
åĳ½ è¿Ĳ
ç®Ģ åĮĸ
åĳĺå¤ĸ éĥİ
å§ĶåĨħ çĳŀæĭī
Ġ al
ä¸Ĭ ä¸Ģ
ä½Ĩ æĺ¯åľ¨
ä½¿ èĢħ
åįģ ä¸ĥå¹´
éĤ ¸
èĬ± èİ²
å¯Į å£«
ä»ĭ çŁ³
åĭĥ èī®
å¤ļä¼¦ å¤ļ
p t
æŀ «
ä½ľ è¯į
æīĢ å¾Ĺ
åį³ æĹ¶
æ¸ħ æ°´
çĩ ¥
æĭĺ æįķ
. "
ä¸ĭ æĹ¬
ä¸ľ è·¯
å§Ķ å¸¸å§Ķ
æĹ¶éĹ´ ä¸º
åİĤ åķĨ
èįī æ¡Ī
äºİ200 0å¹´
æµĵ åº¦
o de
ä¸į èī¯
æĢ» è®¡
å°¼ æĹ¥
ç¥ŀ çĪ¶
ç»ĩ çĶ°
ç¹ģ å¿Ļ
ä½įäºİè¯¥åĽ½ è¥¿éĥ¨
é¹¦ é¹ī
0 3
I L
ä¹ Ĵ
ç½ Ĳ
è½¦ çļĦ
äºĮ å±Ĥ
éħ ±
éħ µ
åĽŀ å®¶
ç²¾ èĭ±
ä¾µ çķ¥
å§Ĳ å¦¹
èħĲ è´¥
åĽļ çĬ¯
Ġ äºīè®®
æĸ° ä¸Ģ
è½¬ èĢĮ
åĲī ä»ĸ
å¾Ī å¤§çļĦ
ç§» æ¤į
æľ« å¹´
èįī åİŁ
åıĳå¸ĥ çļĦ
å« ¡
åĪĬ çĻ»
çĶŁçī© åŃ¦
åı¸ä»¤ åĳĺ
çİ°æĹ¶ çĶ±
çĽĨ åľ°
æĸ°åĮĹ å¸Ĥ
C R
Ã ¡
ç» ħ
åįĹ ç«¯
å½ĵ æĻļ
éĩį çļĦ
å°± ä¸ļ
æĮĩ æłĩ
å¥ĸ åĬ±
ç»§ ä½į
çıĬ çĳļ
æĦ¤ æĢĴ
19 19å¹´
ä¼ļ éĿ¢
åıĳ çļĦ
åĬ¨ è¯į
ç«ĭ æ³ķéĻ¢
èĲ ¤
åľº åĲĪ
æķħ æĦı
ä¸ĸçºª åĪĿ
è¯Ĺ æŃĮ
äºİ200 3å¹´
åĩ¤ åĩ°
ç®Ģåįķ çļĦ
åĢº åĬ¡
éĻįéĽ¨ éĩı
0 4
Ġ éŁ³ä¹Ĳ
è½¦ èº«
åıĸ åĨ³äºİ
åĸ Ĭ
æĶ¿æ²» å±Ģ
é¥ ±
çĽĳ ç¦ģ
è¡Ģ ç®¡
a de
Ġ åĪĨå¸ĥ
ä»ĸ æĪĲä¸º
åħ¬ å¹³
åĮĹ éŃı
ç»Ī ç»ĵ
åĪ¶éĢł åķĨ
åİŁåĽł æĺ¯
èĴĭ ä»ĭçŁ³
è´« åĽ°
åĲı éĥ¨
æĶ¿ å§Ķ
åĬł çĥŃ
ä¹Ł åı¯èĥ½
æķ° ä¸º
åİŁ æĿ¥çļĦ
ä½įäºİ éĵ¶
æ¯ı å°ıæĹ¶
çŃ¾ è¯ģ
æĮĩæĮ¥ éĥ¨
ex t
S O
å¯¹ ä»ĸ
åı£ åı·
æĪĸ åħ¶ä»ĸ
åĪĻ è¢«
æµģ äº¡
åĶĲ ä»£
SA O
åį¸ ä»»
æľĢ æľī
æµ· çĽĹ
æľº ç»Ħ
æĬ¤ çħ§
åįĬ å¾Ħ
åŃ¦æł¡ çļĦ
æĳ© æīĺ
æįŁ å®³
æ°ĳæĹı ä¸»ä¹ī
æµª æ¼«
åŃ¦å£« åŃ¦ä½į
ä¸Ģ åįĬ
äºº ä½ĵ
åŃ¦ åĳĺ
é¦ĸ æĺł
åĭ ī
å¼¹ åĬ¾
æ¸Ĳ æ¸Ĳ
åĪĳ éĥ¨
çļĦ åĨħ
ä¸º æĹ¥æľ¬
æ³ Į
æ°ĳ åħļ
å¯¹ æ¯Ķ
åħĭ æĭīåħĭ
å¤ļ æĸ¯
çº§ è¡ĮæĶ¿åįķä½į
çĶµå½± çļĦ
åĩł åĨħäºļ
åĤ¬ åĮĸ
A nd
åľ¨ ä¸ŃåĽ½å¤§éĻĨ
ä¼ļ å¯¼èĩ´
ä»£ è°¢
è¯¥ å¹´
10 ä¸ª
è¶ħ äºº
il li
çīĽ æ´¥
192 6å¹´
ç¹ģ èį£
å¼ĺ æ²»
å¤§å¥ĸ èµĽ
åľ¨ å½ĵåľ°
æĽ¾ äºİ
å¡Ķ åŁº
å·¥ä½ľ èĢħ
çħ ®
ic al
ç»ĺ åĪ¶
åİ¿çļĦ éĿŀå»ºåĪ¶åľ°åĮº
é¢Ĩäºĭ é¦Ĩ
è¤ Ĵ
L in
R e
Ġ k
ç¬ ĥ
ä¸ĭ åĪĹ
å®ī æīĵ
å¸¦ èĳĹ
å»ºçŃĳ éĿ¢ç§¯
æ¦ľ åįķ
ç¯ĩ å°ıè¯´
192 5å¹´
åĮĸåŃ¦ å¼ı
å¤±åİ» äºĨ
sp an
1 åĲį
Î ²
æĺ¯ åį°åº¦
éĹ µ
ä¹Ł èĥ½
åŁİ éĻħ
åįİ ä¸ľ
æł· æľ¬
åłĤ åĮº
åħ¨åĽ½ éĩįçĤ¹æĸĩçī©ä¿ĿæĬ¤åįķä½į
å¯¼èĩ´ äºĨ
æľīåħ³ çļĦ
ä»ĺ è´¹
çļĦçī¹ æľī
æĲŃ æ¡£
é¡ºæĹ¶éĴĪ ä¸İ
åĩ» éĢĢ
æĶ¿æ²» éĥ¨
éª¨ éª
ç»§æī¿ äºº
å² ĳ
åĪ¶ å¤ĩ
çł į
èī² æĥħ
å¥¥ åı¤
æĶ¯ æĴĳ
æİ¨ çĲĨ
at e
æĵ ¢
äºİ200 2å¹´
åĽ½ å¤ĸ
åĴ Ĵ
éģĵ å¤«
åĲĦ çº§
äº¦ åı¯
å®« æ®¿
190 9å¹´
è¶ħçº§ èģĶèµĽ
åŃ£åĲİ èµĽ
ä¸İ å¤§
æ³ķ è§Ħ
ä»£ æķ°
çĲĥ æ¯ĶèµĽ
ä½Ĩ æ²¡æľī
æŃ£ ç»Ł
èį «
åºĶ å½ĵ
çº³ çľģ
åĽ½å®¶ è¶³çĲĥéĺŁ
åı¯ä»¥ çĶ¨
çĳ ¶
åĶĲ çº³
æŁĲ ä¸ª
æļĹ ç¤º
åĭĥèī® ç¬¬
èĢĮ åĲİ
ä¸ľ æĹ¥æľ¬
ç§ĳ çłĶ
éĺ¿ åĪĹ
çĽ´ å±ŀ
æĶ¿åºľ åľ¨
æĹı çļĦ
éĺ² çº¿
æ´ĭ åŁº
ä¸ģ çĽ®
æĺ¯ä¸Ģ æ¬¾
å¾Ĵ åĪĳ
ç¨³ å®ļçļĦ
æĪĺå½¹ ä¸Ń
Window sĠ
Ġç®Ģ åİĨ
5 ä¸ĩ
A G
B 1900
çī¹ å®ļçļĦ
é«ĺ éĵģ
âĢĿ ;
è¯¥ ç«Ļ
or n
å¥¹ æĺ¯
å¼ķ å¯¼
17 2
éĵ¶ çº¬
is s
192 2å¹´
äºİ18 7
æĸ°å¢ŀ æľ¬åľŁ
Ġè½¦ç«Ļ æŀĦéĢł
çļĦ æ¶Īæģ¯
çŃ ĭ
çĶ± åħ¶
æĭī å§Ĩ
è·¯ åĨĽ
åĪĹ æĸ¯
åı¤ å±ĭ
ç¬¬ä¸Ģ æī¹
æĶ¾ å°Ħ
åĩı å¼±
ä¼ĬåĪ© è¯ºä¼Ĭ
éª¨éª ¼
8 ç±³
c ol
Ġ ç»ıåİĨ
åħ¬ ç«ĭ
çĶµ åİĭ
on e
éŃ ħ
éģĹ ä½ĵ
éĢģ å¾Ģ
æĿ¥æºĲ äºİ
åĳ¨æģ© æĿ¥
0 åĿĲæłĩä¸º
4 ç±³
Ġ 15
ä¹ ŀ
å¥ ķ
åħ¶ B1900
è¿Ľ ç¨ĭ
å¢ ©
åŀ ĥ
å¥¥ å¾·
é² ·
æĹı èĩªæ²»åĮº
è¿ª æĸ¯
2019 åĨłçĬ¶çĹħæ¯Ĵ
Window s
ä½įäºİéĵ¶ ç»ı
0åĿĲæłĩä¸º èµ¤ç»ı
, "
u x
çļĦ ä½¿çĶ¨
ä¿ ŀ
çĪ ¸
å¥¥ å¤ļ
14 6
ï¼ İ
å°ĳæķ° æ°ĳæĹı
èĤĮ èĤī
I R
è¿ĩ åĲİ
é¢Ĩ éĺŁ
æĽ´ é«ĺ
ä¿¡ å¥ī
å¯Ĩ è¥¿
ãĥ ³
æ²ī ç§¯
åįĹæŀģ æĿ¡çº¦
æĩ ¿
éĴ» çŁ³
çŁ ¢
ç»´ æĭī
éħ¸ çĽĲ
åĲ¦ åĨ³
éĢĥ äº¡
of t
å¸ĥæĭī æł¼
å¤įæĿĤ çļĦ
éĢ¢ æĺŁæľŁ
å½ķéŁ³ å®¤
æĺİå°¼ èĭı
Ġ å·´
ä¸Ĭ æł¡
è¯´ æĺ¯
åį³ æĺ¯
ç»Ń éĽĨ
éĤ£ ä¸ª
æ³½ è¥¿
çİ°ä»£ åĮĸ
ä¸įä¹ħ åĲİ
æĻ ·
åįİ åįĹ
11 æľĪ1æĹ¥
èī¾ ä¼¦
åĩ»è´¥ äºĨ
Ġ199 9å¹´
è´· æ¬¾
i i
y st
çļĦ å¥³æĢ§
å½ ¬
åħ¬ ç½²
åı¯ çĶ¨
æīĢ è¾ĸ
at t
æľ¨ åĦ¿
è´¢ å¯Į
ä¸ºä¸» é¢ĺ
191 1å¹´
æĢ»éĥ¨ ä½įäºİ
å¦Ī ç¥ĸ
ç« ĸ
é«ĺ åľ°
æľª ç»ı
æľª æĿ¥çļĦ
èĤ¡ æĿĥ
ãģ ®
çĶĺèĤĥ çľģ
Ġ ä¸Ńåįİäººæ°ĳåħ±åĴĮåĽ½
åľ ¾
åľ¨ å¾·åĽ½
å½ Ĺ
åħ¶ çĪ¶
åĮĹ å®ĭ
ãĢį ()
ä¸ĸ ä»£
æ¯Ķ 2
æĶ¹ ä»»
èİ± åĿŀ
çĥĪ å£«
ĠA l
ãĢīãĢģ ãĢĪ
åŀĥ åľ¾
T E
c odice
çļĦ ä½ľçĶ¨
ä¸ľ é£İ
æĽ¾ ä¸İ
èĪ° èīĩ
åĨ² ç»³
ç£ ħ
åºĻ å®ĩ
è®¾ç«ĭ çļĦ
é¥Ń åºĹ
B D
Ġ æĸĩåĮĸ
åįĹ ä¸ĭ
å¾· åħ°
å¼º è¿«
æŀģ éĻĲ
èľ ¥
ç©¿ èĳĹ
éĩįåºĨ å¸Ĥ
æĸ¯æ´Ľ ä¼Ĳåħĭ
å®° çĽ¸
å¡ŀæĭľ çĸĨ
1 åı·çº¿
æĺ¯ å¤§
åĲİ æīį
ç¬¬ 9
å¸Ĥ åĨħ
å¸ĥ åĪĹ
é©¬ è¾¾
åİ¿ çº§
ç»ĵ å±Ģ
è¿ĺ è¦ģ
æ´Ľ ä¼Ĭ
ä¾Ŀ æĹ§
ä¸¾è¡Į äºĨ
éħĴ ç²¾
192 1å¹´
å§Ĳ å§Ĳ
ä¹¡éķĩ çº§è¡ĮæĶ¿åįķä½į
ä¹ĭ æĦı
åħ³ ä¸ľ
é¢Ĩ è¡Ķ
å¤ª å®Ĺ
æĿĥ çĽĬ
æ³¢ éŁ³
èĩªçĶ± åħļ
æĴŃåĩº çļĦ
æ³ī å·ŀ
åı°ä¸Ń å¸Ĥ
å¤©çĦ¶ æ°Ķ
1 ç±³
ä¸Ģ çĶŁ
åĴĮ æĸ°
åı¯ åĪĨä¸º
çī© æµ¦
ä¸ĵ åĮº
çļĦä¸Ģ ä½į
è´¹ åŁİ
æ¶Ī éĻ¤
æĺ¥ åŃ£
æ·· åĩĿ
æ´ª æŃ¦
æĸ¹åĲĳ çļĦ
å¼ķèµ· äºĨ
B M
å¤§ éĥ¨ä»½
é©¬ å¾·éĩĮ
ç¬¬äºĮ è½®
èİ« å°Ķ
ä¸»æķĻ åº§åłĤ
æķı æĦŁ
Ġ çĽ¸åħ³
ç» °
èĢĮ å¾ĹåĲį
12 ä¸ª
15 00
åĽ´ æĶ»
çİĽä¸½ äºļ
c k
Ġ è¿Ļä¸ª
æľ Ķ
æ² ¦
ä¸į åıĬ
å°ı å¹³
10 8
10 9
æł¼ æĸ¯
å¤§åŃ¦ çĶŁ
æ¯ı ä¸Ģä¸ª
æķħ éļľ
æĹ¶éĹ´ åĨħ
ç»ĦæĪĲ éĥ¨åĪĨ
èĮ¨ åŁº
çŀ Ħ
å±±èĦī çļĦä¸Ģéĥ¨åĪĨ
å¿ĥçĲĨ åŃ¦
3 D
8 æľĪ1æĹ¥
9 æľĪ1æĹ¥
i Ġ
Ġ ç¤¾ä¼ļ
åľ¨ è¿Ļä¸ª
åº µ
å¤§ äºİ
å¤§ è´¥
åĴĮ ä¸Ģä¸ª
æ° °
ä¸» ç¼ĸ
åĪĨ æķ£
éĿ¢ åīį
èµ· äºĨ
å°Ħ åħ¥
âĢĿ, âĢľ
è½¨éģĵ äº¤éĢļ
çº³ç²¹ å¾·åĽ½
æĸ°åĨłèĤºçĤİ ç¡®è¯ĬçĹħä¾ĭ
Ġ çĶµå½±
ç» £
çº ±
æ¼ ³
æį® çĤ¹
åıª åľ¨
16 7
æŃ¥ è¡Į
æ¿ ĳ
åĽ½æ°ĳ éĿ©åĳ½åĨĽ
æ© ĺ
è¿ŀç»Ń åī§
åŁĶ å¯¨
èĦĤ é²¤
çļĦ M
ä¸Ģ è§Ĵ
åŃ ¢
çĶµ å®¹
çĶµ æ¢¯
åĪĽ æĦı
æ²ī æ²¡
ä¼łæķĻ å£«
çºº ç»ĩ
e le
çļĦ çİ¯å¢ĥ
å¯ Ŀ
éĺ İ
åı¯ çĶ±
åĪ© çī©æµ¦
éĹ´ æİ¥
çĥ ¦
ä¸ĸçķĮ çļĦ
åº§ ä½į
17 3
14 8
ä½ľåĵģ çļĦ
éĽħ åĲĦ
åĵ² åŃ¦å®¶
æŁ¬ åŁĶå¯¨
2 åĲį
4 åĲį
æĹ¶ ä¼ļ
åĪĨ å¼Ģ
åł ķ
é² ¨
è¶³ ä»¥
ç´¢ å°¼
æļ´ éľ²
äººç±» çļĦ
çİ¯å½¢ å±±
èįĥ æ¹¾
åįĹæŀģæĿ¡çº¦ ä½ĵç³»
ä¸İ ä¸ŃåĽ½
ä¸į å¦Ĥ
æľĢ å¥½çļĦ
ä¹Ł æĪĲä¸º
ä¸¤ å¤§
éĩĳ æĽ²
ç©º è°ĥ
åĪĽ ä¸ĭ
è¿ŀ åĲĮ
åģľ çķĻ
éĩİ æĪĺ
åĲ¯ åıĳ
äºİ199 8å¹´
æłĸæģ¯ åľ°
ç¿°æŀĹ éĻ¢
åİ ķ
ä½į åĪĹ
æľĢ å°ı
èĬ ¯
åħ¨ åı°
åĮħæĭ¬ ä»¥ä¸ĭ
èĬ± è´¹
è¿ģ å¾Ļ
èī¯ å¥½çļĦ
ç´§ å¯Ĩ
N C
æĹ¶ è¢«
æµ ı
ä¸į åľ¨
è¾¾ å°¼
èµ· é£ŀ
æĺİ çļĦ
åĩºçĶŁ åľ¨
æ··åĩĿ åľŁ
çļĦ è¡ĮåĬ¨
å® ¦
å¹¶ å¯¹
å¹¶ ç§°
äºĭ ä¸Ń
è·¯ å¾·
èĬ ½
æķ° çĽ®
åħļ ç±į
çļĦä¸Ģ å®¶
åľ£ æ®¿
åįł æĢ»äººåı£
èĮĥ çķ´
åŃ¦éĻ¢ çļĦ
åĲİæĿ¥ è¢«
é¢Ĺ å°ıè¡ĮæĺŁ
192 3å¹´
191 3å¹´
åĵĪå°Ķæ»¨ å¸Ĥ
r on
Ġ å®ī
ä¸Ģ åıª
ä¸İ ç¾İåĽ½
ä¹ĭ è·¯
å¾· çĶ²
ç»´ èİ±
åĽŀ å¤į
ç©º éĻį
çº³ è¥¿
éŁ³ä¹Ĳ ä¼ļ
äºİ200 1å¹´
æļĹ æĿĢ
Ġof Ġthe
D R
ä¸Ń åľº
æº ´
åĮĹäº¬ å¤§åŃ¦
ä¼ĺ æĥł
J ohn
Ġ ç¬¬ä¸ī
ä¸º ä»ĸ
é¢ ħ
ç¤º èĮĥ
æĥħ å½¢
èĻ ŀ
éªĮ è¯ģ
èĤ¡ ç¥¨
æ±Ĺ åĽ½
Ð ¾
Ġ èģĮä¸ļçĶŁæ¶¯
å® µ
ä¸į éľĢè¦ģ
æĸĩ çļĦ
äºĭ å®ľ
äºĮ æ°§åĮĸ
å¤© ç©º
è¿Ĳ éĢģ
æ¼Ķ ä¹ł
åĳĬ çŁ¥
æ³½ å°Ķ
è¯¸ å¦Ĥ
ä¸§ å¤±
2019åĨłçĬ¶çĹħæ¯Ĵ çĹħ
ä½ ¥
åŃ ľ
åī Į
äºĮ çĶ²
å§ĭ äºİ
çīĩ ä¸Ń
ç¬¬ä¸Ģ éĥ¨
æŃ¦ æľ¯
çĵ¦ æĭī
çĪ± æ²Ļ
èĢģ æĿ¿
çľŁ çļĦ
ä½ł ä»¬
åįĹæŀģæĿ¡çº¦ä½ĵç³» ç®¡çĲĨ
Ġ å¤ĸéĥ¨
âĢľ âĢĿ
ç«ĭ åĪ»
åıį åĩ»
ç¦ı åĨĪ
åįļ å°Ķ
æ°¸ ä¹Ĳ
195 0å¹´ä»£
å»ºç«ĭ çļĦ
åħ¶ä¸Ń æľī
ç»į åħ´
æģĭ çĪ±
åľ¨æŃ¤ æľŁéĹ´
ĠS ch
çĦ¦ çĤ¹
æłª å¼ı
çĪ±æ²Ļ å°¼äºļ
C l
D C
åĲį åı¤å±ĭ
ç¾ Į
æĽ´ åĲį
åĩ» èĲ½
å¹¸ ç¦ı
æłªå¼ı ä¼ļç¤¾
åĲİ ä»£
æµ ĳ
çĶ± ç¾İåĽ½
æĸ° çĶŁ
è° ľ
åħ¨ æķ°
åı² æĸĻ
å°± å·²ç»ı
åĻ ª
14 7
èĴĻ å¾·
æ®ĭçĸ¾ äºº
U R
Ġ èĭ±åĽ½
æĺ¯ å½ĵåľ°
åī ĸ
éļ Ļ
èĤ Ĩ
ç¼ ł
æĢ» ç»ĵ
éĶ ¯
åıĪ æľī
è¾ĥ å°ı
æĸ½ è¡Į
äºĭä»¶ çļĦ
éĢĤ å½ĵ
ä¸ĺ éĻµ
éĽĨä¸Ń åľ¨
æħķ å®¹
åĮºè®®ä¼ļ éĢīä¸¾
çļĦ æ¯ĶèµĽä¸Ń
äºº è®¤ä¸º
é©¬ åľº
éĩį ä¼¤
åŁİ éĹ¨
å·´ éĩĮ
æĻ® å°Ķ
ç»Ļ ä»ĸ
ç³»ç»Ł ä¸Ń
éĻį çº§
ä»ĭ åħ¥
èĨ ¨
åħĭéĩĮ æĸ¯èĴĤ
ä¼´ ä¾£
å¸ĸ æľ¨åĦ¿
Ġ ç½Ĺ
æ² §
åĲĮ æ²»
12 8
ç¡ Ŀ
åĽ½å®¶ çº§
åħŃ ä¸ĸ
å®¢ ä¸²
æİĴ æĶ¾
å¹² çĩ¥
ä¸¹ å°¼å°Ķ
ro p
éĺµ çº¿
ç½ª åĲį
æ¿Ģ è¿Ľ
å¨ģå°Ķ å£«
åľ¨ åįĹ
åĩ ¹
ä½Ĩ è¿Ļ
åİŁ åĿĢ
åŁİ åĨħ
æīĭ æ³ķ
ä¿Ŀ èĤ²
æ· ¹
è¿ĺ ä¼ļ
éĢļè¿ĩ äºĨ
ç£ģ åľº
èĲ¨åħĭ æ£®
ä¸īè§Ĵ å½¢
o th
Ġ æķĻèĤ²
åĽ½ åľŁ
ä¸Ĭ å±Ĥ
æĸ¹ éĴĪ
å¦ ĵ
å¿ĥ çļĦ
å¤į ä»ĩ
æ¥ ł
åįĥ äºº
åĳĬ ç¤º
éĺµ åľ°
æĪ´ ç»´æĸ¯
æĦıè¯Ĩ å½¢æĢģ
ç» Ĵ
åº Ĳ
ä¹ĭ ä¹±
æµ· åºķ
åħ¨ å¹´
ç¨ ļ
å¯¿ åĳ½
äºİ18 6
ver s
å·¥ éĥ¨
æĹł éĶ¡
éĴ ¥
åħĪ åıĳ
å®Į åĸĦ
en g
16 9
çĽĳ è§Ĩ
çĴ ĭ
191 7å¹´
B O
ä¸Ģ æĹ¥
ä¸Ģ éĹ´
ä¸Ĭ ç©º
ä¸į å¤ļ
åħ¨ å¢ĥ
å¼º å¤§
åĨĻ çļĦ
èĨ Ģ
æĤł ä¹ħ
Ġ è¿ĻäºĽ
åĮĹ ç¾İæ´²
éĿ¢ 2
èµĽ åĨłåĨĽ
åħĥ é¦ĸ
17 4
è®© äºº
éĵ¶ æ²³
è¿½ åĩ»
çī©çĲĨ åŃ¦å®¶
åĵĪå°Ķ ç§ĳå¤«
c o
Ġ æ°ĳåĽ½
ä¸Ģ æīĢ
åĽ½ ç±į
ä¸į åĪ©
è¥¿ æ¯Ķ
äºĮ åı·
å®ļ äºĨ
æĢ§ è¡Įä¸º
æĹł åħ³
æ· «
è§ģ è¯ģ
è´Ń åħ¥
6æľĪ 30æĹ¥
çıį çıł
Ġ194 5å¹´
çºµ éĺŁ
çİ°æĹ¶çĶ± åįĹæŀģæĿ¡çº¦ä½ĵç³»ç®¡çĲĨ
? âĢĿ
I M
çļĦ äººåı£
æĮ Ŀ
ç§ĳ è¿Ľå£«
çĽ¸ å¯¹äºİ
äºĶ ä¸ĸ
èģĮ äººåĳĺ
åĽ¾ æĽ¼
çŁ³ å¤´
éħį è§Ĵ
åŁĥ å¾·
é¡¹çĽ® çļĦ
å§ĵ åĲį
èģĺ è¯·
äºİ é¦Ļæ¸¯
ä¼ļ ä»¥
æĻ °
éĿ¢ åĮħ
æĪĺ æĹ¶
å¦ Ĩ
ä½Ĩ ä¹Ł
æŃ» èĢħ
èĵ ī
åĢŁ æŃ¤
èı© èĲ¨
çļĦ éĩį
çļĦ è½¨éģĵ
å¼ §
åĮĹ æŀģ
è¿ĩ äºĨ
çº¦ 3
æŀĹ èĤ¯
åİĨ ç»ı
æĴŃ æĺł
å¥ĸ ç«ł
å®ĩ æĸĩ
èĦĬ æ¤İ
D A
ä¸Ģ è¾Ĩ
æµ ´
å¹¶ å¼Ģå§ĭ
ç© Ĺ
åŀ «
åįĹéĥ¨ çļĦ
ç½ª è¡Į
ed Ġ
åıĳè¡¨ çļĦ
èĢ³ æĽ¼
åĬŀåħ¬ åİħ
æ¸ħçľŁ å¯º
6 æľĪ1æĹ¥
Ġ åı¤
ä¸į åı¯èĥ½
å¼Ģ è¾Ł
æ°´ éĿ¢
åĪĹ é¢ł
æ¨ Ł
æŃ» åİ»
èĶ ½
ç¼© çŁŃ
é¢ĨåŁŁ çļĦ
çģ° èī²
çļĦ è¿ĩç¨ĭ
ä¹ ĵ
ä¸Ģ åĳ¨
è¯´ çļĦ
æµģ éĢļ
åį¢ æ£®åł¡
å®īå¾· çĥĪ
æº¶ æ¶²
Ġ æ°´
è¥¿ å¾·
æĸ° åŀĭ
ç¤¾ åĽ¢
åį° åľ°
åĲİæĿ¥ åľ¨
ro w
æĳ© æł¹
æłĳ æľ¨
é«ĺçŃī æķĻèĤ²
æ©¡ èĥ¶
1 å®¶
d u
ä¸Ģ ç¾¤
åľ° åĬ¿
ä¸İ æĹ¥æľ¬
å» ¿
æľ¬ åī§
ç½Ĺ éĹ¨
ç§ĳ åĮ»çĶŁ
å°ĳ éĩı
çĳ °
è´¨ çļĦ
è¡ĮæĶ¿ åĮºåŁŁ
å¤ªéĺ³ åħ¬
çĹĽ èĭ¦
æ¶Īè´¹ èĢħ
âĪ Ĵ
çļĦ å®ĺæĸ¹
å¹´ åºķ
ä¸» åĶ±
ä¹Ł å°Ĩ
è¯¥ ä¹¦
å¤© æ¡¥
è¿ĺ åİŁ
å¤į åĪ¶
æİ¨ è¿Ł
å© ·
æľĢåĲİ ä¸Ģä¸ª
å®½ åº¦
å¹¼ åĦ¿
éģµ å¾ª
ç»¼èīº èĬĤçĽ®
m a
ç»Ħ çļĦ
å®ĺ èģĮ
æĬ¥ å¤į
è¯Ĩ åŃĹ
åĮĹéĥ¨ çļĦ
il d
æ¯Ĵ åĵģ
çģ¾ å®³
è£Ķ ç¾İåĽ½äºº
éļĲ èĹı
eb ook
9 ä¸ª
L e
y le
ä¸º ç¾İåĽ½
å¤§ å¤§
åĲį åĪĹ
å¹¶ å°Ĩåħ¶
è¥¿ è·¯
æľ¬ éĥ¨
åıĪ è¢«
è¾¹ å½¢
ä¸Ń æīĢ
ä¸Ĭ åľº
ä¸İ ä»ĸ
åĮº è´Łè´£ç®¡è¾ĸ
ç¬¬ 13
åĪ© å®ī
é«ĺ ä¸½
èģĶ éĺŁ
é¦ĸ å¼ł
è¿ĳ ä¼¼
æ³½ å°Ķçľģ
ing Ġ
å½¢å¼ı çļĦ
æ²³éģĵ åħ¨éķ¿
I F
æľī ä¸ī
åĲİ ä¸įä¹ħ
åħ¬ åĽ½
èĩ³ 3
äº¤ å¾Ģ
å°± èĥ½
æĪĲä¸º ä¸Ģä¸ª
åķ ¤
ar e
æģ© æĸ¯
èĢģ æĮĿ
éĵģè·¯ åħ¬åı¸
Ġ199 8å¹´
è®½ åĪº
9 0å¹´ä»£
æĭ ¾
æĹ¶ å°ļ
è¥¿ èĴĻ
çľģ è´Łè´£ç®¡è¾ĸ
åİĨ ä»£
åħµ éĥ¨
ç¬¬äºĮ åŃ£
åł¡ åŀĴ
åºŁ å¼ĥ
AT P
æĺ¯ä¸ĭè¾ĸçļĦä¸Ģä¸ª ä¹¡éķĩçº§è¡ĮæĶ¿åįķä½į
è¿Ħ ä»Ĭ
Ġ ä½Ĩ
ä¸Ń ä¸ľ
å¤§ åĨĽ
åĪĨ æŃ§
æĪĺ èĪ°
ä¸ĸçºª æľ«
çīĽ æĸ¯
ä¸ľéĥ¨ æĹ¶åĮº
5 Ġ
çļĦ çĥŃ
çļĦ ä¸¤ä¸ª
ä¸Ĭ èİ·å¾Ĺ
è¢« åĪĹåħ¥
èī ³
æĸĩ éĿ©
æĶ¹ çĶ¨
çª Ł
æľĢç»Ī ä»¥
çĳŀ åħĭ
åİħ éķ¿
æ¨ª æ»¨
æĩ Ĥ
1 18
Ġ end
çļĦ æĹł
æľī æĦı
æľī ä¸ĢäºĽ
åĲĮ ä¸º
å¼Ģ è¡Į
å¾Ĺ åĩº
æ¡ ¨
åĪĻ è®¤ä¸º
ä¹¦ åºĹ
éĻĲ å®ļ
196 0å¹´ä»£
æĺł å°Ħ
åĪĽåĬŀ äºº
8 0å¹´ä»£
Ġ åĪĺ
Ġ åħ³äºİ
ä¸İ åīį
åħ¬ æĬķ
å¼Ģ æĻ®
èµĽ é©¬
æĶ¶ å¤į
éĻĨ æĪĺéĺŁ
en n
æĤ Ķ
éĻį èĲ½
ac e
å·´å£« è·¯çº¿
çĨŁ æĤī
éĦĤ åĽ¾æĽ¼
æĭĺ çķĻ
Ġ æ¯ĶèµĽ
ä¸Ģ å¯¹
çĶŁ åīį
ç¬¬ 12
è¥¿ ä¼¯åĪ©äºļ
å½ĵ åīį
åıĪ è¯ĳ
åĺ Ľ
æ¨ª è·¨
è¿Ī åħĭå°Ķ
å±Ĭåħ¨åĽ½ æĶ¿åįıå§Ķåĳĺ
U n
å¯ ħ
çİ «
è¢« åĪ¤
åİŁ æľīçļĦ
åį¡ æĸ¯èĴĤ
ç² ĺ
ç¼ĸ æĽ²
æĪ¿ åŃĲ
çĲĨäºĭ éķ¿
éģµ å®Ī
ED T
IST AT
çļĦ åįķ
çļĦ æĦıæĢĿ
æĹ¶ ç©º
ä¼ļ å°Ĩ
ä¸ª åĪ«
å±± åĿ¡
ç¤¾ éķ¿
èĲ½ å®ŀ
çī¹åĪ« è¡ĮæĶ¿åĮº
å»ºéĢł çļĦ
çĿ¡ çľł
5 000
çļĦ å®ļä¹ī
å¹ ¢
çĶ¨ åľ°
æ°ĳ çĶ¨
å¸ĥ æĸ¯
æıĲ åĢ¡
åĽŀ æĿ¥
ä¸ĩ åĲį
æłĩ ç¤º
åĽ¾ å°Ķ
æ¸ħ åĨĽ
ä¼ģ åĪĴ
äºİ199 9å¹´
ä»ĵ åºĵ
æĺ¯ä¸Ģé¢Ĺ åĽ´ç»ķ
à ¤
Ġ ä¸ĢäºĽ
ä¸º 4
ä¸º ä½ķ
ä¸Ģ å±Ĥ
ä¸Ĭ åįĬ
æĬ ¬
æĽ Ŀ
çŃ Ľ
å°Ĩ äºİ
10 4
åĢ ª
æĺŁ éĻħ
ä»¥åıĬ åľ¨
çľĭ èµ·æĿ¥
å®Ī å¤ĩ
Ġè¿Ļ é¢Ĺå°ıè¡ĮæĺŁ
ä¹Ĵ ä¹ĵ
7 ç±³
ä¸Ń æ¯Ĵ
ä¸İ ä¹ĭ
åıĬ æĹ¶
çľģ ä¼ļ
éĢļ æĬ¥
æł¼ èİ±
å±ŀ æĢ§
åĽ¾ çīĩ
è§Ĵ éĢĲ
çº¢ åįģåŃĹ
è¡Ĺ åĮº
æĻĭ åįĩä¸º
yĠ of
åĪ¶çīĩ äºº
5 è°ĥå¿«ä¸Ģå°ıæĹ¶
çļĦ ä¿¡
ä¸Ģ å¼ł
ä¸Ń èİ·å¾Ĺ
äºº äºĭ
æķ° å¹´
æķ° çłģ
ç§ĳ ç½Ĺ
ç«Ļ åľ¨
åħĥ æľĹ
æĻ® éĩĮ
éª Ĥ
la r
æļ ĳ
åį« åĨķ
æīĺ å°Ķ
çĻ» å½ķ
é©» å®Ī
æĹĭ å¾ĭ
è¡£ æľį
äºİ18 5
Ġ199 7å¹´
æĢ»çĿ£ åºľ
åį³åĮĹç¾İ ä¸ľéĥ¨æĹ¶åĮº
å¤ªéĺ³åħ¬ è½¬çļĦå°ıè¡ĮæĺŁ
æĺ¯ä¸Ģé¢ĹåĽ´ç»ķ å¤ªéĺ³åħ¬è½¬çļĦå°ıè¡ĮæĺŁ
Ġ åĽłä¸º
ä¸Ń éĺŁ
åĴĮ éĺ¿
è° ı
é©¬ åĪ©
åįļ è§Ī
æ³° å°Ķ
å·® åĪ«
æ¯ĶåĪ© çīĽæĸ¯
éĹ½ åįĹ
çļĦ å®¶
ä¸º ä¸Ńå¿ĥ
æĿ ı
æķ ·
äºĨ ä¸¤
ä¸į ä¸Ģ
çĶŁ æĹ¥
åıĬ åĪ©äºļ
è¦ģ å¡ŀ
èº« é«ĺ
ä¸»è¦ģ çĶ±
èŃ¦ åĬ¡
æ°¸ åº·
çŁŃ æľŁ
æ¯ģ çģŃ
Ġ å¦Ĥæŀľ
å®ŀ ä¸ļ
æ¶Ī èĢĹ
éĵģè·¯ å±Ģ
Ġè¿Ļé¢Ĺå°ıè¡ĮæĺŁ çļĦç»Ŀå¯¹
u e
çļĦ ç¾İ
åĲİ è£Ķ
æĻ ¤
éĥ½ èĥ½
åĲī äºļ
é¡¶ çĤ¹
æ¸Ķ ä¸ļ
æĸ¯å¤§ æŀĹ
Ġ Ð
åĽ½ ä¸Ń
ä¹ĭ åĨħ
æĸĩ å¸Ŀ
ä¸ŃåĽ½ ç§ĳåŃ¦éĻ¢
åĪ« å¢ħ
æ¸ħ æĻ°
çľŁ çĽ¸
æ³¨ å°Ħ
ac ebook
æ¶² ä½ĵ
çĥ§ æ¯ģ
éĽķ åĪ»
ĠT h
è´µå·ŀ çľģ
Ġ 188
å¤§ éĹ¨
äºļ ç§į
æµ· æ¹¾
æŃ¤ å¤©ä½ĵ
çĥ ¹
åıĺ å½¢
æľª è¢«
èĪ° åıª
åģļ äºĨ
é³ ĥ
å¥ī åĳ½
eg in
çļĦ åħī
çļĦ ä¸Ńå¿ĥ
ç» İ
æĺ¯ è¯¥
ä»¥ æĿ¥çļĦ
åĬ¨ æľº
èĪ ħ
æİ¥ ä¸ĭæĿ¥çļĦ
çİĭ çļĦ
å·´ çī¹
å¤« åĭĴ
åıį å¤į
å¯Ĩ çłģ
æĬ¤ åį«
ç¢ ĺ
åĲ« ä¹ī
ç¿» æĸ°
ä¸°å¯Į çļĦ
E E
æľī åĬ©äºİ
åĴĮ çļĦ
ä¸į åĪĹé¢ł
ä¸ľ æ±ī
å¸ĥ ç½Ĺ
è¿Ĳ è½½
éĺ¿ å¯Ĩ
å¸¸ è¢«
åķĨ æłĩ
ç½ĳ é¡µ
äº¦ åľ¨
å¤± ä¸ļ
ä¸įåĲĮ äºİ
å»¶ è¿Ł
æĵ Ĵ
éĺ¶ å±Ĥ
å£ģ çĶ»
Ġ åĽł
çļĦ æķ°éĩı
ä¸º ä¸Ń
è¡Į çľģ
åĪ© çī¹
ä¸ī å±Ĥ
åįİ ä¾¨
åıĤ æĶ¿
æ® ī
è¾ĥ å¤ļ
éĺ³ åħī
ç§» äº¤
è®°èĢħ ä¼ļ
åľ¨ éĺ¿
ä¸Ģ è¾¹
åĽ½ åħ¬
çĽ¸ æľº
åī§ ç»Ħ
èģĮ èĥ½
æĶ¾ æĺł
13 8
å© ī
ä¸§ çĶŁ
å¸Ĩ èĪ¹
D P
Ġ çİ°
çļĦ æĬĢæľ¯
ä¸Ģ èīĺ
åĨ ¶
æĮ «
ä¸ĭ æ°´
è¿ĩ ä¸ĸ
åħ¥ çĭ±
ä¸ĩ å¹³æĸ¹ç±³
è®¡åĪĴ çļĦ
åĲĮå¹´ 12æľĪ
ç¼º éĻ·
è®¾ç«ĭ äºĨ
å¢ĵ èĳ¬
å¤ĸäº¤ å®ĺ
åĪļ æŀľ
æĤ£ æľī
è¿Ŀ æ³ķ
eĠ C
æ¹¿ åľ°
å·© åĽº
i el
Ľ èµ·
åĮ £
æĹ¶ è¡¨ç¤º
æ°ĳ åħµ
æīĢ éķ¿
ä¸ī éĥ¨
æĭī çļĦ
ç¼ ª
10 6
åĢ Ń
12 9
åıĺ éĩı
çľŁ èıĮ
æŃ£å¼ı æĪĲç«ĭ
æī© æķ£
Ġ199 4å¹´
è¯ºæĽ¼ åºķ
çĽ¸è¾ĥ äºİ
æ¾İ æ¹ĸ
çļĦ åŁºæľ¬
è¡ ·
åĴĮ å°ı
åĵ ĩ
å£ ¶
å·ŀ äºº
åħļ åĨħ
åĪĽ ä¸ļ
æ¸ħ å»·
èµ° å»Ĭ
åĲĮå¹´ 10æľĪ
æľ« ç«¯
è¯¸ èĳĽ
äºİ199 7å¹´
åĴ¸ ä¸°
N G
Ġ æŀĹ
åĩº å±Ģ
è¿Ļ æĿ¡
åĮĹ æ´ĭ
æĸĩ ä¸Ń
åīį èº«ä¸º
æ°´ åĩĨ
éĩĩ çº³
æģ¶ åĬ£
æĹħå®¢ éĵģéģĵ
åĬ¨è½¦ ç»Ħ
2 åı·çº¿
è ł
Ġ è®¾è®¡
Ġ å½±åĵį
çļĦ ä¸įåĲĮ
ä¸Ģ çŃī
åĲİ ä¸ĸ
è¡Į ä½¿
è¿Ļ ä½¿å¾Ĺ
æŃ¤ ä¸Ģ
è¯¥ èĪ°
è·¯ ç«Ļ
çİĭ åĲİ
00 å¹³æĸ¹åįĥç±³
åĪĻ ä¼ļ
éĺ³ æĢ§
çĹħ äºº
çĻ» è¿Ľå£«
èŀį åħ¥
å°Ķæĸ¯ åħĭ
èĢĥèĻĳ åĪ°
ä¸ĵæ³¨ äºİ
3 æľĪ1æĹ¥
T O
åħ ĳ
ä¸Ģ åįĥ
ç½ ¹
ä»£ åı·
å°¼ çļĦ
åĵĪ ä½Ľ
è¿ľ ç¦»
ç¥ĸ ç±į
èĤ¯ å¡ĶåŁº
èĤī é£ŁæĢ§
æ±¤ å§Ĩ
éĥĬ åĮº
9 æĹ¶
ç« Ń
å¾· åĭĴ
å¥³ äºº
å®ŀ ä¹ł
èĭı åĨĽ
çĶ· æ¼Ķåĳĺ
å¥½ èİ±åĿŀ
éĤ£ å·ŀ
æ·± åıĹ
13 9
çĥŃå¸¦ ä½İæ°Ķåİĭ
é£İæł¼ çļĦ
191 6å¹´
ä¿®æŃ£ æ¡Ī
éĺ¿åŁº åĿ¦
çļ ĸ
çļĦ éĢŁåº¦
åĨĽ éķ¿
ä¹Ł ç§°ä¸º
å¸ĥ ç½®
åŁº å°Ķ
é¦ĸ å±Ĭ
12 6
è¾ĥ é«ĺçļĦ
çļĩ å®¤
çŃ¾ ä¸ĭ
et t
å²Ń åįĹ
éĤĵ å°ıå¹³
åºķå±Ĥ æ°´åŁŁ
e ch
é« ĵ
çī© ä¸ļ
è½¦ ä½ĵ
æĪĺ åĮº
æµģ æĶ¾
èµĦ æ·±
å±ħ äºİ
ç¢ Ĺ
ä»į æĺ¯
æĿĢ æīĭ
åģ¶ å°Ķ
å¡Ķå°¼ å¤§åĮº
å¸ĥæĶ¿ ä½¿
8 æĹ¶
A d
C ST
ä¸Ń ç«ĭ
éķ °
æĸ° æĿĳ
åĨħ æĸ¯
èĢħ åĴĮ
çł Į
å°¼ åŁº
éĩĳ é¢Ŀ
ä¼Ĭ ä¸½
ä¹Į å°Ķ
æľįåĬ¡ çļĦ
ä¿ĿæĬ¤ åĮº
åĩºçīĪ äºĨ
å·¨ äºº
å¼ķåıĳ äºĨ
Ġ æĪĺåĲİ
çļĦ å¤´
åľ¨ æł¡
åīį å¤ķ
è¿Ľ é©»
çĽ¸ è¿ĳ
èĭ± å±ŀ
å·² æĪĲä¸º
åºĶ çĶ¨äºİ
ä¼ł æī¿
æĶ¯ éĥ¨
ç¥ŀ åºĻ
æ¦ Ĩ
ä¸Ńå¤® å§Ķåĳĺä¼ļ
ç§» éĻ¤
åį°åº¦ æ´ĭ
ç¤¼ æĭľ
èĶ ĵ
åħĦ éķ¿
èħ¹ éĥ¨
åīĬ å¼±
æĭ¨ æ¬¾
æł¸éħ¸ æ£Ģæµĭ
B 48
E M
a e
è¥¿ åĮº
æĸ° åįİ
æľĢ åħ·
çĦ ķ
è¯Ń æ³ķ
å¤Ħ ç½ļ
éģĩ éļ¾
æįŁ åĿı
Ġ199 1å¹´
æ²¼ æ³½
åľ¨ 2008å¹´
å· ¾
å¯ Ĥ
è¥¿ æĹ¥æľ¬
èĩ³ 1
ç¥ ĩ
å¥³ æŃĮæīĭ
er Ġ
al d
éĽĨåĽ¢ æľīéĻĲåħ¬åı¸
çŁ¿ çī©
æĲ¬ åĪ°
åħ¶ é¡¿
æĭī å°Ķ
éĤ ¢
å·´ å¡ŀ
å¸¸ çĶ¨
è£ ¤
er v
åŃĹ ç¬¦
èĪª æµ·
å¹ķ åĲİ
ç¡¬ æ£ĺ
è¿Ī éĺ¿å¯Ĩ
å·¡åĽŀ æ¼ĶåĶ±ä¼ļ
è´© åįĸ
20 20
å¼Ģ åĪĽ
è¿Ľ åĮĸ
æľŁ å¾ĴåĪĳ
æĦ ļ
æ¢ ĵ
åĩ» æ²ī
ä¼Ĺ è®®åĳĺ
ç¤¾ä¼ļ çļĦ
æ¥¼ æ¢¯
æī§ æķĻ
å»¶ å®ī
ä¸¹ å°¼
çº½ è¥¿åħ°
æĿ¿ åĿĹ
çĤ® åħµ
ä¸īåįģ å¹´
ä¸Ńéĥ¨ æĹ¶åĮº
r ist
äº ı
åĲĦ çķĮ
åħ³ç³» çļĦ
èī¾ å°Ķ
å¸ķ æĭī
æłĳ æŀĹ
æ¸¸åĩ» éĺŁ
6 è°ĥå¿«ä¸Ģå°ıæĹ¶
åĮ ¾
è¿Ļ ä¹Ł
åĲĪ èĤ¥
æİ¥ åĬĽ
ä¸ĩ å¼ł
ç¡ Ĵ
çłĶç©¶ äººåĳĺ
æĬ¤ å£«
è¯Ńè¨Ģ çļĦ
åıįå¯¹ æ´¾
èµĦæł¼ èµĽ
çļĩå®¶ æµ·åĨĽ
ä¾¦ æİ¢
CD T
æ²¿æµ· çľģä»½
åį³åĮĹç¾İ ä¸Ńéĥ¨æĹ¶åĮº
A A
Ġ åħ¶åĲİ
çļĦ æ¯įäº²
è¿ Ń
åĮº è®®åĳĺ
å¯¹ è¯¥
å°Ĩ è¯¥
ä½ĵ åĨħ
éŁ ¶
æİ¥ å¾ħ
åı¸ éķ¿
çĽ´ éĢļ
çĥ ¤
åĲĦ çľģ
å¸¦ åĪ°
on s
é¦Ļæ¸¯ çĶµå½±
å´ Ľèµ·
ç¤¼ éĥ¨
å« Ķ
ĠE n
e at
å¤ļ å®¶
å¤ļ ä½į
æľĢ èĳĹåĲįçļĦ
æĽ´ å¤§
æĿ¡ çº¹
å¿« ä¹Ĳ
æ¯ķä¸ļ çĶŁ
ä¿Ŀå®Ī åħļ
åĴĮ è§£
åĮĹ åį¡ç½Ĺ
æľĢ æĸ°
è¿ĩ å¾Ģ
åı° çļĦ
ä¼ł è®°
èĮ ¹
ä»ĸçļĦ çĪ¶äº²
åŃĻ åŃĲ
èĸ ¯
ri g
å¯Ħ çĶŁ
ä¼ĬåĪ©è¯ºä¼Ĭ å·ŀ
S P
åı ¹
åľ¨ 2010å¹´
ä¸º åĲį
å» ĵ
åĮĹ ä¼Ĳ
æķĻ å¯¼
å¤ĸ ç±į
å·´ æĭ¿
ç¬¬ä¸Ģ è½®
æľį é¥°
ç»Ļ äºĭä¸Ń
åŁĥ å¡ŀ
æī¹ å¤į
æ»¡ æĦı
ç³»åĪĹ èµĽ
è¿ģ åħ¥
éĢłæĪĲ äºĨ
åĪĬ çī©
ä¸Ńåįİæ°ĳåĽ½ æĶ¿åºľ
èĳ¡èĲĦçīĻ è¯Ń
çĸ¯ çĭĤ
éĺ¿å°Ķå·´ å°¼äºļ
Ġ çī¹å¾ģ
çļĦ æł¸å¿ĥ
ä¸º ä¸Ģä¸ª
å½ Ŀ
ä½į å±ħ
æĸ° åĮº
å°ı éķĩ
ç¼ ī
ç®¡ éģĵ
æĽ´ æľī
æ¨¡ ç³Ĭ
åĨĻ æĪĲ
ä¹ĭä¸Ģ çļĦ
èįī åľ°
M et
y l
çļĦ æ³ķå¾ĭ
çļĦ è§ĤçĤ¹
æĸ¯ å¨ģ
åīį ä»»
è¾¾ åĪ°äºĨ
æŃ£ å¾·
åħļ æ´¾
11 5
è§ģ éĿ¢
åįĩ éĻį
å®ģ åİ¿
çļ® å°Ķ
éĨ Ľ
æĭ³ åĩ»
ç½¢ åħį
3 50
p s
å¼ ¼
æĹ¥ èĢ³æĽ¼
å¼Ģ éĻ¤
åĲĪ éĢĤ
ä¸Ģä¸ª äºº
æĹł æķĪ
å¤« çī¹
é£İ éĢŁ
åįł æ¯Ķ
çıł æµ·
åī© ä¸ĭ
å¢ĥå¤ĸ è¾ĵåħ¥
çŀĦ åĩĨ
åĨ ¥
åĴĮ ä¸ŃåĽ½
ç«Ļ åĨħ
åįİ çº³
11 7
ä½ľåĵģ ä¸Ń
å®ģ å¤ı
å·¡ èĪª
åģĩ æĹ¥
åĮºçļĦ è´Łè´£ç®¡è¾ĸ
æĪĺæĸĹ ä¸Ń
è¿« å®³
åıĤèµĽ èĢħ
çĲ³ å¨ľ
æĸĳ çĤ¹
æŁ´æ²¹ æľºè½¦
çĶµæ°Ķ åĮĸ
ç»ĳ æŀ¶
! âĢĿ
Ġ é¥°
åĴĮ é«ĺ
éĽ ģ
äºĮ çĻ¾
çĽ¸ ä¼ł
æ£ ł
å¹¿ å²Ľ
åĨ³ å¿ĥ
éĥ¨åĪĨ çļĦ
æīĵ åħ¥
åĲī æĸ¯
å¼Ĺ åĲī
åĩı è½»
çĲĨå·¥ å¤§åŃ¦
: ãĢĬ
M L
e an
Ġ ä¸Ĭ
ä¸Ģ è¯´
æĹ¶ éĢŁ
äºĨ åħ¶
åı¯ å®¹çº³
è¡¨ å½°
æ¬¡ çļĦ
æİ¥ é©³
æ¸¯ åĮº
å®ŀ è´¨
ä¿Ŀ åģ¥
èĬĤ æĹ¥
åħī æĺİ
è¾ĥ å°ıçļĦ
åıĮ åĲĳ
13 7
æ³° åĽł
100 ç±³
ä¾µ èļĢ
éī´ äºİ
Ġ åİŁ
Ġ åıĳå±ķ
åľ¨ ä»Ĭ
ä¸Ģ çĤ¹
åĩº èµĦ
åħ¬ æŃ£
æ¸ ´
éĩĮ å¥ĩ
æĻ® æ£®
è¿ĺ åı¯ä»¥
è§£ ä½ĵ
ä¾ĭ å¤ĸ
è± ļ
çĽŁ åıĭ
å¹² äºĭ
ou nd
2010å¹´ ç¾İåĽ½äººåı£æĻ®æŁ¥
æ®¿ è¯ķ
åĽ½ç«ĭ åı°æ¹¾
çľģéģĵ åı°
å¯ĨèĭıéĩĮ å·ŀ
åľ¨ ä¼¦æķ¦
æĺ¯ å°Ĩ
æĺ¯ éŁ©åĽ½
æľĪ åĪĬ
ä¹ĭ åĪĿ
åħĭ ä¼¦
éķ¿ èĢģ
éĩĳ æĸ¯
éĶ £
æ²³ åĨħ
æĺŁ äºĳ
ä¸ĩ åĲ¨
æ» ĩ
éĺ² æĬ¤
Ġ199 5å¹´
æĥ© ç½ļ
åį¡æĸ¯èĴĤ åĪ©äºļ
Ġè¿Ļé¢Ĺå°ıè¡ĮæĺŁçļĦç»Ŀå¯¹ æĺŁçŃīä¸º
5 æľĪ1æĹ¥
çļĦ å¿ĥ
ä¸Ģ å¤Ħ
æĺ¯ ä»ĸ
åħ¥ åŃ¦
10 1
å¥¥ æīĺ
åĽ½å®¶ åĴĮ
è®º è¿°
æ´¾ ç³»
ç»Ļ åĩº
éĿĴ éĵľ
è®² è¯Ŀ
çºªå¿µ é¦Ĩ
åĲĽå£«åĿ¦ ä¸ģåł¡
å½Ĺ æĺŁ
M C
åĽ½ å°ı
åĴĮ è¥¿
æķ ķ
ä¼ļ è®¡
è¡Į ç¨ĭ
åĩº åħµ
èĥ ļ
äºļ çĥŃå¸¦
èĪ ¶
åľº ä¸Ĭ
å°ı é¡¹
åħ° å¾·
çİĭ å®ī
å±Ģ éĿ¢
ç¥ŀ åŃ¦
å¼ķ åĬĽ
æĬķ å½±
åºĦ åĽŃ
ä¼ĳ éĹ²
å¾·éĩĮ å¸Į
åľ¨ ä¸ľ
19 10å¹´
æİ¥ ä¸ĭæĿ¥
çĬ ģ
æ¸ħ çĲĨ
é¥ ¿
æİ§åĪ¶ çļĦ
éĢĤ çĶ¨
æĶ¹ç¼ĸ ä¸º
å¤§ ä¸ľéĥ¨
æľī å¾Īå¤ļ
èµ İ
åıĳ éĢģ
è·¯ ä¸Ĭ
å½¢ åĬ¿
åĪ« åĲį
ç¥ŀ çļĦ
åİĨåı² å»ºçŃĳ
çİ¯ èĬĤ
åı³ ä¾§
ç»Ŀ å¤§å¤ļæķ°
èľ ¡
æįŁ ä¼¤
æĻ®ç½Ĺ æĹº
ä¸į è®º
ä¸į æĦ¿
è¢« è¯Ħä¸º
åĲĮ äºĭ
æīĢ çŁ¥
åı£ å²¸
æĢ» ç®¡
æµģ ç¨ĭ
åī§ åĽ¢
æķħ æŃ¤
æĺ¾ å¾Ĺ
èĥĮ éĿ¢
è¿½ éļı
çİ© æ³ķ
æĤ¬ æĮĤ
åĸĩ åĺĽ
çİ« çĳ°
O V
e k
çļĦ ä¸ĭ
èµ ļ
éĥ¨ ä½į
éĥ¨ åī¯éĥ¨éķ¿
ãĢĬ ãĢĭ.
åı¯ ä¾Ľ
æĢ» æķĻåĮº
11 3
çļĦä¸Ģ åĲį
åĪĿ å§ĭ
æĢĿ èĢĥ
åºŁ æŃ¢
åĮĹèµ· é¡ºæĹ¶éĴĪä¸İ
) ãĢį
åĲİ åĭ¤
è¿Ľ ä¿®
éģĵ æķĻ
å®ĺ åħµ
é¾Ļ ç±»
é¦Ļæ¸¯ æĶ¿åºľ
å®£ èªĵ
è½¨ çĶµè½¦
ä¹Ķæ²» äºļ
çĻĮ çĹĩ
çļĦ åĪ¶ä½ľ
ä¹ĭ ç§°
è¥¿ åħĥ
åĲĮ çŁ¥
200 ç±³
ä½Ĩ è¢«
åĽŀ æĶ¶
å¸¦ çĿĢ
æł· çļĦ
å·¦ ä¾§
è¿Ľåħ¥ äºĨ
é¡¶ éĥ¨
å®ª åħµ
æĢĢ åŃķ
åı¦ä¸Ģ ä½į
Ġ199 6å¹´
çģĮ æľ¨
æ±ŁæĪ· æĹ¶ä»£
c c
Ä ģ
åĮ Ģ
ç«Ļ ä½įäºİ
ç¨ ½
æĶ¿åºľ åĨĽ
åĨį åĬłä¸Ĭ
è¶³ æĢ»
æİĴ åºı
ç´¢ å§Ĩ
åıĤä¸İ èĢħ
æ³½ è¿ŀ
ou nt
äº« åıĹ
åĢ¾ æĸľ
ç¢İ çīĩ
èĤĸ åĥı
åºĩ æĬ¤
åĳĬç¤º çīĮ
åĪĨ åī²
çĶ¨ äºĨ
æ°ĳ èĪª
é©¬ åĮ¹
éĵ Ģ
æĢ» éķ¿
éĩĳ åĥı
æ· ĭ
å½ĵåľ° å±ħæ°ĳ
è¿½ è¸ª
3æľĪ 31æĹ¥
ç½Ĺé©¬ å¤©ä¸»æķĻ
åŁºç¡Ģ è®¾æĸ½
191 5å¹´
åŀĴ æīĵ
E d
Ġ åĪ°
ä» Ĺ
ä»ĸ äºİ
ä¹ĭ çĪ¶
çĶµ æľº
é©¬ åħ¶é¡¿
è£ Ļ
ä¼ł åħ¥
èĬĤ çĤ¹
åŃ£ åĨĽ
è§Ĥ æĶ¿
çĻ¾ è´§
çĶŁæ´» çļĦ
æ¿Ģ ç´ł
æııè¿° äºĨ
æ¨¡å¼ı äº§åľ°
çŀ ¬
éĻ¨ åĿĳ
åī¥ å¤º
Ġ åıĳè¡Į
åľ¨ é«ĺ
è¯ ł
ä»ĸ åıĪ
ç¾ Ł
åįĹ è·¯
äºĮ çŃī
ç«Ļ æĺ¯
åı· åĴĮ
åĮħ è£ħ
èİ· é¢ģ
11 4
æ¬§ éĺ³
ç¥¨ ä»·
è®¡åĪĴ åľ¨
åĲ« éĩı
24 0
è§Ĵèī² çļĦ
ĠM ar
Ġæľ¬ å±ŀ
çļĦäºĭ æĥħ
a ur
o o
Ġ åħīç»ª
åĲ ¡
ä¸Ń æĹ¥
äºİ ç¾İåĽ½
éĥ¨ ä»¶
éķ¿ å¾ģ
æı ½
åĪ¶ æľį
åİŁ æĸĻ
åħļ éĥ¨
ç¦» å¿ĥ
åħĪ éĶĭ
è¾¹ çĸĨ
åįĬ çĲĥ
éĢļå¸¸ ä¼ļ
çº¦ç¿° éĢĬ
æ³ķåħ°è¥¿ å¤§åĮº
å´© æºĥ
âĶĢ âĶĢ
A m
Ġ ä½įäºİ
çļĦ åĨ³å®ļ
ä¸Ģ ä¹¦
ä¸Ń ä¹Ł
äºº éĥ½
ä¸Ĭ æ³ķåħ°è¥¿å¤§åĮº
è¥¿ å°Ķ
å¼Ģ å°ģ
å°ı äºİ
åİ¿ éģĵ
å¤ª ç¥ĸ
æĹ¥æľ¬ æĶ¿åºľ
æĢĢ çī¹
å®¶æĹı çļĦ
é¢Ĺ ç²Ĵ
ä¸ºä¸» çļĦ
æ³ķåħ°åħĭ ç¦ı
çĭ© çĮİ
i en
Ġ è¯¥åľ°
ç¬ Ľ
åı¯ æ±Ĺ
çĶµ ç£ģ
èĢħ ä¸º
çİĭ åĽ½çļĦ
è£ ¹
ç¿ ¡
æĭħ å¿§
å¸Į çī¹åĭĴ
èĢģ èĻİ
190 5å¹´
é«ĺçŃī åŃ¦æł¡
çļĦ ä¸ľ
åĴ Ģ
ä¸ª æĢ§
åħ¬ æ¼Ķ
åĲĮ æľĪ
åı¯ çĶ¨äºİ
å½ĵ åĪĿ
æĪĺ æŃ»
å·¥ èµĦ
æķ° åŃ¦å®¶
åĵĪ çī¹
ä¸ĥ ä¸ª
le y
æŁĵ èī²
è¶³å¤Ł çļĦ
ä¼Ĭä¸½ èİİçĻ½
T T
çļĦ åĬŁèĥ½
èĩ Ń
19 00å¹´
ä¸į çŃī
è¥¿ éĹ¨
æķĻ ä¹ī
æķ´ æķ°
æĪĲåĳĺ åĽ½
å®¾ å¤ķ
æīĵåĩ» çİĩ
åĵĪèĲ¨åħĭ æĸ¯åĿ¦
t oĠ
Ġ äºĮ
Ġ ä¼Ĭ
ä¸º é¦Ļæ¸¯
æĺ¯ åħ¶
åĳ ¢
ä¸į åĬ¨
å½ĵ çĦ¶
å±± è°·
è¿Ĳ ä¼ļ
ä¼ł ä½ĽæķĻ
åĲĦ æľī
æĶ¶ èİ·
å¤´ çļĦ
çĻ½ éĵ¶
æīį ä¼ļ
ä¸½ ä¸Ŀ
é»İ æĺİ
å³¡ è°·
ĠW indow
æĴĴ åĨ·
åıĳçİ°äºĨ æŃ¤å¤©ä½ĵ
æĮĸ æİĺ
çĢ ĳ
L E
çļĦ èĭ±åĽ½
åľ¨ çº¿
åħ¬ è½¦
an k
èĩ´ åĳ½
13 5
èĢ¶ è·¯
æµģè¡Į éŁ³ä¹Ĳ
æŃ¦è£ħ éĥ¨éĺŁ
æ¡Ĥ æŀĹ
éĺ¿å§Ĩ æĸ¯çī¹
èĨ¨ èĥĢ
Ġ æĺİ
ä¸į å¹¸
çĶŁ æĦı
è¯¥ çī©ç§įçļĦ
åı· åľ¨
ç¬¬äºĮ å¤©
æĦŁ è°¢
èģĶèµĽ åĨłåĨĽ
ç§ĳæĬĢ å¤§åŃ¦
G e
T S
w ard
å¤§ åĬĽ
âĢ ĭ
æ² Ľ
èĲ Į
æ°´ çļĦ
åı² ç§°
12 æľĪ1æĹ¥
æĻ® éĽ·
éħį å¥Ĺ
è´Ŀ æĭī
çł´ äº§
éħĴ åĲ§
æĴ¤ åĽŀ
as h
ä¸ĢçĽ´ åľ¨
äºİ199 5å¹´
æĻ®ç½ĹæĹº æĸ¯
æ³½è¿ŀ æĸ¯åŁº
H E
Ġ æ¸ħ
Ġ ä¸ĢèĪ¬
ä¼ļ è§ģ
ä»ĸ æĭħä»»
èĪ ·
å½ĵ å¹´çļĦ
ä½Ĩ åĽłä¸º
10 7
åħ³ æĬ¼
èĹ ī
çĶ² ç»Ħ
å®¡ çĲĨ
åĬ¨çī© çļĦ
èģĶéĤ¦ æĶ¿åºľ
çĪµ ä½į
è£ģ åĨ³
Ġ199 3å¹´
Ġ äºİ
åľ¨ 2013å¹´
æ³ķ å¸Ī
è¿Ļ éĥ¨çĶµå½±
åįĹ åĮº
å¢ Ł
ç»ĵ è¯Ĩ
or eĠ
çĻ½ å®«
æ®µ çļĦ
åı¯èĥ½ çļĦ
ç®Ģ æĺĵ
èµŀ æī¬
ä¼ģä¸ļ å®¶
æıŃ éľ²
è¿·ä½ł ä¸ĵè¾ĳ
Ġ æµ·
å¤§ çģ«
ä¸į å¤ª
åĪĨ æķ°
èµĽ é©¹
éĺ¿ å¡ŀæĭľçĸĨ
åħļ å§Ķ
äºĶ çĻ¾
å¸Ī åĽ¢
è½¬ åħ¥
14 4
ä¸Ńå¤® åĨĽå§Ķ
çªģ è¢Ń
åıĸä»£ äºĨ
æ³¨æĦı åĪ°
E n
å½ ª
éĥ¨ ä½ľåĵģ
å·ŀ åĴĮ
çĤ Ĵ
ä¸ĵ æłı
ä¸ĸçķĮ åĲĦåľ°
å¥ĸ çļĦ
å¹² æ¶ī
åĲĪä½ľ çļĦ
å®ĭ æľĿ
éĺ¿æĭī æĸ¯
äº¤æµģ éģĵ
æ°Ķè±¡ å±Ģ
åķ¤ éħĴ
åĲ ĭ
åľ¨ ç¬¬
ä¸º ä¸»è¦ģ
æĹ¥ æĸĩ
æ¯ Ļ
æĪĺ äºĭ
ä½¿ ä»ĸ
éŁ §
æ°´ ä¸Ń
çĸ ²
äº¬ å¸Ī
è¯º åħĭ
åĲī ç¥¥
ä¸Ńå¤® çĶµè§Ĩåı°
èı² å°Ķ
190 4å¹´
Ġb egin
èĢ¶è·¯ æĴĴåĨ·
1 æĹ¥
çļĦ èĩª
çļĦ éľĢæ±Ĥ
åľ¨ ä¸Ĭ
è¿Ļ ä¹Ī
æľĢ å°ĳ
åı° å¤§
æ¯Ķ 0
æĹ¥æľ¬ äºº
çłĶç©¶ çļĦ
ä»¥åıĬ åħ¶ä»ĸ
åľ°æĸ¹ æĶ¿åºľ
è°ĥæŁ¥ å±Ģ
èĶ ¬
ç§Ł åĢŁ
æĬķåħ¥ ä½¿çĶ¨
æĦıåĳ³ èĳĹ
æµı è§Ī
çļĦ å®¶åºŃ
çļĦ å¦»åŃĲ
åľ¨ åĽ½éĻħ
æ°ĳ ç±į
ä¹Ł å¼Ģå§ĭ
é©¬ å°¼
æĢ» åĢ¼
æ¼Ķ è¯´
æ´¾ äºº
çĶ· äºº
8æľĪ 31æĹ¥
ç¬¬åįģ åĽĽ
æ¼«çĶ» å®¶
åĢ¡ è®®
! ãĢį
åĮĹ éĿ¢
åħ¨ å¸Ĥ
ä»İ å°ı
çĤ¹ æĺ¯
æ¹¾ ä»Ķ
æĳ Ĭ
éĩĩ è´Ń
æ³° ç±³å°Ķ
å¯Į æľī
åĤ ²
è¯¯ å·®
è¾ħ éŁ³
æĶ¶å½ķ äºĨ
. ,
e f
ä¸Ģ æĸ¹éĿ¢
äºİ æĹ¥æľ¬
å¹¶ æĭħä»»
æ³ķ äºº
èģ Ĭ
ä¹Ł è¢«ç§°ä¸º
æķ° æ¬¡
10 3
ç»ĵ çĽŁ
åħļ å§Ķä¹¦è®°
çºª å¾ĭ
é¾ ļ
æĶ¯ åĩº
æĽ² çº¿
çļĦä¸Ģ æīĢ
èīº åĲį
ä¾¿ åĪ©
ç®¡çĲĨ çļĦ
ä¸ĢçĽ´ æĺ¯
ä¿ĿçķĻ äºĨ
çļĦ äº²
æĸ ¼
åħ¬ çĽĬ
èĢĮ æŃ»
è¢« æİĪäºĪ
æĸĩ ä¹¦
åĽł çĹħ
æĪĺ ä¿ĺ
æ¼Ķ åıĺ
ä¹Ĳ åĿĽ
éĴ ¾
éĿ¢ç§¯ 2
å®ĺæĸ¹ ç½ĳç«Ļ
è¿İ æİ¥
å®īä¸ľ å°¼
æ¦´ å¼¹
Ġ å¥¥
Ġ åĲİæĿ¥
éĩ ľ
åĩº ç§Ł
çī¹ ç§į
åĮĹ è·¯
æĻ ĸ
çķ ¿
åı· çłģ
åĪ« åħĭ
å½±åĵį çļĦ
äºĳ æŀĹ
äºĨä¸Ģ åľº
è¯¸ ä¾¯
ĠM us
çİĭæľĿ çļĦ
çĲĨæŁ¥ å¾·
ç¿¡ ç¿ł
æľī 1
ä¸ĭ åİ»
æĸ° åħ´
èĪ ĸ
éĹ´ éļĶ
åĮĸ çī©
éĩĳ é©¬
çĭ ¸
èº« è¾¹
åľŁ èĳĹ
å¸ķ åħĭ
è®² å¸Ī
å¾ħ éģĩ
æµ·æĭĶé«ĺåº¦ 2
ä¼Ł å¤§çļĦ
oc i
C ar
Ġ åĲİ
Ī å½¢çĽ®
åľ¨ åį°åº¦
äºº åĿĩ
åĴĮ æŃĮ
ä¼ļ è°Ī
å¤© çİĭ
åħ³ èĬĤ
å¥³ å£«
ä¼ł éĢģ
æ´¾ å¾Ģ
éĩĩ éĽĨ
æĦŁ åıĹ
ç´¢ å°Ķ
å¾ģ åı¬
æĵį çºµ
åĪ¶éĢł çļĦ
çļĦåľ° éĵģ
li x
æĸ°çĸĨ ç»´åĲ¾å°Ķ
äº¤åıī åı£
å®¾å¤ķ æ³ķ
Ġ II
åľ¨ 2020å¹´
ä¸Ń ä»¥
éĻ ĩ
éķ¿ æĹ¶éĹ´
éĢļ åĭ¤
åħ¨ ä¹¦
ç½Ĺ æĿ°
åįİ è¯Ń
æĹł éľĢ
ç¬¬äºĮæ¬¡ä¸ĸçķĮå¤§æĪĺ æľŁéĹ´
çļĦ èµĦæĸĻ
åľ¨ åľ°
åľ¨ å¯¹
æ³ µ
ä¹ĭ çĶ¨
åĵ ¨
åĮĹ ä¸Ĭ
çĶ» ä½ľ
èİ± çī¹
ä»¥åıĬ ä¸ŃåĽ½å¤§éĻĨçļĦ
èĢģ äºº
æľ¨ æĿĲ
re f
çİĽ æł¼
éħĭ éķ¿
6 Ġ
Ġ å¤ļ
Ġ èĳĹä½ľ
çļĦ åĲįä¹ī
åŃ¦ æ´¾
ä¹ĭ äºĭ
åĲĮ æľŁ
201 8
ä¸¤ é¡¹
åı¤ åŁİ
åĪĿ ä¸Ń
å¡Ķ æĭī
äº¦ è¢«
å¤ĩ åıĹ
èĢĥ éĩı
çĶ² çº§èģĶèµĽ
æĸĻ çĲĨ
äºĨä¸Ģ ç³»åĪĹ
ç§ĳåŃ¦ æĬĢæľ¯
æĭľ ä»ģ
æľĿé²ľ åįĬå²Ľ
å®īå¾· é²ģ
æķ² åĩº
åĨħæĶ¿ éĥ¨
æ¶¡ è½®
å¥¹æĽ¾ ä»£è¡¨
çļĦ åıĺåĮĸ
çļĦ å£°éŁ³
åľ¨ 2009å¹´
ä¸Ģ æŀ¶
åħ¨ ç¨ĭ
äº¤ ä¼ļ
èĲ¥ éĢł
åħ¶ä»ĸ äºº
è´Ł æĭħ
åĺ İ
æĺ¾ çĦ¶
é¢Ħ èŃ¦
æ¸© åĵ¥
ä½© æĸ¯
åĨ° å²Ľ
è¿Ļä¸Ģ çĤ¹
çŃĶ åºĶ
çĭŃ çªĦ
yst em
C E
l in
çļĦ éĤ®æĶ¿ç¼ĸçłģä¸º
ä»¥ 0
æµ· æ»©
æĪĺ çļĦ
ä½Ĩ åĲİæĿ¥
å°± æŃ¤
çĸ ¼
å¤ª æŀģ
ç¬¬ä¸Ģ åĲį
çĽĳ æµĭ
æĸ¯çī¹ æĭī
èµŀ æĪĲ
èĶ ļ
éĥĳ å·ŀ
ç½ĳçĲĥ åħ¬å¼ĢèµĽ
P P
T R
s c
çļĦ å»ºè®®
åħĭ æ´Ľ
âĢĿ ()
ç½Ĺ å®¾
18 ä¸ĸçºª
å°± èģĮ
è½¬ æĬķ
éĢŁ çİĩ
èĪª è¿Ĳ
éĤ£ æĹ¶
æ»¡ è´¯
æĭįæĳĦ çļĦ
èĶ¡ èĭ±æĸĩ
Ġ199 2å¹´
å¼¯ æĽ²
æĭ¦ æĪª
æ¸©åĵ¥ åįİ
E X
çļĦ åı¯
æµ· å§Ĩ
å·´ å·´
å®ŀ çĶ¨
éĻ¤ éĿŀ
èĲ¥ åľ°
èŃ¦ åį«
ä¾Ŀ æ³ķ
å®¡ è®®
ow er
åŁºç¡Ģ ä¸Ĭ
äºİ199 6å¹´
æĲŃ ä¹ĺ
ag e
eĠ of
æĿĨ èıĮ
ç»ıçºª åħ¬åı¸
4 åı·
åľ¨ 2012å¹´
æķ ĸ
æ² ģ
çĶ± èĭ±åĽ½
çĽ® å½ķ
çİĭ æľ±
çº¢ æĹĹ
å°Ħ çº¿
åĩł ç§į
ol og
è´¢ ç»ı
ç»ĵæĿŁ æĹ¶
ãĢī ,
å¥Ī å°Ķ
çħ¤ çŁ¿
çĽ¸äºĴ ä½ľçĶ¨
I U
l ic
Ġ åĵĪ
çļĦ æľº
åĬł åī§
ä¸ŃåĽ½ åĽ½å®¶
å¯Ĩ æŃĩ
æĬ¤ çĲĨ
åıĮ éĩį
åĨ³å®ļ å°Ĩ
æĳĦ æĶ¿
ç«¥ å¹´
190 6å¹´
çĶµåĬĽ æľºè½¦
lu de
Ġ èĩ³
æĺ¯ è¢«
åĴĮ æ°´
åıĳ æĶ¾
å¹³ åĿ¦
æĭī èĲ¨
éĩį åĬĽ
å®ī è¾¾
æ¯Ķ åĪĨ
ç¦ı åħĭ
ä¸īä¸ª æľĪ
åµ ©
è¿½æº¯ èĩ³
æĽĿ åħī
Ġ 5æľĪ
çļĦ ç»ĵæŀĦ
çļĦ æĿĥåĪ©
ä¸Ģ äºĭ
ä¸Ĭ æ¼Ķ
èĩª æĦ¿
çİ° éĩĳ
201 6
è¦ģ ç´ł
ç¼ ®
10 æľĪ25æĹ¥
å¤Ħ æŃ»
å²Ľ å¼ı
åķ ¦
åķ ¸
æŃ¦ åĬŁ
å¾Ī æľī
å¥ĩ å¹»
å·²ç»ı è¢«
éĥ¡ çļĦ
äºĨä¸Ģ ä»½
é¤Ĳ é¥®
æĭīä¸ģ è¯Ń
Ġæ¦Ĥ è¿°
æ£ķ èī²
å¯ĨæŃĩ æł¹
F acebook
çļĦ å®īåħ¨
åŃ¦ åİĨ
ä¸į æķ¢
åĲĮ ä¸Ģä¸ª
çī¹ ç½Ĺ
åĨħ å¤ĸ
åįģ ä¹Ŀå¹´
æĢ» æķ°
å±ŀ çļĦä¸Ģç§į
åį¡ æ´Ľæĸ¯
å¥¥ åĪ©
åıį åĵį
çĬ Ģ
åģľ çģ«
éļ¾ åº¦
ä¸¥ åİī
æ²ĥ å¤«
çĪ¶äº² çļĦ
ur n
çº½çº¦ æĹ¶æĬ¥
æłĸæģ¯ æ·±åº¦
åİļ çļĦ
åıĺæĪĲ äºĨ
æĭĵ è·ĭ
ä¸ĩç¾İåħĥ çļĦ
éĵ¸ éĢł
çĽĳå¯Ł å¾¡åı²
æ°¨ éħ¸
ç£· éħ¸
äº¤æ±ĩ å¤Ħ
åľ¨ 2018å¹´
åľ¨ 2014å¹´
è¡ Ļ
å¤§ æ³ķå®ĺ
åŃ¦ éĩĳ
åĪĨ çº§
æ±Ł å¸Ĥ
ar eĠ
åĮ» èį¯
æ·± å¤ľ
å¼¹ éģĵ
æľįåĬ¡ åĻ¨
æİĴåĲį ç¬¬
å¤§ä¸ľéĥ¨ å¤§åĮº
l o
ä¸İ æĸ°
æ°ĳ æĦı
å¯¹ ç«ĭ
çī¹ åĴĮ
ä¸ī éĩį
âĢĿ âĢľ
èģĶ æĴŃ
åħ³ ç¨İ
é¦ĸ éĥ¨
æ· Ĩ
ç¼ĸ ç¨ĭ
æ¸ħ æĻ¨
æŀĦ å»º
ä»£è¡¨ ä½ľ
åıĳçĶŁ åĲİ
ç£ º
é¥® æĸĻ
éħī ç§ĳ
3 60
N H
b ox
Ġ è®¸å¤ļ
çļĦ å¤©
ä¸º 5
ä½į åľ¨
åĬł éĩĮ
åĲĪ éĩĳ
èİ· åĩĨ
æĶ¶ åĽŀ
çŁ¥ åĲįçļĦ
å²ģ ä»¥ä¸ĭ
éĤ® ä»¶
é¢Ĺ æģĴæĺŁ
éĺ» ç¢į
èĪŀåı° åī§
ĠæĹ©å¹´ çĶŁæ´»
C om
éķ¿ å´İ
âĢĿ ),
ç«Ļ åĴĮ
åıĤ è®®
åĬŀ åŃ¦
æŃ¦ å£«
äº¦ ä¼ļ
ä»ħ åľ¨
æ³¨ éĩį
è¯Ŀ é¢ĺ
èģĶçĽŁ çļĦ
ä¼łç»Ł ä¸Ĭ
æĴ¤ åĩº
åĨ· åį´
æĿ¡ä»¶ ä¸ĭ
æľīæķĪ çļĦ
æįĲ æ¬¾
ä»£çłģ ä¸º0
æ³¢ç½Ĺ çļĦæµ·
section Ġbegin
Ġ ç±³
Ġ æ²Ļ
çļĦ åįĹ
çļĦ è¿ĩç¨ĭä¸Ń
åľ¨ 2015å¹´
æľī åĽĽ
ãĢĭ )
çľ ·
åĮĸ å·¥
ç»Ħ éķ¿
ç»´ æĸ°
è§Ĩ è§Ĵ
ç¬¬ä¸Ģ ä»»
å³ »
æį¢ åıĸ
é³ ļ
é¢Ŀ å¤ĸçļĦ
æ·· æ·Ĩ
åıĻ äºĭ
åİ¿çļĦ åŁİå¸Ĥ
sĠ of
éªļ æī°
åľ¨ 2011å¹´
ä¸Ģ æľŁ
äºº æĺ¯
å¼ Ĭ
è¥¿ å²¸
å¼Ģ éĩĩ
èİ ŀ
èµĽ åĲİ
ä¸ļ èĢħ
å°ı æĹ¶çļĦ
ç»Ħ ä»¶
è¯´ è¯Ŀ
ä¼ł æŁĵ
11 6
an c
or y
å®Į ç»ĵ
ä»£è¡¨ éĺŁ
å¢ŀ èĩ³
æĶ» åħĭ
éŁ³ä¹Ĳ å®¶
åİĭ åĪ¶
å¯Į åħ°
æĸŃ å±Ĥ
ä¸Ģå¹´ åĲİ
Ġthe Ġ
éĵ¾ æİ¥
åĨħèĴĻåı¤ èĩªæ²»åĮº
1 çļĦ
b ack
åŃ¦ çķĮ
é©¬ æģ©
è¶ ¾
éĩį æĴŃ
ä¼ł è¾¾
ä¿¡ éķ¿
æŀľ å®ŀ
14 3
åģļ çļĦ
ä¿Ħç½Ĺæĸ¯ çļĦ
äºĮåįģ ä¸ĸçºª
ac eĠ
åįķæĽ² æ¦ľ
äºİ199 4å¹´
è§£åĨ³ æĸ¹æ¡Ī
ä¸Ń çİ¯
åĽ½ åŃĲ
è¯¥ å¸Ĥéķĩ
å¤© åĲ¯
æ® ´
12 æľĪ28æĹ¥
æ²³ ä¸ľ
å¨ģ æĸ¯
è¯Ħ åĪĨ
åĬ© æĶ»
é£ŀ èĪ¹
re d
å®Ŀ çŁ³
9æľĪ 30æĹ¥
åį± å®³
Ġc ol
æĸ°å¢ŀ å¢ĥå¤ĸè¾ĵåħ¥
åĨ¬åŃ£ å¥¥æŀĹåĮ¹åħĭè¿ĲåĬ¨ä¼ļ
è´© åĶ®
ä¹Įé²ģ æľ¨
Ġ çĻ½
éĥ¨ ä¸ĭ
ä¸į åºĶ
åĪĨ å±Ģ
å®¶ åºĦ
åĬł æ²¹
æ¡ ¶
æµģ åħ¥
in i
é£İ åĬĽ
æ³¢ åĪ©
å½±åĵį äºĨ
éģĩ åĪ°äºĨ
åŁ¹ èĤ²
èĤ¯ å°¼
éħįéŁ³ åĳĺ
éĵ¸ å¸ģ
çļĦåŁºç¡Ģ ä¸Ĭ
è´ª æ±¡
çļĦ ç»Ħç»ĩ
ä¸Ń éĢĶ
å¤§ èĦĳ
èĢ »
è° İ
åıĹ ä½ĵ
12 2
12 4
ä¼Ĭ ä¸ĩ
çļĦä¸Ģ åľº
æĬ¤ èĪª
çĮ ©
ä¼¦ çĲĨ
èĪ¹ èĪ¶
çĤ® å¡Ķ
ri d
æģ¶ éŃĶ
190 8å¹´
åįłé¢Ĩ äºĨ
åĬ¨åĬĽ åŃ¦
åĪĽéĢł äºĨ
çºł çº·
u lt
çļĦ è¯Ńè¨Ģ
çļĦ åĨĽéĺŁ
çļĦ ä»»åĬ¡
æĹ¶ æľī
ç¾İ èģĶ
æŃ¤ å¤Ħ
è·¯ è½¨
è¾¹ ä¸º
èµ° äºĨ
èĨ Ľ
æİĮ ç®¡
ä¸įè¿ĩ åľ¨
Ġæľ¬ é±¼
åįłåľ° éĿ¢ç§¯
çĲĨå·¥ åŃ¦éĻ¢
åľ¨ åħ¨çĲĥ
ä¸º éĤ»
åĽ½ éĵģ
å¤ļ è¾¾
åĨħ åĬ¡
éĥ½ å¾¡åı²
æİ¥ æīĭ
éľ ľ
åĵĪ å¸ĥ
50 ç±³
æĹĹ èĪ°
æĭīä¸ģ ç¾İæ´²
çħ¤ çĤŃ
æĤī å°¼
3 ä¾ĭ
çļĦ çĲĥåĳĺ
éĥ¨ åĴĮ
201 7
å¸ĥ ä¼¦
èģĮ å·¥
ä¸»è¦ģ ä¸º
æŃ¦ åĬĽ
è§Ĥ å¡ĺ
æ±ī äºº
193 0å¹´ä»£
ä»ĭ äºİ
æ¼« å¨ģ
è¡Ĺéģĵ åĬŀäºĭå¤Ħ
ç½ļ æ¬¾
é©¬åħĭæĢĿ ä¸»ä¹ī
æĢİ ä¹Ī
å¯Įåħ° åħĭæŀĹ
çļĦ ä¸ªäºº
ä¸º ä»Ģä¹Ī
ä¸» æĴŃ
åĬ¨ èĦī
éĩĮ çº¦
å°Ĩ è¢«
å°ı åŃ©
ä¸ŃåĽ½ æĶ¿åºľ
çĽ® çļĦåľ°
åĲĳ åīį
æ¸¯ æ¾³
åıª å¥½
çłĶç©¶ èĢħ
ä¹Į åħ¹
le x
åŃ¦çĶŁ ä¼ļ
æ°ĳä¸» æ´¾
èģļ ä¼ļ
å®ĩ èĪª
èµĦæľ¬ ä¸»ä¹ī
ç¥Ī ç¥·
section Ġend
ä¹Įé²ģæľ¨ é½Ĳ
O n
çļĦ æŃ£
å¹¶ ä»İ
æľĢ éķ¿çļĦ
é©¬ ä¸Ĭ
10 2
éĺ¿ æĸ¯
11 ä¸ª
äºĶ äºº
åĲī éļĨ
éĥ¡ çİĭ
å¼Ģåıĳ åĮº
æłĩåĩĨ çļĦ
æ¬£ èµı
éĽĮ æĢ§
èĲ¨å°Ķ çĵ¦
çļĨä¸º éĻĨåľ°
èĤ¿ çĺ¤
a j
r en
Ġ èĭ¥
çĶŁ å¹³
åĪĨ åĮĸ
å¯¹ å¾ħ
æĶ¹ æĪĲ
éķĩ å®Ī
æľĿ éĺ³
èİ·å¾Ĺ çļĦ
æŃ¥ éª¤
it t
ä¹ĭåĲİ åľ¨
åĲĮå¹´ 11æľĪ
åĤ į
ed ia
çĪ¶äº² æĺ¯
è¯¸ å¡ŀ
æīĢåľ¨ çļĦ
ĠA n
ä¸»æ¼Ķ çļĦ
è¾© æĬ¤
æĥ¯ ä¾ĭ
Ã ¼
Ġ çİ°ä»£
æĹ¶ ä¸º
ä¸ĭ è¡Į
äºļ çļĦ
ä¸ī æĺŁ
ä¿Ŀ å®ļ
åŀĭ æĢģ
æ°Ķ çĲĥ
åħĪ é©±
å¸Ĥéķĩ èĮĥåĽ´åĨħ
è¡¥ åģ¿
å¤º åĽŀ
çļĦçī¹ æ®Ĭ
æª Ĳ
G P
j ect
çļĦ æİ§åĪ¶
åĩ ĳ
åĨĽ çĶ¨
è¢« èªīä¸º
åĮĹ ç«¯
çº¦ è®·
æĽ´ å¥½
åıĺ åĬ¨
è¶ħ å¸Ĥ
åĥ µ
é«ĺéĢŁ éĵģè·¯
æ·±åľ³ å¸Ĥ
é¥² åħ»
å¯Ĩè¥¿ è¥¿æ¯Ķ
, ,
ä¼ º
ä¸Ģ é¦ĸ
åĩº åĵģ
èĢĮ æľī
å¾· åł¡
äºļ åĪ©
çĪ ½
çº¦ æĿŁ
æĶ¹ è®¾
åıį æĶ»
ar i
åıĳå±ķ åĩº
æ¤į è¢«
èķ ´
eĠ B
å¹´è½» äºº
9 ç±³
çļĦ çĽ¸åħ³
å¤§ çº²
æĪĺ æľº
ä¸ĸ å®Ĺ
202 1
11 æĹ¶
çº¢ å¤ĸ
å°ļ æľī
å±ĭ èĭĳ
åįĪ ç§ĳ
çī¹æ®Ĭ çļĦ
è¯ł éĩĬ
t t
åľ¨ åħ¨åĽ½
åıĳ æĸĩ
å¹¶ æŃ¢äºİ
ç¾ ŀ
æĮ ½
âĢľ "
ä¸ī çĻ¾
æį ŀ
é©¬ è·¯
åħ¨ ç¾İ
èĤ ª
äº¤ äºĴ
æ¢ §
å¸Ī ä»İ
æĶ¾ å¤§
çĻ½ éĩĳ
æĪ¿ åľ°äº§
éŁ³ä¹Ĳ å½ķå½±å¸¦
ç¤¼ ä»ª
éĢļå¸¸ åľ¨
å·¨ æĺŁ
äºİ199 2å¹´
å¸®åĬ© ä¸ĭ
ĠE x
èĦĤ èĤª
V i
W h
f lix
Ġ æĪĸ
Ġ æ°ĶåĢĻ
çļĦ åı¯èĥ½æĢ§
ä»ĸ ä»İ
æ¸ Ŀ
äºĭ åıĳ
åĲĪ åħ±
æ²» æĦĪ
æį® ç§°
ä¸¤ä¸ª æľĪ
ĠåİĨåı² æ²¿éĿ©
Ġ198 8å¹´
å§¿ æĢģ
èĻĲ å¾ħ
éĺ¿åŁºåĿ¦ å¤§åĮº
y s
çļĦ æĸĩç«ł
çĲ ¦
ä¸ĭ è¯ı
æľĢ éķ¿
æīĢ ä½¿çĶ¨çļĦ
201 2
å±± å¯º
åħ³ åį¡
å¢ŀ æı´
for m
åĢĻ è¡¥
å¾·åĽ½ çļĦ
èĬĤçĽ® ä¸Ń
åĲĮå¹´ 9æľĪ
äºĮåįģ äºĮå¹´
çļĦå¤§ å°ı
çİ© åħ·
è®¾ç½® çļĦ
ç»ıåİĨ äºĨ
éĺħ åħµ
çĦ¦ èĻĳ
æĭĵ å±ķ
éĽĩ ä½£
illi am
åĮĸåŃ¦å¼ı ä¸º
çļĦçī¹æľī æ¤įçī©
çĢĳ å¸ĥ
æĸ°çĸĨç»´åĲ¾å°Ķ èĩªæ²»åĮº
Ġ 20ä¸ĸçºª
ä¸Ģ æĹ¶
ä¸Ń åįĪ
äºļ æĸ¯
è¿ĩ å¤ļ
ç±³ åĵĪ
éĩį åıł
æł¼ ç½Ĺ
éĵģ è¾¾å°¼
åıª ä¼ļ
æŃĮ èĪŀ
è¯Ħ éĢī
çĸĳ ä¼¼
æ¥ļ åĽ½
å¼ķèµ· çļĦ
æĹģ è¾¹
æĽ¹ æĵį
å¤ļå¹´ æĿ¥
å¸ĪèĮĥ åŃ¦æł¡
åĢ¡ å¯¼
æĸĩèīº å¤įåħ´
åįıåķĨ ä¼ļè®®
N ew
w w
Ġ ä¸ĩåİĨ
åľ¨ 20ä¸ĸçºª
æĹ¥ åĨħ
è½ ¶
åĨĽ æĶ¿
ä¸ī çŃī
åħ¨ æĹ¥
åįķ è½¦
æ²¡ æĶ¶
éĥ¨åĪĨ åľ°åĮº
æŀĦ æĥ³
èĲ¨ æĳ©
éĽĦ æĢ§
å®³ æĢķ
ç¿» åĶ±
æ»ĳ åĨ°
çĪ±å¥½ èĢħ
æĺİå°¼èĭı è¾¾å·ŀ
åİķ æīĢ
6 å²ģ
è¯ µ
ä»¥ 4
åĲİ éĿ¢
ä¸į åĲ«
åħ¶ éĹ´
ä¿ ©
åĪĨ æ³Į
åĮĹ åĮº
çĶµ ç«Ļ
201 0
èĤ ½
åħĥ èĢģ
æīĭ çļĦ
éĴ ŀ
äºĶ ä»£
èĳĹ çļĦ
æ±Ł åİ¿
å®Ĺ åº§
æĹ© å·²
17 ä¸ĸçºª
æ¾ ľ
æĲ ģ
æĺ¯ä¸Ģ æĿ¡
è¿ģ åĪ°
çīĽ é¡¿
çļĨ æľī
èĿ ´
190 7å¹´
éī´ å®ļ
6 æĹ¶
A pp
B E
Ġ 10æľĪ
ä¸į çŁ¥éģĵ
éĽ ı
åĬł ç´¢
å¤© åľ°
æ¡ ¦
è¾¾ ç§ĳ
é» Ķ
çº¦ 4
èģĮ æĿĥ
èĦ Ĩ
å¯Ĩ éĽĨ
èĩ´ ä½¿
æĥ³ åĪ°
è¯ĳ ä½ľ
æĺ¯ä¸Ģé¢Ĺ æģĴæĺŁ
æİ© æĬ¤
ä½Ľç½ĹéĩĮ è¾¾
çķħ éĶĢ
ä¸ĵç§ĳ åŃ¦æł¡
èĿ´ èĿ¶
Ġ éļıèĳĹ
æ³ ¼
åŃ¦ ä¸ļ
æ³ķ æĭī
æĸ° éĺ¿åŁºåĿ¦å¤§åĮº
åĮĹ æ¬§
å±± ä¸Ĭ
ä¸¤ å±Ĥ
æĢ» åĨ³èµĽ
åıĺ å¼Ĥ
on eĠ
ä¼ĺ åĮĸ
èµĽäºĭ ä¸Ń
ä¸ĢçĽ´ åĪ°
ç¦»å¼Ģ äºĨ
åįģå¹´ ä»£
å¦Ī å¦Ī
æĳĨ èĦ±
æīĢéľĢ çļĦ
? ãĢį
S C
Ġ åĲĦ
Ġ å¥¹
Ġ åŃ¦æł¡
çļĦ çĲĥéĺŁ
åľ¨ è¿ĻäºĽ
åĴĮ æĹ¥æľ¬
åĲİ å¤ĩ
é«ĺ å°Ķå¤«
ä¸¤ åľ°
è¯Ń ç³»
æ¯ı æľĪ
åı¯ä»¥ ä½¿çĶ¨
åħ« ä¸ª
å®Ĺ å®¤
éĿĴ å±±
å¤ı æľĹå¾·
èµ« é²ģ
æĬĢæľ¯ çļĦ
è®² åº§
çĶŁçī© åŃ¦å®¶
æ´ŀ ç©´
æª Ģ
å«ģ ç»Ļ
å±¥ è¡Į
b o
å ļ
çļĦ é¦Ļæ¸¯
åĨ ¤
äºº éģĵ
çī ¡
æ± ¾
åįĹ éĿ¢
äºĭ è¿¹
éĺ¿ èĲ¨
éĴ ī
æĽ´ é«ĺçļĦ
éĽ· è¯º
èİ± åħĭ
åĽ½éĻħ èµĽ
åĽłä¸º å®ĥ
æĳ© æ´Ľ
æŀª ç®¡
äºĨä¸Ģ é¡¹
éĺ¿å°Ķ åıĬåĪ©äºļ
å¾·åħĭ èĲ¨æĸ¯å·ŀ
å·´æĭ¿ é©¬
L L
R O
Ġ åĲįç§°
Ġ éļıçĿĢ
çļĦ çĬ¶æĢģ
å¯¹ æĪĺ
åŃĲ åĴĮ
èİ º
é«ĺ å®Ĺ
äºļ é©¬
åº¦ è¿ĩ
è½¦ äººæ¬¡
ç³ Ł
æ¸¯ åı°
åıĪ ç§°ä¸º
åİ» äºĨ
å¾Ī å®¹æĺĵ
è¯ģ ä¹¦
ä¹¡ éģĵ
æ¯ĶèµĽ çļĦ
åĺ ²
æŃĮæĽ² çļĦ
æķĮ åĨĽ
åĽº ä½ĵ
å¢ĵ åľ°
è±ª åįİ
u al
çļĦ çĲĨè®º
è¡Į æĿİ
æĬ ¹
èĩª ä»İ
èĪ ľ
åı° éĵģ
åħ¨ æ°ĳ
çº¿ æĺ¯
ç³» æķ°
åħĥ çļĦ
èĲ¨ è¯¸å¡ŀ
äºĨä¸Ģ åº§
ç¨İ åĬ¡
è´¢æĶ¿ éĥ¨
5 æĹ¶
M O
æŀ ķ
ä¹ĭ æīĢä»¥
æĸ° ä¼ļ
æľĢ å¿«
è¿ĩ æĿ¥
æīĭ æĮģ
å²Ľ å¼ıæľĪåı°
åĳ½ ä¸Ń
æĿĳ çļĦ
ä»Ĭ å±ŀ
æ³° å±±
æ¤ °
èľ ĺ
èĿ ĩ
çªĹ åı£
å«Į çĸĳ
åĬłåĪ©ç¦ı å°¼äºļ
èĥ° å²Ľ
Ð ½
çļĦ é¢Ĩå¯¼
æĿ ĸ
åĲİ äºİ
ä¸Ĭ æĺ¯
åĩº èī²
åĪĨ è¾¨
é¦ Ī
åŃĲ ç§ĳ
æĪĺ ç¥ŀ
éĩį åŀĭ
å®ī å®ļ
æİ¥ çº³
æŀĹ ä¸ļ
å¤Ħ åĪĨ
ç¬¬ä¸Ģ åŃ£
æ¸ħ æ´ģ
æ¬§ ç¾İ
å»ºçŃĳ ç¾¤
åģĩ è¯´
åŃĶ åŃĲ
ot t
è¯¥çľģä»½ä¸ºæ³ķåĽ½ åĮĹéĥ¨
æ´»è·ĥ äºİ
åĬłåĭĴæ¯Ķ æµ·
Ã Ń
çļĦ é»ĳ
çļĦ çİ°è±¡
åľ¨ åľ£
åĪ° æĿ¥
åĪ© æ¶¦
ä»£ è¨Ģ
èĩ³ 4
çĶµ æºĲ
åº¦ åģĩ
æİ¥ åı£
éĩĳ éĴ±
å¼ł åŃ¦
ä¿® çŃĳ
ä¼¯ æģ©
çĪ¶ åŃĲ
æ½ Ł
è¿ľ çļĦ
æĺ¥ èĬĤ
åįĹåĮĹ æľĿ
å¼ºçĥĪ çļĦ
é£ĵé£İ ä¸Ńå¿ĥ
èħ¾ è®¯
inc lude
çļĦ çīĪæľ¬
åľ¨ 2005å¹´
è¯ Ľ
åĩ ¿
èĢ ¿
ä¸» æľº
çŃī äººçļĦ
å¤ĸ æĺŁ
ç§į åĬł
æ°´ åĬĽ
é¦ĸ è½®
å·´ è¾¾
å·´ åĵĪ
èį Ķ
åİĨ ç¨ĭ
è¿ĺ æ²¡æľī
çļĦä¸Ģ ç³»åĪĹ
æĿİ æ°ı
ä¾Ľ æ°´
13 4
å³ Ļ
åĲĮå¹´ 8æľĪ
çģµ é¡¿
æķ°æį® åºĵ
æī© åħħ
æ°ĳä¸» ä¸»ä¹ī
åįļçī© éĻ¢
å¤ĸäº¤ åħ³ç³»
çĽ¸å¯¹ è®º
ä¹ĥ èĩ³
å¾·éĩĮ åħĭ
up er
AK B48
çİĭå®ī çŁ³
çļĦ æľĢå¤§
åĪ ĥ
å¤§ å±łæĿĢ
ä¸į åĲĪ
åı¯ æĮģç»Ń
ç¾İ æĭī
æİ¥ åĪ°
å¤Ħ å¤Ħéķ¿
ä¸ĵ å±ŀ
å¤į åĩº
åĽŃ æŀĹ
æ¥ ·
å¾Ī é«ĺ
å¡ŀ æĸ¯
ic a
åºķ éĥ¨
æ²¿ èĳĹ
æĽ¿ è¡¥
æºª æµģ
æĪ´ ç»´
ç¡¬ ä»¶
ĠC om
Ġ199 0å¹´
Ġ198 9å¹´
æ£Ģå¯Ł å®ĺ
ä¸ºè¾Ĳé³įé±¼çº²é² Īå½¢çĽ®
ç®¡æİ§ ä¸Ńåıĳçİ°
7 0å¹´ä»£
8 æľĪ15æĹ¥
åľ¨ æľ¬
åľ¨ 2016å¹´
ä¸º çĥŃå¸¦
æĺ¯ å·´è¥¿
åĴĮ åľ£
åĪĨ éĺŁ
èĬ ľ
åŀ Ħ
äººåı£ çļĦ
ç»´ çī¹
å¥¥ å§Ķä¼ļ
ä½ı æīĢ
æĽ¼ åĵĪ
åĩł ä¸ªæľĪ
éŁ³ä¹Ĳ èĬĤ
å®ĮæĪĲ åĲİ
æķĮ å¯¹
æ¤Ń åľĨå½¢
ros oft
) )
åľ¨ ä¹Įåħĭåħ°
åĴĮ é©¬
äºĨ èĩªå·±çļĦ
çĶŁ çĲĨ
å¼ł å®¶
åĪĴ åĪĨä¸º
è¿ŀ ä¸²
æ¡Ī çļĦ
ä¾Ľ çĶµ
æ´Ľ æŀĹ
çĻ» åł¡
è¿ª å°Ķ
æ¸© åĴĮ
æ¬§æ´² åĽ½å®¶
ãģ Ħ
å½© èĻ¹
èİ² èĬ±
é«ĺçŃī æ³ķéĻ¢
æĹ¢ æľī
å¤ļæł· æĢ§
å¤ĸåĽ´ èµĽ
Net flix
å½ķéŁ³å®¤ ä¸ĵè¾ĳ
çļĦ åī¯
çļĦ æĶ¿çŃĸ
äºº å¯¹
èĢ Ĩ
ä¸į æ¸ħæ¥ļ
æ°ĳ äºĭ
æĥ ¹
10 æĹ¶
å¤« æĸ¯åŁº
äºĶ å¤§
æĬ¥ åĲį
ar y
ä¿Ħ è¯Ń
åºĨ ä¸ĭ
é³ Ĺ
åĪĹè½¦ çļĦ
äºĮåįģ ä¸Ģå¹´
èµŀ èµı
190 3å¹´
å±ı å¹ķ
ä¸Ģæ®µ æĹ¶éĹ´
èľĺ èĽĽ
5 åı·
B r
H O
ä¹ĭ å®¶
çĶ¨ åľ¨
å°Ĩ æĿ¥
10 ä¸ĩ
çĽ® åĩ»
æıĲ éĨĴ
åıĸ åĲĳ
åħĪ è¡Į
æ´¾ å¯¹
è¿ª åħĭ
éĵģè·¯ çļĦ
èĨ Ŀ
ä¹ĭéĹ´çļĦ åħ³ç³»
ä¸ŀ çĽ¸
å¼ĹéĽ· å¾·
Ġ 3æľĪ
ä¸Ģ çº¿
è¢« ä¿ĺ
çŃī åĲĮ
åħ¨ æĸ°
æĻ® é¡¿
çīĩ çļĦ
é¥ ·
æŀģ åħ¶
14 2
æļ´ éĽ¨
åĨ² éĶĭ
ir l
av id
æ¿Ĵ åį±
% )
m y
åľ¨ 2007å¹´
ä¸Ģ å¥Ĺ
äºº åĬĽ
äºº æŃ»äº¡
æĺ¯ çĳŀå£«
è§ ħ
ä¸į å¤Ł
è·¯ ä¸İ
ç«Ļ åīį
èµ· èįī
æ°´ æ³¥
ä»¬ çļĦ
æŃ¦ çĶ°
å®Į æ¯ķ
la s
åģľ åĬŀ
å¹² æĹ±
ãĤ ¹
äºİ18 4
çº¿è·¯ åı£
ä¸¤å¹´ åĲİ
æĴŀåĩ» åĿĳ
M ac
Ġ åĺīéĿĸ
çļĦ ç¬¬ä¸Ģä¸ª
åľ¨ éŁ©åĽ½
åŃ µ
åĮ ¡
èĭ ·
ä¹Ł ä¸İ
åħ¨ åŀĴæīĵ
æĢ» åħµ
åİ¿ å¸Ĥ
å°¼ ç§ĳ
ä¿¡ æīĺ
æ¨ Ĭ
åĨį çĶŁ
æŃ¦ æĺĮ
åħ· åºĨä¸ĭ
çĶµå½± éĻ¢
é¡¿ æ¶ħ
ro up
åĪĩ æĸŃ
ä½© å°Ķ
èĤ¯ èī²
æĢª çī©
å¸¦æĿ¥ äºĨ
èĿĻèĿł ä¾ł
2 æľĪ24æĹ¥
c on
o on
ä¸Ģ åĿĹ
åĪ° è®¿
çĶ± ä¸ŃåĽ½
å¹³ åİ¿
åĬł å¯Ĩ
éĢļ ç§°
åįİ æ²Ļ
æīĭ ä¸ĭ
éĹ¨ å¤ĸ
åŃĹ ä½ĵ
çĿ ¿
æĶ» éĻ·
åįĬ åĨ³èµĽ
åį´ è¢«
ãĤ ĵ
èĩªåĬ¨ åĮĸ
æ°¯ åĮĸ
æ¸Ĺ éĢı
æĳ©æ´Ľ åĵ¥
Ġ ä¿Ħç½Ĺæĸ¯
Ġ åĶĲ
çļĦ ç»Łæ²»
æ² «
åĩº å¢ĥ
ä¿ ¯
å¤ļ ç±³
é© ¿
èİ ¹
201 4
å¸ĥ è¾¾
æĢ» ç½²
éĥ½ è¦ģ
éĺ¿ åįľ
åŀ ©
å¨ Ħ
å¯¼ ä½ĵ
202 2
é² ¶
åı¯ä»¥ è¢«
åħī çļĦ
åħ« å¼º
åįł æľī
es Ġ
åį¢ æ¯Ķ
äºĭä»¶ ä¸Ń
21 ä¸ĸçºª
ãĢī .
å¸ĥé²ģ æĸ¯
å¥¥åħĭ è¥¿
è¯¥çī©ç§įçļĦ æ¨¡å¼ıäº§åľ°
R S
çļĦ èĢģ
çļĦ å¼Ģåıĳ
å¹´ ä»½
ä¸Ģ çīĩ
æĺ¯ éĢļè¿ĩ
åĴĮ åħ¶
å¹¶ éĢļè¿ĩ
æ¯Ķ 1
åı· åı¬
åĽĽ åĲį
åįķ è¯į
å¤« å¦»
è¿ĳ æľŁ
è½¬ è¿Ĳ
å¥ĸ åŃ¦éĩĳ
åĨĻ äºĨ
å¤® è§Ĩ
åŁĥ æĸ¯
æħ Į
å¼Ĺ èİ±
èģļ å±ħ
åĪĽä½ľ äºĨ
æĬµ åĪ¶
èĦ± ç»´äºļ
åĬª æĸ¯
ĠC ol
èĴĭ ä¸ŃæŃ£
å¹¿è¥¿ å£®
æķĻç§ĳ æĸĩ
èĤ¯å¡ĶåŁº å·ŀ
T wit
å ¬
Ġ ä¸Ģä¸ª
Ġ èī¾
åľ¨ 2019å¹´
åľ¨ 2017å¹´
ä¸Ń ä½¿çĶ¨
å¥ ¢
æĹ¶ è£ħ
æ² ¾
æµ Ĭ
ä¼ļ ä¸İ
è½ ¿
åŃĲ åŃĻ
åįģ ä½Ļ
èĢħ åľ¨
ç±³ åĭĴ
è¿ĺ å°Ĩ
ä¸ĸçķĮ å¤§èµĽ
å¼º è¡Į
å®Į é¢ľ
æİĴ çĲĥ
åī¯ éĻ¢éķ¿
æ¯Ĵ æĢ§
éĢĥ èĦ±
ä¸ľåįĹ æİ¥
çķª èĮĦ
ab le
çİ» åĪ©
ni vers
åį°åľ° å®ī
æĽ¼åĵĪ é¡¿
l yĠ
ç¬¬ 15
ä¸ĭ å±ŀçļĦ
å¸Ĥ çº§
éĩĮ å°Ķ
è½¦ åİĤ
åħ³ å¿ĥ
åĽĽ åĳ¨
12 3
çĽ´ æµģ
èĳĹ ç§°
æ³¢ å¾·
è¶³ åĪ©
æķħ å±ħ
æ·± æ°´
å°Ħ æīĭ
ä¸Ńå¤® æĶ¿åºľ
å¼Ĥ æĢ§
èį· é©¬
è®¢ è´Ń
èĨ ı
æī¬ å·ŀ
èĹ¤ åİŁ
ä¸ĩäºº æ¬¡
å¹½ é»ĺ
ç° §
å·´æĭī åľŃ
Ð ¸
çļĦ åıįåºĶ
è¡ ŀ
å¤§ çķ¥
æī ³
åĴ ¬
ä¼ļ åĲĪ
æĪĺ çº¿
åĽĽ ä½į
éľ ī
çĭ Ļ
æłĩ çŃ¾
å¼Ģå§ĭ åĲİ
åħī å¤į
æĶ¿æ²» åįıåķĨä¼ļè®®
è¡Ĺ åºĦ
æī¿ åıĹ
åħħ å½ĵ
æī¾ åĪ°äºĨ
éģ¿ éļ¾
ap p
éĤª æģ¶
9 æľĪ28æĹ¥
Ġ æııè¿°
çļĦ çºªå½ķ
åĴĮ æĶ¿æ²»
ä»ĸ å·ŀ
åĽł åľ¨
æŃ£ å½ĵ
ç¾İåĽ½ éĻĨåĨĽ
å¤« çļĦ
ç¼ĸ æĪĲ
åĪĽ åĪĬ
è£ħ æľī
ä»£è¡¨ æĢ§
ä¾¿ ä¼ļ
å¾® åĪĨ
5æľĪ 20æĹ¥
æįķ èİ·
å¤ĸäº¤ éĥ¨éķ¿
ç¼ĵ è§£
åĲĲ èķĥ
åı°é£İ èŃ¦æĬ¥
çĲ¼ æĸ¯
8 åħ¬éĩĮ
g round
l an
Ġ åħĥ
åľ¨ æŁĲäºĽ
ä½ľ å®¢
åĪĨ éĥ¨
å¤ļ éĿ¢ä½ĵ
çŃī ä»·
è·¯ éĿ¢
æ¼Ķ ç»İ
å¸¸ æķ°
åĭ ¿
ç¬¬ä¸Ģ ä»£
å¨ģ çī¹
çª ¦
çħ ½
è¿ª åįĹ
è½» åŀĭ
4æľĪ 30æĹ¥
çļĦäºº å£«
è¿ĩåİ» çļĦ
æĶ¶å½ķ äºİ
ç¢° æĴŀ
çļĦ é£İéĻ©
ä¸Ģ ç»Ħ
å¤§ å°Ĩ
äºĨ åľ¨
åĪĨ ä¼ļ
å¤ļ æĿ¡
åĪ© æ¯Ķäºļ
å°Ĩ æŃ¤
åľº é¦Ĩ
èĭ± èģĶéĤ¦
åıĤ æĪĺ
çķĮ éĿ¢
æº ¢
å¸Ī çĶŁ
æĿİ åħĭ
è¯Ħ çº§
çĭ¬ è£ģ
åıĳçİ° äºİ
åĪĨåĪ« åľ¨
åĪº æĿĢ
ãĤ ¤
åıĭå¥½ åŁİå¸Ĥ
Ð µ
åħ ĸ
ä¸Ģ æī¹
åĴĮ æĹłçĹĩçĬ¶æĦŁæŁĵèĢħ
ä¸į çĶ¨
æ´ ¼
åħ¬ æīĢ
æ°ĳ çĶŁ
å¼Ģ æĭĵ
åı¯ æĥľ
201 5
è¯¥ å¤Ħ
äº§ éĺ¶çº§
éĹ¨ çļĦ
éĴ Ļ
èĮ ľ
çļĦä¸Ģ åĳĺ
ä½ľä¸º ä¸Ģä¸ª
æķħ ä¹¡
æ³° ç½Ĺ
æł¸ ç³ĸ
æľºæŀĦ çļĦ
æĪĴ ä¸¥
åįĵ è¶Ĭ
åĽ½å®¶éĺŁ åıĤåĬł
æŁ´æ²¹ æľº
åĲīéļĨ åĿ¡
Ġ éķ¿
æĺ¯ å¥¥åľ°åĪ©
åľ° è¡¨
æ¸ ¤
æ³ķ è¥¿æĸ¯
æĿ¥ äºĨ
ä¸ī åı·
å°ı æıĲçĲ´
ä½Ĩ æľª
ç§į ç§į
éĩĳ éĴŁ
çļĦä¸Ģä¸ª åĮº
al k
at a
ä¼ĺ å¼Ĥ
et h
10æľĪ 10æĹ¥
éŁ¦ ä¼¯
ä¸¾åĬŀ äºĨ
åºĶçĶ¨ ç¨ĭå¼ı
æĬĺ åıł
Ġ193 7å¹´
çĶŁéķ¿ åľ¨
è°¥ åı·
æĮīå¯Ł åı¸
ä¹Įåħ¹ åĪ«åħĭ
( ãĢģ
2 æľĪ1æĹ¥
çļĦ åĴĮ
çĶ Ħ
äºº æīĢ
çİ º
çĶŁ ç´ł
å¹¶ è¦ģæ±Ĥ
å¤ļ çĵ¦
æ¯Ķ èµ·
ç»ĵ æĻ¶
äº¦ æĽ¾
å®Ī åĨĽ
ç§Ģ åĲī
å®ĭ ä»£
èµ¤ éģĵ
ç¨İ æĶ¶
ir st
åİļ åº¦
eĠ M
åı¥ è¯Ŀ
Ġ18 7
æĸ¯èĴĤ èĬ¬
ç° ¿
ç¦ıå°Ķ æĳ©
çŁ³åĻ¨ æĹ¶ä»£
ç§ĳç½Ĺ æĭīå¤ļ
èĥ°å²Ľ ç´ł
C o
D O
Ġ 25
çļ Ĥ
çļĦ å±ħæ°ĳ
æł Ī
ä¸į å½ĵ
å¾· å·ŀ
åīį æľŁ
åİŁ ä½ľ
å±ŀ çī©ç§į
æİ¥ çĿĢ
åħĥ ä»¶
æ¸¯ å²Ľ
ç»ĵ å°¾
ç¬¬åĽĽ æ¬¡
ç¬Ķ åĲį
å¤ıåŃ£ å¥¥è¿Ĳä¼ļ
çĽ¸ä¼¼ çļĦ
ä½¥ äºĭ
çİĽæł¼ ä¸½
V ID
çļĦ ä»·æł¼
è¾ ľ
å¤ļ å¹´çļĦ
ä¸ī æĿ¡
è¯¥ å»ºçŃĳ
ç¥ ģ
ä¸¤ èīĺ
åİ¿ åĴĮ
å±ŀ èĤīé£ŁæĢ§
åıĤ åĨĽ
æĦı æĦ¿
16 ä¸ĸçºª
çĻ» å±±
çĬ¶ çļĦ
è´¥ ç»Ļ
å½Ĵ è¿ĺ
éº¦ éĩĳ
èİī ä¸Ŀ
å®īè£ħ åľ¨
6 0å¹´ä»£
å¹´ ä»ħ
åĩº åħ¥
åīį åİ»
åİĨ æĹ¶
æĮĩ åįĹ
æº ī
æĻ® åĪ©
æĪı éĻ¢
æ°ı çļĦ
ç¤¼ åłĤ
å¸ĥèİ± æģ©
N O
Ġ å¤ĸ
çļĦ æĢģåº¦
ä¸º çķĮ
ä¸Ń çļĦä¸Ģä¸ª
åŃ¦ è¯´
æ¸ £
ç¾İ é£Ł
è½¦ è·¯
è¯¥ é¡¹çĽ®
åħ¨ èº«
é¦ĸ éķ¿
æ¸¸ çİ©
å¹³æĸ¹ èĭ±éĩĮ
ä¸»è¦ģ ä»¥
èĩ´ æķ¬
æ¸© æļĸ
çĽĳ æİ§
è½» æĿ¾
7æľĪ 7æĹ¥
éĢĥ å¾Ģ
çĽ®æłĩ æĺ¯
è¡° èĲ½
æĭ¼ éŁ³
åĢ¾åĲĳ äºİ
ens is
, (
P G
R ob
ä¹ĭ æĹħ
å¹¶ æĬĬ
èĢĮ å·²
åºľ çŁ¥åºľ
éĺ¿ åĭĴ
ä»İ ä¸Ń
æ¶ ©
æ¢ Ĺ
æīĵ åĩº
åįĥ å¹´
çĮ ¿
æľŁéĹ´ çļĦ
çļ® åŁĥå°Ķ
å¥³æĢ§ ä¸º
åħ¬å¸ĥ çļĦ
å¹¿æĴŃ çĶµè§Ĩ
ä¸īåįģ åĽĽå¹´
åĩ¡ å°Ķ
çİĩä¸º 0
æŃ£ç¡® çļĦ
ç¥ŀåľ£ ç½Ĺé©¬å¸ĿåĽ½
å½Ĵç±» ä¸º
èĶ¬ èıľ
æĺ¯ ä¸ĸçķĮä¸Ĭ
çĶŁ èĤ²
ä¹ĭ äºº
èĢĮ åĩº
åįķ çº¯
éĽĨ æĪĲ
å¥¥ å¼Ĺ
è§£ æŀĲ
ç¦» èģĮ
çłĶç©¶ å®¤
ç¦ı åħĭæĸ¯
ar a
å®¢ åľº
å¾Ī åı¯èĥ½
æīĺ åĭĴ
é¢Ħ èµĽ
å»¶ æľŁ
re am
et er
è¯ĳ åĲį
è¹ Ħ
å¤§è§Ħæ¨¡ çļĦ
ç«ŀæĬĢ åľº
ç§įåĬł è¯į
3 åħ¬éĩĮ
ã Ħ
Ġ ä¹ĭåĲİ
ä¸Ń æĸ¹
å®¶ éķ¿
è¥¿ æ±ī
éĩĮ å¸Į
æĸĩ æĸ¯
ç±» æ¡Īä»¶
in s
ä»¶ äºĭ
åı¯ä»¥ è¿½æº¯åĪ°
æ¸ħ éĻ¤
è¿ŀ éĶģ
ä¿® ç¼®
çļĦä¸Ģä¸ª åİ¿
ç¾¤ çļĦ
å© ¿
æĺ¯ä¸Ģ æīĢ
ç»ĵæĿŁ äºĨ
11æľĪ 11æĹ¥
ä¸ºäºº çŁ¥
åıĹæ¬¢è¿İ çļĦ
å¾Ĺç¥¨ çİĩ
! !
r ess
Ġ éĻ¤
äºº è¢«
å¤§ éĥ½ä¼ļ
åĴĮ æĸĩåĮĸ
ä¸Ĭ è¡Į
ä¸ĭ è®®éĻ¢
å¸Ĥ äººæ°ĳæĶ¿åºľ
åĬ¨ çļĦ
èµĽ ä¼ļ
ç¦ ½
åĽĽ å¼º
åı² éĥ½
æĽ´ å¥½çļĦ
ä¸ĩ èĭ±éķĳ
ç»Ń çº¦
å¼º å¥¸
è§Ħ å¾ĭ
ä¿® æĸ¯
ä¿Ħ æ¯Ķäºļ
å¾ģ æĶ¶
éŁ© æ°ĳåĽ½
çī¹åĪ« æĺ¯åľ¨
ç©Ĩ å°Ķ
å¥ī å¤©
äºİ199 1å¹´
æĬ¢ åĬ«
åĽ½åħ± åĨħæĪĺ
æĳ©æīĺ è½¦
åŁĥå¡ŀ ä¿Ħæ¯Ķäºļ
% ãĢģ
l er
r at
çļĦ æĸĩåĮĸ
çļĦ æ¼Ķåĩº
åĩº åİ»
åĪĨ åıĳ
ä¸ĭ è®¾
å¼Ģ å¾Ģ
å¹³ æĹ¥
äºļ ä¼¯
ä¸¤ å®¶
åºĶ æĢ¥
in al
åıĺ ä½ĵ
çĻ½ åŀ©
çĶµå½± ä¸Ń
æĦŁ åħ´è¶£
åº· å¥Īå°Ķ
åºĦ æĿĳ
è½» è½¨
äºĮåįģ ä¸īå¹´
28 0
è°Ī è¯Ŀ
ç»§æī¿ äºĨ
å¥¥åħĭè¥¿ å¡Ķå°¼å¤§åĮº
F or
Ġ èĭı
Ġ la
æ³ Ĺ
ä¸İ åĲĮ
å¯¹ æµģ
éĩĮ å£«
åĬł è£ħ
ç¾İ çļĦ
æį į
ç±³ æĭī
éĺ¿ åħĭ
è¿ĳ åį«
ä»ĸä»¬ è®¤ä¸º
è§ģ çļĦ
æ¦ ķ
éŁ³ä¹Ĳ åī§
ç²¾ éĢī
è¶³çĲĥ åįıä¼ļ
189 8å¹´
ç»¼åĲĪ æĢ§
åı²èĴĤ èĬ¬
Lin ux
äºļåĪ© æ¡ĳ
å¹¿è¥¿å£® æĹıèĩªæ²»åĮº
R NA
çļĦ è®°è½½
åĲİ åĨį
âĢ »
ä½į ç´ł
æĸ° æķĻ
é«ĺ åİĭ
å¾Ĺ å¥ĸ
æĭī èĦ±ç»´äºļ
é¡ ½
ä½Ĩ ä¹Łæľī
èĭ± ä¹Ŀ
æŀĹ ä¸Ń
çĽ´ çº¿
åķĨ ä¼ļ
å¤± è¯¯
æĻ¯ åĮº
ç¤¼ çī©
æķ£ æĸĩ
ä¸ĢèĪ¬ çļĦ
æļĤ æĹł
åŃĶ æ³°
è·¨ æĢ§åĪ«
åĽ° å¢ĥ
çļĦçī¹ æĢ§
è§Ĥå¯Ł åĪ°
å¡ĳ éĢł
æ°¨ åŁº
éĹ¯ åħ¥
é¡¿æ¶ħ èĮ¨åħĭ
3 åı·çº¿
5 åĲį
b le
Ġ a
çļĦ æĢ§
éĥ Ŀ
åħ¬ åŃĲ
ç¾ ģ
æľĢ å¥½
åįİ å·ŀ
å¸¸ çĶ¨çļĦ
çģ« çĦ°
ä½İ åľ°
æĢ»ç»Ł éĢīä¸¾
çĶŁäº§ æĢ»åĢ¼
æĭĽ çĶŁ
åĽ° æī°
æĮĳ éĢī
æłĩå¿Ĺ çĿĢ
å½» æĸ¯çī¹
æĬ½ è±¡
æĬ« éľ²
r yĠ
Ġ ç§ĳ
Ġ ä¸ĸçķĮ
çļĦ çŁ³
æĺ¯ ä¸İ
201 1
è½¦ æ¬¡
ä¸¤ åº¦
å½± éĽĨ
éĩı äº§
12 æľĪ25æĹ¥
å¥¥ å¸ĥ
æł¡ æĸ¹
åĪ« äºº
æĳ ¸
å¸Į ä¼¯
åī¯ æķĻæİĪ
æĶ» è¯»
ä»į æľª
é¢Ħ è¨Ģ
ç¥ĸ åĽ½
ç¥ĸ æ¯į
é¦ĸæ¬¡ åľ¨
éªĳ å¸Ī
èŃ¦å¯Ł å±Ģ
eĠ S
ĠC omp
åĪĽç«ĭ äºĨ
è©¹ å§Ĩ
åıĪåĲį BD
å¿½ çķ¥
ä¸»æīĵ æŃĮ
M 1
æĹ¥ åľĨ
ä¸į åŃĺåľ¨
ä½¿ é¦Ĩ
ç§ĳ ç»´å¥ĩ
åįİ ä¸Ń
è§Ĩ éĩİ
æĥħ äºº
èĻ Ķ
æ¸ħ æľ«
æ®µ æĹ¶éĹ´
åľŁ æľ¨
åŃĻ æĿĥ
åĩ¯ çī¹
åĲĪå¹¶ èĢĮæĪĲ
æĭĴç»Ŀ äºĨ
ä½įäºİè¯¥åĽ½ åĮĹéĥ¨
å¡« è¯į
éªĳå£« åĽ¢
åĵĪå¸ĥ æĸ¯åł¡
6 æľĪ28æĹ¥
P a
m e
Ġ å½ĵæĹ¶
ä¸º formula
æľī æĿĥ
ä¸ª åĽ½å®¶
ä¸ľ æŃ£
ä¸ľ åį°åº¦
èĲ į
åŁº éĥ¨
çº¦ æĹ¦
æĪĸ è®¸
æŀ¶ é£ŀæľº
æĿ¯ åĨłåĨĽ
åºĶçĶ¨ ç¨ĭåºı
åİŁæľ¬ çļĦ
åŃ¤ ç«ĭ
ä¸ĳ éĹ»
å¼Ĺæĭī åŁº
æĺĶ æĹ¥
2 æĹ¶
C S
Ġ æ±ī
Ġ ä»ĸçļĦ
ä¸Ń åı¶
å¤§ åĲį
åĴĮ ä¸ī
æĸ¯ å¾·
æŀ ¯
æ¸ Ń
å¼Ģ æŀª
æİ¥ ç§į
åĮħ è£¹
åı¤ ç½Ĺé©¬
ç¼ĸ è¯ĳ
å¤± åĪ©
å¤± æľĽ
æ°ı æĹı
åıĳè¡¨ å£°æĺİ
éļıåĲİ åľ¨
è¥¿éĥ¨ çļĦ
çī§ åľº
ĠP h
è¿Ļæĺ¯ åĽłä¸º
å¯¹åºĶ çļĦ
æł¼é²ģ åĲīäºļ
èĦĬæ¤İ åĬ¨çī©
- ,
Ġ çłĶç©¶
Ġ æĿ¨
Ġ 100
åį ¤
åĴĮ åįĹ
äºĭ çī©
æķĻ åıĭ
çģ ¶
åįķ è¡Į
ä»½ åŃĲ
æ³ķåĽ½ çļĦ
èĩªå·± æĺ¯
éĻĪ åĪĹ
æĤ ¨
æ£Ģ è®¨
il la
éĶ¦ èµĽ
åĨ¬ å¤©
ĠL e
å½¼å¾Ĺ åł¡
åį¯ ç§ĳ
7 åħ¬éĩĮ
F ran
n er
åľ¨ å¤ĸ
ãĢĭ ;
èģ ĭ
è¿Ļ ä»½
åĬł çļĦ
å¾Ĺ å¤ļ
åħ¥ è¯»
ç«ĭ éĿ¢
éĶ Į
å°± å¼Ģå§ĭ
åį¡ æ´Ľ
ä¼ł åĩº
æĶ¿æ²» å§Ķåĳĺ
æīį æĺ¯
çĽĽ è¡Į
ç¼º å¸Ń
éĵľ éĶ£
èĭĹ æłĹ
æĶ¹å»º ä¸º
å¥¥æĸ¯æĽ¼ å¸ĿåĽ½
åħļç»Ħ ä¹¦è®°
B R
Ġ äºĭä»¶
ä¸į å¤§
è¿Ļ å¯¹
æµ· æĪĺ
å°Ĩ è¿ĳ
å±± ç«Ļ
å¼ı å»ºçŃĳ
éĥ½ ç»Ł
é¦ĸ åĳ¨
æĽ¾ å¤ļæ¬¡
æ¸¸ ä¹Ĳ
æĶ¶ çĽĬ
åº§ æ¤ħ
æĬķ è¯ī
åĬ© æīĭ
å¡ŀ çī¹
çĻ¾ å¼º
ç¤¾ä¼ļ ç§ĳåŃ¦
çķĻ å®Ī
it ion
æĪĲåĳĺ çļĦ
å·¡ è§Ĩ
ð« ļ
5 æľĪ15æĹ¥
C L
Ġ ä½ľåĵģ
çļĦ é£İ
çļĦ å¹³åĿĩ
æ³ķ åħ¸
èĢĮ åħ¶
èĢĮ åıĹåĪ°
è¢« ç§°ä½ľ
å¤ļ åªĴä½ĵ
æĸĩ åĩŃ
ä½Ĩ ä»ĸä»¬
ä¸¤ ç«¯
å°± å·²
æĶ¯ éħį
åĽ´ æ£ĭ
åħ´ å¥ĭ
è´¹ åĪ©
çľĭ åı°
å½Ĵ åħ¥
ro id
éĴŁ æ¥¼
çļĦåľ° ä¸ĭ
äºİ199 3å¹´
Ġ198 4å¹´
çªĹ æĪ·
ç¯®çĲĥ è¿ĲåĬ¨åĳĺ
å¼ĹæľĹ ä»Ģ
åĬłé¾Ļ çľģ
1æĹ¥ å¹³åĿĩ
éĺ¿åįľ æĿľ
k e
çļĦ éĥ¨éĺŁ
ä¸Ń æŃ¢
å¤§ åľ°
åĪĨ éļĶ
ç¾ ļ
å¼Ģ åĽ½
é«ĺ æ¸©
æīĢ ç¤º
çĲĥ è¡£
éĤ ¯
å±ŀ åĲį
æ¼Ķ æĬĢ
åĲĳ åħ¬ä¼Ĺ
åıĹ éĤĢ
å¹¿ å¤§
åıĸ æĻ¯
ä¸ĵ çº¿
æİ¨ ä¸¾
ä¼¯ æĺİ
ä¾§ éĿ¢
it e
èĪ¬ çļĦ
æ²¿ éĢĶ
æĵįä½ľ ç³»ç»Ł
å±ķç¤º äºĨ
éĢĨ è½¬
æº¶ äºİ
éŃģ åĮĹ
ç¤¾äº¤ åªĴä½ĵ
æĨ ¾
1 åħ¬éĩĮ
2 ä¸ĩ
v i
y c
ä¸º Ġ
æĺ¯ èĩª
æ³ķ åŃ¦éĻ¢
å¸Ĥ è®®ä¼ļ
æĦ ī
åħ¨ åĬĽ
åİ¿ åĲį
çº¦ 5
ç² Ł
ç¬¬äºĮ åĲį
æĶ» ä¸ĭ
å±Ĥ éĿ¢
èŃ¦ å¤ĩ
it al
ä¾Ŀ æ¬¡
èĴĤ æĸ¯
è§Ĵèī² æī®æ¼Ķ
çıį å¦®
ç¨ĭåº¦ çļĦ
ä½įäºİè¯¥åĽ½ ä¸ľåįĹéĥ¨
æ°ĶåĢĻ åıĺåĮĸ
è®²è¿° äºĨ
åıįæĺł äºĨ
æİ¢éĻ© éĺŁ
Ġst yle
æĮīå¯Ł ä½¿
n et
« çĹ
æĺ¯ çĶ¨
åĴĮ åĽ½å®¶
å¹¶ åĪĹ
åĨħ å°Ķ
æķĻ å®¤
éĶ ¤
å¼Ģå§ĭ è¿Ľè¡Į
è½¬ åıĺä¸º
èı ĩ
ar m
å±Ĥ æ¬¡
æĿĢ äºĨ
ç®¡çĲĨ å§Ķåĳĺä¼ļ
åĲİæĿ¥ æĪĲä¸º
it yĠ
æĸ¹éĿ¢ åĨĽ
æŀª åĩ»
äº¤éĢļ éĥ¨
è´µ çļĦ
èģļ åĲĪçī©
ç¼º å°ĳ
éĺ´ æĢ§
åĽ½å®ī æ³ķ
; "
a il
çļĦ è§Ħå®ļ
åħ Ģ
åľ¨ æµ·
åľ¨ åľº
åľ¨ ä¸ĢäºĽ
ä¸Ģ åı°
ä¸Ģ é¢Ĺ
äºĨ å¤§éĩı
å¯¹ ä¸ŃåĽ½
æĻ ĥ
çī© ä»¶
ä¸ĸ ä¿Ĺ
å¤ĸ ä¾§
è·¯ æĸ¯
åįİ è£Ķ
å·´ æ¯Ķ
æĹł åĬĽ
åĵĪ å¯Ĩ
å¡Ķ æĸ¯
å¡Ķ åħĭ
åŃĺ æ´»
ic t
åĩºçİ° äºİ
èĥĮ åıĽ
7æľĪ 20æĹ¥
æĬµ å¾¡
èĳ¬ ç¤¼
çŁ¥åĲį åº¦
çĭĻ åĩ»
2 30
p ro
Ġ è¿Ļç§į
ä¸Ń åįĹéĥ¨
ä¸ľ éĿ¢
éģĵ åħ·
10 äºº
æ°´ æŀľ
åĪĻ æĺ¯åľ¨
åį¡ è½¦
an s
å¸¦ åĽŀ
è§£ åīĸ
åħŃ åįģ
åįĥ åı¶
æ¢ħ åĪ©
ä¸½ çļĦ
æ¦Ĥ è¦ģ
å¹³åı° ä¸Ĭ
ĠC l
åįĴ äºİ
æİ¢æµĭ åĻ¨
8 Ġ
çļĦ çĶŁäº§
ä¸Ń åħ´
è¡Į æĢ§
åĩº åĬ¨
çĶŁ æ¯į
çĶŁ æ®ĸ
å¹¶ è®¤ä¸º
åħ± çĶ¨
é£ ĺ
ç½Ĺ æĽ¼
åºĶ ä»ĺ
on ly
äº¦ ç§°
æĻļ ä¼ļ
æķ°éĩı çļĦ
å±ŀçļĦ åĬ¨çī©
æłĸæģ¯ äºİ
ç²¾ç¥ŀ çĹħ
ç¯® æĿ¿
é©¬åħĭ è¥¿
æĬķåħ¥ æľįåĬ¡
å±Ĭåħ¨åĽ½ äººå¤§ä»£è¡¨
çģĮ æºī
æ»¡æ´² åĽ½
éĩİçĶŁ åĬ¨çī©
å°¼æĹ¥ åĪ©äºļ
) ãĢĭ
G N
Ġ åĽĽ
çļĦ è½¦ç«Ļ
çļĦ è¯Ħä»·
20 ä¸ª
ä»¥ èĩ´
æĹ¶ æīĢ
ä»£ ä»·
å¦ ¾
å¤© æ°´
æ¯Ķ åĪ©äºļ
æ£ µ
åį¡ æĻ®
éĹ¨ ç¥¨
)ãĢģ (
é¢Ħ çķĻ
é¡º ä½į
åħ¼ èģĮ
as e
éģĩ ä¸Ĭ
çĴ §
åĤ¨ å¤ĩ
è´« ç©·
éĻª åĲĮ
å¥ł åŁº
è¯ģåĪ¸ äº¤æĺĵæīĢ
æ¤Ń åľĨ
ä¸ºé¦ĸ çļĦ
E l
H z
K i
O pen
S L
Ã ³
Ġ åĲİç»Ń
çļĦ æĿĳèĲ½
ä¸Ģ å®ļçļĦ
æĺ¯ å½ĵæĹ¶
åĴĮ è°Ĳ
ä¼ļ å¯¹
éķ¿ è½´
æĸĩ æ¡£
èĪ µ
åı° åĲİ
è¡¨ åĨ³
åŁİ å·´
æĮĩ åĲĳ
æ°Ķ æ°Ľ
åºĨ åħ¸
æ²¹ çĶ»
7æľĪ 31æĹ¥
ç¼º çĤ¹
åĪļ åĪļ
è¥¿åĮĹ æİ¥
ç¨³å®ļ æĢ§
æĬ½ çŃ¾
éĽĩ åĳĺ
è¥¿èĹı èĩªæ²»åĮº
ç¡« éħ¸
" ãĢģ
åľ¨ 2006å¹´
å¤ļ éĥ¨
åįĹ ç«Ļ
åĮĹ èĩ³
ä½Ĩ è¯¥
æ²» æīĢåľ¨
åĲĦ æĸ¹
çīĩ å°¾
ç¼ĸ ä¸º
å¨ģ åĬĽ
å½ķ åıĸ
çĭ¬ å®¶
è®© ä»ĸä»¬
is Ġ
åĺī åħ´
æĢ»ç»Ł åºľ
æ¦Ĥ çİĩ
åĨĮ å°ģ
èģĶåĲĪåĽ½ æķĻç§ĳæĸĩ
éĢĢå½¹ åĲİ
äºĮæ°§åĮĸ ç¢³
E x
Ġ å¸ĥ
Ġ åį°åº¦
ä¸Ń å±Ĥ
åĴĮ èĭ±åĽ½
åľ° çĭ±
å½ĵ äºĭ
ç§° åħ¶ä¸º
éĩĳ çļĦ
é¦ĸ æŃĮ
æ¸¯ åºľ
ç¦ı æĸ¯
æ±ī åı£
çĶ° çº³è¥¿
æł¹æį® åľ°
çľŁ çĲĨ
å¯Į è£ķ
åĽłä¸º ä»ĸ
åį´ åľ¨
é©¬æĿ¥ äºļ
ä»·åĢ¼ çļĦ
Ġ18 6
æŀ¢ å¯Ĩ
åĽļ ç¦ģ
äºļé©¬ éĢĬ
Ġ ç»ıè¿ĩ
åĲİ ä¾¿
çĲ µ
å¤ļ å°ĳ
åįĹ æľĿ
åħ¨ æĸ°çļĦ
è¿Ĳ è½¬
ç»Ł çŃ¹
éĺ¿ èĤ¯èī²
åį³ ä¾¿
éĿ¢ç§¯ çº¦ä¸º
ç¬¬äºĮ ä»£
å®¢ æľº
æīĺ å¤«
èĢĥ è¯ģ
æ´»åĬ¨ ä¸Ń
çľĭ ä½ľ
åĬ³ ä¼¦æĸ¯
ou se
å°¾ å·´
ç¼© å°ı
åĪĨç±» æ³ķ
çļĦéĩįè¦ģ æĢ§
çİĩé¢Ĩ çļĦ
çļĦåĲĮ åĲį
uc k
å¥¥å¼Ĺ æ¶ħ
çļĦ å½¢è±¡
è· ¤
æĸ° æĺŁ
ä¸ī é¡¹
çŃī éĹ®é¢ĺ
ç«ĭ å®ª
è° ħ
é©¬ åĵĪ
æ°´ éģĵ
åı¸ å¾Ĵ
æĹł ç¼ĺ
æĽ´ å®¹æĺĵ
åķ ¶
å°ĳ æŀĹ
å®¹ è®¸
åī¯ å¸Ĥéķ¿
éĿĴ åĽ¢
åĢŁ çĶ¨
ä»įçĦ¶ æĺ¯
190 2å¹´
åŃ¦èĢħ è®¤ä¸º
ĠS c
æĺ¯ä½įäºİç¾İåĽ½ å¯ĨèĭıéĩĮå·ŀ
åĽ½éĺ² éĥ¨éķ¿
çĸı æķ£
çĮĽ çĥĪ
åĩ¶ æīĭ
åĵºä¹³ åĬ¨çī©
å®¦ å®ĺ
å¹¼åĦ¿ åĽŃ
l or
Ġ æ³¨
çļĦ åħ¬åı¸
çļĦ è°ĥæŁ¥
åľ¨ è¢«
ä¸Ģ åĽ½
ä¸į æĥ³
çŃī æĸ¹éĿ¢
å² ļ
é©¬ åĭĴ
ä¸ļ ä¸»
ç«Ļ åĲį
ç¾İåĽ½ æĶ¿åºľ
éĴ ®
ä¸ĵ é¢ĺ
ä¸»è¦ģ æľī
è¾ĥ æĹ©
åĿĩ åĮĢ
é»ĳ æ´ŀ
éĵģè·¯ çº¿
éľį å¤«
å®ĩ å¤ļ
åĲ¬ ä¼Ĺ
In st
ãĢģãĢģ ãĢģãĢģ
æ³¨æĦı çļĦæĺ¯
çĸ¼ çĹĽ
back ground
Ġcol span
( ãĢĬ
2 5å¹´
9 æľĪ15æĹ¥
Ġ æīĢæľī
åħ¶ æ¬¡
ä¿ ¸
å¹¶ çĶ¨
åĨĽ ä¸Ń
èĭ Ķ
å¤ļ å¤Ħ
å£ ¹
ä¸ī èı±
æķĻ æĿĲ
å·¥ åĨľ
è®¾ æ³ķ
éħ ļ
æº ¥
an a
åı¤ å°Ķ
è§£ éĽĩ
è½¬ åĮĸä¸º
çļĦä¸Ģ éĥ¨
ç¬¬äºĮ å¤§
å®Ĺ æĹ¨
13 3
it ed
ä¸´ è¿ĳ
è½» å¾®
æľºåľº çļĦ
åħ¬å¸ĥ äºĨ
ĠW orld
Ġ198 2å¹´
æ·ĺæ±° èµĽ
æĪĲäºº æ¸¸æĪı
J o
Ġ 9æľĪ
åĴ ½
å¥ ļ
ä¸İ æĿİ
åĩº èī²çļĦ
åĵ ī
çī¹ åĬ¡
æ°´ æºĲ
è®¤ å®ļä¸º
æĺŁ çĲĥ
åĪĴ ä¸º
å°Ħ ç¨ĭ
6æľĪ 10æĹ¥
ä½© éĩĮ
Ġ198 6å¹´
å¡ĳ æĸĻ
åºŀ å¤§
èĢķ åľ°
éĻĦåĬł èµĽ
åŃĶæ³° å¤§åĮº
6 åĲį
ï ¹
æľī æľŁå¾ĴåĪĳ
æ² Ĥ
æ°ĳ ä¿Ĺ
åįĹ éŁ©
åĬĽ åĴĮ
çĽ¸ éģĩ
åı¸ éĵİ
ä¸¾ éĩį
æłĩ è¯Ĩ
åĪĿ æ¬¡
äººæ°ĳ åħļ
æķħ å®«
14 ä¸ª
æĹħ é¦Ĩ
æķĳ æĬ¤
åĪĨå¸ĥäºİ åįĹç¾İæ´²
ç«ŀäºī å¯¹æīĭ
å¦¥ åįı
éĵģè¾¾å°¼ åı·
æįį åį«
éŃģåĮĹ åħĭ
" âĢĿ
6 åħ¬éĩĮ
Ġ èµĽ
Ġ ç»´
Ġ åĽłæŃ¤
Ġ è½¨éģĵ
çļĦ èĬĤçĽ®
ä¸Ģ éĿ¢
éĿ ¶
ç¬ ł
é©¬ èĭ±ä¹Ŀ
èĢħ æĺ¯
èµ· æĭħä»»
é¦Ļæ¸¯ å¤§åŃ¦
åľŁ åı¸
çĶ±äºİ åħ¶
åħ¼ å®¹
åĿļ åĨ³
åħĭéĩĮ å¤«
æİĮ æİ§
å¸ĮèħĬ è¯Ń
ç³ĸ å°¿
ä»·åĢ¼ è§Ĥ
Ġä»¥ä¸ĭ ä¸º
ä¹Łå°±æĺ¯ è¯´
åįļè§Ī ä¼ļ
9 æľĪ29æĹ¥
a ve
Ġ çº¢
Ġ 4æľĪ
Ġ åķĨä¸ļ
çļĦ éŁ³
åľ¨ 2022å¹´
ä¸Ń æĭħä»»
çŁ £
10 ç±³
éķĩ çļĦ
èİ· éĩĬ
ä½įäºİ åı°æ¹¾
ä¹¦ éĿ¢
åıį æ´¾
æĹ¥æľ¬ å¸ĿåĽ½
ä¾§ å¼ıæľĪåı°
é¡¶ çº§
èĭıèģĶ çļĦ
éĽ¶ ä»¶
åĩłä¹İ æ²¡æľī
é«ĺçº§ ä¸ŃåŃ¦
Ġ195 0å¹´
ä»² è£ģ
Ġw ith
1 200
Ã ¶
Ñ Ģ
Ġ åĲ´
åľ¨ ä¸Ģæ¬¡
éķ į
æĸ° ä»»
âĢĿ ).
çĶµ èį·
201 3
ç«ĭ ä¸º
å®ī èĳ¬
åıĹ è®¿
é±¼ ç§ĳçļĦåħ¶ä¸Ńä¸Ģç§į
èĹı ä¹¦
çħ§ æĺİ
è½¨ è¿¹
çĸĹ æ³ķ
éĢĥ åĪ°
åį· åħ¥
å¹¼ ç¨ļ
åıĸæ¶Ī äºĨ
åıĤè°ĭ éĥ¨
åīĬ åĩı
çĽ¸åºĶ çļĦ
1 19
c m
ä¸Ģ éģĵ
äºº éĢī
å¤§ åĴĮ
çĽ Ķ
è¿Ļ å°±æĺ¯
æĸ° åĩłåĨħäºļ
ä¸ī åįĥ
æľº èº«
åĲĪ è®¡
çģ ¿
åł Ģ
é² Ī
åħī ç¦Ħ
çĵ¦ åħ¹
æł· å¼ı
çĶ° ä¸Ń
æĽ¼ è°·
13 ä¸ª
è½½ å®¢
æĹħ éķ¿
æĸŃ è£Ĥ
èĥĮ åĲİ
èį¯ åĵģ
æİ§åĪ¶ åĻ¨
11æľĪ 30æĹ¥
éĤ® æĬ¥
æ¦ľ é¦ĸ
é¡¾ å®¢
æĮģç»Ń åĪ°
å°ıç»Ħ èµĽ
åĩºèº« äºİ
å¸ĪèĮĥ åŃ¦éĻ¢
é©¬æĭī æĿ¾
æ·¡æ°´ é±¼
éĵĥ æľ¨
æ»¥ çĶ¨
è¯ĨåŃĹ çİĩ
ä¹Ĵä¹ĵ çĲĥ
( âĢľ
Ġ èį£èªī
çļĦ çĭ¬ç«ĭ
æĺ¯ ä¸Ń
è¡ ¬
èµ ģ
åħ¬ å¢ĵ
åĪĨ è¡Į
åĪĨ åºĹ
è¢« çĶ¨äºİ
è¯¥ åĮº
å·¥ åŃ¦éĻ¢
åĲĪ èµĦ
éĢī é¡¹
åŁº åĩĨ
éĥ½ ä»¥
åİŁ å±ŀ
é¢Ĩ ä¸»
æĻ® æľĹ
å¤ª ä¿Ŀ
15 ä¸ª
åĲĮæĹ¶ åľ¨
åĨłåĨĽ èģĶèµĽ
æĿ¾ å±±
è¿Ļä¸ª è¯į
çĤ® å¼¹
190 1å¹´
æħ¢ æħ¢
æŀ¢ æľº
å¹´ä»£ ä¸º
èģĤ ä¼¯
æĺ¯åįĹæŀģæ´² çļĦ
S H
Ġ x
çļĦ äºĮ
çļĦ å¼Łå¼Ł
äºº åıĹä¼¤
ä»ĸ è¡¨ç¤º
çĶ¨ åĵģ
è¿Ļ æĺ¯ä¸Ģä¸ª
å¤© é¹ħ
æŀĹ æĸ¯
æŀĹ åĮº
æĴ ķ
æ£ º
ä¸ĩ æ¸¯åħĥ
ä¼Ĭ åĭĴ
ç¼ĸ çºĤ
çİĩ åħµ
åī¯ å±Ģéķ¿
ç§» èĩ³
åĲĮå¹´ 7æľĪ
äº¿ æ¸¯åħĥ
è¿ģ å±ħ
åģĩ æľŁ
çļĦäºº ç±»
å¹¼ å¹´
åĽ½éĺ² åĨĽ
å¤ĸåĽ½ äºº
éĺ¿å°Ķåįĳæĸ¯ å¤§åĮº
ç»° åı·
Ġ ä¸Ńåįİæ°ĳåĽ½
Ġ åľ°åĲį
çļĦ äºĶ
çļĦ æĶ»åĩ»
åŃ¦ çłĶç©¶
çĲ ħ
è¥¿ è´¡
å¼Ģ æĶ¯
åįĹ æ´ĭ
èĩ³ åħĥ
er g
é¸ ł
ä¸Ńå¤® å§Ķåĳĺ
éĤ¦ èģĶ
æĺ¥ å¤©
12æľĪ 8æĹ¥
èĪŀ æĽ²
å°½ç®¡ å¦ĤæŃ¤
ä½įäºİè¯¥åĽ½ ä¸Ńéĥ¨
æĲľ å¯»
è¡° éĢĢ
éªļ ä¹±
æĳĶ è·¤
çº¢åįģåŃĹ ä¼ļ
H C
Ġ ä¸įè¿ĩ
çļĦ æĹ§
åľ¨ æİ¥åıĹ
ä¸º çºªå¿µ
ä¸Ģ ä½ĵ
çĶŁ ä¸ĭ
èĢĮ æĪĲä¸º
å¤ĸ æĿ¥
è·¯ çļĦ
æł¼ çº³
æŃ£ åĢ¼
éĺ¿ æł¼
å¯¼ æķ°
å²Ľ åĴĮ
in k
å¯Ĩ çļĦ
èĤ² æľī
åĩł å¤©
åº· å¤į
è®¸å¤ļ äºº
æĹħ ç¨ĭ
ĠC on
ĠçĶŁ æĢģ
Ġ198 7å¹´
å¥ĳ çº¦
åŁºåĽł ç»Ħ
çĹķ è¿¹
åı²éĥ½ åįİ
K P
W TA
Ġ ä¾ĭå¦Ĥ
èĢĮ æĿ¥çļĦ
ä¸ľ æ¬§
ä»£ å°Ķ
é«ĺ æ¸ħ
ä¹Ł ä¸º
ç¥ Ĥ
æľŁ å¾ħ
ç§ĳ çī¹
åħ³ è¥¿
å¤Ħ åľ¨
åħļ éŃģ
16 ä¸ª
åĿĩ çĶ±
çİĩ éĥ¨
å¾Ī å¥½
çĿĢ éĻĨ
ç»ıæµİ åıĳå±ķ
èĪ¹ éķ¿
è¿Ľåħ¥ çĽ´è·¯
èĴĤ äºļ
12æľĪ 30æĹ¥
8æľĪ 4æĹ¥
è´µ å¦ĥ
åľĨ æŁ±
è¯ī æ±Ĥ
æ±½ æ²¹
189 5å¹´
Ġ198 3å¹´
Ġ194 6å¹´
å¾Īå¿« å°±
èĬŃ èķ¾
5 0å¹´
7 æľĪ15æĹ¥
r al
Ġ çī¹
çļĦ åĪĹè½¦
æĺ¯ æĿ¥èĩª
æľī è¶£
æ¯ ĵ
å»º çļĦ
è¦ģ åľ¨
åİŁ å£°
èµ· çļĦ
æıĲ åıĸ
åĪĻ è¡¨ç¤º
åĲī å£«
å½±åĵį åĬĽçļĦ
è¯· æĦ¿
æĪĺäºī çĪĨåıĳ
åŃ¦çĶŁ çļĦ
éĢģ ç»Ļ
å®ĮæĪĲ çļĦ
æĭį åįĸ
å°ıè¯´ å®¶
ä¸ľéĥ¨ çļĦ
å¿ł è¯ļ
åĢĴ å¡Į
æĸ¯ç§ĳ çī¹
Ġ198 5å¹´
åĲŀ å¹¶
è¡ĮæĶ¿ä¸Ńå¿ĥ ä¸º
Mic rosoft
tern ational
O P
çļĦ 1
å¹´ å¹¼
æĬ ¨
åĪ° åľº
æµ· é»ĺ
è¿Ľ åº¦
æĢ» éĺŁ
å¡ ¾
æ³¢ åĬ¨
å¡Ķ åĪ©
äº² å±ŀ
èĩ´ ä»ķ
è¯º äºļ
é©» åĨĽ
æĿ¾ æ±Ł
5æľĪ 31æĹ¥
æįķ æįī
åĬª å°Ķ
æį· åħĭæĸ¯
è½¬ç§» èĩ³
éļĭ æľĿ
æľīçº¿ çĶµè§Ĩ
col or
C ol
é Ĭ
çļĦ æĪĺæĸĹ
çļĦ åĬĽéĩı
ä¸º åľ°ä¸ĭ
ä¸Ń è¶ħ
éĢ Ĺ
åĴĮ ä»ĸ
éĹ °
æĸ¯ æĭī
çĶ¨ æ³ķ
å®¶ èĩ£
æľ¬ é±¼
ä¸ĭ éĿ¢
å½ĵ åľº
é©¬ å£«
æ³¢ å¸Į
ä¾ĭ è¡Į
éĻ¤ å¤ĸ
èĲ¨ çĵ¦
è¶Ĭ è¿ĩ
ä»ħ åŃĺ
ic eĠ
åģľ æ³Ĭ
ç£ ¡
1æľĪ 31æĹ¥
æŁĲ ä¸Ģ
ç©¿ çĿĢ
èİī äºļ
æıĴ åħ¥
åĪĩå°Ķ å°¼
é¢Ĩè¡Ķ ä¸»æ¼Ķ
æ¸´ æľĽ
only include
2 åħ¬éĩĮ
4 æľĪ28æĹ¥
Ġ ä¸į
æĺ Ĭ
åľ¨ å·´é»İ
ä¸Ń åįĹ
ä¸Ń åŃ¦æł¡
åľ° ä¸»
æ¸ ¥
éĽ ¯
æĸ° æĪĲç«ĭçļĦ
åĬł åĨķ
å² ±
å¥³ åıĭ
12 æľĪ15æĹ¥
åĲĦ å¼ı
çłĶ è®¨
åįı åĲĮ
æĸ½ æĶ¿
çļĩ å®«
at or
å§Ķåĳĺä¼ļ ä¸»ä»»
åĺ ±
å¼¹ æĢ§
çł´ è£Ĥ
æ°¸ æģĴ
æ²¿ çĿĢ
èĩªçĶ± å¼ı
å¢ŀåĬł åĪ°
åĬ¨çī© åĽŃ
æ·· è¡Ģ
åĪ» æľī
åģ¥ èº«
å°ıæĹ¶ åĲİ
æĶ¹éĿ© å¼ĢæĶ¾
æĬ¥éģĵ ç§°
æĹħæ¸¸ ä¸ļ
çĺ ¦
è®¸åı¯ è¯ģ
çĪª åĵĩ
rit ic
éĢłèĪ¹ åİĤ
2019åĨłçĬ¶çĹħæ¯ĴçĹħ çĸ«æĥħ
èĶĵ å»¶
æį·åħĭæĸ¯ æ´Ľ
+ +
7 æĹ¶
S D
çļ ĵ
æľī ä¸įå°ĳ
åĲİ ä»»
ä¹ĭ åŃĻ
åīį ä½ľ
äºĮ æľŁ
é©¬ èµĽ
éĩį åĪĽ
æİ¥ è¿ŀ
æīĭ åĨĮ
åį¡ æĸ¯çī¹
åįĬ éĥ¨
åıĮ è¾¹
æł¹æį® 2010å¹´ç¾İåĽ½äººåı£æĻ®æŁ¥
åĵ¥ çī¹
åİĭ è¿«
è¶³çĲĥ éĶ¦æłĩèµĽ
åĲ¸ è¡Ģ
2011å¹´ 12æľĪ31æĹ¥
åĻ¶ å°Ķ
yp e
I ON
çļĦ èĮĥåĽ´
çļĦ æĿĥåĬĽ
ä¸Ń è¡¨ç¤º
âĢ ¢
æĶ¿ äºĭ
æĸ° æ³½è¥¿
è¿Ľ åĩº
ç§ĳ éķ¿
æ¯Ķ çī¹
æĢ» æķĻç»ĥ
æ°´ æĻ¶
éª Ĩ
é£İ äºĳ
åıª å¾Ĺ
åĵĪ æł¹
åĭĴ å§Ĩ
åĨĻ ä¿¡
ç¡® åĪĩ
åħ¶ä¸Ń çĶ·
éĢīæĭ© äºĨ
æĵį æİ§
å¢¨ å°Ķ
ä½įäºİè¯¥åĽ½ åįĹéĥ¨
è´¯ ç©¿
éĺ¿æĭīä¼¯ è¯Ń
JR ä¸ľæĹ¥æľ¬
ç½Ĺå§Ĩ å°¼
åĮħæĭ¬ä»¥ä¸ĭ çī©ç§į
åŀĦ æĸŃ
æĬ¨ åĩ»
7 æľĪ16æĹ¥
Ġ You
åĪ ¹
è¥¿ æ¬§
åıĬ é¦Ļæ¸¯
çĲĨ ä¼ļ
èµ· åħµ
çº¦ åįł
åħļ æł¡
çĿ ¦
æĶ¶ ç¼©
ä¸»è¦ģ çĶ¨äºİ
ä¸»è¦ģ åĪĨå¸ĥäºİ
åħŃ çĶ²
æĪı æĽ²
æİ¨ æĸŃ
è¯º ç»´å¥ĩ
æī¹ åħ¨åĽ½éĩįçĤ¹æĸĩçī©ä¿ĿæĬ¤åįķä½į
åºĦ ä¸ºéĤ»
å¿ħ çĦ¶
èģĶåĲĪ åı°é£İèŃ¦æĬ¥
åĲ¦ å®ļ
éĢĥ è·ĳ
è¾Ľ åŁº
å¯» å¸¸
å½© èī²
æĩ ĭ
é©³ åĽŀ
èģĶåĲĪåı°é£İèŃ¦æĬ¥ ä¸Ńå¿ĥ
1 ä¸ĩ
D D
h am
Ġ äººçī©
çļĦ æľĢåĲİ
åľ¨ åħ¶ä»ĸ
å¤§ èĭ±
æł ħ
åĲİ äºº
ä»ĸ å¼Ģå§ĭ
ä¸į æĺĵ
æĸ¹ ç´¢
åĮĹ ç«Ļ
æľº åŀĭ
é©¬ åı¯
èĩªå·± åľ¨
è®© å¥¹
èĢģ å¹´
éº¦ åı¯
éĽħ åħĭ
çĽĸ å°Ķ
éĥ¨éĺŁ çļĦ
èģļ åĲĪ
ä¼ĳ åħ»
è¿Ļä¸Ģ æĹ¶æľŁ
è¾½ ä¸ľ
äººåı£æķ°éĩı ä¸º
æĢª åħ½
éĵº è®¾
çļĦæĥħ å½¢
å¼ĹæĭīåŁº ç±³å°Ķ
T P
X box
Ġ æĪĲç«ĭ
ä¸Ń è¥¿éĥ¨
ä¸İ ç¤¾ä¼ļ
åĬł çī¹
äºļ å¤ª
æīĢ ä½ľ
èĤ ļ
ä¸¤ éĥ¨
åŁº å±Ĥ
202 3
åĪĿ éĢī
åľ£ åľ°
èĲ½ åħ¥
è½¦ç«Ļ å¤§æ¥¼
åºķ çĽĺ
ä»ģ å®Ĺ
ç¼ĺ æķħ
çŁ¿ ä¸ļ
æĹº è§Ĵ
ä¾¦ æŁ¥
æ±Ŀ æĭī
æĸ¯å¨ģ å¤«çī¹
çħ½ åĬ¨
7 Ġ
R ed
Ġ èİ«
çļĦ åĽ½
çļĦ ä¾ĭåŃĲ
æĸ §
ä¸Ģ ä¸ĩ
åŃ¦ åĴĮ
åĮĹ ä¸İ
æķĻ æ´¾
å¸ĥ æŀĹ
ä¸ļ çķĮ
çĽ¸ å®¹
éĴ Ŀ
çŁ³ çģ°
åķĨ èĪ¹
åľŁ åºĵ
ä¼¯ åĪ©
çīĻ ä¹°
æ»¡ åĪĨ
èĥ½å¤Ł åľ¨
æĸ¯å¡Ķ å¤«
è¿Ĳè½½ çģ«ç®Ń
ç³ĸå°¿ çĹħ
N HK
Ġ åĲĮå¹´
Ġ 24
çļĦ è½¦
åľ¨ çº½çº¦
åľ¨ ä¸ľäº¬
æľī è¿ĩ
ä»¥ çºªå¿µ
ä¹ĭ å£°
é«ĺ åĬłç´¢
äºļ å°Ķ
æµ· åĽł
å±± åŁİ
éĥ½ åŁİ
åĽĽ åĨĽ
æĹł æĦı
åĲī åĪ©
åıĳçĶŁ äºİ
ä¿Ħç½Ĺæĸ¯ èģĶéĤ¦
çĲĥéĺŁ çļĦ
il ver
åĩ¯ æĸĩ
un t
æľīä¸Ģ å®ļ
ç¿¼ é¾Ļ
äº® çļĦ
äºİ199 0å¹´
æĲľ éĽĨ
æ¶Ĥ è£ħ
Ġ åĳ¨
çļĦ ç³»ç»Ł
çļĦ æĦıè§ģ
åľ¨ è¿Ļç§į
æľī äººåı£
ä¸ª äººçļĦ
ä¸į è¢«
æĽ Ļ
ç¬¬ 16
çī¹ å·¥
åı¯ ä½ľä¸º
æĸ° å¹²çº¿
ä¸ľ èİŀ
åı° è¯Ń
ç¥ º
æĭī åĽ¾
å·´ é¡¿
åįķ äºº
æľĿ æĹ¥
ç¥ŀ ç¥ĩ
åħī å¹´
ç¬¬äºĮ å±Ĭ
åĦ¿ å²Ľ
ä¹Ŀ å·´
èĲ½ åľ¨
åĨł åĲį
ç¤¾ä¼ļ åħļ
ä½İ æ¸©
é©» åįİ
èĥ¡ å®ī
è¾ħ å¯¼
è±ª æ£®
æī§å¯¼ çļĦ
åĳ¨å¹´ çºªå¿µ
åºŀ å¤§çļĦ
ç»ĪçĤ¹ ç«Ļ
9 æľĪ25æĹ¥
Ġ èĲ¨
Ġ è´Ŀ
ä¸Ń äºļ
å¤§ æķĻåłĤ
æĹ¥ æĻ·
ä¸Ĭ ä¹¦
ä¸į äºĨ
åıĳ éħµ
èĥ ¤
å¯¹ ä»ĺ
è° ¬
æ¬¡ åħ¨åĽ½
èĤ ĭ
ç»Ł é¢Ĩ
åį¡ éĢļ
éĹ¨ ä¸ĭ
çĽ´ è¾¾
åī¯ æł¡éķ¿
çĻ» åŁº
ä½ı éĻ¢
is ion
éŁ¦ æĸ¯
5æľĪ 10æĹ¥
è´§ è½¦
èķ ī
åĲĮæł· çļĦ
éĻ¶ çĵ·
åħĭç½Ĺ åŁĥ
æľīæīĢ ä¸įåĲĮ
æĭ¼ åĨĻ
å¸¸åĬ¡ å§Ķåĳĺä¼ļ
åĺīä¹ī åİ¿
åħĭéĩĮæĸ¯èĴĤ å®ī
åįķè¡Į æľ¬
m p
Ġ è¢«
ä¸Ń åĴĮ
æĺ¯ æł¹æį®
æĺ¯ ç§ĺé²ģ
åĴĮ çº¦
éĺ ī
åĩº å®¶
ä¸į è®¾
ç¬¬ 14
è¥¿ è¥¿éĩĮ
âĢĿ (),
çİ° å½¹
è¦ģ ä¹Ī
é©¬ åħĭæĸ¯
åĲĳ ä¸Ĭ
æĽ¾ åıĤä¸İ
ä¸»è¦ģ åľ¨
ç´¢ çĵ¦
æĪ· å¤ĸ
åģļ åĩºäºĨ
å°½ å¿«
äºĮåįģ åĽĽå¹´
å¹³åĿĩ éĻįéĽ¨éĩı
éļıåĲİ çļĦ
ç¬Ķ è®°
åİ¿çļĦä¸Ģä¸ª åŁİéķĩ
ä½ıå®ħ åĮº
å¿½ è§Ĩ
æĺİæĺŁ èµĽ
æ±ķ å¤´
Twit ter
åħĭç½ĹåŁĥ è¥¿äºļ
" -
H e
â ħ
Ġ åĨħ
è® ³
å¤§ èµı
éĥ ¸
äºĨ è¿Ļä¸Ģ
ä¼ļ æĪĺ
çĶ¨ æ°´
é© ¼
ä¸ī å¤©
åħ¨ çľģ
10 æľĪ15æĹ¥
æ²³ å·Ŀ
å²Ľ ä¸ĬçļĦ
å±Ģ éĽĨåĽ¢
åįĬ éķ¿è½´
é±¼ äºļçĽ®
åĩł æ¬¡
çľĭ æĿ¥
ç«ł èĬĤ
è¶³çĲĥ çĶ²çº§èģĶèµĽ
æĳ© æĵ¦
8æľĪ 10æĹ¥
ç»ĵæŀĦ çļĦ
çĮ® ç»Ļ
ä½ł çļĦ
æ±ĩ æĬ¥
æľīä¸Ģ æĿ¡
æµ·æĭĶé«ĺåº¦ 1
2001å¹´ æĢ»äººåı£
åĨ· æĪĺ
åįĹäº¬ å¸Ĥ
å¸ĥé²ģ åħĭ
èµ¶ åĪ°
æĳĦå½± å¸Ī
å°¼åħĭ æĿ¾
å¼¯ éģĵ
éĺĲ è¿°
Ġæľ¬å±ŀ åĮħæĭ¬ä»¥ä¸ĭçī©ç§į
N e
æĺ¯ åŁºäºİ
åĲİ æĪĲä¸º
ä¸į å®ī
ä¸ľ å²¸
å¦ Ħ
çľģ æĶ¿åºľ
ä½Ĩ å¥¹
æ¯Ķ æĸ¯
10 æľĪ28æĹ¥
åĽĽ ç§į
çº³ ç±³
åı¯ä»¥ å¾ĹåĪ°
èĲ¥ åĪ©
åħ« è¾¾
çĪ± ä¸½ä¸Ŀ
æŀģ å¤§çļĦ
æĸĩåĮĸ åĴĮ
å·¦ å²¸
el la
å¯¼èĩ´ çļĦ
æĺ¯ä¸Ģ é¡¹
3æľĪ 18æĹ¥
åĩ¯ æĹĭ
å·¥ä¸ļ åĮº
äºļæ´² è¿ĲåĬ¨ä¼ļ
åħĪåĲİ åľ¨
é¡µ å²©
åľ°éĿ¢ è½¦ç«Ļ
Ġä»¥ä¸ĭ æĺ¯
åħ¬å®ī å±Ģ
èµ«å°Ķ è¾ĽåŁº
åº¶ åĲīå£«
åĲĪåĶ± åĽ¢
å®ĩå¤ļ çĶ°
4 åħ¬éĩĮ
o ver
çļĦ åĨłåĨĽ
æľī æľºä¼ļ
åĲİ çĶ±
ä¸į éĶĻ
æ´ ½
è¢« äºº
åħĭ åĭĴ
åĪ© å°Ķ
è¯¥ éķĩ
ä½ĵ åŃĹ
é©¬ æŀĹ
åĽĽ åĽ½
éħ ª
å°ĳ åį¿
åįĩ èĩ³
6æľĪ 20æĹ¥
ĠN ew
åıĳçĶµ æľº
æĬĹè®® æ´»åĬ¨
é¸¦ çīĩ
æĶ¾å°Ħ æĢ§
ISTAT ä»£çłģä¸º0
1 åº§
3 ä¸ĩ
3 æľĪ15æĹ¥
M D
N S
Ġ å¼Ģåıĳ
Ġ ä»ĸåľ¨
çļĦ çļĦ
å¤§ æ¦Ĥ
æľī åĬŁ
ä¼ļ äº§çĶŁ
è¿Ļ å¼łä¸ĵè¾ĳ
å¹³ æģ¯
å¤ĸ ç§ĳ
åħ± éĿĴåĽ¢
åħ¨ æ¸¯
æ°´ æīĭ
è§Ĩ ä½ľ
ä¼ł åĬ¨
ä¼ł éĹ»
çĿ ¹
ä¼Ĭ çī¹
è½¬ è®©
æĬķ èº«
åĲī æĭī
åĲī ç±³
çĻ¾ èĢģ
çľŁ ç©º
æīį å¼Ģå§ĭ
åħ» æ®ĸ
27 0
çļĦåľ° çĤ¹
çŃ¹ å»º
åħ¬åĳĬ çīĮ
çİĽæł¼ä¸½ çī¹
F L
U E
i y
r ad
t o
Ġ ä¸»
çļĦ èĩªçĶ±
ãĢ ķ
å¤§ åľ°éľĩ
éĻ ¡
ä¼ļ é¦Ĩ
åıĳ æºĲäºİ
ä¹ĭ æĺŁ
è¢« å¹¿æ³Ľ
å»º äº¤
çĶµ æĬ¥
200 9
çº¿ ç´¢
å®ī å¤§çķ¥
æł¼ ä¼¦
å±ŀ ä¸ĭçļĦä¸Ģä¸ª
ç² ª
åı¯ä»¥ å°Ĩ
å¼ķ è¿°
åŃĺ æĶ¾
é»Ħ åŁĶ
éĺ² çĸ«
æ·± æµ·
åĩł ä½į
ic s
éŁ³ä¹Ĳ åŃ¦éĻ¢
çĳŀ å®ī
éĢĢ ä¼į
ç¬¬ä¸ī çĶ²
èĥ¡ åĲĮ
æī§è¡Į å®ĺ
æ±¤ çİĽ
ç±»åŀĭ ä¸º
op h
äºİ198 5å¹´
çŀ »
åĹ ľ
Ġp ro
ä¹¡è¯ķ ä¸¾äºº
æĿĢæŃ» äºĨ
éĤ»è¿ĳ çļĦ
åħ¶ä¸ŃçĶ·æĢ§ ä¸º
éĩİæĪĺ åĨĽ
æ³¢å¸Į ç±³äºļ
çĻ¾èĢģ æ±ĩ
F i
Ġ åĨħå®¹
çļĦ èĬ±
çļĦ éĤ®å±Ģ
åľ¨ å®¶
æľī è½¨çĶµè½¦
åĲİ ä¸º
æĸ° é²ľ
ãĢį (),
200 0å¹´ä»£
åįİ å¾·
åĢ ļ
æĹł ç½ª
å¤§åŃ¦ åĴĮ
åŃĹ æł·
å®ĥ ä¸İ
ä¿® è¡Į
å®¢ è§Ĥ
å½Ĵ å±ŀ
çŃ¾ åĲį
åĪ» æĦı
åĨĽéĺŁ çļĦ
éĺ´ å½±
ä¼´ éļı
èĳ¡èĲĦ éħĴ
è¿Ŀ èĥĮ
çĺ Ł
çĮĽ èĻİ
ht t
å¿ħè¦ģ çļĦ
æ£Ģå¯Ł éĻ¢
æ£ī èĬ±
4 åı·çº¿
C A
çļĦ åħ³éĶ®
çļĦ æĥ³æ³ķ
ãĢ Ķ
åĲ Ł
ä¸Ń è·¯
è¥¿ å°¼
èģ Ĩ
åĮĹ å²¸
ç§į ç¾¤
ç±³ çī¹éĩĮ
éĩį çĶ³
çº¦ 6
å¯¼ èĪª
æ²³ æ°´
çļĦä¸Ģ å¤Ħ
çĪ± åĽł
å®Ī åį«
åį´ æĺ¯
12æľĪ 18æĹ¥
7æľĪ 18æĹ¥
éĤ® è½®
ç»¿ åħļ
189 6å¹´
ä¿ĥ æĪĲ
Ġ197 9å¹´
åĸ· å°Ħ
ep h
Ġè¯¥åľ° 2001å¹´æĢ»äººåı£
å¸Įä¼¯ æĿ¥
; )
Ġ åĭĴ
çļĦ åı¤
çļĦ è¯ģæį®
åľ¨ 2003å¹´
åĽ½ èģĶ
åŃ¦ éĥ¨
è¥¿ ä¸´
éķ¿ éĢĶ
èĩª åį«
æĸ° å¹´
å¹³ å£¤
éģĵ æł¼æĭīæĸ¯
å·¥ äºĭ
åĲĪ ä¼Ļ
æĢ§ ä¸İ
åĮĸ å¦Ĩ
æķ° æľĪ
æģ ¼
æŃ£ å¦Ĥ
ç»´ å¸Į
æīĭ æĮĩ
æīĭ ç¨¿
åı¯ä»¥ æĺ¯
åħī ç¢Ł
çĳ Ľ
ä»£è¡¨ çļĦ
åĽ½éĻħ è¶³èģĶ
åĨĻ çľŁ
æ¶Ī åĮĸ
ç¬¬ä¸ī ä¸ª
èĥĮ éĥ¨
ç½ª çĬ¯
è´¢ åĽ¢
äºĮåįģ äºĶå¹´
æķ£ å¸ĥ
6æľĪ 12æĹ¥
æĭľ è®¿
100 ä¸ĩ
çĤ® åı°
éģĩ è§ģ
éľĩ æĥĬ
éĵģéģĵ åħµ
ä¸ªæľĪ çļĦ
éĽĨä¸Ń èĲ¥
æµ·å²¸ çº¿
æıŃ ç¤º
ä¼ª éĢł
ä¹Įæĭī åľŃ
çĽ´è¾ĸ å¸Ĥ
ä¸īéĥ¨ æĽ²
6å²ģ äººåı£
èģĶåĲĪåĽ½æķĻç§ĳæĸĩ ç»Ħç»ĩ
8 æľĪ24æĹ¥
c enter
Ġ çİ°æĹ¶
ä»¥ èĩ³
ä¸į ç¡®å®ļ
æ± Ĳ
ä¸ľ èĩ³
ä¸ľ ç«Ļ
è¿Ľ äºĨ
ç© ¹
å¸ĥ ä»Ģ
ç±³ çī¹
èģĶ ä¼ļ
ä¸¤ åľº
éĩĳ æĹ¥
çİĭ åºľ
éĹ¨ åı£
ç¥ŀ æĪ·
ç¥ŀ å¥Ī
åī¯ ä¼ļéķ¿
å£° èªī
æīį è¢«
åĪ¶ä½ľ äºĨ
ç¬¬ä¸ī åĲį
8æľĪ 8æĹ¥
åĽº å®ļçļĦ
æīİ å°Ķ
ç¯ĩ æĸĩç«ł
è¾Ľ äº¥
çº¸ å¸ģ
æ®ĭ çķĻ
è¯Ħè®º åĳĺ
æĭĵ æīĳ
æıŃ å¹ķ
æ©Ħæ¦Ħ çĲĥ
2 20
D avid
R I
Ġ ä½Ĩæĺ¯
çļĦ æĬ¥åĳĬ
ä¸Ģ ä»£
è¯ ¬
äºº å¿ĥ
æİ Ģ
é¦ ¨
èĩ³ 5
èµĽ éģĵ
ä¸ĸ åĩ¯
çľģ å§Ķ
ä¸¤ éĥ¨åĪĨ
ç¼ ļ
æł¼ å±Ģ
çİĭ æ°ı
åı² è¯Ĺ
è®° è¿°
æ²¡ èĥ½
åī¯ æĢ»çĲĨ
åı¯èĥ½ æľī
æĦŁ åºĶ
å§Ķåĳĺä¼ļ åī¯ä¸»ä»»
ç®Ģ ç§°ä¸º
æĶ¯æĮģ çļĦ
10æľĪ 31æĹ¥
8æľĪ 5æĹ¥
è®¿ è°Ī
us Ġ
æĸĩåŃ¦ å¥ĸ
äºļæ´² çĶµè§Ĩ
æĭĽ æĶ¶
åĥ§ ä¾£
åĤį æĻļ
çĪ±åĽł æĸ¯åĿ¦
1 æľĪ15æĹ¥
4 000
çļĦ æī¹è¯Ħ
ç» ¸
åľ¨ ä»»
åľ¨ è¿ĩåİ»
åĽ½ èĲ¥
æĸ¹ æµİ
çĶ± åİŁ
ä¸ľ ä¸İ
äºļ çī¹åħ°
ä¹Ł ä»¥
å±± å³°
ç§ĳ çĽ®
æĢ» åĨłåĨĽ
é¦ĸ æĶ¯
æµģ æ´¾
åł °
åĩ» åĩº
ç¦ı å·ŀå¸Ĥ
åĻ¨ åĴĮ
åħ« è·¯åĨĽ
æĽ¼ æģ©
50 ä¸ĩ
å¼Ģåıĳ èĢħ
ou t
1æľĪ 20æĹ¥
éĢĥ èµ°
è§Ħæ¨¡ æľĢå¤§çļĦ
è¿¹ è±¡
æµ¦ ä¸ľ
æĶ¹åıĺ äºĨ
éģį å¸ĥ
åıĽ åĨĽ
Ġ194 8å¹´
ä½įäºİæ³ķåĽ½ å¤§ä¸ľéĥ¨å¤§åĮº
æ±¡ æ°´
çŃ¾ç½² äºĨ
ä¼ĺç§Ģ çļĦ
Ġå¤ĸéĥ¨ è¿ŀç»ĵ
è½¦è·¯ å£«
è¿Ľåħ¥çĽ´è·¯ åĲİ
2 çļĦ
3 æľĪ26æĹ¥
M y
Ġ å¾·åĽ½
Ġ å°ıè¡ĮæĺŁ
æĪ į
è¢ į
èĥ ĸ
ä¹ĭ ä¹ħ
åĲĮ è¿Ľå£«åĩºèº«
æµ· åľ°
äºĭ é¡¹
æķĻ å£«
ä¸ĸ è¢Ń
200 7
åŁİ ä¸Ń
ç»Ł å¸ħ
çº³ ç¨İ
è§£ è¯»
ç¬¬äºĮ çĻ¾
éĽ· å¾·
éº ¾
éĻĪ è¿°
æĲ ı
é¡º å¤©åºľ
12æľĪ 20æĹ¥
7æľĪ 10æĹ¥
ãĥ Ī
èģĮä¸ļ è¶³çĲĥ
ç§Ł èµģ
é¤Ĳ é¦Ĩ
ç¤¾ä¼ļä¸»ä¹ī åħ±åĴĮåĽ½
æĪĲå¹´ äºº
åĲįäºº åłĤ
æ¸¤ æµ·
3 æ¬¡
7 æľĪ28æĹ¥
ç į
çļĦ é£İæł¼
å¹´ åĪĿ
åľ¨ 2004å¹´
ä¸Ń åħ¨
äºİ åħ¶
æķ Ľ
ä»¥ ç¡®ä¿Ŀ
ä¸İ ä¸Ĭ
å®¶ åº·
èĢĮ ä¸İ
åı¯ è¿½æº¯èĩ³
æīĢ è¿°
è½¦ éĹ¨
åħ¥ åľº
åı¸ åı¸éķ¿
åĽĽ æ¬¡
å·´ æŀĹ
åı² ä»¥æĿ¥
å¤ª å¤ļ
çļĦä¸Ģ åĪĩ
ä¸ĸçķĮ åĨłåĨĽ
ä¼¯ éĩĮ
èĪ° è½½
åıĮ å±Ĥ
å¯Ł éĻ¢
æ¥¼ é«ĺ
åį¢ åį¡
ç½² éķ¿
11æľĪ 8æĹ¥
ä¹° ä¸ĭ
ĠC ar
ĠA d
åįģåŃĹ åĨĽ
åŃŁåĬłæĭī åĽ½
èĲ¤ å¹ķ
æ®ĭçĸ¾äºº å¥¥æŀĹåĮ¹åħĭè¿ĲåĬ¨ä¼ļ
: //
C Ġ
é ĳ
Ġ åĲĮæĹ¶
çļĦ æľįåĬ¡
çļĦ äºĭä»¶
ä¸º ä¾ĭ
æ¯ ¯
å¹¶ èİ·
ä¸ĭ å±Ĥ
æµ· åı£
çĶµ åİĤ
çº¿ è½¦ç«Ļ
æģ ¤
æģ ª
ä¸¤ åĳ¨
å§ĭ åıĳ
åħļ åĽ¢
åŃ£ é£İ
æļ ±
åĳĬ ç»Ī
åı¯èĥ½ åľ¨
æļ´ é£İ
8æľĪ 6æĹ¥
åĩ¯ å°Ķ
ä½© æĪ´
åĲ¬ è¯´
å°ıè¡ĮæĺŁ å¸¦
im e
ä¾į ä¸ĭ
æ·® åįĹ
å§Ķä»» ä¸º
8 åĲį
S m
e en
Ġ æł¡
20 3
çĽ İ
åįĹ åįİ
åĨħ è®¾æľī
ä¸ī éĹ´
çİ° æľīçļĦ
æľŁ éĻĲ
ä½Ĩ æľī
åŁº äºļ
é¦ĸ èĦĳ
ç±» åĬ¨çī©
ä¸¾ åĬ¨
çĻ½ å¤©
æİ¨ ç§»
çķĻ ä¸ĭçļĦ
ä½İ åİĭ
æĥ³ åĥı
è¿ľ ç¨ĭ
å¹² éģĵ
il le
4æľĪ 18æĹ¥
åĩ¯ å°Ķçī¹
ãĢį( ).
åģ¶ çĦ¶
åĨħéĥ¨ çļĦ
çģ¯ å¡Ķ
Ġs p
è¾¾æĪĲ åįıè®®
ç½Ĺä¼¯ éĢĬ
å½±è¯Ħ äºº
éĤ¯ éĥ¸
4 æľĪ15æĹ¥
8 æľĪ28æĹ¥
r ing
Ġ åŁĥ
Ġ èµĽäºĭ
çļĦ æ¹ĸæ³Ĭ
ä¹ į
åľ¨ åĲĮä¸Ģ
åĮº çļĦä¸Ģä¸ª
è¥¿ å¤ªå¹³æ´ĭ
æ°ĳ èĲ¥
åħĭ æľį
10 æľĪ26æĹ¥
çļĦä¸Ģ ä»½
çļĦä¸Ģ éĥ¨ä»½
la ss
æľį çĶ¨
å½ķ å¾Ĺ
åĩĨ åĪĻ
ä¼¦ çī¹
è¶Ĭ éĩİ
ä»ĸçļĦ åĦ¿åŃĲ
æ¸© å·ŀ
çĨ ¹
éļĨ åºĨ
å®¡ è®¯
åĮºåŁŁ çļĦ
Ch ar
è´¯ éĢļ
æĤ² åī§
æ¾Ħ æ¸ħ
ĠSch ool
æĻ¤ å£«
5 æľĪ25æĹ¥
9 åı·
A åŀĭ
t ain
å¹ Į
åľ¨ ä¸ī
æ³ »
ä¸Ĭ ä¸İ
éĩĮ å¤«
ä¸¤ äººçļĦ
çº¦ 10
éĺ¿ å¾·
èĭı æ¢ħ
çĶ· åıĭ
çº¢ è¢ľ
å»ºç«ĭ ä¸Ģä¸ª
12æľĪ 7æĹ¥
æĺŁæľŁ åħŃ
ä¸įè¶³ ä»¥
æľīæľº åĮĸåĲĪçī©
åħĭæŀĹ é¡¿
çĮľ æµĭ
7 åı·
9 æľĪ23æĹ¥
å¤§ ä¸º
åŁ ķ
ä¸Ĭ ä¼ł
èĢĮ è¿Ļ
åĨĽ ç±į
æĶ¿ æ³ķ
æĢ§ åľ°
ä½Ĩ å®ĥ
ç§ĳ å¤ļ
çĽ¸ éļĶ
éĥ½ å¯ŁéĻ¢
åı² åŃ¦å®¶
è§Ĩ å¯Ł
ç»Ń ä½ľ
é¦Ĩ éķ¿
å®¹ åĻ¨
çĻ¾ åĲĪ
åĥı ç´ł
æ³° æĻ¤å£«
ä¾¿ å®ľ
ç²¾ åº¦
å¯Į è±ª
25 00
12æľĪ 12æĹ¥
åĪĳ æ³ķ
å¸ĮæľĽ èĥ½
å¾Ĳ å·ŀ
ĠM an
ĠR e
æİī äºĨ
æĮĳæĪĺ èµĽ
å¸ĥé²ģ åħĭæŀĹ
éĺ® ç¦ı
éĺ´è°ĭ è®º
é¢ĦåĳĬ çīĩ
Ġ å°Ĩ
åĴ ª
ç¬¬ 22
åĨĽ éĺĢ
çĶ± è¯¥
åįĹ å¼Ģ
å¾· åİ¿
åĮĹ çĪ±å°Ķåħ°
çĶµ è½¦ç«Ļ
10 æľĪ17æĹ¥
æĶ¹ ä»¥
çĥ Ľ
åŀĭ æŁ´æ²¹æľºè½¦
11 æľĪ15æĹ¥
çº³ çļĦ
æ³¢ å¤ļ
æľį ä»İ
çĪ± ä¸ģåł¡
è¶³çĲĥ è¶ħçº§èģĶèµĽ
åª Ľ
ä¸Ńåįİäººæ°ĳåħ±åĴĮåĽ½ é©»
å°¾ é³į
åĮ¹ éħį
æĢ¥ æĢ§
æ½ľ åĬĽ
em p
èĽĭçĻ½ éħ¶
åĮĪ å¥´
åĸĢ å°Ķ
èİ·å¾Ĺä¸Ģæŀļ éĩĳçīĮ
æķĻç§ĳ ä¹¦
æľĢé«ĺçĤ¹ ä¸º
å¸ĥåĪĹ å¡Ķå°¼
2 æľĪ14æĹ¥
o le
çļĦ èĩªçĦ¶
çļĦ ç²¾ç¥ŀ
ä¸Ń æİĴåĲį
åħ¶ ä¸»è¦ģ
æľĢ åı¤èĢģçļĦ
çİ° åĿĢ
ä¹Ł å¯¹
èĬ ¸
æł¼ æĸĹ
æıĲ ç¤º
æĦı æĮĩ
æ²³ åĴĮ
202 4
å·² æķħ
äºĶ åįĥ
åıĸ èĥľ
åıĺ ç§į
çĹ ´
æ²Ļ å°Ķ
al ign
æ¥¼ çļĦ
ç½Ĺæĸ¯ ç¦ı
ç«ł Ġ
éģĹ æĨ¾
çŁŃ ç¼º
å·¡ æĮī
1æľĪ 10æĹ¥
æľīä¸Ģ åº§
å°ĨåĨĽ æ¾³
åŁºæľ¬ æ³ķ
Ġæľ¬ çīĩ
èĪĴ éĢĤ
æľ¬å±Ĭ èµĽäºĭ
å²Ľå¼ı ç«Ļåı°
æīĺåĭĴ å¯Ĩ
éĬ ®
æį·åħĭæĸ¯æ´Ľ ä¼Ĳåħĭ
çīĻä¹° åĬł
Ġ æ¬§æ´²
çļĦ æķĻèĤ²
çļĦ çĽ®çļĦ
æľī ä¸ª
åĴĮ åľ¨
æĪĲ åĲį
ç¬¬ 20
åĪ° åºķ
åĨĽ è¡Ķ
åı² è®°
åĲĳ å¤ĸ
åĬ¡ å±Ģ
ç»´ åĲī
ç»ĵ ä¸ļ
æ· ¤
ç¬¬ä¸Ģ åº§
æīĵ çĤ¹
å§Ķåĳĺ éķ¿
å¸Ŀ çİĭ
åĽ½éĻħ è¶³åįı
çĶµè§Ĩ ç½ĳ
al e
èĪ¹ ä¸Ĭ
äºĨä¸Ģ æ¬¡
6æľĪ 6æĹ¥
5æľĪ 8æĹ¥
åıįå¯¹ åħļ
2011å¹´ äººåı£
å¤§ä¼ļ ä¸Ĭ
æ°§ æ°Ķ
çº¯ ç²¹
é¢ħ éª¨
7 åĲį
A 1
O r
W illiam
b it
çļĦ èīºæľ¯
åį ¦
æĺ¯ åĶ¯ä¸Ģ
æĹ¥ åħĥ
ç¬¬ èģĤä¼¯
è¢« æ¯ģ
åħĭ åĴĮ
è¿Ļ æ¬¾
å¤ļ äºİ
éĩĮ å°¼
ä»£ ä¹ĭ
æĹł éļľç¢į
ç¬¬äºĮ ä½į
çĥŃ æĥħ
ä¸įåĲĮ çļĦæĺ¯
æķĪ çĽĬ
æľĢç»Ī è¢«
æĬĬ ä»ĸ
åĽłä¸º åľ¨
åĨ³å®ļ åľ¨
çķ¥ æľī
8æľĪ 20æĹ¥
æ±ĩ åħ¥
èŀį èµĦ
çļĦçī¹ èī²
åľ¨æŃ¤ ä¹ĭåīį
ä¸´æĹ¶ æĶ¿åºľ
å°¤åħ¶ æĺ¯åľ¨
èĢĮäººåı£å¯Ĩåº¦ä¸ºæ¯ıå¹³æĸ¹åįĥç±³ äºº
åĸ· åıĳ
6 åı·
m b
o z
Ã ¨
çļĦ æ³ķåĽ½
çļĦ è·Ŀç¦»
ä¸Ń çº§
å¤§ æ´ĭ
ä¸Ĭ éĻĲ
æµ· æĬ¥
å°ı çĶ°
çº¿ ä¸İ
è¾¾ çļĦ
æĬ¥ åĪĬ
ä¿¡ ä¹ī
åĳ¨ æĹ¥
éļı æĹ¶
å¤į æķ°
å½ķ åĥı
at ch
æŃ£å¼ı çļĦ
éĢģ èĩ³
åĲĪä½ľ ä¼Ļä¼´
æİ§åĪ¶ äºĨ
åĨĽäºĭ è¡ĮåĬ¨
åĿļ å®Ī
å»ºéĢł äºĨ
Ġæľ¬ å±Ĭ
ä½įäºİè¯¥åĽ½ ä¸ľåĮĹéĥ¨
äºİ198 9å¹´
è¢ģ ä¸ĸåĩ¯
åŃ¤ åĦ¿
å¸ĤæĶ¿ åİħ
æ°Ľ åĽ´
åĪĨç»Ħ èµĽ
çī¡ ä¸¹
éĺ¿èĤ¯èī² å·ŀ
Ġ æĻ®
çļĦ æĪĺäºī
çļĦ åĶ¯ä¸Ģ
å¹´ åĿĩ
å¤§ ä¸ĵ
æľī 3
æĹ¥ éĹ´
æ³ ¸
ä¿ Ń
èĬ ®
éĩį åĲ¯
å®ī æĬļ
10 æľĪ21æĹ¥
åĲĳ ä»ĸ
æŀĹ éĥĳ
å¥¥ åĮĪ
åĲĦ å·ŀ
åħ¬åı¸ åľ¨
åİ» éĻ¤
èı ģ
ä»Ĭ å¹´
çĪ± èį·
åī¯ ç§ĺä¹¦éķ¿
èīº åĳĺ
æīĺ ç®¡
èĭ±åĽ½ æĶ¿åºľ
éħį åģ¶
æ·± è¿ľ
çħ ŀ
13 2
åºķ æłĸ
åºĵ æĸ¯
å½Ĵ åĽ½
ä¼ĺ çĤ¹
æĭ¥ æĬ¤
7æľĪ 12æĹ¥
9æľĪ 20æĹ¥
5æľĪ 5æĹ¥
æ°ĳä¸» è¿ĽæŃ¥
æĢ¥ è¡Į
æĶ¹ç¼ĸ æĪĲ
Ġæľ¬ ä½ľ
ä¸ªæľĪ åĲİ
çĥŁ éĽ¾
åĪĹæĸ¯ èģĶ
æĹ¥åĨħ çĵ¦
Ġ on
çļ ĭ
çļĦ ç©ºéĹ´
åľ¨ å¤©
ä¸İ éĺ¿
é¢ ļ
ä¹Ł åĽł
çł ¾
èģĶ æīĭ
ä¸ŃåĽ½ äºº
èĭ± çļĩ
é¦ĸ åľº
é£İ æ³¢
èĭı å°Ķ
åİĨåı² çļĦ
åįĥ çĵ¦
åı¦ ä¸ĢåĲį
åįĬ å¯¼ä½ĵ
å½ĵåľ° äºº
åı³ æ´¾
6æľĪ 18æĹ¥
ãĥ «
è®¢ åįķ
å¤ªéĺ³ èĥ½
ä¾ĽåºĶ åķĨ
å¤ļå°Ķ å¤ļ
èĮħ æĸ¯
æ©Ļ èī²
éĩĳåĥı å¥ĸ
2 æľĪ28æĹ¥
6 æľĪ15æĹ¥
9 æľĪ24æĹ¥
äºº éĢł
åĲİ æŀľ
åıĳ åĩºçļĦ
å¹¶ åıĳ
å¯¹ ä¹Įåħĭåħ°
åĪ© æ²ĥå¤«
ç»ı è´¸
é©¬ éŀį
åľº éĿ¢
ç½Ĺ éĤ£
æŃ£ æķĻä¼ļ
åı· ç§°
12 äºº
å¸Ī çļĦ
åħ¬éĩĮ å¤Ħ
å¤´ è§Ĵ
ç»Ī æŀģ
çİ¯ çĬ¶
æ¯į è¯Ń
æķ´ ä¿®
éº Ĵ
åį°åº¦ çļĦ
éĥ¡ å¤ªå®Ī
9æľĪ 18æĹ¥
8æľĪ 9æĹ¥
åĸĦ äºİ
å°º åº¦
éŁ¦ æģ©
ãĥ ©
æŀļ éĩĳçīĮ
æ½® æ¹¿
åīĤ éĩı
æ²ī é»ĺ
ç«ĭæ³ķ ä¼ļè®®åĳĺ
ĠS er
ĠF or
æĬļ åħ»
ä»Ĭå¤© çļĦ
å¸½ åŃĲ
åĵĪä½Ľ å¤§åŃ¦
6 æľĪ25æĹ¥
9 æľĪ17æĹ¥
L i
Ġ å»º
ä¸º ä¸ī
å¤§ èĥľ
æľī 2
ä»¥ èĩ³äºİ
æŃ¤ ç§į
çĶµ è®¯
ä¹Ł è®¸
çī© æµģ
éĺŁ åı²
é» ľ
äº¤ éħį
éĶ Ī
12 æľĪ26æĹ¥
ä¹Ĳ æĽ²
å¯¼ åĲĳ
åĽŀ é¡¾
çı Ĥ
åķ Ĭ
å¥¹ åĴĮ
åıĪ ä»¥
æ±ī æľĿ
åĳĬ åĪ«
æ¨¡ ç»Ħ
è±¡ æ£ĭ
éĻį æ°´éĩı
åºĵ åħĭ
èĹı ä¼łä½ĽæķĻ
å·¥ç¨ĭ åŃ¦éĻ¢
èĽ ¤
äºĮåįģ ä¹Ŀå¹´
çļĦå¤§ éĩı
1æľĪ 12æĹ¥
çļĦäºº ä»¬
è§Ħå®ļ å±ħæ°ĳçĤ¹
è¥¿åįĹ æİ¥
æĭĨ åį¸
èĩ³ä»Ĭ ä»į
ä¸Ńæĸĩ å¤§åŃ¦
ä½įäºİè¯¥åĽ½ è¥¿åįĹéĥ¨
ä¹¾éļĨ å¸Ŀ
å¯¹å¤ĸ å¼ĢæĶ¾
å»¶éķ¿ èĩ³
åŁĭ èĳ¬
éħ¿ éħĴ
åįĩéĻį æľº
, -
3 æľĪ28æĹ¥
4 50
l ow
Ġ 30
åľ¨ æ°´
æ³ ¾
åľ° æłĩ
åĪĨ æīĭ
è¥¿ æ¹ĸ
çī¹ å¾ĭ
æľĢ åħĪ
ä¹Ł å°±
çº¦ 20
ä»İ æĿ¥
èİ· éĢī
12 æľĪ16æĹ¥
åĽŀ åĪ°äºĨ
å°ĳ æł¡
æ¯ı ä¸ªäºº
è± ģ
åħ¶ä»ĸ åľ°åĮº
çİĩ çļĦ
åıĤåĬł è¿ĩ
ç«ł ç¨ĭ
æ°¸ å®ī
ä»Ģ ç»´åħĭ
4æľĪ 6æĹ¥
æĻ®æŁ¥ è§Ħå®ļå±ħæ°ĳçĤ¹
æ®ĭ éª¸
ç»ķ å¤ªéĺ³
éĶ® çĽĺ
çĬ¹å¤ª æķĻ
Ġ198 1å¹´
Ġ194 1å¹´
äºİ198 8å¹´
éľ¸ çİĭ
æº¶ åīĤ
æŁĶ éģĵ
è¥¿éĩĮ è¥¿äºļ
æ¡ĥåĽŃ å¸Ĥ
å¹¸åŃĺ èĢħ
æ¬º éªĹ
èĤ¯å°¼ è¿ª
9 æľĪ27æĹ¥
A F
H ar
R E
d i
Ġ e
æĿ ł
æľī è¶ħè¿ĩ
æĹ¶ æĽ¾
ä¼ļ åĴĮ
10 æľĪ23æĹ¥
ç»Ħ è£ħ
æĺİ æ¸ħ
æıĲ çĿ£
æĽ¾ åŃĻ
åıĹ çĽĬ
çĸ ¹
åıĺ è¿ģ
å¸¦ åĬ¨
ä¼Ĭ å¤«
èİ·å¾Ĺ çĶ·åŃĲ
åħµ åĻ¨
åİĨåı² ä¸ĬçļĦ
åģľ æĪĺ
åĶ± æŃĮ
re at
7æľĪ 6æĹ¥
9æľĪ 7æĹ¥
å¿ħé¡» åľ¨
æĭĽ å¾ħ
äºİ198 2å¹´
é¹¿ åĦ¿å²Ľ
ä¼ı å°Ķ
æŀĦæĪĲ çļĦ
å®īå¾· æ£®
æĬĽ å¼ĥ
éĿĴæµ· çľģ
ä¼º æľį
6 æľĪ22æĹ¥
G u
N T
P ar
Ġ åĽ½å®¶éĺŁ
ä¸Ĭ å¥ı
ä¸į ç¬¦åĲĪ
åĪĨ çļĦ
æľ¬ åŃ£
ãĢį ),
èĲ ĥ
è®¾ çļĦ
200 8
ä¸¤ æłĸ
èİ· éĢīä¸º
å¿ĥ çģµ
å¤§åŃ¦ å£«
åıĺ éĿ©
åŃĹ å½¢
è¿ŀ çº¿
äºī æī§
åľ£ åħ¬ä¼ļ
çĶ² çĥ·
åį¢ çĶĺ
12æľĪ 10æĹ¥
7æľĪ 19æĹ¥
ç§ĳåŃ¦ ä¸İ
éĿ©åĳ½ åħļ
åªĴä½ĵ çļĦ
ra g
æĽ¾ç»ı æĺ¯
ç¾¤å²Ľ çļĦ
çļĦçī¹ çĤ¹
çĮİ äºº
åĳ¨åĽ´ çļĦ
æī« æıı
èº² éģ¿
åĮĹåį¡ç½Ĺ èİ±
8 æľĪ16æĹ¥
G O
å¹´ çºª
ä¸º 6
åĮ Ļ
å¤§ åħ´
ç« ¿
åĲį å£°
åįĹ å®ģ
åŃĲ å¼Ł
çĶµ ç¦»
10 æľĪ16æĹ¥
åİŁ è®¡åĪĴ
è¾¾ åħĭ
éľ Ĩ
ç¬¬ä¸Ģ å®¶
åŁŁ åĲį
æ¥ ŀ
æīĺ æĸ¯
è´Ŀ æĸ¯
æľĢåĲİ åľ¨
åĪ¤ å®ļ
7æľĪ 8æĹ¥
8æľĪ 19æĹ¥
æĿ¿ æ¡¥
åĩºçīĪ çī©
æįŁ æ¯ģ
ç¾½ çĲĥ
æĮ¯ åħ´
æĻ®éĢļ è¯Ŀ
æĸ¯åħĭ å·ŀ
å»¶ä¼¸ åĪ°
èĢĮæĪĲ çļĦ
éĽĩ ä¸»
éĢ¼ è¿ĳ
åĲĮæĢ§ å©ļå§»
è¯¥æĿĳ å§ĭå»ºäºİ
æĸ°å¢ŀå¢ĥå¤ĸè¾ĵåħ¥ æĢ§
3 æľĪ25æĹ¥
3 æľĪ17æĹ¥
I s
çļĦ ä¹¦
çļĦ å¯¹è±¡
ä¸Ń åŀĭ
äºİ åı°æ¹¾
å¤§ æ»¡è´¯
åĴĮ å¯¹
æĹ¶ åľ¨
åŃ¦ åĽŃ
åĪĨ èĪ°éĺŁ
ä¹ĭ å¤ľ
åı¯ éĢļè¿ĩ
åĮĹ éĿŀ
æľĢ å°ıçļĦ
æĸĩ äºº
è¯¥ å±ŀ
è¯¥ èĬĤçĽ®
å°Ĩ çĶ±
åħ¨ å®¶
åħ¨ åĨĽ
æģ ķ
åįİ çī¹
åĽ¢ åĳĺ
ç®¡ å¼¦
å¼Ģå§ĭ çļĦ
çŁ¥ å·ŀ
å®£ ç»Ł
åı¯èĥ½ å¯¼èĩ´
æīĺ å°¼
æŀģ åº¦
ä½ı äºĨ
å²ģ åıĬ
ä¸Ńå¤® éĵ¶è¡Į
èĥľ è´Ł
åºĵ å°Ķå¾·
äºĮåįģ åĽĽ
æ°ĳä¸» åħ±åĴĮåĽ½
å¤ľ æĻļ
ç§ģ èĲ¥
èĻļ åģĩ
éĵģéģĵ éĥ¨
çŃĶ æ¡Ī
Ġ198 0å¹´
Ġ197 8å¹´
åĲ¸å¼ķ äºĨ
400 ç±³
åīª è¾ĳ
æ²Ļçī¹ éĺ¿æĭīä¼¯
çıĬçĳļ ç¤ģ
9 æľĪ2æĹ¥
çļĦ æĹ©æľŁ
æĺ¯ çĶ±äºİ
å¤§ åłĤ
åĴĮ å¾·åĽ½
ä¼ļ ä½¿çĶ¨
ãĢĮ -
çİ° åĲį
å¸ĥ åĲķ
å·ŀ è®®ä¼ļ
éĩĳ æŃ£
åĬ¡ æ®µ
ä¿Ŀ å¯Ĩ
11 æľĪ28æĹ¥
åĽ¾ ç¤º
çļĦä¸Ģ æĶ¯
ä¼¯ å°Ķ
é»ĳ å¸®
é¢Ħ åħĪ
éģŃ åĪ°äºĨ
re t
8æľĪ 30æĹ¥
3æľĪ 10æĹ¥
11æľĪ 5æĹ¥
11æľĪ 3æĹ¥
ç¬¬åĽĽ åĲį
éĺ» æĮ¡
åħĭéĩĮ æĸ¯æīĺ
ä¼´ å¥ı
20ä¸ĸçºª åĪĿ
åı¥ ä¸½
ãĢģãĢģ ãĢģ
éĻª å®¡
äº¤çķĮ å¤Ħ
4 ä¾ĭ
8 åı·
çļĦ B
çļĦ åı°æ¹¾
çļĦ è·¯çº¿
åħ ľ
åľ¨ å°ı
åľ¨ ä¿Ħç½Ĺæĸ¯
åľ¨ æķ´ä¸ª
åľ¨ 2000å¹´
ä¸İ åı°æ¹¾
è¢« åĳ½åĲįä¸º
å¼Ģ çģ«
ä½¿ åĳ½
åįģ ä¸ª
åĮĸ åĴĮ
è¾¾ èµĸ
éĩĳ åįİ
åıĹ åĳ½
æ²³ ä¸Ń
å¸¦ èµ°
æĶ¶ åıĸ
åĻ ¬
åľ£ ä¿Ŀç½Ĺ
é£ŀ å¾Ģ
å¥ĩ æĢª
åĺ »
åºķ çī¹å¾ĭ
èİ« æĸ¯
å¼Ĺ æ´Ľ
è½® èĥİ
ç«¯ çļĦ
çŁŃ ç¯ĩå°ıè¯´
å°½ éĩı
æĳ© æ³½å°Ķçľģ
æĿĤ äº¤
è¿½ åĬł
8æľĪ 12æĹ¥
11æľĪ 18æĹ¥
å¹³åĿĩ æ°´å¹³
åĬ¨çĶ» çĶµå½±
çī§ åĮº
æµģè¡Į çļĦ
é¥® éħĴ
çķª åı°
åį¡å°Ķ çĵ¦
åī© ä¸ĭçļĦ
é¥¥ é¥¿
ç¦»å¿ĥ çİĩä¸º0
éº¦éĩĳ èİ±
å¤ļå°Ķå¤ļ æ¶ħ
S e
äºº é©¬
è¡ «
ä¸Ĭ ä»¥
ä»ĸ ä¹Łæĺ¯
ä¸į éĢĤ
ç¬ ¨
ä¹ĭ ç¥ŀ
å¹¶ è®¾æľī
åĨĽ æĶ¿åºľ
ä¾ ®
åĬł æ³°ç½Ĺ
10 æľĪ24æĹ¥
å±ŀ ä¸ĭ
ä¿Ŀ éĩĬ
çĥ ĥ
ç§¯ ç´¯
çºª å§Ķ
åıª éľĢ
é¦Ļæ¸¯ å²Ľ
æ¸ħ åįķ
ä¸ĸçķĮ æİĴåĲį
æ´Ľ å°¼
é¸ ¾
è´¹ å°Ķå¾·
ç¥¨ éĢī
é¹ Ń
åħ¨åĽ½ äººå¤§ä»£è¡¨
å°ģ å»º
æķĳ æµİ
11æľĪ 7æĹ¥
éľ² å¤©
æ¿Ģ æ´»
éŃĶ æľ¯
èĥ½åĬĽ çļĦ
åģı å¥½
å¹¸ è¿Ĳ
éŀ ĳ
æ§ Ľ
é¡µ éĿ¢
åįĳ è¯Ĺ
Ġä¸ĭ å±ŀçī©ç§į
æ»¤ æ³¢
å®ĩèĪª åĳĺ
8 æľĪ26æĹ¥
t ext
äºİ ä¸Ń
æµ ļ
çĲ ¶
ç¬¬ 17
è¯¥ å°ıè¡ĮæĺŁ
ç§ĳ æĻ®
ä¸¤ å¤©
æŃ£ å¥½
åı¸ ä¸»äºĭ
å·´ çĻ»
åıĤ çħ§
12 æľĪ29æĹ¥
å·² å©ļ
åı¤ å»ºçŃĳ
çĵ¦ è§£
ar yĠ
ä¾Ľ ç»Ļ
ä¼¦ å·´
æĪĳ æĺ¯
æĸ½ åĬł
è®¾è®¡ äºĨ
å³ Ń
am eĠ
æĭ¿ åĪ°
éĽħ åĽ¾
è¿½ èµł
9æľĪ 3æĹ¥
10æľĪ 30æĹ¥
äºĮåįģ åİħ
5æľĪ 3æĹ¥
è¯Ĺ éĽĨ
æĿĲ è´¨
ãģ Ĩ
äººç±» åŃ¦
åĿĲ åľ¨
os s
åŃ©åŃĲ ä»¬
å¸ĥé²ģ å¡ŀå°Ķ
åĽŀå¿Ĩ å½ķ
åĿł æ¯ģ
æ§Ł åŁİ
åĶ®ç¥¨ æľº
è§ĨæĺŁçŃīä¸º 6
åĬłæ³°ç½Ĺ å°¼äºļ
8 æľĪ21æĹ¥
9 æľĪ22æĹ¥
u la
u eĠ
Ã ¤
Ġ y
Ġ å¼Ģ
çļĦ å®ī
çļĦ æĪĲåĬŁ
å¹´ å¹³åĿĩ
åľ¨ æ²¡æľī
åľ¨ è®¸å¤ļ
ä¸Ģ å°ı
ä¸Ģ çıŃ
ä¸Ń åĮĹéĥ¨
ä»ĸ æīĢ
åĩº ä½¿
ä¸» çº¿
åĬ¨ èį¡
çī¹ é²ģ
æĸ° å¨ĺ
åħ¥ ä¼į
10 æľĪ14æĹ¥
éĥ½ å¾Ī
åĽĽ å¤Ħ
å¨ Ł
èº ¯
äºĶ åĲį
or th
å¼Ģå§ĭ æĹ¶
åķĨ åŃ¦éĻ¢
æŃ¦ å°Ĩ
9æľĪ 9æĹ¥
11æľĪ 9æĹ¥
åįĪ å¤ľ
çīĽ èĤī
å¥³åŃĲ åĽ¢ä½ĵ
åı¬ åĽŀ
æĬķèµĦ èĢħ
æĺ¯ä½įäºİ æĹ¥æľ¬
åİ¿çļĦä¸Ģä¸ª éķĩåĮº
æ¸¸æ³³ æ±ł
ä¿Ŀå®Ī æ´¾
å·´å¸ĥ äºļ
And roid
! ãĢĭ
3 æĹ¶
D e
s ch
çļĦ å®ĹæķĻ
çļĦ èĳĹä½ľ
çļĦ æľĢåĲİä¸Ģ
å· ħ
ä¸į è¶ħè¿ĩ
åħ¬ åİĺ
ä½ľ çĶ»
çī¹ èī²çļĦ
å¤ļ åįĬ
åĬł å¾·
çĶµ éĵģ
çĲĨ æĢ§
å¦ ¨
ä¸ĸ éĶ¦èµĽ
ä½Ĩ å®ŀéĻħä¸Ĭ
ä¸¤ æĶ¯
æĽ¾ ä¸Ģåº¦
12 æľĪ17æĹ¥
çº³ åħĭ
æĽ² æ£į
ç¥ŀ å®Ĺ
èĭı æĭī
äº¬ åŁİ
en c
ä¼¯ åħĭ
å¡ŀ æµ¦
æ¦ Ī
æīĺ åħĭ
(, ,
æ¥¼ å®ĩ
è¯į åħ¸
åĵ¥ æĭī
èĹı åĵģ
æĺ¥ æĻļ
çŁŃ éĢĶ
7æľĪ 11æĹ¥
1æľĪ 9æĹ¥
åħħ è¶³
2010å¹´ äººåı£
æ¿Ģ åıĳ
è¯Ĭ æīĢ
å®ŀçİ° äºĨ
Ġ195 8å¹´
ä¸Ńå±± å¤§åŃ¦
åĲ¸å¼ķ åĬĽ
æĺ¯ä¸Ģä½į ç¾İåĽ½
æ¹ĺ æ¶Ľ
ä¸ĩå¹´ åīį
å¹¼ç¨ļ åĽŃ
5 åħ¬åĪĨ
Ġ 23
Ġ å½¢æĢģ
çļĦ æķĪæŀľ
ä¸º 7
ä¸Ģ éĥİ
ä»¥ åīįçļĦ
çī¹ è®¸
éķ¿ èĢħ
æľĢ å¸¸è§ģçļĦ
åĪ© åŁĥ
æĻ ķ
ç¾İ äºº
å½ĵ ä¸ŃçļĦ
åħ¨ èĥ½
çĤ «
å¤Ħ ä»¥
æĮĩ å¼ķ
åıª åī©ä¸ĭ
æ¯ı ç§Ĵ
æŃĮ è¿·
åıĮ äºº
æķĪ å¿ł
æľĢç»Ī å¹»æĥ³
æķĻèĤ² å®¶
ç¬¬ä¸ī åŃ£
ç¯ ·
12æľĪ 5æĹ¥
12æľĪ 4æĹ¥
ä¹° åįĸ
æ¯įäº² æĺ¯
ç»ıå¸¸ è¢«
åĭĩ æķ¢
çļĦå°ı åŀĭ
èŁ ¾
æ¼ı æ´ŀ
æ¯ĶåĪ©çīĽæĸ¯ çľģ
çŀ¬ éĹ´
çİ»åĪ© ç»´äºļ
1 å¹³æĸ¹åħ¬éĩĮ
O K
Y P
Ġ åı¯
Ġ èµ·æºĲ
çļĦ 2
çļĦ çº¢
åĽ½ æŃĮ
å± ĳ
åĲİ åįĬ
æ² Į
åıĳ æĢ§
å®¶ åĽŃ
æ³ķ çİĭ
èĢĮ èİ·å¾Ĺ
æĶ¿ åĿĽ
ä½į åħĥ
ä¸ĭ æĶ¾
èĩª ä¼ł
çī© è¯Ń
è½¦ ç¥¨
è¡¨ è¿°
ä¸ĸ ç¥ĸ
éļ ħ
è¾¾ æĸ¯
åģ ķ
å¸Ī å¸Īéķ¿
å®ĥ åı¯ä»¥
çļĦä¸Ģ å±ŀ
å¨ģ æĸ¯çī¹
ä¿® å¥³
æ¨¡ æłĩæľ¬
å¡ŀ æĭī
åŁĥ éĩĮåħĭ
ä½İ éŁ³
åı¶ çīĩ
åĶ® åĩº
èįī æľ¬
èĢ¶ å¾ĭ
7æľĪ 30æĹ¥
10æľĪ 7æĹ¥
10æľĪ 20æĹ¥
äºĮåįģ åħ«å¹´
æĿ¯ åĨ³èµĽ
6æľĪ 9æĹ¥
çļĦä¸» åĬĽ
187 1å¹´
ran s
èµ«å°Ķ æĽ¼
å®ł çī©
çļĦè½¨éģĵ åįĬéķ¿è½´
ç¿¡ç¿ł åı°
èµ«é²ģ æĻĵ
6 æľĪ24æĹ¥
Ġ æĹł
åľ¨ ä¸ĸçķĮ
äºİ æĺ¯åľ¨
æľī ä¸īä¸ª
åĴĮ M
åĴĮ é»ĳ
æĢ ľ
æĪĲ åĥı
ä»ĸ åĽł
ä¸į èµ·
ä¸» å§Ķ
çĶ± æĹ¥æľ¬
æĿ¥ è¿Ľè¡Į
æĿ¥ è¡¨ç¤º
ä¸ī åº§
çŃī èģĮåĬ¡
å±± æĿĳ
å¤© åĽ½
10 æľĪ29æĹ¥
æĢ» åıĤè°ĭéĥ¨
æĺŁ åº§
å¥¥ ä¼ļ
æº ľ
åĽŀ åĵį
ä¿¡ å¿ĥ
è½¬ åĪ°
å¢ŀ åİĭ
åĿĩ ä»¥
è¯º å°Ķ
åºķ è´¨
èİ« éĩĮæĸ¯
èīºæľ¯ åŃ¦éĻ¢
éĽĨåĽ¢ çļĦ
4æľĪ 19æĹ¥
è¶ħè¿ĩ äºĨ
å¾ĹåĪ° çļĦ
è·Ł è¸ª
æ¸¡ è½®
os h
å¢Ļ å£ģ
åİĦ çĵľ
ç´« èī²
Ġin Ġthe
æ£ķ æ¦Ī
ĠMus ic
èĲ¨å°Ķçĵ¦ å¤ļ
3 æľĪ27æĹ¥
D is
çļ Ī
çļĦ è±¡å¾ģ
ä¸Ń åŃĲ
è¥¿ éĿ¢
åĲĮ è¡Į
åĬ¨ æ¼«
è¿Ļ æľ¬ä¹¦
ç¾İ å®¹
10 æľĪ27æĹ¥
è¿Ĳ è½¬çļĦå°ıè¡ĮæĺŁ
å¼ł åĽ½
çŁ³ ç¢ĳ
çĳ ¾
æŃ» äºĨ
åħ« ä¸Ģ
èĪª åİ¦
åĲī å®ī
çĥŃ åĪº
çļĩ å¤ªåĲİ
æĤ ļ
ä¸»ä¹ī åĴĮ
åı³ å²¸
å·²ç»ı åľ¨
åľ°æĸ¹ æ³ķéĻ¢
çĦ¶èĢĮ åľ¨
å¸ķ çī¹
ou n
äºĮåįģ åħŃå¹´
5æľĪ 12æĹ¥
ç»Łæ²» æĹ¶æľŁ
æļĹ ä¸Ń
çĮİ çī©
ä½įäºİæ³ķåĽ½ æĸ°éĺ¿åŁºåĿ¦å¤§åĮº
æĶ¾å¼ĥ äºĨ
åĪ¶å®ļ äºĨ
æĺ¯ä¸Ģé¢Ĺ ç»ķå¤ªéĺ³
åĬłå·ŀ å¤§åŃ¦
è¶ģ æľº
éĵľéĶ£ æ¹¾
ä¸Ńå±Ĥ æ°´åŁŁ
Ġè½¨éģĵ åıĤæķ°
æĺ¯ä¸Ģé¢Ĺç»ķå¤ªéĺ³ è¿Ĳè½¬çļĦå°ıè¡ĮæĺŁ
2 å®¶
8 æľĪ17æĹ¥
e i
m i
Ġ è·Ŀç¦»
ä¸º åĽĽ
åĽ½ åĨħçļĦ
æľĪ å¨¥
ä»¥ ç¤º
ä¹ĭ çİĭ
ä¹ĭ å½¹
å¯¹ å³Ļ
åĲĮ æĥħ
çī¹ æĢ¥
åįĹ æĬķ
åĬł å¿«
åĮĹ çº¬
åĪ© æĸĩ
æŃ¤ åī§
ä¹Ł åĽłä¸º
å½ĵ ä»ĸ
å°Ĩ æĪĲä¸º
åĪ¶ åĬ¨
åĲĪ ç§°
æį §
ç§į å§ĵ
çĦ ī
æīĭ è¯Ń
åĮħæĭ¬ åľ¨
ç¼ĸ ä¿®
æ¸ħ æ´Ĺ
ç¦» ä»»
åı°æ¹¾ æĢ»çĿ£åºľ
çĵ¦ åħ¹çľģ
èĪª éĢŁ
è´Ŀ éĩĮ
æŃ£å¼ı å®£å¸ĥ
æī§ çħ§
æī§ æĶ¿åħļ
èĢ¶ é²ģ
ç»ĦæĪĲ äºĨ
åģĩ åĲį
åıªæľī ä¸Ģä¸ª
ãĤ ¢
ç»¿ åľ°
èĿ ī
åĬłæĭ¿ å¤§çļĦ
å¤ĸäº¤ æĶ¿çŃĸ
çļĦåľ° éĿ¢
ä¸ºä¸» å°ıè¡ĮæĺŁå¸¦
æ¨¡å¼ı ç§į
è®¾ç½® äºĨ
é¼ĵ æ¥¼
çĽĹ çªĥ
ä¸ľè¥¿ åĲĳ
æĿŃ å·ŀå¸Ĥ
åħ¬æĸ¤ çº§
äº¤åĵį æĽ²
ä¸ºä¸»å°ıè¡ĮæĺŁå¸¦ å°ıè¡ĮæĺŁ
1 çº¿
1 äº¿
1 æľĪ16æĹ¥
8 æľĪ2æĹ¥
o ot
çļĦ çĪ±
ä¸Ģ å¹¶
æ² ¥
è¡Į éĶĢ
å¹¶ æľĢç»Ī
æµ· æ»¨
å¸ĥ éĩĮæĸ¯
ç§° åħ¶
æĺİ çĻ½
è®® ä¼ļè®®åĳĺ
éĺ¿ æ³¢ç½Ĺ
åĳ¨ åħŃ
æ¸ħ æ²»
è¿ŀ èĥľ
åįĩ é«ĺ
å¤ĩ å¿ĺ
ä¸Ńå¤® äººæ°ĳæĶ¿åºľ
æķĻèĤ² å±Ģ
12æľĪ 11æĹ¥
æ´¥ è´´
1æľĪ 11æĹ¥
çĶļèĩ³ æĺ¯
å¼± çļĦ
æ¯ıå¹´ å¹³åĿĩéĻįéĽ¨éĩı
å¹´åº¦ æľĢä½³
æĮĤ çīĮ
ĠU A
ä¸ºè¾Ĳé³įé±¼çº² é²¤
æĺ¯ä¹Įåħĭåħ° çļĦæĿĳèĲ½
çĢ Ľ
åīĳæ¡¥ å¤§åŃ¦
Ð¾ Ð
å¢¨å°Ķ æľ¬
åĺ» åĵĪ
7 æľĪ26æĹ¥
L C
M M
Ġ éĵģè·¯
Ġ ç»ĵæŀĦ
çļĦ çİĭ
åľ¨ åĬłæĭ¿å¤§
åĴĮ åīį
æ² ½
éķ ģ
çĶ± é¦Ļæ¸¯
åĲĮ ä½įç´ł
å¤ļ æľī
æĸ° æ¸¯
åı£ ç½©
å±± æ°´
ç¨ ł
äº¤ æ¶ī
å°± è¦ģ
å¥¥ åħ°
åıį æģĲ
å®ĺ ç½ĳ
æ´¾ åħµ
æīĺ ç±³å°Ķ
æħ ¨
æł¸ æŃ¦åĻ¨
éº¦ è¿ª
æĳ© å¤©
çģµ æ´»
3æľĪ 11æĹ¥
è¯ĳ æľ¬
åģı ç¦»
æĺ¯ä½įäºİç¾İåĽ½ ä¼ĬåĪ©è¯ºä¼Ĭå·ŀ
æľīæĹ¶ ä¼ļ
éĦ ŀ
å¯Ĵ åĨ·
å¤§éĢī ä¸Ń
å¾·æĦıå¿Ĺ å¸ĿåĽ½
è´¹å°Ķ åįĹ
åĢĻè½¦ å®¤
è½¶ äºĭ
Ġ æĿľ
åĴĮ åĽ½éĻħ
æĭ Ĳ
ä»¥ åħį
è¡Į åĪĹ
ä¾ ı
åĲĮ å±ŀ
åŃĲ åĹ£
èĩ³ åħ³
è¯¥ å²Ľ
ç³» ä¸»ä»»
æŀĹ çļĦ
12 æĹ¶
å¥¥ æľ¬
å¥¹ è¿ĺ
å®ĥ è¢«
è½¬ åĮĸ
åħī çº¿
çĻ¾ åĪĨ
ä»į ä¸º
è´Ŀ åĭĴ
è½» æĺĵ
12æľĪ 6æĹ¥
12æľĪ 19æĹ¥
é¦ĸæ¬¡ äº®çĽ¸
ä¼ģ é¹ħ
å®¡ è®¡
5æľĪ 9æĹ¥
å·¥ä¸ļ å¤§åŃ¦
189 0å¹´
189 7å¹´
çıł å®Ŀ
äºİ18 3
Ġ194 4å¹´
Ġ194 2å¹´
åĽ½åĬ¡ åį¿
çļĦåİŁ å§ĭ
èĢĹ èµĦ
éº¦åħĭ åĶĲçº³
éĹª çĶµ
IS O
å¤§å¸Ī èµĽ
æīŃ æĽ²
èģĮæ£Ĵ å¤§èģĶçĽŁ
éŃħ åĬĽ
5 æľĪ28æĹ¥
8 æľĪ29æĹ¥
H T
S i
f t
Ġ æ¯Ķ
Ġ åªĴä½ĵ
Ġ å®ļä¹ī
åľ¨ åı°
ä¸Ģ ä¸Ģ
ä¸Ń åĩºçİ°
äºº æł¼
ä¸į è§ĦåĪĻ
åħ¬ ä½¿
æľ¬ åĵĪæł¹
å¸Ĥ å§Ķä¹¦è®°
åĮĹ éĹ¨
æµ· è±ļ
åĲĪ ä¸Ģ
ç½Ĺ ç´ł
ç«Ļ çĤ¹
å°¼ åħĭæĸ¯
å¸¸ é©»
éĶ ļ
æĺŁ çŃī
åĩ» åīĳ
an y
ç¥ŀ å¥ĩ
èĭı é»İ
éĿ¢ç§¯ 3
ç¬¬äºĮ æī¹
æ±ī åĨĽ
é¥ ª
èĪª æ¯į
éĢļè¿ĩ çļĦ
åĲİæĿ¥ åıĪ
æ²ĥ çī¹
ac ritic
3æľĪ 20æĹ¥
1æľĪ 30æĹ¥
åįģäºĮ åİħ
ç§ģ æľī
å®ª ç«ł
æĦ¿ æľĽ
è§¦ åıĳ
In t
è¿Ŀ è§Ħ
å¨ģå»ī å§Ĩæĸ¯
çº¹ ç«ł
éĽĨä¸Ń éļĶç¦»
è·³ èĪŀ
å¤±è´¥ åĲİ
å¼ķåħ¥ äºĨ
è½¬åĲĳ æŀ¶
æ³¢ç½Ĺ çĥŃ
ric on
å¿ĥèĦı çĹħ
ä¸ĭçļĦä¸Ģä¸ª å±ŀ
çĥ¹ é¥ª
ä¸ľæŃ£ æķĻ
åį¡å°Ķçĵ¦ å¤ļæĸ¯
5 0å¹´ä»£
6 æľĪ27æĹ¥
7 æľĪ23æĹ¥
9 æľĪ16æĹ¥
D on
ç µ
Ġ åı²
Ġ æ°¸
åľ¨ ä¸įåĲĮ
åĴĮ ç»ıæµİ
æł ĵ
ä¼ļ å½±åĵį
ä¸İ å°ı
ä¸İ é¦Ļæ¸¯
ä¸į è§ģ
ä¸į åĥı
éĽ ³
å¯¹ ä»ĸçļĦ
å¤ļ çĳĻ
é© ¯
ç® ķ
å¤ĸ åĢŁ
æ¬¡ éĥİ
åĮĸ åŃ¦å®¶
ç§į çļĦ
å®ī çľģ
ä¸¤ äººåľ¨
æĢ» é¢Ĩäºĭé¦Ĩ
èµ· äºİ
å·´ æ´Ľåħĭ
åıį é©³
æ´² éĻħ
èĬĤ çľģ
çŁ³ åĭĴ
æĿ¡ æĸĩ
éĻĨ ä¸Ĭ
ç»Ī å¹´
æ±ī æĸ¯
æİĴ æ°´éĩı
åŁİå¸Ĥ åħ¬åħ±äº¤éĢļ
æĭ¥æľī çļĦ
æ²ĥ åħĭ
3æľĪ 4æĹ¥
3æľĪ 19æĹ¥
5æľĪ 18æĹ¥
ç¦ģ ä»¤
æķĮ æĸ¹
äº® åº¦
æŁ± åĽ½
èļ Į
ç»ıèĲ¥ çļĦ
ĠL ove
åĩºèº« çļĦ
èĹ© ä¸»
ãĢı ,
çļĦä¸Ģåº§ åŁİå¸Ĥ
èİ±èĮµ çľģ
è¥Ħ éĺ³
å¥ł å®ļäºĨ
æ°ĳä¸»ä¸»ä¹ī äººæ°ĳåħ±åĴĮåĽ½
å¤ĩå¿ĺ å½ķ
- ãĢģ
2 60
6 å¹³æĸ¹åħ¬éĩĮ
æĺ¯ ä¸ĸçķĮ
æĸĩ åºĵ
ä¸ī æĹ¥
ä¸ĸ å®¶
æĢ§ é±¼ç±»
å·ŀ åĮº
å·ŀ éĻħ
æĢ» é¢Ĩäºĭ
ç¾İåĽ½ åĴĮ
éĹ¨ å°Ĩ
ç¥ŀ çģµ
åĲī æĢĿ
åĽ½éĻħ çĶµå½±èĬĤ
å¥ĩ è¿¹
20å¹´ ä»£
ãĢį, ãĢĮ
æľ« æĹ¥
æŀª æ¢°
3æľĪ 9æĹ¥
äº¤éĢļ å¤§åŃ¦
åħ» èĢģ
1æľĪ 6æĹ¥
4æľĪ 10æĹ¥
æłĩåĩĨ åĮĸ
éģĩ å®³
æľĿé²ľ æ°ĳä¸»ä¸»ä¹īäººæ°ĳåħ±åĴĮåĽ½
IN K
æ¹ĸåįĹ åį«è§Ĩ
åĽ½åĨħ å¤ĸ
åĵ¥ä¼¦æ¯Ķäºļ å¤§åŃ¦
ç¿ħ èĨĢ
å¸ĥèİ± åħĭ
è·¯æĺĵæĸ¯ å®ī
æ³ķå°Ķ èĮ¨
æĹıèĩªæ²» å·ŀ
0 Ġ
3 æľĪ29æĹ¥
5 æľĪ13æĹ¥
9 æľĪ26æĹ¥
Ġ é»ĳ
åľ¨ éĤ£
åľ¨ 2021å¹´
åľ° é©¬æĭī
ç« º
åħ¶ æīĢ
åĪ° åıĳ
èĢĮ æĹłæ³ķ
æ°ĳ å»º
è¿Ļ ä¸¤ç§į
å¤© èĬ±
å®ī å¹³
æĺİ æľ«
åħĥ åĴĮ
18 å²ģ
æĹł ç©·
åıĹ è´¿
åĪĻ åı¯
åį¡ å¡Ķå°Ķ
éĹ¨ æ§Ľ
æĶ¯ éĤ£
å¼ł å½ķéŁ³å®¤ä¸ĵè¾ĳ
åı¯ä»¥ ä»İ
å¤´ åıĳ
æĿİ ç»´
åĨĻ ä¸ĭ
åıĳçĶŁ åĨ²çªģ
å°½ åı¯èĥ½
12æľĪ 9æĹ¥
8æľĪ 7æĹ¥
3æľĪ 3æĹ¥
æ¿Ģ åħī
æ¹¿ æ¶¦
æ»¨æµ· å¡ŀçº³
å®īä¸ľ å°¼å¥¥
çĶ°å¾Ħ è¿ĲåĬ¨åĳĺ
æł¼æĭīæĸ¯ åĵ¥
çĶµåĬ¨ æľº
ĠWindow s
çļĪ ä¾Ŀ
7 å¹³æĸ¹åħ¬éĩĮ
7 æľĪ14æĹ¥
Ġ äºļ
Ġ æ¢ħ
çļĦ è¯į
çļĦ åĩºçİ°
ä¸Ń å¯¹
ä¸Ń æıĲåĪ°
æĺ¯ å±ŀäºİ
å¤§ æĪĲ
åľ° å±Ĥ
ä¸İ èĭ±åĽ½
ä¸į ä¾¿
åħ¬ é¦Ĩ
åĪĨ éĻ¢
æ³ķ ä¾ĭ
çī¹ æľī
åĿ ľ
çİ° çĬ¶
çĶµ åĻ¨
ç«ĭ äº¤
æĭī æł¼
ç§ĳ å¨ģçī¹
å®ŀ åľ¨
æ· ŀ
åĽŀ æĬ¥
åıĺ éĢŁ
ç¥ŀ æĺİ
æľª å©ļ
æ¯ı å¹´çļĦ
è£ħ ä¿®
é£ŀ ç¢Ł
å®Ī éĹ¨
am b
he l
è®¾æľī 1
6æľĪ 4æĹ¥
åĽłæŃ¤ è¢«
èĥŀ èĥİ
ç¾½ èģĶ
ur g
ç¼© åĩı
æĽ¾ç»ı åľ¨
å¤©ä¸»æķĻ ä¼ļ
Ġ194 7å¹´
å»ºæĪĲ éĢļè½¦
æĲľ æŁ¥
æº¶ è§£
æĹłè®º æĺ¯
åıĮæīĵ åĨłåĨĽ
åĿĲèĲ½ äºİ
ç½¹ æĤ£
éķ° ä»ĵ
) âĢĿ
4 æľĪ29æĹ¥
6 æľĪ29æĹ¥
8 æľĪ23æĹ¥
: ,
Ġ äºĶ
çļĦ ç®¡çĲĨ
çļĦ ä¿ĿæĬ¤
çļĦ ä¸ľè¥¿
çļĦ é¢ľèī²
ä¸Ģ æ¬¾
è¥¿ åŁŁ
èĢĮ è¿ĻäºĽ
å¾· æĽ¼
ç¾İ æµĵ
ä»£ ä»Ģ
çŃī åĽłç´ł
äºĮ èĢħ
é©¬ èĢ¶
ä¸¤ åı°
åĢ ©
è®¤ çľŁ
11 äºº
å¥¹ è¢«
åĽ½å®¶ ç»Łè®¡
å¾Ģ åĲİ
æŃ¦ å¾·
äº¦ äºİ
è´¨ åŃĲ
åĽŃ èīº
æĬ¤ éĢģ
åħ« å¤§
ä¸ĥ ä¸ĸ
è´Ł äºİ
å£° æı´
æĻ¯ æ³°
éĩįè¦ģ ä½ľçĶ¨
èĻ½çĦ¶ åľ¨
8æľĪ 3æĹ¥
2æľĪ 10æĹ¥
åģı è¥¿
éŀ ĺ
æĪĸèĢħ æĺ¯
Ġ196 6å¹´
çļĦé¦ĸ å¸Ń
å·§ åħĭ
æŃ¥åħµ å¸Ī
é©¬æĭī éĽħ
å·« å¸Ī
éĩĩè®¿ æĹ¶
æĳĶ è§Ĵ
éĺ¿å§Ĩæĸ¯çī¹ ä¸¹
å¯ĨæŃĩæł¹ å·ŀ
1 æľĪ13æĹ¥
9 æľĪ21æĹ¥
çļĦ è¿ĲåĬ¨
çļĦ æ¯Ķä¾ĭ
åľ¨ åİŁ
ä¸Ģ çĲĥ
æĺ¯ çļĦ
æĺ¯ ç½Ĺé©¬å°¼äºļ
å¤§ éĥ½
èµ Ĥ
åħ¬ èģĮ
è¥¿ ç«Ļ
æ°ĳ æĿĥ
åĬ¨ æ¤įçī©
æīĢ åıĸä»£
åĨħ ä¾§
åĪ¶ å®ļçļĦ
å°ı åĮº
10 åĲį
10 æľĪ22æĹ¥
çĽ¸ æİ¥
èĭ± å®Ĺ
å°¼ ç½Ĺ
åĽĽ åįģå¹´
è¯Ń æĸĩ
æĹł æĶ¿åºľ
éľ ¹
çķĮ çº¿
æĻ® æ³ķå°ĶèĮ¨
èº« ç©¿
åıĸ äºĨ
æ¸ħ æĶ¿åºľ
la ck
åĵĪ å§Ĩ
åĿĩ è¢«
è¯º å¨ģ
èĬ± å²Ĺ
ç»§ èĢĮ
æĦŁ çŁ¥
åĵ¥ èĲ¨åħĭ
éĻį èĩ³
å»¶ èĩ³
3æľĪ 12æĹ¥
åģĩ å¦Ĥ
é²ľ æĺİ
ä¸° èĩ£
æīİ æ³¢ç½ĹçĥŃ
åķĨä¸ļ éĵ¶è¡Į
è·¨ åĽ½
éĿĴå¹´ åĽ¢
ĠC o
çŁ¥è¯Ĩ åĪĨåŃĲ
åı°åĮĹå¸Ĥ æĶ¿åºľ
åĲĮçĽŁ ä¼ļ
ha el
å¥¥å°Ķ èī¯
è¯± å¯¼
æľīåĪ© äºİ
æ®´ æīĵ
èĲ¨è¯¸å¡ŀ å·ŀ
% )ãĢģ
6 æľĪ16æĹ¥
8 æľĪ27æĹ¥
E Ġ
f er
m o
Ġ as
Ġ æľīäºĽ
åĴĮ ä¸ĢäºĽ
åŃ¦ ä¸Ń
ä¸Ĭ å°ī
å¯¹ éĿ¢
èĩª å¹¼
åĮĹ å¤§
æīĢ ç»ĦæĪĲ
çĽ¸ æľĽ
æ°´ æīģ
æıĲ æĹ©
åľ°åĮº ä»£è¡¨
é£İ ä¿Ĺ
æĿĥ éĻĲ
çŁ³ åĪ»
å¸Į æĭī
åī¯ çľģéķ¿
åıĳå±ķ æĪĲ
èĢģ é¼ł
åĵ¥ æľ¬åĵĪæł¹
éº¦ åį¡
9æľĪ 11æĹ¥
6æľĪ 19æĹ¥
1æľĪ 8æĹ¥
æ·· éŁ³
æįķ é£Ł
çİī ç±³
çİ¯å¢ĥ ä¸Ń
éĤ» å±ħ
åĲ¬ è§ī
è¾ŀ åħ¸
ag ram
å¤§éĥ¨åĪĨ çļĦ
èĮ¶ åı¶
äºİ198 4å¹´
æĺŁæľŁ æĹ¥
Ġ18 4
åħ¥ä¾µ ä¹Įåħĭåħ°
è¯¥çľģä»½ä¸ºæ³ķåĽ½ è¥¿åĮĹéĥ¨
ĠU n
æĿ°åħĭ æ£®
éĩľ å±±
4 æľĪ17æĹ¥
6 åı·çº¿
8 å¹³æĸ¹åħ¬éĩĮ
b y
Ġ 22
Ġ çİ°åľ¨
ä¸ ķ
çļĦ 3
çļĦ éģĹ
çļĦ åı¦ä¸Ģ
åľ¨ é©¬
ä¸Ģ å¹´çļĦ
äºº éĺŁ
åĴĮ 2
èĢĮ è¯¥
å¹³ åıį
æĻ Ĵ
ä¸ī åĪĨä¹ĭä¸Ģ
æĪĺ åĬŁ
çĤ ¬
èµ· éĻį
æĶ¹ æŃ£
æ¸¸ çī§
åĩ» æºĥ
è¿ĳ æµ·
æŁ¥ è¯¢
ä¿® è¯»
åī¯ ä½ľçĶ¨
æĬĢ èīº
å¥ĩ å¼Ĥ
æıĲä¾Ľ æľįåĬ¡
æĪĲåĬŁ åľ°
æ²ĥ å°Ķå¤«
9æľĪ èĩ³
ãĥ ĥ
é½Ĳ åĽ½
åĩ¯ æĴĴ
ä»Ļ å¥³
è¯ģæĺİ äºĨ
äºİ198 7å¹´
ä¸ŃåĽ½äººæ°ĳ æĶ¿æ²»åįıåķĨä¼ļè®®
èĢĮè¯¥åľ° æľĢé«ĺçĤ¹ä¸º
æĳ§æ¯ģ äºĨ
æīĵçł´ äºĨ
æĬ¤åį« èĪ°
å¼ĹåĲī å°¼äºļ
éĩĳæĹ¥ æĪĲ
ç§ĳå¤ļ å°Ķçľģ
éº¦è¿ª éĢĬ
4 æľĪ25æĹ¥
5 æľĪ24æĹ¥
C on
J ames
L ED
S k
r in
çļĦ T
ãĢģ ãĢĮ
åľ¨ éĩİ
æĺ¯ éĿŀ
å¤§ ä»Ļ
æľī åı²ä»¥æĿ¥
è¡Į åĨĽ
å°Ķ æĽ¼
ç¬¬ 24
æ³ķ åĪ¶
å¸Ĥ åĮºçļĦ
æĸĩ åºĻ
æĻ ı
åĨħ å¿ĥ
èĢħ ä¹ĭä¸Ģ
éĥ½ å°ī
æł¼ éĻµ
æĺİ å¸Ŀ
12 æľĪ22æĹ¥
æ²³ å¸Ĥ
ä¸ĵ åĪ¶
ä¿¡ ä»¶
å¤´ çĽ®
çŁ¥ äºĭ
çĵ¦ æĸ¯
çļĦä¸Ģä¸ª æĿĳ
æ¨¡ èĮĥ
èĬ± äºĨ
çľĭ åĩº
å³ ¨
å·²ç»ı æľī
6æľĪ 11æĹ¥
æµ·åĨĽ éĻĨæĪĺéĺŁ
11æľĪ 19æĹ¥
æ·· åıĮ
çĤ® åĩ»
ãģ Ĺ
å°ıæĹ¶ åĨħ
ç¬¬åįģ äºĶ
å®ļä¹ī çļĦ
çıį å®Ŀ
äºİ198 6å¹´
å¦Ĥä¸ĭ è¡¨
å®īè£ħ äºĨ
äº¿åħĥ äººæ°ĳå¸ģ
èĦ¸ ä¹¦
æĬĦ è¢Ń
åŃļ æĹ¥
ç³Ł ç³ķ
éľ¹ éĽ³
5 åı·çº¿
6 æľĪ26æĹ¥
7 æľĪ17æĹ¥
7 æľĪ29æĹ¥
Ġ å¥ĸé¡¹
çļĦ æĸ¹åĲĳ
åľ¨ è¿Ľè¡Į
ä»¥ 6
éĿ ¼
ä¸Ĭ çº§
è¡Į è¿Ľ
ä¸į åĮħæĭ¬
æĬ Ĵ
æĸ¹ ä½į
å¼Ģ äºĨ
å¹³ æĹ¶
çķ ¸
å°ı å·´
å®ī éĹ¨
å¸¸ ä¾į
æŀĹ åľ°
åİĨ å¹´
çº³ æ£®
çļĦä¸Ģ æ®µ
æŀĦ æĢĿ
åľ£ å½¼å¾Ĺåł¡
ç¬¬äºĮ å¹´
çıŃ æľº
å§Ĩ çļĦ
æĬĹ äºī
çĿ£ å¯Ł
åĽłä¸º åħ¶
7æľĪ 3æĹ¥
9æľĪ 10æĹ¥
æķĳ åĩº
æ¦Ĥ åĨµ
å°ĶçļĦ æĳ©
æĹħå®¢ åĪĹè½¦
åıĶ çĪ¶
CO VID
åĬĿ è¯´
ç»´åŁĥ çº³çľģ
1920å¹´ ä»£
è¾¾ç§ĳ ä»ĸå·ŀ
å¤ıæľĹå¾· çľģ
L a
Ġ id
çļĦ åĮĹ
çļĦ ä¿¡æģ¯
åľ¨ å¥¹
å¤§ éŁ©æ°ĳåĽ½
åĩº åĩ»
åĪĨ åĩº
ä¹ĭ å¼Ł
çĶ¨ è¯Ń
ä¸ĭ ä¸Ģä¸ª
ç¾İ å¥ĸ
åīį éĿ¢
é«ĺ åĩº
é«ĺ æ½®
ä¹Ł å¾Ī
è¿ĩ æ»¤
å°Ĩ ä»¥
æľº å¯Ĩ
200 5
æł¼ åĪ©
éĺ¿ æĸ¹ç´¢
å¤Ħ å¥³
èĭı åĮº
ä»Ĭ æ²³åįĹçľģ
åįĩ ä¸Ĭ
å¥½ å¤Ħ
æĭħä»» è¿ĩ
éĿĴ è¡£
éħį æľī
çĶ² å£³
åĨľ çĶ°
ä¾§ çº¿
æĢĿ ç»´
æĬĢæľ¯ åŃ¦éĻ¢
el f
çŁŃ ç¯ĩ
è¾ĵ ç»Ļ
çİĽ åĪ©äºļ
åħį äºİ
ou s
èį£ èĢĢ
ç»§ç»Ń åľ¨
ä¸° çĶ°
æķ¦ ä¿ĥ
èģļ çĦ¦
è°¢ å°Ķçľģ
ä¼° ç®Ĺ
ä½Ĳ æ²»
å¨ģå°Ķ éĢĬ
å¼Ģè®¾ äºĨ
Ġw h
æ¡ĵ åħ¬
å·´å¡ŀ ç½ĹéĤ£
æł¼éĻµ åħ°
7 æľĪ22æĹ¥
y th
Ġ æĮī
Ġ æľĪåı°
çļĦ çĻ½
çļĦ éĤ£
åĴĮ ä¸ľ
æķ ŀ
éĺ Ļ
ä¸Ĭ è¯¾
å»º æŀĦ
è½¦ ç¥¸
å±± ä¸ĭ
å°ı å¿ĥ
å°ı åŃ¦æł¡
åįģ ä¸ĩ
æİ¥ åħ¥
åĽĽ åįģäºĮå¹´
åĽĽ åĪĨä¹ĭä¸Ģ
12 æľĪ2æĹ¥
éŁ³ éĢŁ
æº º
æ±Ł æ¹ĸ
æ³¢ åĪ©æĸ¯
åħī èį£
è¿ŀ éĢļ
åħ¶ä»ĸ åĽ½å®¶
è¿Ļä¸ª åĲįåŃĹ
è¿½ æįķ
äº¿ ç«ĭæĸ¹ç±³
è¡ĮåĬ¨ ä¸Ń
éľį æĻ®
éĨ ļ
æµ·æĭĶé«ĺåº¦ 3
189 4å¹´
éļĲ å±ħ
ä½įäºİæ³ķåĽ½ å¥¥åħĭè¥¿å¡Ķå°¼å¤§åĮº
èĩªèº« çļĦ
åıĳæĺİ äºĨ
äºĮæĪĺ æľŁéĹ´
å¼ĹéĩĮ å¾·éĩĮå¸Į
å·²çŁ¥ çļĦ
åį°ç¬¬å®ī çº³
åİ¨ æĪ¿
éŀĳ éĿ¼
1 æ¬¡
3 æľĪ21æĹ¥
7 æľĪ25æĹ¥
n a
Ġ æŃ¤åĲİ
å¤§ æµ·
æĹ¥ æ¸Ĳ
ä¸į ç®¡
ä¸į ç¨³å®ļ
åĪĨ åħ¬åı¸
ç¬¬ 21
çī¹ åĪ©
çŃī åĽ½
è¯¥ è®¡åĪĴ
æĪĺ åīį
å°Ĩ ä¹ĭ
è¡¨ æĢģ
è®¾ æĥ³
å¤© åŃĲ
10 åĪĨ
å¹¿ çĶµ
åºĶ åıĺ
åıĸ åĲį
å¤ª å¸¸
åŃĹ åŃĲ
ä¼Ĭ åĬ¿
è§Ĵ é¾Ļ
è°ĥ è§£
æ´¾ åĳĺ
åħµ å½¹
æ¬§ äºļ
è¾¹ åĮº
èĪ¹ åİĤ
åģļ å¥½
ä¸¥ èĤĥ
è¿ĺæľī ä¸Ģä¸ª
éĹŃ çİ¯
åģı è§ģ
éĺ¿æĭī è´¡
åĩıå°ĳ äºĨ
çļĦåİŁ åĪĻ
çİĦ å®Ĺ
æ¸Ķ æ°ĳ
æŁĶ ä½Ľ
Met acritic
æł¸ç³ĸ æł¸éħ¸
ä¼¯æĺİ ç¿°
5 æľĪ17æĹ¥
8 æľĪ25æĹ¥
O ricon
Ñ ģ
Ġ æľĢåĪĿ
Ġ æ¯ķä¸ļäºİ
çļĦ æĶ¿åºľ
ãĢ ĩ
æĺ¯ æĸ°
ä¸İ ä¿Ħç½Ĺæĸ¯
ä¸» æĶ»
ä¸» çĤ®
å¼Ģ ä¼ļ
å¾· åĴĮ
ä¸ī éĿ¢
ä¸ī åı¸
200 6
åħ¨ åľº
éĥ½ æĺ¯åľ¨
æ°´ ä½į
ä¹Ĳ ç«ł
æłĩ è¯Ń
æĬ¥ ç¤¾
æ±ī ä¸Ń
ä½ı å®¿
åºķ ä¸Ńå±Ĥæ°´åŁŁ
è¾ĵ éĢģ
9æľĪ 19æĹ¥
10æľĪ 5æĹ¥
6æľĪ 8æĹ¥
om e
å¥³æĢ§ çļĦ
éľ² åĩº
è·Ł èĳĹ
ä¹Ļ çĥ¯
æ®ĭ ä½Ļ
èķ Ĭ
å¸¸è§ģ äºİ
èĩ³å°ĳ æľī
æłĸæģ¯åľ¨ åºķå±Ĥæ°´åŁŁ
ä¼ª è£ħ
çļĦæĶ¯æĮģ èĢħ
åħĭæĭī èį·é©¬
åľ£è¯ŀ èĬĤ
% ).
2 å¹³æĸ¹åħ¬éĩĮ
4 æľĪ27æĹ¥
5 æľĪ22æĹ¥
6 æľĪ2æĹ¥
; ),
M G
w ay
Ġ æĸ¯
Ġ åºĶçĶ¨
çļĦ éĢīç¥¨
æĪ ®
ä¸Ń æī®æ¼Ķ
ä¸į é¡¾
æŀ £
åĲĮ èĥŀ
éķ¿ ä¹ħ
åı¯ ä½¿çĶ¨
ç¾İ å¼ı
ç¾İ å°ĳå¥³
çİ° è¡Į
ç»ı åĽ½
å½ĵ ä»Ĭ
éģĵ å¥ĩ
å±± è·¯
å±± åºĦ
å¤© çº¿
èģĶ è½¦
äº¤ æĽ¿
11 æľĪ2æĹ¥
è¿ĺ èĥ½
åŃĹ å¹ķ
ç¬¬ä¸Ģ æľŁ
åĳ¨ äºĶ
åħĪ çŁ¥
è®¤ä¸º è¿Ļ
è¾ĥ çŁŃ
æ¨¡ åĿĹ
é²ģ è¿ħ
é»ĳ æµ·
åŁĥ ç±³å°Ķ
ä»ħ ä¸º
å¿« è½¦
ä¹ĭåĲİ åıĪ
æ¯Ľ åĪ©
èīºæľ¯ åĵģ
é¡¶ å°ĸ
7æľĪ 9æĹ¥
10æľĪ 18æĹ¥
6æľĪ 7æĹ¥
é²ľ èĬ±
1æľĪ 18æĹ¥
11æľĪ 6æĹ¥
11æľĪ 20æĹ¥
ä½© å¾·ç½Ĺ
çľ¼ éķľ
å¸Ĥåľº çļĦ
å¾½ ç«ł
æ°¢ æ°Ķ
å¡« æµ·
åĿĤ 46
äº¤åĵį ä¹ĲåĽ¢
3 20
6 æľĪ21æĹ¥
9 æľĪ13æĹ¥
k a
Ġ éļıåĲİ
Ġ ä¸ŃåĽ½å¤§éĻĨ
çļĦ åĪĽä½ľ
çļĦ å°ıè¯´
çļĦ éĻĲåĪ¶
æĹ¶ å¹´
åĲį å£«åħµ
åĪĨ æ²»
ç¬¬ 18
æĸ° æĬĢæľ¯
åĬł æĿ¥
è¯¥ ç³»ç»Ł
å®ļ åĲįä¸º
ç§ĳ éļĨ
æł¼ è¾¾
çº¦ 30
é¦ĸ åıĳ
éĶ »
ä¹¦ çļĦ
å¼ł æ°ı
çŁ³ å®¶åºĦ
åķĨ è®®
åķĨ è®¨
å¨ģ åĪ©
æļ ¹
çĵ¦ åĭĴ
16 äºº
å¿Ĺ æĺİ
æľ¨ æĺŁ
4æľĪ 8æĹ¥
4æľĪ 20æĹ¥
ri m
å®ĹæķĻ ä¿¡ä»°
ç»ĺ åħ¥
åľ°éĵģ ç«Ļ
çĩĥ æ²¹
å¤§çº¦ åľ¨
çºµ åĲĳ
Ġ193 9å¹´
çļĦé¦ĸ ä¸ª
çĺ ¾
ç¿»è¯ĳ æĪĲ
æĲ¬ è¿ģ
åı²ä¸Ĭ æľĢ
ast er
ä¾Ħ åŃĲ
èµ¦ åħį
äºļåĪ©æ¡ĳ éĤ£å·ŀ
3 æľĪ24æĹ¥
5 å¹³æĸ¹åħ¬éĩĮ
Ġ se
çļĦ åħĥç´ł
åľ¨ å¹¿å·ŀ
çĲ Ľ
ä¸Ĭ çıŃ
å§ ¨
èĢĮ æ²¡æľī
æĮ £
è· ª
å¯¹ åĨ³
éķ¿ åŁİ
é«ĺ åı¥ä¸½
å½ĵ æĪĲ
å°Ĩ è¿ĻäºĽ
éĩį çĶŁ
æĢ» ç¼ĸè¾ĳ
çĽ¸ äº¤
ç»Ħ åĪ«
çº¦ å®ļ
æıĲ èµ·
åĽĽ åŃ£
æµģ æĺŁ
ä¸¾ ä¾ĭ
åı¤ åħ°
æĪĲä¸º ä¸ŃåĽ½
è¿ĳ äº²
èĬĤ è½¦åİ¢
ç¦» ä¸ĸ
ç¬¬äºĮ éĺ¶æ®µ
ä¹Ŀ ä¸ª
ä¹¡ æ°ĳ
èĪ° éķ¿
ä½ķ å¡ŀ
æĸĩåĮĸ ä¸Ńå¿ĥ
ç²¾ éĢļ
åİĭ åĢĴ
åı³ ä¾įéĥİ
å¿ħ éľĢ
äºĭä»¶ åĲİ
æ¬§æ´² çļĦ
å©ļ åĲİ
1æľĪ 3æĹ¥
ç«¥ åĨĽ
å·¨ åŀĭ
åı¬ åĶ¤
ç¼ĺ åħ³ç³»
æµª è´¹
éĿĻ èĦī
åĽ½ç«ĭ å¤§åŃ¦
Ġ196 0å¹´
æĶ¿åįı åī¯ä¸»å¸Ń
" &
" |
) -
5 æľĪ26æĹ¥
â Ĺ
Ġ åŃ¦æľ¯
äºº éĹ´
çº ¶
è´ ®
ä»ĸ äº¦
ä¸į åĪĨ
çĶŁ åŃĲ
åĨĽ æł¡
å¸Ĥ å§Ķ
çī¹ æľīçļĦ
çİ° èº«
åĲĪ æł¼
çº¦ 7
äº§ äºİ
æĶ¹ åĬ¨
åį¡ éĩĮ
å¼Ģå§ĭ å¯¹
è¿ŀ çİ¯
çłĶç©¶ ä¸Ń
åį° æ¬§
16 00
èĬ± åºı
èŃ¦ ç½²
é¢Ħ éĢī
re en
æ°ĳåĽ½ 3
åĨ² åĪº
æĺ¯ä¸Ģ é¦ĸ
7æľĪ 5æĹ¥
6æľĪ 5æĹ¥
åħ» åŃĲ
æĺ¾ç¤º åĻ¨
èĦ± æ°§
è§Ħæ¨¡ çļĦ
è®Ńç»ĥ çıŃ
å°Ĩåħ¶ åįĩæł¼ä¸º
çĦ¶åĲİ åľ¨
æıŃ åıĳ
æĬ¢ æķĳ
åĸ· æ³ī
å²Ĺ ä½į
åĪ· æĸ°
éĵľçīĮ å¾Ĺä¸»
åĪ¶æĪĲ çļĦ
æ¨± èĬ±
åĪ©å¥¥ æ³¢å¾·
äºļå½ĵ æĸ¯
çĻ½åŀ© çºª
çĲµ çĲ¶
1 æľĪ21æĹ¥
3 æľĪ16æĹ¥
3 æľĪ2æĹ¥
3 æľĪ14æĹ¥
P V
i OS
Ġ æľĢç»Ī
çļĦ æľ¬
çļĦ é»Ħ
æĺ ¼
ä¸º åīį
ä¸º çĽ®æłĩ
äºº åĲį
å¤§ ä¹ĺ
å¤§ æ®¿
éķ Ģ
åĩº çĭ±
åıĳ æºĲèĩª
ä¹ĭ å¿ĥ
ä¹ĭ æŃĮ
è¥¿ è¾¹
å¸Ĥ åĴĮ
å¾· æ¯Ķ
äºļ è¶³èģĶ
èĩ³ 2021å¹´
å¤ĸ è¯Ń
å°ı éĺŁ
å°ı ç±³
ç§ĳ å¤§åŃ¦
çĦ Ĭ
åį¡ çļĦ
åį¡ å¡Ķ
åį¡ è¿ª
å¹¿ éĺĶ
å®ĺ åĲı
å¤ª çĽĳ
on y
é¦Ļæ¸¯ çĶµåı°
ä¸ĸçķĮ çºªå½ķ
çĶ· çĪµ
çĥŃ çĥĪ
çº¢ ç£¡
åŁĥ çº³çľģ
çļ® çī¹
000 ç¾İåħĥ
èı² æĸ¯
åĲ¯ ç¤º
é¡¶ ç«¯
9æľĪ 5æĹ¥
3æľĪ 30æĹ¥
è¡¥ è´´
4æľĪ 3æĹ¥
æľ± åħĥ
æĬµ æĬ¼
éŃĶ é¬¼
çļĦåľ° çĲĨ
å¼ĢæĶ¾ å¼ı
um p
å°Ĭ ä¸¥
ç¥Ń åı¸
ä½įäºİè¯¥åĽ½ è¥¿åĮĹéĥ¨
åī² è®©
æ°Ķè±¡ åİħ
åĥ§ äºº
çīłä»¬ çļĦ
èģª æĺİ
é©¬å°¼ æĭī
è¯¥çľģä»½ä¸ºæ³ķåĽ½åĮĹéĥ¨ åĨħéĻĨçľģä»½
è§Ĵèī²æī®æ¼Ķ æ¸¸æĪı
å±ŀä¸ĭçļĦä¸Ģä¸ª ç§į
è¾Ľäº¥ éĿ©åĳ½
2 O
2 æľĪ25æĹ¥
2 æľĪ2æĹ¥
7 37
I X
çļĦ æĿİ
åľ¨ æĦıå¤§åĪ©
ä»¥ éģ¿åħį
âĢ ²
ä¸İ æ³ķåĽ½
ä¹ĭ åıĺ
å¹¶ è¡Į
è¥¿ åĽŃ
é©¬ çī¹
ç§ĳ éĽ·
çĤ ¯
èĳ ±
an Ġ
æĪĲä¸º è¯¥
å¼Ģå§ĭ ä½¿çĶ¨
å¡Ķ çī¹
æ±ī æĸĩ
æŃ¥ éģĵ
13 äºº
èı² äºļ
ä¸Ńåįİäººæ°ĳåħ±åĴĮåĽ½ æĶ¿åºľ
æĳĦ åıĸ
12æľĪ 3æĹ¥
10æľĪ 19æĹ¥
äºĮåįģ äºĶ
éĢĥ éģ¿
åıįåºĶ çĤī
2æľĪ 11æĹ¥
èĪį äºº
å¤§ä¼ļ åłĤ
189 9å¹´
èķ ¨
èĲ§ æĿ¡
äºİ194 5å¹´
éĢĴ äº¤
äº¿ç¾İåħĥ çļĦ
é¢ĩ ä¸º
æĥ¨ éĩį
çŁ® æĺŁ
èĥĮé³į è½¯æĿ¡
è°¨ æħİ
ä¸»äºº åħ¬
2 æ¬¡
B l
V al
çļĦ åģļæ³ķ
ä¸º æŃ£
ä¸Ģ æıĲ
å¤§ çİĭ
å°Ķ åĴĮ
ä¾ ¬
æĭī æĭī
è° Ł
åĪ¶ è®¢
çĽ® çĿ¹
äº§ æĿĥ
ä¼ł æİĪ
æĽ´ åħ·
æĽ´ å¿«
11 æľĪ24æĹ¥
11 æľĪ26æĹ¥
è§£ è¯´
åĳ¨ æ°¸åº·
ç¦» åİ»
äº¦ åį³
en er
åı¯èĥ½ ä¸İ
å¸Ĥéķĩ éĿ¢ç§¯ä¸º
éĩĩ æł·
ä¸ĸçºª æĹ¶
åº· æĸ¯åĿ¦
å¾ģ æĪĺ
åĲĮå¹´ äºĶæľĪ
åħį åıĹ
äºĴ éĢļ
5æľĪ 7æĹ¥
èĪªç©º éĺŁ
æĢ¥ åī§
500 ç±³
æĺĨ ä»ĳ
æľīæĹ¶ åĢĻ
åĪĽç«ĭ çļĦ
ä¾¦ æµĭ
Ġåī§æĥħ ç®Ģä»ĭ
è¯¥æĿĳ å§ĭå»º
å¿ĹæĦ¿ åĨĽ
é©¬è¾¾ åĬłæĸ¯
è¯¥çī©ç§įçļĦæ¨¡å¼ıäº§åľ° åľ¨
åĮĹåį¡ç½Ĺèİ± çº³å·ŀ
èµ«é²ģæĻĵ å¤«
5 æľĪ27æĹ¥
A O
M E
r and
s ilver
w ork
Ġ çŃī
Ġ é¾Ļ
Ġ ä¸ĵè¾ĳ
ç» ŀ
åĴĮ æ³ķåĽ½
æ³ķ åĪĻ
è¢« åıĸæ¶Ī
å¼Ģ æĭį
å¾· èĲ¨
åįģ åĲį
ç±³ æŃĩå°Ķ
èĭ± åĨł
éĺ¿ çº³
12 æľĪ27æĹ¥
éŁ³ æºĲ
11 æľĪ17æĹ¥
11 æľĪ23æĹ¥
an ce
çŁ³ éĹ¨
è§Ĵ çļĦ
åħŃ åĲį
æºĲ å¤´
ä»£è¡¨ äºĨ
æĹ© æĻ¨
éĺ² æļ´
å£° è°ĥ
è¡ĮæĶ¿ æĿĳ
è¡Ĺ çļĦ
å¼¹ åĮ£
ä¾ĭå¦Ĥ åľ¨
11æľĪ 12æĹ¥
èĮĥåĽ´ åĨħçļĦ
æŃ»äº¡ çļĦ
æģĲ æħĮ
èĳ¡èĲĦ ç³ĸ
æĹģ çļĦ
Ġ195 2å¹´
æ°§åĮĸ çī©
çº¬ åº¦
çİĦ æŃ¦
éĶĻè¯¯ çļĦ
å®ļå±ħ çĤ¹
ç¼©åĨĻ ä¸º
é£ŁçĶ¨ é±¼
èħĵ åĬĽ
æĹıèĩªæ²» åİ¿
çļĦåľ°éĵģ è½¦ç«Ļ
ä¾® è¾±
5 æľĪ2æĹ¥
8 æľĪ14æĹ¥
G DP
Ġ åįļ
Ġ 21
çļĦ è¶ħ
åľ¨ è¿Ļä¸Ģ
åĴĮ åįİ
åĴĮ å¼¦
åĳ Ĩ
ä¸İ ä»ĸçļĦ
è¡Į äºĭ
åĳĺ çļĦ
åįĹ è¶Ĭ
äºĮ åįĥ
ç±³ å¾·
ä¸ŃåĽ½ é©»
èµ· åľ¨
12 æľĪ13æĹ¥
åħļ ä¸»å¸Ń
æ²³ å²¸
éĴ Ĭ
èĮ ±
é¢ĺ ä¸º
è´Ŀ èĴĤ
åģľ æĴŃ
éŁ© è¯Ń
ç¬¬ä¸ī ä»£
çĽ®åīį å·²
èĭ¥ æľĽ
å°¾ éĥ¨
11æľĪ 10æĹ¥
æ·· æ²Į
åıªæľī åľ¨
ç§ģ ä¸ĭ
èľ Ĺ
éĻµ å¢ĵ
èĩªçĦ¶ ç§ĳåŃ¦
è¿Ļç§į æĥħåĨµ
å¥Ī èī¯
å°Ĭ æķ¬
èļ ķ
é¼ĵ æīĭ
æĭĨ è§£
å¸ĥå°Ķ ä»Ģç»´åħĭ
ud io
é¢ģå¥ĸ ç¤¼
åįłæĢ»äººåı£ çļĦ
å¼łåŃ¦ èī¯
1 å¤Ħ
3 80
3 æľĪ23æĹ¥
8 æľĪ13æĹ¥
M ark
Ġ ä¸¤
Ġ èĬĤçĽ®
çļĦ çĶµåŃĲ
çļĦ é¢ĨåľŁ
åı ±
å¤§ åŁİå¸Ĥ
åĴĮ æĿİ
æĹ¥ çħ§
åŃ¦ å¹´
ä¸į ä¸Ģå®ļ
å®¶ éĩĮ
å¹¶ æıĲä¾Ľ
çī¹ æĿĥ
æĸ° ç§Ģ
ãĢĮ ãĢį,
æµ· ä¼¦
ç½Ĺ çĲ³
ç¾İåĽ½ ç©ºåĨĽ
å¥³ çĶŁ
éķĩ ä¸ĭè¾ĸä»¥ä¸ĭåľ°åĮº
11 æľĪ25æĹ¥
è½¬ æĪĺ
çļĦä¸Ģ åįĬ
æ´¾ é©»
æ´¾ åĩºçļĦ
åĬŁ å¤«
ä»¥åıĬ å¯¹
æ²Ļ åĴĢ
èĪ° ä¸Ĭ
å²ģ ä»¥ä¸Ĭ
æĪĺäºī ç»ĵæĿŁåĲİ
ç»ıè¿ĩ æľ¬åľ°åĮº
ri b
éŃĶ å¥³
éĺ¿æĭī å·´é©¬
éĿĻ æĢģ
å¤©ä¸»æķĻ å¾Ĵ
ä½įäºİæ³ķåĽ½ åĭĥèī®ç¬¬
äºİ197 9å¹´
æī©å±ķ åĪ°
å¾ĹåĲį äºİ
åµĮ åħ¥
âĦĥ ,
åĪĨä¹ĭ äºĮ
èĩĢé³į è½¯æĿ¡
æ·¹ æ²¡
èĭıé»İ ä¸ĸ
ç»ĺåħ¥ åľ°åĽ¾
3 æľĪ22æĹ¥
9 å¹³æĸ¹åħ¬éĩĮ
A B
H er
U P
g ram
m in
m on
Ġ ä¸ĩ
çļĦ çĬ¶åĨµ
ç» «
ä¸Ń å°ī
åĽ½ äºº
ä¼ļ ä½¿
ç¬¬ 25
ãĢĬ -
åħĭ æĭīæĸ¯
çŁ ½
äºĮ æ¥¼
æ¯Ķ åħĭ
è®® æ¡Ī
æıĲ æĭĶ
åĲĳ ä¸ľåįĹ
åĲĳ è¥¿åĮĹ
å¤´ éª¨
æ²Ļ çļĩ
éĺ² æİ§
åŃ¦éĻ¢ éĻ¢éķ¿
æľ¨ åĪ¶
å¼¹ å¤´
åıĭ äºº
çªģ åıĺ
èĩªçĶ± æĦıå¿Ĺ
ç±į è´¯
çĲĥéĺŁ åľ¨
äºĮåįģ ä¸ĥå¹´
1æľĪ 5æĹ¥
11æľĪ 4æĹ¥
éª¨ å¤´
ç»Ĩèĥŀ çļĦ
æĿĤå¿Ĺ çļĦ
æĬĺ è¿Ķ
è¿Ľä¸ĢæŃ¥ çļĦ
ĠM e
ç¼ĵ åĨ²
åıĶ åıĶ
åįĩçº§ ä¸º
åłª èĲ¨æĸ¯å·ŀ
æĶ¿æ²»éĥ¨ ä¸»ä»»
éĿ¢2 çº¿çļĦ
å®¾å¤ķæ³ķ å°¼äºļå·ŀ
4 æľĪ26æĹ¥
N ET
åľ¨ æ¸¸æĪı
ä¸Ń éĥ½
æĺ¯ åĮĪçīĻåĪ©
å¤§ åĮºçļĦ
æĹ¶ éļĶ
åħ¶ åĲįç§°
ä½ľ åĩºäºĨ
åĲį èĥľ
ä¹ĭ ä½į
è¥¿ å±±
æĿ¥ çº³å·ŀ
åįĹ äºļ
åįĹ éģĵ
ç¾İ åŃ¦
äºļ çĳŁ
æīĢ ä¸º
ä¹Ł éĥ½
äººåı£ ä¸ºäºº
ä½įäºİ ç¾İåĽ½
éĹ¨ åºĹ
æĮĩ æ´¾
æµģ ä½ĵ
æĶ¶ åħ»
åĪĽ ä¼¤
è®¤ä¸º åħ¶
èĩ´ æŃ»
èİ± æ¯Ķ
éĺ² æ²»
èĭ±åĽ½ äºº
çĶµè§Ĩ é¢ĳéģĵ
éĻĪ æ°´æīģ
æ£® çī¹
åģľ äº§
é¢Ħ æĬ¥
ä»ĸçļĦ åĲįåŃĹ
è¿ľ æ´ĭ
éĤ¦ çļĦ
7æľĪ 4æĹ¥
5æľĪ 11æĹ¥
æī¾ åĩº
ä¸ľåĮĹ ä¸İ
å°ıæĹ¶ åĢĻ
å½ĵä¸Ń åĮħæĭ¬
2007å¹´ äººåı£
188 6å¹´
ä¹Ŀé¾Ļ å·´å£«
å¾Īå¤§ ç¨ĭåº¦ä¸Ĭ
å¤§éĺª åºľ
æ³Ħ éľ²
åħ«è¾¾ éĢļ
1 æľĪ25æĹ¥
4 æľĪ16æĹ¥
æľ ½
åľ¨ çĶµå½±
æĺ¯ åīį
æī Ķ
æľī ä¸¤ç§į
åĴĮ S
ä¸Ĭ åŃ¦
åıĳ åħī
ç¬¬ 23
é¢ Ĳ
è¿Ļ ä¸İ
å¼Ģ åħ³
å£ ķ
ç¾İ é¾Ħ
åĪ¶ å¾Ĺ
éĢļ é£İ
åĮĸ èº«
åĬĽ å£«
çģ ¸
åİĨ å±Ĭ
åıį åħ±
æłĩ æ³¨
ç¬¬äºĮ ä»»
æ²Ļ æ»©
ä¸ĥ äºº
æĿĢ éĿĴ
æīį æľī
ä½Ľ åĥı
åĢ¼ çļĦ
åı³ æīĭ
re et
éĢļå¸¸ çĶ±
äºĨä¸Ģ æ®µ
åĽ½æ°ĳ è®®ä¼ļ
ç£ Ĳ
4æľĪ 4æĹ¥
çĶ·åŃĲ åĽ¢ä½ĵ
éľį åįİå¾·
èµŀ èªī
æĺ¾ç¤º åĩº
çĲĨè®º çļĦ
2005å¹´ äººåı£
å¤§çº¦ æľī
çļĦå½±åĵį åĬĽ
yĠ L
ĠH e
Ġ195 4å¹´
Ġ193 8å¹´
åľ¨199 9å¹´
åıĳåĶ® çļĦ
å¡« è¡¥
åĪĨéħį åĪ°
ain t
çŃ¾è®¢ äºĨ
Ġé¦Ļæ¸¯ æĹ¶éĹ´
å¼Ģå¹ķ å¼ı
æµıè§Ī åĻ¨
1 æľĪ28æĹ¥
4 æĹ¶
4 æľĪ2æĹ¥
5 æľĪ16æĹ¥
5 æľĪ23æĹ¥
C G
Ġ æ¬§
Ġ ä¿±ä¹Ĳéĥ¨
çļĦ ä¹¡
çļĦ åķĨä¸ļ
ä¸Ń ä¸º
ä¸Ń å¤ĸ
ä¸Ĭ åıĳè¡¨
ä¸İ çİĭ
ä¹ĭ ä½ľ
å¹¶ ä½¿çĶ¨
éķ¿ åı²
ä¹Ł åĮħæĭ¬
åı° å±±
ä½Ĩ ä»įçĦ¶
å£« æ°Ķ
åİŁ çīĪ
çº¦ åľ¨
åį¡ èĲ¨
åŀĭ çĶµåĬĽæľºè½¦
æĺŁ åĽ¢
æĮģ ä¹ħ
11 æľĪ21æĹ¥
æ¹¾ åĮº
è½¬ å½ķ
æ³ķåĽ½ å¤§éĿ©åĳ½
å¤± æķĪ
ç»ĥ é©¬
9æľĪ 8æĹ¥
è°· åı·
æĻĭ èº«
ä¸»æķĻ ä¸º
é¢Ĩå¯¼ å°ıç»Ħ
å¸® å¿Ļ
å¥ī è¡Į
ãĤ ¯
æģ¢å¤į äºĨ
ä¸īåįģ åħŃå¹´
çļĦä¸» å¼ł
od el
ç§¦ åĽ½
åĭĩ æ°Ķ
äºĳåįĹ çŃīåľ°
ä¸Ĭæĺł çļĦ
TV B
åĬ³åĬ¨ åħļ
è¾¨ è¯Ĩ
åĵĪéĩĮ åıĳ
çīĽæ´¥ å¤§åŃ¦
ç¾Ł åŁº
7 æľĪ21æĹ¥
T eam
o ad
z z
ï ¸
Ġ å®ĭ
Ġ 2026å¹´
çļĦ æľĢä½³
çļĦ è®°å½ķ
çļĦ éĢīæīĭ
çļĦ å¨ģèĥģ
å¹ ¡
ç» ¶
éĺ ±
ä¸İ ç»ıæµİ
ä»ĸ æĽ¾åľ¨
åĪĨ æĭĨ
ä¸ĭ è¾¾
å¤ļ å¾·
åįĹ éĺ³
çŃī åľ°çļĦ
ç«Ļ ä¸º
éŁ ¬
10 æľĪ13æĹ¥
æ¡ ©
éĥ½ å°Ĩ
è¾¾ å§Ĩ
æ°´ åİ¿
éĩĳ æĺŁ
åĪĻ ç§°
æ²³ ä¸Ĭ
æ¢ ³
éª Ħ
ç¬¬ä¸Ģ åľº
æ°Ķ æµģ
15 äºº
èħ ¥
é²ģ çī¹
çĹħ æĥħ
çĻ¾ ä½Ļ
çĬ¶ åħĥ
èĴĻ åĵ¥
æī¿ åĬŀ
st e
ç«¯ çĤ¹
é¡º å¤©
éĽĦ é±¼
ãĢĭ( ).
äºĨä¸Ģ åĲį
éŁ¦ åħĭ
5æľĪ 4æĹ¥
1æľĪ 4æĹ¥
çĤ¸ èį¯
ä½įç½® æĺ¯
å·¥ä¸ļ éĥ¨
2æľĪ 8æĹ¥
å¥ī çĮ®
æĪĪ çĻ»
åĢĴ æķ°
åĢĴ éĹŃ
å®¿ ä¸»
188 9å¹´
eĠ P
ĠM c
æµħ äºķ
å¥ĳ ä¸¹
åĦĴ å®¶
å¼ĹæľĹ ç´¢çĵ¦
åħ¶å®ŀ æĺ¯
1 æľĪ22æĹ¥
4 æľĪ21æĹ¥
A X
Ġ åı¦ä¸Ģæĸ¹éĿ¢
çļĦ äººçī©
å¹´ åı·
æĺ ķ
ä¸Ń åĮº
ä¼ļ åĩºçİ°
å®¶ åĴĮ
ä¸ĭ åı°
ä¸ĭ åįĬå¹´
ä¸ľ æĻĭ
çŃī å¤Ħ
å² Ķ
åľº æ¬¡
å¤© ä¸»
çº¿ æĿ¡
å®ī åĵ¥æĭī
æģ º
æĢ» éĿ¢ç§¯ä¸º
çĽ¸ ä½į
èĭ± ç¾İ
å·´ æĸ¯åħĭ
ç¾İåĽ½ åĽ½ä¼ļ
äº¤ åĩº
12 æľĪ21æĹ¥
ä¸ĩ éĩĮ
åıį ä¹ĭ
ç¿ Ł
æĿ¡ è§Ħå®ļ
äºī éľ¸
éĽ· çī¹
è¯ģ äºº
è¡ĮæĶ¿ ç®¡çĲĨ
çīĮ çħ§
ç»ıæµİ åŃ¦å®¶
ç²¾ åį«
æĪĲåĳĺ ä¹ĭä¸Ģ
åĲ¯ èĴĻ
åĤ Ģ
ou g
6æľĪ 3æĹ¥
åħħ çĶµ
ä¸Ŀ ç»¸
çº² é¢Ĩ
ç§Ł éĩĳ
åĪĨéĴŁ åĨħ
è±ª æĸ¯
æ®ĭ éħ·
ĠS m
ĠL ive
åįģåŃĹ æŀ¶
çļĦæĶ¯æĮģ çİĩ
ç¨į åĲİ
ber g
ç¨Ģ å°ĳ
çĽ¸éĤ» çļĦ
é¥¥ èįĴ
åĽ½ç«ĭåı°æ¹¾ å¤§åŃ¦
ä¸ºçĥŃå¸¦ æ·¡æ°´é±¼
6 æľĪ23æĹ¥
a ir
Ġ r
Ġ éĿŀ
ä¸º 8
ä¸Ģ ä¾§
æĸ¯ è¾¾
ä¿ ¾
èĥ ±
åŃĲ å®«
èİ ½
ä¹Ł è¦ģ
å¤ĸ åĩº
å¤ĸ å½¢
é©¬ çļĦ
10 æľĪ2æĹ¥
éĻ¢ çļĦ
åįİ æĸĩ
å·´ å¾·
å·´ å°ĶçļĦæĳ©
æĽ¾ çĶ¨
ä½įäºİ åįĹ
å§ĭ ç¥ĸ
åĪĻ ä¸İ
æ¸ħ åĪĿ
å¼ķ çĪĨ
æ²¡æľī è¢«
çĵ¦ éĩĮ
åĦ ¡
èİ± æģ©
çıŃ çº§
ç¤¾ä¼ļ åŃ¦
ä½ľåĵģ æľī
æŃ£å¼ı æĪĲä¸º
is m
çĶŁæ´» äºİ
è½® å»ĵ
éĩįè¦ģ æĢ§
25 æĹ¥
éĢīä¸¾ ç»ĵæŀľ
åĽ½æ°ĳ å¤§ä¼ļ
ä¸ĢèĪ¬ æĿ¥è¯´
ç¬¬åĽĽ åŃ£
2æľĪ 6æĹ¥
æ¸¡ è¿ĩ
éģ£ ä½¿
Ġ195 5å¹´
Ġ195 6å¹´
èħ¾ åł¡
åĪĽå»º äºĨ
ä¸īè§Ĵ æ´²
æĤ² ä¼¤
æ¶µçĽĸ äºĨ
å¥¥åı¤ æĸ¯
éĦĤåĽ¾æĽ¼ å¸ĿåĽ½
äºļçī¹åħ° å¤§
" )ãĢģ
9 æľĪ14æĹ¥
B e
i us
å ¶
Ġ éĽ·
çļĦ ä½ľèĢħ
çļĦ çľŁå®ŀ
åľ¨ æĹ¥
æľī çĤ¹
åĴ İ
ä¸į åłª
æ³ķ å±ŀ
è¢« çĶ¨ä½ľ
æ°ĳ å±ħ
å¤ļ ä»¥
èĩª æ°ĳåħļ
å¼Ģ åľº
çŃī ç«Ļ
åı° è¯į
é©¬ ä»Ģ
è®¾ ä¸º
éĩį åĽŀ
éĩĳ å¸ģ
å¨ ĩ
æĻ® åħ°
äºĶ ä½į
æ´» å¡ŀ
åħī æ»ĳ
éļı æĦı
åįĩ çıŃ
æİĴ æ°´
å¡ŀ åĨħ
at er
æ³° åĿ¦
çľŁ ä¸»
ç¯ ¡
éĢģ åĽŀ
è¿ĻäºĽ äºº
åªĴ ä»ĭ
9æľĪ 4æĹ¥
9æľĪ 12æĹ¥
8æľĪ 18æĹ¥
ãĥ ª
æĸ°éĹ» åıĳå¸ĥ
Ġ197 2å¹´
åĪĽåĬŀ äºĨ
æĦıä¹ī çļĦ
å®ŀéĻħä¸Ĭ æĺ¯
æĶ¶è´Ń äºĨ
éĺĶ åı¶
å½¢å®¹ è¯į
å¢ĥåĨħåħ±æľī åĲĦç±»
æİł å¤º
çī¹åĮº æĶ¿åºľ
å±¡ æ¬¡
æĶ¹ç»Ħ ä¸º
"ãĢģ "
èĢĮè¯¥åľ°æľĢé«ĺçĤ¹ä¸º æµ·æĭĶé«ĺåº¦
3 å¹³æĸ¹åħ¬éĩĮ
L P
Ġ j
Ġ åĪ©çĶ¨
çļĦ éĵģè·¯
ãĢģ âĢľ
ä¸Ń ç¾İ
å¤§ åĽ½
ä¼ļ æīĢ
ä¸İ åĮĹ
åĨĽ åĪĨåĮº
è¢« æīĵ
çī¹ äºº
æīĢ äº§çĶŁçļĦ
åĨħ åŃĺ
è¿Ľ åĪ¶
èµĽ åīį
çŃī åĪ°
å°Ĩ ä»ĸä»¬
æĭī æ¯Ķ
è° ¤
å¤ĸ å¢Ļ
å¸ĥ éĩĮäºļ
èģĶ æĺŁ
éĤ º
åİŁ èĳĹ
é¦ĸ æ¼Ķ
å¤Ħ ç½®
ç¤¾ çļĦ
ä¼Ĭ åĬª
ar g
æ±Ĥ åŃ¦
ç¤¾ä¼ļ ç§ĳåŃ¦éĻ¢
å¾ģ è®¨
çľĭ å®Ī
åģļ åĪ°
re g
èī¾ èİī
æĻļ æĬ¥
æ¬¾ é¡¹
ä¼ĳ æĸ¯
åįıä¼ļ çļĦ
2æľĪ 7æĹ¥
æ¿Ģ æĪĺ
çŁ¿ äº§
åįĸ ç»Ļ
å¡ĳ èĥ¶
èĥİ åĦ¿
éĢĢä¼ĳ åĲİ
çº§åĪ« çļĦ
æĹ¥å¸¸ çĶŁæ´»
iel d
Ġé¦Ļæ¸¯æĹ¶éĹ´ éĢ¢æĺŁæľŁ
åĤĢ åĦ¡
4 å¹³æĸ¹åħ¬éĩĮ
5 æľĪ14æĹ¥
7 æľĪ27æĹ¥
åľ¨ 2023å¹´
åľ¨ åı°åĮĹ
ä¸º èĥĮæĻ¯
äºº ç§į
åĴĮ æķĻèĤ²
æ² ®
æĪĲ åĲīæĢĿ
ä¸ª æ¡Ī
ä¸İ è¥¿
ä¸į æĹ¶
åħ¬ è®¤
èĢĮ ä»ĸ
éķ¿ éĩİ
æĸ° å¸Ĥéķĩ
ä¸ľ ç»ı
æīĢ ç½ĹéĹ¨
èĩ³ 2013å¹´
çŃī å¤ļ
æľº çİĩ
ä½Ĩ æľªèĥ½
ç§ĳ ä¸ĭçļĦä¸Ģä¸ªå±ŀ
å®ī æģ¯
èģĶ åĲĮ
åİ¿ ç«ĭ
18 ä¸ª
ä½įäºİ æĹ¥æľ¬
202 5
åŀĭ æľºè½¦
11 æľĪ22æĹ¥
11 æľĪ13æĹ¥
ç¥ŀ åĥı
äººæ°ĳ çļĦ
åįĥ ä¸ĩ
é»ĳ çĻ½
æŀģ åħ·
å¯Ł è§ī
æ¥¼ å±Ĥ
è¯į æĽ²
æĥ³ è±¡
èĢ¶ ç»´å¥ĩ
æ²ĥ æĸ¯
10æľĪ 8æĹ¥
æķ£ éªĳ
1æľĪ 19æĹ¥
2æľĪ 4æĹ¥
æ¿Ģ åĬ±
åı¸ä»¤ å®ĺ
çİ©å®¶ åı¯ä»¥
éĺ¶æ®µ çļĦ
åĳ³ éģĵ
éĽ¶ æĹ¶
è£Ķ ç¾İåĽ½
æĥĬ æĤļ
æŃ¦æ±ī å¸Ĥ
éĵŃ æĸĩ
æ±ª ç²¾åį«
èĻ¹ æ¡¥
çĭŃ ä¹ī
ire ct
éĶħ çĤī
å¡ŀæµ¦ è·¯æĸ¯
1 åĪĨ
5 äº¿
9 Ġ
è ĺ
Ġ åıĮ
Ġ ä½ĵèĤ²
çļĦ åĳ½ä»¤
ä¼ ¶
ä¸Ģ å¤§
åħ¶ ä¸»
ç¬¬ 19
è¢« æİ§
æ± ²
èĩª åį«éĺŁ
å¼Ģ åĩº
åįĹ è¾¹
è¯¥ çī©ç§į
å±± ä¹¡
200 4
å®ī çļĦ
æ°´ åĴĮ
éĩĳ æľĿ
æĮĩ ç§°
æ´» ä½Ľ
æĶ¾ åħ¥
æ³¢ ç¾İæĭī
çłĶç©¶ ä¼ļ
ar s
æĬķ æİ·
è¾¹ éĺ²
å®¢ äºº
å¸Ń æ¬¡
æ¹ĸ åĮº
è½¦ç«Ļ ç¼ĸåı·ä¸º
é»ĳ æ£®
æĸĩåĮĸ éĥ¨
è´¥ äºİ
åĪ¶ä½ľ åħ¬åı¸
æĹ§ ç§°
æĸŃ ç»Ŀ
ä¼ĺ èĥľ
åĶ® ä»·
é³ ħ
000 Ġ
å¼Ģåıĳ åķĨ
åŃĻ æĿ¨
è´¢ çī©
åĨĽäºĭ å§Ķåĳĺä¼ļ
çİ°ä»£ çļĦ
åģı åĲĳ
è¿İ æĪĺ
å·´å£« ç«Ļ
éĴ¢ çŃĭ
æĤ£ èĢħçļĦ
åľ°çĲĥ ä¸Ĭ
Ġ197 3å¹´
å°ĸ æ²ĻåĴĢ
ä½įäºİæ³ķåĽ½ å¥¥å¼Ĺæ¶ħ
éĢĿä¸ĸ åĲİ
è´ŀ è§Ĥ
åľ°åĽ¾ ä¸Ĭ
èĥ¸ éĥ¨
çİ°ä»Ĭ çļĦ
ä¸ľä¸´ ä¸Ĭ
åĲĦèĩª çļĦ
æĬĵ ä½ı
æĺ¯è¥¿çıŃçīĻ åį¡æĸ¯èĴĤåĪ©äºļ
å¸¸ä½ı äººåı£
åĲ¸è¡Ģ é¬¼
æŀĹéĥĳ æľĪå¨¥
æĸ°å¢ŀå¢ĥå¤ĸè¾ĵåħ¥æĢ§ æĸ°åĨłèĤºçĤİç¡®è¯ĬçĹħä¾ĭ
0 äºº
1 æľĪ17æĹ¥
4 æľĪ13æĹ¥
y d
Ġ å®ĹæķĻ
çļĦ èµ·æºĲ
ä¸Ģ æľ¬
ä¸Ń æł¡
åĲİ è½¬
åĬł å¤§
ãĢĮ ãĢį.
æīĢ èĩ´
å±± æľ¬
éĵ ²
å®ī åºĨ
åİ¿ è´Łè´£ç®¡è¾ĸ
éĺ¿ æĽ¼
æĹł æķ°
æ¸¸ è¯´
æ´» åĬĽ
å¤§åŃ¦ åŃ¦ä¹ł
ä¼Ĭ æĸ¯åĿ¦
å¤į æĹ¦
å±ħ å§Ķä¼ļ
çĵ¦ è¥¿
å¸Į å¾·
å¾Ī å°ı
é±¼ çĽ®
at es
æ½ ¼
æ´ĭ è¡Į
åĽłä¸º ä»ĸä»¬
èī¾ åĪ©æĸ¯
ou th
çİī çİ¯
2æľĪ 20æĹ¥
åĬŁèĥ½ çļĦ
çıł æ±Ł
av a
è§Ĥæµĭ åĪ°
IV E
ç´¢å§Ĩ çľģ
æĪĲåĲīæĢĿ æ±Ĺ
1 æľĪ26æĹ¥
4 æľĪ23æĹ¥
8 æľĪ22æĹ¥
åľ¨ åĲİ
ä¸º çİĭ
æĺ¯ åĬłæĭ¿å¤§
å¯ °
éĻ ĭ
æĪĲ ä»½
å¹¶ è¿Ľè¡Į
åĪ© ç»´
ä½Ĩ äºİ
å¤© åĨħ
ä¸¤ åĪ¶
åİ¿ å§Ķ
åħ³ å²Ľ
åįİ å°Ķ
å¥³ çļĩ
12 æľĪ23æĹ¥
åĪĻ å°Ĩ
ä¸¾ æĬ¥
æĶ¯ æŁ±
åıĸ ç¼Ķ
æľª æĽ¾
åħī çĶµ
å®¹ ç§¯
æİĴ æĸ¥
å¡ŀ åħĭæĸ¯
30 ç±³
14 äºº
ä»ħ èĥ½
éĿ© æĸ°
éĻĦ æľī
è¿ľ è¿ľ
ç®Ĺ æĺ¯
åį¢ åį¡æĸ¯
ç»Ŀ å¤§éĥ¨åĪĨ
re m
éľĢè¦ģ çļĦ
24 æĹ¥
3æľĪ 5æĹ¥
çļĦäºº æķ°
ing s
ä¾µ åħ¥
2æľĪ 12æĹ¥
æ¨ª åĲĳ
èĴĻåı¤ åĽ½
éĥ¨éĹ¨ çļĦ
ç©ºåĨĽ åŁºåľ°
äºİ198 3å¹´
Ġ196 8å¹´
éĩĮæĸ¯ æľ¬
ä¸ĬåįĪ 9æĹ¶
å¨ĥ å¨ĥ
ä¸»åĬŀ çļĦ
æĸ© é¦ĸ
å¤§çĲĨ çŁ³
ĠåıĤèĢĥ èµĦæĸĻ
æĸ°å¢ŀæľ¬åľŁ æĸ°åĨłèĤºçĤİç¡®è¯ĬçĹħä¾ĭ
2 åĪĨ
7 æľĪ24æĹ¥
D F
Ġ å¾·
åľ¨ ç¤¾ä¼ļ
ä¸º 10
äºº è´¨
ç§ ĥ
éĻ Ľ
ä¸Ĭ åı°
åıĳ ä½ľ
åĲį å°Ĩ
å¿ Ĵ
èĭ ŀ
åīį åĪĹ
åīį æĢ»ç»Ł
ä¸ľ è¾¹
ä¹Ł æĹłæ³ķ
å² ¬
å±± å§Ĩ
ç§ĳ ç´¢
éĩį äºİ
åİ¿ åĨħ
ä¸ŃåĽ½ ä¼łç»Ł
çİĭ å®¶
12 æľĪ14æĹ¥
æīĭ åĬ¨
ä¿Ŀ æľī
æµģ å¤±
æł¡ åĨħ
or p
è®º çĤ¹
ä¿¡ ä¸Ń
äººæ°ĳ æ£Ģå¯ŁéĻ¢
çĻ½ æ²Ļ
åįĥ éĩĮ
æ±ī è¯ºå¨ģ
16 å²ģ
åıĳå±ķ ä¸º
å°Ħ ç®Ń
æ¡¥ å¤´
æŃ£å¼ı åĩºéģĵ
å¾·åĽ½ äºº
æĶ¯æĮģ ä¸ĭ
50 äºº
çļ® äºļ
åĪĩ æį¢
10æľĪ 9æĹ¥
5æľĪ 30æĹ¥
éľ² è¥¿
çİ¯å¢ĥ ä¿ĿæĬ¤
ri v
éĴ± å¸ģ
èĨ ³
æģ¶ æĦı
é©¾ å´©
ut ion
æ³¡ æ²«
ĠåıĤèĢĥ æĸĩçĮ®
å¼ĢæĻ® åĭĴ
è¶³åĪ© ä¹ī
æķħå®« åįļçī©éĻ¢
1 èĩ³
9 åħ¬éĩĮ
Q L
åĲ µ
æĺ¯ çĽ®åīį
æĹ¥ åŃĲ
åľ° è¯´
åŁ ¼
è¥¿ èĩ³
èĢĮ å¯¼èĩ´
è¢« åĪ¤å¤Ħ
èİ Ĵ
ä¸ľ å¾ģ
åĽł ä¸İ
ä¹Ł éļıä¹ĭ
éĥ½ çĶ±
ä¼ł è¨Ģ
11 1
åĩ» æ¯Ļ
æĬ¥ ç«ł
ä¼Ĭ æ¯ĶåĪ©äºļ
é¾Ļ çľģ
çĵ¦ å¤«
èİ± å°Ķ
å»ºçŃĳ çļĦ
è¾ĸ å¢ĥ
åģľ åĪĬ
çľĭ ä¼¼
æĪ· ç±į
çªģ åĽ´
le t
èµ° ç§ģ
éº¦ éļĨ
è¿½ éĢĲ
å®¡ æł¸
å®¾ é¦Ĩ
æĭĽ æłĩ
æ½® å·ŀ
èº«ä»½ è¯ģ
æµª æ½®
ç¥Ń åħ¸
åĩłä¹İ æīĢæľī
ä¾į ä¸Ń
è¿Ī åħĭ
ä¸Ģå¸¦ çļĦ
äºİ197 5å¹´
åľ¨199 7å¹´
å¤ĸåĽ½ è¯Ń
ä¾¨ æ°ĳ
åĲīå°Ķ åĲīæĸ¯
ç»´èİ± è®·
åĻª éŁ³
å¨ģæĸ¯ åº·
1 æľĪ23æĹ¥
B ill
S R
äºº ä¹ĭ
è¾ Ĺ
åĩº äº§
æİ ¸
åĲį åŃ¦çĶŁ
å®¶ åħ·
æĮ ł
çİ° æķĪåĬĽäºİ
è¡¨ æī¬
æľº ä¸Ĭ
å±± å½¢
ä½Ĩ å¯¹
ä½Ĩ è¿ĻäºĽ
ä¸¤ è¾¹
æ¡ ħ
æıĲ æĸ¯
éĺ¿ çĻ»
åĽĽ æĸ¹
åĪĹ ä¸¾
åĲĳ ä¸ĭ
æĽ¾ ä»¥
æĽ¾ åıĤåĬł
çĤ¹ çĲĥ
å®ĺ åĥļ
åı¤ æĭī
å°ĳ äºİ
æĶ¶ åĪ°äºĨ
åĪĴ èīĩ
çĵ¦ å°¼
å¢ŀ å¤ļ
é»Ħ æĺı
åĽ´ åŁİ
å·Ŀ æĻ®
is e
ä¸ģ å¿§
ç¬¬ä¸ī è½®
èĮ¨ åł¡
2æľĪ 18æĹ¥
è°Ī è®º
åĿļ åĽº
æī§è¡Į éķ¿
çĲĨè®º ä¸Ĭ
189 3å¹´
æ½® æµģ
ä¼Ł å¤§
ç½ĳç«Ļ ä¸Ĭ
Ġè½¦ç«Ļ åĳ¨è¾¹
åŃ¦æľ¯ çķĮ
æĹłäºº è½¦ç«Ļ
éĩĳçīĮ å¾Ĺä¸»
æĥħæĬ¥ å±Ģ
é©¬éĩĮ åħ°å·ŀ
çļĦåĲİ è£Ķ
åĪĿçº§ ä¸ŃåŃ¦
åĲīä»ĸ æīĭ
è§ħ é£Ł
2 3å¹´
2 æľĪ15æĹ¥
A b
A g
D OS
Ġ åħ«
Ġ is
Ġ æľ±
çļĦ èĥľåĪ©
ä¸Ģ ç¯ĩ
è¢« åĽ½éĻħ
è¿Ļ æĶ¯
æĸ° ä¸ĸ
éĶ Ĥ
å¹¿ åŁŁ
11 æľĪ16æĹ¥
in es
åī§ çĥĪ
éĿŀ çī©è´¨
ç¬¬ä¸Ģ ä¹¦è®°
æŃ¦ å®Ĺ
è®¤ä¸º è¿Ļæĺ¯
èĪª èĪ°
èŃ¦ æĪĴ
åĵ¥ å°Ķ
åħ±åĴĮåĽ½ çļĦ
èĹı äºİ
ç«ŀ éĢĲ
éĿ©åĳ½ å§Ķåĳĺä¼ļ
2æľĪ 9æĹ¥
å¥Ĺ ä»¶
ç¬¬åįģ åħŃ
å¹¼ èĻ«
äººä»¬ å¯¹
æĺ¯ä½įäºİç¾İåĽ½ ä¿Ħäº¥ä¿Ħå·ŀ
äºİ197 0å¹´
ä»ĩ æģ¨
æ¸¸æ³³ è¿ĲåĬ¨åĳĺ
åĪ¶çīĩ åİĤ
èµĮ åįļ
æŃ¼ çģŃ
æ²¦ éĻ·
åŃµ åĮĸ
å¸ĥè¾¾ ä½©æĸ¯
æĻ®æľĹ åħĭ
æ±Ŀæĭī çľģ
å®ĪéĹ¨ åĳĺ
æľ±åħĥ çĴĭ
6 æľĪ14æĹ¥
7 æľĪ2æĹ¥
Ġ åıª
Ġ æ¯ı
çĶ ¥
è¯ ħ
ä¸Ń è¥¿
ä»¥ åĨħ
ä¸İ ä¸ľ
åı¯ åı¯
èĩ³ 2018å¹´
çĶµ ç¼Ĩ
ä¹Ł è®©
é©¬ èµ«
å±± éķĩ
åŁİ ä¹¡
èĭ± æ³ķ
ä¹Ĳ éĺŁçļĦ
å¹¿ ä¸º
æĺŁ åħī
éĽĨ èµĦ
ç¤¾ åĮºçļĦ
æł¡ åĿĢ
ç©º éļ¾
åı¤ åĿŁ
é¾Ļ éĹ¨
è¡¨ç¤º èĩªå·±
å±Ĥ çº§
åı¶ åŃĲ
éľĢè¦ģ åľ¨
æĳĦ æ°ı
ä¸ĵè¾ĳ æ¦ľ
æ¿ ł
äºĮåįģ åħ«
åĸľ é©¬æĭīéĽħ
4æľĪ 12æĹ¥
è§ī éĨĴ
éĥ½æĺ¯ çĶ±
2æľĪ 5æĹ¥
St eam
èĦī åĨ²
èĽĭ ç³ķ
åĪĨéĴŁ çļĦ
æµ¦ æ±Ł
åľ°çĲĥ çļĦ
é½¿ è½®
ĠA ll
éĽĨä¸Ń äºİ
Ġ195 1å¹´
Ġ193 1å¹´
åįĹåĮĹ åĲĳ
å¼¥ è¡¥
å¸Ĳ æĪ·
çĦļ çĥ§
è¯Ī éªĹ
è¿Ħä»Ĭ ä¸ºæŃ¢
5 æ¯«ç±³
7 æľĪ13æĹ¥
B N
C T
S K
l ine
t d
Ġ Q
Ġ æ³¢
Ġ åıįåºĶ
Ġ åĮ»çĸĹ
çļĦ è¯Ħè®º
çļĦ æĿ¡ä»¶
æĺ¯ æ¬¡
æľī å¤§
åĴ ¤
åĴĮ å®ī
åŃ¦ æľŁ
ä¸į åĩº
ä¸į å¥½
ä¸į å±ŀäºİ
æµ· äºĭ
æŃ¤ ä¸º
æŃ¤ ä¹¦
äºĭ åħĪ
ä¸ī çľģ
ä¸ī ç»´
ä¹Ł ä¸įä¼ļ
å°ı éº¦
ç§ĳ ç»Ļäºĭä¸Ń
éĩĳ çĲĥ
åĲĳ ä¸ľåĮĹ
ç»ĵ ä¸º
ç®¡ æ²»
å±ķ åİħ
åİ» å¹´
ä»ĸä»¬ å°Ĩ
å¤į åİŁ
åįı çº¦
ä¿® çĲĨ
çİ¯ çº¿
æĶ» çł´
ç³»ç»Ł åĴĮ
çĥŃ çĪ±
è®¾è®¡ åĴĮ
ç§» äº¤ç»Ļ
æī¿ å»º
éĹ®é¢ĺ ä¸Ĭ
re e
åŃĻ æĸĩ
æľīéĻĲ è´£ä»»
ç»¿ åĮĸ
å®ľ è¯ºæĸ¯
éĻ¶ åĻ¨
åĲįåįķ ä¸Ń
eĠ R
ĠP ar
äºİ198 0å¹´
æµ® éĽķ
æ³¨æĦı åĬĽ
åĸĢ ä»Ģ
ç¨į å¾®
ä¸Ģçº§ æĸ¹ç¨ĭå¼ı
åħ¬å®ī éĥ¨
æİ¢éĻ© å®¶
å§¿ åĬ¿
åĿŁ å¢ĵ
éķ¶ åµĮ
åĮ¿ åĲį
æī¹å¤į åĲĮæĦı
éĳ «
1 æľĪ27æĹ¥
4 æľĪ24æĹ¥
D E
Ġ 27
çļĦ ç§°åı·
è¯ ĥ
åĽ½ å¤§
éĻ Į
åĲİ ä»¥
åĪĨ æ®µ
å¹¶ æĮĩåĩº
è¢« åĬ¨
ä¸ī åĪĨ
å¦ Ĭ
äºĮ æĪĺåĲİ
ç½Ĺ ä¼Ĭ
å°¼ æĺĤ
è¯Ń æĶ¯
åı² åŃ¦
æĹł æľº
éĹ¨ æĪ·
åıĸ èĢĮ
ç¥ŀ åŃ¦éĻ¢
å¹³æĸ¹ åĳİ
è§Ĥ çļĦ
å®£ æī¬
ä¼¯ åĭĴ
å¸Į çī¹
åį« æĸ¯
æĸ½ çĵ¦
èĲ½ éĢī
èŃ¦ åį«éĺŁ
çĻ» è¾ī
çĥŃ çļĦ
éļĨ å¤´
çĽ®åīį çļĦ
æ²ĥ ä¼¦
10æľĪ 6æĹ¥
10æľĪ 3æĹ¥
å®ĭ ç¾İé¾Ħ
åĩºçĶŁ çļĦ
4æľĪ 5æĹ¥
om as
ãģ ĭ
ä¹ĥ æľ¨
ä½įäºİæ³ķåĽ½ ä¸Ĭæ³ķåħ°è¥¿å¤§åĮº
äºİ195 8å¹´
éĩĮäºļ çº³
ç»Ħå»º äºĨ
ç½ĳçĲĥ è¿ĲåĬ¨åĳĺ
ä¸ĳ ç§ĳä¼ļè¯ķ
èĢĲ åħĭ
éģ¥ æİ§
éĿĴå²Ľ å¸Ĥ
å¼Ĺåħ° åħĭ
çĮĽèĻİ ç»Ħç»ĩ
æ»¤æ³¢ åĻ¨
èİ±æ¯Ķ éĶ¡
K BS
i ver
s g
Ġ åıĤèµĽ
çļĦ æ¬§æ´²
ä¸º åįķ
ä¸İ åıĳå±ķ
åĨĽ èĲ¥
å¼Ģ çļĩ
ä¸ī åįģäºĮå¹´
æĪĺ ä¹±
åı£ å¤´
æĢ§ äº¤
çĲĥ èıĮ
çĽ¸ çŃī
å°¼ å¯Ł
00 ä¸ĩ
å¸¸ è®¾
èį Ģ
éľ Ħ
èº« åĲİ
æĹ¥æľ¬ æµ·åĨĽ
åķĨ éĵº
æŃĮ å£°
ç¦» æķ£
èİ·å¾Ĺ åĨłåĨĽ
çłĶç©¶ åıĳçİ°
åħµ é©¬
åİĨåı² æĤłä¹ħ
å¼ķ æ¸¡
ç»Ļ åĩºäºĨ
çĪ± çŁ¥åİ¿
éĺ³ æĺİ
å¤ı å°Ķ
æİĪ è¯¾
ic o
å¼¹ ç°§
åħ¸ èĮĥ
èĵ Ł
èĩªçĶ± æ³³
5æľĪ 19æĹ¥
4æľĪ 9æĹ¥
çĶ³ æĬ¥
åĲ¬ ä»İ
åĲ¬ éĹ»
æŁı æĭīåĽ¾
åħĭéĩĮ åħĭ
ä¹Ļ éħ¸
åįļå£« çĶŁ
ä»Ļ å¥´
ub lic
è¡¡ éĩı
æħĪ ä¾įä¸ĭ
è¡Ķ æİ¥
188 5å¹´
Ġ197 6å¹´
äºİ197 8å¹´
é¦ĸå¸Ń æī§è¡Įå®ĺ
our n
åĵĪéĩĮ æ£®
å½ĵäºĭ äºº
Inst agram
å·ħ å³°
1 æľĪ29æĹ¥
W i
i oĠ
Ġ åº·çĨĻ
çļĦ ä»»ä½ķ
çļĦ æııè¿°
çļĦ åĬ¨ä½ľ
åľ¨ 19ä¸ĸçºª
ä¸Ģ å¥³
çİ ®
ä¸İ éĻĪ
åĲĮ ä¼´
å¼Ģ åŀ¦
æĸĩ å°¼äºļ
ä¸ľ åįİ
è¯¥ ç³»åĪĹ
ç»ı æĸĩ
å·¥ å§Ķ
ä½Ĩ æľĢåĲİ
å®ī åĮº
æ°´ ä¸ĭ
æ°´ æ±ł
éĩĳ èī²
éĺ¿ ç¾İ
åı² é¦Ĩ
è¯´ éģĵ
åĽŀ ä¹¡
æĥħ æĻ¯
å¤§åŃ¦ æł¡éķ¿
åĽ¾ æĭī
æ³¢ éķ¿
en Ġ
è¶ħ åĩº
åĲī ä¼¦çī¹
çİ¯ æµģ
ä¸įåĲĮ æĦı
ä¾¿ äºİ
éĻį è§£
æī¿ åĮħ
éĻĦ è®¾
ä¸ĢäºĽ äºº
æĿ° æĺİ
åĨłåĨĽ èµĽ
ä»Ģ åı¶
ãĢĭ, ãĢĬ
è¯Ńè¨Ģ åŃ¦
åį· é£İ
è¾Ľ æĻ®æ£®
éĶ¡ å®ī
éº» çĥ¦
ä¸ŃåĽ½åħ±äº§åħļ åħļåĳĺ
æħ¢ æĢ§
æĢ§è´¨ çļĦ
åĨľæĿĳ å±ħæ°ĳçĤ¹
æĸ¯æ´Ľ æĸĩå°¼äºļ
çĶŁåŃĺ äºİ
è¯ºæĽ¼åºķ å¤§åĮº
- .
0 åĩ»è´¥
1 æľĪ2æĹ¥
8 åı·çº¿
Ġ i
Ġ çŁ³
Ġ éĺ¿å°Ķ
Ġ æĹħæ¸¸
çļĦ åħ¬
åľ¨ èģĮ
æ² ¸
é«ĺ èĢĥ
åĨħ æł¸
ä¸ī å®¶
ä¹Ł ä»İ
çł ¸
éĩį å¿ĥ
æ¼ ķ
æŃ£ éĢī
æıĲ äºļ
æīĭ èĩĤ
æ²³ åľ°åĮº
èº« æĿĲ
åŃĹ çļĦ
çĿ ¢
å¼Ģå§ĭ äºİ
ä¼Ĭ èİī
ç¼ĸ å¹´
çĻ½ äºĳ
åĵ¥ ç½Ĺå¾·
èĴĻ å¤§
ç´¢ é©¬éĩĮ
ç®¡çĲĨ å¤Ħ
æĬĬ å®ĥ
è´Łè´£ ç®¡çĲĨ
èİ« éĩĮ
åħ¨åĽ½ æĢ§
çļ® è´¨
å·²ç»ı æĪĲä¸º
åľ°æĸ¹ çļĦ
éº¦ åħĭæĸ¯
è®¾æľī 2
åŃĻ å¥³
10æľĪ 12æĹ¥
éĩĬ è¿¦
çļĦå¤§ è§Ħæ¨¡
å°¤ ä¸º
éĻµ åĽŃ
äºļæ´² æĿ¯
äºĭåĬ¡ çĶ±åħ¶
ter tain
éº» éĨī
èİİ æĭī
èµı è¯Ĩ
ä¾į åį«
ä¸įä¹ħ ä¹ĭåĲİ
ĠB ar
Ġ1 Ġ
èµĦäº§ éĺ¶çº§
åī§åľº çīĪ
çĥĤ çķªèĮĦ
è§Ĥèµı é±¼
è§ĨæĺŁçŃīä¸º 5
éĿ¢2 çº¿
5 æľĪ29æĹ¥
L O
Î ¼
ç ¸
Ġ æ´»åĬ¨
åľ¨ èĭ±æł¼åħ°
ä¸Ģ éĹ¨
è¯ °
è® ¶
åĴĮ C
åĴĮ å¤ļ
åĲİ æĶ¹ä¸º
éĥ¨ æĹı
ä¸į ä¿Ĺ
ä½ľ æ³ķ
çĶŁ åľ¨
ä¸ĭ æ»ĳ
å¼Ģ åħĥ
å¾· æĸĩ
å¾· éĽ·
åĮĹ æĿ¡
æīĢ è¯´
æľº ç¿¼
å®ī å¸Ĥ
åħ³ æĢĢ
èµ· åĽł
é¦ĸ åįķæĽ²
åıĤ èµŀ
11 æľĪ29æĹ¥
åĽ½å®¶ åħĥé¦ĸ
åİĨåı² æĸĩåĮĸ
æİ¨ è®º
ç»§ æ¯į
çĻ¾ å¤§
çīĮ åŃĲ
åģľ ç«Ļ
è¶³çĲĥ æ¯ĶèµĽ
ä¸ĵè¾ĳ çļĦ
éľį æģ©
åĢŁ åĬ©
è¯¾ é¢ĺ
è®¢ éĺħ
éĵľ åĥı
ä¸Ģæł· çļĦ
èĥĮæĻ¯ ä¸ĭ
èĦļ ç±»
éĻ· éĺ±
è¿Ļæł· åģļ
æĺ¯åĲ¦ æľī
çĥŁ èįī
åĬŀåħ¬å®¤ ä¸»ä»»
æĲ¬ è¿ģèĩ³
æ¬² æľĽ
å©Ĩ ç½Ĺ
é¢ģåıĳ çļĦ
Ġ190 1å¹´
BL AC
èī° éļ¾
é¥± åĴĮ
du ction
æŁĵèī² ä½ĵ
éĺ¿æĭīæĸ¯ åĬł
èĬŃèķ¾ èĪŀ
2 Ġå¹´
4 æľĪ22æĹ¥
4 æľĪ14æĹ¥
S uper
Ġ åĪĿ
Ġ éĢļè¿ĩ
Ġ åĪ°äºĨ
Ġ æĪªæŃ¢
çļĦ ä½İ
çļĦ äº§åĵģ
çļĦ æĿ¥æºĲ
çļĦ ç§ĺå¯Ĩ
çļĦ çħ§çīĩ
æľī 4
æŃ Ļ
åŁ Ĺ
ä¸İ é«ĺ
åĮº éķ¿
åħ¶ å¯¹
è¢« æĭĨéĻ¤
åĲĮ çĲĨ
èĭ Ľ
è¿Ļ ä½¿
åįĹ ç¾İ
æīĢ çļĦ
åº¦ éĩı
è½¦ ä¸Ĭ
ä½¿ ä¹ĭ
ä¸¤ å±Ĭ
æĢ» åħ¬åı¸
æ°´ ç³»
éĺ¿ åħ°
æĹł çķı
äººåı£ åıĺåĮĸ
å®ŀ æĹ¶
ç»´ åĪ©
ç»´ èĮ¨
11 æľĪ14æĹ¥
çīĩ å¤´
å®ĥ çĶ±
ç»Ī ç«¯
èĲ¥ æķĳ
èĲ¨ å°Ķçī¹
æŃ» åĽł
åĬŁ èĩ£
åĲī å§Ĩ
è¯ķ éķľ
åī¯ æĢ»è£ģ
ä½ı æĪ·
çķĻ åŃ¦çĶŁ
ic an
èĴĻ å½¼
ä½Ľ éĻĢ
ä¸¹ ä½Ľ
åĲ¯ å¾·
3æľĪ 7æĹ¥
èĶ Ĺ
å±ħæ°ĳ åĮº
éļıåĲİ è¢«
åĪĨå¸ĥäºİ ä¸ŃåĽ½å¤§éĻĨçļĦ
å·´å£« æĢ»ç«Ļ
45 åĪĨ
åĪĨéĴŁ åĲİ
èļ Ĭ
åľ°ä¸ĭ éĵģ
eĠ T
Ġ197 0å¹´
çĺ «çĹ
åĭĥ åħ°
è¯¥çľģä»½ä¸ºæ³ķåĽ½ è¥¿åįĹéĥ¨
ä¸² æµģ
ä¸Ńåħ±ä¸Ńå¤® æĢ»ä¹¦è®°
é©¾é©¶ åĳĺ
æ³ķåħ°è¥¿ å²Ľ
æ¸ł éģĵ
ä½ľä¸ļ ç³»ç»Ł
æĬĳåĪ¶ åīĤ
YouTube é¢ĳéģĵ
èİ·å¾Ĺä¸Ģæŀļ éĵ¶çīĮ
å¥¥åı¤ æĸ¯çī¹
ä¹Ķæ²»äºļ å·ŀ
åħĸ å·ŀ
æļ± ç§°
tertain ment
çĺ«çĹ ª
2 æľĪ27æĹ¥
3 åĪĨ
3 æľĪ13æĹ¥
U C
w an
Ġ ST
çļĦ æ¯Ķ
è¯ «
æľī å¤§éĩı
æĭ ¢
æĹ¶ å·²
æ² Ĳ
åĩº ä¸º
ä¸į è¿ľ
çĶŁ æŃ»
å¸Ĥ ç«ĭ
å¤ļ åħĭ
å¾· é²ģ
è¿Ľ é£Ł
åħ¥ æľĿ
è¯¥ æ³ķæ¡Ī
åħ± æĮ¯
åħ¨ åİ¿
åħ¨ èģĮ
æķ° ä»¥
æĢ» åħ±æľī
æ°´ æµģ
çİĭ å»º
åı² è¿¹
åĶ ĳ
åį¡ å¤«åį¡
æĮĩ å®ļçļĦ
äºĽ æĹ¶åĢĻ
çĤ¹ çĩĥ
in o
åº§ çļĦ
è£ħ è½½
èĲ¥ éĶĢ
æİ¨ çī¹
å¥ĸ å¾Ĺä¸»
æŃ» ä¼¤
å¢ŀ å¤§
çĶµå½± åħ¬åı¸
åįļ æł¼
çĶ° ç«Ļ
èŃ¦ å®ĺ
åįĬ æķ°
çº¢ èī²çļĦ
æŀģ åĬĽ
ä¸Ńå¤® æĶ¿æ²»å±Ģ
æī¿ è¢Ń
å®« å´İ
è¾Ľ æł¼
è¯¯ è§£
th er
ç»Łä¸Ģ çļĦ
è¿ĲèĲ¥ åķĨ
Ġè¯¥ å°ıè¡ĮæĺŁ
Ġ194 3å¹´
èĥľåĪ© åĲİ
éĥ½ä¼ļ åĮº
äºİ197 2å¹´
åľ¨199 8å¹´
éĺ²å¾¡ çİĩ
çķĻä¸ĭ äºĨ
æĭĸ å»¶
èĥĮé³į ç¡¬æ£ĺ
che m
åħĭä¼¦ åł¡
å®ªåħµ éĺŁ
è¶³æĢ» æĿ¯
äºĳæŀĹ åİ¿
å¼¹éģĵ å¯¼å¼¹
æĲģ ç½®
èĬľ æ¹ĸ
æĸ¯å¾· åĵ¥å°Ķ
æĸ°æ³½è¥¿ å·ŀ
æĸ¯å¾·åĵ¥å°Ķ æĳ©
" "
1 æľĪ14æĹ¥
u ch
Ġ åıĳçİ°
åĴĮ æ¬§æ´²
åŃ¦ å¹´åº¦
åĩº éĿ¢
æ´ Ĵ
ä¸» ä¿®
æ³ķ ç½Ĺ
é¢ ¤
åıĬ å¤§
æĿ¥ åı°
éķ¿ å¥³
å¤ļ å§Ĩ
åĮĹ åĳ¨
å¸ĥ æĭīæĸ¯
é©¬ æł¼
éĢī å®ļ
çĽ¸ å·®
è¯Ń æĹı
æĽ¾ èİ·
ä¿Ŀ ç¦Ħ
åĽŀ æĹı
çĿ Ĳ
ç¼ĸ æİĴ
æŃĮ åī§éĻ¢
å®Į èµĽ
åĻ¨ æĿĲ
åĵĪ è¿Ī
çĵ¦ ä¼¦
äº² æĪļ
æ±ī å¯Ĩ
åĽ´ å¢Ļ
éĿĴ çĿĲ
éħį å¯¹
åĨĻ ä¸º
ä»ħ åī©
çŃĸ éªĳ
åĮĹéĥ¨ çļĦæĿĳåºĦ
ä¸Ńåįİäººæ°ĳåħ±åĴĮåĽ½ æĪĲç«ĭåĲİ
é¡¶ å³°
il m
åħ¶ä¸Ń æľĢ
23 äºº
èľ ¿
æ¯ģ åĿı
å°ĨåĨĽ è¡Ķ
ad d
åĪĨå¸ĥäºİ éĿŀæ´²
åıĳåĬ¨ äºĨ
åĨĪ å±±
In ter
å±ħä½ı çļĦ
èµł éĢģ
ĠA ss
åºĶè¯¥ æĺ¯
äºİ194 1å¹´
äºİ194 4å¹´
éĥĬ éĩİ
ul l
æĬĹè®® èĢħ
ä¸Ģçº§ èµĽ
ä¸Ľ ä¹¦
ï¼ħ .
ä¾Ŀèµĸ äºİ
åīįèº« æĺ¯
igh tĠ
Ge org
å¥¥æľ¬ æµ·é»ĺ
åĬłæĿ¥ æµ·å³¡
èĴĻå½¼ åĪ©åŁĥ
B I
Ġ éĢļå¸¸
çļĦ ä¸ĵè¾ĳ
ä½ ¬
æľī åĪ«
åĴĮ åıĳå±ķ
ä¼ļ çĶ¨
ä¸İ å¼ł
ä¹ĭ åŁİ
æľ¬ å¹´
ãĢį ).
è¯¥ åİ¿
é©¬ åħŃçĶ²
æĢ§ åıĸåĲĳ
ç§ĳ ä¸¾
ç±³ é«ĺ
åİŁ æĸĩ
è¾¾ å¾·
è¾¾ åĪ©çī¹
åħĥ ä»£
äº¤ éģĵ
å®ŀ åľ°
éĹ¨ åīį
11 æľĪ27æĹ¥
åıĸ æĿĲ
å¤ª åĴĮ
äº¬ åī§
åĵĪ éĩĮæĸ¯
çĵ¦ åħĭ
åľ£ äºº
ç»Ļ å®ļ
è¿ĲåĬ¨ åľº
æ±ī ä¹¦
æ²Ļ æĭī
è´Ŀ åĪ©
å²ģ æľĪ
éĻį æ°´
æ¶Ī æķ£
ç®¡çĲĨ åĳĺ
åĪĩ éĻ¤
ä¸¥ è°¨
å¾® çĶŁçī©
æĿľ å°Ķ
çİī å±±
IN E
çļĦä¸» åľº
çļĦä¸» è§Ĵ
æĪªèĩ³ 2020å¹´
åįıåĬ© ä¸ĭ
å±ķå¼Ģ äºĨ
è¶ħçº§ èĭ±éĽĦ
Ġ195 3å¹´
Ġ195 9å¹´
æıĲé«ĺ äºĨ
ä¸Ńåħ±ä¸Ńå¤® æĶ¿æ²»å±Ģ
ç½ĳè·¯ ä¸Ĭ
èģĺ ä¸º
èĬĴ ä»Ģ
æºĲèĩª äºİ
åıĳæĮ¥ äºĨ
å¤¸ åħĭ
æĲŀ ç¬ĳ
1 Ġå¹´
6 ä¸ĩ
6 æľĪ17æĹ¥
A c
e h
t s
Ġ æŃĮæĽ²
Ġ è¿Ļæĺ¯
æĸ¯ å·´è¾¾
åħ¬ åŃĻ
è¢« çĶ¨æĿ¥
æ°ĳ éĢī
åĲĮ æºĲ
å¼Ģ æľº
å¹³ éĺ³
èİ ĵ
æµ· åķ¸
è¯¥ å±Ĭ
å®ļ ç½ª
é©¬ æľ¯
å½± éŁ³
è¯Ń ä¹ī
æĶ¹ å±ŀ
åį¡ çº³
ç¥ŀ æ®¿
æľª èİ·
èĭı çĽĬ
åħĪ å¤©
ä»ĸä»¬ æĺ¯
æļ ®
å¡Ķ æģ©
è¿ĲåĬ¨ ä¸Ń
æĬķ éĿł
åĩĨ è®¸
çļĩ å¤ªæŀģ
èĪ¹ éĺŁ
25 äºº
åĬ³ åĬ¨åĬĽ
9æľĪ 6æĹ¥
é»İ åĬł
è¯Ńè¨Ģ åŃ¦å®¶
ä»»ä½ķ äºº
4æľĪ 11æĹ¥
çĤ¸ æ¯ģ
èĸ °
2æľĪ 19æĹ¥
å¸Ĥåľº ä¸Ĭ
åģı åįĹ
å¤ªéĺ³ ç³»
æĺĤ è´µ
è®°å½ķ äºĨ
åİŁæľ¬ æĺ¯
Ġ196 1å¹´
Ġ196 5å¹´
çļĦåİŁ åŀĭ
æıĴ æĽ²
é²į å°Ķ
åį³ä½į åĲİ
çļĦä¸»é¢ĺ æĽ²
çĦļ æ¯ģ
æĺı è¿·
çĪ¸ çĪ¸
åŃ¢ åŃĲ
ç¡Ŀ éħ¸
é©¬èĢ¶ è®·
å·§åħĭ åĬĽ
é©¬è¾¾åĬłæĸ¯ åĬł
2 10
2 æľĪ26æĹ¥
6 000
9 åĲį
: (
Ġ è¿ĳ
äº µ
çļĦ åĲĪä½ľ
çļĦ è¡¨æ¼Ķ
çļĦ è´¨éĩı
åľ¨ æīĢæľī
ä¸Ń æĢ§
æľī éĥ¨åĪĨ
åľ° æĿ¿
æĽ ľ
è¢« æĮĩæİ§
æ°ĳ è°ĥ
åĬł æĹ¶
é«ĺ åħ´
è¯¥ å¸Ī
å¸ĥ å®ľè¯ºæĸ¯
èµ· äºĭ
èµ· å¼Ģå§ĭ
æİ¥ è§ģ
ç»´ å°¼
ä¹ī åĭĩ
å·² çģŃç»Ŀ
é¢Ĩ åĨĽ
æĻ® æĸ¯
æĬ¥ åºŁ
åı¤ åŁĥåıĬ
å¤ª ä»Ĩ
è®º è¯ģ
ç¥ŀ èģĮäººåĳĺ
ä¼Ĭ è¾¾
èĲ¨ éĩĮ
èĲ¨ å§Ĩ
åĿĩ åı¯
åıĮ æīĭ
æµĭ å®ļ
åĪĺ å¤ĩ
å®« çļĦ
éº¦ èĤ¯
æŀª æĶ¯
ç§ĳåŃ¦ çłĶç©¶
åįģäºĮ çłģ
èģĶéĤ¦ ä¼Ĺè®®åĳĺ
éĽ¨ éĩı
æĮĩæĮ¥ ä½¿
ä¹Ļ çº§èģĶèµĽ
æ¯įäº² çļĦ
é©¶ åħ¥
æĬĺ å°Ħ
ĠA nd
aĠ R
æľīæķĪ åľ°
Ġ18 5
æĴ° æĸĩ
åį³ä½¿ åľ¨
å·« æľ¯
èıĬ èĬ±
éĺ²ç©º ç³»ç»Ł
åĢ¼å¾Ĺ ä¸ĢæıĲ
è°¢å°Ķ çĽĸ
æŃĮåĶ± å¤§èµĽ
è´¿ èµĤ
æĪĮ ç§ĳä¼ļè¯ķ
ä¼¦å·´ ç¬¬
è¥¿åĽŃ å¯º
2 2å¹´
5 æľĪ21æĹ¥
D J
M R
P er
a ut
Ġ ä¸ĭè¾ĸ
æĹ ·
å¸ Ľ
åĽ½ åºĨ
äºº èº«
åĴĮ ä¿Ħç½Ĺæĸ¯
åĴĮ å°ļ
æ³ ·
åĲİ å°Ĩ
éģ ı
æĶ¿ åı¸
çī¹ åľ¨
æľĢ æĸ°çļĦ
èĩ³ 2015å¹´
ä¸ī åı°
çŃī è®¾æĸ½
å¤ĸ åĬ¡
æį Ĩ
å±± åįĹ
éĩį åĪ¶
æ°´ è´¨
æĴ ¼
æ²³ è¥¿
å¹¿ åıĹ
çºª åħĥ
ä¸ĵ è®¿
ç¦ı æ²»
å®Į å¤ĩ
å¢ŀ å»º
åĽ´ åī¿
çĹħ çļĦ
çĶµè§Ĩ å¹¿æĴŃ
æķĻèĤ² çļĦ
am i
æ¢ħ åħĭä¼¦åł¡
æĺ¯ä¸Ģ åľº
å±ĭ éĤ¨
5æľĪ 6æĹ¥
æķ¦ çħĮ
us h
æī§è¡Į å§Ķåĳĺä¼ļ
æĬ¥åĳĬ ä¸Ń
å¢ĵ ç¢ĳ
æ¶ħ å¤«åĭĴ
å®ĥä»¬ æĺ¯
Ch rist
å¹¶äºİ åĲĮå¹´
Ġb yĠ
æī° åĬ¨
ç¡« åĮĸ
æĸ¯æīĺ åħĭ
è®°å¿Ĩ ä½ĵ
èµŀåĬ© åķĨ
æĺ¯åįĹæŀģæ´² çļĦå±±å³°
ä¸Ģèĩ³ äºĶ
æķĸ å¾·èĲ¨
æľīéĻĲè´£ä»» åħ¬åı¸
åį«æĸ¯ çĲĨ
äºĭåĬ¡çĶ±åħ¶ æīĢå±ŀçļĦ
èľ¿ èľ
èĭıçĽĬ æł¼
) "
3 çļĦ
S ch
o ch
Ġ åľ°
Ġ ä¸ª
Ġ æĸĩ
Ġ åĨ³èµĽ
è¡ ¢
æľī ä¸įåĲĮçļĦ
åĴĮ é¦Ļæ¸¯
æ³ £
ä¸į åħģè®¸
åħ¬ æĬ¥
åħ¬ ä¿¡
åħ¶ èĮĥåĽ´
åĪ° å¤Ħ
ä½į å¤Ħ
ä¸ĭ è·Į
å¼Ģ æĿ¥
èµĽ åĪ¶
æĭī èµ«
æķĻ çļĩ
èĲ ±
çľģ çļĦä¸Ģä¸ª
å°ı å²Ľ
å£« å®ĺ
ä¸ŃåĽ½ åĨħåľ°
è¾¾ æĭīæĸ¯
èµ· åĪ°
æıĲ åĪ°äºĨ
åºĶ å¤©åºľ
or s
ä¼Ĭ èİİ
åĽ¾ çļĦ
åĽ¾ ä¸Ń
åĽ¾ æĸ¯
çĻ½ èī²çļĦ
å¡Ķ éĩĮ
è¨Ģ è¯Ń
é¦Ĩ èĹı
æķ´ ç¼ĸ
æ²Ļ ä¸ĺ
æĽ¼ å½»æĸ¯çī¹
æŃ£å¼ı åĲ¯çĶ¨
åĪĨåĪ« çĶ±
å¼Ģåıĳ äºĨ
23 æĹ¥
28 æĹ¥
è¡Įä¸º çļĦ
æģĲ åĲĵ
ç¬¬åįģ ä¹Ŀ
ĠP er
Ġ196 4å¹´
åĳ¨è¾¹ åľ°åĮº
æıĴ çĶ»
ç¢³ éħ¸
èĥ¸ é³į
ç¨» çĶ°
æĬĦ æľ¬
ru ct
é©»æīİ åľ¨
ä»¥0 æ¯Ķ2
çłĶè®¨ ä¼ļ
èĦ±æ°§ æł¸ç³ĸæł¸éħ¸
åıĸèĢĮ ä»£ä¹ĭ
l os
o id
v el
Ġ çĻ»åľº
çļĦ é«ĺåº¦
çļĦ çī©ç§į
ä¸º éŁ©åĽ½
ä¸Ģ å¾ĭ
ä¸Ń æ®µ
æĺ¯ æ¬§æ´²
å¤§ ä½ĵ
æľī å¤ļç§į
åĴĮ T
20 ç±³
éĹ ¾
ä¸į éĢĤåĲĪ
ç¬¬ 27
å¹¶ åı¯
è¥¿ å¤ı
åĨĽ æ°ĳ
åıĬ çĽ¸åħ³
æĸ° å®¿
ãĢį ãĢĮ
æķĻ åĳĺ
äºĮ åħ«
ç³ Ļ
éĢī çĶ¨
å¥³ ä¼ĺ
å¯¼ åħ¥
æĶ¿åºľ ç»Ħç»ĩ
é¾ Ľ
éĵģ çŁ¿
åĨ³ æĪĺ
ç¿ Ĭ
åıĪ ä½ľ
åħŃ äºº
åħŃ åĽĽ
ä¸Ķ åľ¨
15 ä¸ĸçºª
æİ¨ å®ĺ
æ¡Ī åıĳ
é»Ħ å¤§ä»Ļ
éĤ£ ä¸į
æ·± çļĦ
åįł çĶ¨
æīį å¾Ĺä»¥
æīĢæľī æĿĥ
æĹħ é¡º
ç¬¬ä¸ī å±Ĭ
å»¶ è¯¯
åĶĲ å±±
åĪĩ åī²
çĬ¯ äºº
éĿł èĳĹ
ç¬¬åĽĽ å±Ĭ
åı°åĮĹ åİ¿
èİī å¨ħ
èĿ İ
å¢ĵ å¿Ĺ
åĪ¶éĢł ä¸ļ
ra ph
ä¸īåįģ ä¸īå¹´
ä¸īåįģ ä¸Ģå¹´
ĠS e
Ġ198 0å¹´ä»£
æĺ¯ä½įäºİç¾İåĽ½ åĬłåĪ©ç¦ıå°¼äºļå·ŀ
åºĬ ä½į
ç«Ł çĦ¶
æ¿Ĵ ä¸´
æµ·åįĹ çľģ
éĥ½çĿ£ åºľ
åħ¨ä½ĵ ä¼ļè®®
åħļç»Ħ æĪĲåĳĺ
HR Ġ
è´¦ åı·
æ·ĭ å·´
éĵ¸å¸ģ å±Ģ
æŀ¢å¯Ĩ éĻ¢
çŁ³åĭĴ èĭıçĽĬæł¼
èĴĻå¤§ æĭ¿
¶ å½¢çĽ®
Ġ ä¿ĿæĬ¤
ä¸Ģ éĺŁ
ä¸İ ä¼ļ
åĮº åĨħçļĦ
åħ¶ ä¸İ
å¹¶ ç»§ç»Ń
è· Ĩ
åħ± è®¾
å±± ä¸ĺ
ç½Ĺ å°Ķ
ä¸ŃåĽ½ åı¤ä»£
åĪĻ äºİ
æ¸¸ è®°
æĪĲä¸º ä¸ĢåĲį
å¸¦ çļĦ
ä¼Ĭ èĹ¤
çļĦä¸Ģ æ¬¾
è°ĥ åĪ°
éĿ¢ç§¯ 4
åİĨåı² åįļçī©é¦Ĩ
æ´Ľ ä¼¦
èĲ½ çļĦ
æĪĲç«ĭ äºİ
æ·± èī²
åģľ çĶ¨
æķĻèĤ² åŃ¦éĻ¢
èĴĤ å°Ķ
æł¸ åĩĨ
åĶĲ ä¹¦
éĢļå¸¸ ä¸º
10æľĪ 4æĹ¥
é¢Ĩå¯¼ ä¸ĭ
èµµ åĽ½
åŃĶ éĽĢ
è¿İ æĿ¥
éĺ´ éĺ³
äº§åĵģ çļĦ
ap an
Ġ197 5å¹´
è·³ è·ĥ
è°ĥæķ´ ä¸º
æĻ®éģį è®¤ä¸º
åľ¨199 6å¹´
çļĦæĶ¯æĮģ ä¸ĭ
å¹½ çģµ
ä¸¥æł¼ çļĦ
å®´ ä¼ļ
Ġä½¿çĶ¨ çĬ¶åĨµ
ä¸ºè¾Ĳé³įé±¼çº²é² ¶å½¢çĽ®
å·¥åķĨ ç®¡çĲĨ
äºĮæ¬¡ å¤§æĪĺ
å¯¡ å¦ĩ
äºı æįŁ
ĠCol le
æ°ĳä¸»è¿ĽæŃ¥ åħļ
æ°ĳå»º èģĶ
è¯ħ åĴĴ
èľ¿èľ Ĵ
4 æ¬¡
E F
W eb
Ġ çĪ±
Ġ åħ¬è·¯
çļĦ C
çļĦ æŃ£å¼ı
ä¸Ń ä¸İ
20 äºº
20 ä¸ĩ
æĪĲ æķĪ
åĪĨ æīĵçĤ¹
æľ¬ åĽ½
è¿Ļ åľ¨
çī© ä½ĵçļĦ
æĭī èĴĻ
åĮĸ åĲį
èµ· æŃ¥
å·´ åĪ©
å¥³ å·«
æĹł åı¯
æĹł æīĢ
æĮĩ ä»£
åĽŀ åİ»
åĨį è½¬
ç¦ı å¸ĥæĸ¯
ä»£è¡¨ æĢ§çļĦ
åħ· ä½ĵçļĦ
çĶ» åĥı
30 äºº
åıĤåĬł å·¥ä½ľ
è®¡åĪĴ ä¸Ń
ä¾§ æīģ
å½ĵåľ° æĹ¶éĹ´
ä¼ĺ èī¯
åĺī å®ļ
åĶ® åįĸ
8æľĪ 11æĹ¥
3æľĪ 6æĹ¥
åģĩ éĿ¢
å½¢æĪĲ ä¸Ģä¸ª
ä»¥ä¸ĭ çļĦ
åľĨ éĶ¥
åºŁ å¢Ł
us s
æľīéĻĲ çļĦ
ç¬¦ èħ¾åł¡
åĿļ å®ļ
å»ī ä»·
ç©ºéĹ´ çļĦ
æĹģ éģ®
è´¢æĶ¿ éĥ¨éķ¿
èĴĭ ç»ıåĽ½
åĲĮçĽŁ åĽ½
æ·¡æ°´ æµģåŁŁ
è¯ı ä¹¦
éĵ¶çīĮ å¾Ĺä¸»
æĸĲ è¿ªåįĹ
ä¸Ĭå¸Ĥ åħ¬åı¸
ber t
æĺ¯ä¿Ħç½Ĺæĸ¯ èģĶéĤ¦
ä»Ĩ å°Ħ
é³ŀ çīĩ
æĪĺåĪĹ å·¡æ´ĭèĪ°
åİ¨ å¸Ī
æ²¦ ä¸º
ç¦ıå°Ķæĳ© æĸ¯
åı¤åħ° ç»ı
äººåı£åıĺåĮĸ åĽ¾ç¤º
Ġè¯¥å°ıè¡ĮæĺŁ ä»¥
æĹģéģ® æĻ®
D an
Ø §
Ġ éĥĳ
çļĦ éĻĪ
åľ¨ éĥ¨åĪĨ
åŃ¦ çĶ²
ä¸İ ä¸Ń
ä¸İ è¥¿çıŃçīĻ
ä»ĸ åĲĳ
åĮº æ®µ
åħ¬ åĲ¨
å®¶ åįıä¼ļ
åĨĽ æľº
çī¹ å¿«
å¼Ģ å¤´
åĪ¶ èį¯
å¤© æīį
æŁ ł
æ¡ ¢
ç»Ł ç§°
éĺ¿ åį¡
12 æľĪ24æĹ¥
åİĨ æĿ¥
æĮĩ çļĦ
æĽ´ åľ¨
åıį åıĽ
æĶ¿åºľ åĴĮ
å¤ª å¤§
å¥¹ ä¸º
å¥¹ ä¹Ł
æľĿ åĲĳ
è½¬ åĬ¨
åĸ ±
åĵĪ æ¡ĳ
å±ħ çķĻ
åĬŁ ç»©
17 äºº
èŃ ¬
èŃ¦ éĺŁ
æł¹æį® ç¾İåĽ½
åıĳçĶŁ è¿ĩ
å´ ģ
çł´ ç¢İ
æĿ° æ£®
å¼Ĥ è®®
èĩªçĶ± çļĦ
é¸Ł çļĦ
ãģ ª
æ¤įçī© çļĦ
çĸĳ éĹ®
æ¯« ä¸į
29 0
è´Ŀå°Ķ ç¦ı
è§£åĨ³ äºĨ
em ent
ĠE d
æĥĬ è®¶
äºİ197 3å¹´
äºİ197 6å¹´
æľºæ¢° åĮĸ
Ġw as
çĮľ æĥ³
å¥¥åĮĪ å¸ĿåĽ½
ï¸ °
2 æľĪ21æĹ¥
G A
Î ³
çļĦ çĶ·åŃĲ
ä¸º çĶŁ
ä¸Ģ æĪĺ
æĺ¯ ä½¿çĶ¨
æī ¯
æľĪ äº®
ä¸Ĭ éĥ¨
ä¸Ĭ çĸı
çĶŁ è¿ĺ
åĪ° æľŁ
åĲĮ ç±»
è¿Ļ æĦıåĳ³çĿĢ
æĸ° åĽĽåĨĽ
é©¬ ä¿®
ä½Ĩ å½ĵ
å¤© å±±
æŁ ĳ
ä¸¤ ç»Ħ
äº¤ è°Ī
æµģ æĦŁ
å±ķ åĵģ
åıį æ½ľ
èĳĹ æīĭ
åı¯ä»¥ çľĭåĪ°
äººæ°ĳ æĹ¥æĬ¥
çĵ¦ çī¹
en ceĠ
è§ģ è§£
èİ± å¾·
å®¢ åº§
æĹ© åīį
çİ¯ ç¤ģ
ä¸ĥ æĺŁ
æĦŁ åĬ¨
å°ļ ä¸įæ¸ħæ¥ļ
æ¯Ľ éĩĮ
æ²ĥ æĢĿ
æı´ åĨĽ
çī¹åĪ« çļĦ
æķĳ çĶŁ
æĪĪ å¤«
åīĳ æ³ķ
ä¸Ńæĸĩ çīĪ
ĠT V
æŁ´ æ¹¾
éĺ¿æĭīä¼¯ äºº
äºİ194 6å¹´
éĻĢ ç½Ĺ
å¿į èĢħ
åłĨ ç§¯
æ³¢å°Ķ å¤ļ
è¶³åįı æĿ¯
éĺī åī²
i or
Ð º
Ñ Ĥ
Ġ ç»Ħç»ĩ
Ġ è¿Ľåħ¥
Ġ ä¹¾éļĨ
çļĦ ç»Łè®¡
åľ¨ ä¸į
å¤§ ä¸Ń
ä¸Ĭ æĹ¬
ä»ĸ ä¸į
ä»ĸ æĬĬ
å¹¶ å®£å¸ĥ
è¢« æ´¾å¾Ģ
æ± ŀ
çī¹ æķĪ
åı¯ åģļä¸º
æĸ° åħļ
æĸĩ åĵ²
çŃī é¢ĨåŁŁ
ç½Ĺ åħ°
ä¸ŃåĽ½ éĵģè·¯
å½± åŃĲ
å°¼ èĮ¨åŁº
åĪĹ å¤«
æ¶ §
å®ŀ çļĦ
åıĹ å½±åĵį
12 ç±³
æľª ç§ĳä¼ļè¯ķ
æĶ¶ å®¹
è°ĥ åº¦
ç¦» éĺŁ
éĿ¢ç§¯ çº¦
åĵĪ èµ¤
å¡Ķ çļĦ
æ¬§ æĸĩ
15 æĹ¥
æĴŃ éŁ³
å¥ĸ æĿ¯
åį° æľī
å¯Ł åĲĪ
åĨľ ä½ľçī©
è½½ äºº
æī§ ä¸ļ
ç²¾ å½©
è¯» éŁ³
éĺµ åĪĹ
æ²ĥ å¾·
çīĽ å¥¶
of f
æ½ľ åħ¥
åŁºæľ¬ çļĦ
éĹŃ å¹ķ
äºīè®® çļĦ
çıį è´µ
sĠ and
è¿Ļæĺ¯ ä¸Ģç§į
Ġ196 7å¹´
çŀ Ĵ
åĿİ è´Ŀå°Ķ
ec ord
æĮĩå®ļ åľ°åĮº
è¾¾å°Ķ æĸĩ
å¸¸åĬ¡ å§Ķåĳĺ
æĨ ©
é¢ł è¦Ĩ
å¥¥æĸ¯åį¡ æľĢä½³
å±ıä¸ľ åİ¿
çĪ±èį· åįİå·ŀ
ç»ĥé©¬ å¸Ī
% (
2 æľĪ22æĹ¥
5 ä¾ĭ
U T
W E
i os
Î ¿
Ġ åĬłæĭ¿å¤§
çļĦ åĲį
ãĢ ľ
ä¸Ģ è¡Į
èµ Ī
è¡Į ç»ı
æľ¬ èĲ¥
åĮĹ è¾¹
é«ĺ ç¥ĸ
èĩ³ 2012å¹´
èµĽ åĴĮ
æ¬¡ ä¼ļè®®
æĢ§ æ°ĶåĢĻ
æĢ» æĬķèµĦ
åİŁ çĶŁ
ç»Ł æĪĺ
æ¸¯ çļĦ
å®ŀ æķ°
æĶ¶ çľĭ
æ´¾ åĪ«
å¼º ç¡¬
ä»ĸä»¬ å¯¹
èĲ¨ åĪ©
æĶ¿æ²» åŃ¦
å®¤ å¤ĸ
çļĩ å¤ªåŃĲ
14 00
èĢģ åŁİ
åº· ä¹Ĳ
çĽĳ æĬ¤
èī¾ ç±³
èį· å°Ķæĸ¯
21 äºº
ä¸ĢèĪ¬ è®¤ä¸º
è®®ä¼ļ éĢīä¸¾
å¤ıåŃ£ æ®ĭçĸ¾äººå¥¥æŀĹåĮ¹åħĭè¿ĲåĬ¨ä¼ļ
çĽĲ æ°´
éļĲ ç§ģ
Ġ197 7å¹´
ak e
å®īå¾· å°Ķ
åİŁä½ı æ°ĳæĹı
æ³Ħ æ¼ı
å¿ĹæĦ¿ èĢħ
çķľ çī§
å½°åĮĸ åİ¿
èµĽèīĩ è¿ĲåĬ¨åĳĺ
èĥļ èĥİ
æĳ©å¤© å¤§æ¥¼
B åŀĭ
C BS
n ow
u ri
çļĦ åĲĦç§į
çļĦ èµĦæł¼
ä½ ļ
ä¸Ń ç¾İæ´²
æĺ¯ åĽł
æĹ¶ å°±
è´ »
æĪĲ éĥ½å¸Ĥ
å¹¶ åĬłåħ¥
è¥¿ éĽħåĽ¾
èĩ³ 2014å¹´
çĶµ éĺ»
æĭī ç±³
éĢļ è´§
èĬ ·
åħ¨ æĿĥ
ç½Ĺ æ±ī
å®ī æıĲ
èĭ± åĲīåĪ©
éĺ¿ çī¹
æĶ¹ ç§°ä¸º
å¸¸ å¹´
12 åĲį
éĴ µ
éŁ³ é¢ĳ
çŁ³ çļĦ
è½¬ èĩ³
åı¯ä»¥ çĶ±
æ³¢ åıĬ
åŃ£ çļĦ
æŁ¥ çľĭ
å¼ķ äºº
æ²¡æľī äºº
æŃ» ç¥ŀ
çĶµå½± åĴĮ
åĽ´ åĽ°
é²ģ èĥ½
åħ´ çĽĽ
éĿĴ è®Ń
é¸ ½
ç¥¨ æķ°
å·Ŀ å´İ
æī¿ è½½
èĹı æĸĩ
le d
è¶³çĲĥ ä¼ļ
æ£Ģ æł¡
éĢı éķľ
10æľĪ 11æĹ¥
æķĳ åĬ©
21 æĹ¥
ãģ Ł
è°ĭ åıį
åĨĽéĺŁ åľ¨
æŃ»äº¡ äººæķ°
åģı åĮĹ
ä¸īåįģ ä¸ĥå¹´
ir d
æģĭ ç«¥
çŃ¹ éĽĨ
åŃŁ ä¹°
æĺ¯æ³ķåĽ½ ä¸Ĭ
ç¿»è¯ĳ ä¸º
äºİ194 9å¹´
åħĭèİ± å°Ķ
éģµ ä¹ī
ç¾½æ¯ĽçĲĥ éĶ¦æłĩèµĽ
èĢĥåı¤ åŃ¦å®¶
ä½Ľç½Ĺ ä¼¦
åĲĽå£«åĿ¦ ä¸ģ
éĴ¥ åĮĻ
èµĽé©¬ ä¼ļ
è·Ĩ æĭ³
èį·å°Ķæĸ¯ æ³°åĽł
2 æľĪ13æĹ¥
F M
p ha
Ġ æľĢåĲİ
åĴĮ formula
ä»¥ 5
éĥ¨ å°Ĩ
æ¯ ĭ
ä¹ĭ æĹ¥
ä¹ĭ äºī
å¹¶ æĪĲåĬŁ
èĩª æĪĲ
éĩĮ å¾·
åĨħ çī¹
ä¹Ł ä¸įèĥ½
è¯¥ å·ŀ
ç«ĭ æ¡Ī
å¸ĥ æ´Ľ
é©¬ ä½į
éĩį æķ´
çĤ ½
éĥ½ ä¸İ
éĥ½ å¿ħé¡»
å¸¸ ç»¿
å¹¿ æ·±
èº« å¿ĥ
è®º çļĦ
æ±Ł å±±
ä¿¡ çļĦ
æ¯ı ä½į
åŃĺ æľī
åī¯ åı¸ä»¤åĳĺ
å¡ŀ çĲī
èĬ± æł·
æķ´ é¡¿
èĭ±åĽ½ ä¼¦æķ¦
ä»ħ éĻĲäºİ
çīĻ åĮ»
åºĨ éķ¿
åĶĲ çº³å¾·
å¸ķ çī¹éĩĮ
çİĽ éĽħ
3æľĪ 8æĹ¥
äº¤éĢļ è¿Ĳè¾ĵ
éĽĨåĽ¢ åħ¬åı¸
æĻĭ åĽ½
éĥ¨éĺŁ åľ¨
1æľĪ 7æĹ¥
é½Ĳ å¥¥
æ¤įçī© åĽŃ
è¿ĺæľī ä¸ĢäºĽ
æĶ¿çŃĸ çļĦ
ç¬¬åįģ åħ«
åħĭéĩĮ å¥¥å°Ķ
æ¼«çĶ» ä½ľåĵģ
ĠG roup
æĺ¯ä½įäºİç¾İåĽ½ æĺİå°¼èĭıè¾¾å·ŀ
Ġ197 1å¹´
Ġ197 4å¹´
ä»ĭç»į äºĨ
ç¾İæľ¯ åŃ¦éĻ¢
çĭĦ æĽ´
å¸¦é¢Ĩ ä¸ĭ
å¼ĹæľĹ èĮ¨
ï¼ħ ,
ug h
èĲ¥ä¸ļ é¢Ŀ
åħĪè¿Ľ çļĦ
åİĮ æģ¶
åłķ èĥİ
Rob ert
èģĭ äºº
3 0å¹´ä»£
4 ä¸ĩ
6 æľĪ13æĹ¥
A BC
M an
M us
M ag
c es
Ġ çļ®
çļĦ èģĮåĬ¡
åľ¨ åĲĮå¹´
åľ¨ 2024å¹´
åľ¨ 2001å¹´
ä¸Ģ åħ«
ä¸Ģ è´¯
è¯ ½
åĨ ī
å¤§ éĽ¨
åĴĮ ä¸į
åĴĮ å£°
åĴĮ ä¸Ģæŀļ
ä¼ļ æĺ¯
ä»ĸ å°±
åĮº åıĬ
æ¸ İ
çĶ± æĸ°
å¾· ç±³çī¹éĩĮ
æĸĩ éĽĨ
ç¾İ éĩĳ
åīį æīĢ
ä¸ľ å¾·
åĨħ åľ¨
è¯¥ å¯º
äºĮ ä¸ª
çİĭ æĿİ
ä½įäºİ ä»Ĭ
æį® æĬ¥éģĵ
éŁ³ è¯ĳ
æł¡ å°ī
åıį éĿ©åĳ½
åıĺ èº«
ä¿¡ å¿µ
ç¬¬ä¸Ģ éĺ¶æ®µ
æ³¢ çļĦ
åĸ Ĥ
åħµ å¤ĩ
æĭħ ä¿Ŀ
çļĦä¸Ģä¸ª å±ŀ
èĹ Ķ
è¯ķ åīĤ
æĦŁ åıĹåĪ°
åįł äºĨ
åĲĮæĹ¶ è¿ĺ
æĺ¾ å¾®
æ´»åĬ¨ å®¶
èĹı æĹı
è½® æµģ
ol y
ä»ģ å·Ŀ
è´Ŀå°Ķ çº³
è½´ å¿ĥ
ĠS ystem
æ§ Ĳ
ĠO n
åĳĪçİ° åĩº
ne y
è½¬æį¢ ä¸º
æĸ© æĿĢ
ç»ıçºª äºº
çŃĽ æŁ¥
è¯¸èĳĽ äº®
å·´æ¯Ķ ä¼¦
ĠCl ub
è±ģ åħį
å·ŀéĻħ åħ¬è·¯
éĿŀçī©è´¨ æĸĩåĮĸéģĹäº§
2 æľĪ17æĹ¥
i j
Ð »
Ġ éĥ¨åĪĨ
Ġ åİĨä»»
çļĦ è®¸å¤ļ
çļĦ åħ³æ³¨
åĪ ®
åľ¨ æİ¥ä¸ĭæĿ¥çļĦ
ä¸Ģ æĺ¯
æĿ ŀ
å¼ Ī
å¼ ĭ
ä»¥ éĺ²æŃ¢
åĮº åĿĹ
èĢĮ å°Ĩ
åĮĹ æĬķ
æīĢ èĳĹ
åı° è§Ĩ
è¡¨ éĿ¢çļĦ
æľº åĴĮ
èģĶ éħĭ
è¿Ĳ å¾Ģ
èĭ± äº©
æ²³ ä¸İ
æ¸¸ è§Ī
ç¡ ¼
æĹ¥æľ¬ æ°Ķè±¡åİħ
ä¸»è¦ģ ä»İäºĭ
å¡Ķ æ¥¼
éĻ¤ åİ»
äº² å¯Ĩ
åħ« æĹĹ
å¾Ī é«ĺçļĦ
17 ä¸ª
æ¦ ¨
å½ĵæĹ¶ åľ¨
å½Ĵ äºİ
åĮĹéĥ¨ çľģ
åħ¹ åł¡
çİĽ èİī
100 åħ¬å°º
æ·· åĲĪçī©
å¸ĮèħĬ ç¥ŀè¯Ŀ
éĿĻ åĨĪ
æĸĳ é©¬
Ġ19 20å¹´
åº·çĨĻ å¸Ŀ
èħĲ èļĢ
ä½įäºİä¸ŃåĽ½ å¹¿ä¸ľçľģ
é¥¶ èĪĮ
åĨ» ç»ĵ
è´¦ æĪ·
æ²īç§¯ çī©
è¡Ļ éĹ¨
App le
3 Ġå¹´
B ar
I E
y a
Ġ åĽ½å®¶
Ġ èĢĮåľ¨
åľ¨ åĮĹç¾İ
ä¸Ģ ä¸ĭ
å¥ Ħ
éķ ĸ
åıĳ æºĲ
ä½ľ äºĨ
èĩª å®¶
å¹³ ç«ł
åĬł çº³
äºļ è¿Ĳä¼ļ
çŃī æĸ¹å¼ı
è¡¨ æł¼
æĭī ç½ķ
è·¯ çĶ±
å®ī åįĹ
äº§ åĢ¼
åı² åħĭ
18 äºº
åħļ æĶ¿
æ· ĩ
å¥¹ å¯¹
å¼Ģå§ĭ åĩºçİ°
æĿĥ åĬĽçļĦ
æ¡Ī ä¸Ń
æ³ķåĽ½ å¹³åĿĩæ°´å¹³
åįĩ æł¼
ä¼¦ åł¡
æł· åŃĲ
30 ä¸ĩ
ç¡® å®ļçļĦ
è¶Ĭ åħ±
ç»Ħç»ĩ åĴĮ
ä¾¿ åľ¨
åģľ æ»ŀ
æĺ¾ çİ°
éŁ³ä¹Ĳ åİħ
å¹² è¾¾
éĢĢ åĮĸ
å·¦ æīĭ
ä¸´ æµ·
åĪ¤ å®ĺ
å¿ħ å®ļ
å¼Ĥ æŀĦ
ä¼ļè®® çļĦ
é³ ī
åºı æķ°
çĭ¬ç«ĭ åĲİ
çĶ¨äºİ æ²»çĸĹ
æ²ĥ å°Ķçī¹
4æľĪ 7æĹ¥
40 åĪĨ
ç½Ĺé©¬ äºº
åĩ¯ çĳŁ
éª¨ å¹²
è¾Ľ è¾Ľ
è¸ ©
çĪĨåıĳ äºĨ
æµģè¡Į æĸĩåĮĸ
çģ¯ åħī
å¤§åŀĭ çļĦ
åħĥç´ł çļĦ
è¾ī çħĮ
Ġ196 9å¹´
åĩ½æķ° çļĦ
äºİ194 2å¹´
çģĮ ä¸Ľ
ers on
é²¤ é±¼
èµ«å°Ķ æĿ¾
çĪ±åĽ½ ä¸»ä¹ī
è¯¥å¸Ĥ æľīäººåı£
è´Ńçī© ä¸Ńå¿ĥ
æ·Ģ ç²ī
è·¯å¾· ç»´å¸Į
åįİçº³ åħĦå¼Ł
éĺ¿æł¼ çº½
% ),
2 1å¹´
8 ä¸ĩ
R T
U B
Ġ éĢī
Ġ æ¢ģ
Ġ çİ¯å¢ĥ
Ġ çĶŁæ¶¯
çļĦ æłĩå¿Ĺ
ä¸º éħįåĲĪ
ä¸Ģ ä¸¾
ä¸Ģ ä»¶
å¸ §
éĩ ī
æľī æ¯Ĵ
19 äºº
åĮº éģĵ
åıĳ å£°
èĢĮ å¯¹
åĵ ĳ
èĭ Ł
çī¹ çº³
èĩª åı¤
åĮĹ è§Ĵ
æľĢ ä¸»è¦ģçļĦ
ä¹Ł è¡¨ç¤º
å¤ĸ è¡¨
å±± åĴĮ
æķ° åįģå¹´
ä¸¤ éĺŁ
æĢ» åı¸ä»¤éĥ¨
èµ· å§ĭ
çİĭ åħ¬
åįİ ä¸½
åŀ ®
å¥³ åıĮ
æĹł äº§éĺ¶çº§
è¯´ åĩº
äºĶ è§Ĵ
åĽ¾ åį¢
äº¬ åħĨ
ä¸ĸçķĮ ç¾½èģĶ
æĿİ é¸¿
èĢĥ éªĮ
æŃ¢ æŃ¥
æķĻèĤ² åĴĮ
æĪĺäºī åĲİ
æĪĺäºī ç»ĵæĿŁ
åİħ åİħéķ¿
è½® æ¤ħ
èĽ ¾
åĮĹéĥ¨ åĴĮ
åį´ åĽł
è¿ģ éĥ½
åħ¶ä¸Ń ä¸ĢåĲį
ç«¥ è¯Ŀ
å¸® æ´¾
éĴĪ çģ¸
åĨ° çĲĥ
2æľĪ 3æĹ¥
æľĢåĪĿ çĶ±
2009å¹´ æĹ¶çļĦ
åĪ¶åº¦ çļĦ
å¸®åĬ© çĲĥéĺŁ
æģĭ äºº
åıĽ åıĺ
Ġc on
ä½įäºİæ³ķåĽ½ è¯ºæĽ¼åºķå¤§åĮº
èĪĴ æĽ¼
äºİ194 7å¹´
äºİ196 6å¹´
186 8å¹´
åį¢çĵ¦å°Ķ çľģåĴĮ
ip p
å¼ĹéĽ· å¾·éĩĮåħĭ
åĢ¼å¾Ĺ æ³¨æĦıçļĦæĺ¯
å¤§çĲĨ å¯º
èİ·å¾Ĺä¸Ģæŀļ éĵľçīĮ
ç¹ģå¿Ļ æĹ¶éĹ´
Ġå¤ĸéĥ¨ éĵ¾æİ¥
0 Ġå¹´
3 å®¶
5 èĩ³
6 50
O C
Ġ åĪ©
Ġ è¿Ļä¸Ģ
çļĦ é¡¹çĽ®
ä¸Ģ è¿ŀä¸²
å¤§ éº»
æĹ¥ é£Ł
æĹ¥ æīĺç±³å°Ķ
ä¼ļ è®©
åŃ¦ ç¤¾
è¢« åĪĴåħ¥
éķ¿ å¯¿
å¼Ģ é¦Ĩ
åįĹ å®ī
é«ĺ æ¡¥
èĩ³ 2017å¹´
æľº éĺŁ
å·¥ åĮł
åı£ çļĦ
ä½Ĩ ä¸İ
ä½¿ ä»ĸä»¬
éĵ ¨
å¤© çĶŁ
å¤© èµĭ
æ¯Ķ å®ī
åİ¿ ä»¤
èµ· ä¼ı
è®® ç¨ĭ
åį¡ åĪ©
å®ĺ åºľ
å¤ª å¤ª
ç¬¬ä¸Ģ æĿ¡
ç¼ĸ éĺŁ
è°ĥ åĬ¨
åĪĽ è®¾
äºī ç«¯
ç¦ı å²Ľ
çĵ¦ è¥¿éĩĮ
åįĥ ä»£
æīĺ æ´Ľ
åıĳçİ° èĩªå·±
çĥŃ åĨħ
çĥŃ æ½®
å»ºçŃĳ é£İæł¼
æīĢæľī äºº
å³ ĩ
ä½Ļ ä¸ĭ
é¹ «
æ°¸ åĴĮ
åį´ æ²¡æľī
åĤ »
èģĶèµĽ ä¸Ń
è¡Ģ åİĭ
è¡ĮåĬ¨ çļĦ
çĩ ®
éªĳ é©¬
åĪĨå¸ĥäºİ äºļæ´²
äººåı£æĻ®æŁ¥ æĮĩå®ļåľ°åĮº
ç¡¬ ä½ĵ
è¿Ī å°Ķ
èĩªåĬ¨ åĶ®ç¥¨æľº
ç¼ĵ åĴĮ
äºİ195 0å¹´
å¼ºçĥĪ åıįå¯¹
éħįå¤ĩ äºĨ
å°ĺ åŁĥ
åĴĸåķ¡ é¦Ĩ
å®īå¤§çķ¥ çľģ
ç§ĳç´¢ æ²ĥ
6 Ġå¹´
Ġ èµµ
Ġ ç¬¬äºĮæ¬¡ä¸ĸçķĮå¤§æĪĺ
çļĦ åįĬ
çļĦ æĹ¶ä»£
åĩº å¾ģ
ä¸į å¿ħ
ä½ľ ä¹ī
æĽ ¦
å¹¶ æĽ¾
è¥¿ æ¹¾
åĬ¨ éĩı
è¿Ļ ä»¶äºĭ
æľĢ å¼º
å°Ĩ å£«
éĢļ ç¼ī
ä½Ĩ å¹¶æľª
æ¹ Ħ
æĪĸ åľ¨
çİĭ åĪĺ
çİĭ èı²
éĺ¿ éŁ¦
å¸¸ åľ¨
åĲĳ åĲİ
æŀĹ æł¹
åıĹ è¿ĩ
åį¡ è¥¿
åı¤ è£ħ
æ±Ł éĹ¨
è½¬ å¾Ģ
çłĶç©¶ åĴĮ
å¡Ķ å°¼äºļ
å®£ å¾·
ä¼¯ å¡Ķ
ä¼Ĺ å¤ļçļĦ
å¾Ī å¥½çļĦ
ä¸Ńå¿ĥ åŁİå¸Ĥ
è¯į è¯Ń
ä¾¿ å¼Ģå§ĭ
éĻį ä¸º
æľįåĬ¡ ä¸Ńå¿ĥ
ä¼ĺ è´¨
åĪĹè½¦ æľįåĬ¡
çĭ¬ç«ĭ äºİ
è¿Ļä¸ª éĹ®é¢ĺ
èīºæľ¯ åįļçī©é¦Ĩ
24 äºº
äº¤éĢļ äºĭæķħ
æµ·åĨĽ çļĦ
åĽº éĨĩ
St ar
å¥ı è¯·
çĵ¦å°Ķ å¾·
å¨ģå»ī æĸ¯
æıĲåįĩ èĩ³
åĸĢ éº¦éļĨ
Ġæ¦Ĥ åĨµ
çĽĪ åĪ©
åĤ¬åĮĸ åīĤ
è¿½éļı èĢħ
ä¼ºæľį åĻ¨
è·Ĩæĭ³ éģĵ
Ġ æĬĢæľ¯
Ġ åĳ½åĲį
ä»¥ å¤§
ä¸Ĭ åīį
ä¸İ åĽ½éĻħ
ä¸İ æĸĩåĮĸ
åĩº çº¿
è¿Ļ å°Ĩ
æĸĩ å®Ĺ
åīį ç§°
äºļ æĭī
åĨħ ç½®
æķĻ å»·
è¶ Ł
éĩį çİ°
æĢ» åĬ¡
éĢī åĮºçļĦ
çĽ¸ ç»ĵåĲĪ
æŃ£ çº¿
åįķ ä¸ª
åħĪ åľ¨
äº¦ æĶ¹åĪ¶ä¸º
æŃ» çļĦ
å®¢ æµģ
åĲī å¸ĥ
æĸ½ åİĭ
è´Ŀ çī¹
ä¿Ħç½Ĺæĸ¯ å¸ĿåĽ½
åı¶ åīĳ
æĿ° å¤«
æĿ° åĩºçļĦ
æ¯Ĵ ç´ł
çĸĹ åħ»
è¿· å®«
å¹¿æĴŃ åī§
èĦļ æľ¬
Ġ196 3å¹´
æ°ĳä¼Ĺ åħļ
Ġ193 5å¹´
äºİ197 1å¹´
äºİ197 7å¹´
æľ¬èº« çļĦ
ç¥ŀç»ı ç³»ç»Ł
æĸĩçĮ® ä¸Ń
æīĢå±ŀ è¡ĮæĶ¿åĮºåŁŁ
å¥ĭ æĸĹ
åĪĨå¸ĥåľ¨ ä¸ŃåĽ½å¤§éĻĨçļĦ
GB T
Vi u
æ·±æ°´ åŁĹ
åĩ¡å°Ķ èµĽ
KP INK
åľŁåºĵ æĽ¼
å¤ļå°Ķå¤ļæ¶ħ çľģ
M 2
M e
i qu
Ġ åıĹ
Ġ æĶ¿åºľ
Ġ èİ±
Ġ èĪªç©º
Ġ å¤§å¤ļæķ°
Ġ åĩºåħ¥åı£
Ġ è½¶äºĭ
çļĦ æĦŁè§ī
æĺ¯ ç»§
ä»¥ ä¸Ģ
è¡Į éģĵ
æ¯ ĺ
æĮ Ł
éĽ ī
åĬ¨ çĶ¨
èĩª åĪ¶
èĩ³ 2023å¹´
çŃī å¤ļä¸ª
å®ļ åĲĳ
æĦ ģ
åŁº åº§
æİ¥ èİ·
çİĭ æĺŁ
00 Ġ
å¤Ħ å¢ĥ
ç±» æ¯Ķ
åºĶ åĬĽ
ç©º ç¼º
çłĶç©¶ è¡¨æĺİ
å¼ķ èĩ´
å±ħ å®¶
æł· åĵģ
åıĮ èĥŀèĥİ
éĻĪ æ°ı
åħ¸ ç±į
èµ° åĪ°
èī¾ åĵĪè¿Ī
éĢīä¸¾ äº§çĶŁ
éŁ¦ æĸ¯çī¹
éĶ¦ å·ŀ
å®īåħ¨ æĢ§
çĶ·åŃĲ åįķæīĵ
å¥³åŃĲ åįķæīĵ
èģĮä¸ļ è¶³çĲĥè¿ĲåĬ¨åĳĺ
æ¨ª çĲ´
éĶ¡ åħĭ
åĪĨå¸ĥäºİ åį°åº¦
åī§æĥħ çīĩ
188 4å¹´
è´¢æĶ¿ æĶ¶åħ¥
ç»ĵåĲĪ äºĨ
åĪĽåĬŀ çļĦ
æĲ¬ åĪ°äºĨ
çĲī çĴĥ
çĶŁæĢģ ç³»ç»Ł
å½¢å®¹ ä¸º
æĬ± æĢ¨
å¸Ĳ åı·
ãĥ¼ ãĥ
åŁİéĻħ éĵģè·¯
åĽ½å®¶åĴĮ åľ°åĮº
æĸ¼ ä¼¦æķ¦
Pa ul
ç¬¬èģĤä¼¯ ç½Ĺ
éĹŃçİ¯ ç®¡æİ§ä¸Ńåıĳçİ°
ä¼Ĭèİī èİİçĻ½
ä½Ľç½Ĺä¼¦ èĲ¨
è¯½ è°¤
M B
Ġ çĲĥä¼ļ
çļĦ æ³ķ
çļĦ å¾·åĽ½
çļĦ èĥ½éĩı
å¹´ åīį
åľ¨ ä½¿çĶ¨
åľ¨ åįĹäº¬
ä¸Ģ ä¸Ń
ä¸Ģ åħ±æľī
åŃ º
æĺ¯ ä»ĸçļĦ
æĺ¯ éĿŀå¸¸
åĴĮ éĿŀ
ä¸į æĿ¥
çĶŁ åĮĸ
æ± ´
å¼Ģ æĪĺ
åįĹ å±±
åįĹ å²¸
å¾· æ£®
åĮĹ æľĿ
ä¸ľ éĹ¨
èĩ³ 2009å¹´
çŃī åĢĻ
å°Ĩ ä¸İ
æĭī æĽ¼
å¤ĸ åŀĭ
ç§ĳ æĸ¯
èģĶ è§ī
èµ· æĿ¥çļĦ
æ°´ å¸Ī
å½± éĻ¢
è®® äºĭ
éĺ¿ åħ¹
å¥³ å©¿
å¹¿ ä¸ºäººçŁ¥
å¥¥ å·´é©¬
å¡Ķ åĲī
èħ ķ
çº¢ çĻ½
åĲĮæĹ¶ æľŁ
es tĠ
for d
è¾ĸ ä¸ĭ
åĪĩ æĸ¯çī¹
éĢĲ åĩº
æ¿ ®
éħ¸ æĢ§
æĸ°éĹ» èģĶæĴŃ
å®ª æĶ¿
åĲ¬ è¯ģ
ç§ĭ å¤©
åģı ä¸ľ
èĻİ å°¾
æħĪ ç¦§
188 0å¹´
ĠA ward
çļĩå®¶ ç©ºåĨĽ
ä¸Ģä¸ĸ çļĦ
Ġ193 6å¹´
æŀĦæĪĲ äºĨ
186 4å¹´
çļĦåİĨåı² å¹´ä»£ä¸º
Ġ192 5å¹´
æĹ¥æ²» åĪĿæľŁ
å¥ł å®ļ
Ġæķħäºĭ ç®Ģä»ĭ
åı²èĴĤ å¤«
Mic hael
æķ£éªĳ å¸¸ä¾į
7 ä¸ĩ
Ġ åħ¬åı¸
çļĦ åĬ¨çĶ»
çļĦ çĶ·æĢ§
çļĦ è§£éĩĬ
çļĦ è¾¹çķĮ
æĸ ¡
ä¸Ģ æ¥¼
ä¸Ń è§Ĩ
æĹ¶ æľº
è½ ¼
ä¸Ĭ è¡¨
ä¸į èĤ¯
æĸ¹ èĪŁ
ãĢĭ ),
åĬ¨ ä¹±
çī¹ è´¨
å¼Ģ æºĲ
åı¯ ä¸İ
æĸ° åºĦ
æĸ° æ½Ł
åīį ä¸¤
ä¹Ł éĹ¨
æĭī æĸĲ
é©¬ èĴĤ
éĢļ åħ³
å·ŀ æĶ¿åºľ
çº¿ åľ¨
éĺ¿ ç±³
å®ŀ å½ķ
å¥¥ æĭī
an e
åĮħæĭ¬ æľī
åı¯ä»¥ åĪĨä¸º
æīĵ åį°
èĤ² æľīä¸Ģ
åħŃ ä¸ªæľĪ
è®¤ä¸º ä»ĸ
æĿİ çĻ»è¾ī
ä½ľä¸º ä¸Ģç§į
éĺ² èĪ°
èĪ° èĪ¹
æĹ¶éĹ´ éĩĮ
å£° æľĽ
åıĮ æºª
é£ŀ èīĩ
ä»į ä»¥
ä¸Ńå¤® çłĶç©¶éĻ¢
æľ¨ åħ°
å³ ª
éĢĢ èµĽ
å®« åĨħ
èĬĤçĽ® çļĦ
èī¾ è¿ª
æĳĦ åĥı
å¸ķ æĸ¯
è¡¥ éĢī
çĶŁäº§ äºĨ
æĮī éĴ®
ä¹Ķ ä¸¹
ç¼º å¤±
åĢŁ åı£
çĶļèĩ³ åľ¨
å¥ı æĽ²
æ¸¡ è¾¹
ä¹Łæľī ä¸ĢäºĽ
ĠA b
Ġ195 7å¹´
æĴĴ åĵĪæĭī
å¿ĥçĲĨ åŃ¦å®¶
é¼ł çĸ«
äºİ196 0å¹´
äºİ195 2å¹´
åŃ¤ çĭ¬
çļĦå¤ĸ è§Ĥ
åĵĢ æĤ¼
åį°åľ°å®ī çº³å·ŀ
åİŁå£° å¸¦
åĬªå°Ķ åĵĪèµ¤
çĺŁ çĸ«
ä¼ıå°Ķ åĬł
J os
L S
X X
w e
Ġ åĬł
Ġ ä¸ĭè¾ĸä»¥ä¸ĭåľ°åĮº
Ġ åĪ¶å¤ĩ
çļĦ 4
çļĦ çĶŁçī©
ãĢģ -
åº ł
å· ³
åĴĮ å®ĹæķĻ
ä¼ļ éĢłæĪĲ
æľ¬ ä½ĵ
å¹³ åĩ¡
ä¸ľ éģĵ
èĩ³ 2019å¹´
æŃ¤ æ¡Ī
ç«ĭ çļĦ
å¦ Ĵ
å¤© åı°
æĺİ çıł
èĭ± åĭĩ
å°¼ åĬłæĭī
éĩĳ éĻµ
éĺ¿ éĥ½
åı² ä¹¦
æīĭ ä¸Ĭ
åĽ¢ åĽ¢éķ¿
æĽ´ æĹ©
æ´» åĮĸ
åıĸ åĲįä¸º
åı¤ æĸ¯å¡Ķå¤«
åį³ ä»Ĭ
ä¼Ĭ çİĽ
ä¼Ĭ çĬģ
èĭı åħ±
ä»¤ ä»ĸ
çĻ½ çŁ³
æĿİ æĸĩ
åįı åĴĮ
åī¯ å¤Ħéķ¿
å¤± æİ§
çļĩ åŃĲ
ç»Ħç»ĩ äºĨ
éŁ³ä¹Ĳ çļĦ
æ¢ħ åħĭ
ç½² çĲĨ
æĿĤ è´§
äººåĳĺ çļĦ
ç¦ģ å¿Į
éĺ¿å°Ķ ä»£ä»Ģ
ä¹Ķ æľ¨
ç§ģ å®¶
éĽª å±±
un ch
æľĢåĪĿ æĺ¯
éº» çľģ
ä¹Ļ ç»Ħ
çĴ ĩ
ç»ıå¸¸ åľ¨
åľ°ä¸ĭ ä¸Ģå±Ĥ
å±ħä½ı äºİ
188 8å¹´
çºµ çģ«
ĠO pen
ç¼ħ åĽł
æ´Ĺ æīĭ
éĽĩ çĶ¨
éĺª ç¥ŀ
å¿½ å¿ħ
é¢ĩ æľī
ric k
ç»¥ è¿ľ
å²Ĳ éĺľ
èŀºæĹĭ æ¡¨
ç¿°æŀĹéĻ¢ åº¶åĲīå£«
éº¾ ä¸ĭ
ä¸Ńçº§ äººæ°ĳæ³ķéĻ¢
åŁ¼ çİī
6 èĩ³
A s
F 1
I CO
U nivers
çļĦ èµĽäºĭ
ç» Ľ
å¸ ĺ
å¤§ ç¢Ł
åĴĮ B
åĴĮ æµ·
åľ° è²Į
æĪĲ ä¹¦
é¢ į
åĨĽ èĬĤåº¦ä½¿
è¢« éĩįæĸ°
å¯¹ æĸ¹çļĦ
æīĢ æĿĢ
çŁ «
æľº èĥ½
ç³» æķĻæİĪ
éĢī åĿĢ
éĩĳ æ£®
è£ ĺ
çĤ¹ åĩ»
èĭı èı²
è°ĥ çĶ¨
è°ĥ å¾Ģ
è°ĥ æİ§
åĪĿ æ®µ
åĵĪ ç»´
åĵĪ æģ©
åľŁ åľ°çļĦ
åįĥ æĪ·
æŀģ å°ĳ
çĶ² åįĪ
ç´ł é£Ł
çľĭ åĪ°äºĨ
æ³¨ éĩĬ
he d
å®£å¸ĥ ä¸İ
ä¸½ èİİ
re w
æīĢä»¥ åľ¨
ãģ ¨
ãģ ¾
28 äºº
éĵ¶è¡Į çļĦ
é»ĺ å°Ķçī¹
ä¸¥éĩį çł´åĿı
å¹¶ä¸į èĥ½
åĩ¤ å±±
ĠA ir
ĠB u
äºİ198 1å¹´
æŃ¦è£ħ åĬĽéĩı
å»ºåĪ¶ æ´¾
è´Ńä¹° äºĨ
æ°Ķè±¡ ç«Ļ
æ²¿æµ· åľ°åĮº
çŁŃæļĤ çļĦ
åį°ç¬¬å®ī äºº
ä¸ĭåįĬ åľº
æĺ¯ç½Ĺé©¬å°¼äºļ çļĦä¹¡
ä»Ģåı¶ æ´¾
ç¦ıæ²» è°·åı·
æĺ¯ç½Ĺé©¬å°¼äºļçļĦä¹¡ ä»½
H S
N a
o int
Ġ èĥ¡
Ġ çĶ¨éĢĶ
çļĦ åĦ¿ç«¥
åľ¨ 18
åľ¨ æĶ¿æ²»
äºº å¯¿
å¤§ ä¸ļ
å¤§ æ¸ħ
å¤§ æĢĴ
åĴĮ æĬĢæľ¯
åĲİ éĥ¨
æĸ¯ æĹº
èĭ ĩ
çī¹ èķ¾
è¿Ļ æī¹
å¼Ģ èĬ±
å¹³ åľ°
åĮĹ éģĵ
å»º çī©
æŃ¤ é¡¹
éĵ Ĥ
åħ¨ ç§°
éĻ¢ éĻ¢å£«
ä¸ŃåĽ½ æ°ĳä¸»
åĽĽ åįģä¸Ģå¹´
çķĮ éĻĲ
æīĭ å·¥
çĤ¹ æķ°
ä¸ĩ æĪ·
äººæ°ĳ å§Ķåĳĺä¼ļ
ä»£è¡¨ äººçī©
éĽ· æģ©
çĶ° éĩİ
æķ´ æ²»
æ²Ļ å·´
çĹħ æĤ£
ä¸Ńåįİ åı°åĮĹ
å®¤ çļĦ
è¡ĮæĶ¿ æľºåħ³
æĤ ĸ
ä¾¿ åı¯
åį¢ æĸ¯
é¼ ¬
é¡» è´º
è¶ħè¿ĩ 100
as on
èģĮä¸ļ èģĶèµĽ
æ¬¢ ä¹Ĳ
è·Ŀç¦» åľ°çĲĥ
æ¯ģ äºİ
åĲĪå¹¶ ä¸ºæĸ°
ç§Ł çĶ¨
ä¿Ĺ åĲį
èļ Ĥ
æĬĺ ç£¨
è´¾ æĸ¯
äºİ196 4å¹´
åĽ½åĬ¡éĻ¢ æĢ»çĲĨ
äºİ195 5å¹´
è¾¹çķĮ åľ°å¸¦
è¡į çĶŁçī©
åĤħ ä½ľä¹ī
Ġ192 8å¹´
Ġ192 7å¹´
æĺ¾èĳĹ çļĦ
æĺ¯ä¹Įåħĭåħ° è¥¿éĥ¨
sh ip
èĢ¶ç¨£ ä¼ļ
è´§è¿Ĳ ä¸ļåĬ¡
å°¼åı¤æĭī èĢ¶å¤«
ä¹ĺè½¦ äººæ¬¡
ech n
ç§ĳç½Ĺæĭīå¤ļ å·ŀ
åı¶åīĳ èĭ±
å¿½å¿ħ çĥĪ
5 æ¬¡
R A
c i
çļĦ åĬ¨çī©
çļĦ éĢīæĭ©
çļĦ å¸®åĬ©ä¸ĭ
ä¸º ä»£è¡¨
ä¸º æł¸å¿ĥ
ä¸Ģ ä¹¦ä¸Ń
ä¸Ń ä½į
æĺ¯ è¥¿
æĺ¯ æĹł
æĭ ·
æĹ¶ æīį
åŁ ¤
æĸ¯ éĢļ
åħ¬ çĲĨ
åĲį æ¬¡
åĪĨ ç«Ļ
è¥¿ çļĦ
çī¹ æ´Ľä¼Ĭ
ä¹Ł åıĹåĪ°
éģĵ å°Ķ
å°Ĩ åİŁ
å¤ĸ åį¡
èĬ ¹
ç§° è°ĵ
åŁº åľ°çļĦ
éĺ¿ çĳŁ
åĽĽ æµ·
äººåı£ æľī
äº¤ æīĢ
ä¹¦ çĶ»
ä¼ł æĦŁ
æĮģ èĬĤ
çŁ³ çªŁ
æ¯ı äºº
é¦Ļæ¸¯ çī¹åĪ«è¡ĮæĶ¿åĮº
æŃ¦ ä¾ł
å®£ æĪĺ
ä¿® é¥°
ç¬¬äºĮ åįģ
è¯ģ ä»¶
ä¹ĭä¸Ģ æĺ¯
æĤ Ħ
æł¸ èĥ½
7æľĪ èĩ³
è¿½ æĿĢ
è¡Ģ ç³ĸ
22 æĹ¥
æ±ĩ åĲĪ
æ±ĩ çİĩ
èİī èİī
æĸĩåŃ¦ ä½ľåĵģ
éģ¿ å¼Ģ
å¤ªéĺ³ çļĦ
ä¸īåįģ åħ«å¹´
çĭ± ä¸Ń
æŁ¯ æľ¬
å®ĥä»¬ åľ¨
ĠO r
Ġ196 2å¹´
æĸĳ çº¹
è¯¥çľģä»½ä¸ºæ³ķåĽ½ ä¸ľåĮĹéĥ¨
é²į åĭĥ
ĠæŃ¤ ç«Ļ
åıĺå¾Ĺ æĽ´åĬł
ä¿ĺ èİ·
èĢĹ å°½
if ic
å§Ĭ å§Ĭ
èĲĿ æĭī
åĭ¾ ç»ĵ
é©¬åĬĽ è¯º
æĸ°å¢ŀæľ¬åľŁ æĹłçĹĩçĬ¶æĦŁæŁĵèĢħ
æļĳ åģĩ
è©¹å§Ĩ å£«
çĶ±è¯¥ éģĵè·¯
è¯¥çľģä»½ä¸ºæ³ķåĽ½ä¸ľåĮĹéĥ¨ åĨħéĻĨçľģä»½
2 4å¹´
2 åº§
3 èĩ³
4 0å¹´
6 ä¸ªæľĪ
S BS
v en
æĺ¯ ç§į
æĺ¯ ä¸Ńåįİæ°ĳåĽ½
è¡ ħ
å¤§ ä¸»æķĻ
æī Ī
éĿ ¡
æĸ¯ è¯º
ç¬ ĭ
å®¶ æĿĳ
ä¸ĭ è½¦
åı¯ è¢«
çĶµ è§£
åħ¥ ä½ı
é©¬ è½¦
éĢļ åķĨ
å·ŀ çŁ¥å·ŀ
ç½Ĺ å¾·éĩĮ
çĽ¸ å¤Ħ
æıĲ éĹ®
æ´» æ³¼
éĿŀ èĲ¥åĪ©
åı¯ä»¥ çĶ¨æĿ¥
çļĦä¸Ģ èĪ¬
åĵĪ åº·
æĹ© äºİ
åĽ½éĻħ å¥¥å§Ķä¼ļ
çĶ° æĿĳ
èĲ½ åľ°
ä»į æĹ§
13 ä¸ĸçºª
åĩł åįģå¹´
ç´¢ æģ©çľģ
èģĶåĲĪ æĶ¿åºľ
è¿Ļä¸ª è§Ĵèī²
æķĳ çģ¾
ä½© åĭĴ
è£ģ æĴ¤
éĽ¨ æŀĹ
èµĽåŃ£ ä¸Ń
åİ¿çļĦ æĻ®æŁ¥è§Ħå®ļå±ħæ°ĳçĤ¹
ĠW h
çºµ è´¯
å¿«éĢŁ åĪĹè½¦
ĠO ne
çĵľ åĪĨ
çĨĬ çĮ«
äºİ197 4å¹´
åľ¨199 1å¹´
äºİ196 2å¹´
åı°åįĹ åİ¿
ç§įæĹı éļĶç¦»
åįİçĽĽé¡¿ å·ŀ
æ´¾åĩº æīĢ
å§ĳ å¨ĺ
Sh ow
ç»§ä»» èĢħ
é¹¦é¹ī åĺ´
é²¨ é±¼
å·¥åĨľ çº¢åĨĽ
ç¥ŀå¥Ī å·Ŀåİ¿
æĸ¹æµİ åĲĦ
çµ ®
èĭ±åĲīåĪ© æµ·å³¡
å°¼åĬłæĭī çĵľ
u li
çļĦ æľĭåıĭ
çļĦ ç«ĭåľº
çļĦ å¦¹å¦¹
ç» ®
åľ¨ 2002å¹´
ä¸º çĭ¬ç«ĭ
ä¸Ń åĿľ
æĺ¯ è¶ĬåįĹ
å¤§ å°ıçļĦ
åĲİ ä¼ļ
åĲİ éĩĳ
åĲİ å°±
æĪĲ åĽł
æĸ¯ æ³°
æĬ ĸ
ãĢĭ (,
å¸Ĥ è¾ĸåĮº
åĲĮ æŀĦ
åĬ¨ è®®
è¿Ļ çīĩ
è¿Ļ éĩĮçļĦ
ç¾İ åĪ©
åīį ç«¯
åĽł äºİ
è·¯ äº¤åıīåı£
ç«Ļ ä¹ĭéĹ´
éĩį çĶ¨
é¦ĸ åº§
åįİ å±±
é¦Ļ æĸĻ
çīĪ ä¸Ń
ä¸Ķ æľī
ç½ĳ éĻħ
åħ« åį¦
å¸Į å§Ĩ
æ±ī åŁİ
åį« åħµ
çĹħ åİŁ
çĻ» é¡¶
åıĳå±ķ æĪĲä¸º
æģ© æĸ¯çī¹
æ¥¼ éĿ¢
è¾ĸ ä¸ĭçļĦ
çĿĢ æīĭ
åŁİå¸Ĥ è§ĦåĪĴ
æľĢåĲİ ä¸Ģä½į
åį¢ è¥¿å®ī
äº¤éĢļ æŀ¢çº½
é»İ åĲĦ
å¢ŀåĬł èĩ³
éĨ ĭ
èĤ¯ å°¼äºļ
èĩªçĦ¶ èµĦæºĲ
é¢Ĺ æĺŁ
29 æĹ¥
æ»¨ æĿ¾
ç»į å°Ķ
188 7å¹´
ĠA m
ä½Ĩæĺ¯ çĶ±äºİ
æĺ¯ä¸ŃåĽ½ çļĦçī¹æľīæ¤įçī©
å¼ķåıĳ çļĦ
è¥¿æĸ¹ åĽ½å®¶
äºİ196 7å¹´
æĬĳ éĥģ
çļĦåĲİ ä»£
éĻª ä¼´
çĶ°å¾Ħ éĶ¦æłĩèµĽ
æ»ĭ çĹħ
æĳ©å°Ķ å¤ļçĵ¦
åī©ä½Ļ çļĦ
ä¸ĢåĽ½ ä¸¤åĪ¶
åĭĥåħ° çĻ»åł¡
å¸ĥå®ľè¯ºæĸ¯ èī¾åĪ©æĸ¯
åĽ¾åį¢ åħ¹
1 æĹ¶
H I
çļĦ å¥½
çļĦ åŃ¦æł¡
äºĨ ä¸ŃåĽ½
ä¸į ä¸Ĭ
ç¬¬ 30
ç¬¬ 38
ãĢĭ ).
å¹¶ è®©
åĪ° ç¾İåĽ½
æĶ¿ å±Ģ
åįĹ éĹ¨
åı¯ æĢķ
å¾· åľ¨
æĸĩ æĺĮ
é«ĺ å°Ħ
äºļ è¿°
éĿ¢ åħ·
ä¸ī æ²³
åı° çĭ¬
è½¦ èĩ£
èĲ İ
åĪ¶ å®ª
åı£ æľį
å®ī çº³
æ¯Ķ åħ¶ä»ĸ
ç¦ º
æĢ» éĩı
åŁº åºķ
åŁİ æ±ł
èµ· çģ«
æ°´ åĮº
æĶ¹ éļ¶
æ¸¯ çĿ£
ç»´ åº¦
è¯´ ä»ĸ
æĺŁ çº§
æĽ´ æĶ¹ä¸º
in n
ä¸»è¦ģ åĮħæĭ¬
æ®µ èĲ½
è´¨ ç´ł
æĬķ å¥Ķ
å¾Ī éķ¿
çħ İ
åĨľ äº§åĵģ
mu n
éĢĢ ä½į
it a
el le
éĢīä¸¾ å§Ķåĳĺä¼ļ
æĿ¿ ä¸Ĭ
åħ¶ä¸Ń ä»¥
æįķ é±¼
åĶ¯ æľī
ä¼ģä¸ļ çļĦ
æİĮ æĿĥ
500 ä¸ĩ
éķ¿æľŁ ä»¥æĿ¥
çŃ¹ æ¬¾
æĶ¶å½ķ åľ¨
ä¼Ĭæĸ¯åħ° åĽ½
åı¬å¼Ģ çļĦ
åį«çĶŁ ç»Ħç»ĩ
åĽ½åĬ¡éĻ¢ æī¹åĩĨ
éĺ²å¾¡ å·¥äºĭ
ep t
æª ¬
JR è¥¿æĹ¥æľ¬
æĥ¨ è´¥
éĺ¿å°Ķåįĳæĸ¯ çľģ
è¿Ļåº§ åŁİå¸Ĥ
å¼Ģå·¥ å»ºè®¾
ä»£è¨Ģ äºº
å¤©æ°´ åĽ´
æľ¬é±¼ ä½ĵ
æ³¢å¤ļ é»İåĲĦ
F O
a ĠP
Ġ éŁ©åĽ½
Ġ è¿ĩåİ»
Ġ åĪ«åĲį
çļĦ æ¼Ķåĳĺ
çļĦ åħ±åĲĮ
çļĦ å½±çīĩ
çļĦ åŃ©åŃĲ
å¤ Ń
åľ¨ è¥¿çıŃçīĻ
æľī ä»¥ä¸ĭ
åĲİ ç»ı
å¹¶ åĽłæŃ¤
åĲĮ ä¹¡
åı¯ çŁ¥
æĸ° è®¾
åīį è¿°
èĩ³ å¤§
èĩ³ æŃ£
æĭī å°¼
å·¥ åľº
å±± çĶ°
èµ· çĶ¨
å¥³ çľŁ
éĴ °
åĽŀ éģ¿
åŃĹ éĿ¢
é£İ çĲ´
åħī åº¦
çĵ¦ çº³
è¨Ģ ä¹ĭ
çĶ· æŃĮæīĭ
éĽ· å°Ķ
åħ« åı·
å®Ĺ çļĦ
åıĮ åŃĲ
çĶ² çĬ¶
æķĪ èĥ½
åºķ ä¸ĭ
ç´ł æĿĲ
åİĤ æĪ¿
éĢģ åħ¥
è·Ŀ ä»Ĭ
äºĨä¸Ģ ä½į
è¡Ģ èħ¥
è½¯ éª¨
éĢĥ çĬ¯
ä½ĵèĤ² ä¸Ńå¿ĥ
éĤ» åĽ½
IN G
im eĠ
æľĢå¤§ æ°´æ·±
æŁ¯ æĸĩåĵ²
è¢Ńåĩ» äºĭä»¶
ag eĠ
çļĩå¸Ŀ çļĦ
ĠG irl
æıĴ åĽ¾
æĭīä¸ģ æĸĩ
çīµ è¿ŀ
çĽ¸æ¯Ķ ä¹ĭä¸ĭ
å¿§ éĥģ
Ġand Ġ
è¶ĬæĿ¥è¶Ĭ å¤ļ
ä¸¢ å¤±
wit ch
è¤Ĵ è´¬
æĭľä»ģ æħķå°¼é»ĳ
ç±³åĵĪ ä¼Ĭå°Ķ
èĻĶ è¯ļ
è¾Ľè¾Ľ éĤ£
- ãĢį
5 Ġå¹´
z e
Â ²
Ġ åıįåĵį
åĲ ł
åį ī
åĳ ķ
åŃ¦ å¾Ĵ
åĩº æ²¡
å¹¶ èĩª
åĪ° é¦Ļæ¸¯
çĶ± æ³ķåĽ½
èĩ³ 2008å¹´
è½¦ åĨħ
ç¥ ļ
åľº æ¯ĶèµĽä¸Ń
å°ı å±ĭ
å®ī äºº
æ¯Ķ ä¸Ĭ
10 åı·
è¾¾ æĭī
çº¦ åĲĪ
è®¡ ç¨ĭ
é¦ĸ ç§Ģ
éĩı çº§
æĺŁ ç©º
æµģ çļĦ
æĶ¿åºľ éĥ¨éĹ¨
é¦Ļ å±±
ç¬¬ä¸Ģ å¼ł
åı¯ä»¥ è®©
æ°Ķ è´¨
ç©¶ ç«Ł
ä¸ĸçķĮ åĲĦåľ°çļĦ
æĿİ åĽ½
è¯º æĭī
åĥ ĸ
å®¢ éĩı
çģ« çł²
çģ« çĤ¬
æĹ¶éĹ´ è¡¨
æ·± éĢł
æ¡¥ æ®µ
è½½ åħ·
ç»Ĩ éķ¿
å¼Ĥ æ¯į
ä¸ªäºº ä¸ĵè¾ĳ
éĻµ åİ¿
189 2å¹´
éĺ» åĬĽ
ä¹Ļ éĨĩ
å¾Īå¤ļ äºº
çĶµè§Ĩåı° çļĦ
å¼± åĬ¿
ä¾¯ çĪµ
åĤ¨ éĩı
âĢĿ( ).
ĠR es
ĠD e
ĠG e
ak er
Ġ193 3å¹´
å®¢è¿Ĳ ä¸ļåĬ¡
äºİ193 9å¹´
æ³¢æĸ¯ å°¼äºļ
åĴĸ åĸ±
è¤ ¶
çļĦæĹ¥ åŃĲ
å°¼åı¤ æĭīæĸ¯
lat ion
æľŃ å¹Į
çĶŁéķ¿äºİæµ·æĭĶ 1
å®ľåħ° åİ¿
çŃīåĲĮ äºİ
åįĹå¼Ģ å¤§åŃ¦
' ,
3 A
Ġ æĢ»
Ġ å¦Ĥ
Ġ ch
Ġ ç¬¬åĽĽ
Ġ Qu
çļĦ D
çļĦ æĮĩæĮ¥
å¹´ å°ĳ
åľ¨ ç»ıè¿ĩ
æĪ Ł
ä¼ļ åłĤ
æĪĲ ç¥ĸ
ä¸İ å¦»åŃĲ
å¹¶ åıĸå¾Ĺ
æ³ķ æ²»
è¿Ļ å¯¼èĩ´
èİ Ĩ
å¾· å¡ŀ
ä¸ī æĮ¯
èµĽ ç¨ĭ
è¡¨ æĥħ
å±± èĦļ
èĢħ æľī
åĮĸ å¸Ĥ
å¤© å®Ŀ
å±ŀ åľ°
éĺ¿ ä¼ĬåĬª
äº¤ æīĭ
é¢Ĩ åıĸ
er o
åĳ½ é¢ĺ
è®º èĢħ
ä¼Ĭ åĩ¡
æ³¢ æµª
åķĨ ä¸ĺ
å¯Ĩ çī¹
æŃ¦ èŃ¦
é¢ĺ çĽ®
èĲ¥ éķ¿
æİ¨ å¯¼
å¸Į å¤«
åĬŁ åĬ³
çĶµå½± åŃ¦éĻ¢
éĺ³ äºº
éĺ³ éĥ¡
ä¸Ńåįİ èģĮæ£Ĵ
çķĻ è¨Ģ
æľĢç»Ī äºİ
çĳŀ æĸ¯
çļ® åħĭ
ä¸½ åħ¹
é©» æ¸¯
æĿŁ ç¼ļ
æĹĹ äºº
èĩªçĶ± ä¸»ä¹ī
ä»ĭ éĿ¢
äºĨä¸Ģ æĿ¡
çĶŁäº§ åķĨ
èĪªç©º èĪªå¤©
åĪ» çĶ»
è®¢ å©ļ
æ³Ľ æ»¥
åĨįæ¬¡ è¢«
im p
åĭĭ çĪµ
çĬ¹å¤ª äººçļĦ
ĠP ark
ĠG ames
æĺ¯æ³ķåĽ½ ä¸Ĭæ³ķåħ°è¥¿å¤§åĮº
äºİ195 4å¹´
è¿Ļé¦ĸ æŃĮæĽ²
å±ķçİ° åĩº
å¸ĥæĶ¿ åı¸
ç¼Ĩ è½¦
èĩĢé³į ç¡¬æ£ĺ
æĻ®æŀĹ æĸ¯é¡¿
çĽİ æł¼é²ģ
ĠåĽ½å®¶éĺŁ çĶŁæ¶¯
ä¸ºè¾Ĳé³įé±¼çº²é²¤ å½¢çĽ®
F A
F R
P N
Ġ æĢ§è´¨
ä¸Ģ å¤ľ
ä¸Ń é£İ
ä¸Ń é¦ĸæ¬¡
å½ ¤
æĹ¶ äºĭ
éĿ ´
ä¸Ĭ æ¶¨
è¥¿ æĭī
åĨĽ åĴĮ
åıĬ æĸĩåĮĸ
æľĢ åıĹæ¬¢è¿İ
ä¸ľ ç«¯
æīĢ çĶ¨çļĦ
è¿ĩ å¢ĥ
è·¯ éļľ
å¸ĥ åį¢
200 2
å¤© é¡º
å®ī æīĺ
çĤ Ķ
10 å¹³æĸ¹åįĥç±³
é¦ĸ æĪĺ
éķĩ æ±Ł
ä½įäºİ é¦Ļæ¸¯
ä¹Ĳ è¯Ħ
åįķ äºİ
å·² è¾¾
èº ģ
è¿ĺ è®¾æľī
éĢł ä»·
å¤ª å°ī
å¼Ģå§ĭ åīį
ç¬¬äºĮ æľŁ
åħ« åįģ
ä½ľä¸º åħ¶
)ãĢģ ãĢĮ
am il
åģļ è¿ĩ
0å¹´ä»£ åĪĿ
000 ä¸ª
èī¾ æ£®
åįķä½į çļĦ
ä¸ºäºĨ éģ¿åħį
åĸľ å¥½
çĶ·åŃĲ è¶³çĲĥè¿ĲåĬ¨åĳĺ
22 äºº
å·¨ é¢Ŀ
æĢ¥ æķĳ
æľīä¸Ģ å®ļçļĦ
è§Ħå®ļ çļĦ
ç¬¬äºĮæ¬¡ åĽ½åħ±åĨħæĪĺ
æĺĨ å£«
æ²Ī éĺ³å¸Ĥ
çĽĹ è´¼
éĶģ å®ļ
187 6å¹´
éĢļè®¯ ç¤¾
åĦĴ åŃ¦
ä¸Ĭä¸ĭ è½¦äººæ¬¡
è¿¦ å¤ª
é¢Ī éĥ¨
å¿ĺ è®°
æ¶Īéĺ² åĳĺ
ç¾İåĽ½åĽ½å®¶ é£ĵé£İä¸Ńå¿ĥ
èĬ¯ çīĩ
åį«åĨķ åĨłåĨĽ
å¼ĹåĲī å°¼äºļå·ŀ
âĢĭ âĢĭ
å¯ŁåĲĪ åı°
åĩ¯çĳŁ çĲ³
b e
r ac
Ġ äºº
Ġ ç¦ı
Ġ ä¸ĸçºª
çļĦ R
çļĦ ç§ģäºº
çļĦ å²Ľå±¿
çļĦ è¨Ģè®º
ä¸Ģ åĲĳ
æĺ¯ è¦ģ
ä»¥ åĲİçļĦ
è§ Ĳ
ä¸į åĬŀçĲĨ
ç¬¬ æĪİ
ãĢĭ :âĢľ
å¯¹ ç¾İåĽ½
çī¹ æĬĢ
çī¹ èģĺ
èİ ª
å¾Ĺ çļĦ
æĢ§ æĦŁ
éĥ½ æĭīæĸ¯
çº¦ 40
åı¸ ç©º
æ¼Ķ åıĺæĪĲ
å·´ å°¼
æ® ¡
å®ŀ è¯ģ
åħļ å§Ķåī¯ä¹¦è®°
äºĶ æ¬¡
æĬ¥ èŃ¦
éĿŀ æŃ£å¼ı
æ±Ł åĮº
åıĪ å°Ĩ
å®£ å®Ĺ
ä»½ é¢Ŀ
äº² è¿ĳ
èĩ´ çĶµ
åĨĻ æ³ķ
ä»ħ æľīçļĦ
åĨľ æŀĹ
éĻį æł¼ä¸º
æīį åįİ
åıĳçĶŁ æĹ¶
èĪ¹ ä½ĵ
è¯· è¾ŀ
æ¸© å®¤
ä¼¤ åı£
è½® æ¸¡
èģĶåĲĪ å£°æĺİ
èµ« çī¹
æĢ»ç»Ł åĢĻéĢīäºº
çļĦå¤§ å¤ļæķ°
è¡ĮåĬ¨ åħļ
æĭľ çĻ»
èį· å±ŀ
100 åĲį
60 äºº
éĺ¿å°Ķ å¼ĹéĽ·å¾·
èĮĥåĽ´ åĮħæĭ¬
åĨħå®¹ çļĦ
ç©¿ ä¸Ĭ
26 äºº
ãĤ Ĭ
ç´§ éĤ»
ç¬¬åįģ ä¸ĥ
èıĮ å±ŀ
ra y
èŃ¦å¯Ł éĥ¨éĺŁ
äº¨ çī¹
è´Ŀå°Ķ æł¼èİ±
æŃ¤å¤ĸ è¿ĺæľī
æ¹ĸåįĹ æ¹ĺæ¶Ľ
å¨ģå°Ķ ç¬¬
186 7å¹´
äºİ195 9å¹´
èµĲ äºĪ
æ¶¦ æ»ĳ
Ġ19 18å¹´
æĮĩå¯¼ ä¸ĭ
å©Ĩ ç½ĹéĹ¨
åĢº åĪ¸
Ġn ame
èĤł éģĵ
åī¥ åīĬ
ä¸ºä¸ŃåĽ½ çļĦçī¹æľīæ¤įçī©
å®ģæ³¢ å¸Ĥ
Ġth at
æĺ¯ä¸Ģæ¬¾ çĶ±
èŃ¦åĬ¡ å¤Ħ
ä¼łæŁĵ çĹħ
å¥¥å¸ĥ çľģ
èįīæľ¬ æ¤įçī©
åĢ¼å¾Ĺä¸ĢæıĲ çļĦæĺ¯
æŁł æª¬
Y O
m Ġ
u de
Ġ åĲī
Ġ èĮĥ
åľ¨ èĭıèģĶ
ä¸º é«ĺ
æĺ¯ åįĹ
è¾ į
ä¸İ åįĹ
ä¸İ é©¬
æİ ³
å¤ļ ç½Ĺ
ç¾İ å°Ķ
éĿ¢ 1
ä¸ī éĥİ
çŃī åħ¶ä»ĸ
å®ļ ä»·
ç§į åĲį
ä¸¤ åħļ
çĽ¸ è¯Ĩ
æŃ£ éĿ¢çļĦ
å°¼ å¾·
éĺ¿ ä»Ģ
åı² åīį
éĩı æµĭ
å¸¸ æľī
0å¹´ èĩ³
åį¡ è¯º
å¥¥ æģ©çľģ
æĶ¿åºľ å®ĺåĳĺ
è¿ĺ æľª
å±Ģ ä¸Ĭ
æĽ² é£İ
æŃĮ è°£
å¤´ çŃī
ä¸ĸçķĮ ç¬¬ä¸Ģ
åħĪ æĺ¯
è£ħ ç®±
åı°æ¹¾ äºº
æ¯į åħ¬åı¸
17 æĹ¥
å§Ķåĳĺä¼ļ æĪĲåĳĺ
ç´¢ å¤«
æŃ£å¼ı åıĳè¡Į
ç²¾ åĩĨ
æŀ¶ ç©º
æĺ¯ä¸Ģ æĶ¯
åģĩ è£ħ
å¤º ä¸ĭ
è¶ħè¿ĩ 1
ãģ į
æºª åİ¿
åį± åľ°é©¬æĭī
ç»Łæ²» çļĦ
ä½Ĳ èĹ¤
ä¸īåįģ äºĶå¹´
ç¬¬äºĶ æ¬¡
ç¥Ń åĿĽ
çľģçº§ æĸĩçī©ä¿ĿæĬ¤åįķä½į
ĠE ng
æŃ¦è£ħ åĪĨåŃĲ
çŀ ³
Ġ193 2å¹´
äºİ194 3å¹´
è±Ĩ èħĲ
ä¿®å»º äºĨ
ric h
é¦ĸåºľ è®¾äºİ
ä¼Ĺè®®éĻ¢ è®®åĳĺ
ç¬¬ä¸Ģæ¬¡ä¸ĸçķĮå¤§æĪĺ æľŁéĹ´
åĽŀåĽ½ åĲİ
æĤ¼ å¿µ
åĮ¾ é¢Ŀ
åĽ½åŃĲ çĽĳ
ww w
éľī ç´ł
äºļä¼¯ æĭīç½ķ
éĺ¿åįľæĿľ åĭĴ
è·¯æĺĵæĸ¯å®ī éĤ£å·ŀ
åı± åĴ¤
BLAC KPINK
è¿¦å¤ª åŁº
3 10
7 èĩ³
8 Ġå¹´
I BM
m at
r um
Ġ ä»ĸä»¬
Ġ æ¸ħæľĿ
Ġ ä¹¡éģĵ
çļĦ è½¬
çļĦ çĶµè§Ĩ
çļĦ åıĳçĶŁ
æĸ Ľ
åľ¨ çİ°ä»£
ä¸Ń æĺ¯
ä¸Ń çļĦä¸Ģ
åĽ½ äº§
åĲİ ä¸İ
æĪĲ ä¸Ģä¸ª
åħ¶ ä¸ĭè¾ĸ
ä¹ĭ éģĵ
ä¹ĭ ä½Ļ
å®¶ çĶ¨
è¢« å®³
å¯¹ å¥¹
åħĭ éļĨ
éķ¿ çīĩ
åŃĲ ä¸Ĭ
åĬł ä¹ĭ
æľĢ çŁŃ
ä»£ è¯į
è¯¥ æĬ¥
æķĻ çļĦ
éļ ĺ
æı Ĩ
äºĮ åħĥ
200 ä¸ĩ
å¤© æŃ£
ç½Ĺ èĲ¨
éĩį å¤§çļĦ
çº¦ 8
çº¦ 15
åºľ åİ¿
éĺ¿ è¯º
åĽĽ éĿ¢
æŀĹ å®¶
ç®¡ åĮº
æľª å¿ħ
å®ĥ è¿ĺ
é¦Ļæ¸¯ ä¸Ńæĸĩå¤§åŃ¦
åķĨ çĶ¨
åħµ åºĵ
åħŃ æĹ¥
åħŃ è§Ĵ
å¼ķ æĿ¥
äº¦ ä¸į
ä¿® å£«
çĶ° åĮº
è¡¨ç¤º ä¸º
èĲ½ äºİ
ä¸Ńåįİ åħ¨åĽ½
éĿĴ é¾Ļ
éĿĴ æ£®
çĻ¾ äºº
é¸ ¥
å·Ŀ å¸Ĥ
å½±åĵį åĪ°
ç¬¬ä¸ī ä½į
æ°¸ æĺĮ
å½Ĵ æĿ¥
éĩįè¦ģ çļĦæĺ¯
èµ« åĭĴ
åĲ´ åĽ½
å®īåħ¨ çļĦ
çĹĩ åĢĻ
ç¯ĩ è®ºæĸĩ
è¿ŀæİ¥ åĪ°
çº¿çļĦ éĵģè·¯è½¦ç«Ļ
ub er
æķĻä¼ļ çļĦ
ĠP lay
åľ¨è¿Ļ æ¬¡
åľ¨199 5å¹´
å¡« åħħ
è¡° æľŁ
åĮĪçīĻåĪ© è¯Ń
å¼ĹæľĹ è¥¿
åįģä¹Ŀ ä¸ĸçºª
çī² çķľ
ç¬¬åįģä¸ī å±Ĭåħ¨åĽ½äººæ°ĳä»£è¡¨å¤§ä¼ļ
ð¬ ¶
ç»ĩçĶ° ä¿¡éķ¿
æ¤° åŃĲ
åį¢çĶĺ æĸ¯åħĭ
å¤įæĹ¦ å¤§åŃ¦
éĻĽ ä¸ĭ
åı²åħĭ å¨ģå°Ķ
1 æľĪ24æĹ¥
2 8å¹´
2 æľĪ23æĹ¥
l ing
Ġ åĲĮ
Ġ æ¼Ķåĩº
çļ ±
åľ¨ ä¸ĭ
æĺ¯ æ³¢åħ°
å¤§ èĥĨ
æµ £
éĹ ·
éķ Ĳ
åĩº è¡Į
éķ¿ ä¹Ĳ
åŃĲ ç¾¤
åı¯ ä»İ
å¹³ éĿĻ
æīĢ çĶ¨
èµĽ åĮº
æĪĺ åľ°
èĥ½ åĲ¦
æ¬¡ è¦ģ
åħ± åıĳçĶŁ
ç§° å¸Ŀ
å®ī ä¹Ĳ
è®¡ éĩı
æĹł æĿ¡ä»¶
ç»´ èĢ¶
çĽ´ åĪĹ
å¥¥ åĭĴ
éª ĩ
an ceĠ
æĶ¯ éĺŁä¼į
çº³ è¾¾
åī§ ä½ľå®¶
æľĿ åľ£
åĪĴ åĩº
å¯Ĩ éĴ¥
å®£ åĪ¤
ç½ĳ çĲĥåľº
åŃĺ æ¬¾
ä»£è¡¨ å¤Ħ
æĪĳ æĥ³
ç¤¾ä¼ļ æ°ĳä¸»åħļ
å¥ĩ çļĦ
å±ŀäºİ æ¸©å¸¦
æıĲä¾Ľ ç»Ļ
çªģ åıĳ
çĶŁæ´» æĸ¹å¼ı
åħ³ç³» å¯ĨåĪĩ
çĶļ å°ĳ
èĵĿ æľ¬
åĳ¼ åºĶ
èĤ¯ çī¹
çĶº æĿĳ
åı« å£°
æģĭ æĥħ
èį·åħ° è¯Ń
çļĦåīį æıĲ
åİ¿çļĦä¸Ģä¸ª äººåı£æĻ®æŁ¥æĮĩå®ļåľ°åĮº
æĺŁæľŁ äºĶ
çŀ ©
äºİ196 3å¹´
åį¢çĵ¦å°Ķ æ²³è°·
ä¸Ľ æŀĹ
19ä¸ĸçºª æľ«
èĤĿ èĦı
NBA éĢīç§Ģ
åı¯éĿł æĢ§
24å°ıæĹ¶ åĨħ
éĩĮç¨ĭ ç¢ĳ
éĶ¯ é½¿
æĸ°åįİ ç¤¾
åħĥèĢģ éĻ¢
åĲĳåħ¬ä¼Ĺ å¼ĢæĶ¾
æµ·åĽł éĩĮå¸Į
çļĦè½¨éģĵåįĬéķ¿è½´ ä¸º2
åİĦçĵľ å¤ļå°Ķ
ç¼ĸå¹´ åı²
çĶ²çĬ¶ èħº
G ame
Î º
Ġ ä½ķ
Ġ åĪĽä½ľ
çļĦ è§Ĵåº¦
ä¸º å¦»
ä¸Ģ æľĪ
ä¸Ń èĭ±
äºİ 2026å¹´
å¤§ æĺİ
åĩº è¡Ģ
èĢĮ å®ļ
å¯¹ æİ¥
è¿Ļ èµ·
å¤ļ éĩį
åı¯ å°Ĩ
æµ· çļĦ
èĩ³ 2020å¹´
è¿ĩ æķı
éļ ¼
å¤ĸ è¡ĮæĺŁ
æ¯Ķ åĸ»
åı¸ éĥİä¸Ń
18 00
æĽ¾ èİ·å¾Ĺ
æĹł æķĮ
äº¤ éĶĻ
æĦı åį³
çĥ ĺ
è¯´ åĶ±
å·² æĺ¯
æ¯ı ç»Ħ
çĶ» å»Ĭ
16 æĹ¥
çĮ ¬
é»Ħ å¸Ŀ
é»ĳ èī²çļĦ
13 00
æĬĹ åİŁ
é¹ ĥ
ç»Ĩ å·Ŀ
åºĹ éĵº
åĶĲ å¤ªå®Ĺ
è¯» åıĸ
æĿ¥èĩª ç¾İåĽ½
åĨ² ç§¯
ä¸ºäºĨ è®©
10æľĪ èĩ³
åģĩ å®ļ
æİ¥åıĹ çļĦ
èĪŀ èĢħ
éĺ¿å°Ķ ä¼¯çī¹
ç´§ åĩĳ
ç»ķ è¿ĩ
çĨŁ çŁ¥
åľ¨199 4å¹´
è¡° ç«Ń
å¼ĹæľĹ è¥¿æĸ¯
åĽĽåįģ ä¸īå¹´
ich ard
ç¼ª å°Ķ
é©¬å£« éĿ©
æļ¹ ç½Ĺ
åį¢è¥¿å®ī è¯º
D ay
K ar
P ad
S F
Ġ or
Ġ æĻļå¹´
çļĦ ç¼ĸè¾ĳ
åľ¨ ç¬¬ä¸Ģ
è¯ ¡
å¤§ åĪĨ
æľī åĲį
ä¼ļ äºİ
ä¼ļ åĲİ
åĩº åĽ½
åħ¬ åºĻ
å®¶ çĿ£
æ³ķ åĴĮ
èĢĮ åħ¶ä»ĸ
è¢« æĴ¤éĶĢ
èĩª ç«ĭ
æµ· å°Ķ
éĹ´ è·Ŀ
åĽł æ¶īå«Į
ä¸ī æ®µ
è½¦ å¤´
å°Ĩ èĩªå·±
è° ļ
åı£ åĳ³
å°ı æŀĹ
ä½¿ å¾Ĵ
æĢ» æĮĩæĮ¥
éĩĳ åŃĹ
ä¹Ĳ è§Ĥ
çĽ´ éĢī
å¥¥ çī¹
åħ¬åı¸ åĴĮ
åŃĹ åħ¸
æ±Ł æ³½
åħī æ³½
åĪĿ åĽŀ
å¼º é£İ
åĨį ä¸Ģæ¬¡
åħµ éĥ¨å°ļä¹¦
åº§ çļĦä¸Ģ
æŃ¦ å¨ģ
è®¤ä¸º è¯¥
çĵ¦ åĪ©
ä¿® è¾ŀ
en a
en ce
åĿĩ æľª
å·¥ä½ľ ç»Ħ
æİĴ ä½į
é»Ħ çŁ³
éĩĩ çŁ¿
é£Ł æĿĲ
åŁĥ æĿ¾
åĵ¥ æĸ¯è¾¾
æľ¨ ç»ĵæŀĦ
ä»ĸçļĦ å¦»åŃĲ
ä¾Ŀ éĻĦ
åħ¨åĽ½ äººæ°ĳä»£è¡¨å¤§ä¼ļ
åĪ¤ åĪĳ
ä¸¹ å°¼æĸ¯
éģĹ éª¸
æ²¹ ç®±
åį´ ä¸į
ç½² åĲį
æŀª æĿĢ
çĶļ ä¹Ī
å®½ 0
å¹ķ éĹ¨
æĪª çĦ¶
ä¾µ è¢Ń
çīĪæľ¬ ä¸Ń
èµĦæĸĻ åºĵ
éĽ¨ æ°´
èĴĻåı¤ æĹı
æĤ£ çĹħ
éĿĻ æŃ¢
çī§ é¦ĸ
ĠB e
ä¸īå¹´ åĲİ
Ġ194 0å¹´
åİĦ å°Ķçľģ
ç´« èįĨ
äºİ196 9å¹´
äºİ195 6å¹´
è¡¨éĿ¢ ä¸Ĭ
Ġf irst
èĵ¬ åĭĥ
ä¸Ĭä¸ĭ è¡Į
èµ£ è¯Ń
ç½Ĺå¤« æĸ¯åħĭ
mer ican
çĻ¾ç§ĳ åħ¨ä¹¦
é¢Ħå¤ĩ éĺŁ
æĸ°ç«¹ åİ¿
è°£ è¨Ģ
çĨĶ å²©
æĪĺåĽ½ æĹ¶ä»£
åĿĩåľ¨ éĹŃçİ¯ç®¡æİ§ä¸Ńåıĳçİ°
Ġä¸Ńåįİäººæ°ĳåħ±åĴĮåĽ½ æĪĲç«ĭåĲİ
ç½¹ éļ¾
olog y
IU CN
çĮ© çĮ©
å¤ĸæĺŁ äºº
ç¾ģ æĬ¼
è¾Ĺ è½¬
è¾Ľè¾ĽéĤ£ æıĲ
2 æľĪ16æĹ¥
P I
X å°Ħçº¿
k g
m ar
Ġ å¤§åŃ¦
Ġ æĹ§
Ġ æ¼Ķèīº
çļĦ å£«
å¹ Ĥ
åľ¨ ä¸¤
ä¸Ģ åĵ©
æľī ä¸º
ä»¥ æį¢åıĸ
åĲİ è¿Ľåħ¥
äºĨ è¿Ļä¸ª
åľ° åľ¨
ä¸Ĭ æŀ¶
ä¸į è¾¾
ä¸į ç¬¦
åħ¶ æĹ¶
æ¸ ²
ä¹ĭ å¦»
è¥¿ æĻĭ
èĢĮ æľª
è¢« å°ģä¸º
æĮ ļ
è¿Ļ è®©
èĩª å¼º
å¾· éŁ¦
ä¸ľ åĲ´
éĿ¢ ç²ī
ä¸ī åĪĨä¹ĭäºĮ
å½ĵ ä¸»
æ¬¡ éķ¿
éĢļ åĳĬ
å¤© å®«
æŃ£ æ®¿
åºľ åŁİ
æĹł è§Ĩ
å¿ĥ ä¸Ń
åį¡ çīĩ
ä¼Ĭ æľ¬
æ°Ķ åĳ³
å¤į èĭı
èĲ¥ çļĦ
ä¿® ä¾ĭ
å¢ŀ æ·»
ä¿Ħ ä¹Į
ä»¥åıĬ åħ¶
å¡ŀ å¥¥å¤ļ
æ¸¸æĪı æľº
å£° ä¹Ĳ
èĢĥ åıĸ
æ¯ĶèµĽ æĪĲç»©
é¢Ħ ç§ĳ
çªģ åĩºçļĦ
èµ« æ¢ħåĪ©
åħį èģĮ
åħ¶ä¸Ń åĮħåĲ«
å®½ éĺĶ
æ³Ľ æĮĩ
å°Ķæĸ¯ åŁº
è¾ħ ä½Ĳ
ç¬¬äºĶ å±Ĭ
ä»Ļ åı°
æ®Ĭ èį£
188 3å¹´
Ġåľ¨ ç¾İåĽ½
ĠA ct
äºĮä¸ĸ çļĦ
å¥¥æĸ¯ æ±Ģ
æµ® æ¸¸
äºİ194 0å¹´
ç¥ŀç»ı åħĥ
è¯ģæį® è¡¨æĺİ
å¤ļå¹´ çĶŁ
æłĸæģ¯åľ¨ åºķä¸Ńå±Ĥæ°´åŁŁ
ç´§æĢ¥ çĬ¶æĢģ
ç¥ł åłĤ
IC E
åħ¬äº¤ çº¿è·¯
æ¡Į éĿ¢
ç¥Ī æ±Ĥ
å¤ļé¡¹ å¼ı
æĢ»é¢Ŀ ä¸º
éĽħåĲĦ å¸ĥ
å¯Ĩè¥¿è¥¿æ¯Ķ å·ŀ
æ»¨æµ·å¡ŀçº³ çľģ
A p
Ï ĥ
çļĦ åıĳçİ°
çļĦ å®ŀéĻħ
çļĦ åįķæĽ²
çļĦ åİĭåĬĽ
ä¸Ģ æĸĩ
ä¸Ģ ç±»
æĺ¯ ç¬¬ä¸Ģä¸ª
è¡ ®
äºĨ å¥¹
ä¸į å·²
çĶ¨ åĪ°
è¥¿ ç«¯
å¯¹ ä¸Ĭ
æĿ¥ å®ŀçİ°
å¹³ äº¤éģĵ
éĿ¢ è²Į
å»º æł¡
æŃ¤ æĽ²
å°Ĩ ä»İ
æĢ» å·¥ä¼ļ
åŁİ ä¸»
æŃ£ æ¨¡æłĩæľ¬
æĪĸ ä»¥ä¸Ĭ
åĪĹ åĩºäºĨ
å¸¸ çĶ¨äºİ
æĮĩ å®ļä¸º
ä»¤ åħ¶
æİ¨ å´ĩ
åįĥ ç¦§
åĬ© æķĻ
èĪª éģĵ
è´Ł è½½
æĺĵ äºİ
çļĩ æĹı
æ·± å±Ĥ
è¡Ĺ å¸Ĥ
ç¤¾ä¼ļ ä¸Ń
éĵ¶ å¸ģ
éŁ³ä¹Ĳ äºº
å¯º çļĦ
æľ« ä»£
åĸĦ èī¯
å¿ł è´¤
éĢĬ å°¼
å¢Ļ ä¸Ĭ
op er
æľīäºĽ äºº
è·³ æ°´
å¤ºå¾Ĺ åĨłåĨĽ
äºİ195 3å¹´
èĦĬ é«ĵ
æĺ¯å¾·åĽ½ çļĦæ²³æµģ
äººå¤§å¸¸å§Ķä¼ļ åī¯ä¸»ä»»
æīĢè¾ĸ çļĦä¸Ģä¸ªæĿĳ
éĩĮçº¦ çĥŃåĨħ
å«Įçĸĳ äºº
è¯Ľ æĿĢ
èľĹ çīĽ
éĥĬéĩİ åħ¬åĽŃ
2009å¹´æĹ¶çļĦ äººåı£ä¸º
B o
M on
l us
Ġ ç¾İ
Ġ è¯º
çļĦ æĦıä¹ī
çļĦ æĢ§è´¨
åľ¨ åĲĦ
æľī ç½ª
åĲİ æĶ¹
ä¸Ĭ è¿Ľè¡Į
ä¸Ĭ æĿī
å¹¶ ä½ľä¸º
èĢĮ å¼Ĥ
çĶ± æĿİ
åı¯ è¡ĮæĢ§
åĿ į
æµ· éĿ¢
èĩ³ 2022å¹´
åĨħ çĩĥ
ä½ĵ èī²
å¤ĸ äºĭ
ä½Ĩ æŃ¤
æķ° åĲį
éĻ¢ åĨħ
éĻ¢ ç³»
åŁİ éĤ¦
æıĲ å°Ķ
æ¼Ķ åıĺä¸º
æĦı çĶ²
åįķ å¼ıæľĪåı°
å·² äºİ
æĻ® çī¹
æĶ¿åºľ å¯¹
in ter
è¿ĳ ä¹İ
ä¿¡ ä¼Ĺ
çŁ³ å·Ŀ
çļĦä¸Ģ éĿ¢
åıĪ æĺ¯
åħµ è´¥
ä»Ĭ æ²³åĮĹçľģ
åįĩ åħ¥
æİĴ åľ¨
æĸ½ çī¹æĭī
ä½ı æ°ĳ
æĪ¿ çļĦ
ä½Ľ çĳŀ
è¿Ľåħ¥ åĩĨåĨ³èµĽ
æ¢ħ èĬ±
å½Ĵ éĻĦ
ä¿Ħç½Ĺæĸ¯ æĢ»ç»Ł
è¶³çĲĥ èµĽ
éĩİ å¤ĸ
éĩİ å¿ĥ
éª¨ æŀ¶
å®ª å®Ĺ
ä¸ľåĮĹ æİ¥
æľīä¸Ģ å¤©
æĦıå¤§åĪ© è¯Ń
èĨ º
åĪļ å¥½
åĶ¯ä¸Ģ ä¸Ģä¸ª
èĬĴ æŀľ
åģ· åģ·
èĪŁ å±±
åĨĴéĻ© æ¸¸æĪı
åĵª éĩĮ
åİŁåŀĭ æľº
å½Ĵç±» äºİ
éĴĵé±¼ å²Ľ
åı¬éĽĨ äºº
åħĳ æį¢
bo ard
å¼łå®¶ åı£
çīĩå°¾ æĽ²
å®ĩå¤ļçĶ° åħī
3 30
F e
P R
t a
Ġ ä¹Į
Ġ 40
çļĦ ç¨ĭåº¦
çļĦ æĢĿæĥ³
å® ¸
ä¸º æľ¬
ä¸Ń å°ı
åĴĮ åĮĹ
æŃ ª
æĪĲ åĵģ
è½ Ń
ä¸Ĭ ä¸ĩ
ä¸Ĭ åİ»
ãĢĭ ãĢĮ
ãĢĬ "
è¢« çº³åħ¥
çĶ± éĻĪ
è¿Ļ å¥Ĺ
åīį åį«
æīĢ åŃ¦æł¡
çĲĥ çļĦ
ä½Ĩ ä¹ĭåĲİ
ä¸Ģä¸ª æĸ°çļĦ
å®ī è¿ª
æģ ³
å£« æ¯Ķäºļ
åŁİ åįĹ
éĺ¿ ä»Ļå¥´
åĽĽ æĿ¡
å·´ ä¼¦
çº§ æĹ¶
éĽĨ è£ħç®±
äºĶ åı·
æĪĲä¸º ç¾İåĽ½
å¤ª è¿ĩ
åıĺ æĽ´ä¸º
ä¸ĵ é¡¹
åį³ åľ¨
æ±Ł éĻµ
åħī åŃĲ
åĨį çĶ±
çĶ· çĶŁ
è¶ħ æĸ°æĺŁ
é»Ħ èľĤ
è½¦ç«Ļ çļĦ
æŀģ é«ĺ
14 ä¸ĸçºª
éĻĲ éĩı
å¯Ł åĵĪå°Ķ
æī¹ åıĳ
ä½İ è°ĥ
è¯į æºĲ
åĶĲ äºº
æĭ¥ ç«ĭ
000 ç±³
ç»§ç»Ń æĭħä»»
è¯Ńè¨Ģ ä¸Ń
åĮºåŁŁ æĢ§çļĦ
éª¨ æĬĺ
å¿ħé¡» è¦ģ
189 1å¹´
ä»»åĬ¡ çļĦ
åıĳå°Ħ ç®¡
2000å¹´ äººåı£æĻ®æŁ¥
ç§ĺä¹¦ å¤Ħ
é¹¿ æ¸¯
Ġ193 0å¹´
æĭĵ å®½
187 9å¹´
æĭīä¸ģ åŃĹæ¯į
åĲı éĥ¨å°ļä¹¦
å¤ªç©º äºº
å¯ĵ æĦı
å¸Ĥä¸Ńå¿ĥ çļĦ
èİ±èĮµ åħ°
å¾·å·Ŀ å®¶åº·
æ¦Ĩ æŀĹ
ĠEx p
åħ¨æĹ¥ åĪ¶
æ¶© è°·
é©¬éŀį å±±
å²ģåıĬ ä»¥ä¸Ĭ
æ¸² æŁĵ
E G
P eter
Ġ è¯Ńè¨Ģ
Ġ çĲĥåĳĺ
çļĦ æĹ¶æľŁ
åľ¨ ä¸ĸ
ä¸º åĩĨ
ä¸Ĭ åįĬå¹´
ä¸İ éĩĳ
æ³ķ ä¼¦
ä»» ä¸º
åĮĹ å¸Ĥ
ä¸ľ å±±
æµ· éĩĮ
ä¸ī ä¸ĩ
è° Ĵ
å®ļ åĪ¶
åħ± é¸£
çº¿ ä¸ĬçļĦ
æł¼ å°¼
èĳ «
æ¸¯ å¸ģ
äº¤ æİ¥
12 1
ç»ĵ æĪĲ
éĽĨ æķ°
èĮ ī
å®ĺ éĤ¸
é¦Ļ æ§Ł
å¥¹ ä»¥
æ¯ı å½ĵ
é¾Ļ åį·é£İ
éĻĨ çĶŁ
å¯Ĩ å°Ķ
æ¬§ æĭī
æ´Ľ é©¬
èİ± å§Ĩ
(, ,),
ä»ħ æĺ¯
åĵ¥ åĲīæĭī
åºĵ åŃĺ
éĵģè·¯ åĴĮ
æĬĹ çĶŁç´ł
æĢ»ç»Ł çļĦ
çŁŃ çŁŃ
å·® ä¸įå¤ļ
é¦ĸæ¬¡ ä»£è¡¨
å¾® åŀĭ
40 äºº
çİī ç¥¥
åĪĬ è½½
å»ºè®¾ çļĦ
ãĢĪ ãĢī
éĶ¡ éĩĳ
çļĦä¸» ä½ĵ
éĿĴå¹´ éĺŁ
èİİ å£«æ¯Ķäºļ
åľ°ä¸ĭ æ°´
ç¢ĳ æĸĩ
ç£ģ éĵģ
ç¡®å®ļ äºĨ
32 äºº
ç¬¬åħŃ å±Ĭ
é«ĺä¸Ń çĶŁ
åıªèĥ½ åľ¨
ä¸² èģĶ
Ġ19 19å¹´
åĲįä¹ī ä¸Ĭ
æ®¿è¯ķ çĻ»è¿Ľå£«
å®¾å¤ķæ³ķ å°¼äºļ
7 åı·çº¿
H en
L D
o j
Ġ è§Ĵèī²
çļĦ çĲĨçĶ±
åĴĮ çİĭ
æĹ¶ åħī
ä¼ļ åľº
åŃ¦ åĪ¶
è¡Į éķ¿
ä¹ĭ åĳ½
åĨĽ éĥ¨
å¸Ĥ éĥĬ
åĲĮ äºº
æĿ¥ åĽŀ
çī¹ éģ£
éķ¿ å¹´
å¼Ģ å¿ĥ
ä¸ľ éĿŀ
å¸ĥ èµĸ
æĢ§ æ¬²
200 1
ä½Ĩ å½ĵæĹ¶
åĮĸ åİ¿
éĢī ä¾¯
æĺİ å¾·
çº¦ ä¼ļ
æ°´ çĶŁ
é¦ĸ é£ŀ
äº§ åįµ
å¸¸ å·ŀ
èİ· æİĪ
äº¤ ä»£
ç»´ äº¬
çķĮ åĪ«
æīĭ ç»Ń
å½¢ åĪ¶
å¥¥ åħĭåħ°
æĻ® çĵ¦
an i
éĢł åĥı
éĢł è®¿
åı¤ å¢ĵ
ç¿ ĺ
ç¬¬ä¸Ģ ç§į
å¼º åĬĽ
ç¬¬äºĮ éĥ¨
å®Ĺ ç¥ł
è¾ĥ å·®
çĶµå½± å¯¼æ¼Ķ
åįĩ ç©º
ç¾¤ ä½ĵçļĦ
ä¸ĥ åı·
èĢĥ çī¹
è¿ª å¥¥
èĥľ åľ°
æ°ı ä¸º
ç²¾ ç»Ĩ
åıĳè¡Į åĲİ
èĥĮ åĲİçļĦ
ä¹ĺ éĻį
åĩı ä½İ
4æľĪ èĩ³
åĩ¯ åĪ©
çĬ¯ ä¸ĭ
èµĽäºĭ æĪĲç»©
åºŁ é»ľ
éĢĥ åĩº
çĶ³ ç§ĳ
ri pt
35 äºº
æľĿé²ľ çİĭæľĿ
è¿Ļç§į æĸ¹æ³ķ
ä¸»æĮģ çļĦ
å¦ĩ äºº
èµı èµĲ
ç¯® çĲĥéĺŁ
çĥŁ åı°
çķª ç¦º
äºİ194 8å¹´
ell o
èĢķ ä½ľ
åĲŀ åĲĲ
åľ°äºļ åĵ¥
çºł æŃ£
èµĮ åľº
å¤§æŃ£ ä¹Ŀå¹´
row n
ç¤¼æĭľ åłĤ
åĲīç¥¥ çī©
åº·å¥Īå°Ķ å¤§åŃ¦
å¹¶åıĳ çĹĩ
ç¾İåĪ© åĿļ
2 äº¿
6 æ¬¡
H F
L A
l ob
â ĸ
Ġ èĬ±
çļĦ å¥³åŃĲ
çļĦ èĭ±æĸĩ
çļĦ çĪ¶æ¯į
åı ¡
ä¸Ń å²Ľ
äºº ä»¥
æĺ¯ ä¸ŃåĽ½å¤§éĻĨ
äºİ ä¸ŃåĽ½
20 å¹³æĸ¹åįĥç±³
åħ¶ ç§įåĬłè¯į
èĥ ¥
ä¹ĭ æŃ»
èĢĮ ä¸ĭ
çĶ± ä¸Ģä¸ª
çī¹ é¦ĸ
å¼Ģ åı£
æĸ° åįĹ
æľĢ åĸľæ¬¢
æĸĩ åı²
ä»£ çī§åĮº
ä¹Ł ä¸įæĺ¯
éģĵ åıĬ
æĪĺ çģ«
äºĮ åº¦
çľģ çķ¥
é©¬ åŃ£
å±± ä¸Ń
èģĶ æį·
çĤ Ģ
ä¸¤ å¹¿
éĢī åħ¥
åŁİ å¤ĸ
æł¼ æ´Ľ
åĽĽ åº§
åĢ ¦
å¨ ´
æĽ¾ åħĪåĲİ
å®ŀ åĨµ
éĶ °
ä¹¦ ä¿¡
å°± ç®Ĺ
æ· Ħ
åįķ ä½ĵ
éŁ³ çļĦ
å·² å®ĮæĪĲ
æĮģ æľīçļĦ
çĭ ł
æĬ¥ ä»ĩ
çļĦä¸Ģ å¹´
åĸ ĥ
çłĶç©¶ æĺ¾ç¤º
ä¸»è¦ģ æĿ¥èĩª
çĶ· åįķ
çĶ±äºİ å½ĵæĹ¶
çª ľ
èħ »
èĪ° ä½ĵ
æīĺ åĪ©
éħį å±ŀ
æİ§ æĸ¹
æµĭ éªĮ
æĥ³ èµ·
ç²¾ èĩ´
50 åħ¬å°º
åı³ æĶ¯æµģ
ç¤¼ éĥ¨å°ļä¹¦
äºĨä¸Ģ éĥ¨
äº¤éĢļ å±Ģ
èµĽäºĭ çļĦ
å°¤ éĩĮ
åĮ¹ åħ¹åł¡
åħ±åĲĮ ä½ĵ
å¢ĵ åĽŃ
è¯¯ å¯¼
æĮģç»Ń äºĨ
os p
éĺ´ éģĵ
åįļå£« åĲİ
æĹģ çĻ½
å½±çīĩ ä¸Ń
Ġæľ¬ ç§ĳ
å°ĸ éĶĲ
Ġ193 4å¹´
æ£®æŀĹ åħ¬åĽŃ
æľīäºº è®¤ä¸º
äºİ196 1å¹´
äºİ196 5å¹´
ec k
ä¿ĥè¿Ľ äºĨ
éļĶç¦» ç®¡æİ§ä¸Ńåıĳçİ°
ç¦ħ å¸Ī
æ¢µ èĴĤ
ide o
äºĭåıĺ åĲİ
æĸ°ä¸Ģ ä»£
èł ¢
é¢ĦéĢī èµĽ
è¯¥çľģä»½ä¸ºæ³ķåĽ½è¥¿åįĹéĥ¨ åĨħéĻĨçľģä»½
æ³ķåħ°è¥¿å²Ľ å¤§åĮº
, .
A çº§
N E
u tĠ
Ï Ģ
Ġ ä¸Ĭæµ·
Ġ km
çļĦ åĨĽ
çļĦ æĸĩä»¶
ä¸º å¥¹
ä¸Ģ æĬĬ
ä¸Ń ä¿¡
æľī å®³
åĴĮ äºĮ
æĭ Ļ
åĲİ å¼Ģå§ĭ
åĲİ èĢħçļĦ
åĲİ ç¼Ģ
ä¸į æĦ¿æĦı
ä¹ĭ è¯´
èĢĮ æĹł
åĬł æ²Ļ
ç¾İ æĸ¹
éĿ¢ éĺĶ
æīĢ éĥ¨
âĢľ âĢĿ(
å°Ĩ è¦ģ
å°Ĩ ä»ĸçļĦ
é©¬ åĪ©äºļ
å¥³ æĿĥ
å¨ ±
æĽ¾ è¡¨ç¤º
çĽ´ ç«ĭ
åĲĦ ç«Ļ
ä¸ĵ èĳĹ
æĶ¾ å®½
äººæ°ĳ åĨĽ
ä¸ĸçķĮ æĹ¶
æľį åĪĳ
15 åĪĨ
äº¦ ä»¥
å·¥ä½ľ å§Ķåĳĺä¼ļ
è¯ķ çĤ¹
ä¿Ħ åįł
åī¯ å°Ĩ
æĶ» åŁİ
æĶ» åĿļ
ä¹Ŀ æ±Ł
éĺ² èĮĥ
åįĬ èĩªåĬ¨
å£° æ¯į
åıĮ è¯Ń
çº¢ æĺŁ
ä½ı æĮģ
14 å²ģ
å°Ħ æĿĢ
æĻ¯ è±¡
ç®¡çĲĨ åŃ¦éĻ¢
ç²¾ å¿ĥ
åł¡ çļĦ
éģĹ çķĻ
è¶³çĲĥ åľº
å»ºç«ĭ èµ·
è¡¥ ä¹ł
å¹ķ åĥļ
å¹³åĿĩ æ¯ı
åıįå¯¹ èĢħ
èĢ³ æľµ
å®ĺæĸ¹ å®£å¸ĥ
ä»ĺ æ¬¾
æ¶ħ å¤«
ä¸ĭåįĪ 2æĹ¶
äºİ196 8å¹´
ç§¯æŀģ åıĤä¸İ
å¼ĢéĢļ è¿ĲèĲ¥
äºİ193 7å¹´
ç¯®çĲĥ èģĶèµĽ
ĠåĴĮ Ġ
æĹ¶æ®µ æĴŃåĩº
èĴ¸ åıĳ
èİ±èĮµ æ²³
é¼İ çĽĽ
å·´å°Ķ å¹²
æīģ å¹³
åĩºåĶ® ç»Ļ
åħ¶ä¸Ńä¸Ģä¸ª ç§į
èŀįåĲĪ äºĨ
çĳľ ä¼½
ç¡®ç«ĭ äºĨ
çľŁäºº ç§Ģ
æ°ĳçĶ¨ èĪªç©º
ç»ĵè¯Ĩ äºĨ
Char les
è´¹å°ĶåįĹ å¤ļ
å¡ŀçĲī åı¤
è¤Ĵè´¬ ä¸įä¸Ģ
L ive
ð ª
Ġ æ³ķ
çļĦ å½¢æĪĲ
çļĦ ç¬¬åĽĽ
çļĦ æĶ¶åħ¥
åľ¨ åħ¶ä¸Ń
åŃ Ģ
åĴĮ å¤ĸ
ä¼ļ æĬĬ
çĲ Ĳ
ä¸Ĭ è¡Ĺ
ä¸Ĭ å±Ĭ
ä¸Ĭ çĽĸ
ä¸į æī¿è®¤
è· »
è· ĸ
è¿Ļ çĤ¹
å¤ļ éĹ´
ä»» æĢ»ç»Ł
åįĹ åį¡ç½Ĺ
åĬł æ·±
æĸĩ æŃ¦
æīĢ ç»ĦæĪĲçļĦ
æľº ä½ĵ
æķĻ è®Ń
èĲ ¼
åĪ¶ å¼ı
æĦ §
ä¸¤ èĢħçļĦ
åıĤ æĭľ
è®¤ ç½ª
æį® æŃ¤
æį® æĬ¥å¯¼
çĽ´ èĲ½
er c
å®ĺ è¯Ŀ
åĲĦ æł·çļĦ
éĵģ äºº
èĭı è½¼
çļĦä¸Ģ çº§
é¾Ļ åįİ
èİ·å¾Ĺ ç¬¬
åħĪ ç¥ĸ
æ´¾ åı°
å¼º åĬ²
åĵĪ æĸ¯
åľ£ ä¹Ķæ²»
è¾ĥ éķ¿
çļĦä¸Ģä¸ª éĵģè·¯è½¦ç«Ļ
æķħ åĲį
é»Ħ æ³¥
ä¹¡ çļĦ
ä¸ĥ åįģ
æİ§ åĳĬ
å© º
ä¹ĭéĹ´ æľī
å¹² æµģ
ä½Ľ å¯º
it eĠ
å®« ä¸Ń
æ¢ħ éĩĮ
å¼Ĺ ç½Ĺ
çĽ®åīį ä¸ºæŃ¢
å¼Ģåıĳ åĽ¢éĺŁ
å¾® ç¬ĳ
æ·· æĪĲ
éļĶ æĹ¥
æŀļ éĵľçīĮ
ur es
ä»»åĬ¡ æĺ¯
åĩ¤ ç¿Ķ
è¢Ńåĩ» äºĨ
æĽ¹ éŃı
åľ¨æŃ¤ æĹ¶
ĠA g
å»ºæĪĲ åĲİ
éĶĢåĶ® éĩı
æĺ¯ä¸ĢåĲį ç¾İåĽ½
æĤ¬ å´ĸ
çĸ¾çĹħ çļĦ
æĺİæ²» ç»´æĸ°
åį¢çĵ¦å°Ķ æ²³åľ°åĮº
çĸ«æĥħ éĺ²æİ§
æŃ¥åħµ åĽ¢
æģĲæĢĸ ä¸»ä¹ī
æ¶Į åħ¥
)ãĢģãĢĬ ãĢĭ(
ä¸ľæµ· éģĵ
ç¼´ èİ·
èįĨ å·ŀ
MA X
èĹ» ç±»
æµİåįĹ å¸Ĥ
è½¬ä¼ļ èĩ³
ç»ĥä¹ł çĶŁ
æĪ·éĥ¨ ä¸»äºĭ
åĵĪå°Ķç§ĳå¤« å·ŀ
çĶ°çº³è¥¿ å·ŀ
èĢ¶é²ģ å¤§åŃ¦
ä¹ĥæľ¨ åĿĤ46
å¡ĶåĲī åħĭ
åºł çĶŁ
éĩĮçº¦çĥŃåĨħ åį¢
- (
4 Ġå¹´
A lex
D M
F T
F la
Ġ åıį
Ġ çĽ´åĪ°
Ġ èĩ³äºİ
Ġ çĶµè§ĨåĬ¨çĶ»
çļĦ æĸ°éĹ»
çļĦ èģĶç³»
çļĦ åħ´è¶£
æĹ¶ è®¾ç½®çļĦ
ä¸į å®ļ
ä¸į åģľ
åĮº æīĢå±ŀ
ä¹ĭ æīĭ
åĨĽ åĮ»
æľ¬ å²Ľ
å¯¹ å²¸
äºļ ç»Ĩ
å»º æ¨¡
åĨħ å¸ĥæĭīæĸ¯
ä¸ī åľº
è¯¥ åłĤ
æķĻ èģĮ
äºĮ åŃĹ
å±± éĹ¨
200 3
å¤© é¾Ļ
æ¯Ķ æķ°
è¾¾ èį·
æ°´ å¡ĺ
çİĭ åĨł
éĴ ¼
èº« å¤Ħ
æĶ¯ å®īæīĵ
åı¤ ä»Ĭ
åıĪ è¢«ç§°ä¸º
æīĵ åĲ¡
æŀľ æķ¢
åĨį è§ģ
çº¢ æµ·
é±¼ ç§ĳ
äºİ19 18å¹´
ç¥¨ çļĦ
æ¯ĶèµĽ å¼Ģå§ĭåĲİ
çīĮ åĿĬ
æľ¨ è´¨
æŀ¶ æĹłäººæľº
éģĹ å¿ĺ
ä¼ĺ éĽħ
éĩİ æīĭ
é³ Ĳ
é¡º å¾·
24 ä¸ª
ä»ĭ è´¨
ou d
èĭ¥ æĺ¯
é¢Ĩå¯¼ èĢħ
è´§ æŁľ
21 ä¸ª
è®¨ åİĮ
åĨ° åİŁ
èĩªçĦ¶ ä¿ĿæĬ¤åĮº
æĬ¥åĳĬ ç§°
çĬ¹ è±«
é£ŀæľº çļĦ
åĲķ å®ĭ
ç¾İæ´² åİŁä½ıæ°ĳ
é¥® çĶ¨
æ³³ ä¸ī
çĨĬ æľ¬
å¢¨è¥¿åĵ¥ æ¹¾
çº· äºī
æĪĴ å¤ĩ
186 5å¹´
è£ħçĶ² å¸Ī
äººå·¥ æĻºèĥ½
ç«Ļåı° å±Ĥ
åį³ä½¿ æĺ¯
åĵ¥ä¼¦ å¸ĥ
ç¾½æ¯ĽçĲĥ è¿ĲåĬ¨åĳĺ
ç¾½æ¯ĽçĲĥ åĽ½éĻħèµĽ
æ²³çļĦ åı³æĶ¯æµģ
åĬ² çĪĨ
ç¨Ģ æľī
å¤§æ°Ķ å±Ĥ
åĢĻè¡¥ å§Ķåĳĺ
æİĢ èµ·
æ³¢ç¾İæĭī å°¼äºļ
æ¢µèĴĤ åĨĪ
2 æŀļ
Ġ æĢ»éĿ¢ç§¯
å¹´ èĢģ
åľ¨ åįİ
åľ¨ äºļæ´²
ä¸º ä¹ĭ
åĽ½ åĲĽ
å¤§ æ²³
åĴĮ éĩĳ
è¾ Ļ
ä¸Ĭ ä¹Ł
ä¸į ä¸¹
è¢« ç¾İåĽ½
çĶ± å¾·åĽ½
æ°ĳ è°£
åĬł è¾¾
ãĢĮ ãĢį(
ç¾İ å¥³
èĩ³ 20
èĩ³ 2011å¹´
èĩ³ 2007å¹´
å»º æĿĲ
çŃī æµ·åŁŁ
å°Ĩ å¥¹
æľº çĶµ
é©¬ ä¸¹
å±± éļ§éģĵ
åħ¨ é£Ł
åħ³ ä¸Ń
ç»ĵ æł¸
ä¿Ŀ ç®¡
éŁ³ ç¬¦
èº º
å¤§åŃ¦ æł¡
åī§ ä¸Ńé¥°æ¼Ķ
å±Ģ ä¸ĭ
åŃĹ èĬĤ
è¿Ľè¡Į è¿ĩ
åı¯ä»¥ éĢıè¿ĩ
å¾Ģ åįĹ
æīĵ åİĭ
åį« æĬ¥
å»ºçŃĳ è®¾è®¡
æĽ¼ å°¼
é¡¿ çļĦ
ç²¾ éĶĲ
æ¢ħ ç«¹
æ°¸ å®ļ
èīºæľ¯ ä¸İ
40 ç±³
çļĦäºº çĶŁ
åĩ¯ æģ©
èĥ¡ å¿Ĺæĺİ
ed er
èĮ¨ åĿ¦
ãĤ ·
è£Ĥ åıĺ
åĪĨåŃĲ çļĦ
æ¢¯ éĺŁ
ç´« å¤ĸ
æıĲåįĩ ä¸º
éĩĩåıĸ äºĨ
186 2å¹´
çĶµåĬĽ åħ¬åı¸
åįİçĽĽé¡¿ çī¹åĮº
åİŁåŃĲ å¼¹
çľŁå®ŀ çļĦ
ä¹ĭæĪĺ ä¸Ń
ç° ĩ
æĵħ èĩª
çĢ ļ
åĿĲèĲ½ åľ¨
åį¢çĵ¦ éĽ·
è½¿ è½¦
æĺ¾å¾® éķľ
èĳ« èĬ¦
E A
M TV
W S
a ĠS
Ġ 28
Ġ æľªæĿ¥
Ġ äºĭæķħ
çļĦ å®£ä¼ł
çļĦ é£Łçī©
çļĦ æĪĺç»©
ä¸º ä¸ľ
ä¸º ä¸Ńå¿ĥçļĦ
ä¸Ń æŀ¢
åĴĮ R
åĴĮ ä¸¤ä¸ª
èĩ ¼
åľ° å§Ķ
ä¸Ĭ é¢Į
åĩº ç¤º
ä¸į ä¸ĭ
åħ¬ åŃ¦æł¡
æĸ° è¡Ĺ
æĸĩ æķĻ
æĻ ¦
é«ĺ éĺ¶
çŃī å¤ļç§į
æĭī è¶Ĭ
èĥ½ è®©
åı£ è¢ĭ
éĢļ åĪ¤
ä½Ĩ å¦Ĥæŀľ
éĵ ¬
æ°´ è§£
é¦ĸ è¦ģ
å¥³ æİĴ
æŀĹ ä¸ĭ
åĮħ å¤´
çīĪ åĽ¾
å¨ģ åħĭ
en se
è¿ĲåĬ¨ å®¶
é¥ µ
çª ¥
ä¹Į åħ°
çģ« èį¯
çģ« çĥ§
ç¾¤ ç»Ħ
30 ä¸ª
é£Ł åłĤ
æĿĢ æĪ®
è¿ª çº³
ç»ıæµİ éĥ¨
æľįåĬ¡ äºİ
çĨ ı
åĽ½æ°ĳ å°ıåŃ¦
äº¤éĢļ å·¥åħ·
åĲĽ åŃĲ
å·¥ä¸ļ åĮĸ
çİ¯å¢ĥ çļĦ
æ½ľ èĪ°
æ±ł çĶ°
äººå£« çļĦ
åıĳå°Ħ åĻ¨
å¥¥æŀĹåĮ¹åħĭ å§Ķåĳĺä¼ļ
å¤§éĥ¨åĪĨ åľ°åĮº
å¤§çº¦ æĺ¯
è¿Ļæĺ¯ ä»ĸ
é£ĵé£İ åŃ£
èĤĸ æĪĺ
è®¤è¯Ĩ åĪ°
ĠæĪªèĩ³ 2024å¹´
(,; ),
æııç»ĺ äºĨ
ä»¥ä¾¿ äºİ
ä½İäºİ æ³ķåĽ½å¹³åĿĩæ°´å¹³
èĭıç»´åŁĥ ç¤¾ä¼ļä¸»ä¹īåħ±åĴĮåĽ½
ä¸ĵçĶ¨ çº¿
èįĶ æŀĿ
åį¡å°Ķçĵ¦å¤ļæĸ¯ çľģ
èŃ¬ å¦Ĥ
èµ«æ¢ħåĪ© å°¼èĮ¨åŁº
3 ä¸ªæľĪ
A 2
L GBT
T e
Ġ ä½įç½®
Ġ è·¯çº¿
åľ¨ å¤©æ´¥
ä¸º åĽ½å®¶
èĩ »
ä¸İ åħ¶å®ĥ
ä¸į æ²»
ä¹ĭ ç±»çļĦ
ç¾ ²
èĢĮ å¾Ĺ
èĢĮ åİ»
èĩª å°ı
åįĹ è¥¿
æĸ° æľĪ
åĬł åĽº
äºļ éĩĮå£«
ä¸ī è·¯
ä¸ī å±Ĭ
éģĵ çĲĨ
éģĵ çĽĳå¯Łå¾¡åı²
å¤ĸ åľ°
é©¬ ä¸»
ä½¿ äºº
å®ī å®ģ
æ¯Ķ çİĩ
æĺİ æĹ¥
åı· ç§įåŃĲ
æ°´ éĽ·
éĺ¿ éģĵå¤«
å·´ çº¦è®·
å®ŀ ä¾ĭ
æīĭ çĲĥ
ä¿Ŀ éĢģ
åºĶ ä¸º
éª ł
èĭı éĹ¨
æĶ¶ æķĽ
åĪĿ ä»£
åĸ ĺ
ç¬¬äºĮ åľº
éĹ® ä¸ĸ
éĽ· å°Ħ
åĩĨ åĻ¶å°Ķ
æİĴ åĩº
åī¯ åı¸ä»¤
èĲ½ å·®
æ·± å¤Ħ
åĲĮæĹ¶ äº¦
çķĻ æĦı
è¿ľ ç«¯
èĪ¹ åĿŀ
åĪĺ æĺĵ
å»¶ åĲİ
ä¼ĺ è¶Ĭ
å¼Ĥ åĲį
æ²¹ çĶ°
ion al
èĩªçĶ± è´¸æĺĵ
èĩªçĶ± æ°ĳä¸»åħļ
ou l
è¿½ å°ģ
èĤ¡ ä»·
è¶ħè¿ĩ 10
åľĨ çİ¯
åĲ¸ åħ¥
è°Ī åĪ°
æĮĩæĮ¥ çļĦ
åıĺåĮĸ çļĦ
å¹¿æĴŃ çĶµè§Ĩåı°
ç²ī æľ«
500 äºº
åĨ¯ çİīç¥¥
64 å²ģ
æĻ¶ çīĩ
å±ı éļľ
éľ¸ æĿĥ
æ»ļ çŁ³
æ³¢æĸ¯ è¯Ń
è¯ģå®ŀ äºĨ
æī§æĶ¿ å®ĺ
ä¼½ ç½Ĺ
éħ· åĪĳ
ock et
ç»´åħĭ å¤ļ
ç»´åħĭ æīĺ
åįłæį® äºĨ
åĵĪåĪ© æ³¢çī¹
[...]
