#version: 0.2
n g
i 4
a n
s h
z h
ng 1
j i
u 4
ng 2
Ġ Ġ
i 2
a o
x i
ng 4
an 2
i 3
i 1
d e
u 3
an 4
e 4
e n
c h
u o
u 2
ng 3
an 1
e 2
a i4
u 1
ĠĠ Ġ
o ng1
a 1
ã Ģ
sh i4
e i4
ao 4
i an2
a 4
y u
a ng1
y o
an 3
n 1
h u
a ng4
n ian2
en 2
l i
a ng3
e ng2
uo 4
uo 2
w ei4
m i
ao 3
z ai4
ãĢ ģ
b i
q i
a ng2
e 1
h e2
y i
e ng1
zh ong1
e r
b u4
o u4
a 3
e 3
n 4
sh i2
d i4
g uo2
a i2
u i4
r en2
ao 1
x u
y i1
n 2
o ng2
y u2
g u
l i4
zh i4
d i
w e
en 4
ch eng2
o ng4
y i4
g ong1
ji 2
e ng4
en 1
yu e4
yo u3
yu an2
d a4
a 2
l e
j i4
2 0
y i3
j u
a i1
p i
xi an4
o u1
ji a1
s i1
xi ng2
e i3
t i
y u3
ji 1
t a1
r i4
zh i1
h ou4
l i3
o u3
a i3
we i2
hu i4
d ao4
1 9
o ng3
q i2
u an2
zh eng4
mi ng2
xi 1
ao 2
ji an4
xu e2
ch u1
g e4
z uo4
uo 1
sh eng1
d ui4
yo u2
uo 3
q u1
sh ang4
en 3
de 2
b ei4
sh i3
zh u
zh an4
n 3
xi n1
ju n1
er 3
sh e4
r en4
f a1
w u4
bi ng4
k e4
er 2
l u4
d ai4
zh u3
y i2
sh u4
j u4
ji n4
z i4
yi n1
f u4
f ang1
ji ng1
n an2
hu a4
zh ou1
pi ng2
xi a4
l ai2
yo ng4
gu an1
t ong2
y u4
ãĢ ĭ
ãĢ Ĭ
f a3
zh u4
m ei3
Â ·
ji an1
b o
h uo4
b en3
xi ang1
zh i2
d ong4
xi ang4
mi n2
zh e4
ji ang1
q i1
f en1
sh ou3
q uan2
w en2
y an2
s uo3
ji ao4
q ian2
di an4
t e4
d uo1
z ui4
k ai1
ji e2
l ian2
zh i3
x i4
k e3
e ng3
e i1
d an4
m u4
y e4
d u4
f u2
sh u
m a3
y e3
d ong1
qi u2
b ei3
ãĢ Į
ãĢ į
g ao1
y a4
o u2
d u
ji e1
u n2
mi an4
h ai3
zh ang3
sh i1
ji n1
c i3
n ei4
s ai4
s an1
t ai2
g e2
xi ng4
g uo4
20 1
de ng3
y ao4
ch e1
c i4
s u
m o
r u4
w u3
g ai1
k u
di ng4
ch ang2
bi ao3
l a1
t i3
g ong4
ji e4
sh ou4
d ao3
sh an1
ch ang3
s i4
l v
z e2
t i2
k e1
d ang1
n eng2
er 4
w ai4
e i2
ch u
d an1
q i3
z i
k ou3
xi ao3
z u3
b a1
ju e2
li n2
li u2
n i
sh eng3
yi ng1
l an2
b i3
l uo2
t ong1
20 0
zh ong4
zh e3
sh u3
ti an1
zh en4
zh ong3
li e4
q i4
ch eng1
sh u1
yu an4
b ao3
t ai4
f u3
f eng1
m i3
qi ng1
sh en1
w ang2
yu n4
gu an3
f ei1
ji u4
g u3
li ang3
c eng2
m ei2
1 0
f en4
h ao4
y an3
we i3
z ong3
xu an3
xi ao4
d a2
n a4
li ang4
bo 1
z u2
ji ng4
b ao4
n i2
w u2
t ong3
hu a2
ji ao1
yu e1
yi ng3
bi an4
xi ng1
s u4
shu i3
y ang2
m en
b ao1
g e1
bo 2
c an1
c ong2
di an3
r u2
b an4
b i4
bi an1
w ang3
q u3
ch an3
s e4
z i1
q u
0 0
ch uan2
n v
sh eng4
r an2
t u2
zh ang1
x u4
p u3
g ai3
g ang3
nv 3
li ng4
l uo4
yo u4
t ou2
h u4
ch a2
c e4
ch i2
1 8
lv 4
qi an1
l i2
d ou1
1 2
zh eng1
k uo4
sh a1
l u
d ang3
f an3
g ou4
l ei4
x i2
ji ng3
t uan2
we i1
xi e1
li ng3
l ong2
gu i1
xi an1
r ong2
hu ang2
xi ang3
b an1
ji u3
yi ng4
m en2
sh ang1
sh en2
20 2
b an3
k a3
c u
m u3
ji n3
f u1
j u3
mo 2
gu ang3
c i2
sh uo1
qi ng2
zh an3
h ai2
zhu ang1
mo 4
c ai2
ji 3
d u2
1 1
pi n3
ti ng2
ch ao2
yi ng2
w o
ti ao2
p o
ji an3
t ang2
hu i2
du an4
ch en2
g en1
m i4
w an4
p ai2
w an1
z ao4
h ang2
w an2
bi ao1
l un2
19 9
xi e2
ji ang3
h an4
j u2
f an4
f ang2
h uo2
g u4
h an2
k ong1
ti e3
m eng2
bi e2
w u1
ji e3
zhu an1
yi n3
x u1
zh en1
ji a4
bi ng1
mi ng4
li ng2
h ong2
qi n1
z i3
lu n4
t u
o r
xi n4
ch u4
s u1
xi u1
ch u3
z ong1
1 5
h u2
qu e4
xi ao1
zh ao4
qi ang2
q u4
cu n1
ch ong2
pi an4
ji u1
f ang4
su i2
sh ou1
g eng4
â Ģ
gu ang1
j u1
ji a3
chu ang4
d i2
zhu an3
1 6
g uo3
xu n4
m an4
p ai4
f ei4
p ei4
19 8
d a3
t uo1
xu an1
ch u2
b ai2
l a
o n
zh u1
d u1
t u3
di ao4
xi a2
li u4
1 7
s ui4
hu i1
ti ng1
qi e3
t a3
qi ao2
h a1
g an3
z eng1
xi an3
m ai4
hu an2
x u3
w a3
tu i1
w en4
ch ao1
t ian2
b ai3
c ai3
li ang2
y a2
s a4
a r
b ai4
c un2
ji ao3
sh ao3
y an4
zhu ang4
d i3
h uo3
le i2
1 4
ji ang4
chu an1
yi n4
z ao3
yo ng3
s i3
de ng1
3 0
zhu n3
l e4
xu n2
n uo4
hu an4
s ong4
g ao4
l u3
1 3
19 4
b ang1
lv 3
y ang4
h en3
q un2
zh eng3
gu an4
po 4
g ang1
wo 3
19 7
hu a1
le i1
h ao3
t ao2
ku ang4
p i1
du n4
n ong2
g ei3
s ai1
shu ang1
li an4
ku ai4
i n
d i1
p an4
xi e3
19 5
k ao3
g ai4
h e4
h ei1
w ang4
li ao4
r e4
g e
z uo3
k ong4
19 6
y ang1
ch ang4
yi n2
r eng2
s en1
b ei1
l u2
pi ao4
y a1
k u4
2 5
bi n1
âĢ Ķ
r ang4
ch ong1
l ou2
b u3
l ao3
zh u2
ju n4
y ang3
r ui4
y ao1
xi an2
xi e4
ni an4
f or
yo u1
t an2
k ang1
p i2
h eng2
yu n2
k an4
ni ng2
li ao2
sh ao4
b u2
qi ng3
ch i3
2 4
m u
d ou4
mi an3
y ong1
t an3
w an3
h u1
r u
f an1
a l
t u1
g an1
su an4
di ng1
yu an3
w en1
t ui4
zh e
s t
2 1
xi u4
b a3
m an3
19 3
2 3
mu la
k ang4
for mula
2 8
t h
m ao2
r uo4
pi an1
m ao4
l ang3
qi n2
b a2
n a2
z an4
xi 3
gu i3
g ui4
r e
pi n2
wo 4
xi ong2
sh an4
2 2
xi ong1
m e
su i1
2 6
sh en3
qi ng4
mi ao2
f ang3
5 0
20 20
2 7
l ang2
o u
qi u1
s ong1
r i
d ang4
g eng1
qi ang1
f a2
z ao1
f eng4
zh ang4
ï ¼
h ao2
du n1
z ou3
h ai4
qi e4
2 9
t an4
z u
p ao4
p a4
shu n4
p eng2
xu an2
201 0
n i3
00 0
di ng3
ni u3
z ai3
zh ao1
zhu i1
lv e4
chu n1
20 19
hu n1
k ong3
ch e4
du an1
sh en4
xi ang2
du an3
g an4
r o
t e
k an1
l ao2
c ao3
201 6
s i
g u1
p ei2
ku an3
z a2
201 8
su n1
y e2
y a3
r a
po 1
202 1
zh a4
ch i4
d uo2
201 4
f an2
201 1
201 5
c uo4
201 7
zh e2
y ao2
p ai1
t ou4
c ang2
201 2
4 0
k ai3
201 3
202 2
m i2
ru an3
su an1
ch a1
z ang4
mi ao4
l t
200 9
zh ao3
200 8
hu ai2
ã ĥ
c e
6 0
xu e4
ch ou2
s e
b ang3
a m
m eng4
10 0
t i4
p u2
n ao3
202 3
zhu an4
g t
le i3
19 0
3 1
c ai4
s an4
m ou2
ti on
hu n4
ku an1
200 7
t a
ni u2
m ou3
t ao3
di e2
200 1
t eng2
s ou1
k en3
qi an3
ch ang1
r an3
qu e1
f ou3
su n3
f o
b a4
200 0
8 0
k ao4
s uo1
200 6
ni ao3
p i3
ch un2
202 4
l an3
ã ģ
z ai1
c o
xu e3
hu i3
e l
m a
lu an4
ti ng3
200 5
zu n1
b ang4
l a4
hu an1
r ang3
sh ui4
mi n3
3 5
l ai4
c ang1
7 0
fo 2
p an2
n ai4
w en3
n e
c ao1
o f
s ang1
p ang2
9 0
bi ng3
ï¼ į
t er
zh a1
ã Ĥ
shu ai4
ni e4
h ou2
m ei4
sh ao1
n u3
d ong3
i l
f eng2
mi e4
yu n3
z ou4
m ai3
hu ai4
200 4
4 5
l o
y an1
th e
h e
4 8
zh uo2
a t
an d
t ao4
n ai3
ku n1
202 5
zh en3
c k
r u3
ku a4
ku i2
ãĢ ī
ãĢ Ī
g ou1
3 6
e t
cu i1
e s
3 8
c u4
sh an3
r ou4
di ao1
200 3
h u3
g uo1
3 7
c ui4
x u2
i s
m ang2
ju an3
t o
c an2
di an1
zh an1
c ao2
18 9
I N
200 2
k eng1
T C
m a2
3 4
le ng3
a s
z u1
ch a4
7 5
âĢ ĵ
o w
s u2
qu an1
d a1
ch ai1
l ang4
ku n4
4 6
t un2
f en3
199 0
âĢ ¦
o l
v e
zh ou4
sh ang3
r ao4
h eng1
t i1
xu n1
3 9
n e4
. .
n an4
p an1
6 5
h ong1
sh u2
t an1
t ang1
k an3
M a
n i4
C h
3 2
i t
S T
h an3
4 7
U TC
qi an4
199 9
199 8
I n
198 0
18 8
5 00
3 3
6 4
qi ang3
sh e2
sh uo4
p ao3
b e
k a1
zh ai2
S E
5 5
qu an4
n i1
de ng4
199 7
T he
C o
m ian2
4 9
g ao3
I I
6 8
h an
sh e3
z eng4
zh ou2
zh ai4
R e
199 6
4 4
n a
ti e1
d ao1
a d
b r
199 4
f ei2
z ong4
i r
qi ong2
ti ao4
chu ang2
n d
199 2
chu i2
ju an1
c i
ch ai2
mi ao3
b a
gu a1
xu e1
t ong4
199 5
f ei3
ch i1
m eng3
wo 1
6 7
shu ai1
t uo2
chu ang1
hu an3
v i
199 1
197 0
5 8
195 0
gu a4
ch an2
c a
3 00
w a1
199 3
18 7
194 9
a y
p e
s a1
ti ao3
zh a2
A T
196 0
bi an3
4 2
194 5
v er
u s
gu ai4
k u3
n u2
198 8
d u3
o o
198 9
i g
p u4
6 9
li u3
i ng
u r
s s
g ong3
SE E
t uo4
c t
li ao3
IN SEE
5 9
sh a4
t ai1
4 3
6 6
chu an4
am p
ch en4
5 7
198 5
hu ang1
R o
9 9
S A
ãĢ İ
cu n4
ãĢ ı
198 4
hu n2
4 1
u m
p u1
k ou4
p h
8 8
f en2
198 6
r ao3
S t
a u
i d
ru n4
T V
15 0
zh uo1
in d
4 00
s an3
198 7
7 8
5 6
198 2
ar d
L i
n uo2
M e
198 3
D e
N A
gu n3
m a1
t ou
pi n4
u n
C D
ch ou1
b er
g ou3
qu an3
7 7
M i
zh ai1
qi a4
p er
m ao1
qi ao3
M ar
k u1
ku ang2
e d
a ng
r ou2
9 8
de r
l ou4
O S
Â °
k ui4
s ang4
ï ½
l y
18 0
B C
5 4
6 1
A l
197 9
19 20
t y
7 9
p en1
s eng1
t w
5 2
Y ou
197 8
n u4
6 2
w eng1
y e1
d uo3
L e
5 3
xi ng3
ju an4
ï½ ŀ
B A
t s
a k
194 6
C O
M o
c tion
5 1
195 8
S h
198 1
V i
m an
197 2
194 8
zh ui4
c ong1
t ou1
A M
6 3
A R
J o
194 1
W ind
w a2
B S
li an3
19 30
P ro
lu an3
ow s
ku ang1
k e2
q u2
t uo3
7 6
han s
194 0
p i4
193 7
197 6
zu i3
194 4
8 9
197 5
r y
ï¼ ı
196 8
ni ang2
po 2
shu a1
h k
c on
r an
T e
yu an1
t ao1
w ang1
10 00
Wind ows
9 5
p a
N e
n o
b i2
s ao3
8 7
d a
196 6
8 5
f a4
p eng1
6 00
g a1
l an4
1 20
194 7
A r
S ta
195 6
A C
196 4
d an3
c u1
194 2
Ã ©
195 5
S e
R a
ch ou3
195 2
193 9
193 8
7 2
I S
v a
7 4
G a
g a
h t
n u
la y
r en3
197 3
197 4
195 4
f i
qi e1
E D
19 00
- -
J a
A P
194 3
b i1
T u
k e
o s
197 7
B e
197 1
pi n1
m an2
o p
po 3
en t
196 7
sh eng2
men t
m p
I C
8 00
L a
E R
i a
8 6
195 9
b eng1
S a
196 5
s on
J R
196 9
du i1
L o
p en2
in e
S o
ãĥ »
Ã Ĺ
qi ao4
chu i1
I D
qi ao1
S u
193 6
9 7
16 0
b en1
zhu a1
D a
F a
195 3
196 2
M A
d o
196 1
ti c
l ong3
â Ķ
193 5
t a4
r ou
m ai2
9 6
O N
D i
ï¼ ħ
195 1
195 7
196 3
C a
h a
âĶ Ģ
o k
8 4
202 6
c an3
or e
8 2
N a
h i
b u
7 3
9 4
tu n1
9 2
p p
I P
A N
B o
st a
m er
193 3
on e
M u
193 1
n ang2
le s
ni ao4
7 1
b ao2
h o
nu an3
g i
A n
l eng2
p a2
P a
9 3
s o
8 3
al l
W e
d ou3
8 1
19 18
H D
S i
s ao1
w i
U ni
19 28
l uan2
193 2
n en4
l l
ar a
in t
B a
M V
S S
1 10
19 12
I T
k i
19 29
tu i3
d uo4
19 27
co m
t u4
193 4
ar e
7 00
g a2
c n
a li
9 1
ch e
te d
st er
f f
b y
hu ang3
co l
il l
o t
25 0
s a
ar t
z ei2
19 24
R i
.. .
19 19
ku i1
xu an4
1 30
pi ao1
19 25
P S
p ao1
xi a1
14 0
P lay
S M
P C
me s
19 14
st e
zh ai3
k m
H e
D V
p an
zh e1
You Tu
h e1
en d
H a
F i
an a
di e1
b le
C on
W i
l a3
A S
19 11
B u
k a
sh i
o d
g ra
nv e4
l d
19 26
G e
T i
de n
ou r
19 22
n a3
h en4
19 17
si on
E T
N BA
I V
shu i2
c ai1
r ao2
E N
19 23
19 21
p eng4
f e
ku a1
G oo
th er
T a
ch ong3
17 0
à ¸
E C
m ao3
n ong4
m m
A L
M S
H o
se ction
YouTu be
E P
N i
B L
19 13
h n
ti ao1
p en
H K
E n
â Ĩ
han t
gu n4
190 9
g in
In ter
c ro
P e
S te
M P
A I
T o
g eng3
W or
n ao4
ri s
f eng3
an t
l uo3
U S
y a
po r
DV D
g o
ar i
z ou1
P i
3 000
T h
c a1
D o
P o
g n
19 10
F or
R O
D S
1 12
A K
R E
p ro
19 16
C ar
ãĥ ¼
ch uo4
N et
Î ±
a tion
S ch
K i
N o
an i
tu re
el l
L in
M y
C P
U N
W il
ar k
â Ī
Sta tion
h en2
19 15
g le
ni ang4
190 5
F C
v en
er s
m y
C N
â Ħ
âĨ Ĵ
190 1
tion al
L u
w a
ti ng
A u
D NA
E x
f a
p u
âĢ §
si c
di a
9 00
H R
P h
di ce
ar y
si s
Ne w
. &
t on
C H
z en3
T A
T O
190 6
190 4
chu ang3
A V
J u
Q u
ou n
K a
g en3
p s
Jo hn
er e
A nd
M O
co dice
ch ao3
ji ong3
di ng
âĦ ĥ
k o
er i
w a4
b eng4
0 5
f u
C C
di u1
190 7
190 8
Goo gle
A G
E ST
M I
v o
zu an4
S O
te s
L E
ji a2
zu an3
Play Station
en ter
B O
B BC
ch i
Co m
A D
I G
c al
le y
l i1
G u
en ce
II I
of t
R u
15 00
c y
5 000
c ri
wo r
zu an1
I ST
sh e1
lv 2
C ol
or y
M E
S y
ti ve
w it
C R
3 D
rou nd
I A
l an
gu a3
10 5
j e
m a4
Ð °
t t
li n
190 3
10 1
G B
pi ng1
re e
C u
c an
0 9
in a
c an4
F e
c en2
190 2
B D
N C
l and
T E
ch a
p ang1
x t
3 50
Ã ¡
z e
SA O
sh ao2
g en
D C
de s
s pan
p t
mo n
A d
Î ²
g ht
re s
li n4
B 1900
de l
bo ok
E S
B M
r on
ï¼ İ
ãĥ ³
189 8
0 6
1 18
H i
l a2
ãģ ®
m s
qi n3
c or
te l
D R
3 60
0 1
D A
O pen
189 5
l ao4
12 5
m u2
z a
la r
b en4
H O
an ce
ti n
M C
AT P
Mi cro
K o
g y
Ð ¾
10 8
K e
s y
li ne
di o
N G
ig h
p ou1
ne t
y le
G o
c lu
lo w
qi e2
gra m
C or
I F
f t
F ran
O ne
n er
A pp
0 7
âĪ Ĵ
0 8
2 30
g h
Fa ce
H u
10 4
pa ce
P u
S er
re a
Wor ld
s oft
ED T
IST AT
M on
S tu
j a
sh ai1
s ong3
à ¤
N O
189 6
L L
ni ng
10 9
D P
f li
g er
la s
d y
y u1
A A
lu s
ow n
B i
it y
g e3
R I
ct or
W a
D u
S P
R T
su i3
xi ao2
qi a3
E X
r e3
B ri
ber t
B 48
M an
v el
li ng
10 6
18 90
S an
C ST
M L
or i
B ar
CD T
Lo ve
z ang1
D O
wi th
H E
w ard
P er
p ei1
ro w
ta in
0 4
4 000
p ri
u x
cu an4
11 5
ig ht
d s
1 200
M 1
0 3
H ar
G P
p ao2
C E
r en
Ä ģ
ba ck
188 9
be gin
P ar
189 9
J e
Ma c
col span
187 1
E d
R S
mi c
Face book
Wil li
Micro soft
âĢ ĭ
24 0
tu r
Co mp
o ol
16 00
L O
G i
k y
B E
c c
N or
ck et
10 2
bo x
clu de
T T
re f
189 7
ph a
Li ve
N H
S ou
E E
ch ou4
T ri
11 7
I s
P re
P P
i m
qi n4
u t
S C
mi n
0 2
c m
shu ang3
st yle
i e
10 3
AK B48
M D
y ao3
Mu sic
P ri
10 7
v an
O n
b li
c ou4
t ra
G ra
O r
l er
Lin ux
D is
T ra
s er
y e
t ang3
w w
G re
O ri
li s
ol d
V ID
12 7
tu s
4 50
V o
s ti
Da vi
Ã ¼
qu e
12 8
ali gn
l ao1
fli x
C L
Net flix
189 4
Ga me
2 20
r in
B er
Ð ½
ma s
Willi am
I L
M or
k s
S H
T wit
18 80
Re d
l en
l la
Ã Ń
R NA
z ao2
13 6
ru s
ro m
P G
ng e
Ð ¸
st ri
ãģ Ħ
T R
st ra
Te am
18 00
ãĤ ¹
Uni ver
g round
188 5
li a3
er o
11 4
ãĤ ĵ
Ch ar
p ian2
col or
F u
H z
T y
28 0
U R
Ð µ
11 3
11 6
t or
an o
G en
188 6
si ng
ãĤ ¤
T S
Sch ool
P O
m ang3
la ss
189 3
C he
e x
s en
ir l
B la
l yi
m b
t en
M c
an e
Mar k
E u
na me
S L
t ri
11 1
St ar
ã Ħ
ci al
li a
ir st
Su per
por t
D on
je ct
le x
mo 3
âĢ »
ce s
mo 1
13 5
Davi d
26 0
na tional
y s
er a
18 60
Ge or
st o
gu e
ni n2
es s
W al
W TA
k er
H C
w ay
Sh ow
lv er
A c
U A
w as
U n
h am
188 8
te xt
S D
a c
Ã ³
rou p
- .
an s
ou se
B ra
ro id
ca tion
back ground
t le
yu n1
d ai3
C y
p re
G O
W h
ch en1
18 70
re am
G N
ï ¹
12 9
on y
188 7
b ur
an y
di s
shu an1
18 68
Me ta
6 000
Ã ¶
Ñ Ģ
E l
N F
V A
c le
188 3
l or
an k
ou s
X box
3 20
C S
T ho
N HK
A F
A s
D D
Twit ter
K P
n clude
on lyi
onlyi nclude
pi ao2
+ +
bi t
t ang4
18 64
âĢ ¢
I ON
n y
ch o
188 4
R C
U E
m ar
en sis
1 19
12 2
25 00
189 2
2 10
A 1
ti s
en a
le t
c enter
mi u4
15 5
in s
ow er
IS O
M at
â ħ
14 5
189 1
6 50
C lu
c er
And roid
G irl
a ge
ãĢ ķ
O R
re d
ne s
K u
N S
c uo1
c ar
ãĢ Ķ
18 50
ht t
mer i
C l
v al
Inter national
D ay
x y
ou nd
m i1
18 67
lo gy
ste m
I M
p ang4
ãĥ Ī
el d
Al l
f fi
187 9
ak e
Ja mes
En ter
W ar
p ar
se l
3 80
A B
U P
V er
b ri
ne y
187 6
A ni
C oun
si a
Geor ge
C an
li e
18 75
18 61
27 0
Univer si
D ra
H er
P or
t d
Ga mes
A ir
I R
12 6
N T
Ã ¨
ti me
in ter
H ol
P au
S pe
NG C
st ru
ãĥ «
187 3
M G
n s
12 3
ãĥ ©
am a
E ng
H en
P V
A b
G roup
H T
se d
ran s
Col le
B en
H y
M B
V a
16 8
CO VID
cri tic
F M
o m
18 65
il d
Clu b
A O
P L
lu e
th at
as s
A meri
D E
12 1
C enter
h y
cu s
wor k
B lo
17 5
al d
ãģ Ĩ
We b
H 2
Y P
f rom
Ã ¤
14 00
MA X
A li
13 8
2 28
T P
a st
h a2
ch an4
ni c
18 48
f er
li u1
18 62
ra tion
3 30
p eng3
12 4
ãĤ ¢
188 1
188 2
7 37
P ark
v il
en s
on a
187 8
5 50
gu ai3
V e
ru i3
187 2
L C
bi n4
H el
H igh
IN K
Meta critic
z o
I t
n ao2
t ro
Ori con
M TV
U C
w an
15 6
16 5
B oo
L ED
d on
ni an3
18 40
IV E
S pi
c ore
d ai1
7 50
d ge
sh ai4
ãĥ ĥ
c re
mi ng
13 7
ãģ Ĺ
Le a
ni s
13 00
sta gram
7 000
ri ng
B ro
D OS
S Q
U B
22 9
I U
S he
G DP
K ing
O K
Ñ ģ
C hu
P la
r and
15 2
ou t
TV B
Mi cha
F ri
d ay
15 9
187 7
Ro bert
St re
ty pe
S ur
â Ĺ
ku i3
18 66
Ch ris
i OS
Ð »
al s
Pro du
S K
U p
18 69
âĢ ²
si lver
E le
T HE
D M
xi u3
st ar
Pe ter
N ET
P at
g ar
p la
sh e
p lay
Ð º
Ch i
In stagram
B I
p y
13 9
BL AC
B ig
g an
Ð ²
D J
r eng1
li p
ss o
Ph one
C G
W E
co de
ãĤ ¯
Micha el
A t
D F
ï ¸
App le
1 100
C i
a i
15 8
Te ch
Pau l
2 25
g on
en e
30 5
13 3
al k
IN E
Na tional
Ty pe
R A
s a3
ni a
ãĥ ª
at or
A ward
H I
Y O
13 2
Ste am
E s
Y e
r al
20 5
18 63
ra y
tain ment
2 15
B ill
ci a
Universi ty
C e
F O
ph y
C A
F 1
K BS
14 8
13 1
Me dia
K ar
L ou
M er
S mi
W o
16 6
ar ch
ne w
187 4
E F
X X
k g
n ow
de o
en ti
18 58
F in
i c
14 7
Bla ck
b al
v in
25 6
ãģ ĭ
G A
G ar
M 2
ku n3
18 30
Ri ch
C BS
T er
U T
a ch
c lo
e w
18 51
or a
Le e
B N
E M
U I
19 2
Î ¼
Ch a
8 000
ch e3
Ja ck
Enter tainment
i f
z er
an n
li n3
mi ni
bi n
14 3
se t
ad a
C ity
M k
g ang4
18 55
In tel
3 10
P ower
I X
h a3
m ber
I E
R AM
S pace
b el
z uo2
ð «
18 59
ST AR
Char les
13 4
tion s
is s
Di re
shi p
A ng
A BC
18 5
18 54
or g
14 6
30 1
F la
17 00
Vi u
3 70
s pace
18 57
F ree
G M
W in
e k
w hi
st ro
E r
v s
Ø §
29 0
ãģ ª
Li fe
Ta i
ï¸ °
S am
Î ³
in o
Ja va
2 14
P y
Ñ Ĥ
mi s
Re cor
Comp any
sti tu
4 20
D ream
P ol
f ang
Î ¿
ãĢ ľ
18 56
18 53
Pro ject
H ouse
a h
f irst
di um
ãģ Ł
et y
oo d
Ti me
Tho mas
P an
b ra
v on
bo 4
14 4
Al pha
Sa int
F A
K en
O VA
C ent
V O
fa ce
A 2
I O
16 7
3 A
H S
S BS
sh a3
bi li
ku a3
18 41
Stre et
A m
A lex
B at
L P
s pe
al o
Ja pan
3 40
A g
P M
chu an3
ri e
Eu ro
BLAC KP
S po
T or
a e
w n
z a1
20 8
18 15
17 8
CP U
BLACKP INK
2 23
B ur
T ru
c is
m en4
So ci
8 50
L GB
S ing
t al
z uo1
ch er
ri c
se s
Ro ck
Stu dio
ww w
I BM
di e
ma t
es ti
por ts
S F
V al
yo u
20 7
ver y
23 5
ãģ ¨
ãģ ¾
ma tion
Ar t
D ig
F er
L IVE
M r
M et
P op
S U
20 3
ni ng4
17 1
ber g
B 2
V E
W hi
n al
co mp
Sh i
SQ L
P ad
c ra
s g
v is
18 46
16 4
for d
no t
Colle ge
M in
Y u
b re
li t
15 7
vi ce
pu bli
B R
L T
N E
S un
14 1
IC E
Ameri can
B 1
C ro
P E
e st
bo ard
17 6
si gn
IN G
A sso
L S
b all
h an1
Â ²
we ll
18 12
18 45
18 44
Ro ad
Girl s
sel f
p le
mi t
23 1
O ffi
c ture
c lass
H F
L td
M 3
p m
bo r
ãĤ Ĭ
wit ch
LGB T
B B
20 9
wo od
po n
ce ss
ãģ į
NA SA
GN U
G er
L A
P A
w ai1
de d
th y
Jo se
Te le
Smi th
C la
C ra
P ra
i se
am pi
au rus
IU CN
2 16
P N
w h
Î º
18 49
15 3
Goo d
C T
F il
H all
N BC
T our
zh ou3
20 4
23 8
Ch o
um p
Produ ction
l e1
le a
ta tion
ne ss
Vi deo
G T
O 2
S ci
Ï ĥ
mi ted
Ga la
E li
F o
P R
w ar
y n
di n
20 6
eri es
Z e
18 14
ma c
2 18
f ri
f ra
l ti
on s
ang e
Rich ard
S I
m al
chu n3
IG N
A ct
L D
S en
W S
w in
â ĸ
pi c
qu i
Ch ri
Bo y
P lan
S ky
T ur
b un
Ï Ģ
de f
18 47
15 4
th o
ve d
vi sion
tur n
4 60
5 80
B el
F F
F ar
M as
h er
i ro
s ch
v es
z z
mo r
18 43
Be st
Sy stem
pt r
4 30
M BC
sh a
40 1
che m
4 10
b ar
b us
p r
le d
17 7
ri ch
of f
ãĤ ·
lo s
NF L
Viu TV
C al
S witch
16 3
AM D
AP I
We st
D an
I CO
e p
o per
men ts
18 52
16 2
cri pt
V II
g s
18 20
th is
ãģ ı
Ma x
In c
A ma
B or
F re
P rin
c il
u e
14 2
ge t
23 4
th on
Ro y
V R
17 2
ãģ Ĭ
ãģ ķ
Recor ds
6 40
E m
G al
S qu
V ir
16 9
35 00
Li mited
da ta
C M
C ore
K C
T 1
Â ±
lv e
18 39
ar s
23 2
4 80
c i1
17 9
ca de
20 30
14 9
ma x
36 5
In stitu
man n
R es
18 21
ãĥ Ń
ãģ ¿
der s
Uni code
RO M
CC TV
3 90
B U
H an
c ent
l li
t v
30 6
22 2
60 1
un ch
F an
V ol
i i
tu be
17 3
24 7
ri a
it ch
Bo b
fu l
C ri
E A
P F
k ing
ti an
it al
oo t
K K
X P
17 90
5 60
O H
S N
u se
w id
li an
pi ng
ãĥ ¬
ci ation
2 11
B F
F un
T rans
V M
i re
H ot
M U
P D
P H
S co
S ir
i o
v ar
shu a3
lu m
17 95
30 3
âĹ ĭ
18 3
23 3
se arch
ãģ ¡
180 1
For ce
2 13
P en
T ok
k h
l on
we ng4
ru n
ãĥ ŀ
US B
V an
n um
ti a
su b
ni e
17 4
re w
MV P
He art
Fi re
Je an
C K
z on
Ï ģ
á Ģ
ì Ŀ
18 6
18 38
or d
al ly
St ore
5 20
6 10
B ank
D DR
G lo
T op
s or
u p
ng a
mi ly
ck er
i Pad
r ong3
t z
su r
16 1
50 1
ãĥ ī
it s
ay a
Ho me
htt p
Dire ct
2 24
C F
H or
L on
e le
bi le
18 13
ãĤ ī
Ph il
D r
F le
G E
z y
Ï Ħ
18 2
18 32
18 42
la tion
Soci ety
A E
C am
Z i
f ter
18 4
ãĤ «
Mi ni
ke y
Da ta
7 20
K I
M el
S cript
i Phone
j o
â ĺ
18 36
la te
17 93
25 5
th a
ãĤ ª
Co mic
Mu se
2 21
H BO
M T
S to
d ro
h ou3
k in
n t
18 33
17 89
Sh a
tic s
Ri ver
htt ps
Asso ciation
Gala xy
bun tu
D AM
M 4
Q Q
d ra
f in
m g
ti es
18 35
15 1
ãĤ ¿
ad y
2 19
2 17
3 38
F T
J an
J YP
S R
W A
e m
ð Ĳ
sh ang
âĢ °
mu ni
180 4
ON E
CE O
wid th
4 70
7 40
8 30
U buntu
g a4
u ni
li ght
el la
Mar tin
Hen ry
Lea gue
B ay
Y G
b an
b ro
g re
Ï Ĥ
Ð ´
â ī
mu s
Ma ster
Ch ampi
vi ng
Gen er
D es
E ar
F ra
L INE
P hi
c en
Î ½
le ss
at o
AR T
Gre en
2 12
B r
D K
c ti
Ñ ĥ
ng er
hu n
li st
18 28
or s
ãĤ ³
con d
AP AN
row n
D ou
F R
N ight
V en
di t
19 1
30 2
ta ble
Bill board
6 80
G am
M ana
M Hz
P I
P in
S NH
h as
n m
Î ¹
18 1
16 24
23 7
si de
ma in
ãĤ ĭ
Ch ina
Offi ce
Jose ph
SNH 48
B ir
F DA
G old
J APAN
P K
à ¹
á ¹
16 44
30 8
st on
Co de
St ra
CO M
No te
D B
D y
E nv
G R
H ill
M il
O b
P art
10 000
18 37
tu i2
23 9
ri ck
lo gi
180 6
So ng
Uni ted
New s
mac OS
4 40
C V
I nv
M W
U 21
h ar
m ark
Ã ¢
Ã ®
Î ´
à ¥
â ĳ
18 19
29 9
34 6
Ra dio
Lo ng
Pa la
HT ML
ann el
7 80
E ast
O ut
T en
T alk
18 25
24 5
23 6
th an
50 5
27 9
ãģ «
ad o
You ng
Dig ital
5 40
C amp
E V
H 5
L au
r pm
ch ong4
00 1
si an
ne d
ter s
bu t
3 25
B al
p lo
p ur
su s
17 76
ãģ ĺ
per i
NC AA
Ser ver
B an
F AT
H ow
J i
18 18
26 5
ri ght
ãģ ĵ
den t
Hel lo
B ru
D ri
Y o
a pp
c oun
18 24
18 31
202 7
il la
tic al
C ry
G S
L es
R PG
b et
p art
u l
w er
Ã §
Ã ´
ch el
me d
ro me
and a
Ch ild
Hi st
Ser vice
âħ ¡
Tech no
C at
D own
O s
U M
i ce
hu r
mo nd
te mp
BS D
Ki Ha
Fran k
Is land
publi c
Sci ence
1 A
B lue
C W
F ore
X ML
b en
Î »
27 5
27 00
lo ng
You tube
Ko ng
Ed ward
Un der
Py thon
Whi te
3 12
5 G
7 30
F irst
G rand
H L
L an
O M
P as
T BS
f un
h ao1
26 4
29 5
38 6
180 2
BL UE
Institu te
Champi on
6 30
C as
S um
T M
k ar
Ã º
Ã ł
ni e1
18 22
ar ed
st s
28 8
ãĤ ¸
Ù Ħ
30 7
24 4
ãĥ ķ
va te
Tu nes
IT F
To m
G ro
J T
x el
an ti
la unch
24 9
90 3
il le
Nor th
Pol y
Squ are
O T
P al
P ID
S eries
l lo
t ry
z ation
Ä «
Å ¡
tu m
24 3
28 00
ta s
You r
Th is
Cu p
bur g
F X
H am
J ump
M oun
N P
S or
S of
Y a
_ _
li o
18 10
16 22
17 92
re turn
70 1
SA RS
Ca p
Ho ng
PO P
9 60
C ur
D ani
K h
L ang
O p
S ig
S HO
V V
i ch
n on
p ai3
Î µ
mo s
16 50
80 1
Ra p
Net work
MI UI
2 100
U r
o b
Ð ¼
00 7
18 26
15 73
ru m
ci ng
ha ve
7 47
J our
R ay
W at
k en
18 34
30 4
22 6
27 8
ãĥ Ł
ãĤ Ĥ
37 5
ad d
180 5
AC T
AP P
AI R
Stu di
Blo ck
G ran
H A
I m
P ara
T re
a g
p res
r d
s in
29 6
29 8
38 5
AT A
Mo del
Di e
2 D
3 35
5 90
9 000
C U
D ot
G il
S ports
W N
m l
v y
Ï ī
â ĭ
li c
la ng
17 80
ge s
22 7
si g
lt a
ãĥ ł
ak a
ding s
IF A
3 15
J on
R en
S p
f re
i Tunes
Â »
su al
mo re
25 1
27 7
ma p
CN N
Au to
2 A
C le
G ol
O ver
R us
R FC
h r
p H
u nd
zi ne
15 82
17 99
25 9
24 6
24 8
th i
Ma g
vi ew
180 9
ga in
Qu e
Sou th
Eng ine
5 30
C 2
D LC
N ow
S c
g en4
s ang3
Â «
an der
18 23
or n
16 21
27 2
40 5
AT ION
180 3
Sta te
ste ms
Inter net
EE E
pre ss
3 34
6 20
7 70
C lass
D ar
J en
N u
S G
V I
h ad
di tion
or k
16 25
28 4
28 5
ãĤ µ
St an
tw are
da e
Pu bli
3 11
8 80
L is
N M
S ony
d or
Ã ī
á »
lu tion
cu r
25 8
for m
27 6
ãģ Į
as on
Mo bile
B us
C li
C er
D en
K O
O per
X T
d d
i th
s co
à ¦
25 3
re ss
35 7
vi a
Mo on
Wi i
Pi er
6 60
B on
G et
M en
S V
U L
Ð ¹
ch en
ou d
ãĥ Ĺ
ST A
ing s
Mar ia
IP v
Uni x
Wh at
Euro pe
5 70
B re
U 19
W F
W ay
e e
p at
Ð ³
18 27
tu an1
15 70
al y
ãģ Ĥ
ck s
ga zine
Lin k
vil le
Boo k
3 14
3 DS
6 90
B BS
C 6
D SM
I EEE
S B
W WE
b lo
i ni
n or
18 17
16 40
16 36
26 8
40 2
40 4
ãģ ¯
Me di
Ra in
Be au
Sou nd
whi ch
4 G
A X
D ol
G ri
f y
t rans
17 75
25 4
Fran cis
3 23
C ir
H P
L it
O P
k ao1
mo del
la ris
17 50
30 9
ter i
ca st
ak er
Jo y
fi c
3 29
6 70
A th
C lo
E nd
L y
P lus
h el
i de
u ng
y an
sh ing
gu ai1
18 16
ãĥ ģ
ãĤ £
45 00
Ch annel
CO N
Vi ctor
fi eld
Ti k
TO P
Cu be
Lou is
pr int
. -
7 10
9 10
9 50
D I
G od
M K
a b
o c
di an
pi n
ar r
24 1
23 00
Re search
IS BN
Po li
Fil m
tv N
3 26
A sia
B ou
P T
T 2
r ch
s p
à ½
pi tal
15 92
al le
34 7
75 8
Ma y
oo m
St and
op le
A ra
D T
T ro
t r
t an
tu al
16 28
17 88
25 2
24 2
26 9
ãĥ ĭ
and y
Le on
ff er
fe a
Ni co
vel op
tur al
3 18
3 36
9 78
A do
C B
D L
F esti
M US
N 2
O 3
á ĥ
bi e1
ti o
po s
16 27
17 83
17 91
al th
40 6
35 4
IN N
Re gi
ph i
Vi sta
rou gh
Pi xel
Dis ney
âĸ ¡
A cade
C our
E L
F 4
I B
L AN
L TE
P ho
S m
p a1
t re
ni ca
17 97
28 9
ï¼ »
ï¼ ½
ce d
Ma ch
55 6
Be at
La w
A nge
D MS
O F
T H
T an
n an3
po p
17 79
17 96
60 7
ãģ ¤
ãģ ł
35 2
46 5
180 8
Pro f
ER T
so me
km 2
Wor ks
NC T
Ali ce
Sof tware
âĭ ¯
3 21
3 37
A 4
A mi
T 3
f la
g is
l s
ch ar
hu ang4
ni ght
18 29
tu de
17 78
17 94
28 3
27 3
te st
ãĥ £
ãĥ Ĳ
ãĤ ¨
ck y
Co s
Mar y
Vi sual
ine se
YouTu ber
AS C
wor ld
Ele ct
Bat tle
3 13
5 10
8 40
8 60
F oot
M net
v ance
Ã ±
Î ¸
shu ai3
17 98
me ga
ãģ ¦
45 6
37 2
Jo han
EC T
sy stem
Spe cial
Award s
4 48
8 70
B lu
M F
a th
r or
s ca
we b
15 80
16 12
16 34
17 87
28 1
26 7
ãĥ ĩ
ãģ £
ma d
ãĤ ¦
lo st
mm y
Pre mi
Roy al
Glo bal
9 11
D G
F ro
M is
O li
S et
T N
T ou
W O
â ĩ
sh ai3
mi na
15 67
16 48
27 1
te ch
lt ra
Re al
pe dia
ph er
con o
Ar ts
BO X
Env iro
A H
D ark
E 3
G or
M M
M ur
N ot
P ay
Y ork
e v
ch uo1
hu s
bo n
36 7
OS HI
con st
AC E
ff e
EN T
AG A
Gre at
Tik Tok
- &
3 22
A h
M ON
O TT
R ou
V B
c as
bi an
po si
15 50
15 68
16 15
16 30
la m
for mation
28 6
ãĥ ĸ
Ma gazine
CH 3
Comp u
Muse um
Dani el
Festi val
B rown
C ru
C AS
F BI
L G
M al
M ill
R am
S IG
U SA
a p
g g
o ther
zh ao2
yi ng
pi e1
16 45
16 46
for e
26 2
ãĤ Ń
33 3
CO LL
AR D
Se cre
ste a
ste in
En core
ture s
Cl oud
MUS IC
H un
L ar
L et
b as
d ou
g al
t to
Ø ±
16 26
26 1
29 7
te m
35 5
ol f
Ch inese
Ki m
On line
3 28
8 20
P et
P RO
S 2
o ver
s ou3
mo d
qu es
16 37
re y
70 5
90 1
36 4
38 4
37 8
44 2
Me mo
gi c
Po int
VID IA
6 18
A U
C BC
H B
H as
H um
N VIDIA
T 48
c to
s che
y l
z e4
Ð ¡
Ñ ĭ
16 42
25 7
24 00
28 2
26 00
Ma d
ver n
Sta dium
mp le
160 9
one y
Red mi
Ye ar
Tai wan
Ado be
7 60
7 67
C ou
C AN
I l
O 4
S w
U 17
V C
V in
W on
b at
b ps
h eng4
Ñ Į
de on
ni or
po ration
15 85
15 83
16 10
th ing
ãĤ Ħ
58 3
ct ory
180 7
ak i
AR M
Te X
ster n
ther n
Com muni
Sy stems
Gener al
9 30
F IFA
J U
K E
O D
S in
T own
T hun
W ho
c la
c ci
j or
s tu
ti na
mo l
16 23
st y
27 4
ro s
si ze
ce ll
99 9
An to
Po st
pri ng
Cy clo
ï¹ ĳ
H2 O
E OS
F IN
I ma
I EC
K in
K id
e sta
s m
15 71
17 84
st an
26 3
50 9
29 3
35 1
Ch an
De ep
Ar chi
wi ki
2 200
4 28
A J
G UN
T ar
p ra
s k
x x
li g
ni ty
16 20
17 23
17 86
st re
50 4
lt on
ãĥ ¥
35 3
39 5
be th
va lue
So laris
pri vate
Chris tian
Met ro
Mana ge
Dot A
4 19
4 32
A 3
A ri
F N
G L
R on
b es
c at
c ard
c tive
p es
Å į
ì ķ
cu ri
14 50
in te
ge l
ra t
ãģ Ļ
co s
el o
Mi ke
ha i
Ke y
Mark et
Chri st
Phi lip
Studi os
Lit tle
3 45
4 27
B and
C ine
F E
H IV
K 6
L ine
V PN
Ä į
li ke
zi lla
or o
15 77
16 18
16 43
el low
38 7
39 9
ct s
Ca st
our ce
LO VE
Fle et
Techno logy
3 17
3 31
5 12
5 65
H 1
M Y
R 2
S 1
S oft
T ay
U 18
U SS
U ltra
b b
h is
l u1
u d
Ñ ı
li na
15 86
17 77
14 53
80 6
ba se
CD MA
Ra deon
Uni on
AL L
Va lve
Child ren
Secre t
3 27
4 90
4 45
4 46
5 35
A lt
A ven
F I
F ound
L and
M id
M 87
S k
U 23
W I
W OR
p ara
r stea
y er
Ã ª
en do
li ve
15 21
17 65
17 74
in to
st al
se y
se cond
ve y
49 9
Sta ge
Mu lti
ll er
Wi th
Ju nior
BM W
Fri ed
Cent re
wh ere
Acade my
4 11
4 16
C rea
E MI
H TC
K B
O mega
S che
Å «
en i
ch t
cu l
16 16
si ble
ta i
70 7
il y
36 9
39 7
ver s
Jo e
Sta tes
Wi re
Ni ko
GP U
bili ty
6 13
N R
S we
T W
Z A
Î ·
Î Ķ
Ð Ĳ
en o
mi a
15 64
17 85
lo t
36 8
39 8
ph o
TV BS
Ne xt
Su b
Wi ki
Ge o
My SQL
vo id
Ori gin
Ama zon
3 C
8 10
B T
H on
J r
S ti
S au
S ara
h ouse
m 3
p to
Ð Ķ
16 62
in clude
26 6
29 1
si st
he ad
58 8
De mo
Di stri
Ba se
MO D
chi e
Ad am
Cor poration
M1 A1
fer ence
mis sion
velop ment
GUN DAM
3 16
5 37
6 21
7 42
C I
E 48
E ric
F low
I r
R un
T I
c ted
p ter
Ã «
Ù Ĩ
po int
15 40
15 74
17 72
st d
28 7
te e
60 5
45 4
lo g
38 8
34 3
Ma u
88 8
Ar c
Se a
Su nd
Dra w
Chu rch
Alex ander
Cro ss
Manage ment
4 25
4 75
D el
L ady
N D
O ther
S W
k ang2
p al
w ere
an na
ao n
12 50
16 19
16 29
16 83
re ad
29 2
ma tic
36 3
37 6
ST S
55 2
68 6
oo k
ig n
ali ty
Au gu
Sco tt
Lon don
Dy na
Cyclo l
6 27
B RT
F L
K ir
L ake
M X
P on
S al
T ony
a le
h ard
t ru
Ð ±
ti sh
ti al
ou gh
ï¼ Ĥ
si t
48 8
De sign
Ne o
op en
And rew
Spo t
ðĲ Ń
4 49
5 A
6 25
7 38
D er
F ron
H ER
O f
P B
R ound
V ER
a ce
h l
o ni
p lan
Ð ļ
sh ared
15 90
15 79
16 33
ãĥ Ĭ
fo x
ãĤ °
id a
150 7
pu t
CH 2
vo lution
mon t
Ani max
Ear th
4 12
L F
L M
S mo
S ON
V 8
h ang1
i nv
n an
o ng
p lor
Ð ¿
í ķ
ji a
mi r
mi x
bo dy
ni co
16 31
16 80
17 73
al an
29 4
si ve
40 7
ma te
ãĤ Į
et te
as a
39 6
33 00
Be ta
160 4
Fa mily
An der
Ha mi
For t
Par ty
PG A
Jour nal
9 80
A re
B ad
C 4
D un
F old
G C
L R
N ar
S pring
p l
Ä ĩ
É Ļ
cu m
15 75
16 97
17 55
14 92
80 5
36 00
46 7
47 1
De f
Si mon
mic s
ï¹ Ĳ
tro l
SK E48
Sum mer
Thun der
0 x
3 19
E pic
J 2
X C
f b
p el
ni o
15 61
15 89
15 95
17 81
14 65
50 8
ãĥ Ĩ
ãģ ²
34 4
58 9
160 3
160 6
160 7
pp y
CN BLUE
Ru by
Bi o
Coun cil
Dri ve
Foot ball
4 15
8 55
9 40
9 70
C lar
F al
M iss
S on
k an
u age
x 86
z en
Ã ¸
Ã ħ
Ã Ł
à ®
bi o
15 22
15 26
15 56
16 13
16 60
50 2
50 6
ãĥ Ģ
37 7
47 8
55 4
amp le
Al li
mer cial
TO UR
William s
cation s
Hy per
ìĿ ´
âĺ Ĩ
Ange la
4 17
5 25
9 20
9 25
A fter
F lor
H it
L U
O ra
S ar
S ca
U RI
W ill
s ki
Ù ħ
en ts
ch eng4
bo ut
15 25
15 91
16 67
la i
40 8
48 5
to s
64 3
ba by
ph en
Mar i
Sh o
AM O
Ba ck
Fi esta
Ste ve
Ru e
Ad vance
DO HC
Chri sto
3 24
4 22
5 15
5 34
K it
L am
L ight
M es
Q S
S 4
T el
U K
V T
W el
b les
h en
m RNA
w ho
z zo
Ä ĵ
â Ĥ
li sh
su re
15 10
16 38
on ly
17 30
me dia
ãĥ ĳ
fo l
34 2
as o
39 3
47 9
ph ic
St ory
150 8
Mo zilla
Vi ta
La st
HK T48
Sy n
Cu l
las sic
Wa ter
Ber n
Wal ter
Ameri ca
Sur face
Found ation
3 200
5 31
5 38
5 46
C re
E G
G Hz
H al
I TV
J er
J ane
K at
M BA
N I
S ol
T G
V S
i te
i PS
k W
p per
v ir
li on
202 8
15 43
14 57
in du
co me
36 6
38 1
39 2
In du
Bu il
pla ce
Hist ory
1 st
4 13
E du
F 3
G un
G PS
L Z
P od
T han
U 20
W nt
d own
z an3
z ar
Ù Ĭ
bo ur
or ig
15 65
15 59
15 87
15 97
âĢ ł
16 35
16 88
17 33
17 82
al so
te x
si o
60 6
ãģ ĳ
37 3
Al bert
Ar ti
Ti m
Ti mes
John son
Fin al
4 A
4 26
5 24
6 12
8 90
A sh
B y
B ell
F S
J im
T ol
U D
Z a
b s
o v
s core
Â £
Ð Ł
Ñ ĩ
ch y
or t
15 88
15 98
50 7
the w
64 1
49 5
68 2
66 6
Ro d
Ro se
Au stra
Com mon
wor th
Mon t
Bri an
CL A
Pla ce
Tele gram
Pier re
3 32
4 K
4 35
5 75
7 90
9 90
A i
B et
M us
T MA
w en
yo n
ti e4
bo w
15 23
15 35
16 49
16 61
17 70
14 99
st or
st ry
ãĤ ¬
ãĤ ı
36 1
46 6
39 1
.. ..
55 1
vi ces
Me d
Mo der
160 1
PC I
Ho tel
ell er
TO K
Ac Fun
Ang el
Fla sh
cra ft
num ber
Won der
5 28
5 500
B ang
H ard
H TT
S ma
S han
V ar
e a
f is
o la
ch an
mi ne
ti ca
shu an4
15 11
17 60
17 69
35 8
ter a
37 1
46 9
68 4
Re p
58 7
Vi ew
pp m
gi o
Si ri
SM AP
Bu t
Ex plor
Ed ge
Sou l
tri bu
Gol den
5 48
A W
K ri
M ir
M AC
a ir
e ven
h uo
s pi
v at
ti an3
200 00
10 80
15 000
15 76
15 94
16 89
36 2
38 3
TC P
34 1
Ma i
Ro man
NA SL
Pro gram
So me
Bri dge
ac tive
sco pe
Europe an
vern ment
9 21
A po
B il
D ance
K on
L 1
M R
M ind
M MC
N EX
P ass
R B
T F
U FO
V F
b um
e y
g ni
h ong4
r ang2
s al
s ky
ð ª
ch eng3
le ft
18 11
15 17
15 14
15 52
âĢ ķ
16 39
16 84
th en
si e
60 8
se ll
ma ster
34 9
64 4
55 7
ir d
58 5
59 7
ard o
De velopment
Mo d
Se ven
Ra w
os a
We ek
ther s
Ju st
Mat thew
Por t
Eli za
Gam er
temp late
curi ty
Tay lor
3 48
4 36
5 49
A ST
B rand
D ia
E ver
F red
M itch
P res
R N
R et
T ran
V illa
c s
c uo2
e xt
r ent
u ts
yo nd
15 78
17 63
13 50
in ess
ï¼ ĭ
40 3
ce pt
90 8
es sion
65 00
vi e
ca se
150 5
tou r
77 7
Mar ie
ang er
Te st
fi ed
fi cation
Pa ck
pro te
Qu i
San ta
MG 42
5 47
5 67
6 68
C 5
F AN
L or
N K
O h
R ol
T 4
Y OSHI
c ou
k es
o let
p us
s ao4
v or
Â ³
Ñ ĸ
mi d
er ing
10 50
cu la
16 14
17 20
37 4
Co V
49 4
ver se
ID E
IP S
PS P
He a
Pe ople
UN IX
Com mit
âħ ł
Fra me
Moun tain
IPv 4
Explor er
5 14
5 22
5 45
5 68
6 19
6 75
C SS
D 1
D NS
E BU
K T
K el
S hu
S and
b n
b la
c in
n e2
o van
yo ng2
le te
po ly
15 16
15 13
15 34
15 47
15 69
16 V
14 60
ro nic
ra te
ce l
ãģ §
35 9
75 7
it z
64 2
58 1
ss a
au x
150 2
ction s
à¸ £
Wor k
SO HC
Spi ri
Art hur
Que en
COLL AR
Sund ay
4 18
4 14
4 24
4 33
5 44
A le
C J
D TS
F 2
J O
J us
M MO
P EN
T wo
X IV
Y ah
a mi
b u1
e se
f lo
k ins
p he
w ill
z ed
Ð Ĵ
17 31
17 68
17 71
14 90
st one
me l
40 9
lt er
ãĥ ı
60 4
80 2
ãĤ ±
ãĤ ĩ
ãĤ į
38 9
75 00
39 4
47 6
be en
49 3
ER O
So lo
Bo x
Ri ft
Ge Force
AG E
Pri me
FO X
new s
whi le
Tru e
JT BC
âĩ Ķ
Cine ma
4 31
5 39
7 45
A BS
B it
C lassic
E O
H ay
J am
K er
L ord
M it
S el
T am
V 6
h ol
j q
Ä ±
sh ed
sh op
ch ange
bi ao4
ti ce
15 93
17 24
17 52
14 69
14 98
13 70
si li
ãģ Ī
38 2
75 5
46 4
44 4
57 1
150 1
Ne ver
no va
Na me
PS 3
Ex press
wor ks
Bri tish
Dra gon
td own
Kar l
AGA SA
Kid s
Fried rich
6 46
6 67
C IA
D 2
D ro
G in
I RT
M 6
N um
O ld
X F
Z J
h igh
p pe
z za
de x
li us
er y
di es
ti ne
ti fy
15 20
15 60
15 53
16 51
la u
la w
17 40
ar o
14 93
60 2
se a
ma de
90 4
is m
49 6
49 8
44 3
na ment
ci o
us er
St or
Ra il
Fa mi
MA N
Bo ys
Ba by
pro du
UN G
ko v
AG UE
LE AGUE
Gu ard
Je ff
Don ald
Fire fox
à¥ į
Ath lon
Memo ri
orig in
6 11
6 45
9 45
B as
C 1
C r
C en
C BA
D EC
E a
G W
Q U
T AM
U 2
e i
t wo
Ã ¥
á º
li m
bi a
cu lus
15 96
16 32
16 79
17 18
17 35
17 45
17 58
25 G
ï¼ Ŀ
ãĥ ¡
90 7
ãĤ ģ
ãĤ Ĩ
to p
ci d
58 4
ss on
150 6
De ar
98 5
Vi olet
Ga ga
ment al
Sa mu
160 5
Si de
He alth
Fi sh
RE AM
Wil d
Cent ral
Dou g
Stand ard
Christo pher
YOSHI KI
0 50
4 39
5 33
7 31
7 32
7 41
7 62
9 62
A stro
A gain
C ree
E ye
H 3
I CD
K an
K ra
K ill
N U
O ff
R CP
T L
T it
T od
U CLA
W ood
c ine
n p
o me
p han
Ï ħ
â Ļ
sh an
di na
mo u
12 60
15 66
17 25
17 48
st en
ãĥ Ħ
70 6
ãĤ Ī
ãĤ Ĵ
45 7
37 9
to wn
75 6
55 3
67 3
57 4
57 6
au lt
Al an
Vi sion
os aurus
97 3
Ca pital
An na
Gre g
Jack son
Alpha Fold
Oper ation
Fleet line
Aven ue
Angela baby
5 16
6 17
6 39
7 22
7 35
A k
A na
B un
D U
E cono
G aon
H MS
N an
P 2
T ower
c ter
h al
n ers
s ou4
s ay
t ch
x a
á ¸
li ty
er gy
we en
20 50
qu id
15 28
15 72
16 52
la de
17 27
17 61
13 68
ãĥ ¯
ãĥ İ
35 6
70 4
48 2
65 5
In fo
br ary
AR E
ga te
mp son
Ba i
end s
BL E
Col or
lin k
Har ry
ess or
Eng lish
Gar den
Jon es
Ander son
Eliza beth
Commit tee
0 10
4 47
8 63
9 26
9 61
E pi
H ero
L X
R ATP
V P
W W
c ta
c ity
i ra
k it
de fea
bi rd
lv a
15 31
15 38
16 47
16 81
la st
on al
ra m
80 3
70 8
ãĤ ĥ
45 2
45 3
the y
65 1
be d
Co ok
58 6
57 2
Ro s
St ro
150 4
ED G
AP G
Be yond
IC A
do or
Ba sic
ali s
170 1
Ste phen
Pi e
Qu a
wor d
Col span
HO ME
igh ts
App li
pri se
cc ff
cc ccff
Pre ss
Dis co
Twit ch
Pat rick
Wo men
FIN AL
4 38
5 11
9 33
A pa
B ow
I LE
J es
R ad
S NC
b and
g as
h ang4
p as
v ity
Î ©
Ð ·
Ø ª
ì ļ
de i3
xu s
ni cal
15 30
15 37
la ti
17 36
ar di
ï¼ Ĩ
60 3
80 8
46 1
46 8
68 1
Re a
Me ga
Al f
fi sh
ON G
sta te
170 9
Car l
Ke vin
Sou thern
Game Spot
Ab du
Java Script
spe ci
fra me
Prin ce
Direct X
fun ction
Moder n
5 41
6 29
6 48
7 25
B 3
C AR
D or
E LE
M bps
N N
N PC
P 4
U RE
i des
p et
Ñ ħ
en se
mi e
di re
su ch
su per
zi ng
cu i3
15 19
15 29
15 55
16 87
17 28
te am
ãĥ Ŀ
90 5
48 4
65 3
Ma h
be fore
55 9
49 1
67 9
OS S
79 6
Sa f
Fa ir
MA D
Si lver
Con cer
Th at
Par is
cket t
UR L
AO A
Spo tify
cture s
Plan et
ASC II
Omega T
Mitch ell
Yah oo
3 G
4 23
5 36
6 32
7 15
8 25
8 33
A la
A rea
C AL
D 9
E ri
F ly
G RO
K 2
M oney
R DS
V is
a po
a te
b h
h uo1
s ci
w art
er on
20 35
lv in
11 20
po li
17 67
ck ing
es a
Ma ker
Ch ro
Ch rome
47 3
49 2
66 1
Ro bin
au to
56 2
Li ber
De ad
De bian
Le o
Vi a
Se e
La ur
bu cket
ho st
An n
An th
An ne
PS 2
Con ne
Fe de
Ed die
TR A
Coun tdown
Zi co
sig ned
TOK YO
Violet ta
3 39
4 29
5 32
6 65
7 75
7 69
A x
D 5
D al
H and
J I
P ur
R 1
R F
S 3
S NS
e g
f low
g ia
m bo
w y
w is
Õ ¡
mi e1
12 20
15 45
16 64
16 59
17 19
ar tic
14 95
14 96
13 88
th or
70 2
70 3
Ma in
ST ATION
68 9
69 2
un der
Mi x
Ne u
Ja co
os o
ent al
ment ary
ER S
ha us
hi m
AN D
An ti
gra phy
gin s
Ste ven
Ph y
Ju an
gen e
IF F
Ani me
Hen ri
Fo x
Hum an
Frame work
4 34
6 36
7 29
7 61
8 78
A us
A ction
D in
E 1
E 231
G ot
G EN
J ay
L 2
M 5
P AGASA
R K
T oo
Z ERO
b ble
d as
e b
l f
o li
y d
Ð ĳ
Ð ľ
Ñ Ĩ
ì Ĺ
le u
ti er
15 46
15 49
15 62
16 70
16 90
16 54
16 53
16 94
17 59
14 66
ãĥ ¢
80 7
70 9
il o
45 8
lo ve
46 3
55 5
59 6
66 2
57 8
St ri
Li ke
Mi chel
con stru
Ha ppy
Bu ild
shi on
Inter active
John ny
del la
fli ght
FA ST
Ken ne
Cour t
HTT P
Samu el
1 2000
5 27
6 38
6 69
7 12
7 11
B P
D REAM
G on
I MAX
K 11
K ha
L V
L ind
N am
N CC
R SA
S r
S ay
T hi
W ell
c z
c li
c am
e f
k on
l le
p tion
s an
u i
u ld
Î ¬
sh ell
xi s
qi ong1
le m
su ng
ni u1
qu a
cu lar
15 58
15 81
17 38
14 74
13 75
in k
me t
Ch art
ST AT
47 7
68 000
AT E
59 5
59 8
59 9
99 7
ga me
Ja c
160 8
He in
den ce
EP A
pro gram
sy n
EX ILE
GP L
im port
Vo ice
Star s
star s
Gal ant
NM B48
5 21
6 28
6 22
7 21
8 67
8 77
9 65
B Y
C are
F 5
F on
G y
I ta
K ur
O ST
P r
R X
S us
S UP
S ource
V EN
W P
Z Z
e ng
p pi
p ti
s ka
yu n
li fe
gu ang4
su m
12 80
tu ra
âĢ ³
16 65
la d
17 32
17 44
17 56
14 89
14 87
13 40
th al
000 rpm
ãĥ ĵ
el le
90 6
ãĤ º
45 1
Ch ill
St ru
id ae
Al fre
Sh ar
Se curity
Da ve
wi ck
Play er
Wil son
Fe li
gh ts
Per son
Fore ver
Moun t
SHO W
Bus iness
2 nd
5 19
5 17
6 24
6 23
7 98
8 35
8 76
9 38
9 54
9 51
A bu
B 9
C AP
D 3
F w
F lo
G DDR
H op
H ans
I MD
L CD
N er
N IC
Q t
T al
Y F
Z en
f an
f ree
h at
u de
u sed
Ð ĺ
ð ¤
de a
chu ai4
wo n
wo uld
15 24
15 32
15 84
16 58
16 57
16 99
17 62
13 37
mu m
al lo
ï¼ ŀ
ra s
se ed
ter y
47 2
47 4
64 9
49 7
68 7
68 8
69 8
57 9
Ro ber
78 4
man i
Jo s
Pro to
ht ml
gi e
140 6
DS P
Car los
tel li
à¤ ¾
ye ar
SH IN
Hol ly
âĺ ħ
Publi c
sca pe
Tou ch
MON STA
Compu ter
Smo sh
Sma ck
Apa che
0 54
6 16
7 19
8 65
9 46
9 88
D H
D ur
G 1
H 4
H 10
H at
J et
J ona
R yan
S b
T ake
W it
W HO
X G
d le
g li
g na
l uo1
w ri
Ã ¦
Ï Ĩ
en ne
li b
mi cro
di g
we l
ti e
du s
lv et
po wer
16 68
17 39
17 64
for mat
ma il
300 00
78 7
Li brary
pa th
So cket
so ck
PS V
170 2
Th ere
tt en
LL VM
row span
way s
bre ak
Sen se
Fan ta
Smack Down
0 52
4 21
4 37
6 14
6 26
6 37
8 15
8 16
9 75
B ran
C ard
E cho
G F
H os
I f
I ce
J P
M ore
W ri
Y A
Z O
a fter
c ca
d an
d one
g am
j an
n st
t ar
u k
v as
Ð ł
ë °
de pen
mo st
00 00
12 75
15 36
16 75
on o
14 64
ra d
ra i
se e
ma jor
45 5
lo ck
IN D
nd a
67 1
67 8
Sh er
Te x
Fa shion
170 5
ari o
Lin er
TO WN
Gi ovan
Blo od
She et
Intel lig
KK BOX
Champion ship
Lang uage
aly sis
Prof essor
Christ mas
Alfre do
5 42
6 34
8 21
9 12
C IT
C fb
D X
H PV
M OS
M IT
N XT
S Y
S ter
S IM
T ig
W H
W er
W ing
W olf
c l
c rea
d f
g lo
g roup
i la
i ma
k ra
m me
w ind
Ï ĩ
â ģ
ã ħ
ì Ħ
ch es
mi ao1
bi s
15 63
16 17
16 63
16 85
la k
17 53
14 77
13 80
mu lti
st ance
50 3
80 9
ãģ İ
ãĤ ½
48 3
48 6
as y
75 4
65 6
be at
be ca
The at
67 6
AT X
SA N
78 5
56 1
NA S
AR K
AR P
AC H
Se cond
IP TV
AN G
Bo ard
We stern
Fi le
Fi eld
od on
à¸ ²
ani c
UN ES
gen cy
Hi p
Fran ces
Mor ning
Bra d
RC A
Colle ction
Space X
lea se
Mel on
Cir cle
Mis sion
Crea tive
TW ICE
Clar k
Indu stri
SUP ER
2 DS
3 M
5 18
5 26
5 66
7 16
7 14
7 65
7 64
7 44
8 26
8 47
9 18
9 36
A er
A fri
B au
B all
B NO
E U
E ve
F all
G I
H ere
I a
M RI
P ere
R P
R ight
R ank
S UN
V IP
W TT
Z o
a w
h ai1
m ph
v ari
Å Ĥ
Ù Ī
â Ĭ
ë ¦
ð ¬
ng th
sh ow
ch in
ch ed
chu s
10 24
16 69
16 56
16 72
16 92
17 54
14 20
14 80
te o
te en
the ir
at an
75 1
65 8
Ma ki
Ch ang
In te
ca p
59 4
St one
Me i
98 6
79 1
Mo ore
Sh ine
AM C
AM P
IT A
Bu g
ther e
170 4
170 8
Ni ck
AG P
Man u
ML B
Vo gue
Fu ture
DM R
logi cal
Archi te
Fron t
7 13
7 27
7 48
7 68
8 75
9 15
9 29
9 47
B IG
C YP
E BS
F rom
I SA
M ol
N ICO
O ME
R 3
R h
R ing
U F
W are
X III
e u
f il
o 1
x c
z an1
Ð ¢
Ø ³
an te
li k
bi e
le v
pi a
10 75
00 2
00 4
12 77
12 79
12 76
11 11
14 40
14 88
14 72
13 71
st ory
ãĥ §
90 2
48 9
69 9
99 2
88 1
98 1
con tribu
AP M
160 2
do m
ok ia
com mercial
Inter play
cro ss
AI M
RE AS
Wil hel
Au dio
CR H5
Wal ker
bur y
Ver sion
Wo ng
Fil ms
Ji mmy
Swe et
Distri ct
Buil ding
0 30
6 33
7 78
8 12
9 55
9 57
A zu
A ce
A sian
C 3
C 14
E Y
F ol
G 2
I an
J alan
L NG
L IF
M IC
N Y
N int
P OS
R and
R SS
S il
S AT
S id
T ha
T NT
V IS
Y i
c u2
c en1
d 4
n ar
u te
Ã ½
Ø ¨
Ø ¯
li er
pi s
bo 3
bo v
ku ai3
12 30
po lit
tu ry
15 27
16 11
la t
ar ray
re la
ri x
ri an
ri ce
ro ad
ce ae
ãģ Ľ
ne st
48 7
ve ment
In formation
55 8
68 5
vi o
vi ch
ca te
pe d
57 7
78 1
per t
Al len
Al bum
79 2
79 4
CO 2
Sh op
AR C
Di ck
Si x
Wi MAX
shi re
Ge mini
En ergy
Ste wart
112 2
RE S
ES PN
Wa ve
Tri ckett
min al
Wh ere
Tho mpson
Por table
Ve lvet
ele ct
part ment
sm all
ìķ Ħ
Thunder bird
Jona than
ð¬ ĵ
Nint endo
0 70
5 43
6 15
7 17
8 28
8 39
9 39
C el
E 2
E di
F D
G G
G r
H il
H art
I so
K S
K or
L en
M ED
N 1
O l
R Y
S 7
S port
T D
T w
U FC
V 1
V 2
Y an
a ting
a bout
d ri
g ran
i k
i or
z zi
ã İ
ê °
di ne
le e
ti l
ti ful
qu ali
15 12
15 41
16 66
17 21
17 26
17 37
17 47
17 43
17 41
14 30
25 000
for mer
st r
el y
ne u
ter o
48 1
is on
na tion
ba sed
67 4
vi er
69 7
88 9
Li quid
De uts
98 2
98 9
ly n
fi ni
op s
gi on
PC R
à¸ Ļ
AV E
tt le
NH S
Gra ce
Or g
Gen e
Mat ch
Enter prise
hy th
Sur f
enti um
Production s
Sto p
Pin k
ado x
Bru ce
fol low
Doug las
2 TV
5 13
8 46
8 66
8 57
B 12
B in
G au
G ary
H Y
J 1
J XG
L un
M g
O culus
P entium
T r
T s
W M
a gain
k Hz
s po
z an2
mi um
gu s
zhu a3
12 17
12 74
15 15
15 42
17 12
17 11
17 15
ar chi
14 35
14 56
13 28
13 85
for man
me di
ro om
te au
ãģ ¶
48 00
is er
IN T
34 00
Re v
ba ch
pe i
Ro ger
150 9
Li e
Li st
Mo tor
Wind ow
Sta ff
IS C
Lo ck
97 1
Pa ge
AS H
ka i
fe ct
Net scape
IG HT
gen er
GP 40
bri d
bri dge
hy dro
face book
Prin cess
Ten nis
SHIN ee
0 55
2 B
6 47
7 28
7 26
8 11
9 13
C Z
C CD
C OS
D N
E very
I ng
K N
S now
T AI
W all
Z ero
f ig
t ran
Î ¯
Î ¶
sh ark
le in
ti t
chu ai3
11 50
or bit
15 44
17 57
14 24
14 70
14 54
th rough
ri er
29 00
si l
se u
se ts
ma y
90 9
45 9
37 00
75 9
ST ER
Co ng
II T
ci sion
67 2
58 2
AT S
59 1
99 3
SA P
au n
Mar s
Lo st
Si e
Bu zz
Ta c
DS L
pro ject
Fran ce
Univer sal
ham mad
âħ ¢
IM F
Dra ma
stru ct
Eng land
CG TN
Lou ise
Mer cu
add r
Anto nio
CDMA 2000
WOR LD
Alli ance
Rep Rap
Holly wood
8 23
8 29
9 27
9 35
A 5
A ve
B ol
E y
E mi
F 7
F l
F our
G IS
J C
J ason
K am
K now
L MS
L PL
M ou
O ly
S ang
T B
U SE
W D
e xi
f it
f ts
m and
m pic
p rin
t ent
w at
mi cal
bi g
er t
le dge
12 35
12 64
tu p
or der
15 54
17 22
17 34
17 66
14 71
13 30
13 90
ra nge
ãĥ į
ce i
60 9
the m
65 2
65 9
Ma xi
Ma ke
Ma gn
The o
Re mix
69 5
57 3
78 3
ber ry
77 1
per ia
Le i
Sh ot
Ar ena
Ga te
Di vision
Uni t
ster s
âĪ Ī
Ad ven
AA A
DO CO
Par adox
Red dit
Ac tive
par ti
Ben ja
Bro ok
Bro thers
Alpha Go
sor t
uni que
Engine ering
Rain bow
ECT ION
tour nament
Kel ly
Cree k
defea ted
Concer t
Maki yo
Surf shark
1 180
3 100
5 29
7 24
7 36
8 32
9 32
9 67
9 76
B EST
F 6
F G
H M
H Q
K A
K r
N 3
N ON
O L
P ia
P RE
R AD
S RAM
U 16
V CD
X Y
X i
c our
f eld
g ood
m ary
n ch
n el
o is
Â ½
Ã £
Ï Į
Ð ŀ
× Ļ
ð ¡
de ri
gu n
bo ot
su l
ni g
15 57
15 51
16 55
16 78
16 96
17 46
17 49
ar ma
14 75
14 41
14 84
13 99
ri son
ta il
75 2
be ing
Co oper
68 3
Ro b
St r
Mar sh
87 4
AC S
sta tic
140 2
gra ph
à¸ ¡
Pe ace
cy clo
Sy m
CR H
BM T
Hu lu
All stars
Hol dings
Spi n
Bro ad
GM MTV
VO CAL
Val ley
ord an
Pala zzo
IPv 6
Elect ronic
Premi er
PEN OME
Mercu ry
DOCO MO
PENOME CO
6 35
8 64
9 31
9 37
9 56
9 72
A y
D am
E dition
F ren
F IR
G it
H ad
N L
N AT
P RI
T ed
T ang
W id
c co
i st
k n
k et
t ta
x on
Ã ĸ
Å ĭ
Ñ Ī
ð °
sh o
di stri
bo t
mo tion
ni k
10 20
10 10
12 66
12 61
po st
po em
16 41
la v
17 51
13 46
mu r
th od
th ree
ou l
ãģ Ń
ne tt
and ra
ck en
TC H
ol s
ca u
Ro ss
99 5
88 4
88 5
88 6
De an
Mi ra
You Bi
Mo de
IS P
IS S
Da vis
Da ily
mer al
Pa ci
so cket
He ad
Con trol
Wor d
Car o
wa ter
AG M
ence s
ron o
M1 A2
Nor d
CL OS
Ac cess
CS I
Coun ty
YO U
Sam sung
mat ch
var ia
Bir d
long i
Wat ch
Beau tiful
Mill er
Origin al
Augu st
user name
Giovan ni
Theat re
Wilhel m
Tw ins
Benja min
0 60
5 64
6 64
8 17
8 31
8 53
9 19
9 58
9 42
9 59
9 79
A cc
B ak
F K
F NC
G as
G UI
H g
I sa
I ATA
J B
K ore
N el
P U
P X
P it
P DF
Q R
S chu
U CC
W inter
Z u
c tus
f ran
g b
h d
h ong3
h on
r ong1
w al
w ing
x e
Î £
Ð Ŀ
de t
yo ur
di ffer
12 84
12 91
202 9
16 73
17 13
14 25
14 68
13 82
me mber
si te
lt y
ãĥ ľ
80 4
ãģ ©
co la
38 00
65 7
Ma de
In f
be ta
na ture
ci ous
vi rus
AT I
De lta
De partment
CO NC
AM X
AR I
87 3
120 4
ke e
IC C
Fa ctory
mer s
so ng
ki e
à¸ ±
Ni cho
Do cu
Lu is
fa mily
CR 400
Ser vices
SP A
ori es
Dis c
Mor gan
stri ng
Wh it
ens or
cre en
Fla g
Tru st
fin al
Inv est
How ard
pres en
LAN D
Sm art
Edu cation
ession al
Fede ration
contribu tor
seu do
5 69
6 31
7 88
8 27
8 45
8 52
A 330
B 7
B our
B MP
C in
C all
E ss
E van
G 6
G IR
I Q
L ane
N at
N okia
R ER
T TC
Y S
a f
b ber
e la
g a3
h p
i bn
m 2
n ell
Ä ĥ
ì ĭ
ng i
pi e3
qu et
12 27
12 83
15 39
16 95
16 82
17 10
ar an
14 81
13 56
mu sic
ru e
st ad
st amp
ri l
si r
ãĥ Ļ
se o
am ba
ta u
ãģ µ
el li
and o
Ma te
Re gu
44 1
67 7
69 1
ur s
99 1
St yle
Mar ch
79 7
89 7
da le
AC G
AP S
Sa lv
Ca li
Si m
by e
140 5
SM O
den ti
EN D
170 7
Ni ke
112 4
Ki wi
eri c
MI R
cha ft
line s
à¤ °
EX O
HS CR
Asso cia
wh at
DK Z
Dou ble
Song s
coun ter
Rus sell
Premi um
Wire Guard
Num ber
Disco very
Nicho las
0 20
3 166
5 23
8 42
8 41
9 77
A Y
A p
A 320
D 4
E B
G ru
G RE
I ni
J in
J DG
K w
K un
L yn
M n
N on
O 305
P 10
P il
R an
R yo
R MS
S at
T EP
V HS
W C
W right
W 3C
X M
a es
k ha
Â µ
Ã °
Ã »
Ð ĵ
ng o
an us
ji to
hu man
di c
ti um
mo thy
ni n
10 66
12 41
12 95
11 30
14 33
14 49
13 76
th ro
th ird
me o
si mo
100 1
ta x
ãģ °
ãģ Ķ
ãĤ »
46 2
Ma j
Ch er
Ch in
Ch ange
Ch alle
In dia
ba i
ig a
69 6
SA E
au ri
78 6
56 3
ed om
98 3
Ne il
no s
Ar ray
PC S
fe e
fe at
170 3
EC E
Ho pe
go v
ari us
Pi ctures
CH O
And y
AD A
Gu y
Go vernment
Hu b
Pri ze
Cl 2
time stamp
type def
Es meral
Free BSD
Tai pei
Sing le
Vir tual
Talk ing
bet ween
Stadium s
Advance d
Dro p
Memori al
Anth ony
Jaco b
Esmeral da
4 D
7 49
7 66
7 99
8 38
8 44
8 43
8 54
9 68
B 5
B 6
B W
C andy
E v
F B
F r
F aker
G 3
I Z
I mp
I ron
J ordan
K iss
L as
L ow
L oo
O BE
P l
R d
R IA
S core
T as
T REAS
W B
e du
f le
g os
g ger
g irl
h or
p ay
s eries
¸ ©
ì Ĥ
zh a3
de c
su lt
mo un
12 90
12 65
12 62
12 86
cu t
or ia
la ter
17 29
17 42
ar ia
14 38
14 59
in er
ï¼ ĳ
ãĤ §
ãĤ ħ
he ight
Ma p
Re Mi
us s
66 3
id o
Me e
Al ber
Mo jito
AR S
Se p
AP EC
So ph
Di plo
Na ture
Ri ck
Ha w
Ni k
Do ReMi
RO R
Or der
ser vice
Fu nd
ex e
lyi ng
mar ch
Coun try
âĹ ı
BLAC K
Shi p
fri Day
Lis a
Johan n
Hun ter
dou ble
Sw ing
tru e
Austra lian
ðª ¸©
prote in
SNC F
Jac ques
B9 TL
TREAS URE
1 190
2 K
7 18
7 33
8 37
8 79
9 28
9 22
9 48
9 66
A 9
A Z
A da
B os
B len
C 7
C BD
F OR
H is
H ell
K L
K y
L SA
M un
N ess
N RA
O C
O u
O ce
O BC
P ha
P ET
P DP
R ED
S 22
S ant
T in
T es
U HF
W oo
c eng1
c amp
f x
f ar
g ot
p ass
â Ł
ì ł
li d
li ps
pi d
ti tle
bo y
10 40
12 40
12 70
po l
po inter
15 99
17 17
14 47
13 69
13 73
mu nd
st and
re t
si ty
ãĥ ļ
se nger
am ber
ãĤ ¶
lo ok
and ro
75 3
Ma k
ad or
99 6
88 2
88 3
Li ving
Le vel
Le wis
BA S
BA NG
con ne
da te
va lu
fi re
-- -
MA G
We i
140 3
Con ference
AS P
MP EG
112 1
Car ol
lin s
IF PI
Pri ce
YO UNG
PE G
Cra ig
Far ms
ICO CA
DAM P
gre en
Ven tures
Ur ban
aso nic
depen dent
1 x
1 198
7 46
8 19
8 14
8 13
8 24
8 51
9 64
A no
C ow
C ERT
E p
E mer
H ur
K is
K han
L lo
M bit
P ed
P sy
R al
S wi
S py
V L
a ve
e ar
g ge
g ro
g ers
o va
w are
á ŀ
ê ¸
ì ŀ
de ra
ch ang
we i
le b
zi e
12 19
12 54
16 76
la e
la h
17 14
14 29
14 34
14 44
14 62
14 51
14 83
13 64
13 91
mu se
st ed
ï¼ ¡
te c
te k
se qu
ta ng
co mo
co nv
lo v
lo sing
Ma lay
SE N
Co le
II c
Re ich
Re volution
59 3
De li
CD R
77 4
ak h
89 2
89 5
Ra di
IS IL
va tion
Mu l
140 7
Wi se
od y
à¸ Ń
pro vi
wa ii
Ex tra
Qu in
Hi ME
Fran z
Mon o
ref er
Dis play
sing le
ex ample
ãĦ §
ãĦ Ľ
DD 53
stru cture
Hel en
Pla t
Kar en
mini stra
PH P
Ob ject
Cap tain
map frame
Get chu
Gor don
inte ger
NEX T
Spiri t
Abdu l
Azu re
VOCAL O
Paci fic
3 rd
8 62
A z
A ss
E 5
J ar
J AK
K 10
K as
L os
N y
N 64
R D
S OS
T 7
T wi
U s
V G
W ol
a ter
c ry
d ol
f al
g or
j k
k ir
o su
s v
mi R
we d
du n3
su p
10 86
12 25
12 24
12 58
po t
po lis
16 86
14 86
14 97
13 10
13 29
ï¼ Ĵ
ta ge
the ory
he d
Co lo
Co ol
Re public
ir on
pe ople
AT H
69 3
ph one
id os
Li p
De ath
Mar t
98 7
BA C
AR A
89 6
Ne xus
Se an
Ra b
Ra ja
Ga ming
hi cle
110 8
com ment
140 4
Ge m
For mation
No va
âĪ ŀ
my s
Ex peri
AV C
Fe a
DC T
sy s
NO ME
Du al
Pri x
Ber g
Che e
SD K
bur n
cle ar
Mat t
vil la
Pat ri
Vir gi
âī ¥
Lis p
Oper a
Francis co
Victor ia
Pho to
Prof essional
Cast le
Sca la
apo re
Ner f
LIF E
Fren ch
VOCALO ID
0 40
0 80
4 x
6 A
7 23
8 500
8 58
8 59
9 14
9 34
9 44
9 69
9 53
A de
B li
B GM
C au
C rown
E MD
F it
F RAM
G ay
G len
G NOME
H ou
H au
H IG
K ak
N 4
O G
O Z
O ur
P ST
P AL
R R
R it
R GB
S cor
T ot
U l
Y ellow
Z h
Z n
Z ICO
c ir
f ur
g ing
i x
i le
n am
r ence
u int
v et
Ã ¯
Å Ľ
Ë ĭ
á ¼
xi n
mi li
er ror
di ca
ti nu
ti mes
bo l
00 3
12 36
12 78
12 63
11 40
âĢ Į
17 16
14 42
14 78
13 60
13 65
13 33
13 41
st art
st ream
ou ld
lo cal
Ma la
ST EM
The od
ad ow
AT M
78 2
Li te
77 2
77 9
Sh ell
89 1
120 8
Se x
Ra cing
IS IS
So cial
Bo dy
ot t
Ha ve
à¸ ŀ
Pe ar
AI L
Car ter
Ki ii
And rea
SO 3
BO RN
can s
TE EN
Ad d
Hu g
Bi li
Pre si
PP P
Fu ll
Bla ir
mb H
Day s
Hy brid
OK A
BI OS
At lan
Ter ry
Er nst
LGBT Q
Ger man
Part ners
Fore st
Fro llo
dou bles
WI SE
sist ant
Bil ly
Ret rie
Qui ck
Cen tury
Alf red
Fanta sy
0 12
1 194
8 34
8 49
9 41
B ye
B WF
B OSS
C AT
D AI
F RE
F IA
G U
H ig
J J
L ook
O re
P b
P lu
P un
R as
T ak
T ensor
U ta
W ang
W AN
X peria
c tu
f s
i ca
n n
o mp
p pa
u lar
v ant
Å Ħ
× ķ
Ø ©
à ¼
ë ĭ
ì ĺ
de z
zhu n1
10 30
10 99
12 21
12 72
15 33
16 98
16 71
la ri
14 13
14 43
13 58
13 96
re cor
co le
lo ad
Co me
99 8
78 9
CD K
77 3
Le g
Pro te
120 6
Ra zer
fi gu
Su ite
Pa per
che ster
shi ps
our ces
EP HE
HK IFF
MP I
ari an
pro per
ani zation
Com mission
lar d
Ko ta
SC I
Char lie
UT F
Sing apore
Min ute
lit ary
Cal li
oper ator
Bob by
ðĲ °
âī ¤
Sor ana
Stan ley
ev ent
posi tion
Dyna mics
íķ ľ
AMO LED
UNES CO
OBC s
1 189
8 18
8 48
8 69
8 99
9 16
9 17
9 49
B is
C s
C ream
D 7
D card
E c
F ellow
G SM
G mbH
I van
L ol
M 24
M ine
N EC
R M
R y
R ID
S na
S wan
S creen
T ER
V AL
W u
X 2
a sh
a di
a la
b ad
b ell
c are
e ch
g ne
g il
i ning
j our
p ak
r t
s ar
Â ¥
Å Ł
Û Į
à ¨
ê ¹
ë Ĥ
ë ŀ
ì §
de i
ch an1
li con
we e
le ar
le ngth
10 60
12 11
12 34
12 46
11 10
11 47
or us
15 48
14 58
in es
in us
st el
st ore
si i
ra ng
se mi
ta b
ãĤ ¡
he s
Ch at
500 rpm
SE M
Re view
ci pal
vi c
vi d
Ro th
99 4
88 7
St ray
150 3
79 3
Mo vie
BS I
con trol
Ar n
Ra i
fi nity
ED 79
-- --
os pace
IC S
Lo gic
ID S
Na tion
bu g
sta tion
so le
IT Z
od d
à¸ ´
RO CK
112 3
Sch i
my TV
Lu d
Lu cas
And r
MO ON
CR 300
ina e
BD SM
lar ge
Ke ith
PP TP
Gra phic
119 2
Boo m
Pan asonic
Fer n
Mr s
NE WS
Em pi
sor ted
Hill s
logi es
Cle ar
shing ton
Mach ine
Ami ga
Cul ture
Dia mond
Appli cation
ð¬ĵ ĭ
ãİ ¡
forman ce
Retrie ved
8 68
9 74
A e
A di
A ff
A stra
B V
B b
B lan
B aker
C 96
E 9
F lu
F lip
G 4
G 9
K F
K ara
K EN
L MP
P ER
R G
S pa
V En
V IE
Y ang
Z E
Z one
a a
a is
a cid
d al
e V
f our
f ying
g ri
g ang
j n
k t
l k
l ao
l ou3
n h
v ol
â Ĵ
er ra
le i
le ction
ti i
zhu ai1
10 27
10 70
10 49
men to
qu ar
00 6
12 32
lu n1
16 74
la us
la mb
14 48
14 39
14 67
13 45
13 86
13 92
13 93
ri es
ï¼ ľ
te mber
ãģ ļ
co ver
the ma
65 4
Ma gic
Ch en
Ch ie
Re g
na h
St ring
Li TV
De vil
Le ga
Vi lade
AM R
Ar ch
Ar my
IS H
IS M
La b
Su e
Da le
hi bi
IP A
IP O
Si licon
ki en
PS 4
à¸ ª
AL A
MP 3
US H
Th ree
Ex change
MI L
TE E
BM G
DR 2700
dy na
Wa shington
106 46
Har old
Mor ris
TS B
Hol land
LC K
UC I
LP DDR
LT TE
LS ST
bor n
Tur bo
Gran t
sche ma
stre et
Sche me
read s
Villa ge
mou th
Info com
ELE VEn
artic le
GDDR 5
F7 F
NON O
Str v
Kak ao
Vilade cans
4 200
9 63
A TC
A vi
B am
C AM
C ana
C ell
C BE
D au
F ay
H 6
H 9
J K
J IS
K V
K al
K re
K ris
K lein
L ing
M 60
M all
N TT
O RI
O wn
P 5
R 9
V Y
V CR
c les
c ator
f ly
h and
h man
i ta
o bov
s c
v re
x ml
z one
z oom
Ä Ľ
ë Ŀ
an ts
en cy
bi l
di d
10 12
10 17
10 63
00 5
12 14
12 29
12 68
12 42
12 53
12 71
11 60
11 35
16 77
16 91
14 19
13 24
ãĥ ´
ãĥ Ĵ
ce p
ta le
fo ot
co gni
ma le
ma ke
39 00
Ma jor
SE T
pe x
Mar gar
ang le
der al
ak o
Sh ang
Sh ah
Jo is
87 1
87 2
va ge
ED A
Be ach
Na tural
AN SI
ho me
so lo
IT U
130 7
140 9
ther ine
à¸ ģ
Do ctor
pu l
Ju lia
Qu ar
Qu ali
Ka i
Ka te
And re
MO MO
Fe ed
DR 2800
CE MS
Nor man
Can ada
Sing h
lli on
Sco t
Direct Show
cen se
Ob ser
mark er
Ray mond
Cer ti
Bre ak
Medi cal
Oli ver
Vin cent
JU MP
Bern ard
Rad ar
Saf ari
Tig er
ë¦ ¬
follow ing
Oly mpic
YouBi ke
HIG H
à¼ ĭ
2 n
7 34
9 K
9 43
9 52
A 7
A ar
A ge
A st
A pri
A 380
B f
B row
C 9
D 6
D ir
D ass
E I
E idos
G all
G round
J S
J Y
J un
K M
M 9
M 10
N FC
O x
O tto
S BL
S pen
V la
X I
Y E
Y es
b g
f l
f ron
i an
p ad
p lex
t hu
w ig
w ald
x 2
z el
Å ł
Î Ľ
ê µ
ë ¹
Ĭ ¸
an ia
ch s
ch ild
yo ga
le ct
pi ao3
ti us
bo th
du le
mo de
ku n
10 59
10 56
10 54
00 8
12 59
12 52
12 97
12 82
14 15
14 26
14 76
13 49
13 63
13 97
me a
ro ot
si k
ra p
ce a
ne o
at s
ck ers
to l
Ma th
Ma il
Ma cro
In die
In dian
be ar
Co mm
ba ng
ver sion
69 4
Mar cus
ï½ £
AM A
AM G
ows ki
Te ach
Te mple
Ga bri
ga tion
IC T
Ca pi
Ca the
AN N
Mu ni
An ni
130 8
Fi ve
ther a
Ta ble
gin a
Inter march
Do g
No v
CN J
Ex ample
Ju li
Qu an
Qu ad
Ka th
eri e
MI X
Gu sta
Fe el
vel y
Har ris
240 ZJ
Gi ve
EE Z
min or
SH IP
Gen ie
sto ck
ac ti
ffi ci
Spe ed
King dom
Fri ends
Dire ctor
stro ng
IO C
comp lex
dro p
á¹ £
plo t
coun t
Sc rum
live door
Sche ma
TG V
Tol kien
Hea ven
Chro mium
eb ly
Kenne th
Rober ts
Hos pital
polit an
rela tive
Virgi nia
Lega cy
1 195
8 98
B 4
C AD
C BN
F lying
J D
K ol
K TV
K SK
M s
M 12
M ET
N f
N g
P ao
R ant
R oom
R hyth
U G
U H
U 15
V il
V as
W DF
a va
b ara
d os
e h
g r
g it
k le
o id
p f
q uo
r s
s at
w ang
Â Ń
ð ł
ji n
de ll
li ni
li ca
bi no
pi o
pi ne
ti ger
bo ra
zi o
ni an1
10 19
10 11
10 15
10 32
10 47
12 12
cu re
la ce
14 12
13 14
13 13
13 94
st ris
re g
re l
re tt
si m
se c
100 6
ãģ ³
ãģ »
ne i
ãĤ Ģ
at ten
ck i
46 00
ST D
In di
Co nv
Co ver
ci an
Ro cket
per a
Mar c
98 00
Vi ctory
man u
ran ce
Da i
Fa te
An ton
We ebly
wi ch
are a
à¸ Ķ
Ni ce
Th or
Th orn
Do mini
For th
112 7
AK E
pro to
Lu cky
Lu mia
SO 2
land s
TE 1
TE AM
Mon te
NO 2
ye ars
Game Cube
IL D
280 ZJ
Bra cket
Cy ber
AF I
119 1
Por ta
Pla za
lip se
enti al
Tele vision
Cra zy
Far m
Dan ny
Fre de
Gener ation
à¹ Ģ
mark et
Hist ori
VV VF
teri al
mod ore
Il lu
Sara h
Ora nge
16V 280ZJ
flo at
Fish er
Tod ay
Stro ng
lati tude
Hein rich
IMD b
ê° Ģ
kn own
longi tude
TTC N
Ryo na
Blen der
Margar et
+ .
7 100
8 22
8 36
8 61
9 24
9 23
A IC
A ero
A gency
B 8
E volution
F PS
H H
H oo
J ere
K 3
K ING
L W
M 1895
P el
P ak
P ris
P ari
P ART
R oo
S d
S mal
V u
V ul
V ille
W en
W es
W ings
X 1
X S
Z FC
a ted
a ign
b l
b son
b rea
c all
d ar
e es
f ound
g 4
h ara
j p
j ar
k V
k as
l ong4
p ta
t 2
w s
x 3
Ï į
Ð £
à §
à ¯
ð £
de sign
de lta
ch ara
ch ani
bi r
20 31
ti g
du ring
mo ni
mo te
zi n
zi p
10 18
10 16
10 35
10 72
12 44
12 99
lu te
11 70
11 39
po ra
ar is
14 21
14 55
14 61
14 85
13 000
13 55
13 43
13 87
13 72
ru ng
me ta
me thy
ri d
ri sh
si ca
ce pha
fo o
ãģ Ŀ
el se
of fi
at t
ck e
as ons
Ch amber
ST s
SE P
The y
44 00
42 17
59 2
au f
ed s
Le c
Le ar
AM E
Pro per
AC P
IC AO
IC HI
So da
Da wn
Ca lvin
com pon
130 4
PS Y
140 8
Wi de
Bu l
sion s
ET S
EN U
Ta ste
go vernment
Do ng
For um
112 5
wa ve
Ka iser
Com pa
Com modore
Ad rian
Stu art
à¤ ®
Du ke
EX IT
mic ron
MD T
On ly
UR N
As se
Ab ra
Fri end
Produ ce
now ledge
EM U
GM M
Cla ude
wh en
Fre edom
Hor se
fin als
PI ECE
Techno logies
Science s
Pas cal
Ham l
Rap per
ob ject
Dol by
sty les
Kir k
Stor m
UCLA SS
GRO UP
Aus tin
Proto col
Fashion TV
Aer ospace
BIG BANG
Drop box
Sep tember
Ral ph
Bili bili
ëĿ ¼
0 16
0 13
0 90
0 67
1 1000
4 B
9 F
A bi
A gu
A lv
A FC
B es
C m
F ur
F ine
G TE
G host
H SD
J oo
K um
K ang
K no
K ali
K AD
K DE
L I
L ay
L id
M ST
N ut
N TSB
O E
P 1
P BS
P IE
R he
R ET
T ARD
U t
V or
V ali
W an
W RC
W anna
Y ES
a ster
b ru
c 4
c chi
e li
e ach
e ffe
f on
g ori
h ow
j s
n as
x ys
z uo
Å ļ
Ë ĩ
Î Ń
Ù Ĥ
â ¼
ð Ĵ
sh er
ch ro
20 40
20 47
ti f
su n
mo ng
mo ve
mo no
10 46
men tation
00 9
12 18
12 15
12 47
12 43
12 56
lu n
lu ng
11 38
11 37
11 68
or dina
16 93
14 14
14 27
14 32
14 91
13 78
13 51
ge e
for nia
al pha
re ti
re cei
27 58
ri o
ï¼ ķ
ro y
ro ck
ãĥ ĺ
am an
100 2
ma to
ne z
ter n
at ta
Ma gi
In stru
be i
SE C
Ro bo
Ro sa
SA S
Mi ami
Mar co
Mar ine
98 4
ï½ ¢
You th
Sh in
120 7
Ar k
Ar m
fi le
Tu ber
Sa vage
Lo cal
Fa ith
Na vi
bu tion
IP CC
An sible
110 6
sa ge
130 9
170 6
à¸ §
à¸ µ
AL X
Ho y
âĨ Ĳ
112 9
Ex e
Ex ten
SO 4
BO T
mon s
118 5
Cor tex
IF T
à¤ ¿
NO W
LL C
Nor thern
Pre cision
tri c
Super ia
Spe ci
hy po
Ali ve
XX X
ð« ļ
Japan ese
SU V
Boy z
SN K
Zi p
Master s
âĳ ł
Yo shi
Champion ships
Pal mer
Sp ark
Nico nico
Cos play
Lar ry
Demo cra
Arti sts
Qua simo
ìļ °
telli te
Intellig ent
Invest ment
MIR ROR
ìĤ ¬
OKA WA
bg color
Frede rick
TARD IS
Quasimo do
0 21
0 65
1 N
1 202
5 100
5 400
7 43
9 600
A 8
C SP
C UB
C IE
E xi
E ven
E mily
E asy
F is
F IL
F ood
G HC
H us
H ori
J M
K W
K ent
K night
M w
M and
M PC
N it
N IST
O LED
P W
P AS
P DA
Q 3
R id
S 6
S print
T 5
W y
a se
a ta
a ble
b by
e o
f era
g au
g ly
g ren
h op
h ill
o 2
s chaft
t ty
t ja
u a
Ã ¹
Ä Į
Å ¾
Ë Ĭ
ì ĸ
li ch
qi a1
er ia
di se
le c
le z
mo sa
ni um
10 37
10 67
12 16
12 26
12 55
11 55
11 58
11 42
11 43
11 54
po ol
or um
ar es
14 18
14 94
13 47
13 67
13 74
in dex
ge ther
me thod
ï¼ Ĳ
ro t
si er
ãģ Ĳ
ãĤ ®
et ro
SE L
Re ference
pe ti
AT ENU
ard s
Sta dia
Se arch
Ga p
Be lie
ent ry
Sa la
Su l
Fa ctor
ok o
Na ver
Bo i
wi de
Uni ty
110 7
Ri ot
Bu ll
ET F
Ni x
Po cket
Ki ck
UN D
âĪ ¶
ting s
AV BW
ps y
Com man
Com mercial
AD HD
DA Y
Open MP
ja ve
Bi z
Bar ry
Per formance
Comp lex
SC s
Vo cal
lla h
Univer se
Mark down
Eu gene
Geor g
WTA 1000
Bra in
ï¹ Ķ
Can on
YP E
STAR SHIP
vs ky
NE W
Mas on
sch ool
Cry e
Studi es
Den nis
Pho e
cul ture
TI ME
Arc GIS
LU NA
Syn the
Pod cast
16V 240ZJ
Econo mic
Sus an
yun nan
fil m
Iso xys
Cong ress
tup let
CRH 380
Cali fornia
Challe nge
Oce an
Empi re
Cathe d
KAD OKAWA
0 18
0 23
0 62
1 B
7 39
7 63
A to
A ur
A IT
A mb
A bout
C ris
D ru
D as
E st
E va
G l
G os
H indu
K 1
K CON
P t
R ho
S VO
T on
V it
V AR
V Tuber
W TO
W RK
Z oo
d 8
e very
f lu
f ro
f as
h orn
s qu
s port
u u
u la
v 2
Ë Ĳ
Ì ģ
Ø Ń
ê ³
li um
li zation
le vel
ju n
ti k
ni t
ni er
10 H
10 14
12 28
12 85
12 73
lu r
11 19
11 62
tu a
tu n
tu ng
14 28
14 45
13 20
13 12
13 77
13 52
13 89
in ts
in formation
for ce
st ol
re gi
ro cket
lt alk
100 8
ta k
ma xi
ne ar
ter nal
il s
ck ed
is en
IN A
Ma ple
SE A
Re ady
AT R
ver e
Ro sen
ph os
Li li
De e
un signed
77 6
per s
Mo ni
fi lter
AP T
La bo
Da sh
Da me
Ca se
110 2
110 3
IT S
140 1
ble m
MS P
Ni m
Pe ak
To Heart
To mmy
DS R
RE AL
Ju ne
Col lins
Fe deral
pt or
Open GL
Pu l
Pu re
à¤ ¤
Wa i
SP ARC
Per ry
GP T
cc er
Pri vate
Tra de
WTA 125
Show case
War ri
Her bert
DE ET
nic s
Lea der
day s
CG I
clo se
bel le
ð« Ł
space flight
bili bili
Sen ior
Em ma
CF 3
Lau ra
Island s
Fore ign
Gro ve
ide a
INN ER
JU ST
Ron ald
Alt o
XC 60
Shan e
C5 H5
Jus tice
MMO RPG
BLE ACH
Phy sic
allo cator
Tex as
Frances co
Brad ley
archi ve
STER EO
Magn um
Kore a
Docu mentary
Llo yd
sv g
hed ron
Hug hes
figu ration
Graphic s
lamb da
ORI CON
Smal ltalk
CUB RID
ToHeart 2
0 33
0 43
0 53
1 a
2 S
4 300
8 X
A 6
A my
B G
C 8
C 13
C it
C ara
C ant
D har
D anger
D ASH
E th
E at
F U
F igh
F AA
I o
L ET
M H
N ER
O O
O ber
O cto
O wen
P eri
P AD
P TT
P tr
P seudo
Q T
R in
R oot
S 26
S lo
S ad
S por
S DR
T HC
T OSHI
V eri
V WF
W G
X e
a me
b ank
c 2
h ere
i sh
i us
n en
o le
t ton
Ã ²
Ð ¶
Ø ´
ë ³
ë ı
an ne
zh i
ch annel
li x
mi nd
mi ss
mi stry
we ak
le h
pi e
ti co
ti que
bo u
du n
ku s
ni an
10 76
10 95
qu in
12 48
11 18
11 31
11 45
11 78
14 23
14 22
14 79
14 82
13 27
13 57
13 98
13 83
13 81
for t
re gu
re al
ri t
ri um
ï¼ ¢
100 3
co c
co ck
el s
ma th
the s
he im
et ta
as so
Ma ck
Ma ya
be st
Re port
na e
SA AB
au d
id al
Li bre
Me mber
De ce
Le pto
Mo jave
Sh ir
AM MA
Jo sh
Jo int
89 3
Te m
Be e
Be am
bu l
pp en
An alysis
Pa th
ll en
MV V
SS P
110 1
110 9
com muni
Ri o
He y
end y
Wi Fi
AS O
Bu bble
gra phic
IV ER
Ho we
BL S
Ru sh
Cor ne
à¤ ¨
à¤ Ĥ
NO 3
Per l
Per fect
Har rison
ren e
EE EE
Gra ph
ï¹ ķ
Universi t
737 MAX
Chu ck
she ng
ï¸ ģ
Es ports
Smi le
Wo man
Fin an
Ter ra
spe cial
Ag ri
Eli te
CM OS
Res er
Mel ody
gre gate
âī Ī
Des k
á¹ Ń
Env iron
FAT 32
Op ti
Stan dings
Medi cine
Blu es
mina tion
CAS H
COLL ECTION
Communi ty
Mid dle
Cul tural
Austra lia
Pack age
Lor en
Jus tin
Vis a
Conne ct
gam er
Afri can
Inte gra
wat ch
Git Hub
Evan s
TEP 70
Pl ant
Kota ku
Shang hai
ava ila
Exe cu
Cathed ral
0 46
0 32
0 73
0 93
2 PM
5 200
B ed
C lay
D uo
D IN
D um
E 6
E SA
E H10
F at
F itz
G 7
G 10
G 11
G ang
G rea
I de
I MI
J or
J ST
J UN
K G
L il
L ama
L PGA
M 8
M oo
P le
R 4
R at
R ig
R ang
R ange
S 8
S ri
S ak
S IL
T au
T rou
T ree
V III
W AVE
X a
Y U
Z IP
a de
c uan2
d B
g lio
k Da
k ara
k ell
o g
s r
u sing
x o
Ä Ł
á ½
ë §
ì Ĩ
an cy
an ensis
en te
mi ng3
di v
ku ra
10 65
10 55
10 57
10 94
12 38
12 39
12 93
cu be
11 15
11 57
11 79
15 18
la tions
14 52
13 25
in clu
th ia
re x
re st
re ll
re qui
me m
me tery
ro e
ãĥ ¤
ma e
ne xt
of fee
ãĤ ²
he a
et s
et ra
Ma nga
In tro
be e
SE VEN
Co hen
br an
nd rome
ci p
ba c
AT T
ct y
De stru
per son
man s
Pro motion
con e
con tra
con fig
ran e
Sta y
Se mi
IS L
Ga g
fi er
fi shing
op tera
JR A
So nic
Su lt
Ca pe
Na te
IP C
AN ET
Mu hammad
An y
SM RT
Con ser
Bu sh
Ge ar
IV B
Ste in
Ste phan
To ng
To yo
For d
112 6
AK B
RE M
ation s
No ve
fa i
fa ctor
Ju lius
fu ll
SO LO
Col d
IA U
Ad ministra
res pon
118 4
Open AI
HO L
Ke e
Hu ang
ja po
RI SE
EX ID
vel o
Par ti
Je sus
NH L
Dis k
lis m
ãĦ ľ
Wal k
El li
Tho m
Games Radar
Hol mes
Hy dro
hy n
tro ff
âĹ İ
Wo RMS
Free style
Tru th
GT X
Tur tle
Bel le
CM AMMA
Han teo
Tok yo
Comic s
Ear l
âĳ ¡
part ner
sin ce
lang uage
OP EN
Law rence
âĩ Ĵ
tech no
Ima ge
pra cti
into sh
Fort ran
Fal com
âĤ ¬
LZ 77
Wonder ful
But ter
cou ld
sea se
P2 P
Well s
WH IP
Rank ings
PX A
Associa tes
1x EV
Hig gins
Chie f
Apri l
0 15
0 56
1 D
1 199
A ki
B K
B ry
B ET
B TR
B ERT
D eri
D ATA
E TC
F ed
G ard
G lass
G ring
I re
I AL
J A
J SON
K ON
M 110
N SA
N TO
N ME
O MG
O EM
P ine
P itch
R V
R are
R LE
R NC
R anger
R ights
S NA
S ki
S CP
S ING
T X
T AS
W R
W as
W INNER
X L
Y 2
Y ON
Z im
b lue
c tic
c ara
e is
f r
f all
h of
h ind
m eng1
o th
o ire
p si
p lus
s se
t ti
t ana
v it
Ð ķ
Ð Ľ
Õ ¶
Ø ¹
Ù ĩ
ð ¨
xi v
en er
en os
yu ng
yo r
bi ne
bi ke
bi ns
20 S
pi cal
shu a
du m
mo us
ni x
10 22
10 90
10 85
12 13
12 57
12 94
12 92
cu it
po pu
po sed
tu an3
on es
on to
ar ti
14 31
13 23
13 62
ge m
for mos
mu n
re i
ï¼ Ĭ
ro ll
ce o
am ar
100 4
ãģ ¸
ne ver
ãĤ ´
he i
et t
is o
IN AX
ve ctor
Ch as
Ch amp
In dependent
500 00
64 00
Co p
Co lum
68 00
na y
vi an
ver i
De v
Mi i
OS I
79 5
CO UN
Mo s
Mo ham
man y
Te a
pa ck
Ne ed
600 00
AC M
Sa ba
Sa les
Lo go
pp le
sta ge
An t
Ba hn
IT E
IT Y
IT IL
IT ION
ali sm
130 5
He i
Con tent
AS V
à¸ ¥
à¸ Ħ
EP ROM
En ri
To night
ya h
Th ink
RE CO
Sch o
Lu ci
Lu ke
MO VIE
SO HR
Com pi
Ru th
NG O
Har vey
Willi e
Tra vis
ser vices
UR R
Che y
Ac ti
Ku ra
PL US
Ele ven
Ce le
GA INAX
whi te
Er nest
Ag da
Dig i
Met al
SU MM
Ger ald
fri end
Bor n
Vir gin
à¹ Ī
Cry stal
OM ON
Sig nature
Para dise
Rus sian
Link ed
Beau ty
Poli ce
Regi onal
sca le
Ah mad
Cru sh
Philip pe
Secret ary
FI BA
vers ary
Mau rice
íķ ĺ
Rod ri
Tran sit
Cinema Score
Greg ory
Bai ley
beca use
Pere z
Manu el
NICO NICO
lev ard
POS IX
Pia zza
moun t
Soph ie
Ano ther
Ped ro
Psy cho
Display Port
Tensor Flow
Uta da
Calli gra
ê¹ Ģ
Aff air
Comm and
yunnan ensis
Octo ber
Dece mber
Gring oire
0 24
0 48
0 47
0 58
0 69
2 C
3 S
B ED
B ron
C Y
C um
D ONG
E lla
F t2
F IVB
G ig
G are
G TA
G CC
G LP
H U
H es
H eller
I K
K ay
K 230
L SD
M 113
M ENT
M amba
N 6
P AC
Q F
R yu
S li
U V
U kra
V el
X DC
Z y
a ck
c 3
c ere
e cho
g at
j ay
k el
o ke
r k
u re
v ent
z as
z ero
Â ®
â ½
ë ª
ji ng
ao s
de v
de mo
li l
bi ng
di l
di tional
le tt
20 32
du lt
du ction
su e
su la
su rance
mo ney
chu ai1
10 34
10 44
10 87
10 93
12 10
12 49
12 51
11 52
tu ne
tu ber
or nis
14 10
14 11
13 36
13 44
13 59
13 61
13 95
in di
in stru
ge ome
25 K
25 T
re us
re vision
me an
me ter
ou ra
ï¼ ĥ
ro d
te ur
lt z
100 7
100 9
ta g
co hol
ma g
ma h
ma i
35 000
he el
et ti
46 A
Ch ow
Ch ing
47 00
In si
In dex
han a
Re in
58 00
400 00
Li on
CD C
ang o
98 A
Le u
ak es
CO O
Mo st
ction ary
Pro vin
Te e
pa i
120 5
120 9
nu ll
AP H
So ccer
Su gar
Di o
so m
We a
HD R
Ba sili
SS D
ster y
SM TOWN
ste ad
Con tin
den ts
EN CE
à¸ ¢
Inter face
Ste p
ari es
pro cess
My Radio
Lu ck
AG B
lin er
Cu t
cor ding
DR T
DA O
MC A
Hu a
à¤ ¦
vel la
ling ton
ori o
Bar on
Mac intosh
Gi or
Nor mal
Tri ple
Is ra
tra ck
Gre y
Che ng
Che mical
mb ly
ces sing
ï¹ ŀ
UE FA
Spe ak
Pan zer
comp u
Offi cial
Sci enti
FF T
Dan cing
Cri tic
Phil lips
GE O
Sto ck
SR P
Pala ce
OM R
Cas a
Gil bert
AX N
Clo stri
DI Y
pos sible
Communi cations
stan ding
Band ar
S4 N4
vat ory
Mit chie
Jeff rey
Kenne dy
Industri es
VIS ION
Lun ar
Ey es
Adven ture
Nel son
Tot al
Aar on
Spen cer
Vla di
AVBW U
Phoe bus
coc cus
Finan cial
availa ble
Ire land
COUN T
Linked In
0 35
0 86
1 b
1 201
5 300
6 K
8 56
B ER
B rea
C 12
C es
C ano
C rew
C offee
D MA
D ere
E co
E NA
E ry
E state
F W
F en
F AD
F DG
G ur
G ill
H 8
H 12
H ang
H oney
I 2
I LO
I rish
J IT
K ind
M 7
M 16
M 41
M eri
N V
P Q
P ot
P ana
P AO
R AC
S la
S andy
T su
T at
T un
T ess
U lti
V es
W ard
a z
a ction
d 3
d b
d t
d am
e th
f ir
f lor
g art
l n
p th
q a
t su
t ree
u is
Ä Ĺ
É Ľ
Î ¦
Î ¾
Î ļ
Ø ¬
ã Ī
ì ¤
ì Ĭ
í ĺ
ï »
de li
de ad
de ca
ch ia
er se
gu i
le ast
ti tude
mo ur
qu n1
lu tions
11 16
11 41
11 77
14 16
13 35
13 38
13 32
13 84
re au
re sult
000 1
ro se
ãĥ Ķ
se x
se len
ta h
ta pe
ta nga
co lo
el ds
ma b
ter ator
ãĤ ¼
ck ey
ve st
Ma z
Ma ng
Ch ara
ST EP
In no
In former
64 BV
Co ast
Re ed
ir s
ba u
ba y
vi deo
ig ne
St ream
De m
De vel
Mi le
Mi litary
ed ge
Al pert
CO P
no include
87 00
Ar cade
nu cle
ED M
ED 60
La tin
ER A
Su lli
Ca fe
Na tions
Bo ss
Pa K
Si lva
SS R
com mit
sa tion
PS 5
Play Sta
Con cept
Bu d
den s
den tial
ET SI
EP UB
âĨ Ķ
Ste f
Th el
Po ol
112 8
ani es
CN BC
TA G
fu me
AG C
cal led
Gu ide
NC E
Ad mi
118 1
Hi de
HO USE
sy mbo
clu b
NO AA
ling s
Per fume
Ed win
Gi bson
NH 2
Gra y
Gra ham
Tra ck
Davi es
CL I
Ty ler
School s
ãĦ ı
Wal ly
Wh y
ï¹ Ŀ
Ani mation
Coun t
George s
Her mann
AO 3
Park er
Lea f
DM Z
phy sic
3A 4
Fer din
data base
bro ad
Ob last
à¥ ģ
EV ER
Lau nch
peri al
Ban G
launch es
sin ensis
Ren der
Publi shing
NM DA
dor f
Cer vo
SV T
Leon ard
TH Q
Johan nes
Compu ting
PRO DU
Has kell
cto id
Flow er
Pon t
Round cube
Ora cle
bour g
Rail way
GRO W
sci ence
bucket s
artic les
haus en
Gy m
sock addr
Intellig ence
Archite cture
HY BE
exi t
distri ct
GIR L
Malay sia
Atlan tic
Ec lipse
Lud wig
Cana dian
9K 37
Anni versary
Jere my
Labo rat
Execu tive
Destru ctoid
XDC AM
Devel oper
PRODU CE
0 11
0 17
0 29
0 88
0 94
0 91
4 C
4 Minute
7 k
A men
A DV
A ES
B ing
B low
B rew
C X
C 15
C 60
C ES
C 10H
D IS
E 4
E VA
E 233
F P
F oo
F TT
G Sh
G ia
G HQ
H IDE
I ch
I RES
J 48
K wo
L 5
L US
L IM
L AB
M ID
M We
M RT
M BE
N ak
N BS
O W
O k
O AD
O mar
O micron
P han
P DC
P INK
R ao
T um
T ED
T FT
U 22
U AL
W NBA
Y Z
c p
d 6
e di
e ver
f 8
f ford
g l
g oo
g ent
g rou
i u
i co
i mp
k re
k at
k tor
l lar
m L
m ara
n us
o logy
p un
s end
t alk
u li
y ang
Ï Ī
ê ·
ð §
de m
yi n
gu el
di er
20 77
10 69
10 88
10 61
10 62
10 97
10 96
12 37
12 67
12 87
lu me
11 75
11 33
ar ts
14 17
14 46
13 48
for mes
st le
re search
me i
me mo
ri de
ro l
ro te
te le
si x
ra ge
ce du
se xu
ta tive
fo ld
ãģ Ĵ
ãģ ĸ
co in
co tt
co ordina
ma ti
il er
lo e
he art
is se
to k
IN I
ST OR
Co A
Co x
Co in
Re co
ci li
ba cter
vi ties
ca pi
ver al
ur y
Ro ma
ph ra
St art
78 00
56 00
Me V
Me yer
Mar ty
Mar io
Al cohol
BA BY
Sh ake
con tinu
no on
da in
AC AF
Ra j
ga mes
AP A
IC K
La mi
Sa c
bu il
Bo e
Bo m
Ba pti
SS 2
IT H
IT X
ff y
ff in
ste p
Fi lter
Con fe
Wi z
Ti cket
EN G
Ta g
Ni ch
Do gs
For m
Lu na
fa st
ko m
SO AP
Gu i
Ru le
cri ption
je ctive
mon y
MC T
sy stems
gh ter
Ser ge
rea ched
Bri ght
San tos
ori en
Ed mund
Gi use
pha se
cm 3
Tra in
sti ce
PO 4
let te
OR F
Coun ter
Air craft
out put
star ter
play ed
Chi esa
WE B
Ce metery
Cha pel
ð« Ĭ¸
Euro gamer
you tube
comp any
Cro quet
LA Y
âĸ ³
def ault
PD T
tia tive
ìĿ ĺ
DDR 3
Mini x
à¹ ī
Cat alo
Frank lin
launch ed
Jour ney
Tre o
Model s
Mag gie
C6 H5
Elect ric
WO W
ap pe
tem por
Pet ro
Deep Mind
inv est
Hami lton
Ash ley
bla ck
Sel f
âĻ ¯
Robin son
Michel le
Feli x
again st
Caro line
CONC ACAF
CR400 AF
Kw K
BAS IC
ave x
ear ly
Plat form
BAC net
Rab bit
Theod ore
Leg end
Arn old
Ox ford
fron t
Gusta v
Nf 6
methy l
Abra ham
OE CD
ALX 500
FIL M
Chey Tac
0 14
0 39
0 66
0 77
1 G
2 2000
7 400
9 100
9 500
A v
A ru
A AC
A DS
B art
C 16
C ID
C ET
C lin
D it
E o
E ffe
F m
F AM
F AC
F AI
F RS
G Y
G 20
G es
G ree
G row
H IS
H IT
H SPA
I UP
I bra
I lli
J W
J ake
J Script
K U
K ru
L at
L ily
M J
M N
M AR
M IPS
N ou
N es
N as
O V
O o
O le
O UT
P TC
P os
P DS
P las
R 7
R is
R hi
S 5
S n
S cu
S DO
T RI
T rin
T BF
U DP
U sen
V MS
X 100
Y au
Y un
Z in
Z 99
a x
a chie
d ad
e qu
e qui
f z
i Pod
k k
k or
l b
p x
p ark
r ine
s am
t te
t am
t ter
u ri
v ine
w all
Ã ģ
Î Ĵ
× ¨
× ľ
Ù ģ
Ù ĥ
á ¿
ã Ĩ
ê ²
ì ľ
an or
de lete
ch r
ch ing
ch ard
hu i
li day
mi k
mi l
mi nu
mi ya
gu ar
di sh
pi t
bo und
du r
mo na
lv ad
ni sh
10 23
10 36
10 33
18 000
12 98
cu lty
11 17
11 34
11 32
11 49
11 72
po ld
16 000
16 GB
17 000
ar n
ar u
ar gu
14 37
13 34
in put
al and
st es
me lan
ou ght
ri te
si mi
si le
si zer
ãĥ Ľ
ce ption
se g
el lo
ma li
ter m
the se
to day
TC HA
Ma thema
it en
ST AGE
In done
The ory
Re si
Re turn
ca pe
um ph
78 X
NA D
NA L
Mi guel
Mar ti
ï½ ľ
CO MP
Sh aun
Sh adow
man a
Jo shua
ran o
Te mp
pa ti
pa la
AC C
ga de
Ja zz
Be ar
Be ck
La i
Su p
Su ica
Di ctionary
Ca sh
ha ck
hi st
IP B
Mu le
ll on
int en
Ba la
110 4
ali a
che z
sa i
PS R
Ha waii
Con sole
Bu ck
MS I
EP R
MP 5
ris m
Pi ano
Car di
my r
Ex po
Ph arma
Ju lie
SO HO
Gu in
oft en
cy cle
Fe e
Fe ars
res sion
Hi m
cor d
MC B
Fran co
Pu t
Mon key
Stu dy
NO AH
SP E
Bar bara
DO WN
BE J48
im g
tra x
Ber ry
len e
UR A
Che ck
Super nova
sto ma
ac cu
ac cess
GO T7
âħ £
NS F
par enti
bri ng
Air port
Va lue
don na
Spi r
229 E
Chu ng
DM M
Chi ca
At ta
GA BA
Spo on
Val enti
LT D
Cla u
Cho ice
Tur ner
Res ort
Res ources
KK TV
Fun ction
AE G
KI Z
uni t
Ven us
Code Camp
Part ner
app li
UM TS
Lan tis
Sor t
Die go
Jen nie
model s
Regi ster
yl ent
CAN open
KE Y
ìķ ¼
Multi Cam
Adam s
Wel come
Jer ry
Apo gee
mid t
Tit an
speci es
ELE VEN
Laur en
free CodeCamp
âģ µ
VIS UAL
Org anization
orbit al
Marsh all
FIR ST
Wid get
B7 RLE
stad t
Ini tiative
conne ct
valu es
Swi ft
refer ence
Patri cia
Presi dent
hibi tion
fl uo
Lid l
gori th
Hoy ts
LUNA R
techno logy
RECO RDS
Basili ca
Clostri dium
PlaySta tio
Thel ma
Ferdin and
Giuse ppe
parenti d
0 25
0 28
0 22
0 26
0 84
0 82
1 197
1 mple
5 D
6 200
A pex
B J
B EC
C p
C RE
C SL
D Y
D id
D SS
E k
E AS
F e2
F ru
F SB
G Q
G rou
G ren
H G
H V
H in
I d
I ES
I gna
J E
J IN
K hu
K il
M AT
N X
P ig
R W
S IV
S CN
S wa
S HR
S can
S car
T Z
T g
T ank
T YPE
U ART
W EC
W CT
W WF
X R
X 200
Y C
Z 17
b ai1
b ass
c ru
c ana
d 2
d ru
e 5
e pi
f 1
g la
h ood
j er
k ed
m Ah
o 3
s ent
s 1mple
v 1
w d
w ai3
Ä ħ
Å Ļ
Ñ Ħ
Ñ ĳ
ë ¬
ì Ľ
de ath
li co
bi c
bi lis
di e4
ju st
ti ma
ti zen
bo rough
du al
su c
10 31
10 73
10 71
10 91
12 22
12 45
11 13
11 48
11 61
11 71
wo o
po se
la ch
on so
on line
ar g
ar ound
13 66
for med
mu ch
al low
th am
re z
re stri
me x
ri dge
ï¼ ĵ
ro stris
te a
60 61
se in
100 5
ta to
ta lis
fo lia
ma k
ma la
et o
Ma ha
Ch orus
In to
In nova
33 A
Co lt
Re f
br and
vi ri
vi si
ig o
ur al
ss age
66 00
SA D
ph ere
88 00
Me h
NA DP
Mi z
der ma
Al le
CO 3
Mo hammad
Sh are
Vi c
Jo Jo
89 4
ry s
Te ng
pa per
no de
da h
600 V
120 3
120 km
Ar men
Ra ce
Ra chel
Be gin
ER M
Sa me
Lo ver
ID C
ID F
Su la
do cu
Di ana
ok a
ore m
bu bble
ho c
gi ven
Si lv
Si erra
wi cz
SS L
col le
sa w
Ri de
130 2
Bu dd
Ta q
à¸ Ľ
Pe w
Pi etro
Th era
Do me
Do ta
Po well
For mat
pro f
Car lo
UN O
Ph en
CH ILD
TO G
Ka bu
AG 600
Com bat
Gu l
118 3
Cor p
rea ming
à¤ µ
Bi shop
DO I
Je ans
Is la
PP T
SC AR
SC AP
Pri de
ler c
Tra vel
len a
Fu ji
ten ts
Star ship
Wh en
ous tic
As sistant
War ren
Can al
Spe ct
Blo g
Ve vo
Ve hicle
Spi ke
Chu n
Sur vey
Ye ars
Tor rent
Jose f
Cla ire
war m
Sky pe
mor row
Fre sh
Trans port
PH A
USB 4
AE W
Data base
Jan et
Des tin
Camp us
Bru no
app ro
Les lie
Pal m
cur rent
Bou levard
Tro y
Nico las
tre me
Cos mo
Fro st
Mur ray
Mur phy
ENT ER
Cru z
tto m
Anto ine
wiki text
sist ance
HER E
nico nico
Def ense
indu stri
Ea gle
Tit anic
á¸ ¥
Dead line
TRA IN
thor ity
syn tax
Ita lia
Shar p
Echo Link
crea te
CYP 3A4
xc 3
Fol low
muse um
fal se
Prote ction
ëĤ ĺ
Avi ation
Quali fying
Obser vatory
à¯ į
cepha lus
Asse mbly
WRK Y
Affair s
ack nowledge
Sulli van
Ticket master
Usen et
Chica go
0 36
0 37
0 34
0 49
0 42
0 98
0 85
0 97
7 A
9 M
A 24
A id
A way
C res
D Q
D ry
D KP
E lv
E GO
F ET
F UN
F TA
F RI
F lex
G AS
G TO
H AR
I denti
J as
J VC
K H
K ine
K ID
K ari
K HL
L TS
L 129
M ing
M HC
M 686
N ano
P 3
P J
P and
P AG
Q 4
Q TE
R ow
R ISC
S 10
S pan
S cri
T 6
T hu
T il
T ell
T ION
U ser
V 3
V K
V ill
W ant
W ool
Z IS
Z oom
a v
a way
b eng3
e cono
e ffici
f 2
h in
h all
k al
k ia
k ill
m ble
n als
r 2
s n
s aurus
s ource
v ard
v ul
w ak
y am
z ang3
¹ ¬
Â ¬
Ä ĳ
× Ł
à ª
ë Į
ì £
í ĥ
an alysis
sh a2
sh ir
sh ould
zh ou
en tin
en berg
ãĢ ħ
li en
li es
mi le
mi se
mi no
gu es
di on
we ight
20 38
ju e1
19 S
shu n3
mo ra
chu ng
zi a
ni on
10 A
10 21
10 28
10 89
men s
qu ad
12 23
12 31
11 76
11 74
po le
la b
la c
la l
la tor
13 21
ge on
mu ne
al la
st all
st own
re lation
me e
ri k
ro po
si tion
si us
si um
ra di
se ason
fo glio
co st
el f
ma ss
ma tor
the a
at ro
IN LW
ST AF
64 DD
Co lin
Re x
Re y
Re la
ad vance
ci onal
ca ta
us a
oo ting
ct ly
Ro t
St ories
id s
Li ver
Li cense
Mi che
Mi ka
ly s
BC G
Al fa
Sh am
AM L
AR TS
Te xt
da i
Ar row
Se i
Ga z
AP ER
Lo bo
do main
âĶ ģ
ha vi
bu ty
AN GE
mer ce
ho t
Pa le
Pa blo
We verse
Si mple
Ba c
110 5
ali st
che ck
sa me
Ri vella
130 1
130 3
SM E
SM P
PC A
Ge off
à¸ ¸
à¸ ĩ
Ni e
En sign
âĨ ĳ
MP 7
US D
por tation
Th in
AK S
No tes
UN IQ
Au di
AV O
Ju ng
MI ME
SO D
LE I
Ru na
Ru bber
cy c
CR 200
ree ment
del le
Open street
NO T
RT X
EX R
San to
HE LL
Har per
LO W
Gi ba
Nor ton
Tri bu
Tri nity
Tri umph
PP I
min us
Vo ya
PO VM
Show time
cle f
tis m
AB CD
Ani plex
Hol y
Ab el
PL G
zo g
Boo ks
ring ton
pla sh
Black bear
GA Z
clo sed
Cha se
bel la
ð« Ľ
GM RES
stitu tion
spe ct
Rock y
Eli sa
fra g
Plan e
BU M
num eric
ele ment
Phil oso
Cam po
KI LL
MT U
Out look
coun try
chel ys
kar u
Gro ss
SHO OT
add ress
Tre at
ag gregate
Way ne
teri um
Joy ce
Poli cy
Leon ardo
DL U
Beat les
size of
wiki pedia
With out
Crea te
cul tural
Sti ll
Fron tier
pl c
After noon
Sca le
Sho ck
ITV 4
vir tual
Siri us
Bit Torrent
Tam an
high light
hal f
Hero es
speci fic
Stri ke
constru ctor
cam atan
Ita lian
Deuts ch
Match day
cour t
NAT O
Ted dy
ð° ¹¬
Mul lvad
Fea ture
proper ties
Sna p
quar ter
Gabri el
Muni cipal
Lec lerc
Lear ning
Arm strong
Synthe sizer
Integra ted
SEVEN TEEN
hyn chus
Deri ved
DONG KIZ
Isra el
Vladi mir
cedu re
Lami go
Ibra him
SHR DLU
syntax highlight
Openstreet map
0 19
0 44
0 59
0 92
2 M
8 A
A zi
A lu
A ka
A ctor
A mar
A cid
B ump
C u2
C MP
C lan
D W
D ow
E CO
F as
F ir
G 5
G J
G ad
G Pa
G las
G CM
G DB
H AP
H APP
I LL
I ETF
J ak
K R
K amp
K yle
L J
M ig
M CO
M IP
N W
N x
N a2
O B
O FF
P hu
P SA
P H2
P FA
Q 2
Q i
R H
R 16
R NG
R AF
S 9
S amp
S kin
T K
T rea
T idal
U TA
U FS
V ari
W 3
X in
a cu
a cc
c 1
c ence
d 1
d h
e mp
e How
f ps
g 2
g ara
h ir
j ang
j ara
k ind
k ina
l ers
m an1
m en1
n ou4
p c
p ari
s ou
s ke
w l
w u
x ton
y et
z or
É £
× ĳ
ë ¡
ë ¯
ì ²
ch or
hu b
mi llion
er ry
gu l
di r
20 33
ti ali
du ce
mo to
ku l
ku r
zi l
ni al
ni fer
10 48
10 58
10 77
10 98
10 84
12 33
11 12
11 46
11 64
11 67
11 56
po ur
la tt
14 000
14 36
14 73
13 22
13 39
13 79
13 53
ge bra
for k
mu l
st ant
th s
th in
ri g
ri on
te ng
100 m
ta t
ta ke
ma ge
ma cro
lo ss
to o
IN V
ST UD
be y
SE GA
The se
Re i
Re bel
Re ally
ci pa
vi vo
ca ster
ay an
42 V
ss en
57 00
Ro le
SA C
ph al
St y
Me chani
De O
ber ger
Mi G
Mar ce
ed a
ang a
98 60
Al lan
ty pen
tw a
Le v
BA E
CO B
Mo to
Sh en
Jo lin
Jo ker
ran a
1000 00
pa thy
AC A
Se ction
Se xy
Ra fa
Be ver
IC LEI
La te
La dies
Sa ga
Su ng
Fa v
ON T
Ca mi
ha b
ha bi
Na than
hi story
sta ck
gi um
gi ving
Pa i
Pa in
We ber
wi sh
Ba g
Ba ba
SS RI
com mon
He ath
Ha i
Ha ven
Fi gu
Fi lip
shi ft
IV PP
EN S
Ta p
Ta wan
AL BUM
Ho mo
Ho lo
BL G
Pe tit
Th er
Do ck
RO Cm
AK A
RE APER
Car r
ani e
My ki
âĪ ĩ
Lu x
Lu cy
wa i
Au d
pu k
CH A
Ju ly
Ju les
Qu al
oun ced
SO I
Com bi
AD P
Sy d
GB U
Fe i
BM C
Hi karu
za i
Ke i
sy lla
net work
Go ver
Cor ps
Hu d
Mon u
à¤ ª
à¤ ¸
ning s
own Cloud
SP EC
Bri ng
San thal
ori an
Bar nes
with in
with out
EE G
Tri logy
Pri son
ser ver
127 47
CL R
Fu sion
Che mistry
ex peri
sto m
Wal lace
dis play
bit al
Mat ters
War s
AB B
Por ter
PV C
FM EDA
High way
UC IL
Spi der
play er
At las
ator s
KBS 2
EM BA
Jack ie
Win Zip
Py Qt
Time Signature
VO D
Fer r
SU GO
comp lete
Pra i
Tour nament
WS BL
her ty
zz le
mor ph
Ama zing
Vir tua
KK day
MU K
áĢ º
Hor n
Lon Works
Phil lip
Mana ger
Bir th
à¹ Į
Ob jective
Camp bell
Camp aign
Os car
Pas sion
Sor ry
Cur tis
Block berry
Gran de
Die Pie
What s
Ath le
print f
oc cur
áĥ Ĳ
Regi ment
Tan foglio
WO WOW
Ah med
Rou te
CAS P
Sw iss
KE LT
stu dio
Ima gin
Metro politan
Market Ax
Wire less
Wiki pedia
include d
Round s
Flor ence
Kit ty
Mes senger
âĤ Ĥ
Buil der
ext ra
Standard s
Tod d
Cook ie
Saf ety
Maker Ville
Hand s
Stru cture
IMD B
052 D
Wri ter
Morning star
Industri al
medi cal
Adven tures
Kr yo
ð° ¾
differ ent
CR400 BF
presen tation
Alber to
âŁ ¨
âŁ ©
ê¸ °
Bli nd
ëĭ ¤
Mine craft
ash tanga
Scot land
PART Y
ð«ļ ª
Kick starter
Biz Talk
JUST HIS
Figh ter
Howe ver
Sult an
Toyo ta
Kura ki
Gior gio
Admi ral
buil ding
Yau tja
Pew DiePie
ëĮ Ģ
Runa way
numeric TimeSignature
typen ame
Virtua Real
MarketAx ess
0 27
0 31
1 196
1 193
1 187
1 UP
2 G
2 O3
7 200
8 300
9 200
A 10
A te
A ber
A ga
A QU
B les
B MI
B ona
B har
B c4
C 20
C 79
C SM
C ake
D ARK
E qu
E re
E AC
E MC
F ing
F EC
F TP
G la
G AR
G AME
H our
I ra
J ou
J ing
K yi
K 12
K orn
L Y
L ao
M 20
M 14
M Pa
M EN
N TV
N VS
O ak
O BS
O LE
O VER
P z
P ON
P 450
Q 1
R au
R AIL
S DP
S ight
S par
S ons
S ession
T AP
T win
U BA
W is
W IN
W MI
W CF
W ADA
X II
X HTML
Y ing
Y ama
Z 1
Z 48
Z K6
a 8
a ct
c d
c out
d 5
d ak
e z
f are
f esti
f MRI
g lu
h m
h au
h Pa
k aya
m mol
n c
n dez
p po
r n
r r
r yo
s per
t mp
u er
w ara
x s
y asa
Ã ¬
Ä Ĳ
Ä Ļ
Æ °
É ĳ
Ê °
Î ®
Î ĳ
× ª
Ø µ
Ù ī
ì ĥ
ì Ī
ð ©
ng en
de e
de st
de re
en to
ch ampi
hu a
mi an
mi er
bi es
di ni
di al
di lla
di sease
we ek
20 48
ti te
ti vo
bo o
bo re
bo ve
mo v
mo di
mo du
chu rch
ni te
10 13
10 39
10 68
10 53
10 83
qu er
nv ille
12 V
12 88
11 36
11 69
la in
13 16
13 26
13 31
ge ts
for ms
24 K
ru le
st rom
st anti
re ich
me da
me ssage
ri m
ro ng
si bility
ra le
ra ce
se p
am y
ta an
ta ta
ma tri
of fer
ter ia
lo on
lo op
to lo
Ma li
Ma donna
Ch al
Ch au
ST E
In clude
In finity
be ck
SE S
Re e
Re gina
vi ta
ca le
ca pa
pe u
Ro gers
ph in
Me li
Me la
tou ch
un til
CD RI
ang u
OS CAR
BA R
CO LO
Mo ha
Mo sa
Sh ort
man age
AM PV
BS AT
con du
con tain
con tent
Te en
Te ars
pa ct
Ne XT
Ne xon
no tes
da cty
Ar ound
Se bas
Tu l
os au
Be ng
ent on
So C
MA O
Ca f
Bo t
Pa c
Pa pa
so de
so lute
We e
HD MI
Ba b
SS H
ali zation
Ri cky
DV B
end l
AS IA
Bu gs
gra ci
Ti mothy
IV A
à¸ ļ
En cyclo
cro wn
AI BA
US GS
Th ings
Do c
gn at
Net works
Sch midt
My stery
CN S
CN ET
Ex cel
pu ra
Qu ake
Ka la
Ru d
IA ST
TE A
DR M
Ko h
Cor ner
ner f
Hu gh
Pu b
fli ghts
SP O
RT M
DO M
GP 2
Comp lete
LO V
BE A
PP A
min ton
Or che
Gre ene
CL UB
Ber lin
Fu l
ano v
Che ss
gue z
pre di
GO OD
GN Z48
CS X
ena ble
par te
AB P
PL AY
ona le
Ve ctor
SQ U
King s
Fri tz
Chris tine
Up per
gar h
pla ced
Ci vil
EF 52
Cha pter
ann ounced
Cent ro
Min or
publi shed
Tele com
Cho co
Cho Co
lea gue
Bel la
sha w
BU G
Cri me
PD W
âī ¡
á¹ ĥ
Stra te
COM IC
Mil lion
âĳ ¢
VV V
Im perial
PT FE
Sm all
Beat s
fla g
Elect ro
Fro g
FIN A
Alt er
Kir ara
SON Y
Arti st
1080 p
Spiri ts
Stor age
Ea stern
Jes sica
Laur ent
Nam co
wri te
CIT Y
CIT ES
Bau er
Bug Bug
xc b
CRH5 A
Album s
MED LINE
Brook s
varia ble
CONC ERT
GIR LS
aes pa
edu cation
ìŀ Ĳ
kir che
Chee ms
Schi ff
CR300 AF
E9 E9
Gall ery
thera py
plot lib
Proper ty
recei ved
Belie ve
Leader ship
Libre boot
Shir ley
inclu ding
bac terium
Elli ott
SUMM ER
geome try
COUNT DOWN
Ulti mate
ìĬ ¤
symbo l
ENG INE
Guin ness
MCB MSP
Phen om
ì£ ¼
ð«Ľ ļ
HAPP Y
Whats App
Kyi v
NVS RAM
0 75
0 57
0 51
0 74
1 da
2 H
2 250
2 GB
3 B
6 300
8 600
A f
A we
A in
A lo
A very
A dult
B ound
C TC
C RO
C row
D il
D 32
D AC
D IC
D ana
E un
E sta
E 130
E PS
E vo
F au
F BC
F VP
G ing
G ly
G ent
H AL
H MC
H ALL
I WI
J AS
K ao
K wan
K fz
L CS
M 50
M AM
M ani
M RS
M ama
N Z
N DS
N ina
N SC
N ero
O 5
O m
O la
O UR
P 6
P Z
P f
P ing
P TS
P lease
P TCH
R ene
S e2
S as
S PS
T J
T ON
T ari
T sing
T ASC
U Z
U SM
V on
V AD
W ig
X SD
Y er
Z ach
Z ARD
a q
a ward
b 1
b t
c it
c las
c ens
e X
g ow
g gle
h oo
h art
h eld
i Heart
k J
k l
k il
n ei3
n ana
o ph
p ton
p ler
p hus
s wa
u me
v n
w ers
w hy
y y
y as
Ã ĩ
Ã ľ
Î ł
Ð ¤
Ð Ĺ
Ñ Ĭ
Ñ į
× Ķ
à ¶
ë ĵ
ì Ļ
í Ļ
sh in
sh ort
de g
ch ts
yo 1
hu t
li nd
li pp
li ttle
mi mi
mi ra
mi es
mi ll
bi nd
gu r
di no
le ter
20 46
ti sta
ti lla
ti cus
bo lt
du e
su i
mo bile
ni i
10 W
10 45
18 F
12 89
12 96
12 81
lu b
11 51
tu n4
tu la
tu ring
or f
la ted
13 54
in ed
ge dit
al bum
re li
re lease
re move
22 22
ri se
ri ca
ra h
ra k
ra in
ra il
ãĥ ¦
se ctor
fo od
co ding
lo a
lo go
et ch
to on
IN ET
IN AH
ve hicle
Ma di
Ma terial
In side
64 BM
be lie
be cca
The ater
Co on
Co co
na ti
ci e
ba um
ca ted
Li m
Li u
Mi les
Mar vel
der son
BC I
Le vi
53 K
Mo vi
Mo ther
Mo vement
Vi ktor
man ia
Jo an
con ds
pa ge
da f
Sta t
Se cure
Se asons
Ra pid
Ra hman
nu ng
Be ing
op sis
IC EF
Sa ve
son s
So lutions
Su mo
Fa culty
rou te
Ca therine
Na ta
Na val
hi de
Mu ch
An s
IT ER
com b
che i
by te
ill er
ill on
sa id
SM N
Ha e
ka was
ka waii
Ti bet
à¸ ķ
mm ar
Ni gel
BL O
BL ITZ
Pe te
MP A
AI K
ant hus
por ter
Th ing
Sch a
Ki H
Ki Ro
No de
My Video
CP AP
UN ICEF
my ces
Lu c
Au dition
Ex cell
Ex hibition
Ph ra
New Jeans
AV N
Ju lian
Ka ppa
CC C
LE E
LE O
BO YS
Com merce
IG M
IA NA
je ction
ze u
Ad vis
BM NH
tel la
Open NIC
Ko ch
net te
Mon a
ja va
à¤ ¯
LL M
Wa di
Bri stol
ori e
Gi u
Gi ant
NH 3
PP Po
min ary
Tra il
Tra cker
Vo LTE
sti ll
CL C
SH ISH
ero y
ten s
tri e
ãĦ ¨
HC l
dis c
VA X
DD K
KP L
Mat ter
xy gen
All Music
War ner
par ty
AB BA
Web b
ration s
ming ton
Bro ther
SK T
SK Y
Peter s
FO MA
UT 1
org ani
Recor d
Alex and
you ng
Shi ft
Shi ning
LT M
NE O
fri ed
fra structure
Richard son
Mas sa
Fre ak
Em per
Trans form
var man
ìĿ ¸
sor tium
Cam eron
Cam bridge
kin son
ðĲ İ
Ear ly
Gam bas
CV T
Inv i
Inv esti
à¥ Ģ
HTML 5
app le
Edward s
tas tic
Sig nal
Wat son
Que endo
pat en
nor mal
DL SS
Pho eni
DMS O
Ami r
Oli via
Dark ness
Kin Ki
stre l
WOR D
Hon or
Hon oura
PB PK
Bad minton
0x 5
Lam b
media te
EG FR
Hal f
bour ne
Kri sh
Ret ro
Rol l
cula ria
shan ensis
Econo mics
Nan cy
Qua ke3
Abdu llah
Leo pold
Gon za
Ster n
Wolf gang
wind ow
MIC H
Rand om
gener al
girl s
Experi ence
Zh ang
Kiii Kiii
FRE E
Fern ando
LMP 1
Feed ly
Ast rono
Pao lo
B8 L
à§ į
Ark ane
Speci es
squ are
Danger ous
Veri zon
Jor ge
sr c
requi red
Conser vation
Thom son
Bry an
Gard ner
Pitch fork
ð¨ ¥
Cano nical
Laborat ory
Boe ing
IUP AC
Kabu paten
Destin y
advance d
STUD IO
Hud son
SUGO CA
matri x
Mosa ic
graci lis
SHISH AMO
Queendo m
Honoura ble
0 64
0 63
0 89
0 72
1 s
2 187
3 E
4 S
4 th
6 LX
A mo
A mp
A ya
A tt
B ark
C 11
C IS
C TO
D LE
D IG
D 3D
E i
E t
E ra
E AN
E dit
E SET
F el
F IS
F SS
G X
G one
G ara
H 7
H TV
H ak
H ass
H off
I con
I MP
I vy
J ig
K Y
K AT
K aki
L n
L IT
L TR
L INK
M 18
M int
M NH
M ass
N in
N ine
N BL
O 6
O 7
O X
O il
O IC
O hi
P IN
P ow
P ir
P ok
P UA
P USH
Q 6
Q AM
R ST
R AR
S J
S it
S MA
S IP
S ka
S BD
T c
T GM
T etra
V ig
V AN
W ed
W BC
X V
Z 4
a cade
b ly
b ari
b ene
c ss
c era
d ding
e Bay
e Mule
f 3
g en2
g han
g ore
g old
h ang
i v
i z
i denti
k la
k ok
k ker
k now
l ou
m als
n ders
o ch
p lu
p seudo
r 4
r ina
s q
t RNA
v u
v us
w x
w inter
w ski
x 64
y r
y x
z ers
Å ĵ
Ê Ĥ
Ì į
Ñ İ
à ·
à º
â ¾
ë ©
ë Ĭ
ng le
an to
an tha
sh am
sh ine
sh ot
de ter
de us
en tion
uo us
yo ne
yo ut
li i
li e3
li ma
li bre
pi na
su me
10 29
10 38
10 64
10 41
10 52
10 74
10 92
men sion
qu ency
11 Z
11 65
11 44
po ng
po mo
la zy
ar in
13 18
13 11
in ha
mu ra
st ay
re si
re cur
re cogni
me la
ï¼ £
ï¼ ¯
ï¼ ĸ
si w
se seo
100 km
ãģ ¼
co pe
co ming
co py
lo se
and ler
ck o
et c
37 50
to m
to ken
as se
as ana
ow a
Ma e
Ma sh
Ma da
Ma chi
Ma cross
Ch el
Ch ance
ST O
In t
64 GB
Re ve
Re lease
Re becca
ci on
ci ple
ci dent
ba g
vi i
pe z
pe ct
pe ak
59 A
Ro me
Ro gue
ph ia
Li sten
Me xi
De si
De pu
77 00
per sky
Le cture
BA D
BA ND
CO R
Vi ce
AM N
AR IN
no te
Ar s
Ar gen
Se y
Se at
Se lection
ga ard
fi ve
La z
La bel
Sa v
Lo t
So m
So ck
So lid
So bol
Su pre
Su made
Da w
Fa me
Fa bri
do g
Di ver
Ca pri
Ca sio
ha in
pp ly
mer a
ho lo
Ba ch
sa tellite
Ri sing
SM S
PC B
He at
Ha sh
Con figuration
ET A
Ta les
EC S
MS N
Ste el
MP LS
To ys
ya va
Pi ck
Th reads
Do herty
For mosa
RE FL
pro blem
Car s
Sch wei
No vel
Ex ping
CH 4
TA IN
Ka z
BO Y
Com peti
AD D
AD L
Gu illa
ES B
ron d
118 6
Open Critic
ATP 500
ATP 250
Ko ha
line ar
low ay
gh er
Hu go
Mon ta
Stu r
à¤ Ĺ
dy s
Wa les
Bri tain
Man o
vel and
pri mary
Har mo
CE SS
NH 4
NH MUK
PP D
SC SI
bli o
Gra f
Or ni
Tra m
Davi chi
128 GB
stra te
PO W
Che er
tri ple
Don ut
Wal king
RC 5
Por tu
Air lines
IR AL
MG H
Ben z
Hy de
MB T
Blo om
TP U
Fri day
Produ ct
Pat tab
Ci der
Tech nical
Ce vio
Gar cia
Ter esa
if config
iss an
space craft
Win Win
Alex a
SF 2
B2 B
comp anies
BR B
sign s
sign al
bor g
PA SS
Good bye
CT U
GT K
Fo ster
Fo cus
PR ISM
din ary
fra c
Tur n
sha pe
Bor is
cil lus
VR DK
Gal li
Res pon
MU D
Sco pe
kh of
áĢ ¯
sur face
jo y
Sha w
uni on
á¹ ĩ
JT B
SHO CK
Wat cha
âĭ ħ
Over ture
hr er
dd le
Dol lar
cast le
hel lo
Ara b
CB T
IB NS
char ge
tech ni
Rou ter
Hun t
Communi cation
Sin ce
Town ship
stu dy
Post Script
Base ball
Dyna mic
Alli son
Jer sey
Than k
Bet ter
tera ture
Seven teen
template styles
ext en
Rol and
Shu ttle
poly mer
produ ction
defea ting
sci enti
Din osa
Got t
Hein z
eng ine
ìĦ ±
beca me
âĬ Ĩ
Edi tor
XY Z
Electronic s
Ay yava
Inf ant
Regu lar
Lyn n
Maj lis
Cher ry
sequ ence
Kas persky
Pear son
Ore o
ITZ Y
xml ns
Certi fied
êµ Ń
Pel key
compon ent
effe ct
fon t
fas cia
Lili th
Pul se
Reser ve
Trou ble
Nove mber
Administra tion
japo nica
YON EX
Zim mer
formos ana
Colum bia
Enri que
Dere k
flor a
ï» ¿
Amen d
CR200 J
Elisa beth
SHOOT ER
Jak ob
Syd ney
SPEC IAL
gnat hus
Orche stra
Coon ley
Pattab hi
0 68
0 71
1 C
2 P
4 100
7 300
8 400
A ch
A sa
A SM
B ere
B PM
B run
B rough
C d
C 17
C 24
C SA
C un
C ari
D 8
D TC
D AN
D od
D BE
D rum
D oro
E H
E mo
E la
E ight
E WS
F NA
F AR
F oun
G an
G 41
G lor
H f
H r
H of
H IP
H SS
H ari
H ook
I terator
J ED
K t
K ro
K ST
K ry
K AN
K 101
K ane
K laus
L 3
L AC
L ance
L ens
M Q
M t
M AP
M ER
M SM
M 1917
M TA
M ental
N gu
N c3
O z
R J
R 11
R el
R um
R EC
R ous
S ed
S eri
S WE
T ry
T Wh
T 3A
T LS
T UNES
U m
U tri
V 60
V IA
V era
W itch
W ASP
X 3
Y Y
Z 3
Z F
a ver
b 8
b be
d ark
d ora
e gel
f au
g ay
g wick
h len
i p
i mi
i tu
i KON
k N
k os
k ine
n ter
n at
n ya
o i
o cy
s ound
t xt
v 3
v ot
w c
y ama
z ons
Â ¹
Â º
Å ½
Ð ¦
Õ µ
sh all
xi e
de nd
de velopment
de velo
en ig
en ing
en ia
hu m
li ft
mi RNA
bi ll
gu a
gu ng
di ch
di ed
le pis
20 36
pi ter
pi lot
ti li
ti va
ti enne
bo ne
du k
su it
su chus
mo i
mo le
mo on
ni ne
10 th
10 26
10 79
10 82
12 69
lu nd
11 59
11 63
po d
po u
tu ally
or ang
la g
la go
ar ing
14 63
13 42
in son
ge o
for ming
al ter
st op
st ler
th reads
re trie
ri cum
ï¼ ĺ
zu m
zu r
si d
si p
si en
si ni
ra cy
se i
se da
am bi
ta te
ta ct
ãģ ľ
ma u
ma ch
ma ta
ma cula
ne e
il lu
il ly
the orem
at tribu
at ops
ck le
et z
Ma le
In surance
be gan
The ir
Co py
Re id
Re ality
na p
na ya
ad s
ad ows
br y
nd y
67 00
vi dence
ca li
AT V
ur on
au ts
Me et
Me thod
De ck
NA VER
Mi kha
Mar tha
OS D
OS PF
Al b
Al lo
ty pes
Le ary
53 E
Mo ment
Mo nica
Mo tif
Vi vi
ry so
pa g
da city
Ra g
IS N
fi lt
ED ITION
Ja guar
Be th
Be it
Sa w
Lo we
Fa st
do es
Ca th
Ca ta
Na z
Na tura
AN T
Bo ston
mer o
ho ng
gi an
gi ft
so ci
We in
Si sters
wi re
ster i
ff en
130 6
SM ART
Ha v
Con tra
Con tents
Con sortium
Bu kit
Ti an
fe el
Ta ku
à¸ «
Pe er
Ste lla
To ols
To morrow
Wor ds
Do men
Do es
Sch latt
No vo
My s
UN IVER
FC S
âĦ ¢
Au thority
Au dacity
Ph ar
CH I
oun t
MO RE
MO VE
ko va
MI M
SO V
SO UND
LE SS
cy to
Fe ar
TE U
Ad olf
118 2
DA HL
Open CL
Open Solaris
HO Y
ATP 1000
Ke camatan
Ke pler
Hu ng
ja h
à¤ ķ
NO C
Du rate
Du tch
EX E
ML S
DO ME
Je ep
Mac Book
Ed gar
Willi s
tur ns
Gi an
Gra de
Gra vity
ser t
Ori en
que z
que st
Game Spy
Game Rankings
Ber khof
Mor a
ano ther
sen schaft
mb ar
Mc Ken
WTA 250
HC V
Wh is
AF S
AF T
Mat rix
car go
All Star
Can yon
MG 34
Eng el
Hen derson
Hy po
Blo o
TP MT
ast rome
cre te
Chris ti
Ele anor
gan is
RA ID
HI RO
CA SE
256 GB
M2 A4
ð« Ħ
ð« ĵ
Ang ular
GM T
spe ed
Tor re
Bur ger
Bur ns
Sing les
Offi cer
Ger ard
Pra da
Cho ng
PR IN
218 6
Bor land
Cri minal
XP COM
VM ware
Pen n
sub ject
Zi on
Jan us
Fra ser
Phi lips
Bir ds
GR AIL
CV S
Bal lad
bet ter
hur st
Lan cer
Poly gon
Cap con
Cur ry
Cur rie
pres sion
Jen kins
Cli mate
Den is
pat ch
trans port
Cir cuit
Clo se
hel p
Poli tical
fea turing
Nico le
Cos mic
Set ting
mina te
Cou p
Kin der
Distri bution
Augu s
ðĲŃ ł
ace ae
plan e
Dun can
855 12
Clar ke
Mes sage
fol k
Mont ju
Med al
PCI e
Var ia
Some where
RB W
Test B
Memori es
Bas in
Kill er
Appli cations
Jes se
Eri k
Liber ty
Liber ation
Dal las
Neu ro
Lind a
RSA SS
Kur t
Shar on
CAP COM
Socket FD
âĬ Ĺ
cap su
Sid ney
fini tion
hydro xy
Isa ac
Sim mons
Number s
Tas k
gge d
ê¸ Ģ
Deli cious
Radi cal
Ass ault
Ade la
ìĺ ¤
MOMO LAND
mea sure
Indi ana
Histori cal
Fis cher
ìĸ ´
Comman der
Gl ory
Warri ors
Physic s
asso cia
Environ ment
Loren zo
HOL BORN
SING LE
Moham med
Cele bri
Chara cter
physic al
Gia como
MID I
coordina tes
Bapti ste
Nich ol
Spoon z
TOG AF
ENTER TAIN
ARTS VISION
buty ricum
Voya ge
ë¡ ľ
Figu re
Aud rey
Moha med
Gent le
swa p
PPPo E
Emper or
Depu ty
REFL ECTION
Ayyava zhi
Utri cularia
DAHL IA
Durate c
ENTERTAIN MENT
0 38
0 95
0 641
1 188
2 185
2 H2O
4 GB
7 R
A 27
A be
A SA
A BL
A sy
A WS
A DSL
A muse
B uo
B ard
B MA
B ha
B TO
B TS
B ass
B hd
C TV
C ly
C EN
C ald
D BC
D roid
D NF
E W
E h
E 40
E ne
E mp
E vil
F ig
F ara
F ant
F ans
F PGA
G b
G ao
G MP
G bit
H 14
H end
H mm
H eri
H old
H MG
H its
H ONG
I b
I ran
I MS
I tem
J ero
J ess
J ECT
K 5
K 7
K 8
K 15
K au
K nu
K AI
K BE
K 232
K 308
K ISS
L LE
L ys
L unch
M 1911
M CP
M ISL
N II
N vi
N au
O RO
O CP
P v
P 15
P is
P ME
P ren
P ABP
R L
R IF
R ama
R PM
S IX
S ally
S late
S ATA
S lot
T ill
T MS
V J
V au
W 52
W AP
W ake
W endy
W ITH
Y R
Y ao
Y ar
Y um
Y LE
Z r
b ao
b ling
c v
c lay
c ari
c ena
d ana
d ance
e c
e va
e ye
f ru
f ine
g ine
g by
g ory
g gy
h our
k w
k am
k au
m ba
m ari
p ou2
p tive
r hyth
t one
v ani
w ild
y en
y ar
z d
Ã ĺ
Ã ŀ
Å ©
Æ Ĵ
Ê »
Î Ł
Ð §
Ö Ģ
à ¾
â ķ
ì °
ð ¥
ng ensis
de mon
de uts
ch a3
ch ka
li te
mi th
qi ang4
er r
we s
le g
ju m
pi pe
ti z
ti no
ti ka
ti sti
du a
du la
mo ri
ku p
lv es
10 43
10 81
qu ir
cu lt
11 53
po rium
tu ri
or es
la bo
la to
la va
13 19
13 15
ge me
for a
for mis
mu t
st ral
23 50
mula tor
th ra
th ink
re ction
me ans
ou sen
ri ll
ï¼ Ķ
000 2
te i
te t
te ach
ra w
se curity
se veral
co lum
el sen
ma ted
ma gazine
ter son
ter ms
the sis
he e
at ory
ol y
32 GB
In spi
be au
SE CL
Co mi
Co vid
49 00
Re vo
Re play
na d
na te
na mes
ad al
nd o
ba ba
300 1
pe e
pe ta
Ro vio
Ro zas
ph p
ph on
ind o
Li z
Li ps
De c
De vi
Mi ch
Mar ina
Mar cel
ï½ ¡
BC R
BA SE
ts a
Mo tion
Mo lina
Vi et
Vi va
AM I
Jo a
Jo ng
BS P
Pro cess
Pro league
76 00
con cer
pa id
da tion
Ar ms
AC K
Se ct
Se ason
va in
fi a
Be i
Be ast
ent ly
800 00
La f
La la
Sa le
Sa inte
97 00
Da te
Fa ther
do t
do como
Di or
Di vi
Na gar
bu ll
pp el
AN Y
mer e
An nie
Pa pi
so li
so la
so cial
Si ze
Si O2
SS B
IT ED
by tes
sa f
SM G
He yo
end ra
Con stru
Con nor
Con rad
Wi sh
Bu enos
Bu reau
shi ma
Ge cko
à¸ Ĺ
AL n
HK U
En um
MP K
To on
go ni
Po m
gn er
Car ver
Ki ev
My Space
My self
ven tion
wa gen
Au th
Ex ternal
pu sh
pu ri
New rite
Qu est
MO A
ko vi
SO A
SO FT
Com mu
IG P
cri bed
Col on
DC 600V
ES I
DR S
Open EXR
tin ction
MC U
clu ster
Cor n
Mon ster
ger y
las k
las tic
RT S
San ti
ori al
DO ALA
HE Y
HE ART
begin ning
tur er
BE V
BE AT
min ster
MD B
Gra m
Tra cy
Vo x
CL AN
Mor ph
stri a
stra at
sing les
Mc Can
Geor gia
WTA 500
Un ter
ac fun
pre ad
As k
DD I
Cl 3
Her zog
Por sche
Hol ding
Spe ech
Ab del
Hy dra
PL ANET
hy per
cre ation
IU AV
Pla te
Fri e
Ele ments
At ara
DF T
Gar rett
Ter minal
Cha p
set z
ada in
Power Book
ð« Ķ
Win nie
Alpha bet
VO L
SF 3
SF X
Pop u
Yu ri
Sun ny
Cho erry
PR PP
Ze aland
oper ation
Max well
Han nah
ful ly
KK A
BF G
Trans former
Sir en
Muse o
Sha pe
gre ss
Champi ons
Br 2
DK 1
Code x
Dy lan
GR APH
âĳ £
peri od
FAT 16
RPG Fan
ben ch
__ __
Sig ma
Para mount
CU DA
Gil lian
Auto matic
Jen ny
Jen nifer
Bon d
UL AS
blo g
ini t
AX A
Dol ce
Gri ll
Clo pin
fea ture
Cour se
tech nical
Mur der
cas ting
posi um
Memo ry
Cou ch
cell s
elo nga
FI RE
Sk ousen
include only
XC 40
Mari on
NI H
Tol l
Bet ty
Bet ween
TOK IO
Angel s
Kri st
Mir ror
Apo llo
KT X
produ ct
QU AKE
Feli pe
gli se
Ster ling
Afri ca
chin ensis
Archite cts
elect ro
ð¬ĵ ĳ
nation ale
GP40 PH
Know ledge
parti cular
cour se
FIR A
cau da
Kore an
Whit ney
RIA A
Pha se
stand ard
chang ed
cry stal
villa ge
Glen n
Scor pio
Add ress
LGBTQ IA
ëŀ ĺ
Quan tum
Roberts on
compon ents
Nim tz
Root kit
hei mer
Insi der
Scienti fic
FTT H
STOR Y
Catalo gue
tempor ary
Dit to
Cp G
suc cess
EGO IST
STAF F
Glas gow
INV ECS
Fav ori
Imagin ation
Bhar at
Pz B
manage ment
Pub Med
SQU ARE
MRS WS
Kaki taan
Supre me
JED EC
seda mo
Nvi dia
0 79
0 76
0 96
1 K
1 R
4 WD
5 V
6 G
8 100
9 A
A a
A me
A es
A 95
A mber
A lvin
B 0
B j
B l
B 10
B ON
B ok
B are
C ay
C MA
C IP
C EST
C im
C lip
D ad
D us
D TV
D BA
D ell
D AV
D ENCE
E in
E na
E gy
E die
E EPROM
E lena
F 8
F H
F li
F ind
F ang
F AS
F AL
F eld
F light
G V
G el
G IA
G CS
G DF
G EM
H 11
H amp
H od
H BL
H HT
H YP
I Y
I u
I SE
I MA
J F
J is
J 300
J ET
J aya
J 1120
K p
K ni
K ad
K IC
K ot
K BM
L amp
L ak
L TA
L CR
L igh
L HC
L ights
M b
M 198
M 13
M am
M 32
M BS
M 73
M DS
M ina
M ouse
M ene
M ino
N h
N ol
N SM
N PO
N aka
N ECT
O pi
O ro
O ude
O CLC
P ru
P BA
P AR
P PC
P alo
P tero
P WM
Q 5
R AP
R AN
R ena
R olf
S X
S v
S is
S ino
S pur
S lim
T se
T ow
T AC
T EC
T ina
T hai
U bi
V ene
V GA
W 2
W he
W ha
W IM
W LAN
X 5
X B
X press
X posed
Y am
Z ah
a bove
b 2
b c
c 8
d ry
f d
f el
f us
f ony
f red
g 1
g ol
g no
g ha
h ler
h old
j d
j on
k b
k r
k ho
k bit
k asa
n ang3
o h
p sis
p ping
r h
s 2
t run
t ario
u na
u ary
v ell
w alk
y ya
z am
z ona
Â ´
Ã Ħ
Î ķ
Î ĺ
Ð Ń
Ñ Ĺ
Õ «
× ©
Ú ©
à °
ì ¹
an ta
xi a
xi ng
de ci
de ep
de velop
en ko
ch at
ch is
ch ina
ãĢ ĸ
ãĢ Ĺ
ãĢ Ŀ
ãĢ ŀ
hu e
li mited
bi d
qi u3
er k
di ty
le ine
20 60
ti v
bo ol
du in
du ra
su es
mo ne
mo ther
mo tive
lv o
chu le
ni us
200 m
men a
lu re
cu an1
cu li
cu lation
11 73
po la
po rate
po ints
tu ro
on ka
in tel
in stance
for ma
al do
st he
re ct
re ady
re verse
me ng
me lo
me tal
ri al
ri cal
ï¼ ¸
ï¼ Ļ
000 K
te er
ra me
ce ceo
se lla
fo table
80 km
co t
ma gi
ma ker
ma king
ne ed
il and
il les
lo cation
to tal
IN S
TC B
as ay
Ma miya
Ch ad
Ch ai
ST R
be c
be k
be havi
SE R
SE NS
Co o
Co st
Co ck
Re ason
Re cht
Re member
Re mote
ci ta
ci ans
ba sis
vi ous
ca use
SA R
SA NA
SA SS
ph ora
ph eric
TV 4
Li C
Li a
Me Too
De frag
NA MCO
CD M
Mar qu
BC A
Al ma
Le ung
Le gal
ts ch
Mo ng
Mo di
Sh ara
Pro c
con side
con dition
Te k
Ne p
Ar g
Ar mi
Ar te
Ar che
Se m
Se ng
Ra te
IS U
fi f
Tu ne
ke V
ke ley
Be fore
op us
op tional
IC U
La bs
Sa tellite
son ant
Lo mb
ID TM
Da e
Fa i
tic le
Di et
Ca la
Ca ter
Ca ble
Na cional
hi cles
Bo th
sta ble
gi fts
An ten
An ders
Ba h
Ba um
SS M
ali ng
ff any
Ri der
Ri cci
PC V
He ights
DV I
pan a
Wi ener
Bu y
Ti ffany
ET today
Ta le
à¸ Ĭ
Ho b
Ho liday
pen ter
En tre
Ste llar
To gether
por ted
Po e
For ge
For mula
DS LR
Car thy
Car bon
Sch war
No thing
My co
My Class
CP L
UN B
UN I
âĪ ¼
FC C
Lu a
ting ui
Ex treme
fa mili
pu ram
Ph ys
New man
New type
TO W
Ju piter
Ka therine
MO R
vo wel
SO M
SO CK
SO UL
LE ED
BO OK
BO CU
AD E
AD O
IG O
Ru b
ME A
CR M
CR T
CR IS
Fe st
TE MP
cha i
350 1
Ad di
book s
Hi pp
Open Type
HO LiC
sy ndrome
Go v
Go ing
Cor tin
Pu ra
à¤ ħ
LL ION
AA AA
Wa gon
ori um
Bar n
Bar rett
Har mony
Ed na
Nor dic
TT L
pha te
Pre sto
Pre tty
PP Is
ut en
SC UM
Pri mary
Or l
Or tho
Tra ding
Vo IP
Ber t
IL Y
SH I
PG C
stra ight
Char lot
PO RT
ex p
mb as
mb us
SL 9
Star ry
ãĦ ĩ
era h
sto ire
Wal d
Bra chy
GN D
GN S
El se
DD T
mar gin
cer atops
Ver y
Ani mal
Can cer
NT FS
stru m
Hel ena
Boo t
cre wed
ming ham
nis m
Sur vi
pla t
she et
Es cape
Lou nge
EF 15
Fin ance
ic s
vin yasa
Ter m
ann on
Power PC
Free man
Win chester
vs ki
Dream s
Dream cast
ood le
Am man
Alex andra
alo g
Fer gu
Shi eld
Min k
bre vi
lit z
NE SS
LA ST
Cra w
SI MD
ICO MOS
Institu t
Fan tastic
Vol ks
sub sp
Mini ster
âī ł
à¹ ģ
Code master
logi e
Pala is
Cry ENGINE
Cat ch
temp s
Lan ding
TM X
Ham mer
thi as
Mag gi
Dar ren
Nu clear
á» ĩ
Mobile Me
UL TRA
STA YC
pat tern
Gri ffi
Gri ffin
Ly co
May er
Tro phy
Enviro 500
posi tive
Cru ise
Mill s
tem po
PRO JECT
mod 7
HB X
OD AP
Tar get
Ari el
Fleet wood
Hon ne
inv o
XC X
Flor a
âĤ ĩ
Bern ardo
NI KE
Sol stice
indu stry
Ai res
But ton
Roman ce
Pass word
sell schaft
AST RO
Ever green
Ale xis
Solo mon
Baby lon
origin al
Bas ket
Cr ying
DEC A
H3 O
NU LL
âĻ Ń
WW C
Rea ding
Alf onso
Conne ction
Steven s
Gon z
NCC s
cli ent
import ant
Person al
DH CP
Wit t
Sher man
ima ge
ima gin
Inte ger
quali fier
Gene sis
Motor ola
Every body
TAI JI
Tac tical
Emi l
ð¡ İ
Sym posium
ìĭ ľ
Salv ador
DKZ 4
Pil ot
PET A
Price line
provi de
Quin n
PST N
proper ty
ì§ Ģ
CR300 BF
KEN TA
cover ed
LPDDR 5
Macro media
nei der
manu el
Illu stra
â¼ Ģ
Hori zon
Rid ge
ð«Ł »
EEEE EE
Package Reference
Grea test
ìĨ Į
cip les
fai led
practi ce
Compi ler
Contin ental
ì¤ ĳ
deca hedron
Render Ware
grou ps
sexu al
simi lar
Indone sia
Fee ling
SPE ED
industri al
effici ent
Liver pool
Gaz ette
Ensign bus
champi on
Rud olf
BLO OD
Excell ence
0x5 f
Ohi o
Guilla ume
Brough am
BTO B
Atara yo
SCUM M
0 87
0 83
0 81
1 S
1 MDB
2 1000
2 ZZ
3 mm
3 GP
6 D
8 P
9 C
9 x
A Q
A o
A 11
A 300
A ver
A IS
A nu
A 350
A zer
A less
A chie
A xis
A qua
B Z
B CD
B oun
B ree
B ren
B ald
C is
C ER
C MS
C FC
C ALL
D 50
D at
D et
D AR
D BS
D end
D HC
D ino
D HA
D rey
D ISC
E 7
E MA
E qui
E llen
F ou
F and
F ACE
F lask
G s
G li
G 48
G II
G ir
G IG
G ANG
H ao
H 20
H ed
H ON
H AN
H are
H ana
H CC
H ank
H ora
H ood
I g
I bn
I dea
J el
J um
J ES
K 4
K lu
K oo
K AR
K BL
K 105
K NO
K UNO
L AP
L ara
L IV
L EC
M 80
M 76
M 1919
M DA
M ori
M TR
M ARK
M ISS
M SSR
N ig
N gin
N IA
N IGHT
O 8
O d
O w
O dd
P ry
P ES
P MC
P ony
P ARK
P ANG
Q x
R 8
R e4
R andy
S SA
S IS
S ven
S cra
S lee
T Y
T EN
T LD
T hur
T DI
U 7
U IC
U PC
U CP
V y
V LC
V H1
V BCI
W AR
W ere
W IST
X D
X PS
Y B
Z X
b 0
b 3
b hu
b lin
c 6
c b
c ina
c tural
e us
e ight
e Shop
f 4
g 3
g ma
j aya
k 1
k ai4
k ru
k ri
m t
o il
r ar
r ho
s uo
s cu
s of
s ol
s pring
t l
t ory
t hus
v na
v ara
v ka
w yn
w heel
z c
z al
Ã µ
Å ¼
É ķ
Ê Ķ
Ë Ļ
Ï İ
Ð ¨
Ñ ī
Ò ¯
Ø ®
â Ŀ
ë £
ë ²
ë ¶
ë Ħ
ì ¡
ng s
an u
an um
an nu
ji ang
ao r
de lity
en son
en ergy
ch et
li ga
li cense
mi o
mi te
bi tt
bi color
er u
le o
le igh
20 34
20 99
20 mm
ju ry
pi ta
pi no
pi do
ti ves
ti vity
n3 2
bo ttom
su ri
mo tor
zi one
10 25
10 500
10 78
10 51
men ta
men ted
cu lo
cu les
11 14
tu k
or al
17 A
in os
in stagram
in stitu
24 000
28 50
th os
re ma
re cht
re gion
re gedit
22 24
me z
27 50
ri ed
ri ghts
ï¼ Ĺ
ra pper
ra ptor
lt en
ãĥ ¶
ce y
se lect
se conds
ta tional
ãģ ½
35 B
35 mm
he alth
36 34
to gether
IN C
as an
as si
Ma king
Ma ison
Ch il
Ch aos
Ch loe
In door
In fini
Co Mo
Re ad
na i
na k
na tive
na ments
ci vi
ci ent
vi et
pe di
AT O
ver sity
ig i
69 00
ss er
Ro e
Ro bot
SA L
ph il
ind y
78 C
Li ter
Me a
Me g
De vin
NA MA
NA SCAR
CD SS
Mi ck
Mi ster
Mi ya
Mi lton
Mar tine
ak ra
CO DATA
Mo le
Mo dule
AM S
Jo el
Pro cedure
con s
ran king
pa ir
Ne ar
Ne ther
Ar ma
Sta de
Ra vi
va li
Ga ia
Ga tes
Ga stro
ga e
ga ta
ga ster
ga tive
fi cial
Ja wa
AP C
ke it
Be li
op ro
op ard
ent re
IC ANN
La pu
La mont
ia e
Sa i
Sa fe
Sa tur
Sa turn
Lo tus
Lo gan
So ylent
ID A
Su i
Da im
MA SS
Di m
Di ff
Ca tho
Na il
Na con
Na vel
Na vy
bu la
IP KF
Bo a
sta tis
Mu st
gi ve
An aly
Pa vel
We ir
Si te
Si mpson
int on
int ro
Ba gh
are as
ali zed
che e
ff alo
SM TP
mes tic
He ctor
DV II
Ha te
Ha ppi
Con tro
Bu k
gra tion
den sis
Ta il
Ta Pa
à¸ Ī
MS C
EP LUS
Ni p
Inter sport
cro ft
Pe i
To y
To ku
To ol
ant on
por ting
go ing
go go
Pi zza
Pi TaPa
Do ming
Do CoMo
Po lo
DS C
AK I
AK ARI
pro cessing
Car go
Ki ta
wa h
Ex pan
fa ir
fa ther
ton o
CH INA
TO D
TO R
AV RO
Ju di
MO DE
MO OD
fu sion
AG EN
vo ice
SO C
LE X
BO L
Com fort
IG BT
Gu ar
Gu st
cri p
ME MS
Sy lv
Sy ndrome
CR TP
lan e
can o
TE S
cha in
DC A
Ad tran
ES RI
ron auts
360 MC
DA A
lar s
tin um
Ke m
sy lv
low er
One s
App ro
Hu tch
Pu ma
Ser a
rea ch
rea ction
Stu dent
Bi an
Wa de
Du ra
SP ACE
RT I
EX PO
Bri gade
Man y
San s
DO TA
pri ses
Har u
CE V
Par as
RS D
Tri p
SC AD
MD MA
Music al
Pri ma
On tario
tra in
tra it
Tra ining
ser ved
lis tic
Vo lun
mas k
TR PG
Fu ck
Gen Bank
TS I
ex changed
Mc Donald
Eu gen
Star z
Wal do
ac cording
GN SS
ï¹ £
dis k
dis co
El f
cle an
War ning
Dra ke
Her man
inter national
Hy adain
PL C
Ali en
ona ire
UC A
UC K
Spi egel
cre w
Up date
Ele on
DM F
Ci vi
Ci tizen
ai ko
Ce cil
Fin der
ic z
EM T
Intel li
mber g
ð« ĺ
Recor ding
bra in
VO G
IO P
Ag ni
Euro vision
Tor onto
Bur n
Bur st
Sing er
ric s
SF N
SU SE
VE L
Cro s
bor ne
bor der
Ger hard
Pra cti
Ze pp
Ze tec
mac s
âĸ ł
tho se
bus iness
los aurus
Ama zons
Core Media
OH V
MU SE
Fire works
CK G48
ìĿ ¼
Fle xi
Cam era
dra co
Jan uary
ONE US
cen tury
FR ONT
Ven ture
Gam bit
Pin up
Bir mingham
Stra nge
Mil k
Mil ky
logi c
à¥ ĭ
Cry tek
Under tale
Gro o
Cur se
Sig n
mos aurus
Gran ada
Para de
CU BS
Gol f
Rus s
Engine ers
C2 H5
Class path
C6 F5
nor m
Sound Cloud
trans form
Clo ck
phi lia
Ange les
Not re
ap po
Hun ting
Has bro
xx x
Metro polit
419 c
bb s
WOR KS
tai led
Niko la
Geo database
Sau nders
ND MA
SW T
SW IFT
Sal t
HER O
plan et
Dun n
pl ant
Def ence
Thunder bolt
à® ķ
Flor ida
534 D
Indu stry
Edu ard
Mus a
HTT PS
even tual
Test A
Mountain s
JO Y
will er
Rail road
áº ¿
Kan on
NN N
bh ak
flow er
GEN ER
ìĹ °
LV TP
Fon t
pti de
Bran ch
Tex ture
df n
Second ary
SUN RISE
Sil ent
Hil bert
Kor pi
Sie ge
Sie mens
Sym fony
Kun st
auri tus
Ev ent
Soph ia
Reich s
Rit ter
uint 32
recor ds
jour na
ëŀ ĳ
lear ning
Lucas Arts
Andre as
Dir ty
JY M
Indie Wire
Teach er
Nov ell
pera ture
chara cter
Compa g
Kum ar
Democra cy
Even ing
Nit rome
Ato mic
regi ster
Moni tor
Cant on
Spor twa
SDR AM
Stephan ie
partner ed
ëª ¨
Rein hard
Provin ce
Ces are
gart en
MRT T
ê· ¸
memo ry
continu ed
Confe dera
Trin o
achie ved
chr 7
Partner ship
gorith m
MAT LAB
L129 A1
Philoso phy
sylla ble
Prai rie
Birth day
meda list
LOV EPLUS
TASC AM
iHeart Radio
nana co
deg ree
Phoeni x
triple S
Glor ia
rhyth m
SENS ATION
Fergu son
Achie vement
GANG AN
KUNO ICHI
Ngin x
Daim ler
MOOD YZ
Adtran z
0 99
0 78
2 N
2 202
3 K
3 x3
3 ASV
4 E
5 B
6 th
6 100
7 D
7 G
7 th
A xi
A BA
A CO
A can
A ja
A qui
A IDS
B t
B x
B RE
B BN
B PI
B JP
B NSF
C Q
C art
C ze
C ron
C IL
C run
D Z
D 27
D ok
D one
D rea
D LL
D BR
E IA
E vel
E isen
E nix
F 0
F V
F OS
F ry
F ris
G h
G 25
G and
G IF
G GO
G bps
H 0
H 16
H MV
H MD
H alo
H alle
I 3
I H
I W
I z
I ll
I ME
I RI
I RC
I rene
J G
J ia
J ill
J PEG
K 9
K m
K 16
K la
K II
K CC
K TM
K bps
K 2186
L ad
L TV
L PS
L DR
M yo
M 78
M EP
M INI
N ia
N INE
N issan
O ct
O PS
O US
O OH
O cta
P se
P ter
P oo
P ers
P lea
Q a
Q CD
R 0
R EN
R DO
S ko
T is
T amp
T AK
T 128
T era
T NF
T 126
T ARA
U X
U PS
U FA
U STA
V 12
V ere
V ero
V CG
W 1
W EST
X A
X O
X MP
X CB
Y oo
Y ak
Y AML
Z 9
Z C
Z K
Z ou
Z ap
a pi
a mo
b lu
b ana
b ane
c 5
c eng4
c TV
d n
d r
d z
d ream
f m
f uss
g gs
h ay
j en
j et
j ak
k he
k ol
k ers
k Wh
l cp
m pi
m bed
o xi
p 1
p ard
p ump
p df
r b
r RNA
s si
s lot
u su
u lic
v 6
w il
w ad
w ant
y ellow
z an
z a3
z es
Â ¼
Æ ¡
É ¯
Ê ¾
Ê ĥ
Î ¤
Ð ¯
Ó Ļ
Õ ¸
Õ ¿
× Ĺ
× Ŀ
Ø ²
Ø ·
á Ł
ê ±
ë ł
ì ¶
ĸ ĥ
ng u
ng el
ng ers
an chor
xi ong4
de u
de te
de ring
en da
en burg
en vir
yo shi
hu ri
li quid
mi st
bi to
er os
gu na
di ff
we ng3
we st
le xi
le st
le ep
20 th
20 49
20 380
ju ni
pi g
ti de
ti le
ti dae
bo ys
bo om
du p
su res
mo t
mo der
ni l
10 42
qu e2
12 306
lu x
11 B
11 S
wo men
po lo
po ten
tu l
tu des
or ts
la x
la ge
la ta
on ce
ar cos
30 mm
in come
for est
ru p
ru rus
al ways
th ys
th ic
me et
26 50
ri st
ri age
si ma
si mp
si tes
ra u
ra dio
ce k
ce u
ce do
ce des
se ek
se para
ta e
ta ine
ta les
ta dor
co o
ma ng
ma ck
ma gni
35 30
ãĤ ©
lo o
lo gue
he ar
48 21
ck r
37 59
as ant
75 000
ol ds
it ar
In do
In ner
In frastructure
SE O
Co la
Co ach
Re publi
Re imagin
ad ministra
ci se
ca e
AT i
oo se
43 M
Ro a
Ro che
SA F
SA M
ph or
ph op
St al
St ark
id den
Li la
Li bert
Li ves
Me an
De lu
De but
Mi zu
Mar a
Mar g
Mar ks
BC H
Al c
Le y
BA CK
ak ko
CO OH
Mo t
Mo sco
Vi ol
Pro mise
con figuration
con sonant
ran i
ran ked
pa lu
Ar cha
Ar mand
Sta tis
AC SF3
Se qu
Ra ff
Ra mon
IS PM
va cc
Ga le
Ga vin
ga la
ht m
AP O
AP U
Tu cker
ke ting
os ci
op ter
Sa kura
Lo dge
So viet
Su d
Su zu
do za
ON D
Ca pp
Ca sey
bu i
bu ffer
IP E
IP N
IP MI
IP M1
Bo ng
Bo on
sta ur
sta ff
sta tus
ho e
Pa w
Pa st
Pa ta
Pa int
so v
so ni
so lution
HD P
Ba al
IT SO
ki ta
com m
ff ff
ot ti
ot ro
Ri e
Ri ce
Ri bon
end ar
Ha us
Bu ch
Bu ster
Bu lle
gra d
gra ms
Ge ek
EN DS
EN SO
fe w
fe male
Ta ils
EC MA
AL C
MS NBC
Inter change
Pe kan
Pe ggy
Th y
Th rough
Do S
For ward
For ces
RO H
AK ER
Car penter
Ki ri
No ble
No bel
Lin de
My ers
Wil low
CN H
Lu ca
Ex o
dice a
New ton
TO RY
Ju dge
oun ts
Ka de
Ka by
MI Y
vo ca
BO OM
chi o
chi p
AD ME
ley e
Gu ang
Ru bi
Ru gby
Col l
Sy fy
Sy base
CR H2
lan der
can e
Fe sta
TE L
350 km
ze e
gen y
gen era
res er
cor n
cor ona
DR AM
DA WN
Open BSD
HO ST
MC 68000
Go al
World wide
Mon s
Mon sta
Mon tes
DP A
RI END
Wa it
Wa ters
SP 1
Bri t
Man chester
ling er
Bar bus
HE AT
Per cy
row s
Har rington
Ed dy
tur ned
Gi B
Gi ants
cc TLD
TT APS
NH C
Tri dent
SC M
min A
min s
VID EO
Vo lume
Vo daf
que ens
rin k
Ber keley
SH U
TR AN
Ty pho
sing er
ex pe
ex FAT
Mc Kin
Eu g
name d
tri es
tri ton
ãĦ Ŀ
Wal leye
Ac cording
Ac oustic
Un pa
Un cle
SD 45
Cy rus
Tho ng
DD D
let ter
ins oo
IM G
IM X
sel le
UP A
UP R
Ver ge
lie f
inter face
inter est
MG C
PV S
Ab bey
Ben nett
MB N
Va lu
AO KP
AO MG
Web ster
Ve ga
Chu la
Pla ty
Produ cts
pla te
pla tz
Chi cken
At mos
ene y
RA E
FO RE
Media Wiki
Mer cedes
EF 16
Ter ence
mini st
bin ding
iss ance
space port
Free ze
Win ston
Er b
vs k
290 X
Tai chung
Sam antha
VO ICE
Am bi
LP H
spe ctive
Ag nes
Fer ry
Yu e
Yu ng
PE ACH
LS 5
Cra fts
Cho ku
lea ding
Boy d
Plan ning
zz y
oper ated
Ama teur
234 B
Squ ares
Res o
Cri tics
Trans portation
Pen ny
áĢ Ģ
Lon ely
ele ction
ele ments
Sto kes
dra w
dra gon
WA Y
bro ok
gre at
Des mond
á¹ ħ
á¹ Ľ
Inv ent
Ban co
Dri ver
Sum 41
tum n
Ham burg
Ya tes
POP 3
Kh KBM
ag ent
Gil les
map ping
Cle veland
Que ens
C2 C
Sc out
NM R
á» Ŀ
Cli ent
Wii Ware
Men doza
SV 40
blo od
ini tial
ini tiali
AX 3
teri als
pin k
alth ough
F4 U
Ami go
fla sh
fla re
system d
Oli ve
Oli vier
SIG GRAPH
other s
Lar ge
HB OS
sche me
Mad rid
cla ir
Ima ges
esta bli
Metro polis
FN N
Mid night
Sk etch
pho to
Origin s
mission s
Augu ste
Fal ling
Sho e
Tel net
Cre dit
LZ X
Med ley
Sma sh
AW 50
Mir anda
Program me
Week ly
Brand on
cept or
FAN XY
Rol ling
Hea vy
Sand wich
Work shop
áº £
Again st
Garden s
LX I
WW W
Jes per
ìļ Ķ
dire ction
team s
Fair y
MAD TOWN
Ala in
bh p
Anth ropo
RF ID
gene sis
constru ction
Gon dor
cli ffe
Rober to
telli tes
dig ital
Blood y
Wing less
glo bal
Rh ino
UF J
EY ES
EY CA
Shop ping
Yan kee
Deuts che
Bin ding
Lie uten
Magn us
PRE SS
Made leine
ARI MA
kie wicz
auri dae
Diplo pedia
Diplo derma
Tin y
camp aign
valu ation
Swi m
SEN SES
Twi light
Fit ness
Ul ster
Pear l
recor d
ì§ Ħ
sorted Array
Bb 4
cover age
ita minA
cep ts
YE AR
ë¹ Ħ
Capi tol
atten tion
Domini que
Rhe in
SEC IS
Comman ders
Dru g
Est her
Pure Script
Warri or
Physic al
NER F
ëı Ļ
ASO BI
Agri cultural
Ide as
Sonic Stage
Butter worth
Fed ora
TAS Y
pack age
Rodri guez
indi vi
FW 43
Mile stone
Stef ani
Nak ed
Phan tom
Coin Desk
orien talis
Effe ct
Gree k
Illi onaire
hist ori
myr mex
Pharma ceu
Valenti ne
Igna cio
ë¬ ¸
Begin ning
FRI ENDS
Identi ty
Nx d4
kina se
Rafa el
Qual comm
AQU OS
DARK NESS
ìĪ ĺ
Strate gy
PTS D
Movi es
Gara ge
Mada me
Rogue like
hain anensis
Kaspersky OS
Amend ment
filt ers
Varia ble
Adela ide
Nichol son
Cald well
âķ ±
Colon el
Chap man
Couch DB
Ubi soft
Schwar z
tingui shed
Hipp arcos
Cortin arius
Charlot te
Codemaster s
ð¡İ Ĭ
sof tware
Liter ary
Metropolit ana
GENER ATION
Sportwa gon
Evel yn
XMP P
Reimagin ed
Mosco w
Vodaf one
Typho on
Lieuten ant
+ &
0 45
0 61
0 600
1 H
1 W
1 GB
2 178
2 NE
2 MASS
3 2000
4 F
7 C
7 SENSES
8 200
8 341
A j
A qu
A 12
A 13
A va
A AS
A UC
A lta
A stor
A Standings
B id
B BL
B ari
B org
C uo
C 57
C ed
C one
C low
C AF
D 17
D 28
D 100
D oo
D ore
D res
D ES
D rew
D aly
E Z
E f
E lu
E SS
E ther
E 220
E UR
E macs
F os
F EST
F let
F PE
F itch
F PK
G AL
G ari
G DC
H ir
H US
H tt
H SP
H ye
H yun
H AVO
I v
I sh
I AN
I ris
I dol
J 85
J ama
J AXA
K yo
K AC
K op
K ok
K ana
K IA
K 1626
K 1122
K 1124
L v
L AG
L ower
L VT
L IGHT
M ao
M 200
M 31
M MS
M BO
M 240
N ao
N 19
N ir
N un
N ana
N ES
N RC
N UT
N ue
O ze
O IE
O mosaurus
P he
P ang
P Cho
Q C
Q o
R n
R PC
R Ser
R 136
R ING
S ni
S me
S ne
S SE
S BC
S RI
S HE
S UR
S F1
S alo
S cen
T U
T we
T AT
T Wi
T MP
T ATA
T rent
U i
U 14
U ri
U MB
U O2
V 10
V room
W ir
W 89
W ye
W yn
W CW
W HA
W ander
X 4
Y 3
Y in
Y ves
Z HR
Z DF
Z ONE
a S
a ba
a ga
a ther
a pen
a bility
b bo
b ha
b lan
c tes
c ino
d l
e mo
e co
e Cos
f en
i chi
k 0
k ow
k ak
l eng4
l ouse
m are
n ano
n chez
o mi
o pi
o ck
p 3
p 50
p lt
p hant
r ared
s li
s ley
s witch
u mi
u ra
u ne
u fotable
v e2
v ors
w sa
w ana
x ter
y ant
z t
Å Į
Ç °
Ë §
Î ĵ
Ð ĸ
Ö ·
× ¤
× Ĳ
× ŀ
â ľ
ê ¦
ð ¢
ð ¦
an es
sh id
ji ong1
de signed
en za
ch ter
ch ant
hu nd
li ter
li ci
li che
li que
mi la
mi ght
bi ra
bi ts
di x
di ge
di da
di os
di sa
di plo
we igh
we stern
le ad
le um
le ed
20 37
ju s
pi e4
pi xiv
bo ro
bo is
du ced
du ate
su ra
mo dule
cu late
tu e
la ut
la pal
on d
on ment
ar um
in c
in ted
in dica
25 50
mu d
ru sh
al one
st Sock
th yo
th ora
th io
th read
th ough
th rix
re sh
re at
re main
me y
me dium
26 16
50 G
ou x
ri j
ri co
ri ver
ri man
ri va
ï¼ ¤
000 m
ro i
ro v
te u
si ck
si ly
si ght
si rai
ra co
ãĥ Į
ce ster
ce leb
fo ng
ãģ ·
el and
ma cy
ne gative
ter rane
the ast
the matic
he m
he ed
at ar
at ter
at os
at tro
and s
36 000
es tic
is chen
TC O
46 50
ol l
ve hicles
Ma yor
Ma fia
Ch k
Ch ao
it on
ST FT
ST ICK
47 B
In n
In s
In dies
In stant
SE RF
Co lu
Co ve
Co sta
II e
Re u
Re ports
Re yn
Re lief
na u
na z
na gar
br aries
nd s
ci de
ci es
ci lia
ci lio
ba cillus
ca tional
ay ama
pe st
oo za
ig an
Ro m
Ro ver
ph arma
ph orus
Li b
Me thy
De te
De bora
NA G
NA V
tou rism
CD G
Mar f
Mar is
Al one
Al ways
Al pine
Le et
Le ft
Le opard
BA N
ts ky
CO ME
Mo du
Mo mo
Mo ve
51 A
Sh ore
Sh ooting
AR DS
Jo b
Jo anna
ry n
con f
Te atro
pa sta
pa wn
Ne igh
no itaminA
da ble
da ily
Ar ro
Ar mor
Se la
Se th
Se as
Se ed
Se oul
Ra pi
Ra ven
Ra zor
IS LAND
va ted
ga i
lay er
fi ca
ED F
AP D
AP FS
Tu ng
os k
Be hind
mp hus
IC AL
La La
La go
La bour
ER P
Sa id
Lo co
Su pply
MA J
do ctor
Di mi
Di ane
Di ffer
Di stance
Ca me
Ca it
Ca leb
Na zi
Na tive
bu ck
bu nd
bu lar
sta ted
sta den
mer y
Mu sik
les cope
ho m
ho mo
gi i
gi ni
Pa sha
so apen
We ar
We TV
We go
wi e
wi i
wi jk
ll an
Ba bu
Ba sed
ki es
com pi
are z
are st
che v
ster reich
col m
sa tellites
Ri j
Ri card
Ri fle
PS I
PS K
Play boy
SM N2
PC P
ste eg
He mi
He ar
He ft
Fi ction
ble y
Con su
Con test
Con sult
Wi n32
ka wa
Ge e
ET I
EN E
EN 1310
EN FOS
Ta b
Ta x
à¸ ¹
Ho g
EP I
Ni c
Ni elsen
En tus
Inter na
Inter val
Pe ach
MP 4
MP L
Wor king
US LC
ari um
Pi pe
Th en
Th ird
Do mi
Do yle
RO W
RO OK
Car son
Car roll
Sch le
Sch neider
Ki mi
Ki ha
Ki Ya
No ir
No ah
Wil kinson
âĪ §
âĪ ł
Lu mo
wa it
Au dit
Au tumn
Ex pe
Ex plo
Ph al
ton s
AV G
Ka w
Ka tie
CC A
AG U
MI LLION
vo cal
BO OT
Com pon
AD DR
IG E
Gu t
Gu ild
Gu insoo
Ru st
Ru ben
wor ds
lin us
Cu re
can us
Fe bru
cha se
ze tima
DC S
des cribed
mon as
Ad ri
Hi HD
Hi cks
DR DO
Open Office
Open SCAD
tin ct
Ko ana
Go Hands
Stu d
à¤ ¶
NO RT
NO RN
Bi ke
Wa gner
Du e
Du ring
SP AN
SP ICA
Man ia
Bar bie
tain ed
Par c
Par lia
Je ffer
LO T
LO GO
LO OP
LO VER
BE AM
BE VG
Nor id
Tri o
Is lam
Gra mmy
ye v
Vo gel
Ber ger
William son
Mor rison
SH A
lla i
PG M
tor s
Che ster
ex cept
Bla de
Bla ke
mb la
ane ous
ãĦ ħ
SD L
SD 38
Bra h
Bra m
Cy games
pre vious
ï¹ Ĵ
bur gh
DD 51
RC EP
ena i
âħ ¤
car bon
Enter prises
Ver non
bri ght
Ani ta
Her story
Por te
inter nal
stru ctures
123 I
PV M
Ab d
Ben e
MB R
PL S
PL AN
DE MO
DE ATH
High er
Spi t
750 V
OK O
rand om
Chi p
DF 90
Ci el
gon al
YO ASOBI
Ye e
Ye zi
CA ST
EF 65
EF 54
Black comb
Gar c
Gar ena
UT 2
ora ble
Cha ir
if rame
IE 8
bel li
STAR T
Ang lo
org anization
space ports
stro y
Ken ny
IO I
HS DPA
Bat man
Bat sirai
Euro pa
Tru mp
Rock s
mat plotlib
Val en
Fer nan
Pop Matters
LT PS
Sun shine
LS B
cess ary
Ger ry
Ze gna
LD H
qui re
Plan ts
tho lo
mor ning
cil la
Gal la
lve o
Han na
Cri cket
Van der
num er
DDR 2
âĺ ī
WA TCHA
Phi lipp
DK 2
Pin us
Lau gh
Bal ti
plo y
pur pu
Ji ang
Cas ca
Op tion
Jour nals
Tre y
pres ent
pres sure
sin us
298 X
385 29
lic it
Ren fe
Sp rin
fre edom
Auto motive
Jen na
Stan is
Publi cations
á» ĳ
Den ise
Pier rot
Bon ne
UL F
ee e
C6 H4
blo ck
Sound s
Sound track
print ln
God zilla
Film staden
à½ ĸ
N2 O2
áĥ ĺ
Regi on
phi cal
EL LE
T3 B
Johan na
WO O
MM X
ENT SO
Rou ge
Mal colm
Ram say
Let ters
Has an
Chan el
Deep State
inte t
H1 N1
bb ard
lina e
second ary
vers al
Niko lai
Geo Da
pter us
Del ancy
Andrew s
ðĲŃ ª
ðĲŃ ¬
CH2 CH2
bio R
LU RE
AMO O
UK A
Kat z
Mont go
Program ming
Some thing
Tran sa
prote ins
Work ers
Classic s
Hay es
V6 B
produ ced
áº ¡
Eye finity
Tit le
DU O
Econo my
Bai Ya
VP 70
WW DC
dire ctly
super cell
Ala war
D5 D
Pur ple
eg gs
wis senschaft
Mix tape
GEN JI
constru ct
Fw 200
GDDR 3
hat tan
wri ting
wri tten
dig it
GF RIEND
Wri ting
ë° ©
ë° Ķ
see ded
Sher lock
Wer ner
Mol ly
eu ro
Rand all
Tha iland
elect ric
Edi th
neu ro
medi cine
INT ER
gener ation
Fl uo
Gate way
RAD IO
distri bution
Inf rared
Luis a
presen tative
Bour ne
Cin cin
Ess ential
ìĭ ł
Maj estic
Las er
pay load
moun tain
later al
Mee H
pass word
ìł ķ
conne ction
Carol yn
K10 77
4x 4
Theod or
Add r
ctu ring
Lol lapal
semi finals
Adi das
LMP 2
sc rum
Brow ser
thu mb
Quan tic
acti vities
Rhyth mik
proto col
Sd n
Kno ck
Lay er
Exten ded
Hori pro
Nix OS
psy cho
ê³ ł
maxi mum
Dhar ma
regu lar
Lepto dora
communi ty
Clay ton
Xa vier
mem br
respon se
Pine apple
popu lation
Chas ma
Wea pon
compu ter
Meri dian
d3 fb
Kwo k
TED x
Reco Choku
Chapel le
FAM ILY
FAI LURE
equ ation
argu ment
seg ment
PlayStatio n3
DSS SL
dru g
ìĽ Ĳ
Innova tion
viri dis
Cres cent
shir t
Geoff rey
Treat y
Aka de
MIP I
Bever ly
Combi nation
Gover nor
ð°¾ Ń
festi vities
dacty lus
Sebas tian
Encyclo pedia
Awe some
MAM AMOO
OUR s
Nata lie
MNH N
kla ani
Respon se
Doro thy
FNA B
Foun tain
develo ped
retrie ved
attribu te
Domen ico
ganis ation
PRIN CESS
Celebri ty
Hmm sim
Heri tage
Jero me
Morph XT
elonga ta
Aes pa
Anten a
Phys X
Basket ball
0x5f 3759
3GP P
KNO CK
b0 d3fb
kru puk
ë£ ¨
ëĦ Ī
Nip pon
AGEN CY
Korpi klaani
Cze ch
staur ant
Flet cher
Oze mpic
PCho me
RSer Pool
stSock Addr
Debora h
soapen v
EN1310 90
Febru ary
Lollapal ooza
0 41
0 800
1 X
2 F
2 a
2 k
2 AM
3 d
3 AM
3 MF
5 C
5 W
5 th
6 N
6 X
7 S
8 x
9 400
9 801
A 20
A bo
A ta
A per
A so
A ris
A 321
A tten
A SAP
A vant
B X
B hu
B one
B US
B RO
B UR
B link
C IN
C ran
C MC
C las
C andler
C indy
D 20
D 15
D re
D 40
D SE
D ing
D ina
D MC
D IE
D DVII
E 8
E ni
E 193
E 1000
E SO
E cc
E sti
E gg
F IT
F ool
F AIR
F HP
G 8
G BA
G ON
G run
G lyn
H Z
H 18
H 21
H PP
H wang
I OS
I da
I ER
I kon
I gor
J ared
J CI
K le
K 13
K 45
K os
K od
K UR
K 306
K 552
K 554
K 1191
L 4
L H
L er
L le
L ju
L ST
L CP
L ena
L GPL
L AMP
L IGO
M Z
M e2
M 26
M IN
M TC
M MP
M RO
M ARE
M NL
N 9
N 20
N 10
N LM
O i
O y
O ng
O st
O th
O ph
O TA
O CR
O xy
O ppen
P s
P ou
P AN
P TR
P ATH
P BMC
Q K
Q NL
R 18
R AT
R OS
R GS
R USH
S z
S ku
S mu
S ari
S BI
S alle
S oom
S word
S lov
S NOW
T 8
T 11
T 195
T ad
T NA
T ia
T ana
T AL
T LE
T LC
T HF
T ono
U 13
U se
V D
V id
V OS
V ine
V ani
V LS
V HF
V CT
V SB
V WO
W Y
W ine
W IP
W rap
W heel
X u
X M1
X ero
X R2
Y ard
Y ai
Y aman
Z 2
Z U
Z an
Z am
Z ay
Z om
a der
a mong
b 4
b run
c ers
c def
c zy
c lassic
d x
d han
e 8
e go
e dition
f ell
f ina
g ig
g all
g res
g row
g ama
g rand
g ator
h ra
h ori
i es
i tation
i tem
j am
k ou1
k amp
k ari
m 1
m be
m art
o ma
o vi
p F
p au
p ent
p ment
p ell
p Ka
p neu
r g
r st
r ori
r era
s mo
s au
s pa
s chi
t si
t va
t art
u ses
u pon
v au
v ous
w 3
w he
w ent
w aka
x ed
x pr
y g
y t
Â §
Ä Ģ
É Ķ
Ê ·
Ë ©
Ì Į
Õ ¯
× ĵ
× ł
ë į
í Į
í Ķ
í ļ
í Ĭ¸
ng os
an za
sh are
sh ina
sh ah
xi t
de b
de en
de pth
de leter
en na
ch al
ch ino
yu r
li u
li ao1
li tion
li ber
li ly
li sa
li pop
mi de
mi nis
mi ddle
bi as
er g
gu an
di m
di q
di ao3
di st
di us
di tions
we et
we hr
le en
le on
le ga
20 W
20 75
ju ris
pi te
ti llo
ti cum
bo i
bo s
su di
su ke
su bor
ku ten
ni cle
ni bus
200 km
qu anti
qu ality
lu t
cu e
cu ra
11 66
wo ng
po nd
tu na
16 A
la ke
la mp
la dium
17 G
ar c
ar ine
ar sen
30 77
13 17
25 20
ru i2
ru les
al li
th me
re q
re ka
re tro
22 70
22 76
me tric
26 C
26 13
26 000
50 Hz
27 80
27 70
ri el
ri et
ro o
ro ff
te ll
si ri
si tive
si phe
ra c
ra tio
ce e
ce t
60 M
am er
am 730
ta ch
ta ya
80 386
co w
ma ine
ma tica
ma thema
35 W
ne dain
of er
ter re
lo i
lo nger
he tero
at m
at to
at ore
es ch
37 DDK
is ch
to ng
to ld
to wer
to string
as aurus
ve ling
Ma ine
Ma je
Ma vis
Ma tho
Ma terials
Ch ia
Ch akra
ST L
In dy
55 50
Co pa
Co ming
Co pilot
II A
II B
Re fu
Re mington
na ta
na tural
br al
ci pi
ci us
ba h
ba sh
ba si
vi z
vi le
vi su
ca me
ca ble
pe ng
AT SC
ver b
ss y
ss ment
SEE D
99 99
SA 06
SA LT
SA MPA
au th
TV er
TV ING
ind a
Me ng
Me te
De b
tou cha
ber s
Mi c
Mi e
Mi u
Mi ckey
per fect
per formed
Mar ry
OS P
Al gebra
79 00
Le f
Le ad
Le mon
Le vin
Le vy
Le oni
BA RT
CO D
Sh el
Sh ari
Sh ared
AR O
Pro je
Pro xy
Pro gress
ry a
con ste
ran t
pa h
no d
no v
no ck
no vel
no tus
da al
Ar cher
Sta dio
Se c
Se o
Se xu
Se gu
Se minary
Ra kuten
va tive
lay a
Ja i
Ja de
Be en
Be er
op t
mp to
IC F
IC ER
La ter
La vi
La ger
ER ROR
Sa van
Lo g
Lo ves
Lo vely
So li
So lar
Su c
160 km
Da mi
Da cent
Da hl
Fa de
do i
rou d
ON LINE
Di v
Di sh
Di mension
Ca en
Ca val
ha w
Na v
Na mes
IP EI
AN K
Bo d
Bo he
Bo mb
one x
one se
gi es
gi cal
An nu
An tio
so lid
so triton
We iss
Si mi
Si mp
wi m
wi ni
Uni nett
Ba th
Ba ta
ki m
ki ck
com bi
com peti
ot ta
sa c
Ri p
Ri se
Ri ley
Ri chie
Play ers
He e
He li
end re
Ha le
Ha ar
Fi les
Con nell
Con tinu
Con tact
AS IL
Bu a
shi m
gra de
Ge sellschaft
Ti er
den sity
our s
fe u
EC R
BL T
BL U
pen thes
Pe oria
Pe tite
Ste ele
Ste fan
AI RI
To ni
To mas
por tivo
go th
Pi x
Pi one
Pi vot
Th ri
Th reat
gn us
gn um
RO X
RE A
Car rier
Ki osk
ani on
ani ca
CP I
UN IT
FC RAM
my Video
CN G
âĦ ķ
Lu nd
wa gon
fa ctory
pu la
pu dding
Ph os
CH IC
CH AN
TA IPEI
Ju dy
Ju lio
Qu intet
Ka f
Ka wee
ko ng
eri ni
fu el
MI MO
vo y
vo lu
SO UR
SO GO
SO FR
tes ting
LE AST
enter tainment
Gu ru
Col li
IA EA
BD M
gen s
mon de
del s
ES R
Hi to
cor dia
Open ing
HO T
Ko m
sy ste
NG T48
Go e
One Shot
07 80
Hu i
Pu lau
Ser ra
Ser ena
rea ding
World s
à¤ ¹
ger a
Bi blio
Du ck
Du ty
SP IRAL
RT L
RT SH
Bri de
Bri en
Man x2
Man hattan
vel le
Bar tholo
HE V
Per u
Har vest
ren o
Par sons
Mac OS
LO L
LO FT
Tri vi
Tri beca
Tri angle
Pre cious
PP M
ut m
min ar
ie u
MD I
Pri vat
On ce
bli nd
tra de
Gra nge
Dis tinguished
Ori ental
Vo lt
SH 2
SH AZ
stra tion
stra tus
Gen s
PO R
Che ung
Che ese
ex plo
ex change
Bla ze
mb re
ane y
SL I
SL S
tri a
ãĦ £
ãĦ Ĩ
ãĦ Ī
ãĦ ļ
Super star
ces an
Show er
SD N
Bra vo
Bra zil
pre tty
bur ne
bur ger
El mer
DD L
KP D
mar ine
Ku l
val ent
par tial
Ani mate
Her n
Her ald
Air ways
PL A
hy nch
fer t
Park s
Ve la
Hel p
It aly
dge t
cre st
Lea ve
Bro d
Bro oke
Pla tinum
Stre tch
gar is
pla in
she im
py pasta
DJ S
Ci ao
YO YO
Lou d
Mer ry
BN P
EM DR
zer os
IX P
Ang kasa
Win k
Er win
Er ror
Bat tista
spe ak
Ag ent
Tor o
Tor res
cis m
ses sion
SF 9
Val le
Whi le
Whi plash
College s
ple ss
PA X
Cla ra
Cho i
LD 50
âĸ ²
âĸ Ī
Mas a
sch ild
Dan te
Bor d
Bor ough
Res ource
Cri tical
MU SEA
Pen ang
Van cou
áĢ Ń
ìĿ Ģ
Glo be
CF L
Mini stry
Mel o
jo ng
Des ert
ART IST
cti vely
list s
Pin to
Gold man
âĳ ¤
Ji an
Hello World
Down load
Cas ting
Gro s
Pal ma
Cur rent
SHO T
Im pact
ag reement
pres ents
Die ter
CU BE
Ren o
fre y
Auto mation
Gol ds
thi cal
SV ETA
Dol ores
teri on
ab solute
Poli tics
áĥ Ķ
EL ISA
Law s
OF DM
char ya
Tou louse
Dark table
Compu te
Mill en
SIG MA
Cloud flare
Let ter
tem perature
Cou rage
Vin ce
cci o
stu dents
Anto ni
Ima gine
pra e
432 b
cat en
Line ar
stal lation
ller y
Swe dish
Sara van
Run ning
Run time
log ia
Mau su
Mau ri
ðĲŃ «
Der by
plan ned
Earth Bound
LM 12
SON G
Fal se
LU MO
Ora ng
Christo ph
Wel lington
Bern hard
LZ 78
LZ SS
sio ning
number s
Wonder land
Hard core
Apo sto
Fred rik
tour naments
Hea ther
Ale c
flo ating
Mit su
Cree pypasta
Operation s
Epi sode
bed ded
Pie ces
K2 188
poli cy
Liber al
Conne cti
RF P
Mix ed
Steven son
GEN D
shell code
program ming
Care y
Source Forge
Tal ent
micro SD
break ing
Ice Frog
ZO V
crea ted
ìĦ ľ
ìĦ ł
Hip po
xc 6
Fol der
elect ronic
Cel tic
dri ve
quali fied
quali fying
spo ns
Ave x
Emi lio
prin ciple
Maxi m
Theo do
PRE MI
deri ved
Broad casting
Wid gets
Caro lina
xe 5
lty pe
Associa te
GRE E
Lyn ch
CHO CO
Imp ro
dec ltype
Mee ting
Ada ptive
ìł Ħ
Emer gency
K10 78
Ny lon
Wol fe
sup port
Experi mental
Photo shop
Quick Time
dyna mic
LPDDR 4
Kakao Talk
foot ball
êµ ¬
Teach ers
Quad ro
MET AL
manu fa
Histori c
Wes ley
offi ce
Chamber lain
SEP TA
Ghost BSD
alpha bet
Robo Master
Navi gation
Democra tic
Exi t
PAS K
SEL ECT
Gos pel
phos phate
Wai ting
ë³ ´
Corne lis
Desk top
Environ mental
Fitz mau
JUN E
Ple dis
HOL IC
japo ni
ETC S
K230 UB
Ukra ine
Dio cesan
Brea th
Ery siphe
commit ment
7k 7k
LIM ITED
imp ro
kre is
Confe de
appe ar
Clin ton
FAC TORY
minu te
Cardi nal
EAS L
cana densis
Budd ha
Thera peu
9M 96
Miche le
Campo notus
Xin U
ë¯ ¸
Mechani cal
Sung ai
SSRI s
ð© ĸĥ
condu ctor
Choco late
Madi son
Tibet an
Giu lio
Astrono my
Bark er
ëĬ Ķ
recur se
Chel sea
Reve nge
Desi re
Seat tle
Competi tion
Orni tho
Infant ry
macula ta
Mikha il
UNIVER SE
Assault Cube
associa ted
Pren tice
labo ration
McCan n
Cim r
DAV ICHI
Jis oo
LHC b
Shara th
CRIS PR
Aless andro
Drey fuss
Pry deri
PES CO
ì¡ °
Boa dicea
Happi ness
Volun teer
usu ally
SEO UL
Stal lion
bui lt
MIY AIRI
2NE 1
TWi T
Leet Code
Wego vy
Domi nic
ROOK IES
Balti more
Montgo mery
Cincin nati
0x5f3759 df
Soom pi
subor bital
mathema tical
Matho matic
conste xpr
Pivot al
SHAZ NA
Fitzmau rice
. #
1 M
1 U
1 Sheet
2 ch
2 195
3 GB
6 Sheet
8 GB
9 300
A 0
A q
A ster
A ther
A von
A ston
A via
A lam
A ppe
B le
B IN
B AT
B ind
B ent
B ara
B ris
B old
B YO
C 18
C PS
C AI
C LE
C ory
C ME
C TE
C BM
C era
C ARD
C EDA
D w
D 19
D 10
D 14
D 21
D 23
D 51
D HT
D IVE
D ora
D oom
D IVA
D WORD
D UNB
D DoS
E 0
E bo
E 21
E ro
E ter
E dy
E nge
E QU
F 10
F MP
F MC
F ight
F NH
F UT
F 9F
F IFT
G 27
G Re
G us
G BC
G MA
G ha
G art
G CR
G ron
G lit
G LA
G DI
G wy
G mail
H 17
H 13
H 39
H AT
H EC
H AD
I 4
I e
I BA
I AS
I FC
I deo
I BF
I pomo
I HDP
J L
J V
J ana
J DS
J CT
J FK
J ASO
K ou
K ER
K ut
K TR
K ham
K itch
K ato
K har
K 1502
K 1504
K ONG
L 6
L op
L SC
L MG
L BI
L GA
L yon
L ISP
L igne
M j
M 15
M 81
M 101
M igh
M 106
M ess
M RC
M 134
M off
M ND
M AMA
N d
N 14
N il
N IS
N ED
N one
N ya
N ook
O a
O ka
O DM
O rana
P d
P am
P 90
P AM
P ani
P NG
P ino
P HS
P ump
P unch
Q LG
R TV
R ak
R UN
R ina
R gg
R FI
R APH
S f
S x
S TC
S ind
S ard
S op
S ere
S CE
S ato
S aka
S lam
T Q
T l
T ao
T ST
T 49
T ing
T UN
T EST
T MC
T WA
T 295
T wen
U d
U ra
U nd
U CS
U HT
U tili
V 13
V os
V all
V ance
V BN
V UCA
W 4
W T
W ra
W PP
W CG
X y
Z ar
Z 100
Z IM
a xi
a war
b di
b ba
b ano
b ald
c x
c ting
d g
d au
e 6
e ti
e vidence
f ill
f ton
g ari
g ler
g ral
h 2
h s
h la
h ak
h os
i 7
i ver
i kh
i mple
i Folder
j at
k yu
k ka
k ris
k VA
k ada
k iss
k owski
k nowledge
l ka
m bi
m am
n j
o ce
p D
p se
p 65
p ly
p 52
p are
p ron
q q
r uan2
r ard
r sten
s lo
s can
s ports
t ari
t res
t ank
t ford
u ve
v os
v ana
w ha
w rote
x ley
y 2
z ard
Ä °
Å £
Å ģ
Å Ĩ
Ì ĥ
Ó ı
Ö ¸
× ¦
ë ħ
í Ħ
í ŀ
ĩ ´
an thro
sh ei2
sh ol
sh ak
sh ows
sh ooting
ji t
de si
de va
de tail
en nes
en ded
ch re
ch se
uo r
yu k
yu mi
li no
li tes
mi ta
bi e3
bi llion
yi eld
gu m
di i
di te
di vi
di ers
le ton
le cted
20 m
20 45
20 44
pi es
pi llai
ti r
ti ni
ti ci
ti ano
ti tan
ti ls
ti lity
19 000
bo ld
bo tt
du ng
su ite
mo th
mo da
mo ment
mo nia
mo ved
mo vie
ku t
chu k
zi k
zi er
10 TION
00 80
lu de
cu p
cu le
cu lum
11 G
wo lf
po da
tu cky
tu cci
or tho
or ders
15 P
âĢ İ
on ne
17 C
17 E
ar oo
30 m
in cor
in flu
in stead
ge d
ge setz
24 48
al titude
st at
st os
21 10
23 70
23 45
th ou
th rin
re in
re view
re hen
re sistant
22 23
22 75
me g
me tro
me yer
me ida
26 A
26 B
50 mm
27 000
ri ous
ï¼ ³
ro le
ro sa
te ver
te tra
si ris
si ung
si fication
ra ta
ra ma
ra ine
ra ther
ra tes
se ven
se cre
100 mm
31 a
ta mi
ta gs
fo cus
ãģ ¬
ãģ ¹
co e
co ng
co ok
co sts
co pus
el an
el ding
ma gic
ma lak
ma gne
ma terial
35 C
70 31
90 A
il an
45 000
he it
he xa
36 50
et to
et os
38 50
37 M
to v
to ni
to it
to pic
TC L
as ci
ow ner
ow icz
ve a
39 86
Ma ta
Ma cau
Ch and
it ton
ST IGE
UTC 10
In dra
In stall
In stallation
64 K
be lt
Co ca
Co bra
Co bb
Co aster
Re li
Re du
Re gin
Re charge
na c
na go
ad ded
nd on
ci er
ci to
ba j
ba hn
ba sic
58 70
ca h
ca ses
pe at
pe tit
AT ED
ver ti
us ch
ing ton
ct yo
amp el
Ro c
Ro by
Ro meo
SA X
ph is
ph alo
St out
id an
Li ang
Me me
Me dium
Me mbla
De a
De af
De finition
un sortedArray
ber i
ber land
ber gen
Mi B
per gil
Mar vin
Mar ino
Mar iten
Mar sudi
54 AC
61 20
Al 2
Al di
Al la
Al ph
Al ley
Al bre
Al meida
ty pical
You tuber
Le an
Le igh
BA A
BA LL
BA SI
CO DE
Mo ments
Mo jo
Mo hd
Sh adows
Vi e
Vi be
man o
AR MA
AR IA
BS C
BS 11
Pro cessing
89 00
con tin
con text
con cent
Ne ue
120 mm
Ar go
Sta d
Sta tu
Sta cy
Sta dt
va le
va ti
ga mo
ga il
ht ar
ED E
ED 10
ED IS
ED EN
ED TA
Ja v
Ja cket
Ja bal
Ja palu
AP L
ke i
La bor
La zar
ia h
Sa lem
Sa diq
ine a
So yu
ID 4
ID O
Da erah
MA GAZ
do gs
Di xon
Ca po
ha ppy
Na sh
Na ch
Na ir
Na vis
Na var
hi p
hi ni
IP V
Bo h
Bo lt
sta g
sta sia
les ale
ho g
gi ant
An them
Pa g
Pa x
Pa ti
Pa ve
Pa tel
Pa ges
Pa chy
so ma
so ylent
all s
wi se
ll s
ll or
Ba ha
Ba sel
Ba pla
IT AL
700 00
che k
ster one
ff le
ff als
col d
col la
ot to
sa le
Ri m
Ri ta
Play house
SM C
He x
end orf
Ha D
Ha bi
Ha ger
Fi f
Fi elds
Fi delity
Con d
Con f
Con temporary
Wi es
AS HI
AS SEM
ka zo
Ti fo
sion al
ET 3
ET HER
IV AL
EN O
fe et
fe ed
EC M
MS IL
Ho hen
EP 3
EP O
HK 416
HK EY
En er
En ti
En ding
En ril
âĨ Ĺ
gin o
cro ze
Pe e
Pe ng
Ste ph
MP 35
MP 54AC
AI A
Wor m
Wor cester
ant ar
US O
US DA
ya ku
por tu
go al
Pi wi
Do min
gn y
For bes
For tune
RO G
RO AD
RO OM
AK U
Car ni
Car men
Car rie
Car rot
Ki mber
ani mal
ani mator
My space
My cena
Wil bur
âĪ ¨
CN R
Lu i
Lu ng
Au re
Ex ci
Ex ception
fa ct
fa hr
Ph yl
New castle
TO L
TO M
Ka mi
Ka le
Ka thy
MO P
CC S
vo ting
LE VEL
LE GEND
chi i
chi m
chi an
chi ch
AD K
Gu er
Gu lf
Ru i
Ru bin
Ru Pay
Ru sty
Col anto
ME MO
Sy r
Sy ner
CR YP
je k
Cu stom
09 70
BD 001
NC soft
NC BI
TE M
ze f
gen us
DC I
Ad ler
ES L
06 50
DR 2900
DA YS
HO MO
ance s
MC S
MC AS
Ke strel
Ke ffals
sy cho
sy mme
NG A
net ti
Cor k
Cor tana
IF I
Fran kie
08 30
Hu t
Hu bert
Pu sh
Ser vi
Mon th
Mon mouth
LL S
ning ham
Bi ble
RI M
RI ES
Wa h
Du l
Du ffy
SP P
SP Y
SP OT
Bri tan
Man n
Man or
San chez
Bar th
Per se
Per forming
pri or
Har lem
Har vard
GP A
GP IB
ren a
Je w
Je wel
BE L
BE AST
Nor ma
NH TV
Is sue
im mu
tra m
Gra mmar
Or z
Or bi
Or tiz
ler o
Dis cord
Tra p
Tra dos
ser va
Vo i
Vo te
CL AMP
CL RG
Game Pro
Ber k
Ber had
mas sive
IL UB
TR OS
Char ge
Char ity
Fu ller
Fu nda
Ty son
Che m
ex d4
sen su
sen se
mb s
Mc Carthy
SL M
Star r
ãĦ ¡
ãĦ ¬
ker nel
SD SS
ac cept
Bra ve
Cy ano
Cy cle
Cy world
pre si
El sie
NF T
CS V
DD G
RC T
mar anda
Mat su
Ku z
Ku ng
Ku ro
Ku lai
car o
car rier
Cl 4
par ity
UP 10TION
Ver ti
Ver sa
Ani mals
Can non
Universi tas
Her mes
Por n
IR IS
Pau line
MG M
Ben son
Ben edi
Va por
Va cation
AO G
PL M
PL EDIS
DE F
Boo th
out side
Stre pto
âĹ ¯
Ele k
Ele mentary
Ele phant
DM T
star ted
Pat terson
Chi le
Chi ck
BI RT
py r
py ro
Big ben
sso ver
WE LL
DF 11Z
Ci ties
Ci ud
ai se
gon o
YO UT
Es ch
Ce leb
Ce yx
Media Works
Mer cy
EF 58
XX XX
enti als
Fin als
GA E
Ter ror
Cha in
Jack sep
set te
set ter
Power VR
ð« ŀ
ð« ĩ´
Free form
Recor dings
Pan tai
Ken tucky
LP 1
LP 6
alo ng
Ag reement
PM R
Tor n
223 1
Bur ning
Rock ef
Dig it
Met view
B2 O3
Min er
Min as
Yu ki
NE ED
Sun OS
PE ER
Road ster
BB P
Ger tru
PA SMO
Cra sh
Pra bhak
lea ve
lea der
Eli as
Fo ng
Fo ss
fri ca
fra ction
Sen sen
win main
Plan ck
Bel gium
mor pho
Prin cipal
cent ral
Bob bito
Fun k
Van illa
Van tage
áĢ Ķ
Glo ck
iPad OS
501 D
Direct 3D
Fle ur
tha la
dro me
Sha wn
FT X
FT Island
em po
Bay er
gre es
cen te
list en
Joseph ine
PK CS
DB RS
GR AND
Mil li
CV H
CV SD
Bal an
Ji ve
Yo ng
Yo ga
Hist oria
Os kar
Lan des
JT WC
Poly dor
OT HER
Cap com
Block Buster
Gran at
HA EC
Im per
Tre es
CU BA
sig ni
Jon as
Sp ra
Cle ment
Rus sia
Mag dal
Dar by
Dar win
Jen sen
Lis sotriton
á» į
á» ĵ
Bon nie
SV D
SV X
Cir cus
teri an
Ath ena
End point
CON NECT
Bou dica
alle l
CB RE
áĥ ¡
Tan ner
some thing
mina ted
Cru el
SIG FPE
gg ia
Secre ts
Hum ph
ARM v
cla i
cla use
stu dies
stu iver
tina e
ros aurus
private ly
Cine mas
806 A
Aven tador
Multi ple
NR K
NR N
Flow ers
Ir DA
Ir win
Draw 1Sheet
Draw 6Sheet
FL Y
Pon te
Sal on
tru st
sit ta
PB P
SON IC
inv erse
Ander sen
GC MG
Simon s
Clar ence
Fal con
bio logy
Alli ed
Mari time
who le
Syn c
Water fox
Cre ation
Edu ardo
stor age
Bang kok
AW ARDS
even ts
vat ar
Pres ents
ext ent
Sand ra
True Type
hol m
tice ye
sili en
Greg or
ARE NA
Epi k
Ros si
Pie ter
Qua si
Jes sie
dire ctor
Eri ka
Chro nicle
host ed
Ax H1
Dal croze
mbo yant
IFF HS
ìĹ Ĳ
Zen ith
path ic
Wri te
ZO O
Sher ry
SY S
Brad ford
Zo e
Front Page
lik ely
Sil k
rela ted
Six TON
Ol ga
gran dis
Org ani
Org anic
hydro gen
COS MO
Buzz Feed
Fl ore
Four th
Theo logy
Active X
PRE STIGE
RAD WIM
Rob bins
Acc ent
Hg S
Isa bella
differ ences
Ess entials
Salv atore
Double Vector
Challe nger
Ev ange
Loo p
Haw kins
ìł ľ
Level 3
Ep worth
chang es
sequ ences
Plat forms
K10 23
Colo nial
Dual Sense
Berg man
Hou ston
fur t
ile en
dica ted
Mala ca
German y
Pun k
Tak es
WAN NA
Fellow ship
Lol lipop
Sna ke
Chat Secure
Fay e
Fay lan
Brow ne
JY M2
Jun ction
ë¹ ł
Nf 3
Rhyth m
bino gi
Domini on
Aero Scope
Pari bas
Vu itton
brea th
bir ds
HSD 2
Nut ri
Wan ted
â¼ Ī
Yoshi ki
Hus sein
Amb ass
Cant onese
Peri od
ëı Ħ
pie ces
communi cation
TEP70 BS
ë§ Ī
ìĨ ¡
gem bira
Scho lar
Psycho logy
mean ing
Speak toit
íĺ ¸
result s
nucle us
Kwo ng
goo gle
kat su
rote in
tele vision
PTC H1
lb f
ãĨ ¦
ê² ½
ê² Į
Piano Staff
appli cation
Elv is
mee ting
Nie der
Thin king
cyc lin
Tribu te
Treat ment
Snap dragon
quarter finals
Azi z
Cu2 O
LJ 200
Samp son
Trea sure
UTA U
acc ounts
ë¯ ¼
Rebel lion
Filip po
Monu ment
Ferr ari
Athle tic
occur red
Jing le
Korn Shell
SPO RTS
ChoCo 1
E9E9 E9
Eun os
UZ 413
eX TP
íĻ Ķ
Ans wer
zeu g
Advis ory
Stern berg
ð¨¥ Į
6LX B
Fel on
Hass an
Ln B
Nin ja
Laz are
Daw son
Kaz akh
techni que
Dinosa ur
Cun ningham
LAC NIC
SWE AT
Cata lina
cyto sis
Orien ted
McKen zie
ð«ĵ ´
Ene my
wild card
colum n
Viet nam
Cost co
conside red
Poe ms
famili es
Maggi ore
invo lve
CER N
Dend ro
NAMA NA
Martine z
Catho lic
Contro ller
AVRO TROS
sylv ania
Practi ce
appo inted
Acan tho
Plea sure
envir onment
magni tude
Delu xe
osci ence
Capp ella
expe cted
Unpa cking
Valu es
Squares pace
AW50 F
Clow n
LAG EOS
Reyn olds
LOOP ERS
Galla gher
eee N
GON ZO
MNL 48
Oppen heimer
Zom bie
Dacent rurus
Trivi um
Vancou ver
Saravan an
Connecti cut
DUNB INE
FNH TR
FIFT Y
GRe eeeN
Ipomo ea
Utili ties
íĦ °
Membla ze
Japalu ra
MAGAZ INE
Colanto nio
Ciud ad
Jacksep ticeye
Rockef eller
Prabhak aran
SixTON ES
RADWIM PS
0 300
0 260
1 V
1 mm
2 E
2 160
2 240
3 P
3 R
3 x
3 240
3 456
5 E
5 BC
7 M
8 K
8 p
A 29
A 33
A NA
A man
A AR
A ran
A ke
A mer
A EC
A go
A BM
A za
A las
A rie
A ria
A run
A fro
B Q
B q
B 20
B SA
B URN
C g
C a2
C 21
C PC
C ere
C ys
C IPS
C EPA
C tags
D op
D MV
D NCE
E 22
E ber
E ly
E ster
E PC
E den
E rin
E red
E FM
E 131
E 610
E OM
E ason
E phe
E ternal
E ileen
F Z
F e3
F TC
F us
F IF
F AO
F alk
F ECT
F WD
G D
G K
G n
G ow
G AP
G La
G AN
G our
G ARD
G wen
G iga
G INA
G HOST
H ia
H ano
H PO
H era
H als
H UT
H HL
H VC
H idden
I mi
I ts
I do
I AV
I MO
I gni
J SM
J BL
J ens
J G1
K n
K uo
K ne
K lo
K ow
K GB
K res
K ron
K ino
K DK
K eller
K RY
K auf
K DDI
K OKO
L K
L al
L um
L ed
L PC
L AS
L AD
L MD
L ump
L ange
L MT
L andy
L iga
L ARS
L eroy
M 40
M 48
M ow
M ant
M DR
N 5
N uo
N ad
N MI
N PR
N UM
N xc3
O t
O CN
O CC
O PP
O TR
O GN
O PV
O LAY
P n
P lo
P les
P are
P AA
P UB
P IX
P anda
P ATA
P elle
Q W
R b
R AL
R AI
R MB
R RA
R ally
R AIR
R ings
R elo
S 21
S IN
S 32
S II
S CO
S ke
S ana
S RS
S WF
S cul
S CHO
S warm
S plash
T 9
T 64
T IC
T all
T art
T PS
T ren
T DM
T B2
T 221
U 1
U 4
U k
U mar
U GS
U DI
U ryso
V SS
V ampi
V tuber
V IVA
W 6
W BA
W AC
W ren
W ING
W PA
W FT
W ARS
X 28
X SS
Y or
Y on
Y at
Y op
Y AO
Z T
Z 18
Z or
Z el
Z ara
Z MO
Z ie
a ti
a ku
a lu
a tive
a gen
a ffi
a bec
b st
b ada
d rou
d rin
d tor
e les
e ff
e ka
e volution
e asy
f at
f ight
f lex
g 8
g ru
g ou
g hi
g od
g eri
g rin
g lass
g aon
h 3
h h
h il
h it
h ya
h ari
h ell
h ora
h ors
h ook
h siung
i er
i Pro
i ka
i Chart
i Nat
i terator
j t
j es
j ero
k hu
k off
l eri
n ara
o e
o x
o z
o se
o lo
o mega
o mics
p 78
p ang
p 53
p ran
p las
p anda
p lica
p rene
q t
r c
r p
s ang
s eri
s low
t se
t ant
t ori
u z
u sion
u lus
u rus
u ltra
v m
w ani
y at
y ck
z en4
z ou
z ys
z aki
» º
Â ¾
Ã ·
Ä ©
Ä ķ
Ì ©
Î Ŀ
Ð ¥
Ð ¬
Õ Ģ
Ö Ĥ
â ŀ
ì ¦
í Ĩ
ï ¿
Ĭ »
sh oo
sh ore
sh oot
sh room
ji d
de la
de es
en z
en han
en code
ch ai4
ch am
ch amp
ch oose
e2 1
yo s
yo ng
hu ng
li O
li n1
li ta
li ts
li tt
li gh
li dae
li brary
li terature
mi i
mi ca
mi lian
mi zation
mi litary
mi gration
bi ni
bi us
bi um
qi r
gu ang
di ra
di ent
di vision
di cate
we t
we alth
le do
le go
le gis
20 80
20 39
20 42
20 63
pi l
pi the
pi llar
ti ge
ti fi
ti ana
ti cola
bo a
bo na
du sa
du cing
su a
su k
su cc
mo ly
mo va
ku m
lv ed
lv ille
chu an
ni u4
ni st
ni ce
ni ck
ni es
ni ger
ni gs
10 600
00 000
00 40
12 A
12 m
lu na
11 A
wo man
po und
or din
15 A
15 mm
âĢ ¡
la tive
la yout
17 173
ar te
ar os
30 M
30 78
in u
in de
in en
in no
in nova
in crea
ge low
25 W
for th
for ward
24 50
24 52
al t
al bi
21 12
23 29
23 63
th il
th ai
re k
re fu
re port
re lea
re cent
re ality
re mix
re turned
re ceptor
22 27
22 79
me sh
me er
me try
ou ts
ri bo
ï¼ ł
si as
si des
si RNA
ra e
ra ture
40 50
ãĥ ¨
ce lyn
60 Hz
se k
se la
se tup
ãģ ¥
co il
co mes
co cha
co ach
el m
el er
ma ha
ma les
ma sti
ne tic
of sky
il k
il or
lo y
he x
48 V
at on
and an
ck ley
36 80
et ter
et ano
es ar
is y
is an
is son
is che
is cher
is sues
to ok
IN SA
IN DEC
TC I
as ser
ve c
ve sic
ve ys
65 nm
Ma ys
Ch ir
Ch andra
it ter
ST P
ST OP
ST YLE
In put
In fan
In depen
In stance
SE X
SE CON
The Wrap
Co c
Co q
Co y
Co ch
Co met
Re el
Re vi
Re lay
Re ef
Re fle
Re sistance
Re quest
Re presentative
na mi
na mo
na tus
na sium
br on
nd am
ci pan
ci dae
ba b
ba te
ba ta
vi g
vi ola
ca shire
ay ette
pe er
us r
us en
oo p
Ro x
Ro sso
Ro shan
SA I
SA CR
SA GE
um an
ph ar
88 59
88 88
id ance
150 P
ind ra
ard a
Li am
Li es
Li terature
Me gan
De us
De NA
De par
De von
De vice
De light
De sig
De ploy
De Smu
ber ge
Mi st
Mi ning
per ror
Mar e
Mar ko
Mar tius
Mar vell
Mar riage
ang el
der land
Al 2O3
Al juni
Le xi
BA e
BA Co
BA FTA
ak ia
ak ov
Mo e
Mo h
Mo k
Mo ss
Sh ri
Sh ark
Sh ai
Vi m
Vi z
Vi sh
Vi per
Vi Vi
Vi meo
Vi vian
man tic
man tec
AM BA
AR Y
Jo vi
Pro di
Pro vi
Pro blem
ows ka
ry l
con su
con si
Te sta
Te lin
Ne me
Ne ill
Ne penthes
da b
da ted
600 1
120 Hz
Ar gon
Sta ck
Se ars
Se O4
Ra e
Ra h
IS I
va cy
Ga e
Ga li
Ga bor
Ga ston
ga le
ga st
nu t
nu clear
Ja me
Ja mie
Ja vier
AP R
Tu be
Tu ris
Be cause
op las
op rotein
La c
La wn
La TeX
Sa ch
Sa li
Sa ge
Sa ints
Sa uron
Lo th
Lo ad
Lo cation
Lo vers
So mer
Da tuk
Fa ct
MA I
MA S
MA NI
do d
do v
do ck
rou n
ON FM
Di on
Di st
Di os
Di sease
Ca ve
Ca be
Ca sta
Ca meo
Ca dilla
ha li
ha shi
ha ving
Na th
Na tur
hi ro
bu sh
bu ted
bu ild
pp an
IP M
Bo at
Bo ck
Bo ttom
mer u
Mu d
gi le
An ato
Pa v
Pa stel
Pa tah
Pa xton
so nville
HD L
Si k
Si u
Si ni
Si ck
Si ms
wi ya
ara i
int ra
Ba si
MV C
MV G
SS S
SS W
com mand
che y
che ng
ff ar
by r
col n
ot en
ot ri
130 J
PS L
Play station
He m
He ng
He ck
He tero
end an
Ha ku
Ha cker
ble ms
Con stitution
Wi m
AS BR
Bu ng
Bu chan
Bu ffalo
Bu dget
ka mu
Ge V
Ti e
Ti mber
Ti mur
Ti empo
den se
den cy
den burg
ther ford
Ta te
à¸ °
EC U
mm Hg
AL OUS
MS K
Ho mes
EP 1
EP IC
Ni ue
pen sion
En ough
Pe a
MP 40
US L
US NM
US PEER
go vern
ari os
Pi m
Pi geon
Th read
Th ought
Do m
Do xygen
Po or
Po pe
RO P
RE SO
Car ne
Net vi
Net Burst
Sch er
Sch wart
Ki e
No el
No body
Lin coln
My r
My TV
CP R
âĦ ĸ
Lu igi
Ex am
fa h
fa x
Ph el
ary n
CH AP
AV S
Ju bile
Qu ay
Qu art
Qu ality
Qu entin
Qu attro
Ka hn
MO V
AG T
MI U
vo or
SO P
LE S
BO B
BO R
Com bin
AD C
AD AS
IG R
cal ly
Ru les
cy te
cri me
Sy nago
Sy mantec
wit z
CR G6
105 BEVG
je e
je ong
tt ara
Cu A2
can ce
Fe at
Fe male
NC SA
350 2
ze j
des k
ES P
BM RT
ron a
Hi la
Hi RISE
Hi phop
cor porate
za e
tin us
MC 68
MC EM
gy m
Ke ys
Ke lvin
Go vern
Cor ri
Cor pus
IF 7
IF N
ner a
07 W
Pu er
Pu ll
Pu zzle
Mon et
Mon roe
Stu tt
ja ck
à¤ ²
à¤ ļ
NO R
Bi gelow
Du x
Du nge
EX TRA
Bri git
ling uis
Bar o
Bar ra
Bar cel
Bar tolo
DO HaD
04 40
Har bour
Har riet
Je wish
Mac Donald
Ed mond
RS 232
Comp anion
LO G
Nor a
cket s
TT P
Live Script
Tri al
Tri ck
Tri bun
Is le
Is mail
Pre ston
SC F
SC AND
Pri ngle
tra ction
Or th
Dis position
Dis patch
ser a
lis in
sti que
220 6
Ber gen
SH P
len ko
TR Y
TR UE
Fu ni
tor q
Gen ius
ex ha
sen hausen
Mc Eni
Eu sta
SL T
ãĦ ī
ãĦ ĭ
ãĦ į
ãĦ Ĵ
lia th
lia ble
ces sion
260 X
Wal ton
Un win
Un pretty
SD F
ac oustic
ans ara
Bra hman
tle dge
Cy thon
Cy lind
GO G
Wh irl
ï¹ Ļ
ï¹ ļ
El le
El lis
NF 1
lor d
As sist
ena me
cer tain
Ku a
Ku ru
Ku hn
Ku ala
car is
car box
Day ton
IM AP
IM ATION
eld on
UP DRS
lie se
Her riman
Por trait
Air borne
IR A
NT SC
inter pre
inter action
inter mediate
MG 45
Eng age
Ab solute
Colle ctor
Ben o
Ben ny
Va i
PL Z
hy d
work ing
work ers
H2 S
228 3
228 7
ona mi
Ve lu
Hel ene
Boo st
SQ Lite
OK B
Pla in
Pla teau
day a
Sur ve
âĹ ģ
Chris tie
Ele m
star ting
Peter son
Pat rol
py l
At lus
ai re
RA H
RA IN
HI EI
Es pa
Ce les
Ce cilia
Mer ri
Mer ced
XX I
Black well
Rich mond
clo sing
Lee la
bin ary
Power ed
Power Shot
bel ow
ð« Ĭ»
Dire ction
Ang elo
Fla t
Fla mboyant
Life style
Sam my
Pan el
bra te
Ken ya
Ken zo
Cent en
VO C
VO REAS
Alex ei
LP R
spe ctor
spe ech
Sing ing
Val ery
B2 C
VE Y
Whi stler
comp ara
vis o
vis or
Min h
Min es
bre gat
lit zer
publi que
Sun rise
mit su
pon t
Tele pathy
Cra fter
Pra tt
ise au
Good man
GT 3
O2 O
O2 a2
Ze e
Ze it
LD L
win ner
Tur ki
tho logy
Mas jid
mor pha
los copus
West minster
Bor der
Fre i
Prin s
Prin temps
234 A
Em bedded
Squ ad
Vir gil
Core y
ars ki
Institu tion
Res pawn
Han son
Vol ley
ii i
247 D
ful ness
SN MP
wid get
BF 4
Hot Cha
MU SA
run ning
Jean ne
áĢ Ĳ
ìĿ Ħ
Bank ing
Home Pod
Direct 2D
CF D
Hor ner
Hor ses
AE K
AE SA
AE ON
Comic Walker
MT B
cti o
has bro
Gold berg
à¹ Ĥ
Stra its
mark s
mark t
Long horn
Pala cio
Out put
Out standing
Ban ner
Ban que
Os aka
temp sycho
Lan cashire
Pas sive
Pas senger
fun ding
Cas ino
Sum mit
Ham mond
Op tical
Sig ns
SHO P
Rap star
Ur qu
Wat ts
Wat kins
Sp ell
fre qu
fre quency
277 X
2A 6
Cle an
SG ML
Stan ford
á» ħ
á» Ľ
cur vi
Cli ff
Cli nical
Cer ro
KO I
Oper ating
dd an
à¦ ¯
Bon us
chen kov
Bre t
Bre tt
C6 H10
trans portation
End less
God frey
PT I
à½ ¢
à½ ¼
à½ ĺ
DT D
Tro t
tr Ut
fea tures
Nico la
áĥ Ľ
pos tures
phi lus
Acade mic
F4 F
Law son
ERT Y
some times
fla t
gis che
Blu et
Mis sing
Set tle
AH H
Not ch
Pay ne
CH3 COO
LG D
USA N
Lar son
S2 N2
ques tion
Has tings
Vin ci
Communi st
OD BC
Sin clair
Who lesale
cla do
stre ngth
Christian ity
ìķ Ī
Cast el
MY M
806 B
Land s
Joe y
eno men
Eric sson
Ir ving
pter a
Cross Fire
Dyna x
FL AG
FL ASH
ðĲŃ Ń
hl berg
Nar in
Spring s
0x F
Bio graphy
Bio Ware
à® ¿
Sho al
Lam bert
Sol dier
TG F
Gun ther
By te
Rod chenkov
Common wealth
Hotel s
Hard y
Siri on
ðª »º
Mod haus
Pres ent
Tran silien
cel lu
Ale ks
flo or
Classic al
Ker ber
Express way
Dragon s
high er
ppe d
Ea ster
Eye Sight
Bun des
Bun ker
á¸ «
LX DE
Appli ed
FINAL E
Bow l
Bow den
Bow ie
pas senger
ìļ ¸
Rea der
function al
NN RTI
dire ct
dire cted
Silver man
Planet ary
sci ous
Pur suit
flow ers
thor ne
Henri k
Got ti
ilo g
Build root
Kha led
Jac que
WP ATH
Person s
Flo yd
Hop kins
Dur ham
Wit senhausen
wri ter
dig its
wel come
052 C
vas cript
MOS FET
Wer ke
Wer fer
cl oud
ìĦ ¸
Ia in
Pere ira
vari ous
there fore
Manu al
pia zza
NY C
Dick inson
Wave let
elect ron
Cel eron
MED IA
MED LARS
Deuts chen
Gau mont
spo t
INT RO
Every thing
Snow man
fig gy
tran sit
Tac tics
Bol onka
exi st
Maxi mum
Shot gun
Dam ansara
Had ley
Tang o
kee per
Nat sume
ela ta
IZ AM
Loo king
Ou est
Emer ald
Hur st
Llo bregat
provi ded
Twi ce
Dual Shock
Cau se
Hou sing
OG LE
Ul rich
JJ 20
Uta h
Lol ly
jour nals
rang le
Roth schild
gri ty
Sue z
dyna mics
ATC C
Bam bino
Kal man
3900 PV
Quar ry
Scot tish
Ast ronauts
Dir k
M9 A1
pad ding
child ren
Juli ana
Kath ryn
pf en
pf Sense
Pris m
Pari sh
Vul ture
brea thing
offi cial
SEP v3
PSY CHO
object s
Kirk land
Mand riva
PAS GT
lec tual
SEL ENE
Vocal oid
Aur ora
Pt Se2
every thing
regi onal
CF3 SO3
Cit rus
NER V
Xe on
c2 c
Corne lius
Rang ers
ë§ Į
hea vy
Intro ducing
person al
Administra tor
Butter fly
onto logy
formos anus
Mos ley
Enri co
Luci us
Cum berland
pai red
NV Me
Maz da
Inno cence
Blow fish
CES U
Ich thyo
Reco very
phra se
Sac red
Gui ded
invest ment
Bart lett
CID G
Grow th
Nes bitt
TRI BE
Zin cke
á¿ ¶
Indone sian
Sup port
Atta ck
Clau dia
fluo ro
JE ALOUS
XR ATED
restri cted
viri dae
NADP H
prof essor
Isla mic
PPT 2000
econo my
vul garis
Rubber Band
Giba chan
Deutsch land
Kamp ung
Mig os
Vari ous
Marce lo
Cami lle
ð°¾ Ħ
Aber deen
Ira q
SDP 35
Session s
ZK6 105BEVG
Ree ves
Meli ssa
Mela yu
Alter native
CRO P
Kao hsiung
vn Stat
ëĵ ľ
reli gi
Marvel ous
Scha ff
Invi sible
Gonza lez
ð¨¥ ĭ
LIT TLE
TGM 4
Wed ding
acade mic
resi dual
Chance llor
Mexi co
BAND AI
Argen tina
Schwei z
POW ER
frac D
scienti fic
DAN CE
Ela ine
Ngu y
Sed gwick
dend ron
mole cular
nap tic
astrome try
Penn sylvania
Augus tus
Cly de
Fig aro
ORO CHI
quir y
baba w
Bei jing
saf ety
Constru ction
Favori te
Clip per
Feld man
HYP ER
jd k
intel lig
Craw ford
Volks wagen
Illustra ted
Bald win
Cis co
Jel ly
aor dinary
asan as
Nether lands
Gastro dia
Satur day
Expan sion
Judi th
Guar dian
Dura torq
disco very
Eleon ora
Intelli J
ð«ĺ ©
Cros sing
Vero nica
ZC 45
Viol ence
ECMA Script
Anthropo logy
Ether net
Htt p
Qo S
terrane an
STICK ER
Ricard o
Consu mer
Consult ancy
Interval Zero
Expe dition
NORN 9
Jeffer son
LOVER S
Sprin ter
TEDx Taichung
BUR VEY
CIN ITY
FAIR Y
Lle w
íļ Į
Dami en
Antio ch
SOUR CE
Millen nium
spons or
PREMI UM
Dw ight
Ebo nics
Migh ty
TEST V
Twen ty
Install er
Albre cht
Soyu z
Fif th
Steph ens
portu nity
Phyl loscopus
Verti go
Granat e21
Gn RH
GLa DOS
Uryso hn
pran ayama
SECON D
DeSmu ME
Aljuni ed
Turis mo
MANI AC
Cadilla c
Combin ator
Barcel ona
SCAND AL
McEni ry
tempsycho sis
trUt f8
JEALOUS Y
. _
0 301
1 E
1 T
1 TV
1 TB
2 T
2 150
2 Te
2 1600
2 145
2 167
2 Sheet
3 H
3 N
3 Si
4 2000
4 Sheet
5 X
5 g
5 109
5 354
6 B
6 F
6 174
7 E
7 K
7 127
8 B
9 E
9 S
9 mm
9 M3
A mu
A ro
A ig
A um
A ly
A 53
A 51
A AI
A cri
A del
A min
A van
A ye
A sti
A kh
A xel
B H
B g
B 15
B IP
B IT
B lin
B UT
B V1
B enton
B c5
C b
C n
C 40
C ig
C AC
C CP
C line
C ie
C UP
C AMP
C Bee
C rane
D b
D j
D du
D 30
D 34
D 99
D CO
D ent
D ON
D IP
D are
D AL
D EP
D TE
D ans
D IR
D 301
D LD
D ella
D ato
D HL
D orn
D odd
D AKA
E Q
E z
E ru
E lo
E ck
E is
E ld
E MS
E mb
E ach
E VE
E rich
E nig
E ish
E ury
E valuation
F ad
F ak
F are
F 3000
F ES
F NS
F DM
G H
G Z
G IN
G um
G OS
G 63
G ER
G ore
G hi
G lan
G 03
G TS
G SL
G DM
G RA
G org
G aya
G DH
G liese
H X
H AM
H one
H ark
H CN
H AV
H BM
H ann
H itch
H oot
H aya
H ille
H JK
H COO
I J
I c
I to
I TC
I bu
I RE
I BD
I cono
J 8
J ol
J AR
K D
K he
K 48
K IN
K one
K IV
K FC
K 147
K Office
K 307
K POP
K 1625
K 1779
K hai
L B
L lu
L AM
L AR
L ON
L CH
L ING
L MF
L ISA
M e3
M 30
M 38
M 68
M um
M 1938
M IS
M CC
M 1903
M DP
M ens
M ood
M 689
M ARS
N B
N J
N 95
N EST
N SO
N igh
N TR
N NS
O A
O g
O ni
O gi
O AS
O tis
O TP
O vis
O meg
P te
P AP
P ant
P AK
P ray
P JM
Q D
Q M
Q 10
Q 16
Q UE
Q b3
Q endre
R s
R AS
R UR
R aya
R ural
S Z
S q
S 13
S 25
S 100
S per
S IC
S US
S cal
S DA
S pha
S ena
S FM
S IDE
S vet
S maranda
T 10
T 50
T os
T RE
T IA
T PP
T SC
T rom
T 129
T LP
T KK
T 2A
T KO
T WO
T FE
T AKE
T onale
T arski
U lu
U ru
U ST
U BS
U da
U ll
U TE
U CL
U sed
U ral
U GA
U Cloud
V H
V X
V IN
V ST
V IC
V ell
V SO
V TT
V CS
W op
W PS
W MO
W BO
W ank
W PT
W ARE
W AKER
W BSC
X 11
X 38
X ing
X 01
X SF
X eno
X treme
X Scale
Y 1
Y K
Y et
Y ur
Y PG
Z D
Z I
Z ig
Z ent
Z EN
Z 230
Z 216
Z 218
Z 232
Z XC
a ci
a pa
a lveo
b p
b ree
b ner
c r
d ha
e 7
e te
e MMC
f 6
f ind
f ellow
g P
g ad
g ard
g gi
g gen
i 5
i Q
i ji
i den
i sit
i lisin
j os
j son
k p
k han
k id
k ang
k ilo
k lub
l ant
m A
m ao
n k
n an1
n art
n ant
n thia
o ides
o strom
p n
p ng
p les
p tian
q an
r 8
r ha
s d
s ad
s ko
s cript
s pin
s creen
s ources
u b
v ve
v all
v ada
v esti
v ette
w ir
w au
x 0
x 4
x 5
x en
x html
y ne
y es
z l
z m
z we
z os
z art
z ka
Ã Ĩ
Ã İ
Å Ī
Å ĳ
Å ŀ
Ç İ
É ª
Ì ¥
Í ¡
Ó ĺ
× ¡
× ¢
× §
Ø ¡
Ø ¦
á Ĳ
ã ĩ
ð Ŀ
ĳ ľ
an x
sh ar
sh ma
sh kin
zh en
ji ca
xi ne
i3 2
de au
de ville
de cla
de aux
de cision
de mand
en di
en or
en ding
en sive
en bach
en coding
ch on
ch as
ch op
ch lor
ch ama
ch ella
yu u
yo ff
yo zel
hu ke
li ed
li ning
li bri
li ghts
li hood
mi sh
mi to
mi nes
bi ri
e1 0
yi m
gu t
gu ess
gu tta
di ana
di ffi
di tation
di dae
di stance
le man
le gal
20 A
20 90
20 65
20 55
20 54
20 52
20 73
20 93
ju ng
ju stice
pi er
ti en
ti ck
ti eri
ti llon
bo la
bo ss
du als
su pp
su gge
mo a
mo c
mo o
lv i
chu set
zi g
ni r
ni ak
ni tz
10 400
men sis
men ko
00 30
nv 4
12 GB
lu k
lu ca
lu nar
cu n
po ro
po rus
po phy
tu t
tu si
15 th
16 S
la wi
ar ri
ar ra
ar man
ar ina
ar gen
30 X
30 cm
in et
in ser
in dependent
in jury
ge st
25 60
25 66
25 41
25 1A
for ge
for ced
24 k
24 30
24 77
24 94
24 A1
mu st
mu si
ru r
al gebra
st am
21 30
21 st
23 90
23 96
28 60
28 52
28 800
th ouse
th ous
th orn
th ings
th resh
re c
re u
re v
re set
re ira
re ditation
22 10
26 60
50 20
ou e
ou ds
ri ni
ri us
ri ft
ï¼ «
ï¼ °
ï¼ ´
ï¼ ¶
29 K
29 60
29 38
zu s
ro bu
si do
si ana
ra z
ra mid
40 19
40 PPD
40 PPT2000
ce ler
60 km
se f
se m
se en
se as
se lin
ta v
ta xi
ta li
ta la
ta ka
ta dis
fo llo
fo lium
80 80
ãģ º
co at
co ol
co sta
co ins
co efficient
el les
ma lay
ma ble
ma tes
ma lade
70 X
70 b
ne a
ne yi
ne ck
of fic
90 B
90 75
ter minal
ãĤ ¥
ãĤ ¾
45 67
45 66
lo h
lo p
he u
48 000
at z
at re
at ry
at ric
at titude
and t
es sa
es sen
38 20
is a
is sue
to la
to pe
to pia
IN CL
TC A
TC M
as px
75 X
ow ned
ol an
ol di
ol fo
ol ph
ve j
ve in
65 000
Ma ze
Ma tis
Ma vil
Ch rono
32 KB
it an
it self
ST M
ST AND
In d
In kle
In oue
33 70
be it
be ating
SE AS
The me
Co d
Co al
Co pper
Co ordina
II PM
han i
Re st
Re con
Re lation
Re tail
Re staurant
ad on
br ought
ci c
ci st
ci um
ba k
ba tu
ba co
ba ya
vi st
58 50
ca pital
300 5
300 mm
pe g
AT K
AT ER
AT EEZ
ver si
ig er
ing er
59 X
43 12
amp li
Ro sh
Ro we
Ro of
Ro tem
99 00
SA GA
ph ono
400 3
Li ve2
Me lio
Me mph
Me adow
De i
De p
De mi
De al
De co
De mon
De cla
De leter
NA K
NA 29
NA MI
NA DH
un o
CD P
CD U
ber man
Mi mi
Mi ki
per cent
Mar u
Mar se
Mar il
Mar kus
ang ular
98 50
OS R
Al bi
Al ert
You Gov
Le ver
Le eroy
ts pur
ak an
CO UP
CO ZMO
Mo m
Mo or
Mo han
Mo ses
Mo ving
Mo bility
Mo ngo
Sh ao
Sh ay
Vi vid
Vi ckers
Vi cente
man ent
AR B
Jo celyn
Wind sor
Pro ctor
Pro sper
con ference
con cept
con ditional
con fir
Te lescope
Windows Azure
pa le
Ne i
Ne x
Ne mo
Ne gro
Ne ural
no k
no is
no ise
87 60
da vi
da hl
Sta tic
Sta ble
Se ver
Se tia
Se aso
Se lect
Ra z
Ra um
Ra id
Ra pha
IS W
IS IR
IS C2
IS DN
va i
va lier
Ga bb
ga ff
ga sus
fi ra
ED 75
ED BA
Ja g
Ja bber
AP X
Tu ring
Be a
Be u
Be we
Be ers
ent z
mp 3
mp ton
La ch
Sa e
Sa ver
Sa lus
Sa bai
Sa git
JR N
Lo ss
Lo mont
So la
So ar
So cks
ID EX
ID EA
Su zy
Da h
Da la
Da um
Fa us
Fa bian
MA DS
tic als
Di am
Di ve
Di ther
Di ary
Di dier
Di vine
Di xie
Di ctyo
Ca gay
ha sh
ha il
ha ir
ha gen
ok i
Na i
Na si
Na ga
Na dia
bu ri
bu ya
pp b
pp u
AN Z
Bo B
Bo T
Bo li
Bo la
sta ir
sta tes
sta tisti
Mu si
Mu ra
Mu rat
ho on
ho lt
gi us
An and
An ly
An hui
An cient
Pa ir
Pa pu
Pa stor
so nic
HD AY
Si S
Si mula
Si ro
Si am
Si ster
Si eg
Si gur
wi z
ara ch
Ba sh
Ba ga
SS K
IT AR
com men
com position
ali d
ali ze
ali sti
91 W
che f
che mical
che mistry
col lection
ill s
250 4
250 km
sa e
sa les
sa fe
Ri vest
PS N
Play ground
SM TM
ste o
ste el
ste ine
He im
He lico
pan i
pan zer
Ha z
Fi st
Fi at
Fi ona
ble d
Wi fe
Wi ley
Wi kia
AS HR
Bu te
shi ra
Ti x
den tal
ET ING
fe ng
Ta se
Ta co
Ta it
Ta pa
Ta blo
Ta dich
170 cm
EC G
AL P
AL PHA
Ho m
Ho le
Ho st
Ho bby
Ho ltz
Ho tspur
EP 2
Ni col
Ni shi
HK RIA
Pe gasus
Ste ward
MP Q
MP 36
AI X
To mi
To by
To ggle
To bias
ya le
por tax
go c
ari at
ari as
ari ya
Pi c
Pi cture
Pi kazo
Th ay
Do ge
Do mestic
Po ng
Po on
Po Lin
For s
RO SE
RE BOOT
pro ba
pro je
pro cedure
pro pell
Car at
Car pet
Car rano
Sch wy
Ki X
No ise
Lin es
Lin den
âĪ Ģ
FC I
ven ture
ven tures
my B
CN C
Lu ther
Lu cia
Au g
Ex pression
fa ci
fa bri
dia gram
dia meter
900 1
New port
CH P
CH S
TO ON
AV A
Ju de
Qu er
Ka p
Ka zi
And rey
MO C
ko la
ko on
fu ture
AG O
MI G
MI KU
MI RAE
SO E
LE AP
enter ed
AD M
IG S
Gu il
Gu ess
Gu est
Gu ido
Gu inea
Ru pert
Col laboration
ME ETING
Sy no
Sy ste
CR C
CR F
CR TC
CR OSS
CR 2032
CR AFT
3D M
3D O
3D CG
IA E
lan s
lan ding
lan ders
lin ary
can not
09 II
Fe ver
Fe minist
ze wski
gen ys
mon th
Ad reno
res sed
BM X
06 90
Hi ckey
Hi stoire
tel s
tel lo
DR IVE
DA B
DA F
125 cc
HO LD
tin al
MC 1R
gy ne
NG TS
Go es
Cor ona
gh ty
Hu ge
Hu ff
Hu stle
Hu bbard
Pu ff
World Cat
Mon d
Mon ter
Mon day
Mon tre
Stu mp
Stu pid
ja e
à¤ ·
à¤ ľ
LL Y
LL OW
RI R
Wa pedia
Du st
Du ff
Du bai
Du blin
RT HK
EX TASY
Man us
ling ham
San jay
Bar u
Bar nett
DO E
DO PA
Per si
Per fe
Per sian
pri ce
ds en
ds p3
Har der
Har lan
Har ald
GP 39
GP ON
GP WS
ren ts
back ward
Je al
Je ws
Mac ao
Comp ara
LO OK
Gi ao
Gi ft
Sou p
EE K
EE MO
Tri gger
Pre d
PP G
PP TC
im per
Pri mi
Gra d
Gra pe
Or phan
Or bital
Or dn
Or ganisation
Dis aster
Tra k
Tra ins
ye on
450 1
Vo gt
sti ne
Game master
220 V
Mor k
Mor an
Mor se
Mor eno
SH AFT
lla ry
Team s
Char li
Char ter
Char ts
Fu ng
UR NS
tor ia
TS R
PO E
Che f
ex er
sen ior
ten berg
Mc In
Mc Cor
Mc Lar
Eu l
Eu ph
Eu reka
SL IB
SL WT
tri p
tri fascia
ãĦ ¥
ãĦ Į
Don ovan
ces ses
David son
Wal t
Show nu
Ac er
Ac cu
Un plu
ac tually
Cy c
Cy ani
Cy press
Cy ril
Cy gnus
Cy nthia
pre y
GO TO
GO LD
GN I
GN TA
bur st
dis lav
dis cip
El lie
VA AC
AF L
As surance
DD H
cho y
210 000
tis che
Mat plotlib
Mat thias
Clu ster
Girl friend
OR IG
OR F4
val ry
ffi x
War m
UP I
UP N
Can vas
lie b
lie st
Universi dad
Por tal
Games com
IR Gs
NT P
Hol m
Hol den
Hol low
MG 74
Hen ning
Ab hi
Ab dal
HT PC
MB P
Va le
AO L
ass in
hy dra
hy brid
H2 O2
1400 1
Ali ster
TP M
ona di
High land
zo ni
tro py
Spi ca
IU M
She ffi
She ikh
Pla ying
Sur round
Peter pan
Pat ti
gar de
she v
CG S
DF A
Ci te
Ci tadis
Tech ni
ene uve
RA W
RA Y
Es cu
Es per
Ye o
Ye ung
Ce ti
phy ta
Kar in
Lou vain
Mer curi
Fin ch
Fin ally
Black burn
Black pink
bal loon
M2 A1
Rich ter
Ter rit
EM Y
Cha e
Space Ship
Dire cTV
Ang ry
Fla k
Fla vors
Win ner
stro phe
Er men
Er ne
Life time
mis m
Dream ers
Pol and
Pan ama
bra i
bra cket
Am anda
Am phi
spe c
Ag gregate
PM F
Bur ke
Bur ton
SF 31
Val entin
Fer gus
Met ra
Pop y
Pop ular
Pop Corn
Shi re
Shi elds
Yu an
Yu en
American s
ple in
BB W
BB Y
BB 84
Tele graph
Cla ir
Cla do
Pra gue
CT X
CT 270
Video LAN
PR s
Ze o
fri ends
qui st
qui sition
def ine
FF Y
Far mer
Mas k
Mas si
bar bus
off set
ViuTV six
Cal le
Cal led
oper 1
oper ating
oper ations
Fre quency
Prin ciples
Em manuel
Vol gren
Cri sis
Trans fer
Trans formation
MU CH
PH Y
Pen ta
Pen cil
áĢ ¸
áĢ Ļ
DDR 4
up per
sur vey
CF U
Hor st
Hor ney
Fle ming
AE COM
Mini mi
720 p
jo in
tha us
MT el
MT BF
Sha me
M4 A3
dra le
dra ft
fin ance
bro oke
Des cription
Green wood
FR P
Gam ers
Mana wy
Gold medalist
PK X
à¹ Ħ
á¹ ¯
Stra it
Stra uss
GR B
Inv er
à¥ Ĥ
Long man
Lau n
Lau rie
plo itation
pur pose
Ban cara
Bru sh
Dri ft
Yo on
coun ty
coun ted
coun tries
Cry pto
wer k
ben zo
2700 G
Pas ar
fun ded
fun ctions
Sum mary
TM Y2
Tom kins
Pal la
PID S
tas k
Ham za
Sof ia
Cap ture
Cap ella
Cur ve
Op us
Sig ni
VV T
ob tained
Im ma
Im mor
Tre k
CU Z
lta le
Auto desk
Mag ni
Mag na
Engine er
Dar ling
Jen nings
SG I
Publi sher
Cli ck
KO Z
sco py
à¦ ¨
à¦ °
à¦ ¾
à¦ ķ
Pier ce
Men del
STA NAG
pat rick
Book Live
BBS RAM
blo cks
ini tia
Rain es
4G 32
4G 63
fic ant
TOP 1
TOP 20
ab s
oc to
oc ci
oc ladium
sp ent
à½ ¦
Nico lae
N2 O
áĥ Ŀ
phi lic
IB RA
Mach ines
TH INK
Premi ere
Set Texture
TN X
bon ne
MON KEY
Compu tational
USA F
Lar us
Pet r
Pet ra
mod 2
Memo ir
Point man
HB V
sche mas
Mad den
Mad Life
Sw ine
bat tle
JU JU
Town send
Thun ar
ros porium
Archi ves
sk aya
Metro link
Ron nie
bes 8
Key board
oro v
512 GB
ALL Y
Mid way
stal t
Fried man
tai ning
NR B
Sti cker
Sau er
Sau ce
M1A1 HA
CI RC
Flow Back
TI SAX
Mau re
Draw 2Sheet
Draw 4Sheet
open ing
Spot light
Der ry
Der yck
Smo oth
Are va
Nar cis
Bio tech
Flor es
Sar ocladium
Mari ano
Sho pee
Light ning
Mes sa
Tel ltale
Wel lin
âĤ ĥ
Syn th
Kat rina
Gun ung
Gun nar
Than ks
Za wiya
chy roll
Mus k
stor ed
AW ARD
Kri sten
Mir za
Some times
Kon rad
NEX ON
Matthew s
Brand y
Fred dy
Pres en
Pres by
Tran si
Test Widget
Qui ett
Lor raine
mid night
514 A
CJ K
ami no
True HD
IRT F
M6 A3
Rail s
produ ce
origin ally
Cen tu
cid al
Kra ft
ome ter
âĻ ª
Ak onadi
Ana ta
Ros ali
Stro nger
Basic s
Disco ver
pas sed
ìļ ´
Carl son
P4 S3
P4 S7
Fly er
Fly me
apo ns
Laur ence
Dal ton
gia te
thor pe
Anime lo
Got ta
ìĹ ¬
ìĹ Ń
leu co
K11 77
BY U
thal er
SHOW ROOM
CAP TCHA
allo cate
dig m
path ping
sock fd
tten ham
Card s
ë° ĺ
MIT RAC
Ster eo
cl one
âģ »
âģ Ħ
ìĦ Ŀ
Here ford
Rank ing
vari ant
vari ety
cap ture
Mei ster
Manu fa
Sil ence
Cel lu
Gr p78
Len nart
dri ven
gran di
fini te
forman s
Lock heed
Ing alls
Sie vey
Emi lie
prin ce
Maxi milian
parti cipa
parti cipan
F6 F
FG 00
cour s
deri vative
Sym bian
Git hub
Mira ge
Mira cle
Davis on
varia bles
Acc ount
Acc reditation
PU FFY
PX I
Pit t
Schu l
Zu cker
differ ence
Invest ments
presen ted
Bour g
Ap ly
EB RC
Ran ch
human s
Array List
Alber ta
Ship ping
Pha il
Sant ana
Tes la
Tes ting
Woo dy
got ten
pass wd
Cow an
Hur d
Cole gio
Deli very
cry pt
Experi ment
4x 100m
Rit su
Scor ched
cir cle
cir cuit
fur ther
á¼ °
Presi dential
JJ CC
Pb R
Plu gins
nn chen
ìĺ ģ
lari ty
recor ding
Paper s
jour ney
Chat GPT
PER FECT
VIE W
four th
dyna sty
Dau ghter
Kre is
Certi fication
Break ing
Math ieu
Teach ing
Table t
Juli en
ðł µ
Conv ention
proto type
Pris ma
Roo ts
Proper ties
Compa ct
Asse ssment
EMU 3000
Abi gail
Alv ar
Joo E
Kang aroo
LI ME
cchi o
effe cts
chro matic
mong oli
atta ck
Instru ment
Speci fication
CSP N
Easy Language
Wy lie
method s
Sala zar
DAY 6
Ato m
Hindu tva
tak fir
maxi ma
near ly
vere ign
Rosen berg
ð«Ł ¶
2S 19
PAD O
pie ce
asso ciation
bul bs
Terra ce
Dum b
Grea ter
Moo dy
contra ct
Semi conductor
OPEN ING
TX N
mun di
Moham ad
Think r
Acti vision
Digi tas
Ryu JIT
instru ction
Contin uous
6K H3
Kind le
Ves pa
deli very
Bud dy
Stef ano
broad cast
Foo ds
Tum bl
STOR M
Serge ant
WEB TOON
Catalo g
Petro leum
invest ors
Effe cts
Grow ing
JW ST
Plas mo
Plas ma
Ris k
Rhi annon
ìľ ł
melan in
Mathema tical
Resi dence
inten ance
accu racy
Atta ckers
Valenti no
gorith ms
EAS Y
Scan dina
arg v
restri al
Silv io
Thera py
Spect ral
appro ach
current ly
Ming a
Span ish
Vill eneuve
quad ri
Rela tive
ANGE L
HELL O
Tribu ne
quarter final
Mechani cs
9860 G
Moto GP
Pai ge
Bag gins
Tap Tap
experi ence
morph ism
Admiral ty
FEC A
Gla dys
TAP E
glu co
ryo na
ìĥ ģ
dere lla
stanti no
STE AM
osau ria
MAO I
BEA UT
predi ction
Ging a
belie ve
Coco a
Alexand re
Massa chuset
Investi gation
Hoff man
Pow ers
holo live
Galli era
Dinosa urs
Zimmer man
kine tics
Hav ok
Mys tic
astrome tric
Augus tin
capsu le
Gentle man
deuts che
teach ing
names pace
Laf ayette
Popu lation
Egy ptian
IY I
Mino lta
PPC 1400
Whe at
Wha tever
Nep tune
plat form
Griffi ths
Boun ce
Fand om
HON IA
MARK ET
NIA ID
Re4 65
ë¶ Ģ
statis tical
Doming o
VOG UE
Groo vy
Compag nie
Aqui la
Dok 2
Drea mus
Nia gara
moder n
poten tial
Alc yone
Bulle tin
SD45 X
FORE VER
Reso lution
initiali zer
establi shed
Pharmaceu ticals
Sni per
leed si
Colu mbus
CDG VAL
Pipe Wire
Compon ents
Bram well
purpu reus
wissenschaft en
Xero x
Yaman in
Contact less
Kaf ka
Colli der
Bartholo me
caten in
Confede rate
Appe al
Gwy dion
Kitch en
awar ded
kris tinae
anthro po
Regin ald
concent ration
ASSEM BLE
Enti ty
Vapor fly
BIRT HDAY
ð«ŀ Ĺ
Gertru de
fraction ation
Imper ator
Magdal ena
Ambass ador
involve ment
GARD EN
HVC s
Igni te
NMI XX
SCHO OL
Vampi re
drou ngos
Indepen dence
Buchan an
Schwart z
Jubile e
Stutt gart
Dunge on
Brigit te
Tribun al
Cylind rosporium
Elem Type
Volley ball
frequ ently
0xF Fu
CBee bies
Eish in
Omeg A
Qendre sa
Smaranda che
ZXC 21
40PPD 2500
follo wed
Melio la
Memph is
COUP LE
Gabb ana
Cagay ake
ASHR AE
Ordn ance
McLar en
trifascia ta
Manawy ddan
Massachuset ts
0 120
0 900
0 240
1 EV
2 O
2 U
2 X
2 m
2 mm
2 113
2 156
2 WD
3 F
3 X
3 1000
3 140
3 142
4 267
4 chan
5 F
5 150
5 387
6 250
6 GB
7 B
7 x
7 2000
8 th
9 B
9 th
A w
A cu
A 14
A 23
A 22
A 35
A 500
A cro
A BO
A AD
A gen
A UT
A fra
A ppi
A mani
A mong
B h
B e2
B op
B EN
B las
B IM
B lon
B HP
B leu
B ATT
C 19
C 22
C 26
C 56
C EP
C IF
C ler
C ess
C GO
C MB
C FO
C max
D sh
D 12
D 60
D 47
D ang
D ak
D ER
D ara
D 112
D DO
D ICE
D BU
D elo
D fb
D etro
D MPK
D oodle
E K
E b
E 10
E 75
E 500
E 81
E MV
E AL
E UA
E 217
E rick
E mmy
E ras
E gge
E OKA
E cole
E manuel
F c
F 20
F 45
F 46
F FC
F LO
F 5G
F eni
F IPS
G le
G lu
G 44
G ry
G end
G EC
G AI
G CN
G wa
G AD
G ina
G LO
G ama
G AO
G TP
G off
G DT
G LAY
H J
H W
H 19
H 24
H 22
H ST
H ind
H 160
H ali
H UN
H LA
H ough
H UD
I x
I gu
I on
I si
I ber
I gle
I ren
I HM
I sid
I EPI
J 0
J 2000
J au
J PC
J eri
J CB
J ardi
J NN
J ury
K 30
K 70
K et
K es
K 75
K 32
K na
K ho
K end
K ant
K ell
K ling
K rie
K 401
K OH
K VM
K AE
K hun
K pop
K endy
K yung
L c
L us
L ly
L CO
L ER
L DA
L RT
L ori
L ans
L IPS
L ONG
L ITE
L akes
M 43
M SA
M MA
M 1918
M FC
M TP
M 256
M 310
M andy
M pc
M UNI
M MEA
N en
N al
N ST
N ing
N ara
N PN
N PD
N MT
N ATION
N DI
N REM
N c6
N DAA
O 1
O U
O de
O to
O ry
O do
O sa
O lle
O siris
P li
P si
P es
P amp
P PS
P FC
P TA
P IM
P EM
P run
P threads
P sitta
Q 7
Q A
Q Y
Q uo
Q EW
Q BZ
R 100
R CS
R KP
R PL
R LC
R PF
R KB
R iga
R IVER
R AVN
S 11
S ent
S ia
S DS
S ani
S FC
S ze
S pri
S old
S RC
S BB
S cent
S var
S HELL
S leep
T 14
T si
T SA
T 88
T SS
T sa
T ere
T eri
T ory
T 118
T ori
T RS
T UR
T PV
T als
T GA
T URN
T Enum
U 3
U e
U zi
U ne
U na
U ber
U HD
U EC
U ML
U sti
U DE
U GC
U lys
U TRAN
V ad
V ak
V SC
V FAT
V 342
V XI
W U
W 12
W et
W ow
W nd
W HI
W IND
W ILD
W edge
X en
X DR
X VII
X FR
X EB
X AML
Y as
Y ana
Y 2K
Z Y
Z er
Z ane
Z DM
Z est
Z hong
Z EDE
a 5
a mu
a si
a les
a ff
a tes
a pha
a gar
a ffe
a dult
a ello
b are
b ani
b ler
b ama
b bon
c f
c cia
c run
c ato
c sm
d F
d hi
d ani
e in
f c
f j
f n
f oun
g ary
g rea
g ans
g ments
h 1
h z
h ri
h off
h eller
i X
i el
i ck
i mer
i ling
i Homo
j 2
j r
j ad
j oo
j ant
j jar
k ku
k ran
k Pa
k ali
k wa
k ids
m M
m n
m alo
n M
n a1
n yi
n one
o cer
o ise
o micron
p ru
p am
p no
p Net
r 16
r gen
r sen
s la
s no
s ory
s ina
s pha
s cho
s kin
s qua
s crip
t n
t eng1
t pa
t rum
t orio
t cp
u f
u sh
u le
u ro
u lo
v r
v od
v ator
v aux
v Card
w ine
x l
x an
y ad
y nos
z ad
£ ¾
¨ ¼
Ã ¾
Ã ĵ
Ã ļ
Ä ¾
Ç Ķ
É Ĺ
Ê Ĭ
Ê Ĵ
Ë Ī
Ë ŀ
Î Ĺ
Î Ļ
Î ŀ
Ï ¸
Ð ©
Ð ª
Ð ®
Ñ ĺ
Ò º
Ó ©
Ô ±
Õ °
Õ ½
â »
ä Ń
ê ¶
ë ¸
ë Ķ
ì ´
í Ŀ
ð ĵ
ð ĳľ
ĭ Ĺ
Ĵ ¹
ĸ Ļ
an er
an th
an is
sh ad
sh ko
sh adow
ji san
ao u
ao ke
de p
de an
de ro
de ne
de vil
de finition
de tailed
en v
en sen
en velo
ch l
ch it
ch ak
ch os
ch ot
ch ron
ch tel
ch ance
ch ten
ch ord
ch amber
uo i
uo n
uo la
uo ri
yu ki
yo m
hu ra
li r
li mi
li ka
li ya
li mit
li chen
li fera
li minary
li braries
mi p
mi tt
mi cha
mi ning
bi ang2
bi er
bi lt
bi shi
yi sh
gu itar
di en
di et
di as
di ve
di ction
di mension
we a
we g
we ar
le k
le ng
le gs
20 58
20 41
20 85
20 74
20 71
20 386
pi co
pi ca
pi one
pi red
ti d
ti po
ti mer
ti les
ti ous
ti ally
ti dings
ti mate
ti rostris
bo lo
bo lic
bo dies
shu i
du st
du ino
su su
su nd
su red
su gar
mo lo
mo nic
mo sus
mo ud
ku lam
ku dain
zi lian
ni ch
ni ng3
ni th
ni el
ni zation
ni gli
ni nae
ni sien
10 m
10 km
10 cm
men o
men di
qu el
qu ari
qu cha
00 60
00 UTC
00 214
18 O
18 W
12 km
lu ci
cu b
cu um
cu sto
cu ria
11 F
11 600
po e
po w
po cket
po lio
or ge
or gan
15 W
âĢ Ĳ
âĢ ŀ
la sh
la pa
la nger
la mina
17 mm
ar ena
ar gs
ar tery
ar ctu
14 C
14 K
14 V
30 21
30 th
30 50
30 45
30 33
30 km
in se
in fo
in ner
in side
in fla
ge ar
ge dy
25 th
25 80
25 37
25 61
for ces
24 60
24 80
24 01
mu ta
mu zie
ru bi
ru ni
ru ne
ru ption
al f
al g
al ti
al bo
al on
al thy
al gorithm
st ella
23 000
28 000
28 3750
th row
re ga
re za
re iro
re ally
re gia
re duction
re duce
re presentation
re cv
re ported
22 M
22 30
22 66
me tt
me lla
me dian
me chani
26 62
26 03
50 M
50 34
50 km
27 60
ou sy
ri en
ri ta
ri ga
ri ble
ri ya
ri fle
29 80
zu mab
ro bo
ro of
ro tation
ro stratus
te z
te ss
te ga
te cture
si tu
si or
si mula
si da
si nia
si lon
ra j
ra x
ra ve
ra ted
40 20
40 40
40 80
40 65
40 km
lt o
ce us
ce um
60 mm
se tt
se lection
se lves
100 G
100 K
ta w
ta ur
ta do
ta tions
ta ire
ta mine
ta kes
ta mento
fo lius
80 48
80 UD
ãģ ±
ãģ ŀ
co x
co li
co ma
co nia
ma st
ma da
ma ga
ma kes
ma binogi
35 SP
70 mm
ne h
ne ut
ter ns
il do
45 GP
lo b
lo c
lo ye
lo mb
the on
he t
he st
he dge
48 78
at ti
at ri
at temp
and ar
ck a
36 10
36 40
38 70
38 66
38 D8
37 66
to ols
to ile
34 50
34 60
34 90
as er
75 mm
46 97
39 20
39 60
Ma ter
Ma it
Ma us
Ma cy
Ma bel
Ma dra
Ma xis
Ma teo
Ma til
Ch or
Ch ol
Ch oo
Ch ari
Ch ronic
32 20
it zer
ST IC
ST RO
ST REAM
UTC 12
In u
In cor
In mar
In som
33 000
64 KB
be ng
be come
be yond
SE COM
SE LEX
55 000
55 55
55 83
55 mm
55 nm
Co 3
Co t
Co at
Co ali
Co ven
Co im
Co pto
Co oli
Co tton
II S
II HF
68 14
Re c
Re za
Re sur
Re lati
Re gia
Re cei
Re lations
Re visi
Re duce
Re porter
Re illy
na ki
na ut
na issance
ad ju
ad get
ad dition
ir an
ci vil
ba la
ba it
ba shi
vi k
vi li
vi ni
vi ru
vi ol
vi ctor
vi lion
ca the
ca tho
ca vity
300 6
ay s
ay say
pe a
pe de
pe do
pe dium
AT AC
AT RE
AT EL
ver ty
ver tical
oo th
oo oo
ss om
ct OS
59 00
43 X
66 000
amp ton
Ro chester
Ro yale
SA SU
SA FE
41 A
um ann
um laut
88 A
St reaming
St G44
au ra
au thor
au reus
id on
id fran
TV 3
TV M
400 1
Li en
Li ma
Li SH
Me m
Me w
Me ad
Me adows
De ci
De ca
De velop
De lete
De cision
De mand
De kker
NA C
NA ME
NA NCE
Mi a
Mi h
Mi o
per e
per spective
Mar xi
Mar lin
Mar keting
ed o
ed ad
OS L
ï½ ¤
ly wood
BC S
Al so
Al ger
Al onso
Al gorithm
ty re
Le h
Le ng
Le ma
Le ak
Le gion
Le eds
ts on
ak on
ak ai
CO VER
CO PPA
Mo ED
Mo gh
Sh ad
Sh eri
Vi b
Vi su
Vi si
AM USE
Jo hor
Wind s
Pro 2
Pro se
Pro ven
Pro py
Pro file
Pro spect
con di
con sist
con sul
pa ges
pa pers
Ne e
Ne em
no i
no ted
no ides
da de
da tes
Ar on
Ar re
Ar med
Ar dea
Ar duino
Se u
Se CN
Se ctions
Se quo
Ra ise
Ra lik
Ra cco
Ra thaus
72 A
va c
va ble
74 A
Ga ther
ga g
fi x
fi de
fi li
fi cations
fi elds
ED NRB
Ja ques
AP E
AP DS
Tu as
Be ans
op er2
op lan
ent en
mp ur
IC RA
La x
Sa j
Sa p
Sa pi
Sa ku
Sa hi
Sa lis
Sa ins
Sa cra
Lo is
So le
So to
So ho
So Fi
ID L
Su lai
Su pper
97 70
160 cm
Da mon
Da vy
Fa w
Fa ire
MA LL
do c
do x
do mini
Di va
Di alog
Ca ge
Ca pa
Ca ctus
Ca det
Ca lvo
Ca esar
ha h
ha v
Na N
Na e
Na der
hi ppo
hi stoire
bu ch
bu dd
pp s
pp et
AN OTHER
AN IMATION
Bo g
Bo er
Bo Bo
Bo log
sta sis
sta ina
Mu k
Mu ri
Mu ang
Mu za
Mu jica
gi lis
gi ves
An di
An ny
An selin
Pa les
Pa ste
Pa dilla
so t
so on
so lar
so ap
so cio
We is
Si me
Si tes
wi k
Uni que
ll and
ara ct
ara shi
Ba in
Ba be
Ba las
Ba ins
SS O
SS 40
IT TF
com pati
700 3
ali ve
che id
col lis
ot r
250 1
250 2
Ri be
Ri ptide
PC L
PC N
PC CW
ste am
ste ps
He p
He w
He be
He lve
pan els
end on
Ha b
Ha p
Ha ji
Ha ck
Ha ir
Ha shim
Fi li
Con se
Con way
Con sig
Con crete
Con cepts
Wi e
Wi cked
Wi ckr
AS N
AS OS
AS IAN
Bu cking
ka mi
ka ze
gra ve
gra ss
Ge me
Ti to
fe y
Ta w
Ta la
Ta bor
à¸ į
à¸ Ĵ
EC A
EC C
EC W
mm ando
MS X
MS PD
MS CI
Ni sh
Ni le
Ni jisan
HK G
HK MA
En se
En han
En zo
En try
Inter nal
Inter view
Inter scope
Inter mediate
cro w
cro wd
Pe li
Pe ck
Ste iner
Ste yr
MP PE
AI AD
por n
por te
go portax
ari ans
Pi co
Pi per
Th ar
Th ia
Th eron
Do or
Do ors
Do Daum
Po po
Po inter
gn an
For k
For ty
For tis
For gotten
RO C
RE SU
pro j
pro of
pro ved
pro gres
Sch we
Sch ar
Sch ia
No on
No vi
ani an
ani el
Lin o
CP E
CP T
UN K
UN CLOS
Wil lard
âĪ ©
âĪ Ĩ
ven ess
my Shared
Lu t
Lu v
Lu ne
wa ta
Au berge
Ex p
Ex pert
Ex ynos
fa il
fa cili
pu g
pu re
pu te
pu ts
pu tation
900 2
900 X
900 00
CH E
CH F
CH IN
CH UM
CH ANGE
TA BLE
TO MOR
Qu es
Qu anti
Qu ery
Qu erini
Ka pi
Ka plan
And ro
MO U
MO BA
eri o
eri an
eri and
eri cal
eri tha
CC R
AG N
vo i
vo lt
vo ir
vo lume
SO ME
LE GO
BO O
BO MB
BO NAMANA
chi k
chi ni
Com bo
IG C
Gu d
Gu ys
Gu cci
Gu erra
Gu pta
Ru di
Ru dy
Ru therford
Col lin
Col ony
ME BOL
Sy lva
lin ski
lin alg
GB H
Cu I
ina ted
BD A
BD L
NC A
NC SC
land o
TE 120
350 3
350 4
ze k
ze ich
gen i
gen der
gen Mod
des tina
des pite
mon te
mon tan
Ad verti
del lo
ES C
ES D
06 60
Hi lton
cor relation
tel net
DR 28
Open VPN
Open Shot
za c
HO 2
HO O
HO W
MC L
Ko mp
Ko nica
Ko enig
Ke mp
Ke ling
Ke gl
sy l
NG MC
Go ku
clu sion
clu sive
Cor so
Cor sa
Cor nish
Cor rect
One Note
07 13
Hu nger
Pu litzer
Ser eno
Ser gio
World Wide
Mon k
Mon de
à¤ Ł
à¤ Ń
NO M
NO D32
LL P
109 E
DP I
las se
Bi P
Wa gam
Wa vve
Du ro
Du bois
SP L
SP M
RT T
Man di
Man ju
Man ny
San der
San cti
San asay
ML A
ML D
Bar s
DO GE
Per band
04 30
03 30
GP G
GP 35
GP GPU
back ed
Par r
Comp le
LO EN
Gi ven
Gi fford
BE WAVE
cc in
Nor folk
Nor thumb
Sou sa
Tri ni
Pre sso
Pre fect
Pre liminary
PP AR
cm d
MD 2
Pri m
Pri or
Pri vacy
van te
tra k
tra p
tra its
tra cks
tra ining
Gra ves
Or din
Or dinary
Tra ce
Tra goportax
450 8
Vo or
Vo lo
Vo lition
que bus
align as
CL DR
rin o
rin sic
IL CE
Mor ton
SH H
SH ARP
Red fin
len oph
PG W
nge i
TR AC
TR IP
Team A
Char ming
color s
Ty r
ano va
TS N
Che z
ex r
ex plor
ten sis
ten nis
Mc N
Mc Ca
Mc Coy
Mc Alister
ãĦ ¢
ãĦ Ĳ
Don t
Don nell
Don og
ess ler
Wal sh
Ac fun
Ac cident
Un known
Un toucha
ham a
ac comp
ans as
Bra id
Bra tis
Bra zilian
Cy an
Cy pri
pre su
pre ce
GO TCH
129 A
any l
any thing
dis cus
dis order
El der
NF S
Xbox 360
CS F
As pi
As pen
As sets
As sistance
As pergil
As pNet
cho ice
tis sima
Mat teo
650 9
cer y
OR Y
NS U
meri dion
Cl O4
par ent
par ticle
AB R
AB U
Ver ve
Ver dana
bri o
Ani m
Can ter
lie u
Dra per
Dra ft
Her r
Her tz
Por no
Air play
IR L
inter net
Pau la
Spe cta
MG 3
Eng adget
PV P
Ab bas
Va la
Va con
FM F
AO C
DE A
DE EN
175 cm
Web 3
Web Kit
Web VTT
H2 PO4
228 1
TP BL
TP DO
fer n
330 1
Park way
ens ki
ona te
Ve gas
UC MP
Boo king
cre di
SQ S
She pher
OK C
THE ATRE
DM 11
gar in
gar ding
pla yoff
she e
Chi en
Chi ang
BI O
py ri
gan j
Tech nica
YO HO
phy lo
phy lla
CA 6
Kar el
Mer lin
Mer cer
Mer kur
Mer tens
Mer chant
Wo z
arch y
EF I
EF 14
XX L
Fin n
Fin ley
Fin nish
bal lo
Gar ner
M2 A2
Ter minus
Jack y
bin t
IE A
STAR CHILD
Ang mar
Fla me
Win ka
stro yer
stro phic
Sam ad
ino x
Time less
Pan ther
Pan zers
bra chy
Ken yu
VO iX
A2 K
IO NA
bili tation
bili ties
Street s
Am trak
spe cta
alo gue
Bur g
Soci o
Soci ology
Rock in
Val lis
Art X
Fer ret
Pop pen
comp le
comp rehen
cra ter
Min u
Min ne
NE L
Cro a
Cro ok
PE SA
Cla ng
Cla us
Cra ft
Pra e
Pra et
PN P
CT F
Gala ctic
PR Tase
Ze phy
Richard s
Act s
Sen na
WS IS
âĸ ·
Sky lake
def ined
460 1
Bel lev
Bel eriand
FF G
FF FF
iro stris
sha ft
Cal der
Cal ling
Cal endar
Dan cer
ICO M
162 cm
Prin ciple
VR V
Gal game
CM 4
CM N
390 3
Han sen
lli ant
Fan xy
173 cm
EA SA
VM BO
Hot star
PD TC
PD MS
PH B
Pen tato
sub type
sub sequ
sub stitution
áĢ ¬
áĢ ħ
up date
nga w
Direct Draw
Lon Talk
Phil o
AE GIS
184 v
jo b
jo int
jo ined
Sha le
Sha der
M4 M
fin alist
WA APA
ONE Y
uni versity
light ning
Bay e
Master card
Br 3
Br endan
cti ves
Gam ma
Bir ch
Stra tford
DB MS
GR P
GR U
Mil wau
âĳ §
âĳ ¨
299 X
ado decahedron
Digital mind
Camp an
EV ENT
Bal lo
pur na
pur chase
FAT 12
Bru g
app end
Cry pta
Cry pton
Les son
wer n
Cat ena
UM F
long int
fun c
Cas tillo
TM Y
tas n
tas sium
Your self
Ya w
Sig fox
ob serva
ACT H
ACT ION
ag ing
Model E
Gil lis
lic ity
Sp lit
Cle m
Rus so
thi v
Mag no
C2 O4
Sc ene
Sc reaming
Dar lin
Jen son
dor cas
Cli nic
Cli max
Cli fford
Moon light
Bon n
UL B
chen ko
Bre ed
Medi care
Dol phin
teri zed
ide al
CON MEBOL
DI AM
God speed
Bou lenoph
sp lit
May be
May day
Ara tasn
DT 15
Tro pical
978 957
CB TC
CB FC
tio ning
pos si
EL IGHT
Elect rical
web mail
web site
Mis sile
âĩ ĭ
tech nic
AH Q
Gor o
York shire
Great Fire
Rou gh
cas a
posi te
posi tory
Mal m
gg ers
Hun ters
Pet ty
Cou pe
VC AM
bat ore
bat choy
stu dent
wiki media
xx xx
A3 19
GL I
GL SL
inte gral
cos mo
cos play
elo pe
like lihood
512 MB
Tay can
WI TCH
WOR K
eni um
Swe ttenham
pho nic
Hon da
Sau l
Sau di
pto p
Run ner
Mau pin
Cross wagon
Del phi
ND 4
pal li
ale m
open SUSE
Fron te
mont ana
LM H
íķ ´
Hami d
pel lier
Bio logical
Son os
à® ¤
tos aurus
phen yl
Lam ar
Tel star
UK F
VT EC
Syn dicate
Bern stein
Jer ald
Kat su
NI K
NI JI
pper s
place ment
Than h
Than n
Than agar
Arti ficial
Arti llery
Rod r
Mont pellier
Ai mer
Wonder Swan
Bang lade
Shan non
mine m
AW T
Roman o
ey es
then tic
597 c
Raw d
Brand s
Fred man
Fred die
Pres tige
ext re
case i
FAN ZA
cou rage
bla d
poly lepis
JO 1
Ker ry
Ker oro
sili cone
M6 A1
ery thro
Rail ways
Guard s
Side bottom
NU DT15
phan e
âĻ ¡
âĻ ¥
Ak sys
Ana stasia
á¸ ¤
á¸ ĩ
á¸ Ĺ
Color ed
Color ado
Cook s
Pie ce
ardi no
Mega Games
speci osa
Dor ia
super cili
MAD HOUSE
poli tical
Chrome book
Dead ly
Ann als
S3 N
eg ildo
under standing
Jaco bs
Phy si
Anime Japan
Framework Core
ìĹ Ķ
constru cted
Kha li
Kha lil
Lind say
Sr c
cam era
Care er
Fon tana
Flo or
Flo at
ð¤ £¾
ð¤ ĭĹ
ð¤ ĸĻ
Rober ta
Proto type
Dur on
Sb F5
Bran t
Bran wen
ZO OM
nda el
Language s
SY SLIB
Wer k
wind ows
ãħ Ĵ
Industri e
765 4
Fall en
GI ZA
Ia mus
Zo ster
Zo ey
ë¦ Ħ
Azu bu
Rand net
SAT ELIGHT
road s
Six th
Six ty
GG K
Hart ley
Kor but
neu f
Gene va
Lun as
Mg 2
INT Z
GP40 FH
Every day
TAI L
TAI WAN
Ey ck
Fl orian
Kam al
prin ciples
Theo logical
Kr zys
N3 O2
Xi v
sul cus
Rob son
cyclo l
Had ad
ket o
socket s
Control led
match ing
wal ker
Inf lu
song s
G6 PD
tau ght
Regu lation
END IP
GRE AT
Mn O4
TEP 60
Rd Rand
RIA J
Tas man
hor se
ìĤ °
dec adodecahedron
Map Reduce
Haw k
Nik las
Hell en
Hell sing
Woo ds
look ing
Ep stein
Emer y
Emer son
tang ulus
conv o
Cole man
Radi ation
Object s
Ass ad
Ass assin
Twi sted
VG 247
Wol ff
dol l
Fea ther
4x 100
6A 12
Hau t
Andrea Mosaic
FRE AK
Ore gon
Pun ta
Tak ara
ìĺ Ľ
Come dy
Leg ends
adi das
ëĤ ´
lear n
large st
Ae gi
Blan co
Spa in
âĴ Ī
âĴ ī
JK T48
Kris tina
hand s
Quar ter
Aar u
ë¹ Ľ
neo formans
Kath leen
sec ant
atten dees
Indi go
Conv er
Anton y
Roo mie
Vul can
design er
bir th
tig ma
pora ted
Lec turer
EMU 500
Alv arez
HSD 11B
RET URNS
Ut ama
Vali ente
reti re
Exten sions
JM ML
Nit ro
tja kudain
Belie f
oko it
Nix dorf
Amb ro
Cris tian
Cris tina
Cris tiano
fro g
ê³ ¼
ê³ Ħ
rocket s
Dash board
JUST ICE
Cit rix
Eth no
Eth ics
Eat on
LET TER
PAD I
Tem pe
Bubble Sort
Loren z
Bed ford
Duo mo
Ide k
SIL VER
inclu des
requi re
hea ven
Intro duction
Any where
language s
OPEN STEP
NSA ID
vit t
popu lar
Mos que
Rodri go
Another Days
GLP K
demo cra
null ptr
process or
Hua wei
Panzer b
Scienti sts
Gur k
db kl
physic s
Render Man
Gym no
9K37 M1
Bing el
Brew eries
E4 X
Rao ul
pun k
research ers
bacter ia
Bom bay
Serge y
Edmund s
output Area
Ole g
PTC H2
Trin ovan
á¿ ¦
ìľ ¤
bound ary
Mathema tics
Resi dent
COMP ANY
Lai ka
access or
Clau dio
appli ed
PlayStatio n2
BEC CS
CRE AT
CRE ATE
Grou pon
Scar let
ë¬ ´
woo sh
Chun soft
9M 38
Jas per
Kine ct
Pand oc
Wool lim
relation ship
Rot ary
Derived T
Acid 2
Na2 S
W3 Schools
acu tangulus
ì² ł
thin king
Holo live
Holo Lens
Ther mo
Athle tics
Ate sh
Bles sed
C79 A2
Fing ers
GAR O
ZK6 180
festi val
contain s
Bound ary
award s
ìĻ ¸
reli gion
kawas ay
Thing ol
CCC II
Advis or
java c
LTM 1500
Krish na
Retro Arch
Gonza ga
Amp elm
Hoff mann
OIC W
Q6 IX
SMA SH
gore ng
identi fication
sq rt
wx Widgets
deter mination
pomo dor
recogni ze
Mash had
Laz ada
Diver City
Schwei zer
Harmo nic
Harmo nia
Portu gal
fascia tus
C24 H
FAR Q
Kry lov
REC ALL
bbe lin
moi selle
pou los
mach ine
soci ety
Christi ans
ð«Ħ ¬
Janus z
Kinder garten
Eh ren
Gb E
Knu th
fru it
deuts ch
err ors
jum per
jum ping
pipe line
concer t
Papi llon
saf ari
CLAN NAD
Krist ang
success ful
BON ES
Egy pt
FAL ENO
Hamp ton
Kni ghts
Lak sh
ì¹ ĺ
behavi or
SER ENDIP
Arche gos
fif teen
Hob art
Myco bacterium
Bert rand
DHCP v6
Equi pment
Hora ce
Mole cular
Lapu a
Sylv ia
Civi lization
Hunting ton
journa lism
Axi os
DBR 4
MEP IS
Pse ud
ê± °
Marg are
Statis tics
Raff aello
Suzu ki
Linde gren
Guang zhou
reser ve
Erb B
Olive ira
Garage Band
AAS W
Cuo ra
Ced ric
Fos sil
FEST IVAL
Twe lve
zt of
thora x
celeb rations
Ins tinct
Instant Go
pharma co
Dete ctive
conf etti
Neigh bor
Cait lyn
Rij ndael
Parlia ment
LOT TE
Brah ma
Valen cia
numer ous
ULF 48
membr ane
Aper tium
Atten tion
Ecc le
Esti lo
whe ther
arsen okoit
Maje sty
Refu ge
visu alization
Proje kt
daal der
Sexu al
Jai me
Annu al
Simp ly
SDN 48
hynch os
Mitsu bishi
Theodo xus
PASK AU
japoni cus
Therapeu tics
Cimr man
Bind ows
FUT URE
Sf 21
STC RP
Wra th
rsten tum
scan ning
chre ck
Roby nn
Navis works
Perse phone
Voi ces
Cyano genMod
Celeb ration
frica tive
clai med
Nutri tion
Kazakh stan
Alas ka
HPO 42
Mant le
PUB G
QW ERTY
SIN AD
WAC CM4
YAO I
prene ur
inno cent
vesic le
Testa ment
Neme sis
Nath aniel
RESO NANCE
Netvi bes
Quart z
MIU 404
Synago gue
CRG6 LX
Bartolo meo
Orth optera
carbox y
Centen nial
HYPER CAR
intellig ence
Enig ma
Kone ko
iji mae
thresh old
INCL UDE
SEAS ON
APX GP
Bewe gung
Dictyo glo
MP36 PH
Tomi stoma
Schwy z
KiX tart
Stump jumper
Jeal ousy
Compara tive
Orphan age
Unplu gged
ORIG IN
Abdal lah
Sheffi eld
Angry pug
Ermen egildo
Erne sto
Presby terian
Bartholome w
Entity FrameworkCore
BATT LE
Detro it
M256 A1
Olle h
Prun us
TUR BO
Tals orian
Ulys ses
XEB EC
äŃ ı
Matil da
Inmar sat
Coali tion
Coim batore
ATEL IER
SASU KE
LiSH 7
MoED AL
Sheri ff
Sequo ia
Racco on
Sahi b
Salis bury
Sains bury
Sulai man
Muza ffar
Bucking ham
Nijisan ji
AIAD MK
RESU LT
myShared Class
TOMOR ROW
Wagam ama
Perband aran
Ordin ance
Donog hue
GOTCH ARD
Aspergil lus
AspNet Core
meridion alis
Panzers chreck
Bellev ue
Milwau kee
Digitalmind soft
Boulenoph rys
Banglade sh
Krzys ztof
# #
. %
. __
0 W
0 100
0 190
0 700
0 140
0 230
0 603
1 Q
1 m
1 MF
2 R
2 e
2 190
2 km
2 115
2 280
2 129
2 Cl
2 175
2 124
2 147
2 172
2 x2
3 k
3 m
3 250
3 114
3 116
3 H2O
3 sat
4 R
4 U
4 V
4 1000
4 250
4 122
4 192
4 234
4 298
4 388
5 S
5 m
5 DS
5 299
5 273
6 S
6 T
6 Li
6 H2O
7 201
7 mm
7 cm
7 291
8 D
8 F
8 S
8 202
8 250
8 Sheet
A ku
A si
A 40
A 37
A 34
A 75
A 64
A OS
A ID
A che
A eri
A 01
A bri
A 310
A sha
A part
A 620
A 710
A ZA
A eron
A gera
A vatar
A oki
B e3
B 11
B 27
B ia
B ani
B IA
B ES
B 01
B lus
B NT
B H2
B VE
B unch
B lum
B 612
B hat
B H4
B g4
B rink
C u4
C 23
C 28
C 99
C 61
C MO
C AA
C LO
C TS
C ane
C MG
C FA
C VE
C VM
C ilk
D zi
D 16
D 25
D 45
D AT
D 41
D 77
D 800
D ine
D 92
D IV
D DS
D IA
D 104
D ML
D rin
D ham
D MB
D TP
D UC
D HS
D 216
D yn
D 610
D habi
D IOP
E e
E u2
E 18
E cu
E 80
E 46
E us
E der
E no
E AP
E os
E IT
E ste
E go
E lin
E BD
E AA
E bert
E LO
E len
E din
E ag
E IB
E 653
E 491
E minem
F J
F Y
F 12
F 40
F ow
F ER
F ok
F ell
F lie
F SI
F ROM
F IGHT
F aun
F HM
F PX
F ido
F EVER
F IDA
F moc
F MOC
G 16
G 80
G ne
G 36
G 75
G ST
G 33
G 56
G ed
G 51
G AM
G ho
G MS
G US
G AG
G DR
G SC
G rin
G rus
G rie
G SR
G har
G lau
G ould
G lei
G LOW
G DNF
H s
H su
H 25
H 26
H 29
H 44
H 41
H BC
H BS
H ET
H AI
H ya
H ani
H CP
H irst
H ins
H ama
H ald
H ARD
I k
I p
I ri
I ly
I ke
I shi
I den
I OR
I EM
I KK
I WC
J H
J N
J y
J il
J AM
J AC
J ha
J AN
J CR
J 08
J ie
J G11
K d
K j
K yu
K ark
K IM
K ors
K 1624
K aka
K wiki
K anna
K AGE
K UNG
K 731
K 729
K okia
K V2
K 1235
K AKU
L 7
L yo
L of
L OS
L IC
L ore
L our
L ani
L ark
L Au
L IL
L PG
L UC
L BN
L IE
L VM
L ARP
M 25
M 22
M 1935
M 82
M ell
M CR
M 109
M GP
M Wh
M alo
M 586
M ERS
M onex
N yi
N 11
N TC
N oo
N ang
N OS
N ga
N IP
N DP
N 02
N XP
N WA
N V2
N NTP
N BDL
O 10
O tu
O RS
O bli
O val
O MB
O DF
O din
O tta
O steo
P 7
P 25
P um
P CD
P ly
P ED
P IC
P all
P EP
P DO
P LO
P UR
P ane
P RC
P NS
P lum
P wy
P leu
P ilo
P oul
P elli
P HEV
Q E
Q H
Q P
Q ing
Q ana
Q F1
Q F4
Q F3
Q F2
R U
R x
R BS
R ent
R ha
R IP
R oun
R DF
R MBA
R itz
R hab
R IPE
R 3078
S 20
S 12
S 14
S 39
S no
S int
S art
S ark
S ting
S cy
S ina
S RT
S LO
S que
S ona
S lip
S ene
S IE
S aya
S add
S ZA
S oso
S lav
T 20
T 16
T 100
T of
T et
T IN
T 99
T id
T BA
T ali
T ant
T FC
T res
T BM
T ron
T row
T 103
T PG
T IM
T MB
T ora
T XT
T LR
T eller
T Person
U 6
U Y
U g
U h
U u
U z
U we
U 12
U la
U FI
U yg
U mbre
V 0
V 5
V N
V f
V et
V TC
V MA
V ara
V IV
V CL
V angu
W K
W ON
W IT
W AL
W AV
W GA
W UI
W PF
W IPS
W ould
W alid
W EEK
W GBH
X 8
X ION
X BOX
Y 48
Y hy
Y von
Y EA
Y eni
Y 1B
Y AIBA
Z 8
Z S
Z W
Z on
Z ak
Z ha
Z IL
Z ona
Z 601
Z eni
Z eno
Z ono
a 0
a j
a TV
a per
a bu
a sia
a thematic
b j
b 16
b ham
b ens
b rown
b bing
c g
c ani
c enti
c yon
c inae
d A
d L
d w
d op
d ant
d ley
d din
d xe5
e ta
e ve
e mer
e ste
e vo
e IF
e ves
e blo
e xis
e SIM
f id
f les
f igh
f lying
g 0
g c
g yu
g les
g low
g lia
g los
g ado
h v
h ou
h na
h ig
h ok
h ero
i D
i j
i ti
i ter
i ak
i os
i ted
i res
i dio
i Cloud
i pes
j as
j au
j ed
k op
k ki
k ot
k cal
k bps
l h
l m
l ang1
l ly
l ana
l lus
l off
l lum
m v
m all
m nt
m anda
n z
n ao1
n th
n eri
n tv
o C
o y
o fo
o ho
o bli
o nis
o stro
o xa
o myces
p ris
p 105
p ada
p aka
p lastic
q vist
r er
r one
r hy
s ni
s na
s pp
s our
s IG
s old
s par
s aya
s cen
s wing
s wee
s aud
s pread
t sh
t ou3
t rou
t ron
u nv
u da
u ki
u ps
u tility
v 4
v 5
v d
v ro
v OIC
w r
w ra
w rong
x 50
x BF
x 001
y al
z n
z ent
z anne
¡ ł
µ Ŀ
» ¸
¿ «
Å ı
Å Ń
É ²
Ê ¿
Ê İ
Ì ¯
Ì Ĥ
Ì Ħ
Ì Ĳ
Ò £
Ò ®
Ó ¨
Ö ¼
Ø ¢
Ø ¥
Ø °
Ø º
Ù İ
Ù ĳ
Ú ¯
Û ķ
à «
á Ī
á µĿ
â Į
ã ķ
ê ´
ë ĺ
ë ¨¼
ì ¢
ì ½
í ħ
í ı
Ħ Ĥ
an j
an ji
an os
an ut
an ato
an owski
sh ka
sh own
sh tra
sh war
sh ampel
zh ang
ji ao2
ji ma
xi c
de h
de ss
de os
de ka
de stru
de vice
de posi
de gli
de kker
de stroy
de dicated
en an
en de
en en
en sic
en ess
ch lo
ch ir
ch ine
ch art
ch ess
ch aud
a4 7
yu an
yo po
yo psis
hu ang
hu da
li bo
li th
li se
li lo
li ver
li nu
li sta
li gen
li ving
li jn
mi ce
mi ck
mi les
mi nia
mi dae
mi lk
bi na
bi blio
qi an
er es
er as
er ts
e3 0
gu en
gu et
gu sta
gu eri
di k
di ta
di ol
di lay
di als
di ness
di lation
di date
di jk
we ver
we tt
le an
le co
le ben
20 70
20 67
20 69
20 43
20 57
20 78
20 61
20 62
20 89
20 94
20 km
20 385
ju re
ju mp
pi ni
pi on
pi ri
pi ck
pi RNA
pi ano
pi nes
pi xel
pi dus
pi otta
ti mo
ti be
ti guan
bo k
bo m
bo at
bo nd
bo sch
du l
du li
du ct
du nit
su f
su ma
su ka
su mm
su pply
su ffix
mo or
ku k
ku la
ku ri
lv id
chu m
chu n
zi no
zi nger
ni h
ni m
ni ni
ni ma
ni na
ni ya
ni dae
ni kova
10 K
10 mg
men ti
men tum
qu ake
00 50
18 G
18 K
12 C
12 500
lu g
lu p
cu n3
cu se
cu rus
11 D
11 th
11 500
wo und
po o
po or
po re
po ts
po che
po ds
po ses
tu me
tu ario
tu Kiss
tu shkin
or an
or ta
or ange
or hynchus
15 X
âĢ Ĵ
16 b
16 500
16 bit
la ting
la del
la cto
la mine
17 F
ar cha
ar ron
ar ms
14 300
30 40
30 60
30 99
30 87
13 B
13 500
in ette
in hibi
in sula
in frastructure
in sert
ge a
ge y
25 13
25 26
25 40
25 31
25 90
25 47
25 77
25 98
25 89
25 94
25 93
for mal
24 V
24 23
24 28
24 27
24 70
24 90
24 38
24 33
24 64
24 59
24 89
mu c
mu e
mu th
mu da
mu nt
mu tan
mu ssen
ru l
ru by
al en
al ensis
al most
st et
st ow
st ak
st ool
st ood
23 10
23 12
23 26
23 40
23 and
23 68
23 67
23 59
23 88
23 79
23 62
28 B
28 16
28 82
th it
th ana
th alle
re ason
re lev
re start
re placed
re commen
re yish
22 15
22 14
22 29
22 60
22 68
22 74
22 94
me th
me me
me ha
me ll
me ters
me chan
26 14
26 22
26 34
26 33
26 67
26 72
26 86
26 91
50 66
50 53
50 cc
27 67
27 300
27 56
27 04
ou ter
ri i
ri di
ri me
ri am
ri sing
ï¼ ¨
ï¼ Ń
29 10
29 17
29 70
29 57
29 89
29 09
zu ng
zu mi
000 4
000 6
te bor
te ller
te aux
si mu
si lo
si to
si ran
si ster
si dae
si nica
si zed
ra da
ra gamo
40 27
40 46
40 39
40 XX
40 PPP
40 PPM
ce le
ce ps
ce lla
ce cum
60 K
60 87
60 906
se h
se j
se ment
se lected
am s
100 MHz
100 Mbps
31 A
ta c
ta ti
ta chi
ta ken
ta bility
fo t
fo cu
80 K
co co
co don
co vers
el te
el man
el lus
ma di
ma ph
ma id
ma chi
35 A
35 S
35 80
35 PPT
35 PPC1400
70 27
70 47
70 km
ne eds
ne cessary
of i
of ay
90 210
ter ie
il lie
45 nm
lo th
lo ca
lo ts
lo ween
lo phus
lo wii
the t
the ca
he ard
he lia
he dra
48 10
48 50
48 639
at op
and r
and ri
and ong
ck man
ck land
ck ie
36 47
36 54
38 000
38 40
38 80
37 60
37 52
37 mm
is mo
to lu
to ck
to ol
to kas
to morrow
to nville
IN FIN
IN TEL
34 C
34 D
34 J
34 10
34 40
34 46
34 39
as co
as aki
as pect
ow itz
46 39
1990 s
ve ur
ve au
39 A
39 29
Ma gu
Ma st
Ma ga
Ma sta
Ma ka
Ma yn
Ma her
Ma lik
Ma veri
Ma thias
Ch ine
Ch eri
Ch andler
Ch ryso
Ch eney
32 10
32 15
it or
ST U
ST PM
47 000
UTC 0
UTC 6
UTC 18
In er
In tra
In ns
In fer
In Design
In dic
In spector
33 20
33 25
33 50
33 40
33 60
64 E
64 29
be am
be tes
be ach
SE DA
Co e
Co Co
Co pen
Co muni
Co stal
Co vent
49 36
68 R
Re m
Re mi
Re ar
Re ms
Re ach
Re vision
Re gis
Re verse
Re cogni
Re creation
Re peat
44 50
na ng
na tic
na ted
na tions
na ud
ad an
ad os
br ina
ir b
nd le
ci i
ci ni
ci pe
ci do
ci ted
ci ble
ci sis
ci tus
ci ones
ba ye
ba ses
ba ud
67 13
67 400
vi m
vi v
vi on
vi us
ca w
ca ge
ca val
300 2
300 4
300 PM
pe ed
pe cts
pe ptide
AT 2018
ver di
ver ts
us oo
us sa
us age
69 20
69 46
ur ban
ct yl
59 G
43 80
amp les
Ro z
Ro tt
Ro que
Ro mero
Ro tokas
SA A
ph lo
ph ali
ph ony
St amp
au e
au g
au te
au tical
au Kai
au thority
id ge
TV SH
400 M
78 P
56 17
Li ft
Li mit
Li ons
Li tera
Me SH
Me tho
Me tempsychosis
De ng
De de
De er
De la
De lay
De fi
De vo
De fy
De cca
De pot
De pth
De grees
NA IA
NA ND
un u
un de
un known
CD 2
CD 4
CD E
CD F
ber a
ber e
Mi re
Mi ley
Mi hai
Mi kul
Mi thra
Mi riam
per formance
per manent
Mar in
Mar che
Mar go
Mar wan
Mar tial
Mar tucci
der t
OS R2
ly rics
180 cm
BC 2
BC L
54 60
Al g
Al bur
Al right
Al lah
Al mere
Al ofay
tw itter
Le m
Le p
Le x
Le it
Le sta
Le ben
53 A
BA B
ak in
ak is
ak ers
CO I
CO SA
CO NT
Mo MA
Mo jang
51 10
Sh or
Sh it
Sh ing
Sh ak
Sh all
Sh out
Sh ould
Sh orts
Sh atter
Sh eldon
Vi er
Vi ki
Vi dia
Vi cky
Vi jay
Vi colo
Vi enna
Vi Salus
Vi tushkin
AM 2
AM 3
AM T
AM NH
63 20
AR 5
AR F
AR SA
AR MS
AR CH
AR PA
BS 1
BS S
Pro xi
Pro col
89 P
con y
con da
con tents
con tact
con taining
Te V
Te i
Te ik
Te ater
Te aser
95 C
pa e
pa w
pa st
pa ta
pa cito
Ne st
Ne go
Ne cessary
no le
no lo
no ver
no don
da w
da sh
da se
Ar den
Ar tur
Sta ta
Sta tus
Sta ten
AC 3
AC AD
AC 4400
AC BSP
Se le
Se al
Se ga
Se ine
Ra mos
IS RO
va e
va gin
va ting
va wong
74 U
Ga lv
Ga bin
ga ge
ga be
nu i
fi cance
ED AM
1900 C
1900 D
-- &
Ja e
Ja vascript
Ja leco
AP NIC
AP LUS
ke k
os lav
Be h
Be y
Be ur
Be ek
Be ars
Be cker
Be aver
op al
op he
op tical
op portunity
mp tion
mp el
IC TV
IC ES
800 rpm
La ce
La be
ER 7
ER E
ER I
Sa bre
Sa lve
Sa ab
Sa lim
Sa chs
Sa ilor
Lo e
Lo i
Lo la
Lo se
Lo ki
Lo ire
Lo bby
Lo pez
So on
So ma
So lari
ID W
ID RA
Su lu
Su re
Su ra
Su it
Su mas
Su tton
Su ngei
97 A
Da ft
Fa z
Fa ta
Fa ster
Fa mous
Fa tima
MA Z
MA SA
do vi
do ing
do follow
do minus
do mestic
do decadodecahedron
rou ter
96 10
Di men
Di Di
Ca O
Ca i
Ca va
Ca stro
Ca iro
Ca sual
Ca dence
ha e
ore tical
Na h
Na is
Na Cl
pp 1
IP DC
AN IME
Bo is
Bo hn
Bo dies
Bo isse
sta in
sta tions
Mu ham
Mu ller
Mu shroom
ho ma
ho wever
An ci
An no
An tar
An chor
An thology
Pa cket
Pa lette
Pa mela
Pa jero
Pa vilion
93 A
so y
so ta
so nia
so dium
so vereign
83 19
We y
We ight
We alth
We ird
Si mu
Si ra
Si va
Si mone
Si oux
Uni fied
Uni sys
ara j
ara ta
ara tus
Ba e
Ba st
Ba den
Ba tes
Ba za
Ba gan
Ba chel
Ba cillus
Ba xter
Ba qir
MV S
SS G
SS N
IT P
ki an
ki yo
ki ee
com mu
com te
ali des
che on
ff a
250 cc
sa la
sa git
art an
art on
Ri v
PS G
140 km
SM B
SM IRAL
PC M
ste ini
He il
He lio
He arts
pan o
pan ayan
end or
Ha Na
Fi or
Fi ber
Fi zz
Fi elding
ana gan
Con fi
Con nie
Con dor
Con ocy
Con soli
Wi ck
Wi fi
Wi red
Bu sta
Bu sters
shi o
shi ta
shi eld
gra do
gra duate
gra phical
Ge bel
Ge setz
Ti L
Ti le
Ti O2
ET AL
fe st
ther mo
Ta e
Ta sh
Ta pu
Ta citus
à¸ ·
à¸ ĵ
à¸ Ł
EC TS
mm s
mm VM
AL GO
Ho e
Ho i
Ho ch
Ho lt
Ho mme
Ho stel
Ho chs
Ho esch
EP G
EP DM
hn er
pen ta
pen sis
En tropy
Inter est
Inter action
Inter nationale
Pe der
Ste ps
Ste llan
Ste eles
MP AA
To i
To sh
To lo
To ts
To my
To mb
To moda
ris tic
US ION
por tional
go ng
go es
go ya
go als
go nia
ari cus
Pi z
Pi et
Pi ed
Pi cker
Pi xiv
Pi rates
Do ve
Do do
Do main
Do minus
Po ling
Po lis
Po ints
Po tato
For ster
For ensic
RO I
RO Y
DS 30M
AK M
RE G
pro fi
pro test
pro posed
pro blems
Car re
Car dio
Car lis
Car lton
Car tier
Car hart
Car anx
Sch ra
Ki ril
Ki hang
No a
ani ce
ani um
ani cal
ani mate
Lin a
Lin cecum
CP B
UN DP
Wil ly
Wil lem
Wil mot
ven er
ven ir
ven sk
my co
my self
my stery
CN Y
CN CERT
âĦ ī
Lu g
Lu z
wa fer
ting i
Au f
Au er
Au la
Au burn
Au stria
Au tono
Ex luna
fa ces
fa ith
pu h
pu ta
dia c
HR A
HR T
Ph 3
Ph ono
ary l
ary an
CH M
CH ES
CH AMP
TO E
TO U
AV IF
Ju ma
Ka c
Ka h
Ka yu
Ka zu
Ka za
Ka was
John s
And ra
ding o
ding ton
ko mo
ko me
fu nda
fu nds
CC M
AG G
AG I
EST YLE
vo et
SO L
LE A
BO 3
BO K
BO DY
BBC 1
BBC 2
Com te
AD R
Gu ng
Gu ber
Gu ate
Gu itar
Gu ndam
Ru mi
Ru ger
Ru mor
Ru bies
cy an
IST A
ME SA
ME GA
Sy lla
Sy mbo
Sy rian
wit sch
CR P
CR Y
CR 223
CR H1
lan dia
je m
tt ore
ree ve
Cu lt
Cu A1
Cu usoo
can oni
ina le
Fe in
NC S
TE AC
TE G6
cha p
ze m
ze ta
DC B
DC G
DC MU
des cription
Ad ditional
ES G
ES WC
Hi ro
Hi tachi
DR 1000
DR 2850
DA Q
Open SSL
HO WA
HO OD
Micro DVD
Ko z
Ko to
Ko hn
Ko baco
Ke ane
Ke ep
Ke SPA
net z
yle ss
Go th
Go mes
Go Fund
Go mez
Go thic
Cor porate
IF UL
Fran c
Fran ca
One Man
gh en
gh ters
Face lift
Hu nd
Hu ay
Hu ene
Hu xley
Pu tt
Ser en
Ser ve
Ser bian
Mon tr
Mon aster
Stu dents
à¤ ¡
à¤ ¬
NO x
LL A
ning en
ning ton
DP D
DP U
las ti
AA AS
Bi sh
Bi el
Bi bli
Bi F5
Bi oscience
Bi auKai
Wa ver
Wa Wa
Du g
Du dley
SP 2
SP AC
SP QR
RT F
EX 1
EX OD
EX PRESS
Bri tt
Bri est
Man sion
Man sur
ML RS
ori us
ori bada
Bar ri
Bar low
Love joy
DO CK
HE AD
tain er
M1 E3
Har um
GP RS
CE A
CE UM
ren s
Mac world
Mac quari
RS C
Comp ression
Comp lexi
LO ST
LO BE
LO CK
LO CAL
LO COS
Gi les
Gi uli
BE LS
Nor vir
Nor theast
Live strong
Sou theast
EE A
Tri cho
Tri stan
Is k
Pre view
Pre pare
im perial
ut f
SC B
SC V
van o
On Game
tra cker
tra ditional
Gra e
Gra s
Gra dy
Gra duate
Or tega
Or lando
Dis s
Dis crete
Tra cing
ye h
ye ast
Gre gg
Vo ith
sti ca
align ment
220 5
Ber en
Ber na
Ber nie
Ber tol
mas si
IL C
IL S
Mor al
Mor timer
SH Y48
len s
lla ma
nge al
stri ke
stra ct
ero v
ero sion
Char le
Ty p
tor a
ano x
ano arata
Gen der
Gen era
PO CO
Che ers
Che uk
ex a
ex pan
ex tinction
sen a
mb sa
ten ay
Mc Wh
Mc Il
Mc Lean
ane se
SL R
tri al
ãĦ İ
Super man
Super massive
Don a
era ble
sto v
sto mus
sto sterone
Wal tz
ker t
HC 000
Un certain
-. -
Bra dy
pre mier
ï¹ ¦
bur ge
bur gi
dis color
dis covered
El lington
320 5
CS R
CS IS
AF F
ny an
ny der
cho le
mar ck
mar ina
mar ried
mar keting
2500 00
let ti
let ters
155 cm
ins pe
ins ky
650 2
Clu be
cer os
OR F3
nes see
Ku sh
NS B
NS SA
Cl F3
val ley
Day e
All music
ffi c
War wick
War saw
par is
par ents
sel s
380 V
Ver de
Ver tical
Ver tex
Ani mage
Coun tach
Por ts
NT 855
time dia
inter val
inter view
inter media
Hol loway
Pau linus
Ab bott
sed gwick
Colle ctive
Ben dige
Va j
Va cuum
critic ism
PL D
DE V
DE 10
DE AD
DE BUT
Blo gger
Web ber
Ali son
TP E
TP F
330 5
330 8
Ve ge
Ve st
Ve ter
High ness
zo ng
UC 200
wan na
165 cm
Lea ch
Lea ding
Bro ck
SQ RT
She a
She d
She in
Pla ins
159 24
Stre lka
Up link
Up grade
NET 88
Pat ch
Pat ro
pla ces
pla cing
play ers
Chi c
Chi valry
py plot
DJ Max
CG A
CG V
At l
At ari
Ci tation
225 6
225 9
gon osaurus
133 90
National soci
RA e
nia cki
HI RE
YO MU
Es tu
Es capi
Ye h
Ye on
Ce line
Ce lia
FO RT
phy si
Kar aoke
Wo O
EF F
enti re
Fin lay
Fin land
bal t
bal ance
vin yl
Gar land
Gar nett
M2 c
UT M
clo ck
ora te
Cha pp
Cha ins
ada lu
STAR DOM
Fla mm
Fla vor
Free DOS
Free view
Win 7
Win FX
Win ners
vs kaya
Sam son
Py r
Pol la
Pol ska
ah l
ood oo
bra u
Ken ney
Ken zie
Cent ra
face d
IO 3
IO NAL
HS RP
Am pex
Bat ch
PM 10
rie i
Bur gh
Bur berry
Tru man
Soci alism
Soci edad
850 XP
tal ent
cher che
mat ter
SF R
Fer mi
Fer ragamo
Met z
Met ron
Pop pin
Pop teen
VE GF
Whi stle
comp ar
comp art
comp aris
comp ression
Shi buya
Pad ma
Pad ova
cra zy
cra ssi
vis a
vis m
bre w
BR AS
BR SMG
LT PO
NE WAY
Sun set
Cro ssover
PE I
ple xus
mit ter
M3 29
BB VA
wood s
wood pe
Ger n
LA U
LA BELS
Jose p
Cla pton
Cra ven
Cra dle
CT I
Tour s
Cho ir
lea f
lea ves
Fo to
PR N
Ze m
Ze us
Ze lten
218 1
Act ress
LD AP
Sen sa
Sen sation
qui ck
Boy er
Tur f
Tur k
Tur quo
FF F
Mas chin
zz ari
MBC Game
sha ped
rich ardi
Cal y
Cal la
Cal gary
163 cm
AMD 64
ICO N
Bor go
Gal ton
data bases
Res pect
Res cue
BU MP
Han dels
Han uman
cent re
cent ri
lli no
Fan cy
Fan ny
Fan disc
Vol c
Cri st
Cri sto
EA ST
EA EC
EA STS
tian us
use ful
PH Proxy
Sco losaurus
183 cm
Van essa
num py
tia ting
zon tal
áĢ ±
áĢ ķ
ìĿ Į
up set
tz en
Hor ton
Hor net
GE ON
zy me
Cam tok
Mel bourne
Sha de
Sha po
Sha ck
Sha dilay
River a
dra les
fin der
338 8
SR G
SR M
em bed
YG QK
ban de
Gener ator
Des pacito
Phi ladel
Green wich
Br ent
hun ting
FR B
Ven i
680 1
Pin ko
Bir kin
Bir ken
ston es
Stra w
Stra in
Stra ight
Dy ke
Mil o
Mil ne
logi st
logi que
Inv ic
Inv erse
MW C
âĳ ¥
Long ipes
East on
Out fit
Ten nessee
EV S
Lau ghter
Bal main
Bal listic
Ban ana
Ji mi
Dri ll
app s
app ly
coun cil
Cry pt
ul se
wer fer
chel ly
Cat cher
Frank furt
Blue Sky
CW C
CW nd
Under standing
HL SL
Lan caster
Pas ser
Sum ling
TM Z
kar man
anti qu
Poly Gram
Poly hedra
Poly vinyl
Your s
Sor row
Cur t
Cur rents
Dani sh
Kh or
ich thys
Im port
Im peria
Die u
Die voet
vy llama
sig nature
251 M
277 E
Cle ments
Gol gi
hr ma
thi ra
C2 B
Now a
Nu ll
Nu tt
VI BE
Publi sh
á» ¥
á» ģ
á» ĭ
cur r
cur ry
cur sor
cur vyllama
Cli fton
KO REA
à¦ ·
ress on
Bon es
Men u
SV L
Maria DB
pat ti
pat terns
aly st
Book Tok
C6 H12
SB P
nor mali
Medi na
Beau mont
Beau monde
Gri m
teri or
Clo ver
Clo ser
End s
Ly ceum
Ly dekker
hel le
CON TA
Victor inox
Louis a
God d
ab c
oc cu
oc ity
Poli tico
Bou chard
PT L
à½ ²
à½ º
à½ ĳ
à½ ĵ
à½ ł
Ara g
Ara bia
DT MB
DL 6
N2 O5
áĥ ®
áĥ ł
pos ture
INN IT
EL 61
Sm 2O3
tre at
TH X
TH ING
Tan ya
Tan jong
Alice Soft
Ami ty
fla vi
Cos mos
Elect ron
Blu ff
Mis sis
Oli vi
Tou gh
pher al
cono tus
Gor dy
Gor illa
MM R
Mur ders
const ant
Ah l
MON TER
Rou x
Daniel s
Cru sa
Mal one
Ram sey
fore ign
ques tions
AU TO
257 Fm
CAN YON
Vin cen
Communi qu
Town s
cla thrin
Ima ging
Archi ve
Tar n
Tar du
Tar sier
Ari zona
GL AM
cat l
cat ch
rat ory
cos aurus
Christ ophe
Philip pine
Philip pines
VPN Filter
Cast ell
bb TV
Secret Game
Secret ariat
Aven ida
Land kreis
WI LL
para meter
para digm
endo cytosis
499 P
Stage State
Crea tivity
eni k
Niko lay
TW T
Sub ject
Sub marine
Geo graphy
Hon orable
Sti g
Sti r
house work
Distri k
CI b
Ir Simple
TI MS
pter y
Mau ro
Draw 8Sheet
Church ill
SW U
Kir mani
hard t
tru th
Design er
Neo Geo
HER 2
VER SE
LF 106
Smo king
SON GS
inv esti
íķ ©
íķ Ļ
mate x
Family Mart
Ander sson
Bad ger
C4 H8
Dun lop
Nar od
0x 0
Bio logy
Son ne
à® ®
à® °
à® ļ
bio tics
bio logical
Flor al
Hit ler
Sar as
Mari us
Kit anoarata
Wel fare
zzo li
media ted
Water ford
Cre ator
Hal loween
Jer zy
Sol diers
Ash ton
Tol liver
UD X
Za ck
Rod gers
Rose crest
bow l
stor m
Bang umi
Var ric
But ler
Edge worth
Kri vas
spi ra
spi racy
Mai den
Roman ia
Roman ian
Some body
Bil lie
Pass port
ðª ¿«
Week end
AST M
Brand tau
Pres er
Tran sition
Lor ds
Rol ler
vor bis
cula ta
cula ted
CSS 3
Kel le
Kel ley
Spiri tual
AGE IA
EO EO
Mit ra
Mit tel
V6 X
hol ders
Dro sera
aro ma
produ cts
UNG ER
áº §
Health care
Wild life
Kra mer
NU TS
Wood ward
Anna belle
Anna purna
Bun ny
hal t
Color ful
Epi sco
Epi logue
cta id
HOME S
Bow en
Rad wa
gas se
pas se
Mega store
CAR 816
Dor is
P4 S6
P4 S5
P4 S10
super cilio
team Lab
team liquid
Mah mud
Mah moud
Concer n
Fly nn
Vis count
poli tics
auto matic
Ann un
Fede rico
Hand book
Anti l
Anti virus
oli ni
leu pr
leu conotus
Stri pes
DREAM S
Gon na
Lind sey
Say s
program me
Fon te
Fon taine
Kur naz
Pr int
Sus sex
eng ra
sum mer
Feli Ca
Feli cia
Forever more
SHOW CASE
D3 FB
GDDR 4
Tal ks
ð¤ Ĵ¹
dea f
allo wed
Proto ste
Hat ch
Jet Quay
Wit ness
path way
sock len
Fanta sia
Fanta gio
Echo es
GF DL
ë° ķ
rai sed
Tig ers
WH ITE
âģ ¿
multi ple
SAN JI
ARP ANET
ANG ER
Hip poly
Frances ca
Mission ary
Bau d
Bau me
Fall s
vari ance
teen th
Inte grity
Mei sho
Mei jer
Mei tuKiss
UF LL
fil er
ante us
EY E
Yi p
lat ti
Edi son
Edi tions
Gr ind
Hil da
Len non
Ol sen
TD MA
zzi ni
ãİ ľ
ê° Ĳ
Org ano
Pink villa
Gau l
HY DE
Mg O
Tr uoi
Ts z
Ts ang
Ts vet
archi tecture
teau neuf
Rev ue
Motor s
Motor sport
Window Long
GP40 P
COS MOS
Zero Net
sil ent
project s
Bol lywood
Ey ed
Oly mpi
Sang h
range ment
Make Finally
Lei sure
Brook lyn
sort Array
PRE SEN
Xi ao
ð¡ ĵ
sul fa
nig ri
arma tus
graph s
Sym phonic
Broad way
Broad cast
NAT IONAL
PRI d
PRI x
sho ck
distri bu
oul ou
Mira max
Acc oun
Bak ar
Gas co
Pit ts
your Name
member s
Made moiselle
kee ping
Docu ment
Whit tle
ìĭ Ŀ
music al
Mate us
END LESS
A320 neo
D4 Y2
Ini tiali
Kun tur
Lyn x
XM 29
Guy ton
Imp ulse
Iron s
Loo mis
WB G
pay s
dec tes
Mee bo
exe cu
A9 VG
FOR CE
Ou ter
Tes sella
Woo kiee
Wei shampel
Ep sode
Kis ses
VL PO
VL BI
áŀ ĵ
ìŀ ¥
Malay sian
SEN WELL
Deli ca
Radi ant
Mul timedia
structure d
Jar vis
dol lars
Photo graphy
Bli zz
Cau cus
Zh ao
uint 64
vet t
local host
Lite OS
SO3 F
849 22
FRE SH
FRE ESTYLE
GU TS
WAN T
dez vous
CDK 1
Prote ctaid
ðĲ° ĥ
Bis marck
Ec chi
Fellow s
jour nal
à¨ °
à¨ ¹
à¨ ¾
ëĤ ł
ì§ ģ
wee ks
Andr zej
Empi res
Clear love
Ae gon
Blan k
PER FOR
RG SS
âĴ Ĭ
ISH ING
Lab VIEW
Silicon era
LPDDR 3
Dau ghters
Kris tin
Mall ory
VCR 1
VCR 2
VCR 3
VCR 4
did n
cep ted
foot print
cogni tive
pul se
Andre i
Brow ning
Indie gogo
Capi t
Example Class
Quad rangle
Kath arine
acti vity
acti vated
UG H
UH ECR
Vil lar
ðł ¡ł
reg ard
Cover age
Dai wa
Thorn ton
Hoo ver
call s
moni tor
offi cer
Bul let
Bul mers
wave let
Friend ly
Friend ship
Kirk patrick
4B 40
Agu st
Bes ar
HSD 1
Joo mbas
Kno x
Vor tex
ðĴ Ģ
chro mis
reti no
atta cks
Instru mentation
Marco ni
Exten sion
hypo thesis
Spark ling
Mand arin
Sul pi
Synthe tic
CRH380 BL
Rho des
lur ring
FU BAR
Io T
LET E
Pseudo monas
Rin poche
ë³ Ģ
leh re
bul ous
Opti vision
Fitz roy
SIL ENT
fai lure
Kee ping
Parti do
hof er
tti r
Cop land
Need less
Luci fer
Compi le
Acti vity
SUMM IT
Rodri gues
Bron ze
IK EA
instru mental
Lion el
Wea ther
Fen cing
FAD H2
Pot ter
PAO K
Sla sh
Tun nel
pth read
ì¤ Ģ
íĺ Ħ
gui lty
selen ocy
Mang k
commit tee
EVER GLOW
Gym nasium
Laborat ories
Developer s
goo se
ê· ľ
sexu ality
coordina te
continu e
Bapti st
orien ted
appe ared
AAC SB
FRS L
Illi nois
MN DAA
Nou velle
Plas tic
Rhi zo
Scu d
Scu mmVM
achie ve
equi valent
Mathema tica
Marti ll
COMP LETE
MP5 K
Expo sure
Him mel
Franco is
img 1
accu mulator
appli cations
TZ M
arg c
allow s
allow ing
Innova tive
Meh di
Alle gro
Share Point
Teng ine
Armen ian
docu mented
TOG ETHER
Gul den
Spect rum
appro xi
FRI END
Jas mine
Kine tic
L129 A2
Pand ora
PAG ER
íĥ ľ
radi ko
STAF OC
Rot aract
Bac kup
cyc lic
Snap chat
Alu ba
ILL USION
NW SL
Vari ety
jang ga
COB IT
Ther mal
Combi ned
Monu ments
12747 3530
12747 2363
Swiss port
Ate ker
AQU APLUS
Bles sing
Bona parte
Equ ality
Ere gion
PON Y
Rau hut
ð© »¸
modu lus
contain ed
Sebas ti
Bot anical
Excel sior
Electro nica
Property Group
Esta tes
Esta dio
JAS DF
Om ni
Ola ru
Pf P
Tsing hua
Zach ary
clas sification
hoo p
ëĵ ¤
food panda
loa ded
64BM 2
chei lus
Hae un
KPL GT
Peters burg
Alexand ria
Honor ary
Aya se
D3D TSS
Tetra gonosaurus
iv ora
ë© Ģ
recogni tion
Sey mour
Fabri ce
Novel s
Gott fried
Gott lieb
Dod ge
Lens Crafter
MAP ATS
Ngu yen
Oz ploitation
Rous se
aver age
bbe an
bill board
ndy lus
Alb ans
Mys ore
UNIVER SAL
Phar matex
Hung ama
McKen na
Whis per
Bloo ming
Nicole lis
Coup ang
capsu les
Indiana polis
Buo n
bao bab
Inspi ration
Joa quin
Divi nity
Pom pe
cluster ing
Frie deri
operation al
____ __
cauda tus
Favori tes
Ame lia
B0 D3FB
Dad dy
Dus k
Fli ckr
Kni fe
Ligh ting
Nol an
Naka yoshi
Ptero dactylus
Rena issance
Tow ers
kho v
trun cated
deci ded
Remote Access
Diet rich
Entre z
mbas sy
Else vier
Survi val
Survi vor
Lyco des
Ao arashi
Bren da
Dat sun
Fand ango
JES C
Ow ens
Sven ska
Slee ping
rema ins
rema ining
phil oso
Beli nda
Diff usion
intro duction
intro duced
Tool bar
Appro pri
Appro ach
Hutch ison
Bian ca
Haru to
Flexi ty
Compag nia
Monitor ing
Confedera cy
BRE AK
Cron os
Crun ch
Crun chyroll
IH SA
Pers pe
Tamp a
administra tion
Mara thon
Statis tical
Sequ ence
Kiri lenko
corona virus
Invent ory
Sketch pad
indivi duals
Alta ir
Dres den
Ef nisien
RING ER
Sne aker
Wyn n
bha va
ð¢ ĦĤ
liter al
Arro wiz
Rapi ds
APFS DS
Lago on
doctor al
Dimi tri
Nic col
Interna zi
Audit ory
NORT H
organization s
Fernan dez
Vander bilt
Casca dia
sinus oid
Aso bi
Grun der
Kod ak
KUR AKI
Sku ll
Wheel er
grow ing
hori zontal
lily pond
cee dings
Mete or
Deb bie
competi tion
Pix ar
Thri ller
CHAN NEL
Duck worth
LOFT ER
POR TABLE
Wink ler
Aposto lic
manufa cturing
BYO B
Ero de
Edy ta
Moff at
Sx S
Sind ar
Ud ara
detail s
metro politan
malak os
Vibe ology
IDO LiSH7
Navar ro
antar cti
chich te
Britan nica
immu no
Kuz ne
Benedi ct
Balan cer
signi ficant
Eber hard
Hano ver
Imi tation
Kow loon
LMD h
Nuo va
OPP O
Pn P
Pelle tier
RAIR IA
jt L
âŀ Ĭ
ì¦ Ī
íĨ ¨
ligh ting
pithe cus
relea sed
Coch rane
SACR A
consi sts
Jame son
Dist Belief
Bung ie
MP40 PH
Phel ps
linguis tics
Funi mation
Velu pillai
RAH MAN
curvi rostratus
Bluet ooth
Settle ment
scious ness
Jacque line
9M3 17
AAI B
Hone st
Hille berg
M68 A1
NSO F
Nigh ting
QUE EN
Xing u
alveo laris
iQ IYI
sugge sted
atry gon
Matis off
Decla ration
Marse ille
Maril yn
Rapha el
Sae ed
Socks Cap
statisti cians
Papu a
Helico pter
propell ant
koon j
Montre al
Abhi yan
hydra ulic
Mercuri o
Territ ory
Imma culate
SetTexture StageState
CIRC US
Narcis sus
participan ts
ðłµ ĩ
Alvar ado
Tumbl r
Plasmo dium
Scandina vian
Minga Yo
BEAUT IFUL
Ginga MingaYo
Blon de
Gwa wl
Ix tat
Isi dor
Igle sia
Isid ore
Svar ga
envelo pe
45GP 802
Chronic les
Co3 O4
Mogh ra
Proven ce
Saku rai
budd ha
Bolog na
volt age
Goku be
WorldWide Web
explor ation
McN ally
Dont nod
Untoucha ble
Canter bury
Woz niacki
Minu tes
Baye sian
DIAM OND
NIJI SANJI
Khali fa
Trinovan tum
CREAT IVE
pomodor osa
Blus ens
Elin or
Edin burgh
Fido Net
KAKU YOMU
LVM H
Pwy ll
Rhab do
Sene ca
Uyg hur
Vangu ard
Zeni Max
Zono phone
exis ting
vOIC e
ëĺ Ĳ
linu x
tiguan odon
summ ary
23and Me
relev ant
tebor gs
40PPP 2500
40PPM 2500
35PPT 1000
Copen hagen
Rems cheid
AC4400 CW
vawong sir
Boisse vain
sagit tirostris
ALGO L
Stellan tis
Tomoda chi
Carlis le
Carhart t
Kihang ire
CHES HIRE
Guate mala
CR223 LD
GoFund Me
OneMan Live
Monaster y
EXOD US
OnGame Net
sedgwick ii
Bendige idfran
Nationalsoci alisti
Escapi st
comparis ons
Turquo ise
Maschin en
Philadel phia
MONTER EY
Krivas oo
Brandtau cher
supercilio sus
PRESEN TS
Tessella tion
Wookiee pedia
selenocy steine
LensCrafter s
0 201
0 180
0 360
0 124
0 146
0 243
1 F
1 1898
1 A2
2 b
2 x
2 201
2 197
2 Se
2 170
2 101
2 104
2 109
2 CE
2 102
2 SH
2 136
2 116
2 152
2 177
2 179
3 T
3 a
3 201
3 150
3 Com
3 BM
3 104
3 109
3 128
3 173
3 184
3 346
3 245
3 295
4 L
4 N
4 Y
4 150
4 km
4 116
4 155
4 152
4 279
4 257
4 Gamer
5 M
5 P
5 T
5 b
5 240
5 cm
5 260
5 270
5 204
6 C
6 V
6 f
6 198
6 240
6 229
6 152
6 1508
7 F
7 106
7 662
8 cm
8 260
9 D
9 192
9 394
A pi
A 25
A 31
A ci
A ca
A pe
A ph
A 89
A shi
A AV
A pt
A Open
A 220
A WE
A ino
A 340
A mor
A kin
A mos
A ida
A cross
A mour
A loe
A wak
A bove
A 400M
B m
B 13
B TC
B II
B ly
B rou
B end
B GB
B res
B ess
B ower
B ake
B PD
B HL
B HER
B KT
B lee
B ison
B HM
B litz
C 0
C w
C ao
C 200
C 10
C 25
C 35
C 70
C and
C II
C ad
C NA
C 51
C ED
C IV
C ya
C fa
C GP
C SC
C 02
C MD
C TR
C ten
C GN
C VA
C AB
C TP
C INE
C ray
C rich
C ato
C tr
C 939
C TSB
D h
D 13
D 46
D 33
D 58
D 57
D os
D 83
D art
D AS
D EN
D MP
D CC
D ja
D ama
D ene
D UT
D rie
D 209
D war
D 940
D asy
D WAN
D ISM
D reaming
D CCC
D rink
D enai
D 3205
E g
E xu
E po
E 60
E el
E 36
E ur
E BC
E do
E 92
E lis
E MB
E LC
E rie
E 235
E than
E UM
E HOME
E wing
E KF
E ffici
E tika
E thical
E ttore
F et
F es
F um
F AP
F SM
F res
F IM
F ake
F INE
F RA
F SF
F WA
F SV
F EL
F m3
F GF
F elli
F lix
F UCK
F natic
F inale
G m
G w
G 15
G 13
G ou
G 60
G is
G 32
G 76
G HR
G SO
G GP
G SH
G her
G 351
G hat
G iron
G lest
H j
H yo
H 30
H 23
H ra
H et
H 42
H SA
H AC
H ok
H ara
H PC
H ers
H wa
H UA
H IM
H INE
H Br
H QS
H MOS
H lav
H uss
H ONEY
I bi
I er
I tu
I ru
I ss
I AC
I gn
I ps
I AG
I chi
I RS
I nge
I HF
I ves
I nger
I mple
I ssa
I ARC
I MAG
I owa
I veys
J 31
J it
J ang
J BC
J US
J SC
J PL
J OK
J BB
J FE
J SAT
J asons
J ANET
J SFX
J 2329
J yuu
K 0
K Q
K g
K ed
K BC
K eri
K ina
K DA
K line
K DP
K 102
K ake
K ora
K not
K 231
K anda
K 309
K 588
K 666
K 586
K ERS
K 1264
K ARA
K 779
K IDS
K Turtle
K ansas
L b
L p
L t
L w
L i2
L uo
L IP
L ill
L DP
L DO
L 115
L TP
L F1
L eno
L NER
M 11
M 17
M 36
M 37
M St
M 61
M 51
M 1951
M SS
M 1934
M ight
M 117
M GO
M ena
M ild
M ald
M UB
M FA
M 231
M anda
M 249
M ATA
M STA
M iga
M yung
M zc
N 7
N b
N a3
N 22
N 29
N 36
N 38
N is
N us
N ur
N 43
N ed
N ok
N 82
N MV
N go
N ari
N CP
N III
N DC
N DR
N SP
N MD
N ye
N IM
N ass
N YP
N ona
N PCI
N JC
N adal
N xc6
N xe5
O ku
O 11
O nd
O ba
O ss
O SA
O no
O IS
O ster
O FC
O ps
O tt
O MC
O ren
O stra
O HC
O CA
O LT
O LD
O OP
O cci
O chs
O dys
O hashi
O rona
P Y
P 30
P 21
P TV
P ty
P 63
P fi
P MA
P IP
P IT
P DV
P MP
P MI
P III
P IA
P HO
P IF
P RS
P ye
P VA
P FM
P Es
P ange
P 226
P UD
P ARC
P APA
P roud
Q G
Q V
Q 20
Q in
Q CJ
Q Widget
Q NX
Q atar
R 15
R IS
R SM
R EP
R MP
R ory
R DC
R DA
R NS
R ake
R ada
R ida
R D1
R LX
R SO2
R DDL
S 0
S j
S le
S 60
S 35
S es
S vi
S Mi
S nu
S ill
S end
S cro
S CC
S LE
S enter
S NG
S ower
S IR
S ens
S BR
S win
S hur
S CDMA
S later
S IDS
S JK
S erie
S gr
S tings
S FCS
S pread
S wern
S oribada
S nyder
T 0
T z
T ji
T 13
T zu
T 65
T ir
T us
T one
T 81
T ara
T SM
T ris
T 05
T IG
T BD
T 01
T DA
T 08
T SH
T 116
T PO
T bit
T 270
T ama
T BN
T DK
T GS
T anda
T UM
T 277
T NM
T aki
T alia
T ULF
U 8
U O
U U
[...]
