#version: 0.2
n g
i 4
a n
s h
z h
ng 1
j i
u 4
ng 2
Ġ Ġ
i 2
a o
x i
ng 4
an 2
i 3
i 1
d e
u 3
an 4
e 4
e n
c h
u o
u 2
ng 3
an 1
e 2
a i4
u 1
ĠĠ Ġ
o ng1
a 1
ã Ģ
sh i4
e i4
ao 4
i an2
a 4
y u
a ng1
y o
an 3
n 1
h u
a ng4
n ian2
en 2
l i
a ng3
e ng2
uo 4
uo 2
w ei4
m i
ao 3
z ai4
ãĢ ģ
b i
q i
a ng2
e 1
h e2
y i
e ng1
zh ong1
e r
b u4
o u4
a 3
e 3
n 4
sh i2
d i4
g uo2
a i2
u i4
r en2
ao 1
x u
y i1
n 2
o ng2
y u2
g u
l i4
zh i4
d i
w e
en 4
ch eng2
o ng4
y i4
g ong1
ji 2
e ng4
en 1
yu e4
yo u3
yu an2
d a4
a 2
l e
j i4
2 0
y i3
j u
a i1
p i
xi an4
o u1
ji a1
s i1
xi ng2
e i3
t i
y u3
ji 1
t a1
r i4
zh i1
h ou4
l i3
o u3
a i3
we i2
hu i4
d ao4
1 9
o ng3
q i2
u an2
zh eng4
mi ng2
xi 1
ao 2
ji an4
xu e2
ch u1
g e4
z uo4
uo 1
sh eng1
d ui4
yo u2
uo 3
q u1
sh ang4
en 3
de 2
b ei4
sh i3
zh u
zh an4
n 3
xi n1
ju n1
er 3
sh e4
r en4
f a1
w u4
bi ng4
k e4
er 2
l u4
d ai4
zh u3
y i2
sh u4
j u4
ji n4
z i4
yi n1
f u4
f ang1
ji ng1
n an2
hu a4
zh ou1
pi ng2
xi a4
l ai2
yo ng4
gu an1
t ong2
y u4
ãĢ ĭ
ãĢ Ĭ
f a3
zh u4
m ei3
Â ·
ji an1
b o
h uo4
b en3
xi ang1
zh i2
d ong4
xi ang4
mi n2
zh e4
ji ang1
q i1
f en1
sh ou3
q uan2
w en2
y an2
s uo3
ji ao4
q ian2
di an4
t e4
d uo1
z ui4
k ai1
ji e2
l ian2
zh i3
x i4
k e3
e ng3
e i1
d an4
m u4
y e4
d u4
f u2
sh u
m a3
y e3
d ong1
qi u2
b ei3
ãĢ Į
ãĢ į
g ao1
y a4
o u2
d u
ji e1
u n2
mi an4
h ai3
zh ang3
sh i1
ji n1
c i3
n ei4
s ai4
s an1
t ai2
g e2
xi ng4
g uo4
20 1
de ng3
y ao4
ch e1
c i4
s u
m o
r u4
w u3
g ai1
k u
di ng4
ch ang2
bi ao3
l a1
t i3
g ong4
ji e4
sh ou4
d ao3
sh an1
ch ang3
s i4
l v
z e2
t i2
k e1
d ang1
n eng2
er 4
w ai4
e i2
ch u
d an1
q i3
z i
k ou3
xi ao3
z u3
b a1
ju e2
li n2
li u2
n i
sh eng3
yi ng1
l an2
b i3
l uo2
t ong1
20 0
zh ong4
zh e3
sh u3
ti an1
zh en4
zh ong3
li e4
q i4
ch eng1
sh u1
yu an4
b ao3
t ai4
f u3
f eng1
m i3
qi ng1
sh en1
w ang2
yu n4
gu an3
f ei1
ji u4
g u3
li ang3
c eng2
m ei2
1 0
f en4
h ao4
y an3
we i3
z ong3
xu an3
xi ao4
d a2
n a4
li ang4
bo 1
z u2
ji ng4
b ao4
n i2
w u2
t ong3
hu a2
ji ao1
yu e1
yi ng3
bi an4
xi ng1
s u4
shu i3
y ang2
m en
b ao1
g e1
bo 2
c an1
c ong2
di an3
r u2
b an4
b i4
bi an1
w ang3
q u3
ch an3
s e4
z i1
q u
0 0
ch uan2
n v
sh eng4
r an2
t u2
zh ang1
x u4
p u3
g ai3
g ang3
nv 3
li ng4
l uo4
yo u4
t ou2
h u4
ch a2
c e4
ch i2
1 8
lv 4
qi an1
l i2
d ou1
1 2
zh eng1
k uo4
sh a1
l u
d ang3
f an3
g ou4
l ei4
x i2
ji ng3
t uan2
we i1
xi e1
li ng3
l ong2
gu i1
xi an1
r ong2
hu ang2
xi ang3
b an1
ji u3
yi ng4
m en2
sh ang1
sh en2
20 2
b an3
k a3
c u
m u3
ji n3
f u1
j u3
mo 2
gu ang3
c i2
sh uo1
qi ng2
zh an3
h ai2
zhu ang1
mo 4
c ai2
ji 3
d u2
1 1
pi n3
ti ng2
ch ao2
yi ng2
w o
ti ao2
p o
ji an3
t ang2
hu i2
du an4
ch en2
g en1
m i4
w an4
p ai2
w an1
z ao4
h ang2
w an2
bi ao1
l un2
19 9
xi e2
ji ang3
h an4
j u2
f an4
f ang2
h uo2
g u4
h an2
k ong1
ti e3
m eng2
bi e2
w u1
ji e3
zhu an1
yi n3
x u1
zh en1
ji a4
bi ng1
mi ng4
li ng2
h ong2
qi n1
z i3
lu n4
t u
o r
xi n4
ch u4
s u1
xi u1
ch u3
z ong1
1 5
h u2
qu e4
xi ao1
zh ao4
qi ang2
q u4
cu n1
ch ong2
pi an4
ji u1
f ang4
su i2
sh ou1
g eng4
â Ģ
gu ang1
j u1
ji a3
chu ang4
d i2
zhu an3
1 6
g uo3
xu n4
m an4
p ai4
f ei4
p ei4
19 8
d a3
t uo1
xu an1
ch u2
b ai2
l a
o n
zh u1
d u1
t u3
di ao4
xi a2
li u4
1 7
s ui4
hu i1
ti ng1
qi e3
t a3
qi ao2
h a1
g an3
z eng1
xi an3
m ai4
hu an2
x u3
w a3
tu i1
w en4
ch ao1
t ian2
b ai3
c ai3
li ang2
y a2
s a4
a r
b ai4
c un2
ji ao3
sh ao3
y an4
zhu ang4
d i3
h uo3
le i2
1 4
ji ang4
chu an1
yi n4
z ao3
yo ng3
s i3
de ng1
3 0
zhu n3
l e4
xu n2
n uo4
hu an4
s ong4
g ao4
l u3
1 3
19 4
b ang1
lv 3
y ang4
h en3
q un2
zh eng3
gu an4
po 4
g ang1
wo 3
19 7
hu a1
le i1
h ao3
t ao2
ku ang4
p i1
du n4
n ong2
g ei3
s ai1
shu ang1
li an4
ku ai4
i n
d i1
p an4
xi e3
19 5
k ao3
g ai4
h e4
h ei1
w ang4
li ao4
r e4
g e
z uo3
k ong4
19 6
y ang1
ch ang4
yi n2
r eng2
s en1
b ei1
l u2
pi ao4
y a1
k u4
2 5
bi n1
âĢ Ķ
r ang4
ch ong1
l ou2
b u3
l ao3
zh u2
ju n4
y ang3
r ui4
y ao1
xi an2
xi e4
ni an4
f or
yo u1
t an2
k ang1
p i2
h eng2
yu n2
k an4
ni ng2
li ao2
sh ao4
b u2
qi ng3
ch i3
2 4
m u
d ou4
mi an3
y ong1
t an3
w an3
h u1
r u
f an1
a l
t u1
g an1
su an4
di ng1
yu an3
w en1
t ui4
zh e
s t
2 1
xi u4
b a3
m an3
19 3
2 3
mu la
k ang4
for mula
2 8
t h
m ao2
r uo4
pi an1
m ao4
l ang3
qi n2
b a2
n a2
z an4
xi 3
gu i3
g ui4
r e
pi n2
wo 4
xi ong2
sh an4
2 2
xi ong1
m e
su i1
2 6
sh en3
qi ng4
mi ao2
f ang3
5 0
20 20
2 7
l ang2
o u
qi u1
s ong1
r i
d ang4
g eng1
qi ang1
f a2
z ao1
f eng4
zh ang4
ï ¼
h ao2
du n1
z ou3
h ai4
qi e4
2 9
t an4
z u
p ao4
p a4
shu n4
p eng2
xu an2
201 0
n i3
00 0
di ng3
ni u3
z ai3
zh ao1
zhu i1
lv e4
chu n1
20 19
hu n1
k ong3
ch e4
du an1
sh en4
xi ang2
du an3
g an4
r o
t e
k an1
l ao2
c ao3
201 6
s i
g u1
p ei2
ku an3
z a2
201 8
su n1
y e2
y a3
r a
po 1
202 1
zh a4
ch i4
d uo2
201 4
f an2
201 1
201 5
c uo4
201 7
zh e2
y ao2
p ai1
t ou4
c ang2
201 2
4 0
k ai3
201 3
202 2
m i2
ru an3
su an1
ch a1
z ang4
mi ao4
l t
200 9
zh ao3
200 8
hu ai2
ã ĥ
c e
6 0
xu e4
ch ou2
s e
b ang3
a m
m eng4
10 0
t i4
p u2
n ao3
202 3
zhu an4
g t
le i3
19 0
3 1
c ai4
s an4
m ou2
ti on
hu n4
ku an1
200 7
t a
ni u2
m ou3
t ao3
di e2
200 1
t eng2
s ou1
k en3
qi an3
ch ang1
r an3
qu e1
f ou3
su n3
f o
b a4
200 0
8 0
k ao4
s uo1
200 6
ni ao3
p i3
ch un2
202 4
l an3
ã ģ
z ai1
c o
xu e3
hu i3
e l
m a
lu an4
ti ng3
200 5
zu n1
b ang4
l a4
hu an1
r ang3
sh ui4
mi n3
3 5
l ai4
c ang1
7 0
fo 2
p an2
n ai4
w en3
n e
c ao1
o f
s ang1
p ang2
9 0
bi ng3
ï¼ į
t er
zh a1
ã Ĥ
shu ai4
ni e4
h ou2
m ei4
sh ao1
n u3
d ong3
i l
f eng2
mi e4
yu n3
z ou4
m ai3
hu ai4
200 4
4 5
l o
y an1
th e
h e
4 8
zh uo2
a t
an d
t ao4
n ai3
ku n1
202 5
zh en3
c k
r u3
ku a4
ku i2
ãĢ ī
ãĢ Ī
g ou1
3 6
e t
cu i1
e s
3 8
c u4
sh an3
r ou4
di ao1
200 3
h u3
g uo1
3 7
c ui4
x u2
i s
m ang2
ju an3
t o
c an2
di an1
zh an1
c ao2
18 9
I N
200 2
k eng1
T C
m a2
3 4
le ng3
a s
z u1
ch a4
7 5
âĢ ĵ
o w
s u2
qu an1
d a1
ch ai1
l ang4
ku n4
4 6
t un2
f en3
199 0
âĢ ¦
o l
v e
zh ou4
sh ang3
r ao4
h eng1
t i1
xu n1
3 9
n e4
. .
n an4
p an1
6 5
h ong1
sh u2
t an1
t ang1
k an3
M a
n i4
C h
3 2
i t
S T
h an3
4 7
U TC
qi an4
199 9
199 8
I n
198 0
18 8
5 00
3 3
6 4
qi ang3
sh e2
sh uo4
p ao3
b e
k a1
zh ai2
S E
5 5
qu an4
n i1
de ng4
199 7
T he
C o
m ian2
4 9
g ao3
I I
6 8
h an
sh e3
z eng4
zh ou2
zh ai4
R e
199 6
4 4
n a
ti e1
d ao1
a d
b r
199 4
f ei2
z ong4
i r
qi ong2
ti ao4
chu ang2
n d
199 2
chu i2
ju an1
c i
ch ai2
mi ao3
b a
gu a1
xu e1
t ong4
199 5
f ei3
ch i1
m eng3
wo 1
6 7
shu ai1
t uo2
chu ang1
hu an3
v i
199 1
197 0
5 8
195 0
gu a4
ch an2
c a
3 00
w a1
199 3
18 7
194 9
a y
p e
s a1
ti ao3
zh a2
A T
196 0
bi an3
4 2
194 5
v er
u s
gu ai4
k u3
n u2
198 8
d u3
o o
198 9
i g
p u4
6 9
li u3
i ng
u r
s s
g ong3
SE E
t uo4
c t
li ao3
IN SEE
5 9
sh a4
t ai1
4 3
6 6
chu an4
am p
ch en4
5 7
198 5
hu ang1
R o
9 9
S A
ãĢ İ
cu n4
ãĢ ı
198 4
hu n2
4 1
u m
p u1
k ou4
p h
8 8
f en2
198 6
r ao3
S t
a u
i d
ru n4
T V
15 0
zh uo1
in d
4 00
s an3
198 7
7 8
5 6
198 2
ar d
L i
n uo2
M e
198 3
D e
N A
gu n3
m a1
t ou
pi n4
u n
C D
ch ou1
b er
g ou3
qu an3
7 7
M i
zh ai1
qi a4
p er
m ao1
qi ao3
M ar
k u1
ku ang2
e d
a ng
r ou2
9 8
de r
l ou4
O S
Â °
k ui4
s ang4
ï ½
l y
18 0
B C
5 4
6 1
A l
197 9
19 20
t y
7 9
p en1
s eng1
t w
5 2
Y ou
197 8
n u4
6 2
w eng1
y e1
d uo3
L e
5 3
xi ng3
ju an4
ï½ ŀ
B A
t s
a k
194 6
C O
M o
c tion
5 1
195 8
S h
198 1
V i
m an
197 2
194 8
zh ui4
c ong1
t ou1
A M
6 3
A R
J o
194 1
W ind
w a2
B S
li an3
19 30
P ro
lu an3
ow s
ku ang1
k e2
q u2
t uo3
7 6
han s
194 0
p i4
193 7
197 6
zu i3
194 4
8 9
197 5
r y
ï¼ ı
196 8
ni ang2
po 2
shu a1
h k
c on
r an
T e
yu an1
t ao1
w ang1
10 00
Wind ows
9 5
p a
N e
n o
b i2
s ao3
8 7
d a
196 6
8 5
f a4
p eng1
6 00
g a1
l an4
1 20
194 7
A r
S ta
195 6
A C
196 4
d an3
c u1
194 2
Ã ©
195 5
S e
R a
ch ou3
195 2
193 9
193 8
7 2
I S
v a
7 4
G a
g a
h t
n u
la y
r en3
197 3
197 4
195 4
f i
qi e1
E D
19 00
- -
J a
A P
194 3
b i1
T u
k e
o s
197 7
B e
197 1
pi n1
m an2
o p
po 3
en t
196 7
sh eng2
men t
m p
I C
8 00
L a
E R
i a
8 6
195 9
b eng1
S a
196 5
s on
J R
196 9
du i1
L o
p en2
in e
S o
ãĥ »
Ã Ĺ
qi ao4
chu i1
I D
qi ao1
S u
193 6
9 7
16 0
b en1
zhu a1
D a
F a
195 3
196 2
M A
d o
196 1
ti c
l ong3
â Ķ
193 5
t a4
r ou
m ai2
9 6
O N
D i
ï¼ ħ
195 1
195 7
196 3
C a
h a
âĶ Ģ
o k
8 4
202 6
c an3
or e
8 2
N a
h i
b u
7 3
9 4
tu n1
9 2
p p
I P
A N
B o
st a
m er
193 3
on e
M u
193 1
n ang2
le s
ni ao4
7 1
b ao2
h o
nu an3
g i
A n
l eng2
p a2
P a
9 3
s o
8 3
al l
W e
d ou3
8 1
19 18
H D
S i
s ao1
w i
U ni
19 28
l uan2
193 2
n en4
l l
ar a
in t
B a
M V
S S
1 10
19 12
I T
k i
19 29
tu i3
d uo4
19 27
co m
t u4
193 4
ar e
7 00
g a2
c n
a li
9 1
ch e
te d
st er
f f
b y
hu ang3
co l
il l
o t
25 0
s a
ar t
z ei2
19 24
R i
.. .
19 19
ku i1
xu an4
1 30
pi ao1
19 25
P S
p ao1
xi a1
14 0
P lay
S M
P C
me s
19 14
st e
zh ai3
k m
H e
D V
p an
zh e1
You Tu
h e1
en d
H a
F i
an a
di e1
b le
C on
W i
l a3
A S
19 11
B u
k a
sh i
o d
g ra
nv e4
l d
19 26
G e
T i
de n
ou r
19 22
n a3
h en4
19 17
si on
E T
N BA
I V
shu i2
c ai1
r ao2
E N
19 23
19 21
p eng4
f e
ku a1
G oo
th er
T a
ch ong3
17 0
à ¸
E C
m ao3
n ong4
m m
A L
M S
H o
se ction
YouTu be
E P
N i
B L
19 13
h n
ti ao1
p en
H K
E n
â Ĩ
han t
gu n4
190 9
g in
In ter
c ro
P e
S te
M P
A I
T o
g eng3
W or
n ao4
ri s
f eng3
an t
l uo3
U S
y a
po r
DV D
g o
ar i
z ou1
P i
3 000
T h
c a1
D o
P o
g n
19 10
F or
R O
D S
1 12
A K
R E
p ro
19 16
C ar
ãĥ ¼
ch uo4
N et
Î ±
a tion
S ch
K i
N o
an i
tu re
el l
L in
M y
C P
U N
W il
ar k
â Ī
Sta tion
h en2
19 15
g le
ni ang4
190 5
F C
v en
er s
m y
C N
â Ħ
âĨ Ĵ
190 1
tion al
L u
w a
ti ng
A u
D NA
E x
f a
p u
âĢ §
si c
di a
9 00
H R
P h
di ce
ar y
si s
Ne w
. &
t on
C H
z en3
T A
T O
190 6
190 4
chu ang3
A V
J u
Q u
ou n
K a
g en3
p s
Jo hn
er e
A nd
M O
co dice
ch ao3
ji ong3
di ng
âĦ ĥ
k o
er i
w a4
b eng4
0 5
f u
C C
di u1
190 7
190 8
Goo gle
A G
E ST
M I
v o
zu an4
S O
te s
L E
ji a2
zu an3
Play Station
en ter
B O
B BC
ch i
Co m
A D
I G
c al
le y
l i1
G u
en ce
II I
of t
R u
15 00
c y
5 000
c ri
wo r
zu an1
I ST
sh e1
lv 2
C ol
or y
M E
S y
ti ve
w it
C R
3 D
rou nd
I A
l an
gu a3
10 5
j e
m a4
Ð °
t t
li n
190 3
10 1
G B
pi ng1
re e
C u
c an
0 9
in a
c an4
F e
c en2
190 2
B D
N C
l and
T E
ch a
p ang1
x t
3 50
Ã ¡
z e
SA O
sh ao2
g en
D C
de s
s pan
p t
mo n
A d
Î ²
g ht
re s
li n4
B 1900
de l
bo ok
E S
B M
r on
ï¼ İ
ãĥ ³
189 8
0 6
1 18
H i
l a2
ãģ ®
m s
qi n3
c or
te l
D R
3 60
0 1
D A
O pen
189 5
l ao4
12 5
m u2
z a
la r
b en4
H O
an ce
ti n
M C
AT P
Mi cro
K o
g y
Ð ¾
10 8
K e
s y
li ne
di o
N G
ig h
p ou1
ne t
y le
G o
c lu
lo w
qi e2
gra m
C or
I F
f t
F ran
O ne
n er
A pp
0 7
âĪ Ĵ
0 8
2 30
g h
Fa ce
H u
10 4
pa ce
P u
S er
re a
Wor ld
s oft
ED T
IST AT
M on
S tu
j a
sh ai1
s ong3
à ¤
N O
189 6
L L
ni ng
10 9
D P
f li
g er
la s
d y
y u1
A A
lu s
ow n
B i
it y
g e3
R I
ct or
W a
D u
S P
R T
su i3
xi ao2
qi a3
E X
r e3
B ri
ber t
B 48
M an
v el
li ng
10 6
18 90
S an
C ST
M L
or i
B ar
CD T
Lo ve
z ang1
D O
wi th
H E
w ard
P er
p ei1
ro w
ta in
0 4
4 000
p ri
u x
cu an4
11 5
ig ht
d s
1 200
M 1
0 3
H ar
G P
p ao2
C E
r en
Ä ģ
ba ck
188 9
be gin
P ar
189 9
J e
Ma c
col span
187 1
E d
R S
mi c
Face book
Wil li
Micro soft
âĢ ĭ
24 0
tu r
Co mp
o ol
16 00
L O
G i
k y
B E
c c
N or
ck et
10 2
bo x
clu de
T T
re f
189 7
ph a
Li ve
N H
S ou
E E
ch ou4
T ri
11 7
I s
P re
P P
i m
qi n4
u t
S C
mi n
0 2
c m
shu ang3
st yle
i e
10 3
AK B48
M D
y ao3
Mu sic
P ri
10 7
v an
O n
b li
c ou4
t ra
G ra
O r
l er
Lin ux
D is
T ra
s er
y e
t ang3
w w
G re
O ri
li s
ol d
V ID
12 7
tu s
4 50
V o
s ti
Da vi
Ã ¼
qu e
12 8
ali gn
l ao1
fli x
C L
Net flix
189 4
Ga me
2 20
r in
B er
Ð ½
ma s
Willi am
I L
M or
k s
S H
T wit
18 80
Re d
l en
l la
Ã Ń
R NA
z ao2
13 6
ru s
ro m
P G
ng e
Ð ¸
st ri
ãģ Ħ
T R
st ra
Te am
18 00
ãĤ ¹
Uni ver
g round
188 5
li a3
er o
11 4
ãĤ ĵ
Ch ar
p ian2
col or
F u
H z
T y
28 0
U R
Ð µ
11 3
11 6
t or
an o
G en
188 6
si ng
ãĤ ¤
T S
Sch ool
P O
m ang3
la ss
189 3
C he
e x
s en
ir l
B la
l yi
m b
t en
M c
an e
Mar k
E u
na me
S L
t ri
11 1
St ar
ã Ħ
ci al
li a
ir st
Su per
por t
D on
je ct
le x
mo 3
âĢ »
ce s
mo 1
13 5
Davi d
26 0
na tional
y s
er a
18 60
Ge or
st o
gu e
ni n2
es s
W al
W TA
k er
H C
w ay
Sh ow
lv er
A c
U A
w as
U n
h am
188 8
te xt
S D
a c
Ã ³
rou p
- .
an s
ou se
B ra
ro id
ca tion
back ground
t le
yu n1
d ai3
C y
p re
G O
W h
ch en1
18 70
re am
G N
ï ¹
12 9
on y
188 7
b ur
an y
di s
shu an1
18 68
Me ta
6 000
Ã ¶
Ñ Ģ
E l
N F
V A
c le
188 3
l or
an k
ou s
X box
3 20
C S
T ho
N HK
A F
A s
D D
Twit ter
K P
n clude
on lyi
onlyi nclude
pi ao2
+ +
bi t
t ang4
18 64
âĢ ¢
I ON
n y
ch o
188 4
R C
U E
m ar
en sis
1 19
12 2
25 00
189 2
2 10
A 1
ti s
en a
le t
c enter
mi u4
15 5
in s
ow er
IS O
M at
â ħ
14 5
189 1
6 50
C lu
c er
And roid
G irl
a ge
ãĢ ķ
O R
re d
ne s
K u
N S
c uo1
c ar
ãĢ Ķ
18 50
ht t
mer i
C l
v al
Inter national
D ay
x y
ou nd
m i1
18 67
lo gy
ste m
I M
p ang4
ãĥ Ī
el d
Al l
f fi
187 9
ak e
Ja mes
En ter
W ar
p ar
se l
3 80
A B
U P
V er
b ri
ne y
187 6
A ni
C oun
si a
Geor ge
C an
li e
18 75
18 61
27 0
Univer si
D ra
H er
P or
t d
Ga mes
A ir
I R
12 6
N T
Ã ¨
ti me
in ter
H ol
P au
S pe
NG C
st ru
ãĥ «
187 3
M G
n s
12 3
ãĥ ©
am a
E ng
H en
P V
A b
G roup
H T
se d
ran s
Col le
B en
H y
M B
V a
16 8
CO VID
cri tic
F M
o m
18 65
il d
Clu b
A O
P L
lu e
th at
as s
A meri
D E
12 1
C enter
h y
cu s
wor k
B lo
17 5
al d
ãģ Ĩ
We b
H 2
Y P
f rom
Ã ¤
14 00
MA X
A li
13 8
2 28
T P
a st
h a2
ch an4
ni c
18 48
f er
li u1
18 62
ra tion
3 30
p eng3
12 4
ãĤ ¢
188 1
188 2
7 37
P ark
v il
en s
on a
187 8
5 50
gu ai3
V e
ru i3
187 2
L C
bi n4
H el
H igh
IN K
Meta critic
z o
I t
n ao2
t ro
Ori con
M TV
U C
w an
15 6
16 5
B oo
L ED
d on
ni an3
18 40
IV E
S pi
c ore
d ai1
7 50
d ge
sh ai4
ãĥ ĥ
c re
mi ng
13 7
ãģ Ĺ
Le a
ni s
13 00
sta gram
7 000
ri ng
B ro
D OS
S Q
U B
22 9
I U
S he
G DP
K ing
O K
Ñ ģ
C hu
P la
r and
15 2
ou t
TV B
Mi cha
F ri
d ay
15 9
187 7
Ro bert
St re
ty pe
S ur
â Ĺ
ku i3
18 66
Ch ris
i OS
Ð »
al s
Pro du
S K
U p
18 69
âĢ ²
si lver
E le
T HE
D M
xi u3
st ar
Pe ter
N ET
P at
g ar
p la
sh e
p lay
Ð º
Ch i
In stagram
B I
p y
13 9
BL AC
B ig
g an
Ð ²
D J
r eng1
li p
ss o
Ph one
C G
W E
co de
ãĤ ¯
Micha el
A t
D F
ï ¸
App le
1 100
C i
a i
15 8
Te ch
Pau l
2 25
g on
en e
30 5
13 3
al k
IN E
Na tional
Ty pe
R A
s a3
ni a
ãĥ ª
at or
A ward
H I
Y O
13 2
Ste am
E s
Y e
r al
20 5
18 63
ra y
tain ment
2 15
B ill
ci a
Universi ty
C e
F O
ph y
C A
F 1
K BS
14 8
13 1
Me dia
K ar
L ou
M er
S mi
W o
16 6
ar ch
ne w
187 4
E F
X X
k g
n ow
de o
en ti
18 58
F in
i c
14 7
Bla ck
b al
v in
25 6
ãģ ĭ
G A
G ar
M 2
ku n3
18 30
Ri ch
C BS
T er
U T
a ch
c lo
e w
18 51
or a
Le e
B N
E M
U I
19 2
Î ¼
Ch a
8 000
ch e3
Ja ck
Enter tainment
i f
z er
an n
li n3
mi ni
bi n
14 3
se t
ad a
C ity
M k
g ang4
18 55
In tel
3 10
P ower
I X
h a3
m ber
I E
R AM
S pace
b el
z uo2
ð «
18 59
ST AR
Char les
13 4
tion s
is s
Di re
shi p
A ng
A BC
18 5
18 54
or g
14 6
30 1
F la
17 00
Vi u
3 70
s pace
18 57
F ree
G M
W in
e k
w hi
st ro
E r
v s
Ø §
29 0
ãģ ª
Li fe
Ta i
ï¸ °
S am
Î ³
in o
Ja va
2 14
P y
Ñ Ĥ
mi s
Re cor
Comp any
sti tu
4 20
D ream
P ol
f ang
Î ¿
ãĢ ľ
18 56
18 53
Pro ject
H ouse
a h
f irst
di um
ãģ Ł
et y
oo d
Ti me
Tho mas
P an
b ra
v on
bo 4
14 4
Al pha
Sa int
F A
K en
O VA
C ent
V O
fa ce
A 2
I O
16 7
3 A
H S
S BS
sh a3
bi li
ku a3
18 41
Stre et
A m
A lex
B at
L P
s pe
al o
Ja pan
3 40
A g
P M
chu an3
ri e
Eu ro
BLAC KP
S po
T or
a e
w n
z a1
20 8
18 15
17 8
CP U
BLACKP INK
2 23
B ur
T ru
c is
m en4
So ci
8 50
L GB
S ing
t al
z uo1
ch er
ri c
se s
Ro ck
Stu dio
ww w
I BM
di e
ma t
es ti
por ts
S F
V al
yo u
20 7
ver y
23 5
ãģ ¨
ãģ ¾
ma tion
Ar t
D ig
F er
L IVE
M r
M et
P op
S U
20 3
ni ng4
17 1
ber g
B 2
V E
W hi
n al
co mp
Sh i
SQ L
P ad
c ra
s g
v is
18 46
16 4
for d
no t
Colle ge
M in
Y u
b re
li t
15 7
vi ce
pu bli
B R
L T
N E
S un
14 1
IC E
Ameri can
B 1
C ro
P E
e st
bo ard
17 6
si gn
IN G
A sso
L S
b all
h an1
Â ²
we ll
18 12
18 45
18 44
Ro ad
Girl s
sel f
p le
mi t
23 1
O ffi
c ture
c lass
H F
L td
M 3
p m
bo r
ãĤ Ĭ
wit ch
LGB T
B B
20 9
wo od
po n
ce ss
ãģ į
NA SA
GN U
G er
L A
P A
w ai1
de d
th y
Jo se
Te le
Smi th
C la
C ra
P ra
i se
am pi
au rus
IU CN
2 16
P N
w h
Î º
18 49
15 3
Goo d
C T
F il
H all
N BC
T our
zh ou3
20 4
23 8
Ch o
um p
Produ ction
l e1
le a
ta tion
ne ss
Vi deo
G T
O 2
S ci
Ï ĥ
mi ted
Ga la
E li
F o
P R
w ar
y n
di n
20 6
eri es
Z e
18 14
ma c
2 18
f ri
f ra
l ti
on s
ang e
Rich ard
S I
m al
chu n3
IG N
A ct
L D
S en
W S
w in
â ĸ
pi c
qu i
Ch ri
Bo y
P lan
S ky
T ur
b un
Ï Ģ
de f
18 47
15 4
th o
ve d
vi sion
tur n
4 60
5 80
B el
F F
F ar
M as
h er
i ro
s ch
v es
z z
mo r
18 43
Be st
Sy stem
pt r
4 30
M BC
sh a
40 1
che m
4 10
b ar
b us
p r
le d
17 7
ri ch
of f
ãĤ ·
lo s
NF L
Viu TV
C al
S witch
16 3
AM D
AP I
We st
D an
I CO
e p
o per
men ts
18 52
16 2
cri pt
V II
g s
18 20
th is
ãģ ı
Ma x
In c
A ma
B or
F re
P rin
c il
u e
14 2
ge t
23 4
th on
Ro y
V R
17 2
ãģ Ĭ
ãģ ķ
Recor ds
6 40
E m
G al
S qu
V ir
16 9
35 00
Li mited
da ta
C M
C ore
K C
T 1
Â ±
lv e
18 39
ar s
23 2
4 80
c i1
17 9
ca de
20 30
14 9
ma x
36 5
In stitu
man n
R es
18 21
ãĥ Ń
ãģ ¿
der s
Uni code
RO M
CC TV
3 90
B U
H an
c ent
l li
t v
30 6
22 2
60 1
un ch
F an
V ol
i i
tu be
17 3
24 7
ri a
it ch
Bo b
fu l
C ri
E A
P F
k ing
ti an
it al
oo t
K K
X P
17 90
5 60
O H
S N
u se
w id
li an
pi ng
ãĥ ¬
ci ation
2 11
B F
F un
T rans
V M
i re
H ot
M U
P D
P H
S co
S ir
i o
v ar
shu a3
lu m
17 95
30 3
âĹ ĭ
18 3
23 3
se arch
ãģ ¡
180 1
For ce
2 13
P en
T ok
k h
l on
we ng4
ru n
ãĥ ŀ
US B
V an
n um
ti a
su b
ni e
17 4
re w
MV P
He art
Fi re
Je an
C K
z on
Ï ģ
á Ģ
ì Ŀ
18 6
18 38
or d
al ly
St ore
5 20
6 10
B ank
D DR
G lo
T op
s or
u p
ng a
mi ly
ck er
i Pad
r ong3
t z
su r
16 1
50 1
ãĥ ī
it s
ay a
Ho me
htt p
Dire ct
2 24
C F
H or
L on
e le
bi le
18 13
ãĤ ī
Ph il
D r
F le
G E
z y
Ï Ħ
18 2
18 32
18 42
la tion
Soci ety
A E
C am
Z i
f ter
18 4
ãĤ «
Mi ni
ke y
Da ta
7 20
K I
M el
S cript
i Phone
j o
â ĺ
18 36
la te
17 93
25 5
th a
ãĤ ª
Co mic
Mu se
2 21
H BO
M T
S to
d ro
h ou3
k in
n t
18 33
17 89
Sh a
tic s
Ri ver
htt ps
Asso ciation
Gala xy
bun tu
D AM
M 4
Q Q
d ra
f in
m g
ti es
18 35
15 1
ãĤ ¿
ad y
2 19
2 17
3 38
F T
J an
J YP
S R
W A
e m
ð Ĳ
sh ang
âĢ °
mu ni
180 4
ON E
CE O
wid th
4 70
7 40
8 30
U buntu
g a4
u ni
li ght
el la
Mar tin
Hen ry
Lea gue
B ay
Y G
b an
b ro
g re
Ï Ĥ
Ð ´
â ī
mu s
Ma ster
Ch ampi
vi ng
Gen er
D es
E ar
F ra
L INE
P hi
c en
Î ½
le ss
at o
AR T
Gre en
2 12
B r
D K
c ti
Ñ ĥ
ng er
hu n
li st
18 28
or s
ãĤ ³
con d
AP AN
row n
D ou
F R
N ight
V en
di t
19 1
30 2
ta ble
Bill board
6 80
G am
M ana
M Hz
P I
P in
S NH
h as
n m
Î ¹
18 1
16 24
23 7
si de
ma in
ãĤ ĭ
Ch ina
Offi ce
Jose ph
SNH 48
B ir
F DA
G old
J APAN
P K
à ¹
á ¹
16 44
30 8
st on
Co de
St ra
CO M
No te
D B
D y
E nv
G R
H ill
M il
O b
P art
10 000
18 37
tu i2
23 9
ri ck
lo gi
180 6
So ng
Uni ted
New s
mac OS
4 40
C V
I nv
M W
U 21
h ar
m ark
Ã ¢
Ã ®
Î ´
à ¥
â ĳ
18 19
29 9
34 6
Ra dio
Lo ng
Pa la
HT ML
ann el
7 80
E ast
O ut
T en
T alk
18 25
24 5
23 6
th an
50 5
27 9
ãģ «
ad o
You ng
Dig ital
5 40
C amp
E V
H 5
L au
r pm
ch ong4
00 1
si an
ne d
ter s
bu t
3 25
B al
p lo
p ur
su s
17 76
ãģ ĺ
per i
NC AA
Ser ver
B an
F AT
H ow
J i
18 18
26 5
ri ght
ãģ ĵ
den t
Hel lo
B ru
D ri
Y o
a pp
c oun
18 24
18 31
202 7
il la
tic al
C ry
G S
L es
R PG
b et
p art
u l
w er
Ã §
Ã ´
ch el
me d
ro me
and a
Ch ild
Hi st
Ser vice
âħ ¡
Tech no
C at
D own
O s
U M
i ce
hu r
mo nd
te mp
BS D
Ki Ha
Fran k
Is land
publi c
Sci ence
1 A
B lue
C W
F ore
X ML
b en
Î »
27 5
27 00
lo ng
You tube
Ko ng
Ed ward
Un der
Py thon
Whi te
3 12
5 G
7 30
F irst
G rand
H L
L an
O M
P as
T BS
f un
h ao1
26 4
29 5
38 6
180 2
BL UE
Institu te
Champi on
6 30
C as
S um
T M
k ar
Ã º
Ã ł
ni e1
18 22
ar ed
st s
28 8
ãĤ ¸
Ù Ħ
30 7
24 4
ãĥ ķ
va te
Tu nes
IT F
To m
G ro
J T
x el
an ti
la unch
24 9
90 3
il le
Nor th
Pol y
Squ are
O T
P al
P ID
S eries
l lo
t ry
z ation
Ä «
Å ¡
tu m
24 3
28 00
ta s
You r
Th is
Cu p
bur g
F X
H am
J ump
M oun
N P
S or
S of
Y a
_ _
li o
18 10
16 22
17 92
re turn
70 1
SA RS
Ca p
Ho ng
PO P
9 60
C ur
D ani
K h
L ang
O p
S ig
S HO
V V
i ch
n on
p ai3
Î µ
mo s
16 50
80 1
Ra p
Net work
MI UI
2 100
U r
o b
Ð ¼
00 7
18 26
15 73
ru m
ci ng
ha ve
7 47
J our
R ay
W at
k en
18 34
30 4
22 6
27 8
ãĥ Ł
ãĤ Ĥ
37 5
ad d
180 5
AC T
AP P
AI R
Stu di
Blo ck
G ran
H A
I m
P ara
T re
a g
p res
r d
s in
29 6
29 8
38 5
AT A
Mo del
Di e
2 D
3 35
5 90
9 000
C U
D ot
G il
S ports
W N
m l
v y
Ï ī
â ĭ
li c
la ng
17 80
ge s
22 7
si g
lt a
ãĥ ł
ak a
ding s
IF A
3 15
J on
R en
S p
f re
i Tunes
Â »
su al
mo re
25 1
27 7
ma p
CN N
Au to
2 A
C le
G ol
O ver
R us
R FC
h r
p H
u nd
zi ne
15 82
17 99
25 9
24 6
24 8
th i
Ma g
vi ew
180 9
ga in
Qu e
Sou th
Eng ine
5 30
C 2
D LC
N ow
S c
g en4
s ang3
Â «
an der
18 23
or n
16 21
27 2
40 5
AT ION
180 3
Sta te
ste ms
Inter net
EE E
pre ss
3 34
6 20
7 70
C lass
D ar
J en
N u
S G
V I
h ad
di tion
or k
16 25
28 4
28 5
ãĤ µ
St an
tw are
da e
Pu bli
3 11
8 80
L is
N M
S ony
d or
Ã ī
á »
lu tion
cu r
25 8
for m
27 6
ãģ Į
as on
Mo bile
B us
C li
C er
D en
K O
O per
X T
d d
i th
s co
à ¦
25 3
re ss
35 7
vi a
Mo on
Wi i
Pi er
6 60
B on
G et
M en
S V
U L
Ð ¹
ch en
ou d
ãĥ Ĺ
ST A
ing s
Mar ia
IP v
Uni x
Wh at
Euro pe
5 70
B re
U 19
W F
W ay
e e
p at
Ð ³
18 27
tu an1
15 70
al y
ãģ Ĥ
ck s
ga zine
Lin k
vil le
Boo k
3 14
3 DS
6 90
B BS
C 6
D SM
I EEE
S B
W WE
b lo
i ni
n or
18 17
16 40
16 36
26 8
40 2
40 4
ãģ ¯
Me di
Ra in
Be au
Sou nd
whi ch
4 G
A X
D ol
G ri
f y
t rans
17 75
25 4
Fran cis
3 23
C ir
H P
L it
O P
k ao1
mo del
la ris
17 50
30 9
ter i
ca st
ak er
Jo y
fi c
3 29
6 70
A th
C lo
E nd
L y
P lus
h el
i de
u ng
y an
sh ing
gu ai1
18 16
ãĥ ģ
ãĤ £
45 00
Ch annel
CO N
Vi ctor
fi eld
Ti k
TO P
Cu be
Lou is
pr int
. -
7 10
9 10
9 50
D I
G od
M K
a b
o c
di an
pi n
ar r
24 1
23 00
Re search
IS BN
Po li
Fil m
tv N
3 26
A sia
B ou
P T
T 2
r ch
s p
à ½
pi tal
15 92
al le
34 7
75 8
Ma y
oo m
St and
op le
A ra
D T
T ro
t r
t an
tu al
16 28
17 88
25 2
24 2
26 9
ãĥ ĭ
and y
Le on
ff er
fe a
Ni co
vel op
tur al
3 18
3 36
9 78
A do
C B
D L
F esti
M US
N 2
O 3
á ĥ
bi e1
ti o
po s
16 27
17 83
17 91
al th
40 6
35 4
IN N
Re gi
ph i
Vi sta
rou gh
Pi xel
Dis ney
âĸ ¡
A cade
C our
E L
F 4
I B
L AN
L TE
P ho
S m
p a1
t re
ni ca
17 97
28 9
ï¼ »
ï¼ ½
ce d
Ma ch
55 6
Be at
La w
A nge
D MS
O F
T H
T an
n an3
po p
17 79
17 96
60 7
ãģ ¤
ãģ ł
35 2
46 5
180 8
Pro f
ER T
so me
km 2
Wor ks
NC T
Ali ce
Sof tware
âĭ ¯
3 21
3 37
A 4
A mi
T 3
f la
g is
l s
ch ar
hu ang4
ni ght
18 29
tu de
17 78
17 94
28 3
27 3
te st
ãĥ £
ãĥ Ĳ
ãĤ ¨
ck y
Co s
Mar y
Vi sual
ine se
YouTu ber
AS C
wor ld
Ele ct
Bat tle
3 13
5 10
8 40
8 60
F oot
M net
v ance
Ã ±
Î ¸
shu ai3
17 98
me ga
ãģ ¦
45 6
37 2
Jo han
EC T
sy stem
Spe cial
Award s
4 48
8 70
B lu
M F
a th
r or
s ca
we b
15 80
16 12
16 34
17 87
28 1
26 7
ãĥ ĩ
ãģ £
ma d
ãĤ ¦
lo st
mm y
Pre mi
Roy al
Glo bal
9 11
D G
F ro
M is
O li
S et
T N
T ou
W O
â ĩ
sh ai3
mi na
15 67
16 48
27 1
te ch
lt ra
Re al
pe dia
ph er
con o
Ar ts
BO X
Env iro
A H
D ark
E 3
G or
M M
M ur
N ot
P ay
Y ork
e v
ch uo1
hu s
bo n
36 7
OS HI
con st
AC E
ff e
EN T
AG A
Gre at
Tik Tok
- &
3 22
A h
M ON
O TT
R ou
V B
c as
bi an
po si
15 50
15 68
16 15
16 30
la m
for mation
28 6
ãĥ ĸ
Ma gazine
CH 3
Comp u
Muse um
Dani el
Festi val
B rown
C ru
C AS
F BI
L G
M al
M ill
R am
S IG
U SA
a p
g g
o ther
zh ao2
yi ng
pi e1
16 45
16 46
for e
26 2
ãĤ Ń
33 3
CO LL
AR D
Se cre
ste a
ste in
En core
ture s
Cl oud
MUS IC
H un
L ar
L et
b as
d ou
g al
t to
Ø ±
16 26
26 1
29 7
te m
35 5
ol f
Ch inese
Ki m
On line
3 28
8 20
P et
P RO
S 2
o ver
s ou3
mo d
qu es
16 37
re y
70 5
90 1
36 4
38 4
37 8
44 2
Me mo
gi c
Po int
VID IA
6 18
A U
C BC
H B
H as
H um
N VIDIA
T 48
c to
s che
y l
z e4
Ð ¡
Ñ ĭ
16 42
25 7
24 00
28 2
26 00
Ma d
ver n
Sta dium
mp le
160 9
one y
Red mi
Ye ar
Tai wan
Ado be
7 60
7 67
C ou
C AN
I l
O 4
S w
U 17
V C
V in
W on
b at
b ps
h eng4
Ñ Į
de on
ni or
po ration
15 85
15 83
16 10
th ing
ãĤ Ħ
58 3
ct ory
180 7
ak i
AR M
Te X
ster n
ther n
Com muni
Sy stems
Gener al
9 30
F IFA
J U
K E
O D
S in
T own
T hun
W ho
c la
c ci
j or
s tu
ti na
mo l
16 23
st y
27 4
ro s
si ze
ce ll
99 9
An to
Po st
pri ng
Cy clo
ï¹ ĳ
H2 O
E OS
F IN
I ma
I EC
K in
K id
e sta
s m
15 71
17 84
st an
26 3
50 9
29 3
35 1
Ch an
De ep
Ar chi
wi ki
2 200
4 28
A J
G UN
T ar
p ra
s k
x x
li g
ni ty
16 20
17 23
17 86
st re
50 4
lt on
ãĥ ¥
35 3
39 5
be th
va lue
So laris
pri vate
Chris tian
Met ro
Mana ge
Dot A
4 19
4 32
A 3
A ri
F N
G L
R on
b es
c at
c ard
c tive
p es
Å į
ì ķ
cu ri
14 50
in te
ge l
ra t
ãģ Ļ
co s
el o
Mi ke
ha i
Ke y
Mark et
Chri st
Phi lip
Studi os
Lit tle
3 45
4 27
B and
C ine
F E
H IV
K 6
L ine
V PN
Ä į
li ke
zi lla
or o
15 77
16 18
16 43
el low
38 7
39 9
ct s
Ca st
our ce
LO VE
Fle et
Techno logy
3 17
3 31
5 12
5 65
H 1
M Y
R 2
S 1
S oft
T ay
U 18
U SS
U ltra
b b
h is
l u1
u d
Ñ ı
li na
15 86
17 77
14 53
80 6
ba se
CD MA
Ra deon
Uni on
AL L
Va lve
Child ren
Secre t
3 27
4 90
4 45
4 46
5 35
A lt
A ven
F I
F ound
L and
M id
M 87
S k
U 23
W I
W OR
p ara
r stea
y er
Ã ª
en do
li ve
15 21
17 65
17 74
in to
st al
se y
se cond
ve y
49 9
Sta ge
Mu lti
ll er
Wi th
Ju nior
BM W
Fri ed
Cent re
wh ere
Acade my
4 11
4 16
C rea
E MI
H TC
K B
O mega
S che
Å «
en i
ch t
cu l
16 16
si ble
ta i
70 7
il y
36 9
39 7
ver s
Jo e
Sta tes
Wi re
Ni ko
GP U
bili ty
6 13
N R
S we
T W
Z A
Î ·
Î Ķ
Ð Ĳ
en o
mi a
15 64
17 85
lo t
36 8
39 8
ph o
TV BS
Ne xt
Su b
Wi ki
Ge o
My SQL
vo id
Ori gin
Ama zon
3 C
8 10
B T
H on
J r
S ti
S au
S ara
h ouse
m 3
p to
Ð Ķ
16 62
in clude
26 6
29 1
si st
he ad
58 8
De mo
Di stri
Ba se
MO D
chi e
Ad am
Cor poration
M1 A1
fer ence
mis sion
velop ment
GUN DAM
3 16
5 37
6 21
7 42
C I
E 48
E ric
F low
I r
R un
T I
c ted
p ter
Ã «
Ù Ĩ
po int
15 40
15 74
17 72
st d
28 7
te e
60 5
45 4
lo g
38 8
34 3
Ma u
88 8
Ar c
Se a
Su nd
Dra w
Chu rch
Alex ander
Cro ss
Manage ment
4 25
4 75
D el
L ady
N D
O ther
S W
k ang2
p al
w ere
an na
ao n
12 50
16 19
16 29
16 83
re ad
29 2
ma tic
36 3
37 6
ST S
55 2
68 6
oo k
ig n
ali ty
Au gu
Sco tt
Lon don
Dy na
Cyclo l
6 27
B RT
F L
K ir
L ake
M X
P on
S al
T ony
a le
h ard
t ru
Ð ±
ti sh
ti al
ou gh
ï¼ Ĥ
si t
48 8
De sign
Ne o
op en
And rew
Spo t
ðĲ Ń
4 49
5 A
6 25
7 38
D er
F ron
H ER
O f
P B
R ound
V ER
a ce
h l
o ni
p lan
Ð ļ
sh ared
15 90
15 79
16 33
ãĥ Ĭ
fo x
ãĤ °
id a
150 7
pu t
CH 2
vo lution
mon t
Ani max
Ear th
4 12
L F
L M
S mo
S ON
V 8
h ang1
i nv
n an
o ng
p lor
Ð ¿
í ķ
ji a
mi r
mi x
bo dy
ni co
16 31
16 80
17 73
al an
29 4
si ve
40 7
ma te
ãĤ Į
et te
as a
39 6
33 00
Be ta
160 4
Fa mily
An der
Ha mi
For t
Par ty
PG A
Jour nal
9 80
A re
B ad
C 4
D un
F old
G C
L R
N ar
S pring
p l
Ä ĩ
É Ļ
cu m
15 75
16 97
17 55
14 92
80 5
36 00
46 7
47 1
De f
Si mon
mic s
ï¹ Ĳ
tro l
SK E48
Sum mer
Thun der
0 x
3 19
E pic
J 2
X C
f b
p el
ni o
15 61
15 89
15 95
17 81
14 65
50 8
ãĥ Ĩ
ãģ ²
34 4
58 9
160 3
160 6
160 7
pp y
CN BLUE
Ru by
Bi o
Coun cil
Dri ve
Foot ball
4 15
8 55
9 40
9 70
C lar
F al
M iss
S on
k an
u age
x 86
z en
Ã ¸
Ã ħ
Ã Ł
à ®
bi o
15 22
15 26
15 56
16 13
16 60
50 2
50 6
ãĥ Ģ
37 7
47 8
55 4
amp le
Al li
mer cial
TO UR
William s
cation s
Hy per
ìĿ ´
âĺ Ĩ
Ange la
4 17
5 25
9 20
9 25
A fter
F lor
H it
L U
O ra
S ar
S ca
U RI
W ill
s ki
Ù ħ
en ts
ch eng4
bo ut
15 25
15 91
16 67
la i
40 8
48 5
to s
64 3
ba by
ph en
Mar i
Sh o
AM O
Ba ck
Fi esta
Ste ve
Ru e
Ad vance
DO HC
Chri sto
3 24
4 22
5 15
5 34
K it
L am
L ight
M es
Q S
S 4
T el
U K
V T
W el
b les
h en
m RNA
w ho
z zo
Ä ĵ
â Ĥ
li sh
su re
15 10
16 38
on ly
17 30
me dia
ãĥ ĳ
fo l
34 2
as o
39 3
47 9
ph ic
St ory
150 8
Mo zilla
Vi ta
La st
HK T48
Sy n
Cu l
las sic
Wa ter
Ber n
Wal ter
Ameri ca
Sur face
Found ation
3 200
5 31
5 38
5 46
C re
E G
G Hz
H al
I TV
J er
J ane
K at
M BA
N I
S ol
T G
V S
i te
i PS
k W
p per
v ir
li on
202 8
15 43
14 57
in du
co me
36 6
38 1
39 2
In du
Bu il
pla ce
Hist ory
1 st
4 13
E du
F 3
G un
G PS
L Z
P od
T han
U 20
W nt
d own
z an3
z ar
Ù Ĭ
bo ur
or ig
15 65
15 59
15 87
15 97
âĢ ł
16 35
16 88
17 33
17 82
al so
te x
si o
60 6
ãģ ĳ
37 3
Al bert
Ar ti
Ti m
Ti mes
John son
Fin al
4 A
4 26
5 24
6 12
8 90
A sh
B y
B ell
F S
J im
T ol
U D
Z a
b s
o v
s core
Â £
Ð Ł
Ñ ĩ
ch y
or t
15 88
15 98
50 7
the w
64 1
49 5
68 2
66 6
Ro d
Ro se
Au stra
Com mon
wor th
Mon t
Bri an
CL A
Pla ce
Tele gram
Pier re
3 32
4 K
4 35
5 75
7 90
9 90
A i
B et
M us
T MA
w en
yo n
ti e4
bo w
15 23
15 35
16 49
16 61
17 70
14 99
st or
st ry
ãĤ ¬
ãĤ ı
36 1
46 6
39 1
.. ..
55 1
vi ces
Me d
Mo der
160 1
PC I
Ho tel
ell er
TO K
Ac Fun
Ang el
Fla sh
cra ft
num ber
Won der
5 28
5 500
B ang
H ard
H TT
S ma
S han
V ar
e a
f is
o la
ch an
mi ne
ti ca
shu an4
15 11
17 60
17 69
35 8
ter a
37 1
46 9
68 4
Re p
58 7
Vi ew
pp m
gi o
Si ri
SM AP
Bu t
Ex plor
Ed ge
Sou l
tri bu
Gol den
5 48
A W
K ri
M ir
M AC
a ir
e ven
h uo
s pi
v at
ti an3
200 00
10 80
15 000
15 76
15 94
16 89
36 2
38 3
TC P
34 1
Ma i
Ro man
NA SL
Pro gram
So me
Bri dge
ac tive
sco pe
Europe an
vern ment
9 21
A po
B il
D ance
K on
L 1
M R
M ind
M MC
N EX
P ass
R B
T F
U FO
V F
b um
e y
g ni
h ong4
r ang2
s al
s ky
ð ª
ch eng3
le ft
18 11
15 17
15 14
15 52
âĢ ķ
16 39
16 84
th en
si e
60 8
se ll
ma ster
34 9
64 4
55 7
ir d
58 5
59 7
ard o
De velopment
Mo d
Se ven
Ra w
os a
We ek
ther s
Ju st
Mat thew
Por t
Eli za
Gam er
temp late
curi ty
Tay lor
3 48
4 36
5 49
A ST
B rand
D ia
E ver
F red
M itch
P res
R N
R et
T ran
V illa
c s
c uo2
e xt
r ent
u ts
yo nd
15 78
17 63
13 50
in ess
ï¼ ĭ
40 3
ce pt
90 8
es sion
65 00
vi e
ca se
150 5
tou r
77 7
Mar ie
ang er
Te st
fi ed
fi cation
Pa ck
pro te
Qu i
San ta
MG 42
5 47
5 67
6 68
C 5
F AN
L or
N K
O h
R ol
T 4
Y OSHI
c ou
k es
o let
p us
s ao4
v or
Â ³
Ñ ĸ
mi d
er ing
10 50
cu la
16 14
17 20
37 4
Co V
49 4
ver se
ID E
IP S
PS P
He a
Pe ople
UN IX
Com mit
âħ ł
Fra me
Moun tain
IPv 4
Explor er
5 14
5 22
5 45
5 68
6 19
6 75
C SS
D 1
D NS
E BU
K T
K el
S hu
S and
b n
b la
c in
n e2
o van
yo ng2
le te
po ly
15 16
15 13
15 34
15 47
15 69
16 V
14 60
ro nic
ra te
ce l
ãģ §
35 9
75 7
it z
64 2
58 1
ss a
au x
150 2
ction s
à¸ £
Wor k
SO HC
Spi ri
Art hur
Que en
COLL AR
Sund ay
4 18
4 14
4 24
4 33
5 44
A le
C J
D TS
F 2
J O
J us
M MO
P EN
T wo
X IV
Y ah
a mi
b u1
e se
f lo
k ins
p he
w ill
z ed
Ð Ĵ
17 31
17 68
17 71
14 90
st one
me l
40 9
lt er
ãĥ ı
60 4
80 2
ãĤ ±
ãĤ ĩ
ãĤ į
38 9
75 00
39 4
47 6
be en
49 3
ER O
So lo
Bo x
Ri ft
Ge Force
AG E
Pri me
FO X
new s
whi le
Tru e
JT BC
âĩ Ķ
Cine ma
4 31
5 39
7 45
A BS
B it
C lassic
E O
H ay
J am
K er
L ord
M it
S el
T am
V 6
h ol
j q
Ä ±
sh ed
sh op
ch ange
bi ao4
ti ce
15 93
17 24
17 52
14 69
14 98
13 70
si li
ãģ Ī
38 2
75 5
46 4
44 4
57 1
150 1
Ne ver
no va
Na me
PS 3
Ex press
wor ks
Bri tish
Dra gon
td own
Kar l
AGA SA
Kid s
Fried rich
6 46
6 67
C IA
D 2
D ro
G in
I RT
M 6
N um
O ld
X F
Z J
h igh
p pe
z za
de x
li us
er y
di es
ti ne
ti fy
15 20
15 60
15 53
16 51
la u
la w
17 40
ar o
14 93
60 2
se a
ma de
90 4
is m
49 6
49 8
44 3
na ment
ci o
us er
St or
Ra il
Fa mi
MA N
Bo ys
Ba by
pro du
UN G
ko v
AG UE
LE AGUE
Gu ard
Je ff
Don ald
Fire fox
à¥ į
Ath lon
Memo ri
orig in
6 11
6 45
9 45
B as
C 1
C r
C en
C BA
D EC
E a
G W
Q U
T AM
U 2
e i
t wo
Ã ¥
á º
li m
bi a
cu lus
15 96
16 32
16 79
17 18
17 35
17 45
17 58
25 G
ï¼ Ŀ
ãĥ ¡
90 7
ãĤ ģ
ãĤ Ĩ
to p
ci d
58 4
ss on
150 6
De ar
98 5
Vi olet
Ga ga
ment al
Sa mu
160 5
Si de
He alth
Fi sh
RE AM
Wil d
Cent ral
Dou g
Stand ard
Christo pher
YOSHI KI
0 50
4 39
5 33
7 31
7 32
7 41
7 62
9 62
A stro
A gain
C ree
E ye
H 3
I CD
K an
K ra
K ill
N U
O ff
R CP
T L
T it
T od
U CLA
W ood
c ine
n p
o me
p han
Ï ħ
â Ļ
sh an
di na
mo u
12 60
15 66
17 25
17 48
st en
ãĥ Ħ
70 6
ãĤ Ī
ãĤ Ĵ
45 7
37 9
to wn
75 6
55 3
67 3
57 4
57 6
au lt
Al an
Vi sion
os aurus
97 3
Ca pital
An na
Gre g
Jack son
Alpha Fold
Oper ation
Fleet line
Aven ue
Angela baby
5 16
6 17
6 39
7 22
7 35
A k
A na
B un
D U
E cono
G aon
H MS
N an
P 2
T ower
c ter
h al
n ers
s ou4
s ay
t ch
x a
á ¸
li ty
er gy
we en
20 50
qu id
15 28
15 72
16 52
la de
17 27
17 61
13 68
ãĥ ¯
ãĥ İ
35 6
70 4
48 2
65 5
In fo
br ary
AR E
ga te
mp son
Ba i
end s
BL E
Col or
lin k
Har ry
ess or
Eng lish
Gar den
Jon es
Ander son
Eliza beth
Commit tee
0 10
4 47
8 63
9 26
9 61
E pi
H ero
L X
R ATP
V P
W W
c ta
c ity
i ra
k it
de fea
bi rd
lv a
15 31
15 38
16 47
16 81
la st
on al
ra m
80 3
70 8
ãĤ ĥ
45 2
45 3
the y
65 1
be d
Co ok
58 6
57 2
Ro s
St ro
150 4
ED G
AP G
Be yond
IC A
do or
Ba sic
ali s
170 1
Ste phen
Pi e
Qu a
wor d
Col span
HO ME
igh ts
App li
pri se
cc ff
cc ccff
Pre ss
Dis co
Twit ch
Pat rick
Wo men
FIN AL
4 38
5 11
9 33
A pa
B ow
I LE
J es
R ad
S NC
b and
g as
h ang4
p as
v ity
Î ©
Ð ·
Ø ª
ì ļ
de i3
xu s
ni cal
15 30
15 37
la ti
17 36
ar di
ï¼ Ĩ
60 3
80 8
46 1
46 8
68 1
Re a
Me ga
Al f
fi sh
ON G
sta te
170 9
Car l
Ke vin
Sou thern
Game Spot
Ab du
Java Script
spe ci
fra me
Prin ce
Direct X
fun ction
Moder n
5 41
6 29
6 48
7 25
B 3
C AR
D or
E LE
M bps
N N
N PC
P 4
U RE
i des
p et
Ñ ħ
en se
mi e
di re
su ch
su per
zi ng
cu i3
15 19
15 29
15 55
16 87
17 28
te am
ãĥ Ŀ
90 5
48 4
65 3
Ma h
be fore
55 9
49 1
67 9
OS S
79 6
Sa f
Fa ir
MA D
Si lver
Con cer
Th at
Par is
cket t
UR L
AO A
Spo tify
cture s
Plan et
ASC II
Omega T
Mitch ell
Yah oo
3 G
4 23
5 36
6 32
7 15
8 25
8 33
A la
A rea
C AL
D 9
E ri
F ly
G RO
K 2
M oney
R DS
V is
a po
a te
b h
h uo1
s ci
w art
er on
20 35
lv in
11 20
po li
17 67
ck ing
es a
Ma ker
Ch ro
Ch rome
47 3
49 2
66 1
Ro bin
au to
56 2
Li ber
De ad
De bian
Le o
Vi a
Se e
La ur
bu cket
ho st
An n
An th
An ne
PS 2
Con ne
Fe de
Ed die
TR A
Coun tdown
Zi co
sig ned
TOK YO
Violet ta
3 39
4 29
5 32
6 65
7 75
7 69
A x
D 5
D al
H and
J I
P ur
R 1
R F
S 3
S NS
e g
f low
g ia
m bo
w y
w is
Õ ¡
mi e1
12 20
15 45
16 64
16 59
17 19
ar tic
14 95
14 96
13 88
th or
70 2
70 3
Ma in
ST ATION
68 9
69 2
un der
Mi x
Ne u
Ja co
os o
ent al
ment ary
ER S
ha us
hi m
AN D
An ti
gra phy
gin s
Ste ven
Ph y
Ju an
gen e
IF F
Ani me
Hen ri
Fo x
Hum an
Frame work
4 34
6 36
7 29
7 61
8 78
A us
A ction
D in
E 1
E 231
G ot
G EN
J ay
L 2
M 5
P AGASA
R K
T oo
Z ERO
b ble
d as
e b
l f
o li
y d
Ð ĳ
Ð ľ
Ñ Ĩ
ì Ĺ
le u
ti er
15 46
15 49
15 62
16 70
16 90
16 54
16 53
16 94
17 59
14 66
ãĥ ¢
80 7
70 9
il o
45 8
lo ve
46 3
55 5
59 6
de Ġ
Ġ deĠ
shi4 Ġ
Ġ shi4Ġ
Ġ nian2
Ġnian2 Ġ
wei4 Ġ
zai4 Ġ
Ġ wei4Ġ
Ġ zai4Ġ
he2 Ġ
Ġ he2Ġ
zhong1 Ġ
bu4 Ġ
di4 Ġ
shi2 Ġ
guo2 Ġ
yu2 Ġ
ren2 Ġ
Ġ bu4Ġ
yi1 Ġ
Ġ zhong1Ġ
li4 Ġ
zhi4 Ġ
gong1 Ġ
Ġ shi2Ġ
yue4 Ġ
ji2 Ġ
cheng2 Ġ
yi4 Ġ
you3 Ġ
Ġ di4Ġ
Ġ yue4Ġ
Ġ yu2Ġ
Ġ ren2Ġ
Ġ zhi4Ġ
da4 Ġ
Ġ ji2Ġ
yuan2 Ġ
Ġ you3Ġ
ji4 Ġ
Ġ guo2Ġ
Ġ li4Ġ
Ġ gong1Ġ
Ġ yi4Ġ
Ġ yi3
Ġ cheng2Ġ
jia1 Ġ
si1 Ġ
yu3 Ġ
Ġ xian4
Ġ ri4
Ġ yi1Ġ
Ġ xing2
Ġ ta1
li3 Ġ
ji1 Ġ
Ġ dao4
hou4 Ġ
wei2 Ġ
Ġ zhi1
Ġ da4Ġ
Ġ yuan2Ġ
xi1 Ġ
Ġri4 Ġ
Ġ ge4
Ġyi3 Ġ
xue2 Ġ
hui4 Ġ
zuo4 Ġ
le Ġ
Ġ yu3Ġ
Ġdao4 Ġ
ming2 Ġ
Ġ ji4Ġ
bei4 Ġ
Ġxing2 Ġ
sheng1 Ġ
Ġ jian4
Ġ chu1
Ġ qi2
Ġ si1Ġ
Ġ de2
zheng4 Ġ
Ġxian4 Ġ
Ġ hou4Ġ
Ġ ji1Ġ
dui4 Ġ
shang4 Ġ
qu1 Ġ
shi3 Ġ
Ġ er3
Ġ jia1Ġ
you2 Ġ
Ġta1 Ġ
Ġ xi1Ġ
Ġ li3Ġ
Ġ er2
zhan4 Ġ
Ġ jun1
Ġ bing4
Ġzhi1 Ġ
Ġge4 Ġ
zhu3 Ġ
ren4 Ġ
fu4 Ġ
zi4 Ġ
wu4 Ġ
xin1 Ġ
dai4 Ġ
ju4 Ġ
ping2 Ġ
Ġchu1 Ġ
Ġ ke4
Ġ zhou1
xiang1 Ġ
Ġ hui4Ġ
shu4 Ġ
nan2 Ġ
Ġ she4
Ġ bei4Ġ
Ġ ming2Ġ
xia4 Ġ
guan1 Ġ
Ġer3 Ġ
Ġde2 Ġ
lu4 Ġ
yu4 Ġ
hua4 Ġ
Ġjian4 Ġ
jing1 Ġ
yan2 Ġ
fang1 Ġ
Ġ yin1
kai1 Ġ
jian1 Ġ
jiao4 Ġ
fa1 Ġ
yong4 Ġ
Ġ dan4
Ġer2 Ġ
zhu4 Ġ
lai2 Ġ
min2 Ġ
shou3 Ġ
zhe4 Ġ
xiang4 Ġ
wen2 Ġ
Ġjun1 Ġ
xi4 Ġ
qian2 Ġ
ben3 Ġ
te4 Ġ
Ġ wei2Ġ
zhi2 Ġ
fa3 Ġ
qi1 Ġ
jie2 Ġ
lian2 Ġ
Ġbing4 Ġ
dong4 Ġ
dian4 Ġ
Ġqi2 Ġ
Ġke4 Ġ
dong1 Ġ
mu4 Ġ
Ġ jin4
Ġ dui4Ġ
Ġ huo4
Ġ zhan4Ġ
fen1 Ġ
tai2 Ġ
zhang3 Ġ
du4 Ġ
jiang1 Ġ
Ġ qiu2
Ġ ping2Ġ
gao1 Ġ
ye4 Ġ
suo3 Ġ
bei3 Ġ
Ġzhou1 Ġ
shi1 Ġ
Ġ leĠ
duo1 Ġ
jie1 Ġ
ge2 Ġ
Ġ shang4Ġ
jin1 Ġ
Ġ zheng4Ġ
fu2 Ġ
Ġ zuo4Ġ
Ġ you2Ġ
Ġ fu4Ġ
kou3 Ġ
guo4 Ġ
zhi3 Ġ
Ġ tong2
hai3 Ġ
Ġ ren4Ġ
Ġ quan2
ma3 Ġ
tong1 Ġ
ru4 Ġ
zui4 Ġ
Ġ sheng1Ġ
Ġ xue2Ġ
ci3 Ġ
xing4 Ġ
wai4 Ġ
nei4 Ġ
la1 Ġ
ti3 Ġ
jue2 Ġ
ke3 Ġ
qi3 Ġ
shan1 Ġ
tian1 Ġ
chang3 Ġ
deng3 Ġ
zhen4 Ġ
wu3 Ġ
chang2 Ġ
zi Ġ
yao4 Ġ
bi3 Ġ
Ġ ju4Ġ
bao3 Ġ
mi3 Ġ
ya4 Ġ
Ġ ye3
gai1 Ġ
Ġyin1 Ġ
Ġ dai4Ġ
mian4 Ġ
zhong4 Ġ
Ġshe4 Ġ
feng1 Ġ
Ġ zhe4Ġ
zhong3 Ġ
ci4 Ġ
yun4 Ġ
yi2 Ġ
liu2 Ġ
che1 Ġ
shou4 Ġ
lin2 Ġ
bao1 Ġ
yi2 Ġge4Ġ
sai4 Ġ
jie4 Ġ
ding4 Ġ
shen1 Ġ
sheng3 Ġ
luo2 Ġ
mei3 Ġguo2Ġ
san1 Ġ
qi4 Ġ
xiao3 Ġ
Ġdan4 Ġ
neng2 Ġ
shu1 Ġ
ze2 Ġ
lie4 Ġ
xuan3 Ġ
si4 Ġ
qing1 Ġ
zhe3 Ġ
Ġqiu2 Ġ
jing4 Ġ
yuan4 Ġ
ba1 Ġ
wang2 Ġ
ke1 Ġ
tai4 Ġ
lan2 Ġ
bao4 Ġ
an1 Ġ
zong3 Ġ
ying3 Ġ
Ġhuo4 Ġ
bi4 Ġ
fu3 Ġ
dao3 Ġ
Ġ xin1Ġ
gu3 Ġ
ying1 Ġ
Ġ hao4
Ġ xia4Ġ
Ġ zi4Ġ
ge1 Ġ
fen4 Ġ
xiao4 Ġ
yue1 Ġ
ni2 Ġ
jiao1 Ġ
na4 Ġ
Ġ yu4Ġ
Ġ mi3Ġ
zi1 Ġ
er4 Ġ
Ġ xiang1Ġ
pu3 Ġ
dan1 Ġ
Ġ zhu4Ġ
biao3 Ġ
guan3 Ġ
tou2 Ġ
liang4 Ġ
chuan2 Ġ
Ġ lu4Ġ
su4 Ġ
wu2 Ġ
Ġ dang1
bo1 Ġ
ru2 Ġ
yan3 Ġ
nv3 Ġ
bo2 Ġ
Ġzhong1Ġ guo2Ġ
xing1 Ġ
ti2 Ġ
fei1 Ġ
da2 Ġ
se4 Ġ
cheng1 Ġ
mei3 Ġ
Ġwei4Ġ yu2Ġ
Ġjin4 Ġ
ceng2 Ġ
chan3 Ġ
Ġ nan2Ġ
shui3 Ġ
tu2 Ġ
bian4 Ġ
gui1 Ġ
Ġ ran2
yang2 Ġ
zhang1 Ġ
gai3 Ġ
dian3 Ġ
a1 Ġ
cong2 Ġ
jiu4 Ġ
Ġ ben3Ġ
Ġquan2 Ġ
sha1 Ġ
bao1Ġ kuo4
wang3 Ġ
jian3 Ġ
sheng4 Ġ
zu3 Ġ
shu3 Ġ
gang3 Ġ
hua2 Ġ
lv4 Ġ
qing2 Ġ
jing3 Ġ
liang3 Ġ
zu2 Ġ
ban4 Ġ
tong3 Ġ
gong4 Ġ
shang1 Ġ
li2 Ġ
hu4 Ġ
tong2 Ġ
bian1 Ġ
jin4 Ġ
long2 Ġ
luo4 Ġ
an4 Ġ
xu4 Ġ
chi2 Ġ
ao4 Ġ
mei2 Ġ
jin3 Ġ
ban1 Ġ
guang3 Ġ
chu1 Ġ
ce4 Ġ
mi4 Ġ
shen2 Ġ
Ġta1Ġ men
zheng1 Ġ
zhi1 Ġ
ling3 Ġ
you4 Ġ
fan3 Ġ
wei1 Ġ
Ġ zhu3Ġ
Ġ xiang4Ġ
huo2 Ġ
xi2 Ġ
ting2 Ġ
ka3 Ġ
cha2 Ġ
Ġ gai1Ġ
cai2 Ġ
gou4 Ġ
shuo1 Ġ
men2 Ġ
ci2 Ġ
xiang3 Ġ
mu3 Ġ
lei4 Ġ
wei3 Ġ
qu3 Ġ
Ġgong1Ġ li3Ġ
yan2Ġ jiu1
Ġ duo1Ġ
tuan2 Ġ
yin3 Ġ
jian4 Ġ
Ġye3 Ġ
chao2 Ġ
ying4 Ġ
chen2 Ġ
Ġ wan4
tang2 Ġ
xie1 Ġ
qi2 Ġ
pin3 Ġ
Ġyi3 Ġji2Ġ
jia4 Ġ
shi3Ġ yong4Ġ
jie3 Ġ
hang2 Ġ
yi3 Ġ
lun2 Ġ
rong2 Ġ
Ġ you2
jiang3 Ġ
pai2 Ġ
fu1 Ġ
jiu3 Ġ
1 Ġ
ling4 Ġ
tai2Ġ wan1
Ġhao4 Ġ
ĠdeĠ di4Ġ
xu1 Ġ
ke3 Ġyi3Ġ
huang2 Ġ
xian1 Ġ
duan4 Ġ
ke4 Ġ
dang3 Ġ
mo2 Ġ
can1 Ġ
ying2 Ġ
tiao2 Ġ
biao1 Ġ
ĠdeĠ yi1Ġ
kai1Ġ shi3Ġ
quan2 Ġ
zhan3 Ġ
Ġcheng2Ġ wei2Ġ
ye3 Ġ
hong2 Ġ
mei2 Ġyou3Ġ
han4 Ġ
e2 Ġ
yin1 Ġ
wei3 Ġyuan2Ġ
qian1 Ġ
ban3 Ġ
xian4 Ġ
ling2 Ġ
xiao1 Ġ
Ġtong2 Ġ
hui2 Ġ
su1 Ġ
fang2 Ġ
meng2 Ġ
zhuang1 Ġ
kong1 Ġ
ju2 Ġ
cun1 Ġ
bao1Ġkuo4 Ġ
ren2Ġ kou3Ġ
Ġqi2 Ġzhong1Ġ
2 Ġ
Ġgong1Ġ si1Ġ
huo4 Ġ
zi3 Ġ
xing2 Ġ
dou1 Ġ
ĠdeĠ shi4Ġ
ĠĠĠ zai4Ġ
qiang2 Ġ
zhao4 Ġ
du2 Ġ
zheng4 Ġzhi4Ġ
yi2 Ġge4
mo4 Ġ
Ġ fen1Ġ
cai3 Ġ
bing1 Ġ
fa3 Ġguo2Ġ
Ġ gao1Ġ
Ġda4Ġ xue2Ġ
Ġshi4Ġ yi1Ġ
hai2 Ġ
Ġta1 ĠdeĠ
hu2 Ġ
chu4 Ġ
qin1 Ġ
lun4 Ġ
fan4 Ġ
zhen1 Ġ
guang1 Ġ
wen4 Ġ
man4 Ġ
Ġ jie2Ġ
she4 Ġ
biao3 Ġshi4Ġ
ai4 Ġ
zhong1 ĠdeĠ
ju1 Ġ
Ġ jiao4Ġ
zhuan1 Ġ
diao4 Ġ
bai2 Ġ
da3 Ġ
que4 Ġ
dian4 Ġshi4Ġ
Ġ dong1Ġ
Ġ du4Ġ
fei4 Ġ
Ġshi4Ġ wei4Ġ
Ġ mu4Ġ
han2 Ġ
shi4 ĠdeĠ
Ġ te4Ġ
xun4 Ġ
Ġ jin1Ġ
pian4 Ġ
ming4 Ġ
ju3 Ġ
Ġ jiang1Ġ
tuo1 Ġ
gu4 Ġ
Ġren2Ġ kou3Ġ
xiu1 Ġ
Ġbu4Ġ fen4Ġ
xie2 Ġ
zao4 Ġ
Ġhe2Ġ guo2Ġ
zhong1Ġ guo2Ġ
guo3 Ġ
10 Ġyue4Ġ
shou1 Ġ
Ġ zui4
xin4 Ġ
12 Ġyue4Ġ
7 Ġyue4Ġ
9 Ġyue4Ġ
Ġ shi1Ġ
zhuan3 Ġ
ta1 Ġ
dang1 Ġ
mian4 Ġji1Ġ
Ġren2Ġ min2Ġ
8 Ġyue4Ġ
xun2 Ġ
Ġdi4Ġ qu1Ġ
wu1 Ġ
3 Ġyue4Ġ
Ġ guo4Ġ
Ġ suo3Ġ
1 Ġyue4Ġ
Ġ jing1Ġ
Ġ shou3Ġ
gan3 Ġ
huan2 Ġ
di2 Ġ
xia2 Ġ
jia3 Ġ
5 Ġyue4Ġ
ying1 Ġguo2Ġ
Ġ ci3Ġ
dao4 Ġ
3 Ġ
di3 Ġ
zhu1 Ġ
ting1 Ġ
zheng4 Ġshi4Ġ
chong2 Ġ
huo3 Ġ
zhou1 Ġ
6 Ġyue4Ġ
zhuang4 Ġ
cheng2 Ġshi4Ġ
4 Ġyue4Ġ
Ġguo2Ġ jia1Ġ
tian2 Ġ
geng4 Ġ
ĠĠĠ di4Ġ
fang4 Ġ
yong3 Ġ
shu3 Ġyu2Ġ
Ġping2Ġ fang1
po4 Ġ
jun1 Ġ
Ġdi4Ġ yi1Ġ
Ġ qian2Ġ
11 Ġyue4Ġ
Ġ deng3Ġ
qu4 Ġ
qun2 Ġ
jiang4 Ġ
tao2 Ġ
Ġshi4Ġ ji4Ġ
Ġping2Ġfang1 Ġgong1Ġli3Ġ
Ġtong2 Ġshi2Ġ
Ġ ma3Ġ
dan1 Ġren4Ġ
Ġ tian1Ġ
Ġ ru2Ġ
gen1 Ġ
bie2 Ġ
Ġ sui4
pai4 Ġ
du1 Ġ
shao3 Ġ
liang2 Ġ
hui1 Ġ
tie3 Ġ
nong2 Ġ
ji3 Ġ
Ġnian2Ġ 1Ġyue4Ġ
ta3 Ġ
dian4Ġ ying3Ġ
Ġ qi1Ġ
zong1 Ġ
chu3 Ġ
Ġ zhe4
si3 Ġ
er3 Ġ
ĠdeĠ shi2Ġ
shuang1 Ġ
tai2Ġwan1 Ġ
qiao2 Ġ
gen1 Ġju4Ġ
li4Ġ shi3Ġ
chu2 Ġ
Ġshi4Ġ zhen4Ġ
gao4 Ġ
bai4 Ġ
can1 Ġjia1Ġ
yun4Ġ dong4
gang1 Ġ
che1 Ġzhan4Ġ
guo2 ĠdeĠ
jiao3 Ġ
Ġwan4 Ġ
Ġyin1 Ġwei4Ġ
Ġri4Ġ ben3Ġ
Ġping2Ġ fang1Ġ
li4 ĠdeĠ
Ġnian2 ĠdeĠ
gai4 Ġ
pan4 Ġ
Ġ wen2Ġ
Ġ hai3Ġ
zheng4Ġ fu3Ġ
bing4 Ġ
zhun3 Ġ
Ġnian2Ġ 12Ġyue4Ġ
wa3 Ġ
yan4 Ġ
wo3 Ġ
gong4 Ġhe2Ġguo2Ġ
Ġxian4 ĠdeĠ
Ġ fu2Ġ
ya2 Ġ
yin2 Ġ
fa1 Ġxian4Ġ
formula Ġ
chuang4 Ġ
hei1 Ġ
Ġ suo3
qu1 ĠdeĠ
song4 Ġ
huan4 Ġ
ha1 Ġ
hen3 Ġ
5 Ġ
ti2 Ġgong1Ġ
4 Ġ
jin4 Ġxing2Ġ
Ġ bei3Ġ
lei2 Ġ
2 Ġyue4Ġ
jing1 Ġji4Ġ
tong1Ġ guo4Ġ
Ġnian2Ġ 3Ġyue4Ġ
sui2 Ġ
chuan1 Ġ
qie3 Ġ
Ġzhong1Ġ yang1
Ġguo2Ġ ji4Ġ
hua1 Ġ
shang4 ĠdeĠ
Ġyou2 Ġyu2Ġ
Ġ you4Ġ
lei1 Ġ
wei3Ġyuan2Ġ hui4Ġ
kao3 Ġ
Ġnian2Ġ 7Ġyue4Ġ
wan2 Ġ
cheng1 Ġwei2Ġ
Ġnian2Ġ 10Ġyue4Ġ
bai3 Ġ
deng1 Ġ
Ġ ying1Ġ
Ġshi4Ġ jie4Ġ
Ġyin1Ġ ci3Ġ
ming2 Ġwei4Ġ
Ġjin4 Ġxing2Ġ
nuo4 Ġ
Ġshi4Ġ zai4Ġ
chong1 Ġ
Ġran2 Ġ
zhu3 Ġyi4Ġ
Ġnian2Ġ 9Ġyue4Ġ
kuai4 Ġ
tu3 Ġ
Ġzhi1 Ġhou4Ġ
yan2Ġjiu1 Ġ
Ġta1Ġmen Ġ
qiu2 Ġ
mai4 Ġ
shi2 ĠdeĠ
lian4 Ġ
hao4 Ġ
Ġnian2Ġ 5Ġyue4Ġ
Ġ lian2Ġ
sa4 Ġ
lu2 Ġ
xi4Ġ tong3Ġ
Ġ zui4Ġ
pei4 Ġ
lu3 Ġ
Ġnian2Ġ 4Ġyue4Ġ
chi3 Ġ
liao4 Ġ
Ġdang1 Ġ
Ġnian2Ġ 8Ġyue4Ġ
Ġnian2Ġ 6Ġyue4Ġ
Ġxing2 ĠdeĠ
zeng1 Ġ
ren2 ĠdeĠ
Ġ shi3Ġ
xiang1Ġ gang3Ġ
xuan1 Ġ
qi1Ġ jian1Ġ
de2 Ġ
kuang4 Ġ
guan3 Ġli3Ġ
Ġgong1Ġ zuo4Ġ
piao4 Ġ
Ġzhi1 Ġyi1Ġ
xu3 Ġ
en1 Ġ
di1 Ġ
heng2 Ġ
da4 ĠdeĠ
bu3 Ġ
yang4 Ġ
sen1 Ġ
Ġzhong1Ġ xin1Ġ
xuan1 Ġbu4Ġ
tui1 Ġ
Ġnian2Ġ 11Ġyue4Ġ
zu3 Ġzhi1Ġ
ri4 Ġ
wang4 Ġ
bu4 ĠdeĠ
pi2 Ġ
men Ġ
Ġ bao1Ġkuo4Ġ
chang4 Ġ
ying3Ġ xiang3Ġ
yang3 Ġ
Ġta1 Ġzai4Ġ
qian1 Ġmi3Ġ
sai1 Ġ
er2 Ġ
ĠĠĠ sheng1Ġ
Ġhuo4 Ġde2Ġ
pi1 Ġ
Ġshi4Ġ jie4
luo2 Ġsi1Ġ
he4 Ġ
ke3Ġ neng2
cheng2 ĠdeĠ
Ġ gai1
Ġ qing1Ġ
Ġ mei3
nian4 Ġ
dun4 Ġ
xian2 Ġ
lou2 Ġ
qi2 Ġta1Ġ
Ġnian2Ġ 2Ġyue4Ġ
bang1 Ġ
Ġcheng2Ġ li4Ġ
le Ġyi1Ġ
huo2Ġ dong4Ġ
Ġ lai2Ġ
Ġren4Ġ wei2Ġ
Ġ fen1
Ġ bi3Ġ
you1 Ġ
liu4 Ġ
Ġ shu4Ġ
ke1 Ġxue2Ġ
fa1Ġ zhan3Ġ
huo4 Ġde2Ġ
jun4 Ġ
Ġ luo2Ġ
Ġzuo4Ġ wei2Ġ
6 Ġ
ya1 Ġ
Ġping2Ġfang1Ġ qian1Ġmi3Ġ
Ġ a1Ġ
hua2 Ġren2Ġmin2Ġ
Ġ wu2Ġ
ri4 Ġben3Ġ
bei1 Ġ
lao3 Ġ
hui4 Ġyi4Ġ
re4 Ġ
Ġ zhi2
Ġ liu2Ġ
tan2 Ġ
jian1 ĠdeĠ
ku4 Ġ
tie3 Ġlu4Ġ
ĠdeĠ ren2Ġ
yong4 Ġyu2Ġ
liao2 Ġ
ning2 Ġ
Ġshi2Ġ jian1Ġ
ĠdeĠ gong1Ġ
Ġ zhang1Ġ
Ġ shan1Ġ
ge4 Ġ
mian3 Ġ
Ġ yan2Ġ
mian4Ġ ji1
min2 Ġguo2Ġ
rui4 Ġ
wu1 Ġke4Ġ
yin4 Ġ
xian3 Ġ
le4 Ġ
zuo3 Ġ
gong4 Ġyou3Ġ
ĠĠĠ li4Ġshi3Ġ
hao3 Ġ
ĠĠĠsheng1Ġ ping2Ġ
hua2Ġren2Ġmin2Ġ gong4Ġhe2Ġguo2Ġ
fang1 Ġshi4Ġ
fa1Ġ sheng1Ġ
gan1 Ġ
Ġ zhi2Ġ
Ġ cong2Ġ
dou4 Ġ
wen4Ġ ti2Ġ
guan4 Ġjun1Ġ
zhu3Ġ yao4Ġ
ran2 Ġ
di4 ĠdeĠ
Ġdi4Ġ er4Ġ
dao3 Ġzhi4Ġ
Ġ xiao3Ġ
guan1Ġ xi4Ġ
cun2 Ġ
kang1 Ġ
can1 Ġyu4Ġ
Ġ jin3Ġ
yuan3 Ġ
Ġbu4Ġ fen4
zheng3 Ġ
Ġgong1Ġ cheng2Ġ
wan2 Ġcheng2Ġ
dan1 Ġwei4Ġ
ke3Ġ neng2Ġ
Ġ zhi3Ġ
Ġ wu3Ġ
yi1 Ġwei4Ġ
Ġ ze2Ġ
1 Ġri4Ġ
xie4 Ġ
Ġ zong3Ġ
suo3 Ġyou3Ġ
zhi4 ĠdeĠ
wen2Ġ hua4Ġ
Ġcheng2Ġ yuan2Ġ
ĠdeĠ cheng2Ġ
gei3 Ġ
lv3 Ġ
Ġ ba1Ġ
Ġ tong1Ġ
yuan2 ĠdeĠ
yong1 Ġyou3Ġ
cun2 Ġzai4Ġ
er4 Ġshi2Ġ
bei3 Ġbu4Ġ
lian2 Ġhe2Ġ
hou4 ĠdeĠ
niu3 Ġ
Ġ xi4Ġ
Ġshi4Ġ zhong1Ġ
zheng4Ġ fu3
you2 Ġyu2Ġ
guo2Ġ jia1Ġ
dui4 Ġyu2Ġ
Ġnian2Ġ zhi4Ġ
fa1 Ġxing2Ġ
yi4 ĠdeĠ
ju4 Ġyou3Ġ
Ġ zhi3
Ġjian4Ġ zhu4Ġ
bi3Ġ sai4Ġ
Ġbing4 Ġzai4Ġ
Ġdao4Ġ leĠ
xin1 ĠdeĠ
ou1 Ġ
si1 ĠdeĠ
shen3 Ġ
zi4Ġ ji3
yun4Ġ dong4Ġ
yun2 Ġ
xing2 Ġzheng4Ġ
yin4 Ġdu4Ġ
e2Ġ luo2Ġsi1Ġ
bin1 Ġ
Ġ mian4Ġji1Ġ
dai4Ġ biao3Ġ
Ġ mei3Ġguo2Ġ
shao4 Ġ
Ġ ling4Ġ
xu3 Ġduo1Ġ
Ġdan4 Ġshi4Ġ
ren4 Ġhe2Ġ
ge Ġ
sheng1 Ġyu2Ġ
tu1 Ġ
Ġ jian3Ġ
gui4 Ġ
man3 Ġ
Ġnian2Ġ dai4Ġ
ding1 Ġ
liang3 Ġge4Ġ
che4 Ġ
bao3Ġ hu4Ġ
Ġren2Ġkou3Ġ mi4Ġ
Ġ shi3
zh Ġ
xiu4 Ġ
xuan2 Ġ
Ġdang1 Ġshi2Ġ
Ġ dian4Ġ
ĠdeĠ yi2Ġge4Ġ
nan2 Ġbu4Ġ
ju3 Ġxing2Ġ
zhang4 Ġ
zhuan1 Ġji2Ġ
mian4Ġji1 Ġwei4Ġ
lai2 ĠdeĠ
Ġ guan1Ġ
fan1 Ġ
e4 Ġ
zao3 Ġ
Ġ ceng2Ġ
Ġzheng4Ġ fu3Ġ
du2 Ġli4Ġ
fu2Ġ wu4Ġ
jue2Ġ ding4Ġ
xie3 Ġ
Ġchu1 ĠdeĠ
ruo4 Ġ
zhu3Ġ yao4
kai1Ġ shi3
Ġli4Ġ shi3Ġ
qing3 Ġ
Ġ san1Ġ
Ġshe4 Ġji4Ġ
Ġ wang2Ġ
Ġ mei3Ġ
ming2 ĠdeĠ
hai4 Ġ
rang4 Ġ
Ġshi4Ġwei4Ġ yu2Ġ
jiu4 Ġshi4Ġ
Ġyou3Ġ yi1Ġ
geng1 Ġ
Ġ jiang1
gt Ġ
Ġ ci3
Ġ gtĠ
xi3 Ġ
tan4 Ġ
Ġqi2 Ġta1Ġ
Ġ fa3Ġ
Ġxing2Ġ zheng4Ġ
pei2 Ġ
jiao4Ġ yu4Ġ
shou4 Ġdao4Ġ
ai1 Ġ
Ġ feng1Ġ
lt Ġ
ren4Ġ wei2Ġ
fang3 Ġ
kan1 Ġ
wan3 Ġ
Ġ jie1Ġ
Ġshi4Ġ di4Ġ
fa1Ġ zhan3
she4 Ġhui4Ġ
Ġ ltĠ
yi4 Ġwei4Ġ
gu4 Ġshi4Ġ
shan4 Ġ
pian1 Ġ
fang1Ġ mian4Ġ
Ġxian4 Ġzai4Ġ
qu1 Ġwei4Ġ
Ġzui4 Ġzhong1Ġ
Ġ bi4Ġ
qin2 Ġ
Ġzhong1Ġyang1 Ġ
pao4 Ġ
Ġshi4Ġ shi4Ġ
tui4 Ġ
zhe Ġ
nei4 ĠdeĠ
Ġ jiu4Ġ
shu3 ĠdeĠ
xiang1Ġ gang3
xiao3 Ġshi2Ġ
dan4 Ġ
Ġ qu1Ġ
Ġli4Ġ ru2Ġ
zu2 Ġqiu2Ġ
shu4Ġ ju4Ġ
Ġbu4Ġ tong2
lie4Ġ che1Ġ
xu1Ġ yao4Ġ
hua4 ĠdeĠ
Ġ sui1
Ġ dong4Ġ
zhi2Ġ wu4Ġ
ren2 Ġshi4Ġ
qiang1 Ġ
zuo4 ĠdeĠ
shi3Ġ yong4
zeng1 Ġjia1Ġ
Ġji4Ġ hua4Ġ
min2Ġ zhu3Ġ
Ġshi2Ġ qi1Ġ
zuo4Ġ wei2Ġ
Ġ gu3Ġ
Ġ ceng2
kong4 Ġzhi4Ġ
Ġye3 Ġshi4Ġ
duan3 Ġ
tan3 Ġ
Ġjian4 ĠdeĠ
yin1 Ġyue4Ġ
Ġran2 Ġer2Ġ
Ġ an1Ġ
Ġ shu3Ġyu2Ġ
Ġyi3Ġ jing1Ġ
lang2 Ġ
Ġhe2Ġ zuo4Ġ
Ġzai4Ġ di4Ġ
ren2Ġ min2Ġ
Ġshi4Ġ jian4Ġ
Ġren2Ġ yuan2Ġ
Ġ you4
ta1 ĠdeĠ
Ġ ke1Ġ
Ġjian4 Ġyu2Ġ
xue2Ġ yuan4Ġ
zu3 Ġcheng2Ġ
Ġ ma3
chao1 Ġguo4Ġ
Ġ ge2Ġ
zuo4Ġ pin3Ġ
Ġyin1 Ġyue4Ġ
mao4 Ġ
Ġquan2 Ġguo2Ġ
xiong2 Ġ
zai3 Ġ
hu1 Ġ
hui4 ĠdeĠ
ji4 ĠdeĠ
Ġ si4Ġ
zong3Ġ tong3Ġ
suan4 Ġ
Ġzhe4Ġ xie1Ġ
7 Ġ
Ġwei4Ġ leĠ
Ġhou4Ġ lai2Ġ
yu2 Ġshi4Ġ
Ġ shou4Ġ
Ġ zhang3Ġ
Ġ tai4Ġ
Ġ pu3Ġ
Ġcheng2Ġ gong1Ġ
fa1 Ġbu4Ġ
da4Ġ li4Ġ
ti2 Ġchu1Ġ
Ġsui4 Ġ
Ġli4Ġ ya4Ġ
Ġ 000
Ġyi4Ġ yuan2Ġ
Ġshe4 Ġyou3Ġ
ĠĠĠ deĠ
Ġyin1Ġ ci3
yun4Ġdong4 Ġyuan2Ġ
yao1 Ġqiu2Ġ
han2 Ġguo2Ġ
bu4 Ġzai4Ġ
ni2Ġ ya4
pin2 Ġ
you3 ĠdeĠ
pu2 Ġ
zao4 Ġcheng2Ġ
ou1 Ġzhou1Ġ
qiu1 Ġ
cai3Ġ yong4Ġ
xiao3 Ġxing2Ġ
Ġgong1Ġ yuan2Ġ
jia1 ĠdeĠ
xing4 ĠdeĠ
ba3 Ġ
sheng1 ĠdeĠ
ĠdeĠ yi2Ġge4
Ġri4 Ġzai4Ġ
dang1 Ġshi2Ġ
kong4 Ġ
ren2Ġ wu4Ġ
feng4 Ġ
Ġci3Ġ wai4Ġ
Ġ sui2
gong4Ġ chan3Ġ
Ġ la1Ġ
kan4 Ġ
Ġ zhĠ
Ġ cong2
Ġ wo3Ġ
Ġ sha1Ġ
8 Ġ
wan1 Ġ
Ġshi4Ġ he2Ġ
2010 Ġnian2Ġ
Ġ ling4
Ġ gen1Ġju4Ġ
ĠdeĠ bu4Ġ
Ġ ti3Ġ
ma3 Ġwei4Ġ
xue2Ġ jia1Ġ
you2Ġ xi4Ġ
song1 Ġ
fan4 Ġwei2Ġ
Ġbu4Ġ tong2Ġ
mao2 Ġ
dun1 Ġ
kai1Ġ fa1Ġ
chao1 Ġ
she4 Ġji4Ġ
Ġ ke3Ġ
san1 Ġnian2Ġ
qu3 Ġde2Ġ
ĠdeĠ ji1Ġ
Ġ nv3Ġ
sai4 Ġshi4Ġ
xiong1 Ġ
ĠĠĠ shi4Ġ
Ġxing2 Ġcheng2Ġ
ĠĠĠdi4Ġ li3Ġ
wen1 Ġ
zi4 Ġzhi4Ġ
Ġ yi2Ġ
chan3 Ġsheng1Ġ
Ġ wu4Ġ
Ġ jian1Ġ
a1 Ġer3Ġ
yao2 Ġ
ĠdeĠ ji4Ġ
shu1 Ġji4Ġ
jie2Ġ mu4Ġ
Ġbing4 Ġyu2Ġ
10 Ġ
dou1 Ġshi4Ġ
ni3 Ġ
chong2 Ġxin1Ġ
Ġ liang3Ġ
lve4 Ġ
chun1 Ġ
Ġshe4 Ġhui4Ġ
zhong4Ġ yao4
li3 ĠdeĠ
bu2 Ġshi4Ġ
zan4 Ġ
Ġdai4Ġ biao3Ġ
yi1 Ġnian2Ġ
Ġxiang1Ġ gang3Ġ
Ġsi1Ġ te4Ġ
dian4Ġ ying3
guan1 Ġyu2Ġ
dang4 Ġ
zhui1 Ġ
xi4Ġ tong3
Ġ na4Ġ
jue2Ġ se4Ġ
Ġ fu2
jiao1Ġ tong1Ġ
ding3 Ġ
lang3 Ġ
Ġyou2Ġ xi4Ġ
da4Ġ xue2Ġ
ji2 ĠdeĠ
ge1Ġ qu3Ġ
chu2 ĠleĠ
Ġchu1 Ġxian4Ġ
Ġ jie2
tao3 Ġ
2020 Ġnian2Ġ
mi2 Ġ
Ġzhi4Ġ zuo4Ġ
Ġda4Ġ xue2
ping2 Ġjun1Ġ
Ġ chen2Ġ
Ġde2 Ġguo2Ġ
xian3 Ġshi4Ġ
hua2Ġ min2Ġguo2Ġ
Ġ shen1Ġ
kuo4 Ġ
Ġnian2Ġ zai4Ġ
Ġzhong1Ġ hua2Ġren2Ġmin2Ġgong4Ġhe2Ġguo2Ġ
kong3 Ġ
hou4 Ġzai4Ġ
miao2 Ġ
Ġ liang3
Ġnian2Ġ dai4
er4 Ġnian2Ġ
xia4 ĠdeĠ
yan3 Ġyuan2Ġ
Ġke4 Ġsi1Ġ
Ġ 0
de2 Ġguo2Ġ
xiang2 Ġ
qing4 Ġ
Ġ bao3Ġ
wei2 Ġyi1Ġ
cao3 Ġ
dang1 Ġdi4Ġ
guo2Ġ ji4Ġ
dui4 ĠdeĠ
bo2Ġ wu4Ġ
Ġ fei1Ġ
Ġjian4 Ġli4Ġ
hun1 Ġ
Ġdi4Ġ guo2Ġ
Ġbu4Ġ yu2Ġ
Ġ 1Ġ
fan3 Ġdui4Ġ
zou3 Ġ
qi1 ĠdeĠ
duan1 Ġ
wu4 ĠdeĠ
xue4 Ġ
yin1 Ġwei4Ġ
qu1Ġ yu4Ġ
qu4 Ġshi4Ġ
kuan3 Ġ
yi1 Ġbu4Ġfen4Ġ
wo4 Ġ
ba2 Ġgao1Ġ
Ġ chang2Ġ
que1 Ġ
2001 Ġnian2Ġ
guan3Ġ xia2Ġ
du4 Ġwei4Ġ
zheng4Ġzhi4Ġ ren2Ġwu4Ġ
Ġ ka3Ġ
peng2 Ġ
ni2Ġ ya4Ġ
hai2 Ġyou3Ġ
ĠĠĠ ren2Ġkou3Ġ
Ġ fa1Ġ
Ġdang1 Ġdi4Ġ
zui4 Ġzhong1Ġ
Ġta1 Ġshi4Ġ
Ġ dan1Ġ
Ġbu4Ġ dui4Ġ
Ġ yue1Ġ
lai2Ġ zi4Ġ
chi4 Ġ
Ġxing2 Ġshi4Ġ
Ġ 1
bi3Ġ sai4
qian2Ġ wang3Ġ
Ġ wei1Ġ
zhi2Ġ ye4Ġ
ding4 ĠdeĠ
quan2 Ġguo2Ġ
ba1 Ġshi4Ġ
yi1 Ġbu4Ġ
ĠdeĠ yuan2Ġ
Ġzheng4Ġ fu3
Ġ chu2Ġ
zhong4Ġ yao4Ġ
Ġ lin2Ġ
diao4Ġ cha2Ġ
Ġzhi1Ġ jian1Ġ
bian1Ġ ma3Ġwei4Ġ
Ġ huang2Ġ
Ġnian2Ġ jian1Ġ
Ġxue2Ġ ming2Ġ
xue2Ġ xiao4Ġ
zhao1 Ġ
zhu3Ġ xi2Ġ
xuan3Ġ ju3Ġ
Ġri4 Ġzhi4Ġ
gai3 Ġwei2Ġ
zu3 Ġzhi1
Ġ mei2Ġ
Ġ nei4Ġ
zhu3Ġ jiao4Ġ
fa2 Ġ
zi1Ġ liao4Ġ
Ġ jing4Ġ
hai3 Ġjun1Ġ
gong1 Ġshi4Ġ
Ġjun1 Ġshi4Ġ
ĠdeĠ da4Ġ
Ġren2Ġkou3Ġmi4Ġ du4Ġ
chu3 Ġli3Ġ
kang4 Ġ
zai1 Ġ
sun1 Ġ
ĠdeĠ yi4Ġ
fang1Ġ fa3Ġ
fu4Ġ ze2Ġ
Ġri4Ġ ben3
wu1Ġke4Ġ lan2Ġ
ĠĠĠ yu3Ġ
Ġ duo1
guan4 Ġ
Ġ bo1Ġ
Ġ jie4Ġ
shu4 ĠdeĠ
Ġyou3Ġ xian4
Ġ sheng4Ġ
dai4Ġ biao3
Ġ qi3Ġ
Ġ san1
Ġge4 Ġren2Ġ
Ġ hua4Ġ
wu2Ġ fa3Ġ
ying3Ġ xiang3
Ġji4Ġ shu4Ġ
Ġshi4Ġ you2Ġ
jie1Ġ rang3
ju1Ġ min2Ġ
zui4Ġ gao1Ġ
Ġ kai1Ġ
Ġ gai3Ġ
pa4 Ġ
qi2 Ġzhong1Ġ
lu4 ĠdeĠ
Ġ ci4Ġ
Ġ hong2Ġ
Ġ ze2
xue2Ġ sheng1Ġ
Ġzhi1Ġ chi2Ġ
zi4Ġ you2Ġ
wen3 Ġ
biao1Ġ zhun3Ġ
xie2 Ġhui4Ġ
shu4Ġ liang4
qie4 Ġ
an1 Ġquan2Ġ
fan3Ġ ying4Ġ
ke3 Ġyi3
hui4 Ġzai4Ġ
yao1 Ġ
shen4 Ġzhi4Ġ
ken3 Ġ
ye2 Ġ
bi3 Ġli4Ġ
tong3 Ġzhi4Ġ
Ġ 2Ġ
xi4Ġ lie4Ġ
Ġ sui2Ġ
chuang4 Ġzuo4Ġ
zhu3Ġ ren4Ġ
Ġ xin1
ĠĠĠ ben3Ġ
dong1 Ġbu4Ġ
ĠdeĠyi2Ġge4 Ġshi4Ġzhen4Ġ
Ġshi4Ġ yi2Ġge4Ġ
Ġ nan2
lian2Ġ meng2Ġ
Ġgong1Ġ si1
gai1 Ġguo2Ġ
kai3 Ġ
Ġfu4Ġ ze2Ġ
Ġ ming2
fan2 Ġ
ya3 Ġ
Ġdi4Ġ san1Ġ
Ġdi4Ġ shi2Ġ
ĠĠĠ xing2Ġzheng4Ġ
Ġ su1Ġ
ti3Ġ yu4Ġ
Ġbu4Ġ guo4Ġ
jie2Ġ gou4Ġ
niu2 Ġ
Ġdao4 ĠdeĠ
shi2 Ġnian2Ġ
qing2Ġ kuang4Ġ
neng2 Ġli4Ġ
nan2Ġ ziĠ
Ġ shui3Ġ
zhong1 Ġshi4Ġ
qing2Ġ kuang4
si4 Ġnian2Ġ
ĠĠĠ of
A Ġ
Ġ ge1Ġ
Ġ yang2Ġ
xi1 Ġbu4Ġ
hao2 Ġ
gong1 Ġbu4Ġ
sheng1Ġ huo2Ġ
jie1Ġ shou4Ġ
mou3 Ġ
nv3Ġ zi3Ġ
Ġ ao4
lu4 Ġxian4Ġ
cheng2Ġ li4Ġ
ĠĠĠ formulaĠ
suo1 Ġ
Ġzhong1Ġ xue2Ġ
gu1 Ġ
huan1 Ġ
9 Ġ
mian4 ĠdeĠ
Ġjin4Ġ ru4Ġ
yi4 Ġshi4Ġ
Ġer3 Ġsi1Ġ
ĠĠĠof ĠĠĠ
Ġzhu3Ġ yao4Ġ
bei3Ġ jing1Ġ
Ġ ke3Ġyi3Ġ
the ĠĠĠ
Ġ ba1
you3 Ġshi2Ġ
lian2Ġ sai4Ġ
Ġyi4Ġ hui4Ġ
guang3Ġ dong1Ġ
duo2 Ġ
Ġ ao4Ġ
ĠĠĠ jia1Ġ
lao2 Ġ
Ġ tai2Ġ
jian4 Ġzhu4Ġ
ya4 Ġzhou1Ġ
dao3 ĠdeĠ
Ġguo2Ġ min2Ġ
ye3 Ġshi4Ġ
na2 Ġda4Ġ
tai4 Ġping2Ġ
dong4Ġ wu4Ġ
Ġsuo3 Ġyi3Ġ
di4 Ġwei4Ġ
ran3 Ġ
gui3 Ġ
Ġzhe4 Ġshi4Ġ
ba2Ġgao1Ġ du4Ġ
da2 Ġdao4Ġ
zi4Ġji3 ĠdeĠ
li3 Ġshi4Ġ
zhu2 Ġjian4Ġ
zhuan4 Ġ
Ġbing4Ġ qie3
dai4 ĠdeĠ
ban3 Ġben3Ġ
xu3Ġ duo1
zhe3 ĠdeĠ
jiao4Ġ shou4Ġ
Ġ hai2Ġ
Ġ er4Ġ
2008 Ġnian2Ġ
xiang4Ġ mu4Ġ
Ġxue2Ġ xiao4Ġ
Ġ hu2Ġ
Ġ da4
wu1Ġke4Ġ lan2
Ġ mu3Ġ
fei1Ġ chang2Ġ
2009 Ġnian2Ġ
Ġxi1Ġ ya4Ġ
qing1 Ġnian2Ġ
Ġ zong3
Ġbing4Ġ qie3Ġ
Ġzhu3Ġ yao4
s Ġ
la1 Ġsi1Ġ
ĠĠĠ gen1Ġju4Ġ
yi1 Ġshi4Ġ
Ġcheng2Ġ wei2
ri4Ġ ben3
mo2 Ġshi4Ġ
zhe2 Ġ
niao3 Ġ
wen2Ġ wu4Ġ
Ġta1Ġmen ĠdeĠ
Ġyi4Ġ shu4Ġ
zhi3 Ġyou3Ġ
cha1 Ġ
kuan1 Ġ
Ġji4Ġ lu4Ġ
Ġzhou1 ĠdeĠ
Ġ ai4Ġ
Ġ min2Ġ
hang2Ġ kong1Ġ
Ġ yu2Ġshi4Ġ
wen2Ġ xue2Ġ
Ġ bo2Ġ
fen1 Ġwei2Ġ
suan1 Ġ
hui3 Ġ
Ġqi2 Ġshi4Ġ
Ġqi2 Ġyu2Ġ
deng3 Ġren2Ġ
tong1Ġ guo4
cang2 Ġ
zhi3 Ġchu1Ġ
shuai4 Ġ
28 Ġri4Ġ
Ġ yong4Ġ
ren2Ġkou3Ġ pu3Ġ
cuo4 Ġ
zhi2 Ġxing2Ġ
Ġ jin1
tong2 Ġshi2Ġ
Ġqiu2 Ġdui4Ġ
zha4 Ġ
Ġli4Ġ ya4
yan3 Ġchu1Ġ
zhi2Ġ jie1Ġ
gai1 Ġdi4Ġ
jin3Ġ biao1Ġ
ge2Ġ lan2Ġ
2016 Ġnian2Ġ
huo2Ġ dong4
ren4Ġ wei2
zhe4 Ġyi1Ġ
jin4Ġ ru4Ġ
Ġzhi1Ġ jian1ĠdeĠ
Ġgong1Ġ kai1Ġ
Ġdang1 Ġzhong1Ġ
hun4 Ġ
gong4 Ġtong2Ġ
xia4 Ġji4Ġ
Ġdan4 Ġzai4Ġ
Ġ 2
chou2 Ġ
zhan4Ġ zheng1Ġ
wu3 Ġnian2Ġ
jiang1 Ġjun1Ġ
Ġ wu2
le4 Ġbu4Ġ
mei2Ġ ti3Ġ
ti3 ĠdeĠ
che1Ġ zhan4
po1 Ġ
15 Ġri4Ġ
ti4 Ġ
meng4 Ġ
tui1 Ġchu1Ġ
die2 Ġ
jiao4Ġ yu4
yun3 Ġ
zhe4Ġ xie1Ġ
Ġshi4Ġ wu4Ġ
miao4 Ġ
li2Ġ kai1Ġ
Ġ yin3Ġ
Ġling4Ġ wai4Ġ
huan2Ġ jing4Ġ
teng2 Ġ
zhu2 Ġ
2012 Ġnian2Ġ
lin2Ġ pi3
Ġdi4Ġ er4
shang1Ġ ye4Ġ
Ġ C
2011 Ġnian2Ġ
chuan2Ġ tong3Ġ
ĠĠĠ nian2
guan1 ĠdeĠ
san1 Ġshi2Ġ
jun1 Ġshi4Ġ
dan1Ġ qu1Ġ
liang4 ĠdeĠ
jie1 Ġdao4Ġ
san4 Ġ
ji1 ĠdeĠ
qian2 ĠdeĠ
ren2 Ġzai4Ġ
zang4 Ġ
nei4Ġ rong2Ġ
sai4 Ġji4Ġ
gao1 ĠdeĠ
dong4Ġ hua4Ġ
bo2 Ġshi4Ġ
du4 ĠdeĠ
Ġwei4Ġ ren2Ġ
yin2Ġ hang2Ġ
Ġ mi3
xuan3Ġ ju3
Ġwei4Ġ zhi4Ġ
Ġ gu4Ġ
sun3 Ġ
cheng2 Ġzhong1Ġ
ming4 Ġming2Ġ
deng3 Ġdi4Ġ
Ġgong1Ġ lu4Ġ
bang3 Ġ
re4 Ġdai4Ġ
bei3Ġ jing1
Ġzhe4Ġ geĠ
Ġshi2Ġ ji4Ġ
yun4Ġdong4 Ġhui4Ġ
xuan3Ġ ze2Ġ
Ġda4Ġ li4Ġ
Ġer2 Ġzai4Ġ
Ġ han4Ġ
yuan2 Ġnian2Ġ
bao4Ġ gao4Ġ
Ġ ye4Ġ
Ġmu4Ġ qian2Ġ
ĠdeĠ he2Ġ
bo1 Ġchu1Ġ
zui4 Ġjia1Ġ
ĠĠĠ ju4Ġ
zong1 Ġjiao4Ġ
xue2 Ġwei4Ġ
tu3 Ġdi4Ġ
Ġde2 Ġdao4Ġ
wen2Ġ hua4
zui4 Ġhou4Ġ
tuan2Ġ ti3Ġ
25 Ġri4Ġ
Ġdi4Ġ fang1Ġ
gui3 Ġdao4Ġ
luan4 Ġ
Ġwei4Ġ di4Ġ
Ġ mo2Ġ
Ġ zhan4
jing1 Ġli4Ġ
xi4 ĠdeĠ
Ġzhi1Ġ qian2Ġ
sheng3 ĠdeĠyi2Ġge4Ġshi4Ġzhen4Ġ
Ġshi4Ġyi1Ġ zhong3Ġ
Ġshi4Ġwei4Ġyu2Ġ mei3Ġguo2Ġ
Ġ qi4Ġ
sui4 Ġ
Ġ xing4Ġ
ji2 Ġzhong1Ġ
Ġge4 Ġyue4Ġ
Ġjun1 ĠdeĠ
si3Ġ wang2Ġ
xiang1Ġ guan1Ġ
Ġ bao1Ġkuo4
30 Ġri4Ġ
fen1Ġ bie2
Ġji1Ġ gou4Ġ
wei4 ĠdeĠ
shou3Ġ ci4Ġ
ao4Ġ lin2Ġpi3
Ġ 12
B Ġ
ling3Ġ dao3Ġ
Ġyou3Ġ guan1Ġ
Ġhai3Ġ ba2Ġgao1Ġdu4Ġ
Ġyi1Ġ xie1Ġ
Ġ zhong4Ġ
Ġtong2 Ġnian2Ġ
Ġ jue2Ġ
yong4 ĠdeĠ
2014 Ġnian2Ġ
huai2 Ġ
ĠĠĠ wei4Ġ
20 Ġri4Ġ
Ġxing2Ġ dong4Ġ
xue3 Ġ
Ġzai4Ġ yi1Ġ
ji1 Ġyu2Ġ
Ġzhong1Ġ hua2Ġmin2Ġguo2Ġ
shui3 Ġyu4Ġ
Ġ 5Ġ
bian4Ġ hua4Ġ
10 Ġri4Ġ
shang4 Ġwei4Ġ
Ġji2Ġ tuan2
2018 Ġnian2Ġ
Ġji4Ġ xu4Ġ
zhi1 Ġyi1Ġ
Ġshi2Ġ dai4Ġ
chu3 Ġyu2Ġ
wan4 Ġ
UTC Ġ
gong4 Ġhe2Ġ
Ġ wai4Ġ
Ġ bai2Ġ
mei3 Ġyuan2Ġ
Ġbu4Ġ zhang3Ġ
zi4Ġ ji3Ġ
Ġ ziĠ
jie2Ġ shu4Ġ
2019 Ġnian2Ġ
Ġ 14
Ġzi4Ġ ji3
zhi1Ġ chi2Ġ
de ĠĠĠ
2005 Ġnian2Ġ
guo4 Ġcheng2Ġ
Ġhou4Ġ lai2
min2Ġ zu2Ġ
shun4 Ġ
2015 Ġnian2Ġ
kong1Ġ jian1Ġ
shui4 Ġ
mei4 Ġ
bu2 Ġhui4Ġ
ye4 Ġyu2Ġ
Ġ ru2
Ġ cheng1Ġ
tou4 Ġguo4Ġ
nei4 Ġbu4Ġ
2013 Ġnian2Ġ
Ġ si4
jie3Ġ fang4
Ġzhi2 Ġdao4Ġ
Ġyi4Ġ zhi2Ġ
Ġ jing3Ġ
xin1Ġ wen2Ġ
fen1 Ġbu4Ġ
gen1Ġ ju4
Ġ ai4
Ġzhou1 Ġshi4Ġ
pi1 Ġping2Ġ
Ġji2Ġ tuan2Ġ
Ġ jiu4
2007 Ġnian2Ġ
Ġ shu3Ġ
di4Ġ qu1Ġ
ĠĠĠ zhe4Ġ
Ġhe2Ġ nan2Ġ
ta1Ġ men
Ġshi4Ġ shi2Ġ
Ġyou3Ġxian4 Ġgong1Ġsi1Ġ
wan2 Ġjia1Ġ
gui1Ġ ding4Ġ
Ġ shen2Ġ
Ġjia1Ġ ru4Ġ
ge2Ġ ming4Ġ
wan2 Ġquan2Ġ
cheng2Ġ wei2Ġ
Ġ tang2Ġ
xi1Ġ ban1Ġ
zi1Ġ ge2Ġ
26 Ġri4Ġ
da4Ġ lu4Ġ
ao4Ġlin2Ġpi3 Ġke4Ġ
ĠĠĠ gai1Ġ
18 Ġri4Ġ
2017 Ġnian2Ġ
Ġda4Ġ hui4Ġ
24 Ġri4Ġ
Ġ mo4Ġ
zai4 ĠdeĠ
za2 Ġzhi4Ġ
ĠĠĠ yi1Ġ
Ġzhe4Ġ zhong3Ġ
Ġ tou2Ġ
ying1 Ġyu3Ġ
lu4 Ġdi4Ġ
Ġ ying1Ġguo2Ġ
Ġ ke3
he2 ĠdeĠ
shang4Ġ hai3Ġ
hao2 Ġmi3Ġ
Ġyu3Ġ yan2Ġ
qi2 Ġta1
qi3Ġ ye4Ġ
pu2Ġ tao2Ġ
fang1 ĠdeĠ
hou4 Ġyi1Ġ
luo2Ġ ma3Ġ
wen4Ġ ti2
Ġcheng2Ġ qu1Ġ
san1 Ġge4Ġ
se4 ĠdeĠ
2006 Ġnian2Ġ
chuan2Ġ tong3
Ġshi4Ġ fa3Ġguo2Ġ
yi1 ĠdeĠ
wu4Ġ zhong3Ġ
Ġ yao4Ġ
11 Ġ
Ġwei4Ġyu2Ġ gai1Ġguo2Ġ
Ġ 3Ġ
Ġ tai2Ġwan1Ġ
Ġ ha1Ġ
Ġli3Ġ si1Ġ
jing4Ġ nei4Ġ
Ġbu4Ġtong2 ĠdeĠ
Ġ mo4
wu4 Ġli3Ġ
duo1 ĠdeĠ
shu4 Ġwei4Ġ
Ġdai4Ġ biao3
biao3 Ġxian4Ġ
Ġshi4Ġjie4 Ġda4Ġ
sheng3 Ġji2Ġ
miao2 Ġshu4Ġ
fa3Ġ lv4Ġ
gan4 Ġ
ba4 Ġ
guan1 Ġyuan2Ġ
jing1Ġ guo4Ġ
Ġ lu2Ġ
chang1 Ġ
16 Ġri4Ġ
17 Ġri4Ġ
Ġzui4 Ġhou4Ġ
Ġyi4Ġ ban1Ġ
po4Ġ huai4
Ġ a1
Ġguo2Ġ jia1
ying2 Ġde2Ġ
cai4 Ġ
Ġsui2 Ġhou4Ġ
zheng4 Ġzai4Ġ
na2 Ġ
bao1Ġ han2Ġ
Ġshi4Ġ jian4
bo2Ġwu4Ġ guan3Ġ
Ġgong1Ġ ji1Ġ
shen4 Ġ
ce4 Ġshi4Ġ
chang3 ĠdeĠ
Ġwei4Ġ zhong1Ġ
chun2 Ġ
Ġli4Ġ yong4Ġ
Ġ chao2Ġ
bu4 Ġhe2Ġ
Ġ ci4
nie4 Ġ
8 Ġri4Ġ
ze2 Ġshi4Ġ
sou1 Ġ
fei1 Ġji1Ġ
Ġfen1 Ġbu4Ġyu2Ġ
zhuan1Ġ ye4Ġ
zheng1 Ġyi4Ġ
27 Ġri4Ġ
fa3Ġ yuan4Ġ
shi3 ĠdeĠ
Ġdi4Ġ qu1
Ġ 2001Ġnian2Ġ
s ĠĠĠ
yong1 Ġ
21 Ġri4Ġ
yi4 Ġshi2Ġ
zao1 Ġdao4Ġ
Ġsui1 Ġran2
Ġshi4Ġ yi4Ġ
Ġsheng1Ġ huo2Ġ
Ġ chong2Ġ
12 Ġri4Ġ
Ġbei4Ġ cheng1Ġwei2Ġ
ding4 Ġyi4Ġ
Ġzhong1Ġ xin1
Ġda4Ġ qu1Ġ
zong1 Ġhe2Ġ
Ġzhan4Ġ zheng1Ġ
xue2 ĠdeĠ
Ġxian4 Ġshi2Ġ
7 Ġri4Ġ
Ġzhong1Ġ gong4
19 Ġri4Ġ
ji2 Ġwei4Ġ
23 Ġri4Ġ
2021 Ġnian2Ġ
huang2 Ġdi4Ġ
ĠdeĠ zuo4Ġ
Ġ zhu1Ġ
zhi3 Ġshi4Ġ
2022 Ġnian2Ġ
11 Ġri4Ġ
a1Ġ la1Ġ
ou1 Ġzhou1
jiang1 Ġqi2Ġ
Ġbing4 Ġbu4Ġ
yuan2 Ġyu2Ġ
fang1Ġ xiang4Ġ
9 Ġri4Ġ
liu4 Ġnian2Ġ
zhan4 ĠdeĠ
e2Ġ luo2Ġ
ĠĠĠ yu2Ġ
chu1 Ġxian4Ġ
lie4Ġ che1
quan2 Ġli4Ġ
nao3 Ġ
gui1Ġ mo2Ġ
22 Ġri4Ġ
29 Ġri4Ġ
lie4 ĠdeĠ
zui4Ġ da4ĠdeĠ
duo1Ġ shu4Ġ
xiang4 ĠdeĠ
Ġ lu4
Ġ zhang1
xu1Ġ yao4
Ġ long2Ġ
hai2 Ġshi4Ġ
yu4 ĠdeĠ
neng2Ġ gou4Ġ
yue1Ġ han4Ġ
Ġzhe4Ġ xie1
5 Ġri4Ġ
ĠĠĠ ci3Ġ
ding4 Ġwei4Ġ
tong3 Ġji4Ġ
Ġxiang1Ġ gang3
sang1 Ġ
ĠĠĠ zheng4Ġzhi4Ġ
Ġzai4Ġ zhe4Ġ
xin4 Ġxi1Ġ
yang4 ĠdeĠ
Ġxian4 Ġzhi4Ġ
ĠĠĠ theĠĠĠ
gong1 ĠdeĠ
3 Ġri4Ġ
hong1 Ġ
ju3Ġ ban4
Ġfen1Ġ bie2
qiu2 Ġdui4Ġ
lian2Ġ meng2
ling4 Ġyi1Ġ
cha2 ĠdeĠ
14 Ġri4Ġ
chang2 Ġshi4Ġ
mei3Ġguo2Ġ ren2Ġkou3Ġpu3Ġ
6 Ġri4Ġ
niu3Ġ yue1
zu3 Ġhe2Ġ
Ġhuo4 Ġde2
lin2 Ġshi2Ġ
31 Ġri4Ġ
Ġzhong1Ġ bu4Ġ
wei4 Ġshi4Ġ
dong3 Ġshi4Ġ
Ġ jia4Ġ
Ġ bao4Ġ
ji1 Ġdi4Ġ
ge1Ġ shou3Ġ
Ġ liu2
Ġ ru4Ġ
ĠĠĠ zhong1Ġ
dong1Ġ nan2Ġ
hai3Ġ ba2
bang1 Ġzhu4Ġ
ĠdeĠshi4Ġ zhen4Ġ
Ġ hua2Ġ
Ġ gong4Ġ
4 Ġri4Ġ
pai1 Ġshe4Ġ
mou2 Ġ
Ġyi4Ġ da4Ġli4Ġ
21 Ġ
2000 Ġnian2Ġ
Ġshe4 Ġli4Ġ
13 Ġri4Ġ
Ġyi4Ġ ban1
2 Ġri4Ġ
Ġren2Ġ kou3
ge4 Ġren2Ġ
she4 Ġyou3Ġ
ĠdeĠ zhong1Ġ
bing3 Ġ
sheng1Ġ ya2Ġ
yuan2 Ġhe2Ġ
Ġ dao3Ġzhi4Ġ
Ġdi4Ġ qu1ĠdeĠ
2004 Ġnian2Ġ
Ġxue2Ġ sheng1Ġ
tie3Ġ lu4
feng2 Ġ
zu2 Ġqiu2
zao3 Ġqi1Ġ
Ġqi2 Ġta1
The ĠĠĠ
pan2 Ġ
xiong1 Ġdi4Ġ
ruan3 Ġ
sheng1 Ġzai4Ġ
cang1 Ġ
dong1Ġ bei3Ġ
Ġ 13
mu4 Ġdi4Ġ
Ġ wo3
Ġ bian4Ġ
tong1Ġ chang2Ġ
hui1 Ġfu4Ġ
Ġzhe4 Ġyi1Ġ
Ġshi4Ġ chang3Ġ
Ġxue2Ġ yuan4Ġ
shao1 Ġ
Ġ mei2Ġyou3Ġ
Ġ 4Ġ
shen1Ġ fen4Ġ
ĠĠĠ you2Ġyu2Ġ
qu3 Ġdai4Ġ
lian2Ġ bang1Ġ
ge2Ġ ming4
zhi3Ġ hui1Ġ
qing2Ġkuang4 Ġxia4Ġ
yi2 Ġbu4Ġ
su1Ġ lian2Ġ
xie2 Ġyi4Ġ
Ġ fu4
huang2 Ġjia1Ġ
ke1 Ġji4Ġ
fa1 Ġxian4
pang2 Ġ
zheng3 Ġge4Ġ
Ġ hei1Ġ
ren2 Ġhe2Ġ
Ġgong1Ġ chi3Ġ
yao1 Ġqiu2
yan1 Ġ
zhan1 Ġ
chao1 Ġji2Ġ
mao4 Ġyi4Ġ
yue4 ĠdeĠ
zhang3 ĠdeĠ
xue2Ġ yuan4
fan3Ġ ying4
ju3Ġ ban4Ġ
hang2Ġ kong1
cui1 Ġ
xi2 Ġji1Ġ
Ġye3 Ġyou3Ġ
nv3Ġ xing4Ġ
hua4 Ġhe2Ġ
xiao3Ġ shuo1Ġ
Ġdi4Ġ li4Ġ
ting3 Ġ
Ġ shu1Ġ
li4 Ġhe2Ġ
Ġxi1Ġ nan2Ġ
tu2Ġ shu1Ġ
guan1Ġ fang1Ġ
xian1 Ġhou4Ġ
tong3 Ġyi1Ġ
bi4Ġ ye4Ġ
Ġ ha1
za2 Ġ
Ġ gu4
Ġ shuang1Ġ
br Ġ
Ġ dong1
Ġ wei1
zun1 Ġ
Ġ 15
Ġ man4Ġ
Ġ que4Ġ
sai4 ĠdeĠ
hou2 Ġ
Ġyi3Ġ jing1
Ġ brĠ
lan3 Ġ
xie2 Ġzhu4Ġ
ci4 Ġshi4Ġjie4Ġda4Ġ
Ġru2Ġ guo3Ġ
me Ġ
shang4 Ġshi4Ġ
qu1Ġ hua4Ġ
fen1 Ġxi1Ġ
Ġ qian1Ġ
yu3 ĠdeĠ
Ġer3Ġ sheng3Ġ
ren2Ġkou3Ġ shu4Ġliang4
wen2Ġwu4Ġ bao3Ġhu4Ġ
Ġ 3
Ġhe2Ġ yi1Ġ
Ġbu4Ġ neng2Ġ
zi4 Ġxing2Ġ
Ġ ben3
jie1Ġ duan4Ġ
Ġ zu3Ġ
Ġ qie3Ġ
guang3Ġ bo1Ġ
20 Ġ
Ġ cai2Ġ
Ġ 6Ġ
Ġyi3Ġ lai2Ġ
Ġxi1Ġ ban1Ġ
dan1Ġ ren4
Ġ wu3
Ġta1Ġ ceng2
chi2Ġ xu4Ġ
tai2Ġ bei3
wu2 Ġxian4Ġ
Ġ A
gong4Ġchan3Ġ dang3Ġ
guo2 Ġhe2Ġ
Ġyi3Ġ xia4Ġ
qi1 Ġnian2Ġ
te4 ĠdeĠ
dao3Ġ yan3Ġ
hou4 Ġyu2Ġ
reng2 Ġ
yan3Ġ chang4
zhu4 Ġzai4Ġ
lai4 Ġ
fa1Ġ biao3
xia4Ġ xia2
tiao2 Ġjian4Ġ
pin2 Ġdao4Ġ
hu3 Ġ
Ġgong1Ġ zuo4
ye4 ĠdeĠ
jiao1 Ġyi4Ġ
Ġzai4Ġ ci4Ġ
Ġ jiu3Ġ
shao4 Ġnian2Ġ
jie2Ġ shu4
Ġshi4Ġ zhong1Ġguo2Ġ
zao1 Ġ
bao4 Ġdao4Ġ
Ġren2Ġkou3Ġmi4Ġ du4Ġwei4Ġ
qiu2 Ġyuan2Ġ
Ġshi4Ġ li4Ġ
Ġ qie3
ĠĠĠ bu4Ġ
Ġzhe4Ġ ge
jue2Ġ sai4Ġ
Ġ 8
Ġ ya4Ġ
ying4Ġ yong4Ġ
wai4 ĠdeĠ
you2Ġ zheng4Ġ
jian4 Ġli4Ġ
zi1 Ġyuan2Ġ
sai1 Ġer3Ġ
Ġqi2 Ġhou4Ġ
Ġ zhao4Ġ
Ġ xi1
zui4 Ġda4Ġ
Ġbing4 Ġwei4Ġ
Ġ 17
hui2 Ġdao4Ġ
su4Ġ du4Ġ
Ġ S
cao1 Ġ
qi4 Ġhou4Ġ
ke3Ġ da2Ġ
Ġ luo4Ġ
Ġwei4Ġyu2Ġ fa3Ġguo2Ġ
gai3Ġ ge2Ġ
mi4Ġ shu1Ġ
Ġyi1Ġ yuan4Ġ
dian4Ġshi4Ġ ju4Ġ
zhuang4Ġ tai4Ġ
zhu4 ĠdeĠ
fen4 Ġwei4Ġ
Ġ lan2Ġ
Ġgong1Ġ ye4Ġ
wang3 Ġzhan4Ġ
gong1Ġ si1Ġ
Ġ jie3Ġ
jie2Ġ guo3Ġ
suo3Ġ shu3ĠdeĠ
ĠdeĠdi4Ġ yi1Ġ
hu2 Ġnan2Ġ
Ġyi1Ġ si1Ġ
Ġ mai4
ya4 Ġli4Ġ
Ġwei4Ġ yi1Ġ
shang4Ġ hai3
20 Ġshi4Ġji4Ġ
Ġzuo4Ġ pin3Ġ
zuo3 Ġyou4Ġ
xiao3 Ġxue2Ġ
sheng4 Ġli4Ġ
jie2 Ġhe2Ġ
Ġzhong1Ġ gong4Ġ
shou3Ġ ci4
Ġsuo3 Ġyou3Ġ
Ġhao4 Ġxian4Ġ
zhen4Ġ qu1Ġ
ĠdeĠ fu4Ġ
wen2 Ġming2Ġ
Ġjian3Ġ cheng1Ġ
kai1Ġ fa1
yi2 Ġzhi4Ġ
jiao4 Ġhui4Ġ
sheng3Ġ fen4Ġ
zhan3Ġ kai1Ġ
yin4Ġ du4
shi2Ġ qi1Ġ
Ġ fa3Ġguo2Ġ
ling3Ġ dao3
mu4Ġ biao1Ġ
Ġ 10
Ġer2 Ġshi4Ġ
gao1 Ġji2Ġ
zhun3 Ġbei4Ġ
wang3Ġ luo4Ġ
Ġ fei1
Ġjian4 Ġshe4Ġ
xun4Ġ lian4Ġ
ke1 ĠdeĠ
juan3 Ġ
Ġren2Ġ wu4Ġ
xuan3Ġ shou3Ġ
jiao1Ġ tong1
hao3 ĠdeĠ
fa1Ġ biao3Ġ
zi4Ġ ran2Ġ
zhong4Ġyao4 ĠdeĠ
Ġ jia3Ġ
dong1Ġ jing1Ġ
chan3Ġ pin3Ġ
gong4Ġyou3Ġ ren2Ġkou3Ġ
Ġxian4Ġ dai4Ġ
Ġyi1Ġ ming2Ġ
Ġxi1Ġ bei3Ġ
lei3 Ġ
feng1Ġ ge2Ġ
Ġcheng2Ġ ji4Ġ
zou4 Ġ
Ġhe2Ġ di4Ġ
xiao3Ġxing2Ġ xing1Ġ
yan2Ġ zhong4Ġ
zi ĠdeĠ
mie4 Ġ
mu4Ġ qian2Ġ
wen2Ġwu4Ġbao3Ġhu4Ġ dan1Ġwei4Ġ
Ġ dan1Ġren4Ġ
Ġji1Ġ chang3Ġ
liu2 Ġxing2Ġ
bian4 Ġcheng2Ġ
Ġ guang1Ġ
Ġ mai4Ġ
qiao2 Ġzhi4Ġ
Ġ 16
lei4Ġ si4
dian4Ġshi4Ġ tai2Ġ
12 Ġ
jie3 Ġshi4Ġ
guo2Ġ min2Ġ
Ġyi4Ġ qi3Ġ
Ġ yong3Ġ
kai1Ġ fang4Ġ
Ġ shen4Ġzhi4Ġ
Ġ deng3
Ġxia4Ġ ling4
Ġ yi2Ġge4Ġ
ka3 Ġer3Ġ
2003 Ġnian2Ġ
xing2 Ġshi4Ġ
dou1 Ġyou3Ġ
2002 Ġnian2Ġ
Ġ chu2ĠleĠ
zhi1 Ġhou4Ġ
hui4 Ġhe2Ġ
mei3 Ġping2Ġfang1Ġgong1Ġli3Ġ
ru4 ĠleĠ
Ġyi1Ġ yang4Ġ
Ġgong1Ġ fen1Ġ
Ġshe4 Ġzhi4Ġ
te4Ġ zheng1Ġ
can1Ġ sai4Ġ
Ġsi1Ġ ji1Ġ
Ġ wu1Ġ
30 Ġ
ru2 Ġxia4Ġ
zhen1 Ġdui4Ġ
Ġying1Ġ chi3Ġ
jiu4 Ġshi4Ġzhen4Ġ
Ġshi4Ġ fou3
bang4 Ġ
Ġshi2Ġ jian1
gao1 Ġzhong1Ġ
Ġci3 Ġhou4Ġ
Ġzai4Ġ zhong1Ġ
Ġ che1Ġ
wang2 Ġguo2Ġ
bi4Ġ xu1Ġ
bi3Ġ jiao4Ġ
Ġ biao3Ġshi4Ġ
er4 Ġshi4Ġ
diao1 Ġ
wai4Ġ jiao1
gui1Ġ hua4Ġ
Ġ yu3
Ġyi4Ġ zhi4Ġ
lei4Ġ si4Ġ
zhe4Ġ geĠ
shan1Ġ dong1Ġ
Ġran2 Ġhou4Ġ
Ġyi4Ġ zhi2
Ġli4Ġ shu3Ġyu2Ġ
yuan2 Ġshi4Ġ
Ġsui1 Ġran2Ġ
dui4 Ġzai4Ġ
zhu4 Ġming2Ġ
yun2 Ġnan2Ġ
Ġ shang1Ġ
hen3 Ġduo1Ġ
Ġer3 ĠdeĠ
huo4 Ġde2
sheng1Ġ chan3Ġ
Ġ 9
Ġ D
ĠĠĠ gong1Ġ
zhan4 Ġyi4Ġ
Ġ bei3
Ġ tu2Ġ
zhong4 ĠdeĠ
dian4Ġ ziĠ
ĠĠĠ da4Ġ
Ġjian4 Ġzhi4Ġ
xin1 Ġjia1Ġ
lai2Ġ zi4
zhi4Ġ zuo4Ġ
shan1 Ġxi1Ġ
ren2Ġkou3Ġshu4Ġliang4 Ġwei4Ġren2Ġ
Ġ gu3
ju4 Ġji2Ġ
tao4 Ġ
ĠdeĠyi1Ġ zhong3Ġ
Ġ E
ĠdeĠ ming2Ġ
Ġwan4 Ġren2Ġ
ji2 Ġhe2Ġ
Ġxi1Ġ ya4
lv3 Ġyou2Ġ
Ġzhi4Ġ zao4Ġ
Ġxing2Ġ wei2Ġ
ma3Ġ lai2
bao4Ġ fa1Ġ
0 Ġ
nv3 Ġer2Ġ
Ġ ren4
Ġ INSEE
zong3 Ġli3Ġ
quan2 Ġqiu2Ġ
Ġ zu3
si1 Ġhe2Ġ
Ġ dui4Ġyu2Ġ
ĠdeĠ zhu3Ġ
sai4 Ġzhong1Ġ
Ġshang4Ġ hai3Ġ
fa1 Ġshe4Ġ
rui4 Ġshi4Ġ
bao1Ġ han2
nong2Ġ ye4Ġ
cha4 Ġ
ye4Ġ wu4Ġ
lu4 Ġjun1Ġ
tou2Ġ zi1Ġ
wu4 Ġzhi4Ġ
jue2 ĠdeĠ
nai4 Ġ
Ġfen1 Ġzhong1Ġ
Ġjin4 Ġshi4Ġ
ĠdeĠshi2Ġ hou4Ġ
Ġte4Ġ bie2
te4Ġ bie2Ġ
ao4Ġlin2Ġpi3Ġke4Ġ yun4Ġdong4Ġhui4Ġ
ge2 ĠdeĠ
Ġzhi4Ġ jin1Ġ
fang1Ġ an4Ġ
si1 Ġren2Ġ
hua4Ġ xue2Ġ
min3 Ġ
Ġda4Ġ liang4Ġ
ji2 Ġshi4Ġ
Ġ ni2Ġ
qian3 Ġ
ke3Ġneng2 Ġshi4Ġ
Ġnian2Ġ du4Ġ
jin4 ĠdeĠ
Ġzhi1Ġ wai4Ġ
si4 Ġshi2Ġ
cao2 Ġ
Ġ geng4Ġ
lian2Ġ jie1Ġ
Ġ zheng4Ġshi4Ġ
Ġ 00
xuan3 Ġwei4Ġ
Ġshe4Ġ shi1Ġ
chu4 ĠdeĠ
tu3 Ġer3
Ġli4Ġ si1Ġ
bo2Ġ te4Ġ
Ġzong3Ġ mian4Ġji1Ġ
fa1Ġ dong4Ġ
luo2Ġ ma3
chuang4 Ġli4Ġ
ĠdeĠ li4Ġ
Ġnian2Ġ hou4Ġ
Ġde2 Ġli3Ġ
guang3Ġ chang3Ġ
lian2 Ġhe2Ġguo2Ġ
ji2 Ġshi2Ġ
geng1Ġ ming2Ġwei4Ġ
zao3 Ġnian2Ġ
xiao4 Ġli4Ġ
qi4 ĠdeĠ
Ġ zhen1Ġ
biao3Ġ yan3Ġ
yi2 Ġshi4Ġ
Ġjun1 Ġzai4Ġ
reng2 Ġran2Ġ
fang1Ġ mian4
jue2Ġ ding4
Ġgai1Ġ sheng3Ġ
da1 Ġ
Ġ xian1Ġ
Ġ xiang4
Ġ han2Ġ
zhi4 Ġshi4Ġ
Ġgong1Ġ neng2Ġ
zong3Ġ tong3
Ġren2Ġkou3Ġmi4Ġdu4Ġ mei3Ġping2Ġfang1Ġgong1Ġli3Ġ
Ġ 6
Ġren2Ġkou3Ġmi4Ġdu4Ġwei4Ġ mei3
Ġxia4Ġling4 Ġshi2Ġ
you2Ġzheng4Ġ bian1Ġma3Ġwei4Ġ
ĠĠĠ bei4Ġ
cha2ĠdeĠ shu4Ġju4Ġ
Ġju4Ġ le4Ġbu4Ġ
Ġshi4Ġzhen4Ġ bian1Ġma3Ġwei4Ġ
ĠINSEE Ġshi4Ġzhen4Ġbian1Ġma3Ġwei4Ġ
biao1Ġ zhun3
Ġshe4 ĠdeĠ
xuan3Ġ qu1Ġwei4Ġ
Ġ xiao1Ġ
Ġzai4Ġ ci3Ġ
Ġbu4Ġ guo4
pai2 Ġming2Ġ
Ġguo2Ġ wang2Ġ
dong4 Ġli4Ġ
shi2ĠdeĠ ren2Ġkou3Ġshu4Ġliang4Ġwei4Ġren2Ġ
2023 Ġnian2Ġ
jie1Ġrang3 ĠdeĠshi4Ġzhen4Ġ
Ġ qing1
mei3Ġguo2Ġren2Ġkou3Ġpu3Ġ cha2ĠdeĠshu4Ġju4Ġ
jia1 Ġli4Ġ
cong2 Ġshi4Ġ
Ġer2 Ġren2Ġkou3Ġmi4Ġdu4Ġwei4Ġmei3
ge2Ġ lan2
Ġdang1Ġdi4Ġ gong4Ġyou3Ġren2Ġkou3Ġ
fen1Ġ lei4Ġ
jie3Ġ jue2Ġ
zu2 ĠdeĠ
da4 Ġbu4Ġfen4
yi1Ġ zhong3Ġ
Ġ jiang3Ġ
ling3 Ġyu4Ġ
Ġhuo4Ġ jiu4Ġshi4Ġzhen4Ġ
shi3Ġyong4 ĠdeĠ
ĠĠĠ li4Ġ
he2 Ġshi4Ġ
Ġchu1Ġ ban3Ġ
gou1 Ġ
yun4Ġ ying2Ġ
sheng3Ġji2Ġ xuan3Ġqu1Ġwei4Ġ
ji1 Ġji2Ġ
ĠdeĠ yi1Ġbu4Ġfen4Ġ
Ġ kai1Ġshi3Ġ
shi2 Ġshi4Ġ
er2Ġ ziĠ
jiu3 Ġnian2Ġ
zuo4Ġ pin3
xuan3 Ġren2Ġ
gai4Ġ nian4Ġ
xing1 ĠdeĠ
Ġer3 Ġde2Ġ
sheng3 Ġhe2Ġ
Ġjin3Ġ guan3Ġ
jie1Ġ shou4
tiao2Ġ yue1Ġ
fen4Ġwei4Ġ fa3Ġguo2Ġ
Ġgai1Ġsheng3Ġ fen4Ġwei4Ġfa3Ġguo2Ġ
Ġchu1Ġ ban3
Ġzhi1 Ġxian4Ġ
tie3 Ġdao4Ġ
Ġdi4Ġ san1
lian2Ġ bang1
Ġ song4Ġ
Ġnian2Ġ chu1Ġ
Ġer2Ġ qie3Ġ
Ġjun1Ġ dui4Ġ
guang3 Ġzhou1Ġ
Ġbu4Ġ jiu3Ġ
Ġ dui4
ao4 Ġda4Ġli4Ġ
Ġwei4Ġ shi2Ġ
Ġxi1Ġ la4
fu2 Ġjian4Ġ
and ĠĠĠ
Ġhe2Ġ bing4
Ġ 4
Ġ P
zhan4Ġ zheng1
Ġyou3Ġ ren2Ġ
pai2Ġ ming2
zhan4 Ġshi4Ġ
zui4Ġ hou4Ġyi1Ġ
te4Ġ bie2
qun2Ġ dao3Ġ
jin3Ġbiao1Ġ sai4Ġ
lai2 Ġyuan2Ġ
Ġta1Ġ bei4Ġ
jing3Ġ cha2Ġ
xing1 Ġjian4Ġ
Ġchu1Ġ sheng1Ġyu2Ġ
Ġ ruo4Ġ
ba1 Ġnian2Ġ
she4 Ġli4Ġ
Ġ geng4
reng2 Ġran2
Ġ yi4Ġwei4Ġ
di4Ġ yi1Ġ
Ġri4 ĠdeĠ
Ġ T
ben3 ĠdeĠ
wei3 Ġhui4Ġ
Ġyou2Ġ xi4
lun2Ġ dun1
Ġren2Ġ gong1Ġ
xue2Ġ xiao4
shan3 Ġxi1Ġ
Ġ K
Ġzhi4Ġ yu2Ġ
lie4 Ġwei4Ġ
Ġbu4Ġ ming2Ġ
Ġ fan4Ġ
tong1Ġ chang2
Ġ jiao1Ġ
mu3 Ġsi1Ġ
Ġming2Ġ chao2Ġ
Ġ shi3Ġyong4Ġ
yun4 Ġxing2Ġ
ceng2 Ġzai4Ġ
mei3 Ġzhou1Ġ
cai3Ġ yong4
Ġdi4Ġ si4Ġ
yan2Ġjiu1 Ġsuo3Ġ
guang3Ġ fan4Ġ
ao4 Ġsi1Ġ
Ġxian4Ġ lu4Ġ
gan3Ġ ran3Ġ
rou4 Ġ
meng2Ġ gu3Ġ
Ġshi4Ġ bu4Ġ
yi3 Ġji2Ġ
Ġhe2Ġ ping2Ġ
ĠĠĠ ta1
hua4 Ġshi2Ġ
zhan4 Ġhou4Ġ
jia1Ġ ru4Ġ
tian1Ġ wen2Ġ
nan2 Ġji2Ġ
shuo1Ġ fa3Ġ
Ġ fei4Ġ
Ġ rang4
xi1 Ġzai4Ġ
U Ġ
Ġjin4 ĠdeĠ
Ġren4Ġ wei2
Ġ can1Ġ
Ġ di2Ġ
Ġji1Ġ ben3Ġ
Ġju4Ġ li2Ġ
mo2 Ġxing2Ġ
Ġ chen2
guo4Ġ cheng2Ġzhong1Ġ
ĠdeĠdi4Ġ fang1Ġ
Ġ da2Ġ
ĠdeĠ xin1Ġ
ji4Ġ shu4Ġ
Ġ chang3Ġ
Ġjian4 Ġyi4Ġ
Ġ shou4
Ġta1 Ġyu3Ġ
yun4Ġ shu1Ġ
gou4Ġ mai3
wan2 Ġquan2
Ġ 5
wu3 Ġshi2Ġ
Ġke4 ĠdeĠ
ren4Ġwei2 Ġshi4Ġ
Ġzai4Ġ yi4Ġ
Ġge4 Ġdi4Ġ
duo1 Ġge4Ġ
ban4Ġ gong1Ġshi4Ġ
zhao3 Ġ
Ġ 10Ġyue4Ġ
tong2 Ġyi1Ġ
wai4 Ġguo2Ġ
Ġzong3 Ġren2Ġkou3Ġ
xue2 Ġshi4Ġ
shang4 Ġyou3Ġ
yuan2 Ġwei4Ġ
gong1Ġ zuo4Ġ
Ġzi4Ġ ji3Ġ
ni2 Ġsi1Ġ
Ġzai4Ġ zhong1Ġguo2Ġ
Ġ xing1Ġ
quan1 Ġ
Ġ ai1
xue2Ġ xi2Ġ
yang3Ġ hua4Ġ
fei1 Ġxing2Ġ
Ġ jie4
Ġyi1Ġ xie1
xuan1Ġ chuan2Ġ
mo4 Ġxi1Ġ
Ġ 7
xuan3Ġ ze2
cheng1 Ġwei4Ġ
xiao1 Ġxi1Ġ
Ġxian4 Ġren2Ġ
Ġ ke1
ĠdeĠ guan1Ġ
hai3 Ġjun1
biao1 Ġzhi4Ġ
Ġbu4Ġ men2Ġ
Ġ hu4Ġ
zhi4 Ġwei4Ġ
qi3Ġ lai2Ġ
you2Ġ xi4
huan2Ġ jing4
ma2 Ġ
fu4Ġze2Ġ guan3Ġxia2Ġ
Ġwei2Ġ zhu3Ġ
Ġ da3Ġ
ĠĠĠ yi3Ġ
gou4 Ġcheng2Ġ
Ġ an4Ġ
shi1 ĠdeĠ
che1Ġ liang4Ġ
zhe2 Ġxue2Ġ
keng1 Ġ
Ġji4Ġ hua4
xi4Ġ bao1Ġ
Ġ lin2
si1 Ġzai4Ġ
zheng4 ĠdeĠ
ang2 Ġ
dang3 ĠdeĠ
an1 Ġquan2
bi3 Ġde2Ġ
Ġdao4Ġ lu4Ġ
jie4 Ġquan2Ġguo2Ġ
chao2Ġ xian1Ġ
Ġ hua1Ġ
yin2Ġ hang2
Ġ dou1Ġ
jia4Ġ zhi2Ġ
Ġ er4
xi1 ĠdeĠ
Ġ G
Ġshi4Ġ mei3Ġguo2Ġ
Ġshi4Ġ tu2Ġ
zhong1 Ġzai4Ġ
Ġji4Ġ nian4Ġ
zhu3Ġ jue2Ġ
R Ġ
an4 ĠdeĠ
si4Ġ chuan1Ġ
bu4 Ġwei4Ġ
peng2 Ġyou3Ġ
ĠĠĠ he2Ġ
1999 Ġnian2Ġ
Ġji2Ġ qi2Ġ
Ġ fan3Ġ
chi2Ġ xu4
ai4 Ġer3Ġ
ĠĠĠ you3Ġ
Ġgong1Ġ gong4Ġ
Ġzhi1Ġ chi2
kang4 Ġyi4Ġ
Ġ tai2Ġwan1
yue1 Ġwei4Ġ
tai4 Ġguo2Ġ
Ġer2Ġ qie3
jie1 Ġwei4Ġ
xuan3Ġ qu1Ġ
Ġ M
shi2 Ġzai4Ġ
yi4 Ġhe2Ġ
hui4 Ġyou3Ġ
sheng1Ġ wu4Ġ
xiao4Ġ zhang3Ġ
wen2 Ġjian4Ġ
Ġbei4Ġ er3Ġ
Ġjie2 Ġzhi4Ġ
shou1Ġ ru4Ġ
ge1Ġ qu3
biao1 Ġwei4Ġ
fo2 Ġjiao4Ġ
rong2 Ġyi4Ġ
ao4Ġ yun4
ĠĠĠ shi2Ġ
Ġ qiang2Ġ
ĠĠĠ che1Ġzhan4Ġ
Ġsheng1Ġ wu4Ġ
suo3Ġshu3ĠdeĠ sheng3Ġji2Ġxuan3Ġqu1Ġwei4Ġ
yan3 ĠdeĠ
bian1 Ġji2Ġ
qian4 Ġ
Ġzhan4Ġ zheng1
si1 Ġdi4Ġ
ye3 Ġyou3Ġ
zheng4Ġ ce4Ġ
qian2Ġ wang3
ji4 Ġzhong1Ġ
mi3 Ġer3Ġ
yu3Ġ yan2Ġ
Ġ ruo4
m Ġ
jun1 Ġdui4Ġ
jie3Ġfang4 Ġjun1Ġ
ao4Ġ yun4Ġ
Ġyou4Ġ cheng1Ġ
tiao3 Ġzhan4Ġ
Ġyuan2Ġ zhu4Ġ
Ġchu1Ġ leĠ
Ġzhi4Ġ du4Ġ
Ġ yu4
Ġ yan3Ġ
Ġ ti2Ġ
gao1 Ġyu2Ġ
Ġshi4Ġ yi2Ġge4
Ġ tong1Ġguo4Ġ
wu2 Ġren2Ġ
Ġhuo4 Ġshi4Ġ
gan3 Ġdao4Ġ
nan2Ġ xing4Ġ
Ġyi3Ġ shang4Ġ
man4Ġ hua4Ġ
Ġ que4
gai3Ġ bian4Ġ
ĠĠĠ 2021
Ġdi4Ġ xia4Ġ
ma3 Ġli4Ġ
fo2 Ġ
Ġ zi4
jie1Ġrang3 Ġ
pei4 Ġhe2Ġ
kun1 Ġ
tou2Ġ ru4Ġ
jia1 Ġren2Ġ
Ġ F
wen3Ġ ding4Ġ
1998 Ġnian2Ġ
zhi3Ġ hui1
Ġzhong1Ġ you3Ġ
Ġzai4Ġ bu4Ġ
ru3 Ġ
ti2 Ġming2Ġ
da2 Ġcheng2Ġ
Ġyi1Ġ zhong3Ġ
mo4 Ġsi1Ġ
ne4 Ġ
Ġ zhuan1Ġ
zai4 Ġshi4Ġ
tong2 ĠdeĠ
jian3Ġ jie4Ġ
Ġ I
Ġzhong1Ġguo2Ġ ren2Ġmin2Ġ
Ġ hai2Ġyou3Ġ
biao3 Ġming2Ġ
duo2 ĠdeĠ
zha1 Ġ
ting2Ġ zhi3Ġ
Ġ ping2
shen1Ġ fen4
ĠĠĠ andĠĠĠ
Ġer2Ġren2Ġkou3Ġmi4Ġdu4Ġwei4Ġmei3 Ġping2Ġfang1Ġqian1Ġmi3Ġ
Ġ li2Ġ
xiao3 ĠdeĠ
zheng4 Ġshi2Ġ
ce4 ĠdeĠ
zao4 ĠdeĠ
Ġwei4Ġ fu2
juan1 Ġ
fen1 Ġzhi1Ġ
que4Ġ zhen3
ĠĠĠ 2020
Ġ bo1
Ġ hao2Ġmi3Ġ
2024 Ġnian2Ġ
ĠĠĠ in
Ġji1Ġ bai4Ġ
tian1Ġ zhu3Ġjiao4Ġ
Ġ pi2Ġ
ĠĠĠ yuan2Ġ
ban4Ġ dao3Ġ
Ġ bian1Ġ
guo2 Ġzai4Ġ
wu3Ġ qi4Ġ
ta1Ġ menĠ
Ġjia1Ġ na2Ġda4Ġ
Ġping2Ġfang1Ġ mi3Ġ
zi4Ġzhi4Ġ qu1Ġ
Ġ men2Ġ
Ġ 8Ġyue4Ġ
la1 Ġke4Ġ
lei4 ĠdeĠ
ĠĠĠ zi4Ġ
hun4 Ġhe2Ġ
Ġzi4Ġ you2Ġ
Ġzai4Ġ mei3Ġguo2Ġ
Ġshi2Ġ yan4
zui4Ġ zao3
ju3 Ġren2Ġ
tuan2 Ġdui4Ġ
di4 Ġshi4Ġ
ke3Ġneng2 Ġhui4Ġ
ya1 Ġli4Ġ
quan2 Ġbu4Ġ
Ġ su1
ji4 Ġwei4Ġ
Ġer2 Ġbei4Ġ
Ġji4Ġ cheng2Ġ
gong4 Ġxian4Ġ
xi1Ġban1Ġ ya2Ġ
ji4Ġ hua4Ġ
a ĠĠĠ
Ġ bei4
Ġshi2Ġ shi1Ġ
jie2Ġ mu4
Ġjie2Ġ guo3Ġ
sheng1Ġ chan3
lai2Ġ shuo1Ġ
li4 Ġbu4Ġ
zhe4Ġ zhong3Ġ
chan3Ġ ye4Ġ
Ġ wang2
Ġ hai2
Ġ chuan2Ġ
xing2Ġ dong4Ġ
Ġqi1Ġ jian1Ġ
fan1 Ġyi4Ġ
Ġdi4Ġ tie3Ġ
Ġchu1Ġ ren4Ġ
shao3Ġ shu4Ġ
cao1 Ġzuo4Ġ
jian3Ġ cha2Ġ
ban4 Ġshi4Ġ
jia1Ġ na2Ġda4Ġ
ying3Ġ pian4Ġ
chong1Ġ tu1Ġ
Ġzai4Ġ da4Ġ
Ġta1 Ġyu2Ġ
bao3Ġ hu4
an4 Ġjian4Ġ
ji4Ġ nian4Ġ
chong2 Ġjian4Ġ
Ġ mu4
shou3 ĠdeĠ
Ġjian4Ġ zhu4
Ġshi2Ġ fen1Ġ
Ġ an1
Ġshi4Ġ yi3Ġ
xing2 Ġwei2Ġ
xin1 Ġli3Ġ
ceng2Ġ jing1Ġ
Ġshi3 ĠdeĠ
gong4 Ġtong2
dong4 ĠdeĠ
kong1 Ġjun1Ġ
Ġzhi3 Ġyou3Ġ
ban4 Ġgong1Ġ
zhe4Ġ ge
Ġxian4 Ġwei4Ġ
da4 Ġbu4Ġfen4Ġ
Ġzhi4Ġ zuo4
qi1Ġ jian1
jie2Ġ gou4
nan4 Ġ
Ġyi4Ġ you3Ġ
Ġli4Ġ ru2
lian2Ġ xu4Ġ
jue2Ġ se4
ji2 Ġzai4Ġ
shen1 ĠdeĠ
yang1 Ġ
Ġhe2Ġ bei3Ġ
Ġwei4Ġ neng2Ġ
amp Ġ
zhu3Ġ ti2Ġ
xiang1Ġ dui4Ġ
fen1Ġ bie2Ġ
ĠĠĠ S
Ġhe2Ġ liu2Ġ
gong1Ġ yuan2Ġ
mei2Ġ ti3
lian2Ġ sai4
jian3Ġ shao3Ġ
a Ġ
tou4 Ġ
tong4 Ġ
Ġyou4 Ġming2Ġ
Ġyi3Ġ se4Ġ
fen4Ġ zi3Ġ
xian4 Ġdai4Ġ
Ġshi4Ġyi1Ġ ming2Ġ
xiao3Ġ zu3Ġ
Ġti3Ġ zhang3Ġ
ĠĠĠ 2019
Ġxi1Ġ wang4Ġ
C Ġ
Ġ zhen4Ġ
ying4 ĠdeĠ
wei3Ġyuan2Ġ hui4
ming4Ġ ming2Ġwei4Ġ
Ġ gui1Ġ
ou1 Ġyuan2Ġ
Ġgong1Ġ si1ĠdeĠ
Ġliang3 Ġren2Ġ
yi4 Ġzai4Ġ
dong4 Ġji1Ġ
da3 Ġji1Ġ
ĠdeĠdi4Ġ qu1Ġ
zhan3 Ġshi4Ġ
Ġ 19
Ġzhi2 Ġzhi4Ġ
Ġshe4Ġ qu1Ġ
Ġ ling2Ġ
Ġji4Ġ xu4
shou3 Ġwei4Ġ
xun2Ġ hui2Ġ
Ġsi1Ġ ling4
shu4Ġ liang4Ġ
xia4Ġ wu3Ġ
1996 Ġnian2Ġ
Ġ lie4Ġ
lu4Ġdi4Ġ mian4Ġji1Ġwei4Ġ
Ġ N
24 Ġ
yong4Ġ lai2Ġ
shui3Ġyu4Ġ mian4Ġji1Ġwei4Ġ
Ġli4Ġ ji2Ġ
qi3Ġ yong4Ġ
lei4 Ġxing2Ġ
ren4Ġ wu4Ġ
Ġguo2Ġ li4Ġ
Ġshi2Ġ zi4Ġ
Ġyi1Ġ ci4Ġ
duo1Ġ ci4Ġ
Ġ wang3Ġ
ping2Ġ jia4Ġ
bu4 Ġshi4Ġ
Ġ bian4
Ġ 2009Ġnian2Ġ
ĠĠĠ 2018
ĠdeĠ shou3Ġ
Ġfu4Ġ jin4Ġ
ju3 Ġxing2ĠdeĠ
fu2 Ġhe2Ġ
t Ġ
zhuo2 Ġ
ti3Ġ xi4Ġ
wai4Ġ jiao1Ġ
Ġzhe4Ġ jiang1Ġ
Ġ xiao4Ġ
1997 Ġnian2Ġ
Ġda4Ġ shi3Ġ
zuo4Ġ jia1Ġ
Ġshe4 Ġbei4Ġ
18 Ġ
mei3 Ġnian2Ġ
liang3 Ġge4
Ġli4Ġ fa3Ġ
zhu4 Ġyi4Ġ
Ġ ampĠ
dian4 Ġli4Ġ
de2 Ġdao4Ġ
Ġsi1Ġ ling4Ġ
Ġcong2 Ġer2Ġ
fa3Ġ lv4
lun2Ġ dun1Ġ
Ġ guang3Ġ
kui2 Ġ
jiao4Ġ tang2Ġ
Ġdang1Ġzhong1Ġ lu4Ġdi4Ġmian4Ġji1Ġwei4Ġ
zhi4 Ġhe2Ġ
Ġer2Ġ shui3Ġyu4Ġmian4Ġji1Ġwei4Ġ
qu3Ġ xiao1Ġ
sheng1Ġ huo2
fu2Ġ wu4
zhi2 ĠdeĠ
jie2 Ġzhi4Ġ
ĠĠĠ xi1Ġ
dian1 Ġ
ĠĠĠ 2022
xue2Ġ zhe3Ġ
shui3 Ġping2Ġ
hai3Ġ yu4Ġ
nei4Ġ rong2
Ġzhi1 Ġshi2Ġ
zhu4Ġ zuo4Ġ
Ġ 9Ġyue4Ġ
ying1Ġ ge2Ġlan2Ġ
Ġda4Ġ chen2Ġ
Ġ TheĠĠĠ
Ġcheng2Ġli4Ġ yu2Ġ
Ġ zhong1ĠdeĠ
ĠĠĠ gai4Ġ
lv3 Ġke4Ġ
tuo4 Ġ
zhi4 Ġzai4Ġ
jie1 Ġjin4Ġ
Ġxin1Ġ wen2Ġ
chang2Ġ qi1Ġ
Ġwei2Ġ er3Ġ
ling4Ġ wai4Ġ
Ġ hui2Ġ
ĠĠĠxing2Ġzheng4Ġ qu1Ġhua4Ġ
Ġ 11
ren4Ġ ming4
Ġjia1Ġ shang4Ġ
yuan4Ġ zhang3Ġ
bi3Ġsai4 Ġzhong1Ġ
Ġ xuan1Ġbu4Ġ
dian3 ĠdeĠ
ji3 Ġyu3Ġ
xi1Ġ yang2Ġ
Ġyi3Ġ hou4Ġ
gui1Ġ mo2
Ġjun1 Ġwei4Ġ
min2 ĠdeĠ
shuo4 Ġshi4Ġ
Ġde2 ĠdeĠ
wei1Ġ lian2Ġ
wei3Ġ shu1Ġji4Ġ
Ġyi4Ġ ren2Ġ
jia1 Ġhe2Ġ
1992 Ġnian2Ġ
tai4Ġ yang2Ġ
Ġ H
dao3 Ġyu3Ġ
pi1Ġ zhun3Ġ
dai4 Ġyou3Ġ
heng1 Ġli4Ġ
Ġshi4Ġ yi1Ġwei4Ġ
Ġxue2Ġ xiao4
Ġwei4Ġfu2 Ġqi2Ġyu2Ġ
Ġ 7Ġyue4Ġ
guo1 Ġ
n Ġ
can1Ġ yu4
ci4Ġshi4Ġjie4Ġda4Ġ zhan4Ġ
Ġshi4Ġ qu1Ġ
fa1 Ġchu1Ġ
gao1Ġ su4
ĠĠĠ A
ĠĠĠ yi4Ġ
xing4 Ġzhi4Ġ
yan3Ġchang4 Ġhui4Ġ
Ġyuan2Ġ yin1Ġ
Ġ tuo1Ġ
quan4 Ġ
tao3Ġ lun4Ġ
Ġ formulaĠ
tui4 Ġyi4Ġ
Ġ meng2Ġ
bi3Ġ ya4Ġ
feng1Ġ bao4Ġ
Ġ huo3Ġ
ji1 Ġzhi4Ġ
xin4 Ġhao4Ġ
ya4 ĠdeĠ
neng2Ġ gou4
Ġ ci2Ġ
shou4Ġ shang1Ġ
ĠĠĠ 2017
Ġjian4 Ġcheng2Ġ
wei4Ġ zhi4Ġ
lian2Ġ xi4Ġ
Ġru2Ġ guo3
ru2 Ġhe2Ġ
bi4Ġ xu1
Ġti3Ġzhang3Ġ ke3Ġda2Ġ
Ġer3Ġ te4Ġ
bao3Ġ chi2Ġ
zhuan1 Ġjia1Ġ
fu1 Ġren2Ġ
jiang3 Ġxiang4Ġ
cha1 Ġyi4Ġ
Ġjing1Ġ guo4Ġ
Ġji1Ġ gou4
Ġ gai3
Ġzai4Ġ yu2Ġ
ĠdeĠyi1Ġ zuo4Ġ
Ġtong1Ġ chang2Ġ
wo1 Ġ
shou4 Ġyu3Ġ
miao3 Ġ
Ġ 2010Ġnian2Ġ
wang3 Ġlu4Ġ
jing1Ġ ying2Ġ
Ġ 12Ġyue4Ġ
Ġ min2Ġguo2Ġ
tan1 Ġ
gong4Ġchan3Ġ dang3
Ġke4 Ġli3Ġ
Ġsheng1Ġ chan3Ġ
Ġbu4Ġ li3Ġ
kao4 Ġ
Ġyi3Ġ xia4
dian4Ġ tai2Ġ
cun1Ġ zhuang1Ġ
Ġ 11Ġyue4Ġ
lai2 Ġdao4Ġ
sui2 Ġhou4Ġ
Ġzhi1 Ġzhong1Ġ
Ġ chang2
Ġ zhu1
bi4Ġ ye4Ġyu2Ġ
xun4Ġ lian4
Ġ 21Ġ
cuo4 Ġshi1Ġ
fa3 ĠdeĠ
Ġyi4Ġ shu4
zong3Ġ du1Ġ
zhu4Ġ ming2ĠdeĠ
Ġ fang1Ġ
Ġshi4Ġ you3Ġ
Ġjian4Ġ dui4Ġ
kuai4Ġ su4Ġ
zhu4 Ġyu2Ġ
Ġ B
dong1 Ġxi1Ġ
Ġ zhong3Ġ
1994 Ġnian2Ġ
Ġshi2Ġ ren4Ġ
Ġyi1Ġ sheng1Ġ
Ġ rang4Ġ
gu1 Ġji4Ġ
Ġer3 Ġhe2Ġ
hai2Ġ ziĠ
tai4Ġping2Ġ yang2Ġ
ĠĠĠ 2016
Ġjie2Ġ mu4Ġ
yan2Ġ ge2Ġ
tong2 Ġyi4Ġ
sheng1 Ġwei4Ġ
dao3 Ġshi4Ġ
lang4 Ġ
cheng2Ġ gong1Ġ
le Ġda4Ġ
shang3 Ġ
fa1Ġ dian4Ġ
Ġshang4Ġ hai3
zhan4 Ġzhong1Ġ
she2 Ġ
ĠdeĠ qian2Ġ
Ġren2Ġ lei4Ġ
si4 Ġge4Ġ
jie2Ġshu4 Ġhou4Ġ
Ġ xiang3
Ġde2 Ġyi3Ġ
pu3Ġ tong1Ġ
ĠdeĠshi2Ġ qu1Ġwei4Ġ
Ġ yin4Ġdu4Ġ
Ġming2Ġ cheng1Ġ
Ġzheng4Ġ ce4Ġ
che4Ġ xiao1Ġ
yu3 Ġzhong1Ġ
ĠĠĠ zhi4Ġ
Ġ qi1
Ġ yang2
Ġ sheng4
Ġ tw
tou2Ġ piao4Ġ
di3Ġ da2Ġ
fa1 ĠdeĠ
Ġjin3Ġ guan3
xi4Ġ lie4
ju2Ġ zhang3Ġ
ĠdeĠshi2Ġ jian1Ġ
Ġ qian2
1995 Ġnian2Ġ
zhe4Ġ xie1
geng4 Ġjia1Ġ
Ġwei4Ġ sheng1Ġ
yue4Ġ tai2Ġ
Ġping2Ġ tai2Ġ
fan3Ġ hui2Ġ
Ġ cheng1
guang3 Ġxi1Ġ
fei3 Ġ
Ġ chuang4Ġ
zhai2 Ġ
hans Ġ
kuo4 Ġda4Ġ
ha1 Ġer3Ġ
Ġ hansĠ
yi4 Ġzhong1Ġ
deng1 Ġlu4Ġ
zu3Ġ cheng2ĠdeĠ
rong2 Ġyu4Ġ
Ġtw Ġ
yue4 Ġshi2Ġ
zhong4 Ġda4Ġ
lu4 Ġyi4Ġ
Ġ sa4Ġ
Ġshi4Ġ yan3Ġ
que4Ġ ding4Ġ
Ġ xia4
zhi3 Ġzai4Ġ
ye4 Ġhou4Ġ
Ġbu4Ġ ke3Ġ
Ġbing4Ġ mei2Ġyou3Ġ
Ġci3 Ġshi2Ġ
ĠĠĠdeĠ shi2Ġ
Ġ lv4Ġ
Ġ liang4Ġ
Ġ a1Ġer3Ġ
jin4 Ġxing2
ĠĠĠ 2023
L Ġ
Ġmu4Ġ qian2
wan3 Ġshang4Ġ
jiao4Ġ qu1Ġ
qi4Ġ che1Ġ
ya4Ġli4Ġ shan1
ming2Ġ cheng1Ġ
wu4Ġ zhong3
guan1Ġ zhong4Ġ
Ġxue2Ġ xi2Ġ
gai3Ġ bian1
Ġguo2Ġ wu4Ġ
Ġzhi1 Ġyuan2Ġ
yuan4 ĠdeĠ
xiao1Ġ shou4Ġ
Ġgong1Ġ ye4
ba1 Ġxi1Ġ
Ġhuo4Ġ zhe3Ġ
ĠĠĠ 2014
X Ġ
xiang1Ġ tong2Ġ
ba1Ġ li2Ġ
ban3 ĠdeĠ
ru4Ġ kou3Ġ
xue2 Ġhe2Ġ
sun3 Ġshi1Ġ
po4Ġhuai4 Ġ
i Ġ
Ġ tian1
biao3 Ġxian4
Ġshi2Ġ xian4Ġ
xi1Ġ la4
fa1Ġxian4Ġ leĠ
kan4 Ġdao4Ġ
pan1 Ġ
qi1Ġ zi3Ġ
guan1Ġ zhu4Ġ
Ġceng2 Ġren4Ġ
Ġbing4 Ġyi3Ġ
xiong1Ġ ya2
qiang3 Ġ
Ġ 6Ġyue4Ġ
ĠĠĠ ji1Ġ
ĠĠĠ suo3Ġshu3ĠdeĠsheng3Ġji2Ġxuan3Ġqu1Ġwei4Ġ
ĠĠĠdeĠ you2Ġzheng4Ġbian1Ġma3Ġwei4Ġ
ĠĠĠyu3Ġ jie1Ġrang3ĠdeĠshi4Ġzhen4Ġ
ĠĠĠyu2Ġ shi2ĠdeĠren2Ġkou3Ġshu4Ġliang4Ġwei4Ġren2Ġ
ĠĠĠdeĠshi2Ġ qu1Ġwei4Ġ
zhuang1 Ġzhi4Ġ
nai3 Ġ
Ġ zhuan3Ġ
zhi2 Ġwei4Ġ
Ġ 2011
ji4 Ġhe2Ġ
Ġzuo4Ġ yong4Ġ
Ġquan2Ġ zhang3Ġ
tu2 Ġzhong1Ġ
su1Ġ lian2
kai1Ġ fang4
xu1 Ġqiu2Ġ
Ġzhi1Ġ ming2Ġ
lin2 ĠdeĠ
Ġsi1Ġ la1Ġ
shi2 Ġwei4Ġ
Ġnian2Ġ qing1
heng2Ġ xing1Ġ
Ġquan2 Ġbu4Ġ
tui1Ġ dong4Ġ
wei2 ĠdeĠ
Ġshi4Ġ zhang3Ġ
wei4 ĠĠĠ
guan3Ġ li3
Ġ 2019
Ġ gan1Ġ
can2 Ġ
ru4Ġ qin1Ġ
ru2Ġ ci3Ġ
Ġ O
Ġ hk
Ġjia1Ġ ting2Ġ
tai2Ġ bei3Ġ
Ġ jin3
yu3 Ġhe2Ġ
Ġyi1Ġ dai4Ġ
yi2Ġ dong4Ġ
jin4 Ġshi4Ġ
Ġchu1 Ġxian4Ġzai4Ġ
zhe4Ġ jiang1Ġ
ĠĠĠ 2015
fu4 ĠdeĠ
mu3Ġ qin1Ġ
xiong1Ġya2 Ġli4Ġ
mu4 Ġsi1Ġ
1991 Ġnian2Ġ
Ġren2Ġ shu4Ġ
fu4Ġ qin1Ġ
Ġdan4 Ġta1Ġ
Ġxi1Ġban1Ġ ya2
min2Ġ zu2
tai2 ĠdeĠ
Ġdi4Ġ qiu2Ġ
Ġshi4Ġ zhi3Ġ
Ġ che1Ġzhan4Ġ
ti2 Ġsheng1Ġ
fei1 Ġjian4Ġzhi4Ġ
Ġ mian4Ġ
Ġ duan4Ġ
ĠĠĠ 2013
Ġ 5Ġyue4Ġ
zui4 Ġchu1Ġ
xun4Ġ su4Ġ
Ġhk Ġ
shu4Ġ xue2Ġ
guang3Ġ bo1
Ġwei4Ġ he2Ġ
Ġbing4 Ġli4Ġ
Ġcheng2Ġwei2Ġ leĠ
Ġsi1Ġ tan3Ġ
niu3Ġ yue1Ġ
Ġ jing1
fa1 Ġxing2
Ġjin4Ġ ru4
te4 Ġli3Ġ
kang4 Ġri4Ġ
Ġhe2Ġ xin1Ġ
Ġge4Ġ zhong3Ġ
gao3 Ġ
Ġji2Ġ qi2
fa1Ġ sheng1
zong3 Ġbu4Ġ
shou1 Ġlu4Ġ
Ġshi4Ġ ren2Ġ
jiao4 ĠdeĠ
lan2 Ġke4Ġ
cai2 Ġzheng4Ġ
mang2 Ġ
ĠĠĠnian2 Ġ
Ġji4Ġ zai3Ġ
chang4Ġ pian4Ġ
Ġzuo4Ġ pin3
sa4 Ġke4Ġ
Ġzhong1Ġ wen2Ġ
jue2Ġ sai4
ming2 Ġyi4Ġ
jin4 Ġgong1Ġ
Ġshi4Ġ ji2Ġ
Ġ zao4Ġcheng2Ġ
qi3 Ġyi4Ġ
can1 Ġyi4Ġ
zhuang4Ġ kuang4Ġ
Ġ tiao2Ġ
Ġxian4 Ġyu2Ġ
lv4 Ġwei4Ġ
le Ġta1Ġ
ĠĠĠ zhong1Ġguo2Ġ
can1Ġ kao3Ġ
zeng1Ġ zhang3Ġ
gao1Ġ du4Ġ
ba2 Ġ
chan3Ġ pin3
fei1Ġjian4Ġzhi4Ġ di4Ġqu1Ġ
Ġ ou1Ġ
Ġ huang2
Ġ dao3Ġ
ĠĠĠ K
dou1 Ġhui4Ġ
Ġhe2Ġ bing4Ġ
Ġ fang2Ġ
Ġji4Ġ suan4
Ġsheng1Ġ huo2
Ġ e2Ġluo2Ġsi1Ġ
wang2 ĠdeĠ
diao4Ġ cha2
zhong4Ġ dian3Ġ
zhan4Ġ dou4Ġ
Ġ hou4
Ġda4Ġ lou2Ġ
hai3 Ġdao4Ġ
sui1 Ġran2Ġ
chang4Ġ pian4
chai1 Ġ
Ġren2Ġ menĠ
wei1Ġ xie2Ġ
ao4 Ġdi4Ġli4Ġ
Ġhe2Ġ zhong1Ġ
shang4Ġ shu1Ġ
Ġwei2Ġ qi2Ġ
kan3 Ġ
ling3Ġdao3 Ġren2Ġ
Ġxiang1Ġ guan1Ġ
ĠĠĠ to
jing1Ġ shen2Ġ
jia1 Ġzhong1Ġ
Ġyin1 Ġer2Ġ
yue4 Ġzai4Ġ
liang3 Ġren2Ġ
Ġnian2Ġ shi2Ġ
Ġbu4Ġ duan4Ġ
can1Ġjia1Ġ leĠ
ying2Ġ yun4Ġ
hua4 Ġwei4Ġ
jiang1 Ġxi1Ġ
ĠdeĠcheng2Ġ yuan2Ġ
jie2 Ġke4Ġ
tu2Ġshu1Ġ guan3Ġ
Ġhe2Ġ cheng2Ġ
zhu3Ġ chi2Ġ
Ġzhong1Ġguo2Ġ gong4Ġchan3Ġdang3Ġ
Ġ hua2
Ġ you3Ġshi2Ġ
ju4 ĠdeĠ
na4 Ġli3Ġ
Ġ xiao3
Ġ 4Ġyue4Ġ
zhan4Ġ dou4
Ġ ying1
jin4Ġ ru4
mou3Ġ xie1Ġ
shen1 Ġwei4Ġ
ju1 Ġzhu4Ġ
zi4Ġ dong4Ġ
xia4Ġji4Ġ ao4Ġlin2Ġpi3Ġke4Ġyun4Ġdong4Ġhui4Ġ
yin1 Ġshi4Ġ
min2Ġ zhong4Ġ
1988 Ġnian2Ġ
Ġxiang4Ġ mu4Ġ
Ġ zuo3Ġ
chan3Ġ sheng1ĠdeĠ
Ġ bian1
ĠĠĠ zhĠ
Ġzai4Ġ jia1Ġ
shuo1 Ġming2Ġ
Ġzheng4Ġ zhuang4Ġ
yin3Ġ fa1Ġ
Ġ wei3Ġ
jiang1Ġ su1Ġ
Ġ xuan3Ġ
Ġhuo4Ġde2Ġ leĠ
Ġ zhuang1Ġ
Ġzhi1Ġ xia4Ġ
dao1 Ġ
Ġshi4Ġ wei1Ġ
xiao3Ġ shuo1
Ġ xu3Ġduo1Ġ
ĠĠĠjia1Ġ zu2Ġ
Ġ xie2Ġ
Ġshi4Ġ zhen4
Ġgong1Ġ ren2Ġ
Ġ J
ding4 ĠleĠ
you1 Ġshi4Ġ
Ġ qiao2Ġ
lan2 Ġqiu2Ġ
1993 Ġnian2Ġ
Ġda4Ġ duo1Ġ
zhou1 ĠdeĠ
Ġ pei4Ġ
ji4 Ġshi2Ġ
Ġ du2Ġ
Ġsui4 ĠdeĠ
xian3 ĠdeĠ
zi1Ġ xun4Ġ
ao4Ġyun4 Ġhui4Ġ
Ġ wen2
su4 ĠdeĠ
Ġda4Ġ xing2Ġ
Ġ 2018
Ġyue4Ġ nan2Ġ
Ġji2Ġ li4Ġ
Ġzhong1Ġ hua2Ġ
Ġlai2Ġ zi4Ġ
qu3 Ġde2
yuan2 Ġzai4Ġ
Ġbu4Ġ men2
xiang1Ġ dang1Ġ
Ġdan4Ġ you2Ġyu2Ġ
fang3Ġ wen4Ġ
zhi2 Ġdao4Ġ
sui1 Ġran2
jiao4Ġ wei2Ġ
xiang4Ġ mu4
Ġshi4Ġwei4Ġ leĠ
chuang1 Ġ
jie2Ġ hun1Ġ
Ġ tian2Ġ
Ġli3Ġ lun4Ġ
pin3Ġ pai2Ġ
Ġ shang4
xi2 Ġwei4Ġ
Ġdi4Ġ wu3Ġ
Ġyue4Ġ tai2Ġ
zhong1 Ġwei4Ġ
Ġ shi1
Ġ lao3Ġ
can1Ġ jia1
zhen1 Ġshi2Ġ
zhong1Ġ hua2Ġren2Ġmin2Ġgong4Ġhe2Ġguo2Ġ
you3 Ġbu4Ġ
yin4 Ġdi4Ġ
mei3Ġ shu4Ġ
ĠĠĠ 2025
Ġ zheng4
ming4Ġ ling4Ġ
xue2Ġ shu4Ġ
xing1Ġ qi1Ġ
ĠdeĠgong1Ġ zuo4Ġ
22 Ġ
2020Ġnian2Ġ mei3Ġguo2Ġren2Ġkou3Ġpu3Ġcha2ĠdeĠshu4Ġju4Ġ
jian4 Ġshe4Ġ
ju3 Ġxing2
Ġ zhuan3
fang2 Ġyu4Ġ
Ġren4Ġ wu4Ġ
wu3Ġ zhuang1Ġ
Ġnian2Ġ bei4Ġ
yi2Ġ chan3Ġ
Ġ ding4Ġ
Ġshi2Ġ yi1Ġ
Ġwan4Ġ mei3Ġyuan2Ġ
ao4Ġ men2Ġ
yun3Ġ xu3Ġ
Ġ jiu3
Ġzhi4Ġ shi2Ġ
Ġjia1Ġ ru4
Ġzhi1Ġ hou4
ti2Ġ gao1Ġ
Ġ li2
zhou4 Ġ
fei1Ġ lv4Ġ
wa3 Ġer3Ġ
bao4Ġ dao3Ġ
yi3Ġ lai2Ġ
le Ġta1ĠdeĠ
hui4 Ġyuan2Ġ
Ġshi2Ġ qi1
ji4Ġ lu4Ġ
Ġji1Ġ guan1Ġ
du1 Ġshi4Ġ
cui4 Ġ
leĠ yi2Ġge4Ġ
ĠC Ġ
Ġ cheng1Ġwei2Ġ
hua4 Ġjia1Ġ
ji1Ġ chang3Ġ
Ġfu4Ġ ze2
yi2Ġ min2Ġ
shu1 ĠdeĠ
ju4Ġ li2Ġ
shu4Ġ zi4Ġ
ĠĠĠ 2024
Ġshi4Ġyi1Ġ zhong3
jin1 ĠdeĠ
Ġren2Ġ lei4
Ġhe2Ġ shi2Ġ
hong1Ġ zha4
Ġzi4Ġji3 ĠdeĠ
jie1 Ġji2Ġ
duan4 ĠdeĠ
du1 Ġjiao4Ġ
Ġ hong2
li4 Ġshi4Ġ
ke4 Ġli3Ġ
yan2 ĠdeĠ
ying2 ĠdeĠ
hua1 Ġyuan2Ġ
shan1Ġ mai4
sheng1 Ġji2Ġ
yue1 Ġyou3Ġ
Ġshi4Ġ da4Ġ
wen2Ġ zi4Ġ
mian4 Ġdui4Ġ
Ġwan4 Ġyuan2Ġ
yao1Ġ qing3Ġ
Ġ guan1
Ġ xiu1Ġ
Ġ 2011Ġnian2Ġ
yong4Ġ hu4Ġ
Ġ liang2Ġ
dong1 Ġji4Ġ
zi1Ġ jin1Ġ
deng3 Ġwei4Ġ
Ġ xu2
Ġli4Ġ shi3
wu3Ġ tai2Ġ
su2 Ġ
Ġshe4 Ġji2Ġ
han2Ġ shu4Ġ
Ġzhi4Ġ li4Ġ
gao1Ġ deng3Ġ
Ġ 2016
Ġsuo3 Ġyi3
yuan2 Ġji2Ġ
Ġren2Ġ min2
ĠĠĠ G
Ġhe2Ġ lan2Ġ
shen1Ġ qing3Ġ
Ġ 2005Ġnian2Ġ
dong4Ġ zuo4Ġ
xiao4Ġ guo3Ġ
Ġ ju4
Ġ han2Ġguo2Ġ
Ġ 3Ġyue4Ġ
mei3Ġ guo2ĠdeĠ
Ġ 2008Ġnian2Ġ
ĠĠĠ xin1Ġ
Ġming2Ġchao2Ġ zheng4Ġzhi4Ġren2Ġwu4Ġ
Ġ pei4
ĠĠĠ zao3Ġnian2Ġ
jiao4Ġ lian4Ġ
Ġxian4 Ġhe2Ġ
Ġri4Ġ jun1Ġ
xia4Ġ ling4
1990 Ġnian2Ġ
Ġyuan2Ġ ming2Ġ
liang3Ġ zhong3Ġ
ling3Ġ tu3Ġ
ĠĠĠ hou4Ġ
nu3 Ġli4Ġ
zheng4Ġ ming2Ġ
Ġ zhao1
lu4 Ġjun1
Ġzhong1Ġ yu2Ġ
zuo4Ġ yong4Ġ
ĠĠĠ you2Ġ
qu1Ġ yu4
jing1Ġ chang2Ġ
lie4Ġ biao3Ġ
you3 Ġzai4Ġ
Ġyi4Ġ yi4Ġ
ying3Ġ pian4
Ġzhou1 Ġnian2Ġ
Ġjin4 Ġxing2
Ġnan2 Ġzhi4Ġ
Ġguo2Ġ hui4Ġ
Ġgong1Ġ hui4Ġ
Ġ jue2
Ġ bi3
guan1Ġ xi4
Ġji4Ġ zhe3Ġ
Ġyuan2Ġ gong1Ġ
nei4Ġ lu4Ġ
zhao3 Ġdao4Ġ
wang2Ġ chao2
Ġ li3
Ġ bo2
Ġ hen3Ġ
jing1 Ġli3Ġ
lv3 Ġxing2Ġ
shen2Ġ jing1Ġ
Ġ chi4Ġ
Ġshi4Ġ hou4Ġ
yong4Ġ zuo4Ġ
li3Ġ lun4Ġ
Ġ zhu4
Ġgong1Ġ chang3Ġ
fu4Ġ jin4Ġ
hui2Ġ ying4Ġ
yu2 Ġzai4Ġ
Ġ ge2
Ġ ban3Ġ
tai4 Ġren2Ġ
Ġhe2Ġ gong1Ġ
ke3Ġyi3 Ġzai4Ġ
Ġ ban1Ġ
zhi1Ġ jian1Ġ
Ġ luo2
ti2 Ġdao4Ġ
bao3Ġ chi2
Ġcheng2Ġ xian4Ġ
chu1Ġ ban3Ġ
Ġnian2Ġ1Ġyue4Ġ 1Ġri4Ġ
Ġji1Ġ che1Ġ
Ġshi2Ġ er4Ġ
jiu3Ġ dian4Ġ
ai1 Ġji2Ġ
Ġ fan3
qi4Ġ xiang4Ġ
shou3 Ġji1Ġ
Ġguo2Ġ fang2
e Ġ
kong1 Ġzhong1Ġ
Ġnian2 Ġshi4Ġjie4Ġ
Ġ lei2Ġ
tong1 Ġdao4Ġ
kong3 Ġbu4Ġ
ti1 Ġ
gui1Ġ ze2Ġ
qi2Ġzhong1Ġ yi1Ġzhong3Ġ
Ġ ti2Ġgong1Ġ
zuo4 Ġwei4Ġ
wo3Ġ men
bei4 Ġshi4Ġwei4Ġ
ĠdeĠ zhi4Ġ
Ġwo3Ġ menĠ
li4 Ġwei4Ġ
shu1 Ġji2Ġ
Ġer2 Ġcheng2Ġ
shou3Ġ du1Ġ
1984 Ġnian2Ġ
dong1Ġ nan2Ġbu4Ġ
ĠĠĠ P
yi3 Ġxia4Ġ
yan3 Ġyi4Ġ
15 Ġ
Ġxi1Ġ wang4
ji1 Ġhe2Ġ
da4Ġ lu4ĠdeĠ
qi3Ġ ye4
sui4 Ġdao4Ġ
meng3 Ġ
ĠdeĠ jia1Ġ
Ġzuo4Ġ wei2
dai4 Ġli3Ġ
jin1Ġ shu3Ġ
jin4Ġ yi2Ġbu4Ġ
ge2 Ġwei4Ġ
lao2 Ġdong4Ġ
zhu3Ġ chi2
jiao4Ġ xue2Ġ
biao3Ġ mian4Ġ
gu4Ġ wen4Ġ
Ġ ying1Ġyu3Ġ
ni1 Ġ
Ġxi4Ġ lie4Ġ
Ġ W
xin1Ġjia1Ġ po1
Ġ yong1Ġyou3Ġ
Ġhe2Ġ xi1Ġ
Ġbu4Ġ bu4Ġ
Ġyou3Ġ ji1Ġ
cai2Ġ liao4Ġ
chao2Ġ xian1
Ġ2001Ġnian2Ġ ren2Ġkou3Ġ
dao4 Ġlu4Ġ
hua2 Ġren2Ġ
Ġ tu3Ġ
Ġ sĠĠĠ
Ġzai4Ġ wei4Ġ
Ġbei3Ġ qi3Ġ
jing4 ĠdeĠ
si3 Ġhou4Ġ
bo1Ġ lan2
tong1Ġ che1Ġ
si1 Ġli4Ġ
1989 Ġnian2Ġ
Ġzhong1Ġguo2Ġ da4Ġlu4Ġ
bai2Ġ se4Ġ
ya4Ġli4Ġshan1 Ġda4Ġ
hui4 Ġshi4Ġ
Ġyi3Ġ bei4Ġ
bao3Ġ liu2Ġ
Ġ ju4Ġyou3Ġ
Ġ sai4Ġji4Ġ
nv3Ġ zi3
ju1Ġ min2
Ġ hai3
zhu3 Ġli4Ġ
Ġping2Ġ mian4Ġ
tiao2Ġ zheng3Ġ
ni2 Ġke4Ġ
Ġta1 Ġwei4Ġ
T Ġ
Ġ 2021
zhu3 ĠdeĠ
Ġzhi1Ġ jian1
Ġ qu3Ġ
Ġsi1Ġ te4
Ġ gang3Ġ
Ġ cha2Ġ
Ġxian4ĠdeĠ yi2Ġge4Ġ
ĠĠĠ 2012
Ġdao4Ġ da2Ġ
fa3Ġ an4Ġ
yin3Ġ qi3Ġ
Ġdong1Ġ nan2Ġ
yin3Ġ qi3
yun4 Ġzuo4Ġ
zhao4Ġ kai1Ġ
jiao1 Ġhui4Ġ
shou3 Ġge4Ġ
tui4 Ġchu1Ġ
di4Ġ er4Ġ
Ġer2Ġ yan2Ġ
Ġxian4ĠdeĠ yi2Ġge4
Ġbei4Ġ ren4Ġwei2Ġshi4Ġ
li4 Ġzai4Ġ
Ġji1Ġ hu1
Ġke4 Ġcheng2Ġ
wen2Ġ zhang1Ġ
ji3 Ġge4Ġ
Ġshi4Ġ jia1Ġ
Ġyou3Ġ yi4Ġ
te4Ġ shu1Ġ
Ġxi1Ġ si1Ġ
xiang1Ġ guan1
shi1Ġ fan4
Ġfu4Ġ qin1Ġ
wu2Ġ fa3
Ġ qi3
Ġ lv3Ġ
jin1 Ġhui4Ġ
jie4 ĠdeĠ
zhai4 Ġ
jiao4Ġ shi1Ġ
ceng2Ġ jing1
can1Ġ mou2
ĠĠĠ xia4Ġ
lv4Ġ shi1Ġ
Ġshi4Ġ yu3Ġ
Ġnv3Ġ xing4Ġ
fei1 Ġzhou1Ġ
zha2 Ġ
xi1Ġban1Ġ ya2
da4 Ġwei4Ġ
Ġyi1Ġ ji2Ġ
Ġ feng2Ġ
chang2 ĠdeĠ
Ġbu4Ġ de2
Ġta1Ġmen Ġzai4Ġ
wei1 Ġji1Ġ
Ġyi4Ġ fang1Ġmian4Ġ
fa3Ġ yuan4
yi2Ġ zhi3Ġ
Ġer2Ġshui3Ġyu4Ġmian4Ġji1Ġwei4Ġ 0
Ġguo2Ġ jia1ĠdeĠ
zhe3 Ġzai4Ġ
Ġhe2Ġ qi2Ġta1Ġ
ya4 Ġzhou1
Ġzhu3Ġ xi2Ġ
jin1Ġ pai2Ġ
che1 ĠdeĠ
16 Ġ
Ġzhi1 Ġwei4Ġ
Ġbing4Ġ jiang1Ġ
kang1 Ġxi1Ġ
Ġcheng2Ġ xu4Ġ
yao4Ġ wu4Ġ
Ġwei4Ġ you3Ġ
biao3Ġ da2
ĠĠĠ cheng2Ġ
Ġcheng2Ġ ren4Ġ
guo4Ġ qu4Ġ
pu2Ġtao2Ġ ya2
da4 Ġdi4Ġ
bian4 Ġde2Ġ
Ġzhi4Ġ liao2Ġ
huan1Ġ ying2Ġ
Ġ gao1
Ġ ban4Ġ
Ġ shou1Ġ
wen2 Ġxian4Ġ
Ġ bai3Ġ
duo1 Ġnian2Ġ
Ġsi1Ġ ke4Ġ
Ġjin4Ġxing2Ġ leĠ
mu4Ġ biao1
Ġ fei4
Ġ guan1Ġyu2Ġ
ĠĠĠ E
zhuang1 Ġshi4Ġ
zhi2Ġ min2
dong1Ġ bei3Ġbu4Ġ
gou4Ġ zao4Ġ
huo4Ġde2Ġ leĠ
bo2Ġwu4Ġ guan3
ao4Ġda4Ġli4Ġ ya4Ġ
zhu4 Ġli3Ġ
leng3 Ġ
Ġqiu2 Ġyuan2Ġ
xi4Ġtong3 ĠdeĠ
Ġ00 Ġ
Ġ 100
jiang1 Ġhui4Ġ
fu2 Ġyi4Ġ
D Ġ
ben3 Ġdi4Ġ
Ġer2Ġ gai1Ġdi4Ġ
xian1 Ġsheng1Ġ
Ġbu4Ġ la1Ġ
bo1Ġ lan2Ġ
Ġyu2Ġ le4Ġ
jia1Ġ ru4
fang4Ġ qi4Ġ
jian4 Ġyi4Ġ
Ġ 2015
ĠĠĠ F
dang1Ġ shi2ĠdeĠ
Ġqi1Ġ xi1Ġzai4Ġ
mao2 Ġze2Ġ
xiao4 ĠdeĠ
sa4 Ġsi1Ġ
yi4Ġ da4Ġli4Ġ
Ġbing4 Ġyu3Ġ
Ġda4Ġ lu4Ġ
1985 Ġnian2Ġ
fu4Ġ qin1
ze2 Ġwei4Ġ
Ġwei4Ġ lai2Ġ
Ġ ce4Ġ
Ġ 2007Ġnian2Ġ
ĠĠĠ cong2Ġ
zi4Ġ you2
Ġjian4Ġ zao4Ġ
d Ġ
Ġjin4Ġ yi2Ġbu4Ġ
shou1 Ġshi4Ġ
ĠdeĠ zheng4Ġ
liu2 Ġzai4Ġ
cheng1 Ġzuo4Ġ
Ġnian2 ĠĠĠ
nan2Ġ jing1Ġ
Ġjin4 Ġgong1Ġ
guang3Ġ gao4Ġ
sa4 Ġer3Ġ
luo2 Ġdi4Ġ
Ġshi4Ġ zheng4Ġ
Ġfu4Ġ qin1
Ġji4Ġ shu4
Ġhao4 Ġwei4Ġ
shi4 ĠĠĠ
ji4Ġ xu4Ġ
tan3 Ġke4Ġ
le ĠĠĠ
1949 Ġnian2Ġ
ĠdeĠ sheng1Ġ
Ġren2Ġ men
Ġri4Ġ jun1
Ġyi4Ġ mei3Ġyuan2Ġ
ci4Ġ shi3Ġ
jin3 Ġji2Ġ
xi4Ġ ju4Ġ
Ġ 2013
Ġzai4Ġ ci3
Ġsi1Ġ tan3
Ġte4Ġbie2 Ġshi4Ġ
huo3 Ġjian4Ġ
Ġjia1Ġ zu2Ġ
piao4Ġ fang2Ġ
bi3Ġli4Ġ shi2Ġ
qing3 Ġqiu2Ġ
jing3Ġ fang1Ġ
kao3Ġ lv4
Ġ bing1Ġ
Ġ he4Ġ
Ġshi4Ġ ri4Ġben3Ġ
Ġjie2Ġ guo3
tai4Ġping2Ġ yang2
zhan1Ġ mu3Ġsi1Ġ
M Ġ
Ġ 2014
Ġchu1Ġ sheng1Ġ
Ġmei3 Ġnian2Ġ
di4 Ġzai4Ġ
Ġyi3 Ġyou3Ġ
shang4Ġ wu3Ġ
Ġ zhao4
ba1Ġ li2
wang2Ġ chao2Ġ
tou2Ġ piao4
ĠĠĠ jie2Ġzhi4Ġ
nei4 Ġyou3Ġ
bian1 ĠdeĠ
wan2 Ġgong1Ġ
shi2Ġ jian1Ġ
Ġzhi4Ġ cheng2Ġ
guang3Ġdong1Ġ sheng3Ġ
Ġ sai4Ġ
fen1 Ġzhong1Ġ
pai1 Ġshe4
Ġyuan2Ġ ben3Ġ
que4 Ġren4Ġ
chang3 Ġhe2Ġ
Ġqi2 Ġzai4Ġ
Ġzhi1Ġ ziĠ
mu3Ġ qin1
shen1Ġ ti3Ġ
Ã© Ġ
Ġda4Ġ yue1Ġ
Ġ can1Ġjia1Ġ
Ġzhi1 ĠdeĠ
meng2Ġ gu3
Ġ jing1Ġji4Ġ
gu3Ġ fen4
Ġzhan4Ġ dou4Ġ
xi2Ġ xing4
geng4 Ġduo1Ġ
hu2Ġ bei3Ġ
Ġyue1Ġ han4Ġ
k Ġ
deng1 Ġshang4Ġ
Ġxian4Ġ chang3Ġ
Ġ deng4
ĠĠĠ zeng1Ġ
suo3 Ġzai4Ġ
min2Ġ jian1Ġ
qing2Ġ bao4Ġ
Ġying1Ġ wen2Ġ
Ġ xiang3Ġ
wai4 Ġbu4Ġ
zhong4 Ġyi4Ġ
mi4Ġ mi4Ġ
Ġ xun2Ġ
Ġ heng2Ġ
xiao4 Ġyuan2Ġ
Ġshi4Ġ ye4Ġ
Ġzai4Ġ qi2Ġ
guan1Ġ bi4Ġ
guang3Ġ fan4
kao3Ġ lv4Ġ
e2Ġluo2Ġ si1
fen3 Ġ
te4Ġ se4Ġ
cun4 Ġ
Ġyou3Ġ xian4Ġ
sen1Ġ lin2Ġ
ma3 Ġsi1Ġ
Ġ yan2
Ġ wo4
Ġ 2020
wu4 Ġyuan2Ġ
chi1 Ġ
S Ġ
an1Ġ pai2Ġ
Ġwo3Ġ men
Ġ ai1Ġ
Ġquan2 Ġqiu2Ġ
xia4 Ġyi1Ġ
mei3 Ġge4Ġ
23 Ġ
Ġda4Ġ duo1Ġshu4Ġ
Ġ AĠ
cheng2 Ġnian2Ġ
er4 Ġyue4Ġ
zeng4 Ġ
Ġbu4Ġ jiu3
zhuang1 Ġbei4Ġ
Ġda4Ġ dao4Ġ
yan3Ġ chang4Ġ
liang3 Ġnian2Ġ
Ġzui4Ġ gao1Ġ
neng2 Ġzai4Ġ
Ġji1Ġ bai4
tu3Ġer3 Ġqi2Ġ
qian1 Ġzhi4Ġ
huan3 Ġ
1986 Ġnian2Ġ
Ġdi4Ġyi1Ġ ci4Ġ
Ġ R
Ġ gang1Ġ
chang3 Ġdi4Ġ
min2Ġzhu3Ġ dang3Ġ
Ġ zhong1Ġshi4Ġ
V Ġ
Ġ ka3
Ġshi2Ġ yan4Ġ
zuo4Ġ zhan4Ġ
Ġ 10Ġ
nan2 Ġyi3Ġ
Ġji2Ġ bei3Ġ
Ġchu1Ġ lai2Ġ
tai2Ġ feng1Ġ
Ġtong1Ġ chang2
Ġ 2017
ban4 Ġli3Ġ
13 Ġ
Ġzhi1 Ġdao4Ġ
xing4Ġ qu4Ġ
tian1Ġ jin1
long2Ġ jiang1Ġ
c Ġ
ling3 Ġshi4Ġ
Ġbu4Ġ zu2Ġ
yong4Ġ tu2Ġ
li3 Ġgong1Ġ
Ġ kang1Ġ
tian1 ĠdeĠ
tian1Ġ jin1Ġ
x Ġ
Ġyuan2Ġ su4Ġ
wei1 Ġer3Ġ
nong2Ġ ye4
Ġqing1Ġ chao2Ġ
ai1 Ġer3Ġ
Ġyue4Ġ tuan2Ġ
Ġcheng2Ġ du4Ġ
zhan4Ġ ling3Ġ
chang2 Ġjian4ĠdeĠ
jin4Ġxing2Ġ leĠ
Ġshi3 Ġjian4Ġyu2Ġ
Ġ xuan1Ġ
ĠĠĠ xian4
dao3 Ġdan4Ġ
xiu1 Ġzheng4Ġ
ming2Ġ zi4Ġ
gui4 Ġzhou1Ġ
fen1 Ġbu4Ġyu2Ġ
xi3 Ġju4Ġ
Ġgong1Ġ zhu3Ġ
Ġta1Ġ hai2Ġ
Ġzhan4Ġ dou4
ma3Ġlai2 Ġxi1Ġya4Ġ
xi2Ġxing4 Ġbu4Ġming2Ġ
Ġshi2Ġ dai4
Ġwen2Ġ hua4Ġ
zhang4Ġ ai4Ġ
25 Ġ
Ġchu1Ġ qi1Ġ
xiang4 Ġshi4Ġ
hua2Ġ sheng4Ġ
sheng1 Ġcheng2Ġ
Ġyou3Ġ xie1Ġ
Ġsheng1Ġ chan3
ren4Ġming4 Ġwei4Ġ
Ġ tao2Ġ
Ġyi4Ġ qi3
Ġwan4 Ġli4Ġ
fa3Ġ guan1Ġ
Ġye3Ġ jiu4Ġshi4Ġ
Ġ rong2Ġ
ma Ġ
ĠdeĠ fang1Ġshi4Ġ
Ġhe2Ġ he2Ġ
Ġ gong4
ĠĠĠ ta1Ġ
zu3 Ġjian4Ġ
Ġsheng1Ġhuo2Ġ xi2Ġxing4Ġbu4Ġming2Ġ
Ġ chu3Ġyu2Ġ
she4 Ġzhi4Ġ
ti2 Ġchu1
jiao1Ġ liu2Ġ
shou4 Ġdao4
ji1Ġ chu3Ġ
Ġta1Ġ ye3Ġ
Ġ gen1Ġju4
Ġ luo4
Ġ han4
Ġ gong4Ġyou3Ġ
hen3 Ġda4Ġ
Ġsui4 Ġshi2Ġ
Ġ yin2Ġ
zhi4 Ġzhong1Ġ
bao4Ġ fa1
zhu3 Ġshi4Ġ
ku3 Ġ
ĠĠĠ mei3Ġguo2Ġ
ling3Ġ xiu4Ġ
ju4Ġ jue2Ġ
la1Ġ ding1
ren4 Ġshi2Ġ
Ġer2Ġ bu2Ġshi4Ġ
chuan2Ġ shuo1Ġ
hua4Ġhe2Ġ wu4Ġ
Ġ kong3Ġ
he2 ĠĠĠ
Ġ rui4Ġ
Ġ dian4Ġying3Ġ
bao4 Ġli4Ġ
an1Ġ na4Ġ
Ġyi1Ġ xue2Ġ
an1Ġ zhuang1
wo3Ġ menĠ
Ġ pa4
ĠĠĠ li3Ġ
zhi4 Ġbu4Ġ
jia1Ġli4Ġ fu2Ġ
Ġ fa3
shu2 Ġ
Ġyou3Ġ yi2Ġge4Ġ
Ġxian4Ġ xiang4Ġ
shang4Ġ ying4Ġ
wen2 Ġyi4Ġ
qiong2 Ġ
Ġzai4Ġ nei4ĠdeĠ
gao1Ġ su4Ġ
1987 Ġnian2Ġ
Ġzai4Ġ du4Ġ
Ġer2 Ġbu4Ġ
chuang4Ġ ban4
ji4 Ġshi4Ġ
yuan4 Ġshi4Ġ
Ġwei4Ġ xing1Ġ
Ġli3Ġ lun4
yan2Ġ shen1
hai3Ġ an4Ġ
nv3Ġ xing4
chuang4 Ġjian4Ġ
bin1 Ġhai3Ġ
shun4 Ġli4Ġ
Ġdong1Ġ bei3Ġ
ĠĠĠci3Ġ wai4Ġ
Ġ 2013Ġnian2Ġ
lei2 Ġsi1Ġ
ruan3 Ġjian4Ġ
Ġsheng1Ġ zhang3
Ġyou2 Ġqi2Ġshi4Ġ
tui1 Ġjin4Ġ
zu1 Ġ
Ġhe2Ġ bu4Ġ
hai3Ġ wai4Ġ
shu1Ġ ru4Ġ
zi1Ġ chan3Ġ
lun4Ġ wen2Ġ
Ġ shu3
Ġxing2Ġ zheng4
wang3 Ġqiu2Ġ
ĠĠĠ B
Ġ wa3Ġ
Ġ na4
Ġbu4Ġ luo4Ġ
Ġda4Ġ sha4
1980 Ġnian2Ġ
zhu3Ġ yi4ĠdeĠ
ping2Ġ lun4Ġ
zui4Ġ gao1
Ġshi4Ġ yu2Ġ
ying4Ġ yong4
cai3Ġ qu3Ġ
Ġ 2010
Ġ 2012
pai2Ġming2 Ġdi4Ġ
Ġ sai1Ġ
Ġ 2006Ġnian2Ġ
Ġ ying2Ġ
Ġ ta3Ġ
bian4 Ġwei4Ġ
Ġbei3Ġ jing1Ġ
Ġ xi2Ġ
yu2 ĠdeĠ
ju4 Ġhe2Ġ
Ġzai4Ġ xi1Ġ
ren2Ġ da4Ġ
Ġde2 Ġer3Ġ
Ġhou4Ġ xuan3Ġren2Ġ
bao4Ġ gao4
bo1Ġ fang4Ġ
jiao4 Ġshi4Ġ
tou2Ġ zi1
Ġ yong4Ġyu2Ġ
ma3 Ġli3Ġ
ze2 Ġren4Ġ
rao3 Ġ
ĠĠĠ qi2Ġ
fang1Ġ mian4ĠdeĠ
ge4Ġ zhong3Ġ
Ġshi4Ġ min2Ġ
Ġhe2Ġ da4Ġ
Ġ lai2
ĠĠĠ deĠĠĠ
ling3 Ġdi4Ġ
Ġzai4Ġ ci4
fan4Ġwei2Ġ nei4Ġ
ĠĠĠju4Ġ qing2Ġ
ĠĠĠ qian2Ġ
xiang1 Ġshi4Ġdi4Ġ
zhe4 Ġli3Ġ
Ġyu2Ġ ren2Ġ
zheng4Ġ dang3Ġ
Ġri4Ġ bao4Ġ
xing2 Ġcheng2Ġ
fa1 Ġxing2ĠdeĠ
Ġji1Ġ hu1Ġ
Ġling4 Ġyi1Ġ
Ġshi4Ġ gu4Ġ
zhi2Ġ jie1
Ġ shuo1Ġ
feng1 Ġwei4Ġ
pai4 ĠdeĠ
1982 Ġnian2Ġ
Ġzhi4Ġ shao3Ġ
biao3Ġ da2Ġ
yuan4 Ġyi4Ġ
Ġta1 Ġhe2Ġ
ju4Ġ le4Ġbu4Ġ
dian4Ġ zi
y Ġ
ĠĠĠ chu1Ġ
wang3Ġ luo4
du2Ġ li4ĠdeĠ
Ġ fan1Ġ
e2 Ġguo2Ġ
ĠĠĠ xian4Ġ
Ġzhi1Ġ fu4Ġ
jiu3Ġ long2Ġ
dang1Ġ xuan3Ġ
he4 Ġer3Ġ
Ġyou3Ġ xiao4Ġ
zi4Ġ ran2
bu2 Ġ
wen1 Ġdu4Ġ
xi4Ġ bao1
1945 Ġnian2Ġ
1983 Ġnian2Ġ
ji4Ġ cheng2Ġ
dian4Ġ nao3
yun3Ġ xu3
Ġyi1Ġ xiao3Ġshi2Ġ
jing3Ġ cha2
huo3Ġ shan1Ġ
Ġda4Ġ xi1Ġyang2Ġ
guo4Ġ qu4
pai2Ġ hang2Ġ
an1 Ġde2Ġ
ĠĠĠ H
19 Ġshi4Ġji4Ġ
jiu4Ġ du2
Ġdong1Ġ lin2Ġ
ĠĠĠ ming2Ġ
zhi1Ġ chi2
fang3Ġ wen4
Ġ jiu4Ġshi4Ġ
Ġzuo4Ġ jia1Ġ
dang3 Ġyuan2Ġ
mian2 Ġ
Ġda4Ġ fu2Ġ
yin3Ġ qing2Ġ
qu1 Ġyi4Ġhui4Ġ
Ġde2Ġ hua2Ġ
Ġ 2012Ġnian2Ġ
huan4 Ġcheng2Ġ
biao3Ġ yan3
dou1 Ġzai4Ġ
Ġdi4Ġ yi2Ġge4Ġ
xian4 Ġzhi4Ġ
Ġyu3Ġ mao2
Ġchu1Ġ zhan4Ġ
bi3Ġ ya4
ĠĠĠdi4Ġ fang1Ġ
xi3Ġ huan1
xiang1Ġ dang1
Ġ reng2
Ġbing4 Ġbei4Ġ
fang1Ġ yan2Ġ
qu1 Ġhe2Ġ
Ġyi1Ġ tong2Ġ
xun2Ġ yang2
Ġzhong1Ġhua2Ġren2Ġmin2Ġgong4Ġhe2Ġguo2Ġ zheng4Ġzhi4Ġren2Ġwu4Ġ
san1 Ġshi4Ġ
jing1Ġ yan4Ġ
Ġji4Ġ suan4Ġ
pu3Ġ bian4Ġ
Ġ sheng1Ġyu2Ġ
Ġzhong1Ġ bei4Ġ
guan1Ġ dian3Ġ
jiang4Ġ di1Ġ
ke1ĠdeĠ qi2Ġzhong1Ġyi1Ġzhong3Ġ
Ġgong1Ġ yi4Ġ
han2 Ġyou3Ġ
liang3 Ġming2Ġ
dian3 Ġli3Ġ
Ġshi4Ġ gong1Ġ
zhong4Ġ duo1Ġ
Ġ neng2Ġ
da4 Ġzhi4Ġ
Ġbing4Ġ du2
Ġqi2Ġzhong1Ġ yi1Ġ
ĠĠĠ 2011
ya4 Ġjun1Ġ
she4Ġ qu1Ġ
kou3 Ġwei4Ġ
cheng2Ġ yuan2Ġ
Ġxian4 Ġshi4Ġ
zhi1Ġ qian2Ġ
mi4Ġshu1Ġ zhang3Ġ
Ġdi4Ġ si4
Ġ liu4
zuo4 Ġshi4Ġ
tiao2 Ġli4Ġ
nei4Ġ ge2Ġ
P Ġ
Ġ ping2Ġjun1Ġ
shu4 Ġyu3Ġ
wu2 Ġzheng4Ġzhuang4Ġ
14 Ġ
Ġxian4Ġ ren4Ġ
tu1Ġ po4Ġ
Ġ wan2Ġ
xie3 Ġdao4Ġ
dang4 Ġtian1Ġ
yi2Ġ du4Ġ
Ġzu3 Ġfu4Ġ
Ġxing2 Ġwei4Ġ
Ġbi3Ġ sai4Ġ
Ġgong1Ġ min2Ġ
xing1Ġ deng3Ġwei4Ġ
ĠĠĠ ji2Ġ
Ġtong2 Ġyi4Ġ
F Ġ
shan1 Ġshi4Ġ
Ġnian2Ġ he2Ġ
hong2Ġ se4Ġ
Ġzui4 Ġchu1Ġ
kai1Ġshi3 Ġzai4Ġ
Ġ xin4Ġ
tuan2 ĠdeĠ
gei3 ĠleĠ
she3 Ġ
Ġji1Ġ jin1Ġ
si3Ġ wang2
zheng3Ġ ti3Ġ
Ġ 500
lu3 Ġsi1Ġ
jue2 Ġdui4Ġ
Ġquan2 Ġli4Ġ
dai4Ġbiao3 Ġda4Ġhui4Ġ
ĠĠĠ 2010
chi2 Ġyou3Ġ
ying1Ġ wen2Ġ
Ġ sun1
ĠĠĠ a1Ġ
zheng4 Ġbu4Ġ
gai4Ġ nian4
Ġ da2
Ġgong1Ġ ju4Ġ
she4Ġ shi1Ġ
fang1Ġ fa3
yang2 Ġshi4Ġ
Ġshi4Ġ bing1Ġ
Ġzhe4Ġ zhong3
xia4Ġxia2 ĠdeĠyi2Ġge4Ġ
ben3 Ġren2Ġ
ĠĠĠto ĠĠĠ
ĠĠĠ 2Ġ
Ġ0 Ġ
ni2 Ġer3Ġ
ĠdeĠcheng2Ġ ji4Ġ
ĠĠĠ 1Ġ
Ġji2Ġ ren2Ġ
lai2 Ġyue4Ġ
bao3Ġ shou3Ġ
yi2Ġ ding4Ġ
tou2Ġ xiang2Ġ
gui4Ġ zu2Ġ
yue4 Ġzhong1Ġ
gua4 Ġ
zhi2Ġ dao3Ġ
zhen4Ġ qu1ĠdeĠ
jie4Ġ shao4Ġ
zao3Ġ qi1
bo2Ġshi4Ġ xue2Ġwei4Ġ
ĠĠĠ qi2Ġta1Ġ
shan1 Ġji1Ġ
huang2 Ġhou4Ġ
qi3Ġ dong4Ġ
Ġmei3 Ġge4Ġ
I Ġ
tang1 Ġ
Ġwei2Ġ er3
yao1Ġ qing3
gu3 Ġdai4Ġ
Ġming2Ġ dan1Ġ
Ġde2 Ġyu3Ġ
yi4 Ġnian2Ġ
zhen3 Ġ
Ġli4Ġ fa3
Ġyi1Ġ zuo4Ġ
Ġyi3Ġ ji2
Ġer2Ġ gai1Ġ
zhong3Ġ zu2Ġ
hei1Ġ se4Ġ
1 Ġli4Ġ
kui4 Ġ
Ġren2Ġmin2Ġ zheng4Ġfu3Ġ
en1Ġ sheng3Ġ
tou4Ġ guo4
Ġxiang3 Ġnian2Ġ
wu2Ġzheng4Ġzhuang4Ġ gan3Ġran3Ġ
Ġ yong4
Ġ 30Ġ
sui2 Ġzhu4Ġ
ming2 Ġren2Ġ
duo1 Ġren2Ġ
huo2 Ġyue4Ġ
mu4Ġ qian2
chang2Ġ wu4Ġ
chang2Ġ wei3Ġ
que4Ġzhen3 Ġbing4Ġli4Ġ
Ġ er4Ġshi2Ġ
sa1 Ġ
Ġri4 Ġyu2Ġ
gai3Ġ ming2Ġwei4Ġ
chu1Ġ shen1Ġ
dian4Ġ hua4Ġ
Ġ 2022
Ġbu4Ġ si1Ġ
Ġji1Ġ si1Ġ
tai4Ġ ziĠ
Ġ 7Ġ
Ġbi3Ġ ru2Ġ
p Ġ
ĠĠĠ gai1
ming2 Ġzhi4Ġ
ke4 Ġcheng2Ġ
kun4 Ġnan2Ġ
Ġbu4Ġ li4Ġ
dan1 ĠdeĠ
long2 ĠdeĠ
tun2 Ġ
zui4Ġ duo1Ġ
Ġmei3 Ġyuan2Ġ
que1Ġ fa2
ti2 Ġji2Ġ
Ġwei4Ġyu2Ġ zhong1Ġguo2Ġ
yi3Ġ jing1Ġ
sai1Ġer3Ġ wei2Ġ
l Ġ
hui4 Ġzhong1Ġ
shou1 Ġji2Ġ
geng4 Ġwei2Ġ
xue2Ġ hui4Ġ
Ġbing4Ġ fei1Ġ
hai3Ġ xia2Ġ
ru4Ġ xuan3Ġ
gou4 ĠdeĠ
gong1Ġ cheng2Ġ
Ġxi1Ġ jie1Ġ
ge1Ġ lun2Ġ
g Ġ
pai1 Ġ
Ġji1Ġ chang3
ju4 Ġda4Ġ
Ġcheng2Ġ ren2Ġ
fu4Ġ ze2
an1Ġ na4
zu2Ġqiu2Ġ yun4Ġdong4Ġyuan2Ġ
Ġ yao1Ġqiu2Ġ
xie3 ĠdeĠ
zhui1Ġ su4
Ġ 2014Ġnian2Ġ
ĠĠĠ 2
Ġtong2Ġshi2Ġ gai1Ġdi4Ġ
zuo4Ġ chu1Ġ
ĠĠĠ C
bei1 Ġsi1Ġ
Ġye3 Ġzai4Ġ
tong2 Ġnian2Ġ
sheng3 ĠdeĠ
ling4 Ġren2Ġ
hui4 Ġzhi4Ġ
Ġde2Ġ zhu3Ġ
tao3Ġ lun4
Ġ yue1
Ġji2Ġ di4Ġ
fan4Ġ zui4Ġ
gao1Ġsu4 Ġgong1Ġlu4Ġ
nei4Ġlu4Ġ sheng3Ġfen4Ġ
er Ġ
an1Ġ hui1Ġ
ke1Ġxue2Ġ jia1Ġ
tu2 Ġxing2Ġ
pi1Ġ zhun3
Ġbing4Ġ du2Ġ
Ġ po4Ġ
di1 Ġyu2Ġ
Ġ dian4Ġshi4Ġ
jiang1 Ġzai4Ġ
zhu2 Ġbu4Ġ
jian3Ġ shao3
ĠdeĠdi4Ġ er4Ġ
shou4 ĠdeĠ
shan1 ĠdeĠ
Ġshi4Ġ yin1Ġwei4Ġ
Ġke4 Ġxi1Ġ
lian2Ġhe2Ġ hui4Ġ
Ġ ou1Ġyuan2Ġ
chao1 Ġyue4Ġ
jie2Ġ guo3
tai2Ġ nan2
qiang2Ġ lie4Ġ
Ġ cha2
xia4Ġling4 Ġshi2Ġjian1Ġ
Ġ wan2Ġjia1Ġ
hai3 Ġping2Ġmian4Ġ
bu2 Ġdao4Ġ
Ġshi2Ġ qi1ĠdeĠ
Ġyuan2Ġ xing2Ġ
yi2Ġ ding4
Ġ 20
ye3 Ġzai4Ġ
Ġji1Ġ hui4Ġ
Ġxue2Ġ yuan4
hui1Ġ fu4
Ġ jia3
guo4 ĠdeĠ
ya4Ġ mei3Ġ
ci4 ĠdeĠ
Ġguo2Ġ nei4Ġ
bian1Ġ jie4Ġ
dong3Ġshi4Ġ zhang3Ġ
Ġ mei2
Ġjiao4Ġ yu4Ġ
ti2 Ġyi4Ġ
shu1 Ġzhong1Ġ
xun1 Ġzhang1Ġ
jia4Ġ ge2Ġ
zhu3Ġ jiao4
shi1Ġ bai4Ġ
Ġhao4 ĠdeĠ
zhu3Ġyao4 ĠdeĠ
ni2Ġya4 Ġzhou1Ġ
Ġhou4Ġ bei4Ġ
Ġxue2Ġ jia1Ġ
liu2Ġ xia4Ġ
shuang1Ġ fang1Ġ
ĠĠĠbei4Ġ jing3Ġ
er2 Ġtong2Ġ
Ġyi1Ġ li4Ġ
guan1Ġ cha2Ġ
pai4Ġ qian3
jia1 Ġyi4Ġ
Ġbu4Ġ dui4
Ġyi3Ġ wei2Ġ
Ġzai4Ġ shi2Ġ
Ġ shou3
Ġ bai3
lian2Ġ xu4
ti2Ġgong1Ġ leĠ
xian4 ĠdeĠ
qin1 Ġzi4Ġ
Ġer2Ġ ziĠ
bei3Ġjing1 Ġshi4Ġ
Ġ 1950
Ġyou3Ġ suo3Ġ
zui4Ġ gao1ĠdeĠ
hui4Ġyi4Ġ yuan2Ġ
san1Ġ jiao3
ĠĠĠdi4Ġfang1Ġ zi1Ġliao4Ġ
Ġ L
ren4 Ġwei4Ġ
ma3 Ġer3Ġ
lan2 ĠdeĠ
na2 Ġxia4Ġ
ping2Ġ tai2Ġ
fei1Ġ chang2
ĠĠĠ jian3Ġjie4Ġ
duo1 Ġwei4Ġ
zu3 Ġfu4Ġ
al ĠĠĠ
Ġhe2Ġ yue1Ġ
1978 Ġnian2Ġ
le Ġzai4Ġ
Ġli4Ġ liang4Ġ
Ġchu1Ġ kou3Ġ
Ġta1Ġceng2 Ġdai4Ġbiao3Ġ
Ġdi4Ġ li3Ġ
nan2Ġ bei3Ġ
neng2 Ġyuan2Ġ
Ġdi4Ġ qi1Ġ
Ġxian4Ġ fa3Ġ
gai3Ġ bian4
bei4 ĠdeĠ
Ġhou4Ġ zhe3Ġ
Ġ hu4
tai2 Ġzhong1Ġ
di2 Ġshi4Ġ
Ġzheng4Ġ ming2Ġ
que1Ġ fa2Ġ
Ġshi2Ġji4Ġ shang4Ġ
liao3 Ġ
Ġcheng2Ġ zhen4Ġ
ban3Ġ ben3
Ġ kuan1Ġ
Ġ 2015Ġnian2Ġ
xuan3 Ġzhong1Ġ
di2 Ġren2Ġ
1979 Ġnian2Ġ
Ġli4Ġ yi4Ġ
Ġ su4Ġ
Ġ lu3Ġ
li3 Ġhe2Ġ
zi4 ĠdeĠ
t ĠĠĠ
pai4 Ġchu1Ġ
Ġnian2Ġ lai2Ġ
Ġzhong1Ġguo2Ġren2Ġmin2Ġ jie3Ġfang4Ġjun1Ġ
duo1Ġ zhong3Ġ
tan2Ġ pan4Ġ
liao2Ġ ning2Ġ
Ġsi1Ġ ta3Ġ
ti2 Ġchu1ĠdeĠ
bian3 Ġ
wan2Ġ zheng3
Ġ zi1Ġ
sui2 Ġji2Ġ
tui4Ġ xiu1Ġ
Ġda4Ġxue2 ĠdeĠ
hai3Ġba2 Ġwei4Ġ
ping2 Ġwei4Ġ
gan4 Ġbu4Ġ
lei3 Ġji4Ġ
Ġbu4Ġ shao3Ġ
Ġshi2Ġ xing2Ġ
ying1Ġ ge2Ġlan2
dang1 Ġzhong1Ġ
xu4 Ġli4Ġya4Ġ
shang1 Ġren2Ġ
biao1 Ġben3Ġ
fa1Ġ sheng1Ġzai4Ġ
suo3Ġ cai3Ġyong4
zhi3Ġ dao3Ġ
Ġju4Ġ jue2Ġ
mian3Ġ dian1
hua4 Ġzhong1Ġ
zan4 Ġshi2Ġ
1972 Ġnian2Ġ
Ġfu4Ġ jin4
mei3 Ġzhou1
Ġzhong1Ġgong4 Ġzhong1Ġyang1Ġ
tiao4 Ġ
Ġyi4Ġ qing2Ġ
nong2Ġ min2Ġ
Ġming2 Ġzhi4Ġ
ci4 Ġyu2Ġ
jue2 Ġyi4Ġ
ĠĠĠ yin1Ġ
yi2 Ġdai4Ġ
Ġde2 Ġming2Ġ
ĠĠĠin ĠĠĠ
Ġ chu2
shui3 Ġli4Ġ
rong2 Ġhe2Ġ
Ġzhong1Ġ guo2ĠdeĠ
zhuang1Ġ jia3Ġ
Ġ ba3
fa1 Ġming2Ġ
Ġqi2 Ġwei4Ġ
zhi3Ġ neng2Ġ
xiu1Ġ gai3Ġ
3 Ġge4Ġ
Ġgong1Ġ zhong4Ġ
ĠĠĠ 1
zhu3Ġ yan3Ġ
a1Ġla1Ġ bo2
xiang1Ġ si4Ġ
guan1Ġ cha2
jie1Ġ chu4Ġ
Ġbei3Ġ jing1
kai1 Ġshe4Ġ
xiu1 Ġjian4Ġ
zhong3Ġ ziĠ
jing4 Ġji4Ġ
Ġyu3Ġ qi2Ġta1Ġ
jie3Ġ san4Ġ
ĠdeĠshi4Ġ jie4Ġ
Ġ 2016Ġnian2Ġ
wu3Ġ zhuang1
Ġ cn
dian4 Ġji1Ġ
chai1 Ġchu2Ġ
kai1Ġ tong1Ġ
bao4Ġ zha4Ġ
ju3Ġban4 ĠdeĠ
ĠĠĠ T
fa1Ġ qi3Ġ
shen1Ġ du4Ġ
an1Ġ pai2
shen2Ġ meĠ
Ġ tang2
qu1 Ġshi4Ġ
wei2Ġ si1Ġ
tuan2Ġ ti3
1958 Ġnian2Ġ
ji1Ġ gou4Ġ
fu4Ġ zhu3Ġren4Ġ
fa1Ġ shou4Ġ
zu3Ġzhi1 ĠdeĠ
Ġ ting2Ġ
ĠĠĠ qi2
ĠĠĠ dui4Ġ
Ġwei4Ġ da4Ġ
feng1Ġ xian3Ġ
diao4Ġ kuai4
Ġ zheng1Ġ
cheng2 Ġhe2Ġ
Ġ ge1
neng2Ġ liang4Ġ
zhang1Ġ zhuan1Ġji2Ġ
zao4 ĠleĠ
zhuan3 Ġxiang4Ġ
Ġwei4Ġ UTCĠ
Ġbu4Ġ ji2Ġ
Ġzhong1Ġ shan1Ġ
shuai4Ġ ling3
Ġcn Ġ
jie2 ĠdeĠ
bian1 Ġju4Ġ
ying1Ġ gai1Ġ
ban4Ġshi4Ġ chu4Ġ
Ġ bai4Ġ
Ġ fa1Ġxing2Ġ
qiu2 Ġji4Ġ
nu3 Ġ
Ġxi1Ġban1Ġ ya2Ġ
Ġ dan1
luo2 Ġli3Ġ
ge2Ġ la1Ġ
jiu4Ġ du2Ġ
diao4Ġkuai4 Ġyi1Ġxiao3Ġshi2Ġ
ze2 Ġzai4Ġ
ĠdeĠ ying3Ġxiang3Ġ
ying1Ġ xiong2Ġ
shang1Ġ ye4
qiang2Ġ diao4Ġ
r Ġ
Ġji2Ġ UTCĠ
tiao2Ġ zheng3
ke1Ġxue2Ġ yuan4Ġ
she4Ġyou3Ġ xia4Ġling4Ġshi2Ġjian1Ġ
ĠdeĠshi2Ġqu1Ġwei4Ġ UTCĠ
Ġer2Ġgai1Ġdi4Ġ suo3Ġcai3Ġyong4
Ġtong2Ġshi2Ġgai1Ġdi4Ġ she4Ġyou3Ġxia4Ġling4Ġshi2Ġjian1Ġ
Ġer2Ġgai1Ġdi4Ġsuo3Ġcai3Ġyong4 ĠdeĠshi2Ġqu1Ġwei4ĠUTCĠ
2025 Ġnian2Ġ
xiao1Ġ fei4Ġ
Ġtong2Ġ yang4
xin4Ġ yang3Ġ
ta1Ġmen ĠdeĠ
b Ġ
Ġda4Ġ jiang3Ġ
jiao4Ġ tang2
Ġling4 Ġyou3Ġ
Ġyi1Ġsi1Ġ lan2Ġ
you2 Ġji1Ġ
yuan2Ġ zhu4Ġ
tai4Ġ du4Ġ
Ġgai1Ġ cun1Ġ
Ġ huan4Ġ
que4 ĠdeĠ
bao3Ġ liu2
chuan2Ġ bo1Ġ
zhi1Ġ jian1ĠdeĠ
ĠĠĠ jiao1Ġtong1Ġ
fa1 Ġshe4
suo3 Ġzai4Ġdi4Ġ
Ġshi2Ġ wu4Ġ
Ġqi2Ġ xia4Ġ
Ġma3Ġ lai2
Ġli4Ġshi3Ġ shang4Ġ
gao1Ġyu2Ġ hai3Ġping2Ġmian4Ġ
ding4Ġ ju1Ġ
Ġwei4Ġfu2Ġqi2Ġyu2Ġ gang1Ġ
xing4 Ġwei4Ġ
zhu2 Ġjian4
1976 Ġnian2Ġ
Ġbu4Ġ neng2
Ġgong1Ġ jue2Ġ
Ġer3Ġ duo1Ġ
ĠĠĠ qing1Ġ
wu4 Ġhe2Ġ
pei4 Ġzhi4Ġ
kun4 Ġ
Ġ lian2Ġhe2Ġ
hui4 Ġyu2Ġ
chu4ĠdeĠ hai3Ġba2Ġwei4Ġ
chu4ĠdeĠhai3Ġba2Ġwei4Ġ gao1Ġyu2Ġhai3Ġping2Ġmian4Ġ
qia4 Ġ
Ġyin1Ġ su4Ġ
ti3 Ġzhi4Ġ
jing4Ġ xuan3Ġ
wu4 Ġshi4Ġ
Ġyu2Ġ le4
chang3Ġ suo3Ġ
Ġ 30
hou4 Ġwei4Ġ
Ġzhi1 Ġyi4Ġ
Ġ ni3Ġ
Ġhe2Ġ pan4Ġ
Ġbu4Ġ jin3Ġ
Ġyi3Ġ xi1Ġ
Ġ dai4
fa1 Ġxian4ĠdeĠ
zhong4 Ġshi4Ġ
kuang2 Ġ
Ġqi2 Ġshi2Ġ
Ġsui2 Ġzhu4Ġ
Ġ xu1Ġ
nan2Ġ jing1
zhang3Ġ da2Ġ
yun4Ġ shu1
Ġ 2008
Ġ 2017Ġnian2Ġ
ĠĠĠ ma3Ġ
shu4 Ġshi2Ġ
nei4 Ġdi4Ġ
Ġ zheng4Ġzhi4Ġ
Ġ xie4Ġ
an ĠĠĠ
shi2Ġ qu1Ġ
gao1Ġ xiong2
zi1Ġ liao4
3 Ġnian2Ġ
jian4 Ġcheng2Ġ
geng1 Ġxin1Ġ
Ġyi1Ġ jia1Ġ
Ġxi1Ġ lan2Ġ
yun4Ġ yong4Ġ
Ġzi4Ġ ran2Ġ
chong2Ġ qing4
Ġ yi2
lu4 Ġzhi4Ġ
bi4Ġ ye4Ġhou4Ġ
Ġ hu2
ĠĠĠ ran2
er4 Ġji2Ġ
Ġli4Ġ ren4Ġ
shan1Ġ feng1Ġ
Ġwei4Ġyu2Ġ gai1Ġ
Ġ xiao3Ġshi2Ġ
wei2Ġ er3Ġ
zhi2Ġ zheng4Ġ
dian4Ġ qi4Ġ
zhe3 Ġshi4Ġ
wang2 Ġshi4Ġ
Ġzuo4Ġ chu1Ġ
bian1 Ġhao4Ġ
xia2Ġ qu1Ġ
ĠĠĠ ben3
bao1 Ġwei2Ġ
bang4 Ġqiu2Ġ
chan2 Ġ
xue2 Ġyuan2Ġ
cuo4 Ġwu4Ġ
Ġdi4Ġ qiu2
jin1Ġ rong2Ġ
Ġyu4Ġ shi3Ġ
xuan1Ġ chuan2
Ġ kou3Ġ
dong1Ġ fang1Ġ
Ġ nuo4Ġ
hou4 Ġyi4Ġ
bei3 Ġshi4Ġ
jing1Ġ chang2
xiao4Ġ qu1Ġ
Ġran2 Ġer2
jiu4 Ġhui4Ġ
Ġjie2 Ġke4Ġ
Ġ fa1Ġxian4Ġ
Ġsi1Ġ ke1Ġ
Ġdui4Ġ shou3Ġ
Ġxing2Ġzheng4Ġ qu1Ġ
zhen4Ġqu1ĠdeĠ mian4Ġji1Ġwei4Ġ
Ġzhou1Ġ ci4Ġshi3Ġ
Ġsheng1Ġ ya2Ġ
ĠĠĠ W
jia1 Ġyi3Ġ
ceng2 Ġwei4Ġ
ju2 ĠdeĠ
Ġ qin1Ġ
fu2 ĠdeĠ
ma3 Ġke4Ġ
Ġta1 Ġyi3Ġ
Ġyuan2Ġ zi4Ġ
Ġli3Ġ xi1Ġ
zao4Ġ cheng2ĠdeĠ
Ġfu2Ġ wu4Ġ
Ġ 8Ġ
Ġ 2023
17 Ġ
ping2Ġ lun4
zhi2Ġ min2Ġ
fu1Ġ ka3Ġ
Ġdang1Ġ shi2ĠdeĠ
Ġ gan3Ġ
ao4 Ġzhou1Ġ
shuai1 Ġ
Ġyi1Ġ ju4Ġ
ji4 Ġyou3Ġ
shi3 Ġjian4Ġyu2Ġ
ren4 ĠdeĠ
ye3 Ġbei4Ġ
mian4 Ġshang4Ġ
ban4 ĠdeĠ
gong1Ġ gong4Ġ
Ġsi1Ġ ke4
Ġer2Ġ tong2Ġ
Ġ 2018Ġnian2Ġ
jia1 Ġzai4Ġ
ke3 Ġzai4Ġ
pao3 Ġ
Ġxue2Ġ zhe3Ġ
ĠĠĠ R
Ġjian4 Ġshe4
Ġwei2Ġ rao4
Ġye3 Ġbei4Ġ
qian1Ġ shu3Ġ
Ġqi2Ġzhong1Ġ bao1Ġkuo4Ġ
Ġ e4Ġ
Ġ 2009
hai3Ġ yang2Ġ
lai2 Ġyin1Ġ
Ġ xian1
Ġ chong1Ġ
ĠĠĠ for
ji1 Ġzai4Ġ
jun4 Ġgong1Ġ
tu1 Ġran2Ġ
Ġji2Ġ da4Ġ
ji4Ġ nian4
Ġde2 Ġzhi1Ġ
Ġji1Ġ jin1Ġhui4Ġ
xiao4Ġli4Ġ yu2Ġ
Ġ sha1
Ġ 2019Ġnian2Ġ
qi4Ġ che1
ling4Ġ yi2Ġge4Ġ
xiao1Ġ shi1Ġ
Ġ xing1
Ġ yun2Ġ
ming2 Ġshi4Ġ
Ġwei4Ġ dui4Ġ
ru2Ġ guo3Ġ
dang1Ġ di4ĠdeĠ
jiang4Ġ ling3Ġ
yan2Ġ hai3Ġ
tao2Ġ tai4Ġ
wei3Ġyuan2Ġhui4Ġ wei3Ġyuan2Ġ
Ġdi4Ġ tie3
Ġli3Ġ ya4Ġ
shen2Ġ me
Ġ 2Ġyue4Ġ
ĠĠĠ sheng4Ġ
ĠĠĠ jin3Ġ
ping2 Ġyuan2Ġ
bei4Ġ jing3Ġ
ka3Ġ luo2Ġ
19 Ġ
jin4 Ġbu4Ġ
ding4 Ġyu2Ġ
liang3 Ġguo2Ġ
te4Ġ ding4Ġ
fen4Ġ zi3
da4 Ġbu4Ġ
dui4 Ġqi2Ġ
Ġqi2 ĠdeĠ
ĠdeĠbu4Ġ fen4Ġ
Ġci4 Ġnian2Ġ
er4 Ġren2Ġ
jiao4 Ġda4Ġ
Ġzhi4Ġ zuo4ĠdeĠ
Ġji1Ġ du1Ġ
dian4Ġ nao3Ġ
gai3Ġ zao4Ġ
chuan2Ġtong3 ĠdeĠ
Ġ gen1Ġ
deng3 Ġji2Ġ
sheng1Ġ ya2
Ġbu4Ġbu4Ġ zhang3Ġ
shou3 Ġzhong1Ġ
jing1Ġ shen2
Ġqian2Ġ wang3Ġ
zhi2Ġmin2 Ġdi4Ġ
Ġ za2Ġzhi4Ġ
dian3 Ġshi4Ġ
yi4Ġ shu4Ġ
quan2Ġ mian4Ġ
tian2Ġ jing4Ġ
Ġdian4Ġ ying3
mo4Ġxi1Ġ ge1Ġ
Ġ xian2Ġ
zhen4 ĠdeĠ
tui1 Ġchu1
guo2Ġ jia1
Ġxian4 Ġyi3Ġ
Ġji1Ġ chu3
Ġju4Ġ li2
guan1 Ġjian4Ġ
mu4 ĠdeĠ
li2Ġ kai1
Ġluo2Ġ ma3Ġ
ĠĠĠ nan2Ġ
Ġshi2Ġ duan4Ġ
liang3Ġ ci4Ġ
ai4Ġer3Ġ lan2Ġ
san1 Ġming2Ġ
hun1 Ġyin1Ġ
da4Ġ lu4
Ġyi4Ġ yu2Ġ
jie1Ġ duan4
shu1Ġ yuan4Ġ
Ġyou2 Ġji1Ġ
Ġshan1Ġ dong1Ġ
a1Ġla1Ġ bo2Ġ
tou Ġ
Ġ liu4Ġ
bo1 Ġsi1Ġ
hui4Ġ zhang3Ġ
man3Ġ zu2Ġ
wen2 ĠdeĠ
Ġdi4Ġ dian3Ġ
cai2Ġ neng2Ġ
xin1 Ġcheng2Ġ
qi1 Ġwei4Ġ
liang3 Ġwei4Ġ
pei4 Ġyin1Ġ
zheng4Ġ ju4Ġ
jing4Ġ zheng1Ġ
Ġwu2Ġ fa3Ġ
lian2 ĠdeĠ
xiu1 Ġfu4Ġ
Ġbing4Ġ you2Ġ
la1 Ġji1Ġ
kao4 Ġjin4Ġ
Ġdi4Ġ dai4Ġ
Ġli4Ġ shi2Ġ
jie3Ġ fang4Ġ
nei4 Ġzhan4Ġ
bo1 Ġshi4Ġ
Ġwei2Ġ chi2
chu1Ġ ban3
zai1Ġ pei2Ġ
Ġshi4Ġ de2Ġguo2Ġ
dui4Ġ zhang3Ġ
fa1Ġ qi3
hu4Ġ lian2Ġ
ju1Ġ zhu4Ġzai4Ġ
zao3 Ġzai4Ġ
Ġ can1Ġyu4Ġ
bing4 Ġbu4Ġ
shou3Ġ xiang4Ġ
shan1Ġ qu1Ġ
zu2Ġqiu2 Ġju4Ġle4Ġbu4Ġ
yu2 ĠĠĠ
jiao1Ġ liu2
Ġguo2Ġwu4Ġ yuan4Ġ
Ġ piao4Ġ
li3 Ġcheng2Ġ
wei3 Ġfu4Ġ
gou3 Ġ
Ġ BĠ
zhe4 Ġshi4Ġ
qi3 Ġyuan2Ġ
cun1Ġ luo4Ġ
fu1 ĠdeĠ
ji1Ġ chu3
Ġda4Ġ lou2
Ġyu3Ġ yan2
yan2Ġ se4Ġ
xiang4Ġ zheng1Ġ
Ġwei2Ġ si1Ġ
tian1Ġ ti3Ġ
dou1 Ġbei4Ġ
Ġbu4Ġ bing1Ġ
ĠĠĠdi4Ġ er4Ġ
Ġ 2004Ġnian2Ġ
liu4 Ġshi2Ġ
Ġzhi4Ġ liang4Ġ
Ġzhou1Ġ fu3Ġ
lang2 Ġzhong1Ġ
Ġyi1Ġ yuan4
Ġxing2Ġ mu4Ġ
Ġ bao3
Ġ ding1Ġ
xing4 Ġhe2Ġ
juan4 Ġ
Ġyi3Ġ wai4Ġ
Ġyu3Ġ yi1Ġ
chang2Ġ du4Ġ
luo4Ġ fa2
Ġzhi4Ġ di4Ġ
wu2Ġzheng4Ġzhuang4Ġgan3Ġran3Ġ zhe3Ġ
Ġ yi4Ġshi4Ġ
liang4 Ġwei4Ġ
mu3 ĠdeĠ
Ġde2 Ġsi1Ġ
Ġ 2020Ġnian2Ġ
xie3 Ġzuo4Ġ
meng4 Ġjia1Ġ
zui4 Ġchu1
te4Ġ xing4Ġ
shi1Ġ qu4
Ġwei4Ġyu2Ġ mei3Ġguo2Ġ
jia3 Ġdi4Ġ
Ġzui4 Ġjia1Ġ
fu4 Ġhe2Ġ
chuang2 Ġ
ao4Ġ men2
e ĠĠĠ
ĠĠĠ 2008
fu2 Ġli4Ġ
Ġxian4 Ġji2Ġ
tai4Ġ yang2
zhuan4 ĠdeĠ
Ġ dang3Ġ
zong1 Ġyi4Ġ
1970 Ġnian2Ġ
zi4Ġ mu3Ġ
ling2Ġ chen2Ġ
zhi2Ġye4Ġ sheng1Ġya2Ġ
Ġ yi2Ġge4
Ġ ku4Ġ
suo3 ĠdeĠ
suo3 Ġwei4Ġ
tou4 Ġlu4Ġ
dong1Ġ bei3
Ġ diao4Ġ
ou3 Ġxiang4Ġ
kao3 Ġshi4Ġ
shou1Ġ gou4Ġ
Ġfu2 Ġjian4Ġ
2 Ġnian2Ġ
ĠĠĠ ge4Ġren2Ġ
zong3 Ġren2Ġkou3Ġ
si Ġ
Ġdi4Ġ fang1
Ġxian4 Ġcheng2Ġ
Ġli3Ġ ke4Ġ
jue2 Ġshi4Ġ
Ġde2Ġ la1Ġ
kong1Ġ qi4Ġ
na4 ĠdeĠ
fen2 Ġ
zuo4Ġ wei2
zhu3Ġ zhang1Ġ
xi1 Ġhe2Ġ
xi1Ġ nan2Ġ
Ġ tai4
ping2 ĠdeĠ
hui2 Ġyi4Ġ
Ġyi3 Ġzai4Ġ
Ġye3Ġ ke3Ġyi3Ġ
pu2Ġtao2Ġ ya2Ġ
Ġ zhen1
ĠĠĠ ren2Ġ
zai4 ĠĠĠ
Ġzuo4Ġ zhan4Ġ
Ġ xie4
qi1 Ġshi2Ġ
ge2 Ġshi4Ġ
zou3 Ġxiang4Ġ
Ġyi3 Ġyu2Ġ
Ġcheng2Ġ ke4Ġ
su1Ġ ge2Ġlan2Ġ
Ġ 18
Ġ se4Ġ
guo4 ĠleĠ
che1 Ġdui4Ġ
Ġer3 Ġshi4Ġ
nan2 ĠdeĠ
Ġdi4Ġ tu2Ġ
Ġyuan2Ġ ben3
Ġchu1 Ġdao4Ġ
yin4Ġ ni2Ġ
Ġ 2007
Ġ sun1Ġ
Ġ 2021Ġnian2Ġ
wu3 Ġshi4Ġ
shou1 Ġdao4Ġ
wa3 Ġer3Ġsheng3Ġ
guan3 Ġzhi4Ġ
Ġgong1Ġ li3ĠdeĠ
xin4Ġ yang3
zhu3Ġyi4Ġ zhe3Ġ
Ġ kai3
gu3 Ġli4Ġ
fei2 Ġ
ba Ġ
tou1 Ġ
Ġwei4Ġ yuan2Ġ
guo4Ġ du4Ġ
yan2 Ġren2Ġ
luo4 Ġcheng2Ġ
xian3 Ġzhu4Ġ
50 Ġ
guo2Ġ wu4Ġ
shi3Ġ shang4Ġ
guang3Ġ chang3
Ġshi2Ġyan4 Ġshi4Ġ
Ġsi1Ġling4 Ġbu4Ġ
shi3 Ġren2Ġ
bi4 ĠdeĠ
mai4 Ġke4Ġ
hun2 Ġ
shou3Ġ du1
Ġfu4Ġ jin4ĠdeĠ
wang4Ġ yuan3Ġ
ĠĠĠ yue4Ġ
xi1 Ġdi4Ġ
xiu1 Ġdao4Ġ
Ġda4Ġ gong1Ġ
Ġ zu2Ġ
si4 ĠdeĠ
1968 Ġnian2Ġ
ge2Ġ li2Ġ
xun2Ġ zhao3
shao4Ġ nv3Ġ
yu2 Ġhe2Ġ
jiang1 Ġyu2Ġ
1981 Ġnian2Ġ
dong1Ġ jing1
zhuan1Ġ ye4
Ġ cai3Ġ
Ġ jue2Ġding4Ġ
di4 Ġhe2Ġ
yan2 Ġzhi4Ġ
du4 Ġhe2Ġ
ceng2 Ġyu2Ġ
fang4 Ġzai4Ġ
Ġji2Ġ shi3Ġ
jian1Ġ yu4Ġ
mian3Ġ fei4Ġ
jiao3 Ġdu4Ġ
zuo3 Ġyi4Ġ
Ġdi4Ġ liu4Ġ
Ġcheng2Ġ ben3Ġ
wei2Ġ zhu3Ġ
bei4Ġ cheng1Ġwei2Ġ
Ġxing2Ġ dong4
fan3Ġ hui2
guan3Ġli3Ġ ju2Ġ
1956 Ġnian2Ġ
Ġyue4Ġ dui4Ġ
zi1Ġ ben3Ġ
tai2Ġbei3 Ġshi4Ġ
Ġshe4 Ġyu2Ġ
Ġjun1Ġ qu1Ġ
bi4Ġ mian3
kong1Ġ jian1
xing2Ġ tai4Ġ
Ġ xu4Ġ
ĠĠĠ dang1Ġ
she4 Ġbei4Ġ
xiang1 Ġshi4Ġ
ka3 Ġsi1Ġ
1920 Ġnian2Ġ
Ġ shen2
shan1 Ġxian4Ġ
Ġer2Ġ fei1Ġ
gai3Ġ shan4Ġ
li3Ġ lun4
xi1Ġ bei3Ġ
fei4Ġ chu2Ġ
zheng4Ġfu3 ĠdeĠ
Ġ feng4Ġ
ĠĠĠ si1Ġ
shang4 Ġdi4Ġ
dao3 Ġshang4Ġ
Ġzai4Ġ he2Ġ
Ġke4 Ġer3Ġ
deng3Ġ deng3Ġ
ci3 Ġtong2Ġshi2Ġ
luo4Ġ shan1Ġji1Ġ
Ġ mi4Ġ
Ġ 2002Ġnian2Ġ
kai1 Ġgong1Ġ
tong1 Ġzhi1Ġ
xiang1Ġ guan1ĠdeĠ
bo1Ġ li2Ġ
1960 Ġnian2Ġ
Ġfen1Ġ bie2Ġ
Ġ cai4
jiu4 Ġyuan2Ġ
ĠdeĠ ju4Ġ
Ġ pu3
Ġ yong3
ĠĠĠ zheng4Ġ
wa2 Ġ
Ġdi4Ġyi1Ġ ci4
ĠĠĠ 2009
he2 Ġzai4Ġ
ye3 Ġhui4Ġ
Windows ĠĠĠ
Ġzhi1 Ġshi4Ġ
hai3Ġ an4
ci2Ġ zhi2Ġ
e2Ġluo2Ġ si1ĠdeĠ
Ġren2Ġ da4Ġ
Ġyi4Ġ jian4Ġ
hen3Ġ kuai4Ġ
1975 Ġnian2Ġ
Ġwei4Ġ zai4Ġ
Ġ cai3Ġyong4Ġ
ĠĠĠ ba1Ġ
shang4 Ġxian4Ġ
jia4Ġ shi3Ġ
kou3 ĠdeĠ
zheng1 Ġyue4Ġ
ti4 Ġdai4Ġ
chu4Ġ zhang3Ġ
chong1Ġ tu1
xi3Ġ huan1Ġ
Ġ kai3Ġ
qiang2 Ġzhi4Ġ
Ġshi2Ġ xian4
ying3 Ġshi4Ġ
ci2 ĠdeĠ
1948 Ġnian2Ġ
1964 Ġnian2Ġ
jian1Ġ du1Ġ
ti2Ġchu1Ġ leĠ
wai4Ġjiao1 Ġbu4Ġ
Ġ suo1Ġ
xue2 Ġzhong1Ġ
huai4 Ġ
Ġge4 Ġguo2Ġ
yin3Ġ yong4Ġ
min2Ġzhu3Ġ dang3
Ġ lei2
Ġ e2Ġ
shan1 Ġdi4Ġ
jiu3 ĠdeĠ
jin3 Ġyou3Ġ
Ġ ba3Ġ
feng1 Ġfu4Ġ
ji4Ġ suan4
Ġzhu3Ġ yan3Ġ
si1 Ġshi4Ġ
nuo2 Ġwei1
ĠĠĠ gu4Ġshi4Ġ
Ġsi1Ġ ma3Ġ
Ġge4Ġ zhong3
Ġhao4 Ġxian4
zhang3Ġ guan1Ġ
zong1Ġ jiao4
xiao3Ġxing2Ġ xing1
ĠĠĠ fu4Ġ
mo4Ġxi1Ġ ge1
hu4 Ġxiang1Ġ
qiang2 ĠdeĠ
Ġshi2Ġ hou4Ġ
Ġyou3Ġ xie1
pu3Ġ bian4
bu4ĠdeĠ cun1Ġzhuang1Ġ
ĠĠĠyi3Ġ xia4
guan3 ĠdeĠ
zan4 Ġzhu4Ġ
yin4Ġ shua1
Ġ zu2
Ġ chuan1Ġ
Ġ pa4Ġ
cu4 Ġjin4Ġ
Ġyue4Ġ lai2Ġyue4Ġ
liu2Ġ yu4Ġ
gu3Ġ lao3
ma3Ġlai2 Ġxi1Ġya4
Ġ mo2
ĠĠĠ wei2Ġ
ta1 Ġzai4Ġ
jiang4 Ġyu3Ġ
liao3 Ġjie3Ġ
Ġbu4Ġ shao3
jia1Ġ ting2Ġ
fu4 Ġshi4Ġ
lie4 Ġchu1Ġ
Ġcheng2Ġ xian4
Ġzhi1 Ġdi4Ġ
jing1Ġ dian3Ġ
che1Ġ xiang1Ġ
Ġdan4Ġ bai2Ġ
a1Ġ gen1Ġ
on Ġ
yun3 Ġshi2Ġ
Ġxian4Ġ shang4Ġ
qiang2Ġ du4Ġ
tian1 Ġhou4Ġ
su1 Ġwei2Ġ
guan4 Ġjun1
pu4 Ġ
Ġzhi1 Ġjia1Ġ
can1Ġ xuan3Ġ
Ġ ni3
Ġbu4Ġ man3Ġ
Ġke4 Ġhe2Ġ
lie4Ġ ru4Ġ
bi4Ġ mian3Ġ
1952 Ġnian2Ġ
Ġxiang1Ġ dang1
tong2Ġ xing4Ġ
ce4Ġ liang2Ġ
ting2Ġ che1Ġ
zao3 Ġshang4Ġ
zhu3Ġ ti2
sen1Ġ lin2
Ġfu4Ġze2Ġ guan3Ġxia2Ġ
Ġ Z
ao4 Ġer3Ġ
la1 ĠdeĠ
ming2Ġ dan1Ġ
zhan4Ġ tai2Ġ
guo2 Ġshi4Ġ
hu1 Ġyu4Ġ
kou4 Ġ
Ġgong1Ġ ying4Ġ
xuan3Ġju3 Ġzhong1Ġ
Ġ kao3Ġ
Ġyi1Ġ zhi2Ġ
guan1Ġ fang1
jian4Ġ zhu4
di1Ġ qi4Ġ
jian1Ġ ren4Ġ
suo3Ġ you3ĠdeĠ
cai2Ġ liao4
ĠĠĠzeng1Ġ zu3Ġ
Ġ jie1
sao1 Ġ
nan2Ġ zi
bo2Ġ lin2Ġ
jing3Ġ gao4Ġ
guang3 Ġzhou1
Ġ ye4
la1 Ġde2Ġ
shu1 Ġchu1Ġ
Ġnian2Ġ qing1Ġ
Ġgong1Ġ neng2
ti3Ġyu4Ġ chang3Ġ
Ġ shun4
lan2 Ġxi1Ġ
dun4 ĠdeĠ
Ġqiu2 ĠdeĠ
yin2Ġ pai2Ġ
yao2Ġ gun3
Ġyu3Ġ qi2Ġ
yin3Ġ ru4Ġ
Ġer2Ġgai1Ġ di4ĠdeĠ
nuo2 Ġwei1Ġ
guo2Ġ wang2Ġ
qi1Ġ zi3
lian2Ġ jie1
zhao4Ġ pian1Ġ
hai2 Ġzai4Ġ
nu4 Ġ
xu4 Ġli4Ġya4
zao3Ġ qi1ĠdeĠ
shi2 Ġhe2Ġ
tu2 ĠdeĠ
you1Ġ xiu4
mou3Ġ xie1
1937 Ġnian2Ġ
Ġji4Ġ lu4
Ġchu1Ġ yan3Ġ
Ġbei4Ġ er3
an1Ġ zhuang1Ġ
zhi1 Ġshi2Ġ
qiu2 Ġhui4Ġ
1966 Ġnian2Ġ
zhan4 Ġdi4Ġ
zao1 Ġyu4Ġ
Ġwei4Ġ neng2
Ġjia1Ġ ting2
xia4Ġ lai2Ġ
shen1Ġ qing3
chuang4Ġ zuo4ĠdeĠ
zhan4 Ġshi2Ġ
niang2 Ġ
Ġhe2Ġ gu3Ġ
Ġcheng2Ġ leĠ
Ġyi3Ġ qian2Ġ
Ġji4Ġ yi4Ġ
Ġke4 Ġli4Ġ
gu3Ġ la1Ġ
ĠĠĠ 3
ceng2 ĠdeĠ
mo4 Ġer3Ġ
fa1Ġ sheng1ĠdeĠ
Ġxiang1Ġ tong2Ġ
Ġyi3Ġse4Ġ lie4Ġ
Ġ fou3
te4 Ġli4Ġ
fei1 Ġxing2
bian1 Ġyuan2Ġ
Ġshi2Ġ bao4Ġ
xing1Ġ qi1
Ġ qing3Ġ
qian2 Ġhou4Ġ
zu3 ĠdeĠ
shan1Ġdong1Ġ sheng3Ġ
Ġzhao1 Ġhe2Ġ
1946 Ġnian2Ġ
zhong1Ġ yang1Ġ
Ġdui4Ġ ci3Ġ
Ġzhi3 Ġzai4Ġ
ĠĠĠgai4Ġ yao4Ġ
h Ġ
Ġ wai4
Ġ song4
Ġ 2006
san1 Ġda4Ġ
ĠdeĠ zhu3Ġyao4Ġ
Ġyuan2Ġ yin1
shi1Ġ qu4Ġ
tai4Ġ kong1Ġ
Ġzi4Ġ you2
Ġ cai2
Ġjun1 Ġdi4Ġ
Ġsheng1Ġ ming2Ġ
Ġ 2000Ġnian2Ġ
xia4 Ġzai4Ġ
zha4 Ġdan4Ġ
zhi2Ġ sheng1Ġ
Ġ guan3Ġ
wang3 Ġshang4Ġ
ta3 Ġer3Ġ
Ġdi4Ġ zhen4Ġ
Ġshou3Ġ ci4Ġ
ling3Ġ dao3ĠdeĠ
yan2Ġjiu1 Ġsheng1Ġ
te4 Ġer3Ġ
Ġxian4 Ġyou3Ġ
Ġ xian1Ġhou4Ġ
dui4 Ġyuan2Ġ
wu1 Ġsi1Ġ
hao3 Ġping2Ġ
Ġzhong1Ġ jian1Ġ
xia4Ġ jiang4Ġ
pu3Ġ cha2Ġ
bao3 ĠdeĠ
duo1Ġ ci4
zhai1 Ġ
Ġji2Ġ bing4Ġ
K Ġ
tong2 Ġming2Ġ
te4 Ġyou3Ġ
bian1 Ġwei4Ġ
bo2Ġ jue2Ġ
Ġwei1Ġ lian2Ġ
Ġ tui1Ġ
ĠĠĠ I
Ġxing2 Ġbu4Ġ
fa1Ġ dong4Ġji1Ġ
qin1Ġ wang2Ġ
kuai4Ġ su4
cun2 ĠdeĠ
1974 Ġnian2Ġ
5 Ġnian2Ġ
Ġ guang3Ġdong1Ġ
qing2 ĠdeĠ
Ġshi4Ġ yi1Ġbu4Ġ
Ġxin1Ġ zeng1Ġ
gai3Ġ zhi4Ġwei4Ġ
hui2Ġ gui1Ġ
ĠĠĠdi4Ġ yi1Ġ
o Ġ
gang3 Ġyuan2Ġ
zhui4 Ġ
Ġnian2Ġ ling2Ġ
fei4Ġ yan2Ġ
Ġ guo1
shi1 Ġgong1Ġ
fen3 Ġsi1Ġ
zhi3Ġ kong4Ġ
2 Ġge4Ġ
ĠĠĠ 3Ġ
mi4 ĠdeĠ
xun1 Ġ
beng1 Ġ
che1Ġ liang4
dian4Ġshi4Ġ tai2
zan4Ġ ting2Ġ
shen1 Ġshi4Ġ
da2 Ġzhou1Ġ
ying3Ġ xiang4Ġ
Ġ zhong4
1954 Ġnian2Ġ
ĠdeĠ hua4Ġ
fang1Ġ mi3Ġ
Ġzi4Ġ dong4Ġ
4 Ġnian2Ġ
Ġ mao2Ġ
ĠĠĠ M
da4Ġ qu1Ġ
sheng3Ġ jie1Ġrang3Ġ
san1 Ġren2Ġ
la Ġ
te4Ġ zheng1
Ġzui4 Ġda4Ġ
G Ġ
zhe3 Ġhe2Ġ
Ġjie2Ġ shu4Ġ
san1 Ġge4
wu3 Ġge4Ġ
Ġzhe4Ġ yang4Ġ
Ġjin4Ġ zhi3Ġ
rui4Ġ dian3Ġ
Ġmai4 Ġke4Ġ
Ġ shui3
Ġbu4Ġ yi1Ġ
Ġping2Ġ lun4Ġ
zhan3Ġ lan3Ġ
jing4Ġnei4Ġ gong4Ġyou3Ġ
lu4Ġyi4Ġ si1Ġ
si4 Ġshi4Ġ
tai4 ĠdeĠ
Ġ ke3Ġneng2Ġ
Ġ shan4Ġ
ĠĠĠ jin1Ġ
Ġshe4Ġhui4Ġ zhu3Ġyi4Ġ
Ġ guang1
Ġ lei4Ġ
ĠĠĠ O
you2 Ġxing2Ġ
zhe3 Ġhui4Ġ
pei4 Ġbei4Ġ
1955 Ġnian2Ġ
Ġshi4Ġyi1Ġ ke1Ġ
Ġshuang1Ġ fang1Ġ
Ġzai4Ġyi4Ġ qi3Ġ
4 Ġge4Ġ
shi3 Ġyu2Ġ
fa3 Ġyu3Ġ
la1 Ġhe2Ġ
hui2 Ġguo2Ġ
Ġbu4Ġ lai2Ġ
Ġshi2Ġ xing4Ġ
xin1Ġ wen2
bao3Ġ luo2Ġ
jing4Ġ zheng1
Ġji2Ġ hou4Ġ
lv4Ġ se4Ġ
can1Ġ shu4Ġ
Ġjiang1Ġ su1Ġ
wu2Ġxian4Ġ dian4Ġshi4Ġ
sheng4 Ġchu1Ġ
Ġdi4Ġ zhi4Ġ
Ġzhi4Ġ yi2Ġ
Ġji4Ġ zai3
Ġxi1Ġ er3Ġ
Ġdong4Ġ wu4Ġ
ying4 Ġji2Ġ
Ġbei4Ġ po4Ġ
du4Ġ shi3Ġ
chan3Ġsheng1Ġ leĠ
Ġ qian1
ĠĠĠ 2019Ġnian2Ġ
ma3 Ġke4Ġsi1Ġ
dang1 Ġnian2Ġ
on ĠĠĠ
Ġguo2Ġjia1Ġ dui4Ġ
tie3Ġlu4Ġ che1Ġzhan4Ġ
huang1 Ġ
fei4Ġ yong4Ġ
ĠS Ġ
Ġ hu2Ġnan2Ġ
ku1 Ġ
Ġgong1Ġ qing3Ġ
Ġjia1Ġ zu2
wang2 Ġwei4Ġ
tui1 Ġjian4Ġ
lian2Ġ ren4Ġ
lei4 Ġxing2ĠdeĠ
si3 Ġyu2Ġ
zhuo1 Ġ
Ġta1Ġ ceng2Ġ
zhang3Ġ zi3Ġ
bei3Ġ fang1Ġ
Ġceng2Ġ ren4
Ġgong1Ġ gong4
Ġda4Ġ dao4
fu2Ġ luo2Ġli3Ġ
nong2Ġ cun1Ġ
Ġshi4Ġzhong1Ġ hua2Ġren2Ġmin2Ġgong4Ġhe2Ġguo2Ġ
ying3Ġxiang3 Ġli4Ġ
ĠĠĠofĠĠĠ theĠĠĠ
ĠdeĠzuo4Ġ biao1Ġwei4Ġ
Ġ fu3Ġ
chong1 Ġji1Ġ
section ĠĠĠ
Ġshi4Ġ hui4Ġ
qun2Ġ dao3
Ġ qiu1Ġ
Ġ 2022Ġnian2Ġ
san1 Ġji2Ġ
Ġzai4Ġ xin1Ġ
te4Ġ dian3Ġ
ĠĠĠjia1Ġ ting2Ġ
Ġ shen3Ġ
lv4 ĠdeĠ
Ġzai4Ġ ta1ĠdeĠ
chu1Ġ qi1Ġ
fang2Ġ wu1Ġ
she4Ġ hui4
Ġ nai3
ji2 Ġbu4Ġ
sheng1 Ġzhi4Ġ
te4Ġ la1Ġ
qing1Ġ chao2Ġ
jing4Ġ nei4
gu4Ġ ding4Ġ
geng4Ġ duo1ĠdeĠ
chuang4Ġ zao4Ġ
ĠĠĠ shi3Ġyong4Ġ
cong2 Ġwei4Ġ
Ġyi1Ġ ren2Ġ
Ġdao4 Ġhe2Ġ
fu4Ġ jin4
fang1Ġ xiang4
gao1Ġ da2Ġ
Ġ 200
Ġ sectionĠĠĠ
zhong1Ġ yang1
Ġshi2Ġ zhi4Ġ
Ġdao4 Ġyi1Ġ
qi4Ġ xuan2Ġ
Ġ chu3Ġ
xin1 Ġshi4Ġ
ban1 ĠdeĠ
zong4 Ġ
ma1 Ġ
tian1Ġ ran2Ġ
xuan3 Ġchu1Ġ
es Ġ
cai3Ġ qu3
wan2Ġ zheng3Ġ
Ġ tie3Ġ
yi2 Ġdao4Ġ
guan1Ġ ce4Ġ
Ġye3 Ġbu4Ġ
qing1Ġ shao4Ġnian2Ġ
Ġ xu3Ġduo1
Ġshi4Ġ ji4ĠdeĠ
Ġyou3Ġ da4Ġ
Ġ 2024
Ġ bao1Ġhan2Ġ
jia1 Ġgong1Ġ
mi3 ĠdeĠ
luo4 Ġsi1Ġ
Ġshi4Ġ you2
mei3Ġguo2Ġ ren2Ġ
Ġzhi3 Ġshi4Ġ
zhang4Ġ fu1Ġ
Ġ an4
xue2 Ġbu4Ġ
Ġyou3Ġ zhu4Ġ
fu4Ġ jin4ĠdeĠ
yi4 Ġbu4Ġ
guo2Ġ hui4Ġ
xi1Ġ bei3Ġbu4Ġ
Ġta1Ġ ren4Ġwei2Ġ
mu4Ġ ni2Ġ
Ġtong2Ġ pai2Ġ
kuo4Ġ zhan3
ĠĠĠ D
si3 Ġxing2Ġ
qing4 Ġzhu4Ġ
ĠdeĠ gu4Ġshi4Ġ
zhan4Ġ ling3
Ġtong2Ġ yang4Ġ
ĠĠĠgen1Ġju4Ġ 2020Ġnian2Ġmei3Ġguo2Ġren2Ġkou3Ġpu3Ġcha2ĠdeĠshu4Ġju4Ġ
Ġ deng1Ġ
zui4 Ġwei4Ġ
guo2Ġ li4Ġ
na4Ġ cui4
qu3Ġ xiao1
huang2Ġ se4Ġ
zeng1Ġjia1Ġ leĠ
bing4 Ġwei4Ġ
guo4 Ġyu2Ġ
fen1Ġ pei4Ġ
shang4Ġhai3 Ġshi4Ġ
ĠĠĠ Re
quan2 ĠdeĠ
hai3 Ġshang4Ġ
zong3 Ġhui4Ġ
hui2 Ġhe2Ġ
lao3 Ġshi1Ġ
ne Ġ
Ġzai4Ġ ta1Ġ
Ġyi1Ġ zhi4Ġ
Ġchu1Ġ fa1Ġ
se4Ġ fu1Ġ
xiang1 Ġji4Ġ
si4 Ġda4Ġ
qie4 Ġer3Ġ
40 Ġ
jing1Ġ ji4
lian2Ġ jie2Ġ
Ġ ku4
deng3 ĠdeĠ
fang2 Ġwei4Ġ
zhou2 Ġ
Ġ 2003Ġnian2Ġ
reng2 Ġzai4Ġ
1947 Ġnian2Ġ
Ġli4Ġ shu3Ġ
Ġbing4Ġ ru4Ġ
xing4 Ġshi4Ġ
dui4Ġ shou3Ġ
zhuan1Ġ men2Ġ
ĠdeĠji4Ġ lu4Ġ
ai4 ĠdeĠ
Ġji2Ġ xing2Ġzheng4Ġ
Ġli4Ġ ziĠ
Ġye3 Ġhui4Ġ
ban1Ġ jiang3Ġ
shou4 Ġquan2Ġ
pian4 ĠdeĠ
lai2Ġzi4 Ġyu2Ġ
Ġ bai2
fu2 Ġli3Ġ
tie1 Ġ
Ġxiang1Ġ dui4Ġ
jiang3Ġ shu4Ġ
zhao4Ġ kai1
Ġa1Ġ la1Ġ
Ġ000 Ġren2Ġ
z Ġ
1973 Ġnian2Ġ
1971 Ġnian2Ġ
yi1Ġ xie1Ġ
Ġyi3 Ġzhi4Ġ
zhi2Ġ ye4
hai3Ġ ba2Ġgao1Ġ
xie2Ġ ding4Ġ
Ġ tuan2Ġ
an Ġ
ou3 Ġ
fang4Ġ qi4
cun2Ġ zai4ĠdeĠ
ĠĠĠ N
zhuang4 Ġji1Ġ
Ġnian2Ġ qian2Ġ
Ġjian4Ġ kang1Ġ
Ġ dou1
he2 Ġwei4Ġ
sheng3 Ġdao4Ġ
lao2 Ġgong1Ġ
hant Ġ
xi1Ġ nan2Ġbu4Ġ
Ġke4Ġ yun4Ġ
ma3Ġ la1Ġ
gai3Ġ ge2
can1Ġ sai4
nan2Ġji2Ġ zhou1ĠdeĠ
fu4 Ġjia1Ġ
dan1 Ġyuan2Ġ
wu3Ġ qi4
lei4Ġsi4 ĠdeĠ
E Ġ
Ġ hantĠ
mei3 Ġjun1Ġ
ba1 Ġer3Ġ
chuang4 Ġxin1Ġ
qiao3 Ġ
Ġyou3Ġ guan1
zheng4Ġ xie2Ġ
Ġta1Ġ dui4Ġ
shan1Ġ mai4Ġ
xiao1Ġ liang4Ġ
Ġsi4Ġ chuan1Ġ
hong1Ġzha4 Ġji1Ġ
ĠĠĠran2 Ġer2Ġ
chang2 Ġjian4Ġ
chuan2 Ġzhi1Ġ
lou4 Ġ
Ġzhi1Ġ zhan4Ġ
xing4Ġ neng2Ġ
sha1Ġ si3Ġ
Ġxiao3Ġ shuo1Ġ
yi1 Ġbu4Ġfen4
fei1 Ġzhou1
tuo2 Ġ
1977 Ġnian2Ġ
Ġxian4 Ġzhi1Ġxian4Ġ
shou3Ġ bo1Ġ
fa1Ġsheng1Ġ leĠ
Ġxi4Ġ tong3
shu3ĠdeĠ zhi2Ġwu4Ġ
Ġ e2
Ġ che1Ġzhan4
ĠĠĠ dan4
zhi2 Ġzhi4Ġ
dian4 ĠdeĠ
yao4 ĠdeĠ
yan2Ġ zhong4ĠdeĠ
Ġling4Ġ wai4
li3 Ġbu4Ġ
mi4 Ġsi1Ġ
Ġjian4 Ġshi4Ġ
suo3Ġ shu3
tou2 Ġbu4Ġ
Ġyou2Ġ ci3Ġ
zu3Ġ zhi3Ġ
Ġdong1Ġ jing1Ġ
yun4Ġdong4 ĠdeĠ
Ġ bao4
xi1 Ġshi4Ġ
jian1 Ġshi4Ġ
dui4Ġ wu3Ġ
zhu3Ġ xi2
jiang1 Ġta1Ġ
na4 Ġde2Ġ
quan3 Ġ
jiang4Ġ di1
Ġshi4Ġyi4Ġ da4Ġli4Ġ
hui4 Ġyi3Ġ
Ġ ling3Ġ
hei1 Ġren2Ġ
ni4 Ġ
ji1Ġ ben3Ġ
Ġzhi1Ġ liu2Ġ
Ġshe4Ġ ji4ĠdeĠ
shuai4Ġ ling3Ġ
tu3Ġer3 Ġqi2
2 Ġren2Ġ
hui4 Ġshi4Ġdi4Ġ
huan2 Ġxing2Ġ
Ġzai4Ġ yu3Ġ
Ġgong1Ġ lu4
Ġde2 Ġdao4ĠleĠ
Ġ liang3Ġge4Ġ
Ġ xu1Ġyao4Ġ
bu4Ġ fen4Ġ
bang1Ġ zhu4
Ġma3 Ġli4Ġ
na2Ġ po4Ġ
ĠĠĠ aĠĠĠ
zheng3 Ġge4
xiang1Ġ bi3Ġ
can1Ġ ting1Ġ
Ġshi4Ġyi1Ġ zuo4Ġ
zhou1Ġ bian1Ġ
Ġshi4Ġjie4Ġ bei1Ġ
xia4Ġxia2 Ġyi3Ġxia4
Ġxian4Ġ jin1Ġ
hang2Ġ tian1Ġ
ĠĠĠ 3Ġyue4Ġ
zhang3 Ġda4Ġ
luo2 Ġde2Ġ
al Ġ
Ġda4Ġ liang4
shuang1Ġ da3Ġ
Ġguan1Ġ fang1Ġ
shang4 Ġbu4Ġ
zi4 Ġwei4Ġ
wa1 Ġ
yi2Ġ chan3
yan2 Ġshi2Ġ
Ġli4Ġ yong4
Ġxing2Ġ shi3Ġ
Ġ lv3
Ġ huan2Ġ
ĠĠĠ L
100 Ġ
zong3Ġ cai2Ġ
ge2 Ġer3Ġ
la4 Ġ
Ġnan2Ġ ziĠ
Ġsheng1Ġzhang3 Ġyu2Ġ
Ġ qin2Ġ
ĠĠĠ 2007
zhi3 ĠdeĠ
Ġgong1Ġ chi3
Ġqiu2 Ġhui4Ġ
chuan2Ġ mei2Ġ
hai3Ġba2Ġgao1Ġ du4Ġwei4Ġ
ĠĠĠ 2018Ġnian2Ġ
ji4 Ġzai4Ġ
xin1 Ġren2Ġ
ben3 Ġxian4Ġ
ci3 Ġshi2Ġ
zhe3 Ġwei4Ġ
nuo4 Ġyi1Ġ
Ġhe2Ġ li3Ġ
Ġji2Ġ lin2Ġ
xiang1Ġ tong2ĠdeĠ
Ġzhong1Ġguo2Ġ guo2Ġmin2Ġ
Ġ zhuan1Ġji2Ġ
Ġzhe4Ġ shou3Ġ
ying1Ġ gai1
guang1Ġ xu4Ġ
Ġ han2
wu3 Ġyue4Ġ
dan1 Ġyi1Ġ
ying1 Ġli3Ġ
bie2 ĠdeĠ
you2Ġ tai4Ġren2Ġ
ya4Ġ mu4Ġ
ĠdeĠcheng2Ġ zhen4Ġ
la1 Ġer3Ġ
xun2 Ġqiu2Ġ
Ġbu4Ġ er3Ġ
Ġxing2Ġ xiang4Ġ
Ġwei2Ġ chi2Ġ
yin3Ġ zhong3Ġ
Ġ bao1Ġ
bu2 Ġyao4Ġ
Ġjiang1 Ġqi2Ġ
1 Ġge4Ġ
shang1 ĠdeĠ
cong1 Ġ
Ġbu4Ġ di2Ġ
Ġyu2Ġ lei4Ġ
ĠĠĠ 5Ġyue4Ġ
28 Ġ
Ġzai4Ġ gai1Ġ
Ġguo2Ġ min2
ying2Ġ ye4Ġ
di3Ġ kang4Ġ
wei3Ġfu4Ġ shu1Ġji4Ġ
e2 Ġwei4Ġ
wu3 Ġdi4Ġ
si1Ġ lan2Ġ
Ġke4Ġ la1Ġ
qian1Ġ yue1Ġ
Ġjiao4Ġ yu4
can1Ġyu4Ġ leĠ
Ġ you1Ġ
zhi2 Ġyuan2Ġ
1962 Ġnian2Ġ
Ġyi1Ġ ci2Ġ
Ġyi1Ġ liao2Ġ
Ġliu2Ġ yu4Ġ
Ġ000 Ġ
Ġwei4Ġ ci3Ġ
Ġhe2Ġ ji2Ġ
Ġqi2Ġzhong1Ġ nan2Ġxing4Ġ
ĠĠĠ J
jiao4 Ġyu2Ġ
ge1 ĠdeĠ
huai2 Ġyi2Ġ
Ġdi4Ġ mian4Ġ
ti3Ġ yu4
mei3Ġ yuan2ĠdeĠ
ceng2Ġ shui3Ġyu4Ġ
rong2Ġ na4Ġ
Ġjie2Ġ gou4Ġ
gu3Ġfen4 Ġyou3Ġxian4Ġgong1Ġsi1Ġ
zhuan4ĠdeĠ xiao3Ġxing2Ġxing1Ġ
ĠĠĠ ping2Ġjia4Ġ
Ġhou4Ġ qi1Ġ
Ġke4Ġ lai2Ġ
jie1Ġ ren4Ġ
zhi3Ġ ding4Ġ
xiao4Ġ ying4Ġ
qian1Ġ ding4Ġ
en Ġ
ĠĠĠ In
you2 Ġqi2Ġ
liang2 Ġshi2Ġ
Ġshi4Ġ nei4Ġ
yue4Ġ nan2Ġ
Ġdi4Ġ 1Ġ
jing4Ġ sai4Ġ
ĠdeĠdi4Ġ er4
mo4Ġsi1Ġ ke1Ġ
Ġ xu3Ġ
you2 Ġren2Ġgong1Ġ
zhang3 Ġwei4Ġ
ge1 Ġju4Ġ
Ġshi4Ġ xi1Ġ
Ġyi1Ġ zhi1Ġ
Ġshe4 Ġji1Ġ
Ġjian4Ġli4Ġ leĠ
Ġ ji3Ġ
Ġ wu1Ġke4Ġlan2Ġ
ĠĠĠ chu2ĠleĠ
chao2 ĠdeĠ
tui1 Ġchu1ĠdeĠ
ruan3 Ġti3Ġ
gan3Ġ lan3
Ġ su2
men2 ĠdeĠ
Ġshi2Ġ yong4Ġ
tui1Ġ guang3Ġ
Ġ V
zhong1Ġ xin1Ġ
Ġ qing3
Ġ cheng2Ġshi4Ġ
shu4 Ġshi4Ġ
Ġjian4 Ġwei4Ġ
ba1Ġ la1Ġ
Ġchao2Ġ xian1Ġ
Ġer3 Ġde2
shuo4Ġshi4Ġ xue2Ġwei4Ġ
hua2Ġsheng4Ġ dun4
yun4 Ġhe2Ġ
yang2 Ġxian4Ġ
wei2Ġ zhi3Ġ
cai3Ġ fang3
Ġtong1Ġ guo4
zhi1 Ġyuan2Ġ
ge4 Ġdi4Ġ
bian1 Ġhao4Ġwei4Ġ
te Ġ
Ġzhi4Ġ zao4
Ġyi1Ġ tiao2Ġ
kai1Ġ zhan3Ġ
fa3Ġ ting2Ġ
Ġqiu2Ġ chang3Ġ
qun2Ġ ti3Ġ
leĠyi1Ġ xie1Ġ
Ġgong1Ġcheng2Ġ shi1Ġ
Ġ wan2Ġcheng2Ġ
wu4 Ġzhong1Ġ
li2 Ġmi3Ġ
meng2 Ġjun1Ġ
1938 Ġnian2Ġ
luo2Ġ bo2Ġte4Ġ
zong3Ġ jian1Ġ
Ġzai4Ġdi4Ġ er4Ġ
ping2Ġjun1Ġ hai3Ġba2Ġgao1Ġdu4Ġwei4Ġ
Ġ man3
Ġ 11Ġ
ĠĠĠ jing1Ġji4Ġ
zhi2 Ġli4Ġ
Ġwei4Ġ ming2Ġ
Ġwei4Ġyu2Ġ zhong1Ġhua2Ġren2Ġmin2Ġgong4Ġhe2Ġguo2Ġ
li2Ġ ziĠ
Ġren2Ġmin2Ġ bi4Ġ
du1Ġ du1Ġ
Ġ wu1
Ġxi1Ġ yin3Ġ
jian3Ġ dan1Ġ
deng1Ġ chang2Ġ
yang2 Ġgong1Ġ
gong1Ġ kai1Ġ
Ġyou3Ġ li4Ġ
Ġta1Ġ ye3
ben3Ġ tu3Ġ
Ġer2Ġgai1Ġdi4ĠdeĠ ping2Ġjun1Ġhai3Ġba2Ġgao1Ġdu4Ġwei4Ġ
Ġ pai2Ġ
Ġ 9Ġ
a1 Ġer3
shi1 Ġren2Ġ
feng1 ĠdeĠ
ni2 Ġxi1Ġya4Ġ
cu4 Ġjin4
han3 Ġmo4
1939 Ġnian2Ġ
Ġzai4Ġ ri4Ġben3Ġ
lu4Ġ zhan4Ġ
jie1Ġ shou1Ġ
ĠĠĠ tian1Ġ
li4 Ġzhong1Ġ
2010Ġnian2Ġ mei3Ġguo2Ġren2Ġkou3Ġpu3Ġcha2ĠdeĠshu4Ġju4Ġ
Ġ pai4Ġ
ji1 Ġshi4Ġ
chu1 Ġdao4Ġ
yan3 Ġchu1
ying4 Ġdui4Ġ
1965 Ġnian2Ġ
xue2Ġ xi2
Ġzhi1Ġ qian2
fa3Ġ lan2Ġ
mian4Ġ lin2Ġ
yin3Ġzhong3Ġ zai1Ġpei2Ġ
Ġ sa4
Ġ yun2Ġnan2Ġ
qi3 ĠleĠ
lie4 Ġshi4Ġ
zu2 Ġqiu2Ġdui4Ġ
Ġda4Ġ qiao2Ġ
huan4Ġ zhe3Ġ
3 Ġren2Ġ
chu1 Ġren4Ġ
shuo1 Ġshi4Ġ
km Ġ
Ġji2Ġ shi3
ru4Ġ qin1
sheng3Ġ wei3Ġ
Ġxin1Ġ zeng1
xun2Ġ huan2Ġ
Ġzhi3 Ġchu1Ġ
shen3Ġ cha2Ġ
fei1Ġlv4Ġ bin1
ka3Ġluo2Ġ lai2Ġ
Ġ zheng3Ġ
Ġ ou1Ġzhou1Ġ
yuan2 Ġdi4Ġ
shen1 Ġshang4Ġ
pi3 Ġ
Ġzai4Ġ bei3Ġ
wei2Ġ er3
Ġxi1Ġ xi1Ġ
hen3Ġ duo1
Ġ shen4Ġ
ĠĠĠ ji4Ġ
zheng3 Ġhe2Ġ
1936 Ġnian2Ġ
ji1Ġ bai3Ġ
Ġji1Ġ yin1Ġ
dong4Ġ hua4
zhang3Ġ yue1Ġ
suo3Ġ chu4ĠdeĠhai3Ġba2Ġwei4Ġgao1Ġyu2Ġhai3Ġping2Ġmian4Ġ
na4Ġ xie1Ġ
chuan2Ġ bo1
gang3Ġ kou3Ġ
zhan3Ġ kai1
xin1Ġjia1Ġ po1Ġ
you2Ġren2Ġgong1Ġ yin3Ġzhong3Ġzai1Ġpei2Ġ
qing2 Ġxing2Ġ
tai1 Ġ
qing2Ġ xu4Ġ
yong3Ġ jiu3Ġ
re4Ġdai4Ġ feng1Ġbao4Ġ
Ġ he4
1959 Ġnian2Ġ
tong1Ġ xun4Ġ
ju1Ġmin2Ġ dian3Ġ
1 Ġren2Ġ
Ġ ji3
ji4 Ġji2Ġ
Ġzhi1Ġ fu3Ġ
Ġshe4Ġ hui4
Ġzhu3Ġ chi2Ġ
Ġhan4Ġ zu2Ġ
ĠĠĠ 2017Ġnian2Ġ
yu3 Ġshi4Ġ
dong4 Ġgong1Ġ
lu3 Ġke4Ġ
Ġbu4Ġ jia1Ġ
Ġyi3Ġ shang4ĠdeĠ
Ġyu3Ġ ci3Ġtong2Ġshi2Ġ
mi3Ġ ya4Ġ
ce4Ġ liang2
fen1Ġbie2 Ġwei4Ġ
ĠĠĠ TheĠĠĠ
si4 Ġming2Ġ
bing1 Ġbu4Ġ
ĠdeĠyi1Ġ xie1Ġ
di3Ġ da2
Ġsui2Ġ zhe
Ġsu1Ġ lian2Ġ
liao3Ġ jie3
zhi3 Ġyu2Ġ
ci4 Ġwei4Ġ
guai4 Ġ
gong3 Ġ
1935 Ġnian2Ġ
zu3Ġ cheng2
gao4Ġ su4Ġ
fa1Ġzhan3 ĠdeĠ
yi3 Ġhou4Ġ
dui4 Ġhe2Ġ
bo Ġ
ge2 Ġli4Ġ
deng1 Ġji4Ġ
35 Ġ
1967 Ġnian2Ġ
Ġsi1Ġ ka3Ġ
Ġwei2Ġ ya4Ġ
jie4Ġ shao4
Ġzhong1Ġguo2Ġ da4Ġlu4ĠdeĠ
xia4Ġxia2Ġyi3Ġxia4 Ġdi4Ġqu1Ġ
chu1 Ġsheng1Ġ
yan3 Ġsheng1Ġ
da4Ġ shi3Ġ
Ġxi1Ġ an1Ġ
ju4Ġ qing2Ġ
fei1Ġ fa3Ġ
Ġjiao4Ġ shou4Ġ
chuang4Ġ ban4Ġ
H Ġ
f Ġ
bai2 Ġzhi4Ġ
Ġzhi4Ġ liao2
zhuang1Ġ jia3
zhuang4Ġ kuang4
Ġbi4Ġ ye4Ġyu2Ġ
Ġao4 Ġda4Ġli4Ġ
xun2Ġyang2 Ġjian4Ġ
liu2 ĠdeĠ
hu4 Ġbu4Ġ
mao1 Ġ
shou3Ġ xi2Ġ
wen2Ġ hua4ĠdeĠ
m ĠĠĠ
ĠĠĠ 2016Ġnian2Ġ
kong1 Ġjun1
shun4 Ġshi2Ġ
Ġbu4Ġ bian4Ġ
Ġchu1Ġ xi2Ġ
wei1Ġ xian3Ġ
Ġzhe4 Ġbu4Ġ
Ġnian2Ġ7Ġyue4Ġ 1Ġri4Ġ
wen4Ġti2 ĠdeĠ
Ġjin4Ġshi4Ġ chu1Ġshen1Ġ
Ġ gai4Ġ
Ġzhi4Ġ shao3
Ġxian4Ġ ru4Ġ
nan2Ġ fang1Ġ
Ġbei4Ġ qi2Ġ
Ġqi2Ġzhong1Ġ nan2Ġ
mao2Ġze2Ġ dong1Ġ
y ĠĠĠ
Ġ nĠ
zi Ġhe2Ġ
da2 Ġer3Ġ
lu3 Ġshi4Ġ
han3 Ġ
Ġbu4Ġ zhi4Ġ
Ġdi4Ġ si1Ġ
zi1Ġ sheng3Ġ
tu2Ġ xiang4Ġ
pin2Ġ lv4Ġ
Ġ tang1
Ġ ãĥ¼
ĠĠĠ 10Ġyue4Ġ
yu4 Ġji4Ġ
Ġzhong1Ġ zui4Ġ
Ġji4Ġ nian4
gui1Ġ fan4Ġ
pan4Ġ jue2Ġ
gong4Ġchan3Ġ zhu3Ġyi4Ġ
Ġyi3Ġse4Ġ lie4
ĠĠĠ bei3Ġ
duo1 Ġge4
qu3 Ġjia1Ġ
ju2Ġ ju2Ġzhang3Ġ
fan2 Ġzhi2Ġ
liu3 Ġ
gan1Ġ su4Ġ
Ġdan1Ġ ren4
zi4Ġxing2Ġ che1Ġ
Ġ 2005
miao2 Ġhui4Ġ
HD ĠĠĠ
Ġyi1Ġ mei2Ġ
fen1Ġ lei4
Ġping2Ġ jia4Ġ
duo1Ġ yang4Ġ
Ġnan2Ġ bei3Ġ
fei1 Ġli4Ġ
1963 Ġnian2Ġ
Ġsi1Ġ xiang3Ġ
yan2Ġ zhong4
dang1Ġ ju2Ġ
Ġshi4Ġzhong1Ġ xin1Ġ
shao4Ġ jiang4Ġ
ĠĠĠ ling4Ġwai4Ġ
hou4 Ġshi4Ġ
zhu4 Ġdi4Ġ
yin3 Ġshi2Ġ
1953 Ġnian2Ġ
Ġshi4Ġ wu1Ġke4Ġlan2
zhu3Ġ chang3Ġ
an4Ġ zhao4Ġ
Ġgong1Ġzuo4 Ġshi4Ġ
can1Ġmou2 Ġzhang3Ġ
Ġ chun1Ġ
xiang4 Ġxi1Ġ
er4 Ġzhan4Ġ
Ġcheng2Ġ shi4ĠdeĠ
Ġzhi1 Ġji4Ġ
Ġda4Ġ jia1Ġ
Ġming2Ġ cheng1
Ġtong2 Ġyi1Ġ
jiao1Ġ huan4Ġ
Ġhe2Ġbing4 Ġwei4Ġ
ĠĠĠ zhu4Ġ
yu3 Ġyi3Ġ
ze2 Ġyou3Ġ
luo4 ĠdeĠ
ling2 ĠdeĠ
ke1Ġ fu1
gai3Ġ shan4
dang1Ġ xuan3
Ġgong1Ġkai1Ġ sai4Ġ
hong1Ġ zha4Ġ
Ġfen1Ġbie2 Ġwei4Ġ
Ġ nei4
zhe4 Ġbu4Ġ
bao3 Ġzheng4Ġ
xue1 Ġ
Ġyu2Ġ di4Ġ
ru4Ġ xuan3
shang1Ġ wang2Ġ
bian1Ġ jing4Ġ
ai1Ġ na4Ġ
ci4 Ġda4Ġ
shen1Ġ zhen4
chu1Ġ sheng1Ġyu2Ġ
ĠĠĠ 4
Ġdi4Ġ guo2ĠdeĠ
bao4Ġ zhi3Ġ
gai3Ġ bian1Ġ
guang3Ġ gao4
zeng1Ġ qiang2Ġ
qun2 ĠdeĠ
Ġzai4Ġ ji1Ġ
Ġjian4 Ġhe2Ġ
bao3Ġ cun2Ġ
ji1 Ġbu4Ġ
zhi1 Ġming2Ġ
ru4 ĠdeĠ
chuan4 Ġ
guo2Ġ nei4Ġ
Ġgong1Ġ zhan4Ġ
Ġyi3Ġ nan2Ġ
xian4Ġ fa3Ġ
zi3Ġ nv3Ġ
wu2Ġren2Ġ ji1Ġ
Ġ chu4Ġ
1941 Ġnian2Ġ
Ġxing2Ġ cheng2ĠdeĠ
qu1Ġ fen1Ġ
ba1Ġ fa2
ban4Ġ yan3Ġ
Ġ15 Ġ
Ġ bu3Ġ
Ġ re4Ġ
Ġ 1998Ġnian2Ġ
ci3 Ġzhi1Ġwai4Ġ
si1Ġ xiang3Ġ
Ġda4Ġ shi1Ġ
Ġchu1Ġxian4Ġ leĠ
miao2Ġ shu4
ĠdeĠming2Ġ zi4Ġ
Ġ gai3Ġwei2Ġ
1969 Ġnian2Ġ
Ġdan4 Ġyin1Ġ
sha1Ġ hai4Ġ
Ġ xia2Ġ
xia4 ĠdeĠyi2Ġge4Ġ
huo4 Ġshi4Ġ
wai4 Ġwei2Ġ
chui2 Ġ
Ġda4Ġ zhong4Ġ
shou4Ġ hai4Ġ
Ġfen1Ġbie2 Ġshi4Ġ
zhi3Ġhui1Ġ guan1Ġ
Y Ġ
wen2 Ġzhong1Ġ
bo1 Ġer3Ġ
Ġyue4Ġ tai2
Ġnan2Ġ jing1Ġ
bing4Ġ mei2Ġyou3Ġ
jiao4Ġyu4 Ġbu4Ġ
v Ġ
gong4 Ġshi2Ġ
bai3 Ġnian2Ġ
Ġwei4Ġ you2Ġ
mian4Ġ ti3Ġ
ying1Ġ guo2ĠdeĠ
cai2Ġ wu4Ġ
yan2Ġjiu1Ġ yuan4Ġ
fen1 Ġzhi1Ġyi1Ġ
Ġyuan2Ġ shi3Ġ
Ġer3 Ġzai4Ġ
fa3Ġ ling4Ġ
jing3Ġ guan1Ġ
Ġ yan4Ġ
Ġ pei2Ġ
Ġ niu3Ġyue1
ĠĠĠ 2006
nuo4 Ġsi1Ġ
1980 Ġnian2Ġdai4Ġ
Ġsheng1Ġzhang3Ġyu2Ġ hai3Ġba2
Ġ pian4Ġ
26 Ġ
ĠdeĠ xiao3Ġ
ma3Ġ tou2Ġ
ban4 Ġnian2Ġ
sheng4 Ġdi4Ġ
Ġdao4 Ġshi4Ġ
Ġda4Ġ xing2
jing1Ġ ying2
zhan3Ġ lan3
Ġmi3 ĠdeĠdi4Ġqu1Ġ
gao1 Ġyuan2Ġ
cheng1 Ġhao4Ġ
ceng2 Ġshi4Ġ
tao2 Ġyuan2Ġ
Ġzai4Ġ ying1Ġguo2Ġ
hou4Ġ lai2Ġ
Ġzhe4Ġ yang4ĠdeĠ
Ġ ning2Ġ
dian3 Ġwei4Ġ
Ġwei4Ġ bei4Ġ
Ġhe2Ġ fa3Ġ
Ġyi4Ġ si
Ġping2Ġ lun4
Ġshang4Ġ shu1Ġ
hang2Ġ ye4Ġ
pan4Ġ luan4Ġ
Ġxin1 Ġjia1Ġ
Ġ 1990
ma3 ĠdeĠ
qing2Ġ jie2Ġ
Ġmu4Ġqian2Ġ shang4Ġwei4Ġ
Ġ 2000
Ġ kong1Ġ
Ġ yao2Ġ
tu1 Ġchu1Ġ
Ġdao4 Ġbu4Ġ
ping2Ġ min2Ġ
guan1Ġ fei4Ġyan2Ġ
Ġzuo4Ġ chu1
Ġyi4Ġ ming2Ġ
Ġyi3 Ġshi4Ġ
Ġxian4ĠdeĠyi2Ġge4Ġ fei1Ġjian4Ġzhi4Ġdi4Ġqu1Ġ
ai4 Ġguo2Ġ
Ġyi4Ġ ji2Ġ
fang2Ġ zhi3Ġ
dou4Ġ zheng1Ġ
wu4Ġzhong3 ĠdeĠ
shang4 Ġyi1Ġ
luo2 Ġji2Ġ
Ġhe2Ġ ta1ĠdeĠ
Ġyu3Ġ da4Ġ
jing1Ġ guo4
jiao4Ġ shou4
Ġ chao1
hong2 Ġjun1Ġ
ka1 Ġfei1Ġ
Ġren4Ġ ming4
tian1Ġ huang2Ġ
sai1Ġ na4Ġ
lai2 Ġsi1Ġ
hao3 Ġyou3Ġ
Ġzhong1Ġgong4 Ġzhong1Ġyang1
mian4 Ġshi4Ġ
chou2 Ġbei4Ġ
ling3Ġ yu4
shi3Ġyong4Ġ leĠ
yuan2 Ġzhong1Ġ
Ġyuan2Ġ ze2Ġ
zuo4Ġ chu1
dong1Ġ ni2Ġ
chang2Ġ qi1
xiang3Ġ fa3Ġ
pin3Ġ pai2
ming4Ġ ling4
tian1 Ġjia1Ġ
ni2 ĠdeĠ
Ġzhi1Ġ chu4Ġ
dai4Ġ lai2Ġ
Ġdang1Ġ xuan3
Ġ zhu3
Ġ min2
Ġ niu2Ġ
fu2 Ġer3Ġ
ding4 Ġzai4Ġ
hang2 Ġxian4Ġ
Ġji1Ġ du1Ġjiao4Ġ
Ġtong2 Ġri4Ġ
Ġxing2Ġzheng4Ġ zhen4Ġqu1Ġ
ĠĠĠ 2021Ġnian2Ġ
heng1 Ġ
ĠdeĠ li3Ġ
ĠdeĠ xi1Ġ
Ġshi4Ġ nan2Ġji2Ġzhou1ĠdeĠ
Ġwei4Ġ qi2Ġ
Ġhe2Ġ dao4
Ġ wei2
Ġ tun2
Ġ 1999Ġnian2Ġ
ĠĠĠ sui2Ġ
1961 Ġnian2Ġ
Ġshi2Ġ dai4ĠdeĠ
Ġzuo4Ġ biao1Ġwei4Ġ
xing4Ġ bie2Ġ
chang2Ġ jiang1Ġ
Ġzui4 Ġchu1
ĠĠĠ 6Ġ
Ġbu4Ġ de2Ġ
li4Ġ yong4Ġ
qi4Ġ ti3Ġ
chan3Ġ ye4
Ġdi4Ġer4Ġ ci4Ġ
ao4Ġsi1Ġ ka3Ġ
Ġ xiong2Ġ
Ġ 20Ġ
ĠĠĠ zhan4Ġ
hui4 Ġji2Ġ
zuo4 Ġzhong1Ġ
pin3 Ġzhi4Ġ
bin1 Ġshi4Ġ
Ġgong1Ġ jin1Ġ
shi1Ġ bai4
fu2Ġ hao4Ġ
ĠĠĠ er2
ĠĠĠ zhu3Ġyao4Ġ
ge1 Ġer3Ġ
29 Ġ
cheng1Ġ wei2
she4Ġhui4Ġ zhu3Ġyi4Ġ
dang4Ġ an4Ġ
ying2Ġde2Ġ leĠ
Ġ shou4Ġdao4Ġ
1957 Ġnian2Ġ
Ġgong1Ġ zuo4ĠdeĠ
Ġyu3Ġ zhou4
chang3Ġ jing3Ġ
Ġzhe4Ġ ci4Ġ
Ġnian2Ġ12Ġyue4Ġ 31Ġri4Ġ
Ġceng2 Ġzai4Ġ
zhan4 Ġzhi4Ġ
zhan4 Ġji4Ġ
wu3 Ġming2Ġ
chang3 Ġshang4Ġ
di3 Ġzhi4Ġ
1944 Ġnian2Ġ
xiu1Ġ gai3
Ġsan1 Ġshi2Ġ
niao3Ġ lei4Ġ
lei4Ġsi4 Ġyu2Ġ
Ġ fa1
dong1 Ġxian4Ġ
jie1 Ġjin4
Ġbu4Ġ er3
Ġzhi4Ġ ding4Ġ
shang1Ġ dian4Ġ
jing1Ġji4Ġ xue2Ġ
Ġ dun1Ġ
ĠĠĠ dui4Ġyu2Ġ
zhong1 Ġshi4Ġji4Ġ
yu4 Ġdao4Ġ
dong4 Ġyuan2Ġ
kuo4 Ġzhang1Ġ
nan4 Ġmin2Ġ
Ġming2Ġ zi4Ġ
jie1Ġ chu4
ren2Ġmin2Ġ dai4Ġbiao3Ġda4Ġhui4Ġ
fen1 Ġcheng2Ġ
Ġji1Ġ xie4Ġ
yan2Ġjiu1 Ġsuo3
jiang1Ġsu1Ġ sheng3Ġ
fu2 Ġde2Ġ
yin3 Ġli4Ġ
gua1 Ġ
Ġxian4Ġ dai4
lie4Ġ ru4
ĠĠĠ ke4Ġ
jiang3 ĠdeĠ
Ġzhong1Ġ shu1Ġ
Ġta1Ġ shuo1Ġ
Ġ 1Ġyue4Ġ
Ġ xiong1Ġ
hou4Ġ xuan3Ġren2Ġ
yan2Ġ shen1Ġ
Ġdan4 Ġbu4Ġ
Ġwei2Ġ zhi3Ġ
gan3Ġ ran3
zhu1Ġ long2Ġ
Ġtai4Ġ yang2Ġ
mu4Ġsi1Ġ lin2Ġ
fang1 Ġcheng2Ġ
che1 Ġdao4Ġ
su1 Ġli3Ġ
in Ġ
zhong4Ġ zhi2Ġ
geng4Ġ duo1
hai4Ġ e2
ĠD Ġ
Ġ jiao3Ġ
zu1 Ġjie4Ġ
chen4 Ġ
sheng1Ġ ming2Ġ
Ġjia1Ġ jing4Ġ
ju4Ġ feng1Ġ
zhu4Ġ ce4Ġ
Ġyou2Ġ yong3Ġ
deng3Ġ zhi2Ġ
ban1Ġ fa1Ġ
Ġbing4Ġqie3 Ġzai4Ġ
ren2 Ġwei4Ġ
dui4 Ġyou3Ġ
ti3 Ġxing2Ġ
ye1 Ġsu1
Ġji1Ġ chu3Ġ
Ġchu1Ġ shen1Ġ
bao3Ġ cun2
gong4Ġhe2Ġ guo2ĠdeĠ
Ġwei4Ġfu2Ġqi2Ġyu2Ġ gang1
d ĠĠĠ
lang3 Ġde2Ġ
Ġchu1Ġ ru4Ġkou3Ġ
yan2Ġjiu1 Ġyuan2Ġ
Ġshi4Ġdi4Ġ yi1Ġ
Ġ JR
ai4 Ġde2Ġhua2Ġ
xian4 Ġshi2Ġ
qi3 ĠdeĠ
ban1 Ġbu4Ġ
hang2 Ġzhou1Ġ
nu2 Ġ
nv3Ġ yan3Ġyuan2Ġ
kao3Ġ gu3Ġ
mian4Ġji1 Ġhe2Ġ
zui4Ġzao3 ĠdeĠ
Ġ wen1
shi3 Ġzhong1Ġ
qi4 Ġhe2Ġ
cheng1 Ġzhi1Ġwei4Ġ
pai2 Ġde2Ġzhu3Ġ
bing1 Ġli4Ġ
Ġjia1Ġ meng2Ġ
jiao4Ġ zuo4Ġ
fen1Ġ qu1Ġ
tong1Ġ xin4Ġ
zi1Ġ zhu4Ġ
huo3Ġ ban4Ġ
che4Ġ di3Ġ
jin3Ġbiao1Ġ sai4
gui1Ġmo2 ĠdeĠ
cheng2 Ġzai4Ġ
xi1 Ġyuan2Ġ
quan2 Ġxian4Ġ
bai4 Ġzhan4Ġ
reng2 Ġyou3Ġ
Ġcheng2Ġ xu4
Ġjian4 Ġyou3Ġ
shou3Ġ duan4Ġ
ling3Ġ xiu4
mian3Ġ dian1Ġ
Ġ tou4Ġguo4Ġ
quan2 Ġqiu2
Ġzhong1Ġ fa1Ġxian4Ġ
zu2Ġ xie2Ġ
zu2 Ġren2Ġ
zao1 Ġshou4Ġ
shou3Ġ fu3Ġ
ma3Ġ lai2Ġ
Ġzhong1Ġguo2Ġ gong4Ġchan3Ġdang3
4 Ġren2Ġ
ju2 Ġyu2Ġ
te ĠĠĠ
Ġhe2Ġ lan2
Ġgai1Ġ di4ĠdeĠ
Ġgong1Ġyuan2Ġ qian2Ġ
Ġdi4Ġshi2Ġ yi1Ġ
Ġ qiu1
ĠĠĠ fu2Ġ
ĠĠĠ 2015Ġnian2Ġ
yi3 Ġshang4Ġ
jiang1 Ġshi4Ġ
han4 Ġyu3Ġ
Ġwei4Ġ zhong1Ġguo2Ġ
fen1Ġ li2Ġ
Ġqiu2Ġ yun4Ġdong4Ġyuan2Ġ
ai4Ġ qing2Ġ
tui4Ġ xiu1
Ġling4 Ġyi4Ġfang1Ġmian4Ġ
Ġbu4Ġde2 Ġbu4Ġ
Ġmu4Ġqian2Ġshang4Ġwei4Ġ you2Ġren2Ġgong1Ġyin3Ġzhong3Ġzai1Ġpei2Ġ
Ġ biao3Ġ
jian1 Ġzhi4Ġ
hua2 Ġda4Ġxue2Ġ
cai2Ġ chan3Ġ
xie2Ġ tiao2
wu4Ġli3Ġ xue2Ġ
ĠĠĠ 4Ġyue4Ġ
tou2 ĠdeĠ
Ġzhe4Ġ ye3Ġshi4Ġ
bao4Ġ zha4
jiao1Ġ cha1Ġ
gan3Ġ jue2Ġ
Ġfen1 Ġwei2Ġ
n ĠĠĠ
Ġ yao1Ġqiu2
fen1 Ġwei4Ġ
da2 ĠdeĠ
wang3 ĠdeĠ
mou2 Ġsha1Ġ
1930 Ġnian2Ġ
Ġzai4Ġ gong1Ġ
Ġjian4Ġ zao4
Ġyin1 ĠdeĠ
dao3Ġ yan3
Ġxi1Ġban1Ġya2 Ġyu3Ġ
Ġ feng1
an4 Ġzhong1Ġ
yuan2 Ġshi2Ġ
lin2 Ġsi1Ġ
xue2Ġ sheng1
Ġsui2Ġ zheĠ
ka3Ġluo2Ġlai2Ġ na4
Ġ 2025
fa3 Ġshi4Ġ
jin1 Ġri4Ġ
1951 Ġnian2Ġ
Ġji2Ġ yi1Ġ
Ġchu1 Ġyi1Ġ
Ġ ren4Ġhe2Ġ
ji4 Ġyu2Ġ
te4 Ġhe2Ġ
rang4 Ġta1Ġ
zhong1Ġ bu4Ġ
Ġda4Ġ yue1
sheng1Ġ tai4Ġ
wei3Ġyuan2Ġ hui4ĠdeĠ
Ġdang1Ġ xuan3Ġ
Ġzhi4Ġzuo4 Ġren2Ġ
xia4Ġxia2ĠdeĠyi2Ġge4Ġ xiang1Ġ
nan2 Ġsi1Ġla1Ġ
tai4 Ġhou4Ġ
gan4 Ġxian4Ġ
1931 Ġnian2Ġ
Ġshi4Ġ nan2Ġ
Ġyue4Ġ tuan2
zu2Ġ zi4Ġzhi4Ġ
Ġwen2Ġ hua4
zi Ġgong1Ġsi1Ġ
Ġyi4Ġ dian3Ġ
dui4Ġ wai4Ġ
Ġhui4Ġ bei4Ġ
yan2Ġ chang2
zhong4Ġ dian3
shui3Ġ ku4Ġ
Ġma3Ġlai2 Ġxi1Ġya4Ġ
te4 Ġji2Ġ
Ġshi4Ġ xiang1Ġgang3Ġ
qi3Ġ su4Ġ
shen1Ġ zhen4Ġ
xu4Ġ shu4Ġ
mu4 Ġshi4Ġ
Ġzai4Ġ nan2Ġ
Ġhe2Ġ tong2Ġ
shang4Ġ shu4Ġ
wu3Ġ han4
ti2Ġ gong1ĠdeĠ
ĠĠĠge4Ġren2Ġ sheng1Ġhuo2Ġ
Ġ 45
Ġ kang1Ġxi1Ġ
jin4 Ġji2Ġ
1940 Ġnian2Ġ
cu1 Ġ
Ġshi4Ġ ge4Ġ
san1Ġ ci4Ġ
gai3Ġ wei2
qian1Ġ shu3
Ġna4Ġ me
Ġha1 Ġer3Ġ
Ġji4Ġsuan4 Ġji1Ġ
Ġ di2
Ġ ta3
Ġ gong1Ġbu4Ġ
ĠĠĠ 7Ġyue4Ġ
zhan4 Ġwei4Ġ
fu4 Ġzhi4Ġ
ru4 Ġwei2Ġ
qi4 Ġren2Ġ
xie2 Ġdai4Ġ
han4 Ġzi4Ġ
wo4 Ġer3Ġ
tan4 Ġsuo3Ġ
se Ġ
sao3 Ġ
ren3 Ġ
codice Ġ
Ġge4Ġ zi4Ġ
ding4Ġ qi1Ġ
bo1Ġ fang4
miao2Ġ shu4Ġwei4Ġ
Ġ fan3Ġdui4Ġ
ĠĠĠ V
ĠĠĠ dong1Ġ
xiu1 Ġsi1Ġ
II Ġ
Ġcheng2Ġ bao3Ġ
Ġyuan2Ġ you3Ġ
dui4Ġ xiang4Ġ
ĠdeĠji1Ġ hui4Ġ
Ġ U
ĠĠĠ zhi4Ġzuo4Ġ
mei3 Ġri4Ġ
Ġge4 Ġda4Ġ
Ġke4 Ġli3Ġsi1Ġ
dong4Ġ che1Ġ
tai2Ġ bi4Ġ
zhu3Ġchi2 Ġren2Ġ
shu4 Ġhe2Ġ
jue2 ĠleĠ
Ġbu4Ġ zheng4Ġ
Ġguo2Ġ gong1Ġ
Ġli4Ġ ke4Ġ
Ġgong1Ġ kai1
lu4Ġ shang4Ġ
ban1Ġ ci4Ġ
mo4Ġsi1Ġ ke1
fu4 Ġyou3Ġ
fu1 Ġfu4Ġ
zhuang4 Ġbing4Ġdu2
du3 Ġ
min2Ġ jin4Ġ
Ġ ci2
ĠĠĠ xiang1Ġgang3Ġ
ĠĠĠ 2020Ġnian2Ġ
qi2 Ġshi4Ġ
shi1 Ġhe2Ġ
na4 Ġsi1Ġ
hang2 Ġzhan4Ġ
zhuan3 Ġwei2Ġ
tai2Ġwan1 ĠdeĠ
pi1Ġ ping2
Ġ pi2
Ġ gu4Ġshi4Ġ
an1 Ġren2Ġ
jing1 ĠdeĠ
Ġzhong1Ġ zhi3Ġ
zheng4Ġ quan2Ġ
jian4Ġ zao4Ġ
Ġãĥ¼ Ġ
Ġ du4
ben1 Ġ
Ġren2Ġ bei4Ġ
Ġcheng2Ġ wei2Ġyi1Ġ
qu1Ġ jian1Ġ
Ġyou3Ġyi1Ġ xie1Ġ
kuo4Ġ zhan3Ġ
jiu4Ġdu2 Ġyu2Ġ
ĠĠĠfor ĠĠĠ
Ġ Ma
bei4 Ġshi4Ġ
shou3 Ġbu4Ġ
dong1 ĠdeĠ
ba1Ġ nen4
Ġxiang1Ġ dang1Ġ
fan4Ġ wei2
Ġguo2Ġmin2Ġ dang3Ġ
ĠĠĠ 2014Ġnian2Ġ
ke1 Ġer3Ġ
wu2 Ġer3Ġ
Ġnian2 Ġnian2Ġ
kai1Ġ mu4Ġ
min2Ġ zhu3
zhe4Ġ zhong3
Ġzhan4Ġ ling3Ġ
tian1Ġ tang2Ġ
yi2Ġ min2
jiang3Ġ zui4Ġjia1Ġ
du2Ġ te4ĠdeĠ
qiu2Ġ dui4
zuo3Ġ you4
ĠĠĠ la1Ġ
xian4 Ġxiang4Ġ
Ġhui4Ġ shang4Ġ
feng1Ġ ge2
tong2Ġ yang4
huo2Ġdong4 ĠdeĠ
yin4 Ġxiang4Ġ
1933 Ġnian2Ġ
Ġming2Ġ xing1Ġ
ce4Ġ lve4Ġ
Ġqian2Ġ long2Ġ
Ġ hua1
Ġ lu2
Ġ shan3Ġxi1Ġ
ĠĠĠ 2010Ġnian2Ġ
shu1 Ġshi4Ġ
27 Ġ
Ġzai4Ġ yuan2Ġ
Ġdi4Ġ 2Ġ
Ġri4Ġ qi1Ġ
dian4Ġ che1Ġ
nei4Ġ meng2Ġgu3Ġ
zhao4Ġ pian1
xie2Ġ shang1Ġ
Ġdi4Ġ ba1Ġ
Ġji2Ġ yi3Ġ
Ġguo2Ġ yu3Ġ
ling3Ġ xian1Ġ
Ġ cun1Ġ
Ġ yan2Ġjiu1Ġ
Ġ lao2Ġ
ĠĠĠ 8Ġyue4Ġ
duo1 Ġming2Ġ
pin3 ĠdeĠ
1942 Ġnian2Ġ
Ġzhou1 Ġren2Ġ
fu3Ġ zhu4Ġ
gui1Ġ hua4
di Ġ
jiu1 Ġ
chuan1 Ġyue4Ġ
Ġqi2Ġ bing1Ġ
jin4Ġ zhi3Ġ
Ġ kai1Ġfa1Ġ
e4 Ġer3Ġ
lu4 Ġyu3Ġ
ju1 Ġyu2Ġ
run4 Ġ
da4Ġ xue2
Ġri4 Ġyi4Ġ
xi1Ġ wang4Ġ
sheng1Ġ ming4Ġ
you2Ġ tai4Ġ
xi4Ġ lie4ĠdeĠ
te4Ġ qu1Ġ
Ġbing4Ġ biao3Ġshi4Ġ
zui4Ġ duo1ĠdeĠ
Ġ hao2Ġ
jiao4Ġ ke1Ġ
Ġhe2Ġliu2Ġ yu4Ġ
Ġ nong2Ġ
ĠĠĠ sui1Ġran2Ġ
cheng2 Ġshi2Ġ
ge2 Ġsi1Ġ
Ġshi4Ġ yuan2Ġ
ju4Ġ da4ĠdeĠ
bao3Ġ zhang4
jie1Ġwei4Ġ zhi1Ġ
Ġshi4Ġyi2Ġge4 Ġwei4Ġyu2Ġmei3Ġguo2Ġ
mian4Ġji1Ġhe2Ġ ren2Ġkou3Ġ
Ġ yuan3Ġ
fang1 Ġwei4Ġ
ci3 Ġshi4Ġ
Ġta1Ġ jiang1Ġ
zong3Ġ jing1Ġli3Ġ
ka3Ġ la1Ġ
Ġtong2Ġshi2Ġ ye3Ġ
mi2Ġ ni3Ġ
Ġzhan4 Ġdi4Ġ
xiang1 ĠdeĠ
jia3 Ġji1Ġ
1928 Ġnian2Ġ
shang4Ġ xia4Ġ
zhu4Ġ zhai2
fen1Ġ lan2Ġ
ban4Ġ yan3
bian1Ġ ma3Ġ
ĠĠĠ mu4Ġqian2Ġ
bo1 Ġli4Ġ
nu2 Ġli4Ġ
Ġchu1Ġ ren4
Ġjun1Ġ guan1Ġ
ting2Ġ kao4
huang2Ġ jin1
Ġqi2Ġzhong1Ġ you3Ġ
Ġyin1Ġci3 Ġzai4Ġ
hang2Ġkong1 Ġgong1Ġsi1Ġ
Ġgai1Ġdi4ĠdeĠ mian4Ġji1Ġhe2Ġren2Ġkou3Ġ
Ġgai1Ġdi4ĠdeĠmian4Ġji1Ġhe2Ġren2Ġkou3Ġ jie1Ġwei4Ġzhi1Ġ
Ġ cai4Ġ
yue4 Ġhe2Ġ
qu1 Ġji2Ġ
wang2 Ġhou4Ġ
chai2 Ġ
han4Ġ lin2Ġ
ĠM Ġ
Ġzhi4Ġli4Ġ yu2Ġ
Ġ dou1Ġshi4Ġ
Ġ RĠ
Ġren2Ġ ci4Ġ
dai4Ġ bu3Ġ
gao1Ġ deng3
jian4Ġ kang1Ġ
Ġ 25
Ġ ji1Ġyu2Ġ
yi2 Ġji4Ġ
zu2 Ġyi3Ġ
Ġshi2Ġ yue4Ġ
Ġyi1Ġ tian1Ġ
he4Ġ se4Ġ
cui1Ġ hui3
Ġ huai2
fu4 Ġyu3Ġ
guo2Ġ fang2
Ġchu1 Ġxian4
Ġjia1Ġ ru4ĠleĠ
Ġte4Ġ bie2Ġ
hui4Ġyi4Ġ shang4Ġ
cun2Ġzai4Ġ yu2Ġ
duan3Ġ zan4
5 Ġge4Ġ
Ġ 21
Ġ meng4Ġ
dan1 Ġxin1Ġ
ying1 Ġjun1Ġ
dian3 Ġxing2ĠdeĠ
bian1 Ġcheng2Ġ
tang2 ĠdeĠ
biao1 Ġji4Ġ
1943 Ġnian2Ġ
Ġyi1Ġ chang2Ġ
Ġde2 Ġli4Ġ
Ġdai4Ġ lai2Ġ
Ġceng2Ġ jing1Ġ
ĠĠĠ Co
ĠĠĠ 9Ġyue4Ġ
ju4 Ġzhong1Ġ
san1 Ġwei4Ġ
jiu4 Ġyou3Ġ
ting1 ĠdeĠ
zhuang4 ĠdeĠ
ji4Ġ xu4
Ġke4Ġ luo2Ġ
Ġjin4 Ġji2Ġ
gao1Ġ jia4Ġ
ĠĠĠwei4Ġ leĠ
Ġ 2004
ĠĠĠ 2012Ġnian2Ġ
ĠĠĠ 2013Ġnian2Ġ
a1 Ġji1Ġ
xi4 Ġjun1Ġ
mu4 Ġzhi4Ġ
Ġyi4Ġ wai4Ġ
Ġda4Ġ gui1Ġmo2Ġ
chan3Ġ sheng1
shang1Ġ pin3Ġ
Ġzhu3Ġ chi2
Ġshi3Ġ yong4
rui4Ġ dian3
zhi2Ġsheng1Ġ ji1Ġ
fu2 Ġshe4Ġ
cha2 Ġli3Ġ
que4Ġ bao3Ġ
ĠdeĠji4Ġ hua4Ġ
Ġguo2Ġmin2Ġ dang3
bo1 Ġchu1
jian3 Ġli4Ġ
gei3 Ġta1Ġ
yi2Ġ zhi3
meng2Ġ te4Ġ
Ġguo2Ġmin2Ġ zheng4Ġfu3Ġ
Ġzhu3Ġyao4 Ġshi4Ġ
Ġ ke3Ġneng2
Ġ shao4Ġ
jia1 Ġshi4Ġ
bi3 Ġer3Ġ
Ġhe2Ġ li4Ġ
Ġshi2Ġ jian1ĠdeĠ
lu4Ġ xu4Ġ
Ġxue2Ġ xi2
jue2Ġ sai4Ġzhong1Ġ
Ġfen1Ġ bu4Ġzai4Ġ
hei1Ġ long2Ġjiang1Ġ
Ġ qin2
ping2 Ġjun1
qian2 Ġzai4Ġ
duan4 Ġshi2Ġjian1Ġ
zen3 Ġ
Ġxi1Ġ li3Ġ
fa1Ġ hui1
Ġwei2Ġ qi2
dan1Ġ da3Ġ
Ġzhu3Ġ ren4Ġ
Ġ jiang3
ĠĠĠ 10
ĠĠĠ qi2Ġzhong1Ġ
diao4 Ġyu2Ġ
1929 Ġnian2Ġ
Ġchu1Ġ shou4Ġ
fa1Ġ yan2Ġren2Ġ
ting2Ġ yun4Ġ
fu2 Ġzhou1Ġ
guan1Ġ ce4
ta3Ġ ni2
Ġ ken3Ġ
Ġ 1997Ġnian2Ġ
jue2 Ġyu2Ġ
xu4 Ġji2Ġ
sui4 Ġshi2Ġ
chuan1 Ġguo4Ġ
fu4Ġ zhu3Ġxi2Ġ
Ġzhou1 Ġwei2Ġ
Ġzong3Ġ tong3Ġ
ĠdeĠyuan2Ġ yin1Ġ
Ġ zi3Ġ
zhong1 Ġhe2Ġ
wu4 Ġyu3Ġ
1912 Ġnian2Ġ
Ġguo2Ġ wang2
Ġzhi1Ġ cheng1Ġ
Ġdan4 Ġqi2Ġ
qun2Ġ zhong4Ġ
Ġshi4Ġjie4 ĠdeĠ
tan4Ġ xian3
ni2Ġya4 ĠdeĠ
ĠĠĠche1Ġzhan4Ġ jie2Ġgou4Ġ
ĠĠĠ can1Ġkao3Ġ
xing2 Ġxiang4Ġ
shi3 Ġdi4Ġ
suan4 Ġfa3Ġ
shu4Ġ mu4Ġ
Ġer2Ġ lai2Ġ
Ġfu4Ġ gai4Ġ
que4Ġ ding4
gao4Ġ su4
chuang4Ġ shi3Ġren2Ġ
Ġnian2Ġdai4 Ġchu1Ġ
Ġ fa1Ġbu4Ġ
ci4 Ġji1Ġ
you3Ġ guan1Ġ
zhi2Ġ bo1Ġ
hai3Ġ yang2
Ġcheng2Ġli4Ġ leĠ
qu4Ġshi4Ġ hou4Ġ
ao4Ġda4Ġli4Ġ ya4
Ġ lan2
Ġ deng1
shen2 ĠdeĠ
chong2 Ġfu4Ġ
tui1 Ġxing2Ġ
duo3 Ġ
Ġshi4Ġ bei4Ġ
Ġdao4 Ġzhong1Ġ
Ġyin1 Ġqi2Ġ
ĠdeĠdi4Ġ yi2Ġge4Ġ
chuang4Ġ zuo4
Ġ kuan1
zhan3 Ġxian4Ġ
Ġdi4Ġ zhong1Ġ
Ġyi3Ġ 1Ġ
Ġyin1 Ġyuan2Ġ
jing4Ġ nei4ĠdeĠ
ge1Ġ ci2Ġ
ling3Ġ yu4ĠdeĠ
Ġlian2Ġ jie1Ġ
Ġlian2Ġ meng2Ġ
Ġlu4 Ġyi4Ġ
Ġ si3Ġ
ĠĠĠ 12
lie4 Ġsi1Ġ
du1 Ġhui4Ġ
1927 Ġnian2Ġ
xi1Ġ ya4Ġ
fu2Ġ hua4Ġ
zui4Ġ zao3Ġ
wu3Ġ dao3Ġ
jing4Ġ wai4Ġ
Ġ jia4
ĠĠĠ 6Ġyue4Ġ
yu4 Ġbei4Ġ
duo1 Ġyuan2Ġ
zhe3 Ġren4Ġwei2Ġ
song4 Ġdao4Ġ
Ġda4Ġ qiao2
Ġta1Ġ hai2
zhu4Ġ zhai2Ġ
e2Ġ hai4Ġe2
guo2Ġjia1Ġ dui4Ġ
zhe4Ġjiang1Ġ sheng3Ġ
Ġ xuan2Ġ
zhi1 Ġdao4Ġ
xiang3 ĠdeĠ
Ġxing2 Ġyu2Ġ
Ġyi3Ġ lai2
Ġsheng1Ġ cheng1Ġ
shen1Ġ wang2Ġ
mi4Ġ qie4
fan3Ġ dui4
tan4Ġ ce4Ġ
x ĠĠĠ
shu4 Ġren2Ġ
duan1 ĠdeĠ
Ġji2Ġ er3Ġ
jing1Ġ you2Ġ
Ġ peng2Ġ
an1 Ġshi4Ġ
shi1 Ġdi4Ġ
ji3 Ġhe2Ġ
kua4 Ġ
Ġyi1Ġ tong2
cai2Ġ zheng4
man3Ġ zu2
Ġ dou4Ġ
jin4 Ġxing2ĠdeĠ
Ġer3 Ġyu3Ġ
fang2Ġ jian1Ġ
pai2Ġhang2Ġ bang3
Ġ ya3
Ġ zeng1Ġ
ng Ġ
hou4 Ġbu4Ġjiu3Ġ
chu1 Ġzhan4Ġ
zhan4 Ġzai4Ġ
fu4 Ġbu4Ġzhang3Ġ
Ġli4Ġ shu3
la1Ġ te4Ġ
ba1Ġ le4
tuan2Ġ zhang3Ġ
qiang2Ġ da4ĠdeĠ
Ġ yi1Ġwei4Ġ
ĠĠĠ xiang1Ġ
wang3 Ġqiu2
kuo4 Ġjian4Ġ
cheng2Ġ ji4Ġ
Ġji2Ġ si1Ġ
Ġjia1Ġ si1Ġ
Ġbing4 Ġyou3Ġ
Ġshou3Ġ ci4
Ġ kuai4Ġ
Ġ miao3Ġ
ĠĠĠ 2011Ġnian2Ġ
Ġhe2Ġ dong1Ġ
yi1Ġ li4Ġ
ke1Ġ fu1Ġ
tou2Ġ xian2Ġ
ban3Ġ ben3ĠdeĠ
ĠP Ġ
Ġ ruan3
ĠĠĠ gen1Ġju4
Ġxue2Ġ hui4Ġ
sai4Ġ guan4Ġjun1Ġ
ĠĠĠ ci3
qi1 Ġshi4Ġ
shuo1 ĠdeĠ
zhen1 Ġzheng4Ġ
Ġqi2 Ġta1ĠdeĠ
chang2Ġ wei3Ġhui4Ġ
ban4Ġ dao3
hang2Ġ ban1Ġ
wan2Ġcheng2Ġ leĠ
5 Ġren2Ġ
an4 Ġshi4Ġ
ĠĠĠ ri4Ġben3Ġ
ĠĠĠ jian4Ġzhu4Ġ
di1 ĠdeĠ
za2 ĠdeĠ
1934 Ġnian2Ġ
Ġzhong1Ġ dui4Ġ
da4Ġ liang4Ġ
Ġri4Ġ yu3Ġ
zhi2Ġ wu4
shou1Ġ lu4
Ġguan1 Ġzhi4Ġ
Ġ s
Ġ chuang4
Ġ yun4Ġ
ding4 Ġli3Ġ
xiao4 Ġshe4Ġ
xie3 ĠleĠ
1932 Ġnian2Ġ
Ġji2Ġ jiang1Ġ
chang3Ġ bi3Ġsai4Ġ
pu3Ġ tong1
gui1Ġ ze2
Ġguo2Ġji4Ġ ji1Ġchang3Ġ
ĠĠĠgen1Ġju4Ġ 2010Ġnian2Ġmei3Ġguo2Ġren2Ġkou3Ġpu3Ġcha2ĠdeĠshu4Ġju4Ġ
Ġ 2003
ba1 Ġshi2Ġ
sheng3 Ġzheng4Ġfu3Ġ
bao3 Ġwei4Ġ
Ġzai4Ġ xian4Ġ
zhan4Ġ lve4Ġ
che4Ġ tui4Ġ
Ġ wan3Ġ
Ġ zhao1Ġ
ren4 Ġyi4Ġ
xiang2 Ġxi4Ġ
chui2 Ġzhi2Ġ
Ġchu1 Ġxian4ĠdeĠ
san1Ġ zhong3Ġ
xiao3Ġ zu3
ke1Ġ xue2
nuo4Ġ man4Ġ
Ġ qu3
Ġ hei1
Ġ 50
is ĠĠĠ
Ġhe2Ġ ji1Ġ
Ġyi1Ġ zhong3
Ġxing2 Ġhe2Ġ
hu4Ġ dong4Ġ
da3Ġ suan4Ġ
chong2Ġ xin1
xue2Ġshi4Ġ xue2Ġwei4Ġ
bu4 Ġwei4Ġyu2Ġ
fen1 ĠdeĠ
xiao4 Ġyou3Ġ
dou1 Ġbu4Ġ
zang4 Ġyu2Ġ
Ġhe2Ġnan2Ġ sheng3Ġ
han3Ġmo4 Ġde2Ġ
Ġ ting1Ġ
ĠĠĠ fa3Ġguo2Ġ
ĠĠĠ 4Ġ
dang3 Ġji2Ġ
Ġxian4 Ġyu3Ġ
Ġyi1Ġ lang3
Ġxian4Ġ zai4ĠdeĠ
xiang1Ġ hu4Ġ
Ġke4Ġ sa4Ġsi1Ġ
chao2Ġ ting2Ġ
ĠĠĠ tong2
a1 Ġli3Ġ
hou4 Ġta1Ġ
ren2Ġ min2
yan2Ġ chang2Ġ
you1Ġ xiu4Ġ
tan2Ġ pan4
a1 Ġfu4Ġ
zhen1 Ġyu3Ġ
1924 Ġnian2Ġ
Ġshi4Ġ dui4Ġ
Ġta1 Ġcheng2Ġwei2Ġ
Ġzhou1 Ġhe2Ġ
jie2Ġ du4Ġshi3Ġ
Ġren4Ġ zhi2Ġ
ban4Ġ fa3Ġ
fang2Ġ kong1Ġ
wu1Ġ ran3
Ġ gui4Ġ
liu2 Ġxue2Ġ
zhang1 ĠdeĠ
gai3 Ġming2Ġ
Ġzai4Ġ qi2
Ġbu4Ġ jin3
Ġda4Ġ cheng2Ġ
Ġri4Ġ hou4Ġ
bao3Ġ zhang4Ġ
Ġquan2Ġ mian4Ġ
pan4Ġ chu3Ġ
Ġshi4Ġshi4Ġ jie4
mao4Ġ xian3Ġ
li3Ġshi4Ġ hui4Ġ
Ġren2Ġkou3 ĠdeĠ
tu2Ġshu1Ġ guan3
Ġ X
er2 Ġtong2
zong3 Ġzhan4Ġ
su4 Ġshe4Ġ
chuan2 Ġqi2Ġ
qu4 ĠdeĠ
lian3 Ġ
Ġshi4Ġ zheng4Ġfu3Ġ
Ġsi1Ġ fa3Ġ
Ġbing4Ġ jiang1
na4Ġ ru4Ġ
ke4Ġ yun4Ġ
qu3Ġde2Ġ leĠ
Ġ12 Ġ
Ġ shuang1
ben3 Ġbu4Ġ
qian2 Ġxian4Ġ
can1 Ġyi4Ġyuan2Ġ
Ġzhi1 Ġbu4Ġ
fa1Ġ bu4ĠdeĠ
Ġdang1 Ġnian2Ġ
hu2Ġ po1Ġ
ming4Ġ ming2ĠdeĠ
zhuan3Ġ yi2Ġ
Ġjiang1 Ġxi1Ġ
ren2Ġda4Ġ dai4Ġbiao3Ġ
Ġ 24
ĠĠĠ gao1Ġ
ĠĠĠ chen2Ġ
ci2 Ġhui4Ġ
xing3 Ġ
ren4Ġ zhi2Ġ
min2Ġ zhong4
wai4Ġ guan1Ġ
bian1Ġ jie4
Ġ com
Ġ chong2Ġxin1Ġ
Ġ 1992Ġnian2Ġ
duo1 Ġbu4Ġ
san1 Ġyue4Ġ
liu4 Ġge4Ġ
bai3 Ġwan4Ġ
dang4 Ġzuo4Ġ
fou3 Ġren4Ġ
Ġshi4Ġ yan4Ġ
wang3Ġ wang3Ġ
deng1Ġ lu4
Ġri4Ġben3 ĠdeĠ
luo2Ġma3 Ġdi4Ġguo2Ġ
Ġxian4ĠdeĠyi2Ġge4 Ġxing2Ġzheng4Ġzhen4Ġqu1Ġ
Ġ sheng1
le Ġdi4Ġ
wei2 Ġren2Ġ
ying3 Ġdai4Ġ
Ġwei4Ġ wei4Ġ
fang1Ġ cheng2Ġshi4Ġ
Ġxiang1Ġ si4Ġ
dan1Ġ mai4
ren2Ġkou3Ġpu3Ġ cha2Ġ
Ġ wang1
Ġjian4 Ġzai4Ġ
Ġzhi1Ġ hou4Ġzai4Ġ
fa3Ġ guo2ĠdeĠ
liang4Ġ xiang4Ġ
ru2Ġ guo3
yan3Ġ zou4
xing1Ġ xi4Ġ
mi4Ġ du4Ġ
Ġqi1Ġ jian1
shan1Ġxi1Ġ sheng3Ġ
6 Ġge4Ġ
Ġ 1994Ġnian2Ġ
ĠĠĠ yan2Ġge2Ġ
mian3 Ġyi4Ġ
Ġbei4Ġ jing3Ġ
Ġquan2 ĠdeĠ
nv3Ġ hai2Ġ
Ġtong2Ġshi2Ġ ye3Ġshi4Ġ
Ġda4 Ġbu4Ġfen4
cui1Ġ hui3Ġ
ĠĠĠ 2008Ġnian2Ġ
ĠĠĠ yi3Ġxia4Ġ
ti3 Ġji1Ġ
na4 Ġhe2Ġ
Ġshi4Ġ zhi3
Ġyi3Ġ 2Ġ
zhe4Ġ yang4ĠdeĠ
gai3Ġ cheng1Ġ
hui2Ġ gui1
Ġdong1Ġ bei3
Ġliu2Ġyu4Ġ mian4Ġji1Ġ
Ġ qi4
Ġ bu4Ġzai4Ġ
chuan2 Ġdi4Ġ
cun1 ĠdeĠ
ka1 Ġ
Ġxian4 Ġzhong1Ġ
Ġda4Ġ fu1Ġ
Ġdan4 ĠdeĠ
wei3Ġyuan2Ġhui4Ġ zhu3Ġxi2Ġ
Ġgen1Ġju4Ġ 2020Ġnian2Ġmei3Ġguo2Ġren2Ġkou3Ġpu3Ġcha2ĠdeĠshu4Ġju4Ġ
guang3Ġfan4 ĠdeĠ
you3 Ġhe2Ġ
li2 Ġshi4Ġ
chao2 Ġshi2Ġ
ju2 Ġshi4Ġ
jia3 Ġshe4Ġ
zong3Ġ mian4Ġji1Ġ
Ġ yao4
Ġ à¸
Ġ heng1Ġli4Ġ
xin1 Ġxing2Ġ
zi3 Ġdan4Ġ
dang4 ĠdeĠ
xue2Ġ xi4Ġ
gai3Ġ zao4
Ġbi4Ġ xu1Ġ
Ġan1 Ġde2Ġ
Ġ feng2
Ġ 400
Ġ chao1Ġ
zhen1 ĠdeĠ
Ġzai4Ġ bei4Ġ
Ġcheng2Ġ li4ĠdeĠ
xi1Ġ yang2
Ġbing4Ġ fei1
tian1Ġ qi4Ġ
Ġzi4Ġ mu3Ġ
hang2Ġkong1Ġ mu3
fei1Ġlv4Ġ bin1Ġ
Ġ Re
kai1 Ġshe4
ge2 Ġli3Ġ
jing3 Ġyuan2Ġ
qian3 Ġze2Ġ
bu4Ġ tong2Ġ
Ġshi2Ġ ke4Ġ
yi4Ġ bai3Ġ
Ġji1Ġ xie4
dian4Ġ zi3
Ġmi3 Ġzhi4Ġ
zhang3 Ġhe2Ġ
chang2 Ġbei4Ġ
jiao1 ĠdeĠ
cha2 Ġer3Ġsi1Ġ
qian1 Ġren2Ġ
Ġshi2Ġ you2Ġ
jiao1Ġ jie4Ġ
6 Ġnian2Ġ
Ġ 300
Ġ zao4Ġ
ĠĠĠ tai2Ġwan1Ġ
fu2 Ġshi4Ġ
ji3 Ġnian2Ġ
Ġxi1Ġ fang1Ġ
Ġqi2Ġ hou4Ġyu2Ġ
yi2Ġ du4
Ġ qu4Ġ
Ġ 1996Ġnian2Ġ
gen1 Ġben3Ġ
pao3 Ġdao4Ġ
Ġzhong1Ġ qi1Ġ
Ġshi2Ġ li4Ġ
zheng4Ġ chang2Ġ
Ġzhi1Ġ shang4Ġ
bao3Ġ jia1
yi2Ġ ci4Ġshi4Ġjie4Ġda4Ġzhan4Ġ
de2Ġ guo2ĠdeĠ
fu2Ġjian4Ġ sheng3Ġ
Ġ luo2Ġsi1Ġ
ĠĠĠ xiang1Ġgang3
te4 Ġzai4Ġ
xing1 Ġjian4
Ġge4 Ġbu4Ġ
Ġ hao3Ġ
Ġ ti2Ġchu1Ġ
ĠĠĠ liu2Ġ
hao4 ĠdeĠ
Ġyou3Ġ liang3Ġ
li3Ġ lan2Ġ
Ġzhou1 Ġli4Ġ
Ġdui4Ġ wai4Ġ
fen1Ġ pei4
jin1Ġ rong2
shou4Ġ huan1Ġ
qiang2Ġ diao4
Ġli4Ġshi3Ġ xue2Ġjia1Ġ
dian4Ġying3 ĠdeĠ
Ġyi4Ġshu4 Ġjia1Ġ
Ġ xi4Ġtong3Ġ
san1 Ġbu4Ġ
si4 Ġyue4Ġ
shou3Ġ shu4Ġ
Ġdui4Ġ wu3Ġ
fen1Ġ lie4Ġ
jin1Ġ shan1Ġ
Ġxiang1Ġ bi3Ġ
qing2Ġ bao4
yin1Ġ su4Ġ
shou1Ġ cang2
Ġguang1Ġ xu4Ġ
yan3Ġ jiang3Ġ
gui1Ġ lei4
bu3Ġ chong1Ġ
fo2Ġ jiao4
Ġ ou1
Ġ zhuang4Ġ
sha1 ĠdeĠ
ck Ġ
us Ġ
Ġhe2Ġ shang4Ġ
sheng1Ġ yin1Ġ
yan2Ġ lun4Ġ
Ġjin4 Ġer2Ġ
luo2Ġ la1Ġ
shang1Ġ chang3Ġ
xu4Ġ lie4Ġ
wei1Ġ xie2
sa4Ġ la1Ġ
Ġmian4Ġji1Ġ 0
24Ġ xiao3Ġshi2Ġ
gu3Ġlao3 ĠdeĠ
5 Ġmi3Ġ
gu3 Ġji4Ġ
bo1 Ġchu1ĠdeĠ
Ġshi2Ġ da4Ġ
Ġren2Ġ yu3Ġ
wang2Ġ zi3Ġ
shui3Ġ shen1Ġ
yi3Ġ se4Ġ
Ġjin1Ġ shu3Ġ
ge4Ġ zhong3
a1Ġer3Ġ bei1Ġsi1Ġ
gou4Ġmai3 Ġ
zhong4Ġdian3Ġ wen2Ġwu4Ġbao3Ġhu4Ġdan1Ġwei4Ġ
jia1Ġli4Ġfu2Ġ ni2Ġya4Ġzhou1Ġ
di1Ġqi4Ġ ya1Ġ
ĠĠĠ 2005
dui4 Ġta1Ġ
Ġshi4Ġ xi1Ġban1Ġya2Ġ
Ġhe2Ġ ji4Ġ
Ġbu4Ġ shi2Ġ
ren4Ġ ming4Ġ
Ġke3 Ġshi4Ġ
Ġ liang2
lai2 Ġke4Ġ
fu2 Ġyin1Ġ
ya4 Ġsi1Ġ
Ġguo2Ġ shi2Ġ
Ġyi4Ġ da4Ġ
Ġyuan2Ġ ziĠ
xin1Ġ jiang1Ġ
qian2Ġ jin4Ġ
Ġshe4Ġ ying3Ġ
tu2Ġ sha1Ġ
kong1Ġ xi2Ġ
qiao2Ġ liang2Ġ
tan3Ġ ding1Ġ
kai1Ġfa1 ĠdeĠ
i ĠĠĠ
Ġ 2023Ġnian2Ġ
ju2 Ġbu4Ġ
tao1 Ġ
Ġjun1Ġ tuan2Ġ
nv3Ġ zhu3Ġjue2Ġ
Ġjing3Ġ fang1Ġ
luo4 Ġke4Ġ
hui2 Ġjia1Ġ
Ġgong1Ġ gao4Ġ
Ġzhi1Ġ hou4ĠdeĠ
mo2Ġ te4
Ġshi4Ġyi1Ġ ke1
shou1Ġ ru4
guang3 Ġzhou1Ġshi4Ġ
shuo4 Ġ
Ġren2Ġ dui4Ġ
fu2Ġ lei2
jing4Ġ tou2Ġ
Ġtian1Ġ jin1Ġ
cheng2Ġli4Ġ hou4Ġ
1970 Ġnian2Ġdai4Ġ
Ġshi4Ġ xing1Ġdeng3Ġwei4Ġ
ĠĠĠ X
pin1 Ġ
la3 Ġ
yi1Ġ yuan4Ġ
Ġyi3Ġ bei3Ġ
Ġxian4Ġ ming2Ġ
yan2Ġjiu1 Ġzhong1Ġxin1Ġ
Ġnian2Ġqing1 ĠdeĠ
di2Ġshi4Ġ ni2Ġ
Ġ peng2
Ġ Ð°
da4 Ġyu2Ġ
zhuan1 Ġli4Ġ
zhuan3 Ġcheng2Ġ
rao4 Ġ
Ġguo2Ġ jun1Ġ
sai4Ġ che1Ġ
Ġxia4Ġ leĠ
pu3Ġ luo2Ġ
gong4 Ġji4Ġ
lun2 Ġsi1Ġ
shen2Ġ hua4Ġ
jie1 ĠdeĠ
wu3 Ġde2Ġ
nv3 Ġren2Ġ
luo4 Ġzai4Ġ
Ġzheng4Ġ quan2Ġ
yi2Ġ ding4ĠdeĠ
xuan3Ġ qu1
lan2Ġ se4Ġ
ying1Ġ xiong2
zhuan1Ġ men2
fa3Ġlan2Ġ xi1
duo1 Ġli4Ġya4Ġ
jiu4 Ġzai4Ġ
ting2 ĠdeĠ
kuai4 ĠdeĠ
31 Ġ
ta Ġ
Ġshi4Ġ ying1Ġguo2Ġ
zhi4Ġ du4Ġ
Ġji2Ġ bing4
yu3Ġ mao2
fang1Ġ xiang4ĠdeĠ
pei2Ġ xun4Ġ
wan2Ġzheng3 ĠdeĠ
O Ġ
ĠĠĠ 8
gong1 Ġhe2Ġ
fei2 Ġte4Ġ
Ġming2Ġ xian3Ġ
dian4Ġying3Ġ jie2Ġ
Ġ 60
ĠĠĠ he2ĠĠĠ
zhi1 Ġjia1Ġ
jiu4 Ġbei4Ġ
gu3 ĠdeĠ
gao4 Ġshi4Ġ
Ġxing2Ġ rong2
nei4Ġ rui4Ġ
Ġshi4Ġshi2Ġ shang4Ġ
Ġ wo4Ġ
ĠĠĠ Ma
1925 Ġnian2Ġ
zhi4Ġ zuo4
Ġji2Ġ xian4Ġ
Ġri4 Ġhe2Ġ
Ġjun1 Ġyou3Ġ
fu4Ġ shi3Ġ
ben3Ġ shen1Ġ
Ġzhou1Ġ qi1Ġ
Ġyou2Ġ xi4ĠdeĠ
tou2Ġ shou3Ġ
mo2Ġ fa3Ġ
zhun3Ġ bei4
Ġ xiong1
Ġ zong1Ġ
da4 Ġhe2Ġ
bian4 Ġshi4Ġ
Ġwei4Ġ li4Ġ
Ġshi2Ġ pin3Ġ
Ġbing4 Ġshi4Ġ
zhi3Ġ kong4
Ġtong2 Ġzhi4Ġ
qing1Ġ chu3Ġ
chan3Ġ wu4Ġ
zhuan4Ġ xie3Ġ
ri4Ġben3 ĠdeĠ
Ġ ãģ
Ġ 2002
ĠĠĠ dao4Ġ
shui3 ĠdeĠ
wang3 Ġyou3Ġ
qu1Ġ zhu2
zheng1Ġ qu3Ġ
Ġmei3 Ġzhou1Ġ
mei3Ġguo2Ġren2Ġkou3Ġpu3Ġ cha2Ġ
sai1Ġer3Ġwei2Ġ ya4Ġ
Ġ 1949
zhan4 Ġhe2Ġ
ke4 Ġsi1Ġ
ru4 Ġqiu2Ġ
bian4 ĠdeĠ
shui3 Ġhe2Ġ
dan3 Ġ
ji4Ġ zai3Ġ
Ġwei4Ġyu2Ġ yin2
an4Ġ zhao4
su1Ġ dan1Ġ
zhuan3Ġ huan4
ke3Ġneng2Ġ xing4Ġ
shun4Ġ xu4Ġ
Ġlu2Ġ wa3Ġer3Ġsheng3Ġ
si4Ġchuan1Ġ sheng3Ġ
Ġxing2Ġ rong2Ġ
Ġbei4Ġ ren4Ġming4Ġwei4Ġ
Ġzhu3Ġ ti2Ġ
qiu2Ġ chang3Ġ
Ġshi4Ġjie4 Ġshang4Ġ
fang1 Ġzai4Ġ
gao1 Ġdi4Ġ
chuan1 Ġxian4Ġ
Ġyu2Ġ tong2
Ġyu2Ġ shi2ĠdeĠren2Ġkou3Ġshu4Ġliang4Ġwei4Ġren2Ġ
gu3Ġ dian3Ġ
zi1Ġ xun4
liang4Ġ zi3Ġ
che4Ġ xiao1
Ġ wen1Ġ
Ġ ka3Ġer3Ġ
hua4 Ġshi4Ġ
tan2 Ġhe2Ġ
Ġshang4Ġ leĠ
Ġhuo4Ġ zhe3
jian3Ġ dan1ĠdeĠ
ying2Ġ yun4
dai4Ġbiao3Ġ tuan2Ġ
ti3Ġyu4Ġ guan3Ġ
Ġwei4Ġyu2Ġgai1Ġguo2Ġ xi1Ġbu4Ġ
bao1Ġhan2 ĠleĠ
ĠĠĠ hong2Ġ
ba1 Ġbu4Ġ
wan3 Ġnian2Ġ
chi4 Ġjing1Ġ
Ġshi4Ġ ji4Ġzhong1Ġ
Ġyu2Ġ 2021
Ġli4Ġ tao2Ġ
Ġxing2 Ġren2Ġ
Ġfei1Ġ lv4Ġ
Ġyuan2Ġzhu4Ġ min2Ġ
Ġyu4 Ġji4Ġ
su1Ġwei2Ġ ai1
Ġ lie4Ġche1Ġ
ma3 Ġli4Ġya4Ġ
bu3 Ġzhu4Ġ
1909 Ġnian2Ġ
bei4Ġ jing3
zheng1Ġ fu2Ġ
ling3Ġ tu3
wei3Ġ tuo1Ġ
ruan3Ġ tiao2Ġ
Ġ lun2Ġ
Ġ 1949Ġnian2Ġ
hou4 Ġyi3Ġ
hao4 Ġwei4Ġ
pu3 Ġji2Ġ
Ġda4Ġ sai4Ġ
kai1Ġ zhan3
jiang1Ġ hu4
Ġxue2Ġ shu4Ġ
Ġtian1Ġ jin1
Ġ pan1
ĠĠĠ wan4
ĠĠĠ you2Ġxi4Ġ
zuo4Ġ zhe3Ġ
you2Ġ yong3Ġ
Ġde2Ġ wei2Ġ
tong1Ġ xun4
zhuan3Ġ huan4Ġ
nan2 Ġren2Ġ
jian1 Ġwei4Ġ
ke3 Ġjian4Ġ
bo1 ĠdeĠ
du2 ĠdeĠ
qu3Ġ mu4Ġ
mei2Ġyou3Ġ ren4Ġhe2Ġ
yan2Ġshen1 Ġzhi4Ġ
Ġ 1995Ġnian2Ġ
zhong1 ĠdeĠyi1Ġ
qu3 ĠdeĠ
st Ġ
pin2 Ġdao4
Ġta1 Ġren2Ġ
ji1Ġ guan1Ġ
bei3Ġ bu4ĠdeĠ
jie1Ġ xia4Ġ
zhen4Ġ rong2Ġ
bing4Ġ ru4Ġ
zhu3Ġyao4 Ġshi4Ġ
Ġyou3Ġxian4 Ġgong1Ġsi1
ge1Ġlun2Ġ bi3Ġya4Ġ
jia3 Ġji2Ġ
Ġshi2Ġ er4Ġnian2Ġ
kai1Ġ tong1
tai4Ġ shou3Ġ
Ġzui4Ġ zao3
Ġchu2Ġ ci3Ġzhi1Ġwai4Ġ
qi2Ġzhong1Ġ yi1Ġ
jie4Ġquan2Ġguo2Ġ zheng4Ġxie2Ġ
bao4Ġfa1 Ġhou4Ġ
Ġ huan2
Ġ HR
Ġ ke1Ġxue2Ġ
ĠĠĠ ka3Ġ
shu4 Ġjia1Ġ
fen4 ĠdeĠ
pian4 Ġzhong1Ġ
mai3 Ġ
Ġzai4Ġ xiang1Ġgang3Ġ
Ġshi2Ġ yi1Ġnian2Ġ
Ġji2Ġ wei2Ġ
Ġyi3Ġ bian4Ġ
wu3Ġ han4Ġ
liu2Ġ liang4Ġ
si4Ġ hu1
ge1Ġ ge1Ġ
fan4Ġ zui4
dian4Ġshi4Ġ dong4Ġhua4Ġ
xie2Ġ tiao2Ġ
Ġ ë
yuan2 Ġbu4Ġ
Ġzhong1Ġ xin1ĠdeĠ
Ġda4Ġ xiao3Ġ
ge2Ġ la1Ġsi1Ġ
Ġxi4Ġ bao1Ġ
ĠE Ġ
ĠĠĠ shang4Ġ
hu1 Ġxi1Ġ
Ġda4Ġ li3Ġ
ju4Ġ li2
fa3Ġ lan2Ġke4Ġ
tong1Ġ wang3Ġ
ĠdeĠdi4Ġ san1Ġ
hen3Ġ da4ĠdeĠ
Ġ fan2
Ġ 1993Ġnian2Ġ
ji4 Ġzhi4Ġ
che1 Ġxing2Ġ
jie4 Ġshi2Ġ
ha1 Ġli3Ġ
huo3 Ġli4Ġ
reng2 Ġwei4Ġ
kua4 Ġyue4Ġ
ke2 Ġ
Ġshi4Ġ e2Ġluo2Ġsi1Ġ
lian2Ġ luo4Ġ
dong4Ġ wu4
shui3Ġ liang4Ġ
huang2Ġ jin1Ġ
huo3Ġ che1Ġzhan4Ġ
xuan1Ġ yan2Ġ
Ġchi4Ġ wei3Ġ
Ġ gong4Ġtong2Ġ
Ġ 18Ġ
ĠĠĠ 5
ĠĠĠ er4Ġ
ĠĠĠ jian3Ġli4Ġ
zhan4 Ġyou3Ġ
cheng1 Ġshi4Ġ
gu3 Ġxi1Ġla4
yi4Ġ ming2Ġ
wu4Ġ pin3Ġ
duo1Ġ zhong3
Ġyou2Ġ tai4Ġ
hai3Ġ nan2Ġ
sheng3Ġ zhang3Ġ
tiao2Ġ wen2Ġ
nong2Ġ chang3Ġ
Ġxian4Ġshi2Ġ you2Ġ
ĠĠĠjin3Ġ guan3Ġ
Ġ xian3Ġshi4Ġ
jie1 Ġshi4Ġ
hai3 ĠdeĠ
geng4 Ġshi4Ġ
tu1 Ġji1Ġ
Ġji2Ġ gong1Ġ
Ġyi3 Ġbu4Ġ
qu1Ġ nei4Ġ
Ġjing1Ġ chang2Ġ
chuang4Ġ zao4
Ġ SAO
qi1 Ġzhi4Ġ
jun4 ĠdeĠ
1923 Ġnian2Ġ
Ġren2Ġ zhi4Ġ
Ġdao4Ġ da2
Ġde2 Ġdao4
zhi2Ġ bang4
Ġzhe4Ġ zuo4Ġ
ni2Ġ su1Ġ
mei3Ġ xiao3Ġshi2Ġ
zhou1Ġ bian1
Ġjian4Ġzhu4Ġ wu4Ġ
mao2Ġ dun4Ġ
7 Ġnian2Ġ
ĠĠĠ 2022Ġnian2Ġ
xin1 Ġjian4Ġ
zao4 Ġxing2Ġ
pu1 Ġ
Ġde2 Ġjun1Ġ
shou1Ġ fei4Ġ
Ġzhe4 Ġshi2Ġ
Ġze2 Ġshi4Ġ
wang4Ġyuan3Ġ jing4Ġ
Ġ cao2Ġ
xu4 ĠdeĠ
Ġda4Ġ ban3Ġ
Ġchu1Ġ chang3Ġ
shen1Ġ ti3
long2Ġ sheng3Ġ
xiu1Ġ ding4Ġ
N Ġ
ĠĠĠ jing1Ġli4Ġ
deng3 Ġyu2Ġ
liu4 Ġming2Ġ
Ġdi4Ġ yi1Ġwei4Ġ
Ġji2Ġ hui4Ġ
Ġji2Ġ qi2Ġta1Ġ
ju3Ġ zhen4Ġ
zhong1Ġguo2Ġ da4Ġlu4Ġ
seng1 Ġ
Ġguo2Ġ you3Ġ
Ġchu1Ġ xi2
lian2Ġ luo4
Ġsheng1Ġ tai4Ġ
nuo4Ġ fu1Ġ
chong1Ġ man3Ġ
Ġguan1Ġ zhuang4Ġbing4Ġdu2
Ġ 2001
Ġ pu2Ġtao2Ġya2
ceng2 Ġbei4Ġ
fa4 Ġ
ĠdeĠ gao1Ġ
Ġcheng2Ġ yi1Ġ
yong4Ġ hu4
xi4Ġ jie2Ġ
qian2Ġ ting3
Ġdui4Ġ xiang4Ġ
shou4Ġ huan1Ġying2Ġ
mei3Ġ tian1Ġ
cai2Ġ pan4Ġ
jiang3Ġ jin1Ġ
can1Ġyi4Ġ yuan4Ġ
Ġli4Ġfa3 Ġhui4Ġ
Ġxiang1Ġdang1 Ġyu2Ġ
Ġ wei3
Ġ mi2Ġ
ĠĠĠ ping2Ġ
ĠĠĠ lin2Ġ
ya4 Ġhe2Ġ
na4 Ġer3Ġ
chong2 Ġjian4
Ġzai4Ġ fa3Ġguo2Ġ
jiao1Ġ gei3Ġ
zi1Ġ xun2Ġ
guo4 Ġyi1Ġ
Ġshi2Ġ ren4
Ġshi2Ġ san1Ġ
yan2Ġ fa1Ġ
zhi3Ġ shu4Ġ
Ġren4Ġ ming4Ġ
gui1Ġ ding4
shi3Ġyong4Ġ zhe3Ġ
ĠT Ġ
biao3Ġxian4 Ġchu1Ġ
Ġji2Ġxing2Ġzheng4Ġ dan1Ġwei4Ġ
Ġao4Ġda4Ġli4Ġ ya4Ġ
W Ġ
Ġ 23
Ġ kai1Ġshi3
fang1 Ġxing2Ġ
zhuang1 Ġwei4Ġ
Ġer2 Ġhou4Ġ
zhu3Ġ dong4Ġ
jiao4Ġ gao1Ġ
bi4Ġ yao4Ġ
pai2Ġ lie4Ġ
tuo1Ġ li2Ġ
Ġyin2Ġ wei3Ġ
0 Ġzuo4Ġbiao1Ġwei4Ġ
Ġ Q
xing2 ĠdeĠ
zi Ġshi4Ġ
wei2Ġ yi1ĠdeĠ
Ġdan4 Ġshi4Ġzai4Ġ
Ġqi2Ġ B1900
Ġdan4Ġ zui4Ġzhong1Ġ
xun4Ġ su4
ren2Ġmin2Ġ zheng4Ġfu3Ġ
Ġhu2Ġ bei3Ġ
Ġwei4Ġyu2Ġyin2 Ġjing1Ġ
0Ġzuo4Ġbiao1Ġwei4Ġ chi4Ġjing1Ġ
Ġ song1Ġ
ĠĠĠ san1Ġ
ĠĠĠ 11Ġyue4Ġ
xiang4 Ġyu2Ġ
lian2 Ġjun1Ġ
la1 Ġwei2Ġ
ze2 Ġbei4Ġ
fei1 Ġdan4Ġ
sheng4 Ġdan4Ġ
lun2 ĠdeĠ
Ġzhong1Ġ hua2
ji1Ġ du1Ġ
Ġxing2Ġ tai4Ġ
tu3Ġ rang3
Ġjian4Ġzhu4Ġ mian4Ġji1Ġ
kong4Ġ zhi4ĠdeĠ
gong4Ġhe2Ġ dang3Ġ
Ġ wu1Ġke4Ġlan2
ĠĠĠ fen1Ġbu4Ġ
hua4 Ġyu3Ġ
suo3 Ġyi3Ġ
jiao1 Ġzhan4Ġ
bo2 Ġer3Ġ
Ġsi1Ġ zhi2Ġ
guan1Ġ xi4ĠdeĠ
xiao1Ġ fang2Ġ
geng4Ġ da4ĠdeĠ
Ġqing1Ġchao2Ġ zheng4Ġzhi4Ġren2Ġwu4Ġ
Ġ hui1Ġ
ĠĠĠ xiao3Ġ
jiang1 Ġjun1
si3 ĠleĠ
ba3 Ġta1Ġ
Ġyu2Ġ 2019
you2Ġ xi4ĠdeĠ
xiao4Ġ lv4Ġ
xuan1Ġ cheng1Ġ
ĠH Ġ
sha1 Ġren2Ġ
32 Ġ
zhong1Ġ hua2Ġmin2Ġguo2Ġ
Ġji2Ġ ti3Ġ
bei4Ġ er3Ġ
Ġmu3Ġ qin1
ĠĠĠche1Ġzhan4Ġ gou4Ġzao4Ġ
luo4Ġfa2 Ġke4Ġ
8 Ġnian2Ġ
Ġ zu3Ġzhi1Ġ
ĠĠĠ chu2Ġ
ming2 Ġhe2Ġ
bian1 Ġzhi4Ġ
zhen1 Ġren2Ġ
lun4 Ġshi4Ġ
xie3 Ġwei4Ġ
da1 Ġzai4Ġ
Ġshi2Ġ ba1Ġ
Ġda4Ġ jie1Ġ
jin1Ġ shu3
Ġju4Ġ qing2Ġ
ou1Ġ meng2Ġ
jie3Ġfang4 Ġjun1
ĠJ Ġ
k ĠĠĠ
Ġ zheng3Ġge4Ġ
dao3 Ġhe2Ġ
man4 ĠdeĠ
kang4 Ġzhan4Ġ
1919 Ġnian2Ġ
1911 Ġnian2Ġ
Ġji2Ġ cheng2Ġ
ji1Ġ che1Ġ
yi2Ġ ban4Ġ
tuan2Ġ jie2Ġ
huo3Ġ che1Ġ
ai4Ġer3Ġ lan2
1922 Ġnian2Ġ
zhu3Ġ quan2Ġ
wu4Ġ ti3Ġ
Ġqiu2Ġ dui4
Ġda4 Ġbu4Ġfen4Ġ
Ġ long2
ch Ġ
ĠĠĠ guo2Ġji4Ġ
Ġhe2Ġ yuan2Ġ
zhi3Ġ ding4
jin3Ġ zhang1Ġ
zhen1Ġ zheng4ĠdeĠ
shun4Ġshi2Ġ zhen1Ġyu3Ġ
Ġ bin1Ġ
ĠĠĠ er2Ġ
ming2 Ġyu2Ġ
zhi2 Ġxing2
ba1 Ġsi1Ġ
can1 Ġjian4Ġ
kan4 Ġfa3Ġ
wen1 Ġdai4Ġ
hun1 Ġyin1
tie1 Ġmu4
ĠdeĠ xing2Ġ
Ġyi1Ġ shi2Ġ
Ġyi3Ġ dong1Ġ
Ġxian4Ġ zhang3Ġ
zi4Ġ wo3Ġ
fang1Ġ an4
feng1Ġ ge2ĠdeĠ
ti2Ġ qian2Ġ
zu2Ġ qun2Ġ
shou1Ġ gou4
Ġyin3Ġ fa1Ġ
ĠF Ġ
Ġ biao1Ġ
Ġ du2Ġli4Ġ
Ġ tai4Ġguo2Ġ
ĠĠĠ 2009Ġnian2Ġ
nei4 Ġsi1Ġ
ze2 Ġyou2Ġ
Ġshi4Ġ tai2Ġwan1Ġ
Ġbu4Ġ cheng2Ġ
Ġda4Ġ dui4Ġ
zhu3Ġ da3Ġ
Ġxiang1Ġ guan1ĠdeĠ
pu3Ġ la1Ġ
lian2Ġmeng2 ĠdeĠ
ĠĠĠ gu3Ġ
lai2 Ġshi4Ġ
zhen4 Ġji2Ġxing2Ġzheng4Ġdan1Ġwei4Ġ
st ĠĠĠ
nang2 Ġ
Ġyou2Ġ zheng4Ġ
Ġzi4Ġ ran2
ĠĠĠ ta1ĠdeĠ
lin2 Ġjin4Ġ
Ġzhong1Ġ yi1Ġ
Ġzhi4Ġ yuan2Ġ
sheng1Ġ ge2Ġwei4Ġ
Ġjian4Ġ kang1
fang1Ġ bian4Ġ
Ġquan2 Ġxian4Ġ
zui4Ġ zhong4Ġyao4ĠdeĠ
Ġzhe4Ġ yang4
tu2Ġ an4Ġ
chong2Ġ fan3Ġ
Ġxi4Ġ lie4
Ġwei1 Ġer3Ġ
Ġ ni2
duo1 Ġer3Ġ
qu4 ĠleĠ
wo3 ĠdeĠ
Ġshi4Ġ lang2Ġ
Ġzai4Ġ qian2Ġ
Ġzhong1Ġ jiang4Ġ
Ġji2Ġ bie2Ġ
Ġer2Ġ tong2
suo3Ġ xu1
Ġshang4Ġ ying4Ġ
tong2Ġ yang4Ġ
can1Ġ guan1Ġ
Ġren2Ġkou3 Ġwei4Ġ
sheng4 ĠdeĠ
jing3 Ġwei4Ġ
xian1 Ġwei2Ġ
Ġyi1Ġ liao2
guan1Ġ kan4Ġ
Ġyin1 Ġer2
jue2Ġ se4ĠdeĠ
ding4Ġ yi4Ġwei4Ġ
9 Ġnian2Ġ
yi4Ġ hui4Ġ
Ġyu3Ġ xi1Ġ
Ġzhou1Ġ zhang3Ġ
jian3Ġ cha2
shen3Ġ pan4Ġ
hun4Ġ ning2Ġ
Ġ shu4
an4 Ġli4Ġ
shen1 Ġyu2Ġ
xun4 Ġxi1Ġ
dong3 Ġ
Ġge4 Ġguo2Ġjia1Ġ
jian1Ġ chi2Ġ
dan1Ġ du2Ġ
wang3Ġ wang3
xu3Ġ ke3Ġ
Ġ ì
ĠĠĠ wang2Ġ
ĠĠĠ zuo4Ġwei2Ġ
shi1 Ġji2Ġ
lun4 ĠdeĠ
Ġzhong1Ġ duan4Ġ
Ġyu2Ġ 2016
Ġda4Ġ chen2
cun1Ġ min2Ġ
qun2Ġ dao3ĠdeĠ
Ġzhi2Ġ jie1Ġ
e4Ġ hua4Ġ
Ġzheng4Ġfu3 ĠdeĠ
Ġ 22
Ġ zu3Ġcheng2Ġ
Ġ guang3Ġxi1Ġ
ĠĠĠ luo2Ġ
xing4 Ġming2Ġ
shou4 Ġdao4ĠleĠ
Ġyu3Ġ wen2Ġ
jiao4Ġ lian4
zhu4Ġ shou3Ġ
zhong3Ġ lei4Ġ
Ġyou2 Ġqi2Ġ
Ġzhan4 Ġhou4Ġ
ĠĠĠ 6
ba1 Ġji1Ġsi1Ġ
xian1 ĠdeĠ
1926 Ġnian2Ġ
EST Ġ
Ġshi4Ġ cheng2Ġ
Ġshi4Ġ chu1Ġ
Ġyou3Ġ ming2Ġ
Ġdao4 Ġshi2Ġ
Ġyi3Ġ ci3Ġ
jian1Ġ cha2
Ġzhou1Ġ fu4Ġze2Ġguan3Ġxia2Ġ
wai4Ġ lang2Ġ
mian4Ġ xiang4Ġ
jiang3Ġ pai2Ġ
Ġai4 Ġer3Ġ
tiao2Ġyue1Ġ ti3Ġxi4Ġ
Ġ di1Ġ
weng1 Ġ
Ġzhong1Ġ shan1
Ġren2Ġ quan2Ġ
tian1Ġ wen2Ġxue2Ġ
cai3Ġyong4Ġ leĠ
Ġ17 Ġ
Ġping2 Ġcheng2Ġ
Ġ 40
Ġ ãĥ³
Ġ 1988Ġnian2Ġ
ĠĠĠ quan2Ġ
ji4 Ġbu4Ġ
dui4 Ġdi4Ġ
wu4 Ġbu4Ġ
ji1Ġ hui4Ġ
hou4Ġ qi1Ġ
zhu3Ġ ban4Ġ
fu4Ġ mu3Ġ
jing1Ġ yan4
su4Ġ du4
gen1Ġ sui2Ġ
Ġ 1985Ġnian2Ġ
an1 Ġxian4Ġ
ĠĠĠ De
ĠĠĠ huo4Ġ
tu1 Ġran2
suan1 Ġjian3Ġ
1918 Ġnian2Ġ
Ġji1Ġ fen1Ġ
xuan3Ġ min2Ġ
ke1Ġ hui4Ġshi4Ġdi4Ġ
ge1Ġ shou3
er4Ġ shi2Ġnian2Ġ
cheng1Ġ hu1Ġ
jia4Ġ gou4Ġ
ĠdeĠshi2Ġ jian1
Ġlai2Ġ zi4
Ġguo2Ġfang2 Ġbu4Ġ
7 Ġren2Ġ
Ġ ju1Ġ
Ġ guan3Ġli3Ġ
ĠĠĠ 2007Ġnian2Ġ
Ġshi4Ġ pin2Ġ
Ġchu1 Ġyu2Ġ
qian2Ġ shen1Ġ
duo1Ġ shu4
Ġzhi2 Ġxing2Ġ
nan2Ġji2Ġ tiao2Ġyue1Ġti3Ġxi4Ġ
Ġ rong2
Ġ mao2
Ġ 600
suo3 Ġshi4Ġ
tang2 Ġhe2Ġ
ting1 Ġdao4Ġ
can2 Ġji2Ġren2Ġ
Ġbu4Ġ lu3Ġ
Ġgong1Ġ da3Ġ
zi4Ġ sha1Ġ
xiang3Ġ yao4Ġ
pin3Ġ zhong3Ġ
shou1Ġ cang2Ġ
ji3Ġ nei4Ġ
pei2Ġ xun4
Ġgai1Ġcun1Ġ shi3Ġjian4Ġyu2Ġ
6 Ġren2Ġ
Ġ fan4
Ġ yan2Ġjiu1
Ġ zhui1Ġ
yu2 Ġwei4Ġ
yin2 Ġhe2Ġ
Ġzai4Ġ nei4Ġ
wei2Ġ ye3Ġ
ci4Ġ shu4Ġ
se4Ġ cai3Ġ
Ġtian1Ġ wen2Ġ
re4Ġ dai4
Ġxing2Ġcheng2Ġ leĠ
Ġjing4Ġ nei4Ġ
qi2Ġzhong1Ġ yi2Ġge4Ġ
xia4Ġxia2ĠdeĠyi2Ġge4Ġxiang1Ġ zhen4Ġji2Ġxing2Ġzheng4Ġdan1Ġwei4Ġ
ĠĠĠ sui1Ġran2
zhan4 Ġwei4Ġyu2Ġ
zhu4 Ġyou3Ġ
ma3 Ġshi4Ġ
zhen4 Ġdi4Ġ
10 Ġnian2Ġ
Ġshi2Ġ you3Ġ
wei2Ġ chi2
ĠĠĠ 0
ĠĠĠ jin4
ĠĠĠ Pro
xiang3 Ġyou3Ġ
ta3 Ġji1Ġ
1914 Ġnian2Ġ
gong1Ġ min2Ġ
Ġcheng2Ġ gong1ĠdeĠ
Ġri4 Ġyi3Ġ
Ġsi1Ġ dun4Ġ
Ġji1Ġ ben3
Ġjia1Ġ li3Ġ
Ġke4 Ġyu3Ġ
Ġde2Ġ luo2Ġ
dian4Ġ chi2Ġ
fu2Ġ zhuang1Ġ
zhen4Ġ ya1Ġ
su4Ġ song4Ġ
qing2Ġ gan3Ġ
pian4Ġ duan4Ġ
pi1Ġ pan4Ġ
Ġsi1Ġling4 Ġyuan2Ġ
Ġ 1945
zheng4 Ġyi4Ġ
nong2 Ġli4Ġ
mai2 Ġ
Ġzai4Ġ na4Ġ
Ġyi4Ġ xi2Ġ
Ġjian4 Ġdao4Ġ
Ġhou4Ġ zhe3
Ġke4 Ġzai4Ġ
hua4Ġ gui1Ġ
jiao4Ġ da4ĠdeĠ
wen2Ġ zhang1
Ġwei2Ġ wu2Ġer3Ġ
jiang1Ġ nan2Ġ
Ġzuo4Ġ zhe3Ġ
bo1Ġ te4Ġ
Ġjie2Ġ hun1Ġ
Ġan1Ġ hui1Ġ
Ġ tai2
liang3 Ġzuo4Ġ
Ġshi2Ġ ti3Ġ
Ġyue4Ġ yu3Ġ
qi3Ġ yuan2Ġyu2Ġ
Ġti3Ġ yu4Ġ
te4 Ġshi4Ġ
you4 Ġyi4Ġ
fang2 Ġxian4Ġ
1990 Ġnian2Ġdai4Ġ
kuang1 Ġjia4Ġ
Ġxi1Ġ te4Ġ
Ġbing4Ġ bu2Ġshi4Ġ
qing1Ġ xiang4Ġ
Ġxia4Ġ lai2Ġ
rong2Ġ liang4Ġ
mo4Ġ qi1Ġ
kao3Ġ cha2Ġ
Ġnian2Ġ4Ġyue4Ġ 1Ġri4Ġ
yin4Ġ ni2
xiao3Ġxing2Ġ xing1ĠdeĠ
Ġmi3 ĠdeĠ
nan2Ġji2Ġtiao2Ġyue1Ġti3Ġxi4Ġ guan3Ġli3Ġ
Ġ cao2
Ġ jie1Ġwei4Ġ
ĠĠĠ zhi2Ġye4Ġsheng1Ġya2Ġ
wei2 Ġgong1Ġ
yong4 Ġzai4Ġ
mei2 Ġtong2Ġpai2Ġ
luo4 Ġyi1Ġ
ci2 Ġji1Ġ
Ġzai4Ġ cheng2Ġ
Ġda4Ġ qi4Ġ
hui4Ġ shang4Ġ
fa3Ġ lan2Ġxi1Ġ
fen1Ġ li2
bian1Ġ zu3Ġ
Ġlian2Ġ bang1
shao4Ġ nv3
Ġjie1Ġ shou4Ġ
ĠĠĠ re
sheng3 Ġfu4Ġze2Ġguan3Ġxia2Ġ
lei3 Ġji1Ġ
gen3 Ġdi4Ġ
ping1 Ġ
Ġwei4Ġ ji2Ġ
wei2Ġ chi2Ġ
qian2Ġ lai2Ġ
shang1Ġ hai4Ġ
yi2Ġge4 Ġyue4Ġ
dang1Ġ xuan3Ġwei4Ġ
Ġji2Ġbei3Ġ mei3Ġ
Ġ 1984Ġnian2Ġ
ri4 Ġjun1Ġ
mie4 Ġjue2Ġ
shan3 Ġ
bi2 Ġ
ĠdeĠ zhi1Ġchi2Ġ
Ġshi4Ġ zhi4Ġ
Ġcheng2Ġ fen4Ġ
Ġzhi1 Ġli3Ġ
Ġyuan2Ġ yin1Ġshi4Ġ
xi1Ġ wang4
Ġdan4 Ġye3Ġ
Ġfu4Ġ zhu3Ġxi2Ġ
Ġdian4Ġ ziĠ
wei2Ġyi1Ġ yi1Ġ
ai4 Ġhao4Ġ
ĠĠĠ jie2Ġ
ĠĠĠ wai4Ġbu4Ġ
le Ġzhong1Ġguo2Ġ
zui4 Ġyou3Ġ
jian3 Ġyi4Ġ
sa4 Ġke4Ġsi1Ġ
CD Ġ
pen2 Ġdi4Ġ
Ġge4Ġ lei4Ġ
Ġzheng4Ġ ce4
zhong4Ġ liang4Ġ
yan3Ġ hua4Ġ
tong2Ġ meng2
Ġshi4Ġjie4Ġ bei1
Ġdong4Ġ hua4Ġ
tian1Ġwen2Ġ tai2Ġ
Ġ tan2Ġ
Ġ chao1Ġguo4Ġ
ĠĠĠ 7
fei1 Ġer3Ġde2Ġ
bian1 Ġxing2Ġ
Ġxi1Ġ zang4Ġ
xia4Ġ ling4Ġ
fa3Ġ xue2Ġ
sha1Ġ bai2Ġ
jiu3Ġ long2
Ġnian2Ġdai4 ĠdeĠ
2 Ġli4Ġ
Ġ 800
Ġ lei3Ġji4Ġ
yu3 ĠĠĠ
yu3 Ġdi4Ġ
xi1 Ġyu2Ġ
jian4 Ġshe4
hu4 Ġwei4Ġ
1913 Ġnian2Ġ
ĠdeĠ qing2Ġkuang4Ġxia4Ġ
Ġcheng2Ġ jiu4Ġ
Ġyi1Ġ shi1Ġ
jiao4Ġ zong1Ġ
jie3Ġ san4
Ġren2Ġmin2Ġ zheng4Ġfu3
chi3Ġ cun4
ĠĠĠzhong1Ġ hua2Ġren2Ġmin2Ġgong4Ġhe2Ġguo2Ġ
Ġhua2Ġ sheng4Ġ
can1Ġsai4Ġ zi1Ġge2Ġ
shan1Ġmai4 ĠdeĠyi1Ġbu4Ġfen4Ġ
si4 Ġwei4Ġ
shui3 Ġdao4Ġ
sui2 Ġji1Ġ
luan3 Ġ
ren2Ġ kou3Ġwei4Ġ
ji4Ġ hua4
Ġyi1Ġ lai4
Ġyuan2Ġ li3Ġ
Ġxian4Ġ xing4Ġ
qu1Ġ bie2Ġ
tong1Ġ yong4Ġ
shou4Ġ sun3Ġ
Ġzhu3Ġ zhang1Ġ
ting2Ġ zhi3
zheng4Ġzhi4Ġ jia1Ġ
re4Ġdai4Ġ qi4Ġxuan2Ġ
Ġge4Ġyue4Ġ hou4Ġ
J Ġ
Ġ yin3
Ġ sĠ
Ġ 1991Ġnian2Ġ
hui4 Ġwei4Ġ
xin4 Ġren4Ġ
Ġzai4Ġ shang4Ġ
Ġguo2Ġ an1Ġ
Ġzhou1Ġ kan1Ġ
tou2Ġ xiang2
ĠdeĠgong1Ġ neng2Ġ
Ġ bang1Ġzhu4Ġ
hai3 Ġshi4Ġ
jue2 Ġwei4Ġ
1960 Ġnian2Ġdai4Ġ
Ġyi1Ġ ran2
hai3Ġ ba2Ġgao1Ġdu4Ġ
jian3Ġ ce4Ġ
tang2Ġ qu1Ġ
Ġtong2Ġ xing4Ġ
hui2Ġ da2Ġ
fa1Ġbu4Ġ leĠ
ĠdeĠji4Ġ shu4Ġ
wen3Ġ ding4ĠdeĠ
Ġ sang1
Ġ yang3Ġ
jie2 Ġchu1Ġ
bing1 ĠdeĠ
1950 Ġnian2Ġ
Ġhe2Ġ yi4Ġ
Ġdi4Ġ chan3Ġ
Ġyu2Ġ 2024
Ġta1 Ġyou3Ġ
guan1Ġ lian2Ġ
qian2Ġ feng1Ġ
suo3Ġ wei4ĠdeĠ
bao3Ġ xian3Ġ
Ġhuo4Ġ cheng1Ġ
yin1Ġ ci3Ġ
du1Ġ cha2Ġ
lei2Ġ da2Ġ
Ġjian3Ġ cheng1
Ġ wa3
Ġ kang1
Ġ 1989Ġnian2Ġ
ĠĠĠ 2006Ġnian2Ġ
ceng2 Ġren4Ġ
mo4 Ġnian2Ġ
Ġli4Ġ ao4Ġ
Ġdui4Ġ fang1Ġ
Ġquan2 Ġshi4Ġ
ci2Ġ dian3Ġ
fa1Ġbiao3 ĠdeĠ
ya4Ġmei3Ġ ni2Ġya4Ġ
Ġ sheng3Ġ
nan2 Ġshi4Ġ
xiang4 Ġwei4Ġ
zeng1 Ġshe4Ġ
tui1 Ġli3Ġ
Ġzheng4Ġ chang2Ġ
pu3Ġ lu3Ġshi4Ġ
dian4Ġshi4Ġ jie2Ġmu4Ġ
Ġdeng3Ġ deng3Ġ
tui1Ġchu1Ġ leĠ
hu4Ġlian2Ġ wang3Ġ
xiu1Ġdao4Ġ yuan4Ġ
Ġ qu3Ġde2Ġ
Ġ qiao2Ġzhi4Ġ
Ġ 1990Ġnian2Ġ
ĠĠĠ zhang1Ġ
yu3 Ġyi4Ġ
bei3 Ġji2Ġ
ke1 Ġli4Ġ
gai3 Ġjin4Ġ
Ġyu2Ġ 2018
Ġyu3Ġ qi2
dao3Ġ shi1Ġ
ĠdeĠshi4Ġ jie4
Ġci3Ġ ci4Ġ
Ġ chi2Ġ
ĠĠĠ min2Ġguo2Ġ
ĠĠĠ yin1Ġyue4Ġ
qu3 Ġzi4Ġ
hun1 Ġli3Ġ
Ġcheng2Ġ zuo4Ġ
su1Ġ ge2Ġlan2
Ġ lao3
dui4 Ġzhong1Ġ
lu4 Ġshi4Ġ
Ġhe2Ġ zhi4Ġ
Ġta1 Ġbu4Ġ
Ġxing2Ġ chai2
Ġxing2Ġ shi4ĠdeĠ
zheng4Ġ ce4
dai4Ġ ma3Ġ
ĠleĠ yi2Ġge4Ġ
Ġxiang1Ġ guan1
Ġxing2Ġzheng4Ġ yuan4Ġ
Ġyou4 Ġyi4Ġ
ĠÐ° Ġ
1 Ġming2Ġ
Ġ shu1
Ġ zhuan1
Ġ zao3Ġ
ĠĠĠ wu3Ġ
ĠĠĠ che1Ġzhan4
mei3 ĠdeĠ
liu2 Ġqiu2Ġ
ceng2 Ġyou3Ġ
chuan2 ĠdeĠ
luo4 Ġyu2Ġ
ting2 Ġzhan4Ġ
na2 Ġda4
ji1Ġ bai4Ġ
Ġyu3Ġ zhi1Ġ
Ġdai4Ġ ma3Ġwei4Ġ
liang2Ġ hao3Ġ
li4Ġshi3Ġ shang4Ġ
Ġxian4Ġshi2Ġyou2Ġ nan2Ġji2Ġtiao2Ġyue1Ġti3Ġxi4Ġguan3Ġli3Ġ
ĠĠĠ sha1Ġ
bai2 Ġren2Ġ
ding3 Ġji2Ġ
zu1 Ġjie4
ed ĠĠĠ
Ġdi4Ġ yu4Ġ
Ġzhi4Ġ du4
Ġchu1Ġ lai2ĠdeĠ
te4Ġ shu1
Ġduo1Ġ ci4Ġ
chong2Ġ qing4Ġ
jie2 Ġshi2Ġ
ĠdeĠ you3Ġ
Ġyu2Ġ 2015
Ġgong1Ġ chang3
Ġcheng2Ġ du1Ġ
lu4Ġ ying3Ġdai4Ġ
Ġben3Ġ zhan4Ġ
Ġben3Ġ tu3Ġ
pian4 Ġren2Ġ
Ġyu2Ġ lei2Ġ
mian4Ġ 2
liu2Ġ dong4Ġ
liang3Ġ an4Ġ
shen2Ġ sheng4Ġ
Ġzai4Ġdi4Ġ yi1Ġ
Ġ19 Ġ
guan1Ġfei4Ġyan2Ġ que4Ġzhen3Ġbing4Ġli4Ġ
bei3 ĠdeĠ
jiao1 Ġyou2Ġ
man4 Ġdi4Ġguo2Ġ
zheng3 Ġli3Ġ
33 Ġ
ĠdeĠ xing2Ġshi4Ġ
Ġyu2Ġ 2020
Ġren2Ġ li4Ġ
da4Ġ xing2Ġ
Ġyou3Ġ guan1ĠdeĠ
Ġgong1Ġ an1Ġ
yi3Ġ jing1
fang2Ġ wu1
Ġzhi2 Ġli4Ġ
pei2Ġ yang3
ĠĠĠzhe4Ġ ke1Ġ
Ġ UĠ
ri4 Ġzhi4Ġ
tong2 Ġwei4Ġ
hui2 Ġdao4
Ġdi4Ġ shang4Ġ
Ġdi4Ġ jiu3Ġ
Ġyi1Ġ ran2Ġ
nei4Ġ ge2
ti2Ġ gao1
Ġyou2 Ġqi2
ĠdeĠji1Ġ chu3
min2 Ġyi4Ġ
bao3 Ġhe2Ġ
you4 Ġzai4Ġ
zhui1 Ġqiu2Ġ
Ġshi4Ġ chang3
ren2Ġ yuan2Ġ
Ġyu2Ġ 2013
Ġguo2Ġ dao4Ġ
dan1Ġ mai4Ġ
chuan2Ġ shuo1
Ġnan2Ġ xing4Ġ
jiu4Ġ zhi3Ġ
jing3Ġ qu1Ġ
jing3Ġ dian3Ġ
Ġ LĠ
er ĠĠĠ
ye4 Ġhe2Ġ
sheng3 Ġhui4Ġ
tong1 Ġxing2Ġ
le4 Ġyuan2Ġ
ĠdeĠ you2Ġ
ĠdeĠ zui4Ġ
Ġshi4Ġ xia4Ġxia2ĠdeĠyi2Ġge4Ġxiang1Ġzhen4Ġji2Ġxing2Ġzheng4Ġdan1Ġwei4Ġ
Ġyu2Ġ 2012
ji4Ġ shu4
Ġyi3Ġ bian4
Ġxing2Ġ hao4Ġ
hua4Ġ mian4Ġ
ye4Ġ jian1Ġ
ru4Ġ jing4Ġ
she4Ġ ying3Ġ
9 Ġren2Ġ
Ġ xue2
Ġ Ð¾
Ġ ming2Ġwei4Ġ
Ġ yi4Ġnian2Ġ
ai4 Ġli4Ġ
ĠĠĠ a
ĠĠĠ wu2Ġ
ĠĠĠ fen1Ġlei4Ġ
ji2 Ġzhong1Ġxue2Ġ
ze2 Ġxi1Ġ
ba1 Ġli3Ġ
lin2 Ġzhong1Ġ
jiang4 Ġji2Ġ
end Ġ
1901 Ġnian2Ġ
gong1Ġ ji1Ġ
Ġji4Ġ hua4ĠdeĠ
fa1Ġ jue2Ġ
Ġqi2Ġ xia4ĠdeĠ
bo2Ġ la1Ġ
gui4Ġ zu2
mei4Ġ mei4Ġ
o ĠĠĠ
Ġ you3
Ġ gei3
Ġ 1999
zong3 Ġsi1Ġling4Ġ
luo4 Ġshi2Ġ
xie1 Ġer3Ġ
ban3 Ġquan2Ġ
Ġzhong1Ġ zheng4Ġ
zhu3Ġ dao3Ġ
nan2Ġ bu4ĠdeĠ
Ġbei4Ġ bu3Ġ
guan1Ġ guang1Ġ
yi2Ġ mian4Ġ
Ġdan4Ġ mei2Ġyou3Ġ
tiao2Ġ jie2Ġ
zhen1Ġ cha2Ġ
Ġsui2 Ġji2Ġ
Ġsan1 Ġyue4Ġ
tong3Ġzhi4Ġ zhe3Ġ
fan2Ġ mang2
Ġhei1Ġ long2Ġjiang1Ġ
5 Ġgong1Ġli3Ġ
ĠĠĠ dao4
ku4 Ġer3Ġ
34 Ġ
man Ġ
Ġyi3Ġ ji2Ġzai4Ġ
zhu3Ġ liu2Ġ
lian2Ġ sai4ĠdeĠ
ti3Ġ yan4Ġ
Ġxia4Ġ wu3Ġ
yan3Ġ zou4Ġ
tong2Ġ meng2Ġ
tiao2Ġ kuan3Ġ
lun4Ġ tan2Ġ
ĠG Ġ
zuo4 Ġzai4Ġ
ping2 Ġren2Ġ
qian1 Ġming2Ġ
geng4 Ġgao1Ġ
qiu1 Ġji4Ġ
ye2 Ġer3Ġ
dou3 Ġ
Ġshi4Ġ xin1Ġ
Ġqi2 Ġzhi4Ġ
hua4Ġ ru4Ġ
mi4Ġ su1Ġli3Ġ
kang4Ġri4Ġ zhan4Ġzheng1Ġ
Ġhe2Ġdao4 Ġquan2Ġzhang3Ġ
Ġ lian4Ġ
ĠĠĠ zheng1Ġyi4Ġ
te4 Ġren2Ġ
Ġbu4Ġ duan4
Ġyi1Ġ ci4
Ġyi1Ġ er3Ġ
Ġdao4 Ġji2Ġ
Ġxi1Ġ yin3
feng1Ġ suo3Ġ
Ġye3Ġ mei2Ġyou3Ġ
dong1Ġbu4Ġ shi2Ġqu1Ġ
Ġ nuo4
Ġ hou4Ġyu2Ġ
yun4 Ġzai4Ġ
tuo1 Ġer3Ġ
gong1Ġ ye4Ġ
Ġgong1Ġ jiao1Ġ
Ġcheng2Ġ zhang3Ġ
Ġchu1 Ġnian2Ġ
Ġjun1 Ġren2Ġ
dong1Ġ qu1Ġ
li2Ġ ba1Ġnen4
luo4Ġ te4Ġ
Ġma3Ġ la1Ġ
Ġtai4Ġ yang2Ġgong1Ġ
ke4 Ġli3Ġsi1Ġ
si4 Ġren2Ġ
rong2 ĠdeĠ
guang3 Ġyi4Ġ
wan4 Ġren2Ġ
xuan1 Ġshi4Ġ
ter Ġ
di4Ġ guo2Ġ
Ġyu2Ġ 2014
bei3Ġ hai3Ġdao4Ġ
xiang1Ġgang3 ĠdeĠ
la1Ġsi1Ġ jia1Ġ
Ġ jian1
xiang4 Ġji1Ġ
duo1 Ġsi1Ġ
wan1 Ġqu1Ġ
liu4 Ġshi4Ġ
niu2 Ġsi1Ġ
Ġda4Ġ lian2Ġmeng2Ġ
jiao4Ġ di1Ġ
dian4Ġ tai2
bao1Ġkuo4 Ġyi3Ġxia4Ġ
Ġnei4Ġ rong2Ġ
gong1Ġyuan2Ġ qian2Ġ
zhui1Ġsu4 Ġdao4Ġ
Ġ feng4
Ġ ya3Ġ
sheng1 Ġhe2Ġ
zhuang1 ĠdeĠ
yuan3 ĠdeĠ
chun1 Ġji4Ġ
Ġyou3Ġ xu3Ġduo1Ġ
Ġyi1Ġ qie4
jian1Ġ cha2Ġ
yun4Ġ ying2
lv4Ġ hua4Ġ
zhuan1Ġ yong4Ġ
Ġdang1Ġ di4ĠdeĠ
guo2Ġwu4Ġ yuan4Ġ
ai1Ġna4Ġ sheng3Ġ
Ġ lei4
yu3 Ġzhong1Ġguo2Ġ
te4 Ġgong1Ġ
fei1 ĠdeĠ
liang4 Ġji2Ġ
dang3 Ġzai4Ġ
ben3Ġ ke1Ġ
dong1Ġ ce4Ġ
guan3Ġ xia2
shang1Ġ wu4Ġ
dou1Ġ mei2Ġyou3Ġ
zhun3Ġ que4Ġ
8 Ġren2Ġ
8 Ġge4Ġ
Ġ tian2
Ġ ISTAT
Ġ ESTĠ
qi1 Ġyue4Ġ
ar Ġ
san3 Ġ
na4Ġ xie1
guan3Ġ kong4
zhong1Ġguo2Ġ da4Ġlu4ĠdeĠ
ĠĠĠ ri4Ġ
fu4 Ġyu2Ġ
ze2 Ġyi3Ġ
ĠdeĠ hou4Ġ
Ġxi1Ġ er3
ju4Ġ feng1
nan2Ġ mei3Ġzhou1Ġ
Ġmo4 Ġxi1Ġ
zhong4Ġyi4Ġ yuan4Ġ
Ġshi4Ġyi1Ġke1 Ġwei2Ġrao4
Ġ 1998
Ġ EDT
ĠĠĠ guo2Ġ
a1 Ġbu4Ġ
she4 Ġji2Ġ
ren4 Ġzhi1Ġ
sheng3 Ġli4Ġ
fan3 Ġji1Ġ
Ġzhong1Ġ yuan2Ġ
guan1Ġ zhong4
guan1Ġ zheng4Ġ
Ġping2Ġ jie4Ġ
feng1Ġ fu4ĠdeĠ
ke3Ġyi3Ġ tong1Ġguo4Ġ
Ġshi4Ġyi1Ġ zuo4
Ġda4 Ġzhi4Ġ
shou1Ġshi4Ġ lv4Ġ
jie4Ġquan2Ġguo2Ġzheng4Ġxie2Ġ wei3Ġyuan2Ġ
ping1Ġ pang1
Ġ xi3Ġ
li3 Ġshi2Ġ
hua2 ĠdeĠ
chuan2 Ġyuan2Ġ
zhan3 Ġchu1Ġ
ying2 Ġli4Ġ
biao1 Ġshi4Ġ
you1 Ġhui4Ġ
Ġli4Ġ xue2Ġ
yu4Ġ wei2Ġ
lian2Ġ zai3Ġ
Ġbing4Ġ huo4Ġde2Ġ
Ġju4Ġ ben3Ġ
shu1Ġ niu3Ġ
tou2Ġ ru4
xi2Ġ ji1
heng2Ġ xing1
dan4Ġ shui3
bi3Ġsai4 ĠdeĠ
jue2Ġdui4Ġ xing1Ġdeng3Ġwei4Ġ
ĠĠĠ yu4Ġ
li3 Ġren2Ġ
de2 Ġyi4Ġzhi4Ġ
zui4 Ġchu1ĠdeĠ
xin4 Ġhao4
gou1 Ġtong1Ġ
yuan1 Ġ
1921 Ġnian2Ġ
Ġshi4Ġ xia4Ġ
Ġhe2Ġ yu3Ġ
Ġyu2Ġ 2022
ping2Ġ heng2Ġ
Ġbei4Ġ jing3
duo1Ġ xiang4Ġ
jie1Ġ guan3Ġ
Ġ5Ġ diao4Ġkuai4Ġyi1Ġxiao3Ġshi2Ġ
Ġji2Ġbei3Ġmei3Ġ dong1Ġbu4Ġshi2Ġqu1Ġ
Ġtai4Ġyang2Ġgong1Ġ zhuan4ĠdeĠxiao3Ġxing2Ġxing1Ġ
Ġshi4Ġyi1Ġke1Ġwei2Ġrao4 Ġtai4Ġyang2Ġgong1Ġzhuan4ĠdeĠxiao3Ġxing2Ġxing1Ġ
ĠEDT Ġ
Ġ bei1Ġ
ĠĠĠ wen2Ġhua4Ġ
ĠĠĠ 2005Ġnian2Ġ
ao4 Ġke4Ġ
jian4 ĠdeĠ
han2 Ġyi4Ġ
jia4 ĠdeĠ
ju4Ġ ben3Ġ
Ġgao1Ġ su4
da3Ġ suan4
Ġ16 Ġ
Ġda4Ġsha4 Ġ
xiao3Ġxing2Ġxing1ĠdeĠ jue2Ġdui4Ġxing1Ġdeng3Ġwei4Ġ
Ġ ying4Ġ
Ġ dao3Ġyan3Ġ
ling3 Ġdui4Ġ
pai1 Ġshe4ĠdeĠ
Ġzai4Ġ li4Ġ
Ġzhong1Ġ li4Ġ
Ġgong1Ġ she4Ġ
Ġyi1Ġ qie4Ġ
Ġzhi1 Ġchu1Ġ
sheng1Ġ cheng1Ġ
Ġzuo4Ġ qu3Ġ
ru4Ġ kou3
Ġshi4Ġwu4Ġ suo3Ġ
fa1Ġbiao3 ĠleĠ
ĠĠĠ ge4Ġ
fu2 Ġji2Ġ
Ġshi4Ġ zui4Ġ
Ġxing2Ġ xing1Ġ
Ġdan4 Ġbei4Ġ
zu2Ġ lian2Ġ
wu2Ġxian4Ġ dian4Ġ
ĠĠĠzhe4Ġke1Ġ xiao3Ġxing2Ġxing1ĠdeĠjue2Ġdui4Ġxing1Ġdeng3Ġwei4Ġ
Ġ sai4
Ġ zuo3
Ġ dang4Ġ
ĠĠĠ huang2Ġ
ĠĠĠ 5Ġ
zhi3 Ġchu1
miao4 Ġyu3Ġ
Ġtong2 Ġnian2Ġ12Ġyue4Ġ
ĠdeĠyi1Ġ xiang4Ġ
wu1Ġ ran3Ġ
bi3Ġli4Ġ niu2Ġsi1Ġ
ne4Ġ sheng3Ġ
sheng1Ġchan3 ĠdeĠ
guo4 Ġhou4Ġ
yao4 Ġzai4Ġ
Ġxi1Ġ ce4Ġ
ke3Ġ yong4Ġ
Ġxia4Ġ ling4Ġ
ĠdeĠyi1Ġ tiao2Ġ
tian1Ġwen2Ġ xue2Ġjia1Ġ
ĠN Ġ
zu3Ġcheng2 Ġbu4Ġfen4Ġ
Ġ chao1Ġji2Ġ
ĠĠĠ guan1Ġyu2Ġ
ĠĠĠ zao3Ġqi1Ġ
xi1 Ġxian4Ġ
lai2 Ġer3Ġ
zhong3 ĠdeĠ
jiu3 Ġshi2Ġ
lu4Ġ duan4Ġ
Ġfu4Ġ mu3Ġ
zong3Ġ ling3Ġshi4Ġ
yan2Ġjiu1 ĠdeĠ
zhuang4Ġ tai4
Ġyin1Ġwei4Ġ ta1Ġ
Ġhou4Ġlai2 Ġzai4Ġ
1 Ġnian2Ġ
3 Ġming2Ġ
Ġ tong3Ġ
liang3 Ġda4Ġ
men ĠdeĠ
Ġwei4Ġ guo2Ġ
Ġyi1Ġ xiang4Ġ
Ġyuan2Ġ lai2Ġ
xue2Ġ ke1Ġ
qu1Ġ fu4Ġze2Ġguan3Ġxia2Ġ
Ġjia1Ġ qiang2Ġ
shou3Ġ xian1Ġ
ci3Ġ tian1Ġti3Ġ
sheng4Ġ jing1Ġ
liang3Ġ ce4Ġ
ke3Ġneng2 ĠdeĠ
Ġdi4Ġshi2Ġ san1Ġ
Ġao4Ġ men2Ġ
qian2 Ġxi1Ġ
ni2 Ġxi1Ġya4
cha2 Ġde2Ġ
lei1 Ġsi1Ġ
se ĠĠĠ
Ġzai4Ġ you3Ġ
Ġzai4Ġ dang1Ġshi2Ġ
Ġshi2Ġ liu4Ġnian2Ġ
shang4Ġ ying4ĠdeĠ
qian2Ġ ting3Ġ
qi1Ġ jian1ĠdeĠ
dian4Ġ liu2Ġ
qu3Ġ jue2Ġyu2Ġ
hun4Ġ luan4Ġ
Ġ sang1Ġ
Ġ shan1Ġxi1Ġ
yong4 Ġdi4Ġ
sheng4 Ġyu2Ġ
man3 Ġyi4Ġ
geng1 Ġming2Ġ
man2 Ġ
1905 Ġnian2Ġ
ju4Ġ yuan4Ġ
ben3Ġ tu3
shen1Ġ ru4Ġ
Ġzi4Ġ ci3Ġ
zhuan1Ġ ji2ĠdeĠ
hen3Ġ shao3Ġ
min2Ġzu2Ġ zhu3Ġyi4Ġ
Ġãĥ³ Ġ
Ġ kan1Ġ
Ġ kong4Ġzhi4Ġ
Ġ guo1Ġ
ng ĠĠĠ
ĠĠĠ yin1Ġwei4Ġ
ci3 Ġdi4Ġ
ke1 Ġyi1Ġsheng1Ġ
wei1 Ġli4Ġ
hao3 Ġlai2Ġ
sang4 Ġshi1Ġ
he2Ġ liu2Ġ
shi2Ġ yi1Ġ
Ġshi2Ġ bei4Ġ
Ġyi3Ġ wai4ĠdeĠ
Ġli3Ġ xue2Ġ
te4Ġ ding4
zhen4Ġ wang2Ġ
Ġshe4Ġ shi1
she4Ġ jiao1Ġ
Ġ 2024Ġnian2Ġ
ben3 Ġdi4Ġqu1Ġ
quan2 Ġshi4Ġ
zi Ġli3Ġ
fu3 Ġzhi1Ġfu3Ġ
jiang3 Ġxue2Ġ
wan3 Ġqi1Ġ
Ġwei4Ġ xin1Ġ
Ġzai4Ġ ren2Ġ
Ġda4Ġ duo1
Ġchu1 Ġbu4Ġ
shu4Ġ ju4
lai2Ġ kan4Ġ
ti2Ġ cai2Ġ
ĠdeĠzuo4Ġ yong4Ġ
Ġ pin2Ġdao4Ġ
ĠĠĠ dang1
zong1 ĠdeĠ
Ġhe2Ġ jin1Ġ
Ġde2 Ġhe2Ġ
tu2Ġ jing4Ġ
you4Ġ cheng1Ġ
qian1Ġ yin3Ġ
pei2Ġ chang2Ġ
Ġji2Ġtuan2 Ġjun1Ġ
Ġ bai4
Ġ huai2Ġ
ĠĠĠ jian4Ġ
nv3 Ġer2
Ġnian2 Ġshi4Ġ
Ġzai4Ġ ta1
Ġyuan2Ġ qu1Ġ
Ġqi2Ġ zhong1ĠdeĠ
zong3Ġ e2Ġwei4Ġ
Ġnan2Ġ jing1
qiang2Ġ hua4Ġ
1 Ġhao4Ġ
Ġ tiao2
Ġ tan4Ġ
Ġ gui4Ġzhou1Ġ
Ġ 1983Ġnian2Ġ
fa3 Ġer3Ġ
fen1 Ġqi2Ġ
ti2 Ġwei4Ġ
ba1 Ġming2Ġ
pa4 Ġer3Ġ
Ġwei4Ġ si1Ġ
Ġzhong1Ġ wen2
Ġji2Ġ er3
Ġqi2 Ġyu3Ġ
Ġshe4 Ġzai4Ġ
jie2Ġ lun4Ġ
feng1Ġ xian3
yi2Ġ dong4
liang3Ġ tiao2Ġ
mo2Ġ ni3
tiao2Ġ mu4Ġ
Ġsuo3Ġ you3ĠdeĠ
Ġfu2Ġ lang3Ġ
Ġsuo1Ġ xie3Ġ
ĠSAO ĠĠĠ
c ĠĠĠ
Ġ lu3
Ġ xue1
mei3 Ġzhong1Ġbu4Ġ
ben3 Ġzhi4Ġ
shui3 Ġzhong1Ġ
cha1 Ġju4Ġ
son Ġ
Ġshi4Ġ yi3
bu4Ġ fen4
Ġyu2Ġ 2017
Ġjian4 Ġzhong1Ġ
Ġzhi1Ġ qian2ĠdeĠ
zhu3Ġ jue2
Ġbei4Ġ ren4Ġwei2Ġ
Ġju4Ġ ti3Ġ
bian4Ġ huan4Ġ
xiao1Ġ shou4
li3Ġshi4Ġ zhang3Ġ
gong4Ġhe2Ġ dang3
jiao1Ġyi4Ġ suo3Ġ
jie4Ġquan2Ġguo2Ġ ren2Ġmin2Ġdai4Ġbiao3Ġda4Ġhui4Ġ
Ġa1Ġer3Ġ bei1Ġsi1Ġ
fei1Ġxing2 Ġyuan2Ġ
Ġ 1986Ġnian2Ġ
te4 Ġsi1Ġ
Ġwei4Ġ mei3Ġguo2Ġ
Ġyou3Ġ xiao4
Ġcheng2Ġ nuo4Ġ
Ġyi1Ġ yang4
Ġge4 Ġge4Ġ
Ġbing4Ġ wu2Ġ
Ġshe4Ġ xian2Ġ
xi2Ġ guan4Ġ
Ġwan4 Ġping2Ġfang1Ġmi3Ġ
ĠdeĠgong1Ġ si1Ġ
duan3Ġ zan4Ġ
chang4Ġpian4 Ġgong1Ġsi1Ġ
1 Ġri4
ti3 Ġxian4Ġ
dang3 Ġbu4Ġ
sui2 Ġzhi1Ġ
fou3 Ġ
ĠdeĠ ji2Ġ
Ġyi4Ġ mei3Ġguo2Ġren2Ġ
Ġjun1 Ġyi3Ġ
chu3Ġ jue2Ġ
tui1Ġ guang3
guang3Ġbo1 Ġgong1Ġsi1Ġ
ĠÐ¾ Ġ
Ġ ling2
Ġ tu1Ġ
si1 Ġdi4Ġli4Ġ
qing1 Ġdai4Ġ
mu3 Ġsi1Ġte4Ġ
Ġshi2Ġ shi1
Ġxi1Ġ fa3Ġ
yu4Ġ ce4Ġ
Ġdang1 Ġri4Ġ
jie3Ġ jue2
ĠdeĠyi1Ġ jia1Ġ
zhuan3Ġ yi2Ġdao4Ġ
Ġci3Ġ wai4
di3Ġ ceng2Ġshui3Ġyu4Ġ
lang3Ġ pu3
mu4Ġsi1Ġ lin2
Ġ cu4
Ġ zeng1Ġjia1Ġ
en ĠĠĠ
jian4 Ġyu2Ġ
dui4 Ġli4Ġ
nan2 Ġxi1Ġ
che1 Ġshi4Ġ
00 Ġping2Ġfang1Ġqian1Ġmi3Ġ
qing4 Ġxia4Ġ
ba4 Ġgong1Ġ
zui3 Ġ
qing1Ġ zhen1Ġ
Ġta1Ġmen Ġshi4Ġ
Ġchang2Ġ qi1Ġ
Ġ hang2Ġ
xing2 Ġren2Ġ
jun1 Ġzhu3Ġ
dai4 Ġdao4Ġ
xia4 Ġshi4Ġ
cai2 ĠdeĠ
shao3 ĠdeĠ
Ġsi1Ġ da4Ġ
ren4Ġ zheng4Ġ
Ġzhou1 ĠdeĠyi2Ġge4Ġshi4Ġzhen4Ġ
dan4Ġ shui3Ġ
yin4Ġdi4Ġ an1Ġna4
Ġ 80
Ġ gei3Ġ
Ġ rui4Ġshi4Ġ
Ġ xiong1Ġya2Ġli4Ġ
cheng2 Ġwei4Ġ
yuan2 Ġren2Ġmin2Ġbi4Ġ
jian4 Ġdui4Ġ
qu1 Ġzhong1Ġ
fu1 Ġsi1Ġ
Ġzai4Ġ dui4Ġ
Ġbu4Ġ zhi1Ġ
Ġyu2Ġ 2023
Ġyi4Ġ bei4Ġ
Ġer3 Ġbei4Ġ
zhan4Ġ shu4Ġ
Ġbing4 Ġcheng2Ġwei2Ġ
zi4Ġ shen1Ġ
shu4Ġ bai3
shi1Ġ ti3Ġ
qing1Ġ dao3Ġ
bo2Ġ ge2Ġ
zhong4Ġyao4Ġ xing4Ġ
1 Ġjia1Ġ
7 Ġge4Ġ
Ġ dian3Ġ
Ġ ming4Ġ
Ġ xĠ
ĠĠĠ Mo
zhang3 Ġji2Ġ
Ġshi4Ġ yin4Ġdu4Ġ
Ġhe2Ġ chang4Ġ
Ġguo2Ġ nei4
chuan2Ġ mei2
dou1Ġ ke3Ġyi3Ġ
zhuan3Ġ bian4Ġ
xun2Ġ fu3Ġ
Ġceng2Ġ jing1
Ġta1Ġceng2 Ġdai4Ġbiao3
Ġshang4Ġhai3 Ġshi4Ġ
jiang4Ġyu3Ġ liang4Ġ
Ġ kai1
yu3 Ġwei4Ġ
xin1 Ġyi1Ġ
yun4 Ġxing2
Ġshi2Ġ san1Ġnian2Ġ
Ġdi4Ġ 2
fu4Ġ xing1Ġ
Ġke4 Ġjia1Ġ
yu4Ġ suan4Ġ
shou3Ġ ling3Ġ
ye3Ġ ke3Ġyi3Ġ
liang2Ġ hao3ĠdeĠ
Ġtun2 Ġqi2Ġ
Z Ġ
yi2 ĠdeĠ
30 Ġfen1Ġ
sou1 Ġsuo3Ġ
ji1Ġ du1Ġjiao4Ġ
zui4Ġ hou4ĠdeĠ
jiao1Ġ gei3
sheng4Ġ mu3Ġ
kao3Ġ gu3
Ġmu3Ġ qin1Ġ
ji4Ġsuan4 Ġji1Ġ
Ġ bu2Ġshi4Ġ
ji2 ĠĠĠ
yue4 ĠĠĠ
ce4 Ġwei4Ġ
jiang3 Ġli4Ġ
zhui1 Ġji1Ġ
rou4 Ġshi2Ġxing4Ġ
Ġyuan2Ġ zi4
yan2Ġ an4Ġ
fen1Ġ bu4Ġzai4Ġ
Ġzheng4Ġ ju4Ġ
Ġzuo4Ġ ye4Ġ
ĠdeĠyi1Ġ ci4Ġ
ĠdeĠshi4Ġ qing2Ġ
duan3Ġ pian4Ġ
ĠI Ġ
Ġyi3Ġji2 Ġzhong1Ġguo2Ġda4Ġlu4ĠdeĠ
mei3Ġzhong1Ġbu4Ġ shi2Ġqu1Ġ
Ġ 1994
Ġ CST
Ġ ya1Ġ
Ġ lian2Ġhe2Ġguo2Ġ
ĠĠĠ ke1Ġ
ze2 Ġer3Ġsheng3Ġ
ba1 Ġyue4Ġ
qu3 ĠleĠ
ha1 Ġli4Ġ
Ġdao4 Ġta1Ġ
Ġer2Ġ wen2Ġming2Ġ
shou3Ġ ren4Ġ
tai2Ġ zhong1Ġshi4Ġ
jin1Ġ xiang4Ġ
yue1Ġ se4Ġfu1Ġ
zao4Ġ chuan2Ġ
ĠdeĠji1Ġ chu3Ġ
Ġ re
Ġ 75
Ġ CDT
Ġ 1987Ġnian2Ġ
mei3 Ġli4Ġ
qiang2 Ġda4Ġ
la ĠĠĠ
2019 Ġguan1Ġzhuang4Ġbing4Ġdu2
chui1 Ġ
Ġshi2Ġ wu3Ġnian2Ġ
ji1Ġ chang3
Ġjin4 Ġxing2ĠdeĠ
tong1Ġ xin4
nv3Ġ wang2Ġ
Ġshi4Ġyi1Ġ jia1Ġ
Ġcong2Ġ ci3Ġ
ou1Ġ meng2
Ġ6Ġ diao4Ġkuai4Ġyi1Ġxiao3Ġshi2Ġ
Ġji2Ġbei3Ġ mei3Ġzhong1Ġbu4Ġshi2Ġqu1Ġ
ĠCST Ġ
ĠCDT Ġ
Ġ min3
dui4 Ġshi4Ġ
mi3 Ġer3
zuan4 Ġshi2Ġ
Ġshi4Ġ yi2Ġ
Ġdi4Ġ ming2Ġ
fen1Ġ xiao4Ġ
liu2Ġ chuan2Ġ
xuan3Ġ shou3
tuo1Ġ ma3Ġsi1Ġ
Ġlian2Ġ sai4Ġ
Ġshi3Ġ mi4Ġsi1Ġ
yin4Ġ du4ĠdeĠ
Ġ14 Ġ
Ġa1 Ġli3Ġ
Ġdong1 Ġxi1Ġ
Ġ lei1Ġ
Ġ 1958Ġnian2Ġ
ji1 Ġshi2Ġ
mei2 Ġer3Ġ
fu1 Ġsi1Ġji1Ġ
zhuan1 Ġyuan2Ġ
Ġwei4Ġ jing1Ġ
Ġcheng2Ġ ke4
qu1Ġ zhu2Ġjian4Ġ
zhe4Ġ shou3Ġ
Ġqiu2Ġ bi3Ġsai4Ġ
liang3Ġ zhong3
zhe2Ġxue2Ġ jia1Ġ
Ġqi1 Ġxi1Ġ
fei2Ġte4Ġ lie4Ġ
Ġ duan4
Ġ Ã©Ġ
jiao4 Ġyou3Ġ
jiao1 Ġfu4Ġ
12 Ġnian2Ġ
1917 Ġnian2Ġ
li4Ġ shi3
dong1Ġ ya4Ġ
Ġshang4Ġ shu4Ġ
zong3Ġ ju2Ġ
wei3Ġ nei4Ġrui4Ġ
bing1Ġ tuan2Ġ
Ġsu2 Ġcheng1Ġ
ĠĠĠ 12Ġyue4Ġ
ĠĠĠ ying1Ġguo2Ġ
shi2 Ġshi4Ġji4Ġ
que4 Ġli4Ġ
pei4 Ġyue4Ġ
Ġwei4Ġ cheng2Ġ
qu1Ġ dong4Ġ
ge2Ġ lei2Ġ
xing4Ġ bie2
chang2Ġ an1Ġ
bo2Ġ gen3Ġdi4Ġ
wang3Ġ lai2Ġ
zu3Ġ xian1Ġ
Ġyin1Ġwei4Ġ ta1
Ġwen2Ġ zhang1Ġ
ran2Ġ liao4Ġ
Ġao4 Ġsi1Ġ
hu2Ġbei3Ġ sheng3Ġ
yan2Ġhai3Ġ sheng3Ġfen4Ġ
Ġ 1996
Ġ jiang4Ġ
ĠĠĠ mu4Ġ
a1 Ġsi1Ġ
en1 Ġsi1Ġ
le Ġbu4Ġ
di2 Ġsi1Ġ
tui1 Ġjin4
diao1 Ġxiang4Ġ
zhai4 Ġwu4Ġ
Ġren2Ġ sheng1Ġ
Ġqi2Ġ fu4Ġ
gao1Ġ xiao4Ġ
Ġhuo4Ġ wu4Ġ
bo2Ġ lin2
chan3Ġ liang4Ġ
cai2Ġ neng2
bai3Ġ xing4Ġ
Ġdi4Ġer4Ġ ci4
Ġshi4Ġfou3 Ġ
Ġ gui3Ġ
Ġ gan4Ġ
ĠĠĠ gai1Ġdi4Ġ
lu4 Ġhe2Ġ
xun4 Ġhao4Ġ
Ġnian2Ġ she4Ġli4Ġ
Ġdi4Ġ 3Ġ
Ġgong1Ġ dian4Ġ
Ġyi1Ġ lu4Ġ
Ġtong2 Ġnian2Ġ10Ġyue4Ġ
ling2Ġ gan3Ġ
zhuan1Ġ qu1Ġ
Ġyou4Ġ cheng1
chong1Ġ sheng2
zeng1Ġ qiang2
a1Ġer3Ġ ba1Ġ
cao3Ġ an4Ġ
Ġshi4Ġjian4 ĠdeĠ
Ġ jing3
Ġ 1945Ġnian2Ġ
ĠĠĠ Me
shu4 Ġge4Ġ
ping2 Ġxian4Ġ
bao4 Ġfu4Ġ
jiao3 ĠdeĠ
hen3 Ġnan2Ġ
Ã¡ Ġ
yi4Ġ qi3Ġ
Ġyou3Ġ leĠ
Ġgong1Ġ li4Ġ
sheng1Ġ ren4Ġ
fa1Ġ sheng1Ġyu2Ġ
zhi2Ġ jing4Ġ
Ġzhou1Ġ bian1Ġ
mo2Ġ tuo1Ġ
Ġshou3Ġ xian1Ġ
Ġli2 Ġmi3Ġ
Ġ ding1
Ġ ying2Ġde2Ġ
ĠĠĠ 2023Ġnian2Ġ
zhang1 Ġshi4Ġ
huang2 Ġshi4Ġ
huan4 Ġyou3Ġ
sang4 Ġsheng1Ġ
ĠdeĠ wei4Ġ
Ġyu3Ġ yuan2Ġ
Ġer3 Ġxi1Ġ
zhan4Ġ lve4
xiang1Ġ xin4Ġ
dong4Ġ tai4Ġ
Ġsheng1Ġ ming4Ġ
zheng4Ġzhi4Ġ ju2Ġ
qu1ĠdeĠ fu4Ġze2Ġguan3Ġxia2Ġ
Ġjin3Ġ ci4Ġyu2Ġ
zheng3Ġ ti3
ya4Ġmei3Ġ ni2Ġya4
Ġ xiang1
Ġ zhuo2
Ġ yin4Ġdu4
Ġ zhen1Ġdui4Ġ
ĠĠĠ te4Ġzheng1Ġ
xuan3 ĠdeĠ
kan4 Ġjian4Ġ
gui3 Ġdian4Ġ
di4Ġ fang1Ġ
Ġdi4Ġ er4Ġshi2Ġ
Ġyi3 Ġzhi1Ġ
wei2Ġ ji1Ġbai3Ġ
jing1Ġ du1Ġ
ben3Ġ zhan4Ġ
Ġzhan4Ġ tai2Ġ
huo4Ġ zhe3Ġ
Ġran2Ġ hou4Ġzai4Ġ
an1Ġhui1Ġ sheng3Ġ
Ġ 1997
Ġ fu1Ġ
Ġ hui4Ġyi4Ġ
Ġ geng1Ġ
ĠĠĠ tang2Ġ
xiao3 Ġyu2Ġ
mo4 ĠdeĠ
du2 Ġzi4Ġ
han4 Ġguo2Ġ
Ġshi4Ġ qi2Ġ
cheng2Ġ wei2
Ġzhi4Ġ jin1
Ġji2Ġ ke3Ġ
hua4Ġ fen1Ġ
fu2Ġ wu4ĠdeĠ
si4Ġ chuan1
bi4Ġ lu3
guang3Ġ dong1
zhu3Ġjiao4Ġ lian4Ġ
Ġ hou4Ġzai4Ġ
qu1 Ġxian4Ġ
ying1 Ġer2Ġ
dian3 Ġxing2Ġ
hu4 Ġshi4Ġ
ban1 Ġdao4Ġ
pi1 Ġfu4Ġ
Ġshi2Ġ si4Ġnian2Ġ
Ġli4Ġ yu2Ġ
yan2Ġ xu4
Ġzhe4Ġ xiang4Ġ
xiao3Ġ jie3Ġ
sha1Ġ tian2Ġ
pi2Ġ fu1Ġ
Ġ Le
yi4 ĠdeĠshi4Ġ
xie4 Ġer3Ġ
kui1 Ġ
Ġshi4Ġ yong4Ġyu2Ġ
Ġda4Ġ zheng4Ġ
te4Ġ ding4ĠdeĠ
xing4Ġ ge2Ġ
feng1Ġ bao4
mei3Ġguo2Ġ zong3Ġtong3Ġ
guang1Ġ pu3Ġ
ting1Ġ zhang3Ġ
kuang4Ġ wu4Ġ
wu4Ġli3Ġ xue2Ġjia1Ġ
Ġ13 Ġ
sheng3Ġdao4Ġ tai2Ġ
ji1 Ġli4Ġ
jin1 Ġsi1Ġ
gu3 Ġsi1Ġ
wei3 ĠdeĠ
pu3 Ġer3Ġ
di4Ġ er4
Ġji2Ġ zhong1Ġzai4Ġ
Ġchu1Ġ kou3
lai2Ġ yuan2Ġyu2Ġ
guan3Ġ li3ĠdeĠ
bao1Ġkuo4 ĠleĠ
huo2Ġ xing4Ġ
Ġgao1Ġ xiong2
jun1Ġ guan1Ġ
tie3Ġ lu4ĠdeĠ
Ġbi3Ġ sai4
Ġbu4Ġfen4 ĠdeĠ
ĠdeĠyi4Ġ siĠ
ying3Ġxiang3 ĠdeĠ
Ġ In
Ġ biao1Ġzhun3Ġ
Ġ 1920Ġnian2Ġ
an1 ĠdeĠ
ĠĠĠ 2004Ġnian2Ġ
zuo4 Ġyi3Ġ
qian2 Ġwei4Ġ
jin1 Ġri4
lang3 Ġpu3Ġ
po1 Ġer3Ġ
Ġshi4Ġ fang4Ġ
Ġhe2Ġ kou3Ġ
Ġli4Ġ chang3Ġ
Ġyi1Ġ kai1Ġshi3Ġ
yong4Ġ leĠ
Ġyou2Ġ tai4Ġren2Ġ
xin4Ġ tu2Ġ
en1Ġ lai2Ġ
fa1Ġxian4 Ġyu2Ġ
ge1Ġlun2Ġ bi3Ġya4
Ġ1950 Ġnian2Ġ
Ġ shi2Ġnian2Ġ
Ġ 1982Ġnian2Ġ
ĠĠĠ ying1Ġ
le Ġyuan2Ġ
ma3 Ġqi2Ġ
liang2 ĠdeĠ
gao4 Ġzhi1Ġ
Î± Ġ
1904 Ġnian2Ġ
Ġda4Ġ zhan4Ġ
fa1Ġ dong4
san1Ġ jiao3Ġ
Ġguo2Ġjia1 Ġgong1Ġyuan2Ġ
hu2Ġnan2Ġ sheng3Ġ
ĠdeĠfu4Ġ qin1Ġ
lv3Ġke4Ġ tie3Ġdao4Ġ
a1Ġgen1Ġ ting2Ġ
Ġ yu2
Ġ shen1
Ġ tu3
Ġ 1992
sheng1 Ġbu4Ġ
she4 Ġyu2Ġ
tong2 Ġxue2Ġ
bo1 Ġyin1Ġ
luo4 Ġhou4Ġ
lv3 Ġyou2
1910 Ġnian2Ġ
Ġdi4Ġ xing2Ġ
Ġren2Ġ shou4Ġshang1Ġ
Ġer2 Ġyuan2Ġ
zhe4Ġ yang4Ġ
tian1Ġ huang2
xiao4Ġ guo3
bian4Ġ hua4
mian3Ġ fei4
pei2Ġ yang3Ġ
wan3Ġ jian1Ġ
Ġ xiong2
Ġ zha1
Ġ xie2Ġzhu4Ġ
ĠĠĠ jiao4Ġyu4Ġ
ming2 Ġzai4Ġ
guang1 ĠdeĠ
zeng1 Ġzhi4Ġ
Ġshi2Ġ xing2
Ġji2Ġ ju4Ġ
Ġji4Ġ hou4Ġ
Ġsi1Ġ fa3
Ġer2 Ġyi3Ġ
Ġjian4Ġ dui4
Ġjun1Ġ zhu3Ġ
zhang3Ġ wo4
ke1Ġ huan4Ġ
na4Ġ yang4Ġ
xiang3Ġ ying4Ġ
xie2Ġ hui4
Ġzui4Ġ zhong1Ġzai4Ġ
diao1Ġ su4Ġ
Ġ pan4Ġ
Ġ XĠ
ĠĠĠ pu3Ġ
dang1 Ġri4Ġ
na4 Ġxi1Ġ
ha1 Ġde2Ġ
yu3Ġ yan2
xi1Ġ zang4Ġ
Ġbei4Ġ ke4Ġ
Ġdan4 Ġwei4Ġ
zui4Ġ di1Ġ
chang2Ġ gui1Ġ
Ġxian4ĠdeĠ fei1Ġjian4Ġzhi4Ġdi4Ġqu1Ġ
ju3Ġxing2Ġ leĠ
Ġ song1
Ġ 90
Ġ 1993
Ġ yi1Ġnian2Ġ
hang2 Ġxing2Ġ
ly ĠĠĠ
Ġda4Ġ da4Ġ
fu4Ġ nv3Ġ
fa1Ġ hui1Ġ
Ġzhan4Ġ ling3
huo3Ġ zai1Ġ
huan4Ġ xiang3Ġ
Ġshi4Ġwei4Ġyu2Ġ wu1Ġke4Ġlan2Ġ
Ġchao2Ġ xian1
ĠĠĠ jin4Ġ
Ġshi2Ġ jian4Ġ
ji4Ġ zhe3Ġ
Ġguo2Ġ zhong1Ġ
ren4Ġ ke3Ġ
jiao4Ġ tu2Ġ
zhu4Ġ ming2
Ġjun1Ġ dui4
zhi3Ġ neng2
deng3Ġ dai4Ġ
bao3Ġ an1Ġ
zhong3Ġ zu2
gu3Ġ dong1Ġ
yue1Ġ 1
er4Ġ bai3Ġ
Ġgai1Ġ zhuang1Ġ
chen2Ġ mo4Ġ
Ġnv3Ġ zi3Ġ
jia1Ġru4 Ġzhong1Ġguo2Ġgong4Ġchan3Ġdang3Ġ
Ġ shan1
Ġ diao4
Ġ ya4Ġzhou1Ġ
ĠĠĠ mei3Ġ
zhong1 Ġnian2Ġ
guo2 Ġwei4Ġ
qian1 Ġzheng4Ġ
shou1 Ġfu4Ġ
geng4 Ġda4Ġ
Ġshi4Ġ cong2Ġ
shi2Ġ qi1
Ġyou3Ġ liang3Ġge4Ġ
guan1Ġ dian3
Ġzhan4Ġ ju4Ġ
fen1Ġ lan2
shi1Ġ zhang3Ġ
Ġben3Ġ pian4
Ġ 65
Ġ hai3Ġjun1Ġ
qi3 Ġshi4Ġ
han4 ĠdeĠ
xiang4Ġ bei3Ġ
te4Ġ se4
Ġwei2Ġ qi1Ġ
bei3Ġ mei3Ġ
Ġshang4Ġ zhen4Ġ
tian1Ġ zhu3Ġjiao4
yi2Ġge4 Ġren2Ġ
cun2Ġ chu3Ġ
a1Ġji1Ġ tan3
Ġ zhan3Ġ
Ġ gu1Ġ
Ġ qu3Ġdai4Ġ
15 Ġnian2Ġ
liu4 Ġyue4Ġ
lei1 ĠdeĠ
Ġzai4Ġ jin1Ġ
xue2Ġ zhe3
ren4Ġ qi1Ġ
dai4Ġ ling3
Ġqi2Ġ ziĠ
tai2Ġ nan2Ġ
fu1Ġ lei1Ġ
du2Ġ zhe3Ġ
zhang4Ġ fu1
hen3 Ġyou3Ġ
sheng1Ġ ming4
qi1Ġ tu2Ġxing2Ġ
yan3Ġ jing1Ġ
Ġguo4Ġ qu4Ġ
guo2ĠdeĠ te4Ġyou3Ġ
Ġwu3 Ġyue4Ġ
Ġjiang3Ġ shu4Ġ
jie1Ġshou4 ĠleĠ
Ġzhan4Ġdou4 Ġji1Ġ
ban1Ġjiang3Ġ dian3Ġli3Ġ
Ġ sai1
Ġ bi3Ġde2Ġ
Ġ 1978Ġnian2Ġ
jia1 Ġji2Ġ
de2 Ġyi3Ġ
hua4 Ġgong1Ġ
pu3 Ġli3Ġ
fang4 Ġzhi4Ġ
fang4 Ġshe4Ġ
gan1 Ġyu4Ġ
Ġshi4Ġ yong4Ġ
Ġjia1Ġ su4Ġ
Ġer3Ġ fu1
ting2Ġ kao4Ġ
xi4Ġtong3 Ġzhong1Ġ
lie4Ġche1 ĠdeĠ
qu1Ġyi4Ġhui4Ġ xuan3Ġju3Ġ
Ġyu3Ġmao2 Ġqiu2
Ġ zi
can1 Ġzheng4Ġ
xu1 Ġqiu2
cao3 Ġyuan2Ġ
Ġbu4Ġ lie4Ġ
Ġge4Ġ di4ĠdeĠ
luo4Ġ bai4Ġ
xie2Ġ zhu4
xun2Ġ zhao3Ġ
Ġnian2Ġ10Ġyue4Ġ 1Ġri4Ġ
xuan2Ġ zhuan3Ġ
Ġ De
Ġ teng2Ġ
dian4 Ġyuan2Ġ
liu2 Ġcheng2Ġ
ceng2 Ġyu3Ġ
yang2 Ġzhou1Ġ
nong2 Ġdu4Ġ
th ĠĠĠ
hao2 Ġwu2Ġ
ce Ġ
colspan Ġ
Ġcheng2Ġ ren4
Ġzhi1Ġ dui4Ġ
jian1Ġ du1
ru4Ġ yu4Ġ
jiao1Ġ huan4
ĠdeĠshi4Ġ jian4Ġ
da3Ġ kai1Ġ
Ġgai1 Ġdi4Ġ
meng4Ġjia1Ġ la1Ġ
guan1 Ġhe2Ġ
fen1 Ġji2Ġ
liu2 Ġshi4Ġ
sheng3 Ġren2Ġmin2Ġzheng4Ġfu3Ġ
wei1 ĠdeĠ
Ġhe2Ġ jia1Ġ
Ġyu2Ġ 2011
ming2Ġ cheng1
Ġer2Ġ zhe4Ġ
suo3Ġ zhang3Ġ
ge2Ġ lin2Ġ
zui4Ġ hao3ĠdeĠ
Ġsheng1Ġ ren4Ġ
jian3Ġ cheng1Ġ
Ġye3Ġ cheng1Ġ
fang2Ġ shou3Ġ
pei4Ġ jue2Ġ
dan4Ġ bai2Ġ
dong3Ġshi4Ġ hui4Ġ
Ġ xiu1
Ġ zan4Ġ
Ġ 20Ġshi4Ġji4Ġ
ĠĠĠ she4Ġji4Ġ
chu1 Ġxian4Ġzai4Ġ
shui3 Ġshang4Ġ
xie3 Ġcheng2Ġ
Ġzhong1Ġ yi4Ġ
Ġde2 Ġyi4Ġzhi4Ġ
zhu3Ġ chang3
shan1Ġ hu2Ġ
tian1Ġ shi3Ġ
mian4Ġ qian2Ġ
bian1Ġ qu1Ġ
qiang2Ġ lie4ĠdeĠ
Ġzui4Ġ hou4Ġyi1Ġ
Ġjin3Ġ biao1Ġ
zhu3Ġjiao4Ġ zuo4Ġ
Ġfou3 Ġze2Ġ
Ġ la1
Ġ 1980
ĠĠĠ shi3Ġ
xiang4 Ġhe2Ġ
sha1 Ġshi4Ġ
pai4 Ġren2Ġ
1915 Ġnian2Ġ
Ġyue4Ġ nan2
Ġzhi4Ġ ci3Ġ
du4Ġ guo4Ġ
Ġtong2 Ġwei4Ġ
Ġzhe4Ġ chang3Ġ
gu3Ġ fen4Ġ
fa1Ġxing2Ġ leĠ
kong3Ġ long2Ġ
Ġfei1Ġ chang2Ġ
Ġhuo4Ġde2 Ġdi4Ġ
fa1Ġxian4ĠleĠ ci3Ġtian1Ġti3Ġ
fa3Ġlan2Ġxi1 Ġda4Ġqu1Ġ
4 Ġming2Ġ
Ġ xin4
Ġ La
ji1 Ġxing2Ġ
xia4 Ġyi4Ġ
suo3 Ġbu4Ġ
yue1 ĠdeĠ
jiu3 Ġyue4Ġ
que4 Ġshi2Ġ
Ġyu3Ġ xin1Ġ
xin1Ġ qu1Ġ
Ġwei2Ġ fan3Ġ
Ġjin4 Ġnian2Ġ
Ġzhe4Ġ ci4
yi2Ġ qi4Ġ
ti2Ġ an4Ġ
ĠdeĠgong1Ġ ji1Ġ
Ġge2Ġ lan2Ġ
zong1Ġyi4Ġ jie2Ġmu4Ġ
jing4Ġwai4Ġ shu1Ġru4Ġ
Ġ e4
Ġ di3Ġ
ĠĠĠ e
ĠĠĠ 2000
ye3 Ġbu4Ġ
gu3 Ġcheng2Ġ
fei4 Ġer3Ġ
ye2 Ġlu4Ġ
Ġshi4Ġ pin2
Ġcheng2Ġ xiang4Ġ
Ġri4 Ġshi2Ġ
Ġdao4Ġ fu1Ġ
fu4Ġ xing1
Ġ zhu2
Ġ ju3Ġ
bei4 Ġyi1Ġ
xin1 Ġji1Ġ
shi1 Ġxing2Ġ
ying2 Ġde2
zhu1 Ġshi4Ġhui4Ġ
xia2 Ġshi4Ġ
kun1 Ġming2Ġ
Ġcheng2Ġ dan1Ġ
Ġer2 Ġde2Ġming2Ġ
wu4Ġ zi1Ġ
kai1Ġ ye4Ġ
tong1Ġ chang2Ġshi4Ġ
luo2Ġ xuan2Ġ
xin4Ġ yong4Ġ
huo3Ġ pao4Ġ
Ġwen2Ġ xue2Ġ
Ġlian2Ġ xu4Ġ
che4Ġ tui4
Ġshi2Ġjian1 Ġwei4Ġ
huo2Ġyue4Ġ yu2Ġ
ta3Ġni2 Ġda4Ġqu1Ġ
Ġ hai2Ġshi4Ġ
Ġ 1980Ġnian2Ġ
zhou1 Ġwei2Ġ
chan3 ĠdeĠ
Ġyi1Ġ ci2
Ġjia1Ġ er3Ġ
you2Ġ ke4Ġ
Ġxi1Ġ bei3Ġbu4Ġ
zhu3Ġ ti3Ġ
Ġzhe4Ġ shi3ĠdeĠ
she4Ġ ji4ĠdeĠ
gen1Ġ sui2
Ġ wang3
Ġ qing2Ġ
si1 Ġyu2Ġ
yu3 Ġren2Ġ
lv4 Ġbu4Ġ
ding1 Ġmu4Ġ
da4Ġ hui4Ġ
Ġzhi1Ġ lu4Ġ
Ġhui4Ġ dao3Ġzhi4Ġ
kai1Ġ pi4
tian1Ġ xia4Ġ
an1Ġ dong1Ġni2Ġ
Ġjie2Ġ mu4
nong2Ġ cun1
lian2Ġsai4Ġ guan4Ġjun1Ġ
Ġwu2 Ġxian4Ġ
Ġbei3Ġqi3Ġ shun4Ġshi2Ġzhen1Ġyu3Ġ
Ġ nei4Ġbu4Ġ
zheng4 Ġsi1Ġ
de2 Ġzhi1Ġ
bei3 Ġping2Ġ
wu3 Ġgong1Ġ
jie4 Ġxian4Ġ
shen2 Ġshe4Ġ
yin3 Ġjin4Ġ
1908 Ġnian2Ġ
xiang4Ġ dong1Ġ
shu1Ġ xie3Ġ
Ġgai1Ġ pian4
xue4Ġ ye4Ġ
Ġda4 Ġwei4Ġ
xun2Ġhui2Ġ sai4Ġ
Ġ 1991
Ġ Al
Ġ 22Ġ
le Ġdi4Ġyi1Ġ
shang4 Ġji2Ġ
hua4 Ġcheng2Ġ
tong2 Ġshi4Ġ
yun4 Ġhui4Ġ
1906 Ġnian2Ġ
Ġzai4Ġ na4Ġli3Ġ
li4Ġ liang4Ġ
Ġming2Ġ que4Ġ
xia4Ġ xun2Ġ
Ġjin4 ĠleĠ
ge2Ġ luo2Ġ
li2Ġ hun1Ġ
Ġyin3Ġ qi3Ġ
ĠK Ġ
ba1Ġfa2 Ġli4Ġya4
Ġ cui1
Ġ 59
Ġ chi3Ġ
zhuan3 Ġhui4Ġ
Ġzai4Ġ dang1Ġdi4Ġ
Ġchu1Ġ zi4Ġ
wai4Ġ jie4Ġ
jiao1Ġ qu1Ġ
ying4Ġ yong4Ġyu2Ġ
jiu3Ġ dian4
huo4Ġ bi4Ġ
zhao4Ġ gu4Ġ
xu3Ġ ke3
Ġzhi2 ĠdeĠ
chao1Ġ guo4
ke3Ġyi3 Ġshi4Ġ
da1Ġ pei4Ġ
ye2Ġlu4Ġ sa1Ġ
Ġ 26
wei2 Ġli4Ġ
zhu3 Ġren2Ġ
yan3 ĠleĠ
you4 Ġbei4Ġ
cao3 Ġdi4Ġ
Ġbu4Ġ lan2Ġ
Ġxing2 Ġzhong1Ġ
jin1Ġ pai2
er4Ġ yang3Ġhua4Ġ
chuan2Ġ shu1Ġ
hang2Ġ tian1
mo2Ġ ni3Ġ
huo4Ġ yun4Ġ
Ġyan2Ġ zhong4Ġ
Ġge1Ġ shou3Ġ
ting2Ġche1Ġ chang3Ġ
Ġ aĠ
yu3 Ġji2Ġ
nei4 Ġshe4Ġyou3Ġ
zhen4 Ġxian4Ġ
ya1 Ġzhi4Ġ
as ĠĠĠ
Ġzai4Ġ hou4Ġ
Ġshi2Ġ qi4
Ġren2Ġ si3Ġwang2Ġ
Ġli3Ġ ao4Ġ
zong3Ġ du1
jie3Ġ chu2Ġ
Ġlian2Ġ bang1Ġ
you1Ġ xian1Ġ
Ġshi3 Ġqi2Ġ
Ġyi4Ġsi Ġshi4Ġ
Ġ bao1Ġhan2
jiang1 Ġwei2Ġwu2Ġer3Ġ
shi1 Ġshi4Ġ
wu3 Ġli4Ġ
fu3 ĠdeĠ
kuai4 Ġji4Ġ
sen1 ĠdeĠ
shang4Ġ fa3Ġlan2Ġxi1Ġda4Ġqu1Ġ
Ġxi1Ġ nan2Ġbu4Ġ
nan2Ġ fei1Ġ
Ġshe4 Ġxian4Ġ
Ġjian4Ġ leĠ
Ġbing4Ġ dui4Ġ
qi3Ġ tu2Ġ
wang2Ġ guo2ĠdeĠ
e2Ġ wai4Ġ
Ġwo3 ĠdeĠ
Ġ ni4
Ġ ruan3Ġ
an1 Ġzhi4Ġ
ĠĠĠ ying3Ġxiang3Ġ
guan1 Ġzhi4Ġ
er4 Ġming2Ġ
bao3 Ġshi2Ġ
chen2 Ġji1Ġ
tou4 Ġming2Ġ
Ġshi2Ġ biao3Ġshi4Ġ
Ġyu2Ġ yi1Ġ
sheng1Ġ wu4
Ġke4 Ġren2Ġ
zhi2Ġ dao3ĠdeĠ
ci3Ġ ci4Ġ
la1Ġ fu1Ġ
tian1Ġ zhu3Ġ
ai4Ġ sha1Ġ
dan4Ġ bai2Ġzhi4Ġ
kong4Ġ gu3
zhi2Ġye4Ġ sheng1Ġya2
wen3Ġ ding4
ĠĠĠwei4Ġ yu2Ġ
Ġ Ch
ĠĠĠ 2004
sheng1 Ġri4Ġ
jie4 Ġyou2Ġ
liang4 Ġhe2Ġ
xu4 Ġshi4Ġ
Ġzhong1Ġ ji2Ġ
you3Ġ yi4Ġ
Ġgong1Ġ shang1Ġ
guan1Ġ shang3
Ġjian4Ġ li4ĠdeĠ
Ġdan4 Ġyin1Ġwei4Ġ
gao1Ġ shan1Ġ
Ġyou2Ġ ke4Ġ
Ġdan4Ġ shui3Ġ
jian3Ġ dan1
zu3Ġ zhi3
Ġda4Ġxue2Ġ jiao4Ġshou4Ġ
Ġgai1 Ġgong1Ġsi1Ġ
tong1Ġguo4 ĠleĠ
Ġben3 Ġming2Ġ
Ġgong1Ġzuo4 Ġren2Ġyuan2Ġ
Ġ qiang1Ġ
ĠĠĠ 1949
ti3 Ġhe2Ġ
ti2 Ġshi4Ġ
tu2 Ġer3Ġ
gai3 Ġzhi4Ġ
1900 Ġnian2Ġ
1907 Ġnian2Ġ
Ġhe2Ġ shui3Ġ
Ġshi2Ġ yi4Ġ
Ġji2Ġ yu2Ġ
Ġji2Ġ yu3Ġ
Ġli4Ġ cheng2Ġ
Ġjian4 Ġguo2Ġ
qi1Ġ xi1Ġdi4Ġ
hai3Ġ guan1Ġ
nv3Ġ shen2Ġ
zu2Ġ xie2
zeng1Ġ jia1
xiao3Ġshi2Ġ hou4Ġ
Ġhua4Ġ xue2
Ġsi4 Ġyue4Ġ
Ġhe2Ġbei3Ġ sheng3Ġ
Ġzhu4 Ġyou3Ġ
9 Ġshi2Ġ
Ġ ou3
Ġ tan2
Ġ 36
yu3 Ġzai4Ġ
Ġwei4Ġ ta1Ġ
Ġdao4 Ġzai4Ġ
Ġji4Ġ gong1Ġ
Ġjin4 Ġping2Ġ
tai4Ġ kong1
jian3Ġ hua4Ġ
zu2Ġ zi4Ġzhi4Ġqu1Ġ
ju1Ġ liu2Ġ
fang4Ġ song4Ġ
che4Ġ li2Ġ
Ġge1Ġ qu3
Ġer4 Ġren2Ġ
yuan2 Ġzhi4Ġ
sheng1 Ġyuan2Ġ
yuan4 Ġyi4Ġyuan2Ġ
guang1 Ġxue2Ġ
bin1 Ġxi1Ġfa3Ġ
60 Ġ
Ġhe2Ġ ping2
Ġta1 Ġyi4Ġ
Ġji4Ġ shu4ĠdeĠ
Ġxi1Ġ bei3
ling3Ġ xian2
gang1Ġ qin2Ġ
xue4Ġ tong3Ġ
ĠĠĠ shui3Ġ
le Ġshi2Ġ
fu4 Ġchu1Ġ
yu4 Ġzhong1Ġ
fan3 Ġshe4Ġ
bie2 Ġming2Ġ
yan4 Ġzheng4Ġ
th Ġ
ĠdeĠ yin1Ġyue4Ġ
Ġzai4Ġ yue4Ġ
Ġguo2Ġ jun1
Ġyi1Ġ duan4Ġ
Ġyi3Ġ qi2Ġ
Ġyu3Ġ yan2ĠdeĠ
xia4Ġ wei1Ġ
zhi2Ġ ze2Ġ
zhong4Ġ shang1Ġ
yi2Ġ chuan2Ġ
Ġgai1Ġ wu4Ġzhong3ĠdeĠ
Ġ000 Ġming2Ġ
mo2Ġshi4Ġ chan3Ġ
yue4Ġzhong1Ġ xun2Ġ
hang2Ġkong1Ġmu3 Ġjian4Ġ
Ġ xin1ĠdeĠ
Ġ min2Ġzhu3Ġ
ĠĠĠ xing2Ġ
zhong4 Ġren2Ġ
Ġcheng2Ġ ji2Ġ
Ġxi1Ġ zang4
Ġdong1Ġ fang1Ġ
pan4Ġ duan4Ġ
Ġzhong1Ġyang1 Ġjun1Ġ
lian4Ġ xi2Ġ
dong1Ġbu4Ġ da4Ġqu1Ġ
Ġgong1Ġsi1 Ġzai4Ġ
Ġba1 Ġyue4Ġ
Ġchu1Ġban3 Ġshe4Ġ
Ġ ying3Ġ
ĠĠĠ 2003
yan2 Ġxian4Ġ
Ġshi4Ġ wu1Ġke4Ġlan2Ġ
Ġgong1Ġ an1
Ġdan4Ġ reng2
chu1Ġ kou3Ġ
Ġmei3 Ġri4Ġ
biao1Ġzhun3 ĠdeĠ
ĠHR ĠĠĠ
Ġ tie3
Ġ pu2Ġ
ĠĠĠ ge4
yu4 Ġhe2Ġ
ci3 Ġzhan4Ġ
liang3 Ġbu4Ġ
ji3 Ġge4
pian1 Ġxiao3Ġshuo1Ġ
lang4 Ġman4Ġ
Ġnian2Ġ du4
Ġzhong1Ġ shi2Ġ
Ġzhi1 Ġhe2Ġ
ju4Ġ bei4Ġ
long2Ġ ke1Ġ
ĠdeĠyi1Ġ tiao2
hen3Ġ kuai4
ĠdeĠbu4Ġ fen4
chu3Ġli3Ġ qi4Ġ
ken3Ġ ding4Ġ
ĠĠĠ Z
ĠĠĠ huo4
ge2 Ġhe2Ġ
tai4 Ġyuan2Ġ
wu2 Ġyi4Ġ
yang2 ĠdeĠ
Ġwei4Ġ zhi1Ġ
zhi3Ġ ze2Ġ
ti3Ġ xi4
gu3Ġ dian3
ge1Ġ chang4
wei1Ġ ni2Ġsi1Ġ
dang1Ġ ju2
Ġqi1 Ġyue4Ġ
Ġ liao2Ġ
ao4 Ġdi4Ġ
wu3 ĠdeĠ
gu4 Ġyi4Ġ
zhen1 Ġjun1Ġ
shen3 Ġli3Ġ
pu1 Ġshe4Ġ
Ġhe2Ġ mei3Ġguo2Ġ
Ġyou3Ġ zhu4Ġyu2Ġ
Ġguo2Ġ ji2Ġ
wei2Ġ ke4Ġ
ming2Ġ ni2Ġsu1Ġ
Ġer3 Ġdi4Ġ
Ġta1Ġ biao3Ġshi4Ġ
zhe4Ġ ci4Ġ
zhi2Ġ lu4
wu1Ġ lu3Ġ
Ġjing1Ġ chang2
ya2Ġ chi3Ġ
Ġbu4Ġjiu3 Ġhou4Ġ
Ġwei4Ġyu2Ġgai1Ġ sheng3Ġ
Ġ ru4
Ġ Co
hou4 Ġcheng2Ġwei2Ġ
yi4Ġ yuan2Ġ
Ġjun1 Ġji2Ġ
Ġjun1 Ġbei4Ġ
Ġke4 Ġshi4Ġ
xiang4Ġ nan2Ġ
bei3Ġ ce4Ġ
Ġju4Ġ le4Ġ
ya4Ġ ke1Ġ
hong2Ġ shui3Ġ
wan2Ġ cheng2ĠdeĠ
bai4Ġzhan4Ġ ting2
Ġ 1985
sheng1 Ġyi4Ġ
xing4 Ġyu3Ġ
ze2 Ġer3Ġ
lan2 Ġzhou1Ġ
huan2 Ġyuan2Ġ
gao4 Ġzhong1Ġ
suan1 Ġyan2Ġ
ĠdeĠ qing2Ġkuang4Ġ
da4Ġ yue1Ġ
Ġguo2Ġ gong4Ġ
Ġguo2Ġ fang2Ġ
Ġyi4Ġ qing2
Ġqi2 Ġyi4Ġ
ping2Ġ gu1Ġ
suo3Ġ shu3Ġ
ying1Ġ wu3Ġ
qu3Ġ dai4
yin1Ġ ci3
ĠdeĠming2Ġ cheng1Ġ
luo2Ġdi4Ġ ya4Ġ
liao2Ġning2Ġ sheng3Ġ
qu1 Ġyi4Ġyuan2Ġ
jie1 Ġli4Ġ
zu3 Ġwei4Ġ
jiu3 Ġming2Ġ
Ġdi4Ġ liu4
Ġyi3 Ġcheng2Ġwei2Ġ
ke3Ġ kao4
huo3Ġ xing1Ġ
Ġru2Ġ ci3Ġ
Ġzhi2Ġ wu4Ġ
Ġ xiao1
Ġ bo2Ġshi4Ġ
ĠĠĠ Li
ĠĠĠ 2Ġyue4Ġ
ĠĠĠ 2003Ġnian2Ġ
yong4 Ġyi3Ġ
fa3 Ġzhong1Ġ
wu3 Ġwei4Ġ
sui4 ĠdeĠ
lou2 ĠdeĠ
Ġshi2Ġ hui4Ġ
Ġren2Ġ bu4Ġ
Ġer3 Ġke4Ġ
Ġjia1Ġ qiang2
Ġchu1Ġ sai4Ġ
jie1Ġ shou1
cheng1Ġ hu1
ce4Ġ lve4
ji3Ġ zhui1
Ġshu4Ġ ju4Ġ
xue2Ġyuan4 ĠdeĠ
zhi3Ġhui1 Ġbu4Ġ
Ġ shan4
Ġ meng4
Ġ 64
Ġ kan4Ġ
ĠĠĠ jiang1Ġ
ming2 Ġzhong1Ġ
dui4 Ġta1ĠdeĠ
dong4 Ġshi4Ġ
zui4 Ġxing2Ġ
fan4 ĠdeĠ
meng2 Ġde2Ġ
gei3 Ġshi4Ġzhong1Ġ
zun1 Ġzhong4Ġ
cheng2Ġ du4Ġ
Ġji2Ġ zhi4Ġ
si1Ġ te4Ġ
xia4Ġ tian1Ġ
jian1Ġ chi2
Ġtong2 Ġyue4Ġ
da2Ġ ni2
chong2Ġ zu3Ġ
Ġshi4Ġshi4Ġ jie4Ġ
Ġma3 Ġer3Ġ
Ġfa1Ġ biao3Ġ
Ġyong4 Ġyi3Ġ
Ġ zhen4
Ġ yong1
Ġ 1995
begin Ġ
Ġda4Ġ ge2Ġming4Ġ
shang4Ġ sheng1Ġ
Ġzhi1Ġ qiu2Ġdui4Ġ
xiang1Ġ xin4
hai3Ġ xia2
Ġduo1Ġ shu4Ġ
yi3Ġ qian2Ġ
fen1Ġbie2 Ġshi4Ġ
fa1Ġdian4Ġ chang3Ġ
8 Ġshi2Ġ
Ġ a
Ġ 1989
Ġ fen4Ġ
ĠĠĠ cong2
ĠĠĠ ling4
ĠĠĠ 1Ġyue4Ġ
zhu4 Ġshi4Ġ
duo1 Ġli4Ġya4
kai1 Ġxing2Ġ
lu2 Ġxing2Ġmu4Ġ
yuan2Ġ yin1Ġ
Ġsi1Ġ xiang3
xin1Ġ zeng1Ġ
xiang1Ġ hu4
nan2Ġ zhu3Ġjue2Ġ
kai1Ġ ban4Ġ
min2Ġ zheng4Ġ
kou3Ġ hao4Ġ
Ġju4Ġ chang3Ġ
che1Ġ shou3Ġ
ti2Ġ jiao1Ġ
zu2Ġ gou4Ġ
ĠdeĠyi1Ġ xie1
ĠdeĠcheng2Ġ gong1Ġ
Ġjie2 Ġhe2Ġ
duo2Ġ qu3Ġ
Ġ 48
ĠĠĠ Se
yu4 Ġshi4Ġ
fa3 Ġzhi4Ġ
lin2 Ġjin4
bi3 ĠdeĠ
zhu1 Ġduo1Ġ
wen1 Ġquan2Ġ
38 Ġ
yi1Ġ ming2Ġ
jia1Ġ zu2Ġ
Ġri4 Ġyuan2Ġ
xin1Ġ zeng1
Ġde2Ġ lan2Ġ
ben3Ġ shen1
mi4Ġ qie4Ġ
Ġbu4Ġtong2 Ġyu2Ġ
ba1Ġshi4Ġ lu4Ġxian4Ġ
Ġge1Ġ lun2Ġ
ĠĠĠgai4Ġ shu4Ġ
Ġshi4Ġwei1Ġ zhe3Ġ
Ġ ya4
xue2 Ġji2Ġ
zong3 Ġshi4Ġ
BD Ġ
ĠdeĠ shuo1Ġfa3Ġ
Ġyuan2Ġ su4
Ġri4Ġ er3Ġ
Ġjia1Ġ shang4
Ġming2Ġ lu4Ġ
Ġde2Ġ fen1Ġ
yu4Ġ gao4Ġ
mu4Ġ di4Ġshi4Ġ
jue2Ġ sai4ĠdeĠ
ke3Ġ qian2Ġwang3Ġ
Ġju4Ġ bei4Ġ
ken3Ġ ta3Ġji1Ġ
Ġda4Ġshi3Ġ guan3Ġ
Ġ 1946
Ġ 700
Ġ yuan2Ġwei4Ġ
dai4 Ġer3Ġ
tong2 Ġbu4Ġ
zhi2 Ġren2Ġyuan2Ġ
te4 Ġyu3Ġ
shen2 Ġfu4Ġ
le4 Ġbi3Ġ
ning2 Ġxia4Ġ
Ġnian2Ġ ling2
Ġren2Ġ ji2Ġ
Ġdao4Ġ lu4
Ġji1Ġ zhong4Ġ
xian1Ġ qian2Ġ
guang3Ġbo1Ġ dian4Ġtai2Ġ
ĠsectionĠĠĠ beginĠ
1 Ġhao4
ĠĠĠ jing1Ġ
yu4 Ġwei4Ġ
lian2 Ġxian4Ġ
lin2 Ġjin4ĠdeĠ
guan3 Ġdao4Ġ
qian1 Ġxia4Ġ
tuo1 Ġke4Ġ
ve Ġ
ĠdeĠ guan1Ġxi4Ġ
Ġwei4Ġ bu4Ġ
Ġzai4Ġ ji2Ġ
Ġbu4Ġ da4Ġ
Ġyu2Ġ 2010
Ġyou3Ġ hao3Ġ
fu4Ġ gai4Ġ
jiao4Ġ shao3Ġ
Ġhuo4Ġ yun4Ġ
ka3Ġ si1Ġdi4Ġli4Ġ
biao1Ġ ti2Ġ
mao4Ġ xian3
hun4Ġ xiao2
san1Ġjiao3 Ġxing2Ġ
Ġ fan2Ġ
ĠĠĠ an1Ġ
shou3 Ġshi4Ġ
wen2 Ġdi4Ġ
zui4 Ġjin4ĠdeĠ
Ġbu4Ġ luo4
Ġyu2Ġ 2009
Ġcheng2Ġ zhen4
Ġhou4Ġ fang1Ġ
Ġqiu2 Ġji4Ġ
suo3Ġ zai4ĠdeĠ
jie1Ġ ti4
jie1Ġ tou2Ġ
shen2Ġ mi4Ġ
kai1Ġshi3Ġ leĠ
ĠĠĠben3Ġ shu3Ġ
ĠdeĠzhu3Ġ ti2Ġ
ĠĠĠqi2 Ġhou4Ġ
Ġ qiao2
Ġ zeng4
Ġ ou1Ġzhou1
guo4 Ġshi4Ġ
wu3 Ġda4Ġ
kan4 Ġdao4
zai3 Ġxiang4Ġ
um Ġ
Ġjian4 Ġjian4Ġ
Ġyin1 Ġhe2Ġ
te4Ġ shu1ĠdeĠ
bao3Ġhu4Ġ qu1Ġ
ĠdeĠji1Ġ ben3Ġ
xun2Ġhui2Ġ yan3Ġchang4Ġhui4Ġ
jie1Ġxia4Ġ lai2ĠdeĠ
Ġ en1Ġ
zhi2 Ġyu2Ġ
shou3 Ġer3Ġ
liu2 Ġyi4Ġ
qi4 Ġzhong1Ġ
jiu4 Ġren4Ġ
shen2 Ġxue2Ġ
or ĠĠĠ
Ġhe2Ġ ren2Ġ
Ġyi4Ġ cheng2Ġ
Ġren4Ġ qi1Ġ
jie4Ġ sai4Ġshi4Ġ
xuan3Ġ xiu4
Ġhuo4Ġ sheng4Ġ
tui1Ġ ce4Ġ
Ġhou4Ġlai2 Ġbei4Ġ
ĠĠĠin ĠĠĠtheĠĠĠ
mi2Ġni3Ġ zhuan1Ġji2Ġ
Ġ xie2
Ġ san1Ġnian2Ġ
ba1 Ġke4Ġ
lie4 Ġjian4Ġ
ban4 Ġbu4Ġ
huan2 Ġqiu2Ġ
duo4 Ġ
Ġbu4Ġ bing1
Ġyi1Ġ gong4Ġ
Ġji4Ġ si4Ġ
mu4Ġ shi1Ġ
fu2Ġ lang3
lin2Ġ chuang2
ce4Ġ hua4Ġ
zheng4Ġshi4Ġ cheng2Ġli4Ġ
dong1Ġnan2Ġ ya4Ġ
Ġ zhang3
Ġ ge1Ġqu3Ġ
le Ġyi3Ġ
20 Ġnian2Ġ
jiang1 Ġbei4Ġ
wen2 Ġsi1Ġ
ye4 Ġzhong1Ġ
la1 Ġke4
dao3 Ġxian4Ġ
shen2 Ġqi2Ġ
cun2 Ġyu2Ġ
guan4 Ġmu4Ġ
kong3 Ġju4Ġ
dui1 Ġ
Ġbu4Ġ gong1Ġ
ji4Ġ suan4Ġ
Ġyi4Ġ zuo4Ġ
dui4Ġ kang4Ġ
shou3Ġ du4Ġ
jie1Ġ ti4Ġ
Ġsheng1Ġ cheng1
ya4Ġ te4Ġ
jiao1Ġ dian3Ġ
da3Ġ po4Ġ
pai4Ġ qian3Ġ
Ġyou3Ġyi1Ġ xie1
Ġda4Ġduo1Ġ shu4
fu4Ġze2 Ġren2Ġ
na2Ġpo4Ġ lun2Ġ
Ġ kao3
Ġ 46
li3 Ġzai4Ġ
fa3 Ġren2Ġ
xi2 Ġjin4Ġping2Ġ
hu2 ĠdeĠ
chuang4 Ġyi4Ġ
yi1Ġ xie1
Ġguo2Ġ ji4
Ġyi1Ġ dui4Ġ
Ġdao4Ġ de2Ġ
Ġxing2Ġ wei2
Ġjia1Ġ la1Ġ
yan2Ġ se4
Ġer2Ġ fei1
Ġjun1Ġ zhang3Ġ
fen1Ġ zu3Ġ
xing4Ġ cun2Ġ
shan1Ġ ding3Ġ
chang2Ġ sha1Ġ
shou4Ġ ming4Ġ
Ġxin1Ġ jiang1Ġ
xing1Ġ qi3Ġ
kan1Ġ wu4Ġ
Ġduo1 Ġming2Ġ
Ġqi3Ġ ye4Ġ
tie3Ġlu4 Ġgong1Ġsi1Ġ
si1Ġdi4Ġ an1Ġ
Ġ yan3
Ġ bi4
Ġ qun2Ġ
ĠĠĠ dai4Ġ
you3 Ġbu4Ġtong2Ġ
ci4 Ġquan2Ġguo2Ġ
lan2 Ġde2Ġ
ka3 ĠdeĠ
ying2 Ġdi4Ġ
gui4 ĠdeĠ
zhuan4 Ġji4Ġ
Ġcheng2Ġ guo3Ġ
ming2Ġ xian3Ġ
chang3Ġ jing3
Ġshe4Ġ bei4
luo4Ġ shan1Ġ
Ġzhe4 Ġli3Ġ
Ġzhi3Ġ neng2Ġ
lian2Ġxu4 Ġju4Ġ
Ġ che4Ġxiao1Ġ
ĠĠĠ Ch
yang4 Ġben3Ġ
sha4 Ġ
1916 Ġnian2Ġ
Ġxing2Ġ zou3Ġ
sheng1Ġ zhang3Ġ
shui3Ġ ku4
jiu3Ġ ba1Ġ
Ġhai3Ġ ba2
Ġdang1Ġ ju2Ġ
dao3Ġzhi4Ġ leĠ
Ġjiang1 Ġjun1Ġ
Ġfa1Ġ biao3
ye2Ġ fu1Ġ
Ġer4 Ġyue4Ġ
u Ġ
Ġ Y
Ġ 28
shui3 Ġyuan2Ġ
zhuang1 Ġyou3Ġ
1903 Ġnian2Ġ
Ġzai4Ġ yi2Ġge4Ġ
ju4Ġ ti3Ġ
shu4Ġ zhi2Ġ
chang2Ġ zhu4
bao3Ġ yu4Ġ
ni2Ġ gu3Ġla1Ġ
Ġxiang1Ġ fan3Ġ
du2Ġ te4Ġ
er2Ġ zi
Ġtai2Ġ bei3
mei3Ġshu4Ġ guan3Ġ
zhui1Ġsu4 Ġzhi4Ġ
ĠsectionĠĠĠ endĠ
han4Ġlin2Ġ yuan4Ġ
Ġ tao2
Ġ gai4
Ġ wang4Ġ
Ġ hu1Ġ
Ġ ke3Ġneng2Ġshi4Ġ
ĠĠĠ zhu4Ġzuo4Ġ
de2 Ġke4Ġsa4Ġsi1Ġ
tong2 Ġzhi4Ġ
ke3 Ġyou2Ġ
hai3 Ġjun1ĠdeĠ
dao3 Ġdan4
mi4 Ġxi1Ġxi1Ġ
ĠdeĠ wen4Ġti2Ġ
zhi4Ġ zao4Ġ
Ġli4Ġ jing1Ġ
Ġda4Ġ liang4ĠdeĠ
Ġjun1 Ġgong1Ġ
Ġwei2Ġ yi1ĠdeĠ
bao3Ġ xian3
si4Ġ yuan4Ġ
chuan2Ġ jiao4Ġshi4Ġ
wang3Ġ min2Ġ
jian3Ġ pu3Ġ
jing3Ġ bao4Ġ
ci2Ġ shan4
Ġwan4Ġ mei3Ġyuan2ĠdeĠ
Ġ1 ĠĠĠ
Ġhuo4Ġde2 Ġyi1Ġmei2Ġ
meng4Ġjia1Ġ la1
Ġ 47
Ġ yuan4Ġ
Ġ ju3Ġxing2Ġ
si1 Ġji2Ġ
shang4 Ġyu3Ġ
du4 Ġshi4Ġ
tai2 Ġji2Ġ
shan1 Ġhe2Ġ
bian4 Ġli4Ġ
huang2 Ġhe2Ġ
chuan1 Ġzhu4Ġ
ma1 Ġzu3Ġ
Ġyi4Ġ ti2Ġ
Ġyi3 Ġgong1Ġ
Ġyi1Ġ xi4Ġlie4Ġ
Ġta1Ġ ye3Ġshi4Ġ
Ġchu1Ġ sheng1Ġzai4Ġ
lu4Ġ kou3Ġ
Ġjun1Ġ tuan2
ci4Ġ ziĠ
ze2Ġ ren4
zi1Ġ jin1
can1Ġ kao3
que4Ġ bao3
gan3Ġ qing2Ġ
Ġzhi3Ġ yao4Ġ
Ġbao3Ġ luo2Ġ
bian4Ġcheng2Ġ leĠ
gao4Ġshi4Ġ pai2Ġ
Ġ pao4Ġ
Ġ zong1Ġjiao4Ġ
ĠĠĠ ai4Ġ
ke1 Ġjin4Ġshi4Ġ
liu2 Ġxing2ĠdeĠ
rui4 Ġke4Ġ
at ĠĠĠ
us ĠĠĠ
ĠdeĠ er2ĠziĠ
Ġbu4Ġ zu2
Ġshi2Ġ qi1Ġnian2Ġ
si1Ġ fa3Ġ
Ġjian4Ġ zheng4Ġ
Ġzhou1Ġ bian1
yi2Ġ ju1Ġ
qi4Ġ guan1Ġ
di2Ġ ya4Ġ
xia2Ġ zhai3
shen3Ġ yang2Ġ
e4Ġ tu2Ġ
Ġ shuo1
Ġ 23Ġ
Ġ 1979Ġnian2Ġ
qian2 Ġyi1Ġ
zhong4 Ġyi4Ġyuan2Ġ
yue1 Ġke4Ġ
nv3 Ġshi4Ġ
mu3 Ġshi4Ġ
Ġbu4Ġ yu3Ġ
xi1Ġ fang1Ġ
Ġji1Ġ qi4Ġ
kai1Ġ qi3Ġ
fa1Ġ yan2Ġ
Ġshe4Ġ ding4Ġ
Ġxia4Ġ xia2Ġ
jing3Ġ bao4
zheng1Ġ qu3
qian1Ġ wang3Ġ
zhuan1Ġ ke1Ġxue2Ġ
Ġren2Ġkou3Ġ pu3Ġcha2Ġ
Ġxing4Ġ bie2Ġ
zhan4Ġzheng1 Ġzhong1Ġ
Ġke1 Ġer3Ġ
mao2Ġze2Ġ dong1
Ġjie1Ġwei4Ġ lu4Ġdi4Ġ
ĠĠĠ U
ĠĠĠ zhan4Ġhou4Ġ
you3 Ġshi4Ġ
you2 ĠdeĠ
lin2 Ġshi4Ġ
yang2 Ġji1Ġ
mu3 Ġyu3Ġ
tion Ġ
Ġwei4Ġ gai1Ġ
Ġzai4Ġ tai2Ġwan1Ġ
xiang4Ġ liang4Ġ
Ġtong2 Ġnian2Ġ9Ġyue4Ġ
tu2Ġ jing1Ġ
man4Ġ hua4
Ġceng2 Ġyu2Ġ
Ġliang3 Ġguo2Ġ
Ġduo1 Ġren2Ġ
Ġao4 Ġdi4Ġli4Ġ
Ġzai4Ġzhong1Ġguo2Ġ da4Ġlu4Ġ
wang2Ġchao2 ĠdeĠ
xian4 Ġzai4Ġ
bei4 Ġren2Ġ
ye3 Ġsheng1Ġ
dang1 Ġdai4Ġ
zhong3 Ġjia1Ġ
qian1 Ġshi4Ġ
da3 Ġjin4Ġ
bei1 ĠdeĠ
Ġshi2Ġ shi2Ġ
Ġyue4Ġ qi4Ġ
Ġzhi1 Ġyu2Ġ
Ġta1Ġ cong2Ġ
jie2Ġ hun1
Ġdui4Ġ ying4Ġ
Ġju4Ġ feng1Ġ
yan3Ġ hua4
zheng1Ġ qi4Ġ
cai3Ġ fang3Ġ
sui2Ġ zhe
zu2Ġqiu2Ġ lian2Ġsai4Ġ
Ġzai4Ġci3Ġ qi1Ġjian1Ġ
you2Ġxi4 Ġzhong1Ġ
li3Ġgong1Ġ da4Ġxue2Ġ
Ġshi4Ġshi4Ġjie4 Ġshang4Ġ
Ġ piao4
Ġ huo2Ġdong4Ġ
Ġ 1956Ġnian2Ġ
lai2 Ġde2Ġ
hong2 Ġshi2Ġzi4Ġ
wo4 Ġsi1Ġ
Ġwei4Ġ re4Ġdai4Ġ
Ġhe2Ġ ma3Ġ
dui4Ġ fang1Ġ
Ġwei2Ġ ke4Ġ
Ġran2 Ġer2Ġzai4Ġ
hua2Ġ xue3Ġ
cai2Ġ ding4Ġ
du2Ġ shu1Ġ
Ġguo4Ġ cheng2Ġzhong1Ġ
Ġma3Ġ ding1Ġ
pin2Ġ kun4
Ġ tou2
Ġ 27
ĠĠĠ 2002Ġnian2Ġ
you3 Ġbu4Ġtong2ĠdeĠ
dui4 Ġcheng2Ġyuan2Ġ
sai4 Ġshi4Ġzhong1Ġ
tai4 Ġer3Ġ
gan3 ĠdeĠ
reng2 Ġshi4Ġ
shun4 Ġtian1Ġ
di4Ġ san1Ġ
cheng2Ġ zhen4Ġ
Ġyi1Ġ xue2Ġyuan4Ġ
Ġda4Ġ yu3Ġ
Ġji1Ġ qi4Ġren2Ġ
fu4Ġ za2Ġ
Ġzheng4Ġ dang3Ġ
Ġtong2 Ġnian2Ġ11Ġyue4Ġ
zi1Ġ bie2
zu2Ġ gou4ĠdeĠ
Ġjie2Ġ shu4
gang1Ġ qin2
sui2Ġ zhu4
ĠĠĠli4Ġshi3Ġ yan2Ġge2Ġ
fa1Ġsheng1Ġ hou4Ġ
geng1Ġ huan4
Ġdi4Ġshi2Ġ er4Ġ
Ġ2 ĠĠĠ
yun2Ġnan2Ġ sheng3Ġ
Ġ Mar
ge4 Ġge4Ġ
fu4 Ġbu4Ġ
tai4 Ġji2Ġ
jing1Ġ ying1Ġ
jin1Ġ qu3Ġ
Ġren4Ġ zheng4Ġ
nv3Ġ ge1Ġshou3Ġ
ju2Ġ mian4Ġ
chu3Ġ li3
Ġshi4Ġjie4 Ġge4Ġdi4Ġ
dong1Ġjing1Ġ du1Ġ
tou2Ġru4Ġ shi3Ġyong4Ġ
Ġli4Ġfa3Ġ wei3Ġyuan2Ġ
Ġjiu3 Ġyue4Ġ
ĠISTAT Ġdai4Ġma3Ġwei4Ġ
Ġ 1981Ġnian2Ġ
ĠĠĠ duo1Ġ
shi3 Ġsi1Ġ
fa1 Ġyin1Ġ
xiang4 Ġta1Ġ
hui2 Ġfu4Ġ
lun2 Ġli3Ġ
ts Ġ
yi4Ġ ban1Ġ
Ġyue4Ġ qiu2Ġ
da4Ġ dong1Ġbu4Ġda4Ġqu1Ġ
Ġgong1Ġ zhong4
Ġyu3Ġ li3Ġ
Ġhou4Ġ lai2ĠdeĠ
guan1Ġ yin1Ġ
yu4Ġ shi3Ġ
Ġbing4Ġ jiang1Ġqi2Ġ
ke3Ġ fen1Ġwei2Ġ
ba1Ġ he4Ġ
dang3Ġ wei3Ġ
qian1Ġ ru4Ġ
Ġhe2Ġguo2Ġ jia1Ġ
Ġnian2Ġshi4Ġjie4Ġ bei1Ġ
Ġ qiong2
Ġ bie2Ġ
Ġ 1948Ġnian2Ġ
yu4 Ġyou3Ġ
xiang1 Ġdao4Ġ
ci3 Ġyi1Ġ
shen3 Ġyi4Ġ
xuan4 Ġ
Ġwei4Ġ gong1Ġ
Ġyue4Ġ du2Ġ
dian4Ġ rong2Ġ
hai3Ġ wai4
Ġben3Ġ tu3
Ġru2Ġ jin1Ġ
Ġzui4Ġ hou4
mei4Ġ mei4
shan3Ġxi1Ġ sheng3Ġ
lian2Ġsai4 Ġqiu2Ġdui4Ġ
jia1Ġli4Ġfu2Ġ ni2Ġya4
Ġ guang3Ġzhou1Ġ
Ġ 1955Ġnian2Ġ
ĠĠĠ 9
ĠĠĠ zuo4Ġ
hui4 Ġcheng2Ġyuan2Ġ
she4 Ġji1Ġ
jiao4 Ġyi4Ġ
jin1 Ġzhong1Ġ
18 Ġshi4Ġji4Ġ
qu2 Ġ
ĠdeĠ she4Ġji4Ġ
Ġzai4Ġ bei3Ġjing1Ġ
ji4Ġ hou4Ġ
dai4Ġ lai2ĠdeĠ
dian4Ġ lu4Ġ
neng2Ġ li4ĠdeĠ
bian1Ġ fu2Ġ
xian1Ġ fa1Ġ
sai1Ġ bai4
shen3Ġ pan4
ke1Ġji4Ġ da4Ġxue2Ġ
ju4 Ġren2Ġ
ping2 Ġxi1Ġ
fu2 Ġke4Ġ
fang3 Ġzhi1Ġ
45 Ġ
id Ġ
Ġshi2Ġ zi4
Ġzhi1Ġ nv3Ġ
jing1Ġ fei4Ġ
lai2Ġ wang3Ġ
Ġbing4Ġ xiang4Ġ
Ġke4Ġ lu3Ġ
Ġshang4Ġ sheng1Ġ
Ġshi4Ġyi1Ġke1Ġ heng2Ġxing1Ġ
mo2Ġte4 Ġer2Ġ
Ġ xi3
Ġ le4Ġ
hua4 Ġxian4Ġ
ping2 Ġji2Ġ
fa3 Ġhe2Ġ
rang4 Ġren2Ġ
42 Ġ
li4Ġ ziĠ
cheng2Ġ ren4Ġ
zhu3Ġ guan3Ġ
kou3Ġ jing4Ġ
qi3Ġ fa1Ġ
lv4Ġ shi1
Ġqi2Ġzhong1Ġ bao1Ġkuo4
han2Ġ gai4Ġ
bu3Ġ ru3
Ġjie1Ġ zhu4Ġ
Ġbo1Ġ luo2Ġ
niu3Ġyue1 Ġshi4Ġ
Ġ zhun3Ġbei4Ġ
ĠĠĠ qi4Ġhou4Ġ
zuo4 Ġhe2Ġ
nan2 Ġzhi4Ġ
da2 Ġhe2Ġ
Äģ Ġ
Ġshi4Ġ jiang1Ġ
zhi4Ġ liao2Ġ
Ġren2Ġ shu4
Ġgong1Ġ guo2Ġ
Ġyi1Ġ lang3Ġ
gou4Ġ wu4Ġ
re4Ġ men2Ġ
Ġfu2 Ġli3Ġ
Ġdi4Ġer4 Ġge4Ġ
Ġya4Ġ mei3Ġ
w Ġ
Ġ zheng1Ġyue4Ġ
dou1 Ġyi3Ġ
dou1 Ġyu4Ġshi3Ġ
zan4 Ġcheng2Ġ
2026 Ġnian2Ġ
tui3 Ġ
Ġxian4 Ġli4Ġ
Ġqi2 Ġdi4Ġ
Ġdan4 Ġzhe4Ġ
wen2Ġ ben3Ġ
Ġdai4Ġ ling3Ġ
yuan4Ġ xiao4Ġ
yin3Ġ qing2
tian2Ġ xin4Ġ
sa4Ġ zhu1Ġ
jian4Ġzhu4Ġ wu4Ġ
ge1Ġqu3 ĠdeĠ
mu4Ġni2Ġ hei1Ġ
Ġqi1Ġxi1Ġ shen1Ġdu4Ġ
Ġ jia1
Ġ 1983
ai2 Ġ
bei4 Ġbu4Ġ
jin4 Ġcheng2Ġ
dian3 Ġwei4Ġyu2Ġ
sha1 ĠleĠ
lu3 Ġji2Ġ
in ĠĠĠ
style Ġ
Ġshi4Ġ dai4Ġ
Ġdao4Ġ guang1Ġ
qi1Ġ kan1Ġ
dong4Ġ wu4ĠdeĠ
dong1Ġ bu4ĠdeĠ
jue2Ġ ce4Ġ
lin2Ġ na4Ġ
xuan3Ġ piao4Ġ
gui1Ġ ge2Ġ
Ġxiang4Ġ zheng1Ġ
pai2Ġ hang2
ĠdeĠyi1Ġ zhong3
fan4Ġ dian4Ġ
Ġwan4Ġ ying1Ġ
shen3Ġ cha2
duo2Ġ guan4Ġ
Ġwu2 Ġren2Ġ
miao2Ġshu4Ġ leĠ
Ġfei1 Ġli4Ġ
Ġliu4 Ġyue4Ġ
Ġ 1937Ġnian2Ġ
Ġ 1947Ġnian2Ġ
jun1 Ġren2Ġ
wai4 Ġxing2Ġ
hua2 Ġyu3Ġ
zi1 ĠdeĠ
Ġshi4Ġ ri4Ġben3
Ġji4Ġ zhe3Ġhui4Ġ
Ġde2 Ġyi4Ġ
Ġzhan4Ġ lve4Ġ
gao1Ġ feng1Ġ
bi3Ġ ci3Ġ
qing1Ġ hai3Ġ
bian4Ġ geng1
bian1Ġ jing4
xie1Ġ gen1
chong1Ġ fen4Ġ
zhan4Ġdou4 Ġji1Ġ
Ġying1 Ġli3Ġ
chuang4Ġban4 Ġren2Ġ
Ġ jing4
Ġ 1988
Ġ liu3
Ġ tui1Ġchu1Ġ
qu1 Ġyu2Ġ
qu1 Ġyi4Ġ
shang4 Ġyi3Ġ
shi1 Ġli4Ġ
sheng3 Ġzheng4Ġ
10 Ġge4Ġ
ji3 Ġnan2Ġ
qin1 Ġshi2Ġ
xin1Ġ sheng1Ġ
lu4Ġ ying3Ġ
jing1Ġ ti3Ġ
jiao4Ġ xiao3Ġ
she4Ġ ding4Ġ
Ġwan4Ġ zhang1Ġ
Ġxing2Ġzheng4 Ġzhong1Ġxin1
Ġ gan4
Ġ Li
Ġ 1946Ġnian2Ġ
zuo4 Ġyou3Ġ
shang4 Ġhe2Ġ
shou3 Ġbei4Ġ
zhang3 Ġli3Ġ
san1 Ġguo2Ġ
yuan4 Ġhe2Ġ
bao3 Ġshi4Ġ
meng2 Ġyou3Ġ
zhen3 Ġduan4Ġ
chai2 Ġyou2Ġ
shi2Ġ dai4Ġ
Ġshi2Ġ shang4Ġ
Ġgong1Ġ jin1
Ġgong1Ġ bu4ĠdeĠ
Ġcheng2Ġ qiang2Ġ
Ġyuan2Ġ lai2ĠdeĠ
jie1Ġ qu1Ġ
liang3Ġ ci4
shen2Ġ jing1
Ġbi4Ġ ye4Ġhou4Ġ
Ġgai1Ġsheng3Ġfen4Ġwei4Ġfa3Ġguo2Ġ bei3Ġbu4Ġ
sai1Ġer3Ġwei2Ġ ya4
guo2ĠdeĠte4Ġyou3Ġ zhi2Ġwu4Ġ
Ġ fu3
yi1 Ġzai4Ġ
xin1 Ġhe2Ġ
ke3 Ġxing2Ġ
jiu4 Ġyi3Ġ
bai4 ĠdeĠ
yong3 Ġshi4Ġ
zao1 Ġdao4
Ġbei4Ġ pan4Ġ
jiao4Ġ gao1ĠdeĠ
fa1Ġ yu4Ġ
Ġxin1Ġ wen2
ban1Ġ dian3Ġ
lun4Ġ shu4Ġ
shao3Ġ liang4Ġ
sui2Ġ zheĠ
tui1Ġ fan1Ġ
nie4Ġ ci2
Ġsheng1Ġhuo2 Ġzai4Ġ
hua2Ġsheng4Ġ dun4Ġ
Ġ qing1Ġnian2Ġ
ai4 Ġhe2Ġ
li3 Ġyou3Ġ
gai1 Ġdi4Ġqu1Ġ
nuo4 Ġbei4Ġer3Ġ
cu4 Ġ
Ġyuan2Ġ xing2
Ġer2 Ġyou3Ġ
Ġzhou1 Ġguo2Ġ
yan2Ġ lun4
fen1Ġ shu4Ġ
xiao3Ġ xiang4Ġ
Ġzhi2Ġ jing4Ġ
Ġsan1 Ġguo2Ġ
Ġba1 Ġxi1Ġ
ran3Ġ se4Ġ
ĠO Ġ
Ġ guo3Ġ
xin1 Ġxi1Ġlan2Ġ
er2 Ġcheng2Ġ
ning2 Ġxian4Ġ
ĠdeĠ ping2Ġ
Ġzai4Ġ xia4Ġ
Ġshi2Ġ chang2Ġ
sheng1Ġ xiao4Ġ
Ġji1Ġ dong4Ġ
yan2Ġ hai3
lian2Ġ bo1Ġ
bei3Ġ ka3Ġluo2Ġlai2Ġna4
Ġsheng1Ġ ming4
jie4Ġ mian4Ġ
Ġdan4Ġ bai2
qing1Ġ chao2
zu2Ġ zong3Ġ
pai2Ġ fang4Ġ
xian4Ġ chang3Ġ
Ġdong1Ġ lin2
dian4Ġzi3 Ġyou2Ġxi4Ġ
guan3Ġkong4 Ġzhong1Ġfa1Ġxian4Ġ
Ġ chuan2
Ġ ãĤ
Ġ xue3Ġ
ĠĠĠ she4Ġhui4Ġ
zhi4 ĠĠĠ
dao4 Ġde2Ġ
wai4 Ġji2Ġ
yun4 ĠdeĠ
fan3 Ġgong1Ġ
shang1 Ġhui4Ġ
qing2 Ġren2Ġ
deng1 Ġji1Ġ
ted ĠĠĠ
align Ġ
da4Ġ chen2Ġ
Ġyi4Ġ miao2
Ġxing2 Ġzhi4Ġ
Ġke4Ġ lun2Ġ
Ġzhu4Ġ ming2ĠdeĠ
xing2Ġ dong4
ban4Ġshi4Ġ chu4
ĠĠĠ 2000Ġnian2Ġ
ping2 Ġxing2Ġ
min2 Ġshi4Ġ
nei4 Ġhe2Ġ
mei2 Ġli4Ġ
gui1 ĠdeĠ
70 Ġ
huan3 Ġman4Ġ
Ġbu4Ġ shu3Ġ
Ġda4Ġ jiang1Ġjun1Ġ
zi4Ġ zhu3Ġ
Ġzhan4Ġ yi4Ġzhong1Ġ
Ġtong2 Ġbu4Ġ
Ġxue2Ġ sheng1
se4Ġ qing2Ġ
jian3Ġ ce4
zheng1Ġ lun4Ġ
zhuan1Ġ zhu4Ġyu2Ġ
xun2Ġ luo2Ġ
Ġqian2Ġ wang3
dian4Ġying3 Ġzhong1Ġ
Ġji2Ġtuan2 Ġyou3Ġxian4Ġgong1Ġsi1Ġ
luo2Ġma3Ġ ni2Ġya4Ġ
Ġyu3Ġmao2 Ġqiu2Ġ
Ġ ban4
ĠĠĠ 2024Ġnian2Ġ
you3 ĠĠĠ
you3 Ġbu4Ġfen4Ġ
le Ġta1
zheng4 Ġhe2Ġ
xiang4 Ġyu3Ġ
bian4 Ġxing2Ġ
po2 Ġ
Ġshi4Ġ xiang1Ġgang3
Ġshi4Ġ dang1Ġdi4Ġ
Ġzai4Ġ ke4Ġ
Ġcheng2Ġ yuan2ĠdeĠ
Ġda4Ġ zi4Ġ
zhu4Ġ fang2Ġ
shou3Ġ fa3Ġ
ye4Ġ wu4
liang3Ġ zhe3Ġ
hai2Ġ zi
zhen1Ġ cha2
Ġbi4Ġ xu1
ĠdeĠbu4Ġ tong2Ġ
Ġshen1Ġ du4Ġ
shou1Ġlu4Ġ leĠ
Ġ xian3
Ġ gui3
Ġ 98
Ġ 1952Ġnian2Ġ
shi3 Ġqi2Ġ
ma3 Ġde2Ġli3Ġ
qiao1 Ġchu1Ġ
Ã¼ Ġ
Ġzai4Ġ ba1Ġ
Ġyi4Ġ li4Ġ
zhu3Ġ zhang1
Ġjian4Ġ zao4ĠdeĠ
Ġquan2 Ġqiu2
jue2Ġ xin1Ġ
ke3Ġ yong4Ġyu2Ġ
liang3Ġ ce4
zheng1Ġ duo2
lu2Ġ wa3Ġ
Ġshe4Ġji4Ġ shi1Ġ
xi3Ġ ai4Ġ
2010Ġnian2Ġ mei3Ġguo2Ġren2Ġkou3Ġpu3Ġcha2Ġ
Ġguo2Ġjia1 Ġji2Ġ
Ġwei4Ġzhong1Ġ xin1Ġ
Ġchao2Ġ ting2Ġ
zhu3Ġti2Ġ qu1Ġ
Ġmin2 Ġji2Ġ
ji3Ġnei4Ġ ya4Ġ
2 Ġming2Ġ
yan2 Ġhe2Ġ
duo1 Ġjia1Ġ
qi3 Ġchu1Ġ
luo2 ĠdeĠ
cheng1 ĠdeĠ
cha2 Ġsi1Ġ
11 Ġnian2Ġ
Ġbu4Ġ yi4Ġ
Ġzhong1Ġ xue2
Ġshi2Ġ er4
Ġren2Ġ lei4ĠdeĠ
Ġsi1Ġ ta3
Ġji1Ġ qiang1Ġ
Ġxi1Ġ de2Ġ
Ġzhi1Ġ yi1ĠdeĠ
Ġbing4Ġ kai1Ġshi3Ġ
zhi3Ġ ling4Ġ
gu3Ġ dai4
Ġzhong1Ġguo2Ġ guo2Ġjia1Ġ
ke3Ġyi3Ġ yong4Ġ
ĠdeĠli4Ġ shi3
zhen3Ġ duan4
Ġ e
Ġ xu3
wu3 Ġren2Ġ
qing1 Ġxi1Ġ
zheng3 Ġshu4Ġ
Ġshi4Ġ tu2
Ġshi4Ġ han2Ġguo2Ġ
Ġdi4Ġ chu3Ġ
jia1Ġ qiang2Ġ
xiang1Ġ lian2Ġ
Ġming2Ġ dan1
fu2Ġ te4Ġ
zhi3Ġ biao1Ġ
wai4Ġ jie4
Ġju4Ġ qing4Ġxia4Ġ
lie4Ġ biao3
zhen1Ġ dui4
tao3Ġ fa2Ġ
gui3Ġdao4Ġ jiao1Ġtong1Ġ
xin1Ġli3Ġ xue2Ġ
Ġwei4Ġfu2Ġqi2Ġyu2Ġgang1Ġ lu2Ġxing2Ġmu4Ġ
Ġpu2Ġtao2Ġya2 Ġyu3Ġ
Ġ 1982
Ġ zhu2Ġ
Ġ reng2Ġ
shang4 Ġzai4Ġ
bo2 Ġke4Ġ
se4 Ġhuo4Ġ
kun1 Ġchong2Ġ
Ġhe2Ġ zhong1Ġguo2Ġ
Ġbu4Ġ xiang2Ġ
Ġzhi4Ġ pian4Ġ
Ġyi4Ġ chang2Ġ
wei2Ġ hu4Ġ
Ġji1Ġ guan1
kai1Ġ bo1Ġ
dong1Ġ lu4Ġ
ĠleĠ dui4Ġ
mei3Ġ guo2Ġhe2Ġ
Ġnan2Ġ fang1Ġ
fei4Ġ chu2
huan2Ġ bao3Ġ
Ġqian2Ġ long2
Ġying1Ġ gai1Ġ
Ġqu1Ġ yu4Ġ
kao3Ġlv4 Ġdao4Ġ
zhu1Ġlong2Ġ cao3
Ġ xiu4Ġ
Ġ bao4Ġdao4Ġ
ĠĠĠ fan3Ġ
gong1 Ġwei4Ġ
jin4 Ġdai4Ġ
yan2 Ġshi4Ġ
ying3 Ġji2Ġ
nv3 ĠdeĠ
hu4 ĠdeĠ
xi2 ĠdeĠ
men2 Ġshi4Ġ
tiao2 Ġjian4
gu4 ĠdeĠ
si3 ĠdeĠ
Ġhou4Ġ yin1Ġ
Ġxi1Ġ lan2
Ġming2Ġ chao2
jiao4Ġ duo1Ġ
fen1Ġ lie4
wei3Ġ tuo1
jian4Ġ zao4
quan2Ġ wei1Ġ
ling2Ġ mu4Ġ
leĠyi1Ġ xie1
dou4Ġ zheng1
Ġ gui1
Ġ gan1
Ġ chuang4Ġzuo4Ġ
Ġ iĠ
xia4 Ġxing2Ġ
te4 Ġzhi4Ġ
ci4 Ġri4Ġ
ti3 Ġzhong1Ġ
shou4 ĠleĠ
fang2 ĠdeĠ
zei2 Ġ
ĠdeĠ wei4Ġzhi4Ġ
Ġyu2Ġ zhong1Ġ
Ġyi1Ġ shou3Ġ
hou4Ġ lai2
Ġda4Ġ ming2Ġ
ju4Ġ chang3Ġ
jiao4Ġ xiao3ĠdeĠ
dian4Ġ che1
ti3Ġ nei4Ġ
mei3Ġguo2Ġ guo2Ġjia1Ġ
qi4Ġ xuan2
bo1Ġ luo2Ġdi4Ġ
Ġzhong1Ġguo2Ġ da4Ġlu4
huo4Ġ sheng4Ġ
ĠdeĠshi4Ġ li4Ġ
xun2Ġ huan2
qu1ĠdeĠ yi2Ġge4Ġ
er2Ġ yan2Ġ
huan2Ġxing2Ġ shan1Ġ
hao3Ġlai2Ġ wu4Ġ
ĠĠĠ Le
ĠĠĠ AĠ
gao1 Ġjia1Ġ
jie1 Ġyou3Ġ
su1 Ġzhou1Ġ
zong1 Ġzuo4Ġ
tan3 Ġke4
Î² Ġ
Ġxi1Ġ shou1Ġ
Ġbei4Ġ ren4Ġwei2
ding4Ġ lv4Ġ
Ġzi4Ġ sha1Ġ
jiu3Ġ jing1Ġ
ling2Ġ shou4Ġ
zhuan3Ġ bo1Ġ
tie3Ġlu4Ġ ju2Ġ
wen2Ġhua4Ġ yi2Ġchan3Ġ
min2Ġzhu3Ġ zhu3Ġyi4Ġ
wen1Ġ ge1Ġ
cheng2Ġli4Ġ yu2Ġ
pai2Ġhang2Ġ bang3Ġ
yun3Ġshi2Ġ keng1Ġ
you1Ġxiu4 ĠdeĠ
Ġgai1Ġwu4Ġzhong3ĠdeĠ mo2Ġshi4Ġchan3Ġ
Ġ ãĤĵ
Ġ yan3Ġyuan2Ġ
ao4 Ġli4Ġ
mu4 Ġhou4Ġ
zhong4 Ġxing2Ġ
zhao4 Ġji2Ġ
guan4 Ġjun1ĠdeĠ
sai1 Ġsi1Ġ
gai4 ĠleĠ
21 Ġshi4Ġji4Ġ
1902 Ġnian2Ġ
Ġwei4Ġ ji1Ġchu3Ġ
Ġyi4Ġ bai3Ġ
fang1Ġ zhen1Ġ
Ġqi2Ġ bing1
ge2Ġ lei1Ġ
an1Ġ fu3Ġ
ying3Ġ zhan3Ġ
shui3Ġ zhun3Ġ
can1Ġ mou2Ġ
xian4Ġ dai4
ju1Ġ bu3Ġ
Ġying1Ġ cun4Ġ
Ġbo1Ġ lan2Ġ
Ġzhan4Ġzheng1 Ġzhong1Ġ
shou4Ġhuan1Ġ ying2ĠdeĠ
Ġ ãĥ
xiang4 Ġqi2Ġ
la1 Ġli4Ġ
si4 Ġge4
dan1 Ġren2Ġ
po4 ĠleĠ
mie4 Ġwang2Ġ
shi3Ġ guan3Ġ
guan1Ġ bi4
jing1Ġ dian3
suo3Ġ en1Ġ
bei3Ġ lu4Ġ
ge2Ġ li2
Ġzuo4Ġ leĠ
ya4Ġ zhong3Ġ
feng1Ġ mian4Ġ
san1Ġ shi2Ġnian2Ġ
Ġxiang1Ġ xin4Ġ
sha1Ġ hai4
xun2Ġ yan3Ġ
Ġdi4Ġer4Ġ ci4Ġshi4Ġjie4Ġda4Ġzhan4Ġ
Ġzhi3 ĠdeĠshi4Ġ
Ġzhong1Ġshi4Ġ yan3Ġ
ĠĠĠben3 Ġyu2Ġ
Ġ chao2
Ġ mĠ
ĠĠĠ fa1Ġxing2Ġ
si1 Ġyou3Ġ
bian4 Ġde2
12 Ġge4Ġ
37 Ġ
ye1 Ġsu1Ġ
suo3Ġ mu3Ġ
shan1Ġ chu2Ġ
qing1Ġ hua2Ġda4Ġxue2Ġ
fei1Ġ ji1
qian1Ġ xi3
guang1Ġ xu4
gu4Ġ ding4
zheng4Ġfu3 Ġzai4Ġ
Ġ 55
Ġ bo1Ġchu1Ġ
Ġ gui1Ġding4Ġ
xue2 Ġli4Ġ
wen2 Ġji2Ġ
jie1 Ġdao4
yan4 ĠdeĠ
Ġwei4Ġ qi2
Ġyu2Ġ 2025
Ġli4Ġ an1Ġ
ji1Ġ gou4
ji1Ġ hu1
Ġda4Ġ jun1Ġ
Ġyu3Ġ qian2Ġ
Ġji4Ġ ren4Ġ
fu4Ġ shu3
ju4Ġ dian3Ġ
hua4Ġ xue2
zhe4Ġ yang4
dian4Ġ dong4Ġ
Ġfu4Ġ nv3Ġ
Ġshe4Ġ li4ĠdeĠ
Ġdan4Ġ yao4Ġ
si4Ġ hu1Ġ
wei1Ġ bo2Ġ
Ġgong1Ġzuo4Ġ zhe3Ġ
hai3Ġjun1Ġ lu4Ġzhan4Ġ
Ġwei4Ġdi4Ġ yi1Ġ
Ġbian1 Ġhao4Ġ
Ġgong4 Ġji4Ġ
Ġzhong1Ġguo2Ġguo2Ġmin2Ġ dang3Ġ
Ġ chi4
Ġ 1970Ġnian2Ġ
hou4 Ġji2Ġ
fu4 Ġyuan2Ġ
zhu4 Ġgong1Ġ
jiang1 Ġxian4Ġ
qi1 Ġge4Ġ
zhong4 Ġzhi4Ġ
cong2 Ġzhong1Ġ
jiang4 Ġzhi4Ġ
xun1 Ġzhang1
qiao1 Ġ
les Ġ
Ġshi2Ġ ba1Ġnian2Ġ
Ġzhi4Ġ hui4Ġ
jia1Ġ meng2Ġ
Ġyi1Ġ hao4Ġ
zheng4Ġ wu4Ġ
Ġhui4Ġ hua4Ġ
suo3Ġ xia2
ma3Ġ chang3Ġ
ma3Ġ en1Ġsheng3Ġ
ying1Ġ chao1
jiu4Ġ ke3Ġyi3Ġ
zu2Ġ qun2
kong1Ġ tiao2Ġ
guang3Ġbo1Ġ dian4Ġshi4Ġ
ĠĠĠta1 Ġzai4Ġ
juan1Ġ zeng4Ġ
dian4Ġqi4Ġ hua4Ġ
le Ġda4Ġliang4Ġ
zhi3 Ġwei4Ġ
deng3 Ġzhan4Ġ
da2 Ġdao4ĠleĠ
lun2 Ġduo1Ġ
ing ĠĠĠ
Ġzhi4Ġ li3Ġ
ping2Ġ gu1
dian4Ġ xin4Ġ
hai3Ġ di3Ġ
Ġdai4Ġ wei2Ġ
bao4Ġ dong4Ġ
mei2Ġ ti3ĠdeĠ
fan1Ġ chuan2Ġ
yong1Ġ you3ĠdeĠ
bi4Ġye4Ġ sheng1Ġ
Ġ Se
Ġ sai4Ġshi4Ġ
Ġ pan1Ġ
zhi1 Ġxia4Ġ
bo2 Ġli4Ġya4Ġ
cai3 Ġji2Ġ
gei3 Ġchu1Ġ
es ĠĠĠ
39 Ġ
zong4 Ġdui4Ġ
ĠdeĠ zuo4Ġpin3Ġ
Ġzhong1Ġ jie2Ġ
Ġshi2Ġ yu2Ġ
Ġyi1Ġ yi1Ġ
Ġjun1 Ġhe2Ġ
xin1Ġ zhu2
qi3Ġ hua4Ġ
dao3Ġ zhi4ĠdeĠ
Ġzhu4Ġ zuo4Ġ
liang3Ġ ceng2Ġ
luo4Ġ fu1Ġ
ling4Ġ wai4
Ġjing1Ġ guo4
jia3Ġ zu3Ġ
Ġnian2Ġ11Ġyue4Ġ 1Ġri4Ġ
Ġ xiang2
Ġ 1986
Ġ 1954Ġnian2Ġ
ĠĠĠ bai2Ġ
ou1 Ġzhou1ĠdeĠ
qi2 Ġta1ĠdeĠ
lian2 Ġsi1Ġ
zhong4 Ġli4Ġ
hua2 Ġwei4Ġ
xiu1 Ġshi4Ġ
chang4 Ġyi4Ġ
qiang1 Ġji1Ġ
Ġren2Ġ yi4Ġ
Ġren2Ġ wei2Ġ
Ġren2Ġ cai2Ġ
Ġer2 Ġwei4Ġ
fen1Ġ fen1Ġ
Ġshang4Ġ wu3Ġ
tai4Ġ luo2Ġ
Ġxia4Ġ jiang4Ġ
di3Ġ kang4
kao3Ġ ru4Ġ
dun4Ġ nie4Ġci2
Ġhong2Ġ se4Ġ
yin3Ġqi3 ĠdeĠ
Ġ huo3
lu4 Ġde2Ġ
nan2 Ġdao4Ġ
zhi3 ĠdeĠshi4Ġ
bao4 ĠdeĠ
pu3 Ġli4Ġ
zong1 Ġshi4Ġ
ding3 Ġbu4Ġ
III Ġ
Ġzai4Ġ dong1Ġ
li4Ġ yi4Ġ
dui4Ġ ying4Ġ
Ġjia1Ġ meng2
fa1Ġ da2Ġ
Ġdui4Ġ kang4Ġ
sai4Ġ shi4ĠdeĠ
zhang1Ġ dan1Ġqu1Ġ
jin3Ġ ci4Ġyu2Ġ
kuo4Ġ zhang1
shuai4Ġ xian1Ġ
Ġ 1948
Ġ geng1Ġming2Ġwei4Ġ
zhang1 Ġjia1Ġ
mai4 Ġke4Ġer3Ġ
zao3 Ġyu2Ġ
lao3 Ġhui4Ġ
Ġbu4Ġ xia4Ġ
Ġbu4Ġ lang3Ġ
Ġda4Ġ xuan3Ġ
shang4Ġ su4Ġ
ping2Ġ mian4Ġ
nan2Ġ xing4
lu4Ġ xu4
Ġsheng1Ġ ya2
bian1Ġ ru4Ġ
wei1Ġ fu1Ġ
ye3Ġ mei2Ġyou3Ġ
xing2Ġ zheng4
Ġfen1Ġ lan2Ġ
leĠyi1Ġ zhong3Ġ
Ġtai2Ġ bei3Ġ
xiang1Ġdang1 Ġyu2Ġ
shuai4Ġling3 ĠdeĠ
Ġ 35
ai4 Ġli4Ġsi1Ġ
ĠĠĠ 2001Ġnian2Ġ
zhan4 Ġji2Ġ
lin2 Ġxian4Ġ
rong2 Ġyu2Ġ
hai2 Ġhui4Ġ
jie3 ĠdeĠ
xiu1 Ġxi1Ġ
ce ĠĠĠ
tu4 Ġ
Ġshi2Ġ bie2Ġ
Ġyu2Ġ jia1Ġ
Ġli4Ġ wei3Ġ
xia4Ġ lang3Ġde2Ġ
min2Ġ dang3Ġ
Ġhuo4 Ġer3Ġ
wang3Ġ fan3Ġ
mi4Ġ ma3Ġ
zheng1Ġ duo2Ġ
can1Ġ yan3Ġ
man4Ġ hua4Ġjia1Ġ
huan2Ġ rao4
Ġluo2Ġ bo2Ġ
ĠdeĠren2Ġ wu4Ġ
Ġma3 Ġke4Ġ
Ġshu3Ġ rou4Ġshi2Ġxing4Ġ
Ġai1 Ġer3Ġ
shi1Ġfan4 Ġda4Ġxue2Ġ
jian1Ġcha2 Ġyu4Ġshi3Ġ
Ġ chu3
Ġ kong3
Ġ Sa
Ġ niu3Ġ
Ġ ming4Ġming2Ġ
Ġ hui1Ġfu4Ġ
Ġ za2Ġ
ĠĠĠ tai2Ġwan1
wei1 Ġer3Ġsi1Ġ
na3 Ġ
Ġwei4Ġ xing1
Ġji2Ġ you3Ġ
ming2Ġ chao2Ġ
Ġxian4Ġ ren4
Ġjia1Ġ ju4Ġ
wen2Ġ shu1Ġ
qian2Ġ long2Ġ
zong3Ġ jiao4Ġqu1Ġ
Ġzhu3Ġ jiao4Ġ
ĠdeĠdi4Ġ tie3Ġ
e2Ġ wai4ĠdeĠ
Ġgao1Ġ deng3Ġ
Ġxiao3Ġ shuo1
huo2Ġdong4 Ġzhong1Ġ
Ġbu4Ġguo4 Ġzai4Ġ
yi1Ġli4Ġ nuo4Ġyi1Ġ
Ġ zai4
Ġ ce4
Ġ 1938Ġnian2Ġ
ĠĠĠ xiao4Ġ
zuo4 Ġcheng2Ġ
bo Ġdu4Ġ
bao4 Ġyu3Ġ
zhan3 Ġxian4
zhuang1 Ġyuan2Ġ
lao3 Ġren2Ġ
pen2 Ġ
Ġhe2Ġ zuo4ĠdeĠ
Ġdi4Ġ 1
Ġxian4 Ġyi4Ġ
zuo4Ġ qu3Ġjia1Ġ
zheng4Ġ dang3
zheng4Ġ bian4Ġ
Ġjia1Ġ zu2ĠdeĠ
Ġta1Ġ ke3Ġyi3Ġ
ju4Ġ jue2
Ġbei4Ġ ji1Ġ
yan2Ġ fa1
zhi2Ġ wu4ĠdeĠ
Ġzheng4Ġ quan4Ġ
zui4Ġ xin1Ġ
Ġzhe4Ġ yi4Ġwei4Ġ
yun4Ġ suan4Ġ
Ġxiang1Ġ jiao4Ġyu2Ġ
mi4Ġ mi4
lei4Ġ an4Ġjian4Ġ
jia4Ġ zhi2ĠdeĠ
xian1Ġ qu1Ġ
ling2Ġ hun2
Ġjian4Ġzhu4Ġ shi1Ġ
Ġxing2Ġzheng4Ġ zhang3Ġguan1Ġ
ĠdeĠbu4Ġ dui4Ġ
Ġha1 Ġli4Ġ
Ġhua4Ġxue2 Ġshi4Ġwei4Ġ
Ġ tuo1
Ġ nai4
Ġ huang2Ġjia1Ġ
Ġ biao1Ġzhi4Ġ
ĠĠĠ s
ĠĠĠ xiang1Ġguan1Ġ
ĠĠĠ miao2Ġshu4Ġ
fu4 Ġwei4Ġ
fang1 Ġji4Ġ
ping2 Ġshi4Ġ
ben3 Ġshi4Ġ
tai2 Ġyu3Ġ
zou3 ĠleĠ
Microsoft ĠĠĠ
Ġcheng2Ġ shu2
shang4Ġ zhen4Ġ
shi3Ġ zhe3Ġ
zui4Ġ zhu4Ġming2ĠdeĠ
shu1Ġ niu3
jiao1Ġ wang3Ġ
zu3Ġ zhang3Ġ
Ġci3 Ġzhan4Ġ
ĠdeĠyi4Ġ shu4Ġ
niu3Ġyue1 Ġzhou1Ġ
Ġxian4Ġlu4Ġ kou3Ġ
wo3Ġmen ĠdeĠ
shou4Ġhai4Ġ zhe3Ġ
Ġ kan3
Ġ Ð¸
Ġ hen3Ġduo1Ġ
ĠĠĠ 13
ĠĠĠ Mar
ĠĠĠ 20Ġshi4Ġji4Ġ
wei2 Ġji2Ġ
zui4 Ġming2Ġ
cai2 Ġhui4Ġ
Ġqi2 Ġren2Ġ
ren4Ġ jiao4Ġ
yan2Ġ xu4Ġ
gao1Ġ ceng2Ġ
shi1Ġ zong1Ġ
jie1Ġ shang4Ġ
Ġtong2 Ġnian2Ġ8Ġyue4Ġ
Ġhuo4Ġ bi4Ġ
biao3Ġ mian4
Ġben3Ġ shen1Ġ
zhi1Ġ hou4ĠdeĠ
Ġhao4Ġ zhong3ĠziĠ
zhuan4Ġ xie3
tiao2Ġjian4Ġ xia4Ġ
Ġyi4Ġzhi2 Ġzai4Ġ
shi1Ġqu4 ĠleĠ
na4Ġcui4 Ġde2Ġguo2Ġ
e2Ġhai4Ġe2 Ġzhou1Ġ
Ġ John
Ġ miao2Ġ
Ġ huang2Ġdi4Ġ
sheng1 Ġdao4Ġ
ke4 ĠdeĠ
zhi2 Ġgong1Ġ
zhi2 Ġbei4Ġ
zu3 Ġcheng2Ġyuan2Ġ
ying1 Ġshi4Ġ
mu3 Ġhe2Ġ
zhong1Ġ xue2Ġ
jin1Ġ tian1Ġ
chang2Ġ chang2Ġ
tui1Ġ fan1
Ġzhi2 Ġdao4
Ġci4Ġ lie4Ġche1Ġ
lv4Ġwei4Ġ 0
Ġ lian2
Ġ neng2
Ġ ref
Ġ 1966Ġnian2Ġ
e2 Ġjun1Ġ
ĠĠĠ yang2Ġ
ĠĠĠ 7Ġ
pu3 ĠdeĠ
ku4 ĠdeĠ
zhao1 Ġhe2Ġ
kao4 Ġjin4
ren2Ġ lei4
cheng2Ġ li4ĠdeĠ
Ġdi4Ġ 4Ġ
ji4Ġ lu4
xi1Ġ li3Ġ
fa3Ġ an4
mu4Ġ han3Ġmo4Ġde2Ġ
Ġyin1Ġ su4
jie4Ġ ru4Ġ
zong3Ġ ti3Ġ
gu3Ġ ba1Ġ
Ġlu4Ġ yin1Ġshi4Ġ
hui2Ġ lai2Ġ
fei4Ġ qi4Ġ
sai1Ġ e2Ġ
Ġmeng2Ġ gu3
Ġ zheng3
ĠĠĠ ri4
zhan4 Ġli4Ġ
fu4 Ġyi4Ġ
qi1 Ġming2Ġ
xing4 Ġdi4Ġ
xiao4 Ġzhong1Ġ
long2 Ġshi4Ġ
pai2 Ġqiu2Ġ
ra Ġ
Ġbu4Ġ bei4Ġ
Ġbu4Ġ shou4Ġ
Ġyu2Ġ 9Ġyue4Ġ
Ġcheng2Ġ du4ĠdeĠ
Ġxian4Ġ ding4Ġ
Ġbei4Ġ xuan3Ġwei4Ġ
zui4Ġ duo1
Ġzhe4Ġ ye3Ġ
ba1Ġ da2Ġ
bian4Ġ geng1Ġ
jia4Ġ shi3
Ġcheng2Ġyuan2Ġ guo2Ġ
Ġxi4Ġ bao1
jing1Ġli4Ġ leĠ
Ġ Ðµ
Ġ chuang4Ġli4Ġ
Ġ 1935Ġnian2Ġ
ti2 ĠdeĠ
11 Ġshi2Ġ
jia4 Ġri4Ġ
xun4 ĠdeĠ
que1 Ġxian4Ġ
ren2Ġ lei4Ġ
Ġbu4Ġ lang3
Ġyu2Ġ 2008
jia1Ġ ting2
Ġyu3Ġ zhi1
Ġxi1Ġ lin2Ġ
Ġchu1Ġ ju2Ġ
Ġwei2Ġ lai2Ġ
Ġdai4Ġ ling3
jie3Ġ jie3Ġ
jiang3Ġ shi1Ġ
chu4Ġ chu4Ġzhang3Ġ
chu3Ġ cun2Ġ
ĠdeĠshi2Ġ ji4Ġ
Ġwan4Ġ dun1Ġ
lu2Ġ sen1Ġ
geng1Ġ gai3Ġ
mu4Ġdi4Ġ di4Ġ
ĠĠĠhou4Ġ lai2Ġ
xie2Ġshang1Ġ hui4Ġyi4Ġ
Ġ bing3
Ġ guan4Ġ
Ġ 1975Ġnian2Ġ
wu4 Ġji2Ġ
dai4 Ġshi2Ġ
bao3 Ġjian4Ġ
qing1 ĠdeĠ
qiang2 Ġxing2Ġ
guan4 Ġli4Ġ
gan4 Ġshi4Ġ
Ġshi4Ġ jue2Ġ
Ġyu3Ġ ta1
Ġli3Ġ cha2Ġ
zhan4Ġ chang3Ġ
Ġzhi1Ġ yong4Ġ
kai1Ġ pu3Ġ
san1Ġ ceng2Ġ
mei3Ġ la1Ġ
zhou1Ġ qi1Ġ
Ġtong2Ġshi2Ġ ye3
kai1Ġshi3 Ġhou4Ġ
Ġbi4Ġ ye4Ġ
zai1Ġ hai4Ġ
shu4Ġliang4 ĠdeĠ
ken3Ġ se4
5 Ġshi2Ġ
Ġ ding3Ġ
hou4 Ġgong1Ġ
chu1 Ġxian4ĠdeĠ
qu1 Ġwei4Ġyu2Ġ
fa3 Ġjun1Ġ
fu2 Ġda4Ġxue2Ġ
pu3 Ġsi1Ġ
zhuang1 Ġzai4Ġ
shuai4 Ġjun1Ġ
Ġhe2Ġ dao4Ġ
Ġji2Ġ ta1Ġ
Ġyuan2Ġ you3ĠdeĠ
Ġde2 Ġshi4Ġ
Ġde2 Ġzai4Ġ
Ġli3Ġ jia1Ġ
zui4Ġ ju4Ġ
zong3Ġ guan3Ġ
Ġguo4Ġ qu4
ke3Ġneng2 Ġzai4Ġ
Ġceng2 Ġwei4Ġ
ling4Ġyi1Ġ zhong3Ġ
Ġgan1Ġ su4Ġ
Ġshi2Ġyi1Ġ yue4Ġ
fu2Ġluo2Ġli3Ġ da2Ġzhou1Ġ
ĠĠĠ mi3Ġ
yi1 Ġnian2ĠdeĠ
shang4 Ġyi4Ġ
er2 Ġbei4Ġ
na4 Ġzai4Ġ
wan1 Ġdao4Ġ
wa3 Ġer3
miao4 ĠdeĠ
ren2Ġ kou3
yi4Ġ yi4Ġ
Ġyu3Ġ mei3Ġguo2Ġ
Ġxing2Ġ che1Ġ
ren4Ġ tian1Ġtang2Ġ
xin1Ġ a1Ġji1Ġtan3
min2Ġ jian1
nei4Ġ bu4ĠdeĠ
Ġzhe4Ġ liang3Ġge4Ġ
ying1Ġ chi3Ġ
bian4Ġ lun4Ġ
liang3Ġ xiang4Ġ
Ġsui4 Ġren2Ġkou3Ġ
Ġtong1Ġ chang2Ġshi4Ġ
suo1Ġ xie3Ġ
Ġyong4Ġ lai2Ġ
bei3Ġjing1 Ġda4Ġxue2Ġ
li4Ġhe2Ġ wu2Ġzheng4Ġzhuang4Ġgan3Ġran3Ġzhe3Ġ
Ġyou4Ġming2Ġ BDĠ
Ġxin1Ġjia1Ġ po1
hang2Ġzhan4Ġ lou2Ġ
suo3Ġxu1 ĠdeĠ
Ġ hao3
Ġ ke3Ġyi3
Ġ neng2Ġgou4Ġ
gong1 Ġzhong1Ġ
yan2 Ġli4Ġ
suo3 Ġbu4Ġtong2Ġ
17 Ġnian2Ġ
song4 Ġzhi4Ġ
da1 Ġcheng2Ġ
Ġbu4Ġ lu3Ġke4Ġ
Ġge4 Ġyou3Ġ
Ġge4 Ġxian4Ġ
hui4Ġ hua4Ġ
sheng1Ġ zhang3
guan1Ġ kan4
lu4Ġ yin1Ġ
shou3Ġ hu4Ġ
chuan2Ġ jiao4Ġ
an4Ġ cha2Ġ
fan3Ġ kang4Ġ
man4Ġ ha1Ġ
Ġci3Ġ qian2Ġ
mai4Ġ a1Ġ
xuan1Ġ gao4Ġ
tu1Ġ jue2Ġ
Ġquan2Ġguo2Ġ zhong4Ġdian3Ġwen2Ġwu4Ġbao3Ġhu4Ġdan1Ġwei4Ġ
Ġmin2Ġ zu2Ġ
Ġwei4Ġyu2Ġgai1Ġguo2Ġ bei3Ġbu4Ġ
Ġxi1 Ġyuan2Ġ
min3Ġ gan3Ġ
Ġgai1Ġwu4Ġzhong3ĠdeĠmo2Ġshi4Ġchan3Ġ di4Ġzai4Ġ
Ġ yuan3
Ġ 1976Ġnian2Ġ
hou4 Ġzhi4Ġ
xiang4 Ġzai4Ġ
mi4 Ġji2Ġ
geng4 Ġyou3Ġ
lang2 ĠdeĠ
ment Ġ
Ġshi4Ġ xian4Ġ
Ġshi2Ġ si4Ġ
zhan4Ġ ju4Ġ
zhen4Ġ ying2Ġ
wu2Ġ guan1Ġ
zhi1Ġ wai4Ġ
zhuang1Ġ bei4
ha1Ġ la1Ġ
xuan1Ġ cheng1
lao3Ġ ban3Ġ
Ġmei2Ġ ti3Ġ
Ġsui2Ġ zhu4
jie1Ġdao4Ġ ban4Ġshi4Ġchu4Ġ
Ġzai4Ġzhe4Ġ ge
Ġxiang4 Ġshi4Ġ
Ġan4Ġ zhao4Ġ
Ġke4Ġxi1Ġ ta3Ġni2Ġda4Ġqu1Ġ
Ġ ju3
Ġ xu1
Ġ 1938
ĠĠĠ Ro
ĠĠĠ suo3Ġ
ĠĠĠ wu1Ġke4Ġlan2Ġ
qu1 Ġyu3Ġ
lu4 Ġsi1Ġ
zui4 Ġjin4Ġ
shui3 Ġxian4Ġ
nv3 Ġyou3Ġ
mi4 Ġer3Ġ
zhen1 Ġxiang4Ġ
Ġri4 ĠĠĠ
Ġsi1Ġ li3Ġlan2Ġ
Ġwei2Ġ hu4Ġ
Ġwei2Ġ xiu1Ġ
Ġdai4Ġ bu3Ġ
sai4Ġ ju1Ġ
Ġhao4 Ġhe2Ġ
da2Ġ ke1
xi2Ġ su2Ġ
yin3Ġ fa1
hui2Ġ ying4
hai2Ġ bao1Ġkuo4Ġ
xun2Ġ hang2Ġ
chong2Ġ xiu1Ġ
bie2Ġ shu4Ġ
zai1Ġ nan4Ġ
Ġai4 Ġde2Ġhua2Ġ
jiao1Ġhui4Ġ chu4Ġ
Ġ ãĤ¤
Ġ lou2Ġ
Ġ yun4Ġdong4Ġ
ĠĠĠ Con
ĠĠĠ bi3Ġsai4Ġ
yin1 ĠdeĠ
mian4 Ġwei4Ġ
ci4 Ġshi4Ġ
neng2 ĠdeĠ
lv4 Ġdi4Ġ
qian1 Ġdao4Ġ
tie3 Ġdao4
hen3 Ġgao1Ġ
re Ġ
qu1Ġ yu4ĠdeĠ
na4Ġ cui4Ġ
shu3Ġ xing4Ġ
que4Ġ ren4
ming4Ġ yun4Ġ
gu4Ġ wen4
wa3Ġ sheng3Ġ
Ġnian2Ġ6Ġyue4Ġ 30Ġri4Ġ
Ġcong2 Ġshi4Ġ
Ġ Ro
Ġ 88
Ġ Ca
Ġ ban3Ġben3Ġ
ĠĠĠ 2002
li3 Ġzhi4Ġ
zhou1 Ġnian2Ġ
bie2 Ġren2Ġ
zao3 Ġyi3Ġ
13 Ġnian2Ġ
mou3 Ġge4Ġ
Ġshi2Ġ er4Ġyue4Ġ
Ġyi1Ġ fu2Ġ
Ġge4 Ġchu1Ġru4Ġkou3Ġ
guan1Ġ qia3
ye4Ġ ti3Ġ
ma3Ġ ding1Ġ
Ġjie2Ġ gou4
Ġtian1Ġ zhu3Ġjiao4Ġ
Ġshi4Ġzhen4Ġ fan4Ġwei2Ġnei4Ġ
bu3Ġ ji3Ġ
ke1Ġxue2Ġ yuan4
Ġguan1Ġ zhong4Ġ
Ġchu2Ġ le
Ġduo1 Ġge4Ġ
yun3Ġ keng1
re4Ġdai4Ġ di1Ġqi4Ġya1Ġ
zui4Ġhou4Ġ yi2Ġge4Ġ
Ġ lei1
Ġ dong3
Ġ yan1Ġ
Ġ pei4Ġhe2Ġ
ĠĠĠ she4Ġ
yu2 Ġnian2Ġ
dui4 Ġzhi4Ġ
bi3 Ġsi1Ġ
bian4 Ġhou4Ġ
rong2 Ġhuo4Ġ
di3 Ġbu4Ġ
kai3 Ġer3Ġ
rao2 Ġ
li3Ġ you2Ġ
ming2Ġ que4Ġ
sheng1Ġ yu4Ġ
Ġta1Ġ dan1Ġren4Ġ
nan2Ġ hai3Ġ
jian1Ġ guan3Ġ
Ġquan2 Ġcheng2Ġ
liang4Ġ zi3
jing3Ġ wu4Ġ
pai2Ġ chu2
Ġwen2Ġ wu4Ġ
wan2Ġ fa3Ġ
Ġbi3Ġ ru2
Ġshi4Ġzhong1Ġ xin1
ou1Ġzhou1 Ġguo2Ġjia1Ġ
Ġ Ra
Ġ zao3Ġnian2Ġ
da4 Ġshi4Ġ
yu3 Ġshi2Ġ
you3Ġ xian4Ġ
Ġyi1Ġ zhao4Ġ
Ġta1Ġ you4Ġ
fa3Ġ gui1Ġ
Ġshang4Ġ xia4Ġ
cheng1Ġ zan4
Ġtong2Ġ shi2Ġzai4Ġ
Ġfen1 Ġbu4Ġ
Ġshi4Ġshi4Ġ zhang3Ġ
Ġge2Ġ lei2Ġ
Ġte4Ġbie2 Ġshi4Ġzai4Ġ
zhan4Ġdou4 Ġzhong1Ġ
tai2Ġnan2 Ġshi4Ġ
2 ĠĠĠ
Ġ Ð
Ġ ju2Ġ
ĠĠĠ zhe4Ġxie1Ġ
xian4 Ġlu4Ġ
hui4 Ġcheng2Ġ
zhan4 Ġyu3Ġ
duo1 Ġli4Ġ
ye3 Ġzhan4Ġ
shi1 Ġzai4Ġ
che1 Ġzai4Ġ
liu2 Ġdan4Ġ
qing3 Ġqiu2
bang3 Ġdan1Ġ
zun1 Ġshou3Ġ
kui2 Ġbei3
by ĠĠĠ
Ġri4 Ġshi4Ġ
zuo4Ġ yong4
zhu3Ġ yi4Ġhe2Ġ
Ġbei4Ġ si1Ġ
dian4Ġ ci2Ġ
Ġke4Ġ lin2Ġ
ba1Ġ sai1Ġ
zu3Ġ shu1Ġji4Ġ
ci2Ġ xing4Ġ
zhuang1Ġ cun1Ġ
huo4Ġ wu4Ġ
Ġgao1Ġ su4Ġ
qin1Ġ wang2
xin4Ġ feng4
Ġsui4 Ġdao4Ġ
Ġshi3Ġ cheng1Ġ
Ġyi1Ġsi1Ġ lan2
jiao4Ġke1Ġ wen2Ġ
ba1Ġle4 Ġsi1Ġtan3
mi4Ġxi1Ġxi1Ġ bi3
Ġ Mo
Ġ fa1Ġzhan3
jing4 Ġwei4Ġ
can1 Ġjun1Ġ
New ĠĠĠ
ĠdeĠ gui3Ġdao4Ġ
Ġgong1Ġ bu4
Ġyuan2Ġ sheng1Ġ
dui4Ġ hua4Ġ
guan1Ġ zhu4
zhi3Ġ dao3
luo2Ġ fu1
gou4Ġ cheng2ĠdeĠ
bing1Ġ chuan1Ġ
Ġgao1Ġ du4Ġ
tui1Ġ dong4
Ġnian2Ġzai4Ġ wei4Ġ
ying3Ġxiang3 ĠleĠ
Ġguo2Ġmin2Ġ zheng4Ġfu3
Ġwei4Ġyu2Ġgai1Ġguo2Ġ dong1Ġnan2Ġbu4Ġ
ĠdeĠji1Ġchu3 Ġshang4Ġ
Ġ 1909Ġnian2Ġ
gong1 Ġzai4Ġ
guan1 Ġjian4
lie4 Ġdi4Ġ
bo1 Ġxi1Ġ
han4 Ġren2Ġ
wang4 ĠdeĠ
1980 Ġnian2Ġdai4
Ġbu4Ġ xing2Ġ
Ġxian4Ġ lu4
ben3Ġ shu1Ġ
ge2Ġ lai2Ġ
jin4Ġ zhan3Ġ
wei3Ġ da4ĠdeĠ
quan2Ġ zhang3Ġ
Ġling4Ġ yi2Ġge4Ġ
geng1Ġ huan4Ġ
Ġdong1 Ġri4Ġben3Ġ
dong1Ġji4Ġ ao4Ġlin2Ġpi3Ġke4Ġyun4Ġdong4Ġhui4Ġ
ping2Ġlun4 Ġjia1Ġ
2019Ġguan1Ġzhuang4Ġbing4Ġdu2 Ġbing4
Ġ 99
Ġ yong1Ġ
ao4 Ġde2Ġ
jia1 Ġshi2Ġ
li3 Ġji2Ġ
jing1 Ġcheng2Ġ
ye4 Ġshi4Ġ
tai2 Ġshi4Ġ
tai2 Ġhe2Ġ
ni2 Ġji1Ġ
fei4 Ġcheng2Ġ
di3 ĠdeĠ
shi2Ġ ji4Ġ
Ġshi2Ġ jia1Ġ
Ġzhi4Ġ shi3Ġ
Ġgong1Ġ yu4Ġ
Ġzhou1 Ġzhi1Ġ
xiang1Ġ tong2
shou3Ġ ying4Ġ
Ġqi2Ġ xia4
Ġke4Ġ hu4Ġ
hua2Ġ xue3
luo4Ġ yang2Ġ
geng4Ġ gao1ĠdeĠ
Ġxian4ĠdeĠ cheng2Ġshi4Ġ
ha1Ġ sa4Ġke4Ġsi1Ġ
pin2Ġ fan2Ġ
xue4Ġ guan3Ġ
meng4Ġ xiang3Ġ
ĠĠĠzhe4Ġ geĠ
zi1Ġge2Ġ sai4Ġ
lan2Ġqiu2Ġ yun4Ġdong4Ġyuan2Ġ
yin3Ġqi3 ĠleĠ
Ġkong3Ġ tai4
3 Ġli4Ġ
Ġ Ø
Ġ 1970
Ġ duan3Ġ
Ġ zao3Ġqi1Ġ
Ġ gao1Ġzhong1Ġ
Ġ 1977Ġnian2Ġ
ĠĠĠ dang1Ġshi2Ġ
jin4 Ġqiu2Ġ
hua4 Ġji4Ġ
sai4 Ġshang4Ġ
ti3 Ġwei4Ġ
sai1 Ġer3
liao4 Ġli3Ġ
xie4 Ġren4Ġ
chun1 Ġjie2Ġ
Ġbu4Ġ fu4Ġbu4Ġzhang3Ġ
gong1Ġ zuo4
Ġyue4Ġ kan1Ġ
an4Ġ cha2Ġsi1Ġ
cai2Ġ zheng4Ġbu4Ġ
yin3Ġ ru4
jia3Ġ ban3Ġ
Ġping2Ġfang1Ġ ying1Ġli3Ġ
jie2Ġshu4 Ġshi2Ġ
Ġyi4Ġzhi2 Ġshi4Ġ
Ġniu3Ġyue1 Ġshi2Ġbao4Ġ
9 Ġge4Ġ
Ġ 1987
Ġ 1941
Ġ cui1Ġ
sh Ġ
suo3 Ġzhi4Ġ
bai2 Ġgong1Ġ
color Ġ
wei2Ġ qi1Ġ
Ġjun1Ġ qu1
wu3Ġ shu4Ġ
Ġju4Ġ jue2
shu1Ġ fa3Ġ
yue1Ġ han4
yan3Ġ xi2Ġ
lei4Ġ bie2Ġ
xu1Ġ ni3
huan4Ġ zhe3
lian4Ġ ai4Ġ
Ġluo2Ġ ma3
Ġxing2Ġzheng4Ġ qu1Ġhua4Ġ
Ġzui4Ġzhong1Ġ yu2Ġ
Ġhua4Ġ xue2Ġ
Ġmin2Ġ jin4Ġ
diao1Ġ su4
da1Ġ dang4Ġ
a1Ġgen1Ġ ting2
1 Ġyi4Ġ
Ġ fa1Ġzhan3Ġ
ĠĠĠ 2001
ĠĠĠ styleĠ
gai1 Ġshi4Ġ
wang2 Ġgong1Ġ
wei3 Ġren4Ġ
lv4 Ġhe2Ġ
xian1 Ġshi4Ġ
jiang3 Ġzuo4Ġ
zhi4Ġ shao3Ġ
si1Ġ xiang3
Ġer2 Ġyu3Ġ
Ġshe4 Ġshi4Ġ
qian2Ġ fang1Ġ
Ġzhan4Ġ sheng4Ġ
zui4Ġ zhang3ĠdeĠ
Ġhao4 Ġshi4Ġ
gai3Ġ zhuang1Ġ
mi4Ġ xie1Ġgen1
ying4Ġ bi4Ġ
da3Ġ bai4Ġ
han2Ġ shu4
ya1Ġ suo1Ġ
shu3ĠdeĠ dong4Ġwu4Ġ
qing4Ġ zhu4
ya3Ġ dian3Ġ
wu1Ġke4Ġlan2 ĠdeĠ
Ġjue2Ġ ding4
yi4Ġshi2Ġ dao4
Ġ yao2
Ġ 1979
Ġ 1964Ġnian2Ġ
hou4 Ġbu4Ġ
shou3 Ġge4
ze2 Ġren4Ġwei2Ġ
ba1 Ġge4Ġ
sheng4 Ġxia4Ġ
bai3 Ġwan4
yan4 Ġshi4Ġ
wang4 Ġsi1Ġ
xiong1 Ġzhang3Ġ
Ġbu4Ġ lei2Ġ
Ġguo2Ġjia1Ġ an1Ġquan2Ġ
Ġzhi4Ġzao4Ġ shang1Ġ
xue2Ġxiao4 ĠdeĠ
5 Ġming2Ġ
6 Ġshi2Ġ
Ġ fang4Ġ
Ġ pang2Ġ
Ġ duo2ĠdeĠ
Ġ 1968Ġnian2Ġ
ĠĠĠ fei1Ġ
chu1 Ġxian4
sheng1 Ġshi2Ġ
che1 Ġren2Ġci4Ġ
zu3 Ġjian4
gou4 Ġjian4Ġ
wei1 Ġer3Ġshi4Ġ
kun4 Ġnan2
ĠdeĠ nian2
Ġshi4Ġ qian2Ġ
di4Ġ shi2Ġ
Ġyou3Ġ duo1Ġ
Ġyou3Ġ zheĠ
Ġgong1Ġ yue1Ġ
Ġyi3Ġ 3Ġ
ba1Ġ xi1
jie3Ġ mei4Ġ
zheng4Ġzhi4Ġ xie2Ġshang1Ġhui4Ġyi4Ġ
she4Ġ hui4ĠdeĠ
Ġjing1Ġ ying2Ġ
xing2Ġzheng4Ġ qu1Ġ
lei3Ġ da3Ġ
jie2Ġmu4 Ġzhong1Ġ
Ġ g
Ġ 29
Ġ 1984
Ġ pi1Ġping2Ġ
Ġ VĠ
ĠĠĠ zhi3Ġ
ĠĠĠ si4Ġ
ĠĠĠ de2Ġ
ao4 Ġzhou1
ai2 Ġzheng4Ġ
shi3 Ġta1Ġ
mei3 Ġren2Ġ
18 Ġnian2Ġ
wa3 Ġsi1Ġ
14 Ġnian2Ġ
man3 Ġzhou1Ġ
qiang1 ĠdeĠ
mai3 Ġjia1Ġ
lan4 Ġ
nuan3 Ġ
ĠdeĠ cheng2Ġshi4Ġ
Ġbu4Ġ luo2Ġ
yi1Ġ yang4Ġ
Ġzhi4Ġ xu4Ġ
Ġji2Ġ xing4Ġ
Ġli4Ġ xi1Ġ
Ġli4Ġ xian4Ġ
Ġyu3Ġ duo1Ġ
Ġhou4Ġ xu4Ġ
Ġdui4Ġ zhang3Ġ
Ġren4Ġ jiao4Ġ
yi2Ġ lan2
wu2Ġ xu1Ġ
jia4Ġ zhi2
jiang3Ġ zhang1Ġ
bu3Ġ chong1
ying3Ġxiang3Ġ li4ĠdeĠ
bang1Ġzhu4Ġ xia4Ġ
cang1Ġ ku4Ġ
liu2Ġxing2Ġ yin1Ġyue4Ġ
wo1Ġ lun2Ġ
Ġli4Ġtao2Ġ wan3
Ġ Ar
yi1 Ġhe2Ġ
you3 Ġwei4Ġ
si1 Ġwei4Ġ
zhan4 Ġjian4Ġ
dai4 Ġzai4Ġ
fu4 Ġli3Ġ
jiang1 Ġqi2
duo1 Ġyu2Ġ
kai1 Ġyuan2Ġ
dan1 Ġshi4Ġ
xian1 Ġzai4Ġ
cai2 Ġfu4Ġ
16 Ġnian2Ġ
zan4 Ġwu2Ġ
yi1Ġ ji2Ġ
Ġren2Ġ qun2Ġ
Ġyi1Ġ jiao3Ġ
li3Ġ si1Ġ
dui4Ġ kang4
you2Ġ lai2Ġ
Ġbei4Ġ ge2Ġ
hua4Ġ ti2Ġ
la1Ġ ding1Ġ
ke1Ġ te4Ġ
gu3Ġ ge2Ġ
Ġquan2Ġ ti3Ġ
gong4Ġ xiang3Ġ
hu4Ġ zhao4Ġ
Ġtong2Ġ meng2
zhuan1Ġ an4Ġ
shuang1Ġ fang1
wa3Ġ la1Ġ
li2Ġkai1Ġ leĠ
wai4Ġguo2Ġ ren2Ġ
gai3Ġbian1 Ġwei4Ġ
qiang3Ġ po4Ġ
Ġ cao3Ġ
ĠĠĠ shou3Ġ
ma3 Ġde2Ġ
tai4 Ġhe2Ġ
wu2 Ġshi4Ġ
tang2 Ġdai4Ġ
kuan1 Ġdu4Ġ
der Ġ
qiao4 Ġ
ĠdeĠ ge1Ġqu3Ġ
Ġri4 Ġji2Ġ
Ġyuan2Ġ xian1Ġ
Ġxi1Ġ fang1
shu4Ġ xue2Ġjia1Ġ
lu4Ġ duan4
ge2Ġ lei1
jin1Ġ gang1Ġ
yi2Ġ bu4ĠdeĠ
xuan3Ġ ba2
ba1Ġ he4
ao4Ġ fu2Ġ
gou4Ġ ru4Ġ
Ġshi4Ġdi4Ġ er4Ġ
ĠdeĠda4Ġ xing2Ġ
Ġgai3Ġ bian1
fan2Ġ rong2Ġ
Ġshi4Ġwei4Ġyu2Ġmei3Ġguo2Ġ mi4Ġsu1Ġli3Ġ
tian1Ġjin1 Ġshi4Ġ
Ġ tu2
Ġ you3ĠdeĠ
Ġ lin2Ġshi2Ġ
Ġ 1972Ġnian2Ġ
ĠĠĠ yi3
shu4 Ġli4Ġ
zhu4 Ġshe4Ġ
mi3 Ġren2Ġ
hua2 Ġyi4Ġ
bai4 Ġhou4Ġ
background Ġ
Ġzai4Ġ du4
Ġri4Ġ ji4Ġ
ming2Ġ yu4Ġ
Ġchu1 Ġwei4Ġ
Ġshang4Ġ su4Ġ
nei4Ġ zheng4Ġbu4Ġ
ya4Ġ ma3Ġ
feng1Ġ bi4Ġ
Ġzhu4Ġ ce4Ġ
shu3Ġ wu4Ġzhong3Ġ
Ġxiang4Ġ mu4
zi3Ġ mei4Ġ
Ġjin1Ġ tian1Ġ
tuo1Ġ li2
Ġnian2Ġ3Ġyue4Ġ 1Ġri4Ġ
leĠyi1Ġ zuo4Ġ
Ġzhi3Ġ hui1Ġ
chuan2Ġtong3 Ġshang4Ġ
can1Ġsai4Ġ zhe3Ġ
jie4Ġquan2Ġguo2Ġ ren2Ġda4Ġdai4Ġbiao3Ġ
Ġxiao3 Ġping2Ġ
mu4Ġbiao1 Ġshi4Ġ
fei1Ġli4Ġ pu3Ġ
Ġ 69
ĠĠĠ zhu3Ġ
ĠĠĠ colspanĠ
jian4 Ġguo2Ġ
ban4 Ġxue2Ġ
tou2 Ġyu2Ġ
pao4 Ġji1Ġ
cui1 Ġhua4Ġ
Ġwei4Ġ 2
Ġgong1Ġ wu4Ġyuan2Ġ
Ġyi4Ġ miao2Ġ
Ġcheng2Ġ nuo4
Ġdao4 Ġwei4Ġ
Ġyuan2Ġ yi4Ġ
Ġli3Ġ ya4
san1Ġ fen1Ġzhi1Ġ
ni2Ġ ao4Ġ
ban4Ġ chang3Ġ
shang1Ġ hai4
yan2Ġjiu1 Ġzhong1Ġ
xu1Ġ ni3Ġ
du2Ġ xing4Ġ
jun1Ġ dui4
hua2Ġren2Ġmin2Ġ gong4Ġhe2Ġ
Ġzhong1Ġyang1Ġ wei3Ġyuan2Ġhui4Ġ
ying4Ġyong4Ġ cheng2Ġshi4Ġ
ĠdeĠguan1Ġ dian3Ġ
Ġxin1Ġjia1Ġ po1Ġ
ĠĠĠ La
qian2 Ġli4Ġ
lin2 Ġhe2Ġ
se4 Ġhe2Ġ
or Ġ
at Ġ
ia Ġ
Ġbu4Ġ dui4ĠdeĠ
Ġzhi4Ġ da4Ġ
hou4Ġ bei4Ġ
zheng4Ġ jiao4Ġ
Ġhou4Ġ you4Ġ
dui4Ġ bi3Ġ
Ġer3 Ġjia1Ġ
jing1Ġ ling2Ġ
lai2Ġ shuo1
Ġke4Ġ lei2Ġ
Ġsheng1Ġ yin1Ġ
shan1Ġ lu4Ġ
lie4Ġ ning2Ġ
xiao4Ġ xiang4Ġ
bian1Ġ jiang1Ġ
dang3Ġ wei3Ġshu1Ġji4Ġ
tiao2Ġ yue1
deng1Ġ chang2
ĠĠĠzhong1Ġ hua2Ġmin2Ġguo2Ġ
Ġyi3Ġjing1 Ġbei4Ġ
Ġdi4Ġzhong1Ġ hai3Ġ
Ġfu2Ġlang3Ġ shen2Ġ
ka3Ġsi1Ġdi4Ġli4Ġ ya4Ġ
1 ĠĠĠ
Ġ du2
Ġ cun2Ġzai4Ġ
Ġ backgroundĠ
an1 Ġda4Ġ
wen2 Ġjian4
jie2 Ġri4Ġ
deng3 Ġshi4Ġ
hua2 Ġnan2Ġ
shuang1 Ġxiang4Ġ
bu3 Ġshi2Ġ
yuan2Ġ wai4Ġlang2Ġ
Ġguo2Ġ hui4Ġyi4Ġyuan2Ġ
Ġde2 Ġchu1Ġ
dai4Ġ ling3Ġ
Ġjun1Ġ xian2Ġ
dian4Ġ zhan4Ġ
zong3Ġ zhang3Ġ
Ġlu4Ġ xu4Ġ
nv3Ġ xing4ĠdeĠ
yang2Ġ xing4Ġ
tong2Ġ pai2Ġ
ĠdeĠyi1Ġ zuo4
kong1Ġ xi2
Ġyin1Ġwei4Ġ zai4Ġ
hen3Ġ shao3
Ġnian2Ġ8Ġyue4Ġ 1Ġri4Ġ
Ġzhi2Ġ ye4Ġ
ĠdeĠhe2Ġ xin1Ġ
ao4Ġlin2Ġpi3Ġke4Ġ yun4Ġdong4Ġ
sa4Ġzhu1Ġ sai1
2 Ġshi2Ġ
Ġ chong2
Ġ ru3
Ġ chan3Ġ
Ġ bu2Ġhui4Ġ
ĠĠĠ ceng2Ġ
dui4 Ġzhong1Ġguo2Ġ
ma3 Ġzhou1Ġ
qi4 Ġshi4Ġ
xing1 Ġren2Ġ
yang2 Ġren2Ġ
chao1 Ġshi4Ġ
43 Ġ
Ġzai4Ġ xiang1Ġgang3
bu4Ġ dui4Ġ
Ġdi4Ġ zhi3Ġ
Ġdao4Ġ qian4Ġ
Ġjia1Ġ zhou1
Ġta1Ġ kai1Ġshi3Ġ
yu4Ġ suan4
shou3Ġ qiang1Ġ
zhi2Ġ jiao4Ġ
zhi2Ġ tong1Ġ
dong1Ġ feng1Ġ
yi2Ġ dao3Ġ
ding4Ġ ju1
ju1Ġ zhu4
gai4Ġ yao4Ġ
ding3Ġ dian3Ġ
dai4Ġbiao3 Ġda4Ġ
Ġzai4Ġyi1Ġ ci4Ġ
Ġbo1 Ġsi1Ġ
Ġzai4Ġjia1Ġ shang4Ġ
Ġ 1960
zheng4 Ġren2Ġ
ru2 Ġtong2Ġ
pai2 ĠdeĠ
17 Ġshi4Ġji4Ġ
ck ĠĠĠ
xu2 Ġ
Ġbu4Ġ lun2Ġ
fu2Ġ lu3Ġ
Ġzuo4Ġ yong4
Ġlu4Ġ kou3Ġ
tu2Ġ sha1
Ġqi2Ġzhong1Ġ yi2Ġge4Ġ
hui1Ġ se4Ġ
ĠdeĠshi2Ġ dai4Ġ
kai1Ġshi3 ĠdeĠ
pao4Ġ bing1Ġ
Ġma3 Ġsi1Ġ
zhui1Ġ sui2Ġ
Ġwan4Ġren2Ġ ci4Ġ
Ġren4Ġwei2 Ġshi4Ġ
Ġji1Ġbai4 ĠleĠ
xin1Ġcheng2Ġ li4ĠdeĠ
Ġfei1Ġlv4Ġ bin1Ġ
Ġ shang1
Ġ heng1
Ġ 1940
Ġ mian4Ġdui4Ġ
Ġ 1960Ġnian2Ġ
ĠĠĠ 14
ao4 Ġbu4Ġ
zhan4 Ġxian4Ġ
quan2 Ġyi4Ġ
hai3 Ġzhan4Ġ
shen1 Ġke4Ġ
su4 Ġwei4Ġ
jie3 Ġxi1Ġ
pi1 Ġquan2Ġguo2Ġzhong4Ġdian3Ġwen2Ġwu4Ġbao3Ġhu4Ġdan1Ġwei4Ġ
rou2 Ġ
Ġzhi4Ġ suo3Ġzai4Ġ
Ġda4Ġ ting1Ġ
Ġchu1 Ġshi4Ġ
guan1Ġ zhi2Ġ
Ġyin1 Ġzai4Ġ
shou3Ġ xi2
Ġren4Ġ nei4Ġ
zui4Ġ xiao3Ġ
bi4Ġ hua4Ġ
Ġnian2Ġ9Ġyue4Ġ 1Ġri4Ġ
yi4Ġshi2Ġ dao4Ġ
ĠdeĠzuo4Ġ pin3
Ġji4Ġhua4 Ġzai4Ġ
Ġqiang2Ġ diao4Ġ
qi3Ġye4 Ġjia1Ġ
Ġkong3Ġtai4 Ġda4Ġqu1Ġ
l ĠĠĠ
Ġ 1978
fu2 Ġsi1Ġ
feng1 Ġli4Ġ
jiu4 ĠdeĠ
gai3 Ġyou2Ġ
ci2 Ġyu3Ġ
di1 Ġdi4Ġ
yang3 Ġhe2Ġ
pao4 ĠdeĠ
DVD Ġ
Ġwei4Ġ fu4Ġ
Ġbu4Ġ lei2
Ġshi2Ġ liu4
Ġyi1Ġ dai4
Ġyi1Ġ kao4
Ġji4Ġ jie2Ġ
zhu4Ġ ru4Ġ
fen1Ġ wei2
bo2Ġ lan3
ban4Ġ jing4Ġ
xi2Ġ guan4
Ġye3Ġ ke3Ġ
can1Ġ ting1
qin1Ġ lve4Ġ
wai4Ġjiao1Ġ guan1Ġxi4Ġ
Ġ yi4
ĠĠĠ Sa
ĠĠĠ te4Ġ
li Ġ
suo3 Ġzhi1Ġ
lian2 Ġsi1Ġji1Ġ
mian4 Ġyou3Ġ
sai4 Ġhe2Ġ
tong1 ĠdeĠ
chuan2 Ġcheng2Ġ
Ġshi4Ġ ying4Ġ
Ġnian2Ġ you2Ġ
Ġdi4Ġ di
Ġxi1Ġ yu3Ġ
ren4Ġ nei4Ġ
ping2Ġ jie4Ġ
nan2Ġ yan3Ġyuan2Ġ
Ġdan4 Ġyu2Ġ
yao4Ġ sai4Ġ
sha1Ġ te4Ġ
Ġwan4 Ġming2Ġ
yi3Ġ lai2
tao2Ġ li2Ġ
ĠdeĠren2Ġ kou3Ġwei4Ġ
yin4Ġdu4Ġ jiao4Ġ
jue2Ġse4Ġ ban4Ġyan3
juan1Ġ zeng4
guo4Ġqu4 ĠdeĠ
Ġ lun4Ġ
ĠĠĠ with
ĠĠĠ hui4Ġ
ĠĠĠ hai3Ġ
ĠĠĠ ru2Ġguo3Ġ
qu1 Ġzai4Ġ
wen2 Ġhe2Ġ
zhang3 Ġshi2Ġjian1Ġ
chu4 Ġzai4Ġ
pei4 Ġsi1Ġ
Ġnian2 Ġshi4Ġjie4
Ġji2Ġ jie2Ġ
yuan2Ġ su4Ġ
ji4Ġ yi4Ġ
ji1Ġ hu1Ġ
Ġge4 Ġshi4Ġ
Ġjun1 Ġjian4Ġ
zhe4Ġ zuo4Ġ
lian2Ġ xi4
fen1Ġ kai1Ġ
shan1Ġ kou3Ġ
dan1Ġ dang1Ġ
bian4Ġ hua4ĠdeĠ
jian3Ġ yan4Ġ
sheng4Ġ dian4Ġ
yan2Ġjiu1 Ġshi4Ġ
jian4Ġ kang1
jie3Ġ pou1
ĠdeĠshi4Ġ wu4Ġ
Ġbi3Ġ jiao4Ġ
jun4Ġ wang2Ġ
wan2Ġcheng2Ġ hou4Ġ
sun1Ġ ziĠ
Ġwai4Ġ jiao1
Ġren4 Ġzhong1Ġgong4Ġ
Ġ 78
e2 ĠdeĠ
ĠĠĠ gui3Ġdao4Ġ
ĠĠĠ 1999Ġnian2Ġ
li3 Ġwei4Ġ
mei3 Ġshi2Ġ
fen1 Ġhui4Ġ
sai4 Ġhui4Ġ
wu3 Ġri4Ġ
shan1 Ġshang4Ġ
lin2 Ġzai4Ġ
gu3 Ġji2Ġ
wei1 Ġsi1Ġ
ling2 Ġshi2Ġ
wen1 Ġhe2Ġ
che4 Ġchu1Ġ
mm Ġ
Ġnian2Ġ jian1
Ġzhong1Ġ wu3Ġ
Ġyi3Ġ ci3
zheng4Ġ wei3Ġ
fa3Ġ ting2
fen1Ġ xi1
liu2Ġ chuan2
xie2Ġ hui4ĠdeĠ
dai4Ġbiao3Ġ tuan2
xuan2Ġ lv4Ġ
zhang4Ġ ai4
Ġguo2Ġmin2Ġ ge2Ġming4
Ġtang2Ġ chao2Ġ
Ġqi2Ġta1 Ġren2Ġ
Ġxi1Ġla4 Ġ
jiao1Ġliu2 Ġdao4Ġ
Ġ zhuang4
Ġ shan3
Ġ 1981
Ġ gu1Ġji4Ġ
ĠĠĠ quan2
le ĠdeĠ
kai1 ĠdeĠ
wu3 Ġji2Ġ
luo2 Ġyi1Ġ
gang3 ĠdeĠ
ers Ġ
Ġshi4Ġ tai2Ġwan1
Ġxian4 Ġxing2Ġ
Ġda4Ġ xiao3
Ġyu3Ġ yin1Ġ
Ġchu1Ġ shi3Ġ
bao3Ġ an1
bao4Ġ dao3
chuan2Ġ fo2Ġjiao4Ġ
bian4Ġ huan4
gang3Ġ kou3
Ġye3Ġ cheng1Ġwei2Ġ
xiao1Ġ mie4
wu1Ġ ding3Ġ
Ġluo2Ġ ne4Ġ
Ġpu3Ġ tong1Ġ
Ġao4 Ġzhou1Ġ
sun3Ġ shang1Ġ
Ġwei4Ġyu2Ġgai1Ġguo2Ġ zhong1Ġbu4Ġ
zui4Ġhou4Ġyi1Ġ ci4Ġ
Ġping2 Ġjun1
yin4Ġdi4Ġ an1Ġren2Ġ
Ġqi3 Ġchu1Ġ
chong2Ġqing4 Ġshi4Ġ
Ġzhi1Ġjia1Ġ ge1Ġ
ĠÐµ Ġ
2 Ġmi3Ġ
Ġ o
Ġ tong1
Ġ 1944
Ġ 140
fu4 Ġzai4Ġ
fa3 Ġli4Ġ
mu4 Ġji1Ġ
bei3 Ġwei4Ġ
ge1 Ġsi1Ġ
jia4 Ġwei4Ġ
bang1 ĠdeĠ
Ġzai4Ġ ju4Ġ
Ġhe2Ġ yi3Ġ
Ġyi1Ġ shu1Ġ
zuo4Ġ biao1Ġ
Ġer2Ġ si3Ġ
Ġbing4Ġ zhi3Ġyu2Ġ
jie1Ġ ceng2Ġ
ti3Ġ cao1Ġ
gai3Ġ liang2Ġ
Ġcheng2Ġwei2Ġ yi2Ġge4Ġ
ĠĠĠdi4Ġ ming2Ġ
chong1Ġ man3
Ġnian2Ġ6Ġyue4Ġ 1Ġri4Ġ
guan3Ġli3Ġ ju2
dan4Ġ yao4Ġ
zao4Ġcheng2Ġ leĠ
tai2Ġfeng1Ġ jing3Ġbao4
Ġrui4Ġ dian3Ġ
Ġ 1958
Ġ ya4Ġli4Ġshan1Ġda4Ġ
ĠĠĠ de
ĠĠĠ Be
qu1 Ġzhi1Ġyi1Ġ
bo2 ĠdeĠ
fan3 Ġfu4Ġ
zhuan3 Ġren4Ġ
pai4 Ġchu1
re4 Ġhe2Ġ
tui4 Ġchu1
is Ġ
1990 Ġnian2Ġdai4
1950 Ġnian2Ġdai4Ġ
chou3 Ġke1Ġ
Ġshi2Ġ bu4Ġ
Ġdi4Ġ 3
zhan4Ġ ting1Ġ
nan2Ġ ce4Ġ
Ġbei4Ġ sha1Ġ
shou3Ġ ge1Ġqu3Ġ
Ġping2Ġ gu1Ġ
bi4Ġ ye4
bi4Ġ yao4
ti2Ġ jiao1
ĠdeĠdi4Ġ xia4Ġ
fan4Ġ chou2Ġ
chu3Ġ si3Ġ
Ġnei4Ġ rong2
jiao1Ġtong1 Ġbu4Ġ
dong4Ġli4Ġ xue2Ġ
xiang4Ġmu4 ĠdeĠ
gan3Ġlan3 Ġqiu2Ġ
Ġ ban1
Ġ Na
Ġ xu1Ġyao4
ao4 Ġke4Ġxi1Ġta3Ġni2Ġda4Ġqu1Ġ
li3 Ġyu2Ġ
ming2 Ġyu3Ġ
zhan4 Ġji1Ġ
er3 Ġsi1Ġ
shu4 Ġnian2Ġ
shu4 Ġzhi1Ġ
san1 Ġhe2Ġ
zhe3 Ġzhi1Ġyi1Ġ
fang4 ĠdeĠ
Ġwei4Ġ ri4Ġben3Ġ
Ġzhong1Ġ chang3Ġ
Ġguo2Ġ da4Ġ
Ġyi4Ġ ri4Ġ
Ġer3Ġ fu1Ġ
Ġbing4Ġ dan1Ġren4Ġ
Ġqi2Ġ jian1Ġ
Ġjin4 Ġcheng2Ġ
Ġzhan4Ġ chang3Ġ
fu2Ġ la1Ġ
ci3Ġ qian2Ġ
zhen4Ġ ya1
lin2Ġ qu1Ġ
zi1Ġ ge2
Ġgai1Ġ dang3
cai2Ġ pan4
zhong1ĠdeĠ yi2Ġge4Ġ
Ġshu4Ġ zi4Ġ
Ġbo1Ġ lan2
Ġsan1 Ġge4Ġ
cha1Ġ bie2Ġ
sun3Ġ hai4Ġ
Ġshi4Ġyi4Ġ yuan2Ġ
gai3Ġbian1 Ġzi4Ġ
bo1Ġshi4Ġ dun4Ġ
Ġ gen1
Ġ bing1
Ġ pang2
Ġ onlyinclude
Ġ fa1Ġxing2
Ġ 1974Ġnian2Ġ
ĠĠĠ di
hou4 Ġren2Ġ
er4 Ġhao4Ġ
zong3 Ġren2Ġkou3ĠdeĠ
geng1 Ġdi4Ġ
zhao1 Ġmu4Ġ
text Ġ
Ġshi4Ġ ji4
Ġhe2Ġ si1Ġ
Ġhe2Ġ hou4Ġ
Ġshi2Ġ wu3Ġ
yi4Ġ jian4Ġ
Ġdan4 Ġdao4Ġ
mei2Ġ you3Ġzai4Ġ
ting2Ġ liu2Ġ
ĠdeĠyi1Ġ yuan2Ġ
yin1Ġ mou2Ġ
zhen1Ġ zhu1Ġ
Ġsuo3Ġ shu3ĠdeĠ
chong2Ġ bai4Ġ
ĠdeĠshi2Ġ wu4Ġ
song4Ġ wang3Ġ
Ġqing1Ġ chao2
Ġnv3Ġ xing4Ġwei4Ġ
ĠdeĠji4Ġ zai3Ġ
xia4Ġji4Ġ ao4Ġyun4Ġhui4Ġ
shui4Ġ mian2
zhan4Ġzheng1 ĠdeĠ
huan2Ġjing4 Ġzhong1Ġ
gao1Ġdeng3 Ġxue2Ġxiao4Ġ
fu2Ġlei2 Ġde2Ġ
Ġonlyinclude Ġ
j Ġ
Ġ ju1
Ġ juan3
Ġ 34
Ġ Sh
Ġ huo2Ġ
Ġ shang1Ġye4Ġ
ji1 Ġwei4Ġ
bei4 Ġli4Ġ
jiang1 ĠdeĠ
30 Ġnian2Ġ
et ĠĠĠ
han3 Ġjian4Ġ
ing Ġ
ji1Ġ xie4Ġ
Ġzhi1 Ġren2Ġ
Ġge4 Ġji2Ġ
Ġzhou1 Ġzhi4Ġ
jian1Ġ jin4Ġ
fa1Ġ dian4Ġji1Ġ
ye4Ġ zhe3Ġ
Ġtong2 Ġzhi1Ġ
ru4Ġ xue2Ġ
chang2Ġ chun1
qi4Ġ wen1Ġ
qing1Ġ chu3
yan2Ġjiu1 Ġren2Ġyuan2Ġ
kong1Ġ jian1ĠdeĠ
han2Ġ min2Ġguo2Ġ
gu4Ġ zhang4Ġ
wei3Ġyuan2Ġhui4Ġ zhu3Ġren4Ġ
lian4Ġ jie1Ġ
ning2Ġ bo1Ġ
e4Ġ lie4Ġ
tong1Ġguo4 ĠdeĠ
Ġyi4Ġzhi2 Ġdao4Ġ
Ġha1Ġer3Ġ bin1Ġshi4Ġ
tan4Ġxian3 Ġdui4Ġ
0 Ġbi3Ġ
Ġ hui2Ġdao4Ġ
yuan2 ĠĠĠ
qi2 Ġxia4Ġ
zhi2 Ġxian4Ġ
che1 Ġshang4Ġ
shan1 Ġji2Ġ
qing1 Ġli3Ġ
cai2 Ġshi4Ġ
ku4 Ġsi1Ġ
1898 Ġnian2Ġ
Ġzai4Ġ gao1Ġ
Ġer3Ġ ba1Ġ
Ġfu4Ġ za2Ġ
zui4Ġ da4
zong3Ġ jie2Ġ
rui4Ġ shi4ĠdeĠ
mou3Ġ zhong3Ġ
Ġer3Ġsi1Ġ ke4Ġ
Ġde2Ġli3Ġ ke4Ġ
Ġchu1Ġban3 ĠleĠ
Ġxin1Ġzeng1Ġ jing4Ġwai4Ġshu1Ġru4Ġ
Ġ i
Ġ pi1Ġ
Ġ fa1Ġsheng1Ġ
Ġ man3Ġ
Ġ pian1Ġ
ĠĠĠ tai4Ġ
ĠĠĠ an4Ġ
ĠĠĠ CĠ
ya4 Ġer3Ġ
er4 Ġge4Ġ
tian1 Ġdi4Ġ
you4 Ġyou3Ġ
mo2 Ġer3Ġ
ji3 Ġwei4Ġ
gan3 Ġjun1Ġ
dun1 ĠdeĠ
sang4 Ġ
MV Ġ
Ġyu2Ġ 2007
Ġyou3Ġ gong1Ġ
ji4Ġ zai3
Ġli4Ġ fang1Ġ
zhe4Ġ xiang4Ġ
tian1Ġ qiao2Ġ
Ġzhe4Ġ lei4Ġ
na4Ġ ru4
bo1Ġ luo2Ġ
zheng1Ġ yi4ĠdeĠ
shuo1Ġ fu2Ġ
Ġhai3Ġ ba2Ġ
Ġgen1Ġju4Ġ 2010Ġnian2Ġmei3Ġguo2Ġren2Ġkou3Ġpu3Ġcha2Ġ
Ġgong1Ġsi1 Ġhe2Ġ
Ġwei4Ġyu2Ġgai1Ġguo2Ġ nan2Ġbu4Ġ
Ġshi4Ġjian4 Ġzhong1Ġ
sang1Ġ na4
xiu1Ġzheng4Ġ an4Ġ
na2Ġpo4Ġ lun2
min2Ġjin4Ġ dang3Ġ
Ġ zhan1Ġmu3Ġsi1Ġ
le Ġhe2Ġ
ren4 Ġhou4Ġ
zhu3 Ġji1Ġ
guan1 Ġyu3Ġ
shou3 Ġzhi1Ġ
ke3 Ġgong1Ġ
liu2 Ġqiu2
kuo4 Ġjian4
mo2 Ġsi1Ġ
cai2 Ġbei4Ġ
Ġyi4Ġ ke3Ġ
Ġyi3Ġ wai4
Ġjian4 Ġzhi1Ġ
dui4Ġ ci3Ġ
Ġxi1Ġ bu4ĠdeĠ
xiang1Ġ cun1Ġ
zhu4Ġ yi4ĠdeĠshi4Ġ
Ġhuo4 Ġqi2Ġta1Ġ
wang2Ġ zi3
fu3Ġ bai4Ġ
Ġduo1Ġ ci4
Ġhe2Ġguo2Ġ ji4Ġ
pai4Ġ xi4Ġ
bing4Ġ fei1Ġ
leĠyi1Ġ chang2Ġ
Ġyin1Ġyue4Ġ hui4Ġ
pin2Ġ lv4
Ġ2011 Ġnian2Ġ12Ġyue4Ġ31Ġri4Ġ
chai1Ġ chu2
you3Ġbu4Ġ shao3Ġ
zhuang1Ġwei4Ġ lin2Ġ
Ġ jiao1
Ġ bang1Ġ
Ġ yuan2Ġshi4Ġ
Ġ 2025Ġnian2Ġ
Ġ 1934Ġnian2Ġ
ĠĠĠ Al
ai1 Ġde2Ġ
yu3 Ġgong1Ġ
nan2 Ġda4Ġxue2Ġ
shu3 ĠdeĠyi1Ġzhong3Ġ
nuo4 Ġke4Ġ
shi2Ġ qi1ĠdeĠ
li4Ġ chang3Ġ
yi4Ġ zhi2Ġ
ji1Ġ xie4
Ġbei4Ġ yu4Ġwei2Ġ
zhi2Ġ neng2Ġ
zhi2Ġ quan2Ġ
dong1Ġ hai3Ġ
zhang3Ġ zhou2
qi3Ġ fei1Ġ
mi3Ġ ya4
an1Ġ da3Ġ
Ġzhong1Ġguo2Ġ gong1Ġ
mo2Ġ fang3Ġ
xiao1Ġ liang4
zhun3Ġ jue2Ġsai4Ġ
Ġnian2Ġ12Ġyue4Ġ 28Ġri4Ġ
shao1Ġ hui3Ġ
ĠĠĠyi3Ġxia4 Ġwei4Ġ
a1Ġer3 Ġji2Ġli4Ġ
ĠÐ¸ Ġ
Ġ bei1
Ġ cang2
Ġ shang4ĠdeĠ
Ġ 24Ġ
Ġ 1927Ġnian2Ġ
ĠĠĠ f
ĠĠĠ zhe4
you3 Ġzhong1Ġ
fa3 Ġhui4Ġ
hai3 Ġdi4Ġ
fei1 Ġer3Ġ
ni3 ĠdeĠ
44 Ġ
Ġshi4Ġ bing1
Ġzhong1Ġ yi3Ġ
Ġyi4Ġ fang1Ġmian4
fu4Ġ za2
nan2Ġ hai2Ġ
Ġshe4 Ġwei4Ġ
hua4Ġ fen1Ġwei4Ġ
Ġjian4Ġ zhu4ĠdeĠ
Ġqi2Ġ shou3Ġ
Ġzhan4Ġ bi3Ġ
jie1Ġ duan4ĠdeĠ
yi2Ġ ci4Ġshi4Ġjie4Ġda4Ġ
Ġdan4Ġ que4
Ġxiang1Ġ bi3
zhi1Ġ liu2Ġ
Ġnan2 Ġyu3Ġ
Ġao4Ġ men2
ĠdeĠzhong1Ġ xin1Ġ
Ġshi2Ġzi4Ġ lv4Ġ
wai4Ġjiao1Ġ guan1Ġ
bao3Ġjia1 Ġli4Ġya4
bao1Ġkuo4Ġyi3Ġxia4Ġ wu4Ġzhong3Ġ
Ġ qian3
Ġ 1939
Ġ tu3Ġdi4Ġ
Ġ 1933Ġnian2Ġ
ĠĠĠ feng1Ġ
ĠĠĠ dian4Ġying3Ġ
ĠĠĠ BĠ
you2 Ġshi4Ġ
ban3 Ġhe2Ġ
tun2 Ġmen2Ġ
bao2 Ġ
tiao1 Ġ
Ġji4Ġ jun1Ġ
Ġxing2Ġ dian4Ġli4Ġ
Ġchu1 Ġxian4Ġyu2Ġ
Ġer2 Ġchu1Ġ
qi3Ġ dian3Ġ
chu1Ġ lai2Ġ
zhi1Ġ jian1
jiang3Ġ hua4Ġ
hai2Ġ mei2Ġyou3Ġ
Ġzui4Ġzhong1Ġ yi3Ġ
zu2Ġqiu2Ġ jia3Ġji2Ġ
ĠdeĠyi4Ġ jian4Ġ
Ġyong4Ġ hu4Ġ
san1Ġshi2Ġ si4Ġnian2Ġ
yi4Ġshi2Ġ xing2Ġtai4Ġ
Ġguo2Ġwu4Ġ yuan4
su1Ġlian2 ĠdeĠ
Ġyi1Ġli4Ġ sha1Ġbai2Ġ
Ġyi1Ġsi1Ġlan2Ġ jiao4Ġ
tong2Ġxing4Ġ lian4Ġ
Ġhei1Ġlong2Ġjiang1Ġ sheng3Ġ
zhu3Ġjiao4Ġzuo4Ġ tang2Ġ
da2Ġke1 Ġta1Ġ
Ġ hou2
Ġ ji3Ġyu3Ġ
ming2 Ġdi4Ġ
ming2 Ġcheng2Ġ
you2 Ġhe2Ġ
xin1 Ġyi4Ġ
yu4 Ġming2Ġ
mei3 Ġyi1Ġ
fen1 Ġzhi4Ġ
te4 Ġshe4Ġ
qi4 Ġji1Ġ
qian1 Ġnian2Ġ
chen2 Ġshi4Ġ
ta3 Ġli4Ġ
lian4 ĠdeĠ
41 Ġ
Ġbu4Ġ jian4Ġ
Ġbu4Ġ yi3Ġ
Ġqi2 Ġhe2Ġ
Ġta1Ġ hui4Ġ
Ġxi1Ġ lu4Ġ
Ġli3Ġ jie3Ġ
shou3Ġ pi1Ġ
jie2Ġ yun4Ġ
fen1Ġ jie3Ġ
jie1Ġ bo2Ġ
Ġyin1Ġ ziĠ
Ġdai4Ġ ma3Ġ
yi2Ġ chu2Ġ
sha1Ġ mo4Ġ
chu1Ġ xi2Ġ
ci2Ġ qu4Ġ
hai2Ġ yao4Ġ
Ġba1Ġ li2Ġ
Ġri4Ġben3 Ġren2Ġ
ya4Ġli4Ġ sang1Ġna4
dao3Ġshi4Ġ yue4Ġtai2Ġ
Ġfu4Ġze2 Ġren2Ġ
cheng2Ġnian2Ġ ren2Ġ
ĠĠĠwan4 Ġli4Ġ
6 Ġmi3Ġ
Ġ xuan1
Ġ zeng1
Ġ kua4
Ġ 38
Ġ nan2Ġbu4Ġ
Ġ he4Ġer3Ġ
Ġ 1971Ġnian2Ġ
lie4 Ġren2Ġ
10 Ġshi2Ġ
da2 Ġli4Ġ
zhang1 Ġcheng2Ġ
gai3 Ġcheng2Ġ
tuan2 Ġyuan2Ġ
pai4 Ġdui4Ġ
da3 Ġchu1Ġ
bai3 Ġren2Ġ
hun1 Ġhou4Ġ
52 Ġ
yi1Ġ ci4Ġ
ji2Ġ tuan2Ġ
Ġli4Ġ wu4Ġ
Ġyi1Ġ shi4ĠdeĠ
ming2Ġ xian3ĠdeĠ
Ġjia1Ġ er3
xia4Ġ shu3
xia4Ġ xia2Ġ
Ġjin4 Ġjun1Ġ
ci3Ġ lei4Ġ
ying3Ġ ye4Ġ
bo1Ġ li2
jian3Ġ ruo4Ġ
tang2Ġ chao2Ġ
fang2Ġ hu4Ġ
zhuan1Ġ yong4
gang1Ġ tie3
Ġmei3 Ġjun1Ġ
ĠĠĠyi1Ġ xie1Ġ
zhong3Ġjia1Ġ ci2Ġ
Ġ xiao4
Ġ yan1
ch ĠĠĠ
de2 Ġjun1Ġ
ma3 Ġshang4Ġ
liao4 ĠdeĠ
wan3 Ġhui4Ġ
80 Ġ
kuang1 Ġ
1896 Ġnian2Ġ
Ġgong1Ġ zhu3
Ġyi1Ġ liang4Ġ
zhe4Ġ chang3Ġ
Ġdui4Ġ zhen4Ġ
bei3Ġ fang1
bei3Ġ shang4Ġ
shi1Ġ ge1Ġ
mi3Ġ lan2Ġ
dan1Ġ ni2Ġer3Ġ
ceng2Ġ dan1Ġren4Ġ
wang3Ġ ye4Ġ
wei1Ġ ruan3
Ġyou2 Ġji1Ġche1Ġ
xiao1Ġ fang2
Ġmu4Ġ biao1Ġ
ĠĠĠdi4Ġ san1Ġ
ge4Ġ lei4
Ġyou3Ġyi1Ġ zuo4Ġ
tan4Ġ xian3Ġ
Ġcong2 Ġer2
Ġsu1Ġ lian2
zhong1Ġshi4Ġ yan3Ġ
zhi1Ġchi2Ġ zhe3Ġ
di2Ġshi4Ġ ni2
nan2Ġsi1Ġla1Ġ fu1Ġ
Ġhua2Ġsheng4Ġ dun4
Ġ lao2
Ġ 1947
Ġ ãĤ¹
Ġ zhu2Ġjian4Ġ
Ġ 1936Ġnian2Ġ
Ġ 1931Ġnian2Ġ
ĠĠĠ yan2Ġ
li4 Ġnian2Ġ
hou4 Ġyou3Ġ
wei2 Ġshi4Ġ
ju4 Ġshi4Ġ
zhi3 Ġhui4Ġ
nv3 Ġsheng1Ġ
ban3 Ġshang4Ġ
guo3 Ġshi2Ġ
teng2 Ġyuan2Ġ
Ġshi4Ġ yin1Ġ
Ġwei4Ġ zheng4Ġ
Ġji2Ġ bei4Ġ
Ġli4Ġ liang4
Ġli4Ġ yuan2Ġ
yu4Ġ nan4Ġ
min2Ġ yong4Ġ
jie1Ġ dai4Ġ
ma3Ġ lu4Ġ
yi2Ġ ju1
lin2Ġ sheng3Ġ
ao4Ġ duo1Ġ
ting2Ġ huo3Ġ
ke3Ġyi3Ġ bei4Ġ
ke4Ġ lai2Ġ
Ġjiao4Ġ tang2Ġ
fei4Ġ zhi3Ġ
gu4Ġ shi4ĠdeĠ
nuo4Ġ fu1
Ġwei4Ġdi4Ġ xia4Ġ
Ġfen1Ġbu4Ġyu2Ġ nan2Ġmei3Ġzhou1Ġ
an1Ġde2Ġ lie4Ġ
Ġwei4Ġyu2Ġgai1Ġ sheng3
zi1Ġben3Ġ zhu3Ġyi4Ġ
Ġcom Ġ
Ġ ãģĦ
Ġ ba1Ġshi4Ġ
Ġ zao3Ġzai4Ġ
ĠĠĠ long2Ġ
xi1 Ġri4Ġ
mu4 Ġhe2Ġ
ding4 Ġshi4Ġ
jie4 Ġyu2Ġ
ze2 Ġyu2Ġ
jiu3 Ġzhou1Ġ
el ĠĠĠ
hen4 Ġ
Ġzai4Ġ tai2Ġwan1
Ġli4Ġ ren4
Ġyi3 Ġshi2Ġ
Ġyi1Ġ tiao2
Ġji4Ġ neng2Ġ
Ġer2 Ġqi2Ġ
chang3Ġ shang1Ġ
tai4Ġ lang2Ġ
er4Ġ shi4ĠdeĠ
gai3Ġ yong4Ġ
qian1Ġ yi2Ġ
Ġda4Ġxue2Ġ sheng1Ġ
huo3Ġ zai1
wei3Ġyuan2Ġhui4Ġ fu4Ġzhu3Ġren4Ġ
gen1Ġju4 Ġdi4Ġ
Ġben3 Ġyu2Ġ
ĠĠĠzao3Ġnian2Ġ sheng1Ġhuo2Ġ
zhu1Ġshi4Ġhui4Ġ she4Ġ
Ġ zhui1
Ġ 32
Ġ 1959Ġnian2Ġ
Ġ 1940Ġnian2Ġ
a1 Ġke4Ġ
di4 ĠĠĠ
qi2 Ġzhi4Ġ
wen2 Ġshi4Ġ
wai4 Ġdi4Ġ
zi Ġzai4Ġ
ge1 Ġhe2Ġ
dian3 Ġzhan4Ġ
xiao1 Ġhao4Ġ
xun2 Ġqiu2
guai4 Ġwu4Ġ
yu2Ġ le4Ġ
Ġbu4Ġ shu3
yu3Ġ zhou4
ren4Ġ tong2Ġ
zhang3Ġ guan1
Ġzuo4Ġ wei2Ġyi1Ġ
zui4Ġ di1
Ġzi4Ġ cheng1Ġ
Ġxiang1Ġ xin4
dan1Ġ du2
ti2Ġ qin2
Ġnan2Ġ fei1Ġ
si3Ġ qu4Ġ
ĠĠĠshi4Ġ jie4Ġ
fa2Ġ kuan3Ġ
niao3Ġ lei4
cuo4Ġ wu4ĠdeĠ
zhan4Ġzheng1Ġ qi1Ġjian1Ġ
Ġji1Ġben3Ġ shang4Ġ
bu2Ġ hui4Ġzai4Ġ
ĠĠĠben3Ġshu3Ġ bao1Ġkuo4Ġyi3Ġxia4Ġwu4Ġzhong3Ġ
Ġ liao2
Ġ 1973Ġnian2Ġ
ĠĠĠ ren2Ġwu4Ġ
ĠĠĠ guang1Ġxu4Ġ
[...]
