{"!":0,"\"":1,"#":2,"$":3,"%":4,"&":5,"'":6,"(":7,")":8,"*":9,"+":10,",":11,"-":12,".":13,"/":14,"0":15,"1":16,"2":17,"3":18,"4":19,"5":20,"6":21,"7":22,"8":23,"9":24,":":25,";":26,"=":27,"?":28,"@":29,"A":30,"B":31,"C":32,"D":33,"E":34,"F":35,"G":36,"H":37,"I":38,"J":39,"K":40,"L":41,"M":42,"N":43,"O":44,"P":45,"Q":46,"R":47,"S":48,"T":49,"U":50,"V":51,"W":52,"X":53,"Y":54,"Z":55,"[":56,"\\":57,"]":58,"^":59,"_":60,"`":61,"a":62,"b":63,"c":64,"d":65,"e":66,"f":67,"g":68,"h":69,"i":70,"j":71,"k":72,"l":73,"m":74,"n":75,"o":76,"p":77,"q":78,"r":79,"s":80,"t":81,"u":82,"v":83,"w":84,"x":85,"y":86,"z":87,"|":88,"~":89,"¡":90,"¢":91,"£":92,"¤":93,"¥":94,"¦":95,"§":96,"¨":97,"©":98,"ª":99,"«":100,"¬":101,"®":102,"¯":103,"°":104,"±":105,"²":106,"³":107,"´":108,"µ":109,"¶":110,"·":111,"¸":112,"¹":113,"º":114,"»":115,"¼":116,"½":117,"¾":118,"¿":119,"Â":120,"Ã":121,"Ä":122,"Å":123,"Æ":124,"Ç":125,"È":126,"É":127,"Ê":128,"Ë":129,"Ì":130,"Í":131,"Î":132,"Ï":133,"Ð":134,"Ñ":135,"Ò":136,"Ó":137,"Ô":138,"Õ":139,"Ö":140,"×":141,"Ø":142,"Ù":143,"Ú":144,"Û":145,"Ü":146,"Þ":147,"ß":148,"à":149,"á":150,"â":151,"ã":152,"ä":153,"ê":154,"ë":155,"ì":156,"í":157,"î":158,"ï":159,"ð":160,"ñ":161,"Ċ":162,"Ġ":163,"ġ":164,"Ģ":165,"ģ":166,"Ĥ":167,"ĥ":168,"Ħ":169,"ħ":170,"Ĩ":171,"ĩ":172,"Ī":173,"ī":174,"Ĭ":175,"ĭ":176,"Į":177,"į":178,"İ":179,"ı":180,"Ĳ":181,"ĳ":182,"Ĵ":183,"ĵ":184,"Ķ":185,"ķ":186,"ĸ":187,"Ĺ":188,"ĺ":189,"Ļ":190,"ļ":191,"Ľ":192,"ľ":193,"Ŀ":194,"ŀ":195,"Ł":196,"ł":197,"Ń":198,"ng":199,"i4":200,"an":201,"sh":202,"zh":203,"ng1":204,"ji":205,"u4":206,"ng2":207,"ĠĠ":208,"i2":209,"ao":210,"xi":211,"ng4":212,"an2":213,"i3":214,"i1":215,"de":216,"u3":217,"an4":218,"e4":219,"en":220,"ch":221,"uo":222,"u2":223,"ng3":224,"an1":225,"e2":226,"ai4":227,"u1":228,"ĠĠĠ":229,"ong1":230,"a1":231,"ãĢ":232,"shi4":233,"ei4":234,"ao4":235,"ian2":236,"a4":237,"yu":238,"ang1":239,"yo":240,"an3":241,"n1":242,"hu":243,"ang4":244,"nian2":245,"en2":246,"li":247,"ang3":248,"eng2":249,"uo4":250,"uo2":251,"wei4":252,"mi":253,"ao3":254,"zai4":255,"ãĢģ":256,"bi":257,"qi":258,"ang2":259,"e1":260,"he2":261,"yi":262,"eng1":263,"zhong1":264,"er":265,"bu4":266,"ou4":267,"a3":268,"e3":269,"n4":270,"shi2":271,"di4":272,"guo2":273,"ai2":274,"ui4":275,"ren2":276,"ao1":277,"xu":278,"yi1":279,"n2":280,"ong2":281,"yu2":282,"gu":283,"li4":284,"zhi4":285,"di":286,"we":287,"en4":288,"cheng2":289,"ong4":290,"yi4":291,"gong1":292,"ji2":293,"eng4":294,"en1":295,"yue4":296,"you3":297,"yuan2":298,"da4":299,"a2":300,"le":301,"ji4":302,"20":303,"yi3":304,"ju":305,"ai1":306,"pi":307,"xian4":308,"ou1":309,"jia1":310,"si1":311,"xing2":312,"ei3":313,"ti":314,"yu3":315,"ji1":316,"ta1":317,"ri4":318,"zhi1":319,"hou4":320,"li3":321,"ou3":322,"ai3":323,"wei2":324,"hui4":325,"dao4":326,"19":327,"ong3":328,"qi2":329,"uan2":330,"zheng4":331,"ming2":332,"xi1":333,"ao2":334,"jian4":335,"xue2":336,"chu1":337,"ge4":338,"zuo4":339,"uo1":340,"sheng1":341,"dui4":342,"you2":343,"uo3":344,"qu1":345,"shang4":346,"en3":347,"de2":348,"bei4":349,"shi3":350,"zhu":351,"zhan4":352,"n3":353,"xin1":354,"jun1":355,"er3":356,"she4":357,"ren4":358,"fa1":359,"wu4":360,"bing4":361,"ke4":362,"er2":363,"lu4":364,"dai4":365,"zhu3":366,"yi2":367,"shu4":368,"ju4":369,"jin4":370,"zi4":371,"yin1":372,"fu4":373,"fang1":374,"jing1":375,"nan2":376,"hua4":377,"zhou1":378,"ping2":379,"xia4":380,"lai2":381,"yong4":382,"guan1":383,"tong2":384,"yu4":385,"ãĢĭ":386,"ãĢĬ":387,"fa3":388,"zhu4":389,"mei3":390,"Â·":391,"jian1":392,"bo":393,"huo4":394,"ben3":395,"xiang1":396,"zhi2":397,"dong4":398,"xiang4":399,"min2":400,"zhe4":401,"jiang1":402,"qi1":403,"fen1":404,"shou3":405,"quan2":406,"wen2":407,"yan2":408,"suo3":409,"jiao4":410,"qian2":411,"dian4":412,"te4":413,"duo1":414,"zui4":415,"kai1":416,"jie2":417,"lian2":418,"zhi3":419,"xi4":420,"ke3":421,"eng3":422,"ei1":423,"dan4":424,"mu4":425,"ye4":426,"du4":427,"fu2":428,"shu":429,"ma3":430,"ye3":431,"dong1":432,"qiu2":433,"bei3":434,"ãĢĮ":435,"ãĢį":436,"gao1":437,"ya4":438,"ou2":439,"du":440,"jie1":441,"un2":442,"mian4":443,"hai3":444,"zhang3":445,"shi1":446,"jin1":447,"ci3":448,"nei4":449,"sai4":450,"san1":451,"tai2":452,"ge2":453,"xing4":454,"guo4":455,"201":456,"deng3":457,"yao4":458,"che1":459,"ci4":460,"su":461,"mo":462,"ru4":463,"wu3":464,"gai1":465,"ku":466,"ding4":467,"chang2":468,"biao3":469,"la1":470,"ti3":471,"gong4":472,"jie4":473,"shou4":474,"dao3":475,"shan1":476,"chang3":477,"si4":478,"lv":479,"ze2":480,"ti2":481,"ke1":482,"dang1":483,"neng2":484,"er4":485,"wai4":486,"ei2":487,"chu":488,"dan1":489,"qi3":490,"zi":491,"kou3":492,"xiao3":493,"zu3":494,"ba1":495,"jue2":496,"lin2":497,"liu2":498,"ni":499,"sheng3":500,"ying1":501,"lan2":502,"bi3":503,"luo2":504,"tong1":505,"200":506,"zhong4":507,"zhe3":508,"shu3":509,"tian1":510,"zhen4":511,"zhong3":512,"lie4":513,"qi4":514,"cheng1":515,"shu1":516,"yuan4":517,"bao3":518,"tai4":519,"fu3":520,"feng1":521,"mi3":522,"qing1":523,"shen1":524,"wang2":525,"yun4":526,"guan3":527,"fei1":528,"jiu4":529,"gu3":530,"liang3":531,"ceng2":532,"mei2":533,"10":534,"fen4":535,"hao4":536,"yan3":537,"wei3":538,"zong3":539,"xuan3":540,"xiao4":541,"da2":542,"na4":543,"liang4":544,"bo1":545,"zu2":546,"jing4":547,"bao4":548,"ni2":549,"wu2":550,"tong3":551,"hua2":552,"jiao1":553,"yue1":554,"ying3":555,"bian4":556,"xing1":557,"su4":558,"shui3":559,"yang2":560,"men":561,"bao1":562,"ge1":563,"bo2":564,"can1":565,"cong2":566,"dian3":567,"ru2":568,"ban4":569,"bi4":570,"bian1":571,"wang3":572,"qu3":573,"chan3":574,"se4":575,"zi1":576,"qu":577,"00":578,"chuan2":579,"nv":580,"sheng4":581,"ran2":582,"tu2":583,"zhang1":584,"xu4":585,"pu3":586,"gai3":587,"gang3":588,"nv3":589,"ling4":590,"luo4":591,"you4":592,"tou2":593,"hu4":594,"cha2":595,"ce4":596,"chi2":597,"18":598,"lv4":599,"qian1":600,"li2":601,"dou1":602,"12":603,"zheng1":604,"kuo4":605,"sha1":606,"lu":607,"dang3":608,"fan3":609,"gou4":610,"lei4":611,"xi2":612,"jing3":613,"tuan2":614,"wei1":615,"xie1":616,"ling3":617,"long2":618,"gui1":619,"xian1":620,"rong2":621,"huang2":622,"xiang3":623,"ban1":624,"jiu3":625,"ying4":626,"men2":627,"shang1":628,"shen2":629,"202":630,"ban3":631,"ka3":632,"cu":633,"mu3":634,"jin3":635,"fu1":636,"ju3":637,"mo2":638,"guang3":639,"ci2":640,"shuo1":641,"qing2":642,"zhan3":643,"hai2":644,"zhuang1":645,"mo4":646,"cai2":647,"ji3":648,"du2":649,"11":650,"pin3":651,"ting2":652,"chao2":653,"ying2":654,"wo":655,"tiao2":656,"po":657,"jian3":658,"tang2":659,"hui2":660,"duan4":661,"chen2":662,"gen1":663,"mi4":664,"wan4":665,"pai2":666,"wan1":667,"zao4":668,"hang2":669,"wan2":670,"biao1":671,"lun2":672,"199":673,"xie2":674,"jiang3":675,"han4":676,"ju2":677,"fan4":678,"fang2":679,"huo2":680,"gu4":681,"han2":682,"kong1":683,"tie3":684,"meng2":685,"bie2":686,"wu1":687,"jie3":688,"zhuan1":689,"yin3":690,"xu1":691,"zhen1":692,"jia4":693,"bing1":694,"ming4":695,"ling2":696,"hong2":697,"qin1":698,"zi3":699,"lun4":700,"tu":701,"or":702,"xin4":703,"chu4":704,"su1":705,"xiu1":706,"chu3":707,"zong1":708,"15":709,"hu2":710,"que4":711,"xiao1":712,"zhao4":713,"qiang2":714,"qu4":715,"cun1":716,"chong2":717,"pian4":718,"jiu1":719,"fang4":720,"sui2":721,"shou1":722,"geng4":723,"âĢ":724,"guang1":725,"ju1":726,"jia3":727,"chuang4":728,"di2":729,"zhuan3":730,"16":731,"guo3":732,"xun4":733,"man4":734,"pai4":735,"fei4":736,"pei4":737,"198":738,"da3":739,"tuo1":740,"xuan1":741,"chu2":742,"bai2":743,"la":744,"on":745,"zhu1":746,"du1":747,"tu3":748,"diao4":749,"xia2":750,"liu4":751,"17":752,"sui4":753,"hui1":754,"ting1":755,"qie3":756,"ta3":757,"qiao2":758,"ha1":759,"gan3":760,"zeng1":761,"xian3":762,"mai4":763,"huan2":764,"xu3":765,"wa3":766,"tui1":767,"wen4":768,"chao1":769,"tian2":770,"bai3":771,"cai3":772,"liang2":773,"ya2":774,"sa4":775,"ar":776,"bai4":777,"cun2":778,"jiao3":779,"shao3":780,"yan4":781,"zhuang4":782,"di3":783,"huo3":784,"lei2":785,"14":786,"jiang4":787,"chuan1":788,"yin4":789,"zao3":790,"yong3":791,"si3":792,"deng1":793,"30":794,"zhun3":795,"le4":796,"xun2":797,"nuo4":798,"huan4":799,"song4":800,"gao4":801,"lu3":802,"13":803,"194":804,"bang1":805,"lv3":806,"yang4":807,"hen3":808,"qun2":809,"zheng3":810,"guan4":811,"po4":812,"gang1":813,"wo3":814,"197":815,"hua1":816,"lei1":817,"hao3":818,"tao2":819,"kuang4":820,"pi1":821,"dun4":822,"nong2":823,"gei3":824,"sai1":825,"shuang1":826,"lian4":827,"kuai4":828,"in":829,"di1":830,"pan4":831,"xie3":832,"195":833,"kao3":834,"gai4":835,"he4":836,"hei1":837,"wang4":838,"liao4":839,"re4":840,"ge":841,"zuo3":842,"kong4":843,"196":844,"yang1":845,"chang4":846,"yin2":847,"reng2":848,"sen1":849,"bei1":850,"lu2":851,"piao4":852,"ya1":853,"ku4":854,"25":855,"bin1":856,"âĢĶ":857,"rang4":858,"chong1":859,"lou2":860,"bu3":861,"lao3":862,"zhu2":863,"jun4":864,"yang3":865,"rui4":866,"yao1":867,"xian2":868,"xie4":869,"nian4":870,"for":871,"you1":872,"tan2":873,"kang1":874,"pi2":875,"heng2":876,"yun2":877,"kan4":878,"ning2":879,"liao2":880,"shao4":881,"bu2":882,"qing3":883,"chi3":884,"24":885,"mu":886,"dou4":887,"mian3":888,"yong1":889,"tan3":890,"wan3":891,"hu1":892,"ru":893,"fan1":894,"al":895,"tu1":896,"gan1":897,"suan4":898,"ding1":899,"yuan3":900,"wen1":901,"tui4":902,"zhe":903,"st":904,"21":905,"xiu4":906,"ba3":907,"man3":908,"193":909,"23":910,"mula":911,"kang4":912,"formula":913,"28":914,"th":915,"mao2":916,"ruo4":917,"pian1":918,"mao4":919,"lang3":920,"qin2":921,"ba2":922,"na2":923,"zan4":924,"xi3":925,"gui3":926,"gui4":927,"re":928,"pin2":929,"wo4":930,"xiong2":931,"shan4":932,"22":933,"xiong1":934,"me":935,"sui1":936,"26":937,"shen3":938,"qing4":939,"miao2":940,"fang3":941,"50":942,"2020":943,"27":944,"lang2":945,"ou":946,"qiu1":947,"song1":948,"ri":949,"dang4":950,"geng1":951,"qiang1":952,"fa2":953,"zao1":954,"feng4":955,"zhang4":956,"ï¼":957,"hao2":958,"dun1":959,"zou3":960,"hai4":961,"qie4":962,"29":963,"tan4":964,"zu":965,"pao4":966,"pa4":967,"shun4":968,"peng2":969,"xuan2":970,"2010":971,"ni3":972,"000":973,"ding3":974,"niu3":975,"zai3":976,"zhao1":977,"zhui1":978,"lve4":979,"chun1":980,"2019":981,"hun1":982,"kong3":983,"che4":984,"duan1":985,"shen4":986,"xiang2":987,"duan3":988,"gan4":989,"ro":990,"te":991,"kan1":992,"lao2":993,"cao3":994,"2016":995,"si":996,"gu1":997,"pei2":998,"kuan3":999,"za2":1000,"2018":1001,"sun1":1002,"ye2":1003,"ya3":1004,"ra":1005,"po1":1006,"2021":1007,"zha4":1008,"chi4":1009,"duo2":1010,"2014":1011,"fan2":1012,"2011":1013,"2015":1014,"cuo4":1015,"2017":1016,"zhe2":1017,"yao2":1018,"pai1":1019,"tou4":1020,"cang2":1021,"2012":1022,"40":1023,"kai3":1024,"2013":1025,"2022":1026,"mi2":1027,"ruan3":1028,"suan1":1029,"cha1":1030,"zang4":1031,"miao4":1032,"lt":1033,"2009":1034,"zhao3":1035,"2008":1036,"huai2":1037,"ãĥ":1038,"ce":1039,"60":1040,"xue4":1041,"chou2":1042,"se":1043,"bang3":1044,"am":1045,"meng4":1046,"100":1047,"ti4":1048,"pu2":1049,"nao3":1050,"2023":1051,"zhuan4":1052,"gt":1053,"lei3":1054,"190":1055,"31":1056,"cai4":1057,"san4":1058,"mou2":1059,"tion":1060,"hun4":1061,"kuan1":1062,"2007":1063,"ta":1064,"niu2":1065,"mou3":1066,"tao3":1067,"die2":1068,"2001":1069,"teng2":1070,"sou1":1071,"ken3":1072,"qian3":1073,"chang1":1074,"ran3":1075,"que1":1076,"fou3":1077,"sun3":1078,"fo":1079,"ba4":1080,"2000":1081,"80":1082,"kao4":1083,"suo1":1084,"2006":1085,"niao3":1086,"pi3":1087,"chun2":1088,"2024":1089,"lan3":1090,"ãģ":1091,"zai1":1092,"co":1093,"xue3":1094,"hui3":1095,"el":1096,"ma":1097,"luan4":1098,"ting3":1099,"2005":1100,"zun1":1101,"bang4":1102,"la4":1103,"huan1":1104,"rang3":1105,"shui4":1106,"min3":1107,"35":1108,"lai4":1109,"cang1":1110,"70":1111,"fo2":1112,"pan2":1113,"nai4":1114,"wen3":1115,"ne":1116,"cao1":1117,"of":1118,"sang1":1119,"pang2":1120,"90":1121,"bing3":1122,"ï¼į":1123,"ter":1124,"zha1":1125,"ãĤ":1126,"shuai4":1127,"nie4":1128,"hou2":1129,"mei4":1130,"shao1":1131,"nu3":1132,"dong3":1133,"il":1134,"feng2":1135,"mie4":1136,"yun3":1137,"zou4":1138,"mai3":1139,"huai4":1140,"2004":1141,"45":1142,"lo":1143,"yan1":1144,"the":1145,"he":1146,"48":1147,"zhuo2":1148,"at":1149,"and":1150,"tao4":1151,"nai3":1152,"kun1":1153,"2025":1154,"zhen3":1155,"ck":1156,"ru3":1157,"kua4":1158,"kui2":1159,"ãĢī":1160,"ãĢĪ":1161,"gou1":1162,"36":1163,"et":1164,"cui1":1165,"es":1166,"38":1167,"cu4":1168,"shan3":1169,"rou4":1170,"diao1":1171,"2003":1172,"hu3":1173,"guo1":1174,"37":1175,"cui4":1176,"xu2":1177,"is":1178,"mang2":1179,"juan3":1180,"to":1181,"can2":1182,"dian1":1183,"zhan1":1184,"cao2":1185,"189":1186,"IN":1187,"2002":1188,"keng1":1189,"TC":1190,"ma2":1191,"34":1192,"leng3":1193,"as":1194,"zu1":1195,"cha4":1196,"75":1197,"âĢĵ":1198,"ow":1199,"su2":1200,"quan1":1201,"da1":1202,"chai1":1203,"lang4":1204,"kun4":1205,"46":1206,"tun2":1207,"fen3":1208,"1990":1209,"âĢ¦":1210,"ol":1211,"ve":1212,"zhou4":1213,"shang3":1214,"rao4":1215,"heng1":1216,"ti1":1217,"xun1":1218,"39":1219,"ne4":1220,"..":1221,"nan4":1222,"pan1":1223,"65":1224,"hong1":1225,"shu2":1226,"tan1":1227,"tang1":1228,"kan3":1229,"Ma":1230,"ni4":1231,"Ch":1232,"32":1233,"it":1234,"ST":1235,"han3":1236,"47":1237,"UTC":1238,"qian4":1239,"1999":1240,"1998":1241,"In":1242,"1980":1243,"188":1244,"500":1245,"33":1246,"64":1247,"qiang3":1248,"she2":1249,"shuo4":1250,"pao3":1251,"be":1252,"ka1":1253,"zhai2":1254,"SE":1255,"55":1256,"quan4":1257,"ni1":1258,"deng4":1259,"1997":1260,"The":1261,"Co":1262,"mian2":1263,"49":1264,"gao3":1265,"II":1266,"68":1267,"han":1268,"she3":1269,"zeng4":1270,"zhou2":1271,"zhai4":1272,"Re":1273,"1996":1274,"44":1275,"na":1276,"tie1":1277,"dao1":1278,"ad":1279,"br":1280,"1994":1281,"fei2":1282,"zong4":1283,"ir":1284,"qiong2":1285,"tiao4":1286,"chuang2":1287,"nd":1288,"1992":1289,"chui2":1290,"juan1":1291,"ci":1292,"chai2":1293,"miao3":1294,"ba":1295,"gua1":1296,"xue1":1297,"tong4":1298,"1995":1299,"fei3":1300,"chi1":1301,"meng3":1302,"wo1":1303,"67":1304,"shuai1":1305,"tuo2":1306,"chuang1":1307,"huan3":1308,"vi":1309,"1991":1310,"1970":1311,"58":1312,"1950":1313,"gua4":1314,"chan2":1315,"ca":1316,"300":1317,"wa1":1318,"1993":1319,"187":1320,"1949":1321,"ay":1322,"pe":1323,"sa1":1324,"tiao3":1325,"zha2":1326,"AT":1327,"1960":1328,"bian3":1329,"42":1330,"1945":1331,"ver":1332,"us":1333,"guai4":1334,"ku3":1335,"nu2":1336,"1988":1337,"du3":1338,"oo":1339,"1989":1340,"ig":1341,"pu4":1342,"69":1343,"liu3":1344,"ing":1345,"ur":1346,"ss":1347,"gong3":1348,"SEE":1349,"tuo4":1350,"ct":1351,"liao3":1352,"INSEE":1353,"59":1354,"sha4":1355,"tai1":1356,"43":1357,"66":1358,"chuan4":1359,"amp":1360,"chen4":1361,"57":1362,"1985":1363,"huang1":1364,"Ro":1365,"99":1366,"SA":1367,"ãĢİ":1368,"cun4":1369,"ãĢı":1370,"1984":1371,"hun2":1372,"41":1373,"um":1374,"pu1":1375,"kou4":1376,"ph":1377,"88":1378,"fen2":1379,"1986":1380,"rao3":1381,"St":1382,"au":1383,"id":1384,"run4":1385,"TV":1386,"150":1387,"zhuo1":1388,"ind":1389,"400":1390,"san3":1391,"1987":1392,"78":1393,"56":1394,"1982":1395,"ard":1396,"Li":1397,"nuo2":1398,"Me":1399,"1983":1400,"De":1401,"NA":1402,"gun3":1403,"ma1":1404,"tou":1405,"pin4":1406,"un":1407,"CD":1408,"chou1":1409,"ber":1410,"gou3":1411,"quan3":1412,"77":1413,"Mi":1414,"zhai1":1415,"qia4":1416,"per":1417,"mao1":1418,"qiao3":1419,"Mar":1420,"ku1":1421,"kuang2":1422,"ed":1423,"ang":1424,"rou2":1425,"98":1426,"der":1427,"lou4":1428,"OS":1429,"Â°":1430,"kui4":1431,"sang4":1432,"ï½":1433,"ly":1434,"180":1435,"BC":1436,"54":1437,"61":1438,"Al":1439,"1979":1440,"1920":1441,"ty":1442,"79":1443,"pen1":1444,"seng1":1445,"tw":1446,"52":1447,"You":1448,"1978":1449,"nu4":1450,"62":1451,"weng1":1452,"ye1":1453,"duo3":1454,"Le":1455,"53":1456,"xing3":1457,"juan4":1458,"ï½ŀ":1459,"BA":1460,"ts":1461,"ak":1462,"1946":1463,"CO":1464,"Mo":1465,"ction":1466,"51":1467,"1958":1468,"Sh":1469,"1981":1470,"Vi":1471,"man":1472,"1972":1473,"1948":1474,"zhui4":1475,"cong1":1476,"tou1":1477,"AM":1478,"63":1479,"AR":1480,"Jo":1481,"1941":1482,"Wind":1483,"wa2":1484,"BS":1485,"lian3":1486,"1930":1487,"Pro":1488,"luan3":1489,"ows":1490,"kuang1":1491,"ke2":1492,"qu2":1493,"tuo3":1494,"76":1495,"hans":1496,"1940":1497,"pi4":1498,"1937":1499,"1976":1500,"zui3":1501,"1944":1502,"89":1503,"1975":1504,"ry":1505,"ï¼ı":1506,"1968":1507,"niang2":1508,"po2":1509,"shua1":1510,"hk":1511,"con":1512,"ran":1513,"Te":1514,"yuan1":1515,"tao1":1516,"wang1":1517,"1000":1518,"Windows":1519,"95":1520,"pa":1521,"Ne":1522,"no":1523,"bi2":1524,"sao3":1525,"87":1526,"da":1527,"1966":1528,"85":1529,"fa4":1530,"peng1":1531,"600":1532,"ga1":1533,"lan4":1534,"120":1535,"1947":1536,"Ar":1537,"Sta":1538,"1956":1539,"AC":1540,"1964":1541,"dan3":1542,"cu1":1543,"1942":1544,"Ã©":1545,"1955":1546,"Se":1547,"Ra":1548,"chou3":1549,"1952":1550,"1939":1551,"1938":1552,"72":1553,"IS":1554,"va":1555,"74":1556,"Ga":1557,"ga":1558,"ht":1559,"nu":1560,"lay":1561,"ren3":1562,"1973":1563,"1974":1564,"1954":1565,"fi":1566,"qie1":1567,"ED":1568,"1900":1569,"--":1570,"Ja":1571,"AP":1572,"1943":1573,"bi1":1574,"Tu":1575,"ke":1576,"os":1577,"1977":1578,"Be":1579,"1971":1580,"pin1":1581,"man2":1582,"op":1583,"po3":1584,"ent":1585,"1967":1586,"sheng2":1587,"ment":1588,"mp":1589,"IC":1590,"800":1591,"La":1592,"ER":1593,"ia":1594,"86":1595,"1959":1596,"beng1":1597,"Sa":1598,"1965":1599,"son":1600,"JR":1601,"1969":1602,"dui1":1603,"Lo":1604,"pen2":1605,"ine":1606,"So":1607,"ãĥ»":1608,"ÃĹ":1609,"qiao4":1610,"chui1":1611,"ID":1612,"qiao1":1613,"Su":1614,"1936":1615,"97":1616,"160":1617,"ben1":1618,"zhua1":1619,"Da":1620,"Fa":1621,"1953":1622,"1962":1623,"MA":1624,"do":1625,"1961":1626,"tic":1627,"long3":1628,"âĶ":1629,"1935":1630,"ta4":1631,"rou":1632,"mai2":1633,"96":1634,"ON":1635,"Di":1636,"ï¼ħ":1637,"1951":1638,"1957":1639,"1963":1640,"Ca":1641,"ha":1642,"âĶĢ":1643,"ok":1644,"84":1645,"2026":1646,"can3":1647,"ore":1648,"82":1649,"Na":1650,"hi":1651,"bu":1652,"73":1653,"94":1654,"tun1":1655,"92":1656,"pp":1657,"IP":1658,"AN":1659,"Bo":1660,"sta":1661,"mer":1662,"1933":1663,"one":1664,"Mu":1665,"1931":1666,"nang2":1667,"les":1668,"niao4":1669,"71":1670,"bao2":1671,"ho":1672,"nuan3":1673,"gi":1674,"An":1675,"leng2":1676,"pa2":1677,"Pa":1678,"93":1679,"so":1680,"83":1681,"all":1682,"We":1683,"dou3":1684,"81":1685,"1918":1686,"HD":1687,"Si":1688,"sao1":1689,"wi":1690,"Uni":1691,"1928":1692,"luan2":1693,"1932":1694,"nen4":1695,"ll":1696,"ara":1697,"int":1698,"Ba":1699,"MV":1700,"SS":1701,"110":1702,"1912":1703,"IT":1704,"ki":1705,"1929":1706,"tui3":1707,"duo4":1708,"1927":1709,"com":1710,"tu4":1711,"1934":1712,"are":1713,"700":1714,"ga2":1715,"cn":1716,"ali":1717,"91":1718,"che":1719,"ted":1720,"ster":1721,"ff":1722,"by":1723,"huang3":1724,"col":1725,"ill":1726,"ot":1727,"250":1728,"sa":1729,"art":1730,"zei2":1731,"1924":1732,"Ri":1733,"...":1734,"1919":1735,"kui1":1736,"xuan4":1737,"130":1738,"piao1":1739,"1925":1740,"PS":1741,"pao1":1742,"xia1":1743,"140":1744,"Play":1745,"SM":1746,"PC":1747,"mes":1748,"1914":1749,"ste":1750,"zhai3":1751,"km":1752,"He":1753,"DV":1754,"pan":1755,"zhe1":1756,"YouTu":1757,"he1":1758,"end":1759,"Ha":1760,"Fi":1761,"ana":1762,"die1":1763,"ble":1764,"Con":1765,"Wi":1766,"la3":1767,"AS":1768,"1911":1769,"Bu":1770,"ka":1771,"shi":1772,"od":1773,"gra":1774,"nve4":1775,"ld":1776,"1926":1777,"Ge":1778,"Ti":1779,"den":1780,"our":1781,"1922":1782,"na3":1783,"hen4":1784,"1917":1785,"sion":1786,"ET":1787,"NBA":1788,"IV":1789,"shui2":1790,"cai1":1791,"rao2":1792,"EN":1793,"1923":1794,"1921":1795,"peng4":1796,"fe":1797,"kua1":1798,"Goo":1799,"ther":1800,"Ta":1801,"chong3":1802,"170":1803,"à¸":1804,"EC":1805,"mao3":1806,"nong4":1807,"mm":1808,"AL":1809,"MS":1810,"Ho":1811,"section":1812,"YouTube":1813,"EP":1814,"Ni":1815,"BL":1816,"1913":1817,"hn":1818,"tiao1":1819,"pen":1820,"HK":1821,"En":1822,"âĨ":1823,"hant":1824,"gun4":1825,"1909":1826,"gin":1827,"Inter":1828,"cro":1829,"Pe":1830,"Ste":1831,"MP":1832,"AI":1833,"To":1834,"geng3":1835,"Wor":1836,"nao4":1837,"ris":1838,"feng3":1839,"ant":1840,"luo3":1841,"US":1842,"ya":1843,"por":1844,"DVD":1845,"go":1846,"ari":1847,"zou1":1848,"Pi":1849,"3000":1850,"Th":1851,"ca1":1852,"Do":1853,"Po":1854,"gn":1855,"1910":1856,"For":1857,"RO":1858,"DS":1859,"112":1860,"AK":1861,"RE":1862,"pro":1863,"1916":1864,"Car":1865,"ãĥ¼":1866,"chuo4":1867,"Net":1868,"Î±":1869,"ation":1870,"Sch":1871,"Ki":1872,"No":1873,"ani":1874,"ture":1875,"ell":1876,"Lin":1877,"My":1878,"CP":1879,"UN":1880,"Wil":1881,"ark":1882,"âĪ":1883,"Station":1884,"hen2":1885,"1915":1886,"gle":1887,"niang4":1888,"1905":1889,"FC":1890,"ven":1891,"ers":1892,"my":1893,"CN":1894,"âĦ":1895,"âĨĴ":1896,"1901":1897,"tional":1898,"Lu":1899,"wa":1900,"ting":1901,"Au":1902,"DNA":1903,"Ex":1904,"fa":1905,"pu":1906,"âĢ§":1907,"sic":1908,"dia":1909,"900":1910,"HR":1911,"Ph":1912,"dice":1913,"ary":1914,"sis":1915,"New":1916,".&":1917,"ton":1918,"CH":1919,"zen3":1920,"TA":1921,"TO":1922,"1906":1923,"1904":1924,"chuang3":1925,"AV":1926,"Ju":1927,"Qu":1928,"oun":1929,"Ka":1930,"gen3":1931,"ps":1932,"John":1933,"ere":1934,"And":1935,"MO":1936,"codice":1937,"chao3":1938,"jiong3":1939,"ding":1940,"âĦĥ":1941,"ko":1942,"eri":1943,"wa4":1944,"beng4":1945,"05":1946,"fu":1947,"CC":1948,"diu1":1949,"1907":1950,"1908":1951,"Google":1952,"AG":1953,"EST":1954,"MI":1955,"vo":1956,"zuan4":1957,"SO":1958,"tes":1959,"LE":1960,"jia2":1961,"zuan3":1962,"PlayStation":1963,"enter":1964,"BO":1965,"BBC":1966,"chi":1967,"Com":1968,"AD":1969,"IG":1970,"cal":1971,"ley":1972,"li1":1973,"Gu":1974,"ence":1975,"III":1976,"oft":1977,"Ru":1978,"1500":1979,"cy":1980,"5000":1981,"cri":1982,"wor":1983,"zuan1":1984,"IST":1985,"she1":1986,"lv2":1987,"Col":1988,"ory":1989,"ME":1990,"Sy":1991,"tive":1992,"wit":1993,"CR":1994,"3D":1995,"round":1996,"IA":1997,"lan":1998,"gua3":1999,"105":2000,"je":2001,"ma4":2002,"Ð°":2003,"tt":2004,"lin":2005,"1903":2006,"101":2007,"GB":2008,"ping1":2009,"ree":2010,"Cu":2011,"can":2012,"09":2013,"ina":2014,"can4":2015,"Fe":2016,"cen2":2017,"1902":2018,"BD":2019,"NC":2020,"land":2021,"TE":2022,"cha":2023,"pang1":2024,"xt":2025,"350":2026,"Ã¡":2027,"ze":2028,"SAO":2029,"shao2":2030,"gen":2031,"DC":2032,"des":2033,"span":2034,"pt":2035,"mon":2036,"Ad":2037,"Î²":2038,"ght":2039,"res":2040,"lin4":2041,"B1900":2042,"del":2043,"book":2044,"ES":2045,"BM":2046,"ron":2047,"ï¼İ":2048,"ãĥ³":2049,"1898":2050,"06":2051,"118":2052,"Hi":2053,"la2":2054,"ãģ®":2055,"ms":2056,"qin3":2057,"cor":2058,"tel":2059,"DR":2060,"360":2061,"01":2062,"DA":2063,"Open":2064,"1895":2065,"lao4":2066,"125":2067,"mu2":2068,"za":2069,"lar":2070,"ben4":2071,"HO":2072,"ance":2073,"tin":2074,"MC":2075,"ATP":2076,"Micro":2077,"Ko":2078,"gy":2079,"Ð¾":2080,"108":2081,"Ke":2082,"sy":2083,"line":2084,"dio":2085,"NG":2086,"igh":2087,"pou1":2088,"net":2089,"yle":2090,"Go":2091,"clu":2092,"low":2093,"qie2":2094,"gram":2095,"Cor":2096,"IF":2097,"ft":2098,"Fran":2099,"One":2100,"ner":2101,"App":2102,"07":2103,"âĪĴ":2104,"08":2105,"230":2106,"gh":2107,"Face":2108,"Hu":2109,"104":2110,"pace":2111,"Pu":2112,"Ser":2113,"rea":2114,"World":2115,"soft":2116,"EDT":2117,"ISTAT":2118,"Mon":2119,"Stu":2120,"ja":2121,"shai1":2122,"song3":2123,"à¤":2124,"NO":2125,"1896":2126,"LL":2127,"ning":2128,"109":2129,"DP":2130,"fli":2131,"ger":2132,"las":2133,"dy":2134,"yu1":2135,"AA":2136,"lus":2137,"own":2138,"Bi":2139,"ity":2140,"ge3":2141,"RI":2142,"ctor":2143,"Wa":2144,"Du":2145,"SP":2146,"RT":2147,"sui3":2148,"xiao2":2149,"qia3":2150,"EX":2151,"re3":2152,"Bri":2153,"bert":2154,"B48":2155,"Man":2156,"vel":2157,"ling":2158,"106":2159,"1890":2160,"San":2161,"CST":2162,"ML":2163,"ori":2164,"Bar":2165,"CDT":2166,"Love":2167,"zang1":2168,"DO":2169,"with":2170,"HE":2171,"ward":2172,"Per":2173,"pei1":2174,"row":2175,"tain":2176,"04":2177,"4000":2178,"pri":2179,"ux":2180,"cuan4":2181,"115":2182,"ight":2183,"ds":2184,"1200":2185,"M1":2186,"03":2187,"Har":2188,"GP":2189,"pao2":2190,"CE":2191,"ren":2192,"Äģ":2193,"back":2194,"1889":2195,"begin":2196,"Par":2197,"1899":2198,"Je":2199,"Mac":2200,"colspan":2201,"1871":2202,"Ed":2203,"RS":2204,"mic":2205,"Facebook":2206,"Willi":2207,"Microsoft":2208,"âĢĭ":2209,"240":2210,"tur":2211,"Comp":2212,"ool":2213,"1600":2214,"LO":2215,"Gi":2216,"ky":2217,"BE":2218,"cc":2219,"Nor":2220,"cket":2221,"102":2222,"box":2223,"clude":2224,"TT":2225,"ref":2226,"1897":2227,"pha":2228,"Live":2229,"NH":2230,"Sou":2231,"EE":2232,"chou4":2233,"Tri":2234,"117":2235,"Is":2236,"Pre":2237,"PP":2238,"im":2239,"qin4":2240,"ut":2241,"SC":2242,"min":2243,"02":2244,"cm":2245,"shuang3":2246,"style":2247,"ie":2248,"103":2249,"AKB48":2250,"MD":2251,"yao3":2252,"Music":2253,"Pri":2254,"107":2255,"van":2256,"On":2257,"bli":2258,"cou4":2259,"tra":2260,"Gra":2261,"Or":2262,"ler":2263,"Linux":2264,"Dis":2265,"Tra":2266,"ser":2267,"ye":2268,"tang3":2269,"ww":2270,"Gre":2271,"Ori":2272,"lis":2273,"old":2274,"VID":2275,"127":2276,"tus":2277,"450":2278,"Vo":2279,"sti":2280,"Davi":2281,"Ã¼":2282,"que":2283,"128":2284,"align":2285,"lao1":2286,"flix":2287,"CL":2288,"Netflix":2289,"1894":2290,"Game":2291,"220":2292,"rin":2293,"Ber":2294,"Ð½":2295,"mas":2296,"William":2297,"IL":2298,"Mor":2299,"ks":2300,"SH":2301,"Twit":2302,"1880":2303,"Red":2304,"len":2305,"lla":2306,"ÃŃ":2307,"RNA":2308,"zao2":2309,"136":2310,"rus":2311,"rom":2312,"PG":2313,"nge":2314,"Ð¸":2315,"stri":2316,"ãģĦ":2317,"TR":2318,"stra":2319,"Team":2320,"1800":2321,"ãĤ¹":2322,"Univer":2323,"ground":2324,"1885":2325,"lia3":2326,"ero":2327,"114":2328,"ãĤĵ":2329,"Char":2330,"pian2":2331,"color":2332,"Fu":2333,"Hz":2334,"Ty":2335,"280":2336,"UR":2337,"Ðµ":2338,"113":2339,"116":2340,"tor":2341,"ano":2342,"Gen":2343,"1886":2344,"sing":2345,"ãĤ¤":2346,"TS":2347,"School":2348,"PO":2349,"mang3":2350,"lass":2351,"1893":2352,"Che":2353,"ex":2354,"sen":2355,"irl":2356,"Bla":2357,"lyi":2358,"mb":2359,"ten":2360,"Mc":2361,"ane":2362,"Mark":2363,"Eu":2364,"name":2365,"SL":2366,"tri":2367,"111":2368,"Star":2369,"ãĦ":2370,"cial":2371,"lia":2372,"irst":2373,"Super":2374,"port":2375,"Don":2376,"ject":2377,"lex":2378,"mo3":2379,"âĢ»":2380,"ces":2381,"mo1":2382,"135":2383,"David":2384,"260":2385,"national":2386,"ys":2387,"era":2388,"1860":2389,"Geor":2390,"sto":2391,"gue":2392,"nin2":2393,"ess":2394,"Wal":2395,"WTA":2396,"ker":2397,"HC":2398,"way":2399,"Show":2400,"lver":2401,"Ac":2402,"UA":2403,"was":2404,"Un":2405,"ham":2406,"1888":2407,"text":2408,"SD":2409,"ac":2410,"Ã³":2411,"roup":2412,"-.":2413,"ans":2414,"ouse":2415,"Bra":2416,"roid":2417,"cation":2418,"background":2419,"tle":2420,"yun1":2421,"dai3":2422,"Cy":2423,"pre":2424,"GO":2425,"Wh":2426,"chen1":2427,"1870":2428,"ream":2429,"GN":2430,"ï¹":2431,"129":2432,"ony":2433,"1887":2434,"bur":2435,"any":2436,"dis":2437,"shuan1":2438,"1868":2439,"Meta":2440,"6000":2441,"Ã¶":2442,"ÑĢ":2443,"El":2444,"NF":2445,"VA":2446,"cle":2447,"1883":2448,"lor":2449,"ank":2450,"ous":2451,"Xbox":2452,"320":2453,"CS":2454,"Tho":2455,"NHK":2456,"AF":2457,"As":2458,"DD":2459,"Twitter":2460,"KP":2461,"nclude":2462,"onlyi":2463,"onlyinclude":2464,"piao2":2465,"++":2466,"bit":2467,"tang4":2468,"1864":2469,"âĢ¢":2470,"ION":2471,"ny":2472,"cho":2473,"1884":2474,"RC":2475,"UE":2476,"mar":2477,"ensis":2478,"119":2479,"122":2480,"2500":2481,"1892":2482,"210":2483,"A1":2484,"tis":2485,"ena":2486,"let":2487,"center":2488,"miu4":2489,"155":2490,"ins":2491,"ower":2492,"ISO":2493,"Mat":2494,"âħ":2495,"145":2496,"1891":2497,"650":2498,"Clu":2499,"cer":2500,"Android":2501,"Girl":2502,"age":2503,"ãĢķ":2504,"OR":2505,"red":2506,"nes":2507,"Ku":2508,"NS":2509,"cuo1":2510,"car":2511,"ãĢĶ":2512,"1850":2513,"htt":2514,"meri":2515,"Cl":2516,"val":2517,"International":2518,"Day":2519,"xy":2520,"ound":2521,"mi1":2522,"1867":2523,"logy":2524,"stem":2525,"IM":2526,"pang4":2527,"ãĥĪ":2528,"eld":2529,"All":2530,"ffi":2531,"1879":2532,"ake":2533,"James":2534,"Enter":2535,"War":2536,"par":2537,"sel":2538,"380":2539,"AB":2540,"UP":2541,"Ver":2542,"bri":2543,"ney":2544,"1876":2545,"Ani":2546,"Coun":2547,"sia":2548,"George":2549,"Can":2550,"lie":2551,"1875":2552,"1861":2553,"270":2554,"Universi":2555,"Dra":2556,"Her":2557,"Por":2558,"td":2559,"Games":2560,"Air":2561,"IR":2562,"126":2563,"NT":2564,"Ã¨":2565,"time":2566,"inter":2567,"Hol":2568,"Pau":2569,"Spe":2570,"NGC":2571,"stru":2572,"ãĥ«":2573,"1873":2574,"MG":2575,"ns":2576,"123":2577,"ãĥ©":2578,"ama":2579,"Eng":2580,"Hen":2581,"PV":2582,"Ab":2583,"Group":2584,"HT":2585,"sed":2586,"rans":2587,"Colle":2588,"Ben":2589,"Hy":2590,"MB":2591,"Va":2592,"168":2593,"COVID":2594,"critic":2595,"FM":2596,"om":2597,"1865":2598,"ild":2599,"Club":2600,"AO":2601,"PL":2602,"lue":2603,"that":2604,"ass":2605,"Ameri":2606,"DE":2607,"121":2608,"Center":2609,"hy":2610,"cus":2611,"work":2612,"Blo":2613,"175":2614,"ald":2615,"ãģĨ":2616,"Web":2617,"H2":2618,"YP":2619,"from":2620,"Ã¤":2621,"1400":2622,"MAX":2623,"Ali":2624,"138":2625,"228":2626,"TP":2627,"ast":2628,"ha2":2629,"chan4":2630,"nic":2631,"1848":2632,"fer":2633,"liu1":2634,"1862":2635,"ration":2636,"330":2637,"peng3":2638,"124":2639,"ãĤ¢":2640,"1881":2641,"1882":2642,"737":2643,"Park":2644,"vil":2645,"ens":2646,"ona":2647,"1878":2648,"550":2649,"guai3":2650,"Ve":2651,"rui3":2652,"1872":2653,"LC":2654,"bin4":2655,"Hel":2656,"High":2657,"INK":2658,"Metacritic":2659,"zo":2660,"It":2661,"nao2":2662,"tro":2663,"Oricon":2664,"MTV":2665,"UC":2666,"wan":2667,"156":2668,"165":2669,"Boo":2670,"LED":2671,"don":2672,"nian3":2673,"1840":2674,"IVE":2675,"Spi":2676,"core":2677,"dai1":2678,"750":2679,"dge":2680,"shai4":2681,"ãĥĥ":2682,"cre":2683,"ming":2684,"137":2685,"ãģĹ":2686,"Lea":2687,"nis":2688,"1300":2689,"stagram":2690,"7000":2691,"ring":2692,"Bro":2693,"DOS":2694,"SQ":2695,"UB":2696,"229":2697,"IU":2698,"She":2699,"GDP":2700,"King":2701,"OK":2702,"Ñģ":2703,"Chu":2704,"Pla":2705,"rand":2706,"152":2707,"out":2708,"TVB":2709,"Micha":2710,"Fri":2711,"day":2712,"159":2713,"1877":2714,"Robert":2715,"Stre":2716,"type":2717,"Sur":2718,"âĹ":2719,"kui3":2720,"1866":2721,"Chris":2722,"iOS":2723,"Ð»":2724,"als":2725,"Produ":2726,"SK":2727,"Up":2728,"1869":2729,"âĢ²":2730,"silver":2731,"Ele":2732,"THE":2733,"DM":2734,"xiu3":2735,"star":2736,"Peter":2737,"NET":2738,"Pat":2739,"gar":2740,"pla":2741,"she":2742,"play":2743,"Ðº":2744,"Chi":2745,"Instagram":2746,"BI":2747,"py":2748,"139":2749,"BLAC":2750,"Big":2751,"gan":2752,"Ð²":2753,"DJ":2754,"reng1":2755,"lip":2756,"sso":2757,"Phone":2758,"CG":2759,"WE":2760,"code":2761,"ãĤ¯":2762,"Michael":2763,"At":2764,"DF":2765,"ï¸":2766,"Apple":2767,"1100":2768,"Ci":2769,"ai":2770,"158":2771,"Tech":2772,"Paul":2773,"225":2774,"gon":2775,"ene":2776,"305":2777,"133":2778,"alk":2779,"INE":2780,"National":2781,"Type":2782,"RA":2783,"sa3":2784,"nia":2785,"ãĥª":2786,"ator":2787,"Award":2788,"HI":2789,"YO":2790,"132":2791,"Steam":2792,"Es":2793,"Ye":2794,"ral":2795,"205":2796,"1863":2797,"ray":2798,"tainment":2799,"215":2800,"Bill":2801,"cia":2802,"University":2803,"Ce":2804,"FO":2805,"phy":2806,"CA":2807,"F1":2808,"KBS":2809,"148":2810,"131":2811,"Media":2812,"Kar":2813,"Lou":2814,"Mer":2815,"Smi":2816,"Wo":2817,"166":2818,"arch":2819,"new":2820,"1874":2821,"EF":2822,"XX":2823,"kg":2824,"now":2825,"deo":2826,"enti":2827,"1858":2828,"Fin":2829,"ic":2830,"147":2831,"Black":2832,"bal":2833,"vin":2834,"256":2835,"ãģĭ":2836,"GA":2837,"Gar":2838,"M2":2839,"kun3":2840,"1830":2841,"Rich":2842,"CBS":2843,"Ter":2844,"UT":2845,"ach":2846,"clo":2847,"ew":2848,"1851":2849,"ora":2850,"Lee":2851,"BN":2852,"EM":2853,"UI":2854,"192":2855,"Î¼":2856,"Cha":2857,"8000":2858,"che3":2859,"Jack":2860,"Entertainment":2861,"if":2862,"zer":2863,"ann":2864,"lin3":2865,"mini":2866,"bin":2867,"143":2868,"set":2869,"ada":2870,"City":2871,"Mk":2872,"gang4":2873,"1855":2874,"Intel":2875,"310":2876,"Power":2877,"IX":2878,"ha3":2879,"mber":2880,"IE":2881,"RAM":2882,"Space":2883,"bel":2884,"zuo2":2885,"ð«":2886,"1859":2887,"STAR":2888,"Charles":2889,"134":2890,"tions":2891,"iss":2892,"Dire":2893,"ship":2894,"Ang":2895,"ABC":2896,"185":2897,"1854":2898,"org":2899,"146":2900,"301":2901,"Fla":2902,"1700":2903,"Viu":2904,"370":2905,"space":2906,"1857":2907,"Free":2908,"GM":2909,"Win":2910,"ek":2911,"whi":2912,"stro":2913,"Er":2914,"vs":2915,"Ø§":2916,"290":2917,"ãģª":2918,"Life":2919,"Tai":2920,"ï¸°":2921,"Sam":2922,"Î³":2923,"ino":2924,"Java":2925,"214":2926,"Py":2927,"ÑĤ":2928,"mis":2929,"Recor":2930,"Company":2931,"stitu":2932,"420":2933,"Dream":2934,"Pol":2935,"fang":2936,"Î¿":2937,"ãĢľ":2938,"1856":2939,"1853":2940,"Project":2941,"House":2942,"ah":2943,"first":2944,"dium":2945,"ãģŁ":2946,"ety":2947,"ood":2948,"Time":2949,"Thomas":2950,"Pan":2951,"bra":2952,"von":2953,"bo4":2954,"144":2955,"Alpha":2956,"Saint":2957,"FA":2958,"Ken":2959,"OVA":2960,"Cent":2961,"VO":2962,"face":2963,"A2":2964,"IO":2965,"167":2966,"3A":2967,"HS":2968,"SBS":2969,"sha3":2970,"bili":2971,"kua3":2972,"1841":2973,"Street":2974,"Am":2975,"Alex":2976,"Bat":2977,"LP":2978,"spe":2979,"alo":2980,"Japan":2981,"340":2982,"Ag":2983,"PM":2984,"chuan3":2985,"rie":2986,"Euro":2987,"BLACKP":2988,"Spo":2989,"Tor":2990,"ae":2991,"wn":2992,"za1":2993,"208":2994,"1815":2995,"178":2996,"CPU":2997,"BLACKPINK":2998,"223":2999,"Bur":3000,"Tru":3001,"cis":3002,"men4":3003,"Soci":3004,"850":3005,"LGB":3006,"Sing":3007,"tal":3008,"zuo1":3009,"cher":3010,"ric":3011,"ses":3012,"Rock":3013,"Studio":3014,"www":3015,"IBM":3016,"die":3017,"mat":3018,"esti":3019,"ports":3020,"SF":3021,"Val":3022,"you":3023,"207":3024,"very":3025,"235":3026,"ãģ¨":3027,"ãģ¾":3028,"mation":3029,"Art":3030,"Dig":3031,"Fer":3032,"LIVE":3033,"Mr":3034,"Met":3035,"Pop":3036,"SU":3037,"203":3038,"ning4":3039,"171":3040,"berg":3041,"B2":3042,"VE":3043,"Whi":3044,"nal":3045,"comp":3046,"Shi":3047,"SQL":3048,"Pad":3049,"cra":3050,"sg":3051,"vis":3052,"1846":3053,"164":3054,"ford":3055,"not":3056,"College":3057,"Min":3058,"Yu":3059,"bre":3060,"lit":3061,"157":3062,"vice":3063,"publi":3064,"BR":3065,"LT":3066,"NE":3067,"Sun":3068,"141":3069,"ICE":3070,"American":3071,"B1":3072,"Cro":3073,"PE":3074,"est":3075,"board":3076,"176":3077,"sign":3078,"ING":3079,"Asso":3080,"LS":3081,"ball":3082,"han1":3083,"Â²":3084,"well":3085,"1812":3086,"1845":3087,"1844":3088,"Road":3089,"Girls":3090,"self":3091,"ple":3092,"mit":3093,"231":3094,"Offi":3095,"cture":3096,"class":3097,"HF":3098,"Ltd":3099,"M3":3100,"pm":3101,"bor":3102,"ãĤĬ":3103,"witch":3104,"LGBT":3105,"BB":3106,"209":3107,"wood":3108,"pon":3109,"cess":3110,"ãģį":3111,"NASA":3112,"GNU":3113,"Ger":3114,"LA":3115,"PA":3116,"wai1":3117,"ded":3118,"thy":3119,"Jose":3120,"Tele":3121,"Smith":3122,"Cla":3123,"Cra":3124,"Pra":3125,"ise":3126,"ampi":3127,"aurus":3128,"IUCN":3129,"216":3130,"PN":3131,"wh":3132,"Îº":3133,"1849":3134,"153":3135,"Good":3136,"CT":3137,"Fil":3138,"Hall":3139,"NBC":3140,"Tour":3141,"zhou3":3142,"204":3143,"238":3144,"Cho":3145,"ump":3146,"Production":3147,"le1":3148,"lea":3149,"tation":3150,"ness":3151,"Video":3152,"GT":3153,"O2":3154,"Sci":3155,"Ïĥ":3156,"mited":3157,"Gala":3158,"Eli":3159,"Fo":3160,"PR":3161,"war":3162,"yn":3163,"din":3164,"206":3165,"eries":3166,"Ze":3167,"1814":3168,"mac":3169,"218":3170,"fri":3171,"fra":3172,"lti":3173,"ons":3174,"ange":3175,"Richard":3176,"SI":3177,"mal":3178,"chun3":3179,"IGN":3180,"Act":3181,"LD":3182,"Sen":3183,"WS":3184,"win":3185,"âĸ":3186,"pic":3187,"qui":3188,"Chri":3189,"Boy":3190,"Plan":3191,"Sky":3192,"Tur":3193,"bun":3194,"ÏĢ":3195,"def":3196,"1847":3197,"154":3198,"tho":3199,"ved":3200,"vision":3201,"turn":3202,"460":3203,"580":3204,"Bel":3205,"FF":3206,"Far":3207,"Mas":3208,"her":3209,"iro":3210,"sch":3211,"ves":3212,"zz":3213,"mor":3214,"1843":3215,"Best":3216,"System":3217,"ptr":3218,"430":3219,"MBC":3220,"sha":3221,"401":3222,"chem":3223,"410":3224,"bar":3225,"bus":3226,"pr":3227,"led":3228,"177":3229,"rich":3230,"off":3231,"ãĤ·":3232,"los":3233,"NFL":3234,"ViuTV":3235,"Cal":3236,"Switch":3237,"163":3238,"AMD":3239,"API":3240,"West":3241,"Dan":3242,"ICO":3243,"ep":3244,"oper":3245,"ments":3246,"1852":3247,"162":3248,"cript":3249,"VII":3250,"gs":3251,"1820":3252,"this":3253,"ãģı":3254,"Max":3255,"Inc":3256,"Ama":3257,"Bor":3258,"Fre":3259,"Prin":3260,"cil":3261,"ue":3262,"142":3263,"get":3264,"234":3265,"thon":3266,"Roy":3267,"VR":3268,"172":3269,"ãģĬ":3270,"ãģķ":3271,"Records":3272,"640":3273,"Em":3274,"Gal":3275,"Squ":3276,"Vir":3277,"169":3278,"3500":3279,"Limited":3280,"data":3281,"CM":3282,"Core":3283,"KC":3284,"T1":3285,"Â±":3286,"lve":3287,"1839":3288,"ars":3289,"232":3290,"480":3291,"ci1":3292,"179":3293,"cade":3294,"2030":3295,"149":3296,"max":3297,"365":3298,"Institu":3299,"mann":3300,"Res":3301,"1821":3302,"ãĥŃ":3303,"ãģ¿":3304,"ders":3305,"Unicode":3306,"ROM":3307,"CCTV":3308,"390":3309,"BU":3310,"Han":3311,"cent":3312,"lli":3313,"tv":3314,"306":3315,"222":3316,"601":3317,"unch":3318,"Fan":3319,"Vol":3320,"ii":3321,"tube":3322,"173":3323,"247":3324,"ria":3325,"itch":3326,"Bob":3327,"ful":3328,"Cri":3329,"EA":3330,"PF":3331,"king":3332,"tian":3333,"ital":3334,"oot":3335,"KK":3336,"XP":3337,"1790":3338,"560":3339,"OH":3340,"SN":3341,"use":3342,"wid":3343,"lian":3344,"ping":3345,"ãĥ¬":3346,"ciation":3347,"211":3348,"BF":3349,"Fun":3350,"Trans":3351,"VM":3352,"ire":3353,"Hot":3354,"MU":3355,"PD":3356,"PH":3357,"Sco":3358,"Sir":3359,"io":3360,"var":3361,"shua3":3362,"lum":3363,"1795":3364,"303":3365,"âĹĭ":3366,"183":3367,"233":3368,"search":3369,"ãģ¡":3370,"1801":3371,"Force":3372,"213":3373,"Pen":3374,"Tok":3375,"kh":3376,"lon":3377,"weng4":3378,"run":3379,"ãĥŀ":3380,"USB":3381,"Van":3382,"num":3383,"tia":3384,"sub":3385,"nie":3386,"174":3387,"rew":3388,"MVP":3389,"Heart":3390,"Fire":3391,"Jean":3392,"CK":3393,"zon":3394,"Ïģ":3395,"áĢ":3396,"ìĿ":3397,"186":3398,"1838":3399,"ord":3400,"ally":3401,"Store":3402,"520":3403,"610":3404,"Bank":3405,"DDR":3406,"Glo":3407,"Top":3408,"sor":3409,"up":3410,"nga":3411,"mily":3412,"cker":3413,"iPad":3414,"rong3":3415,"tz":3416,"sur":3417,"161":3418,"501":3419,"ãĥī":3420,"its":3421,"aya":3422,"Home":3423,"http":3424,"Direct":3425,"224":3426,"CF":3427,"Hor":3428,"Lon":3429,"ele":3430,"bile":3431,"1813":3432,"ãĤī":3433,"Phil":3434,"Dr":3435,"Fle":3436,"GE":3437,"zy":3438,"ÏĦ":3439,"182":3440,"1832":3441,"1842":3442,"lation":3443,"Society":3444,"AE":3445,"Cam":3446,"Zi":3447,"fter":3448,"184":3449,"ãĤ«":3450,"Mini":3451,"key":3452,"Data":3453,"720":3454,"KI":3455,"Mel":3456,"Script":3457,"iPhone":3458,"jo":3459,"âĺ":3460,"1836":3461,"late":3462,"1793":3463,"255":3464,"tha":3465,"ãĤª":3466,"Comic":3467,"Muse":3468,"221":3469,"HBO":3470,"MT":3471,"Sto":3472,"dro":3473,"hou3":3474,"kin":3475,"nt":3476,"1833":3477,"1789":3478,"Sha":3479,"tics":3480,"River":3481,"https":3482,"Association":3483,"Galaxy":3484,"buntu":3485,"DAM":3486,"M4":3487,"QQ":3488,"dra":3489,"fin":3490,"mg":3491,"ties":3492,"1835":3493,"151":3494,"ãĤ¿":3495,"ady":3496,"219":3497,"217":3498,"338":3499,"FT":3500,"Jan":3501,"JYP":3502,"SR":3503,"WA":3504,"em":3505,"ðĲ":3506,"shang":3507,"âĢ°":3508,"muni":3509,"1804":3510,"ONE":3511,"CEO":3512,"width":3513,"470":3514,"740":3515,"830":3516,"Ubuntu":3517,"ga4":3518,"uni":3519,"light":3520,"ella":3521,"Martin":3522,"Henry":3523,"League":3524,"Bay":3525,"YG":3526,"ban":3527,"bro":3528,"gre":3529,"ÏĤ":3530,"Ð´":3531,"âī":3532,"mus":3533,"Master":3534,"Champi":3535,"ving":3536,"Gener":3537,"Des":3538,"Ear":3539,"Fra":3540,"LINE":3541,"Phi":3542,"cen":3543,"Î½":3544,"less":3545,"ato":3546,"ART":3547,"Green":3548,"212":3549,"Br":3550,"DK":3551,"cti":3552,"Ñĥ":3553,"nger":3554,"hun":3555,"list":3556,"1828":3557,"ors":3558,"ãĤ³":3559,"cond":3560,"APAN":3561,"rown":3562,"Dou":3563,"FR":3564,"Night":3565,"Ven":3566,"dit":3567,"191":3568,"302":3569,"table":3570,"Billboard":3571,"680":3572,"Gam":3573,"Mana":3574,"MHz":3575,"PI":3576,"Pin":3577,"SNH":3578,"has":3579,"nm":3580,"Î¹":3581,"181":3582,"1624":3583,"237":3584,"side":3585,"main":3586,"ãĤĭ":3587,"China":3588,"Office":3589,"Joseph":3590,"SNH48":3591,"Bir":3592,"FDA":3593,"Gold":3594,"JAPAN":3595,"PK":3596,"à¹":3597,"á¹":3598,"1644":3599,"308":3600,"ston":3601,"Code":3602,"Stra":3603,"COM":3604,"Note":3605,"DB":3606,"Dy":3607,"Env":3608,"GR":3609,"Hill":3610,"Mil":3611,"Ob":3612,"Part":3613,"10000":3614,"1837":3615,"tui2":3616,"239":3617,"rick":3618,"logi":3619,"1806":3620,"Song":3621,"United":3622,"News":3623,"macOS":3624,"440":3625,"CV":3626,"Inv":3627,"MW":3628,"U21":3629,"har":3630,"mark":3631,"Ã¢":3632,"Ã®":3633,"Î´":3634,"à¥":3635,"âĳ":3636,"1819":3637,"299":3638,"346":3639,"Radio":3640,"Long":3641,"Pala":3642,"HTML":3643,"annel":3644,"780":3645,"East":3646,"Out":3647,"Ten":3648,"Talk":3649,"1825":3650,"245":3651,"236":3652,"than":3653,"505":3654,"279":3655,"ãģ«":3656,"ado":3657,"Young":3658,"Digital":3659,"540":3660,"Camp":3661,"EV":3662,"H5":3663,"Lau":3664,"rpm":3665,"chong4":3666,"001":3667,"sian":3668,"ned":3669,"ters":3670,"but":3671,"325":3672,"Bal":3673,"plo":3674,"pur":3675,"sus":3676,"1776":3677,"ãģĺ":3678,"peri":3679,"NCAA":3680,"Server":3681,"Ban":3682,"FAT":3683,"How":3684,"Ji":3685,"1818":3686,"265":3687,"right":3688,"ãģĵ":3689,"dent":3690,"Hello":3691,"Bru":3692,"Dri":3693,"Yo":3694,"app":3695,"coun":3696,"1824":3697,"1831":3698,"2027":3699,"illa":3700,"tical":3701,"Cry":3702,"GS":3703,"Les":3704,"RPG":3705,"bet":3706,"part":3707,"ul":3708,"wer":3709,"Ã§":3710,"Ã´":3711,"chel":3712,"med":3713,"rome":3714,"anda":3715,"Child":3716,"Hist":3717,"Service":3718,"âħ¡":3719,"Techno":3720,"Cat":3721,"Down":3722,"Os":3723,"UM":3724,"ice":3725,"hur":3726,"mond":3727,"temp":3728,"BSD":3729,"KiHa":3730,"Frank":3731,"Island":3732,"public":3733,"Science":3734,"1A":3735,"Blue":3736,"CW":3737,"Fore":3738,"XML":3739,"ben":3740,"Î»":3741,"275":3742,"2700":3743,"long":3744,"Youtube":3745,"Kong":3746,"Edward":3747,"Under":3748,"Python":3749,"White":3750,"312":3751,"5G":3752,"730":3753,"First":3754,"Grand":3755,"HL":3756,"Lan":3757,"OM":3758,"Pas":3759,"TBS":3760,"fun":3761,"hao1":3762,"264":3763,"295":3764,"386":3765,"1802":3766,"BLUE":3767,"Institute":3768,"Champion":3769,"630":3770,"Cas":3771,"Sum":3772,"TM":3773,"kar":3774,"Ãº":3775,"Ãł":3776,"nie1":3777,"1822":3778,"ared":3779,"sts":3780,"288":3781,"ãĤ¸":3782,"ÙĦ":3783,"307":3784,"244":3785,"ãĥķ":3786,"vate":3787,"Tunes":3788,"ITF":3789,"Tom":3790,"Gro":3791,"JT":3792,"xel":3793,"anti":3794,"launch":3795,"249":3796,"903":3797,"ille":3798,"North":3799,"Poly":3800,"Square":3801,"OT":3802,"Pal":3803,"PID":3804,"Series":3805,"llo":3806,"try":3807,"zation":3808,"Ä«":3809,"Å¡":3810,"tum":3811,"243":3812,"2800":3813,"tas":3814,"Your":3815,"This":3816,"Cup":3817,"burg":3818,"FX":3819,"Ham":3820,"Jump":3821,"Moun":3822,"NP":3823,"Sor":3824,"Sof":3825,"Ya":3826,"__":3827,"lio":3828,"1810":3829,"1622":3830,"1792":3831,"return":3832,"701":3833,"SARS":3834,"Cap":3835,"Hong":3836,"POP":3837,"960":3838,"Cur":3839,"Dani":3840,"Kh":3841,"Lang":3842,"Op":3843,"Sig":3844,"SHO":3845,"VV":3846,"ich":3847,"non":3848,"pai3":3849,"Îµ":3850,"mos":3851,"1650":3852,"801":3853,"Rap":3854,"Network":3855,"MIUI":3856,"2100":3857,"Ur":3858,"ob":3859,"Ð¼":3860,"007":3861,"1826":3862,"1573":3863,"rum":3864,"cing":3865,"have":3866,"747":3867,"Jour":3868,"Ray":3869,"Wat":3870,"ken":3871,"1834":3872,"304":3873,"226":3874,"278":3875,"ãĥŁ":3876,"ãĤĤ":3877,"375":3878,"add":3879,"1805":3880,"ACT":3881,"APP":3882,"AIR":3883,"Studi":3884,"Block":3885,"Gran":3886,"HA":3887,"Im":3888,"Para":3889,"Tre":3890,"ag":3891,"pres":3892,"rd":3893,"sin":3894,"296":3895,"298":3896,"385":3897,"ATA":3898,"Model":3899,"Die":3900,"2D":3901,"335":3902,"590":3903,"9000":3904,"CU":3905,"Dot":3906,"Gil":3907,"Sports":3908,"WN":3909,"ml":3910,"vy":3911,"Ïī":3912,"âĭ":3913,"lic":3914,"lang":3915,"1780":3916,"ges":3917,"227":3918,"sig":3919,"lta":3920,"ãĥł":3921,"aka":3922,"dings":3923,"IFA":3924,"315":3925,"Jon":3926,"Ren":3927,"Sp":3928,"fre":3929,"iTunes":3930,"Â»":3931,"sual":3932,"more":3933,"251":3934,"277":3935,"map":3936,"CNN":3937,"Auto":3938,"2A":3939,"Cle":3940,"Gol":3941,"Over":3942,"Rus":3943,"RFC":3944,"hr":3945,"pH":3946,"und":3947,"zine":3948,"1582":3949,"1799":3950,"259":3951,"246":3952,"248":3953,"thi":3954,"Mag":3955,"view":3956,"1809":3957,"gain":3958,"Que":3959,"South":3960,"Engine":3961,"530":3962,"C2":3963,"DLC":3964,"Now":3965,"Sc":3966,"gen4":3967,"sang3":3968,"Â«":3969,"ander":3970,"1823":3971,"orn":3972,"1621":3973,"272":3974,"405":3975,"ATION":3976,"1803":3977,"State":3978,"stems":3979,"Internet":3980,"EEE":3981,"press":3982,"334":3983,"620":3984,"770":3985,"Class":3986,"Dar":3987,"Jen":3988,"Nu":3989,"SG":3990,"VI":3991,"had":3992,"dition":3993,"ork":3994,"1625":3995,"284":3996,"285":3997,"ãĤµ":3998,"Stan":3999,"tware":4000,"dae":4001,"Publi":4002,"311":4003,"880":4004,"Lis":4005,"NM":4006,"Sony":4007,"dor":4008,"Ãī":4009,"á»":4010,"lution":4011,"cur":4012,"258":4013,"form":4014,"276":4015,"ãģĮ":4016,"ason":4017,"Mobile":4018,"Bus":4019,"Cli":4020,"Cer":4021,"Den":4022,"KO":4023,"Oper":4024,"XT":4025,"dd":4026,"ith":4027,"sco":4028,"à¦":4029,"253":4030,"ress":4031,"357":4032,"via":4033,"Moon":4034,"Wii":4035,"Pier":4036,"660":4037,"Bon":4038,"Get":4039,"Men":4040,"SV":4041,"UL":4042,"Ð¹":4043,"chen":4044,"oud":4045,"ãĥĹ":4046,"STA":4047,"ings":4048,"Maria":4049,"IPv":4050,"Unix":4051,"What":4052,"Europe":4053,"570":4054,"Bre":4055,"U19":4056,"WF":4057,"Way":4058,"ee":4059,"pat":4060,"Ð³":4061,"1827":4062,"tuan1":4063,"1570":4064,"aly":4065,"ãģĤ":4066,"cks":4067,"gazine":4068,"Link":4069,"ville":4070,"Book":4071,"314":4072,"3DS":4073,"690":4074,"BBS":4075,"C6":4076,"DSM":4077,"IEEE":4078,"SB":4079,"WWE":4080,"blo":4081,"ini":4082,"nor":4083,"1817":4084,"1640":4085,"1636":4086,"268":4087,"402":4088,"404":4089,"ãģ¯":4090,"Medi":4091,"Rain":4092,"Beau":4093,"Sound":4094,"which":4095,"4G":4096,"AX":4097,"Dol":4098,"Gri":4099,"fy":4100,"trans":4101,"1775":4102,"254":4103,"Francis":4104,"323":4105,"Cir":4106,"HP":4107,"Lit":4108,"OP":4109,"kao1":4110,"model":4111,"laris":4112,"1750":4113,"309":4114,"teri":4115,"cast":4116,"aker":4117,"Joy":4118,"fic":4119,"329":4120,"670":4121,"Ath":4122,"Clo":4123,"End":4124,"Ly":4125,"Plus":4126,"hel":4127,"ide":4128,"ung":4129,"yan":4130,"shing":4131,"guai1":4132,"1816":4133,"ãĥģ":4134,"ãĤ£":4135,"4500":4136,"Channel":4137,"CON":4138,"Victor":4139,"field":4140,"Tik":4141,"TOP":4142,"Cube":4143,"Louis":4144,"print":4145,".-":4146,"710":4147,"910":4148,"950":4149,"DI":4150,"God":4151,"MK":4152,"ab":4153,"oc":4154,"dian":4155,"pin":4156,"arr":4157,"241":4158,"2300":4159,"Research":4160,"ISBN":4161,"Poli":4162,"Film":4163,"tvN":4164,"326":4165,"Asia":4166,"Bou":4167,"PT":4168,"T2":4169,"rch":4170,"sp":4171,"à½":4172,"pital":4173,"1592":4174,"alle":4175,"347":4176,"758":4177,"May":4178,"oom":4179,"Stand":4180,"ople":4181,"Ara":4182,"DT":4183,"Tro":4184,"tr":4185,"tan":4186,"tual":4187,"1628":4188,"1788":4189,"252":4190,"242":4191,"269":4192,"ãĥĭ":4193,"andy":4194,"Leon":4195,"ffer":4196,"fea":4197,"Nico":4198,"velop":4199,"tural":4200,"318":4201,"336":4202,"978":4203,"Ado":4204,"CB":4205,"DL":4206,"Festi":4207,"MUS":4208,"N2":4209,"O3":4210,"áĥ":4211,"bie1":4212,"tio":4213,"pos":4214,"1627":4215,"1783":4216,"1791":4217,"alth":4218,"406":4219,"354":4220,"INN":4221,"Regi":4222,"phi":4223,"Vista":4224,"rough":4225,"Pixel":4226,"Disney":4227,"âĸ¡":4228,"Acade":4229,"Cour":4230,"EL":4231,"F4":4232,"IB":4233,"LAN":4234,"LTE":4235,"Pho":4236,"Sm":4237,"pa1":4238,"tre":4239,"nica":4240,"1797":4241,"289":4242,"ï¼»":4243,"ï¼½":4244,"ced":4245,"Mach":4246,"556":4247,"Beat":4248,"Law":4249,"Ange":4250,"DMS":4251,"OF":4252,"TH":4253,"Tan":4254,"nan3":4255,"pop":4256,"1779":4257,"1796":4258,"607":4259,"ãģ¤":4260,"ãģł":4261,"352":4262,"465":4263,"1808":4264,"Prof":4265,"ERT":4266,"some":4267,"km2":4268,"Works":4269,"NCT":4270,"Alice":4271,"Software":4272,"âĭ¯":4273,"321":4274,"337":4275,"A4":4276,"Ami":4277,"T3":4278,"fla":4279,"gis":4280,"ls":4281,"char":4282,"huang4":4283,"night":4284,"1829":4285,"tude":4286,"1778":4287,"1794":4288,"283":4289,"273":4290,"test":4291,"ãĥ£":4292,"ãĥĲ":4293,"ãĤ¨":4294,"cky":4295,"Cos":4296,"Mary":4297,"Visual":4298,"inese":4299,"YouTuber":4300,"ASC":4301,"world":4302,"Elect":4303,"Battle":4304,"313":4305,"510":4306,"840":4307,"860":4308,"Foot":4309,"Mnet":4310,"vance":4311,"Ã±":4312,"Î¸":4313,"shuai3":4314,"1798":4315,"mega":4316,"ãģ¦":4317,"456":4318,"372":4319,"Johan":4320,"ECT":4321,"system":4322,"Special":4323,"Awards":4324,"448":4325,"870":4326,"Blu":4327,"MF":4328,"ath":4329,"ror":4330,"sca":4331,"web":4332,"1580":4333,"1612":4334,"1634":4335,"1787":4336,"281":4337,"267":4338,"ãĥĩ":4339,"ãģ£":4340,"mad":4341,"ãĤ¦":4342,"lost":4343,"mmy":4344,"Premi":4345,"Royal":4346,"Global":4347,"911":4348,"DG":4349,"Fro":4350,"Mis":4351,"Oli":4352,"Set":4353,"TN":4354,"Tou":4355,"WO":4356,"âĩ":4357,"shai3":4358,"mina":4359,"1567":4360,"1648":4361,"271":4362,"tech":4363,"ltra":4364,"Real":4365,"pedia":4366,"pher":4367,"cono":4368,"Arts":4369,"BOX":4370,"Enviro":4371,"AH":4372,"Dark":4373,"E3":4374,"Gor":4375,"MM":4376,"Mur":4377,"Not":4378,"Pay":4379,"York":4380,"ev":4381,"chuo1":4382,"hus":4383,"bon":4384,"367":4385,"OSHI":4386,"const":4387,"ACE":4388,"ffe":4389,"ENT":4390,"AGA":4391,"Great":4392,"TikTok":4393,"-&":4394,"322":4395,"Ah":4396,"MON":4397,"OTT":4398,"Rou":4399,"VB":4400,"cas":4401,"bian":4402,"posi":4403,"1550":4404,"1568":4405,"1615":4406,"1630":4407,"lam":4408,"formation":4409,"286":4410,"ãĥĸ":4411,"Magazine":4412,"CH3":4413,"Compu":4414,"Museum":4415,"Daniel":4416,"Festival":4417,"Brown":4418,"Cru":4419,"CAS":4420,"FBI":4421,"LG":4422,"Mal":4423,"Mill":4424,"Ram":4425,"SIG":4426,"USA":4427,"ap":4428,"gg":4429,"other":4430,"zhao2":4431,"ying":4432,"pie1":4433,"1645":4434,"1646":4435,"fore":4436,"262":4437,"ãĤŃ":4438,"333":4439,"COLL":4440,"ARD":4441,"Secre":4442,"stea":4443,"stein":4444,"Encore":4445,"tures":4446,"Cloud":4447,"MUSIC":4448,"Hun":4449,"Lar":4450,"Let":4451,"bas":4452,"dou":4453,"gal":4454,"tto":4455,"Ø±":4456,"1626":4457,"261":4458,"297":4459,"tem":4460,"355":4461,"olf":4462,"Chinese":4463,"Kim":4464,"Online":4465,"328":4466,"820":4467,"Pet":4468,"PRO":4469,"S2":4470,"over":4471,"sou3":4472,"mod":4473,"ques":4474,"1637":4475,"rey":4476,"705":4477,"901":4478,"364":4479,"384":4480,"378":4481,"442":4482,"Memo":4483,"gic":4484,"Point":4485,"VIDIA":4486,"618":4487,"AU":4488,"CBC":4489,"HB":4490,"Has":4491,"Hum":4492,"NVIDIA":4493,"T48":4494,"cto":4495,"sche":4496,"yl":4497,"ze4":4498,"Ð¡":4499,"Ñĭ":4500,"1642":4501,"257":4502,"2400":4503,"282":4504,"2600":4505,"Mad":4506,"vern":4507,"Stadium":4508,"mple":4509,"1609":4510,"oney":4511,"Redmi":4512,"Year":4513,"Taiwan":4514,"Adobe":4515,"760":4516,"767":4517,"Cou":4518,"CAN":4519,"Il":4520,"O4":4521,"Sw":4522,"U17":4523,"VC":4524,"Vin":4525,"Won":4526,"bat":4527,"bps":4528,"heng4":4529,"ÑĮ":4530,"deon":4531,"nior":4532,"poration":4533,"1585":4534,"1583":4535,"1610":4536,"thing":4537,"ãĤĦ":4538,"583":4539,"ctory":4540,"1807":4541,"aki":4542,"ARM":4543,"TeX":4544,"stern":4545,"thern":4546,"Communi":4547,"Systems":4548,"General":4549,"930":4550,"FIFA":4551,"JU":4552,"KE":4553,"OD":4554,"Sin":4555,"Town":4556,"Thun":4557,"Who":4558,"cla":4559,"cci":4560,"jor":4561,"stu":4562,"tina":4563,"mol":4564,"1623":4565,"sty":4566,"274":4567,"ros":4568,"size":4569,"cell":4570,"999":4571,"Anto":4572,"Post":4573,"pring":4574,"Cyclo":4575,"ï¹ĳ":4576,"H2O":4577,"EOS":4578,"FIN":4579,"Ima":4580,"IEC":4581,"Kin":4582,"Kid":4583,"esta":4584,"sm":4585,"1571":4586,"1784":4587,"stan":4588,"263":4589,"509":4590,"293":4591,"351":4592,"Chan":4593,"Deep":4594,"Archi":4595,"wiki":4596,"2200":4597,"428":4598,"AJ":4599,"GUN":4600,"Tar":4601,"pra":4602,"sk":4603,"xx":4604,"lig":4605,"nity":4606,"1620":4607,"1723":4608,"1786":4609,"stre":4610,"504":4611,"lton":4612,"ãĥ¥":4613,"353":4614,"395":4615,"beth":4616,"value":4617,"Solaris":4618,"private":4619,"Christian":4620,"Metro":4621,"Manage":4622,"DotA":4623,"419":4624,"432":4625,"A3":4626,"Ari":4627,"FN":4628,"GL":4629,"Ron":4630,"bes":4631,"cat":4632,"card":4633,"ctive":4634,"pes":4635,"Åį":4636,"ìķ":4637,"curi":4638,"1450":4639,"inte":4640,"gel":4641,"rat":4642,"ãģĻ":4643,"cos":4644,"elo":4645,"Mike":4646,"hai":4647,"Key":4648,"Market":4649,"Christ":4650,"Philip":4651,"Studios":4652,"Little":4653,"345":4654,"427":4655,"Band":4656,"Cine":4657,"FE":4658,"HIV":4659,"K6":4660,"Line":4661,"VPN":4662,"Äį":4663,"like":4664,"zilla":4665,"oro":4666,"1577":4667,"1618":4668,"1643":4669,"ellow":4670,"387":4671,"399":4672,"cts":4673,"Cast":4674,"ource":4675,"LOVE":4676,"Fleet":4677,"Technology":4678,"317":4679,"331":4680,"512":4681,"565":4682,"H1":4683,"MY":4684,"R2":4685,"S1":4686,"Soft":4687,"Tay":4688,"U18":4689,"USS":4690,"Ultra":4691,"bb":4692,"his":4693,"lu1":4694,"ud":4695,"Ñı":4696,"lina":4697,"1586":4698,"1777":4699,"1453":4700,"806":4701,"base":4702,"CDMA":4703,"Radeon":4704,"Union":4705,"ALL":4706,"Valve":4707,"Children":4708,"Secret":4709,"327":4710,"490":4711,"445":4712,"446":4713,"535":4714,"Alt":4715,"Aven":4716,"FI":4717,"Found":4718,"Land":4719,"Mid":4720,"M87":4721,"Sk":4722,"U23":4723,"WI":4724,"WOR":4725,"para":4726,"rstea":4727,"yer":4728,"Ãª":4729,"endo":4730,"live":4731,"1521":4732,"1765":4733,"1774":4734,"into":4735,"stal":4736,"sey":4737,"second":4738,"vey":4739,"499":4740,"Stage":4741,"Multi":4742,"ller":4743,"With":4744,"Junior":4745,"BMW":4746,"Fried":4747,"Centre":4748,"where":4749,"Academy":4750,"411":4751,"416":4752,"Crea":4753,"EMI":4754,"HTC":4755,"KB":4756,"Omega":4757,"Sche":4758,"Å«":4759,"eni":4760,"cht":4761,"cul":4762,"1616":4763,"sible":4764,"tai":4765,"707":4766,"ily":4767,"369":4768,"397":4769,"vers":4770,"Joe":4771,"States":4772,"Wire":4773,"Niko":4774,"GPU":4775,"bility":4776,"613":4777,"NR":4778,"Swe":4779,"TW":4780,"ZA":4781,"Î·":4782,"ÎĶ":4783,"ÐĲ":4784,"eno":4785,"mia":4786,"1564":4787,"1785":4788,"lot":4789,"368":4790,"398":4791,"pho":4792,"TVBS":4793,"Next":4794,"Sub":4795,"Wiki":4796,"Geo":4797,"MySQL":4798,"void":4799,"Origin":4800,"Amazon":4801,"3C":4802,"810":4803,"BT":4804,"Hon":4805,"Jr":4806,"Sti":4807,"Sau":4808,"Sara":4809,"house":4810,"m3":4811,"pto":4812,"ÐĶ":4813,"1662":4814,"include":4815,"266":4816,"291":4817,"sist":4818,"head":4819,"588":4820,"Demo":4821,"Distri":4822,"Base":4823,"MOD":4824,"chie":4825,"Adam":4826,"Corporation":4827,"M1A1":4828,"ference":4829,"mission":4830,"velopment":4831,"GUNDAM":4832,"316":4833,"537":4834,"621":4835,"742":4836,"CI":4837,"E48":4838,"Eric":4839,"Flow":4840,"Ir":4841,"Run":4842,"TI":4843,"cted":4844,"pter":4845,"Ã«":4846,"ÙĨ":4847,"point":4848,"1540":4849,"1574":4850,"1772":4851,"std":4852,"287":4853,"tee":4854,"605":4855,"454":4856,"log":4857,"388":4858,"343":4859,"Mau":4860,"888":4861,"Arc":4862,"Sea":4863,"Sund":4864,"Draw":4865,"Church":4866,"Alexander":4867,"Cross":4868,"Management":4869,"425":4870,"475":4871,"Del":4872,"Lady":4873,"ND":4874,"Other":4875,"SW":4876,"kang2":4877,"pal":4878,"were":4879,"anna":4880,"aon":4881,"1250":4882,"1619":4883,"1629":4884,"1683":4885,"read":4886,"292":4887,"matic":4888,"363":4889,"376":4890,"STS":4891,"552":4892,"686":4893,"ook":4894,"ign":4895,"ality":4896,"Augu":4897,"Scott":4898,"London":4899,"Dyna":4900,"Cyclol":4901,"627":4902,"BRT":4903,"FL":4904,"Kir":4905,"Lake":4906,"MX":4907,"Pon":4908,"Sal":4909,"Tony":4910,"ale":4911,"hard":4912,"tru":4913,"Ð±":4914,"tish":4915,"tial":4916,"ough":4917,"ï¼Ĥ":4918,"sit":4919,"488":4920,"Design":4921,"Neo":4922,"open":4923,"Andrew":4924,"Spot":4925,"ðĲŃ":4926,"449":4927,"5A":4928,"625":4929,"738":4930,"Der":4931,"Fron":4932,"HER":4933,"Of":4934,"PB":4935,"Round":4936,"VER":4937,"ace":4938,"hl":4939,"oni":4940,"plan":4941,"Ðļ":4942,"shared":4943,"1590":4944,"1579":4945,"1633":4946,"ãĥĬ":4947,"fox":4948,"ãĤ°":4949,"ida":4950,"1507":4951,"put":4952,"CH2":4953,"volution":4954,"mont":4955,"Animax":4956,"Earth":4957,"412":4958,"LF":4959,"LM":4960,"Smo":4961,"SON":4962,"V8":4963,"hang1":4964,"inv":4965,"nan":4966,"ong":4967,"plor":4968,"Ð¿":4969,"íķ":4970,"jia":4971,"mir":4972,"mix":4973,"body":4974,"nico":4975,"1631":4976,"1680":4977,"1773":4978,"alan":4979,"294":4980,"sive":4981,"407":4982,"mate":4983,"ãĤĮ":4984,"ette":4985,"asa":4986,"396":4987,"3300":4988,"Beta":4989,"1604":4990,"Family":4991,"Ander":4992,"Hami":4993,"Fort":4994,"Party":4995,"PGA":4996,"Journal":4997,"980":4998,"Are":4999,"Bad":5000,"C4":5001,"Dun":5002,"Fold":5003,"GC":5004,"LR":5005,"Nar":5006,"Spring":5007,"pl":5008,"Äĩ":5009,"ÉĻ":5010,"cum":5011,"1575":5012,"1697":5013,"1755":5014,"1492":5015,"805":5016,"3600":5017,"467":5018,"471":5019,"Def":5020,"Simon":5021,"mics":5022,"ï¹Ĳ":5023,"trol":5024,"SKE48":5025,"Summer":5026,"Thunder":5027,"0x":5028,"319":5029,"Epic":5030,"J2":5031,"XC":5032,"fb":5033,"pel":5034,"nio":5035,"1561":5036,"1589":5037,"1595":5038,"1781":5039,"1465":5040,"508":5041,"ãĥĨ":5042,"ãģ²":5043,"344":5044,"589":5045,"1603":5046,"1606":5047,"1607":5048,"ppy":5049,"CNBLUE":5050,"Ruby":5051,"Bio":5052,"Council":5053,"Drive":5054,"Football":5055,"415":5056,"855":5057,"940":5058,"970":5059,"Clar":5060,"Fal":5061,"Miss":5062,"Son":5063,"kan":5064,"uage":5065,"x86":5066,"zen":5067,"Ã¸":5068,"Ãħ":5069,"ÃŁ":5070,"à®":5071,"bio":5072,"1522":5073,"1526":5074,"1556":5075,"1613":5076,"1660":5077,"502":5078,"506":5079,"ãĥĢ":5080,"377":5081,"478":5082,"554":5083,"ample":5084,"Alli":5085,"mercial":5086,"TOUR":5087,"Williams":5088,"cations":5089,"Hyper":5090,"ìĿ´":5091,"âĺĨ":5092,"Angela":5093,"417":5094,"525":5095,"920":5096,"925":5097,"After":5098,"Flor":5099,"Hit":5100,"LU":5101,"Ora":5102,"Sar":5103,"Sca":5104,"URI":5105,"Will":5106,"ski":5107,"Ùħ":5108,"ents":5109,"cheng4":5110,"bout":5111,"1525":5112,"1591":5113,"1667":5114,"lai":5115,"408":5116,"485":5117,"tos":5118,"643":5119,"baby":5120,"phen":5121,"Mari":5122,"Sho":5123,"AMO":5124,"Back":5125,"Fiesta":5126,"Steve":5127,"Rue":5128,"Advance":5129,"DOHC":5130,"Christo":5131,"324":5132,"422":5133,"515":5134,"534":5135,"Kit":5136,"Lam":5137,"Light":5138,"Mes":5139,"QS":5140,"S4":5141,"Tel":5142,"UK":5143,"VT":5144,"Wel":5145,"bles":5146,"hen":5147,"mRNA":5148,"who":5149,"zzo":5150,"Äĵ":5151,"âĤ":5152,"lish":5153,"sure":5154,"1510":5155,"1638":5156,"only":5157,"1730":5158,"media":5159,"ãĥĳ":5160,"fol":5161,"342":5162,"aso":5163,"393":5164,"479":5165,"phic":5166,"Story":5167,"1508":5168,"Mozilla":5169,"Vita":5170,"Last":5171,"HKT48":5172,"Syn":5173,"Cul":5174,"lassic":5175,"Water":5176,"Bern":5177,"Walter":5178,"America":5179,"Surface":5180,"Foundation":5181,"3200":5182,"531":5183,"538":5184,"546":5185,"Cre":5186,"EG":5187,"GHz":5188,"Hal":5189,"ITV":5190,"Jer":5191,"Jane":5192,"Kat":5193,"MBA":5194,"NI":5195,"Sol":5196,"TG":5197,"VS":5198,"ite":5199,"iPS":5200,"kW":5201,"pper":5202,"vir":5203,"lion":5204,"2028":5205,"1543":5206,"1457":5207,"indu":5208,"come":5209,"366":5210,"381":5211,"392":5212,"Indu":5213,"Buil":5214,"place":5215,"History":5216,"1st":5217,"413":5218,"Edu":5219,"F3":5220,"Gun":5221,"GPS":5222,"LZ":5223,"Pod":5224,"Than":5225,"U20":5226,"Wnt":5227,"down":5228,"zan3":5229,"zar":5230,"ÙĬ":5231,"bour":5232,"orig":5233,"1565":5234,"1559":5235,"1587":5236,"1597":5237,"âĢł":5238,"1635":5239,"1688":5240,"1733":5241,"1782":5242,"also":5243,"tex":5244,"sio":5245,"606":5246,"ãģĳ":5247,"373":5248,"Albert":5249,"Arti":5250,"Tim":5251,"Times":5252,"Johnson":5253,"Final":5254,"4A":5255,"426":5256,"524":5257,"612":5258,"890":5259,"Ash":5260,"By":5261,"Bell":5262,"FS":5263,"Jim":5264,"Tol":5265,"UD":5266,"Za":5267,"bs":5268,"ov":5269,"score":5270,"Â£":5271,"ÐŁ":5272,"Ñĩ":5273,"chy":5274,"ort":5275,"1588":5276,"1598":5277,"507":5278,"thew":5279,"641":5280,"495":5281,"682":5282,"666":5283,"Rod":5284,"Rose":5285,"Austra":5286,"Common":5287,"worth":5288,"Mont":5289,"Brian":5290,"CLA":5291,"Place":5292,"Telegram":5293,"Pierre":5294,"332":5295,"4K":5296,"435":5297,"575":5298,"790":5299,"990":5300,"Ai":5301,"Bet":5302,"Mus":5303,"TMA":5304,"wen":5305,"yon":5306,"tie4":5307,"bow":5308,"1523":5309,"1535":5310,"1649":5311,"1661":5312,"1770":5313,"1499":5314,"stor":5315,"stry":5316,"ãĤ¬":5317,"ãĤı":5318,"361":5319,"466":5320,"391":5321,"....":5322,"551":5323,"vices":5324,"Med":5325,"Moder":5326,"1601":5327,"PCI":5328,"Hotel":5329,"eller":5330,"TOK":5331,"AcFun":5332,"Angel":5333,"Flash":5334,"craft":5335,"number":5336,"Wonder":5337,"528":5338,"5500":5339,"Bang":5340,"Hard":5341,"HTT":5342,"Sma":5343,"Shan":5344,"Var":5345,"ea":5346,"fis":5347,"ola":5348,"chan":5349,"mine":5350,"tica":5351,"shuan4":5352,"1511":5353,"1760":5354,"1769":5355,"358":5356,"tera":5357,"371":5358,"469":5359,"684":5360,"Rep":5361,"587":5362,"View":5363,"ppm":5364,"gio":5365,"Siri":5366,"SMAP":5367,"But":5368,"Explor":5369,"Edge":5370,"Soul":5371,"tribu":5372,"Golden":5373,"548":5374,"AW":5375,"Kri":5376,"Mir":5377,"MAC":5378,"air":5379,"even":5380,"huo":5381,"spi":5382,"vat":5383,"tian3":5384,"20000":5385,"1080":5386,"15000":5387,"1576":5388,"1594":5389,"1689":5390,"362":5391,"383":5392,"TCP":5393,"341":5394,"Mai":5395,"Roman":5396,"NASL":5397,"Program":5398,"Some":5399,"Bridge":5400,"active":5401,"scope":5402,"European":5403,"vernment":5404,"921":5405,"Apo":5406,"Bil":5407,"Dance":5408,"Kon":5409,"L1":5410,"MR":5411,"Mind":5412,"MMC":5413,"NEX":5414,"Pass":5415,"RB":5416,"TF":5417,"UFO":5418,"VF":5419,"bum":5420,"ey":5421,"gni":5422,"hong4":5423,"rang2":5424,"sal":5425,"sky":5426,"ðª":5427,"cheng3":5428,"left":5429,"1811":5430,"1517":5431,"1514":5432,"1552":5433,"âĢķ":5434,"1639":5435,"1684":5436,"then":5437,"sie":5438,"608":5439,"sell":5440,"master":5441,"349":5442,"644":5443,"557":5444,"ird":5445,"585":5446,"597":5447,"ardo":5448,"Development":5449,"Mod":5450,"Seven":5451,"Raw":5452,"osa":5453,"Week":5454,"thers":5455,"Just":5456,"Matthew":5457,"Port":5458,"Eliza":5459,"Gamer":5460,"template":5461,"curity":5462,"Taylor":5463,"348":5464,"436":5465,"549":5466,"AST":5467,"Brand":5468,"Dia":5469,"Ever":5470,"Fred":5471,"Mitch":5472,"Pres":5473,"RN":5474,"Ret":5475,"Tran":5476,"Villa":5477,"cs":5478,"cuo2":5479,"ext":5480,"rent":5481,"uts":5482,"yond":5483,"1578":5484,"1763":5485,"1350":5486,"iness":5487,"ï¼ĭ":5488,"403":5489,"cept":5490,"908":5491,"ession":5492,"6500":5493,"vie":5494,"case":5495,"1505":5496,"tour":5497,"777":5498,"Marie":5499,"anger":5500,"Test":5501,"fied":5502,"fication":5503,"Pack":5504,"prote":5505,"Qui":5506,"Santa":5507,"MG42":5508,"547":5509,"567":5510,"668":5511,"C5":5512,"FAN":5513,"Lor":5514,"NK":5515,"Oh":5516,"Rol":5517,"T4":5518,"YOSHI":5519,"cou":5520,"kes":5521,"olet":5522,"pus":5523,"sao4":5524,"vor":5525,"Â³":5526,"Ñĸ":5527,"mid":5528,"ering":5529,"1050":5530,"cula":5531,"1614":5532,"1720":5533,"374":5534,"CoV":5535,"494":5536,"verse":5537,"IDE":5538,"IPS":5539,"PSP":5540,"Hea":5541,"People":5542,"UNIX":5543,"Commit":5544,"âħł":5545,"Frame":5546,"Mountain":5547,"IPv4":5548,"Explorer":5549,"514":5550,"522":5551,"545":5552,"568":5553,"619":5554,"675":5555,"CSS":5556,"D1":5557,"DNS":5558,"EBU":5559,"KT":5560,"Kel":5561,"Shu":5562,"Sand":5563,"bn":5564,"bla":5565,"cin":5566,"ne2":5567,"ovan":5568,"yong2":5569,"lete":5570,"poly":5571,"1516":5572,"1513":5573,"1534":5574,"1547":5575,"1569":5576,"16V":5577,"1460":5578,"ronic":5579,"rate":5580,"cel":5581,"ãģ§":5582,"359":5583,"757":5584,"itz":5585,"642":5586,"581":5587,"ssa":5588,"aux":5589,"1502":5590,"ctions":5591,"à¸£":5592,"Work":5593,"SOHC":5594,"Spiri":5595,"Arthur":5596,"Queen":5597,"COLLAR":5598,"Sunday":5599,"418":5600,"414":5601,"424":5602,"433":5603,"544":5604,"Ale":5605,"CJ":5606,"DTS":5607,"F2":5608,"JO":5609,"Jus":5610,"MMO":5611,"PEN":5612,"Two":5613,"XIV":5614,"Yah":5615,"ami":5616,"bu1":5617,"ese":5618,"flo":5619,"kins":5620,"phe":5621,"will":5622,"zed":5623,"ÐĴ":5624,"1731":5625,"1768":5626,"1771":5627,"1490":5628,"stone":5629,"mel":5630,"409":5631,"lter":5632,"ãĥı":5633,"604":5634,"802":5635,"ãĤ±":5636,"ãĤĩ":5637,"ãĤį":5638,"389":5639,"7500":5640,"394":5641,"476":5642,"been":5643,"493":5644,"ERO":5645,"Solo":5646,"Box":5647,"Rift":5648,"GeForce":5649,"AGE":5650,"Prime":5651,"FOX":5652,"news":5653,"while":5654,"True":5655,"JTBC":5656,"âĩĶ":5657,"Cinema":5658,"431":5659,"539":5660,"745":5661,"ABS":5662,"Bit":5663,"Classic":5664,"EO":5665,"Hay":5666,"Jam":5667,"Ker":5668,"Lord":5669,"Mit":5670,"Sel":5671,"Tam":5672,"V6":5673,"hol":5674,"jq":5675,"Ä±":5676,"shed":5677,"shop":5678,"change":5679,"biao4":5680,"tice":5681,"1593":5682,"1724":5683,"1752":5684,"1469":5685,"1498":5686,"1370":5687,"sili":5688,"ãģĪ":5689,"382":5690,"755":5691,"464":5692,"444":5693,"571":5694,"1501":5695,"Never":5696,"nova":5697,"Name":5698,"PS3":5699,"Express":5700,"works":5701,"British":5702,"Dragon":5703,"tdown":5704,"Karl":5705,"AGASA":5706,"Kids":5707,"Friedrich":5708,"646":5709,"667":5710,"CIA":5711,"D2":5712,"Dro":5713,"Gin":5714,"IRT":5715,"M6":5716,"Num":5717,"Old":5718,"XF":5719,"ZJ":5720,"high":5721,"ppe":5722,"zza":5723,"dex":5724,"lius":5725,"ery":5726,"dies":5727,"tine":5728,"tify":5729,"1520":5730,"1560":5731,"1553":5732,"1651":5733,"lau":5734,"law":5735,"1740":5736,"aro":5737,"1493":5738,"602":5739,"sea":5740,"made":5741,"904":5742,"ism":5743,"496":5744,"498":5745,"443":5746,"nament":5747,"cio":5748,"user":5749,"Stor":5750,"Rail":5751,"Fami":5752,"MAN":5753,"Boys":5754,"Baby":5755,"produ":5756,"UNG":5757,"kov":5758,"AGUE":5759,"LEAGUE":5760,"Guard":5761,"Jeff":5762,"Donald":5763,"Firefox":5764,"à¥į":5765,"Athlon":5766,"Memori":5767,"origin":5768,"611":5769,"645":5770,"945":5771,"Bas":5772,"C1":5773,"Cr":5774,"Cen":5775,"CBA":5776,"DEC":5777,"Ea":5778,"GW":5779,"QU":5780,"TAM":5781,"U2":5782,"ei":5783,"two":5784,"Ã¥":5785,"áº":5786,"lim":5787,"bia":5788,"culus":5789,"1596":5790,"1632":5791,"1679":5792,"1718":5793,"1735":5794,"1745":5795,"1758":5796,"25G":5797,"ï¼Ŀ":5798,"ãĥ¡":5799,"907":5800,"ãĤģ":5801,"ãĤĨ":5802,"top":5803,"cid":5804,"584":5805,"sson":5806,"1506":5807,"Dear":5808,"985":5809,"Violet":5810,"Gaga":5811,"mental":5812,"Samu":5813,"1605":5814,"Side":5815,"Health":5816,"Fish":5817,"REAM":5818,"Wild":5819,"Central":5820,"Doug":5821,"Standard":5822,"Christopher":5823,"YOSHIKI":5824,"050":5825,"439":5826,"533":5827,"731":5828,"732":5829,"741":5830,"762":5831,"962":5832,"Astro":5833,"Again":5834,"Cree":5835,"Eye":5836,"H3":5837,"ICD":5838,"Kan":5839,"Kra":5840,"Kill":5841,"NU":5842,"Off":5843,"RCP":5844,"TL":5845,"Tit":5846,"Tod":5847,"UCLA":5848,"Wood":5849,"cine":5850,"np":5851,"ome":5852,"phan":5853,"Ïħ":5854,"âĻ":5855,"shan":5856,"dina":5857,"mou":5858,"1260":5859,"1566":5860,"1725":5861,"1748":5862,"sten":5863,"ãĥĦ":5864,"706":5865,"ãĤĪ":5866,"ãĤĴ":5867,"457":5868,"379":5869,"town":5870,"756":5871,"553":5872,"673":5873,"574":5874,"576":5875,"ault":5876,"Alan":5877,"Vision":5878,"osaurus":5879,"973":5880,"Capital":5881,"Anna":5882,"Greg":5883,"Jackson":5884,"AlphaFold":5885,"Operation":5886,"Fleetline":5887,"Avenue":5888,"Angelababy":5889,"516":5890,"617":5891,"639":5892,"722":5893,"735":5894,"Ak":5895,"Ana":5896,"Bun":5897,"DU":5898,"Econo":5899,"Gaon":5900,"HMS":5901,"Nan":5902,"P2":5903,"Tower":5904,"cter":5905,"hal":5906,"ners":5907,"sou4":5908,"say":5909,"tch":5910,"xa":5911,"á¸":5912,"lity":5913,"ergy":5914,"ween":5915,"2050":5916,"quid":5917,"1528":5918,"1572":5919,"1652":5920,"lade":5921,"1727":5922,"1761":5923,"1368":5924,"ãĥ¯":5925,"ãĥİ":5926,"356":5927,"704":5928,"482":5929,"655":5930,"Info":5931,"brary":5932,"ARE":5933,"gate":5934,"mpson":5935,"Bai":5936,"ends":5937,"BLE":5938,"Color":5939,"link":5940,"Harry":5941,"essor":5942,"English":5943,"Garden":5944,"Jones":5945,"Anderson":5946,"Elizabeth":5947,"Committee":5948,"010":5949,"447":5950,"863":5951,"926":5952,"961":5953,"Epi":5954,"Hero":5955,"LX":5956,"RATP":5957,"VP":5958,"WW":5959,"cta":5960,"city":5961,"ira":5962,"kit":5963,"defea":5964,"bird":5965,"lva":5966,"1531":5967,"1538":5968,"1647":5969,"1681":5970,"last":5971,"onal":5972,"ram":5973,"803":5974,"708":5975,"ãĤĥ":5976,"452":5977,"453":5978,"they":5979,"651":5980,"bed":5981,"Cook":5982,"586":5983,"572":5984,"Ros":5985,"Stro":5986,"1504":5987,"EDG":5988,"APG":5989,"Beyond":5990,"ICA":5991,"door":5992,"Basic":5993,"alis":5994,"1701":5995,"Stephen":5996,"Pie":5997,"Qua":5998,"word":5999,"Colspan":6000,"HOME":6001,"ights":6002,"Appli":6003,"prise":6004,"ccff":6005,"ccccff":6006,"Press":6007,"Disco":6008,"Twitch":6009,"Patrick":6010,"Women":6011,"FINAL":6012,"438":6013,"511":6014,"933":6015,"Apa":6016,"Bow":6017,"ILE":6018,"Jes":6019,"Rad":6020,"SNC":6021,"band":6022,"gas":6023,"hang4":6024,"pas":6025,"vity":6026,"Î©":6027,"Ð·":6028,"Øª":6029,"ìļ":6030,"dei3":6031,"xus":6032,"nical":6033,"1530":6034,"1537":6035,"lati":6036,"1736":6037,"ardi":6038,"ï¼Ĩ":6039,"603":6040,"808":6041,"461":6042,"468":6043,"681":6044,"Rea":6045,"Mega":6046,"Alf":6047,"fish":6048,"ONG":6049,"state":6050,"1709":6051,"Carl":6052,"Kevin":6053,"Southern":6054,"GameSpot":6055,"Abdu":6056,"JavaScript":6057,"speci":6058,"frame":6059,"Prince":6060,"DirectX":6061,"function":6062,"Modern":6063,"541":6064,"629":6065,"648":6066,"725":6067,"B3":6068,"CAR":6069,"Dor":6070,"ELE":6071,"Mbps":6072,"NN":6073,"NPC":6074,"P4":6075,"URE":6076,"ides":6077,"pet":6078,"Ñħ":6079,"ense":6080,"mie":6081,"dire":6082,"such":6083,"super":6084,"zing":6085,"cui3":6086,"1519":6087,"1529":6088,"1555":6089,"1687":6090,"1728":6091,"team":6092,"ãĥĿ":6093,"905":6094,"484":6095,"653":6096,"Mah":6097,"before":6098,"559":6099,"491":6100,"679":6101,"OSS":6102,"796":6103,"Saf":6104,"Fair":6105,"MAD":6106,"Silver":6107,"Concer":6108,"That":6109,"Paris":6110,"ckett":6111,"URL":6112,"AOA":6113,"Spotify":6114,"ctures":6115,"Planet":6116,"ASCII":6117,"OmegaT":6118,"Mitchell":6119,"Yahoo":6120,"3G":6121,"423":6122,"536":6123,"632":6124,"715":6125,"825":6126,"833":6127,"Ala":6128,"Area":6129,"CAL":6130,"D9":6131,"Eri":6132,"Fly":6133,"GRO":6134,"K2":6135,"Money":6136,"RDS":6137,"Vis":6138,"apo":6139,"ate":6140,"bh":6141,"huo1":6142,"sci":6143,"wart":6144,"eron":6145,"2035":6146,"lvin":6147,"1120":6148,"poli":6149,"1767":6150,"cking":6151,"esa":6152,"Maker":6153,"Chro":6154,"Chrome":6155,"473":6156,"492":6157,"661":6158,"Robin":6159,"auto":6160,"562":6161,"Liber":6162,"Dead":6163,"Debian":6164,"Leo":6165,"Via":6166,"See":6167,"Laur":6168,"bucket":6169,"host":6170,"Ann":6171,"Anth":6172,"Anne":6173,"PS2":6174,"Conne":6175,"Fede":6176,"Eddie":6177,"TRA":6178,"Countdown":6179,"Zico":6180,"signed":6181,"TOKYO":6182,"Violetta":6183,"339":6184,"429":6185,"532":6186,"665":6187,"775":6188,"769":6189,"Ax":6190,"D5":6191,"Dal":6192,"Hand":6193,"JI":6194,"Pur":6195,"R1":6196,"RF":6197,"S3":6198,"SNS":6199,"eg":6200,"flow":6201,"gia":6202,"mbo":6203,"wy":6204,"wis":6205,"Õ¡":6206,"mie1":6207,"1220":6208,"1545":6209,"1664":6210,"1659":6211,"1719":6212,"artic":6213,"1495":6214,"1496":6215,"1388":6216,"thor":6217,"702":6218,"703":6219,"Main":6220,"STATION":6221,"689":6222,"692":6223,"under":6224,"Mix":6225,"Neu":6226,"Jaco":6227,"oso":6228,"ental":6229,"mentary":6230,"ERS":6231,"haus":6232,"him":6233,"AND":6234,"Anti":6235,"graphy":6236,"gins":6237,"Steven":6238,"Phy":6239,"Juan":6240,"gene":6241,"IFF":6242,"Anime":6243,"Henri":6244,"Fox":6245,"Human":6246,"Framework":6247,"434":6248,"636":6249,"729":6250,"761":6251,"878":6252,"Aus":6253,"Action":6254,"Din":6255,"E1":6256,"E231":6257,"Got":6258,"GEN":6259,"Jay":6260,"L2":6261,"M5":6262,"PAGASA":6263,"RK":6264,"Too":6265,"ZERO":6266,"bble":6267,"das":6268,"eb":6269,"lf":6270,"oli":6271,"yd":6272,"Ðĳ":6273,"Ðľ":6274,"ÑĨ":6275,"ìĹ":6276,"leu":6277,"tier":6278,"1546":6279,"1549":6280,"1562":6281,"1670":6282,"1690":6283,"1654":6284,"1653":6285,"1694":6286,"1759":6287,"1466":6288,"ãĥ¢":6289,"807":6290,"709":6291,"ilo":6292,"458":6293,"love":6294,"463":6295,"555":6296,"596":6297,"662":6298,"578":6299,"Stri":6300,"Like":6301,"Michel":6302,"constru":6303,"Happy":6304,"Build":6305,"shion":6306,"Interactive":6307,"Johnny":6308,"della":6309,"flight":6310,"FAST":6311,"Kenne":6312,"Court":6313,"HTTP":6314,"Samuel":6315,"12000":6316,"527":6317,"638":6318,"669":6319,"712":6320,"711":6321,"BP":6322,"DREAM":6323,"Gon":6324,"IMAX":6325,"K11":6326,"Kha":6327,"LV":6328,"Lind":6329,"Nam":6330,"NCC":6331,"RSA":6332,"Sr":6333,"Say":6334,"Thi":6335,"Well":6336,"cz":6337,"cli":6338,"cam":6339,"ef":6340,"kon":6341,"lle":6342,"ption":6343,"san":6344,"ui":6345,"uld":6346,"Î¬":6347,"shell":6348,"xis":6349,"qiong1":6350,"lem":6351,"sung":6352,"niu1":6353,"qua":6354,"cular":6355,"1558":6356,"1581":6357,"1738":6358,"1474":6359,"1375":6360,"ink":6361,"met":6362,"Chart":6363,"STAT":6364,"477":6365,"68000":6366,"ATE":6367,"595":6368,"598":6369,"599":6370,"997":6371,"game":6372,"Jac":6373,"1608":6374,"Hein":6375,"dence":6376,"EPA":6377,"program":6378,"syn":6379,"EXILE":6380,"GPL":6381,"import":6382,"Voice":6383,"Stars":6384,"stars":6385,"Galant":6386,"NMB48":6387,"521":6388,"628":6389,"622":6390,"721":6391,"867":6392,"877":6393,"965":6394,"BY":6395,"Care":6396,"F5":6397,"Fon":6398,"Gy":6399,"Ita":6400,"Kur":6401,"OST":6402,"Pr":6403,"RX":6404,"Sus":6405,"SUP":6406,"Source":6407,"VEN":6408,"WP":6409,"ZZ":6410,"eng":6411,"ppi":6412,"pti":6413,"ska":6414,"yun":6415,"life":6416,"guang4":6417,"sum":6418,"1280":6419,"tura":6420,"âĢ³":6421,"1665":6422,"lad":6423,"1732":6424,"1744":6425,"1756":6426,"1489":6427,"1487":6428,"1340":6429,"thal":6430,"000rpm":6431,"ãĥĵ":6432,"elle":6433,"906":6434,"ãĤº":6435,"451":6436,"Chill":6437,"Stru":6438,"idae":6439,"Alfre":6440,"Shar":6441,"Security":6442,"Dave":6443,"wick":6444,"Player":6445,"Wilson":6446,"Feli":6447,"ghts":6448,"Person":6449,"Forever":6450,"Mount":6451,"SHOW":6452,"Business":6453,"2nd":6454,"519":6455,"517":6456,"624":6457,"623":6458,"798":6459,"835":6460,"876":6461,"938":6462,"954":6463,"951":6464,"Abu":6465,"B9":6466,"CAP":6467,"D3":6468,"Fw":6469,"Flo":6470,"GDDR":6471,"Hop":6472,"Hans":6473,"IMD":6474,"LCD":6475,"Ner":6476,"NIC":6477,"Qt":6478,"Tal":6479,"YF":6480,"Zen":6481,"fan":6482,"free":6483,"hat":6484,"ude":6485,"used":6486,"Ðĺ":6487,"ð¤":6488,"dea":6489,"chuai4":6490,"won":6491,"would":6492,"1524":6493,"1532":6494,"1584":6495,"1658":6496,"1657":6497,"1699":6498,"1762":6499,"1337":6500,"mum":6501,"allo":6502,"ï¼ŀ":6503,"ras":6504,"seed":6505,"tery":6506,"472":6507,"474":6508,"649":6509,"497":6510,"687":6511,"688":6512,"698":6513,"579":6514,"Rober":6515,"784":6516,"mani":6517,"Jos":6518,"Proto":6519,"html":6520,"gie":6521,"1406":6522,"DSP":6523,"Carlos":6524,"telli":6525,"à¤¾":6526,"year":6527,"SHIN":6528,"Holly":6529,"âĺħ":6530,"Public":6531,"scape":6532,"Touch":6533,"MONSTA":6534,"Computer":6535,"Smosh":6536,"Smack":6537,"Apache":6538,"054":6539,"616":6540,"719":6541,"865":6542,"946":6543,"988":6544,"DH":6545,"Dur":6546,"G1":6547,"H4":6548,"H10":6549,"Hat":6550,"Jet":6551,"Jona":6552,"Ryan":6553,"Sb":6554,"Take":6555,"Wit":6556,"WHO":6557,"XG":6558,"dle":6559,"gli":6560,"gna":6561,"luo1":6562,"wri":6563,"Ã¦":6564,"ÏĨ":6565,"enne":6566,"lib":6567,"micro":6568,"dig":6569,"wel":6570,"tie":6571,"dus":6572,"lvet":6573,"power":6574,"1668":6575,"1739":6576,"1764":6577,"format":6578,"mail":6579,"30000":6580,"787":6581,"Library":6582,"path":6583,"Socket":6584,"sock":6585,"PSV":6586,"1702":6587,"There":6588,"tten":6589,"LLVM":6590,"rowspan":6591,"ways":6592,"break":6593,"Sense":6594,"Fanta":6595,"SmackDown":6596,"052":6597,"421":6598,"437":6599,"614":6600,"626":6601,"637":6602,"815":6603,"816":6604,"975":6605,"Bran":6606,"Card":6607,"Echo":6608,"GF":6609,"Hos":6610,"If":6611,"Ice":6612,"JP":6613,"More":6614,"Wri":6615,"YA":6616,"ZO":6617,"after":6618,"cca":6619,"dan":6620,"done":6621,"gam":6622,"jan":6623,"nst":6624,"tar":6625,"uk":6626,"vas":6627,"Ðł":6628,"ë°":6629,"depen":6630,"most":6631,"0000":6632,"1275":6633,"1536":6634,"1675":6635,"ono":6636,"1464":6637,"rad":6638,"rai":6639,"see":6640,"major":6641,"455":6642,"lock":6643,"IND":6644,"nda":6645,"671":6646,"678":6647,"Sher":6648,"Tex":6649,"Fashion":6650,"1705":6651,"ario":6652,"Liner":6653,"TOWN":6654,"Giovan":6655,"Blood":6656,"Sheet":6657,"Intellig":6658,"KKBOX":6659,"Championship":6660,"Language":6661,"alysis":6662,"Professor":6663,"Christmas":6664,"Alfredo":6665,"542":6666,"634":6667,"821":6668,"912":6669,"CIT":6670,"Cfb":6671,"DX":6672,"HPV":6673,"MOS":6674,"MIT":6675,"NXT":6676,"SY":6677,"Ster":6678,"SIM":6679,"Tig":6680,"WH":6681,"Wer":6682,"Wing":6683,"Wolf":6684,"cl":6685,"crea":6686,"df":6687,"glo":6688,"group":6689,"ila":6690,"ima":6691,"kra":6692,"mme":6693,"wind":6694,"Ïĩ":6695,"âģ":6696,"ãħ":6697,"ìĦ":6698,"ches":6699,"miao1":6700,"bis":6701,"1563":6702,"1617":6703,"1663":6704,"1685":6705,"lak":6706,"1753":6707,"1477":6708,"1380":6709,"multi":6710,"stance":6711,"503":6712,"809":6713,"ãģİ":6714,"ãĤ½":6715,"483":6716,"486":6717,"asy":6718,"754":6719,"656":6720,"beat":6721,"beca":6722,"Theat":6723,"676":6724,"ATX":6725,"SAN":6726,"785":6727,"561":6728,"NAS":6729,"ARK":6730,"ARP":6731,"ACH":6732,"Second":6733,"IPTV":6734,"ANG":6735,"Board":6736,"Western":6737,"File":6738,"Field":6739,"odon":6740,"à¸²":6741,"anic":6742,"UNES":6743,"gency":6744,"Hip":6745,"Frances":6746,"Morning":6747,"Brad":6748,"RCA":6749,"Collection":6750,"SpaceX":6751,"lease":6752,"Melon":6753,"Circle":6754,"Mission":6755,"Creative":6756,"TWICE":6757,"Clark":6758,"Industri":6759,"SUPER":6760,"2DS":6761,"3M":6762,"518":6763,"526":6764,"566":6765,"716":6766,"714":6767,"765":6768,"764":6769,"744":6770,"826":6771,"847":6772,"918":6773,"936":6774,"Aer":6775,"Afri":6776,"Bau":6777,"Ball":6778,"BNO":6779,"EU":6780,"Eve":6781,"Fall":6782,"GI":6783,"Here":6784,"Ia":6785,"MRI":6786,"Pere":6787,"RP":6788,"Right":6789,"Rank":6790,"SUN":6791,"VIP":6792,"WTT":6793,"Zo":6794,"aw":6795,"hai1":6796,"mph":6797,"vari":6798,"ÅĤ":6799,"ÙĪ":6800,"âĬ":6801,"ë¦":6802,"ð¬":6803,"ngth":6804,"show":6805,"chin":6806,"ched":6807,"chus":6808,"1024":6809,"1669":6810,"1656":6811,"1672":6812,"1692":6813,"1754":6814,"1420":6815,"1480":6816,"teo":6817,"teen":6818,"their":6819,"atan":6820,"751":6821,"658":6822,"Maki":6823,"Chang":6824,"Inte":6825,"cap":6826,"594":6827,"Stone":6828,"Mei":6829,"986":6830,"791":6831,"Moore":6832,"Shine":6833,"AMC":6834,"AMP":6835,"ITA":6836,"Bug":6837,"there":6838,"1704":6839,"1708":6840,"Nick":6841,"AGP":6842,"Manu":6843,"MLB":6844,"Vogue":6845,"Future":6846,"DMR":6847,"logical":6848,"Archite":6849,"Front":6850,"713":6851,"727":6852,"748":6853,"768":6854,"875":6855,"915":6856,"929":6857,"947":6858,"BIG":6859,"CYP":6860,"EBS":6861,"From":6862,"ISA":6863,"Mol":6864,"NICO":6865,"OME":6866,"R3":6867,"Rh":6868,"Ring":6869,"UF":6870,"Ware":6871,"XIII":6872,"eu":6873,"fil":6874,"o1":6875,"xc":6876,"zan1":6877,"Ð¢":6878,"Ø³":6879,"ante":6880,"lik":6881,"bie":6882,"lev":6883,"pia":6884,"1075":6885,"002":6886,"004":6887,"1277":6888,"1279":6889,"1276":6890,"1111":6891,"1440":6892,"1488":6893,"1472":6894,"1371":6895,"story":6896,"ãĥ§":6897,"902":6898,"489":6899,"699":6900,"992":6901,"881":6902,"981":6903,"contribu":6904,"APM":6905,"1602":6906,"dom":6907,"okia":6908,"commercial":6909,"Interplay":6910,"cross":6911,"AIM":6912,"REAS":6913,"Wilhel":6914,"Audio":6915,"CRH5":6916,"Walker":6917,"bury":6918,"Version":6919,"Wong":6920,"Films":6921,"Jimmy":6922,"Sweet":6923,"District":6924,"Building":6925,"030":6926,"633":6927,"778":6928,"812":6929,"955":6930,"957":6931,"Azu":6932,"Ace":6933,"Asian":6934,"C3":6935,"C14":6936,"EY":6937,"Fol":6938,"G2":6939,"Ian":6940,"Jalan":6941,"LNG":6942,"LIF":6943,"MIC":6944,"NY":6945,"Nint":6946,"POS":6947,"Rand":6948,"RSS":6949,"Sil":6950,"SAT":6951,"Sid":6952,"Tha":6953,"TNT":6954,"VIS":6955,"Yi":6956,"cu2":6957,"cen1":6958,"d4":6959,"nar":6960,"ute":6961,"Ã½":6962,"Ø¨":6963,"Ø¯":6964,"lier":6965,"pis":6966,"bo3":6967,"bov":6968,"kuai3":6969,"1230":6970,"polit":6971,"tury":6972,"1527":6973,"1611":6974,"lat":6975,"array":6976,"rela":6977,"rix":6978,"rian":6979,"rice":6980,"road":6981,"ceae":6982,"ãģĽ":6983,"nest":6984,"487":6985,"vement":6986,"Information":6987,"558":6988,"685":6989,"vio":6990,"vich":6991,"cate":6992,"ped":6993,"577":6994,"781":6995,"pert":6996,"Allen":6997,"Album":6998,"792":6999,"794":7000,"CO2":7001,"Shop":7002,"ARC":7003,"Dick":7004,"Six":7005,"WiMAX":7006,"shire":7007,"Gemini":7008,"Energy":7009,"Stewart":7010,"1122":7011,"RES":7012,"ESPN":7013,"Wave":7014,"Trickett":7015,"minal":7016,"Where":7017,"Thompson":7018,"Portable":7019,"Velvet":7020,"elect":7021,"partment":7022,"small":7023,"ìķĦ":7024,"Thunderbird":7025,"Jonathan":7026,"ð¬ĵ":7027,"Nintendo":7028,"070":7029,"543":7030,"615":7031,"717":7032,"828":7033,"839":7034,"939":7035,"Cel":7036,"E2":7037,"Edi":7038,"FD":7039,"GG":7040,"Gr":7041,"Hil":7042,"Hart":7043,"Iso":7044,"KS":7045,"Kor":7046,"Len":7047,"MED":7048,"N1":7049,"Ol":7050,"RY":7051,"S7":7052,"Sport":7053,"TD":7054,"Tw":7055,"UFC":7056,"V1":7057,"V2":7058,"Yan":7059,"ating":7060,"about":7061,"dri":7062,"gran":7063,"ik":7064,"ior":7065,"zzi":7066,"ãİ":7067,"ê°":7068,"dine":7069,"lee":7070,"til":7071,"tiful":7072,"quali":7073,"1512":7074,"1541":7075,"1666":7076,"1721":7077,"1726":7078,"1737":7079,"1747":7080,"1743":7081,"1741":7082,"1430":7083,"25000":7084,"former":7085,"str":7086,"ely":7087,"neu":7088,"tero":7089,"481":7090,"ison":7091,"nation":7092,"based":7093,"674":7094,"vier":7095,"697":7096,"889":7097,"Liquid":7098,"Deuts":7099,"982":7100,"989":7101,"lyn":7102,"fini":7103,"ops":7104,"gion":7105,"PCR":7106,"à¸Ļ":7107,"AVE":7108,"ttle":7109,"NHS":7110,"Grace":7111,"Org":7112,"Gene":7113,"Match":7114,"Enterprise":7115,"hyth":7116,"Surf":7117,"entium":7118,"Productions":7119,"Stop":7120,"Pink":7121,"adox":7122,"Bruce":7123,"follow":7124,"Douglas":7125,"2TV":7126,"513":7127,"846":7128,"866":7129,"857":7130,"B12":7131,"Bin":7132,"Gau":7133,"Gary":7134,"HY":7135,"J1":7136,"JXG":7137,"Lun":7138,"Mg":7139,"Oculus":7140,"Pentium":7141,"Tr":7142,"Ts":7143,"WM":7144,"again":7145,"kHz":7146,"spo":7147,"zan2":7148,"mium":7149,"gus":7150,"zhua3":7151,"1217":7152,"1274":7153,"1515":7154,"1542":7155,"1712":7156,"1711":7157,"1715":7158,"archi":7159,"1435":7160,"1456":7161,"1328":7162,"1385":7163,"forman":7164,"medi":7165,"room":7166,"teau":7167,"ãģ¶":7168,"4800":7169,"iser":7170,"INT":7171,"3400":7172,"Rev":7173,"bach":7174,"pei":7175,"Roger":7176,"1509":7177,"Lie":7178,"List":7179,"Motor":7180,"Window":7181,"Staff":7182,"ISC":7183,"Lock":7184,"971":7185,"Page":7186,"ASH":7187,"kai":7188,"fect":7189,"Netscape":7190,"IGHT":7191,"gener":7192,"GP40":7193,"brid":7194,"bridge":7195,"hydro":7196,"facebook":7197,"Princess":7198,"Tennis":7199,"SHINee":7200,"055":7201,"2B":7202,"647":7203,"728":7204,"726":7205,"811":7206,"913":7207,"CZ":7208,"CCD":7209,"COS":7210,"DN":7211,"Every":7212,"Ing":7213,"KN":7214,"Snow":7215,"TAI":7216,"Wall":7217,"Zero":7218,"fig":7219,"tran":7220,"Î¯":7221,"Î¶":7222,"shark":7223,"lein":7224,"tit":7225,"chuai3":7226,"1150":7227,"orbit":7228,"1544":7229,"1757":7230,"1424":7231,"1470":7232,"1454":7233,"through":7234,"rier":7235,"2900":7236,"sil":7237,"seu":7238,"sets":7239,"may":7240,"909":7241,"459":7242,"3700":7243,"759":7244,"STER":7245,"Cong":7246,"IIT":7247,"cision":7248,"672":7249,"582":7250,"ATS":7251,"591":7252,"993":7253,"SAP":7254,"aun":7255,"Mars":7256,"Lost":7257,"Sie":7258,"Buzz":7259,"Tac":7260,"DSL":7261,"project":7262,"France":7263,"Universal":7264,"hammad":7265,"âħ¢":7266,"IMF":7267,"Drama":7268,"struct":7269,"England":7270,"CGTN":7271,"Louise":7272,"Mercu":7273,"addr":7274,"Antonio":7275,"CDMA2000":7276,"WORLD":7277,"Alliance":7278,"RepRap":7279,"Hollywood":7280,"823":7281,"829":7282,"927":7283,"935":7284,"A5":7285,"Ave":7286,"Bol":7287,"Ey":7288,"Emi":7289,"F7":7290,"Fl":7291,"Four":7292,"GIS":7293,"JC":7294,"Jason":7295,"Kam":7296,"Know":7297,"LMS":7298,"LPL":7299,"Mou":7300,"Oly":7301,"Sang":7302,"TB":7303,"USE":7304,"WD":7305,"exi":7306,"fit":7307,"fts":7308,"mand":7309,"mpic":7310,"prin":7311,"tent":7312,"wat":7313,"mical":7314,"big":7315,"ert":7316,"ledge":7317,"1235":7318,"1264":7319,"tup":7320,"order":7321,"1554":7322,"1722":7323,"1734":7324,"1766":7325,"1471":7326,"1330":7327,"1390":7328,"range":7329,"ãĥį":7330,"cei":7331,"609":7332,"them":7333,"652":7334,"659":7335,"Maxi":7336,"Make":7337,"Magn":7338,"Theo":7339,"Remix":7340,"695":7341,"573":7342,"783":7343,"berry":7344,"771":7345,"peria":7346,"Lei":7347,"Shot":7348,"Arena":7349,"Gate":7350,"Division":7351,"Unit":7352,"sters":7353,"âĪĪ":7354,"Adven":7355,"AAA":7356,"DOCO":7357,"Paradox":7358,"Reddit":7359,"Active":7360,"parti":7361,"Benja":7362,"Brook":7363,"Brothers":7364,"AlphaGo":7365,"sort":7366,"unique":7367,"Engineering":7368,"Rainbow":7369,"ECTION":7370,"tournament":7371,"Kelly":7372,"Creek":7373,"defeated":7374,"Concert":7375,"Makiyo":7376,"Surfshark":7377,"1180":7378,"3100":7379,"529":7380,"724":7381,"736":7382,"832":7383,"932":7384,"967":7385,"976":7386,"BEST":7387,"F6":7388,"FG":7389,"HM":7390,"HQ":7391,"KA":7392,"Kr":7393,"N3":7394,"NON":7395,"OL":7396,"Pia":7397,"PRE":7398,"RAD":7399,"SRAM":7400,"U16":7401,"VCD":7402,"XY":7403,"Xi":7404,"cour":7405,"feld":7406,"good":7407,"mary":7408,"nch":7409,"nel":7410,"ois":7411,"Â½":7412,"Ã£":7413,"ÏĮ":7414,"Ðŀ":7415,"×Ļ":7416,"ð¡":7417,"deri":7418,"gun":7419,"boot":7420,"sul":7421,"nig":7422,"1557":7423,"1551":7424,"1655":7425,"1678":7426,"1696":7427,"1746":7428,"1749":7429,"arma":7430,"1475":7431,"1441":7432,"1484":7433,"1399":7434,"rison":7435,"tail":7436,"752":7437,"being":7438,"Cooper":7439,"683":7440,"Rob":7441,"Str":7442,"Marsh":7443,"874":7444,"ACS":7445,"static":7446,"1402":7447,"graph":7448,"à¸¡":7449,"Peace":7450,"cyclo":7451,"Sym":7452,"CRH":7453,"BMT":7454,"Hulu":7455,"Allstars":7456,"Holdings":7457,"Spin":7458,"Broad":7459,"GMMTV":7460,"VOCAL":7461,"Valley":7462,"ordan":7463,"Palazzo":7464,"IPv6":7465,"Electronic":7466,"Premier":7467,"PENOME":7468,"Mercury":7469,"DOCOMO":7470,"PENOMECO":7471,"635":7472,"864":7473,"931":7474,"937":7475,"956":7476,"972":7477,"Ay":7478,"Dam":7479,"Edition":7480,"Fren":7481,"FIR":7482,"Git":7483,"Had":7484,"NL":7485,"NAT":7486,"PRI":7487,"Ted":7488,"Tang":7489,"Wid":7490,"cco":7491,"ist":7492,"kn":7493,"ket":7494,"tta":7495,"xon":7496,"Ãĸ":7497,"Åĭ":7498,"ÑĪ":7499,"ð°":7500,"sho":7501,"distri":7502,"bot":7503,"motion":7504,"nik":7505,"1020":7506,"1010":7507,"1266":7508,"1261":7509,"post":7510,"poem":7511,"1641":7512,"lav":7513,"1751":7514,"1346":7515,"mur":7516,"thod":7517,"three":7518,"oul":7519,"ãģŃ":7520,"nett":7521,"andra":7522,"cken":7523,"TCH":7524,"ols":7525,"cau":7526,"Ross":7527,"995":7528,"884":7529,"885":7530,"886":7531,"Dean":7532,"Mira":7533,"YouBi":7534,"Mode":7535,"ISP":7536,"ISS":7537,"Davis":7538,"Daily":7539,"meral":7540,"Paci":7541,"socket":7542,"Head":7543,"Control":7544,"Word":7545,"Caro":7546,"water":7547,"AGM":7548,"ences":7549,"rono":7550,"M1A2":7551,"Nord":7552,"CLOS":7553,"Access":7554,"CSI":7555,"County":7556,"YOU":7557,"Samsung":7558,"match":7559,"varia":7560,"Bird":7561,"longi":7562,"Watch":7563,"Beautiful":7564,"Miller":7565,"Original":7566,"August":7567,"username":7568,"Giovanni":7569,"Theatre":7570,"Wilhelm":7571,"Twins":7572,"Benjamin":7573,"060":7574,"564":7575,"664":7576,"817":7577,"831":7578,"853":7579,"919":7580,"958":7581,"942":7582,"959":7583,"979":7584,"Acc":7585,"Bak":7586,"FK":7587,"FNC":7588,"Gas":7589,"GUI":7590,"Hg":7591,"Isa":7592,"IATA":7593,"JB":7594,"Kore":7595,"Nel":7596,"PU":7597,"PX":7598,"Pit":7599,"PDF":7600,"QR":7601,"Schu":7602,"UCC":7603,"Winter":7604,"Zu":7605,"ctus":7606,"fran":7607,"gb":7608,"hd":7609,"hong3":7610,"hon":7611,"rong1":7612,"wal":7613,"wing":7614,"xe":7615,"Î£":7616,"ÐĿ":7617,"det":7618,"your":7619,"differ":7620,"1284":7621,"1291":7622,"2029":7623,"1673":7624,"1713":7625,"1425":7626,"1468":7627,"1382":7628,"member":7629,"site":7630,"lty":7631,"ãĥľ":7632,"804":7633,"ãģ©":7634,"cola":7635,"3800":7636,"657":7637,"Made":7638,"Inf":7639,"beta":7640,"nature":7641,"cious":7642,"virus":7643,"ATI":7644,"Delta":7645,"Department":7646,"CONC":7647,"AMX":7648,"ARI":7649,"873":7650,"1204":7651,"kee":7652,"ICC":7653,"Factory":7654,"mers":7655,"song":7656,"kie":7657,"à¸±":7658,"Nicho":7659,"Docu":7660,"Luis":7661,"family":7662,"CR400":7663,"Services":7664,"SPA":7665,"ories":7666,"Disc":7667,"Morgan":7668,"string":7669,"Whit":7670,"ensor":7671,"creen":7672,"Flag":7673,"Trust":7674,"final":7675,"Invest":7676,"Howard":7677,"presen":7678,"LAND":7679,"Smart":7680,"Education":7681,"essional":7682,"Federation":7683,"contributor":7684,"seudo":7685,"569":7686,"631":7687,"788":7688,"827":7689,"845":7690,"852":7691,"A330":7692,"B7":7693,"Bour":7694,"BMP":7695,"Cin":7696,"Call":7697,"Ess":7698,"Evan":7699,"G6":7700,"GIR":7701,"IQ":7702,"Lane":7703,"Nat":7704,"Nokia":7705,"RER":7706,"TTC":7707,"YS":7708,"af":7709,"bber":7710,"ela":7711,"ga3":7712,"hp":7713,"ibn":7714,"m2":7715,"nell":7716,"Äĥ":7717,"ìĭ":7718,"ngi":7719,"pie3":7720,"quet":7721,"1227":7722,"1283":7723,"1539":7724,"1695":7725,"1682":7726,"1710":7727,"aran":7728,"1481":7729,"1356":7730,"music":7731,"rue":7732,"stad":7733,"stamp":7734,"ril":7735,"sir":7736,"ãĥĻ":7737,"seo":7738,"amba":7739,"tau":7740,"ãģµ":7741,"elli":7742,"ando":7743,"Mate":7744,"Regu":7745,"441":7746,"677":7747,"691":7748,"urs":7749,"991":7750,"Style":7751,"March":7752,"797":7753,"897":7754,"dale":7755,"ACG":7756,"APS":7757,"Salv":7758,"Cali":7759,"Sim":7760,"bye":7761,"1405":7762,"SMO":7763,"denti":7764,"END":7765,"1707":7766,"Nike":7767,"1124":7768,"Kiwi":7769,"eric":7770,"MIR":7771,"chaft":7772,"lines":7773,"à¤°":7774,"EXO":7775,"HSCR":7776,"Associa":7777,"what":7778,"DKZ":7779,"Double":7780,"Songs":7781,"counter":7782,"Russell":7783,"Premium":7784,"WireGuard":7785,"Number":7786,"Discovery":7787,"Nicholas":7788,"020":7789,"3166":7790,"523":7791,"842":7792,"841":7793,"977":7794,"AY":7795,"Ap":7796,"A320":7797,"D4":7798,"EB":7799,"Gru":7800,"GRE":7801,"Ini":7802,"Jin":7803,"JDG":7804,"Kw":7805,"Kun":7806,"Lyn":7807,"Mn":7808,"Non":7809,"O305":7810,"P10":7811,"Pil":7812,"Ran":7813,"Ryo":7814,"RMS":7815,"Sat":7816,"TEP":7817,"VHS":7818,"WC":7819,"Wright":7820,"W3C":7821,"XM":7822,"aes":7823,"kha":7824,"Âµ":7825,"Ã°":7826,"Ã»":7827,"Ðĵ":7828,"ngo":7829,"anus":7830,"jito":7831,"human":7832,"dic":7833,"tium":7834,"mothy":7835,"nin":7836,"1066":7837,"1241":7838,"1295":7839,"1130":7840,"1433":7841,"1449":7842,"1376":7843,"thro":7844,"third":7845,"meo":7846,"simo":7847,"1001":7848,"tax":7849,"ãģ°":7850,"ãģĶ":7851,"ãĤ»":7852,"462":7853,"Maj":7854,"Cher":7855,"Chin":7856,"Change":7857,"Challe":7858,"India":7859,"bai":7860,"iga":7861,"696":7862,"SAE":7863,"auri":7864,"786":7865,"563":7866,"edom":7867,"983":7868,"Neil":7869,"nos":7870,"Array":7871,"PCS":7872,"fee":7873,"feat":7874,"1703":7875,"ECE":7876,"Hope":7877,"gov":7878,"arius":7879,"Pictures":7880,"CHO":7881,"Andy":7882,"ADA":7883,"Guy":7884,"Government":7885,"Hub":7886,"Prize":7887,"Cl2":7888,"timestamp":7889,"typedef":7890,"Esmeral":7891,"FreeBSD":7892,"Taipei":7893,"Single":7894,"Virtual":7895,"Talking":7896,"between":7897,"Stadiums":7898,"Advanced":7899,"Drop":7900,"Memorial":7901,"Anthony":7902,"Jacob":7903,"Esmeralda":7904,"4D":7905,"749":7906,"766":7907,"799":7908,"838":7909,"844":7910,"843":7911,"854":7912,"968":7913,"B5":7914,"B6":7915,"BW":7916,"Candy":7917,"Ev":7918,"FB":7919,"Fr":7920,"Faker":7921,"G3":7922,"IZ":7923,"Imp":7924,"Iron":7925,"Jordan":7926,"Kiss":7927,"Las":7928,"Low":7929,"Loo":7930,"OBE":7931,"Pl":7932,"Rd":7933,"RIA":7934,"Score":7935,"Tas":7936,"TREAS":7937,"WB":7938,"edu":7939,"fle":7940,"gos":7941,"gger":7942,"girl":7943,"hor":7944,"pay":7945,"series":7946,"¸©":7947,"ìĤ":7948,"zha3":7949,"dec":7950,"sult":7951,"moun":7952,"1290":7953,"1265":7954,"1262":7955,"1286":7956,"cut":7957,"oria":7958,"later":7959,"1729":7960,"1742":7961,"aria":7962,"1438":7963,"1459":7964,"iner":7965,"ï¼ĳ":7966,"ãĤ§":7967,"ãĤħ":7968,"height":7969,"Map":7970,"ReMi":7971,"uss":7972,"663":7973,"ido":7974,"Mee":7975,"Alber":7976,"Mojito":7977,"ARS":7978,"Sep":7979,"APEC":7980,"Soph":7981,"Diplo":7982,"Nature":7983,"Rick":7984,"Haw":7985,"Nik":7986,"DoReMi":7987,"ROR":7988,"Order":7989,"service":7990,"Fund":7991,"exe":7992,"lying":7993,"march":7994,"Country":7995,"âĹı":7996,"BLACK":7997,"Ship":7998,"friDay":7999,"Lisa":8000,"Johann":8001,"Hunter":8002,"double":8003,"Swing":8004,"true":8005,"Australian":8006,"ðª¸©":8007,"protein":8008,"SNCF":8009,"Jacques":8010,"B9TL":8011,"TREASURE":8012,"1190":8013,"2K":8014,"718":8015,"733":8016,"837":8017,"879":8018,"928":8019,"922":8020,"948":8021,"966":8022,"A9":8023,"AZ":8024,"Ada":8025,"Bos":8026,"Blen":8027,"C7":8028,"CBD":8029,"FOR":8030,"His":8031,"Hell":8032,"KL":8033,"Ky":8034,"LSA":8035,"Mun":8036,"Ness":8037,"NRA":8038,"OC":8039,"Ou":8040,"Oce":8041,"OBC":8042,"Pha":8043,"PET":8044,"PDP":8045,"RED":8046,"S22":8047,"Sant":8048,"Tin":8049,"Tes":8050,"UHF":8051,"Woo":8052,"ceng1":8053,"camp":8054,"fx":8055,"far":8056,"got":8057,"pass":8058,"âŁ":8059,"ìł":8060,"lid":8061,"lips":8062,"pid":8063,"title":8064,"boy":8065,"1040":8066,"1240":8067,"1270":8068,"pol":8069,"pointer":8070,"1599":8071,"1717":8072,"1447":8073,"1369":8074,"1373":8075,"mund":8076,"stand":8077,"ret":8078,"sity":8079,"ãĥļ":8080,"senger":8081,"amber":8082,"ãĤ¶":8083,"look":8084,"andro":8085,"753":8086,"Mak":8087,"ador":8088,"996":8089,"882":8090,"883":8091,"Living":8092,"Level":8093,"Lewis":8094,"BAS":8095,"BANG":8096,"conne":8097,"date":8098,"valu":8099,"fire":8100,"---":8101,"MAG":8102,"Wei":8103,"1403":8104,"Conference":8105,"ASP":8106,"MPEG":8107,"1121":8108,"Carol":8109,"lins":8110,"IFPI":8111,"Price":8112,"YOUNG":8113,"PEG":8114,"Craig":8115,"Farms":8116,"ICOCA":8117,"DAMP":8118,"green":8119,"Ventures":8120,"Urban":8121,"asonic":8122,"dependent":8123,"1x":8124,"1198":8125,"746":8126,"819":8127,"814":8128,"813":8129,"824":8130,"851":8131,"964":8132,"Ano":8133,"Cow":8134,"CERT":8135,"Ep":8136,"Emer":8137,"Hur":8138,"Kis":8139,"Khan":8140,"Llo":8141,"Mbit":8142,"Ped":8143,"Psy":8144,"Ral":8145,"Swi":8146,"Spy":8147,"VL":8148,"ave":8149,"ear":8150,"gge":8151,"gro":8152,"gers":8153,"ova":8154,"ware":8155,"áŀ":8156,"ê¸":8157,"ìŀ":8158,"dera":8159,"chang":8160,"wei":8161,"leb":8162,"zie":8163,"1219":8164,"1254":8165,"1676":8166,"lae":8167,"lah":8168,"1714":8169,"1429":8170,"1434":8171,"1444":8172,"1462":8173,"1451":8174,"1483":8175,"1364":8176,"1391":8177,"muse":8178,"sted":8179,"ï¼¡":8180,"tec":8181,"tek":8182,"sequ":8183,"tang":8184,"como":8185,"conv":8186,"lov":8187,"losing":8188,"Malay":8189,"SEN":8190,"Cole":8191,"IIc":8192,"Reich":8193,"Revolution":8194,"593":8195,"Deli":8196,"CDR":8197,"774":8198,"akh":8199,"892":8200,"895":8201,"Radi":8202,"ISIL":8203,"vation":8204,"Mul":8205,"1407":8206,"Wise":8207,"ody":8208,"à¸Ń":8209,"provi":8210,"waii":8211,"Extra":8212,"Quin":8213,"HiME":8214,"Franz":8215,"Mono":8216,"refer":8217,"Display":8218,"single":8219,"example":8220,"ãĦ§":8221,"ãĦĽ":8222,"DD53":8223,"structure":8224,"Helen":8225,"Plat":8226,"Karen":8227,"ministra":8228,"PHP":8229,"Object":8230,"Captain":8231,"mapframe":8232,"Getchu":8233,"Gordon":8234,"integer":8235,"NEXT":8236,"Spirit":8237,"Abdul":8238,"Azure":8239,"VOCALO":8240,"Pacific":8241,"3rd":8242,"862":8243,"Az":8244,"Ass":8245,"E5":8246,"Jar":8247,"JAK":8248,"K10":8249,"Kas":8250,"Los":8251,"Ny":8252,"N64":8253,"RD":8254,"SOS":8255,"T7":8256,"Twi":8257,"Us":8258,"VG":8259,"Wol":8260,"ater":8261,"cry":8262,"dol":8263,"fal":8264,"gor":8265,"jk":8266,"kir":8267,"osu":8268,"sv":8269,"miR":8270,"wed":8271,"dun3":8272,"sup":8273,"1086":8274,"1225":8275,"1224":8276,"1258":8277,"pot":8278,"polis":8279,"1686":8280,"1486":8281,"1497":8282,"1310":8283,"1329":8284,"ï¼Ĵ":8285,"tage":8286,"theory":8287,"hed":8288,"Colo":8289,"Cool":8290,"Republic":8291,"iron":8292,"people":8293,"ATH":8294,"693":8295,"phone":8296,"idos":8297,"Lip":8298,"Death":8299,"Mart":8300,"987":8301,"BAC":8302,"ARA":8303,"896":8304,"Nexus":8305,"Sean":8306,"Rab":8307,"Raja":8308,"Gaming":8309,"hicle":8310,"1108":8311,"comment":8312,"1404":8313,"Gem":8314,"Formation":8315,"Nova":8316,"âĪŀ":8317,"mys":8318,"Experi":8319,"AVC":8320,"Fea":8321,"DCT":8322,"sys":8323,"NOME":8324,"Dual":8325,"Prix":8326,"Berg":8327,"Chee":8328,"SDK":8329,"burn":8330,"clear":8331,"Matt":8332,"villa":8333,"Patri":8334,"Virgi":8335,"âī¥":8336,"Lisp":8337,"Opera":8338,"Francisco":8339,"Victoria":8340,"Photo":8341,"Professional":8342,"Castle":8343,"Scala":8344,"apore":8345,"Nerf":8346,"LIFE":8347,"French":8348,"VOCALOID":8349,"040":8350,"080":8351,"4x":8352,"6A":8353,"723":8354,"8500":8355,"858":8356,"859":8357,"914":8358,"934":8359,"944":8360,"969":8361,"953":8362,"Ade":8363,"Bli":8364,"BGM":8365,"Cau":8366,"Crown":8367,"EMD":8368,"Fit":8369,"FRAM":8370,"Gay":8371,"Glen":8372,"GNOME":8373,"Hou":8374,"Hau":8375,"HIG":8376,"Kak":8377,"N4":8378,"OG":8379,"OZ":8380,"Our":8381,"PST":8382,"PAL":8383,"RR":8384,"Rit":8385,"RGB":8386,"Scor":8387,"Tot":8388,"Ul":8389,"Yellow":8390,"Zh":8391,"Zn":8392,"ZICO":8393,"cir":8394,"fur":8395,"ging":8396,"ix":8397,"ile":8398,"nam":8399,"rence":8400,"uint":8401,"vet":8402,"Ã¯":8403,"ÅĽ":8404,"Ëĭ":8405,"á¼":8406,"xin":8407,"mili":8408,"error":8409,"dica":8410,"tinu":8411,"times":8412,"bol":8413,"003":8414,"1236":8415,"1278":8416,"1263":8417,"1140":8418,"âĢĮ":8419,"1716":8420,"1442":8421,"1478":8422,"1360":8423,"1365":8424,"1333":8425,"1341":8426,"start":8427,"stream":8428,"ould":8429,"local":8430,"Mala":8431,"STEM":8432,"Theod":8433,"adow":8434,"ATM":8435,"782":8436,"Lite":8437,"772":8438,"779":8439,"Shell":8440,"891":8441,"1208":8442,"Sex":8443,"Racing":8444,"ISIS":8445,"Social":8446,"Body":8447,"ott":8448,"Have":8449,"à¸ŀ":8450,"Pear":8451,"AIL":8452,"Carter":8453,"Kiii":8454,"Andrea":8455,"SO3":8456,"BORN":8457,"cans":8458,"TEEN":8459,"Add":8460,"Hug":8461,"Bili":8462,"Presi":8463,"PPP":8464,"Full":8465,"Blair":8466,"mbH":8467,"Days":8468,"Hybrid":8469,"OKA":8470,"BIOS":8471,"Atlan":8472,"Terry":8473,"Ernst":8474,"LGBTQ":8475,"German":8476,"Partners":8477,"Forest":8478,"Frollo":8479,"doubles":8480,"WISE":8481,"sistant":8482,"Billy":8483,"Retrie":8484,"Quick":8485,"Century":8486,"Alfred":8487,"Fantasy":8488,"012":8489,"1194":8490,"834":8491,"849":8492,"941":8493,"Bye":8494,"BWF":8495,"BOSS":8496,"CAT":8497,"DAI":8498,"FRE":8499,"FIA":8500,"GU":8501,"Hig":8502,"JJ":8503,"Look":8504,"Ore":8505,"Pb":8506,"Plu":8507,"Pun":8508,"Ras":8509,"Tak":8510,"Tensor":8511,"Uta":8512,"Wang":8513,"WAN":8514,"Xperia":8515,"ctu":8516,"fs":8517,"ica":8518,"nn":8519,"omp":8520,"ppa":8521,"ular":8522,"vant":8523,"ÅĦ":8524,"×ķ":8525,"Ø©":8526,"à¼":8527,"ëĭ":8528,"ìĺ":8529,"dez":8530,"zhun1":8531,"1030":8532,"1099":8533,"1221":8534,"1272":8535,"1533":8536,"1698":8537,"1671":8538,"lari":8539,"1413":8540,"1443":8541,"1358":8542,"1396":8543,"recor":8544,"cole":8545,"load":8546,"Come":8547,"998":8548,"789":8549,"CDK":8550,"773":8551,"Leg":8552,"Prote":8553,"1206":8554,"Razer":8555,"figu":8556,"Suite":8557,"Paper":8558,"chester":8559,"ships":8560,"ources":8561,"EPHE":8562,"HKIFF":8563,"MPI":8564,"arian":8565,"proper":8566,"anization":8567,"Commission":8568,"lard":8569,"Kota":8570,"SCI":8571,"Charlie":8572,"UTF":8573,"Singapore":8574,"Minute":8575,"litary":8576,"Calli":8577,"operator":8578,"Bobby":8579,"ðĲ°":8580,"âī¤":8581,"Sorana":8582,"Stanley":8583,"event":8584,"position":8585,"Dynamics":8586,"íķľ":8587,"AMOLED":8588,"UNESCO":8589,"OBCs":8590,"1189":8591,"818":8592,"848":8593,"869":8594,"899":8595,"916":8596,"917":8597,"949":8598,"Bis":8599,"Cs":8600,"Cream":8601,"D7":8602,"Dcard":8603,"Ec":8604,"Fellow":8605,"GSM":8606,"GmbH":8607,"Ivan":8608,"Lol":8609,"M24":8610,"Mine":8611,"NEC":8612,"RM":8613,"Ry":8614,"RID":8615,"Sna":8616,"Swan":8617,"Screen":8618,"TER":8619,"VAL":8620,"Wu":8621,"X2":8622,"ash":8623,"adi":8624,"ala":8625,"bad":8626,"bell":8627,"care":8628,"ech":8629,"gne":8630,"gil":8631,"ining":8632,"jour":8633,"pak":8634,"rt":8635,"sar":8636,"Â¥":8637,"ÅŁ":8638,"ÛĮ":8639,"à¨":8640,"ê¹":8641,"ëĤ":8642,"ëŀ":8643,"ì§":8644,"dei":8645,"chan1":8646,"licon":8647,"wee":8648,"lear":8649,"length":8650,"1060":8651,"1211":8652,"1234":8653,"1246":8654,"1110":8655,"1147":8656,"orus":8657,"1548":8658,"1458":8659,"ines":8660,"inus":8661,"stel":8662,"store":8663,"sii":8664,"rang":8665,"semi":8666,"tab":8667,"ãĤ¡":8668,"hes":8669,"Chat":8670,"500rpm":8671,"SEM":8672,"Review":8673,"cipal":8674,"vic":8675,"vid":8676,"Roth":8677,"994":8678,"887":8679,"Stray":8680,"1503":8681,"793":8682,"Movie":8683,"BSI":8684,"control":8685,"Arn":8686,"Rai":8687,"finity":8688,"ED79":8689,"----":8690,"ospace":8691,"ICS":8692,"Logic":8693,"IDS":8694,"Nation":8695,"bug":8696,"station":8697,"sole":8698,"ITZ":8699,"odd":8700,"à¸´":8701,"ROCK":8702,"1123":8703,"Schi":8704,"myTV":8705,"Lud":8706,"Lucas":8707,"Andr":8708,"MOON":8709,"CR300":8710,"inae":8711,"BDSM":8712,"large":8713,"Keith":8714,"PPTP":8715,"Graphic":8716,"1192":8717,"Boom":8718,"Panasonic":8719,"Fern":8720,"Mrs":8721,"NEWS":8722,"Empi":8723,"sorted":8724,"Hills":8725,"logies":8726,"Clear":8727,"shington":8728,"Machine":8729,"Amiga":8730,"Culture":8731,"Diamond":8732,"Application":8733,"ð¬ĵĭ":8734,"ãİ¡":8735,"formance":8736,"Retrieved":8737,"868":8738,"974":8739,"Ae":8740,"Adi":8741,"Aff":8742,"Astra":8743,"BV":8744,"Bb":8745,"Blan":8746,"Baker":8747,"C96":8748,"E9":8749,"Flu":8750,"Flip":8751,"G4":8752,"G9":8753,"KF":8754,"Kara":8755,"KEN":8756,"LMP":8757,"PER":8758,"RG":8759,"Spa":8760,"VEn":8761,"VIE":8762,"Yang":8763,"ZE":8764,"Zone":8765,"aa":8766,"ais":8767,"acid":8768,"dal":8769,"eV":8770,"four":8771,"fying":8772,"gri":8773,"gang":8774,"jn":8775,"kt":8776,"lk":8777,"lao":8778,"lou3":8779,"nh":8780,"vol":8781,"âĴ":8782,"erra":8783,"lei":8784,"lection":8785,"tii":8786,"zhuai1":8787,"1027":8788,"1070":8789,"1049":8790,"mento":8791,"quar":8792,"006":8793,"1232":8794,"lun1":8795,"1674":8796,"laus":8797,"lamb":8798,"1448":8799,"1439":8800,"1467":8801,"1345":8802,"1386":8803,"1392":8804,"1393":8805,"ries":8806,"ï¼ľ":8807,"tember":8808,"ãģļ":8809,"cover":8810,"thema":8811,"654":8812,"Magic":8813,"Chen":8814,"Chie":8815,"Reg":8816,"nah":8817,"String":8818,"LiTV":8819,"Devil":8820,"Lega":8821,"Vilade":8822,"AMR":8823,"Arch":8824,"Army":8825,"ISH":8826,"ISM":8827,"Lab":8828,"Sue":8829,"Dale":8830,"hibi":8831,"IPA":8832,"IPO":8833,"Silicon":8834,"kien":8835,"PS4":8836,"à¸ª":8837,"ALA":8838,"MP3":8839,"USH":8840,"Three":8841,"Exchange":8842,"MIL":8843,"TEE":8844,"BMG":8845,"DR2700":8846,"dyna":8847,"Washington":8848,"10646":8849,"Harold":8850,"Morris":8851,"TSB":8852,"Holland":8853,"LCK":8854,"UCI":8855,"LPDDR":8856,"LTTE":8857,"LSST":8858,"born":8859,"Turbo":8860,"Grant":8861,"schema":8862,"street":8863,"Scheme":8864,"reads":8865,"Village":8866,"mouth":8867,"Infocom":8868,"ELEVEn":8869,"article":8870,"GDDR5":8871,"F7F":8872,"NONO":8873,"Strv":8874,"Kakao":8875,"Viladecans":8876,"4200":8877,"963":8878,"ATC":8879,"Avi":8880,"Bam":8881,"CAM":8882,"Cana":8883,"Cell":8884,"CBE":8885,"Dau":8886,"Fay":8887,"H6":8888,"H9":8889,"JK":8890,"JIS":8891,"KV":8892,"Kal":8893,"Kre":8894,"Kris":8895,"Klein":8896,"Ling":8897,"M60":8898,"Mall":8899,"NTT":8900,"ORI":8901,"Own":8902,"P5":8903,"R9":8904,"VY":8905,"VCR":8906,"cles":8907,"cator":8908,"fly":8909,"hand":8910,"hman":8911,"ita":8912,"obov":8913,"sc":8914,"vre":8915,"xml":8916,"zone":8917,"zoom":8918,"ÄĽ":8919,"ëĿ":8920,"ants":8921,"ency":8922,"bil":8923,"did":8924,"1012":8925,"1017":8926,"1063":8927,"005":8928,"1214":8929,"1229":8930,"1268":8931,"1242":8932,"1253":8933,"1271":8934,"1160":8935,"1135":8936,"1677":8937,"1691":8938,"1419":8939,"1324":8940,"ãĥ´":8941,"ãĥĴ":8942,"cep":8943,"tale":8944,"foot":8945,"cogni":8946,"male":8947,"make":8948,"3900":8949,"Major":8950,"SET":8951,"pex":8952,"Margar":8953,"angle":8954,"deral":8955,"ako":8956,"Shang":8957,"Shah":8958,"Jois":8959,"871":8960,"872":8961,"vage":8962,"EDA":8963,"Beach":8964,"Natural":8965,"ANSI":8966,"home":8967,"solo":8968,"ITU":8969,"1307":8970,"1409":8971,"therine":8972,"à¸ģ":8973,"Doctor":8974,"pul":8975,"Julia":8976,"Quar":8977,"Quali":8978,"Kai":8979,"Kate":8980,"Andre":8981,"MOMO":8982,"Feed":8983,"DR2800":8984,"CEMS":8985,"Norman":8986,"Canada":8987,"Singh":8988,"llion":8989,"Scot":8990,"DirectShow":8991,"cense":8992,"Obser":8993,"marker":8994,"Raymond":8995,"Certi":8996,"Break":8997,"Medical":8998,"Oliver":8999,"Vincent":9000,"JUMP":9001,"Bernard":9002,"Radar":9003,"Safari":9004,"Tiger":9005,"ë¦¬":9006,"following":9007,"Olympic":9008,"YouBike":9009,"HIGH":9010,"à¼ĭ":9011,"2n":9012,"734":9013,"9K":9014,"943":9015,"952":9016,"A7":9017,"Aar":9018,"Age":9019,"Ast":9020,"Apri":9021,"A380":9022,"Bf":9023,"Brow":9024,"C9":9025,"D6":9026,"Dir":9027,"Dass":9028,"EI":9029,"Eidos":9030,"Gall":9031,"Ground":9032,"JS":9033,"JY":9034,"Jun":9035,"KM":9036,"M9":9037,"M10":9038,"NFC":9039,"Ox":9040,"Otto":9041,"SBL":9042,"Spen":9043,"Vla":9044,"XI":9045,"YE":9046,"Yes":9047,"bg":9048,"fl":9049,"fron":9050,"ian":9051,"pad":9052,"plex":9053,"thu":9054,"wig":9055,"wald":9056,"x2":9057,"zel":9058,"Åł":9059,"ÎĽ":9060,"êµ":9061,"ë¹":9062,"Ĭ¸":9063,"ania":9064,"chs":9065,"child":9066,"yoga":9067,"lect":9068,"piao3":9069,"tius":9070,"both":9071,"dule":9072,"mode":9073,"kun":9074,"1059":9075,"1056":9076,"1054":9077,"008":9078,"1259":9079,"1252":9080,"1297":9081,"1282":9082,"1415":9083,"1426":9084,"1476":9085,"1349":9086,"1363":9087,"1397":9088,"mea":9089,"root":9090,"sik":9091,"rap":9092,"cea":9093,"neo":9094,"ats":9095,"ckers":9096,"tol":9097,"Math":9098,"Mail":9099,"Macro":9100,"Indie":9101,"Indian":9102,"bear":9103,"Comm":9104,"bang":9105,"version":9106,"694":9107,"Marcus":9108,"ï½£":9109,"AMA":9110,"AMG":9111,"owski":9112,"Teach":9113,"Temple":9114,"Gabri":9115,"gation":9116,"ICT":9117,"Capi":9118,"Cathe":9119,"ANN":9120,"Muni":9121,"Anni":9122,"1308":9123,"Five":9124,"thera":9125,"Table":9126,"gina":9127,"Intermarch":9128,"Dog":9129,"Nov":9130,"CNJ":9131,"Example":9132,"Juli":9133,"Quan":9134,"Quad":9135,"Kath":9136,"erie":9137,"MIX":9138,"Gusta":9139,"Feel":9140,"vely":9141,"Harris":9142,"240ZJ":9143,"Give":9144,"EEZ":9145,"minor":9146,"SHIP":9147,"Genie":9148,"stock":9149,"acti":9150,"ffici":9151,"Speed":9152,"Kingdom":9153,"Friends":9154,"Director":9155,"strong":9156,"IOC":9157,"complex":9158,"drop":9159,"á¹£":9160,"plot":9161,"count":9162,"Scrum":9163,"livedoor":9164,"Schema":9165,"TGV":9166,"Tolkien":9167,"Heaven":9168,"Chromium":9169,"ebly":9170,"Kenneth":9171,"Roberts":9172,"Hospital":9173,"politan":9174,"relative":9175,"Virginia":9176,"Legacy":9177,"1195":9178,"898":9179,"B4":9180,"CAD":9181,"CBN":9182,"Flying":9183,"JD":9184,"Kol":9185,"KTV":9186,"KSK":9187,"Ms":9188,"M12":9189,"MET":9190,"Nf":9191,"Ng":9192,"Pao":9193,"Rant":9194,"Room":9195,"Rhyth":9196,"UG":9197,"UH":9198,"U15":9199,"Vil":9200,"Vas":9201,"WDF":9202,"ava":9203,"bara":9204,"dos":9205,"eh":9206,"gr":9207,"git":9208,"kle":9209,"oid":9210,"pf":9211,"quo":9212,"rs":9213,"sat":9214,"wang":9215,"ÂŃ":9216,"ðł":9217,"jin":9218,"dell":9219,"lini":9220,"lica":9221,"bino":9222,"pio":9223,"pine":9224,"tiger":9225,"bora":9226,"zio":9227,"nian1":9228,"1019":9229,"1011":9230,"1015":9231,"1032":9232,"1047":9233,"1212":9234,"cure":9235,"lace":9236,"1412":9237,"1314":9238,"1313":9239,"1394":9240,"stris":9241,"reg":9242,"rel":9243,"rett":9244,"sim":9245,"sec":9246,"1006":9247,"ãģ³":9248,"ãģ»":9249,"nei":9250,"ãĤĢ":9251,"atten":9252,"cki":9253,"4600":9254,"STD":9255,"Indi":9256,"Conv":9257,"Cover":9258,"cian":9259,"Rocket":9260,"pera":9261,"Marc":9262,"9800":9263,"Victory":9264,"manu":9265,"rance":9266,"Dai":9267,"Fate":9268,"Anton":9269,"Weebly":9270,"wich":9271,"area":9272,"à¸Ķ":9273,"Nice":9274,"Thor":9275,"Thorn":9276,"Domini":9277,"Forth":9278,"1127":9279,"AKE":9280,"proto":9281,"Lucky":9282,"Lumia":9283,"SO2":9284,"lands":9285,"TE1":9286,"TEAM":9287,"Monte":9288,"NO2":9289,"years":9290,"GameCube":9291,"ILD":9292,"280ZJ":9293,"Bracket":9294,"Cyber":9295,"AFI":9296,"1191":9297,"Porta":9298,"Plaza":9299,"lipse":9300,"ential":9301,"Television":9302,"Crazy":9303,"Farm":9304,"Danny":9305,"Frede":9306,"Generation":9307,"à¹Ģ":9308,"market":9309,"Histori":9310,"VVVF":9311,"terial":9312,"modore":9313,"Illu":9314,"Sarah":9315,"Orange":9316,"16V280ZJ":9317,"float":9318,"Fisher":9319,"Today":9320,"Strong":9321,"latitude":9322,"Heinrich":9323,"IMDb":9324,"ê°Ģ":9325,"known":9326,"longitude":9327,"TTCN":9328,"Ryona":9329,"Blender":9330,"Margaret":9331,"+.":9332,"7100":9333,"822":9334,"836":9335,"861":9336,"924":9337,"923":9338,"AIC":9339,"Aero":9340,"Agency":9341,"B8":9342,"Evolution":9343,"FPS":9344,"HH":9345,"Hoo":9346,"Jere":9347,"K3":9348,"KING":9349,"LW":9350,"M1895":9351,"Pel":9352,"Pak":9353,"Pris":9354,"Pari":9355,"PART":9356,"Roo":9357,"Sd":9358,"Smal":9359,"Vu":9360,"Vul":9361,"Ville":9362,"Wen":9363,"Wes":9364,"Wings":9365,"X1":9366,"XS":9367,"ZFC":9368,"ated":9369,"aign":9370,"bl":9371,"bson":9372,"brea":9373,"call":9374,"dar":9375,"ees":9376,"found":9377,"g4":9378,"hara":9379,"jp":9380,"jar":9381,"kV":9382,"kas":9383,"long4":9384,"pta":9385,"t2":9386,"ws":9387,"x3":9388,"Ïį":9389,"Ð£":9390,"à§":9391,"à¯":9392,"ð£":9393,"design":9394,"delta":9395,"chara":9396,"chani":9397,"bir":9398,"2031":9399,"tig":9400,"during":9401,"moni":9402,"mote":9403,"zin":9404,"zip":9405,"1018":9406,"1016":9407,"1035":9408,"1072":9409,"1244":9410,"1299":9411,"lute":9412,"1170":9413,"1139":9414,"pora":9415,"aris":9416,"1421":9417,"1455":9418,"1461":9419,"1485":9420,"13000":9421,"1355":9422,"1343":9423,"1387":9424,"1372":9425,"rung":9426,"meta":9427,"methy":9428,"rid":9429,"rish":9430,"sica":9431,"cepha":9432,"foo":9433,"ãģĿ":9434,"else":9435,"offi":9436,"att":9437,"cke":9438,"asons":9439,"Chamber":9440,"STs":9441,"SEP":9442,"They":9443,"4400":9444,"4217":9445,"592":9446,"auf":9447,"eds":9448,"Lec":9449,"Lear":9450,"AME":9451,"Proper":9452,"ACP":9453,"ICAO":9454,"ICHI":9455,"Soda":9456,"Dawn":9457,"Calvin":9458,"compon":9459,"1304":9460,"PSY":9461,"1408":9462,"Wide":9463,"Bul":9464,"sions":9465,"ETS":9466,"ENU":9467,"Taste":9468,"government":9469,"Dong":9470,"Forum":9471,"1125":9472,"wave":9473,"Kaiser":9474,"Compa":9475,"Commodore":9476,"Adrian":9477,"Stuart":9478,"à¤®":9479,"Duke":9480,"EXIT":9481,"micron":9482,"MDT":9483,"Only":9484,"URN":9485,"Asse":9486,"Abra":9487,"Friend":9488,"Produce":9489,"nowledge":9490,"EMU":9491,"GMM":9492,"Claude":9493,"when":9494,"Freedom":9495,"Horse":9496,"finals":9497,"PIECE":9498,"Technologies":9499,"Sciences":9500,"Pascal":9501,"Haml":9502,"Rapper":9503,"object":9504,"Dolby":9505,"styles":9506,"Kirk":9507,"Storm":9508,"UCLASS":9509,"GROUP":9510,"Austin":9511,"Protocol":9512,"FashionTV":9513,"Aerospace":9514,"BIGBANG":9515,"Dropbox":9516,"September":9517,"Ralph":9518,"Bilibili":9519,"ëĿ¼":9520,"016":9521,"013":9522,"090":9523,"067":9524,"11000":9525,"4B":9526,"9F":9527,"Abi":9528,"Agu":9529,"Alv":9530,"AFC":9531,"Bes":9532,"Cm":9533,"Fur":9534,"Fine":9535,"GTE":9536,"Ghost":9537,"HSD":9538,"Joo":9539,"Kum":9540,"Kang":9541,"Kno":9542,"Kali":9543,"KAD":9544,"KDE":9545,"LI":9546,"Lay":9547,"Lid":9548,"MST":9549,"Nut":9550,"NTSB":9551,"OE":9552,"P1":9553,"PBS":9554,"PIE":9555,"Rhe":9556,"RET":9557,"TARD":9558,"Ut":9559,"Vor":9560,"Vali":9561,"Wan":9562,"WRC":9563,"Wanna":9564,"YES":9565,"aster":9566,"bru":9567,"c4":9568,"cchi":9569,"eli":9570,"each":9571,"effe":9572,"fon":9573,"gori":9574,"how":9575,"js":9576,"nas":9577,"xys":9578,"zuo":9579,"Åļ":9580,"Ëĩ":9581,"ÎŃ":9582,"ÙĤ":9583,"â¼":9584,"ðĴ":9585,"sher":9586,"chro":9587,"2040":9588,"2047":9589,"tif":9590,"sun":9591,"mong":9592,"move":9593,"mono":9594,"1046":9595,"mentation":9596,"009":9597,"1218":9598,"1215":9599,"1247":9600,"1243":9601,"1256":9602,"lun":9603,"lung":9604,"1138":9605,"1137":9606,"1168":9607,"ordina":9608,"1693":9609,"1414":9610,"1427":9611,"1432":9612,"1491":9613,"1378":9614,"1351":9615,"gee":9616,"fornia":9617,"alpha":9618,"reti":9619,"recei":9620,"2758":9621,"rio":9622,"ï¼ķ":9623,"roy":9624,"rock":9625,"ãĥĺ":9626,"aman":9627,"1002":9628,"mato":9629,"nez":9630,"tern":9631,"atta":9632,"Magi":9633,"Instru":9634,"bei":9635,"SEC":9636,"Robo":9637,"Rosa":9638,"SAS":9639,"Miami":9640,"Marco":9641,"Marine":9642,"984":9643,"ï½¢":9644,"Youth":9645,"Shin":9646,"1207":9647,"Ark":9648,"Arm":9649,"file":9650,"Tuber":9651,"Savage":9652,"Local":9653,"Faith":9654,"Navi":9655,"bution":9656,"IPCC":9657,"Ansible":9658,"1106":9659,"sage":9660,"1309":9661,"1706":9662,"à¸§":9663,"à¸µ":9664,"ALX":9665,"Hoy":9666,"âĨĲ":9667,"1129":9668,"Exe":9669,"Exten":9670,"SO4":9671,"BOT":9672,"mons":9673,"1185":9674,"Cortex":9675,"IFT":9676,"à¤¿":9677,"NOW":9678,"LLC":9679,"Northern":9680,"Precision":9681,"tric":9682,"Superia":9683,"Speci":9684,"hypo":9685,"Alive":9686,"XXX":9687,"ð«ļ":9688,"Japanese":9689,"SUV":9690,"Boyz":9691,"SNK":9692,"Zip":9693,"Masters":9694,"âĳł":9695,"Yoshi":9696,"Championships":9697,"Palmer":9698,"Spark":9699,"Niconico":9700,"Cosplay":9701,"Larry":9702,"Democra":9703,"Artists":9704,"Quasimo":9705,"ìļ°":9706,"tellite":9707,"Intelligent":9708,"Investment":9709,"MIRROR":9710,"ìĤ¬":9711,"OKAWA":9712,"bgcolor":9713,"Frederick":9714,"TARDIS":9715,"Quasimodo":9716,"021":9717,"065":9718,"1N":9719,"1202":9720,"5100":9721,"5400":9722,"743":9723,"9600":9724,"A8":9725,"CSP":9726,"CUB":9727,"CIE":9728,"Exi":9729,"Even":9730,"Emily":9731,"Easy":9732,"Fis":9733,"FIL":9734,"Food":9735,"GHC":9736,"Hus":9737,"Hori":9738,"JM":9739,"KW":9740,"Kent":9741,"Knight":9742,"Mw":9743,"Mand":9744,"MPC":9745,"Nit":9746,"NIST":9747,"OLED":9748,"PW":9749,"PAS":9750,"PDA":9751,"Q3":9752,"Rid":9753,"S6":9754,"Sprint":9755,"T5":9756,"Wy":9757,"ase":9758,"ata":9759,"able":9760,"bby":9761,"eo":9762,"fera":9763,"gau":9764,"gly":9765,"gren":9766,"hop":9767,"hill":9768,"o2":9769,"schaft":9770,"tty":9771,"tja":9772,"ua":9773,"Ã¹":9774,"ÄĮ":9775,"Å¾":9776,"ËĬ":9777,"ìĸ":9778,"lich":9779,"qia1":9780,"eria":9781,"dise":9782,"lec":9783,"lez":9784,"mosa":9785,"nium":9786,"1037":9787,"1067":9788,"1216":9789,"1226":9790,"1255":9791,"1155":9792,"1158":9793,"1142":9794,"1143":9795,"1154":9796,"pool":9797,"orum":9798,"ares":9799,"1418":9800,"1494":9801,"1347":9802,"1367":9803,"1374":9804,"index":9805,"gether":9806,"method":9807,"ï¼Ĳ":9808,"rot":9809,"sier":9810,"ãģĲ":9811,"ãĤ®":9812,"etro":9813,"SEL":9814,"Reference":9815,"peti":9816,"ATENU":9817,"ards":9818,"Stadia":9819,"Search":9820,"Gap":9821,"Belie":9822,"entry":9823,"Sala":9824,"Sul":9825,"Factor":9826,"oko":9827,"Naver":9828,"Boi":9829,"wide":9830,"Unity":9831,"1107":9832,"Riot":9833,"Bull":9834,"ETF":9835,"Nix":9836,"Pocket":9837,"Kick":9838,"UND":9839,"âĪ¶":9840,"tings":9841,"AVBW":9842,"psy":9843,"Comman":9844,"Commercial":9845,"ADHD":9846,"DAY":9847,"OpenMP":9848,"jave":9849,"Biz":9850,"Barry":9851,"Performance":9852,"Complex":9853,"SCs":9854,"Vocal":9855,"llah":9856,"Universe":9857,"Markdown":9858,"Eugene":9859,"Georg":9860,"WTA1000":9861,"Brain":9862,"ï¹Ķ":9863,"Canon":9864,"YPE":9865,"STARSHIP":9866,"vsky":9867,"NEW":9868,"Mason":9869,"school":9870,"Crye":9871,"Studies":9872,"Dennis":9873,"Phoe":9874,"culture":9875,"TIME":9876,"ArcGIS":9877,"LUNA":9878,"Synthe":9879,"Podcast":9880,"16V240ZJ":9881,"Economic":9882,"Susan":9883,"yunnan":9884,"film":9885,"Isoxys":9886,"Congress":9887,"tuplet":9888,"CRH380":9889,"California":9890,"Challenge":9891,"Ocean":9892,"Empire":9893,"Cathed":9894,"KADOKAWA":9895,"018":9896,"023":9897,"062":9898,"1B":9899,"739":9900,"763":9901,"Ato":9902,"Aur":9903,"AIT":9904,"Amb":9905,"About":9906,"Cris":9907,"Dru":9908,"Das":9909,"Est":9910,"Eva":9911,"Gl":9912,"Gos":9913,"Hindu":9914,"K1":9915,"KCON":9916,"Pt":9917,"Rho":9918,"SVO":9919,"Ton":9920,"Vit":9921,"VAR":9922,"VTuber":9923,"WTO":9924,"WRK":9925,"Zoo":9926,"d8":9927,"every":9928,"flu":9929,"fro":9930,"fas":9931,"horn":9932,"squ":9933,"sport":9934,"uu":9935,"ula":9936,"v2":9937,"ËĲ":9938,"Ìģ":9939,"ØŃ":9940,"ê³":9941,"lium":9942,"lization":9943,"level":9944,"jun":9945,"tik":9946,"nit":9947,"nier":9948,"10H":9949,"1014":9950,"1228":9951,"1285":9952,"1273":9953,"lur":9954,"1119":9955,"1162":9956,"tua":9957,"tun":9958,"tung":9959,"1428":9960,"1445":9961,"1320":9962,"1312":9963,"1377":9964,"1352":9965,"1389":9966,"ints":9967,"information":9968,"force":9969,"stol":9970,"regi":9971,"rocket":9972,"ltalk":9973,"1008":9974,"tak":9975,"maxi":9976,"near":9977,"ternal":9978,"ils":9979,"cked":9980,"isen":9981,"INA":9982,"Maple":9983,"SEA":9984,"Ready":9985,"ATR":9986,"vere":9987,"Rosen":9988,"phos":9989,"Lili":9990,"Dee":9991,"unsigned":9992,"776":9993,"pers":9994,"Moni":9995,"filter":9996,"APT":9997,"Labo":9998,"Dash":9999,"Dame":10000,"Case":10001,"1102":10002,"1103":10003,"ITS":10004,"1401":10005,"blem":10006,"MSP":10007,"Nim":10008,"Peak":10009,"ToHeart":10010,"Tommy":10011,"DSR":10012,"REAL":10013,"June":10014,"Collins":10015,"Federal":10016,"ptor":10017,"OpenGL":10018,"Pul":10019,"Pure":10020,"à¤¤":10021,"Wai":10022,"SPARC":10023,"Perry":10024,"GPT":10025,"ccer":10026,"Private":10027,"Trade":10028,"WTA125":10029,"Showcase":10030,"Warri":10031,"Herbert":10032,"DEET":10033,"nics":10034,"Leader":10035,"days":10036,"CGI":10037,"close":10038,"belle":10039,"ð«Ł":10040,"spaceflight":10041,"bilibili":10042,"Senior":10043,"Emma":10044,"CF3":10045,"Laura":10046,"Islands":10047,"Foreign":10048,"Grove":10049,"idea":10050,"INNER":10051,"JUST":10052,"Ronald":10053,"Alto":10054,"XC60":10055,"Shane":10056,"C5H5":10057,"Justice":10058,"MMORPG":10059,"BLEACH":10060,"Physic":10061,"allocator":10062,"Texas":10063,"Francesco":10064,"Bradley":10065,"archive":10066,"STEREO":10067,"Magnum":10068,"Korea":10069,"Documentary":10070,"Lloyd":10071,"svg":10072,"hedron":10073,"Hughes":10074,"figuration":10075,"Graphics":10076,"lambda":10077,"ORICON":10078,"Smalltalk":10079,"CUBRID":10080,"ToHeart2":10081,"033":10082,"043":10083,"053":10084,"1a":10085,"2S":10086,"4300":10087,"8X":10088,"A6":10089,"Amy":10090,"BG":10091,"C8":10092,"C13":10093,"Cit":10094,"Cara":10095,"Cant":10096,"Dhar":10097,"Danger":10098,"DASH":10099,"Eth":10100,"Eat":10101,"FU":10102,"Figh":10103,"FAA":10104,"Io":10105,"LET":10106,"MH":10107,"NER":10108,"OO":10109,"Ober":10110,"Octo":10111,"Owen":10112,"Peri":10113,"PAD":10114,"PTT":10115,"Ptr":10116,"Pseudo":10117,"QT":10118,"Rin":10119,"Root":10120,"S26":10121,"Slo":10122,"Sad":10123,"Spor":10124,"SDR":10125,"THC":10126,"TOSHI":10127,"Veri":10128,"VWF":10129,"WG":10130,"Xe":10131,"ame":10132,"bank":10133,"c2":10134,"here":10135,"ish":10136,"ius":10137,"nen":10138,"ole":10139,"tton":10140,"Ã²":10141,"Ð¶":10142,"Ø´":10143,"ë³":10144,"ëı":10145,"anne":10146,"zhi":10147,"channel":10148,"lix":10149,"mind":10150,"miss":10151,"mistry":10152,"weak":10153,"leh":10154,"pie":10155,"tico":10156,"tique":10157,"bou":10158,"dun":10159,"kus":10160,"nian":10161,"1076":10162,"1095":10163,"quin":10164,"1248":10165,"1118":10166,"1131":10167,"1145":10168,"1178":10169,"1423":10170,"1422":10171,"1479":10172,"1482":10173,"1327":10174,"1357":10175,"1398":10176,"1383":10177,"1381":10178,"fort":10179,"regu":10180,"real":10181,"rit":10182,"rium":10183,"ï¼¢":10184,"1003":10185,"coc":10186,"cock":10187,"els":10188,"math":10189,"thes":10190,"heim":10191,"etta":10192,"asso":10193,"Mack":10194,"Maya":10195,"best":10196,"Report":10197,"nae":10198,"SAAB":10199,"aud":10200,"idal":10201,"Libre":10202,"Member":10203,"Dece":10204,"Lepto":10205,"Mojave":10206,"Shir":10207,"AMMA":10208,"Josh":10209,"Joint":10210,"893":10211,"Tem":10212,"Bee":10213,"Beam":10214,"bul":10215,"ppen":10216,"Analysis":10217,"Path":10218,"llen":10219,"MVV":10220,"SSP":10221,"1101":10222,"1109":10223,"communi":10224,"Rio":10225,"Hey":10226,"endy":10227,"WiFi":10228,"ASO":10229,"Bubble":10230,"graphic":10231,"IVER":10232,"Howe":10233,"BLS":10234,"Rush":10235,"Corne":10236,"à¤¨":10237,"à¤Ĥ":10238,"NO3":10239,"Perl":10240,"Perfect":10241,"Harrison":10242,"rene":10243,"EEEE":10244,"Graph":10245,"ï¹ķ":10246,"Universit":10247,"737MAX":10248,"Chuck":10249,"sheng":10250,"ï¸ģ":10251,"Esports":10252,"Smile":10253,"Woman":10254,"Finan":10255,"Terra":10256,"special":10257,"Agri":10258,"Elite":10259,"CMOS":10260,"Reser":10261,"Melody":10262,"gregate":10263,"âīĪ":10264,"Desk":10265,"á¹Ń":10266,"Environ":10267,"FAT32":10268,"Opti":10269,"Standings":10270,"Medicine":10271,"Blues":10272,"mination":10273,"CASH":10274,"COLLECTION":10275,"Community":10276,"Middle":10277,"Cultural":10278,"Australia":10279,"Package":10280,"Loren":10281,"Justin":10282,"Visa":10283,"Connect":10284,"gamer":10285,"African":10286,"Integra":10287,"watch":10288,"GitHub":10289,"Evans":10290,"TEP70":10291,"Plant":10292,"Kotaku":10293,"Shanghai":10294,"availa":10295,"Execu":10296,"Cathedral":10297,"046":10298,"032":10299,"073":10300,"093":10301,"2PM":10302,"5200":10303,"Bed":10304,"Clay":10305,"Duo":10306,"DIN":10307,"Dum":10308,"E6":10309,"ESA":10310,"EH10":10311,"Fat":10312,"Fitz":10313,"G7":10314,"G10":10315,"G11":10316,"Gang":10317,"Grea":10318,"Ide":10319,"IMI":10320,"Jor":10321,"JST":10322,"JUN":10323,"KG":10324,"Lil":10325,"Lama":10326,"LPGA":10327,"M8":10328,"Moo":10329,"Ple":10330,"R4":10331,"Rat":10332,"Rig":10333,"Rang":10334,"Range":10335,"S8":10336,"Sri":10337,"Sak":10338,"SIL":10339,"Tau":10340,"Trou":10341,"Tree":10342,"VIII":10343,"WAVE":10344,"Xa":10345,"YU":10346,"ZIP":10347,"ade":10348,"cuan2":10349,"dB":10350,"glio":10351,"kDa":10352,"kara":10353,"kell":10354,"og":10355,"sr":10356,"using":10357,"xo":10358,"ÄŁ":10359,"á½":10360,"ë§":10361,"ìĨ":10362,"ancy":10363,"anensis":10364,"ente":10365,"ming3":10366,"div":10367,"kura":10368,"1065":10369,"1055":10370,"1057":10371,"1094":10372,"1238":10373,"1239":10374,"1293":10375,"cube":10376,"1115":10377,"1157":10378,"1179":10379,"1518":10380,"lations":10381,"1452":10382,"1325":10383,"inclu":10384,"thia":10385,"rex":10386,"rest":10387,"rell":10388,"requi":10389,"mem":10390,"metery":10391,"roe":10392,"ãĥ¤":10393,"mae":10394,"next":10395,"offee":10396,"ãĤ²":10397,"hea":10398,"ets":10399,"etra":10400,"Manga":10401,"Intro":10402,"bee":10403,"SEVEN":10404,"Cohen":10405,"bran":10406,"ndrome":10407,"cip":10408,"bac":10409,"ATT":10410,"cty":10411,"Destru":10412,"person":10413,"mans":10414,"Promotion":10415,"cone":10416,"contra":10417,"config":10418,"rane":10419,"Stay":10420,"Semi":10421,"ISL":10422,"Gag":10423,"fier":10424,"fishing":10425,"optera":10426,"JRA":10427,"Sonic":10428,"Sult":10429,"Cape":10430,"Nate":10431,"IPC":10432,"ANET":10433,"Muhammad":10434,"Any":10435,"SMRT":10436,"Conser":10437,"Bush":10438,"Gear":10439,"IVB":10440,"Stein":10441,"Stephan":10442,"Tong":10443,"Toyo":10444,"Ford":10445,"1126":10446,"AKB":10447,"REM":10448,"ations":10449,"Nove":10450,"fai":10451,"factor":10452,"Julius":10453,"full":10454,"SOLO":10455,"Cold":10456,"IAU":10457,"Administra":10458,"respon":10459,"1184":10460,"OpenAI":10461,"HOL":10462,"Kee":10463,"Huang":10464,"japo":10465,"RISE":10466,"EXID":10467,"velo":10468,"Parti":10469,"Jesus":10470,"NHL":10471,"Disk":10472,"lism":10473,"ãĦľ":10474,"Walk":10475,"Elli":10476,"Thom":10477,"GamesRadar":10478,"Holmes":10479,"Hydro":10480,"hyn":10481,"troff":10482,"âĹİ":10483,"WoRMS":10484,"Freestyle":10485,"Truth":10486,"GTX":10487,"Turtle":10488,"Belle":10489,"CMAMMA":10490,"Hanteo":10491,"Tokyo":10492,"Comics":10493,"Earl":10494,"âĳ¡":10495,"partner":10496,"since":10497,"language":10498,"OPEN":10499,"Lawrence":10500,"âĩĴ":10501,"techno":10502,"Image":10503,"practi":10504,"intosh":10505,"Fortran":10506,"Falcom":10507,"âĤ¬":10508,"LZ77":10509,"Wonderful":10510,"Butter":10511,"could":10512,"sease":10513,"P2P":10514,"Wells":10515,"WHIP":10516,"Rankings":10517,"PXA":10518,"Associates":10519,"1xEV":10520,"Higgins":10521,"Chief":10522,"April":10523,"015":10524,"056":10525,"1D":10526,"1199":10527,"Aki":10528,"BK":10529,"Bry":10530,"BET":10531,"BTR":10532,"BERT":10533,"Deri":10534,"DATA":10535,"ETC":10536,"Fed":10537,"Gard":10538,"Glass":10539,"Gring":10540,"Ire":10541,"IAL":10542,"JA":10543,"JSON":10544,"KON":10545,"M110":10546,"NSA":10547,"NTO":10548,"NME":10549,"OMG":10550,"OEM":10551,"Pine":10552,"Pitch":10553,"RV":10554,"Rare":10555,"RLE":10556,"RNC":10557,"Ranger":10558,"Rights":10559,"SNA":10560,"Ski":10561,"SCP":10562,"SING":10563,"TX":10564,"TAS":10565,"WR":10566,"Was":10567,"WINNER":10568,"XL":10569,"Y2":10570,"YON":10571,"Zim":10572,"blue":10573,"ctic":10574,"cara":10575,"eis":10576,"fr":10577,"fall":10578,"hof":10579,"hind":10580,"meng1":10581,"oth":10582,"oire":10583,"psi":10584,"plus":10585,"sse":10586,"tti":10587,"tana":10588,"vit":10589,"Ðķ":10590,"ÐĽ":10591,"Õ¶":10592,"Ø¹":10593,"Ùĩ":10594,"ð¨":10595,"xiv":10596,"ener":10597,"enos":10598,"yung":10599,"yor":10600,"bine":10601,"bike":10602,"bins":10603,"20S":10604,"pical":10605,"shua":10606,"dum":10607,"mous":10608,"nix":10609,"1022":10610,"1090":10611,"1085":10612,"1213":10613,"1257":10614,"1294":10615,"1292":10616,"cuit":10617,"popu":10618,"posed":10619,"tuan3":10620,"ones":10621,"onto":10622,"arti":10623,"1431":10624,"1323":10625,"1362":10626,"gem":10627,"formos":10628,"mun":10629,"rei":10630,"ï¼Ĭ":10631,"roll":10632,"ceo":10633,"amar":10634,"1004":10635,"ãģ¸":10636,"never":10637,"ãĤ´":10638,"hei":10639,"ett":10640,"iso":10641,"INAX":10642,"vector":10643,"Chas":10644,"Champ":10645,"Independent":10646,"50000":10647,"6400":10648,"Cop":10649,"Colum":10650,"6800":10651,"nay":10652,"vian":10653,"veri":10654,"Dev":10655,"Mii":10656,"OSI":10657,"795":10658,"COUN":10659,"Mos":10660,"Moham":10661,"many":10662,"Tea":10663,"pack":10664,"Need":10665,"60000":10666,"ACM":10667,"Saba":10668,"Sales":10669,"Logo":10670,"pple":10671,"stage":10672,"Ant":10673,"Bahn":10674,"ITE":10675,"ITY":10676,"ITIL":10677,"ITION":10678,"alism":10679,"1305":10680,"Hei":10681,"Content":10682,"ASV":10683,"à¸¥":10684,"à¸Ħ":10685,"EPROM":10686,"Enri":10687,"Tonight":10688,"yah":10689,"Think":10690,"RECO":10691,"Scho":10692,"Luci":10693,"Luke":10694,"MOVIE":10695,"SOHR":10696,"Compi":10697,"Ruth":10698,"NGO":10699,"Harvey":10700,"Willie":10701,"Travis":10702,"services":10703,"URR":10704,"Chey":10705,"Acti":10706,"Kura":10707,"PLUS":10708,"Eleven":10709,"Cele":10710,"GAINAX":10711,"white":10712,"Ernest":10713,"Agda":10714,"Digi":10715,"Metal":10716,"SUMM":10717,"Gerald":10718,"friend":10719,"Born":10720,"Virgin":10721,"à¹Ī":10722,"Crystal":10723,"OMON":10724,"Signature":10725,"Paradise":10726,"Russian":10727,"Linked":10728,"Beauty":10729,"Police":10730,"Regional":10731,"scale":10732,"Ahmad":10733,"Crush":10734,"Philippe":10735,"Secretary":10736,"FIBA":10737,"versary":10738,"Maurice":10739,"íķĺ":10740,"Rodri":10741,"Transit":10742,"CinemaScore":10743,"Gregory":10744,"Bailey":10745,"because":10746,"Perez":10747,"Manuel":10748,"NICONICO":10749,"levard":10750,"POSIX":10751,"Piazza":10752,"mount":10753,"Sophie":10754,"Another":10755,"Pedro":10756,"Psycho":10757,"DisplayPort":10758,"TensorFlow":10759,"Utada":10760,"Calligra":10761,"ê¹Ģ":10762,"Affair":10763,"Command":10764,"yunnanensis":10765,"October":10766,"December":10767,"Gringoire":10768,"024":10769,"048":10770,"047":10771,"058":10772,"069":10773,"2C":10774,"3S":10775,"BED":10776,"Bron":10777,"CY":10778,"Cum":10779,"DONG":10780,"Ella":10781,"Ft2":10782,"FIVB":10783,"Gig":10784,"Gare":10785,"GTA":10786,"GCC":10787,"GLP":10788,"HU":10789,"Hes":10790,"Heller":10791,"IK":10792,"Kay":10793,"K230":10794,"LSD":10795,"M113":10796,"MENT":10797,"Mamba":10798,"N6":10799,"PAC":10800,"QF":10801,"Ryu":10802,"Sli":10803,"UV":10804,"Ukra":10805,"Vel":10806,"XDC":10807,"Zy":10808,"ack":10809,"c3":10810,"cere":10811,"echo":10812,"gat":10813,"jay":10814,"kel":10815,"oke":10816,"rk":10817,"ure":10818,"vent":10819,"zas":10820,"zero":10821,"Â®":10822,"â½":10823,"ëª":10824,"jing":10825,"aos":10826,"dev":10827,"demo":10828,"lil":10829,"bing":10830,"dil":10831,"ditional":10832,"lett":10833,"2032":10834,"dult":10835,"duction":10836,"sue":10837,"sula":10838,"surance":10839,"money":10840,"chuai1":10841,"1034":10842,"1044":10843,"1087":10844,"1093":10845,"1210":10846,"1249":10847,"1251":10848,"1152":10849,"tune":10850,"tuber":10851,"ornis":10852,"1410":10853,"1411":10854,"1336":10855,"1344":10856,"1359":10857,"1361":10858,"1395":10859,"indi":10860,"instru":10861,"geome":10862,"25K":10863,"25T":10864,"reus":10865,"revision":10866,"mean":10867,"meter":10868,"oura":10869,"ï¼ĥ":10870,"rod":10871,"teur":10872,"ltz":10873,"1007":10874,"1009":10875,"tag":10876,"cohol":10877,"mag":10878,"mah":10879,"mai":10880,"35000":10881,"heel":10882,"etti":10883,"46A":10884,"Chow":10885,"Ching":10886,"4700":10887,"Insi":10888,"Index":10889,"hana":10890,"Rein":10891,"5800":10892,"40000":10893,"Lion":10894,"CDC":10895,"ango":10896,"98A":10897,"Leu":10898,"akes":10899,"COO":10900,"Most":10901,"ctionary":10902,"Provin":10903,"Tee":10904,"pai":10905,"1205":10906,"1209":10907,"null":10908,"APH":10909,"Soccer":10910,"Sugar":10911,"Dio":10912,"som":10913,"Wea":10914,"HDR":10915,"Basili":10916,"SSD":10917,"stery":10918,"SMTOWN":10919,"stead":10920,"Contin":10921,"dents":10922,"ENCE":10923,"à¸¢":10924,"Interface":10925,"Step":10926,"aries":10927,"process":10928,"MyRadio":10929,"Luck":10930,"AGB":10931,"liner":10932,"Cut":10933,"cording":10934,"DRT":10935,"DAO":10936,"MCA":10937,"Hua":10938,"à¤¦":10939,"vella":10940,"lington":10941,"orio":10942,"Baron":10943,"Macintosh":10944,"Gior":10945,"Normal":10946,"Triple":10947,"Isra":10948,"track":10949,"Grey":10950,"Cheng":10951,"Chemical":10952,"mbly":10953,"cessing":10954,"ï¹ŀ":10955,"UEFA":10956,"Speak":10957,"Panzer":10958,"compu":10959,"Official":10960,"Scienti":10961,"FFT":10962,"Dancing":10963,"Critic":10964,"Phillips":10965,"GEO":10966,"Stock":10967,"SRP":10968,"Palace":10969,"OMR":10970,"Casa":10971,"Gilbert":10972,"AXN":10973,"Clostri":10974,"DIY":10975,"possible":10976,"Communications":10977,"standing":10978,"Bandar":10979,"S4N4":10980,"vatory":10981,"Mitchie":10982,"Jeffrey":10983,"Kennedy":10984,"Industries":10985,"VISION":10986,"Lunar":10987,"Eyes":10988,"Adventure":10989,"Nelson":10990,"Total":10991,"Aaron":10992,"Spencer":10993,"Vladi":10994,"AVBWU":10995,"Phoebus":10996,"coccus":10997,"Financial":10998,"available":10999,"Ireland":11000,"COUNT":11001,"LinkedIn":11002,"035":11003,"086":11004,"1b":11005,"1201":11006,"5300":11007,"6K":11008,"856":11009,"BER":11010,"Brea":11011,"C12":11012,"Ces":11013,"Cano":11014,"Crew":11015,"Coffee":11016,"DMA":11017,"Dere":11018,"Eco":11019,"ENA":11020,"Ery":11021,"Estate":11022,"FW":11023,"Fen":11024,"FAD":11025,"FDG":11026,"Gur":11027,"Gill":11028,"H8":11029,"H12":11030,"Hang":11031,"Honey":11032,"I2":11033,"ILO":11034,"Irish":11035,"JIT":11036,"Kind":11037,"M7":11038,"M16":11039,"M41":11040,"Meri":11041,"NV":11042,"PQ":11043,"Pot":11044,"Pana":11045,"PAO":11046,"RAC":11047,"Sla":11048,"Sandy":11049,"Tsu":11050,"Tat":11051,"Tun":11052,"Tess":11053,"Ulti":11054,"Ves":11055,"Ward":11056,"az":11057,"action":11058,"d3":11059,"db":11060,"dt":11061,"dam":11062,"eth":11063,"fir":11064,"flor":11065,"gart":11066,"ln":11067,"pth":11068,"qa":11069,"tsu":11070,"tree":11071,"uis":11072,"ÄĹ":11073,"ÉĽ":11074,"Î¦":11075,"Î¾":11076,"Îļ":11077,"Ø¬":11078,"ãĪ":11079,"ì¤":11080,"ìĬ":11081,"íĺ":11082,"ï»":11083,"deli":11084,"dead":11085,"deca":11086,"chia":11087,"erse":11088,"gui":11089,"least":11090,"titude":11091,"mour":11092,"qun1":11093,"lutions":11094,"1116":11095,"1141":11096,"1177":11097,"1416":11098,"1335":11099,"1338":11100,"1332":11101,"1384":11102,"reau":11103,"result":11104,"0001":11105,"rose":11106,"ãĥĶ":11107,"sex":11108,"selen":11109,"tah":11110,"tape":11111,"tanga":11112,"colo":11113,"elds":11114,"mab":11115,"terator":11116,"ãĤ¼":11117,"ckey":11118,"vest":11119,"Maz":11120,"Mang":11121,"Chara":11122,"STEP":11123,"Inno":11124,"Informer":11125,"64BV":11126,"Coast":11127,"Reed":11128,"irs":11129,"bau":11130,"bay":11131,"video":11132,"igne":11133,"Stream":11134,"Dem":11135,"Devel":11136,"Mile":11137,"Military":11138,"edge":11139,"Alpert":11140,"COP":11141,"noinclude":11142,"8700":11143,"Arcade":11144,"nucle":11145,"EDM":11146,"ED60":11147,"Latin":11148,"ERA":11149,"Sulli":11150,"Cafe":11151,"Nations":11152,"Boss":11153,"PaK":11154,"Silva":11155,"SSR":11156,"commit":11157,"sation":11158,"PS5":11159,"PlaySta":11160,"Concept":11161,"Bud":11162,"dens":11163,"dential":11164,"ETSI":11165,"EPUB":11166,"âĨĶ":11167,"Stef":11168,"Thel":11169,"Pool":11170,"1128":11171,"anies":11172,"CNBC":11173,"TAG":11174,"fume":11175,"AGC":11176,"called":11177,"Guide":11178,"NCE":11179,"Admi":11180,"1181":11181,"Hide":11182,"HOUSE":11183,"symbo":11184,"club":11185,"NOAA":11186,"lings":11187,"Perfume":11188,"Edwin":11189,"Gibson":11190,"NH2":11191,"Gray":11192,"Graham":11193,"Track":11194,"Davies":11195,"CLI":11196,"Tyler":11197,"Schools":11198,"ãĦı":11199,"Wally":11200,"Why":11201,"ï¹Ŀ":11202,"Animation":11203,"Count":11204,"Georges":11205,"Hermann":11206,"AO3":11207,"Parker":11208,"Leaf":11209,"DMZ":11210,"physic":11211,"3A4":11212,"Ferdin":11213,"database":11214,"broad":11215,"Oblast":11216,"à¥ģ":11217,"EVER":11218,"Launch":11219,"perial":11220,"BanG":11221,"launches":11222,"sinensis":11223,"Render":11224,"Publishing":11225,"NMDA":11226,"dorf":11227,"Cervo":11228,"SVT":11229,"Leonard":11230,"THQ":11231,"Johannes":11232,"Computing":11233,"PRODU":11234,"Haskell":11235,"ctoid":11236,"Flower":11237,"Pont":11238,"Roundcube":11239,"Oracle":11240,"bourg":11241,"Railway":11242,"GROW":11243,"science":11244,"buckets":11245,"articles":11246,"hausen":11247,"Gym":11248,"sockaddr":11249,"Intelligence":11250,"Architecture":11251,"HYBE":11252,"exit":11253,"district":11254,"GIRL":11255,"Malaysia":11256,"Atlantic":11257,"Eclipse":11258,"Ludwig":11259,"Canadian":11260,"9K37":11261,"Anniversary":11262,"Jeremy":11263,"Laborat":11264,"Executive":11265,"Destructoid":11266,"XDCAM":11267,"Developer":11268,"PRODUCE":11269,"011":11270,"017":11271,"029":11272,"088":11273,"094":11274,"091":11275,"4C":11276,"4Minute":11277,"7k":11278,"Amen":11279,"ADV":11280,"AES":11281,"Bing":11282,"Blow":11283,"Brew":11284,"CX":11285,"C15":11286,"C60":11287,"CES":11288,"C10H":11289,"DIS":11290,"E4":11291,"EVA":11292,"E233":11293,"FP":11294,"Foo":11295,"FTT":11296,"GSh":11297,"Gia":11298,"GHQ":11299,"HIDE":11300,"Ich":11301,"IRES":11302,"J48":11303,"Kwo":11304,"L5":11305,"LUS":11306,"LIM":11307,"LAB":11308,"MID":11309,"MWe":11310,"MRT":11311,"MBE":11312,"Nak":11313,"NBS":11314,"OW":11315,"Ok":11316,"OAD":11317,"Omar":11318,"Omicron":11319,"Phan":11320,"PDC":11321,"PINK":11322,"Rao":11323,"Tum":11324,"TED":11325,"TFT":11326,"U22":11327,"UAL":11328,"WNBA":11329,"YZ":11330,"cp":11331,"d6":11332,"edi":11333,"ever":11334,"f8":11335,"fford":11336,"gl":11337,"goo":11338,"gent":11339,"grou":11340,"iu":11341,"ico":11342,"imp":11343,"kre":11344,"kat":11345,"ktor":11346,"llar":11347,"mL":11348,"mara":11349,"nus":11350,"ology":11351,"pun":11352,"send":11353,"talk":11354,"uli":11355,"yang":11356,"ÏĪ":11357,"ê·":11358,"ð§":11359,"dem":11360,"yin":11361,"guel":11362,"dier":11363,"2077":11364,"1069":11365,"1088":11366,"1061":11367,"1062":11368,"1097":11369,"1096":11370,"1237":11371,"1267":11372,"1287":11373,"lume":11374,"1175":11375,"1133":11376,"arts":11377,"1417":11378,"1446":11379,"1348":11380,"formes":11381,"stle":11382,"research":11383,"mei":11384,"memo":11385,"ride":11386,"rol":11387,"rote":11388,"tele":11389,"six":11390,"rage":11391,"cedu":11392,"sexu":11393,"tative":11394,"fold":11395,"ãģĴ":11396,"ãģĸ":11397,"coin":11398,"cott":11399,"coordina":11400,"mati":11401,"iler":11402,"loe":11403,"heart":11404,"isse":11405,"tok":11406,"INI":11407,"STOR":11408,"CoA":11409,"Cox":11410,"Coin":11411,"Reco":11412,"cili":11413,"bacter":11414,"vities":11415,"capi":11416,"veral":11417,"ury":11418,"Roma":11419,"phra":11420,"Start":11421,"7800":11422,"5600":11423,"MeV":11424,"Meyer":11425,"Marty":11426,"Mario":11427,"Alcohol":11428,"BABY":11429,"Shake":11430,"continu":11431,"noon":11432,"dain":11433,"ACAF":11434,"Raj":11435,"games":11436,"APA":11437,"ICK":11438,"Lami":11439,"Sac":11440,"buil":11441,"Boe":11442,"Bom":11443,"Bapti":11444,"SS2":11445,"ITH":11446,"ITX":11447,"ffy":11448,"ffin":11449,"step":11450,"Filter":11451,"Confe":11452,"Wiz":11453,"Ticket":11454,"ENG":11455,"Tag":11456,"Nich":11457,"Dogs":11458,"Form":11459,"Luna":11460,"fast":11461,"kom":11462,"SOAP":11463,"Gui":11464,"Rule":11465,"cription":11466,"jective":11467,"mony":11468,"MCT":11469,"systems":11470,"ghter":11471,"Serge":11472,"reached":11473,"Bright":11474,"Santos":11475,"orien":11476,"Edmund":11477,"Giuse":11478,"phase":11479,"cm3":11480,"Train":11481,"stice":11482,"PO4":11483,"lette":11484,"ORF":11485,"Counter":11486,"Aircraft":11487,"output":11488,"starter":11489,"played":11490,"Chiesa":11491,"WEB":11492,"Cemetery":11493,"Chapel":11494,"ð«Ĭ¸":11495,"Eurogamer":11496,"youtube":11497,"company":11498,"Croquet":11499,"LAY":11500,"âĸ³":11501,"default":11502,"PDT":11503,"tiative":11504,"ìĿĺ":11505,"DDR3":11506,"Minix":11507,"à¹ī":11508,"Catalo":11509,"Franklin":11510,"launched":11511,"Journey":11512,"Treo":11513,"Models":11514,"Maggie":11515,"C6H5":11516,"Electric":11517,"WOW":11518,"appe":11519,"tempor":11520,"Petro":11521,"DeepMind":11522,"invest":11523,"Hamilton":11524,"Ashley":11525,"black":11526,"Self":11527,"âĻ¯":11528,"Robinson":11529,"Michelle":11530,"Felix":11531,"against":11532,"Caroline":11533,"CONCACAF":11534,"CR400AF":11535,"KwK":11536,"BASIC":11537,"avex":11538,"early":11539,"Platform":11540,"BACnet":11541,"Rabbit":11542,"Theodore":11543,"Legend":11544,"Arnold":11545,"Oxford":11546,"front":11547,"Gustav":11548,"Nf6":11549,"methyl":11550,"Abraham":11551,"OECD":11552,"ALX500":11553,"FILM":11554,"CheyTac":11555,"014":11556,"039":11557,"066":11558,"077":11559,"1G":11560,"22000":11561,"7400":11562,"9100":11563,"9500":11564,"Av":11565,"Aru":11566,"AAC":11567,"ADS":11568,"Bart":11569,"C16":11570,"CID":11571,"CET":11572,"Clin":11573,"Dit":11574,"Eo":11575,"Effe":11576,"Fm":11577,"FAM":11578,"FAC":11579,"FAI":11580,"FRS":11581,"GY":11582,"G20":11583,"Ges":11584,"Gree":11585,"Grow":11586,"HIS":11587,"HIT":11588,"HSPA":11589,"IUP":11590,"Ibra":11591,"Illi":11592,"JW":11593,"Jake":11594,"JScript":11595,"KU":11596,"Kru":11597,"Lat":11598,"Lily":11599,"MJ":11600,"MN":11601,"MAR":11602,"MIPS":11603,"Nou":11604,"Nes":11605,"Nas":11606,"OV":11607,"Oo":11608,"Ole":11609,"OUT":11610,"PTC":11611,"Pos":11612,"PDS":11613,"Plas":11614,"R7":11615,"Ris":11616,"Rhi":11617,"S5":11618,"Sn":11619,"Scu":11620,"SDO":11621,"TRI":11622,"Trin":11623,"TBF":11624,"UDP":11625,"Usen":11626,"VMS":11627,"X100":11628,"Yau":11629,"Yun":11630,"Zin":11631,"Z99":11632,"ax":11633,"achie":11634,"dad":11635,"equ":11636,"equi":11637,"fz":11638,"iPod":11639,"kk":11640,"kor":11641,"lb":11642,"px":11643,"park":11644,"rine":11645,"sam":11646,"tte":11647,"tam":11648,"tter":11649,"uri":11650,"vine":11651,"wall":11652,"Ãģ":11653,"ÎĴ":11654,"×¨":11655,"×ľ":11656,"Ùģ":11657,"Ùĥ":11658,"á¿":11659,"ãĨ":11660,"ê²":11661,"ìľ":11662,"anor":11663,"delete":11664,"chr":11665,"ching":11666,"chard":11667,"hui":11668,"liday":11669,"mik":11670,"mil":11671,"minu":11672,"miya":11673,"guar":11674,"dish":11675,"pit":11676,"bound":11677,"dur":11678,"mona":11679,"lvad":11680,"nish":11681,"1023":11682,"1036":11683,"1033":11684,"18000":11685,"1298":11686,"culty":11687,"1117":11688,"1134":11689,"1132":11690,"1149":11691,"1172":11692,"pold":11693,"16000":11694,"16GB":11695,"17000":11696,"arn":11697,"aru":11698,"argu":11699,"1437":11700,"1334":11701,"input":11702,"aland":11703,"stes":11704,"melan":11705,"ought":11706,"rite":11707,"simi":11708,"sile":11709,"sizer":11710,"ãĥĽ":11711,"ception":11712,"seg":11713,"ello":11714,"mali":11715,"term":11716,"these":11717,"today":11718,"TCHA":11719,"Mathema":11720,"iten":11721,"STAGE":11722,"Indone":11723,"Theory":11724,"Resi":11725,"Return":11726,"cape":11727,"umph":11728,"78X":11729,"NAD":11730,"NAL":11731,"Miguel":11732,"Marti":11733,"ï½ľ":11734,"COMP":11735,"Shaun":11736,"Shadow":11737,"mana":11738,"Joshua":11739,"rano":11740,"Temp":11741,"pati":11742,"pala":11743,"ACC":11744,"gade":11745,"Jazz":11746,"Bear":11747,"Beck":11748,"Lai":11749,"Sup":11750,"Suica":11751,"Dictionary":11752,"Cash":11753,"hack":11754,"hist":11755,"IPB":11756,"Mule":11757,"llon":11758,"inten":11759,"Bala":11760,"1104":11761,"alia":11762,"chez":11763,"sai":11764,"PSR":11765,"Hawaii":11766,"Console":11767,"Buck":11768,"MSI":11769,"EPR":11770,"MP5":11771,"rism":11772,"Piano":11773,"Cardi":11774,"myr":11775,"Expo":11776,"Pharma":11777,"Julie":11778,"SOHO":11779,"Guin":11780,"often":11781,"cycle":11782,"Fee":11783,"Fears":11784,"ression":11785,"Him":11786,"cord":11787,"MCB":11788,"Franco":11789,"Put":11790,"Monkey":11791,"Study":11792,"NOAH":11793,"SPE":11794,"Barbara":11795,"DOWN":11796,"BEJ48":11797,"img":11798,"trax":11799,"Berry":11800,"lene":11801,"URA":11802,"Check":11803,"Supernova":11804,"stoma":11805,"accu":11806,"access":11807,"GOT7":11808,"âħ£":11809,"NSF":11810,"parenti":11811,"bring":11812,"Airport":11813,"Value":11814,"donna":11815,"Spir":11816,"229E":11817,"Chung":11818,"DMM":11819,"Chica":11820,"Atta":11821,"GABA":11822,"Spoon":11823,"Valenti":11824,"LTD":11825,"Clau":11826,"Choice":11827,"Turner":11828,"Resort":11829,"Resources":11830,"KKTV":11831,"Function":11832,"AEG":11833,"KIZ":11834,"unit":11835,"Venus":11836,"CodeCamp":11837,"Partner":11838,"appli":11839,"UMTS":11840,"Lantis":11841,"Sort":11842,"Diego":11843,"Jennie":11844,"models":11845,"Register":11846,"ylent":11847,"CANopen":11848,"KEY":11849,"ìķ¼":11850,"MultiCam":11851,"Adams":11852,"Welcome":11853,"Jerry":11854,"Apogee":11855,"midt":11856,"Titan":11857,"species":11858,"ELEVEN":11859,"Lauren":11860,"freeCodeCamp":11861,"âģµ":11862,"VISUAL":11863,"Organization":11864,"orbital":11865,"Marshall":11866,"FIRST":11867,"Widget":11868,"B7RLE":11869,"stadt":11870,"Initiative":11871,"connect":11872,"values":11873,"Swift":11874,"reference":11875,"Patricia":11876,"President":11877,"hibition":11878,"fluo":11879,"Lidl":11880,"gorith":11881,"Hoyts":11882,"LUNAR":11883,"technology":11884,"RECORDS":11885,"Basilica":11886,"Clostridium":11887,"PlayStatio":11888,"Thelma":11889,"Ferdinand":11890,"Giuseppe":11891,"parentid":11892,"025":11893,"028":11894,"022":11895,"026":11896,"084":11897,"082":11898,"1197":11899,"1mple":11900,"5D":11901,"6200":11902,"Apex":11903,"BJ":11904,"BEC":11905,"Cp":11906,"CRE":11907,"CSL":11908,"DY":11909,"Did":11910,"DSS":11911,"Ek":11912,"EAS":11913,"Fe2":11914,"Fru":11915,"FSB":11916,"GQ":11917,"Grou":11918,"Gren":11919,"HG":11920,"HV":11921,"Hin":11922,"Id":11923,"IES":11924,"Igna":11925,"JE":11926,"JIN":11927,"Khu":11928,"Kil":11929,"MAT":11930,"NX":11931,"Pig":11932,"RW":11933,"SIV":11934,"SCN":11935,"Swa":11936,"SHR":11937,"Scan":11938,"Scar":11939,"TZ":11940,"Tg":11941,"Tank":11942,"TYPE":11943,"UART":11944,"WEC":11945,"WCT":11946,"WWF":11947,"XR":11948,"X200":11949,"YC":11950,"Z17":11951,"bai1":11952,"bass":11953,"cru":11954,"cana":11955,"d2":11956,"dru":11957,"e5":11958,"epi":11959,"f1":11960,"gla":11961,"hood":11962,"jer":11963,"ked":11964,"mAh":11965,"o3":11966,"sent":11967,"s1mple":11968,"v1":11969,"wd":11970,"wai3":11971,"Äħ":11972,"ÅĻ":11973,"ÑĦ":11974,"Ñĳ":11975,"ë¬":11976,"ìĽ":11977,"death":11978,"lico":11979,"bic":11980,"bilis":11981,"die4":11982,"just":11983,"tima":11984,"tizen":11985,"borough":11986,"dual":11987,"suc":11988,"1031":11989,"1073":11990,"1071":11991,"1091":11992,"1222":11993,"1245":11994,"1113":11995,"1148":11996,"1161":11997,"1171":11998,"woo":11999,"pose":12000,"lach":12001,"onso":12002,"online":12003,"arg":12004,"around":12005,"1366":12006,"formed":12007,"much":12008,"allow":12009,"tham":12010,"rez":12011,"restri":12012,"mex":12013,"ridge":12014,"ï¼ĵ":12015,"rostris":12016,"tea":12017,"6061":12018,"sein":12019,"1005":12020,"tato":12021,"talis":12022,"folia":12023,"mak":12024,"mala":12025,"eto":12026,"Maha":12027,"Chorus":12028,"Into":12029,"Innova":12030,"33A":12031,"Colt":12032,"Ref":12033,"brand":12034,"viri":12035,"visi":12036,"igo":12037,"ural":12038,"ssage":12039,"6600":12040,"SAD":12041,"phere":12042,"8800":12043,"Meh":12044,"NADP":12045,"Miz":12046,"derma":12047,"Alle":12048,"CO3":12049,"Mohammad":12050,"Share":12051,"Vic":12052,"JoJo":12053,"894":12054,"rys":12055,"Teng":12056,"paper":12057,"node":12058,"dah":12059,"600V":12060,"1203":12061,"120km":12062,"Armen":12063,"Race":12064,"Rachel":12065,"Begin":12066,"ERM":12067,"Same":12068,"Lover":12069,"IDC":12070,"IDF":12071,"Sula":12072,"docu":12073,"Diana":12074,"oka":12075,"orem":12076,"bubble":12077,"hoc":12078,"given":12079,"Silv":12080,"Sierra":12081,"wicz":12082,"SSL":12083,"colle":12084,"saw":12085,"Ride":12086,"1302":12087,"Budd":12088,"Taq":12089,"à¸Ľ":12090,"Pew":12091,"Pietro":12092,"Thera":12093,"Dome":12094,"Dota":12095,"Powell":12096,"Format":12097,"prof":12098,"Carlo":12099,"UNO":12100,"Phen":12101,"CHILD":12102,"TOG":12103,"Kabu":12104,"AG600":12105,"Combat":12106,"Gul":12107,"1183":12108,"Corp":12109,"reaming":12110,"à¤µ":12111,"Bishop":12112,"DOI":12113,"Jeans":12114,"Isla":12115,"PPT":12116,"SCAR":12117,"SCAP":12118,"Pride":12119,"lerc":12120,"Travel":12121,"lena":12122,"Fuji":12123,"tents":12124,"Starship":12125,"When":12126,"oustic":12127,"Assistant":12128,"Warren":12129,"Canal":12130,"Spect":12131,"Blog":12132,"Vevo":12133,"Vehicle":12134,"Spike":12135,"Chun":12136,"Survey":12137,"Years":12138,"Torrent":12139,"Josef":12140,"Claire":12141,"warm":12142,"Skype":12143,"morrow":12144,"Fresh":12145,"Transport":12146,"PHA":12147,"USB4":12148,"AEW":12149,"Database":12150,"Janet":12151,"Destin":12152,"Campus":12153,"Bruno":12154,"appro":12155,"Leslie":12156,"Palm":12157,"current":12158,"Boulevard":12159,"Troy":12160,"Nicolas":12161,"treme":12162,"Cosmo":12163,"Frost":12164,"Murray":12165,"Murphy":12166,"ENTER":12167,"Cruz":12168,"ttom":12169,"Antoine":12170,"wikitext":12171,"sistance":12172,"HERE":12173,"niconico":12174,"Defense":12175,"industri":12176,"Eagle":12177,"Titanic":12178,"á¸¥":12179,"Deadline":12180,"TRAIN":12181,"thority":12182,"syntax":12183,"Italia":12184,"Sharp":12185,"EchoLink":12186,"create":12187,"CYP3A4":12188,"xc3":12189,"Follow":12190,"museum":12191,"false":12192,"Protection":12193,"ëĤĺ":12194,"Aviation":12195,"Qualifying":12196,"Observatory":12197,"à¯į":12198,"cephalus":12199,"Assembly":12200,"WRKY":12201,"Affairs":12202,"acknowledge":12203,"Sullivan":12204,"Ticketmaster":12205,"Usenet":12206,"Chicago":12207,"036":12208,"037":12209,"034":12210,"049":12211,"042":12212,"098":12213,"085":12214,"097":12215,"7A":12216,"9M":12217,"A24":12218,"Aid":12219,"Away":12220,"Cres":12221,"DQ":12222,"Dry":12223,"DKP":12224,"Elv":12225,"EGO":12226,"FET":12227,"FUN":12228,"FTA":12229,"FRI":12230,"Flex":12231,"GAS":12232,"GTO":12233,"HAR":12234,"Identi":12235,"Jas":12236,"JVC":12237,"KH":12238,"Kine":12239,"KID":12240,"Kari":12241,"KHL":12242,"LTS":12243,"L129":12244,"Ming":12245,"MHC":12246,"M686":12247,"Nano":12248,"P3":12249,"PJ":12250,"Pand":12251,"PAG":12252,"Q4":12253,"QTE":12254,"Row":12255,"RISC":12256,"S10":12257,"Span":12258,"Scri":12259,"T6":12260,"Thu":12261,"Til":12262,"Tell":12263,"TION":12264,"User":12265,"V3":12266,"VK":12267,"Vill":12268,"Want":12269,"Wool":12270,"ZIS":12271,"Zoom":12272,"av":12273,"away":12274,"beng3":12275,"econo":12276,"effici":12277,"f2":12278,"hin":12279,"hall":12280,"kal":12281,"kia":12282,"kill":12283,"mble":12284,"nals":12285,"r2":12286,"sn":12287,"saurus":12288,"source":12289,"vard":12290,"vul":12291,"wak":12292,"yam":12293,"zang3":12294,"¹¬":12295,"Â¬":12296,"Äĳ":12297,"×Ł":12298,"àª":12299,"ëĮ":12300,"ì£":12301,"íĥ":12302,"analysis":12303,"sha2":12304,"shir":12305,"should":12306,"zhou":12307,"entin":12308,"enberg":12309,"ãĢħ":12310,"lien":12311,"lies":12312,"mile":12313,"mise":12314,"mino":12315,"gues":12316,"dion":12317,"weight":12318,"2038":12319,"jue1":12320,"19S":12321,"shun3":12322,"mora":12323,"chung":12324,"zia":12325,"nion":12326,"10A":12327,"1021":12328,"1028":12329,"1089":12330,"mens":12331,"quad":12332,"1223":12333,"1231":12334,"1176":12335,"1174":12336,"pole":12337,"lab":12338,"lac":12339,"lal":12340,"lator":12341,"1321":12342,"geon":12343,"mune":12344,"alla":12345,"stall":12346,"stown":12347,"relation":12348,"mee":12349,"rik":12350,"ropo":12351,"sition":12352,"sius":12353,"sium":12354,"radi":12355,"season":12356,"foglio":12357,"cost":12358,"elf":12359,"mass":12360,"mator":12361,"thea":12362,"atro":12363,"INLW":12364,"STAF":12365,"64DD":12366,"Colin":12367,"Rex":12368,"Rey":12369,"Rela":12370,"advance":12371,"cional":12372,"cata":12373,"usa":12374,"ooting":12375,"ctly":12376,"Rot":12377,"Stories":12378,"ids":12379,"Liver":12380,"License":12381,"Miche":12382,"Mika":12383,"lys":12384,"BCG":12385,"Alfa":12386,"Sham":12387,"AML":12388,"ARTS":12389,"Text":12390,"dai":12391,"Arrow":12392,"Sei":12393,"Gaz":12394,"APER":12395,"Lobo":12396,"domain":12397,"âĶģ":12398,"havi":12399,"buty":12400,"ANGE":12401,"merce":12402,"hot":12403,"Pale":12404,"Pablo":12405,"Weverse":12406,"Simple":12407,"Bac":12408,"1105":12409,"alist":12410,"check":12411,"same":12412,"Rivella":12413,"1301":12414,"1303":12415,"SME":12416,"SMP":12417,"PCA":12418,"Geoff":12419,"à¸¸":12420,"à¸ĩ":12421,"Nie":12422,"Ensign":12423,"âĨĳ":12424,"MP7":12425,"USD":12426,"portation":12427,"Thin":12428,"AKS":12429,"Notes":12430,"UNIQ":12431,"Audi":12432,"AVO":12433,"Jung":12434,"MIME":12435,"SOD":12436,"LEI":12437,"Runa":12438,"Rubber":12439,"cyc":12440,"CR200":12441,"reement":12442,"delle":12443,"Openstreet":12444,"NOT":12445,"RTX":12446,"EXR":12447,"Santo":12448,"HELL":12449,"Harper":12450,"LOW":12451,"Giba":12452,"Norton":12453,"Tribu":12454,"Trinity":12455,"Triumph":12456,"PPI":12457,"minus":12458,"Voya":12459,"POVM":12460,"Showtime":12461,"clef":12462,"tism":12463,"ABCD":12464,"Aniplex":12465,"Holy":12466,"Abel":12467,"PLG":12468,"zog":12469,"Books":12470,"rington":12471,"plash":12472,"Blackbear":12473,"GAZ":12474,"closed":12475,"Chase":12476,"bella":12477,"ð«Ľ":12478,"GMRES":12479,"stitution":12480,"spect":12481,"Rocky":12482,"Elisa":12483,"frag":12484,"Plane":12485,"BUM":12486,"numeric":12487,"element":12488,"Philoso":12489,"Campo":12490,"KILL":12491,"MTU":12492,"Outlook":12493,"country":12494,"chelys":12495,"karu":12496,"Gross":12497,"SHOOT":12498,"address":12499,"Treat":12500,"aggregate":12501,"Wayne":12502,"terium":12503,"Joyce":12504,"Policy":12505,"Leonardo":12506,"DLU":12507,"Beatles":12508,"sizeof":12509,"wikipedia":12510,"Without":12511,"Create":12512,"cultural":12513,"Still":12514,"Frontier":12515,"plc":12516,"Afternoon":12517,"Scale":12518,"Shock":12519,"ITV4":12520,"virtual":12521,"Sirius":12522,"BitTorrent":12523,"Taman":12524,"highlight":12525,"half":12526,"Heroes":12527,"specific":12528,"Strike":12529,"constructor":12530,"camatan":12531,"Italian":12532,"Deutsch":12533,"Matchday":12534,"court":12535,"NATO":12536,"Teddy":12537,"ð°¹¬":12538,"Mullvad":12539,"Feature":12540,"properties":12541,"Snap":12542,"quarter":12543,"Gabriel":12544,"Municipal":12545,"Leclerc":12546,"Learning":12547,"Armstrong":12548,"Synthesizer":12549,"Integrated":12550,"SEVENTEEN":12551,"hynchus":12552,"Derived":12553,"DONGKIZ":12554,"Israel":12555,"Vladimir":12556,"cedure":12557,"Lamigo":12558,"Ibrahim":12559,"SHRDLU":12560,"syntaxhighlight":12561,"Openstreetmap":12562,"019":12563,"044":12564,"059":12565,"092":12566,"2M":12567,"8A":12568,"Azi":12569,"Alu":12570,"Aka":12571,"Actor":12572,"Amar":12573,"Acid":12574,"Bump":12575,"Cu2":12576,"CMP":12577,"Clan":12578,"DW":12579,"Dow":12580,"ECO":12581,"Fas":12582,"Fir":12583,"G5":12584,"GJ":12585,"Gad":12586,"GPa":12587,"Glas":12588,"GCM":12589,"GDB":12590,"HAP":12591,"HAPP":12592,"ILL":12593,"IETF":12594,"Jak":12595,"KR":12596,"Kamp":12597,"Kyle":12598,"LJ":12599,"Mig":12600,"MCO":12601,"MIP":12602,"NW":12603,"Nx":12604,"Na2":12605,"OB":12606,"OFF":12607,"Phu":12608,"PSA":12609,"PH2":12610,"PFA":12611,"Q2":12612,"Qi":12613,"RH":12614,"R16":12615,"RNG":12616,"RAF":12617,"S9":12618,"Samp":12619,"Skin":12620,"TK":12621,"Trea":12622,"Tidal":12623,"UTA":12624,"UFS":12625,"Vari":12626,"W3":12627,"Xin":12628,"acu":12629,"acc":12630,"c1":12631,"cence":12632,"d1":12633,"dh":12634,"emp":12635,"eHow":12636,"fps":12637,"g2":12638,"gara":12639,"hir":12640,"jang":12641,"jara":12642,"kind":12643,"kina":12644,"lers":12645,"man1":12646,"men1":12647,"nou4":12648,"pc":12649,"pari":12650,"sou":12651,"ske":12652,"wl":12653,"wu":12654,"xton":12655,"yet":12656,"zor":12657,"É£":12658,"×ĳ":12659,"ë¡":12660,"ë¯":12661,"ì²":12662,"chor":12663,"hub":12664,"million":12665,"erry":12666,"gul":12667,"dir":12668,"2033":12669,"tiali":12670,"duce":12671,"moto":12672,"kul":12673,"kur":12674,"zil":12675,"nial":12676,"nifer":12677,"1048":12678,"1058":12679,"1077":12680,"1098":12681,"1084":12682,"1233":12683,"1112":12684,"1146":12685,"1164":12686,"1167":12687,"1156":12688,"pour":12689,"latt":12690,"14000":12691,"1436":12692,"1473":12693,"1322":12694,"1339":12695,"1379":12696,"1353":12697,"gebra":12698,"fork":12699,"mul":12700,"stant":12701,"ths":12702,"thin":12703,"rig":12704,"rion":12705,"teng":12706,"100m":12707,"tat":12708,"take":12709,"mage":12710,"macro":12711,"loss":12712,"too":12713,"INV":12714,"STUD":12715,"bey":12716,"SEGA":12717,"These":12718,"Rei":12719,"Rebel":12720,"Really":12721,"cipa":12722,"vivo":12723,"caster":12724,"ayan":12725,"42V":12726,"ssen":12727,"5700":12728,"Role":12729,"SAC":12730,"phal":12731,"Sty":12732,"Mechani":12733,"DeO":12734,"berger":12735,"MiG":12736,"Marce":12737,"eda":12738,"anga":12739,"9860":12740,"Allan":12741,"typen":12742,"twa":12743,"Lev":12744,"BAE":12745,"COB":12746,"Moto":12747,"Shen":12748,"Jolin":12749,"Joker":12750,"rana":12751,"100000":12752,"pathy":12753,"ACA":12754,"Section":12755,"Sexy":12756,"Rafa":12757,"Bever":12758,"ICLEI":12759,"Late":12760,"Ladies":12761,"Saga":12762,"Sung":12763,"Fav":12764,"ONT":12765,"Cami":12766,"hab":12767,"habi":12768,"Nathan":12769,"history":12770,"stack":12771,"gium":12772,"giving":12773,"Pai":12774,"Pain":12775,"Weber":12776,"wish":12777,"Bag":12778,"Baba":12779,"SSRI":12780,"common":12781,"Heath":12782,"Hai":12783,"Haven":12784,"Figu":12785,"Filip":12786,"shift":12787,"IVPP":12788,"ENS":12789,"Tap":12790,"Tawan":12791,"ALBUM":12792,"Homo":12793,"Holo":12794,"BLG":12795,"Petit":12796,"Ther":12797,"Dock":12798,"ROCm":12799,"AKA":12800,"REAPER":12801,"Carr":12802,"anie":12803,"Myki":12804,"âĪĩ":12805,"Lux":12806,"Lucy":12807,"wai":12808,"Aud":12809,"puk":12810,"CHA":12811,"July":12812,"Jules":12813,"Qual":12814,"ounced":12815,"SOI":12816,"Combi":12817,"ADP":12818,"Syd":12819,"GBU":12820,"Fei":12821,"BMC":12822,"Hikaru":12823,"zai":12824,"Kei":12825,"sylla":12826,"network":12827,"Gover":12828,"Corps":12829,"Hud":12830,"Monu":12831,"à¤ª":12832,"à¤¸":12833,"nings":12834,"ownCloud":12835,"SPEC":12836,"Bring":12837,"Santhal":12838,"orian":12839,"Barnes":12840,"within":12841,"without":12842,"EEG":12843,"Trilogy":12844,"Prison":12845,"server":12846,"12747":12847,"CLR":12848,"Fusion":12849,"Chemistry":12850,"experi":12851,"stom":12852,"Wallace":12853,"display":12854,"bital":12855,"Matters":12856,"Wars":12857,"ABB":12858,"Porter":12859,"PVC":12860,"FMEDA":12861,"Highway":12862,"UCIL":12863,"Spider":12864,"player":12865,"Atlas":12866,"ators":12867,"KBS2":12868,"EMBA":12869,"Jackie":12870,"WinZip":12871,"PyQt":12872,"TimeSignature":12873,"VOD":12874,"Ferr":12875,"SUGO":12876,"complete":12877,"Prai":12878,"Tournament":12879,"WSBL":12880,"herty":12881,"zzle":12882,"morph":12883,"Amazing":12884,"Virtua":12885,"KKday":12886,"MUK":12887,"áĢº":12888,"Horn":12889,"LonWorks":12890,"Phillip":12891,"Manager":12892,"Birth":12893,"à¹Į":12894,"Objective":12895,"Campbell":12896,"Campaign":12897,"Oscar":12898,"Passion":12899,"Sorry":12900,"Curtis":12901,"Blockberry":12902,"Grande":12903,"DiePie":12904,"Whats":12905,"Athle":12906,"printf":12907,"occur":12908,"áĥĲ":12909,"Regiment":12910,"Tanfoglio":12911,"WOWOW":12912,"Ahmed":12913,"Route":12914,"CASP":12915,"Swiss":12916,"KELT":12917,"studio":12918,"Imagin":12919,"Metropolitan":12920,"MarketAx":12921,"Wireless":12922,"Wikipedia":12923,"included":12924,"Rounds":12925,"Florence":12926,"Kitty":12927,"Messenger":12928,"âĤĤ":12929,"Builder":12930,"extra":12931,"Standards":12932,"Todd":12933,"Cookie":12934,"Safety":12935,"MakerVille":12936,"Hands":12937,"Structure":12938,"IMDB":12939,"052D":12940,"Writer":12941,"Morningstar":12942,"Industrial":12943,"medical":12944,"Adventures":12945,"Kryo":12946,"ð°¾":12947,"different":12948,"CR400BF":12949,"presentation":12950,"Alberto":12951,"âŁ¨":12952,"âŁ©":12953,"ê¸°":12954,"Blind":12955,"ëĭ¤":12956,"Minecraft":12957,"ashtanga":12958,"Scotland":12959,"PARTY":12960,"ð«ļª":12961,"Kickstarter":12962,"BizTalk":12963,"JUSTHIS":12964,"Fighter":12965,"However":12966,"Sultan":12967,"Toyota":12968,"Kuraki":12969,"Giorgio":12970,"Admiral":12971,"building":12972,"Yautja":12973,"PewDiePie":12974,"ëĮĢ":12975,"Runaway":12976,"numericTimeSignature":12977,"typename":12978,"VirtuaReal":12979,"MarketAxess":12980,"027":12981,"031":12982,"1196":12983,"1193":12984,"1187":12985,"1UP":12986,"2G":12987,"2O3":12988,"7200":12989,"8300":12990,"9200":12991,"A10":12992,"Ate":12993,"Aber":12994,"Aga":12995,"AQU":12996,"Bles":12997,"BMI":12998,"Bona":12999,"Bhar":13000,"Bc4":13001,"C20":13002,"C79":13003,"CSM":13004,"Cake":13005,"DARK":13006,"Equ":13007,"Ere":13008,"EAC":13009,"EMC":13010,"Fing":13011,"FEC":13012,"FTP":13013,"Gla":13014,"GAR":13015,"GAME":13016,"Hour":13017,"Ira":13018,"Jou":13019,"Jing":13020,"Kyi":13021,"K12":13022,"Korn":13023,"LY":13024,"Lao":13025,"M20":13026,"M14":13027,"MPa":13028,"MEN":13029,"NTV":13030,"NVS":13031,"Oak":13032,"OBS":13033,"OLE":13034,"OVER":13035,"Pz":13036,"PON":13037,"P450":13038,"Q1":13039,"Rau":13040,"RAIL":13041,"SDP":13042,"Sight":13043,"Spar":13044,"Sons":13045,"Session":13046,"TAP":13047,"Twin":13048,"UBA":13049,"Wis":13050,"WIN":13051,"WMI":13052,"WCF":13053,"WADA":13054,"XII":13055,"XHTML":13056,"Ying":13057,"Yama":13058,"Z1":13059,"Z48":13060,"ZK6":13061,"a8":13062,"act":13063,"cd":13064,"cout":13065,"d5":13066,"dak":13067,"ez":13068,"fare":13069,"festi":13070,"fMRI":13071,"glu":13072,"hm":13073,"hau":13074,"hPa":13075,"kaya":13076,"mmol":13077,"nc":13078,"ndez":13079,"ppo":13080,"rn":13081,"rr":13082,"ryo":13083,"sper":13084,"tmp":13085,"uer":13086,"wara":13087,"xs":13088,"yasa":13089,"Ã¬":13090,"ÄĲ":13091,"ÄĻ":13092,"Æ°":13093,"Éĳ":13094,"Ê°":13095,"Î®":13096,"Îĳ":13097,"×ª":13098,"Øµ":13099,"Ùī":13100,"ìĥ":13101,"ìĪ":13102,"ð©":13103,"ngen":13104,"dee":13105,"dest":13106,"dere":13107,"ento":13108,"champi":13109,"hua":13110,"mian":13111,"mier":13112,"bies":13113,"dini":13114,"dial":13115,"dilla":13116,"disease":13117,"week":13118,"2048":13119,"tite":13120,"tivo":13121,"boo":13122,"bore":13123,"bove":13124,"mov":13125,"modi":13126,"modu":13127,"church":13128,"nite":13129,"1013":13130,"1039":13131,"1068":13132,"1053":13133,"1083":13134,"quer":13135,"nville":13136,"12V":13137,"1288":13138,"1136":13139,"1169":13140,"lain":13141,"1316":13142,"1326":13143,"1331":13144,"gets":13145,"forms":13146,"24K":13147,"rule":13148,"strom":13149,"stanti":13150,"reich":13151,"meda":13152,"message":13153,"rim":13154,"rong":13155,"sibility":13156,"rale":13157,"race":13158,"sep":13159,"amy":13160,"taan":13161,"tata":13162,"matri":13163,"offer":13164,"teria":13165,"loon":13166,"loop":13167,"tolo":13168,"Mali":13169,"Madonna":13170,"Chal":13171,"Chau":13172,"STE":13173,"Include":13174,"Infinity":13175,"beck":13176,"SES":13177,"Ree":13178,"Regina":13179,"vita":13180,"cale":13181,"capa":13182,"peu":13183,"Rogers":13184,"phin":13185,"Meli":13186,"Mela":13187,"touch":13188,"until":13189,"CDRI":13190,"angu":13191,"OSCAR":13192,"BAR":13193,"COLO":13194,"Moha":13195,"Mosa":13196,"Short":13197,"manage":13198,"AMPV":13199,"BSAT":13200,"condu":13201,"contain":13202,"content":13203,"Teen":13204,"Tears":13205,"pact":13206,"NeXT":13207,"Nexon":13208,"notes":13209,"dacty":13210,"Around":13211,"Sebas":13212,"Tul":13213,"osau":13214,"Beng":13215,"enton":13216,"SoC":13217,"MAO":13218,"Caf":13219,"Bot":13220,"Pac":13221,"Papa":13222,"sode":13223,"solute":13224,"Wee":13225,"HDMI":13226,"Bab":13227,"SSH":13228,"alization":13229,"Ricky":13230,"DVB":13231,"endl":13232,"ASIA":13233,"Bugs":13234,"graci":13235,"Timothy":13236,"IVA":13237,"à¸ļ":13238,"Encyclo":13239,"crown":13240,"AIBA":13241,"USGS":13242,"Things":13243,"Doc":13244,"gnat":13245,"Networks":13246,"Schmidt":13247,"Mystery":13248,"CNS":13249,"CNET":13250,"Excel":13251,"pura":13252,"Quake":13253,"Kala":13254,"Rud":13255,"IAST":13256,"TEA":13257,"DRM":13258,"Koh":13259,"Corner":13260,"nerf":13261,"Hugh":13262,"Pub":13263,"flights":13264,"SPO":13265,"RTM":13266,"DOM":13267,"GP2":13268,"Complete":13269,"LOV":13270,"BEA":13271,"PPA":13272,"minton":13273,"Orche":13274,"Greene":13275,"CLUB":13276,"Berlin":13277,"Ful":13278,"anov":13279,"Chess":13280,"guez":13281,"predi":13282,"GOOD":13283,"GNZ48":13284,"CSX":13285,"enable":13286,"parte":13287,"ABP":13288,"PLAY":13289,"onale":13290,"Vector":13291,"SQU":13292,"Kings":13293,"Fritz":13294,"Christine":13295,"Upper":13296,"garh":13297,"placed":13298,"Civil":13299,"EF52":13300,"Chapter":13301,"announced":13302,"Centro":13303,"Minor":13304,"published":13305,"Telecom":13306,"Choco":13307,"ChoCo":13308,"league":13309,"Bella":13310,"shaw":13311,"BUG":13312,"Crime":13313,"PDW":13314,"âī¡":13315,"á¹ĥ":13316,"Strate":13317,"COMIC":13318,"Million":13319,"âĳ¢":13320,"VVV":13321,"Imperial":13322,"PTFE":13323,"Small":13324,"Beats":13325,"flag":13326,"Electro":13327,"Frog":13328,"FINA":13329,"Alter":13330,"Kirara":13331,"SONY":13332,"Artist":13333,"1080p":13334,"Spirits":13335,"Storage":13336,"Eastern":13337,"Jessica":13338,"Laurent":13339,"Namco":13340,"write":13341,"CITY":13342,"CITES":13343,"Bauer":13344,"BugBug":13345,"xcb":13346,"CRH5A":13347,"Albums":13348,"MEDLINE":13349,"Brooks":13350,"variable":13351,"CONCERT":13352,"GIRLS":13353,"aespa":13354,"education":13355,"ìŀĲ":13356,"kirche":13357,"Cheems":13358,"Schiff":13359,"CR300AF":13360,"E9E9":13361,"Gallery":13362,"therapy":13363,"plotlib":13364,"Property":13365,"received":13366,"Believe":13367,"Leadership":13368,"Libreboot":13369,"Shirley":13370,"including":13371,"bacterium":13372,"Elliott":13373,"SUMMER":13374,"geometry":13375,"COUNTDOWN":13376,"Ultimate":13377,"ìĬ¤":13378,"symbol":13379,"ENGINE":13380,"Guinness":13381,"MCBMSP":13382,"Phenom":13383,"ì£¼":13384,"ð«Ľļ":13385,"HAPPY":13386,"WhatsApp":13387,"Kyiv":13388,"NVSRAM":13389,"075":13390,"057":13391,"051":13392,"074":13393,"1da":13394,"2H":13395,"2250":13396,"2GB":13397,"3B":13398,"6300":13399,"8600":13400,"Af":13401,"Awe":13402,"Ain":13403,"Alo":13404,"Avery":13405,"Adult":13406,"Bound":13407,"CTC":13408,"CRO":13409,"Crow":13410,"Dil":13411,"D32":13412,"DAC":13413,"DIC":13414,"Dana":13415,"Eun":13416,"Esta":13417,"E130":13418,"EPS":13419,"Evo":13420,"Fau":13421,"FBC":13422,"FVP":13423,"Ging":13424,"Gly":13425,"Gent":13426,"HAL":13427,"HMC":13428,"HALL":13429,"IWI":13430,"JAS":13431,"Kao":13432,"Kwan":13433,"Kfz":13434,"LCS":13435,"M50":13436,"MAM":13437,"Mani":13438,"MRS":13439,"Mama":13440,"NZ":13441,"NDS":13442,"Nina":13443,"NSC":13444,"Nero":13445,"O5":13446,"Om":13447,"Ola":13448,"OUR":13449,"P6":13450,"PZ":13451,"Pf":13452,"Ping":13453,"PTS":13454,"Please":13455,"PTCH":13456,"Rene":13457,"Se2":13458,"Sas":13459,"SPS":13460,"TJ":13461,"TON":13462,"Tari":13463,"Tsing":13464,"TASC":13465,"UZ":13466,"USM":13467,"Von":13468,"VAD":13469,"Wig":13470,"XSD":13471,"Yer":13472,"Zach":13473,"ZARD":13474,"aq":13475,"award":13476,"b1":13477,"bt":13478,"cit":13479,"clas":13480,"cens":13481,"eX":13482,"gow":13483,"ggle":13484,"hoo":13485,"hart":13486,"held":13487,"iHeart":13488,"kJ":13489,"kl":13490,"kil":13491,"nei3":13492,"nana":13493,"oph":13494,"pton":13495,"pler":13496,"phus":13497,"swa":13498,"ume":13499,"vn":13500,"wers":13501,"why":13502,"yy":13503,"yas":13504,"Ãĩ":13505,"Ãľ":13506,"Îł":13507,"Ð¤":13508,"ÐĹ":13509,"ÑĬ":13510,"Ñį":13511,"×Ķ":13512,"à¶":13513,"ëĵ":13514,"ìĻ":13515,"íĻ":13516,"shin":13517,"short":13518,"deg":13519,"chts":13520,"yo1":13521,"hut":13522,"lind":13523,"lipp":13524,"little":13525,"mimi":13526,"mira":13527,"mies":13528,"mill":13529,"bind":13530,"gur":13531,"dino":13532,"leter":13533,"2046":13534,"tista":13535,"tilla":13536,"ticus":13537,"bolt":13538,"due":13539,"sui":13540,"mobile":13541,"nii":13542,"10W":13543,"1045":13544,"18F":13545,"1289":13546,"1296":13547,"1281":13548,"lub":13549,"1151":13550,"tun4":13551,"tula":13552,"turing":13553,"orf":13554,"lated":13555,"1354":13556,"ined":13557,"gedit":13558,"album":13559,"reli":13560,"release":13561,"remove":13562,"2222":13563,"rise":13564,"rica":13565,"rah":13566,"rak":13567,"rain":13568,"rail":13569,"ãĥ¦":13570,"sector":13571,"food":13572,"coding":13573,"loa":13574,"logo":13575,"etch":13576,"toon":13577,"INET":13578,"INAH":13579,"vehicle":13580,"Madi":13581,"Material":13582,"Inside":13583,"64BM":13584,"belie":13585,"becca":13586,"Theater":13587,"Coon":13588,"Coco":13589,"nati":13590,"cie":13591,"baum":13592,"cated":13593,"Lim":13594,"Liu":13595,"Miles":13596,"Marvel":13597,"derson":13598,"BCI":13599,"Levi":13600,"53K":13601,"Movi":13602,"Mother":13603,"Movement":13604,"Viktor":13605,"mania":13606,"Joan":13607,"conds":13608,"page":13609,"daf":13610,"Stat":13611,"Secure":13612,"Seasons":13613,"Rapid":13614,"Rahman":13615,"nung":13616,"Being":13617,"opsis":13618,"ICEF":13619,"Save":13620,"sons":13621,"Solutions":13622,"Sumo":13623,"Faculty":13624,"route":13625,"Catherine":13626,"Nata":13627,"Naval":13628,"hide":13629,"Much":13630,"Ans":13631,"ITER":13632,"comb":13633,"chei":13634,"byte":13635,"iller":13636,"illon":13637,"said":13638,"SMN":13639,"Hae":13640,"kawas":13641,"kawaii":13642,"Tibet":13643,"à¸ķ":13644,"mmar":13645,"Nigel":13646,"BLO":13647,"BLITZ":13648,"Pete":13649,"MPA":13650,"AIK":13651,"anthus":13652,"porter":13653,"Thing":13654,"Scha":13655,"KiH":13656,"KiRo":13657,"Node":13658,"MyVideo":13659,"CPAP":13660,"UNICEF":13661,"myces":13662,"Luc":13663,"Audition":13664,"Excell":13665,"Exhibition":13666,"Phra":13667,"NewJeans":13668,"AVN":13669,"Julian":13670,"Kappa":13671,"CCC":13672,"LEE":13673,"LEO":13674,"BOYS":13675,"Commerce":13676,"IGM":13677,"IANA":13678,"jection":13679,"zeu":13680,"Advis":13681,"BMNH":13682,"tella":13683,"OpenNIC":13684,"Koch":13685,"nette":13686,"Mona":13687,"java":13688,"à¤¯":13689,"LLM":13690,"Wadi":13691,"Bristol":13692,"orie":13693,"Giu":13694,"Giant":13695,"NH3":13696,"PPPo":13697,"minary":13698,"Trail":13699,"Tracker":13700,"VoLTE":13701,"still":13702,"CLC":13703,"SHISH":13704,"eroy":13705,"tens":13706,"trie":13707,"ãĦ¨":13708,"HCl":13709,"disc":13710,"VAX":13711,"DDK":13712,"KPL":13713,"Matter":13714,"xygen":13715,"AllMusic":13716,"Warner":13717,"party":13718,"ABBA":13719,"Webb":13720,"rations":13721,"mington":13722,"Brother":13723,"SKT":13724,"SKY":13725,"Peters":13726,"FOMA":13727,"UT1":13728,"organi":13729,"Record":13730,"Alexand":13731,"young":13732,"Shift":13733,"Shining":13734,"LTM":13735,"NEO":13736,"fried":13737,"frastructure":13738,"Richardson":13739,"Massa":13740,"Freak":13741,"Emper":13742,"Transform":13743,"varman":13744,"ìĿ¸":13745,"sortium":13746,"Cameron":13747,"Cambridge":13748,"kinson":13749,"ðĲİ":13750,"Early":13751,"Gambas":13752,"CVT":13753,"Invi":13754,"Investi":13755,"à¥Ģ":13756,"HTML5":13757,"apple":13758,"Edwards":13759,"tastic":13760,"Signal":13761,"Watson":13762,"Queendo":13763,"paten":13764,"normal":13765,"DLSS":13766,"Phoeni":13767,"DMSO":13768,"Amir":13769,"Olivia":13770,"Darkness":13771,"KinKi":13772,"strel":13773,"WORD":13774,"Honor":13775,"Honoura":13776,"PBPK":13777,"Badminton":13778,"0x5":13779,"Lamb":13780,"mediate":13781,"EGFR":13782,"Half":13783,"bourne":13784,"Krish":13785,"Retro":13786,"Roll":13787,"cularia":13788,"shanensis":13789,"Economics":13790,"Nancy":13791,"Quake3":13792,"Abdullah":13793,"Leopold":13794,"Gonza":13795,"Stern":13796,"Wolfgang":13797,"window":13798,"MICH":13799,"Random":13800,"general":13801,"girls":13802,"Experience":13803,"Zhang":13804,"KiiiKiii":13805,"FREE":13806,"Fernando":13807,"LMP1":13808,"Feedly":13809,"Astrono":13810,"Paolo":13811,"B8L":13812,"à§į":13813,"Arkane":13814,"Species":13815,"square":13816,"Dangerous":13817,"Verizon":13818,"Jorge":13819,"src":13820,"required":13821,"Conservation":13822,"Thomson":13823,"Bryan":13824,"Gardner":13825,"Pitchfork":13826,"ð¨¥":13827,"Canonical":13828,"Laboratory":13829,"Boeing":13830,"IUPAC":13831,"Kabupaten":13832,"Destiny":13833,"advanced":13834,"STUDIO":13835,"Hudson":13836,"SUGOCA":13837,"matrix":13838,"Mosaic":13839,"gracilis":13840,"SHISHAMO":13841,"Queendom":13842,"Honourable":13843,"064":13844,"063":13845,"089":13846,"072":13847,"1s":13848,"2187":13849,"3E":13850,"4S":13851,"4th":13852,"6LX":13853,"Amo":13854,"Amp":13855,"Aya":13856,"Att":13857,"Bark":13858,"C11":13859,"CIS":13860,"CTO":13861,"DLE":13862,"DIG":13863,"D3D":13864,"Ei":13865,"Et":13866,"Era":13867,"EAN":13868,"Edit":13869,"ESET":13870,"Fel":13871,"FIS":13872,"FSS":13873,"GX":13874,"Gone":13875,"Gara":13876,"H7":13877,"HTV":13878,"Hak":13879,"Hass":13880,"Hoff":13881,"Icon":13882,"IMP":13883,"Ivy":13884,"Jig":13885,"KY":13886,"KAT":13887,"Kaki":13888,"Ln":13889,"LIT":13890,"LTR":13891,"LINK":13892,"M18":13893,"Mint":13894,"MNH":13895,"Mass":13896,"Nin":13897,"Nine":13898,"NBL":13899,"O6":13900,"O7":13901,"OX":13902,"Oil":13903,"OIC":13904,"Ohi":13905,"PIN":13906,"Pow":13907,"Pir":13908,"Pok":13909,"PUA":13910,"PUSH":13911,"Q6":13912,"QAM":13913,"RST":13914,"RAR":13915,"SJ":13916,"Sit":13917,"SMA":13918,"SIP":13919,"Ska":13920,"SBD":13921,"Tc":13922,"TGM":13923,"Tetra":13924,"Vig":13925,"VAN":13926,"Wed":13927,"WBC":13928,"XV":13929,"Z4":13930,"acade":13931,"bly":13932,"bari":13933,"bene":13934,"css":13935,"cera":13936,"dding":13937,"eBay":13938,"eMule":13939,"f3":13940,"gen2":13941,"ghan":13942,"gore":13943,"gold":13944,"hang":13945,"iv":13946,"iz":13947,"identi":13948,"kla":13949,"kok":13950,"kker":13951,"know":13952,"lou":13953,"mals":13954,"nders":13955,"och":13956,"plu":13957,"pseudo":13958,"r4":13959,"rina":13960,"sq":13961,"tRNA":13962,"vu":13963,"vus":13964,"wx":13965,"winter":13966,"wski":13967,"x64":13968,"yr":13969,"yx":13970,"zers":13971,"Åĵ":13972,"ÊĤ":13973,"Ìį":13974,"Ñİ":13975,"à·":13976,"àº":13977,"â¾":13978,"ë©":13979,"ëĬ":13980,"ngle":13981,"anto":13982,"antha":13983,"sham":13984,"shine":13985,"shot":13986,"deter":13987,"deus":13988,"ention":13989,"uous":13990,"yone":13991,"yout":13992,"lii":13993,"lie3":13994,"lima":13995,"libre":13996,"pina":13997,"sume":13998,"1029":13999,"1038":14000,"1064":14001,"1041":14002,"1052":14003,"1074":14004,"1092":14005,"mension":14006,"quency":14007,"11Z":14008,"1165":14009,"1144":14010,"pong":14011,"pomo":14012,"lazy":14013,"arin":14014,"1318":14015,"1311":14016,"inha":14017,"mura":14018,"stay":14019,"resi":14020,"recur":14021,"recogni":14022,"mela":14023,"ï¼£":14024,"ï¼¯":14025,"ï¼ĸ":14026,"siw":14027,"seseo":14028,"100km":14029,"ãģ¼":14030,"cope":14031,"coming":14032,"copy":14033,"lose":14034,"andler":14035,"cko":14036,"etc":14037,"3750":14038,"tom":14039,"token":14040,"asse":14041,"asana":14042,"owa":14043,"Mae":14044,"Mash":14045,"Mada":14046,"Machi":14047,"Macross":14048,"Chel":14049,"Chance":14050,"STO":14051,"Int":14052,"64GB":14053,"Reve":14054,"Release":14055,"Rebecca":14056,"cion":14057,"ciple":14058,"cident":14059,"bag":14060,"vii":14061,"pez":14062,"pect":14063,"peak":14064,"59A":14065,"Rome":14066,"Rogue":14067,"phia":14068,"Listen":14069,"Mexi":14070,"Desi":14071,"Depu":14072,"7700":14073,"persky":14074,"Lecture":14075,"BAD":14076,"BAND":14077,"COR":14078,"Vice":14079,"AMN":14080,"ARIN":14081,"note":14082,"Ars":14083,"Argen":14084,"Sey":14085,"Seat":14086,"Selection":14087,"gaard":14088,"five":14089,"Laz":14090,"Label":14091,"Sav":14092,"Lot":14093,"Som":14094,"Sock":14095,"Solid":14096,"Sobol":14097,"Supre":14098,"Sumade":14099,"Daw":14100,"Fame":14101,"Fabri":14102,"dog":14103,"Diver":14104,"Capri":14105,"Casio":14106,"hain":14107,"pply":14108,"mera":14109,"holo":14110,"Bach":14111,"satellite":14112,"Rising":14113,"SMS":14114,"PCB":14115,"Heat":14116,"Hash":14117,"Configuration":14118,"ETA":14119,"Tales":14120,"ECS":14121,"MSN":14122,"Steel":14123,"MPLS":14124,"Toys":14125,"yava":14126,"Pick":14127,"Threads":14128,"Doherty":14129,"Formosa":14130,"REFL":14131,"problem":14132,"Cars":14133,"Schwei":14134,"Novel":14135,"Exping":14136,"CH4":14137,"TAIN":14138,"Kaz":14139,"BOY":14140,"Competi":14141,"ADD":14142,"ADL":14143,"Guilla":14144,"ESB":14145,"rond":14146,"1186":14147,"OpenCritic":14148,"ATP500":14149,"ATP250":14150,"Koha":14151,"linear":14152,"loway":14153,"gher":14154,"Hugo":14155,"Monta":14156,"Stur":14157,"à¤Ĺ":14158,"dys":14159,"Wales":14160,"Britain":14161,"Mano":14162,"veland":14163,"primary":14164,"Harmo":14165,"CESS":14166,"NH4":14167,"NHMUK":14168,"PPD":14169,"SCSI":14170,"blio":14171,"Graf":14172,"Orni":14173,"Tram":14174,"Davichi":14175,"128GB":14176,"strate":14177,"POW":14178,"Cheer":14179,"triple":14180,"Donut":14181,"Walking":14182,"RC5":14183,"Portu":14184,"Airlines":14185,"IRAL":14186,"MGH":14187,"Benz":14188,"Hyde":14189,"MBT":14190,"Bloom":14191,"TPU":14192,"Friday":14193,"Product":14194,"Pattab":14195,"Cider":14196,"Technical":14197,"Cevio":14198,"Garcia":14199,"Teresa":14200,"ifconfig":14201,"issan":14202,"spacecraft":14203,"WinWin":14204,"Alexa":14205,"SF2":14206,"B2B":14207,"companies":14208,"BRB":14209,"signs":14210,"signal":14211,"borg":14212,"PASS":14213,"Goodbye":14214,"CTU":14215,"GTK":14216,"Foster":14217,"Focus":14218,"PRISM":14219,"dinary":14220,"frac":14221,"Turn":14222,"shape":14223,"Boris":14224,"cillus":14225,"VRDK":14226,"Galli":14227,"Respon":14228,"MUD":14229,"Scope":14230,"khof":14231,"áĢ¯":14232,"surface":14233,"joy":14234,"Shaw":14235,"union":14236,"á¹ĩ":14237,"JTB":14238,"SHOCK":14239,"Watcha":14240,"âĭħ":14241,"Overture":14242,"hrer":14243,"ddle":14244,"Dollar":14245,"castle":14246,"hello":14247,"Arab":14248,"CBT":14249,"IBNS":14250,"charge":14251,"techni":14252,"Router":14253,"Hunt":14254,"Communication":14255,"Since":14256,"Township":14257,"study":14258,"PostScript":14259,"Baseball":14260,"Dynamic":14261,"Allison":14262,"Jersey":14263,"Thank":14264,"Better":14265,"terature":14266,"Seventeen":14267,"templatestyles":14268,"exten":14269,"Roland":14270,"Shuttle":14271,"polymer":14272,"production":14273,"defeating":14274,"scienti":14275,"Dinosa":14276,"Gott":14277,"Heinz":14278,"engine":14279,"ìĦ±":14280,"became":14281,"âĬĨ":14282,"Editor":14283,"XYZ":14284,"Electronics":14285,"Ayyava":14286,"Infant":14287,"Regular":14288,"Lynn":14289,"Majlis":14290,"Cherry":14291,"sequence":14292,"Kaspersky":14293,"Pearson":14294,"Oreo":14295,"ITZY":14296,"xmlns":14297,"Certified":14298,"êµŃ":14299,"Pelkey":14300,"component":14301,"effect":14302,"font":14303,"fascia":14304,"Lilith":14305,"Pulse":14306,"Reserve":14307,"Trouble":14308,"November":14309,"Administration":14310,"japonica":14311,"YONEX":14312,"Zimmer":14313,"formosana":14314,"Columbia":14315,"Enrique":14316,"Derek":14317,"flora":14318,"ï»¿":14319,"Amend":14320,"CR200J":14321,"Elisabeth":14322,"SHOOTER":14323,"Jakob":14324,"Sydney":14325,"SPECIAL":14326,"gnathus":14327,"Orchestra":14328,"Coonley":14329,"Pattabhi":14330,"068":14331,"071":14332,"1C":14333,"2P":14334,"4100":14335,"7300":14336,"8400":14337,"Ach":14338,"Asa":14339,"ASM":14340,"Bere":14341,"BPM":14342,"Brun":14343,"Brough":14344,"Cd":14345,"C17":14346,"C24":14347,"CSA":14348,"Cun":14349,"Cari":14350,"D8":14351,"DTC":14352,"DAN":14353,"Dod":14354,"DBE":14355,"Drum":14356,"Doro":14357,"EH":14358,"Emo":14359,"Ela":14360,"Eight":14361,"EWS":14362,"FNA":14363,"FAR":14364,"Foun":14365,"Gan":14366,"G41":14367,"Glor":14368,"Hf":14369,"Hr":14370,"Hof":14371,"HIP":14372,"HSS":14373,"Hari":14374,"Hook":14375,"Iterator":14376,"JED":14377,"Kt":14378,"Kro":14379,"KST":14380,"Kry":14381,"KAN":14382,"K101":14383,"Kane":14384,"Klaus":14385,"L3":14386,"LAC":14387,"Lance":14388,"Lens":14389,"MQ":14390,"Mt":14391,"MAP":14392,"MER":14393,"MSM":14394,"M1917":14395,"MTA":14396,"Mental":14397,"Ngu":14398,"Nc3":14399,"Oz":14400,"RJ":14401,"R11":14402,"Rel":14403,"Rum":14404,"REC":14405,"Rous":14406,"Sed":14407,"Seri":14408,"SWE":14409,"Try":14410,"TWh":14411,"T3A":14412,"TLS":14413,"TUNES":14414,"Um":14415,"Utri":14416,"V60":14417,"VIA":14418,"Vera":14419,"Witch":14420,"WASP":14421,"X3":14422,"YY":14423,"Z3":14424,"ZF":14425,"aver":14426,"b8":14427,"bbe":14428,"dark":14429,"dora":14430,"egel":14431,"fau":14432,"gay":14433,"gwick":14434,"hlen":14435,"ip":14436,"imi":14437,"itu":14438,"iKON":14439,"kN":14440,"kos":14441,"kine":14442,"nter":14443,"nat":14444,"nya":14445,"oi":14446,"ocy":14447,"sound":14448,"txt":14449,"v3":14450,"vot":14451,"wc":14452,"yama":14453,"zons":14454,"Â¹":14455,"Âº":14456,"Å½":14457,"Ð¦":14458,"Õµ":14459,"shall":14460,"xie":14461,"dend":14462,"development":14463,"develo":14464,"enig":14465,"ening":14466,"enia":14467,"hum":14468,"lift":14469,"miRNA":14470,"bill":14471,"gua":14472,"gung":14473,"dich":14474,"died":14475,"lepis":14476,"2036":14477,"piter":14478,"pilot":14479,"tili":14480,"tiva":14481,"tienne":14482,"bone":14483,"duk":14484,"suit":14485,"suchus":14486,"moi":14487,"mole":14488,"moon":14489,"nine":14490,"10th":14491,"1026":14492,"1079":14493,"1082":14494,"1269":14495,"lund":14496,"1159":14497,"1163":14498,"pod":14499,"pou":14500,"tually":14501,"orang":14502,"lag":14503,"lago":14504,"aring":14505,"1463":14506,"1342":14507,"inson":14508,"geo":14509,"forming":14510,"alter":14511,"stop":14512,"stler":14513,"threads":14514,"retrie":14515,"ricum":14516,"ï¼ĺ":14517,"zum":14518,"zur":14519,"sid":14520,"sip":14521,"sien":14522,"sini":14523,"racy":14524,"sei":14525,"seda":14526,"ambi":14527,"tate":14528,"tact":14529,"ãģľ":14530,"mau":14531,"mach":14532,"mata":14533,"macula":14534,"nee":14535,"illu":14536,"illy":14537,"theorem":14538,"attribu":14539,"atops":14540,"ckle":14541,"etz":14542,"Male":14543,"Insurance":14544,"began":14545,"Their":14546,"Copy":14547,"Reid":14548,"Reality":14549,"nap":14550,"naya":14551,"ads":14552,"adows":14553,"bry":14554,"ndy":14555,"6700":14556,"vidence":14557,"cali":14558,"ATV":14559,"uron":14560,"auts":14561,"Meet":14562,"Method":14563,"Deck":14564,"NAVER":14565,"Mikha":14566,"Martha":14567,"OSD":14568,"OSPF":14569,"Alb":14570,"Allo":14571,"types":14572,"Leary":14573,"53E":14574,"Moment":14575,"Monica":14576,"Motif":14577,"Vivi":14578,"ryso":14579,"pag":14580,"dacity":14581,"Rag":14582,"ISN":14583,"filt":14584,"EDITION":14585,"Jaguar":14586,"Beth":14587,"Beit":14588,"Saw":14589,"Lowe":14590,"Fast":14591,"does":14592,"Cath":14593,"Cata":14594,"Naz":14595,"Natura":14596,"ANT":14597,"Boston":14598,"mero":14599,"hong":14600,"gian":14601,"gift":14602,"soci":14603,"Wein":14604,"Sisters":14605,"wire":14606,"steri":14607,"ffen":14608,"1306":14609,"SMART":14610,"Hav":14611,"Contra":14612,"Contents":14613,"Consortium":14614,"Bukit":14615,"Tian":14616,"feel":14617,"Taku":14618,"à¸«":14619,"Peer":14620,"Stella":14621,"Tools":14622,"Tomorrow":14623,"Words":14624,"Domen":14625,"Does":14626,"Schlatt":14627,"Novo":14628,"Mys":14629,"UNIVER":14630,"FCS":14631,"âĦ¢":14632,"Authority":14633,"Audacity":14634,"Phar":14635,"CHI":14636,"ount":14637,"MORE":14638,"MOVE":14639,"kova":14640,"MIM":14641,"SOV":14642,"SOUND":14643,"LESS":14644,"cyto":14645,"Fear":14646,"TEU":14647,"Adolf":14648,"1182":14649,"DAHL":14650,"OpenCL":14651,"OpenSolaris":14652,"HOY":14653,"ATP1000":14654,"Kecamatan":14655,"Kepler":14656,"Hung":14657,"jah":14658,"à¤ķ":14659,"NOC":14660,"Durate":14661,"Dutch":14662,"EXE":14663,"MLS":14664,"DOME":14665,"Jeep":14666,"MacBook":14667,"Edgar":14668,"Willis":14669,"turns":14670,"Gian":14671,"Grade":14672,"Gravity":14673,"sert":14674,"Orien":14675,"quez":14676,"quest":14677,"GameSpy":14678,"GameRankings":14679,"Berkhof":14680,"Mora":14681,"another":14682,"senschaft":14683,"mbar":14684,"McKen":14685,"WTA250":14686,"HCV":14687,"Whis":14688,"AFS":14689,"AFT":14690,"Matrix":14691,"cargo":14692,"AllStar":14693,"Canyon":14694,"MG34":14695,"Engel":14696,"Henderson":14697,"Hypo":14698,"Bloo":14699,"TPMT":14700,"astrome":14701,"crete":14702,"Christi":14703,"Eleanor":14704,"ganis":14705,"RAID":14706,"HIRO":14707,"CASE":14708,"256GB":14709,"M2A4":14710,"ð«Ħ":14711,"ð«ĵ":14712,"Angular":14713,"GMT":14714,"speed":14715,"Torre":14716,"Burger":14717,"Burns":14718,"Singles":14719,"Officer":14720,"Gerard":14721,"Prada":14722,"Chong":14723,"PRIN":14724,"2186":14725,"Borland":14726,"Criminal":14727,"XPCOM":14728,"VMware":14729,"Penn":14730,"subject":14731,"Zion":14732,"Janus":14733,"Fraser":14734,"Philips":14735,"Birds":14736,"GRAIL":14737,"CVS":14738,"Ballad":14739,"better":14740,"hurst":14741,"Lancer":14742,"Polygon":14743,"Capcon":14744,"Curry":14745,"Currie":14746,"pression":14747,"Jenkins":14748,"Climate":14749,"Denis":14750,"patch":14751,"transport":14752,"Circuit":14753,"Close":14754,"help":14755,"Political":14756,"featuring":14757,"Nicole":14758,"Cosmic":14759,"Setting":14760,"minate":14761,"Coup":14762,"Kinder":14763,"Distribution":14764,"Augus":14765,"ðĲŃł":14766,"aceae":14767,"plane":14768,"Duncan":14769,"85512":14770,"Clarke":14771,"Message":14772,"folk":14773,"Montju":14774,"Medal":14775,"PCIe":14776,"Varia":14777,"Somewhere":14778,"RBW":14779,"TestB":14780,"Memories":14781,"Basin":14782,"Killer":14783,"Applications":14784,"Jesse":14785,"Erik":14786,"Liberty":14787,"Liberation":14788,"Dallas":14789,"Neuro":14790,"Linda":14791,"RSASS":14792,"Kurt":14793,"Sharon":14794,"CAPCOM":14795,"SocketFD":14796,"âĬĹ":14797,"capsu":14798,"Sidney":14799,"finition":14800,"hydroxy":14801,"Isaac":14802,"Simmons":14803,"Numbers":14804,"Task":14805,"gged":14806,"ê¸Ģ":14807,"Delicious":14808,"Radical":14809,"Assault":14810,"Adela":14811,"ìĺ¤":14812,"MOMOLAND":14813,"measure":14814,"Indiana":14815,"Historical":14816,"Fischer":14817,"ìĸ´":14818,"Commander":14819,"Glory":14820,"Warriors":14821,"Physics":14822,"associa":14823,"Environment":14824,"Lorenzo":14825,"HOLBORN":14826,"SINGLE":14827,"Mohammed":14828,"Celebri":14829,"Character":14830,"physical":14831,"Giacomo":14832,"MIDI":14833,"coordinates":14834,"Baptiste":14835,"Nichol":14836,"Spoonz":14837,"TOGAF":14838,"ENTERTAIN":14839,"ARTSVISION":14840,"butyricum":14841,"Voyage":14842,"ë¡ľ":14843,"Figure":14844,"Audrey":14845,"Mohamed":14846,"Gentle":14847,"swap":14848,"PPPoE":14849,"Emperor":14850,"Deputy":14851,"REFLECTION":14852,"Ayyavazhi":14853,"Utricularia":14854,"DAHLIA":14855,"Duratec":14856,"ENTERTAINMENT":14857,"038":14858,"095":14859,"0641":14860,"1188":14861,"2185":14862,"2H2O":14863,"4GB":14864,"7R":14865,"A27":14866,"Abe":14867,"ASA":14868,"ABL":14869,"Asy":14870,"AWS":14871,"ADSL":14872,"Amuse":14873,"Buo":14874,"Bard":14875,"BMA":14876,"Bha":14877,"BTO":14878,"BTS":14879,"Bass":14880,"Bhd":14881,"CTV":14882,"Cly":14883,"CEN":14884,"Cald":14885,"DBC":14886,"Droid":14887,"DNF":14888,"EW":14889,"Eh":14890,"E40":14891,"Ene":14892,"Emp":14893,"Evil":14894,"Fig":14895,"Fara":14896,"Fant":14897,"Fans":14898,"FPGA":14899,"Gb":14900,"Gao":14901,"GMP":14902,"Gbit":14903,"H14":14904,"Hend":14905,"Hmm":14906,"Heri":14907,"Hold":14908,"HMG":14909,"Hits":14910,"HONG":14911,"Ib":14912,"Iran":14913,"IMS":14914,"Item":14915,"Jero":14916,"Jess":14917,"JECT":14918,"K5":14919,"K7":14920,"K8":14921,"K15":14922,"Kau":14923,"Knu":14924,"KAI":14925,"KBE":14926,"K232":14927,"K308":14928,"KISS":14929,"LLE":14930,"Lys":14931,"Lunch":14932,"M1911":14933,"MCP":14934,"MISL":14935,"NII":14936,"Nvi":14937,"Nau":14938,"ORO":14939,"OCP":14940,"Pv":14941,"P15":14942,"Pis":14943,"PME":14944,"Pren":14945,"PABP":14946,"RL":14947,"RIF":14948,"Rama":14949,"RPM":14950,"SIX":14951,"Sally":14952,"Slate":14953,"SATA":14954,"Slot":14955,"Till":14956,"TMS":14957,"VJ":14958,"Vau":14959,"W52":14960,"WAP":14961,"Wake":14962,"Wendy":14963,"WITH":14964,"YR":14965,"Yao":14966,"Yar":14967,"Yum":14968,"YLE":14969,"Zr":14970,"bao":14971,"bling":14972,"cv":14973,"clay":14974,"cari":14975,"cena":14976,"dana":14977,"dance":14978,"ec":14979,"eva":14980,"eye":14981,"fru":14982,"fine":14983,"gine":14984,"gby":14985,"gory":14986,"ggy":14987,"hour":14988,"kw":14989,"kam":14990,"kau":14991,"mba":14992,"mari":14993,"pou2":14994,"ptive":14995,"rhyth":14996,"tone":14997,"vani":14998,"wild":14999,"yen":15000,"yar":15001,"zd":15002,"Ãĺ":15003,"Ãŀ":15004,"Å©":15005,"ÆĴ":15006,"Ê»":15007,"ÎŁ":15008,"Ð§":15009,"ÖĢ":15010,"à¾":15011,"âķ":15012,"ì°":15013,"ð¥":15014,"ngensis":15015,"demon":15016,"deuts":15017,"cha3":15018,"chka":15019,"lite":15020,"mith":15021,"qiang4":15022,"err":15023,"wes":15024,"leg":15025,"jum":15026,"pipe":15027,"tiz":15028,"tino":15029,"tika":15030,"tisti":15031,"dua":15032,"dula":15033,"mori":15034,"kup":15035,"lves":15036,"1043":15037,"1081":15038,"quir":15039,"cult":15040,"1153":15041,"porium":15042,"turi":15043,"ores":15044,"labo":15045,"lato":15046,"lava":15047,"1319":15048,"1315":15049,"geme":15050,"fora":15051,"formis":15052,"mut":15053,"stral":15054,"2350":15055,"mulator":15056,"thra":15057,"think":15058,"rection":15059,"means":15060,"ousen":15061,"rill":15062,"ï¼Ķ":15063,"0002":15064,"tei":15065,"tet":15066,"teach":15067,"raw":15068,"security":15069,"several":15070,"colum":15071,"elsen":15072,"mated":15073,"magazine":15074,"terson":15075,"terms":15076,"thesis":15077,"hee":15078,"atory":15079,"oly":15080,"32GB":15081,"Inspi":15082,"beau":15083,"SECL":15084,"Comi":15085,"Covid":15086,"4900":15087,"Revo":15088,"Replay":15089,"nad":15090,"nate":15091,"names":15092,"adal":15093,"ndo":15094,"baba":15095,"3001":15096,"pee":15097,"peta":15098,"Rovio":15099,"Rozas":15100,"php":15101,"phon":15102,"indo":15103,"Liz":15104,"Lips":15105,"Dec":15106,"Devi":15107,"Mich":15108,"Marina":15109,"Marcel":15110,"ï½¡":15111,"BCR":15112,"BASE":15113,"tsa":15114,"Motion":15115,"Molina":15116,"Viet":15117,"Viva":15118,"AMI":15119,"Joa":15120,"Jong":15121,"BSP":15122,"Process":15123,"Proleague":15124,"7600":15125,"concer":15126,"paid":15127,"dation":15128,"Arms":15129,"ACK":15130,"Sect":15131,"Season":15132,"vain":15133,"fia":15134,"Bei":15135,"Beast":15136,"ently":15137,"80000":15138,"Laf":15139,"Lala":15140,"Sale":15141,"Sainte":15142,"9700":15143,"Date":15144,"Father":15145,"dot":15146,"docomo":15147,"Dior":15148,"Divi":15149,"Nagar":15150,"bull":15151,"ppel":15152,"ANY":15153,"mere":15154,"Annie":15155,"Papi":15156,"soli":15157,"sola":15158,"social":15159,"Size":15160,"SiO2":15161,"SSB":15162,"ITED":15163,"bytes":15164,"saf":15165,"SMG":15166,"Heyo":15167,"endra":15168,"Constru":15169,"Connor":15170,"Conrad":15171,"Wish":15172,"Buenos":15173,"Bureau":15174,"shima":15175,"Gecko":15176,"à¸Ĺ":15177,"ALn":15178,"HKU":15179,"Enum":15180,"MPK":15181,"Toon":15182,"goni":15183,"Pom":15184,"gner":15185,"Carver":15186,"Kiev":15187,"MySpace":15188,"Myself":15189,"vention":15190,"wagen":15191,"Auth":15192,"External":15193,"push":15194,"puri":15195,"Newrite":15196,"Quest":15197,"MOA":15198,"kovi":15199,"SOA":15200,"SOFT":15201,"Commu":15202,"IGP":15203,"cribed":15204,"Colon":15205,"DC600V":15206,"ESI":15207,"DRS":15208,"OpenEXR":15209,"tinction":15210,"MCU":15211,"cluster":15212,"Corn":15213,"Monster":15214,"gery":15215,"lask":15216,"lastic":15217,"RTS":15218,"Santi":15219,"orial":15220,"DOALA":15221,"HEY":15222,"HEART":15223,"beginning":15224,"turer":15225,"BEV":15226,"BEAT":15227,"minster":15228,"MDB":15229,"Gram":15230,"Tracy":15231,"Vox":15232,"CLAN":15233,"Morph":15234,"stria":15235,"straat":15236,"singles":15237,"McCan":15238,"Georgia":15239,"WTA500":15240,"Unter":15241,"acfun":15242,"pread":15243,"Ask":15244,"DDI":15245,"Cl3":15246,"Herzog":15247,"Porsche":15248,"Holding":15249,"Speech":15250,"Abdel":15251,"Hydra":15252,"PLANET":15253,"hyper":15254,"creation":15255,"IUAV":15256,"Plate":15257,"Frie":15258,"Elements":15259,"Atara":15260,"DFT":15261,"Garrett":15262,"Terminal":15263,"Chap":15264,"setz":15265,"adain":15266,"PowerBook":15267,"ð«Ķ":15268,"Winnie":15269,"Alphabet":15270,"VOL":15271,"SF3":15272,"SFX":15273,"Popu":15274,"Yuri":15275,"Sunny":15276,"Choerry":15277,"PRPP":15278,"Zealand":15279,"operation":15280,"Maxwell":15281,"Hannah":15282,"fully":15283,"KKA":15284,"BFG":15285,"Transformer":15286,"Siren":15287,"Museo":15288,"Shape":15289,"gress":15290,"Champions":15291,"Br2":15292,"DK1":15293,"Codex":15294,"Dylan":15295,"GRAPH":15296,"âĳ£":15297,"period":15298,"FAT16":15299,"RPGFan":15300,"bench":15301,"____":15302,"Sigma":15303,"Paramount":15304,"CUDA":15305,"Gillian":15306,"Automatic":15307,"Jenny":15308,"Jennifer":15309,"Bond":15310,"ULAS":15311,"blog":15312,"init":15313,"AXA":15314,"Dolce":15315,"Grill":15316,"Clopin":15317,"feature":15318,"Course":15319,"technical":15320,"Murder":15321,"casting":15322,"posium":15323,"Memory":15324,"Couch":15325,"cells":15326,"elonga":15327,"FIRE":15328,"Skousen":15329,"includeonly":15330,"XC40":15331,"Marion":15332,"NIH":15333,"Toll":15334,"Betty":15335,"Between":15336,"TOKIO":15337,"Angels":15338,"Krist":15339,"Mirror":15340,"Apollo":15341,"KTX":15342,"product":15343,"QUAKE":15344,"Felipe":15345,"glise":15346,"Sterling":15347,"Africa":15348,"chinensis":15349,"Architects":15350,"electro":15351,"ð¬ĵĳ":15352,"nationale":15353,"GP40PH":15354,"Knowledge":15355,"particular":15356,"course":15357,"FIRA":15358,"cauda":15359,"Korean":15360,"Whitney":15361,"RIAA":15362,"Phase":15363,"standard":15364,"changed":15365,"crystal":15366,"village":15367,"Glenn":15368,"Scorpio":15369,"Address":15370,"LGBTQIA":15371,"ëŀĺ":15372,"Quantum":15373,"Robertson":15374,"components":15375,"Nimtz":15376,"Rootkit":15377,"heimer":15378,"Insider":15379,"Scientific":15380,"FTTH":15381,"STORY":15382,"Catalogue":15383,"temporary":15384,"Ditto":15385,"CpG":15386,"success":15387,"EGOIST":15388,"STAFF":15389,"Glasgow":15390,"INVECS":15391,"Favori":15392,"Imagination":15393,"Bharat":15394,"PzB":15395,"management":15396,"PubMed":15397,"SQUARE":15398,"MRSWS":15399,"Kakitaan":15400,"Supreme":15401,"JEDEC":15402,"sedamo":15403,"Nvidia":15404,"079":15405,"076":15406,"096":15407,"1K":15408,"1R":15409,"4WD":15410,"5V":15411,"6G":15412,"8100":15413,"9A":15414,"Aa":15415,"Ame":15416,"Aes":15417,"A95":15418,"Amber":15419,"Alvin":15420,"B0":15421,"Bj":15422,"Bl":15423,"B10":15424,"BON":15425,"Bok":15426,"Bare":15427,"Cay":15428,"CMA":15429,"CIP":15430,"CEST":15431,"Cim":15432,"Clip":15433,"Dad":15434,"Dus":15435,"DTV":15436,"DBA":15437,"Dell":15438,"DAV":15439,"DENCE":15440,"Ein":15441,"Ena":15442,"Egy":15443,"Edie":15444,"EEPROM":15445,"Elena":15446,"F8":15447,"FH":15448,"Fli":15449,"Find":15450,"Fang":15451,"FAS":15452,"FAL":15453,"Feld":15454,"Flight":15455,"GV":15456,"Gel":15457,"GIA":15458,"GCS":15459,"GDF":15460,"GEM":15461,"H11":15462,"Hamp":15463,"Hod":15464,"HBL":15465,"HHT":15466,"HYP":15467,"IY":15468,"Iu":15469,"ISE":15470,"IMA":15471,"JF":15472,"Jis":15473,"J300":15474,"JET":15475,"Jaya":15476,"J1120":15477,"Kp":15478,"Kni":15479,"Kad":15480,"KIC":15481,"Kot":15482,"KBM":15483,"Lamp":15484,"Lak":15485,"LTA":15486,"LCR":15487,"Ligh":15488,"LHC":15489,"Lights":15490,"Mb":15491,"M198":15492,"M13":15493,"Mam":15494,"M32":15495,"MBS":15496,"M73":15497,"MDS":15498,"Mina":15499,"Mouse":15500,"Mene":15501,"Mino":15502,"Nh":15503,"Nol":15504,"NSM":15505,"NPO":15506,"Naka":15507,"NECT":15508,"Opi":15509,"Oro":15510,"Oude":15511,"OCLC":15512,"Pru":15513,"PBA":15514,"PAR":15515,"PPC":15516,"Palo":15517,"Ptero":15518,"PWM":15519,"Q5":15520,"RAP":15521,"RAN":15522,"Rena":15523,"Rolf":15524,"SX":15525,"Sv":15526,"Sis":15527,"Sino":15528,"Spur":15529,"Slim":15530,"Tse":15531,"Tow":15532,"TAC":15533,"TEC":15534,"Tina":15535,"Thai":15536,"Ubi":15537,"Vene":15538,"VGA":15539,"W2":15540,"Whe":15541,"Wha":15542,"WIM":15543,"WLAN":15544,"X5":15545,"XB":15546,"Xpress":15547,"Xposed":15548,"Yam":15549,"Zah":15550,"above":15551,"b2":15552,"bc":15553,"c8":15554,"dry":15555,"fd":15556,"fel":15557,"fus":15558,"fony":15559,"fred":15560,"g1":15561,"gol":15562,"gno":15563,"gha":15564,"hler":15565,"hold":15566,"jd":15567,"jon":15568,"kb":15569,"kr":15570,"kho":15571,"kbit":15572,"kasa":15573,"nang3":15574,"oh":15575,"psis":15576,"pping":15577,"rh":15578,"s2":15579,"trun":15580,"tario":15581,"una":15582,"uary":15583,"vell":15584,"walk":15585,"yya":15586,"zam":15587,"zona":15588,"Â´":15589,"ÃĦ":15590,"Îķ":15591,"Îĺ":15592,"ÐŃ":15593,"ÑĹ":15594,"Õ«":15595,"×©":15596,"Ú©":15597,"à°":15598,"ì¹":15599,"anta":15600,"xia":15601,"xing":15602,"deci":15603,"deep":15604,"develop":15605,"enko":15606,"chat":15607,"chis":15608,"china":15609,"ãĢĸ":15610,"ãĢĹ":15611,"ãĢĿ":15612,"ãĢŀ":15613,"hue":15614,"limited":15615,"bid":15616,"qiu3":15617,"erk":15618,"dity":15619,"leine":15620,"2060":15621,"tiv":15622,"bool":15623,"duin":15624,"dura":15625,"sues":15626,"mone":15627,"mother":15628,"motive":15629,"lvo":15630,"chule":15631,"nius":15632,"200m":15633,"mena":15634,"lure":15635,"cuan1":15636,"culi":15637,"culation":15638,"1173":15639,"pola":15640,"porate":15641,"points":15642,"turo":15643,"onka":15644,"intel":15645,"instance":15646,"forma":15647,"aldo":15648,"sthe":15649,"rect":15650,"ready":15651,"reverse":15652,"meng":15653,"melo":15654,"metal":15655,"rial":15656,"rical":15657,"ï¼¸":15658,"ï¼Ļ":15659,"000K":15660,"teer":15661,"rame":15662,"ceceo":15663,"sella":15664,"fotable":15665,"80km":15666,"cot":15667,"magi":15668,"maker":15669,"making":15670,"need":15671,"iland":15672,"illes":15673,"location":15674,"total":15675,"INS":15676,"TCB":15677,"asay":15678,"Mamiya":15679,"Chad":15680,"Chai":15681,"STR":15682,"bec":15683,"bek":15684,"behavi":15685,"SER":15686,"SENS":15687,"Coo":15688,"Cost":15689,"Cock":15690,"Reason":15691,"Recht":15692,"Remember":15693,"Remote":15694,"cita":15695,"cians":15696,"basis":15697,"vious":15698,"cause":15699,"SAR":15700,"SANA":15701,"SASS":15702,"phora":15703,"pheric":15704,"TV4":15705,"LiC":15706,"Lia":15707,"MeToo":15708,"Defrag":15709,"NAMCO":15710,"CDM":15711,"Marqu":15712,"BCA":15713,"Alma":15714,"Leung":15715,"Legal":15716,"tsch":15717,"Mong":15718,"Modi":15719,"Shara":15720,"Proc":15721,"conside":15722,"condition":15723,"Tek":15724,"Nep":15725,"Arg":15726,"Armi":15727,"Arte":15728,"Arche":15729,"Sem":15730,"Seng":15731,"Rate":15732,"ISU":15733,"fif":15734,"Tune":15735,"keV":15736,"keley":15737,"Before":15738,"opus":15739,"optional":15740,"ICU":15741,"Labs":15742,"Satellite":15743,"sonant":15744,"Lomb":15745,"IDTM":15746,"Dae":15747,"Fai":15748,"ticle":15749,"Diet":15750,"Cala":15751,"Cater":15752,"Cable":15753,"Nacional":15754,"hicles":15755,"Both":15756,"stable":15757,"gifts":15758,"Anten":15759,"Anders":15760,"Bah":15761,"Baum":15762,"SSM":15763,"aling":15764,"ffany":15765,"Rider":15766,"Ricci":15767,"PCV":15768,"Heights":15769,"DVI":15770,"pana":15771,"Wiener":15772,"Buy":15773,"Tiffany":15774,"ETtoday":15775,"Tale":15776,"à¸Ĭ":15777,"Hob":15778,"Holiday":15779,"penter":15780,"Entre":15781,"Stellar":15782,"Together":15783,"ported":15784,"Poe":15785,"Forge":15786,"Formula":15787,"DSLR":15788,"Carthy":15789,"Carbon":15790,"Schwar":15791,"Nothing":15792,"Myco":15793,"MyClass":15794,"CPL":15795,"UNB":15796,"UNI":15797,"âĪ¼":15798,"FCC":15799,"Lua":15800,"tingui":15801,"Extreme":15802,"famili":15803,"puram":15804,"Phys":15805,"Newman":15806,"Newtype":15807,"TOW":15808,"Jupiter":15809,"Katherine":15810,"MOR":15811,"vowel":15812,"SOM":15813,"SOCK":15814,"SOUL":15815,"LEED":15816,"BOOK":15817,"BOCU":15818,"ADE":15819,"ADO":15820,"IGO":15821,"Rub":15822,"MEA":15823,"CRM":15824,"CRT":15825,"CRIS":15826,"Fest":15827,"TEMP":15828,"chai":15829,"3501":15830,"Addi":15831,"books":15832,"Hipp":15833,"OpenType":15834,"HOLiC":15835,"syndrome":15836,"Gov":15837,"Going":15838,"Cortin":15839,"Pura":15840,"à¤ħ":15841,"LLION":15842,"AAAA":15843,"Wagon":15844,"orium":15845,"Barn":15846,"Barrett":15847,"Harmony":15848,"Edna":15849,"Nordic":15850,"TTL":15851,"phate":15852,"Presto":15853,"Pretty":15854,"PPIs":15855,"uten":15856,"SCUM":15857,"Primary":15858,"Orl":15859,"Ortho":15860,"Trading":15861,"VoIP":15862,"Bert":15863,"ILY":15864,"SHI":15865,"PGC":15866,"straight":15867,"Charlot":15868,"PORT":15869,"exp":15870,"mbas":15871,"mbus":15872,"SL9":15873,"Starry":15874,"ãĦĩ":15875,"erah":15876,"stoire":15877,"Wald":15878,"Brachy":15879,"GND":15880,"GNS":15881,"Else":15882,"DDT":15883,"margin":15884,"ceratops":15885,"Very":15886,"Animal":15887,"Cancer":15888,"NTFS":15889,"strum":15890,"Helena":15891,"Boot":15892,"crewed":15893,"mingham":15894,"nism":15895,"Survi":15896,"plat":15897,"sheet":15898,"Escape":15899,"Lounge":15900,"EF15":15901,"Finance":15902,"ics":15903,"vinyasa":15904,"Term":15905,"annon":15906,"PowerPC":15907,"Freeman":15908,"Winchester":15909,"vski":15910,"Dreams":15911,"Dreamcast":15912,"oodle":15913,"Amman":15914,"Alexandra":15915,"alog":15916,"Fergu":15917,"Shield":15918,"Mink":15919,"brevi":15920,"litz":15921,"NESS":15922,"LAST":15923,"Craw":15924,"SIMD":15925,"ICOMOS":15926,"Institut":15927,"Fantastic":15928,"Volks":15929,"subsp":15930,"Minister":15931,"âīł":15932,"à¹ģ":15933,"Codemaster":15934,"logie":15935,"Palais":15936,"CryENGINE":15937,"Catch":15938,"temps":15939,"Landing":15940,"TMX":15941,"Hammer":15942,"thias":15943,"Maggi":15944,"Darren":15945,"Nuclear":15946,"á»ĩ":15947,"MobileMe":15948,"ULTRA":15949,"STAYC":15950,"pattern":15951,"Griffi":15952,"Griffin":15953,"Lyco":15954,"Mayer":15955,"Trophy":15956,"Enviro500":15957,"positive":15958,"Cruise":15959,"Mills":15960,"tempo":15961,"PROJECT":15962,"mod7":15963,"HBX":15964,"ODAP":15965,"Target":15966,"Ariel":15967,"Fleetwood":15968,"Honne":15969,"invo":15970,"XCX":15971,"Flora":15972,"âĤĩ":15973,"Bernardo":15974,"NIKE":15975,"Solstice":15976,"industry":15977,"Aires":15978,"Button":15979,"Romance":15980,"Password":15981,"sellschaft":15982,"ASTRO":15983,"Evergreen":15984,"Alexis":15985,"Solomon":15986,"Babylon":15987,"original":15988,"Basket":15989,"Crying":15990,"DECA":15991,"H3O":15992,"NULL":15993,"âĻŃ":15994,"WWC":15995,"Reading":15996,"Alfonso":15997,"Connection":15998,"Stevens":15999,"Gonz":16000,"NCCs":16001,"client":16002,"important":16003,"Personal":16004,"DHCP":16005,"Witt":16006,"Sherman":16007,"image":16008,"imagin":16009,"Integer":16010,"qualifier":16011,"Genesis":16012,"Motorola":16013,"Everybody":16014,"TAIJI":16015,"Tactical":16016,"Emil":16017,"ð¡İ":16018,"Symposium":16019,"ìĭľ":16020,"Salvador":16021,"DKZ4":16022,"Pilot":16023,"PETA":16024,"Priceline":16025,"provide":16026,"Quinn":16027,"PSTN":16028,"property":16029,"ì§Ģ":16030,"CR300BF":16031,"KENTA":16032,"covered":16033,"LPDDR5":16034,"Macromedia":16035,"neider":16036,"manuel":16037,"Illustra":16038,"â¼Ģ":16039,"Horizon":16040,"Ridge":16041,"ð«Ł»":16042,"EEEEEE":16043,"PackageReference":16044,"Greatest":16045,"ìĨĮ":16046,"ciples":16047,"failed":16048,"practice":16049,"Compiler":16050,"Continental":16051,"ì¤ĳ":16052,"decahedron":16053,"RenderWare":16054,"groups":16055,"sexual":16056,"similar":16057,"Indonesia":16058,"Feeling":16059,"SPEED":16060,"industrial":16061,"efficient":16062,"Liverpool":16063,"Gazette":16064,"Ensignbus":16065,"champion":16066,"Rudolf":16067,"BLOOD":16068,"Excellence":16069,"0x5f":16070,"Ohio":16071,"Guillaume":16072,"Brougham":16073,"BTOB":16074,"Atarayo":16075,"SCUMM":16076,"087":16077,"083":16078,"081":16079,"1S":16080,"1MDB":16081,"21000":16082,"2ZZ":16083,"3mm":16084,"3GP":16085,"6D":16086,"8P":16087,"9C":16088,"9x":16089,"AQ":16090,"Ao":16091,"A11":16092,"A300":16093,"Aver":16094,"AIS":16095,"Anu":16096,"A350":16097,"Azer":16098,"Aless":16099,"Achie":16100,"Axis":16101,"Aqua":16102,"BZ":16103,"BCD":16104,"Boun":16105,"Bree":16106,"Bren":16107,"Bald":16108,"Cis":16109,"CER":16110,"CMS":16111,"CFC":16112,"CALL":16113,"D50":16114,"Dat":16115,"Det":16116,"DAR":16117,"DBS":16118,"Dend":16119,"DHC":16120,"Dino":16121,"DHA":16122,"Drey":16123,"DISC":16124,"E7":16125,"EMA":16126,"Equi":16127,"Ellen":16128,"Fou":16129,"Fand":16130,"FACE":16131,"Flask":16132,"Gs":16133,"Gli":16134,"G48":16135,"GII":16136,"Gir":16137,"GIG":16138,"GANG":16139,"Hao":16140,"H20":16141,"Hed":16142,"HON":16143,"HAN":16144,"Hare":16145,"Hana":16146,"HCC":16147,"Hank":16148,"Hora":16149,"Hood":16150,"Ig":16151,"Ibn":16152,"Idea":16153,"Jel":16154,"Jum":16155,"JES":16156,"K4":16157,"Klu":16158,"Koo":16159,"KAR":16160,"KBL":16161,"K105":16162,"KNO":16163,"KUNO":16164,"LAP":16165,"Lara":16166,"LIV":16167,"LEC":16168,"M80":16169,"M76":16170,"M1919":16171,"MDA":16172,"Mori":16173,"MTR":16174,"MARK":16175,"MISS":16176,"MSSR":16177,"Nig":16178,"Ngin":16179,"NIA":16180,"NIGHT":16181,"O8":16182,"Od":16183,"Ow":16184,"Odd":16185,"Pry":16186,"PES":16187,"PMC":16188,"Pony":16189,"PARK":16190,"PANG":16191,"Qx":16192,"R8":16193,"Re4":16194,"Randy":16195,"SSA":16196,"SIS":16197,"Sven":16198,"Scra":16199,"Slee":16200,"TY":16201,"TEN":16202,"TLD":16203,"Thur":16204,"TDI":16205,"U7":16206,"UIC":16207,"UPC":16208,"UCP":16209,"Vy":16210,"VLC":16211,"VH1":16212,"VBCI":16213,"WAR":16214,"Were":16215,"WIST":16216,"XD":16217,"XPS":16218,"YB":16219,"ZX":16220,"b0":16221,"b3":16222,"bhu":16223,"blin":16224,"c6":16225,"cb":16226,"cina":16227,"ctural":16228,"eus":16229,"eight":16230,"eShop":16231,"f4":16232,"g3":16233,"gma":16234,"jaya":16235,"k1":16236,"kai4":16237,"kru":16238,"kri":16239,"mt":16240,"oil":16241,"rar":16242,"rho":16243,"suo":16244,"scu":16245,"sof":16246,"sol":16247,"spring":16248,"tl":16249,"tory":16250,"thus":16251,"vna":16252,"vara":16253,"vka":16254,"wyn":16255,"wheel":16256,"zc":16257,"zal":16258,"Ãµ":16259,"Å¼":16260,"Éķ":16261,"ÊĶ":16262,"ËĻ":16263,"Ïİ":16264,"Ð¨":16265,"Ñī":16266,"Ò¯":16267,"Ø®":16268,"âĿ":16269,"ë£":16270,"ë²":16271,"ë¶":16272,"ëĦ":16273,"ì¡":16274,"ngs":16275,"anu":16276,"anum":16277,"annu":16278,"jiang":16279,"aor":16280,"delity":16281,"enson":16282,"energy":16283,"chet":16284,"liga":16285,"license":16286,"mio":16287,"mite":16288,"bitt":16289,"bicolor":16290,"eru":16291,"leo":16292,
[...]
