{"!":0,"\"":1,"#":2,"$":3,"%":4,"&":5,"'":6,"(":7,")":8,"*":9,"+":10,",":11,"-":12,".":13,"/":14,"0":15,"1":16,"2":17,"3":18,"4":19,"5":20,"6":21,"7":22,"8":23,"9":24,":":25,";":26,"=":27,"?":28,"@":29,"A":30,"B":31,"C":32,"D":33,"E":34,"F":35,"G":36,"H":37,"I":38,"J":39,"K":40,"L":41,"M":42,"N":43,"O":44,"P":45,"Q":46,"R":47,"S":48,"T":49,"U":50,"V":51,"W":52,"X":53,"Y":54,"Z":55,"[":56,"\\":57,"]":58,"^":59,"_":60,"`":61,"a":62,"b":63,"c":64,"d":65,"e":66,"f":67,"g":68,"h":69,"i":70,"j":71,"k":72,"l":73,"m":74,"n":75,"o":76,"p":77,"q":78,"r":79,"s":80,"t":81,"u":82,"v":83,"w":84,"x":85,"y":86,"z":87,"|":88,"~":89,"¡":90,"¢":91,"£":92,"¤":93,"¥":94,"¦":95,"§":96,"¨":97,"©":98,"ª":99,"«":100,"¬":101,"®":102,"¯":103,"°":104,"±":105,"²":106,"³":107,"´":108,"µ":109,"¶":110,"·":111,"¸":112,"¹":113,"º":114,"»":115,"¼":116,"½":117,"¾":118,"¿":119,"Â":120,"Ã":121,"Ä":122,"Å":123,"Æ":124,"Ç":125,"È":126,"É":127,"Ê":128,"Ë":129,"Ì":130,"Í":131,"Î":132,"Ï":133,"Ð":134,"Ñ":135,"Ò":136,"Ó":137,"Ô":138,"Õ":139,"Ö":140,"×":141,"Ø":142,"Ù":143,"Ú":144,"Û":145,"Ü":146,"Þ":147,"ß":148,"à":149,"á":150,"â":151,"ã":152,"ä":153,"ê":154,"ë":155,"ì":156,"í":157,"î":158,"ï":159,"ð":160,"ñ":161,"Ċ":162,"Ġ":163,"ġ":164,"Ģ":165,"ģ":166,"Ĥ":167,"ĥ":168,"Ħ":169,"ħ":170,"Ĩ":171,"ĩ":172,"Ī":173,"ī":174,"Ĭ":175,"ĭ":176,"Į":177,"į":178,"İ":179,"ı":180,"Ĳ":181,"ĳ":182,"Ĵ":183,"ĵ":184,"Ķ":185,"ķ":186,"ĸ":187,"Ĺ":188,"ĺ":189,"Ļ":190,"ļ":191,"Ľ":192,"ľ":193,"Ŀ":194,"ŀ":195,"Ł":196,"ł":197,"Ń":198,"ng":199,"i4":200,"an":201,"sh":202,"zh":203,"ng1":204,"ji":205,"u4":206,"ng2":207,"ĠĠ":208,"i2":209,"ao":210,"xi":211,"ng4":212,"an2":213,"i3":214,"i1":215,"de":216,"u3":217,"an4":218,"e4":219,"en":220,"ch":221,"uo":222,"u2":223,"ng3":224,"an1":225,"e2":226,"ai4":227,"u1":228,"ĠĠĠ":229,"ong1":230,"a1":231,"ãĢ":232,"shi4":233,"ei4":234,"ao4":235,"ian2":236,"a4":237,"yu":238,"ang1":239,"yo":240,"an3":241,"n1":242,"hu":243,"ang4":244,"nian2":245,"en2":246,"li":247,"ang3":248,"eng2":249,"uo4":250,"uo2":251,"wei4":252,"mi":253,"ao3":254,"zai4":255,"ãĢģ":256,"bi":257,"qi":258,"ang2":259,"e1":260,"he2":261,"yi":262,"eng1":263,"zhong1":264,"er":265,"bu4":266,"ou4":267,"a3":268,"e3":269,"n4":270,"shi2":271,"di4":272,"guo2":273,"ai2":274,"ui4":275,"ren2":276,"ao1":277,"xu":278,"yi1":279,"n2":280,"ong2":281,"yu2":282,"gu":283,"li4":284,"zhi4":285,"di":286,"we":287,"en4":288,"cheng2":289,"ong4":290,"yi4":291,"gong1":292,"ji2":293,"eng4":294,"en1":295,"yue4":296,"you3":297,"yuan2":298,"da4":299,"a2":300,"le":301,"ji4":302,"20":303,"yi3":304,"ju":305,"ai1":306,"pi":307,"xian4":308,"ou1":309,"jia1":310,"si1":311,"xing2":312,"ei3":313,"ti":314,"yu3":315,"ji1":316,"ta1":317,"ri4":318,"zhi1":319,"hou4":320,"li3":321,"ou3":322,"ai3":323,"wei2":324,"hui4":325,"dao4":326,"19":327,"ong3":328,"qi2":329,"uan2":330,"zheng4":331,"ming2":332,"xi1":333,"ao2":334,"jian4":335,"xue2":336,"chu1":337,"ge4":338,"zuo4":339,"uo1":340,"sheng1":341,"dui4":342,"you2":343,"uo3":344,"qu1":345,"shang4":346,"en3":347,"de2":348,"bei4":349,"shi3":350,"zhu":351,"zhan4":352,"n3":353,"xin1":354,"jun1":355,"er3":356,"she4":357,"ren4":358,"fa1":359,"wu4":360,"bing4":361,"ke4":362,"er2":363,"lu4":364,"dai4":365,"zhu3":366,"yi2":367,"shu4":368,"ju4":369,"jin4":370,"zi4":371,"yin1":372,"fu4":373,"fang1":374,"jing1":375,"nan2":376,"hua4":377,"zhou1":378,"ping2":379,"xia4":380,"lai2":381,"yong4":382,"guan1":383,"tong2":384,"yu4":385,"ãĢĭ":386,"ãĢĬ":387,"fa3":388,"zhu4":389,"mei3":390,"Â·":391,"jian1":392,"bo":393,"huo4":394,"ben3":395,"xiang1":396,"zhi2":397,"dong4":398,"xiang4":399,"min2":400,"zhe4":401,"jiang1":402,"qi1":403,"fen1":404,"shou3":405,"quan2":406,"wen2":407,"yan2":408,"suo3":409,"jiao4":410,"qian2":411,"dian4":412,"te4":413,"duo1":414,"zui4":415,"kai1":416,"jie2":417,"lian2":418,"zhi3":419,"xi4":420,"ke3":421,"eng3":422,"ei1":423,"dan4":424,"mu4":425,"ye4":426,"du4":427,"fu2":428,"shu":429,"ma3":430,"ye3":431,"dong1":432,"qiu2":433,"bei3":434,"ãĢĮ":435,"ãĢį":436,"gao1":437,"ya4":438,"ou2":439,"du":440,"jie1":441,"un2":442,"mian4":443,"hai3":444,"zhang3":445,"shi1":446,"jin1":447,"ci3":448,"nei4":449,"sai4":450,"san1":451,"tai2":452,"ge2":453,"xing4":454,"guo4":455,"201":456,"deng3":457,"yao4":458,"che1":459,"ci4":460,"su":461,"mo":462,"ru4":463,"wu3":464,"gai1":465,"ku":466,"ding4":467,"chang2":468,"biao3":469,"la1":470,"ti3":471,"gong4":472,"jie4":473,"shou4":474,"dao3":475,"shan1":476,"chang3":477,"si4":478,"lv":479,"ze2":480,"ti2":481,"ke1":482,"dang1":483,"neng2":484,"er4":485,"wai4":486,"ei2":487,"chu":488,"dan1":489,"qi3":490,"zi":491,"kou3":492,"xiao3":493,"zu3":494,"ba1":495,"jue2":496,"lin2":497,"liu2":498,"ni":499,"sheng3":500,"ying1":501,"lan2":502,"bi3":503,"luo2":504,"tong1":505,"200":506,"zhong4":507,"zhe3":508,"shu3":509,"tian1":510,"zhen4":511,"zhong3":512,"lie4":513,"qi4":514,"cheng1":515,"shu1":516,"yuan4":517,"bao3":518,"tai4":519,"fu3":520,"feng1":521,"mi3":522,"qing1":523,"shen1":524,"wang2":525,"yun4":526,"guan3":527,"fei1":528,"jiu4":529,"gu3":530,"liang3":531,"ceng2":532,"mei2":533,"10":534,"fen4":535,"hao4":536,"yan3":537,"wei3":538,"zong3":539,"xuan3":540,"xiao4":541,"da2":542,"na4":543,"liang4":544,"bo1":545,"zu2":546,"jing4":547,"bao4":548,"ni2":549,"wu2":550,"tong3":551,"hua2":552,"jiao1":553,"yue1":554,"ying3":555,"bian4":556,"xing1":557,"su4":558,"shui3":559,"yang2":560,"men":561,"bao1":562,"ge1":563,"bo2":564,"can1":565,"cong2":566,"dian3":567,"ru2":568,"ban4":569,"bi4":570,"bian1":571,"wang3":572,"qu3":573,"chan3":574,"se4":575,"zi1":576,"qu":577,"00":578,"chuan2":579,"nv":580,"sheng4":581,"ran2":582,"tu2":583,"zhang1":584,"xu4":585,"pu3":586,"gai3":587,"gang3":588,"nv3":589,"ling4":590,"luo4":591,"you4":592,"tou2":593,"hu4":594,"cha2":595,"ce4":596,"chi2":597,"18":598,"lv4":599,"qian1":600,"li2":601,"dou1":602,"12":603,"zheng1":604,"kuo4":605,"sha1":606,"lu":607,"dang3":608,"fan3":609,"gou4":610,"lei4":611,"xi2":612,"jing3":613,"tuan2":614,"wei1":615,"xie1":616,"ling3":617,"long2":618,"gui1":619,"xian1":620,"rong2":621,"huang2":622,"xiang3":623,"ban1":624,"jiu3":625,"ying4":626,"men2":627,"shang1":628,"shen2":629,"202":630,"ban3":631,"ka3":632,"cu":633,"mu3":634,"jin3":635,"fu1":636,"ju3":637,"mo2":638,"guang3":639,"ci2":640,"shuo1":641,"qing2":642,"zhan3":643,"hai2":644,"zhuang1":645,"mo4":646,"cai2":647,"ji3":648,"du2":649,"11":650,"pin3":651,"ting2":652,"chao2":653,"ying2":654,"wo":655,"tiao2":656,"po":657,"jian3":658,"tang2":659,"hui2":660,"duan4":661,"chen2":662,"gen1":663,"mi4":664,"wan4":665,"pai2":666,"wan1":667,"zao4":668,"hang2":669,"wan2":670,"biao1":671,"lun2":672,"199":673,"xie2":674,"jiang3":675,"han4":676,"ju2":677,"fan4":678,"fang2":679,"huo2":680,"gu4":681,"han2":682,"kong1":683,"tie3":684,"meng2":685,"bie2":686,"wu1":687,"jie3":688,"zhuan1":689,"yin3":690,"xu1":691,"zhen1":692,"jia4":693,"bing1":694,"ming4":695,"ling2":696,"hong2":697,"qin1":698,"zi3":699,"lun4":700,"tu":701,"or":702,"xin4":703,"chu4":704,"su1":705,"xiu1":706,"chu3":707,"zong1":708,"15":709,"hu2":710,"que4":711,"xiao1":712,"zhao4":713,"qiang2":714,"qu4":715,"cun1":716,"chong2":717,"pian4":718,"jiu1":719,"fang4":720,"sui2":721,"shou1":722,"geng4":723,"âĢ":724,"guang1":725,"ju1":726,"jia3":727,"chuang4":728,"di2":729,"zhuan3":730,"16":731,"guo3":732,"xun4":733,"man4":734,"pai4":735,"fei4":736,"pei4":737,"198":738,"da3":739,"tuo1":740,"xuan1":741,"chu2":742,"bai2":743,"la":744,"on":745,"zhu1":746,"du1":747,"tu3":748,"diao4":749,"xia2":750,"liu4":751,"17":752,"sui4":753,"hui1":754,"ting1":755,"qie3":756,"ta3":757,"qiao2":758,"ha1":759,"gan3":760,"zeng1":761,"xian3":762,"mai4":763,"huan2":764,"xu3":765,"wa3":766,"tui1":767,"wen4":768,"chao1":769,"tian2":770,"bai3":771,"cai3":772,"liang2":773,"ya2":774,"sa4":775,"ar":776,"bai4":777,"cun2":778,"jiao3":779,"shao3":780,"yan4":781,"zhuang4":782,"di3":783,"huo3":784,"lei2":785,"14":786,"jiang4":787,"chuan1":788,"yin4":789,"zao3":790,"yong3":791,"si3":792,"deng1":793,"30":794,"zhun3":795,"le4":796,"xun2":797,"nuo4":798,"huan4":799,"song4":800,"gao4":801,"lu3":802,"13":803,"194":804,"bang1":805,"lv3":806,"yang4":807,"hen3":808,"qun2":809,"zheng3":810,"guan4":811,"po4":812,"gang1":813,"wo3":814,"197":815,"hua1":816,"lei1":817,"hao3":818,"tao2":819,"kuang4":820,"pi1":821,"dun4":822,"nong2":823,"gei3":824,"sai1":825,"shuang1":826,"lian4":827,"kuai4":828,"in":829,"di1":830,"pan4":831,"xie3":832,"195":833,"kao3":834,"gai4":835,"he4":836,"hei1":837,"wang4":838,"liao4":839,"re4":840,"ge":841,"zuo3":842,"kong4":843,"196":844,"yang1":845,"chang4":846,"yin2":847,"reng2":848,"sen1":849,"bei1":850,"lu2":851,"piao4":852,"ya1":853,"ku4":854,"25":855,"bin1":856,"âĢĶ":857,"rang4":858,"chong1":859,"lou2":860,"bu3":861,"lao3":862,"zhu2":863,"jun4":864,"yang3":865,"rui4":866,"yao1":867,"xian2":868,"xie4":869,"nian4":870,"for":871,"you1":872,"tan2":873,"kang1":874,"pi2":875,"heng2":876,"yun2":877,"kan4":878,"ning2":879,"liao2":880,"shao4":881,"bu2":882,"qing3":883,"chi3":884,"24":885,"mu":886,"dou4":887,"mian3":888,"yong1":889,"tan3":890,"wan3":891,"hu1":892,"ru":893,"fan1":894,"al":895,"tu1":896,"gan1":897,"suan4":898,"ding1":899,"yuan3":900,"wen1":901,"tui4":902,"zhe":903,"st":904,"21":905,"xiu4":906,"ba3":907,"man3":908,"193":909,"23":910,"mula":911,"kang4":912,"formula":913,"28":914,"th":915,"mao2":916,"ruo4":917,"pian1":918,"mao4":919,"lang3":920,"qin2":921,"ba2":922,"na2":923,"zan4":924,"xi3":925,"gui3":926,"gui4":927,"re":928,"pin2":929,"wo4":930,"xiong2":931,"shan4":932,"22":933,"xiong1":934,"me":935,"sui1":936,"26":937,"shen3":938,"qing4":939,"miao2":940,"fang3":941,"50":942,"2020":943,"27":944,"lang2":945,"ou":946,"qiu1":947,"song1":948,"ri":949,"dang4":950,"geng1":951,"qiang1":952,"fa2":953,"zao1":954,"feng4":955,"zhang4":956,"ï¼":957,"hao2":958,"dun1":959,"zou3":960,"hai4":961,"qie4":962,"29":963,"tan4":964,"zu":965,"pao4":966,"pa4":967,"shun4":968,"peng2":969,"xuan2":970,"2010":971,"ni3":972,"000":973,"ding3":974,"niu3":975,"zai3":976,"zhao1":977,"zhui1":978,"lve4":979,"chun1":980,"2019":981,"hun1":982,"kong3":983,"che4":984,"duan1":985,"shen4":986,"xiang2":987,"duan3":988,"gan4":989,"ro":990,"te":991,"kan1":992,"lao2":993,"cao3":994,"2016":995,"si":996,"gu1":997,"pei2":998,"kuan3":999,"za2":1000,"2018":1001,"sun1":1002,"ye2":1003,"ya3":1004,"ra":1005,"po1":1006,"2021":1007,"zha4":1008,"chi4":1009,"duo2":1010,"2014":1011,"fan2":1012,"2011":1013,"2015":1014,"cuo4":1015,"2017":1016,"zhe2":1017,"yao2":1018,"pai1":1019,"tou4":1020,"cang2":1021,"2012":1022,"40":1023,"kai3":1024,"2013":1025,"2022":1026,"mi2":1027,"ruan3":1028,"suan1":1029,"cha1":1030,"zang4":1031,"miao4":1032,"lt":1033,"2009":1034,"zhao3":1035,"2008":1036,"huai2":1037,"ãĥ":1038,"ce":1039,"60":1040,"xue4":1041,"chou2":1042,"se":1043,"bang3":1044,"am":1045,"meng4":1046,"100":1047,"ti4":1048,"pu2":1049,"nao3":1050,"2023":1051,"zhuan4":1052,"gt":1053,"lei3":1054,"190":1055,"31":1056,"cai4":1057,"san4":1058,"mou2":1059,"tion":1060,"hun4":1061,"kuan1":1062,"2007":1063,"ta":1064,"niu2":1065,"mou3":1066,"tao3":1067,"die2":1068,"2001":1069,"teng2":1070,"sou1":1071,"ken3":1072,"qian3":1073,"chang1":1074,"ran3":1075,"que1":1076,"fou3":1077,"sun3":1078,"fo":1079,"ba4":1080,"2000":1081,"80":1082,"kao4":1083,"suo1":1084,"2006":1085,"niao3":1086,"pi3":1087,"chun2":1088,"2024":1089,"lan3":1090,"ãģ":1091,"zai1":1092,"co":1093,"xue3":1094,"hui3":1095,"el":1096,"ma":1097,"luan4":1098,"ting3":1099,"2005":1100,"zun1":1101,"bang4":1102,"la4":1103,"huan1":1104,"rang3":1105,"shui4":1106,"min3":1107,"35":1108,"lai4":1109,"cang1":1110,"70":1111,"fo2":1112,"pan2":1113,"nai4":1114,"wen3":1115,"ne":1116,"cao1":1117,"of":1118,"sang1":1119,"pang2":1120,"90":1121,"bing3":1122,"ï¼į":1123,"ter":1124,"zha1":1125,"ãĤ":1126,"shuai4":1127,"nie4":1128,"hou2":1129,"mei4":1130,"shao1":1131,"nu3":1132,"dong3":1133,"il":1134,"feng2":1135,"mie4":1136,"yun3":1137,"zou4":1138,"mai3":1139,"huai4":1140,"2004":1141,"45":1142,"lo":1143,"yan1":1144,"the":1145,"he":1146,"48":1147,"zhuo2":1148,"at":1149,"and":1150,"tao4":1151,"nai3":1152,"kun1":1153,"2025":1154,"zhen3":1155,"ck":1156,"ru3":1157,"kua4":1158,"kui2":1159,"ãĢī":1160,"ãĢĪ":1161,"gou1":1162,"36":1163,"et":1164,"cui1":1165,"es":1166,"38":1167,"cu4":1168,"shan3":1169,"rou4":1170,"diao1":1171,"2003":1172,"hu3":1173,"guo1":1174,"37":1175,"cui4":1176,"xu2":1177,"is":1178,"mang2":1179,"juan3":1180,"to":1181,"can2":1182,"dian1":1183,"zhan1":1184,"cao2":1185,"189":1186,"IN":1187,"2002":1188,"keng1":1189,"TC":1190,"ma2":1191,"34":1192,"leng3":1193,"as":1194,"zu1":1195,"cha4":1196,"75":1197,"âĢĵ":1198,"ow":1199,"su2":1200,"quan1":1201,"da1":1202,"chai1":1203,"lang4":1204,"kun4":1205,"46":1206,"tun2":1207,"fen3":1208,"1990":1209,"âĢ¦":1210,"ol":1211,"ve":1212,"zhou4":1213,"shang3":1214,"rao4":1215,"heng1":1216,"ti1":1217,"xun1":1218,"39":1219,"ne4":1220,"..":1221,"nan4":1222,"pan1":1223,"65":1224,"hong1":1225,"shu2":1226,"tan1":1227,"tang1":1228,"kan3":1229,"Ma":1230,"ni4":1231,"Ch":1232,"32":1233,"it":1234,"ST":1235,"han3":1236,"47":1237,"UTC":1238,"qian4":1239,"1999":1240,"1998":1241,"In":1242,"1980":1243,"188":1244,"500":1245,"33":1246,"64":1247,"qiang3":1248,"she2":1249,"shuo4":1250,"pao3":1251,"be":1252,"ka1":1253,"zhai2":1254,"SE":1255,"55":1256,"quan4":1257,"ni1":1258,"deng4":1259,"1997":1260,"The":1261,"Co":1262,"mian2":1263,"49":1264,"gao3":1265,"II":1266,"68":1267,"han":1268,"she3":1269,"zeng4":1270,"zhou2":1271,"zhai4":1272,"Re":1273,"1996":1274,"44":1275,"na":1276,"tie1":1277,"dao1":1278,"ad":1279,"br":1280,"1994":1281,"fei2":1282,"zong4":1283,"ir":1284,"qiong2":1285,"tiao4":1286,"chuang2":1287,"nd":1288,"1992":1289,"chui2":1290,"juan1":1291,"ci":1292,"chai2":1293,"miao3":1294,"ba":1295,"gua1":1296,"xue1":1297,"tong4":1298,"1995":1299,"fei3":1300,"chi1":1301,"meng3":1302,"wo1":1303,"67":1304,"shuai1":1305,"tuo2":1306,"chuang1":1307,"huan3":1308,"vi":1309,"1991":1310,"1970":1311,"58":1312,"1950":1313,"gua4":1314,"chan2":1315,"ca":1316,"300":1317,"wa1":1318,"1993":1319,"187":1320,"1949":1321,"ay":1322,"pe":1323,"sa1":1324,"tiao3":1325,"zha2":1326,"AT":1327,"1960":1328,"bian3":1329,"42":1330,"1945":1331,"ver":1332,"us":1333,"guai4":1334,"ku3":1335,"nu2":1336,"1988":1337,"du3":1338,"oo":1339,"1989":1340,"ig":1341,"pu4":1342,"69":1343,"liu3":1344,"ing":1345,"ur":1346,"ss":1347,"gong3":1348,"SEE":1349,"tuo4":1350,"ct":1351,"liao3":1352,"INSEE":1353,"59":1354,"sha4":1355,"tai1":1356,"43":1357,"66":1358,"chuan4":1359,"amp":1360,"chen4":1361,"57":1362,"1985":1363,"huang1":1364,"Ro":1365,"99":1366,"SA":1367,"ãĢİ":1368,"cun4":1369,"ãĢı":1370,"1984":1371,"hun2":1372,"41":1373,"um":1374,"pu1":1375,"kou4":1376,"ph":1377,"88":1378,"fen2":1379,"1986":1380,"rao3":1381,"St":1382,"au":1383,"id":1384,"run4":1385,"TV":1386,"150":1387,"zhuo1":1388,"ind":1389,"400":1390,"san3":1391,"1987":1392,"78":1393,"56":1394,"1982":1395,"ard":1396,"Li":1397,"nuo2":1398,"Me":1399,"1983":1400,"De":1401,"NA":1402,"gun3":1403,"ma1":1404,"tou":1405,"pin4":1406,"un":1407,"CD":1408,"chou1":1409,"ber":1410,"gou3":1411,"quan3":1412,"77":1413,"Mi":1414,"zhai1":1415,"qia4":1416,"per":1417,"mao1":1418,"qiao3":1419,"Mar":1420,"ku1":1421,"kuang2":1422,"ed":1423,"ang":1424,"rou2":1425,"98":1426,"der":1427,"lou4":1428,"OS":1429,"Â°":1430,"kui4":1431,"sang4":1432,"ï½":1433,"ly":1434,"180":1435,"BC":1436,"54":1437,"61":1438,"Al":1439,"1979":1440,"1920":1441,"ty":1442,"79":1443,"pen1":1444,"seng1":1445,"tw":1446,"52":1447,"You":1448,"1978":1449,"nu4":1450,"62":1451,"weng1":1452,"ye1":1453,"duo3":1454,"Le":1455,"53":1456,"xing3":1457,"juan4":1458,"ï½ŀ":1459,"BA":1460,"ts":1461,"ak":1462,"1946":1463,"CO":1464,"Mo":1465,"ction":1466,"51":1467,"1958":1468,"Sh":1469,"1981":1470,"Vi":1471,"man":1472,"1972":1473,"1948":1474,"zhui4":1475,"cong1":1476,"tou1":1477,"AM":1478,"63":1479,"AR":1480,"Jo":1481,"1941":1482,"Wind":1483,"wa2":1484,"BS":1485,"lian3":1486,"1930":1487,"Pro":1488,"luan3":1489,"ows":1490,"kuang1":1491,"ke2":1492,"qu2":1493,"tuo3":1494,"76":1495,"hans":1496,"1940":1497,"pi4":1498,"1937":1499,"1976":1500,"zui3":1501,"1944":1502,"89":1503,"1975":1504,"ry":1505,"ï¼ı":1506,"1968":1507,"niang2":1508,"po2":1509,"shua1":1510,"hk":1511,"con":1512,"ran":1513,"Te":1514,"yuan1":1515,"tao1":1516,"wang1":1517,"1000":1518,"Windows":1519,"95":1520,"pa":1521,"Ne":1522,"no":1523,"bi2":1524,"sao3":1525,"87":1526,"da":1527,"1966":1528,"85":1529,"fa4":1530,"peng1":1531,"600":1532,"ga1":1533,"lan4":1534,"120":1535,"1947":1536,"Ar":1537,"Sta":1538,"1956":1539,"AC":1540,"1964":1541,"dan3":1542,"cu1":1543,"1942":1544,"Ã©":1545,"1955":1546,"Se":1547,"Ra":1548,"chou3":1549,"1952":1550,"1939":1551,"1938":1552,"72":1553,"IS":1554,"va":1555,"74":1556,"Ga":1557,"ga":1558,"ht":1559,"nu":1560,"lay":1561,"ren3":1562,"1973":1563,"1974":1564,"1954":1565,"fi":1566,"qie1":1567,"ED":1568,"1900":1569,"--":1570,"Ja":1571,"AP":1572,"1943":1573,"bi1":1574,"Tu":1575,"ke":1576,"os":1577,"1977":1578,"Be":1579,"1971":1580,"pin1":1581,"man2":1582,"op":1583,"po3":1584,"ent":1585,"1967":1586,"sheng2":1587,"ment":1588,"mp":1589,"IC":1590,"800":1591,"La":1592,"ER":1593,"ia":1594,"86":1595,"1959":1596,"beng1":1597,"Sa":1598,"1965":1599,"son":1600,"JR":1601,"1969":1602,"dui1":1603,"Lo":1604,"pen2":1605,"ine":1606,"So":1607,"ãĥ»":1608,"ÃĹ":1609,"qiao4":1610,"chui1":1611,"ID":1612,"qiao1":1613,"Su":1614,"1936":1615,"97":1616,"160":1617,"ben1":1618,"zhua1":1619,"Da":1620,"Fa":1621,"1953":1622,"1962":1623,"MA":1624,"do":1625,"1961":1626,"tic":1627,"long3":1628,"âĶ":1629,"1935":1630,"ta4":1631,"rou":1632,"mai2":1633,"96":1634,"ON":1635,"Di":1636,"ï¼ħ":1637,"1951":1638,"1957":1639,"1963":1640,"Ca":1641,"ha":1642,"âĶĢ":1643,"ok":1644,"84":1645,"2026":1646,"can3":1647,"ore":1648,"82":1649,"Na":1650,"hi":1651,"bu":1652,"73":1653,"94":1654,"tun1":1655,"92":1656,"pp":1657,"IP":1658,"AN":1659,"Bo":1660,"sta":1661,"mer":1662,"1933":1663,"one":1664,"Mu":1665,"1931":1666,"nang2":1667,"les":1668,"niao4":1669,"71":1670,"bao2":1671,"ho":1672,"nuan3":1673,"gi":1674,"An":1675,"leng2":1676,"pa2":1677,"Pa":1678,"93":1679,"so":1680,"83":1681,"all":1682,"We":1683,"dou3":1684,"81":1685,"1918":1686,"HD":1687,"Si":1688,"sao1":1689,"wi":1690,"Uni":1691,"1928":1692,"luan2":1693,"1932":1694,"nen4":1695,"ll":1696,"ara":1697,"int":1698,"Ba":1699,"MV":1700,"SS":1701,"110":1702,"1912":1703,"IT":1704,"ki":1705,"1929":1706,"tui3":1707,"duo4":1708,"1927":1709,"com":1710,"tu4":1711,"1934":1712,"are":1713,"700":1714,"ga2":1715,"cn":1716,"ali":1717,"91":1718,"che":1719,"ted":1720,"ster":1721,"ff":1722,"by":1723,"huang3":1724,"col":1725,"ill":1726,"ot":1727,"250":1728,"sa":1729,"art":1730,"zei2":1731,"1924":1732,"Ri":1733,"...":1734,"1919":1735,"kui1":1736,"xuan4":1737,"130":1738,"piao1":1739,"1925":1740,"PS":1741,"pao1":1742,"xia1":1743,"140":1744,"Play":1745,"SM":1746,"PC":1747,"mes":1748,"1914":1749,"ste":1750,"zhai3":1751,"km":1752,"He":1753,"DV":1754,"pan":1755,"zhe1":1756,"YouTu":1757,"he1":1758,"end":1759,"Ha":1760,"Fi":1761,"ana":1762,"die1":1763,"ble":1764,"Con":1765,"Wi":1766,"la3":1767,"AS":1768,"1911":1769,"Bu":1770,"ka":1771,"shi":1772,"od":1773,"gra":1774,"nve4":1775,"ld":1776,"1926":1777,"Ge":1778,"Ti":1779,"den":1780,"our":1781,"1922":1782,"na3":1783,"hen4":1784,"1917":1785,"sion":1786,"ET":1787,"NBA":1788,"IV":1789,"shui2":1790,"cai1":1791,"rao2":1792,"EN":1793,"1923":1794,"1921":1795,"peng4":1796,"fe":1797,"kua1":1798,"Goo":1799,"ther":1800,"Ta":1801,"chong3":1802,"170":1803,"à¸":1804,"EC":1805,"mao3":1806,"nong4":1807,"mm":1808,"AL":1809,"MS":1810,"Ho":1811,"section":1812,"YouTube":1813,"EP":1814,"Ni":1815,"BL":1816,"1913":1817,"hn":1818,"tiao1":1819,"pen":1820,"HK":1821,"En":1822,"âĨ":1823,"hant":1824,"gun4":1825,"1909":1826,"gin":1827,"Inter":1828,"cro":1829,"Pe":1830,"Ste":1831,"MP":1832,"AI":1833,"To":1834,"geng3":1835,"Wor":1836,"nao4":1837,"ris":1838,"feng3":1839,"ant":1840,"luo3":1841,"US":1842,"ya":1843,"por":1844,"DVD":1845,"go":1846,"ari":1847,"zou1":1848,"Pi":1849,"3000":1850,"Th":1851,"ca1":1852,"Do":1853,"Po":1854,"gn":1855,"1910":1856,"For":1857,"RO":1858,"DS":1859,"112":1860,"AK":1861,"RE":1862,"pro":1863,"1916":1864,"Car":1865,"ãĥ¼":1866,"chuo4":1867,"Net":1868,"Î±":1869,"ation":1870,"Sch":1871,"Ki":1872,"No":1873,"ani":1874,"ture":1875,"ell":1876,"Lin":1877,"My":1878,"CP":1879,"UN":1880,"Wil":1881,"ark":1882,"âĪ":1883,"Station":1884,"hen2":1885,"1915":1886,"gle":1887,"niang4":1888,"1905":1889,"FC":1890,"ven":1891,"ers":1892,"my":1893,"CN":1894,"âĦ":1895,"âĨĴ":1896,"1901":1897,"tional":1898,"Lu":1899,"wa":1900,"ting":1901,"Au":1902,"DNA":1903,"Ex":1904,"fa":1905,"pu":1906,"âĢ§":1907,"sic":1908,"dia":1909,"900":1910,"HR":1911,"Ph":1912,"dice":1913,"ary":1914,"sis":1915,"New":1916,".&":1917,"ton":1918,"CH":1919,"zen3":1920,"TA":1921,"TO":1922,"1906":1923,"1904":1924,"chuang3":1925,"AV":1926,"Ju":1927,"Qu":1928,"oun":1929,"Ka":1930,"gen3":1931,"ps":1932,"John":1933,"ere":1934,"And":1935,"MO":1936,"codice":1937,"chao3":1938,"jiong3":1939,"ding":1940,"âĦĥ":1941,"ko":1942,"eri":1943,"wa4":1944,"beng4":1945,"05":1946,"fu":1947,"CC":1948,"diu1":1949,"1907":1950,"1908":1951,"Google":1952,"AG":1953,"EST":1954,"MI":1955,"vo":1956,"zuan4":1957,"SO":1958,"tes":1959,"LE":1960,"jia2":1961,"zuan3":1962,"PlayStation":1963,"enter":1964,"BO":1965,"BBC":1966,"chi":1967,"Com":1968,"AD":1969,"IG":1970,"cal":1971,"ley":1972,"li1":1973,"Gu":1974,"ence":1975,"III":1976,"oft":1977,"Ru":1978,"1500":1979,"cy":1980,"5000":1981,"cri":1982,"wor":1983,"zuan1":1984,"IST":1985,"she1":1986,"lv2":1987,"Col":1988,"ory":1989,"ME":1990,"Sy":1991,"tive":1992,"wit":1993,"CR":1994,"3D":1995,"round":1996,"IA":1997,"lan":1998,"gua3":1999,"105":2000,"je":2001,"ma4":2002,"Ð°":2003,"tt":2004,"lin":2005,"1903":2006,"101":2007,"GB":2008,"ping1":2009,"ree":2010,"Cu":2011,"can":2012,"09":2013,"ina":2014,"can4":2015,"Fe":2016,"cen2":2017,"1902":2018,"BD":2019,"NC":2020,"land":2021,"TE":2022,"cha":2023,"pang1":2024,"xt":2025,"350":2026,"Ã¡":2027,"ze":2028,"SAO":2029,"shao2":2030,"gen":2031,"DC":2032,"des":2033,"span":2034,"pt":2035,"mon":2036,"Ad":2037,"Î²":2038,"ght":2039,"res":2040,"lin4":2041,"B1900":2042,"del":2043,"book":2044,"ES":2045,"BM":2046,"ron":2047,"ï¼İ":2048,"ãĥ³":2049,"1898":2050,"06":2051,"118":2052,"Hi":2053,"la2":2054,"ãģ®":2055,"ms":2056,"qin3":2057,"cor":2058,"tel":2059,"DR":2060,"360":2061,"01":2062,"DA":2063,"Open":2064,"1895":2065,"lao4":2066,"125":2067,"mu2":2068,"za":2069,"lar":2070,"ben4":2071,"HO":2072,"ance":2073,"tin":2074,"MC":2075,"ATP":2076,"Micro":2077,"Ko":2078,"gy":2079,"Ð¾":2080,"108":2081,"Ke":2082,"sy":2083,"line":2084,"dio":2085,"NG":2086,"igh":2087,"pou1":2088,"net":2089,"yle":2090,"Go":2091,"clu":2092,"low":2093,"qie2":2094,"gram":2095,"Cor":2096,"IF":2097,"ft":2098,"Fran":2099,"One":2100,"ner":2101,"App":2102,"07":2103,"âĪĴ":2104,"08":2105,"230":2106,"gh":2107,"Face":2108,"Hu":2109,"104":2110,"pace":2111,"Pu":2112,"Ser":2113,"rea":2114,"World":2115,"soft":2116,"EDT":2117,"ISTAT":2118,"Mon":2119,"Stu":2120,"ja":2121,"shai1":2122,"song3":2123,"à¤":2124,"NO":2125,"1896":2126,"LL":2127,"ning":2128,"109":2129,"DP":2130,"fli":2131,"ger":2132,"las":2133,"dy":2134,"yu1":2135,"AA":2136,"lus":2137,"own":2138,"Bi":2139,"ity":2140,"ge3":2141,"RI":2142,"ctor":2143,"Wa":2144,"Du":2145,"SP":2146,"RT":2147,"sui3":2148,"xiao2":2149,"qia3":2150,"EX":2151,"re3":2152,"Bri":2153,"bert":2154,"B48":2155,"Man":2156,"vel":2157,"ling":2158,"106":2159,"1890":2160,"San":2161,"CST":2162,"ML":2163,"ori":2164,"Bar":2165,"CDT":2166,"Love":2167,"zang1":2168,"DO":2169,"with":2170,"HE":2171,"ward":2172,"Per":2173,"pei1":2174,"row":2175,"tain":2176,"04":2177,"4000":2178,"pri":2179,"ux":2180,"cuan4":2181,"115":2182,"ight":2183,"ds":2184,"1200":2185,"M1":2186,"03":2187,"Har":2188,"GP":2189,"pao2":2190,"CE":2191,"ren":2192,"Äģ":2193,"back":2194,"1889":2195,"begin":2196,"Par":2197,"1899":2198,"Je":2199,"Mac":2200,"colspan":2201,"1871":2202,"Ed":2203,"RS":2204,"mic":2205,"Facebook":2206,"Willi":2207,"Microsoft":2208,"âĢĭ":2209,"240":2210,"tur":2211,"Comp":2212,"ool":2213,"1600":2214,"LO":2215,"Gi":2216,"ky":2217,"BE":2218,"cc":2219,"Nor":2220,"cket":2221,"102":2222,"box":2223,"clude":2224,"TT":2225,"ref":2226,"1897":2227,"pha":2228,"Live":2229,"NH":2230,"Sou":2231,"EE":2232,"chou4":2233,"Tri":2234,"117":2235,"Is":2236,"Pre":2237,"PP":2238,"im":2239,"qin4":2240,"ut":2241,"SC":2242,"min":2243,"02":2244,"cm":2245,"shuang3":2246,"style":2247,"ie":2248,"103":2249,"AKB48":2250,"MD":2251,"yao3":2252,"Music":2253,"Pri":2254,"107":2255,"van":2256,"On":2257,"bli":2258,"cou4":2259,"tra":2260,"Gra":2261,"Or":2262,"ler":2263,"Linux":2264,"Dis":2265,"Tra":2266,"ser":2267,"ye":2268,"tang3":2269,"ww":2270,"Gre":2271,"Ori":2272,"lis":2273,"old":2274,"VID":2275,"127":2276,"tus":2277,"450":2278,"Vo":2279,"sti":2280,"Davi":2281,"Ã¼":2282,"que":2283,"128":2284,"align":2285,"lao1":2286,"flix":2287,"CL":2288,"Netflix":2289,"1894":2290,"Game":2291,"220":2292,"rin":2293,"Ber":2294,"Ð½":2295,"mas":2296,"William":2297,"IL":2298,"Mor":2299,"ks":2300,"SH":2301,"Twit":2302,"1880":2303,"Red":2304,"len":2305,"lla":2306,"ÃŃ":2307,"RNA":2308,"zao2":2309,"136":2310,"rus":2311,"rom":2312,"PG":2313,"nge":2314,"Ð¸":2315,"stri":2316,"ãģĦ":2317,"TR":2318,"stra":2319,"Team":2320,"1800":2321,"ãĤ¹":2322,"Univer":2323,"ground":2324,"1885":2325,"lia3":2326,"ero":2327,"114":2328,"ãĤĵ":2329,"Char":2330,"pian2":2331,"color":2332,"Fu":2333,"Hz":2334,"Ty":2335,"280":2336,"UR":2337,"Ðµ":2338,"113":2339,"116":2340,"tor":2341,"ano":2342,"Gen":2343,"1886":2344,"sing":2345,"ãĤ¤":2346,"TS":2347,"School":2348,"PO":2349,"mang3":2350,"lass":2351,"1893":2352,"Che":2353,"ex":2354,"sen":2355,"irl":2356,"Bla":2357,"lyi":2358,"mb":2359,"ten":2360,"Mc":2361,"ane":2362,"Mark":2363,"Eu":2364,"name":2365,"SL":2366,"tri":2367,"111":2368,"Star":2369,"ãĦ":2370,"cial":2371,"lia":2372,"irst":2373,"Super":2374,"port":2375,"Don":2376,"ject":2377,"lex":2378,"mo3":2379,"âĢ»":2380,"ces":2381,"mo1":2382,"135":2383,"David":2384,"260":2385,"national":2386,"ys":2387,"era":2388,"1860":2389,"Geor":2390,"sto":2391,"gue":2392,"nin2":2393,"ess":2394,"Wal":2395,"WTA":2396,"ker":2397,"HC":2398,"way":2399,"Show":2400,"lver":2401,"Ac":2402,"UA":2403,"was":2404,"Un":2405,"ham":2406,"1888":2407,"text":2408,"SD":2409,"ac":2410,"Ã³":2411,"roup":2412,"-.":2413,"ans":2414,"ouse":2415,"Bra":2416,"roid":2417,"cation":2418,"background":2419,"tle":2420,"yun1":2421,"dai3":2422,"Cy":2423,"pre":2424,"GO":2425,"Wh":2426,"chen1":2427,"1870":2428,"ream":2429,"GN":2430,"ï¹":2431,"129":2432,"ony":2433,"1887":2434,"bur":2435,"any":2436,"dis":2437,"shuan1":2438,"1868":2439,"Meta":2440,"6000":2441,"Ã¶":2442,"ÑĢ":2443,"El":2444,"NF":2445,"VA":2446,"cle":2447,"1883":2448,"lor":2449,"ank":2450,"ous":2451,"Xbox":2452,"320":2453,"CS":2454,"Tho":2455,"NHK":2456,"AF":2457,"As":2458,"DD":2459,"Twitter":2460,"KP":2461,"nclude":2462,"onlyi":2463,"onlyinclude":2464,"piao2":2465,"++":2466,"bit":2467,"tang4":2468,"1864":2469,"âĢ¢":2470,"ION":2471,"ny":2472,"cho":2473,"1884":2474,"RC":2475,"UE":2476,"mar":2477,"ensis":2478,"119":2479,"122":2480,"2500":2481,"1892":2482,"210":2483,"A1":2484,"tis":2485,"ena":2486,"let":2487,"center":2488,"miu4":2489,"155":2490,"ins":2491,"ower":2492,"ISO":2493,"Mat":2494,"âħ":2495,"145":2496,"1891":2497,"650":2498,"Clu":2499,"cer":2500,"Android":2501,"Girl":2502,"age":2503,"ãĢķ":2504,"OR":2505,"red":2506,"nes":2507,"Ku":2508,"NS":2509,"cuo1":2510,"car":2511,"ãĢĶ":2512,"1850":2513,"htt":2514,"meri":2515,"Cl":2516,"val":2517,"International":2518,"Day":2519,"xy":2520,"ound":2521,"mi1":2522,"1867":2523,"logy":2524,"stem":2525,"IM":2526,"pang4":2527,"ãĥĪ":2528,"eld":2529,"All":2530,"ffi":2531,"1879":2532,"ake":2533,"James":2534,"Enter":2535,"War":2536,"par":2537,"sel":2538,"380":2539,"AB":2540,"UP":2541,"Ver":2542,"bri":2543,"ney":2544,"1876":2545,"Ani":2546,"Coun":2547,"sia":2548,"George":2549,"Can":2550,"lie":2551,"1875":2552,"1861":2553,"270":2554,"Universi":2555,"Dra":2556,"Her":2557,"Por":2558,"td":2559,"Games":2560,"Air":2561,"IR":2562,"126":2563,"NT":2564,"Ã¨":2565,"time":2566,"inter":2567,"Hol":2568,"Pau":2569,"Spe":2570,"NGC":2571,"stru":2572,"ãĥ«":2573,"1873":2574,"MG":2575,"ns":2576,"123":2577,"ãĥ©":2578,"ama":2579,"Eng":2580,"Hen":2581,"PV":2582,"Ab":2583,"Group":2584,"HT":2585,"sed":2586,"rans":2587,"Colle":2588,"Ben":2589,"Hy":2590,"MB":2591,"Va":2592,"168":2593,"COVID":2594,"critic":2595,"FM":2596,"om":2597,"1865":2598,"ild":2599,"Club":2600,"AO":2601,"PL":2602,"lue":2603,"that":2604,"ass":2605,"Ameri":2606,"DE":2607,"121":2608,"Center":2609,"hy":2610,"cus":2611,"work":2612,"Blo":2613,"175":2614,"ald":2615,"ãģĨ":2616,"Web":2617,"H2":2618,"YP":2619,"from":2620,"Ã¤":2621,"1400":2622,"MAX":2623,"Ali":2624,"138":2625,"228":2626,"TP":2627,"ast":2628,"ha2":2629,"chan4":2630,"nic":2631,"1848":2632,"fer":2633,"liu1":2634,"1862":2635,"ration":2636,"330":2637,"peng3":2638,"124":2639,"ãĤ¢":2640,"1881":2641,"1882":2642,"737":2643,"Park":2644,"vil":2645,"ens":2646,"ona":2647,"1878":2648,"550":2649,"guai3":2650,"Ve":2651,"rui3":2652,"1872":2653,"LC":2654,"bin4":2655,"Hel":2656,"High":2657,"INK":2658,"Metacritic":2659,"zo":2660,"It":2661,"nao2":2662,"tro":2663,"Oricon":2664,"MTV":2665,"UC":2666,"wan":2667,"156":2668,"165":2669,"Boo":2670,"LED":2671,"don":2672,"nian3":2673,"1840":2674,"IVE":2675,"Spi":2676,"core":2677,"dai1":2678,"750":2679,"dge":2680,"shai4":2681,"ãĥĥ":2682,"cre":2683,"ming":2684,"137":2685,"ãģĹ":2686,"Lea":2687,"nis":2688,"1300":2689,"stagram":2690,"7000":2691,"ring":2692,"Bro":2693,"DOS":2694,"SQ":2695,"UB":2696,"229":2697,"IU":2698,"She":2699,"GDP":2700,"King":2701,"OK":2702,"Ñģ":2703,"Chu":2704,"Pla":2705,"rand":2706,"152":2707,"out":2708,"TVB":2709,"Micha":2710,"Fri":2711,"day":2712,"159":2713,"1877":2714,"Robert":2715,"Stre":2716,"type":2717,"Sur":2718,"âĹ":2719,"kui3":2720,"1866":2721,"Chris":2722,"iOS":2723,"Ð»":2724,"als":2725,"Produ":2726,"SK":2727,"Up":2728,"1869":2729,"âĢ²":2730,"silver":2731,"Ele":2732,"THE":2733,"DM":2734,"xiu3":2735,"star":2736,"Peter":2737,"NET":2738,"Pat":2739,"gar":2740,"pla":2741,"she":2742,"play":2743,"Ðº":2744,"Chi":2745,"Instagram":2746,"BI":2747,"py":2748,"139":2749,"BLAC":2750,"Big":2751,"gan":2752,"Ð²":2753,"DJ":2754,"reng1":2755,"lip":2756,"sso":2757,"Phone":2758,"CG":2759,"WE":2760,"code":2761,"ãĤ¯":2762,"Michael":2763,"At":2764,"DF":2765,"ï¸":2766,"Apple":2767,"1100":2768,"Ci":2769,"ai":2770,"158":2771,"Tech":2772,"Paul":2773,"225":2774,"gon":2775,"ene":2776,"305":2777,"133":2778,"alk":2779,"INE":2780,"National":2781,"Type":2782,"RA":2783,"sa3":2784,"nia":2785,"ãĥª":2786,"ator":2787,"Award":2788,"HI":2789,"YO":2790,"132":2791,"Steam":2792,"Es":2793,"Ye":2794,"ral":2795,"205":2796,"1863":2797,"ray":2798,"tainment":2799,"215":2800,"Bill":2801,"cia":2802,"University":2803,"Ce":2804,"FO":2805,"phy":2806,"CA":2807,"F1":2808,"KBS":2809,"148":2810,"131":2811,"Media":2812,"Kar":2813,"Lou":2814,"Mer":2815,"Smi":2816,"Wo":2817,"166":2818,"arch":2819,"new":2820,"1874":2821,"EF":2822,"XX":2823,"kg":2824,"now":2825,"deo":2826,"enti":2827,"1858":2828,"Fin":2829,"ic":2830,"147":2831,"Black":2832,"bal":2833,"vin":2834,"256":2835,"ãģĭ":2836,"GA":2837,"Gar":2838,"M2":2839,"kun3":2840,"1830":2841,"Rich":2842,"CBS":2843,"Ter":2844,"UT":2845,"ach":2846,"clo":2847,"ew":2848,"1851":2849,"ora":2850,"Lee":2851,"BN":2852,"EM":2853,"UI":2854,"192":2855,"Î¼":2856,"Cha":2857,"8000":2858,"che3":2859,"Jack":2860,"Entertainment":2861,"if":2862,"zer":2863,"ann":2864,"lin3":2865,"mini":2866,"bin":2867,"143":2868,"set":2869,"ada":2870,"City":2871,"Mk":2872,"gang4":2873,"1855":2874,"Intel":2875,"310":2876,"Power":2877,"IX":2878,"ha3":2879,"mber":2880,"IE":2881,"RAM":2882,"Space":2883,"bel":2884,"zuo2":2885,"ð«":2886,"1859":2887,"STAR":2888,"Charles":2889,"134":2890,"tions":2891,"iss":2892,"Dire":2893,"ship":2894,"Ang":2895,"ABC":2896,"185":2897,"1854":2898,"org":2899,"146":2900,"301":2901,"Fla":2902,"1700":2903,"Viu":2904,"370":2905,"space":2906,"1857":2907,"Free":2908,"GM":2909,"Win":2910,"ek":2911,"whi":2912,"stro":2913,"Er":2914,"vs":2915,"Ø§":2916,"290":2917,"ãģª":2918,"Life":2919,"Tai":2920,"ï¸°":2921,"Sam":2922,"Î³":2923,"ino":2924,"Java":2925,"214":2926,"Py":2927,"ÑĤ":2928,"mis":2929,"Recor":2930,"Company":2931,"stitu":2932,"420":2933,"Dream":2934,"Pol":2935,"fang":2936,"Î¿":2937,"ãĢľ":2938,"1856":2939,"1853":2940,"Project":2941,"House":2942,"ah":2943,"first":2944,"dium":2945,"ãģŁ":2946,"ety":2947,"ood":2948,"Time":2949,"Thomas":2950,"Pan":2951,"bra":2952,"von":2953,"bo4":2954,"144":2955,"Alpha":2956,"Saint":2957,"FA":2958,"Ken":2959,"OVA":2960,"Cent":2961,"VO":2962,"face":2963,"A2":2964,"IO":2965,"167":2966,"3A":2967,"HS":2968,"SBS":2969,"sha3":2970,"bili":2971,"kua3":2972,"1841":2973,"Street":2974,"Am":2975,"Alex":2976,"Bat":2977,"LP":2978,"spe":2979,"alo":2980,"Japan":2981,"340":2982,"Ag":2983,"PM":2984,"chuan3":2985,"rie":2986,"Euro":2987,"BLACKP":2988,"Spo":2989,"Tor":2990,"ae":2991,"wn":2992,"za1":2993,"208":2994,"1815":2995,"178":2996,"CPU":2997,"BLACKPINK":2998,"223":2999,"Bur":3000,"Tru":3001,"cis":3002,"men4":3003,"Soci":3004,"850":3005,"LGB":3006,"Sing":3007,"tal":3008,"zuo1":3009,"cher":3010,"ric":3011,"ses":3012,"Rock":3013,"Studio":3014,"www":3015,"IBM":3016,"die":3017,"mat":3018,"esti":3019,"ports":3020,"SF":3021,"Val":3022,"you":3023,"207":3024,"very":3025,"235":3026,"ãģ¨":3027,"ãģ¾":3028,"mation":3029,"Art":3030,"Dig":3031,"Fer":3032,"LIVE":3033,"Mr":3034,"Met":3035,"Pop":3036,"SU":3037,"203":3038,"ning4":3039,"171":3040,"berg":3041,"B2":3042,"VE":3043,"Whi":3044,"nal":3045,"comp":3046,"Shi":3047,"SQL":3048,"Pad":3049,"cra":3050,"sg":3051,"vis":3052,"1846":3053,"164":3054,"ford":3055,"not":3056,"College":3057,"Min":3058,"Yu":3059,"bre":3060,"lit":3061,"157":3062,"vice":3063,"publi":3064,"BR":3065,"LT":3066,"NE":3067,"Sun":3068,"141":3069,"ICE":3070,"American":3071,"B1":3072,"Cro":3073,"PE":3074,"est":3075,"board":3076,"176":3077,"sign":3078,"ING":3079,"Asso":3080,"LS":3081,"ball":3082,"han1":3083,"Â²":3084,"well":3085,"1812":3086,"1845":3087,"1844":3088,"Road":3089,"Girls":3090,"self":3091,"ple":3092,"mit":3093,"231":3094,"Offi":3095,"cture":3096,"class":3097,"HF":3098,"Ltd":3099,"M3":3100,"pm":3101,"bor":3102,"ãĤĬ":3103,"witch":3104,"LGBT":3105,"BB":3106,"209":3107,"wood":3108,"pon":3109,"cess":3110,"ãģį":3111,"NASA":3112,"GNU":3113,"Ger":3114,"LA":3115,"PA":3116,"wai1":3117,"ded":3118,"thy":3119,"Jose":3120,"Tele":3121,"Smith":3122,"Cla":3123,"Cra":3124,"Pra":3125,"ise":3126,"ampi":3127,"aurus":3128,"IUCN":3129,"216":3130,"PN":3131,"wh":3132,"Îº":3133,"1849":3134,"153":3135,"Good":3136,"CT":3137,"Fil":3138,"Hall":3139,"NBC":3140,"Tour":3141,"zhou3":3142,"204":3143,"238":3144,"Cho":3145,"ump":3146,"Production":3147,"le1":3148,"lea":3149,"tation":3150,"ness":3151,"Video":3152,"GT":3153,"O2":3154,"Sci":3155,"Ïĥ":3156,"mited":3157,"Gala":3158,"Eli":3159,"Fo":3160,"PR":3161,"war":3162,"yn":3163,"din":3164,"206":3165,"eries":3166,"Ze":3167,"1814":3168,"mac":3169,"218":3170,"fri":3171,"fra":3172,"lti":3173,"ons":3174,"ange":3175,"Richard":3176,"SI":3177,"mal":3178,"chun3":3179,"IGN":3180,"Act":3181,"LD":3182,"Sen":3183,"WS":3184,"win":3185,"âĸ":3186,"pic":3187,"qui":3188,"Chri":3189,"Boy":3190,"Plan":3191,"Sky":3192,"Tur":3193,"bun":3194,"ÏĢ":3195,"def":3196,"1847":3197,"154":3198,"tho":3199,"ved":3200,"vision":3201,"turn":3202,"460":3203,"580":3204,"Bel":3205,"FF":3206,"Far":3207,"Mas":3208,"her":3209,"iro":3210,"sch":3211,"ves":3212,"zz":3213,"mor":3214,"1843":3215,"Best":3216,"System":3217,"ptr":3218,"430":3219,"MBC":3220,"sha":3221,"401":3222,"chem":3223,"410":3224,"bar":3225,"bus":3226,"pr":3227,"led":3228,"177":3229,"rich":3230,"off":3231,"ãĤ·":3232,"los":3233,"NFL":3234,"ViuTV":3235,"Cal":3236,"Switch":3237,"163":3238,"AMD":3239,"API":3240,"West":3241,"Dan":3242,"ICO":3243,"ep":3244,"oper":3245,"ments":3246,"1852":3247,"162":3248,"cript":3249,"VII":3250,"gs":3251,"1820":3252,"this":3253,"ãģı":3254,"Max":3255,"Inc":3256,"Ama":3257,"Bor":3258,"Fre":3259,"Prin":3260,"cil":3261,"ue":3262,"142":3263,"get":3264,"234":3265,"thon":3266,"Roy":3267,"VR":3268,"172":3269,"ãģĬ":3270,"ãģķ":3271,"Records":3272,"640":3273,"Em":3274,"Gal":3275,"Squ":3276,"Vir":3277,"169":3278,"3500":3279,"Limited":3280,"data":3281,"CM":3282,"Core":3283,"KC":3284,"T1":3285,"Â±":3286,"lve":3287,"1839":3288,"ars":3289,"232":3290,"480":3291,"ci1":3292,"179":3293,"cade":3294,"2030":3295,"149":3296,"max":3297,"365":3298,"Institu":3299,"mann":3300,"Res":3301,"1821":3302,"ãĥŃ":3303,"ãģ¿":3304,"ders":3305,"Unicode":3306,"ROM":3307,"CCTV":3308,"390":3309,"BU":3310,"Han":3311,"cent":3312,"lli":3313,"tv":3314,"306":3315,"222":3316,"601":3317,"unch":3318,"Fan":3319,"Vol":3320,"ii":3321,"tube":3322,"173":3323,"247":3324,"ria":3325,"itch":3326,"Bob":3327,"ful":3328,"Cri":3329,"EA":3330,"PF":3331,"king":3332,"tian":3333,"ital":3334,"oot":3335,"KK":3336,"XP":3337,"1790":3338,"560":3339,"OH":3340,"SN":3341,"use":3342,"wid":3343,"lian":3344,"ping":3345,"ãĥ¬":3346,"ciation":3347,"211":3348,"BF":3349,"Fun":3350,"Trans":3351,"VM":3352,"ire":3353,"Hot":3354,"MU":3355,"PD":3356,"PH":3357,"Sco":3358,"Sir":3359,"io":3360,"var":3361,"shua3":3362,"lum":3363,"1795":3364,"303":3365,"âĹĭ":3366,"183":3367,"233":3368,"search":3369,"ãģ¡":3370,"1801":3371,"Force":3372,"213":3373,"Pen":3374,"Tok":3375,"kh":3376,"lon":3377,"weng4":3378,"run":3379,"ãĥŀ":3380,"USB":3381,"Van":3382,"num":3383,"tia":3384,"sub":3385,"nie":3386,"174":3387,"rew":3388,"MVP":3389,"Heart":3390,"Fire":3391,"Jean":3392,"CK":3393,"zon":3394,"Ïģ":3395,"áĢ":3396,"ìĿ":3397,"186":3398,"1838":3399,"ord":3400,"ally":3401,"Store":3402,"520":3403,"610":3404,"Bank":3405,"DDR":3406,"Glo":3407,"Top":3408,"sor":3409,"up":3410,"nga":3411,"mily":3412,"cker":3413,"iPad":3414,"rong3":3415,"tz":3416,"sur":3417,"161":3418,"501":3419,"ãĥī":3420,"its":3421,"aya":3422,"Home":3423,"http":3424,"Direct":3425,"224":3426,"CF":3427,"Hor":3428,"Lon":3429,"ele":3430,"bile":3431,"1813":3432,"ãĤī":3433,"Phil":3434,"Dr":3435,"Fle":3436,"GE":3437,"zy":3438,"ÏĦ":3439,"182":3440,"1832":3441,"1842":3442,"lation":3443,"Society":3444,"AE":3445,"Cam":3446,"Zi":3447,"fter":3448,"184":3449,"ãĤ«":3450,"Mini":3451,"key":3452,"Data":3453,"720":3454,"KI":3455,"Mel":3456,"Script":3457,"iPhone":3458,"jo":3459,"âĺ":3460,"1836":3461,"late":3462,"1793":3463,"255":3464,"tha":3465,"ãĤª":3466,"Comic":3467,"Muse":3468,"221":3469,"HBO":3470,"MT":3471,"Sto":3472,"dro":3473,"hou3":3474,"kin":3475,"nt":3476,"1833":3477,"1789":3478,"Sha":3479,"tics":3480,"River":3481,"https":3482,"Association":3483,"Galaxy":3484,"buntu":3485,"DAM":3486,"M4":3487,"QQ":3488,"dra":3489,"fin":3490,"mg":3491,"ties":3492,"1835":3493,"151":3494,"ãĤ¿":3495,"ady":3496,"219":3497,"217":3498,"338":3499,"FT":3500,"Jan":3501,"JYP":3502,"SR":3503,"WA":3504,"em":3505,"ðĲ":3506,"shang":3507,"âĢ°":3508,"muni":3509,"1804":3510,"ONE":3511,"CEO":3512,"width":3513,"470":3514,"740":3515,"830":3516,"Ubuntu":3517,"ga4":3518,"uni":3519,"light":3520,"ella":3521,"Martin":3522,"Henry":3523,"League":3524,"Bay":3525,"YG":3526,"ban":3527,"bro":3528,"gre":3529,"ÏĤ":3530,"Ð´":3531,"âī":3532,"mus":3533,"Master":3534,"Champi":3535,"ving":3536,"Gener":3537,"Des":3538,"Ear":3539,"Fra":3540,"LINE":3541,"Phi":3542,"cen":3543,"Î½":3544,"less":3545,"ato":3546,"ART":3547,"Green":3548,"212":3549,"Br":3550,"DK":3551,"cti":3552,"Ñĥ":3553,"nger":3554,"hun":3555,"list":3556,"1828":3557,"ors":3558,"ãĤ³":3559,"cond":3560,"APAN":3561,"rown":3562,"Dou":3563,"FR":3564,"Night":3565,"Ven":3566,"dit":3567,"191":3568,"302":3569,"table":3570,"Billboard":3571,"680":3572,"Gam":3573,"Mana":3574,"MHz":3575,"PI":3576,"Pin":3577,"SNH":3578,"has":3579,"nm":3580,"Î¹":3581,"181":3582,"1624":3583,"237":3584,"side":3585,"main":3586,"ãĤĭ":3587,"China":3588,"Office":3589,"Joseph":3590,"SNH48":3591,"Bir":3592,"FDA":3593,"Gold":3594,"JAPAN":3595,"PK":3596,"à¹":3597,"á¹":3598,"1644":3599,"308":3600,"ston":3601,"Code":3602,"Stra":3603,"COM":3604,"Note":3605,"DB":3606,"Dy":3607,"Env":3608,"GR":3609,"Hill":3610,"Mil":3611,"Ob":3612,"Part":3613,"10000":3614,"1837":3615,"tui2":3616,"239":3617,"rick":3618,"logi":3619,"1806":3620,"Song":3621,"United":3622,"News":3623,"macOS":3624,"440":3625,"CV":3626,"Inv":3627,"MW":3628,"U21":3629,"har":3630,"mark":3631,"Ã¢":3632,"Ã®":3633,"Î´":3634,"à¥":3635,"âĳ":3636,"1819":3637,"299":3638,"346":3639,"Radio":3640,"Long":3641,"Pala":3642,"HTML":3643,"annel":3644,"780":3645,"East":3646,"Out":3647,"Ten":3648,"Talk":3649,"1825":3650,"245":3651,"236":3652,"than":3653,"505":3654,"279":3655,"ãģ«":3656,"ado":3657,"Young":3658,"Digital":3659,"540":3660,"Camp":3661,"EV":3662,"H5":3663,"Lau":3664,"rpm":3665,"chong4":3666,"001":3667,"sian":3668,"ned":3669,"ters":3670,"but":3671,"325":3672,"Bal":3673,"plo":3674,"pur":3675,"sus":3676,"1776":3677,"ãģĺ":3678,"peri":3679,"NCAA":3680,"Server":3681,"Ban":3682,"FAT":3683,"How":3684,"Ji":3685,"1818":3686,"265":3687,"right":3688,"ãģĵ":3689,"dent":3690,"Hello":3691,"Bru":3692,"Dri":3693,"Yo":3694,"app":3695,"coun":3696,"1824":3697,"1831":3698,"2027":3699,"illa":3700,"tical":3701,"Cry":3702,"GS":3703,"Les":3704,"RPG":3705,"bet":3706,"part":3707,"ul":3708,"wer":3709,"Ã§":3710,"Ã´":3711,"chel":3712,"med":3713,"rome":3714,"anda":3715,"Child":3716,"Hist":3717,"Service":3718,"âħ¡":3719,"Techno":3720,"Cat":3721,"Down":3722,"Os":3723,"UM":3724,"ice":3725,"hur":3726,"mond":3727,"temp":3728,"BSD":3729,"KiHa":3730,"Frank":3731,"Island":3732,"public":3733,"Science":3734,"1A":3735,"Blue":3736,"CW":3737,"Fore":3738,"XML":3739,"ben":3740,"Î»":3741,"275":3742,"2700":3743,"long":3744,"Youtube":3745,"Kong":3746,"Edward":3747,"Under":3748,"Python":3749,"White":3750,"312":3751,"5G":3752,"730":3753,"First":3754,"Grand":3755,"HL":3756,"Lan":3757,"OM":3758,"Pas":3759,"TBS":3760,"fun":3761,"hao1":3762,"264":3763,"295":3764,"386":3765,"1802":3766,"BLUE":3767,"Institute":3768,"Champion":3769,"630":3770,"Cas":3771,"Sum":3772,"TM":3773,"kar":3774,"Ãº":3775,"Ãł":3776,"nie1":3777,"1822":3778,"ared":3779,"sts":3780,"288":3781,"ãĤ¸":3782,"ÙĦ":3783,"307":3784,"244":3785,"ãĥķ":3786,"vate":3787,"Tunes":3788,"ITF":3789,"Tom":3790,"Gro":3791,"JT":3792,"xel":3793,"anti":3794,"launch":3795,"249":3796,"903":3797,"ille":3798,"North":3799,"Poly":3800,"Square":3801,"OT":3802,"Pal":3803,"PID":3804,"Series":3805,"llo":3806,"try":3807,"zation":3808,"Ä«":3809,"Å¡":3810,"tum":3811,"243":3812,"2800":3813,"tas":3814,"Your":3815,"This":3816,"Cup":3817,"burg":3818,"FX":3819,"Ham":3820,"Jump":3821,"Moun":3822,"NP":3823,"Sor":3824,"Sof":3825,"Ya":3826,"__":3827,"lio":3828,"1810":3829,"1622":3830,"1792":3831,"return":3832,"701":3833,"SARS":3834,"Cap":3835,"Hong":3836,"POP":3837,"960":3838,"Cur":3839,"Dani":3840,"Kh":3841,"Lang":3842,"Op":3843,"Sig":3844,"SHO":3845,"VV":3846,"ich":3847,"non":3848,"pai3":3849,"Îµ":3850,"mos":3851,"1650":3852,"801":3853,"Rap":3854,"Network":3855,"MIUI":3856,"2100":3857,"Ur":3858,"ob":3859,"Ð¼":3860,"007":3861,"1826":3862,"1573":3863,"rum":3864,"cing":3865,"have":3866,"747":3867,"Jour":3868,"Ray":3869,"Wat":3870,"ken":3871,"1834":3872,"304":3873,"226":3874,"278":3875,"ãĥŁ":3876,"ãĤĤ":3877,"375":3878,"add":3879,"1805":3880,"ACT":3881,"APP":3882,"AIR":3883,"Studi":3884,"Block":3885,"Gran":3886,"HA":3887,"Im":3888,"Para":3889,"Tre":3890,"ag":3891,"pres":3892,"rd":3893,"sin":3894,"296":3895,"298":3896,"385":3897,"ATA":3898,"Model":3899,"Die":3900,"2D":3901,"335":3902,"590":3903,"9000":3904,"CU":3905,"Dot":3906,"Gil":3907,"Sports":3908,"WN":3909,"ml":3910,"vy":3911,"Ïī":3912,"âĭ":3913,"lic":3914,"lang":3915,"1780":3916,"ges":3917,"227":3918,"sig":3919,"lta":3920,"ãĥł":3921,"aka":3922,"dings":3923,"IFA":3924,"315":3925,"Jon":3926,"Ren":3927,"Sp":3928,"fre":3929,"iTunes":3930,"Â»":3931,"sual":3932,"more":3933,"251":3934,"277":3935,"map":3936,"CNN":3937,"Auto":3938,"2A":3939,"Cle":3940,"Gol":3941,"Over":3942,"Rus":3943,"RFC":3944,"hr":3945,"pH":3946,"und":3947,"zine":3948,"1582":3949,"1799":3950,"259":3951,"246":3952,"248":3953,"thi":3954,"Mag":3955,"view":3956,"1809":3957,"gain":3958,"Que":3959,"South":3960,"Engine":3961,"530":3962,"C2":3963,"DLC":3964,"Now":3965,"Sc":3966,"gen4":3967,"sang3":3968,"Â«":3969,"ander":3970,"1823":3971,"orn":3972,"1621":3973,"272":3974,"405":3975,"ATION":3976,"1803":3977,"State":3978,"stems":3979,"Internet":3980,"EEE":3981,"press":3982,"334":3983,"620":3984,"770":3985,"Class":3986,"Dar":3987,"Jen":3988,"Nu":3989,"SG":3990,"VI":3991,"had":3992,"dition":3993,"ork":3994,"1625":3995,"284":3996,"285":3997,"ãĤµ":3998,"Stan":3999,"tware":4000,"dae":4001,"Publi":4002,"311":4003,"880":4004,"Lis":4005,"NM":4006,"Sony":4007,"dor":4008,"Ãī":4009,"á»":4010,"lution":4011,"cur":4012,"258":4013,"form":4014,"276":4015,"ãģĮ":4016,"ason":4017,"Mobile":4018,"Bus":4019,"Cli":4020,"Cer":4021,"Den":4022,"KO":4023,"Oper":4024,"XT":4025,"dd":4026,"ith":4027,"sco":4028,"à¦":4029,"253":4030,"ress":4031,"357":4032,"via":4033,"Moon":4034,"Wii":4035,"Pier":4036,"660":4037,"Bon":4038,"Get":4039,"Men":4040,"SV":4041,"UL":4042,"Ð¹":4043,"chen":4044,"oud":4045,"ãĥĹ":4046,"STA":4047,"ings":4048,"Maria":4049,"IPv":4050,"Unix":4051,"What":4052,"Europe":4053,"570":4054,"Bre":4055,"U19":4056,"WF":4057,"Way":4058,"ee":4059,"pat":4060,"Ð³":4061,"1827":4062,"tuan1":4063,"1570":4064,"aly":4065,"ãģĤ":4066,"cks":4067,"gazine":4068,"Link":4069,"ville":4070,"Book":4071,"314":4072,"3DS":4073,"690":4074,"BBS":4075,"C6":4076,"DSM":4077,"IEEE":4078,"SB":4079,"WWE":4080,"blo":4081,"ini":4082,"nor":4083,"1817":4084,"1640":4085,"1636":4086,"268":4087,"402":4088,"404":4089,"ãģ¯":4090,"Medi":4091,"Rain":4092,"Beau":4093,"Sound":4094,"which":4095,"4G":4096,"AX":4097,"Dol":4098,"Gri":4099,"fy":4100,"trans":4101,"1775":4102,"254":4103,"Francis":4104,"323":4105,"Cir":4106,"HP":4107,"Lit":4108,"OP":4109,"kao1":4110,"model":4111,"laris":4112,"1750":4113,"309":4114,"teri":4115,"cast":4116,"aker":4117,"Joy":4118,"fic":4119,"329":4120,"670":4121,"Ath":4122,"Clo":4123,"End":4124,"Ly":4125,"Plus":4126,"hel":4127,"ide":4128,"ung":4129,"yan":4130,"shing":4131,"guai1":4132,"1816":4133,"ãĥģ":4134,"ãĤ£":4135,"4500":4136,"Channel":4137,"CON":4138,"Victor":4139,"field":4140,"Tik":4141,"TOP":4142,"Cube":4143,"Louis":4144,"print":4145,".-":4146,"710":4147,"910":4148,"950":4149,"DI":4150,"God":4151,"MK":4152,"ab":4153,"oc":4154,"dian":4155,"pin":4156,"arr":4157,"241":4158,"2300":4159,"Research":4160,"ISBN":4161,"Poli":4162,"Film":4163,"tvN":4164,"326":4165,"Asia":4166,"Bou":4167,"PT":4168,"T2":4169,"rch":4170,"sp":4171,"à½":4172,"pital":4173,"1592":4174,"alle":4175,"347":4176,"758":4177,"May":4178,"oom":4179,"Stand":4180,"ople":4181,"Ara":4182,"DT":4183,"Tro":4184,"tr":4185,"tan":4186,"tual":4187,"1628":4188,"1788":4189,"252":4190,"242":4191,"269":4192,"ãĥĭ":4193,"andy":4194,"Leon":4195,"ffer":4196,"fea":4197,"Nico":4198,"velop":4199,"tural":4200,"318":4201,"336":4202,"978":4203,"Ado":4204,"CB":4205,"DL":4206,"Festi":4207,"MUS":4208,"N2":4209,"O3":4210,"áĥ":4211,"bie1":4212,"tio":4213,"pos":4214,"1627":4215,"1783":4216,"1791":4217,"alth":4218,"406":4219,"354":4220,"INN":4221,"Regi":4222,"phi":4223,"Vista":4224,"rough":4225,"Pixel":4226,"Disney":4227,"âĸ¡":4228,"Acade":4229,"Cour":4230,"EL":4231,"F4":4232,"IB":4233,"LAN":4234,"LTE":4235,"Pho":4236,"Sm":4237,"pa1":4238,"tre":4239,"nica":4240,"1797":4241,"289":4242,"ï¼»":4243,"ï¼½":4244,"ced":4245,"Mach":4246,"556":4247,"Beat":4248,"Law":4249,"Ange":4250,"DMS":4251,"OF":4252,"TH":4253,"Tan":4254,"nan3":4255,"pop":4256,"1779":4257,"1796":4258,"607":4259,"ãģ¤":4260,"ãģł":4261,"352":4262,"465":4263,"1808":4264,"Prof":4265,"ERT":4266,"some":4267,"km2":4268,"Works":4269,"NCT":4270,"Alice":4271,"Software":4272,"âĭ¯":4273,"321":4274,"337":4275,"A4":4276,"Ami":4277,"T3":4278,"fla":4279,"gis":4280,"ls":4281,"char":4282,"huang4":4283,"night":4284,"1829":4285,"tude":4286,"1778":4287,"1794":4288,"283":4289,"273":4290,"test":4291,"ãĥ£":4292,"ãĥĲ":4293,"ãĤ¨":4294,"cky":4295,"Cos":4296,"Mary":4297,"Visual":4298,"inese":4299,"YouTuber":4300,"ASC":4301,"world":4302,"Elect":4303,"Battle":4304,"313":4305,"510":4306,"840":4307,"860":4308,"Foot":4309,"Mnet":4310,"vance":4311,"Ã±":4312,"Î¸":4313,"shuai3":4314,"1798":4315,"mega":4316,"ãģ¦":4317,"456":4318,"372":4319,"Johan":4320,"ECT":4321,"system":4322,"Special":4323,"Awards":4324,"448":4325,"870":4326,"Blu":4327,"MF":4328,"ath":4329,"ror":4330,"sca":4331,"web":4332,"1580":4333,"1612":4334,"1634":4335,"1787":4336,"281":4337,"267":4338,"ãĥĩ":4339,"ãģ£":4340,"mad":4341,"ãĤ¦":4342,"lost":4343,"mmy":4344,"Premi":4345,"Royal":4346,"Global":4347,"911":4348,"DG":4349,"Fro":4350,"Mis":4351,"Oli":4352,"Set":4353,"TN":4354,"Tou":4355,"WO":4356,"âĩ":4357,"shai3":4358,"mina":4359,"1567":4360,"1648":4361,"271":4362,"tech":4363,"ltra":4364,"Real":4365,"pedia":4366,"pher":4367,"cono":4368,"Arts":4369,"BOX":4370,"Enviro":4371,"AH":4372,"Dark":4373,"E3":4374,"Gor":4375,"MM":4376,"Mur":4377,"Not":4378,"Pay":4379,"York":4380,"ev":4381,"chuo1":4382,"hus":4383,"bon":4384,"367":4385,"OSHI":4386,"const":4387,"ACE":4388,"ffe":4389,"ENT":4390,"AGA":4391,"Great":4392,"TikTok":4393,"-&":4394,"322":4395,"Ah":4396,"MON":4397,"OTT":4398,"Rou":4399,"VB":4400,"cas":4401,"bian":4402,"posi":4403,"1550":4404,"1568":4405,"1615":4406,"1630":4407,"lam":4408,"formation":4409,"286":4410,"ãĥĸ":4411,"Magazine":4412,"CH3":4413,"Compu":4414,"Museum":4415,"Daniel":4416,"Festival":4417,"Brown":4418,"Cru":4419,"CAS":4420,"FBI":4421,"LG":4422,"Mal":4423,"Mill":4424,"Ram":4425,"SIG":4426,"USA":4427,"ap":4428,"gg":4429,"other":4430,"zhao2":4431,"ying":4432,"pie1":4433,"1645":4434,"1646":4435,"fore":4436,"262":4437,"ãĤŃ":4438,"333":4439,"COLL":4440,"ARD":4441,"Secre":4442,"stea":4443,"stein":4444,"Encore":4445,"tures":4446,"Cloud":4447,"MUSIC":4448,"Hun":4449,"Lar":4450,"Let":4451,"bas":4452,"dou":4453,"gal":4454,"tto":4455,"Ø±":4456,"1626":4457,"261":4458,"297":4459,"tem":4460,"355":4461,"olf":4462,"Chinese":4463,"Kim":4464,"Online":4465,"328":4466,"820":4467,"Pet":4468,"PRO":4469,"S2":4470,"over":4471,"sou3":4472,"mod":4473,"ques":4474,"1637":4475,"rey":4476,"705":4477,"901":4478,"364":4479,"384":4480,"378":4481,"442":4482,"Memo":4483,"gic":4484,"Point":4485,"VIDIA":4486,"618":4487,"AU":4488,"CBC":4489,"HB":4490,"Has":4491,"Hum":4492,"NVIDIA":4493,"T48":4494,"cto":4495,"sche":4496,"yl":4497,"ze4":4498,"Ð¡":4499,"Ñĭ":4500,"1642":4501,"257":4502,"2400":4503,"282":4504,"2600":4505,"Mad":4506,"vern":4507,"Stadium":4508,"mple":4509,"1609":4510,"oney":4511,"Redmi":4512,"Year":4513,"Taiwan":4514,"Adobe":4515,"760":4516,"767":4517,"Cou":4518,"CAN":4519,"Il":4520,"O4":4521,"Sw":4522,"U17":4523,"VC":4524,"Vin":4525,"Won":4526,"bat":4527,"bps":4528,"heng4":4529,"ÑĮ":4530,"deon":4531,"nior":4532,"poration":4533,"1585":4534,"1583":4535,"1610":4536,"thing":4537,"ãĤĦ":4538,"583":4539,"ctory":4540,"1807":4541,"aki":4542,"ARM":4543,"TeX":4544,"stern":4545,"thern":4546,"Communi":4547,"Systems":4548,"General":4549,"930":4550,"FIFA":4551,"JU":4552,"KE":4553,"OD":4554,"Sin":4555,"Town":4556,"Thun":4557,"Who":4558,"cla":4559,"cci":4560,"jor":4561,"stu":4562,"tina":4563,"mol":4564,"1623":4565,"sty":4566,"274":4567,"ros":4568,"size":4569,"cell":4570,"999":4571,"Anto":4572,"Post":4573,"pring":4574,"Cyclo":4575,"ï¹ĳ":4576,"H2O":4577,"EOS":4578,"FIN":4579,"Ima":4580,"IEC":4581,"Kin":4582,"Kid":4583,"esta":4584,"sm":4585,"1571":4586,"1784":4587,"stan":4588,"263":4589,"509":4590,"293":4591,"351":4592,"Chan":4593,"Deep":4594,"Archi":4595,"wiki":4596,"2200":4597,"428":4598,"AJ":4599,"GUN":4600,"Tar":4601,"pra":4602,"sk":4603,"xx":4604,"lig":4605,"nity":4606,"1620":4607,"1723":4608,"1786":4609,"stre":4610,"504":4611,"lton":4612,"ãĥ¥":4613,"353":4614,"395":4615,"beth":4616,"value":4617,"Solaris":4618,"private":4619,"Christian":4620,"Metro":4621,"Manage":4622,"DotA":4623,"419":4624,"432":4625,"A3":4626,"Ari":4627,"FN":4628,"GL":4629,"Ron":4630,"bes":4631,"cat":4632,"card":4633,"ctive":4634,"pes":4635,"Åį":4636,"ìķ":4637,"curi":4638,"1450":4639,"inte":4640,"gel":4641,"rat":4642,"ãģĻ":4643,"cos":4644,"elo":4645,"Mike":4646,"hai":4647,"Key":4648,"Market":4649,"Christ":4650,"Philip":4651,"Studios":4652,"Little":4653,"345":4654,"427":4655,"Band":4656,"Cine":4657,"FE":4658,"HIV":4659,"K6":4660,"Line":4661,"VPN":4662,"Äį":4663,"like":4664,"zilla":4665,"oro":4666,"1577":4667,"1618":4668,"1643":4669,"ellow":4670,"387":4671,"399":4672,"cts":4673,"Cast":4674,"ource":4675,"LOVE":4676,"Fleet":4677,"Technology":4678,"317":4679,"331":4680,"512":4681,"565":4682,"H1":4683,"MY":4684,"R2":4685,"S1":4686,"Soft":4687,"Tay":4688,"U18":4689,"USS":4690,"Ultra":4691,"bb":4692,"his":4693,"lu1":4694,"ud":4695,"Ñı":4696,"lina":4697,"1586":4698,"1777":4699,"1453":4700,"806":4701,"base":4702,"CDMA":4703,"Radeon":4704,"Union":4705,"ALL":4706,"Valve":4707,"Children":4708,"Secret":4709,"327":4710,"490":4711,"445":4712,"446":4713,"535":4714,"Alt":4715,"Aven":4716,"FI":4717,"Found":4718,"Land":4719,"Mid":4720,"M87":4721,"Sk":4722,"U23":4723,"WI":4724,"WOR":4725,"para":4726,"rstea":4727,"yer":4728,"Ãª":4729,"endo":4730,"live":4731,"1521":4732,"1765":4733,"1774":4734,"into":4735,"stal":4736,"sey":4737,"second":4738,"vey":4739,"499":4740,"Stage":4741,"Multi":4742,"ller":4743,"With":4744,"Junior":4745,"BMW":4746,"Fried":4747,"Centre":4748,"where":4749,"Academy":4750,"411":4751,"416":4752,"Crea":4753,"EMI":4754,"HTC":4755,"KB":4756,"Omega":4757,"Sche":4758,"Å«":4759,"eni":4760,"cht":4761,"cul":4762,"1616":4763,"sible":4764,"tai":4765,"707":4766,"ily":4767,"369":4768,"397":4769,"vers":4770,"Joe":4771,"States":4772,"Wire":4773,"Niko":4774,"GPU":4775,"bility":4776,"613":4777,"NR":4778,"Swe":4779,"TW":4780,"ZA":4781,"Î·":4782,"ÎĶ":4783,"ÐĲ":4784,"eno":4785,"mia":4786,"1564":4787,"1785":4788,"lot":4789,"368":4790,"398":4791,"pho":4792,"TVBS":4793,"Next":4794,"Sub":4795,"Wiki":4796,"Geo":4797,"MySQL":4798,"void":4799,"Origin":4800,"Amazon":4801,"3C":4802,"810":4803,"BT":4804,"Hon":4805,"Jr":4806,"Sti":4807,"Sau":4808,"Sara":4809,"house":4810,"m3":4811,"pto":4812,"ÐĶ":4813,"1662":4814,"include":4815,"266":4816,"291":4817,"sist":4818,"head":4819,"588":4820,"Demo":4821,"Distri":4822,"Base":4823,"MOD":4824,"chie":4825,"Adam":4826,"Corporation":4827,"M1A1":4828,"ference":4829,"mission":4830,"velopment":4831,"GUNDAM":4832,"316":4833,"537":4834,"621":4835,"742":4836,"CI":4837,"E48":4838,"Eric":4839,"Flow":4840,"Ir":4841,"Run":4842,"TI":4843,"cted":4844,"pter":4845,"Ã«":4846,"ÙĨ":4847,"point":4848,"1540":4849,"1574":4850,"1772":4851,"std":4852,"287":4853,"tee":4854,"605":4855,"454":4856,"log":4857,"388":4858,"343":4859,"Mau":4860,"888":4861,"Arc":4862,"Sea":4863,"Sund":4864,"Draw":4865,"Church":4866,"Alexander":4867,"Cross":4868,"Management":4869,"425":4870,"475":4871,"Del":4872,"Lady":4873,"ND":4874,"Other":4875,"SW":4876,"kang2":4877,"pal":4878,"were":4879,"anna":4880,"aon":4881,"1250":4882,"1619":4883,"1629":4884,"1683":4885,"read":4886,"292":4887,"matic":4888,"363":4889,"376":4890,"STS":4891,"552":4892,"686":4893,"ook":4894,"ign":4895,"ality":4896,"Augu":4897,"Scott":4898,"London":4899,"Dyna":4900,"Cyclol":4901,"627":4902,"BRT":4903,"FL":4904,"Kir":4905,"Lake":4906,"MX":4907,"Pon":4908,"Sal":4909,"Tony":4910,"ale":4911,"hard":4912,"tru":4913,"Ð±":4914,"tish":4915,"tial":4916,"ough":4917,"ï¼Ĥ":4918,"sit":4919,"488":4920,"Design":4921,"Neo":4922,"open":4923,"Andrew":4924,"Spot":4925,"ðĲŃ":4926,"449":4927,"5A":4928,"625":4929,"738":4930,"Der":4931,"Fron":4932,"HER":4933,"Of":4934,"PB":4935,"Round":4936,"VER":4937,"ace":4938,"hl":4939,"oni":4940,"plan":4941,"Ðļ":4942,"shared":4943,"1590":4944,"1579":4945,"1633":4946,"ãĥĬ":4947,"fox":4948,"ãĤ°":4949,"ida":4950,"1507":4951,"put":4952,"CH2":4953,"volution":4954,"mont":4955,"Animax":4956,"Earth":4957,"412":4958,"LF":4959,"LM":4960,"Smo":4961,"SON":4962,"V8":4963,"hang1":4964,"inv":4965,"nan":4966,"ong":4967,"plor":4968,"Ð¿":4969,"íķ":4970,"jia":4971,"mir":4972,"mix":4973,"body":4974,"nico":4975,"1631":4976,"1680":4977,"1773":4978,"alan":4979,"294":4980,"sive":4981,"407":4982,"mate":4983,"ãĤĮ":4984,"ette":4985,"asa":4986,"396":4987,"3300":4988,"Beta":4989,"1604":4990,"Family":4991,"Ander":4992,"Hami":4993,"Fort":4994,"Party":4995,"PGA":4996,"Journal":4997,"980":4998,"Are":4999,"Bad":5000,"C4":5001,"Dun":5002,"Fold":5003,"GC":5004,"LR":5005,"Nar":5006,"Spring":5007,"pl":5008,"Äĩ":5009,"ÉĻ":5010,"cum":5011,"1575":5012,"1697":5013,"1755":5014,"1492":5015,"805":5016,"3600":5017,"467":5018,"471":5019,"Def":5020,"Simon":5021,"mics":5022,"ï¹Ĳ":5023,"trol":5024,"SKE48":5025,"Summer":5026,"Thunder":5027,"0x":5028,"319":5029,"Epic":5030,"J2":5031,"XC":5032,"fb":5033,"pel":5034,"nio":5035,"1561":5036,"1589":5037,"1595":5038,"1781":5039,"1465":5040,"508":5041,"ãĥĨ":5042,"ãģ²":5043,"344":5044,"589":5045,"1603":5046,"1606":5047,"1607":5048,"ppy":5049,"CNBLUE":5050,"Ruby":5051,"Bio":5052,"Council":5053,"Drive":5054,"Football":5055,"415":5056,"855":5057,"940":5058,"970":5059,"Clar":5060,"Fal":5061,"Miss":5062,"Son":5063,"kan":5064,"uage":5065,"x86":5066,"zen":5067,"Ã¸":5068,"Ãħ":5069,"ÃŁ":5070,"à®":5071,"bio":5072,"1522":5073,"1526":5074,"1556":5075,"1613":5076,"1660":5077,"502":5078,"506":5079,"ãĥĢ":5080,"377":5081,"478":5082,"554":5083,"ample":5084,"Alli":5085,"mercial":5086,"TOUR":5087,"Williams":5088,"cations":5089,"Hyper":5090,"ìĿ´":5091,"âĺĨ":5092,"Angela":5093,"417":5094,"525":5095,"920":5096,"925":5097,"After":5098,"Flor":5099,"Hit":5100,"LU":5101,"Ora":5102,"Sar":5103,"Sca":5104,"URI":5105,"Will":5106,"ski":5107,"Ùħ":5108,"ents":5109,"cheng4":5110,"bout":5111,"1525":5112,"1591":5113,"1667":5114,"lai":5115,"408":5116,"485":5117,"tos":5118,"643":5119,"baby":5120,"phen":5121,"Mari":5122,"Sho":5123,"AMO":5124,"Back":5125,"Fiesta":5126,"Steve":5127,"Rue":5128,"Advance":5129,"DOHC":5130,"Christo":5131,"324":5132,"422":5133,"515":5134,"534":5135,"Kit":5136,"Lam":5137,"Light":5138,"Mes":5139,"QS":5140,"S4":5141,"Tel":5142,"UK":5143,"VT":5144,"Wel":5145,"bles":5146,"hen":5147,"mRNA":5148,"who":5149,"zzo":5150,"Äĵ":5151,"âĤ":5152,"lish":5153,"sure":5154,"1510":5155,"1638":5156,"only":5157,"1730":5158,"media":5159,"ãĥĳ":5160,"fol":5161,"342":5162,"aso":5163,"393":5164,"479":5165,"phic":5166,"Story":5167,"1508":5168,"Mozilla":5169,"Vita":5170,"Last":5171,"HKT48":5172,"Syn":5173,"Cul":5174,"lassic":5175,"Water":5176,"Bern":5177,"Walter":5178,"America":5179,"Surface":5180,"Foundation":5181,"3200":5182,"531":5183,"538":5184,"546":5185,"Cre":5186,"EG":5187,"GHz":5188,"Hal":5189,"ITV":5190,"Jer":5191,"Jane":5192,"Kat":5193,"MBA":5194,"NI":5195,"Sol":5196,"TG":5197,"VS":5198,"ite":5199,"iPS":5200,"kW":5201,"pper":5202,"vir":5203,"lion":5204,"2028":5205,"1543":5206,"1457":5207,"indu":5208,"come":5209,"366":5210,"381":5211,"392":5212,"Indu":5213,"Buil":5214,"place":5215,"History":5216,"1st":5217,"413":5218,"Edu":5219,"F3":5220,"Gun":5221,"GPS":5222,"LZ":5223,"Pod":5224,"Than":5225,"U20":5226,"Wnt":5227,"down":5228,"zan3":5229,"zar":5230,"ÙĬ":5231,"bour":5232,"orig":5233,"1565":5234,"1559":5235,"1587":5236,"1597":5237,"âĢł":5238,"1635":5239,"1688":5240,"1733":5241,"1782":5242,"also":5243,"tex":5244,"sio":5245,"606":5246,"ãģĳ":5247,"373":5248,"Albert":5249,"Arti":5250,"Tim":5251,"Times":5252,"Johnson":5253,"Final":5254,"4A":5255,"426":5256,"524":5257,"612":5258,"890":5259,"Ash":5260,"By":5261,"Bell":5262,"FS":5263,"Jim":5264,"Tol":5265,"UD":5266,"Za":5267,"bs":5268,"ov":5269,"score":5270,"Â£":5271,"ÐŁ":5272,"Ñĩ":5273,"chy":5274,"ort":5275,"1588":5276,"1598":5277,"507":5278,"thew":5279,"641":5280,"495":5281,"682":5282,"666":5283,"Rod":5284,"Rose":5285,"Austra":5286,"Common":5287,"worth":5288,"Mont":5289,"Brian":5290,"CLA":5291,"Place":5292,"Telegram":5293,"Pierre":5294,"332":5295,"4K":5296,"435":5297,"575":5298,"790":5299,"990":5300,"Ai":5301,"Bet":5302,"Mus":5303,"TMA":5304,"wen":5305,"yon":5306,"tie4":5307,"bow":5308,"1523":5309,"1535":5310,"1649":5311,"1661":5312,"1770":5313,"1499":5314,"stor":5315,"stry":5316,"ãĤ¬":5317,"ãĤı":5318,"361":5319,"466":5320,"391":5321,"....":5322,"551":5323,"vices":5324,"Med":5325,"Moder":5326,"1601":5327,"PCI":5328,"Hotel":5329,"eller":5330,"TOK":5331,"AcFun":5332,"Angel":5333,"Flash":5334,"craft":5335,"number":5336,"Wonder":5337,"528":5338,"5500":5339,"Bang":5340,"Hard":5341,"HTT":5342,"Sma":5343,"Shan":5344,"Var":5345,"ea":5346,"fis":5347,"ola":5348,"chan":5349,"mine":5350,"tica":5351,"shuan4":5352,"1511":5353,"1760":5354,"1769":5355,"358":5356,"tera":5357,"371":5358,"469":5359,"684":5360,"Rep":5361,"587":5362,"View":5363,"ppm":5364,"gio":5365,"Siri":5366,"SMAP":5367,"But":5368,"Explor":5369,"Edge":5370,"Soul":5371,"tribu":5372,"Golden":5373,"548":5374,"AW":5375,"Kri":5376,"Mir":5377,"MAC":5378,"air":5379,"even":5380,"huo":5381,"spi":5382,"vat":5383,"tian3":5384,"20000":5385,"1080":5386,"15000":5387,"1576":5388,"1594":5389,"1689":5390,"362":5391,"383":5392,"TCP":5393,"341":5394,"Mai":5395,"Roman":5396,"NASL":5397,"Program":5398,"Some":5399,"Bridge":5400,"active":5401,"scope":5402,"European":5403,"vernment":5404,"921":5405,"Apo":5406,"Bil":5407,"Dance":5408,"Kon":5409,"L1":5410,"MR":5411,"Mind":5412,"MMC":5413,"NEX":5414,"Pass":5415,"RB":5416,"TF":5417,"UFO":5418,"VF":5419,"bum":5420,"ey":5421,"gni":5422,"hong4":5423,"rang2":5424,"sal":5425,"sky":5426,"ðª":5427,"cheng3":5428,"left":5429,"1811":5430,"1517":5431,"1514":5432,"1552":5433,"âĢķ":5434,"1639":5435,"1684":5436,"then":5437,"sie":5438,"608":5439,"sell":5440,"master":5441,"349":5442,"644":5443,"557":5444,"ird":5445,"585":5446,"597":5447,"ardo":5448,"Development":5449,"Mod":5450,"Seven":5451,"Raw":5452,"osa":5453,"Week":5454,"thers":5455,"Just":5456,"Matthew":5457,"Port":5458,"Eliza":5459,"Gamer":5460,"template":5461,"curity":5462,"Taylor":5463,"348":5464,"436":5465,"549":5466,"AST":5467,"Brand":5468,"Dia":5469,"Ever":5470,"Fred":5471,"Mitch":5472,"Pres":5473,"RN":5474,"Ret":5475,"Tran":5476,"Villa":5477,"cs":5478,"cuo2":5479,"ext":5480,"rent":5481,"uts":5482,"yond":5483,"1578":5484,"1763":5485,"1350":5486,"iness":5487,"ï¼ĭ":5488,"403":5489,"cept":5490,"908":5491,"ession":5492,"6500":5493,"vie":5494,"case":5495,"1505":5496,"tour":5497,"777":5498,"Marie":5499,"anger":5500,"Test":5501,"fied":5502,"fication":5503,"Pack":5504,"prote":5505,"Qui":5506,"Santa":5507,"MG42":5508,"547":5509,"567":5510,"668":5511,"C5":5512,"FAN":5513,"Lor":5514,"NK":5515,"Oh":5516,"Rol":5517,"T4":5518,"YOSHI":5519,"cou":5520,"kes":5521,"olet":5522,"pus":5523,"sao4":5524,"vor":5525,"Â³":5526,"Ñĸ":5527,"mid":5528,"ering":5529,"1050":5530,"cula":5531,"1614":5532,"1720":5533,"374":5534,"CoV":5535,"494":5536,"verse":5537,"IDE":5538,"IPS":5539,"PSP":5540,"Hea":5541,"People":5542,"UNIX":5543,"Commit":5544,"âħł":5545,"Frame":5546,"Mountain":5547,"IPv4":5548,"Explorer":5549,"514":5550,"522":5551,"545":5552,"568":5553,"619":5554,"675":5555,"CSS":5556,"D1":5557,"DNS":5558,"EBU":5559,"KT":5560,"Kel":5561,"Shu":5562,"Sand":5563,"bn":5564,"bla":5565,"cin":5566,"ne2":5567,"ovan":5568,"yong2":5569,"lete":5570,"poly":5571,"1516":5572,"1513":5573,"1534":5574,"1547":5575,"1569":5576,"16V":5577,"1460":5578,"ronic":5579,"rate":5580,"cel":5581,"ãģ§":5582,"359":5583,"757":5584,"itz":5585,"642":5586,"581":5587,"ssa":5588,"aux":5589,"1502":5590,"ctions":5591,"à¸£":5592,"Work":5593,"SOHC":5594,"Spiri":5595,"Arthur":5596,"Queen":5597,"COLLAR":5598,"Sunday":5599,"418":5600,"414":5601,"424":5602,"433":5603,"544":5604,"Ale":5605,"CJ":5606,"DTS":5607,"F2":5608,"JO":5609,"Jus":5610,"MMO":5611,"PEN":5612,"Two":5613,"XIV":5614,"Yah":5615,"ami":5616,"bu1":5617,"ese":5618,"flo":5619,"kins":5620,"phe":5621,"will":5622,"zed":5623,"ÐĴ":5624,"1731":5625,"1768":5626,"1771":5627,"1490":5628,"stone":5629,"mel":5630,"409":5631,"lter":5632,"ãĥı":5633,"604":5634,"802":5635,"ãĤ±":5636,"ãĤĩ":5637,"ãĤį":5638,"389":5639,"7500":5640,"394":5641,"476":5642,"been":5643,"493":5644,"ERO":5645,"Solo":5646,"Box":5647,"Rift":5648,"GeForce":5649,"AGE":5650,"Prime":5651,"FOX":5652,"news":5653,"while":5654,"True":5655,"JTBC":5656,"âĩĶ":5657,"Cinema":5658,"431":5659,"539":5660,"745":5661,"ABS":5662,"Bit":5663,"Classic":5664,"EO":5665,"Hay":5666,"Jam":5667,"Ker":5668,"Lord":5669,"Mit":5670,"Sel":5671,"Tam":5672,"V6":5673,"hol":5674,"jq":5675,"Ä±":5676,"shed":5677,"shop":5678,"change":5679,"biao4":5680,"tice":5681,"1593":5682,"1724":5683,"1752":5684,"1469":5685,"1498":5686,"1370":5687,"sili":5688,"ãģĪ":5689,"382":5690,"755":5691,"464":5692,"444":5693,"571":5694,"1501":5695,"Never":5696,"nova":5697,"Name":5698,"PS3":5699,"Express":5700,"works":5701,"British":5702,"Dragon":5703,"tdown":5704,"Karl":5705,"AGASA":5706,"Kids":5707,"Friedrich":5708,"646":5709,"667":5710,"CIA":5711,"D2":5712,"Dro":5713,"Gin":5714,"IRT":5715,"M6":5716,"Num":5717,"Old":5718,"XF":5719,"ZJ":5720,"high":5721,"ppe":5722,"zza":5723,"dex":5724,"lius":5725,"ery":5726,"dies":5727,"tine":5728,"tify":5729,"1520":5730,"1560":5731,"1553":5732,"1651":5733,"lau":5734,"law":5735,"1740":5736,"aro":5737,"1493":5738,"602":5739,"sea":5740,"made":5741,"904":5742,"ism":5743,"496":5744,"498":5745,"443":5746,"nament":5747,"cio":5748,"user":5749,"Stor":5750,"Rail":5751,"Fami":5752,"MAN":5753,"Boys":5754,"Baby":5755,"produ":5756,"UNG":5757,"kov":5758,"AGUE":5759,"LEAGUE":5760,"Guard":5761,"Jeff":5762,"Donald":5763,"Firefox":5764,"à¥į":5765,"Athlon":5766,"Memori":5767,"origin":5768,"611":5769,"645":5770,"945":5771,"Bas":5772,"C1":5773,"Cr":5774,"Cen":5775,"CBA":5776,"DEC":5777,"Ea":5778,"GW":5779,"QU":5780,"TAM":5781,"U2":5782,"ei":5783,"two":5784,"Ã¥":5785,"áº":5786,"lim":5787,"bia":5788,"culus":5789,"1596":5790,"1632":5791,"1679":5792,"1718":5793,"1735":5794,"1745":5795,"1758":5796,"25G":5797,"ï¼Ŀ":5798,"ãĥ¡":5799,"907":5800,"ãĤģ":5801,"ãĤĨ":5802,"top":5803,"cid":5804,"584":5805,"sson":5806,"1506":5807,"Dear":5808,"985":5809,"Violet":5810,"Gaga":5811,"mental":5812,"Samu":5813,"1605":5814,"Side":5815,"Health":5816,"Fish":5817,"REAM":5818,"Wild":5819,"Central":5820,"Doug":5821,"Standard":5822,"Christopher":5823,"YOSHIKI":5824,"050":5825,"439":5826,"533":5827,"731":5828,"732":5829,"741":5830,"762":5831,"962":5832,"Astro":5833,"Again":5834,"Cree":5835,"Eye":5836,"H3":5837,"ICD":5838,"Kan":5839,"Kra":5840,"Kill":5841,"NU":5842,"Off":5843,"RCP":5844,"TL":5845,"Tit":5846,"Tod":5847,"UCLA":5848,"Wood":5849,"cine":5850,"np":5851,"ome":5852,"phan":5853,"Ïħ":5854,"âĻ":5855,"shan":5856,"dina":5857,"mou":5858,"1260":5859,"1566":5860,"1725":5861,"1748":5862,"sten":5863,"ãĥĦ":5864,"706":5865,"ãĤĪ":5866,"ãĤĴ":5867,"457":5868,"379":5869,"town":5870,"756":5871,"553":5872,"673":5873,"574":5874,"576":5875,"ault":5876,"Alan":5877,"Vision":5878,"osaurus":5879,"973":5880,"Capital":5881,"Anna":5882,"Greg":5883,"Jackson":5884,"AlphaFold":5885,"Operation":5886,"Fleetline":5887,"Avenue":5888,"Angelababy":5889,"516":5890,"617":5891,"639":5892,"722":5893,"735":5894,"Ak":5895,"Ana":5896,"Bun":5897,"DU":5898,"Econo":5899,"Gaon":5900,"HMS":5901,"Nan":5902,"P2":5903,"Tower":5904,"cter":5905,"hal":5906,"ners":5907,"sou4":5908,"say":5909,"tch":5910,"xa":5911,"á¸":5912,"lity":5913,"ergy":5914,"ween":5915,"2050":5916,"quid":5917,"1528":5918,"1572":5919,"1652":5920,"lade":5921,"1727":5922,"1761":5923,"1368":5924,"ãĥ¯":5925,"ãĥİ":5926,"356":5927,"704":5928,"482":5929,"655":5930,"Info":5931,"brary":5932,"ARE":5933,"gate":5934,"mpson":5935,"Bai":5936,"ends":5937,"BLE":5938,"Color":5939,"link":5940,"Harry":5941,"essor":5942,"English":5943,"Garden":5944,"Jones":5945,"Anderson":5946,"Elizabeth":5947,"Committee":5948,"010":5949,"447":5950,"863":5951,"926":5952,"961":5953,"Epi":5954,"Hero":5955,"LX":5956,"RATP":5957,"VP":5958,"WW":5959,"cta":5960,"city":5961,"ira":5962,"kit":5963,"defea":5964,"bird":5965,"lva":5966,"1531":5967,"1538":5968,"1647":5969,"1681":5970,"last":5971,"onal":5972,"ram":5973,"803":5974,"708":5975,"ãĤĥ":5976,"452":5977,"453":5978,"they":5979,"651":5980,"bed":5981,"Cook":5982,"586":5983,"572":5984,"Ros":5985,"Stro":5986,"1504":5987,"EDG":5988,"APG":5989,"Beyond":5990,"ICA":5991,"door":5992,"Basic":5993,"alis":5994,"1701":5995,"Stephen":5996,"Pie":5997,"Qua":5998,"word":5999,"Colspan":6000,"HOME":6001,"ights":6002,"Appli":6003,"prise":6004,"ccff":6005,"ccccff":6006,"Press":6007,"Disco":6008,"Twitch":6009,"Patrick":6010,"Women":6011,"FINAL":6012,"438":6013,"511":6014,"933":6015,"Apa":6016,"Bow":6017,"ILE":6018,"Jes":6019,"Rad":6020,"SNC":6021,"band":6022,"gas":6023,"hang4":6024,"pas":6025,"vity":6026,"Î©":6027,"Ð·":6028,"Øª":6029,"ìļ":6030,"dei3":6031,"xus":6032,"nical":6033,"1530":6034,"1537":6035,"lati":6036,"1736":6037,"ardi":6038,"ï¼Ĩ":6039,"603":6040,"808":6041,"461":6042,"468":6043,"681":6044,"Rea":6045,"Mega":6046,"Alf":6047,"fish":6048,"ONG":6049,"state":6050,"1709":6051,"Carl":6052,"Kevin":6053,"Southern":6054,"GameSpot":6055,"Abdu":6056,"JavaScript":6057,"speci":6058,"frame":6059,"Prince":6060,"DirectX":6061,"function":6062,"Modern":6063,"541":6064,"629":6065,"648":6066,"725":6067,"B3":6068,"CAR":6069,"Dor":6070,"ELE":6071,"Mbps":6072,"NN":6073,"NPC":6074,"P4":6075,"URE":6076,"ides":6077,"pet":6078,"Ñħ":6079,"ense":6080,"mie":6081,"dire":6082,"such":6083,"super":6084,"zing":6085,"cui3":6086,"1519":6087,"1529":6088,"1555":6089,"1687":6090,"1728":6091,"team":6092,"ãĥĿ":6093,"905":6094,"484":6095,"653":6096,"Mah":6097,"before":6098,"559":6099,"491":6100,"679":6101,"OSS":6102,"796":6103,"Saf":6104,"Fair":6105,"MAD":6106,"Silver":6107,"Concer":6108,"That":6109,"Paris":6110,"ckett":6111,"URL":6112,"AOA":6113,"Spotify":6114,"ctures":6115,"Planet":6116,"ASCII":6117,"OmegaT":6118,"Mitchell":6119,"Yahoo":6120,"3G":6121,"423":6122,"536":6123,"632":6124,"715":6125,"825":6126,"833":6127,"Ala":6128,"Area":6129,"CAL":6130,"D9":6131,"Eri":6132,"Fly":6133,"GRO":6134,"K2":6135,"Money":6136,"RDS":6137,"Vis":6138,"apo":6139,"ate":6140,"bh":6141,"huo1":6142,"sci":6143,"wart":6144,"eron":6145,"2035":6146,"lvin":6147,"1120":6148,"poli":6149,"1767":6150,"cking":6151,"esa":6152,"Maker":6153,"Chro":6154,"Chrome":6155,"473":6156,"492":6157,"661":6158,"Robin":6159,"auto":6160,"562":6161,"Liber":6162,"Dead":6163,"Debian":6164,"Leo":6165,"Via":6166,"See":6167,"Laur":6168,"bucket":6169,"host":6170,"Ann":6171,"Anth":6172,"Anne":6173,"PS2":6174,"Conne":6175,"Fede":6176,"Eddie":6177,"TRA":6178,"Countdown":6179,"Zico":6180,"signed":6181,"TOKYO":6182,"Violetta":6183,"339":6184,"429":6185,"532":6186,"665":6187,"775":6188,"769":6189,"Ax":6190,"D5":6191,"Dal":6192,"Hand":6193,"JI":6194,"Pur":6195,"R1":6196,"RF":6197,"S3":6198,"SNS":6199,"eg":6200,"flow":6201,"gia":6202,"mbo":6203,"wy":6204,"wis":6205,"Õ¡":6206,"mie1":6207,"1220":6208,"1545":6209,"1664":6210,"1659":6211,"1719":6212,"artic":6213,"1495":6214,"1496":6215,"1388":6216,"thor":6217,"702":6218,"703":6219,"Main":6220,"STATION":6221,"689":6222,"692":6223,"under":6224,"Mix":6225,"Neu":6226,"Jaco":6227,"oso":6228,"ental":6229,"mentary":6230,"ERS":6231,"haus":6232,"him":6233,"AND":6234,"Anti":6235,"graphy":6236,"gins":6237,"Steven":6238,"Phy":6239,"Juan":6240,"gene":6241,"IFF":6242,"Anime":6243,"Henri":6244,"Fox":6245,"Human":6246,"Framework":6247,"434":6248,"636":6249,"729":6250,"761":6251,"878":6252,"Aus":6253,"Action":6254,"Din":6255,"E1":6256,"E231":6257,"Got":6258,"GEN":6259,"Jay":6260,"L2":6261,"M5":6262,"PAGASA":6263,"RK":6264,"Too":6265,"ZERO":6266,"bble":6267,"das":6268,"eb":6269,"lf":6270,"oli":6271,"yd":6272,"Ðĳ":6273,"Ðľ":6274,"ÑĨ":6275,"ìĹ":6276,"leu":6277,"tier":6278,"1546":6279,"1549":6280,"1562":6281,"1670":6282,"1690":6283,"1654":6284,"1653":6285,"1694":6286,"1759":6287,"1466":6288,"ãĥ¢":6289,"807":6290,"709":6291,"ilo":6292,"458":6293,"love":6294,"463":6295,"555":6296,"596":6297,"deĠ":6298,"ĠdeĠ":6299,"shi4Ġ":6300,"Ġshi4Ġ":6301,"Ġnian2":6302,"Ġnian2Ġ":6303,"wei4Ġ":6304,"zai4Ġ":6305,"Ġwei4Ġ":6306,"Ġzai4Ġ":6307,"he2Ġ":6308,"Ġhe2Ġ":6309,"zhong1Ġ":6310,"bu4Ġ":6311,"di4Ġ":6312,"shi2Ġ":6313,"guo2Ġ":6314,"yu2Ġ":6315,"ren2Ġ":6316,"Ġbu4Ġ":6317,"yi1Ġ":6318,"Ġzhong1Ġ":6319,"li4Ġ":6320,"zhi4Ġ":6321,"gong1Ġ":6322,"Ġshi2Ġ":6323,"yue4Ġ":6324,"ji2Ġ":6325,"cheng2Ġ":6326,"yi4Ġ":6327,"you3Ġ":6328,"Ġdi4Ġ":6329,"Ġyue4Ġ":6330,"Ġyu2Ġ":6331,"Ġren2Ġ":6332,"Ġzhi4Ġ":6333,"da4Ġ":6334,"Ġji2Ġ":6335,"yuan2Ġ":6336,"Ġyou3Ġ":6337,"ji4Ġ":6338,"Ġguo2Ġ":6339,"Ġli4Ġ":6340,"Ġgong1Ġ":6341,"Ġyi4Ġ":6342,"Ġyi3":6343,"Ġcheng2Ġ":6344,"jia1Ġ":6345,"si1Ġ":6346,"yu3Ġ":6347,"Ġxian4":6348,"Ġri4":6349,"Ġyi1Ġ":6350,"Ġxing2":6351,"Ġta1":6352,"li3Ġ":6353,"ji1Ġ":6354,"Ġdao4":6355,"hou4Ġ":6356,"wei2Ġ":6357,"Ġzhi1":6358,"Ġda4Ġ":6359,"Ġyuan2Ġ":6360,"xi1Ġ":6361,"Ġri4Ġ":6362,"Ġge4":6363,"Ġyi3Ġ":6364,"xue2Ġ":6365,"hui4Ġ":6366,"zuo4Ġ":6367,"leĠ":6368,"Ġyu3Ġ":6369,"Ġdao4Ġ":6370,"ming2Ġ":6371,"Ġji4Ġ":6372,"bei4Ġ":6373,"Ġxing2Ġ":6374,"sheng1Ġ":6375,"Ġjian4":6376,"Ġchu1":6377,"Ġqi2":6378,"Ġsi1Ġ":6379,"Ġde2":6380,"zheng4Ġ":6381,"Ġxian4Ġ":6382,"Ġhou4Ġ":6383,"Ġji1Ġ":6384,"dui4Ġ":6385,"shang4Ġ":6386,"qu1Ġ":6387,"shi3Ġ":6388,"Ġer3":6389,"Ġjia1Ġ":6390,"you2Ġ":6391,"Ġta1Ġ":6392,"Ġxi1Ġ":6393,"Ġli3Ġ":6394,"Ġer2":6395,"zhan4Ġ":6396,"Ġjun1":6397,"Ġbing4":6398,"Ġzhi1Ġ":6399,"Ġge4Ġ":6400,"zhu3Ġ":6401,"ren4Ġ":6402,"fu4Ġ":6403,"zi4Ġ":6404,"wu4Ġ":6405,"xin1Ġ":6406,"dai4Ġ":6407,"ju4Ġ":6408,"ping2Ġ":6409,"Ġchu1Ġ":6410,"Ġke4":6411,"Ġzhou1":6412,"xiang1Ġ":6413,"Ġhui4Ġ":6414,"shu4Ġ":6415,"nan2Ġ":6416,"Ġshe4":6417,"Ġbei4Ġ":6418,"Ġming2Ġ":6419,"xia4Ġ":6420,"guan1Ġ":6421,"Ġer3Ġ":6422,"Ġde2Ġ":6423,"lu4Ġ":6424,"yu4Ġ":6425,"hua4Ġ":6426,"Ġjian4Ġ":6427,"jing1Ġ":6428,"yan2Ġ":6429,"fang1Ġ":6430,"Ġyin1":6431,"kai1Ġ":6432,"jian1Ġ":6433,"jiao4Ġ":6434,"fa1Ġ":6435,"yong4Ġ":6436,"Ġdan4":6437,"Ġer2Ġ":6438,"zhu4Ġ":6439,"lai2Ġ":6440,"min2Ġ":6441,"shou3Ġ":6442,"zhe4Ġ":6443,"xiang4Ġ":6444,"wen2Ġ":6445,"Ġjun1Ġ":6446,"xi4Ġ":6447,"qian2Ġ":6448,"ben3Ġ":6449,"te4Ġ":6450,"Ġwei2Ġ":6451,"zhi2Ġ":6452,"fa3Ġ":6453,"qi1Ġ":6454,"jie2Ġ":6455,"lian2Ġ":6456,"Ġbing4Ġ":6457,"dong4Ġ":6458,"dian4Ġ":6459,"Ġqi2Ġ":6460,"Ġke4Ġ":6461,"dong1Ġ":6462,"mu4Ġ":6463,"Ġjin4":6464,"Ġdui4Ġ":6465,"Ġhuo4":6466,"Ġzhan4Ġ":6467,"fen1Ġ":6468,"tai2Ġ":6469,"zhang3Ġ":6470,"du4Ġ":6471,"jiang1Ġ":6472,"Ġqiu2":6473,"Ġping2Ġ":6474,"gao1Ġ":6475,"ye4Ġ":6476,"suo3Ġ":6477,"bei3Ġ":6478,"Ġzhou1Ġ":6479,"shi1Ġ":6480,"ĠleĠ":6481,"duo1Ġ":6482,"jie1Ġ":6483,"ge2Ġ":6484,"Ġshang4Ġ":6485,"jin1Ġ":6486,"Ġzheng4Ġ":6487,"fu2Ġ":6488,"Ġzuo4Ġ":6489,"Ġyou2Ġ":6490,"Ġfu4Ġ":6491,"kou3Ġ":6492,"guo4Ġ":6493,"zhi3Ġ":6494,"Ġtong2":6495,"hai3Ġ":6496,"Ġren4Ġ":6497,"Ġquan2":6498,"ma3Ġ":6499,"tong1Ġ":6500,"ru4Ġ":6501,"zui4Ġ":6502,"Ġsheng1Ġ":6503,"Ġxue2Ġ":6504,"ci3Ġ":6505,"xing4Ġ":6506,"wai4Ġ":6507,"nei4Ġ":6508,"la1Ġ":6509,"ti3Ġ":6510,"jue2Ġ":6511,"ke3Ġ":6512,"qi3Ġ":6513,"shan1Ġ":6514,"tian1Ġ":6515,"chang3Ġ":6516,"deng3Ġ":6517,"zhen4Ġ":6518,"wu3Ġ":6519,"chang2Ġ":6520,"ziĠ":6521,"yao4Ġ":6522,"bi3Ġ":6523,"Ġju4Ġ":6524,"bao3Ġ":6525,"mi3Ġ":6526,"ya4Ġ":6527,"Ġye3":6528,"gai1Ġ":6529,"Ġyin1Ġ":6530,"Ġdai4Ġ":6531,"mian4Ġ":6532,"zhong4Ġ":6533,"Ġshe4Ġ":6534,"feng1Ġ":6535,"Ġzhe4Ġ":6536,"zhong3Ġ":6537,"ci4Ġ":6538,"yun4Ġ":6539,"yi2Ġ":6540,"liu2Ġ":6541,"che1Ġ":6542,"shou4Ġ":6543,"lin2Ġ":6544,"bao1Ġ":6545,"yi2Ġge4Ġ":6546,"sai4Ġ":6547,"jie4Ġ":6548,"ding4Ġ":6549,"shen1Ġ":6550,"sheng3Ġ":6551,"luo2Ġ":6552,"mei3Ġguo2Ġ":6553,"san1Ġ":6554,"qi4Ġ":6555,"xiao3Ġ":6556,"Ġdan4Ġ":6557,"neng2Ġ":6558,"shu1Ġ":6559,"ze2Ġ":6560,"lie4Ġ":6561,"xuan3Ġ":6562,"si4Ġ":6563,"qing1Ġ":6564,"zhe3Ġ":6565,"Ġqiu2Ġ":6566,"jing4Ġ":6567,"yuan4Ġ":6568,"ba1Ġ":6569,"wang2Ġ":6570,"ke1Ġ":6571,"tai4Ġ":6572,"lan2Ġ":6573,"bao4Ġ":6574,"an1Ġ":6575,"zong3Ġ":6576,"ying3Ġ":6577,"Ġhuo4Ġ":6578,"bi4Ġ":6579,"fu3Ġ":6580,"dao3Ġ":6581,"Ġxin1Ġ":6582,"gu3Ġ":6583,"ying1Ġ":6584,"Ġhao4":6585,"Ġxia4Ġ":6586,"Ġzi4Ġ":6587,"ge1Ġ":6588,"fen4Ġ":6589,"xiao4Ġ":6590,"yue1Ġ":6591,"ni2Ġ":6592,"jiao1Ġ":6593,"na4Ġ":6594,"Ġyu4Ġ":6595,"Ġmi3Ġ":6596,"zi1Ġ":6597,"er4Ġ":6598,"Ġxiang1Ġ":6599,"pu3Ġ":6600,"dan1Ġ":6601,"Ġzhu4Ġ":6602,"biao3Ġ":6603,"guan3Ġ":6604,"tou2Ġ":6605,"liang4Ġ":6606,"chuan2Ġ":6607,"Ġlu4Ġ":6608,"su4Ġ":6609,"wu2Ġ":6610,"Ġdang1":6611,"bo1Ġ":6612,"ru2Ġ":6613,"yan3Ġ":6614,"nv3Ġ":6615,"bo2Ġ":6616,"Ġzhong1Ġguo2Ġ":6617,"xing1Ġ":6618,"ti2Ġ":6619,"fei1Ġ":6620,"da2Ġ":6621,"se4Ġ":6622,"cheng1Ġ":6623,"mei3Ġ":6624,"Ġwei4Ġyu2Ġ":6625,"Ġjin4Ġ":6626,"ceng2Ġ":6627,"chan3Ġ":6628,"Ġnan2Ġ":6629,"shui3Ġ":6630,"tu2Ġ":6631,"bian4Ġ":6632,"gui1Ġ":6633,"Ġran2":6634,"yang2Ġ":6635,"zhang1Ġ":6636,"gai3Ġ":6637,"dian3Ġ":6638,"a1Ġ":6639,"cong2Ġ":6640,"jiu4Ġ":6641,"Ġben3Ġ":6642,"Ġquan2Ġ":6643,"sha1Ġ":6644,"bao1Ġkuo4":6645,"wang3Ġ":6646,"jian3Ġ":6647,"sheng4Ġ":6648,"zu3Ġ":6649,"shu3Ġ":6650,"gang3Ġ":6651,"hua2Ġ":6652,"lv4Ġ":6653,"qing2Ġ":6654,"jing3Ġ":6655,"liang3Ġ":6656,"zu2Ġ":6657,"ban4Ġ":6658,"tong3Ġ":6659,"gong4Ġ":6660,"shang1Ġ":6661,"li2Ġ":6662,"hu4Ġ":6663,"tong2Ġ":6664,"bian1Ġ":6665,"jin4Ġ":6666,"long2Ġ":6667,"luo4Ġ":6668,"an4Ġ":6669,"xu4Ġ":6670,"chi2Ġ":6671,"ao4Ġ":6672,"mei2Ġ":6673,"jin3Ġ":6674,"ban1Ġ":6675,"guang3Ġ":6676,"chu1Ġ":6677,"ce4Ġ":6678,"mi4Ġ":6679,"shen2Ġ":6680,"Ġta1Ġmen":6681,"zheng1Ġ":6682,"zhi1Ġ":6683,"ling3Ġ":6684,"you4Ġ":6685,"fan3Ġ":6686,"wei1Ġ":6687,"Ġzhu3Ġ":6688,"Ġxiang4Ġ":6689,"huo2Ġ":6690,"xi2Ġ":6691,"ting2Ġ":6692,"ka3Ġ":6693,"cha2Ġ":6694,"Ġgai1Ġ":6695,"cai2Ġ":6696,"gou4Ġ":6697,"shuo1Ġ":6698,"men2Ġ":6699,"ci2Ġ":6700,"xiang3Ġ":6701,"mu3Ġ":6702,"lei4Ġ":6703,"wei3Ġ":6704,"qu3Ġ":6705,"Ġgong1Ġli3Ġ":6706,"yan2Ġjiu1":6707,"Ġduo1Ġ":6708,"tuan2Ġ":6709,"yin3Ġ":6710,"jian4Ġ":6711,"Ġye3Ġ":6712,"chao2Ġ":6713,"ying4Ġ":6714,"chen2Ġ":6715,"Ġwan4":6716,"tang2Ġ":6717,"xie1Ġ":6718,"qi2Ġ":6719,"pin3Ġ":6720,"Ġyi3Ġji2Ġ":6721,"jia4Ġ":6722,"shi3Ġyong4Ġ":6723,"jie3Ġ":6724,"hang2Ġ":6725,"yi3Ġ":6726,"lun2Ġ":6727,"rong2Ġ":6728,"Ġyou2":6729,"jiang3Ġ":6730,"pai2Ġ":6731,"fu1Ġ":6732,"jiu3Ġ":6733,"1Ġ":6734,"ling4Ġ":6735,"tai2Ġwan1":6736,"Ġhao4Ġ":6737,"ĠdeĠdi4Ġ":6738,"xu1Ġ":6739,"ke3Ġyi3Ġ":6740,"huang2Ġ":6741,"xian1Ġ":6742,"duan4Ġ":6743,"ke4Ġ":6744,"dang3Ġ":6745,"mo2Ġ":6746,"can1Ġ":6747,"ying2Ġ":6748,"tiao2Ġ":6749,"biao1Ġ":6750,"ĠdeĠyi1Ġ":6751,"kai1Ġshi3Ġ":6752,"quan2Ġ":6753,"zhan3Ġ":6754,"Ġcheng2Ġwei2Ġ":6755,"ye3Ġ":6756,"hong2Ġ":6757,"mei2Ġyou3Ġ":6758,"han4Ġ":6759,"e2Ġ":6760,"yin1Ġ":6761,"wei3Ġyuan2Ġ":6762,"qian1Ġ":6763,"ban3Ġ":6764,"xian4Ġ":6765,"ling2Ġ":6766,"xiao1Ġ":6767,"Ġtong2Ġ":6768,"hui2Ġ":6769,"su1Ġ":6770,"fang2Ġ":6771,"meng2Ġ":6772,"zhuang1Ġ":6773,"kong1Ġ":6774,"ju2Ġ":6775,"cun1Ġ":6776,"bao1Ġkuo4Ġ":6777,"ren2Ġkou3Ġ":6778,"Ġqi2Ġzhong1Ġ":6779,"2Ġ":6780,"Ġgong1Ġsi1Ġ":6781,"huo4Ġ":6782,"zi3Ġ":6783,"xing2Ġ":6784,"dou1Ġ":6785,"ĠdeĠshi4Ġ":6786,"ĠĠĠzai4Ġ":6787,"qiang2Ġ":6788,"zhao4Ġ":6789,"du2Ġ":6790,"zheng4Ġzhi4Ġ":6791,"yi2Ġge4":6792,"mo4Ġ":6793,"Ġfen1Ġ":6794,"cai3Ġ":6795,"bing1Ġ":6796,"fa3Ġguo2Ġ":6797,"Ġgao1Ġ":6798,"Ġda4Ġxue2Ġ":6799,"Ġshi4Ġyi1Ġ":6800,"hai2Ġ":6801,"Ġta1ĠdeĠ":6802,"hu2Ġ":6803,"chu4Ġ":6804,"qin1Ġ":6805,"lun4Ġ":6806,"fan4Ġ":6807,"zhen1Ġ":6808,"guang1Ġ":6809,"wen4Ġ":6810,"man4Ġ":6811,"Ġjie2Ġ":6812,"she4Ġ":6813,"biao3Ġshi4Ġ":6814,"ai4Ġ":6815,"zhong1ĠdeĠ":6816,"ju1Ġ":6817,"Ġjiao4Ġ":6818,"zhuan1Ġ":6819,"diao4Ġ":6820,"bai2Ġ":6821,"da3Ġ":6822,"que4Ġ":6823,"dian4Ġshi4Ġ":6824,"Ġdong1Ġ":6825,"Ġdu4Ġ":6826,"fei4Ġ":6827,"Ġshi4Ġwei4Ġ":6828,"Ġmu4Ġ":6829,"han2Ġ":6830,"shi4ĠdeĠ":6831,"Ġte4Ġ":6832,"xun4Ġ":6833,"Ġjin1Ġ":6834,"pian4Ġ":6835,"ming4Ġ":6836,"ju3Ġ":6837,"Ġjiang1Ġ":6838,"tuo1Ġ":6839,"gu4Ġ":6840,"Ġren2Ġkou3Ġ":6841,"xiu1Ġ":6842,"Ġbu4Ġfen4Ġ":6843,"xie2Ġ":6844,"zao4Ġ":6845,"Ġhe2Ġguo2Ġ":6846,"zhong1Ġguo2Ġ":6847,"guo3Ġ":6848,"10Ġyue4Ġ":6849,"shou1Ġ":6850,"Ġzui4":6851,"xin4Ġ":6852,"12Ġyue4Ġ":6853,"7Ġyue4Ġ":6854,"9Ġyue4Ġ":6855,"Ġshi1Ġ":6856,"zhuan3Ġ":6857,"ta1Ġ":6858,"dang1Ġ":6859,"mian4Ġji1Ġ":6860,"Ġren2Ġmin2Ġ":6861,"8Ġyue4Ġ":6862,"xun2Ġ":6863,"Ġdi4Ġqu1Ġ":6864,"wu1Ġ":6865,"3Ġyue4Ġ":6866,"Ġguo4Ġ":6867,"Ġsuo3Ġ":6868,"1Ġyue4Ġ":6869,"Ġjing1Ġ":6870,"Ġshou3Ġ":6871,"gan3Ġ":6872,"huan2Ġ":6873,"di2Ġ":6874,"xia2Ġ":6875,"jia3Ġ":6876,"5Ġyue4Ġ":6877,"ying1Ġguo2Ġ":6878,"Ġci3Ġ":6879,"dao4Ġ":6880,"3Ġ":6881,"di3Ġ":6882,"zhu1Ġ":6883,"ting1Ġ":6884,"zheng4Ġshi4Ġ":6885,"chong2Ġ":6886,"huo3Ġ":6887,"zhou1Ġ":6888,"6Ġyue4Ġ":6889,"zhuang4Ġ":6890,"cheng2Ġshi4Ġ":6891,"4Ġyue4Ġ":6892,"Ġguo2Ġjia1Ġ":6893,"tian2Ġ":6894,"geng4Ġ":6895,"ĠĠĠdi4Ġ":6896,"fang4Ġ":6897,"yong3Ġ":6898,"shu3Ġyu2Ġ":6899,"Ġping2Ġfang1":6900,"po4Ġ":6901,"jun1Ġ":6902,"Ġdi4Ġyi1Ġ":6903,"Ġqian2Ġ":6904,"11Ġyue4Ġ":6905,"Ġdeng3Ġ":6906,"qu4Ġ":6907,"qun2Ġ":6908,"jiang4Ġ":6909,"tao2Ġ":6910,"Ġshi4Ġji4Ġ":6911,"Ġping2Ġfang1Ġgong1Ġli3Ġ":6912,"Ġtong2Ġshi2Ġ":6913,"Ġma3Ġ":6914,"dan1Ġren4Ġ":6915,"Ġtian1Ġ":6916,"Ġru2Ġ":6917,"gen1Ġ":6918,"bie2Ġ":6919,"Ġsui4":6920,"pai4Ġ":6921,"du1Ġ":6922,"shao3Ġ":6923,"liang2Ġ":6924,"hui1Ġ":6925,"tie3Ġ":6926,"nong2Ġ":6927,"ji3Ġ":6928,"Ġnian2Ġ1Ġyue4Ġ":6929,"ta3Ġ":6930,"dian4Ġying3Ġ":6931,"Ġqi1Ġ":6932,"zong1Ġ":6933,"chu3Ġ":6934,"Ġzhe4":6935,"si3Ġ":6936,"er3Ġ":6937,"ĠdeĠshi2Ġ":6938,"shuang1Ġ":6939,"tai2Ġwan1Ġ":6940,"qiao2Ġ":6941,"gen1Ġju4Ġ":6942,"li4Ġshi3Ġ":6943,"chu2Ġ":6944,"Ġshi4Ġzhen4Ġ":6945,"gao4Ġ":6946,"bai4Ġ":6947,"can1Ġjia1Ġ":6948,"yun4Ġdong4":6949,"gang1Ġ":6950,"che1Ġzhan4Ġ":6951,"guo2ĠdeĠ":6952,"jiao3Ġ":6953,"Ġwan4Ġ":6954,"Ġyin1Ġwei4Ġ":6955,"Ġri4Ġben3Ġ":6956,"Ġping2Ġfang1Ġ":6957,"li4ĠdeĠ":6958,"Ġnian2ĠdeĠ":6959,"gai4Ġ":6960,"pan4Ġ":6961,"Ġwen2Ġ":6962,"Ġhai3Ġ":6963,"zheng4Ġfu3Ġ":6964,"bing4Ġ":6965,"zhun3Ġ":6966,"Ġnian2Ġ12Ġyue4Ġ":6967,"wa3Ġ":6968,"yan4Ġ":6969,"wo3Ġ":6970,"gong4Ġhe2Ġguo2Ġ":6971,"Ġxian4ĠdeĠ":6972,"Ġfu2Ġ":6973,"ya2Ġ":6974,"yin2Ġ":6975,"fa1Ġxian4Ġ":6976,"formulaĠ":6977,"chuang4Ġ":6978,"hei1Ġ":6979,"Ġsuo3":6980,"qu1ĠdeĠ":6981,"song4Ġ":6982,"huan4Ġ":6983,"ha1Ġ":6984,"hen3Ġ":6985,"5Ġ":6986,"ti2Ġgong1Ġ":6987,"4Ġ":6988,"jin4Ġxing2Ġ":6989,"Ġbei3Ġ":6990,"lei2Ġ":6991,"2Ġyue4Ġ":6992,"jing1Ġji4Ġ":6993,"tong1Ġguo4Ġ":6994,"Ġnian2Ġ3Ġyue4Ġ":6995,"sui2Ġ":6996,"chuan1Ġ":6997,"qie3Ġ":6998,"Ġzhong1Ġyang1":6999,"Ġguo2Ġji4Ġ":7000,"hua1Ġ":7001,"shang4ĠdeĠ":7002,"Ġyou2Ġyu2Ġ":7003,"Ġyou4Ġ":7004,"lei1Ġ":7005,"wei3Ġyuan2Ġhui4Ġ":7006,"kao3Ġ":7007,"Ġnian2Ġ7Ġyue4Ġ":7008,"wan2Ġ":7009,"cheng1Ġwei2Ġ":7010,"Ġnian2Ġ10Ġyue4Ġ":7011,"bai3Ġ":7012,"deng1Ġ":7013,"Ġying1Ġ":7014,"Ġshi4Ġjie4Ġ":7015,"Ġyin1Ġci3Ġ":7016,"ming2Ġwei4Ġ":7017,"Ġjin4Ġxing2Ġ":7018,"nuo4Ġ":7019,"Ġshi4Ġzai4Ġ":7020,"chong1Ġ":7021,"Ġran2Ġ":7022,"zhu3Ġyi4Ġ":7023,"Ġnian2Ġ9Ġyue4Ġ":7024,"kuai4Ġ":7025,"tu3Ġ":7026,"Ġzhi1Ġhou4Ġ":7027,"yan2Ġjiu1Ġ":7028,"Ġta1ĠmenĠ":7029,"qiu2Ġ":7030,"mai4Ġ":7031,"shi2ĠdeĠ":7032,"lian4Ġ":7033,"hao4Ġ":7034,"Ġnian2Ġ5Ġyue4Ġ":7035,"Ġlian2Ġ":7036,"sa4Ġ":7037,"lu2Ġ":7038,"xi4Ġtong3Ġ":7039,"Ġzui4Ġ":7040,"pei4Ġ":7041,"lu3Ġ":7042,"Ġnian2Ġ4Ġyue4Ġ":7043,"chi3Ġ":7044,"liao4Ġ":7045,"Ġdang1Ġ":7046,"Ġnian2Ġ8Ġyue4Ġ":7047,"Ġnian2Ġ6Ġyue4Ġ":7048,"Ġxing2ĠdeĠ":7049,"zeng1Ġ":7050,"ren2ĠdeĠ":7051,"Ġshi3Ġ":7052,"xiang1Ġgang3Ġ":7053,"xuan1Ġ":7054,"qi1Ġjian1Ġ":7055,"de2Ġ":7056,"kuang4Ġ":7057,"guan3Ġli3Ġ":7058,"Ġgong1Ġzuo4Ġ":7059,"piao4Ġ":7060,"Ġzhi1Ġyi1Ġ":7061,"xu3Ġ":7062,"en1Ġ":7063,"di1Ġ":7064,"heng2Ġ":7065,"da4ĠdeĠ":7066,"bu3Ġ":7067,"yang4Ġ":7068,"sen1Ġ":7069,"Ġzhong1Ġxin1Ġ":7070,"xuan1Ġbu4Ġ":7071,"tui1Ġ":7072,"Ġnian2Ġ11Ġyue4Ġ":7073,"zu3Ġzhi1Ġ":7074,"ri4Ġ":7075,"wang4Ġ":7076,"bu4ĠdeĠ":7077,"pi2Ġ":7078,"menĠ":7079,"Ġbao1Ġkuo4Ġ":7080,"chang4Ġ":7081,"ying3Ġxiang3Ġ":7082,"yang3Ġ":7083,"Ġta1Ġzai4Ġ":7084,"qian1Ġmi3Ġ":7085,"sai1Ġ":7086,"er2Ġ":7087,"ĠĠĠsheng1Ġ":7088,"Ġhuo4Ġde2Ġ":7089,"pi1Ġ":7090,"Ġshi4Ġjie4":7091,"luo2Ġsi1Ġ":7092,"he4Ġ":7093,"ke3Ġneng2":7094,"cheng2ĠdeĠ":7095,"Ġgai1":7096,"Ġqing1Ġ":7097,"Ġmei3":7098,"nian4Ġ":7099,"dun4Ġ":7100,"xian2Ġ":7101,"lou2Ġ":7102,"qi2Ġta1Ġ":7103,"Ġnian2Ġ2Ġyue4Ġ":7104,"bang1Ġ":7105,"Ġcheng2Ġli4Ġ":7106,"leĠyi1Ġ":7107,"huo2Ġdong4Ġ":7108,"Ġlai2Ġ":7109,"Ġren4Ġwei2Ġ":7110,"Ġfen1":7111,"Ġbi3Ġ":7112,"you1Ġ":7113,"liu4Ġ":7114,"Ġshu4Ġ":7115,"ke1Ġxue2Ġ":7116,"fa1Ġzhan3Ġ":7117,"huo4Ġde2Ġ":7118,"jun4Ġ":7119,"Ġluo2Ġ":7120,"Ġzuo4Ġwei2Ġ":7121,"6Ġ":7122,"ya1Ġ":7123,"Ġping2Ġfang1Ġqian1Ġmi3Ġ":7124,"Ġa1Ġ":7125,"hua2Ġren2Ġmin2Ġ":7126,"Ġwu2Ġ":7127,"ri4Ġben3Ġ":7128,"bei1Ġ":7129,"lao3Ġ":7130,"hui4Ġyi4Ġ":7131,"re4Ġ":7132,"Ġzhi2":7133,"Ġliu2Ġ":7134,"tan2Ġ":7135,"jian1ĠdeĠ":7136,"ku4Ġ":7137,"tie3Ġlu4Ġ":7138,"ĠdeĠren2Ġ":7139,"yong4Ġyu2Ġ":7140,"liao2Ġ":7141,"ning2Ġ":7142,"Ġshi2Ġjian1Ġ":7143,"ĠdeĠgong1Ġ":7144,"Ġzhang1Ġ":7145,"Ġshan1Ġ":7146,"ge4Ġ":7147,"mian3Ġ":7148,"Ġyan2Ġ":7149,"mian4Ġji1":7150,"min2Ġguo2Ġ":7151,"rui4Ġ":7152,"wu1Ġke4Ġ":7153,"yin4Ġ":7154,"xian3Ġ":7155,"le4Ġ":7156,"zuo3Ġ":7157,"gong4Ġyou3Ġ":7158,"ĠĠĠli4Ġshi3Ġ":7159,"hao3Ġ":7160,"ĠĠĠsheng1Ġping2Ġ":7161,"hua2Ġren2Ġmin2Ġgong4Ġhe2Ġguo2Ġ":7162,"fang1Ġshi4Ġ":7163,"fa1Ġsheng1Ġ":7164,"gan1Ġ":7165,"Ġzhi2Ġ":7166,"Ġcong2Ġ":7167,"dou4Ġ":7168,"wen4Ġti2Ġ":7169,"guan4Ġjun1Ġ":7170,"zhu3Ġyao4Ġ":7171,"ran2Ġ":7172,"di4ĠdeĠ":7173,"Ġdi4Ġer4Ġ":7174,"dao3Ġzhi4Ġ":7175,"Ġxiao3Ġ":7176,"guan1Ġxi4Ġ":7177,"cun2Ġ":7178,"kang1Ġ":7179,"can1Ġyu4Ġ":7180,"Ġjin3Ġ":7181,"yuan3Ġ":7182,"Ġbu4Ġfen4":7183,"zheng3Ġ":7184,"Ġgong1Ġcheng2Ġ":7185,"wan2Ġcheng2Ġ":7186,"dan1Ġwei4Ġ":7187,"ke3Ġneng2Ġ":7188,"Ġzhi3Ġ":7189,"Ġwu3Ġ":7190,"yi1Ġwei4Ġ":7191,"Ġze2Ġ":7192,"1Ġri4Ġ":7193,"xie4Ġ":7194,"Ġzong3Ġ":7195,"suo3Ġyou3Ġ":7196,"zhi4ĠdeĠ":7197,"wen2Ġhua4Ġ":7198,"Ġcheng2Ġyuan2Ġ":7199,"ĠdeĠcheng2Ġ":7200,"gei3Ġ":7201,"lv3Ġ":7202,"Ġba1Ġ":7203,"Ġtong1Ġ":7204,"yuan2ĠdeĠ":7205,"yong1Ġyou3Ġ":7206,"cun2Ġzai4Ġ":7207,"er4Ġshi2Ġ":7208,"bei3Ġbu4Ġ":7209,"lian2Ġhe2Ġ":7210,"hou4ĠdeĠ":7211,"niu3Ġ":7212,"Ġxi4Ġ":7213,"Ġshi4Ġzhong1Ġ":7214,"zheng4Ġfu3":7215,"you2Ġyu2Ġ":7216,"guo2Ġjia1Ġ":7217,"dui4Ġyu2Ġ":7218,"Ġnian2Ġzhi4Ġ":7219,"fa1Ġxing2Ġ":7220,"yi4ĠdeĠ":7221,"ju4Ġyou3Ġ":7222,"Ġzhi3":7223,"Ġjian4Ġzhu4Ġ":7224,"bi3Ġsai4Ġ":7225,"Ġbing4Ġzai4Ġ":7226,"Ġdao4ĠleĠ":7227,"xin1ĠdeĠ":7228,"ou1Ġ":7229,"si1ĠdeĠ":7230,"shen3Ġ":7231,"zi4Ġji3":7232,"yun4Ġdong4Ġ":7233,"yun2Ġ":7234,"xing2Ġzheng4Ġ":7235,"yin4Ġdu4Ġ":7236,"e2Ġluo2Ġsi1Ġ":7237,"bin1Ġ":7238,"Ġmian4Ġji1Ġ":7239,"dai4Ġbiao3Ġ":7240,"Ġmei3Ġguo2Ġ":7241,"shao4Ġ":7242,"Ġling4Ġ":7243,"xu3Ġduo1Ġ":7244,"Ġdan4Ġshi4Ġ":7245,"ren4Ġhe2Ġ":7246,"geĠ":7247,"sheng1Ġyu2Ġ":7248,"tu1Ġ":7249,"Ġjian3Ġ":7250,"gui4Ġ":7251,"man3Ġ":7252,"Ġnian2Ġdai4Ġ":7253,"ding1Ġ":7254,"liang3Ġge4Ġ":7255,"che4Ġ":7256,"bao3Ġhu4Ġ":7257,"Ġren2Ġkou3Ġmi4Ġ":7258,"Ġshi3":7259,"zhĠ":7260,"xiu4Ġ":7261,"xuan2Ġ":7262,"Ġdang1Ġshi2Ġ":7263,"Ġdian4Ġ":7264,"ĠdeĠyi2Ġge4Ġ":7265,"nan2Ġbu4Ġ":7266,"ju3Ġxing2Ġ":7267,"zhang4Ġ":7268,"zhuan1Ġji2Ġ":7269,"mian4Ġji1Ġwei4Ġ":7270,"lai2ĠdeĠ":7271,"Ġguan1Ġ":7272,"fan1Ġ":7273,"e4Ġ":7274,"zao3Ġ":7275,"Ġceng2Ġ":7276,"Ġzheng4Ġfu3Ġ":7277,"du2Ġli4Ġ":7278,"fu2Ġwu4Ġ":7279,"jue2Ġding4Ġ":7280,"xie3Ġ":7281,"Ġchu1ĠdeĠ":7282,"ruo4Ġ":7283,"zhu3Ġyao4":7284,"kai1Ġshi3":7285,"Ġli4Ġshi3Ġ":7286,"qing3Ġ":7287,"Ġsan1Ġ":7288,"Ġshe4Ġji4Ġ":7289,"Ġwang2Ġ":7290,"Ġmei3Ġ":7291,"ming2ĠdeĠ":7292,"hai4Ġ":7293,"rang4Ġ":7294,"Ġshi4Ġwei4Ġyu2Ġ":7295,"jiu4Ġshi4Ġ":7296,"Ġyou3Ġyi1Ġ":7297,"geng1Ġ":7298,"Ġjiang1":7299,"gtĠ":7300,"Ġci3":7301,"ĠgtĠ":7302,"xi3Ġ":7303,"tan4Ġ":7304,"Ġqi2Ġta1Ġ":7305,"Ġfa3Ġ":7306,"Ġxing2Ġzheng4Ġ":7307,"pei2Ġ":7308,"jiao4Ġyu4Ġ":7309,"shou4Ġdao4Ġ":7310,"ai1Ġ":7311,"Ġfeng1Ġ":7312,"ltĠ":7313,"ren4Ġwei2Ġ":7314,"fang3Ġ":7315,"kan1Ġ":7316,"wan3Ġ":7317,"Ġjie1Ġ":7318,"Ġshi4Ġdi4Ġ":7319,"fa1Ġzhan3":7320,"she4Ġhui4Ġ":7321,"ĠltĠ":7322,"yi4Ġwei4Ġ":7323,"gu4Ġshi4Ġ":7324,"shan4Ġ":7325,"pian1Ġ":7326,"fang1Ġmian4Ġ":7327,"Ġxian4Ġzai4Ġ":7328,"qu1Ġwei4Ġ":7329,"Ġzui4Ġzhong1Ġ":7330,"Ġbi4Ġ":7331,"qin2Ġ":7332,"Ġzhong1Ġyang1Ġ":7333,"pao4Ġ":7334,"Ġshi4Ġshi4Ġ":7335,"tui4Ġ":7336,"zheĠ":7337,"nei4ĠdeĠ":7338,"Ġjiu4Ġ":7339,"shu3ĠdeĠ":7340,"xiang1Ġgang3":7341,"xiao3Ġshi2Ġ":7342,"dan4Ġ":7343,"Ġqu1Ġ":7344,"Ġli4Ġru2Ġ":7345,"zu2Ġqiu2Ġ":7346,"shu4Ġju4Ġ":7347,"Ġbu4Ġtong2":7348,"lie4Ġche1Ġ":7349,"xu1Ġyao4Ġ":7350,"hua4ĠdeĠ":7351,"Ġsui1":7352,"Ġdong4Ġ":7353,"zhi2Ġwu4Ġ":7354,"ren2Ġshi4Ġ":7355,"qiang1Ġ":7356,"zuo4ĠdeĠ":7357,"shi3Ġyong4":7358,"zeng1Ġjia1Ġ":7359,"Ġji4Ġhua4Ġ":7360,"min2Ġzhu3Ġ":7361,"Ġshi2Ġqi1Ġ":7362,"zuo4Ġwei2Ġ":7363,"Ġgu3Ġ":7364,"Ġceng2":7365,"kong4Ġzhi4Ġ":7366,"Ġye3Ġshi4Ġ":7367,"duan3Ġ":7368,"tan3Ġ":7369,"Ġjian4ĠdeĠ":7370,"yin1Ġyue4Ġ":7371,"Ġran2Ġer2Ġ":7372,"Ġan1Ġ":7373,"Ġshu3Ġyu2Ġ":7374,"Ġyi3Ġjing1Ġ":7375,"lang2Ġ":7376,"Ġhe2Ġzuo4Ġ":7377,"Ġzai4Ġdi4Ġ":7378,"ren2Ġmin2Ġ":7379,"Ġshi4Ġjian4Ġ":7380,"Ġren2Ġyuan2Ġ":7381,"Ġyou4":7382,"ta1ĠdeĠ":7383,"Ġke1Ġ":7384,"Ġjian4Ġyu2Ġ":7385,"xue2Ġyuan4Ġ":7386,"zu3Ġcheng2Ġ":7387,"Ġma3":7388,"chao1Ġguo4Ġ":7389,"Ġge2Ġ":7390,"zuo4Ġpin3Ġ":7391,"Ġyin1Ġyue4Ġ":7392,"mao4Ġ":7393,"Ġquan2Ġguo2Ġ":7394,"xiong2Ġ":7395,"zai3Ġ":7396,"hu1Ġ":7397,"hui4ĠdeĠ":7398,"ji4ĠdeĠ":7399,"Ġsi4Ġ":7400,"zong3Ġtong3Ġ":7401,"suan4Ġ":7402,"Ġzhe4Ġxie1Ġ":7403,"7Ġ":7404,"Ġwei4ĠleĠ":7405,"Ġhou4Ġlai2Ġ":7406,"yu2Ġshi4Ġ":7407,"Ġshou4Ġ":7408,"Ġzhang3Ġ":7409,"Ġtai4Ġ":7410,"Ġpu3Ġ":7411,"Ġcheng2Ġgong1Ġ":7412,"fa1Ġbu4Ġ":7413,"da4Ġli4Ġ":7414,"ti2Ġchu1Ġ":7415,"Ġsui4Ġ":7416,"Ġli4Ġya4Ġ":7417,"Ġ000":7418,"Ġyi4Ġyuan2Ġ":7419,"Ġshe4Ġyou3Ġ":7420,"ĠĠĠdeĠ":7421,"Ġyin1Ġci3":7422,"yun4Ġdong4Ġyuan2Ġ":7423,"yao1Ġqiu2Ġ":7424,"han2Ġguo2Ġ":7425,"bu4Ġzai4Ġ":7426,"ni2Ġya4":7427,"pin2Ġ":7428,"you3ĠdeĠ":7429,"pu2Ġ":7430,"zao4Ġcheng2Ġ":7431,"ou1Ġzhou1Ġ":7432,"qiu1Ġ":7433,"cai3Ġyong4Ġ":7434,"xiao3Ġxing2Ġ":7435,"Ġgong1Ġyuan2Ġ":7436,"jia1ĠdeĠ":7437,"xing4ĠdeĠ":7438,"ba3Ġ":7439,"sheng1ĠdeĠ":7440,"ĠdeĠyi2Ġge4":7441,"Ġri4Ġzai4Ġ":7442,"dang1Ġshi2Ġ":7443,"kong4Ġ":7444,"ren2Ġwu4Ġ":7445,"feng4Ġ":7446,"Ġci3Ġwai4Ġ":7447,"Ġsui2":7448,"gong4Ġchan3Ġ":7449,"Ġla1Ġ":7450,"kan4Ġ":7451,"ĠzhĠ":7452,"Ġcong2":7453,"Ġwo3Ġ":7454,"Ġsha1Ġ":7455,"8Ġ":7456,"wan1Ġ":7457,"Ġshi4Ġhe2Ġ":7458,"2010Ġnian2Ġ":7459,"Ġling4":7460,"Ġgen1Ġju4Ġ":7461,"ĠdeĠbu4Ġ":7462,"Ġti3Ġ":7463,"ma3Ġwei4Ġ":7464,"xue2Ġjia1Ġ":7465,"you2Ġxi4Ġ":7466,"song1Ġ":7467,"fan4Ġwei2Ġ":7468,"Ġbu4Ġtong2Ġ":7469,"mao2Ġ":7470,"dun1Ġ":7471,"kai1Ġfa1Ġ":7472,"chao1Ġ":7473,"she4Ġji4Ġ":7474,"Ġke3Ġ":7475,"san1Ġnian2Ġ":7476,"qu3Ġde2Ġ":7477,"ĠdeĠji1Ġ":7478,"Ġnv3Ġ":7479,"sai4Ġshi4Ġ":7480,"xiong1Ġ":7481,"ĠĠĠshi4Ġ":7482,"Ġxing2Ġcheng2Ġ":7483,"ĠĠĠdi4Ġli3Ġ":7484,"wen1Ġ":7485,"zi4Ġzhi4Ġ":7486,"Ġyi2Ġ":7487,"chan3Ġsheng1Ġ":7488,"Ġwu4Ġ":7489,"Ġjian1Ġ":7490,"a1Ġer3Ġ":7491,"yao2Ġ":7492,"ĠdeĠji4Ġ":7493,"shu1Ġji4Ġ":7494,"jie2Ġmu4Ġ":7495,"Ġbing4Ġyu2Ġ":7496,"10Ġ":7497,"dou1Ġshi4Ġ":7498,"ni3Ġ":7499,"chong2Ġxin1Ġ":7500,"Ġliang3Ġ":7501,"lve4Ġ":7502,"chun1Ġ":7503,"Ġshe4Ġhui4Ġ":7504,"zhong4Ġyao4":7505,"li3ĠdeĠ":7506,"bu2Ġshi4Ġ":7507,"zan4Ġ":7508,"Ġdai4Ġbiao3Ġ":7509,"yi1Ġnian2Ġ":7510,"Ġxiang1Ġgang3Ġ":7511,"Ġsi1Ġte4Ġ":7512,"dian4Ġying3":7513,"guan1Ġyu2Ġ":7514,"dang4Ġ":7515,"zhui1Ġ":7516,"xi4Ġtong3":7517,"Ġna4Ġ":7518,"jue2Ġse4Ġ":7519,"Ġfu2":7520,"jiao1Ġtong1Ġ":7521,"ding3Ġ":7522,"lang3Ġ":7523,"Ġyou2Ġxi4Ġ":7524,"da4Ġxue2Ġ":7525,"ji2ĠdeĠ":7526,"ge1Ġqu3Ġ":7527,"chu2ĠleĠ":7528,"Ġchu1Ġxian4Ġ":7529,"Ġjie2":7530,"tao3Ġ":7531,"2020Ġnian2Ġ":7532,"mi2Ġ":7533,"Ġzhi4Ġzuo4Ġ":7534,"Ġda4Ġxue2":7535,"ping2Ġjun1Ġ":7536,"Ġchen2Ġ":7537,"Ġde2Ġguo2Ġ":7538,"xian3Ġshi4Ġ":7539,"hua2Ġmin2Ġguo2Ġ":7540,"Ġshen1Ġ":7541,"kuo4Ġ":7542,"Ġnian2Ġzai4Ġ":7543,"Ġzhong1Ġhua2Ġren2Ġmin2Ġgong4Ġhe2Ġguo2Ġ":7544,"kong3Ġ":7545,"hou4Ġzai4Ġ":7546,"miao2Ġ":7547,"Ġliang3":7548,"Ġnian2Ġdai4":7549,"er4Ġnian2Ġ":7550,"xia4ĠdeĠ":7551,"yan3Ġyuan2Ġ":7552,"Ġke4Ġsi1Ġ":7553,"Ġ0":7554,"de2Ġguo2Ġ":7555,"xiang2Ġ":7556,"qing4Ġ":7557,"Ġbao3Ġ":7558,"wei2Ġyi1Ġ":7559,"cao3Ġ":7560,"dang1Ġdi4Ġ":7561,"guo2Ġji4Ġ":7562,"dui4ĠdeĠ":7563,"bo2Ġwu4Ġ":7564,"Ġfei1Ġ":7565,"Ġjian4Ġli4Ġ":7566,"hun1Ġ":7567,"Ġdi4Ġguo2Ġ":7568,"Ġbu4Ġyu2Ġ":7569,"Ġ1Ġ":7570,"fan3Ġdui4Ġ":7571,"zou3Ġ":7572,"qi1ĠdeĠ":7573,"duan1Ġ":7574,"wu4ĠdeĠ":7575,"xue4Ġ":7576,"yin1Ġwei4Ġ":7577,"qu1Ġyu4Ġ":7578,"qu4Ġshi4Ġ":7579,"kuan3Ġ":7580,"yi1Ġbu4Ġfen4Ġ":7581,"wo4Ġ":7582,"ba2Ġgao1Ġ":7583,"Ġchang2Ġ":7584,"que1Ġ":7585,"2001Ġnian2Ġ":7586,"guan3Ġxia2Ġ":7587,"du4Ġwei4Ġ":7588,"zheng4Ġzhi4Ġren2Ġwu4Ġ":7589,"Ġka3Ġ":7590,"peng2Ġ":7591,"ni2Ġya4Ġ":7592,"hai2Ġyou3Ġ":7593,"ĠĠĠren2Ġkou3Ġ":7594,"Ġfa1Ġ":7595,"Ġdang1Ġdi4Ġ":7596,"zui4Ġzhong1Ġ":7597,"Ġta1Ġshi4Ġ":7598,"Ġdan1Ġ":7599,"Ġbu4Ġdui4Ġ":7600,"Ġyue1Ġ":7601,"lai2Ġzi4Ġ":7602,"chi4Ġ":7603,"Ġxing2Ġshi4Ġ":7604,"Ġ1":7605,"bi3Ġsai4":7606,"qian2Ġwang3Ġ":7607,"Ġwei1Ġ":7608,"zhi2Ġye4Ġ":7609,"ding4ĠdeĠ":7610,"quan2Ġguo2Ġ":7611,"ba1Ġshi4Ġ":7612,"yi1Ġbu4Ġ":7613,"ĠdeĠyuan2Ġ":7614,"Ġzheng4Ġfu3":7615,"Ġchu2Ġ":7616,"zhong4Ġyao4Ġ":7617,"Ġlin2Ġ":7618,"diao4Ġcha2Ġ":7619,"Ġzhi1Ġjian1Ġ":7620,"bian1Ġma3Ġwei4Ġ":7621,"Ġhuang2Ġ":7622,"Ġnian2Ġjian1Ġ":7623,"Ġxue2Ġming2Ġ":7624,"xue2Ġxiao4Ġ":7625,"zhao1Ġ":7626,"zhu3Ġxi2Ġ":7627,"xuan3Ġju3Ġ":7628,"Ġri4Ġzhi4Ġ":7629,"gai3Ġwei2Ġ":7630,"zu3Ġzhi1":7631,"Ġmei2Ġ":7632,"Ġnei4Ġ":7633,"zhu3Ġjiao4Ġ":7634,"fa2Ġ":7635,"zi1Ġliao4Ġ":7636,"Ġjing4Ġ":7637,"hai3Ġjun1Ġ":7638,"gong1Ġshi4Ġ":7639,"Ġjun1Ġshi4Ġ":7640,"ĠdeĠda4Ġ":7641,"Ġren2Ġkou3Ġmi4Ġdu4Ġ":7642,"chu3Ġli3Ġ":7643,"kang4Ġ":7644,"zai1Ġ":7645,"sun1Ġ":7646,"ĠdeĠyi4Ġ":7647,"fang1Ġfa3Ġ":7648,"fu4Ġze2Ġ":7649,"Ġri4Ġben3":7650,"wu1Ġke4Ġlan2Ġ":7651,"ĠĠĠyu3Ġ":7652,"Ġduo1":7653,"guan4Ġ":7654,"Ġbo1Ġ":7655,"Ġjie4Ġ":7656,"shu4ĠdeĠ":7657,"Ġyou3Ġxian4":7658,"Ġsheng4Ġ":7659,"dai4Ġbiao3":7660,"Ġqi3Ġ":7661,"Ġsan1":7662,"Ġge4Ġren2Ġ":7663,"Ġhua4Ġ":7664,"wu2Ġfa3Ġ":7665,"ying3Ġxiang3":7666,"Ġji4Ġshu4Ġ":7667,"Ġshi4Ġyou2Ġ":7668,"jie1Ġrang3":7669,"ju1Ġmin2Ġ":7670,"zui4Ġgao1Ġ":7671,"Ġkai1Ġ":7672,"Ġgai3Ġ":7673,"pa4Ġ":7674,"qi2Ġzhong1Ġ":7675,"lu4ĠdeĠ":7676,"Ġci4Ġ":7677,"Ġhong2Ġ":7678,"Ġze2":7679,"xue2Ġsheng1Ġ":7680,"Ġzhi1Ġchi2Ġ":7681,"zi4Ġyou2Ġ":7682,"wen3Ġ":7683,"biao1Ġzhun3Ġ":7684,"xie2Ġhui4Ġ":7685,"shu4Ġliang4":7686,"qie4Ġ":7687,"an1Ġquan2Ġ":7688,"fan3Ġying4Ġ":7689,"ke3Ġyi3":7690,"hui4Ġzai4Ġ":7691,"yao1Ġ":7692,"shen4Ġzhi4Ġ":7693,"ken3Ġ":7694,"ye2Ġ":7695,"bi3Ġli4Ġ":7696,"tong3Ġzhi4Ġ":7697,"Ġ2Ġ":7698,"xi4Ġlie4Ġ":7699,"Ġsui2Ġ":7700,"chuang4Ġzuo4Ġ":7701,"zhu3Ġren4Ġ":7702,"Ġxin1":7703,"ĠĠĠben3Ġ":7704,"dong1Ġbu4Ġ":7705,"ĠdeĠyi2Ġge4Ġshi4Ġzhen4Ġ":7706,"Ġshi4Ġyi2Ġge4Ġ":7707,"Ġnan2":7708,"lian2Ġmeng2Ġ":7709,"Ġgong1Ġsi1":7710,"gai1Ġguo2Ġ":7711,"kai3Ġ":7712,"Ġfu4Ġze2Ġ":7713,"Ġming2":7714,"fan2Ġ":7715,"ya3Ġ":7716,"Ġdi4Ġsan1Ġ":7717,"Ġdi4Ġshi2Ġ":7718,"ĠĠĠxing2Ġzheng4Ġ":7719,"Ġsu1Ġ":7720,"ti3Ġyu4Ġ":7721,"Ġbu4Ġguo4Ġ":7722,"jie2Ġgou4Ġ":7723,"niu2Ġ":7724,"Ġdao4ĠdeĠ":7725,"shi2Ġnian2Ġ":7726,"qing2Ġkuang4Ġ":7727,"neng2Ġli4Ġ":7728,"nan2ĠziĠ":7729,"Ġshui3Ġ":7730,"zhong1Ġshi4Ġ":7731,"qing2Ġkuang4":7732,"si4Ġnian2Ġ":7733,"ĠĠĠof":7734,"AĠ":7735,"Ġge1Ġ":7736,"Ġyang2Ġ":7737,"xi1Ġbu4Ġ":7738,"hao2Ġ":7739,"gong1Ġbu4Ġ":7740,"sheng1Ġhuo2Ġ":7741,"jie1Ġshou4Ġ":7742,"mou3Ġ":7743,"nv3Ġzi3Ġ":7744,"Ġao4":7745,"lu4Ġxian4Ġ":7746,"cheng2Ġli4Ġ":7747,"ĠĠĠformulaĠ":7748,"suo1Ġ":7749,"Ġzhong1Ġxue2Ġ":7750,"gu1Ġ":7751,"huan1Ġ":7752,"9Ġ":7753,"mian4ĠdeĠ":7754,"Ġjin4Ġru4Ġ":7755,"yi4Ġshi4Ġ":7756,"Ġer3Ġsi1Ġ":7757,"ĠĠĠofĠĠĠ":7758,"Ġzhu3Ġyao4Ġ":7759,"bei3Ġjing1Ġ":7760,"Ġke3Ġyi3Ġ":7761,"theĠĠĠ":7762,"Ġba1":7763,"you3Ġshi2Ġ":7764,"lian2Ġsai4Ġ":7765,"Ġyi4Ġhui4Ġ":7766,"guang3Ġdong1Ġ":7767,"duo2Ġ":7768,"Ġao4Ġ":7769,"ĠĠĠjia1Ġ":7770,"lao2Ġ":7771,"Ġtai2Ġ":7772,"jian4Ġzhu4Ġ":7773,"ya4Ġzhou1Ġ":7774,"dao3ĠdeĠ":7775,"Ġguo2Ġmin2Ġ":7776,"ye3Ġshi4Ġ":7777,"na2Ġda4Ġ":7778,"tai4Ġping2Ġ":7779,"dong4Ġwu4Ġ":7780,"Ġsuo3Ġyi3Ġ":7781,"di4Ġwei4Ġ":7782,"ran3Ġ":7783,"gui3Ġ":7784,"Ġzhe4Ġshi4Ġ":7785,"ba2Ġgao1Ġdu4Ġ":7786,"da2Ġdao4Ġ":7787,"zi4Ġji3ĠdeĠ":7788,"li3Ġshi4Ġ":7789,"zhu2Ġjian4Ġ":7790,"zhuan4Ġ":7791,"Ġbing4Ġqie3":7792,"dai4ĠdeĠ":7793,"ban3Ġben3Ġ":7794,"xu3Ġduo1":7795,"zhe3ĠdeĠ":7796,"jiao4Ġshou4Ġ":7797,"Ġhai2Ġ":7798,"Ġer4Ġ":7799,"2008Ġnian2Ġ":7800,"xiang4Ġmu4Ġ":7801,"Ġxue2Ġxiao4Ġ":7802,"Ġhu2Ġ":7803,"Ġda4":7804,"wu1Ġke4Ġlan2":7805,"Ġmu3Ġ":7806,"fei1Ġchang2Ġ":7807,"2009Ġnian2Ġ":7808,"Ġxi1Ġya4Ġ":7809,"qing1Ġnian2Ġ":7810,"Ġzong3":7811,"Ġbing4Ġqie3Ġ":7812,"Ġzhu3Ġyao4":7813,"sĠ":7814,"la1Ġsi1Ġ":7815,"ĠĠĠgen1Ġju4Ġ":7816,"yi1Ġshi4Ġ":7817,"Ġcheng2Ġwei2":7818,"ri4Ġben3":7819,"mo2Ġshi4Ġ":7820,"zhe2Ġ":7821,"niao3Ġ":7822,"wen2Ġwu4Ġ":7823,"Ġta1ĠmenĠdeĠ":7824,"Ġyi4Ġshu4Ġ":7825,"zhi3Ġyou3Ġ":7826,"cha1Ġ":7827,"kuan1Ġ":7828,"Ġji4Ġlu4Ġ":7829,"Ġzhou1ĠdeĠ":7830,"Ġai4Ġ":7831,"Ġmin2Ġ":7832,"hang2Ġkong1Ġ":7833,"Ġyu2Ġshi4Ġ":7834,"wen2Ġxue2Ġ":7835,"Ġbo2Ġ":7836,"fen1Ġwei2Ġ":7837,"suan1Ġ":7838,"hui3Ġ":7839,"Ġqi2Ġshi4Ġ":7840,"Ġqi2Ġyu2Ġ":7841,"deng3Ġren2Ġ":7842,"tong1Ġguo4":7843,"cang2Ġ":7844,"zhi3Ġchu1Ġ":7845,"shuai4Ġ":7846,"28Ġri4Ġ":7847,"Ġyong4Ġ":7848,"ren2Ġkou3Ġpu3Ġ":7849,"cuo4Ġ":7850,"zhi2Ġxing2Ġ":7851,"Ġjin1":7852,"tong2Ġshi2Ġ":7853,"Ġqiu2Ġdui4Ġ":7854,"zha4Ġ":7855,"Ġli4Ġya4":7856,"yan3Ġchu1Ġ":7857,"zhi2Ġjie1Ġ":7858,"gai1Ġdi4Ġ":7859,"jin3Ġbiao1Ġ":7860,"ge2Ġlan2Ġ":7861,"2016Ġnian2Ġ":7862,"huo2Ġdong4":7863,"ren4Ġwei2":7864,"zhe4Ġyi1Ġ":7865,"jin4Ġru4Ġ":7866,"Ġzhi1Ġjian1ĠdeĠ":7867,"Ġgong1Ġkai1Ġ":7868,"Ġdang1Ġzhong1Ġ":7869,"hun4Ġ":7870,"gong4Ġtong2Ġ":7871,"xia4Ġji4Ġ":7872,"Ġdan4Ġzai4Ġ":7873,"Ġ2":7874,"chou2Ġ":7875,"zhan4Ġzheng1Ġ":7876,"wu3Ġnian2Ġ":7877,"jiang1Ġjun1Ġ":7878,"Ġwu2":7879,"le4Ġbu4Ġ":7880,"mei2Ġti3Ġ":7881,"ti3ĠdeĠ":7882,"che1Ġzhan4":7883,"po1Ġ":7884,"15Ġri4Ġ":7885,"ti4Ġ":7886,"meng4Ġ":7887,"tui1Ġchu1Ġ":7888,"die2Ġ":7889,"jiao4Ġyu4":7890,"yun3Ġ":7891,"zhe4Ġxie1Ġ":7892,"Ġshi4Ġwu4Ġ":7893,"miao4Ġ":7894,"li2Ġkai1Ġ":7895,"Ġyin3Ġ":7896,"Ġling4Ġwai4Ġ":7897,"huan2Ġjing4Ġ":7898,"teng2Ġ":7899,"zhu2Ġ":7900,"2012Ġnian2Ġ":7901,"lin2Ġpi3":7902,"Ġdi4Ġer4":7903,"shang1Ġye4Ġ":7904,"ĠC":7905,"2011Ġnian2Ġ":7906,"chuan2Ġtong3Ġ":7907,"ĠĠĠnian2":7908,"guan1ĠdeĠ":7909,"san1Ġshi2Ġ":7910,"jun1Ġshi4Ġ":7911,"dan1Ġqu1Ġ":7912,"liang4ĠdeĠ":7913,"jie1Ġdao4Ġ":7914,"san4Ġ":7915,"ji1ĠdeĠ":7916,"qian2ĠdeĠ":7917,"ren2Ġzai4Ġ":7918,"zang4Ġ":7919,"nei4Ġrong2Ġ":7920,"sai4Ġji4Ġ":7921,"gao1ĠdeĠ":7922,"dong4Ġhua4Ġ":7923,"bo2Ġshi4Ġ":7924,"du4ĠdeĠ":7925,"Ġwei4Ġren2Ġ":7926,"yin2Ġhang2Ġ":7927,"Ġmi3":7928,"xuan3Ġju3":7929,"Ġwei4Ġzhi4Ġ":7930,"Ġgu4Ġ":7931,"sun3Ġ":7932,"cheng2Ġzhong1Ġ":7933,"ming4Ġming2Ġ":7934,"deng3Ġdi4Ġ":7935,"Ġgong1Ġlu4Ġ":7936,"bang3Ġ":7937,"re4Ġdai4Ġ":7938,"bei3Ġjing1":7939,"Ġzhe4ĠgeĠ":7940,"Ġshi2Ġji4Ġ":7941,"yun4Ġdong4Ġhui4Ġ":7942,"xuan3Ġze2Ġ":7943,"Ġda4Ġli4Ġ":7944,"Ġer2Ġzai4Ġ":7945,"Ġhan4Ġ":7946,"yuan2Ġnian2Ġ":7947,"bao4Ġgao4Ġ":7948,"Ġye4Ġ":7949,"Ġmu4Ġqian2Ġ":7950,"ĠdeĠhe2Ġ":7951,"bo1Ġchu1Ġ":7952,"zui4Ġjia1Ġ":7953,"ĠĠĠju4Ġ":7954,"zong1Ġjiao4Ġ":7955,"xue2Ġwei4Ġ":7956,"tu3Ġdi4Ġ":7957,"Ġde2Ġdao4Ġ":7958,"wen2Ġhua4":7959,"zui4Ġhou4Ġ":7960,"tuan2Ġti3Ġ":7961,"25Ġri4Ġ":7962,"Ġdi4Ġfang1Ġ":7963,"gui3Ġdao4Ġ":7964,"luan4Ġ":7965,"Ġwei4Ġdi4Ġ":7966,"Ġmo2Ġ":7967,"Ġzhan4":7968,"jing1Ġli4Ġ":7969,"xi4ĠdeĠ":7970,"Ġzhi1Ġqian2Ġ":7971,"sheng3ĠdeĠyi2Ġge4Ġshi4Ġzhen4Ġ":7972,"Ġshi4Ġyi1Ġzhong3Ġ":7973,"Ġshi4Ġwei4Ġyu2Ġmei3Ġguo2Ġ":7974,"Ġqi4Ġ":7975,"sui4Ġ":7976,"Ġxing4Ġ":7977,"ji2Ġzhong1Ġ":7978,"Ġge4Ġyue4Ġ":7979,"Ġjun1ĠdeĠ":7980,"si3Ġwang2Ġ":7981,"xiang1Ġguan1Ġ":7982,"Ġbao1Ġkuo4":7983,"30Ġri4Ġ":7984,"fen1Ġbie2":7985,"Ġji1Ġgou4Ġ":7986,"wei4ĠdeĠ":7987,"shou3Ġci4Ġ":7988,"ao4Ġlin2Ġpi3":7989,"Ġ12":7990,"BĠ":7991,"ling3Ġdao3Ġ":7992,"Ġyou3Ġguan1Ġ":7993,"Ġhai3Ġba2Ġgao1Ġdu4Ġ":7994,"Ġyi1Ġxie1Ġ":7995,"Ġzhong4Ġ":7996,"Ġtong2Ġnian2Ġ":7997,"Ġjue2Ġ":7998,"yong4ĠdeĠ":7999,"2014Ġnian2Ġ":8000,"huai2Ġ":8001,"ĠĠĠwei4Ġ":8002,"20Ġri4Ġ":8003,"Ġxing2Ġdong4Ġ":8004,"xue3Ġ":8005,"Ġzai4Ġyi1Ġ":8006,"ji1Ġyu2Ġ":8007,"Ġzhong1Ġhua2Ġmin2Ġguo2Ġ":8008,"shui3Ġyu4Ġ":8009,"Ġ5Ġ":8010,"bian4Ġhua4Ġ":8011,"10Ġri4Ġ":8012,"shang4Ġwei4Ġ":8013,"Ġji2Ġtuan2":8014,"2018Ġnian2Ġ":8015,"Ġji4Ġxu4Ġ":8016,"zhi1Ġyi1Ġ":8017,"Ġshi2Ġdai4Ġ":8018,"chu3Ġyu2Ġ":8019,"wan4Ġ":8020,"UTCĠ":8021,"gong4Ġhe2Ġ":8022,"Ġwai4Ġ":8023,"Ġbai2Ġ":8024,"mei3Ġyuan2Ġ":8025,"Ġbu4Ġzhang3Ġ":8026,"zi4Ġji3Ġ":8027,"ĠziĠ":8028,"jie2Ġshu4Ġ":8029,"2019Ġnian2Ġ":8030,"Ġ14":8031,"Ġzi4Ġji3":8032,"zhi1Ġchi2Ġ":8033,"deĠĠĠ":8034,"2005Ġnian2Ġ":8035,"guo4Ġcheng2Ġ":8036,"Ġhou4Ġlai2":8037,"min2Ġzu2Ġ":8038,"shun4Ġ":8039,"2015Ġnian2Ġ":8040,"kong1Ġjian1Ġ":8041,"shui4Ġ":8042,"mei4Ġ":8043,"bu2Ġhui4Ġ":8044,"ye4Ġyu2Ġ":8045,"Ġru2":8046,"Ġcheng1Ġ":8047,"tou4Ġguo4Ġ":8048,"nei4Ġbu4Ġ":8049,"2013Ġnian2Ġ":8050,"Ġsi4":8051,"jie3Ġfang4":8052,"Ġzhi2Ġdao4Ġ":8053,"Ġyi4Ġzhi2Ġ":8054,"Ġjing3Ġ":8055,"xin1Ġwen2Ġ":8056,"fen1Ġbu4Ġ":8057,"gen1Ġju4":8058,"Ġai4":8059,"Ġzhou1Ġshi4Ġ":8060,"pi1Ġping2Ġ":8061,"Ġji2Ġtuan2Ġ":8062,"Ġjiu4":8063,"2007Ġnian2Ġ":8064,"Ġshu3Ġ":8065,"di4Ġqu1Ġ":8066,"ĠĠĠzhe4Ġ":8067,"Ġhe2Ġnan2Ġ":8068,"ta1Ġmen":8069,"Ġshi4Ġshi2Ġ":8070,"Ġyou3Ġxian4Ġgong1Ġsi1Ġ":8071,"wan2Ġjia1Ġ":8072,"gui1Ġding4Ġ":8073,"Ġshen2Ġ":8074,"Ġjia1Ġru4Ġ":8075,"ge2Ġming4Ġ":8076,"wan2Ġquan2Ġ":8077,"cheng2Ġwei2Ġ":8078,"Ġtang2Ġ":8079,"xi1Ġban1Ġ":8080,"zi1Ġge2Ġ":8081,"26Ġri4Ġ":8082,"da4Ġlu4Ġ":8083,"ao4Ġlin2Ġpi3Ġke4Ġ":8084,"ĠĠĠgai1Ġ":8085,"18Ġri4Ġ":8086,"2017Ġnian2Ġ":8087,"Ġda4Ġhui4Ġ":8088,"24Ġri4Ġ":8089,"Ġmo4Ġ":8090,"zai4ĠdeĠ":8091,"za2Ġzhi4Ġ":8092,"ĠĠĠyi1Ġ":8093,"Ġzhe4Ġzhong3Ġ":8094,"Ġtou2Ġ":8095,"ying1Ġyu3Ġ":8096,"lu4Ġdi4Ġ":8097,"Ġying1Ġguo2Ġ":8098,"Ġke3":8099,"he2ĠdeĠ":8100,"shang4Ġhai3Ġ":8101,"hao2Ġmi3Ġ":8102,"Ġyu3Ġyan2Ġ":8103,"qi2Ġta1":8104,"qi3Ġye4Ġ":8105,"pu2Ġtao2Ġ":8106,"fang1ĠdeĠ":8107,"hou4Ġyi1Ġ":8108,"luo2Ġma3Ġ":8109,"wen4Ġti2":8110,"Ġcheng2Ġqu1Ġ":8111,"san1Ġge4Ġ":8112,"se4ĠdeĠ":8113,"2006Ġnian2Ġ":8114,"chuan2Ġtong3":8115,"Ġshi4Ġfa3Ġguo2Ġ":8116,"yi1ĠdeĠ":8117,"wu4Ġzhong3Ġ":8118,"Ġyao4Ġ":8119,"11Ġ":8120,"Ġwei4Ġyu2Ġgai1Ġguo2Ġ":8121,"Ġ3Ġ":8122,"Ġtai2Ġwan1Ġ":8123,"Ġha1Ġ":8124,"Ġli3Ġsi1Ġ":8125,"jing4Ġnei4Ġ":8126,"Ġbu4Ġtong2ĠdeĠ":8127,"Ġmo4":8128,"wu4Ġli3Ġ":8129,"duo1ĠdeĠ":8130,"shu4Ġwei4Ġ":8131,"Ġdai4Ġbiao3":8132,"biao3Ġxian4Ġ":8133,"Ġshi4Ġjie4Ġda4Ġ":8134,"sheng3Ġji2Ġ":8135,"miao2Ġshu4Ġ":8136,"fa3Ġlv4Ġ":8137,"gan4Ġ":8138,"ba4Ġ":8139,"guan1Ġyuan2Ġ":8140,"jing1Ġguo4Ġ":8141,"Ġlu2Ġ":8142,"chang1Ġ":8143,"16Ġri4Ġ":8144,"17Ġri4Ġ":8145,"Ġzui4Ġhou4Ġ":8146,"Ġyi4Ġban1Ġ":8147,"po4Ġhuai4":8148,"Ġa1":8149,"Ġguo2Ġjia1":8150,"ying2Ġde2Ġ":8151,"cai4Ġ":8152,"Ġsui2Ġhou4Ġ":8153,"zheng4Ġzai4Ġ":8154,"na2Ġ":8155,"bao1Ġhan2Ġ":8156,"Ġshi4Ġjian4":8157,"bo2Ġwu4Ġguan3Ġ":8158,"Ġgong1Ġji1Ġ":8159,"shen4Ġ":8160,"ce4Ġshi4Ġ":8161,"chang3ĠdeĠ":8162,"Ġwei4Ġzhong1Ġ":8163,"chun2Ġ":8164,"Ġli4Ġyong4Ġ":8165,"Ġchao2Ġ":8166,"bu4Ġhe2Ġ":8167,"Ġci4":8168,"nie4Ġ":8169,"8Ġri4Ġ":8170,"ze2Ġshi4Ġ":8171,"sou1Ġ":8172,"fei1Ġji1Ġ":8173,"Ġfen1Ġbu4Ġyu2Ġ":8174,"zhuan1Ġye4Ġ":8175,"zheng1Ġyi4Ġ":8176,"27Ġri4Ġ":8177,"fa3Ġyuan4Ġ":8178,"shi3ĠdeĠ":8179,"Ġdi4Ġqu1":8180,"Ġ2001Ġnian2Ġ":8181,"sĠĠĠ":8182,"yong1Ġ":8183,"21Ġri4Ġ":8184,"yi4Ġshi2Ġ":8185,"zao1Ġdao4Ġ":8186,"Ġsui1Ġran2":8187,"Ġshi4Ġyi4Ġ":8188,"Ġsheng1Ġhuo2Ġ":8189,"Ġchong2Ġ":8190,"12Ġri4Ġ":8191,"Ġbei4Ġcheng1Ġwei2Ġ":8192,"ding4Ġyi4Ġ":8193,"Ġzhong1Ġxin1":8194,"Ġda4Ġqu1Ġ":8195,"zong1Ġhe2Ġ":8196,"Ġzhan4Ġzheng1Ġ":8197,"xue2ĠdeĠ":8198,"Ġxian4Ġshi2Ġ":8199,"7Ġri4Ġ":8200,"Ġzhong1Ġgong4":8201,"19Ġri4Ġ":8202,"ji2Ġwei4Ġ":8203,"23Ġri4Ġ":8204,"2021Ġnian2Ġ":8205,"huang2Ġdi4Ġ":8206,"ĠdeĠzuo4Ġ":8207,"Ġzhu1Ġ":8208,"zhi3Ġshi4Ġ":8209,"2022Ġnian2Ġ":8210,"11Ġri4Ġ":8211,"a1Ġla1Ġ":8212,"ou1Ġzhou1":8213,"jiang1Ġqi2Ġ":8214,"Ġbing4Ġbu4Ġ":8215,"yuan2Ġyu2Ġ":8216,"fang1Ġxiang4Ġ":8217,"9Ġri4Ġ":8218,"liu4Ġnian2Ġ":8219,"zhan4ĠdeĠ":8220,"e2Ġluo2Ġ":8221,"ĠĠĠyu2Ġ":8222,"chu1Ġxian4Ġ":8223,"lie4Ġche1":8224,"quan2Ġli4Ġ":8225,"nao3Ġ":8226,"gui1Ġmo2Ġ":8227,"22Ġri4Ġ":8228,"29Ġri4Ġ":8229,"lie4ĠdeĠ":8230,"zui4Ġda4ĠdeĠ":8231,"duo1Ġshu4Ġ":8232,"xiang4ĠdeĠ":8233,"Ġlu4":8234,"Ġzhang1":8235,"xu1Ġyao4":8236,"Ġlong2Ġ":8237,"hai2Ġshi4Ġ":8238,"yu4ĠdeĠ":8239,"neng2Ġgou4Ġ":8240,"yue1Ġhan4Ġ":8241,"Ġzhe4Ġxie1":8242,"5Ġri4Ġ":8243,"ĠĠĠci3Ġ":8244,"ding4Ġwei4Ġ":8245,"tong3Ġji4Ġ":8246,"Ġxiang1Ġgang3":8247,"sang1Ġ":8248,"ĠĠĠzheng4Ġzhi4Ġ":8249,"Ġzai4Ġzhe4Ġ":8250,"xin4Ġxi1Ġ":8251,"yang4ĠdeĠ":8252,"Ġxian4Ġzhi4Ġ":8253,"ĠĠĠtheĠĠĠ":8254,"gong1ĠdeĠ":8255,"3Ġri4Ġ":8256,"hong1Ġ":8257,"ju3Ġban4":8258,"Ġfen1Ġbie2":8259,"qiu2Ġdui4Ġ":8260,"lian2Ġmeng2":8261,"ling4Ġyi1Ġ":8262,"cha2ĠdeĠ":8263,"14Ġri4Ġ":8264,"chang2Ġshi4Ġ":8265,"mei3Ġguo2Ġren2Ġkou3Ġpu3Ġ":8266,"6Ġri4Ġ":8267,"niu3Ġyue1":8268,"zu3Ġhe2Ġ":8269,"Ġhuo4Ġde2":8270,"lin2Ġshi2Ġ":8271,"31Ġri4Ġ":8272,"Ġzhong1Ġbu4Ġ":8273,"wei4Ġshi4Ġ":8274,"dong3Ġshi4Ġ":8275,"Ġjia4Ġ":8276,"Ġbao4Ġ":8277,"ji1Ġdi4Ġ":8278,"ge1Ġshou3Ġ":8279,"Ġliu2":8280,"Ġru4Ġ":8281,"ĠĠĠzhong1Ġ":8282,"dong1Ġnan2Ġ":8283,"hai3Ġba2":8284,"bang1Ġzhu4Ġ":8285,"ĠdeĠshi4Ġzhen4Ġ":8286,"Ġhua2Ġ":8287,"Ġgong4Ġ":8288,"4Ġri4Ġ":8289,"pai1Ġshe4Ġ":8290,"mou2Ġ":8291,"Ġyi4Ġda4Ġli4Ġ":8292,"21Ġ":8293,"2000Ġnian2Ġ":8294,"Ġshe4Ġli4Ġ":8295,"13Ġri4Ġ":8296,"Ġyi4Ġban1":8297,"2Ġri4Ġ":8298,"Ġren2Ġkou3":8299,"ge4Ġren2Ġ":8300,"she4Ġyou3Ġ":8301,"ĠdeĠzhong1Ġ":8302,"bing3Ġ":8303,"sheng1Ġya2Ġ":8304,"yuan2Ġhe2Ġ":8305,"Ġdao3Ġzhi4Ġ":8306,"Ġdi4Ġqu1ĠdeĠ":8307,"2004Ġnian2Ġ":8308,"Ġxue2Ġsheng1Ġ":8309,"tie3Ġlu4":8310,"feng2Ġ":8311,"zu2Ġqiu2":8312,"zao3Ġqi1Ġ":8313,"Ġqi2Ġta1":8314,"TheĠĠĠ":8315,"pan2Ġ":8316,"xiong1Ġdi4Ġ":8317,"ruan3Ġ":8318,"sheng1Ġzai4Ġ":8319,"cang1Ġ":8320,"dong1Ġbei3Ġ":8321,"Ġ13":8322,"mu4Ġdi4Ġ":8323,"Ġwo3":8324,"Ġbian4Ġ":8325,"tong1Ġchang2Ġ":8326,"hui1Ġfu4Ġ":8327,"Ġzhe4Ġyi1Ġ":8328,"Ġshi4Ġchang3Ġ":8329,"Ġxue2Ġyuan4Ġ":8330,"shao1Ġ":8331,"Ġmei2Ġyou3Ġ":8332,"Ġ4Ġ":8333,"shen1Ġfen4Ġ":8334,"ĠĠĠyou2Ġyu2Ġ":8335,"qu3Ġdai4Ġ":8336,"lian2Ġbang1Ġ":8337,"ge2Ġming4":8338,"zhi3Ġhui1Ġ":8339,"qing2Ġkuang4Ġxia4Ġ":8340,"yi2Ġbu4Ġ":8341,"su1Ġlian2Ġ":8342,"xie2Ġyi4Ġ":8343,"Ġfu4":8344,"huang2Ġjia1Ġ":8345,"ke1Ġji4Ġ":8346,"fa1Ġxian4":8347,"pang2Ġ":8348,"zheng3Ġge4Ġ":8349,"Ġhei1Ġ":8350,"ren2Ġhe2Ġ":8351,"Ġgong1Ġchi3Ġ":8352,"yao1Ġqiu2":8353,"yan1Ġ":8354,"zhan1Ġ":8355,"chao1Ġji2Ġ":8356,"mao4Ġyi4Ġ":8357,"yue4ĠdeĠ":8358,"zhang3ĠdeĠ":8359,"xue2Ġyuan4":8360,"fan3Ġying4":8361,"ju3Ġban4Ġ":8362,"hang2Ġkong1":8363,"cui1Ġ":8364,"xi2Ġji1Ġ":8365,"Ġye3Ġyou3Ġ":8366,"nv3Ġxing4Ġ":8367,"hua4Ġhe2Ġ":8368,"xiao3Ġshuo1Ġ":8369,"Ġdi4Ġli4Ġ":8370,"ting3Ġ":8371,"Ġshu1Ġ":8372,"li4Ġhe2Ġ":8373,"Ġxi1Ġnan2Ġ":8374,"tu2Ġshu1Ġ":8375,"guan1Ġfang1Ġ":8376,"xian1Ġhou4Ġ":8377,"tong3Ġyi1Ġ":8378,"bi4Ġye4Ġ":8379,"Ġha1":8380,"za2Ġ":8381,"Ġgu4":8382,"Ġshuang1Ġ":8383,"brĠ":8384,"Ġdong1":8385,"Ġwei1":8386,"zun1Ġ":8387,"Ġ15":8388,"Ġman4Ġ":8389,"Ġque4Ġ":8390,"sai4ĠdeĠ":8391,"hou2Ġ":8392,"Ġyi3Ġjing1":8393,"ĠbrĠ":8394,"lan3Ġ":8395,"xie2Ġzhu4Ġ":8396,"ci4Ġshi4Ġjie4Ġda4Ġ":8397,"Ġru2Ġguo3Ġ":8398,"meĠ":8399,"shang4Ġshi4Ġ":8400,"qu1Ġhua4Ġ":8401,"fen1Ġxi1Ġ":8402,"Ġqian1Ġ":8403,"yu3ĠdeĠ":8404,"Ġer3Ġsheng3Ġ":8405,"ren2Ġkou3Ġshu4Ġliang4":8406,"wen2Ġwu4Ġbao3Ġhu4Ġ":8407,"Ġ3":8408,"Ġhe2Ġyi1Ġ":8409,"Ġbu4Ġneng2Ġ":8410,"zi4Ġxing2Ġ":8411,"Ġben3":8412,"jie1Ġduan4Ġ":8413,"Ġzu3Ġ":8414,"Ġqie3Ġ":8415,"guang3Ġbo1Ġ":8416,"20Ġ":8417,"Ġcai2Ġ":8418,"Ġ6Ġ":8419,"Ġyi3Ġlai2Ġ":8420,"Ġxi1Ġban1Ġ":8421,"dan1Ġren4":8422,"Ġwu3":8423,"Ġta1Ġceng2":8424,"chi2Ġxu4Ġ":8425,"tai2Ġbei3":8426,"wu2Ġxian4Ġ":8427,"ĠA":8428,"gong4Ġchan3Ġdang3Ġ":8429,"guo2Ġhe2Ġ":8430,"Ġyi3Ġxia4Ġ":8431,"qi1Ġnian2Ġ":8432,"te4ĠdeĠ":8433,"dao3Ġyan3Ġ":8434,"hou4Ġyu2Ġ":8435,"reng2Ġ":8436,"yan3Ġchang4":8437,"zhu4Ġzai4Ġ":8438,"lai4Ġ":8439,"fa1Ġbiao3":8440,"xia4Ġxia2":8441,"tiao2Ġjian4Ġ":8442,"pin2Ġdao4Ġ":8443,"hu3Ġ":8444,"Ġgong1Ġzuo4":8445,"ye4ĠdeĠ":8446,"jiao1Ġyi4Ġ":8447,"Ġzai4Ġci4Ġ":8448,"Ġjiu3Ġ":8449,"shao4Ġnian2Ġ":8450,"jie2Ġshu4":8451,"Ġshi4Ġzhong1Ġguo2Ġ":8452,"zao1Ġ":8453,"bao4Ġdao4Ġ":8454,"Ġren2Ġkou3Ġmi4Ġdu4Ġwei4Ġ":8455,"qiu2Ġyuan2Ġ":8456,"Ġshi4Ġli4Ġ":8457,"Ġqie3":8458,"ĠĠĠbu4Ġ":8459,"Ġzhe4Ġge":8460,"jue2Ġsai4Ġ":8461,"Ġ8":8462,"Ġya4Ġ":8463,"ying4Ġyong4Ġ":8464,"wai4ĠdeĠ":8465,"you2Ġzheng4Ġ":8466,"jian4Ġli4Ġ":8467,"zi1Ġyuan2Ġ":8468,"sai1Ġer3Ġ":8469,"Ġqi2Ġhou4Ġ":8470,"Ġzhao4Ġ":8471,"Ġxi1":8472,"zui4Ġda4Ġ":8473,"Ġbing4Ġwei4Ġ":8474,"Ġ17":8475,"hui2Ġdao4Ġ":8476,"su4Ġdu4Ġ":8477,"ĠS":8478,"cao1Ġ":8479,"qi4Ġhou4Ġ":8480,"ke3Ġda2Ġ":8481,"Ġluo4Ġ":8482,"Ġwei4Ġyu2Ġfa3Ġguo2Ġ":8483,"gai3Ġge2Ġ":8484,"mi4Ġshu1Ġ":8485,"Ġyi1Ġyuan4Ġ":8486,"dian4Ġshi4Ġju4Ġ":8487,"zhuang4Ġtai4Ġ":8488,"zhu4ĠdeĠ":8489,"fen4Ġwei4Ġ":8490,"Ġlan2Ġ":8491,"Ġgong1Ġye4Ġ":8492,"wang3Ġzhan4Ġ":8493,"gong1Ġsi1Ġ":8494,"Ġjie3Ġ":8495,"jie2Ġguo3Ġ":8496,"suo3Ġshu3ĠdeĠ":8497,"ĠdeĠdi4Ġyi1Ġ":8498,"hu2Ġnan2Ġ":8499,"Ġyi1Ġsi1Ġ":8500,"Ġmai4":8501,"ya4Ġli4Ġ":8502,"Ġwei4Ġyi1Ġ":8503,"shang4Ġhai3":8504,"20Ġshi4Ġji4Ġ":8505,"Ġzuo4Ġpin3Ġ":8506,"zuo3Ġyou4Ġ":8507,"xiao3Ġxue2Ġ":8508,"sheng4Ġli4Ġ":8509,"jie2Ġhe2Ġ":8510,"Ġzhong1Ġgong4Ġ":8511,"shou3Ġci4":8512,"Ġsuo3Ġyou3Ġ":8513,"Ġhao4Ġxian4Ġ":8514,"zhen4Ġqu1Ġ":8515,"ĠdeĠfu4Ġ":8516,"wen2Ġming2Ġ":8517,"Ġjian3Ġcheng1Ġ":8518,"kai1Ġfa1":8519,"yi2Ġzhi4Ġ":8520,"jiao4Ġhui4Ġ":8521,"sheng3Ġfen4Ġ":8522,"zhan3Ġkai1Ġ":8523,"yin4Ġdu4":8524,"shi2Ġqi1Ġ":8525,"Ġfa3Ġguo2Ġ":8526,"ling3Ġdao3":8527,"mu4Ġbiao1Ġ":8528,"Ġ10":8529,"Ġer2Ġshi4Ġ":8530,"gao1Ġji2Ġ":8531,"zhun3Ġbei4Ġ":8532,"wang3Ġluo4Ġ":8533,"Ġfei1":8534,"Ġjian4Ġshe4Ġ":8535,"xun4Ġlian4Ġ":8536,"ke1ĠdeĠ":8537,"juan3Ġ":8538,"Ġren2Ġwu4Ġ":8539,"xuan3Ġshou3Ġ":8540,"jiao1Ġtong1":8541,"hao3ĠdeĠ":8542,"fa1Ġbiao3Ġ":8543,"zi4Ġran2Ġ":8544,"zhong4Ġyao4ĠdeĠ":8545,"Ġjia3Ġ":8546,"dong1Ġjing1Ġ":8547,"chan3Ġpin3Ġ":8548,"gong4Ġyou3Ġren2Ġkou3Ġ":8549,"Ġxian4Ġdai4Ġ":8550,"Ġyi1Ġming2Ġ":8551,"Ġxi1Ġbei3Ġ":8552,"lei3Ġ":8553,"feng1Ġge2Ġ":8554,"Ġcheng2Ġji4Ġ":8555,"zou4Ġ":8556,"Ġhe2Ġdi4Ġ":8557,"xiao3Ġxing2Ġxing1Ġ":8558,"yan2Ġzhong4Ġ":8559,"ziĠdeĠ":8560,"mie4Ġ":8561,"mu4Ġqian2Ġ":8562,"wen2Ġwu4Ġbao3Ġhu4Ġdan1Ġwei4Ġ":8563,"Ġdan1Ġren4Ġ":8564,"Ġji1Ġchang3Ġ":8565,"liu2Ġxing2Ġ":8566,"bian4Ġcheng2Ġ":8567,"Ġguang1Ġ":8568,"Ġmai4Ġ":8569,"qiao2Ġzhi4Ġ":8570,"Ġ16":8571,"lei4Ġsi4":8572,"dian4Ġshi4Ġtai2Ġ":8573,"12Ġ":8574,"jie3Ġshi4Ġ":8575,"guo2Ġmin2Ġ":8576,"Ġyi4Ġqi3Ġ":8577,"Ġyong3Ġ":8578,"kai1Ġfang4Ġ":8579,"Ġshen4Ġzhi4Ġ":8580,"Ġdeng3":8581,"Ġxia4Ġling4":8582,"Ġyi2Ġge4Ġ":8583,"ka3Ġer3Ġ":8584,"2003Ġnian2Ġ":8585,"xing2Ġshi4Ġ":8586,"dou1Ġyou3Ġ":8587,"2002Ġnian2Ġ":8588,"Ġchu2ĠleĠ":8589,"zhi1Ġhou4Ġ":8590,"hui4Ġhe2Ġ":8591,"mei3Ġping2Ġfang1Ġgong1Ġli3Ġ":8592,"ru4ĠleĠ":8593,"Ġyi1Ġyang4Ġ":8594,"Ġgong1Ġfen1Ġ":8595,"Ġshe4Ġzhi4Ġ":8596,"te4Ġzheng1Ġ":8597,"can1Ġsai4Ġ":8598,"Ġsi1Ġji1Ġ":8599,"Ġwu1Ġ":8600,"30Ġ":8601,"ru2Ġxia4Ġ":8602,"zhen1Ġdui4Ġ":8603,"Ġying1Ġchi3Ġ":8604,"jiu4Ġshi4Ġzhen4Ġ":8605,"Ġshi4Ġfou3":8606,"bang4Ġ":8607,"Ġshi2Ġjian1":8608,"gao1Ġzhong1Ġ":8609,"Ġci3Ġhou4Ġ":8610,"Ġzai4Ġzhong1Ġ":8611,"Ġche1Ġ":8612,"wang2Ġguo2Ġ":8613,"bi4Ġxu1Ġ":8614,"bi3Ġjiao4Ġ":8615,"Ġbiao3Ġshi4Ġ":8616,"er4Ġshi4Ġ":8617,"diao1Ġ":8618,"wai4Ġjiao1":8619,"gui1Ġhua4Ġ":8620,"Ġyu3":8621,"Ġyi4Ġzhi4Ġ":8622,"lei4Ġsi4Ġ":8623,"zhe4ĠgeĠ":8624,"shan1Ġdong1Ġ":8625,"Ġran2Ġhou4Ġ":8626,"Ġyi4Ġzhi2":8627,"Ġli4Ġshu3Ġyu2Ġ":8628,"yuan2Ġshi4Ġ":8629,"Ġsui1Ġran2Ġ":8630,"dui4Ġzai4Ġ":8631,"zhu4Ġming2Ġ":8632,"yun2Ġnan2Ġ":8633,"Ġshang1Ġ":8634,"hen3Ġduo1Ġ":8635,"Ġer3ĠdeĠ":8636,"huo4Ġde2":8637,"sheng1Ġchan3Ġ":8638,"Ġ9":8639,"ĠD":8640,"ĠĠĠgong1Ġ":8641,"zhan4Ġyi4Ġ":8642,"Ġbei3":8643,"Ġtu2Ġ":8644,"zhong4ĠdeĠ":8645,"dian4ĠziĠ":8646,"ĠĠĠda4Ġ":8647,"Ġjian4Ġzhi4Ġ":8648,"xin1Ġjia1Ġ":8649,"lai2Ġzi4":8650,"zhi4Ġzuo4Ġ":8651,"shan1Ġxi1Ġ":8652,"ren2Ġkou3Ġshu4Ġliang4Ġwei4Ġren2Ġ":8653,"Ġgu3":8654,"ju4Ġji2Ġ":8655,"tao4Ġ":8656,"ĠdeĠyi1Ġzhong3Ġ":8657,"ĠE":8658,"ĠdeĠming2Ġ":8659,"Ġwan4Ġren2Ġ":8660,"ji2Ġhe2Ġ":8661,"Ġxi1Ġya4":8662,"lv3Ġyou2Ġ":8663,"Ġzhi4Ġzao4Ġ":8664,"Ġxing2Ġwei2Ġ":8665,"ma3Ġlai2":8666,"bao4Ġfa1Ġ":8667,"0Ġ":8668,"nv3Ġer2Ġ":8669,"Ġren4":8670,"ĠINSEE":8671,"zong3Ġli3Ġ":8672,"quan2Ġqiu2Ġ":8673,"Ġzu3":8674,"si1Ġhe2Ġ":8675,"Ġdui4Ġyu2Ġ":8676,"ĠdeĠzhu3Ġ":8677,"sai4Ġzhong1Ġ":8678,"Ġshang4Ġhai3Ġ":8679,"fa1Ġshe4Ġ":8680,"rui4Ġshi4Ġ":8681,"bao1Ġhan2":8682,"nong2Ġye4Ġ":8683,"cha4Ġ":8684,"ye4Ġwu4Ġ":8685,"lu4Ġjun1Ġ":8686,"tou2Ġzi1Ġ":8687,"wu4Ġzhi4Ġ":8688,"jue2ĠdeĠ":8689,"nai4Ġ":8690,"Ġfen1Ġzhong1Ġ":8691,"Ġjin4Ġshi4Ġ":8692,"ĠdeĠshi2Ġhou4Ġ":8693,"Ġte4Ġbie2":8694,"te4Ġbie2Ġ":8695,"ao4Ġlin2Ġpi3Ġke4Ġyun4Ġdong4Ġhui4Ġ":8696,"ge2ĠdeĠ":8697,"Ġzhi4Ġjin1Ġ":8698,"fang1Ġan4Ġ":8699,"si1Ġren2Ġ":8700,"hua4Ġxue2Ġ":8701,"min3Ġ":8702,"Ġda4Ġliang4Ġ":8703,"ji2Ġshi4Ġ":8704,"Ġni2Ġ":8705,"qian3Ġ":8706,"ke3Ġneng2Ġshi4Ġ":8707,"Ġnian2Ġdu4Ġ":8708,"jin4ĠdeĠ":8709,"Ġzhi1Ġwai4Ġ":8710,"si4Ġshi2Ġ":8711,"cao2Ġ":8712,"Ġgeng4Ġ":8713,"lian2Ġjie1Ġ":8714,"Ġzheng4Ġshi4Ġ":8715,"Ġ00":8716,"xuan3Ġwei4Ġ":8717,"Ġshe4Ġshi1Ġ":8718,"chu4ĠdeĠ":8719,"tu3Ġer3":8720,"Ġli4Ġsi1Ġ":8721,"bo2Ġte4Ġ":8722,"Ġzong3Ġmian4Ġji1Ġ":8723,"fa1Ġdong4Ġ":8724,"luo2Ġma3":8725,"chuang4Ġli4Ġ":8726,"ĠdeĠli4Ġ":8727,"Ġnian2Ġhou4Ġ":8728,"Ġde2Ġli3Ġ":8729,"guang3Ġchang3Ġ":8730,"lian2Ġhe2Ġguo2Ġ":8731,"ji2Ġshi2Ġ":8732,"geng1Ġming2Ġwei4Ġ":8733,"zao3Ġnian2Ġ":8734,"xiao4Ġli4Ġ":8735,"qi4ĠdeĠ":8736,"Ġzhen1Ġ":8737,"biao3Ġyan3Ġ":8738,"yi2Ġshi4Ġ":8739,"Ġjun1Ġzai4Ġ":8740,"reng2Ġran2Ġ":8741,"fang1Ġmian4":8742,"jue2Ġding4":8743,"Ġgai1Ġsheng3Ġ":8744,"da1Ġ":8745,"Ġxian1Ġ":8746,"Ġxiang4":8747,"Ġhan2Ġ":8748,"zhi4Ġshi4Ġ":8749,"Ġgong1Ġneng2Ġ":8750,"zong3Ġtong3":8751,"Ġren2Ġkou3Ġmi4Ġdu4Ġmei3Ġping2Ġfang1Ġgong1Ġli3Ġ":8752,"Ġ6":8753,"Ġren2Ġkou3Ġmi4Ġdu4Ġwei4Ġmei3":8754,"Ġxia4Ġling4Ġshi2Ġ":8755,"you2Ġzheng4Ġbian1Ġma3Ġwei4Ġ":8756,"ĠĠĠbei4Ġ":8757,"cha2ĠdeĠshu4Ġju4Ġ":8758,"Ġju4Ġle4Ġbu4Ġ":8759,"Ġshi4Ġzhen4Ġbian1Ġma3Ġwei4Ġ":8760,"ĠINSEEĠshi4Ġzhen4Ġbian1Ġma3Ġwei4Ġ":8761,"biao1Ġzhun3":8762,"Ġshe4ĠdeĠ":8763,"xuan3Ġqu1Ġwei4Ġ":8764,"Ġxiao1Ġ":8765,"Ġzai4Ġci3Ġ":8766,"Ġbu4Ġguo4":8767,"pai2Ġming2Ġ":8768,"Ġguo2Ġwang2Ġ":8769,"dong4Ġli4Ġ":8770,"shi2ĠdeĠren2Ġkou3Ġshu4Ġliang4Ġwei4Ġren2Ġ":8771,"2023Ġnian2Ġ":8772,"jie1Ġrang3ĠdeĠshi4Ġzhen4Ġ":8773,"Ġqing1":8774,"mei3Ġguo2Ġren2Ġkou3Ġpu3Ġcha2ĠdeĠshu4Ġju4Ġ":8775,"jia1Ġli4Ġ":8776,"cong2Ġshi4Ġ":8777,"Ġer2Ġren2Ġkou3Ġmi4Ġdu4Ġwei4Ġmei3":8778,"ge2Ġlan2":8779,"Ġdang1Ġdi4Ġgong4Ġyou3Ġren2Ġkou3Ġ":8780,"fen1Ġlei4Ġ":8781,"jie3Ġjue2Ġ":8782,"zu2ĠdeĠ":8783,"da4Ġbu4Ġfen4":8784,"yi1Ġzhong3Ġ":8785,"Ġjiang3Ġ":8786,"ling3Ġyu4Ġ":8787,"Ġhuo4Ġjiu4Ġshi4Ġzhen4Ġ":8788,"shi3Ġyong4ĠdeĠ":8789,"ĠĠĠli4Ġ":8790,"he2Ġshi4Ġ":8791,"Ġchu1Ġban3Ġ":8792,"gou1Ġ":8793,"yun4Ġying2Ġ":8794,"sheng3Ġji2Ġxuan3Ġqu1Ġwei4Ġ":8795,"ji1Ġji2Ġ":8796,"ĠdeĠyi1Ġbu4Ġfen4Ġ":8797,"Ġkai1Ġshi3Ġ":8798,"shi2Ġshi4Ġ":8799,"er2ĠziĠ":8800,"jiu3Ġnian2Ġ":8801,"zuo4Ġpin3":8802,"xuan3Ġren2Ġ":8803,"gai4Ġnian4Ġ":8804,"xing1ĠdeĠ":8805,"Ġer3Ġde2Ġ":8806,"sheng3Ġhe2Ġ":8807,"Ġjin3Ġguan3Ġ":8808,"jie1Ġshou4":8809,"tiao2Ġyue1Ġ":8810,"fen4Ġwei4Ġfa3Ġguo2Ġ":8811,"Ġgai1Ġsheng3Ġfen4Ġwei4Ġfa3Ġguo2Ġ":8812,"Ġchu1Ġban3":8813,"Ġzhi1Ġxian4Ġ":8814,"tie3Ġdao4Ġ":8815,"Ġdi4Ġsan1":8816,"lian2Ġbang1":8817,"Ġsong4Ġ":8818,"Ġnian2Ġchu1Ġ":8819,"Ġer2Ġqie3Ġ":8820,"Ġjun1Ġdui4Ġ":8821,"guang3Ġzhou1Ġ":8822,"Ġbu4Ġjiu3Ġ":8823,"Ġdui4":8824,"ao4Ġda4Ġli4Ġ":8825,"Ġwei4Ġshi2Ġ":8826,"Ġxi1Ġla4":8827,"fu2Ġjian4Ġ":8828,"andĠĠĠ":8829,"Ġhe2Ġbing4":8830,"Ġ4":8831,"ĠP":8832,"zhan4Ġzheng1":8833,"Ġyou3Ġren2Ġ":8834,"pai2Ġming2":8835,"zhan4Ġshi4Ġ":8836,"zui4Ġhou4Ġyi1Ġ":8837,"te4Ġbie2":8838,"qun2Ġdao3Ġ":8839,"jin3Ġbiao1Ġsai4Ġ":8840,"lai2Ġyuan2Ġ":8841,"Ġta1Ġbei4Ġ":8842,"jing3Ġcha2Ġ":8843,"xing1Ġjian4Ġ":8844,"Ġchu1Ġsheng1Ġyu2Ġ":8845,"Ġruo4Ġ":8846,"ba1Ġnian2Ġ":8847,"she4Ġli4Ġ":8848,"Ġgeng4":8849,"reng2Ġran2":8850,"Ġyi4Ġwei4Ġ":8851,"di4Ġyi1Ġ":8852,"Ġri4ĠdeĠ":8853,"ĠT":8854,"ben3ĠdeĠ":8855,"wei3Ġhui4Ġ":8856,"Ġyou2Ġxi4":8857,"lun2Ġdun1":8858,"Ġren2Ġgong1Ġ":8859,"xue2Ġxiao4":8860,"shan3Ġxi1Ġ":8861,"ĠK":8862,"Ġzhi4Ġyu2Ġ":8863,"lie4Ġwei4Ġ":8864,"Ġbu4Ġming2Ġ":8865,"Ġfan4Ġ":8866,"tong1Ġchang2":8867,"Ġjiao1Ġ":8868,"mu3Ġsi1Ġ":8869,"Ġming2Ġchao2Ġ":8870,"Ġshi3Ġyong4Ġ":8871,"yun4Ġxing2Ġ":8872,"ceng2Ġzai4Ġ":8873,"mei3Ġzhou1Ġ":8874,"cai3Ġyong4":8875,"Ġdi4Ġsi4Ġ":8876,"yan2Ġjiu1Ġsuo3Ġ":8877,"guang3Ġfan4Ġ":8878,"ao4Ġsi1Ġ":8879,"Ġxian4Ġlu4Ġ":8880,"gan3Ġran3Ġ":8881,"rou4Ġ":8882,"meng2Ġgu3Ġ":8883,"Ġshi4Ġbu4Ġ":8884,"yi3Ġji2Ġ":8885,"Ġhe2Ġping2Ġ":8886,"ĠĠĠta1":8887,"hua4Ġshi2Ġ":8888,"zhan4Ġhou4Ġ":8889,"jia1Ġru4Ġ":8890,"tian1Ġwen2Ġ":8891,"nan2Ġji2Ġ":8892,"shuo1Ġfa3Ġ":8893,"Ġfei4Ġ":8894,"Ġrang4":8895,"xi1Ġzai4Ġ":8896,"UĠ":8897,"Ġjin4ĠdeĠ":8898,"Ġren4Ġwei2":8899,"Ġcan1Ġ":8900,"Ġdi2Ġ":8901,"Ġji1Ġben3Ġ":8902,"Ġju4Ġli2Ġ":8903,"mo2Ġxing2Ġ":8904,"Ġchen2":8905,"guo4Ġcheng2Ġzhong1Ġ":8906,"ĠdeĠdi4Ġfang1Ġ":8907,"Ġda2Ġ":8908,"ĠdeĠxin1Ġ":8909,"ji4Ġshu4Ġ":8910,"Ġchang3Ġ":8911,"Ġjian4Ġyi4Ġ":8912,"Ġshou4":8913,"Ġta1Ġyu3Ġ":8914,"yun4Ġshu1Ġ":8915,"gou4Ġmai3":8916,"wan2Ġquan2":8917,"Ġ5":8918,"wu3Ġshi2Ġ":8919,"Ġke4ĠdeĠ":8920,"ren4Ġwei2Ġshi4Ġ":8921,"Ġzai4Ġyi4Ġ":8922,"Ġge4Ġdi4Ġ":8923,"duo1Ġge4Ġ":8924,"ban4Ġgong1Ġshi4Ġ":8925,"zhao3Ġ":8926,"Ġ10Ġyue4Ġ":8927,"tong2Ġyi1Ġ":8928,"wai4Ġguo2Ġ":8929,"Ġzong3Ġren2Ġkou3Ġ":8930,"xue2Ġshi4Ġ":8931,"shang4Ġyou3Ġ":8932,"yuan2Ġwei4Ġ":8933,"gong1Ġzuo4Ġ":8934,"Ġzi4Ġji3Ġ":8935,"ni2Ġsi1Ġ":8936,"Ġzai4Ġzhong1Ġguo2Ġ":8937,"Ġxing1Ġ":8938,"quan1Ġ":8939,"Ġai1":8940,"xue2Ġxi2Ġ":8941,"yang3Ġhua4Ġ":8942,"fei1Ġxing2Ġ":8943,"Ġjie4":8944,"Ġyi1Ġxie1":8945,"xuan1Ġchuan2Ġ":8946,"mo4Ġxi1Ġ":8947,"Ġ7":8948,"xuan3Ġze2":8949,"cheng1Ġwei4Ġ":8950,"xiao1Ġxi1Ġ":8951,"Ġxian4Ġren2Ġ":8952,"Ġke1":8953,"ĠdeĠguan1Ġ":8954,"hai3Ġjun1":8955,"biao1Ġzhi4Ġ":8956,"Ġbu4Ġmen2Ġ":8957,"Ġhu4Ġ":8958,"zhi4Ġwei4Ġ":8959,"qi3Ġlai2Ġ":8960,"you2Ġxi4":8961,"huan2Ġjing4":8962,"ma2Ġ":8963,"fu4Ġze2Ġguan3Ġxia2Ġ":8964,"Ġwei2Ġzhu3Ġ":8965,"Ġda3Ġ":8966,"ĠĠĠyi3Ġ":8967,"gou4Ġcheng2Ġ":8968,"Ġan4Ġ":8969,"shi1ĠdeĠ":8970,"che1Ġliang4Ġ":8971,"zhe2Ġxue2Ġ":8972,"keng1Ġ":8973,"Ġji4Ġhua4":8974,"xi4Ġbao1Ġ":8975,"Ġlin2":8976,"si1Ġzai4Ġ":8977,"zheng4ĠdeĠ":8978,"ang2Ġ":8979,"dang3ĠdeĠ":8980,"an1Ġquan2":8981,"bi3Ġde2Ġ":8982,"Ġdao4Ġlu4Ġ":8983,"jie4Ġquan2Ġguo2Ġ":8984,"chao2Ġxian1Ġ":8985,"Ġhua1Ġ":8986,"yin2Ġhang2":8987,"Ġdou1Ġ":8988,"jia4Ġzhi2Ġ":8989,"Ġer4":8990,"xi1ĠdeĠ":8991,"ĠG":8992,"Ġshi4Ġmei3Ġguo2Ġ":8993,"Ġshi4Ġtu2Ġ":8994,"zhong1Ġzai4Ġ":8995,"Ġji4Ġnian4Ġ":8996,"zhu3Ġjue2Ġ":8997,"RĠ":8998,"an4ĠdeĠ":8999,"si4Ġchuan1Ġ":9000,"bu4Ġwei4Ġ":9001,"peng2Ġyou3Ġ":9002,"ĠĠĠhe2Ġ":9003,"1999Ġnian2Ġ":9004,"Ġji2Ġqi2Ġ":9005,"Ġfan3Ġ":9006,"chi2Ġxu4":9007,"ai4Ġer3Ġ":9008,"ĠĠĠyou3Ġ":9009,"Ġgong1Ġgong4Ġ":9010,"Ġzhi1Ġchi2":9011,"kang4Ġyi4Ġ":9012,"Ġtai2Ġwan1":9013,"yue1Ġwei4Ġ":9014,"tai4Ġguo2Ġ":9015,"Ġer2Ġqie3":9016,"jie1Ġwei4Ġ":9017,"xuan3Ġqu1Ġ":9018,"ĠM":9019,"shi2Ġzai4Ġ":9020,"yi4Ġhe2Ġ":9021,"hui4Ġyou3Ġ":9022,"sheng1Ġwu4Ġ":9023,"xiao4Ġzhang3Ġ":9024,"wen2Ġjian4Ġ":9025,"Ġbei4Ġer3Ġ":9026,"Ġjie2Ġzhi4Ġ":9027,"shou1Ġru4Ġ":9028,"ge1Ġqu3":9029,"biao1Ġwei4Ġ":9030,"fo2Ġjiao4Ġ":9031,"rong2Ġyi4Ġ":9032,"ao4Ġyun4":9033,"ĠĠĠshi2Ġ":9034,"Ġqiang2Ġ":9035,"ĠĠĠche1Ġzhan4Ġ":9036,"Ġsheng1Ġwu4Ġ":9037,"suo3Ġshu3ĠdeĠsheng3Ġji2Ġxuan3Ġqu1Ġwei4Ġ":9038,"yan3ĠdeĠ":9039,"bian1Ġji2Ġ":9040,"qian4Ġ":9041,"Ġzhan4Ġzheng1":9042,"si1Ġdi4Ġ":9043,"ye3Ġyou3Ġ":9044,"zheng4Ġce4Ġ":9045,"qian2Ġwang3":9046,"ji4Ġzhong1Ġ":9047,"mi3Ġer3Ġ":9048,"yu3Ġyan2Ġ":9049,"Ġruo4":9050,"mĠ":9051,"jun1Ġdui4Ġ":9052,"jie3Ġfang4Ġjun1Ġ":9053,"ao4Ġyun4Ġ":9054,"Ġyou4Ġcheng1Ġ":9055,"tiao3Ġzhan4Ġ":9056,"Ġyuan2Ġzhu4Ġ":9057,"Ġchu1ĠleĠ":9058,"Ġzhi4Ġdu4Ġ":9059,"Ġyu4":9060,"Ġyan3Ġ":9061,"Ġti2Ġ":9062,"gao1Ġyu2Ġ":9063,"Ġshi4Ġyi2Ġge4":9064,"Ġtong1Ġguo4Ġ":9065,"wu2Ġren2Ġ":9066,"Ġhuo4Ġshi4Ġ":9067,"gan3Ġdao4Ġ":9068,"nan2Ġxing4Ġ":9069,"Ġyi3Ġshang4Ġ":9070,"man4Ġhua4Ġ":9071,"Ġque4":9072,"gai3Ġbian4Ġ":9073,"ĠĠĠ2021":9074,"Ġdi4Ġxia4Ġ":9075,"ma3Ġli4Ġ":9076,"fo2Ġ":9077,"Ġzi4":9078,"jie1Ġrang3Ġ":9079,"pei4Ġhe2Ġ":9080,"kun1Ġ":9081,"tou2Ġru4Ġ":9082,"jia1Ġren2Ġ":9083,"ĠF":9084,"wen3Ġding4Ġ":9085,"1998Ġnian2Ġ":9086,"zhi3Ġhui1":9087,"Ġzhong1Ġyou3Ġ":9088,"Ġzai4Ġbu4Ġ":9089,"ru3Ġ":9090,"ti2Ġming2Ġ":9091,"da2Ġcheng2Ġ":9092,"Ġyi1Ġzhong3Ġ":9093,"mo4Ġsi1Ġ":9094,"ne4Ġ":9095,"Ġzhuan1Ġ":9096,"zai4Ġshi4Ġ":9097,"tong2ĠdeĠ":9098,"jian3Ġjie4Ġ":9099,"ĠI":9100,"Ġzhong1Ġguo2Ġren2Ġmin2Ġ":9101,"Ġhai2Ġyou3Ġ":9102,"biao3Ġming2Ġ":9103,"duo2ĠdeĠ":9104,"zha1Ġ":9105,"ting2Ġzhi3Ġ":9106,"Ġping2":9107,"shen1Ġfen4":9108,"ĠĠĠandĠĠĠ":9109,"Ġer2Ġren2Ġkou3Ġmi4Ġdu4Ġwei4Ġmei3Ġping2Ġfang1Ġqian1Ġmi3Ġ":9110,"Ġli2Ġ":9111,"xiao3ĠdeĠ":9112,"zheng4Ġshi2Ġ":9113,"ce4ĠdeĠ":9114,"zao4ĠdeĠ":9115,"Ġwei4Ġfu2":9116,"juan1Ġ":9117,"fen1Ġzhi1Ġ":9118,"que4Ġzhen3":9119,"ĠĠĠ2020":9120,"Ġbo1":9121,"Ġhao2Ġmi3Ġ":9122,"2024Ġnian2Ġ":9123,"ĠĠĠin":9124,"Ġji1Ġbai4Ġ":9125,"tian1Ġzhu3Ġjiao4Ġ":9126,"Ġpi2Ġ":9127,"ĠĠĠyuan2Ġ":9128,"ban4Ġdao3Ġ":9129,"Ġbian1Ġ":9130,"guo2Ġzai4Ġ":9131,"wu3Ġqi4Ġ":9132,"ta1ĠmenĠ":9133,"Ġjia1Ġna2Ġda4Ġ":9134,"Ġping2Ġfang1Ġmi3Ġ":9135,"zi4Ġzhi4Ġqu1Ġ":9136,"Ġmen2Ġ":9137,"Ġ8Ġyue4Ġ":9138,"la1Ġke4Ġ":9139,"lei4ĠdeĠ":9140,"ĠĠĠzi4Ġ":9141,"hun4Ġhe2Ġ":9142,"Ġzi4Ġyou2Ġ":9143,"Ġzai4Ġmei3Ġguo2Ġ":9144,"Ġshi2Ġyan4":9145,"zui4Ġzao3":9146,"ju3Ġren2Ġ":9147,"tuan2Ġdui4Ġ":9148,"di4Ġshi4Ġ":9149,"ke3Ġneng2Ġhui4Ġ":9150,"ya1Ġli4Ġ":9151,"quan2Ġbu4Ġ":9152,"Ġsu1":9153,"ji4Ġwei4Ġ":9154,"Ġer2Ġbei4Ġ":9155,"Ġji4Ġcheng2Ġ":9156,"gong4Ġxian4Ġ":9157,"xi1Ġban1Ġya2Ġ":9158,"ji4Ġhua4Ġ":9159,"aĠĠĠ":9160,"Ġbei4":9161,"Ġshi2Ġshi1Ġ":9162,"jie2Ġmu4":9163,"Ġjie2Ġguo3Ġ":9164,"sheng1Ġchan3":9165,"lai2Ġshuo1Ġ":9166,"li4Ġbu4Ġ":9167,"zhe4Ġzhong3Ġ":9168,"chan3Ġye4Ġ":9169,"Ġwang2":9170,"Ġhai2":9171,"Ġchuan2Ġ":9172,"xing2Ġdong4Ġ":9173,"Ġqi1Ġjian1Ġ":9174,"fan1Ġyi4Ġ":9175,"Ġdi4Ġtie3Ġ":9176,"Ġchu1Ġren4Ġ":9177,"shao3Ġshu4Ġ":9178,"cao1Ġzuo4Ġ":9179,"jian3Ġcha2Ġ":9180,"ban4Ġshi4Ġ":9181,"jia1Ġna2Ġda4Ġ":9182,"ying3Ġpian4Ġ":9183,"chong1Ġtu1Ġ":9184,"Ġzai4Ġda4Ġ":9185,"Ġta1Ġyu2Ġ":9186,"bao3Ġhu4":9187,"an4Ġjian4Ġ":9188,"ji4Ġnian4Ġ":9189,"chong2Ġjian4Ġ":9190,"Ġmu4":9191,"shou3ĠdeĠ":9192,"Ġjian4Ġzhu4":9193,"Ġshi2Ġfen1Ġ":9194,"Ġan1":9195,"Ġshi4Ġyi3Ġ":9196,"xing2Ġwei2Ġ":9197,"xin1Ġli3Ġ":9198,"ceng2Ġjing1Ġ":9199,"Ġshi3ĠdeĠ":9200,"gong4Ġtong2":9201,"dong4ĠdeĠ":9202,"kong1Ġjun1Ġ":9203,"Ġzhi3Ġyou3Ġ":9204,"ban4Ġgong1Ġ":9205,"zhe4Ġge":9206,"Ġxian4Ġwei4Ġ":9207,"da4Ġbu4Ġfen4Ġ":9208,"Ġzhi4Ġzuo4":9209,"qi1Ġjian1":9210,"jie2Ġgou4":9211,"nan4Ġ":9212,"Ġyi4Ġyou3Ġ":9213,"Ġli4Ġru2":9214,"lian2Ġxu4Ġ":9215,"jue2Ġse4":9216,"ji2Ġzai4Ġ":9217,"shen1ĠdeĠ":9218,"yang1Ġ":9219,"Ġhe2Ġbei3Ġ":9220,"Ġwei4Ġneng2Ġ":9221,"ampĠ":9222,"zhu3Ġti2Ġ":9223,"xiang1Ġdui4Ġ":9224,"fen1Ġbie2Ġ":9225,"ĠĠĠS":9226,"Ġhe2Ġliu2Ġ":9227,"gong1Ġyuan2Ġ":9228,"mei2Ġti3":9229,"lian2Ġsai4":9230,"jian3Ġshao3Ġ":9231,"aĠ":9232,"tou4Ġ":9233,"tong4Ġ":9234,"Ġyou4Ġming2Ġ":9235,"Ġyi3Ġse4Ġ":9236,"fen4Ġzi3Ġ":9237,"xian4Ġdai4Ġ":9238,"Ġshi4Ġyi1Ġming2Ġ":9239,"xiao3Ġzu3Ġ":9240,"Ġti3Ġzhang3Ġ":9241,"ĠĠĠ2019":9242,"Ġxi1Ġwang4Ġ":9243,"CĠ":9244,"Ġzhen4Ġ":9245,"ying4ĠdeĠ":9246,"wei3Ġyuan2Ġhui4":9247,"ming4Ġming2Ġwei4Ġ":9248,"Ġgui1Ġ":9249,"ou1Ġyuan2Ġ":9250,"Ġgong1Ġsi1ĠdeĠ":9251,"Ġliang3Ġren2Ġ":9252,"yi4Ġzai4Ġ":9253,"dong4Ġji1Ġ":9254,"da3Ġji1Ġ":9255,"ĠdeĠdi4Ġqu1Ġ":9256,"zhan3Ġshi4Ġ":9257,"Ġ19":9258,"Ġzhi2Ġzhi4Ġ":9259,"Ġshe4Ġqu1Ġ":9260,"Ġling2Ġ":9261,"Ġji4Ġxu4":9262,"shou3Ġwei4Ġ":9263,"xun2Ġhui2Ġ":9264,"Ġsi1Ġling4":9265,"shu4Ġliang4Ġ":9266,"xia4Ġwu3Ġ":9267,"1996Ġnian2Ġ":9268,"Ġlie4Ġ":9269,"lu4Ġdi4Ġmian4Ġji1Ġwei4Ġ":9270,"ĠN":9271,"24Ġ":9272,"yong4Ġlai2Ġ":9273,"shui3Ġyu4Ġmian4Ġji1Ġwei4Ġ":9274,"Ġli4Ġji2Ġ":9275,"qi3Ġyong4Ġ":9276,"lei4Ġxing2Ġ":9277,"ren4Ġwu4Ġ":9278,"Ġguo2Ġli4Ġ":9279,"Ġshi2Ġzi4Ġ":9280,"Ġyi1Ġci4Ġ":9281,"duo1Ġci4Ġ":9282,"Ġwang3Ġ":9283,"ping2Ġjia4Ġ":9284,"bu4Ġshi4Ġ":9285,"Ġbian4":9286,"Ġ2009Ġnian2Ġ":9287,"ĠĠĠ2018":9288,"ĠdeĠshou3Ġ":9289,"Ġfu4Ġjin4Ġ":9290,"ju3Ġxing2ĠdeĠ":9291,"fu2Ġhe2Ġ":9292,"tĠ":9293,"zhuo2Ġ":9294,"ti3Ġxi4Ġ":9295,"wai4Ġjiao1Ġ":9296,"Ġzhe4Ġjiang1Ġ":9297,"Ġxiao4Ġ":9298,"1997Ġnian2Ġ":9299,"Ġda4Ġshi3Ġ":9300,"zuo4Ġjia1Ġ":9301,"Ġshe4Ġbei4Ġ":9302,"18Ġ":9303,"mei3Ġnian2Ġ":9304,"liang3Ġge4":9305,"Ġli4Ġfa3Ġ":9306,"zhu4Ġyi4Ġ":9307,"ĠampĠ":9308,"dian4Ġli4Ġ":9309,"de2Ġdao4Ġ":9310,"Ġsi1Ġling4Ġ":9311,"Ġcong2Ġer2Ġ":9312,"fa3Ġlv4":9313,"lun2Ġdun1Ġ":9314,"Ġguang3Ġ":9315,"kui2Ġ":9316,"jiao4Ġtang2Ġ":9317,"Ġdang1Ġzhong1Ġlu4Ġdi4Ġmian4Ġji1Ġwei4Ġ":9318,"zhi4Ġhe2Ġ":9319,"Ġer2Ġshui3Ġyu4Ġmian4Ġji1Ġwei4Ġ":9320,"qu3Ġxiao1Ġ":9321,"sheng1Ġhuo2":9322,"fu2Ġwu4":9323,"zhi2ĠdeĠ":9324,"jie2Ġzhi4Ġ":9325,"ĠĠĠxi1Ġ":9326,"dian1Ġ":9327,"ĠĠĠ2022":9328,"xue2Ġzhe3Ġ":9329,"shui3Ġping2Ġ":9330,"hai3Ġyu4Ġ":9331,"nei4Ġrong2":9332,"Ġzhi1Ġshi2Ġ":9333,"zhu4Ġzuo4Ġ":9334,"Ġ9Ġyue4Ġ":9335,"ying1Ġge2Ġlan2Ġ":9336,"Ġda4Ġchen2Ġ":9337,"ĠTheĠĠĠ":9338,"Ġcheng2Ġli4Ġyu2Ġ":9339,"Ġzhong1ĠdeĠ":9340,"ĠĠĠgai4Ġ":9341,"lv3Ġke4Ġ":9342,"tuo4Ġ":9343,"zhi4Ġzai4Ġ":9344,"jie1Ġjin4Ġ":9345,"Ġxin1Ġwen2Ġ":9346,"chang2Ġqi1Ġ":9347,"Ġwei2Ġer3Ġ":9348,"ling4Ġwai4Ġ":9349,"Ġhui2Ġ":9350,"ĠĠĠxing2Ġzheng4Ġqu1Ġhua4Ġ":9351,"Ġ11":9352,"ren4Ġming4":9353,"Ġjia1Ġshang4Ġ":9354,"yuan4Ġzhang3Ġ":9355,"bi3Ġsai4Ġzhong1Ġ":9356,"Ġxuan1Ġbu4Ġ":9357,"dian3ĠdeĠ":9358,"ji3Ġyu3Ġ":9359,"xi1Ġyang2Ġ":9360,"Ġyi3Ġhou4Ġ":9361,"gui1Ġmo2":9362,"Ġjun1Ġwei4Ġ":9363,"min2ĠdeĠ":9364,"shuo4Ġshi4Ġ":9365,"Ġde2ĠdeĠ":9366,"wei1Ġlian2Ġ":9367,"wei3Ġshu1Ġji4Ġ":9368,"Ġyi4Ġren2Ġ":9369,"jia1Ġhe2Ġ":9370,"1992Ġnian2Ġ":9371,"tai4Ġyang2Ġ":9372,"ĠH":9373,"dao3Ġyu3Ġ":9374,"pi1Ġzhun3Ġ":9375,"dai4Ġyou3Ġ":9376,"heng1Ġli4Ġ":9377,"Ġshi4Ġyi1Ġwei4Ġ":9378,"Ġxue2Ġxiao4":9379,"Ġwei4Ġfu2Ġqi2Ġyu2Ġ":9380,"Ġ7Ġyue4Ġ":9381,"guo1Ġ":9382,"nĠ":9383,"can1Ġyu4":9384,"ci4Ġshi4Ġjie4Ġda4Ġzhan4Ġ":9385,"Ġshi4Ġqu1Ġ":9386,"fa1Ġchu1Ġ":9387,"gao1Ġsu4":9388,"ĠĠĠA":9389,"ĠĠĠyi4Ġ":9390,"xing4Ġzhi4Ġ":9391,"yan3Ġchang4Ġhui4Ġ":9392,"Ġyuan2Ġyin1Ġ":9393,"Ġtuo1Ġ":9394,"quan4Ġ":9395,"tao3Ġlun4Ġ":9396,"ĠformulaĠ":9397,"tui4Ġyi4Ġ":9398,"Ġmeng2Ġ":9399,"bi3Ġya4Ġ":9400,"feng1Ġbao4Ġ":9401,"Ġhuo3Ġ":9402,"ji1Ġzhi4Ġ":9403,"xin4Ġhao4Ġ":9404,"ya4ĠdeĠ":9405,"neng2Ġgou4":9406,"Ġci2Ġ":9407,"shou4Ġshang1Ġ":9408,"ĠĠĠ2017":9409,"Ġjian4Ġcheng2Ġ":9410,"wei4Ġzhi4Ġ":9411,"lian2Ġxi4Ġ":9412,"Ġru2Ġguo3":9413,"ru2Ġhe2Ġ":9414,"bi4Ġxu1":9415,"Ġti3Ġzhang3Ġke3Ġda2Ġ":9416,"Ġer3Ġte4Ġ":9417,"bao3Ġchi2Ġ":9418,"zhuan1Ġjia1Ġ":9419,"fu1Ġren2Ġ":9420,"jiang3Ġxiang4Ġ":9421,"cha1Ġyi4Ġ":9422,"Ġjing1Ġguo4Ġ":9423,"Ġji1Ġgou4":9424,"Ġgai3":9425,"Ġzai4Ġyu2Ġ":9426,"ĠdeĠyi1Ġzuo4Ġ":9427,"Ġtong1Ġchang2Ġ":9428,"wo1Ġ":9429,"shou4Ġyu3Ġ":9430,"miao3Ġ":9431,"Ġ2010Ġnian2Ġ":9432,"wang3Ġlu4Ġ":9433,"jing1Ġying2Ġ":9434,"Ġ12Ġyue4Ġ":9435,"Ġmin2Ġguo2Ġ":9436,"tan1Ġ":9437,"gong4Ġchan3Ġdang3":9438,"Ġke4Ġli3Ġ":9439,"Ġsheng1Ġchan3Ġ":9440,"Ġbu4Ġli3Ġ":9441,"kao4Ġ":9442,"Ġyi3Ġxia4":9443,"dian4Ġtai2Ġ":9444,"cun1Ġzhuang1Ġ":9445,"Ġ11Ġyue4Ġ":9446,"lai2Ġdao4Ġ":9447,"sui2Ġhou4Ġ":9448,"Ġzhi1Ġzhong1Ġ":9449,"Ġchang2":9450,"Ġzhu1":9451,"bi4Ġye4Ġyu2Ġ":9452,"xun4Ġlian4":9453,"Ġ21Ġ":9454,"cuo4Ġshi1Ġ":9455,"fa3ĠdeĠ":9456,"Ġyi4Ġshu4":9457,"zong3Ġdu1Ġ":9458,"zhu4Ġming2ĠdeĠ":9459,"Ġfang1Ġ":9460,"Ġshi4Ġyou3Ġ":9461,"Ġjian4Ġdui4Ġ":9462,"kuai4Ġsu4Ġ":9463,"zhu4Ġyu2Ġ":9464,"ĠB":9465,"dong1Ġxi1Ġ":9466,"Ġzhong3Ġ":9467,"1994Ġnian2Ġ":9468,"Ġshi2Ġren4Ġ":9469,"Ġyi1Ġsheng1Ġ":9470,"Ġrang4Ġ":9471,"gu1Ġji4Ġ":9472,"Ġer3Ġhe2Ġ":9473,"hai2ĠziĠ":9474,"tai4Ġping2Ġyang2Ġ":9475,"ĠĠĠ2016":9476,"Ġjie2Ġmu4Ġ":9477,"yan2Ġge2Ġ":9478,"tong2Ġyi4Ġ":9479,"sheng1Ġwei4Ġ":9480,"dao3Ġshi4Ġ":9481,"lang4Ġ":9482,"cheng2Ġgong1Ġ":9483,"leĠda4Ġ":9484,"shang3Ġ":9485,"fa1Ġdian4Ġ":9486,"Ġshang4Ġhai3":9487,"zhan4Ġzhong1Ġ":9488,"she2Ġ":9489,"ĠdeĠqian2Ġ":9490,"Ġren2Ġlei4Ġ":9491,"si4Ġge4Ġ":9492,"jie2Ġshu4Ġhou4Ġ":9493,"Ġxiang3":9494,"Ġde2Ġyi3Ġ":9495,"pu3Ġtong1Ġ":9496,"ĠdeĠshi2Ġqu1Ġwei4Ġ":9497,"Ġyin4Ġdu4Ġ":9498,"Ġming2Ġcheng1Ġ":9499,"Ġzheng4Ġce4Ġ":9500,"che4Ġxiao1Ġ":9501,"yu3Ġzhong1Ġ":9502,"ĠĠĠzhi4Ġ":9503,"Ġqi1":9504,"Ġyang2":9505,"Ġsheng4":9506,"Ġtw":9507,"tou2Ġpiao4Ġ":9508,"di3Ġda2Ġ":9509,"fa1ĠdeĠ":9510,"Ġjin3Ġguan3":9511,"xi4Ġlie4":9512,"ju2Ġzhang3Ġ":9513,"ĠdeĠshi2Ġjian1Ġ":9514,"Ġqian2":9515,"1995Ġnian2Ġ":9516,"zhe4Ġxie1":9517,"geng4Ġjia1Ġ":9518,"Ġwei4Ġsheng1Ġ":9519,"yue4Ġtai2Ġ":9520,"Ġping2Ġtai2Ġ":9521,"fan3Ġhui2Ġ":9522,"Ġcheng1":9523,"guang3Ġxi1Ġ":9524,"fei3Ġ":9525,"Ġchuang4Ġ":9526,"zhai2Ġ":9527,"hansĠ":9528,"kuo4Ġda4Ġ":9529,"ha1Ġer3Ġ":9530,"ĠhansĠ":9531,"yi4Ġzhong1Ġ":9532,"deng1Ġlu4Ġ":9533,"zu3Ġcheng2ĠdeĠ":9534,"rong2Ġyu4Ġ":9535,"ĠtwĠ":9536,"yue4Ġshi2Ġ":9537,"zhong4Ġda4Ġ":9538,"lu4Ġyi4Ġ":9539,"Ġsa4Ġ":9540,"Ġshi4Ġyan3Ġ":9541,"que4Ġding4Ġ":9542,"Ġxia4":9543,"zhi3Ġzai4Ġ":9544,"ye4Ġhou4Ġ":9545,"Ġbu4Ġke3Ġ":9546,"Ġbing4Ġmei2Ġyou3Ġ":9547,"Ġci3Ġshi2Ġ":9548,"ĠĠĠdeĠshi2Ġ":9549,"Ġlv4Ġ":9550,"Ġliang4Ġ":9551,"Ġa1Ġer3Ġ":9552,"jin4Ġxing2":9553,"ĠĠĠ2023":9554,"LĠ":9555,"Ġmu4Ġqian2":9556,"wan3Ġshang4Ġ":9557,"jiao4Ġqu1Ġ":9558,"qi4Ġche1Ġ":9559,"ya4Ġli4Ġshan1":9560,"ming2Ġcheng1Ġ":9561,"wu4Ġzhong3":9562,"guan1Ġzhong4Ġ":9563,"Ġxue2Ġxi2Ġ":9564,"gai3Ġbian1":9565,"Ġguo2Ġwu4Ġ":9566,"Ġzhi1Ġyuan2Ġ":9567,"yuan4ĠdeĠ":9568,"xiao1Ġshou4Ġ":9569,"Ġgong1Ġye4":9570,"ba1Ġxi1Ġ":9571,"Ġhuo4Ġzhe3Ġ":9572,"ĠĠĠ2014":9573,"XĠ":9574,"xiang1Ġtong2Ġ":9575,"ba1Ġli2Ġ":9576,"ban3ĠdeĠ":9577,"ru4Ġkou3Ġ":9578,"xue2Ġhe2Ġ":9579,"sun3Ġshi1Ġ":9580,"po4Ġhuai4Ġ":9581,"iĠ":9582,"Ġtian1":9583,"biao3Ġxian4":9584,"Ġshi2Ġxian4Ġ":9585,"xi1Ġla4":9586,"fa1Ġxian4ĠleĠ":9587,"kan4Ġdao4Ġ":9588,"pan1Ġ":9589,"qi1Ġzi3Ġ":9590,"guan1Ġzhu4Ġ":9591,"Ġceng2Ġren4Ġ":9592,"Ġbing4Ġyi3Ġ":9593,"xiong1Ġya2":9594,"qiang3Ġ":9595,"Ġ6Ġyue4Ġ":9596,"ĠĠĠji1Ġ":9597,"ĠĠĠsuo3Ġshu3ĠdeĠsheng3Ġji2Ġxuan3Ġqu1Ġwei4Ġ":9598,"ĠĠĠdeĠyou2Ġzheng4Ġbian1Ġma3Ġwei4Ġ":9599,"ĠĠĠyu3Ġjie1Ġrang3ĠdeĠshi4Ġzhen4Ġ":9600,"ĠĠĠyu2Ġshi2ĠdeĠren2Ġkou3Ġshu4Ġliang4Ġwei4Ġren2Ġ":9601,"ĠĠĠdeĠshi2Ġqu1Ġwei4Ġ":9602,"zhuang1Ġzhi4Ġ":9603,"nai3Ġ":9604,"Ġzhuan3Ġ":9605,"zhi2Ġwei4Ġ":9606,"Ġ2011":9607,"ji4Ġhe2Ġ":9608,"Ġzuo4Ġyong4Ġ":9609,"Ġquan2Ġzhang3Ġ":9610,"tu2Ġzhong1Ġ":9611,"su1Ġlian2":9612,"kai1Ġfang4":9613,"xu1Ġqiu2Ġ":9614,"Ġzhi1Ġming2Ġ":9615,"lin2ĠdeĠ":9616,"Ġsi1Ġla1Ġ":9617,"shi2Ġwei4Ġ":9618,"Ġnian2Ġqing1":9619,"heng2Ġxing1Ġ":9620,"Ġquan2Ġbu4Ġ":9621,"tui1Ġdong4Ġ":9622,"wei2ĠdeĠ":9623,"Ġshi4Ġzhang3Ġ":9624,"wei4ĠĠĠ":9625,"guan3Ġli3":9626,"Ġ2019":9627,"Ġgan1Ġ":9628,"can2Ġ":9629,"ru4Ġqin1Ġ":9630,"ru2Ġci3Ġ":9631,"ĠO":9632,"Ġhk":9633,"Ġjia1Ġting2Ġ":9634,"tai2Ġbei3Ġ":9635,"Ġjin3":9636,"yu3Ġhe2Ġ":9637,"Ġyi1Ġdai4Ġ":9638,"yi2Ġdong4Ġ":9639,"jin4Ġshi4Ġ":9640,"Ġchu1Ġxian4Ġzai4Ġ":9641,"zhe4Ġjiang1Ġ":9642,"ĠĠĠ2015":9643,"fu4ĠdeĠ":9644,"mu3Ġqin1Ġ":9645,"xiong1Ġya2Ġli4Ġ":9646,"mu4Ġsi1Ġ":9647,"1991Ġnian2Ġ":9648,"Ġren2Ġshu4Ġ":9649,"fu4Ġqin1Ġ":9650,"Ġdan4Ġta1Ġ":9651,"Ġxi1Ġban1Ġya2":9652,"min2Ġzu2":9653,"tai2ĠdeĠ":9654,"Ġdi4Ġqiu2Ġ":9655,"Ġshi4Ġzhi3Ġ":9656,"Ġche1Ġzhan4Ġ":9657,"ti2Ġsheng1Ġ":9658,"fei1Ġjian4Ġzhi4Ġ":9659,"Ġmian4Ġ":9660,"Ġduan4Ġ":9661,"ĠĠĠ2013":9662,"Ġ5Ġyue4Ġ":9663,"zui4Ġchu1Ġ":9664,"xun4Ġsu4Ġ":9665,"ĠhkĠ":9666,"shu4Ġxue2Ġ":9667,"guang3Ġbo1":9668,"Ġwei4Ġhe2Ġ":9669,"Ġbing4Ġli4Ġ":9670,"Ġcheng2Ġwei2ĠleĠ":9671,"Ġsi1Ġtan3Ġ":9672,"niu3Ġyue1Ġ":9673,"Ġjing1":9674,"fa1Ġxing2":9675,"Ġjin4Ġru4":9676,"te4Ġli3Ġ":9677,"kang4Ġri4Ġ":9678,"Ġhe2Ġxin1Ġ":9679,"Ġge4Ġzhong3Ġ":9680,"gao3Ġ":9681,"Ġji2Ġqi2":9682,"fa1Ġsheng1":9683,"zong3Ġbu4Ġ":9684,"shou1Ġlu4Ġ":9685,"Ġshi4Ġren2Ġ":9686,"jiao4ĠdeĠ":9687,"lan2Ġke4Ġ":9688,"cai2Ġzheng4Ġ":9689,"mang2Ġ":9690,"ĠĠĠnian2Ġ":9691,"Ġji4Ġzai3Ġ":9692,"chang4Ġpian4Ġ":9693,"Ġzuo4Ġpin3":9694,"sa4Ġke4Ġ":9695,"Ġzhong1Ġwen2Ġ":9696,"jue2Ġsai4":9697,"ming2Ġyi4Ġ":9698,"jin4Ġgong1Ġ":9699,"Ġshi4Ġji2Ġ":9700,"Ġzao4Ġcheng2Ġ":9701,"qi3Ġyi4Ġ":9702,"can1Ġyi4Ġ":9703,"zhuang4Ġkuang4Ġ":9704,"Ġtiao2Ġ":9705,"Ġxian4Ġyu2Ġ":9706,"lv4Ġwei4Ġ":9707,"leĠta1Ġ":9708,"ĠĠĠzhong1Ġguo2Ġ":9709,"can1Ġkao3Ġ":9710,"zeng1Ġzhang3Ġ":9711,"gao1Ġdu4Ġ":9712,"ba2Ġ":9713,"chan3Ġpin3":9714,"fei1Ġjian4Ġzhi4Ġdi4Ġqu1Ġ":9715,"Ġou1Ġ":9716,"Ġhuang2":9717,"Ġdao3Ġ":9718,"ĠĠĠK":9719,"dou1Ġhui4Ġ":9720,"Ġhe2Ġbing4Ġ":9721,"Ġfang2Ġ":9722,"Ġji4Ġsuan4":9723,"Ġsheng1Ġhuo2":9724,"Ġe2Ġluo2Ġsi1Ġ":9725,"wang2ĠdeĠ":9726,"diao4Ġcha2":9727,"zhong4Ġdian3Ġ":9728,"zhan4Ġdou4Ġ":9729,"Ġhou4":9730,"Ġda4Ġlou2Ġ":9731,"hai3Ġdao4Ġ":9732,"sui1Ġran2Ġ":9733,"chang4Ġpian4":9734,"chai1Ġ":9735,"Ġren2ĠmenĠ":9736,"wei1Ġxie2Ġ":9737,"ao4Ġdi4Ġli4Ġ":9738,"Ġhe2Ġzhong1Ġ":9739,"shang4Ġshu1Ġ":9740,"Ġwei2Ġqi2Ġ":9741,"kan3Ġ":9742,"ling3Ġdao3Ġren2Ġ":9743,"Ġxiang1Ġguan1Ġ":9744,"ĠĠĠto":9745,"jing1Ġshen2Ġ":9746,"jia1Ġzhong1Ġ":9747,"Ġyin1Ġer2Ġ":9748,"yue4Ġzai4Ġ":9749,"liang3Ġren2Ġ":9750,"Ġnian2Ġshi2Ġ":9751,"Ġbu4Ġduan4Ġ":9752,"can1Ġjia1ĠleĠ":9753,"ying2Ġyun4Ġ":9754,"hua4Ġwei4Ġ":9755,"jiang1Ġxi1Ġ":9756,"ĠdeĠcheng2Ġyuan2Ġ":9757,"jie2Ġke4Ġ":9758,"tu2Ġshu1Ġguan3Ġ":9759,"Ġhe2Ġcheng2Ġ":9760,"zhu3Ġchi2Ġ":9761,"Ġzhong1Ġguo2Ġgong4Ġchan3Ġdang3Ġ":9762,"Ġhua2":9763,"Ġyou3Ġshi2Ġ":9764,"ju4ĠdeĠ":9765,"na4Ġli3Ġ":9766,"Ġxiao3":9767,"Ġ4Ġyue4Ġ":9768,"zhan4Ġdou4":9769,"Ġying1":9770,"jin4Ġru4":9771,"mou3Ġxie1Ġ":9772,"shen1Ġwei4Ġ":9773,"ju1Ġzhu4Ġ":9774,"zi4Ġdong4Ġ":9775,"xia4Ġji4Ġao4Ġlin2Ġpi3Ġke4Ġyun4Ġdong4Ġhui4Ġ":9776,"yin1Ġshi4Ġ":9777,"min2Ġzhong4Ġ":9778,"1988Ġnian2Ġ":9779,"Ġxiang4Ġmu4Ġ":9780,"Ġzuo3Ġ":9781,"chan3Ġsheng1ĠdeĠ":9782,"Ġbian1":9783,"ĠĠĠzhĠ":9784,"Ġzai4Ġjia1Ġ":9785,"shuo1Ġming2Ġ":9786,"Ġzheng4Ġzhuang4Ġ":9787,"yin3Ġfa1Ġ":9788,"Ġwei3Ġ":9789,"jiang1Ġsu1Ġ":9790,"Ġxuan3Ġ":9791,"Ġhuo4Ġde2ĠleĠ":9792,"Ġzhuang1Ġ":9793,"Ġzhi1Ġxia4Ġ":9794,"dao1Ġ":9795,"Ġshi4Ġwei1Ġ":9796,"xiao3Ġshuo1":9797,"Ġxu3Ġduo1Ġ":9798,"ĠĠĠjia1Ġzu2Ġ":9799,"Ġxie2Ġ":9800,"Ġshi4Ġzhen4":9801,"Ġgong1Ġren2Ġ":9802,"ĠJ":9803,"ding4ĠleĠ":9804,"you1Ġshi4Ġ":9805,"Ġqiao2Ġ":9806,"lan2Ġqiu2Ġ":9807,"1993Ġnian2Ġ":9808,"Ġda4Ġduo1Ġ":9809,"zhou1ĠdeĠ":9810,"Ġpei4Ġ":9811,"ji4Ġshi2Ġ":9812,"Ġdu2Ġ":9813,"Ġsui4ĠdeĠ":9814,"xian3ĠdeĠ":9815,"zi1Ġxun4Ġ":9816,"ao4Ġyun4Ġhui4Ġ":9817,"Ġwen2":9818,"su4ĠdeĠ":9819,"Ġda4Ġxing2Ġ":9820,"Ġ2018":9821,"Ġyue4Ġnan2Ġ":9822,"Ġji2Ġli4Ġ":9823,"Ġzhong1Ġhua2Ġ":9824,"Ġlai2Ġzi4Ġ":9825,"qu3Ġde2":9826,"yuan2Ġzai4Ġ":9827,"Ġbu4Ġmen2":9828,"xiang1Ġdang1Ġ":9829,"Ġdan4Ġyou2Ġyu2Ġ":9830,"fang3Ġwen4Ġ":9831,"zhi2Ġdao4Ġ":9832,"sui1Ġran2":9833,"jiao4Ġwei2Ġ":9834,"xiang4Ġmu4":9835,"Ġshi4Ġwei4ĠleĠ":9836,"chuang1Ġ":9837,"jie2Ġhun1Ġ":9838,"Ġtian2Ġ":9839,"Ġli3Ġlun4Ġ":9840,"pin3Ġpai2Ġ":9841,"Ġshang4":9842,"xi2Ġwei4Ġ":9843,"Ġdi4Ġwu3Ġ":9844,"Ġyue4Ġtai2Ġ":9845,"zhong1Ġwei4Ġ":9846,"Ġshi1":9847,"Ġlao3Ġ":9848,"can1Ġjia1":9849,"zhen1Ġshi2Ġ":9850,"zhong1Ġhua2Ġren2Ġmin2Ġgong4Ġhe2Ġguo2Ġ":9851,"you3Ġbu4Ġ":9852,"yin4Ġdi4Ġ":9853,"mei3Ġshu4Ġ":9854,"ĠĠĠ2025":9855,"Ġzheng4":9856,"ming4Ġling4Ġ":9857,"xue2Ġshu4Ġ":9858,"xing1Ġqi1Ġ":9859,"ĠdeĠgong1Ġzuo4Ġ":9860,"22Ġ":9861,"2020Ġnian2Ġmei3Ġguo2Ġren2Ġkou3Ġpu3Ġcha2ĠdeĠshu4Ġju4Ġ":9862,"jian4Ġshe4Ġ":9863,"ju3Ġxing2":9864,"Ġzhuan3":9865,"fang2Ġyu4Ġ":9866,"Ġren4Ġwu4Ġ":9867,"wu3Ġzhuang1Ġ":9868,"Ġnian2Ġbei4Ġ":9869,"yi2Ġchan3Ġ":9870,"Ġding4Ġ":9871,"Ġshi2Ġyi1Ġ":9872,"Ġwan4Ġmei3Ġyuan2Ġ":9873,"ao4Ġmen2Ġ":9874,"yun3Ġxu3Ġ":9875,"Ġjiu3":9876,"Ġzhi4Ġshi2Ġ":9877,"Ġjia1Ġru4":9878,"Ġzhi1Ġhou4":9879,"ti2Ġgao1Ġ":9880,"Ġli2":9881,"zhou4Ġ":9882,"fei1Ġlv4Ġ":9883,"wa3Ġer3Ġ":9884,"bao4Ġdao3Ġ":9885,"yi3Ġlai2Ġ":9886,"leĠta1ĠdeĠ":9887,"hui4Ġyuan2Ġ":9888,"Ġshi2Ġqi1":9889,"ji4Ġlu4Ġ":9890,"Ġji1Ġguan1Ġ":9891,"du1Ġshi4Ġ":9892,"cui4Ġ":9893,"leĠyi2Ġge4Ġ":9894,"ĠCĠ":9895,"Ġcheng1Ġwei2Ġ":9896,"hua4Ġjia1Ġ":9897,"ji1Ġchang3Ġ":9898,"Ġfu4Ġze2":9899,"yi2Ġmin2Ġ":9900,"shu1ĠdeĠ":9901,"ju4Ġli2Ġ":9902,"shu4Ġzi4Ġ":9903,"ĠĠĠ2024":9904,"Ġshi4Ġyi1Ġzhong3":9905,"jin1ĠdeĠ":9906,"Ġren2Ġlei4":9907,"Ġhe2Ġshi2Ġ":9908,"hong1Ġzha4":9909,"Ġzi4Ġji3ĠdeĠ":9910,"jie1Ġji2Ġ":9911,"duan4ĠdeĠ":9912,"du1Ġjiao4Ġ":9913,"Ġhong2":9914,"li4Ġshi4Ġ":9915,"ke4Ġli3Ġ":9916,"yan2ĠdeĠ":9917,"ying2ĠdeĠ":9918,"hua1Ġyuan2Ġ":9919,"shan1Ġmai4":9920,"sheng1Ġji2Ġ":9921,"yue1Ġyou3Ġ":9922,"Ġshi4Ġda4Ġ":9923,"wen2Ġzi4Ġ":9924,"mian4Ġdui4Ġ":9925,"Ġwan4Ġyuan2Ġ":9926,"yao1Ġqing3Ġ":9927,"Ġguan1":9928,"Ġxiu1Ġ":9929,"Ġ2011Ġnian2Ġ":9930,"yong4Ġhu4Ġ":9931,"Ġliang2Ġ":9932,"dong1Ġji4Ġ":9933,"zi1Ġjin1Ġ":9934,"deng3Ġwei4Ġ":9935,"Ġxu2":9936,"Ġli4Ġshi3":9937,"wu3Ġtai2Ġ":9938,"su2Ġ":9939,"Ġshe4Ġji2Ġ":9940,"han2Ġshu4Ġ":9941,"Ġzhi4Ġli4Ġ":9942,"gao1Ġdeng3Ġ":9943,"Ġ2016":9944,"Ġsuo3Ġyi3":9945,"yuan2Ġji2Ġ":9946,"Ġren2Ġmin2":9947,"ĠĠĠG":9948,"Ġhe2Ġlan2Ġ":9949,"shen1Ġqing3Ġ":9950,"Ġ2005Ġnian2Ġ":9951,"dong4Ġzuo4Ġ":9952,"xiao4Ġguo3Ġ":9953,"Ġju4":9954,"Ġhan2Ġguo2Ġ":9955,"Ġ3Ġyue4Ġ":9956,"mei3Ġguo2ĠdeĠ":9957,"Ġ2008Ġnian2Ġ":9958,"ĠĠĠxin1Ġ":9959,"Ġming2Ġchao2Ġzheng4Ġzhi4Ġren2Ġwu4Ġ":9960,"Ġpei4":9961,"ĠĠĠzao3Ġnian2Ġ":9962,"jiao4Ġlian4Ġ":9963,"Ġxian4Ġhe2Ġ":9964,"Ġri4Ġjun1Ġ":9965,"xia4Ġling4":9966,"1990Ġnian2Ġ":9967,"Ġyuan2Ġming2Ġ":9968,"liang3Ġzhong3Ġ":9969,"ling3Ġtu3Ġ":9970,"ĠĠĠhou4Ġ":9971,"nu3Ġli4Ġ":9972,"zheng4Ġming2Ġ":9973,"Ġzhao1":9974,"lu4Ġjun1":9975,"Ġzhong1Ġyu2Ġ":9976,"zuo4Ġyong4Ġ":9977,"ĠĠĠyou2Ġ":9978,"qu1Ġyu4":9979,"jing1Ġchang2Ġ":9980,"lie4Ġbiao3Ġ":9981,"you3Ġzai4Ġ":9982,"Ġyi4Ġyi4Ġ":9983,"ying3Ġpian4":9984,"Ġzhou1Ġnian2Ġ":9985,"Ġjin4Ġxing2":9986,"Ġnan2Ġzhi4Ġ":9987,"Ġguo2Ġhui4Ġ":9988,"Ġgong1Ġhui4Ġ":9989,"Ġjue2":9990,"Ġbi3":9991,"guan1Ġxi4":9992,"Ġji4Ġzhe3Ġ":9993,"Ġyuan2Ġgong1Ġ":9994,"nei4Ġlu4Ġ":9995,"zhao3Ġdao4Ġ":9996,"wang2Ġchao2":9997,"Ġli3":9998,"Ġbo2":9999,"Ġhen3Ġ":10000,"jing1Ġli3Ġ":10001,"lv3Ġxing2Ġ":10002,"shen2Ġjing1Ġ":10003,"Ġchi4Ġ":10004,"Ġshi4Ġhou4Ġ":10005,"yong4Ġzuo4Ġ":10006,"li3Ġlun4Ġ":10007,"Ġzhu4":10008,"Ġgong1Ġchang3Ġ":10009,"fu4Ġjin4Ġ":10010,"hui2Ġying4Ġ":10011,"yu2Ġzai4Ġ":10012,"Ġge2":10013,"Ġban3Ġ":10014,"tai4Ġren2Ġ":10015,"Ġhe2Ġgong1Ġ":10016,"ke3Ġyi3Ġzai4Ġ":10017,"Ġban1Ġ":10018,"zhi1Ġjian1Ġ":10019,"Ġluo2":10020,"ti2Ġdao4Ġ":10021,"bao3Ġchi2":10022,"Ġcheng2Ġxian4Ġ":10023,"chu1Ġban3Ġ":10024,"Ġnian2Ġ1Ġyue4Ġ1Ġri4Ġ":10025,"Ġji1Ġche1Ġ":10026,"Ġshi2Ġer4Ġ":10027,"jiu3Ġdian4Ġ":10028,"ai1Ġji2Ġ":10029,"Ġfan3":10030,"qi4Ġxiang4Ġ":10031,"shou3Ġji1Ġ":10032,"Ġguo2Ġfang2":10033,"eĠ":10034,"kong1Ġzhong1Ġ":10035,"Ġnian2Ġshi4Ġjie4Ġ":10036,"Ġlei2Ġ":10037,"tong1Ġdao4Ġ":10038,"kong3Ġbu4Ġ":10039,"ti1Ġ":10040,"gui1Ġze2Ġ":10041,"qi2Ġzhong1Ġyi1Ġzhong3Ġ":10042,"Ġti2Ġgong1Ġ":10043,"zuo4Ġwei4Ġ":10044,"wo3Ġmen":10045,"bei4Ġshi4Ġwei4Ġ":10046,"ĠdeĠzhi4Ġ":10047,"Ġwo3ĠmenĠ":10048,"li4Ġwei4Ġ":10049,"shu1Ġji2Ġ":10050,"Ġer2Ġcheng2Ġ":10051,"shou3Ġdu1Ġ":10052,"1984Ġnian2Ġ":10053,"dong1Ġnan2Ġbu4Ġ":10054,"ĠĠĠP":10055,"yi3Ġxia4Ġ":10056,"yan3Ġyi4Ġ":10057,"15Ġ":10058,"Ġxi1Ġwang4":10059,"ji1Ġhe2Ġ":10060,"da4Ġlu4ĠdeĠ":10061,"qi3Ġye4":10062,"sui4Ġdao4Ġ":10063,"meng3Ġ":10064,"ĠdeĠjia1Ġ":10065,"Ġzuo4Ġwei2":10066,"dai4Ġli3Ġ":10067,"jin1Ġshu3Ġ":10068,"jin4Ġyi2Ġbu4Ġ":10069,"ge2Ġwei4Ġ":10070,"lao2Ġdong4Ġ":10071,"zhu3Ġchi2":10072,"jiao4Ġxue2Ġ":10073,"biao3Ġmian4Ġ":10074,"gu4Ġwen4Ġ":10075,"Ġying1Ġyu3Ġ":10076,"ni1Ġ":10077,"Ġxi4Ġlie4Ġ":10078,"ĠW":10079,"xin1Ġjia1Ġpo1":10080,"Ġyong1Ġyou3Ġ":10081,"Ġhe2Ġxi1Ġ":10082,"Ġbu4Ġbu4Ġ":10083,"Ġyou3Ġji1Ġ":10084,"cai2Ġliao4Ġ":10085,"chao2Ġxian1":10086,"Ġ2001Ġnian2Ġren2Ġkou3Ġ":10087,"dao4Ġlu4Ġ":10088,"hua2Ġren2Ġ":10089,"Ġtu3Ġ":10090,"ĠsĠĠĠ":10091,"Ġzai4Ġwei4Ġ":10092,"Ġbei3Ġqi3Ġ":10093,"jing4ĠdeĠ":10094,"si3Ġhou4Ġ":10095,"bo1Ġlan2":10096,"tong1Ġche1Ġ":10097,"si1Ġli4Ġ":10098,"1989Ġnian2Ġ":10099,"Ġzhong1Ġguo2Ġda4Ġlu4Ġ":10100,"bai2Ġse4Ġ":10101,"ya4Ġli4Ġshan1Ġda4Ġ":10102,"hui4Ġshi4Ġ":10103,"Ġyi3Ġbei4Ġ":10104,"bao3Ġliu2Ġ":10105,"Ġju4Ġyou3Ġ":10106,"Ġsai4Ġji4Ġ":10107,"nv3Ġzi3":10108,"ju1Ġmin2":10109,"Ġhai3":10110,"zhu3Ġli4Ġ":10111,"Ġping2Ġmian4Ġ":10112,"tiao2Ġzheng3Ġ":10113,"ni2Ġke4Ġ":10114,"Ġta1Ġwei4Ġ":10115,"TĠ":10116,"Ġ2021":10117,"zhu3ĠdeĠ":10118,"Ġzhi1Ġjian1":10119,"Ġqu3Ġ":10120,"Ġsi1Ġte4":10121,"Ġgang3Ġ":10122,"Ġcha2Ġ":10123,"Ġxian4ĠdeĠyi2Ġge4Ġ":10124,"ĠĠĠ2012":10125,"Ġdao4Ġda2Ġ":10126,"fa3Ġan4Ġ":10127,"yin3Ġqi3Ġ":10128,"Ġdong1Ġnan2Ġ":10129,"yin3Ġqi3":10130,"yun4Ġzuo4Ġ":10131,"zhao4Ġkai1Ġ":10132,"jiao1Ġhui4Ġ":10133,"shou3Ġge4Ġ":10134,"tui4Ġchu1Ġ":10135,"di4Ġer4Ġ":10136,"Ġer2Ġyan2Ġ":10137,"Ġxian4ĠdeĠyi2Ġge4":10138,"Ġbei4Ġren4Ġwei2Ġshi4Ġ":10139,"li4Ġzai4Ġ":10140,"Ġji1Ġhu1":10141,"Ġke4Ġcheng2Ġ":10142,"wen2Ġzhang1Ġ":10143,"ji3Ġge4Ġ":10144,"Ġshi4Ġjia1Ġ":10145,"Ġyou3Ġyi4Ġ":10146,"te4Ġshu1Ġ":10147,"Ġxi1Ġsi1Ġ":10148,"xiang1Ġguan1":10149,"shi1Ġfan4":10150,"Ġfu4Ġqin1Ġ":10151,"wu2Ġfa3":10152,"Ġqi3":10153,"Ġlv3Ġ":10154,"jin1Ġhui4Ġ":10155,"jie4ĠdeĠ":10156,"zhai4Ġ":10157,"jiao4Ġshi1Ġ":10158,"ceng2Ġjing1":10159,"can1Ġmou2":10160,"ĠĠĠxia4Ġ":10161,"lv4Ġshi1Ġ":10162,"Ġshi4Ġyu3Ġ":10163,"Ġnv3Ġxing4Ġ":10164,"fei1Ġzhou1Ġ":10165,"zha2Ġ":10166,"xi1Ġban1Ġya2":10167,"da4Ġwei4Ġ":10168,"Ġyi1Ġji2Ġ":10169,"Ġfeng2Ġ":10170,"chang2ĠdeĠ":10171,"Ġbu4Ġde2":10172,"Ġta1ĠmenĠzai4Ġ":10173,"wei1Ġji1Ġ":10174,"Ġyi4Ġfang1Ġmian4Ġ":10175,"fa3Ġyuan4":10176,"yi2Ġzhi3Ġ":10177,"Ġer2Ġshui3Ġyu4Ġmian4Ġji1Ġwei4Ġ0":10178,"Ġguo2Ġjia1ĠdeĠ":10179,"zhe3Ġzai4Ġ":10180,"Ġhe2Ġqi2Ġta1Ġ":10181,"ya4Ġzhou1":10182,"Ġzhu3Ġxi2Ġ":10183,"jin1Ġpai2Ġ":10184,"che1ĠdeĠ":10185,"16Ġ":10186,"Ġzhi1Ġwei4Ġ":10187,"Ġbing4Ġjiang1Ġ":10188,"kang1Ġxi1Ġ":10189,"Ġcheng2Ġxu4Ġ":10190,"yao4Ġwu4Ġ":10191,"Ġwei4Ġyou3Ġ":10192,"biao3Ġda2":10193,"ĠĠĠcheng2Ġ":10194,"Ġcheng2Ġren4Ġ":10195,"guo4Ġqu4Ġ":10196,"pu2Ġtao2Ġya2":10197,"da4Ġdi4Ġ":10198,"bian4Ġde2Ġ":10199,"Ġzhi4Ġliao2Ġ":10200,"huan1Ġying2Ġ":10201,"Ġgao1":10202,"Ġban4Ġ":10203,"Ġshou1Ġ":10204,"wen2Ġxian4Ġ":10205,"Ġbai3Ġ":10206,"duo1Ġnian2Ġ":10207,"Ġsi1Ġke4Ġ":10208,"Ġjin4Ġxing2ĠleĠ":10209,"mu4Ġbiao1":10210,"Ġfei4":10211,"Ġguan1Ġyu2Ġ":10212,"ĠĠĠE":10213,"zhuang1Ġshi4Ġ":10214,"zhi2Ġmin2":10215,"dong1Ġbei3Ġbu4Ġ":10216,"gou4Ġzao4Ġ":10217,"huo4Ġde2ĠleĠ":10218,"bo2Ġwu4Ġguan3":10219,"ao4Ġda4Ġli4Ġya4Ġ":10220,"zhu4Ġli3Ġ":10221,"leng3Ġ":10222,"Ġqiu2Ġyuan2Ġ":10223,"xi4Ġtong3ĠdeĠ":10224,"Ġ00Ġ":10225,"Ġ100":10226,"jiang1Ġhui4Ġ":10227,"fu2Ġyi4Ġ":10228,"DĠ":10229,"ben3Ġdi4Ġ":10230,"Ġer2Ġgai1Ġdi4Ġ":10231,"xian1Ġsheng1Ġ":10232,"Ġbu4Ġla1Ġ":10233,"bo1Ġlan2Ġ":10234,"Ġyu2Ġle4Ġ":10235,"jia1Ġru4":10236,"fang4Ġqi4Ġ":10237,"jian4Ġyi4Ġ":10238,"Ġ2015":10239,"ĠĠĠF":10240,"dang1Ġshi2ĠdeĠ":10241,"Ġqi1Ġxi1Ġzai4Ġ":10242,"mao2Ġze2Ġ":10243,"xiao4ĠdeĠ":10244,"sa4Ġsi1Ġ":10245,"yi4Ġda4Ġli4Ġ":10246,"Ġbing4Ġyu3Ġ":10247,"Ġda4Ġlu4Ġ":10248,"1985Ġnian2Ġ":10249,"fu4Ġqin1":10250,"ze2Ġwei4Ġ":10251,"Ġwei4Ġlai2Ġ":10252,"Ġce4Ġ":10253,"Ġ2007Ġnian2Ġ":10254,"ĠĠĠcong2Ġ":10255,"zi4Ġyou2":10256,"Ġjian4Ġzao4Ġ":10257,"dĠ":10258,"Ġjin4Ġyi2Ġbu4Ġ":10259,"shou1Ġshi4Ġ":10260,"ĠdeĠzheng4Ġ":10261,"liu2Ġzai4Ġ":10262,"cheng1Ġzuo4Ġ":10263,"Ġnian2ĠĠĠ":10264,"nan2Ġjing1Ġ":10265,"Ġjin4Ġgong1Ġ":10266,"guang3Ġgao4Ġ":10267,"sa4Ġer3Ġ":10268,"luo2Ġdi4Ġ":10269,"Ġshi4Ġzheng4Ġ":10270,"Ġfu4Ġqin1":10271,"Ġji4Ġshu4":10272,"Ġhao4Ġwei4Ġ":10273,"shi4ĠĠĠ":10274,"ji4Ġxu4Ġ":10275,"tan3Ġke4Ġ":10276,"leĠĠĠ":10277,"1949Ġnian2Ġ":10278,"ĠdeĠsheng1Ġ":10279,"Ġren2Ġmen":10280,"Ġri4Ġjun1":10281,"Ġyi4Ġmei3Ġyuan2Ġ":10282,"ci4Ġshi3Ġ":10283,"jin3Ġji2Ġ":10284,"xi4Ġju4Ġ":10285,"Ġ2013":10286,"Ġzai4Ġci3":10287,"Ġsi1Ġtan3":10288,"Ġte4Ġbie2Ġshi4Ġ":10289,"huo3Ġjian4Ġ":10290,"Ġjia1Ġzu2Ġ":10291,"piao4Ġfang2Ġ":10292,"bi3Ġli4Ġshi2Ġ":10293,"qing3Ġqiu2Ġ":10294,"jing3Ġfang1Ġ":10295,"kao3Ġlv4":10296,"Ġbing1Ġ":10297,"Ġhe4Ġ":10298,"Ġshi4Ġri4Ġben3Ġ":10299,"Ġjie2Ġguo3":10300,"tai4Ġping2Ġyang2":10301,"zhan1Ġmu3Ġsi1Ġ":10302,"MĠ":10303,"Ġ2014":10304,"Ġchu1Ġsheng1Ġ":10305,"Ġmei3Ġnian2Ġ":10306,"di4Ġzai4Ġ":10307,"Ġyi3Ġyou3Ġ":10308,"shang4Ġwu3Ġ":10309,"Ġzhao4":10310,"ba1Ġli2":10311,"wang2Ġchao2Ġ":10312,"tou2Ġpiao4":10313,"ĠĠĠjie2Ġzhi4Ġ":10314,"nei4Ġyou3Ġ":10315,"bian1ĠdeĠ":10316,"wan2Ġgong1Ġ":10317,"shi2Ġjian1Ġ":10318,"Ġzhi4Ġcheng2Ġ":10319,"guang3Ġdong1Ġsheng3Ġ":10320,"Ġsai4Ġ":10321,"fen1Ġzhong1Ġ":10322,"pai1Ġshe4":10323,"Ġyuan2Ġben3Ġ":10324,"que4Ġren4Ġ":10325,"chang3Ġhe2Ġ":10326,"Ġqi2Ġzai4Ġ":10327,"Ġzhi1ĠziĠ":10328,"mu3Ġqin1":10329,"shen1Ġti3Ġ":10330,"Ã©Ġ":10331,"Ġda4Ġyue1Ġ":10332,"Ġcan1Ġjia1Ġ":10333,"Ġzhi1ĠdeĠ":10334,"meng2Ġgu3":10335,"Ġjing1Ġji4Ġ":10336,"gu3Ġfen4":10337,"Ġzhan4Ġdou4Ġ":10338,"xi2Ġxing4":10339,"geng4Ġduo1Ġ":10340,"hu2Ġbei3Ġ":10341,"Ġyue1Ġhan4Ġ":10342,"kĠ":10343,"deng1Ġshang4Ġ":10344,"Ġxian4Ġchang3Ġ":10345,"Ġdeng4":10346,"ĠĠĠzeng1Ġ":10347,"suo3Ġzai4Ġ":10348,"min2Ġjian1Ġ":10349,"qing2Ġbao4Ġ":10350,"Ġying1Ġwen2Ġ":10351,"Ġxiang3Ġ":10352,"wai4Ġbu4Ġ":10353,"zhong4Ġyi4Ġ":10354,"mi4Ġmi4Ġ":10355,"Ġxun2Ġ":10356,"Ġheng2Ġ":10357,"xiao4Ġyuan2Ġ":10358,"Ġshi4Ġye4Ġ":10359,"Ġzai4Ġqi2Ġ":10360,"guan1Ġbi4Ġ":10361,"guang3Ġfan4":10362,"kao3Ġlv4Ġ":10363,"e2Ġluo2Ġsi1":10364,"fen3Ġ":10365,"te4Ġse4Ġ":10366,"cun4Ġ":10367,"Ġyou3Ġxian4Ġ":10368,"sen1Ġlin2Ġ":10369,"ma3Ġsi1Ġ":10370,"Ġyan2":10371,"Ġwo4":10372,"Ġ2020":10373,"wu4Ġyuan2Ġ":10374,"chi1Ġ":10375,"SĠ":10376,"an1Ġpai2Ġ":10377,"Ġwo3Ġmen":10378,"Ġai1Ġ":10379,"Ġquan2Ġqiu2Ġ":10380,"xia4Ġyi1Ġ":10381,"mei3Ġge4Ġ":10382,"23Ġ":10383,"Ġda4Ġduo1Ġshu4Ġ":10384,"ĠAĠ":10385,"cheng2Ġnian2Ġ":10386,"er4Ġyue4Ġ":10387,"zeng4Ġ":10388,"Ġbu4Ġjiu3":10389,"zhuang1Ġbei4Ġ":10390,"Ġda4Ġdao4Ġ":10391,"yan3Ġchang4Ġ":10392,"liang3Ġnian2Ġ":10393,"Ġzui4Ġgao1Ġ":10394,"neng2Ġzai4Ġ":10395,"Ġji1Ġbai4":10396,"tu3Ġer3Ġqi2Ġ":10397,"qian1Ġzhi4Ġ":10398,"huan3Ġ":10399,"1986Ġnian2Ġ":10400,"Ġdi4Ġyi1Ġci4Ġ":10401,"ĠR":10402,"Ġgang1Ġ":10403,"chang3Ġdi4Ġ":10404,"min2Ġzhu3Ġdang3Ġ":10405,"Ġzhong1Ġshi4Ġ":10406,"VĠ":10407,"Ġka3":10408,"Ġshi2Ġyan4Ġ":10409,"zuo4Ġzhan4Ġ":10410,"Ġ10Ġ":10411,"nan2Ġyi3Ġ":10412,"Ġji2Ġbei3Ġ":10413,"Ġchu1Ġlai2Ġ":10414,"tai2Ġfeng1Ġ":10415,"Ġtong1Ġchang2":10416,"Ġ2017":10417,"ban4Ġli3Ġ":10418,"13Ġ":10419,"Ġzhi1Ġdao4Ġ":10420,"xing4Ġqu4Ġ":10421,"tian1Ġjin1":10422,"long2Ġjiang1Ġ":10423,"cĠ":10424,"ling3Ġshi4Ġ":10425,"Ġbu4Ġzu2Ġ":10426,"yong4Ġtu2Ġ":10427,"li3Ġgong1Ġ":10428,"Ġkang1Ġ":10429,"tian1ĠdeĠ":10430,"tian1Ġjin1Ġ":10431,"xĠ":10432,"Ġyuan2Ġsu4Ġ":10433,"wei1Ġer3Ġ":10434,"nong2Ġye4":10435,"Ġqing1Ġchao2Ġ":10436,"ai1Ġer3Ġ":10437,"Ġyue4Ġtuan2Ġ":10438,"Ġcheng2Ġdu4Ġ":10439,"zhan4Ġling3Ġ":10440,"chang2Ġjian4ĠdeĠ":10441,"jin4Ġxing2ĠleĠ":10442,"Ġshi3Ġjian4Ġyu2Ġ":10443,"Ġxuan1Ġ":10444,"ĠĠĠxian4":10445,"dao3Ġdan4Ġ":10446,"xiu1Ġzheng4Ġ":10447,"ming2Ġzi4Ġ":10448,"gui4Ġzhou1Ġ":10449,"fen1Ġbu4Ġyu2Ġ":10450,"xi3Ġju4Ġ":10451,"Ġgong1Ġzhu3Ġ":10452,"Ġta1Ġhai2Ġ":10453,"Ġzhan4Ġdou4":10454,"ma3Ġlai2Ġxi1Ġya4Ġ":10455,"xi2Ġxing4Ġbu4Ġming2Ġ":10456,"Ġshi2Ġdai4":10457,"Ġwen2Ġhua4Ġ":10458,"zhang4Ġai4Ġ":10459,"25Ġ":10460,"Ġchu1Ġqi1Ġ":10461,"xiang4Ġshi4Ġ":10462,"hua2Ġsheng4Ġ":10463,"sheng1Ġcheng2Ġ":10464,"Ġyou3Ġxie1Ġ":10465,"Ġsheng1Ġchan3":10466,"ren4Ġming4Ġwei4Ġ":10467,"Ġtao2Ġ":10468,"Ġyi4Ġqi3":10469,"Ġwan4Ġli4Ġ":10470,"fa3Ġguan1Ġ":10471,"Ġye3Ġjiu4Ġshi4Ġ":10472,"Ġrong2Ġ":10473,"maĠ":10474,"ĠdeĠfang1Ġshi4Ġ":10475,"Ġhe2Ġhe2Ġ":10476,"Ġgong4":10477,"ĠĠĠta1Ġ":10478,"zu3Ġjian4Ġ":10479,"Ġsheng1Ġhuo2Ġxi2Ġxing4Ġbu4Ġming2Ġ":10480,"Ġchu3Ġyu2Ġ":10481,"she4Ġzhi4Ġ":10482,"ti2Ġchu1":10483,"jiao1Ġliu2Ġ":10484,"shou4Ġdao4":10485,"ji1Ġchu3Ġ":10486,"Ġta1Ġye3Ġ":10487,"Ġgen1Ġju4":10488,"Ġluo4":10489,"Ġhan4":10490,"Ġgong4Ġyou3Ġ":10491,"hen3Ġda4Ġ":10492,"Ġsui4Ġshi2Ġ":10493,"Ġyin2Ġ":10494,"zhi4Ġzhong1Ġ":10495,"bao4Ġfa1":10496,"zhu3Ġshi4Ġ":10497,"ku3Ġ":10498,"ĠĠĠmei3Ġguo2Ġ":10499,"ling3Ġxiu4Ġ":10500,"ju4Ġjue2Ġ":10501,"la1Ġding1":10502,"ren4Ġshi2Ġ":10503,"Ġer2Ġbu2Ġshi4Ġ":10504,"chuan2Ġshuo1Ġ":10505,"hua4Ġhe2Ġwu4Ġ":10506,"Ġkong3Ġ":10507,"he2ĠĠĠ":10508,"Ġrui4Ġ":10509,"Ġdian4Ġying3Ġ":10510,"bao4Ġli4Ġ":10511,"an1Ġna4Ġ":10512,"Ġyi1Ġxue2Ġ":10513,"an1Ġzhuang1":10514,"wo3ĠmenĠ":10515,"Ġpa4":10516,"ĠĠĠli3Ġ":10517,"zhi4Ġbu4Ġ":10518,"jia1Ġli4Ġfu2Ġ":10519,"Ġfa3":10520,"shu2Ġ":10521,"Ġyou3Ġyi2Ġge4Ġ":10522,"Ġxian4Ġxiang4Ġ":10523,"shang4Ġying4Ġ":10524,"wen2Ġyi4Ġ":10525,"qiong2Ġ":10526,"Ġzai4Ġnei4ĠdeĠ":10527,"gao1Ġsu4Ġ":10528,"1987Ġnian2Ġ":10529,"Ġzai4Ġdu4Ġ":10530,"Ġer2Ġbu4Ġ":10531,"chuang4Ġban4":10532,"ji4Ġshi4Ġ":10533,"yuan4Ġshi4Ġ":10534,"Ġwei4Ġxing1Ġ":10535,"Ġli3Ġlun4":10536,"yan2Ġshen1":10537,"hai3Ġan4Ġ":10538,"nv3Ġxing4":10539,"chuang4Ġjian4Ġ":10540,"bin1Ġhai3Ġ":10541,"shun4Ġli4Ġ":10542,"Ġdong1Ġbei3Ġ":10543,"ĠĠĠci3Ġwai4Ġ":10544,"Ġ2013Ġnian2Ġ":10545,"lei2Ġsi1Ġ":10546,"ruan3Ġjian4Ġ":10547,"Ġsheng1Ġzhang3":10548,"Ġyou2Ġqi2Ġshi4Ġ":10549,"tui1Ġjin4Ġ":10550,"zu1Ġ":10551,"Ġhe2Ġbu4Ġ":10552,"hai3Ġwai4Ġ":10553,"shu1Ġru4Ġ":10554,"zi1Ġchan3Ġ":10555,"lun4Ġwen2Ġ":10556,"Ġshu3":10557,"Ġxing2Ġzheng4":10558,"wang3Ġqiu2Ġ":10559,"ĠĠĠB":10560,"Ġwa3Ġ":10561,"Ġna4":10562,"Ġbu4Ġluo4Ġ":10563,"Ġda4Ġsha4":10564,"1980Ġnian2Ġ":10565,"zhu3Ġyi4ĠdeĠ":10566,"ping2Ġlun4Ġ":10567,"zui4Ġgao1":10568,"Ġshi4Ġyu2Ġ":10569,"ying4Ġyong4":10570,"cai3Ġqu3Ġ":10571,"Ġ2010":10572,"Ġ2012":10573,"pai2Ġming2Ġdi4Ġ":10574,"Ġsai1Ġ":10575,"Ġ2006Ġnian2Ġ":10576,"Ġying2Ġ":10577,"Ġta3Ġ":10578,"bian4Ġwei4Ġ":10579,"Ġbei3Ġjing1Ġ":10580,"Ġxi2Ġ":10581,"yu2ĠdeĠ":10582,"ju4Ġhe2Ġ":10583,"Ġzai4Ġxi1Ġ":10584,"ren2Ġda4Ġ":10585,"Ġde2Ġer3Ġ":10586,"Ġhou4Ġxuan3Ġren2Ġ":10587,"bao4Ġgao4":10588,"bo1Ġfang4Ġ":10589,"jiao4Ġshi4Ġ":10590,"tou2Ġzi1":10591,"Ġyong4Ġyu2Ġ":10592,"ma3Ġli3Ġ":10593,"ze2Ġren4Ġ":10594,"rao3Ġ":10595,"ĠĠĠqi2Ġ":10596,"fang1Ġmian4ĠdeĠ":10597,"ge4Ġzhong3Ġ":10598,"Ġshi4Ġmin2Ġ":10599,"Ġhe2Ġda4Ġ":10600,"Ġlai2":10601,"ĠĠĠdeĠĠĠ":10602,"ling3Ġdi4Ġ":10603,"Ġzai4Ġci4":10604,"fan4Ġwei2Ġnei4Ġ":10605,"ĠĠĠju4Ġqing2Ġ":10606,"ĠĠĠqian2Ġ":10607,"xiang1Ġshi4Ġdi4Ġ":10608,"zhe4Ġli3Ġ":10609,"Ġyu2Ġren2Ġ":10610,"zheng4Ġdang3Ġ":10611,"Ġri4Ġbao4Ġ":10612,"xing2Ġcheng2Ġ":10613,"fa1Ġxing2ĠdeĠ":10614,"Ġji1Ġhu1Ġ":10615,"Ġling4Ġyi1Ġ":10616,"Ġshi4Ġgu4Ġ":10617,"zhi2Ġjie1":10618,"Ġshuo1Ġ":10619,"feng1Ġwei4Ġ":10620,"pai4ĠdeĠ":10621,"1982Ġnian2Ġ":10622,"Ġzhi4Ġshao3Ġ":10623,"biao3Ġda2Ġ":10624,"yuan4Ġyi4Ġ":10625,"Ġta1Ġhe2Ġ":10626,"ju4Ġle4Ġbu4Ġ":10627,"dian4Ġzi":10628,"yĠ":10629,"ĠĠĠchu1Ġ":10630,"wang3Ġluo4":10631,"du2Ġli4ĠdeĠ":10632,"Ġfan1Ġ":10633,"e2Ġguo2Ġ":10634,"ĠĠĠxian4Ġ":10635,"Ġzhi1Ġfu4Ġ":10636,"jiu3Ġlong2Ġ":10637,"dang1Ġxuan3Ġ":10638,"he4Ġer3Ġ":10639,"Ġyou3Ġxiao4Ġ":10640,"zi4Ġran2":10641,"bu2Ġ":10642,"wen1Ġdu4Ġ":10643,"xi4Ġbao1":10644,"1945Ġnian2Ġ":10645,"1983Ġnian2Ġ":10646,"ji4Ġcheng2Ġ":10647,"dian4Ġnao3":10648,"yun3Ġxu3":10649,"Ġyi1Ġxiao3Ġshi2Ġ":10650,"jing3Ġcha2":10651,"huo3Ġshan1Ġ":10652,"Ġda4Ġxi1Ġyang2Ġ":10653,"guo4Ġqu4":10654,"pai2Ġhang2Ġ":10655,"an1Ġde2Ġ":10656,"ĠĠĠH":10657,"19Ġshi4Ġji4Ġ":10658,"jiu4Ġdu2":10659,"Ġdong1Ġlin2Ġ":10660,"ĠĠĠming2Ġ":10661,"zhi1Ġchi2":10662,"fang3Ġwen4":10663,"Ġjiu4Ġshi4Ġ":10664,"Ġzuo4Ġjia1Ġ":10665,"dang3Ġyuan2Ġ":10666,"mian2Ġ":10667,"Ġda4Ġfu2Ġ":10668,"yin3Ġqing2Ġ":10669,"qu1Ġyi4Ġhui4Ġ":10670,"Ġde2Ġhua2Ġ":10671,"Ġ2012Ġnian2Ġ":10672,"huan4Ġcheng2Ġ":10673,"biao3Ġyan3":10674,"dou1Ġzai4Ġ":10675,"Ġdi4Ġyi2Ġge4Ġ":10676,"xian4Ġzhi4Ġ":10677,"Ġyu3Ġmao2":10678,"Ġchu1Ġzhan4Ġ":10679,"bi3Ġya4":10680,"ĠĠĠdi4Ġfang1Ġ":10681,"xi3Ġhuan1":10682,"xiang1Ġdang1":10683,"Ġreng2":10684,"Ġbing4Ġbei4Ġ":10685,"fang1Ġyan2Ġ":10686,"qu1Ġhe2Ġ":10687,"Ġyi1Ġtong2Ġ":10688,"xun2Ġyang2":10689,"Ġzhong1Ġhua2Ġren2Ġmin2Ġgong4Ġhe2Ġguo2Ġzheng4Ġzhi4Ġren2Ġwu4Ġ":10690,"san1Ġshi4Ġ":10691,"jing1Ġyan4Ġ":10692,"Ġji4Ġsuan4Ġ":10693,"pu3Ġbian4Ġ":10694,"Ġsheng1Ġyu2Ġ":10695,"Ġzhong1Ġbei4Ġ":10696,"guan1Ġdian3Ġ":10697,"jiang4Ġdi1Ġ":10698,"ke1ĠdeĠqi2Ġzhong1Ġyi1Ġzhong3Ġ":10699,"Ġgong1Ġyi4Ġ":10700,"han2Ġyou3Ġ":10701,"liang3Ġming2Ġ":10702,"dian3Ġli3Ġ":10703,"Ġshi4Ġgong1Ġ":10704,"zhong4Ġduo1Ġ":10705,"Ġneng2Ġ":10706,"da4Ġzhi4Ġ":10707,"Ġbing4Ġdu2":10708,"Ġqi2Ġzhong1Ġyi1Ġ":10709,"ĠĠĠ2011":10710,"ya4Ġjun1Ġ":10711,"she4Ġqu1Ġ":10712,"kou3Ġwei4Ġ":10713,"cheng2Ġyuan2Ġ":10714,"Ġxian4Ġshi4Ġ":10715,"zhi1Ġqian2Ġ":10716,"mi4Ġshu1Ġzhang3Ġ":10717,"Ġdi4Ġsi4":10718,"Ġliu4":10719,"zuo4Ġshi4Ġ":10720,"tiao2Ġli4Ġ":10721,"nei4Ġge2Ġ":10722,"PĠ":10723,"Ġping2Ġjun1Ġ":10724,"shu4Ġyu3Ġ":10725,"wu2Ġzheng4Ġzhuang4Ġ":10726,"14Ġ":10727,"Ġxian4Ġren4Ġ":10728,"tu1Ġpo4Ġ":10729,"Ġwan2Ġ":10730,"xie3Ġdao4Ġ":10731,"dang4Ġtian1Ġ":10732,"yi2Ġdu4Ġ":10733,"Ġzu3Ġfu4Ġ":10734,"Ġxing2Ġwei4Ġ":10735,"Ġbi3Ġsai4Ġ":10736,"Ġgong1Ġmin2Ġ":10737,"xing1Ġdeng3Ġwei4Ġ":10738,"ĠĠĠji2Ġ":10739,"Ġtong2Ġyi4Ġ":10740,"FĠ":10741,"shan1Ġshi4Ġ":10742,"Ġnian2Ġhe2Ġ":10743,"hong2Ġse4Ġ":10744,"Ġzui4Ġchu1Ġ":10745,"kai1Ġshi3Ġzai4Ġ":10746,"Ġxin4Ġ":10747,"tuan2ĠdeĠ":10748,"gei3ĠleĠ":10749,"she3Ġ":10750,"Ġji1Ġjin1Ġ":10751,"si3Ġwang2":10752,"zheng3Ġti3Ġ":10753,"Ġ500":10754,"lu3Ġsi1Ġ":10755,"jue2Ġdui4Ġ":10756,"Ġquan2Ġli4Ġ":10757,"dai4Ġbiao3Ġda4Ġhui4Ġ":10758,"ĠĠĠ2010":10759,"chi2Ġyou3Ġ":10760,"ying1Ġwen2Ġ":10761,"Ġsun1":10762,"ĠĠĠa1Ġ":10763,"zheng4Ġbu4Ġ":10764,"gai4Ġnian4":10765,"Ġda2":10766,"Ġgong1Ġju4Ġ":10767,"she4Ġshi1Ġ":10768,"fang1Ġfa3":10769,"yang2Ġshi4Ġ":10770,"Ġshi4Ġbing1Ġ":10771,"Ġzhe4Ġzhong3":10772,"xia4Ġxia2ĠdeĠyi2Ġge4Ġ":10773,"ben3Ġren2Ġ":10774,"ĠĠĠtoĠĠĠ":10775,"ĠĠĠ2Ġ":10776,"Ġ0Ġ":10777,"ni2Ġer3Ġ":10778,"ĠdeĠcheng2Ġji4Ġ":10779,"ĠĠĠ1Ġ":10780,"Ġji2Ġren2Ġ":10781,"lai2Ġyue4Ġ":10782,"bao3Ġshou3Ġ":10783,"yi2Ġding4Ġ":10784,"tou2Ġxiang2Ġ":10785,"gui4Ġzu2Ġ":10786,"yue4Ġzhong1Ġ":10787,"gua4Ġ":10788,"zhi2Ġdao3Ġ":10789,"zhen4Ġqu1ĠdeĠ":10790,"jie4Ġshao4Ġ":10791,"zao3Ġqi1":10792,"bo2Ġshi4Ġxue2Ġwei4Ġ":10793,"ĠĠĠqi2Ġta1Ġ":10794,"shan1Ġji1Ġ":10795,"huang2Ġhou4Ġ":10796,"qi3Ġdong4Ġ":10797,"Ġmei3Ġge4Ġ":10798,"IĠ":10799,"tang1Ġ":10800,"Ġwei2Ġer3":10801,"yao1Ġqing3":10802,"gu3Ġdai4Ġ":10803,"Ġming2Ġdan1Ġ":10804,"Ġde2Ġyu3Ġ":10805,"yi4Ġnian2Ġ":10806,"zhen3Ġ":10807,"Ġli4Ġfa3":10808,"Ġyi1Ġzuo4Ġ":10809,"Ġyi3Ġji2":10810,"Ġer2Ġgai1Ġ":10811,"zhong3Ġzu2Ġ":10812,"hei1Ġse4Ġ":10813,"1Ġli4Ġ":10814,"kui4Ġ":10815,"Ġren2Ġmin2Ġzheng4Ġfu3Ġ":10816,"en1Ġsheng3Ġ":10817,"tou4Ġguo4":10818,"Ġxiang3Ġnian2Ġ":10819,"wu2Ġzheng4Ġzhuang4Ġgan3Ġran3Ġ":10820,"Ġyong4":10821,"Ġ30Ġ":10822,"sui2Ġzhu4Ġ":10823,"ming2Ġren2Ġ":10824,"duo1Ġren2Ġ":10825,"huo2Ġyue4Ġ":10826,"mu4Ġqian2":10827,"chang2Ġwu4Ġ":10828,"chang2Ġwei3Ġ":10829,"que4Ġzhen3Ġbing4Ġli4Ġ":10830,"Ġer4Ġshi2Ġ":10831,"sa1Ġ":10832,"Ġri4Ġyu2Ġ":10833,"gai3Ġming2Ġwei4Ġ":10834,"chu1Ġshen1Ġ":10835,"dian4Ġhua4Ġ":10836,"Ġ2022":10837,"Ġbu4Ġsi1Ġ":10838,"Ġji1Ġsi1Ġ":10839,"tai4ĠziĠ":10840,"Ġ7Ġ":10841,"Ġbi3Ġru2Ġ":10842,"pĠ":10843,"ĠĠĠgai1":10844,"ming2Ġzhi4Ġ":10845,"ke4Ġcheng2Ġ":10846,"kun4Ġnan2Ġ":10847,"Ġbu4Ġli4Ġ":10848,"dan1ĠdeĠ":10849,"long2ĠdeĠ":10850,"tun2Ġ":10851,"zui4Ġduo1Ġ":10852,"Ġmei3Ġyuan2Ġ":10853,"que1Ġfa2":10854,"ti2Ġji2Ġ":10855,"Ġwei4Ġyu2Ġzhong1Ġguo2Ġ":10856,"yi3Ġjing1Ġ":10857,"sai1Ġer3Ġwei2Ġ":10858,"lĠ":10859,"hui4Ġzhong1Ġ":10860,"shou1Ġji2Ġ":10861,"geng4Ġwei2Ġ":10862,"xue2Ġhui4Ġ":10863,"Ġbing4Ġfei1Ġ":10864,"hai3Ġxia2Ġ":10865,"ru4Ġxuan3Ġ":10866,"gou4ĠdeĠ":10867,"gong1Ġcheng2Ġ":10868,"Ġxi1Ġjie1Ġ":10869,"ge1Ġlun2Ġ":10870,"gĠ":10871,"pai1Ġ":10872,"Ġji1Ġchang3":10873,"ju4Ġda4Ġ":10874,"Ġcheng2Ġren2Ġ":10875,"fu4Ġze2":10876,"an1Ġna4":10877,"zu2Ġqiu2Ġyun4Ġdong4Ġyuan2Ġ":10878,"Ġyao1Ġqiu2Ġ":10879,"xie3ĠdeĠ":10880,"zhui1Ġsu4":10881,"Ġ2014Ġnian2Ġ":10882,"ĠĠĠ2":10883,"Ġtong2Ġshi2Ġgai1Ġdi4Ġ":10884,"zuo4Ġchu1Ġ":10885,"ĠĠĠC":10886,"bei1Ġsi1Ġ":10887,"Ġye3Ġzai4Ġ":10888,"tong2Ġnian2Ġ":10889,"sheng3ĠdeĠ":10890,"ling4Ġren2Ġ":10891,"hui4Ġzhi4Ġ":10892,"Ġde2Ġzhu3Ġ":10893,"tao3Ġlun4":10894,"Ġyue1":10895,"Ġji2Ġdi4Ġ":10896,"fan4Ġzui4Ġ":10897,"gao1Ġsu4Ġgong1Ġlu4Ġ":10898,"nei4Ġlu4Ġsheng3Ġfen4Ġ":10899,"erĠ":10900,"an1Ġhui1Ġ":10901,"ke1Ġxue2Ġjia1Ġ":10902,"tu2Ġxing2Ġ":10903,"pi1Ġzhun3":10904,"Ġbing4Ġdu2Ġ":10905,"Ġpo4Ġ":10906,"di1Ġyu2Ġ":10907,"Ġdian4Ġshi4Ġ":10908,"jiang1Ġzai4Ġ":10909,"zhu2Ġbu4Ġ":10910,"jian3Ġshao3":10911,"ĠdeĠdi4Ġer4Ġ":10912,"shou4ĠdeĠ":10913,"shan1ĠdeĠ":10914,"Ġshi4Ġyin1Ġwei4Ġ":10915,"Ġke4Ġxi1Ġ":10916,"lian2Ġhe2Ġhui4Ġ":10917,"Ġou1Ġyuan2Ġ":10918,"chao1Ġyue4Ġ":10919,"jie2Ġguo3":10920,"tai2Ġnan2":10921,"qiang2Ġlie4Ġ":10922,"Ġcha2":10923,"xia4Ġling4Ġshi2Ġjian1Ġ":10924,"Ġwan2Ġjia1Ġ":10925,"hai3Ġping2Ġmian4Ġ":10926,"bu2Ġdao4Ġ":10927,"Ġshi2Ġqi1ĠdeĠ":10928,"Ġyuan2Ġxing2Ġ":10929,"yi2Ġding4":10930,"Ġ20":10931,"ye3Ġzai4Ġ":10932,"Ġji1Ġhui4Ġ":10933,"Ġxue2Ġyuan4":10934,"hui1Ġfu4":10935,"Ġjia3":10936,"guo4ĠdeĠ":10937,"ya4Ġmei3Ġ":10938,"ci4ĠdeĠ":10939,"Ġguo2Ġnei4Ġ":10940,"bian1Ġjie4Ġ":10941,"dong3Ġshi4Ġzhang3Ġ":10942,"Ġmei2":10943,"Ġjiao4Ġyu4Ġ":10944,"ti2Ġyi4Ġ":10945,"shu1Ġzhong1Ġ":10946,"xun1Ġzhang1Ġ":10947,"jia4Ġge2Ġ":10948,"zhu3Ġjiao4":10949,"shi1Ġbai4Ġ":10950,"Ġhao4ĠdeĠ":10951,"zhu3Ġyao4ĠdeĠ":10952,"ni2Ġya4Ġzhou1Ġ":10953,"Ġhou4Ġbei4Ġ":10954,"Ġxue2Ġjia1Ġ":10955,"liu2Ġxia4Ġ":10956,"shuang1Ġfang1Ġ":10957,"ĠĠĠbei4Ġjing3Ġ":10958,"er2Ġtong2Ġ":10959,"Ġyi1Ġli4Ġ":10960,"guan1Ġcha2Ġ":10961,"pai4Ġqian3":10962,"jia1Ġyi4Ġ":10963,"Ġbu4Ġdui4":10964,"Ġyi3Ġwei2Ġ":10965,"Ġzai4Ġshi2Ġ":10966,"Ġshou3":10967,"Ġbai3":10968,"lian2Ġxu4":10969,"ti2Ġgong1ĠleĠ":10970,"xian4ĠdeĠ":10971,"qin1Ġzi4Ġ":10972,"Ġer2ĠziĠ":10973,"bei3Ġjing1Ġshi4Ġ":10974,"Ġ1950":10975,"Ġyou3Ġsuo3Ġ":10976,"zui4Ġgao1ĠdeĠ":10977,"hui4Ġyi4Ġyuan2Ġ":10978,"san1Ġjiao3":10979,"ĠĠĠdi4Ġfang1Ġzi1Ġliao4Ġ":10980,"ĠL":10981,"ren4Ġwei4Ġ":10982,"ma3Ġer3Ġ":10983,"lan2ĠdeĠ":10984,"na2Ġxia4Ġ":10985,"ping2Ġtai2Ġ":10986,"fei1Ġchang2":10987,"ĠĠĠjian3Ġjie4Ġ":10988,"duo1Ġwei4Ġ":10989,"zu3Ġfu4Ġ":10990,"alĠĠĠ":10991,"Ġhe2Ġyue1Ġ":10992,"1978Ġnian2Ġ":10993,"leĠzai4Ġ":10994,"Ġli4Ġliang4Ġ":10995,"Ġchu1Ġkou3Ġ":10996,"Ġta1Ġceng2Ġdai4Ġbiao3Ġ":10997,"Ġdi4Ġli3Ġ":10998,"nan2Ġbei3Ġ":10999,"neng2Ġyuan2Ġ":11000,"Ġdi4Ġqi1Ġ":11001,"Ġxian4Ġfa3Ġ":11002,"gai3Ġbian4":11003,"bei4ĠdeĠ":11004,"Ġhou4Ġzhe3Ġ":11005,"Ġhu4":11006,"tai2Ġzhong1Ġ":11007,"di2Ġshi4Ġ":11008,"Ġzheng4Ġming2Ġ":11009,"que1Ġfa2Ġ":11010,"Ġshi2Ġji4Ġshang4Ġ":11011,"liao3Ġ":11012,"Ġcheng2Ġzhen4Ġ":11013,"ban3Ġben3":11014,"Ġkuan1Ġ":11015,"Ġ2015Ġnian2Ġ":11016,"xuan3Ġzhong1Ġ":11017,"di2Ġren2Ġ":11018,"1979Ġnian2Ġ":11019,"Ġli4Ġyi4Ġ":11020,"Ġsu4Ġ":11021,"Ġlu3Ġ":11022,"li3Ġhe2Ġ":11023,"zi4ĠdeĠ":11024,"tĠĠĠ":11025,"pai4Ġchu1Ġ":11026,"Ġnian2Ġlai2Ġ":11027,"Ġzhong1Ġguo2Ġren2Ġmin2Ġjie3Ġfang4Ġjun1Ġ":11028,"duo1Ġzhong3Ġ":11029,"tan2Ġpan4Ġ":11030,"liao2Ġning2Ġ":11031,"Ġsi1Ġta3Ġ":11032,"ti2Ġchu1ĠdeĠ":11033,"bian3Ġ":11034,"wan2Ġzheng3":11035,"Ġzi1Ġ":11036,"sui2Ġji2Ġ":11037,"tui4Ġxiu1Ġ":11038,"Ġda4Ġxue2ĠdeĠ":11039,"hai3Ġba2Ġwei4Ġ":11040,"ping2Ġwei4Ġ":11041,"gan4Ġbu4Ġ":11042,"lei3Ġji4Ġ":11043,"Ġbu4Ġshao3Ġ":11044,"Ġshi2Ġxing2Ġ":11045,"ying1Ġge2Ġlan2":11046,"dang1Ġzhong1Ġ":11047,"xu4Ġli4Ġya4Ġ":11048,"shang1Ġren2Ġ":11049,"biao1Ġben3Ġ":11050,"fa1Ġsheng1Ġzai4Ġ":11051,"suo3Ġcai3Ġyong4":11052,"zhi3Ġdao3Ġ":11053,"Ġju4Ġjue2Ġ":11054,"mian3Ġdian1":11055,"hua4Ġzhong1Ġ":11056,"zan4Ġshi2Ġ":11057,"1972Ġnian2Ġ":11058,"Ġfu4Ġjin4":11059,"mei3Ġzhou1":11060,"Ġzhong1Ġgong4Ġzhong1Ġyang1Ġ":11061,"tiao4Ġ":11062,"Ġyi4Ġqing2Ġ":11063,"nong2Ġmin2Ġ":11064,"Ġming2Ġzhi4Ġ":11065,"ci4Ġyu2Ġ":11066,"jue2Ġyi4Ġ":11067,"ĠĠĠyin1Ġ":11068,"yi2Ġdai4Ġ":11069,"Ġde2Ġming2Ġ":11070,"ĠĠĠinĠĠĠ":11071,"Ġchu2":11072,"shui3Ġli4Ġ":11073,"rong2Ġhe2Ġ":11074,"Ġzhong1Ġguo2ĠdeĠ":11075,"zhuang1Ġjia3Ġ":11076,"Ġba3":11077,"fa1Ġming2Ġ":11078,"Ġqi2Ġwei4Ġ":11079,"zhi3Ġneng2Ġ":11080,"xiu1Ġgai3Ġ":11081,"3Ġge4Ġ":11082,"Ġgong1Ġzhong4Ġ":11083,"ĠĠĠ1":11084,"zhu3Ġyan3Ġ":11085,"a1Ġla1Ġbo2":11086,"xiang1Ġsi4Ġ":11087,"guan1Ġcha2":11088,"jie1Ġchu4Ġ":11089,"Ġbei3Ġjing1":11090,"kai1Ġshe4Ġ":11091,"xiu1Ġjian4Ġ":11092,"zhong3ĠziĠ":11093,"jing4Ġji4Ġ":11094,"Ġyu3Ġqi2Ġta1Ġ":11095,"jie3Ġsan4Ġ":11096,"ĠdeĠshi4Ġjie4Ġ":11097,"Ġ2016Ġnian2Ġ":11098,"wu3Ġzhuang1":11099,"Ġcn":11100,"dian4Ġji1Ġ":11101,"chai1Ġchu2Ġ":11102,"kai1Ġtong1Ġ":11103,"bao4Ġzha4Ġ":11104,"ju3Ġban4ĠdeĠ":11105,"ĠĠĠT":11106,"fa1Ġqi3Ġ":11107,"shen1Ġdu4Ġ":11108,"an1Ġpai2":11109,"shen2ĠmeĠ":11110,"Ġtang2":11111,"qu1Ġshi4Ġ":11112,"wei2Ġsi1Ġ":11113,"tuan2Ġti3":11114,"1958Ġnian2Ġ":11115,"ji1Ġgou4Ġ":11116,"fu4Ġzhu3Ġren4Ġ":11117,"fa1Ġshou4Ġ":11118,"zu3Ġzhi1ĠdeĠ":11119,"Ġting2Ġ":11120,"ĠĠĠqi2":11121,"ĠĠĠdui4Ġ":11122,"Ġwei4Ġda4Ġ":11123,"feng1Ġxian3Ġ":11124,"diao4Ġkuai4":11125,"Ġzheng1Ġ":11126,"cheng2Ġhe2Ġ":11127,"Ġge1":11128,"neng2Ġliang4Ġ":11129,"zhang1Ġzhuan1Ġji2Ġ":11130,"zao4ĠleĠ":11131,"zhuan3Ġxiang4Ġ":11132,"Ġwei4ĠUTCĠ":11133,"Ġbu4Ġji2Ġ":11134,"Ġzhong1Ġshan1Ġ":11135,"shuai4Ġling3":11136,"ĠcnĠ":11137,"jie2ĠdeĠ":11138,"bian1Ġju4Ġ":11139,"ying1Ġgai1Ġ":11140,"ban4Ġshi4Ġchu4Ġ":11141,"Ġbai4Ġ":11142,"Ġfa1Ġxing2Ġ":11143,"qiu2Ġji4Ġ":11144,"nu3Ġ":11145,"Ġxi1Ġban1Ġya2Ġ":11146,"Ġdan1":11147,"luo2Ġli3Ġ":11148,"ge2Ġla1Ġ":11149,"jiu4Ġdu2Ġ":11150,"diao4Ġkuai4Ġyi1Ġxiao3Ġshi2Ġ":11151,"ze2Ġzai4Ġ":11152,"ĠdeĠying3Ġxiang3Ġ":11153,"ying1Ġxiong2Ġ":11154,"shang1Ġye4":11155,"qiang2Ġdiao4Ġ":11156,"rĠ":11157,"Ġji2ĠUTCĠ":11158,"tiao2Ġzheng3":11159,"ke1Ġxue2Ġyuan4Ġ":11160,"she4Ġyou3Ġxia4Ġling4Ġshi2Ġjian1Ġ":11161,"ĠdeĠshi2Ġqu1Ġwei4ĠUTCĠ":11162,"Ġer2Ġgai1Ġdi4Ġsuo3Ġcai3Ġyong4":11163,"Ġtong2Ġshi2Ġgai1Ġdi4Ġshe4Ġyou3Ġxia4Ġling4Ġshi2Ġjian1Ġ":11164,"Ġer2Ġgai1Ġdi4Ġsuo3Ġcai3Ġyong4ĠdeĠshi2Ġqu1Ġwei4ĠUTCĠ":11165,"2025Ġnian2Ġ":11166,"xiao1Ġfei4Ġ":11167,"Ġtong2Ġyang4":11168,"xin4Ġyang3Ġ":11169,"ta1ĠmenĠdeĠ":11170,"bĠ":11171,"Ġda4Ġjiang3Ġ":11172,"jiao4Ġtang2":11173,"Ġling4Ġyou3Ġ":11174,"Ġyi1Ġsi1Ġlan2Ġ":11175,"you2Ġji1Ġ":11176,"yuan2Ġzhu4Ġ":11177,"tai4Ġdu4Ġ":11178,"Ġgai1Ġcun1Ġ":11179,"Ġhuan4Ġ":11180,"que4ĠdeĠ":11181,"bao3Ġliu2":11182,"chuan2Ġbo1Ġ":11183,"zhi1Ġjian1ĠdeĠ":11184,"ĠĠĠjiao1Ġtong1Ġ":11185,"fa1Ġshe4":11186,"suo3Ġzai4Ġdi4Ġ":11187,"Ġshi2Ġwu4Ġ":11188,"Ġqi2Ġxia4Ġ":11189,"Ġma3Ġlai2":11190,"Ġli4Ġshi3Ġshang4Ġ":11191,"gao1Ġyu2Ġhai3Ġping2Ġmian4Ġ":11192,"ding4Ġju1Ġ":11193,"Ġwei4Ġfu2Ġqi2Ġyu2Ġgang1Ġ":11194,"xing4Ġwei4Ġ":11195,"zhu2Ġjian4":11196,"1976Ġnian2Ġ":11197,"Ġbu4Ġneng2":11198,"Ġgong1Ġjue2Ġ":11199,"Ġer3Ġduo1Ġ":11200,"ĠĠĠqing1Ġ":11201,"wu4Ġhe2Ġ":11202,"pei4Ġzhi4Ġ":11203,"kun4Ġ":11204,"Ġlian2Ġhe2Ġ":11205,"hui4Ġyu2Ġ":11206,"chu4ĠdeĠhai3Ġba2Ġwei4Ġ":11207,"chu4ĠdeĠhai3Ġba2Ġwei4Ġgao1Ġyu2Ġhai3Ġping2Ġmian4Ġ":11208,"qia4Ġ":11209,"Ġyin1Ġsu4Ġ":11210,"ti3Ġzhi4Ġ":11211,"jing4Ġxuan3Ġ":11212,"wu4Ġshi4Ġ":11213,"Ġyu2Ġle4":11214,"chang3Ġsuo3Ġ":11215,"Ġ30":11216,"hou4Ġwei4Ġ":11217,"Ġzhi1Ġyi4Ġ":11218,"Ġni3Ġ":11219,"Ġhe2Ġpan4Ġ":11220,"Ġbu4Ġjin3Ġ":11221,"Ġyi3Ġxi1Ġ":11222,"Ġdai4":11223,"fa1Ġxian4ĠdeĠ":11224,"zhong4Ġshi4Ġ":11225,"kuang2Ġ":11226,"Ġqi2Ġshi2Ġ":11227,"Ġsui2Ġzhu4Ġ":11228,"Ġxu1Ġ":11229,"nan2Ġjing1":11230,"zhang3Ġda2Ġ":11231,"yun4Ġshu1":11232,"Ġ2008":11233,"Ġ2017Ġnian2Ġ":11234,"ĠĠĠma3Ġ":11235,"shu4Ġshi2Ġ":11236,"nei4Ġdi4Ġ":11237,"Ġzheng4Ġzhi4Ġ":11238,"Ġxie4Ġ":11239,"anĠĠĠ":11240,"shi2Ġqu1Ġ":11241,"gao1Ġxiong2":11242,"zi1Ġliao4":11243,"3Ġnian2Ġ":11244,"jian4Ġcheng2Ġ":11245,"geng1Ġxin1Ġ":11246,"Ġyi1Ġjia1Ġ":11247,"Ġxi1Ġlan2Ġ":11248,"yun4Ġyong4Ġ":11249,"Ġzi4Ġran2Ġ":11250,"chong2Ġqing4":11251,"Ġyi2":11252,"lu4Ġzhi4Ġ":11253,"bi4Ġye4Ġhou4Ġ":11254,"Ġhu2":11255,"ĠĠĠran2":11256,"er4Ġji2Ġ":11257,"Ġli4Ġren4Ġ":11258,"shan1Ġfeng1Ġ":11259,"Ġwei4Ġyu2Ġgai1Ġ":11260,"Ġxiao3Ġshi2Ġ":11261,"wei2Ġer3Ġ":11262,"zhi2Ġzheng4Ġ":11263,"dian4Ġqi4Ġ":11264,"zhe3Ġshi4Ġ":11265,"wang2Ġshi4Ġ":11266,"Ġzuo4Ġchu1Ġ":11267,"bian1Ġhao4Ġ":11268,"xia2Ġqu1Ġ":11269,"ĠĠĠben3":11270,"bao1Ġwei2Ġ":11271,"bang4Ġqiu2Ġ":11272,"chan2Ġ":11273,"xue2Ġyuan2Ġ":11274,"cuo4Ġwu4Ġ":11275,"Ġdi4Ġqiu2":11276,"jin1Ġrong2Ġ":11277,"Ġyu4Ġshi3Ġ":11278,"xuan1Ġchuan2":11279,"Ġkou3Ġ":11280,"dong1Ġfang1Ġ":11281,"Ġnuo4Ġ":11282,"hou4Ġyi4Ġ":11283,"bei3Ġshi4Ġ":11284,"jing1Ġchang2":11285,"xiao4Ġqu1Ġ":11286,"Ġran2Ġer2":11287,"jiu4Ġhui4Ġ":11288,"Ġjie2Ġke4Ġ":11289,"Ġfa1Ġxian4Ġ":11290,"Ġsi1Ġke1Ġ":11291,"Ġdui4Ġshou3Ġ":11292,"Ġxing2Ġzheng4Ġqu1Ġ":11293,"zhen4Ġqu1ĠdeĠmian4Ġji1Ġwei4Ġ":11294,"Ġzhou1Ġci4Ġshi3Ġ":11295,"Ġsheng1Ġya2Ġ":11296,"ĠĠĠW":11297,"jia1Ġyi3Ġ":11298,"ceng2Ġwei4Ġ":11299,"ju2ĠdeĠ":11300,"Ġqin1Ġ":11301,"fu2ĠdeĠ":11302,"ma3Ġke4Ġ":11303,"Ġta1Ġyi3Ġ":11304,"Ġyuan2Ġzi4Ġ":11305,"Ġli3Ġxi1Ġ":11306,"zao4Ġcheng2ĠdeĠ":11307,"Ġfu2Ġwu4Ġ":11308,"Ġ8Ġ":11309,"Ġ2023":11310,"17Ġ":11311,"ping2Ġlun4":11312,"zhi2Ġmin2Ġ":11313,"fu1Ġka3Ġ":11314,"Ġdang1Ġshi2ĠdeĠ":11315,"Ġgan3Ġ":11316,"ao4Ġzhou1Ġ":11317,"shuai1Ġ":11318,"Ġyi1Ġju4Ġ":11319,"ji4Ġyou3Ġ":11320,"shi3Ġjian4Ġyu2Ġ":11321,"ren4ĠdeĠ":11322,"ye3Ġbei4Ġ":11323,"mian4Ġshang4Ġ":11324,"ban4ĠdeĠ":11325,"gong1Ġgong4Ġ":11326,"Ġsi1Ġke4":11327,"Ġer2Ġtong2Ġ":11328,"Ġ2018Ġnian2Ġ":11329,"jia1Ġzai4Ġ":11330,"ke3Ġzai4Ġ":11331,"pao3Ġ":11332,"Ġxue2Ġzhe3Ġ":11333,"ĠĠĠR":11334,"Ġjian4Ġshe4":11335,"Ġwei2Ġrao4":11336,"Ġye3Ġbei4Ġ":11337,"qian1Ġshu3Ġ":11338,"Ġqi2Ġzhong1Ġbao1Ġkuo4Ġ":11339,"Ġe4Ġ":11340,"Ġ2009":11341,"hai3Ġyang2Ġ":11342,"lai2Ġyin1Ġ":11343,"Ġxian1":11344,"Ġchong1Ġ":11345,"ĠĠĠfor":11346,"ji1Ġzai4Ġ":11347,"jun4Ġgong1Ġ":11348,"tu1Ġran2Ġ":11349,"Ġji2Ġda4Ġ":11350,"ji4Ġnian4":11351,"Ġde2Ġzhi1Ġ":11352,"Ġji1Ġjin1Ġhui4Ġ":11353,"xiao4Ġli4Ġyu2Ġ":11354,"Ġsha1":11355,"Ġ2019Ġnian2Ġ":11356,"qi4Ġche1":11357,"ling4Ġyi2Ġge4Ġ":11358,"xiao1Ġshi1Ġ":11359,"Ġxing1":11360,"Ġyun2Ġ":11361,"ming2Ġshi4Ġ":11362,"Ġwei4Ġdui4Ġ":11363,"ru2Ġguo3Ġ":11364,"dang1Ġdi4ĠdeĠ":11365,"jiang4Ġling3Ġ":11366,"yan2Ġhai3Ġ":11367,"tao2Ġtai4Ġ":11368,"wei3Ġyuan2Ġhui4Ġwei3Ġyuan2Ġ":11369,"Ġdi4Ġtie3":11370,"Ġli3Ġya4Ġ":11371,"shen2Ġme":11372,"Ġ2Ġyue4Ġ":11373,"ĠĠĠsheng4Ġ":11374,"ĠĠĠjin3Ġ":11375,"ping2Ġyuan2Ġ":11376,"bei4Ġjing3Ġ":11377,"ka3Ġluo2Ġ":11378,"19Ġ":11379,"jin4Ġbu4Ġ":11380,"ding4Ġyu2Ġ":11381,"liang3Ġguo2Ġ":11382,"te4Ġding4Ġ":11383,"fen4Ġzi3":11384,"da4Ġbu4Ġ":11385,"dui4Ġqi2Ġ":11386,"Ġqi2ĠdeĠ":11387,"ĠdeĠbu4Ġfen4Ġ":11388,"Ġci4Ġnian2Ġ":11389,"er4Ġren2Ġ":11390,"jiao4Ġda4Ġ":11391,"Ġzhi4Ġzuo4ĠdeĠ":11392,"Ġji1Ġdu1Ġ":11393,"dian4Ġnao3Ġ":11394,"gai3Ġzao4Ġ":11395,"chuan2Ġtong3ĠdeĠ":11396,"Ġgen1Ġ":11397,"deng3Ġji2Ġ":11398,"sheng1Ġya2":11399,"Ġbu4Ġbu4Ġzhang3Ġ":11400,"shou3Ġzhong1Ġ":11401,"jing1Ġshen2":11402,"Ġqian2Ġwang3Ġ":11403,"zhi2Ġmin2Ġdi4Ġ":11404,"Ġza2Ġzhi4Ġ":11405,"dian3Ġshi4Ġ":11406,"yi4Ġshu4Ġ":11407,"quan2Ġmian4Ġ":11408,"tian2Ġjing4Ġ":11409,"Ġdian4Ġying3":11410,"mo4Ġxi1Ġge1Ġ":11411,"Ġxian2Ġ":11412,"zhen4ĠdeĠ":11413,"tui1Ġchu1":11414,"guo2Ġjia1":11415,"Ġxian4Ġyi3Ġ":11416,"Ġji1Ġchu3":11417,"Ġju4Ġli2":11418,"guan1Ġjian4Ġ":11419,"mu4ĠdeĠ":11420,"li2Ġkai1":11421,"Ġluo2Ġma3Ġ":11422,"ĠĠĠnan2Ġ":11423,"Ġshi2Ġduan4Ġ":11424,"liang3Ġci4Ġ":11425,"ai4Ġer3Ġlan2Ġ":11426,"san1Ġming2Ġ":11427,"hun1Ġyin1Ġ":11428,"da4Ġlu4":11429,"Ġyi4Ġyu2Ġ":11430,"jie1Ġduan4":11431,"shu1Ġyuan4Ġ":11432,"Ġyou2Ġji1Ġ":11433,"Ġshan1Ġdong1Ġ":11434,"a1Ġla1Ġbo2Ġ":11435,"touĠ":11436,"Ġliu4Ġ":11437,"bo1Ġsi1Ġ":11438,"hui4Ġzhang3Ġ":11439,"man3Ġzu2Ġ":11440,"wen2ĠdeĠ":11441,"Ġdi4Ġdian3Ġ":11442,"cai2Ġneng2Ġ":11443,"xin1Ġcheng2Ġ":11444,"qi1Ġwei4Ġ":11445,"liang3Ġwei4Ġ":11446,"pei4Ġyin1Ġ":11447,"zheng4Ġju4Ġ":11448,"jing4Ġzheng1Ġ":11449,"Ġwu2Ġfa3Ġ":11450,"lian2ĠdeĠ":11451,"xiu1Ġfu4Ġ":11452,"Ġbing4Ġyou2Ġ":11453,"la1Ġji1Ġ":11454,"kao4Ġjin4Ġ":11455,"Ġdi4Ġdai4Ġ":11456,"Ġli4Ġshi2Ġ":11457,"jie3Ġfang4Ġ":11458,"nei4Ġzhan4Ġ":11459,"bo1Ġshi4Ġ":11460,"Ġwei2Ġchi2":11461,"chu1Ġban3":11462,"zai1Ġpei2Ġ":11463,"Ġshi4Ġde2Ġguo2Ġ":11464,"dui4Ġzhang3Ġ":11465,"fa1Ġqi3":11466,"hu4Ġlian2Ġ":11467,"ju1Ġzhu4Ġzai4Ġ":11468,"zao3Ġzai4Ġ":11469,"Ġcan1Ġyu4Ġ":11470,"bing4Ġbu4Ġ":11471,"shou3Ġxiang4Ġ":11472,"shan1Ġqu1Ġ":11473,"zu2Ġqiu2Ġju4Ġle4Ġbu4Ġ":11474,"yu2ĠĠĠ":11475,"jiao1Ġliu2":11476,"Ġguo2Ġwu4Ġyuan4Ġ":11477,"Ġpiao4Ġ":11478,"li3Ġcheng2Ġ":11479,"wei3Ġfu4Ġ":11480,"gou3Ġ":11481,"ĠBĠ":11482,"zhe4Ġshi4Ġ":11483,"qi3Ġyuan2Ġ":11484,"cun1Ġluo4Ġ":11485,"fu1ĠdeĠ":11486,"ji1Ġchu3":11487,"Ġda4Ġlou2":11488,"Ġyu3Ġyan2":11489,"yan2Ġse4Ġ":11490,"xiang4Ġzheng1Ġ":11491,"Ġwei2Ġsi1Ġ":11492,"tian1Ġti3Ġ":11493,"dou1Ġbei4Ġ":11494,"Ġbu4Ġbing1Ġ":11495,"ĠĠĠdi4Ġer4Ġ":11496,"Ġ2004Ġnian2Ġ":11497,"liu4Ġshi2Ġ":11498,"Ġzhi4Ġliang4Ġ":11499,"Ġzhou1Ġfu3Ġ":11500,"lang2Ġzhong1Ġ":11501,"Ġyi1Ġyuan4":11502,"Ġxing2Ġmu4Ġ":11503,"Ġbao3":11504,"Ġding1Ġ":11505,"xing4Ġhe2Ġ":11506,"juan4Ġ":11507,"Ġyi3Ġwai4Ġ":11508,"Ġyu3Ġyi1Ġ":11509,"chang2Ġdu4Ġ":11510,"luo4Ġfa2":11511,"Ġzhi4Ġdi4Ġ":11512,"wu2Ġzheng4Ġzhuang4Ġgan3Ġran3Ġzhe3Ġ":11513,"Ġyi4Ġshi4Ġ":11514,"liang4Ġwei4Ġ":11515,"mu3ĠdeĠ":11516,"Ġde2Ġsi1Ġ":11517,"Ġ2020Ġnian2Ġ":11518,"xie3Ġzuo4Ġ":11519,"meng4Ġjia1Ġ":11520,"zui4Ġchu1":11521,"te4Ġxing4Ġ":11522,"shi1Ġqu4":11523,"Ġwei4Ġyu2Ġmei3Ġguo2Ġ":11524,"jia3Ġdi4Ġ":11525,"Ġzui4Ġjia1Ġ":11526,"fu4Ġhe2Ġ":11527,"chuang2Ġ":11528,"ao4Ġmen2":11529,"eĠĠĠ":11530,"ĠĠĠ2008":11531,"fu2Ġli4Ġ":11532,"Ġxian4Ġji2Ġ":11533,"tai4Ġyang2":11534,"zhuan4ĠdeĠ":11535,"Ġdang3Ġ":11536,"zong1Ġyi4Ġ":11537,"1970Ġnian2Ġ":11538,"zi4Ġmu3Ġ":11539,"ling2Ġchen2Ġ":11540,"zhi2Ġye4Ġsheng1Ġya2Ġ":11541,"Ġyi2Ġge4":11542,"Ġku4Ġ":11543,"suo3ĠdeĠ":11544,"suo3Ġwei4Ġ":11545,"tou4Ġlu4Ġ":11546,"dong1Ġbei3":11547,"Ġdiao4Ġ":11548,"ou3Ġxiang4Ġ":11549,"kao3Ġshi4Ġ":11550,"shou1Ġgou4Ġ":11551,"Ġfu2Ġjian4Ġ":11552,"2Ġnian2Ġ":11553,"ĠĠĠge4Ġren2Ġ":11554,"zong3Ġren2Ġkou3Ġ":11555,"siĠ":11556,"Ġdi4Ġfang1":11557,"Ġxian4Ġcheng2Ġ":11558,"Ġli3Ġke4Ġ":11559,"jue2Ġshi4Ġ":11560,"Ġde2Ġla1Ġ":11561,"kong1Ġqi4Ġ":11562,"na4ĠdeĠ":11563,"fen2Ġ":11564,"zuo4Ġwei2":11565,"zhu3Ġzhang1Ġ":11566,"xi1Ġhe2Ġ":11567,"xi1Ġnan2Ġ":11568,"Ġtai4":11569,"ping2ĠdeĠ":11570,"hui2Ġyi4Ġ":11571,"Ġyi3Ġzai4Ġ":11572,"Ġye3Ġke3Ġyi3Ġ":11573,"pu2Ġtao2Ġya2Ġ":11574,"Ġzhen1":11575,"ĠĠĠren2Ġ":11576,"zai4ĠĠĠ":11577,"Ġzuo4Ġzhan4Ġ":11578,"Ġxie4":11579,"qi1Ġshi2Ġ":11580,"ge2Ġshi4Ġ":11581,"zou3Ġxiang4Ġ":11582,"Ġyi3Ġyu2Ġ":11583,"Ġcheng2Ġke4Ġ":11584,"su1Ġge2Ġlan2Ġ":11585,"Ġ18":11586,"Ġse4Ġ":11587,"guo4ĠleĠ":11588,"che1Ġdui4Ġ":11589,"Ġer3Ġshi4Ġ":11590,"nan2ĠdeĠ":11591,"Ġdi4Ġtu2Ġ":11592,"Ġyuan2Ġben3":11593,"Ġchu1Ġdao4Ġ":11594,"yin4Ġni2Ġ":11595,"Ġ2007":11596,"Ġsun1Ġ":11597,"Ġ2021Ġnian2Ġ":11598,"wu3Ġshi4Ġ":11599,"shou1Ġdao4Ġ":11600,"wa3Ġer3Ġsheng3Ġ":11601,"guan3Ġzhi4Ġ":11602,"Ġgong1Ġli3ĠdeĠ":11603,"xin4Ġyang3":11604,"zhu3Ġyi4Ġzhe3Ġ":11605,"Ġkai3":11606,"gu3Ġli4Ġ":11607,"fei2Ġ":11608,"baĠ":11609,"tou1Ġ":11610,"Ġwei4Ġyuan2Ġ":11611,"guo4Ġdu4Ġ":11612,"yan2Ġren2Ġ":11613,"luo4Ġcheng2Ġ":11614,"xian3Ġzhu4Ġ":11615,"50Ġ":11616,"guo2Ġwu4Ġ":11617,"shi3Ġshang4Ġ":11618,"guang3Ġchang3":11619,"Ġshi2Ġyan4Ġshi4Ġ":11620,"Ġsi1Ġling4Ġbu4Ġ":11621,"shi3Ġren2Ġ":11622,"bi4ĠdeĠ":11623,"mai4Ġke4Ġ":11624,"hun2Ġ":11625,"shou3Ġdu1":11626,"Ġfu4Ġjin4ĠdeĠ":11627,"wang4Ġyuan3Ġ":11628,"ĠĠĠyue4Ġ":11629,"xi1Ġdi4Ġ":11630,"xiu1Ġdao4Ġ":11631,"Ġda4Ġgong1Ġ":11632,"Ġzu2Ġ":11633,"si4ĠdeĠ":11634,"1968Ġnian2Ġ":11635,"ge2Ġli2Ġ":11636,"xun2Ġzhao3":11637,"shao4Ġnv3Ġ":11638,"yu2Ġhe2Ġ":11639,"jiang1Ġyu2Ġ":11640,"1981Ġnian2Ġ":11641,"dong1Ġjing1":11642,"zhuan1Ġye4":11643,"Ġcai3Ġ":11644,"Ġjue2Ġding4Ġ":11645,"di4Ġhe2Ġ":11646,"yan2Ġzhi4Ġ":11647,"du4Ġhe2Ġ":11648,"ceng2Ġyu2Ġ":11649,"fang4Ġzai4Ġ":11650,"Ġji2Ġshi3Ġ":11651,"jian1Ġyu4Ġ":11652,"mian3Ġfei4Ġ":11653,"jiao3Ġdu4Ġ":11654,"zuo3Ġyi4Ġ":11655,"Ġdi4Ġliu4Ġ":11656,"Ġcheng2Ġben3Ġ":11657,"wei2Ġzhu3Ġ":11658,"bei4Ġcheng1Ġwei2Ġ":11659,"Ġxing2Ġdong4":11660,"fan3Ġhui2":11661,"guan3Ġli3Ġju2Ġ":11662,"1956Ġnian2Ġ":11663,"Ġyue4Ġdui4Ġ":11664,"zi1Ġben3Ġ":11665,"tai2Ġbei3Ġshi4Ġ":11666,"Ġshe4Ġyu2Ġ":11667,"Ġjun1Ġqu1Ġ":11668,"bi4Ġmian3":11669,"kong1Ġjian1":11670,"xing2Ġtai4Ġ":11671,"Ġxu4Ġ":11672,"ĠĠĠdang1Ġ":11673,"she4Ġbei4Ġ":11674,"xiang1Ġshi4Ġ":11675,"ka3Ġsi1Ġ":11676,"1920Ġnian2Ġ":11677,"Ġshen2":11678,"shan1Ġxian4Ġ":11679,"Ġer2Ġfei1Ġ":11680,"gai3Ġshan4Ġ":11681,"li3Ġlun4":11682,"xi1Ġbei3Ġ":11683,"fei4Ġchu2Ġ":11684,"zheng4Ġfu3ĠdeĠ":11685,"Ġfeng4Ġ":11686,"ĠĠĠsi1Ġ":11687,"shang4Ġdi4Ġ":11688,"dao3Ġshang4Ġ":11689,"Ġzai4Ġhe2Ġ":11690,"Ġke4Ġer3Ġ":11691,"deng3Ġdeng3Ġ":11692,"ci3Ġtong2Ġshi2Ġ":11693,"luo4Ġshan1Ġji1Ġ":11694,"Ġmi4Ġ":11695,"Ġ2002Ġnian2Ġ":11696,"kai1Ġgong1Ġ":11697,"tong1Ġzhi1Ġ":11698,"xiang1Ġguan1ĠdeĠ":11699,"bo1Ġli2Ġ":11700,"1960Ġnian2Ġ":11701,"Ġfen1Ġbie2Ġ":11702,"Ġcai4":11703,"jiu4Ġyuan2Ġ":11704,"ĠdeĠju4Ġ":11705,"Ġpu3":11706,"Ġyong3":11707,"ĠĠĠzheng4Ġ":11708,"wa2Ġ":11709,"Ġdi4Ġyi1Ġci4":11710,"ĠĠĠ2009":11711,"he2Ġzai4Ġ":11712,"ye3Ġhui4Ġ":11713,"WindowsĠĠĠ":11714,"Ġzhi1Ġshi4Ġ":11715,"hai3Ġan4":11716,"ci2Ġzhi2Ġ":11717,"e2Ġluo2Ġsi1ĠdeĠ":11718,"Ġren2Ġda4Ġ":11719,"Ġyi4Ġjian4Ġ":11720,"hen3Ġkuai4Ġ":11721,"1975Ġnian2Ġ":11722,"Ġwei4Ġzai4Ġ":11723,"Ġcai3Ġyong4Ġ":11724,"ĠĠĠba1Ġ":11725,"shang4Ġxian4Ġ":11726,"jia4Ġshi3Ġ":11727,"kou3ĠdeĠ":11728,"zheng1Ġyue4Ġ":11729,"ti4Ġdai4Ġ":11730,"chu4Ġzhang3Ġ":11731,"chong1Ġtu1":11732,"xi3Ġhuan1Ġ":11733,"Ġkai3Ġ":11734,"qiang2Ġzhi4Ġ":11735,"Ġshi2Ġxian4":11736,"ying3Ġshi4Ġ":11737,"ci2ĠdeĠ":11738,"1948Ġnian2Ġ":11739,"1964Ġnian2Ġ":11740,"jian1Ġdu1Ġ":11741,"ti2Ġchu1ĠleĠ":11742,"wai4Ġjiao1Ġbu4Ġ":11743,"Ġsuo1Ġ":11744,"xue2Ġzhong1Ġ":11745,"huai4Ġ":11746,"Ġge4Ġguo2Ġ":11747,"yin3Ġyong4Ġ":11748,"min2Ġzhu3Ġdang3":11749,"Ġlei2":11750,"Ġe2Ġ":11751,"shan1Ġdi4Ġ":11752,"jiu3ĠdeĠ":11753,"jin3Ġyou3Ġ":11754,"Ġba3Ġ":11755,"feng1Ġfu4Ġ":11756,"ji4Ġsuan4":11757,"Ġzhu3Ġyan3Ġ":11758,"si1Ġshi4Ġ":11759,"nuo2Ġwei1":11760,"ĠĠĠgu4Ġshi4Ġ":11761,"Ġsi1Ġma3Ġ":11762,"Ġge4Ġzhong3":11763,"Ġhao4Ġxian4":11764,"zhang3Ġguan1Ġ":11765,"zong1Ġjiao4":11766,"xiao3Ġxing2Ġxing1":11767,"ĠĠĠfu4Ġ":11768,"mo4Ġxi1Ġge1":11769,"hu4Ġxiang1Ġ":11770,"qiang2ĠdeĠ":11771,"Ġshi2Ġhou4Ġ":11772,"Ġyou3Ġxie1":11773,"pu3Ġbian4":11774,"bu4ĠdeĠcun1Ġzhuang1Ġ":11775,"ĠĠĠyi3Ġxia4":11776,"guan3ĠdeĠ":11777,"zan4Ġzhu4Ġ":11778,"yin4Ġshua1":11779,"Ġzu2":11780,"Ġchuan1Ġ":11781,"Ġpa4Ġ":11782,"cu4Ġjin4Ġ":11783,"Ġyue4Ġlai2Ġyue4Ġ":11784,"liu2Ġyu4Ġ":11785,"gu3Ġlao3":11786,"ma3Ġlai2Ġxi1Ġya4":11787,"Ġmo2":11788,"ĠĠĠwei2Ġ":11789,"ta1Ġzai4Ġ":11790,"jiang4Ġyu3Ġ":11791,"liao3Ġjie3Ġ":11792,"Ġbu4Ġshao3":11793,"jia1Ġting2Ġ":11794,"fu4Ġshi4Ġ":11795,"lie4Ġchu1Ġ":11796,"Ġcheng2Ġxian4":11797,"Ġzhi1Ġdi4Ġ":11798,"jing1Ġdian3Ġ":11799,"che1Ġxiang1Ġ":11800,"Ġdan4Ġbai2Ġ":11801,"a1Ġgen1Ġ":11802,"onĠ":11803,"yun3Ġshi2Ġ":11804,"Ġxian4Ġshang4Ġ":11805,"qiang2Ġdu4Ġ":11806,"tian1Ġhou4Ġ":11807,"su1Ġwei2Ġ":11808,"guan4Ġjun1":11809,"pu4Ġ":11810,"Ġzhi1Ġjia1Ġ":11811,"can1Ġxuan3Ġ":11812,"Ġni3":11813,"Ġbu4Ġman3Ġ":11814,"Ġke4Ġhe2Ġ":11815,"lie4Ġru4Ġ":11816,"bi4Ġmian3Ġ":11817,"1952Ġnian2Ġ":11818,"Ġxiang1Ġdang1":11819,"tong2Ġxing4Ġ":11820,"ce4Ġliang2Ġ":11821,"ting2Ġche1Ġ":11822,"zao3Ġshang4Ġ":11823,"zhu3Ġti2":11824,"sen1Ġlin2":11825,"Ġfu4Ġze2Ġguan3Ġxia2Ġ":11826,"ĠZ":11827,"ao4Ġer3Ġ":11828,"la1ĠdeĠ":11829,"ming2Ġdan1Ġ":11830,"zhan4Ġtai2Ġ":11831,"guo2Ġshi4Ġ":11832,"hu1Ġyu4Ġ":11833,"kou4Ġ":11834,"Ġgong1Ġying4Ġ":11835,"xuan3Ġju3Ġzhong1Ġ":11836,"Ġkao3Ġ":11837,"Ġyi1Ġzhi2Ġ":11838,"guan1Ġfang1":11839,"jian4Ġzhu4":11840,"di1Ġqi4Ġ":11841,"jian1Ġren4Ġ":11842,"suo3Ġyou3ĠdeĠ":11843,"cai2Ġliao4":11844,"ĠĠĠzeng1Ġzu3Ġ":11845,"Ġjie1":11846,"sao1Ġ":11847,"nan2Ġzi":11848,"bo2Ġlin2Ġ":11849,"jing3Ġgao4Ġ":11850,"guang3Ġzhou1":11851,"Ġye4":11852,"la1Ġde2Ġ":11853,"shu1Ġchu1Ġ":11854,"Ġnian2Ġqing1Ġ":11855,"Ġgong1Ġneng2":11856,"ti3Ġyu4Ġchang3Ġ":11857,"Ġshun4":11858,"lan2Ġxi1Ġ":11859,"dun4ĠdeĠ":11860,"Ġqiu2ĠdeĠ":11861,"yin2Ġpai2Ġ":11862,"yao2Ġgun3":11863,"Ġyu3Ġqi2Ġ":11864,"yin3Ġru4Ġ":11865,"Ġer2Ġgai1Ġdi4ĠdeĠ":11866,"nuo2Ġwei1Ġ":11867,"guo2Ġwang2Ġ":11868,"qi1Ġzi3":11869,"lian2Ġjie1":11870,"zhao4Ġpian1Ġ":11871,"hai2Ġzai4Ġ":11872,"nu4Ġ":11873,"xu4Ġli4Ġya4":11874,"zao3Ġqi1ĠdeĠ":11875,"shi2Ġhe2Ġ":11876,"tu2ĠdeĠ":11877,"you1Ġxiu4":11878,"mou3Ġxie1":11879,"1937Ġnian2Ġ":11880,"Ġji4Ġlu4":11881,"Ġchu1Ġyan3Ġ":11882,"Ġbei4Ġer3":11883,"an1Ġzhuang1Ġ":11884,"zhi1Ġshi2Ġ":11885,"qiu2Ġhui4Ġ":11886,"1966Ġnian2Ġ":11887,"zhan4Ġdi4Ġ":11888,"zao1Ġyu4Ġ":11889,"Ġwei4Ġneng2":11890,"Ġjia1Ġting2":11891,"xia4Ġlai2Ġ":11892,"shen1Ġqing3":11893,"chuang4Ġzuo4ĠdeĠ":11894,"zhan4Ġshi2Ġ":11895,"niang2Ġ":11896,"Ġhe2Ġgu3Ġ":11897,"Ġcheng2ĠleĠ":11898,"Ġyi3Ġqian2Ġ":11899,"Ġji4Ġyi4Ġ":11900,"Ġke4Ġli4Ġ":11901,"gu3Ġla1Ġ":11902,"ĠĠĠ3":11903,"ceng2ĠdeĠ":11904,"mo4Ġer3Ġ":11905,"fa1Ġsheng1ĠdeĠ":11906,"Ġxiang1Ġtong2Ġ":11907,"Ġyi3Ġse4Ġlie4Ġ":11908,"Ġfou3":11909,"te4Ġli4Ġ":11910,"fei1Ġxing2":11911,"bian1Ġyuan2Ġ":11912,"Ġshi2Ġbao4Ġ":11913,"xing1Ġqi1":11914,"Ġqing3Ġ":11915,"qian2Ġhou4Ġ":11916,"zu3ĠdeĠ":11917,"shan1Ġdong1Ġsheng3Ġ":11918,"Ġzhao1Ġhe2Ġ":11919,"1946Ġnian2Ġ":11920,"zhong1Ġyang1Ġ":11921,"Ġdui4Ġci3Ġ":11922,"Ġzhi3Ġzai4Ġ":11923,"ĠĠĠgai4Ġyao4Ġ":11924,"hĠ":11925,"Ġwai4":11926,"Ġsong4":11927,"Ġ2006":11928,"san1Ġda4Ġ":11929,"ĠdeĠzhu3Ġyao4Ġ":11930,"Ġyuan2Ġyin1":11931,"shi1Ġqu4Ġ":11932,"tai4Ġkong1Ġ":11933,"Ġzi4Ġyou2":11934,"Ġcai2":11935,"Ġjun1Ġdi4Ġ":11936,"Ġsheng1Ġming2Ġ":11937,"Ġ2000Ġnian2Ġ":11938,"xia4Ġzai4Ġ":11939,"zha4Ġdan4Ġ":11940,"zhi2Ġsheng1Ġ":11941,"Ġguan3Ġ":11942,"wang3Ġshang4Ġ":11943,"ta3Ġer3Ġ":11944,"Ġdi4Ġzhen4Ġ":11945,"Ġshou3Ġci4Ġ":11946,"ling3Ġdao3ĠdeĠ":11947,"yan2Ġjiu1Ġsheng1Ġ":11948,"te4Ġer3Ġ":11949,"Ġxian4Ġyou3Ġ":11950,"Ġxian1Ġhou4Ġ":11951,"dui4Ġyuan2Ġ":11952,"wu1Ġsi1Ġ":11953,"hao3Ġping2Ġ":11954,"Ġzhong1Ġjian1Ġ":11955,"xia4Ġjiang4Ġ":11956,"pu3Ġcha2Ġ":11957,"bao3ĠdeĠ":11958,"duo1Ġci4":11959,"zhai1Ġ":11960,"Ġji2Ġbing4Ġ":11961,"KĠ":11962,"tong2Ġming2Ġ":11963,"te4Ġyou3Ġ":11964,"bian1Ġwei4Ġ":11965,"bo2Ġjue2Ġ":11966,"Ġwei1Ġlian2Ġ":11967,"Ġtui1Ġ":11968,"ĠĠĠI":11969,"Ġxing2Ġbu4Ġ":11970,"fa1Ġdong4Ġji1Ġ":11971,"qin1Ġwang2Ġ":11972,"kuai4Ġsu4":11973,"cun2ĠdeĠ":11974,"1974Ġnian2Ġ":11975,"5Ġnian2Ġ":11976,"Ġguang3Ġdong1Ġ":11977,"qing2ĠdeĠ":11978,"Ġshi4Ġyi1Ġbu4Ġ":11979,"Ġxin1Ġzeng1Ġ":11980,"gai3Ġzhi4Ġwei4Ġ":11981,"hui2Ġgui1Ġ":11982,"ĠĠĠdi4Ġyi1Ġ":11983,"oĠ":11984,"gang3Ġyuan2Ġ":11985,"zhui4Ġ":11986,"Ġnian2Ġling2Ġ":11987,"fei4Ġyan2Ġ":11988,"Ġguo1":11989,"shi1Ġgong1Ġ":11990,"fen3Ġsi1Ġ":11991,"zhi3Ġkong4Ġ":11992,"2Ġge4Ġ":11993,"ĠĠĠ3Ġ":11994,"mi4ĠdeĠ":11995,"xun1Ġ":11996,"beng1Ġ":11997,"che1Ġliang4":11998,"dian4Ġshi4Ġtai2":11999,"zan4Ġting2Ġ":12000,"shen1Ġshi4Ġ":12001,"da2Ġzhou1Ġ":12002,"ying3Ġxiang4Ġ":12003,"Ġzhong4":12004,"1954Ġnian2Ġ":12005,"ĠdeĠhua4Ġ":12006,"fang1Ġmi3Ġ":12007,"Ġzi4Ġdong4Ġ":12008,"4Ġnian2Ġ":12009,"Ġmao2Ġ":12010,"ĠĠĠM":12011,"da4Ġqu1Ġ":12012,"sheng3Ġjie1Ġrang3Ġ":12013,"san1Ġren2Ġ":12014,"laĠ":12015,"te4Ġzheng1":12016,"Ġzui4Ġda4Ġ":12017,"GĠ":12018,"zhe3Ġhe2Ġ":12019,"Ġjie2Ġshu4Ġ":12020,"san1Ġge4":12021,"wu3Ġge4Ġ":12022,"Ġzhe4Ġyang4Ġ":12023,"Ġjin4Ġzhi3Ġ":12024,"rui4Ġdian3Ġ":12025,"Ġmai4Ġke4Ġ":12026,"Ġshui3":12027,"Ġbu4Ġyi1Ġ":12028,"Ġping2Ġlun4Ġ":12029,"zhan3Ġlan3Ġ":12030,"jing4Ġnei4Ġgong4Ġyou3Ġ":12031,"lu4Ġyi4Ġsi1Ġ":12032,"si4Ġshi4Ġ":12033,"tai4ĠdeĠ":12034,"Ġke3Ġneng2Ġ":12035,"Ġshan4Ġ":12036,"ĠĠĠjin1Ġ":12037,"Ġshe4Ġhui4Ġzhu3Ġyi4Ġ":12038,"Ġguang1":12039,"Ġlei4Ġ":12040,"ĠĠĠO":12041,"you2Ġxing2Ġ":12042,"zhe3Ġhui4Ġ":12043,"pei4Ġbei4Ġ":12044,"1955Ġnian2Ġ":12045,"Ġshi4Ġyi1Ġke1Ġ":12046,"Ġshuang1Ġfang1Ġ":12047,"Ġzai4Ġyi4Ġqi3Ġ":12048,"4Ġge4Ġ":12049,"shi3Ġyu2Ġ":12050,"fa3Ġyu3Ġ":12051,"la1Ġhe2Ġ":12052,"hui2Ġguo2Ġ":12053,"Ġbu4Ġlai2Ġ":12054,"Ġshi2Ġxing4Ġ":12055,"xin1Ġwen2":12056,"bao3Ġluo2Ġ":12057,"jing4Ġzheng1":12058,"Ġji2Ġhou4Ġ":12059,"lv4Ġse4Ġ":12060,"can1Ġshu4Ġ":12061,"Ġjiang1Ġsu1Ġ":12062,"wu2Ġxian4Ġdian4Ġshi4Ġ":12063,"sheng4Ġchu1Ġ":12064,"Ġdi4Ġzhi4Ġ":12065,"Ġzhi4Ġyi2Ġ":12066,"Ġji4Ġzai3":12067,"Ġxi1Ġer3Ġ":12068,"Ġdong4Ġwu4Ġ":12069,"ying4Ġji2Ġ":12070,"Ġbei4Ġpo4Ġ":12071,"du4Ġshi3Ġ":12072,"chan3Ġsheng1ĠleĠ":12073,"Ġqian1":12074,"ĠĠĠ2019Ġnian2Ġ":12075,"ma3Ġke4Ġsi1Ġ":12076,"dang1Ġnian2Ġ":12077,"onĠĠĠ":12078,"Ġguo2Ġjia1Ġdui4Ġ":12079,"tie3Ġlu4Ġche1Ġzhan4Ġ":12080,"huang1Ġ":12081,"fei4Ġyong4Ġ":12082,"ĠSĠ":12083,"Ġhu2Ġnan2Ġ":12084,"ku1Ġ":12085,"Ġgong1Ġqing3Ġ":12086,"Ġjia1Ġzu2":12087,"wang2Ġwei4Ġ":12088,"tui1Ġjian4Ġ":12089,"lian2Ġren4Ġ":12090,"lei4Ġxing2ĠdeĠ":12091,"si3Ġyu2Ġ":12092,"zhuo1Ġ":12093,"Ġta1Ġceng2Ġ":12094,"zhang3Ġzi3Ġ":12095,"bei3Ġfang1Ġ":12096,"Ġceng2Ġren4":12097,"Ġgong1Ġgong4":12098,"Ġda4Ġdao4":12099,"fu2Ġluo2Ġli3Ġ":12100,"nong2Ġcun1Ġ":12101,"Ġshi4Ġzhong1Ġhua2Ġren2Ġmin2Ġgong4Ġhe2Ġguo2Ġ":12102,"ying3Ġxiang3Ġli4Ġ":12103,"ĠĠĠofĠĠĠtheĠĠĠ":12104,"ĠdeĠzuo4Ġbiao1Ġwei4Ġ":12105,"Ġfu3Ġ":12106,"chong1Ġji1Ġ":12107,"sectionĠĠĠ":12108,"Ġshi4Ġhui4Ġ":12109,"qun2Ġdao3":12110,"Ġqiu1Ġ":12111,"Ġ2022Ġnian2Ġ":12112,"san1Ġji2Ġ":12113,"Ġzai4Ġxin1Ġ":12114,"te4Ġdian3Ġ":12115,"ĠĠĠjia1Ġting2Ġ":12116,"Ġshen3Ġ":12117,"lv4ĠdeĠ":12118,"Ġzai4Ġta1ĠdeĠ":12119,"chu1Ġqi1Ġ":12120,"fang2Ġwu1Ġ":12121,"she4Ġhui4":12122,"Ġnai3":12123,"ji2Ġbu4Ġ":12124,"sheng1Ġzhi4Ġ":12125,"te4Ġla1Ġ":12126,"qing1Ġchao2Ġ":12127,"jing4Ġnei4":12128,"gu4Ġding4Ġ":12129,"geng4Ġduo1ĠdeĠ":12130,"chuang4Ġzao4Ġ":12131,"ĠĠĠshi3Ġyong4Ġ":12132,"cong2Ġwei4Ġ":12133,"Ġyi1Ġren2Ġ":12134,"Ġdao4Ġhe2Ġ":12135,"fu4Ġjin4":12136,"fang1Ġxiang4":12137,"gao1Ġda2Ġ":12138,"Ġ200":12139,"ĠsectionĠĠĠ":12140,"zhong1Ġyang1":12141,"Ġshi2Ġzhi4Ġ":12142,"Ġdao4Ġyi1Ġ":12143,"qi4Ġxuan2Ġ":12144,"Ġchu3Ġ":12145,"xin1Ġshi4Ġ":12146,"ban1ĠdeĠ":12147,"zong4Ġ":12148,"ma1Ġ":12149,"tian1Ġran2Ġ":12150,"xuan3Ġchu1Ġ":12151,"esĠ":12152,"cai3Ġqu3":12153,"wan2Ġzheng3Ġ":12154,"Ġtie3Ġ":12155,"yi2Ġdao4Ġ":12156,"guan1Ġce4Ġ":12157,"Ġye3Ġbu4Ġ":12158,"qing1Ġshao4Ġnian2Ġ":12159,"Ġxu3Ġduo1":12160,"Ġshi4Ġji4ĠdeĠ":12161,"Ġyou3Ġda4Ġ":12162,"Ġ2024":12163,"Ġbao1Ġhan2Ġ":12164,"jia1Ġgong1Ġ":12165,"mi3ĠdeĠ":12166,"luo4Ġsi1Ġ":12167,"Ġshi4Ġyou2":12168,"mei3Ġguo2Ġren2Ġ":12169,"Ġzhi3Ġshi4Ġ":12170,"zhang4Ġfu1Ġ":12171,"Ġan4":12172,"xue2Ġbu4Ġ":12173,"Ġyou3Ġzhu4Ġ":12174,"fu4Ġjin4ĠdeĠ":12175,"yi4Ġbu4Ġ":12176,"guo2Ġhui4Ġ":12177,"xi1Ġbei3Ġbu4Ġ":12178,"Ġta1Ġren4Ġwei2Ġ":12179,"mu4Ġni2Ġ":12180,"Ġtong2Ġpai2Ġ":12181,"kuo4Ġzhan3":12182,"ĠĠĠD":12183,"si3Ġxing2Ġ":12184,"qing4Ġzhu4Ġ":12185,"ĠdeĠgu4Ġshi4Ġ":12186,"zhan4Ġling3":12187,"Ġtong2Ġyang4Ġ":12188,"ĠĠĠgen1Ġju4Ġ2020Ġnian2Ġmei3Ġguo2Ġren2Ġkou3Ġpu3Ġcha2ĠdeĠshu4Ġju4Ġ":12189,"Ġdeng1Ġ":12190,"zui4Ġwei4Ġ":12191,"guo2Ġli4Ġ":12192,"na4Ġcui4":12193,"qu3Ġxiao1":12194,"huang2Ġse4Ġ":12195,"zeng1Ġjia1ĠleĠ":12196,"bing4Ġwei4Ġ":12197,"guo4Ġyu2Ġ":12198,"fen1Ġpei4Ġ":12199,"shang4Ġhai3Ġshi4Ġ":12200,"ĠĠĠRe":12201,"quan2ĠdeĠ":12202,"hai3Ġshang4Ġ":12203,"zong3Ġhui4Ġ":12204,"hui2Ġhe2Ġ":12205,"lao3Ġshi1Ġ":12206,"neĠ":12207,"Ġzai4Ġta1Ġ":12208,"Ġyi1Ġzhi4Ġ":12209,"Ġchu1Ġfa1Ġ":12210,"se4Ġfu1Ġ":12211,"xiang1Ġji4Ġ":12212,"si4Ġda4Ġ":12213,"qie4Ġer3Ġ":12214,"40Ġ":12215,"jing1Ġji4":12216,"lian2Ġjie2Ġ":12217,"Ġku4":12218,"deng3ĠdeĠ":12219,"fang2Ġwei4Ġ":12220,"zhou2Ġ":12221,"Ġ2003Ġnian2Ġ":12222,"reng2Ġzai4Ġ":12223,"1947Ġnian2Ġ":12224,"Ġli4Ġshu3Ġ":12225,"Ġbing4Ġru4Ġ":12226,"xing4Ġshi4Ġ":12227,"dui4Ġshou3Ġ":12228,"zhuan1Ġmen2Ġ":12229,"ĠdeĠji4Ġlu4Ġ":12230,"ai4ĠdeĠ":12231,"Ġji2Ġxing2Ġzheng4Ġ":12232,"Ġli4ĠziĠ":12233,"Ġye3Ġhui4Ġ":12234,"ban1Ġjiang3Ġ":12235,"shou4Ġquan2Ġ":12236,"pian4ĠdeĠ":12237,"lai2Ġzi4Ġyu2Ġ":12238,"Ġbai2":12239,"fu2Ġli3Ġ":12240,"tie1Ġ":12241,"Ġxiang1Ġdui4Ġ":12242,"jiang3Ġshu4Ġ":12243,"zhao4Ġkai1":12244,"Ġa1Ġla1Ġ":12245,"Ġ000Ġren2Ġ":12246,"zĠ":12247,"1973Ġnian2Ġ":12248,"1971Ġnian2Ġ":12249,"yi1Ġxie1Ġ":12250,"Ġyi3Ġzhi4Ġ":12251,"zhi2Ġye4":12252,"hai3Ġba2Ġgao1Ġ":12253,"xie2Ġding4Ġ":12254,"Ġtuan2Ġ":12255,"anĠ":12256,"ou3Ġ":12257,"fang4Ġqi4":12258,"cun2Ġzai4ĠdeĠ":12259,"ĠĠĠN":12260,"zhuang4Ġji1Ġ":12261,"Ġnian2Ġqian2Ġ":12262,"Ġjian4Ġkang1Ġ":12263,"Ġdou1":12264,"he2Ġwei4Ġ":12265,"sheng3Ġdao4Ġ":12266,"lao2Ġgong1Ġ":12267,"hantĠ":12268,"xi1Ġnan2Ġbu4Ġ":12269,"Ġke4Ġyun4Ġ":12270,"ma3Ġla1Ġ":12271,"gai3Ġge2":12272,"can1Ġsai4":12273,"nan2Ġji2Ġzhou1ĠdeĠ":12274,"fu4Ġjia1Ġ":12275,"dan1Ġyuan2Ġ":12276,"wu3Ġqi4":12277,"lei4Ġsi4ĠdeĠ":12278,"EĠ":12279,"ĠhantĠ":12280,"mei3Ġjun1Ġ":12281,"ba1Ġer3Ġ":12282,"chuang4Ġxin1Ġ":12283,"qiao3Ġ":12284,"Ġyou3Ġguan1":12285,"zheng4Ġxie2Ġ":12286,"Ġta1Ġdui4Ġ":12287,"shan1Ġmai4Ġ":12288,"xiao1Ġliang4Ġ":12289,"Ġsi4Ġchuan1Ġ":12290,"hong1Ġzha4Ġji1Ġ":12291,"ĠĠĠran2Ġer2Ġ":12292,"chang2Ġjian4Ġ":12293,"chuan2Ġzhi1Ġ":12294,"lou4Ġ":12295,"Ġzhi1Ġzhan4Ġ":12296,"xing4Ġneng2Ġ":12297,"sha1Ġsi3Ġ":12298,"Ġxiao3Ġshuo1Ġ":12299,"yi1Ġbu4Ġfen4":12300,"fei1Ġzhou1":12301,"tuo2Ġ":12302,"1977Ġnian2Ġ":12303,"Ġxian4Ġzhi1Ġxian4Ġ":12304,"shou3Ġbo1Ġ":12305,"fa1Ġsheng1ĠleĠ":12306,"Ġxi4Ġtong3":12307,"shu3ĠdeĠzhi2Ġwu4Ġ":12308,"Ġe2":12309,"Ġche1Ġzhan4":12310,"ĠĠĠdan4":12311,"zhi2Ġzhi4Ġ":12312,"dian4ĠdeĠ":12313,"yao4ĠdeĠ":12314,"yan2Ġzhong4ĠdeĠ":12315,"Ġling4Ġwai4":12316,"li3Ġbu4Ġ":12317,"mi4Ġsi1Ġ":12318,"Ġjian4Ġshi4Ġ":12319,"suo3Ġshu3":12320,"tou2Ġbu4Ġ":12321,"Ġyou2Ġci3Ġ":12322,"zu3Ġzhi3Ġ":12323,"Ġdong1Ġjing1Ġ":12324,"yun4Ġdong4ĠdeĠ":12325,"Ġbao4":12326,"xi1Ġshi4Ġ":12327,"jian1Ġshi4Ġ":12328,"dui4Ġwu3Ġ":12329,"zhu3Ġxi2":12330,"jiang1Ġta1Ġ":12331,"na4Ġde2Ġ":12332,"quan3Ġ":12333,"jiang4Ġdi1":12334,"Ġshi4Ġyi4Ġda4Ġli4Ġ":12335,"hui4Ġyi3Ġ":12336,"Ġling3Ġ":12337,"hei1Ġren2Ġ":12338,"ni4Ġ":12339,"ji1Ġben3Ġ":12340,"Ġzhi1Ġliu2Ġ":12341,"Ġshe4Ġji4ĠdeĠ":12342,"shuai4Ġling3Ġ":12343,"tu3Ġer3Ġqi2":12344,"2Ġren2Ġ":12345,"hui4Ġshi4Ġdi4Ġ":12346,"huan2Ġxing2Ġ":12347,"Ġzai4Ġyu3Ġ":12348,"Ġgong1Ġlu4":12349,"Ġde2Ġdao4ĠleĠ":12350,"Ġliang3Ġge4Ġ":12351,"Ġxu1Ġyao4Ġ":12352,"bu4Ġfen4Ġ":12353,"bang1Ġzhu4":12354,"Ġma3Ġli4Ġ":12355,"na2Ġpo4Ġ":12356,"ĠĠĠaĠĠĠ":12357,"zheng3Ġge4":12358,"xiang1Ġbi3Ġ":12359,"can1Ġting1Ġ":12360,"Ġshi4Ġyi1Ġzuo4Ġ":12361,"zhou1Ġbian1Ġ":12362,"Ġshi4Ġjie4Ġbei1Ġ":12363,"xia4Ġxia2Ġyi3Ġxia4":12364,"Ġxian4Ġjin1Ġ":12365,"hang2Ġtian1Ġ":12366,"ĠĠĠ3Ġyue4Ġ":12367,"zhang3Ġda4Ġ":12368,"luo2Ġde2Ġ":12369,"alĠ":12370,"Ġda4Ġliang4":12371,"shuang1Ġda3Ġ":12372,"Ġguan1Ġfang1Ġ":12373,"shang4Ġbu4Ġ":12374,"zi4Ġwei4Ġ":12375,"wa1Ġ":12376,"yi2Ġchan3":12377,"yan2Ġshi2Ġ":12378,"Ġli4Ġyong4":12379,"Ġxing2Ġshi3Ġ":12380,"Ġlv3":12381,"Ġhuan2Ġ":12382,"ĠĠĠL":12383,"100Ġ":12384,"zong3Ġcai2Ġ":12385,"ge2Ġer3Ġ":12386,"la4Ġ":12387,"Ġnan2ĠziĠ":12388,"Ġsheng1Ġzhang3Ġyu2Ġ":12389,"Ġqin2Ġ":12390,"ĠĠĠ2007":12391,"zhi3ĠdeĠ":12392,"Ġgong1Ġchi3":12393,"Ġqiu2Ġhui4Ġ":12394,"chuan2Ġmei2Ġ":12395,"hai3Ġba2Ġgao1Ġdu4Ġwei4Ġ":12396,"ĠĠĠ2018Ġnian2Ġ":12397,"ji4Ġzai4Ġ":12398,"xin1Ġren2Ġ":12399,"ben3Ġxian4Ġ":12400,"ci3Ġshi2Ġ":12401,"zhe3Ġwei4Ġ":12402,"nuo4Ġyi1Ġ":12403,"Ġhe2Ġli3Ġ":12404,"Ġji2Ġlin2Ġ":12405,"xiang1Ġtong2ĠdeĠ":12406,"Ġzhong1Ġguo2Ġguo2Ġmin2Ġ":12407,"Ġzhuan1Ġji2Ġ":12408,"Ġzhe4Ġshou3Ġ":12409,"ying1Ġgai1":12410,"guang1Ġxu4Ġ":12411,"Ġhan2":12412,"wu3Ġyue4Ġ":12413,"dan1Ġyi1Ġ":12414,"ying1Ġli3Ġ":12415,"bie2ĠdeĠ":12416,"you2Ġtai4Ġren2Ġ":12417,"ya4Ġmu4Ġ":12418,"ĠdeĠcheng2Ġzhen4Ġ":12419,"la1Ġer3Ġ":12420,"xun2Ġqiu2Ġ":12421,"Ġbu4Ġer3Ġ":12422,"Ġxing2Ġxiang4Ġ":12423,"Ġwei2Ġchi2Ġ":12424,"yin3Ġzhong3Ġ":12425,"Ġbao1Ġ":12426,"bu2Ġyao4Ġ":12427,"Ġjiang1Ġqi2Ġ":12428,"1Ġge4Ġ":12429,"shang1ĠdeĠ":12430,"cong1Ġ":12431,"Ġbu4Ġdi2Ġ":12432,"Ġyu2Ġlei4Ġ":12433,"ĠĠĠ5Ġyue4Ġ":12434,"28Ġ":12435,"Ġzai4Ġgai1Ġ":12436,"Ġguo2Ġmin2":12437,"ying2Ġye4Ġ":12438,"di3Ġkang4Ġ":12439,"wei3Ġfu4Ġshu1Ġji4Ġ":12440,"e2Ġwei4Ġ":12441,"wu3Ġdi4Ġ":12442,"si1Ġlan2Ġ":12443,"Ġke4Ġla1Ġ":12444,"qian1Ġyue1Ġ":12445,"Ġjiao4Ġyu4":12446,"can1Ġyu4ĠleĠ":12447,"Ġyou1Ġ":12448,"zhi2Ġyuan2Ġ":12449,"1962Ġnian2Ġ":12450,"Ġyi1Ġci2Ġ":12451,"Ġyi1Ġliao2Ġ":12452,"Ġliu2Ġyu4Ġ":12453,"Ġ000Ġ":12454,"Ġwei4Ġci3Ġ":12455,"Ġhe2Ġji2Ġ":12456,"Ġqi2Ġzhong1Ġnan2Ġxing4Ġ":12457,"ĠĠĠJ":12458,"jiao4Ġyu2Ġ":12459,"ge1ĠdeĠ":12460,"huai2Ġyi2Ġ":12461,"Ġdi4Ġmian4Ġ":12462,"ti3Ġyu4":12463,"mei3Ġyuan2ĠdeĠ":12464,"ceng2Ġshui3Ġyu4Ġ":12465,"rong2Ġna4Ġ":12466,"Ġjie2Ġgou4Ġ":12467,"gu3Ġfen4Ġyou3Ġxian4Ġgong1Ġsi1Ġ":12468,"zhuan4ĠdeĠxiao3Ġxing2Ġxing1Ġ":12469,"ĠĠĠping2Ġjia4Ġ":12470,"Ġhou4Ġqi1Ġ":12471,"Ġke4Ġlai2Ġ":12472,"jie1Ġren4Ġ":12473,"zhi3Ġding4Ġ":12474,"xiao4Ġying4Ġ":12475,"qian1Ġding4Ġ":12476,"enĠ":12477,"ĠĠĠIn":12478,"you2Ġqi2Ġ":12479,"liang2Ġshi2Ġ":12480,"Ġshi4Ġnei4Ġ":12481,"yue4Ġnan2Ġ":12482,"Ġdi4Ġ1Ġ":12483,"jing4Ġsai4Ġ":12484,"ĠdeĠdi4Ġer4":12485,"mo4Ġsi1Ġke1Ġ":12486,"Ġxu3Ġ":12487,"you2Ġren2Ġgong1Ġ":12488,"zhang3Ġwei4Ġ":12489,"ge1Ġju4Ġ":12490,"Ġshi4Ġxi1Ġ":12491,"Ġyi1Ġzhi1Ġ":12492,"Ġshe4Ġji1Ġ":12493,"Ġjian4Ġli4ĠleĠ":12494,"Ġji3Ġ":12495,"Ġwu1Ġke4Ġlan2Ġ":12496,"ĠĠĠchu2ĠleĠ":12497,"chao2ĠdeĠ":12498,"tui1Ġchu1ĠdeĠ":12499,"ruan3Ġti3Ġ":12500,"gan3Ġlan3":12501,"Ġsu2":12502,"men2ĠdeĠ":12503,"Ġshi2Ġyong4Ġ":12504,"tui1Ġguang3Ġ":12505,"ĠV":12506,"zhong1Ġxin1Ġ":12507,"Ġqing3":12508,"Ġcheng2Ġshi4Ġ":12509,"shu4Ġshi4Ġ":12510,"Ġjian4Ġwei4Ġ":12511,"ba1Ġla1Ġ":12512,"Ġchao2Ġxian1Ġ":12513,"Ġer3Ġde2":12514,"shuo4Ġshi4Ġxue2Ġwei4Ġ":12515,"hua2Ġsheng4Ġdun4":12516,"yun4Ġhe2Ġ":12517,"yang2Ġxian4Ġ":12518,"wei2Ġzhi3Ġ":12519,"cai3Ġfang3":12520,"Ġtong1Ġguo4":12521,"zhi1Ġyuan2Ġ":12522,"ge4Ġdi4Ġ":12523,"bian1Ġhao4Ġwei4Ġ":12524,"teĠ":12525,"Ġzhi4Ġzao4":12526,"Ġyi1Ġtiao2Ġ":12527,"kai1Ġzhan3Ġ":12528,"fa3Ġting2Ġ":12529,"Ġqiu2Ġchang3Ġ":12530,"qun2Ġti3Ġ":12531,"leĠyi1Ġxie1Ġ":12532,"Ġgong1Ġcheng2Ġshi1Ġ":12533,"Ġwan2Ġcheng2Ġ":12534,"wu4Ġzhong1Ġ":12535,"li2Ġmi3Ġ":12536,"meng2Ġjun1Ġ":12537,"1938Ġnian2Ġ":12538,"luo2Ġbo2Ġte4Ġ":12539,"zong3Ġjian1Ġ":12540,"Ġzai4Ġdi4Ġer4Ġ":12541,"ping2Ġjun1Ġhai3Ġba2Ġgao1Ġdu4Ġwei4Ġ":12542,"Ġman3":12543,"Ġ11Ġ":12544,"ĠĠĠjing1Ġji4Ġ":12545,"zhi2Ġli4Ġ":12546,"Ġwei4Ġming2Ġ":12547,"Ġwei4Ġyu2Ġzhong1Ġhua2Ġren2Ġmin2Ġgong4Ġhe2Ġguo2Ġ":12548,"li2ĠziĠ":12549,"Ġren2Ġmin2Ġbi4Ġ":12550,"du1Ġdu1Ġ":12551,"Ġwu1":12552,"Ġxi1Ġyin3Ġ":12553,"jian3Ġdan1Ġ":12554,"deng1Ġchang2Ġ":12555,"yang2Ġgong1Ġ":12556,"gong1Ġkai1Ġ":12557,"Ġyou3Ġli4Ġ":12558,"Ġta1Ġye3":12559,"ben3Ġtu3Ġ":12560,"Ġer2Ġgai1Ġdi4ĠdeĠping2Ġjun1Ġhai3Ġba2Ġgao1Ġdu4Ġwei4Ġ":12561,"Ġpai2Ġ":12562,"Ġ9Ġ":12563,"a1Ġer3":12564,"shi1Ġren2Ġ":12565,"feng1ĠdeĠ":12566,"ni2Ġxi1Ġya4Ġ":12567,"cu4Ġjin4":12568,"han3Ġmo4":12569,"1939Ġnian2Ġ":12570,"Ġzai4Ġri4Ġben3Ġ":12571,"lu4Ġzhan4Ġ":12572,"jie1Ġshou1Ġ":12573,"ĠĠĠtian1Ġ":12574,"li4Ġzhong1Ġ":12575,"2010Ġnian2Ġmei3Ġguo2Ġren2Ġkou3Ġpu3Ġcha2ĠdeĠshu4Ġju4Ġ":12576,"Ġpai4Ġ":12577,"ji1Ġshi4Ġ":12578,"chu1Ġdao4Ġ":12579,"yan3Ġchu1":12580,"ying4Ġdui4Ġ":12581,"1965Ġnian2Ġ":12582,"xue2Ġxi2":12583,"Ġzhi1Ġqian2":12584,"fa3Ġlan2Ġ":12585,"mian4Ġlin2Ġ":12586,"yin3Ġzhong3Ġzai1Ġpei2Ġ":12587,"Ġsa4":12588,"Ġyun2Ġnan2Ġ":12589,"qi3ĠleĠ":12590,"lie4Ġshi4Ġ":12591,"zu2Ġqiu2Ġdui4Ġ":12592,"Ġda4Ġqiao2Ġ":12593,"huan4Ġzhe3Ġ":12594,"3Ġren2Ġ":12595,"chu1Ġren4Ġ":12596,"shuo1Ġshi4Ġ":12597,"kmĠ":12598,"Ġji2Ġshi3":12599,"ru4Ġqin1":12600,"sheng3Ġwei3Ġ":12601,"Ġxin1Ġzeng1":12602,"xun2Ġhuan2Ġ":12603,"Ġzhi3Ġchu1Ġ":12604,"shen3Ġcha2Ġ":12605,"fei1Ġlv4Ġbin1":12606,"ka3Ġluo2Ġlai2Ġ":12607,"Ġzheng3Ġ":12608,"Ġou1Ġzhou1Ġ":12609,"yuan2Ġdi4Ġ":12610,"shen1Ġshang4Ġ":12611,"pi3Ġ":12612,"Ġzai4Ġbei3Ġ":12613,"wei2Ġer3":12614,"Ġxi1Ġxi1Ġ":12615,"hen3Ġduo1":12616,"Ġshen4Ġ":12617,"ĠĠĠji4Ġ":12618,"zheng3Ġhe2Ġ":12619,"1936Ġnian2Ġ":12620,"ji1Ġbai3Ġ":12621,"Ġji1Ġyin1Ġ":12622,"dong4Ġhua4":12623,"zhang3Ġyue1Ġ":12624,"suo3Ġchu4ĠdeĠhai3Ġba2Ġwei4Ġgao1Ġyu2Ġhai3Ġping2Ġmian4Ġ":12625,"na4Ġxie1Ġ":12626,"chuan2Ġbo1":12627,"gang3Ġkou3Ġ":12628,"zhan3Ġkai1":12629,"xin1Ġjia1Ġpo1Ġ":12630,"you2Ġren2Ġgong1Ġyin3Ġzhong3Ġzai1Ġpei2Ġ":12631,"qing2Ġxing2Ġ":12632,"tai1Ġ":12633,"qing2Ġxu4Ġ":12634,"yong3Ġjiu3Ġ":12635,"re4Ġdai4Ġfeng1Ġbao4Ġ":12636,"Ġhe4":12637,"1959Ġnian2Ġ":12638,"tong1Ġxun4Ġ":12639,"ju1Ġmin2Ġdian3Ġ":12640,"1Ġren2Ġ":12641,"Ġji3":12642,"ji4Ġji2Ġ":12643,"Ġzhi1Ġfu3Ġ":12644,"Ġshe4Ġhui4":12645,"Ġzhu3Ġchi2Ġ":12646,"Ġhan4Ġzu2Ġ":12647,"ĠĠĠ2017Ġnian2Ġ":12648,"yu3Ġshi4Ġ":12649,"dong4Ġgong1Ġ":12650,"lu3Ġke4Ġ":12651,"Ġbu4Ġjia1Ġ":12652,"Ġyi3Ġshang4ĠdeĠ":12653,"Ġyu3Ġci3Ġtong2Ġshi2Ġ":12654,"mi3Ġya4Ġ":12655,"ce4Ġliang2":12656,"fen1Ġbie2Ġwei4Ġ":12657,"ĠĠĠTheĠĠĠ":12658,"si4Ġming2Ġ":12659,"bing1Ġbu4Ġ":12660,"ĠdeĠyi1Ġxie1Ġ":12661,"di3Ġda2":12662,"Ġsui2Ġzhe":12663,"Ġsu1Ġlian2Ġ":12664,"liao3Ġjie3":12665,"zhi3Ġyu2Ġ":12666,"ci4Ġwei4Ġ":12667,"guai4Ġ":12668,"gong3Ġ":12669,"1935Ġnian2Ġ":12670,"zu3Ġcheng2":12671,"gao4Ġsu4Ġ":12672,"fa1Ġzhan3ĠdeĠ":12673,"yi3Ġhou4Ġ":12674,"dui4Ġhe2Ġ":12675,"boĠ":12676,"ge2Ġli4Ġ":12677,"deng1Ġji4Ġ":12678,"35Ġ":12679,"1967Ġnian2Ġ":12680,"Ġsi1Ġka3Ġ":12681,"Ġwei2Ġya4Ġ":12682,"jie4Ġshao4":12683,"Ġzhong1Ġguo2Ġda4Ġlu4ĠdeĠ":12684,"xia4Ġxia2Ġyi3Ġxia4Ġdi4Ġqu1Ġ":12685,"chu1Ġsheng1Ġ":12686,"yan3Ġsheng1Ġ":12687,"da4Ġshi3Ġ":12688,"Ġxi1Ġan1Ġ":12689,"ju4Ġqing2Ġ":12690,"fei1Ġfa3Ġ":12691,"Ġjiao4Ġshou4Ġ":12692,"chuang4Ġban4Ġ":12693,"HĠ":12694,"fĠ":12695,"bai2Ġzhi4Ġ":12696,"Ġzhi4Ġliao2":12697,"zhuang1Ġjia3":12698,"zhuang4Ġkuang4":12699,"Ġbi4Ġye4Ġyu2Ġ":12700,"Ġao4Ġda4Ġli4Ġ":12701,"xun2Ġyang2Ġjian4Ġ":12702,"liu2ĠdeĠ":12703,"hu4Ġbu4Ġ":12704,"mao1Ġ":12705,"shou3Ġxi2Ġ":12706,"wen2Ġhua4ĠdeĠ":12707,"mĠĠĠ":12708,"ĠĠĠ2016Ġnian2Ġ":12709,"kong1Ġjun1":12710,"shun4Ġshi2Ġ":12711,"Ġbu4Ġbian4Ġ":12712,"Ġchu1Ġxi2Ġ":12713,"wei1Ġxian3Ġ":12714,"Ġzhe4Ġbu4Ġ":12715,"Ġnian2Ġ7Ġyue4Ġ1Ġri4Ġ":12716,"wen4Ġti2ĠdeĠ":12717,"Ġjin4Ġshi4Ġchu1Ġshen1Ġ":12718,"Ġgai4Ġ":12719,"Ġzhi4Ġshao3":12720,"Ġxian4Ġru4Ġ":12721,"nan2Ġfang1Ġ":12722,"Ġbei4Ġqi2Ġ":12723,"Ġqi2Ġzhong1Ġnan2Ġ":12724,"mao2Ġze2Ġdong1Ġ":12725,"yĠĠĠ":12726,"ĠnĠ":12727,"ziĠhe2Ġ":12728,"da2Ġer3Ġ":12729,"lu3Ġshi4Ġ":12730,"han3Ġ":12731,"Ġbu4Ġzhi4Ġ":12732,"Ġdi4Ġsi1Ġ":12733,"zi1Ġsheng3Ġ":12734,"tu2Ġxiang4Ġ":12735,"pin2Ġlv4Ġ":12736,"Ġtang1":12737,"Ġãĥ¼":12738,"ĠĠĠ10Ġyue4Ġ":12739,"yu4Ġji4Ġ":12740,"Ġzhong1Ġzui4Ġ":12741,"Ġji4Ġnian4":12742,"gui1Ġfan4Ġ":12743,"pan4Ġjue2Ġ":12744,"gong4Ġchan3Ġzhu3Ġyi4Ġ":12745,"Ġyi3Ġse4Ġlie4":12746,"ĠĠĠbei3Ġ":12747,"duo1Ġge4":12748,"qu3Ġjia1Ġ":12749,"ju2Ġju2Ġzhang3Ġ":12750,"fan2Ġzhi2Ġ":12751,"liu3Ġ":12752,"gan1Ġsu4Ġ":12753,"Ġdan1Ġren4":12754,"zi4Ġxing2Ġche1Ġ":12755,"Ġ2005":12756,"miao2Ġhui4Ġ":12757,"HDĠĠĠ":12758,"Ġyi1Ġmei2Ġ":12759,"fen1Ġlei4":12760,"Ġping2Ġjia4Ġ":12761,"duo1Ġyang4Ġ":12762,"Ġnan2Ġbei3Ġ":12763,"fei1Ġli4Ġ":12764,"1963Ġnian2Ġ":12765,"Ġsi1Ġxiang3Ġ":12766,"yan2Ġzhong4":12767,"dang1Ġju2Ġ":12768,"Ġshi4Ġzhong1Ġxin1Ġ":12769,"shao4Ġjiang4Ġ":12770,"ĠĠĠling4Ġwai4Ġ":12771,"hou4Ġshi4Ġ":12772,"zhu4Ġdi4Ġ":12773,"yin3Ġshi2Ġ":12774,"1953Ġnian2Ġ":12775,"Ġshi4Ġwu1Ġke4Ġlan2":12776,"zhu3Ġchang3Ġ":12777,"an4Ġzhao4Ġ":12778,"Ġgong1Ġzuo4Ġshi4Ġ":12779,"can1Ġmou2Ġzhang3Ġ":12780,"Ġchun1Ġ":12781,"xiang4Ġxi1Ġ":12782,"er4Ġzhan4Ġ":12783,"Ġcheng2Ġshi4ĠdeĠ":12784,"Ġzhi1Ġji4Ġ":12785,"Ġda4Ġjia1Ġ":12786,"Ġming2Ġcheng1":12787,"Ġtong2Ġyi1Ġ":12788,"jiao1Ġhuan4Ġ":12789,"Ġhe2Ġbing4Ġwei4Ġ":12790,"ĠĠĠzhu4Ġ":12791,"yu3Ġyi3Ġ":12792,"ze2Ġyou3Ġ":12793,"luo4ĠdeĠ":12794,"ling2ĠdeĠ":12795,"ke1Ġfu1":12796,"gai3Ġshan4":12797,"dang1Ġxuan3":12798,"Ġgong1Ġkai1Ġsai4Ġ":12799,"hong1Ġzha4Ġ":12800,"Ġfen1Ġbie2Ġwei4Ġ":12801,"Ġnei4":12802,"zhe4Ġbu4Ġ":12803,"bao3Ġzheng4Ġ":12804,"xue1Ġ":12805,"Ġyu2Ġdi4Ġ":12806,"ru4Ġxuan3":12807,"shang1Ġwang2Ġ":12808,"bian1Ġjing4Ġ":12809,"ai1Ġna4Ġ":12810,"ci4Ġda4Ġ":12811,"shen1Ġzhen4":12812,"chu1Ġsheng1Ġyu2Ġ":12813,"ĠĠĠ4":12814,"Ġdi4Ġguo2ĠdeĠ":12815,"bao4Ġzhi3Ġ":12816,"gai3Ġbian1Ġ":12817,"guang3Ġgao4":12818,"zeng1Ġqiang2Ġ":12819,"qun2ĠdeĠ":12820,"Ġzai4Ġji1Ġ":12821,"Ġjian4Ġhe2Ġ":12822,"bao3Ġcun2Ġ":12823,"ji1Ġbu4Ġ":12824,"zhi1Ġming2Ġ":12825,"ru4ĠdeĠ":12826,"chuan4Ġ":12827,"guo2Ġnei4Ġ":12828,"Ġgong1Ġzhan4Ġ":12829,"Ġyi3Ġnan2Ġ":12830,"xian4Ġfa3Ġ":12831,"zi3Ġnv3Ġ":12832,"wu2Ġren2Ġji1Ġ":12833,"Ġchu4Ġ":12834,"1941Ġnian2Ġ":12835,"Ġxing2Ġcheng2ĠdeĠ":12836,"qu1Ġfen1Ġ":12837,"ba1Ġfa2":12838,"ban4Ġyan3Ġ":12839,"Ġ15Ġ":12840,"Ġbu3Ġ":12841,"Ġre4Ġ":12842,"Ġ1998Ġnian2Ġ":12843,"ci3Ġzhi1Ġwai4Ġ":12844,"si1Ġxiang3Ġ":12845,"Ġda4Ġshi1Ġ":12846,"Ġchu1Ġxian4ĠleĠ":12847,"miao2Ġshu4":12848,"ĠdeĠming2Ġzi4Ġ":12849,"Ġgai3Ġwei2Ġ":12850,"1969Ġnian2Ġ":12851,"Ġdan4Ġyin1Ġ":12852,"sha1Ġhai4Ġ":12853,"Ġxia2Ġ":12854,"xia4ĠdeĠyi2Ġge4Ġ":12855,"huo4Ġshi4Ġ":12856,"wai4Ġwei2Ġ":12857,"chui2Ġ":12858,"Ġda4Ġzhong4Ġ":12859,"shou4Ġhai4Ġ":12860,"Ġfen1Ġbie2Ġshi4Ġ":12861,"zhi3Ġhui1Ġguan1Ġ":12862,"YĠ":12863,"wen2Ġzhong1Ġ":12864,"bo1Ġer3Ġ":12865,"Ġyue4Ġtai2":12866,"Ġnan2Ġjing1Ġ":12867,"bing4Ġmei2Ġyou3Ġ":12868,"jiao4Ġyu4Ġbu4Ġ":12869,"vĠ":12870,"gong4Ġshi2Ġ":12871,"bai3Ġnian2Ġ":12872,"Ġwei4Ġyou2Ġ":12873,"mian4Ġti3Ġ":12874,"ying1Ġguo2ĠdeĠ":12875,"cai2Ġwu4Ġ":12876,"yan2Ġjiu1Ġyuan4Ġ":12877,"fen1Ġzhi1Ġyi1Ġ":12878,"Ġyuan2Ġshi3Ġ":12879,"Ġer3Ġzai4Ġ":12880,"fa3Ġling4Ġ":12881,"jing3Ġguan1Ġ":12882,"Ġyan4Ġ":12883,"Ġpei2Ġ":12884,"Ġniu3Ġyue1":12885,"ĠĠĠ2006":12886,"nuo4Ġsi1Ġ":12887,"1980Ġnian2Ġdai4Ġ":12888,"Ġsheng1Ġzhang3Ġyu2Ġhai3Ġba2":12889,"Ġpian4Ġ":12890,"26Ġ":12891,"ĠdeĠxiao3Ġ":12892,"ma3Ġtou2Ġ":12893,"ban4Ġnian2Ġ":12894,"sheng4Ġdi4Ġ":12895,"Ġdao4Ġshi4Ġ":12896,"Ġda4Ġxing2":12897,"jing1Ġying2":12898,"zhan3Ġlan3":12899,"Ġmi3ĠdeĠdi4Ġqu1Ġ":12900,"gao1Ġyuan2Ġ":12901,"cheng1Ġhao4Ġ":12902,"ceng2Ġshi4Ġ":12903,"tao2Ġyuan2Ġ":12904,"Ġzai4Ġying1Ġguo2Ġ":12905,"hou4Ġlai2Ġ":12906,"Ġzhe4Ġyang4ĠdeĠ":12907,"Ġning2Ġ":12908,"dian3Ġwei4Ġ":12909,"Ġwei4Ġbei4Ġ":12910,"Ġhe2Ġfa3Ġ":12911,"Ġyi4Ġsi":12912,"Ġping2Ġlun4":12913,"Ġshang4Ġshu1Ġ":12914,"hang2Ġye4Ġ":12915,"pan4Ġluan4Ġ":12916,"Ġxin1Ġjia1Ġ":12917,"Ġ1990":12918,"ma3ĠdeĠ":12919,"qing2Ġjie2Ġ":12920,"Ġmu4Ġqian2Ġshang4Ġwei4Ġ":12921,"Ġ2000":12922,"Ġkong1Ġ":12923,"Ġyao2Ġ":12924,"tu1Ġchu1Ġ":12925,"Ġdao4Ġbu4Ġ":12926,"ping2Ġmin2Ġ":12927,"guan1Ġfei4Ġyan2Ġ":12928,"Ġzuo4Ġchu1":12929,"Ġyi4Ġming2Ġ":12930,"Ġyi3Ġshi4Ġ":12931,"Ġxian4ĠdeĠyi2Ġge4Ġfei1Ġjian4Ġzhi4Ġdi4Ġqu1Ġ":12932,"ai4Ġguo2Ġ":12933,"Ġyi4Ġji2Ġ":12934,"fang2Ġzhi3Ġ":12935,"dou4Ġzheng1Ġ":12936,"wu4Ġzhong3ĠdeĠ":12937,"shang4Ġyi1Ġ":12938,"luo2Ġji2Ġ":12939,"Ġhe2Ġta1ĠdeĠ":12940,"Ġyu3Ġda4Ġ":12941,"jing1Ġguo4":12942,"jiao4Ġshou4":12943,"Ġchao1":12944,"hong2Ġjun1Ġ":12945,"ka1Ġfei1Ġ":12946,"Ġren4Ġming4":12947,"tian1Ġhuang2Ġ":12948,"sai1Ġna4Ġ":12949,"lai2Ġsi1Ġ":12950,"hao3Ġyou3Ġ":12951,"Ġzhong1Ġgong4Ġzhong1Ġyang1":12952,"mian4Ġshi4Ġ":12953,"chou2Ġbei4Ġ":12954,"ling3Ġyu4":12955,"shi3Ġyong4ĠleĠ":12956,"yuan2Ġzhong1Ġ":12957,"Ġyuan2Ġze2Ġ":12958,"zuo4Ġchu1":12959,"dong1Ġni2Ġ":12960,"chang2Ġqi1":12961,"xiang3Ġfa3Ġ":12962,"pin3Ġpai2":12963,"ming4Ġling4":12964,"tian1Ġjia1Ġ":12965,"ni2ĠdeĠ":12966,"Ġzhi1Ġchu4Ġ":12967,"dai4Ġlai2Ġ":12968,"Ġdang1Ġxuan3":12969,"Ġzhu3":12970,"Ġmin2":12971,"Ġniu2Ġ":12972,"fu2Ġer3Ġ":12973,"ding4Ġzai4Ġ":12974,"hang2Ġxian4Ġ":12975,"Ġji1Ġdu1Ġjiao4Ġ":12976,"Ġtong2Ġri4Ġ":12977,"Ġxing2Ġzheng4Ġzhen4Ġqu1Ġ":12978,"ĠĠĠ2021Ġnian2Ġ":12979,"heng1Ġ":12980,"ĠdeĠli3Ġ":12981,"ĠdeĠxi1Ġ":12982,"Ġshi4Ġnan2Ġji2Ġzhou1ĠdeĠ":12983,"Ġwei4Ġqi2Ġ":12984,"Ġhe2Ġdao4":12985,"Ġwei2":12986,"Ġtun2":12987,"Ġ1999Ġnian2Ġ":12988,"ĠĠĠsui2Ġ":12989,"1961Ġnian2Ġ":12990,"Ġshi2Ġdai4ĠdeĠ":12991,"Ġzuo4Ġbiao1Ġwei4Ġ":12992,"xing4Ġbie2Ġ":12993,"chang2Ġjiang1Ġ":12994,"Ġzui4Ġchu1":12995,"ĠĠĠ6Ġ":12996,"Ġbu4Ġde2Ġ":12997,"li4Ġyong4Ġ":12998,"qi4Ġti3Ġ":12999,"chan3Ġye4":13000,"Ġdi4Ġer4Ġci4Ġ":13001,"ao4Ġsi1Ġka3Ġ":13002,"Ġxiong2Ġ":13003,"Ġ20Ġ":13004,"ĠĠĠzhan4Ġ":13005,"hui4Ġji2Ġ":13006,"zuo4Ġzhong1Ġ":13007,"pin3Ġzhi4Ġ":13008,"bin1Ġshi4Ġ":13009,"Ġgong1Ġjin1Ġ":13010,"shi1Ġbai4":13011,"fu2Ġhao4Ġ":13012,"ĠĠĠer2":13013,"ĠĠĠzhu3Ġyao4Ġ":13014,"ge1Ġer3Ġ":13015,"29Ġ":13016,"cheng1Ġwei2":13017,"she4Ġhui4Ġzhu3Ġyi4Ġ":13018,"dang4Ġan4Ġ":13019,"ying2Ġde2ĠleĠ":13020,"Ġshou4Ġdao4Ġ":13021,"1957Ġnian2Ġ":13022,"Ġgong1Ġzuo4ĠdeĠ":13023,"Ġyu3Ġzhou4":13024,"chang3Ġjing3Ġ":13025,"Ġzhe4Ġci4Ġ":13026,"Ġnian2Ġ12Ġyue4Ġ31Ġri4Ġ":13027,"Ġceng2Ġzai4Ġ":13028,"zhan4Ġzhi4Ġ":13029,"zhan4Ġji4Ġ":13030,"wu3Ġming2Ġ":13031,"chang3Ġshang4Ġ":13032,"di3Ġzhi4Ġ":13033,"1944Ġnian2Ġ":13034,"xiu1Ġgai3":13035,"Ġsan1Ġshi2Ġ":13036,"niao3Ġlei4Ġ":13037,"lei4Ġsi4Ġyu2Ġ":13038,"Ġfa1":13039,"dong1Ġxian4Ġ":13040,"jie1Ġjin4":13041,"Ġbu4Ġer3":13042,"Ġzhi4Ġding4Ġ":13043,"shang1Ġdian4Ġ":13044,"jing1Ġji4Ġxue2Ġ":13045,"Ġdun1Ġ":13046,"ĠĠĠdui4Ġyu2Ġ":13047,"zhong1Ġshi4Ġji4Ġ":13048,"yu4Ġdao4Ġ":13049,"dong4Ġyuan2Ġ":13050,"kuo4Ġzhang1Ġ":13051,"nan4Ġmin2Ġ":13052,"Ġming2Ġzi4Ġ":13053,"jie1Ġchu4":13054,"ren2Ġmin2Ġdai4Ġbiao3Ġda4Ġhui4Ġ":13055,"fen1Ġcheng2Ġ":13056,"Ġji1Ġxie4Ġ":13057,"yan2Ġjiu1Ġsuo3":13058,"jiang1Ġsu1Ġsheng3Ġ":13059,"fu2Ġde2Ġ":13060,"yin3Ġli4Ġ":13061,"gua1Ġ":13062,"Ġxian4Ġdai4":13063,"lie4Ġru4":13064,"ĠĠĠke4Ġ":13065,"jiang3ĠdeĠ":13066,"Ġzhong1Ġshu1Ġ":13067,"Ġta1Ġshuo1Ġ":13068,"Ġ1Ġyue4Ġ":13069,"Ġxiong1Ġ":13070,"hou4Ġxuan3Ġren2Ġ":13071,"yan2Ġshen1Ġ":13072,"Ġdan4Ġbu4Ġ":13073,"Ġwei2Ġzhi3Ġ":13074,"gan3Ġran3":13075,"zhu1Ġlong2Ġ":13076,"Ġtai4Ġyang2Ġ":13077,"mu4Ġsi1Ġlin2Ġ":13078,"fang1Ġcheng2Ġ":13079,"che1Ġdao4Ġ":13080,"su1Ġli3Ġ":13081,"inĠ":13082,"zhong4Ġzhi2Ġ":13083,"geng4Ġduo1":13084,"hai4Ġe2":13085,"ĠDĠ":13086,"Ġjiao3Ġ":13087,"zu1Ġjie4Ġ":13088,"chen4Ġ":13089,"sheng1Ġming2Ġ":13090,"Ġjia1Ġjing4Ġ":13091,"ju4Ġfeng1Ġ":13092,"zhu4Ġce4Ġ":13093,"Ġyou2Ġyong3Ġ":13094,"deng3Ġzhi2Ġ":13095,"ban1Ġfa1Ġ":13096,"Ġbing4Ġqie3Ġzai4Ġ":13097,"ren2Ġwei4Ġ":13098,"dui4Ġyou3Ġ":13099,"ti3Ġxing2Ġ":13100,"ye1Ġsu1":13101,"Ġji1Ġchu3Ġ":13102,"Ġchu1Ġshen1Ġ":13103,"bao3Ġcun2":13104,"gong4Ġhe2Ġguo2ĠdeĠ":13105,"Ġwei4Ġfu2Ġqi2Ġyu2Ġgang1":13106,"dĠĠĠ":13107,"lang3Ġde2Ġ":13108,"Ġchu1Ġru4Ġkou3Ġ":13109,"yan2Ġjiu1Ġyuan2Ġ":13110,"Ġshi4Ġdi4Ġyi1Ġ":13111,"ĠJR":13112,"ai4Ġde2Ġhua2Ġ":13113,"xian4Ġshi2Ġ":13114,"qi3ĠdeĠ":13115,"ban1Ġbu4Ġ":13116,"hang2Ġzhou1Ġ":13117,"nu2Ġ":13118,"nv3Ġyan3Ġyuan2Ġ":13119,"kao3Ġgu3Ġ":13120,"mian4Ġji1Ġhe2Ġ":13121,"zui4Ġzao3ĠdeĠ":13122,"Ġwen1":13123,"shi3Ġzhong1Ġ":13124,"qi4Ġhe2Ġ":13125,"cheng1Ġzhi1Ġwei4Ġ":13126,"pai2Ġde2Ġzhu3Ġ":13127,"bing1Ġli4Ġ":13128,"Ġjia1Ġmeng2Ġ":13129,"jiao4Ġzuo4Ġ":13130,"fen1Ġqu1Ġ":13131,"tong1Ġxin4Ġ":13132,"zi1Ġzhu4Ġ":13133,"huo3Ġban4Ġ":13134,"che4Ġdi3Ġ":13135,"jin3Ġbiao1Ġsai4":13136,"gui1Ġmo2ĠdeĠ":13137,"cheng2Ġzai4Ġ":13138,"xi1Ġyuan2Ġ":13139,"quan2Ġxian4Ġ":13140,"bai4Ġzhan4Ġ":13141,"reng2Ġyou3Ġ":13142,"Ġcheng2Ġxu4":13143,"Ġjian4Ġyou3Ġ":13144,"shou3Ġduan4Ġ":13145,"ling3Ġxiu4":13146,"mian3Ġdian1Ġ":13147,"Ġtou4Ġguo4Ġ":13148,"quan2Ġqiu2":13149,"Ġzhong1Ġfa1Ġxian4Ġ":13150,"zu2Ġxie2Ġ":13151,"zu2Ġren2Ġ":13152,"zao1Ġshou4Ġ":13153,"shou3Ġfu3Ġ":13154,"ma3Ġlai2Ġ":13155,"Ġzhong1Ġguo2Ġgong4Ġchan3Ġdang3":13156,"4Ġren2Ġ":13157,"ju2Ġyu2Ġ":13158,"teĠĠĠ":13159,"Ġhe2Ġlan2":13160,"Ġgai1Ġdi4ĠdeĠ":13161,"Ġgong1Ġyuan2Ġqian2Ġ":13162,"Ġdi4Ġshi2Ġyi1Ġ":13163,"Ġqiu1":13164,"ĠĠĠfu2Ġ":13165,"ĠĠĠ2015Ġnian2Ġ":13166,"yi3Ġshang4Ġ":13167,"jiang1Ġshi4Ġ":13168,"han4Ġyu3Ġ":13169,"Ġwei4Ġzhong1Ġguo2Ġ":13170,"fen1Ġli2Ġ":13171,"Ġqiu2Ġyun4Ġdong4Ġyuan2Ġ":13172,"ai4Ġqing2Ġ":13173,"tui4Ġxiu1":13174,"Ġling4Ġyi4Ġfang1Ġmian4Ġ":13175,"Ġbu4Ġde2Ġbu4Ġ":13176,"Ġmu4Ġqian2Ġshang4Ġwei4Ġyou2Ġren2Ġgong1Ġyin3Ġzhong3Ġzai1Ġpei2Ġ":13177,"Ġbiao3Ġ":13178,"jian1Ġzhi4Ġ":13179,"hua2Ġda4Ġxue2Ġ":13180,"cai2Ġchan3Ġ":13181,"xie2Ġtiao2":13182,"wu4Ġli3Ġxue2Ġ":13183,"ĠĠĠ4Ġyue4Ġ":13184,"tou2ĠdeĠ":13185,"Ġzhe4Ġye3Ġshi4Ġ":13186,"bao4Ġzha4":13187,"jiao1Ġcha1Ġ":13188,"gan3Ġjue2Ġ":13189,"Ġfen1Ġwei2Ġ":13190,"nĠĠĠ":13191,"Ġyao1Ġqiu2":13192,"fen1Ġwei4Ġ":13193,"da2ĠdeĠ":13194,"wang3ĠdeĠ":13195,"mou2Ġsha1Ġ":13196,"1930Ġnian2Ġ":13197,"Ġzai4Ġgong1Ġ":13198,"Ġjian4Ġzao4":13199,"Ġyin1ĠdeĠ":13200,"dao3Ġyan3":13201,"Ġxi1Ġban1Ġya2Ġyu3Ġ":13202,"Ġfeng1":13203,"an4Ġzhong1Ġ":13204,"yuan2Ġshi2Ġ":13205,"lin2Ġsi1Ġ":13206,"xue2Ġsheng1":13207,"Ġsui2ĠzheĠ":13208,"ka3Ġluo2Ġlai2Ġna4":13209,"Ġ2025":13210,"fa3Ġshi4Ġ":13211,"jin1Ġri4Ġ":13212,"1951Ġnian2Ġ":13213,"Ġji2Ġyi1Ġ":13214,"Ġchu1Ġyi1Ġ":13215,"Ġren4Ġhe2Ġ":13216,"ji4Ġyu2Ġ":13217,"te4Ġhe2Ġ":13218,"rang4Ġta1Ġ":13219,"zhong1Ġbu4Ġ":13220,"Ġda4Ġyue1":13221,"sheng1Ġtai4Ġ":13222,"wei3Ġyuan2Ġhui4ĠdeĠ":13223,"Ġdang1Ġxuan3Ġ":13224,"Ġzhi4Ġzuo4Ġren2Ġ":13225,"xia4Ġxia2ĠdeĠyi2Ġge4Ġxiang1Ġ":13226,"nan2Ġsi1Ġla1Ġ":13227,"tai4Ġhou4Ġ":13228,"gan4Ġxian4Ġ":13229,"1931Ġnian2Ġ":13230,"Ġshi4Ġnan2Ġ":13231,"Ġyue4Ġtuan2":13232,"zu2Ġzi4Ġzhi4Ġ":13233,"Ġwen2Ġhua4":13234,"ziĠgong1Ġsi1Ġ":13235,"Ġyi4Ġdian3Ġ":13236,"dui4Ġwai4Ġ":13237,"Ġhui4Ġbei4Ġ":13238,"yan2Ġchang2":13239,"zhong4Ġdian3":13240,"shui3Ġku4Ġ":13241,"Ġma3Ġlai2Ġxi1Ġya4Ġ":13242,"te4Ġji2Ġ":13243,"Ġshi4Ġxiang1Ġgang3Ġ":13244,"qi3Ġsu4Ġ":13245,"shen1Ġzhen4Ġ":13246,"xu4Ġshu4Ġ":13247,"mu4Ġshi4Ġ":13248,"Ġzai4Ġnan2Ġ":13249,"Ġhe2Ġtong2Ġ":13250,"shang4Ġshu4Ġ":13251,"wu3Ġhan4":13252,"ti2Ġgong1ĠdeĠ":13253,"ĠĠĠge4Ġren2Ġsheng1Ġhuo2Ġ":13254,"Ġ45":13255,"Ġkang1Ġxi1Ġ":13256,"jin4Ġji2Ġ":13257,"1940Ġnian2Ġ":13258,"cu1Ġ":13259,"Ġshi4Ġge4Ġ":13260,"san1Ġci4Ġ":13261,"gai3Ġwei2":13262,"qian1Ġshu3":13263,"Ġna4Ġme":13264,"Ġha1Ġer3Ġ":13265,"Ġji4Ġsuan4Ġji1Ġ":13266,"Ġdi2":13267,"Ġta3":13268,"Ġgong1Ġbu4Ġ":13269,"ĠĠĠ7Ġyue4Ġ":13270,"zhan4Ġwei4Ġ":13271,"fu4Ġzhi4Ġ":13272,"ru4Ġwei2Ġ":13273,"qi4Ġren2Ġ":13274,"xie2Ġdai4Ġ":13275,"han4Ġzi4Ġ":13276,"wo4Ġer3Ġ":13277,"tan4Ġsuo3Ġ":13278,"seĠ":13279,"sao3Ġ":13280,"ren3Ġ":13281,"codiceĠ":13282,"Ġge4Ġzi4Ġ":13283,"ding4Ġqi1Ġ":13284,"bo1Ġfang4":13285,"miao2Ġshu4Ġwei4Ġ":13286,"Ġfan3Ġdui4Ġ":13287,"ĠĠĠV":13288,"ĠĠĠdong1Ġ":13289,"xiu1Ġsi1Ġ":13290,"IIĠ":13291,"Ġcheng2Ġbao3Ġ":13292,"Ġyuan2Ġyou3Ġ":13293,"dui4Ġxiang4Ġ":13294,"ĠdeĠji1Ġhui4Ġ":13295,"ĠU":13296,"ĠĠĠzhi4Ġzuo4Ġ":13297,"mei3Ġri4Ġ":13298,"Ġge4Ġda4Ġ":13299,"Ġke4Ġli3Ġsi1Ġ":13300,"dong4Ġche1Ġ":13301,"tai2Ġbi4Ġ":13302,"zhu3Ġchi2Ġren2Ġ":13303,"shu4Ġhe2Ġ":13304,"jue2ĠleĠ":13305,"Ġbu4Ġzheng4Ġ":13306,"Ġguo2Ġgong1Ġ":13307,"Ġli4Ġke4Ġ":13308,"Ġgong1Ġkai1":13309,"lu4Ġshang4Ġ":13310,"ban1Ġci4Ġ":13311,"mo4Ġsi1Ġke1":13312,"fu4Ġyou3Ġ":13313,"fu1Ġfu4Ġ":13314,"zhuang4Ġbing4Ġdu2":13315,"du3Ġ":13316,"min2Ġjin4Ġ":13317,"Ġci2":13318,"ĠĠĠxiang1Ġgang3Ġ":13319,"ĠĠĠ2020Ġnian2Ġ":13320,"qi2Ġshi4Ġ":13321,"shi1Ġhe2Ġ":13322,"na4Ġsi1Ġ":13323,"hang2Ġzhan4Ġ":13324,"zhuan3Ġwei2Ġ":13325,"tai2Ġwan1ĠdeĠ":13326,"pi1Ġping2":13327,"Ġpi2":13328,"Ġgu4Ġshi4Ġ":13329,"an1Ġren2Ġ":13330,"jing1ĠdeĠ":13331,"Ġzhong1Ġzhi3Ġ":13332,"zheng4Ġquan2Ġ":13333,"jian4Ġzao4Ġ":13334,"Ġãĥ¼Ġ":13335,"Ġdu4":13336,"ben1Ġ":13337,"Ġren2Ġbei4Ġ":13338,"Ġcheng2Ġwei2Ġyi1Ġ":13339,"qu1Ġjian1Ġ":13340,"Ġyou3Ġyi1Ġxie1Ġ":13341,"kuo4Ġzhan3Ġ":13342,"jiu4Ġdu2Ġyu2Ġ":13343,"ĠĠĠforĠĠĠ":13344,"ĠMa":13345,"bei4Ġshi4Ġ":13346,"shou3Ġbu4Ġ":13347,"dong1ĠdeĠ":13348,"ba1Ġnen4":13349,"Ġxiang1Ġdang1Ġ":13350,"fan4Ġwei2":13351,"Ġguo2Ġmin2Ġdang3Ġ":13352,"ĠĠĠ2014Ġnian2Ġ":13353,"ke1Ġer3Ġ":13354,"wu2Ġer3Ġ":13355,"Ġnian2Ġnian2Ġ":13356,"kai1Ġmu4Ġ":13357,"min2Ġzhu3":13358,"zhe4Ġzhong3":13359,"Ġzhan4Ġling3Ġ":13360,"tian1Ġtang2Ġ":13361,"yi2Ġmin2":13362,"jiang3Ġzui4Ġjia1Ġ":13363,"du2Ġte4ĠdeĠ":13364,"qiu2Ġdui4":13365,"zuo3Ġyou4":13366,"ĠĠĠla1Ġ":13367,"xian4Ġxiang4Ġ":13368,"Ġhui4Ġshang4Ġ":13369,"feng1Ġge2":13370,"tong2Ġyang4":13371,"huo2Ġdong4ĠdeĠ":13372,"yin4Ġxiang4Ġ":13373,"1933Ġnian2Ġ":13374,"Ġming2Ġxing1Ġ":13375,"ce4Ġlve4Ġ":13376,"Ġqian2Ġlong2Ġ":13377,"Ġhua1":13378,"Ġlu2":13379,"Ġshan3Ġxi1Ġ":13380,"ĠĠĠ2010Ġnian2Ġ":13381,"shu1Ġshi4Ġ":13382,"27Ġ":13383,"Ġzai4Ġyuan2Ġ":13384,"Ġdi4Ġ2Ġ":13385,"Ġri4Ġqi1Ġ":13386,"dian4Ġche1Ġ":13387,"nei4Ġmeng2Ġgu3Ġ":13388,"zhao4Ġpian1":13389,"xie2Ġshang1Ġ":13390,"Ġdi4Ġba1Ġ":13391,"Ġji2Ġyi3Ġ":13392,"Ġguo2Ġyu3Ġ":13393,"ling3Ġxian1Ġ":13394,"Ġcun1Ġ":13395,"Ġyan2Ġjiu1Ġ":13396,"Ġlao2Ġ":13397,"ĠĠĠ8Ġyue4Ġ":13398,"duo1Ġming2Ġ":13399,"pin3ĠdeĠ":13400,"1942Ġnian2Ġ":13401,"Ġzhou1Ġren2Ġ":13402,"fu3Ġzhu4Ġ":13403,"gui1Ġhua4":13404,"diĠ":13405,"jiu1Ġ":13406,"chuan1Ġyue4Ġ":13407,"Ġqi2Ġbing1Ġ":13408,"jin4Ġzhi3Ġ":13409,"Ġkai1Ġfa1Ġ":13410,"e4Ġer3Ġ":13411,"lu4Ġyu3Ġ":13412,"ju1Ġyu2Ġ":13413,"run4Ġ":13414,"da4Ġxue2":13415,"Ġri4Ġyi4Ġ":13416,"xi1Ġwang4Ġ":13417,"sheng1Ġming4Ġ":13418,"you2Ġtai4Ġ":13419,"xi4Ġlie4ĠdeĠ":13420,"te4Ġqu1Ġ":13421,"Ġbing4Ġbiao3Ġshi4Ġ":13422,"zui4Ġduo1ĠdeĠ":13423,"Ġhao2Ġ":13424,"jiao4Ġke1Ġ":13425,"Ġhe2Ġliu2Ġyu4Ġ":13426,"Ġnong2Ġ":13427,"ĠĠĠsui1Ġran2Ġ":13428,"cheng2Ġshi2Ġ":13429,"ge2Ġsi1Ġ":13430,"Ġshi4Ġyuan2Ġ":13431,"ju4Ġda4ĠdeĠ":13432,"bao3Ġzhang4":13433,"jie1Ġwei4Ġzhi1Ġ":13434,"Ġshi4Ġyi2Ġge4Ġwei4Ġyu2Ġmei3Ġguo2Ġ":13435,"mian4Ġji1Ġhe2Ġren2Ġkou3Ġ":13436,"Ġyuan3Ġ":13437,"fang1Ġwei4Ġ":13438,"ci3Ġshi4Ġ":13439,"Ġta1Ġjiang1Ġ":13440,"zong3Ġjing1Ġli3Ġ":13441,"ka3Ġla1Ġ":13442,"Ġtong2Ġshi2Ġye3Ġ":13443,"mi2Ġni3Ġ":13444,"Ġzhan4Ġdi4Ġ":13445,"xiang1ĠdeĠ":13446,"jia3Ġji1Ġ":13447,"1928Ġnian2Ġ":13448,"shang4Ġxia4Ġ":13449,"zhu4Ġzhai2":13450,"fen1Ġlan2Ġ":13451,"ban4Ġyan3":13452,"bian1Ġma3Ġ":13453,"ĠĠĠmu4Ġqian2Ġ":13454,"bo1Ġli4Ġ":13455,"nu2Ġli4Ġ":13456,"Ġchu1Ġren4":13457,"Ġjun1Ġguan1Ġ":13458,"ting2Ġkao4":13459,"huang2Ġjin1":13460,"Ġqi2Ġzhong1Ġyou3Ġ":13461,"Ġyin1Ġci3Ġzai4Ġ":13462,"hang2Ġkong1Ġgong1Ġsi1Ġ":13463,"Ġgai1Ġdi4ĠdeĠmian4Ġji1Ġhe2Ġren2Ġkou3Ġ":13464,"Ġgai1Ġdi4ĠdeĠmian4Ġji1Ġhe2Ġren2Ġkou3Ġjie1Ġwei4Ġzhi1Ġ":13465,"Ġcai4Ġ":13466,"yue4Ġhe2Ġ":13467,"qu1Ġji2Ġ":13468,"wang2Ġhou4Ġ":13469,"chai2Ġ":13470,"han4Ġlin2Ġ":13471,"ĠMĠ":13472,"Ġzhi4Ġli4Ġyu2Ġ":13473,"Ġdou1Ġshi4Ġ":13474,"ĠRĠ":13475,"Ġren2Ġci4Ġ":13476,"dai4Ġbu3Ġ":13477,"gao1Ġdeng3":13478,
[...]
