{"!":0,"\"":1,"#":2,"$":3,"%":4,"&":5,"'":6,"(":7,")":8,"*":9,"+":10,",":11,"-":12,".":13,"/":14,"0":15,"1":16,"2":17,"3":18,"4":19,"5":20,"6":21,"7":22,"8":23,"9":24,":":25,";":26,"=":27,"?":28,"@":29,"A":30,"B":31,"C":32,"D":33,"E":34,"F":35,"G":36,"H":37,"I":38,"J":39,"K":40,"L":41,"M":42,"N":43,"O":44,"P":45,"Q":46,"R":47,"S":48,"T":49,"U":50,"V":51,"W":52,"X":53,"Y":54,"Z":55,"[":56,"\\":57,"]":58,"^":59,"_":60,"`":61,"a":62,"b":63,"c":64,"d":65,"e":66,"f":67,"g":68,"h":69,"i":70,"j":71,"k":72,"l":73,"m":74,"n":75,"o":76,"p":77,"q":78,"r":79,"s":80,"t":81,"u":82,"v":83,"w":84,"x":85,"y":86,"z":87,"|":88,"~":89,"¡":90,"¢":91,"£":92,"¤":93,"¥":94,"¦":95,"§":96,"¨":97,"©":98,"ª":99,"«":100,"¬":101,"®":102,"¯":103,"°":104,"±":105,"²":106,"³":107,"´":108,"µ":109,"¶":110,"·":111,"¸":112,"¹":113,"º":114,"»":115,"¼":116,"½":117,"¾":118,"¿":119,"Â":120,"Ã":121,"Ä":122,"Å":123,"Æ":124,"Ç":125,"È":126,"É":127,"Ê":128,"Ë":129,"Ì":130,"Í":131,"Î":132,"Ï":133,"Ð":134,"Ñ":135,"Ò":136,"Ó":137,"Ô":138,"Õ":139,"Ö":140,"×":141,"Ø":142,"Ù":143,"Ú":144,"Û":145,"Ü":146,"Þ":147,"ß":148,"à":149,"á":150,"â":151,"ã":152,"ä":153,"ê":154,"ë":155,"ì":156,"í":157,"î":158,"ï":159,"ð":160,"ñ":161,"Ċ":162,"Ġ":163,"ġ":164,"Ģ":165,"ģ":166,"Ĥ":167,"ĥ":168,"Ħ":169,"ħ":170,"Ĩ":171,"ĩ":172,"Ī":173,"ī":174,"Ĭ":175,"ĭ":176,"Į":177,"į":178,"İ":179,"ı":180,"Ĳ":181,"ĳ":182,"Ĵ":183,"ĵ":184,"Ķ":185,"ķ":186,"ĸ":187,"Ĺ":188,"ĺ":189,"Ļ":190,"ļ":191,"Ľ":192,"ľ":193,"Ŀ":194,"ŀ":195,"Ł":196,"ł":197,"Ń":198,"ng":199,"hÃ":200,"Ãł":201,"Äģ":202,"Ã¬":203,"Ã¡":204,"Ä«":205,"Ã¨":206,"Çİ":207,"ĠĠ":208,"Ã©":209,"ÃŃ":210,"shÃ":211,"Ã¹":212,"Ã¡n":213,"zh":214,"ÇĲ":215,"Åį":216,"ji":217,"de":218,"Ãłn":219,"Äĵ":220,"zhÃ":221,"sh":222,"ÄĽ":223,"Ã³":224,"ÇĶ":225,"xi":226,"Ã²":227,"Ãº":228,"Äģn":229,"ĠĠĠ":230,"Ãłi":231,"Å«":232,"Åįng":233,"ÇĴ":234,"ãĢ":235,"shÃ¬":236,"hu":237,"Ã¨i":238,"gu":239,"iÃ¡n":240,"hÃ©":241,"Ãło":242,"Äģng":243,"ÃŃng":244,"yu":245,"Çİn":246,"ch":247,"niÃ¡n":248,"yÄ«":249,"Çİng":250,"Ã©n":251,"ÇĴu":252,"Ã¬ng":253,"wÃ¨i":254,"Çİo":255,"zÃłi":256,"ãĢģ":257,"jÄ«":258,"Äĵng":259,"zhÅįng":260,"xÄ«":261,"bÃ¹":262,"jÃ¬":263,"Ãłng":264,"li":265,"zhÃ¨":266,"shÃŃ":267,"dÃ¬":268,"guÃ³":269,"yÃº":270,"rÃ©n":271,"Ã²ng":272,"chÃ":273,"Äģo":274,"du":275,"chÃ©":276,"yÇĲ":277,"lÃ¬":278,"Ã¡ng":279,"yÃ¬":280,"uÃ²":281,"Ã¡i":282,"zhÃ¬":283,"chÃ©ng":284,"Ã©i":285,"xu":286,"gÅįng":287,"jÃŃ":288,"²u":289,"ÄĽi":290,"iÃłn":291,"Äĵn":292,"Ã³ng":293,"yuÃ¨":294,"yÇĴu":295,"yuÃ¡n":296,"dÃł":297,"qi":298,"Åįu":299,"lÇĲ":300,"20":301,"Ã³u":302,"Äģi":303,"xiÃłn":304,"jiÄģ":305,"sÄ«":306,"Å«n":307,"xÃŃng":308,"yÇĶ":309,"Ã¨n":310,"ÇĴng":311,"ÃŃn":312,"tÄģ":313,"rÃ¬":314,"zhÄ«":315,"hÃ²u":316,"Çİi":317,"gÃ¨":318,"zhÃł":319,"Ã©ng":320,"le":321,"wÃ©i":322,"huÃ¬":323,"dÃło":324,"19":325,"bi":326,"shÃł":327,"qÄ«":328,"qÃŃ":329,"shÃ¨":330,"su":331,"zhÃ¨ng":332,"mÃŃng":333,"jiÃłn":334,"xuÃ©":335,"chÅ«":336,"yÃ¹":337,"ÄĽng":338,"zuÃ²":339,"shÄĵng":340,"duÃ¬":341,"yÃ³u":342,"qÅ«":343,"shÃłng":344,"ÄĽn":345,"dÃ©":346,"lÃ¹":347,"bÃ¨i":348,"chÃ¡":349,"ti":350,"shÇĲ":351,"zhÃłn":352,"zhÇĶ":353,"Äĵi":354,"qu":355,"jÃ¹":356,"xÄ«n":357,"jÅ«n":358,"zhu":359,"ÄĽr":360,"Ã¡o":361,"shÃ¹":362,"uÃ¬":363,"rÃ¨n":364,"fÄģ":365,"wÃ¹":366,"bÃ¬ng":367,"kÃ¨":368,"Ã©r":369,"dÃłi":370,"yÃŃ":371,"jÃ¬n":372,"zÃ¬":373,"yÄ«n":374,"fÃ¹":375,"fÄģng":376,"jÄ«ng":377,"nÃ¡n":378,"huÃł":379,"xÃ¬":380,"zhÅįu":381,"pÃŃng":382,"Ã²u":383,"xiÃł":384,"lÃ¡i":385,"yÃ²ng":386,"shu":387,"guÄģn":388,"tÃ³ng":389,"ãĢĭ":390,"ãĢĬ":391,"fÇİ":392,"zhÃ¹":393,"mÄĽi":394,"hÃ¡":395,"Â·":396,"jiÄģn":397,"jÇĲ":398,"huÃ²":399,"dÃ¹":400,"chu":401,"bÄĽn":402,"xiÄģng":403,"zhÃŃ":404,"dÃ²ng":405,"xiÃłng":406,"mÃŃn":407,"jiÄģng":408,"fÄĵn":409,"shÇĴu":410,"quÃ¡n":411,"wÃ©n":412,"yÃ¡n":413,"hÃł":414,"suÇĴ":415,"jiÃło":416,"qiÃ¡n":417,"diÃłn":418,"tÃ¨":419,"di":420,"duÅį":421,"Ãºn":422,"zuÃ¬":423,"kÄģi":424,"tu":425,"jiÃ©":426,"liÃ¡n":427,"zhÇĲ":428,"kÄĽ":429,"dÃłn":430,"mÃ¹":431,"yÃ¨":432,"fÃº":433,"mÇİ":434,"yÄĽ":435,"dÅįng":436,"qiÃº":437,"bÄĽi":438,"ãĢĮ":439,"ãĢį":440,"gÄģo":441,"yÃł":442,"qÇĲ":443,"jiÄĵ":444,"miÃłn":445,"hÇİi":446,"zhÇİng":447,"shÄ«":448,"jÄ«n":449,"cÇĲ":450,"lu":451,"nÃ¨i":452,"tÇĲ":453,"sÃłi":454,"sÄģn":455,"tÃ¡i":456,"gÃ©":457,"xÃ¬ng":458,"guÃ²":459,"rÃ¹":460,"201":461,"dÄĽng":462,"yÃło":463,"ju":464,"chÄĵ":465,"cÃ¬":466,"wÇĶ":467,"gÄģi":468,"dÃ¬ng":469,"chÃ¡ng":470,"biÇİo":471,"lÄģ":472,"gÃ²ng":473,"jiÃ¨":474,"shÃ²u":475,"dÇİo":476,"shÄģn":477,"chÇİng":478,"sÃ¬":479,"bÇĲ":480,"zÃ©":481,"tÃŃ":482,"kÄĵ":483,"dÄģng":484,"nÃ©ng":485,"Ã¨r":486,"wÃłi":487,"dÄģn":488,"xÃ¹":489,"zi":490,"kÇĴu":491,"xiÇİo":492,"zÇĶ":493,"bÄģ":494,"juÃ©":495,"lÃŃn":496,"liÃº":497,"shÄĽng":498,"yÄ«ng":499,"ku":500,"lÃ¡n":501,"luÃ³":502,"tÅįng":503,"200":504,"Ä«ng":505,"²ng":506,"mÇĲ":507,"zhÃ²ng":508,"en":509,"zhÄĽ":510,"shÇĶ":511,"tiÄģn":512,"zhÃ¨n":513,"Çļ":514,"qÃ¬":515,"zhÇĴng":516,"liÃ¨":517,"chÄĵng":518,"shÅ«":519,"yuÃłn":520,"bÇİo":521,"tÃłi":522,"fÇĶ":523,"fÄĵng":524,"gÇĶ":525,"qÄ«ng":526,"shÄĵn":527,"wÃ¡ng":528,"yÃ¹n":529,"guÇİn":530,"fÄĵi":531,"jiÃ¹":532,"liÇİng":533,"cÃ©ng":534,"mÃ©i":535,"10":536,"fÃ¨n":537,"hÃło":538,"³ng":539,"yÇİn":540,"wÄĽi":541,"zÇĴng":542,"xuÇİn":543,"xiÃło":544,"dÃ¡":545,"nÃł":546,"liÃłng":547,"bÅį":548,"zÃº":549,"jÃ¬ng":550,"bÃło":551,"nÃŃ":552,"wÃº":553,"tÇĴng":554,"huÃ¡":555,"jiÄģo":556,"yuÄĵ":557,"yÇĲng":558,"biÃłn":559,"xÄ«ng":560,"sÃ¹":561,"shuÇĲ":562,"yÃ¡ng":563,"hÃ¹":564,"men":565,"bÄģo":566,"gÄĵ":567,"bÃ³":568,"cÄģn":569,"cÃ³ng":570,"diÇİn":571,"bÃ¬":572,"rÃº":573,"bÃłn":574,"biÄģn":575,"wÇİng":576,"qÇĶ":577,"mi":578,"chÇİn":579,"sÃ¨":580,"zÄ«":581,"chuÃ¡n":582,"00":583,"shÃ¨ng":584,"rÃ¡n":585,"tÃº":586,"zhÄģng":587,"pÇĶ":588,"gÇİi":589,"gÇİng":590,"nÇļ":591,"lÃ¬ng":592,"luÃ²":593,"yÃ²u":594,"tÃ³u":595,"cÃ¨":596,"lÇ":597,"chÃŃ":598,"18":599,"lÇľ":600,"qiÄģn":601,"shÃ©":602,"lÃŃ":603,"dÅįu":604,"pÇĲ":605,"12":606,"zhÄĵng":607,"ni":608,"kuÃ²":609,"shÄģ":610,"dÇİng":611,"fÇİn":612,"gÃ²u":613,"lÃ¨i":614,"xÃŃ":615,"jÇĲng":616,"tuÃ¡n":617,"wÄĵi":618,"xiÄĵ":619,"lÇĲng":620,"lÃ³ng":621,"guÄ«":622,"xiÄģn":623,"rÃ³ng":624,"huÃ¡ng":625,"xiÇİng":626,"bÄģn":627,"jiÇĶ":628,"yÃ¬ng":629,"mÃ©n":630,"shÄģng":631,"shÃ©n":632,"202":633,"bÇİn":634,"kÇİ":635,"mÇĶ":636,"jÇĲn":637,"fÅ«":638,"jÇĶ":639,"mÃ³":640,"guÇİng":641,"cÃŃ":642,"shuÅį":643,"qÃŃng":644,"zhÇİn":645,"hÃ¡i":646,"zhuÄģng":647,"mÃ²":648,"cÃ¡i":649,"dÃº":650,"11":651,"pÇĲn":652,"tÃŃng":653,"chÃ¡o":654,"yÃŃng":655,"tiÃ¡o":656,"jiÇİn":657,"tÃ¡ng":658,"huÃŃ":659,"duÃłn":660,"chÃ©n":661,"gÄĵn":662,"mÃ¬":663,"wÃłn":664,"pÃ¡i":665,"wÄģn":666,"zÃło":667,"hÃ¡ng":668,"wÃ¡n":669,"biÄģo":670,"gÃ¹":671,"lÃºn":672,"199":673,"xiÃ©":674,"jiÇİng":675,"hÃłn":676,"jÃº":677,"fÃłn":678,"fÃ¡ng":679,"huÃ³":680,"hÃ¡n":681,"pi":682,"kÅįng":683,"or":684,"tiÄĽ":685,"mÃ©ng":686,"biÃ©":687,"wÅ«":688,"jiÄĽ":689,"zhuÄģn":690,"yÇĲn":691,"xÅ«":692,"zhÄĵn":693,"dÇĲ":694,"er":695,"chÃº":696,"hÃº":697,"jiÃł":698,"bÄ«ng":699,"mÃ¬ng":700,"lÃŃng":701,"hÃ³ng":702,"qÄ«n":703,"zÇĲ":704,"lÃ¹n":705,"xÃ¬n":706,"chÃ¹":707,"chÇĶ":708,"sÅ«":709,"an":710,"xiÅ«":711,"zÅįng":712,"15":713,"quÃ¨":714,"xiÄģo":715,"zhÃło":716,"qiÃ¡ng":717,"qÃ¹":718,"cÅ«n":719,"chÃ³ng":720,"piÃłn":721,"jiÅ«":722,"fÃłng":723,"suÃŃ":724,"shÅįu":725,"gÃ¨ng":726,"âĢ":727,"guÄģng":728,"Ã¨ng":729,"jÅ«":730,"on":731,"jiÇİ":732,"chuÃłng":733,"dÃŃ":734,"16":735,"zhuÇİn":736,"guÇĴ":737,"xÃ¹n":738,"mÃłn":739,"pÃłi":740,"fÃ¨i":741,"pÃ¨i":742,"198":743,"dÇİ":744,"tuÅį":745,"la":746,"xuÄģn":747,"bÃ¡i":748,"zhÅ«":749,"dÅ«":750,"tÇĶ":751,"diÃło":752,"xiÃ¡":753,"liÃ¹":754,"17":755,"suÃ¬":756,"huÄ«":757,"tÄ«ng":758,"qiÄĽ":759,"tÇİ":760,"qiÃ¡o":761,"hÄģ":762,"gÇİn":763,"zÄĵng":764,"xiÇİn":765,"mÃłi":766,"huÃ¡n":767,"xÇĶ":768,"wÇİ":769,"tuÄ«":770,"wÃ¨n":771,"chÄģo":772,"tiÃ¡n":773,"bÇİi":774,"cÇİi":775,"liÃ¡ng":776,"yÃ¡":777,"sÃł":778,"ar":779,"bÃłi":780,"cÃºn":781,"jiÇİo":782,"shÇİo":783,"yÃłn":784,"zhuÃłng":785,"huÇĴ":786,"lÃ©i":787,"14":788,"zu":789,"jiÃłng":790,"chuÄģn":791,"yÃ¬n":792,"zÇİo":793,"chÃł":794,"yÇĴng":795,"sÇĲ":796,"dÄĵng":797,"30":798,"zhÇĶn":799,"lÃ¨":800,"xÃºn":801,"nuÃ²":802,"kÃ¹":803,"huÃłn":804,"sÃ²ng":805,"gÃło":806,"lÇĶ":807,"13":808,"194":809,"bÄģng":810,"lÇļ":811,"pÄ«":812,"yÃłng":813,"hÄĽn":814,"qÃºn":815,"zhÄĽng":816,"guÃłn":817,"pÃ²":818,"gÄģng":819,"wÇĴ":820,"197":821,"huÄģ":822,"lÄĵi":823,"hÇİo":824,"tÃ¡o":825,"kuÃłng":826,"hÃ¨":827,"in":828,"dÃ¹n":829,"nÃ³ng":830,"gÄĽi":831,"sÄģi":832,"shuÄģng":833,"liÃłn":834,"kuÃłi":835,"dÄ«":836,"bÄ«":837,"pÃłn":838,"xiÄĽ":839,"195":840,"kÇİo":841,"gÃłi":842,"hÄĵi":843,"wÃłng":844,"liÃło":845,"rÃ¨":846,"ge":847,"zuÇĴ":848,"kÃ²ng":849,"196":850,"yÄģng":851,"chÃłng":852,"yÃŃn":853,"³u":854,"rÃ©ng":855,"sÄĵn":856,"bÄĵi":857,"lÃº":858,"piÃło":859,"yÄģ":860,"25":861,"bÄ«n":862,"âĢĶ":863,"rÃłng":864,"chÅįng":865,"lÃ³u":866,"bÇĶ":867,"lÇİo":868,"zhÃº":869,"jÃ¹n":870,"yÇİng":871,"ruÃ¬":872,"yÄģo":873,"xiÃ¡n":874,"xiÃ¨":875,"niÃłn":876,"for":877,"yÅįu":878,"tÃ¡n":879,"kÄģng":880,"pÃŃ":881,"hÃ©ng":882,"yÃºn":883,"xÇĲ":884,"kÃłn":885,"nÃŃng":886,"liÃ¡o":887,"shÃło":888,"bÃº":889,"24":890,"qÇĲng":891,"chÇĲ":892,"mu":893,"dÃ²u":894,"miÇİn":895,"yÅįng":896,"tÇİn":897,"wÇİn":898,"hÅ«":899,"fÄģn":900,"al":901,"tÅ«":902,"gÄģn":903,"suÃłn":904,"dÄ«ng":905,"yuÇİn":906,"wÄĵn":907,"tuÃ¬":908,"zhe":909,"21":910,"st":911,"xiÃ¹":912,"bÇİ":913,"mÇİn":914,"193":915,"23":916,"mula":917,"kÃłng":918,"formula":919,"28":920,"th":921,"mÃ¡o":922,"ruÃ²":923,"piÄģn":924,"chÃ¨":925,"mÃło":926,"lÇİng":927,"qÃŃn":928,"bÃ¡":929,"nÃ¡":930,"zÃłn":931,"guÇĲ":932,"guÃ¬":933,"ou":934,"pÃŃn":935,"wÃ²":936,"xiÃ³ng":937,"shÃłn":938,"re":939,"22":940,"xiÅįng":941,"me":942,"suÄ«":943,"Ã¼":944,"26":945,"shÄĽn":946,"qÃ¬ng":947,"miÃ¡o":948,"fÇİng":949,"50":950,"2020":951,"27":952,"lÃ¡ng":953,"ru":954,"qiÅ«":955,"sÅįng":956,"Ã¼Ã¨":957,"dÃłng":958,"gÄĵng":959,"qiÄģng":960,"ri":961,"fÃ¡":962,"zÄģo":963,"fÃ¨ng":964,"zhÃłng":965,"ï¼":966,"hÃ¡o":967,"dÅ«n":968,"zÇĴu":969,"hÃłi":970,"qiÃ¨":971,"29":972,"tÃłn":973,"pÃło":974,"pÃł":975,"shÃ¹n":976,"pÃ©ng":977,"xuÃ¡n":978,"2010":979,"nÇĲ":980,"000":981,"dÇĲng":982,"niÇĶ":983,"zÇİi":984,"zhÄģo":985,"zhuÄ«":986,"lÃ¼Ã¨":987,"chÅ«n":988,"2019":989,"hÅ«n":990,"kÇĴng":991,"duÄģn":992,"shÃ¨n":993,"xiÃ¡ng":994,"duÇİn":995,"gÃłn":996,"te":997,"ro":998,"kÄģn":999,"lÃ¡o":1000,"cÇİo":1001,"2016":1002,"si":1003,"gÅ«":1004,"pÃ©i":1005,"2018":1006,"kuÇİn":1007,"zÃ¡":1008,"sÅ«n":1009,"yÃ©":1010,"yÇİ":1011,"pÅį":1012,"2021":1013,"ra":1014,"chÃ¬":1015,"duÃ³":1016,"2014":1017,"fÃ¡n":1018,"2011":1019,"2015":1020,"cuÃ²":1021,"2017":1022,"zhÃ©":1023,"yÃ¡o":1024,"pÄģi":1025,"tÃ²u":1026,"cÃ¡ng":1027,"2012":1028,"40":1029,"kÇİi":1030,"2013":1031,"2022":1032,"mÃŃ":1033,"ruÇİn":1034,"suÄģn":1035,"chÄģ":1036,"zÃłng":1037,"miÃło":1038,"lt":1039,"2009":1040,"zhÇİo":1041,"2008":1042,"huÃ¡i":1043,"ãĥ":1044,"ce":1045,"60":1046,"am":1047,"cu":1048,"xuÃ¨":1049,"chÃ³u":1050,"se":1051,"bÇİng":1052,"mÃ¨ng":1053,"100":1054,"tÃ¬":1055,"pÃº":1056,"nÇİo":1057,"2023":1058,"zhuÃłn":1059,"gt":1060,"lÄĽi":1061,"190":1062,"31":1063,"cÃłi":1064,"cÃ¹":1065,"sÃłn":1066,"mÃ³u":1067,"tion":1068,"ta":1069,"hÃ¹n":1070,"ÇĶn":1071,"kuÄģn":1072,"2007":1073,"niÃº":1074,"mÇĴu":1075,"tÇİo":1076,"diÃ©":1077,"2001":1078,"ol":1079,"tÃ©ng":1080,"sÅįu":1081,"kÄĽn":1082,"qiÇİn":1083,"chÄģng":1084,"rÇİn":1085,"quÄĵ":1086,"fÇĴu":1087,"sÇĶn":1088,"el":1089,"bÃł":1090,"2000":1091,"80":1092,"kÃło":1093,"suÅį":1094,"2006":1095,"niÇİo":1096,"chÃºn":1097,"ma":1098,"2024":1099,"lÇİn":1100,"ãģ":1101,"zÄģi":1102,"zhÃ¡":1103,"xuÄĽ":1104,"huÇĲ":1105,"luÃłn":1106,"tÇĲng":1107,"2005":1108,"zÅ«n":1109,"bÃłng":1110,"lÃł":1111,"huÄģn":1112,"rÇİng":1113,"shuÃ¬":1114,"mÇĲn":1115,"35":1116,"lÃłi":1117,"cÄģng":1118,"70":1119,"fÃ³":1120,"pÃ¡n":1121,"of":1122,"nÃłi":1123,"wÄĽn":1124,"et":1125,"cÄģo":1126,"sÄģng":1127,"pÃ¡ng":1128,"90":1129,"bÇĲng":1130,"ï¼į":1131,"zhÄģ":1132,"ãĤ":1133,"shuÃłi":1134,"niÃ¨":1135,"es":1136,"hÃ³u":1137,"mÃ¨i":1138,"shÄģo":1139,"nÇĶ":1140,"dÇĴng":1141,"il":1142,"at":1143,"ow":1144,"fÃ©ng":1145,"miÃ¨":1146,"yÇĶn":1147,"zÃ²u":1148,"mÇİi":1149,"huÃłi":1150,"2004":1151,"45":1152,"yÄģn":1153,"co":1154,"48":1155,"the":1156,"zhuÃ³":1157,"and":1158,"ter":1159,"he":1160,"tÃło":1161,"nÇİi":1162,"kÅ«n":1163,"2025":1164,"zhÄĽn":1165,"ck":1166,"rÇĶ":1167,"kuÃł":1168,"kuÃŃ":1169,"ãĢī":1170,"ãĢĪ":1171,"gÅįu":1172,"36":1173,"cuÄ«":1174,"38":1175,"shÇİn":1176,"rÃ²u":1177,"diÄģo":1178,"2003":1179,"hÇĶ":1180,"guÅį":1181,"37":1182,"cuÃ¬":1183,"ne":1184,"xÃº":1185,"mÃ¡ng":1186,"juÇİn":1187,"cÃ¡n":1188,"diÄģn":1189,"zhÄģn":1190,"cÃ¡o":1191,"189":1192,"IN":1193,"2002":1194,"is":1195,"bo":1196,"kÄĵng":1197,"TC":1198,"ve":1199,"34":1200,"mÃ¡":1201,"lÄĽng":1202,"as":1203,"zÅ«":1204,"75":1205,"âĢĵ":1206,"sÃº":1207,"quÄģn":1208,"dÄģ":1209,"to":1210,"chÄģi":1211,"nu":1212,"lÃłng":1213,"kÃ¹n":1214,"46":1215,"tÃºn":1216,"fÄĽn":1217,"1990":1218,"âĢ¦":1219,"zhÃ²u":1220,"shÇİng":1221,"rÃło":1222,"hÄĵng":1223,"tÄ«":1224,"xÅ«n":1225,"39":1226,"nÃ¨":1227,"..":1228,"pÃ¬":1229,"nÃłn":1230,"pÄģn":1231,"65":1232,"hÅįng":1233,"shÃº":1234,"tÄģn":1235,"Ch":1236,"tÄģng":1237,"kÇİn":1238,"Ma":1239,"nÃ¬":1240,"32":1241,"In":1242,"ST":1243,"47":1244,"hÇİn":1245,"it":1246,"UTC":1247,"qiÃłn":1248,"1999":1249,"1998":1250,"1980":1251,"188":1252,"500":1253,"33":1254,"64":1255,"qiÇİng":1256,"shuÃ²":1257,"pÇİo":1258,"lo":1259,"be":1260,"kÄģ":1261,"zhÃ¡i":1262,"SE":1263,"55":1264,"quÃłn":1265,"nÄ«":1266,"dÃ¨ng":1267,"1997":1268,"The":1269,"miÃ¡n":1270,"49":1271,"gÇİo":1272,"II":1273,"68":1274,"Co":1275,"vi":1276,"shÄĽ":1277,"zÃ¨ng":1278,"Re":1279,"han":1280,"zhÃ³u":1281,"zhÃłi":1282,"44":1283,"1996":1284,"na":1285,"tiÄĵ":1286,"dÄģo":1287,"ad":1288,"br":1289,"1994":1290,"ver":1291,"fÃ©i":1292,"zÃ²ng":1293,"qiÃ³ng":1294,"ci":1295,"tiÃło":1296,"chuÃ¡ng":1297,"1992":1298,"ba":1299,"chuÃŃ":1300,"juÄģn":1301,"chÃ¡i":1302,"miÇİo":1303,"guÄģ":1304,"xuÄĵ":1305,"tÃ²ng":1306,"1995":1307,"fÄĽi":1308,"chÄ«":1309,"oo":1310,"mÄĽng":1311,"wÅį":1312,"67":1313,"ir":1314,"shuÄģi":1315,"tuÃ³":1316,"chuÄģng":1317,"huÇİn":1318,"1991":1319,"1970":1320,"58":1321,"ay":1322,"1950":1323,"ca":1324,"nd":1325,"guÃł":1326,"chÃ¡n":1327,"300":1328,"wÄģ":1329,"1993":1330,"187":1331,"1949":1332,"pe":1333,"sÄģ":1334,"tiÇİo":1335,"AT":1336,"1960":1337,"biÇİn":1338,"42":1339,"1945":1340,"ing":1341,"guÃłi":1342,"au":1343,"kÇĶ":1344,"nÃº":1345,"1988":1346,"dÇĶ":1347,"1989":1348,"ig":1349,"pÃ¹":1350,"69":1351,"liÇĶ":1352,"gÇĴng":1353,"SEE":1354,"tuÃ²":1355,"amp":1356,"ct":1357,"liÇİo":1358,"INSEE":1359,"59":1360,"tÄģi":1361,"43":1362,"66":1363,"chuÃłn":1364,"op":1365,"chÃ¨n":1366,"os":1367,"57":1368,"1985":1369,"huÄģng":1370,"99":1371,"SA":1372,"ãĢİ":1373,"cÃ¹n":1374,"ãĢı":1375,"1984":1376,"hÃºn":1377,"41":1378,"pÅ«":1379,"ly":1380,"us":1381,"kÃ²u":1382,"fÃ©n":1383,"88":1384,"1986":1385,"rÇİo":1386,"mp":1387,"St":1388,"id":1389,"rÃ¹n":1390,"TV":1391,"150":1392,"zhuÅį":1393,"ind":1394,"400":1395,"sÇİn":1396,"1987":1397,"78":1398,"un":1399,"ed":1400,"ha":1401,"1982":1402,"56":1403,"Li":1404,"ur":1405,"ard":1406,"nuÃ³":1407,"1983":1408,"NA":1409,"gÇĶn":1410,"Ro":1411,"De":1412,"ss":1413,"mÄģ":1414,"tou":1415,"pÃ¬n":1416,"CD":1417,"chÅįu":1418,"ber":1419,"gÇĴu":1420,"quÇİn":1421,"Mi":1422,"77":1423,"zhÄģi":1424,"Me":1425,"qiÃł":1426,"mÄģo":1427,"qiÇİo":1428,"Mar":1429,"tw":1430,"kÅ«":1431,"kuÃ¡ng":1432,"rÃ³u":1433,"der":1434,"79":1435,"lÃ²u":1436,"OS":1437,"Â°":1438,"kuÃ¬":1439,"sÃłng":1440,"ï½":1441,"Al":1442,"180":1443,"ty":1444,"BC":1445,"54":1446,"1979":1447,"61":1448,"1920":1449,"ang":1450,"pÄĵn":1451,"98":1452,"sÄĵng":1453,"52":1454,"You":1455,"ap":1456,"1978":1457,"nÃ¹":1458,"wÄĵng":1459,"62":1460,"yÄĵ":1461,"duÇĴ":1462,"Le":1463,"53":1464,"xÇĲng":1465,"juÃłn":1466,"ï½ŀ":1467,"BA":1468,"ke":1469,"1946":1470,"ts":1471,"CO":1472,"mo":1473,"ction":1474,"51":1475,"1958":1476,"1981":1477,"Vi":1478,"1972":1479,"1948":1480,"zhuÃ¬":1481,"cÅįng":1482,"tÅįu":1483,"AM":1484,"hi":1485,"63":1486,"man":1487,"ows":1488,"AR":1489,"ry":1490,"1941":1491,"Wind":1492,"BS":1493,"wÃ¡":1494,"liÇİn":1495,"1930":1496,"Mo":1497,"Pro":1498,"luÇİn":1499,"kuÄģng":1500,"qÃº":1501,"tuÇĴ":1502,"kÃ©":1503,"76":1504,"hans":1505,"va":1506,"1940":1507,"1937":1508,"con":1509,"1976":1510,"zuÇĲ":1511,"1944":1512,"Jo":1513,"89":1514,"1975":1515,"um":1516,"ï¼ı":1517,"Te":1518,"1968":1519,"niÃ¡ng":1520,"pÃ³":1521,"shuÄģ":1522,"hk":1523,"yuÄģn":1524,"tÄģo":1525,"per":1526,"wÄģng":1527,"ga":1528,"1000":1529,"ran":1530,"Windows":1531,"95":1532,"Ne":1533,"bÃŃ":1534,"sÇİo":1535,"da":1536,"87":1537,"1966":1538,"85":1539,"fÃł":1540,"pÄĵng":1541,"600":1542,"lÃłn":1543,"Se":1544,"Sta":1545,"sp":1546,"120":1547,"1947":1548,"Ga":1549,"Ar":1550,"ot":1551,"gÄģ":1552,"1956":1553,"AC":1554,"1964":1555,"dÇİn":1556,"cÅ«":1557,"1942":1558,"1955":1559,"chÇĴu":1560,"lay":1561,"1952":1562,"1939":1563,"IS":1564,"1938":1565,"72":1566,"74":1567,"ht":1568,"rÄĽn":1569,"1973":1570,"ace":1571,"fi":1572,"1974":1573,"1954":1574,"qiÄĵ":1575,"ED":1576,"1900":1577,"--":1578,"Be":1579,"AP":1580,"ore":1581,"1943":1582,"1977":1583,"Da":1584,"1971":1585,"pÄ«n":1586,"pÇĴ":1587,"mÃ¡n":1588,"1967":1589,"shÃ©ng":1590,"ment":1591,"IC":1592,"800":1593,"ER":1594,"La":1595,"86":1596,"1959":1597,"bÄĵng":1598,"son":1599,"1965":1600,"JR":1601,"1969":1602,"Ra":1603,"duÄ«":1604,"Di":1605,"ok":1606,"pÃ©n":1607,"ãĥ»":1608,"ÃĹ":1609,"qiÃło":1610,"chuÄ«":1611,"ID":1612,"qiÄģo":1613,"Su":1614,"ine":1615,"1936":1616,"160":1617,"97":1618,"bÄĵn":1619,"zhuÄģ":1620,"ent":1621,"1953":1622,"Sa":1623,"1962":1624,"MA":1625,"Tu":1626,"tic":1627,"1961":1628,"lÇĴng":1629,"ation":1630,"âĶ":1631,"1935":1632,"tÃł":1633,"mÃ¡i":1634,"Sh":1635,"96":1636,"ON":1637,"ak":1638,"ï¼ħ":1639,"1951":1640,"1957":1641,"1963":1642,"Lo":1643,"âĶĢ":1644,"one":1645,"rou":1646,"84":1647,"Ja":1648,"2026":1649,"do":1650,"cÇİn":1651,"82":1652,"gi":1653,"bu":1654,"mer":1655,"73":1656,"po":1657,"94":1658,"tÅ«n":1659,"92":1660,"So":1661,"AN":1662,"IP":1663,"An":1664,"ho":1665,"ali":1666,"1933":1667,"Mu":1668,"1931":1669,"nÃ¡ng":1670,"niÃło":1671,"les":1672,"71":1673,"bÃ¡o":1674,"nuÇİn":1675,"lÃ©ng":1676,"pÃ¡":1677,"83":1678,"93":1679,"ai":1680,"We":1681,"81":1682,"dÇĴu":1683,"1918":1684,"sta":1685,"HD":1686,"Bo":1687,"sÄģo":1688,"Uni":1689,"1928":1690,"luÃ¡n":1691,"ki":1692,"1932":1693,"wi":1694,"nÃ¨n":1695,"col":1696,"int":1697,"MV":1698,"SS":1699,"our":1700,"110":1701,"tÃ¹":1702,"IT":1703,"1912":1704,"all":1705,"1929":1706,"tuÇĲ":1707,"duÃ²":1708,"1927":1709,"cn":1710,"1934":1711,"are":1712,"Pa":1713,"700":1714,"gÃ¡":1715,"che":1716,"by":1717,"ted":1718,"ster":1719,"huÇİng":1720,"Si":1721,"250":1722,"ff":1723,"91":1724,"mm":1725,"Par":1726,"zÃ©i":1727,"Ri":1728,"1924":1729,"pp":1730,"ph":1731,"...":1732,"1919":1733,"kuÄ«":1734,"He":1735,"so":1736,"xuÃłn":1737,"130":1738,"piÄģo":1739,"no":1740,"1925":1741,"PS":1742,"Play":1743,"pÄģo":1744,"140":1745,"xiÄģ":1746,"Bu":1747,"Ca":1748,"SM":1749,"Con":1750,"Sp":1751,"PC":1752,"1914":1753,"ble":1754,"ste":1755,"zhÇİi":1756,"km":1757,"DV":1758,"zhÄĵ":1759,"En":1760,"mes":1761,"YouTu":1762,"com":1763,"Ba":1764,"hÄĵ":1765,"Fi":1766,"Ti":1767,"diÄĵ":1768,"ell":1769,"gra":1770,"lÇİ":1771,"AS":1772,"ia":1773,"1911":1774,"Wi":1775,"shi":1776,"end":1777,"ill":1778,"nÃ¼Ã¨":1779,"ana":1780,"ara":1781,"Ge":1782,"1926":1783,"den":1784,"1922":1785,"Na":1786,"nÇİ":1787,"sion":1788,"hÃ¨n":1789,"1917":1790,"ET":1791,"NBA":1792,"IV":1793,"shuÃŃ":1794,"cÄģi":1795,"rÃ¡o":1796,"EN":1797,"1923":1798,"art":1799,"1921":1800,"fe":1801,"pÃ¨ng":1802,"sa":1803,"ka":1804,"kuÄģ":1805,"Goo":1806,"ther":1807,"chÇĴng":1808,"To":1809,"170":1810,"à¸":1811,"EC":1812,"ld":1813,"mÇİo":1814,"nÃ²ng":1815,"AL":1816,"Ha":1817,"MS":1818,"section":1819,"Ni":1820,"YouTube":1821,"EP":1822,"hn":1823,"BL":1824,"1913":1825,"tiÄģo":1826,"Ju":1827,"HK":1828,"ler":1829,"âĨ":1830,"hant":1831,"gÃ¹n":1832,"1909":1833,"gin":1834,"Inter":1835,"cro":1836,"Ste":1837,"MP":1838,"AI":1839,"Ho":1840,"gÄĽng":1841,"Wor":1842,"nÃło":1843,"Po":1844,"fÄĽng":1845,"Do":1846,"luÇĴ":1847,"US":1848,"ant":1849,"go":1850,"ya":1851,"DVD":1852,"ort":1853,"zÅįu":1854,"ris":1855,"3000":1856,"Pi":1857,"cÄģ":1858,"Car":1859,"1910":1860,"RO":1861,"DS":1862,"Th":1863,"112":1864,"AK":1865,"My":1866,"pen":1867,"RE":1868,"pro":1869,"ven":1870,"1916":1871,"Station":1872,"ãĥ¼":1873,"chuÃ²":1874,"Net":1875,"Î±":1876,"Ki":1877,"Sch":1878,"olo":1879,"No":1880,"ari":1881,"ture":1882,"gn":1883,"Lin":1884,"CP":1885,"UN":1886,"gle":1887,"âĪ":1888,"ers":1889,"hÃ©n":1890,"1915":1891,"oun":1892,"niÃłng":1893,"1905":1894,"FC":1895,"my":1896,"Lu":1897,"ll":1898,"Wil":1899,"CN":1900,"âĦ":1901,"âĨĴ":1902,"1901":1903,"Fa":1904,"Au":1905,"ting":1906,"New":1907,"DNA":1908,"Ex":1909,"âĢ§":1910,"ary":1911,"900":1912,"Ph":1913,"sic":1914,"HR":1915,"dice":1916,"sis":1917,".&":1918,"CH":1919,"zÄĽn":1920,"TA":1921,"dia":1922,"Qu":1923,"TO":1924,"1906":1925,"len":1926,"1904":1927,"chuÇİng":1928,"AV":1929,"For":1930,"gÄĽn":1931,"John":1932,"we":1933,"ere":1934,"And":1935,"MO":1936,"ding":1937,"codice":1938,"chÇİo":1939,"jiÇĴng":1940,"âĦĥ":1941,"Ta":1942,"pa":1943,"ps":1944,"PlayStation":1945,"fu":1946,"ko":1947,"wÃł":1948,"bÃ¨ng":1949,"05":1950,"CC":1951,"ton":1952,"vo":1953,"eri":1954,"diÅ«":1955,"1907":1956,"1908":1957,"Google":1958,"AG":1959,"EST":1960,"MI":1961,"zuÃłn":1962,"SO":1963,"ory":1964,"tes":1965,"LE":1966,"Gu":1967,"jiÃ¡":1968,"zuÇİn":1969,"cy":1970,"lÄ«":1971,"chi":1972,"ley":1973,"BO":1974,"enter":1975,"BBC":1976,"AD":1977,"IG":1978,"cal":1979,"III":1980,"Cu":1981,"cri":1982,"oft":1983,"1500":1984,"Ru":1985,"lin":1986,"5000":1987,"ori":1988,"zuÄģn":1989,"pu":1990,"Go":1991,"IST":1992,"shÄĵ":1993,"lÇĺ":1994,"Fe":1995,"Col":1996,"wor":1997,"Sy":1998,"Ka":1999,"ME":2000,"tive":2001,"CR":2002,"gen":2003,"3D":2004,"wit":2005,"round":2006,"IA":2007,"guÇİ":2008,"105":2009,"je":2010,"ron":2011,"mÃł":2012,"Ð°":2013,"101":2014,"1903":2015,"GB":2016,"pÄ«ng":2017,"cha":2018,"shÃ¡":2019,"lan":2020,"09":2021,"TE":2022,"ree":2023,"Ad":2024,"Hu":2025,"cÃłn":2026,"cÃ©n":2027,"1902":2028,"BD":2029,"NC":2030,"land":2031,"can":2032,"ze":2033,"own":2034,"ess":2035,"pÄģng":2036,"xt":2037,"350":2038,"wa":2039,"ina":2040,"SAO":2041,"shÃ¡o":2042,"DC":2043,"net":2044,"span":2045,"des":2046,"Î²":2047,"ght":2048,"lÃ¬n":2049,"ence":2050,"B1900":2051,"inc":2052,"book":2053,"del":2054,"ES":2055,"BM":2056,"ï¼İ":2057,"dy":2058,"ãĥ³":2059,"Hi":2060,"1898":2061,"06":2062,"118":2063,"Pe":2064,"ms":2065,"ãģ®":2066,"lÃ¡":2067,"pt":2068,"qÇĲn":2069,"tel":2070,"360":2071,"DR":2072,"mon":2073,"01":2074,"DA":2075,"gh":2076,"Open":2077,"1895":2078,"lÃło":2079,"yle":2080,"125":2081,"mÃº":2082,"lar":2083,"bÃ¨n":2084,"HO":2085,"Ko":2086,"MC":2087,"ance":2088,"ATP":2089,"Micro":2090,"Ð¾":2091,"108":2092,"gy":2093,"NG":2094,"pÅįu":2095,"igh":2096,"sy":2097,"cor":2098,"tt":2099,"dio":2100,"Ke":2101,"qiÃ©":2102,"za":2103,"App":2104,"Pu":2105,"ning":2106,"gram":2107,"IF":2108,"Fran":2109,"ft":2110,"res":2111,"Com":2112,"tin":2113,"âĪĴ":2114,"07":2115,"08":2116,"230":2117,"Face":2118,"104":2119,"Du":2120,"ref":2121,"One":2122,"World":2123,"old":2124,"Ser":2125,"soft":2126,"EDT":2127,"ISTAT":2128,"Mon":2129,"Stu":2130,"shÄģi":2131,"sÇĴng":2132,"à¤":2133,"NO":2134,"ner":2135,"1896":2136,"Cor":2137,"LL":2138,"Bi":2139,"ger":2140,"lus":2141,"109":2142,"DP":2143,"yÅ«":2144,"las":2145,"AA":2146,"fli":2147,"Comp":2148,"rea":2149,"gÄĽ":2150,"RI":2151,"vel":2152,"ren":2153,"line":2154,"RT":2155,"suÇĲ":2156,"SP":2157,"xiÃ¡o":2158,"qiÇİ":2159,"EX":2160,"rÄĽ":2161,"Bar":2162,"Bri":2163,"ling":2164,"bert":2165,"B48":2166,"106":2167,"1890":2168,"ctor":2169,"CST":2170,"San":2171,"ML":2172,"CDT":2173,"Love":2174,"ity":2175,"mar":2176,"zÄģng":2177,"row":2178,"DO":2179,"with":2180,"HE":2181,"fa":2182,"Per":2183,"pÄĵi":2184,"ward":2185,"Har":2186,"Man":2187,"ds":2188,"tional":2189,"tain":2190,"ja":2191,"04":2192,"4000":2193,"115":2194,"cuÃłn":2195,"1200":2196,"ky":2197,"ux":2198,"ound":2199,"ight":2200,"M1":2201,"03":2202,"GP":2203,"pÃ¡o":2204,"CE":2205,"back":2206,"1889":2207,"begin":2208,"Je":2209,"1899":2210,"ool":2211,"colspan":2212,"1871":2213,"ring":2214,"Ed":2215,"RS":2216,"ower":2217,"mic":2218,"Facebook":2219,"lude":2220,"Willi":2221,"Microsoft":2222,"âĢĭ":2223,"240":2224,"tur":2225,"Mac":2226,"1600":2227,"LO":2228,"Live":2229,"BE":2230,"cket":2231,"102":2232,"cc":2233,"ker":2234,"box":2235,"TT":2236,"1897":2237,"Gi":2238,"NH":2239,"EE":2240,"chÃ²u":2241,"Pre":2242,"Tri":2243,"117":2244,"On":2245,"PP":2246,"qÃ¬n":2247,"ks":2248,"Is":2249,"SC":2250,"02":2251,"van":2252,"cm":2253,"shuÇİng":2254,"style":2255,"mb":2256,"103":2257,"AKB48":2258,"MD":2259,"yÇİo":2260,"107":2261,"Gra":2262,"bli":2263,"Music":2264,"Gre":2265,"ood":2266,"cÃ²u":2267,"Linux":2268,"include":2269,"Dis":2270,"Or":2271,"Tra":2272,"Pri":2273,"tÇİng":2274,"ww":2275,"Nor":2276,"pha":2277,"min":2278,"Ori":2279,"ye":2280,"only":2281,"450":2282,"VID":2283,"tus":2284,"127":2285,"mas":2286,"tra":2287,"Davi":2288,"que":2289,"ane":2290,"128":2291,"align":2292,"lÄģo":2293,"lis":2294,"ous":2295,"Game":2296,"flix":2297,"CL":2298,"ora":2299,"Netflix":2300,"El":2301,"1894":2302,"220":2303,"rin":2304,"Ber":2305,"Ð½":2306,"ser":2307,"William":2308,"IL":2309,"Vo":2310,"SH":2311,"sti":2312,"rom":2313,"Twit":2314,"1880":2315,"Red":2316,"yi":2317,"RNA":2318,"zÃ¡o":2319,"136":2320,"PG":2321,"Fu":2322,"Ð¸":2323,"ero":2324,"ãģĦ":2325,"TR":2326,"stra":2327,"Team":2328,"1800":2329,"Wa":2330,"ãĤ¹":2331,"Univer":2332,"ground":2333,"tor":2334,"1885":2335,"nge":2336,"liÇİ":2337,"114":2338,"ano":2339,"ãĤĵ":2340,"piÃ¡n":2341,"rus":2342,"Hz":2343,"Ty":2344,"Char":2345,"color":2346,"116":2347,"280":2348,"name":2349,"Star":2350,"Eu":2351,"Gen":2352,"UR":2353,"hy":2354,"Ðµ":2355,"113":2356,"era":2357,"lla":2358,"1886":2359,"sing":2360,"ãĤ¤":2361,"TS":2362,"ten":2363,"School":2364,"PO":2365,"mÇİng":2366,"lass":2367,"1893":2368,"irl":2369,"Bla":2370,"Mc":2371,"ex":2372,"nic":2373,"out":2374,"111":2375,"Mark":2376,"SL":2377,"irst":2378,"ãĦ":2379,"cial":2380,"Super":2381,"Don":2382,"ac":2383,"Wal":2384,"ject":2385,"lex":2386,"mÇĴ":2387,"ans":2388,"âĢ»":2389,"tri":2390,"lia":2391,"ie":2392,"mÅį":2393,"135":2394,"David":2395,"260":2396,"1860":2397,"national":2398,"Geor":2399,"Mor":2400,"ys":2401,"nÃŃn":2402,"gue":2403,"tle":2404,"any":2405,"Pet":2406,"WTA":2407,"way":2408,"roup":2409,"HC":2410,"Mat":2411,"nis":2412,"ces":2413,"UA":2414,"Un":2415,"was":2416,"ouse":2417,"ham":2418,"1888":2419,"Ac":2420,"text":2421,"SD":2422,"-.":2423,"cation":2424,"Bra":2425,"ony":2426,"roid":2427,"background":2428,"yÅ«n":2429,"dÇİi":2430,"ream":2431,"Show":2432,"129":2433,"GO":2434,"om":2435,"chÄĵn":2436,"1870":2437,"stri":2438,"GN":2439,"ï¹":2440,"Che":2441,"nia":2442,"1887":2443,"bur":2444,"don":2445,"pri":2446,"shuÄģn":2447,"1868":2448,"6000":2449,"cle":2450,"Ã¶":2451,"ÑĢ":2452,"1883":2453,"Cy":2454,"NF":2455,"VA":2456,"lub":2457,"meri":2458,"Ku":2459,"ank":2460,"Meta":2461,"320":2462,"Ab":2463,"Xbox":2464,"CS":2465,"NHK":2466,"AF":2467,"DD":2468,"Twitter":2469,"KP":2470,"ny":2471,"onlyinclude":2472,"Tho":2473,"ens":2474,"piÃ¡o":2475,"++":2476,"bit":2477,"tÃłng":2478,"1864":2479,"âĢ¢":2480,"ION":2481,"1884":2482,"119":2483,"RC":2484,"UE":2485,"tis":2486,"122":2487,"Cl":2488,"2500":2489,"1892":2490,"210":2491,"A1":2492,"ong":2493,"ins":2494,"Wh":2495,"center":2496,"let":2497,"miÃ¹":2498,"155":2499,"Sou":2500,"ISO":2501,"âħ":2502,"145":2503,"1891":2504,"650":2505,"pre":2506,"Android":2507,"Girl":2508,"sel":2509,"NS":2510,"car":2511,"vil":2512,"ãĢķ":2513,"sil":2514,"OR":2515,"yo":2516,"As":2517,"ãĢĶ":2518,"1850":2519,"ona":2520,"cuÅį":2521,"htt":2522,"red":2523,"low":2524,"xy":2525,"ensis":2526,"International":2527,"Day":2528,"cer":2529,"mÄ«":2530,"1867":2531,"stem":2532,"IM":2533,"pÃłng":2534,"ãĥĪ":2535,"All":2536,"Nation":2537,"sed":2538,"1879":2539,"mber":2540,"James":2541,"Enter":2542,"War":2543,"ffi":2544,"380":2545,"AB":2546,"UP":2547,"dis":2548,"1876":2549,"Coun":2550,"Ver":2551,"Universi":2552,"im":2553,"vin":2554,"George":2555,"Her":2556,"1875":2557,"1861":2558,"270":2559,"Dra":2560,"td":2561,"lie":2562,"sia":2563,"eld":2564,"Air":2565,"Group":2566,"IR":2567,"cho":2568,"time":2569,"126":2570,"ama":2571,"NT":2572,"Pau":2573,"lor":2574,"inter":2575,"Ani":2576,"Spe":2577,"Games":2578,"NGC":2579,"Hy":2580,"stru":2581,"ãĥ«":2582,"1873":2583,"Hol":2584,"MG":2585,"123":2586,"ãĥ©":2587,"Eng":2588,"PV":2589,"Ben":2590,"HT":2591,"val":2592,"Colle":2593,"day":2594,"MB":2595,"168":2596,"COVID":2597,"critic":2598,"Club":2599,"FM":2600,"Hen":2601,"lue":2602,"1865":2603,"ild":2604,"AO":2605,"PL":2606,"that":2607,"ass":2608,"Ameri":2609,"DE":2610,"121":2611,"Center":2612,"ut":2613,"cus":2614,"Blo":2615,"175":2616,"ãģĨ":2617,"Web":2618,"H2":2619,"YP":2620,"from":2621,"Ã¤":2622,"1400":2623,"Ali":2624,"od":2625,"MAX":2626,"work":2627,"par":2628,"138":2629,"228":2630,"TP":2631,"fer":2632,"1848":2633,"chÃłn":2634,"ast":2635,"ald":2636,"ney":2637,"liÅ«":2638,"1862":2639,"330":2640,"dge":2641,"pÄĽng":2642,"124":2643,"ãĤ¢":2644,"1881":2645,"1882":2646,"737":2647,"age":2648,"Can":2649,"1878":2650,"550":2651,"Sha":2652,"guÇİi":2653,"ruÇĲ":2654,"1872":2655,"Ele":2656,"LC":2657,"bÃ¬n":2658,"INK":2659,"Metacritic":2660,"Oricon":2661,"bor":2662,"nÃ¡o":2663,"156":2664,"MTV":2665,"UC":2666,"bri":2667,"165":2668,"comp":2669,"Boo":2670,"LED":2671,"fo":2672,"1840":2673,"niÇİn":2674,"IVE":2675,"High":2676,"Spi":2677,"core":2678,"dÄģi":2679,"wan":2680,"750":2681,"It":2682,"ns":2683,"tro":2684,"shÃłi":2685,"ãĥĥ":2686,"ology":2687,"ming":2688,"1300":2689,"ãģĹ":2690,"137":2691,"stagram":2692,"7000":2693,"Bro":2694,"DOS":2695,"SQ":2696,"UB":2697,"229":2698,"IU":2699,"cre":2700,"zo":2701,"Chu":2702,"GDP":2703,"King":2704,"OK":2705,"Ñģ":2706,"ena":2707,"Lea":2708,"She":2709,"rand":2710,"152":2711,"als":2712,"Stre":2713,"TVB":2714,"Micha":2715,"Va":2716,"lip":2717,"159":2718,"1877":2719,"Robert":2720,"type":2721,"Sur":2722,"âĹ":2723,"kuÇĲ":2724,"1866":2725,"rist":2726,"Chi":2727,"Chris":2728,"Pat":2729,"iOS":2730,"Ð»":2731,"oly":2732,"Produ":2733,"SK":2734,"1869":2735,"âĢ²":2736,"silver":2737,"THE":2738,"Up":2739,"Ce":2740,"DM":2741,"gar":2742,"her":2743,"sen":2744,"xiÇĶ":2745,"Fri":2746,"NET":2747,"Pla":2748,"Ðº":2749,"she":2750,"139":2751,"Instagram":2752,"Phone":2753,"BI":2754,"star":2755,"BLAC":2756,"Type":2757,"Big":2758,"por":2759,"Ð²":2760,"DJ":2761,"rÄĵng":2762,"iss":2763,"Apple":2764,"CG":2765,"Hel":2766,"WE":2767,"ew":2768,"ray":2769,"ãĤ¯":2770,"code":2771,"Michael":2772,"At":2773,"DF":2774,"ï¸":2775,"ark":2776,"alk":2777,"1100":2778,"158":2779,"ons":2780,"ator":2781,"Tech":2782,"Paul":2783,"225":2784,"305":2785,"133":2786,"INE":2787,"cia":2788,"RA":2789,"sÇİ":2790,"ãĥª":2791,"Award":2792,"HI":2793,"YO":2794,"132":2795,"Steam":2796,"205":2797,"1863":2798,"Park":2799,"National":2800,"Bill":2801,"Ye":2802,"tainment":2803,"215":2804,"Ci":2805,"bra":2806,"sto":2807,"new":2808,"University":2809,"FO":2810,"ral":2811,"Media":2812,"CA":2813,"F1":2814,"KBS":2815,"Val":2816,"148":2817,"131":2818,"Lou":2819,"Smi":2820,"166":2821,"arch":2822,"1874":2823,"sso":2824,"EF":2825,"Mer":2826,"XX":2827,"bal":2828,"kg":2829,"now":2830,"1858":2831,"Fin":2832,"Kar":2833,"Tran":2834,"gon":2835,"ves":2836,"147":2837,"space":2838,"Black":2839,"Ter":2840,"ach":2841,"gan":2842,"Peter":2843,"Gar":2844,"deo":2845,"256":2846,"ãģĭ":2847,"GA":2848,"IE":2849,"M2":2850,"kÇĶn":2851,"1830":2852,"Rich":2853,"CBS":2854,"UT":2855,"1851":2856,"Lee":2857,"BN":2858,"UI":2859,"192":2860,"zer":2861,"Î¼":2862,"ada":2863,"8000":2864,"chÄĽ":2865,"Jack":2866,"Entertainment":2867,"310":2868,"Jap":2869,"Win":2870,"lÇĲn":2871,"bin":2872,"mini":2873,"143":2874,"set":2875,"City":2876,"Mk":2877,"gÃłng":2878,"1855":2879,"rie":2880,"ater":2881,"Intel":2882,"Power":2883,"EM":2884,"IX":2885,"Sam":2886,"hÇİ":2887,"Space":2888,"RAM":2889,"ð«":2890,"185":2891,"1859":2892,"zuÃ³":2893,"STAR":2894,"ship":2895,"Charles":2896,"bel":2897,"py":2898,"134":2899,"Dire":2900,"Ang":2901,"ABC":2902,"Fla":2903,"ene":2904,"1854":2905,"146":2906,"301":2907,"enti":2908,"1700":2909,"Viu":2910,"Java":2911,"370":2912,"if":2913,"1857":2914,"Free":2915,"GM":2916,"Py":2917,"Tai":2918,"whi":2919,"stro":2920,"vs":2921,"Ø§":2922,"ann":2923,"290":2924,"ãģª":2925,"Life":2926,"ï¸°":2927,"Er":2928,"Pan":2929,"Ve":2930,"Î³":2931,"214":2932,"420":2933,"Dream":2934,"Ya":2935,"ÑĤ":2936,"Recor":2937,"Alpha":2938,"Company":2939,"stitu":2940,"ek":2941,"fang":2942,"face":2943,"Î¿":2944,"ãĢľ":2945,"mis":2946,"1856":2947,"1853":2948,"Project":2949,"Am":2950,"House":2951,"Pop":2952,"first":2953,"dium":2954,"ãģŁ":2955,"ety":2956,"Time":2957,"Thomas":2958,"Cal":2959,"Min":2960,"ae":2961,"ox":2962,"von":2963,"vis":2964,"144":2965,"Saint":2966,"FA":2967,"Ken":2968,"OVA":2969,"Cent":2970,"Tru":2971,"VO":2972,"bÃ²":2973,"A2":2974,"IO":2975,"167":2976,"Street":2977,"3A":2978,"HS":2979,"SBS":2980,"shÇİ":2981,"bili":2982,"kuÇİ":2983,"1841":2984,"very":2985,"Alex":2986,"Bat":2987,"LP":2988,"Lau":2989,"Tor":2990,"din":2991,"ric":2992,"340":2993,"PM":2994,"Por":2995,"Shi":2996,"chuÇİn":2997,"mat":2998,"mation":2999,"BLACKP":3000,"Met":3001,"ple":3002,"zÄģ":3003,"208":3004,"1815":3005,"178":3006,"CPU":3007,"BLACKPINK":3008,"223":3009,"Bur":3010,"cis":3011,"mÃ¨n":3012,"Soci":3013,"Studio":3014,"Euro":3015,"850":3016,"LGB":3017,"Sing":3018,"pla":3019,"cher":3020,"zuÅį":3021,"ses":3022,"Rock":3023,"www":3024,"IBM":3025,"spe":3026,"SF":3027,"207":3028,"die":3029,"play":3030,"sg":3031,"nie":3032,"171":3033,"235":3034,"tation":3035,"ãģ¨":3036,"ãģ¾":3037,"Dig":3038,"Fer":3039,"LIVE":3040,"Mr":3041,"PE":3042,"SU":3043,"VE":3044,"Yu":3045,"nÃ¬ng":3046,"203":3047,"B2":3048,"Whi":3049,"not":3050,"Art":3051,"SQL":3052,"Pad":3053,"1846":3054,"164":3055,"ford":3056,"oot":3057,"College":3058,"bre":3059,"cra":3060,"157":3061,"vice":3062,"berg":3063,"publi":3064,"BR":3065,"LT":3066,"NE":3067,"lit":3068,"141":3069,"ICE":3070,"B1":3071,"Cro":3072,"Cap":3073,"Sun":3074,"ond":3075,"176":3076,"thy":3077,"ING":3078,"board":3079,"Inc":3080,"Tele":3081,"American":3082,"Asso":3083,"LS":3084,"hÄģn":3085,"you":3086,"Â²":3087,"1812":3088,"1845":3089,"1844":3090,"sign":3091,"Road":3092,"Girls":3093,"self":3094,"Ze":3095,"sch":3096,"mit":3097,"231":3098,"Offi":3099,"cture":3100,"class":3101,"HF":3102,"Ltd":3103,"M3":3104,"Mil":3105,"Ros":3106,"ãĤĬ":3107,"witch":3108,"LGBT":3109,"Ag":3110,"ball":3111,"209":3112,"cess":3113,"ãģį":3114,"off":3115,"NASA":3116,"GNU":3117,"LA":3118,"wÄģi":3119,"ded":3120,"Jose":3121,"Smith":3122,"Cla":3123,"Ger":3124,"PA":3125,"Pra":3126,"ampi":3127,"IUCN":3128,"216":3129,"PN":3130,"Îº":3131,"1849":3132,"153":3133,"temp":3134,"ved":3135,"Good":3136,"CT":3137,"Fil":3138,"NBC":3139,"Tour":3140,"wh":3141,"zhÇĴu":3142,"sha":3143,"204":3144,"238":3145,"aurus":3146,"Production":3147,"BB":3148,"Cra":3149,"Gal":3150,"Hall":3151,"Sci":3152,"nal":3153,"oi":3154,"yn":3155,"vision":3156,"Video":3157,"Gala":3158,"GT":3159,"O2":3160,"lÄĵ":3161,"pm":3162,"ue":3163,"Ïĥ":3164,"mited":3165,"orts":3166,"ino":3167,"tions":3168,"Eli":3169,"PR":3170,"Sky":3171,"tal":3172,"206":3173,"lea":3174,"qui":3175,"mac":3176,"460":3177,"ab":3178,"mal":3179,"win":3180,"1814":3181,"org":3182,"218":3183,"ani":3184,"fra":3185,"eries":3186,"Richard":3187,"SI":3188,"lti":3189,"war":3190,"chÇĶn":3191,"rich":3192,"ange":3193,"IGN":3194,"Act":3195,"LD":3196,"âĸ":3197,"pic":3198,"Boy":3199,"Far":3200,"Tur":3201,"WS":3202,"ÏĢ":3203,"def":3204,"1847":3205,"154":3206,"turn":3207,"580":3208,"Ama":3209,"FF":3210,"bun":3211,"ep":3212,"fri":3213,"led":3214,"1843":3215,"mann":3216,"Best":3217,"phy":3218,"System":3219,"ptr":3220,"430":3221,"Mas":3222,"MBC":3223,"Plan":3224,"zz":3225,"177":3226,"401":3227,"chem":3228,"410":3229,"Bel":3230,"Sal":3231,"ãĤ·":3232,"NFL":3233,"ViuTV":3234,"Switch":3235,"Wo":3236,"king":3237,"163":3238,"AMD":3239,"API":3240,"West":3241,"Japan":3242,"ICO":3243,"bar":3244,"bus":3245,"up":3246,"ments":3247,"1852":3248,"162":3249,"thon":3250,"esti":3251,"Christ":3252,"cript":3253,"VII":3254,"1820":3255,"orn":3256,"get":3257,"this":3258,"ãģı":3259,"Max":3260,"Fre":3261,"Prin":3262,"cil":3263,"142":3264,"234":3265,"ria":3266,"Roy":3267,"VR":3268,"172":3269,"ãģĬ":3270,"ãģķ":3271,"Records":3272,"640":3273,"Dan":3274,"Squ":3275,"Vir":3276,"wood":3277,"169":3278,"3500":3279,"Limited":3280,"Core":3281,"KC":3282,"T1":3283,"gs":3284,"phi":3285,"Â±":3286,"1839":3287,"ars":3288,"232":3289,"data":3290,"480":3291,"CM":3292,"cÄ«":3293,"179":3294,"thi":3295,"deĠ":3296,"ĠdeĠ":3297,"shÃ¬Ġ":3298,"ĠshÃ¬Ġ":3299,"ĠniÃ¡n":3300,"ĠniÃ¡nĠ":3301,"wÃ¨iĠ":3302,"zÃłiĠ":3303,"ĠwÃ¨iĠ":3304,"ĠzÃłiĠ":3305,"hÃ©Ġ":3306,"ĠhÃ©Ġ":3307,"zhÅįngĠ":3308,"bÃ¹Ġ":3309,"dÃ¬Ġ":3310,"shÃŃĠ":3311,"guÃ³Ġ":3312,"yÃºĠ":3313,"rÃ©nĠ":3314,"ĠbÃ¹Ġ":3315,"yÄ«Ġ":3316,"ĠzhÅįngĠ":3317,"lÃ¬Ġ":3318,"zhÃ¬Ġ":3319,"gÅįngĠ":3320,"ĠshÃŃĠ":3321,"yuÃ¨Ġ":3322,"jÃŃĠ":3323,"chÃ©ngĠ":3324,"yÃ¬Ġ":3325,"yÇĴuĠ":3326,"ĠdÃ¬Ġ":3327,"ĠyuÃ¨Ġ":3328,"ĠyÃºĠ":3329,"ĠrÃ©nĠ":3330,"ĠzhÃ¬Ġ":3331,"dÃłĠ":3332,"ĠjÃŃĠ":3333,"yuÃ¡nĠ":3334,"ĠyÇĴuĠ":3335,"jÃ¬Ġ":3336,"ĠguÃ³Ġ":3337,"ĠlÃ¬Ġ":3338,"ĠgÅįngĠ":3339,"ĠyÃ¬Ġ":3340,"ĠyÇĲ":3341,"ĠchÃ©ngĠ":3342,"jiÄģĠ":3343,"sÄ«Ġ":3344,"yÇĶĠ":3345,"ĠxiÃłn":3346,"ĠrÃ¬":3347,"ĠyÄ«Ġ":3348,"ĠxÃŃng":3349,"ĠtÄģ":3350,"lÇĲĠ":3351,"jÄ«Ġ":3352,"ĠdÃło":3353,"hÃ²uĠ":3354,"wÃ©iĠ":3355,"ĠzhÄ«":3356,"ĠdÃłĠ":3357,"ĠyuÃ¡nĠ":3358,"xÄ«Ġ":3359,"ĠrÃ¬Ġ":3360,"ĠgÃ¨":3361,"ĠyÇĲĠ":3362,"xuÃ©Ġ":3363,"huÃ¬Ġ":3364,"leĠ":3365,"zuÃ²Ġ":3366,"ĠyÇĶĠ":3367,"ĠdÃłoĠ":3368,"mÃŃngĠ":3369,"ĠjÃ¬Ġ":3370,"bÃ¨iĠ":3371,"ĠxÃŃngĠ":3372,"shÄĵngĠ":3373,"ĠjiÃłn":3374,"ĠchÅ«":3375,"ĠqÃŃ":3376,"ĠsÄ«Ġ":3377,"ĠdÃ©":3378,"zhÃ¨ngĠ":3379,"ĠxiÃłnĠ":3380,"ĠhÃ²uĠ":3381,"ĠjÄ«Ġ":3382,"duÃ¬Ġ":3383,"shÃłngĠ":3384,"qÅ«Ġ":3385,"shÇĲĠ":3386,"ĠÄĽr":3387,"ĠjiÄģĠ":3388,"yÃ³uĠ":3389,"ĠtÄģĠ":3390,"ĠxÄ«Ġ":3391,"ĠlÇĲĠ":3392,"ĠÃ©r":3393,"zhÃłnĠ":3394,"ĠjÅ«n":3395,"ĠbÃ¬ng":3396,"ĠzhÄ«Ġ":3397,"ĠgÃ¨Ġ":3398,"zhÇĶĠ":3399,"rÃ¨nĠ":3400,"fÃ¹Ġ":3401,"zÃ¬Ġ":3402,"wÃ¹Ġ":3403,"xÄ«nĠ":3404,"dÃłiĠ":3405,"jÃ¹Ġ":3406,"pÃŃngĠ":3407,"ĠchÅ«Ġ":3408,"ĠkÃ¨":3409,"ĠzhÅįu":3410,"xiÄģngĠ":3411,"ĠhuÃ¬Ġ":3412,"shÃ¹Ġ":3413,"nÃ¡nĠ":3414,"ĠshÃ¨":3415,"ĠbÃ¨iĠ":3416,"ĠmÃŃngĠ":3417,"xiÃłĠ":3418,"guÄģnĠ":3419,"ĠÄĽrĠ":3420,"ĠdÃ©Ġ":3421,"lÃ¹Ġ":3422,"yÃ¹Ġ":3423,"huÃłĠ":3424,"ĠjiÃłnĠ":3425,"jÄ«ngĠ":3426,"yÃ¡nĠ":3427,"fÄģngĠ":3428,"ĠyÄ«n":3429,"kÄģiĠ":3430,"jiÄģnĠ":3431,"jiÃłoĠ":3432,"fÄģĠ":3433,"yÃ²ngĠ":3434,"ĠdÃłn":3435,"ĠÃ©rĠ":3436,"zhÃ¹Ġ":3437,"lÃ¡iĠ":3438,"mÃŃnĠ":3439,"shÇĴuĠ":3440,"zhÃ¨Ġ":3441,"xiÃłngĠ":3442,"wÃ©nĠ":3443,"ĠjÅ«nĠ":3444,"xÃ¬Ġ":3445,"qiÃ¡nĠ":3446,"bÄĽnĠ":3447,"tÃ¨Ġ":3448,"ĠwÃ©iĠ":3449,"zhÃŃĠ":3450,"fÇİĠ":3451,"qÄ«Ġ":3452,"jiÃ©Ġ":3453,"liÃ¡nĠ":3454,"ĠbÃ¬ngĠ":3455,"dÃ²ngĠ":3456,"diÃłnĠ":3457,"ĠqÃŃĠ":3458,"ĠkÃ¨Ġ":3459,"dÅįngĠ":3460,"mÃ¹Ġ":3461,"ĠjÃ¬n":3462,"ĠduÃ¬Ġ":3463,"ĠhuÃ²":3464,"ĠzhÃłnĠ":3465,"fÄĵnĠ":3466,"tÃ¡iĠ":3467,"zhÇİngĠ":3468,"dÃ¹Ġ":3469,"jiÄģngĠ":3470,"ĠqiÃº":3471,"ĠpÃŃngĠ":3472,"gÄģoĠ":3473,"yÃ¨Ġ":3474,"suÇĴĠ":3475,"bÄĽiĠ":3476,"ĠzhÅįuĠ":3477,"shÄ«Ġ":3478,"ĠleĠ":3479,"duÅįĠ":3480,"jiÄĵĠ":3481,"gÃ©Ġ":3482,"ĠshÃłngĠ":3483,"jÄ«nĠ":3484,"ĠzhÃ¨ngĠ":3485,"fÃºĠ":3486,"ĠzuÃ²Ġ":3487,"ĠyÃ³uĠ":3488,"ĠfÃ¹Ġ":3489,"kÇĴuĠ":3490,"guÃ²Ġ":3491,"zhÇĲĠ":3492,"ĠtÃ³ng":3493,"hÇİiĠ":3494,"ĠrÃ¨nĠ":3495,"ĠquÃ¡n":3496,"mÇİĠ":3497,"tÅįngĠ":3498,"rÃ¹Ġ":3499,"zuÃ¬Ġ":3500,"ĠshÄĵngĠ":3501,"ĠxuÃ©Ġ":3502,"cÇĲĠ":3503,"xÃ¬ngĠ":3504,"wÃłiĠ":3505,"nÃ¨iĠ":3506,"lÄģĠ":3507,"tÇĲĠ":3508,"juÃ©Ġ":3509,"kÄĽĠ":3510,"qÇĲĠ":3511,"shÄģnĠ":3512,"tiÄģnĠ":3513,"chÇİngĠ":3514,"dÄĽngĠ":3515,"zhÃ¨nĠ":3516,"wÇĶĠ":3517,"chÃ¡ngĠ":3518,"ziĠ":3519,"yÃłoĠ":3520,"bÇĲĠ":3521,"ĠjÃ¹Ġ":3522,"bÇİoĠ":3523,"mÇĲĠ":3524,"yÃłĠ":3525,"ĠyÄĽ":3526,"gÄģiĠ":3527,"ĠyÄ«nĠ":3528,"ĠdÃłiĠ":3529,"miÃłnĠ":3530,"zhÃ²ngĠ":3531,"ĠshÃ¨Ġ":3532,"fÄĵngĠ":3533,"ĠzhÃ¨Ġ":3534,"zhÇĴngĠ":3535,"cÃ¬Ġ":3536,"yÃ¹nĠ":3537,"yÃŃĠ":3538,"liÃºĠ":3539,"chÄĵĠ":3540,"shÃ²uĠ":3541,"lÃŃnĠ":3542,"bÄģoĠ":3543,"yÃŃĠgÃ¨Ġ":3544,"sÃłiĠ":3545,"jiÃ¨Ġ":3546,"dÃ¬ngĠ":3547,"shÄĵnĠ":3548,"shÄĽngĠ":3549,"luÃ³Ġ":3550,"mÄĽiĠguÃ³Ġ":3551,"sÄģnĠ":3552,"qÃ¬Ġ":3553,"xiÇİoĠ":3554,"ĠdÃłnĠ":3555,"nÃ©ngĠ":3556,"shÅ«Ġ":3557,"zÃ©Ġ":3558,"liÃ¨Ġ":3559,"xuÇİnĠ":3560,"sÃ¬Ġ":3561,"qÄ«ngĠ":3562,"zhÄĽĠ":3563,"ĠqiÃºĠ":3564,"jÃ¬ngĠ":3565,"yuÃłnĠ":3566,"bÄģĠ":3567,"wÃ¡ngĠ":3568,"kÄĵĠ":3569,"tÃłiĠ":3570,"lÃ¡nĠ":3571,"bÃłoĠ":3572,"ÄģnĠ":3573,"zÇĴngĠ":3574,"yÇĲngĠ":3575,"ĠhuÃ²Ġ":3576,"bÃ¬Ġ":3577,"fÇĶĠ":3578,"dÇİoĠ":3579,"ĠxÄ«nĠ":3580,"gÇĶĠ":3581,"yÄ«ngĠ":3582,"ĠhÃło":3583,"ĠxiÃłĠ":3584,"ĠzÃ¬Ġ":3585,"gÄĵĠ":3586,"fÃ¨nĠ":3587,"xiÃłoĠ":3588,"yuÄĵĠ":3589,"nÃŃĠ":3590,"jiÄģoĠ":3591,"nÃłĠ":3592,"ĠyÃ¹Ġ":3593,"ĠmÇĲĠ":3594,"zÄ«Ġ":3595,"Ã¨rĠ":3596,"ĠxiÄģngĠ":3597,"pÇĶĠ":3598,"dÄģnĠ":3599,"ĠzhÃ¹Ġ":3600,"biÇİoĠ":3601,"guÇİnĠ":3602,"tÃ³uĠ":3603,"liÃłngĠ":3604,"chuÃ¡nĠ":3605,"ĠlÃ¹Ġ":3606,"sÃ¹Ġ":3607,"wÃºĠ":3608,"ĠdÄģng":3609,"bÅįĠ":3610,"rÃºĠ":3611,"yÇİnĠ":3612,"nÇļĠ":3613,"bÃ³Ġ":3614,"ĠzhÅįngĠguÃ³Ġ":3615,"xÄ«ngĠ":3616,"tÃŃĠ":3617,"fÄĵiĠ":3618,"dÃ¡Ġ":3619,"sÃ¨Ġ":3620,"chÄĵngĠ":3621,"mÄĽiĠ":3622,"ĠwÃ¨iĠyÃºĠ":3623,"ĠjÃ¬nĠ":3624,"cÃ©ngĠ":3625,"chÇİnĠ":3626,"ĠnÃ¡nĠ":3627,"shuÇĲĠ":3628,"tÃºĠ":3629,"biÃłnĠ":3630,"guÄ«Ġ":3631,"ĠrÃ¡n":3632,"ÄģĠ":3633,"yÃ¡ngĠ":3634,"zhÄģngĠ":3635,"gÇİiĠ":3636,"diÇİnĠ":3637,"cÃ³ngĠ":3638,"jiÃ¹Ġ":3639,"ĠbÄĽnĠ":3640,"ĠquÃ¡nĠ":3641,"shÄģĠ":3642,"bÄģoĠkuÃ²":3643,"wÇİngĠ":3644,"jiÇİnĠ":3645,"shÃ¨ngĠ":3646,"zÇĶĠ":3647,"shÇĶĠ":3648,"gÇİngĠ":3649,"huÃ¡Ġ":3650,"lÇľĠ":3651,"qÃŃngĠ":3652,"jÇĲngĠ":3653,"liÇİngĠ":3654,"zÃºĠ":3655,"bÃłnĠ":3656,"tÇĴngĠ":3657,"gÃ²ngĠ":3658,"shÄģngĠ":3659,"lÃŃĠ":3660,"hÃ¹Ġ":3661,"tÃ³ngĠ":3662,"biÄģnĠ":3663,"jÃ¬nĠ":3664,"ÃłnĠ":3665,"lÃ³ngĠ":3666,"luÃ²Ġ":3667,"xÃ¹Ġ":3668,"chÃŃĠ":3669,"ÃłoĠ":3670,"mÃ©iĠ":3671,"jÇĲnĠ":3672,"bÄģnĠ":3673,"guÇİngĠ":3674,"chÅ«Ġ":3675,"cÃ¨Ġ":3676,"mÃ¬Ġ":3677,"shÃ©nĠ":3678,"ĠtÄģĠmen":3679,"zhÄĵngĠ":3680,"zhÄ«Ġ":3681,"lÇĲngĠ":3682,"yÃ²uĠ":3683,"fÇİnĠ":3684,"wÄĵiĠ":3685,"ĠzhÇĶĠ":3686,"ĠxiÃłngĠ":3687,"huÃ³Ġ":3688,"xÃŃĠ":3689,"tÃŃngĠ":3690,"kÇİĠ":3691,"chÃ¡Ġ":3692,"ĠgÄģiĠ":3693,"cÃ¡iĠ":3694,"1Ġ":3695,"gÃ²uĠ":3696,"shuÅįĠ":3697,"mÃ©nĠ":3698,"cÃŃĠ":3699,"xiÇİngĠ":3700,"mÇĶĠ":3701,"lÃ¨iĠ":3702,"wÄĽiĠ":3703,"qÇĶĠ":3704,"ĠgÅįngĠlÇĲĠ":3705,"yÃ¡nĠjiÅ«":3706,"ĠduÅįĠ":3707,"tuÃ¡nĠ":3708,"yÇĲnĠ":3709,"jiÃłnĠ":3710,"ĠyÄĽĠ":3711,"chÃ¡oĠ":3712,"yÃ¬ngĠ":3713,"chÃ©nĠ":3714,"tÃ¡ngĠ":3715,"xiÄĵĠ":3716,"qÃŃĠ":3717,"pÇĲnĠ":3718,"ĠyÇĲĠjÃŃĠ":3719,"jiÃłĠ":3720,"shÇĲĠyÃ²ngĠ":3721,"jiÄĽĠ":3722,"ĠwÃłn":3723,"hÃ¡ngĠ":3724,"yÇĲĠ":3725,"lÃºnĠ":3726,"rÃ³ngĠ":3727,"ĠyÃ³u":3728,"jiÇİngĠ":3729,"pÃ¡iĠ":3730,"fÅ«Ġ":3731,"jiÇĶĠ":3732,"Ã©Ġ":3733,"lÃ¬ngĠ":3734,"tÃ¡iĠwÄģn":3735,"ĠhÃłoĠ":3736,"ĠdeĠdÃ¬Ġ":3737,"xÅ«Ġ":3738,"kÄĽĠyÇĲĠ":3739,"2Ġ":3740,"huÃ¡ngĠ":3741,"xiÄģnĠ":3742,"duÃłnĠ":3743,"kÃ¨Ġ":3744,"dÇİngĠ":3745,"mÃ³Ġ":3746,"cÄģnĠ":3747,"yÃŃngĠ":3748,"tiÃ¡oĠ":3749,"biÄģoĠ":3750,"ĠdeĠyÄ«Ġ":3751,"kÄģiĠshÇĲĠ":3752,"quÃ¡nĠ":3753,"zhÇİnĠ":3754,"ĠchÃ©ngĠwÃ©iĠ":3755,"yÄĽĠ":3756,"hÃ³ngĠ":3757,"mÃ©iĠyÇĴuĠ":3758,"hÃłnĠ":3759,"yÄ«nĠ":3760,"wÄĽiĠyuÃ¡nĠ":3761,"qiÄģnĠ":3762,"bÇİnĠ":3763,"xiÃłnĠ":3764,"lÃŃngĠ":3765,"xiÄģoĠ":3766,"ĠtÃ³ngĠ":3767,"huÃŃĠ":3768,"sÅ«Ġ":3769,"fÃ¡ngĠ":3770,"mÃ©ngĠ":3771,"zhuÄģngĠ":3772,"kÅįngĠ":3773,"jÃºĠ":3774,"cÅ«nĠ":3775,"bÄģoĠkuÃ²Ġ":3776,"rÃ©nĠkÇĴuĠ":3777,"ĠqÃŃĠzhÅįngĠ":3778,"ĠgÅįngĠsÄ«Ġ":3779,"huÃ²Ġ":3780,"zÇĲĠ":3781,"xÃŃngĠ":3782,"dÅįuĠ":3783,"ĠdeĠshÃ¬Ġ":3784,"ĠĠĠzÃłiĠ":3785,"qiÃ¡ngĠ":3786,"zhÃłoĠ":3787,"dÃºĠ":3788,"zhÃ¨ngĠzhÃ¬Ġ":3789,"yÃŃĠgÃ¨":3790,"mÃ²Ġ":3791,"ĠfÄĵnĠ":3792,"cÇİiĠ":3793,"bÄ«ngĠ":3794,"fÇİĠguÃ³Ġ":3795,"ĠgÄģoĠ":3796,"ĠdÃłĠxuÃ©Ġ":3797,"ĠshÃ¬ĠyÄ«Ġ":3798,"hÃ¡iĠ":3799,"ĠtÄģĠdeĠ":3800,"hÃºĠ":3801,"chÃ¹Ġ":3802,"qÄ«nĠ":3803,"lÃ¹nĠ":3804,"fÃłnĠ":3805,"zhÄĵnĠ":3806,"guÄģngĠ":3807,"wÃ¨nĠ":3808,"mÃłnĠ":3809,"ĠjiÃ©Ġ":3810,"shÃ¨Ġ":3811,"biÇİoĠshÃ¬Ġ":3812,"ÃłiĠ":3813,"zhÅįngĠdeĠ":3814,"jÅ«Ġ":3815,"ĠjiÃłoĠ":3816,"zhuÄģnĠ":3817,"diÃłoĠ":3818,"bÃ¡iĠ":3819,"dÇİĠ":3820,"quÃ¨Ġ":3821,"diÃłnĠshÃ¬Ġ":3822,"ĠdÅįngĠ":3823,"ĠdÃ¹Ġ":3824,"fÃ¨iĠ":3825,"ĠshÃ¬ĠwÃ¨iĠ":3826,"ĠmÃ¹Ġ":3827,"hÃ¡nĠ":3828,"shÃ¬ĠdeĠ":3829,"3Ġ":3830,"ĠtÃ¨Ġ":3831,"xÃ¹nĠ":3832,"ĠjÄ«nĠ":3833,"piÃłnĠ":3834,"mÃ¬ngĠ":3835,"jÇĶĠ":3836,"ĠjiÄģngĠ":3837,"tuÅįĠ":3838,"gÃ¹Ġ":3839,"ĠrÃ©nĠkÇĴuĠ":3840,"xiÅ«Ġ":3841,"ĠbÃ¹ĠfÃ¨nĠ":3842,"xiÃ©Ġ":3843,"zÃłoĠ":3844,"ĠhÃ©ĠguÃ³Ġ":3845,"zhÅįngĠguÃ³Ġ":3846,"guÇĴĠ":3847,"10ĠyuÃ¨Ġ":3848,"shÅįuĠ":3849,"ĠzuÃ¬":3850,"xÃ¬nĠ":3851,"12ĠyuÃ¨Ġ":3852,"7ĠyuÃ¨Ġ":3853,"9ĠyuÃ¨Ġ":3854,"zhuÇİnĠ":3855,"ĠshÄ«Ġ":3856,"tÄģĠ":3857,"dÄģngĠ":3858,"miÃłnĠjÄ«Ġ":3859,"ĠrÃ©nĠmÃŃnĠ":3860,"8ĠyuÃ¨Ġ":3861,"xÃºnĠ":3862,"ĠdÃ¬ĠqÅ«Ġ":3863,"wÅ«Ġ":3864,"3ĠyuÃ¨Ġ":3865,"ĠguÃ²Ġ":3866,"1ĠyuÃ¨Ġ":3867,"ĠsuÇĴĠ":3868,"ĠjÄ«ngĠ":3869,"ĠshÇĴuĠ":3870,"gÇİnĠ":3871,"huÃ¡nĠ":3872,"dÃŃĠ":3873,"xiÃ¡Ġ":3874,"jiÇİĠ":3875,"5ĠyuÃ¨Ġ":3876,"yÄ«ngĠguÃ³Ġ":3877,"ĠcÇĲĠ":3878,"dÃłoĠ":3879,"dÇĲĠ":3880,"zhÅ«Ġ":3881,"tÄ«ngĠ":3882,"zhÃ¨ngĠshÃ¬Ġ":3883,"chÃ³ngĠ":3884,"huÇĴĠ":3885,"zhÅįuĠ":3886,"6ĠyuÃ¨Ġ":3887,"zhuÃłngĠ":3888,"chÃ©ngĠshÃ¬Ġ":3889,"4ĠyuÃ¨Ġ":3890,"ĠguÃ³ĠjiÄģĠ":3891,"tiÃ¡nĠ":3892,"gÃ¨ngĠ":3893,"ĠĠĠdÃ¬Ġ":3894,"fÃłngĠ":3895,"yÇĴngĠ":3896,"shÇĶĠyÃºĠ":3897,"ĠpÃŃngĠfÄģng":3898,"pÃ²Ġ":3899,"jÅ«nĠ":3900,"ĠdÃ¬ĠyÄ«Ġ":3901,"ĠqiÃ¡nĠ":3902,"11ĠyuÃ¨Ġ":3903,"qÃºnĠ":3904,"qÃ¹Ġ":3905,"jiÃłngĠ":3906,"tÃ¡oĠ":3907,"ĠshÃ¬ĠjÃ¬Ġ":3908,"ĠpÃŃngĠfÄģngĠgÅįngĠlÇĲĠ":3909,"ĠtÃ³ngĠshÃŃĠ":3910,"4Ġ":3911,"dÄģnĠrÃ¨nĠ":3912,"ĠmÇİĠ":3913,"ĠdÄĽngĠ":3914,"ĠrÃºĠ":3915,"gÄĵnĠ":3916,"jÇĲĠ":3917,"biÃ©Ġ":3918,"pÃłiĠ":3919,"dÅ«Ġ":3920,"liÃ¡ngĠ":3921,"5Ġ":3922,"shÇİoĠ":3923,"huÄ«Ġ":3924,"tiÄĽĠ":3925,"nÃ³ngĠ":3926,"ĠniÃ¡nĠ1ĠyuÃ¨Ġ":3927,"tÇİĠ":3928,"diÃłnĠyÇĲngĠ":3929,"zÅįngĠ":3930,"chÇĶĠ":3931,"ĠqÄ«Ġ":3932,"ĠtiÄģnĠ":3933,"ĠzhÃ¨":3934,"sÇĲĠ":3935,"ÄĽrĠ":3936,"ĠdeĠshÃŃĠ":3937,"shuÄģngĠ":3938,"qiÃ¡oĠ":3939,"tÃ¡iĠwÄģnĠ":3940,"ĠsuÃ¬":3941,"gÄĵnĠjÃ¹Ġ":3942,"lÃ¬ĠshÇĲĠ":3943,"chÃºĠ":3944,"ĠshÃ¬ĠzhÃ¨nĠ":3945,"gÃłoĠ":3946,"bÃłiĠ":3947,"cÄģnĠjiÄģĠ":3948,"yÃ¹nĠdÃ²ng":3949,"gÄģngĠ":3950,"chÄĵĠzhÃłnĠ":3951,"guÃ³ĠdeĠ":3952,"jiÇİoĠ":3953,"ĠyÄ«nĠwÃ¨iĠ":3954,"ĠrÃ¬ĠbÄĽnĠ":3955,"ĠpÃŃngĠfÄģngĠ":3956,"lÃ¬ĠdeĠ":3957,"ĠniÃ¡nĠdeĠ":3958,"gÃłiĠ":3959,"pÃłnĠ":3960,"ĠwÃ©nĠ":3961,"ĠhÇİiĠ":3962,"zhÃ¨ngĠfÇĶĠ":3963,"bÃ¬ngĠ":3964,"zhÇĶnĠ":3965,"ĠniÃ¡nĠ12ĠyuÃ¨Ġ":3966,"wÇİĠ":3967,"yÃłnĠ":3968,"wÇĴĠ":3969,"ĠfÃºĠ":3970,"gÃ²ngĠhÃ©ĠguÃ³Ġ":3971,"ĠxiÃłnĠdeĠ":3972,"yÃ¡Ġ":3973,"yÃŃnĠ":3974,"ĠwÃłnĠ":3975,"fÄģĠxiÃłnĠ":3976,"formulaĠ":3977,"chuÃłngĠ":3978,"hÄĵiĠ":3979,"huÃłnĠ":3980,"qÅ«ĠdeĠ":3981,"sÃ²ngĠ":3982,"hÄģĠ":3983,"hÄĽnĠ":3984,"ĠsuÇĴ":3985,"tÃŃĠgÅįngĠ":3986,"jÃ¬nĠxÃŃngĠ":3987,"ĠbÄĽiĠ":3988,"lÃ©iĠ":3989,"2ĠyuÃ¨Ġ":3990,"jÄ«ngĠjÃ¬Ġ":3991,"tÅįngĠguÃ²Ġ":3992,"ĠniÃ¡nĠ3ĠyuÃ¨Ġ":3993,"suÃŃĠ":3994,"chuÄģnĠ":3995,"qiÄĽĠ":3996,"ĠzhÅįngĠyÄģng":3997,"ĠguÃ³ĠjÃ¬Ġ":3998,"huÄģĠ":3999,"shÃłngĠdeĠ":4000,"ĠyÃ³uĠyÃºĠ":4001,"ĠyÃ²uĠ":4002,"lÄĵiĠ":4003,"wÄĽiĠyuÃ¡nĠhuÃ¬Ġ":4004,"kÇİoĠ":4005,"ĠniÃ¡nĠ7ĠyuÃ¨Ġ":4006,"wÃ¡nĠ":4007,"chÄĵngĠwÃ©iĠ":4008,"ĠniÃ¡nĠ10ĠyuÃ¨Ġ":4009,"bÇİiĠ":4010,"dÄĵngĠ":4011,"ĠshÃ¬ĠjiÃ¨Ġ":4012,"ĠyÄ«nĠcÇĲĠ":4013,"mÃŃngĠwÃ¨iĠ":4014,"ĠjÃ¬nĠxÃŃngĠ":4015,"nuÃ²Ġ":4016,"ĠshÃ¬ĠzÃłiĠ":4017,"ĠrÃ¡nĠ":4018,"chÅįngĠ":4019,"zhÇĶĠyÃ¬Ġ":4020,"ĠniÃ¡nĠ9ĠyuÃ¨Ġ":4021,"ĠtÄģĠmenĠ":4022,"kuÃłiĠ":4023,"yÃ¡nĠjiÅ«Ġ":4024,"tÇĶĠ":4025,"ĠzhÄ«ĠhÃ²uĠ":4026,"qiÃºĠ":4027,"ĠyÄ«ngĠ":4028,"mÃłiĠ":4029,"shÃŃĠdeĠ":4030,"liÃłnĠ":4031,"hÃłoĠ":4032,"ĠniÃ¡nĠ5ĠyuÃ¨Ġ":4033,"sÃłĠ":4034,"lÃºĠ":4035,"xÃ¬ĠtÇĴngĠ":4036,"ĠzuÃ¬Ġ":4037,"ĠliÃ¡nĠ":4038,"pÃ¨iĠ":4039,"lÇĶĠ":4040,"ĠniÃ¡nĠ4ĠyuÃ¨Ġ":4041,"chÇĲĠ":4042,"liÃłoĠ":4043,"ĠdÄģngĠ":4044,"ĠniÃ¡nĠ8ĠyuÃ¨Ġ":4045,"ĠniÃ¡nĠ6ĠyuÃ¨Ġ":4046,"ĠxÃŃngĠdeĠ":4047,"zÄĵngĠ":4048,"rÃ©nĠdeĠ":4049,"ĠshÇĲĠ":4050,"xiÄģngĠgÇİngĠ":4051,"xuÄģnĠ":4052,"qÄ«ĠjiÄģnĠ":4053,"dÃ©Ġ":4054,"kuÃłngĠ":4055,"guÇİnĠlÇĲĠ":4056,"ĠgÅįngĠzuÃ²Ġ":4057,"piÃłoĠ":4058,"ĠzhÄ«ĠyÄ«Ġ":4059,"xÇĶĠ":4060,"6Ġ":4061,"ÄĵnĠ":4062,"dÄ«Ġ":4063,"hÃ©ngĠ":4064,"dÃłĠdeĠ":4065,"bÇĶĠ":4066,"yÃłngĠ":4067,"sÄĵnĠ":4068,"ĠzhÅįngĠxÄ«nĠ":4069,"xuÄģnĠbÃ¹Ġ":4070,"tuÄ«Ġ":4071,"ĠniÃ¡nĠ11ĠyuÃ¨Ġ":4072,"zÇĶĠzhÄ«Ġ":4073,"rÃ¬Ġ":4074,"wÃłngĠ":4075,"bÃ¹ĠdeĠ":4076,"pÃŃĠ":4077,"menĠ":4078,"ĠbÄģoĠkuÃ²Ġ":4079,"chÃłngĠ":4080,"yÇĲngĠxiÇİngĠ":4081,"yÇİngĠ":4082,"ĠtÄģĠzÃłiĠ":4083,"qiÄģnĠmÇĲĠ":4084,"sÄģiĠ":4085,"Ã©rĠ":4086,"ĠĠĠshÄĵngĠ":4087,"ĠhuÃ²ĠdÃ©Ġ":4088,"pÄ«Ġ":4089,"ĠshÃ¬ĠjiÃ¨":4090,"luÃ³ĠsÄ«Ġ":4091,"hÃ¨Ġ":4092,"kÄĽĠnÃ©ng":4093,"chÃ©ngĠdeĠ":4094,"ĠgÄģi":4095,"ĠqÄ«ngĠ":4096,"niÃłnĠ":4097,"dÃ¹nĠ":4098,"ĠmÄĽi":4099,"xiÃ¡nĠ":4100,"ĠÄģĠ":4101,"lÃ³uĠ":4102,"qÃŃĠtÄģĠ":4103,"ĠniÃ¡nĠ2ĠyuÃ¨Ġ":4104,"ĠchÃ©ngĠlÃ¬Ġ":4105,"leĠyÄ«Ġ":4106,"bÄģngĠ":4107,"huÃ³ĠdÃ²ngĠ":4108,"ĠrÃ¨nĠwÃ©iĠ":4109,"ĠlÃ¡iĠ":4110,"liÃ¹Ġ":4111,"yÅįuĠ":4112,"ĠbÇĲĠ":4113,"ĠshÃ¹Ġ":4114,"ĠfÄĵn":4115,"kÄĵĠxuÃ©Ġ":4116,"fÄģĠzhÇİnĠ":4117,"huÃ²ĠdÃ©Ġ":4118,"jÃ¹nĠ":4119,"ĠluÃ³Ġ":4120,"ĠzuÃ²ĠwÃ©iĠ":4121,"yÄģĠ":4122,"ĠpÃŃngĠfÄģngĠqiÄģnĠmÇĲĠ":4123,"huÃ¡ĠrÃ©nĠmÃŃnĠ":4124,"ĠwÃºĠ":4125,"rÃ¬ĠbÄĽnĠ":4126,"bÄĵiĠ":4127,"lÇİoĠ":4128,"huÃ¬ĠyÃ¬Ġ":4129,"rÃ¨Ġ":4130,"ĠzhÃŃ":4131,"kÃ¹Ġ":4132,"tÃ¡nĠ":4133,"jiÄģnĠdeĠ":4134,"tiÄĽĠlÃ¹Ġ":4135,"ĠliÃºĠ":4136,"ĠdeĠrÃ©nĠ":4137,"yÃ²ngĠyÃºĠ":4138,"liÃ¡oĠ":4139,"nÃŃngĠ":4140,"ĠshÃŃĠjiÄģnĠ":4141,"ĠdeĠgÅįngĠ":4142,"gÃ¨Ġ":4143,"ĠshÄģnĠ":4144,"ĠzhÄģngĠ":4145,"miÇİnĠ":4146,"ĠyÃ¡nĠ":4147,"miÃłnĠjÄ«":4148,"mÃŃnĠguÃ³Ġ":4149,"ruÃ¬Ġ":4150,"wÅ«ĠkÃ¨Ġ":4151,"yÃ¬nĠ":4152,"xiÇİnĠ":4153,"lÃ¨Ġ":4154,"zuÇĴĠ":4155,"gÃ²ngĠyÇĴuĠ":4156,"ĠĠĠlÃ¬ĠshÇĲĠ":4157,"hÇİoĠ":4158,"ĠĠĠshÄĵngĠpÃŃngĠ":4159,"huÃ¡ĠrÃ©nĠmÃŃnĠgÃ²ngĠhÃ©ĠguÃ³Ġ":4160,"fÄģngĠshÃ¬Ġ":4161,"fÄģĠshÄĵngĠ":4162,"gÄģnĠ":4163,"ĠcÃ³ngĠ":4164,"ĠzhÃŃĠ":4165,"dÃ²uĠ":4166,"wÃ¨nĠtÃŃĠ":4167,"guÃłnĠjÅ«nĠ":4168,"zhÇĶĠyÃłoĠ":4169,"rÃ¡nĠ":4170,"dÃ¬ĠdeĠ":4171,"ĠdÃ¬ĠÃ¨rĠ":4172,"dÇİoĠzhÃ¬Ġ":4173,"ĠxiÇİoĠ":4174,"guÄģnĠxÃ¬Ġ":4175,"cÃºnĠ":4176,"kÄģngĠ":4177,"cÄģnĠyÃ¹Ġ":4178,"yuÇİnĠ":4179,"ĠjÇĲnĠ":4180,"ĠbÃ¹ĠfÃ¨n":4181,"zhÄĽngĠ":4182,"ĠgÅįngĠchÃ©ngĠ":4183,"wÃ¡nĠchÃ©ngĠ":4184,"dÄģnĠwÃ¨iĠ":4185,"kÄĽĠnÃ©ngĠ":4186,"ĠwÇĶĠ":4187,"ĠzhÇĲĠ":4188,"yÄ«ĠwÃ¨iĠ":4189,"ĠzÃ©Ġ":4190,"1ĠrÃ¬Ġ":4191,"xiÃ¨Ġ":4192,"suÇĴĠyÇĴuĠ":4193,"ĠzÇĴngĠ":4194,"zhÃ¬ĠdeĠ":4195,"wÃ©nĠhuÃłĠ":4196,"ĠchÃ©ngĠyuÃ¡nĠ":4197,"ĠdeĠchÃ©ngĠ":4198,"gÄĽiĠ":4199,"lÇļĠ":4200,"ĠbÄģĠ":4201,"yuÃ¡nĠdeĠ":4202,"ĠtÅįngĠ":4203,"yÅįngĠyÇĴuĠ":4204,"cÃºnĠzÃłiĠ":4205,"Ã¨rĠshÃŃĠ":4206,"bÄĽiĠbÃ¹Ġ":4207,"liÃ¡nĠhÃ©Ġ":4208,"hÃ²uĠdeĠ":4209,"niÇĶĠ":4210,"ĠshÃ¬ĠzhÅįngĠ":4211,"zhÃ¨ngĠfÇĶ":4212,"yÃ³uĠyÃºĠ":4213,"guÃ³ĠjiÄģĠ":4214,"duÃ¬ĠyÃºĠ":4215,"ĠniÃ¡nĠzhÃ¬Ġ":4216,"fÄģĠxÃŃngĠ":4217,"yÃ¬ĠdeĠ":4218,"jÃ¹ĠyÇĴuĠ":4219,"geĠ":4220,"ĠjiÃłnĠzhÃ¹Ġ":4221,"ĠzhÇĲ":4222,"bÇĲĠsÃłiĠ":4223,"ĠbÃ¬ngĠzÃłiĠ":4224,"ĠdÃłoĠleĠ":4225,"ÅįuĠ":4226,"Ã¨Ġ":4227,"xÄ«nĠdeĠ":4228,"sÄ«ĠdeĠ":4229,"shÄĽnĠ":4230,"yÃºnĠ":4231,"zÃ¬ĠjÇĲ":4232,"yÃ¹nĠdÃ²ngĠ":4233,"xÃŃngĠzhÃ¨ngĠ":4234,"yÃ¬nĠdÃ¹Ġ":4235,"Ã©ĠluÃ³ĠsÄ«Ġ":4236,"bÄ«nĠ":4237,"ĠmiÃłnĠjÄ«Ġ":4238,"ĠxÃ¬Ġ":4239,"dÃłiĠbiÇİoĠ":4240,"shÃłoĠ":4241,"ĠmÄĽiĠguÃ³Ġ":4242,"ĠlÃ¬ngĠ":4243,"xÇĶĠduÅįĠ":4244,"ĠdÃłnĠshÃ¬Ġ":4245,"rÃ¨nĠhÃ©Ġ":4246,"shÄĵngĠyÃºĠ":4247,"tÅ«Ġ":4248,"guÃ¬Ġ":4249,"mÇİnĠ":4250,"ĠniÃ¡nĠdÃłiĠ":4251,"ĠjiÇİnĠ":4252,"dÄ«ngĠ":4253,"liÇİngĠgÃ¨Ġ":4254,"chÃ¨Ġ":4255,"bÇİoĠhÃ¹Ġ":4256,"ĠrÃ©nĠkÇĴuĠmÃ¬Ġ":4257,"ĠshÇĲ":4258,"zhĠ":4259,"xiÃ¹Ġ":4260,"xuÃ¡nĠ":4261,"ĠdÄģngĠshÃŃĠ":4262,"zhÃłngĠ":4263,"ĠdeĠyÃŃĠgÃ¨Ġ":4264,"nÃ¡nĠbÃ¹Ġ":4265,"jÇĶĠxÃŃngĠ":4266,"zhuÄģnĠjÃŃĠ":4267,"miÃłnĠjÄ«ĠwÃ¨iĠ":4268,"ĠdiÃłnĠ":4269,"lÃ¡iĠdeĠ":4270,"ĠguÄģnĠ":4271,"fÄģnĠ":4272,"zÇİoĠ":4273,"ĠzhÃ¨ngĠfÇĶĠ":4274,"ĠcÃ©ngĠ":4275,"dÃºĠlÃ¬Ġ":4276,"fÃºĠwÃ¹Ġ":4277,"juÃ©ĠdÃ¬ngĠ":4278,"xiÄĽĠ":4279,"ĠchÅ«ĠdeĠ":4280,"ruÃ²Ġ":4281,"zhÇĶĠyÃło":4282,"7Ġ":4283,"kÄģiĠshÇĲ":4284,"ĠlÃ¬ĠshÇĲĠ":4285,"qÇĲngĠ":4286,"ĠsÄģnĠ":4287,"ĠshÃ¨ĠjÃ¬Ġ":4288,"ĠwÃ¡ngĠ":4289,"ĠmÄĽiĠ":4290,"Ġ15":4291,"mÃŃngĠdeĠ":4292,"hÃłiĠ":4293,"rÃłngĠ":4294,"ĠshÃ¬ĠwÃ¨iĠyÃºĠ":4295,"jiÃ¹ĠshÃ¬Ġ":4296,"ĠyÇĴuĠyÄ«Ġ":4297,"ÄģiĠ":4298,"gÄĵngĠ":4299,"ĠjiÄģng":4300,"gtĠ":4301,"ĠcÇĲ":4302,"ĠgtĠ":4303,"xÇĲĠ":4304,"tÃłnĠ":4305,"ĠqÃŃĠtÄģĠ":4306,"ĠfÇİĠ":4307,"ĠxÃŃngĠzhÃ¨ngĠ":4308,"pÃ©iĠ":4309,"jiÃłoĠyÃ¹Ġ":4310,"shÃ²uĠdÃłoĠ":4311,"ltĠ":4312,"ĠfÄĵngĠ":4313,"rÃ¨nĠwÃ©iĠ":4314,"fÇİngĠ":4315,"kÄģnĠ":4316,"wÇİnĠ":4317,"ĠshÃ¬ĠdÃ¬Ġ":4318,"fÄģĠzhÇİn":4319,"ĠjiÄĵĠ":4320,"shÃ¨ĠhuÃ¬Ġ":4321,"ĠltĠ":4322,"yÃ¬ĠwÃ¨iĠ":4323,"gÃ¹ĠshÃ¬Ġ":4324,"shÃłnĠ":4325,"piÄģnĠ":4326,"fÄģngĠmiÃłnĠ":4327,"ĠxiÃłnĠzÃłiĠ":4328,"8Ġ":4329,"qÅ«ĠwÃ¨iĠ":4330,"ĠzuÃ¬ĠzhÅįngĠ":4331,"ĠbÃ¬Ġ":4332,"qÃŃnĠ":4333,"ĠzhÅįngĠyÄģngĠ":4334,"pÃłoĠ":4335,"ĠshÃ¬ĠshÃ¬Ġ":4336,"tuÃ¬Ġ":4337,"zheĠ":4338,"nÃ¨iĠdeĠ":4339,"ĠjiÃ¹Ġ":4340,"shÇĶĠdeĠ":4341,"xiÄģngĠgÇİng":4342,"xiÇİoĠshÃŃĠ":4343,"dÃłnĠ":4344,"ĠlÃ¬ĠrÃºĠ":4345,"zÃºĠqiÃºĠ":4346,"ĠqÅ«Ġ":4347,"shÃ¹ĠjÃ¹Ġ":4348,"ĠbÃ¹ĠtÃ³ng":4349,"liÃ¨ĠchÄĵĠ":4350,"xÅ«ĠyÃłoĠ":4351,"huÃłĠdeĠ":4352,"zhÃŃĠwÃ¹Ġ":4353,"ĠsuÄ«":4354,"rÃ©nĠshÃ¬Ġ":4355,"qiÄģngĠ":4356,"zuÃ²ĠdeĠ":4357,"ĠdÃ²ngĠ":4358,"shÇĲĠyÃ²ng":4359,"zÄĵngĠjiÄģĠ":4360,"ĠjÃ¬ĠhuÃłĠ":4361,"mÃŃnĠzhÇĶĠ":4362,"ĠshÃŃĠqÄ«Ġ":4363,"zuÃ²ĠwÃ©iĠ":4364,"ĠgÇĶĠ":4365,"kÃ²ngĠzhÃ¬Ġ":4366,"ĠyÄĽĠshÃ¬Ġ":4367,"duÇİnĠ":4368,"tÇİnĠ":4369,"ĠjiÃłnĠdeĠ":4370,"yÄ«nĠyuÃ¨Ġ":4371,"ĠcÃ©ng":4372,"ĠrÃ¡nĠÃ©rĠ":4373,"Ġ16":4374,"ĠÄģnĠ":4375,"ĠyÇĲĠjÄ«ngĠ":4376,"ĠshÇĶĠyÃºĠ":4377,"lÃ¡ngĠ":4378,"ĠhÃ©ĠzuÃ²Ġ":4379,"ĠzÃłiĠdÃ¬Ġ":4380,"rÃ©nĠmÃŃnĠ":4381,"ĠshÃ¬ĠjiÃłnĠ":4382,"ĠrÃ©nĠyuÃ¡nĠ":4383,"ĠyÃ²u":4384,"tÄģĠdeĠ":4385,"ĠjiÃłnĠyÃºĠ":4386,"xuÃ©ĠyuÃłnĠ":4387,"zÇĶĠchÃ©ngĠ":4388,"chÄģoĠguÃ²Ġ":4389,"ĠmÇİ":4390,"ĠgÃ©Ġ":4391,"zuÃ²ĠpÇĲnĠ":4392,"ĠyÄ«nĠyuÃ¨Ġ":4393,"ĠkÄĵĠ":4394,"mÃłoĠ":4395,"ĠquÃ¡nĠguÃ³Ġ":4396,"xiÃ³ngĠ":4397,"zÇİiĠ":4398,"hÅ«Ġ":4399,"huÃ¬ĠdeĠ":4400,"jÃ¬ĠdeĠ":4401,"ĠsÃ¬Ġ":4402,"zÇĴngĠtÇĴngĠ":4403,"suÃłnĠ":4404,"ĠzhÃ¨ĠxiÄĵĠ":4405,"ĠwÃ¨iĠleĠ":4406,"ĠhÃ²uĠlÃ¡iĠ":4407,"yÃºĠshÃ¬Ġ":4408,"ĠpÇĶĠ":4409,"ĠshÃ²uĠ":4410,"ĠzhÇİngĠ":4411,"ĠtÃłiĠ":4412,"ĠchÃ©ngĠgÅįngĠ":4413,"fÄģĠbÃ¹Ġ":4414,"dÃłĠlÃ¬Ġ":4415,"tÃŃĠchÅ«Ġ":4416,"ĠlÃ¬ĠyÃłĠ":4417,"Ġ000":4418,"ĠyÃ¬ĠyuÃ¡nĠ":4419,"ĠshÃ¨ĠyÇĴuĠ":4420,"ĠĠĠdeĠ":4421,"ĠyÄ«nĠcÇĲ":4422,"yÃ¹nĠdÃ²ngĠyuÃ¡nĠ":4423,"yÄģoĠqiÃºĠ":4424,"hÃ¡nĠguÃ³Ġ":4425,"bÃ¹ĠzÃłiĠ":4426,"nÃŃĠyÃł":4427,"pÃŃnĠ":4428,"yÇĴuĠdeĠ":4429,"pÃºĠ":4430,"zÃłoĠchÃ©ngĠ":4431,"ÅįuĠzhÅįuĠ":4432,"qiÅ«Ġ":4433,"cÇİiĠyÃ²ngĠ":4434,"xiÇİoĠxÃŃngĠ":4435,"ĠgÅįngĠyuÃ¡nĠ":4436,"jiÄģĠdeĠ":4437,"xÃ¬ngĠdeĠ":4438,"shÄĵngĠdeĠ":4439,"bÇİĠ":4440,"sĠ":4441,"ĠdeĠyÃŃĠgÃ¨":4442,"ĠrÃ¬ĠzÃłiĠ":4443,"dÄģngĠshÃŃĠ":4444,"kÃ²ngĠ":4445,"rÃ©nĠwÃ¹Ġ":4446,"fÃ¨ngĠ":4447,"ĠcÇĲĠwÃłiĠ":4448,"ĠsuÃŃ":4449,"gÃ²ngĠchÇİnĠ":4450,"ĠlÄģĠ":4451,"kÃłnĠ":4452,"ĠzhĠ":4453,"ĠcÃ³ng":4454,"ĠwÇĴĠ":4455,"10Ġ":4456,"ĠshÄģĠ":4457,"ĠshÃ¬ĠhÃ©Ġ":4458,"wÄģnĠ":4459,"ĠlÃ¬ng":4460,"2010ĠniÃ¡nĠ":4461,"ĠgÄĵnĠjÃ¹Ġ":4462,"ĠdeĠbÃ¹Ġ":4463,"mÇİĠwÃ¨iĠ":4464,"ĠtÇĲĠ":4465,"xuÃ©ĠjiÄģĠ":4466,"yÃ³uĠxÃ¬Ġ":4467,"ĠnÇļĠ":4468,"sÅįngĠ":4469,"fÃłnĠwÃ©iĠ":4470,"ĠbÃ¹ĠtÃ³ngĠ":4471,"dÅ«nĠ":4472,"kÄģiĠfÄģĠ":4473,"shÃ¨ĠjÃ¬Ġ":4474,"mÃ¡oĠ":4475,"chÄģoĠ":4476,"sÄģnĠniÃ¡nĠ":4477,"ĠkÄĽĠ":4478,"qÇĶĠdÃ©Ġ":4479,"ĠdeĠjÄ«Ġ":4480,"sÃłiĠshÃ¬Ġ":4481,"ĠĠĠshÃ¬Ġ":4482,"xiÅįngĠ":4483,"ĠxÃŃngĠchÃ©ngĠ":4484,"ĠĠĠdÃ¬ĠlÇĲĠ":4485,"ĠsuÃ¬Ġ":4486,"zÃ¬ĠzhÃ¬Ġ":4487,"ĠyÃŃĠ":4488,"chÇİnĠshÄĵngĠ":4489,"ĠwÃ¹Ġ":4490,"wÄĵnĠ":4491,"ÄģĠÄĽrĠ":4492,"yÃ¡oĠ":4493,"dÇĲngĠ":4494,"ĠdeĠjÃ¬Ġ":4495,"shÅ«ĠjÃ¬Ġ":4496,"Ġ17":4497,"jiÃ©ĠmÃ¹Ġ":4498,"ĠbÃ¬ngĠyÃºĠ":4499,"nÇĲĠ":4500,"dÅįuĠshÃ¬Ġ":4501,"chÃ³ngĠxÄ«nĠ":4502,"ĠliÇİngĠ":4503,"zÃłnĠ":4504,"lÃ¼Ã¨Ġ":4505,"chÅ«nĠ":4506,"ĠshÃ¨ĠhuÃ¬Ġ":4507,"xÃ¬ĠtÇĴng":4508,"zhÃ²ngĠyÃło":4509,"lÇĲĠdeĠ":4510,"bÃºĠshÃ¬Ġ":4511,"ĠdÃłiĠbiÇİoĠ":4512,"yÄ«ĠniÃ¡nĠ":4513,"ĠxiÄģngĠgÇİngĠ":4514,"ĠsÄ«ĠtÃ¨Ġ":4515,"diÃłnĠyÇĲng":4516,"zhuÄ«Ġ":4517,"guÄģnĠyÃºĠ":4518,"dÃłngĠ":4519,"ĠnÃłĠ":4520,"juÃ©ĠsÃ¨Ġ":4521,"ĠfÃº":4522,"jiÄģoĠtÅįngĠ":4523,"lÇİngĠ":4524,"ĠyÃ³uĠxÃ¬Ġ":4525,"dÃłĠxuÃ©Ġ":4526,"9Ġ":4527,"jÃŃĠdeĠ":4528,"mÃŃĠ":4529,"Ġ0":4530,"gÄĵĠqÇĶĠ":4531,"chÃºĠleĠ":4532,"ĠchÅ«ĠxiÃłnĠ":4533,"tÇİoĠ":4534,"2020ĠniÃ¡nĠ":4535,"ĠjiÃ©":4536,"ĠC":4537,"ĠzhÃ¬ĠzuÃ²Ġ":4538,"ĠdÃłĠxuÃ©":4539,"pÃŃngĠjÅ«nĠ":4540,"ĠdÃ©ĠguÃ³Ġ":4541,"xiÇİnĠshÃ¬Ġ":4542,"ĠchÃ©nĠ":4543,"ĠjiÄģnĠ":4544,"huÃ¡ĠmÃŃnĠguÃ³Ġ":4545,"ĠshÄĵnĠ":4546,"ĠniÃ¡nĠzÃłiĠ":4547,"ĠzhÅįngĠhuÃ¡ĠrÃ©nĠmÃŃnĠgÃ²ngĠhÃ©ĠguÃ³Ġ":4548,"kuÃ²Ġ":4549,"kÇĴngĠ":4550,"hÃ²uĠzÃłiĠ":4551,"miÃ¡oĠ":4552,"ĠniÃ¡nĠdÃłi":4553,"ĠliÇİng":4554,"Ã¨rĠniÃ¡nĠ":4555,"xiÃłĠdeĠ":4556,"yÇİnĠyuÃ¡nĠ":4557,"ĠkÃ¨ĠsÄ«Ġ":4558,"dÃ©ĠguÃ³Ġ":4559,"xiÃ¡ngĠ":4560,"qÃ¬ngĠ":4561,"wÃ©iĠyÄ«Ġ":4562,"cÇİoĠ":4563,"ĠbÇİoĠ":4564,"dÄģngĠdÃ¬Ġ":4565,"guÃ³ĠjÃ¬Ġ":4566,"duÃ¬ĠdeĠ":4567,"Ġ1Ġ":4568,"bÃ³ĠwÃ¹Ġ":4569,"hÅ«nĠ":4570,"ĠjiÃłnĠlÃ¬Ġ":4571,"ĠfÄĵiĠ":4572,"ĠdÃ¬ĠguÃ³Ġ":4573,"ĠbÃ¹ĠyÃºĠ":4574,"fÇİnĠduÃ¬Ġ":4575,"qÄ«ĠdeĠ":4576,"zÇĴuĠ":4577,"duÄģnĠ":4578,"wÃ¹ĠdeĠ":4579,"xuÃ¨Ġ":4580,"yÄ«nĠwÃ¨iĠ":4581,"ĠA":4582,"qÅ«ĠyÃ¹Ġ":4583,"qÃ¹ĠshÃ¬Ġ":4584,"yÄ«ĠbÃ¹ĠfÃ¨nĠ":4585,"bÃ¡ĠgÄģoĠ":4586,"wÃ²Ġ":4587,"kuÇİnĠ":4588,"ĠchÃ¡ngĠ":4589,"quÄĵĠ":4590,"2001ĠniÃ¡nĠ":4591,"guÇİnĠxiÃ¡Ġ":4592,"dÃ¹ĠwÃ¨iĠ":4593,"zhÃ¨ngĠzhÃ¬ĠrÃ©nĠwÃ¹Ġ":4594,"pÃ©ngĠ":4595,"nÃŃĠyÃłĠ":4596,"ĠkÇİĠ":4597,"hÃ¡iĠyÇĴuĠ":4598,"ĠĠĠrÃ©nĠkÇĴuĠ":4599,"ĠdÄģngĠdÃ¬Ġ":4600,"zuÃ¬ĠzhÅįngĠ":4601,"ĠtÄģĠshÃ¬Ġ":4602,"chÃ¬Ġ":4603,"ĠbÃ¹ĠduÃ¬Ġ":4604,"lÃ¡iĠzÃ¬Ġ":4605,"ĠdÄģnĠ":4606,"Ġ1":4607,"ĠyuÄĵĠ":4608,"ĠxÃŃngĠshÃ¬Ġ":4609,"bÇĲĠsÃłi":4610,"qiÃ¡nĠwÇİngĠ":4611,"ĠfÄģĠ":4612,"zhÃŃĠyÃ¨Ġ":4613,"ĠwÄĵiĠ":4614,"dÃ¬ngĠdeĠ":4615,"quÃ¡nĠguÃ³Ġ":4616,"bÄģĠshÃ¬Ġ":4617,"yÄ«ĠbÃ¹Ġ":4618,"ĠdeĠyuÃ¡nĠ":4619,"ĠzhÃ¨ngĠfÇĶ":4620,"ĠchÃºĠ":4621,"zhÃ²ngĠyÃłoĠ":4622,"diÃłoĠchÃ¡Ġ":4623,"ĠlÃŃnĠ":4624,"ĠzhÄ«ĠjiÄģnĠ":4625,"biÄģnĠmÇİĠwÃ¨iĠ":4626,"ĠhuÃ¡ngĠ":4627,"ĠniÃ¡nĠjiÄģnĠ":4628,"ĠxuÃ©ĠmÃŃngĠ":4629,"sĠĠĠ":4630,"xuÃ©ĠxiÃłoĠ":4631,"zhÄģoĠ":4632,"zhÇĶĠxÃŃĠ":4633,"xuÇİnĠjÇĶĠ":4634,"ĠrÃ¬ĠzhÃ¬Ġ":4635,"gÇİiĠwÃ©iĠ":4636,"zÇĶĠzhÄ«":4637,"ĠnÃ¨iĠ":4638,"zhÇĶĠjiÃłoĠ":4639,"fÃ¡Ġ":4640,"zÄ«ĠliÃłoĠ":4641,"ĠjÃ¬ngĠ":4642,"hÇİiĠjÅ«nĠ":4643,"gÅįngĠshÃ¬Ġ":4644,"ĠjÅ«nĠshÃ¬Ġ":4645,"ĠdeĠdÃłĠ":4646,"ĠrÃ©nĠkÇĴuĠmÃ¬ĠdÃ¹Ġ":4647,"chÇĶĠlÇĲĠ":4648,"kÃłngĠ":4649,"sÅ«nĠ":4650,"zÄģiĠ":4651,"ĠdeĠyÃ¬Ġ":4652,"fÄģngĠfÇİĠ":4653,"fÃ¹ĠzÃ©Ġ":4654,"ĠduÅį":4655,"ĠrÃ¬ĠbÄĽn":4656,"wÅ«ĠkÃ¨ĠlÃ¡nĠ":4657,"ĠĠĠyÇĶĠ":4658,"guÃłnĠ":4659,"ĠbÅįĠ":4660,"shÃ¹ĠdeĠ":4661,"ĠyÇĴuĠxiÃłn":4662,"dÃłiĠbiÇİo":4663,"ĠmÃ©iĠ":4664,"ĠgÃ¨ĠrÃ©nĠ":4665,"ĠsÄģn":4666,"ĠshÃ¨ngĠ":4667,"wÃºĠfÇİĠ":4668,"yÇĲngĠxiÇİng":4669,"ĠjÃ¬ĠshÃ¹Ġ":4670,"ĠshÃ¬ĠyÃ³uĠ":4671,"ĠhuÃłĠ":4672,"jiÄĵĠrÇİng":4673,"jÅ«ĠmÃŃnĠ":4674,"zuÃ¬ĠgÄģoĠ":4675,"ĠjiÃ¨Ġ":4676,"ĠkÄģiĠ":4677,"ĠgÇİiĠ":4678,"pÃłĠ":4679,"qÃŃĠzhÅįngĠ":4680,"lÃ¹ĠdeĠ":4681,"ĠhÃ³ngĠ":4682,"xuÃ©ĠshÄĵngĠ":4683,"xÃ¬ĠliÃ¨Ġ":4684,"ĠzhÄ«ĠchÃŃĠ":4685,"ĠzÃ©":4686,"zÃ¬ĠyÃ³uĠ":4687,"wÄĽnĠ":4688,"biÄģoĠzhÇĶnĠ":4689,"qiÃ¨Ġ":4690,"xiÃ©ĠhuÃ¬Ġ":4691,"shÃ¹ĠliÃłng":4692,"ÄģnĠquÃ¡nĠ":4693,"fÇİnĠyÃ¬ngĠ":4694,"kÄĽĠyÇĲ":4695,"huÃ¬ĠzÃłiĠ":4696,"Ġ2Ġ":4697,"yÄģoĠ":4698,"kÄĽnĠ":4699,"shÃ¨nĠzhÃ¬Ġ":4700,"yÃ©Ġ":4701,"bÇĲĠlÃ¬Ġ":4702,"tÇĴngĠzhÃ¬Ġ":4703,"chuÃłngĠzuÃ²Ġ":4704,"zhÇĶĠrÃ¨nĠ":4705,"ĠsuÃŃĠ":4706,"ĠqÇĲĠ":4707,"ĠĠĠbÄĽnĠ":4708,"ĠxÄ«n":4709,"dÅįngĠbÃ¹Ġ":4710,"ĠdeĠyÃŃĠgÃ¨ĠshÃ¬ĠzhÃ¨nĠ":4711,"liÃ¡nĠmÃ©ngĠ":4712,"ĠshÃ¬ĠyÃŃĠgÃ¨Ġ":4713,"ĠnÃ¡n":4714,"ĠgÅįngĠsÄ«":4715,"gÄģiĠguÃ³Ġ":4716,"kÇİiĠ":4717,"ĠfÃ¹ĠzÃ©Ġ":4718,"fÃ¡nĠ":4719,"yÇİĠ":4720,"ĠdÃ¬ĠsÄģnĠ":4721,"ĠdÃ¬ĠshÃŃĠ":4722,"ĠĠĠxÃŃngĠzhÃ¨ngĠ":4723,"ĠsÅ«Ġ":4724,"tÇĲĠyÃ¹Ġ":4725,"ĠbÃ¹ĠguÃ²Ġ":4726,"jiÃ©ĠgÃ²uĠ":4727,"niÃºĠ":4728,"Ġ2":4729,"ĠdÃłoĠdeĠ":4730,"shÃŃĠniÃ¡nĠ":4731,"qÃŃngĠkuÃłngĠ":4732,"nÃ©ngĠlÃ¬Ġ":4733,"mÇĴuĠ":4734,"nÃ¡nĠziĠ":4735,"zhÅįngĠshÃ¬Ġ":4736,"ĠshuÇĲĠ":4737,"qÃŃngĠkuÃłng":4738,"sÃ¬ĠniÃ¡nĠ":4739,"ĠS":4740,"ĠmÃŃng":4741,"ĠgÄĵĠ":4742,"xÄ«ĠbÃ¹Ġ":4743,"gÅįngĠbÃ¹Ġ":4744,"hÃ¡oĠ":4745,"shÄĵngĠhuÃ³Ġ":4746,"jiÄĵĠshÃ²uĠ":4747,"ofĠĠĠ":4748,"ĠyÃ¡ngĠ":4749,"nÇļĠzÇĲĠ":4750,"ĠÃło":4751,"lÃ¹ĠxiÃłnĠ":4752,"suÅįĠ":4753,"chÃ©ngĠlÃ¬Ġ":4754,"ĠzhÅįngĠxuÃ©Ġ":4755,"ĠĠĠformulaĠ":4756,"huÄģnĠ":4757,"gÅ«Ġ":4758,"Ġ14":4759,"miÃłnĠdeĠ":4760,"ĠjÃ¬nĠrÃ¹Ġ":4761,"yÃ¬ĠshÃ¬Ġ":4762,"ĠÄĽrĠsÄ«Ġ":4763,"ĠzhÇĶĠyÃłoĠ":4764,"bÄĽiĠjÄ«ngĠ":4765,"liÃ¡nĠsÃłiĠ":4766,"ĠkÄĽĠyÇĲĠ":4767,"theĠĠĠ":4768,"ĠbÄģ":4769,"yÇĴuĠshÃŃĠ":4770,"ĠyÃ¬ĠhuÃ¬Ġ":4771,"guÇİngĠdÅįngĠ":4772,"duÃ³Ġ":4773,"ĠÃłoĠ":4774,"ĠĠĠjiÄģĠ":4775,"lÃ¡oĠ":4776,"jiÃłnĠzhÃ¹Ġ":4777,"yÃłĠzhÅįuĠ":4778,"ĠtÃ¡iĠ":4779,"ĠcÃ¬Ġ":4780,"dÇİoĠdeĠ":4781,"ĠguÃ³ĠmÃŃnĠ":4782,"yÄĽĠshÃ¬Ġ":4783,"nÃ¡ĠdÃłĠ":4784,"dÃ²ngĠwÃ¹Ġ":4785,"tÃłiĠpÃŃngĠ":4786,"ĠsuÇĴĠyÇĲĠ":4787,"dÃ¬ĠwÃ¨iĠ":4788,"rÇİnĠ":4789,"ĠzhÃ¨ĠshÃ¬Ġ":4790,"bÃ¡ĠgÄģoĠdÃ¹Ġ":4791,"dÃ¡ĠdÃłoĠ":4792,"zÃ¬ĠjÇĲĠdeĠ":4793,"lÇĲĠshÃ¬Ġ":4794,"zhÃºĠjiÃłnĠ":4795,"guÇĲĠ":4796,"zhuÃłnĠ":4797,"ĠbÃ¬ngĠqiÄĽ":4798,"dÃłiĠdeĠ":4799,"bÇİnĠbÄĽnĠ":4800,"xÇĶĠduÅį":4801,"zhÄĽĠdeĠ":4802,"jiÃłoĠshÃ²uĠ":4803,"ĠhÃ¡iĠ":4804,"ĠÃ¨rĠ":4805,"2008ĠniÃ¡nĠ":4806,"xiÃłngĠmÃ¹Ġ":4807,"ĠxuÃ©ĠxiÃłoĠ":4808,"ĠhÃºĠ":4809,"ĠdÃł":4810,"wÅ«ĠkÃ¨ĠlÃ¡n":4811,"fÄĵiĠchÃ¡ngĠ":4812,"2009ĠniÃ¡nĠ":4813,"ĠxÄ«ĠyÃłĠ":4814,"qÄ«ngĠniÃ¡nĠ":4815,"ĠzÇĴng":4816,"ĠmÇĶĠ":4817,"ĠbÃ¬ngĠqiÄĽĠ":4818,"ĠzhÇĶĠyÃło":4819,"lÄģĠsÄ«Ġ":4820,"ĠĠĠgÄĵnĠjÃ¹Ġ":4821,"yÄ«ĠshÃ¬Ġ":4822,"ĠchÃ©ngĠwÃ©i":4823,"rÃ¬ĠbÄĽn":4824,"mÃ³ĠshÃ¬Ġ":4825,"zhÃ©Ġ":4826,"niÇİoĠ":4827,"wÃ©nĠwÃ¹Ġ":4828,"ĠtÄģĠmenĠdeĠ":4829,"ĠyÃ¬ĠshÃ¹Ġ":4830,"zhÇĲĠyÇĴuĠ":4831,"chÄģĠ":4832,"ĠjÃ¬ĠlÃ¹Ġ":4833,"ĠĠĠofĠĠĠ":4834,"ĠzhÅįuĠdeĠ":4835,"ĠÃłiĠ":4836,"ĠmÃŃnĠ":4837,"hÃ¡ngĠkÅįngĠ":4838,"ĠyÃºĠshÃ¬Ġ":4839,"ĠbÃ³Ġ":4840,"wÃ©nĠxuÃ©Ġ":4841,"fÄĵnĠwÃ©iĠ":4842,"suÄģnĠ":4843,"ĠqÃŃĠshÃ¬Ġ":4844,"ĠqÃŃĠyÃºĠ":4845,"suÃ¬Ġ":4846,"dÄĽngĠrÃ©nĠ":4847,"huÇĲĠ":4848,"tÅįngĠguÃ²":4849,"zhÇĲĠchÅ«Ġ":4850,"cÃ¡ngĠ":4851,"BĠ":4852,"Ġ3":4853,"28ĠrÃ¬Ġ":4854,"shuÃłiĠ":4855,"ĠyÃ²ngĠ":4856,"rÃ©nĠkÇĴuĠpÇĶĠ":4857,"cuÃ²Ġ":4858,"zhÃŃĠxÃŃngĠ":4859,"tÃ³ngĠshÃŃĠ":4860,"ĠjÄ«n":4861,"ĠqiÃºĠduÃ¬Ġ":4862,"zhÃłĠ":4863,"ĠlÃ¬ĠyÃł":4864,"zhÃŃĠjiÄĵĠ":4865,"yÇİnĠchÅ«Ġ":4866,"jÇĲnĠbiÄģoĠ":4867,"gÄģiĠdÃ¬Ġ":4868,"gÃ©ĠlÃ¡nĠ":4869,"2016ĠniÃ¡nĠ":4870,"huÃ³ĠdÃ²ng":4871,"zhÃ¨ĠyÄ«Ġ":4872,"rÃ¨nĠwÃ©i":4873,"jÃ¬nĠrÃ¹Ġ":4874,"ĠzhÄ«ĠjiÄģnĠdeĠ":4875,"ĠgÅįngĠkÄģiĠ":4876,"ĠdÄģngĠzhÅįngĠ":4877,"hÃ¹nĠ":4878,"gÃ²ngĠtÃ³ngĠ":4879,"xiÃłĠjÃ¬Ġ":4880,"ĠdÃłnĠzÃłiĠ":4881,"zhÃłnĠzhÄĵngĠ":4882,"wÇĶĠniÃ¡nĠ":4883,"chÃ³uĠ":4884,"jiÄģngĠjÅ«nĠ":4885,"lÃ¨ĠbÃ¹Ġ":4886,"mÃ©iĠtÇĲĠ":4887,"ĠwÃº":4888,"tÇĲĠdeĠ":4889,"chÄĵĠzhÃłn":4890,"mÃ¨ngĠ":4891,"tuÄ«ĠchÅ«Ġ":4892,"jiÃłoĠyÃ¹":4893,"diÃ©Ġ":4894,"yÇĶnĠ":4895,"zhÃ¨ĠxiÄĵĠ":4896,"pÅįĠ":4897,"tÃ¬Ġ":4898,"ĠshÃ¬ĠwÃ¹Ġ":4899,"miÃłoĠ":4900,"lÃŃĠkÄģiĠ":4901,"ĠlÃ¬ngĠwÃłiĠ":4902,"huÃ¡nĠjÃ¬ngĠ":4903,"zhÃºĠ":4904,"tÃ©ngĠ":4905,"wÃłnĠ":4906,"2012ĠniÃ¡nĠ":4907,"ĠĠĠS":4908,"lÃŃnĠpÇĲ":4909,"ĠdÃ¬ĠÃ¨r":4910,"shÄģngĠyÃ¨Ġ":4911,"2011ĠniÃ¡nĠ":4912,"chuÃ¡nĠtÇĴngĠ":4913,"ĠĠĠniÃ¡n":4914,"15ĠrÃ¬Ġ":4915,"ĠyÇĲnĠ":4916,"guÄģnĠdeĠ":4917,"kuÄģnĠ":4918,"sÄģnĠshÃŃĠ":4919,"jÅ«nĠshÃ¬Ġ":4920,"dÄģnĠqÅ«Ġ":4921,"liÃłngĠdeĠ":4922,"jiÄĵĠdÃłoĠ":4923,"sÃłnĠ":4924,"jÄ«ĠdeĠ":4925,"qiÃ¡nĠdeĠ":4926,"rÃ©nĠzÃłiĠ":4927,"nÃ¨iĠrÃ³ngĠ":4928,"ĠzhÃ¨ĠgeĠ":4929,"zÃłngĠ":4930,"sÃłiĠjÃ¬Ġ":4931,"gÄģoĠdeĠ":4932,"dÃ²ngĠhuÃłĠ":4933,"bÃ³ĠshÃ¬Ġ":4934,"dÃ¹ĠdeĠ":4935,"ĠwÃ¨iĠrÃ©nĠ":4936,"12Ġ":4937,"yÃŃnĠhÃ¡ngĠ":4938,"xuÇİnĠjÇĶ":4939,"ĠwÃ¨iĠzhÃ¬Ġ":4940,"chÃ©ngĠzhÅįngĠ":4941,"mÃ¬ngĠmÃŃngĠ":4942,"sÇĶnĠ":4943,"ĠgÃ¹Ġ":4944,"dÄĽngĠdÃ¬Ġ":4945,"ĠgÅįngĠlÃ¹Ġ":4946,"rÃ¨ĠdÃłiĠ":4947,"bÄĽiĠjÄ«ng":4948,"bÇİngĠ":4949,"ĠshÃŃĠjÃ¬Ġ":4950,"yÃ¹nĠdÃ²ngĠhuÃ¬Ġ":4951,"xuÇİnĠzÃ©Ġ":4952,"ĠD":4953,"ĠdÃłĠlÃ¬Ġ":4954,"ĠÃ©rĠzÃłiĠ":4955,"ĠhÃłnĠ":4956,"yuÃ¡nĠniÃ¡nĠ":4957,"bÃłoĠgÃłoĠ":4958,"ĠmÃ¹ĠqiÃ¡nĠ":4959,"ĠdeĠhÃ©Ġ":4960,"bÅįĠchÅ«Ġ":4961,"zuÃ¬ĠjiÄģĠ":4962,"ĠĠĠjÃ¹Ġ":4963,"zÅįngĠjiÃłoĠ":4964,"xuÃ©ĠwÃ¨iĠ":4965,"tÇĶĠdÃ¬Ġ":4966,"ĠdÃ©ĠdÃłoĠ":4967,"deĠĠĠ":4968,"zuÃ¬ĠhÃ²uĠ":4969,"wÃ©nĠhuÃł":4970,"tuÃ¡nĠtÇĲĠ":4971,"25ĠrÃ¬Ġ":4972,"ĠyÃ¨Ġ":4973,"ĠdÃ¬ĠfÄģngĠ":4974,"guÇĲĠdÃłoĠ":4975,"luÃłnĠ":4976,"ĠwÃ¨iĠdÃ¬Ġ":4977,"jÄ«ngĠlÃ¬Ġ":4978,"xÃ¬ĠdeĠ":4979,"ĠzhÃłn":4980,"ĠzhÄ«ĠqiÃ¡nĠ":4981,"shÄĽngĠdeĠyÃŃĠgÃ¨ĠshÃ¬ĠzhÃ¨nĠ":4982,"ĠmÃ³Ġ":4983,"ĠshÃ¬ĠyÄ«ĠzhÇĴngĠ":4984,"ĠshÃ¬ĠwÃ¨iĠyÃºĠmÄĽiĠguÃ³Ġ":4985,"AĠ":4986,"jÃŃĠzhÅįngĠ":4987,"ĠgÃ¨ĠyuÃ¨Ġ":4988,"ĠxÃ¬ngĠ":4989,"Ġ5Ġ":4990,"ĠjÅ«nĠdeĠ":4991,"ĠmÇĲ":4992,"sÇĲĠwÃ¡ngĠ":4993,"xiÄģngĠguÄģnĠ":4994,"ĠqÃ¬Ġ":4995,"Ġ5":4996,"ĠbÄģoĠkuÃ²":4997,"30ĠrÃ¬Ġ":4998,"fÄĵnĠbiÃ©":4999,"ĠjÄ«ĠgÃ²uĠ":5000,"wÃ¨iĠdeĠ":5001,"shÇĴuĠcÃ¬Ġ":5002,"ÃłoĠlÃŃnĠpÇĲ":5003,"lÇĲngĠdÇİoĠ":5004,"ĠyÇĴuĠguÄģnĠ":5005,"ĠhÇİiĠbÃ¡ĠgÄģoĠdÃ¹Ġ":5006,"ĠyÄ«ĠxiÄĵĠ":5007,"ĠtÃ³ngĠniÃ¡nĠ":5008,"ĠjuÃ©Ġ":5009,"2014ĠniÃ¡nĠ":5010,"yÃ²ngĠdeĠ":5011,"huÃ¡iĠ":5012,"ĠĠĠwÃ¨iĠ":5013,"mÄĽiĠyuÃ¡nĠ":5014,"20ĠrÃ¬Ġ":5015,"ĠxÃŃngĠdÃ²ngĠ":5016,"ĠzhÃ²ngĠ":5017,"xuÄĽĠ":5018,"ĠzÃłiĠyÄ«Ġ":5019,"Ġ6":5020,"jÄ«ĠyÃºĠ":5021,"ĠzhÅįngĠhuÃ¡ĠmÃŃnĠguÃ³Ġ":5022,"shuÇĲĠyÃ¹Ġ":5023,"11Ġ":5024,"biÃłnĠhuÃłĠ":5025,"10ĠrÃ¬Ġ":5026,"shÃłngĠwÃ¨iĠ":5027,"ĠjÃŃĠtuÃ¡n":5028,"2018ĠniÃ¡nĠ":5029,"ĠjÃ¬ĠxÃ¹Ġ":5030,"zhÄ«ĠyÄ«Ġ":5031,"ĠshÃŃĠdÃłiĠ":5032,"chÇĶĠyÃºĠ":5033,"UTCĠ":5034,"gÃ²ngĠhÃ©Ġ":5035,"ĠbÃ¹ĠzhÇİngĠ":5036,"zÃ¬ĠjÇĲĠ":5037,"ĠwÃłiĠ":5038,"jiÃ©ĠshÃ¹Ġ":5039,"ĠbÃ¡iĠ":5040,"2019ĠniÃ¡nĠ":5041,"ĠziĠ":5042,"ĠzÃ¬ĠjÇĲ":5043,"zhÄ«ĠchÃŃĠ":5044,"2005ĠniÃ¡nĠ":5045,"guÃ²ĠchÃ©ngĠ":5046,"ĠhÃ²uĠlÃ¡i":5047,"Ġ4":5048,"mÃŃnĠzÃºĠ":5049,"2015ĠniÃ¡nĠ":5050,"shÃ¹nĠ":5051,"kÅįngĠjiÄģnĠ":5052,"shuÃ¬Ġ":5053,"bÃºĠhuÃ¬Ġ":5054,"mÃ¨iĠ":5055,"yÃ¨ĠyÃºĠ":5056,"ĠrÃº":5057,"Ġ18":5058,"ĠchÄĵngĠ":5059,"tÃ²uĠguÃ²Ġ":5060,"nÃ¨iĠbÃ¹Ġ":5061,"2013ĠniÃ¡nĠ":5062,"ĠsÃ¬":5063,"jiÄĽĠfÃłng":5064,"ĠzhÃŃĠdÃłoĠ":5065,"ĠyÃ¬ĠzhÃŃĠ":5066,"ĠjÇĲngĠ":5067,"xÄ«nĠwÃ©nĠ":5068,"fÄĵnĠbÃ¹Ġ":5069,"gÄĵnĠjÃ¹":5070,"ĠzhÅįuĠshÃ¬Ġ":5071,"ĠÃłi":5072,"pÄ«ĠpÃŃngĠ":5073,"ĠjÃŃĠtuÃ¡nĠ":5074,"2007ĠniÃ¡nĠ":5075,"ĠjiÃ¹":5076,"dÃ¬ĠqÅ«Ġ":5077,"ĠshÇĶĠ":5078,"ĠĠĠzhÃ¨Ġ":5079,"ĠhÃ©ĠnÃ¡nĠ":5080,"tÄģĠmen":5081,"ĠshÃ¬ĠshÃŃĠ":5082,"ĠyÇĴuĠxiÃłnĠgÅįngĠsÄ«Ġ":5083,"wÃ¡nĠjiÄģĠ":5084,"guÄ«ĠdÃ¬ngĠ":5085,"ĠshÃ©nĠ":5086,"gÃ©ĠmÃ¬ngĠ":5087,"ĠjiÄģĠrÃ¹Ġ":5088,"wÃ¡nĠquÃ¡nĠ":5089,"chÃ©ngĠwÃ©iĠ":5090,"ĠtÃ¡ngĠ":5091,"xÄ«ĠbÄģnĠ":5092,"zÄ«ĠgÃ©Ġ":5093,"26ĠrÃ¬Ġ":5094,"dÃłĠlÃ¹Ġ":5095,"ÃłoĠlÃŃnĠpÇĲĠkÃ¨Ġ":5096,"ĠĠĠgÄģiĠ":5097,"2017ĠniÃ¡nĠ":5098,"ĠT":5099,"ĠdÃłĠhuÃ¬Ġ":5100,"24ĠrÃ¬Ġ":5101,"ĠmÃ²Ġ":5102,"zÃłiĠdeĠ":5103,"zÃ¡ĠzhÃ¬Ġ":5104,"ĠzhÃ¨ĠzhÇĴngĠ":5105,"yÄ«ngĠyÇĶĠ":5106,"pÃºĠtÃ¡oĠ":5107,"ĠĠĠyÄ«Ġ":5108,"lÃ¹ĠdÃ¬Ġ":5109,"ĠyÄ«ngĠguÃ³Ġ":5110,"hÃ©ĠdeĠ":5111,"shÃłngĠhÇİiĠ":5112,"hÃ¡oĠmÇĲĠ":5113,"ĠyÇĶĠyÃ¡nĠ":5114,"qÇĲĠyÃ¨Ġ":5115,"qÃŃĠtÄģ":5116,"fÄģngĠdeĠ":5117,"Ġ8":5118,"ĠkÄĽ":5119,"hÃ²uĠyÄ«Ġ":5120,"luÃ³ĠmÇİĠ":5121,"ĠtÃ³uĠ":5122,"wÃ¨nĠtÃŃ":5123,"Ġ3Ġ":5124,"sÄģnĠgÃ¨Ġ":5125,"ĠchÃ©ngĠqÅ«Ġ":5126,"sÃ¨ĠdeĠ":5127,"2006ĠniÃ¡nĠ":5128,"chuÃ¡nĠtÇĴng":5129,"ĠshÃ¬ĠfÇİĠguÃ³Ġ":5130,"yÄ«ĠdeĠ":5131,"18ĠrÃ¬Ġ":5132,"wÃ¹ĠzhÇĴngĠ":5133,"ĠyÃłoĠ":5134,"ĠE":5135,"ĠwÃ¨iĠyÃºĠgÄģiĠguÃ³Ġ":5136,"ĠhÄģĠ":5137,"ĠlÇĲĠsÄ«Ġ":5138,"ĠtÃ¡iĠwÄģnĠ":5139,"ĠP":5140,"jÃ¬ngĠnÃ¨iĠ":5141,"ĠbÃ¹ĠtÃ³ngĠdeĠ":5142,"Ġ9":5143,"ĠmÃ²":5144,"wÃ¹ĠlÇĲĠ":5145,"duÅįĠdeĠ":5146,"shÃ¹ĠwÃ¨iĠ":5147,"ĠdÃłiĠbiÇİo":5148,"biÇİoĠxiÃłnĠ":5149,"ĠshÃ¬ĠjiÃ¨ĠdÃłĠ":5150,"shÄĽngĠjÃŃĠ":5151,"fÇİĠlÇľĠ":5152,"miÃ¡oĠshÃ¹Ġ":5153,"ĠÄģ":5154,"gÃłnĠ":5155,"guÄģnĠyuÃ¡nĠ":5156,"jÄ«ngĠguÃ²Ġ":5157,"ĠlÃºĠ":5158,"bÃłĠ":5159,"chÄģngĠ":5160,"Ġ7":5161,"ĠyÃ¬ĠbÄģnĠ":5162,"ĠzuÃ¬ĠhÃ²uĠ":5163,"pÃ²ĠhuÃłi":5164,"ĠguÃ³ĠjiÄģ":5165,"yÃŃngĠdÃ©Ġ":5166,"cÃłiĠ":5167,"ĠsuÃŃĠhÃ²uĠ":5168,"12ĠrÃ¬Ġ":5169,"zhÃ¨ngĠzÃłiĠ":5170,"bÄģoĠhÃ¡nĠ":5171,"ĠshÃ¬ĠjiÃłn":5172,"bÃ³ĠwÃ¹ĠguÇİnĠ":5173,"ĠgÅįngĠjÄ«Ġ":5174,"21Ġ":5175,"shÃ¨nĠ":5176,"cÃ¨ĠshÃ¬Ġ":5177,"chÇİngĠdeĠ":5178,"nÃ¡Ġ":5179,"ĠwÃ¨iĠzhÅįngĠ":5180,"ĠlÃ¬ĠyÃ²ngĠ":5181,"bÃ¹ĠhÃ©Ġ":5182,"ĠchÃ¡oĠ":5183,"zÃ©ĠshÃ¬Ġ":5184,"chÃºnĠ":5185,"niÃ¨Ġ":5186,"fÄĵiĠjÄ«Ġ":5187,"ĠfÄĵnĠbÃ¹ĠyÃºĠ":5188,"ĠM":5189,"zhuÄģnĠyÃ¨Ġ":5190,"zhÄĵngĠyÃ¬Ġ":5191,"27ĠrÃ¬Ġ":5192,"shÇĲĠdeĠ":5193,"16ĠrÃ¬Ġ":5194,"fÇİĠyuÃłnĠ":5195,"Ġ2001ĠniÃ¡nĠ":5196,"ĠdÃ¬ĠqÅ«":5197,"21ĠrÃ¬Ġ":5198,"yÃ¬ĠshÃŃĠ":5199,"yÅįngĠ":5200,"17ĠrÃ¬Ġ":5201,"zÄģoĠdÃłoĠ":5202,"ĠshÃ¬ĠyÃ¬Ġ":5203,"ĠshÄĵngĠhuÃ³Ġ":5204,"ĠchÃ³ngĠ":5205,"ĠbÃ¨iĠchÄĵngĠwÃ©iĠ":5206,"dÃ¬ngĠyÃ¬Ġ":5207,"ĠzhÅįngĠxÄ«n":5208,"ĠsuÄ«ĠrÃ¡n":5209,"ĠdÃłĠqÅ«Ġ":5210,"sÅįuĠ":5211,"zÅįngĠhÃ©Ġ":5212,"ĠzhÃłnĠzhÄĵngĠ":5213,"8ĠrÃ¬Ġ":5214,"xuÃ©ĠdeĠ":5215,"ĠxiÃłnĠshÃŃĠ":5216,"ĠzhÅįngĠgÃ²ng":5217,"19ĠrÃ¬Ġ":5218,"jÃŃĠwÃ¨iĠ":5219,"ĠÃ©Ġ":5220,"ĠĠĠC":5221,"23ĠrÃ¬Ġ":5222,"2021ĠniÃ¡nĠ":5223,"Ġ13":5224,"huÃ¡ngĠdÃ¬Ġ":5225,"ĠdeĠzuÃ²Ġ":5226,"ĠzhÅ«Ġ":5227,"zhÇĲĠshÃ¬Ġ":5228,"2022ĠniÃ¡nĠ":5229,"11ĠrÃ¬Ġ":5230,"ÅįuĠzhÅįu":5231,"jiÄģngĠqÃŃĠ":5232,"ÄģĠlÄģĠ":5233,"ĠbÃ¬ngĠbÃ¹Ġ":5234,"yuÃ¡nĠyÃºĠ":5235,"fÄģngĠxiÃłngĠ":5236,"zhÃłnĠdeĠ":5237,"liÃ¹ĠniÃ¡nĠ":5238,"ĠcÃ¬":5239,"ĠF":5240,"ĠĠĠyÃºĠ":5241,"chÅ«ĠxiÃłnĠ":5242,"liÃ¨ĠchÄĵ":5243,"quÃ¡nĠlÃ¬Ġ":5244,"nÇİoĠ":5245,"guÄ«ĠmÃ³Ġ":5246,"22ĠrÃ¬Ġ":5247,"29ĠrÃ¬Ġ":5248,"7ĠrÃ¬Ġ":5249,"liÃ¨ĠdeĠ":5250,"zuÃ¬ĠdÃłĠdeĠ":5251,"meĠ":5252,"duÅįĠshÃ¹Ġ":5253,"xiÃłngĠdeĠ":5254,"20Ġ":5255,"xÅ«ĠyÃło":5256,"hÃ¡iĠshÃ¬Ġ":5257,"ĠlÃ³ngĠ":5258,"yÃ¹ĠdeĠ":5259,"nÃ©ngĠgÃ²uĠ":5260,"yuÄĵĠhÃłnĠ":5261,"ĠzhÃ¨ĠxiÄĵ":5262,"ĠĠĠcÇĲĠ":5263,"dÃ¬ngĠwÃ¨iĠ":5264,"tÇĴngĠjÃ¬Ġ":5265,"ĠxiÄģngĠgÇİng":5266,"9ĠrÃ¬Ġ":5267,"ĠĠĠzhÃ¨ngĠzhÃ¬Ġ":5268,"ĠzÃłiĠzhÃ¨Ġ":5269,"xÃ¬nĠxÄ«Ġ":5270,"sÄģngĠ":5271,"yÃłngĠdeĠ":5272,"ĠxiÃłnĠzhÃ¬Ġ":5273,"gÅįngĠdeĠ":5274,"jÇĶĠbÃłn":5275,"ĠlÃ¹":5276,"liÃ¡nĠmÃ©ng":5277,"ĠfÄĵnĠbiÃ©":5278,"qiÃºĠduÃ¬Ġ":5279,"hÅįngĠ":5280,"ĠzhÄģng":5281,"chÃ¡ĠdeĠ":5282,"14ĠrÃ¬Ġ":5283,"lÃ¬ngĠyÄ«Ġ":5284,"chÃ¡ngĠshÃ¬Ġ":5285,"mÄĽiĠguÃ³ĠrÃ©nĠkÇĴuĠpÇĶĠ":5286,"ĠĠĠtheĠĠĠ":5287,"niÇĶĠyuÄĵ":5288,"5ĠrÃ¬Ġ":5289,"zÇĶĠhÃ©Ġ":5290,"ĠhuÃ²ĠdÃ©":5291,"lÃŃnĠshÃŃĠ":5292,"3ĠrÃ¬Ġ":5293,"31ĠrÃ¬Ġ":5294,"ĠzhÅįngĠbÃ¹Ġ":5295,"wÃ¨iĠshÃ¬Ġ":5296,"dÇĴngĠshÃ¬Ġ":5297,"jÄ«ĠdÃ¬Ġ":5298,"gÄĵĠshÇĴuĠ":5299,"dÅįngĠnÃ¡nĠ":5300,"hÇİiĠbÃ¡":5301,"ĠbÃłoĠ":5302,"ĠĠĠzhÅįngĠ":5303,"bÄģngĠzhÃ¹Ġ":5304,"ĠdeĠshÃ¬ĠzhÃ¨nĠ":5305,"ĠrÃ¹Ġ":5306,"ĠhuÃ¡Ġ":5307,"6ĠrÃ¬Ġ":5308,"pÄģiĠshÃ¨Ġ":5309,"ĠgÃ²ngĠ":5310,"ĠliÃº":5311,"mÃ³uĠ":5312,"ĠyÃ¬ĠdÃłĠlÃ¬Ġ":5313,"2000ĠniÃ¡nĠ":5314,"ĠshÃ¨ĠlÃ¬Ġ":5315,"2ĠrÃ¬Ġ":5316,"ĠyÃ¬ĠbÄģn":5317,"ĠrÃ©nĠkÇĴu":5318,"gÃ¨ĠrÃ©nĠ":5319,"shÃ¨ĠyÇĴuĠ":5320,"ĠdeĠzhÅįngĠ":5321,"4ĠrÃ¬Ġ":5322,"Ġãĥ":5323,"Ġ4Ġ":5324,"bÇĲngĠ":5325,"shÄĵngĠyÃ¡Ġ":5326,"ĠG":5327,"yuÃ¡nĠhÃ©Ġ":5328,"mĠ":5329,"2004ĠniÃ¡nĠ":5330,"ĠdÃ¬ĠqÅ«ĠdeĠ":5331,"ĠxuÃ©ĠshÄĵngĠ":5332,"ĠdÇİoĠzhÃ¬Ġ":5333,"tiÄĽĠlÃ¹":5334,"zÃºĠqiÃº":5335,"zÇİoĠqÄ«Ġ":5336,"fÃ©ngĠ":5337,"ĠqÃŃĠtÄģ":5338,"cÄģngĠ":5339,"13ĠrÃ¬Ġ":5340,"xiÅįngĠdÃ¬Ġ":5341,"shÄĵngĠzÃłiĠ":5342,"dÅįngĠbÄĽiĠ":5343,"ruÇİnĠ":5344,"mÃ¹ĠdÃ¬Ġ":5345,"tÅįngĠchÃ¡ngĠ":5346,"huÄ«ĠfÃ¹Ġ":5347,"ĠãĤ":5348,"ĠzhÃ¨ĠyÄ«Ġ":5349,"ĠwÇĴ":5350,"ĠshÃ¬ĠchÇİngĠ":5351,"ĠxuÃ©ĠyuÃłnĠ":5352,"shÄģoĠ":5353,"pÃ¡nĠ":5354,"ĠbiÃłnĠ":5355,"shÄĵnĠfÃ¨nĠ":5356,"ĠĠĠyÃ³uĠyÃºĠ":5357,"qÇĶĠdÃłiĠ":5358,"gÃ©ĠmÃ¬ng":5359,"zhÇĲĠhuÄ«Ġ":5360,"ĠmÃ©iĠyÇĴuĠ":5361,"qÃŃngĠkuÃłngĠxiÃłĠ":5362,"ĠB":5363,"sÅ«ĠliÃ¡nĠ":5364,"yÃŃĠbÃ¹Ġ":5365,"xiÃ©ĠyÃ¬Ġ":5366,"huÃ¡ngĠjiÄģĠ":5367,"kÄĵĠjÃ¬Ġ":5368,"fÄģĠxiÃłn":5369,"pÃ¡ngĠ":5370,"zhÄĽngĠgÃ¨Ġ":5371,"zhÄģnĠ":5372,"rÃ©nĠhÃ©Ġ":5373,"ĠgÅįngĠchÇĲĠ":5374,"liÃ¡nĠbÄģngĠ":5375,"ĠhÄĵiĠ":5376,"yÄģoĠqiÃº":5377,"yÄģnĠ":5378,"ĠfÃ¹":5379,"chÄģoĠjÃŃĠ":5380,"mÃłoĠyÃ¬Ġ":5381,"yuÃ¨ĠdeĠ":5382,"zhÇİngĠdeĠ":5383,"xuÃ©ĠyuÃłn":5384,"fÇİnĠyÃ¬ng":5385,"jÇĶĠbÃłnĠ":5386,"hÃ¡ngĠkÅįng":5387,"cuÄ«Ġ":5388,"xÃŃĠjÄ«Ġ":5389,"ĠyÄĽĠyÇĴuĠ":5390,"huÃłĠhÃ©Ġ":5391,"xiÇİoĠshuÅįĠ":5392,"ĠdÃ¬ĠlÃ¬Ġ":5393,"ĠshÅ«Ġ":5394,"lÃ¬ĠhÃ©Ġ":5395,"30Ġ":5396,"nÇļĠxÃ¬ngĠ":5397,"ĠxÄ«ĠnÃ¡nĠ":5398,"tÃºĠshÅ«Ġ":5399,"guÄģnĠfÄģngĠ":5400,"xiÄģnĠhÃ²uĠ":5401,"bÃ¬ĠyÃ¨Ġ":5402,"tÇĴngĠyÄ«Ġ":5403,"ĠĠĠA":5404,"zÃ¡Ġ":5405,"tÇĲngĠ":5406,"ĠhÄģ":5407,"ĠgÃ¹":5408,"brĠ":5409,"ĠĠĠB":5410,"ĠmÃłnĠ":5411,"sÃłiĠdeĠ":5412,"hÃ³uĠ":5413,"zÅ«nĠ":5414,"ĠshuÄģngĠ":5415,"ĠyÇĲĠjÄ«ng":5416,"ĠquÃ¨Ġ":5417,"ĠwÄĵi":5418,"ĠdÅįng":5419,"ĠbrĠ":5420,"xiÃ©ĠzhÃ¹Ġ":5421,"lÇİnĠ":5422,"aĠ":5423,"cÃ¬ĠshÃ¬ĠjiÃ¨ĠdÃłĠ":5424,"ĠrÃºĠguÇĴĠ":5425,"shÃłngĠshÃ¬Ġ":5426,"qÅ«ĠhuÃłĠ":5427,"fÄĵnĠxÄ«Ġ":5428,"ĠK":5429,"yÇĶĠdeĠ":5430,"ĠÄĽrĠshÄĽngĠ":5431,"rÃ©nĠkÇĴuĠshÃ¹ĠliÃłng":5432,"wÃ©nĠwÃ¹ĠbÇİoĠhÃ¹Ġ":5433,"ĠhÃ©ĠyÄ«Ġ":5434,"aĠĠĠ":5435,"ĠbÃ¹ĠnÃ©ngĠ":5436,"zÃ¬ĠxÃŃngĠ":5437,"Ġ6Ġ":5438,"ĠbÄĽn":5439,"jiÄĵĠduÃłnĠ":5440,"guÇİngĠbÅįĠ":5441,"ĠqiÄĽĠ":5442,"ĠyÇĲĠlÃ¡iĠ":5443,"ĠxÄ«ĠbÄģnĠ":5444,"ĠzÇĶĠ":5445,"ĠcÃ¡iĠ":5446,"dÄģnĠrÃ¨n":5447,"ĠtÄģĠcÃ©ng":5448,"chÃŃĠxÃ¹Ġ":5449,"tÃ¡iĠbÄĽi":5450,"ĠwÇĶ":5451,"wÃºĠxiÃłnĠ":5452,"gÃ²ngĠchÇİnĠdÇİngĠ":5453,"guÃ³ĠhÃ©Ġ":5454,"Ġ12":5455,"ĠyÇĲĠxiÃłĠ":5456,"qÄ«ĠniÃ¡nĠ":5457,"tÃ¨ĠdeĠ":5458,"dÇİoĠyÇİnĠ":5459,"TheĠĠĠ":5460,"hÃ²uĠyÃºĠ":5461,"rÃ©ngĠ":5462,"yÇİnĠchÃłng":5463,"zhÃ¹ĠzÃłiĠ":5464,"fÄģĠbiÇİo":5465,"xiÃłĠxiÃ¡":5466,"tiÃ¡oĠjiÃłnĠ":5467,"pÃŃnĠdÃłoĠ":5468,"ĠgÅįngĠzuÃ²":5469,"yÃ¨ĠdeĠ":5470,"jiÄģoĠyÃ¬Ġ":5471,"hÇĶĠ":5472,"ĠzÃłiĠcÃ¬Ġ":5473,"lÃłiĠ":5474,"ĠqiÄģnĠ":5475,"ĠjiÇĶĠ":5476,"shÃłoĠniÃ¡nĠ":5477,"jiÃ©ĠshÃ¹":5478,"ĠshÃ¬ĠzhÅįngĠguÃ³Ġ":5479,"bÃłoĠdÃłoĠ":5480,"ĠrÃ©nĠkÇĴuĠmÃ¬ĠdÃ¹ĠwÃ¨iĠ":5481,"qiÃºĠyuÃ¡nĠ":5482,"ĠshÃ¬ĠlÃ¬Ġ":5483,"ĠqiÄĽ":5484,"ĠĠĠbÃ¹Ġ":5485,"zÄģoĠ":5486,"juÃ©ĠsÃłiĠ":5487,"yÃ¬ngĠyÃ²ngĠ":5488,"wÃłiĠdeĠ":5489,"yÃ³uĠzhÃ¨ngĠ":5490,"jiÃłnĠlÃ¬Ġ":5491,"ĠyÃłĠ":5492,"zÄ«ĠyuÃ¡nĠ":5493,"sÄģiĠÄĽrĠ":5494,"ĠqÃŃĠhÃ²uĠ":5495,"ĠxÄ«":5496,"zuÃ¬ĠdÃłĠ":5497,"ĠbÃ¬ngĠwÃ¨iĠ":5498,"ĠL":5499,"huÃŃĠdÃłoĠ":5500,"cÄģoĠ":5501,"sÃ¹ĠdÃ¹Ġ":5502,"qÃ¬ĠhÃ²uĠ":5503,"kÄĽĠdÃ¡Ġ":5504,"ĠluÃ²Ġ":5505,"ĠwÃ¨iĠyÃºĠfÇİĠguÃ³Ġ":5506,"ĠzhÃłoĠ":5507,"gÇİiĠgÃ©Ġ":5508,"mÃ¬ĠshÅ«Ġ":5509,"ĠyÄ«ĠyuÃłnĠ":5510,"diÃłnĠshÃ¬ĠjÃ¹Ġ":5511,"zhuÃłngĠtÃłiĠ":5512,"zhÃ¹ĠdeĠ":5513,"fÃ¨nĠwÃ¨iĠ":5514,"ĠH":5515,"Ġ10":5516,"ĠgÅįngĠyÃ¨Ġ":5517,"wÇİngĠzhÃłnĠ":5518,"ĠR":5519,"ĠjiÄĽĠ":5520,"gÅįngĠsÄ«Ġ":5521,"ĠlÃ¡nĠ":5522,"jiÃ©ĠguÇĴĠ":5523,"suÇĴĠshÇĶĠdeĠ":5524,"ĠdeĠdÃ¬ĠyÄ«Ġ":5525,"hÃºĠnÃ¡nĠ":5526,"ĠyÄ«ĠsÄ«Ġ":5527,"ĠmÃłi":5528,"ĠzhÃ¨Ġge":5529,"yÃłĠlÃ¬Ġ":5530,"ĠwÃ¨iĠyÄ«Ġ":5531,"shÃłngĠhÇİi":5532,"20ĠshÃ¬ĠjÃ¬Ġ":5533,"ĠzuÃ²ĠpÇĲnĠ":5534,"zuÇĴĠyÃ²uĠ":5535,"xiÇİoĠxuÃ©Ġ":5536,"jiÃ©ĠhÃ©Ġ":5537,"shÃ¨ngĠlÃ¬Ġ":5538,"ĠzhÅįngĠgÃ²ngĠ":5539,"shÇĴuĠcÃ¬":5540,"ĠjiÃłĠ":5541,"ĠhÃłoĠxiÃłnĠ":5542,"zhÃ¨nĠqÅ«Ġ":5543,"ĠdeĠfÃ¹Ġ":5544,"wÃ©nĠmÃŃngĠ":5545,"ĠjiÇİnĠchÄĵngĠ":5546,"kÄģiĠfÄģ":5547,"ĠsuÇĴĠyÇĴuĠ":5548,"yÃŃĠzhÃ¬Ġ":5549,"jiÃłoĠhuÃ¬Ġ":5550,"shÄĽngĠfÃ¨nĠ":5551,"zhÇİnĠkÄģiĠ":5552,"yÃ¬nĠdÃ¹":5553,"shÃŃĠqÄ«Ġ":5554,"ĠfÇİĠguÃ³Ġ":5555,"lÇĲngĠdÇİo":5556,"mÃ¹ĠbiÄģoĠ":5557,"ĠÃ©rĠshÃ¬Ġ":5558,"gÄģoĠjÃŃĠ":5559,"zhÇĶnĠbÃ¨iĠ":5560,"wÇİngĠluÃ²Ġ":5561,"ĠfÄĵi":5562,"ĠjiÃłnĠshÃ¨Ġ":5563,"xÃ¹nĠliÃłnĠ":5564,"kÄĵĠdeĠ":5565,"ĠrÃ©nĠwÃ¹Ġ":5566,"fÄģĠbiÇİoĠ":5567,"xuÇİnĠshÇĴuĠ":5568,"jiÄģoĠtÅįng":5569,"hÇİoĠdeĠ":5570,"zÃ¬ĠrÃ¡nĠ":5571,"zhÃ²ngĠyÃłoĠdeĠ":5572,"dÅįngĠjÄ«ngĠ":5573,"chÇİnĠpÇĲnĠ":5574,"gÃ²ngĠyÇĴuĠrÃ©nĠkÇĴuĠ":5575,"ĠjiÇİĠ":5576,"ĠxiÃłnĠdÃłiĠ":5577,"ĠyÄ«ĠmÃŃngĠ":5578,"ĠxÄ«ĠbÄĽiĠ":5579,"juÇİnĠ":5580,"fÄĵngĠgÃ©Ġ":5581,"ĠchÃ©ngĠjÃ¬Ġ":5582,"lÄĽiĠ":5583,"ĠhÃ©ĠdÃ¬Ġ":5584,"zÃ²uĠ":5585,"xiÇİoĠxÃŃngĠxÄ«ngĠ":5586,"yÃ¡nĠzhÃ²ngĠ":5587,"ziĠdeĠ":5588,"mÃ¹ĠqiÃ¡nĠ":5589,"liÃºĠxÃŃngĠ":5590,"wÃ©nĠwÃ¹ĠbÇİoĠhÃ¹ĠdÄģnĠwÃ¨iĠ":5591,"ĠjÄ«ĠchÇİngĠ":5592,"miÃ¨Ġ":5593,"biÃłnĠchÃ©ngĠ":5594,"qiÃ¡oĠzhÃ¬Ġ":5595,"ĠguÄģngĠ":5596,"ĠdÄģnĠrÃ¨nĠ":5597,"lÃ¨iĠsÃ¬":5598,"diÃłnĠshÃ¬ĠtÃ¡iĠ":5599,"jiÄĽĠshÃ¬Ġ":5600,"guÃ³ĠmÃŃnĠ":5601,"ĠyÃ¬ĠqÇĲĠ":5602,"ĠyÇĴngĠ":5603,"ĠmÃłiĠ":5604,"kÄģiĠfÃłngĠ":5605,"ĠshÃ¨nĠzhÃ¬Ġ":5606,"ĠxiÃłĠlÃ¬ng":5607,"ĠyÃŃĠgÃ¨Ġ":5608,"kÇİĠÄĽrĠ":5609,"2003ĠniÃ¡nĠ":5610,"xÃŃngĠshÃ¬Ġ":5611,"dÅįuĠyÇĴuĠ":5612,"2002ĠniÃ¡nĠ":5613,"ĠchÃºĠleĠ":5614,"ĠĠĠF":5615,"zhÄ«ĠhÃ²uĠ":5616,"huÃ¬ĠhÃ©Ġ":5617,"mÄĽiĠpÃŃngĠfÄģngĠgÅįngĠlÇĲĠ":5618,"rÃ¹ĠleĠ":5619,"ĠyÄ«ĠyÃłngĠ":5620,"ĠgÅįngĠfÄĵnĠ":5621,"ĠshÃ¨ĠzhÃ¬Ġ":5622,"tÃ¨ĠzhÄĵngĠ":5623,"cÄģnĠsÃłiĠ":5624,"ĠsÄ«ĠjÄ«Ġ":5625,"ĠwÅ«Ġ":5626,"rÃºĠxiÃłĠ":5627,"zhÄĵnĠduÃ¬Ġ":5628,"ĠdÄĽng":5629,"jiÃ¹ĠshÃ¬ĠzhÃ¨nĠ":5630,"ĠshÃ¬ĠfÇĴu":5631,"ĠshÃŃĠjiÄģn":5632,"bÃłngĠ":5633,"zhÃ¨ĠgeĠ":5634,"gÄģoĠzhÅįngĠ":5635,"ĠcÇĲĠhÃ²uĠ":5636,"bÃ¬ĠxÅ«Ġ":5637,"ĠzÃłiĠzhÅįngĠ":5638,"wÃ¡ngĠguÃ³Ġ":5639,"bÇĲĠjiÃłoĠ":5640,"Ġ00":5641,"Ã¨rĠshÃ¬Ġ":5642,"wÃłiĠjiÄģo":5643,"diÄģoĠ":5644,"guÄ«ĠhuÃłĠ":5645,"ĠchÄĵĠ":5646,"ĠyÃ¬ĠzhÃ¬Ġ":5647,"ĠyÇĶ":5648,"lÃ¨iĠsÃ¬Ġ":5649,"ĠbiÇİoĠshÃ¬Ġ":5650,"shÄģnĠdÅįngĠ":5651,"ĠrÃ¡nĠhÃ²uĠ":5652,"ĠsuÄ«ĠrÃ¡nĠ":5653,"ĠyÃ¬ĠzhÃŃ":5654,"ĠlÃ¬ĠshÇĶĠyÃºĠ":5655,"yuÃ¡nĠshÃ¬Ġ":5656,"duÃ¬ĠzÃłiĠ":5657,"zhÃ¹ĠmÃŃngĠ":5658,"yÃºnĠnÃ¡nĠ":5659,"hÄĽnĠduÅįĠ":5660,"ĠÄĽrĠdeĠ":5661,"huÃ²ĠdÃ©":5662,"shÄĵngĠchÇİnĠ":5663,"ĠshÄģngĠ":5664,"ĠĠĠgÅįngĠ":5665,"zhÃłnĠyÃ¬Ġ":5666,"ĠbÄĽi":5667,"zhÃ²ngĠdeĠ":5668,"diÃłnĠziĠ":5669,"ĠĠĠdÃłĠ":5670,"ĠjiÃłnĠzhÃ¬Ġ":5671,"xÄ«nĠjiÄģĠ":5672,"ĠtÃºĠ":5673,"lÃ¡iĠzÃ¬":5674,"ĠĠĠP":5675,"zhÃ¬ĠzuÃ²Ġ":5676,"shÄģnĠxÄ«Ġ":5677,"rÃ©nĠkÇĴuĠshÃ¹ĠliÃłngĠwÃ¨iĠrÃ©nĠ":5678,"ĠgÇĶ":5679,"jÃ¹ĠjÃŃĠ":5680,"ĠdeĠyÄ«ĠzhÇĴngĠ":5681,"ĠdeĠmÃŃngĠ":5682,"jÃŃĠhÃ©Ġ":5683,"Ã©ĠluÃ³Ġ":5684,"UĠ":5685,"ĠxÄ«ĠyÃł":5686,"lÇļĠyÃ³uĠ":5687,"tÃłoĠ":5688,"ĠzhÃ¬ĠzÃłoĠ":5689,"ĠxÃŃngĠwÃ©iĠ":5690,"mÇİĠlÃ¡i":5691,"ĠrÃ¨n":5692,"bÃłoĠfÄģĠ":5693,"ĠO":5694,"nÇļĠÃ©rĠ":5695,"ĠINSEE":5696,"ĠzÇĶ":5697,"zÇĴngĠlÇĲĠ":5698,"quÃ¡nĠqiÃºĠ":5699,"sÄ«ĠhÃ©Ġ":5700,"ĠdeĠzhÇĶĠ":5701,"ĠduÃ¬ĠyÃºĠ":5702,"sÃłiĠzhÅįngĠ":5703,"ĠshÃłngĠhÇİiĠ":5704,"fÄģĠshÃ¨Ġ":5705,"ruÃ¬ĠshÃ¬Ġ":5706,"bÄģoĠhÃ¡n":5707,"nÃ³ngĠyÃ¨Ġ":5708,"yÃ¨ĠwÃ¹Ġ":5709,"lÃ¹ĠjÅ«nĠ":5710,"tÃ³uĠzÄ«Ġ":5711,"wÃ¹ĠzhÃ¬Ġ":5712,"juÃ©ĠdeĠ":5713,"ĠN":5714,"nÃłiĠ":5715,"tÃ¨ĠbiÃ©Ġ":5716,"ĠjÃ¬nĠshÃ¬Ġ":5717,"ĠdeĠshÃŃĠhÃ²uĠ":5718,"ÃłoĠlÃŃnĠpÇĲĠkÃ¨ĠyÃ¹nĠdÃ²ngĠhuÃ¬Ġ":5719,"gÃ©ĠdeĠ":5720,"ĠzhÃ¬ĠjÄ«nĠ":5721,"fÄģngĠÃłnĠ":5722,"sÄ«ĠrÃ©nĠ":5723,"huÃłĠxuÃ©Ġ":5724,"ĠtÃ¨ĠbiÃ©":5725,"chÃłĠ":5726,"ĠdÃłĠliÃłngĠ":5727,"jÃŃĠshÃ¬Ġ":5728,"ĠĠĠM":5729,"ĠnÃŃĠ":5730,"mÇĲnĠ":5731,"kÄĽĠnÃ©ngĠshÃ¬Ġ":5732,"ĠniÃ¡nĠdÃ¹Ġ":5733,"ĠI":5734,"jÃ¬nĠdeĠ":5735,"ĠzhÄ«ĠwÃłiĠ":5736,"sÃ¬ĠshÃŃĠ":5737,"ĠgÃ¨ngĠ":5738,"fÄģĠdÃ²ngĠ":5739,"liÃ¡nĠjiÄĵĠ":5740,"cÃ¡oĠ":5741,"qiÇİnĠ":5742,"xuÇİnĠwÃ¨iĠ":5743,"ĠshÃ¨ĠshÄ«Ġ":5744,"ĠwÃłnĠrÃ©nĠ":5745,"ĠzhÃ¨ngĠshÃ¬Ġ":5746,"chÃ¹ĠdeĠ":5747,"tÇĶĠÄĽr":5748,"ĠlÃ¬ĠsÄ«Ġ":5749,"bÃ³ĠtÃ¨Ġ":5750,"ĠzÇĴngĠmiÃłnĠjÄ«Ġ":5751,"luÃ³ĠmÇİ":5752,"chuÃłngĠlÃ¬Ġ":5753,"ĠdeĠlÃ¬Ġ":5754,"ĠniÃ¡nĠhÃ²uĠ":5755,"ĠdÃ©ĠlÇĲĠ":5756,"guÇİngĠchÇİngĠ":5757,"liÃ¡nĠhÃ©ĠguÃ³Ġ":5758,"jÃŃĠshÃŃĠ":5759,"gÄĵngĠmÃŃngĠwÃ¨iĠ":5760,"zÇİoĠniÃ¡nĠ":5761,"xiÃłoĠlÃ¬Ġ":5762,"qÃ¬ĠdeĠ":5763,"biÇİoĠyÇİnĠ":5764,"yÃŃĠshÃ¬Ġ":5765,"rÃ©ngĠrÃ¡nĠ":5766,"ĠjÅ«nĠzÃłiĠ":5767,"fÄģngĠmiÃłn":5768,"juÃ©ĠdÃ¬ng":5769,"ĠzhÄĵnĠ":5770,"ĠgÄģiĠshÄĽngĠ":5771,"dÄģĠ":5772,"zhÃ¬ĠshÃ¬Ġ":5773,"ĠgÅįngĠnÃ©ngĠ":5774,"zÇĴngĠtÇĴng":5775,"ĠrÃ©nĠkÇĴuĠmÃ¬ĠdÃ¹ĠmÄĽiĠpÃŃngĠfÄģngĠgÅįngĠlÇĲĠ":5776,"ĠxiÄģnĠ":5777,"ĠrÃ©nĠkÇĴuĠmÃ¬ĠdÃ¹ĠwÃ¨iĠmÄĽi":5778,"ĠxiÃłĠlÃ¬ngĠshÃŃĠ":5779,"yÃ³uĠzhÃ¨ngĠbiÄģnĠmÇİĠwÃ¨iĠ":5780,"chÃ¡ĠdeĠshÃ¹ĠjÃ¹Ġ":5781,"ĠjÃ¹ĠlÃ¨ĠbÃ¹Ġ":5782,"ĠfÄĵnĠzhÅįngĠ":5783,"0Ġ":5784,"ĠĠĠbÃ¨iĠ":5785,"ĠxiÃłng":5786,"ĠhÃ¡nĠ":5787,"alĠĠĠ":5788,"ĠshÃ¬ĠzhÃ¨nĠbiÄģnĠmÇİĠwÃ¨iĠ":5789,"ĠINSEEĠshÃ¬ĠzhÃ¨nĠbiÄģnĠmÇİĠwÃ¨iĠ":5790,"biÄģoĠzhÇĶn":5791,"ĠshÃ¨ĠdeĠ":5792,"xuÇİnĠqÅ«ĠwÃ¨iĠ":5793,"ĠzÃłiĠcÇĲĠ":5794,"ĠbÃ¹ĠguÃ²":5795,"pÃ¡iĠmÃŃngĠ":5796,"ĠguÃ³ĠwÃ¡ngĠ":5797,"dÃ²ngĠlÃ¬Ġ":5798,"ĠxiÄģoĠ":5799,"shÃŃĠdeĠrÃ©nĠkÇĴuĠshÃ¹ĠliÃłngĠwÃ¨iĠrÃ©nĠ":5800,"2023ĠniÃ¡nĠ":5801,"jiÄĵĠrÇİngĠdeĠshÃ¬ĠzhÃ¨nĠ":5802,"mÄĽiĠguÃ³ĠrÃ©nĠkÇĴuĠpÇĶĠchÃ¡ĠdeĠshÃ¹ĠjÃ¹Ġ":5803,"jiÄģĠlÃ¬Ġ":5804,"cÃ³ngĠshÃ¬Ġ":5805,"ĠÃ©rĠrÃ©nĠkÇĴuĠmÃ¬ĠdÃ¹ĠwÃ¨iĠmÄĽi":5806,"gÃ©ĠlÃ¡n":5807,"ĠdÄģngĠdÃ¬ĠgÃ²ngĠyÇĴuĠrÃ©nĠkÇĴuĠ":5808,"fÄĵnĠlÃ¨iĠ":5809,"jiÄĽĠjuÃ©Ġ":5810,"ĠqÄ«ng":5811,"zÃºĠdeĠ":5812,"liÃ¡nĠbÄģng":5813,"anĠĠĠ":5814,"dÃłĠbÃ¹ĠfÃ¨n":5815,"yÄ«ĠzhÇĴngĠ":5816,"shÇĲĠyÃ²ngĠdeĠ":5817,"lÇĲngĠyÃ¹Ġ":5818,"ĠhuÃ²ĠjiÃ¹ĠshÃ¬ĠzhÃ¨nĠ":5819,"hÃ©ĠshÃ¬Ġ":5820,"ĠĠĠlÃ¬Ġ":5821,"ĠchÅ«ĠbÇİnĠ":5822,"ĠjiÇİngĠ":5823,"yÃ¹nĠyÃŃngĠ":5824,"shÄĽngĠjÃŃĠxuÇİnĠqÅ«ĠwÃ¨iĠ":5825,"jÄ«ĠjÃŃĠ":5826,"ĠdeĠyÄ«ĠbÃ¹ĠfÃ¨nĠ":5827,"shÃŃĠshÃ¬Ġ":5828,"gÅįuĠ":5829,"Ã©rĠziĠ":5830,"jiÇĶĠniÃ¡nĠ":5831,"zuÃ²ĠpÇĲn":5832,"ĠkÄģiĠshÇĲĠ":5833,"xuÇİnĠrÃ©nĠ":5834,"gÃłiĠniÃłnĠ":5835,"xÄ«ngĠdeĠ":5836,"ĠÄĽrĠdÃ©Ġ":5837,"shÄĽngĠhÃ©Ġ":5838,"ĠjÇĲnĠguÇİnĠ":5839,"jiÄĵĠshÃ²u":5840,"tiÃ¡oĠyuÄĵĠ":5841,"fÃ¨nĠwÃ¨iĠfÇİĠguÃ³Ġ":5842,"ĠgÄģiĠshÄĽngĠfÃ¨nĠwÃ¨iĠfÇİĠguÃ³Ġ":5843,"ĠchÅ«ĠbÇİn":5844,"ĠzhÄ«ĠxiÃłnĠ":5845,"tiÄĽĠdÃłoĠ":5846,"ĠdÃ¬ĠsÄģn":5847,"ĠsÃ²ngĠ":5848,"ĠniÃ¡nĠchÅ«Ġ":5849,"ĠÃ©rĠqiÄĽĠ":5850,"ĠjÅ«nĠduÃ¬Ġ":5851,"guÇİngĠzhÅįuĠ":5852,"ĠbÃ¹ĠjiÇĶĠ":5853,"ÃłoĠdÃłĠlÃ¬Ġ":5854,"ĠwÃ¨iĠshÃŃĠ":5855,"ĠxÄ«ĠlÃł":5856,"fÃºĠjiÃłnĠ":5857,"ĠyÄ«ngĠchÇĲĠ":5858,"ĠduÃ¬":5859,"ĠĠĠG":5860,"ĠhÃ©ĠbÃ¬ng":5861,"zhÃłnĠzhÄĵng":5862,"ĠyÇĴuĠrÃ©nĠ":5863,"pÃ¡iĠmÃŃng":5864,"zhÃłnĠshÃ¬Ġ":5865,"jÇĲnĠbiÄģoĠsÃłiĠ":5866,"zuÃ¬ĠhÃ²uĠyÄ«Ġ":5867,"qÃºnĠdÇİoĠ":5868,"lÃ¡iĠyuÃ¡nĠ":5869,"tÃ¨ĠbiÃ©":5870,"ĠtÄģĠbÃ¨iĠ":5871,"jÇĲngĠchÃ¡Ġ":5872,"xÄ«ngĠjiÃłnĠ":5873,"ĠchÅ«ĠshÄĵngĠyÃºĠ":5874,"ĠruÃ²Ġ":5875,"bÄģĠniÃ¡nĠ":5876,"shÃ¨ĠlÃ¬Ġ":5877,"rÃ©ngĠrÃ¡n":5878,"dÃ¬ĠyÄ«Ġ":5879,"ĠrÃ¬ĠdeĠ":5880,"ĠgÃ¨ng":5881,"ĠyÃ¬ĠwÃ¨iĠ":5882,"lÃºnĠdÅ«n":5883,"bÄĽnĠdeĠ":5884,"wÄĽiĠhuÃ¬Ġ":5885,"ĠyÃ³uĠxÃ¬":5886,"Ġãģ":5887,"ĠrÃ©nĠgÅįngĠ":5888,"xuÃ©ĠxiÃło":5889,"shÇİnĠxÄ«Ġ":5890,"ĠzhÃ¬ĠyÃºĠ":5891,"liÃ¨ĠwÃ¨iĠ":5892,"ĠbÃ¹ĠmÃŃngĠ":5893,"tÅįngĠchÃ¡ng":5894,"mÇĶĠsÄ«Ġ":5895,"ĠmÃŃngĠchÃ¡oĠ":5896,"yÃ¹nĠxÃŃngĠ":5897,"cÃ©ngĠzÃłiĠ":5898,"ĠjiÄģoĠ":5899,"mÄĽiĠzhÅįuĠ":5900,"tiÄģnĠwÃ©nĠ":5901,"cÇİiĠyÃ²ng":5902,"ĠdÃ¬ĠsÃ¬Ġ":5903,"ĠfÃłnĠ":5904,"yÃ¡nĠjiÅ«ĠsuÇĴĠ":5905,"guÇİngĠfÃłnĠ":5906,"ÃłoĠsÄ«Ġ":5907,"Ã¡ngĠ":5908,"ĠxiÃłnĠlÃ¹Ġ":5909,"mÃ©ngĠgÇĶĠ":5910,"gÇİnĠrÇİnĠ":5911,"rÃ²uĠ":5912,"ĠshÃ¬ĠbÃ¹Ġ":5913,"yÇĲĠjÃŃĠ":5914,"ĠhÃ©ĠpÃŃngĠ":5915,"ĠĠĠtÄģ":5916,"huÃłĠshÃŃĠ":5917,"ĠshÇĲĠyÃ²ngĠ":5918,"zhÃłnĠhÃ²uĠ":5919,"jiÄģĠrÃ¹Ġ":5920,"ĠJ":5921,"nÃ¡nĠjÃŃĠ":5922,"shuÅįĠfÇİĠ":5923,"ĠrÃłng":5924,"xÄ«ĠzÃłiĠ":5925,"ĠjÃ¬nĠdeĠ":5926,"ĠrÃ¨nĠwÃ©i":5927,"ĠjÄ«ĠbÄĽnĠ":5928,"ĠfÃ¨iĠ":5929,"ĠjÃ¹ĠlÃŃĠ":5930,"tĠ":5931,"ĠdÃŃĠ":5932,"mÃ³ĠxÃŃngĠ":5933,"ĠcÄģnĠ":5934,"ĠĠĠT":5935,"guÃ²ĠchÃ©ngĠzhÅįngĠ":5936,"ĠdeĠdÃ¬ĠfÄģngĠ":5937,"ĠdeĠxÄ«nĠ":5938,"jÃ¬ĠshÃ¹Ġ":5939,"ĠdÃ¡Ġ":5940,"ĠjiÃłnĠyÃ¬Ġ":5941,"ĠtÄģĠyÇĶĠ":5942,"yÃ¹nĠshÅ«Ġ":5943,"gÃ²uĠmÇİi":5944,"ĠshÃ²u":5945,"wÃ¡nĠquÃ¡n":5946,"wÇĶĠshÃŃĠ":5947,"ĠkÃ¨ĠdeĠ":5948,"rÃ¨nĠwÃ©iĠshÃ¬Ġ":5949,"ĠchÃ©n":5950,"ĠzÃłiĠyÃ¬Ġ":5951,"ĠgÃ¨ĠdÃ¬Ġ":5952,"duÅįĠgÃ¨Ġ":5953,"bÃłnĠgÅįngĠshÃ¬Ġ":5954,"Ġ10ĠyuÃ¨Ġ":5955,"tÃ³ngĠyÄ«Ġ":5956,"wÃłiĠguÃ³Ġ":5957,"ĠzÇĴngĠrÃ©nĠkÇĴuĠ":5958,"xuÃ©ĠshÃ¬Ġ":5959,"shÃłngĠyÇĴuĠ":5960,"yuÃ¡nĠwÃ¨iĠ":5961,"jiÃłĠzhÃŃĠ":5962,"zhÇİoĠ":5963,"gÅįngĠzuÃ²Ġ":5964,"ĠzÃ¬ĠjÇĲĠ":5965,"nÃŃĠsÄ«Ġ":5966,"ĠzÃłiĠzhÅįngĠguÃ³Ġ":5967,"ĠÄģi":5968,"quÄģnĠ":5969,"ĠxÄ«ngĠ":5970,"andĠĠĠ":5971,"xuÃ©ĠxÃŃĠ":5972,"yÇİngĠhuÃłĠ":5973,"fÄĵiĠxÃŃngĠ":5974,"ĠjiÃ¨":5975,"xuÄģnĠchuÃ¡nĠ":5976,"mÃ²ĠxÄ«Ġ":5977,"ĠyÄ«ĠxiÄĵ":5978,"xuÇİnĠzÃ©":5979,"chÄĵngĠwÃ¨iĠ":5980,"xiÄģoĠxÄ«Ġ":5981,"ĠxiÃłnĠrÃ©nĠ":5982,"ĠdeĠguÄģnĠ":5983,"ĠchÇİngĠ":5984,"hÇİiĠjÅ«n":5985,"biÄģoĠzhÃ¬Ġ":5986,"ĠbÃ¹ĠmÃ©nĠ":5987,"ĠĠĠK":5988,"zhÃ¬ĠwÃ¨iĠ":5989,"qÇĲĠlÃ¡iĠ":5990,"ĠkÄĵ":5991,"yÃ³uĠxÃ¬":5992,"ĠĠĠH":5993,"huÃ¡nĠjÃ¬ng":5994,"mÃ¡Ġ":5995,"fÃ¹ĠzÃ©ĠguÇİnĠxiÃ¡Ġ":5996,"ĠwÃ©iĠzhÇĶĠ":5997,"ĠĠĠyÇĲĠ":5998,"gÃ²uĠchÃ©ngĠ":5999,"shÄ«ĠdeĠ":6000,"xÃ¬ĠbÄģoĠ":6001,"chÄĵĠliÃłngĠ":6002,"zhÃ©ĠxuÃ©Ġ":6003,"ĠÃłnĠ":6004,"kÄĵngĠ":6005,"ĠjÃ¬ĠhuÃł":6006,"ĠdÇİĠ":6007,"sÄ«ĠzÃłiĠ":6008,"ĠlÃŃn":6009,"zhÃ¨ngĠdeĠ":6010,"dÇİngĠdeĠ":6011,"ÄģnĠquÃ¡n":6012,"bÇĲĠdÃ©Ġ":6013,"ĠdÃłoĠlÃ¹Ġ":6014,"jiÃ¨ĠquÃ¡nĠguÃ³Ġ":6015,"chÃ¡oĠxiÄģnĠ":6016,"yÃŃnĠhÃ¡ng":6017,"ĠhuÄģĠ":6018,"ĠÃ¨r":6019,"ĠdÅįuĠ":6020,"xÄ«ĠdeĠ":6021,"ĠĠĠR":6022,"ĠshÃ¬ĠmÄĽiĠguÃ³Ġ":6023,"ĠshÃ¬ĠtÃºĠ":6024,"zhÅįngĠzÃłiĠ":6025,"ĠjÃ¬ĠniÃłnĠ":6026,"zhÇĶĠjuÃ©Ġ":6027,"ÃłnĠdeĠ":6028,"sÃ¬ĠchuÄģnĠ":6029,"bÃ¹ĠwÃ¨iĠ":6030,"ĠjÃŃĠqÃŃĠ":6031,"pÃ©ngĠyÇĴuĠ":6032,"1999ĠniÃ¡nĠ":6033,"chÃŃĠxÃ¹":6034,"ĠfÇİnĠ":6035,"ĠĠĠyÇĴuĠ":6036,"ÃłiĠÄĽrĠ":6037,"ĠgÅįngĠgÃ²ngĠ":6038,"ĠzhÄ«ĠchÃŃ":6039,"ĠĠĠhÃ©Ġ":6040,"kÃłngĠyÃ¬Ġ":6041,"yuÄĵĠwÃ¨iĠ":6042,"tÃłiĠguÃ³Ġ":6043,"ĠÃ©rĠqiÄĽ":6044,"jiÄĵĠwÃ¨iĠ":6045,"xuÇİnĠqÅ«Ġ":6046,"ĠtÃ¡iĠwÄģn":6047,"shÃŃĠzÃłiĠ":6048,"yÃ¬ĠhÃ©Ġ":6049,"huÃ¬ĠyÇĴuĠ":6050,"shÄĵngĠwÃ¹Ġ":6051,"xiÃłoĠzhÇİngĠ":6052,"wÃ©nĠjiÃłnĠ":6053,"ĠbÃ¨iĠÄĽrĠ":6054,"gÄĵĠqÇĶ":6055,"shÅįuĠrÃ¹Ġ":6056,"ĠjiÃ©ĠzhÃ¬Ġ":6057,"biÄģoĠwÃ¨iĠ":6058,"nĠ":6059,"fÃ³ĠjiÃłoĠ":6060,"rÃ³ngĠyÃ¬Ġ":6061,"ÃłoĠyÃ¹n":6062,"ĠĠĠshÃŃĠ":6063,"ĠĠĠchÄĵĠzhÃłnĠ":6064,"ĠshÄĵngĠwÃ¹Ġ":6065,"suÇĴĠshÇĶĠdeĠshÄĽngĠjÃŃĠxuÇİnĠqÅ«ĠwÃ¨iĠ":6066,"ĠqiÃ¡ngĠ":6067,"yÇİnĠdeĠ":6068,"biÄģnĠjÃŃĠ":6069,"qiÃłnĠ":6070,"ĠzhÃłnĠzhÄĵng":6071,"sÄ«ĠdÃ¬Ġ":6072,"yÄĽĠyÇĴuĠ":6073,"zhÃ¨ngĠcÃ¨Ġ":6074,"qiÃ¡nĠwÇİng":6075,"jÃ¬ĠzhÅįngĠ":6076,"mÇĲĠÄĽrĠ":6077,"yÇĶĠyÃ¡nĠ":6078,"ĠruÃ²":6079,"jÅ«nĠduÃ¬Ġ":6080,"jiÄĽĠfÃłngĠjÅ«nĠ":6081,"ÃłoĠyÃ¹nĠ":6082,"ĠyÃ²uĠchÄĵngĠ":6083,"tiÇİoĠzhÃłnĠ":6084,"ĠyuÃ¡nĠzhÃ¹Ġ":6085,"ĠchÅ«ĠleĠ":6086,"ĠzhÃ¬ĠdÃ¹Ġ":6087,"ĠyÃ¹":6088,"ĠĠĠin":6089,"24Ġ":6090,"ĠyÇİnĠ":6091,"gÄģoĠyÃºĠ":6092,"wÃºĠrÃ©nĠ":6093,"ĠshÃ¬ĠyÃŃĠgÃ¨":6094,"ĠhuÃ²ĠshÃ¬Ġ":6095,"ĠtÃŃĠ":6096,"gÇİnĠdÃłoĠ":6097,"nÃ¡nĠxÃ¬ngĠ":6098,"ĠyÇĲĠshÃłngĠ":6099,"mÃłnĠhuÃłĠ":6100,"ĠtÅįngĠguÃ²Ġ":6101,"gÇİiĠbiÃłnĠ":6102,"ĠĠĠ2021":6103,"mÇİĠlÃ¬Ġ":6104,"ĠdÃ¬ĠxiÃłĠ":6105,"ĠquÃ¨":6106,"fÃ³Ġ":6107,"jiÄĵĠrÇİngĠ":6108,"pÃ¨iĠhÃ©Ġ":6109,"ĠzÃ¬":6110,"kÅ«nĠ":6111,"tÃ³uĠrÃ¹Ġ":6112,"jiÄģĠrÃ©nĠ":6113,"wÄĽnĠdÃ¬ngĠ":6114,"1998ĠniÃ¡nĠ":6115,"zhÇĲĠhuÄ«":6116,"ĠzhÅįngĠyÇĴuĠ":6117,"ĠzÃłiĠbÃ¹Ġ":6118,"tÃŃĠmÃŃngĠ":6119,"dÃ¡ĠchÃ©ngĠ":6120,"ĠyÄ«ĠzhÇĴngĠ":6121,"rÇĶĠ":6122,"mÃ²ĠsÄ«Ġ":6123,"nÃ¨Ġ":6124,"fÄĵnĠzhÄ«Ġ":6125,"ĠĠĠE":6126,"zÃłiĠshÃ¬Ġ":6127,"tÃ³ngĠdeĠ":6128,"zhÄģĠ":6129,"jiÇİnĠjiÃ¨Ġ":6130,"ĠhÃ¹Ġ":6131,"shÄĵnĠfÃ¨n":6132,"tiÄģnĠzhÇĶĠjiÃłoĠ":6133,"ĠzhÅįngĠguÃ³ĠrÃ©nĠmÃŃnĠ":6134,"biÇİoĠmÃŃngĠ":6135,"duÃ³ĠdeĠ":6136,"tÃŃngĠzhÇĲĠ":6137,"ĠhÃ¡iĠyÇĴuĠ":6138,"ĠĠĠD":6139,"ĠÃ©rĠrÃ©nĠkÇĴuĠmÃ¬ĠdÃ¹ĠwÃ¨iĠmÄĽiĠpÃŃngĠfÄģngĠqiÄģnĠmÇĲĠ":6140,"ĠpÃŃng":6141,"xiÇİoĠdeĠ":6142,"zhÃ¨ngĠshÃŃĠ":6143,"cÃ¨ĠdeĠ":6144,"zÃłoĠdeĠ":6145,"ĠwÃ¨iĠfÃº":6146,"ĠzhuÄģnĠ":6147,"ĠlÃŃĠ":6148,"juÄģnĠ":6149,"quÃ¨ĠzhÄĽn":6150,"2024ĠniÃ¡nĠ":6151,"ĠĠĠ2020":6152,"ĠjÄ«ĠbÃłiĠ":6153,"bÃłnĠdÇİoĠ":6154,"ĠpÃŃĠ":6155,"ĠĠĠyuÃ¡nĠ":6156,"guÃ³ĠzÃłiĠ":6157,"wÇĶĠqÃ¬Ġ":6158,"tÄģĠmenĠ":6159,"ĠbÅį":6160,"ĠjiÄģĠnÃ¡ĠdÃłĠ":6161,"ĠpÃŃngĠfÄģngĠmÇĲĠ":6162,"zÃ¬ĠzhÃ¬ĠqÅ«Ġ":6163,"Ġ8ĠyuÃ¨Ġ":6164,"lÄģĠkÃ¨Ġ":6165,"lÃ¨iĠdeĠ":6166,"ĠĠĠzÃ¬Ġ":6167,"19Ġ":6168,"hÃ¹nĠhÃ©Ġ":6169,"ĠzÃ¬ĠyÃ³uĠ":6170,"ĠzÃłiĠmÄĽiĠguÃ³Ġ":6171,"ĠshÃŃĠyÃłn":6172,"zuÃ¬ĠzÇİo":6173,"ĠbiÄģnĠ":6174,"jÇĶĠrÃ©nĠ":6175,"tuÃ¡nĠduÃ¬Ġ":6176,"dÃ¬ĠshÃ¬Ġ":6177,"kÄĽĠnÃ©ngĠhuÃ¬Ġ":6178,"yÄģĠlÃ¬Ġ":6179,"quÃ¡nĠbÃ¹Ġ":6180,"ĠsÅ«":6181,"jÃ¬ĠwÃ¨iĠ":6182,"ĠÃ©rĠbÃ¨iĠ":6183,"ĠjÃ¬ĠchÃ©ngĠ":6184,"gÃ²ngĠxiÃłnĠ":6185,"jÃ¬ĠhuÃłĠ":6186,"xÄ«ĠbÄģnĠyÃ¡Ġ":6187,"ĠshÃŃĠshÄ«Ġ":6188,"jiÃ©ĠmÃ¹":6189,"ĠjiÃ©ĠguÇĴĠ":6190,"ĠdÃ¬ĠtiÄĽĠ":6191,"XĠ":6192,"shÄĵngĠchÇİn":6193,"lÃ¡iĠshuÅįĠ":6194,"lÃ¬ĠbÃ¹Ġ":6195,"zhÃ¨ĠzhÇĴngĠ":6196,"chÇİnĠyÃ¨Ġ":6197,"ĠbÃ¨i":6198,"ĠwÃ¡ng":6199,"xÃŃngĠdÃ²ngĠ":6200,"fÄģnĠyÃ¬Ġ":6201,"ĠhÃ¡i":6202,"ĠqÄ«ĠjiÄģnĠ":6203,"ĠchÅ«ĠrÃ¨nĠ":6204,"ĠchuÃ¡nĠ":6205,"shÇİoĠshÃ¹Ġ":6206,"cÄģoĠzuÃ²Ġ":6207,"jiÇİnĠchÃ¡Ġ":6208,"bÃłnĠshÃ¬Ġ":6209,"jiÄģĠnÃ¡ĠdÃłĠ":6210,"yÇĲngĠpiÃłnĠ":6211,"chÅįngĠtÅ«Ġ":6212,"ĠzÃłiĠdÃłĠ":6213,"ĠtÄģĠyÃºĠ":6214,"jÃ¬ĠniÃłnĠ":6215,"bÇİoĠhÃ¹":6216,"ĠmÃ©nĠ":6217,"ÃłnĠjiÃłnĠ":6218,"chÃ³ngĠjiÃłnĠ":6219,"shÇĴuĠdeĠ":6220,"ampĠ":6221,"ĠmÃ¹":6222,"ĠjiÃłnĠzhÃ¹":6223,"ĠshÃŃĠfÄĵnĠ":6224,"yĠ":6225,"ĠÄģn":6226,"ĠshÃ¬ĠyÇĲĠ":6227,"xÃŃngĠwÃ©iĠ":6228,"xÄ«nĠlÇĲĠ":6229,"cÃ©ngĠjÄ«ngĠ":6230,"gÃ²ngĠtÃ³ng":6231,"ĠshÇĲĠdeĠ":6232,"dÃ²ngĠdeĠ":6233,"kÅįngĠjÅ«nĠ":6234,"bÃłnĠgÅįngĠ":6235,"ĠzhÇĲĠyÇĴuĠ":6236,"ĠxiÃłnĠwÃ¨iĠ":6237,"qÄ«ĠjiÄģn":6238,"dÃłĠbÃ¹ĠfÃ¨nĠ":6239,"ĠzhÃ¬ĠzuÃ²":6240,"jiÃ©ĠgÃ²u":6241,"nÃłnĠ":6242,"ĠyÃ¬ĠyÇĴuĠ":6243,"ĠlÃ¬ĠrÃº":6244,"liÃ¡nĠsÃłi":6245,"liÃ¡nĠxÃ¹Ġ":6246,"juÃ©ĠsÃ¨":6247,"jÃŃĠzÃłiĠ":6248,"shÄĵnĠdeĠ":6249,"yÄģngĠ":6250,"ĠhÃ©ĠbÄĽiĠ":6251,"ĠwÃ¨iĠnÃ©ngĠ":6252,"mÃ©iĠtÇĲ":6253,"zhÇĶĠtÃŃĠ":6254,"xiÄģngĠduÃ¬Ġ":6255,"fÄĵnĠbiÃ©Ġ":6256,"jiÇİnĠshÇİoĠ":6257,"ĠhÃ©ĠliÃºĠ":6258,"gÅįngĠyuÃ¡nĠ":6259,"tÃ²uĠ":6260,"tÃ²ngĠ":6261,"ĠyÃ²uĠmÃŃngĠ":6262,"ĠyÇĲĠsÃ¨Ġ":6263,"fÃ¨nĠzÇĲĠ":6264,"xiÃłnĠdÃłiĠ":6265,"ĠshÃ¬ĠyÄ«ĠmÃŃngĠ":6266,"xiÇİoĠzÇĶĠ":6267,"ĠtÇĲĠzhÇİngĠ":6268,"ĠĠĠ2019":6269,"ĠxÄ«ĠwÃłngĠ":6270,"yÃ¬ngĠdeĠ":6271,"wÄĽiĠyuÃ¡nĠhuÃ¬":6272,"zhÃ¨Ġge":6273,"ĠĠĠL":6274,"mÃ¬ngĠmÃŃngĠwÃ¨iĠ":6275,"ÅįuĠyuÃ¡nĠ":6276,"ĠgÅįngĠsÄ«ĠdeĠ":6277,"ĠliÇİngĠrÃ©nĠ":6278,"yÃ¬ĠzÃłiĠ":6279,"dÃ²ngĠjÄ«Ġ":6280,"dÇİĠjÄ«Ġ":6281,"ĠdeĠdÃ¬ĠqÅ«Ġ":6282,"zhÇİnĠshÃ¬Ġ":6283,"zhuÃ³Ġ":6284,"ĠzhÃŃĠzhÃ¬Ġ":6285,"ĠshÃ¨ĠqÅ«Ġ":6286,"ĠjÃ¬ĠxÃ¹":6287,"guÄ«ĠmÃ³":6288,"shÇĴuĠwÃ¨iĠ":6289,"xÃºnĠhuÃŃĠ":6290,"ĠsÄ«ĠlÃ¬ng":6291,"shÃ¹ĠliÃłngĠ":6292,"xiÃłĠwÇĶĠ":6293,"1996ĠniÃ¡nĠ":6294,"lÃ¹ĠdÃ¬ĠmiÃłnĠjÄ«ĠwÃ¨iĠ":6295,"yÃ²ngĠlÃ¡iĠ":6296,"shuÇĲĠyÃ¹ĠmiÃłnĠjÄ«ĠwÃ¨iĠ":6297,"ĠzhÃ¨nĠ":6298,"ĠlÃ¬ĠjÃŃĠ":6299,"qÇĲĠyÃ²ngĠ":6300,"lÃ¨iĠxÃŃngĠ":6301,"rÃ¨nĠwÃ¹Ġ":6302,"dĠ":6303,"ĠguÃ³ĠlÃ¬Ġ":6304,"ĠshÃŃĠzÃ¬Ġ":6305,"ĠyÄ«ĠcÃ¬Ġ":6306,"duÅįĠcÃ¬Ġ":6307,"pÃŃngĠjiÃłĠ":6308,"bÃ¹ĠshÃ¬Ġ":6309,"ĠlÃŃngĠ":6310,"ĠliÃ¨Ġ":6311,"Ġ2009ĠniÃ¡nĠ":6312,"ĠĠĠ2018":6313,"ĠdeĠshÇĴuĠ":6314,"ĠfÃ¹ĠjÃ¬nĠ":6315,"jÇĶĠxÃŃngĠdeĠ":6316,"fÃºĠhÃ©Ġ":6317,"ĠW":6318,"tÇĲĠxÃ¬Ġ":6319,"ĠwÇİngĠ":6320,"wÃłiĠjiÄģoĠ":6321,"ĠzhÃ¨ĠjiÄģngĠ":6322,"ĠbiÃłn":6323,"1997ĠniÃ¡nĠ":6324,"ĠdÃłĠshÇĲĠ":6325,"ĠxiÃłoĠ":6326,"zuÃ²ĠjiÄģĠ":6327,"ĠshÃ¨ĠbÃ¨iĠ":6328,"liÇİngĠgÃ¨":6329,"mÄĽiĠniÃ¡nĠ":6330,"ĠlÃ¬ĠfÇİĠ":6331,"zhÃ¹ĠyÃ¬Ġ":6332,"ĠampĠ":6333,"diÃłnĠlÃ¬Ġ":6334,"dÃ©ĠdÃłoĠ":6335,"ĠsÄ«ĠlÃ¬ngĠ":6336,"ĠcÃ³ngĠÃ©rĠ":6337,"fÇİĠlÇľ":6338,"ĠguÇİngĠ":6339,"kuÃŃĠ":6340,"jiÃłoĠtÃ¡ngĠ":6341,"ĠdÄģngĠzhÅįngĠlÃ¹ĠdÃ¬ĠmiÃłnĠjÄ«ĠwÃ¨iĠ":6342,"zhÃ¬ĠhÃ©Ġ":6343,"ĠÃ©rĠshuÇĲĠyÃ¹ĠmiÃłnĠjÄ«ĠwÃ¨iĠ":6344,"qÇĶĠxiÄģoĠ":6345,"jiÃ©ĠzhÃ¬Ġ":6346,"shÄĵngĠhuÃ³":6347,"fÃºĠwÃ¹":6348,"zhÃŃĠdeĠ":6349,"lÃºnĠdÅ«nĠ":6350,"TĠ":6351,"ĠĠĠxÄ«Ġ":6352,"diÄģnĠ":6353,"xuÃ©ĠzhÄĽĠ":6354,"ĠĠĠ2022":6355,"Ġ11":6356,"shuÇĲĠpÃŃngĠ":6357,"hÇİiĠyÃ¹Ġ":6358,"nÃ¨iĠrÃ³ng":6359,"ĠzhÄ«ĠshÃŃĠ":6360,"zhÃ¹ĠzuÃ²Ġ":6361,"Ġ9ĠyuÃ¨Ġ":6362,"yÄ«ngĠgÃ©ĠlÃ¡nĠ":6363,"ĠdÃłĠchÃ©nĠ":6364,"ĠchÃ©ngĠlÃ¬ĠyÃºĠ":6365,"ĠĠĠgÃłiĠ":6366,"lÇļĠkÃ¨Ġ":6367,"tuÃ²Ġ":6368,"zhÃ¬ĠzÃłiĠ":6369,"jiÄĵĠjÃ¬nĠ":6370,"ĠxÄ«nĠwÃ©nĠ":6371,"chÃ¡ngĠqÄ«Ġ":6372,"iĠ":6373,"ĠwÃ©iĠÄĽrĠ":6374,"lÃ¬ngĠwÃłiĠ":6375,"ĠĠĠxÃŃngĠzhÃ¨ngĠqÅ«ĠhuÃłĠ":6376,"rÃ¨nĠmÃ¬ng":6377,"ĠjiÄģĠshÃłngĠ":6378,"eĠ":6379,"yuÃłnĠzhÇİngĠ":6380,"bÇĲĠsÃłiĠzhÅįngĠ":6381,"jÇĲĠyÇĶĠ":6382,"diÇİnĠdeĠ":6383,"xÄ«ĠyÃ¡ngĠ":6384,"ĠyÇĲĠhÃ²uĠ":6385,"ĠjÅ«nĠwÃ¨iĠ":6386,"mÃŃnĠdeĠ":6387,"shuÃ²ĠshÃ¬Ġ":6388,"ĠhuÃŃĠ":6389,"ĠdÃ©ĠdeĠ":6390,"wÄĵiĠliÃ¡nĠ":6391,"wÄĽiĠshÅ«ĠjÃ¬Ġ":6392,"ĠyÃ¬ĠrÃ©nĠ":6393,"jiÄģĠhÃ©Ġ":6394,"tÃłiĠyÃ¡ngĠ":6395,"1992ĠniÃ¡nĠ":6396,"ĠzhÅįngĠdeĠ":6397,"dÇİoĠyÇĶĠ":6398,"pÄ«ĠzhÇĶnĠ":6399,"dÃłiĠyÇĴuĠ":6400,"hÄĵngĠlÃ¬Ġ":6401,"ĠguÄ«Ġ":6402,"ĠshÃ¬ĠyÄ«ĠwÃ¨iĠ":6403,"ĠxuÃ©ĠxiÃło":6404,"ĠwÃ¨iĠfÃºĠqÃŃĠyÃºĠ":6405,"Ġ7ĠyuÃ¨Ġ":6406,"guÅįĠ":6407,"gÄģoĠsÃ¹":6408,"cÄģnĠyÃ¹":6409,"cÃ¬ĠshÃ¬ĠjiÃ¨ĠdÃłĠzhÃłnĠ":6410,"ĠshÃ¬ĠqÅ«Ġ":6411,"fÄģĠchÅ«Ġ":6412,"xÃ¬ngĠzhÃ¬Ġ":6413,"yÇİnĠchÃłngĠhuÃ¬Ġ":6414,"quÃłnĠ":6415,"ĠyuÃ¡nĠyÄ«nĠ":6416,"ĠĠĠyÃ¬Ġ":6417,"tÇİoĠlÃ¹nĠ":6418,"ĠformulaĠ":6419,"tuÃ¬ĠyÃ¬Ġ":6420,"bÇĲĠyÃłĠ":6421,"fÄĵngĠbÃłoĠ":6422,"PĠ":6423,"ĠmÃ©ngĠ":6424,"ĠtuÅįĠ":6425,"jÄ«ĠzhÃ¬Ġ":6426,"xÃ¬nĠhÃłoĠ":6427,"yÃłĠdeĠ":6428,"nÃ©ngĠgÃ²u":6429,"shÃ²uĠshÄģngĠ":6430,"ĠjiÃłnĠchÃ©ngĠ":6431,"ĠcÃŃĠ":6432,"ĠĠĠ2017":6433,"wÃ¨iĠzhÃ¬Ġ":6434,"liÃ¡nĠxÃ¬Ġ":6435,"ĠrÃºĠguÇĴ":6436,"ĠhuÇĴĠ":6437,"rÃºĠhÃ©Ġ":6438,"bÃ¬ĠxÅ«":6439,"ĠtÇĲĠzhÇİngĠkÄĽĠdÃ¡Ġ":6440,"ĠÄĽrĠtÃ¨Ġ":6441,"bÇİoĠchÃŃĠ":6442,"zhuÄģnĠjiÄģĠ":6443,"fÅ«ĠrÃ©nĠ":6444,"jiÇİngĠxiÃłngĠ":6445,"chÄģĠyÃ¬Ġ":6446,"ĠjÄ«ngĠguÃ²Ġ":6447,"ĠxuÄģnĠbÃ¹Ġ":6448,"ĠjÄ«ĠgÃ²u":6449,"ĠzÃłiĠyÃºĠ":6450,"ĠdeĠyÄ«ĠzuÃ²Ġ":6451,"ĠtÅįngĠchÃ¡ngĠ":6452,"shÃ²uĠyÇĶĠ":6453,"wÅįĠ":6454,"ĠgÇİi":6455,"Ġ2010ĠniÃ¡nĠ":6456,"wÇİngĠlÃ¹Ġ":6457,"jÄ«ngĠyÃŃngĠ":6458,"Ġ12ĠyuÃ¨Ġ":6459,"ĠmÃŃnĠguÃ³Ġ":6460,"gÃ²ngĠchÇİnĠdÇİng":6461,"Ġ21Ġ":6462,"dÅįngĠxÄ«Ġ":6463,"ĠkÃ¨ĠlÇĲĠ":6464,"ĠshÄĵngĠchÇİnĠ":6465,"ĠbÃ¹ĠlÇĲĠ":6466,"diÃłnĠtÃ¡iĠ":6467,"tÄģnĠ":6468,"ĠyÇĲĠxiÃł":6469,"cÅ«nĠzhuÄģngĠ":6470,"Ġ11ĠyuÃ¨Ġ":6471,"lÃ¡iĠdÃłoĠ":6472,"suÃŃĠhÃ²uĠ":6473,"miÇİoĠ":6474,"kÃłoĠ":6475,"ĠzhÄ«ĠzhÅįngĠ":6476,"ĠzhÅ«":6477,"bÃ¬ĠyÃ¨ĠyÃºĠ":6478,"xÃ¹nĠliÃłn":6479,"cuÃ²ĠshÄ«Ġ":6480,"fÇİĠdeĠ":6481,"ĠyÃ¬ĠshÃ¹":6482,"zÇĴngĠdÅ«Ġ":6483,"ĠchÃ¡ng":6484,"zhÃ¹ĠmÃŃngĠdeĠ":6485,"ĠshÃ¬ĠyÇĴuĠ":6486,"ĠjiÃłnĠduÃ¬Ġ":6487,"kuÃłiĠsÃ¹Ġ":6488,"zhÃ¹ĠyÃºĠ":6489,"shÃ©Ġ":6490,"1994ĠniÃ¡nĠ":6491,"ĠshÃŃĠrÃ¨nĠ":6492,"ĠyÄ«ĠshÄĵngĠ":6493,"gÅ«ĠjÃ¬Ġ":6494,"hÃ¡iĠziĠ":6495,"ĠrÃłngĠ":6496,"ĠÄĽrĠhÃ©Ġ":6497,"tÃłiĠpÃŃngĠyÃ¡ngĠ":6498,"ĠjiÃ©ĠmÃ¹Ġ":6499,"ĠĠĠ2016":6500,"yÃ¡nĠgÃ©Ġ":6501,"tÃ³ngĠyÃ¬Ġ":6502,"shÄĵngĠwÃ¨iĠ":6503,"ĠfÄģngĠ":6504,"dÇİoĠshÃ¬Ġ":6505,"chÃ©ngĠgÅįngĠ":6506,"xÃ¬ĠliÃ¨":6507,"leĠdÃłĠ":6508,"Ġtw":6509,"lÃłngĠ":6510,"oĠ":6511,"fÄģĠdiÃłnĠ":6512,"ĠshÃłngĠhÇİi":6513,"zhÃłnĠzhÅįngĠ":6514,"ĠdeĠqiÃ¡nĠ":6515,"ĠrÃ©nĠlÃ¨iĠ":6516,"sÃ¬ĠgÃ¨Ġ":6517,"shÇİngĠ":6518,"jiÃ©ĠshÃ¹ĠhÃ²uĠ":6519,"ĠdÃ©ĠyÇĲĠ":6520,"pÇĶĠtÅįngĠ":6521,"ĠdeĠshÃŃĠqÅ«ĠwÃ¨iĠ":6522,"ĠxiÇİng":6523,"ĠzhÃ¨ngĠcÃ¨Ġ":6524,"ĠshÃ¨ng":6525,"ĠmÃŃngĠchÄĵngĠ":6526,"chÃ¨ĠxiÄģoĠ":6527,"yÇĶĠzhÅįngĠ":6528,"ĠyÃ¬nĠdÃ¹Ġ":6529,"ĠĠĠzhÃ¬Ġ":6530,"ĠyÃ¡ng":6531,"ĠhÃ¡oĠmÇĲĠ":6532,"tÃ³uĠpiÃłoĠ":6533,"dÇĲĠdÃ¡Ġ":6534,"fÄģĠdeĠ":6535,"ĠjÇĲnĠguÇİn":6536,"jÃºĠzhÇİngĠ":6537,"ĠdeĠshÃŃĠjiÄģnĠ":6538,"ĠĠĠandĠĠĠ":6539,"ĠqÄ«":6540,"1995ĠniÃ¡nĠ":6541,"zhÃ¨ĠxiÄĵ":6542,"gÃ¨ngĠjiÄģĠ":6543,"ĠwÃ¨iĠshÄĵngĠ":6544,"yuÃ¨ĠtÃ¡iĠ":6545,"ĠpÃŃngĠtÃ¡iĠ":6546,"fÇİnĠhuÃŃĠ":6547,"ĠqiÃ¡n":6548,"guÇİngĠxÄ«Ġ":6549,"zhÃ¡iĠ":6550,"fÄĽiĠ":6551,"hansĠ":6552,"kuÃ²ĠdÃłĠ":6553,"hÄģĠÄĽrĠ":6554,"zÇĶĠchÃ©ngĠdeĠ":6555,"ĠhansĠ":6556,"yÃ¬ĠzhÅįngĠ":6557,"dÄĵngĠlÃ¹Ġ":6558,"rÃ³ngĠyÃ¹Ġ":6559,"ĠtwĠ":6560,"ĠchÄĵng":6561,"yuÃ¨ĠshÃŃĠ":6562,"zhÃ²ngĠdÃłĠ":6563,"lÃ¹ĠyÃ¬Ġ":6564,"ĠsÃłĠ":6565,"ĠshÃ¬ĠyÇİnĠ":6566,"quÃ¨ĠdÃ¬ngĠ":6567,"zhÇĲĠzÃłiĠ":6568,"yÃ¨ĠhÃ²uĠ":6569,"ĠbÃ¹ĠkÄĽĠ":6570,"ĠTheĠĠĠ":6571,"ĠbÃ¬ngĠmÃ©iĠyÇĴuĠ":6572,"ĠcÇĲĠshÃŃĠ":6573,"ĠĠĠdeĠshÃŃĠ":6574,"ĠchuÃłngĠ":6575,"ĠÄģĠÄĽrĠ":6576,"jÃ¬nĠxÃŃng":6577,"ĠlÇľĠ":6578,"ĠxiÃł":6579,"ĠmÃ¹ĠqiÃ¡n":6580,"ĠĠĠ2023":6581,"wÇİnĠshÃłngĠ":6582,"jiÃłoĠqÅ«Ġ":6583,"qÃ¬ĠchÄĵĠ":6584,"mÃŃngĠchÄĵngĠ":6585,"yÃłĠlÃ¬ĠshÄģn":6586,"wÃ¹ĠzhÇĴng":6587,"guÄģnĠzhÃ²ngĠ":6588,"ĠxuÃ©ĠxÃŃĠ":6589,"gÇİiĠbiÄģn":6590,"onĠ":6591,"ĠguÃ³ĠwÃ¹Ġ":6592,"ĠzhÄ«ĠyuÃ¡nĠ":6593,"yuÃłnĠdeĠ":6594,"xiÄģoĠshÃ²uĠ":6595,"ĠgÅįngĠyÃ¨":6596,"bÄģĠxÄ«Ġ":6597,"ĠhuÃ²ĠzhÄĽĠ":6598,"ĠĠĠ2014":6599,"rÃ¹ĠkÇĴuĠ":6600,"xiÄģngĠtÃ³ngĠ":6601,"bÄģĠlÃŃĠ":6602,"FĠ":6603,"bÇİnĠdeĠ":6604,"pÃ²ĠhuÃłiĠ":6605,"xuÃ©ĠhÃ©Ġ":6606,"sÇĶnĠshÄ«Ġ":6607,"biÇİoĠxiÃłn":6608,"ĠshÃŃĠxiÃłnĠ":6609,"xÄ«ĠlÃł":6610,"fÄģĠxiÃłnĠleĠ":6611,"kÃłnĠdÃłoĠ":6612,"pÄģnĠ":6613,"qÄ«ĠzÇĲĠ":6614,"guÄģnĠzhÃ¹Ġ":6615,"ĠcÃ©ngĠrÃ¨nĠ":6616,"ĠzhÇĴngĠ":6617,"nÇİiĠ":6618,"SĠ":6619,"xĠ":6620,"ĠbÃ¬ngĠyÇĲĠ":6621,"qiÇİngĠ":6622,"xiÅįngĠyÃ¡":6623,"Ġ6ĠyuÃ¨Ġ":6624,"ĠĠĠsuÇĴĠshÇĶĠdeĠshÄĽngĠjÃŃĠxuÇİnĠqÅ«ĠwÃ¨iĠ":6625,"ĠĠĠdeĠyÃ³uĠzhÃ¨ngĠbiÄģnĠmÇİĠwÃ¨iĠ":6626,"ĠĠĠyÇĶĠjiÄĵĠrÇİngĠdeĠshÃ¬ĠzhÃ¨nĠ":6627,"ĠĠĠyÃºĠshÃŃĠdeĠrÃ©nĠkÇĴuĠshÃ¹ĠliÃłngĠwÃ¨iĠrÃ©nĠ":6628,"ĠĠĠdeĠshÃŃĠqÅ«ĠwÃ¨iĠ":6629,"ĠĠĠjÄ«Ġ":6630,"zhuÄģngĠzhÃ¬Ġ":6631,"zhÃŃĠwÃ¨iĠ":6632,"Ġ2011":6633,"jÃ¬ĠhÃ©Ġ":6634,"ĠzuÃ²ĠyÃ²ngĠ":6635,"ĠquÃ¡nĠzhÇİngĠ":6636,"tÃºĠzhÅįngĠ":6637,"sÅ«ĠliÃ¡n":6638,"kÄģiĠfÃłng":6639,"xÅ«ĠqiÃºĠ":6640,"ĠzhÄ«ĠmÃŃngĠ":6641,"lÃŃnĠdeĠ":6642,"ĠsÄ«ĠlÄģĠ":6643,"shÃŃĠwÃ¨iĠ":6644,"ĠniÃ¡nĠqÄ«ng":6645,"hÃ©ngĠxÄ«ngĠ":6646,"ĠquÃ¡nĠbÃ¹Ġ":6647,"tuÄ«ĠdÃ²ngĠ":6648,"wÃ©iĠdeĠ":6649,"ĠshÃ¬ĠzhÇİngĠ":6650,"guÇİnĠlÇĲ":6651,"Ġ2019":6652,"cÃ¡nĠ":6653,"rÃ¹ĠqÄ«nĠ":6654,"rÃºĠcÇĲĠ":6655,"Ġhk":6656,"ĠtiÄģn":6657,"ĠjiÄģĠtÃŃngĠ":6658,"tÃ¡iĠbÄĽiĠ":6659,"yÃŃĠdÃ²ngĠ":6660,"ĠzhuÇİnĠ":6661,"yÇĶĠhÃ©Ġ":6662,"fÃ¹ĠdeĠ":6663,"ĠyÄ«ĠdÃłiĠ":6664,"jÃ¬nĠshÃ¬Ġ":6665,"ĠchÅ«ĠxiÃłnĠzÃłiĠ":6666,"zhÃ¨ĠjiÄģngĠ":6667,"ĠĠĠ2015":6668,"mÇĶĠqÄ«nĠ":6669,"xiÅįngĠyÃ¡ĠlÃ¬Ġ":6670,"mÃ¹ĠsÄ«Ġ":6671,"1991ĠniÃ¡nĠ":6672,"ĠrÃ©nĠshÃ¹Ġ":6673,"fÃ¹ĠqÄ«nĠ":6674,"ĠdÃłnĠtÄģĠ":6675,"ĠxÄ«ĠbÄģnĠyÃ¡":6676,"mÃŃnĠzÃº":6677,"ĠgÄģnĠ":6678,"tÃ¡iĠdeĠ":6679,"ĠdÃ¬ĠqiÃºĠ":6680,"ĠduÃłnĠ":6681,"ĠmiÃłnĠ":6682,"ĠshÃ¬ĠzhÇĲĠ":6683,"ĠjÇĲn":6684,"zuÃ¬ĠchÅ«Ġ":6685,"tÃŃĠshÄĵngĠ":6686,"fÄĵiĠjiÃłnĠzhÃ¬Ġ":6687,"ĠchÄĵĠzhÃłnĠ":6688,"ĠV":6689,"ĠĠĠ2013":6690,"Ġ5ĠyuÃ¨Ġ":6691,"xÃ¹nĠsÃ¹Ġ":6692,"ĠhkĠ":6693,"ĠsÄ«ĠtÇİnĠ":6694,"shÃ¹ĠxuÃ©Ġ":6695,"22Ġ":6696,"guÇİngĠbÅį":6697,"ĠwÃ¨iĠhÃ©Ġ":6698,"ĠbÃ¬ngĠlÃ¬Ġ":6699,"ĠchÃ©ngĠwÃ©iĠleĠ":6700,"CĠ":6701,"niÇĶĠyuÄĵĠ":6702,"ĠjÄ«ng":6703,"fÄģĠxÃŃng":6704,"ĠjÃ¬nĠrÃ¹":6705,"tÃ¨ĠlÇĲĠ":6706,"kÃłngĠrÃ¬Ġ":6707,"ĠhÃ©ĠxÄ«nĠ":6708,"ĠgÃ¨ĠzhÇĴngĠ":6709,"ĠjÃŃĠqÃŃ":6710,"fÄģĠshÄĵng":6711,"zÇĴngĠbÃ¹Ġ":6712,"shÅįuĠlÃ¹Ġ":6713,"gÇİoĠ":6714,"ĠshÃ¬ĠrÃ©nĠ":6715,"rĠ":6716,"jiÃłoĠdeĠ":6717,"lÃ¡nĠkÃ¨Ġ":6718,"mÃ¡ngĠ":6719,"cÃ¡iĠzhÃ¨ngĠ":6720,"chÃłngĠpiÃłnĠ":6721,"ĠzuÃ²ĠpÇĲn":6722,"ĠĠĠniÃ¡nĠ":6723,"mÃŃngĠyÃ¬Ġ":6724,"onĠĠĠ":6725,"sÃłĠkÃ¨Ġ":6726,"ĠjÃ¬ĠzÇİiĠ":6727,"ĠzhÅįngĠwÃ©nĠ":6728,"juÃ©ĠsÃłi":6729,"jÃ¬nĠgÅįngĠ":6730,"ĠshÃ¬ĠjÃŃĠ":6731,"qÇĲĠyÃ¬Ġ":6732,"cÄģnĠyÃ¬Ġ":6733,"15Ġ":6734,"ĠzÃłoĠchÃ©ngĠ":6735,"zhuÃłngĠkuÃłngĠ":6736,"ĠxiÃłnĠyÃºĠ":6737,"lÇľĠwÃ¨iĠ":6738,"ĠĠĠzhÅįngĠguÃ³Ġ":6739,"leĠtÄģĠ":6740,"cÄģnĠkÇİoĠ":6741,"zÄĵngĠzhÇİngĠ":6742,"gÄģoĠdÃ¹Ġ":6743,"chÇİnĠpÇĲn":6744,"fÄĵiĠjiÃłnĠzhÃ¬ĠdÃ¬ĠqÅ«Ġ":6745,"ĠhuÃ¡ng":6746,"dÅįuĠhuÃ¬Ġ":6747,"ĠhÃ©ĠbÃ¬ngĠ":6748,"ĠjÃ¬ĠsuÃłn":6749,"ĠshÄĵngĠhuÃ³":6750,"wÃ¡ngĠdeĠ":6751,"suÄ«ĠrÃ¡nĠ":6752,"diÃłoĠchÃ¡":6753,"ĠÃ©ĠluÃ³ĠsÄ«Ġ":6754,"zhÃ²ngĠdiÇİnĠ":6755,"ĠdÇİoĠ":6756,"zhÃłnĠdÃ²uĠ":6757,"chÄģiĠ":6758,"ĠdÃłĠlÃ³uĠ":6759,"ĠĠĠW":6760,"hÇİiĠdÃłoĠ":6761,"chÃłngĠpiÃłn":6762,"ĠrÃ©nĠmenĠ":6763,"ĠfÃ¡ngĠ":6764,"ĠĠĠO":6765,"wÄĵiĠxiÃ©Ġ":6766,"ĠhÃ²u":6767,"ÃłoĠdÃ¬ĠlÃ¬Ġ":6768,"ĠhÃ©ĠzhÅįngĠ":6769,"shÃłngĠshÅ«Ġ":6770,"ĠwÃ©iĠqÃŃĠ":6771,"kÇİnĠ":6772,"lÇĲngĠdÇİoĠrÃ©nĠ":6773,"ĠxiÄģngĠguÄģnĠ":6774,"jÄ«ngĠshÃ©nĠ":6775,"jiÄģĠzhÅįngĠ":6776,"ĠyÄ«nĠÃ©rĠ":6777,"yuÃ¨ĠzÃłiĠ":6778,"liÇİngĠrÃ©nĠ":6779,"ĠniÃ¡nĠshÃŃĠ":6780,"kĠ":6781,"ĠbÃ¹ĠduÃłnĠ":6782,"cÄģnĠjiÄģĠleĠ":6783,"yÃŃngĠyÃ¹nĠ":6784,"huÃłĠwÃ¨iĠ":6785,"jiÄģngĠxÄ«Ġ":6786,"ĠdeĠchÃ©ngĠyuÃ¡nĠ":6787,"jiÃ©ĠkÃ¨Ġ":6788,"tÃºĠshÅ«ĠguÇİnĠ":6789,"ĠhÃ©ĠchÃ©ngĠ":6790,"zhÇĶĠchÃŃĠ":6791,"ĠzhÅįngĠguÃ³ĠgÃ²ngĠchÇİnĠdÇİngĠ":6792,"jÃ¹ĠdeĠ":6793,"nÃłĠlÇĲĠ":6794,"Ġ4ĠyuÃ¨Ġ":6795,"ĠyÇĴuĠshÃŃĠ":6796,"zhÃłnĠdÃ²u":6797,"ĠhuÃ¡":6798,"jÃ¬nĠrÃ¹":6799,"mÇĴuĠxiÄĵĠ":6800,"ĠxiÇİo":6801,"shÄĵnĠwÃ¨iĠ":6802,"jÅ«ĠzhÃ¹Ġ":6803,"zÃ¬ĠdÃ²ngĠ":6804,"xiÃłĠjÃ¬ĠÃłoĠlÃŃnĠpÇĲĠkÃ¨ĠyÃ¹nĠdÃ²ngĠhuÃ¬Ġ":6805,"yÄ«nĠshÃ¬Ġ":6806,"mÃŃnĠzhÃ²ngĠ":6807,"25Ġ":6808,"1988ĠniÃ¡nĠ":6809,"ĠxiÃłngĠmÃ¹Ġ":6810,"chÇİnĠshÄĵngĠdeĠ":6811,"ĠzuÇĴĠ":6812,"ĠĠĠzhĠ":6813,"ĠzÃłiĠjiÄģĠ":6814,"ĠqiÃ¡oĠ":6815,"shuÅįĠmÃŃngĠ":6816,"ĠwÄĽiĠ":6817,"ĠzhÃ¨ngĠzhuÃłngĠ":6818,"yÇĲnĠfÄģĠ":6819,"jiÄģngĠsÅ«Ġ":6820,"dÄģoĠ":6821,"ĠhuÃ²ĠdÃ©ĠleĠ":6822,"ĠzhÄ«ĠxiÃłĠ":6823,"ĠshÃ¬ĠwÄĵiĠ":6824,"xiÇİoĠshuÅį":6825,"ĠxÇĶĠduÅįĠ":6826,"ĠĠĠjiÄģĠzÃºĠ":6827,"toĠĠĠ":6828,"ĠshÃ¬ĠzhÃ¨n":6829,"ĠgÅįngĠrÃ©nĠ":6830,"ĠxuÇİnĠ":6831,"dÃ¬ngĠleĠ":6832,"yÅįuĠshÃ¬Ġ":6833,"bÃ¡Ġ":6834,"lÃ¡nĠqiÃºĠ":6835,"1993ĠniÃ¡nĠ":6836,"ĠdÃłĠduÅįĠ":6837,"zhÅįuĠdeĠ":6838,"ĠbiÄģn":6839,"jÃ¬ĠshÃŃĠ":6840,"xiÇİnĠdeĠ":6841,"zÄ«ĠxÃ¹nĠ":6842,"ÃłoĠyÃ¹nĠhuÃ¬Ġ":6843,"sÃ¹ĠdeĠ":6844,"ĠdÃłĠxÃŃngĠ":6845,"ĠwÃ©n":6846,"Ġ2018":6847,"ĠdÃºĠ":6848,"wÃ¨iĠĠĠ":6849,"ĠyuÃ¨ĠnÃ¡nĠ":6850,"yĠĠĠ":6851,"ĠzhuÄģngĠ":6852,"ĠpÃ¨iĠ":6853,"ĠjÃŃĠlÃ¬Ġ":6854,"ĠzhÅįngĠhuÃ¡Ġ":6855,"qÇĶĠdÃ©":6856,"ĠlÃ¡iĠzÃ¬Ġ":6857,"yuÃ¡nĠzÃłiĠ":6858,"ĠbÃ¹ĠmÃ©n":6859,"xiÄģngĠdÄģngĠ":6860,"ĠdÃłnĠyÃ³uĠyÃºĠ":6861,"fÇİngĠwÃ¨nĠ":6862,"zhÃŃĠdÃłoĠ":6863,"chuÄģngĠ":6864,"jiÃłoĠwÃ©iĠ":6865,"xiÃłngĠmÃ¹":6866,"ĠshÃ¬ĠwÃ¨iĠleĠ":6867,"jiÃ©ĠhÅ«nĠ":6868,"ĠlÇĲĠlÃ¹nĠ":6869,"pÇĲnĠpÃ¡iĠ":6870,"3ĠniÃ¡nĠ":6871,"suÄ«ĠrÃ¡n":6872,"ĠxiÃ©Ġ":6873,"ĠÅįuĠ":6874,"xÃŃĠwÃ¨iĠ":6875,"ĠdÃ¬ĠwÇĶĠ":6876,"ĠyuÃ¨ĠtÃ¡iĠ":6877,"cÄģnĠjiÄģ":6878,"zhÅįngĠwÃ¨iĠ":6879,"dĠĠĠ":6880,"zhÄĵnĠshÃŃĠ":6881,"zhÅįngĠhuÃ¡ĠrÃ©nĠmÃŃnĠgÃ²ngĠhÃ©ĠguÃ³Ġ":6882,"ĠyÄ«ng":6883,"yÇĴuĠbÃ¹Ġ":6884,"yÃ¬nĠdÃ¬Ġ":6885,"mÄĽiĠshÃ¹Ġ":6886,"ĠtiÃ¡nĠ":6887,"ĠlÇİoĠ":6888,"mÃ¬ngĠlÃ¬ngĠ":6889,"16Ġ":6890,"xuÃ©ĠshÃ¹Ġ":6891,"xÄ«ngĠqÄ«Ġ":6892,"ĠdeĠgÅįngĠzuÃ²Ġ":6893,"ĠshÃłng":6894,"ĠĠĠ2025":6895,"2020ĠniÃ¡nĠmÄĽiĠguÃ³ĠrÃ©nĠkÇĴuĠpÇĶĠchÃ¡ĠdeĠshÃ¹ĠjÃ¹Ġ":6896,"jiÃłnĠshÃ¨Ġ":6897,"jÇĶĠxÃŃng":6898,"fÃ¡ngĠyÃ¹Ġ":6899,"ĠrÃ¨nĠwÃ¹Ġ":6900,"wÇĶĠzhuÄģngĠ":6901,"ĠzhÃ¨ng":6902,"yÃŃĠchÇİnĠ":6903,"tiÃ¡oĠzhÄĽngĠ":6904,"zhÃ²uĠ":6905,"ĠshÃŃĠyÄ«Ġ":6906,"ÃłoĠmÃ©nĠ":6907,"ĠniÃ¡nĠbÃ¨iĠ":6908,"tÃŃĠgÄģoĠ":6909,"ĠCĠ":6910,"yÇĶnĠxÇĶĠ":6911,"ĠjiÇĶ":6912,"ĠzhÃ¬ĠshÃŃĠ":6913,"ĠjiÄģĠrÃ¹":6914,"ĠzhÄ«ĠhÃ²u":6915,"ĠdÃ¬ngĠ":6916,"bÃłoĠdÇİoĠ":6917,"fÄĵiĠlÇľĠ":6918,"ĠĠĠJ":6919,"wÇİĠÄĽrĠ":6920,"yÇĲĠlÃ¡iĠ":6921,"leĠtÄģĠdeĠ":6922,"huÃ¬ĠyuÃ¡nĠ":6923,"ĠshÃŃĠqÄ«":6924,"jÃ¬ĠlÃ¹Ġ":6925,"ĠjÄ«ĠguÄģnĠ":6926,"dÅ«ĠshÃ¬Ġ":6927,"cuÃ¬Ġ":6928,"leĠyÃŃĠgÃ¨Ġ":6929,"huÃłĠjiÄģĠ":6930,"jÄ«ĠchÇİngĠ":6931,"ĠfÃ¹ĠzÃ©":6932,"yÃŃĠmÃŃnĠ":6933,"shÅ«ĠdeĠ":6934,"13Ġ":6935,"jÃ¹ĠlÃŃĠ":6936,"shÃ¹ĠzÃ¬Ġ":6937,"ĠshÃ¬ĠyÄ«ĠzhÇĴng":6938,"jÄ«nĠdeĠ":6939,"ĠrÃ©nĠlÃ¨i":6940,"ĠchÄĵngĠwÃ©iĠ":6941,"ĠĠĠ2024":6942,"ĠhÃ©ĠshÃŃĠ":6943,"hÅįngĠzhÃł":6944,"ĠshÄ«":6945,"ĠzÃ¬ĠjÇĲĠdeĠ":6946,"jiÄĵĠjÃŃĠ":6947,"duÃłnĠdeĠ":6948,"dÅ«ĠjiÃłoĠ":6949,"lÃ¬ĠshÃ¬Ġ":6950,"kÃ¨ĠlÇĲĠ":6951,"ĠhÃ³ng":6952,"ĠzhuÇİn":6953,"yÃ¡nĠdeĠ":6954,"yÃŃngĠdeĠ":6955,"huÄģĠyuÃ¡nĠ":6956,"shÄģnĠmÃłi":6957,"shÄĵngĠjÃŃĠ":6958,"yuÄĵĠyÇĴuĠ":6959,"ĠshÃ¬ĠdÃłĠ":6960,"yÃ²ngĠhÃ¹Ġ":6961,"wÃ©nĠzÃ¬Ġ":6962,"ĠsuÃ¬ĠdeĠ":6963,"ĠwÃłnĠmÄĽiĠyuÃ¡nĠ":6964,"miÃłnĠduÃ¬Ġ":6965,"yÄģoĠqÇĲngĠ":6966,"ĠliÃ¡ngĠ":6967,"Ġ2011ĠniÃ¡nĠ":6968,"dÅįngĠjÃ¬Ġ":6969,"zÄ«ĠjÄ«nĠ":6970,"dÄĽngĠwÃ¨iĠ":6971,"ĠlÃ¬ĠshÇĲ":6972,"wÇĶĠtÃ¡iĠ":6973,"ĠguÄģn":6974,"ĠxÃº":6975,"sÃºĠ":6976,"ĠshÃ¨ĠjÃŃĠ":6977,"hÃ¡nĠshÃ¹Ġ":6978,"23Ġ":6979,"ĠzhÃ¬ĠlÃ¬Ġ":6980,"gÄģoĠdÄĽngĠ":6981,"Ġ2016":6982,"ĠsuÇĴĠyÇĲ":6983,"yuÃ¡nĠjÃŃĠ":6984,"ĠrÃ©nĠmÃŃn":6985,"ĠhÃ©ĠlÃ¡nĠ":6986,"shÄĵnĠqÇĲngĠ":6987,"Ġ2005ĠniÃ¡nĠ":6988,"dÃ²ngĠzuÃ²Ġ":6989,"xiÃłoĠguÇĴĠ":6990,"Ġ3ĠyuÃ¨Ġ":6991,"ĠhÃ¡nĠguÃ³Ġ":6992,"mÄĽiĠguÃ³ĠdeĠ":6993,"ĠjÃ¹":6994,"Ġ2008ĠniÃ¡nĠ":6995,"19ĠshÃ¬ĠjÃ¬Ġ":6996,"4ĠniÃ¡nĠ":6997,"ĠmÃŃngĠchÃ¡oĠzhÃ¨ngĠzhÃ¬ĠrÃ©nĠwÃ¹Ġ":6998,"ĠĠĠzÇİoĠniÃ¡nĠ":6999,"jiÃłoĠliÃłnĠ":7000,"ĠĠĠxÄ«nĠ":7001,"ĠxiÃłnĠhÃ©Ġ":7002,"ĠrÃ¬ĠjÅ«nĠ":7003,"xiÃłĠlÃ¬ng":7004,"liÇİngĠzhÇĴngĠ":7005,"1990ĠniÃ¡nĠ":7006,"lÇĲngĠtÇĶĠ":7007,"pĠ":7008,"ĠxiÅ«Ġ":7009,"ĠyuÃ¡nĠmÃŃngĠ":7010,"nÇĶĠlÃ¬Ġ":7011,"zhÃ¨ngĠmÃŃngĠ":7012,"IĠ":7013,"ĠzhÄģo":7014,"ĠĠĠhÃ²uĠ":7015,"anĠ":7016,"lÃ¹ĠjÅ«n":7017,"ĠzhÅįngĠyÃºĠ":7018,"zuÃ²ĠyÃ²ngĠ":7019,"ĠpÃ¨i":7020,"qÅ«ĠyÃ¹":7021,"jÄ«ngĠchÃ¡ngĠ":7022,"liÃ¨ĠbiÇİoĠ":7023,"ĠĠĠyÃ³uĠ":7024,"yÇĴuĠzÃłiĠ":7025,"ĠyÃ¬ĠyÃ¬Ġ":7026,"yÇĲngĠpiÃłn":7027,"ĠyuÃ¡nĠgÅįngĠ":7028,"ĠzhÅįuĠniÃ¡nĠ":7029,"ĠjÃ¬nĠxÃŃng":7030,"ĠnÃ¡nĠzhÃ¬Ġ":7031,"ĠguÃ³ĠhuÃ¬Ġ":7032,"ĠgÅįngĠhuÃ¬Ġ":7033,"guÄģnĠxÃ¬":7034,"ĠchÃ¬Ġ":7035,"ĠjÃ¬ĠzhÄĽĠ":7036,"nÃ¨iĠlÃ¹Ġ":7037,"zhÇİoĠdÃłoĠ":7038,"wÃ¡ngĠchÃ¡o":7039,"leĠĠĠ":7040,"jÄ«ngĠlÇĲĠ":7041,"lÇļĠxÃŃngĠ":7042,"shÃ©nĠjÄ«ngĠ":7043,"ĠlÇĲ":7044,"ĠshÃ¬ĠhÃ²uĠ":7045,"yÃ²ngĠzuÃ²Ġ":7046,"ĠjuÃ©":7047,"lÇĲĠlÃ¹nĠ":7048,"huÃŃĠyÃ¬ngĠ":7049,"ĠgÅįngĠchÇİngĠ":7050,"fÃ¹ĠjÃ¬nĠ":7051,"yÃºĠzÃłiĠ":7052,"ĠbÃ³":7053,"cĠ":7054,"ĠhÄĽnĠ":7055,"tÃłiĠrÃ©nĠ":7056,"ĠhÃ©ĠgÅįngĠ":7057,"kÄĽĠyÇĲĠzÃłiĠ":7058,"ĠluÃ³":7059,"suÃ¬ĠdÃłoĠ":7060,"bÇİoĠchÃŃ":7061,"zhÄ«ĠjiÄģnĠ":7062,"tÃŃĠdÃłoĠ":7063,"ĠwÃłnĠyuÃ¡nĠ":7064,"ĠchÃ©ngĠxiÃłnĠ":7065,"chÅ«ĠbÇİnĠ":7066,"ĠniÃ¡nĠ1ĠyuÃ¨Ġ1ĠrÃ¬Ġ":7067,"ĠjÄ«ĠchÄĵĠ":7068,"jiÇĶĠdiÃłnĠ":7069,"ĠshÃŃĠÃ¨rĠ":7070,"ĠbÇĲ":7071,"ĠlÃŃ":7072,"ÄģiĠjÃŃĠ":7073,"gÃ©ĠwÃ¨iĠ":7074,"qÃ¬ĠxiÃłngĠ":7075,"DĠ":7076,"shÇĴuĠjÄ«Ġ":7077,"tÄ«Ġ":7078,"ĠguÃ³ĠfÃ¡ng":7079,"kÅįngĠzhÅįngĠ":7080,"ĠniÃ¡nĠshÃ¬ĠjiÃ¨Ġ":7081,"ĠzhÃ¹":7082,"ĠĠĠV":7083,"erĠ":7084,"bÃ¨iĠshÃ¬ĠwÃ¨iĠ":7085,"tÅįngĠdÃłoĠ":7086,"kÇĴngĠbÃ¹Ġ":7087,"guÄ«ĠzÃ©Ġ":7088,"qÃŃĠzhÅįngĠyÄ«ĠzhÇĴngĠ":7089,"zuÃ²ĠwÃ¨iĠ":7090,"shÇĴuĠdÅ«Ġ":7091,"wÇĴĠmen":7092,"ĠdeĠzhÃ¬Ġ":7093,"ĠwÇĴĠmenĠ":7094,"lÃ¬ĠwÃ¨iĠ":7095,"shÅ«ĠjÃŃĠ":7096,"ĠÃ©rĠchÃ©ngĠ":7097,"tĠĠĠ":7098,"ĠfÇİn":7099,"ĠlÃ©iĠ":7100,"1984ĠniÃ¡nĠ":7101,"dÅįngĠnÃ¡nĠbÃ¹Ġ":7102,"yÇĲĠxiÃłĠ":7103,"yÇİnĠyÃ¬Ġ":7104,"ĠxÄ«ĠwÃłng":7105,"jÄ«ĠhÃ©Ġ":7106,"dÃłĠlÃ¹ĠdeĠ":7107,"ĠliÃłngĠ":7108,"qÇĲĠyÃ¨":7109,"ĠzuÃ²ĠwÃ©i":7110,"2ĠniÃ¡nĠ":7111,"dÃłiĠlÇĲĠ":7112,"mÄĽngĠ":7113,"ĠdeĠjiÄģĠ":7114,"jÄ«nĠshÇĶĠ":7115,"jÃ¬nĠyÃŃĠbÃ¹Ġ":7116,"xÄ«nĠjiÄģĠpÅį":7117,"lÃ¡oĠdÃ²ngĠ":7118,"zhÇĶĠchÃŃ":7119,"jiÃłoĠxuÃ©Ġ":7120,"biÇİoĠmiÃłnĠ":7121,"gÃ¹ĠwÃ¨nĠ":7122,"ĠyÄ«ngĠyÇĶĠ":7123,"nÄ«Ġ":7124,"ĠhÃ©ĠxÄ«Ġ":7125,"ĠbÃ¹ĠbÃ¹Ġ":7126,"ĠÐ":7127,"ĠyÇĴuĠjÄ«Ġ":7128,"cÃ¡iĠliÃłoĠ":7129,"chÃ¡oĠxiÄģn":7130,"Ġ2001ĠniÃ¡nĠrÃ©nĠkÇĴuĠ":7131,"ĠgÃ©":7132,"dÃłoĠlÃ¹Ġ":7133,"huÃ¡ĠrÃ©nĠ":7134,"ĠzÃłiĠwÃ¨iĠ":7135,"ĠbÄĽiĠqÇĲĠ":7136,"jÃ¬ngĠdeĠ":7137,"sÇĲĠhÃ²uĠ":7138,"bÇİoĠliÃºĠ":7139,"bÅįĠlÃ¡n":7140,"gĠ":7141,"ĠtÇĶĠ":7142,"tÅįngĠchÄĵĠ":7143,"sÄ«ĠlÃ¬Ġ":7144,"1989ĠniÃ¡nĠ":7145,"ĠzhÅįngĠguÃ³ĠdÃłĠlÃ¹Ġ":7146,"bÃ¡iĠsÃ¨Ġ":7147,"yÃłĠlÃ¬ĠshÄģnĠdÃłĠ":7148,"ĠbÄģnĠ":7149,"huÃ¬ĠshÃ¬Ġ":7150,"ĠyÇĲĠbÃ¨iĠ":7151,"MĠ":7152,"jÅ«ĠmÃŃn":7153,"zhÇĶĠlÃ¬Ġ":7154,"ĠpÃŃngĠmiÃłnĠ":7155,"nÃŃĠkÃ¨Ġ":7156,"ĠtÄģĠwÃ¨iĠ":7157,"Ġ2021":7158,"zhÇĶĠdeĠ":7159,"ĠzhÄ«ĠjiÄģn":7160,"fÄĵnĠzhÅįngĠ":7161,"ĠsÄ«ĠtÃ¨":7162,"ĠchÃ¡Ġ":7163,"nÇļĠzÇĲ":7164,"yÇĲnĠqÇĲĠ":7165,"ĠxiÃłnĠdeĠyÃŃĠgÃ¨Ġ":7166,"ĠtÃŃĠgÅįngĠ":7167,"ĠdÃłoĠdÃ¡Ġ":7168,"fÇİĠÃłnĠ":7169,"yÇĲnĠqÇĲ":7170,"ĠnÇļĠxÃ¬ngĠ":7171,"zhÃłoĠkÄģiĠ":7172,"ĠdÅįngĠnÃ¡nĠ":7173,"yÃ¹nĠzuÃ²Ġ":7174,"ĠĠĠ2012":7175,"jiÄģoĠhuÃ¬Ġ":7176,"5ĠniÃ¡nĠ":7177,"shÇĴuĠgÃ¨Ġ":7178,"tuÃ¬ĠchÅ«Ġ":7179,"zhÃłiĠ":7180,"dÃ¬ĠÃ¨rĠ":7181,"ĠÃ©rĠyÃ¡nĠ":7182,"ĠxiÃłnĠdeĠyÃŃĠgÃ¨":7183,"ĠhÇİi":7184,"ĠbÃ¨iĠrÃ¨nĠwÃ©iĠshÃ¬Ġ":7185,"ĠyÅįngĠyÇĴuĠ":7186,"ĠjÃ¹ĠyÇĴuĠ":7187,"lÃ¬ĠzÃłiĠ":7188,"ĠjÄ«ĠhÅ«":7189,"ĠkÃ¨ĠchÃ©ngĠ":7190,"wÃ©nĠzhÄģngĠ":7191,"jÇĲĠgÃ¨Ġ":7192,"zhÃ¡Ġ":7193,"ĠshÃ¬ĠjiÄģĠ":7194,"ĠyÇĴuĠyÃ¬Ġ":7195,"tÃ¨ĠshÅ«Ġ":7196,"ĠqÇĶĠ":7197,"ĠxÄ«ĠsÄ«Ġ":7198,"xiÄģngĠguÄģn":7199,"shÄ«ĠfÃłn":7200,"ĠfÃ¹ĠqÄ«nĠ":7201,"wÃºĠfÇİ":7202,"ĠgÇİngĠ":7203,"cÄģnĠmÃ³u":7204,"jÄ«nĠhuÃ¬Ġ":7205,"jiÃ¨ĠdeĠ":7206,"jiÃłoĠshÄ«Ġ":7207,"cÃ©ngĠjÄ«ng":7208,"ĠĠĠxiÃłĠ":7209,"lÇľĠshÄ«Ġ":7210,"fÄĵiĠzhÅįuĠ":7211,"ĠshÃ¬ĠyÇĶĠ":7212,"ĠsĠĠĠ":7213,"xÄ«ĠbÄģnĠyÃ¡":7214,"dÃłĠwÃ¨iĠ":7215,"ĠyÄ«ĠjÃŃĠ":7216,"ĠfÃ©ngĠ":7217,"chÃ¡ngĠdeĠ":7218,"ĠbÃ¹ĠdÃ©":7219,"ĠtÄģĠmenĠzÃłiĠ":7220,"wÄĵiĠjÄ«Ġ":7221,"ĠyÃ¬ĠfÄģngĠmiÃłnĠ":7222,"fÇİĠyuÃłn":7223,"yÃŃĠzhÇĲĠ":7224,"ĠÃ©rĠshuÇĲĠyÃ¹ĠmiÃłnĠjÄ«ĠwÃ¨iĠ0":7225,"ĠguÃ³ĠjiÄģĠdeĠ":7226,"zhÄĽĠzÃłiĠ":7227,"ĠhÃ©ĠqÃŃĠtÄģĠ":7228,"yÃłĠzhÅįu":7229,"ĠzhÇĶĠxÃŃĠ":7230,"jÄ«nĠpÃ¡iĠ":7231,"chÄĵĠdeĠ":7232,"ĠzhÄ«ĠwÃ¨iĠ":7233,"ĠbÃ¬ngĠjiÄģngĠ":7234,"kÄģngĠxÄ«Ġ":7235,"esĠ":7236,"ĠchÃ©ngĠxÃ¹Ġ":7237,"yÃłoĠwÃ¹Ġ":7238,"xÃ¬ĠtÇĴngĠdeĠ":7239,"ĠwÃ¨iĠyÇĴuĠ":7240,"biÇİoĠdÃ¡":7241,"Ġ00Ġ":7242,"ĠĠĠchÃ©ngĠ":7243,"ĠchÃ©ngĠrÃ¨nĠ":7244,"zhÃŃĠmÃŃn":7245,"guÃ²ĠqÃ¹Ġ":7246,"pÃºĠtÃ¡oĠyÃ¡":7247,"dÃłĠdÃ¬Ġ":7248,"biÃłnĠdÃ©Ġ":7249,"ĠzhÃ¬ĠliÃ¡oĠ":7250,"huÄģnĠyÃŃngĠ":7251,"wÃ©nĠxiÃłnĠ":7252,"lÄĽngĠ":7253,"duÅįĠniÃ¡nĠ":7254,"ĠsÄ«ĠkÃ¨Ġ":7255,"ĠjÃ¬nĠxÃŃngĠleĠ":7256,"ĠxÃ¬ĠliÃ¨Ġ":7257,"mÃ¹ĠbiÄģo":7258,"ĠfÃ¨i":7259,"ĠguÄģnĠyÃºĠ":7260,"zhÃ¹ĠlÇĲĠ":7261,"zhuÄģngĠshÃ¬Ġ":7262,"dÅįngĠbÄĽiĠbÃ¹Ġ":7263,"gÃ²uĠzÃłoĠ":7264,"huÃ²ĠdÃ©ĠleĠ":7265,"bÃ³ĠwÃ¹ĠguÇİn":7266,"ÃłoĠdÃłĠlÃ¬ĠyÃłĠ":7267,"eĠĠĠ":7268,"ĠbÇİiĠ":7269,"ĠqiÃºĠyuÃ¡nĠ":7270,"Ġ100":7271,"ĠbÃłnĠ":7272,"jiÄģngĠhuÃ¬Ġ":7273,"fÃºĠyÃ¬Ġ":7274,"bÄĽnĠdÃ¬Ġ":7275,"ĠÃ©rĠgÄģiĠdÃ¬Ġ":7276,"xiÄģnĠshÄĵngĠ":7277,"ĠbÃ¹ĠlÄģĠ":7278,"bÅįĠlÃ¡nĠ":7279,"ĠqÇĲ":7280,"ĠyÃºĠlÃ¨Ġ":7281,"jiÄģĠrÃ¹":7282,"fÃłngĠqÃ¬Ġ":7283,"jiÃłnĠyÃ¬Ġ":7284,"Ġ2015":7285,"dÄģngĠshÃŃĠdeĠ":7286,"ĠqÄ«ĠxÄ«ĠzÃłiĠ":7287,"mÃ¡oĠzÃ©Ġ":7288,"xiÃłoĠdeĠ":7289,"sÃłĠsÄ«Ġ":7290,"yÃ¬ĠdÃłĠlÃ¬Ġ":7291,"ĠbÃ¬ngĠyÇĶĠ":7292,"ĠgÄģo":7293,"zÃ©ĠwÃ¨iĠ":7294,"ĠdÃłĠlÃ¹Ġ":7295,"teĠĠĠ":7296,"1985ĠniÃ¡nĠ":7297,"fÃ¹ĠqÄ«n":7298,"ĠwÃ¨iĠlÃ¡iĠ":7299,"Ġ2007ĠniÃ¡nĠ":7300,"zÃ¬ĠyÃ³u":7301,"ĠbÇİnĠ":7302,"ĠĠĠcÃ³ngĠ":7303,"ĠjiÃłnĠzÃłoĠ":7304,"ĠjÃ¬nĠyÃŃĠbÃ¹Ġ":7305,"liÃºĠzÃłiĠ":7306,"shÅįuĠshÃ¬Ġ":7307,"ĠdeĠzhÃ¨ngĠ":7308,"chÄĵngĠzuÃ²Ġ":7309,"nÃ¡nĠjÄ«ngĠ":7310,"ĠjÃ¬nĠgÅįngĠ":7311,"sÃłĠÄĽrĠ":7312,"guÇİngĠgÃłoĠ":7313,"ĠcÃ¨Ġ":7314,"luÃ³ĠdÃ¬Ġ":7315,"jÇĲnĠjÃŃĠ":7316,"ĠshÃ¬ĠzhÃ¨ngĠ":7317,"ĠfÃ¹ĠqÄ«n":7318,"ĠjÃ¬ĠshÃ¹":7319,"ĠhÃłoĠwÃ¨iĠ":7320,"jÃ¬ĠxÃ¹Ġ":7321,"tÇİnĠkÃ¨Ġ":7322,"ĠshÅįuĠ":7323,"1949ĠniÃ¡nĠ":7324,"ĠdeĠshÄĵngĠ":7325,"ĠrÃ©nĠmen":7326,"ĠrÃ¬ĠjÅ«n":7327,"ĠyÃ¬ĠmÄĽiĠyuÃ¡nĠ":7328,"xÃ¬ĠjÃ¹Ġ":7329,"cÃ¬ĠshÇĲĠ":7330,"Ġ2013":7331,"ĠzÃłiĠcÇĲ":7332,"ĠtÃ¨ĠbiÃ©ĠshÃ¬Ġ":7333,"huÇĴĠjiÃłnĠ":7334,"ĠjiÄģĠzÃºĠ":7335,"piÃłoĠfÃ¡ngĠ":7336,"bÇĲĠlÃ¬ĠshÃŃĠ":7337,"qÇĲngĠqiÃºĠ":7338,"jÇĲngĠfÄģngĠ":7339,"kÇİoĠlÇľ":7340,"RĠ":7341,"lĠ":7342,"ĠshÃ¬ĠrÃ¬ĠbÄĽnĠ":7343,"ĠniÃ¡nĠĠĠ":7344,"ĠjiÃ©ĠguÇĴ":7345,"tÃłiĠpÃŃngĠyÃ¡ng":7346,"zhÄģnĠmÇĶĠsÄ«Ġ":7347,"Ġ30":7348,"ĠhÃ¨Ġ":7349,"ĠsÄ«ĠtÇİn":7350,"Ġ2014":7351,"ĠchÅ«ĠshÄĵngĠ":7352,"ĠmÄĽiĠniÃ¡nĠ":7353,"dÃ¬ĠzÃłiĠ":7354,"ĠyÇĲĠyÇĴuĠ":7355,"shÃłngĠwÇĶĠ":7356,"tÃ³uĠpiÃło":7357,"bÄģĠlÃŃ":7358,"wÃ¡ngĠchÃ¡oĠ":7359,"ĠĠĠjiÃ©ĠzhÃ¬Ġ":7360,"nÃ¨iĠyÇĴuĠ":7361,"biÄģnĠdeĠ":7362,"wÃ¡nĠgÅįngĠ":7363,"shÃŃĠjiÄģnĠ":7364,"ĠzhÃ¬ĠchÃ©ngĠ":7365,"guÇİngĠdÅįngĠshÄĽngĠ":7366,"quÃ¨ĠrÃ¨nĠ":7367,"pÄģiĠshÃ¨":7368,"ĠyuÃ¡nĠbÄĽnĠ":7369,"ĠzhÃło":7370,"chÇİngĠhÃ©Ġ":7371,"ĠqÃŃĠzÃłiĠ":7372,"ĠzhÄ«ĠziĠ":7373,"mÇĶĠqÄ«n":7374,"shÄĵnĠtÇĲĠ":7375,"ĠÃ©":7376,"fÄĽnĠ":7377,"ĠdÃłĠyuÄĵĠ":7378,"ĠzhÄ«ĠdeĠ":7379,"mÃ©ngĠgÇĶ":7380,"ĠsÃłiĠ":7381,"ĠbÄ«ngĠ":7382,"ĠlÇļĠ":7383,"gÇĶĠfÃ¨n":7384,"ĠzhÃłnĠdÃ²uĠ":7385,"xÃŃĠxÃ¬ng":7386,"gÃ¨ngĠduÅįĠ":7387,"hÃºĠbÄĽiĠ":7388,"ĠyuÄĵĠhÃłnĠ":7389,"ĠjÄ«ngĠjÃ¬Ġ":7390,"dÄĵngĠshÃłngĠ":7391,"ĠxiÃłnĠchÇİngĠ":7392,"ĠdÃ¨ng":7393,"ĠĠĠzÄĵngĠ":7394,"suÇĴĠzÃłiĠ":7395,"qÃŃngĠbÃłoĠ":7396,"ĠyÄ«ngĠwÃ©nĠ":7397,"wÃłiĠbÃ¹Ġ":7398,"zhÃ²ngĠyÃ¬Ġ":7399,"mÃŃnĠjiÄģnĠ":7400,"mÃ¬ĠmÃ¬Ġ":7401,"xiÃłoĠyuÃ¡nĠ":7402,"ĠshÃ¬ĠyÃ¨Ġ":7403,"ĠzÃłiĠqÃŃĠ":7404,"guÄģnĠbÃ¬Ġ":7405,"guÇİngĠfÃłn":7406,"kÇİoĠlÇľĠ":7407,"tÃ¨ĠsÃ¨Ġ":7408,"ĠhÃ©ngĠ":7409,"ĠyÇĴuĠxiÃłnĠ":7410,"sÄĵnĠlÃŃnĠ":7411,"mÇİĠsÄ«Ġ":7412,"ĠyÃ¡n":7413,"Ġ2020":7414,"ĠxiÇİngĠ":7415,"ĠsÃłiĠjÃ¬Ġ":7416,"wÃ¹ĠyuÃ¡nĠ":7417,"cÃ¹nĠ":7418,"ĠxÃºnĠ":7419,"ÄģnĠpÃ¡iĠ":7420,"ĠwÇĴĠmen":7421,"chÄ«Ġ":7422,"ĠquÃ¡nĠqiÃºĠ":7423,"ĠcÄģnĠjiÄģĠ":7424,"ĠÄģiĠ":7425,"xiÃłĠyÄ«Ġ":7426,"mÄĽiĠgÃ¨Ġ":7427,"ĠdÃłĠduÅįĠshÃ¹Ġ":7428,"chÃ©ngĠniÃ¡nĠ":7429,"Ã¨rĠyuÃ¨Ġ":7430,"ĠbÃ¹ĠjiÇĶ":7431,"yÇİnĠchÃłngĠ":7432,"liÇİngĠniÃ¡nĠ":7433,"zhuÄģngĠbÃ¨iĠ":7434,"zÃ¨ngĠ":7435,"ĠdÃłĠdÃłoĠ":7436,"ĠwÃ²":7437,"ĠzuÃ¬ĠgÄģoĠ":7438,"nÃ©ngĠzÃłiĠ":7439,"ĠjÄ«ĠbÃłi":7440,"tÇĶĠÄĽrĠqÃŃĠ":7441,"qiÄģnĠzhÃ¬Ġ":7442,"huÇİnĠ":7443,"1986ĠniÃ¡nĠ":7444,"ĠdÃ¬ĠyÄ«ĠcÃ¬Ġ":7445,"Ġ10Ġ":7446,"chÇİngĠdÃ¬Ġ":7447,"mÃŃnĠzhÇĶĠdÇİngĠ":7448,"tiÄģnĠdeĠ":7449,"ĠzhÅįngĠshÃ¬Ġ":7450,"14Ġ":7451,"ĠshÃŃĠyÃłnĠ":7452,"zuÃ²ĠzhÃłnĠ":7453,"ĠgÄģngĠ":7454,"nÃ¡nĠyÇĲĠ":7455,"ĠjÃŃĠbÄĽiĠ":7456,"ĠchÅ«ĠlÃ¡iĠ":7457,"tÃ¡iĠfÄĵngĠ":7458,"ĠkÇİ":7459,"xÃ¬ngĠqÃ¹Ġ":7460,"tiÄģnĠjÄ«nĠ":7461,"ĠtÅįngĠchÃ¡ng":7462,"Ġ2017":7463,"bÃłnĠlÇĲĠ":7464,"18Ġ":7465,"ĠzhÄ«ĠdÃłoĠ":7466,"tiÄģnĠjÄ«n":7467,"lÃ³ngĠjiÄģngĠ":7468,"lÇĲngĠshÃ¬Ġ":7469,"ĠbÃ¹ĠzÃºĠ":7470,"yÃ²ngĠtÃºĠ":7471,"lÇĲĠgÅįngĠ":7472,"ĠkÄģngĠ":7473,"ĠyuÃ¡nĠsÃ¹Ġ":7474,"wÄĵiĠÄĽrĠ":7475,"nÃ³ngĠyÃ¨":7476,"ĠqÄ«ngĠchÃ¡oĠ":7477,"ÄģiĠÄĽrĠ":7478,"ĠchÃ©ngĠdÃ¹Ġ":7479,"zhÃłnĠlÇĲngĠ":7480,"chÃ¡ngĠjiÃłnĠdeĠ":7481,"maĠ":7482,"jÃ¬nĠxÃŃngĠleĠ":7483,"ĠshÇĲĠjiÃłnĠyÃºĠ":7484,"ĠĠĠxiÃłn":7485,"ĠĠĠmÃŃngĠ":7486,"dÇİoĠdÃłnĠ":7487,"xiÅ«ĠzhÃ¨ngĠ":7488,"ĠyuÃ¨ĠtuÃ¡nĠ":7489,"guÃ¬ĠzhÅįuĠ":7490,"fÄĵnĠbÃ¹ĠyÃºĠ":7491,"xÇĲĠjÃ¹Ġ":7492,"ĠgÅįngĠzhÇĶĠ":7493,"ĠtÄģĠhÃ¡iĠ":7494,"ĠzhÃłnĠdÃ²u":7495,"mÇİĠlÃ¡iĠxÄ«ĠyÃłĠ":7496,"xÃŃĠxÃ¬ngĠbÃ¹ĠmÃŃngĠ":7497,"ĠxuÄģnĠ":7498,"ĠshÃŃĠdÃłi":7499,"zhÃłngĠÃłiĠ":7500,"ĠwÃ©nĠhuÃłĠ":7501,"ĠchÅ«ĠqÄ«Ġ":7502,"xiÃłngĠshÃ¬Ġ":7503,"teĠ":7504,"huÃ¡ĠshÃ¨ngĠ":7505,"shÄĵngĠchÃ©ngĠ":7506,"ĠyÇĴuĠxiÄĵĠ":7507,"ĠshÄĵngĠchÇİn":7508,"rÃ¨nĠmÃ¬ngĠwÃ¨iĠ":7509,"ĠyÃ¬ĠqÇĲ":7510,"fÇİĠguÄģnĠ":7511,"ĠyÄĽĠjiÃ¹ĠshÃ¬Ġ":7512,"ĠtÃ¡oĠ":7513,"ĠĠĠtÄģĠ":7514,"ĠdeĠfÄģngĠshÃ¬Ġ":7515,"ĠhÃ©ĠhÃ©Ġ":7516,"jiÄģoĠliÃºĠ":7517,"zÇĶĠjiÃłnĠ":7518,"ĠshÄĵngĠhuÃ³ĠxÃŃĠxÃ¬ngĠbÃ¹ĠmÃŃngĠ":7519,"ĠrÃ³ngĠ":7520,"ĠchÇĶĠyÃºĠ":7521,"shÃ¨ĠzhÃ¬Ġ":7522,"shÃ²uĠdÃło":7523,"tÃŃĠchÅ«":7524,"ĠwÃłnĠlÃ¬Ġ":7525,"jÄ«ĠchÇĶĠ":7526,"ĠtÄģĠyÄĽĠ":7527,"ĠgÃ²ng":7528,"ĠluÃ²":7529,"hÄĽnĠdÃłĠ":7530,"kÇĶĠ":7531,"ĠgÃ²ngĠyÇĴuĠ":7532,"ĠgÄĵnĠjÃ¹":7533,"zhÃ¬ĠzhÅįngĠ":7534,"bÃłoĠfÄģ":7535,"ĠyÃŃnĠ":7536,"zhÇĶĠshÃ¬Ġ":7537,"ĠĠĠmÄĽiĠguÃ³Ġ":7538,"lÇĲngĠxiÃ¹Ġ":7539,"ĠhÃłn":7540,"jÃ¹ĠjuÃ©Ġ":7541,"lÄģĠdÄ«ng":7542,"ĠÃ©rĠbÃºĠshÃ¬Ġ":7543,"chuÃ¡nĠshuÅįĠ":7544,"huÃłĠhÃ©ĠwÃ¹Ġ":7545,"ĠruÃ¬Ġ":7546,"rÃ¨nĠshÃŃĠ":7547,"ĠkÇĴngĠ":7548,"bÃłoĠlÃ¬Ġ":7549,"ÄģnĠzhuÄģng":7550,"ÄģnĠnÃłĠ":7551,"ĠyÄ«ĠxuÃ©Ġ":7552,"wÇĴĠmenĠ":7553,"ĠĠĠlÇĲĠ":7554,"ĠpÃł":7555,"zhÃ¬ĠbÃ¹Ġ":7556,"jiÄģĠlÃ¬ĠfÃºĠ":7557,"shÃºĠ":7558,"ĠyÇĴuĠyÃŃĠgÃ¨Ġ":7559,"ĠxiÃłnĠxiÃłngĠ":7560,"shÃłngĠyÃ¬ngĠ":7561,"fÇİĠyÇĶĠ":7562,"wÃ©nĠyÃ¬Ġ":7563,"qiÃ³ngĠ":7564,"ĠzÃłiĠnÃ¨iĠdeĠ":7565,"ĠdiÃłnĠyÇĲngĠ":7566,"gÄģoĠsÃ¹Ġ":7567,"chuÃłngĠbÃłn":7568,"1987ĠniÃ¡nĠ":7569,"ĠzÃłiĠdÃ¹Ġ":7570,"ĠÃ©rĠbÃ¹Ġ":7571,"jÃ¬ĠshÃ¬Ġ":7572,"yuÃłnĠshÃ¬Ġ":7573,"ĠwÃ¨iĠxÄ«ngĠ":7574,"ĠlÇĲĠlÃ¹n":7575,"oĠĠĠ":7576,"yÃ¡nĠshÄĵn":7577,"hÇİiĠÃłnĠ":7578,"ĠAĠ":7579,"chuÃłngĠjiÃłnĠ":7580,"bÄ«nĠhÇİiĠ":7581,"shÃ¹nĠlÃ¬Ġ":7582,"ĠdÅįngĠbÄĽiĠ":7583,"ĠĠĠcÇĲĠwÃłiĠ":7584,"mĠĠĠ":7585,"Ġ2013ĠniÃ¡nĠ":7586,"lÃ©iĠsÄ«Ġ":7587,"ruÇİnĠjiÃłnĠ":7588,"ĠshÄĵngĠzhÇİng":7589,"ĠyÃ³uĠqÃŃĠshÃ¬Ġ":7590,"ĠshÇĶ":7591,"tuÄ«ĠjÃ¬nĠ":7592,"ĠhÃ©ĠbÃ¹Ġ":7593,"shÅ«ĠrÃ¹Ġ":7594,"zÄ«ĠchÇİnĠ":7595,"lÃ¹nĠwÃ©nĠ":7596,"ĠxÃŃngĠzhÃ¨ng":7597,"nÇļĠxÃ¬ng":7598,"wÇİngĠqiÃºĠ":7599,"hÇİiĠwÃłiĠ":7600,"ĠnÃł":7601,"ĠÃ¨Ġ":7602,"ĠwÇİĠ":7603,"ĠbÃ¹ĠluÃ²Ġ":7604,"ĠdÃłĠshÃł":7605,"1980ĠniÃ¡nĠ":7606,"zhÇĶĠyÃ¬ĠdeĠ":7607,"pÃŃngĠlÃ¹nĠ":7608,"zuÃ¬ĠgÄģo":7609,"Ġ2010":7610,"ĠtÇİĠ":7611,"yÃ¬ngĠyÃ²ng":7612,"cÇİiĠqÇĶĠ":7613,"Ġ50":7614,"Ġ2012":7615,"jiÃłoĠshÃ¬Ġ":7616,"pÃ¡iĠmÃŃngĠdÃ¬Ġ":7617,"ĠsÄģiĠ":7618,"Ġ2006ĠniÃ¡nĠ":7619,"biÃłnĠwÃ¨iĠ":7620,"zÅ«Ġ":7621,"bĠ":7622,"ĠbÄĽiĠjÄ«ngĠ":7623,"ĠĠĠqÃŃĠ":7624,"yÃºĠdeĠ":7625,"bÅįĠfÃłngĠ":7626,"jÃ¹ĠhÃ©Ġ":7627,"sÄģnĠshÃ¬Ġ":7628,"ĠzÃłiĠxÄ«Ġ":7629,"rÃ©nĠdÃłĠ":7630,"ĠdÃ©ĠÄĽrĠ":7631,"ĠhÃ²uĠxuÇİnĠrÃ©nĠ":7632,"bÃłoĠgÃło":7633,"ĠtiÃ¡oĠ":7634,"tÃ³uĠzÄ«":7635,"mÇİĠlÇĲĠ":7636,"zÃ©ĠrÃ¨nĠ":7637,"rÇİoĠ":7638,"fÄģngĠmiÃłnĠdeĠ":7639,"yÇĲnĠqÃŃngĠ":7640,"gÃ¨ĠzhÇĴngĠ":7641,"shÃ¬ĠĠĠ":7642,"ĠshÃ¬ĠmÃŃnĠ":7643,"ĠhÃ©ĠdÃłĠ":7644,"diÃłnĠzi":7645,"lÇĲngĠdÃ¬Ġ":7646,"ĠzÃłiĠcÃ¬":7647,"fÃłnĠwÃ©iĠnÃ¨iĠ":7648,"ĠĠĠjÃ¹ĠqÃŃngĠ":7649,"ĠyÃŃngĠ":7650,"ĠĠĠqiÃ¡nĠ":7651,"zhÃ¨ĠlÇĲĠ":7652,"xiÄģngĠshÃ¬ĠdÃ¬Ġ":7653,"ĠyÃºĠrÃ©nĠ":7654,"zhÃ¨ngĠdÇİngĠ":7655,"ĠrÃ¬ĠbÃłoĠ":7656,"ĠlÃ¬ngĠyÄ«Ġ":7657,"xÃŃngĠchÃ©ngĠ":7658,"fÄģĠxÃŃngĠdeĠ":7659,"ĠjÄ«ĠhÅ«Ġ":7660,"zhÃŃĠjiÄĵ":7661,"fÄĵngĠwÃ¨iĠ":7662,"pÃłiĠdeĠ":7663,"1982ĠniÃ¡nĠ":7664,"ĠshÃ¬ĠgÃ¹Ġ":7665,"7ĠniÃ¡nĠ":7666,"ĠlÃ¡i":7667,"ĠzhÃ¬ĠshÇİoĠ":7668,"biÇİoĠdÃ¡Ġ":7669,"wÇİngĠluÃ²":7670,"ĠÃ":7671,"ĠyÃ²ngĠyÃºĠ":7672,"yuÃłnĠyÃ¬Ġ":7673,"ĠtÄģĠhÃ©Ġ":7674,"jÃ¹ĠlÃ¨ĠbÃ¹Ġ":7675,"ĠĠĠchÅ«Ġ":7676,"dÃºĠlÃ¬ĠdeĠ":7677,"6ĠniÃ¡nĠ":7678,"ĠzhÄ«ĠfÃ¹Ġ":7679,"jiÇĶĠlÃ³ngĠ":7680,"dÄģngĠxuÇİnĠ":7681,"hÃ¨ĠÄĽrĠ":7682,"zÃ¬ĠrÃ¡n":7683,"ĠĠĠxiÃłnĠ":7684,"ĠyÇĴuĠxiÃłoĠ":7685,"xÃ¬ĠbÄģo":7686,"Ġ20":7687,"bÃºĠ":7688,"wÄĵnĠdÃ¹Ġ":7689,"1945ĠniÃ¡nĠ":7690,"1983ĠniÃ¡nĠ":7691,"jÃ¬ĠchÃ©ngĠ":7692,"diÃłnĠnÇİo":7693,"yÇĶnĠxÇĶ":7694,"3ĠrÃ©nĠ":7695,"ĠyÄ«ĠxiÇİoĠshÃŃĠ":7696,"jÇĲngĠchÃ¡":7697,"huÇĴĠshÄģnĠ":7698,"ĠĠĠN":7699,"ĠdÃłĠxÄ«ĠyÃ¡ngĠ":7700,"guÃ²ĠqÃ¹":7701,"pÃ¡iĠhÃ¡ngĠ":7702,"EĠ":7703,"ÄģnĠdÃ©Ġ":7704,"jiÃ¹ĠdÃº":7705,"ĠdÅįngĠlÃŃnĠ":7706,"miÃ¡nĠ":7707,"zhÄ«ĠchÃŃ":7708,"fÇİngĠwÃ¨n":7709,"mÃŃngĠzÃ¬Ġ":7710,"ĠzuÃ²ĠjiÄģĠ":7711,"ĠshuÅįĠ":7712,"dÇİngĠyuÃ¡nĠ":7713,"ĠdÃłĠfÃºĠ":7714,"qÅ«ĠyÃ¬ĠhuÃ¬Ġ":7715,"17Ġ":7716,"ĠdÃ©ĠhuÃ¡Ġ":7717,"2ĠrÃ©nĠ":7718,"Ġ2012ĠniÃ¡nĠ":7719,"huÃłnĠchÃ©ngĠ":7720,"biÇİoĠyÇİn":7721,"dÅįuĠzÃłiĠ":7722,"ĠdÃ¬ĠyÃŃĠgÃ¨Ġ":7723,"xiÃłnĠzhÃ¬Ġ":7724,"ĠyÇĶĠmÃ¡o":7725,"ĠchÅ«ĠzhÃłnĠ":7726,"bÇĲĠyÃł":7727,"ĠĠĠdÃ¬ĠfÄģngĠ":7728,"ĠfÄģnĠ":7729,"xiÄģngĠdÄģng":7730,"xÇĲĠhuÄģn":7731,"ĠjiÃ¹ĠshÃ¬Ġ":7732,"ĠbÃ¬ngĠbÃ¨iĠ":7733,"fÄģngĠyÃ¡nĠ":7734,"qÅ«ĠhÃ©Ġ":7735,"ĠyÄ«ĠtÃ³ngĠ":7736,"ĠzhÅįngĠhuÃ¡ĠrÃ©nĠmÃŃnĠgÃ²ngĠhÃ©ĠguÃ³ĠzhÃ¨ngĠzhÃ¬ĠrÃ©nĠwÃ¹Ġ":7737,"ĠshÃ¬ĠyÃºĠ":7738,"jÄ«ngĠyÃłnĠ":7739,"xÃºnĠyÃ¡ng":7740,"ĠjÃ¬ĠsuÃłnĠ":7741,"pÇĶĠbiÃłnĠ":7742,"ĠzhÅįngĠbÃ¨iĠ":7743,"guÄģnĠdiÇİnĠ":7744,"jiÃłngĠdÄ«Ġ":7745,"kÄĵĠdeĠqÃŃĠzhÅįngĠyÄ«ĠzhÇĴngĠ":7746,"KĠ":7747,"ĠshÄĵngĠyÃºĠ":7748,"ĠgÅįngĠyÃ¬Ġ":7749,"ĠrÃ©ng":7750,"hÃ¡nĠyÇĴuĠ":7751,"liÇİngĠmÃŃngĠ":7752,"diÇİnĠlÇĲĠ":7753,"ĠshÃ¬ĠgÅįngĠ":7754,"zhÃ²ngĠduÅįĠ":7755,"dÃłĠzhÃ¬Ġ":7756,"ĠbÃ¬ngĠdÃº":7757,"ĠqÃŃĠzhÅįngĠyÄ«Ġ":7758,"ĠnÃ©ngĠ":7759,"yÃłĠjÅ«nĠ":7760,"shÃ¨ĠqÅ«Ġ":7761,"kÇĴuĠwÃ¨iĠ":7762,"chÃ©ngĠyuÃ¡nĠ":7763,"ĠxiÃłnĠshÃ¬Ġ":7764,"zhÄ«ĠqiÃ¡nĠ":7765,"mÃ¬ĠshÅ«ĠzhÇİngĠ":7766,"ĠĠĠ2":7767,"ĠĠĠ2011":7768,"ĠdÃ¬ĠsÃ¬":7769,"zuÃ²ĠshÃ¬Ġ":7770,"tiÃ¡oĠlÃ¬Ġ":7771,"nÃ¨iĠgÃ©Ġ":7772,"ĠpÃŃngĠjÅ«nĠ":7773,"shÃ¹ĠyÇĶĠ":7774,"wÃºĠzhÃ¨ngĠzhuÃłngĠ":7775,"ĠxiÃłnĠrÃ¨nĠ":7776,"tÅ«ĠpÃ²Ġ":7777,"xiÄĽĠdÃłoĠ":7778,"dÃłngĠtiÄģnĠ":7779,"yÃŃĠdÃ¹Ġ":7780,"ĠzÇĶĠfÃ¹Ġ":7781,"1ĠlÃ¬Ġ":7782,"ĠliÃ¹":7783,"ĠxÃŃngĠwÃ¨iĠ":7784,"ĠwÃ¡nĠ":7785,"ĠgÅįngĠmÃŃnĠ":7786,"xÄ«ngĠdÄĽngĠwÃ¨iĠ":7787,"ĠbÇĲĠsÃłiĠ":7788,"ĠtÃ³ngĠyÃ¬Ġ":7789,"hÃ³ngĠsÃ¨Ġ":7790,"shÄģnĠshÃ¬Ġ":7791,"kÄģiĠshÇĲĠzÃłiĠ":7792,"tuÃ¡nĠdeĠ":7793,"gÄĽiĠleĠ":7794,"ĠjÄ«ĠjÄ«nĠ":7795,"sÇĲĠwÃ¡ng":7796,"zhÄĽngĠtÇĲĠ":7797,"Ġ500":7798,"ĠĠĠjÃŃĠ":7799,"lÇĶĠsÄ«Ġ":7800,"shÄĽĠ":7801,"juÃ©ĠduÃ¬Ġ":7802,"ĠquÃ¡nĠlÃ¬Ġ":7803,"ĠzuÃ¬ĠchÅ«Ġ":7804,"dÃłiĠbiÇİoĠdÃłĠhuÃ¬Ġ":7805,"Ġ7Ġ":7806,"chÃŃĠyÇĴuĠ":7807,"yÄ«ngĠwÃ©nĠ":7808,"zhÃ¨ngĠbÃ¹Ġ":7809,"gÃłiĠniÃłn":7810,"ĠxÃ¬nĠ":7811,"ĠgÅįngĠjÃ¹Ġ":7812,"shÃ¨ĠshÄ«Ġ":7813,"ĠsÅ«n":7814,"ĠdÃ¡":7815,"ĠĠĠ2010":7816,"bÄĽnĠrÃ©nĠ":7817,"yÃ¡ngĠshÃ¬Ġ":7818,"ĠshÃ¬ĠbÄ«ngĠ":7819,"ĠzhÃ¨ĠzhÇĴng":7820,"xiÃłĠxiÃ¡ĠdeĠyÃŃĠgÃ¨Ġ":7821,"Ġ30Ġ":7822,"ĠsuÃ¬ĠshÃŃĠ":7823,"ĠĠĠÄģĠ":7824,"Ġ0Ġ":7825,"nÃŃĠÄĽrĠ":7826,"ĠdeĠchÃ©ngĠjÃ¬Ġ":7827,"ĠU":7828,"ĠjÃŃĠrÃ©nĠ":7829,"yÃŃĠdÃ¬ngĠ":7830,"jiÃ¨ĠshÃłoĠ":7831,"lÃ¡iĠyuÃ¨Ġ":7832,"bÇİoĠshÇĴuĠ":7833,"tÃ³uĠxiÃ¡ngĠ":7834,"guÃ¬ĠzÃºĠ":7835,"yuÃ¨ĠzhÅįngĠ":7836,"zhÃŃĠdÇİoĠ":7837,"zhÃ¨nĠqÅ«ĠdeĠ":7838,"zÇİoĠqÄ«":7839,"bÃ³ĠshÃ¬ĠxuÃ©ĠwÃ¨iĠ":7840,"shÄģnĠjÄ«Ġ":7841,"huÃ¡ngĠhÃ²uĠ":7842,"qÇĲĠdÃ²ngĠ":7843,"ĠmÄĽiĠgÃ¨Ġ":7844,"ĠĠĠqÃŃĠtÄģĠ":7845,"tÄģngĠ":7846,"guÃłĠ":7847,"ĠwÃ©iĠÄĽr":7848,"yÄģoĠqÇĲng":7849,"yÃ¬ĠniÃ¡nĠ":7850,"gÇĶĠdÃłiĠ":7851,"ĠmÃŃngĠdÄģnĠ":7852,"kuÃ¬Ġ":7853,"ĠdÃ©ĠyÇĶĠ":7854,"zhÇĴngĠzÃºĠ":7855,"enĠ":7856,"zhÄĽnĠ":7857,"ĠyÄ«ĠzuÃ²Ġ":7858,"ĠyÇĲĠjÃŃ":7859,"ĠÃ©rĠgÄģiĠ":7860,"hÄĵiĠsÃ¨Ġ":7861,"mÃŃngĠrÃ©nĠ":7862,"ĠrÃ©nĠmÃŃnĠzhÃ¨ngĠfÇĶĠ":7863,"ÄĵnĠshÄĽngĠ":7864,"tÃ²uĠguÃ²":7865,"1ĠrÃ©nĠ":7866,"ĠxiÇİngĠniÃ¡nĠ":7867,"wÃºĠzhÃ¨ngĠzhuÃłngĠgÇİnĠrÇİnĠ":7868,"suÃŃĠzhÃ¹Ġ":7869,"sÄģĠ":7870,"ĠĠĠ1Ġ":7871,"huÃ³ĠyuÃ¨Ġ":7872,"mÃ¹ĠqiÃ¡n":7873,"chÃ¡ngĠwÃ¹Ġ":7874,"chÃ¡ngĠwÄĽiĠ":7875,"quÃ¨ĠzhÄĽnĠbÃ¬ngĠlÃ¬Ġ":7876,"ĠÃ¨rĠshÃŃĠ":7877,"mÃŃngĠzhÃ¬Ġ":7878,"ĠrÃ¬ĠyÃºĠ":7879,"gÇİiĠmÃŃngĠwÃ¨iĠ":7880,"chÅ«ĠshÄĵnĠ":7881,"tÃ³ngĠniÃ¡nĠ":7882,"diÃłnĠhuÃłĠ":7883,"Ġ2022":7884,"ĠbÃ¹ĠsÄ«Ġ":7885,"ĠjÄ«ĠsÄ«Ġ":7886,"tÃłiĠziĠ":7887,"duÅįĠrÃ©nĠ":7888,"ĠbÇĲĠrÃºĠ":7889,"ĠĠĠgÄģi":7890,"kÃ¨ĠchÃ©ngĠ":7891,"kÃ¹nĠnÃ¡nĠ":7892,"ĠbÃ¹ĠlÃ¬Ġ":7893,"zuÃ¬ĠduÅįĠ":7894,"dÄģnĠdeĠ":7895,"lÃ³ngĠdeĠ":7896,"tÃºnĠ":7897,"tÃŃĠjÃŃĠ":7898,"gÃ¨ngĠwÃ©iĠ":7899,"inĠ":7900,"rÃ¹ĠxuÇİnĠ":7901,"ĠwÃ¨iĠyÃºĠzhÅįngĠguÃ³Ġ":7902,"yÇĲĠjÄ«ngĠ":7903,"quÄĵĠfÃ¡":7904,"sÄģiĠÄĽrĠwÃ©iĠ":7905,"huÃ¬ĠzhÅįngĠ":7906,"shÅįuĠjÃŃĠ":7907,"ĠlÃ¬ĠfÇİ":7908,"xuÃ©ĠhuÃ¬Ġ":7909,"ĠbÃ¬ngĠfÄĵiĠ":7910,"hÇİiĠxiÃ¡Ġ":7911,"gÃ²uĠdeĠ":7912,"gÅįngĠchÃ©ngĠ":7913,"ĠxÄ«ĠjiÄĵĠ":7914,"gÄĵĠlÃºnĠ":7915,"ĠyÃ²ng":7916,"ĠjÄ«ĠchÇİng":7917,"GĠ":7918,"jÃ¹ĠdÃłĠ":7919,"ĠchÃ©ngĠrÃ©nĠ":7920,"fÃ¹ĠzÃ©":7921,"ÄģnĠnÃł":7922,"zÃºĠqiÃºĠyÃ¹nĠdÃ²ngĠyuÃ¡nĠ":7923,"ĠĠĠ2Ġ":7924,"xiÄĽĠdeĠ":7925,"pÄģiĠ":7926,"zhuÄ«ĠsÃ¹":7927,"ĠyÄģoĠqiÃºĠ":7928,"Ġ2014ĠniÃ¡nĠ":7929,"ĠtÃ³ngĠshÃŃĠgÄģiĠdÃ¬Ġ":7930,"ĠxÃŃĠ":7931,"zuÃ²ĠchÅ«Ġ":7932,"bÄĵiĠsÄ«Ġ":7933,"ĠyÄĽĠzÃłiĠ":7934,"shÄĽngĠdeĠ":7935,"lÃ¬ngĠrÃ©nĠ":7936,"huÃ¬ĠzhÃ¬Ġ":7937,"ĠdÃ©ĠzhÇĶĠ":7938,"tÇİoĠlÃ¹n":7939,"gÄģoĠsÃ¹ĠgÅįngĠlÃ¹Ġ":7940,"ĠyuÄĵ":7941,"ĠjÃŃĠdÃ¬Ġ":7942,"fÃłnĠzuÃ¬Ġ":7943,"nÃ¨iĠlÃ¹ĠshÄĽngĠfÃ¨nĠ":7944,"ÄģnĠhuÄ«Ġ":7945,"kÄĵĠxuÃ©ĠjiÄģĠ":7946,"tÃºĠxÃŃngĠ":7947,"ĠguÃ³ĠnÃ¨iĠ":7948,"pÄ«ĠzhÇĶn":7949,"ĠbÃ¬ngĠdÃºĠ":7950,"jiÄģngĠzÃłiĠ":7951,"dÄ«ĠyÃºĠ":7952,"ĠpÃ²Ġ":7953,"zhÃºĠbÃ¹Ġ":7954,"ĠdeĠdÃ¬ĠÃ¨rĠ":7955,"shÃ²uĠdeĠ":7956,"shÄģnĠdeĠ":7957,"ĠshÃ¬ĠyÄ«nĠwÃ¨iĠ":7958,"ĠkÃ¨ĠxÄ«Ġ":7959,"liÃ¡nĠhÃ©ĠhuÃ¬Ġ":7960,"cÃ¬ĠdeĠ":7961,"chÄģoĠyuÃ¨Ġ":7962,"jiÃ©ĠguÇĴ":7963,"tÃ¡iĠnÃ¡n":7964,"jiÇİnĠshÇİo":7965,"qiÃ¡ngĠliÃ¨Ġ":7966,"3ĠgÃ¨Ġ":7967,"ĠchÃ¡":7968,"pÃłiĠqiÇİn":7969,"xiÃłĠlÃ¬ngĠshÃŃĠjiÄģnĠ":7970,"hÇİiĠpÃŃngĠmiÃłnĠ":7971,"bÃºĠdÃłoĠ":7972,"ĠshÃŃĠqÄ«ĠdeĠ":7973,"ĠyuÃ¡nĠxÃŃngĠ":7974,"ĠwÃ¡nĠjiÄģĠ":7975,"yÄĽĠzÃłiĠ":7976,"ĠjÄ«ĠhuÃ¬Ġ":7977,"ĠxuÃ©ĠyuÃłn":7978,"yÃŃĠdÃ¬ng":7979,"huÄ«ĠfÃ¹":7980,"guÃ²ĠdeĠ":7981,"yÃłĠmÄĽiĠ":7982,"1972ĠniÃ¡nĠ":7983,"biÄģnĠjiÃ¨Ġ":7984,"dÇĴngĠshÃ¬ĠzhÇİngĠ":7985,"jiÃłĠgÃ©Ġ":7986,"ĠjiÃłoĠyÃ¹Ġ":7987,"tÃŃĠyÃ¬Ġ":7988,"shÅ«ĠzhÅįngĠ":7989,"xÅ«nĠzhÄģngĠ":7990,"zhÇĶĠjiÃło":7991,"shÄ«ĠbÃłiĠ":7992,"ĠhÃłoĠdeĠ":7993,"zhÇĶĠyÃłoĠdeĠ":7994,"nÃŃĠyÃłĠzhÅįuĠ":7995,"ĠhÃ²uĠbÃ¨iĠ":7996,"ĠxuÃ©ĠjiÄģĠ":7997,"liÃºĠxiÃłĠ":7998,"shuÄģngĠfÄģngĠ":7999,"ĠĠĠbÃ¨iĠjÇĲngĠ":8000,"ĠĠĠ3":8001,"Ã©rĠtÃ³ngĠ":8002,"ĠyÄ«ĠlÃ¬Ġ":8003,"guÄģnĠchÃ¡Ġ":8004,"fÄģngĠfÇİ":8005,"jiÄģĠyÃ¬Ġ":8006,"1978ĠniÃ¡nĠ":8007,"ĠbÃ¹ĠduÃ¬":8008,"ĠyÇĲĠwÃ©iĠ":8009,"ĠzÃłiĠshÃŃĠ":8010,"tÃŃĠgÅįngĠleĠ":8011,"liÃ¡nĠxÃ¹":8012,"xiÃłnĠdeĠ":8013,"qÄ«nĠzÃ¬Ġ":8014,"ĠÃ©rĠziĠ":8015,"bÄĽiĠjÄ«ngĠshÃ¬Ġ":8016,"Ġ1950":8017,"1979ĠniÃ¡nĠ":8018,"ĠyÇĴuĠsuÇĴĠ":8019,"ĠdiÃłnĠshÃ¬Ġ":8020,"zuÃ¬ĠgÄģoĠdeĠ":8021,"huÃ¬ĠyÃ¬ĠyuÃ¡nĠ":8022,"ĠmÃ©i":8023,"sÄģnĠjiÇİo":8024,"ĠĠĠdÃ¬ĠfÄģngĠzÄ«ĠliÃłoĠ":8025,"bÇİnĠbÄĽn":8026,"rÃ¨nĠwÃ¨iĠ":8027,"mÇİĠÄĽrĠ":8028,"lÃ¡nĠdeĠ":8029,"nÃ¡ĠxiÃłĠ":8030,"pÃŃngĠtÃ¡iĠ":8031,"fÄĵiĠchÃ¡ng":8032,"ĠĠĠjiÇİnĠjiÃ¨Ġ":8033,"leĠzÃłiĠ":8034,"duÅįĠwÃ¨iĠ":8035,"zÇĶĠfÃ¹Ġ":8036,"ĠhÃ©ĠyuÄĵĠ":8037,"ĠjiÇİ":8038,"ĠlÃ¬ĠliÃłngĠ":8039,"ĠchÅ«ĠkÇĴuĠ":8040,"ĠtÄģĠcÃ©ngĠdÃłiĠbiÇİoĠ":8041,"bÃ¨iĠdeĠ":8042,"ĠdÃ¬ĠlÇĲĠ":8043,"nÃ¡nĠbÄĽiĠ":8044,"shÃ©nĠmeĠ":8045,"ngĠ":8046,"nÃ©ngĠyuÃ¡nĠ":8047,"ĠdÃ¬ĠqÄ«Ġ":8048,"ĠxiÃłnĠfÇİĠ":8049,"gÇİiĠbiÃłn":8050,"ĠhÃ²uĠzhÄĽĠ":8051,"quÄĵĠfÃ¡Ġ":8052,"tÃ¡iĠzhÅįngĠ":8053,"dÃŃĠshÃ¬Ġ":8054,"ĠzhÃ¨ngĠmÃŃngĠ":8055,"ĠshÃŃĠjÃ¬ĠshÃłngĠ":8056,"liÇİoĠ":8057,"ĠchÃ©ngĠzhÃ¨nĠ":8058,"ĠsÃ¹Ġ":8059,"Ġ2015ĠniÃ¡nĠ":8060,"zÃ¬ĠdeĠ":8061,"xuÇİnĠzhÅįngĠ":8062,"dÃŃĠrÃ©nĠ":8063,"ĠlÃ¬ĠyÃ¬Ġ":8064,"4ĠrÃ©nĠ":8065,"lÇĲĠhÃ©Ġ":8066,"1ĠniÃ¡nĠ":8067,"ĠshÇĴu":8068,"ĠlÇĶĠ":8069,"pÃłiĠchÅ«Ġ":8070,"ĠmÄĽiĠyuÃ¡nĠ":8071,"ĠzhÅįngĠguÃ³ĠrÃ©nĠmÃŃnĠjiÄĽĠfÃłngĠjÅ«nĠ":8072,"duÅįĠzhÇĴngĠ":8073,"tÃ¡nĠpÃłnĠ":8074,"liÃ¡oĠnÃŃngĠ":8075,"1976ĠniÃ¡nĠ":8076,"ĠbÃ¹ĠshÇİoĠ":8077,"ĠsÄ«ĠtÇİĠ":8078,"tÃŃĠchÅ«ĠdeĠ":8079,"suÃŃĠjÃŃĠ":8080,"wÃ¡nĠzhÄĽng":8081,"yÄ«ngĠgÄģiĠ":8082,"tuÃ¬ĠxiÅ«Ġ":8083,"ĠdÃłĠxuÃ©ĠdeĠ":8084,"hÇİiĠbÃ¡ĠwÃ¨iĠ":8085,"ĠzÄ«Ġ":8086,"pÃŃngĠwÃ¨iĠ":8087,"gÃłnĠbÃ¹Ġ":8088,"lÄĽiĠjÃ¬Ġ":8089,"ĠshÃŃĠxÃŃngĠ":8090,"yÄ«ngĠgÃ©ĠlÃ¡n":8091,"miÇİnĠdiÄģn":8092,"dÄģngĠzhÅįngĠ":8093,"xÃ¹ĠlÃ¬ĠyÃłĠ":8094,"juÃ©ĠyÃ¬Ġ":8095,"shÄģngĠrÃ©nĠ":8096,"biÄģoĠbÄĽnĠ":8097,"fÄģĠshÄĵngĠzÃłiĠ":8098,"suÇĴĠcÇİiĠyÃ²ng":8099,"zhÇĲĠdÇİoĠ":8100,"ĠjÃ¹ĠjuÃ©Ġ":8101,"huÃłĠzhÅįngĠ":8102,"zÃłnĠshÃŃĠ":8103,"zhuÄģngĠjiÇİĠ":8104,"ĠĠĠ1":8105,"mÄĽiĠzhÅįu":8106,"tiÃłoĠ":8107,"ĠfÃ¹ĠjÃ¬n":8108,"ĠzhÅįngĠgÃ²ngĠzhÅįngĠyÄģngĠ":8109,"cÃ¬ĠyÃºĠ":8110,"ĠyÃ¬ĠqÃŃngĠ":8111,"nÃ³ngĠmÃŃnĠ":8112,"yÃŃĠdÃłiĠ":8113,"ĠdÃ©ĠmÃŃngĠ":8114,"ĠĠĠyÄ«nĠ":8115,"shuÇĲĠlÃ¬Ġ":8116,"rÃ³ngĠhÃ©Ġ":8117,"ĠzhÅįngĠguÃ³ĠdeĠ":8118,"xiÅ«ĠgÇİiĠ":8119,"8ĠniÃ¡nĠ":8120,"fÄģĠmÃŃngĠ":8121,"1958ĠniÃ¡nĠ":8122,"ĠqÃŃĠwÃ¨iĠ":8123,"zhÇĲĠnÃ©ngĠ":8124,"ĠmÃŃngĠzhÃ¬Ġ":8125,"ĠgÅįngĠzhÃ²ngĠ":8126,"ĠchÃº":8127,"ĠbÇİ":8128,"zhÇĶĠyÇİnĠ":8129,"ÄģĠlÄģĠbÃ³":8130,"zhuÇİnĠxiÃłngĠ":8131,"xiÄģngĠsÃ¬Ġ":8132,"guÄģnĠchÃ¡":8133,"jiÄĵĠchÃ¹Ġ":8134,"ĠbÄĽiĠjÄ«ng":8135,"kÄģiĠshÃ¨Ġ":8136,"xiÅ«ĠjiÃłnĠ":8137,"zhÇĴngĠziĠ":8138,"jÃ¬ngĠjÃ¬Ġ":8139,"jiÄĽĠsÃłnĠ":8140,"ĠdeĠshÃ¬ĠjiÃ¨Ġ":8141,"Ġ2016ĠniÃ¡nĠ":8142,"wÇĶĠzhuÄģng":8143,"diÃłnĠjÄ«Ġ":8144,"chÄģiĠchÃºĠ":8145,"cnĠ":8146,"kÄģiĠtÅįngĠ":8147,"bÃłoĠzhÃłĠ":8148,"jÇĶĠbÃłnĠdeĠ":8149,"fÄģĠqÇĲĠ":8150,"shÄĵnĠdÃ¹Ġ":8151,"ÄģnĠpÃ¡i":8152,"ĠtÃ¡ng":8153,"qÅ«ĠshÃ¬Ġ":8154,"wÃ©iĠsÄ«Ġ":8155,"tuÃ¡nĠtÇĲ":8156,"jÄ«ĠgÃ²uĠ":8157,"fÃ¹ĠzhÇĶĠrÃ¨nĠ":8158,"fÄģĠshÃ²uĠ":8159,"zÇĶĠzhÄ«ĠdeĠ":8160,"ĠĠĠqÃŃ":8161,"ĠniÃ¡nĠlÃ¡iĠ":8162,"fÄĵngĠxiÇİnĠ":8163,"diÃłoĠkuÃłi":8164,"ĠĠĠduÃ¬Ġ":8165,"chÃ©ngĠhÃ©Ġ":8166,"ĠwÃ¨iĠdÃłĠ":8167,"ĠyÇĶĠqÃŃĠtÄģĠ":8168,"zhÄģngĠzhuÄģnĠjÃŃĠ":8169,"ĠcnĠ":8170,"jiÃ©ĠdeĠ":8171,"biÄģnĠjÃ¹Ġ":8172,"zÃłoĠleĠ":8173,"seĠ":8174,"nÇĶĠ":8175,"ĠwÃ¨iĠUTCĠ":8176,"ĠbÃ¹ĠjÃŃĠ":8177,"ĠzhÅįngĠshÄģnĠ":8178,"nÃ©ngĠliÃłngĠ":8179,"shuÃłiĠlÇĲng":8180,"ĠZ":8181,"bÃłnĠshÃ¬ĠchÃ¹Ġ":8182,"qiÃºĠjÃ¬Ġ":8183,"tiÃ¡oĠzhÄĽng":8184,"ĠxÄ«ĠbÄģnĠyÃ¡Ġ":8185,"ĠgÄĵ":8186,"luÃ³ĠlÇĲĠ":8187,"2025ĠniÃ¡nĠ":8188,"gÃ©ĠlÄģĠ":8189,"jiÃ¹ĠdÃºĠ":8190,"diÃłoĠkuÃłiĠyÄ«ĠxiÇİoĠshÃŃĠ":8191,"9ĠniÃ¡nĠ":8192,"zÃ©ĠzÃłiĠ":8193,"ĠdeĠyÇĲngĠxiÇİngĠ":8194,"yÄ«ngĠxiÃ³ngĠ":8195,"shÄģngĠyÃ¨":8196,"qiÃ¡ngĠdiÃłoĠ":8197,"ĠjÃŃĠUTCĠ":8198,"kÄĵĠxuÃ©ĠyuÃłnĠ":8199,"shÃ¨ĠyÇĴuĠxiÃłĠlÃ¬ngĠshÃŃĠjiÄģnĠ":8200,"ĠdeĠshÃŃĠqÅ«ĠwÃ¨iĠUTCĠ":8201,"ĠÃ©rĠgÄģiĠdÃ¬ĠsuÇĴĠcÇİiĠyÃ²ng":8202,"ĠtÃ³ngĠshÃŃĠgÄģiĠdÃ¬ĠshÃ¨ĠyÇĴuĠxiÃłĠlÃ¬ngĠshÃŃĠjiÄģnĠ":8203,"ĠÃ©rĠgÄģiĠdÃ¬ĠsuÇĴĠcÇİiĠyÃ²ngĠdeĠshÃŃĠqÅ«ĠwÃ¨iĠUTCĠ":8204,"ĠbÃłiĠ":8205,"xiÄģoĠfÃ¨iĠ":8206,"ĠtÃ³ngĠyÃłng":8207,"xÃ¬nĠyÇİngĠ":8208,"tÄģĠmenĠdeĠ":8209,"LĠ":8210,"Ġs":8211,"yÃ³uĠjÄ«Ġ":8212,"ĠdÃłĠjiÇİngĠ":8213,"jiÃłoĠtÃ¡ng":8214,"ĠlÃ¬ngĠyÇĴuĠ":8215,"ĠyÄ«ĠsÄ«ĠlÃ¡nĠ":8216,"40Ġ":8217,"yuÃ¡nĠzhÃ¹Ġ":8218,"bÇİoĠliÃº":8219,"tÃłiĠdÃ¹Ġ":8220,"chuÃ¡nĠbÅįĠ":8221,"ĠgÄģiĠcÅ«nĠ":8222,"suÇĴĠzÃłiĠdÃ¬Ġ":8223,"quÃ¨ĠdeĠ":8224,"zhÄ«ĠjiÄģnĠdeĠ":8225,"ĠzhÄĵngĠ":8226,"ĠĠĠjiÄģoĠtÅįngĠ":8227,"fÄģĠshÃ¨":8228,"ĠshÃŃĠwÃ¹Ġ":8229,"dÃ¬ngĠjÅ«Ġ":8230,"ĠmÇİĠlÃ¡i":8231,"ĠlÃ¬ĠshÇĲĠshÃłngĠ":8232,"gÄģoĠyÃºĠhÇİiĠpÃŃngĠmiÃłnĠ":8233,"ĠhuÃłnĠ":8234,"pÃ¨iĠzhÃ¬Ġ":8235,"ĠwÃ¨iĠfÃºĠqÃŃĠyÃºĠgÄģngĠ":8236,"ĠdÄģn":8237,"ĠbÇİi":8238,"xÃ¬ngĠwÃ¨iĠ":8239,"zhÃºĠjiÃłn":8240,"ĠbÃ¹ĠnÃ©ng":8241,"ĠgÅįngĠjuÃ©Ġ":8242,"ĠÄĽrĠduÅįĠ":8243,"ĠqÃŃĠxiÃłĠ":8244,"ĠÎ":8245,"ĠĠĠqÄ«ngĠ":8246,"wÃ¹ĠhÃ©Ġ":8247,"hÃ¹ĠxiÄģngĠ":8248,"huÃ¬ĠyÃºĠ":8249,"chÃ¹ĠdeĠhÇİiĠbÃ¡ĠwÃ¨iĠ":8250,"chÃ¹ĠdeĠhÇİiĠbÃ¡ĠwÃ¨iĠgÄģoĠyÃºĠhÇİiĠpÃŃngĠmiÃłnĠ":8251,"hÃ²uĠwÃ¨iĠ":8252,"kÃ¹nĠ":8253,"ĠyÄ«nĠsÃ¹Ġ":8254,"tÇĲĠzhÃ¬Ġ":8255,"alĠ":8256,"jÃ¬ngĠxuÇİnĠ":8257,"hÃ©ĠĠĠ":8258,"wÃ¹ĠshÃ¬Ġ":8259,"ĠyÃºĠlÃ¨":8260,"chÇİngĠsuÇĴĠ":8261,"ĠzhÄ«ĠyÃ¬Ġ":8262,"ĠhÃ©ĠpÃłnĠ":8263,"ĠbÃ¹ĠjÇĲnĠ":8264,"ĠyÇĲĠxÄ«Ġ":8265,"ĠnÇĲĠ":8266,"fÄģĠxiÃłnĠdeĠ":8267,"zhÃ²ngĠshÃ¬Ġ":8268,"kuÃ¡ngĠ":8269,"ĠqÃŃĠshÃŃĠ":8270,"ĠsuÃŃĠzhÃ¹Ġ":8271,"nÃ¡nĠjÄ«ng":8272,"zhÇİngĠdÃ¡Ġ":8273,"yÃ¹nĠshÅ«":8274,"Ġ2008":8275,"ĠliÃ¡nĠhÃ©Ġ":8276,"Ġ2017ĠniÃ¡nĠ":8277,"ĠĠĠmÇİĠ":8278,"shÃ¹ĠshÃŃĠ":8279,"nÃ¨iĠdÃ¬Ġ":8280,"ĠhÃº":8281,"ĠxÅ«Ġ":8282,"shÃŃĠqÅ«Ġ":8283,"gÄģoĠxiÃ³ng":8284,"zÄ«ĠliÃło":8285,"ĠdÃłi":8286,"ĠxiÃ¨Ġ":8287,"jiÃłnĠchÃ©ngĠ":8288,"lÃ¹ĠzhÃ¬Ġ":8289,"gÄĵngĠxÄ«nĠ":8290,"isĠĠĠ":8291,"ĠyÄ«ĠjiÄģĠ":8292,"ĠxÄ«ĠlÃ¡nĠ":8293,"yÃ¹nĠyÃ²ngĠ":8294,"ĠzÃ¬ĠrÃ¡nĠ":8295,"chÃ³ngĠqÃ¬ng":8296,"ĠzhÃ¨ngĠzhÃ¬Ġ":8297,"bÃ¬ĠyÃ¨ĠhÃ²uĠ":8298,"ĠĠĠrÃ¡n":8299,"Ã¨rĠjÃŃĠ":8300,"biÄģnĠhÃłoĠ":8301,"ĠlÃ¬ĠrÃ¨nĠ":8302,"shÄģnĠfÄĵngĠ":8303,"ĠwÃ¨iĠyÃºĠgÄģiĠ":8304,"wÃ©iĠÄĽrĠ":8305,"zhÃŃĠzhÃ¨ngĠ":8306,"diÃłnĠqÃ¬Ġ":8307,"ĠyÃŃ":8308,"ĠnuÃ²Ġ":8309,"Ġ8Ġ":8310,"zhÄĽĠshÃ¬Ġ":8311,"wÃ¡ngĠshÃ¬Ġ":8312,"ĠzuÃ²ĠchÅ«Ġ":8313,"ĠMa":8314,"xiÃ¡ĠqÅ«Ġ":8315,"ĠĠĠbÄĽn":8316,"cÃ©ngĠwÃ¨iĠ":8317,"bÄģoĠwÃ©iĠ":8318,"bÃłngĠqiÃºĠ":8319,"xuÃ©ĠyuÃ¡nĠ":8320,"cuÃ²ĠwÃ¹Ġ":8321,"ĠdÃ¬ĠqiÃº":8322,"jÄ«nĠrÃ³ngĠ":8323,"ĠyÃ¹ĠshÇĲĠ":8324,"xuÄģnĠchuÃ¡n":8325,"hĠ":8326,"dÅįngĠfÄģngĠ":8327,"hÃ²uĠyÃ¬Ġ":8328,"bÄĽiĠshÃ¬Ġ":8329,"jÄ«ngĠchÃ¡ng":8330,"xiÃłoĠqÅ«Ġ":8331,"ĠrÃ¡nĠÃ©r":8332,"ĠtÃŃngĠ":8333,"qiÃłĠ":8334,"jiÃ¹ĠhuÃ¬Ġ":8335,"ĠjiÃ©ĠkÃ¨Ġ":8336,"ĠshÄģ":8337,"ĠsÄ«ĠkÄĵĠ":8338,"ĠduÃ¬ĠshÇĴuĠ":8339,"ĠxÃŃngĠzhÃ¨ngĠqÅ«Ġ":8340,"zhÃ¨nĠqÅ«ĠdeĠmiÃłnĠjÄ«ĠwÃ¨iĠ":8341,"ĠzhÅįuĠcÃ¬ĠshÇĲĠ":8342,"ĠshÄĵngĠyÃ¡Ġ":8343,"jiÄģĠyÇĲĠ":8344,"jÃºĠdeĠ":8345,"fÃºĠdeĠ":8346,"mÇİĠkÃ¨Ġ":8347,"ĠtÄģĠyÇĲĠ":8348,"ĠyuÃ¡nĠzÃ¬Ġ":8349,"ĠlÇĲĠxÄ«Ġ":8350,"zÃłoĠchÃ©ngĠdeĠ":8351,"ĠqÄ«nĠ":8352,"zhÃŃĠmÃŃnĠ":8353,"Ġ2023":8354,"pÃŃngĠlÃ¹n":8355,"fÅ«ĠkÇİĠ":8356,"ĠfÃºĠwÃ¹Ġ":8357,"ĠdÄģngĠshÃŃĠdeĠ":8358,"ÃłoĠzhÅįuĠ":8359,"kÄĽĠzÃłiĠ":8360,"ĠyÄ«ĠjÃ¹Ġ":8361,"HĠ":8362,"jÃ¬ĠyÇĴuĠ":8363,"shÇĲĠjiÃłnĠyÃºĠ":8364,"rÃ¨nĠdeĠ":8365,"yÄĽĠbÃ¨iĠ":8366,"miÃłnĠshÃłngĠ":8367,"shuÄģiĠ":8368,"gÅįngĠgÃ²ngĠ":8369,"ĠsÄ«ĠkÃ¨":8370,"ĠÃ©rĠtÃ³ngĠ":8371,"ĠfÄģĠxiÃłnĠ":8372,"Ġ2018ĠniÃ¡nĠ":8373,"mÃŃngĠshÃ¬Ġ":8374,"bÃłnĠdeĠ":8375,"ĠxuÃ©ĠzhÄĽĠ":8376,"pÇİoĠ":8377,"ĠjiÃłnĠshÃ¨":8378,"ĠwÃ©iĠrÃło":8379,"ĠyÄĽĠbÃ¨iĠ":8380,"qiÄģnĠshÇĶĠ":8381,"ĠqÃŃĠzhÅįngĠbÄģoĠkuÃ²Ġ":8382,"ĠgÇİnĠ":8383,"ĠfÄģĠxÃŃngĠ":8384,"jiÄģĠzÃłiĠ":8385,"Ġ2009":8386,"tÅ«ĠrÃ¡nĠ":8387,"chÃ¡nĠ":8388,"hÇİiĠyÃ¡ngĠ":8389,"jÄ«ĠzÃłiĠ":8390,"lÃ¡iĠyÄ«nĠ":8391,"jÃ¹nĠgÅįngĠ":8392,"ĠjÃŃĠdÃłĠ":8393,"ĠdÃ©ĠzhÄ«Ġ":8394,"ĠjÄ«ĠjÄ«nĠhuÃ¬Ġ":8395,"xiÃłoĠlÃ¬ĠyÃºĠ":8396,"Ġ2019ĠniÃ¡nĠ":8397,"jÃ¬ĠniÃłn":8398,"qÃ¬ĠchÄĵ":8399,"lÃ¬ngĠyÃŃĠgÃ¨Ġ":8400,"xiÄģoĠshÄ«Ġ":8401,"ĠwÃ¨iĠduÃ¬Ġ":8402,"rÃºĠguÇĴĠ":8403,"dÄģngĠdÃ¬ĠdeĠ":8404,"jiÃłngĠlÇĲngĠ":8405,"Ġ19":8406,"ĠyÃºnĠ":8407,"yÃ¡nĠhÇİiĠ":8408,"tÃ¡oĠtÃłiĠ":8409,"wÄĽiĠyuÃ¡nĠhuÃ¬ĠwÄĽiĠyuÃ¡nĠ":8410,"ĠlÇĲĠyÃłĠ":8411,"tiÃ¡nĠjÃ¬ngĠ":8412,"Ġ2ĠyuÃ¨Ġ":8413,"ĠĠĠjÇĲnĠ":8414,"pÃŃngĠyuÃ¡nĠ":8415,"bÃ¨iĠjÇĲngĠ":8416,"kÇİĠluÃ³Ġ":8417,"ĠĠĠshÃ¨ngĠ":8418,"jÃ¬nĠbÃ¹Ġ":8419,"dÃ¬ngĠyÃºĠ":8420,"Ã¨rĠrÃ©nĠ":8421,"liÇİngĠguÃ³Ġ":8422,"tÃ¨ĠdÃ¬ngĠ":8423,"fÃ¨nĠzÇĲ":8424,"ĠcÃ¬ĠniÃ¡nĠ":8425,"ĠxÄ«ng":8426,"dÃłĠbÃ¹Ġ":8427,"duÃ¬ĠqÃŃĠ":8428,"ĠqÃŃĠdeĠ":8429,"ĠdeĠbÃ¹ĠfÃ¨nĠ":8430,"zhÃŃĠmÃŃnĠdÃ¬Ġ":8431,"shÇĴuĠzhÅįngĠ":8432,"jiÃłoĠdÃłĠ":8433,"ĠzhÃ¬ĠzuÃ²ĠdeĠ":8434,"ĠjÄ«ĠdÅ«Ġ":8435,"diÃłnĠnÇİoĠ":8436,"gÇİiĠzÃłoĠ":8437,"chuÃ¡nĠtÇĴngĠdeĠ":8438,"ĠchÅįngĠ":8439,"dÄĽngĠjÃŃĠ":8440,"shÄĵngĠyÃ¡":8441,"ĠbÃ¹ĠbÃ¹ĠzhÇİngĠ":8442,"jÄ«ngĠshÃ©n":8443,"ĠqiÃ¡nĠwÇİngĠ":8444,"ĠxiÄģn":8445,"ngĠĠĠ":8446,"guÄģnĠjiÃłnĠ":8447,"diÇİnĠshÃ¬Ġ":8448,"yÃ¬ĠshÃ¹Ġ":8449,"quÃ¡nĠmiÃłnĠ":8450,"ĠdiÃłnĠyÇĲng":8451,"mÃ²ĠxÄ«ĠgÄĵĠ":8452,"ĠxiÃ¡nĠ":8453,"zhÃ¨nĠdeĠ":8454,"tuÄ«ĠchÅ«":8455,"1968ĠniÃ¡nĠ":8456,"guÃ³ĠjiÄģ":8457,"ĠdÃ¬ĠtiÄĽ":8458,"ĠxiÃłnĠyÇĲĠ":8459,"ĠjÄ«ĠchÇĶ":8460,"ĠjÃ¹ĠlÃŃ":8461,"mÃ¹ĠdeĠ":8462,"lÃŃĠkÄģi":8463,"ĠluÃ³ĠmÇİĠ":8464,"ĠgÄĵnĠ":8465,"ĠĠĠnÃ¡nĠ":8466,"ĠshÃŃĠduÃłnĠ":8467,"jiÄĵĠduÃłn":8468,"liÇİngĠcÃ¬Ġ":8469,"ÃłiĠÄĽrĠlÃ¡nĠ":8470,"ĠliÃ¹Ġ":8471,"sÄģnĠmÃŃngĠ":8472,"hÅ«nĠyÄ«nĠ":8473,"touĠ":8474,"dÃłĠlÃ¹":8475,"ĠyÃ¬ĠyÃºĠ":8476,"shÅ«ĠyuÃłnĠ":8477,"ĠshÄģnĠdÅįngĠ":8478,"ÄģĠlÄģĠbÃ³Ġ":8479,"laĠ":8480,"ĠyÃ³uĠjÄ«Ġ":8481,"wÃ©nĠdeĠ":8482,"bÅįĠsÄ«Ġ":8483,"huÃ¬ĠzhÇİngĠ":8484,"mÇİnĠzÃºĠ":8485,"nĠĠĠ":8486,"ĠzÃ¡ĠzhÃ¬Ġ":8487,"qÄ«ĠwÃ¨iĠ":8488,"ĠdÃ¬ĠdiÇİnĠ":8489,"jÃ¬ngĠzhÄĵngĠ":8490,"cÃ¡iĠnÃ©ngĠ":8491,"xÄ«nĠchÃ©ngĠ":8492,"liÇİngĠwÃ¨iĠ":8493,"pÃ¨iĠyÄ«nĠ":8494,"zhÃ¨ngĠjÃ¹Ġ":8495,"ĠwÃºĠfÇİĠ":8496,"liÃ¡nĠdeĠ":8497,"xiÅ«ĠfÃ¹Ġ":8498,"ĠbÃ¬ngĠyÃ³uĠ":8499,"lÄģĠjÄ«Ġ":8500,"kÃłoĠjÃ¬nĠ":8501,"ĠdÃ¬ĠdÃłiĠ":8502,"ĠlÃ¬ĠshÃŃĠ":8503,"hÃ¹ĠliÃ¡nĠ":8504,"jiÄĽĠfÃłngĠ":8505,"Ã©ĠluÃ³ĠsÄ«":8506,"nÃ¨iĠzhÃłnĠ":8507,"bÅįĠshÃ¬Ġ":8508,"ĠwÃ©iĠchÃŃ":8509,"chÅ«ĠbÇİn":8510,"zÄģiĠpÃ©iĠ":8511,"ĠshÃ¬ĠdÃ©ĠguÃ³Ġ":8512,"duÃ¬ĠzhÇİngĠ":8513,"fÄģĠqÇĲ":8514,"jÅ«ĠzhÃ¹ĠzÃłiĠ":8515,"zÇİoĠzÃłiĠ":8516,"bÃ¬ngĠbÃ¹Ġ":8517,"shÇĴuĠxiÃłngĠ":8518,"shÄģnĠqÅ«Ġ":8519,"zÃºĠqiÃºĠjÃ¹ĠlÃ¨ĠbÃ¹Ġ":8520,"ĠkÇĴuĠ":8521,"juÃłnĠ":8522,"jiÄģoĠliÃº":8523,"ĠguÃ³ĠwÃ¹ĠyuÃłnĠ":8524,"lÇĲĠchÃ©ngĠ":8525,"wÄĽiĠfÃ¹Ġ":8526,"zhÃ¨ĠshÃ¬Ġ":8527,"qÇĲĠyuÃ¡nĠ":8528,"gÇĴuĠ":8529,"cÅ«nĠluÃ²Ġ":8530,"ĠBĠ":8531,"fÅ«ĠdeĠ":8532,"1970ĠniÃ¡nĠ":8533,"jÄ«ĠchÇĶ":8534,"ĠdÃłĠlÃ³u":8535,"yÃ¡nĠsÃ¨Ġ":8536,"xiÃłngĠzhÄĵngĠ":8537,"ĠwÃ©iĠsÄ«Ġ":8538,"tiÄģnĠtÇĲĠ":8539,"Ġ28":8540,"ĠcÄģnĠyÃ¹Ġ":8541,"dÅįuĠbÃ¨iĠ":8542,"ĠbÃ¹ĠbÄ«ngĠ":8543,"ĠyÇĶĠyÃ¡n":8544,"ĠĠĠdÃ¬ĠÃ¨rĠ":8545,"Ġ2004ĠniÃ¡nĠ":8546,"liÃ¹ĠshÃŃĠ":8547,"neĠ":8548,"ĠzhÃ¬ĠliÃłngĠ":8549,"ĠzhÅįuĠfÇĶĠ":8550,"shÃ©nĠme":8551,"ĠdÄ«ngĠ":8552,"ĠĠĠ17":8553,"lÃ¡ngĠzhÅįngĠ":8554,"ĠyÄ«ĠyuÃłn":8555,"ĠxÃŃngĠmÃ¹Ġ":8556,"xÃ¬ngĠhÃ©Ġ":8557,"ĠyÇĲĠwÃłiĠ":8558,"chÃ¡ngĠdÃ¹Ġ":8559,"luÃ²ĠfÃ¡":8560,"ĠbÇİo":8561,"ĠĠĠ2008":8562,"ĠzhÃ¬ĠdÃ¬Ġ":8563,"ĠyÇĶĠyÄ«Ġ":8564,"shÅįuĠgÃ²uĠ":8565,"wÃºĠzhÃ¨ngĠzhuÃłngĠgÇİnĠrÇİnĠzhÄĽĠ":8566,"ĠyÃ¬ĠshÃ¬Ġ":8567,"liÃłngĠwÃ¨iĠ":8568,"mÇĶĠdeĠ":8569,"ĠdÃ©ĠsÄ«Ġ":8570,"Ġ2020ĠniÃ¡nĠ":8571,"zuÃ¬ĠchÅ«":8572,"xiÄĽĠzuÃ²Ġ":8573,"mÃ¨ngĠjiÄģĠ":8574,"tÃ¨ĠxÃ¬ngĠ":8575,"shÄ«ĠqÃ¹":8576,"ĠwÃ¨iĠyÃºĠmÄĽiĠguÃ³Ġ":8577,"jiÇİĠdÃ¬Ġ":8578,"ĠzuÃ¬ĠjiÄģĠ":8579,"fÃ¹ĠhÃ©Ġ":8580,"chuÃ¡ngĠ":8581,"tÃłiĠyÃ¡ng":8582,"ÃłoĠmÃ©n":8583,"fÃºĠlÃ¬Ġ":8584,"gÃ©ĠshÃ¬Ġ":8585,"1956ĠniÃ¡nĠ":8586,"ĠxiÃłnĠjÃŃĠ":8587,"suÇĴĠdeĠ":8588,"zhuÃłnĠdeĠ":8589,"zÅįngĠyÃ¬Ġ":8590,"stĠĠĠ":8591,"zÃ¬ĠmÇĶĠ":8592,"lÃŃngĠchÃ©nĠ":8593,"zhÃŃĠyÃ¨ĠshÄĵngĠyÃ¡Ġ":8594,"suÇĴĠwÃ¨iĠ":8595,"tÃ²uĠlÃ¹Ġ":8596,"dÅįngĠbÄĽi":8597,"ĠyÃŃĠgÃ¨":8598,"5ĠrÃ©nĠ":8599,"ÇĴuĠxiÃłngĠ":8600,"kÇİoĠshÃ¬Ġ":8601,"ĠfÃºĠjiÃłnĠ":8602,"ĠĠĠgÃ¨ĠrÃ©nĠ":8603,"juÃ©ĠshÃ¬Ġ":8604,"zÇĴngĠrÃ©nĠkÇĴuĠ":8605,"ĠdÃ¬ĠfÄģng":8606,"ĠxiÃłnĠchÃ©ngĠ":8607,"ĠlÇĲĠkÃ¨Ġ":8608,"ĠĠĠMa":8609,"ĠdÃ©ĠlÄģĠ":8610,"kÅįngĠqÃ¬Ġ":8611,"nÃłĠdeĠ":8612,"fÃ©nĠ":8613,"zuÃ²ĠwÃ©i":8614,"zhÇĶĠzhÄģngĠ":8615,"xÄ«ĠhÃ©Ġ":8616,"pÃŃngĠdeĠ":8617,"1960ĠniÃ¡nĠ":8618,"xÄ«ĠnÃ¡nĠ":8619,"ĠtÃłi":8620,"huÃŃĠyÃ¬Ġ":8621,"1920ĠniÃ¡nĠ":8622,"1981ĠniÃ¡nĠ":8623,"ĠyÇĲĠzÃłiĠ":8624,"ĠyÄĽĠkÄĽĠyÇĲĠ":8625,"pÃºĠtÃ¡oĠyÃ¡Ġ":8626,"ĠkÃ¹Ġ":8627,"ĠĠĠrÃ©nĠ":8628,"siĠ":8629,"1964ĠniÃ¡nĠ":8630,"ĠzuÃ²ĠzhÃłnĠ":8631,"qÄ«ĠshÃŃĠ":8632,"zÇĴuĠxiÃłngĠ":8633,"ĠdiÃłoĠ":8634,"ĠyÇĲĠyÃºĠ":8635,"ĠchÃ©ngĠkÃ¨Ġ":8636,"sÅ«ĠgÃ©ĠlÃ¡nĠ":8637,"ĠzhÄĵn":8638,"guÃ²ĠleĠ":8639,"chÄĵĠduÃ¬Ġ":8640,"ĠÄĽrĠshÃ¬Ġ":8641,"ĠxiÇİoĠshÃŃĠ":8642,"ĠsÅ«nĠ":8643,"nÃ¡nĠdeĠ":8644,"hÃ¹ĠbÃ¹Ġ":8645,"ĠdÃ¬ĠtÃºĠ":8646,"ĠyuÃ¡nĠbÄĽn":8647,"ĠchÅ«ĠdÃłoĠ":8648,"yÃ¬nĠnÃŃĠ":8649,"Ġ2007":8650,"ĠsÃ¨Ġ":8651,"Ġ2021ĠniÃ¡nĠ":8652,"wÇĶĠshÃ¬Ġ":8653,"shÅįuĠdÃłoĠ":8654,"wÇİĠÄĽrĠshÄĽngĠ":8655,"gÇĶĠlÃ¬Ġ":8656,"guÇİnĠzhÃ¬Ġ":8657,"fÃ©iĠ":8658,"ĠgÅįngĠlÇĲĠdeĠ":8659,"xÃ¬nĠyÇİng":8660,"xÃºnĠzhÇİo":8661,"zhÇĶĠyÃ¬ĠzhÄĽĠ":8662,"Ġ24":8663,"ĠwÃ¨iĠyuÃ¡nĠ":8664,"guÃ²ĠdÃ¹Ġ":8665,"ÇĴuĠ":8666,"yÃ¡nĠrÃ©nĠ":8667,"luÃ²ĠchÃ©ngĠ":8668,"xiÇİnĠzhÃ¹Ġ":8669,"baĠ":8670,"tÅįuĠ":8671,"guÃ³ĠwÃ¹Ġ":8672,"shÇĲĠshÃłngĠ":8673,"guÇİngĠchÇİng":8674,"ĠshÃŃĠyÃłnĠshÃ¬Ġ":8675,"ĠsÄ«ĠlÃ¬ngĠbÃ¹Ġ":8676,"ĠkÇİi":8677,"shÇĲĠrÃ©nĠ":8678,"bÃ¬ĠdeĠ":8679,"mÃłiĠkÃ¨Ġ":8680,"ĠdÃ¬ĠliÃ¹Ġ":8681,"wÃłngĠyuÇİnĠ":8682,"ĠĠĠI":8683,"ĠĠĠyuÃ¨Ġ":8684,"xÄ«ĠdÃ¬Ġ":8685,"xiÅ«ĠdÃłoĠ":8686,"hÃºnĠ":8687,"ĠdÃłĠgÅįngĠ":8688,"ĠfÃ¹ĠjÃ¬nĠdeĠ":8689,"sÃ¬ĠdeĠ":8690,"cÃ©ngĠyÃºĠ":8691,"shÇĴuĠdÅ«":8692,"gÃ©ĠlÃŃĠ":8693,"shÃłoĠnÇļĠ":8694,"ĠzÃºĠ":8695,"ĠĠĠRe":8696,"ĠĠĠ2009":8697,"yÃºĠhÃ©Ġ":8698,"jiÄģngĠyÃºĠ":8699,"dÅįngĠjÄ«ng":8700,"zhuÄģnĠyÃ¨":8701,"ĠĠĠIn":8702,"dÃ¬ĠhÃ©Ġ":8703,"dÃ¹ĠhÃ©Ġ":8704,"yÃ¡nĠzhÃ¬Ġ":8705,"fÃłngĠzÃłiĠ":8706,"ĠjÃŃĠshÇĲĠ":8707,"jiÄģnĠyÃ¹Ġ":8708,"miÇİnĠfÃ¨iĠ":8709,"jiÇİoĠdÃ¹Ġ":8710,"zuÇĴĠyÃ¬Ġ":8711,"ĠchÃ©ngĠbÄĽnĠ":8712,"wÃ©iĠzhÇĶĠ":8713,"dÄĽngĠdÄĽngĠ":8714,"fÇİnĠhuÃŃ":8715,"ĠdÇİngĠ":8716,"1948ĠniÃ¡nĠ":8717,"bÃ¨iĠchÄĵngĠwÃ©iĠ":8718,"ĠxÃŃngĠdÃ²ng":8719,"cÇİiĠqÇĶ":8720,"guÇİnĠlÇĲĠjÃºĠ":8721,"zÄ«ĠbÄĽnĠ":8722,"tÃ¡iĠbÄĽiĠshÃ¬Ġ":8723,"1975ĠniÃ¡nĠ":8724,"ĠyuÃ¨ĠduÃ¬Ġ":8725,"ĠshÃ¨ĠyÃºĠ":8726,"ĠjÅ«nĠqÅ«Ġ":8727,"bÃ¬ĠmiÇİn":8728,"kÅįngĠjiÄģn":8729,"xÃŃngĠtÃłiĠ":8730,"ĠxiÃ¨":8731,"ĠĠĠdÄģngĠ":8732,"shÃ¨ĠbÃ¨iĠ":8733,"xiÄģngĠshÃ¬Ġ":8734,"kÇİĠsÄ«Ġ":8735,"cÇİiĠfÇİng":8736,"ĠxÃ¹Ġ":8737,"shÄģnĠxiÃłnĠ":8738,"ĠÃ©rĠfÄĵiĠ":8739,"gÇİiĠshÃłnĠ":8740,"fÃ¨iĠchÃºĠ":8741,"lÇĲĠlÃ¹n":8742,"xÄ«ĠbÄĽiĠ":8743,"zhÃ¨ngĠfÇĶĠdeĠ":8744,"ĠshÃ©n":8745,"Ġ35":8746,"ĠjuÃ©ĠdÃ¬ngĠ":8747,"shÃłngĠdÃ¬Ġ":8748,"dÇİoĠshÃłngĠ":8749,"ĠzÃłiĠhÃ©Ġ":8750,"ĠkÃ¨ĠÄĽrĠ":8751,"ĠfÃ¨ngĠ":8752,"cÇĲĠtÃ³ngĠshÃŃĠ":8753,"luÃ²ĠshÄģnĠjÄ«Ġ":8754,"Ġ2002ĠniÃ¡nĠ":8755,"ĠĠĠsÄ«Ġ":8756,"kÄģiĠgÅįngĠ":8757,"tÅįngĠzhÄ«Ġ":8758,"xiÄģngĠguÄģnĠdeĠ":8759,"bÅįĠlÃŃĠ":8760,"jiÃłĠshÇĲĠ":8761,"ĠyÇĴng":8762,"ĠfÄĵnĠbiÃ©Ġ":8763,"ĠcÃłi":8764,"jiÃ¹ĠyuÃ¡nĠ":8765,"ĠpÇĶ":8766,"ĠĠĠzhÃ¨ngĠ":8767,"cÃŃĠdeĠ":8768,"1952ĠniÃ¡nĠ":8769,"ĠdÃ¬ĠyÄ«ĠcÃ¬":8770,"7ĠrÃ©nĠ":8771,"hÃ©ĠzÃłiĠ":8772,"yÄĽĠhuÃ¬Ġ":8773,"ĠzhÄ«ĠshÃ¬Ġ":8774,"hÇİiĠÃłn":8775,"cÃŃĠzhÃŃĠ":8776,"hÄĽnĠkuÃłiĠ":8777,"shÃłngĠxiÃłnĠ":8778,"kÇĴuĠdeĠ":8779,"wÃ¡Ġ":8780,"ĠrÃ©nĠdÃłĠ":8781,"ĠyÃ¬ĠjiÃłnĠ":8782,"sÄ«ĠshÃ¬Ġ":8783,"ĠwÃ¨iĠzÃłiĠ":8784,"xÇĲĠhuÄģnĠ":8785,"Ġ60":8786,"ĠĠĠbÄģĠ":8787,"zhÄĵngĠyuÃ¨Ġ":8788,"stĠ":8789,"tÃ¬ĠdÃłiĠ":8790,"chÃ¹ĠzhÇİngĠ":8791,"chÅįngĠtÅ«":8792,"ĠmÃ¬Ġ":8793,"ĠkÇİiĠ":8794,"jiÇĶĠdeĠ":8795,"qiÃ¡ngĠzhÃ¬Ġ":8796,"ĠshÃŃĠxiÃłn":8797,"jiÄģnĠdÅ«Ġ":8798,"yÇĲngĠshÃ¬Ġ":8799,"tÃŃĠchÅ«ĠleĠ":8800,"wÃłiĠjiÄģoĠbÃ¹Ġ":8801,"ĠĠĠCh":8802,"xuÃ©ĠzhÅįngĠ":8803,"qiÃ¡ngĠdeĠ":8804,"huÃłiĠ":8805,"ĠgÃ¨ĠguÃ³Ġ":8806,"yÇĲnĠyÃ²ngĠ":8807,"mÃŃnĠzhÇĶĠdÇİng":8808,"ĠsuÅįĠ":8809,"shÄģnĠdÃ¬Ġ":8810,"jÇĲnĠyÇĴuĠ":8811,"jÃ¬ĠsuÃłn":8812,"fÄĵngĠfÃ¹Ġ":8813,"ĠzhÇĶĠyÇİnĠ":8814,"ĠfÇİ":8815,"ĠlÃ©i":8816,"nuÃ³ĠwÄĵi":8817,"ĠĠĠgÃ¹ĠshÃ¬Ġ":8818,"ĠsÄ«ĠmÇİĠ":8819,"ĠgÃ¨ĠzhÇĴng":8820,"ĠhÃłoĠxiÃłn":8821,"zĠ":8822,"zhÇİngĠguÄģnĠ":8823,"zÅįngĠjiÃło":8824,"xiÇİoĠxÃŃngĠxÄ«ng":8825,"ĠshÃŃĠhÃ²uĠ":8826,"mÃ²ĠxÄ«ĠgÄĵ":8827,"Ã©ĠguÃ³Ġ":8828,"ĠĠĠfÃ¹Ġ":8829,"ĠyÇĴuĠxiÄĵ":8830,"pÇĶĠbiÃłn":8831,"bÃ¹ĠdeĠcÅ«nĠzhuÄģngĠ":8832,"ĠĠĠyÇĲĠxiÃł":8833,"2ĠgÃ¨Ġ":8834,"Ġ26":8835,"ĠchuÄģnĠ":8836,"guÇİnĠdeĠ":8837,"zÃłnĠzhÃ¹Ġ":8838,"yÃ¬nĠshuÄģ":8839,"cÃ¹ĠjÃ¬nĠ":8840,"ĠyuÃ¨ĠlÃ¡iĠyuÃ¨Ġ":8841,"liÃºĠyÃ¹Ġ":8842,"ĠpÃłĠ":8843,"gÇĶĠlÇİo":8844,"mÇİĠlÃ¡iĠxÄ«ĠyÃł":8845,"ĠĠĠwÃ©iĠ":8846,"tÄģĠzÃłiĠ":8847,"jiÃłngĠyÇĶĠ":8848,"liÇİoĠjiÄĽĠ":8849,"jiÄģĠtÃŃngĠ":8850,"ĠzÃº":8851,"ĠcÇİiĠyÃ²ngĠ":8852,"fÃ¹ĠshÃ¬Ġ":8853,"liÃ¨ĠchÅ«Ġ":8854,"ĠdeĠjÃ¹Ġ":8855,"ĠchÃ©ngĠxiÃłn":8856,"ĠzhÄ«ĠdÃ¬Ġ":8857,"jÄ«ngĠdiÇİnĠ":8858,"chÄĵĠxiÄģngĠ":8859,"ĠdÃłnĠbÃ¡iĠ":8860,"ÄģĠgÄĵnĠ":8861,"cÃ¨ĠliÃ¡ngĠ":8862,"ĠnÇĲ":8863,"tiÄģnĠhÃ²uĠ":8864,"yÇĶnĠshÃŃĠ":8865,"ĠxiÃłnĠshÃłngĠ":8866,"qiÃ¡ngĠdÃ¹Ġ":8867,"sÅ«ĠwÃ©iĠ":8868,"guÃłnĠjÅ«n":8869,"ĠbÃ¹ĠshÇİo":8870,"ĠzhÄ«ĠjiÄģĠ":8871,"cÄģnĠxuÇİnĠ":8872,"ĠkÃ¨ĠhÃ©Ġ":8873,"liÃ¨ĠrÃ¹Ġ":8874,"bÃ¬ĠmiÇİnĠ":8875,"Ġì":8876,"ĠxiÄģngĠdÄģng":8877,"tÃ³ngĠxÃ¬ngĠ":8878,"tÃŃngĠchÄĵĠ":8879,"zÇİoĠshÃłngĠ":8880,"1966ĠniÃ¡nĠ":8881,"zhÇĶĠtÃŃ":8882,"fÄģĠdÃ²ngĠjÄ«Ġ":8883,"sÄĵnĠlÃŃn":8884,"ĠfÃ¹ĠzÃ©ĠguÇİnĠxiÃ¡Ġ":8885,"ĠĠĠ4":8886,"ÃłoĠÄĽrĠ":8887,"lÄģĠdeĠ":8888,"mÃŃngĠdÄģnĠ":8889,"zhÃłnĠtÃ¡iĠ":8890,"VĠ":8891,"ĠkuÄģnĠ":8892,"guÃ³ĠshÃ¬Ġ":8893,"hÅ«ĠyÃ¹Ġ":8894,"kÃ²uĠ":8895,"ĠgÅįngĠyÃ¬ngĠ":8896,"jiÄģnĠrÃ¨nĠ":8897,"xuÇİnĠjÇĶĠzhÅįngĠ":8898,"ĠĠĠinĠĠĠ":8899,"ĠbÇİĠ":8900,"ĠyÄ«ĠzhÃŃĠ":8901,"guÄģnĠfÄģng":8902,"suÇĴĠyÇĴuĠdeĠ":8903,"jiÃłnĠzhÃ¹":8904,"dÄ«ĠqÃ¬Ġ":8905,"NĠ":8906,"cÃ¡iĠliÃło":8907,"ĠĠĠzÄĵngĠzÇĶĠ":8908,"6ĠrÃ©nĠ":8909,"ĠmÃ³":8910,"ĠkÇİoĠ":8911,"sÄģoĠ":8912,"nÃ¡nĠzi":8913,"bÃ³ĠlÃŃnĠ":8914,"jÇĲngĠgÃłoĠ":8915,"tÇĲĠyÃ¹ĠchÇİngĠ":8916,"ĠjiÄĵ":8917,"guÇİngĠzhÅįu":8918,"lÄģĠdÃ©Ġ":8919,"shÅ«ĠchÅ«Ġ":8920,"1937ĠniÃ¡nĠ":8921,"ĠgÅįngĠnÃ©ng":8922,"lÃ¡nĠxÄ«Ġ":8923,"dÃ¹nĠdeĠ":8924,"ĠbÃ¹ĠmÇİnĠ":8925,"ĠqiÃºĠdeĠ":8926,"yÇĲnĠrÃ¹Ġ":8927,"yÃŃnĠpÃ¡iĠ":8928,"yÃ¡oĠgÇĶn":8929,"liÃ¡nĠjiÄĵ":8930,"zhÃłoĠpiÄģnĠ":8931,"ĠÃ©rĠgÄģiĠdÃ¬ĠdeĠ":8932,"ĠyÃ¨":8933,"hÃ¡iĠzÃłiĠ":8934,"nuÃ³ĠwÄĵiĠ":8935,"ĠniÃ¡nĠqÄ«ngĠ":8936,"guÃ³ĠwÃ¡ngĠ":8937,"ĠyÇĶĠqÃŃĠ":8938,"qÄ«ĠzÇĲ":8939,"chuÃłngĠzuÃ²ĠdeĠ":8940,"Ġ29":8941,"ĠshÃ¹n":8942,"ĠĠĠtoĠĠĠ":8943,"xÃ¹ĠlÃ¬ĠyÃł":8944,"ÄģnĠzhuÄģngĠ":8945,"zÇİoĠqÄ«ĠdeĠ":8946,"shÃŃĠhÃ©Ġ":8947,"tÃºĠdeĠ":8948,"nÃ¹Ġ":8949,"yÅįuĠxiÃ¹":8950,"mÇĴuĠxiÄĵ":8951,"1946ĠniÃ¡nĠ":8952,"1974ĠniÃ¡nĠ":8953,"ĠjÃ¬ĠlÃ¹":8954,"ĠchÅ«ĠyÇİnĠ":8955,"zhÄ«ĠshÃŃĠ":8956,"qiÃºĠhuÃ¬Ġ":8957,"cÃ©ngĠdeĠ":8958,"ĠbÃ¨iĠÄĽr":8959,"zhÃłnĠdÃ¬Ġ":8960,"xiÃłĠzÃłiĠ":8961,"zÄģoĠyÃ¹Ġ":8962,"WindowsĠĠĠ":8963,"ĠwÃ¨iĠnÃ©ng":8964,"ĠjiÄģĠtÃŃng":8965,"xiÃłĠlÃ¡iĠ":8966,"shÄĵnĠqÇĲng":8967,"zhÃłnĠshÃŃĠ":8968,"ĠhÃ©ĠgÇĶĠ":8969,"ĠchÃ©ngĠleĠ":8970,"ĠyÇĲĠqiÃ¡nĠ":8971,"ĠjÃ¬ĠyÃ¬Ġ":8972,"ĠkÃ¨ĠlÃ¬Ġ":8973,"gÇĶĠlÄģĠ":8974,"fÄĵiĠxÃŃng":8975,"biÄģnĠyuÃ¡nĠ":8976,"mÃ²ĠÄĽrĠ":8977,"niÃ¡ngĠ":8978,"fÄģĠshÄĵngĠdeĠ":8979,"ĠxiÄģngĠtÃ³ngĠ":8980,"ĠyÇĲĠsÃ¨ĠliÃ¨Ġ":8981,"tÃ¨ĠlÃ¬Ġ":8982,"1954ĠniÃ¡nĠ":8983,"ĠshÃŃĠbÃłoĠ":8984,"xÄ«ngĠqÄ«":8985,"4ĠgÃ¨Ġ":8986,"ĠfÇĴu":8987,"qiÃ¡nĠhÃ²uĠ":8988,"shÄģnĠdÅįngĠshÄĽngĠ":8989,"ĠzhÄģoĠhÃ©Ġ":8990,"zÇĶĠdeĠ":8991,"zhÅįngĠyÄģngĠ":8992,"ĠduÃ¬ĠcÇĲĠ":8993,"ĠzhÇĲĠzÃłiĠ":8994,"ĠĠĠgÃłiĠyÃłoĠ":8995,"ĠsÃ²ng":8996,"Ġ2006":8997,"ĠĠĠfor":8998,"duÃ¬ĠyuÃ¡nĠ":8999,"sÄģnĠdÃłĠ":9000,"ĠdeĠzhÇĶĠyÃłoĠ":9001,"shÄ«ĠqÃ¹Ġ":9002,"tÃłiĠkÅįngĠ":9003,"ĠzÃ¬ĠyÃ³u":9004,"ĠqÇĲngĠ":9005,"Ġ2000ĠniÃ¡nĠ":9006,"ĠjÅ«nĠdÃ¬Ġ":9007,"ĠshÄĵngĠmÃŃngĠ":9008,"ĠwÃłi":9009,"zhÃłĠdÃłnĠ":9010,"yÃºĠĠĠ":9011,"wÇİngĠshÃłngĠ":9012,"tÇİĠÄĽrĠ":9013,"ĠdÃ¬ĠzhÃ¨nĠ":9014,"xiÃłĠjiÃłngĠ":9015,"ĠshÇĴuĠcÃ¬Ġ":9016,"lÇĲngĠdÇİoĠdeĠ":9017,"yÃ¡nĠjiÅ«ĠshÄĵngĠ":9018,"tÃ¨ĠÄĽrĠ":9019,"ĠxiÃłnĠyÇĴuĠ":9020,"ĠyuÃ¡nĠyÄ«n":9021,"Ġ000Ġ":9022,"wÅ«ĠsÄ«Ġ":9023,"hÇİoĠpÃŃngĠ":9024,"pÃ¹Ġ":9025,"zhÄģiĠ":9026,"ĠzhÅįngĠjiÄģnĠ":9027,"pÇĶĠchÃ¡Ġ":9028,"bÇİoĠdeĠ":9029,"duÅįĠcÃ¬":9030,"ĠcÃ¡i":9031,"ĠjÃŃĠbÃ¬ngĠ":9032,"tÃ³ngĠmÃŃngĠ":9033,"tÃ¨ĠyÇĴuĠ":9034,"biÄģnĠwÃ¨iĠ":9035,"bÃ³ĠjuÃ©Ġ":9036,"ĠwÄĵiĠliÃ¡nĠ":9037,"ĠCh":9038,"ĠguÇİnĠ":9039,"ĠxiÄģnĠhÃ²uĠ":9040,"mÇĲĠdeĠ":9041,"ĠxÃŃngĠbÃ¹Ġ":9042,"qÄ«nĠwÃ¡ngĠ":9043,"kuÃłiĠsÃ¹":9044,"cÃºnĠdeĠ":9045,"diÃłnĠshÃ¬ĠtÃ¡i":9046,"Ã©ĠluÃ³ĠsÄ«ĠdeĠ":9047,"ĠguÇİngĠdÅįngĠ":9048,"qÃŃngĠdeĠ":9049,"ĠshÃ¬ĠyÄ«ĠbÃ¹Ġ":9050,"ĠxÄ«nĠzÄĵngĠ":9051,"gÇİiĠzhÃ¬ĠwÃ¨iĠ":9052,"huÃŃĠguÄ«Ġ":9053,"ĠĠĠdÃ¬ĠyÄ«Ġ":9054,"gÇİngĠyuÃ¡nĠ":9055,"1955ĠniÃ¡nĠ":9056,"fÃ¨iĠyÃ¡nĠ":9057,"ĠtuÄ«Ġ":9058,"shÄ«ĠgÅįngĠ":9059,"fÄĽnĠsÄ«Ġ":9060,"zhuÃ¬Ġ":9061,"zhÇĲĠkÃ²ngĠ":9062,"mÃ¬ĠdeĠ":9063,"xÅ«nĠ":9064,"bÄĵngĠ":9065,"chÄĵĠliÃłng":9066,"zÃłnĠtÃŃngĠ":9067,"shÄĵnĠshÃ¬Ġ":9068,"dÃ¡ĠzhÅįuĠ":9069,"yÇĲngĠxiÃłngĠ":9070,"ĠĠĠdeĠĠĠ":9071,"zÃłiĠĠĠ":9072,"fÄģngĠmÇĲĠ":9073,"ĠzÃ¬ĠdÃ²ngĠ":9074,"ĠmÃ¡oĠ":9075,"ĠdeĠhuÃłĠ":9076,"dÃłĠqÅ«Ġ":9077,"shÄĽngĠjiÄĵĠrÇİngĠ":9078,"sÄģnĠrÃ©nĠ":9079,"sÄģnĠgÃ¨":9080,"tÃ¨ĠzhÄĵng":9081,"Ġ45":9082,"zhÄĽĠhÃ©Ġ":9083,"ĠjiÃ©ĠshÃ¹Ġ":9084,"ĠzuÃ¬ĠdÃłĠ":9085,"wÇĶĠgÃ¨Ġ":9086,"ĠzhÃ¨ĠyÃłngĠ":9087,"ĠjÃ¬nĠzhÇĲĠ":9088,"ruÃ¬ĠdiÇİnĠ":9089,"ĠmÃłiĠkÃ¨Ġ":9090,"Ġ25":9091,"ĠbÃ¹ĠyÄ«Ġ":9092,"ĠpÃŃngĠlÃ¹nĠ":9093,"jÃ¬ngĠnÃ¨iĠgÃ²ngĠyÇĴuĠ":9094,"lÃ¹ĠyÃ¬ĠsÄ«Ġ":9095,"sÃ¬ĠshÃ¬Ġ":9096,"tÃłiĠdeĠ":9097,"pÃ¨iĠbÃ¨iĠ":9098,"zhÇİnĠlÇİnĠ":9099,"ĠshuÇĲ":9100,"ĠĠĠjÄ«nĠ":9101,"yÃ³uĠxÃŃngĠ":9102,"ĠniÃ¡nĠlÃŃngĠ":9103,"ĠshÃ¨ĠhuÃ¬ĠzhÇĶĠyÃ¬Ġ":9104,"ĠguÅį":9105,"ĠshÃłnĠ":9106,"zhÄĽĠhuÃ¬Ġ":9107,"huÄģngĠ":9108,"ĠshÃ¬ĠyÄ«ĠkÄĵĠ":9109,"ĠshuÄģngĠfÄģngĠ":9110,"ĠzÃłiĠyÃ¬ĠqÇĲĠ":9111,"shÇĲĠyÃºĠ":9112,"lÄģĠhÃ©Ġ":9113,"huÃŃĠguÃ³Ġ":9114,"ĠbÃ¹ĠlÃ¡iĠ":9115,"ĠshÃŃĠxÃ¬ngĠ":9116,"ĠjÃ¬ĠzÇİi":9117,"xÄ«nĠwÃ©n":9118,"bÇİoĠluÃ³Ġ":9119,"jÃ¬ngĠzhÄĵng":9120,"Ġ200":9121,"dÄģngĠniÃ¡nĠ":9122,"ĠjÃŃĠhÃ²uĠ":9123,"lÇľĠsÃ¨Ġ":9124,"cÄģnĠshÃ¹Ġ":9125,"ĠjiÄģngĠsÅ«Ġ":9126,"wÃºĠxiÃłnĠdiÃłnĠshÃ¬Ġ":9127,"ĠchÇĶĠ":9128,"ĠkÄĽĠnÃ©ngĠ":9129,"shÃ¨ngĠchÅ«Ġ":9130,"ĠdÃ¬ĠzhÃ¬Ġ":9131,"ĠzhÃ¬ĠyÃŃĠ":9132,"ĠxÄ«ĠÄĽrĠ":9133,"fÃ¨iĠyÃ²ngĠ":9134,"yÃ¬ngĠjÃŃĠ":9135,"ĠbÃ¨iĠpÃ²Ġ":9136,"dÃ¹ĠshÇĲĠ":9137,"chÇİnĠshÄĵngĠleĠ":9138,"ĠĠĠ2019ĠniÃ¡nĠ":9139,"mÇİĠkÃ¨ĠsÄ«Ġ":9140,"kÅ«Ġ":9141,"ĠguÃ³ĠjiÄģĠduÃ¬Ġ":9142,"tiÄĽĠlÃ¹ĠchÄĵĠzhÃłnĠ":9143,"ĠdÃ²ngĠwÃ¹Ġ":9144,"ĠhÃºĠnÃ¡nĠ":9145,"ĠgÅįngĠqÇĲngĠ":9146,"ĠjiÄģĠzÃº":9147,"wÃ¡ngĠwÃ¨iĠ":9148,"tuÄ«ĠjiÃłnĠ":9149,"liÃ¡nĠrÃ¨nĠ":9150,"lÃ¨iĠxÃŃngĠdeĠ":9151,"sÇĲĠyÃºĠ":9152,"ĠtÄģĠcÃ©ngĠ":9153,"zhÇİngĠzÇĲĠ":9154,"bÄĽiĠfÄģngĠ":9155,"chuÃłngĠzÃłoĠ":9156,"ĠcÃ©ngĠrÃ¨n":9157,"ĠĠĠ3Ġ":9158,"zhuÅįĠ":9159,"ĠgÅįngĠgÃ²ng":9160,"ĠdÃłĠdÃło":9161,"fÃºĠluÃ³ĠlÇĲĠ":9162,"nÃ³ngĠcÅ«nĠ":9163,"ĠshÃ¬ĠzhÅįngĠhuÃ¡ĠrÃ©nĠmÃŃnĠgÃ²ngĠhÃ©ĠguÃ³Ġ":9164,"yÇĲngĠxiÇİngĠlÃ¬Ġ":9165,"ĠdeĠzuÃ²ĠbiÄģoĠwÃ¨iĠ":9166,"8ĠrÃ©nĠ":9167,"OĠ":9168,"ĠzhÃ²ng":9169,"Ġ27":9170,"10ĠniÃ¡nĠ":9171,"chÅįngĠjÄ«Ġ":9172,"sectionĠĠĠ":9173,"ĠshÃ¬ĠhuÃ¬Ġ":9174,"qÃºnĠdÇİo":9175,"ĠfÇĶĠ":9176,"Ġ2022ĠniÃ¡nĠ":9177,"sÄģnĠjÃŃĠ":9178,"yÄ«ngĠlÇĲĠ":9179,"ĠzÃłiĠxÄ«nĠ":9180,"tÃ¨ĠdiÇİnĠ":9181,"tiÄģnĠrÃ¡nĠ":9182,"ĠĠĠjiÄģĠtÃŃngĠ":9183,"ĠqiÅ«Ġ":9184,"lÇľĠdeĠ":9185,"ĠzÃłiĠtÄģĠdeĠ":9186,"chÅ«ĠqÄ«Ġ":9187,"fÃ¡ngĠwÅ«Ġ":9188,"shÃ¨ĠhuÃ¬":9189,"vĠ":9190,"jÃŃĠbÃ¹Ġ":9191,"shÄĵngĠzhÃ¬Ġ":9192,"fÃ¹ĠjÃ¬n":9193,"fÄģngĠxiÃłng":9194,"tÃ¨ĠlÄģĠ":9195,"qÄ«ngĠchÃ¡oĠ":9196,"jÃ¬ngĠnÃ¨i":9197,"gÃ¹ĠdÃ¬ngĠ":9198,"ĠshÄĽnĠ":9199,"ĠĠĠshÇĲĠyÃ²ngĠ":9200,"cÃ³ngĠwÃ¨iĠ":9201,"biÇİnĠ":9202,"ĠyÄ«ĠrÃ©nĠ":9203,"ĠdÃłoĠhÃ©Ġ":9204,"gÄģoĠdÃ¡Ġ":9205,"ĠnÇİi":9206,"ĠsectionĠĠĠ":9207,"xÄ«nĠshÃ¬Ġ":9208,"zhÅįngĠyÄģng":9209,"ĠshÃŃĠzhÃ¬Ġ":9210,"ĠdÃłoĠyÄ«Ġ":9211,"qÃ¬ĠxuÃ¡nĠ":9212,"gÃ¨ngĠduÅįĠdeĠ":9213,"bÄģnĠdeĠ":9214,"ĠÑ":9215,"xuÇİnĠchÅ«Ġ":9216,"zÃ²ngĠ":9217,"mÄģĠ":9218,"wÃ¡nĠzhÄĽngĠ":9219,"ĠtiÄĽĠ":9220,"yÃŃĠdÃłoĠ":9221,"shÄĵngĠjÄ«Ġ":9222,"guÄģnĠcÃ¨Ġ":9223,"ĠyÄĽĠbÃ¹Ġ":9224,"qÄ«ngĠshÃłoĠniÃ¡nĠ":9225,"1ĠgÃ¨Ġ":9226,"ĠxÇĶĠduÅį":9227,"lÃŃĠmÇĲĠ":9228,"ĠshÃ¬ĠjÃ¬ĠdeĠ":9229,"ĠyÇĴuĠdÃłĠ":9230,"Ġ2024":9231,"jiÄģĠgÅįngĠ":9232,"luÃ²ĠsÄ«Ġ":9233,"ĠshÃ¬ĠyÃ³u":9234,"fÃ¹ĠjÃ¬nĠdeĠ":9235,"mÄĽiĠguÃ³ĠrÃ©nĠ":9236,"ĠzhÇĲĠshÃ¬Ġ":9237,"zhÃłngĠfÅ«Ġ":9238,"xuÃ©ĠbÃ¹Ġ":9239,"ĠyÇĴuĠzhÃ¹Ġ":9240,"ĠÃłn":9241,"yÃ¬ĠbÃ¹Ġ":9242,"1947ĠniÃ¡nĠ":9243,"guÃ³ĠhuÃ¬Ġ":9244,"xÄ«ĠbÄĽiĠbÃ¹Ġ":9245,"ĠtÄģĠrÃ¨nĠwÃ©iĠ":9246,"mÃ¹ĠnÃŃĠ":9247,"qÇĶĠxiÄģo":9248,"ĠtÃ³ngĠpÃ¡iĠ":9249,"kuÃ²ĠzhÇİn":9250,"sÇĲĠxÃŃngĠ":9251,"qÃ¬ngĠzhÃ¹Ġ":9252,"tiÄĵĠ":9253,"ĠdeĠgÃ¹ĠshÃ¬Ġ":9254,"zhÃłnĠlÇĲng":9255,"ĠtÃ³ngĠyÃłngĠ":9256,"ĠĠĠgÄĵnĠjÃ¹Ġ2020ĠniÃ¡nĠmÄĽiĠguÃ³ĠrÃ©nĠkÇĴuĠpÇĶĠchÃ¡ĠdeĠshÃ¹ĠjÃ¹Ġ":9257,"zuÃ¬ĠwÃ¨iĠ":9258,"guÃ³ĠlÃ¬Ġ":9259,"nÃłĠcuÃ¬":9260,"huÃ¡ngĠsÃ¨Ġ":9261,"zÄĵngĠjiÄģĠleĠ":9262,"ĠdÄĵngĠ":9263,"bÃ¬ngĠwÃ¨iĠ":9264,"hÇİiĠshÃłngĠ":9265,"guÃ²ĠyÃºĠ":9266,"zhÃ³uĠ":9267,"fÄĵnĠpÃ¨iĠ":9268,"ĠSĠ":9269,"shÃłngĠhÇİiĠshÃ¬Ġ":9270,"ĠbÄģoĠhÃ¡nĠ":9271,"quÃ¡nĠdeĠ":9272,"zÇĴngĠhuÃ¬Ġ":9273,"huÃŃĠhÃ©Ġ":9274,"rÃ©ngĠzÃłiĠ":9275,"lÇİoĠshÄ«Ġ":9276,"1973ĠniÃ¡nĠ":9277,"ĠzÃłiĠtÄģĠ":9278,"ĠyÄ«ĠzhÃ¬Ġ":9279,"ĠchÅ«ĠfÄģĠ":9280,"sÃ¨ĠfÅ«Ġ":9281,"xiÄģngĠjÃ¬Ġ":9282,"dÄĽngĠdeĠ":9283,"sÃ¬ĠdÃłĠ":9284,"qiÃ¨ĠÄĽrĠ":9285,"1971ĠniÃ¡nĠ":9286,"jÄ«ngĠjÃ¬":9287,"liÃ¡nĠjiÃ©Ġ":9288,"fÃ¡ngĠwÃ¨iĠ":9289,"50Ġ":9290,"ĠkuÄģn":9291,"Ġ2003ĠniÃ¡nĠ":9292,"ĠlÃ¬ĠshÇĶĠ":9293,"ĠbÃ¬ngĠrÃ¹Ġ":9294,"bÄģnĠjiÇİngĠ":9295,"xÃ¬ngĠshÃ¬Ġ":9296,"duÃ¬ĠshÇĴuĠ":9297,"zhuÄģnĠmÃ©nĠ":9298,"ĠdeĠjÃ¬ĠlÃ¹Ġ":9299,"ĠkÃ¹":9300,"ĠjÃŃĠxÃŃngĠzhÃ¨ngĠ":9301,"ĠlÃ¬ĠziĠ":9302,"ĠyÄĽĠhuÃ¬Ġ":9303,"ĠÄģĠlÄģĠ":9304,"lÃ¡iĠzÃ¬ĠyÃºĠ":9305,"ÃłiĠdeĠ":9306,"shÃ²uĠquÃ¡nĠ":9307,"piÃłnĠdeĠ":9308,"100Ġ":9309,"1977ĠniÃ¡nĠ":9310,"9ĠrÃ©nĠ":9311,"ĠbÃ¡i":9312,"fÃºĠlÇĲĠ":9313,"jiÇİngĠshÃ¹Ġ":9314,"zhÃłoĠkÄģi":9315,"xiÃ©ĠdÃ¬ngĠ":9316,"Ġ000ĠrÃ©nĠ":9317,"wÄģĠ":9318,"yÄ«ĠxiÄĵĠ":9319,"ĠyÇĲĠzhÃ¬Ġ":9320,"zhÃŃĠyÃ¨":9321,"hÇİiĠbÃ¡ĠgÄģoĠ":9322,"ĠxiÄģngĠduÃ¬Ġ":9323,"cÄģnĠsÃłi":9324,"fÃłngĠqÃ¬":9325,"cÃºnĠzÃłiĠdeĠ":9326,"fÃ¹ĠjiÄģĠ":9327,"zhuÃłngĠjÄ«Ġ":9328,"ĠjiÃłnĠkÄģngĠ":9329,"hÃ©ĠwÃ¨iĠ":9330,"dÄģnĠyuÃ¡nĠ":9331,"shÄĽngĠdÃłoĠ":9332,"lÃ¡oĠgÅįngĠ":9333,"hantĠ":9334,"xÄ«ĠnÃ¡nĠbÃ¹Ġ":9335,"ĠkÃ¨ĠyÃ¹nĠ":9336,"mÇİĠlÄģĠ":9337,"gÇİiĠgÃ©":9338,"nÃ¡nĠjÃŃĠzhÅįuĠdeĠ":9339,"wÇĶĠqÃ¬":9340,"xiÄģoĠliÃłngĠ":9341,"lÃ¨iĠsÃ¬ĠdeĠ":9342,"Ġ9Ġ":9343,"ĠhantĠ":9344,"mÄĽiĠjÅ«nĠ":9345,"bÄģĠÄĽrĠ":9346,"chuÃłngĠxÄ«nĠ":9347,"tuÃ³Ġ":9348,"quÇİnĠ":9349,"qiÇİoĠ":9350,"ĠyÇĴuĠguÄģn":9351,"zhÃ¨ngĠxiÃ©Ġ":9352,"ĠtÄģĠduÃ¬Ġ":9353,"shÄģnĠmÃłiĠ":9354,"ĠsÃ¬ĠchuÄģnĠ":9355,"hÅįngĠzhÃłĠjÄ«Ġ":9356,"ĠĠĠrÃ¡nĠÃ©rĠ":9357,"chÃ¡ngĠjiÃłnĠ":9358,"chuÃ¡nĠzhÄ«Ġ":9359,"ĠzhÄ«ĠzhÃłnĠ":9360,"shÇĴuĠbÅįĠ":9361,"xÃ¬ngĠnÃ©ngĠ":9362,"yÄ«ngĠgÄģi":9363,"ĠxiÇİoĠshuÅįĠ":9364,"yÄ«ĠbÃ¹ĠfÃ¨n":9365,"fÄĵiĠzhÅįu":9366,"ĠxiÃłnĠzhÄ«ĠxiÃłnĠ":9367,"fÄģĠshÄĵngĠleĠ":9368,"shÇĶĠdeĠzhÃŃĠwÃ¹Ġ":9369,"ĠĠĠdÃłn":9370,"zhÃŃĠzhÃ¬Ġ":9371,"diÃłnĠdeĠ":9372,"yÃłoĠdeĠ":9373,"lÃ²uĠ":9374,"yÃ¡nĠzhÃ²ngĠdeĠ":9375,"shÄģĠsÇĲĠ":9376,"ĠlÃ¬ngĠwÃłi":9377,"lÇĲĠbÃ¹Ġ":9378,"mÃ¬ĠsÄ«Ġ":9379,"ĠjiÃłnĠshÃ¬Ġ":9380,"suÇĴĠshÇĶ":9381,"ĠchÄĵĠzhÃłn":9382,"tÃ³uĠbÃ¹Ġ":9383,"ĠyÃ³uĠcÇĲĠ":9384,"zÇĶĠzhÇĲĠ":9385,"ĠdÅįngĠjÄ«ngĠ":9386,"yÃ¹nĠdÃ²ngĠdeĠ":9387,"ĠqiÄģn":9388,"xÄ«ĠshÃ¬Ġ":9389,"jiÄģnĠshÃ¬Ġ":9390,"duÃ¬ĠwÇĶĠ":9391,"zhÇĶĠxÃŃ":9392,"bÄģngĠzhÃ¹":9393,"ĠdÅįu":9394,"jiÄģngĠtÄģĠ":9395,"nÃłĠdÃ©Ġ":9396,"nÃ¬Ġ":9397,"jiÃłngĠdÄ«":9398,"ĠshÃ¬ĠyÃ¬ĠdÃłĠlÃ¬Ġ":9399,"huÃ¬ĠyÇĲĠ":9400,"hÄĵiĠrÃ©nĠ":9401,"jÄ«ĠbÄĽnĠ":9402,"ĠzhÄ«ĠliÃºĠ":9403,"ĠshÃ¨ĠjÃ¬ĠdeĠ":9404,"shuÃłiĠlÇĲngĠ":9405,"tÇĶĠÄĽrĠqÃŃ":9406,"huÃ¬ĠshÃ¬ĠdÃ¬Ġ":9407,"huÃ¡nĠxÃŃngĠ":9408,"ĠzÃłiĠyÇĶĠ":9409,"ĠgÅįngĠlÃ¹":9410,"ĠdÃ©ĠdÃłoĠleĠ":9411,"Ġ40":9412,"bÃ¹ĠfÃ¨nĠ":9413,"nÃ¡ĠpÃ²Ġ":9414,"zhÄĽngĠgÃ¨":9415,"xiÄģngĠbÇĲĠ":9416,"cÄģnĠtÄ«ngĠ":9417,"ĠshÃ¬ĠyÄ«ĠzuÃ²Ġ":9418,"zhÅįuĠbiÄģnĠ":9419,"ĠshÃ¬ĠjiÃ¨ĠbÄĵiĠ":9420,"ĠmÇİĠlÃ¬Ġ":9421,"xiÃłĠxiÃ¡ĠyÇĲĠxiÃł":9422,"ĠxiÃłnĠjÄ«nĠ":9423,"hÃ¡ngĠtiÄģnĠ":9424,"WĠ":9425,"ĠlÇĲngĠ":9426,"ĠĠĠ3ĠyuÃ¨Ġ":9427,"shÃłngĠbÃ¹Ġ":9428,"zhÇİngĠdÃłĠ":9429,"luÃ³ĠdÃ©Ġ":9430,"ĠdÃłĠliÃłng":9431,"shuÄģngĠdÇİĠ":9432,"ĠguÄģnĠfÄģngĠ":9433,"ĠbÃło":9434,"zÃ¬ĠwÃ¨iĠ":9435,"enĠĠĠ":9436,"yÃŃĠchÇİn":9437,"yÃ¡nĠshÃŃĠ":9438,"ĠlÃ¬ĠyÃ²ng":9439,"ĠxÃŃngĠshÇĲĠ":9440,"gÃ©ĠÄĽrĠ":9441,"zÇĴngĠcÃ¡iĠ":9442,"ĠjÇĲĠ":9443,"ĠnÃ¡nĠziĠ":9444,"ĠshÄĵngĠzhÇİngĠyÃºĠ":9445,"ĠhuÃ¡nĠ":9446,"ĠqÃŃnĠ":9447,"ĠxÅ«ĠyÃłoĠ":9448,"zhÇĲĠdeĠ":9449,"seĠĠĠ":9450,"lÃłĠ":9451,"ĠgÅįngĠchÇĲ":9452,"ĠqiÃºĠhuÃ¬Ġ":9453,"chuÃ¡nĠmÃ©iĠ":9454,"ĠĠĠofĠĠĠtheĠĠĠ":9455,"hÇİiĠbÃ¡ĠgÄģoĠdÃ¹ĠwÃ¨iĠ":9456,"ĠĠĠ2018ĠniÃ¡nĠ":9457,"jÃ¬ĠzÃłiĠ":9458,"xÄ«nĠrÃ©nĠ":9459,"bÄĽnĠxiÃłnĠ":9460,"cÇĲĠshÃŃĠ":9461,"zhÄĽĠwÃ¨iĠ":9462,"nuÃ²ĠyÄ«Ġ":9463,"thĠ":9464,"ĠhÃ©ĠlÇĲĠ":9465,"ĠjÃŃĠlÃŃnĠ":9466,"xiÄģngĠtÃ³ngĠdeĠ":9467,"ĠzhÅįngĠguÃ³ĠguÃ³ĠmÃŃnĠ":9468,"ĠĠĠ2007":9469,"1962ĠniÃ¡nĠ":9470,"ĠzhÃ¨ĠshÇĴuĠ":9471,"guÄģngĠxÃ¹Ġ":9472,"wÇĶĠyuÃ¨Ġ":9473,"dÄģnĠyÄ«Ġ":9474,"biÃ©ĠdeĠ":9475,"yÃ³uĠtÃłiĠrÃ©nĠ":9476,"yÃłĠmÃ¹Ġ":9477,"ĠdeĠchÃ©ngĠzhÃ¨nĠ":9478,"ĠbÄģoĠ":9479,"ĠliÇİngĠgÃ¨Ġ":9480,"lÄģĠÄĽrĠ":9481,"xÃºnĠqiÃºĠ":9482,"ĠbÃ¹ĠÄĽrĠ":9483,"ĠxÃŃngĠxiÃłngĠ":9484,"ĠwÃ©iĠchÃŃĠ":9485,"yÇĲnĠzhÇĴngĠ":9486,"ĠlÃ¨iĠ":9487,"bÃºĠyÃłoĠ":9488,"shÄģngĠdeĠ":9489,"cÅįngĠ":9490,"ĠbÃ¹ĠdÃŃĠ":9491,"ĠyÃºĠlÃ¨iĠ":9492,"Ġp":9493,"ĠhÃ¡n":9494,"ĠĠĠ5ĠyuÃ¨Ġ":9495,"ĠzÃłiĠgÄģiĠ":9496,"ĠguÃ³ĠmÃŃn":9497,"yÃŃngĠyÃ¨Ġ":9498,"qiÄģnĠyuÄĵĠ":9499,"cÄģnĠyÃ¹ĠleĠ":9500,"ĠjiÄģngĠqÃŃĠ":9501,"wÄĽiĠfÃ¹ĠshÅ«ĠjÃ¬Ġ":9502,"wÇĶĠdÃ¬Ġ":9503,"sÄ«ĠlÃ¡nĠ":9504,"ĠkÃ¨ĠlÄģĠ":9505,"dÇĲĠkÃłngĠ":9506,"zhÃŃĠyuÃ¡nĠ":9507,"ĠyÄ«ĠliÃ¡oĠ":9508,"qiÄģnĠdÃ¬ngĠ":9509,"ĠjiÃłoĠyÃ¹":9510,"Ã©ĠwÃ¨iĠ":9511,"ĠhÃ©ĠjÃŃĠ":9512,"ĠyÄ«ĠcÃŃĠ":9513,"mÄĽiĠyuÃ¡nĠdeĠ":9514,"ĠqÃŃĠzhÅįngĠnÃ¡nĠxÃ¬ngĠ":9515,"ĠliÃºĠyÃ¹Ġ":9516,"jiÃłoĠyÃºĠ":9517,"gÄĵĠdeĠ":9518,"huÃ¡iĠyÃŃĠ":9519,"ĠwÃ¨iĠcÇĲĠ":9520,"ĠdÃ¬ĠmiÃłnĠ":9521,"ĠdÃ¬Ġ1Ġ":9522,"tÇĲĠyÃ¹":9523,"cÃ©ngĠshuÇĲĠyÃ¹Ġ":9524,"rÃ³ngĠnÃłĠ":9525,"ĠjiÃ©ĠgÃ²uĠ":9526,"gÇĶĠfÃ¨nĠyÇĴuĠxiÃłnĠgÅįngĠsÄ«Ġ":9527,"zhuÃłnĠdeĠxiÇİoĠxÃŃngĠxÄ«ngĠ":9528,"ĠhÃ²uĠqÄ«Ġ":9529,"ĠkÃ¨ĠlÃ¡iĠ":9530,"jiÄĵĠrÃ¨nĠ":9531,"zhÇĲĠdÃ¬ngĠ":9532,"xiÃłoĠyÃ¬ngĠ":9533,"ĠguÄģng":9534,"Ġ12Ġ":9535,"ĠĠĠpÃŃngĠjiÃłĠ":9536,"yÃ³uĠqÃŃĠ":9537,"liÃ¡ngĠshÃŃĠ":9538,"ĠshÃ¬ĠnÃ¨iĠ":9539,"yuÃ¨ĠnÃ¡nĠ":9540,"jÃ¬ngĠsÃłiĠ":9541,"ĠdeĠdÃ¬ĠÃ¨r":9542,"mÃ²ĠsÄ«ĠkÄĵĠ":9543,"yÃ³uĠrÃ©nĠgÅįngĠ":9544,"zhÇİngĠwÃ¨iĠ":9545,"gÄĵĠjÃ¹Ġ":9546,"ĠshÃ¬ĠxÄ«Ġ":9547,"ĠyÄ«ĠzhÄ«Ġ":9548,"ĠshÃ¨ĠjÄ«Ġ":9549,"ĠjiÃłnĠlÃ¬ĠleĠ":9550,"ĠhÃ¨":9551,"ĠwÅ«ĠkÃ¨ĠlÃ¡nĠ":9552,"ĠĠĠchÃºĠleĠ":9553,"chÃ¡oĠdeĠ":9554,"tuÄ«ĠchÅ«ĠdeĠ":9555,"ruÇİnĠtÇĲĠ":9556,"1938ĠniÃ¡nĠ":9557,"ĠniÃ¡nĠqiÃ¡nĠ":9558,"gÇİnĠlÇİn":9559,"tuÄ«ĠguÇİngĠ":9560,"ĠyÅįuĠ":9561,"mÃ©nĠdeĠ":9562,"ĠshÃŃĠyÃ²ngĠ":9563,"ĠlÇļ":9564,"zhÅįngĠxÄ«nĠ":9565,"ĠxÃ¬ĠtÇĴng":9566,"ĠsÃº":9567,"ĠzhuÄģnĠjÃŃĠ":9568,"shÃ¹ĠshÃ¬Ġ":9569,"ĠjiÃłnĠwÃ¨iĠ":9570,"bÄģĠlÄģĠ":9571,"ĠchÃ¡oĠxiÄģnĠ":9572,"ĠqÇĲng":9573,"ĠÄĽrĠdÃ©":9574,"shuÃ²ĠshÃ¬ĠxuÃ©ĠwÃ¨iĠ":9575,"yÃ¹nĠhÃ©Ġ":9576,"yÃ¡ngĠxiÃłnĠ":9577,"wÃ©iĠzhÇĲĠ":9578,"huÃ¡ĠshÃ¨ngĠdÃ¹n":9579,"Ġ11Ġ":9580,"zhÄ«ĠyuÃ¡nĠ":9581,"gÃ¨ĠdÃ¬Ġ":9582,"biÄģnĠhÃłoĠwÃ¨iĠ":9583,"ĠzhÃ¬ĠzÃło":9584,"ĠyÄ«ĠtiÃ¡oĠ":9585,"kÄģiĠzhÇİnĠ":9586,"fÇİĠtÃŃngĠ":9587,"ĠqiÃºĠchÇİngĠ":9588,"qÃºnĠtÇĲĠ":9589,"leĠyÄ«ĠxiÄĵĠ":9590,"ĠgÅįngĠchÃ©ngĠshÄ«Ġ":9591,"ĠtÅįngĠguÃ²":9592,"wÃ¹ĠzhÅįngĠ":9593,"mÃ©ngĠjÅ«nĠ":9594,"1939ĠniÃ¡nĠ":9595,"luÃ³ĠbÃ³ĠtÃ¨Ġ":9596,"zÇĴngĠjiÄģnĠ":9597,"ĠzÃłiĠdÃ¬ĠÃ¨rĠ":9598,"pÃŃngĠjÅ«nĠhÇİiĠbÃ¡ĠgÄģoĠdÃ¹ĠwÃ¨iĠ":9599,"ĠmÇİn":9600,"ĠchÃ©ngĠshÃ¬Ġ":9601,"ĠĠĠjÄ«ngĠjÃ¬Ġ":9602,"zhÃŃĠlÃ¬Ġ":9603,"ĠwÃ¨iĠmÃŃngĠ":9604,"ĠwÃ¨iĠyÃºĠzhÅįngĠhuÃ¡ĠrÃ©nĠmÃŃnĠgÃ²ngĠhÃ©ĠguÃ³Ġ":9605,"lÃŃĠziĠ":9606,"ĠrÃ©nĠmÃŃnĠbÃ¬Ġ":9607,"dÅ«ĠdÅ«Ġ":9608,"5ĠmÇĲĠ":9609,"1965ĠniÃ¡nĠ":9610,"ĠxÄ«ĠyÇĲnĠ":9611,"bÄĽnĠtÇĶĠ":9612,"jiÇİnĠdÄģnĠ":9613,"dÄĵngĠchÃ¡ngĠ":9614,"yÃ¡ngĠgÅįngĠ":9615,"1936ĠniÃ¡nĠ":9616,"ĠyÇĴuĠlÃ¬Ġ":9617,"ĠtÄģĠyÄĽ":9618,"ĠÃ©rĠgÄģiĠdÃ¬ĠdeĠpÃŃngĠjÅ«nĠhÇİiĠbÃ¡ĠgÄģoĠdÃ¹ĠwÃ¨iĠ":9619,"ĠwÅ«":9620,"ÄģĠÄĽr":9621,"qÇĲĠleĠ":9622,"shÄ«ĠrÃ©nĠ":9623,"fÄĵngĠdeĠ":9624,"nÃŃĠxÄ«ĠyÃłĠ":9625,"cÃ¹ĠjÃ¬n":9626,"hÇİnĠmÃ²":9627,"1959ĠniÃ¡nĠ":9628,"ĠzÃłiĠrÃ¬ĠbÄĽnĠ":9629,"gÅįngĠkÄģiĠ":9630,"lÃ¹ĠzhÃłnĠ":9631,"jiÄĵĠshÅįuĠ":9632,"ĠĠĠtiÄģnĠ":9633,"lÃ¬ĠzhÅįngĠ":9634,"zÃºĠqiÃºĠduÃ¬Ġ":9635,"2010ĠniÃ¡nĠmÄĽiĠguÃ³ĠrÃ©nĠkÇĴuĠpÇĶĠchÃ¡ĠdeĠshÃ¹ĠjÃ¹Ġ":9636,"jÄ«ĠshÃ¬Ġ":9637,"chÅ«ĠdÃłoĠ":9638,"yÇİnĠchÅ«":9639,"yÃ¬ngĠduÃ¬Ġ":9640,"xuÃ©ĠxÃŃ":9641,"ĠzhÄ«ĠqiÃ¡n":9642,"fÇİĠlÃ¡nĠ":9643,"yÇĲnĠzhÇĴngĠzÄģiĠpÃ©iĠ":9644,"ĠsÃł":9645,"ĠyÃºnĠnÃ¡nĠ":9646,"ĠdÃłĠqiÃ¡oĠ":9647,"miÃłnĠlÃŃnĠ":9648,"xÃºnĠhuÃ¡nĠ":9649,"huÃłnĠzhÄĽĠ":9650,"ĠwÃ¡nĠchÃ©ngĠ":9651,"chÅ«ĠrÃ¨nĠ":9652,"shuÅįĠshÃ¬Ġ":9653,"boĠ":9654,"ĠjÃŃĠshÇĲ":9655,"rÃ¹ĠqÄ«n":9656,"shÄĽngĠwÄĽiĠ":9657,"ĠxÄ«nĠzÄĵng":9658,"zhuÄģngĠjiÇİ":9659,"ĠzhÇĲĠchÅ«Ġ":9660,"shÄĽnĠchÃ¡Ġ":9661,"fÄĵiĠlÇľĠbÄ«n":9662,"kÇİĠluÃ³ĠlÃ¡iĠ":9663,"ĠpÃ¡iĠ":9664,"yuÃ¡nĠdÃ¬Ġ":9665,"liÃ¨ĠshÃ¬Ġ":9666,"shÄĵnĠshÃłngĠ":9667,"1967ĠniÃ¡nĠ":9668,"1935ĠniÃ¡nĠ":9669,"kmĠ":9670,"ĠzÃłiĠbÄĽiĠ":9671,"wÃ©iĠÄĽr":9672,"ĠxÄ«ĠxÄ«Ġ":9673,"hÄĽnĠduÅį":9674,"pÇĲĠ":9675,"zhÄĽngĠhÃ©Ġ":9676,"jÄ«ĠbÇİiĠ":9677,"ĠjÄ«ĠyÄ«nĠ":9678,"dÃ²ngĠhuÃł":9679,"zhÇİngĠyuÄĵĠ":9680,"suÇĴĠchÃ¹ĠdeĠhÇİiĠbÃ¡ĠwÃ¨iĠgÄģoĠyÃºĠhÇİiĠpÃŃngĠmiÃłnĠ":9681,"nÃłĠxiÄĵĠ":9682,"chuÃ¡nĠbÅį":9683,"gÇİngĠkÇĴuĠ":9684,"zhÇİnĠkÄģi":9685,"yÃ³uĠrÃ©nĠgÅįngĠyÇĲnĠzhÇĴngĠzÄģiĠpÃ©iĠ":9686,"ĠzhÄĽngĠ":9687,"ĠshÃ¨nĠ":9688,"qÃŃngĠxÃŃngĠ":9689,"tÅįngĠxÃ¹nĠ":9690,"qÃŃngĠxÃ¹Ġ":9691,"yÇĴngĠjiÇĶĠ":9692,"rÃ¨ĠdÃłiĠfÄĵngĠbÃłoĠ":9693,"ĠpÃłiĠ":9694,"ĠxÇĶĠ":9695,"tÄģiĠ":9696,"jÅ«ĠmÃŃnĠdiÇİnĠ":9697,"jÃ¬ĠjÃŃĠ":9698,"cÃ¬ĠwÃ¨iĠ":9699,"ĠzhÄ«ĠfÇĶĠ":9700,"ĠshÃ¨ĠhuÃ¬":9701,"ĠhÃłnĠzÃºĠ":9702,"ĠĠĠ2017ĠniÃ¡nĠ":9703,"yÇĶĠshÃ¬Ġ":9704,"dÃ²ngĠgÅįngĠ":9705,"lÇĶĠkÃ¨Ġ":9706,"ĠbÃ¹ĠjiÄģĠ":9707,"ĠyÇĲĠshÃłngĠdeĠ":9708,"ĠyÇĶĠcÇĲĠtÃ³ngĠshÃŃĠ":9709,"mÇĲĠyÃłĠ":9710,"ĠzhÇĶĠchÃŃĠ":9711,"ĠsuÃŃĠzhe":9712,"fÄĵnĠbiÃ©ĠwÃ¨iĠ":9713,"xÄ«nĠjiÄģĠpÅįĠ":9714,"ĠtuÃ¡nĠ":9715,"ĠÅįuĠzhÅįuĠ":9716,"sÃ¬ĠmÃŃngĠ":9717,"bÄ«ngĠbÃ¹Ġ":9718,"ĠdeĠyÄ«ĠxiÄĵĠ":9719,"dÇĲĠdÃ¡":9720,"ĠsÅ«ĠliÃ¡nĠ":9721,"liÇİoĠjiÄĽ":9722,"zhÇĲĠyÃºĠ":9723,"guÃłiĠ":9724,"gÇĴngĠ":9725,"zÇĶĠchÃ©ng":9726,"gÃłoĠsÃ¹Ġ":9727,"fÄģĠzhÇİnĠdeĠ":9728,"yÇĲĠhÃ²uĠ":9729,"duÃ¬ĠhÃ©Ġ":9730,"gÃ©ĠlÃ¬Ġ":9731,"dÄĵngĠjÃ¬Ġ":9732,"ĠsÄ«ĠkÇİĠ":9733,"jÃ¹ĠqÃŃngĠ":9734,"ĠwÃ©iĠyÃłĠ":9735,"ĠzhÅįngĠguÃ³ĠdÃłĠlÃ¹ĠdeĠ":9736,"xiÃłĠxiÃ¡ĠyÇĲĠxiÃłĠdÃ¬ĠqÅ«Ġ":9737,"ĠĠĠjÃ¬Ġ":9738,"chÅ«ĠshÄĵngĠ":9739,"liÃºĠdeĠ":9740,"yÇİnĠshÄĵngĠ":9741,"dÃłĠshÇĲĠ":9742,"ĠxÄ«ĠÄģnĠ":9743,"fÄĵiĠfÇİĠ":9744,"cÃ¨ĠliÃ¡ng":9745,"ĠjiÃłoĠshÃ²uĠ":9746,"chuÃłngĠbÃłnĠ":9747,"bÃ¡iĠzhÃ¬Ġ":9748,"ĠzhÃ¬ĠliÃ¡o":9749,"shÇĴuĠxÃŃĠ":9750,"jiÃ¨ĠshÃło":9751,"zhuÃłngĠkuÃłng":9752,"ĠbÃ¬ĠyÃ¨ĠyÃºĠ":9753,"ĠÃłoĠdÃłĠlÃ¬Ġ":9754,"xÃºnĠyÃ¡ngĠjiÃłnĠ":9755,"fÄĵnĠzhÄ«ĠyÄ«Ġ":9756,"wÃ©nĠhuÃłĠdeĠ":9757,"guÄ«ĠfÃłnĠ":9758,"ĠĠĠ2016ĠniÃ¡nĠ":9759,"kÅįngĠjÅ«n":9760,"shÃ¹nĠshÃŃĠ":9761,"1963ĠniÃ¡nĠ":9762,"ĠbÃ¹ĠbiÃłnĠ":9763,"ĠchÅ«ĠxÃŃĠ":9764,"tÃºĠxiÃłngĠ":9765,"wÄĵiĠxiÇİnĠ":9766,"ĠzhÃ¨ĠbÃ¹Ġ":9767,"ĠniÃ¡nĠ7ĠyuÃ¨Ġ1ĠrÃ¬Ġ":9768,"wÃ¨nĠtÃŃĠdeĠ":9769,"ĠjÃ¬nĠshÃ¬ĠchÅ«ĠshÄĵnĠ":9770,"mÄģoĠ":9771,"ĠzhÃ¬ĠshÇİo":9772,"ĠxiÃłnĠrÃ¹Ġ":9773,"nÃ¡nĠfÄģngĠ":9774,"ĠbÃ¨iĠqÃŃĠ":9775,"ĠqÃŃĠzhÅįngĠnÃ¡nĠ":9776,"mÃ¡oĠzÃ©ĠdÅįngĠ":9777,"ĠtÄģng":9778,"ĠgÃłiĠ":9779,"ziĠhÃ©Ġ":9780,"dÃ¡ĠÄĽrĠ":9781,"lÇĶĠshÃ¬Ġ":9782,"ĠbÃ¹ĠzhÃ¬Ġ":9783,"ĠdÃ¬ĠsÄ«Ġ":9784,"zÄ«ĠshÄĽngĠ":9785,"pÃŃnĠlÇľĠ":9786,"Ġãĥ¼":9787,"ĠĠĠ10ĠyuÃ¨Ġ":9788,"yÃ¹ĠjÃ¬Ġ":9789,"hÇİnĠ":9790,"ĠzhÅįngĠzuÃ¬Ġ":9791,"ĠjÃ¬ĠniÃłn":9792,"pÃłnĠjuÃ©Ġ":9793,"gÃ²ngĠchÇİnĠzhÇĶĠyÃ¬Ġ":9794,"ĠyÇĲĠsÃ¨ĠliÃ¨":9795,"ĠĠĠbÄĽiĠ":9796,"duÅįĠgÃ¨":9797,"qÇĶĠjiÄģĠ":9798,"liÇĶĠ":9799,"1953ĠniÃ¡nĠ":9800,"jÃºĠjÃºĠzhÇİngĠ":9801,"fĠ":9802,"fÃ¡nĠzhÃŃĠ":9803,"gÄģnĠsÃ¹Ġ":9804,"Ġ15Ġ":9805,"ĠdÄģnĠrÃ¨n":9806,"zÃ¬ĠxÃŃngĠchÄĵĠ":9807,"Ġ2005":9808,"miÃ¡oĠhuÃ¬Ġ":9809,"ĠyÄ«ĠmÃ©iĠ":9810,"fÄĵnĠlÃ¨i":9811,"ĠpÃŃngĠjiÃłĠ":9812,"duÅįĠyÃłngĠ":9813,"ĠnÃ¡nĠbÄĽiĠ":9814,"shÃłoĠjiÃłngĠ":9815,"fÄĵiĠlÃ¬Ġ":9816,"ĠsÄ«ĠxiÇİngĠ":9817,"yÃ¡nĠzhÃ²ng":9818,"dÄģngĠjÃºĠ":9819,"ĠshÃ¬ĠzhÅįngĠxÄ«nĠ":9820,"ĠĠĠlÃ¬ngĠwÃłiĠ":9821,"hÃ²uĠshÃ¬Ġ":9822,"zhÃ¹ĠdÃ¬Ġ":9823,"yÇĲnĠshÃŃĠ":9824,"ĠshÃ¬ĠwÅ«ĠkÃ¨ĠlÃ¡n":9825,"zhÇĶĠchÇİngĠ":9826,"ÃłnĠzhÃłoĠ":9827,"ĠgÅįngĠzuÃ²ĠshÃ¬Ġ":9828,"cÄģnĠmÃ³uĠzhÇİngĠ":9829,"xiÃłngĠxÄ«Ġ":9830,"Ã¨rĠzhÃłnĠ":9831,"1969ĠniÃ¡nĠ":9832,"ĠchÃ©ngĠshÃ¬ĠdeĠ":9833,"ĠzhÄ«ĠjÃ¬Ġ":9834,"ĠdÃłĠjiÄģĠ":9835,"ĠmÃŃngĠchÄĵng":9836,"ĠtÃ³ngĠyÄ«Ġ":9837,"jiÄģoĠhuÃłnĠ":9838,"gÇİiĠshÃłn":9839,"ĠhÃ©ĠbÃ¬ngĠwÃ¨iĠ":9840,"Ġ80":9841,"ĠchÅ«nĠ":9842,"yÇĶĠyÇĲĠ":9843,"zÃ©ĠyÇĴuĠ":9844,"luÃ²ĠdeĠ":9845,"lÃŃngĠdeĠ":9846,"kÄĵĠfÅ«":9847,"dÄģngĠxuÇİn":9848,"ĠgÅįngĠkÄģiĠsÃłiĠ":9849,"hÅįngĠzhÃłĠ":9850,"ĠjÇĲ":9851,"ĠĠĠzhÃ¹Ġ":9852,"ĠfÄĵnĠbiÃ©ĠwÃ¨iĠ":9853,"ĠY":9854,"zhÃ¨ĠbÃ¹Ġ":9855,"bÇİoĠzhÃ¨ngĠ":9856,"xuÄĵĠ":9857,"1941ĠniÃ¡nĠ":9858,"ĠyÃºĠdÃ¬Ġ":9859,"rÃ¹ĠxuÇİn":9860,"shÄģngĠwÃ¡ngĠ":9861,"biÄģnĠjÃ¬ngĠ":9862,"ÄģiĠnÃłĠ":9863,"cÃ¬ĠdÃłĠ":9864,"shÄĵnĠzhÃ¨n":9865,"chÅ«ĠshÄĵngĠyÃºĠ":9866,"suÃ¬ĠshÃŃĠ":9867,"ĠdÃ¬ĠguÃ³ĠdeĠ":9868,"bÇİoĠcÃºnĠ":9869,"bÃłoĠzhÇĲĠ":9870,"gÇİiĠbiÄģnĠ":9871,"guÇİngĠgÃło":9872,"zÄĵngĠqiÃ¡ngĠ":9873,"qÃºnĠdeĠ":9874,"ĠzÃłiĠjÄ«Ġ":9875,"ĠjiÃłnĠhÃ©Ġ":9876,"ĠRe":9877,"jÄ«ĠbÃ¹Ġ":9878,"zhÄ«ĠmÃŃngĠ":9879,"rÃ¹ĠdeĠ":9880,"guÃ³ĠnÃ¨iĠ":9881,"ĠgÅįngĠzhÃłnĠ":9882,"ĠyÇĲĠnÃ¡nĠ":9883,"xiÃłnĠfÇİĠ":9884,"zÇĲĠnÇļĠ":9885,"wÃºĠrÃ©nĠjÄ«Ġ":9886,"chuÃŃĠ":9887,"chuÃłnĠ":9888,"ĠxÃŃngĠchÃ©ngĠdeĠ":9889,"qÅ«ĠfÄĵnĠ":9890,"bÄģĠfÃ¡":9891,"bÃłnĠyÇİnĠ":9892,"Ġ1998ĠniÃ¡nĠ":9893,"cÇĲĠzhÄ«ĠwÃłiĠ":9894,"sÄ«ĠxiÇİngĠ":9895,"ĠdÃłĠshÄ«Ġ":9896,"ĠchÅ«ĠxiÃłnĠleĠ":9897,"miÃ¡oĠshÃ¹":9898,"ĠdeĠmÃŃngĠzÃ¬Ġ":9899,"wÃłiĠwÃ©iĠ":9900,"bÇİiĠniÃ¡nĠ":9901,"ceĠ":9902,"ĠdÃłnĠyÄ«nĠ":9903,"shÄģĠhÃłiĠ":9904,"ĠxiÃ¡Ġ":9905,"xiÃłĠdeĠyÃŃĠgÃ¨Ġ":9906,"huÃ²ĠshÃ¬Ġ":9907,"ĠdÃłĠzhÃ²ngĠ":9908,"shÃ²uĠhÃłiĠ":9909,"yÄ«ngĠguÃ³ĠdeĠ":9910,"ĠfÄĵnĠbiÃ©ĠshÃ¬Ġ":9911,"zhÇĲĠhuÄ«ĠguÄģnĠ":9912,"wÃ©nĠzhÅįngĠ":9913,"bÅįĠÄĽrĠ":9914,"ĠyuÃ¨ĠtÃ¡i":9915,"ĠnÃ¡nĠjÄ«ngĠ":9916,"bÃ¬ngĠmÃ©iĠyÇĴuĠ":9917,"jiÃłoĠyÃ¹ĠbÃ¹Ġ":9918,"ĠbÇĶĠ":9919,"ĠrÃ¨Ġ":9920,"gÃ²ngĠshÃŃĠ":9921,"ĠwÃ¨iĠyÃ³uĠ":9922,"fÇİĠlÃ¬ngĠ":9923,"miÃłnĠtÇĲĠ":9924,"cÃ¡iĠwÃ¹Ġ":9925,"yÃ¡nĠjiÅ«ĠyuÃłnĠ":9926,"bÃłnĠniÃ¡nĠ":9927,"ĠyuÃ¡nĠshÇĲĠ":9928,"ĠÄĽrĠzÃłiĠ":9929,"jÇĲngĠguÄģnĠ":9930,"ĠnÃ¨i":9931,"ĠniÇĶĠyuÄĵ":9932,"cÃ©ngĠshÃ¬Ġ":9933,"nuÃ²ĠsÄ«Ġ":9934,"1980ĠniÃ¡nĠdÃłiĠ":9935,"ĠdeĠxiÇİoĠ":9936,"ĠshÄĵngĠzhÇİngĠyÃºĠhÇİiĠbÃ¡":9937,"mÇİĠtÃ³uĠ":9938,"zhÇİnĠlÇİn":9939,"ĠgÇİiĠwÃ©iĠ":9940,"ĠĠĠ2006":9941,"shÃ¨ngĠdÃ¬Ġ":9942,"ĠdÃłoĠshÃ¬Ġ":9943,"ĠdÃłĠxÃŃng":9944,"jÄ«ngĠyÃŃng":9945,"ĠpiÃłnĠ":9946,"ĠyÃłnĠ":9947,"ĠpÃ©iĠ":9948,"ĠĠĠ16":9949,"gÄģoĠyuÃ¡nĠ":9950,"chÄĵngĠhÃłoĠ":9951,"tÃ¡oĠyuÃ¡nĠ":9952,"ĠzÃłiĠyÄ«ngĠguÃ³Ġ":9953,"hÃ²uĠlÃ¡iĠ":9954,"ĠzhÃ¨ĠyÃłngĠdeĠ":9955,"pÃłnĠluÃłnĠ":9956,"ĠpiÃłoĠ":9957,"ĠnÃŃngĠ":9958,"diÇİnĠwÃ¨iĠ":9959,"ĠwÃ¨iĠbÃ¨iĠ":9960,"ĠhÃ©ĠfÇİĠ":9961,"ĠyÃ¬Ġsi":9962,"ĠpÃŃngĠlÃ¹n":9963,"ĠshÃłngĠshÅ«Ġ":9964,"hÃ¡ngĠyÃ¨Ġ":9965,"ĠxÄ«nĠjiÄģĠ":9966,"Ġ1990":9967,"mÇİĠdeĠ":9968,"qÃŃngĠjiÃ©Ġ":9969,"ĠmÃ¹ĠqiÃ¡nĠshÃłngĠwÃ¨iĠ":9970,"Ġ2000":9971,"tÅ«ĠchÅ«Ġ":9972,"ĠdÃłoĠbÃ¹Ġ":9973,"pÃŃngĠmÃŃnĠ":9974,"guÄģnĠfÃ¨iĠyÃ¡nĠ":9975,"ĠmÇĲĠdeĠdÃ¬ĠqÅ«Ġ":9976,"ĠkÅįngĠ":9977,"ĠyÃ¬ĠmÃŃngĠ":9978,"ĠyÇĲĠshÃ¬Ġ":9979,"ĠzuÃ²ĠchÅ«":9980,"ĠxiÃłnĠdeĠyÃŃĠgÃ¨ĠfÄĵiĠjiÃłnĠzhÃ¬ĠdÃ¬ĠqÅ«Ġ":9981,"ÃłiĠguÃ³Ġ":9982,"shÃłngĠyÄ«Ġ":9983,"1961ĠniÃ¡nĠ":9984,"ĠyÃ¬ĠjÃŃĠ":9985,"tiÄģnĠhuÃ¡ngĠ":9986,"fÃ¡ngĠzhÇĲĠ":9987,"dÃ²uĠzhÄĵngĠ":9988,"wÃ¹ĠzhÇĴngĠdeĠ":9989,"ĠhÃ©ĠtÄģĠdeĠ":9990,"jÄ«ngĠguÃ²":9991,"jiÃłoĠshÃ²u":9992,"Ġ20Ġ":9993,"luÃ³ĠjÃŃĠ":9994,"hÃ³ngĠjÅ«nĠ":9995,"31Ġ":9996,"kÄģĠfÄĵiĠ":9997,"1957ĠniÃ¡nĠ":9998,"ĠyÇĶĠdÃłĠ":9999,"ĠrÃ¨nĠmÃ¬ng":10000,"sÄģiĠnÃłĠ":10001,"lÃ¡iĠsÄ«Ġ":10002,"hÇİoĠyÇĴuĠ":10003,"shÇĲĠyÃ²ngĠleĠ":10004,"ĠzhÅįngĠgÃ²ngĠzhÅįngĠyÄģng":10005,"miÃłnĠshÃ¬Ġ":10006,"tiÄģnĠjiÄģĠ":10007,"chÃ³uĠbÃ¨iĠ":10008,"zuÃ²ĠchÅ«":10009,"chÃ¡ngĠqÄ«":10010,"lÇĲngĠyÃ¹":10011,"yuÃ¡nĠzhÅįngĠ":10012,"ĠyuÃ¡nĠzÃ©Ġ":10013,"dÅįngĠnÃŃĠ":10014,"xiÇİngĠfÇİĠ":10015,"pÇĲnĠpÃ¡i":10016,"mÃ¬ngĠlÃ¬ng":10017,"nÃŃĠdeĠ":10018,"ĠzhÄ«ĠchÃ¹Ġ":10019,"dÃłiĠlÃ¡iĠ":10020,"ĠdÄģngĠxuÇİn":10021,"ĠmÃŃn":10022,"fÃºĠÄĽrĠ":10023,"dÃ¬ngĠzÃłiĠ":10024,"hÃ¡ngĠxiÃłnĠ":10025,"ĠjÄ«ĠdÅ«ĠjiÃłoĠ":10026,"ĠtÃ³ngĠrÃ¬Ġ":10027,"ĠxÃŃngĠzhÃ¨ngĠzhÃ¨nĠqÅ«Ġ":10028,"ĠyÃ¡oĠ":10029,"ĠĠĠ2021ĠniÃ¡nĠ":10030,"ĠdeĠlÇĲĠ":10031,"ĠdeĠxÄ«Ġ":10032,"ĠshÃ¬ĠnÃ¡nĠjÃŃĠzhÅįuĠdeĠ":10033,"ĠhÃ©ĠdÃło":10034,"ĠwÃ©i":10035,"ĠtÃºn":10036,"Ġ1999ĠniÃ¡nĠ":10037,"ĠĠĠsuÃŃĠ":10038,"hÄĵngĠ":10039,"ĠwÃ¨iĠqÃŃĠ":10040,"lÃ¬ĠyÃ²ngĠ":10041,"ĠshÃŃĠdÃłiĠdeĠ":10042,"ĠzuÃ²ĠbiÄģoĠwÃ¨iĠ":10043,"xÃ¬ngĠbiÃ©Ġ":10044,"chÃ¡ngĠjiÄģngĠ":10045,"1944ĠniÃ¡nĠ":10046,"ĠbÃ¹ĠdÃ©Ġ":10047,"qÃ¬ĠtÇĲĠ":10048,"chÇİnĠyÃ¨":10049,"ĠzuÃ¬ĠchÅ«":10050,"ĠdÃ¬ĠÃ¨rĠcÃ¬Ġ":10051,"ÃłoĠsÄ«ĠkÇİĠ":10052,"ĠchÄģo":10053,"ĠchÃ¹Ġ":10054,"ĠniÃºĠ":10055,"ĠĠĠzhÃłnĠ":10056,"huÃ¬ĠjÃŃĠ":10057,"zuÃ²ĠzhÅįngĠ":10058,"pÇĲnĠzhÃ¬Ġ":10059,"bÄ«nĠshÃ¬Ġ":10060,"ĠgÅįngĠjÄ«nĠ":10061,"shÄ«ĠbÃłi":10062,"fÃºĠhÃłoĠ":10063,"ĠĠĠzhÇĶĠyÃłoĠ":10064,"ĠĠĠTheĠĠĠ":10065,"gÄĵĠÄĽrĠ":10066,"chÄĵngĠwÃ©i":10067,"shÃ¨ĠhuÃ¬ĠzhÇĶĠyÃ¬Ġ":10068,"dÃłngĠÃłnĠ":10069,"yÃŃngĠdÃ©ĠleĠ":10070,"ĠĠĠÃ©r":10071,"ĠgÅįngĠzuÃ²ĠdeĠ":10072,"ĠyÇĶĠzhÃ²u":10073,"chÇİngĠjÇĲngĠ":10074,"ĠzhÃ¨ĠcÃ¬Ġ":10075,"ĠniÃ¡nĠ12ĠyuÃ¨Ġ31ĠrÃ¬Ġ":10076,"ĠfÄģ":10077,"zhÃłnĠzhÃ¬Ġ":10078,"zhÃłnĠjÃ¬Ġ":10079,"jiÄĵĠjÃ¬n":10080,"wÇĶĠmÃŃngĠ":10081,"chÇİngĠshÃłngĠ":10082,"dÇĲĠzhÃ¬Ġ":10083,"shÄģngĠdiÃłnĠ":10084,"xiÅ«ĠgÇİi":10085,"ĠcÃ©ngĠzÃłiĠ":10086,"ĠsÄģnĠshÃŃĠ":10087,"niÇİoĠlÃ¨iĠ":10088,"lÃ¨iĠsÃ¬ĠyÃºĠ":10089,"ĠzhÇĶ":10090,"ĠjiÇİoĠ":10091,"dÅįngĠxiÃłnĠ":10092,"ĠbÃ¹ĠÄĽr":10093,"ĠzhÃ¬ĠdÃ¬ngĠ":10094,"jÄ«ngĠjÃ¬ĠxuÃ©Ġ":10095,"ĠshÃ²uĠdÃłoĠ":10096,"ĠxiÃ³ngĠ":10097,"zhÅįngĠshÃ¬ĠjÃ¬Ġ":10098,"yÃ¹ĠdÃłoĠ":10099,"dÃ²ngĠyuÃ¡nĠ":10100,"kuÃ²ĠzhÄģngĠ":10101,"nÃłnĠmÃŃnĠ":10102,"ĠmÃŃngĠzÃ¬Ġ":10103,"jiÄĵĠchÃ¹":10104,"rÃ©nĠmÃŃnĠdÃłiĠbiÇİoĠdÃłĠhuÃ¬Ġ":10105,"ĠĠĠduÃ¬ĠyÃºĠ":10106,"fÄĵnĠchÃ©ngĠ":10107,"ĠjÄ«ĠxiÃ¨Ġ":10108,"jÃ¹ĠfÄĵngĠ":10109,"liÃ¨ĠrÃ¹":10110,"yÃ¡nĠjiÅ«ĠsuÇĴ":10111,"jiÄģngĠsÅ«ĠshÄĽngĠ":10112,"ĠnĠ":10113,"fÃºĠdÃ©Ġ":10114,"yÇĲnĠlÃ¬Ġ":10115,"ĠxiÃłnĠdÃłi":10116,"gÇİnĠrÇİn":10117,"jiÇİngĠdeĠ":10118,"ĠzhÅįngĠshÅ«Ġ":10119,"ĠtÄģĠshuÅįĠ":10120,"zhÃ²ngĠzhÃŃĠ":10121,"Ġ1ĠyuÃ¨Ġ":10122,"ĠxiÅįngĠ":10123,"hÃ²uĠxuÇİnĠrÃ©nĠ":10124,"yÃ¡nĠshÄĵnĠ":10125,"ĠdÃłnĠbÃ¹Ġ":10126,"ĠwÃ©iĠzhÇĲĠ":10127,"zhÅ«ĠlÃ³ngĠ":10128,"mÃ¹ĠsÄ«ĠlÃŃnĠ":10129,"Ġ23":10130,"Ġ36":10131,"ĠĠĠkÃ¨Ġ":10132,"fÄģngĠchÃ©ngĠ":10133,"chÄĵĠdÃłoĠ":10134,"sÅ«ĠlÇĲĠ":10135,"shÄĵngĠmÃŃngĠ":10136,"hÃłiĠÃ©":10137,"ĠtÃłiĠyÃ¡ngĠ":10138,"ĠX":10139,"ĠĠĠ6Ġ":10140,"zÅ«ĠjiÃ¨Ġ":10141,"guÄģĠ":10142,"ĠjiÄģĠjÃ¬ngĠ":10143,"zhÃ¹ĠcÃ¨Ġ":10144,"ĠyÃ³uĠyÇĴngĠ":10145,"dÄĽngĠzhÃŃĠ":10146,"bÄģnĠfÄģĠ":10147,"ĠbÃ¬ngĠqiÄĽĠzÃłiĠ":10148,"rÃ©nĠwÃ¨iĠ":10149,"duÃ¬ĠyÇĴuĠ":10150,"tÇĲĠxÃŃngĠ":10151,"chÃ¨nĠ":10152,"yÄĵĠsÅ«":10153,"1951ĠniÃ¡nĠ":10154,"ĠjÄ«ĠchÇĶĠ":10155,"ĠchÅ«ĠshÄĵnĠ":10156,"bÇİoĠcÃºn":10157,"gÃ¨ngĠduÅį":10158,"gÃ²ngĠhÃ©ĠguÃ³ĠdeĠ":10159,"ĠwÃ¨iĠfÃºĠqÃŃĠyÃºĠgÄģng":10160,"lÇİngĠdÃ©Ġ":10161,"nÃºĠ":10162,"ĠchÅ«ĠrÃ¹ĠkÇĴuĠ":10163,"yÃ¡nĠjiÅ«ĠyuÃ¡nĠ":10164,"xiÃ©ĠtiÃ¡o":10165,"ĠshÃ¬ĠdÃ¬ĠyÄ«Ġ":10166,"ĠhÃ¹":10167,"ĠJR":10168,"ÃłiĠdÃ©ĠhuÃ¡Ġ":10169,"xiÃłnĠshÃŃĠ":10170,"qÇĲĠdeĠ":10171,"bÄģnĠbÃ¹Ġ":10172,"hÃ¡ngĠzhÅįuĠ":10173,"jiÃłoĠzuÃ²Ġ":10174,"zÄ«ĠzhÃ¹Ġ":10175,"nÇļĠyÇİnĠyuÃ¡nĠ":10176,"lÇĲngĠxiÃ¹":10177,"kÇİoĠgÇĶĠ":10178,"miÃłnĠjÄ«ĠhÃ©Ġ":10179,"zuÃ¬ĠzÇİoĠdeĠ":10180,"guÄ«ĠmÃ³ĠdeĠ":10181,"ĠwÄĵn":10182,"shÇĲĠzhÅįngĠ":10183,"qÃ¬ĠhÃ©Ġ":10184,"chÄĵngĠzhÄ«ĠwÃ¨iĠ":10185,"pÃ¡iĠdÃ©ĠzhÇĶĠ":10186,"bÄ«ngĠlÃ¬Ġ":10187,"ĠjiÄģĠmÃ©ngĠ":10188,"fÄĵnĠqÅ«Ġ":10189,"tÅįngĠxÃ¬nĠ":10190,"huÇĴĠbÃłnĠ":10191,"chÃ¨ĠdÇĲĠ":10192,"jÇĲnĠbiÄģoĠsÃłi":10193,"5ĠgÃ¨Ġ":10194,"xÄ«ĠyuÃ¡nĠ":10195,"chÃ©ngĠzÃłiĠ":10196,"quÃ¡nĠxiÃłnĠ":10197,"bÃłiĠzhÃłnĠ":10198,"rÃ©ngĠyÇĴuĠ":10199,"ĠchÃ©ngĠxÃ¹":10200,"ĠjiÃłnĠyÇĴuĠ":10201,"shÇĴuĠduÃłnĠ":10202,"ĠĠĠ6":10203,"quÃ¡nĠqiÃº":10204,"ĠzhÅįngĠfÄģĠxiÃłnĠ":10205,"zÃºĠxiÃ©Ġ":10206,"miÇİnĠdiÄģnĠ":10207,"zÃºĠrÃ©nĠ":10208,"zÄģoĠshÃ²uĠ":10209,"shÇĴuĠfÇĶĠ":10210,"mÇİĠlÃ¡iĠ":10211,"ĠzhÅįngĠguÃ³ĠgÃ²ngĠchÇİnĠdÇİng":10212,"jiÄģngĠshÃ¬Ġ":10213,"jÃºĠyÃºĠ":10214,"esĠĠĠ":10215,"ĠhÃ©ĠlÃ¡n":10216,"ĠgÄģiĠdÃ¬ĠdeĠ":10217,"ĠgÅįngĠyuÃ¡nĠqiÃ¡nĠ":10218,"ĠdÃ¬ĠshÃŃĠyÄ«Ġ":10219,"ĠqiÅ«":10220,"ĠĠĠfÃºĠ":10221,"ĠĠĠ2015ĠniÃ¡nĠ":10222,"yÇĲĠshÃłngĠ":10223,"hÃłnĠyÇĶĠ":10224,"32Ġ":10225,"1930ĠniÃ¡nĠ":10226,"ĠwÃ¨iĠzhÅįngĠguÃ³Ġ":10227,"fÄĵnĠlÃŃĠ":10228,"ĠqiÃºĠyÃ¹nĠdÃ²ngĠyuÃ¡nĠ":10229,"ÃłiĠqÃŃngĠ":10230,"tuÃ¬ĠxiÅ«":10231,"ĠlÃ¬ngĠyÃ¬ĠfÄģngĠmiÃłnĠ":10232,"ĠbÃ¹ĠdÃ©ĠbÃ¹Ġ":10233,"ĠmÃ¹ĠqiÃ¡nĠshÃłngĠwÃ¨iĠyÃ³uĠrÃ©nĠgÅįngĠyÇĲnĠzhÇĴngĠzÄģiĠpÃ©iĠ":10234,"jiÄģnĠzhÃ¬Ġ":10235,"diĠ":10236,"huÃ¡ĠdÃłĠxuÃ©Ġ":10237,"jiÄģoĠchÄģĠ":10238,"cÃ¡iĠchÇİnĠ":10239,"wÃ¹ĠlÇĲĠxuÃ©Ġ":10240,"cĠĠĠ":10241,"ĠĠĠ4ĠyuÃ¨Ġ":10242,"fÄĵnĠwÃ¨iĠ":10243,"tÃ³uĠdeĠ":10244,"thĠĠĠ":10245,"1940ĠniÃ¡nĠ":10246,"ĠzhÃ¨ĠyÄĽĠshÃ¬Ġ":10247,"bÃłoĠzhÃł":10248,"gÇİnĠjuÃ©Ġ":10249,"ĠfÄĵnĠwÃ©iĠ":10250,"ĠtÃ²uĠguÃ²Ġ":10251,"dÃ¡ĠdeĠ":10252,"wÇİngĠdeĠ":10253,"mÃ³uĠshÄģĠ":10254,"ĠzÃłiĠgÅįngĠ":10255,"ĠjiÃłnĠzÃło":10256,"ĠyÄ«nĠdeĠ":10257,"dÇİoĠyÇİn":10258,"ĠxÄ«ĠbÄģnĠyÃ¡ĠyÇĶĠ":10259,"ÃłnĠzhÅįngĠ":10260,"yuÃ¡nĠshÃŃĠ":10261,"fÇİĠshÃ¬Ġ":10262,"jÄ«nĠrÃ¬Ġ":10263,"lÃŃnĠsÄ«Ġ":10264,"1931ĠniÃ¡nĠ":10265,"xuÃ©ĠshÄĵng":10266,"kÇİĠluÃ³ĠlÃ¡iĠnÃł":10267,"ĠyÄģoĠqiÃº":10268,"ĠjÃŃĠyÄ«Ġ":10269,"ĠchÅ«ĠyÄ«Ġ":10270,"ĠsuÃŃĠzheĠ":10271,"ĠrÃ¨nĠhÃ©Ġ":10272,"jÃ¬ĠyÃºĠ":10273,"tÃ¨ĠhÃ©Ġ":10274,"rÃłngĠtÄģĠ":10275,"ckĠ":10276,"IIĠ":10277,"zhÅįngĠbÃ¹Ġ":10278,"ĠdÃłĠyuÄĵ":10279,"shÄĵngĠtÃłiĠ":10280,"wÄĽiĠyuÃ¡nĠhuÃ¬ĠdeĠ":10281,"ĠwÃ©nĠhuÃł":10282,"ĠdÄģngĠxuÇİnĠ":10283,"ĠzhÃ¬ĠzuÃ²ĠrÃ©nĠ":10284,"xiÃłĠxiÃ¡ĠdeĠyÃŃĠgÃ¨ĠxiÄģngĠ":10285,"ĠÏ":10286,"Ġ2025":10287,"nÃ¡nĠsÄ«ĠlÄģĠ":10288,"tÃłiĠhÃ²uĠ":10289,"gÃłnĠxiÃłnĠ":10290,"ĠshÃ¬ĠnÃ¡nĠ":10291,"zÃºĠzÃ¬ĠzhÃ¬Ġ":10292,"ziĠgÅįngĠsÄ«Ġ":10293,"arĠ":10294,"ĠyuÃ¨ĠtuÃ¡n":10295,"ĠyÃ¬ĠdiÇİnĠ":10296,"duÃ¬ĠwÃłiĠ":10297,"ĠhuÃ¬ĠbÃ¨iĠ":10298,"yÃ¡nĠchÃ¡ng":10299,"qÇĲĠsÃ¹Ġ":10300,"zhÃ²ngĠdiÇİn":10301,"shuÇĲĠkÃ¹Ġ":10302,"ĠDĠ":10303,"ĠmÇİĠlÃ¡iĠxÄ«ĠyÃłĠ":10304,"ĠfÄĵng":10305,"Ġ34":10306,"tÃ¨ĠjÃŃĠ":10307,"hÃłnĠzÃ¬Ġ":10308,"taĠ":10309,"ĠshÃ¬ĠxiÄģngĠgÇİngĠ":10310,"shÄĵnĠzhÃ¨nĠ":10311,"tÃŃĠgÅįngĠdeĠ":10312,"xÃ¹ĠshÃ¹Ġ":10313,"ĠbiÇİoĠ":10314,"mÃ¹ĠshÃ¬Ġ":10315,"ĠzÃłiĠnÃ¡nĠ":10316,"ĠhÃ©ĠtÃ³ngĠ":10317,"shÃłngĠshÃ¹Ġ":10318,"wÇĶĠhÃłn":10319,"qiÄģnĠshÇĶ":10320,"ĠĠĠgÃ¨ĠrÃ©nĠshÄĵngĠhuÃ³Ġ":10321,"xĠĠĠ":10322,"ĠkÄģngĠxÄ«Ġ":10323,"jÃ¬nĠjÃŃĠ":10324,"fÃ¹ĠzhÃ¬Ġ":10325,"cÅ«Ġ":10326,"ĠshÃ¬ĠgÃ¨Ġ":10327,"dÃ¬ngĠqÄ«Ġ":10328,"sÄģnĠcÃ¬Ġ":10329,"gÇİiĠwÃ©i":10330,"ĠhÄģĠÄĽrĠ":10331,"ĠjÃ¬ĠsuÃłnĠjÄ«Ġ":10332,"Ġà¸":10333,"ĠĠĠ7ĠyuÃ¨Ġ":10334,"zhÃłnĠwÃ¨iĠ":10335,"rÃ¹ĠwÃ©iĠ":10336,"qÃ¬ĠrÃ©nĠ":10337,"xiÃ©ĠdÃłiĠ":10338,"wÃ²ĠÄĽrĠ":10339,"tÃłnĠsuÇĴĠ":10340,"codiceĠ":10341,"bÅįĠfÃłng":10342,"miÃ¡oĠshÃ¹ĠwÃ¨iĠ":10343,"ĠdÃ¹":10344,"ĠdÃŃ":10345,"ĠfÇİnĠduÃ¬Ġ":10346,"ĠĠĠdÅįngĠ":10347,"chĠ":10348,"fÃ¹ĠyÇĴuĠ":10349,"mÄĽiĠrÃ¬Ġ":10350,"xiÅ«ĠsÄ«Ġ":10351,"sÇİoĠ":10352,"ĠchÃ©ngĠbÇİoĠ":10353,"duÃ¬ĠxiÃłngĠ":10354,"ĠgÃ¨ĠzÃ¬Ġ":10355,"ĠdeĠjÄ«ĠhuÃ¬Ġ":10356,"ĠĠĠzhÃ¬ĠzuÃ²Ġ":10357,"shÄ«ĠhÃ©Ġ":10358,"rÄĽnĠ":10359,"bÄĵnĠ":10360,"ĠguÃ³ĠgÅįngĠ":10361,"ĠyuÃ¡nĠyÇĴuĠ":10362,"ĠgÃ¨ĠdÃłĠ":10363,"ĠkÃ¨ĠlÇĲĠsÄ«Ġ":10364,"dÃ²ngĠchÄĵĠ":10365,"tÃ¡iĠbÃ¬Ġ":10366,"zhÇĶĠchÃŃĠrÃ©nĠ":10367,"kĠĠĠ":10368,"shÃ¹ĠhÃ©Ġ":10369,"juÃ©ĠleĠ":10370,"erĠĠĠ":10371,"zhuÇİnĠwÃ©iĠ":10372,"edĠĠĠ":10373,"ĠbÃ¹ĠzhÃ¨ngĠ":10374,"ĠlÃ¬ĠkÃ¨Ġ":10375,"ĠgÅįngĠkÄģi":10376,"lÃ¹ĠshÃłngĠ":10377,"guÄ«ĠhuÃł":10378,"bÄģnĠcÃ¬Ġ":10379,"mÃ²ĠsÄ«ĠkÄĵ":10380,"fÅ«ĠfÃ¹Ġ":10381,"zhuÃłngĠbÃ¬ngĠdÃº":10382,"dÇĶĠ":10383,"1942ĠniÃ¡nĠ":10384,"mÃŃnĠjÃ¬nĠ":10385,"ĠĠĠ2020ĠniÃ¡nĠ":10386,"qÃŃĠshÃ¬Ġ":10387,"shÇĴuĠbÃ¹Ġ":10388,"nÃłĠsÄ«Ġ":10389,"hÃ¡ngĠzhÃłnĠ":10390,"1933ĠniÃ¡nĠ":10391,"xÃ¬ĠliÃ¨ĠdeĠ":10392,"jiÃłnĠzÃłoĠ":10393,"tÃ¡iĠwÄģnĠdeĠ":10394,"pÄ«ĠpÃŃng":10395,"Ġ90":10396,"ĠgÃ¹ĠshÃ¬Ġ":10397,"ÄģnĠrÃ©nĠ":10398,"ĠĠĠX":10399,"jÄ«ngĠdeĠ":10400,"1928ĠniÃ¡nĠ":10401,"ĠzhÅįngĠzhÇĲĠ":10402,"zhÃ¨ngĠquÃ¡nĠ":10403,"qÅ«ĠjiÄģnĠ":10404,"ĠĠĠxiÄģngĠgÇİngĠ":10405,"ĠchÃ©ngĠwÃ©iĠyÄ«Ġ":10406,"ĠyÇĴuĠyÄ«ĠxiÄĵĠ":10407,"kuÃ²ĠzhÇİnĠ":10408,"jiÃ¹ĠdÃºĠyÃºĠ":10409,"ĠcÇİiĠ":10410,"dÅįngĠdeĠ":10411,"ĠguÃ³ĠyÇĶĠ":10412,"bÄģĠnÃ¨n":10413,"ĠxiÄģngĠdÄģngĠ":10414,"fÃłnĠwÃ©i":10415,"ĠguÃ³ĠmÃŃnĠdÇİngĠ":10416,"ĠtÇİ":10417,"ĠĠĠ4Ġ":10418,"ĠĠĠ2014ĠniÃ¡nĠ":10419,"bÃ¨iĠshÃ¬Ġ":10420,"kÄĵĠÄĽrĠ":10421,"wÃºĠÄĽrĠ":10422,"ĠniÃ¡nĠniÃ¡nĠ":10423,"kÄģiĠmÃ¹Ġ":10424,"mÃŃnĠzhÇĶ":10425,"zhÃ¨ĠzhÇĴng":10426,"ĠzhÃłnĠlÇĲngĠ":10427,"tiÄģnĠtÃ¡ngĠ":10428,"yÃŃĠmÃŃn":10429,"cÃ¨ĠlÃ¼Ã¨Ġ":10430,"jiÇİngĠzuÃ¬ĠjiÄģĠ":10431,"dÃºĠtÃ¨ĠdeĠ":10432,"qiÃºĠduÃ¬":10433,"zuÇĴĠyÃ²u":10434,"ĠĠĠCo":10435,"ĠĠĠlÄģĠ":10436,"xiÃłnĠxiÃłngĠ":10437,"ĠhuÃ¬ĠshÃłngĠ":10438,"fÄĵngĠgÃ©":10439,"tÃ³ngĠyÃłng":10440,"ĠnÃłĠme":10441,"huÃ³ĠdÃ²ngĠdeĠ":10442,"ĠcÃŃ":10443,"ĠpÃŃ":10444,"yÃ¬nĠxiÃłngĠ":10445,"ĠmÃŃngĠxÄ«ngĠ":10446,"diÃłnĠchÄĵĠ":10447,"ĠqiÃ¡nĠlÃ³ngĠ":10448,"Ġ38":10449,"ĠgÅįngĠbÃ¹Ġ":10450,"ĠshÇİnĠxÄ«Ġ":10451,"ĠĠĠ2010ĠniÃ¡nĠ":10452,"shÅ«ĠshÃ¬Ġ":10453,"ĠzÃłiĠyuÃ¡nĠ":10454,"ĠdÃ¬Ġ2Ġ":10455,"ĠrÃ¬ĠqÄ«Ġ":10456,"nÃ¨iĠmÃ©ngĠgÇĶĠ":10457,"zhÃłoĠpiÄģn":10458,"xiÃ©ĠshÄģngĠ":10459,"ĠhuÄģ":10460,"Ġ55":10461,"ĠdÃ¬ĠbÄģĠ":10462,"ĠjÃŃĠyÇĲĠ":10463,"fÇĶĠzhÃ¹Ġ":10464,"lÇĲngĠxiÄģnĠ":10465,"ĠĠĠ8ĠyuÃ¨Ġ":10466,"ĠĠĠsuÄ«ĠrÃ¡nĠ":10467,"pÇĲnĠdeĠ":10468,"ĠzhÅįuĠrÃ©nĠ":10469,"ĠyÃ¡nĠjiÅ«Ġ":10470,"ĠlÃ¡oĠ":10471,"chuÄģnĠyuÃ¨Ġ":10472,"ĠqÃŃĠbÄ«ngĠ":10473,"jÃ¬nĠzhÇĲĠ":10474,"ĠlÃº":10475,"Ġ75":10476,"Ã¨ĠÄĽrĠ":10477,"lÃ¹ĠyÇĶĠ":10478,"duÅįĠmÃŃngĠ":10479,"jiÅ«Ġ":10480,"jÅ«ĠyÃºĠ":10481,"dÃłĠxuÃ©":10482,"ĠrÃ¬ĠyÃ¬Ġ":10483,"xÄ«ĠwÃłngĠ":10484,"shÄĵngĠmÃ¬ngĠ":10485,"yÃ³uĠtÃłiĠ":10486,"tÃ¨ĠqÅ«Ġ":10487,"ĠbÃ¬ngĠbiÇİoĠshÃ¬Ġ":10488,"zuÃ¬ĠduÅįĠdeĠ":10489,"ĠtÃ¨ĠbiÃ©Ġ":10490,"ĠÅįuĠyuÃ¡nĠ":10491,"jiÃłoĠkÄĵĠ":10492,"ĠhÃ©ĠliÃºĠyÃ¹Ġ":10493,"chÃ©ngĠshÃŃĠ":10494,"gÃ©ĠsÄ«Ġ":10495,"ĠshÃ¬ĠyuÃ¡nĠ":10496,"jÃ¹ĠdÃłĠdeĠ":10497,"bÇİoĠzhÃłng":10498,"jiÄĵĠwÃ¨iĠzhÄ«Ġ":10499,"ĠshÃ¬ĠyÃŃĠgÃ¨ĠwÃ¨iĠyÃºĠmÄĽiĠguÃ³Ġ":10500,"miÃłnĠjÄ«ĠhÃ©ĠrÃ©nĠkÇĴuĠ":10501,"20ĠniÃ¡nĠ":10502,"fÄģngĠwÃ¨iĠ":10503,"cÇĲĠshÃ¬Ġ":10504,"1943ĠniÃ¡nĠ":10505,"ĠtÄģĠjiÄģngĠ":10506,"zÇĴngĠjÄ«ngĠlÇĲĠ":10507,"kÇİĠlÄģĠ":10508,"ĠtÃ³ngĠshÃŃĠyÄĽĠ":10509,"mÃŃĠnÇĲĠ":10510,"ĠzhÃłnĠdÃ¬Ġ":10511,"cuÄ«ĠhuÇĲ":10512,"ĠnÃ³ngĠ":10513,"ĠdÅįuĠshÃ¬Ġ":10514,"xiÄģngĠdeĠ":10515,"jiÇİĠjÄ«Ġ":10516,"shÃłngĠxiÃłĠ":10517,"zhÃ¹ĠzhÃ¡i":10518,"fÄĵnĠlÃ¡nĠ":10519,"bÃłnĠyÇİn":10520,"tÃŃngĠkÃło":10521,"ĠĠĠmÃ¹ĠqiÃ¡nĠ":10522,"bÅįĠlÃ¬Ġ":10523,"30ĠniÃ¡nĠ":10524,"nÃºĠlÃ¬Ġ":10525,"ĠguÃ³ĠwÃ¡ng":10526,"ĠchÅ«ĠrÃ¨n":10527,"ĠjÅ«nĠguÄģnĠ":10528,"huÃ¡ngĠjÄ«n":10529,"ĠqÃŃĠzhÅįngĠyÇĴuĠ":10530,"ĠyÄ«nĠcÇĲĠzÃłiĠ":10531,"hÃ¡ngĠkÅįngĠgÅįngĠsÄ«Ġ":10532,"ĠgÄģiĠdÃ¬ĠdeĠmiÃłnĠjÄ«ĠhÃ©ĠrÃ©nĠkÇĴuĠ":10533,"ĠgÄģiĠdÃ¬ĠdeĠmiÃłnĠjÄ«ĠhÃ©ĠrÃ©nĠkÇĴuĠjiÄĵĠwÃ¨iĠzhÄ«Ġ":10534,"Ġma":10535,"ĠyuÇİnĠ":10536,"ĠcÃłiĠ":10537,"ĠĠĠ10":10538,"yuÃ¨ĠhÃ©Ġ":10539,"qÅ«ĠjÃŃĠ":10540,"biÄģnĠchÃ©ngĠ":10541,"chÃ¡iĠ":10542,"rÃ¹nĠ":10543,"biÄģnĠmÇİĠ":10544,"hÃłnĠlÃŃnĠ":10545,"ĠzhÃ¬ĠlÃ¬ĠyÃºĠ":10546,"ĠcÅ«nĠ":10547,"dÃłiĠbÇĶĠ":10548,"gÄģoĠdÄĽng":10549,"jiÃłnĠkÄģngĠ":10550,"yÃŃĠjÃ¬Ġ":10551,"zÃºĠyÇĲĠ":10552,"1912ĠniÃ¡nĠ":10553,"ĠshÃŃĠyuÃ¨Ġ":10554,"ĠyÄ«ĠtiÄģnĠ":10555,"hÃ¨ĠsÃ¨Ġ":10556,"ĠhuÃ¡i":10557,"fÃ¹ĠyÇĶĠ":10558,"bÇĲĠÄĽrĠ":10559,"dÄģnĠxÄ«nĠ":10560,"yÄ«ngĠjÅ«nĠ":10561,"guÃ³ĠfÃ¡ng":10562,"ĠchÅ«ĠxiÃłn":10563,"ĠjiÄģĠrÃ¹ĠleĠ":10564,"huÃ¬ĠyÃ¬ĠshÃłngĠ":10565,"cÃºnĠzÃłiĠyÃºĠ":10566,"ĠjÄ«ĠyÃºĠ":10567,"diÇİnĠxÃŃngĠdeĠ":10568,"tÃ¡ngĠdeĠ":10569,"biÄģoĠjÃ¬Ġ":10570,"ceĠĠĠ":10571,"ĠyÄ«ĠchÃ¡ngĠ":10572,"ĠdÃ©ĠlÃ¬Ġ":10573,"ĠdÃłiĠlÃ¡iĠ":10574,"ĠcÃ©ngĠjÄ«ngĠ":10575,"ĠmÃ¨ngĠ":10576,"jÃ¹ĠzhÅįngĠ":10577,"sÄģnĠwÃ¨iĠ":10578,"jiÃ¹ĠyÇĴuĠ":10579,"tÄ«ngĠdeĠ":10580,"zhuÃłngĠdeĠ":10581,"jÃ¬ĠxÃ¹":10582,"ĠkÃ¨ĠluÃ³Ġ":10583,"ĠjÃ¬nĠjÃŃĠ":10584,"gÄģoĠjiÃłĠ":10585,"ĠĠĠwÃ¨iĠleĠ":10586,"6ĠgÃ¨Ġ":10587,"Ġ22":10588,"Ġ2004":10589,"ĠMar":10590,"ÄģĠjÄ«Ġ":10591,"ĠĠĠ9ĠyuÃ¨Ġ":10592,"ĠĠĠ2012ĠniÃ¡nĠ":10593,"ĠĠĠ2013ĠniÃ¡nĠ":10594,"xÃ¬ĠjÅ«nĠ":10595,"mÃ¹ĠzhÃ¬Ġ":10596,"fÃºĠshÃ¨Ġ":10597,"ĠyÃ¬ĠwÃłiĠ":10598,"ĠdÃłĠguÄ«ĠmÃ³Ġ":10599,"chÇİnĠshÄĵng":10600,"shÄģngĠpÇĲnĠ":10601,"ĠzhÇĶĠchÃŃ":10602,"quÃ¨ĠbÇİoĠ":10603,"ruÃ¬ĠdiÇİn":10604,"chÃ¡ĠlÇĲĠ":10605,"bÅįĠchÅ«":10606,"1929ĠniÃ¡nĠ":10607,"ĠshÇĲĠyÃ²ng":10608,"ĠdeĠjÃ¬ĠhuÃłĠ":10609,"ĠguÃ³ĠmÃŃnĠdÇİng":10610,"jiÇİnĠlÃ¬Ġ":10611,"gÄĽiĠtÄģĠ":10612,"yÃŃĠzhÇĲ":10613,"mÃ©ngĠtÃ¨Ġ":10614,"duÇİnĠzÃłn":10615,"ĠguÃ³ĠmÃŃnĠzhÃ¨ngĠfÇĶĠ":10616,"ĠzhÇĶĠyÃłoĠshÃ¬Ġ":10617,"ĠshÃłoĠ":10618,"zÄĽnĠ":10619,"ĠhÃ©ĠlÃ¬Ġ":10620,"ĠshÃŃĠjiÄģnĠdeĠ":10621,"lÃ¹ĠxÃ¹Ġ":10622,"ĠxuÃ©ĠxÃŃ":10623,"juÃ©ĠsÃłiĠzhÅįngĠ":10624,"ĠfÄĵnĠbÃ¹ĠzÃłiĠ":10625,"hÄĵiĠlÃ³ngĠjiÄģngĠ":10626,"Ġ21":10627,"jiÄģĠshÃ¬Ġ":10628,"pÃŃngĠjÅ«n":10629,"qiÃ¡nĠzÃłiĠ":10630,"duÃłnĠshÃŃĠjiÄģnĠ":10631,"ĠyÇĲĠ1Ġ":10632,"ĠxÄ«ĠlÇĲĠ":10633,"fÄģĠhuÄ«":10634,"ĠwÃ©iĠqÃŃ":10635,"dÄģnĠdÇİĠ":10636,"ĠzhÇĶĠrÃ¨nĠ":10637,"Ġ70":10638,"ĠkÄĽĠnÃ©ng":10639,"ĠĠĠqÃŃĠzhÅįngĠ":10640,"diÃłoĠyÃºĠ":10641,"ĠchÅ«ĠshÃ²uĠ":10642,"fÄģĠyÃ¡nĠrÃ©nĠ":10643,"tÃŃngĠyÃ¹nĠ":10644,"ĠkÄĽnĠ":10645,"fÃºĠzhÅįuĠ":10646,"1927ĠniÃ¡nĠ":10647,"guÄģnĠcÃ¨":10648,"tÇİĠnÃŃ":10649,"chuÃłngĠshÇĲĠrÃ©nĠ":10650,"ĠkÄģiĠfÄģĠ":10651,"ĠhÃ¡oĠ":10652,"Ġ1997ĠniÃ¡nĠ":10653,"shÃ¹ĠrÃ©nĠ":10654,"xÃ¹ĠjÃŃĠ":10655,"juÃ©ĠyÃºĠ":10656,"chuÄģnĠguÃ²Ġ":10657,"fÃ¹ĠzhÇĶĠxÃŃĠ":10658,"ĠzhÅįuĠwÃ©iĠ":10659,"ĠzÇĴngĠtÇĴngĠ":10660,"ĠdeĠyuÃ¡nĠyÄ«nĠ":10661,"zhÅįngĠhÃ©Ġ":10662,"wÃ¹ĠyÇĶĠ":10663,"wÃ¡ngĠhÃ²uĠ":10664,"ĠzhÄ«ĠchÄĵngĠ":10665,"ĠdÃłnĠqÃŃĠ":10666,"qÃºnĠzhÃ²ngĠ":10667,"ĠshÃ¬ĠjiÃ¨ĠdeĠ":10668,"tÃłnĠxiÇİn":10669,"nÃŃĠyÃłĠdeĠ":10670,"ĠĠĠchÄĵĠzhÃłnĠjiÃ©ĠgÃ²uĠ":10671,"ĠjiÇİng":10672,"ĠqÃŃn":10673,"xÃŃngĠxiÃłngĠ":10674,"shÇĲĠdÃ¬Ġ":10675,"suÃłnĠfÇİĠ":10676,"shÃ¹ĠmÃ¹Ġ":10677,"ĠÃ©rĠlÃ¡iĠ":10678,"ĠfÃ¹ĠgÃłiĠ":10679,"quÃ¨ĠdÃ¬ng":10680,"gÃłoĠsÃ¹":10681,"ĠniÃ¡nĠdÃłiĠchÅ«Ġ":10682,"ĠĠĠp":10683,"ĠĠĠcÄģnĠkÇİoĠ":10684,"cÃ¬ĠjÄ«Ġ":10685,"1932ĠniÃ¡nĠ":10686,"yÇĴuĠguÄģnĠ":10687,"zhÃŃĠbÅįĠ":10688,"bÇİnĠbÄĽnĠdeĠ":10689,"chuÃłngĠzuÃ²":10690,"ĠchÃ©ngĠlÃ¬ĠleĠ":10691,"qÃ¹ĠshÃ¬ĠhÃ²uĠ":10692,"ÃłoĠdÃłĠlÃ¬ĠyÃł":10693,"ĠlÃ¡n":10694,"ĠĠĠDe":10695,"shÃ©nĠdeĠ":10696,"chÃ³ngĠfÃ¹Ġ":10697,"tuÄ«ĠxÃŃngĠ":10698,"duÇĴĠ":10699,"ĠshÃ¬ĠbÃ¨iĠ":10700,"ĠdÃłoĠzhÅįngĠ":10701,"hÇİiĠyÃ¡ng":10702,"yÄ«ngĠchÇĲĠ":10703,"lÇĲngĠyÃ¹ĠdeĠ":10704,"ĠdeĠdÃ¬ĠyÃŃĠgÃ¨Ġ":10705,"shÄ«ĠdÃ¬Ġ":10706,"zhÇİnĠxiÃłnĠ":10707,"sonĠ":10708,"ĠyÄ«nĠyuÃ¡nĠ":10709,"ĠyÄ«nĠqÃŃĠ":10710,"fÃºĠhuÃłĠ":10711,"jÃ¬ngĠnÃ¨iĠdeĠ":10712,"gÄĵĠcÃŃĠ":10713,"ĠliÃ¡nĠjiÄĵĠ":10714,"ĠlÃ¹ĠyÃ¬Ġ":10715,"ĠdÄĵng":10716,"Ġ46":10717,"ĠĠĠ8":10718,"yÃ¹ĠbÃ¨iĠ":10719,"liÃ¨ĠsÄ«Ġ":10720,"dÅ«ĠhuÃ¬Ġ":10721,"xÄ«ĠyÃłĠ":10722,"zuÃ¬ĠzÇİoĠ":10723,"wÇĶĠdÇİoĠ":10724,"jÃ¬ngĠwÃłiĠ":10725,"ĠzÇĲĠ":10726,"ĠĠĠ6ĠyuÃ¨Ġ":10727,"duÅįĠyuÃ¡nĠ":10728,"zhÄĽĠrÃ¨nĠwÃ©iĠ":10729,"sÃ²ngĠdÃłoĠ":10730,"ĠdÃłĠqiÃ¡o":10731,"ĠtÄģĠhÃ¡i":10732,"zhÃ¹ĠzhÃ¡iĠ":10733,"Ã©ĠhÃłiĠÃ©":10734,"ĠliÃ¡nĠmÃ©ngĠ":10735,"guÃ³ĠjiÄģĠduÃ¬Ġ":10736,"zhÃ¨ĠjiÄģngĠshÄĽngĠ":10737,"ĠxuÃ¡nĠ":10738,"zhÄ«ĠdÃłoĠ":10739,"xiÇİngĠdeĠ":10740,"ĠxÃŃngĠyÃºĠ":10741,"ĠyÇĲĠlÃ¡i":10742,"ĠshÄĵngĠchÄĵngĠ":10743,"shÄĵnĠwÃ¡ngĠ":10744,"mÃ¬ĠqiÃ¨":10745,"fÇİnĠduÃ¬":10746,"tÃłnĠcÃ¨Ġ":10747,"ÄģnĠshÃ¬Ġ":10748,"duÄģnĠdeĠ":10749,"ĠdÃ¬ĠzhÅįngĠ":10750,"ĠrÃ©nĠcÃ¬Ġ":10751,"ĠjÃŃĠÄĽrĠ":10752,"jÄ«ngĠyÃ³uĠ":10753,"ĠsÇĲĠ":10754,"jÇĲĠhÃ©Ġ":10755,"1934ĠniÃ¡nĠ":10756,"ĠyÄ«ĠtÃ³ng":10757,"cÃ¡iĠzhÃ¨ng":10758,"fÃ¡ngĠjiÄģnĠ":10759,"mÇİnĠzÃº":10760,"Ġ150":10761,"ĠdÃ²uĠ":10762,"jÃ¬nĠxÃŃngĠdeĠ":10763,"ĠÄĽrĠyÇĶĠ":10764,"tuÃ¡nĠzhÇİngĠ":10765,"pÃ¡iĠhÃ¡ngĠbÇİng":10766,"ĠpÃ©ngĠ":10767,"hÃ²uĠbÃ¹ĠjiÇĶĠ":10768,"chÅ«ĠzhÃłnĠ":10769,"fÃ¹ĠbÃ¹ĠzhÇİngĠ":10770,"ĠlÃ¬ĠshÇĶ":10771,"lÄģĠtÃ¨Ġ":10772,"bÄģĠlÃ¨":10773,"qiÃ¡ngĠdÃłĠdeĠ":10774,"ĠzÄĵngĠ":10775,"ĠyÄ«ĠwÃ¨iĠ":10776,"wÇİngĠqiÃº":10777,"kuÃ²ĠjiÃłnĠ":10778,"chÃ©ngĠjÃ¬Ġ":10779,"ĠjÃŃĠsÄ«Ġ":10780,"ĠrÃ¬ĠhÃ²uĠ":10781,"ĠjiÄģĠsÄ«Ġ":10782,"ĠbÃ¬ngĠyÇĴuĠ":10783,"chÇİngĠbÇĲĠsÃłiĠ":10784,"ĠyÇİ":10785,"ĠĠĠxiÄģngĠ":10786,"zhÃłnĠzÃłiĠ":10787,"ĠhÃ©ĠdÅįngĠ":10788,"yÄ«ĠlÃ¬Ġ":10789,"kÄĵĠfÅ«Ġ":10790,"tÃ³uĠxiÃ¡nĠ":10791,"ĠshÇĴuĠcÃ¬":10792,"ĠMĠ":10793,"ĠĠĠgÄĵnĠjÃ¹":10794,"chĠĠĠ":10795,"ĠxuÃ©ĠhuÃ¬Ġ":10796,"ĠĠĠcÇĲ":10797,"ĠĠĠ2011ĠniÃ¡nĠ":10798,"qÄ«ĠshÃ¬Ġ":10799,"fÄĵnĠdeĠ":10800,"shuÅįĠdeĠ":10801,"zhÄĵnĠzhÃ¨ngĠ":10802,"ĠrÃ¬ĠyÇĶĠ":10803,"ĠqÃŃĠtÄģĠdeĠ":10804,"zhÃŃĠwÃ¹":10805,"chÃ¡ngĠwÄĽiĠhuÃ¬Ġ":10806,"bÃłnĠdÇİo":10807,"hÃ¡ngĠbÄģnĠ":10808,"wÃ¡nĠchÃ©ngĠleĠ":10809,"ĠÃ©ĠluÃ³Ġ":10810,"ĠdÅ«nĠ":10811,"ÃłnĠshÃ¬Ġ":10812,"ĠĠĠrÃ¬ĠbÄĽnĠ":10813,"ĠĠĠjiÃłnĠzhÃ¹Ġ":10814,"dÄ«ĠdeĠ":10815,"zÃ¡ĠdeĠ":10816,"1924ĠniÃ¡nĠ":10817,"ĠzhÅįngĠduÃ¬Ġ":10818,"dÃłĠliÃłngĠ":10819,"zhÃłnĠlÃ¼Ã¨Ġ":10820,"sÃłiĠguÃłnĠjÅ«nĠ":10821,"shÅįuĠlÃ¹":10822,"ĠguÄģnĠzhÃ¬Ġ":10823,"ĠĠĠ5":10824,"dÃ¬ngĠlÇĲĠ":10825,"xiÃłoĠshÃ¨Ġ":10826,"xiÄĽĠleĠ":10827,"ĠjÃŃĠjiÄģngĠ":10828,"pÇĶĠtÅįng":10829,"guÄ«ĠzÃ©":10830,"ĠguÃ³ĠjÃ¬ĠjÄ«ĠchÇİngĠ":10831,"ĠĠĠgÄĵnĠjÃ¹Ġ2010ĠniÃ¡nĠmÄĽiĠguÃ³ĠrÃ©nĠkÇĴuĠpÇĶĠchÃ¡ĠdeĠshÃ¹ĠjÃ¹Ġ":10832,"Ġi":10833,"ĠruÇİn":10834,"Ġ2003":10835,"Ġ180":10836,"bÄģĠshÃŃĠ":10837,"shÄĽngĠzhÃ¨ngĠfÇĶĠ":10838,"bÇİoĠwÃ¨iĠ":10839,"ĠzÃłiĠxiÃłnĠ":10840,"sÄģnĠzhÇĴngĠ":10841,"chÃ¨ĠtuÃ¬Ġ":10842,"ĠQ":10843,"ĠĠĠgÄģoĠ":10844,"rÃ¨nĠyÃ¬Ġ":10845,"xiÃ¡ngĠxÃ¬Ġ":10846,"kuÃłĠ":10847,"chuÃŃĠzhÃŃĠ":10848,"ĠchÅ«ĠxiÃłnĠdeĠ":10849,"xiÇİoĠzÇĶ":10850,"kÄĵĠxuÃ©":10851,"nuÃ²ĠmÃłnĠ":10852,"ĠwÇİnĠ":10853,"ĠhÃ©ĠjÄ«Ġ":10854,"ĠyÄ«ĠzhÇĴng":10855,"ĠxÃŃngĠhÃ©Ġ":10856,"hÃ¹ĠdÃ²ngĠ":10857,"dÇİĠsuÃłnĠ":10858,"chÃ³ngĠxÄ«n":10859,"xuÃ©ĠshÃ¬ĠxuÃ©ĠwÃ¨iĠ":10860,"bÃ¹ĠwÃ¨iĠyÃºĠ":10861,"xiÃłoĠyÇĴuĠ":10862,"zhÄģngĠdeĠ":10863,"dÅįuĠbÃ¹Ġ":10864,"zÃłngĠyÃºĠ":10865,"ĠhÃ©ĠnÃ¡nĠshÄĽngĠ":10866,"hÇİnĠmÃ²ĠdÃ©Ġ":10867,"ĠchuÃłng":10868,"ĠhÄĵi":10869,"ĠmiÇİoĠ":10870,"ÄģĠlÇĲĠ":10871,"ĠĠĠfÇİĠguÃ³Ġ":10872,"dÇİngĠjÃŃĠ":10873,"ĠxiÃłnĠyÇĶĠ":10874,"ĠyÄ«ĠlÇİng":10875,"ĠxiÃłnĠzÃłiĠdeĠ":10876,"xiÄģngĠhÃ¹Ġ":10877,"ĠkÃ¨ĠsÃłĠsÄ«Ġ":10878,"chÃ¡oĠtÃŃngĠ":10879,"fÃ¡ngĠkÅįngĠ":10880,"ĠqÇĶ":10881,"ĠzhÄģoĠ":10882,"hÃ²uĠtÄģĠ":10883,"bÇİiĠwÃłnĠ":10884,"rÃ©nĠmÃŃn":10885,"yÃ¡nĠchÃ¡ngĠ":10886,"yÅįuĠxiÃ¹Ġ":10887,"tÃ¡nĠpÃłn":10888,"ĠtÄ«ngĠ":10889,"ÄģĠfÃ¹Ġ":10890,"zhÄĵnĠyÇĶĠ":10891,"ĠtÄģĠchÃ©ngĠwÃ©iĠ":10892,"ĠzhÅįuĠhÃ©Ġ":10893,"jiÃ©ĠdÃ¹ĠshÇĲĠ":10894,"ĠrÃ¨nĠzhÃŃĠ":10895,"tiÄģnĠqÃ¬Ġ":10896,"ĠdÄģngĠniÃ¡nĠ":10897,"bÃłnĠfÇİĠ":10898,"wÅ«ĠrÇİn":10899,"liÃºĠxuÃ©Ġ":10900,"gÇİiĠmÃŃngĠ":10901,"ĠshÃ¬ĠduÃ¬Ġ":10902,"ĠzÃłiĠqÃŃ":10903,"ĠbÃ¹ĠjÇĲn":10904,"ĠdÃłĠchÃ©ngĠ":10905,"bÇİoĠzhÃłngĠ":10906,"ĠquÃ¡nĠmiÃłnĠ":10907,"pÃłnĠchÇĶĠ":10908,"ĠshÃ¬ĠshÃ¬ĠjiÃ¨":10909,"mÃłoĠxiÇİnĠ":10910,"lÇĲĠshÃ¬ĠhuÃ¬Ġ":10911,"ĠrÃ©nĠkÇĴuĠdeĠ":10912,"tÃºĠshÅ«ĠguÇİn":10913,"ĠkuÃłiĠ":10914,"ĠguÃ¬Ġ":10915,"Ã©rĠtÃ³ng":10916,"zÇĴngĠzhÃłnĠ":10917,"sÃ¹ĠshÃ¨Ġ":10918,"chuÃ¡nĠqÃŃĠ":10919,"orĠ":10920,"qÃ¹ĠdeĠ":10921,"liÇİnĠ":10922,"ĠshÃ¬ĠzhÃ¨ngĠfÇĶĠ":10923,"ĠsÄ«ĠfÇİĠ":10924,"fÄģĠbÃ¹ĠdeĠ":10925,"ĠbÃ¬ngĠjiÄģng":10926,"nÃłĠrÃ¹Ġ":10927,"kÃ¨ĠyÃ¹nĠ":10928,"qÇĶĠdÃ©ĠleĠ":10929,"ĠĠĠtÃ³ng":10930,"bÄĽnĠbÃ¹Ġ":10931,"qiÃ¡nĠxiÃłnĠ":10932,"cÄģnĠyÃ¬ĠyuÃ¡nĠ":10933,"cÃŃĠhuÃ¬Ġ":10934,"xÇĲngĠ":10935,"ĠzhÄ«ĠbÃ¹Ġ":10936,"hÃºĠpÅįĠ":10937,"mÃ¬ngĠmÃŃngĠdeĠ":10938,"zhuÇİnĠyÃŃĠ":10939,"ĠjiÄģngĠxÄ«Ġ":10940,"rÃ©nĠdÃłĠdÃłiĠbiÇİoĠ":10941,"lĠĠĠ":10942,"ĠshuÄģng":10943,"qiÄģnĠrÃ©nĠ":10944,"liÃ¹ĠgÃ¨Ġ":10945,"fÇĴuĠrÃ¨nĠ":10946,"rÃ¨nĠzhÃŃĠ":10947,"mÃŃnĠzhÃ²ng":10948,"wÃłiĠguÄģnĠ":10949,"biÄģnĠjiÃ¨":10950,"ĠRĠ":10951,"Ġ1992ĠniÃ¡nĠ":10952,"ĠĠĠchÃ©nĠ":10953,"duÅįĠbÃ¹Ġ":10954,"sÄģnĠyuÃ¨Ġ":10955,"dÃłngĠzuÃ²Ġ":10956,"ĠshÃ¬ĠyÃłnĠ":10957,"fÄģngĠchÃ©ngĠshÃ¬Ġ":10958,"dÄģnĠmÃłi":10959,"yÇİnĠzÃ²u":10960,"wÇİngĠwÇİngĠ":10961,"dÄĵngĠlÃ¹":10962,"ĠrÃ¬ĠbÄĽnĠdeĠ":10963,"luÃ³ĠmÇİĠdÃ¬ĠguÃ³Ġ":10964,"ĠxiÃłnĠdeĠyÃŃĠgÃ¨ĠxÃŃngĠzhÃ¨ngĠzhÃ¨nĠqÅ«Ġ":10965,"leĠdÃ¬Ġ":10966,"wÃ©iĠrÃ©nĠ":10967,"yÇĲngĠdÃłiĠ":10968,"ĠwÃ¨iĠwÃ¨iĠ":10969,"ĠxiÄģngĠsÃ¬Ġ":10970,"mÃ¬ĠdÃ¹Ġ":10971,"rÃ©nĠkÇĴuĠpÇĶĠchÃ¡Ġ":10972,"ĠwÄģng":10973,"ĠyÃ¹nĠ":10974,"ĠĠĠ12":10975,"kuÄģngĠ":10976,"ĠjiÃłnĠzÃłiĠ":10977,"ĠzhÄ«ĠhÃ²uĠzÃłiĠ":10978,"fÇİĠguÃ³ĠdeĠ":10979,"liÃłngĠxiÃłngĠ":10980,"rÃºĠguÇĴ":10981,"xÄ«ngĠxÃ¬Ġ":10982,"shÄģnĠxÄ«ĠshÄĽngĠ":10983,"Ġ37":10984,"Ġ1994ĠniÃ¡nĠ":10985,"ĠĠĠyÃ¡nĠgÃ©Ġ":10986,"miÇİnĠyÃ¬Ġ":10987,"ĠbÃ¨iĠjÇĲngĠ":10988,"ĠquÃ¡nĠdeĠ":10989,"huÃŃĠguÄ«":10990,"ĠtÃ³ngĠshÃŃĠyÄĽĠshÃ¬Ġ":10991,"ĠqÄ«ĠjiÄģn":10992,"ĠdÃłĠbÃ¹ĠfÃ¨n":10993,"ĠshÄĵng":10994,"ĠĠĠ2008ĠniÃ¡nĠ":10995,"ĠĠĠyÇĲĠxiÃłĠ":10996,"tÇĲĠjÄ«Ġ":10997,"nÃłĠhÃ©Ġ":10998,"13ĠniÃ¡nĠ":10999,"ĠshÃ¬ĠzhÇĲ":11000,"ĠyÇĲĠ2Ġ":11001,"zhÃ¨ĠyÃłngĠdeĠ":11002,"gÇİiĠchÄĵngĠ":11003,"ĠdÅįngĠbÄĽi":11004,"ĠliÃºĠyÃ¹ĠmiÃłnĠjÄ«Ġ":11005,"chuÃ¡nĠdÃ¬Ġ":11006,"cÅ«nĠdeĠ":11007,"kÄģĠ":11008,"ĠxiÃłnĠzhÅįngĠ":11009,"ĠdÃłĠfÅ«Ġ":11010,"ĠdÃłnĠdeĠ":11011,"wÄĽiĠyuÃ¡nĠhuÃ¬ĠzhÇĶĠxÃŃĠ":11012,"ĠgÄĵnĠjÃ¹Ġ2020ĠniÃ¡nĠmÄĽiĠguÃ³ĠrÃ©nĠkÇĴuĠpÇĶĠchÃ¡ĠdeĠshÃ¹ĠjÃ¹Ġ":11013,"guÇİngĠfÃłnĠdeĠ":11014,"ĠfÄģĠbÃ¹Ġ":11015,"ĠchÃ³ngĠxÄ«nĠ":11016,"yÇĴuĠhÃ©Ġ":11017,"lÃŃĠshÃ¬Ġ":11018,"chÃ¡oĠshÃŃĠ":11019,"jÃºĠshÃ¬Ġ":11020,"jiÇİĠshÃ¨Ġ":11021,"zÇĴngĠmiÃłnĠjÄ«Ġ":11022,"ĠPĠ":11023,"ĠhÄĵngĠlÃ¬Ġ":11024,"xÄ«nĠxÃŃngĠ":11025,"zÇĲĠdÃłnĠ":11026,"dÃłngĠdeĠ":11027,"xuÃ©ĠxÃ¬Ġ":11028,"gÇİiĠzÃło":11029,"ĠÄģnĠdÃ©Ġ":11030,"ĠyÃło":11031,"ĠqÃ¬":11032,"Ġ400":11033,"ĠĠĠ18":11034,"zhÄĵnĠdeĠ":11035,"21ĠniÃ¡nĠ":11036,"ĠchÃ©ngĠlÃ¬ĠdeĠ":11037,"xÄ«ĠyÃ¡ng":11038,"ĠbÃ¬ngĠfÄĵi":11039,"ĠzÃ¬ĠmÇĶĠ":11040,"hÃ¡ngĠkÅįngĠmÇĶ":11041,"cuÄ«ĠhuÇĲĠ":11042,"fÄĵiĠlÇľĠbÄ«nĠ":11043,"ĠfÃ©ng":11044,"Ġ39":11045,"ĠbÃ¹ĠzÃłiĠ":11046,"tÃ¨ĠzÃłiĠ":11047,"kÄģiĠshÃ¨":11048,"gÃ©ĠlÇĲĠ":11049,"chÃ¡ngĠbÃ¨iĠ":11050,"jÇĲngĠyuÃ¡nĠ":11051,"qiÇİnĠzÃ©Ġ":11052,"CDĠ":11053,"bÃ¹ĠtÃ³ngĠ":11054,"ĠshÃŃĠkÃ¨Ġ":11055,"yÃ¬ĠbÇİiĠ":11056,"ĠjÄ«ĠxiÃ¨":11057,"diÃłnĠzÇĲ":11058,"ĠbÃ¬ĠxÅ«Ġ":11059,"ĠĠĠMo":11060,"ĠĠĠtÃ¡iĠwÄģnĠ":11061,"chÃ¡ĠÄĽrĠsÄ«Ġ":11062,"jÇĲĠniÃ¡nĠ":11063,"zhÇİngĠhÃ©Ġ":11064,"jiÄģoĠdeĠ":11065,"tionĠ":11066,"ĠshÃŃĠyÃ³uĠ":11067,"jiÄģoĠjiÃ¨Ġ":11068,"ĠCo":11069,"Ġ300":11070,"ĠchÄģoĠ":11071,"fÃºĠshÃ¬Ġ":11072,"25ĠniÃ¡nĠ":11073,"ĠxÄ«ĠfÄģngĠ":11074,"ĠqÃŃĠhÃ²uĠyÃºĠ":11075,"yÃŃĠdÃ¹":11076,"Ġ19Ġ":11077,"Ġ1996ĠniÃ¡nĠ":11078,"gÄĵnĠbÄĽnĠ":11079,"pÇİoĠdÃłoĠ":11080,"ĠzhÅįngĠqÄ«Ġ":11081,"ĠshÃŃĠlÃ¬Ġ":11082,"zhÃ¨ngĠchÃ¡ngĠ":11083,"ĠzhÄ«ĠshÃłngĠ":11084,"bÇİoĠjiÄģ":11085,"yÃŃĠcÃ¬ĠshÃ¬ĠjiÃ¨ĠdÃłĠzhÃłnĠ":11086,"shÅįuĠcÃ¡ng":11087,"dÃ©ĠguÃ³ĠdeĠ":11088,"fÃºĠjiÃłnĠshÄĽngĠ":11089,"ĠluÃ³ĠsÄ«Ġ":11090,"ĠĠĠxiÄģngĠgÇİng":11091,"bÅįĠchÅ«ĠdeĠ":11092,"xÄ«ngĠjiÃłn":11093,"ĠzÃłiĠbÃ¨iĠ":11094,"ĠrÃ©nĠbÃ¨iĠ":11095,"ĠgÃ¨ĠbÃ¹Ġ":11096,"shÄģngĠchÇİngĠ":11097,"qiÃ¡ngĠdiÃło":11098,"ĠzÃłoĠ":11099,"hÃłoĠdeĠ":11100,"ĠyÇĴuĠliÇİngĠ":11101,"lÇĲĠlÃ¡nĠ":11102,"ĠzhÅįuĠlÃ¬Ġ":11103,"ĠduÃ¬ĠwÃłiĠ":11104,"fÄĵnĠpÃ¨i":11105,"jÄ«nĠrÃ³ng":11106,"shÃ²uĠhuÄģnĠ":11107,"bÇĶĠchÅįngĠ":11108,"ĠlÃ¬ĠshÇĲĠxuÃ©ĠjiÄģĠ":11109,"diÃłnĠyÇĲngĠdeĠ":11110,"ĠmÇĲĠzhÃ¬Ġ":11111,"ĠyÃ¬ĠshÃ¹ĠjiÄģĠ":11112,"ĠĠĠliÃºĠ":11113,"sÄģnĠbÃ¹Ġ":11114,"sÃ¬ĠyuÃ¨Ġ":11115,"12ĠniÃ¡nĠ":11116,"shÇĴuĠshÃ¹Ġ":11117,"ĠduÃ¬ĠwÇĶĠ":11118,"fÄĵnĠliÃ¨Ġ":11119,"jÄ«nĠshÄģnĠ":11120,"ĠxiÄģngĠbÇĲĠ":11121,"qÃŃngĠbÃło":11122,"yÄ«nĠsÃ¹Ġ":11123,"ĠguÄģngĠxÃ¹Ġ":11124,"24ĠxiÇİoĠshÃŃĠ":11125,"reĠ":11126,"asĠĠĠ":11127,"yÇİnĠjiÇİngĠ":11128,"nÇļĠhÃ¡iĠ":11129,"guÄ«ĠlÃ¨i":11130,"fÃ³ĠjiÃło":11131,"ĠhÃ©ĠshÃłngĠ":11132,"ĠguÃ³ĠshÃŃĠ":11133,"shÄĵngĠyÄ«nĠ":11134,"yÃ¡nĠlÃ¹nĠ":11135,"ĠjÃ¬nĠÃ©rĠ":11136,"luÃ³ĠlÄģĠ":11137,"wÄĵiĠxiÃ©":11138,"sÃłĠlÄģĠ":11139,"ĠmiÃłnĠjÄ«Ġ0":11140,"gÇĶĠlÇİoĠdeĠ":11141,"ĠDe":11142,"ĠzhuÃłngĠ":11143,"ĠhÇİoĠ":11144,"gÇĶĠjÃ¬Ġ":11145,"orĠĠĠ":11146,"26Ġ":11147,"tÄģoĠ":11148,"ĠshÃŃĠdÃłĠ":11149,"wÃ¡ngĠzÇĲĠ":11150,"shuÇĲĠshÄĵnĠ":11151,"yÇĲĠsÃ¨Ġ":11152,"ĠjÄ«nĠshÇĶĠ":11153,"qiÃ¡oĠliÃ¡ngĠ":11154,"gÃ¨ĠzhÇĴng":11155,"ÄģĠÄĽrĠbÄĵiĠsÄ«Ġ":11156,"zhÃ²ngĠdiÇİnĠwÃ©nĠwÃ¹ĠbÇİoĠhÃ¹ĠdÄģnĠwÃ¨iĠ":11157,"jiÄģĠlÃ¬ĠfÃºĠnÃŃĠyÃłĠzhÅįuĠ":11158,"dÄ«ĠqÃ¬ĠyÄģĠ":11159,"ĠĠĠ15":11160,"duÃ¬ĠtÄģĠ":11161,"ĠshÃ¬ĠxÄ«ĠbÄģnĠyÃ¡Ġ":11162,"ĠhÃ©ĠjÃ¬Ġ":11163,"ĠbÃ¹ĠshÃŃĠ":11164,"rÃ¨nĠmÃ¬ngĠ":11165,"ĠkÄĽĠshÃ¬Ġ":11166,"ĠÅįu":11167,"Ġcom":11168,"lÃ¡iĠkÃ¨Ġ":11169,"fÃºĠyÄ«nĠ":11170,"yÃłĠsÄ«Ġ":11171,"ĠyÃ¬ĠdÃłĠ":11172,"ĠyuÃ¡nĠziĠ":11173,"xÄ«nĠjiÄģngĠ":11174,"qiÃ¡nĠjÃ¬nĠ":11175,"ĠshÃ¨ĠyÇĲngĠ":11176,"tÃºĠshÄģĠ":11177,"kÅįngĠxÃŃĠ":11178,"tÇİnĠdÄ«ngĠ":11179,"kÄģiĠfÄģĠdeĠ":11180,"Ġ2023ĠniÃ¡nĠ":11181,"nÇļĠrÃ©nĠ":11182,"shÄģĠdeĠ":11183,"jÃºĠbÃ¹Ġ":11184,"27Ġ":11185,"ĠjÅ«nĠtuÃ¡nĠ":11186,"nÇļĠzhÇĶĠjuÃ©Ġ":11187,"ĠjÇĲngĠfÄģngĠ":11188,"ĠĠĠ2005":11189,"luÃ²ĠkÃ¨Ġ":11190,"huÃŃĠjiÄģĠ":11191,"ĠgÅįngĠgÃłoĠ":11192,"ĠzhÄ«ĠhÃ²uĠdeĠ":11193,"sÃłiĠchÄĵĠ":11194,"xÃ¹ĠliÃ¨Ġ":11195,"mÃ³ĠtÃ¨":11196,"ĠshÃ¬ĠyÄ«ĠkÄĵ":11197,"shÅįuĠrÃ¹":11198,"guÇİngĠzhÅįuĠshÃ¬Ġ":11199,"shuÃ²Ġ":11200,"ĠguÃ³ĠjÅ«nĠ":11201,"zhÃŃĠshÄĵngĠjÄ«Ġ":11202,"fÃºĠlÃ©i":11203,"jÃ¬ngĠtÃ³uĠ":11204,"chÃ©ngĠlÃ¬ĠhÃ²uĠ":11205,"1970ĠniÃ¡nĠdÃłiĠ":11206,"ĠshÃ¬ĠxÄ«ngĠdÄĽngĠwÃ¨iĠ":11207,"pÄ«nĠ":11208,"yÄ«ĠyuÃłnĠ":11209,"ĠyÇĲĠbÄĽiĠ":11210,"ĠxiÃłnĠmÃŃngĠ":11211,"yÃ¡nĠjiÅ«ĠzhÅįngĠxÄ«nĠ":11212,"ĠniÃ¡nĠqÄ«ngĠdeĠ":11213,"dÃŃĠshÃ¬ĠnÃŃĠ":11214,"ĠpÃ©ng":11215,"ĠÐ°":11216,"ĠqÃ¹Ġ":11217,"dÃłĠyÃºĠ":11218,"jiÄĵĠdeĠ":11219,"zhuÄģnĠlÃ¬Ġ":11220,"zhuÇİnĠchÃ©ngĠ":11221,"ĠrÃ©nĠduÃ¬Ġ":11222,"xuÇİnĠqÅ«":11223,"ĠxiÃłĠleĠ":11224,"pÇĶĠluÃ³Ġ":11225,"gÃ²ngĠjÃ¬Ġ":11226,"lÃºnĠsÄ«Ġ":11227,"shÃ©nĠhuÃłĠ":11228,"ĠtÃŃĠchÅ«Ġ":11229,"gÄģoĠdÃ¬Ġ":11230,"wÇĶĠdÃ©Ġ":11231,"luÃ²ĠzÃłiĠ":11232,"33Ġ":11233,"zhÃ¬ĠdÃ¹Ġ":11234,"yÇĶĠmÃ¡o":11235,"fÄģngĠxiÃłngĠdeĠ":11236,"ĠzhÃ¨ngĠquÃ¡nĠ":11237,"yÃŃĠdÃ¬ngĠdeĠ":11238,"lÃ¡nĠsÃ¨Ġ":11239,"yÄ«ngĠxiÃ³ng":11240,"zhuÄģnĠmÃ©n":11241,"ĠtiÄģnĠjÄ«nĠ":11242,"fÇİĠlÃ¡nĠxÄ«":11243,"19ĠniÃ¡nĠ":11244,"duÅįĠlÃ¬ĠyÃłĠ":11245,"jiÃ¹ĠzÃłiĠ":11246,"tÃŃngĠdeĠ":11247,"kuÃłiĠdeĠ":11248,"ĠshÃ¬ĠyÄ«ngĠguÃ³Ġ":11249,"ĠjÃŃĠbÃ¬ng":11250,"pÃ©iĠxÃ¹nĠ":11251,"wÃ¡nĠzhÄĽngĠdeĠ":11252,"gÅįngĠhÃ©Ġ":11253,"rÃłoĠ":11254,"fÃ©iĠtÃ¨Ġ":11255,"ĠmÃŃngĠxiÇİnĠ":11256,"diÃłnĠyÇĲngĠjiÃ©Ġ":11257,"ĠĠĠPro":11258,"zhÄ«ĠjiÄģĠ":11259,"gÇĶĠdeĠ":11260,"jiÃ¹ĠbÃ¨iĠ":11261,"biÃłnĠshÃ¬Ġ":11262,"wÃłnĠrÃ©nĠ":11263,"gÃłoĠshÃ¬Ġ":11264,"1925ĠniÃ¡nĠ":11265,"ĠxÃŃngĠrÃ³ng":11266,"nÃ¨iĠruÃ¬Ġ":11267,"tÃ³uĠshÇĴuĠ":11268,"ĠshÃ¬ĠshÃŃĠshÃłngĠ":11269,"ĠwÃ²Ġ":11270,"18ĠniÃ¡nĠ":11271,"1909ĠniÃ¡nĠ":11272,"zhÃ¬ĠzuÃ²":11273,"ĠjÃŃĠxiÃłnĠ":11274,"ĠrÃ¬ĠhÃ©Ġ":11275,"qÅ«ĠzhÃº":11276,"ĠjÅ«nĠyÇĴuĠ":11277,"fÃ¹ĠshÇĲĠ":11278,"bÄĽnĠshÄĵnĠ":11279,"ĠzhÅįuĠqÄ«Ġ":11280,"ĠyÃ³uĠxÃ¬ĠdeĠ":11281,"mÃ³ĠfÇİĠ":11282,"zhÇĶnĠbÃ¨i":11283,"ĠxiÅįng":11284,"ĠAl":11285,"dÃłĠhÃ©Ġ":11286,"ĠwÃ¨iĠlÃ¬Ġ":11287,"ĠshÃŃĠpÇĲnĠ":11288,"ĠbÃ¬ngĠshÃ¬Ġ":11289,"zhÇĲĠkÃ²ng":11290,"ĠtÃ³ngĠzhÃ¬Ġ":11291,"qÄ«ngĠchÇĶĠ":11292,"chÇİnĠwÃ¹Ġ":11293,"zhuÃłnĠxiÄĽĠ":11294,"rÃ¬ĠbÄĽnĠdeĠ":11295,"Ġ2002":11296,"ĠĠĠdÃłoĠ":11297,"nÃ¡nĠrÃ©nĠ":11298,"shuÇĲĠdeĠ":11299,"wÇİngĠyÇĴuĠ":11300,"zhÄĵngĠqÇĶĠ":11301,"mÄĽiĠguÃ³ĠrÃ©nĠkÇĴuĠpÇĶĠchÃ¡Ġ":11302,"sÄģiĠÄĽrĠwÃ©iĠyÃłĠ":11303,"ĠliÃ¡ng":11304,"Ġ1949":11305,"zhÃłnĠhÃ©Ġ":11306,"kÃ¨ĠsÄ«Ġ":11307,"rÃ¹ĠqiÃºĠ":11308,"biÃłnĠdeĠ":11309,"shuÇĲĠhÃ©Ġ":11310,"wÇİnĠniÃ¡nĠ":11311,"dÇİnĠ":11312,"jÃ¬ĠzÇİiĠ":11313,"liÃºĠliÃłngĠ":11314,"ĠwÃ¨iĠyÃºĠyÃŃn":11315,"ÃłnĠzhÃło":11316,"sÅ«ĠdÄģnĠ":11317,"zhuÇİnĠhuÃłn":11318,"ĠmÄĽiĠzhÅįuĠ":11319,"kÄĽĠnÃ©ngĠxÃ¬ngĠ":11320,"shÃ¹nĠxÃ¹Ġ":11321,"ĠlÃºĠwÇİĠÄĽrĠshÄĽngĠ":11322,"sÃ¬ĠchuÄģnĠshÄĽngĠ":11323,"ĠxÃŃngĠrÃ³ngĠ":11324,"ĠbÃ¨iĠrÃ¨nĠmÃ¬ngĠwÃ¨iĠ":11325,"liÃłngĠzÇĲĠ":11326,"ĠzhÇĶĠtÃŃĠ":11327,"qiÃºĠchÇİngĠ":11328,"ĠshÃ¬ĠjiÃ¨ĠshÃłngĠ":11329,"fÄģngĠzÃłiĠ":11330,"chuÄģnĠxiÃłnĠ":11331,"ĠyÃºĠtÃ³ng":11332,"ĠyÃºĠshÃŃĠdeĠrÃ©nĠkÇĴuĠshÃ¹ĠliÃłngĠwÃ¨iĠrÃ©nĠ":11333,"ĠxÃŃngĠrÃ©nĠ":11334,"gÇĶĠdiÇİnĠ":11335,"zÄ«ĠxÃ¹n":11336,"chÃ¨ĠxiÄģo":11337,"ĠwÄĵnĠ":11338,"huÃłĠshÃ¬Ġ":11339,"tÃ¡nĠhÃ©Ġ":11340,"ĠshÃłngĠleĠ":11341,"ĠhuÃ²ĠzhÄĽ":11342,"jiÇİnĠdÄģnĠdeĠ":11343,"yÃŃngĠyÃ¹n":11344,"dÃłiĠbiÇİoĠtuÃ¡nĠ":11345,"tÇĲĠyÃ¹ĠguÇİnĠ":11346,"ĠwÃ¨iĠyÃºĠgÄģiĠguÃ³ĠxÄ«ĠbÃ¹Ġ":11347,"bÄģoĠhÃ¡nĠleĠ":11348,"ĠzÅįngĠ":11349,"ĠkÇİĠÄĽrĠ":11350,"ĠĠĠhÃ³ngĠ":11351,"bÄģĠbÃ¹Ġ":11352,"chÃ¬ĠjÄ«ngĠ":11353,"veĠĠĠ":11354,"ĠshÃ¬ĠjÃ¬ĠzhÅįngĠ":11355,"ĠyÃºĠ2021":11356,"ĠlÃ¬ĠtÃ¡oĠ":11357,"zhuÇİnĠhuÃłnĠ":11358,"ĠfÄĵiĠlÇľĠ":11359,"ĠyuÃ¡nĠzhÃ¹ĠmÃŃnĠ":11360,"ĠyÃ¹ĠjÃ¬Ġ":11361,"mÇİĠlÃ¬ĠyÃłĠ":11362,"bÇĶĠzhÃ¹Ġ":11363,"bÃ¨iĠjÇĲng":11364,"zhÄĵngĠfÃºĠ":11365,"wÄĽiĠtuÅįĠ":11366,"qÇĶĠmÃ¹Ġ":11367,"ruÇİnĠtiÃ¡oĠ":11368,"Ġ1949ĠniÃ¡nĠ":11369,"hÃłoĠwÃ¨iĠ":11370,"pÇĶĠjÃŃĠ":11371,"ĠdÃłĠsÃłiĠ":11372,"kÄģiĠzhÇİn":11373,"jiÄģngĠhÃ¹":11374,"ĠxuÃ©ĠshÃ¹Ġ":11375,"lÇĲngĠtÇĶ":11376,"tiÃ¡oĠwÃ©nĠ":11377,"gÃ²uĠmÇİiĠ":11378,"Ġn":11379,"ĠpÄģn":11380,"ĠĠĠyÃ³uĠxÃ¬Ġ":11381,"hÃ²uĠyÇĲĠ":11382,"zuÃ²ĠzhÄĽĠ":11383,"yÃ³uĠyÇĴngĠ":11384,"ĠdÃ©ĠwÃ©iĠ":11385,"tÅįngĠxÃ¹n":11386,"ĠtiÄģnĠjÄ«n":11387,"sÅ«ĠwÃ©iĠÄģi":11388,"jiÄģnĠwÃ¨iĠ":11389,"kÄĽĠjiÃłnĠ":11390,"bÅįĠdeĠ":11391,"dÃºĠdeĠ":11392,"ĠtÄģĠrÃ©nĠ":11393,"mÃ©iĠyÇĴuĠrÃ¨nĠhÃ©Ġ":11394,"yÃ¡nĠshÄĵnĠzhÃ¬Ġ":11395,"Ġ1995ĠniÃ¡nĠ":11396,"zhÅįngĠdeĠyÄ«Ġ":11397,"pÃŃnĠdÃło":11398,"bÄĽiĠbÃ¹ĠdeĠ":11399,"jiÄĵĠxiÃłĠ":11400,"zhÃ¨nĠrÃ³ngĠ":11401,"bÃ¬ngĠrÃ¹Ġ":11402,"zhÇĶĠyÃłoĠshÃ¬Ġ":11403,"ĠyÇĴuĠxiÃłnĠgÅįngĠsÄ«":11404,"gÄĵĠlÃºnĠbÇĲĠyÃłĠ":11405,"inĠĠĠ":11406,"atĠĠĠ":11407,"ĠshÃŃĠÃ¨rĠniÃ¡nĠ":11408,"jÄ«ĠguÄģnĠ":11409,"kÄģiĠtÅįng":11410,"tÃłiĠshÇĴuĠ":11411,"ĠzuÃ¬ĠzÇİo":11412,"ĠchÃºĠcÇĲĠzhÄ«ĠwÃłiĠ":11413,"qÃŃĠzhÅįngĠyÄ«Ġ":11414,"jiÃ¨ĠquÃ¡nĠguÃ³ĠzhÃ¨ngĠxiÃ©Ġ":11415,"bÃłoĠfÄģĠhÃ²uĠ":11416,"ĠHR":11417,"ĠlÃºnĠ":11418,"ĠkÄĵĠxuÃ©Ġ":11419,"shÃ¹ĠjiÄģĠ":11420,"qÇĶĠdeĠ":11421,"piÃłnĠzhÅįngĠ":11422,"jiÇİĠjÃŃĠ":11423,"35Ġ":11424,"ĠzÃłiĠxiÄģngĠgÇİngĠ":11425,"ĠshÃŃĠyÄ«ĠniÃ¡nĠ":11426,"ĠjÃŃĠwÃ©iĠ":11427,"ĠyÇĲĠbiÃłnĠ":11428,"wÇĶĠhÃłnĠ":11429,"sÃ¬ĠhÅ«":11430,"gÄĵĠgÄĵĠ":11431,"fÃłnĠzuÃ¬":11432,"diÃłnĠshÃ¬ĠdÃ²ngĠhuÃłĠ":11433,"JĠ":11434,"Ġë":11435,"yuÃ¡nĠbÃ¹Ġ":11436,"fÃ¨nĠdeĠ":11437,"mÇİiĠ":11438,"usĠ":11439,"ĠzhÅįngĠxÄ«nĠdeĠ":11440,"ĠrÃ©nĠyÇĶĠ":11441,"ĠdÃłĠxiÇİoĠ":11442,"gÃ©ĠlÄģĠsÄ«Ġ":11443,"hÅ«ĠxÄ«Ġ":11444,"ĠdÃłĠlÇĲĠ":11445,"jÃ¹ĠlÃŃ":11446,"fÇİĠlÃ¡nĠkÃ¨Ġ":11447,"tÅįngĠwÇİngĠ":11448,"ĠdeĠdÃ¬ĠsÄģnĠ":11449,"hÄĽnĠdÃłĠdeĠ":11450,"ĠEĠ":11451,"ĠfÃ¡n":11452,"ĠliÃ¨ĠchÄĵĠ":11453,"Ġ1993ĠniÃ¡nĠ":11454,"ĠĠĠ7":11455,"ĠĠĠkÇİĠ":11456,"jÃ¬ĠzhÃ¬Ġ":11457,"chÄĵĠxÃŃngĠ":11458,"jiÃ¨ĠshÃŃĠ":11459,"hÄģĠlÇĲĠ":11460,"huÇĴĠlÃ¬Ġ":11461,"rÃ©ngĠwÃ¨iĠ":11462,"kuÃłĠyuÃ¨Ġ":11463,"1923ĠniÃ¡nĠ":11464,"ĠshÃ¬ĠÃ©ĠluÃ³ĠsÄ«Ġ":11465,"liÃ¡nĠluÃ²Ġ":11466,"dÃ²ngĠwÃ¹":11467,"shuÇĲĠliÃłngĠ":11468,"xiÃ©ĠtiÃ¡oĠ":11469,"huÇĴĠchÄĵĠzhÃłnĠ":11470,"nÃ³ngĠchÇİngĠ":11471,"xuÄģnĠyÃ¡nĠ":11472,"ĠchÃ¬ĠwÄĽiĠ":11473,"ĠhuÃ¡n":11474,"ĠĠĠshÃłngĠ":11475,"ĠĠĠÃ¨rĠ":11476,"ĠĠĠjiÇİnĠlÃ¬Ġ":11477,"zhÃłnĠyÇĴuĠ":11478,"chÄĵngĠshÃ¬Ġ":11479,"gÇĶĠxÄ«ĠlÃł":11480,"gÃ¨ngĠshÃ¬Ġ":11481,"35ĠniÃ¡nĠ":11482,"yÃ¬ĠmÃŃngĠ":11483,"wÃ¹ĠpÇĲnĠ":11484,"duÅįĠzhÇĴng":11485,"ĠyÃ³uĠtÃłiĠ":11486,"hÇİiĠnÃ¡nĠ":11487,"shÄĽngĠzhÇİngĠ":11488,"huÃ¡ngĠjÄ«nĠ":11489,"ĠxiÃłnĠshÃŃĠyÃ³uĠ":11490,"ĠĠĠjÇĲnĠguÇİnĠ":11491,"jiÄĵĠshÃ¬Ġ":11492,"hÇİiĠdeĠ":11493,"tÅ«ĠjÄ«Ġ":11494,"ĠjÃŃĠgÅįngĠ":11495,"ĠyÇĲĠbÃ¹Ġ":11496,"qÅ«ĠnÃ¨iĠ":11497,"qiÃ¡nĠtÇĲng":11498,"zhÃŃĠbÃłng":11499,"ĠjÄ«ngĠchÃ¡ngĠ":11500,"chuÃłngĠzÃło":11501,"ĠSAO":11502,"ĠĠĠs":11503,"qÄ«ĠzhÃ¬Ġ":11504,"jÃ¹nĠdeĠ":11505,"ĠdÃłoĠdÃ¡":11506,"ĠdÃ©ĠdÃło":11507,"ĠzhÃ¨ĠzuÃ²Ġ":11508,"nÃŃĠsÅ«Ġ":11509,"mÄĽiĠxiÇİoĠshÃŃĠ":11510,"zhÅįuĠbiÄģn":11511,"ĠjiÃłnĠzhÃ¹ĠwÃ¹Ġ":11512,"mÃ¡oĠdÃ¹nĠ":11513,"ĠĠĠ2022ĠniÃ¡nĠ":11514,"xÄ«nĠjiÃłnĠ":11515,"wÃłnĠlÃ¬Ġ":11516,"zÃłoĠxÃŃngĠ":11517,"22ĠniÃ¡nĠ":11518,"ĠdÃ©ĠjÅ«nĠ":11519,"shÅįuĠfÃ¨iĠ":11520,"ĠzhÃ¨ĠshÃŃĠ":11521,"ĠxÃ¬ĠbÄģoĠ":11522,"wÃłngĠyuÇİnĠjÃ¬ngĠ":11523,"dÄĽngĠyÃºĠ":11524,"xÃ¹ĠdeĠ":11525,"cÃ©ngĠbÃ¨iĠ":11526,"ĠdÃłĠbÇİnĠ":11527,"ĠchÅ«ĠchÇİngĠ":11528,"shÄĵnĠtÇĲ":11529,"lÃ³ngĠshÄĽngĠ":11530,"xiÅ«ĠdÃ¬ngĠ":11531,"ĠĠĠjÄ«ngĠlÃ¬Ġ":11532,"liÃ¹ĠmÃŃngĠ":11533,"ĠdÃ¬ĠyÄ«ĠwÃ¨iĠ":11534,"ĠjÃŃĠhuÃ¬Ġ":11535,"ĠjÃŃĠqÃŃĠtÄģĠ":11536,"jÇĶĠzhÃ¨nĠ":11537,"zhÅįngĠguÃ³ĠdÃłĠlÃ¹Ġ":11538,"chÅįngĠmÇİnĠ":11539,"1ĠmÃŃngĠ":11540,"pÅ«Ġ":11541,"sÄĵngĠ":11542,"ĠguÃ³ĠyÇĴuĠ":11543,"ĠchÅ«ĠxÃŃ":11544,"xÃ¬ĠjiÃ©Ġ":11545,"liÃ¡nĠluÃ²":11546,"ĠshÄĵngĠtÃłiĠ":11547,"nuÃ²ĠfÅ«Ġ":11548,"ĠguÄģnĠzhuÃłngĠbÃ¬ngĠdÃº":11549,"ĠzÃ©ĠshÃ¬Ġ":11550,"Ġ2001":11551,"ĠcÃ¡oĠ":11552,"ĠpÃºĠtÃ¡oĠyÃ¡":11553,"ĠrÃ©nĠzhÃ¬Ġ":11554,"ĠchÃ©ngĠyÄ«Ġ":11555,"yÃ²ngĠhÃ¹":11556,"ĠduÃ¬ĠxiÃłngĠ":11557,"shÃ²uĠhuÄģnĠyÃŃngĠ":11558,"mÄĽiĠtiÄģnĠ":11559,"cÃ¡iĠpÃłnĠ":11560,"jiÇİngĠjÄ«nĠ":11561,"cÄģnĠyÃ¬ĠyuÃłnĠ":11562,"ĠlÃ¬ĠfÇİĠhuÃ¬Ġ":11563,"ĠxiÄģngĠdÄģngĠyÃºĠ":11564,"5ĠgÅįngĠlÇĲĠ":11565,"ĠwÄĽi":11566,"ĠĠĠlÃŃnĠ":11567,"xÃŃngĠdeĠ":11568,"yÃłĠhÃ©Ġ":11569,"nÃłĠÄĽrĠ":11570,"chÃ³ngĠjiÃłn":11571,"lyĠĠĠ":11572,"fÃłĠ":11573,"ĠzÃłiĠfÇİĠguÃ³Ġ":11574,"jiÄģoĠgÄĽiĠ":11575,"zÄ«ĠxÃºnĠ":11576,"shÇĲĠyÃ²ngĠzhÄĽĠ":11577,"ĠxÃ¬ĠtÇĴngĠ":11578,"ĠĠĠpÃŃngĠ":11579,"guÃ²ĠyÄ«Ġ":11580,"ĠshÃŃĠrÃ¨n":11581,"ĠshÃŃĠsÄģnĠ":11582,"yÃ¡nĠfÄģĠ":11583,"zhÇĲĠshÃ¹Ġ":11584,"ĠrÃ¨nĠmÃ¬ngĠ":11585,"guÄ«ĠdÃ¬ng":11586,"biÇİoĠxiÃłnĠchÅ«Ġ":11587,"ĠjÃŃĠxÃŃngĠzhÃ¨ngĠdÄģnĠwÃ¨iĠ":11588,"ĠÃłoĠdÃłĠlÃ¬ĠyÃłĠ":11589,"ĠsÅįngĠ":11590,"fÄģngĠxÃŃngĠ":11591,"zhuÄģngĠwÃ¨iĠ":11592,"lÃºnĠdeĠ":11593,"15ĠniÃ¡nĠ":11594,"ĠÃ©rĠhÃ²uĠ":11595,"zhÇĶĠdÃ²ngĠ":11596,"jiÃłoĠgÄģoĠ":11597,"bÃ¬ĠyÃłoĠ":11598,"pÃ¡iĠliÃ¨Ġ":11599,"tuÅįĠlÃŃĠ":11600,"ĠyÃŃnĠwÄĽiĠ":11601,"0ĠzuÃ²ĠbiÄģoĠwÃ¨iĠ":11602,"zÃ©ĠbÃ¨iĠ":11603,"ziĠshÃ¬Ġ":11604,"wÃ©iĠyÄ«ĠdeĠ":11605,"ĠdÃłnĠshÃ¬ĠzÃłiĠ":11606,"ĠqÃŃĠB1900":11607,"ĠdÃłnĠzuÃ¬ĠzhÅįngĠ":11608,"xÃ¹nĠsÃ¹":11609,"rÃ©nĠmÃŃnĠzhÃ¨ngĠfÇĶĠ":11610,"ĠhÃºĠbÄĽiĠ":11611,"ĠwÃ¨iĠyÃºĠyÃŃnĠjÄ«ngĠ":11612,"0ĠzuÃ²ĠbiÄģoĠwÃ¨iĠchÃ¬ĠjÄ«ngĠ":11613,"ĠIn":11614,"ĠĠĠU":11615,"ĠĠĠsÄģnĠ":11616,"ĠĠĠ11ĠyuÃ¨Ġ":11617,"xiÃłngĠyÃºĠ":11618,"liÃ¡nĠjÅ«nĠ":11619,"lÄģĠwÃ©iĠ":11620,"fÄĵiĠdÃłnĠ":11621,"shÃ¨ngĠdÃłnĠ":11622,"28Ġ":11623,"ĠzhÅįngĠhuÃ¡":11624,"jÄ«ĠdÅ«Ġ":11625,"ĠxÃŃngĠtÃłiĠ":11626,"tÇĶĠrÇİng":11627,"xuÄģnĠchÄĵngĠ":11628,"ĠjiÃłnĠzhÃ¹ĠmiÃłnĠjÄ«Ġ":11629,"kÃ²ngĠzhÃ¬ĠdeĠ":11630,"gÃ²ngĠhÃ©ĠdÇİngĠ":11631,"Ġãĥ³":11632,"ĠwÅ«ĠkÃ¨ĠlÃ¡n":11633,"ĠĠĠfÄĵnĠbÃ¹Ġ":11634,"mÃŃngĠhÃ©Ġ":11635,"huÃłĠyÇĶĠ":11636,"suÇĴĠyÇĲĠ":11637,"jiÄģoĠzhÃłnĠ":11638,"bÃ³ĠÄĽrĠ":11639,"mÃłnĠdeĠ":11640,"bÇİĠtÄģĠ":11641,"60Ġ":11642,"1922ĠniÃ¡nĠ":11643,"ĠsÄ«ĠzhÃŃĠ":11644,"guÄģnĠxÃ¬ĠdeĠ":11645,"xiÄģoĠfÃ¡ngĠ":11646,"gÃ¨ngĠdÃłĠdeĠ":11647,"ĠqÄ«ngĠchÃ¡oĠzhÃ¨ngĠzhÃ¬ĠrÃ©nĠwÃ¹Ġ":11648,"jiÄģngĠjÅ«n":11649,"11ĠniÃ¡nĠ":11650,"zhÄĵnĠrÃ©nĠ":11651,"sÇĲĠleĠ":11652,"ĠyÃºĠ2019":11653,"yÃ³uĠxÃ¬ĠdeĠ":11654,"xiÃłoĠlÇľĠ":11655,"ĠĠĠxiÇİoĠ":11656,"shÄģĠrÃ©nĠ":11657,"1919ĠniÃ¡nĠ":11658,"1911ĠniÃ¡nĠ":11659,"zhÅįngĠhuÃ¡ĠmÃŃnĠguÃ³Ġ":11660,"ĠjÃŃĠtÇĲĠ":11661,"bÃ¨iĠÄĽrĠ":11662,"ĠmÇĶĠqÄ«n":11663,"ĠTĠ":11664,"ĠĠĠchÄĵĠzhÃłnĠgÃ²uĠzÃłoĠ":11665,"luÃ²ĠfÃ¡ĠkÃ¨Ġ":11666,"ĠhuÄ«Ġ":11667,"ĠĠĠchÃºĠ":11668,"biÄģnĠzhÃ¬Ġ":11669,"lÃ¹nĠshÃ¬Ġ":11670,"xiÄĽĠwÃ¨iĠ":11671,"dÄģĠzÃłiĠ":11672,"ĠshÃŃĠbÄģĠ":11673,"ĠdÃłĠjiÄĵĠ":11674,"jÄ«nĠshÇĶ":11675,"ĠjÃ¹ĠqÃŃngĠ":11676,"ÅįuĠmÃ©ngĠ":11677,"jiÄĽĠfÃłngĠjÅ«n":11678,"ĠzhÄĽngĠgÃ¨Ġ":11679,"dÇİoĠhÃ©Ġ":11680,"kÃłngĠzhÃłnĠ":11681,"ĠdeĠgÄģoĠ":11682,"ĠjÃŃĠchÃ©ngĠ":11683,"jÄ«ĠchÄĵĠ":11684,"yÃŃĠbÃłnĠ":11685,"tuÃ¡nĠjiÃ©Ġ":11686,"shÅįuĠgÃ²u":11687,"huÇĴĠchÄĵĠ":11688,"ÃłiĠÄĽrĠlÃ¡n":11689,"1ĠhÃłoĠ":11690,"ĠkÄģiĠshÇĲ":11691,"ĠĠĠe":11692,"16ĠniÃ¡nĠ":11693,"zhÇĶĠquÃ¡nĠ":11694,"ĠqiÃºĠduÃ¬":11695,"ĠdÃłĠbÃ¹ĠfÃ¨nĠ":11696,"ĠlÃ³ng":11697,"ĠgÃ²ngĠtÃ³ngĠ":11698,"ĠĠĠ0":11699,"ĠĠĠre":11700,"ĠhÃ©ĠyuÃ¡nĠ":11701,"zhÇĲĠdÃ¬ng":11702,"jÇĲnĠzhÄģngĠ":11703,"zhÄĵnĠzhÃ¨ngĠdeĠ":11704,"shÃ¹nĠshÃŃĠzhÄĵnĠyÇĶĠ":11705,"Ġ160":11706,"ĠzÇĶĠzhÄ«Ġ":11707,"ĠbÄ«nĠ":11708,"mÃŃngĠyÃºĠ":11709,"zhÃŃĠxÃŃng":11710,"bÄģĠsÄ«Ġ":11711,"cÄģnĠjiÃłnĠ":11712,"kÃłnĠfÇİĠ":11713,"wÄĵnĠdÃłiĠ":11714,"hÅ«nĠyÄ«n":11715,"tiÄĵĠmÃ¹":11716,"ĠdeĠxÃŃngĠ":11717,"ĠyÄ«ĠshÃŃĠ":11718,"ĠyÇĲĠdÅįngĠ":11719,"ĠxiÃłnĠzhÇİngĠ":11720,"zÃ¬ĠwÇĴĠ":11721,"wÃ¹ĠtÇĲĠ":11722,"fÄĵngĠgÃ©ĠdeĠ":11723,"tÃŃĠqiÃ¡nĠ":11724,"zÃºĠqÃºnĠ":11725,"xÇĶĠkÄĽĠ":11726,"ĠyÇĲnĠfÄģĠ":11727,"liÃ¡nĠmÃ©ngĠdeĠ":11728,"ĠĠĠ2009ĠniÃ¡nĠ":11729,"nÃ¨iĠsÄ«Ġ":11730,"zÃ©ĠyÃ³uĠ":11731,"ĠshÃ¬ĠtÃ¡iĠwÄģnĠ":11732,"ĠdÃłĠduÃ¬Ġ":11733,"zhÇĶĠdÇİĠ":11734,"fÄģngĠÃłn":11735,"ĠxiÄģngĠguÄģnĠdeĠ":11736,"pÇĶĠlÄģĠ":11737,"ĠĠĠÃ©rĠ":11738,"lÃ¡iĠshÃ¬Ġ":11739,"zhÃ¨nĠjÃŃĠxÃŃngĠzhÃ¨ngĠdÄģnĠwÃ¨iĠ":11740,"nÃ¡ngĠ":11741,"ĠbÃ¹ĠchÃ©ngĠ":11742,"fÄģngĠbiÃłnĠ":11743,"suÇĴĠxÅ«":11744,"ĠyÃ³uĠzhÃ¨ngĠ":11745,"ĠzÃ¬ĠrÃ¡n":11746,"ĠJĠ":11747,"ĠxiÇİnĠshÃ¬Ġ":11748,"ĠtÃłiĠguÃ³Ġ":11749,"ĠĠĠgÇĶĠ":11750,"ĠĠĠtÄģĠdeĠ":11751,"ĠĠĠguÃ³ĠjÃ¬Ġ":11752,"lÃŃnĠjÃ¬nĠ":11753,"wÇĴĠdeĠ":11754,"ĠzhÅįngĠyÄ«Ġ":11755,"ĠzhÃ¬ĠyuÃ¡nĠ":11756,"shÄĵngĠgÃ©ĠwÃ¨iĠ":11757,"ĠjiÃłnĠkÄģng":11758,"ĠquÃ¡nĠxiÃłnĠ":11759,"zuÃ¬ĠzhÃ²ngĠyÃłoĠdeĠ":11760,"ĠzhÃ¨ĠyÃłng":11761,"tÃºĠÃłnĠ":11762,"ĠwÄĵiĠÄĽrĠ":11763,"ĠnÃŃ":11764,"Ġ64":11765,"duÅįĠÄĽrĠ":11766,"qÃ¹ĠleĠ":11767,"ĠshÃ¬ĠlÃ¡ngĠ":11768,"ĠzÃłiĠqiÃ¡nĠ":11769,"ĠzhÅįngĠjiÃłngĠ":11770,"ĠjÃŃĠbiÃ©Ġ":11771,"ĠÃ©rĠtÃ³ng":11772,"ĠshÃłngĠyÃ¬ngĠ":11773,"tÃ³ngĠyÃłngĠ":11774,"cÄģnĠguÄģnĠ":11775,"chÃ³ngĠfÇİnĠ":11776,"ĠrÃ©nĠkÇĴuĠwÃ¨iĠ":11777,"jÇĲngĠwÃ¨iĠ":11778,"xiÄģnĠwÃ©iĠ":11779,"dÇĴngĠ":11780,"ĠyÄ«ĠliÃ¡o":11781,"guÄģnĠkÃłnĠ":11782,"ĠyÄ«nĠÃ©r":11783,"juÃ©ĠsÃ¨ĠdeĠ":11784,"ĠmÃŃĠ":11785,"shÃ¨ngĠdeĠ":11786,"jiÃłĠdeĠ":11787,"1926ĠniÃ¡nĠ":11788,"yÃ¬ĠhuÃ¬Ġ":11789,"ĠzhÅįuĠzhÇİngĠ":11790,"dÃ¬ngĠyÃ¬ĠwÃ¨iĠ":11791,"jiÇİnĠchÃ¡":11792,"shÄĽnĠpÃłnĠ":11793,"hÃ¹nĠnÃŃngĠ":11794,"YĠ":11795,"Ġe":11796,"Ġ58":11797,"ÃłnĠlÃ¬Ġ":11798,"shÄĵnĠyÃºĠ":11799,"xÃ¹nĠxÄ«Ġ":11800,"ĠgÃ¨ĠguÃ³ĠjiÄģĠ":11801,"ĠyÇĶĠxÄ«Ġ":11802,"jiÄģnĠchÃŃĠ":11803,"dÄģnĠdÃºĠ":11804,"wÇİngĠwÇİng":11805,"cÇİiĠyÃ²ngĠleĠ":11806,"ĠguÇİngĠxÄ«Ġ":11807,"ĠĠĠwÃ¡ngĠ":11808,"shÄ«ĠjÃŃĠ":11809,"lÃ¹nĠdeĠ":11810,"ĠzhÅįngĠduÃłnĠ":11811,"ĠyÃºĠ2016":11812,"ĠdÃłĠchÃ©n":11813,"zhÇĴngĠlÃ¨iĠ":11814,"cÅ«nĠmÃŃnĠ":11815,"qÃºnĠdÇİoĠdeĠ":11816,"Ġ17Ġ":11817,"ĠzhÃ¨ngĠfÇĶĠdeĠ":11818,"2ĠlÃ¬Ġ":11819,"ĠshÃ¹":11820,"ĠĠĠ5Ġ":11821,"xÃ¬ngĠmÃŃngĠ":11822,"shÃ²uĠdÃłoĠleĠ":11823,"ĠyÇĶĠwÃ©nĠ":11824,"jiÃłoĠliÃłn":11825,"zhÃ¹ĠshÇĴuĠ":11826,"tiÄģnĠwÃ©nĠxuÃ©Ġ":11827,"jiÃłĠgÃ²uĠ":11828,"ĠyÃ³uĠqÃŃĠ":11829,"ĠzhÃŃĠjiÄĵĠ":11830,"Ã¨ĠhuÃłĠ":11831,"ĠdÃºĠlÃ¬Ġ":11832,"ĠĠĠluÃ³Ġ":11833,"ĠĠĠzuÃ²ĠwÃ©iĠ":11834,"bÄģĠjÄ«ĠsÄ«Ġ":11835,"xiÄģnĠdeĠ":11836,"1918ĠniÃ¡nĠ":11837,"ESTĠ":11838,"ĠshÃ¬ĠchÃ©ngĠ":11839,"ĠshÃ¬ĠchÅ«Ġ":11840,"ĠyÇĴuĠmÃŃngĠ":11841,"ĠdÃłoĠshÃŃĠ":11842,"ĠyÇĲĠcÇĲĠ":11843,"jiÄģnĠchÃ¡":11844,"ĠzhÅįuĠfÃ¹ĠzÃ©ĠguÇİnĠxiÃ¡Ġ":11845,"wÃłiĠlÃ¡ngĠ":11846,"miÃłnĠxiÃłngĠ":11847,"jiÇİngĠpÃ¡iĠ":11848,"ĠzhÃłnĠhÃ²uĠ":11849,"ĠÃłiĠÄĽrĠ":11850,"tiÃ¡oĠyuÄĵĠtÇĲĠxÃ¬Ġ":11851,"3ĠmÃŃngĠ":11852,"Ġ47":11853,"ĠbiÄģoĠ":11854,"wÄĵngĠ":11855,"ĠzhÅįngĠshÄģn":11856,"ĠpÃŃngĠchÃ©ngĠ":11857,"ĠdÄ«Ġ":11858,"Ġ1988ĠniÃ¡nĠ":11859,"jÃ¬ĠbÃ¹Ġ":11860,"duÃ¬ĠdÃ¬Ġ":11861,"wÃ¹ĠbÃ¹Ġ":11862,"suÇĴĠshÃ¬Ġ":11863,"jÄ«ĠhuÃ¬Ġ":11864,"hÃ²uĠqÄ«Ġ":11865,"zhÇĶĠbÃłnĠ":11866,"fÃ¹ĠmÇĶĠ":11867,"jÄ«ngĠyÃłn":11868,"gÄĵnĠsuÃŃĠ":11869,"Ġ1985ĠniÃ¡nĠ":11870,"ÄģnĠxiÃłnĠ":11871,"ĠĠĠquÃ¡nĠ":11872,"suÄģnĠjiÇİnĠ":11873,"1914ĠniÃ¡nĠ":11874,"ĠjÄ«ĠfÄĵnĠ":11875,"xuÇİnĠmÃŃnĠ":11876,"kÄĵĠhuÃ¬ĠshÃ¬ĠdÃ¬Ġ":11877,"gÄĵĠshÇĴu":11878,"Ã¨rĠshÃŃĠniÃ¡nĠ":11879,"sÃ¹ĠdÃ¹":11880,"sÃ¨ĠcÇİiĠ":11881,"chÄĵngĠhÅ«Ġ":11882,"ĠdeĠshÃŃĠjiÄģn":11883,"pÃ©iĠxÃ¹n":11884,"ĠguÃ³ĠfÃ¡ngĠbÃ¹Ġ":11885,"Ġ48":11886,"ĠĠĠ2007ĠniÃ¡nĠ":11887,"meĠĠĠ":11888,"ĠrÃ©nĠquÃ¡nĠ":11889,"ĠchÅ«ĠyÃºĠ":11890,"qiÃ¡nĠshÄĵnĠ":11891,"cÃ¬ĠshÃ¹Ġ":11892,"ĠlÃ¡iĠzÃ¬":11893,"ĠzhÃŃĠxÃŃngĠ":11894,"nÃ¡nĠjÃŃĠtiÃ¡oĠyuÄĵĠtÇĲĠxÃ¬Ġ":11895,"ĠmÃ¡o":11896,"Ġ600":11897,"tÃ¡ngĠhÃ©Ġ":11898,"tÄ«ngĠdÃłoĠ":11899,"tÅ«ĠrÃ¡n":11900,"cÃ¡nĠjÃŃĠrÃ©nĠ":11901,"veĠ":11902,"ĠshÃ¬ĠpÃŃnĠ":11903,"ĠbÃ¹ĠlÇĶĠ":11904,"ĠgÅįngĠdÇİĠ":11905,"zÃ¬ĠshÄģĠ":11906,"xiÇİngĠyÃłoĠ":11907,"pÇĲnĠzhÇĴngĠ":11908,"jÇĲĠnÃ¨iĠ":11909,"ĠgÄģiĠcÅ«nĠshÇĲĠjiÃłnĠyÃºĠ":11910,"ĠrÃ³ng":11911,"ĠfÃłn":11912,"ĠLe":11913,"yÃºĠwÃ¨iĠ":11914,"zhÃ¨ngĠyÃ¬Ġ":11915,"yÃŃnĠhÃ©Ġ":11916,"ĠzÃłiĠnÃ¨iĠ":11917,"wÃ©iĠyÄĽĠ":11918,"duÅįĠshÃ¹":11919,"biÄģnĠzÇĶĠ":11920,"rÃ¨ĠdÃłi":11921,"ĠÄģnĠhuÄ«Ġ":11922,"ĠxÃŃngĠchÃ©ngĠleĠ":11923,"ĠjÃ¬ngĠnÃ¨iĠ":11924,"qÃŃĠzhÅįngĠyÃŃĠgÃ¨Ġ":11925,"xiÃłĠxiÃ¡ĠdeĠyÃŃĠgÃ¨ĠxiÄģngĠzhÃ¨nĠjÃŃĠxÃŃngĠzhÃ¨ngĠdÄģnĠwÃ¨iĠ":11926,"zhÃłnĠwÃ¨iĠyÃºĠ":11927,"zhÃ¹ĠyÇĴuĠ":11928,"mÇİĠshÃ¬Ġ":11929,"zhÃ¨nĠdÃ¬Ġ":11930,"xiÇİngĠyÇĴuĠ":11931,"ĠshÃŃĠyÇĴuĠ":11932,"wÃ©iĠchÃŃ":11933,"diÃłnĠchÃŃĠ":11934,"ĠzÇĶĠchÃ©ngĠ":11935,"ĠzhuÄ«Ġ":11936,"ĠĠĠjÃ¬n":11937,"mÃ©iĠtÃ³ngĠpÃ¡iĠ":11938,"tÇİĠjÄ«Ġ":11939,"gÅįngĠmÃŃnĠ":11940,"ĠchÃ©ngĠgÅįngĠdeĠ":11941,"ĠsÄ«ĠdÃ¹nĠ":11942,"ĠjÄ«ĠbÄĽn":11943,"ĠjiÄģĠlÇĲĠ":11944,"ĠkÃ¨ĠyÇĶĠ":11945,"ĠdÃ©ĠluÃ³Ġ":11946,"fÃºĠzhuÄģngĠ":11947,"sÃ¹ĠsÃ²ngĠ":11948,"qÃŃngĠgÇİnĠ":11949,"piÃłnĠduÃłnĠ":11950,"shÅįuĠcÃ¡ngĠ":11951,"pÄ«ĠpÃłnĠ":11952,"ĠsÄ«ĠlÃ¬ngĠyuÃ¡nĠ":11953,"8ĠgÃ¨Ġ":11954,"ĠcÃ¡o":11955,"Ġ1945":11956,"ĠguÇİnĠlÇĲĠ":11957,"liÇİngĠzuÃ²Ġ":11958,"nÃ³ngĠlÃ¬Ġ":11959,"mÃ¡iĠ":11960,"ĠzÃłiĠnÃłĠ":11961,"ĠyÃ¬ĠxÃŃĠ":11962,"ĠrÃ¬ĠyÇĲĠ":11963,"ĠjiÃłnĠdÃłoĠ":11964,"ĠhÃ²uĠzhÄĽ":11965,"ĠkÃ¨ĠzÃłiĠ":11966,"huÃłĠguÄ«Ġ":11967,"jiÃłoĠdÃłĠdeĠ":11968,"wÃ©nĠzhÄģng":11969,"ĠwÃ©iĠwÃºĠÄĽrĠ":11970,"jiÄģngĠnÃ¡nĠ":11971,"ĠzuÃ²ĠzhÄĽĠ":11972,"zhÃ¨nĠyÄģĠ":11973,"bÅįĠtÃ¨Ġ":11974,"ĠjiÃ©ĠhÅ«nĠ":11975,"ĠxÃ¬ĠliÃ¨":11976,"2ĠĠĠ":11977,"ĠshÃŃĠtÇĲĠ":11978,"ĠyuÃ¨ĠyÇĶĠ":11979,"ĠyÄ«ĠlÃłi":11980,"qÇĲĠyuÃ¡nĠyÃºĠ":11981,"rÃ³ngĠliÃłngĠ":11982,"ĠFĠ":11983,"ĠĠĠsuÄ«ĠrÃ¡n":11984,"yÃ²ngĠzÃłiĠ":11985,"tÃ¨ĠshÃ¬Ġ":11986,"yÃ²uĠyÃ¬Ġ":11987,"fÃ¡ngĠxiÃłnĠ":11988,"17ĠniÃ¡nĠ":11989,"50ĠniÃ¡nĠ":11990,"1990ĠniÃ¡nĠdÃłiĠ":11991,"kuÄģngĠjiÃłĠ":11992,"ĠxÄ«ĠtÃ¨Ġ":11993,"ĠbÃ¬ngĠbÃºĠshÃ¬Ġ":11994,"qÄ«ngĠxiÃłngĠ":11995,"ĠxiÃłĠlÃ¡iĠ":11996,"mÃ²ĠqÄ«Ġ":11997,"kÇİoĠchÃ¡Ġ":11998,"ĠniÃ¡nĠ4ĠyuÃ¨Ġ1ĠrÃ¬Ġ":11999,"yÃ¬nĠnÃŃ":12000,"xiÇİoĠxÃŃngĠxÄ«ngĠdeĠ":12001,"nÃ¡nĠjÃŃĠtiÃ¡oĠyuÄĵĠtÇĲĠxÃ¬ĠguÇİnĠlÇĲĠ":12002,"ĠtÃ¡nĠ":12003,"ĠjiÄĵĠwÃ¨iĠ":12004,"ĠĠĠhuÃ²Ġ":12005,"ĠĠĠzhÃŃĠyÃ¨ĠshÄĵngĠyÃ¡Ġ":12006,"wÃ©iĠgÅįngĠ":12007,"biÄģnĠxÃŃngĠ":12008,"cÃŃĠjÄ«Ġ":12009,"28ĠniÃ¡nĠ":12010,"1950ĠniÃ¡nĠ":12011,"1913ĠniÃ¡nĠ":12012,"ĠzÃłiĠchÃ©ngĠ":12013,"ĠdÃłĠqÃ¬Ġ":12014,"huÃ¬ĠshÃłngĠ":12015,"fÇİĠlÃ¡nĠxÄ«Ġ":12016,"fÄĵnĠlÃŃ":12017,"ĠliÃ¡nĠbÄģng":12018,"shÃłoĠnÇļ":12019,"ĠtÇĲĠyÃ¹Ġ":12020,"tiÄģnĠwÃ©nĠtÃ¡iĠ":12021,"shÄĽngĠfÃ¹ĠzÃ©ĠguÇİnĠxiÃ¡Ġ":12022,"hÃ¹ĠwÃ¨iĠ":12023,"luÃ²ĠyÄ«Ġ":12024,"lÄĽiĠjÄ«Ġ":12025,"gÄĽnĠdÃ¬Ġ":12026,"wÃ©iĠchÃŃĠ":12027,"qiÃ¡nĠlÃ¡iĠ":12028,"shÄģngĠhÃłiĠ":12029,"yÃŃĠgÃ¨ĠyuÃ¨Ġ":12030,"dÄģngĠxuÇİnĠwÃ¨iĠ":12031,"ĠjiÄĵĠshÃ²uĠ":12032,"ĠjÃŃĠbÄĽiĠmÄĽiĠ":12033,"ĠyÃ¡nĠjiÅ«":12034,"Ġ1984ĠniÃ¡nĠ":12035,"rÃ¬ĠjÅ«nĠ":12036,"miÃ¨ĠjuÃ©Ġ":12037,"shÇİnĠ":12038,"bÃŃĠ":12039,"ĠdeĠzhÄ«ĠchÃŃĠ":12040,"ĠshÃ¬ĠzhÃ¬Ġ":12041,"ĠchÃ©ngĠfÃ¨nĠ":12042,"ĠzhÄ«ĠlÇĲĠ":12043,"ĠyuÃ¡nĠyÄ«nĠshÃ¬Ġ":12044,"xÄ«ĠwÃłng":12045,"ĠdÃłnĠyÄĽĠ":12046,"ĠfÃ¹ĠzhÇĶĠxÃŃĠ":12047,"wÃ©iĠyÄ«ĠyÄ«Ġ":12048,"ĠĠĠjiÃ©Ġ":12049,"ĠĠĠwÃłiĠbÃ¹Ġ":12050,"ÃłiĠhÃłoĠ":12051,"leĠzhÅįngĠguÃ³Ġ":12052,"zuÃ¬ĠyÇĴuĠ":12053,"jiÇİnĠyÃ¬Ġ":12054,"sÃłĠkÃ¨ĠsÄ«Ġ":12055,"pÃ©nĠdÃ¬Ġ":12056,"pÄ«ngĠ":12057,"ĠgÃ¨ĠlÃ¨iĠ":12058,"jiÃłoĠzÅįngĠ":12059,"ĠzhÃ¨ngĠcÃ¨":12060,"zhÃ²ngĠliÃłngĠ":12061,"yÇİnĠhuÃłĠ":12062,"tÃ³ngĠmÃ©ng":12063,"ĠshÃ¬ĠjiÃ¨ĠbÄĵi":12064,"ĠdiÃłnĠziĠ":12065,"ĠdÃ²ngĠhuÃłĠ":12066,"fÄģĠbÃ¹ĠleĠ":12067,"ĠĠĠf":12068,"fÄĵiĠÄĽrĠdÃ©Ġ":12069,"ĠwÃ¨iĠjÃŃĠ":12070,"ĠxÄ«ĠzÃłngĠ":12071,"xiÃłĠlÃ¬ngĠ":12072,"fÇİĠxuÃ©Ġ":12073,"shÄģĠbÃ¡iĠ":12074,"jiÇĶĠlÃ³ng":12075,"ĠniÃ¡nĠdÃłiĠdeĠ":12076,"Ġ800":12077,"ĠchÄģoĠguÃ²Ġ":12078,"xÄ«ĠyÃºĠ":12079,"yÇĶĠdÃ¬Ġ":12080,"jiÃłnĠshÃ¨":12081,"ĠdeĠqÃŃngĠkuÃłngĠxiÃłĠ":12082,"ĠchÃ©ngĠjiÃ¹Ġ":12083,"ĠyÄ«ĠshÄ«Ġ":12084,"shÃ²uĠsÇĶnĠ":12085,"tÃŃngĠzhÇĲ":12086,"jiÄĽĠsÃłn":12087,"ĠrÃ©nĠmÃŃnĠzhÃ¨ngĠfÇĶ":12088,"chÇĲĠcÃ¹n":12089,"ĠĠĠzhÅįngĠhuÃ¡ĠrÃ©nĠmÃŃnĠgÃ²ngĠhÃ©ĠguÃ³Ġ":12090,"ĠhuÃ¡ĠshÃ¨ngĠ":12091,"cÄģnĠsÃłiĠzÄ«ĠgÃ©Ġ":12092,"shÄģnĠmÃłiĠdeĠyÄ«ĠbÃ¹ĠfÃ¨nĠ":12093,"ĠtÃ¡i":12094,"ĠlÄĽiĠjÃ¬Ġ":12095,"sÃ¬ĠwÃ¨iĠ":12096,"shuÇĲĠdÃłoĠ":12097,"suÃŃĠjÄ«Ġ":12098,"rÃ©nĠkÇĴuĠwÃ¨iĠ":12099,"jÃ¬ĠhuÃł":12100,"ĠyuÃ¡nĠlÇĲĠ":12101,"ĠxiÃłnĠxÃ¬ngĠ":12102,"qÅ«ĠbiÃ©Ġ":12103,"tÅįngĠyÃ²ngĠ":12104,"ĠzhÇĶĠzhÄģngĠ":12105,"tiÃ¡oĠjiÃ©Ġ":12106,"zhÃ¨ngĠzhÃ¬ĠjiÄģĠ":12107,"lÃ©iĠdÃ¡Ġ":12108,"rÃ¨ĠdÃłiĠqÃ¬ĠxuÃ¡nĠ":12109,"ĠgÃ¨ĠyuÃ¨ĠhÃ²uĠ":12110,"Ġ65":12111,"ĠbÄģngĠzhÃ¹Ġ":12112,"Ġ1991ĠniÃ¡nĠ":12113,"huÃ¬ĠwÃ¨iĠ":12114,"hÇİiĠshÃ¬Ġ":12115,"mÃ²ĠniÃ¡nĠ":12116,"xÃ¬nĠrÃ¨nĠ":12117,"ĠzÃłiĠshÃłngĠ":12118,"ĠguÃ³ĠÄģnĠ":12119,"ĠzhÅįuĠkÄģnĠ":12120,"tÃ³uĠxiÃ¡ng":12121,"ĠtiÄģnĠwÃ©nĠ":12122,"ĠdeĠgÅįngĠnÃ©ngĠ":12123,"juÃ©ĠwÃ¨iĠ":12124,"1960ĠniÃ¡nĠdÃłiĠ":12125,"HDĠĠĠ":12126,"ĠyÄ«ĠrÃ¡n":12127,"hÇİiĠbÃ¡ĠgÄģoĠdÃ¹Ġ":12128,"jiÇİnĠcÃ¨Ġ":12129,"tÃ¡ngĠqÅ«Ġ":12130,"yÄ«nĠcÇĲĠ":12131,"ĠtÃ³ngĠxÃ¬ngĠ":12132,"huÃŃĠdÃ¡Ġ":12133,"ĠdeĠjÃ¬ĠshÃ¹Ġ":12134,"wÄĽnĠdÃ¬ngĠdeĠ":12135,"Ġá":12136,"ĠwÇİ":12137,"ĠjÅ«Ġ":12138,"jiÃ©ĠchÅ«Ġ":12139,"bÄ«ngĠdeĠ":12140,"luÇİnĠ":12141,"ĠhÃ©ĠyÃ¬Ġ":12142,"ĠdÃ¬ĠchÇİnĠ":12143,"ĠyÃºĠ2024":12144,"ĠtÄģĠyÇĴuĠ":12145,"guÄģnĠliÃ¡nĠ":12146,"qiÃ¡nĠfÄĵngĠ":12147,"suÇĴĠwÃ¨iĠdeĠ":12148,"bÇİoĠxiÇİnĠ":12149,"ĠhuÃ²ĠchÄĵngĠ":12150,"dÅ«ĠchÃ¡Ġ":12151,"ĠjiÇİnĠchÄĵng":12152,"Ġ1989ĠniÃ¡nĠ":12153,"ĠĠĠ2006ĠniÃ¡nĠ":12154,"cÃ©ngĠrÃ¨nĠ":12155,"ĠlÃ¬ĠÃłoĠ":12156,"ĠduÃ¬ĠfÄģngĠ":12157,"ĠquÃ¡nĠshÃ¬Ġ":12158,"cÃŃĠdiÇİnĠ":12159,"diÃłnĠshÃ¬ĠjiÃ©ĠmÃ¹Ġ":12160,"fÄģĠbiÇİoĠdeĠ":12161,"yÃłĠmÄĽiĠnÃŃĠyÃłĠ":12162,"hÃ¹ĠliÃ¡nĠwÇİngĠ":12163,"ĠsÄģng":12164,"nÃ¡nĠshÃ¬Ġ":12165,"xiÃłngĠwÃ¨iĠ":12166,"zÄĵngĠshÃ¨Ġ":12167,"tuÄ«ĠlÇĲĠ":12168,"24ĠniÃ¡nĠ":12169,"manĠ":12170,"ĠzhÃ¨ngĠchÃ¡ngĠ":12171,"pÇĶĠlÇĶĠshÃ¬Ġ":12172,"tuÄ«ĠchÅ«ĠleĠ":12173,"xiÅ«ĠdÃłoĠyuÃłnĠ":12174,"ĠĠĠforĠĠĠ":12175,"ĠyÇĲn":12176,"ĠkÄģng":12177,"ĠshÄĽngĠ":12178,"Ġ1990ĠniÃ¡nĠ":12179,"ĠĠĠzhÄģngĠ":12180,"yÇĶĠyÃ¬Ġ":12181,"bÄĽiĠjÃŃĠ":12182,"kÄĵĠlÃ¬Ġ":12183,"gÇİiĠjÃ¬nĠ":12184,"ĠyÃºĠ2018":12185,"ĠyÇĶĠqÃŃ":12186,"dÇİoĠshÄ«Ġ":12187,"ĠdeĠshÃ¬ĠjiÃ¨":12188,"ĠcÇĲĠcÃ¬Ġ":12189,"ĠqiÃ¡oĠzhÃ¬Ġ":12190,"ĠĠĠmÃŃnĠguÃ³Ġ":12191,"lÃ¹ĠshÃ¬Ġ":12192,"cÃ©ngĠyÇĴuĠ":12193,"qÇĶĠzÃ¬Ġ":12194,"hÅ«nĠlÇĲĠ":12195,"ĠchÃ©ngĠzuÃ²Ġ":12196,"sÅ«ĠgÃ©ĠlÃ¡n":12197,"ĠzÇİoĠ":12198,"ĠĠĠyÄ«nĠyuÃ¨Ġ":12199,"duÃ¬ĠzhÅįngĠ":12200,"ĠhÃ©ĠzhÃ¬Ġ":12201,"ĠtÄģĠbÃ¹Ġ":12202,"ĠxÃŃngĠchÃ¡i":12203,"ĠxÃŃngĠshÃ¬ĠdeĠ":12204,"zhÃ¨ngĠcÃ¨":12205,"dÃłiĠmÇİĠ":12206,"ĠleĠyÃŃĠgÃ¨Ġ":12207,"ĠxiÄģngĠguÄģn":12208,"ĠxÃŃngĠzhÃ¨ngĠyuÃłnĠ":12209,"ĠyÃ²uĠyÃ¬Ġ":12210,"ĠĠĠSt":12211,"ĠĠĠchÄĵĠzhÃłn":12212,"mÄĽiĠdeĠ":12213,"liÃºĠqiÃºĠ":12214,"chuÃ¡nĠdeĠ":12215,"luÃ²ĠyÃºĠ":12216,"tÃŃngĠzhÃłnĠ":12217,"nÃ¡ĠdÃł":12218,"37ĠniÃ¡nĠ":12219,"ĠchÃ©ngĠdÅ«Ġ":12220,"jÄ«ĠbÃłiĠ":12221,"ĠyÇĶĠzhÄ«Ġ":12222,"ĠdÃłiĠmÇİĠwÃ¨iĠ":12223,"liÃ¡ngĠhÇİoĠ":12224,"lÃ¬ĠshÇĲĠshÃłngĠ":12225,"ĠxiÃłnĠshÃŃĠyÃ³uĠnÃ¡nĠjÃŃĠtiÃ¡oĠyuÄĵĠtÇĲĠxÃ¬ĠguÇİnĠlÇĲĠ":12226,"ĠshÅ«":12227,"ĠLa":12228,"ĠchÃŃĠ":12229,"ĠĠĠshÄģĠ":12230,"bÃ¡iĠrÃ©nĠ":12231,"dÇĲngĠjÃŃĠ":12232,"zÅ«ĠjiÃ¨":12233,"ĠdÃ¬ĠyÃ¹Ġ":12234,"ĠzhÃ¬ĠdÃ¹":12235,"ĠchÅ«ĠlÃ¡iĠdeĠ":12236,"tÃ¨ĠshÅ«":12237,"ĠduÅįĠcÃ¬Ġ":12238,"chÃ³ngĠqÃ¬ngĠ":12239,"ĠxuÃ©":12240,"ĠĠĠwÇĶĠ":12241,"jiÃ©ĠshÃŃĠ":12242,"ĠdeĠyÇĴuĠ":12243,"ĠyÃºĠ2015":12244,"ĠgÅįngĠchÇİng":12245,"lÃ¹ĠyÇĲngĠdÃłiĠ":12246,"liÃºĠdÃ²ngĠ":12247,"ĠbÄĽnĠzhÃłnĠ":12248,"ĠbÄĽnĠtÇĶĠ":12249,"ĠzhuÄģn":12250,"ĠlÇİo":12251,"ĠqÇĶĠdÃ©Ġ":12252,"ĠUĠ":12253,"piÃłnĠrÃ©nĠ":12254,"38ĠniÃ¡nĠ":12255,"1901ĠniÃ¡nĠ":12256,"ĠyÃºĠlÃ©iĠ":12257,"miÃłnĠ2":12258,"liÇİngĠÃłnĠ":12259,"shÃ©nĠshÃ¨ngĠ":12260,"ĠdÄĽngĠdÄĽngĠ":12261,"ĠzÃłiĠdÃ¬ĠyÄ«Ġ":12262,"guÄģnĠfÃ¨iĠyÃ¡nĠquÃ¨ĠzhÄĽnĠbÃ¬ngĠlÃ¬Ġ":12263,"bÄĽiĠdeĠ":12264,"jiÄģoĠyÃ³uĠ":12265,"mÃłnĠdÃ¬ĠguÃ³Ġ":12266,"zhÄĽngĠlÇĲĠ":12267,"ĠyÃºĠ2020":12268,"ĠrÃ©nĠlÃ¬Ġ":12269,"dÃłĠxÃŃngĠ":12270,"ĠyÇĴuĠguÄģnĠdeĠ":12271,"ĠgÅįngĠÄģnĠ":12272,"yÇĲĠjÄ«ng":12273,"fÃ¡ngĠwÅ«":12274,"ĠzhÃŃĠlÃ¬Ġ":12275,"pÃ©iĠyÇİng":12276,"ĠĠĠzhÃ¨ĠkÄĵĠ":12277,"ĠHĠ":12278,"iĠĠĠ":12279,"ĠÙ":12280,"ĠyÃ¬ĠniÃ¡nĠ":12281,"rÃ¬ĠzhÃ¬Ġ":12282,"tÃ³ngĠwÃ¨iĠ":12283,"huÃŃĠdÃło":12284,"ĠdÃ¬ĠshÃłngĠ":12285,"ĠdÃ¬ĠjiÇĶĠ":12286,"ĠyÄ«ĠrÃ¡nĠ":12287,"nÃ¨iĠgÃ©":12288,"tÃŃĠgÄģo":12289,"ĠyÃ³uĠqÃŃ":12290,"mÃŃnĠyÃ¬Ġ":12291,"bÇİoĠhÃ©Ġ":12292,"yÃ²uĠzÃłiĠ":12293,"zhuÄ«ĠqiÃºĠ":12294,"ĠdeĠyÃ³uĠ":12295,"ĠdeĠzuÃ¬Ġ":12296,"ĠdeĠxÃŃngĠshÃ¬Ġ":12297,"ĠshÃ¬ĠchÇİng":12298,"rÃ©nĠyuÃ¡nĠ":12299,"ĠyÃºĠ2013":12300,"jÃ¬ĠshÃ¹":12301,"ĠguÃ³ĠdÃłoĠ":12302,"huÃłĠmiÃłnĠ":12303,"dÄģnĠmÃłiĠ":12304,"chuÃ¡nĠshuÅį":12305,"ĠnÃ¡nĠxÃ¬ngĠ":12306,"jiÃ¹ĠzhÇĲĠ":12307,"jÇĲngĠqÅ«Ġ":12308,"jÇĲngĠdiÇİnĠ":12309,"tiÃ¡oĠkuÇİnĠ":12310,"ĠdeĠjÄ«ĠchÇĶ":12311,"3ĠmÇĲĠ":12312,"ĠÐ¾":12313,"yÃ¨ĠhÃ©Ġ":12314,"shÄĽngĠhuÃ¬Ġ":12315,"tÅįngĠxÃŃngĠ":12316,"lÃ¨ĠyuÃ¡nĠ":12317,"ĠshÃ¬ĠxiÃłĠxiÃ¡ĠdeĠyÃŃĠgÃ¨ĠxiÄģngĠzhÃ¨nĠjÃŃĠxÃŃngĠzhÃ¨ngĠdÄģnĠwÃ¨iĠ":12318,"ĠyÇĲĠbiÃłn":12319,"ĠxÃŃngĠhÃłoĠ":12320,"yÃ¨ĠjiÄģnĠ":12321,"rÃ¹ĠjÃ¬ngĠ":12322,"shÃ¨ĠyÇĲngĠ":12323,"guÃ¬ĠzÃº":12324,"ĠĠĠfÄĵnĠlÃ¨iĠ":12325,"ÃłiĠlÃ¬Ġ":12326,"jÃŃĠzhÅįngĠxuÃ©Ġ":12327,"zÃ©ĠxÄ«Ġ":12328,"bÄģĠlÇĲĠ":12329,"lÃŃnĠzhÅįngĠ":12330,"jiÃłngĠjÃŃĠ":12331,"gÅįngĠjÄ«Ġ":12332,"ĠyÃºĠ2012":12333,"ĠjÃ¬ĠhuÃłĠdeĠ":12334,"fÄģĠjuÃ©Ġ":12335,"bÃ³ĠlÄģĠ":12336,"ĠgÄĽi":12337,"Ġ1999":12338,"zÇĴngĠsÄ«ĠlÃ¬ngĠ":12339,"luÃ²ĠshÃŃĠ":12340,"xiÄĵĠÄĽrĠ":12341,"bÇİnĠquÃ¡nĠ":12342,"ĠzhÅįngĠzhÃ¨ngĠ":12343,"zhÇĶĠdÇİoĠ":12344,"nÃ¡nĠbÃ¹ĠdeĠ":12345,"ĠbÃ¨iĠbÇĶĠ":12346,"guÄģnĠguÄģngĠ":12347,"liÃ¡nĠsÃłiĠdeĠ":12348,"ĠqÃŃĠxiÃłĠdeĠ":12349,"yÃŃĠmiÃłnĠ":12350,"ĠdÃłnĠmÃ©iĠyÇĴuĠ":12351,"lÃ¹nĠtÃ¡nĠ":12352,"zhÄĵnĠchÃ¡Ġ":12353,"ĠsÄģnĠyuÃ¨Ġ":12354,"tÇĴngĠzhÃ¬ĠzhÄĽĠ":12355,"fÃ¡nĠmÃ¡ng":12356,"ĠhÄĵiĠlÃ³ngĠjiÄģngĠ":12357,"Ġt":12358,"ĠyÇĴu":12359,"ĠmÃŃngĠwÃ¨iĠ":12360,"ĠyÇİngĠ":12361,"kÃ¹ĠÄĽrĠ":12362,"ĠyÇĲĠjÃŃĠzÃłiĠ":12363,"zhÇĶĠliÃºĠ":12364,"tÇĲĠyÃłnĠ":12365,"ĠxiÃłĠwÇĶĠ":12366,"tÃ³ngĠmÃ©ngĠ":12367,"ĠsuÃŃĠjÃŃĠ":12368,"mÃ¨iĠmÃ¨iĠ":12369,"ĠĠĠdÃło":12370,"zuÃ²ĠzÃłiĠ":12371,"pÃŃngĠrÃ©nĠ":12372,"qiÄģnĠmÃŃngĠ":12373,"gÃ¨ngĠgÄģoĠ":12374,"qiÅ«ĠjÃ¬Ġ":12375,"yÃ©ĠÄĽrĠ":12376,"dÇĴuĠ":12377,"ĠshÃ¬ĠxÄ«nĠ":12378,"ĠchÅ«ĠniÃ¡nĠ":12379,"ĠqÃŃĠzhÃ¬Ġ":12380,"huÃłĠrÃ¹Ġ":12381,"lÃŃĠbÄģĠnÃ¨n":12382,"mÃ¬ĠsÅ«ĠlÇĲĠ":12383,"kÃłngĠrÃ¬ĠzhÃłnĠzhÄĵngĠ":12384,"ĠhÃ©ĠdÃłoĠquÃ¡nĠzhÇİngĠ":12385,"ĠĠĠzhÄĵngĠyÃ¬Ġ":12386,"tÃ¨ĠrÃ©nĠ":12387,"tedĠĠĠ":12388,"ĠbÃ¹ĠduÃłn":12389,"ĠyÄ«ĠcÃ¬":12390,"ĠyÄ«ĠÄĽrĠ":12391,"ĠdÃłoĠjÃŃĠ":12392,"ĠxÄ«ĠyÇĲn":12393,"fÄĵngĠsuÇĴĠ":12394,"yÇİnĠzÃ²uĠ":12395,"ĠyÄĽĠmÃ©iĠyÇĴuĠ":12396,"dÅįngĠbÃ¹ĠshÃŃĠqÅ«Ġ":12397,"ĠhÃ²uĠyÃºĠ":12398,"ĠĠĠwÃºĠ":12399,"yÃ¹nĠzÃłiĠ":12400,"tuÅįĠÄĽrĠ":12401,"ĠdeĠhÃ²uĠ":12402,"gÅįngĠyÃ¨Ġ":12403,"ĠgÅįngĠjiÄģoĠ":12404,"ĠchÃ©ngĠzhÇİngĠ":12405,"ĠjÅ«nĠrÃ©nĠ":12406,"dÅįngĠqÅ«Ġ":12407,"luÃ²ĠtÃ¨Ġ":12408,"ĠmÇİĠlÄģĠ":12409,"ĠtÃłiĠyÃ¡ngĠgÅįngĠ":12410,"ĠnuÃ²":12411,"ĠliÃłnĠ":12412,"kÃ¨ĠlÇĲĠsÄ«Ġ":12413,"sÃ¬ĠrÃ©nĠ":12414,"rÃ³ngĠdeĠ":12415,
[...]
