#version: 0.2
n g
h Ã
Ã ł
Ä ģ
Ã ¬
Ã ¡
Ä «
Ã ¨
Ç İ
Ġ Ġ
Ã ©
Ã Ń
s hÃ
Ã ¹
Ã¡ n
z h
Ç Ĳ
Å į
j i
d e
Ãł n
Ä ĵ
z hÃ
s h
Ä Ľ
Ã ³
Ç Ķ
x i
Ã ²
Ã º
Äģ n
ĠĠ Ġ
Ãł i
Å «
Åį ng
Ç Ĵ
ã Ģ
shÃ ¬
h u
Ã¨ i
g u
i Ã¡n
hÃ ©
Ãł o
Äģ ng
ÃŃ ng
y u
Çİ n
c h
n iÃ¡n
y Ä«
Çİ ng
Ã© n
ÇĴ u
Ã¬ ng
w Ã¨i
Çİ o
z Ãłi
ãĢ ģ
j Ä«
Äĵ ng
zh Åįng
x Ä«
b Ã¹
j Ã¬
Ãł ng
l i
zhÃ ¨
shÃ Ń
d Ã¬
gu Ã³
y Ãº
r Ã©n
Ã² ng
c hÃ
Äģ o
d u
c hÃ©
y ÇĲ
l Ã¬
Ã¡ ng
y Ã¬
u Ã²
Ã¡ i
zhÃ ¬
chÃ© ng
Ã© i
x u
g Åįng
j ÃŃ
² u
ÄĽ i
i Ãłn
Äĵ n
Ã³ ng
yu Ã¨
y ÇĴu
yu Ã¡n
d Ãł
q i
Åį u
l ÇĲ
2 0
Ã³ u
Äģ i
xi Ãłn
ji Äģ
s Ä«
Å« n
x ÃŃng
y ÇĶ
Ã¨ n
ÇĴ ng
ÃŃ n
t Äģ
r Ã¬
zh Ä«
hÃ ²u
Çİ i
g Ã¨
zhÃ ł
Ã© ng
l e
w Ã©i
hu Ã¬
d Ãło
1 9
b i
shÃ ł
q Ä«
q ÃŃ
shÃ ¨
s u
zhÃ¨ ng
m ÃŃng
ji Ãłn
xu Ã©
ch Å«
y Ã¹
ÄĽ ng
z uÃ²
sh Äĵng
du Ã¬
y Ã³u
q Å«
shÃł ng
ÄĽ n
d Ã©
l Ã¹
b Ã¨i
chÃ ¡
t i
sh ÇĲ
zhÃł n
zh ÇĶ
Äĵ i
q u
j Ã¹
xÄ« n
j Å«n
zh u
ÄĽ r
Ã¡ o
shÃ ¹
u Ã¬
r Ã¨n
f Äģ
w Ã¹
b Ã¬ng
k Ã¨
Ã© r
d Ãłi
y ÃŃ
jÃ¬ n
z Ã¬
yÄ« n
f Ã¹
f Äģng
jÄ« ng
n Ã¡n
hu Ãł
x Ã¬
zh Åįu
p ÃŃng
Ã² u
xi Ãł
l Ã¡i
y Ã²ng
sh u
gu Äģn
t Ã³ng
ãĢ ĭ
ãĢ Ĭ
f Çİ
zhÃ ¹
m ÄĽi
hÃ ¡
Â ·
ji Äģn
j ÇĲ
hu Ã²
d Ã¹
c hu
b ÄĽn
xi Äģng
zhÃ Ń
d Ã²ng
xi Ãłng
m ÃŃn
ji Äģng
f Äĵn
sh ÇĴu
qu Ã¡n
w Ã©n
y Ã¡n
hÃ ł
su ÇĴ
ji Ãło
q iÃ¡n
d iÃłn
t Ã¨
d i
du Åį
Ãº n
z uÃ¬
k Äģi
t u
ji Ã©
l iÃ¡n
zh ÇĲ
k ÄĽ
d Ãłn
m Ã¹
y Ã¨
f Ãº
m Çİ
y ÄĽ
d Åįng
qi Ãº
b ÄĽi
ãĢ Į
ãĢ į
g Äģo
y Ãł
q ÇĲ
ji Äĵ
m iÃłn
h Çİi
zh Çİng
sh Ä«
jÄ« n
c ÇĲ
l u
n Ã¨i
t ÇĲ
s Ãłi
s Äģn
t Ã¡i
g Ã©
x Ã¬ng
gu Ã²
r Ã¹
20 1
d ÄĽng
y Ãło
j u
ch Äĵ
c Ã¬
w ÇĶ
g Äģi
d Ã¬ng
chÃ¡ ng
bi Çİo
l Äģ
g Ã²ng
ji Ã¨
shÃ ²u
d Çİo
sh Äģn
ch Çİng
s Ã¬
b ÇĲ
z Ã©
t ÃŃ
k Äĵ
d Äģng
n Ã©ng
Ã¨ r
w Ãłi
d Äģn
x Ã¹
z i
k ÇĴu
xi Çİo
z ÇĶ
b Äģ
ju Ã©
l ÃŃn
li Ãº
sh ÄĽng
yÄ« ng
k u
l Ã¡n
lu Ã³
t Åįng
20 0
Ä« ng
² ng
m ÇĲ
zhÃ ²ng
e n
zh ÄĽ
sh ÇĶ
ti Äģn
zhÃ¨ n
Ç ļ
q Ã¬
zh ÇĴng
li Ã¨
ch Äĵng
sh Å«
yu Ãłn
b Çİo
t Ãłi
f ÇĶ
f Äĵng
g ÇĶ
qÄ« ng
sh Äĵn
w Ã¡ng
yÃ¹ n
gu Çİn
f Äĵi
ji Ã¹
li Çİng
c Ã©ng
m Ã©i
1 0
f Ã¨n
hÃł o
³ ng
y Çİn
w ÄĽi
z ÇĴng
xu Çİn
xi Ãło
d Ã¡
n Ãł
li Ãłng
b Åį
z Ãº
j Ã¬ng
b Ãło
n ÃŃ
w Ãº
t ÇĴng
hu Ã¡
ji Äģo
yu Äĵ
yÇĲ ng
b iÃłn
xÄ« ng
s Ã¹
shu ÇĲ
y Ã¡ng
hÃ ¹
m en
b Äģo
g Äĵ
b Ã³
c Äģn
c Ã³ng
di Çİn
b Ã¬
r Ãº
b Ãłn
bi Äģn
w Çİng
q ÇĶ
m i
ch Çİn
s Ã¨
z Ä«
chu Ã¡n
0 0
shÃ¨ ng
r Ã¡n
t Ãº
zh Äģng
p ÇĶ
g Çİi
g Çİng
n Çļ
l Ã¬ng
l uÃ²
y Ã²u
t Ã³u
c Ã¨
l Ç
chÃ Ń
1 8
lÇ ľ
qi Äģn
shÃ ©
l ÃŃ
d Åįu
p ÇĲ
1 2
zh Äĵng
n i
k uÃ²
sh Äģ
d Çİng
f Çİn
g Ã²u
l Ã¨i
x ÃŃ
jÇĲ ng
tu Ã¡n
w Äĵi
xi Äĵ
lÇĲ ng
l Ã³ng
gu Ä«
xi Äģn
r Ã³ng
hu Ã¡ng
xi Çİng
b Äģn
ji ÇĶ
y Ã¬ng
m Ã©n
sh Äģng
shÃ© n
20 2
b Çİn
k Çİ
m ÇĶ
jÇĲ n
f Å«
j ÇĶ
m Ã³
gu Çİng
c ÃŃ
shu Åį
q ÃŃng
zh Çİn
hÃ¡ i
zhu Äģng
m Ã²
c Ã¡i
d Ãº
1 1
pÇĲ n
t ÃŃng
chÃ¡ o
y ÃŃng
ti Ã¡o
ji Çİn
t Ã¡ng
hu ÃŃ
du Ãłn
chÃ© n
g Äĵn
m Ã¬
w Ãłn
p Ã¡i
w Äģn
z Ãło
hÃ¡ ng
w Ã¡n
bi Äģo
g Ã¹
l Ãºn
19 9
xi Ã©
ji Çİng
hÃł n
j Ãº
f Ãłn
f Ã¡ng
hu Ã³
hÃ¡ n
p i
k Åįng
o r
ti ÄĽ
m Ã©ng
bi Ã©
w Å«
ji ÄĽ
zhu Äģn
yÇĲ n
x Å«
zh Äĵn
d ÇĲ
e r
chÃ º
hÃ º
ji Ãł
b Ä«ng
m Ã¬ng
l ÃŃng
hÃ ³ng
qÄ« n
z ÇĲ
lÃ¹ n
xÃ¬ n
chÃ ¹
ch ÇĶ
s Å«
a n
xi Å«
z Åįng
1 5
qu Ã¨
xi Äģo
zhÃł o
qi Ã¡ng
q Ã¹
c Å«n
chÃ ³ng
p iÃłn
ji Å«
f Ãłng
su ÃŃ
sh Åįu
gÃ¨ ng
â Ģ
gu Äģng
Ã¨ ng
j Å«
o n
ji Çİ
chu Ãłng
d ÃŃ
1 6
zhu Çİn
gu ÇĴ
xÃ¹ n
m Ãłn
p Ãłi
f Ã¨i
p Ã¨i
19 8
d Çİ
tu Åį
l a
xu Äģn
b Ã¡i
zh Å«
d Å«
t ÇĶ
di Ãło
xi Ã¡
li Ã¹
1 7
su Ã¬
hu Ä«
t Ä«ng
qi ÄĽ
t Çİ
qi Ã¡o
h Äģ
g Çİn
z Äĵng
xi Çİn
m Ãłi
hu Ã¡n
x ÇĶ
w Çİ
tu Ä«
w Ã¨n
ch Äģo
t iÃ¡n
b Çİi
c Çİi
li Ã¡ng
y Ã¡
s Ãł
a r
b Ãłi
c Ãºn
ji Çİo
sh Çİo
y Ãłn
zhu Ãłng
hu ÇĴ
l Ã©i
1 4
z u
ji Ãłng
chu Äģn
yÃ¬ n
z Çİo
chÃ ł
y ÇĴng
s ÇĲ
d Äĵng
3 0
zhÇĶ n
l Ã¨
x Ãºn
n uÃ²
k Ã¹
hu Ãłn
s Ã²ng
g Ãło
l ÇĶ
1 3
19 4
b Äģng
l Çļ
p Ä«
y Ãłng
h ÄĽn
q Ãºn
zh ÄĽng
gu Ãłn
p Ã²
g Äģng
w ÇĴ
19 7
hu Äģ
l Äĵi
h Çİo
t Ã¡o
ku Ãłng
hÃ ¨
i n
dÃ¹ n
n Ã³ng
g ÄĽi
s Äģi
shu Äģng
li Ãłn
ku Ãłi
d Ä«
b Ä«
p Ãłn
xi ÄĽ
19 5
k Çİo
g Ãłi
h Äĵi
w Ãłng
li Ãło
r Ã¨
g e
zu ÇĴ
k Ã²ng
19 6
y Äģng
chÃł ng
y ÃŃn
³ u
r Ã©ng
s Äĵn
b Äĵi
l Ãº
pi Ãło
y Äģ
2 5
bÄ« n
âĢ Ķ
r Ãłng
ch Åįng
l Ã³u
b ÇĶ
l Çİo
zhÃ º
jÃ¹ n
y Çİng
r uÃ¬
y Äģo
xi Ã¡n
xi Ã¨
n iÃłn
f or
y Åįu
t Ã¡n
k Äģng
p ÃŃ
hÃ© ng
yÃº n
x ÇĲ
k Ãłn
n ÃŃng
li Ã¡o
shÃł o
b Ãº
2 4
qÇĲ ng
ch ÇĲ
m u
d Ã²u
mi Çİn
y Åįng
t Çİn
w Çİn
h Å«
f Äģn
a l
t Å«
g Äģn
su Ãłn
d Ä«ng
yu Çİn
w Äĵn
t uÃ¬
zh e
2 1
s t
xi Ã¹
b Çİ
m Çİn
19 3
2 3
mu la
k Ãłng
for mula
2 8
t h
m Ã¡o
r uÃ²
pi Äģn
chÃ ¨
m Ãło
l Çİng
q ÃŃn
b Ã¡
n Ã¡
z Ãłn
gu ÇĲ
gu Ã¬
o u
p ÃŃn
w Ã²
xi Ã³ng
shÃł n
r e
2 2
xi Åįng
m e
su Ä«
Ã ¼
2 6
sh ÄĽn
q Ã¬ng
mi Ã¡o
f Çİng
5 0
20 20
2 7
l Ã¡ng
r u
qi Å«
s Åįng
Ã¼ Ã¨
d Ãłng
g Äĵng
qi Äģng
r i
f Ã¡
z Äģo
f Ã¨ng
zhÃł ng
ï ¼
hÃ¡ o
d Å«n
z ÇĴu
hÃł i
qi Ã¨
2 9
t Ãłn
p Ãło
p Ãł
shÃ¹ n
p Ã©ng
xu Ã¡n
201 0
n ÇĲ
00 0
dÇĲ ng
ni ÇĶ
z Çİi
zh Äģo
zhu Ä«
l Ã¼Ã¨
ch Å«n
20 19
h Å«n
k ÇĴng
du Äģn
shÃ¨ n
xi Ã¡ng
du Çİn
g Ãłn
t e
r o
k Äģn
l Ã¡o
c Çİo
201 6
s i
g Å«
p Ã©i
201 8
ku Çİn
z Ã¡
s Å«n
y Ã©
y Çİ
p Åį
202 1
r a
chÃ ¬
du Ã³
201 4
f Ã¡n
201 1
201 5
c uÃ²
201 7
zhÃ ©
y Ã¡o
p Äģi
t Ã²u
c Ã¡ng
201 2
4 0
k Çİi
201 3
202 2
m ÃŃ
ru Çİn
su Äģn
ch Äģ
z Ãłng
mi Ãło
l t
200 9
zh Çİo
200 8
hu Ã¡i
ã ĥ
c e
6 0
a m
c u
xu Ã¨
chÃ ³u
s e
b Çİng
m Ã¨ng
10 0
t Ã¬
p Ãº
n Çİo
202 3
zhu Ãłn
g t
l ÄĽi
19 0
3 1
c Ãłi
c Ã¹
s Ãłn
m Ã³u
ti on
t a
hÃ¹ n
ÇĶ n
ku Äģn
200 7
ni Ãº
m ÇĴu
t Çİo
di Ã©
200 1
o l
t Ã©ng
s Åįu
k ÄĽn
qi Çİn
ch Äģng
r Çİn
qu Äĵ
f ÇĴu
s ÇĶn
e l
b Ãł
200 0
8 0
k Ãło
su Åį
200 6
ni Çİo
chÃº n
m a
202 4
l Çİn
ã ģ
z Äģi
zhÃ ¡
xu ÄĽ
hu ÇĲ
lu Ãłn
tÇĲ ng
200 5
z Å«n
b Ãłng
l Ãł
hu Äģn
r Çİng
sh uÃ¬
mÇĲ n
3 5
l Ãłi
c Äģng
7 0
f Ã³
p Ã¡n
o f
n Ãłi
w ÄĽn
e t
c Äģo
s Äģng
p Ã¡ng
9 0
bÇĲ ng
ï¼ į
zh Äģ
ã Ĥ
shu Ãłi
ni Ã¨
e s
hÃ ³u
m Ã¨i
sh Äģo
n ÇĶ
d ÇĴng
i l
a t
o w
f Ã©ng
mi Ã¨
yÇĶ n
z Ã²u
m Çİi
hu Ãłi
200 4
4 5
y Äģn
c o
4 8
th e
zhu Ã³
an d
t er
h e
t Ãło
n Çİi
k Å«n
202 5
zh ÄĽn
c k
r ÇĶ
ku Ãł
ku ÃŃ
ãĢ ī
ãĢ Ī
g Åįu
3 6
cu Ä«
3 8
sh Çİn
r Ã²u
di Äģo
200 3
h ÇĶ
gu Åį
3 7
c uÃ¬
n e
x Ãº
m Ã¡ng
ju Çİn
c Ã¡n
di Äģn
zh Äģn
c Ã¡o
18 9
I N
200 2
i s
b o
k Äĵng
T C
v e
3 4
m Ã¡
l ÄĽng
a s
z Å«
7 5
âĢ ĵ
s Ãº
qu Äģn
d Äģ
t o
ch Äģi
n u
l Ãłng
kÃ¹ n
4 6
t Ãºn
f ÄĽn
199 0
âĢ ¦
zhÃ ²u
sh Çİng
r Ãło
h Äĵng
t Ä«
x Å«n
3 9
n Ã¨
. .
p Ã¬
n Ãłn
p Äģn
6 5
h Åįng
shÃ º
t Äģn
C h
t Äģng
k Çİn
M a
n Ã¬
3 2
I n
S T
4 7
h Çİn
i t
U TC
q iÃłn
199 9
199 8
198 0
18 8
5 00
3 3
6 4
qi Çİng
sh uÃ²
p Çİo
l o
b e
k Äģ
zhÃ¡ i
S E
5 5
qu Ãłn
n Ä«
d Ã¨ng
199 7
T he
m iÃ¡n
4 9
g Çİo
I I
6 8
C o
v i
sh ÄĽ
z Ã¨ng
R e
h an
zhÃ ³u
zhÃł i
4 4
199 6
n a
ti Äĵ
d Äģo
a d
b r
199 4
v er
f Ã©i
z Ã²ng
qi Ã³ng
c i
ti Ãło
chu Ã¡ng
199 2
b a
chu ÃŃ
ju Äģn
chÃ¡ i
mi Çİo
gu Äģ
xu Äĵ
t Ã²ng
199 5
f ÄĽi
ch Ä«
o o
m ÄĽng
w Åį
6 7
i r
shu Äģi
tu Ã³
chu Äģng
hu Çİn
199 1
197 0
5 8
a y
195 0
c a
n d
gu Ãł
chÃ¡ n
3 00
w Äģ
199 3
18 7
194 9
p e
s Äģ
ti Çİo
A T
196 0
bi Çİn
4 2
194 5
i ng
gu Ãłi
a u
k ÇĶ
n Ãº
198 8
d ÇĶ
198 9
i g
p Ã¹
6 9
li ÇĶ
g ÇĴng
SE E
t uÃ²
am p
c t
li Çİo
IN SEE
5 9
t Äģi
4 3
6 6
chu Ãłn
o p
chÃ¨ n
o s
5 7
198 5
hu Äģng
9 9
S A
ãĢ İ
cÃ¹ n
ãĢ ı
198 4
hÃº n
4 1
p Å«
l y
u s
k Ã²u
f Ã©n
8 8
198 6
r Çİo
m p
S t
i d
rÃ¹ n
T V
15 0
zhu Åį
in d
4 00
s Çİn
198 7
7 8
u n
e d
h a
198 2
5 6
L i
u r
ar d
nu Ã³
198 3
N A
gÇĶ n
R o
D e
s s
m Äģ
t ou
pÃ¬ n
C D
ch Åįu
b er
g ÇĴu
qu Çİn
M i
7 7
zh Äģi
M e
qi Ãł
m Äģo
qi Çİo
M ar
t w
k Å«
ku Ã¡ng
r Ã³u
de r
7 9
l Ã²u
O S
Â °
k uÃ¬
s Ãłng
ï ½
A l
18 0
t y
B C
5 4
197 9
6 1
19 20
a ng
p Äĵn
9 8
s Äĵng
5 2
Y ou
a p
197 8
n Ã¹
w Äĵng
6 2
y Äĵ
du ÇĴ
L e
5 3
xÇĲ ng
ju Ãłn
ï½ ŀ
B A
k e
194 6
t s
C O
m o
c tion
5 1
195 8
198 1
V i
197 2
194 8
zhu Ã¬
c Åįng
t Åįu
A M
h i
6 3
m an
ow s
A R
r y
194 1
W ind
B S
w Ã¡
li Çİn
19 30
M o
P ro
lu Çİn
ku Äģng
q Ãº
tu ÇĴ
k Ã©
7 6
han s
v a
194 0
193 7
c on
197 6
zu ÇĲ
194 4
J o
8 9
197 5
u m
ï¼ ı
T e
196 8
ni Ã¡ng
p Ã³
shu Äģ
h k
yu Äģn
t Äģo
p er
w Äģng
g a
10 00
r an
Wind ows
9 5
N e
b ÃŃ
s Çİo
d a
8 7
196 6
8 5
f Ãł
p Äĵng
6 00
l Ãłn
S e
S ta
s p
1 20
194 7
G a
A r
o t
g Äģ
195 6
A C
196 4
d Çİn
c Å«
194 2
195 5
ch ÇĴu
la y
195 2
193 9
I S
193 8
7 2
7 4
h t
r ÄĽn
197 3
a ce
f i
197 4
195 4
qi Äĵ
E D
19 00
- -
B e
A P
or e
194 3
197 7
D a
197 1
pÄ« n
p ÇĴ
m Ã¡n
196 7
shÃ© ng
men t
I C
8 00
E R
L a
8 6
195 9
b Äĵng
s on
196 5
J R
196 9
R a
du Ä«
D i
o k
p Ã©n
ãĥ »
Ã Ĺ
qi Ãło
chu Ä«
I D
qi Äģo
S u
in e
193 6
16 0
9 7
b Äĵn
zhu Äģ
en t
195 3
S a
196 2
M A
T u
ti c
196 1
l ÇĴng
a tion
â Ķ
193 5
t Ãł
m Ã¡i
S h
9 6
O N
a k
ï¼ ħ
195 1
195 7
196 3
L o
âĶ Ģ
on e
r ou
8 4
J a
202 6
d o
c Çİn
8 2
g i
b u
m er
7 3
p o
9 4
t Å«n
9 2
S o
A N
I P
A n
h o
a li
193 3
M u
193 1
n Ã¡ng
ni Ãło
le s
7 1
b Ã¡o
nu Çİn
l Ã©ng
p Ã¡
8 3
9 3
a i
W e
8 1
d ÇĴu
19 18
st a
H D
B o
s Äģo
U ni
19 28
lu Ã¡n
k i
193 2
w i
n Ã¨n
c ol
in t
M V
S S
ou r
1 10
t Ã¹
I T
19 12
al l
19 29
tu ÇĲ
du Ã²
19 27
c n
193 4
ar e
P a
7 00
g Ã¡
ch e
b y
te d
st er
hu Çİng
S i
25 0
f f
9 1
m m
P ar
z Ã©i
R i
19 24
p p
p h
.. .
19 19
ku Ä«
H e
s o
xu Ãłn
1 30
pi Äģo
n o
19 25
P S
P lay
p Äģo
14 0
xi Äģ
B u
C a
S M
C on
S p
P C
19 14
b le
st e
zh Çİi
k m
D V
zh Äĵ
E n
me s
You Tu
co m
B a
h Äĵ
F i
T i
di Äĵ
el l
g ra
l Çİ
A S
i a
19 11
W i
sh i
en d
il l
n Ã¼Ã¨
an a
ar a
G e
19 26
de Ġ
Ġ deĠ
shÃ¬ Ġ
Ġ shÃ¬Ġ
Ġ niÃ¡n
ĠniÃ¡n Ġ
wÃ¨i Ġ
zÃłi Ġ
Ġ wÃ¨iĠ
Ġ zÃłiĠ
hÃ© Ġ
Ġ hÃ©Ġ
zhÅįng Ġ
bÃ¹ Ġ
dÃ¬ Ġ
shÃŃ Ġ
guÃ³ Ġ
yÃº Ġ
rÃ©n Ġ
Ġ bÃ¹Ġ
yÄ« Ġ
Ġ zhÅįngĠ
lÃ¬ Ġ
zhÃ¬ Ġ
gÅįng Ġ
Ġ shÃŃĠ
yuÃ¨ Ġ
jÃŃ Ġ
chÃ©ng Ġ
yÃ¬ Ġ
yÇĴu Ġ
Ġ dÃ¬Ġ
Ġ yuÃ¨Ġ
Ġ yÃºĠ
Ġ rÃ©nĠ
Ġ zhÃ¬Ġ
dÃł Ġ
Ġ jÃŃĠ
yuÃ¡n Ġ
Ġ yÇĴuĠ
jÃ¬ Ġ
Ġ guÃ³Ġ
Ġ lÃ¬Ġ
Ġ gÅįngĠ
Ġ yÃ¬Ġ
Ġ yÇĲ
Ġ chÃ©ngĠ
jiÄģ Ġ
sÄ« Ġ
yÇĶ Ġ
Ġ xiÃłn
Ġ rÃ¬
Ġ yÄ«Ġ
Ġ xÃŃng
Ġ tÄģ
lÇĲ Ġ
jÄ« Ġ
Ġ dÃło
hÃ²u Ġ
wÃ©i Ġ
Ġ zhÄ«
Ġ dÃłĠ
Ġ yuÃ¡nĠ
xÄ« Ġ
ĠrÃ¬ Ġ
Ġ gÃ¨
ĠyÇĲ Ġ
xuÃ© Ġ
huÃ¬ Ġ
le Ġ
zuÃ² Ġ
Ġ yÇĶĠ
ĠdÃło Ġ
mÃŃng Ġ
Ġ jÃ¬Ġ
bÃ¨i Ġ
ĠxÃŃng Ġ
shÄĵng Ġ
Ġ jiÃłn
Ġ chÅ«
Ġ qÃŃ
Ġ sÄ«Ġ
Ġ dÃ©
zhÃ¨ng Ġ
ĠxiÃłn Ġ
Ġ hÃ²uĠ
Ġ jÄ«Ġ
duÃ¬ Ġ
shÃłng Ġ
qÅ« Ġ
shÇĲ Ġ
Ġ ÄĽr
Ġ jiÄģĠ
yÃ³u Ġ
ĠtÄģ Ġ
Ġ xÄ«Ġ
Ġ lÇĲĠ
Ġ Ã©r
zhÃłn Ġ
Ġ jÅ«n
Ġ bÃ¬ng
ĠzhÄ« Ġ
ĠgÃ¨ Ġ
zhÇĶ Ġ
rÃ¨n Ġ
fÃ¹ Ġ
zÃ¬ Ġ
wÃ¹ Ġ
xÄ«n Ġ
dÃłi Ġ
jÃ¹ Ġ
pÃŃng Ġ
ĠchÅ« Ġ
Ġ kÃ¨
Ġ zhÅįu
xiÄģng Ġ
Ġ huÃ¬Ġ
shÃ¹ Ġ
nÃ¡n Ġ
Ġ shÃ¨
Ġ bÃ¨iĠ
Ġ mÃŃngĠ
xiÃł Ġ
guÄģn Ġ
ĠÄĽr Ġ
ĠdÃ© Ġ
lÃ¹ Ġ
yÃ¹ Ġ
huÃł Ġ
ĠjiÃłn Ġ
jÄ«ng Ġ
yÃ¡n Ġ
fÄģng Ġ
Ġ yÄ«n
kÄģi Ġ
jiÄģn Ġ
jiÃło Ġ
fÄģ Ġ
yÃ²ng Ġ
Ġ dÃłn
ĠÃ©r Ġ
zhÃ¹ Ġ
lÃ¡i Ġ
mÃŃn Ġ
shÇĴu Ġ
zhÃ¨ Ġ
xiÃłng Ġ
wÃ©n Ġ
ĠjÅ«n Ġ
xÃ¬ Ġ
qiÃ¡n Ġ
bÄĽn Ġ
tÃ¨ Ġ
Ġ wÃ©iĠ
zhÃŃ Ġ
fÇİ Ġ
qÄ« Ġ
jiÃ© Ġ
liÃ¡n Ġ
ĠbÃ¬ng Ġ
dÃ²ng Ġ
diÃłn Ġ
ĠqÃŃ Ġ
ĠkÃ¨ Ġ
dÅįng Ġ
mÃ¹ Ġ
Ġ jÃ¬n
Ġ duÃ¬Ġ
Ġ huÃ²
Ġ zhÃłnĠ
fÄĵn Ġ
tÃ¡i Ġ
zhÇİng Ġ
dÃ¹ Ġ
jiÄģng Ġ
Ġ qiÃº
Ġ pÃŃngĠ
gÄģo Ġ
yÃ¨ Ġ
suÇĴ Ġ
bÄĽi Ġ
ĠzhÅįu Ġ
shÄ« Ġ
Ġ leĠ
duÅį Ġ
jiÄĵ Ġ
gÃ© Ġ
Ġ shÃłngĠ
jÄ«n Ġ
Ġ zhÃ¨ngĠ
fÃº Ġ
Ġ zuÃ²Ġ
Ġ yÃ³uĠ
Ġ fÃ¹Ġ
kÇĴu Ġ
guÃ² Ġ
zhÇĲ Ġ
Ġ tÃ³ng
hÇİi Ġ
Ġ rÃ¨nĠ
Ġ quÃ¡n
mÇİ Ġ
tÅįng Ġ
rÃ¹ Ġ
zuÃ¬ Ġ
Ġ shÄĵngĠ
Ġ xuÃ©Ġ
cÇĲ Ġ
xÃ¬ng Ġ
wÃłi Ġ
nÃ¨i Ġ
lÄģ Ġ
tÇĲ Ġ
juÃ© Ġ
kÄĽ Ġ
qÇĲ Ġ
shÄģn Ġ
tiÄģn Ġ
chÇİng Ġ
dÄĽng Ġ
zhÃ¨n Ġ
wÇĶ Ġ
chÃ¡ng Ġ
zi Ġ
yÃło Ġ
bÇĲ Ġ
Ġ jÃ¹Ġ
bÇİo Ġ
mÇĲ Ġ
yÃł Ġ
Ġ yÄĽ
gÄģi Ġ
ĠyÄ«n Ġ
Ġ dÃłiĠ
miÃłn Ġ
zhÃ²ng Ġ
ĠshÃ¨ Ġ
fÄĵng Ġ
Ġ zhÃ¨Ġ
zhÇĴng Ġ
cÃ¬ Ġ
yÃ¹n Ġ
yÃŃ Ġ
liÃº Ġ
chÄĵ Ġ
shÃ²u Ġ
lÃŃn Ġ
bÄģo Ġ
yÃŃ ĠgÃ¨Ġ
sÃłi Ġ
jiÃ¨ Ġ
dÃ¬ng Ġ
shÄĵn Ġ
shÄĽng Ġ
luÃ³ Ġ
mÄĽi ĠguÃ³Ġ
sÄģn Ġ
qÃ¬ Ġ
xiÇİo Ġ
ĠdÃłn Ġ
nÃ©ng Ġ
shÅ« Ġ
zÃ© Ġ
liÃ¨ Ġ
xuÇİn Ġ
sÃ¬ Ġ
qÄ«ng Ġ
zhÄĽ Ġ
ĠqiÃº Ġ
jÃ¬ng Ġ
yuÃłn Ġ
bÄģ Ġ
Äģn Ġ
wÃ¡ng Ġ
kÄĵ Ġ
tÃłi Ġ
lÃ¡n Ġ
bÃło Ġ
zÇĴng Ġ
yÇĲng Ġ
ĠhuÃ² Ġ
bÃ¬ Ġ
fÇĶ Ġ
dÇİo Ġ
Ġ xÄ«nĠ
gÇĶ Ġ
yÄ«ng Ġ
Ġ hÃło
Ġ xiÃłĠ
Ġ zÃ¬Ġ
gÄĵ Ġ
fÃ¨n Ġ
xiÃło Ġ
yuÄĵ Ġ
nÃŃ Ġ
jiÄģo Ġ
nÃł Ġ
Ġ yÃ¹Ġ
Ġ mÇĲĠ
zÄ« Ġ
Ã¨r Ġ
Ġ xiÄģngĠ
pÇĶ Ġ
dÄģn Ġ
Ġ zhÃ¹Ġ
biÇİo Ġ
guÇİn Ġ
tÃ³u Ġ
liÃłng Ġ
chuÃ¡n Ġ
Ġ lÃ¹Ġ
sÃ¹ Ġ
wÃº Ġ
Ġ dÄģng
bÅį Ġ
rÃº Ġ
yÇİn Ġ
nÇļ Ġ
bÃ³ Ġ
ĠzhÅįngĠ guÃ³Ġ
xÄ«ng Ġ
tÃŃ Ġ
fÄĵi Ġ
dÃ¡ Ġ
sÃ¨ Ġ
chÄĵng Ġ
mÄĽi Ġ
ĠwÃ¨iĠ yÃºĠ
ĠjÃ¬n Ġ
cÃ©ng Ġ
chÇİn Ġ
Ġ nÃ¡nĠ
shuÇĲ Ġ
tÃº Ġ
biÃłn Ġ
Äģ Ġ
guÄ« Ġ
Ġ rÃ¡n
yÃ¡ng Ġ
zhÄģng Ġ
gÇİi Ġ
diÇİn Ġ
cÃ³ng Ġ
jiÃ¹ Ġ
Ġ bÄĽnĠ
ĠquÃ¡n Ġ
shÄģ Ġ
bÄģoĠ kuÃ²
wÇİng Ġ
jiÇİn Ġ
shÃ¨ng Ġ
zÇĶ Ġ
shÇĶ Ġ
gÇİng Ġ
huÃ¡ Ġ
lÇľ Ġ
qÃŃng Ġ
jÇĲng Ġ
liÇİng Ġ
zÃº Ġ
bÃłn Ġ
Ãłn Ġ
tÇĴng Ġ
gÃ²ng Ġ
shÄģng Ġ
Ãło Ġ
lÃŃ Ġ
hÃ¹ Ġ
tÃ³ng Ġ
1 Ġ
biÄģn Ġ
jÃ¬n Ġ
lÃ³ng Ġ
luÃ² Ġ
xÃ¹ Ġ
chÃŃ Ġ
mÃ©i Ġ
jÇĲn Ġ
bÄģn Ġ
guÇİng Ġ
chÅ« Ġ
cÃ¨ Ġ
mÃ¬ Ġ
shÃ©n Ġ
ĠtÄģĠ men
zhÄĵng Ġ
zhÄ« Ġ
lÇĲng Ġ
yÃ²u Ġ
fÇİn Ġ
wÄĵi Ġ
Ġ zhÇĶĠ
huÃ³ Ġ
xÃŃ Ġ
tÃŃng Ġ
kÇİ Ġ
chÃ¡ Ġ
Ġ gÄģiĠ
Ġ xiÃłngĠ
cÃ¡i Ġ
gÃ²u Ġ
shuÅį Ġ
mÃ©n Ġ
cÃŃ Ġ
2 Ġ
xiÇİng Ġ
mÇĶ Ġ
lÃ¨i Ġ
wÄĽi Ġ
qÇĶ Ġ
ĠgÅįngĠ lÇĲĠ
yÃ¡nĠ jiÅ«
Ġ duÅįĠ
tuÃ¡n Ġ
yÇĲn Ġ
jiÃłn Ġ
ĠyÄĽ Ġ
chÃ¡o Ġ
yÃ¬ng Ġ
chÃ©n Ġ
tÃ¡ng Ġ
xiÄĵ Ġ
qÃŃ Ġ
pÇĲn Ġ
ĠyÇĲ ĠjÃŃĠ
jiÃł Ġ
shÇĲĠ yÃ²ngĠ
jiÄĽ Ġ
hÃ¡ng Ġ
yÇĲ Ġ
lÃºn Ġ
rÃ³ng Ġ
Ã© Ġ
jiÇİng Ġ
Ġ yÃ³u
pÃ¡i Ġ
fÅ« Ġ
jiÇĶ Ġ
lÃ¬ng Ġ
tÃ¡iĠ wÄģn
ĠhÃło Ġ
Ġ wÃłn
ĠdeĠ dÃ¬Ġ
xÅ« Ġ
kÄĽ ĠyÇĲĠ
huÃ¡ng Ġ
xiÄģn Ġ
duÃłn Ġ
kÃ¨ Ġ
dÇİng Ġ
mÃ³ Ġ
cÄģn Ġ
yÃŃng Ġ
tiÃ¡o Ġ
biÄģo Ġ
ĠdeĠ yÄ«Ġ
kÄģiĠ shÇĲĠ
quÃ¡n Ġ
zhÇİn Ġ
ĠchÃ©ngĠ wÃ©iĠ
yÄĽ Ġ
hÃ³ng Ġ
mÃ©i ĠyÇĴuĠ
hÃłn Ġ
yÄ«n Ġ
wÄĽi ĠyuÃ¡nĠ
qiÄģn Ġ
bÇİn Ġ
xiÃłn Ġ
lÃŃng Ġ
xiÄģo Ġ
ĠtÃ³ng Ġ
huÃŃ Ġ
sÅ« Ġ
fÃ¡ng Ġ
mÃ©ng Ġ
zhuÄģng Ġ
kÅįng Ġ
jÃº Ġ
cÅ«n Ġ
bÄģoĠkuÃ² Ġ
rÃ©nĠ kÇĴuĠ
ĠqÃŃ ĠzhÅįngĠ
huÃ² Ġ
ĠgÅįngĠ sÄ«Ġ
zÇĲ Ġ
xÃŃng Ġ
dÅįu Ġ
ĠdeĠ shÃ¬Ġ
ĠĠĠ zÃłiĠ
qiÃ¡ng Ġ
zhÃło Ġ
dÃº Ġ
zhÃ¨ng ĠzhÃ¬Ġ
yÃŃ ĠgÃ¨
mÃ² Ġ
bÄ«ng Ġ
cÇİi Ġ
3 Ġ
fÇİ ĠguÃ³Ġ
Ġ gÄģoĠ
ĠdÃłĠ xuÃ©Ġ
ĠshÃ¬Ġ yÄ«Ġ
hÃ¡i Ġ
hÃº Ġ
chÃ¹ Ġ
ĠtÄģ ĠdeĠ
qÄ«n Ġ
lÃ¹n Ġ
Ġ fÄĵnĠ
fÃłn Ġ
zhÄĵn Ġ
guÄģng Ġ
wÃ¨n Ġ
mÃłn Ġ
shÃ¨ Ġ
Ġ jiÃ©Ġ
biÇİo ĠshÃ¬Ġ
Ãłi Ġ
zhÅįng ĠdeĠ
jÅ« Ġ
Ġ jiÃłoĠ
zhuÄģn Ġ
diÃło Ġ
bÃ¡i Ġ
dÇİ Ġ
quÃ¨ Ġ
diÃłn ĠshÃ¬Ġ
Ġ dÅįngĠ
fÃ¨i Ġ
ĠshÃ¬Ġ wÃ¨iĠ
Ġ dÃ¹Ġ
Ġ mÃ¹Ġ
hÃ¡n Ġ
shÃ¬ ĠdeĠ
Ġ tÃ¨Ġ
xÃ¹n Ġ
Ġ jÄ«nĠ
piÃłn Ġ
mÃ¬ng Ġ
jÇĶ Ġ
Ġ jiÄģngĠ
tuÅį Ġ
gÃ¹ Ġ
ĠrÃ©nĠ kÇĴuĠ
xiÅ« Ġ
ĠbÃ¹Ġ fÃ¨nĠ
xiÃ© Ġ
zÃło Ġ
ĠhÃ©Ġ guÃ³Ġ
zhÅįngĠ guÃ³Ġ
guÇĴ Ġ
10 ĠyuÃ¨Ġ
shÅįu Ġ
Ġ zuÃ¬
xÃ¬n Ġ
12 ĠyuÃ¨Ġ
7 ĠyuÃ¨Ġ
5 Ġ
9 ĠyuÃ¨Ġ
zhuÇİn Ġ
tÄģ Ġ
dÄģng Ġ
wÅ« Ġ
miÃłn ĠjÄ«Ġ
ĠrÃ©nĠ mÃŃnĠ
8 ĠyuÃ¨Ġ
xÃºn Ġ
ĠdÃ¬Ġ qÅ«Ġ
3 ĠyuÃ¨Ġ
Ġ shÄ«Ġ
Ġ guÃ²Ġ
1 ĠyuÃ¨Ġ
4 Ġ
Ġ jÄ«ngĠ
dÃŃ Ġ
gÇİn Ġ
huÃ¡n Ġ
jiÇİ Ġ
xiÃ¡ Ġ
5 ĠyuÃ¨Ġ
Ġ suÇĴĠ
yÄ«ng ĠguÃ³Ġ
dÃło Ġ
Ġ cÇĲĠ
dÇĲ Ġ
Ġ shÇĴuĠ
zhÅ« Ġ
tÄ«ng Ġ
zhÃ¨ng ĠshÃ¬Ġ
chÃ³ng Ġ
huÇĴ Ġ
6 ĠyuÃ¨Ġ
zhÅįu Ġ
zhuÃłng Ġ
chÃ©ng ĠshÃ¬Ġ
4 ĠyuÃ¨Ġ
ĠguÃ³Ġ jiÄģĠ
tiÃ¡n Ġ
gÃ¨ng Ġ
ĠĠĠ dÃ¬Ġ
fÃłng Ġ
yÇĴng Ġ
shÇĶ ĠyÃºĠ
ĠpÃŃngĠ fÄģng
pÃ² Ġ
jÅ«n Ġ
ĠdÃ¬Ġ yÄ«Ġ
Ġ qiÃ¡nĠ
11 ĠyuÃ¨Ġ
qÃºn Ġ
qÃ¹ Ġ
jiÃłng Ġ
tÃ¡o Ġ
ĠshÃ¬Ġ jÃ¬Ġ
ĠpÃŃngĠfÄģng ĠgÅįngĠlÇĲĠ
ĠtÃ³ng ĠshÃŃĠ
dÄģn ĠrÃ¨nĠ
gÄĵn Ġ
Ġ rÃºĠ
Ġ mÇİĠ
jÇĲ Ġ
Ġ dÄĽngĠ
biÃ© Ġ
pÃłi Ġ
dÅ« Ġ
liÃ¡ng Ġ
shÇİo Ġ
huÄ« Ġ
tiÄĽ Ġ
nÃ³ng Ġ
ĠniÃ¡nĠ 1ĠyuÃ¨Ġ
tÇİ Ġ
diÃłnĠ yÇĲngĠ
zÅįng Ġ
chÇĶ Ġ
Ġ qÄ«Ġ
Ġ zhÃ¨
sÇĲ Ġ
ÄĽr Ġ
Ġ tiÄģnĠ
ĠdeĠ shÃŃĠ
shuÄģng Ġ
qiÃ¡o Ġ
tÃ¡iĠwÄģn Ġ
Ġ suÃ¬
gÄĵn ĠjÃ¹Ġ
lÃ¬Ġ shÇĲĠ
chÃº Ġ
ĠshÃ¬Ġ zhÃ¨nĠ
gÃło Ġ
bÃłi Ġ
cÄģn ĠjiÄģĠ
yÃ¹nĠ dÃ²ng
gÄģng Ġ
chÄĵ ĠzhÃłnĠ
guÃ³ ĠdeĠ
jiÇİo Ġ
ĠyÄ«n ĠwÃ¨iĠ
s Ġ
ĠrÃ¬Ġ bÄĽnĠ
ĠpÃŃngĠ fÄģngĠ
lÃ¬ ĠdeĠ
ĠniÃ¡n ĠdeĠ
gÃłi Ġ
pÃłn Ġ
Ġ wÃ©nĠ
Ġ hÇİiĠ
zhÃ¨ngĠ fÇĶĠ
bÃ¬ng Ġ
zhÇĶn Ġ
ĠniÃ¡nĠ 12ĠyuÃ¨Ġ
wÇİ Ġ
yÃłn Ġ
6 Ġ
wÇĴ Ġ
gÃ²ng ĠhÃ©ĠguÃ³Ġ
ĠxiÃłn ĠdeĠ
Ġ fÃºĠ
yÃ¡ Ġ
yÃŃn Ġ
fÄģ ĠxiÃłnĠ
formula Ġ
chuÃłng Ġ
hÄĵi Ġ
huÃłn Ġ
qÅ« ĠdeĠ
sÃ²ng Ġ
hÄģ Ġ
hÄĽn Ġ
tÃŃ ĠgÅįngĠ
Ġ suÇĴ
jÃ¬n ĠxÃŃngĠ
Ġ bÄĽiĠ
lÃ©i Ġ
2 ĠyuÃ¨Ġ
jÄ«ng ĠjÃ¬Ġ
tÅįngĠ guÃ²Ġ
ĠniÃ¡nĠ 3ĠyuÃ¨Ġ
suÃŃ Ġ
chuÄģn Ġ
ĠwÃłn Ġ
qiÄĽ Ġ
ĠzhÅįngĠ yÄģng
ĠguÃ³Ġ jÃ¬Ġ
huÄģ Ġ
shÃłng ĠdeĠ
ĠyÃ³u ĠyÃºĠ
lÄĵi Ġ
Ġ yÃ²uĠ
wÄĽiĠyuÃ¡nĠ huÃ¬Ġ
kÇİo Ġ
ĠniÃ¡nĠ 7ĠyuÃ¨Ġ
wÃ¡n Ġ
chÄĵng ĠwÃ©iĠ
ĠniÃ¡nĠ 10ĠyuÃ¨Ġ
bÇİi Ġ
dÄĵng Ġ
ĠshÃ¬Ġ jiÃ¨Ġ
ĠyÄ«nĠ cÇĲĠ
mÃŃng ĠwÃ¨iĠ
ĠjÃ¬n ĠxÃŃngĠ
nuÃ² Ġ
ĠshÃ¬Ġ zÃłiĠ
ĠrÃ¡n Ġ
chÅįng Ġ
zhÇĶ ĠyÃ¬Ġ
ĠniÃ¡nĠ 9ĠyuÃ¨Ġ
ĠtÄģĠmen Ġ
kuÃłi Ġ
yÃ¡nĠjiÅ« Ġ
tÇĶ Ġ
ĠzhÄ« ĠhÃ²uĠ
qiÃº Ġ
mÃłi Ġ
shÃŃ ĠdeĠ
liÃłn Ġ
hÃło Ġ
ĠniÃ¡nĠ 5ĠyuÃ¨Ġ
sÃł Ġ
lÃº Ġ
xÃ¬Ġ tÇĴngĠ
pÃ¨i Ġ
Ġ zuÃ¬Ġ
lÇĶ Ġ
ĠniÃ¡nĠ 4ĠyuÃ¨Ġ
chÇĲ Ġ
liÃło Ġ
ĠdÄģng Ġ
ĠniÃ¡nĠ 8ĠyuÃ¨Ġ
ĠniÃ¡nĠ 6ĠyuÃ¨Ġ
Ġ liÃ¡nĠ
Ġ yÄ«ngĠ
ĠxÃŃng ĠdeĠ
zÄĵng Ġ
rÃ©n ĠdeĠ
xuÄģn Ġ
xiÄģngĠ gÇİngĠ
Ġ shÇĲĠ
qÄ«Ġ jiÄģnĠ
Äĵn Ġ
dÃ© Ġ
kuÃłng Ġ
guÇİn ĠlÇĲĠ
ĠgÅįngĠ zuÃ²Ġ
piÃło Ġ
ĠzhÄ« ĠyÄ«Ġ
xÇĶ Ġ
dÄ« Ġ
hÃ©ng Ġ
dÃł ĠdeĠ
bÇĶ Ġ
yÃłng Ġ
sÄĵn Ġ
ĠzhÅįngĠ xÄ«nĠ
xuÄģn ĠbÃ¹Ġ
tuÄ« Ġ
ĠniÃ¡nĠ 11ĠyuÃ¨Ġ
zÇĶ ĠzhÄ«Ġ
rÃ¬ Ġ
wÃłng Ġ
bÃ¹ ĠdeĠ
pÃŃ Ġ
men Ġ
Ġ bÄģoĠkuÃ²Ġ
chÃłng Ġ
yÇĲngĠ xiÇİngĠ
yÇİng Ġ
ĠtÄģ ĠzÃłiĠ
qiÄģn ĠmÇĲĠ
sÄģi Ġ
Ã©r Ġ
ĠĠĠ shÄĵngĠ
ĠhuÃ² ĠdÃ©Ġ
pÄ« Ġ
ĠshÃ¬Ġ jiÃ¨
luÃ³ ĠsÄ«Ġ
hÃ¨ Ġ
kÄĽĠ nÃ©ng
chÃ©ng ĠdeĠ
Ġ gÄģi
Ġ qÄ«ngĠ
niÃłn Ġ
dÃ¹n Ġ
xiÃ¡n Ġ
Ġ mÄĽi
Ġ C
s ĠĠĠ
Ġ ÄģĠ
lÃ³u Ġ
qÃŃ ĠtÄģĠ
ĠniÃ¡nĠ 2ĠyuÃ¨Ġ
ĠchÃ©ngĠ lÃ¬Ġ
le ĠyÄ«Ġ
bÄģng Ġ
huÃ³Ġ dÃ²ngĠ
ĠrÃ¨nĠ wÃ©iĠ
liÃ¹ Ġ
Ġ lÃ¡iĠ
yÅįu Ġ
Ġ shÃ¹Ġ
Ġ bÇĲĠ
kÄĵ ĠxuÃ©Ġ
fÄģĠ zhÇİnĠ
Ġ fÄĵn
huÃ² ĠdÃ©Ġ
jÃ¹n Ġ
ĠzuÃ²Ġ wÃ©iĠ
Ġ luÃ³Ġ
yÄģ Ġ
ĠpÃŃngĠfÄģngĠ qiÄģnĠmÇĲĠ
huÃ¡ ĠrÃ©nĠmÃŃnĠ
Ġ wÃºĠ
rÃ¬ ĠbÄĽnĠ
bÄĵi Ġ
lÇİo Ġ
huÃ¬ ĠyÃ¬Ġ
rÃ¨ Ġ
Ġ zhÃŃ
kÃ¹ Ġ
tÃ¡n Ġ
jiÄģn ĠdeĠ
tiÄĽ ĠlÃ¹Ġ
Ġ liÃºĠ
ĠdeĠ rÃ©nĠ
yÃ²ng ĠyÃºĠ
liÃ¡o Ġ
nÃŃng Ġ
ĠshÃŃĠ jiÄģnĠ
ĠdeĠ gÅįngĠ
gÃ¨ Ġ
Ġ shÄģnĠ
miÇİn Ġ
miÃłnĠ jÄ«
yÃ¬n Ġ
ruÃ¬ Ġ
mÃŃn ĠguÃ³Ġ
wÅ« ĠkÃ¨Ġ
Ġ yÃ¡nĠ
Åįu Ġ
xiÇİn Ġ
lÃ¨ Ġ
7 Ġ
zuÇĴ Ġ
gÃ²ng ĠyÇĴuĠ
ĠĠĠ lÃ¬ĠshÇĲĠ
Ġ A
hÇİo Ġ
Äģi Ġ
Ġ zhÄģngĠ
ĠĠĠshÄĵngĠ pÃŃngĠ
huÃ¡ĠrÃ©nĠmÃŃnĠ gÃ²ngĠhÃ©ĠguÃ³Ġ
fÄģng ĠshÃ¬Ġ
fÄģĠ shÄĵngĠ
gÄģn Ġ
Ġ cÃ³ngĠ
dÃ²u Ġ
wÃ¨nĠ tÃŃĠ
Ġ zhÃŃĠ
guÃłn ĠjÅ«nĠ
zhÇĶĠ yÃłoĠ
rÃ¡n Ġ
dÃ¬ ĠdeĠ
ĠdÃ¬Ġ Ã¨rĠ
dÇİo ĠzhÃ¬Ġ
guÄģnĠ xÃ¬Ġ
cÃºn Ġ
kÄģng Ġ
cÄģn ĠyÃ¹Ġ
yuÇİn Ġ
ĠbÃ¹Ġ fÃ¨n
zhÄĽng Ġ
ĠgÅįngĠ chÃ©ngĠ
wÃ¡n ĠchÃ©ngĠ
dÄģn ĠwÃ¨iĠ
kÄĽĠ nÃ©ngĠ
Ġ xiÇİoĠ
yÄ« ĠwÃ¨iĠ
Ġ jÇĲnĠ
Ġ wÇĶĠ
Ġ zhÇĲĠ
1 ĠrÃ¬Ġ
xiÃ¨ Ġ
ĠĠĠ S
ge Ġ
suÇĴ ĠyÇĴuĠ
Ġ zÃ©Ġ
zhÃ¬ ĠdeĠ
wÃ©nĠ huÃłĠ
Ġ zÇĴngĠ
ĠchÃ©ngĠ yuÃ¡nĠ
ĠdeĠ chÃ©ngĠ
8 Ġ
lÇļ Ġ
gÄĽi Ġ
Ġ 18
yuÃ¡n ĠdeĠ
yÅįng ĠyÇĴuĠ
cÃºn ĠzÃłiĠ
Ã¨r ĠshÃŃĠ
Ġ tÅįngĠ
bÄĽi ĠbÃ¹Ġ
Ġ bÄģĠ
liÃ¡n ĠhÃ©Ġ
hÃ²u ĠdeĠ
niÇĶ Ġ
ĠshÃ¬Ġ zhÅįngĠ
zhÃ¨ngĠ fÇĶ
yÃ³u ĠyÃºĠ
guÃ³Ġ jiÄģĠ
duÃ¬ ĠyÃºĠ
ĠniÃ¡nĠ zhÃ¬Ġ
fÄģ ĠxÃŃngĠ
yÃ¬ ĠdeĠ
jÃ¹ ĠyÇĴuĠ
ĠjiÃłnĠ zhÃ¹Ġ
bÇĲĠ sÃłiĠ
ĠbÃ¬ng ĠzÃłiĠ
ĠdÃłoĠ leĠ
Ã¨ Ġ
Ġ zhÇĲ
xÄ«n ĠdeĠ
sÄ« ĠdeĠ
shÄĽn Ġ
yÃºn Ġ
zÃ¬Ġ jÇĲ
yÃ¹nĠ dÃ²ngĠ
xÃŃng ĠzhÃ¨ngĠ
yÃ¬n ĠdÃ¹Ġ
Ã©Ġ luÃ³ĠsÄ«Ġ
Ġ 15
bÄ«n Ġ
Ġ miÃłnĠjÄ«Ġ
dÃłiĠ biÇİoĠ
shÃło Ġ
Ġ mÄĽiĠguÃ³Ġ
Ġ lÃ¬ngĠ
xÇĶ ĠduÅįĠ
ĠdÃłn ĠshÃ¬Ġ
rÃ¨n ĠhÃ©Ġ
shÄĵng ĠyÃºĠ
tÅ« Ġ
guÃ¬ Ġ
ĠniÃ¡nĠ dÃłiĠ
Ġ S
dÄ«ng Ġ
liÇİng ĠgÃ¨Ġ
chÃ¨ Ġ
bÇİoĠ hÃ¹Ġ
ĠrÃ©nĠkÇĴuĠ mÃ¬Ġ
Ġ jiÇİnĠ
xiÃ¹ Ġ
Ġ shÇĲ
mÇİn Ġ
zh Ġ
xuÃ¡n Ġ
ĠdÄģng ĠshÃŃĠ
zhÃłng Ġ
ĠdeĠ yÃŃĠgÃ¨Ġ
nÃ¡n ĠbÃ¹Ġ
jÇĶ ĠxÃŃngĠ
zhuÄģn ĠjÃŃĠ
miÃłnĠjÄ« ĠwÃ¨iĠ
Ġ diÃłnĠ
lÃ¡i ĠdeĠ
Ġ 0
Ġ xÃ¬Ġ
fÄģn Ġ
Ġ guÄģnĠ
ĠĠĠ C
zÇİo Ġ
ĠzhÃ¨ngĠ fÇĶĠ
fÃºĠ wÃ¹Ġ
dÃº ĠlÃ¬Ġ
juÃ©Ġ dÃ¬ngĠ
ĠchÅ« ĠdeĠ
zhÇĶĠ yÃło
ruÃ² Ġ
xiÄĽ Ġ
kÄģiĠ shÇĲ
ĠlÃ¬Ġ shÇĲĠ
qÇĲng Ġ
Ġ cÃ©ngĠ
ĠshÃ¨ ĠjÃ¬Ġ
n Ġ
Ġ sÄģnĠ
Ġ wÃ¡ngĠ
mÃŃng ĠdeĠ
Ġ mÄĽiĠ
hÃłi Ġ
rÃłng Ġ
ĠshÃ¬ĠwÃ¨iĠ yÃºĠ
jiÃ¹ ĠshÃ¬Ġ
ĠyÇĴuĠ yÄ«Ġ
Ġ B
gÄĵng Ġ
gt Ġ
Ġ cÇĲ
Ġ gtĠ
xÇĲ Ġ
Ġ jiÄģng
tÃłn Ġ
ĠqÃŃ ĠtÄģĠ
ĠxÃŃngĠ zhÃ¨ngĠ
pÃ©i Ġ
jiÃłoĠ yÃ¹Ġ
suÃłn Ġ
shÃ²u ĠdÃłoĠ
Ġ 16
lt Ġ
ĠĠĠ A
rÃ¨nĠ wÃ©iĠ
Ġ fÄĵngĠ
fÇİng Ġ
ĠshÃ¬Ġ dÃ¬Ġ
fÄģĠ zhÇİn
wÇİn Ġ
kÄģn Ġ
shÃłn Ġ
shÃ¨ ĠhuÃ¬Ġ
Ġ ltĠ
yÃ¬ ĠwÃ¨iĠ
gÃ¹ ĠshÃ¬Ġ
piÄģn Ġ
fÄģngĠ miÃłnĠ
ĠxiÃłn ĠzÃłiĠ
qÅ« ĠwÃ¨iĠ
ĠzuÃ¬ ĠzhÅįngĠ
qÃŃn Ġ
Ġ bÃ¬Ġ
Ġ P
Ġ jiÄĵĠ
ĠzhÅįngĠyÄģng Ġ
ĠshÃ¬Ġ shÃ¬Ġ
tuÃ¬ Ġ
pÃło Ġ
zhe Ġ
nÃ¨i ĠdeĠ
9 Ġ
shÇĶ ĠdeĠ
xiÄģngĠ gÇİng
Ġ jiÃ¹Ġ
xiÇİo ĠshÃŃĠ
dÃłn Ġ
ĠlÃ¬Ġ rÃºĠ
zÃº ĠqiÃºĠ
shÃ¹Ġ jÃ¹Ġ
ĠbÃ¹Ġ tÃ³ng
qiÄģng Ġ
liÃ¨Ġ chÄĵĠ
xÅ«Ġ yÃłoĠ
huÃł ĠdeĠ
zhÃŃĠ wÃ¹Ġ
rÃ©n ĠshÃ¬Ġ
Ġ suÄ«
kÃłn Ġ
shÇĲĠ yÃ²ng
zuÃ² ĠdeĠ
zÄĵng ĠjiÄģĠ
ĠjÃ¬Ġ huÃłĠ
mÃŃnĠ zhÇĶĠ
ĠshÃŃĠ qÄ«Ġ
zuÃ²Ġ wÃ©iĠ
Ġ qÅ«Ġ
kÃ²ng ĠzhÃ¬Ġ
ĠyÄĽ ĠshÃ¬Ġ
tÇİn Ġ
Ġ gÇĶĠ
duÇİn Ġ
ĠjiÃłn ĠdeĠ
a Ġ
yÄ«n ĠyuÃ¨Ġ
ĠrÃ¡n ĠÃ©rĠ
ĠĠĠ P
Ġ dÃ²ngĠ
Ġ 17
lÃ¡ng Ġ
ĠyÇĲĠ jÄ«ngĠ
ĠhÃ©Ġ zuÃ²Ġ
Ġ shÇĶĠyÃºĠ
ĠzÃłiĠ dÃ¬Ġ
rÃ©nĠ mÃŃnĠ
ĠshÃ¬Ġ jiÃłnĠ
ĠrÃ©nĠ yuÃ¡nĠ
Ġ ÄģnĠ
tÄģ ĠdeĠ
ĠjiÃłn ĠyÃºĠ
xuÃ©Ġ yuÃłnĠ
zÇĶ ĠchÃ©ngĠ
Ġ yÃ²u
chÄģo ĠguÃ²Ġ
zuÃ²Ġ pÇĲnĠ
Ġ cÃ©ng
ĠyÄ«n ĠyuÃ¨Ġ
Ġ mÇİ
mÃło Ġ
Ġ gÃ©Ġ
ĠquÃ¡n ĠguÃ³Ġ
Ġ kÄĵĠ
xiÃ³ng Ġ
zÇİi Ġ
hÅ« Ġ
huÃ¬ ĠdeĠ
jÃ¬ ĠdeĠ
zÇĴngĠ tÇĴngĠ
Ġ sÃ¬Ġ
ĠzhÃ¨Ġ xiÄĵĠ
ĠwÃ¨iĠ leĠ
10 Ġ
ĠhÃ²uĠ lÃ¡iĠ
yÃº ĠshÃ¬Ġ
t Ġ
Ġ pÇĶĠ
xiÅįng Ġ
ĠchÃ©ngĠ gÅįngĠ
fÄģ ĠbÃ¹Ġ
Ġ shÃ²uĠ
Ġ tÃłiĠ
dÃłĠ lÃ¬Ġ
tÃŃ ĠchÅ«Ġ
ĠlÃ¬Ġ yÃłĠ
Ġ 000
ĠyÃ¬Ġ yuÃ¡nĠ
ĠshÃ¨ ĠyÇĴuĠ
Ġ T
ĠyÄ«nĠ cÇĲ
Ġ M
yÃ¹nĠdÃ²ng ĠyuÃ¡nĠ
yÄģo ĠqiÃºĠ
hÃ¡n ĠguÃ³Ġ
bÃ¹ ĠzÃłiĠ
pÃŃn Ġ
nÃŃĠ yÃł
yÇĴu ĠdeĠ
ĠĠĠ deĠ
pÃº Ġ
qiÅ« Ġ
zÃło ĠchÃ©ngĠ
Åįu ĠzhÅįuĠ
cÇİiĠ yÃ²ngĠ
xiÇİo ĠxÃŃngĠ
ĠgÅįngĠ yuÃ¡nĠ
jiÄģ ĠdeĠ
xÃ¬ng ĠdeĠ
shÄĵng ĠdeĠ
ĠdeĠ yÃŃĠgÃ¨
ĠrÃ¬ ĠzÃłiĠ
dÄģng ĠshÃŃĠ
kÃ²ng Ġ
fÃ¨ng Ġ
bÇİ Ġ
rÃ©nĠ wÃ¹Ġ
ĠcÇĲĠ wÃłiĠ
gÃ²ngĠ chÇİnĠ
Ġ suÃŃ
Ġ lÄģĠ
Ġ zhĠ
Ġ D
Ġ ãĥ
Ġ cÃ³ng
Ġ wÇĴĠ
wÄģn Ġ
ĠshÃ¬Ġ hÃ©Ġ
2010 ĠniÃ¡nĠ
Ġ E
Ġ lÃ¬ng
Ġ H
mÇİ ĠwÃ¨iĠ
ĠdeĠ bÃ¹Ġ
mÃ¡o Ġ
xuÃ©Ġ jiÄģĠ
yÃ³uĠ xÃ¬Ġ
ĠĠĠ B
sÅįng Ġ
Ġ shÄģĠ
fÃłn ĠwÃ©iĠ
Ġ tÇĲĠ
ĠbÃ¹Ġ tÃ³ngĠ
Ġ gÄĵnĠjÃ¹Ġ
kÄģiĠ fÄģĠ
shÃ¨ ĠjÃ¬Ġ
chÄģo Ġ
dÅ«n Ġ
sÄģn ĠniÃ¡nĠ
qÇĶ ĠdÃ©Ġ
Ġ nÇļĠ
ĠdeĠ jÄ«Ġ
Ġ kÄĽĠ
sÃłi ĠshÃ¬Ġ
Ġ 1
ĠxÃŃng ĠchÃ©ngĠ
Ġ zhÇİngĠ
ĠĠĠdÃ¬Ġ lÇĲĠ
yÃ¡o Ġ
ĠĠĠ shÃ¬Ġ
Äģ ĠÄĽrĠ
zÃ¬ ĠzhÃ¬Ġ
chÇİn ĠshÄĵngĠ
Ġ wÃ¹Ġ
dÇĲng Ġ
ĠdeĠ jÃ¬Ġ
wÄĵn Ġ
jiÃ©Ġ mÃ¹Ġ
shÅ« ĠjÃ¬Ġ
ĠsuÃ¬ Ġ
nÇĲ Ġ
ĠbÃ¬ng ĠyÃºĠ
dÅįu ĠshÃ¬Ġ
chÃ³ng ĠxÄ«nĠ
xÃ¬Ġ tÇĴng
zÃłn Ġ
lÃ¼Ã¨ Ġ
ĠshÃ¨ ĠhuÃ¬Ġ
chÅ«n Ġ
zhÃ²ngĠ yÃło
lÇĲ ĠdeĠ
bÃº ĠshÃ¬Ġ
ĠdÃłiĠ biÇİoĠ
yÄ« ĠniÃ¡nĠ
ĠxiÄģngĠ gÇİngĠ
diÃłnĠ yÇĲng
ĠsÄ«Ġ tÃ¨Ġ
zhuÄ« Ġ
Ġ liÇİngĠ
guÄģn ĠyÃºĠ
dÃłng Ġ
juÃ©Ġ sÃ¨Ġ
Ġ nÃłĠ
Ġ fÃº
jiÄģoĠ tÅįngĠ
lÇİng Ġ
Ġ fÇİĠ
ĠyÃ³uĠ xÃ¬Ġ
dÃłĠ xuÃ©Ġ
Ġ yÃŃĠ
jÃŃ ĠdeĠ
mÃŃ Ġ
gÄĵĠ qÇĶĠ
chÃº ĠleĠ
ĠchÅ« ĠxiÃłnĠ
2020 ĠniÃ¡nĠ
tÇİo Ġ
Ġ jiÃ©
ĠzhÃ¬Ġ zuÃ²Ġ
ĠdÃłĠ xuÃ©
pÃŃng ĠjÅ«nĠ
ĠdÃ© ĠguÃ³Ġ
xiÇİn ĠshÃ¬Ġ
Ġ chÃ©nĠ
ĠĠĠ T
huÃ¡Ġ mÃŃnĠguÃ³Ġ
ĠniÃ¡nĠ zÃłiĠ
y Ġ
Ġ shÄĵnĠ
ĠzhÅįngĠ huÃ¡ĠrÃ©nĠmÃŃnĠgÃ²ngĠhÃ©ĠguÃ³Ġ
kÇĴng Ġ
hÃ²u ĠzÃłiĠ
kuÃ² Ġ
miÃ¡o Ġ
ĠniÃ¡nĠ dÃłi
Ã¨r ĠniÃ¡nĠ
Ġ liÇİng
xiÃł ĠdeĠ
Ġ 19
yÇİn ĠyuÃ¡nĠ
A Ġ
ĠkÃ¨ ĠsÄ«Ġ
Ġ jiÄģnĠ
dÃ© ĠguÃ³Ġ
ĠĠĠ M
xiÃ¡ng Ġ
ĠĠĠ F
ĠĠĠ H
Ġ F
Ġ 1Ġ
wÃ©i ĠyÄ«Ġ
cÇİo Ġ
qÃ¬ng Ġ
dÄģng ĠdÃ¬Ġ
guÃ³Ġ jÃ¬Ġ
duÃ¬ ĠdeĠ
bÃ³Ġ wÃ¹Ġ
Ġ bÇİoĠ
ĠjiÃłn ĠlÃ¬Ġ
hÅ«n Ġ
ĠdÃ¬Ġ guÃ³Ġ
ĠĠĠ G
ĠbÃ¹Ġ yÃºĠ
Ġ fÄĵiĠ
fÇİn ĠduÃ¬Ġ
qÄ« ĠdeĠ
duÄģn Ġ
wÃ¹ ĠdeĠ
zÇĴu Ġ
xuÃ¨ Ġ
yÄ«n ĠwÃ¨iĠ
qÅ«Ġ yÃ¹Ġ
Ġ 2
qÃ¹ ĠshÃ¬Ġ
yÄ« ĠbÃ¹ĠfÃ¨nĠ
bÃ¡ ĠgÄģoĠ
wÃ² Ġ
quÄĵ Ġ
2001 ĠniÃ¡nĠ
guÇİnĠ xiÃ¡Ġ
Ġ chÃ¡ngĠ
Ġ G
Ġ N
dÃ¹ ĠwÃ¨iĠ
zhÃ¨ngĠzhÃ¬Ġ rÃ©nĠwÃ¹Ġ
nÃŃĠ yÃłĠ
hÃ¡i ĠyÇĴuĠ
pÃ©ng Ġ
ĠĠĠ rÃ©nĠkÇĴuĠ
ĠdÄģng ĠdÃ¬Ġ
Ġ kÇİĠ
zuÃ¬ ĠzhÅįngĠ
Ġ ãĤ
Ġ ãģ
Ġ yuÄĵĠ
ĠtÄģ ĠshÃ¬Ġ
ĠbÃ¹Ġ duÃ¬Ġ
lÃ¡iĠ zÃ¬Ġ
bÇĲĠ sÃłi
ĠxÃŃng ĠshÃ¬Ġ
chÃ¬ Ġ
kuÇİn Ġ
zhÃŃĠ yÃ¨Ġ
qiÃ¡nĠ wÇİngĠ
Ġ dÄģnĠ
dÃ¬ng ĠdeĠ
Ġ wÄĵiĠ
quÃ¡n ĠguÃ³Ġ
Ġ 3
bÄģ ĠshÃ¬Ġ
yÄ« ĠbÃ¹Ġ
ĠdeĠ yuÃ¡nĠ
ĠzhÃ¨ngĠ fÇĶ
zhÃ²ngĠ yÃłoĠ
diÃłoĠ chÃ¡Ġ
Ġ chÃºĠ
ĠzhÄ«Ġ jiÄģnĠ
Ġ lÃŃnĠ
biÄģnĠ mÇİĠwÃ¨iĠ
Ġ fÄģĠ
ĠniÃ¡nĠ jiÄģnĠ
Ġ huÃ¡ngĠ
ĠxuÃ©Ġ mÃŃngĠ
Ġ 14
xuÃ©Ġ xiÃłoĠ
zhÄģo Ġ
zhÇĶĠ xÃŃĠ
xuÇİnĠ jÇĶĠ
ĠrÃ¬ ĠzhÃ¬Ġ
gÇİi ĠwÃ©iĠ
zÇĶ ĠzhÄ«
zhÇĶĠ jiÃłoĠ
Ġ nÃ¨iĠ
zÄ«Ġ liÃłoĠ
fÃ¡ Ġ
hÇİi ĠjÅ«nĠ
gÅįng ĠshÃ¬Ġ
ĠjÅ«n ĠshÃ¬Ġ
ĠdeĠ dÃłĠ
sÅ«n Ġ
ĠrÃ©nĠkÇĴuĠmÃ¬Ġ dÃ¹Ġ
chÇĶ ĠlÇĲĠ
zÄģi Ġ
ĠdeĠ yÃ¬Ġ
Ġ jÃ¬ngĠ
fÄģngĠ fÇİĠ
kÃłng Ġ
fÃ¹Ġ zÃ©Ġ
Ġ duÅį
ĠrÃ¬Ġ bÄĽn
wÅ«ĠkÃ¨Ġ lÃ¡nĠ
ĠĠĠ yÇĶĠ
guÃłn Ġ
shÃ¹ ĠdeĠ
ĠyÇĴuĠ xiÃłn
dÃłiĠ biÇİo
Ġ bÅįĠ
ĠgÃ¨ ĠrÃ©nĠ
wÃºĠ fÇİĠ
yÇĲngĠ xiÇİng
ĠjÃ¬Ġ shÃ¹Ġ
ĠshÃ¬Ġ yÃ³uĠ
Ġ sÄģn
jiÄĵĠ rÇİng
zuÃ¬Ġ gÄģoĠ
jÅ«Ġ mÃŃnĠ
Ġ shÃ¨ngĠ
pÃł Ġ
xÃ¬Ġ liÃ¨Ġ
qiÃ¨ Ġ
Ġ huÃłĠ
qÃŃ ĠzhÅįngĠ
lÃ¹ ĠdeĠ
Ġ Ð
Ġ mÃ©iĠ
Ġ jiÃ¨Ġ
xuÃ©Ġ shÄĵngĠ
Ġ 2Ġ
Ġ 12
ĠzhÄ«Ġ chÃŃĠ
Ġ hÃ³ngĠ
zÃ¬Ġ yÃ³uĠ
biÄģoĠ zhÇĶnĠ
wÄĽn Ġ
xiÃ© ĠhuÃ¬Ġ
shÃ¹Ġ liÃłng
Äģn ĠquÃ¡nĠ
fÇİnĠ yÃ¬ngĠ
kÄĽ ĠyÇĲ
kÄĽn Ġ
huÃ¬ ĠzÃłiĠ
yÄģo Ġ
yÃ© Ġ
Ġ gÇİiĠ
shÃ¨n ĠzhÃ¬Ġ
bÇĲ ĠlÃ¬Ġ
tÇĴng ĠzhÃ¬Ġ
liÃ¡nĠ mÃ©ngĠ
chuÃłng ĠzuÃ²Ġ
zhÇĶĠ rÃ¨nĠ
kÇİi Ġ
Ġ suÃŃĠ
ĠĠĠ bÄĽnĠ
Ġ kÄģiĠ
dÅįng ĠbÃ¹Ġ
ĠdeĠyÃŃĠgÃ¨ ĠshÃ¬ĠzhÃ¨nĠ
Ġ xÄ«n
ĠshÃ¬Ġ yÃŃĠgÃ¨Ġ
ĠgÅįngĠ sÄ«
gÄģi ĠguÃ³Ġ
yÇİ Ġ
ĠfÃ¹Ġ zÃ©Ġ
fÃ¡n Ġ
Ġ nÃ¡n
Ġ zÃ©
y ĠĠĠ
ĠdÃ¬Ġ sÄģnĠ
tÇĲĠ yÃ¹Ġ
ĠdÃ¬Ġ shÃŃĠ
ĠĠĠ xÃŃngĠzhÃ¨ngĠ
jiÃ©Ġ gÃ²uĠ
Ġ sÅ«Ġ
ĠbÃ¹Ġ guÃ²Ġ
m Ġ
Ġ qÇĲĠ
ĠdÃło ĠdeĠ
shÃŃ ĠniÃ¡nĠ
qÃŃngĠ kuÃłngĠ
nÃ©ng ĠlÃ¬Ġ
niÃº Ġ
nÃ¡nĠ ziĠ
mÇĴu Ġ
zhÅįng ĠshÃ¬Ġ
qÃŃngĠ kuÃłng
sÃ¬ ĠniÃ¡nĠ
suÅį Ġ
xÄ« ĠbÃ¹Ġ
gÅįng ĠbÃ¹Ġ
jiÄĵĠ shÃ²uĠ
shÄĵngĠ huÃ³Ġ
Ġ K
nÇļĠ zÇĲĠ
Ġ Ãło
lÃ¹ ĠxiÃłnĠ
Ġ gÄĵĠ
chÃ©ngĠ lÃ¬Ġ
ĠzhÅįngĠ xuÃ©Ġ
ĠĠĠ formulaĠ
Ġ shuÇĲĠ
miÃłn ĠdeĠ
gÅ« Ġ
huÄģn Ġ
wÃłn Ġ
ĠjÃ¬nĠ rÃ¹Ġ
yÃ¬ ĠshÃ¬Ġ
ĠÄĽr ĠsÄ«Ġ
liÃ¡nĠ sÃłiĠ
bÄĽiĠ jÄ«ngĠ
ĠzhÇĶĠ yÃłoĠ
e Ġ
a ĠĠĠ
Ġ bÄģ
yÇĴu ĠshÃŃĠ
Ġ ÃłoĠ
ĠyÃ¬Ġ huÃ¬Ġ
guÇİngĠ dÅįngĠ
Ġ yÃ¡ngĠ
Ġ mÃŃng
Ġ kÄĽĠyÇĲĠ
duÃ³ Ġ
hÃ¡o Ġ
ĠĠĠ jiÄģĠ
lÃ¡o Ġ
jiÃłn ĠzhÃ¹Ġ
yÃł ĠzhÅįuĠ
dÇİo ĠdeĠ
ĠguÃ³Ġ mÃŃnĠ
yÄĽ ĠshÃ¬Ġ
nÃ¡ ĠdÃłĠ
dÃ²ngĠ wÃ¹Ġ
tÃłi ĠpÃŃngĠ
ĠsuÇĴ ĠyÇĲĠ
ĠĠĠ the
zhuÃłn Ġ
dÃ¬ ĠwÃ¨iĠ
ĠzhÃ¨ ĠshÃ¬Ġ
bÃ¡ĠgÄģoĠ dÃ¹Ġ
dÃ¡ ĠdÃłoĠ
zÃ¬ĠjÇĲ ĠdeĠ
lÇĲ ĠshÃ¬Ġ
zhÃº ĠjiÃłnĠ
ĠbÃ¬ngĠ qiÄĽ
Ġ tÃ¡iĠ
dÃłi ĠdeĠ
bÇİn ĠbÄĽnĠ
guÇĲ Ġ
xiÃłngĠ mÃ¹Ġ
rÇİn Ġ
xÇĶĠ duÅį
zhÄĽ ĠdeĠ
jiÃłoĠ shÃ²uĠ
2008 ĠniÃ¡nĠ
ĠxuÃ©Ġ xiÃłoĠ
fÄĵiĠ chÃ¡ngĠ
wÅ«ĠkÃ¨Ġ lÃ¡n
2009 ĠniÃ¡nĠ
ĠxÄ«Ġ yÃłĠ
qÄ«ng ĠniÃ¡nĠ
Ġ dÃł
Ġ hÃ¡iĠ
ĠbÃ¬ngĠ qiÄĽĠ
Ġ zÇĴng
suÄģn Ġ
ĠzhÇĶĠ yÃło
lÄģ ĠsÄ«Ġ
ĠĠĠ gÄĵnĠjÃ¹Ġ
yÄ« ĠshÃ¬Ġ
Ġ hÃºĠ
ĠchÃ©ngĠ wÃ©i
suÃ¬ Ġ
rÃ¬Ġ bÄĽn
mÃ³ ĠshÃ¬Ġ
zhÃ© Ġ
Ġ 4
niÇİo Ġ
wÃ©nĠ wÃ¹Ġ
ĠtÄģĠmen ĠdeĠ
zhÇĲ ĠyÇĴuĠ
ĠyÃ¬Ġ shÃ¹Ġ
chÄģ Ġ
ĠjÃ¬Ġ lÃ¹Ġ
Ġ mÇĶĠ
ĠzhÅįu ĠdeĠ
hÃ¡ngĠ kÅįngĠ
Ġ ÃłiĠ
wÃ©nĠ xuÃ©Ġ
Ġ yÃºĠshÃ¬Ġ
fÄĵn ĠwÃ©iĠ
ĠĠĠ D
Ġ bÃ³Ġ
ĠqÃŃ ĠshÃ¬Ġ
ĠqÃŃ ĠyÃºĠ
tÅįngĠ guÃ²
Ġ Ã¨rĠ
zhÇĲ ĠchÅ«Ġ
Ġ mÃŃnĠ
dÄĽng ĠrÃ©nĠ
Ġ L
Ġ 10
huÇĲ Ġ
28 ĠrÃ¬Ġ
shuÃłi Ġ
cuÃ² Ġ
cÃ¡ng Ġ
rÃ©nĠkÇĴuĠ pÇĶĠ
zhÃŃ ĠxÃŃngĠ
tÃ³ng ĠshÃŃĠ
hÃ¹n Ġ
zhÃŃĠ jiÄĵĠ
ĠqiÃº ĠduÃ¬Ġ
zhÃł Ġ
ĠlÃ¬Ġ yÃł
jÇĲnĠ biÄģoĠ
yÇİn ĠchÅ«Ġ
T Ġ
Ġ jÄ«n
gÄģi ĠdÃ¬Ġ
Ġ 13
gÃ©Ġ lÃ¡nĠ
2016 ĠniÃ¡nĠ
zhÃ¨ ĠyÄ«Ġ
huÃ³Ġ dÃ²ng
rÃ¨nĠ wÃ©i
jÃ¬nĠ rÃ¹Ġ
ĠzhÄ«Ġ jiÄģnĠdeĠ
ĠgÅįngĠ kÄģiĠ
ĠdÄģng ĠzhÅįngĠ
gÃ²ng ĠtÃ³ngĠ
xiÃł ĠjÃ¬Ġ
ĠdÃłn ĠzÃłiĠ
Ġ 5
zhÃłnĠ zhÄĵngĠ
wÇĶ ĠniÃ¡nĠ
jiÄģng ĠjÅ«nĠ
chÃ³u Ġ
mÃ©iĠ tÇĲĠ
Ġ yÃ²ngĠ
lÃ¨ ĠbÃ¹Ġ
tÇĲ ĠdeĠ
Ġ I
chÄĵĠ zhÃłn
ĠĠĠ E
tuÄ« ĠchÅ«Ġ
jiÃłoĠ yÃ¹
yÇĶn Ġ
zhÃ¨Ġ xiÄĵĠ
ĠshÃ¬Ġ wÃ¹Ġ
mÃ¨ng Ġ
diÃ© Ġ
pÅį Ġ
miÃło Ġ
lÃŃĠ kÄģiĠ
tÃ¬ Ġ
ĠlÃ¬ngĠ wÃłiĠ
huÃ¡nĠ jÃ¬ngĠ
Ġ 6
2012 ĠniÃ¡nĠ
zhÃº Ġ
tÃ©ng Ġ
lÃŃnĠ pÇĲ
ĠdÃ¬Ġ Ã¨r
shÄģngĠ yÃ¨Ġ
2011 ĠniÃ¡nĠ
chuÃ¡nĠ tÇĴngĠ
ĠĠĠ niÃ¡n
15 ĠrÃ¬Ġ
dÄģnĠ qÅ«Ġ
guÄģn ĠdeĠ
sÄģn ĠshÃŃĠ
jÅ«n ĠshÃ¬Ġ
liÃłng ĠdeĠ
jiÄĵ ĠdÃłoĠ
sÃłn Ġ
dÃ²ngĠ huÃłĠ
nÃ¨iĠ rÃ³ngĠ
jÄ« ĠdeĠ
qiÃ¡n ĠdeĠ
ĠzhÃ¨Ġ geĠ
Ġ cÃ¬Ġ
rÃ©n ĠzÃłiĠ
zÃłng Ġ
sÃłi ĠjÃ¬Ġ
Ġ yÇĲnĠ
gÄģo ĠdeĠ
bÃ³ ĠshÃ¬Ġ
dÃ¹ ĠdeĠ
ĠwÃ¨iĠ rÃ©nĠ
me Ġ
yÃŃnĠ hÃ¡ngĠ
xuÇİnĠ jÇĶ
ĠwÃ¨iĠ zhÃ¬Ġ
chÃ©ng ĠzhÅįngĠ
mÃ¬ng ĠmÃŃngĠ
dÄĽng ĠdÃ¬Ġ
ĠgÅįngĠ lÃ¹Ġ
rÃ¨ ĠdÃłiĠ
sÇĶn Ġ
Ġ gÃ¹Ġ
bÄĽiĠ jÄ«ng
ĠshÃŃĠ jÃ¬Ġ
yÃ¹nĠdÃ²ng ĠhuÃ¬Ġ
xuÇİnĠ zÃ©Ġ
ĠdÃłĠ lÃ¬Ġ
ĠÃ©r ĠzÃłiĠ
yuÃ¡n ĠniÃ¡nĠ
bÃłoĠ gÃłoĠ
ĠdeĠ hÃ©Ġ
ĠmÃ¹Ġ qiÃ¡nĠ
C Ġ
bÅį ĠchÅ«Ġ
zuÃ¬ ĠjiÄģĠ
Ġ wÃº
P Ġ
ĠĠĠ jÃ¹Ġ
zÅįng ĠjiÃłoĠ
xuÃ© ĠwÃ¨iĠ
Ġ hÃłnĠ
tÇĶ ĠdÃ¬Ġ
ĠdÃ© ĠdÃłoĠ
bÇİng Ġ
zuÃ¬ ĠhÃ²uĠ
wÃ©nĠ huÃł
tuÃ¡nĠ tÇĲĠ
25 ĠrÃ¬Ġ
ĠdÃ¬Ġ fÄģngĠ
Ġ 5Ġ
guÇĲ ĠdÃłoĠ
luÃłn Ġ
ĠwÃ¨iĠ dÃ¬Ġ
jÄ«ng ĠlÃ¬Ġ
xÃ¬ ĠdeĠ
ĠzhÄ«Ġ qiÃ¡nĠ
shÄĽng ĠdeĠyÃŃĠgÃ¨ĠshÃ¬ĠzhÃ¨nĠ
fÄĵnĠ biÃ©
ĠshÃ¬ĠyÄ«Ġ zhÇĴngĠ
d ĠĠĠ
ĠshÃ¬ĠwÃ¨iĠyÃºĠ mÄĽiĠguÃ³Ġ
Ġ zhÃłn
jÃŃ ĠzhÅįngĠ
Ġ 9
ĠgÃ¨ ĠyuÃ¨Ġ
o Ġ
ĠjÅ«n ĠdeĠ
sÇĲĠ wÃ¡ngĠ
xiÄģngĠ guÄģnĠ
shÇĴuĠ cÃ¬Ġ
Ġ yÃ¨Ġ
30 ĠrÃ¬Ġ
Ġ bÄģoĠkuÃ²
ĠjÄ«Ġ gÃ²uĠ
wÃ¨i ĠdeĠ
ÃłoĠ lÃŃnĠpÇĲ
Ġ mÃ³Ġ
Ġ qÃ¬Ġ
lÇĲngĠ dÇİoĠ
Ġ xÃ¬ngĠ
ĠyÇĴuĠ guÄģnĠ
Ġ mÇĲ
ĠhÇİiĠ bÃ¡ĠgÄģoĠdÃ¹Ġ
ĠyÄ«Ġ xiÄĵĠ
ĠtÃ³ng ĠniÃ¡nĠ
t ĠĠĠ
2014 ĠniÃ¡nĠ
huÃ¡i Ġ
yÃ²ng ĠdeĠ
d Ġ
ĠĠĠ wÃ¨iĠ
20 ĠrÃ¬Ġ
mÄĽi ĠyuÃ¡nĠ
ĠxÃŃngĠ dÃ²ngĠ
ĠzÃłiĠ yÄ«Ġ
jÄ« ĠyÃºĠ
xuÄĽ Ġ
ĠzhÅįngĠ huÃ¡ĠmÃŃnĠguÃ³Ġ
shuÇĲ ĠyÃ¹Ġ
11 Ġ
biÃłnĠ huÃłĠ
Ġ juÃ©Ġ
shÃłng ĠwÃ¨iĠ
ĠjÃŃĠ tuÃ¡n
Ġ zhÃ²ngĠ
2018 ĠniÃ¡nĠ
ĠjÃ¬Ġ xÃ¹Ġ
zhÄ« ĠyÄ«Ġ
ĠshÃŃĠ dÃłiĠ
S Ġ
Ġ R
chÇĶ ĠyÃºĠ
UTC Ġ
gÃ²ng ĠhÃ©Ġ
jiÃ©Ġ shÃ¹Ġ
ĠbÃ¹Ġ zhÇİngĠ
zÃ¬Ġ jÇĲĠ
2019 ĠniÃ¡nĠ
ĠzÃ¬Ġ jÇĲ
zhÄ«Ġ chÃŃĠ
2005 ĠniÃ¡nĠ
guÃ² ĠchÃ©ngĠ
ĠhÃ²uĠ lÃ¡i
shÃ¹n Ġ
Ġ bÃ¡iĠ
10 ĠrÃ¬Ġ
mÃŃnĠ zÃºĠ
2015 ĠniÃ¡nĠ
kÅįngĠ jiÄģnĠ
shuÃ¬ Ġ
Ġ 8
Ġ wÃłiĠ
bÃº ĠhuÃ¬Ġ
yÃ¨ ĠyÃºĠ
Ġ rÃº
tÃ²u ĠguÃ²Ġ
mÃ¨i Ġ
nÃ¨i ĠbÃ¹Ġ
2013 ĠniÃ¡nĠ
jiÄĽĠ fÃłng
xÄ«nĠ wÃ©nĠ
ĠzhÃŃ ĠdÃłoĠ
fÄĵn ĠbÃ¹Ġ
ĠyÃ¬Ġ zhÃŃĠ
Ġ sÃ¬
gÄĵnĠ jÃ¹
Ġ chÄĵngĠ
ĠzhÅįu ĠshÃ¬Ġ
pÄ« ĠpÃŃngĠ
ĠjÃŃĠ tuÃ¡nĠ
2007 ĠniÃ¡nĠ
dÃ¬Ġ qÅ«Ġ
Ġ 7
D Ġ
ĠĠĠ zhÃ¨Ġ
ĠhÃ©Ġ nÃ¡nĠ
tÄģĠ men
ĠshÃ¬Ġ shÃŃĠ
ĠyÇĴuĠxiÃłn ĠgÅįngĠsÄ«Ġ
Ġ jiÃ¹
gÃ©Ġ mÃ¬ngĠ
20 Ġ
wÃ¡n ĠjiÄģĠ
guÄ«Ġ dÃ¬ngĠ
Ġ Ãłi
Ġ ziĠ
Ġ shÇĶĠ
ĠjiÄģĠ rÃ¹Ġ
Ġ jÇĲngĠ
wÃ¡n ĠquÃ¡nĠ
chÃ©ngĠ wÃ©iĠ
xÄ«Ġ bÄģnĠ
zÄ«Ġ gÃ©Ġ
Ġ shÃ©nĠ
26 ĠrÃ¬Ġ
dÃłĠ lÃ¹Ġ
ĠĠĠ gÄģiĠ
Ġ tÃ¡ngĠ
2017 ĠniÃ¡nĠ
ÃłoĠlÃŃnĠpÇĲ ĠkÃ¨Ġ
ĠdÃłĠ huÃ¬Ġ
Ġ 3Ġ
24 ĠrÃ¬Ġ
zÃłi ĠdeĠ
zÃ¡ ĠzhÃ¬Ġ
ĠzhÃ¨Ġ zhÇĴngĠ
yÄ«ng ĠyÇĶĠ
pÃºĠ tÃ¡oĠ
lÃ¹ ĠdÃ¬Ġ
qÇĲĠ yÃ¨Ġ
hÃ© ĠdeĠ
shÃłngĠ hÇİiĠ
Ġ yÄ«ngĠguÃ³Ġ
hÃ¡o ĠmÇĲĠ
ĠyÇĶĠ yÃ¡nĠ
ĠĠĠ yÄ«Ġ
qÃŃ ĠtÄģ
fÄģng ĠdeĠ
hÃ²u ĠyÄ«Ġ
luÃ³Ġ mÇİĠ
Ġ mÃ²Ġ
sÄģn ĠgÃ¨Ġ
wÃ¨nĠ tÃŃ
ĠchÃ©ngĠ qÅ«Ġ
Ġ kÄĽ
sÃ¨ ĠdeĠ
2006 ĠniÃ¡nĠ
chuÃ¡nĠ tÇĴng
ĠshÃ¬Ġ fÇİĠguÃ³Ġ
yÄ« ĠdeĠ
18 ĠrÃ¬Ġ
wÃ¹Ġ zhÇĴngĠ
ĠwÃ¨iĠyÃºĠ gÄģiĠguÃ³Ġ
ĠlÇĲĠ sÄ«Ġ
jÃ¬ngĠ nÃ¨iĠ
ĠbÃ¹ĠtÃ³ng ĠdeĠ
Ġ hÄģĠ
Ġ tÃ¡iĠwÄģnĠ
ĠĠĠ of
wÃ¹ ĠlÇĲĠ
duÅį ĠdeĠ
Ġ mÃ²
shÃ¹ ĠwÃ¨iĠ
ĠdÃłiĠ biÇİo
ĠĠĠ K
biÇİo ĠxiÃłnĠ
fÇİĠ lÇľĠ
ĠshÃ¬ĠjiÃ¨ ĠdÃłĠ
shÄĽng ĠjÃŃĠ
miÃ¡o ĠshÃ¹Ġ
Ġ tÃ³uĠ
jÄ«ngĠ guÃ²Ġ
guÄģn ĠyuÃ¡nĠ
gÃłn Ġ
21 Ġ
Ġ lÃºĠ
chÄģng Ġ
Ġ Äģ
ĠĠĠ N
ĠzuÃ¬ ĠhÃ²uĠ
bÃł Ġ
ĠyÃ¬Ġ bÄģnĠ
pÃ²Ġ huÃłi
ĠguÃ³Ġ jiÄģ
Ġ yÃłoĠ
yÃŃng ĠdÃ©Ġ
kuÄģn Ġ
ĠĠĠ W
cÃłi Ġ
zhÃ¨ng ĠzÃłiĠ
ĠsuÃŃ ĠhÃ²uĠ
bÄģoĠ hÃ¡nĠ
ĠshÃ¬Ġ jiÃłn
bÃ³ĠwÃ¹Ġ guÇİnĠ
Ġ O
ĠgÅįngĠ jÄ«Ġ
shÃ¨n Ġ
cÃ¨ ĠshÃ¬Ġ
chÇİng ĠdeĠ
zÃ© ĠshÃ¬Ġ
ĠwÃ¨iĠ zhÅįngĠ
ĠlÃ¬Ġ yÃ²ngĠ
bÃ¹ ĠhÃ©Ġ
nÃ¡ Ġ
30 Ġ
fÇİĠ yuÃłnĠ
niÃ¨ Ġ
fÄĵi ĠjÄ«Ġ
ĠfÄĵn ĠbÃ¹ĠyÃºĠ
ĠĠĠ L
shÇĲ ĠdeĠ
zhuÄģnĠ yÃ¨Ġ
zhÄĵng ĠyÃ¬Ġ
27 ĠrÃ¬Ġ
chÃºn Ġ
16 ĠrÃ¬Ġ
B Ġ
Ġ 2001ĠniÃ¡nĠ
ĠdÃ¬Ġ qÅ«
Ġ chÃ¡oĠ
21 ĠrÃ¬Ġ
yÃ¬ ĠshÃŃĠ
yÅįng Ġ
17 ĠrÃ¬Ġ
zÄģo ĠdÃłoĠ
ĠshÃ¬Ġ yÃ¬Ġ
ĠshÄĵngĠ huÃ³Ġ
12 ĠrÃ¬Ġ
ĠbÃ¨iĠ chÄĵngĠwÃ©iĠ
dÃ¬ng ĠyÃ¬Ġ
ĠzhÅįngĠ xÄ«n
8 ĠrÃ¬Ġ
ĠdÃłĠ qÅ«Ġ
ĠsuÄ« ĠrÃ¡n
zÅįng ĠhÃ©Ġ
ĠzhÃłnĠ zhÄĵngĠ
Ġ W
xuÃ© ĠdeĠ
ĠxiÃłn ĠshÃŃĠ
ĠzhÅįngĠ gÃ²ng
jÃŃ ĠwÃ¨iĠ
23 ĠrÃ¬Ġ
2021 ĠniÃ¡nĠ
huÃ¡ng ĠdÃ¬Ġ
ĠdeĠ zuÃ²Ġ
zhÇĲ ĠshÃ¬Ġ
2022 ĠniÃ¡nĠ
11 ĠrÃ¬Ġ
ÄģĠ lÄģĠ
jiÄģng ĠqÃŃĠ
sÅįu Ġ
Åįu ĠzhÅįu
ĠbÃ¬ng ĠbÃ¹Ġ
yuÃ¡n ĠyÃºĠ
Ġ zhÅ«Ġ
fÄģngĠ xiÃłngĠ
zhÃłn ĠdeĠ
liÃ¹ ĠniÃ¡nĠ
Ã©Ġ luÃ³Ġ
Ġ p
chÅ« ĠxiÃłnĠ
quÃ¡n ĠlÃ¬Ġ
Ġ chÃ³ngĠ
ĠĠĠ yÃºĠ
guÄ«Ġ mÃ³Ġ
22 ĠrÃ¬Ġ
liÃ¨Ġ chÄĵ
7 ĠrÃ¬Ġ
29 ĠrÃ¬Ġ
liÃ¨ ĠdeĠ
zuÃ¬Ġ dÃłĠdeĠ
duÅįĠ shÃ¹Ġ
xiÃłng ĠdeĠ
nÇİo Ġ
xÅ«Ġ yÃło
hÃ¡i ĠshÃ¬Ġ
yÃ¹ ĠdeĠ
nÃ©ngĠ gÃ²uĠ
yuÄĵĠ hÃłnĠ
ĠzhÃ¨Ġ xiÄĵ
9 ĠrÃ¬Ġ
Ġ lÃ³ngĠ
ĠĠĠ cÇĲĠ
dÃ¬ng ĠwÃ¨iĠ
tÇĴng ĠjÃ¬Ġ
E Ġ
ĠxiÄģngĠ gÇİng
19 ĠrÃ¬Ġ
sÄģng Ġ
ĠĠĠ zhÃ¨ngĠzhÃ¬Ġ
ĠzÃłiĠ zhÃ¨Ġ
xÃ¬n ĠxÄ«Ġ
liÃ¡nĠ mÃ©ng
yÃłng ĠdeĠ
ĠxiÃłn ĠzhÃ¬Ġ
Ġ cÃ¬
gÅįng ĠdeĠ
jÇĶĠ bÃłn
qiÃº ĠduÃ¬Ġ
hÅįng Ġ
chÃ¡ ĠdeĠ
14 ĠrÃ¬Ġ
lÃ¬ng ĠyÄ«Ġ
chÃ¡ng ĠshÃ¬Ġ
5 ĠrÃ¬Ġ
mÄĽiĠguÃ³Ġ rÃ©nĠkÇĴuĠpÇĶĠ
niÇĶĠ yuÄĵ
zÇĶ ĠhÃ©Ġ
ĠhuÃ² ĠdÃ©
3 ĠrÃ¬Ġ
lÃŃn ĠshÃŃĠ
31 ĠrÃ¬Ġ
ĠzhÅįngĠ bÃ¹Ġ
wÃ¨i ĠshÃ¬Ġ
dÇĴng ĠshÃ¬Ġ
ĠfÄĵnĠ biÃ©
jÄ« ĠdÃ¬Ġ
gÄĵĠ shÇĴuĠ
dÅįngĠ nÃ¡nĠ
hÇİiĠ bÃ¡
ĠĠĠ zhÅįngĠ
on Ġ
bÄģng ĠzhÃ¹Ġ
ĠdeĠshÃ¬Ġ zhÃ¨nĠ
6 ĠrÃ¬Ġ
Ġ lÃ¹
bÇĲng Ġ
mÃ³u Ġ
pÄģi ĠshÃ¨Ġ
Ġ 4Ġ
ĠyÃ¬Ġ dÃłĠlÃ¬Ġ
2000 ĠniÃ¡nĠ
ĠshÃ¨ ĠlÃ¬Ġ
2 ĠrÃ¬Ġ
ĠyÃ¬Ġ bÄģn
ĠrÃ©nĠ kÇĴu
gÃ¨ ĠrÃ©nĠ
Ġ 190
shÃ¨ ĠyÇĴuĠ
ĠdeĠ zhÅįngĠ
Ġ gÃ²ngĠ
4 ĠrÃ¬Ġ
Ġ liÃº
shÄĵngĠ yÃ¡Ġ
Ġ rÃ¹Ġ
Ġ huÃ¡Ġ
yuÃ¡n ĠhÃ©Ġ
2004 ĠniÃ¡nĠ
ĠdÃ¬Ġ qÅ«ĠdeĠ
ĠxuÃ©Ġ shÄĵngĠ
Ġ dÇİoĠzhÃ¬Ġ
tiÄĽĠ lÃ¹
Ġ bÃłoĠ
zÃº ĠqiÃº
zÇİo ĠqÄ«Ġ
al ĠĠĠ
ĠqÃŃ ĠtÄģ
cÄģng Ġ
fÃ©ng Ġ
13 ĠrÃ¬Ġ
xiÅįng ĠdÃ¬Ġ
ĠĠĠthe ĠĠĠ
shÄĵng ĠzÃłiĠ
dÅįngĠ bÄĽiĠ
12 Ġ
tÅįngĠ chÃ¡ngĠ
mÃ¹ ĠdÃ¬Ġ
huÄ« ĠfÃ¹Ġ
0 Ġ
ĠshÃ¬Ġ chÇİngĠ
ĠxuÃ©Ġ yuÃłnĠ
ĠzhÃ¨ ĠyÄ«Ġ
er Ġ
ruÇİn Ġ
shÄģo Ġ
Ġ wÇĴ
shÄĵnĠ fÃ¨nĠ
ĠĠĠ yÃ³uĠyÃºĠ
qÇĶ ĠdÃłiĠ
gÃ©Ġ mÃ¬ng
zhÇĲĠ huÄ«Ġ
qÃŃngĠkuÃłng ĠxiÃłĠ
sÅ«Ġ liÃ¡nĠ
yÃŃ ĠbÃ¹Ġ
xiÃ© ĠyÃ¬Ġ
huÃ¡ng ĠjiÄģĠ
kÄĵ ĠjÃ¬Ġ
fÄģ ĠxiÃłn
pÃ¡n Ġ
pÃ¡ng Ġ
zhÄĽng ĠgÃ¨Ġ
zhÄģn Ġ
Ġ mÃ©iĠyÇĴuĠ
rÃ©n ĠhÃ©Ġ
ĠgÅįngĠ chÇĲĠ
liÃ¡nĠ bÄģngĠ
yÄģo ĠqiÃº
yÄģn Ġ
Ġ hÄĵiĠ
Ġ biÃłnĠ
chÄģo ĠjÃŃĠ
mÃło ĠyÃ¬Ġ
yuÃ¨ ĠdeĠ
Ġ gÃ¹
zhÇİng ĠdeĠ
xuÃ©Ġ yuÃłn
fÇİnĠ yÃ¬ng
jÇĶĠ bÃłnĠ
cuÄ« Ġ
hÃ¡ngĠ kÅįng
xÃŃ ĠjÄ«Ġ
ĠyÄĽ ĠyÇĴuĠ
huÃł ĠhÃ©Ġ
guÄģnĠ fÄģngĠ
xiÇİoĠ shuÅįĠ
nÇļĠ xÃ¬ngĠ
Ġ fÃ¹
ĠdÃ¬Ġ lÃ¬Ġ
3 ĠniÃ¡nĠ
I Ġ
lÃ¬ ĠhÃ©Ġ
ĠxÄ«Ġ nÃ¡nĠ
tÃºĠ shÅ«Ġ
bÃ¬Ġ yÃ¨Ġ
4 ĠniÃ¡nĠ
xiÄģn ĠhÃ²uĠ
zÃ¡ Ġ
tÇĴng ĠyÄ«Ġ
Ġ hÄģ
br Ġ
hÃ³u Ġ
Ġ J
sÃłi ĠdeĠ
zÅ«n Ġ
ĠyÇĲĠ jÄ«ng
lÇİn Ġ
Ġ brĠ
xiÃ© ĠzhÃ¹Ġ
cÃ¬ ĠshÃ¬ĠjiÃ¨ĠdÃłĠ
Ġ wÄĵi
Ġ 6Ġ
Ġ shÅ«Ġ
ĠrÃºĠ guÇĴĠ
shÃłng ĠshÃ¬Ġ
qÅ«Ġ huÃłĠ
Ġ dÅįng
Ġ quÃ¨Ġ
fÄĵn ĠxÄ«Ġ
yÇĶ ĠdeĠ
ĠÄĽrĠ shÄĽngĠ
rÃ©nĠkÇĴuĠ shÃ¹ĠliÃłng
wÃ©nĠwÃ¹Ġ bÇİoĠhÃ¹Ġ
tÇĲng Ġ
ĠhÃ©Ġ yÄ«Ġ
i Ġ
ĠbÃ¹Ġ nÃ©ngĠ
zÃ¬ ĠxÃŃngĠ
ĠĠĠ R
jiÄĵĠ duÃłnĠ
wÃº ĠxiÃłnĠ
guÇİngĠ bÅįĠ
ĠyÇĲĠ lÃ¡iĠ
ĠxÄ«Ġ bÄģnĠ
dÄģnĠ rÃ¨n
Ġ shuÄģngĠ
Ġ qiÄĽĠ
Ġ bÄĽn
Ġ zÇĶĠ
ĠtÄģĠ cÃ©ng
chÃŃĠ xÃ¹Ġ
tÃ¡iĠ bÄĽi
5 ĠniÃ¡nĠ
gÃ²ngĠchÇİnĠ dÇİngĠ
guÃ³ ĠhÃ©Ġ
Ġ wÇĶ
ĠyÇĲĠ xiÃłĠ
fÄģĠ biÇİo
qÄ« ĠniÃ¡nĠ
tÃ¨ ĠdeĠ
rÃ©ng Ġ
dÇİoĠ yÇİnĠ
6 ĠniÃ¡nĠ
hÃ²u ĠyÃºĠ
yÇİnĠ chÃłng
zhÃ¹ ĠzÃłiĠ
ĠĠĠ O
xiÃłĠ xiÃ¡
tiÃ¡o ĠjiÃłnĠ
pÃŃn ĠdÃłoĠ
ĠgÅįngĠ zuÃ²
Ġ mÃłnĠ
yÃ¨ ĠdeĠ
jiÄģo ĠyÃ¬Ġ
ĠzÃłiĠ cÃ¬Ġ
Ġ cÃ¡iĠ
shÃło ĠniÃ¡nĠ
jiÃ©Ġ shÃ¹
ĠshÃ¬Ġ zhÅįngĠguÃ³Ġ
lÃłi Ġ
hÇĶ Ġ
bÃło ĠdÃłoĠ
ĠrÃ©nĠkÇĴuĠmÃ¬Ġ dÃ¹ĠwÃ¨iĠ
qiÃº ĠyuÃ¡nĠ
an Ġ
ĠshÃ¬Ġ lÃ¬Ġ
ĠĠĠ bÃ¹Ġ
juÃ©Ġ sÃłiĠ
Ġ qiÄĽ
yÃ¬ngĠ yÃ²ngĠ
wÃłi ĠdeĠ
yÃ³uĠ zhÃ¨ngĠ
jiÃłn ĠlÃ¬Ġ
zÄģo Ġ
9 ĠniÃ¡nĠ
zÄ« ĠyuÃ¡nĠ
sÄģi ĠÄĽrĠ
Ġ zhÄģng
ĠqÃŃ ĠhÃ²uĠ
Ġ jiÇĶĠ
Ġ yÃłĠ
zuÃ¬ ĠdÃłĠ
cÄģo Ġ
ĠbÃ¬ng ĠwÃ¨iĠ
huÃŃ ĠdÃłoĠ
sÃ¹Ġ dÃ¹Ġ
qÃ¬ ĠhÃ²uĠ
kÄĽĠ dÃ¡Ġ
ĠwÃ¨iĠyÃºĠ fÇİĠguÃ³Ġ
gÇİiĠ gÃ©Ġ
mÃ¬Ġ shÅ«Ġ
Ġ xÄ«
ĠyÄ«Ġ yuÃłnĠ
diÃłnĠshÃ¬Ġ jÃ¹Ġ
zhuÃłngĠ tÃłiĠ
zhÃ¹ ĠdeĠ
fÃ¨n ĠwÃ¨iĠ
ĠgÅįngĠ yÃ¨Ġ
Ġ luÃ²Ġ
wÇİng ĠzhÃłnĠ
kÄģiĠ fÄģ
gÅįngĠ sÄ«Ġ
jiÃ©Ġ guÇĴĠ
suÇĴĠ shÇĶĠdeĠ
ĠdeĠdÃ¬Ġ yÄ«Ġ
Ġ qiÄģnĠ
hÃº ĠnÃ¡nĠ
ĠyÄ«Ġ sÄ«Ġ
yÃł ĠlÃ¬Ġ
ĠwÃ¨iĠ yÄ«Ġ
shÇĴuĠ cÃ¬
jiÃ© ĠhÃ©Ġ
shÃłngĠ hÇİi
ĠzhÃ¨Ġ ge
20 ĠshÃ¬ĠjÃ¬Ġ
zÃ²u Ġ
ĠzuÃ²Ġ pÇĲnĠ
Ġ mÃłi
zuÇĴ ĠyÃ²uĠ
xiÇİo ĠxuÃ©Ġ
Ġ jiÄĽĠ
Ġ zhÃłoĠ
shÃ¨ng ĠlÃ¬Ġ
ĠzhÅįngĠ gÃ²ngĠ
U Ġ
ĠhÃło ĠxiÃłnĠ
zhÃ¨nĠ qÅ«Ġ
2 ĠniÃ¡nĠ
ĠdeĠ fÃ¹Ġ
wÃ©n ĠmÃŃngĠ
ĠjiÇİnĠ chÄĵngĠ
yÃŃ ĠzhÃ¬Ġ
jiÃło ĠhuÃ¬Ġ
shÄĽngĠ fÃ¨nĠ
zhÇİnĠ kÄģiĠ
yÃ¬nĠ dÃ¹
shÃŃĠ qÄ«Ġ
ĠsuÇĴ ĠyÇĴuĠ
lÇĲngĠ dÇİo
Ġ fÇİĠguÃ³Ġ
mÃ¹Ġ biÄģoĠ
ĠÃ©r ĠshÃ¬Ġ
gÄģo ĠjÃŃĠ
zhÇĶn ĠbÃ¨iĠ
fÄģĠ biÇİoĠ
wÇİngĠ luÃ²Ġ
ĠjiÃłn ĠshÃ¨Ġ
xÃ¹nĠ liÃłnĠ
kÄĵ ĠdeĠ
ĠrÃ©nĠ wÃ¹Ġ
xuÇİnĠ shÇĴuĠ
jiÄģoĠ tÅįng
hÇİo ĠdeĠ
zÃ¬Ġ rÃ¡nĠ
zhÃ²ngĠyÃło ĠdeĠ
dÅįngĠ jÄ«ngĠ
chÇİnĠ pÇĲnĠ
gÃ²ngĠyÇĴuĠ rÃ©nĠkÇĴuĠ
ĠxiÃłnĠ dÃłiĠ
ĠyÄ«Ġ mÃŃngĠ
ĠxÄ«Ġ bÄĽiĠ
fÄĵngĠ gÃ©Ġ
Ġ fÄĵi
ĠchÃ©ngĠ jÃ¬Ġ
lÄĽi Ġ
ĠhÃ©Ġ dÃ¬Ġ
yÃ¡nĠ zhÃ²ngĠ
xiÇİoĠxÃŃngĠ xÄ«ngĠ
r Ġ
zi ĠdeĠ
mÃ¹Ġ qiÃ¡nĠ
Ġ jiÇİĠ
liÃº ĠxÃŃngĠ
wÃ©nĠwÃ¹ĠbÇİoĠhÃ¹Ġ dÄģnĠwÃ¨iĠ
juÇİn Ġ
ĠjÄ«Ġ chÇİngĠ
biÃłn ĠchÃ©ngĠ
7 ĠniÃ¡nĠ
qiÃ¡o ĠzhÃ¬Ġ
miÃ¨ Ġ
8 ĠniÃ¡nĠ
lÃ¨iĠ sÃ¬
1 ĠniÃ¡nĠ
diÃłnĠshÃ¬Ġ tÃ¡iĠ
jiÄĽ ĠshÃ¬Ġ
guÃ³Ġ mÃŃnĠ
ĠyÃ¬Ġ qÇĲĠ
Ġ wÅ«Ġ
kÄģiĠ fÃłngĠ
Ġ lÃ¡nĠ
Ġ yÇĴngĠ
ĠxiÃłĠ lÃ¬ng
Ġ mÃłiĠ
kÇİ ĠÄĽrĠ
2003 ĠniÃ¡nĠ
xÃŃng ĠshÃ¬Ġ
dÅįu ĠyÇĴuĠ
Ġ shÃ¨nĠzhÃ¬Ġ
2002 ĠniÃ¡nĠ
Ġ yÃŃĠgÃ¨Ġ
zhÄ« ĠhÃ²uĠ
huÃ¬ ĠhÃ©Ġ
mÄĽi ĠpÃŃngĠfÄģngĠgÅįngĠlÇĲĠ
rÃ¹ ĠleĠ
ĠyÄ«Ġ yÃłngĠ
Ġ chÃºĠleĠ
ĠgÅįngĠ fÄĵnĠ
ĠshÃ¨ ĠzhÃ¬Ġ
tÃ¨Ġ zhÄĵngĠ
cÄģnĠ sÃłiĠ
ĠsÄ«Ġ jÄ«Ġ
rÃº ĠxiÃłĠ
e ĠĠĠ
zhÄĵn ĠduÃ¬Ġ
jiÃ¹ ĠshÃ¬ĠzhÃ¨nĠ
ĠshÃ¬Ġ fÇĴu
ĠshÃŃĠ jiÄģn
zhÃ¨Ġ geĠ
Ġ guÄģngĠ
gÄģo ĠzhÅįngĠ
ĠcÇĲ ĠhÃ²uĠ
Ġ dÄģnĠrÃ¨nĠ
bÃ¬Ġ xÅ«Ġ
ĠzÃłiĠ zhÅįngĠ
wÃ¡ng ĠguÃ³Ġ
bÃłng Ġ
bÇĲĠ jiÃłoĠ
Ġ 00
Ã¨r ĠshÃ¬Ġ
wÃłiĠ jiÄģo
guÄ«Ġ huÃłĠ
diÄģo Ġ
ĠyÃ¬Ġ zhÃ¬Ġ
lÃ¨iĠ sÃ¬Ġ
shÄģnĠ dÅįngĠ
ĠrÃ¡n ĠhÃ²uĠ
ĠyÃ¬Ġ zhÃŃ
ĠlÃ¬Ġ shÇĶĠyÃºĠ
ĠsuÄ« ĠrÃ¡nĠ
yuÃ¡n ĠshÃ¬Ġ
duÃ¬ ĠzÃłiĠ
zhÃ¹ ĠmÃŃngĠ
yÃºn ĠnÃ¡nĠ
hÄĽn ĠduÅįĠ
ĠÄĽr ĠdeĠ
huÃ² ĠdÃ©
Ġ jiÃłĠ
shÄĵngĠ chÇİnĠ
zhÃłn ĠyÃ¬Ġ
Ġ yÇĶ
ĠĠĠ gÅįngĠ
diÃłnĠ ziĠ
Ġ bÄĽi
zhÃ²ng ĠdeĠ
Ġ 11
ĠjiÃłn ĠzhÃ¬Ġ
ĠĠĠ dÃłĠ
xÄ«n ĠjiÄģĠ
lÃ¡iĠ zÃ¬
zhÃ¬Ġ zuÃ²Ġ
shÄģn ĠxÄ«Ġ
rÃ©nĠkÇĴuĠshÃ¹ĠliÃłng ĠwÃ¨iĠrÃ©nĠ
jÃ¹ ĠjÃŃĠ
ĠdeĠyÄ«Ġ zhÇĴngĠ
ĠdeĠ mÃŃngĠ
jÃŃ ĠhÃ©Ġ
ĠxÄ«Ġ yÃł
tÃło Ġ
Ġ gÇĶ
lÇļ ĠyÃ³uĠ
ĠzhÃ¬Ġ zÃłoĠ
ĠxÃŃngĠ wÃ©iĠ
Ġ shÄģngĠ
mÇİĠ lÃ¡i
bÃłoĠ fÄģĠ
nÇļ ĠÃ©rĠ
Ġ rÃ¨n
Ġ INSEE
de ĠĠĠ
zÇĴng ĠlÇĲĠ
quÃ¡n ĠqiÃºĠ
sÄ« ĠhÃ©Ġ
ĠdeĠ zhÇĶĠ
yÃ¨Ġ wÃ¹Ġ
ĠshÃłngĠ hÇİiĠ
sÃłi ĠzhÅįngĠ
fÄģ ĠshÃ¨Ġ
ruÃ¬ ĠshÃ¬Ġ
bÄģoĠ hÃ¡n
nÃ³ngĠ yÃ¨Ġ
Ġ tÃºĠ
tÃ³uĠ zÄ«Ġ
nÃłi Ġ
lÃ¹ ĠjÅ«nĠ
wÃ¹ ĠzhÃ¬Ġ
juÃ© ĠdeĠ
Ġ chÄĵĠ
Ġ duÃ¬ĠyÃºĠ
tÃ¨Ġ biÃ©Ġ
Ġ zÇĶ
ĠjÃ¬n ĠshÃ¬Ġ
ĠdeĠshÃŃĠ hÃ²uĠ
ÃłoĠlÃŃnĠpÇĲĠkÃ¨Ġ yÃ¹nĠdÃ²ngĠhuÃ¬Ġ
gÃ© ĠdeĠ
mÇĲn Ġ
ĠzhÃ¬Ġ jÄ«nĠ
fÄģngĠ ÃłnĠ
sÄ« ĠrÃ©nĠ
huÃłĠ xuÃ©Ġ
ĠtÃ¨Ġ biÃ©
ĠdÃłĠ liÃłngĠ
Ġ dÄĽng
jÃŃ ĠshÃ¬Ġ
Ġ biÇİoĠshÃ¬Ġ
kÄĽĠnÃ©ng ĠshÃ¬Ġ
liÃ¡nĠ jiÄĵĠ
jÃ¬n ĠdeĠ
ĠzhÄ«Ġ wÃłiĠ
fÄģĠ dÃ²ngĠ
sÃ¬ ĠshÃŃĠ
Ġ nÃŃĠ
cÃ¡o Ġ
Ġ V
xuÇİn ĠwÃ¨iĠ
chÃł Ġ
qiÇİn Ġ
ĠshÃ¨Ġ shÄ«Ġ
chÃ¹ ĠdeĠ
tÇĶ ĠÄĽr
ĠlÃ¬Ġ sÄ«Ġ
bÃ³Ġ tÃ¨Ġ
x Ġ
ĠzÇĴngĠ miÃłnĠjÄ«Ġ
luÃ³Ġ mÇİ
chuÃłng ĠlÃ¬Ġ
ĠdeĠ lÃ¬Ġ
ĠdÃ© ĠlÇĲĠ
guÇİngĠ chÇİngĠ
liÃ¡n ĠhÃ©ĠguÃ³Ġ
jÃŃ ĠshÃŃĠ
gÄĵngĠ mÃŃngĠwÃ¨iĠ
zÇİo ĠniÃ¡nĠ
2023 ĠniÃ¡nĠ
xiÃło ĠlÃ¬Ġ
X Ġ
qÃ¬ ĠdeĠ
juÃ©Ġ dÃ¬ng
biÇİoĠ yÇİnĠ
yÃŃ ĠshÃ¬Ġ
rÃ©ng ĠrÃ¡nĠ
ĠjÅ«n ĠzÃłiĠ
fÄģngĠ miÃłn
ĠgÄģiĠ shÄĽngĠ
zÇĴngĠ tÇĴng
zhÃ¬ ĠshÃ¬Ġ
dÄģ Ġ
ĠgÅįngĠ nÃ©ngĠ
Ġ gÃ¨ngĠ
ĠrÃ©nĠkÇĴuĠmÃ¬ĠdÃ¹Ġ mÄĽiĠpÃŃngĠfÄģngĠgÅįngĠlÇĲĠ
ĠrÃ©nĠkÇĴuĠmÃ¬ĠdÃ¹ĠwÃ¨iĠ mÄĽi
ĠxiÃłĠlÃ¬ng ĠshÃŃĠ
yÃ³uĠzhÃ¨ngĠ biÄģnĠmÇİĠwÃ¨iĠ
chÃ¡ĠdeĠ shÃ¹ĠjÃ¹Ġ
ĠjÃ¹Ġ lÃ¨ĠbÃ¹Ġ
Ġ zhÄĵnĠ
ĠshÃ¬ĠzhÃ¨nĠ biÄģnĠmÇİĠwÃ¨iĠ
ĠINSEE ĠshÃ¬ĠzhÃ¨nĠbiÄģnĠmÇİĠwÃ¨iĠ
ng Ġ
ĠĠĠ bÃ¨iĠ
biÄģoĠ zhÇĶn
Ġ xiÄģnĠ
ĠshÃ¨ ĠdeĠ
xuÇİnĠ qÅ«ĠwÃ¨iĠ
jiÇĶ ĠniÃ¡nĠ
ĠzÃłiĠ cÇĲĠ
ĠbÃ¹Ġ guÃ²
pÃ¡i ĠmÃŃngĠ
ĠguÃ³Ġ wÃ¡ngĠ
dÃ²ng ĠlÃ¬Ġ
shÃŃĠdeĠ rÃ©nĠkÇĴuĠshÃ¹ĠliÃłngĠwÃ¨iĠrÃ©nĠ
jiÄĵĠrÇİng ĠdeĠshÃ¬ĠzhÃ¨nĠ
mÄĽiĠguÃ³ĠrÃ©nĠkÇĴuĠpÇĶĠ chÃ¡ĠdeĠshÃ¹ĠjÃ¹Ġ
cÃ³ng ĠshÃ¬Ġ
jiÄģ ĠlÃ¬Ġ
ĠÃ©r ĠrÃ©nĠkÇĴuĠmÃ¬ĠdÃ¹ĠwÃ¨iĠmÄĽi
gÃ©Ġ lÃ¡n
ĠdÄģngĠdÃ¬Ġ gÃ²ngĠyÇĴuĠrÃ©nĠkÇĴuĠ
fÄĵnĠ lÃ¨iĠ
jiÄĽĠ juÃ©Ġ
shÇĲĠyÃ²ng ĠdeĠ
F Ġ
zÃº ĠdeĠ
liÃ¡nĠ bÄģng
ĠfÄĵn ĠzhÅįngĠ
gÅįu Ġ
dÃł ĠbÃ¹ĠfÃ¨n
yÄ«Ġ zhÇĴngĠ
lÇĲng ĠyÃ¹Ġ
ĠhuÃ²Ġ jiÃ¹ĠshÃ¬ĠzhÃ¨nĠ
hÃ© ĠshÃ¬Ġ
ĠĠĠ lÃ¬Ġ
ĠchÅ«Ġ bÇİnĠ
yÃ¹nĠ yÃŃngĠ
shÄĽngĠjÃŃĠ xuÇİnĠqÅ«ĠwÃ¨iĠ
jÄ« ĠjÃŃĠ
ĠdeĠ yÄ«ĠbÃ¹ĠfÃ¨nĠ
shÃŃ ĠshÃ¬Ġ
Ġ xiÃłng
ĠniÃ¡nĠ dÃ¹Ġ
Ã©rĠ ziĠ
zuÃ²Ġ pÇĲn
jiÄĵĠ shÃ²u
xuÇİn ĠrÃ©nĠ
gÃłiĠ niÃłnĠ
xÄ«ng ĠdeĠ
ĠÄĽr ĠdÃ©Ġ
shÄĽng ĠhÃ©Ġ
tiÃ¡oĠ yuÄĵĠ
ĠjÇĲnĠ guÇİnĠ
Ġ zhÃ¨ngĠshÃ¬Ġ
fÃ¨nĠwÃ¨iĠ fÇİĠguÃ³Ġ
ĠgÄģiĠshÄĽngĠ fÃ¨nĠwÃ¨iĠfÇİĠguÃ³Ġ
ĠchÅ«Ġ bÇİn
ĠzhÄ« ĠxiÃłnĠ
tiÄĽ ĠdÃłoĠ
ĠdÃ¬Ġ sÄģn
ĠÃ©rĠ qiÄĽĠ
ĠjÅ«nĠ duÃ¬Ġ
guÇİng ĠzhÅįuĠ
ĠbÃ¹Ġ jiÇĶĠ
Ġ jiÇİngĠ
Ġ sÃ²ngĠ
Ġ xiÄģoĠ
Ãło ĠdÃłĠlÃ¬Ġ
ĠwÃ¨iĠ shÃŃĠ
ĠxÄ«Ġ lÃł
ĠĠĠ 18
fÃº ĠjiÃłnĠ
Ġ qÄ«ng
ĠhÃ©Ġ bÃ¬ng
bÄģ ĠniÃ¡nĠ
zhÃłnĠ zhÄĵng
Ġ hÃ¡nĠ
ĠyÇĴuĠ rÃ©nĠ
pÃ¡iĠ mÃŃng
Ġ c
zhÃłn ĠshÃ¬Ġ
jÇĲnĠbiÄģoĠ sÃłiĠ
zuÃ¬Ġ hÃ²uĠyÄ«Ġ
jÇĲngĠ chÃ¡Ġ
qÃºnĠ dÇİoĠ
lÃ¡i ĠyuÃ¡nĠ
tÃ¨Ġ biÃ©
ĠtÄģĠ bÃ¨iĠ
xÄ«ng ĠjiÃłnĠ
ĠwÃłn ĠrÃ©nĠ
Ġ duÃ¬
ĠchÅ«Ġ shÄĵngĠyÃºĠ
shÃ¨ ĠlÃ¬Ġ
rÃ©ng ĠrÃ¡n
dÃ¬Ġ yÄ«Ġ
ĠrÃ¬ ĠdeĠ
Ġ ruÃ²Ġ
lÃºnĠ dÅ«n
bÄĽn ĠdeĠ
wÄĽi ĠhuÃ¬Ġ
ĠyÃ³uĠ xÃ¬
ĠrÃ©nĠ gÅįngĠ
xuÃ©Ġ xiÃło
Ġ kÄģiĠshÇĲĠ
shÇİn ĠxÄ«Ġ
cÃ©ng ĠzÃłiĠ
tÅįngĠ chÃ¡ng
tiÄģnĠ wÃ©nĠ
ĠzhÃ¬Ġ yÃºĠ
liÃ¨ ĠwÃ¨iĠ
ĠbÃ¹Ġ mÃŃngĠ
Ġ yÃ¬ĠwÃ¨iĠ
mÇĶ ĠsÄ«Ġ
ĠmÃŃngĠ chÃ¡oĠ
yÃ¹n ĠxÃŃngĠ
l Ġ
mÄĽi ĠzhÅįuĠ
cÇİiĠ yÃ²ng
Ã¡ng Ġ
rÃ²u Ġ
ĠdÃ¬Ġ sÃ¬Ġ
yÃ¡nĠjiÅ« ĠsuÇĴĠ
guÇİngĠ fÃłnĠ
Ãło ĠsÄ«Ġ
ĠxiÃłnĠ lÃ¹Ġ
Ġ gÃ¨ng
mÃ©ngĠ gÇĶĠ
ĠshÃ¬Ġ bÃ¹Ġ
yÇĲ ĠjÃŃĠ
ĠhÃ©Ġ pÃŃngĠ
jiÄģĠ rÃ¹Ġ
huÃł ĠshÃŃĠ
zhÃłn ĠhÃ²uĠ
ĠĠĠ tÄģ
Ġ dÃŃĠ
nÃ¡n ĠjÃŃĠ
shuÅįĠ fÇİĠ
gÇİnĠ rÇİnĠ
k Ġ
xÄ« ĠzÃłiĠ
Ġ rÃłng
ĠjÃ¬n ĠdeĠ
ĠrÃ¨nĠ wÃ©i
ĠjÄ«Ġ bÄĽnĠ
ĠjÃ¹Ġ lÃŃĠ
Ġ fÃ¨iĠ
mÃ³ ĠxÃŃngĠ
Ġ jiÄģoĠ
guÃ²Ġ chÃ©ngĠzhÅįngĠ
ĠdeĠdÃ¬Ġ fÄģngĠ
wÃº ĠrÃ©nĠ
ĠdeĠ xÄ«nĠ
jÃ¬Ġ shÃ¹Ġ
ĠjiÃłn ĠyÃ¬Ġ
ĠtÄģ ĠyÇĶĠ
yÃ¹nĠ shÅ«Ġ
gÃ²uĠ mÇİi
wÃ¡n ĠquÃ¡n
wÇĶ ĠshÃŃĠ
ĠkÃ¨ ĠdeĠ
rÃ¨nĠwÃ©i ĠshÃ¬Ġ
Ġ dÃ¡Ġ
ĠzÃłiĠ yÃ¬Ġ
ĠgÃ¨ ĠdÃ¬Ġ
bÃłnĠ gÅįngĠshÃ¬Ġ
Ġ chÃ©n
Ġ 10ĠyuÃ¨Ġ
tÃ³ng ĠyÄ«Ġ
duÅį ĠgÃ¨Ġ
wÃłi ĠguÃ³Ġ
ĠzÇĴng ĠrÃ©nĠkÇĴuĠ
xuÃ© ĠshÃ¬Ġ
jiÃłĠ zhÃŃĠ
shÃłng ĠyÇĴuĠ
yuÃ¡n ĠwÃ¨iĠ
fÄĵi ĠxÃŃngĠ
gÅįngĠ zuÃ²Ġ
ĠzÃ¬Ġ jÇĲĠ
nÃŃ ĠsÄ«Ġ
ĠzÃłiĠ zhÅįngĠguÃ³Ġ
xuÃ©Ġ xÃŃĠ
zhÇİo Ġ
yÇİngĠ huÃłĠ
quÄģn Ġ
Ġ shÃ²u
Ġ cÄģnĠ
Ġ Äģi
xuÄģnĠ chuÃ¡nĠ
Ġ fÃłnĠ
mÃ² ĠxÄ«Ġ
ĠyÄ«Ġ xiÄĵ
xuÇİnĠ zÃ©
Ġ Î
chÄĵng ĠwÃ¨iĠ
xiÄģo ĠxÄ«Ġ
ĠxiÃłn ĠrÃ©nĠ
ĠdeĠ guÄģnĠ
hÇİi ĠjÅ«n
qÇĲĠ lÃ¡iĠ
biÄģo ĠzhÃ¬Ġ
ĠbÃ¹Ġ mÃ©nĠ
zhÃ¬ ĠwÃ¨iĠ
ĠniÃ¡nĠ hÃ²uĠ
yÃ³uĠ xÃ¬
mÃ¡ Ġ
huÃ¡nĠ jÃ¬ng
fÃ¹ĠzÃ©Ġ guÇİnĠxiÃ¡Ġ
xÃ¬Ġ bÄģoĠ
ĠwÃ©iĠ zhÇĶĠ
jiÃ¨ ĠquÃ¡nĠguÃ³Ġ
Ġ xÄ«ngĠ
Ġ shÇĲĠyÃ²ngĠ
gÃ²u ĠchÃ©ngĠ
chÄĵĠ liÃłngĠ
shÄ« ĠdeĠ
zhÃ© ĠxuÃ©Ġ
ĠĠĠ yÇĲĠ
1999 ĠniÃ¡nĠ
Ãłn ĠdeĠ
kÄĵng Ġ
g Ġ
ĠjÃ¬Ġ huÃł
sÄ« ĠzÃłiĠ
zhÃ¨ng ĠdeĠ
Äģn ĠquÃ¡n
Ġ kÄĵ
dÇİng ĠdeĠ
Ġ lÃŃn
bÇĲ ĠdÃ©Ġ
ĠdÃłoĠ lÃ¹Ġ
chÃ¡oĠ xiÄģnĠ
yÃŃnĠ hÃ¡ng
xÄ« ĠdeĠ
Ġ ÃłnĠ
ĠshÃ¬Ġ mÄĽiĠguÃ³Ġ
ĠshÃ¬Ġ tÃºĠ
zhÅįng ĠzÃłiĠ
ĠjÃ¬Ġ niÃłnĠ
zhÇĶĠ juÃ©Ġ
sÃ¬Ġ chuÄģnĠ
bÃ¹ ĠwÃ¨iĠ
ĠjÃŃĠ qÃŃĠ
L Ġ
pÃ©ng ĠyÇĴuĠ
Ġ huÄģĠ
Ġ Ã¨r
chÃŃĠ xÃ¹
24 Ġ
Ãłi ĠÄĽrĠ
ĠgÅįngĠ gÃ²ngĠ
ĠzhÄ«Ġ chÃŃ
kÃłng ĠyÃ¬Ġ
ĠĠĠ yÇĴuĠ
yuÄĵ ĠwÃ¨iĠ
tÃłi ĠguÃ³Ġ
ĠÃ©rĠ qiÄĽ
jiÄĵ ĠwÃ¨iĠ
xuÇİnĠ qÅ«Ġ
ĠyÄ«ngĠ chÇĲĠ
shÃŃ ĠzÃłiĠ
yÃ¬ ĠhÃ©Ġ
huÃ¬ ĠyÇĴuĠ
shÄĵngĠ wÃ¹Ġ
xiÃłoĠ zhÇİngĠ
wÃ©n ĠjiÃłnĠ
ĠbÃ¨iĠ ÄĽrĠ
Ġ fÇİnĠ
gÄĵĠ qÇĶ
mÃłnĠ huÃłĠ
shÅįuĠ rÃ¹Ġ
ĠjiÃ© ĠzhÃ¬Ġ
Ġ tÃ¡iĠwÄģn
Ġ jiÃ¨
ĠĠĠ V
biÄģo ĠwÃ¨iĠ
fÃ³ ĠjiÃłoĠ
Ġ dÅįuĠ
rÃ³ng ĠyÃ¬Ġ
ĠĠĠ shÃŃĠ
ÃłoĠ yÃ¹n
suÇĴĠshÇĶĠdeĠ shÄĽngĠjÃŃĠxuÇİnĠqÅ«ĠwÃ¨iĠ
ĠĠĠ hÃ©Ġ
ĠĠĠ chÄĵĠzhÃłnĠ
ĠshÄĵngĠ wÃ¹Ġ
yÇİn ĠdeĠ
biÄģn ĠjÃŃĠ
qiÃłn Ġ
ĠzhÃłnĠ zhÄĵng
sÄ« ĠdÃ¬Ġ
yÄĽ ĠyÇĴuĠ
qiÃ¡nĠ wÇİng
Ġ ruÃ²
yÇĶĠ yÃ¡nĠ
zhÃ¨ngĠ cÃ¨Ġ
Ġ dÇİĠ
jÃ¬ ĠzhÅįngĠ
mÇĲ ĠÄĽrĠ
O Ġ
Ġ qiÃ¡ngĠ
jÅ«n ĠduÃ¬Ġ
jiÄĽĠfÃłng ĠjÅ«nĠ
tiÇİo ĠzhÃłnĠ
ĠyuÃ¡nĠ zhÃ¹Ġ
ĠchÅ«Ġ leĠ
ÃłoĠ yÃ¹nĠ
ĠzhÃ¬Ġ dÃ¹Ġ
1998 ĠniÃ¡nĠ
ĠyÃ²uĠ chÄĵngĠ
M Ġ
gÄģo ĠyÃºĠ
ĠshÃ¬Ġ yÃŃĠgÃ¨
ĠhuÃ² ĠshÃ¬Ġ
gÇİn ĠdÃłoĠ
nÃ¡nĠ xÃ¬ngĠ
mÇİ ĠlÃ¬Ġ
ĠyÇĲĠ shÃłngĠ
gÇİiĠ biÃłnĠ
kÅ«n Ġ
ĠĠĠ 2021
ĠdÃ¬Ġ xiÃłĠ
tÃ³uĠ rÃ¹Ġ
Ġ chÇİngĠ
fÃ³ Ġ
jiÄĵĠrÇİng Ġ
pÃ¨i ĠhÃ©Ġ
zhÇĲĠ huÄ«
jiÄģ ĠrÃ©nĠ
ce Ġ
wÄĽnĠ dÃ¬ngĠ
zhÄģ Ġ
ĠzhÅįngĠ yÇĴuĠ
ĠzÃłiĠ bÃ¹Ġ
tÃŃ ĠmÃŃngĠ
dÃ¡ ĠchÃ©ngĠ
2024 ĠniÃ¡nĠ
ĠyÄ«Ġ zhÇĴngĠ
rÇĶ Ġ
nÃ¨ Ġ
mÃ² ĠsÄ«Ġ
fÄĵn ĠzhÄ«Ġ
zÃłi ĠshÃ¬Ġ
tÃ³ng ĠdeĠ
jiÇİnĠ jiÃ¨Ġ
shÄĵnĠ fÃ¨n
tiÄģnĠ zhÇĶĠjiÃłoĠ
ĠzhÅįngĠguÃ³Ġ rÃ©nĠmÃŃnĠ
Ġ quÃ¨
biÇİo ĠmÃŃngĠ
duÃ³ ĠdeĠ
tÃŃngĠ zhÇĲĠ
Ġ yÃ¹
ĠÃ©rĠrÃ©nĠkÇĴuĠmÃ¬ĠdÃ¹ĠwÃ¨iĠmÄĽi ĠpÃŃngĠfÄģngĠqiÄģnĠmÇĲĠ
Ġ yÇİnĠ
xiÇİo ĠdeĠ
Ġ zÃ¬
zhÃ¨ng ĠshÃŃĠ
cÃ¨ ĠdeĠ
zÃło ĠdeĠ
ĠwÃ¨iĠ fÃº
juÄģn Ġ
Ġ hÃ¡iĠyÇĴuĠ
quÃ¨Ġ zhÄĽn
Ġ tÅįngĠguÃ²Ġ
ĠĠĠ 2020
ĠjÄ«Ġ bÃłiĠ
ĠniÃ¡nĠ chÅ«Ġ
bÃłnĠ dÇİoĠ
guÃ³ ĠzÃłiĠ
wÇĶĠ qÃ¬Ġ
tÄģĠ menĠ
ĠĠĠ yuÃ¡nĠ
ĠjiÄģĠ nÃ¡ĠdÃłĠ
ĠpÃŃngĠfÄģngĠ mÇĲĠ
zÃ¬ĠzhÃ¬Ġ qÅ«Ġ
Ġ 8ĠyuÃ¨Ġ
lÄģ ĠkÃ¨Ġ
lÃ¨i ĠdeĠ
in Ġ
R Ġ
hÃ¹n ĠhÃ©Ġ
ĠzÃ¬Ġ yÃ³uĠ
ĠĠĠ zÃ¬Ġ
Ġ tÃŃĠ
ĠzÃłiĠ mÄĽiĠguÃ³Ġ
ĠshÃŃĠ yÃłn
zuÃ¬Ġ zÇİo
jÇĶ ĠrÃ©nĠ
Ġ pÃŃĠ
tuÃ¡n ĠduÃ¬Ġ
dÃ¬ ĠshÃ¬Ġ
kÄĽĠnÃ©ng ĠhuÃ¬Ġ
yÄģ ĠlÃ¬Ġ
quÃ¡n ĠbÃ¹Ġ
Ġ sÅ«
jÃ¬ ĠwÃ¨iĠ
ĠÃ©r ĠbÃ¨iĠ
jÃ¬Ġ huÃłĠ
ĠjÃ¬Ġ chÃ©ngĠ
gÃ²ng ĠxiÃłnĠ
xÄ«ĠbÄģnĠ yÃ¡Ġ
Ġ U
Ġ pÃŃng
ĠshÃŃĠ shÄ«Ġ
jiÃ©Ġ mÃ¹
Ġ lÃŃĠ
ĠĠĠ J
ĠjiÃ©Ġ guÇĴĠ
ĠdÃ¬Ġ tiÄĽĠ
Ġ bÅį
Ġ The
shÄĵngĠ chÇİn
lÃ¡iĠ shuÅįĠ
zhÃ¨Ġ zhÇĴngĠ
lÃ¬ ĠbÃ¹Ġ
chÇİnĠ yÃ¨Ġ
Ġ Ã©Ġ
Ġ wÃ¡ng
xÃŃngĠ dÃ²ngĠ
fÄģn ĠyÃ¬Ġ
ĠqÄ«Ġ jiÄģnĠ
ĠchÅ«Ġ rÃ¨nĠ
shÇİoĠ shÃ¹Ġ
cÄģo ĠzuÃ²Ġ
jiÇİnĠ chÃ¡Ġ
bÃłn ĠshÃ¬Ġ
jiÄģĠ nÃ¡ĠdÃłĠ
yÇĲngĠ piÃłnĠ
chÅįngĠ tÅ«Ġ
ĠtÄģ ĠyÃºĠ
bÇİoĠ hÃ¹
ĠzÃłiĠ dÃłĠ
jÃ¬Ġ niÃłnĠ
Ãłn ĠjiÃłnĠ
Ã¡o Ġ
fÄĵnĠ biÃ©Ġ
cÃ©ngĠ jÄ«ngĠ
chÃ³ng ĠjiÃłnĠ
Ġ zhuÄģnĠ
shÇĴu ĠdeĠ
amp Ġ
ĠĠĠ p
ĠjiÃłnĠ zhÃ¹
Ġ mÃ¹
ĠshÃ¬Ġ yÇĲĠ
xÃŃng ĠwÃ©iĠ
xÄ«n ĠlÇĲĠ
Ġ bÃ¨i
gÃ²ng ĠtÃ³ng
nÃłn Ġ
ĠshÃŃĠ fÄĵnĠ
dÃ²ng ĠdeĠ
kÅįng ĠjÅ«nĠ
bÃłn ĠgÅįngĠ
ĠshÇĲ ĠdeĠ
dÃł ĠbÃ¹ĠfÃ¨nĠ
yÄģng Ġ
ĠxiÃłn ĠwÃ¨iĠ
qÄ«Ġ jiÄģn
ĠzhÃ¬Ġ zuÃ²
jiÃ©Ġ gÃ²u
ĠzhÇĲ ĠyÇĴuĠ
liÃ¡nĠ sÃłi
liÃ¡nĠ xÃ¹Ġ
juÃ©Ġ sÃ¨
ĠyÃ¬Ġ yÇĴuĠ
ĠlÃ¬Ġ rÃº
jÃŃ ĠzÃłiĠ
shÄĵn ĠdeĠ
ĠhÃ©Ġ bÄĽiĠ
ĠwÃ¨iĠ nÃ©ngĠ
Ġ Äģn
xiÄģngĠ duÃ¬Ġ
mÃ©iĠ tÇĲ
zhÇĶĠ tÃŃĠ
jiÇİnĠ shÇİoĠ
Åįu ĠyuÃ¡nĠ
ĠhÃ©Ġ liÃºĠ
gÅįngĠ yuÃ¡nĠ
xiÇİoĠ zÇĶĠ
tÃ²u Ġ
ĠyÃ²u ĠmÃŃngĠ
tÃ²ng Ġ
ĠyÇĲĠ sÃ¨Ġ
fÃ¨nĠ zÇĲĠ
xiÃłn ĠdÃłiĠ
ĠshÃ¬ĠyÄ«Ġ mÃŃngĠ
ĠtÇĲĠ zhÇİngĠ
ĠĠĠ 2019
ĠxÄ«Ġ wÃłngĠ
yÃ¬ng ĠdeĠ
wÄĽiĠyuÃ¡nĠ huÃ¬
Ġ mÃ©nĠ
zhÃ¨Ġ ge
mÃ¬ngĠ mÃŃngĠwÃ¨iĠ
ĠgÅįngĠ sÄ«ĠdeĠ
Ġ hÃ¹Ġ
ĠliÇİng ĠrÃ©nĠ
yÃ¬ ĠzÃłiĠ
dÃ²ng ĠjÄ«Ġ
dÇİ ĠjÄ«Ġ
ĠdeĠdÃ¬Ġ qÅ«Ġ
zhÇİn ĠshÃ¬Ġ
Ġ biÄģnĠ
Ġ hÃ¡i
zhuÃ³ Ġ
ĠzhÃŃ ĠzhÃ¬Ġ
ĠshÃ¨Ġ qÅ«Ġ
ĠjÃ¬Ġ xÃ¹
guÄ«Ġ mÃ³
shÇĴu ĠwÃ¨iĠ
xÃºnĠ huÃŃĠ
ĠsÄ«Ġ lÃ¬ng
shÃ¹Ġ liÃłngĠ
xiÃłĠ wÇĶĠ
1996 ĠniÃ¡nĠ
yÃ²ngĠ lÃ¡iĠ
lÃ¹ĠdÃ¬Ġ miÃłnĠjÄ«ĠwÃ¨iĠ
Ġ chuÃ¡nĠ
shuÇĲĠyÃ¹Ġ miÃłnĠjÄ«ĠwÃ¨iĠ
ĠlÃ¬Ġ jÃŃĠ
qÇĲĠ yÃ²ngĠ
lÃ¨i ĠxÃŃngĠ
rÃ¨nĠ wÃ¹Ġ
ĠguÃ³Ġ lÃ¬Ġ
ĠshÃŃĠ zÃ¬Ġ
ĠyÄ«Ġ cÃ¬Ġ
duÅįĠ cÃ¬Ġ
pÃŃngĠ jiÃłĠ
bÃ¹ ĠshÃ¬Ġ
Ġ 2009ĠniÃ¡nĠ
ng ĠĠĠ
ĠfÃ¹Ġ jÃ¬nĠ
fÃº ĠhÃ©Ġ
jÇĶ ĠxÃŃngĠdeĠ
ĠdeĠ shÇĴuĠ
ĠĠĠ 2018
wÃłiĠ jiÄģoĠ
tÇĲĠ xÃ¬Ġ
fÇİĠ lÇľ
ĠzhÃ¨Ġ jiÄģngĠ
1997 ĠniÃ¡nĠ
c Ġ
ĠdÃłĠ shÇĲĠ
Ġ lÃŃngĠ
liÇİng ĠgÃ¨
zuÃ²Ġ jiÄģĠ
ĠshÃ¨ ĠbÃ¨iĠ
Ġ zhÃ¨nĠ
mÄĽi ĠniÃ¡nĠ
zhÃ¹ ĠyÃ¬Ġ
diÃłn ĠlÃ¬Ġ
Ġ ampĠ
dÃ© ĠdÃłoĠ
ĠlÃ¬Ġ fÇİĠ
kuÃŃ Ġ
ĠsÄ«Ġ lÃ¬ngĠ
ĠcÃ³ng ĠÃ©rĠ
kÃło Ġ
jiÃłoĠ tÃ¡ngĠ
ĠdÄģngĠzhÅįngĠ lÃ¹ĠdÃ¬ĠmiÃłnĠjÄ«ĠwÃ¨iĠ
zhÃ¬ ĠhÃ©Ġ
zhÃŃ ĠdeĠ
ĠÃ©rĠ shuÇĲĠyÃ¹ĠmiÃłnĠjÄ«ĠwÃ¨iĠ
qÇĶĠ xiÄģoĠ
jiÃ© ĠzhÃ¬Ġ
shÄĵngĠ huÃ³
fÃºĠ wÃ¹
lÃºnĠ dÅ«nĠ
xuÃ©Ġ zhÄĽĠ
ĠĠĠ xÄ«Ġ
hÇİiĠ yÃ¹Ġ
ĠĠĠ 2022
shuÇĲ ĠpÃŃngĠ
diÄģn Ġ
nÃ¨iĠ rÃ³ng
yÄ«ngĠ gÃ©ĠlÃ¡nĠ
ĠzhÄ« ĠshÃŃĠ
zhÃ¹Ġ zuÃ²Ġ
Ġ 9ĠyuÃ¨Ġ
ĠdÃłĠ chÃ©nĠ
ĠchÃ©ngĠlÃ¬Ġ yÃºĠ
Ġ liÃ¨Ġ
ĠĠĠ gÃłiĠ
tuÃ² Ġ
lÇļ ĠkÃ¨Ġ
zhÃ¬ ĠzÃłiĠ
jiÄĵ ĠjÃ¬nĠ
chÃ¡ngĠ qÄ«Ġ
ĠxÄ«nĠ wÃ©nĠ
Ġ biÃłn
ĠwÃ©iĠ ÄĽrĠ
gÄģoĠ sÃ¹
lÃ¬ngĠ wÃłiĠ
ĠĠĠxÃŃngĠzhÃ¨ngĠ qÅ«ĠhuÃłĠ
rÃ¨nĠ mÃ¬ng
Ġ xiÃłoĠ
ĠjiÄģĠ shÃłngĠ
bÇĲĠsÃłi ĠzhÅįngĠ
yuÃłnĠ zhÇİngĠ
jÇĲ ĠyÇĶĠ
diÇİn ĠdeĠ
xÄ«Ġ yÃ¡ngĠ
ĠyÇĲĠ hÃ²uĠ
ĠjÅ«n ĠwÃ¨iĠ
mÃŃn ĠdeĠ
shuÃ² ĠshÃ¬Ġ
ĠdÃ© ĠdeĠ
wÄĵiĠ liÃ¡nĠ
wÄĽiĠ shÅ«ĠjÃ¬Ġ
Ġ guÇİngĠ
ĠyÃ¬Ġ rÃ©nĠ
tÃłiĠ yÃ¡ngĠ
jiÄģ ĠhÃ©Ġ
1992 ĠniÃ¡nĠ
dÇİo ĠyÇĶĠ
pÄ«Ġ zhÇĶnĠ
dÃłi ĠyÇĴuĠ
hÄĵng ĠlÃ¬Ġ
ĠshÃ¬Ġ yÄ«ĠwÃ¨iĠ
guÅį Ġ
ĠxuÃ©Ġ xiÃło
cÄģnĠ yÃ¹
ĠwÃ¨iĠfÃº ĠqÃŃĠyÃºĠ
Ġ 7ĠyuÃ¨Ġ
cÃ¬ĠshÃ¬ĠjiÃ¨ĠdÃłĠ zhÃłnĠ
ĠshÃ¬Ġ qÅ«Ġ
fÄģ ĠchÅ«Ġ
quÃłn Ġ
xÃ¬ng ĠzhÃ¬Ġ
yÇİnĠchÃłng ĠhuÃ¬Ġ
ĠyuÃ¡nĠ yÄ«nĠ
tÇİoĠ lÃ¹nĠ
Ġ formulaĠ
tuÃ¬ ĠyÃ¬Ġ
fÄĵngĠ bÃłoĠ
K Ġ
bÇĲĠ yÃłĠ
jÄ« ĠzhÃ¬Ġ
xÃ¬n ĠhÃłoĠ
yÃł ĠdeĠ
shÃ²uĠ shÄģngĠ
nÃ©ngĠ gÃ²u
ĠĠĠ yÃ¬Ġ
ĠjiÃłn ĠchÃ©ngĠ
liÃ¡nĠ xÃ¬Ġ
Ġ mÃ©ngĠ
wÃ¨iĠ zhÃ¬Ġ
bÃ¬Ġ xÅ«
ĠĠĠ in
rÃº ĠhÃ©Ġ
ĠĠĠ 2017
bÇİoĠ chÃŃĠ
ĠrÃºĠ guÇĴ
ĠtÇĲĠzhÇİngĠ kÄĽĠdÃ¡Ġ
Ġ huÃŃĠ
zhuÄģn ĠjiÄģĠ
ĠÄĽrĠ tÃ¨Ġ
fÅ« ĠrÃ©nĠ
jiÇİng ĠxiÃłngĠ
chÄģ ĠyÃ¬Ġ
shÃ²u ĠyÇĶĠ
wÅį Ġ
ĠjÄ«Ġ gÃ²u
ĠzÃłiĠ yÃºĠ
ĠdeĠyÄ«Ġ zuÃ²Ġ
ĠjÄ«ngĠ guÃ²Ġ
ĠtÅįngĠ chÃ¡ngĠ
Ġ tuÅįĠ
Ġ 2010ĠniÃ¡nĠ
wÇİng ĠlÃ¹Ġ
jÄ«ngĠ yÃŃngĠ
Ġ 12ĠyuÃ¨Ġ
Ġ mÃŃnĠguÃ³Ġ
gÃ²ngĠchÇİnĠ dÇİng
Ġ 21Ġ
diÃłnĠ tÃ¡iĠ
dÅįng ĠxÄ«Ġ
ĠkÃ¨ ĠlÇĲĠ
ĠshÄĵngĠ chÇİnĠ
tÄģn Ġ
ĠbÃ¹Ġ lÇĲĠ
suÃŃ ĠhÃ²uĠ
ĠyÇĲĠ xiÃł
cÅ«nĠ zhuÄģngĠ
Ġ cÃŃĠ
Ġ 11ĠyuÃ¨Ġ
lÃ¡i ĠdÃłoĠ
15 Ġ
ĠzhÄ« ĠzhÅįngĠ
xÃ¬Ġ liÃ¨
bÃ¬Ġ yÃ¨ĠyÃºĠ
xÃ¹nĠ liÃłn
cuÃ² ĠshÄ«Ġ
fÇİ ĠdeĠ
ĠyÃ¬Ġ shÃ¹
zÇĴngĠ dÅ«Ġ
zhÃ¹Ġ mÃŃngĠdeĠ
50 Ġ
ĠshÃ¬Ġ yÇĴuĠ
ĠjiÃłnĠ duÃ¬Ġ
kuÃłiĠ sÃ¹Ġ
zhÃ¹ ĠyÃºĠ
lÃłng Ġ
Ġ chÃ¡ng
1994 ĠniÃ¡nĠ
ĠshÃŃĠ rÃ¨nĠ
ĠyÄ«Ġ shÄĵngĠ
gÅ« ĠjÃ¬Ġ
hÃ¡iĠ ziĠ
ĠÄĽr ĠhÃ©Ġ
tÃłiĠpÃŃngĠ yÃ¡ngĠ
o ĠĠĠ
yÃ¡nĠ gÃ©Ġ
ĠĠĠ 2016
tÃ³ng ĠyÃ¬Ġ
le ĠdÃłĠ
shÄĵng ĠwÃ¨iĠ
shÃ© Ġ
dÇİo ĠshÃ¬Ġ
chÃ©ngĠ gÅįngĠ
Ġ zhÅ«
Ġ tw
sÃ¬ ĠgÃ¨Ġ
on ĠĠĠ
ĠjiÃ©Ġ mÃ¹Ġ
fÄģĠ diÃłnĠ
ĠshÃłngĠ hÇİi
Ġ rÃłngĠ
zhÃłn ĠzhÅįngĠ
ĠdeĠ qiÃ¡nĠ
ĠrÃ©nĠ lÃ¨iĠ
jiÃ©ĠshÃ¹ ĠhÃ²uĠ
ĠdÃ© ĠyÇĲĠ
pÇĶĠ tÅįngĠ
ĠdeĠshÃŃĠ qÅ«ĠwÃ¨iĠ
Ġ guÄ«Ġ
Ġ huÇĴĠ
yÇĶ ĠzhÅįngĠ
ĠzhÃ¨ngĠ cÃ¨Ġ
ĠmÃŃngĠ chÄĵngĠ
chÃ¨Ġ xiÄģoĠ
an ĠĠĠ
en Ġ
shÇİng Ġ
tÃ³uĠ piÃłoĠ
ĠĠĠ zhÃ¬Ġ
dÇĲĠ dÃ¡Ġ
Ġ yÃ¬nĠdÃ¹Ġ
al Ġ
ĠjÇĲnĠ guÇİn
zhÃ¡i Ġ
jÃºĠ zhÇİngĠ
ĠdeĠshÃŃĠ jiÄģnĠ
gÃ¨ng ĠjiÄģĠ
zÇĶĠ chÃ©ngĠdeĠ
fÇİnĠ huÃŃĠ
miÇİo Ġ
1995 ĠniÃ¡nĠ
zhÃ¨Ġ xiÄĵ
ĠwÃ¨iĠ shÄĵngĠ
yuÃ¨Ġ tÃ¡iĠ
ĠpÃŃngĠ tÃ¡iĠ
Ġ shÃ¨ng
guÇİng ĠxÄ«Ġ
fÄĽi Ġ
hÄģ ĠÄĽrĠ
hans Ġ
kuÃ² ĠdÃłĠ
Ġ fÄģngĠ
Ġ hansĠ
yÃ¬ ĠzhÅįngĠ
dÄĵng ĠlÃ¹Ġ
rÃ³ng ĠyÃ¹Ġ
Ġtw Ġ
yuÃ¨ ĠshÃŃĠ
zhÃ²ng ĠdÃłĠ
lÃ¹ ĠyÃ¬Ġ
fÄģ ĠdeĠ
Ġ qÄ«
quÃ¨Ġ dÃ¬ngĠ
Ġ qiÃ¡n
Ġ gÇİi
zhÇĲ ĠzÃłiĠ
ĠshÃ¬Ġ yÇİnĠ
yÃ¨ ĠhÃ²uĠ
25 Ġ
22 Ġ
ĠbÃ¹Ġ kÄĽĠ
n ĠĠĠ
ĠbÃ¬ngĠ mÃ©iĠyÇĴuĠ
Ġ yÃ¡ng
Ġ sÃłĠ
ĠcÇĲ ĠshÃŃĠ
ĠĠĠdeĠ shÃŃĠ
qÃ¬Ġ chÄĵĠ
Ġ s
jÃ¬n ĠxÃŃng
Ġ ÄģĠÄĽrĠ
Ġ wÇİngĠ
ĠĠĠ 19
ĠxuÃ©Ġ xÃŃĠ
Ġ chÄĵng
wÇİn ĠshÃłngĠ
jiÃłoĠ qÅ«Ġ
xiÄģoĠ shÃ²uĠ
ĠmÃ¹Ġ qiÃ¡n
mÃŃngĠ chÄĵngĠ
gÇİiĠ biÄģn
yÃłĠlÃ¬Ġ shÄģn
Ġ 189
wÃ¹Ġ zhÇĴng
guÄģnĠ zhÃ²ngĠ
ĠguÃ³Ġ wÃ¹Ġ
ĠzhÄ« ĠyuÃ¡nĠ
yuÃłn ĠdeĠ
Ġ zhÅįngĠdeĠ
bÄģ ĠxÄ«Ġ
ĠgÅįngĠ yÃ¨
rÃ¹Ġ kÇĴuĠ
bÄģĠ lÃŃĠ
ĠhuÃ²Ġ zhÄĽĠ
ĠĠĠ 2023
xiÄģngĠ tÃ³ngĠ
bÇİn ĠdeĠ
ĠĠĠ 2014
xuÃ© ĠhÃ©Ġ
sÇĶn ĠshÄ«Ġ
Ġ lÇľĠ
biÇİo ĠxiÃłn
ĠshÃŃĠ xiÃłnĠ
xÄ«Ġ lÃł
fÄģĠxiÃłnĠ leĠ
kÃłn ĠdÃłoĠ
qÄ«Ġ zÇĲĠ
nÇİi Ġ
guÄģnĠ zhÃ¹Ġ
ĠcÃ©ng ĠrÃ¨nĠ
qiÇİng Ġ
pÃ²ĠhuÃłi Ġ
ĠbÃ¬ng ĠyÇĲĠ
Ġ Ñ
pÄģn Ġ
xiÅįngĠ yÃ¡
Ġ 6ĠyuÃ¨Ġ
ĠĠĠ suÇĴĠshÇĶĠdeĠshÄĽngĠjÃŃĠxuÇİnĠqÅ«ĠwÃ¨iĠ
ĠĠĠdeĠ yÃ³uĠzhÃ¨ngĠbiÄģnĠmÇİĠwÃ¨iĠ
ĠĠĠyÇĶĠ jiÄĵĠrÇİngĠdeĠshÃ¬ĠzhÃ¨nĠ
ĠĠĠyÃºĠ shÃŃĠdeĠrÃ©nĠkÇĴuĠshÃ¹ĠliÃłngĠwÃ¨iĠrÃ©nĠ
ĠĠĠdeĠshÃŃĠ qÅ«ĠwÃ¨iĠ
zhuÄģng ĠzhÃ¬Ġ
zhÃŃ ĠwÃ¨iĠ
Ġ 2011
jÃ¬ ĠhÃ©Ġ
kÄģiĠ fÃłng
ĠzuÃ²Ġ yÃ²ngĠ
ĠquÃ¡nĠ zhÇİngĠ
tÃº ĠzhÅįngĠ
sÅ«Ġ liÃ¡n
Ġ xiÃł
xÅ« ĠqiÃºĠ
lÃŃn ĠdeĠ
ĠzhÄ«Ġ mÃŃngĠ
ĠsÄ«Ġ lÄģĠ
shÃŃ ĠwÃ¨iĠ
hÃ©ngĠ xÄ«ngĠ
ĠĠĠ jÄ«Ġ
mÇĶĠ qÄ«nĠ
tuÄ«Ġ dÃ²ngĠ
wÃ©i ĠdeĠ
ĠshÃ¬Ġ zhÇİngĠ
ĠquÃ¡n ĠbÃ¹Ġ
rÃ¹Ġ qÄ«nĠ
tÃ¡iĠ bÄĽiĠ
guÇİnĠ lÇĲ
Ġ 2019
Ġ chuÃłngĠ
Çİ Ġ
fÃ¹ ĠdeĠ
cÃ¡n Ġ
ĠjiÄģĠ tÃŃngĠ
yÃŃĠ dÃ²ngĠ
rÃºĠ cÇĲĠ
Ġ hk
yÇĶ ĠhÃ©Ġ
ĠyÄ«Ġ dÃłiĠ
jÃ¬n ĠshÃ¬Ġ
ĠchÅ« ĠxiÃłnĠzÃłiĠ
fÃ¹Ġ qÄ«nĠ
zhÃ¨Ġ jiÄģngĠ
G Ġ
ĠniÃ¡nĠ qÄ«ng
xiÅįngĠyÃ¡ ĠlÃ¬Ġ
ĠĠĠ 2015
mÃ¹ ĠsÄ«Ġ
1991 ĠniÃ¡nĠ
ĠrÃ©nĠ shÃ¹Ġ
ĠdÃłn ĠtÄģĠ
ĠxÄ«ĠbÄģnĠ yÃ¡
mÃŃnĠ zÃº
guÇİngĠ bÅį
zuÃ¬ ĠchÅ«Ġ
tÃ¡i ĠdeĠ
ĠdÃ¬Ġ qiÃºĠ
16 Ġ
ĠshÃ¬Ġ zhÇĲĠ
tÃŃ ĠshÄĵngĠ
fÄĵi ĠjiÃłnĠzhÃ¬Ġ
Ġ xiÇİng
Ġ gÄģnĠ
ĠsÄ«Ġ tÇİnĠ
Ġ 5ĠyuÃ¨Ġ
Ġ chÄĵĠzhÃłnĠ
shÃ¹Ġ xuÃ©Ġ
xÃ¹nĠ sÃ¹Ġ
Ġhk Ġ
or Ġ
and ĠĠĠ
ĠwÃ¨iĠ hÃ©Ġ
ĠbÃ¬ng ĠlÃ¬Ġ
ĠchÃ©ngĠwÃ©iĠ leĠ
ĠĠĠ 2013
niÇĶĠ yuÄĵĠ
fÄģ ĠxÃŃng
zÇĴng ĠbÃ¹Ġ
ĠjÃ¬nĠ rÃ¹
tÃ¨ ĠlÇĲĠ
kÃłng ĠrÃ¬Ġ
ĠhÃ©Ġ xÄ«nĠ
ĠgÃ¨Ġ zhÇĴngĠ
Ġ jÄ«ng
le ĠĠĠ
zhÄĽn Ġ
mÃ¡ng Ġ
Ġ jÇĲn
mÃŃng ĠyÃ¬Ġ
gÇİo Ġ
ĠjÃŃĠ qÃŃ
fÄģĠ shÄĵng
shÅįu ĠlÃ¹Ġ
ĠshÃ¬Ġ rÃ©nĠ
jiÃło ĠdeĠ
lÃ¡n ĠkÃ¨Ġ
cÃ¡i ĠzhÃ¨ngĠ
chÃłngĠ piÃłnĠ
ĠjÃ¬Ġ zÇİiĠ
ĠzuÃ²Ġ pÇĲn
ĠĠĠniÃ¡n Ġ
sÃł ĠkÃ¨Ġ
ĠzhÅįngĠ wÃ©nĠ
juÃ©Ġ sÃłi
jÃ¬n ĠgÅįngĠ
23 Ġ
ĠshÃ¬Ġ jÃŃĠ
qÇĲ ĠyÃ¬Ġ
cÄģn ĠyÃ¬Ġ
cÄģnĠ kÇİoĠ
zhuÃłngĠ kuÃłngĠ
ĠxiÃłn ĠyÃºĠ
Ġ zÃłoĠchÃ©ngĠ
lÇľ ĠwÃ¨iĠ
Ġ miÃłnĠ
ĠĠĠ zhÅįngĠguÃ³Ġ
le ĠtÄģĠ
zÄĵngĠ zhÇİngĠ
gÄģoĠ dÃ¹Ġ
chÇİnĠ pÇĲn
fÄĵiĠjiÃłnĠzhÃ¬Ġ dÃ¬ĠqÅ«Ġ
N Ġ
13 Ġ
zhÃłnĠ dÃ²uĠ
suÄ« ĠrÃ¡nĠ
kÇİn Ġ
dÅįu ĠhuÃ¬Ġ
ĠhÃ©Ġ bÃ¬ngĠ
Ġ zhuÇİnĠ
ĠshÄĵngĠ huÃ³
wÃ¡ng ĠdeĠ
zhÃ²ngĠ diÇİnĠ
Ġ Ã©ĠluÃ³ĠsÄ«Ġ
diÃłoĠ chÃ¡
chÄģi Ġ
ĠdÃłĠ lÃ³uĠ
p Ġ
hÇİi ĠdÃłoĠ
chÃłngĠ piÃłn
Ġ huÃ¡ng
ĠrÃ©nĠ menĠ
wÄĵiĠ xiÃ©Ġ
Ãło ĠdÃ¬ĠlÃ¬Ġ
ĠhÃ©Ġ zhÅįngĠ
shÃłngĠ shÅ«Ġ
ĠwÃ©iĠ qÃŃĠ
lÇĲngĠdÇİo ĠrÃ©nĠ
jÄ«ngĠ shÃ©nĠ
ĠxiÄģngĠ guÄģnĠ
jiÄģ ĠzhÅįngĠ
liÇİng ĠrÃ©nĠ
ĠyÄ«n ĠÃ©rĠ
yuÃ¨ ĠzÃłiĠ
ĠbÃ¹Ġ duÃłnĠ
cÄģnĠjiÄģĠ leĠ
huÃł ĠwÃ¨iĠ
jiÄģng ĠxÄ«Ġ
yÃŃngĠ yÃ¹nĠ
ĠdeĠchÃ©ngĠ yuÃ¡nĠ
ĠjÃ¬Ġ suÃłn
jiÃ© ĠkÃ¨Ġ
tÃºĠshÅ«Ġ guÇİnĠ
ĠhÃ©Ġ chÃ©ngĠ
zhÇĶĠ chÃŃĠ
ĠzhÅįngĠguÃ³Ġ gÃ²ngĠchÇİnĠdÇİngĠ
jÃ¹ ĠdeĠ
nÃł ĠlÇĲĠ
Ġ hÃ²u
Ġ 4ĠyuÃ¨Ġ
mÃŃnĠ zhÃ²ngĠ
1988 ĠniÃ¡nĠ
jÃ¬nĠ rÃ¹
zÃ¬Ġ dÃ²ngĠ
mÇĴuĠ xiÄĵĠ
shÄĵn ĠwÃ¨iĠ
jÅ« ĠzhÃ¹Ġ
xiÃłĠjÃ¬Ġ ÃłoĠlÃŃnĠpÇĲĠkÃ¨ĠyÃ¹nĠdÃ²ngĠhuÃ¬Ġ
yÄ«n ĠshÃ¬Ġ
dÄģo Ġ
zhÃłnĠ dÃ²u
shÃŃĠ jiÄģnĠ
chÇİnĠ shÄĵngĠdeĠ
Ġ huÃ¡
ĠzÃłiĠ jiÄģĠ
ĠĠĠ zhĠ
shuÅį ĠmÃŃngĠ
yÇĲnĠ fÄģĠ
Ġ yÇĴuĠshÃŃĠ
ĠzhÃ¨ngĠ zhuÃłngĠ
Ġ dÇİoĠ
jiÄģngĠ sÅ«Ġ
es Ġ
1993 ĠniÃ¡nĠ
ĠhuÃ²ĠdÃ©Ġ leĠ
Ġ 20
ĠzhÄ«Ġ xiÃłĠ
Ġ xiÇİo
ĠshÃ¬Ġ wÄĵiĠ
xiÇİoĠ shuÅį
Ġ qiÃ¡oĠ
Ġ xuÄģnĠbÃ¹Ġ
ĠĠĠjiÄģĠ zÃºĠ
Ġ xÇĶĠduÅįĠ
ĠshÃ¬Ġ zhÃ¨n
ĠgÅįngĠ rÃ©nĠ
Ġ Ã
Ġ fÃ¡ngĠ
dÃ¬ng ĠleĠ
yÅįu ĠshÃ¬Ġ
lÃ¡n ĠqiÃºĠ
ĠdÃłĠ duÅįĠ
zhÅįu ĠdeĠ
jÃ¬ ĠshÃŃĠ
ĠxiÃłngĠ mÃ¹Ġ
Ġ wÄĽiĠ
Ġ zuÇĴĠ
xiÇİn ĠdeĠ
zÄ«Ġ xÃ¹nĠ
ÃłoĠyÃ¹n ĠhuÃ¬Ġ
cuÃ¬ Ġ
sÃ¹ ĠdeĠ
ĠdÃłĠ xÃŃngĠ
Ġ 2018
ĠyuÃ¨Ġ nÃ¡nĠ
chuÄģng Ġ
xiÃłngĠ mÃ¹
Ġ tiÄģn
ĠjÃŃĠ lÃ¬Ġ
ĠzhÅįngĠ huÃ¡Ġ
xiÄģngĠ dÄģngĠ
qÇĶ ĠdÃ©
yuÃ¡n ĠzÃłiĠ
ĠbÃ¹Ġ mÃ©n
ĠdÃłnĠ yÃ³uĠyÃºĠ
ĠlÃ¡iĠ zÃ¬Ġ
fÇİngĠ wÃ¨nĠ
ĠĠĠ I
zhÃŃ ĠdÃłoĠ
suÄ« ĠrÃ¡n
ĠlÇĲĠ lÃ¹nĠ
jiÃłoĠ wÃ©iĠ
ĠshÃ¬ĠwÃ¨iĠ leĠ
jiÃ©Ġ hÅ«nĠ
pÇĲnĠ pÃ¡iĠ
cÄģnĠ jiÄģ
xÃŃ ĠwÃ¨iĠ
ĠdÃ¬Ġ wÇĶĠ
ĠyuÃ¨Ġ tÃ¡iĠ
zhÅįng ĠwÃ¨iĠ
ĠC Ġ
Ġ dÃºĠ
zhÄĵn ĠshÃŃĠ
zhÃ²u Ġ
mÄĽiĠ shÃ¹Ġ
zhÅįngĠ huÃ¡ĠrÃ©nĠmÃŃnĠgÃ²ngĠhÃ©ĠguÃ³Ġ
yÇĴu ĠbÃ¹Ġ
yÃ¬n ĠdÃ¬Ġ
xuÃ©Ġ shÃ¹Ġ
b Ġ
xÄ«ngĠ qÄ«Ġ
mÃ¬ngĠ lÃ¬ngĠ
ĠdeĠgÅįngĠ zuÃ²Ġ
2020ĠniÃ¡nĠ mÄĽiĠguÃ³ĠrÃ©nĠkÇĴuĠpÇĶĠchÃ¡ĠdeĠshÃ¹ĠjÃ¹Ġ
jiÃłn ĠshÃ¨Ġ
jÇĶ ĠxÃŃng
wÇĶĠ zhuÄģngĠ
pÇĲ Ġ
fÃ¡ng ĠyÃ¹Ġ
ĠrÃ¨nĠ wÃ¹Ġ
bÃłoĠ dÇİoĠ
tiÃ¡oĠ zhÄĽngĠ
Ġ ÅįuĠ
tÄ« Ġ
yÃŃĠ chÇİnĠ
ÃłoĠ mÃ©nĠ
ĠĠĠ 2025
ĠshÃŃĠ yÄ«Ġ
Ġ lÇİoĠ
tÃŃĠ gÄģoĠ
yÇĶnĠ xÇĶĠ
Ġ lÇĲ
ĠjiÄģĠ rÃ¹
ĠzhÄ«Ġ hÃ²u
hÃ¡nĠ shÃ¹Ġ
1990 ĠniÃ¡nĠ
fÄĵiĠ lÇľĠ
wÇİ ĠÄĽrĠ
yÃŃĠ mÃŃnĠ
yÇĲĠ lÃ¡iĠ
le ĠtÄģĠdeĠ
huÃ¬ ĠyuÃ¡nĠ
ĠshÃŃĠ qÄ«
jÃ¬Ġ lÃ¹Ġ
ĠjÄ«Ġ guÄģnĠ
dÅ« ĠshÃ¬Ġ
jÄ«Ġ chÇİngĠ
leĠ yÃŃĠgÃ¨Ġ
huÃł ĠjiÄģĠ
shÅ« ĠdeĠ
jÃ¹Ġ lÃŃĠ
shÃ¹Ġ zÃ¬Ġ
ĠfÃ¹Ġ zÃ©
yÃ²ngĠ hÃ¹Ġ
ĠshÃ¬ĠyÄ«Ġ zhÇĴng
jÄ«n ĠdeĠ
ĠrÃ©nĠ lÃ¨i
Ġ zhÃ¨ng
ĠzhÅįu ĠniÃ¡nĠ
hÅįngĠ zhÃł
ĠzÃ¬ĠjÇĲ ĠdeĠ
jiÄĵ ĠjÃŃĠ
duÃłn ĠdeĠ
dÅ« ĠjiÃłoĠ
ĠĠĠ 2024
lÃ¬ ĠshÃ¬Ġ
kÃ¨ ĠlÇĲĠ
Ġ zhuÄģngĠ
sÃº Ġ
yÃ¡n ĠdeĠ
yÃŃng ĠdeĠ
huÄģ ĠyuÃ¡nĠ
shÄģnĠ mÃłi
shÄĵng ĠjÃŃĠ
yuÄĵ ĠyÇĴuĠ
ĠshÃ¬Ġ dÃłĠ
wÃ©nĠ zÃ¬Ġ
chÅ«Ġ bÇİnĠ
dÅįng ĠjÃ¬Ġ
miÃłn ĠduÃ¬Ġ
yÄģoĠ qÇĲngĠ
Ġ 2011ĠniÃ¡nĠ
Ġ hÃ³ng
dÄĽng ĠwÃ¨iĠ
zÄ«Ġ jÄ«nĠ
ĠlÃ¬Ġ shÇĲ
wÇĶĠ tÃ¡iĠ
ĠyÃºĠ 18
ĠshÃ¨ ĠjÃŃĠ
xiÃłoĠ guÇĴĠ
ĠsuÃ¬ ĠdeĠ
Ġ wÃ©n
Ġ xÃº
ĠzhÃ¬Ġ shÃŃĠ
ĠzhÃ¬Ġ lÃ¬Ġ
gÄģoĠ dÄĽngĠ
Ġ 2016
Ġ dÃ¬ngĠ
Ġ chÄĵngĠwÃ©iĠ
ĠsuÇĴ ĠyÇĲ
Ġ liÃ¡ngĠ
yuÃ¡n ĠjÃŃĠ
ĠrÃ©nĠ mÃŃn
ĠhÃ©Ġ lÃ¡nĠ
shÄĵnĠ qÇĲngĠ
Ġ 2005ĠniÃ¡nĠ
dÃ²ngĠ zuÃ²Ġ
er ĠĠĠ
ĠxiÃłn ĠhÃ©Ġ
Ġ 3ĠyuÃ¨Ġ
mÄĽiĠ guÃ³ĠdeĠ
liÇİngĠ zhÇĴngĠ
Ġ n
Ġ 2008ĠniÃ¡nĠ
jiÃłoĠ liÃłnĠ
ĠmÃŃngĠchÃ¡oĠ zhÃ¨ngĠzhÃ¬ĠrÃ©nĠwÃ¹Ġ
Ġ biÄģn
ĠĠĠ zÇİoĠniÃ¡nĠ
Ġ jiÇĶ
bÃ¡ Ġ
ĠrÃ¬Ġ jÅ«nĠ
xiÃłĠ lÃ¬ng
ĠwÃłnĠ mÄĽiĠyuÃ¡nĠ
Ġ zhuÇİn
Ġ hÃ¡nĠguÃ³Ġ
ĠĠĠ xÄ«nĠ
lÇĲngĠ tÇĶĠ
ĠyuÃ¡nĠ mÃŃngĠ
nÇĶ ĠlÃ¬Ġ
zhÃ¨ngĠ mÃŃngĠ
liÃ¨Ġ biÇİoĠ
ĠĠĠ hÃ²uĠ
lÃ¹ ĠjÅ«n
ĠzhÅįngĠ yÃºĠ
zuÃ²Ġ yÃ²ngĠ
jÄ«ngĠ chÃ¡ngĠ
qÅ«Ġ yÃ¹
yÇĴu ĠzÃłiĠ
ĠyÃ¬Ġ yÃ¬Ġ
yÇĲngĠ piÃłn
Ġ zhÄģo
ĠyuÃ¡nĠ gÅįngĠ
ĠjÃ¬n ĠxÃŃng
ĠnÃ¡n ĠzhÃ¬Ġ
ĠĠĠ yÃ³uĠ
ĠguÃ³Ġ huÃ¬Ġ
ĠgÅįngĠ huÃ¬Ġ
guÄģnĠ xÃ¬
Ġ xiÃ©Ġ
ST Ġ
ĠjÃ¬Ġ zhÄĽĠ
huÃŃĠ yÃ¬ngĠ
lÇĲĠ lÃ¹nĠ
yÃ²ngĠ zuÃ²Ġ
nÃ¨iĠ lÃ¹Ġ
2 ĠrÃ©nĠ
Ġ shÄ«
zhÇİo ĠdÃłoĠ
1984 ĠniÃ¡nĠ
wÃ¡ngĠ chÃ¡o
jÄ«ng ĠlÇĲĠ
lÇļ ĠxÃŃngĠ
shÃ©nĠ jÄ«ngĠ
ĠshÃ¬Ġ hÃ²uĠ
Ġ Ch
Ġ shÃłng
Ġ jÃ¹
Ġ xiÅ«Ġ
ĠgÅįngĠ chÇİngĠ
fÃ¹Ġ jÃ¬nĠ
jiÇĶĠ diÃłnĠ
yÃº ĠzÃłiĠ
bÇİoĠ chÃŃ
guÄ«Ġ zÃ©Ġ
Ġ chÃ¬Ġ
tÃłi ĠrÃ©nĠ
ĠhÃ©Ġ gÅįngĠ
qÃ¬Ġ xiÃłngĠ
kÄĽĠyÇĲ ĠzÃłiĠ
suÃ¬ ĠdÃłoĠ
zhÄ«Ġ jiÄģnĠ
tÃŃ ĠdÃłoĠ
ĠchÃ©ngĠ xiÃłnĠ
ĠniÃ¡nĠ1ĠyuÃ¨Ġ 1ĠrÃ¬Ġ
V Ġ
ĠjÄ«Ġ chÄĵĠ
ĠshÃŃĠ Ã¨rĠ
Ġ bÃ³
Äģi ĠjÃŃĠ
1989 ĠniÃ¡nĠ
gÃ© ĠwÃ¨iĠ
shÇĴu ĠjÄ«Ġ
ĠguÃ³Ġ fÃ¡ng
Ġ juÃ©
kÅįng ĠzhÅįngĠ
ĠniÃ¡n ĠshÃ¬ĠjiÃ¨Ġ
shÇĴuĠ dÅ«Ġ
zhÃ¹ ĠlÇĲĠ
14 Ġ
bÃ¨i ĠshÃ¬ĠwÃ¨iĠ
tÅįng ĠdÃłoĠ
kÇĴng ĠbÃ¹Ġ
wÇĴĠ men
qÃŃĠzhÅįngĠ yÄ«ĠzhÇĴngĠ
Ġ luÃ³
zuÃ² ĠwÃ¨iĠ
ĠdeĠ zhÃ¬Ġ
ĠwÇĴĠ menĠ
Ġ bÇĲ
lÃ¬ ĠwÃ¨iĠ
shÅ« ĠjÃŃĠ
ĠÃ©r ĠchÃ©ngĠ
jÄ« ĠhÃ©Ġ
Ġ yÄ«ng
Ġ 188
Ġ tiÃ¡nĠ
dÅįngĠ nÃ¡nĠbÃ¹Ġ
yÇĲ ĠxiÃłĠ
xÄ«nĠjiÄģĠ pÅį
yÇİn ĠyÃ¬Ġ
ĠxÄ«Ġ wÃłng
Ġ m
dÃłĠ lÃ¹ĠdeĠ
qÇĲĠ yÃ¨
Ġ fÇİn
ĠzuÃ²Ġ wÃ©i
gÃ¹Ġ wÃ¨nĠ
dÃłi ĠlÇĲĠ
ĠdeĠ jiÄģĠ
jÄ«nĠ shÇĶĠ
jÃ¬nĠ yÃŃĠbÃ¹Ġ
fÄĵn ĠzhÅįngĠ
10 ĠniÃ¡nĠ
Ġ xuÇİnĠ
Ġ hÄĽnĠ
ĠĠĠ 3
lÃ¡o ĠdÃ²ngĠ
zhÇĶĠ chÃŃ
jiÃłoĠ xuÃ©Ġ
biÇİoĠ miÃłnĠ
Ġ lÃ©iĠ
Ġ yÄ«ngĠyÇĶĠ
Ġ 30
nÄ« Ġ
cÃ¡iĠ liÃłoĠ
ĠhÃ©Ġ xÄ«Ġ
ĠbÃ¹Ġ bÃ¹Ġ
ĠhÃ©Ġ shÃŃĠ
ĠyÇĴuĠ jÄ«Ġ
chÃ¡oĠ xiÄģn
Ġ2001ĠniÃ¡nĠ rÃ©nĠkÇĴuĠ
dÃło ĠlÃ¹Ġ
huÃ¡ ĠrÃ©nĠ
3 ĠrÃ©nĠ
Ġ guÄģn
ĠzÃłiĠ wÃ¨iĠ
ĠbÄĽiĠ qÇĲĠ
bÇİoĠ liÃºĠ
jÃ¬ng ĠdeĠ
sÇĲ ĠhÃ²uĠ
bÅįĠ lÃ¡n
tÅįngĠ chÄĵĠ
sÄ« ĠlÃ¬Ġ
ĠzhÅįngĠguÃ³Ġ dÃłĠlÃ¹Ġ
bÃ¡iĠ sÃ¨Ġ
yÃłĠlÃ¬ĠshÄģn ĠdÃłĠ
huÃ¬ ĠshÃ¬Ġ
ĠyÇĲĠ bÃ¨iĠ
Ġ tÇĶĠ
fÇİĠ ÃłnĠ
jÅ«Ġ mÃŃn
Ġ à
zhÇĶ ĠlÃ¬Ġ
ĠpÃŃngĠ miÃłnĠ
nÃŃ ĠkÃ¨Ġ
ĠtÄģ ĠwÃ¨iĠ
yÇĲnĠ qÇĲĠ
ĠwÃłn ĠyuÃ¡nĠ
Ġ 2021
zhÇĶ ĠdeĠ
ĠzhÄ«Ġ jiÄģn
yÇĲnĠ qÇĲ
ĠsÄ«Ġ tÃ¨
nÇļĠ zÇĲ
zhÃłoĠ kÄģiĠ
ĠxiÃłnĠdeĠ yÃŃĠgÃ¨Ġ
ne Ġ
ĠdÃłoĠ dÃ¡Ġ
zhÃłi Ġ
ĠdÅįngĠ nÃ¡nĠ
yÃ¹n ĠzuÃ²Ġ
ĠĠĠ 2012
jiÄģo ĠhuÃ¬Ġ
yÃŃĠ zhÇĲĠ
wÃ¨i ĠĠĠ
shÇĴu ĠgÃ¨Ġ
tuÃ¬ ĠchÅ«Ġ
dÃ¬Ġ Ã¨rĠ
ĠÃ©rĠ yÃ¡nĠ
ĠxiÃłnĠdeĠ yÃŃĠgÃ¨
Ġ qÇĲ
jiÃ¨ ĠdeĠ
zhÃ¡ Ġ
ĠbÃ¨iĠ rÃ¨nĠwÃ©iĠshÃ¬Ġ
cÃ©ngĠ jÄ«ng
lÃ¬ ĠzÃłiĠ
ĠjÄ«Ġ hÅ«
ĠkÃ¨ ĠchÃ©ngĠ
wÃ©nĠ zhÄģngĠ
jÇĲ ĠgÃ¨Ġ
ĠshÃ¬Ġ jiÄģĠ
ĠyÇĴuĠ yÃ¬Ġ
tÃ¨Ġ shÅ«Ġ
ĠnÇļĠ xÃ¬ngĠ
ĠxÄ«Ġ sÄ«Ġ
xiÄģngĠ guÄģn
shÄ«Ġ fÃłn
ĠfÃ¹Ġ qÄ«nĠ
wÃºĠ fÇİ
cÄģnĠ mÃ³u
Ġ sĠĠĠ
jÄ«n ĠhuÃ¬Ġ
lÄĽng Ġ
1985 ĠniÃ¡nĠ
jiÃłoĠ shÄ«Ġ
ĠĠĠ xiÃłĠ
fÄĵi ĠzhÅįuĠ
lÇľĠ shÄ«Ġ
ĠshÃ¬Ġ yÇĶĠ
wÄĵi ĠjÄ«Ġ
xÄ«ĠbÄģnĠ yÃ¡
dÃł ĠwÃ¨iĠ
ĠyÄ«Ġ jÃŃĠ
chÃ¡ng ĠdeĠ
ĠbÃ¹Ġ dÃ©
ĠtÄģĠmen ĠzÃłiĠ
ĠyÃ¬Ġ fÄģngĠmiÃłnĠ
fÇİĠ yuÃłn
ĠÃ©rĠshuÇĲĠyÃ¹ĠmiÃłnĠjÄ«ĠwÃ¨iĠ 0
ĠguÃ³Ġ jiÄģĠdeĠ
Ġ fÃ©ngĠ
zhÄĽ ĠzÃłiĠ
ĠhÃ©Ġ qÃŃĠtÄģĠ
xÃ¬ĠtÇĴng ĠdeĠ
ĠĠĠ U
duÅį ĠniÃ¡nĠ
yÃł ĠzhÅįu
chÄĵ ĠdeĠ
jÄ«nĠ pÃ¡iĠ
ĠzhÄ« ĠwÃ¨iĠ
ĠbÃ¬ngĠ jiÄģngĠ
ĠzhÇĶĠ xÃŃĠ
kÄģng ĠxÄ«Ġ
yÃłoĠ wÃ¹Ġ
1 ĠrÃ©nĠ
wÃ©n ĠxiÃłnĠ
zÃ© ĠwÃ¨iĠ
ĠchÃ©ngĠ xÃ¹Ġ
biÃłn ĠdÃ©Ġ
biÇİoĠ dÃ¡
ĠmÄĽi ĠniÃ¡nĠ
dÃł ĠdÃ¬Ġ
ĠchÃ©ngĠ rÃ¨nĠ
zhÃŃĠ mÃŃn
guÃ²Ġ qÃ¹Ġ
pÃºĠtÃ¡oĠ yÃ¡
huÄģnĠ yÃŃngĠ
Ġ jÃ¹ĠyÇĴuĠ
ĠzhÃ¬Ġ liÃ¡oĠ
ĠsÄ«Ġ kÃ¨Ġ
ĠjÃ¬nĠxÃŃngĠ leĠ
Ġ gÇİngĠ
ĠĠĠ chÃ©ngĠ
mÃ¹Ġ biÄģo
Ġ00 Ġ
Ġ hÇİi
fÃº ĠyÃ¬Ġ
zhuÄģng ĠshÃ¬Ġ
dÅįngĠ bÄĽiĠbÃ¹Ġ
gÃ²uĠ zÃłoĠ
huÃ²ĠdÃ©Ġ leĠ
bÃ³ĠwÃ¹Ġ guÇİn
ÃłoĠdÃłĠlÃ¬Ġ yÃłĠ
Ġ bÄģnĠ
Ġ qÇĶĠ
bÄĽn ĠdÃ¬Ġ
jiÄģng ĠhuÃ¬Ġ
ĠqiÃº ĠyuÃ¡nĠ
Ġ fÃ¨i
Ġ 100
Ġ guÄģnĠyÃºĠ
ĠÃ©rĠ gÄģiĠdÃ¬Ġ
xiÄģn ĠshÄĵngĠ
ĠbÃ¹Ġ lÄģĠ
ĠyÃºĠ lÃ¨Ġ
bÅįĠ lÃ¡nĠ
1949 ĠniÃ¡nĠ
jiÄģĠ rÃ¹
fÃłngĠ qÃ¬Ġ
jiÃłn ĠyÃ¬Ġ
Ġ lÃŃ
Ġ 2015
ĠwÃ¨iĠ yÇĴuĠ
yÃ¬Ġ dÃłĠlÃ¬Ġ
dÄģngĠ shÃŃĠdeĠ
ĠqÄ«Ġ xÄ«ĠzÃłiĠ
mÃ¡o ĠzÃ©Ġ
liÇİng ĠniÃ¡nĠ
xiÃło ĠdeĠ
sÃł ĠsÄ«Ġ
ĠbÃ¬ng ĠyÇĶĠ
Ġ zhÇĴngĠ
ĠdÃłĠ lÃ¹Ġ
Ġ zhÃ¹
Ġ yÅįngĠyÇĴuĠ
guÇİngĠ gÃłoĠ
ĠwÃ¨iĠ lÃ¡iĠ
Ġ 2007ĠniÃ¡nĠ
chÄĵng ĠzuÃ²Ġ
fÃ¹Ġ qÄ«n
zÃ¬Ġ yÃ³u
ĠjiÃłnĠ zÃłoĠ
liÃº ĠzÃłiĠ
shÅįu ĠshÃ¬Ġ
ĠdeĠ zhÃ¨ngĠ
ĠjÃ¬nĠ yÃŃĠbÃ¹Ġ
Ġ bÃłnĠ
ĠĠĠ cÃ³ngĠ
nÃ¡nĠ jÄ«ngĠ
ĠjÃ¬n ĠgÅįngĠ
sÃł ĠÄĽrĠ
luÃ³ ĠdÃ¬Ġ
ĠshÃ¬Ġ zhÃ¨ngĠ
ĠfÃ¹Ġ qÄ«n
tiÄģn ĠdeĠ
jÇĲn ĠjÃŃĠ
xÃ¬Ġ jÃ¹Ġ
ĠhÃło ĠwÃ¨iĠ
jÃ¬Ġ xÃ¹Ġ
ĠjÃ¬Ġ shÃ¹
tÇİn ĠkÃ¨Ġ
Ġ gÃ©
ĠrÃ©nĠ men
ĠrÃ¬Ġ jÅ«n
4 ĠrÃ©nĠ
ĠyÃ¬Ġ mÄĽiĠyuÃ¡nĠ
cÃ¬Ġ shÇĲĠ
Ġ 2013
ĠzÃłiĠ cÇĲ
ĠĠĠ In
ĠtÃ¨ĠbiÃ© ĠshÃ¬Ġ
huÇĴ ĠjiÃłnĠ
ĠjiÄģĠ zÃºĠ
piÃłoĠ fÃ¡ngĠ
quÃ¨ ĠrÃ¨nĠ
qÇĲng ĠqiÃºĠ
ĠdeĠ shÄĵngĠ
jÇĲngĠ fÄģngĠ
kÇİoĠ lÇľ
bÇĲĠlÃ¬Ġ shÃŃĠ
1986 ĠniÃ¡nĠ
ĠshÃ¬Ġ rÃ¬ĠbÄĽnĠ
tÃłiĠpÃŃngĠ yÃ¡ng
zhÄģnĠ mÇĶĠsÄ«Ġ
Ġ bÄ«ngĠ
ĠjiÃ©Ġ guÇĴ
Ġ 2014
ĠchÅ«Ġ shÄĵngĠ
dÃ¬ ĠzÃłiĠ
pÄģi Ġ
ĠyÇĲ ĠyÇĴuĠ
ĠsÄ«Ġ tÇİn
tÃ³uĠ piÃło
Ġ bÇİiĠ
biÄģn ĠdeĠ
shÃłngĠ wÇĶĠ
bÄģĠ lÃŃ
wÃ¡ngĠ chÃ¡oĠ
nÃ¨i ĠyÇĴuĠ
wÃ¡n ĠgÅįngĠ
ĠzhÃ¬Ġ chÃ©ngĠ
guÇİngĠdÅįngĠ shÄĽngĠ
ĠĠĠ jiÃ©ĠzhÃ¬Ġ
fÄĽn Ġ
Ġ f
pÄģi ĠshÃ¨
ĠyuÃ¡nĠ bÄĽnĠ
chÃ©ng ĠniÃ¡nĠ
Ġ gÄģo
chÇİng ĠhÃ©Ġ
chÄ« Ġ
ĠqÃŃ ĠzÃłiĠ
ĠzhÄ«Ġ ziĠ
ĠxÃ¬Ġ liÃ¨Ġ
Ġ pÃ¨i
ĠĠĠ w
shÄĵnĠ tÇĲĠ
mÃ©ngĠ gÇĶ
18 Ġ
ĠdÃłĠ yuÄĵĠ
ĠzhÃłnĠ dÃ²uĠ
gÇĶĠ fÃ¨n
ĠzhÄ« ĠdeĠ
yÇİnĠ chÃłngĠ
xÃŃĠ xÃ¬ng
gÃ¨ng ĠduÅįĠ
hÃºĠ bÄĽiĠ
ĠyuÄĵĠ hÃłnĠ
dÄĵng ĠshÃłngĠ
ĠxiÃłnĠ chÇİngĠ
ĠĠĠ zÄĵngĠ
suÇĴ ĠzÃłiĠ
mÃŃnĠ jiÄģnĠ
qÃŃngĠ bÃłoĠ
guÇİngĠ fÃłn
mÇĶĠ qÄ«n
5 ĠrÃ©nĠ
wÃłi ĠbÃ¹Ġ
zhÃ²ng ĠyÃ¬Ġ
mÃ¬Ġ mÃ¬Ġ
ĠyÄ«ngĠ wÃ©nĠ
guÄģnĠ bÃ¬Ġ
Ġ dÃ¨ng
Ġ hÃ¨Ġ
xiÃło ĠyuÃ¡nĠ
ĠshÃ¬Ġ yÃ¨Ġ
ĠzÃłiĠ qÃŃĠ
kÇİoĠ lÇľĠ
Ã©ĠluÃ³Ġ sÄ«
Ġ tÃŃĠgÅįngĠ
tÃ¨Ġ sÃ¨Ġ
Ġ jÄ«ngĠjÃ¬Ġ
Ġ ÄģiĠ
ĠyÇĴuĠ xiÃłnĠ
sÄĵnĠ lÃŃnĠ
mÇİ ĠsÄ«Ġ
ÄģnĠ pÃ¡iĠ
Ġ 2020
ĠĠĠ 2
wÃ¹ ĠyuÃ¡nĠ
mÄĽng Ġ
xiÃł ĠyÄ«Ġ
mÄĽi ĠgÃ¨Ġ
ĠquÃ¡n ĠqiÃºĠ
ĠwÇĴĠ men
Ã¨r ĠyuÃ¨Ġ
ĠdÃłĠ duÅįĠshÃ¹Ġ
ĠbÃ¹Ġ jiÇĶ
zhuÄģng ĠbÃ¨iĠ
huÇİn Ġ
ĠdÃłĠ dÃłoĠ
Ġ 10Ġ
nÃ©ng ĠzÃłiĠ
ĠjÄ«Ġ bÃłi
tÇĶĠÄĽr ĠqÃŃĠ
Ġ wÃ²
qiÄģn ĠzhÃ¬Ġ
cÃ¹n Ġ
ĠdÃ¬ĠyÄ«Ġ cÃ¬Ġ
ĠzuÃ¬Ġ gÄģoĠ
chÇİng ĠdÃ¬Ġ
zÃ¨ng Ġ
mÃŃnĠzhÇĶĠ dÇİngĠ
nÃ¡n ĠyÇĲĠ
xÃ¬ngĠ qÃ¹Ġ
ĠshÃŃĠ yÃłnĠ
zuÃ²Ġ zhÃłnĠ
ĠjÃŃĠ bÄĽiĠ
ĠchÅ«Ġ lÃ¡iĠ
tÃ¡iĠ fÄĵngĠ
tiÄģnĠ jÄ«nĠ
ĠniÃ¡n ĠĠĠ
Ġ 2017
bÃłn ĠlÇĲĠ
ĠzhÄ« ĠdÃłoĠ
tiÄģnĠ jÄ«n
Ġ xÃºnĠ
Ġ pÃ¨iĠ
lÃ³ngĠ jiÄģngĠ
lÇĲng ĠshÃ¬Ġ
ĠbÃ¹Ġ zÃºĠ
yÃ²ngĠ tÃºĠ
H Ġ
Ġ cÄģnĠjiÄģĠ
Ġ zhÅįngĠshÃ¬Ġ
lÇĲ ĠgÅįngĠ
ĠtÅįngĠ chÃ¡ng
ĠyuÃ¡nĠ sÃ¹Ġ
Ġ Ã©
wÄĵi ĠÄĽrĠ
nÃ³ngĠ yÃ¨
ĠqÄ«ngĠ chÃ¡oĠ
Äģi ĠÄĽrĠ
Ġ kÄģngĠ
chÃ¡ng ĠjiÃłnĠdeĠ
ĠchÃ©ngĠ dÃ¹Ġ
zhÃłnĠ lÇĲngĠ
jÃ¬nĠxÃŃngĠ leĠ
ĠshÇĲ ĠjiÃłnĠyÃºĠ
Ġ gÄģngĠ
ĠĠĠ mÃŃngĠ
dÇİo ĠdÃłnĠ
xiÅ« ĠzhÃ¨ngĠ
ĠyuÃ¨Ġ tuÃ¡nĠ
Ġ lÇļĠ
zÇĶ ĠjiÃłnĠ
guÃ¬ ĠzhÅįuĠ
ĠtÄģĠ hÃ¡iĠ
ĠĠĠ xiÃłn
fÄĵn ĠbÃ¹ĠyÃºĠ
ma Ġ
mÇİĠlÃ¡i ĠxÄ«ĠyÃłĠ
xÇĲ ĠjÃ¹Ġ
ĠgÅįngĠ zhÇĶĠ
xÃŃĠxÃ¬ng ĠbÃ¹ĠmÃŃngĠ
ĠshÃŃĠ dÃłi
zhÃłngĠ ÃłiĠ
xiÃłng ĠshÃ¬Ġ
ĠwÃ©nĠ huÃłĠ
ĠĠĠ f
ĠchÅ«Ġ qÄ«Ġ
ĠzhÃłnĠ dÃ²u
te Ġ
huÃ¡Ġ shÃ¨ngĠ
Ġ yÃ¡n
shÄĵng ĠchÃ©ngĠ
1987 ĠniÃ¡nĠ
ĠyÇĴuĠ xiÄĵĠ
fÇİĠ guÄģnĠ
jiÄģoĠ liÃºĠ
rÃ¨nĠmÃ¬ng ĠwÃ¨iĠ
ĠshÄĵngĠ chÇİn
ĠyÃ¬Ġ qÇĲ
ĠyÄĽĠ jiÃ¹ĠshÃ¬Ġ
ĠĠĠ tÄģĠ
ĠdeĠ fÄģngĠshÃ¬Ġ
ĠhÃ©Ġ hÃ©Ġ
ĠshÄĵngĠhuÃ³Ġ xÃŃĠxÃ¬ngĠbÃ¹ĠmÃŃngĠ
Ġ hÃ©ngĠ
shÃ¨ ĠzhÃ¬Ġ
shÃ²u ĠdÃło
tÃŃ ĠchÅ«
40 Ġ
jÄ«Ġ chÇĶĠ
ĠtÄģĠ yÄĽĠ
ĠA Ġ
Ġ shÅįuĠ
hÄĽn ĠdÃłĠ
Ġ chÇĶĠyÃºĠ
zhÃ¬ ĠzhÅįngĠ
tÃ³ng ĠniÃ¡nĠ
bÃłoĠ fÄģ
Ġ tÃ¡oĠ
zhÇĶ ĠshÃ¬Ġ
se Ġ
1980 ĠniÃ¡nĠ
jÃ¹Ġ juÃ©Ġ
ĠwÃłn ĠlÃ¬Ġ
Ġ gÄĵnĠjÃ¹
ĠĠĠ mÄĽiĠguÃ³Ġ
chuÃ¡nĠ shuÅįĠ
h Ġ
17 Ġ
lÄģĠ dÄ«ng
lÇĲngĠ xiÃ¹Ġ
chuÃłngĠ bÃłn
huÃłĠhÃ©Ġ wÃ¹Ġ
ĠÃ©rĠ bÃºĠshÃ¬Ġ
ÄģnĠ zhuÄģng
Ġ ruÃ¬Ġ
rÃ¨n ĠshÃŃĠ
qiÃ³ng Ġ
1982 ĠniÃ¡nĠ
Ġ yÃŃnĠ
bÃło ĠlÃ¬Ġ
ÄģnĠ nÃłĠ
ĠyÄ«Ġ xuÃ©Ġ
wÇĴĠ menĠ
Ġ gÃ²ng
Ġ xuÄģnĠ
ter Ġ
zhÃ¬ ĠbÃ¹Ġ
wÃ©n ĠyÃ¬Ġ
shÃº Ġ
jiÄģĠlÃ¬Ġ fÃºĠ
Ġ zhÃło
ĠyÇĴuĠ yÃŃĠgÃ¨Ġ
ĠxiÃłnĠ xiÃłngĠ
shÃłngĠ yÃ¬ngĠ
Ġ gÃ²ngĠyÇĴuĠ
ĠĠĠ lÇĲĠ
fÇİ ĠyÇĶĠ
ĠzÃłiĠ nÃ¨iĠdeĠ
gÄģoĠ sÃ¹Ġ
ĠzÃłiĠ dÃ¹Ġ
ĠÃ©r ĠbÃ¹Ġ
jÃ¬ ĠshÃ¬Ġ
yuÃłn ĠshÃ¬Ġ
ĠwÃ¨iĠ xÄ«ngĠ
yÃ¡nĠ shÄĵn
hÇİiĠ ÃłnĠ
chuÃłng ĠjiÃłnĠ
bÄ«n ĠhÇİiĠ
shÃ¹n ĠlÃ¬Ġ
ĠlÇĲĠ lÃ¹n
ĠdÅįngĠ bÄĽiĠ
ĠĠĠcÇĲĠ wÃłiĠ
Ġ luÃ²
Ġ hÃłn
Ġ 2013ĠniÃ¡nĠ
lÃ©i ĠsÄ«Ġ
ruÇİn ĠjiÃłnĠ
ĠshÄĵngĠ zhÇİng
shÅ«Ġ rÃ¹Ġ
nÇļĠ xÃ¬ng
ĠyÃ³u ĠqÃŃĠshÃ¬Ġ
tuÄ« ĠjÃ¬nĠ
ĠhÃ©Ġ bÃ¹Ġ
zÄ«Ġ chÇİnĠ
lÃ¹nĠ wÃ©nĠ
kÇĶ Ġ
ĠxÃŃngĠ zhÃ¨ng
wÇİngĠ luÃ²
wÇİng ĠqiÃºĠ
hÇİiĠ wÃłiĠ
zuÃ¬Ġ gÄģo
pÃŃngĠ lÃ¹nĠ
ĠbÃ¹Ġ luÃ²Ġ
ĠdÃłĠ shÃł
Ġ kÇİ
zhÇĶĠ yÃ¬ĠdeĠ
bÃłoĠ gÃło
Ġ 2010
1983 ĠniÃ¡nĠ
yÃ¬ngĠ yÃ²ng
cÇİiĠ qÇĶĠ
Ġ 2012
jiÃło ĠshÃ¬Ġ
zÅ« Ġ
bÇİnĠ bÄĽn
pÃ¡iĠmÃŃng ĠdÃ¬Ġ
Ġ sÄģiĠ
jÃ¹ ĠhÃ©Ġ
biÃłn ĠwÃ¨iĠ
15 ĠniÃ¡nĠ
Ġ 2006ĠniÃ¡nĠ
tÃ³uĠ zÄ«
Ġ shÇĶ
Ġ wÇİĠ
yÃº ĠdeĠ
sÄģn ĠshÃ¬Ġ
zÃ© ĠrÃ¨nĠ
fÄģngĠ miÃłnĠdeĠ
diÃłnĠ nÇİo
bÅįĠ fÃłngĠ
ĠbÄĽiĠ jÄ«ngĠ
ĠĠĠ qÃŃĠ
ĠzÃłiĠ xÄ«Ġ
rÃ©nĠ dÃłĠ
ĠdÃ© ĠÄĽrĠ
ĠhÃ²uĠ xuÇİnĠrÃ©nĠ
Ġ nÃł
Ġ tÇİĠ
mÇİ ĠlÇĲĠ
yÇĲnĠ qÃŃngĠ
gÃ¨Ġ zhÇĴngĠ
ĠĠĠof ĠĠĠ
Ġ Ma
1945 ĠniÃ¡nĠ
ĠshÃ¬Ġ mÃŃnĠ
ĠhÃ©Ġ dÃłĠ
diÃłnĠ zi
lÇĲng ĠdÃ¬Ġ
21 ĠniÃ¡nĠ
ĠzÃłiĠ cÃ¬
fÃłnĠwÃ©iĠ nÃ¨iĠ
rÇİo Ġ
ĠĠĠjÃ¹Ġ qÃŃngĠ
ĠĠĠ qiÃ¡nĠ
zhÃ¨ ĠlÇĲĠ
xiÄģng ĠshÃ¬ĠdÃ¬Ġ
13 ĠniÃ¡nĠ
ĠyÃºĠ rÃ©nĠ
zhÃ¨ngĠ dÇİngĠ
ĠrÃ¬Ġ bÃłoĠ
ĠlÃ¬ng ĠyÄ«Ġ
xÃŃng ĠchÃ©ngĠ
fÄģ ĠxÃŃngĠdeĠ
ĠjÄ«Ġ hÅ«Ġ
zhÃŃĠ jiÄĵ
Ġ pÃł
fÄĵng ĠwÃ¨iĠ
pÃłi ĠdeĠ
22 ĠniÃ¡nĠ
ĠshÃ¬Ġ gÃ¹Ġ
xÃ¬Ġ bÄģo
ĠzhÃ¬Ġ shÇİoĠ
biÇİoĠ dÃ¡Ġ
yuÃłn ĠyÃ¬Ġ
ĠtÄģ ĠhÃ©Ġ
jÃ¹Ġ lÃ¨ĠbÃ¹Ġ
dÃºĠ lÃ¬ĠdeĠ
miÃ¡n Ġ
ĠzhÄ«Ġ fÃ¹Ġ
jiÇĶĠ lÃ³ngĠ
dÄģngĠ xuÇİnĠ
hÃ¨ ĠÄĽrĠ
zÃ¬Ġ rÃ¡n
Ġ 30Ġ
ĠĠĠ chÅ«Ġ
ĠĠĠ xiÃłnĠ
ĠyÇĴuĠ xiÃłoĠ
bÃº Ġ
wÄĵn ĠdÃ¹Ġ
c ĠĠĠ
jÃ¬Ġ chÃ©ngĠ
huÇĴĠ shÄģnĠ
yÇĶnĠ xÇĶ
ĠyÄ«Ġ xiÇİoĠshÃŃĠ
ĠjÃ¬Ġ suÃłnĠ
ĠdÃłĠ xÄ«ĠyÃ¡ngĠ
guÃ²Ġ qÃ¹
jiÃ¹Ġ dÃº
pÃ¡iĠ hÃ¡ngĠ
Äģn ĠdÃ©Ġ
ĠdÅįngĠ lÃŃnĠ
to ĠĠĠ
jÇĲngĠ chÃ¡
zhÄ«Ġ chÃŃ
fÇİngĠ wÃ¨n
mÃŃngĠ zÃ¬Ġ
ĠzuÃ²Ġ jiÄģĠ
xÇĲĠ huÄģn
Ġ yÃ²ngĠyÃºĠ
dÇİng ĠyuÃ¡nĠ
Ġ rÃ³ngĠ
qÅ« ĠyÃ¬ĠhuÃ¬Ġ
ĠdÃłĠ fÃºĠ
ĠdÃ©Ġ huÃ¡Ġ
Ġ lÃ¡i
Ġ 2012ĠniÃ¡nĠ
huÃłn ĠchÃ©ngĠ
fÄģngĠ yÃ¡nĠ
biÇİoĠ yÇİn
xiÃłn ĠzhÃ¬Ġ
yÃ¡ng ĠshÃ¬Ġ
dÅįu ĠzÃłiĠ
ĠdÃ¬Ġ yÃŃĠgÃ¨Ġ
1 ĠlÃ¬Ġ
ĠchÅ«Ġ zhÃłnĠ
bÇĲĠ yÃł
ĠĠĠdÃ¬Ġ fÄģngĠ
ĠyÇĶĠ mÃ¡o
ĠbÃ¬ng ĠbÃ¨iĠ
qÅ« ĠhÃ©Ġ
ĠyÄ«Ġ tÃ³ngĠ
ĠzhÅįngĠhuÃ¡ĠrÃ©nĠmÃŃnĠgÃ²ngĠhÃ©ĠguÃ³Ġ zhÃ¨ngĠzhÃ¬ĠrÃ©nĠwÃ¹Ġ
Ġ kÇĴngĠ
ĠxiÃłn ĠshÃ¬Ġ
xiÄģngĠ dÄģng
jÄ«ngĠ yÃłnĠ
tiÃ¡oĠ zhÄĽng
pÇĶĠ biÃłnĠ
Ġ yÃŃngĠ
Ġ 7Ġ
zuÃ² ĠshÃ¬Ġ
ĠzhÅįngĠ bÃ¨iĠ
guÄģnĠ diÇİnĠ
jiÃłngĠ dÄ«Ġ
kÄĵĠdeĠ qÃŃĠzhÅįngĠyÄ«ĠzhÇĴngĠ
23 ĠniÃ¡nĠ
ĠgÅįngĠ yÃ¬Ġ
xÃºnĠ yÃ¡ng
Ġ0 Ġ
dÃł ĠzhÃ¬Ġ
liÇİng ĠmÃŃngĠ
hÃ¡n ĠyÇĴuĠ
zhÃ²ngĠ duÅįĠ
diÇİn ĠlÇĲĠ
Ġ shÄĵngĠyÃºĠ
shÄĽ Ġ
guÃł Ġ
ĠbÃ¬ngĠ dÃº
yÃł ĠjÅ«nĠ
ĠqÃŃĠzhÅįngĠ yÄ«Ġ
shÃ¨Ġ qÅ«Ġ
kÇĴu ĠwÃ¨iĠ
chÃ©ngĠ yuÃ¡nĠ
zhÄ«Ġ qiÃ¡nĠ
mÃ¬ĠshÅ«Ġ zhÇİngĠ
ĠdÃ¬Ġ sÃ¬
yÃŃĠ dÃ¹Ġ
Ġ sÃłiĠjÃ¬Ġ
tiÃ¡o ĠlÃ¬Ġ
nÃ¨iĠ gÃ©Ġ
Ġ liÃłngĠ
shÃ¹ ĠyÇĶĠ
shÄģn ĠshÃ¬Ġ
wÃº ĠzhÃ¨ngĠzhuÃłngĠ
ĠxiÃłnĠ rÃ¨nĠ
tÅ«Ġ pÃ²Ġ
xiÄĽ ĠdÃłoĠ
dÃłng ĠtiÄģnĠ
Ġ chÃ¡Ġ
ĠxÃŃng ĠwÃ¨iĠ
ĠzÇĶ ĠfÃ¹Ġ
Ġ pÃŃngĠjÅ«nĠ
ĠgÅįngĠ mÃŃnĠ
xÄ«ngĠ dÄĽngĠwÃ¨iĠ
ĠshÃ¬Ġ yÃºĠ
ĠtÃ³ng ĠyÃ¬Ġ
Ġ Ã¨Ġ
Ġ jiÃ¹ĠshÃ¬Ġ
hÃ³ngĠ sÃ¨Ġ
zhÃ¨ng ĠbÃ¹Ġ
wÃ¡nĠ zhÄĽng
ĠbÇĲĠ sÃłiĠ
kÄģiĠshÇĲ ĠzÃłiĠ
7 ĠrÃ©nĠ
tuÃ¡n ĠdeĠ
gÄĽi ĠleĠ
ĠjÄ«Ġ jÄ«nĠ
sÇĲĠ wÃ¡ng
zhÄĽngĠ tÇĲĠ
z Ġ
yÃ¬ ĠniÃ¡nĠ
bÄĽn ĠrÃ©nĠ
juÃ© ĠduÃ¬Ġ
lÇĶ ĠsÄ«Ġ
Ġ liÃ¹
Ġ 500
Ġ shuÅįĠ
ĠquÃ¡n ĠlÃ¬Ġ
yÃŃĠ dÃ¬ngĠ
yÄ«ngĠ wÃ©nĠ
dÃłiĠbiÇİo ĠdÃłĠhuÃ¬Ġ
6 ĠrÃ©nĠ
Ġ sÃłiĠ
Ġ hÃ¡oĠmÇĲĠ
ĠĠĠ jÃŃĠ
chÃŃ ĠyÇĴuĠ
ĠshÃ¬Ġ bÄ«ngĠ
gÃłiĠ niÃłn
Ġ rÃ©ng
ĠĠĠ 2011
ĠgÅįngĠ jÃ¹Ġ
shÃ¨Ġ shÄ«Ġ
ĠzuÃ¬ ĠchÅ«Ġ
Ġ nÃ©ngĠ
Ġ sÅ«n
huÃ¡ng ĠhÃ²uĠ
gÅįngĠ chÃ©ngĠ
ĠzhÃ¨Ġ zhÇĴng
xiÃłĠxiÃ¡ ĠdeĠyÃŃĠgÃ¨Ġ
zhÇĴngĠ zÃºĠ
ĠĠĠ ÄģĠ
zhÃŃĠ dÇİoĠ
m ĠĠĠ
nÃŃ ĠÄĽrĠ
ĠdeĠchÃ©ngĠ jÃ¬Ġ
1 ĠĠĠ
ĠjÃŃĠ rÃ©nĠ
ĠsuÃ¬ ĠshÃŃĠ
lÃ¡i ĠyuÃ¨Ġ
qÇĲĠ dÃ²ngĠ
bÇİoĠ shÇĴuĠ
tÃ³uĠ xiÃ¡ngĠ
guÃ¬Ġ zÃºĠ
yuÃ¨ ĠzhÅįngĠ
zhÃ¨nĠ qÅ«ĠdeĠ
zÇİoĠ qÄ«
bÃ³ĠshÃ¬Ġ xuÃ©ĠwÃ¨iĠ
ĠĠĠ qÃŃĠtÄģĠ
shÄģn ĠjÄ«Ġ
kuÃ¬ Ġ
ĠwÃ©iĠ ÄĽr
jiÃ¨Ġ shÃłoĠ
shÃ©nĠ meĠ
ĠmÄĽi ĠgÃ¨Ġ
yÄģoĠ qÇĲng
Ġ xÃ¬nĠ
gÇĶ ĠdÃłiĠ
ĠmÃŃngĠ dÄģnĠ
Ġ diÃłnĠyÇĲngĠ
mÃŃng ĠrÃ©nĠ
ĠdÃ© ĠyÇĶĠ
hÄĵiĠ sÃ¨Ġ
ĠyÄ«Ġ zuÃ²Ġ
ĠyÇĲĠ jÃŃ
ĠÃ©rĠ gÄģiĠ
3 ĠgÃ¨Ġ
ĠĠĠ 2010
tÄģng Ġ
ĠrÃ©nĠmÃŃnĠ zhÃ¨ngĠfÇĶĠ
ÄĵnĠ shÄĽngĠ
tÃ²uĠ guÃ²
fÃłnĠ zuÃ¬Ġ
ĠxiÇİng ĠniÃ¡nĠ
wÃºĠzhÃ¨ngĠzhuÃłngĠ gÇİnĠrÇİnĠ
suÃŃ ĠzhÃ¹Ġ
mÃ¹Ġ qiÃ¡n
Ġ duÃłnĠ
19 Ġ
huÃ³ ĠyuÃ¨Ġ
chÃ¡ngĠ wÃ¹Ġ
chÃ¡ngĠ wÄĽiĠ
gÇİiĠ mÃŃngĠwÃ¨iĠ
bÄĽiĠjÄ«ng ĠshÃ¬Ġ
quÃ¨ĠzhÄĽn ĠbÃ¬ngĠlÃ¬Ġ
mÃŃng ĠzhÃ¬Ġ
sÄģ Ġ
ĠrÃ¬ ĠyÃºĠ
chÅ«Ġ shÄĵnĠ
tÃºn Ġ
diÃłnĠ huÃłĠ
gÄģoĠsÃ¹ ĠgÅįngĠlÃ¹Ġ
Ġ 2022
Ġ fÄģnĠ
gÃ¨ng ĠwÃ©iĠ
ĠbÃ¹Ġ sÄ«Ġ
ĠjÄ«Ġ sÄ«Ġ
tÃłiĠ ziĠ
ĠbÇĲĠ rÃºĠ
quÄĵĠ fÃ¡
ĠĠĠ gÄģi
kÃ¨ ĠchÃ©ngĠ
kÃ¹n ĠnÃ¡nĠ
ĠbÃ¹Ġ lÃ¬Ġ
dÄģn ĠdeĠ
lÃ³ng ĠdeĠ
rÃ¹Ġ xuÇİnĠ
yÇĲĠ jÄ«ngĠ
tÃŃ ĠjÃŃĠ
zuÃ¬Ġ duÅįĠ
ĠwÃ¨iĠyÃºĠ zhÅįngĠguÃ³Ġ
sÄģiĠÄĽrĠ wÃ©iĠ
Ġ Ã¨rĠshÃŃĠ
huÃ¬ ĠzhÅįngĠ
shÅįu ĠjÃŃĠ
ĠlÃ¬Ġ fÇİ
xuÃ©Ġ huÃ¬Ġ
ĠbÃ¬ngĠ fÄĵiĠ
hÇİiĠ xiÃ¡Ġ
gÃ²u ĠdeĠ
ĠxÄ«Ġ jiÄĵĠ
gÄĵĠ lÃºnĠ
ĠjÄ«Ġ chÇİng
jÃ¹ ĠdÃłĠ
duÅį ĠrÃ©nĠ
ĠchÃ©ngĠ rÃ©nĠ
fÃ¹Ġ zÃ©
ÄģnĠ nÃł
zÃºĠqiÃºĠ yÃ¹nĠdÃ²ngĠyuÃ¡nĠ
xiÄĽ ĠdeĠ
zuÃ²Ġ chÅ«Ġ
zhuÄ«Ġ sÃ¹
Ġ kuÄģn
Ġ 2014ĠniÃ¡nĠ
1979 ĠniÃ¡nĠ
ĠtÃ³ngĠshÃŃĠ gÄģiĠdÃ¬Ġ
Ġ xiÇİngĠ
1972 ĠniÃ¡nĠ
bÄĵi ĠsÄ«Ġ
ĠyÄĽ ĠzÃłiĠ
shÄĽng ĠdeĠ
lÃ¬ng ĠrÃ©nĠ
Ġ yÃ²ng
huÃ¬ ĠzhÃ¬Ġ
ĠdÃ©Ġ zhÇĶĠ
tÇİoĠ lÃ¹n
ĠjÃŃĠ dÃ¬Ġ
nÃ¨iĠlÃ¹Ġ shÄĽngĠfÃ¨nĠ
1978 ĠniÃ¡nĠ
ÄģnĠ huÄ«Ġ
kÄĵĠxuÃ©Ġ jiÄģĠ
Ġ Z
tÃº ĠxÃŃngĠ
ĠguÃ³Ġ nÃ¨iĠ
pÄ«Ġ zhÇĶn
jiÄģng ĠzÃłiĠ
ar Ġ
tiÃło Ġ
ĠbÃ¬ngĠ dÃºĠ
Ġ yuÄĵ
cÃ¬ ĠdeĠ
yÃŃĠ dÃ¬ng
Ġ se
zhÃº ĠbÃ¹Ġ
ĠdeĠdÃ¬Ġ Ã¨rĠ
shÃ²u ĠdeĠ
shÄģn ĠdeĠ
st ĠĠĠ
ĠshÃ¬Ġ yÄ«nĠwÃ¨iĠ
ĠkÃ¨ ĠxÄ«Ġ
jiÃ©Ġ guÇĴ
qiÃ¡ngĠ liÃ¨Ġ
liÃ¡nĠhÃ©Ġ huÃ¬Ġ
chÄģo ĠyuÃ¨Ġ
tÃ¡iĠ nÃ¡n
jiÇİnĠ shÇİo
dÄ« ĠyÃºĠ
tÃŃĠgÅįngĠ leĠ
Ġ pÃ²Ġ
le ĠzÃłiĠ
jiÃłĠ gÃ©Ġ
pÃłiĠ qiÇİn
xiÃłĠlÃ¬ng ĠshÃŃĠjiÄģnĠ
hÇİi ĠpÃŃngĠmiÃłnĠ
bÃº ĠdÃłoĠ
ĠshÃŃĠ qÄ«ĠdeĠ
ĠyuÃ¡nĠ xÃŃngĠ
8 ĠrÃ©nĠ
Ġ yÄģoĠqiÃºĠ
yÄĽ ĠzÃłiĠ
ĠjÄ«Ġ huÃ¬Ġ
ĠxuÃ©Ġ yuÃłn
huÄ«Ġ fÃ¹
guÃ² ĠdeĠ
yÃłĠ mÄĽiĠ
biÄģnĠ jiÃ¨Ġ
dÇĴngĠshÃ¬Ġ zhÇİngĠ
Ġ wÃ¡nĠjiÄģĠ
fÄģngĠ fÇİ
tÃŃ ĠyÃ¬Ġ
shÅ« ĠzhÅįngĠ
xÅ«n ĠzhÄģngĠ
shÄ«Ġ bÃłiĠ
ĠjiÃłoĠ yÃ¹Ġ
zhÇĶĠyÃło ĠdeĠ
zhÇĶĠ jiÃło
ĠhÃło ĠdeĠ
nÃŃĠyÃł ĠzhÅįuĠ
ĠhÃ²uĠ bÃ¨iĠ
guÄģnĠ chÃ¡Ġ
ĠxuÃ©Ġ jiÄģĠ
liÃºĠ xiÃłĠ
shuÄģngĠ fÄģngĠ
ĠĠĠbÃ¨iĠ jÇĲngĠ
Ã©r ĠtÃ³ngĠ
1976 ĠniÃ¡nĠ
ĠyÄ«Ġ lÃ¬Ġ
jiÄģ ĠyÃ¬Ġ
tÅįu Ġ
ĠbÃ¹Ġ duÃ¬
ĠyÇĲĠ wÃ©iĠ
liÃ¡nĠ xÃ¹
xiÃłn ĠdeĠ
qÄ«n ĠzÃ¬Ġ
ĠÃ©rĠ ziĠ
zhuÄģngĠ jiÇİĠ
Ġ 1950
ĠyÇĴuĠ suÇĴĠ
ÇĴu Ġ
ĠzÃłiĠ shÃŃĠ
zuÃ¬Ġ gÄģoĠdeĠ
huÃ¬ĠyÃ¬Ġ yuÃ¡nĠ
sÄģnĠ jiÇİo
ĠĠĠdÃ¬ĠfÄģngĠ zÄ«ĠliÃłoĠ
rÃ¨n ĠwÃ¨iĠ
mÇİ ĠÄĽrĠ
zÇĶ ĠfÃ¹Ġ
lÃ¡n ĠdeĠ
nÃ¡ ĠxiÃłĠ
pÃŃngĠ tÃ¡iĠ
fÄĵiĠ chÃ¡ng
ĠĠĠ jiÇİnĠjiÃ¨Ġ
duÅį ĠwÃ¨iĠ
ĠhÃ©Ġ yuÄĵĠ
1958 ĠniÃ¡nĠ
bÃ¨i ĠdeĠ
ĠlÃ¬Ġ liÃłngĠ
ĠchÅ«Ġ kÇĴuĠ
gÇİiĠ biÃłn
ĠtÄģĠcÃ©ng ĠdÃłiĠbiÇİoĠ
ĠĠĠ 17
ĠdÃ¬Ġ lÇĲĠ
nÃ¡nĠ bÄĽiĠ
pÃŃng ĠwÃ¨iĠ
nÃ©ng ĠyuÃ¡nĠ
ĠdÃ¬Ġ qÄ«Ġ
ĠxiÃłnĠ fÇİĠ
dÃŃ ĠshÃ¬Ġ
st Ġ
ĠhÃ²uĠ zhÄĽĠ
zÃ¬ ĠdeĠ
tÃ¡i ĠzhÅįngĠ
la Ġ
ĠzhÃ¨ngĠ mÃŃngĠ
ĠshÃŃĠjÃ¬Ġ shÃłngĠ
ĠĠĠ 1Ġ
lÇĲ ĠhÃ©Ġ
ĠchÃ©ngĠ zhÃ¨nĠ
ĠmÄĽi ĠyuÃ¡nĠ
Ġ 28
Ġ 2015ĠniÃ¡nĠ
xuÇİn ĠzhÅįngĠ
dÃŃ ĠrÃ©nĠ
ĠlÃ¬Ġ yÃ¬Ġ
quÄĵĠ fÃ¡Ġ
suÃŃ ĠjÃŃĠ
pÃłi ĠchÅ«Ġ
liÇİo Ġ
ĠzhÅįngĠguÃ³ĠrÃ©nĠmÃŃnĠ jiÄĽĠfÃłngĠjÅ«nĠ
duÅįĠ zhÇĴngĠ
yÄ«ngĠ gÄģiĠ
tÃ¡nĠ pÃłnĠ
liÃ¡oĠ nÃŃngĠ
ĠshÃ¬Ġ gÅįngĠ
ĠbÃ¹Ġ shÇİoĠ
ĠsÄ«Ġ tÇİĠ
miÇİnĠ diÄģn
tÃŃ ĠchÅ«ĠdeĠ
nÇĶ Ġ
yÄ«ngĠ gÃ©ĠlÃ¡n
tuÃ¬Ġ xiÅ«Ġ
ĠdÃłĠxuÃ© ĠdeĠ
hÇİiĠbÃ¡ ĠwÃ¨iĠ
gÃłn ĠbÃ¹Ġ
lÄĽi ĠjÃ¬Ġ
ĠshÃŃĠ xÃŃngĠ
dÄģng ĠzhÅįngĠ
xÃ¹ ĠlÃ¬ĠyÃłĠ
juÃ© ĠyÃ¬Ġ
shÄģng ĠrÃ©nĠ
biÄģo ĠbÄĽnĠ
zhuÇİn ĠxiÃłngĠ
fÄģĠ shÄĵngĠzÃłiĠ
suÇĴĠ cÇİiĠyÃ²ng
zhÇĲĠ dÇİoĠ
huÃł ĠzhÅįngĠ
mÄĽi ĠzhÅįu
zÃłn ĠshÃŃĠ
ĠjÃ¹Ġ juÃ©Ġ
ĠfÃ¹Ġ jÃ¬n
ĠzhÅįngĠgÃ²ng ĠzhÅįngĠyÄģngĠ
ĠĠĠ 2Ġ
cÃ©ng ĠwÃ¨iĠ
ĠyÃ¬Ġ qÃŃngĠ
fÄģĠ shÃ²uĠ
nÃ³ngĠ mÃŃnĠ
cÃ¬ ĠyÃºĠ
ĠĠĠ yÄ«nĠ
yÃŃ ĠdÃłiĠ
ĠdÃ© ĠmÃŃngĠ
xiÅ«Ġ gÇİiĠ
shuÇĲ ĠlÃ¬Ġ
rÃ³ng ĠhÃ©Ġ
ĠzhÅįngĠ guÃ³ĠdeĠ
fÄģ ĠmÃŃngĠ
ĠqÃŃ ĠwÃ¨iĠ
zhÇĲĠ nÃ©ngĠ
zÄ«Ġ liÃło
ĠmÃŃng ĠzhÃ¬Ġ
ĠgÅįngĠ zhÃ²ngĠ
zhÇĶĠ yÇİnĠ
zhÇĴngĠ ziĠ
17 ĠniÃ¡nĠ
zÄ«Ġ bÄĽnĠ
ÄģĠlÄģĠ bÃ³
xiÄģngĠ sÃ¬Ġ
jiÄĵĠ chÃ¹Ġ
ĠbÄĽiĠ jÄ«ng
kÄģi ĠshÃ¨Ġ
xiÅ« ĠjiÃłnĠ
2025 ĠniÃ¡nĠ
guÄģnĠ chÃ¡
jÃ¬ng ĠjÃ¬Ġ
fÄģĠ qÇĲĠ
ÄģnĠ pÃ¡i
jiÄĽĠ sÃłnĠ
ĠdeĠshÃ¬Ġ jiÃ¨Ġ
Ġ mÃ©i
Ġ 2016ĠniÃ¡nĠ
kÄģiĠ tÅįngĠ
wÇĶĠ zhuÄģng
bÃłoĠ zhÃłĠ
diÃłn ĠjÄ«Ġ
chÄģi ĠchÃºĠ
cn Ġ
jÇĶĠbÃłn ĠdeĠ
ve Ġ
shÄĵnĠ dÃ¹Ġ
zhÄģngĠ zhuÄģnĠjÃŃĠ
Ġ chÃº
qÅ« ĠshÃ¬Ġ
wÃ©iĠ sÄ«Ġ
tuÃ¡nĠ tÇĲ
Ġ chÃ¡
jÄ«Ġ gÃ²uĠ
fÃ¹Ġ zhÇĶĠrÃ¨nĠ
fÄĵngĠ xiÇİnĠ
zÇĶĠzhÄ« ĠdeĠ
zÃ© ĠzÃłiĠ
biÄģn ĠjÃ¹Ġ
diÃłoĠ kuÃłi
Ġ 187
chÃ©ng ĠhÃ©Ġ
ĠyÇĶĠ qÃŃĠtÄģĠ
jiÃ© ĠdeĠ
nÃ©ngĠ liÃłngĠ
Ġ bÇİ
Ġ sÃ¹Ġ
Ġ cnĠ
ĠĠĠ qÃŃ
zÃło ĠleĠ
pÃ¨i ĠzhÃ¬Ġ
ĠwÃ¨iĠ UTCĠ
ĠbÃ¹Ġ jÃŃĠ
ĠzhÅįngĠ shÄģnĠ
shuÃłiĠ lÇĲng
bÃłnĠshÃ¬Ġ chÃ¹Ġ
shÇĴu ĠzhÅįngĠ
yÃ³u ĠjÄ«Ġ
qiÃº ĠjÃ¬Ġ
yÄ«ngĠ xiÃ³ngĠ
ĠxÄ«ĠbÄģnĠ yÃ¡Ġ
luÃ³ ĠlÇĲĠ
gÃ©Ġ lÄģĠ
jiÃ¹Ġ dÃºĠ
shÄģngĠ yÃ¨
xiÄģoĠ fÃ¨iĠ
qiÃ¡ngĠ diÃłoĠ
diÃłoĠkuÃłi ĠyÄ«ĠxiÇİoĠshÃŃĠ
ĠdeĠ yÇĲngĠxiÇİngĠ
ĠĠĠ duÃ¬Ġ
dÃ¡ ĠÄĽrĠ
shuÄģi Ġ
ĠjÃŃĠ UTCĠ
kÄĵĠxuÃ©Ġ yuÃłnĠ
shÃ¨ĠyÇĴuĠ xiÃłĠlÃ¬ngĠshÃŃĠjiÄģnĠ
ĠdeĠshÃŃĠqÅ«ĠwÃ¨iĠ UTCĠ
ĠÃ©rĠgÄģiĠdÃ¬Ġ suÇĴĠcÇİiĠyÃ²ng
ĠtÃ³ngĠshÃŃĠgÄģiĠdÃ¬Ġ shÃ¨ĠyÇĴuĠxiÃłĠlÃ¬ngĠshÃŃĠjiÄģnĠ
ĠÃ©rĠgÄģiĠdÃ¬ĠsuÇĴĠcÇİiĠyÃ²ng ĠdeĠshÃŃĠqÅ«ĠwÃ¨iĠUTCĠ
hÃ²u ĠwÃ¨iĠ
ĠtÃ³ngĠ yÃłng
xÃ¬nĠ yÇİngĠ
tÄģĠmen ĠdeĠ
Ġ jiÇİ
kÃ¹n Ġ
ĠdÃłĠ jiÇİngĠ
jiÃłoĠ tÃ¡ng
bÇİoĠ liÃº
ĠlÃ¬ng ĠyÇĴuĠ
ĠyÄ«ĠsÄ«Ġ lÃ¡nĠ
yuÃ¡nĠ zhÃ¹Ġ
tÃłiĠ dÃ¹Ġ
chuÃ¡nĠ bÅįĠ
ĠgÄģiĠ cÅ«nĠ
suÇĴ ĠzÃłiĠdÃ¬Ġ
quÃ¨ ĠdeĠ
zhÄ«Ġ jiÄģnĠdeĠ
Ġ gÄĵ
Ġ nÇĲĠ
ĠĠĠ jiÄģoĠtÅįngĠ
fÄģ ĠshÃ¨
ĠshÃŃĠ wÃ¹Ġ
dÃ¬ngĠ jÅ«Ġ
ĠlÃ¬ĠshÇĲĠ shÃłngĠ
gÄģoĠyÃºĠ hÇİiĠpÃŃngĠmiÃłnĠ
Ġ cÃ¨Ġ
xÃ¬ng ĠwÃ¨iĠ
ĠmÇİĠ lÃ¡i
ĠwÃ¨iĠfÃºĠqÃŃĠyÃºĠ gÄģngĠ
5 ĠmÇĲĠ
Ġ tÃ¡ng
zhÃº ĠjiÃłn
ĠbÃ¹Ġ nÃ©ng
ĠgÅįngĠ juÃ©Ġ
wÃ¹ ĠhÃ©Ġ
hÃ¹ ĠxiÄģngĠ
Ġ lÇĶĠ
ĠqÃŃĠ xiÃłĠ
chÃ¹ĠdeĠ hÇİiĠbÃ¡ĠwÃ¨iĠ
chÃ¹ĠdeĠhÇİiĠbÃ¡ĠwÃ¨iĠ gÄģoĠyÃºĠhÇİiĠpÃŃngĠmiÃłnĠ
ĠĠĠ qÄ«ngĠ
ĠwÃ¨iĠ dÃłĠ
ĠÄĽrĠ duÅįĠ
ĠyÄ«nĠ sÃ¹Ġ
tÇĲ ĠzhÃ¬Ġ
ĠyÃºĠ lÃ¨
chÇİngĠ suÇĴĠ
jÃ¬ngĠ xuÇİnĠ
ĠĠĠ 190
wÃ¹ ĠshÃ¬Ġ
zhÇİngĠ dÃ¡Ġ
lÃ¹ ĠzhÃ¬Ġ
ĠzhÄ« ĠyÃ¬Ġ
gÄģoĠ xiÃ³ng
kuÃ¡ng Ġ
ĠhÃ©Ġ pÃłnĠ
ĠbÃ¹Ġ jÇĲnĠ
ĠyÇĲĠ xÄ«Ġ
fÄģ ĠxiÃłnĠdeĠ
zhÃ²ng ĠshÃ¬Ġ
ction ĠĠĠ
ĠqÃŃ ĠshÃŃĠ
chÃ³ngĠ qÃ¬ng
ĠsuÃŃ ĠzhÃ¹Ġ
Ġ dÄģn
nÃ¡nĠ jÄ«ng
yÃ¹nĠ shÅ«
Ġ 2008
Ġ zhÄĵngĠ
Ġ 8Ġ
Ġ 2017ĠniÃ¡nĠ
shÃ¹ ĠshÃŃĠ
nÃ¨i ĠdÃ¬Ġ
biÄģn ĠhÃłoĠ
shÃŃĠ qÅ«Ġ
ĠĠĠ mÇİĠ
jiÃłn ĠchÃ©ngĠ
gÄĵng ĠxÄ«nĠ
ĠyÄ«Ġ jiÄģĠ
ĠxÄ«Ġ lÃ¡nĠ
yÃ¹nĠ yÃ²ngĠ
bÃ¬Ġ yÃ¨ĠhÃ²uĠ
ĠzÃ¬Ġ rÃ¡nĠ
shÃ¬ ĠĠĠ
Ġ 24
Ġ zhÃ¨ngĠzhÃ¬Ġ
ĠĠĠ rÃ¡n
Ã¨r ĠjÃŃĠ
ĠlÃ¬Ġ rÃ¨nĠ
wÃ©iĠ ÄĽrĠ
zhÃŃĠ zhÃ¨ngĠ
diÃłnĠ qÃ¬Ġ
shÄģnĠ fÄĵngĠ
ĠwÃ¨iĠyÃºĠ gÄģiĠ
60 Ġ
tion Ġ
zhÄĽ ĠshÃ¬Ġ
wÃ¡ng ĠshÃ¬Ġ
jiÃ¹ ĠhuÃ¬Ġ
16 ĠniÃ¡nĠ
xiÃłoĠ qÅ«Ġ
qiÃł Ġ
xiÃ¡Ġ qÅ«Ġ
xuÄģnĠ chuÃ¡n
ĠĠĠ bÄĽn
bÄģo ĠwÃ©iĠ
bÃłng ĠqiÃºĠ
ĠzuÃ²Ġ chÅ«Ġ
Ġ xiÃ¨Ġ
xuÃ© ĠyuÃ¡nĠ
cuÃ² ĠwÃ¹Ġ
ĠdÃ¬Ġ qiÃº
jÄ«nĠ rÃ³ngĠ
ĠyÃ¹Ġ shÇĲĠ
Ġ xÅ«Ġ
hÃ²u ĠyÃ¬Ġ
dÅįngĠ fÄģngĠ
Ġ wÃ¡nĠ
bÄĽi ĠshÃ¬Ġ
jÄ«ngĠ chÃ¡ng
ĠrÃ¡n ĠÃ©r
ĠcÃ¬ ĠniÃ¡nĠ
Ġ hÃº
ĠjiÃ© ĠkÃ¨Ġ
huÃ¬ ĠyÃºĠ
ĠsÄ«Ġ kÄĵĠ
ĠduÃ¬Ġ shÇĴuĠ
ĠxÃŃngĠzhÃ¨ngĠ qÅ«Ġ
zhÃ¨nĠqÅ«ĠdeĠ miÃłnĠjÄ«ĠwÃ¨iĠ
9 ĠrÃ©nĠ
mÃŃng ĠshÃ¬Ġ
ve ĠĠĠ
ĠzhÅįuĠ cÃ¬ĠshÇĲĠ
ĠshÄĵngĠ yÃ¡Ġ
jiÄģ ĠyÇĲĠ
fÃº ĠdeĠ
jÃº ĠdeĠ
kÄĽ ĠzÃłiĠ
mÇİ ĠkÃ¨Ġ
ĠtÄģ ĠyÇĲĠ
ĠyuÃ¡nĠ zÃ¬Ġ
zÃłoĠ chÃ©ngĠdeĠ
Ġ Y
Ġ huÃłnĠ
ĠlÇĲĠ xÄ«Ġ
zhÃŃĠ mÃŃnĠ
gÅįngĠ gÃ²ngĠ
pÃŃngĠ lÃ¹n
fÅ«Ġ kÇİĠ
ĠdÄģngĠ shÃŃĠdeĠ
Ãło ĠzhÅįuĠ
chÃ¡n Ġ
ĠyÄ«Ġ jÃ¹Ġ
qiÄģnĠ shÇĶĠ
jÃ¬ ĠyÇĴuĠ
shÇĲ ĠjiÃłnĠyÃºĠ
rÃ¨n ĠdeĠ
yÄĽ ĠbÃ¨iĠ
miÃłn ĠshÃłngĠ
ĠniÃ¡nĠ lÃ¡iĠ
ĠsÄ«Ġ kÃ¨
ĠÃ©rĠ tÃ³ngĠ
Ġ 2018ĠniÃ¡nĠ
dÄĽng ĠjÃŃĠ
pÇİo Ġ
ĠxuÃ©Ġ zhÄĽĠ
Ġ dÃłi
Ġ yÃŃ
Ġ diÃłnĠshÃ¬Ġ
1968 ĠniÃ¡nĠ
ĠjiÃłn ĠshÃ¨
ĠwÃ©iĠ rÃło
ĠyÄĽ ĠbÃ¨iĠ
ĠqÃŃĠzhÅįngĠ bÄģoĠkuÃ²Ġ
jiÄģ ĠzÃłiĠ
qÃ¬Ġ chÄĵ
Ġ shÄģ
Ġ 2009
bÃłn ĠdeĠ
tÅ« ĠrÃ¡nĠ
hÇİiĠ yÃ¡ngĠ
chÅ«Ġ bÇİn
lÃ¡i ĠyÄ«nĠ
jÄ« ĠzÃłiĠ
gÃ© ĠshÃ¬Ġ
jÃ¹n ĠgÅįngĠ
ĠdÃ© ĠzhÄ«Ġ
ĠjÄ«Ġ jÄ«nĠhuÃ¬Ġ
xiÄģoĠ shÄ«Ġ
ĠfÃºĠ wÃ¹Ġ
xiÃłoĠlÃ¬Ġ yÃºĠ
Ġ 2019ĠniÃ¡nĠ
jÃ¬Ġ niÃłn
rÃºĠ guÇĴĠ
lÃ¬ngĠ yÃŃĠgÃ¨Ġ
tiÃ¡nĠ jÃ¬ngĠ
tÃ¡oĠ tÃłiĠ
Äģo Ġ
ĠwÃ¨iĠ duÃ¬Ġ
ĠjÃŃĠ dÃłĠ
yÃ¡nĠ hÇİiĠ
dÄģngĠ dÃ¬ĠdeĠ
jiÃłngĠ lÇĲngĠ
Ġ bÇİi
19 ĠshÃ¬ĠjÃ¬Ġ
Ã¨r ĠrÃ©nĠ
wÄĽiĠyuÃ¡nĠhuÃ¬Ġ wÄĽiĠyuÃ¡nĠ
pÃŃng ĠyuÃ¡nĠ
ĠlÇĲĠ yÃłĠ
Ġ 2ĠyuÃ¨Ġ
ĠĠĠ jÇĲnĠ
duÃ¬ ĠqÃŃĠ
bÃ¨iĠ jÇĲngĠ
kÇİĠ luÃ³Ġ
Ġ liÃ¡nĠhÃ©Ġ
jÃ¬n ĠbÃ¹Ġ
liÇİng ĠguÃ³Ġ
tÃ¨Ġ dÃ¬ngĠ
fÃ¨nĠ zÇĲ
dÃł ĠbÃ¹Ġ
dÃ¬ng ĠyÃºĠ
ĠqÃŃ ĠdeĠ
gÇİiĠ zÃłoĠ
ĠdeĠbÃ¹Ġ fÃ¨nĠ
zhÃŃĠmÃŃn ĠdÃ¬Ġ
Ġ 26
ĠĠĠ shÃ¨ngĠ
Ġ qÄ«nĠ
ĠĠĠ Ch
jiÃło ĠdÃłĠ
ĠzhÃ¬Ġ zuÃ²ĠdeĠ
ĠjÄ«Ġ dÅ«Ġ
chuÃ¡nĠtÇĴng ĠdeĠ
Ġ 2023
guÄģn ĠjiÃłnĠ
shÄĵngĠ yÃ¡
ĠbÃ¹ĠbÃ¹Ġ zhÇİngĠ
jÄ«ngĠ shÃ©n
shÅįuĠ gÃ²uĠ
ĠqiÃ¡nĠ wÇİngĠ
Ġ yÃºnĠ
diÇİn ĠshÃ¬Ġ
1970 ĠniÃ¡nĠ
yÃ¬Ġ shÃ¹Ġ
shÅ«Ġ yuÃłnĠ
lÃŃĠ kÄģi
quÃ¡nĠ miÃłnĠ
mÃ²ĠxÄ«Ġ gÄĵĠ
ĠĠĠ 4
zhÃ¨n ĠdeĠ
tuÄ« ĠchÅ«
gÇĴu Ġ
guÃ³Ġ jiÄģ
ĠdÃ¬Ġ tiÄĽ
ĠxiÃłn ĠyÇĲĠ
ĠjÄ«Ġ chÇĶ
ĠjÃ¹Ġ lÃŃ
Ġ xiÃ¡nĠ
sÄģn ĠmÃŃngĠ
jiÄĵĠ duÃłn
ĠluÃ³Ġ mÇİĠ
Ġ 23
wÃ©n ĠdeĠ
ĠshÃŃĠ duÃłnĠ
liÇİngĠ cÃ¬Ġ
cÃ¡iĠ nÃ©ngĠ
ÃłiĠÄĽrĠ lÃ¡nĠ
hÅ«n ĠyÄ«nĠ
dÃłĠ lÃ¹
ĠyÃ¬Ġ yÃºĠ
ĠshÄģnĠ dÅįngĠ
ÄģĠlÄģĠ bÃ³Ġ
Ġ gÇİnĠ
mÃ¹ ĠdeĠ
liÇİng ĠwÃ¨iĠ
bÅį ĠsÄ«Ġ
pÃ¨i ĠyÄ«nĠ
huÃ¬Ġ zhÇİngĠ
jÃ¬ngĠ zhÄĵngĠ
mÇİnĠ zÃºĠ
ĠdiÃłnĠ yÇĲng
ĠĠĠ nÃ¡nĠ
qÄ« ĠwÃ¨iĠ
tou Ġ
ĠdÃ¬Ġ diÇİnĠ
Ġ tÃŃngĠ
Ġ fÄģĠxiÃłnĠ
xÄ«n ĠchÃ©ngĠ
1981 ĠniÃ¡nĠ
zhÃ¨ngĠ jÃ¹Ġ
hÃ¹Ġ liÃ¡nĠ
ĠĠĠ c
liÃ¡n ĠdeĠ
xiÅ« ĠfÃ¹Ġ
ĠbÃ¬ngĠ yÃ³uĠ
zÄģiĠ pÃ©iĠ
lÄģ ĠjÄ«Ġ
kÃło ĠjÃ¬nĠ
1956 ĠniÃ¡nĠ
ĠdÃ¬Ġ dÃłiĠ
ĠlÃ¬Ġ shÃŃĠ
jiÄĽĠ fÃłngĠ
ĠyÃ³u ĠjÄ«Ġ
ĠwÃºĠ fÇİĠ
nÃ¨i ĠzhÃłnĠ
bÅį ĠshÃ¬Ġ
ĠwÃ©iĠ chÃŃ
Ġ xiÄģn
duÃ¬Ġ zhÇİngĠ
fÄģĠ qÇĲ
jÅ«Ġ zhÃ¹ĠzÃłiĠ
zhÃ¨ ĠshÃ¬Ġ
zÇİo ĠzÃłiĠ
Ġ shÇĴu
Ġ bÃłiĠ
bÃ¬ng ĠbÃ¹Ġ
shÇĴuĠ xiÃłngĠ
diÃłnĠ nÇİoĠ
shÄģnĠ qÅ«Ġ
chÅįngĠ tÅ«
zÃºĠqiÃº ĠjÃ¹ĠlÃ¨ĠbÃ¹Ġ
lÇĲ ĠchÃ©ngĠ
juÃłn Ġ
jiÄģoĠ liÃº
ĠguÃ³ĠwÃ¹Ġ yuÃłnĠ
Ġ liÃ¹Ġ
qÇĲ ĠyuÃ¡nĠ
wÄĽi ĠfÃ¹Ġ
Ġ w
tÃłiĠ yÃ¡ng
cÅ«nĠ luÃ²Ġ
fÅ« ĠdeĠ
ĠshÃ¬Ġ dÃ©ĠguÃ³Ġ
jÄ«Ġ chÇĶ
ĠdÃłĠ lÃ³u
yÃ¡nĠ sÃ¨Ġ
xiÃłngĠ zhÄĵngĠ
ĠwÃ©iĠ sÄ«Ġ
tiÄģnĠ tÇĲĠ
dÅįu ĠbÃ¨iĠ
1960 ĠniÃ¡nĠ
ĠbÃ¹Ġ bÄ«ngĠ
ĠyÇĶĠ yÃ¡n
ĠĠĠdÃ¬Ġ Ã¨rĠ
Ġ 2004ĠniÃ¡nĠ
liÃ¹ ĠshÃŃĠ
ĠzhÃ¬Ġ liÃłngĠ
ĠzhÅįuĠ fÇĶĠ
lÃ¡ng ĠzhÅįngĠ
ĠyÄ«Ġ yuÃłn
ĠxÃŃngĠ mÃ¹Ġ
chÃ¡ngĠ dÃ¹Ġ
xÃ¬ng ĠhÃ©Ġ
1920 ĠniÃ¡nĠ
ĠyÇĲĠ wÃłiĠ
luÃ²Ġ fÃ¡
ĠzhÃ¬Ġ dÃ¬Ġ
ĠyÇĶĠ yÄ«Ġ
shÄ«Ġ qÃ¹
wÃºĠzhÃ¨ngĠzhuÃłngĠgÇİnĠrÇİnĠ zhÄĽĠ
zuÃ¬ ĠchÅ«
liÃłng ĠwÃ¨iĠ
mÇĶ ĠdeĠ
ĠdÃ© ĠsÄ«Ġ
Ġ 2020ĠniÃ¡nĠ
ch Ġ
1964 ĠniÃ¡nĠ
xiÄĽ ĠzuÃ²Ġ
mÃ¨ng ĠjiÄģĠ
Ġ xÄ«ng
fÃ¹ ĠhÃ©Ġ
te ĠĠĠ
tÃ¨Ġ xÃ¬ngĠ
ĠwÃ¨iĠyÃºĠ mÄĽiĠguÃ³Ġ
jiÇİ ĠdÃ¬Ġ
ÃłoĠ mÃ©n
ĠzuÃ¬ ĠjiÄģĠ
2 ĠgÃ¨Ġ
Ġ dÄ«ngĠ
zhÃŃĠyÃ¨Ġ shÄĵngĠyÃ¡Ġ
fÃº ĠlÃ¬Ġ
ĠxiÃłn ĠjÃŃĠ
ĠĠĠ 2008
suÇĴ ĠdeĠ
suÇĴ ĠwÃ¨iĠ
juÃ© ĠshÃ¬Ġ
zhuÃłn ĠdeĠ
f Ġ
zÅįng ĠyÃ¬Ġ
zÃ¬Ġ mÇĶĠ
lÃŃngĠ chÃ©nĠ
tÃ²u ĠlÃ¹Ġ
dÅįngĠ bÄĽi
Ġ bÇİo
Ġ yÃ¬ĠshÃ¬Ġ
chuÃ¡ng Ġ
1948 ĠniÃ¡nĠ
ÇĴu ĠxiÃłngĠ
kÇİo ĠshÃ¬Ġ
ĠfÃº ĠjiÃłnĠ
ĠĠĠ gÃ¨ĠrÃ©nĠ
zÇĴng ĠrÃ©nĠkÇĴuĠ
ĠdÃ¬Ġ fÄģng
ĠxiÃłn ĠchÃ©ngĠ
ĠlÇĲĠ kÃ¨Ġ
Ġ zÃ¡ĠzhÃ¬Ġ
ĠdÃ©Ġ lÄģĠ
kÅįngĠ qÃ¬Ġ
Ġ gÄĵnĠ
Ġ nuÃ²Ġ
pÃŃng ĠdeĠ
nÃł ĠdeĠ
zuÃ²Ġ wÃ©i
zhÇĶĠ zhÄģngĠ
xÄ« ĠhÃ©Ġ
xÄ«Ġ nÃ¡nĠ
Ġ 50
huÃŃ ĠyÃ¬Ġ
fÃ©n Ġ
1975 ĠniÃ¡nĠ
ĠyÇĲ ĠzÃłiĠ
ĠyÄĽĠ kÄĽĠyÇĲĠ
pÃºĠtÃ¡oĠ yÃ¡Ġ
si Ġ
ĠzuÃ²Ġ zhÃłnĠ
xÃºnĠ zhÇİo
qÄ« ĠshÃŃĠ
zÇĴu ĠxiÃłngĠ
1952 ĠniÃ¡nĠ
Ġ cÄģnĠyÃ¹Ġ
nÃ¡n ĠdeĠ
ĠchÃ©ngĠ kÃ¨Ġ
sÅ«Ġ gÃ©ĠlÃ¡nĠ
Ġ tÃłi
chÄĵ ĠduÃ¬Ġ
ĠÄĽr ĠshÃ¬Ġ
wÇĶ ĠshÃ¬Ġ
hÃ¹ ĠbÃ¹Ġ
ĠdÃ¬Ġ tÃºĠ
ĠyuÃ¡nĠ bÄĽn
ĠchÅ« ĠdÃłoĠ
yÃ¬nĠ nÃŃĠ
Ġ 2007
Ġ 35
Ġ yÃŃĠgÃ¨
Ġ sÅ«nĠ
Ġ 2021ĠniÃ¡nĠ
gÇĶ ĠlÃ¬Ġ
luÃ² ĠchÃ©ngĠ
shÅįu ĠdÃłoĠ
wÇİ ĠÄĽrĠshÄĽngĠ
shÇĲĠ shÃłngĠ
shÇĴuĠ dÅ«
xÃ¬nĠ yÇİng
Ġ kÃ¹Ġ
ĠĠĠ Ma
ĠĠĠ rÃ©nĠ
guÃ² ĠleĠ
guÇİn ĠzhÃ¬Ġ
ĠgÅįngĠ lÇĲĠdeĠ
zhÇĶĠyÃ¬Ġ zhÄĽĠ
ĠwÃ¨iĠ yuÃ¡nĠ
ĠyÇĲ ĠyÃºĠ
guÃ²Ġ dÃ¹Ġ
guÇİngĠ chÇİng
ĠshÃŃĠyÃłn ĠshÃ¬Ġ
yÃ¡n ĠrÃ©nĠ
xiÇİn ĠzhÃ¹Ġ
guÃ³Ġ wÃ¹Ġ
ĠsÄ«ĠlÃ¬ng ĠbÃ¹Ġ
xÄ« ĠdÃ¬Ġ
shÃłng ĠxiÃłnĠ
shÇĲ ĠrÃ©nĠ
dÃ¹ ĠhÃ©Ġ
jiÄģng ĠyÃºĠ
bÃ¬ ĠdeĠ
mÃłi ĠkÃ¨Ġ
ĠdÃ¬Ġ liÃ¹Ġ
zhuÄģnĠ yÃ¨
wÃłngĠ yuÇİnĠ
ĠĠĠ 10
xiÅ« ĠdÃłoĠ
ĠdÃłĠ gÅįngĠ
gÃ©Ġ lÃŃĠ
ĠfÃ¹Ġ jÃ¬nĠdeĠ
ĠĠĠ Co
yÃ¡n ĠzhÃ¬Ġ
sÃ¬ ĠdeĠ
bÃ¨iĠ chÄĵngĠwÃ©iĠ
shÃłoĠ nÇļĠ
re Ġ
dÅįngĠ jÄ«ng
yÃº ĠhÃ©Ġ
xiÄģngĠ guÄģnĠdeĠ
dÄĽngĠ dÄĽngĠ
fÇİnĠ huÃŃ
4 ĠgÃ¨Ġ
ĠĠĠ Re
dÃ¬ ĠhÃ©Ġ
fÃłng ĠzÃłiĠ
ba Ġ
ĠjÃŃĠ shÇĲĠ
jiÄģnĠ yÃ¹Ġ
miÇİnĠ fÃ¨iĠ
jiÇİo ĠdÃ¹Ġ
zuÇĴ ĠyÃ¬Ġ
ĠchÃ©ngĠ bÄĽnĠ
wÃ©iĠ zhÇĶĠ
ĠxÃŃngĠ dÃ²ng
gÇİiĠ shÃłnĠ
cÇİiĠ qÇĶ
guÇİnĠlÇĲĠ jÃºĠ
Ġ zhÄĵn
tÃ¡iĠbÄĽi ĠshÃ¬Ġ
Ġ 29
Ġ dÇİngĠ
ĠyuÃ¨Ġ duÃ¬Ġ
ĠjÅ«nĠ qÅ«Ġ
bÃ¬Ġ miÇİn
kÅįngĠ jiÄģn
xÃŃngĠ tÃłiĠ
ĠĠĠ dÄģngĠ
Ãło ĠÄĽrĠ
shÃ¨ ĠbÃ¨iĠ
xiÄģng ĠshÃ¬Ġ
kÇİ ĠsÄ«Ġ
jiÃłĠ shÇĲĠ
cÇİiĠ fÇİng
fÃ¨iĠ chÃºĠ
Ã¡ Ġ
shÄģn ĠxiÃłnĠ
ĠÃ©rĠ fÄĵiĠ
luÃ²Ġ shÄģnĠjÄ«Ġ
Ġ 25
shÃłng ĠdÃ¬Ġ
huÃłi Ġ
xÄ«Ġ bÄĽiĠ
hÄĽnĠ kuÃłiĠ
zhÃ¨ngĠfÇĶ ĠdeĠ
ĠĠĠ 2009
dÇİo ĠshÃłngĠ
ĠzÃłiĠ hÃ©Ġ
ĠkÃ¨ ĠÄĽrĠ
ĠshÃ¨ ĠyÃºĠ
Ġ 27
cÇĲ ĠtÃ³ngĠshÃŃĠ
hÃºn Ġ
Ġ 2002ĠniÃ¡nĠ
kÄģi ĠgÅįngĠ
tÅįng ĠzhÄ«Ġ
lÇĲĠ lÃ¹n
bÅįĠ lÃŃĠ
Ġ fÃ¨ngĠ
Ġ kÇİiĠ
cÃŃĠ zhÃŃĠ
ĠĠĠ sÄ«Ġ
jiÃ¹ ĠyuÃ¡nĠ
Ġ shÃ©n
Ġ cÃłi
cÃŃ ĠdeĠ
ĠdÃ¬ĠyÄ«Ġ cÃ¬
Ġ pÇĶ
ĠĠĠ zhÃ¨ngĠ
hÃ© ĠzÃłiĠ
yÄĽ ĠhuÃ¬Ġ
wÃ¡ Ġ
ĠzhÄ« ĠshÃ¬Ġ
hÇİiĠ Ãłn
Ã©ĠluÃ³Ġ sÄ«ĠdeĠ
Ġ yÇĴng
Ġ suÅįĠ
kÇĴu ĠdeĠ
ĠyÃ¬Ġ jiÃłnĠ
Ġ xiÃ¨
ĠwÃ¨iĠ zÃłiĠ
shÃ©nĠ me
Ġ diÃłoĠ
zhÄĵng ĠyuÃ¨Ġ
tÃ¬ ĠdÃłiĠ
ĠrÃ©nĠ dÃłĠ
chÃ¹Ġ zhÇİngĠ
Ġ xiÇİoĠshÃŃĠ
jiÇĶ ĠdeĠ
jÇĲn ĠyÇĴuĠ
qiÃ¡ng ĠzhÃ¬Ġ
ĠshÃŃĠ xiÃłn
jiÄģnĠ dÅ«Ġ
yÇĲnĠ yÃ²ngĠ
yÇĲng ĠshÃ¬Ġ
tÃŃĠchÅ«Ġ leĠ
wÃłiĠjiÄģo ĠbÃ¹Ġ
Ġ bÇİnĠ
xuÃ© ĠzhÅįngĠ
qiÃ¡ng ĠdeĠ
ĠgÃ¨ ĠguÃ³Ġ
mÃŃnĠzhÇĶĠ dÇİng
Ġ chÅįngĠ
shÄģn ĠdÃ¬Ġ
1966 ĠniÃ¡nĠ
jÃ¬Ġ suÃłn
fÄĵng ĠfÃ¹Ġ
th Ġ
ĠĠĠ bÄģĠ
sÄ« ĠshÃ¬Ġ
nuÃ³ ĠwÄĵi
1937 ĠniÃ¡nĠ
ĠzhÇĶĠ yÇİnĠ
xÇĲĠ huÄģnĠ
ĠĠĠ gÃ¹ĠshÃ¬Ġ
cÃ©ng ĠyÃºĠ
ĠsÄ«Ġ mÇİĠ
ĠhÃło ĠxiÃłn
Ġ kÇĴuĠ
ĠgÃ¨Ġ zhÇĴng
zhÇİngĠ guÄģnĠ
zÅįngĠ jiÃło
xiÇİoĠxÃŃngĠ xÄ«ng
Ġ kÇİi
tiÄģn ĠhÃ²uĠ
ĠshÃŃĠ hÃ²uĠ
mÃ²ĠxÄ«Ġ gÄĵ
Ã© ĠguÃ³Ġ
1974 ĠniÃ¡nĠ
ĠyÇĴuĠ xiÄĵ
pÇĶĠ biÃłn
ĠfÄĵnĠ biÃ©Ġ
bÃ¹ĠdeĠ cÅ«nĠzhuÄģngĠ
ĠĠĠyÇĲĠ xiÃł
Ġ juÃ©ĠdÃ¬ngĠ
ĠĠĠ yuÃ¨Ġ
guÇİn ĠdeĠ
lÃŃ ĠmÇĲĠ
zÃłn ĠzhÃ¹Ġ
fÄģĠ dÃ²ngĠjÄ«Ġ
cÃ¨Ġ liÃ¡ngĠ
yÃ¬nĠ shuÄģ
Ġ mÃ¬Ġ
cÃ¹ ĠjÃ¬nĠ
ĠyuÃ¨Ġ lÃ¡iĠyuÃ¨Ġ
liÃºĠ yÃ¹Ġ
liÃ¨Ġ rÃ¹Ġ
kÃ²u Ġ
gÇĶĠ lÇİo
ÄģĠ gÄĵnĠ
mÇİĠlÃ¡i ĠxÄ«ĠyÃł
tÄģ ĠzÃłiĠ
jiÃłng ĠyÇĶĠ
liÇİo ĠjiÄĽĠ
jiÄģĠ tÃŃngĠ
chÄĵĠ xiÄģngĠ
Ġ xÃ¹Ġ
ĠĠĠ wÃ©iĠ
fÃ¹ ĠshÃ¬Ġ
liÃ¨ ĠchÅ«Ġ
ĠdeĠ jÃ¹Ġ
ĠchÃ©ngĠ xiÃłn
ĠzhÄ« ĠdÃ¬Ġ
jÄ«ngĠ diÇİnĠ
ĠdÃłnĠ bÃ¡iĠ
tÃŃngĠ chÄĵĠ
Ġ fÇİ
yÄ«ng ĠlÇĲĠ
yÇĶn ĠshÃŃĠ
1946 ĠniÃ¡nĠ
ĠxiÃłnĠ shÃłngĠ
qiÃ¡ngĠ dÃ¹Ġ
chuÃłngĠ zuÃ²ĠdeĠ
Ġ lÃ©i
sÅ« ĠwÃ©iĠ
guÃłn ĠjÅ«n
ĠbÃ¹Ġ shÇİo
ĠzhÄ« ĠjiÄģĠ
cÄģnĠ xuÇİnĠ
Ġ chuÄģnĠ
ĠĠĠ fÃ¹Ġ
ĠkÃ¨ ĠhÃ©Ġ
bÃ¬Ġ miÇİnĠ
Ġ Q
shu ÃŃ
tÃ³ngĠ xÃ¬ngĠ
Ġ sÃ¨Ġ
zÇİo ĠshÃłngĠ
1955 ĠniÃ¡nĠ
zhÇĶĠ tÃŃ
ĠxiÄģngĠ dÄģng
cÃ¡iĠ liÃło
sÄĵnĠ lÃŃn
ĠfÃ¹ĠzÃ©Ġ guÇİnĠxiÃ¡Ġ
Ġ ì
ĠĠĠ de
lÄģ ĠdeĠ
mÃŃngĠ dÄģnĠ
zhÃłnĠ tÃ¡iĠ
guÃ³ ĠshÃ¬Ġ
hÅ« ĠyÃ¹Ġ
ĠgÅįngĠ yÃ¬ngĠ
jiÄģnĠ rÃ¨nĠ
bÃ³Ġ lÃŃnĠ
xuÇİnĠjÇĶ ĠzhÅįngĠ
Ġ tiÃ¡oĠ
ĠyÄ«Ġ zhÃŃĠ
guÄģnĠ fÄģng
suÇĴĠ yÇĴuĠdeĠ
jÇĲngĠ gÃłoĠ
jiÃłnĠ zhÃ¹
dÄ«Ġ qÃ¬Ġ
xiÃł ĠzÃłiĠ
ĠĠĠzÄĵngĠ zÇĶĠ
Ġ kÇİoĠ
hÃ¡i ĠzÃłiĠ
1954 ĠniÃ¡nĠ
nÃ¡nĠ zi
zhÃłoĠ piÄģnĠ
tÇĲĠyÃ¹Ġ chÇİngĠ
guÇİng ĠzhÅįu
sÄģo Ġ
liÃ¡nĠ jiÄĵ
diÃłnĠshÃ¬Ġ tÃ¡i
lÄģ ĠdÃ©Ġ
shÅ« ĠchÅ«Ġ
ĠgÅįngĠ nÃ©ng
yÇĲnĠ rÃ¹Ġ
lÃ¡n ĠxÄ«Ġ
dÃ¹n ĠdeĠ
ĠbÃ¹Ġ mÇİnĠ
ĠqiÃº ĠdeĠ
yÃŃnĠ pÃ¡iĠ
yÃ¡oĠ gÇĶn
cÃ©ng ĠdeĠ
nÃ¬ Ġ
ĠÃ©rĠgÄģiĠ dÃ¬ĠdeĠ
nuÃ³ ĠwÄĵiĠ
guÃ³Ġ wÃ¡ngĠ
ĠyÇĶĠ qÃŃĠ
qÄ«Ġ zÇĲ
ÄģnĠ zhuÄģngĠ
Ġ pÃłĠ
xÃ¹ ĠlÃ¬ĠyÃł
shÄĵnĠ qÇĲng
zÇİoĠ qÄ«ĠdeĠ
shÃŃ ĠhÃ©Ġ
zhÃłn ĠdÃ¬Ġ
tÃº ĠdeĠ
mÇĴuĠ xiÄĵ
fÄĵi ĠxÃŃng
ĠjÃ¬Ġ lÃ¹
ĠchÅ«Ġ yÇİnĠ
Ġ t
Ġ nÇĲ
zhÄ« ĠshÃŃĠ
qiÃº ĠhuÃ¬Ġ
ĠbÃ¨iĠ ÄĽr
Ġ000 Ġ
zhÃłn ĠshÃŃĠ
zÄģo ĠyÃ¹Ġ
ĠwÃ¨iĠ nÃ©ng
xiÃłĠ lÃ¡iĠ
Ġ zÃº
niÃ¡ng Ġ
ĠhÃ©Ġ gÇĶĠ
ĠchÃ©ngĠ leĠ
ĠyÇĲĠ qiÃ¡nĠ
ĠjÃ¬Ġ yÃ¬Ġ
ĠkÃ¨ ĠlÃ¬Ġ
fÄģĠ shÄĵngĠdeĠ
shÄ«Ġ qÃ¹Ġ
gÇĶĠ lÄģĠ
Ġ shÃ¹n
qiÃ¡n ĠhÃ²uĠ
tÃ¨ ĠlÃ¬Ġ
zÇĶ ĠdeĠ
biÄģn ĠyuÃ¡nĠ
mÃ² ĠÄĽrĠ
zhÅįngĠ yÄģngĠ
ĠjiÄģĠ tÃŃng
ĠxiÄģngĠ tÃ³ngĠ
xÄ«ngĠ qÄ«
yÅįuĠ xiÃ¹
ĠyÇĲĠsÃ¨Ġ liÃ¨Ġ
duÃ¬ ĠyuÃ¡nĠ
ĠshÃŃĠ bÃłoĠ
Ġ Re
Ġ zÃºĠ
shÄģnĠdÅįngĠ shÄĽngĠ
ĠzhÄģo ĠhÃ©Ġ
1 ĠgÃ¨Ġ
ch ÇĴng
ĠduÃ¬Ġ cÇĲĠ
tÃłiĠ kÅįngĠ
ĠĠĠgÃłiĠ yÃłoĠ
Ġ 2006
sÄģn ĠdÃłĠ
mÇĲ ĠdeĠ
ĠzÃ¬Ġ yÃ³u
Ġ 2000ĠniÃ¡nĠ
bÇİo ĠdeĠ
ĠjÅ«n ĠdÃ¬Ġ
ĠshÄĵngĠ mÃŃngĠ
ĠzhÇĲ ĠzÃłiĠ
Ġ z
Ġ qÇĲngĠ
zhÃł ĠdÃłnĠ
huÃŃĠ guÄ«Ġ
wÇİng ĠshÃłngĠ
tÇİ ĠÄĽrĠ
ĠdÃ¬Ġ zhÃ¨nĠ
xiÃłĠ jiÃłngĠ
lÇĲngĠ dÇİoĠdeĠ
yÃ¡nĠjiÅ« ĠshÄĵngĠ
Ġ jiÄĵ
tÃ¨ ĠÄĽrĠ
zhÄģi Ġ
ĠxiÃłn ĠyÇĴuĠ
ĠyuÃ¡nĠ yÄ«n
Ġ sÃ²ng
wÅ« ĠsÄ«Ġ
hÇİo ĠpÃŃngĠ
is ĠĠĠ
ĠdeĠ zhÇĶĠyÃłoĠ
ĠzhÅįngĠ jiÄģnĠ
pÇĶĠ chÃ¡Ġ
Ġ yÃ¨
duÅįĠ cÃ¬
qÄ«nĠ wÃ¡ngĠ
ĠB Ġ
Ġ fÇĴu
ĠniÃ¡nĠ qÄ«ngĠ
Ġ wÃłi
Ġ In
tÃ³ng ĠmÃŃngĠ
tÃ¨ ĠyÇĴuĠ
biÄģn ĠwÃ¨iĠ
bÃ³Ġ juÃ©Ġ
ĠwÄĵiĠ liÃ¡nĠ
30 ĠniÃ¡nĠ
nÃ¹ Ġ
ĠjÃŃĠ bÃ¬ngĠ
ĠxÃŃng ĠbÃ¹Ġ
kuÃłiĠ sÃ¹
zÃłnĠ tÃŃngĠ
shÄ« ĠgÅįngĠ
dÄģng ĠniÃ¡nĠ
dÃ¡ ĠzhÅįuĠ
cÃºn ĠdeĠ
Ġ mÃ³
Ġ guÇİnĠ
Ġ bÇİĠ
Ġ guÇİngĠdÅįngĠ
qÃŃng ĠdeĠ
ĠshÃ¬Ġ yÄ«ĠbÃ¹Ġ
ĠxÄ«nĠ zÄĵngĠ
gÇİiĠ zhÃ¬ĠwÃ¨iĠ
ĠĠĠdÃ¬Ġ yÄ«Ġ
gÇİng ĠyuÃ¡nĠ
fÃ¨iĠ yÃ¡nĠ
Ġ 40
Ġ xiÄģnĠhÃ²uĠ
fÄĽn ĠsÄ«Ġ
zhÇĲĠ kÃ²ngĠ
chÄĵĠ liÃłng
mÃ¬ ĠdeĠ
Ġ X
shÄĵn ĠshÃ¬Ġ
pÃ¨i ĠbÃ¨iĠ
yÇĲngĠ xiÃłngĠ
ĠshÇĴuĠ cÃ¬Ġ
xÅ«n Ġ
zhuÃ¬ Ġ
fÄģngĠ mÇĲĠ
Ġ cÃ¡i
sÄģn ĠrÃ©nĠ
sÄģn ĠgÃ¨
100 Ġ
ĠdeĠ huÃłĠ
dÃłĠ qÅ«Ġ
shÄĽngĠ jiÄĵĠrÇİngĠ
ĠzÃ¬Ġ dÃ²ngĠ
zhÄĽ ĠhÃ©Ġ
bÄĵng Ġ
tÃ¨Ġ zhÄĵng
cÄģnĠ shÃ¹Ġ
ĠzuÃ¬ ĠdÃłĠ
ruÃ¬Ġ diÇİnĠ
Ġ 45
wÇĶ ĠgÃ¨Ġ
ĠzhÃ¨Ġ yÃłngĠ
ĠjÃ¬nĠ zhÇĲĠ
tuÄ«Ġ guÇİngĠ
ĠmÃłi ĠkÃ¨Ġ
lÃ¹ĠyÃ¬Ġ sÄ«Ġ
yÃ³u ĠxÃŃngĠ
ĠbÃ¹Ġ yÄ«Ġ
ĠpÃŃngĠ lÃ¹nĠ
jÃ¬ngĠnÃ¨iĠ gÃ²ngĠyÇĴuĠ
ĠĠĠ jÄ«nĠ
sÃ¬ ĠshÃ¬Ġ
tÃłi ĠdeĠ
Ã¨ng Ġ
1947 ĠniÃ¡nĠ
YouTu be
zhÇİnĠ lÇİnĠ
Ġ guÅį
shÃ¨ng ĠchÅ«Ġ
ĠshÃ¨ĠhuÃ¬Ġ zhÇĶĠyÃ¬Ġ
zhÄĽ ĠhuÃ¬Ġ
ĠshÃ¬ĠyÄ«Ġ kÄĵĠ
ĠjiÃ©Ġ shÃ¹Ġ
ĠshuÄģngĠ fÄģngĠ
ĠzÃłiĠyÃ¬Ġ qÇĲĠ
Ġ cÇİiĠyÃ²ngĠ
lÄģ ĠhÃ©Ġ
huÃŃ ĠguÃ³Ġ
huÄģng Ġ
ĠbÃ¹Ġ lÃ¡iĠ
ĠshÃŃĠ xÃ¬ngĠ
xÄ«nĠ wÃ©n
bÇİoĠ luÃ³Ġ
jÃ¬ngĠ zhÄĵng
lÇľĠ sÃ¨Ġ
Ġ 200
ĠĠĠ 16
ĠjÃŃĠ hÃ²uĠ
ĠjÃ¬Ġ zÇİi
ĠxÄ«Ġ ÄĽrĠ
ĠjiÄģngĠ sÅ«Ġ
wÃºĠxiÃłnĠ diÃłnĠshÃ¬Ġ
20 ĠniÃ¡nĠ
50 ĠniÃ¡nĠ
ĠzÃłiĠ 18
ĠdÃ¬Ġ zhÃ¬Ġ
ĠzhÃ¬Ġ yÃŃĠ
fÃ¨iĠ yÃ²ngĠ
yÃ¬ng ĠjÃŃĠ
ĠbÃ¨iĠ pÃ²Ġ
dÃ¹Ġ shÇĲĠ
chÇİnĠshÄĵngĠ leĠ
ĠĠĠ 2019ĠniÃ¡nĠ
mÇİ ĠkÃ¨ĠsÄ«Ġ
1973 ĠniÃ¡nĠ
ĠguÃ³ĠjiÄģĠ duÃ¬Ġ
tiÄĽĠlÃ¹Ġ chÄĵĠzhÃłnĠ
ĠdÃ²ngĠ wÃ¹Ġ
Ġ shÃłnĠ
chuÃłngĠ zÃłoĠ
Ġ Ï
Ġ hÃºĠnÃ¡nĠ
kÅ« Ġ
ĠgÅįngĠ qÇĲngĠ
ĠjiÄģĠ zÃº
Ġ mÃ¡oĠ
wÃ¡ng ĠwÃ¨iĠ
tuÄ« ĠjiÃłnĠ
1971 ĠniÃ¡nĠ
liÃ¡nĠ rÃ¨nĠ
zhÇİngĠ zÇĲĠ
yÄ«ngĠ chÇĲĠ
sÄģn ĠjÃŃĠ
lÃ¨i ĠxÃŃngĠdeĠ
ĠtÄģĠ cÃ©ngĠ
bÄĽiĠ fÄģngĠ
ĠniÃ¡nĠ lÃŃngĠ
ĠgÅįngĠ gÃ²ng
ĠdÃłĠ dÃło
fÃºĠ luÃ³ĠlÇĲĠ
fÃ¡ngĠ wÅ«Ġ
nÃ³ngĠ cÅ«nĠ
ĠshÃ¬ĠzhÅįngĠ huÃ¡ĠrÃ©nĠmÃŃnĠgÃ²ngĠhÃ©ĠguÃ³Ġ
ĠcÃ©ngĠ rÃ¨n
yÇĲngĠxiÇİng ĠlÃ¬Ġ
ĠdeĠzuÃ²Ġ biÄģoĠwÃ¨iĠ
chÅįng ĠjÄ«Ġ
ĠshÃ¬Ġ huÃ¬Ġ
qÃºnĠ dÇİo
Ġ 2022ĠniÃ¡nĠ
ĠzÃłiĠ xÄ«nĠ
tÃ¨Ġ diÇİnĠ
tiÄģnĠ rÃ¡nĠ
qÄ«ngĠ chÃ¡oĠ
chÅ«Ġ qÄ«Ġ
gÃ¹Ġ dÃ¬ngĠ
ĠĠĠjiÄģĠ tÃŃngĠ
l ĠĠĠ
sÇĲ ĠyÃºĠ
ĠzÃłiĠ tÄģĠdeĠ
shÃ¨Ġ huÃ¬
Ġ kÄĽĠnÃ©ngĠ
jÃŃ ĠbÃ¹Ġ
shÄĵng ĠzhÃ¬Ġ
cÃ³ng ĠwÃ¨iĠ
biÇİn Ġ
lÃ²u Ġ
fÃ¹Ġ jÃ¬n
fÄģngĠ xiÃłng
tÃ¨Ġ lÄģĠ
jÃ¬ngĠ nÃ¨i
gÃ¨ngĠ duÅįĠdeĠ
xÄ«n ĠshÃ¬Ġ
1977 ĠniÃ¡nĠ
ĠyÄ«Ġ rÃ©nĠ
ĠdÃło ĠhÃ©Ġ
gÄģoĠ dÃ¡Ġ
Ġ shÄĽnĠ
ĠĠĠ 0
ĠshÃŃĠ zhÃ¬Ġ
ĠdÃło ĠyÄ«Ġ
qÃ¬Ġ xuÃ¡nĠ
Ġse ctionĠĠĠ
Ġ chÇĶĠ
lÇľ ĠdeĠ
bÄģn ĠdeĠ
qÇĶĠ xiÄģo
Ġ nÇİi
Ġ xÇĶĠduÅį
dÄĽng ĠdeĠ
xuÇİn ĠchÅ«Ġ
yÃŃ ĠdÃłoĠ
shÃ²u ĠquÃ¡nĠ
zhÃ³u Ġ
zhÅįngĠ yÄģng
shÄĵngĠ jÄ«Ġ
guÄģnĠ cÃ¨Ġ
ĠyÄĽ ĠbÃ¹Ġ
qÄ«ngĠ shÃłoĠniÃ¡nĠ
wÃ¡nĠ zhÄĽngĠ
ĠĠĠ shÇĲĠyÃ²ngĠ
ĠshÃ¬Ġ jÃ¬ĠdeĠ
ĠyÇĴuĠ dÃłĠ
Ġ fÇĶĠ
jiÄģ ĠgÅįngĠ
luÃ² ĠsÄ«Ġ
ĠshÃ¬Ġ yÃ³u
fÃ¹Ġ jÃ¬nĠdeĠ
mÄĽiĠguÃ³Ġ rÃ©nĠ
zhÃłngĠ fÅ«Ġ
xuÃ© ĠbÃ¹Ġ
tiÄĵ Ġ
pÃ¹ Ġ
ĠyÇĴuĠ zhÃ¹Ġ
yÃ¬ ĠbÃ¹Ġ
shÇĲ ĠyÃºĠ
en ĠĠĠ
guÃ³Ġ huÃ¬Ġ
xÄ«Ġ bÄĽiĠbÃ¹Ġ
ĠtÄģĠ rÃ¨nĠwÃ©iĠ
mÃ¹Ġ nÃŃĠ
ĠtÃ³ngĠ pÃ¡iĠ
ĠzhÇĲ ĠshÃ¬Ġ
kuÃ²Ġ zhÇİn
Ġ hÃ¨
sÇĲ ĠxÃŃngĠ
qÃ¬ng ĠzhÃ¹Ġ
zhÃłnĠ lÇĲng
liÃ¡nĠ jiÃ©Ġ
ĠtÃ³ngĠ yÃłngĠ
ĠĠĠgÄĵnĠjÃ¹Ġ 2020ĠniÃ¡nĠmÄĽiĠguÃ³ĠrÃ©nĠkÇĴuĠpÇĶĠchÃ¡ĠdeĠshÃ¹ĠjÃ¹Ġ
bÃ¬ng ĠwÃ¨iĠ
zuÃ¬ ĠwÃ¨iĠ
hÇİi ĠshÃłngĠ
rÃ©ng ĠzÃłiĠ
ĠdeĠ gÃ¹ĠshÃ¬Ġ
guÃ³Ġ lÃ¬Ġ
fÄĵnĠ pÃ¨iĠ
huÃ¡ngĠ sÃ¨Ġ
xiÄģoĠ liÃłngĠ
zhuÄģnĠ mÃ©nĠ
zÄĵngĠjiÄģĠ leĠ
k ĠĠĠ
â Ĩ
Ġ 2024
guÃ² ĠyÃºĠ
ĠzÃłiĠ tÄģĠ
xiÃ©Ġ dÃ¬ngĠ
shÃłngĠhÇİi ĠshÃ¬Ġ
quÃ¡n ĠdeĠ
sÃ¬ ĠdÃłĠ
zÇĴng ĠhuÃ¬Ġ
huÃŃ ĠhÃ©Ġ
lÇİo ĠshÄ«Ġ
ĠyÄ«Ġ zhÃ¬Ġ
ĠchÅ«Ġ fÄģĠ
sÃ¨Ġ fÅ«Ġ
ĠS Ġ
xiÄģng ĠjÃ¬Ġ
qiÃ¨ ĠÄĽrĠ
jÄ«ngĠ jÃ¬
bÄģnĠ jiÇİngĠ
fÃ¡ng ĠwÃ¨iĠ
v Ġ
Ġ Jo
Ġ 9Ġ
Ġ qiÅ«Ġ
Ġ 2003ĠniÃ¡nĠ
ĠlÃ¬Ġ shÇĶĠ
ĠbÃ¬ngĠ rÃ¹Ġ
dÄĵngĠ chÃ¡ngĠ
Ġ xÃŃĠ
Ġ tiÄĽĠ
xÃ¬ng ĠshÃ¬Ġ
ck Ġ
duÃ¬Ġ shÇĴuĠ
cÄģnĠ sÃłi
ĠdeĠjÃ¬Ġ lÃ¹Ġ
ĠjÃŃĠ xÃŃngĠzhÃ¨ngĠ
ĠlÃ¬Ġ ziĠ
ĠyÄĽ ĠhuÃ¬Ġ
ĠÄģĠ lÄģĠ
Ãłi ĠdeĠ
piÃłn ĠdeĠ
ĠyÇĲ ĠzhÃ¬Ġ
jiÇİngĠ shÃ¹Ġ
lÃ¡iĠzÃ¬ ĠyÃºĠ
Ġ SA
fÃº ĠlÇĲĠ
dÄģn ĠyuÃ¡nĠ
mÄģ Ġ
zhÃŃĠ yÃ¨
zhÃłoĠ kÄģi
Ġ000 ĠrÃ©nĠ
Ġ bÄģoĠhÃ¡nĠ
fÃ¹ ĠjiÄģĠ
yÄ«Ġ xiÄĵĠ
hÇİiĠ bÃ¡ĠgÄģoĠ
shuÄģngĠ dÇİĠ
Ġ han
qÃ¬ ĠhÃ©Ġ
xÃ¬ngĠ nÃ©ngĠ
cÃºnĠ zÃłiĠdeĠ
zhuÃłng ĠjÄ«Ġ
ĠjiÃłnĠ kÄģngĠ
nÃłĠ cuÃ¬
ĠxiÄģngĠ duÃ¬Ġ
g ÄĽng
Ġ kÃ¹
Ġ fÄģĠxÃŃngĠ
hÃ© ĠwÃ¨iĠ
shÄĽng ĠdÃłoĠ
lÃ¡o ĠgÅįngĠ
tuÃ³ Ġ
xÄ«Ġ nÃ¡nĠbÃ¹Ġ
ĠkÃ¨Ġ yÃ¹nĠ
mÇİĠ lÄģĠ
gÇİiĠ gÃ©
nÃ¡nĠjÃŃĠ zhÅįuĠdeĠ
Ġ Ãłn
wÄģ Ġ
shÇĴuĠ bÅįĠ
yÄ«ngĠ gÄģi
lÃ¨iĠsÃ¬ ĠdeĠ
mÄĽi ĠjÅ«nĠ
bÄģ ĠÄĽrĠ
chuÃłng ĠxÄ«nĠ
ĠyÇĴuĠ guÄģn
zhÃ¨ngĠ xiÃ©Ġ
ĠtÄģĠ duÃ¬Ġ
shÄģnĠ mÃłiĠ
shÄģĠ sÇĲĠ
ĠsÃ¬Ġ chuÄģnĠ
hÅįngĠzhÃł ĠjÄ«Ġ
ĠĠĠrÃ¡n ĠÃ©rĠ
Ġhan tĠ
lÇĲ ĠbÃ¹Ġ
chÃ¡ng ĠjiÃłnĠ
chuÃ¡n ĠzhÄ«Ġ
ĠzhÄ«Ġ zhÃłnĠ
ĠxiÇİoĠ shuÅįĠ
Ġ bÃ¡i
yÄ« ĠbÃ¹ĠfÃ¨n
fÄĵi ĠzhÅįu
1962 ĠniÃ¡nĠ
ĠxiÃłn ĠzhÄ«ĠxiÃłnĠ
fÄģĠshÄĵngĠ leĠ
shÇĶĠdeĠ zhÃŃĠwÃ¹Ġ
w Ġ
zhÃŃ ĠzhÃ¬Ġ
diÃłn ĠdeĠ
yÃło ĠdeĠ
II Ġ
yÃ¡nĠ zhÃ²ngĠdeĠ
cÄģnĠ tÄ«ngĠ
ĠlÃ¬ngĠ wÃłi
Ġ Co
ĠĠĠ dÃłn
mÃ¬ ĠsÄ«Ġ
et Ġ
zÃ²ng Ġ
quÇİn Ġ
qiÇİo Ġ
ĠjiÃłn ĠshÃ¬Ġ
suÇĴĠ shÇĶ
zÇĶĠ zhÇĲĠ
ĠĠĠ 2007
xÄ« ĠshÃ¬Ġ
tÃ³u ĠbÃ¹Ġ
duÃ¬Ġ wÇĶĠ
ĠyÃ³uĠ cÇĲĠ
ĠdÅįngĠ jÄ«ngĠ
fÃłngĠ qÃ¬
yÃ¹nĠdÃ²ng ĠdeĠ
W Ġ
ĠĠĠ andĠĠĠ
jiÄģn ĠshÃ¬Ġ
nÃł ĠdÃ©Ġ
fÃ©i Ġ
bÄģngĠ zhÃ¹
Ġ chÄĵĠzhÃłn
ĠĠĠ The
jiÄģng ĠtÄģĠ
jiÃłngĠ dÄ«
ĠshÃ¬ĠyÃ¬Ġ dÃłĠlÃ¬Ġ
huÃ¬ ĠyÇĲĠ
lu ÇĴ
Ġ 60
hÄĵi ĠrÃ©nĠ
jÄ«Ġ bÄĽnĠ
ĠzhÄ«Ġ liÃºĠ
zhÇĶĠ xÃŃ
shuÃłiĠ lÇĲngĠ
tÇĶĠÄĽr ĠqÃŃ
huÃ¬ ĠshÃ¬ĠdÃ¬Ġ
huÃ¡n ĠxÃŃngĠ
ĠzÃłiĠ yÇĶĠ
ĠgÅįngĠ lÃ¹
ĠdÃ© ĠdÃłoĠleĠ
ĠshÃ¨Ġ jÃ¬ĠdeĠ
shÃłng ĠbÃ¹Ġ
bÃ¹Ġ fÃ¨nĠ
nÃ¡Ġ pÃ²Ġ
zhÄĽng ĠgÃ¨
xiÄģngĠ bÇĲĠ
ĠshÃ¬ĠyÄ«Ġ zuÃ²Ġ
zhÅįuĠ biÄģnĠ
xiÃłĠxiÃ¡ ĠyÇĲĠxiÃł
ĠĠĠ 3ĠyuÃ¨Ġ
ĠxiÃłnĠ jÄ«nĠ
hÃ¡ngĠ tiÄģnĠ
qiÄģnĠ yuÄĵĠ
ĠshÃ¬ĠjiÃ¨Ġ bÄĵiĠ
zhÇİng ĠdÃłĠ
luÃ³ ĠdÃ©Ġ
ĠdÃłĠ liÃłng
zÃ¬ ĠwÃ¨iĠ
yÃ¡n ĠshÃŃĠ
ĠlÃ¬Ġ yÃ²ng
yÃŃĠ chÇİn
gÃ© ĠÄĽrĠ
ĠxÃŃngĠ shÇĲĠ
xÄ«n ĠrÃ©nĠ
zhÇĲ ĠdeĠ
zÇĴngĠ cÃ¡iĠ
chuÃ¡nĠ mÃ©iĠ
ĠnÃ¡nĠ ziĠ
chÅ«Ġ shÄĵngĠyÃºĠ
ĠmÇİ ĠlÃ¬Ġ
ĠshÄĵngĠzhÇİng ĠyÃºĠ
m Çİo
cÇĲ ĠshÃŃĠ
ĠgÅįngĠ chÇĲ
ĠqiÃº ĠhuÃ¬Ġ
hÇİiĠbÃ¡ĠgÄģoĠ dÃ¹ĠwÃ¨iĠ
ĠĠĠ 2018ĠniÃ¡nĠ
bÄĽn ĠxiÃłnĠ
zhÄĽ ĠwÃ¨iĠ
nuÃ² ĠyÄ«Ġ
ay Ġ
cÅįng Ġ
ĠjÃŃĠ lÃŃnĠ
xiÄģngĠ tÃ³ngĠdeĠ
ĠzhÅįngĠguÃ³Ġ guÃ³ĠmÃŃnĠ
cÄģnĠyÃ¹Ġ leĠ
Ġ jÇĲĠ
ĠdÃ¬Ġ 1Ġ
yÃłĠ mÃ¹Ġ
ĠzhÃ¨Ġ shÇĴuĠ
guÄģngĠ xÃ¹Ġ
O ĠĠĠ
Ġ zhÃ²ng
jÃ¬ ĠzÃłiĠ
wÇĶ ĠyuÃ¨Ġ
dÄģn ĠyÄ«Ġ
biÃ© ĠdeĠ
1939 ĠniÃ¡nĠ
ĠhÃ©Ġ lÇĲĠ
yÃ³uĠ tÃłiĠrÃ©nĠ
ĠdeĠchÃ©ngĠ zhÃ¨nĠ
lÄģ ĠÄĽrĠ
xÃºn ĠqiÃºĠ
1938 ĠniÃ¡nĠ
ĠbÃ¹Ġ ÄĽrĠ
ĠxÃŃngĠ xiÃłngĠ
ĠwÃ©iĠ chÃŃĠ
yÇĲnĠ zhÇĴngĠ
bÃº ĠyÃłoĠ
Ġ qÃŃnĠ
shÄģng ĠdeĠ
1965 ĠniÃ¡nĠ
ĠbÃ¹Ġ dÃŃĠ
ĠyÃºĠ lÃ¨iĠ
mÄĽiĠ yuÃ¡nĠdeĠ
yÃŃngĠ yÃ¨Ġ
qiÄģnĠ dÃ¬ngĠ
ĠguÄģnĠ fÄģngĠ
Ġ xÅ«ĠyÃłoĠ
Ã© ĠwÃ¨iĠ
ĠĠĠ 5ĠyuÃ¨Ġ
1936 ĠniÃ¡nĠ
ĠzÃłiĠ gÄģiĠ
ĠguÃ³Ġ mÃŃn
jiÄĵĠ rÃ¨nĠ
wÄĽiĠfÃ¹Ġ shÅ«ĠjÃ¬Ġ
Ġ re
wÇĶ ĠdÃ¬Ġ
zhuÅį Ġ
1959 ĠniÃ¡nĠ
sÄ«Ġ lÃ¡nĠ
ĠkÃ¨Ġ lÄģĠ
ĠjiÄģng ĠqÃŃĠ
zhÃŃ ĠyuÃ¡nĠ
ĠyÄ«Ġ liÃ¡oĠ
tÇĲĠ yÃ¹
xiÃłoĠ yÃ¬ngĠ
ĠjiÃłoĠ yÃ¹
Ġ dÅįu
1967 ĠniÃ¡nĠ
ĠyÄ«Ġ cÃŃĠ
ĠqÃŃĠzhÅįngĠ nÃ¡nĠxÃ¬ngĠ
dÇĲĠ kÃłngĠ
ĠliÃºĠ yÃ¹Ġ
gÇĶĠfÃ¨n ĠyÇĴuĠxiÃłnĠgÅįngĠsÄ«Ġ
Ġ Mar
Ġ huÃ¡nĠ
yÃ¹n ĠhÃ©Ġ
gÄĵ ĠdeĠ
huÃ¡i ĠyÃŃĠ
guÄģ Ġ
ĠwÃ¨iĠ cÇĲĠ
ĠdÃ¬Ġ miÃłnĠ
zhÇĲĠ dÃ¬ngĠ
cÃ©ngĠ shuÇĲĠyÃ¹Ġ
rÃ³ngĠ nÃłĠ
zhuÃłnĠdeĠ xiÇİoĠxÃŃngĠxÄ«ngĠ
c ro
u Ġ
Ġ bÃło
ĠhÃ²uĠ qÄ«Ġ
fÇİĠ tÃŃngĠ
ĠkÃ¨Ġ lÃ¡iĠ
jÃ¬ngĠ sÃłiĠ
ĠĠĠ pÃŃngĠjiÃłĠ
yÃ³u ĠqÃŃĠ
gÄĵ ĠjÃ¹Ġ
liÃ¡ng ĠshÃŃĠ
1935 ĠniÃ¡nĠ
ĠshÃ¬Ġ nÃ¨iĠ
yuÃ¨Ġ nÃ¡nĠ
ĠdeĠdÃ¬Ġ Ã¨r
mÃ²ĠsÄ«Ġ kÄĵĠ
yÃ³u ĠrÃ©nĠgÅįngĠ
zhÇİng ĠwÃ¨iĠ
yÃ¡ng ĠxiÃłnĠ
ĠshÃ¬Ġ xÄ«Ġ
ĠyÄ«Ġ zhÄ«Ġ
ĠshÃ¨ ĠjÄ«Ġ
bÄģĠ lÄģĠ
gÇİnĠ lÇİn
ĠjiÃłnĠlÃ¬Ġ leĠ
Ġ lÇĲngĠ
Ġ wÅ«ĠkÃ¨ĠlÃ¡nĠ
chÃ¡o ĠdeĠ
tuÄ« ĠchÅ«ĠdeĠ
ruÇİn ĠtÇĲĠ
Ġ liÇİngĠgÃ¨Ġ
ĠĠĠ chÃºĠleĠ
jiÃło ĠyÃºĠ
mÃ©n ĠdeĠ
ĠshÃŃĠ yÃ²ngĠ
zhÅįngĠ xÄ«nĠ
Ġ shuÇĲ
Ġ sÃº
shÃ¹ ĠshÃ¬Ġ
ĠjiÃłn ĠwÃ¨iĠ
ĠchÃ¡oĠ xiÄģnĠ
ĠÄĽr ĠdÃ©
shuÃ²ĠshÃ¬Ġ xuÃ©ĠwÃ¨iĠ
Ġ qiÄģn
ĠĠĠ s
biÄģn ĠhÃłoĠwÃ¨iĠ
wÃ©iĠ zhÇĲĠ
lÃŃĠ ziĠ
ĠjiÃ©Ġ gÃ²uĠ
huÃ¡ĠshÃ¨ngĠ dÃ¹n
Ġ 11Ġ
ĠĠĠ 3Ġ
zhÄ« ĠyuÃ¡nĠ
gÃ¨ ĠdÃ¬Ġ
ĠhÃ©Ġ jÃŃĠ
ĠzhÃ¬Ġ zÃło
ĠyÄ«Ġ tiÃ¡oĠ
kÄģiĠ zhÇİnĠ
ĠqiÃºĠ chÇİngĠ
qÃºnĠ tÇĲĠ
leĠyÄ«Ġ xiÄĵĠ
ĠgÅįngĠchÃ©ngĠ shÄ«Ġ
Ġ tuÄ«Ġ
Äģ ĠÄĽr
wÃ¹ ĠzhÅįngĠ
mÃ©ng ĠjÅ«nĠ
bÇİi ĠniÃ¡nĠ
luÃ³Ġ bÃ³ĠtÃ¨Ġ
zÇĴngĠ jiÄģnĠ
ĠzÃłiĠdÃ¬Ġ Ã¨rĠ
pÃŃngĠjÅ«nĠ hÇİiĠbÃ¡ĠgÄģoĠdÃ¹ĠwÃ¨iĠ
ĠĠĠ jÄ«ngĠjÃ¬Ġ
zhÃŃ ĠlÃ¬Ġ
bo Ġ
ĠwÃ¨iĠ mÃŃngĠ
ĠwÃ¨iĠyÃºĠ zhÅįngĠhuÃ¡ĠrÃ©nĠmÃŃnĠgÃ²ngĠhÃ©ĠguÃ³Ġ
ĠrÃ©nĠmÃŃnĠ bÃ¬Ġ
dÅ«Ġ dÅ«Ġ
yÃ¡ng ĠgÅįngĠ
bÃłn ĠniÃ¡nĠ
ĠxÄ«Ġ yÇĲnĠ
bÄĽnĠ tÇĶĠ
fÇİĠ lÃ¡nĠ
chuÃ¡nĠ bÅį
jiÇİnĠ dÄģnĠ
zhuÄģngĠ jiÇİ
gÅįngĠ kÄģiĠ
ĠyÇĴuĠ lÃ¬Ġ
ĠtÄģĠ yÄĽ
zhÇİngĠ yuÄĵĠ
jiÄĵĠ shÅįuĠ
miÃłnĠ lÃŃnĠ
huÃłnĠ zhÄĽĠ
ĠtÅįngĠ guÃ²
ĠÃ©rĠgÄģiĠdÃ¬ĠdeĠ pÃŃngĠjÅ«nĠhÇİiĠbÃ¡ĠgÄģoĠdÃ¹ĠwÃ¨iĠ
Ġ r
Ġ hÃ¡n
Ġ yÅįuĠ
qÇĲ ĠleĠ
shÄ« ĠrÃ©nĠ
fÄĵng ĠdeĠ
zÃº ĠqiÃºĠduÃ¬Ġ
nÃŃ ĠxÄ«ĠyÃłĠ
12 ĠniÃ¡nĠ
cÃ¹ ĠjÃ¬n
hÇİn ĠmÃ²
ĠzÃłiĠ rÃ¬ĠbÄĽnĠ
lÃ¹Ġ zhÃłnĠ
tÃºĠ xiÃłngĠ
xÃºnĠ huÃ¡nĠ
ĠĠĠ tiÄģnĠ
lÃ¬ ĠzhÅįngĠ
1953 ĠniÃ¡nĠ
2010ĠniÃ¡nĠ mÄĽiĠguÃ³ĠrÃ©nĠkÇĴuĠpÇĶĠchÃ¡ĠdeĠshÃ¹ĠjÃ¹Ġ
Ġ mÇİn
jÄ« ĠshÃ¬Ġ
chÅ« ĠdÃłoĠ
yÇİn ĠchÅ«
yÃ¬ng ĠduÃ¬Ġ
ĠzhÄ«Ġ qiÃ¡n
yÇĲnĠzhÇĴngĠ zÄģiĠpÃ©iĠ
Ġ yÃºnĠnÃ¡nĠ
lÃł Ġ
ĠdÃłĠ qiÃ¡oĠ
dÃ²ngĠ huÃł
guÄ«Ġ fÃłnĠ
shÄĽnĠ chÃ¡Ġ
ĠxÃ¬Ġ tÇĴng
fÄĵiĠlÇľĠ bÄ«n
ĠĠĠ 12
chÅ« ĠrÃ¨nĠ
shuÅį ĠshÃ¬Ġ
hÇİn Ġ
km Ġ
ĠjÃŃĠ shÇĲ
suÇĴĠ chÃ¹ĠdeĠhÇİiĠbÃ¡ĠwÃ¨iĠgÄģoĠyÃºĠhÇİiĠpÃŃngĠmiÃłnĠ
shÄĽngĠ wÄĽiĠ
ĠxÄ«nĠ zÄĵng
kÇİĠluÃ³Ġ lÃ¡iĠ
yuÃ¡n ĠdÃ¬Ġ
shÄĵn ĠshÃłngĠ
1963 ĠniÃ¡nĠ
ĠzÃłiĠ bÄĽiĠ
ĠxÄ«Ġ xÄ«Ġ
rÃ¹Ġ qÄ«n
hÄĽnĠ duÅį
ĠsuÃŃĠ zhe
Ġ sÃł
Ġ qÇĲng
liÃ¨ ĠshÃ¬Ġ
jÄ«Ġ bÇİiĠ
wÃ©iĠ ÄĽr
xuÃ©Ġ xÃŃ
ĠjÄ«Ġ yÄ«nĠ
tÅįngĠ xÃ¹nĠ
nÃłĠ xiÄĵĠ
gÇİngĠ kÇĴuĠ
zhÇİnĠ kÄģi
yÇĴngĠ jiÇĶĠ
fÄĵnĠbiÃ© ĠwÃ¨iĠ
yÃ³uĠrÃ©nĠgÅįngĠ yÇĲnĠzhÇĴngĠzÄģiĠpÃ©iĠ
Ġ b
qÃŃng ĠxÃŃngĠ
1941 ĠniÃ¡nĠ
qÃŃngĠ xÃ¹Ġ
cÃ¨Ġ liÃ¡ng
rÃ¨ĠdÃłiĠ fÄĵngĠbÃłoĠ
cÃ¬ ĠwÃ¨iĠ
zhÄĽng ĠhÃ©Ġ
jÅ«ĠmÃŃnĠ diÇİnĠ
Ġ lÇļ
ĠĠĠ 2017ĠniÃ¡nĠ
jÃ¬ ĠjÃŃĠ
gÇĴng Ġ
ĠzhÄ«Ġ fÇĶĠ
ĠshÃ¨Ġ huÃ¬
ĠhÃłnĠ zÃºĠ
yÇĶ ĠshÃ¬Ġ
dÃ²ng ĠgÅįngĠ
lÇĶ ĠkÃ¨Ġ
ĠbÃ¹Ġ jiÄģĠ
ĠyÇĲĠ shÃłngĠdeĠ
ĠyÇĶĠ cÇĲĠtÃ³ngĠshÃŃĠ
mÇĲĠ yÃłĠ
ĠzhÇĶĠ chÃŃĠ
Ġ xÇĶĠ
sÃ¬ ĠmÃŃngĠ
00 Ġ
bÄ«ng ĠbÃ¹Ġ
tÄģi Ġ
jiÃ¨Ġ shÃło
ĠdeĠyÄ«Ġ xiÄĵĠ
ĠsÅ«Ġ liÃ¡nĠ
liÇİoĠ jiÄĽ
x ĠĠĠ
Ġ ÅįuĠzhÅįuĠ
guÃłi Ġ
ĠsÄ«Ġ kÇİĠ
shÇĴuĠ xÃŃĠ
zÇĶĠ chÃ©ng
dÇĲĠ dÃ¡
gÃłoĠ sÃ¹Ġ
chuÃłngĠ bÃłnĠ
fÄģĠzhÇİn ĠdeĠ
N BA
yÇĲ ĠhÃ²uĠ
yÃ¹ ĠjÃ¬Ġ
duÃ¬ ĠhÃ©Ġ
zhÇĲ ĠyÃºĠ
gÃ© ĠlÃ¬Ġ
dÄĵng ĠjÃ¬Ġ
1969 ĠniÃ¡nĠ
jÃ¹Ġ qÃŃngĠ
ĠwÃ©iĠ yÃłĠ
ĠzhÅįngĠguÃ³Ġ dÃłĠlÃ¹ĠdeĠ
ĠzhÇĲ ĠchÅ«Ġ
xiÃłĠxiÃ¡ĠyÇĲĠxiÃł ĠdÃ¬ĠqÅ«Ġ
Ġ bÄģoĠ
chÅ« ĠshÄĵngĠ
liÃº ĠdeĠ
yÇİn ĠshÄĵngĠ
ĠzhÃ¬Ġ liÃ¡o
dÃłĠ shÇĲĠ
ĠxÄ«Ġ ÄģnĠ
zÄ«Ġ zhÃ¹Ġ
fÄĵiĠ fÇİĠ
5 ĠgÃ¨Ġ
Ġ wÃ¡nĠchÃ©ngĠ
ĠĠĠ 2016ĠniÃ¡nĠ
bÃ¡i ĠzhÃ¬Ġ
ĠjiÃłoĠ shÃ²uĠ
zhuÃłngĠ kuÃłng
ĠbÃ¬Ġ yÃ¨ĠyÃºĠ
xÃºnĠyÃ¡ng ĠjiÃłnĠ
fÄĵn ĠzhÄ«ĠyÄ«Ġ
wÃ©nĠ huÃłĠdeĠ
ĠÃło ĠdÃłĠlÃ¬Ġ
xÄ«nĠjiÄģĠ pÅįĠ
ĠĠĠ jÃ¬Ġ
kÅįng ĠjÅ«n
shÃ¹n ĠshÃŃĠ
ta Ġ
ĠbÃ¹Ġ biÃłnĠ
ĠchÅ«Ġ xÃŃĠ
wÄĵiĠ xiÇİnĠ
ĠzhÃ¨ ĠbÃ¹Ġ
ĠniÃ¡nĠ7ĠyuÃ¨Ġ 1ĠrÃ¬Ġ
wÃ¨nĠtÃŃ ĠdeĠ
ĠjÃ¬nĠshÃ¬Ġ chÅ«ĠshÄĵnĠ
ĠzhÃ¬Ġ shÇİo
ĠxiÃłnĠ rÃ¹Ġ
nÃ¡nĠ fÄģngĠ
ĠbÃ¨iĠ qÃŃĠ
ĠqÃŃĠzhÅįngĠ nÃ¡nĠ
mÃ¡oĠzÃ©Ġ dÅįngĠ
Ġ pÃłiĠ
ĠĠĠ 10ĠyuÃ¨Ġ
zi ĠhÃ©Ġ
lÇĶ ĠshÃ¬Ġ
ĠbÃ¹Ġ zhÃ¬Ġ
ĠdÃ¬Ġ sÄ«Ġ
zÄ«Ġ shÄĽngĠ
pÃŃnĠ lÇľĠ
Ġ tÄģng
Ġ shÃ¨nĠ
1957 ĠniÃ¡nĠ
ĠzhÅįngĠ zuÃ¬Ġ
ĠjÃ¬Ġ niÃłn
pÃłnĠ juÃ©Ġ
gÃ²ngĠchÇİnĠ zhÇĶĠyÃ¬Ġ
Ġãĥ ¼
ĠyÇĲĠsÃ¨Ġ liÃ¨
Ġ gÃłiĠ
Ġ dÄĵngĠ
duÅį ĠgÃ¨
qÇĶ ĠjiÄģĠ
jÃºĠ jÃºĠzhÇİngĠ
Ġ15 Ġ
â Ī
Ġ lÃ¨iĠ
fÃ¡n ĠzhÃŃĠ
zhÇĶĠ chÇİngĠ
gÄģnĠ sÃ¹Ġ
zÃ¬ĠxÃŃngĠ chÄĵĠ
Ġ 2005
ĠĠĠ bÄĽiĠ
miÃ¡o ĠhuÃ¬Ġ
ĠyÄ«Ġ mÃ©iĠ
fÄĵnĠ lÃ¨i
ĠpÃŃngĠ jiÃłĠ
duÅįĠ yÃłngĠ
ĠnÃ¡nĠ bÄĽiĠ
shÃłoĠ jiÃłngĠ
fÄĵi ĠlÃ¬Ġ
xuÄĵ Ġ
ĠsÄ«Ġ xiÇİngĠ
yÃ¡nĠ zhÃ²ng
ÃłnĠ zhÃłoĠ
dÄģngĠ jÃºĠ
ĠshÃ¬ĠzhÅįngĠ xÄ«nĠ
ĠdÄģnĠ rÃ¨n
Ġ i
Ġ pÃ¡iĠ
ĠĠĠ lÃ¬ngĠwÃłiĠ
hÃ²u ĠshÃ¬Ġ
zhÃ¹ ĠdÃ¬Ġ
yÇĲn ĠshÃŃĠ
ĠshÃ¬Ġ wÅ«ĠkÃ¨ĠlÃ¡n
ÄģiĠ nÃłĠ
ĠgÅįngĠzuÃ² ĠshÃ¬Ġ
cÄģnĠmÃ³u ĠzhÇİngĠ
xiÃłng ĠxÄ«Ġ
zÃ© ĠyÇĴuĠ
Ã¨r ĠzhÃłnĠ
bÇİo ĠzhÃ¨ngĠ
ni Ãłng
ĠchÃ©ngĠ shÃ¬ĠdeĠ
ĠzhÄ« ĠjÃ¬Ġ
ĠdÃłĠ jiÄģĠ
ĠmÃŃngĠ chÄĵng
ĠtÃ³ng ĠyÄ«Ġ
jiÄģoĠ huÃłnĠ
ĠhÃ©ĠbÃ¬ng ĠwÃ¨iĠ
Ġ 80
Ġ ma
yÇĶ ĠyÇĲĠ
lÃŃng ĠdeĠ
chuÃłn Ġ
kÄĵĠ fÅ«
dÄģngĠ xuÇİn
ĠgÅįngĠkÄģiĠ sÃłiĠ
hÅįngĠ zhÃłĠ
R ĠĠĠ
Ġ xiÅįngĠ
suÃ¬ ĠshÃŃĠ
liÇĶ Ġ
fÇİĠ lÃ¬ngĠ
rÃ¹Ġ xuÇİn
Ġ zhÄĽngĠ
Ġ 1998ĠniÃ¡nĠ
ĠĠĠ 2006
zhÃ¨ ĠbÃ¹Ġ
jÇĲ ĠhÃ©Ġ
ĠyÃºĠ dÃ¬Ġ
shÄģngĠ wÃ¡ngĠ
biÄģnĠ jÃ¬ngĠ
guÇİngĠ gÃło
wÃºĠrÃ©nĠ jÄ«Ġ
Ġ chÃ©ngĠshÃ¬Ġ
ĠĠĠ zhÃ¹Ġ
cÃ¬ ĠdÃłĠ
wÃłn ĠrÃ©nĠ
shÄĵnĠ zhÃ¨n
gÇİiĠ shÃłn
1961 ĠniÃ¡nĠ
ĠdÃ¬Ġ guÃ³ĠdeĠ
ĠjiÃłn ĠhÃ©Ġ
bÇİoĠ cÃºnĠ
bÃłoĠ zhÇĲĠ
gÇİiĠ biÄģnĠ
zÄĵngĠ qiÃ¡ngĠ
qÃºn ĠdeĠ
ĠzÃłiĠ jÄ«Ġ
ĠfÄĵnĠbiÃ© ĠwÃ¨iĠ
jÄ« ĠbÃ¹Ġ
zhÄ« ĠmÃŃngĠ
rÃ¹ ĠdeĠ
guÃ³Ġ nÃ¨iĠ
ĠgÅįngĠ zhÃłnĠ
ĠyÇĲĠ nÃ¡nĠ
zÇĲĠ nÇļĠ
luÃ² ĠdeĠ
ĠxÃŃngĠ chÃ©ngĠdeĠ
qÅ«Ġ fÄĵnĠ
bÄģĠ fÃ¡
bÃłnĠ yÇİnĠ
xiÃłnĠ fÇİĠ
Ġ zhuÄģnĠjÃŃĠ
ÄĽn Ġ
huÃ² ĠshÃ¬Ġ
cÇĲ ĠzhÄ«ĠwÃłiĠ
wÃłi ĠwÃ©iĠ
sÄ«Ġ xiÇİngĠ
ĠdÃłĠ shÄ«Ġ
ĠchÅ«ĠxiÃłnĠ leĠ
miÃ¡oĠ shÃ¹
ĠdeĠmÃŃngĠ zÃ¬Ġ
Ġ guÄģng
Ġ Al
hÃ© ĠĠĠ
cÃ©ng ĠshÃ¬Ġ
ĠdÃłn ĠyÄ«nĠ
shÄģĠ hÃłiĠ
zhÇĲĠhuÄ«Ġ guÄģnĠ
xiÃł ĠdeĠyÃŃĠgÃ¨Ġ
chuÃŃ Ġ
ĠdÃłĠ zhÃ²ngĠ
shÃ²uĠ hÃłiĠ
yÄ«ngĠ guÃ³ĠdeĠ
Ġ 20Ġ
wÃ©n ĠzhÅįngĠ
bÅį ĠÄĽrĠ
hÄĵng Ġ
ĠyuÃ¨Ġ tÃ¡i
ĠnÃ¡nĠ jÄ«ngĠ
cÃ¡iĠ wÃ¹Ġ
bÃ¬ngĠ mÃ©iĠyÇĴuĠ
jiÃłoĠyÃ¹ ĠbÃ¹Ġ
s ti
gÃ²ng ĠshÃŃĠ
ĠwÃ¨iĠ yÃ³uĠ
miÃłnĠ tÇĲĠ
yÃ¡nĠjiÅ«Ġ yuÃłnĠ
n Ã²ng
Ġ h
ĠyuÃ¡nĠ shÇĲĠ
jÇĲngĠ guÄģnĠ
6 ĠgÃ¨Ġ
â Ħ
Ġ xiÃ¡Ġ
nuÃ² ĠsÄ«Ġ
1980 ĠniÃ¡nĠdÃłiĠ
1944 ĠniÃ¡nĠ
mÇİĠ tÃ³uĠ
âĨ Ĵ
ĠshÄĵngĠzhÇİngĠyÃºĠ hÇİiĠbÃ¡
chÄĵng ĠhÃłoĠ
ĠdeĠ xiÇİoĠ
ĠzÃłiĠ yÄ«ngĠguÃ³Ġ
shÇĲĠyÃ²ngĠ leĠ
zhÇİnĠ lÇİn
ĠfÄĵnĠbiÃ© ĠshÃ¬Ġ
gÄģo ĠyuÃ¡nĠ
shÃ¨ng ĠdÃ¬Ġ
ĠdÃło ĠshÃ¬Ġ
ĠdÃłĠ xÃŃng
jÄ«ngĠ yÃŃng
Ġ niÇĶĠyuÄĵ
tÃ¡o ĠyuÃ¡nĠ
ou n
hÃ²uĠ lÃ¡iĠ
pÃłnĠ luÃłnĠ
Ġ Ro
Ġ rÃ¨Ġ
mÇİ ĠdeĠ
diÇİn ĠwÃ¨iĠ
ĠwÃ¨iĠ bÃ¨iĠ
ĠyÃ¬Ġ si
ĠshÃłngĠ shÅ«Ġ
ĠzhÃ¨Ġ yÃłngĠdeĠ
hÃ¡ngĠ yÃ¨Ġ
ĠxÄ«n ĠjiÄģĠ
Ġ chÅ«nĠ
Ãłi ĠguÃ³Ġ
shÃłng ĠyÄ«Ġ
31 Ġ
qÃŃngĠ jiÃ©Ġ
ĠmÃ¹ĠqiÃ¡nĠ shÃłngĠwÃ¨iĠ
Ġ wÅ«
Ġ 2000
tÅ« ĠchÅ«Ġ
ĠhÃ©Ġ fÇİĠ
ĠdÃło ĠbÃ¹Ġ
pÃŃngĠ mÃŃnĠ
guÄģnĠ fÃ¨iĠyÃ¡nĠ
ĠpÃŃngĠ lÃ¹n
tuÃ¡nĠ zhÇİngĠ
luÃ³ ĠjÃŃĠ
ĠyÃ¬Ġ mÃŃngĠ
ĠyÇĲ ĠshÃ¬Ġ
ĠmÇĲ ĠdeĠdÃ¬ĠqÅ«Ġ
ĠxiÃłnĠdeĠyÃŃĠgÃ¨Ġ fÄĵiĠjiÃłnĠzhÃ¬ĠdÃ¬ĠqÅ«Ġ
tiÄģn ĠjiÄģĠ
ĠyÃ¬Ġ jÃŃĠ
jiÃłoĠ shÃ²u
ĠzuÃ²Ġ chÅ«
tiÄģnĠ huÃ¡ngĠ
fÃ¡ngĠ zhÇĲĠ
dÃ²uĠ zhÄĵngĠ
wÃ¹ĠzhÇĴng ĠdeĠ
Ġ bÇĶĠ
hÃ³ng ĠjÅ«nĠ
ĠÄĽr ĠzÃłiĠ
jÄ«ngĠ guÃ²
Ġ yÃłnĠ
kÄģ ĠfÄĵiĠ
ĠhÃ©Ġ tÄģĠdeĠ
ĠyÇĶĠ dÃłĠ
ĠrÃ¨nĠ mÃ¬ng
sÄģiĠ nÃłĠ
Ġ pÃ©iĠ
lÃ¡i ĠsÄ«Ġ
hÇİo ĠyÇĴuĠ
1940 ĠniÃ¡nĠ
zuÃ²Ġ chÅ«
chÃ¡ngĠ qÄ«
lÇĲngĠ yÃ¹
ĠzhÅįngĠgÃ²ng ĠzhÅįngĠyÄģng
Ġ gÇİiĠwÃ©iĠ
miÃłn ĠshÃ¬Ġ
chÃ³u ĠbÃ¨iĠ
xiÇİngĠ fÇİĠ
yuÃ¡n ĠzhÅįngĠ
ĠyuÃ¡nĠ zÃ©Ġ
ĠzhÄ«Ġ chÃ¹Ġ
dÅįngĠ nÃŃĠ
pÇĲnĠ pÃ¡i
mÃ¬ngĠ lÃ¬ng
gÇİnĠ rÇİn
ĠĠĠ 2021ĠniÃ¡nĠ
nÃŃ ĠdeĠ
dÃłiĠ lÃ¡iĠ
ĠdÄģngĠ xuÇİn
Ġ nÃŃngĠ
Ġ 1999ĠniÃ¡nĠ
fÃº ĠÄĽrĠ
hÃ¡ng ĠxiÃłnĠ
ĠjÄ«Ġ dÅ«ĠjiÃłoĠ
ĠtÃ³ng ĠrÃ¬Ġ
ĠxÃŃngĠzhÃ¨ngĠ zhÃ¨nĠqÅ«Ġ
ĠdeĠ lÇĲĠ
ĠdeĠ xÄ«Ġ
ĠshÃ¬Ġ nÃ¡nĠjÃŃĠzhÅįuĠdeĠ
xiÅ«Ġ gÇİi
Ġ mÃŃn
ĠĠĠ X
ĠĠĠ suÃŃĠ
ĠwÃ¨iĠ qÃŃĠ
ĠhÃ©Ġ dÃło
lÃ¬Ġ yÃ²ngĠ
ĠshÃŃĠ dÃłiĠdeĠ
shÄ«Ġ bÃłi
ĠzuÃ²Ġ biÄģoĠwÃ¨iĠ
xÃ¬ngĠ biÃ©Ġ
chÃ¡ngĠ jiÄģngĠ
dÃ¬ng ĠzÃłiĠ
âĢ §
ĠbÃ¹Ġ dÃ©Ġ
fÃºĠ hÃłoĠ
qÃ¬Ġ tÇĲĠ
chÇİnĠ yÃ¨
shÄģngĠ diÃłnĠ
ĠdÃ¬ĠÃ¨rĠ cÃ¬Ġ
ÃłoĠsÄ«Ġ kÇİĠ
Ġ wÃ©i
Äĵ Ġ
ĠĠĠ Ã©r
huÃ¬ ĠjÃŃĠ
zuÃ² ĠzhÅįngĠ
pÇĲn ĠzhÃ¬Ġ
bÄ«n ĠshÃ¬Ġ
1951 ĠniÃ¡nĠ
ĠgÅįngĠ jÄ«nĠ
Ġ tÃºn
ĠĠĠ zhÇĶĠyÃłoĠ
gÄĵ ĠÄĽrĠ
rÃ¹n Ġ
chÇİngĠ jÇĲngĠ
chÄĵngĠ wÃ©i
ĠzuÃ¬ ĠchÅ«
shÃ¨ĠhuÃ¬Ġ zhÇĶĠyÃ¬Ġ
dÃłngĠ ÃłnĠ
yÃŃngĠdÃ©Ġ leĠ
Ġ 1990
ĠgÅįngĠ zuÃ²ĠdeĠ
ĠyÇĶĠ zhÃ²u
ĠzhÃ¨Ġ cÃ¬Ġ
ĠniÃ¡nĠ12ĠyuÃ¨Ġ 31ĠrÃ¬Ġ
yÃ¹ ĠdÃłoĠ
zhÃłn ĠzhÃ¬Ġ
zhÃłn ĠjÃ¬Ġ
jiÄĵ ĠjÃ¬n
wÇĶ ĠmÃŃngĠ
chÇİng ĠshÃłngĠ
dÇĲ ĠzhÃ¬Ġ
jiÄĵĠ chÃ¹
ĠsÄģn ĠshÃŃĠ
niÇİoĠ lÃ¨iĠ
dÅįng ĠxiÃłnĠ
ĠbÃ¹Ġ ÄĽr
ĠzhÃ¬Ġ dÃ¬ngĠ
wÇĶĠ qÃ¬
liÃ¨Ġ rÃ¹
jÄ«ngĠjÃ¬Ġ xuÃ©Ġ
lÃ¨iĠsÃ¬ ĠyÃºĠ
. &
ĠĠĠ zhÃłnĠ
zhÅįng ĠshÃ¬ĠjÃ¬Ġ
dÃ²ng ĠyuÃ¡nĠ
fÄĵn ĠchÃ©ngĠ
kuÃ² ĠzhÄģngĠ
nÃłn ĠmÃŃnĠ
32 Ġ
ĠmÃŃngĠ zÃ¬Ġ
rÃ©nĠmÃŃnĠ dÃłiĠbiÇİoĠdÃłĠhuÃ¬Ġ
Ġ yÃ¡oĠ
ĠjÄ«Ġ xiÃ¨Ġ
jÃ¹Ġ fÄĵngĠ
yÃ¡nĠjiÅ« ĠsuÇĴ
jiÄģngĠsÅ«Ġ shÄĽngĠ
fÃº ĠdÃ©Ġ
yÇĲn ĠlÃ¬Ġ
ĠxiÃłnĠ dÃłi
ĠĠĠ duÃ¬ĠyÃºĠ
jiÇİng ĠdeĠ
co di
1930 ĠniÃ¡nĠ
ĠtÄģĠ shuÅįĠ
zhÃ²ngĠ zhÃŃĠ
5 ĠgÅįngĠlÇĲĠ
Ġ e
dÃ¡ ĠdeĠ
nÃº Ġ
ĠzhÅįngĠ shÅ«Ġ
hÃ²uĠ xuÇİnĠrÃ©nĠ
yÃ¡nĠ shÄĵnĠ
ĠdÃłn ĠbÃ¹Ġ
ĠwÃ©iĠ zhÇĲĠ
zhÅ«Ġ lÃ³ngĠ
mÃ¹ĠsÄ«Ġ lÃŃnĠ
Ġ 36
Ġ 1ĠyuÃ¨Ġ
ĠĠĠ kÃ¨Ġ
fÄģng ĠchÃ©ngĠ
chÄĵ ĠdÃłoĠ
sÅ« ĠlÇĲĠ
ce ĠĠĠ
chÃ¨n Ġ
shÄĵngĠ mÃŃngĠ
bÄģnĠ fÄģĠ
gÃ¨ngĠ duÅį
hÃłiĠ Ã©
Ġ niÃºĠ
zÅ« ĠjiÃ¨Ġ
ĠjiÄģĠ jÃ¬ngĠ
zhÃ¹Ġ cÃ¨Ġ
ĠyÃ³uĠ yÇĴngĠ
dÄĽngĠ zhÃŃĠ
Ġ chÄģo
rÃ©n ĠwÃ¨iĠ
duÃ¬ ĠyÇĴuĠ
tÇĲ ĠxÃŃngĠ
chÄĵng ĠzhÄ«ĠwÃ¨iĠ
yÄĵ ĠsÅ«
ĠjÄ«Ġ chÇĶĠ
ĠchÅ«Ġ shÄĵnĠ
fÄĵnĠ qÅ«Ġ
bÇİoĠ cÃºn
lÇĲngĠ xiÃ¹
ĠtÃłiĠ yÃ¡ngĠ
gÃ²ngĠhÃ©Ġ guÃ³ĠdeĠ
ĠwÃ¨iĠfÃºĠqÃŃĠyÃºĠ gÄģng
shÇĲ ĠzhÅįngĠ
lÇİng ĠdÃ©Ġ
90 ĠniÃ¡nĠ
ĠchÅ«Ġ rÃ¹ĠkÇĴuĠ
tÅįngĠ xÃ¬nĠ
yÃ¡nĠjiÅ« ĠyuÃ¡nĠ
xiÃ©Ġ tiÃ¡o
huÇĴĠ bÃłnĠ
ĠshÃ¬ĠdÃ¬Ġ yÄ«Ġ
ĠcÃ©ng ĠzÃłiĠ
ĠbÃ¬ngĠqiÄĽ ĠzÃłiĠ
jÇĲnĠbiÄģoĠ sÃłi
Ġ JR
Ġ shÃ²uĠdÃłoĠ
Ġ xiÃ³ngĠ
Ãłi ĠdÃ©ĠhuÃ¡Ġ
xiÃłn ĠshÃŃĠ
chu Çİng
bÄģn ĠbÃ¹Ġ
hÃ¡ng ĠzhÅįuĠ
jiÃłoĠ zuÃ²Ġ
nÇļĠ yÇİnĠyuÃ¡nĠ
kÇİoĠ gÇĶĠ
miÃłnĠjÄ« ĠhÃ©Ġ
zuÃ¬ĠzÇİo ĠdeĠ
guÄ«ĠmÃ³ ĠdeĠ
pÃ¡i ĠdÃ©ĠzhÇĶĠ
bÄ«ng ĠlÃ¬Ġ
1931 ĠniÃ¡nĠ
ĠjiÄģĠ mÃ©ngĠ
mÇİĠ lÃ¡iĠ
chÃ¨Ġ dÇĲĠ
xÄ« ĠyuÃ¡nĠ
quÃ¡n ĠxiÃłnĠ
qÇĲ ĠdeĠ
bÃłi ĠzhÃłnĠ
rÃ©ng ĠyÇĴuĠ
ĠchÃ©ngĠ xÃ¹
ĠjiÃłn ĠyÇĴuĠ
shÇĴuĠ duÃłnĠ
fÄĵnĠ lÃŃĠ
Ġ qÃ¬
Ġ piÃłnĠ
chÃ©ng ĠzÃłiĠ
quÃ¡n ĠqiÃº
zÃº ĠrÃ©nĠ
ĠzhÅįngĠ fÄģĠxiÃłnĠ
shÇĴuĠ fÇĶĠ
zÃºĠ xiÃ©Ġ
zÄģo ĠshÃ²uĠ
ĠzhÅįngĠguÃ³Ġ gÃ²ngĠchÇİnĠdÇİng
ĠĠĠ 2015ĠniÃ¡nĠ
jiÄģng ĠshÃ¬Ġ
am Ġ
jiÄģoĠ chÄģĠ
ĠgÄģiĠ dÃ¬ĠdeĠ
ĠgÅįngĠyuÃ¡nĠ qiÃ¡nĠ
ĠdÃ¬ĠshÃŃĠ yÄ«Ġ
Ġ dÃ¡
Ġ nĠ
ĠĠĠ fÃºĠ
yÇĲ ĠshÃłngĠ
hÃłn ĠyÇĶĠ
1933 ĠniÃ¡nĠ
ĠwÃ¨iĠ zhÅįngĠguÃ³Ġ
ĠhÃ©Ġ lÃ¡n
ĠqiÃºĠ yÃ¹nĠdÃ²ngĠyuÃ¡nĠ
tÃŃĠ gÅįngĠdeĠ
ÃłiĠ qÃŃngĠ
miÇİnĠ diÄģnĠ
tuÃ¬Ġ xiÅ«
ĠlÃ¬ng ĠyÃ¬ĠfÄģngĠmiÃłnĠ
ĠbÃ¹ĠdÃ© ĠbÃ¹Ġ
ĠmÃ¹ĠqiÃ¡nĠshÃłngĠwÃ¨iĠ yÃ³uĠrÃ©nĠgÅįngĠyÇĲnĠzhÇĴngĠzÄģiĠpÃ©iĠ
ĠĠĠ 1
jiÄģn ĠzhÃ¬Ġ
huÃ¡ ĠdÃłĠxuÃ©Ġ
cÃ¡iĠ chÇİnĠ
wÃ¹ĠlÇĲĠ xuÃ©Ġ
Ãłn ĠzhÅįngĠ
ĠĠĠ 4ĠyuÃ¨Ġ
fÄĵn ĠwÃ¨iĠ
tÃ³u ĠdeĠ
1928 ĠniÃ¡nĠ
ĠzhÃ¨Ġ yÄĽĠshÃ¬Ġ
gÇİnĠ juÃ©Ġ
Ġ Mi
di Ġ
wÇİng ĠdeĠ
hÃłn ĠzÃ¬Ġ
mÃ³u ĠshÄģĠ
ĠzÃłiĠ gÅįngĠ
ĠjiÃłnĠ zÃło
ĠyÄ«n ĠdeĠ
bÃłoĠ zhÃł
dÇİoĠ yÇİn
ĠD Ġ
ĠxÄ«ĠbÄģnĠyÃ¡ ĠyÇĶĠ
yuÃ¡n ĠshÃŃĠ
jÄ«n ĠrÃ¬Ġ
lÃŃn ĠsÄ«Ġ
rÃłng ĠtÄģĠ
mÄģo Ġ
Ne w
xuÃ©Ġ shÄĵng
ĠfÄĵn ĠwÃ©iĠ
kÇİĠluÃ³ĠlÃ¡iĠ nÃł
Ġ qiÅ«
fÇİ ĠshÃ¬Ġ
1942 ĠniÃ¡nĠ
ĠjÃŃĠ yÄ«Ġ
ĠchÅ« ĠyÄ«Ġ
fÃ¹ ĠyÇĴuĠ
tÃ¨ ĠhÃ©Ġ
tÃłi ĠhÃ²uĠ
zhÅįngĠ bÃ¹Ġ
ĠdÃłĠ yuÄĵ
shÄĵngĠ tÃłiĠ
wÄĽiĠyuÃ¡nĠ huÃ¬ĠdeĠ
qiÄģnĠ shÇĶ
ĠwÃ©nĠ huÃł
ĠdÄģngĠ xuÇİnĠ
ĠzhÃ¬ĠzuÃ² ĠrÃ©nĠ
xiÃłĠxiÃ¡ĠdeĠyÃŃĠgÃ¨Ġ xiÄģngĠ
nÃ¡n ĠsÄ«ĠlÄģĠ
gÃłn ĠxiÃłnĠ
ĠshÃ¬Ġ nÃ¡nĠ
yÃ¡nĠ chÃ¡ng
shuÇĲĠ kÃ¹Ġ
zÃºĠ zÃ¬ĠzhÃ¬Ġ
biÄģnĠ mÇİĠ
xÃ¹Ġ shÃ¹Ġ
Ġ nÃ¨i
Ġ wÄĵn
zi ĠgÅįngĠsÄ«Ġ
ĠyuÃ¨Ġ tuÃ¡n
ĠyÃ¬Ġ diÇİnĠ
duÃ¬Ġ wÃłiĠ
qÇĲĠ sÃ¹Ġ
zhÃ²ngĠ diÇİn
Ġ 34
Ġ kÅįngĠ
jÃ¬ ĠyÃºĠ
tÃ¨ ĠjÃŃĠ
1943 ĠniÃ¡nĠ
ĠshÃ¬Ġ xiÄģngĠgÇİngĠ
shÄĵnĠ zhÃ¨nĠ
ĠmÇİĠlÃ¡i ĠxÄ«ĠyÃłĠ
Ġ 2025
Ġ rÃ¨nĠhÃ©Ġ
mÃ¹ ĠshÃ¬Ġ
biÄģn ĠchÃ©ngĠ
ĠzÃłiĠ nÃ¡nĠ
ĠhÃ©Ġ tÃ³ngĠ
shÃłngĠ shÃ¹Ġ
ĠhuÃ¬Ġ bÃ¨iĠ
wÇĶĠ hÃłn
dÃ¬ngĠ qÄ«Ġ
gÇİiĠ wÃ©i
ĠsuÃŃĠ zheĠ
ĠĠĠgÃ¨ĠrÃ©nĠ shÄĵngĠhuÃ³Ġ
Ġ tÃ²uĠguÃ²Ġ
Ġ kÄģngĠxÄ«Ġ
jÃ¬n ĠjÃŃĠ
fÃ¹ ĠzhÃ¬Ġ
ĠshÃ¬Ġ gÃ¨Ġ
sÄģnĠ cÃ¬Ġ
bÅįĠ fÃłng
cÃ¨Ġ lÃ¼Ã¨Ġ
ĠjÃ¬ĠsuÃłn ĠjÄ«Ġ
f ÄĽng
Ġ zhÇĶ
Ġ jiÇİoĠ
ĠĠĠ 7ĠyuÃ¨Ġ
zhÃłn ĠwÃ¨iĠ
rÃ¹ ĠwÃ©iĠ
qÃ¬ ĠrÃ©nĠ
xiÃ© ĠdÃłiĠ
wÃ² ĠÄĽrĠ
tÃłn ĠsuÇĴĠ
cÅ« Ġ
duÃ¬Ġ xiÃłngĠ
miÃ¡oĠ shÃ¹ĠwÃ¨iĠ
ĠhÄģ ĠÄĽrĠ
Ġà ¸
codi ceĠ
Ġ CD
Ġ fÇİnĠduÃ¬Ġ
Ġ yÄģoĠqiÃº
ch Çİo
shÃ¹ ĠhÃ©Ġ
mÄĽi ĠrÃ¬Ġ
shÇĴu ĠbÃ¹Ġ
shÄ« ĠhÃ©Ġ
xiÅ« ĠsÄ«Ġ
sÇİo Ġ
xÃ¬Ġ liÃ¨ĠdeĠ
tÃ¡iĠ bÃ¬Ġ
bÄģnĠ cÃ¬Ġ
ĠdeĠjÄ«Ġ huÃ¬Ġ
J Ġ
ji ÇĴng
ĠĠĠ dÅįngĠ
zhuÇİn ĠwÃ©iĠ
Sta tion
ĠguÃ³Ġ gÅįngĠ
ĠyuÃ¡nĠ yÇĴuĠ
ĠgÃ¨ ĠdÃłĠ
ĠkÃ¨ ĠlÇĲĠsÄ«Ġ
dÃ²ngĠ chÄĵĠ
zhÇĶĠchÃŃ ĠrÃ©nĠ
âĦ ĥ
2 ĠmÇĲĠ
Ġ y
ĠĠĠ 2020ĠniÃ¡nĠ
juÃ© ĠleĠ
bÄĵn Ġ
ĠbÃ¹Ġ zhÃ¨ngĠ
ĠlÃ¬Ġ kÃ¨Ġ
ĠgÅįngĠ kÄģi
lÃ¹Ġ shÃłngĠ
mÃŃnĠ jÃ¬nĠ
guÄ«Ġ huÃł
mÃ²ĠsÄ«Ġ kÄĵ
Ġ 22
Äģn ĠrÃ©nĠ
ĠĠĠ zhÃ¬ĠzuÃ²Ġ
fÅ« ĠfÃ¹Ġ
zhuÃłng ĠbÃ¬ngĠdÃº
rÄĽn Ġ
ĠchÃ©ngĠ bÇİoĠ
qÃŃ ĠshÃ¬Ġ
bÃ¨i ĠshÃ¬Ġ
nÃł ĠsÄ«Ġ
hÃ¡ng ĠzhÃłnĠ
yÃŃĠ mÃŃn
jiÃłnĠ zÃłoĠ
tÃ¡iĠwÄģn ĠdeĠ
pÄ«Ġ pÃŃng
ĠĠĠ xiÄģngĠgÇİngĠ
jÄ«ng ĠdeĠ
dÅįng ĠdeĠ
oo g
ĠdÃ¬Ġ 2Ġ
zhÃ¨ngĠ quÃ¡nĠ
qÅ«Ġ jiÄģnĠ
ĠgÃ¨Ġ zÃ¬Ġ
zuÇĴĠ yÃ²u
jiÃ¹ĠdÃº ĠyÃºĠ
Ġ fÄģ
ĠniÃ¡n ĠniÃ¡nĠ
ĠchÃ©ngĠ wÃ©iĠyÄ«Ġ
ĠxiÄģngĠ dÄģngĠ
ĠyÇĴuĠyÄ«Ġ xiÄĵĠ
kuÃ²Ġ zhÇİnĠ
kÄĵ ĠÄĽrĠ
ĠzhÅįngĠ zhÇĲĠ
ĠguÃ³Ġ yÇĶĠ
kÄģiĠ mÃ¹Ġ
bÄģĠ nÃ¨n
dÃºĠ tÃ¨ĠdeĠ
fÃłnĠ wÃ©i
ĠguÃ³ĠmÃŃnĠ dÇİngĠ
Ġ gÃ¹ĠshÃ¬Ġ
ĠĠĠ 2014ĠniÃ¡nĠ
jÇĲ ĠniÃ¡nĠ
wÃº ĠÄĽrĠ
ĠdÃ¬Ġ 2
mÃŃnĠ zhÇĶ
zhÃ¨Ġ zhÇĴng
ĠzhÃłnĠ lÇĲngĠ
tiÄģnĠ tÃ¡ngĠ
jiÇİngĠ zuÃ¬ĠjiÄģĠ
qiÃºĠ duÃ¬
3 000
xiÃłn ĠxiÃłngĠ
ĠhuÃ¬Ġ shÃłngĠ
fÄĵngĠ gÃ©
tÃ³ngĠ yÃłng
xiÃ©Ġ shÄģngĠ
huÃ³ĠdÃ²ng ĠdeĠ
Ġ biÇİoĠ
ĠĠĠ lÄģĠ
ĠĠĠ 6Ġ
ĠĠĠ 2010ĠniÃ¡nĠ
yÃ¬n ĠxiÃłngĠ
ĠmÃŃngĠ xÄ«ngĠ
diÃłnĠ chÄĵĠ
ĠqiÃ¡nĠ lÃ³ngĠ
cuÄ«Ġ huÇĲ
Ġ pÃŃ
Ġ shÇİnĠxÄ«Ġ
shÅ« ĠshÃ¬Ġ
jiÅ« Ġ
ĠzÃłiĠ yuÃ¡nĠ
ĠrÃ¬Ġ qÄ«Ġ
nÃ¨iĠ mÃ©ngĠgÇĶĠ
fÇĶĠ zhÃ¹Ġ
Ġ 38
ĠĠĠ Pro
ĠĠĠ 8ĠyuÃ¨Ġ
ĠdÃ¬Ġ bÄģĠ
ĠjÃŃĠ yÇĲĠ
ĠqÃŃĠ bÄ«ngĠ
lÇĲngĠ xiÄģnĠ
Ġ 55
pÇĲn ĠdeĠ
ol o
1912 ĠniÃ¡nĠ
ĠzhÅįu ĠrÃ©nĠ
zhÃłoĠ piÄģn
Ġ tÇİ
ĠĠĠ suÄ«ĠrÃ¡nĠ
chuÄģn ĠyuÃ¨Ġ
th ĠĠĠ
xÄ«Ġ wÃłngĠ
shÄĵngĠ mÃ¬ngĠ
jÃ¬nĠ zhÇĲĠ
c ÄģiĠ
Ġ 75
Ġ lÃ¡oĠ
Ã¨ ĠÄĽrĠ
ĠĠĠ 15
lÃ¹ ĠyÇĶĠ
dÃłĠ xuÃ©
ĠrÃ¬ ĠyÃ¬Ġ
yÃ³uĠ tÃłiĠ
tÃ¨Ġ qÅ«Ġ
ĠbÃ¬ngĠ biÇİoĠshÃ¬Ġ
zuÃ¬Ġ duÅįĠdeĠ
chÇİngĠ bÇĲĠsÃłiĠ
ĠtÃ¨Ġ biÃ©Ġ
Ġ dÃŃ
Ġ cÇİiĠ
jiÃłoĠ kÄĵĠ
bÃłnĠ yÇİn
ĠhÃ©ĠliÃºĠ yÃ¹Ġ
Ġ huÄģ
ch o
chÃ©ng ĠshÃŃĠ
gÃ© ĠsÄ«Ġ
ver Ġ
ĠshÃ¬Ġ yuÃ¡nĠ
jÃ¹Ġ dÃłĠdeĠ
bÇİoĠ zhÃłng
jiÄĵĠwÃ¨iĠ zhÄ«Ġ
ĠshÃ¬ĠyÃŃĠgÃ¨ ĠwÃ¨iĠyÃºĠmÄĽiĠguÃ³Ġ
miÃłnĠjÄ«ĠhÃ©Ġ rÃ©nĠkÇĴuĠ
Ġ Ø
Ġ cÃŃ
fÄģng ĠwÃ¨iĠ
cÇĲ ĠshÃ¬Ġ
jÅ« ĠyÃºĠ
1929 ĠniÃ¡nĠ
ĠtÄģĠ jiÄģngĠ
zÇĴngĠ jÄ«ngĠlÇĲĠ
kÇİĠ lÄģĠ
ĠtÃ³ngĠshÃŃĠ yÄĽĠ
hÃ¨Ġ sÃ¨Ġ
Ġ 90
xiÄģng ĠdeĠ
duÅį ĠmÃŃngĠ
bÅį ĠchÅ«
jiÇİ ĠjÄ«Ġ
shÃłngĠ xiÃłĠ
fÄĵnĠ lÃ¡nĠ
huÃ¡ngĠ jÄ«n
Ġ fÄĵng
Ġ lÃº
ĠĠĠ mÃ¹ĠqiÃ¡nĠ
wÃ¡ng ĠhÃ²uĠ
bÅį ĠlÃ¬Ġ
nÃº ĠlÃ¬Ġ
dÇĶ Ġ
1927 ĠniÃ¡nĠ
ĠchÅ«Ġ rÃ¨n
ĠjÅ«nĠ guÄģnĠ
ĠqÃŃĠzhÅįngĠ yÇĴuĠ
mÃŃĠ nÇĲĠ
hÃ¡ngĠkÅįng ĠgÅįngĠsÄ«Ġ
ĠgÄģiĠdÃ¬ĠdeĠ miÃłnĠjÄ«ĠhÃ©ĠrÃ©nĠkÇĴuĠ
ĠgÄģiĠdÃ¬ĠdeĠmiÃłnĠjÄ«ĠhÃ©ĠrÃ©nĠkÇĴuĠ jiÄĵĠwÃ¨iĠzhÄ«Ġ
ĠĠĠ st
yuÃ¨ ĠhÃ©Ġ
qÅ« ĠjÃŃĠ
di Å«
zhÃ¹Ġ zhÃ¡i
jiÃłnĠ kÄģngĠ
hÃłnĠ lÃŃnĠ
ĠzhÃ¬ĠlÃ¬Ġ yÃºĠ
Ġ Le
yÃŃ ĠjÃ¬Ġ
dÄģn ĠxÄ«nĠ
zhÄģng ĠdeĠ
dÃłiĠ bÇĶĠ
gÄģoĠ dÄĽng
bÇİnĠ bÄĽnĠdeĠ
fÃ¹ ĠyÇĶĠ
zÃº ĠyÇĲĠ
tÃ¡ng ĠdeĠ
ĠshÃŃĠ yuÃ¨Ġ
ĠyÄ«Ġ tiÄģnĠ
dÄģnĠ dÇİĠ
shÄģngĠ pÇĲnĠ
tuÃ¡nĠ jiÃ©Ġ
ĠyÄ«nĠcÇĲ ĠzÃłiĠ
bÇĲ ĠÄĽrĠ
yÄ«ng ĠjÅ«nĠ
jiÃ¹ ĠyÇĴuĠ
xiÇİng ĠdeĠ
guÃ³Ġ fÃ¡ng
ĠchÅ« ĠxiÃłn
ĠjiÄģĠ rÃ¹ĠleĠ
huÃ¬ĠyÃ¬Ġ shÃłngĠ
cÃºnĠzÃłiĠ yÃºĠ
Ġ huÃ¡i
sÄģn ĠwÃ¨iĠ
diÇİn ĠxÃŃngĠdeĠ
biÄģo ĠjÃ¬Ġ
ar i
ĠyÄ«Ġ chÃ¡ngĠ
ĠdÃ© ĠlÃ¬Ġ
ĠdÃłiĠ lÃ¡iĠ
yÃŃĠ zhÇĲ
2 ĠĠĠ
Ġ cÃłiĠ
jÃ¹ ĠzhÅįngĠ
tÄ«ng ĠdeĠ
zhuÃłng ĠdeĠ
1932 ĠniÃ¡nĠ
jÃ¬Ġ xÃ¹
ĠkÃ¨Ġ luÃ³Ġ
ĠjÃ¬n ĠjÃŃĠ
gÄģoĠ jiÃłĠ
quÃ¨Ġ bÇİoĠ
chuÃłngĠ shÇĲĠrÃ©nĠ
ĠĠĠwÃ¨iĠ leĠ
Ġ 2004
Ġ yÃ¡nĠjiÅ«Ġ
Äģ ĠjÄ«Ġ
Äģn ĠshÃ¬Ġ
ĠĠĠ 2012ĠniÃ¡nĠ
ĠĠĠ 2013ĠniÃ¡nĠ
chÃ¡ ĠlÇĲĠ
xÃ¬ ĠjÅ«nĠ
mÃ¹ ĠzhÃ¬Ġ
fÃº ĠshÃ¨Ġ
ĠyÃ¬Ġ wÃłiĠ
ĠdÃłĠ guÄ«ĠmÃ³Ġ
chÇİnĠ shÄĵng
ĠzhÇĶĠ chÃŃ
ruÃ¬Ġ diÇİn
ĠĠĠ 9ĠyuÃ¨Ġ
ĠĠĠ 4Ġ
80 ĠniÃ¡nĠ
ĠdeĠjÃ¬Ġ huÃłĠ
ĠguÃ³ĠmÃŃnĠ dÇİng
ĠzhÇĶĠyÃło ĠshÃ¬Ġ
Ġ yuÇİnĠ
Ġ shÃłoĠ
ĠĠĠ qÃŃĠzhÅįngĠ
jiÇİn ĠlÃ¬Ġ
zu Çİn
gÄĽi ĠtÄģĠ
juÃ©Ġ sÃłiĠzhÅįngĠ
mÃ©ngĠ tÃ¨Ġ
ĠguÃ³ĠmÃŃnĠ zhÃ¨ngĠfÇĶĠ
w Ãł
pÃŃng ĠjÅ«n
ĠshÃŃĠ jiÄģnĠdeĠ
lÃ¹Ġ xÃ¹Ġ
hÄĵiĠ lÃ³ngĠjiÄģngĠ
l Ä«
zhÅįng ĠhÃ©Ġ
jiÄģ ĠshÃ¬Ġ
duÃłn ĠshÃŃĠjiÄģnĠ
ĠyÇĲĠ 1Ġ
ĠxÄ«Ġ lÇĲĠ
fÄģĠ huÄ«
fÄģĠ yÃ¡nĠrÃ©nĠ
ĠwÃ©iĠ qÃŃ
ĠzhÇĶĠ rÃ¨nĠ
tÃŃngĠ yÃ¹nĠ
Ġ 70
qiÃ¡n ĠzÃłiĠ
shÄ« ĠdÃ¬Ġ
diÃło ĠyÃºĠ
il li
ĠchÅ«Ġ shÃ²uĠ
duÇİnĠ zÃłn
Ġ nÃ³ngĠ
Ġ dÅįuĠshÃ¬Ġ
fÃº ĠzhÅįuĠ
guÄģnĠ cÃ¨
tÇİĠ nÃŃ
ĠshÇĲĠ yÃ²ng
Ġ 1997ĠniÃ¡nĠ
shÃ¹ ĠrÃ©nĠ
xÃ¹ ĠjÃŃĠ
chuÄģn ĠguÃ²Ġ
ĠguÃ³Ġ wÃ¡ng
fÃ¹Ġ zhÇĶĠxÃŃĠ
ĠzhÅįu ĠwÃ©iĠ
ĠfÄĵnĠ bÃ¹ĠzÃłiĠ
ĠcÃ©ngĠ jÄ«ngĠ
ĠnÃłĠ me
ĠdeĠyuÃ¡nĠ yÄ«nĠ
f ĠĠĠ
Ġ kÄĽnĠ
shÇĲ ĠdÃ¬Ġ
wÃ¹ ĠyÇĶĠ
cÃ¬ ĠjÄ«Ġ
juÃ© ĠyÃºĠ
ĠhÃ©Ġ lÃ¬Ġ
ĠzhÄ«Ġ chÄĵngĠ
ĠdÃłn ĠqÃŃĠ
ĠxuÃ©Ġ xÃŃ
lÇĲngĠ yÃ¹ĠdeĠ
quÃ¨Ġ dÃ¬ng
qÃºnĠ zhÃ²ngĠ
chuÃłngĠ zuÃ²
ĠshÃ¬ĠjiÃ¨ ĠdeĠ
ĠzÇĴngĠ tÇĴngĠ
tÃłnĠ xiÇİn
nÃŃĠyÃł ĠdeĠ
ĠzhÃłn ĠdÃ¬Ġ
ĠĠĠchÄĵĠzhÃłnĠ jiÃ©ĠgÃ²uĠ
Ġ mÃ¨ngĠ
xÃŃng ĠxiÃłngĠ
1934 ĠniÃ¡nĠ
shÃ¹Ġ mÃ¹Ġ
ĠÃ©rĠ lÃ¡iĠ
zhÃŃĠ bÅįĠ
ĠfÃ¹Ġ gÃłiĠ
gÃłoĠ sÃ¹
suÃłnĠ fÇİĠ
ĠniÃ¡nĠdÃłi ĠchÅ«Ġ
ÃłoĠdÃłĠlÃ¬Ġ yÃł
C ĠĠĠ
ĠĠĠ cÄģnĠkÇİoĠ
duÇĴ Ġ
son Ġ
yÇĴuĠ guÄģnĠ
ĠdÄģng ĠniÃ¡nĠ
ĠchÃ©ngĠlÃ¬Ġ leĠ
qÃ¹ĠshÃ¬Ġ hÃ²uĠ
6 ĠmÇĲĠ
Ġ hÃ¹
yÃ¹ ĠbÃ¨iĠ
shÃ©n ĠdeĠ
chÃ³ng ĠfÃ¹Ġ
tuÄ« ĠxÃŃngĠ
1924 ĠniÃ¡nĠ
ĠdÃło ĠzhÅįngĠ
hÇİiĠ yÃ¡ng
ĠdeĠdÃ¬Ġ yÃŃĠgÃ¨Ġ
Ġ gÅįngĠbÃ¹Ġ
zhÇİn ĠxiÃłnĠ
ĠshÃ¬Ġ bÃ¨iĠ
ĠyÄ«n ĠyuÃ¡nĠ
ĠyÄ«n ĠqÃŃĠ
zhÃ¹Ġ zhÃ¡iĠ
fÃºĠ huÃłĠ
zuÃ¬Ġ zÇİoĠ
jÃ¬ngĠ nÃ¨iĠdeĠ
gÄĵĠ cÃŃĠ
fÃ¡ngĠ jiÄģnĠ
Ġ qÃŃn
Ġ 46
Ãłn ĠshÃ¬Ġ
Ãłn ĠshÃŃĠ
liÃ¨ ĠsÄ«Ġ
dÅ« ĠhuÃ¬Ġ
sÃ²ng ĠdÃłoĠ
33 Ġ
ĠjÃŃĠ ÄĽrĠ
xÄ«Ġ yÃłĠ
wÇĶĠ dÇİoĠ
jÃ¬ngĠ wÃłiĠ
mÃ¬Ġ qiÃ¨
Ã©Ġ hÃłiĠÃ©
ĠlÃ¹ ĠyÃ¬Ġ
Ġ kÄĽĠnÃ©ng
ĠĠĠ 6ĠyuÃ¨Ġ
zhÄĽ ĠrÃ¨nĠwÃ©iĠ
chÃ¡i Ġ
ĠdÃłĠ qiÃ¡o
dÇİĠ suÃłnĠ
guÃ³ĠjiÄģĠ duÃ¬Ġ
zhÃ¨ĠjiÄģngĠ shÄĽngĠ
pÃ¡iĠhÃ¡ngĠ bÇİng
zhÄ« ĠdÃłoĠ
Çİi Ġ
duÅį ĠyuÃ¡nĠ
ĠyÇĲĠ lÃ¡i
shÄĵnĠ wÃ¡ngĠ
fÇİnĠ duÃ¬
tÃłnĠ cÃ¨Ġ
Ġ dÄĵng
duÄģn ĠdeĠ
ĠdÃ¬Ġ zhÅįngĠ
ĠtÄģĠ hÃ¡i
jÄ«ngĠ yÃ³uĠ
25 ĠniÃ¡nĠ
as ĠĠĠ
ĠyÄ«Ġ tÃ³ng
ĠrÃ¬Ġ hÃ²uĠ
ĠshÄĵngĠ chÄĵngĠ
guÄ«Ġ zÃ©
cÃ¡iĠ zhÃ¨ng
ĠliÃ¡nĠ jiÄĵĠ
mÇİnĠ zÃº
Ġ 150
hÃ²u ĠbÃ¹ĠjiÇĶĠ
jÃ¬n ĠxÃŃngĠdeĠ
ĠÄĽr ĠyÇĶĠ
cÅ«nĠ mÃŃnĠ
chÅ« ĠzhÃłnĠ
fÃ¹ ĠbÃ¹ĠzhÇİngĠ
or l
Play Station
ĠlÃ¬Ġ shÇĶ
ĠxÃŃng ĠyÃºĠ
lÄģĠ tÃ¨Ġ
bÄģĠ lÃ¨
tÃ³uĠ xiÃ¡nĠ
qiÃ¡ngĠ dÃłĠdeĠ
shÅįuĠ lÃ¹
ĠĠĠ 2011ĠniÃ¡nĠ
zhÃłn ĠzÃłiĠ
fÄĵn ĠdeĠ
wÇİng ĠqiÃº
kuÃ² ĠjiÃłnĠ
ĠjÃŃĠ sÄ«Ġ
ĠjiÄģĠ sÄ«Ġ
ĠbÃ¬ng ĠyÇĴuĠ
Ġ12 Ġ
yÃº ĠĠĠ
in ĠĠĠ
kuÃł Ġ
nd Ġ
yÄ«Ġ lÃ¬Ġ
chÃ©ngĠ jÃ¬Ġ
kÄĵĠ fÅ«Ġ
3 ĠmÇĲĠ
Ġ yÇİ
Äģ ĠlÇĲĠ
ĠĠĠ gÄĵnĠjÃ¹
qÄ« ĠshÃ¬Ġ
ol Ġ
ĠhÃ©Ġ dÅįngĠ
ĠrÃ¬Ġ yÇĶĠ
zhÃłnĠ lÃ¼Ã¨Ġ
zhÃŃĠ wÃ¹
ĠxuÃ©Ġ huÃ¬Ġ
wÃ¡nĠchÃ©ngĠ leĠ
wÃ¡nĠzhÄĽng ĠdeĠ
5 ĠĠĠ
Ġ jiÇİng
ĠĠĠ cÇĲ
shuÅį ĠdeĠ
zhÄĵn ĠzhÃ¨ngĠ
ts Ġ
ĠqÃŃ ĠtÄģĠdeĠ
chÃ¡ngĠ wÄĽiĠhuÃ¬Ġ
bÃłnĠ dÇİo
hÃ¡ngĠ bÄģnĠ
fÃ¡ngĠ kÅįngĠ
E N
ĠĠĠ rÃ¬ĠbÄĽnĠ
ĠĠĠ jiÃłnĠzhÃ¹Ġ
dÄ« ĠdeĠ
zÃ¡ ĠdeĠ
ĠzhÅįngĠ duÃ¬Ġ
dÃłĠ liÃłngĠ
kÄĵĠ xuÃ©
chÃ³ngĠ xÄ«n
Ġ pÃ©ngĠ
Ġ jÄ«ĠyÃºĠ
ĠĠĠ xiÄģngĠ
dÃ¬ng ĠlÇĲĠ
xiÃło ĠshÃ¨Ġ
xiÄĽ ĠleĠ
ĠjÃŃĠ jiÄģngĠ
ĠdÃłĠ sÃłiĠ
pÇĶĠ tÅįng
ĠguÃ³ĠjÃ¬Ġ jÄ«ĠchÇİngĠ
yÅįuĠ xiÃ¹Ġ
ĠĠĠgÄĵnĠjÃ¹Ġ 2010ĠniÃ¡nĠmÄĽiĠguÃ³ĠrÃ©nĠkÇĴuĠpÇĶĠchÃ¡ĠdeĠshÃ¹ĠjÃ¹Ġ
Ġ 2003
Ġ 180
Ġ xuÃ¡nĠ
bÄģ ĠshÃŃĠ
shÄĽng ĠzhÃ¨ngĠfÇĶĠ
bÇİo ĠwÃ¨iĠ
dÅįu ĠbÃ¹Ġ
ĠzÃłiĠ xiÃłnĠ
sÄģnĠ zhÇĴngĠ
xiÇİoĠ zÇĶ
hÃ¹Ġ dÃ²ngĠ
chÃ¨Ġ tuÃ¬Ġ
ĠM Ġ
ĠguÄģn ĠzhÃ¬Ġ
Ġ sÇĲĠ
rÃ¨n ĠyÃ¬Ġ
xiÃ¡ng ĠxÃ¬Ġ
chuÃŃ ĠzhÃŃĠ
ĠchÅ« ĠxiÃłnĠdeĠ
nuÃ²Ġ mÃłnĠ
de n
ĠĠĠ gÄģoĠ
26 Ġ
ĠyÄ«Ġ zhÇĴng
ĠxÃŃng ĠhÃ©Ġ
xuÃ©ĠshÃ¬Ġ xuÃ©ĠwÃ¨iĠ
Ġ yÄ«ĠwÃ¨iĠ
Äģ ĠfÃ¹Ġ
bÃ¹ ĠwÃ¨iĠyÃºĠ
xiÃło ĠyÇĴuĠ
lÇ ĺ
zÃłng ĠyÃºĠ
us Ġ
ĠhÃ©Ġ jÄ«Ġ
chÃ¡oĠ tÃŃngĠ
ĠhÃ©ĠnÃ¡nĠ shÄĽngĠ
hÇİnĠmÃ² ĠdÃ©Ġ
Ġ zÄĵngĠ
Ġ wÇİnĠ
qiÄģn ĠrÃ©nĠ
dÇİng ĠjÃŃĠ
bÇİi ĠwÃłnĠ
28 Ġ
ĠxiÃłn ĠyÇĶĠ
ĠxiÃłnĠ zÃłiĠdeĠ
xiÄģngĠ hÃ¹Ġ
ĠkÃ¨Ġ sÃłĠsÄ«Ġ
Ġ ruÇİn
hÃ²u ĠtÄģĠ
rÃ©nĠ mÃŃn
yÃ¡nĠ chÃ¡ngĠ
jiÃ©Ġ dÃ¹ĠshÇĲĠ
zÄ«Ġ xÃ¹n
wÅ«Ġ rÇİn
ĠshÇĴuĠ cÃ¬
tÃ¡nĠ pÃłn
Ġ guÃ¬Ġ
or ĠĠĠ
zhÄĵn ĠyÇĶĠ
ĠshÃ¬Ġ duÃ¬Ġ
ĠtÄģ ĠchÃ©ngĠwÃ©iĠ
ĠzhÅįu ĠhÃ©Ġ
fÄģĠ bÃ¹ĠdeĠ
fÇİĠ guÃ³ĠdeĠ
tiÄģnĠ qÃ¬Ġ
bÃłnĠ fÇİĠ
² Ġ
ĠĠĠ fÇİĠguÃ³Ġ
bÄĽn ĠbÃ¹Ġ
liÃº ĠxuÃ©Ġ
gÇİi ĠmÃŃngĠ
27 Ġ
ST AT
ĠdÃłĠ chÃ©ngĠ
ĠrÃ¨nĠ zhÃŃĠ
bÇİoĠ zhÃłngĠ
nÃłĠ rÃ¹Ġ
liÃłngĠ xiÃłngĠ
ĠquÃ¡nĠ miÃłnĠ
pÃłnĠ chÇĶĠ
ĠshÃ¬ĠshÃ¬Ġ jiÃ¨
mÃłoĠ xiÇİnĠ
lÇĲĠshÃ¬Ġ huÃ¬Ġ
ĠrÃ©nĠkÇĴu ĠdeĠ
tÃºĠshÅ«Ġ guÇİn
1 ĠhÃłoĠ
Ġ zhÄģoĠ
Ã©r ĠtÃ³ng
zÇĴng ĠzhÃłnĠ
sÃ¹ ĠshÃ¨Ġ
chuÃ¡n ĠqÃŃĠ
qÃ¹ ĠdeĠ
fÇĴu ĠrÃ¨nĠ
ĠshÃ¬Ġ zhÃ¨ngĠfÇĶĠ
ĠzÃłiĠ qÃŃ
ĠbÃ¹Ġ jÇĲn
ĠsÄ«Ġ fÇİĠ
mÃŃnĠ zhÃ²ng
ĠbÃ¬ngĠ jiÄģng
kÃ¨Ġ yÃ¹nĠ
zhuÇİnĠ yÃŃĠ
qÇĶĠdÃ©Ġ leĠ
qiÃ¡n ĠxiÃłnĠ
cÄģn ĠyÃ¬ĠyuÃ¡nĠ
cÃŃ ĠhuÃ¬Ġ
xÇĲng Ġ
liÇİn Ġ
ĠniÃ¡nĠ qiÃ¡nĠ
ĠyÄ«Ġ lÇİng
ĠzhÄ« ĠbÃ¹Ġ
rÃ¨nĠ zhÃŃĠ
wÃłiĠ guÄģnĠ
mÃ¬ngĠ mÃŃngĠdeĠ
rÃ©nĠdÃłĠ dÃłiĠbiÇİoĠ
Ġ lÃ¡n
ĠĠĠ chÃ©nĠ
liÃ¹ ĠgÃ¨Ġ
ĠyÇĲĠ 2Ġ
wÇİngĠ wÇİngĠ
biÄģnĠ jiÃ¨
hÃºĠ pÅįĠ
dÄĵngĠ lÃ¹
ĠjiÄģng ĠxÄ«Ġ
Ġ 1992ĠniÃ¡nĠ
wÃ©i ĠrÃ©nĠ
duÅį ĠbÃ¹Ġ
sÄģn ĠyuÃ¨Ġ
dÃłng ĠzuÃ²Ġ
fÄģngĠ chÃ©ngĠshÃ¬Ġ
ĠrÃ¬ĠbÄĽn ĠdeĠ
luÃ³ĠmÇİ ĠdÃ¬ĠguÃ³Ġ
ĠxiÃłnĠdeĠyÃŃĠgÃ¨ ĠxÃŃngĠzhÃ¨ngĠzhÃ¨nĠqÅ«Ġ
yÇĲng ĠdÃłiĠ
zhÄĵn ĠdeĠ
ĠshÃ¬Ġ yÃłnĠ
ĠwÃ¨iĠ wÃ¨iĠ
ĠxiÄģngĠ sÃ¬Ġ
dÄģnĠ mÃłi
yÇİnĠ zÃ²u
mÃ¬Ġ dÃ¹Ġ
huÃŃĠ guÄ«
rÃ©nĠkÇĴuĠpÇĶĠ chÃ¡Ġ
Ġ hÄĵi
chÄĵ ĠrÃ©nĠ
bÅį ĠchÅ«ĠdeĠ
80 Ġ
ĠzhÄ«Ġ hÃ²uĠzÃłiĠ
rÃºĠ guÇĴ
xÄ«ngĠ xÃ¬Ġ
ĠR Ġ
shÄģnĠxÄ«Ġ shÄĽngĠ
Ġ chuÃłng
Ġ 37
Ġ 2023ĠniÃ¡nĠ
Ġ 1994ĠniÃ¡nĠ
ĠĠĠ yÃ¡nĠgÃ©Ġ
miÇİn ĠyÃ¬Ġ
ĠjiÃłn ĠzÃłiĠ
ĠbÃ¨iĠ jÇĲngĠ
zhÃ¨Ġ yÃłngĠdeĠ
ĠquÃ¡n ĠdeĠ
ĠtÃ³ngĠshÃŃĠ yÄĽĠshÃ¬Ġ
ĠqÄ«Ġ jiÄģn
ĠdÃł ĠbÃ¹ĠfÃ¨n
kÄģiĠfÄģ ĠdeĠ
ĠĠĠ 2008ĠniÃ¡nĠ
ĠĠĠ yÇĲĠxiÃłĠ
tÇĲ ĠjÄ«Ġ
nÃł ĠhÃ©Ġ
jiÇİ ĠshÃ¨Ġ
kÄģ Ġ
ĠshÃ¬Ġ zhÇĲ
gÇİiĠ chÄĵngĠ
fÃłnĠ zuÃ¬
ĠdÅįngĠ bÄĽi
wÄĽiĠyuÃ¡nĠhuÃ¬Ġ zhÇĶĠxÃŃĠ
guÇİngĠfÃłn ĠdeĠ
ĠliÃºĠyÃ¹Ġ miÃłnĠjÄ«Ġ
Ġ qÇĶ
Ġ tÄ«ngĠ
chuÃ¡n ĠdÃ¬Ġ
cÅ«n ĠdeĠ
ĠxiÃłn ĠzhÅįngĠ
ĠdÃłĠ fÅ«Ġ
ĠdÃłn ĠdeĠ
ĠliÃ¡nĠ mÃ©ngĠ
ĠgÄĵnĠjÃ¹Ġ 2020ĠniÃ¡nĠmÄĽiĠguÃ³ĠrÃ©nĠkÇĴuĠpÇĶĠchÃ¡ĠdeĠshÃ¹ĠjÃ¹Ġ
Ġ fÃ©ng
Ġ wÄģng
yÇĴu ĠhÃ©Ġ
lÃŃ ĠshÃ¬Ġ
chÃ¡o ĠshÃŃĠ
jÃº ĠshÃ¬Ġ
48 Ġ
zÇĴngĠ miÃłnĠjÄ«Ġ
gÇİiĠ zÃło
ĠP Ġ
Ġ Da
Ġ hÄĵngĠlÃ¬Ġ
xÄ«n ĠxÃŃngĠ
kÄģi ĠshÃ¨
chÃ¡ng ĠbÃ¨iĠ
zÇĲ ĠdÃłnĠ
dÃłng ĠdeĠ
tÄģo Ġ
xuÃ©Ġ xÃ¬Ġ
shÅįuĠ cÃ¡ng
ĠÄģn ĠdÃ©Ġ
Ġ 400
le ĠdÃ¬Ġ
ĠchÃ©ngĠ lÃ¬ĠdeĠ
ĠbÃ¬ngĠ fÄĵi
ĠzÃ¬Ġ mÇĶĠ
hÃ¡ngĠkÅįngĠ mÇĶ
Ġ 39
gÃ© ĠlÇĲĠ
18 ĠniÃ¡nĠ
jÇĲng ĠyuÃ¡nĠ
qiÇİn ĠzÃ©Ġ
kuÄģng Ġ
bÃ¹Ġ tÃ³ngĠ
yÃ¬Ġ bÇİiĠ
xÄ«Ġ yÃ¡ng
diÃłnĠ zÇĲ
ĠbÃ¬Ġ xÅ«Ġ
fÄĵiĠlÇľĠ bÄ«nĠ
g ÄĽn
Ġ shuÄģng
ĠĠĠ tÃ³ng
chÃ¡ ĠÄĽrĠsÄ«Ġ
zhÇİng ĠhÃ©Ġ
jiÄģo ĠdeĠ
wÇİn ĠniÃ¡nĠ
60 ĠniÃ¡nĠ
ĠzÃłiĠ bÃ¨iĠ
ĠshÃŃĠ yÃ³uĠ
ĠjÄ«Ġ xiÃ¨
yÃŃĠ dÃ¹
sÃłiĠ chÄĵĠ
jiÄģoĠ jiÃ¨Ġ
nÇļĠ hÃ¡iĠ
shÄģngĠ chÇİngĠ
w it
Ġ shÄĵng
Ġ 21
ĠĠĠ tÃ¡iĠwÄģnĠ
fÃº ĠshÃ¬Ġ
ĠxÄ«Ġ fÄģngĠ
ĠqÃŃĠ hÃ²uĠyÃºĠ
tÃŃngĠ kÃło
diÃłnĠyÇĲng ĠdeĠ
Ġ 300
Ġ 1996ĠniÃ¡nĠ
ĠĠĠ 189
xÄ«ng ĠjiÃłn
gÄĵn ĠbÄĽnĠ
35 Ġ
es ĠĠĠ
pÇİo ĠdÃłoĠ
ĠzhÅįngĠ qÄ«Ġ
ĠshÃŃĠ lÃ¬Ġ
zhÃ¨ngĠ chÃ¡ngĠ
ĠzhÄ«Ġ shÃłngĠ
bÇİoĠ jiÄģ
yÃŃĠ cÃ¬ĠshÃ¬ĠjiÃ¨ĠdÃłĠzhÃłnĠ
qiÃ¡ngĠ diÃło
dÃ©Ġ guÃ³ĠdeĠ
bÇĶĠ chÅįngĠ
fÃºĠjiÃłnĠ shÄĽngĠ
Ġ a
ĠĠĠ xiÄģngĠgÇİng
40 ĠniÃ¡nĠ
ĠshÃŃĠ kÃ¨Ġ
ĠgÃ¨ ĠbÃ¹Ġ
fÄĵnĠ pÃ¨i
fÄĵnĠ liÃ¨Ġ
ch i
hÃło ĠdeĠ
er i
ĠyÇĴuĠ liÇİngĠ
lÇĲĠ lÃ¡nĠ
ĠzhÅįu ĠlÃ¬Ġ
shÇĴuĠ shÃ¹Ġ
ĠduÃ¬Ġ wÃłiĠ
jÄ«nĠ rÃ³ng
shÃ²uĠ huÄģnĠ
wÃ¡ngĠ zÇĲĠ
guÄ«Ġ lÃ¨i
ĠlÃ¬ĠshÇĲĠ xuÃ©ĠjiÄģĠ
ĠyÃ¬ĠshÃ¹ ĠjiÄģĠ
c ri
Ġ jÇĲ
Ġ St
sÄģn ĠbÃ¹Ġ
sÃ¬ ĠyuÃ¨Ġ
shuÃ² Ġ
ĠduÃ¬Ġ wÇĶĠ
jÄ«nĠ shÄģnĠ
ĠxiÄģngĠ bÇĲĠ
yÇİnĠ jiÇİngĠ
qÃŃngĠ bÃło
yÄ«nĠ sÃ¹Ġ
ĠmÇĲ ĠzhÃ¬Ġ
ĠguÄģngĠ xÃ¹Ġ
24Ġ xiÇİoĠshÃŃĠ
1925 ĠniÃ¡nĠ
yÃ¡nĠ lÃ¹nĠ
xÃ¹Ġ liÃ¨Ġ
wÄĵiĠ xiÃ©
ÄģĠÄĽrĠ bÄĵiĠsÄ«Ġ
cuÄ«Ġ huÇĲĠ
fÃ³Ġ jiÃło
Ġ chÃ³ngĠxÄ«nĠ
ĠĠĠ liÃºĠ
is Ġ
ĠhÃ©Ġ shÃłngĠ
ĠguÃ³Ġ shÃŃĠ
shÄĵngĠ yÄ«nĠ
zhÃŃĠ shÄĵngĠjÄ«Ġ
ĠjÃ¬n ĠÃ©rĠ
luÃ³Ġ lÄģĠ
qiÃ¡oĠ liÃ¡ngĠ
sÃłĠ lÄģĠ
ĠmiÃłnĠjÄ«Ġ 0
fÄģĠbÃ¹Ġ leĠ
gÇĶĠlÇİo ĠdeĠ
Ġ De
ch ĠĠĠ
gÄģo ĠdÃ¬Ġ
gÇĶ ĠjÃ¬Ġ
nÇļ ĠrÃ©nĠ
shuÇĲĠ shÄĵnĠ
yÇĲĠ sÃ¨Ġ
ĠjÄ«nĠ shÇĶĠ
gÃ¨Ġ zhÇĴng
chÄģoĠ guÃ²
zhÃ²ngĠdiÇİnĠ wÃ©nĠwÃ¹ĠbÇİoĠhÃ¹ĠdÄģnĠwÃ¨iĠ
jiÄģĠlÃ¬ĠfÃºĠ nÃŃĠyÃłĠzhÅįuĠ
dÄ«ĠqÃ¬Ġ yÄģĠ
1 ĠmÃŃngĠ
duÃ¬ ĠtÄģĠ
ĠshÃ¬Ġ xÄ«ĠbÄģnĠyÃ¡Ġ
ĠhÃ©Ġ jÃ¬Ġ
ĠbÃ¹Ġ shÃŃĠ
ĠshÃŃĠ dÃłĠ
rÃ¨nĠ mÃ¬ngĠ
Ġ com
lÃ¡i ĠkÃ¨Ġ
tÃ¨ ĠzÃłiĠ
fÃº ĠyÄ«nĠ
yÃł ĠsÄ«Ġ
ID Ġ
ĠyuÃ¡nĠ ziĠ
xÄ«nĠ jiÄģngĠ
qiÃ¡nĠ jÃ¬nĠ
ĠshÃ¨Ġ yÇĲngĠ
tÃºĠ shÄģĠ
kÅįngĠ xÃŃĠ
tÇİnĠ dÄ«ngĠ
ĠkÄĽ ĠshÃ¬Ġ
Ġ yÃło
shÃ ¡
shÄģ ĠdeĠ
jÃº ĠbÃ¹Ġ
14 ĠniÃ¡nĠ
ing Ġ
ĠyÃ¬Ġ dÃłĠ
ĠjÅ«nĠ tuÃ¡nĠ
nÇļĠ zhÇĶĠjuÃ©Ġ
shÅįuĠ rÃ¹
ĠjÇĲngĠ fÄģngĠ
Ġ hÇİoĠ
19 ĠniÃ¡nĠ
luÃ² ĠkÃ¨Ġ
huÃŃ ĠjiÄģĠ
ĠgÅįngĠ gÃłoĠ
ĠzhÄ«Ġ hÃ²uĠdeĠ
jÃ¬ngĠ tÃ³uĠ
mÃ³Ġ tÃ¨
ĠshÃ¬ĠyÄ«Ġ kÄĵ
h n
Ġ luÃ³ĠsÄ«Ġ
Ġ kuÄģnĠ
ĠĠĠ 8
guÇİng ĠzhÅįuĠshÃ¬Ġ
70 ĠniÃ¡nĠ
ĠguÃ³Ġ jÅ«nĠ
fÃºĠ lÃ©i
zÄ«Ġ xÃºnĠ
chÃ©ngĠlÃ¬Ġ hÃ²uĠ
Ġ bÃ¹ĠzÃłiĠ
dÃł ĠyÃºĠ
luÃ² ĠzÃłiĠ
1970 ĠniÃ¡nĠdÃłiĠ
ĠshÃ¬Ġ xÄ«ngĠdÄĽngĠwÃ¨iĠ
u l
shuÇĲ ĠdeĠ
zhuÇİn ĠchÃ©ngĠ
yÄ«Ġ yuÃłnĠ
ĠyÇĲĠ bÄĽiĠ
ĠxiÃłnĠ mÃŃngĠ
xuÇİnĠ qÅ«
yÄ«ngĠ xiÃ³ng
yÃ¡nĠjiÅ« ĠzhÅįngĠxÄ«nĠ
ĠÐ °
dÃŃĠshÃ¬Ġ nÃŃĠ
zhuÄģn ĠlÃ¬Ġ
ĠrÃ©nĠ duÃ¬Ġ
ĠxiÃłĠ leĠ
pÇĶĠ luÃ³Ġ
zhuÄģnĠ mÃ©n
pÃ©iĠ xÃ¹nĠ
ĠniÃ¡nĠqÄ«ng ĠdeĠ
Ġ dÃ²uĠ
jiÄĵ ĠdeĠ
wÇĶ ĠdÃ©Ġ
gÃ²ng ĠjÃ¬Ġ
jiÃ¹ ĠzÃłiĠ
00 ĠniÃ¡nĠ
lÃºn ĠsÄ«Ġ
shÃ©nĠ huÃłĠ
diÃłnĠyÇĲngĠ jiÃ©Ġ
Ġ dÃ¹
Ġ kuÃłiĠ
zhÃ¬Ġ dÃ¹Ġ
ĠzhÃ¨ngĠ quÃ¡nĠ
yÃŃĠ dÃ¬ngĠdeĠ
lÃ¡nĠ sÃ¨Ġ
fÇİĠlÃ¡nĠ xÄ«
Ġ ED
Ġ yÃ¹nĠ
duÅį ĠlÃ¬ĠyÃłĠ
jiÃ¹ ĠbÃ¨iĠ
biÃłn ĠshÃ¬Ġ
tÃŃng ĠdeĠ
kuÃłi ĠdeĠ
ĠshÃ¬Ġ yÄ«ngĠguÃ³Ġ
ĠjÃŃĠ bÃ¬ng
yÇĶĠ mÃ¡o
qÅ«Ġ zhÃº
fÄģngĠ xiÃłngĠdeĠ
ĠtiÄģnĠ jÄ«nĠ
5 000
Ġ chÃ¹Ġ
gÅįng ĠhÃ©Ġ
nÃ¡n ĠrÃ©nĠ
mÇİi Ġ
fÃ©i ĠtÃ¨Ġ
ĠmÃŃngĠ xiÇİnĠ
mÃ³Ġ fÇİĠ
tÇĲĠyÃ¹Ġ guÇİnĠ
3 ĠmÃŃngĠ
8 ĠgÃ¨Ġ
p en
ĠĠĠ 2005
zhÄ« ĠjiÄģĠ
gÇĶ ĠdeĠ
gÃło ĠshÃ¬Ġ
ĠxÃŃngĠ rÃ³ng
bÄĽnĠ shÄĵnĠ
nÃ¨iĠ ruÃ¬Ġ
tÃ³uĠ shÇĴuĠ
yÃŃngĠ yÃ¹n
zhuÇİnĠ huÃłn
ĠshÃ¬ĠshÃŃĠ shÃłngĠ
Ġ zÇĲĠ
dÃł ĠhÃ©Ġ
shuÇĲ ĠhÃ©Ġ
zhÃ¬Ġ zuÃ²
ĠjÃŃĠ xiÃłnĠ
ĠrÃ¬ ĠhÃ©Ġ
ĠjÅ«n ĠyÇĴuĠ
fÃ¹Ġ shÇĲĠ
ĠzhÅįuĠ qÄ«Ġ
ĠyÃ³uĠ xÃ¬ĠdeĠ
zhÇĲĠ kÃ²ng
zhÇĶnĠ bÃ¨i
Ġ 1949ĠniÃ¡nĠ
nÃ¡ng Ġ
ĠshÃŃĠ pÇĲnĠ
ĠbÃ¬ng ĠshÃ¬Ġ
ĠtÃ³ng ĠzhÃ¬Ġ
qÄ«ngĠ chÇĶĠ
chÇİnĠ wÃ¹Ġ
ÃłnĠ zhÃło
rÃ¬ĠbÄĽn ĠdeĠ
Ġ 2002
wÇİng ĠyÇĴuĠ
ĠwÃ¨iĠ lÃ¬Ġ
ĠyÃºĠ 2021
liÃºĠ liÃłngĠ
zhÄĵngĠ qÇĶĠ
zhuÇİnĠ huÃłnĠ
mÄĽiĠguÃ³ĠrÃ©nĠkÇĴuĠpÇĶĠ chÃ¡Ġ
sÄģiĠÄĽrĠwÃ©iĠ yÃłĠ
ĠĠĠ dÃłoĠ
zhÃłn ĠhÃ©Ġ
kÃ¨ ĠsÄ«Ġ
rÃ¹ ĠqiÃºĠ
biÃłn ĠdeĠ
dÇİn Ġ
ĠxÃŃng ĠrÃ©nĠ
liÃłngĠ zÇĲĠ
ĠwÃ¨iĠyÃºĠ yÃŃn
sÅ«Ġ dÄģnĠ
kÄĽĠnÃ©ngĠ xÃ¬ngĠ
zhuÃłnĠ xiÄĽĠ
shÃ¹nĠ xÃ¹Ġ
ĠlÃºĠ wÇİĠÄĽrĠshÄĽngĠ
sÃ¬ĠchuÄģnĠ shÄĽngĠ
E ĠĠĠ
jÃ¬Ġ zÇİiĠ
ĠxÃŃngĠ rÃ³ngĠ
ĠbÃ¨iĠ rÃ¨nĠmÃ¬ngĠwÃ¨iĠ
ĠzhÇĶĠ tÃŃĠ
qiÃºĠ chÇİngĠ
ĠshÃ¬ĠjiÃ¨ ĠshÃłngĠ
ĠmÄĽi ĠzhÅįuĠ
gÃ²uĠmÇİi Ġ
Ġ wÃ²Ġ
fÄģng ĠzÃłiĠ
chuÄģn ĠxiÃłnĠ
ĠyÃºĠ shÃŃĠdeĠrÃ©nĠkÇĴuĠshÃ¹ĠliÃłngĠwÃ¨iĠrÃ©nĠ
bÃ¨iĠ jÇĲng
sÃłiĠ guÃłnĠjÅ«nĠ
gÇĶĠ diÇİnĠ
chÃ¨Ġ xiÄģo
N H
Ġ pÄģn
huÃł ĠshÃ¬Ġ
tÃ¡n ĠhÃ©Ġ
ĠshÃłngĠ leĠ
ĠhuÃ²Ġ zhÄĽ
jiÇİnĠ dÄģnĠdeĠ
ĠwÃ¨iĠyÃºĠgÄģiĠguÃ³Ġ xÄ«ĠbÃ¹Ġ
bÄģoĠhÃ¡n ĠleĠ
Ġ g
zÃłi ĠĠĠ
bÄģ ĠbÃ¹Ġ
chÃ¬ ĠjÄ«ngĠ
35 ĠniÃ¡nĠ
ĠshÃ¬Ġ jÃ¬ĠzhÅįngĠ
ĠlÃ¬Ġ tÃ¡oĠ
fÇİĠ lÃ¡nĠkÃ¨Ġ
ĠfÄĵiĠ lÇľĠ
ĠyuÃ¡nĠzhÃ¹Ġ mÃŃnĠ
Ġ kÇİĠÄĽrĠ
mÇİ ĠlÃ¬ĠyÃłĠ
dÄĽng ĠyÃºĠ
or i
bÇĶ ĠzhÃ¹Ġ
kÄģiĠ zhÇİn
zhÄĵngĠ fÃºĠ
lÇĲngĠ tÇĶ
wÄĽiĠ tuÅįĠ
tiÃ¡oĠ wÃ©nĠ
dÃłiĠbiÇİoĠ tuÃ¡nĠ
ruÇİnĠ tiÃ¡oĠ
hÃło ĠwÃ¨iĠ
CD Ġ
jiÄģngĠ hÃ¹
tÅįngĠ xÃ¹n
sÃ¬Ġ hÅ«
qÇĶĠ mÃ¹Ġ
ĠxiÄģngĠdÄģng ĠyÃºĠ
Ġ wÄĵnĠ
ĠĠĠ hÃ³ngĠ
ĠĠĠ yÃ³uĠxÃ¬Ġ
kÄĽ ĠjiÃłnĠ
pÇĶ ĠjÃŃĠ
ĠtÄģ ĠrÃ©nĠ
zuÃ²Ġ zhÄĽĠ
yÃ³uĠ yÇĴngĠ
ĠdÃ©Ġ wÃ©iĠ
mÃ©iĠyÇĴuĠ rÃ¨nĠhÃ©Ġ
ĠtiÄģnĠ jÄ«n
Ġ 1949
hÃ²u ĠyÇĲĠ
jiÄģn ĠwÃ¨iĠ
bÅį ĠdeĠ
dÃº ĠdeĠ
gÃ¨ng ĠshÃ¬Ġ
rÃło Ġ
qiÃ¡nĠ tÇĲng
yÃ¡nĠshÄĵn ĠzhÃ¬Ġ
v en
Ġ 1995ĠniÃ¡nĠ
Ġ 1993ĠniÃ¡nĠ
zhÅįng ĠdeĠyÄ«Ġ
jiÇİ ĠjÃŃĠ
pÃŃn ĠdÃło
bÄĽiĠ bÃ¹ĠdeĠ
jiÄĵĠ xiÃłĠ
ĠxuÃ©Ġ shÃ¹Ġ
zhÃ¨nĠ rÃ³ngĠ
bÃ¬ngĠ rÃ¹Ġ
ĠzuÃ¬Ġ zÇİo
zhÇĶĠyÃło ĠshÃ¬Ġ
ĠyÇĴuĠxiÃłn ĠgÅįngĠsÄ«
qÃŃĠzhÅįngĠ yÄ«Ġ
gÄĵĠlÃºnĠ bÇĲĠyÃłĠ
sÅ«ĠwÃ©iĠ Äģi
± Ġ
qÇĶ ĠdeĠ
ĠshÃŃĠ Ã¨rĠniÃ¡nĠ
jÄ«Ġ guÄģnĠ
kÄģiĠ tÅįng
zhÃŃĠ bÃłng
tÃłiĠ shÇĴuĠ
gÄĵĠ gÄĵĠ
diÃłnĠshÃ¬Ġ dÃ²ngĠhuÃłĠ
ĠchÃºĠ cÇĲĠzhÄ«ĠwÃłiĠ
jiÃ¨ĠquÃ¡nĠguÃ³Ġ zhÃ¨ngĠxiÃ©Ġ
bÃłoĠfÄģ ĠhÃ²uĠ
Ġ liÃ¡ng
shÃ¹ ĠjiÄģĠ
piÃłn ĠzhÅįngĠ
me ĠĠĠ
ĠzÃłiĠ xiÄģngĠgÇİngĠ
ĠshÃŃĠ yÄ«ĠniÃ¡nĠ
ĠjÃŃĠ wÃ©iĠ
ĠyÇĲĠ biÃłnĠ
tÅįngĠ wÇİngĠ
wÇĶĠ hÃłnĠ
ĠyÃ¹ ĠjÃ¬Ġ
D NA
Ġ ë
Ġ tÃŃĠchÅ«Ġ
yuÃ¡n ĠbÃ¹Ġ
chÄĵ ĠxÃŃngĠ
fÃ¨n ĠdeĠ
1919 ĠniÃ¡nĠ
ĠzhÅįngĠ xÄ«nĠdeĠ
ĠdÃłĠ xiÇİoĠ
gÃ©Ġ lÄģĠsÄ«Ġ
O R
Ġ pÃ©ng
wÃłn ĠlÃ¬Ġ
hÅ« ĠxÄ«Ġ
el Ġ
ĠdÃłĠ lÇĲĠ
jÃ¹Ġ lÃŃ
liÃ¡nĠ luÃ²Ġ
ĠdeĠdÃ¬Ġ sÄģnĠ
shÅįuĠ fÃ¨iĠ
hÄĽnĠ dÃłĠdeĠ
mÃ¡oĠ dÃ¹nĠ
Ġ fÃ¡n
jÃ¬ ĠzhÃ¬Ġ
jiÄĵ ĠshÃ¬Ġ
jiÃ¨ ĠshÃŃĠ
hÄģ ĠlÇĲĠ
huÇĴ ĠlÃ¬Ġ
rÃ©ng ĠwÃ¨iĠ
at ĠĠĠ
kuÃł ĠyuÃ¨Ġ
TV Ġ
ty Ġ
ĠshÃ¬Ġ Ã©ĠluÃ³ĠsÄ«Ġ
ĠrÃ©nĠ bÃ¨iĠ
yÃ²ngĠ hÃ¹
dÃ²ngĠ wÃ¹
shuÇĲĠ liÃłngĠ
xiÃ©Ġ tiÃ¡oĠ
huÇĴĠ chÄĵĠzhÃłnĠ
nÃ³ngĠ chÇİngĠ
chÅįngĠ mÇİnĠ
xuÄģnĠ yÃ¡nĠ
ĠchÃ¬Ġ wÄĽiĠ
ĠĠĠ Ã¨rĠ
ĠĠĠ jiÇİnĠlÃ¬Ġ
zhÃłn ĠyÇĴuĠ
chÄĵng ĠshÃ¬Ġ
gÇĶ ĠxÄ«ĠlÃł
sÄĵng Ġ
yÃ¬Ġ mÃŃngĠ
wÃ¹Ġ pÇĲnĠ
duÅįĠ zhÇĴng
ĠyÃ³uĠ tÃłiĠ
hÇİiĠ nÃ¡nĠ
shÄĽngĠ zhÇİngĠ
huÃ¡ngĠ jÄ«nĠ
chuÃłngĠ zÃło
ĠxiÃłnĠshÃŃĠ yÃ³uĠ
ĠĠĠjÇĲnĠ guÇİnĠ
ĠĠĠ kÇİĠ
hÇİi ĠdeĠ
tÅ« ĠjÄ«Ġ
ĠrÃ©nĠ yÇĶĠ
ĠjÃŃĠ gÅįngĠ
ĠyÇĲ ĠbÃ¹Ġ
qÅ«Ġ nÃ¨iĠ
shÅįuĠ gÃ²u
qÄ« ĠzhÃ¬Ġ
jÃ¹n ĠdeĠ
si sĠ
ĠdÃłoĠ dÃ¡
ĠdÃ© ĠdÃło
ĠzhÃ¨Ġ zuÃ²Ġ
nÃŃĠ sÅ«Ġ
mÄĽiĠ xiÇİoĠshÃŃĠ
ĠjÄ«ngĠ chÃ¡ngĠ
zhÅįuĠ biÄģn
ĠjiÃłnĠzhÃ¹Ġ wÃ¹Ġ
Ġ kÄĵĠxuÃ©Ġ
xÄ«n ĠjiÃłnĠ
zÃło ĠxÃŃngĠ
ĠdÃ© ĠjÅ«nĠ
shÄĵnĠ tÇĲ
shÇĲĠyÃ²ngĠ zhÄĽĠ
ĠzhÃ¨ ĠshÃŃĠ
wÃłngĠyuÇİnĠ jÃ¬ngĠ
ĠĠĠ 2022ĠniÃ¡nĠ
xÃ¹ ĠdeĠ
cÃ©ng ĠbÃ¨iĠ
sp anĠ
ĠdÃłĠ bÇİnĠ
ĠchÅ«Ġ chÇİngĠ
lÃ³ngĠ shÄĽngĠ
xiÅ«Ġ dÃ¬ngĠ
g ht
j e
ĠĠĠ jÄ«ngĠlÃ¬Ġ
liÃ¹ ĠmÃŃngĠ
luÇİn Ġ
ĠdÃ¬Ġ yÄ«ĠwÃ¨iĠ
ĠjÃŃĠ huÃ¬Ġ
ĠjÃŃĠ qÃŃĠtÄģĠ
jÇĶĠ zhÃ¨nĠ
zhÅįngĠguÃ³Ġ dÃłĠlÃ¹Ġ
8 ĠmÇĲĠ
a mi
fÃł Ġ
ĠguÃ³Ġ yÇĴuĠ
ĠchÅ«Ġ xÃŃ
xÃ¬Ġ jiÃ©Ġ
liÃ¡nĠ luÃ²
ĠshÄĵngĠ tÃłiĠ
mÄĽiĠ tiÄģnĠ
jiÇİngĠ jÄ«nĠ
nuÃ²Ġ fÅ«Ġ
ĠguÄģnĠ zhuÃłngĠbÃ¬ngĠdÃº
ĠE Ġ
Ġ 2001
Ġ pÃºĠtÃ¡oĠyÃ¡
ÇĲ Ġ
nÃł ĠÄĽrĠ
11 ĠniÃ¡nĠ
ĠdeĠ gÄģoĠ
ĠrÃ©nĠ zhÃ¬Ġ
ĠchÃ©ngĠ yÄ«Ġ
ĠduÃ¬Ġ xiÃłngĠ
shÃ²uĠ huÄģnĠyÃŃngĠ
guÄ«Ġ dÃ¬ng
cÃ¡iĠ pÃłnĠ
tuÅįĠ lÃŃĠ
cÄģnĠyÃ¬Ġ yuÃłnĠ
ĠlÃ¬ĠfÇİ ĠhuÃ¬Ġ
yÃł ĠhÃ©Ġ
zÃ© ĠbÃ¨iĠ
chÃ³ng ĠjiÃłn
pÅ« Ġ
ĠzÃłiĠ fÇİĠguÃ³Ġ
ĠqÃŃĠ B
xuÄģnĠ chÄĵngĠ
Ġ lÃºnĠ
ĠĠĠ lÃŃnĠ
shÃ¨ng ĠdÃłnĠ
bÇİ ĠtÄģĠ
bo ok
68 ĠniÃ¡nĠ
ĠshÃŃĠ rÃ¨n
yÃ¡nĠ fÄģĠ
jiÃłoĠ gÄģoĠ
zhÇĲĠ shÃ¹Ġ
ĠrÃ¨nĠ mÃ¬ngĠ
pÃ¡iĠ liÃ¨Ġ
biÇİoĠxiÃłn ĠchÅ«Ġ
ĠjÃŃĠxÃŃngĠzhÃ¨ngĠ dÄģnĠwÃ¨iĠ
ĠÃłoĠdÃłĠlÃ¬Ġ yÃłĠ
Ġ k
Ġ qÃ¹Ġ
fÄģng ĠxÃŃngĠ
zhuÄģng ĠwÃ¨iĠ
1911 ĠniÃ¡nĠ
ĠshÃŃĠ sÄģnĠ
ĠyÃºĠ 2019
ĠÃ©r ĠhÃ²uĠ
zhÇĶĠ dÃ²ngĠ
bÃ¬Ġ yÃłoĠ
ĠyÃŃnĠ wÄĽiĠ
0 ĠzuÃ²ĠbiÄģoĠwÃ¨iĠ
2 ĠlÃ¬Ġ
xÃŃng ĠdeĠ
zi ĠshÃ¬Ġ
fÄĵi ĠdÃłnĠ
zhÄĵn ĠrÃ©nĠ
wÃ©iĠ yÄ«ĠdeĠ
bÃ¨iĠ ÄĽrĠ
ĠdÃłn ĠshÃ¬ĠzÃłiĠ
ĠdÃłnĠ zuÃ¬ĠzhÅįngĠ
jiÄģoĠ gÄĽiĠ
xÃ¹nĠ sÃ¹
huÇĴĠ chÄĵĠ
rÃ©nĠmÃŃnĠ zhÃ¨ngĠfÇĶĠ
ĠhÃºĠ bÄĽiĠ
ĠwÃ¨iĠyÃºĠyÃŃn ĠjÄ«ngĠ
ĠqÃŃĠB 1900
0ĠzuÃ²ĠbiÄģoĠwÃ¨iĠ chÃ¬ĠjÄ«ngĠ
ĠĠĠ 11ĠyuÃ¨Ġ
jiÄģng ĠjÅ«n
liÃ¡n ĠjÅ«nĠ
lÄģ ĠwÃ©iĠ
bÃ³ ĠÄĽrĠ
lÃºn ĠdeĠ
ï¼ İ
ĠzhÅįngĠ huÃ¡
jÄ«Ġ dÅ«Ġ
ĠxÃŃngĠ tÃłiĠ
gÃ¨ngĠ dÃłĠdeĠ
tÇĶĠ rÇİng
ĠjiÃłnĠzhÃ¹Ġ miÃłnĠjÄ«Ġ
ĠxÃ¬Ġ bÄģoĠ
kÃ²ngĠ zhÃ¬ĠdeĠ
gÃ²ngĠhÃ©Ġ dÇİngĠ
l an
Ġ wÅ«ĠkÃ¨ĠlÃ¡n
ĠĠĠ sÄģnĠ
ĠĠĠ fÄĵnĠbÃ¹Ġ
mÃŃng ĠhÃ©Ġ
suÇĴ ĠyÇĲĠ
jiÄģo ĠzhÃłnĠ
pe Ġ
1926 ĠniÃ¡nĠ
ĠsÄ«Ġ zhÃŃĠ
guÄģnĠ xÃ¬ĠdeĠ
xiÄģoĠ fÃ¡ngĠ
Ġãĥ ³
ĠzÃ© ĠshÃ¬Ġ
ĠqÄ«ngĠchÃ¡oĠ zhÃ¨ngĠzhÃ¬ĠrÃ©nĠwÃ¹Ġ
K B
huÃł ĠyÇĶĠ
xiÃłng ĠyÃºĠ
sÇĲ ĠleĠ
yÃ³uĠ xÃ¬ĠdeĠ
xiÃłoĠ lÇľĠ
ÅįuĠ mÃ©ngĠ
ĠT Ġ
Ġ huÃ¡n
ĠĠĠ shÃłngĠ
biÄģn ĠzhÃ¬Ġ
shÄģ ĠrÃ©nĠ
zhÅįngĠ huÃ¡ĠmÃŃnĠguÃ³Ġ
ĠjÃŃĠ tÇĲĠ
ĠĠĠchÄĵĠzhÃłnĠ gÃ²uĠzÃłoĠ
luÃ²ĠfÃ¡ ĠkÃ¨Ġ
Ġ Åįu
Ġ 1985ĠniÃ¡nĠ
ĠĠĠ 6
ĠĠĠ Y
ĠĠĠ pÃŃngĠ
lÃ¹n ĠshÃ¬Ġ
xiÄĽ ĠwÃ¨iĠ
75 ĠniÃ¡nĠ
wÄĵng Ġ
ĠshÃŃĠ bÄģĠ
ĠyÃºĠ tÃ³ng
ĠdÃłĠ jiÄĵĠ
jÄ«nĠ shÇĶ
ĠjÃ¹Ġ qÃŃngĠ
zÃºĠ qÃºnĠ
ĠmÇĶĠ qÄ«n
jiÄĽĠfÃłng ĠjÅ«n
ĠĠĠ chÃºĠ
dÇİo ĠhÃ©Ġ
mÃłn ĠdeĠ
kÃłng ĠzhÃłnĠ
ĠjÃŃĠ chÃ©ngĠ
jÄ«Ġ chÄĵĠ
yÃŃĠ bÃłnĠ
jiÃłĠ gÃ²uĠ
xÇĶĠ kÄĽĠ
ÃłiĠÄĽrĠ lÃ¡n
Ġ zhÄĽngĠgÃ¨Ġ
wÇĴ ĠdeĠ
dÄģ ĠzÃłiĠ
zhÇĶĠ quÃ¡nĠ
ĠqiÃºĠ duÃ¬
4 ĠmÇĲĠ
zhÃŃ ĠxÃŃng
nÃ¨i ĠsÄ«Ġ
dÇĴng Ġ
wÃ¹Ġ tÇĲĠ
zhÇĲĠ dÃ¬ng
jÇĲnĠ zhÄģngĠ
zhÄĵnĠ zhÃ¨ngĠdeĠ
cÇİiĠyÃ²ngĠ leĠ
ĠdÃł ĠbÃ¹ĠfÃ¨nĠ
shÃ¹nĠshÃŃĠ zhÄĵnĠyÇĶĠ
Ġ 160
bÄģ ĠsÄ«Ġ
cÄģn ĠjiÃłnĠ
wÄĵn ĠdÃłiĠ
hÅ«n ĠyÄ«n
64 ĠniÃ¡nĠ
tiÄĵ ĠmÃ¹
1918 ĠniÃ¡nĠ
ĠyÄ«Ġ shÃŃĠ
ĠyÇĲĠ dÅįngĠ
ĠxiÃłnĠ zhÇİngĠ
zÃ¬Ġ wÇĴĠ
fÄĵngĠ gÃ©ĠdeĠ
pÇĶĠ lÄģĠ
tÃŃĠ qiÃ¡nĠ
sÃ¨Ġ cÇİiĠ
liÃ¡nĠmÃ©ng ĠdeĠ
Ġ wÄĽi
Ġ xiÅįng
zÃ© ĠyÃ³uĠ
pÄ«n Ġ
ĠshÃ¬Ġ tÃ¡iĠwÄģnĠ
ĠdÃłĠ duÃ¬Ġ
zhÇĶĠ dÇİĠ
guÄģnĠ kÃłnĠ
suÇĴĠ xÅ«
ĠĠĠ 2009ĠniÃ¡nĠ
lÃ¡i ĠshÃ¬Ġ
duÅį ĠÄĽrĠ
lÃŃn ĠjÃ¬nĠ
zhÃ¨n ĠjÃŃĠxÃŃngĠzhÃ¨ngĠdÄģnĠwÃ¨iĠ
ĠbÃ¹Ġ chÃ©ngĠ
fÄģngĠ biÃłnĠ
ĠyÃ³uĠ zhÃ¨ngĠ
juÃ©Ġ sÃ¨ĠdeĠ
dÃ¬ngĠ yÃ¬ĠwÃ¨iĠ
ĠzÃ¬Ġ rÃ¡n
tÃºĠ ÃłnĠ
chÃ³ngĠ fÇİnĠ
ĠyÇĲnĠ fÄģĠ
7 ĠmÇĲĠ
Ġ zÃłoĠ
ĠĠĠ tÄģĠdeĠ
shÃ¨ng ĠdeĠ
ĠzhÅįngĠ yÄ«Ġ
ĠzhÃ¬Ġ yuÃ¡nĠ
shÄĵngĠ gÃ©ĠwÃ¨iĠ
ĠjiÃłnĠ kÄģng
ĠquÃ¡n ĠxiÃłnĠ
zuÃ¬Ġ zhÃ²ngĠyÃłoĠdeĠ
ĠzhÃ¨Ġ yÃłng
zhÇĴngĠ lÃ¨iĠ
kÃłnĠ fÇİĠ
ĠwÄĵi ĠÄĽrĠ
Ġ zÅįngĠ
Ġ liÃ¨ĠchÄĵĠ
Ġ sÅįngĠ
Ãłn ĠlÃ¬Ġ
ĠĠĠ Ã©rĠ
28 ĠniÃ¡nĠ
ra Ġ
bÃŃ Ġ
ĠshÃ¬Ġ lÃ¡ngĠ
ĠzÃłiĠ qiÃ¡nĠ
ĠzhÅįngĠ jiÃłngĠ
ĠjÃŃĠ biÃ©Ġ
ĠÃ©rĠ tÃ³ng
ĠshÃłngĠ yÃ¬ngĠ
cÃ¬Ġ shÃ¹Ġ
tÃ³ngĠ yÃłngĠ
cÄģnĠ guÄģnĠ
ĠzhÃ¨ngĠfÇĶ ĠdeĠ
ĠrÃ©nĠkÇĴu ĠwÃ¨iĠ
ĠĠĠ gÇĶĠ
ĠĠĠ guÃ³ĠjÃ¬Ġ
jÇĲng ĠwÃ¨iĠ
xiÄģn ĠwÃ©iĠ
jiÃł ĠdeĠ
1914 ĠniÃ¡nĠ
ĠyÄ«Ġ liÃ¡o
ĠyÄ«n ĠÃ©r
jiÄģnĠ chÃŃĠ
Ġ kÄģiĠfÄģĠ
yÃ²u ĠyÃ¬Ġ
xiÄģn ĠdeĠ
90 Ġ
mÃ¡i Ġ
yÃ¬Ġ huÃ¬Ġ
ĠyÃºĠ 2016
ĠzhÅįuĠ zhÇİngĠ
wÇİngĠ wÇİng
jiÇİnĠ chÃ¡
shÄĽnĠ pÃłnĠ
Ġ17 Ġ
hÃ¹nĠ nÃŃngĠ
Ġ 58
shÃ²u ĠdÃłoĠleĠ
qÃ¹ ĠleĠ
65 ĠniÃ¡nĠ
ĠgÃ¨ ĠguÃ³ĠjiÄģĠ
ĠyÇĶĠ xÄ«Ġ
dÄģnĠ dÃºĠ
biÄģnĠ zÇĶĠ
Ġ tÃłiĠguÃ³Ġ
Ġ guÇİngĠxÄ«Ġ
ĠĠĠ xiÇİoĠ
shÄ« ĠjÃŃĠ
shÄĵn ĠyÃºĠ
lÃ¹n ĠdeĠ
xÃ¹n ĠxÄ«Ġ
62 ĠniÃ¡nĠ
um Ġ
ĠzhÅįngĠ duÃłnĠ
ĠdÃłĠ chÃ©n
qÃºnĠ dÇİoĠdeĠ
Ã¨Ġ huÃłĠ
Ġ nÃŃ
Ġ bÄ«nĠ
ĠĠĠ 7
mÃŃng ĠyÃºĠ
xÃ¬ng ĠmÃŃngĠ
1950 ĠniÃ¡nĠ
ĠyÇĶĠ wÃ©nĠ
zhÃ¹Ġ shÇĴuĠ
miÃłnĠ xiÃłngĠ
chÄĵngĠ hÅ«Ġ
ĠyÃ³u ĠqÃŃĠ
ĠJ Ġ
bÄģ ĠjÄ«ĠsÄ«Ġ
ĠshÃ¬Ġ chÃ©ngĠ
ĠshÃ¬Ġ chÅ«Ġ
ĠyÇĴuĠ mÃŃngĠ
ĠdÃło ĠshÃŃĠ
ĠyÇĲĠ cÇĲĠ
jiÃłoĠ liÃłn
ĠzhÅįuĠ fÃ¹ĠzÃ©ĠguÇİnĠxiÃ¡Ġ
wÃłiĠ lÃ¡ngĠ
tiÄģnĠ wÃ©nĠxuÃ©Ġ
xiÇİngĠ yÃłoĠ
jiÇİngĠ pÃ¡iĠ
gÄĵnĠ suÃŃĠ
ĠzhÃłn ĠhÃ²uĠ
ĠÃłi ĠÄĽrĠ
tiÃ¡oĠyuÄĵĠ tÇĲĠxÃ¬Ġ
4 ĠmÃŃngĠ
7 ĠgÃ¨Ġ
Ġ 47
Äģn ĠxiÃłnĠ
ĠĠĠ luÃ³Ġ
ĠĠĠ wÃ¡ngĠ
ĠĠĠ zuÃ²ĠwÃ©iĠ
suÇĴ ĠshÃ¬Ġ
tÃ¡ng ĠhÃ©Ġ
ĠzhÅįngĠ shÄģn
hÃ²uĠ qÄ«Ġ
jÄ«ngĠ yÃłn
sÃ¹Ġ dÃ¹
pÃ©iĠ xÃ¹n
ĠpÃŃng ĠchÃ©ngĠ
A L
Ġ 1988ĠniÃ¡nĠ
jÃ¬ ĠbÃ¹Ġ
wÃ¹ ĠbÃ¹Ġ
th er
70 Ġ
jÄ«Ġ huÃ¬Ġ
zhÇĶĠ bÃłnĠ
fÃ¹Ġ mÇĶĠ
jiÄģnĠ chÃ¡
gÄĵĠ shÇĴu
ĠxiÄģngĠ guÄģnĠdeĠ
ĠzhÃŃĠ jiÄĵĠ
E T
Ġ 1984ĠniÃ¡nĠ
suÄģn ĠjiÇİnĠ
ĠdeĠ xÃŃngĠ
fÄģngĠ Ãłn
qiÃ¡nĠ shÄĵnĠ
xuÇİnĠ mÃŃnĠ
kÄĵĠ huÃ¬ĠshÃ¬ĠdÃ¬Ġ
Ã¨rĠ shÃŃĠniÃ¡nĠ
ĠdeĠshÃŃĠ jiÄģn
ĠguÃ³ĠfÃ¡ng ĠbÃ¹Ġ
ĠĠĠ 2007ĠniÃ¡nĠ
xiÇİng ĠyÇĴuĠ
ĠjÄ«Ġ fÄĵnĠ
yÃ³uĠ jÃº
piÃłnĠ duÃłnĠ
ĠlÃ¡iĠ zÃ¬
nÃ¡nĠjÃŃĠ tiÃ¡oĠyuÄĵĠtÇĲĠxÃ¬Ġ
Ġ 600
ĠĠĠ quÃ¡nĠ
tÄ«ng ĠdÃłoĠ
yÃŃn ĠhÃ©Ġ
tÅ« ĠrÃ¡n
cÃ¡n ĠjÃŃĠrÃ©nĠ
ĠbÃ¹Ġ lÇĶĠ
ĠrÃ©nĠ quÃ¡nĠ
ĠgÅįngĠ dÇİĠ
ĠchÅ« ĠyÃºĠ
zÃ¬Ġ shÄģĠ
pÇĲnĠ zhÇĴngĠ
rÃ³ngĠ liÃłngĠ
jÇĲĠ nÃ¨iĠ
ĠgÄģiĠcÅ«nĠ shÇĲĠjiÃłnĠyÃºĠ
Ġ 64
Ġ zÄ«Ġ
ĠĠĠ e
yÃº ĠwÃ¨iĠ
zhÃ¨ng ĠyÃ¬Ġ
zhÃłn ĠwÃ¨iĠyÃºĠ
zhÃ¹ ĠyÇĴuĠ
ĠshÃ¬Ġ pÃŃnĠ
ĠzÃłiĠ nÃ¨iĠ
wÃ©iĠ yÄĽĠ
diÃłnĠ chÃŃĠ
duÅįĠ shÃ¹
qÃŃngĠ gÇİnĠ
rÃ¨Ġ dÃłi
ĠzhÃŃ ĠxÃŃngĠ
ĠÄģnĠ huÄ«Ġ
ĠxÃŃngĠchÃ©ngĠ leĠ
ĠjÃ¬ngĠ nÃ¨iĠ
qÃŃĠzhÅįngĠ yÃŃĠgÃ¨Ġ
xiÃłĠxiÃ¡ĠdeĠyÃŃĠgÃ¨ĠxiÄģngĠ zhÃ¨nĠjÃŃĠxÃŃngĠzhÃ¨ngĠdÄģnĠwÃ¨iĠ
Ġ lÃ³ng
mÇİ ĠshÃ¬Ġ
zhÃ¨n ĠdÃ¬Ġ
wÃ©iĠ chÃŃ
v o
Ġ 1990ĠniÃ¡nĠ
Äģ ĠsÄ«Ġ
ĠĠĠ jÃ¬n
mÃ©i ĠtÃ³ngĠpÃ¡iĠ
tÇİ ĠjÄ«Ġ
gÅįngĠ mÃŃnĠ
ĠshÃŃĠ yÇĴuĠ
ĠchÃ©ngĠ gÅįngĠdeĠ
ĠyÄ«Ġ lÃłi
ĠjÄ«Ġ bÄĽn
ĠjiÄģĠ lÇĲĠ
ĠkÃ¨ ĠyÇĶĠ
huÃłĠ guÄ«Ġ
fÃºĠ zhuÄģngĠ
zhÃ¨nĠ yÄģĠ
sÃ¹Ġ sÃ²ngĠ
kÇİoĠ chÃ¡Ġ
pÄ«Ġ pÃłnĠ
ĠsÄ«ĠlÃ¬ng ĠyuÃ¡nĠ
Ġ dÄ«Ġ
ĠĠĠ for
liÇİng ĠzuÃ²Ġ
nÃ³ng ĠlÃ¬Ġ
ĠzÃłiĠ nÃłĠ
ĠyÃ¬Ġ xÃŃĠ
ĠrÃ¬ ĠyÇĲĠ
ĠjiÃłn ĠdÃłoĠ
ĠhÃ²uĠ zhÄĽ
ĠdÃ©Ġ luÃ³Ġ
jiÃłoĠ dÃłĠdeĠ
wÃ©nĠ zhÄģng
ĠwÃ©iĠ wÃºĠÄĽrĠ
jiÄģngĠ nÃ¡nĠ
ĠzuÃ²Ġ zhÄĽĠ
qÇĲĠ yuÃ¡nĠyÃºĠ
bÅįĠ tÃ¨Ġ
ĠF Ġ
1 ĠmÇĲĠ
Ġ shÃ¹
Ġ fÃłn
Ġ zÇĶĠzhÄ«Ġ
Ġ kÄģiĠshÇĲ
yÃ²ng ĠzÃłiĠ
ĠzÃłiĠ chÃ©ngĠ
ĠyuÃ¨Ġ yÇĶĠ
fÇİĠ lÃ¡nĠxÄ«Ġ
ĠjiÃ©Ġ hÅ«nĠ
shÅįuĠ cÃ¡ngĠ
tiÄģnĠwÃ©nĠ tÃ¡iĠ
Ġ xiÇİnĠshÃ¬Ġ
ĠĠĠ suÄ«ĠrÃ¡n
wÃ©i ĠgÅįngĠ
tÃ¨ ĠshÃ¬Ġ
fÃ¡ng ĠxiÃłnĠ
1990 ĠniÃ¡nĠdÃłiĠ
kuÄģng ĠjiÃłĠ
ĠxÄ«Ġ tÃ¨Ġ
ĠbÃ¬ngĠ bÃºĠshÃ¬Ġ
qÄ«ngĠ xiÃłngĠ
ĠxiÃłĠ lÃ¡iĠ
jiÄĽĠ sÃłn
mÃ²Ġ qÄ«Ġ
ĠniÃ¡nĠ4ĠyuÃ¨Ġ 1ĠrÃ¬Ġ
yÃ¬nĠ nÃŃ
xiÇİoĠxÃŃngĠ xÄ«ngĠdeĠ
nÃ¡nĠjÃŃĠtiÃ¡oĠyuÄĵĠtÇĲĠxÃ¬Ġ guÇİnĠlÇĲĠ
ĠĠĠ zhÃŃĠyÃ¨ĠshÄĵngĠyÃ¡Ġ
le ĠzhÅįngĠguÃ³Ġ
biÄģn ĠxÃŃngĠ
luÃ² ĠyÄ«Ġ
cÃŃ ĠjÄ«Ġ
shÃŃĠ yÄ«Ġ
ĠshÃŃĠ tÇĲĠ
ĠdÃłĠ qÃ¬Ġ
huÃ¬Ġ shÃłngĠ
fÇİĠ xuÃ©Ġ
fÄĵnĠ lÃŃ
shÃłoĠ nÇļ
ĠThe ĠĠĠ
I V
U N
Ġ 1989ĠniÃ¡nĠ
kÄĵ ĠlÃ¬Ġ
shÄĽng ĠfÃ¹ĠzÃ©ĠguÇİnĠxiÃ¡Ġ
hÃ¹ ĠwÃ¨iĠ
lÄĽi ĠjÄ«Ġ
sÇİn Ġ
ĠdÃ¬Ġ yÃ¹Ġ
wÃ©iĠ chÃŃĠ
qiÃ¡nĠ lÃ¡iĠ
shÄģngĠ hÃłiĠ
tiÃ¡oĠ jiÃ©Ġ
yÃŃĠgÃ¨ ĠyuÃ¨Ġ
dÄģngĠ xuÇİnĠwÃ¨iĠ
ĠliÃ¡nĠ bÄģng
ĠjÃŃĠbÄĽiĠ mÄĽiĠ
gÄĽn ĠdÃ¬Ġ
Ġ 1945
Ãłi ĠhÃłoĠ
rÃ¬ ĠjÅ«nĠ
miÃ¨ ĠjuÃ©Ġ
shÇİn Ġ
ĠdeĠ zhÄ«ĠchÃŃĠ
ĠshÃ¬Ġ zhÃ¬Ġ
ĠchÃ©ngĠ fÃ¨nĠ
ĠzhÄ« ĠlÇĲĠ
ĠyuÃ¡nĠ yÄ«nĠshÃ¬Ġ
xÄ«Ġ wÃłng
ĠdÃłn ĠyÄĽĠ
ĠfÃ¹Ġ zhÇĶĠxÃŃĠ
zhÃ²ngĠ liÃłngĠ
lÃ©iĠ dÃ¡Ġ
ĠshÃ¬ĠjiÃ¨Ġ bÄĵi
chÇĲĠ cÃ¹n
wÃ©iĠyÄ«Ġ yÄ«Ġ
ĠĠĠ wÃłiĠbÃ¹Ġ
zuÃ¬ ĠyÇĴuĠ
mÃ² ĠniÃ¡nĠ
jiÇİn ĠyÃ¬Ġ
sÃł ĠkÃ¨ĠsÄ«Ġ
37 ĠniÃ¡nĠ
jiÃłoĠ zÅįngĠ
ĠzhÃ¨ngĠ cÃ¨
yÇİnĠ huÃłĠ
tÃ³ngĠ mÃ©ng
tÃŃngĠ zhÇĲ
Ġ chÄģoĠ
Ġ cÃ¡oĠ
fÄĵi ĠÄĽrĠdÃ©Ġ
shuÇĲ ĠdÃłoĠ
pÃ©n ĠdÃ¬Ġ
ĠwÃ¨iĠ jÃŃĠ
ĠxÄ«Ġ zÃłngĠ
ĠkÃ¨ ĠzÃłiĠ
xiÃłĠ lÃ¬ngĠ
shÄģĠ bÃ¡iĠ
jiÇĶĠ lÃ³ng
ĠjiÄĵĠ shÃ²uĠ
ĠniÃ¡nĠdÃłi ĠdeĠ
Ġ 800
Ġ jiÄĵĠwÃ¨iĠ
jiÃłn ĠshÃ¨
sÃ¬ ĠwÃ¨iĠ
ment Ġ
ĠdeĠ qÃŃngĠkuÃłngĠxiÃłĠ
ĠdÃ¬Ġ 3Ġ
ĠyÃºĠ 2018
ĠchÃ©ngĠ jiÃ¹Ġ
ĠyÄ«Ġ shÄ«Ġ
ĠgÃ¨Ġ lÃ¨iĠ
ĠrÃ©nĠmÃŃnĠ zhÃ¨ngĠfÇĶ
ĠĠĠzhÅįngĠ huÃ¡ĠrÃ©nĠmÃŃnĠgÃ²ngĠhÃ©ĠguÃ³Ġ
ĠhuÃ¡Ġ shÃ¨ngĠ
cÄģnĠsÃłiĠ zÄ«ĠgÃ©Ġ
shÄģnĠmÃłi ĠdeĠyÄ«ĠbÃ¹ĠfÃ¨nĠ
Ġ huÄ«Ġ
Ġ dÃºĠlÃ¬Ġ
Ġ lÄĽiĠjÃ¬Ġ
ĠĠĠ jiÃ©Ġ
suÃŃ ĠjÄ«Ġ
rÃ©nĠ kÇĴuĠwÃ¨iĠ
jÃ¬Ġ huÃł
ĠyÄ«Ġ cÃ¬
ĠyuÃ¡nĠ lÇĲĠ
ĠxiÃłnĠ xÃ¬ngĠ
qÅ«Ġ biÃ©Ġ
tÅįngĠ yÃ²ngĠ
shÃ²uĠ sÇĶnĠ
tÃ³uĠ xiÃ¡ng
ĠzhÇĶĠ zhÄģngĠ
huÃŃĠ dÃ¡Ġ
zhÃ¨ngĠzhÃ¬Ġ jiÄģĠ
Ġ19 Ġ
rÃ¨ĠdÃłiĠ qÃ¬ĠxuÃ¡nĠ
ĠgÃ¨ĠyuÃ¨Ġ hÃ²uĠ
Ġ 1991ĠniÃ¡nĠ
ĠĠĠ 5Ġ
huÃ¬ ĠwÃ¨iĠ
hÇİi ĠshÃ¬Ġ
xÃ¬n ĠrÃ¨nĠ
man Ġ
ĠzÃłiĠ shÃłngĠ
ĠguÃ³Ġ ÄģnĠ
qiÃ¡nĠ fÄĵngĠ
jiÇİnĠ cÃ¨Ġ
tiÃ¡oĠ kuÇİnĠ
diÃłnĠshÃ¬Ġ jiÃ©ĠmÃ¹Ġ
ĠdeĠgÅįngĠ nÃ©ngĠ
Ġ mÃ¡o
Ġ Ja
Ġ chÄģoĠguÃ²Ġ
xÄ« ĠyÃºĠ
juÃ© ĠwÃ¨iĠ
24 ĠniÃ¡nĠ
1960 ĠniÃ¡nĠdÃłiĠ
ĠdÃ¬Ġ chÇİnĠ
ĠyÄ«Ġ rÃ¡n
suÇĴĠ wÃ¨iĠdeĠ
ĠzhÅįuĠ kÄģnĠ
hÇİiĠ bÃ¡ĠgÄģoĠdÃ¹Ġ
tÃ¡ngĠ qÅ«Ġ
yÄ«nĠ cÇĲĠ
ĠtÃ³ngĠ xÃ¬ngĠ
Ġ18 Ġ
ĠdeĠjÃ¬Ġ shÃ¹Ġ
wÄĽnĠ dÃ¬ngĠdeĠ
jiÃ© ĠchÅ«Ġ
bÄ«ng ĠdeĠ
id Ġ
ĠtÄģ ĠyÇĴuĠ
guÄģnĠ liÃ¡nĠ
bÇİoĠ xiÇİnĠ
ĠhuÃ²Ġ chÄĵngĠ
dÅ«Ġ chÃ¡Ġ
ĠjiÇİnĠ chÄĵng
fÄģĠbiÇİo ĠdeĠ
hÃ¹ĠliÃ¡nĠ wÇİngĠ
p Ä«ng
Ġ guÇİnĠlÇĲĠ
ĠĠĠ 2006ĠniÃ¡nĠ
ch a
yÇĶ ĠyÃ¬Ġ
xiÃłng ĠwÃ¨iĠ
cÃ©ng ĠrÃ¨nĠ
se ĠĠĠ
ĠhÃ©Ġ yÃ¬Ġ
ĠduÃ¬Ġ fÄģngĠ
ĠquÃ¡n ĠshÃ¬Ġ
cÃŃĠ diÇİnĠ
yÃłĠmÄĽiĠ nÃŃĠyÃłĠ
Ġ sÄģng
nÃ¡n ĠshÃ¬Ġ
cÃ©ng ĠyÇĴuĠ
gÇİi ĠjÃ¬nĠ
zÄĵng ĠshÃ¨Ġ
tuÄ« ĠlÇĲĠ
zu ÄģnĠ
ĠlÃ¬Ġ ÃłoĠ
ĠzhÃ¨ngĠ chÃ¡ngĠ
dÇİoĠ shÄ«Ġ
pÇĶĠ lÇĶĠshÃ¬Ġ
ĠdiÃłnĠ ziĠ
tuÄ«ĠchÅ«Ġ leĠ
xiÅ«ĠdÃłoĠ yuÃłnĠ
Ġ rÃ³ng
Ġ zhuÄ«Ġ
ĠĠĠ huÃ²Ġ
lÃ¹ ĠshÃ¬Ġ
bÄĽi ĠjÃŃĠ
liÃº ĠqiÃºĠ
qÇĶ ĠzÃ¬Ġ
yÇĲn ĠjÃ¬nĠ
and Ġ
ĠhÃ©Ġ yuÃ¡nĠ
ĠyÇĶĠ qÃŃ
ĠdeĠshÃ¬Ġ jiÃ¨
Ġ kÄģng
ĠĠĠ mÃŃnĠguÃ³Ġ
hÅ«n ĠlÇĲĠ
ĠyÃºĠ 2020
ĠyÃºĠ 2024
ĠchÃ©ngĠ zuÃ²Ġ
sÅ«Ġ gÃ©ĠlÃ¡n
ĠcÇĲĠ cÃ¬Ġ
O M
r ĠĠĠ
Ġ 65
Ġ qiÃ¡oĠzhÃ¬Ġ
duÃ¬ ĠzhÅįngĠ
67 ĠniÃ¡nĠ
ĠdÃ¬Ġ jiÇĶĠ
ĠtÄģ ĠbÃ¹Ġ
ĠxÃŃngĠ chÃ¡i
ĠxÃŃngĠ shÃ¬ĠdeĠ
zhÃ¨ngĠ cÃ¨
dÃłiĠ mÇİĠ
ĠleĠ yÃŃĠgÃ¨Ġ
ĠxiÄģngĠ guÄģn
liÃ¡ngĠ hÇİoĠ
ĠxÃŃngĠzhÃ¨ngĠ yuÃłnĠ
Ġ bÄģngĠzhÃ¹Ġ
mÄĽi ĠdeĠ
bÇİo ĠhÃ©Ġ
chuÃ¡n ĠdeĠ
tÃŃng ĠzhÃłnĠ
nÃ¡ ĠdÃł
38 ĠniÃ¡nĠ
ed ĠĠĠ
dÇĴu Ġ
ĠchÃ©ngĠ dÅ«Ġ
jÄ«Ġ bÃłiĠ
ĠyÇĶĠ zhÄ«Ġ
ĠdÃłiĠ mÇİĠwÃ¨iĠ
liÃºĠ dÃ²ngĠ
lÃ¬ĠshÇĲĠ shÃłngĠ
ĠxÃ¬Ġ liÃ¨
Ġp Äģng
ĠxiÃłnĠshÃŃĠyÃ³uĠ nÃ¡nĠjÃŃĠtiÃ¡oĠyuÄĵĠtÇĲĠxÃ¬ĠguÇİnĠlÇĲĠ
Ġ La
Ġ Sa
Ġ biÄģoĠ
Ġ tÃ¡nĠ
ĠĠĠ chÄĵĠzhÃłn
bÃ¡i ĠrÃ©nĠ
dÇĲng ĠjÃŃĠ
zÅ« ĠjiÃ¨
ĠyÃºĠ 2015
ĠzhÃ¬Ġ dÃ¹
ĠchÅ«Ġ lÃ¡iĠdeĠ
tÃ¨Ġ shÅ«
miÃłnĠ 2
ĠduÅįĠ cÃ¬Ġ
Ġ wÇİ
Ġ shÄĽngĠ
Ġ yÃ¡nĠjiÅ«
ĠĠĠ zhÄģngĠ
jiÃ© ĠshÃŃĠ
yÃ¨ ĠhÃ©Ġ
luÃ² ĠyÃºĠ
ard Ġ
ĠdÃ¬Ġ shÃłngĠ
ĠgÅįngĠ chÇİng
lÃ¹Ġ yÇĲngĠdÃłiĠ
ĠbÄĽnĠ zhÃłnĠ
ĠbÄĽnĠ tÇĶĠ
shÃ©nĠ shÃ¨ngĠ
ĠtiÄģnĠ wÃ©nĠ
Ġ zÇĶĠchÃ©ngĠ
Ġ UĠ
ĠĠĠ wÇĶĠ
pÃŃng ĠrÃ©nĠ
piÃłn ĠrÃ©nĠ
29 Ġ
45 Ġ
ĠyÃºĠ 19
ĠyÃºĠ lÃ©iĠ
dÃłĠ xÃŃngĠ
yÃ¨Ġ jiÄģnĠ
tÃŃĠ gÄģo
liÇİngĠ ÃłnĠ
yÇĲĠ jÄ«ng
ĠzÃłiĠdÃ¬Ġ yÄ«Ġ
guÄģnĠfÃ¨iĠyÃ¡nĠ quÃ¨ĠzhÄĽnĠbÃ¬ngĠlÃ¬Ġ
ĠĠĠ shÄģĠ
ĠĠĠ yÄ«nĠyuÃ¨Ġ
bÄĽi ĠdeĠ
jiÄģo ĠyÃ³uĠ
mÃłn ĠdÃ¬ĠguÃ³Ġ
zhÄĽng ĠlÇĲĠ
ĠdeĠ yÇĴuĠ
ĠyÃºĠ 2013
ĠyÇĴuĠ guÄģnĠdeĠ
jÃ¬Ġ shÃ¹
ĠgÅįngĠ ÄģnĠ
zhuÃłngĠ tÃłi
ĠzhÃŃ ĠlÃ¬Ġ
pÃ©iĠ yÇİng
ĠdÃ²ngĠ huÃłĠ
ĠĠĠzhÃ¨Ġ kÄĵĠ
Ġ gÃ²ngĠtÃ³ngĠ
rÃ¬ ĠzhÃ¬Ġ
tÃ³ng ĠwÃ¨iĠ
huÃŃ ĠdÃło
ĠrÃ©nĠ lÃ¬Ġ
ĠyÄ«Ġ rÃ¡nĠ
ĠchÅ« ĠniÃ¡nĠ
nÃ¨iĠ gÃ©
dÄģnĠ mÃłiĠ
jÇĲngĠ diÇİnĠ
ĠyÃ³u ĠqÃŃ
fÃ¡ngĠ wÅ«
chÃ³ngĠ qÃ¬ngĠ
ĠdÄĽngĠ dÄĽngĠ
ĠtÇĲĠ yÃ¹Ġ
âĪ Ĵ
Ġ lÇİo
mÃŃn ĠyÃ¬Ġ
zhuÄ« ĠqiÃºĠ
ĠdeĠ xÃŃngĠshÃ¬Ġ
ĠshÃ¬Ġ chÇİng
rÃ©nĠ yuÃ¡nĠ
ĠyÃºĠ 2012
ĠguÃ³Ġ dÃłoĠ
ĠxÃŃngĠ hÃłoĠ
huÃłĠ miÃłnĠ
chuÃ¡nĠ shuÅį
ĠnÃ¡nĠ xÃ¬ngĠ
jiÃ¹Ġ zhÇĲĠ
jÇĲngĠ qÅ«Ġ
ĠdeĠjÄ«Ġ chÇĶ
Ġ chÃŃĠ
shÄĽng ĠhuÃ¬Ġ
tÅįng ĠxÃŃngĠ
lÃ¨ ĠyuÃ¡nĠ
ĠshÃ¬Ġ xiÃłĠxiÃ¡ĠdeĠyÃŃĠgÃ¨ĠxiÄģngĠzhÃ¨nĠjÃŃĠxÃŃngĠzhÃ¨ngĠdÄģnĠwÃ¨iĠ
gÅįngĠ jÄ«Ġ
ĠyÇĲĠ biÃłn
rÃ¹Ġ jÃ¬ngĠ
yÇİnĠ zÃ²uĠ
shÃ¨Ġ yÇĲngĠ
zhuÄģnĠ yÃ²ngĠ
ĠhÇİiĠ bÃ¡
guÃ¬Ġ zÃº
ĠÐ ¾
Y Ġ
z ÄĽnĠ
ĠĠĠ fÄĵnĠlÃ¨iĠ
Ãłi ĠlÃ¬Ġ
jÃŃ ĠzhÅįngĠxuÃ©Ġ
zÃ© ĠxÄ«Ġ
bÄģ ĠlÇĲĠ
lÃŃn ĠzhÅįngĠ
luÃ² ĠshÃŃĠ
jiÃłng ĠjÃŃĠ
ĠjÃ¬Ġ huÃłĠdeĠ
zhÇĶĠ dÇİoĠ
fÄģĠ juÃ©Ġ
bÃ³Ġ lÄģĠ
Ġ shÅ«
zÇĴng ĠsÄ«ĠlÃ¬ngĠ
yÃ²u ĠzÃłiĠ
xiÄĵ ĠÄĽrĠ
bÇİn ĠquÃ¡nĠ
ĠdeĠ zuÃ¬Ġ
ĠzhÅįngĠ zhÃ¨ngĠ
nÃ¡nĠ bÃ¹ĠdeĠ
ĠbÃ¨iĠ bÇĶĠ
guÄģnĠ guÄģngĠ
liÃ¡nĠ sÃłiĠdeĠ
ĠqÃŃĠ xiÃłĠdeĠ
tÇĲĠ yÃłnĠ
yÃŃĠ miÃłnĠ
ĠdÃłnĠ mÃ©iĠyÇĴuĠ
lÃ¹nĠ tÃ¡nĠ
zhÄĵnĠ chÃ¡Ġ
ĠsÄģn ĠyuÃ¨Ġ
tÇĴngĠzhÃ¬Ġ zhÄĽĠ
fÃ¡nĠ mÃ¡ng
ĠhÄĵiĠ lÃ³ngĠjiÄģngĠ
s of
Ġ zhuÄģn
Ġ yÃ¬ĠniÃ¡nĠ
ĠĠĠ i
xiÃłng ĠjÄ«Ġ
en terĠ
kÃ¹ ĠÄĽrĠ
gÅįngĠ yÃ¨Ġ
ĠyÇĲĠ jÃŃĠzÃłiĠ
zhÇĶĠ liÃºĠ
dÅįngĠ qÅ«Ġ
ĠxiÃłĠ wÇĶĠ
tÃ³ngĠ mÃ©ngĠ
ĠH Ġ
Ġ 1999
qiÄģn ĠmÃŃngĠ
gÃ¨ng ĠgÄģoĠ
qiÅ« ĠjÃ¬Ġ
yÃ© ĠÄĽrĠ
ĠhÃ©Ġ zhÃ¬Ġ
ĠqÃŃ ĠzhÃ¬Ġ
huÃłĠ rÃ¹Ġ
lÃŃĠ bÄģĠnÃ¨n
mÃ¬Ġ sÅ«ĠlÇĲĠ
Ġ16 Ġ
kÃłngĠrÃ¬Ġ zhÃłnĠzhÄĵngĠ
ĠhÃ©ĠdÃło ĠquÃ¡nĠzhÇİngĠ
m Ãº
ĠĠĠ zhÄĵngĠyÃ¬Ġ
yÇĶ ĠdÃ¬Ġ
zuÃ² ĠzÃłiĠ
tÃ¨ ĠrÃ©nĠ
ĠshÃ¬Ġ xÄ«nĠ
ĠbÃ¹Ġ duÃłn
ĠyÃºĠ 2014
ĠyÄ«Ġ ÄĽrĠ
ĠdÃło ĠjÃŃĠ
jiÄģnĠ chÃ¡Ġ
fÄĵngĠ suÇĴĠ
ĠyÄĽĠ mÃ©iĠyÇĴuĠ
xiÄģngĠgÇİng ĠdeĠ
dÅįngĠbÃ¹Ġ shÃŃĠqÅ«Ġ
1 ĠjiÄģĠ
sÃ¬ ĠrÃ©nĠ
rÃ³ng ĠdeĠ
tuÅį ĠÄĽrĠ
kÃ© Ġ
ĠgÅįngĠ jiÄģoĠ
ĠchÃ©ngĠ zhÇİngĠ
ĠjÅ«n ĠrÃ©nĠ
luÃ²Ġ tÃ¨Ġ
ĠmÇİĠ lÄģĠ
ĠtÃłiĠ yÃ¡ngĠgÅįngĠ
Ġ yÇĴu
Ġ hÃ¡oĠ
ĠĠĠ 9
ĠĠĠ Ð
kÃ¨ ĠlÇĲĠsÄ«Ġ
yÃ¹n ĠzÃłiĠ
guÇİng ĠyÃ¬Ġ
xuÄģn ĠshÃ¬Ġ
in c
dÃ¬Ġ guÃ³Ġ
ĠxÄ«Ġ yÇĲn
diÃłnĠ tÃ¡i
bÄĽiĠ hÇİiĠdÃłoĠ
ĠyÃ²u ĠyÃ¬Ġ
ĠsuÃŃ ĠjÃŃĠ
lÄģĠsÄ«Ġ jiÄģĠ
Ġ 59
Ġ hÃ²uĠyÃºĠ
duÅį ĠsÄ«Ġ
zÃ© ĠyÇĲĠ
fÄĵi ĠdeĠ
zhuÄģng ĠdeĠ
wÄģn ĠqÅ«Ġ
liÃ¹ ĠshÃ¬Ġ
niÃº ĠsÄ«Ġ
end Ġ
ĠyÄ«Ġ qiÃ¨
ĠdÃłĠ liÃ¡nĠmÃ©ngĠ
jiÃłoĠ dÄ«Ġ
yÃ¹nĠ yÃŃng
bÄģoĠkuÃ² ĠyÇĲĠxiÃłĠ
lÇľĠ huÃłĠ
gÅįngĠyuÃ¡nĠ qiÃ¡nĠ
zhuÄ«ĠsÃ¹ ĠdÃłoĠ
o d
Ġ 49
Äģ ĠbÃ¹Ġ
ĠĠĠ wÃºĠ
le n
shÄĵng ĠhÃ©Ġ
yuÇİn ĠdeĠ
chÅ«n ĠjÃ¬Ġ
xÃŃĠ jÄ«
ĠdÄģngĠ dÃ¬ĠdeĠ
mÃ¨iĠ mÃ¨iĠ
guÃ³ĠwÃ¹Ġ yuÃłnĠ
ÄģiĠnÃłĠ shÄĽngĠ
Ġ An
Ġ mÃŃngĠwÃ¨iĠ
Ġ qÇĶĠdÃ©Ġ
yÇĶ ĠzhÅįngĠguÃ³Ġ
tÃ¨ ĠgÅįngĠ
liÃłng ĠjÃŃĠ
dÇİng ĠzÃłiĠ
at Ġ
ĠdeĠ hÃ²uĠ
bÄĽnĠ kÄĵĠ
dÅįngĠ cÃ¨Ġ
shÄģngĠ wÃ¹Ġ
kÄĽĠyÇĲĠ tÅįngĠguÃ²Ġ
dÅįuĠ mÃ©iĠyÇĴuĠ
zhÇĶnĠ quÃ¨Ġ
ĠE STĠ
Ġ yÇİĠ
ĠĠĠ dÃło
qÄ« ĠyuÃ¨Ġ
69 ĠniÃ¡nĠ
ĠyÇĴuĠ xÇĶĠduÅįĠ
nÃłĠ xiÄĵ
guÇİnĠ xiÃ¡
zhÅįngĠguÃ³Ġ dÃłĠlÃ¹ĠdeĠ
ĠnÃ¨iĠ rÃ³ngĠ
ĠI STAT
Ġ tiÃ¡n
Ġ nuÃ²
huÃ¡ ĠdeĠ
fÇİn ĠjÄ«Ġ
ĠyÄ«Ġ qiÃ¨Ġ
jÃ¹Ġ fÄĵng
nÃ¡nĠ mÄĽiĠzhÅįuĠ
guÇİnĠ kÃ²ng
tÃ³uĠ rÃ¹
tÃŃngĠ kÃłoĠ
ĠmÃ² ĠxÄ«Ġ
zhÃ²ngĠyÃ¬Ġ yuÃłnĠ
ĠshÃ¬ĠyÄ«ĠkÄĵ ĠwÃ©iĠrÃło
Ġ zÇİoĠ
lÇĲ ĠrÃ©nĠ
shÃ¨ ĠjÃŃĠ
rÃ¨n ĠzhÄ«Ġ
shÄĽng ĠlÃ¬Ġ
ĠzhÅįngĠ yuÃ¡nĠ
ĠxÄ«Ġ ÄĽr
guÄģnĠ zhÃ²ng
guÄģnĠ zhÃ¨ngĠ
ĠpÃŃngĠ jiÃ¨Ġ
fÄĵngĠ fÃ¹ĠdeĠ
ĠshÃ¬ĠyÄ«Ġ zuÃ²
wÅ«Ġ rÇİnĠ
shÅįuĠshÃ¬Ġ lÇľĠ
jiÃ¨ĠquÃ¡nĠguÃ³ĠzhÃ¨ngĠxiÃ©Ġ wÄĽiĠyuÃ¡nĠ
4 ĠĠĠ
Ġ cÃ¡o
Ġ yÇİngĠ
lÇĲ ĠshÃŃĠ
fÃ¹ ĠyÃºĠ
chuÃ¡n ĠyuÃ¡nĠ
zhÇİn ĠchÅ«Ġ
yÃŃng ĠlÃ¬Ġ
biÄģo ĠshÃ¬Ġ
yÅįu ĠhuÃ¬Ġ
ĠyÃºĠ 2022
ĠlÃ¬Ġ xuÃ©Ġ
jÃ¹Ġ bÄĽnĠ
yÃ¹Ġ wÃ©iĠ
ĠbÃ¬ngĠ huÃ²ĠdÃ©Ġ
jiÄĵĠ guÇİnĠ
ĠjÃ¹Ġ bÄĽnĠ
shÅ«Ġ niÇĶĠ
hÃ©ngĠ xÄ«ng
dÃłnĠ shuÇĲ
bÇĲĠsÃłi ĠdeĠ
juÃ©ĠduÃ¬Ġ xÄ«ngĠdÄĽngĠwÃ¨iĠ
Ġ fÃ¨ng
Ġ Li
ĠĠĠ guÃ³Ġ
dÃ© ĠyÃ¬ĠzhÃ¬Ġ
zuÃ¬ ĠchÅ«ĠdeĠ
xÃ¬n ĠhÃło
27 ĠniÃ¡nĠ
gÅįu ĠtÅįngĠ
ĠshÃ¬Ġ xiÃłĠ
shÄĵngĠ chÄĵngĠ
pÃŃngĠ hÃ©ngĠ
ĠbÃ¨iĠ jÇĲng
liÃ¡nĠ zÇİiĠ
duÅįĠ xiÃłngĠ
ĠjÄ«ngĠ guÃ²
Ġ5Ġ diÃłoĠkuÃłiĠyÄ«ĠxiÇİoĠshÃŃĠ
ĠED TĠ
ĠjÃŃĠbÄĽiĠmÄĽiĠ dÅįngĠbÃ¹ĠshÃŃĠqÅ«Ġ
ĠtÃłiĠyÃ¡ngĠgÅįngĠ zhuÃłnĠdeĠxiÇİoĠxÃŃngĠxÄ«ngĠ
ĠshÃ¬ĠyÄ«ĠkÄĵĠwÃ©iĠrÃło ĠtÃłiĠyÃ¡ngĠgÅįngĠzhuÃłnĠdeĠxiÇİoĠxÃŃngĠxÄ«ngĠ
Ġ sĠ
ĠĠĠ wÃ©nĠhuÃłĠ
Ãło ĠkÃ¨Ġ
jiÃłn ĠdeĠ
hÃ¡n ĠyÃ¬Ġ
ĠdÃł ĠzhÃ¬Ġ
fÄģĠbiÇİo ĠleĠ
xiÇİoĠxÃŃngĠxÄ«ngĠdeĠ juÃ©ĠduÃ¬ĠxÄ«ngĠdÄĽngĠwÃ¨iĠ
ĠĠĠ St
ĠĠĠ 2005ĠniÃ¡nĠ
lÇĲng ĠduÃ¬Ġ
pÄģi ĠshÃ¨ĠdeĠ
ow Ġ
ĠhÃ©Ġ yÇĶĠ
ĠzhÅįngĠ lÃ¬Ġ
ĠgÅįngĠ shÃ¨Ġ
ĠzhÄ« ĠchÅ«Ġ
ĠzuÃ²Ġ qÇĶĠ
rÃ¹Ġ kÇĴu
ĠshÃ¬ĠwÃ¹Ġ suÇĴĠ
Ġ Vi
Ġ 1986ĠniÃ¡nĠ
ĠĠĠ yÃ¹Ġ
zhÇĲ ĠchÅ«
fÃº ĠjÃŃĠ
in u
yuÄģn Ġ
ĠshÃ¬Ġ zuÃ¬Ġ
ĠzÃłiĠ lÃ¬Ġ
ĠxÃŃngĠ xÄ«ngĠ
ĠdÃłn ĠbÃ¨iĠ
zÃºĠ liÃ¡nĠ
wÃºĠxiÃłnĠ diÃłnĠ
shÄĵngĠchÇİn ĠdeĠ
ĠdÃłĠshÃł Ġ
ĠĠĠzhÃ¨ĠkÄĵĠ xiÇİoĠxÃŃngĠxÄ«ngĠdeĠjuÃ©ĠduÃ¬ĠxÄ«ngĠdÄĽngĠwÃ¨iĠ
Ġ 1998
ĠĠĠ huÃ¡ngĠ
xÄ« ĠxiÃłnĠ
tu re
miÃło ĠyÇĶĠ
48 ĠniÃ¡nĠ
ĠyÄ«Ġ xiÃłngĠ
shÇĴuĠ xiÄģnĠ
ĠtÃ³ng ĠniÃ¡nĠ12ĠyuÃ¨Ġ
ĠdeĠyÄ«Ġ xiÃłngĠ
bÇĲĠlÃ¬Ġ niÃºĠsÄ«Ġ
nÃ¨Ġ shÄĽngĠ
Ġ zuÇĴ
Ġ jÅ«Ġ
ĠĠĠ Li
yÃło ĠzÃłiĠ
zhÇĴng ĠdeĠ
men ĠdeĠ
34 ĠniÃ¡nĠ
ace book
ĠxÄ«Ġ cÃ¨Ġ
lÃ¡iĠ kÃłnĠ
kÄĽĠ yÃ²ngĠ
ĠxiÃłĠ lÃ¬ngĠ
yÃ¡nĠjiÅ« ĠdeĠ
ĠdeĠyÄ«Ġ tiÃ¡oĠ
hÄĽnĠ shÇİoĠ
tiÄģnĠwÃ©nĠ xuÃ©ĠjiÄģĠ
zÇĶĠchÃ©ng ĠbÃ¹ĠfÃ¨nĠ
Ġ 2024ĠniÃ¡nĠ
ĠĠĠ guÄģnĠyÃºĠ
ĠĠĠ zÇİoĠqÄ«Ġ
lÃ¡i ĠÄĽrĠ
jiÇĶ ĠshÃŃĠ
lÄĵi ĠsÄ«Ġ
fÇĴu Ġ
lÃ¹Ġ duÃłnĠ
diÃłnĠ liÃºĠ
ĠfÃ¹Ġ mÇĶĠ
zÇĴngĠ lÇĲngĠshÃ¬Ġ
liÇİngĠ cÃ¨Ġ
zhuÄģnĠ jÃŃĠdeĠ
ĠyÄ«nĠwÃ¨iĠ tÄģĠ
Ġ gÄĽi
Ġ cÅ«nĠ
liÇİng ĠdÃłĠ
ct Ġ
ĠwÃ¨iĠ guÃ³Ġ
ĠzÃłiĠ yÇĴuĠ
ĠzÃłiĠ dÄģngĠshÃŃĠ
xuÃ©Ġ kÄĵĠ
qÅ«Ġ fÃ¹ĠzÃ©ĠguÇİnĠxiÃ¡Ġ
cÇĲĠ tiÄģnĠtÇĲĠ
tÃºĠ jÃ¬ngĠ
shÃ¨ngĠ jÄ«ngĠ
qÇĶĠ juÃ©ĠyÃºĠ
kÄĽĠnÃ©ng ĠdeĠ
ĠG Ġ
ĠdÃ¬ĠshÃŃĠ sÄģnĠ
2 ĠhÃłoĠ
g ÄĽ
Ġ Me
Ġ 1983ĠniÃ¡nĠ
chÃ¡ ĠdÃ©Ġ
qiÃ¡n ĠxÄ«Ġ
nÃŃ ĠxÄ«ĠyÃł
shÃ¨ng ĠyÃºĠ
wÄĵi ĠlÃ¬Ġ
hÃ©Ġ liÃºĠ
ĠshÃŃĠ liÃ¹ĠniÃ¡nĠ
ĠyuÃ¡nĠ lÃ¡iĠ
shÃłngĠ yÃ¬ngĠdeĠ
ĠjiÄģĠ qiÃ¡ngĠ
jÃ¹Ġ yuÃłnĠ
qÄ«Ġ jiÄģnĠdeĠ
yÃ²uĠ chÄĵngĠ
duÇİnĠ zÃłnĠ
hÃ¹nĠ luÃłnĠ
I R
Ġ piÃłoĠ
yÃ²ng ĠdÃ¬Ġ
jiÇİng ĠxuÃ©Ġ
mÇİn ĠyÃ¬Ġ
gÄĵng ĠmÃŃngĠ
zhÃ¨nĠ wÃ¡ngĠ
shÄĵnĠ rÃ¹Ġ
ĠzÃ¬Ġ cÇĲĠ
xÃŃĠ guÃłnĠ
ĠÃłoĠ mÃ©nĠ
mÃŃnĠzÃºĠ zhÇĶĠyÃ¬Ġ
Ġ ba
Ġ sÄģngĠ
Äģn ĠdeĠ
cÇĲ ĠdÃ¬Ġ
guÃ² ĠhÃ²uĠ
kÄĵ ĠyÄ«ĠshÄĵngĠ
hÇİo ĠlÃ¡iĠ
ad Ġ
sÃłng ĠshÄ«Ġ
ĠyÇĲĠ wÃłiĠdeĠ
ĠlÇĲĠ xuÃ©Ġ
bÄĽnĠ tÇĶ
tÃ¨Ġ dÃ¬ng
ĠshÃ¨Ġ shÄ«
biÃłnĠ huÃłnĠ
tiÃ¡oĠ mÃ¹Ġ
qiÄģnĠ yÇĲnĠ
shÃ¨Ġ jiÄģoĠ
E C
a g
u b
Ġ shÄģnĠxÄ«Ġ
bÄĽn ĠdÃ¬ĠqÅ«Ġ
quÃ¡n ĠshÃ¬Ġ
zi ĠlÇĲĠ
fÇĶ ĠzhÄ«ĠfÇĶĠ
wÇİn ĠqÄ«Ġ
ĠwÃ¨iĠ xÄ«nĠ
ĠzÃłiĠ rÃ©nĠ
ĠdÃłĠ duÅį
ĠchÅ« ĠbÃ¹Ġ
tÃŃĠ cÃ¡iĠ
ĠdeĠzuÃ²Ġ yÃ²ngĠ
Ġ Se
Ġ dÇİoĠyÇİnĠ
Ġ 1958ĠniÃ¡nĠ
ĠĠĠ yÄ«nĠwÃ¨iĠ
fÇİ ĠÄĽrĠ
ni Ġ
zÅįng ĠdeĠ
ĠhÃ©Ġ jÄ«nĠ
ĠshÃŃĠ bÃ¨iĠ
ĠdÃ© ĠhÃ©Ġ
shÃ¹Ġ jÃ¹
xiÄģoĠ shÃ²u
dÇİĠ suÃłn
pÃ©iĠ chÃ¡ngĠ
ĠjÃŃĠtuÃ¡n ĠjÅ«nĠ
Ġ kÄģnĠ
ĠĠĠ 2000
bÄĽn ĠzhÃ¬Ġ
wÃ©n ĠsÄ«Ġ
nÇļ ĠÃ©r
ĠniÃ¡n ĠshÃ¬Ġ
ĠzÃłiĠ tÄģ
ĠyuÃ¡nĠ qÅ«Ġ
jiÃ©Ġ lÃ¹nĠ
ĠqÃŃĠ zhÅįngĠdeĠ
zÇĴngĠ Ã©ĠwÃ¨iĠ
ĠnÃ¡nĠ jÄ«ng
liÇİngĠ tiÃ¡oĠ
qiÃ¡ngĠ huÃłĠ
Ġ tÇĴngĠ
Ġ liÃłnĠ
Ġ huÃ¡iĠ
Ġ chÄģoĠjÃŃĠ
Ġ guÃ¬ĠzhÅįuĠ
fÄĵn ĠqÃŃĠ
tÃŃ ĠwÃ¨iĠ
bÄģ ĠmÃŃngĠ
shuÇĲ ĠzhÅįngĠ
00 ĠpÃŃngĠfÄģngĠqiÄģnĠmÇĲĠ
pÃł ĠÄĽrĠ
46 ĠniÃ¡nĠ
ĠwÃ¨iĠ sÄ«Ġ
ĠzhÅįngĠ wÃ©n
ĠyÃºĠ 2017
ĠqÃŃ ĠyÇĶĠ
ĠshÃ¨ ĠzÃłiĠ
fÄĵngĠ xiÇİn
yÃŃĠ dÃ²ng
mÃ³Ġ nÇĲ
zhuÇİnĠ yÃŃĠdÃłoĠ
ĠfÃºĠ lÇİngĠ
ĠmÇĲ ĠdeĠ
fÄĵiĠxÃŃng ĠyuÃ¡nĠ
1 ĠrÃ¬
Ġ sÃłi
Ġ xÇĲĠ
mÄĽi ĠzhÅįngĠbÃ¹Ġ
tÃ¨ ĠsÄ«Ġ
chÄģ ĠjÃ¹Ġ
bÃ¹Ġ fÃ¨n
ĠyÄ«Ġ yÃłng
ĠjiÃłn ĠzhÅįngĠ
ĠzhÄ«Ġ qiÃ¡nĠdeĠ
zhÇĶĠ juÃ©
ĠbÃ¨iĠ rÃ¨nĠwÃ©iĠ
ĠjÃ¹Ġ tÇĲĠ
ĠsuÇĴĠ yÇĴuĠdeĠ
tuÄ«Ġ guÇİng
lÇĲĠshÃ¬Ġ zhÇİngĠ
gÃ²ngĠhÃ©Ġ dÇİng
jiÄģoĠyÃ¬Ġ suÇĴĠ
jiÃ¨ĠquÃ¡nĠguÃ³Ġ rÃ©nĠmÃŃnĠdÃłiĠbiÇİoĠdÃłĠhuÃ¬Ġ
Ġ Ar
Ġ 1987ĠniÃ¡nĠ
ĠĠĠ dÄģng
duÃ¬ ĠlÃ¬Ġ
cÃ¡i ĠdeĠ
ĠyÇĴuĠ xiÃło
ĠchÃ©ngĠ nuÃ²Ġ
ĠgÃ¨ ĠgÃ¨Ġ
ĠbÃ¬ngĠ wÃºĠ
ĠshÃ¨Ġ xiÃ¡nĠ
ĠdeĠgÅįngĠ sÄ«Ġ
ĠhÃ²uĠlÃ¡i ĠzÃłiĠ
chÃłngĠpiÃłn ĠgÅįngĠsÄ«Ġ
o li
Ġ xuÄĵ
Ġ dÃłngĠ
ĠĠĠ jiÃłnĠ
ti Äģo
tÇĲ ĠxiÃłnĠ
chÄĵ ĠshÃ¬Ġ
dÇİng ĠbÃ¹Ġ
suÃŃ ĠzhÄ«Ġ
61 ĠniÃ¡nĠ
zuÇĲ Ġ
ĠwÃ¨iĠ mÄĽiĠguÃ³Ġ
ĠjÃŃĠ ÄĽr
ĠyÃ¬Ġ mÄĽiĠguÃ³ĠrÃ©nĠ
ĠjÅ«n ĠyÇĲĠ
jiÄĽĠ juÃ©
chÇĶĠ juÃ©Ġ
ĠN Ġ
ĠL Ġ
ĠÄģĠÄĽrĠ bÄĵiĠsÄ«Ġ
guÇİngĠbÅį ĠgÅįngĠsÄ«Ġ
sÄ« ĠdÃ¬ĠlÃ¬Ġ
dÃłi ĠdÃłoĠ
xiÃł ĠshÃ¬Ġ
qÄ«ng ĠdÃłiĠ
mÇĶ ĠsÄ«ĠtÃ¨Ġ
fÅ« ĠsÄ«Ġ
39 ĠniÃ¡nĠ
ĠyÃºĠ 190
ĠxÄ«Ġ fÇİĠ
yÃ¹Ġ cÃ¨Ġ
ĠdÄģng ĠrÃ¬Ġ
ĠtÄģĠmen ĠshÃ¬Ġ
ĠdeĠyÄ«Ġ jiÄģĠ
dÅįuĠ kÄĽĠyÇĲĠ
ĠcÇĲĠ wÃłi
dÇĲĠ cÃ©ngĠshuÇĲĠyÃ¹Ġ
lÇİngĠ pÇĶ
mÃ¹ĠsÄ«Ġ lÃŃn
c or
Ġ lÃ¨i
Ġ xĠ
ĠĠĠ gÃ¨Ġ
duÃ¬ ĠdÃ¬Ġ
nÃ¡n ĠxÄ«Ġ
suÃ¬ ĠdeĠ
shÇİo ĠdeĠ
qÃ¬ng ĠxiÃłĠ
bÃł ĠgÅįngĠ
ĠyÃºĠ 2023
yÃ¹Ġ suÃłnĠ
qÄ«ngĠ zhÄĵnĠ
jiÄģoĠ gÄĽi
Ġ14 Ġ
Ġ cÃ¹
Ġ guÅįĠ
xÃŃng ĠrÃ©nĠ
yÇĶ ĠwÃ¨iĠ
jÅ«n ĠzhÇĶĠ
ĠshÃ¬Ġ yÇĲ
ĠsÄ«Ġ dÃłĠ
rÃ¨nĠ zhÃ¨ngĠ
ĠzhÅįu ĠdeĠyÃŃĠgÃ¨ĠshÃ¬ĠzhÃ¨nĠ
qiÃ¡nĠ tÇĲngĠ
shÄ«Ġ tÇĲĠ
qÄ«ngĠ dÇİoĠ
dÃłnĠ shuÇĲĠ
yÃ¬nĠdÃ¬Ġ ÄģnĠnÃł
chÃ©ng ĠwÃ¨iĠ
yuÃ¡n ĠrÃ©nĠmÃŃnĠbÃ¬Ġ
jiÃłn ĠduÃ¬Ġ
qÅ« ĠzhÅįngĠ
xÄ«n ĠyÄ«Ġ
mÄĽi ĠlÃ¬Ġ
ĠdeĠ jÃŃĠ
ĠzÃłiĠ duÃ¬Ġ
ĠbÃ¹Ġ zhÄ«Ġ
ĠshÃŃĠ shÄ«
ĠyÃ¬Ġ bÃ¨iĠ
ĠÄĽr ĠbÃ¨iĠ
zhÃłnĠ shÃ¹Ġ
ĠbÃ¬ng ĠchÃ©ngĠwÃ©iĠ
zÃ¬Ġ shÄĵnĠ
fÄĵnĠ bÃ¹ĠzÃłiĠ
chuÃ¡nĠ mÃ©i
bÃ³Ġ gÃ©Ġ
zÃłoĠ chuÃ¡nĠ
ĠchÃ¡ngĠ qÄ«Ġ
zhÃ²ngĠyÃłoĠ xÃ¬ngĠ
1 ĠhÃło
o m
s ÇĴng
Ġ ruÃ¬ĠshÃ¬Ġ
Äģ ĠkÃ¨Ġ
zhÇİng ĠjÃŃĠ
or k
kuÄ« Ġ
ĠshÃ¬Ġ yÃ¬nĠdÃ¹Ġ
ĠhÃ©Ġ chÃłngĠ
ĠguÃ³Ġ nÃ¨i
shÇĴuĠ lÇĲngĠ
zhuÇİnĠ biÃłnĠ
xÃºnĠ fÇĶĠ
liÃ¡ngĠ hÇİoĠdeĠ
ĠtÄģĠcÃ©ng ĠdÃłiĠbiÇİo
ĠshÃłngĠhÇİi ĠshÃ¬Ġ
jiÃłngĠyÇĶĠ liÃłngĠ
Ġ xiÅįngĠyÃ¡ĠlÃ¬Ġ
ĠĠĠ 14
yÃŃ ĠdeĠ
yÃ¹n ĠxÃŃng
hÃ¨ nĠ
be g
ig h
ĠshÃŃĠ sÄģnĠniÃ¡nĠ
fÃ¹Ġ xÄ«ngĠ
ĠkÃ¨ ĠjiÄģĠ
yÃ¡nĠ ÃłnĠ
yÄĽĠ kÄĽĠyÇĲĠ
ĠtÃºn ĠqÃŃĠ
zu ÃłnĠshÃŃĠ
30 ĠfÄĵnĠ
sÅįu ĠsuÇĴĠ
32 ĠniÃ¡nĠ
jÄ«Ġ dÅ«ĠjiÃłoĠ
yÃ³uĠ kÃ¨Ġ
fÄĵnĠ xiÃłoĠ
zuÃ¬Ġ hÃ²uĠdeĠ
shÃ¨ngĠ mÇĶĠ
kÇİoĠ gÇĶ
ĠmÇĶĠ qÄ«nĠ
Ġ13 Ġ
jÃ¬ĠsuÃłn ĠjÄ«Ġ
Z Ġ
Ġ li
Ġ yÃ¬ngĠ
cÃ¨ ĠwÃ¨iĠ
jiÇİng ĠlÃ¬Ġ
xiÃ¨ ĠÄĽrĠ
26 ĠniÃ¡nĠ
zhuÄ« ĠjÄ«Ġ
rÃ²u ĠshÃŃĠxÃ¬ngĠ
mÃ¡n Ġ
ĠyuÃ¡nĠ zÃ¬
shÇĴuĠ rÃ¨nĠ
ĠzhÃ¨ngĠ jÃ¹Ġ
ĠzuÃ²Ġ yÃ¨Ġ
ĠdeĠyÄ«Ġ cÃ¬Ġ
ĠdeĠshÃ¬Ġ qÃŃngĠ
duÇİnĠ piÃłnĠ
ĠdeĠjÄ«Ġ chÇĶĠ
ĠyÇĲĠjÃŃ ĠzhÅįngĠguÃ³ĠdÃłĠlÃ¹ĠdeĠ
mÄĽiĠzhÅįngĠbÃ¹Ġ shÃŃĠqÅ«Ġ
p Ã¨ngĠ
Ġ 1994
Ġ 1982ĠniÃ¡nĠ
zÃ© ĠÄĽrĠshÄĽngĠ
bÄģ ĠyuÃ¨Ġ
hÄģ ĠlÃ¬Ġ
36 ĠniÃ¡nĠ
ĠdÃło ĠtÄģĠ
ĠÃ©rĠ wÃ©nĠmÃŃngĠ
tÃ¡iĠ zhÅįngĠshÃ¬Ġ
jÄ«nĠ xiÃłngĠ
tÅįngĠ xÃ¬n
mÃ³Ġ tuÅįĠ
bÄ«ngĠ tuÃ¡nĠ
ĠgÄģoĠ sÃ¹
Ġ bÃłi
Ġ liÃ¡nĠhÃ©ĠguÃ³Ġ
lÃ¹ ĠhÃ©Ġ
qiÃ¡ng ĠdÃłĠ
2019 ĠguÄģnĠzhuÃłngĠbÃ¬ngĠdÃº
45 ĠniÃ¡nĠ
43 ĠniÃ¡nĠ
ĠshÃŃĠ wÇĶĠniÃ¡nĠ
ĠjÃ¬n ĠxÃŃngĠdeĠ
xuÇİnĠ shÇĴu
yuÄĵĠ sÃ¨ĠfÅ«Ġ
liÇİngĠ zhÇĴng
ĠshÃ¬ĠyÄ«Ġ jiÄģĠ
ĠC STĠ
ÅįuĠ mÃ©ng
ĠcÃ³ngĠ cÇĲĠ
ĠcÃ©ngĠ jÄ«ng
Ġ6Ġ diÃłoĠkuÃłiĠyÄ«ĠxiÇİoĠshÃŃĠ
ĠjÃŃĠbÄĽiĠ mÄĽiĠzhÅįngĠbÃ¹ĠshÃŃĠqÅ«Ġ
ĠCD TĠ
m Ãł
Ġ tÃ¡i
Ġ mÇĲn
duÃ¬ ĠshÃ¬Ġ
mÇĲ ĠÄĽr
33 ĠniÃ¡nĠ
ĠdÃ¬Ġ mÃŃngĠ
jÄ«Ġ chÇİng
jÄ«ngĠ dÅ«Ġ
ĠshÃłngĠ shÃ¹Ġ
nÇļĠ wÃ¡ngĠ
tuÅįĠ mÇİĠsÄ«Ġ
ĠshÇĲĠ mÃ¬ĠsÄ«Ġ
yÃ¬nĠ dÃ¹ĠdeĠ
Ġ á
Ġ 1945ĠniÃ¡nĠ
Ġ 1920ĠniÃ¡nĠ
jÄ« ĠshÃŃĠ
mÃ©i ĠÄĽrĠ
fÅ« ĠsÄ«ĠjÄ«Ġ
zhuÄģn ĠyuÃ¡nĠ
quÃ¨ ĠlÃ¬Ġ
ĠshÃ¬Ġ yÃŃĠ
ĠchÃ©ngĠ kÃ¨
qÅ«Ġ zhÃºĠjiÃłnĠ
zhÃ¨Ġ shÇĴuĠ
ĠqiÃºĠ bÇĲĠsÃłiĠ
wÇİngĠ lÃ¡iĠ
cÃ¡iĠ nÃ©ng
zhuÄģnĠ qÅ«Ġ
ĠH RĠĠĠ
ĠÄģ ĠlÇĲĠ
zhÃ©ĠxuÃ©Ġ jiÄģĠ
ĠqÄ« ĠxÄ«Ġ
fÃ©iĠtÃ¨Ġ liÃ¨Ġ
Ġ lÄĵiĠ
Ġ dÅ«nĠ
sh ÄģiĠ
ĠĠĠ 13
ĠĠĠ kÄĵĠ
pÃŃng ĠxiÃłnĠ
jiÃło ĠyÇĴuĠ
jiÄģo ĠfÃ¹Ġ
31 ĠniÃ¡nĠ
lÃ¬Ġ shÇĲ
dÅįngĠ yÃłĠ
zÇĴngĠ jÃºĠ
wÄĽiĠ nÃ¨iĠruÃ¬Ġ
rÃ¡nĠ liÃłoĠ
ĠÃło ĠsÄ«Ġ
ĠshÃ¬ĠfÇĴu Ġ
Ġ d
Ġ lÇĶ
ĠĠĠ re
ĠĠĠ 12ĠyuÃ¨Ġ
ĠĠĠ 2023ĠniÃ¡nĠ
shÃŃ ĠshÃ¬ĠjÃ¬Ġ
jÄ«n ĠsÄ«Ġ
pÃ¨i ĠyuÃ¨Ġ
ĠwÃ¨iĠ chÃ©ngĠ
gÃ©Ġ lÃ©iĠ
xÃ¬ngĠ biÃ©
chÃ¡ngĠ ÄģnĠ
liÃºĠ chuÃ¡nĠ
bÃ³Ġ gÄĽnĠdÃ¬Ġ
zÇĶĠ xiÄģnĠ
ĠgÄģoĠ xiÃ³ng
ĠyÄ«nĠwÃ¨iĠ tÄģ
ĠwÃ©nĠ zhÄģngĠ
hÃºĠbÄĽiĠ shÄĽngĠ
yÃ¡nĠhÇİiĠ shÄĽngĠfÃ¨nĠ
ĠsÃº ĠchÄĵngĠ
m ar
Ġ 1996
Äĵn ĠsÄ«Ġ
le ĠbÃ¹Ġ
dÃŃ ĠsÄ«Ġ
tuÄ« ĠjÃ¬n
diÄģo ĠxiÃłngĠ
zhÃłi ĠwÃ¹Ġ
yÃ¬Ġ qÇĲĠ
ĠyÄ«Ġ lÃ¹Ġ
qÅ«Ġ dÃ²ngĠ
shÃ¹Ġ bÇİi
ĠqÃŃĠ fÃ¹Ġ
gÄģoĠ xiÃłoĠ
ĠhuÃ²Ġ wÃ¹Ġ
bÃ³Ġ lÃŃn
chÇİnĠ liÃłngĠ
bÇİiĠ xÃ¬ngĠ
ĠdÃ¬ĠÃ¨rĠ cÃ¬
Ġ1950 ĠniÃ¡nĠ
Ġ Ù
Ġ duÃłn
Ġ lÃŃng
Ġ hÃ¡ngĠ
Ġ mÃ¬ngĠ
ĠĠĠ b
ĠĠĠ mÃ¹Ġ
ĠĠĠ yÄ«ngĠguÃ³Ġ
ĠĠĠ gÄģiĠdÃ¬Ġ
bÃło ĠfÃ¹Ġ
xÃ¹n ĠhÃłoĠ
jiÇİo ĠdeĠ
ĠrÃ©nĠ shÄĵngĠ
ĠgÅįngĠ diÃłnĠ
shÄĵngĠ rÃ¨nĠ
ĠtÃ³ng ĠniÃ¡nĠ10ĠyuÃ¨Ġ
sÄģnĠ jiÇİoĠ
lÃŃngĠ gÇİnĠ
ĠyÃ²uĠ chÄĵng
chÅįngĠ shÃ©ng
zÄĵngĠ qiÃ¡ng
ÄģĠÄĽrĠ bÄģĠ
cÇİoĠ ÃłnĠ
ĠshÃ¬ĠjiÃłn ĠdeĠ
f e
Ġ bÃºĠshÃ¬Ġ
shÃ¹ ĠgÃ¨Ġ
yÄ«ng ĠÃ©rĠ
mÃ² ĠdeĠ
hÄĽn ĠnÃ¡nĠ
ĠwÃ¨iĠ jÄ«ngĠ
shÃŃĠ qÄ«
ĠyÇĴuĠ leĠ
ĠgÅįngĠ lÃ¬Ġ
fÄģĠ shÄĵngĠyÃºĠ
zhÃŃĠ jÃ¬ngĠ
ĠzhÅįuĠ biÄģnĠ
Ġ zÄĵngĠjiÄģĠ
hÃ¹ ĠshÃ¬Ġ
zhÄģng ĠshÃ¬Ġ
huÃ¡ng ĠshÃ¬Ġ
huÃłn ĠyÇĴuĠ
sÃłng ĠshÄĵngĠ
chÃ©ngĠ wÃ©i
ĠÄĽr ĠxÄ«Ġ
zhÃłnĠ lÃ¼Ã¨
xiÄģngĠ xÃ¬nĠ
dÃ²ngĠ tÃłiĠ
ĠshÄĵngĠ mÃ¬ngĠ
guÇİngĠ dÅįng
huÃ²Ġ zhÄĽĠ
zhÃ¨ngĠzhÃ¬Ġ jÃºĠ
qÅ«ĠdeĠ fÃ¹ĠzÃ©ĠguÇİnĠxiÃ¡Ġ
zhÄĽngĠ tÇĲ
ĠjÇĲnĠ cÃ¬ĠyÃºĠ
yÃłĠmÄĽiĠ nÃŃĠyÃł
f li
s a
ĠĠĠ tÃ¨ĠzhÄĵngĠ
xuÇİn ĠdeĠ
hÃłn ĠguÃ³Ġ
kÃłn ĠjiÃłnĠ
guÇĲ ĠdiÃłnĠ
dÃ¬Ġ fÄģngĠ
ĠdÃ¬Ġ Ã¨rĠshÃŃĠ
ĠyÇĲ ĠzhÄ«Ġ
wÃ©iĠ jÄ«ĠbÇİiĠ
bÄĽnĠ zhÃłnĠ
ĠzhÃłnĠ tÃ¡iĠ
xiÇİoĠ jiÄĽĠ
guÇİnĠ lÇĲĠdeĠ
ĠrÃ¡nĠ hÃ²uĠzÃłiĠ
pÃŃĠ fÅ«Ġ
ĠduÅį ĠrÃ©nĠ
ÄģnĠhuÄ«Ġ shÄĽngĠ
2 ĠmÃŃngĠ
Ġ 1997
Ġ mÃŃĠ
ĠĠĠ Me
ĠĠĠ tÃ¡ngĠ
xiÇİo ĠyÃºĠ
wÄĽi ĠdeĠ
dÃº ĠzÃ¬Ġ
44 ĠniÃ¡nĠ
ĠzhÃ¬Ġ jÄ«n
ĠjÃŃĠ kÄĽĠ
fÃºĠ wÃ¹ĠdeĠ
sÃ¬Ġ chuÄģn
bÃ¬Ġ lÇĶ
ĠshÇĴuĠ xiÄģnĠ
zhÇĶĠjiÃłoĠ liÃłnĠ
Ġ Su
Ġ gÄĽiĠ
zhÅįng ĠniÃ¡nĠ
jiÃłn ĠyÃºĠ
qÅ« ĠxiÃłnĠ
diÇİn ĠxÃŃngĠ
bÄģn ĠdÃłoĠ
liÃ¡ng ĠdeĠ
pÄ« ĠfÃ¹Ġ
OS Ġ
BC Ġ
53 ĠniÃ¡nĠ
ĠshÃ¬Ġ qÃŃĠ
ĠshÃŃĠ sÃ¬ĠniÃ¡nĠ
ĠlÃ¬Ġ yÃºĠ
huÃłĠ fÄĵnĠ
yÃ¡nĠ xÃ¹
xÃ¬ngĠ gÃ©Ġ
ĠzhÃ¨Ġ xiÃłngĠ
shÄģĠ tiÃ¡nĠ
guÄģngĠ pÇĶĠ
xiÃ©Ġ huÃ¬
ĠbÃ¹ĠfÃ¨n ĠdeĠ
ĠI Ġ
b Ã¨n
Ġ dÄ«ng
Ġ yÃ¬nĠdÃ¹
ĠĠĠ De
ĠĠĠ rÃ¬Ġ
yÃ¬ ĠdeĠshÃ¬Ġ
le ĠyuÃ¡nĠ
ĠshÃ¬Ġ yÃ²ngĠyÃºĠ
ĠdÃłĠ zhÃ¨ngĠ
tÃ¨Ġ dÃ¬ngĠdeĠ
fÄĵngĠ bÃło
mÄĽiĠguÃ³Ġ zÇĴngĠtÇĴngĠ
xiÃłoĠ guÇĴ
bÄģoĠkuÃ² ĠleĠ
tÄ«ngĠ zhÇİngĠ
kuÃłngĠ wÃ¹Ġ
ĠdeĠyÃ¬Ġ siĠ
yÇĲngĠxiÇİng ĠdeĠ
wÃ¹ĠlÇĲĠ xuÃ©ĠjiÄģĠ
shÄĽngĠdÃłoĠ tÃ¡iĠ
Ġ te
Ġ XĠ
jÄ« ĠlÃ¬Ġ
gÇĶ ĠsÄ«Ġ
pÇĶ ĠÄĽrĠ
qiÄģn ĠzhÃ¨ngĠ
guÄģng ĠdeĠ
lÄĵi ĠdeĠ
dÃ¬Ġ Ã¨r
ĠjÃŃĠ zhÅįngĠzÃłiĠ
yÃ²ngĠ leĠ
lÃ¡iĠ yuÃ¡nĠyÃºĠ
zhÇİngĠ wÃ²
huÃ³Ġ xÃ¬ngĠ
jÅ«nĠ guÄģnĠ
tiÄĽĠ lÃ¹ĠdeĠ
ÄĵnĠ lÃ¡iĠ
ÄģĠgÄĵnĠ tÃŃngĠ
zuÃ² ĠyÇĲĠ
qiÃ¡n ĠwÃ¨iĠ
jÄ«n ĠrÃ¬
lÇļ ĠyÃ³u
lÇİng ĠpÇĶĠ
pÅį ĠÄĽrĠ
ĠhÃ©Ġ kÇĴuĠ
ĠlÃ¬Ġ chÇİngĠ
ĠyÄ«Ġ kÄģiĠshÇĲĠ
ĠyÇĶĠ yuÃ¡nĠ
ĠchÅ«Ġ kÇĴu
fÄģĠ dÃ²ng
ĠyÃ³uĠ tÃłiĠrÃ©nĠ
tiÄģnĠ huÃ¡ng
xÃ¬nĠ tÃºĠ
gÄĵĠlÃºnĠ bÇĲĠyÃł
Ġ yÃº
Ġ yÄģĠ
Ġ hÃ²uĠzÃłiĠ
ĠĠĠ Mo
ĠĠĠ 2004ĠniÃ¡nĠ
mÃŃng ĠzÃłiĠ
shÄĵng ĠbÃ¹Ġ
mÇİ ĠqÃŃĠ
luÃ² ĠhÃ²uĠ
gÃło ĠzhÄ«Ġ
ss Ġ
ĠdÃłĠ zhÃłnĠ
xiÇİngĠ yÃ¬ngĠ
ĠbÇĲĠ sÃłi
pÃ©iĠ yÇİngĠ
wÇİnĠ jiÄģnĠ
ĠguÃ³ĠjiÄģ ĠgÅįngĠyuÃ¡nĠ
hÃºĠnÃ¡nĠ shÄĽngĠ
ĠdeĠfÃ¹Ġ qÄ«nĠ
lÇļĠkÃ¨Ġ tiÄĽĠdÃłoĠ
Ġ 1992
ĠĠĠ jiÃłoĠyÃ¹Ġ
tÃ³ng ĠxuÃ©Ġ
bÅį ĠyÄ«nĠ
ig ht
chuÄ« Ġ
ĠshÃ¬Ġ fÃłngĠ
ĠdÃ¬Ġ xÃŃngĠ
ĠÃ©r ĠyuÃ¡nĠ
ĠjiÃłnĠ duÃ¬
zhÇĴngĠ zÃº
biÃłnĠ huÃł
miÇİnĠ fÃ¨i
fÄģĠxiÃłn ĠyÃºĠ
Ġ bÄĵiĠ
Ġ shÃŃĠniÃ¡nĠ
Ġ zhÄĵnĠduÃ¬Ġ
zÄĵng ĠzhÃ¬Ġ
42 Ġ
ĠjÃŃĠ jÃ¹Ġ
ĠjÃ¬Ġ hÃ²uĠ
ĠsÄ«Ġ fÇİ
ĠÃ©r ĠyÇĲĠ
zhÃ¨Ġ yÃłngĠ
ĠjÅ«nĠ zhÇĶĠ
kÄĵĠ huÃłnĠ
nÃłĠ yÃłngĠ
diÄģoĠ sÃ¹Ġ
c ti
Ġ xiÃ©ĠzhÃ¹Ġ
ĠĠĠ pÇĶĠ
shÃ¨ ĠyÃºĠ
dÄģng ĠrÃ¬Ġ
nÃł ĠxÄ«Ġ
hÄģ ĠdÃ©Ġ
42 ĠniÃ¡nĠ
ĠshÃŃĠ xÃŃng
yÇĶĠ yÃ¡n
xÄ«Ġ zÃłngĠ
ĠbÃ¨iĠ kÃ¨Ġ
ĠdÃłn ĠwÃ¨iĠ
ĠjÅ«nĠ duÃ¬
zuÃ¬Ġ dÄ«Ġ
dÄĽngĠ dÃłiĠ
chÃ¡ngĠ guÄ«Ġ
ĠxiÃłnĠdeĠ fÄĵiĠjiÃłnĠzhÃ¬ĠdÃ¬ĠqÅ«Ġ
huÃłnĠ xiÇİngĠ
ĠzuÃ¬Ġ zhÅįngĠzÃłiĠ
jÇĶĠxÃŃngĠ leĠ
ĠdÅįng ĠxÄ«Ġ
ĠsuÅįĠ xiÄĽĠ
9 ĠmÇĲĠ
M P
Ġ 1978ĠniÃ¡nĠ
hÃ¡ng ĠxÃŃngĠ
ation Ġ
ĠguÃ³Ġ zhÅįngĠ
ĠyÄ«Ġ duÃłnĠ
ĠdÃłĠ dÃłĠ
fÃ¹Ġ nÇļĠ
fÄģĠ huÄ«Ġ
ĠzhÃłnĠ lÇĲng
fÄĵnĠ lÃ¡n
tiÄģnĠ zhÇĶĠjiÃło
Ã¨rĠ bÇİiĠ
huÇĴĠ zÄģiĠ
ĠshÃ¬ĠwÃ¨iĠyÃºĠ wÅ«ĠkÃ¨ĠlÃ¡nĠ
ĠchÃ¡oĠ xiÄģn
Ġ xiÄģng
Ġ zhuÃ³
Ġ huÃ¬ĠyÃ¬Ġ
gÄģo ĠÄĽrĠ
qÇĲ ĠshÃ¬Ġ
hÃłn ĠdeĠ
47 ĠniÃ¡nĠ
ĠshÃŃĠ jiÃłnĠ
jÃ¬Ġ zhÄĽĠ
rÃ¨nĠ kÄĽĠ
jiÃłoĠ tÃºĠ
zhÃ¹Ġ mÃŃng
shÄ«Ġ zhÇİngĠ
zhÇĲĠ nÃ©ng
bÇİoĠ ÄģnĠ
gÇĶĠ dÅįngĠ
ĠgÄģiĠ zhuÄģngĠ
chÃ©nĠ mÃ²Ġ
fÄģĠxÃŃngĠ leĠ
jiÄģĠrÃ¹ ĠzhÅįngĠguÃ³ĠgÃ²ngĠchÇİnĠdÇİngĠ
Ġ xiÃ³ng
ĠĠĠ jÃ¬nĠ
guÃ³ ĠwÃ¨iĠ
qÇĶ ĠleĠ
shÅįu ĠfÃ¹Ġ
gÃ¨ng ĠdÃłĠ
ĠdeĠ wÃ¨iĠ
ĠshÃ¬Ġ cÃ³ngĠ
ĠyÇĴuĠ liÇİngĠgÃ¨Ġ
guÄģnĠ diÇİn
ĠzhÃłnĠ jÃ¹Ġ
ĠbÄĽnĠ piÃłn
cÃºnĠ chÇĶĠ
bÄģnĠjiÇİngĠ diÇİnĠlÇĲĠ
g en
g nĠ
l ÃłoĠ
s si
Ġ jiÄģn
Ġ pÃłnĠ
Ġ yÄ«ĠniÃ¡nĠ
kÄģi ĠyuÃ¡nĠ
pÃłi ĠrÃ©nĠ
xiÃłngĠ bÄĽiĠ
tÃ¨Ġ sÃ¨
ĠwÃ©iĠ qÄ«Ġ
bÄĽiĠ mÄĽiĠ
ĠshÃłngĠ zhÃ¨nĠ
biÄģnĠ qÅ«Ġ
luÃ²Ġ bÃłiĠ
yÃŃĠgÃ¨ ĠrÃ©nĠ
xiÃ©Ġ zhÃ¹
xÃ¬ĠtÇĴng ĠzhÅįngĠ
ÄģĠjÄ«Ġ tÇİn
Ġ sÅįng
Ġ jiÃłngĠ
Ġ tÅ«Ġ
Ġ yÃŃngĠdÃ©Ġ
ĠĠĠ a
ĠĠĠ mÄĽiĠ
zhÅ« ĠshÃ¬ĠhuÃ¬Ġ
liÃ¹ ĠyuÃ¨Ġ
66 ĠniÃ¡nĠ
ĠzÃłiĠ jÄ«nĠ
xuÃ©Ġ zhÄĽ
rÃ¨nĠ qÄ«Ġ
dÃłiĠ lÇĲng
ĠqÃŃĠ ziĠ
tÃ¡iĠ nÃ¡nĠ
fÅ«Ġ lÄĵiĠ
dÃºĠ zhÄĽĠ
zhÃłngĠ fÅ«
gÄĵngĠ huÃłn
ĠnÇļĠ zÇĲĠ
I G
g rou
Ġ 1993
hÄĽn ĠyÇĴuĠ
shÄĵngĠ mÃ¬ng
qÄ«Ġ tÃºĠxÃŃngĠ
yÇİnĠ jÄ«ngĠ
ĠguÃ²Ġ qÃ¹Ġ
guÃ³ĠdeĠ tÃ¨ĠyÇĴuĠ
kÇĴngĠ lÃ³ngĠ
ĠwÇĶ ĠyuÃ¨Ġ
jiÄĵĠshÃ²u ĠleĠ
ĠzhÃłnĠdÃ²u ĠjÄ«Ġ
jiÄģ ĠjÃŃĠ
dÃ© ĠyÇĲĠ
huÃł ĠgÅįngĠ
liÃº ĠchÃ©ngĠ
shuÇĲ ĠshÃłngĠ
pÇĶ ĠlÇĲĠ
wÄĵi ĠdeĠ
fÃłng ĠzhÃ¬Ġ
fÃłng ĠshÃ¨Ġ
gÄģn ĠyÃ¹Ġ
ĠshÃ¬Ġ yÃ²ngĠ
ĠjiÄģĠ sÃ¹Ġ
ĠjÃ¬n ĠniÃ¡nĠ
ĠjiÇİngĠ shÃ¹Ġ
qÅ«ĠyÃ¬ĠhuÃ¬Ġ xuÇİnĠjÇĶĠ
Ġ fÄģĠbÃ¹Ġ
Ġ hÇİiĠjÅ«nĠ
Ġ 1980ĠniÃ¡nĠ
gu Çİ
cÃ©ng ĠyÇĶĠ
cÄģn ĠzhÃ¨ngĠ
xÅ« ĠqiÃº
cÇİo ĠyuÃ¡nĠ
ĠbÃ¹Ġ liÃ¨Ġ
ĠgÃ¨Ġ dÃ¬ĠdeĠ
rÃ¹Ġ yÃ¹Ġ
tiÄģnĠ shÇĲĠ
dÇİĠ kÄģiĠ
ĠniÃ¡nĠ10ĠyuÃ¨Ġ 1ĠrÃ¬Ġ
xÇĶĠ kÄĽ
liÃ¨ĠchÄĵ ĠdeĠ
ĠyÇĶĠmÃ¡o ĠqiÃº
Ġ sÄģi
Ġ bÇĲĠdÃ©Ġ
guÄģn ĠhÃ©Ġ
diÃłn ĠyuÃ¡nĠ
chÄĵng ĠdeĠ
nÃ³ng ĠdÃ¹Ġ
hÃ¡o ĠwÃºĠ
col spanĠ
ĠyÃºĠ 2011
ĠchÃ©ngĠ rÃ¨n
ĠzhÄ«Ġ duÃ¬Ġ
jiÄģnĠ dÅ«
jiÄģoĠ huÃłn
jiÇİnĠ chÄĵngĠ
fÃ¡ngĠ shÇĴuĠ
ĠdeĠshÃ¬Ġ jiÃłnĠ
huÇĴĠ pÃłoĠ
ĠliÃ¡nĠ sÃłiĠ
ĠgÄģi ĠdÃ¬Ġ
xuÃ¡nĠ zhuÇİnĠ
mÃ¨ngĠjiÄģĠ lÄģĠ
U S
c Ã©n
Ġ Mo
Ġ xÃ¬ĠtÇĴngĠ
Ġ 22Ġ
fÄĵn ĠjÃŃĠ
liÃº ĠshÃ¬Ġ
shÄĽng ĠrÃ©nĠmÃŃnĠzhÃ¨ngĠfÇĶĠ
yÃ¡ng ĠzhÅįuĠ
quÃ¨ ĠshÃŃĠ
29 ĠniÃ¡nĠ
38 Ġ
1900 ĠniÃ¡nĠ
ĠhÃ©Ġ jiÄģĠ
ĠÃ©rĠ zhÃ¨Ġ
suÇĴĠ zhÇİngĠ
gÃ©Ġ lÃŃnĠ
zuÃ¬Ġ hÇİoĠdeĠ
ĠshÄĵngĠ rÃ¨nĠ
shÄģnĠ hÃºĠ
miÃłnĠ qiÃ¡nĠ
yÃŃĠ qÃ¬Ġ
ĠyÄĽĠ chÄĵngĠ
pÃ¨iĠ juÃ©Ġ
dÃłnĠ bÃ¡iĠ
dÇĴngĠshÃ¬Ġ huÃ¬Ġ
cro sof
Ġ Be
Ġ gÅ«Ġ
Ġ 20ĠshÃ¬ĠjÃ¬Ġ
Ġ 23Ġ
chÅ« ĠxiÃłnĠzÃłiĠ
xiÄĽ ĠchÃ©ngĠ
ĠzhÅįngĠ yÃ¬Ġ
ĠdÃ© ĠyÃ¬ĠzhÃ¬Ġ
zhÇĶĠ chÇİng
qiÃ¡ngĠ liÃ¨ĠdeĠ
zhÇĶĠjiÃłoĠ zuÃ²Ġ
ĠhuÃ²ĠdÃ© ĠdÃ¬Ġ
ĠfÇĴu ĠzÃ©Ġ
I L
ĠĠĠ shÇĲĠ
xiÃłng ĠhÃ©Ġ
yuÄĵ ĠdeĠ
shÄģ ĠshÃ¬Ġ
jiÇĶ ĠyuÃ¨Ġ
ĠyuÃ¨Ġ nÃ¡n
ĠzhÃ¬Ġ cÇĲĠ
xÄ«nĠ qÅ«Ġ
dÃ¹Ġ guÃ²Ġ
ĠtÃ³ng ĠwÃ¨iĠ
ĠzhÃ¨Ġ chÇİngĠ
gÇĶĠ fÃ¨nĠ
yuÄĵĠ 1
tÃŃĠ ÃłnĠ
xÃ¬nĠ yÃ²ngĠ
gÄĵnĠ suÃŃ
ĠzuÃ¬Ġ hÃ²uĠyÄ«Ġ
sĠĠĠ of
fÄģĠxiÃłnĠleĠ cÇĲĠtiÄģnĠtÇĲĠ
fÇİĠlÃ¡nĠxÄ« ĠdÃłĠqÅ«Ġ
5 ĠmÃŃngĠ
y Å«
Ġ zhÇİnĠ
jÄ« ĠxÃŃngĠ
xiÃł ĠyÃ¬Ġ
suÇĴ ĠbÃ¹Ġ
gÇĶ ĠchÃ©ngĠ
fÃ¨i ĠÄĽrĠ
ĠshÃ¬Ġ pÃŃn
ĠwÃ©iĠ fÇİnĠ
ĠzhÃ¨Ġ cÃ¬
ĠdeĠgÅįngĠ jÄ«Ġ
ĠgÃ©Ġ lÃ¡nĠ
zÅįngĠyÃ¬Ġ jiÃ©ĠmÃ¹Ġ
jÃ¬ngĠwÃłiĠ shÅ«ĠrÃ¹Ġ
Ġ guÇĲĠ
Ġ tÃ©ngĠ
yÄĽ ĠbÃ¹Ġ
shÄ« ĠxÃŃngĠ
chÇİn ĠdeĠ
yÃ© ĠlÃ¹Ġ
os Ġ
ĠchÃ©ngĠ xiÃłngĠ
ĠrÃ¬ ĠshÃŃĠ
ĠyÇĶĠ xÄ«nĠ
ĠdÃłoĠ fÅ«Ġ
fÃ¹Ġ xÄ«ng
kÄģiĠ yÃ¨Ġ
tiÄģnĠ xiÃłĠ
xÃºnĠ zhÇİoĠ
liÃ¡nĠsÃłiĠ guÃłnĠjÅ«nĠ
bÃ¨i ĠyÄ«Ġ
xÄ«n ĠjÄ«Ġ
yÃŃng ĠdÃ©
âĢ ĭ
xiÃ¡ ĠshÃ¬Ġ
sÄĵn ĠdeĠ
kÅ«n ĠmÃŃngĠ
ĠchÃ©ngĠ dÄģnĠ
ĠÃ©r ĠdÃ©ĠmÃŃngĠ
wÃ¹Ġ zÄ«Ġ
tÅįngĠ chÃ¡ngĠshÃ¬Ġ
chuÃ¡nĠ shÅ«Ġ
shÃ¨Ġ jÃ¬ĠdeĠ
ĠwÃ©nĠ xuÃ©Ġ
chÃ¨Ġ tuÃ¬
ĠshÃŃĠjiÄģn ĠwÃ¨iĠ
huÃ³ĠyuÃ¨Ġ yÃºĠ
tÇİĠnÃŃ ĠdÃłĠqÅ«Ġ
R E
y leĠ
Ġ fÅ«Ġ
ĠĠĠ shÃ¨ĠjÃ¬Ġ
yÇĶ ĠrÃ©nĠ
xuÃ© ĠjÃŃĠ
zhÅįu ĠwÃ©iĠ
ĠjiÄģĠ ÄĽrĠ
ĠxÄ«Ġ bÄĽiĠbÃ¹Ġ
zhÇĶĠ tÇĲĠ
ĠzhÃ¨Ġ shÇĲĠdeĠ
luÃ³Ġ xuÃ¡nĠ
nÃ³ngĠ cÅ«n
Ġ lÄģ
Ġ diÃło
ĠĠĠ 5
wÇĶ ĠgÅįngĠ
jiÃ¨ ĠxiÃłnĠ
lÇľ ĠbÃ¹Ġ
dÄ«ng ĠmÃ¹Ġ
dÃłĠ huÃ¬Ġ
ĠyÄ«Ġ cÃŃ
ĠzhÄ«Ġ lÃ¹Ġ
ĠhuÃ¬Ġ dÇİoĠzhÃ¬Ġ
kÄģiĠ pÃ¬
xiÃłngĠ dÅįngĠ
shÅ«Ġ xiÄĽĠ
ÄģnĠ dÅįngĠnÃŃĠ
cÃ¨Ġ lÃ¼Ã¨
mÃ³Ġ nÇĲĠ
ĠjiÃ©Ġ mÃ¹
ĠliÃ¡nĠ xÃ¹Ġ
ĠbÄĽiĠqÇĲĠ shÃ¹nĠshÃŃĠzhÄĵnĠyÇĶĠ
N C
Ġ shÄĵn
zhÃ¨ng ĠsÄ«Ġ
dÃ© ĠzhÄ«Ġ
tÃ³ng ĠshÃ¬Ġ
bÄĽi ĠpÃŃngĠ
shÃ©n ĠshÃ¨Ġ
56 ĠniÃ¡nĠ
Mu si
ĠkÃ¨ ĠrÃ©nĠ
lÃŃĠ hÅ«nĠ
ĠgÄģiĠ piÃłn
jiÇĶĠ diÃłn
zhÃłoĠ gÃ¹Ġ
xuÃ¨Ġ yÃ¨Ġ
ĠdÃł ĠwÃ¨iĠ
xÃºnĠhuÃŃĠ sÃłiĠ
tÃŃngĠchÄĵĠ chÇİngĠ
Ġ Ã¨
Ġ xÃ¬n
Ġ xiÅ«
Ġ 1991
le ĠdÃ¬ĠyÄ«Ġ
shÃłng ĠjÃŃĠ
huÃł ĠchÃ©ngĠ
yÃ¹n ĠhuÃ¬Ġ
ĠzÃłiĠ nÃłĠlÇĲĠ
lÃ¬Ġ liÃłngĠ
ĠmÃŃngĠ quÃ¨Ġ
xiÃłĠ xÃºnĠ
ĠjÃ¬n ĠleĠ
gÃ©Ġ luÃ³Ġ
qÇĲĠ tÃºĠ
yÃ¬ngĠ yÃ²ngĠyÃºĠ
ĠjÇĲnĠ biÄģoĠ
ĠfÄĵiĠ chÃ¡ngĠ
dÄģĠ pÃ¨iĠ
bÄģĠfÃ¡ ĠlÃ¬ĠyÃł
Ġ yÇĲn
Ġ 1980
yÇĶ ĠjÃŃĠ
guÄģng ĠxuÃ©Ġ
zhuÇİn ĠhuÃ¬Ġ
ĠzÃłiĠ dÄģngĠdÃ¬Ġ
ĠchÅ«Ġ zÃ¬Ġ
wÃłiĠ jiÃ¨Ġ
jiÄģoĠ qÅ«Ġ
huÃ²Ġ bÃ¬Ġ
yÅįuĠ xiÄģnĠ
kÄĽĠyÇĲ ĠshÃ¬Ġ
yÃ©ĠlÃ¹Ġ sÄģĠ
v el
Ġ 48
Äģn ĠzhÃ¬Ġ
wÃ©i ĠlÃ¬Ġ
zhÇĶ ĠrÃ©nĠ
jiÃ¨ ĠyÃ³uĠ
bÇİo ĠshÃŃĠ
liÃłng ĠhÃ©Ġ
yÃ²u ĠbÃ¨iĠ
ar t
57 ĠniÃ¡nĠ
ĠbÃ¹Ġ lÃ¡nĠ
ĠxÃŃng ĠzhÅįngĠ
jÄ«nĠ pÃ¡i
tiÄģnĠ zhÇĶĠ
Ã¨rĠ yÇİngĠhuÃłĠ
jiÄĽĠ chÃºĠ
hÃ¡ngĠ tiÄģn
huÃ²Ġ yÃ¹nĠ
dÄģngĠ jÃº
zhÃŃĠyÃ¨Ġ shÄĵngĠyÃ¡
9 ĠshÃŃĠ
N et
Ġ zhÃº
Ġ jÇĶĠ
Ġ tÃłnĠ
guÄģn ĠzhÃ¬Ġ
kÄģi ĠxÃŃngĠ
tu r
shÄ« ĠshÃ¬Ġ
nÃ¨i ĠshÃ¨ĠyÇĴuĠ
wÇĶ ĠlÃ¬Ġ
zhÃ¨n ĠxiÃłnĠ
yÇİn ĠleĠ
yÄģ ĠzhÃ¬Ġ
cÇİo ĠdÃ¬Ġ
34 Ġ
ĠzÃłiĠ hÃ²uĠ
ĠshÃŃĠ qÃ¬
ĠyÃºĠ yÄ«Ġ
ĠlÇĲĠ ÃłoĠ
nÃ¡nĠ fÄĵiĠ
zÇĴngĠ dÅ«
ĠliÃ¡nĠ bÄģngĠ
ĠzhÃŃ ĠdeĠ
ĠshÇĲ ĠqÃŃĠ
tÅįngĠguÃ² ĠleĠ
ĠyÃ¬Ġsi ĠshÃ¬Ġ
D S
g h
y ste
Ġ gÃłnĠ
jiÄģng ĠwÃ©iĠwÃºĠÄĽrĠ
fÇĶ ĠdeĠ
kuÃłi ĠjÃ¬Ġ
shÃłngĠ fÇİĠlÃ¡nĠxÄ«ĠdÃłĠqÅ«Ġ
ĠxÄ«Ġ nÃ¡nĠbÃ¹Ġ
ĠshÃ¨ ĠxiÃłnĠ
ĠjiÃłnĠ leĠ
ĠbÃ¬ngĠ duÃ¬Ġ
cÇĲĠ cÃ¬Ġ
wÃ¡ngĠ guÃ³ĠdeĠ
ĠgÄĵĠ shÇĴuĠ
ĠyÇĲnĠ qÇĲĠ
v an
ĠĠĠ Al
ĠĠĠ yÇĲngĠxiÇİngĠ
Ã¨r ĠmÃŃngĠ
chÃ©n ĠjÄ«Ġ
gÃ¹ n
tÃ²u ĠmÃŃngĠ
shÄĵngĠ wÃ¹
guÄģnĠ shÇİng
zhÃŃĠ dÇİoĠdeĠ
lÄģĠ fÅ«Ġ
Ã©Ġ wÃłiĠ
ÃłiĠ shÄģĠ
ĠyÃ¡nĠ zhÃ²ngĠ
xiÇİoĠshÃŃĠ hÃ²uĠ
dÃłnĠ bÃ¡iĠzhÃ¬Ġ
kÃ²ngĠ gÇĶ
wÄĽnĠ dÃ¬ng
ĠĠĠwÃ¨iĠ yÃºĠ
ĠwÇĴ ĠdeĠ
shÄĵng ĠrÃ¬Ġ
tÃŃ ĠshÃ¬Ġ
xÃ¹ ĠshÃ¬Ġ
ry Ġ
ĠzhÅįngĠ jÃŃĠ
yÇĴuĠ yÃ¬Ġ
ĠgÅįngĠ shÄģngĠ
ĠjiÃłnĠ lÃ¬ĠdeĠ
ĠdÃłn ĠyÄ«nĠwÃ¨iĠ
gÄģoĠ shÄģnĠ
ĠyÃ³uĠ kÃ¨Ġ
ĠdÃłnĠ shuÇĲĠ
jiÇİnĠ dÄģn
zÇĶĠ zhÇĲ
ĠdÃłĠxuÃ©Ġ jiÃłoĠshÃ²uĠ
ĠgÄģi ĠgÅįngĠsÄ«Ġ
ĠbÄĽn ĠmÃŃngĠ
ĠgÅįngĠzuÃ² ĠrÃ©nĠyuÃ¡nĠ
sh Ġ
tÇĲ ĠhÃ©Ġ
tÃº ĠÄĽrĠ
gÇİi ĠzhÃ¬Ġ
ĠwÃ¨iĠ tÄģĠ
ĠhÃ©Ġ shuÇĲĠ
ĠshÃŃĠ yÃ¬Ġ
ĠjiÃłn ĠguÃ³Ġ
qÄ«Ġ xÄ«ĠdÃ¬Ġ
hÇİiĠ guÄģnĠ
nÇļĠ shÃ©nĠ
zÃºĠ xiÃ©
zÄĵngĠ jiÄģ
ĠsÃ¬ ĠyuÃ¨Ġ
ĠhÃ©ĠbÄĽiĠ shÄĽngĠ
Ġ zÃłnĠ
Ġ nÃ¨iĠbÃ¹Ġ
ĠĠĠ 188
ĠjÃ¬Ġ gÅįngĠ
ĠjÃ¬n ĠpÃŃngĠ
tÃłiĠ kÅįng
jiÇİnĠ huÃłĠ
zÃºĠ zÃ¬ĠzhÃ¬ĠqÅ«Ġ
lÇĲngĠ xiÃ¡n
mÃłnĠ huÃł
jÅ«Ġ liÃºĠ
fÃłngĠ sÃ²ngĠ
chÃ¨Ġ lÃŃĠ
ĠzhÃ¹ ĠyÇĴuĠ
8 ĠshÃŃĠ
Ġ tÃ¡n
Ġ cuÄ«
Ġ dÇĲĠ
yuÃ¡n ĠzhÃ¬Ġ
yÇĶ ĠzÃłiĠ
yÃ¹ ĠzhÅįngĠ
shÄĵng ĠyuÃ¡nĠ
fÃ¹ ĠchÅ«Ġ
yuÃłn ĠyÃ¬ĠyuÃ¡nĠ
bÄ«n ĠxÄ«ĠfÇİĠ
ca Ġ
ĠhÃ©Ġ pÃŃng
ĠjÃŃĠ yÃºĠ
ĠjÃŃĠ yÇĶĠ
ĠlÃ¬Ġ chÃ©ngĠ
ĠtÄģ ĠyÃ¬Ġ
ĠjÃ¬Ġ shÃ¹ĠdeĠ
ĠxÄ«Ġ bÄĽi
yÃŃĠ chuÃ¡nĠ
gÄģngĠ qÃŃnĠ
xuÃ¨Ġ tÇĴngĠ
Ġ qÇĶĠdÃłiĠ
Ġ bÄģoĠhÃ¡n
ĠĠĠ 1949
le ĠshÃŃĠ
fÇİn ĠshÃ¨Ġ
biÃ© ĠmÃŃngĠ
yÃłn ĠzhÃ¨ngĠ
ĠzÃłiĠ yuÃ¨Ġ
ĠshÃŃĠ biÇİoĠshÃ¬Ġ
ĠguÃ³Ġ jÅ«n
ĠyÇĲĠ qÃŃĠ
ĠyÇĶĠ yÃ¡nĠdeĠ
xiÃłĠ wÄĵiĠ
zhÃŃĠ zÃ©Ġ
zhÃ²ngĠ shÄģngĠ
ĠgÄģiĠ wÃ¹ĠzhÇĴngĠdeĠ
ĠwÃłn ĠpÃŃngĠfÄģngĠmÇĲĠ
hÄĽnĠ kuÃłi
liÃłnĠ xÃŃĠ
Ġ000 ĠmÃŃngĠ
ĠgÄĵĠ qÇĶ
mÃ³ĠshÃ¬Ġ chÇİnĠ
yuÃ¨ĠzhÅįngĠ xÃºnĠ
hÃ¡ngĠkÅįngĠmÇĶ ĠjiÃłnĠ
A G
w e
Ġ tÇĶ
Ġ mÃŃnĠzhÇĶĠ
Ġ yÃłĠzhÅįuĠ
ĠĠĠ shuÇĲĠ
chÃ ²u
yÃ¡n ĠxiÃłnĠ
zhÃ²ng ĠrÃ©nĠ
ĠchÃ©ngĠ jÃŃĠ
ĠxÄ«Ġ zÃłng
ĠdÅįngĠ fÄģngĠ
pÃłnĠ duÃłnĠ
ĠzhÅįngĠyÄģng ĠjÅ«nĠ
dÅįngĠbÃ¹Ġ dÃłĠqÅ«Ġ
ĠbÄģ ĠyuÃ¨Ġ
ĠchÅ«ĠbÇİn ĠshÃ¨Ġ
Ġ wÇİng
Ġ si
Ġ Di
Ãło ĠdÃ¬Ġ
yÃ¹ ĠhÃ©Ġ
shÄģn ĠhÃ©Ġ
liÇİng ĠbÃ¹Ġ
wÃº ĠyÃ¬Ġ
41 ĠniÃ¡nĠ
ĠshÃ¬Ġ wÅ«ĠkÃ¨ĠlÃ¡nĠ
ĠgÅįngĠ Äģn
ĠdÃło ĠzÃłiĠ
ĠzhÄ« ĠhÃ©Ġ
chÅ«Ġ kÇĴuĠ
kÄĽnĠ dÃ¬ngĠ
biÄģoĠzhÇĶn ĠdeĠ
ĠÃ¨r ĠrÃ©nĠ
pÄ«ng ĠpÄģng
r on
Ġ diÇİnĠ
Ġ aĠ
jÇĲ ĠgÃ¨
cÇĲ ĠzhÃłnĠ
piÄģn ĠxiÇİoĠshuÅįĠ
lÃłng ĠmÃłnĠ
ĠzhÅįngĠ shÃŃĠ
ĠguÃ³Ġ jÃŃĠ
jÃ¹Ġ bÃ¨iĠ
ĠdÃłnĠ rÃ©ng
gÇĶĠ diÇİn
lÃ³ngĠ kÄĵĠ
qÇĶĠ dÃłi
ĠdeĠyÄ«Ġ tiÃ¡o
yÃ¡Ġ chÇĲĠ
ĠmÄĽi ĠrÃ¬Ġ
ĠdeĠbÃ¹Ġ fÃ¨n
chÇĶĠlÇĲĠ qÃ¬Ġ
Ġ hÃ¡iĠshÃ¬Ġ
Ġ miÇİoĠ
gÃ© ĠhÃ©Ġ
tÃłi ĠyuÃ¡nĠ
yÃ¡ng ĠdeĠ
gÃ¹ ĠyÃ¬Ġ
ĠwÃ¨iĠ zhÄ«Ġ
zhÇĲĠ zÃ©Ġ
yÄ«ngĠ wÇĶĠ
gÄĵĠ chÃłng
wÄĵiĠ nÃŃĠsÄ«Ġ
ĠwÃº ĠxiÃłnĠ
ĠqÄ« ĠyuÃ¨Ġ
Q u
Ġ ÇĴu
ĠĠĠ 2004
hÃ²u ĠchÃ©ngĠwÃ©iĠ
yÃ²ng ĠyÇĲĠ
wÇĶ ĠdeĠ
bÇĲ ĠdeĠ
zhÄĵn ĠjÅ«nĠ
shÄĽn ĠlÇĲĠ
pÅ« ĠshÃ¨Ġ
ĠhÃ©Ġ mÄĽiĠguÃ³Ġ
ĠyÇĴuĠ zhÃ¹ĠyÃºĠ
wÃ©iĠ kÃ¨Ġ
mÃŃngĠ nÃŃĠsÅ«Ġ
ĠÄĽr ĠdÃ¬Ġ
ĠtÄģĠ biÇİoĠshÃ¬Ġ
zhÃ¨Ġ cÃ¬Ġ
xiÃłngĠ nÃ¡nĠ
zhÃŃĠ lÃ¹
bÄĽiĠ cÃ¨Ġ
tÇĲĠ xÃ¬
wÅ«Ġ lÇĶĠ
ĠjÄ«ngĠ chÃ¡ng
ĠhuÃłĠ xuÃ©
ĠgÅįngĠsÄ« ĠzÃłiĠ
ĠbÃ¹ĠjiÇĶ ĠhÃ²uĠ
ĠwÃ¨iĠyÃºĠgÄģiĠ shÄĽngĠ
U C
r ÄĽ
Ġ xÄ«nĠdeĠ
shÄĵng ĠyÃ¬Ġ
huÃ¡n ĠyuÃ¡nĠ
ang Ġ
DV DĠ
yÃ¬Ġ yuÃ¡nĠ
ĠjÅ«n ĠjÃŃĠ
ĠjÅ«n ĠbÃ¨iĠ
ĠkÃ¨ ĠshÃ¬Ġ
suÇĴĠ shÇĶĠ
ĠjÃ¹Ġ lÃ¨Ġ
yÃłĠ kÄĵĠ
hÃ³ngĠ shuÇĲĠ
wÃ¡nĠ chÃ©ngĠdeĠ
fÄĵnĠbiÃ© ĠshÃ¬Ġ
bÃłiĠzhÃłnĠ tÃŃng
r en
Ġ jÇĲng
Ġ tiÄĽ
xÃ¬ng ĠyÇĶĠ
zÃ© ĠÄĽrĠ
lÃ¡n ĠzhÅįuĠ
suÄģn ĠyÃ¡nĠ
ĠguÃ³Ġ gÃ²ngĠ
ĠguÃ³Ġ fÃ¡ngĠ
ĠyÃ¬Ġ qÃŃng
ĠqÃŃ ĠyÃ¬Ġ
jiÄģnĠ chÃŃ
xuÇİnĠ xiÃ¹
yÄ«nĠ cÇĲ
ĠdeĠmÃŃngĠ chÄĵngĠ
gÄĵĠqÇĶ ĠdeĠ
zhÇĲĠhuÄ« ĠbÃ¹Ġ
luÃ³ĠdÃ¬Ġ yÃłĠ
liÃ¡oĠnÃŃngĠ shÄĽngĠ
ĠSA OĠĠĠ
mÃŃng ĠzhÅįngĠ
shu Çİng
jiÄĵ ĠlÃ¬Ġ
zÇĶ ĠwÃ¨iĠ
qiÄģn ĠxiÃłĠ
jiÇĶ ĠmÃŃngĠ
gÃło ĠzhÅįngĠ
lÃ³u ĠdeĠ
49 ĠniÃ¡nĠ
ĠdeĠ qÃŃngĠkuÃłngĠ
ĠyÇĲ ĠchÃ©ngĠwÃ©iĠ
kÄĽĠ kÃło
tÃŃĠ jiÄģoĠ
chÄĵngĠ hÅ«
huÇĴĠ xÄ«ngĠ
ĠrÃºĠ cÇĲĠ
ĠĠĠof ĠĠĠtheĠĠĠ
xuÃ©ĠyuÃłn ĠdeĠ
A V
h er
Ġ pÃºĠ
ĠĠĠ 2003ĠniÃ¡nĠ
qÅ« ĠyÃ¬ĠyuÃ¡nĠ
fÇİ ĠzhÅįngĠ
wÇĶ ĠwÃ¨iĠ
et ĠĠĠ
BS Ġ
les Ġ
dÃłĠ yuÄĵĠ
ĠÄĽr ĠkÃ¨Ġ
ĠjiÄģĠ qiÃ¡ng
ĠchÅ«Ġ sÃłiĠ
jiÄĵĠ shÅįu
chÄĵĠ shÇĴuĠ
ĠmÇİ ĠÄĽrĠ
G B
g o
Ġ liÃ¡oĠ
ĠĠĠ 2ĠyuÃ¨Ġ
duÃ¬ ĠtÄģĠdeĠ
dÃ²ng ĠshÃ¬Ġ
zuÃ¬ ĠxÃŃngĠ
fÃłn ĠdeĠ
mÃ©ng ĠdÃ©Ġ
gÄĽi ĠshÃ¬ĠzhÅįngĠ
zÅ«n ĠzhÃ²ngĠ
na tion
chÃ©ngĠ dÃ¹Ġ
xiÃłĠ tiÄģnĠ
ĠtÃ³ng ĠyuÃ¨Ġ
chÃ³ngĠ zÇĶĠ
ĠshÃ¬ĠshÃ¬Ġ jiÃ¨Ġ
ĠĠĠE x
9 ĠgÃ¨Ġ
Ġ bÃ¬
Ġ 1995
yÅįng ĠzhÃ¨ngĠ
as Ġ
duÃ² Ġ
zhÃ¬Ġ zÃłoĠ
ĠyÃºĠ 2009
ĠrÃ©nĠ bÃ¹Ġ
sÄ«Ġ tÃ¨Ġ
ĠdÃłĠ gÃ©ĠmÃ¬ngĠ
shÃłngĠ shÄĵngĠ
ĠzhÄ«Ġ qiÃºĠduÃ¬Ġ
pÃŃngĠ gÅ«Ġ
xiÄģngĠ xÃ¬n
jiÄĵĠ tÃ¬
hÇİiĠ xiÃ¡
dÃ¡Ġ nÃŃ
ĠduÅįĠ shÃ¹Ġ
yÇĲĠ qiÃ¡nĠ
jÇĲĠ zhuÄ«
fÄģĠdiÃłnĠ chÇİngĠ
beg inĠ
4 000
M S
ĠĠĠ 1ĠyuÃ¨Ġ
zhÃ¹ ĠshÃ¬Ġ
shÇĴu ĠÄĽrĠ
duÅį ĠlÃ¬ĠyÃł
lÃº ĠxÃŃngĠmÃ¹Ġ
55 ĠniÃ¡nĠ
ĠshÃŃĠ huÃ¬Ġ
ĠyÃºĠ 2010
yuÃ¡nĠ yÄ«nĠ
xÄ«nĠ zÄĵngĠ
kÄģiĠ bÃłnĠ
mÃŃnĠ zhÃ¨ngĠ
bÄĽnĠ shÄĵn
kÇĴuĠ hÃłoĠ
ĠjÃ¹Ġ chÇİngĠ
zÃºĠ gÃ²uĠ
ĠdeĠyÄ«Ġ xiÄĵ
ĠdeĠchÃ©ngĠ gÅįngĠ
duÃ³Ġ qÇĶĠ
Ġ nÃ¬
ĠĠĠ gÃ¨
ĠĠĠ cÃ³ng
ĠĠĠ lÃ¬ng
ĠĠĠ 2003
ĠĠĠ xÃŃngĠ
yÃ¹ ĠshÃ¬Ġ
fÇİ ĠzhÃ¬Ġ
lÃŃn ĠjÃ¬n
kÇİ ĠdeĠ
zhÅ« ĠduÅįĠ
wÄĵn ĠquÃ¡nĠ
63 ĠniÃ¡nĠ
yÄ«Ġ mÃŃngĠ
jiÄģĠ zÃºĠ
ĠsÄ«Ġ xiÇİng
xÄ«nĠ zÄĵng
xiÄģngĠ hÃ¹
nÃ¡nĠ zhÇĶĠjuÃ©Ġ
ĠdÃ©Ġ lÃ¡nĠ
jiÃ¨Ġ sÃłiĠshÃ¬Ġ
mÃ¬Ġ qiÃ¨Ġ
ĠbÃ¹ĠtÃ³ng ĠyÃºĠ
bÄģĠshÃ¬Ġ lÃ¹ĠxiÃłnĠ
ĠgÄĵĠ lÃºnĠ
ĠĠĠgÃłiĠ shÃ¹Ġ
ĠshÃ¬ĠwÄĵiĠ zhÄĽĠ
Ġ zÃłi
Ġ zhÄģ
Ġ ruÇİnĠ
Ġ 1956ĠniÃ¡nĠ
zÇĴng ĠshÃ¬Ġ
58 ĠniÃ¡nĠ
ĠdeĠ shuÅįĠfÇİĠ
ĠdÃ¬Ġ liÃ¹
ĠrÃ¬ ĠyuÃ¡nĠ
ĠyuÃ¡nĠ sÃ¹
ĠrÃ¬Ġ ÄĽrĠ
ĠjiÄģĠ shÃłng
ĠmÃŃngĠ lÃ¹Ġ
ĠdÃ©Ġ fÄĵnĠ
yÃ¹Ġ gÃłoĠ
mÃ¹Ġ dÃ¬ĠshÃ¬Ġ
juÃ©Ġ sÃłiĠdeĠ
kÄĽĠ qiÃ¡nĠwÇİngĠ
ĠjÃ¹Ġ bÃ¨iĠ
kÄĽnĠ tÇİĠjÄ«Ġ
ĠK Ġ
ĠdÃłĠshÇĲĠ guÇİnĠ
ĠyÃ²ng ĠyÇĲĠ
3 ĠhÃłoĠ
Ġ mÃ¨ng
Ġ Lo
Ġ 700
Ġ yuÃ¡nĠwÃ¨iĠ
Ġ 1979ĠniÃ¡nĠ
ĠĠĠ jÄ«ngĠ
le ĠyÇĲĠ
yÃ¹ ĠwÃ¨iĠ
dÃłi ĠÄĽrĠ
tÃ³ng ĠbÃ¹Ġ
zhÃŃ ĠrÃ©nĠyuÃ¡nĠ
tÃ¨ ĠyÇĶĠ
shÃ©n ĠfÃ¹Ġ
huÃ¡n ĠqiÃºĠ
lÃ¨ ĠbÇĲĠ
nÃŃng ĠxiÃłĠ
ĠyÄ«Ġ xÃ¬ĠliÃ¨Ġ
ĠdÃłoĠ lÃ¹
xiÄģnĠ qiÃ¡nĠ
tuÄ«Ġ cÃ¨Ġ
ĠzhÃŃĠ wÃ¹Ġ
guÇİngĠbÅįĠ diÃłnĠtÃ¡iĠ
ĠsectionĠĠĠ beginĠ
Ġ 98
Ġ tuÃ¡nĠ
liÃ¡n ĠxiÃłnĠ
lÃŃn ĠjÃ¬nĠdeĠ
guÇİn ĠdÃłoĠ
tuÅį ĠkÃ¨Ġ
ĠniÃ¡nĠ lÃŃng
ĠwÃ¨iĠ bÃ¹Ġ
ĠbÃ¹Ġ dÃłĠ
ĠyÇĴuĠ hÇİoĠ
jÃ¬Ġ suÃłnĠ
ĠhÃ²uĠ fÄģngĠ
ĠjÄ«Ġ zhÃ²ngĠ
fÃ¹Ġ gÃłiĠ
jiÃłoĠ shÇİoĠ
suÇĴĠ zÃłiĠdeĠ
jiÄĵĠ tÃ³uĠ
ĠhuÃ²Ġ yÃ¹nĠ
shÃ©nĠ mÃ¬Ġ
kÇİĠ sÄ«ĠdÃ¬ĠlÃ¬Ġ
biÄģoĠ tÃŃĠ
kÄģiĠshÇĲĠ leĠ
ĠshÃ¹Ġ jÃ¹Ġ
mÃłoĠ xiÇİn
ĠduÅį ĠmÃŃngĠ
hÃ¹nĠ xi
sÄģnĠjiÇİo ĠxÃŃngĠ
ĠĠĠ Vi
ĠĠĠ ÄģnĠ
fÇİ ĠrÃ©nĠ
wÃ©n ĠdÃ¬Ġ
zuÃ¬ ĠjÃ¬nĠdeĠ
wÇĶ ĠdÃłĠ
chuÃłng ĠyÃ¬Ġ
37 Ġ
ĠdeĠ guÄģnĠxÃ¬Ġ
ĠbÃ¹Ġ luÃ²
ĠchÃ©ngĠ zhÃ¨n
ĠqiÃº ĠjÃ¬Ġ
ĠĠĠbÄĽnĠ shÇĶĠ
ĠdeĠzhÇĶĠ tÃŃĠ
fÃ¹ĠzÃ© ĠrÃ©nĠ
ĠĠĠqÃŃ ĠhÃ²uĠ
ĠdÃłiĠmÇİĠwÃ¨iĠ 0
n ÇİĠ
Ġ 57
Ġ Ra
Ġ 1955ĠniÃ¡nĠ
shÇĴu ĠshÃ¬Ġ
liÃº ĠyÃ¬Ġ
jiÃ¹ ĠrÃ¨nĠ
shÃ©n ĠxuÃ©Ġ
kÃłn ĠdÃło
zÇİi ĠxiÃłngĠ
ĠzÃłiĠ jÃŃĠ
ĠyÄ«Ġ duÃ¬Ġ
ĠjiÃłn ĠjiÃłnĠ
jÃ¹Ġ tÇĲĠ
ĠyÄ«n ĠhÃ©Ġ
tÃ¨Ġ shÅ«ĠdeĠ
mÃ¹Ġ shÄ«Ġ
zhÃ¨ngĠshÃ¬Ġ chÃ©ngĠlÃ¬Ġ
bÇİoĠhÃ¹Ġ qÅ«Ġ
ĠdeĠjÄ«Ġ bÄĽnĠ
xÃºnĠhuÃŃĠ yÇİnĠchÃłngĠhuÃ¬Ġ
jiÄĵĠxiÃłĠ lÃ¡iĠdeĠ
Ġ shÃłn
Ġ fÃ¡nĠ
Ġ 1981ĠniÃ¡nĠ
zhÃŃ ĠyÃºĠ
qÃ¬ ĠzhÅįngĠ
ĠyÃ¬Ġ chÃ©ngĠ
ĠrÃ¨nĠ qÄ«Ġ
shÄģnĠ dÇĲngĠ
lÃŃnĠ chuÃ¡ng
ĠhuÃ²Ġ shÃ¨ngĠ
dÇİĠ pÃ²Ġ
ĠhÃ²uĠlÃ¡i ĠbÃ¨iĠ
mÃŃĠnÇĲĠ zhuÄģnĠjÃŃĠ
Ġ zÃ¨ng
Ġ kÃłnĠ
Ġ sÄģnĠniÃ¡nĠ
le rĠ
dÃ¹ ĠshÃ¬Ġ
jiÄģng ĠbÃ¨iĠ
yÃ¨ ĠzhÅįngĠ
bÄģ ĠkÃ¨Ġ
liÃ¨ ĠjiÃłnĠ
bÃłn ĠbÃ¹Ġ
hÃº ĠdeĠ
ĠbÃ¹Ġ bÄ«ng
ĠyÄ«Ġ gÃ²ngĠ
ĠjÃ¬Ġ sÃ¬Ġ
shÇĴuĠ dÃ¹Ġ
fÃºĠ lÇİng
kÇĴuĠ jÃ¬ngĠ
jiÄģoĠ diÇİnĠ
cÃ¨Ġ huÃłĠ
jiÇĶĠ bÄģĠ
dÅįngĠnÃ¡nĠ yÃłĠ
s k
Ġ 1989
Ġ ÄĵnĠ
Ġ qiÄģngĠ
shÃł Ġ
lÄģ ĠkÃ¨
dÇİo ĠxiÃłnĠ
shÃ©n ĠqÃŃĠ
15 00
cÃºn ĠyÃºĠ
guÃłn ĠmÃ¹Ġ
kÇĴng ĠjÃ¹Ġ
ĠhÃ©Ġ rÃ©nĠ
ĠyÃ¬Ġ zuÃ²Ġ
fÄĵnĠ zÇĶĠ
yÃłĠ tÃ¨Ġ
shÃ²uĠ mÃ¬ngĠ
ĠyÇĴuĠyÄ«Ġ xiÄĵ
ĠfÄģĠ biÇİoĠ
nÃ¡ĠpÃ²Ġ lÃºnĠ
B L
Ġ qÃŃngĠ
cÃ¬ ĠquÃ¡nĠguÃ³Ġ
xÃŃ ĠjÃ¬nĠpÃŃngĠ
guÃ¬ ĠdeĠ
52 ĠniÃ¡nĠ
duÄ« Ġ
ĠbÃ¹Ġ gÅįngĠ
yÄ«Ġ xiÄĵ
ĠguÃ³Ġ jÃ¬
ĠdÃłoĠ dÃ©Ġ
ĠxÃŃngĠ wÃ©i
ĠjiÄģĠ lÄģĠ
yÃ¡nĠ sÃ¨
ĠÃ©rĠ fÄĵi
ĠjÅ«nĠ zhÇİngĠ
xÃ¬ngĠ cÃºnĠ
chÇİngĠ jÇĲng
chÃ¡ngĠ shÄģĠ
ĠxÄ«nĠ jiÄģngĠ
chuÃ¡nĠ jiÃłoĠshÃ¬Ġ
xÄ«ngĠ qÇĲĠ
kÄģnĠ wÃ¹Ġ
ĠjiÃ© ĠhÃ©Ġ
tiÄĽĠlÃ¹ ĠgÅįngĠsÄ«Ġ
sÄ«ĠdÃ¬Ġ ÄģnĠ
ĠdÃłĠduÅįĠ shÃ¹
Ġ 1946
yÇĴu ĠbÃ¹ĠtÃ³ngĠ
yÃ³u ĠdeĠ
lÃ¡n ĠdÃ©Ġ
yÃŃng ĠdÃ¬Ġ
zhuÃłn ĠjÃ¬Ġ
ĠrÃ©nĠ jÃŃĠ
ĠchÃ©ngĠ guÇĴĠ
mÃŃngĠ xiÇİnĠ
shÄĵngĠ zhÇİngĠ
ĠshÃ¨Ġ bÃ¨i
luÃ²Ġ shÄģnĠ
ĠzhÃ¨ ĠlÇĲĠ
dÇİoĠzhÃ¬Ġ leĠ
ĠzhÇĲĠ nÃ©ngĠ
liÃ¡nĠxÃ¹ ĠjÃ¹Ġ
B DĠ
E E
Ġ 1985
Ġ chÃ¨ĠxiÄģoĠ
nÃ¨i ĠhÃ©Ġ
tÃ¡i ĠjÃŃĠ
biÃłn ĠlÃ¬Ġ
shuÇĲ ĠyuÃ¡nĠ
on ly
kÃ¹ ĠdeĠ
yÃłng ĠbÄĽnĠ
ĠyÃºĠ 17
guÄ«Ġ gÃ©Ġ
cÃŃĠ shÃłn
dÃºĠ tÃ¨Ġ
ĠdÄģngĠ jÃºĠ
yÃ©Ġ fÅ«Ġ
A D
Ġ zi
Ġ Te
Ġ 1948ĠniÃ¡nĠ
tÃ³ng ĠzhÃ¬Ġ
kÄĽ ĠyÃ³uĠ
cÃ¹ Ġ
ĠzÃłiĠ yÃŃĠgÃ¨Ġ
yÃ³uĠ lÃ¡iĠ
shÃ¹Ġ zhÃŃĠ
jiÄĵĠ tÃ¬Ġ
chÃ¡ngĠ zhÃ¹
bÇİoĠ yÃ¹Ġ
yÃŃĠ jÅ«Ġ
nÃŃĠ gÇĶĠlÄģĠ
zÄ«Ġ jÄ«n
ĠxiÄģngĠ fÇİnĠ
wÇİngĠ mÃŃnĠ
jÇĲngĠ bÃłoĠ
chÇĶĠ lÇĲ
Ã©rĠ zi
ĠtÃ¡iĠ bÄĽi
ĠÃ¨r ĠyuÃ¨Ġ
mÄĽiĠshÃ¹Ġ guÇİnĠ
zhuÄ«ĠsÃ¹ ĠzhÃ¬Ġ
ĠsectionĠĠĠ endĠ
hÃłnĠlÃŃnĠ yuÃłnĠ
c ÄģĠ
Ġ gÃłi
ĠĠĠ zhÃ¹ĠzuÃ²Ġ
sÄ« ĠjÃŃĠ
dÃ© ĠkÃ¨ĠsÃłĠsÄ«Ġ
hÇİi ĠjÅ«nĠdeĠ
dÇİo ĠdÃłn
huÃ¡ng ĠhÃ©Ġ
mÃ¬ ĠxÄ«ĠxÄ«Ġ
ĠlÃ¬Ġ jÄ«ngĠ
ĠdÃłĠ liÃłngĠdeĠ
ĠjÅ«n ĠgÅįngĠ
ĠwÃ©iĠ yÄ«ĠdeĠ
bÇİoĠ xiÇİn
cÃ¬Ġ ziĠ
sÃ¬Ġ yuÃłnĠ
jiÇİnĠ pÇĶĠ
cÄģnĠ kÇİo
ĠhuÃ²ĠdÃ© ĠyÄ«ĠmÃ©iĠ
mÃ¨ngĠjiÄģĠ lÄģ
Ġ kÇİo
ĠĠĠ dÃłiĠ
shÃłng ĠyÇĶĠ
pÃŃng ĠjÃŃĠ
guÃ² ĠshÃ¬Ġ
liÃº ĠxÃŃngĠdeĠ
chuÄģn ĠzhÃ¹Ġ
te l
59 ĠniÃ¡nĠ
mÄģ ĠzÇĶĠ
ĠyÃ¬Ġ tÃŃĠ
ĠyÇĲ ĠgÅįngĠ
ĠxÃŃngĠ zÇĴuĠ
ĠtÄģĠ yÄĽĠshÃ¬Ġ
ĠchÅ«Ġ shÄĵngĠzÃłiĠ
lÃ¹Ġ kÇĴuĠ
ĠjÅ«nĠ tuÃ¡n
zÃ©Ġ rÃ¨n
quÃ¨Ġ bÇİo
gÇİnĠ qÃŃngĠ
ĠzhÇĲĠ yÃłoĠ
ĠjiÄģng ĠjÅ«nĠ
ĠbÇİoĠ luÃ³Ġ
ĠqÇĲĠ yÃ¨Ġ
biÃłnĠchÃ©ngĠ leĠ
gÃłoĠshÃ¬Ġ pÃ¡iĠ
3 ĠgÅįngĠlÇĲĠ
Ġ bÃ³ĠshÃ¬Ġ
ĠĠĠ jiÄģngĠ
bÃ¨i ĠrÃ©nĠ
yÄĽ ĠshÄĵngĠ
sÃłi ĠshÃ¬ĠzhÅįngĠ
kÄĵ ĠjÃ¬nĠshÃ¬Ġ
zhuÄģng ĠyÇĴuĠ
jiÃł ĠrÃ¬Ġ
ruÃ¬ ĠkÃ¨Ġ
qÃº Ġ
ĠdeĠ Ã©rĠziĠ
ĠbÃ¹Ġ zÃº
ĠshÃŃĠ qÄ«ĠniÃ¡nĠ
sÄ«Ġ fÇİĠ
duÃ¬Ġ kÃłngĠ
ĠjiÃłnĠ zhÃ¨ngĠ
qÃ¬Ġ guÄģnĠ
ĠxiÃłĠ xiÃ¡Ġ
jÇĲngĠ bÃło
qiÄģnĠ wÇİngĠ
cÇİiĠ fÇİngĠ
dÃŃĠ yÃłĠ
xiÃ¡Ġ zhÇİi
suÃŃĠ zhe
Ã¨Ġ tÃºĠ
shÄĽnĠ yÃ¡ngĠ
mÃ¨iĠ mÃ¨i
Ġ zÅįngĠjiÃłoĠ
ĠĠĠ yÄ«ngĠ
ĠĠĠ ÃłiĠ
qiÃ¡n ĠyÄ«Ġ
zhÃ²ng ĠyÃ¬ĠyuÃ¡nĠ
yuÄĵ ĠkÃ¨Ġ
nÇļ ĠshÃ¬Ġ
mÇĶ ĠshÃ¬Ġ
gÇİn ĠdeĠ
II IĠ
shÃŃĠ dÃłiĠ
ĠbÃ¹Ġ yÇĶĠ
xÄ«Ġ fÄģngĠ
ĠjÄ«Ġ qÃ¬Ġ
kÄģiĠ qÇĲĠ
fÄģĠ yÃ¡nĠ
ĠzhÅįuĠ biÄģn
ĠshÃ¨Ġ dÃ¬ngĠ
zhÄĵngĠ qÇĶ
zhuÄģnĠ kÄĵĠxuÃ©Ġ
ĠrÃ©nĠkÇĴuĠ pÇĶĠchÃ¡Ġ
pÃłiĠ qiÇİnĠ
ĠxÃ¬ngĠ biÃ©Ġ
zhÃłnĠzhÄĵng ĠzhÅįngĠ
mÃ¡oĠzÃ©Ġ dÅįng
ĠjiÄĵĠwÃ¨iĠ lÃ¹ĠdÃ¬Ġ
Ġ zhÇİng
Ġ 1947ĠniÃ¡nĠ
ĠĠĠ zhÃłnĠhÃ²uĠ
yÇĴu ĠshÃ¬Ġ
xiÃłn ĠzÃłiĠ
lÃŃn ĠshÃ¬Ġ
yÃ¡ng ĠjÄ«Ġ
mÇĶ ĠyÇĶĠ
na Ġ
ĠzÃłiĠ tÃ¡iĠwÄģnĠ
zhÃ¬Ġ liÃ¡oĠ
xiÃłngĠ liÃłngĠ
jiÃ©Ġ hÅ«n
ĠtÃ³ng ĠniÃ¡nĠ9ĠyuÃ¨Ġ
tÃºĠ jÄ«ngĠ
zhÄĵngĠ qÃ¬Ġ
cÃ¡iĠ dÃ¬ngĠ
ĠliÇİng ĠguÃ³Ġ
ĠÃło ĠdÃ¬ĠlÃ¬Ġ
ĠzÃłiĠzhÅįngĠguÃ³Ġ dÃłĠlÃ¹Ġ
ĠkÄĵ ĠÄĽrĠ
wÃ¡ngĠchÃ¡o ĠdeĠ
Ġ hÅ«Ġ
Ġ kÄĽĠnÃ©ngĠshÃ¬Ġ
Ġ 1937ĠniÃ¡nĠ
yuÃ¨ ĠĠĠ
dÄģng ĠdÃłiĠ
zhÇĴng ĠjiÄģĠ
qiÄģn ĠshÃ¬Ġ
dÇİ ĠjÃ¬nĠ
bÄĵi ĠdeĠ
ĠwÃ¨iĠ gÄģiĠ
ĠshÃŃĠ shÃŃĠ
ĠyuÃ¨Ġ qÃ¬Ġ
ĠyÄ«Ġ lÇİngĠ
mÃŃngĠ chÄĵng
ĠtÄģĠ cÃ³ngĠ
ĠduÃ¬Ġ yÃ¬ngĠ
ĠjÃ¹Ġ fÄĵngĠ
yÇİnĠ huÃł
ĠwÃłnĠ mÄĽiĠyuÃ¡nĠdeĠ
zÃºĠqiÃºĠ liÃ¡nĠsÃłiĠ
ĠzÃłiĠcÇĲĠ qÄ«ĠjiÄģnĠ
yÃ³uĠxÃ¬ ĠzhÅįngĠ
lÇĲĠgÅįngĠ dÃłĠxuÃ©Ġ
ĠshÃ¬ĠshÃ¬ĠjiÃ¨ ĠshÃłngĠ
o ng
Ġ rÃ¹
Ġ tÃ¡o
Ġ 88
lÃ¡i ĠdÃ©Ġ
10 ĠgÃ¨Ġ
hÃ³ng ĠshÃŃĠzÃ¬Ġ
rÃ©ng ĠshÃ¬Ġ
wÃ² ĠsÄ«Ġ
2026 ĠniÃ¡nĠ
ĠdeĠ wÃ¨nĠtÃŃĠ
ĠwÃ¨iĠ rÃ¨ĠdÃłiĠ
duÃ¬Ġ fÄģngĠ
ĠwÃ©iĠ kÃ¨Ġ
yuÃłnĠ xiÃłoĠ
ĠrÃ¡n ĠÃ©rĠzÃłiĠ
huÃ¡Ġ xuÄĽĠ
dÃºĠ shÅ«Ġ
suÃŃĠ zhÃ¹
tÃ³uĠrÃ¹Ġ shÇĲĠyÃ²ngĠ
inc lu
p Äĵi
Ġ yÃł
ĠĠĠ 2002ĠniÃ¡nĠ
yÇĴu ĠbÃ¹ĠtÃ³ngĠdeĠ
duÃ¬ ĠchÃ©ngĠyuÃ¡nĠ
tÃłi ĠjÃŃĠ
tÃłi ĠÄĽrĠ
shÃ¹n ĠtiÄģnĠ
dÃ¬Ġ sÄģnĠ
chÃ©ngĠ zhÃ¨nĠ
ĠyÄ«Ġ xuÃ©ĠyuÃłnĠ
ĠdÃłĠ yÇĶĠ
ĠjÄ«Ġ qÃ¬ĠrÃ©nĠ
fÃ¹Ġ zÃ¡Ġ
ĠzhÃ¨ngĠ dÇİngĠ
ĠtÃ³ng ĠniÃ¡nĠ11ĠyuÃ¨Ġ
zÄ«Ġ biÃ©
lÇľĠ shÄ«
zÃºĠ gÃ²uĠdeĠ
yÇĲnĠ qÃŃng
ĠjiÃ©Ġ shÃ¹
ĠguÃ²Ġ chÃ©ngĠzhÅįngĠ
ĠmÇİĠ dÄ«ngĠ
gÄģngĠ qÃŃn
ĠĠĠlÃ¬ĠshÇĲĠ yÃ¡nĠgÃ©Ġ
fÄģĠshÄĵngĠ hÃ²uĠ
ĠdÃ¬ĠshÃŃĠ Ã¨rĠ
yÃºnĠnÃ¡nĠ shÄĽngĠ
a ti
ĠĠĠ Z
lÇĲ ĠzÃłiĠ
gÃ¨ ĠgÃ¨Ġ
fÄģ ĠyÄ«nĠ
fÃ¹ ĠbÃ¹Ġ
yÃ¬Ġ bÄģnĠ
ĠyuÃ¨Ġ qiÃºĠ
guÄģnĠ yÄ«nĠ
jÄ«ngĠ yÄ«ngĠ
jÄ«nĠ qÇĶĠ
ĠrÃ¨nĠ zhÃ¨ngĠ
nÇļĠ gÄĵĠshÇĴuĠ
jÃºĠ miÃłnĠ
ĠshÃ¬ĠjiÃ¨ ĠgÃ¨ĠdÃ¬Ġ
pÃŃnĠ kÃ¹n
ĠfÄģĠ biÇİo
dÅįngĠjÄ«ngĠ dÅ«Ġ
liÃ¡nĠsÃłi ĠqiÃºĠduÃ¬Ġ
ĠlÃ¬ĠfÇİĠ wÄĽiĠyuÃ¡nĠ
Ġ ÅįuĠzhÅįu
yÃ¹ ĠyÇĴuĠ
shÇĲ ĠsÄ«Ġ
xiÄģng ĠdÃłoĠ
xiÃłng ĠtÄģĠ
huÃŃ ĠfÃ¹Ġ
lÃºn ĠlÇĲĠ
st ri
SA Ġ
ted ĠĠĠ
ĠrÃ©nĠ shÃ²uĠshÄģngĠ
dÃłĠ dÅįngĠbÃ¹ĠdÃłĠqÅ«Ġ
ĠgÅįngĠ zhÃ²ng
ĠsÄ«Ġ dÃ¹nĠ
ĠhÃ²uĠ lÃ¡iĠdeĠ
yÃ¹Ġ shÇĲĠ
ĠbÃ¬ngĠ jiÄģngĠqÃŃĠ
kÄĽĠ fÄĵnĠwÃ©iĠ
nÃ©ngĠ lÃ¬ĠdeĠ
bÄģĠ hÃ¨Ġ
xiÄģnĠ fÄģĠ
dÇİngĠ wÄĽiĠ
qiÄģnĠ rÃ¹Ġ
ĠhÃ©ĠguÃ³Ġ jiÄģĠ
ĠjiÇĶ ĠyuÃ¨Ġ
ĠniÃ¡nĠshÃ¬ĠjiÃ¨Ġ bÄĵiĠ
Ġ qiÃ³ng
Ġ gÄĵngĠ
shÃłng ĠyÇĲĠ
cÇĲ ĠyÄ«Ġ
shÄĽn ĠyÃ¬Ġ
51 ĠniÃ¡nĠ
ĠwÃ¨iĠ gÅįngĠ
ĠyuÃ¨Ġ dÃºĠ
diÃłnĠ rÃ³ngĠ
hÇİiĠ wÃłi
ĠbÄĽnĠ tÇĶ
shÇİnĠxÄ«Ġ shÄĽngĠ
jiÄģĠlÃ¬ĠfÃºĠ nÃŃĠyÃł
i c
Ġ shÄģn
Ġ xiÃ©
Ġ Ga
Ġ guÇİngĠzhÅįuĠ
Ġ 1946ĠniÃ¡nĠ
ĠĠĠ zuÃ²Ġ
huÃ¬ ĠchÃ©ngĠyuÃ¡nĠ
shÃ¨ ĠjÄ«Ġ
pÃŃng ĠxÄ«Ġ
jiÃło ĠyÃ¬Ġ
jÄ«n ĠzhÅįngĠ
ĠzÃłiĠ bÄĽiĠjÄ«ngĠ
ĠhÃ©Ġ mÇİĠ
jÃ¬Ġ hÃ²uĠ
ĠyÇĶĠ lÇĲĠ
dÃłiĠ lÃ¡iĠdeĠ
diÃłnĠ lÃ¹Ġ
biÄģnĠ fÃºĠ
ĠzuÃ¬Ġ hÃ²u
sÄģiĠ bÃłi
shÄĽnĠ pÃłn
niÇĶĠyuÄĵ ĠshÃ¬Ġ
kÄĵĠjÃ¬Ġ dÃłĠxuÃ©Ġ
c huÃ²
Ġ shuÅį
Ġ Ri
jÃ¹ ĠrÃ©nĠ
fÇİ ĠhÃ©Ġ
fÃº ĠkÃ¨Ġ
ku ÄģĠ
re e
ĠshÃŃĠ zÃ¬
chÃ©ngĠ rÃ¨nĠ
ĠzhÄ«Ġ nÇļĠ
jÄ«ngĠ fÃ¨iĠ
lÃ¡iĠ wÇİngĠ
ĠbÃ¬ngĠ xiÃłngĠ
ĠkÃ¨Ġ lÇĶĠ
ĠshÃłngĠ shÄĵngĠ
fÃłnĠ diÃłnĠ
ĠrÃºĠ jÄ«nĠ
rÃ¨Ġ mÃ©nĠ
ĠshÃ¬ĠyÄ«ĠkÄĵĠ hÃ©ngĠxÄ«ngĠ
mÃ³ĠtÃ¨ ĠÃ©rĠ
G oog
Ġ qiÃ¡o
ĠĠĠ duÅįĠ
huÃł ĠxiÃłnĠ
dÃ¡ ĠhÃ©Ġ
rÃłng ĠrÃ©nĠ
fÇİng ĠzhÄ«Ġ
lÃ¬Ġ ziĠ
ĠdÃ¬Ġ 1
ĠzhÄ« ĠyÃºĠ
zhÇĶĠ guÇİnĠ
ĠshÄĵngĠ chÄĵng
qÇĲĠ fÄģĠ
ĠqÃŃĠzhÅįngĠ bÄģoĠkuÃ²
hÃ¡nĠ gÃłiĠ
bÇĶĠ rÇĶ
ĠbÅįĠ luÃ³Ġ
ĠĠĠ Le
ĠĠĠ qÃ¬ĠhÃ²uĠ
hÃ© n
nÃ¡n ĠzhÃ¬Ġ
dÅįu ĠyÇĲĠ
shÄģ ĠleĠ
ĠdeĠ shÃ¨ĠjÃ¬Ġ
ĠshÃ¬Ġ jiÄģngĠ
ĠgÅįngĠ guÃ³Ġ
wÃ©nĠ bÄĽnĠ
biÃłnĠ gÄĵng
gÃ²uĠ wÃ¹Ġ
ĠfÃº ĠlÇĲĠ
ĠdÃ¬ĠÃ¨r ĠgÃ¨Ġ
ĠyÃłĠ mÄĽiĠ
ĠĠĠin ĠĠĠ
chuÃłngĠbÃłn ĠrÃ©nĠ
Ġ yÇĲngĠ
Ġ wÃłngĠ
Ġ biÄģoĠzhÇĶnĠ
Ġ zhÄĵngĠyuÃ¨Ġ
lÇĲ ĠyÇĴuĠ
zuÃ² ĠhÃ©Ġ
bÃ¨i ĠbÃ¹Ġ
dÅįu ĠyÃ¹ĠshÇĲĠ
zÃłn ĠchÃ©ngĠ
54 ĠniÃ¡nĠ
ĠdÃ¬Ġ chÇĶĠ
ĠxiÃłn ĠlÃ¬Ġ
ĠdÃłn ĠzhÃ¨Ġ
bÇĲĠ cÇĲĠ
ĠdÃłiĠ lÇĲngĠ
zhÄĵngĠ duÃ³
pÃ¡iĠ hÃ¡ng
tiÃ¡nĠ xÃ¬nĠ
sÃłĠ zhÅ«Ġ
ĠjiÄĵĠ zhÃ¹Ġ
jiÃłnĠzhÃ¹Ġ wÃ¹Ġ
mÃ¹ĠnÃŃĠ hÄĵiĠ
ĠqÄ«ĠxÄ«Ġ shÄĵnĠdÃ¹Ġ
T A
Ġ xiÄģo
Ġ zhÇĶnĠbÃ¨iĠ
jiÄģ ĠshÃŃĠ
jÅ«n ĠrÃ©nĠ
jÃ¬n ĠchÃ©ngĠ
shÄ« ĠlÃ¬Ġ
huÃ¡ ĠyÇĶĠ
diÇİn ĠwÃ¨iĠyÃºĠ
zÄ« ĠdeĠ
lÇĶ ĠjÃŃĠ
ĠrÃ©nĠ shÃ¹
ĠdÃłoĠ guÄģngĠ
dÃ²ngĠ wÃ¹ĠdeĠ
dÅįngĠ bÃ¹ĠdeĠ
gÄģoĠ fÄĵngĠ
juÃ©Ġ cÃ¨Ġ
lÃŃnĠ nÃłĠ
xuÇİnĠ piÃłoĠ
ĠxiÃłngĠ zhÄĵngĠ
ĠdeĠyÄ«Ġ zhÇĴng
shÄĽnĠ chÃ¡
miÃ¡oĠshÃ¹Ġ leĠ
ĠfÄĵi ĠlÃ¬Ġ
ĠliÃ¹ ĠyuÃ¨Ġ
Ġ yuÃłnĠ
Ġ biÃ©Ġ
Ġ 1952ĠniÃ¡nĠ
Ãłng Ġ
Ã¡i Ġ
jÇĲ ĠnÃ¡nĠ
wÃłi ĠxÃŃngĠ
er sĠ
ke Ġ
ĠshÃ¬Ġ dÃłiĠ
ĠshÃ¬Ġ rÃ¬ĠbÄĽn
ĠjÃ¬Ġ zhÄĽĠhuÃ¬Ġ
ĠdÃ© ĠyÃ¬Ġ
jÄ«ngĠ tÇĲĠ
qÄ«Ġ kÄģnĠ
qÄ«ngĠ chÃ¡o
qÄ«ngĠ hÇİiĠ
biÄģnĠ jÃ¬ng
xiÄĵĠ gÄĵn
chÅįngĠ fÃ¨nĠ
zhÃłnĠdÃ²u ĠjÄ«Ġ
Ġ zhÃ¨n
Ġ 1988
Ġ qÃºnĠ
qÅ« ĠyÃ¬Ġ
shÃłng ĠhÃ©Ġ
shÄĽng ĠzhÃ¨ngĠ
jiÃ¹ ĠyÇĲĠ
qÄ«n ĠshÃŃĠ
bÃłi ĠdeĠ
xÄ«nĠ shÄĵngĠ
lÃ¹Ġ yÇĲngĠ
jiÃłoĠ xiÇİoĠ
ĠzhÃłnĠ lÃ¼Ã¨Ġ
fÄĵnĠ shÃ¹Ġ
liÇİngĠ cÃ¬
bÄģnĠ diÇİnĠ
shÃ©nĠ jÄ«ng
shÃ¨Ġ dÃ¬ngĠ
ĠxÃŃngĠzhÃ¨ng ĠzhÅįngĠxÄ«n
3 ĠĠĠ
I F
zuÃ² ĠyÇĴuĠ
shÇĴu ĠbÃ¨iĠ
kÄĽ ĠxÃŃngĠ
zhÇİng ĠlÇĲĠ
sÄģn ĠguÃ³Ġ
yuÃłn ĠhÃ©Ġ
bÇİo ĠshÃ¬Ġ
mÃ©ng ĠyÇĴuĠ
ro w
36 Ġ
chÃ¡i ĠyÃ³uĠ
ĠgÅįngĠ jÄ«n
ĠgÅįngĠ bÃ¹ĠdeĠ
ĠchÃ©ngĠ qiÃ¡ngĠ
ĠyuÃ¡nĠ lÃ¡iĠdeĠ
jiÄĵĠ qÅ«Ġ
jiÃłĠ shÇĲ
duÃ³Ġ guÃłnĠ
ĠgÄģiĠshÄĽngĠfÃ¨nĠwÃ¨iĠfÇİĠguÃ³Ġ bÄĽiĠbÃ¹Ġ
zhÄĽnĠ duÃłnĠ
huÃ¡ĠshÃ¨ngĠ dÃ¹nĠ
sÄģiĠÄĽrĠwÃ©iĠ yÃł
guÃ³ĠdeĠtÃ¨ĠyÇĴuĠ zhÃŃĠwÃ¹Ġ
m on
u t
y n
ĠĠĠ Ro
Ãłi ĠhÃ©Ġ
xÄ«n ĠhÃ©Ġ
17 0
yÇĴng ĠshÃ¬Ġ
zÄģo ĠdÃło
ĠyÄ«Ġ shÇĴuĠ
ĠbÃ¨iĠ pÃłnĠ
jiÃłoĠ gÄģoĠdeĠ
fÄģĠ yÃ¹Ġ
liÃ¡nĠ bÅįĠ
jiÃ¨Ġ miÃłnĠ
ĠxÄ«nĠ wÃ©n
zÃºĠ zÇĴngĠ
lÃ¹nĠ shÃ¹Ġ
shÇİoĠ liÃłngĠ
ĠbÃ¬Ġ yÃ¨ĠhÃ²uĠ
niÃ¨Ġ cÃŃ
illi am
Ġ liÇĶ
Ġ gÄĵĠqÇĶĠ
wÇĶ ĠrÃ©nĠ
gÄģi ĠdÃ¬ĠqÅ«Ġ
wÃłi ĠjÃŃĠ
dÄĵng ĠjÄ«Ġ
nuÃ² ĠbÃ¨iĠÄĽrĠ
tuÇĲ Ġ
ĠwÃ¨iĠ 2
ĠzÃłiĠ xiÃłĠ
ĠyÃ¬Ġ miÃ¡o
ĠyuÃ¡nĠ xÃŃng
ĠÃ©r ĠyÇĴuĠ
ĠzhÅįu ĠguÃ³Ġ
yÃ¡nĠ lÃ¹n
fÄĵnĠ fÄĵnĠ
xiÇİoĠ xiÃłngĠ
pÃ¡iĠ fÃłngĠ
zhuÄģnĠ zhÃ¹ĠyÃºĠ
tuÄ«Ġ fÄģnĠ
ĠzhÃŃĠ jÃ¬ngĠ
ĠsÄģn ĠguÃ³Ġ
rÇİnĠ sÃ¨Ġ
YouTube Ġ
7 ĠgÅįngĠlÇĲĠ
Ġ 1983
ĠĠĠ shÃ¨ĠhuÃ¬Ġ
xÄ«n ĠxÄ«ĠlÃ¡nĠ
Ã©r ĠchÃ©ngĠ
zhÃ²ng ĠxÃŃngĠ
tiÃ¡o ĠjiÃłn
nÃŃng ĠxiÃłnĠ
ĠdeĠ yÄ«nĠyuÃ¨Ġ
ĠzÃłiĠ kÃ¨Ġ
shÄĵngĠ xiÃłoĠ
ĠjÄ«Ġ dÃ²ngĠ
yÃ¡nĠ hÇİi
bÄĽiĠ kÇİĠluÃ³ĠlÃ¡iĠnÃł
ĠshÄĵngĠ mÃ¬ng
ĠdÃłnĠ bÃ¡i
xiÃłnĠ chÇİngĠ
ĠdÅįngĠ lÃŃn
ĠÐ ½
ĠbÄģ ĠxÄ«Ġ
diÃłnĠzÇĲ ĠyÃ³uĠxÃ¬Ġ
guÇİnĠkÃ²ng ĠzhÅįngĠfÄģĠxiÃłnĠ
ĠĠĠ 2024ĠniÃ¡nĠ
dÃło ĠdÃ©Ġ
pÃŃng ĠxÃŃngĠ
luÃ³ ĠdeĠ
mÃ©i ĠlÃ¬Ġ
fÇİn ĠgÅįngĠ
shÄģng ĠhuÃ¬Ġ
qÃŃng ĠrÃ©nĠ
ali gnĠ
ĠniÃ¡nĠ dÃ¹
dÃłĠ chÃ©nĠ
ĠjÃŃĠ zhÃ¬Ġ
ĠxÃŃng ĠzhÃ¬Ġ
ĠzhÃ¹Ġ mÃŃngĠdeĠ
jiÇİnĠ cÃ¨
xÃŃngĠ zhÃ¨ng
xÃŃngĠ dÃ²ng
suÃŃĠ zheĠ
ĠO Ġ
ĠshÄĵngĠhuÃ³ ĠzÃłiĠ
p ha
Ġ fÇĶ
Ġ lÃ¨Ġ
ĠĠĠ 2000ĠniÃ¡nĠ
li n
yÇĴu ĠbÃ¹ĠfÃ¨nĠ
xuÃ© ĠlÃ¬Ġ
xiÃłng ĠyÇĶĠ
mÃŃn ĠshÃ¬Ġ
biÃłn ĠxÃŃngĠ
guÄ« ĠdeĠ
75 Ġ
huÇİn ĠmÃłnĠ
ĠbÃ¹Ġ shÇĶĠ
ĠshÃŃĠ chÃ¡ngĠ
ĠdÃłĠ jiÄģngĠjÅ«nĠ
zÃ¬Ġ zhÇĶĠ
ĠzhÃłnĠ yÃ¬ĠzhÅįngĠ
yÃ¨Ġ wÃ¹
ĠtÃ³ng ĠbÃ¹Ġ
ĠxuÃ©Ġ shÄĵng
sÃ¨Ġ qÃŃngĠ
zhÄĵngĠ lÃ¹nĠ
xÃºnĠ luÃ³Ġ
diÃłnĠyÇĲng ĠzhÅįngĠ
ĠjÃŃĠtuÃ¡n ĠyÇĴuĠxiÃłnĠgÅįngĠsÄ«Ġ
luÃ³ĠmÇİĠ nÃŃĠyÃłĠ
bÃłnĠshÃ¬Ġ chÃ¹
ĠyÇĶĠmÃ¡o ĠqiÃºĠ
k o
ĠĠĠ huÃ²
le ĠtÄģ
ou nd
46 Ġ
zÃ©i Ġ
ĠshÃ¬Ġ xiÄģngĠgÇİng
ĠshÃ¬Ġ dÄģngĠdÃ¬Ġ
ĠzÃłiĠ bÄģĠ
ĠchÃ©ngĠ yuÃ¡nĠdeĠ
ĠdÃłĠ zÃ¬Ġ
pÃŃngĠ miÃłnĠ
zhÃ¹Ġ fÃ¡ngĠ
shÇĴuĠ fÇİĠ
liÇİngĠ cÃ¨
liÇİngĠ zhÄĽĠ
kÄĽĠyÇĲĠ yÃ²ngĠ
hÃ¡iĠ zi
zhÄĵnĠ duÃ¬
zhÄĵnĠ chÃ¡
ĠqiÃ¡nĠ wÇİng
ĠdeĠbÃ¹Ġ tÃ³ngĠ
ĠshÄĵnĠ dÃ¹Ġ
shÅįuĠlÃ¹Ġ leĠ
m b
Ġ xÇĲ
Ġ zhÃºĠ
ĠĠĠ 7Ġ
mÇİ ĠdÃ©ĠlÇĲĠ
qÇĲ ĠchÅ«Ġ
qiÄģo ĠchÅ«Ġ
ĠyÃºĠ zhÅįngĠ
ĠyÃ¬Ġ lÃ¬Ġ
ĠyÇĲĠ 3Ġ
zhÇĶĠ zhÄģng
ĠjiÃłnĠ zÃłoĠdeĠ
zhÇĲĠ lÃ¬ngĠ
ĠquÃ¡n ĠqiÃº
juÃ©Ġ xÄ«nĠ
kÄĽĠ yÃ²ngĠyÃºĠ
lÃºĠ wÇİĠ
ĠshÃ¨ĠjÃ¬Ġ shÄ«Ġ
xÇĲĠ ÃłiĠ
2010ĠniÃ¡nĠ mÄĽiĠguÃ³ĠrÃ©nĠkÇĴuĠpÇĶĠchÃ¡Ġ
ĠguÃ³ĠjiÄģ ĠjÃŃĠ
ĠwÃ¨iĠzhÅįngĠ xÄ«nĠ
zhÇĶĠtÃŃĠ qÅ«Ġ
shÄ«ĠqÃ¹ ĠleĠ
ĠmÃŃn ĠjÃŃĠ
jÇĲĠnÃ¨iĠ yÃłĠ
8 ĠgÅįngĠlÇĲĠ
p sĠ
r in
chÃ¡ ĠsÄ«Ġ
yÃ¡n ĠhÃ©Ġ
200 Ġ
zhÃ²ng ĠzhÃ¬Ġ
hÃ¹ ĠdeĠ
bÃ³ ĠkÃ¨Ġ
zhÃło ĠjÃŃĠ
xÃº Ġ
ly Ġ
ĠrÃ©nĠ lÃ¨iĠdeĠ
ĠqÃŃ ĠdÃ¬Ġ
ĠsÄ«Ġ tÇİ
ĠjÄ«Ġ qiÄģngĠ
ĠxÄ«Ġ dÃ©Ġ
ĠbÃ¬ngĠ kÄģiĠshÇĲĠ
gÇĶĠ dÃłi
ĠzhÅįngĠguÃ³Ġ guÃ³ĠjiÄģĠ
tÇİoĠ fÃ¡Ġ
ĠchÃ¡oĠ tÃŃngĠ
ĠdeĠlÃ¬Ġ shÇĲ
zhÄĽnĠ duÃłn
KB 48
B M
yÄ« ĠzÃłiĠ
shÃłng ĠzÃłiĠ
yÃ¡n ĠshÃ¬Ġ
duÅį ĠjiÄģĠ
tu di
qÄ«ng ĠxÄ«Ġ
xÃŃ ĠdeĠ
zhÄĽng ĠshÃ¹Ġ
der Ġ
pÃ³ Ġ
Uni ver
ĠshÃ¬Ġ tÃº
ĠbÃ¹Ġ yÃ¬Ġ
ĠshÃŃĠ Ã¨r
jiÄģĠ qiÃ¡ngĠ
xiÄģngĠ liÃ¡nĠ
ĠmÃŃngĠ dÄģn
kÄģiĠ bÅįĠ
zhÇĲĠ biÄģoĠ
wÃłiĠ jiÃ¨
ĠjÃ¹Ġ qÃ¬ngĠxiÃłĠ
liÃ¨Ġ biÇİo
lÃŃngĠ shÃ²uĠ
huÃ¡nĠ bÇİoĠ
guÇĲĠdÃłoĠ jiÄģoĠtÅįngĠ
xÄ«nĠlÇĲĠ xuÃ©Ġ
ĠwÃ¨iĠfÃºĠqÃŃĠyÃºĠgÄģngĠ lÃºĠxÃŃngĠmÃ¹Ġ
ĠpÃºĠtÃ¡oĠyÃ¡ ĠyÇĶĠ
Ġ xÇĶ
Ġ 68
Ġ 99
Ġ pÃłoĠ
Ġ 1970ĠniÃ¡nĠ
ĠĠĠ Mar
ĠĠĠ Te
shÇĲ ĠqÃŃĠ
yÃ¹n ĠdeĠ
sÃ¨ ĠhuÃ²Ġ
nÇļ ĠdeĠ
sÇĲ ĠdeĠ
hÃ¨ n
kÅ«n ĠchÃ³ngĠ
ĠshÃ¬Ġ hÃ¡nĠguÃ³Ġ
ĠhÃ©Ġ zhÅįngĠguÃ³Ġ
ĠbÃ¹Ġ xiÃ¡ngĠ
ĠzhÅįngĠ xuÃ©
ĠzhÃ¬Ġ piÃłnĠ
ĠyÃ¬Ġ chÃ¡ngĠ
wÃ©iĠ hÃ¹Ġ
ĠjÄ«Ġ guÄģn
pÃŃngĠ gÅ«
dÅįngĠ lÃ¹Ġ
fÄĵnĠ liÃ¨
mÄĽiĠ guÃ³ĠhÃ©Ġ
ĠnÃ¡nĠ fÄģngĠ
lÃŃngĠ mÃ¹Ġ
fÃ¨iĠ chÃº
ĠqiÃ¡nĠ lÃ³ng
ĠbÃ¬Ġ xÅ«
kÇİoĠlÇľ ĠdÃłoĠ
Ġ kÃ²ngĠzhÃ¬Ġ
ĠĠĠ 11
gÅįng ĠwÃ¨iĠ
jÃ¬n ĠdÃłiĠ
zhÃ¹ ĠgÅįngĠ
yÇĲng ĠjÃŃĠ
mÃ©n ĠshÃ¬Ġ
gÃ¹ ĠdeĠ
fÃ¡ng ĠdeĠ
ĠshÃŃĠ shÃłngĠ
ĠxÄ«Ġ lÃ¡n
ĠmÃŃngĠ chÃ¡o
jiÃłoĠ duÅįĠ
diÃłnĠ chÄĵ
fÃºĠ tÃ¨Ġ
tÇĲĠ nÃ¨iĠ
dÃ¬ngĠ lÇľĠ
zhÄģngĠ dÄģnĠqÅ«Ġ
wÄĽiĠ tuÅį
jiÃłnĠ zÃło
quÃ¡nĠ wÄĵiĠ
zhuÇİnĠ bÅįĠ
Ã©rĠ yÃ¡nĠ
leĠyÄ«Ġ xiÄĵ
dÃ²uĠ zhÄĵng
zhÅ«ĠlÃ³ngĠ cÇİo
Ġ iĠ
ĠĠĠ and
ĠĠĠ fÇİnĠ
sÄ« ĠyÃºĠ
le ĠdeĠ
xiÃł ĠxÃŃngĠ
tÃ¨ ĠzhÃ¬Ġ
jiÄĵ ĠyÇĴuĠ
tÇĲ ĠzhÅįngĠ
shÃ²u ĠleĠ
bÃłn ĠxuÃ©Ġ
pÃ² ĠleĠ
hÃ²uĠ lÃ¡i
ĠdÃłĠ mÃŃngĠ
ĠhÃ²uĠ yÄ«nĠ
jÃ¹Ġ chÇİngĠ
jiÃłoĠ xiÇİoĠdeĠ
diÃłnĠ dÃ²ngĠ
mÄĽiĠguÃ³Ġ guÃ³ĠjiÄģĠ
bÅįĠ luÃ³ĠdÃ¬Ġ
ĠzhÅįngĠguÃ³Ġ dÃłĠlÃ¹
huÃ²Ġ shÃ¨ngĠ
ĠdeĠshÃ¬Ġ lÃ¬Ġ
qÅ«ĠdeĠ yÃŃĠgÃ¨Ġ
ĠwÃłnĠ yÄ«ngĠ
ĠãĤ ĵ
huÃ¡nĠxÃŃngĠ shÄģnĠ
hÇİoĠlÃ¡iĠ wÃ¹Ġ
6 ĠmÃŃngĠ
S O
x tĠ
Ãło ĠlÃ¬Ġ
gÄģo ĠjiÄģĠ
lÄģ ĠlÃ¬Ġ
sÅ« ĠzhÅįuĠ
zÅįng ĠzuÃ²Ġ
gÃłi ĠleĠ
tÇİn ĠkÃ¨
gÃłn ĠshÃ¬Ġ
xuÃłn Ġ
ĠdeĠ wÃ¨iĠzhÃ¬Ġ
ĠxÄ«Ġ shÅįuĠ
ĠzhÄ«Ġ yÄ«ĠdeĠ
ĠbÃ¨iĠ rÃ¨nĠwÃ©i
ĠkÃ¨Ġ lÃºnĠ
yÃłĠ zhÇĴngĠ
qÃ¬Ġ xuÃ¡n
ĠzÃ¬Ġ shÄģĠ
jiÇĶĠ jÄ«ngĠ
xÃºnĠ yÇİnĠ
tiÄĽĠlÃ¹Ġ jÃºĠ
wÃ©nĠhuÃłĠ yÃŃĠchÇİnĠ
mÃŃnĠzhÇĶĠ zhÇĶĠyÃ¬Ġ
ĠqÅ«Ġ yÃ¹Ġ
wÄĵnĠ gÄĵĠ
chÃ©ngĠlÃ¬Ġ yÃºĠ
yÇĶnĠshÃŃĠ kÄĵngĠ
yÅįuĠxiÃ¹ ĠdeĠ
ĠgÄģiĠwÃ¹ĠzhÇĴngĠdeĠ mÃ³ĠshÃ¬ĠchÇİnĠ
Ġ 1954ĠniÃ¡nĠ
mÃ¹ ĠhÃ²uĠ
cÃ¬ ĠrÃ¬Ġ
dÄģn ĠrÃ©nĠ
biÃłn ĠdÃ©
guÃłn ĠjÅ«nĠdeĠ
sÄģi ĠsÄ«Ġ
21 ĠshÃ¬ĠjÃ¬Ġ
47 Ġ
ĠwÃ¨iĠ jÄ«ĠchÇĶĠ
ĠdÃ¬Ġ 4Ġ
ĠyÃ¬Ġ bÇİiĠ
guÄģnĠ bÃ¬
fÄģngĠ zhÄĵnĠ
gÃ©Ġ lÃŃ
gÃ©Ġ lÄĵiĠ
yÃ¹nĠ suÃłnĠ
ÄģnĠ fÇĶĠ
yÇĲngĠ zhÇİnĠ
shuÇĲĠ zhÇĶnĠ
cÄģnĠ mÃ³uĠ
xiÃłnĠ dÃłi
jÅ«Ġ bÇĶĠ
xÃºnĠ huÃ¡n
ĠbÅįĠ lÃ¡nĠ
ĠzhÃłnĠzhÄĵng ĠzhÅįngĠ
shÃ²uĠhuÄģnĠ yÃŃngĠdeĠ
kÃ¨ ĠdeĠ
xiÃłng ĠqÃŃĠ
sÃ¬ ĠgÃ¨
miÃ¨ ĠwÃ¡ngĠ
ine Ġ
ĠyÃºĠ 2025
shÇĲĠ guÇİnĠ
jÄ«ngĠ diÇİn
suÇĴĠ ÄĵnĠ
bÄĽiĠ lÃ¹Ġ
ĠzuÃ²Ġ leĠ
mÇİĠ chÇİngĠ
fÄĵngĠ miÃłnĠ
sÄģnĠ shÃŃĠniÃ¡nĠ
jiÃ¹Ġ kÄĽĠyÇĲĠ
shÄģĠ hÃłi
gÃ¹Ġ dÃ¬ng
ĠdÃ¬ĠÃ¨rĠ cÃ¬ĠshÃ¬ĠjiÃ¨ĠdÃłĠzhÃłnĠ
ĠĠĠbÄĽn ĠyÃºĠ
o ni
Ġ chÃ¬
Ġ 1938ĠniÃ¡nĠ
sÄ« ĠyÇĴuĠ
yÄĵ ĠsÅ«Ġ
ĠyÄ«Ġ hÃłoĠ
jÄ«Ġ hÅ«
huÃłĠ xuÃ©
ĠqÃŃĠ bÄ«ng
suÇĴĠ mÇĶĠ
shÄģnĠ chÃºĠ
sÃ¬Ġ hÅ«Ġ
qÄ«ngĠ huÃ¡ĠdÃłĠxuÃ©Ġ
yÄ«ngĠ chÄģo
ĠxiÄģngĠ xÃ¬nĠ
fÄĵiĠ jÄ«
qiÄģnĠ xÇĲ
guÄģngĠ xÃ¹
Ġ chuÃ¡n
Ġ yÇİnĠyuÃ¡nĠ
qÄ« ĠgÃ¨Ġ
fÃ¹ ĠyuÃ¡nĠ
wÃ©n ĠjÃŃĠ
jiÄĵ ĠdÃło
dÃ¡ ĠdÃłoĠleĠ
yÃłn ĠdeĠ
ĠwÃ¨iĠ qÃŃ
ĠshÃŃĠ bÄģĠniÃ¡nĠ
ĠlÃ¬Ġ ÄģnĠ
jÄ«Ġ gÃ²u
ĠdÃłĠ jÅ«nĠ
ĠyÇĶĠ qiÃ¡nĠ
ĠjÃ¬Ġ rÃ¨nĠ
fÃ¹Ġ shÇĶ
jÃ¹Ġ diÇİnĠ
zhÃ¨Ġ yÃłng
ĠfÃ¹Ġ nÇļĠ
ĠdÃłnĠ yÃłoĠ
wÄĵiĠ bÃ³Ġ
kÅįngĠ tiÃ¡oĠ
huÃ¡nĠ rÃło
ĠgÅįngĠzuÃ²Ġ zhÄĽĠ
ĠzhÇĲ ĠdeĠshÃ¬Ġ
hÇİiĠjÅ«nĠ lÃ¹ĠzhÃłnĠ
ĠwÃ¨iĠdÃ¬Ġ yÄ«Ġ
ĠzhÅįngĠshÃ¬Ġ yÇİnĠ
ĠgÃ²ng ĠjÃ¬Ġ
pÃ¡iĠhÃ¡ngĠ bÇİngĠ
ĠzhÅįngĠguÃ³ĠguÃ³ĠmÃŃnĠ dÇİngĠ
Ġ xuÃ©
Ġ gÄģn
Ġ 1976ĠniÃ¡nĠ
hÃ²u ĠjÃŃĠ
jiÄģng ĠxiÃłnĠ
cÃ³ng ĠzhÅįngĠ
xiÅ« ĠshÃ¬Ġ
jiÃłng ĠzhÃ¬Ġ
gÄĽi ĠchÅ«Ġ
to Ġ
xÅ«n ĠzhÄģng
all Ġ
ĠzhÃ¬Ġ huÃ¬Ġ
jiÄģĠ mÃ©ngĠ
zhÃ¨ngĠ wÃ¹Ġ
ĠhuÃ¬Ġ huÃłĠ
diÃłnĠ xÃ¬nĠ
mÇİĠ ÄĵnĠshÄĽngĠ
ĠshÃ¨Ġ lÃ¬ĠdeĠ
sÃłiĠ shÃ¬ĠdeĠ
bÃłoĠ dÃ²ngĠ
dÇİoĠ zhÃ¬ĠdeĠ
zÃºĠ qÃºn
dÇĲĠ kÃłng
ĠcÃ©ng ĠyÃºĠ
guÇİngĠbÅįĠ diÃłnĠshÃ¬Ġ
diÃłnĠqÃ¬Ġ huÃłĠ
Ġ guÄ«
le ĠdÃłĠliÃłngĠ
zhÇĲ ĠwÃ¨iĠ
dÄĽng ĠzhÃłnĠ
lÃºn ĠduÅįĠ
jiÄĽ ĠdeĠ
ore Ġ
ĠzhÃ¬Ġ lÇĲĠ
xÄ«nĠ zhÃº
suÇĴĠ xiÃ¡
hÇİiĠ dÇĲĠ
qÇĲĠ huÃłĠ
ĠdÃłiĠ wÃ©iĠ
wÇİngĠ fÇİnĠ
mÃ©iĠ tÇĲĠdeĠ
fÄģnĠ chuÃ¡nĠ
yÅįngĠ yÇĴuĠdeĠ
bÃ¬ĠyÃ¨Ġ shÄĵngĠ
yÇĲnĠqÇĲ ĠdeĠ
shuÃłiĠlÇĲng ĠdeĠ
C R
p or
Ġ guÄ«ĠdÃ¬ngĠ
Ġ 1975ĠniÃ¡nĠ
Ġ 1966ĠniÃ¡nĠ
zhÄ« ĠxiÃłĠ
zhÇĲ ĠdeĠshÃ¬Ġ
bÃło ĠdeĠ
huÃ¡ ĠwÃ¨iĠ
bÃ³ ĠlÃ¬ĠyÃłĠ
12 ĠgÃ¨Ġ
cÇİi ĠjÃŃĠ
zÃ²ng ĠduÃ¬Ġ
ing ĠĠĠ
ĠzhÅįngĠ jiÃ©Ġ
ĠyÄ«Ġ yÄ«Ġ
duÃ¬Ġ yÃ¬ngĠ
ĠjÅ«n ĠhÃ©Ġ
ĠxiÃłĠ jiÃłngĠ
ĠzhÃ¹Ġ zuÃ²Ġ
shuÇĲĠ kÃ¹
liÇİngĠ cÃ©ngĠ
luÃ²Ġ fÅ«Ġ
mÃ¬Ġ mÇİĠ
lÃ¬ngĠ wÃłi
jiÇİĠ zÇĶĠ
ĠniÃ¡nĠ11ĠyuÃ¨Ġ 1ĠrÃ¬Ġ
zhÃ¨ngĠfÇĶ ĠzÃłiĠ
5 ĠshÃŃĠ
Åįu ĠzhÅįuĠdeĠ
qÃŃ ĠtÄģĠdeĠ
liÃ¡n ĠsÄ«Ġ
zhÃ²ng ĠlÃ¬Ġ
hÃ¡i ĠhuÃ¬Ġ
chÃłng ĠyÃ¬Ġ
lÇİo ĠrÃ©nĠ
qiÄģng ĠjÄ«Ġ
qiÄģo Ġ
shÃŃĠ yuÃ¨Ġ
ĠrÃ©nĠ yÃ¬Ġ
ĠÃ©r ĠwÃ¨iĠ
ĠshÃłngĠ wÇĶĠ
tÃłiĠ luÃ³Ġ
kÇİoĠ rÃ¹Ġ
dÃ¹nĠ niÃ¨ĠcÃŃ
ĠÐ ¸
3 ĠlÃ¬Ġ
T T
ĠĠĠ bÃ¡iĠ
lÃ¹ ĠdÃ©Ġ
zhÃłn ĠjÃŃĠ
nÃ¡n ĠdÃłoĠ
pÇĶ ĠlÃ¬Ġ
zÅįng ĠshÃ¬Ġ
dÇĲng ĠbÃ¹Ġ
ĠzÃłiĠ dÅįngĠ
lÃ¬Ġ yÃ¬Ġ
ĠjiÄģĠ mÃ©ng
fÄģĠ dÃ¡Ġ
jÇĲnĠ cÃ¬ĠyÃºĠ
kuÃ²Ġ zhÄģng
ĠhÃ³ngĠ sÃ¨Ġ
shuÃłiĠ xiÄģnĠ
Ġ Si
Ġ Ge
ĠĠĠ v
ĠĠĠ fÄģĠxÃŃngĠ
zhÃ¨ng ĠhÃ©Ġ
zhÄģng ĠjiÄģĠ
mÃłi ĠkÃ¨ĠÄĽrĠ
lÇİo ĠhuÃ¬Ġ
pÃ©n Ġ
tÃ¹ Ġ
ĠbÃ¹Ġ xiÃłĠ
ĠdÃłĠ xuÇİnĠ
shÃłngĠ sÃ¹Ġ
nÃ¡nĠ xÃ¬ng
lÃ¹Ġ xÃ¹
ĠshÄĵngĠ yÃ¡
zÇĴngĠ jiÃłoĠqÅ«Ġ
biÄģnĠ rÃ¹Ġ
wÄĵiĠ fÅ«Ġ
cÄģnĠ yÇİnĠ
yÄĽĠ mÃ©iĠyÇĴuĠ
ĠfÄĵnĠ lÃ¡nĠ
chÇĶĠ cÃºnĠ
leĠyÄ«Ġ zhÇĴngĠ
ĠÐ µ
Ġ yÇİn
Ġ rÃ©ngĠ
Ġ 1935ĠniÃ¡nĠ
ĠĠĠ 2001ĠniÃ¡nĠ
Ãłi ĠlÃ¬ĠsÄ«Ġ
zhÅįu ĠniÃ¡nĠ
lÃŃn ĠxiÃłnĠ
wÄĵi ĠÄĽrĠsÄ«Ġ
rÃ³ng ĠyÃºĠ
xiÅ« ĠxÄ«Ġ
ĠshÃŃĠ yÃºĠ
ĠshÃŃĠ biÃ©Ġ
ĠyÃºĠ jiÄģĠ
ĠyÃºĠ 9ĠyuÃ¨Ġ
ĠrÃ©nĠ cÃ¡iĠ
ĠlÃ¬Ġ wÄĽiĠ
shÇĲĠ zhÄĽĠ
xiÃłĠ lÇİngĠdÃ©Ġ
mÃŃnĠ dÇİngĠ
ĠhuÃ² ĠÄĽrĠ
ĠdeĠdÃ¬Ġ tiÄĽĠ
mÃłnĠ huÃłĠjiÄģĠ
ĠluÃ³Ġ bÃ³Ġ
ĠdeĠrÃ©nĠ wÃ¹Ġ
ĠmÇİ ĠkÃ¨Ġ
ĠshÇĶĠ rÃ²uĠshÃŃĠxÃ¬ngĠ
ĠÄģi ĠÄĽrĠ
juÄģnĠ zÃ¨ngĠ
ĠbiÄģn ĠhÃłoĠ
shÄ«ĠfÃłn ĠdÃłĠxuÃ©Ġ
xiÄģngĠdÄģng ĠyÃºĠ
jiÄģnĠchÃ¡ ĠyÃ¹ĠshÇĲĠ
U R
Ġ huÃ³ĠdÃ²ngĠ
Ġ niÇĶĠ
Ġ 25Ġ
tÃ¡i ĠyÇĶĠ
pÇĶ ĠdeĠ
cÃ¡i ĠhuÃ¬Ġ
ĠwÃ¨iĠ xÄ«ng
ĠbÃ¹Ġ lÇİngĠ
ĠjÃŃĠ yÇĴuĠ
mÃŃngĠ chÃ¡oĠ
ĠxiÃłnĠ rÃ¨n
ĠjiÄģĠ jÃ¹Ġ
yÃ¡nĠ fÄģ
qiÃ¡nĠ lÃ³ngĠ
zhÃŃĠ wÃ¹ĠdeĠ
ĠduÃ¬Ġ kÃłngĠ
gÄģoĠ cÃ©ngĠ
ĠzhÃ¨ngĠ quÃłnĠ
zuÃ¬Ġ xÄ«nĠ
jiÄģoĠ wÇİngĠ
zÇĶĠ zhÇİngĠ
ĠzhÇĶĠ jiÃłoĠ
Ã©Ġ wÃłiĠdeĠ
lÃŃngĠ hÃºn
ĠgÄģoĠ dÄĽngĠ
ĠxiÇİoĠ shuÅį
huÃ³ĠdÃ²ng ĠzhÅįngĠ
yÄ«ĠlÃ¬Ġ nuÃ²ĠyÄ«Ġ
y Çİo
Ġ ã
Ġ 1982
Ġ 1968ĠniÃ¡nĠ
ĠĠĠ tÃ¡iĠwÄģn
ĠĠĠ miÃ¡oĠshÃ¹Ġ
zuÃ² ĠchÃ©ngĠ
pÃŃng ĠshÃ¬Ġ
bÃło ĠyÇĶĠ
zhÇİn ĠxiÃłn
zhuÄģng ĠyuÃ¡nĠ
zÇĴu ĠleĠ
bo ĠdÃ¹Ġ
nd ro
DV D
ĠhÃ©Ġ zuÃ²ĠdeĠ
ĠxiÃłn ĠyÃ¬Ġ
zuÃ²Ġ qÇĶĠjiÄģĠ
ĠqÃŃ ĠrÃ©nĠ
zhÃ¨ngĠ dÇİng
zhÃ¨ngĠ biÃłnĠ
ĠjiÄģĠ zÃºĠdeĠ
ĠtÄģĠ kÄĽĠyÇĲĠ
jÃ¹Ġ juÃ©
ĠbÃ¨iĠ jÄ«Ġ
wÃ©nĠ shÅ«Ġ
shÄ«Ġ zÅįngĠ
ĠzhÃ¨Ġ yÃ¬ĠwÃ¨iĠ
ĠxiÄģngĠ jiÃłoĠyÃºĠ
mÃ¬Ġ mÃ¬
lÃ¨iĠ ÃłnĠjiÃłnĠ
jiÃłĠ zhÃŃĠdeĠ
xiÄģnĠ qÅ«Ġ
ĠzhÃŃ ĠdÃło
ĠjiÃłnĠzhÃ¹Ġ shÄ«Ġ
ĠxÃŃngĠzhÃ¨ngĠ zhÇİngĠguÄģnĠ
ĠdeĠbÃ¹Ġ duÃ¬Ġ
zhuÃłnĠ xiÄĽ
ĠtÃ¡iĠ bÄĽiĠ
ĠhÄģ ĠlÃ¬Ġ
ĠbÃ¹ĠguÃ² ĠzÃłiĠ
wÇĴĠmen ĠdeĠ
ĠhuÃłĠxuÃ© ĠshÃ¬ĠwÃ¨iĠ
r Ã¡oĠ
Ġ jÃ¬ng
Ġ chÃ¡o
Ġ xiÃ¹Ġ
Ġ pÄģnĠ
yÃº ĠniÃ¡nĠ
fÃ¹ ĠwÃ¨iĠ
fÄģng ĠjÃ¬Ġ
tÃŃ ĠdeĠ
ĠchÃ©ngĠ shÃº
shÃłngĠ zhÃ¨nĠ
zuÃ¬Ġ zhÃ¹ĠmÃŃngĠdeĠ
shÅ«Ġ niÇĶ
nÃłĠ cuÃ¬Ġ
ĠcÇĲ ĠzhÃłnĠ
Ġ2 ĠĠĠ
ĠdeĠyÃ¬Ġ shÃ¹Ġ
niÇĶĠyuÄĵ ĠzhÅįuĠ
ĠxiÃłnĠlÃ¹Ġ kÇĴuĠ
shÃ²uĠhÃłiĠ zhÄĽĠ
D R
O V
c ÃłnĠ
p a
Ġ kÇİn
Ġ guÇĴĠ
Ġ huÄ«ĠfÃ¹Ġ
Ġ huÃ¡ngĠjiÄģĠ
ĠĠĠ xiÃłoĠ
ĠĠĠ 20ĠshÃ¬ĠjÃ¬Ġ
wÃ©i ĠjÃŃĠ
shÄĵng ĠdÃłoĠ
zuÃ¬ ĠmÃŃngĠ
yÄ«ng ĠshÃ¬Ġ
ĠyÃºĠ 2008
yÃ¡nĠ xÃ¹Ġ
jiÄĵĠ shÃłngĠ
ĠtÃ³ng ĠniÃ¡nĠ8ĠyuÃ¨Ġ
chÃ¡ngĠ chÃ¡ngĠ
ĠhuÃ²Ġ bÃ¬Ġ
biÇİoĠ miÃłn
zhÄ«Ġ hÃ²uĠdeĠ
ĠwÃłnĠ zhÄģngĠ
tuÄ«Ġ fÄģn
tiÃ¡oĠjiÃłnĠ xiÃłĠ
ĠyÃ¬ĠzhÃŃ ĠzÃłiĠ
nÃłĠcuÃ¬ ĠdÃ©ĠguÃ³Ġ
Ã©ĠhÃłiĠÃ© ĠzhÅįuĠ
Ġ huÃ¡ngĠdÃ¬Ġ
zhÃŃ ĠgÅįngĠ
zhÃŃ ĠbÃ¨iĠ
zÇĶ ĠchÃ©ngĠyuÃ¡nĠ
qÄ«ng ĠdeĠ
mÇĶ ĠhÃ©Ġ
chÇĶ ĠguÃ³Ġ
zhÅįngĠ xuÃ©Ġ
ĠrÃ©nĠ sÇĲĠwÃ¡ngĠ
jÄ«nĠ tiÄģnĠ
jiÃ¨Ġ rÃ¹Ġ
gÇĶĠ bÄģĠ
ĠbÄĽnĠ shÄĵnĠ
huÃŃĠ lÃ¡iĠ
fÃ¨iĠ qÃ¬Ġ
Ġ1 ĠĠĠ
ĠĠĠtÄģ ĠzÃłiĠ
lÇľĠwÃ¨iĠ 0
I M
Ġ mĠ
ĠĠĠ xiÄģngĠguÄģnĠ
fÃ¹ ĠyÃ¬Ġ
bÄĽn ĠshÃ¬Ġ
lÃ³ng ĠshÃ¬Ġ
zhÄģo ĠhÃ©Ġ
kÃło ĠjÃ¬n
44 Ġ
43 Ġ
41 Ġ
ed Ġ
rÃ©nĠ lÃ¨i
ĠbÃ¹Ġ lÇİng
chÃ©ngĠ lÃ¬ĠdeĠ
jÃ¬Ġ lÃ¹
xÄ«Ġ lÇĲĠ
rÃ¨nĠ jiÃłoĠ
mÃ¹Ġ hÇİnĠmÃ²ĠdÃ©Ġ
nÃ¨iĠ bÃ¹ĠdeĠ
ĠyÄ«nĠ sÃ¹
bÄģĠ dÃ¡Ġ
zÇĴngĠ tÇĲĠ
ĠlÃ¹Ġ yÄ«nĠshÃ¬Ġ
sÄģiĠ Ã©Ġ
gÄĵngĠ gÇİiĠ
Ġ xuÄĽĠ
Ã© ĠjÅ«nĠ
ĠĠĠ yÃ¡ngĠ
yÇĶ ĠĠĠ
qÄ« ĠmÃŃngĠ
zhÃłn ĠlÃ¬Ġ
xÃ¬ng ĠdÃ¬Ġ
xiÃło ĠzhÅįngĠ
pÃ¡i ĠqiÃºĠ
miÃło ĠdeĠ
rÃ©nĠ lÃ¨iĠ
ĠbÃ¹Ġ shÃ²uĠ
ĠchÃ©ngĠ dÃ¹ĠdeĠ
ĠxiÃłnĠ dÃ¬ngĠ
ĠbÃ¨iĠ xuÇİnĠwÃ¨iĠ
zuÃ¬Ġ duÅį
ĠzhÃ¨Ġ yÄĽĠ
xÃºnĠ hÃ¡ngĠ
lÃºĠ sÄĵnĠ
ĠchÃ©ngĠyuÃ¡nĠ guÃ³Ġ
jÄ«ngĠlÃ¬Ġ leĠ
E S
Ġ Sh
Ġ gÄĵngĠmÃŃngĠwÃ¨iĠ
Ġ 1964ĠniÃ¡nĠ
xÃ¹n ĠdeĠ
quÄĵ ĠxiÃłnĠ
int Ġ
ĠbÃ¹Ġ bÃ¨iĠ
jiÄģĠ tÃŃng
ĠyÇĶĠ zhÄ«
ĠxÄ«Ġ lÃŃnĠ
ĠchÅ«Ġ jÃºĠ
ĠwÃ©iĠ lÃ¡iĠ
ĠdÃłiĠ lÇĲng
sÃłiĠ jÅ«Ġ
biÃłnĠ gÄĵngĠ
jiÄĽĠ jiÄĽĠ
jiÇİngĠ shÄ«Ġ
chÃ¹Ġ chÃ¹ĠzhÇİngĠ
ĠdeĠshÃŃĠ jÃ¬Ġ
ĠĠĠC ol
shÃ¹ĠliÃłng ĠdeĠ
mÃ¹ĠdÃ¬Ġ dÃ¬Ġ
ĠmÃ©ngĠ gÇĶ
ĠĠĠhÃ²uĠ lÃ¡iĠ
xiÃ©ĠshÄģngĠ huÃ¬ĠyÃ¬Ġ
Ġ 1986
Ġ hÄĽnĠduÅįĠ
wÃ¹ ĠjÃŃĠ
dÃłi ĠshÃŃĠ
liÃº ĠdÃłnĠ
bÇİo ĠjiÃłnĠ
qiÃ¡ng ĠxÃŃngĠ
âĢ »
guÃłn ĠlÃ¬Ġ
one Ġ
ĠshÃ¬Ġ juÃ©Ġ
ĠrÃ©nĠ wÃ©iĠ
ĠlÇĲĠ chÃ¡Ġ
zhÃłnĠ chÇİngĠ
ĠzhÄ«Ġ yÃ²ngĠ
kÄģiĠ pÇĶĠ
sÄģnĠ cÃ©ngĠ
mÄĽiĠ lÄģĠ
zhÅįuĠ qÄ«Ġ
ĠtÃ³ngĠshÃŃĠ yÄĽ
lÇİoĠ bÇİnĠ
kÄģiĠshÇĲ ĠhÃ²uĠ
ĠãĤ ¹
zÄģiĠ hÃłiĠ
kÄĽnĠ sÃ¨
Ġ zhÄĽng
Ġ 1948
hÃ²u ĠgÅįngĠ
chÅ« ĠxiÃłnĠdeĠ
qÅ« ĠyÇĶĠ
fÇİ ĠjÅ«nĠ
fÃº ĠdÃłĠxuÃ©Ġ
pÇĶ ĠsÄ«Ġ
zhuÄģng ĠzÃłiĠ
wÇİ ĠÄĽr
shuÃłi ĠjÅ«nĠ
ĠhÃ©Ġ dÃłoĠ
ĠjÃŃĠ tÄģĠ
ĠyuÃ¡nĠ yÇĴuĠdeĠ
ĠdÃ© ĠshÃ¬Ġ
ĠlÇĲĠ jiÄģĠ
zhÃ¨nĠ yÃŃngĠ
zÇĴngĠ guÇİnĠ
chÄĵngĠ zÃłn
liÇİngĠ xiÃłngĠ
ĠguÃ²Ġ qÃ¹
xuÄģnĠ chÄĵng
lÃ¬ngĠyÄ«Ġ zhÇĴngĠ
ĠgÄģnĠ sÃ¹Ġ
ĠshÃŃĠyÄ«Ġ yuÃ¨Ġ
fÃºĠluÃ³ĠlÇĲĠ dÃ¡ĠzhÅįuĠ
ĠxÄ«nĠjiÄģĠ pÅį
suÇĴĠxÅ« ĠdeĠ
F acebook
l Ã¡
Ġ tÃ³u
Ġ zÇİo
Ġ guÇĲ
yÄ« ĠniÃ¡nĠdeĠ
qi Ã©Ġ
qÅ« ĠwÃ¨iĠyÃºĠ
shÃłng ĠyÃ¬Ġ
Ã©r ĠbÃ¨iĠ
wÄģn ĠdÃłoĠ
39 Ġ
rÃ©nĠ kÇĴu
yÃ¬Ġ yÃ¬Ġ
ĠyÇĶĠ tÄģ
ĠxÃŃngĠ chÄĵĠ
rÃ¨nĠ tiÄģnĠtÃ¡ngĠ
xÄ«nĠ ÄģĠjÄ«ĠtÇİn
mÃŃnĠ jiÄģn
shÇĴuĠ hÃ¹Ġ
ĠleĠ duÃ¬Ġ
ĠzhÃ¨Ġ liÇİngĠgÃ¨Ġ
biÃłnĠ lÃ¹nĠ
zhÄĵngĠ duÃ³Ġ
huÃŃĠ yÃ¬ng
ĠsuÃ¬ ĠrÃ©nĠkÇĴuĠ
xuÄģnĠ gÃłoĠ
ĠtÅįngĠ chÃ¡ngĠshÃ¬Ġ
ĠbÃ¬Ġ yÃ¨Ġ
bÄĽiĠjÄ«ng ĠdÃłĠxuÃ©Ġ
Ġ190 9ĠniÃ¡nĠ
lÃ¬ĠhÃ©Ġ wÃºĠzhÃ¨ngĠzhuÃłngĠgÇİnĠrÇİnĠzhÄĽĠ
ĠyÃ²uĠmÃŃngĠ BDĠ
hÃ¡ngĠzhÃłnĠ lÃ³uĠ
1 ĠyÃ¬Ġ
n ÃłoĠ
gÅįng ĠzhÅįngĠ
hÃ²u ĠzhÃ¬Ġ
le ĠhÃ©Ġ
yÃ¡n ĠlÃ¬Ġ
suÇĴ ĠbÃ¹ĠtÃ³ngĠ
shuÇĲ ĠxiÃłnĠ
sÃ²ng ĠzhÃ¬Ġ
lÃ¡ng ĠdeĠ
dÄģ ĠchÃ©ngĠ
ĠdeĠ pÃŃngĠ
ĠbÃ¹Ġ lÇĶĠkÃ¨Ġ
ĠyÄ«Ġ fÃºĠ
ĠgÃ¨ ĠyÇĴuĠ
ĠgÃ¨ ĠxiÃłnĠ
huÃ¬Ġ huÃłĠ
shÄĵngĠ zhÇİng
ĠdÃ© ĠzÃłiĠ
lÃ¹Ġ yÄ«nĠ
zuÃ¬Ġ jÃ¹Ġ
chuÃ¡nĠ jiÃłoĠ
ÃłnĠ chÃ¡Ġ
fÇİnĠ kÃłngĠ
xÃŃĠ sÃºĠ
zhuÄģngĠ bÃ¨i
mÃłnĠ hÄģĠ
quÃ¨Ġ rÃ¨n
ĠcÇĲĠ qiÃ¡nĠ
mÃłiĠ ÄģĠ
kÄĽĠnÃ©ng ĠzÃłiĠ
tÅ«Ġ juÃ©Ġ
ĠquÃ¡nĠguÃ³Ġ zhÃ²ngĠdiÇİnĠwÃ©nĠwÃ¹ĠbÇİoĠhÃ¹ĠdÄģnĠwÃ¨iĠ
ĠmÃŃnĠ zÃºĠ
ĠwÃ¨iĠyÃºĠgÄģiĠguÃ³Ġ bÄĽiĠbÃ¹Ġ
ĠxÄ« ĠyuÃ¡nĠ
mÇĲnĠ gÇİnĠ
ĠgÄģiĠwÃ¹ĠzhÇĴngĠdeĠmÃ³ĠshÃ¬ĠchÇİnĠ dÃ¬ĠzÃłiĠ
2 ĠshÃŃĠ
E M
Ġ bÃłoĠdÃłoĠ
lÃ¹ ĠsÄ«Ġ
xiÃłng ĠzÃłiĠ
11 ĠshÃŃĠ
mÃ¬ ĠjÃŃĠ
gÃ¨ng ĠyÇĴuĠ
ĠdeĠ zuÃ²ĠpÇĲnĠ
ĠyÇĶĠ mÄĽiĠguÃ³Ġ
zhÃłnĠ jÃ¹Ġ
wÃºĠ guÄģnĠ
yÃ¡ngĠ xÃ¬ngĠ
zhÄ«Ġ wÃłiĠ
hÄģĠ lÄģĠ
dÇĲngĠ diÇİnĠ
ĠãĤ ¤
zÄģiĠ nÃłnĠ
yĠĠĠ of
jiÄĵĠdÃłoĠ bÃłnĠshÃ¬ĠchÃ¹Ġ
ĠĠĠzhÃ¨Ġ geĠ
ÅįuĠzhÅįu ĠguÃ³ĠjiÄģĠ
jiÄģoĠhuÃ¬Ġ chÃ¹Ġ
ĠkÃ¨ĠxÄ«Ġ tÇİĠnÃŃĠdÃłĠqÅ«Ġ
grou ndĠ
n Çİ
Ġ liÃ¡n
Ġ xiÇİn
Ġ fÃ¨nĠ
Ġ 1972ĠniÃ¡nĠ
zuÃ¬ ĠjÃ¬nĠ
shÄ« ĠzÃłiĠ
cÃ¬ ĠshÃ¬Ġ
nÃł ĠzÃłiĠ
nÇļ ĠyÇĴuĠ
qiÄģn ĠdÃłoĠ
mÃ¬ ĠÄĽrĠ
zhÄĵn ĠxiÃłngĠ
ĠshÃ¬Ġ xiÃłnĠ
ĠshÃŃĠ sÃ¬Ġ
ĠsÄ«Ġ lÇĲĠlÃ¡nĠ
guÄģnĠ kÃłn
ĠwÃ©iĠ hÃ¹Ġ
ĠwÃ©iĠ xiÅ«Ġ
ĠdÃłiĠ bÇĶĠ
ĠhÃło ĠhÃ©Ġ
dÃ¡Ġ kÄĵ
shÇĶĠ xÃ¬ngĠ
yÇĲnĠ fÄģ
hÃ¡iĠ bÄģoĠkuÃ²Ġ
chÃ³ngĠ xiÅ«Ġ
biÃ©Ġ shÃ¹Ġ
ĠyÄ«ngĠ gÄģiĠ
ĠduÅį ĠgÃ¨Ġ
ĠsuÃŃĠ zhÃ¹
ĠyÃ²ngĠ lÃ¡iĠ
ĠÃłi ĠdÃ©ĠhuÃ¡Ġ
ĠÃłnĠ zhÃłoĠ
2 ĠgÅįngĠlÇĲĠ
t en
Ġ 69
Ġ miÃ¡oĠ
Ġ 1977ĠniÃ¡nĠ
ĠĠĠ wÅ«ĠkÃ¨ĠlÃ¡nĠ
lÇĲ ĠzhÃ¬Ġ
yÄ«n ĠdeĠ
nÃ©ng ĠdeĠ
lÇľ ĠdÃ¬Ġ
rÃ³ng ĠhuÃ²Ġ
tiÄĽ ĠdÃło
hÄĽn ĠgÄģoĠ
52 Ġ
92 ĠniÃ¡nĠ
shÃŃĠ jÃ¬Ġ
qÅ«Ġ yÃ¹ĠdeĠ
jiÄģnĠ guÇİnĠ
mÃ¬ngĠ yÃ¹nĠ
gÃ¹Ġ wÃ¨n
wÇİĠ shÄĽngĠ
ĠniÃ¡nĠ6ĠyuÃ¨Ġ 30ĠrÃ¬Ġ
ĠxÃ¬Ġ bÄģo
gÄĵngĠ huÃłnĠ
ĠxiÃłng ĠshÃ¬Ġ
z Äģng
Ġ jÇĶ
Ġ tuÅį
Ġ yuÇİn
Ġ xiÃ¡ng
ĠĠĠ bÇĲĠsÃłiĠ
Ãło ĠdÃ©Ġ
duÃ¬ ĠzhÃ¬Ġ
miÃłn ĠwÃ¨iĠ
bÇĲ ĠsÄ«Ġ
biÃ© ĠrÃ©nĠ
bÇİi ĠwÃłn
mÇĴu ĠgÃ¨Ġ
ĠshÃŃĠ Ã¨rĠyuÃ¨Ġ
guÄģnĠ qi
fÇİĠ Ãłn
fÇİĠ guÄ«Ġ
yÃ¨Ġ tÇĲĠ
mÇİĠ dÄ«ngĠ
pÃ¡iĠ chÃº
ĠjiÃ©Ġ gÃ²u
ĠshÃ¬ĠzhÃ¨nĠ fÃłnĠwÃ©iĠnÃ¨iĠ
bÇĶĠ jÇĲĠ
kÄĵĠxuÃ©Ġ yuÃłn
ĠguÄģnĠ zhÃ²ngĠ
ĠcÃ³ng ĠshÃ¬Ġ
ĠmÃ©iĠ tÇĲĠ
yÇĶnĠ kÄĵng
rÃ¨ĠdÃłiĠ dÄ«ĠqÃ¬ĠyÄģĠ
zuÃ¬ĠhÃ²uĠ yÃŃĠgÃ¨Ġ
zÄ«ĠbÄĽnĠ zhÇĶĠyÃ¬Ġ
6 ĠshÃŃĠ
6 ĠgÅįngĠlÇĲĠ
p ĠĠĠ
Ġ nÃłi
ji Ã¡
ĠĠĠ rÃ¬
ĠĠĠ 2002
biÃłn ĠhÃ²uĠ
dÇĲ ĠbÃ¹Ġ
kÇİi ĠÄĽrĠ
ction Ġ
ĠyÄ«Ġ zhÃłoĠ
shÄĵngĠ yÃ¹Ġ
ĠtÄģĠ dÄģnĠrÃ¨nĠ
nÃ¡nĠ hÇİiĠ
ĠquÃ¡n ĠchÃ©ngĠ
liÃłngĠ zÇĲ
jÇĲngĠ wÃ¹Ġ
ĠwÃ©nĠ wÃ¹Ġ
wÃ¡nĠ fÇİĠ
ĠbÇĲĠ rÃº
ĠshÃ¬ĠzhÅįngĠ xÄ«n
suÅįĠ xiÄĽĠ
inclu deĠ
Ġ o
Ġ lÄĵi
Ġ bÇĲng
Ġ Ba
dÃł ĠshÃ¬Ġ
yÇĶ ĠshÃŃĠ
tÃ¡i ĠshÃ¬Ġ
qÇĲng ĠqiÃº
yÇĴuĠ xiÃłnĠ
ĠyÃºĠ 189
ĠgÃ¨ ĠchÅ«ĠrÃ¹ĠkÇĴuĠ
mÃŃngĠ quÃ¨Ġ
ĠtÄģĠ yÃ²uĠ
ĠshÃłngĠ xiÃłĠ
xuÇİnĠ bÃ¡
bÄģĠ mÇİ
bÄģĠ sÄģiĠ
lÃ¨iĠ biÃ©Ġ
ĠtÃ³ngĠ shÃŃĠzÃłiĠ
zhuÄģngĠ cÅ«nĠ
bÄ«ngĠ chuÄģnĠ
huÃłnĠ zhÄĽ
ĠshÃ¬ĠshÃ¬Ġ zhÇİngĠ
ĠgÃ©Ġ lÃ©iĠ
ĠtÃ¨ĠbiÃ© ĠshÃ¬ĠzÃłiĠ
zhÃłnĠdÃ²u ĠzhÅįngĠ
tÃ¡iĠnÃ¡n ĠshÃ¬Ġ
B BC
n et
p iÃ¡n
Ġ hÇİo
Ġ zÇİoĠniÃ¡nĠ
xiÃłn ĠlÃ¹Ġ
huÃ¬ ĠchÃ©ngĠ
zhÃłn ĠyÇĶĠ
yÄĽ ĠzhÃłnĠ
chÄĵ ĠzÃłiĠ
bÇİng ĠdÄģnĠ
zÅ«n ĠshÇĴuĠ
kuÃŃ ĠbÄĽi
ĠrÃ¬ ĠshÃ¬Ġ
zuÃ²Ġ yÃ²ng
zhÇĶĠ yÃ¬ĠhÃ©Ġ
ĠbÃ¨iĠ sÄ«Ġ
diÃłnĠ cÃŃĠ
zÇĶĠ shÅ«ĠjÃ¬Ġ
cÃŃĠ xÃ¬ngĠ
huÃ²Ġ wÃ¹Ġ
ĠgÄģoĠ sÃ¹Ġ
qÄ«nĠ wÃ¡ng
ĠshÇĲĠ chÄĵngĠ
pÃŃnĠ fÃ¡nĠ
ĠyÄ«ĠsÄ«Ġ lÃ¡n
jiÃłoĠkÄĵĠ wÃ©nĠ
a w
Ġ nÃ©ng
Ġ yÄģnĠ
ĠĠĠ zhÃ¨ĠxiÄĵĠ
duÅį ĠlÃ¬Ġ
yÃ¨ ĠshÃ¬Ġ
cÄģn ĠjÅ«nĠ
la r
ĠgÅįngĠ bÃ¹
ĠyuÃ¡nĠ shÄĵngĠ
duÃ¬Ġ huÃłĠ
guÄģnĠ zhÃ¹
ĠjÅ«nĠ qÅ«
ĠkÃ¨Ġ lÃŃnĠ
zhÇĲĠ dÇİo
luÃ³Ġ fÅ«
hÃ¹Ġ zhÃłoĠ
gÃ²uĠ chÃ©ngĠdeĠ
wÄĽiĠ dÃłĠdeĠ
xÅ«Ġ nÇĲ
ĠgÄģoĠ dÃ¹Ġ
tuÄ«Ġ dÃ²ng
ĠniÃ¡nĠzÃłiĠ wÃ¨iĠ
yÇĲngĠxiÇİng ĠleĠ
ĠguÃ³ĠmÃŃnĠ zhÃ¨ngĠfÇĶ
ĠwÃ¨iĠyÃºĠgÄģiĠguÃ³Ġ dÅįngĠnÃ¡nĠbÃ¹Ġ
ĠdeĠjÄ«ĠchÇĶ ĠshÃłngĠ
Ġba ck
mÃ¬ĠxÄ«ĠxÄ«Ġ bÇĲ
O C
Ġ 1960ĠniÃ¡nĠ
gÅįng ĠzÃłiĠ
guÄģn ĠjiÃłn
mÄĽi ĠrÃ©nĠ
wÃ©n ĠjiÃłn
zÃ© ĠrÃ¨nĠwÃ©iĠ
bÅį ĠxÄ«Ġ
hÃłn ĠrÃ©nĠ
wÃłng ĠdeĠ
ta in
1980 ĠniÃ¡nĠdÃłi
ĠdeĠ guÇĲĠdÃłoĠ
ĠbÃ¹Ġ xÃŃngĠ
lÇĲĠ yÃ³uĠ
ĠxiÃłnĠ lÃ¹
bÄĽnĠ shÅ«Ġ
gÃ©Ġ lÃ¡iĠ
huÃ¡Ġ xuÄĽ
jÃ¬nĠ zhÇİnĠ
quÃ¡nĠ zhÇİngĠ
hÃ¡nĠ shÃ¹
hÄģĠ sÃłĠkÃ¨ĠsÄ«Ġ
ĠfÄĵn ĠbÃ¹Ġ
ĠlÃ¬ngĠ yÃŃĠgÃ¨Ġ
dÅįngĠjÃ¬Ġ ÃłoĠlÃŃnĠpÇĲĠkÃ¨ĠyÃ¹nĠdÃ²ngĠhuÃ¬Ġ
yÇĲnĠqÇĲ ĠleĠ
pÃŃngĠlÃ¹n ĠjiÄģĠ
bÄģĠlÃ¨ ĠsÄ«ĠtÇİn
2019ĠguÄģnĠzhuÃłngĠbÃ¬ngĠdÃº ĠbÃ¬ng
2 ĠhÃło
c Ã²u
ĠĠĠ suÇĴĠ
lÇĲ ĠjÃŃĠ
suÇĴ ĠzhÃ¬Ġ
tÃ¡i ĠhÃ©Ġ
nÃŃ ĠjÄ«Ġ
dÇĲ ĠdeĠ
fÃ¨i ĠchÃ©ngĠ
sÄģi ĠÄĽr
nuÇİn Ġ
col orĠ
ĠshÃŃĠ jiÄģĠ
ĠzhÃ¬Ġ shÇĲĠ
ĠgÅįngĠ yÃ¹Ġ
duÃ¬Ġ kÃłng
ĠzhÅįu ĠzhÄ«Ġ
xiÄģngĠ tÃ³ng
shÇĴuĠ yÃ¬ngĠ
ĠkÃ¨Ġ hÃ¹Ġ
luÃ²Ġ yÃ¡ngĠ
jiÇİĠ bÇİnĠ
gÃ¨ngĠ gÄģoĠdeĠ
ĠxiÃłnĠdeĠ chÃ©ngĠshÃ¬Ġ
xuÃ¨Ġ guÇİnĠ
mÃ¨ngĠ xiÇİngĠ
zÄ«ĠgÃ©Ġ sÃłiĠ
ĠĠĠW orl
ĠzÃłiĠzhÃ¨Ġ ge
ĠdÅįng ĠrÃ¬ĠbÄĽnĠ
lÃ¡nĠqiÃºĠ yÃ¹nĠdÃ²ngĠyuÃ¡nĠ
ĠkÇĴngĠ tÃłi
C P
Ġ u
Ġ dÇĴng
Ġ nÃ©ngĠgÃ²uĠ
jÃ¬n ĠqiÃºĠ
jÄ«ng ĠchÃ©ngĠ
huÃł ĠjÃ¬Ġ
kÄģi ĠguÃ³Ġ
tÇĲ ĠwÃ¨iĠ
sÃłi ĠshÃłngĠ
liÃ¨ ĠdÃ¬Ġ
bÃ¡i ĠgÅįngĠ
liÃło ĠlÇĲĠ
xiÃ¨ ĠrÃ¨nĠ
chÅ«n ĠjiÃ©Ġ
ĠbÃ¹Ġ fÃ¹ĠbÃ¹ĠzhÇİngĠ
ĠqÃŃĠ xiÃł
ÃłnĠ chÃ¡ĠsÄ«Ġ
cÃ¡iĠ zhÃ¨ngĠbÃ¹Ġ
yÇĲnĠ rÃ¹
xÃ¬nĠ fÃ¨ng
ĠpÃŃngĠfÄģngĠ yÄ«ngĠlÇĲĠ
liÃłnĠ ÃłiĠ
jiÃ©ĠshÃ¹ ĠshÃŃĠ
ĠyÃ¬ĠzhÃŃ ĠshÃ¬Ġ
ĠniÇĶĠyuÄĵ ĠshÃŃĠbÃłoĠ
ĠĠĠst yleĠ
Ġ 1938
Ġ Pa
Ġ mÃ¬ngĠmÃŃngĠ
Ġ yÅįngĠ
Ġ zÇİoĠqÄ«Ġ
ĠĠĠ dÄģngĠshÃŃĠ
shÇĴu ĠgÃ¨
wÄĽi ĠrÃ¨nĠ
lÇľ ĠhÃ©Ġ
xiÄģn ĠshÃ¬Ġ
jiÇİng ĠzuÃ²Ġ
wÃ©iĠ qÄ«Ġ
wÇĶĠ shÃ¹Ġ
ĠjÃ¹Ġ juÃ©
shÅ«Ġ fÇİĠ
yuÄĵĠ hÃłn
yÇİnĠ xÃŃĠ
gÇİiĠ zhuÄģngĠ
yÃ¬ngĠ bÃ¬Ġ
dÇİĠ bÃłiĠ
ĠluÃ³Ġ mÇİ
yÄģĠ suÅįĠ
ĠxÃŃngĠzhÃ¨ngĠ qÅ«ĠhuÃłĠ
ĠzuÃ¬ĠzhÅįngĠ yÃºĠ
ĠhuÃłĠ xuÃ©Ġ
yÇİĠ diÇİnĠ
diÄģoĠ sÃ¹
m Çİng
Ġ guÃłnĠ
ĠĠĠ mÇĲĠ
ĠĠĠ fÄĵiĠ
ĠĠĠ shÃ¨Ġ
hÃ© nĠ
shÃ¹ ĠniÃ¡nĠ
Mi crosof
qiÃło Ġ
zhÃ¬Ġ shÇİoĠ
sÄ«Ġ xiÇİng
ĠyÄ«Ġ duÃłn
ĠÃ©r ĠyÇĶĠ
ĠshÃ¨ ĠshÃ¬Ġ
qiÃ¡nĠ fÄģngĠ
ĠzhÃłnĠ shÃ¨ngĠ
zuÃ¬Ġ zhÇİngĠdeĠ
mÃ¬Ġ xiÄĵĠgÄĵn
guÇİnĠlÇĲĠ jÃº
shÇĶĠdeĠ dÃ²ngĠwÃ¹Ġ
qÃ¬ngĠ zhÃ¹
wÅ«ĠkÃ¨ĠlÃ¡n ĠdeĠ
ĠmÃŃnĠ jÃ¬nĠ
ĠzhÃ¬ĠzÃłoĠ shÄģngĠ
dÄģĠ dÃłngĠ
ÄģĠgÄĵnĠ tÃŃng
4 ĠgÅįngĠlÇĲĠ
Ġ chuÃłngĠzuÃ²Ġ
Ġ pÃ¨iĠhÃ©Ġ
hÃ²u ĠbÃ¹Ġ
ti ÄģoĠ
zhÇĶ ĠjÄ«Ġ
zÇĶ ĠjiÃłn
bÄģ ĠgÃ¨Ġ
wÃ¡ng ĠgÅįngĠ
shÃ¨ng ĠxiÃłĠ
yÃłn ĠshÃ¬Ġ
wÃłng ĠsÄ«Ġ
ĠbÃ¹Ġ lÃ©iĠ
gÅįngĠ zuÃ²
ĠhÃ²uĠ xÃ¹Ġ
shÇĴuĠ gÄĵĠqÇĶĠ
bÄģĠ xÄ«
zÇĲĠ mÃ¨iĠ
ĠguÃ³ĠjiÄģĠ ÄģnĠquÃ¡nĠ
ĠnÃłĠ meĠ
bÄģngĠzhÃ¹Ġ xiÃłĠ
xuÃ©ĠxiÃło ĠdeĠ
- .
b Ã¨ng
Ġ jÃŃ
Ġ huÇĴ
chÅ« ĠxiÃłn
shÄĵng ĠshÃŃĠ
jÃ¬ng ĠwÃ¨iĠ
gÃ²u ĠjiÃłnĠ
wÄĵi ĠÄĽrĠshÃ¬Ġ
cuÄ« ĠhuÃłĠ
kÃ¹n ĠnÃ¡n
dÃ¬Ġ shÃŃĠ
yÄ«Ġ yÃłngĠ
ĠyÇĴuĠ duÅįĠ
shÇĴuĠ xÃŃ
jiÃłĠ zhÃŃ
jiÇİngĠ zhÄģngĠ
zhÃ¨ngĠzhÃ¬Ġ xiÃ©ĠshÄģngĠhuÃ¬ĠyÃ¬Ġ
shÃ¨Ġ huÃ¬ĠdeĠ
zhuÄģnĠ ÃłnĠ
ĠjÄ«ngĠ yÃŃngĠ
bÇĶĠ chÅįng
xÃŃngĠzhÃ¨ngĠ qÅ«Ġ
ĠjuÃ©Ġ dÃ¬ng
cÄģngĠ kÃ¹Ġ
lÄĽiĠ dÇİĠ
jiÃ©ĠmÃ¹ ĠzhÅįngĠ
ĠĠĠp ro
1 12
l la
Ġ Fi
Ãło ĠzhÅįu
Ã¡i ĠzhÃ¨ngĠ
yÇĴu ĠwÃ¨iĠ
qÅ« ĠyÃºĠ
shÇĲ ĠtÄģĠ
cÃ¡i ĠfÃ¹Ġ
wÇİ ĠsÄ«Ġ
ar ĠĠĠ
mÇİn ĠzhÅįuĠ
qiÄģng ĠdeĠ
mÇİi ĠjiÄģĠ
lÃłn Ġ
ĠdeĠ chÃ©ngĠshÃ¬Ġ
ĠshÃ¬Ġ qiÃ¡nĠ
ĠbÃ¹Ġ luÃ³Ġ
ĠzhÃ¬Ġ xÃ¹Ġ
ĠyÇĴuĠ zheĠ
ĠlÃ¬Ġ xÄ«Ġ
ĠlÃ¬Ġ xiÃłnĠ
ĠgÅįngĠ yuÄĵĠ
hÃ²uĠ bÃ¨iĠ
ĠduÃ¬Ġ zhÇİngĠ
ĠrÃ¨nĠ jiÃłoĠ
yÃŃĠ lÃ¡n
wÃºĠ xÅ«Ġ
gÃ²ngĠ xiÇİngĠ
xÅ«Ġ nÇĲĠ
yÇĲngĠxiÇİngĠ lÃ¬ĠdeĠ
xiÅįngĠ zhÇİngĠ
liÃºĠxÃŃngĠ yÄ«nĠyuÃ¨Ġ
wÅįĠ lÃºnĠ
ĠlÃŃ ĠmÇĲĠ
z ÅįuĠ
¡ Ġ
Ġ kÄĽĠyÇĲ
Ġ cuÄ«Ġ
Ġ chuÃłngĠlÃ¬Ġ
Ġ biÄģoĠzhÃ¬Ġ
ĠĠĠ dÃ©Ġ
yÄ« ĠhÃ©Ġ
sÄ« ĠwÃ¨iĠ
zhÃłn ĠjiÃłnĠ
dÃłi ĠzÃłiĠ
fÃ¹ ĠlÇĲĠ
jiÄģng ĠqÃŃ
dÄģn ĠshÃ¬Ġ
wÃº ĠshÃ¬Ġ
zÃłn ĠwÃºĠ
ĠzÃłiĠ dÃ¹
yÄ«Ġ jÃŃĠ
ĠrÃ©nĠ qÃºnĠ
ĠjÃŃĠ xÃ¬ngĠ
ĠyÄ«Ġ jiÇİoĠ
lÇĲĠ sÄ«Ġ
ĠyÇĶĠ duÅįĠ
ĠbÃ¨iĠ gÃ©Ġ
huÃłĠ tÃŃĠ
lÄģĠ dÄ«ngĠ
fÄĵngĠ bÃ¬Ġ
kÄĵĠ tÃ¨Ġ
gÇĶĠ gÃ©Ġ
nÇļĠ xÃ¬ngĠdeĠ
ĠquÃ¡nĠ tÇĲĠ
ĠtÃ³ngĠ mÃ©ng
dÃºĠ xÃ¬ngĠ
shuÄģngĠ fÄģng
wÇİĠ lÄģĠ
lÃŃĠkÄģiĠ leĠ
wÃłiĠguÃ³Ġ rÃ©nĠ
gÇİiĠbiÄģn ĠwÃ¨iĠ
qiÇİngĠ pÃ²Ġ
ĠlÃ¬ĠtÃ¡oĠ wÇİn
Ġ xÅ«
Ġ fÄģĠzhÇİn
Ġ pÃ¡ngĠ
Ã© ĠdeĠ
ĠĠĠ 2001
shÃ¹ ĠlÃ¬Ġ
zhÃ¹ ĠshÃ¨Ġ
mÇİ ĠdÃ©Ġ
tÃłi ĠhÃ©Ġ
xÄ«ng ĠrÃ©nĠ
tÃ¡ng ĠdÃłiĠ
ĠrÃ¬ ĠjÃŃĠ
ĠyuÃ¡nĠ xiÄģnĠ
ĠrÃ¬Ġ jÃ¬Ġ
ĠxÄ«Ġ fÄģng
shÃ¹Ġ xuÃ©ĠjiÄģĠ
lÃ¹Ġ duÃłn
jÄ«nĠ gÄģngĠ
yÃŃĠ bÃ¹ĠdeĠ
bÄģĠ hÃ¨
shÄģngĠ hÃłi
ÃłoĠ fÃºĠ
gÃ²uĠ rÃ¹Ġ
jiÄĽĠ mÃ¨iĠ
qiÄģnĠ mÇĲ
tuÅįĠ lÃŃ
ĠtiÄģnĠ zhÇĶĠjiÃłoĠ
ĠĠĠS er
ĠshÃ¬ĠdÃ¬Ġ Ã¨rĠ
ĠchÃºĠ le
ĠdeĠdÃłĠ xÃŃngĠ
fÃ¡nĠ rÃ³ngĠ
ĠshÃ¬ĠwÃ¨iĠyÃºĠmÄĽiĠguÃ³Ġ mÃ¬ĠsÅ«ĠlÇĲĠ
yÃ¬ĠshÃŃĠ dÃło
tiÄģnĠjÄ«n ĠshÃ¬Ġ
5 ĠpÃŃngĠfÄģngĠgÅįngĠlÇĲĠ
6 ĠpÃŃngĠfÄģngĠgÅįngĠlÇĲĠ
Ġ shÇİn
Ġ 1970
Ġ 1941
Ġ yÇĴuĠdeĠ
Ġ qÄ«ngĠniÃ¡nĠ
sh Äĵ
ĠĠĠ zhÇĲĠ
ĠĠĠ sÃ¬Ġ
zhÃ¨ng ĠrÃ©nĠ
gÄģi ĠshÃ¬Ġ
huÃ¡ ĠyÃ¬Ġ
chÄģo ĠshÃ¬Ġ
bÃłi ĠhÃ²uĠ
ct or
ĠdeĠ gÄĵĠqÇĶĠ
mÃŃngĠ yÃ¹Ġ
duÃ¬Ġ bÇĲĠ
gÃ©Ġ lÄĵi
ĠshÃłngĠ sÃ¹Ġ
nÃ¨iĠ zhÃ¨ngĠbÃ¹Ġ
yÃłĠ mÇİĠ
ĠzhÃ¹Ġ cÃ¨Ġ
shÇĶĠ wÃ¹ĠzhÇĴngĠ
xÃŃĠ guÃłn
ĠjÄ«nĠ tiÄģnĠ
ĠniÃ¡nĠ3ĠyuÃ¨Ġ 1ĠrÃ¬Ġ
dÄĵngĠ chÃ¡ng
leĠyÄ«Ġ zuÃ²Ġ
kÄģiĠshÇĲ ĠdeĠ
pÃłoĠ bÄ«ngĠ
chuÃ¡nĠtÇĴng ĠshÃłngĠ
cÄģnĠsÃłiĠ zhÄĽĠ
jiÃ¨ĠquÃ¡nĠguÃ³Ġ rÃ©nĠdÃłĠdÃłiĠbiÇİoĠ
ĠxiÇİo ĠpÃŃngĠ
mÃ¹ĠbiÄģo ĠshÃ¬Ġ
fÄĵiĠlÃ¬Ġ pÇĶĠ
I A
Ġ sÃłiĠshÃ¬Ġ
ĠĠĠ yÇĲ
ĠĠĠ colspanĠ
Ãło ĠbÃ¹Ġ
jiÃłn ĠguÃ³Ġ
yÃ¡ng ĠrÃ©nĠ
xiÄģn ĠzÃłiĠ
gÃ¹ nĠ
shuÄģng ĠxiÃłngĠ
pÃło ĠjÄ«Ġ
ĠgÅįngĠ wÃ¹ĠyuÃ¡nĠ
ĠchÃ©ngĠ nuÃ²
ĠdÃło ĠwÃ¨iĠ
ĠyuÃ¡nĠ yÃ¬Ġ
ĠchÅ« ĠwÃ¨iĠ
ĠlÇĲĠ yÃł
lÃ¡iĠ shuÅį
sÄģnĠ fÄĵnĠzhÄ«Ġ
nÃŃĠ ÃłoĠ
bÃłnĠ chÇİngĠ
yÃ¡nĠjiÅ« ĠzhÅįngĠ
tiÃ¡oĠ yuÄĵ
huÃ¡ĠrÃ©nĠmÃŃnĠ gÃ²ngĠhÃ©Ġ
ĠzhÅįngĠyÄģngĠ wÄĽiĠyuÃ¡nĠhuÃ¬Ġ
ĠgÇİiĠ biÄģn
yÃ¬ĠshÃŃĠ dÃłoĠ
yÃ¬ngĠyÃ²ngĠ chÃ©ngĠshÃ¬Ġ
ĠdeĠguÄģnĠ diÇİnĠ
9 00
h y
r Ã¡o
Ġ gÄģoĠzhÅįngĠ
qiÃ¡n ĠlÃ¬Ġ
duÅį ĠyÃºĠ
dÄĽng ĠshÃ¬Ġ
lÃŃn ĠhÃ©Ġ
sÃ¨ ĠhÃ©Ġ
ĠbÃ¹Ġ duÃ¬ĠdeĠ
ĠdÃ¬Ġ 3
zhÃ¨ngĠ jiÃłoĠ
ĠhÃ²uĠ yÃ²uĠ
ĠÄĽr ĠjiÄģĠ
jÄ«ngĠ lÃŃngĠ
ĠshÄĵngĠ yÄ«nĠ
shÄģnĠ lÃ¹Ġ
liÃ¨Ġ nÃŃngĠ
xiÃłoĠ xiÃłngĠ
biÄģnĠ jiÄģngĠ
dÇİngĠ wÄĽiĠshÅ«ĠjÃ¬Ġ
kÅįngĠ xÃŃ
jÅ«nĠ duÃ¬
hÄĽnĠ shÇİo
ĠĠĠzhÅįngĠ huÃ¡ĠmÃŃnĠguÃ³Ġ
ĠyÇĲĠjÄ«ng ĠbÃ¨iĠ
juÄģnĠ zÃ¨ng
ĠxÄ«nĠjiÄģĠ pÅįĠ
ĠdÃ¬ĠzhÅįngĠ hÇİiĠ
ĠfÃºĠlÇİngĠ shÃ©nĠ
kÇİĠsÄ«ĠdÃ¬ĠlÃ¬Ġ yÃłĠ
t ra
ï ¹
Ġ Ne
Ġ fÃłngĠ
Ġ 1974ĠniÃ¡nĠ
Äģn ĠdÃłĠ
jiÃ© ĠrÃ¬Ġ
huÃ¡ ĠnÃ¡nĠ
bÇĶ ĠshÃŃĠ
kuÄģn ĠdÃ¹Ġ
ĠdÃ¬Ġ 5Ġ
ĠzhÃ¬Ġ dÃłĠ
yuÃ¡nĠ wÃłiĠlÃ¡ngĠ
ĠguÃ³Ġ huÃ¬ĠyÃ¬ĠyuÃ¡nĠ
ĠyÃ¬Ġ miÃ¡oĠ
ĠdÃ© ĠchÅ«Ġ
dÃłiĠ lÇĲngĠ
shÇĴuĠ qiÄģngĠ
ĠjÅ«nĠ xiÃ¡nĠ
diÃłnĠ zhÃłnĠ
fÄĵnĠ wÃ©i
yÃŃĠ dÇİoĠ
zÇĴngĠ zhÇİngĠ
ĠlÃ¹Ġ xÃ¹Ġ
tÃ³ngĠ pÃ¡iĠ
ĠdeĠyÄ«Ġ zuÃ²
jÅ«Ġ zhÃ¹
ĠyÄ«nĠwÃ¨iĠ zÃłiĠ
gÃłiĠ yÃłoĠ
ĠniÃ¡nĠ8ĠyuÃ¨Ġ 1ĠrÃ¬Ġ
ĠN i
ĠdeĠhÃ©Ġ xÄ«nĠ
ÃłoĠlÃŃnĠpÇĲĠkÃ¨Ġ yÃ¹nĠdÃ²ngĠ
sÃłĠzhÅ«Ġ sÄģi
Ġback groundĠ
Ġ yÃ¡o
Ġ 1987
Ġ Pro
Ġ zÃ¡Ġ
duÃ¬ ĠzhÅįngĠguÃ³Ġ
jÃ¹ ĠshÃ¬Ġ
tÃ¡i ĠhÃ²uĠ
fÄĵng ĠlÃ¬Ġ
il Ġ
ĠzÃłiĠ xiÄģngĠgÇİng
bÃ¹Ġ duÃ¬Ġ
ĠdÃ¬Ġ zhÇĲĠ
ĠdÃłoĠ qiÃłnĠ
ĠjiÄģĠ zhÅįu
ĠtÄģĠ kÄģiĠshÇĲĠ
zhÃŃĠ jiÃłoĠ
zhÃŃĠ tÅįngĠ
dÅįngĠ fÄĵngĠ
dÃ¬ngĠ jÅ«
cÄģnĠ tÄ«ng
ĠzhÇĲĠ huÄ«Ġ
dÃłiĠbiÇİo ĠdÃłĠ
ĠzÃłiĠyÄ«Ġ cÃ¬Ġ
ĠbÅį ĠsÄ«Ġ
ĠzÃłiĠjiÄģĠ shÃłngĠ
chÄĵĠrÃ©nĠ cÃ¬Ġ
2 ĠpÃŃngĠfÄģngĠgÅįngĠlÇĲĠ
8 ĠmÃŃngĠ
w ard
Ġ kÇĴng
Ġ duÇİnĠ
Ġ lÃŃnĠshÃŃĠ
Ġ duÃ³ĠdeĠ
ĠĠĠ En
ĠĠĠ zhÇĶĠ
ĠĠĠ cÃ©ngĠ
zhÃłn ĠxiÃłnĠ
kÄģi ĠdeĠ
tÅįng ĠdeĠ
qÃ¬ ĠshÃ¬Ġ
rÃº ĠtÃ³ngĠ
gÇİi ĠyÃ³uĠ
tÃ³u ĠyÃºĠ
pÃ¡i ĠdeĠ
jiÃł ĠwÃ¨iĠ
shÃŃĠ qÄ«ĠdeĠ
ĠbÃ¹Ġ lÃºnĠ
ĠrÃ¬ ĠĠĠ
fÄĵnĠ kÄģiĠ
ĠzuÃ²Ġ yÃ²ng
zuÃ¬Ġ xiÇİoĠ
ĠlÃ¹Ġ kÇĴuĠ
tÃºĠ shÄģ
ĠxiÃłngĠ mÃ¹
ĠqÃŃĠzhÅįngĠ yÃŃĠgÃ¨Ġ
ĠshÃ¬ĠjÃ¬Ġ mÃ²Ġ
huÄ«Ġ sÃ¨Ġ
ĠdeĠshÃŃĠ dÃłiĠ
ĠmÇİ ĠsÄ«Ġ
zhuÄ«Ġ suÃŃĠ
ĠrÃ¨nĠwÃ©i ĠshÃ¬Ġ
ĠjÄ«ĠbÃłi ĠleĠ
xÄ«nĠchÃ©ngĠ lÃ¬ĠdeĠ
ĠfÄĵiĠlÇľĠ bÄ«nĠ
0 ĠrÃ©nĠ
Ġ yÃ¹nĠdÃ²ngĠ
quÃ¡n ĠyÃ¬Ġ
hÇİi ĠzhÃłnĠ
Ã¨r ĠhÃłoĠ
shÄĵn ĠkÃ¨Ġ
gÇİng ĠdeĠ
jiÄĽ ĠxÄ«Ġ
pÄ« ĠquÃ¡nĠguÃ³ĠzhÃ²ngĠdiÇİnĠwÃ©nĠwÃ¹ĠbÇİoĠhÃ¹ĠdÄģnĠwÃ¨iĠ
dÅ«n ĠdeĠ
ĠzhÃ¬Ġ suÇĴĠzÃłiĠ
ĠdÃłĠ tÄ«ngĠ
guÄģnĠ zhÃŃĠ
shÇĴuĠ pÄ«Ġ
ĠkÃ¨Ġ lÃ©iĠ
ĠrÃ¨nĠ nÃ¨iĠ
bÃ¬Ġ huÃłĠ
shÄģĠ tÃ¨Ġ
qÄ«nĠ lÃ¼Ã¨Ġ
ĠniÃ¡nĠ9ĠyuÃ¨Ġ 1ĠrÃ¬Ġ
ĠdeĠzuÃ²Ġ pÇĲn
qÇĲĠyÃ¨ ĠjiÄģĠ
ĠkÇĴngĠtÃłi ĠdÃłĠqÅ«Ġ
c c
Ġ chÇİnĠ
Ġ pÄ«ĠpÃŃngĠ
ĠĠĠ 187
wÃ©n ĠhÃ©Ġ
fÃº ĠsÄ«Ġ
miÃłn ĠyÇĴuĠ
jiÃ¹ ĠdeĠ
sÃ¹ ĠwÃ¨iĠ
bÃ³ ĠdeĠ
cÃŃ ĠyÇĶĠ
dÄ« ĠdÃ¬Ġ
yÇİng ĠhÃ©Ġ
pÃło ĠdeĠ
ĠbÃ¹Ġ lÃ©i
ĠyÄ«Ġ dÃłi
ĠjÃ¬Ġ jiÃ©Ġ
ĠchÅ« ĠshÃ¬Ġ
yÃ¹Ġ suÃłn
zhÃ¹Ġ rÃ¹Ġ
bÃ³Ġ lÇİn
bÃłnĠ jÃ¬ngĠ
ĠyÄĽĠ kÄĽĠ
xiÃ©Ġ huÃ¬ĠdeĠ
ĠqiÃ¡ngĠ diÃłoĠ
wÃłiĠjiÄģoĠ guÄģnĠxÃ¬Ġ
guÃ²ĠqÃ¹ ĠdeĠ
3 ĠpÃŃngĠfÄģngĠgÅįngĠlÇĲĠ
8 ĠpÃŃngĠfÄģngĠgÅįngĠlÇĲĠ
Ġ gÃłn
Ġ 1984
fÃ¹ ĠzÃłiĠ
suÇĴ ĠzhÄ«Ġ
liÃ¡n ĠsÄ«ĠjÄ«Ġ
sÃłi ĠhÃ©Ġ
shÄģn ĠshÃłngĠ
chuÃ¡n ĠchÃ©ngĠ
rÃ³u Ġ
ĠwÃ¨iĠ fÃ¹Ġ
ĠdÃ¬Ġ di
yuÃ¡nĠ sÃ¹Ġ
ĠyÄ«Ġ kÃło
ĠxÄ«Ġ yÇĶĠ
rÃ¨nĠ nÃ¨iĠ
pÃŃngĠ jiÃ¨Ġ
nÃ¡nĠ yÇİnĠyuÃ¡nĠ
ĠyÄ«n ĠzÃłiĠ
fÃºĠ lÇĶĠ
yÃłoĠ sÃłiĠ
yÃ¡nĠjiÅ« ĠshÃ¬Ġ
yÇĲĠ lÃ¡i
xiÄģoĠ miÃ¨
tÃ¡oĠ lÃŃĠ
ĠdeĠrÃ©nĠ kÇĴuĠwÃ¨iĠ
yÃ¬nĠdÃ¹Ġ jiÃłoĠ
ĠĠĠA Ġ
juÃ©ĠsÃ¨Ġ bÃłnĠyÇİn
ĠjÃ¬ĠhuÃł ĠzÃłiĠ
Ġ 1979
Ġ lÃ³uĠ
Ġ miÃłnĠduÃ¬Ġ
ĠĠĠ huÃ¬Ġ
ĠĠĠ rÃºĠguÇĴĠ
jiÄģng ĠdeĠ
zhÇİng ĠshÃŃĠjiÄģnĠ
mi c
lÃŃng ĠshÃŃĠ
chÃ¹ ĠzÃłiĠ
pÃ¨i ĠsÄ«Ġ
89 ĠniÃ¡nĠ
ĠniÃ¡n ĠshÃ¬ĠjiÃ¨
ĠyuÃ¨Ġ kÄģnĠ
ĠjÃŃĠ jiÃ©Ġ
ĠgÃ¨ ĠshÃ¬Ġ
ĠjÅ«n ĠjiÃłnĠ
zhÃ¨Ġ zuÃ²Ġ
liÃ¡nĠ xÃ¬
shÄģnĠ kÇĴuĠ
dÄģnĠ dÄģngĠ
biÃłnĠ huÃłĠdeĠ
jiÇİnĠ yÃłnĠ
shÃ¨ngĠ diÃłnĠ
jiÄĽĠ p
ĠdeĠshÃ¬Ġ wÃ¹Ġ
ĠsuÃ¬ ĠdÃłoĠ
ĠbÇĲĠ jiÃłoĠ
jÃ¹nĠ wÃ¡ngĠ
wÃ¡nĠchÃ©ngĠ hÃ²uĠ
sÅ«nĠ ziĠ
ĠwÃłiĠ jiÄģo
ĠrÃ¨n ĠzhÅįngĠgÃ²ngĠ
Ġ rÇĶ
Ġ 78
Ġ dÇĲngĠ
Ġ cÇİoĠ
Ġ 24Ġ
Ġ only
ĠĠĠ tÃ¨Ġ
ĠĠĠ hÇİiĠ
ĠĠĠ guÇĲĠdÃłoĠ
ĠĠĠ 1999ĠniÃ¡nĠ
lÃ¬ ĠniÃ¡nĠ
qÃŃ ĠxiÃłĠ
mÄĽi ĠshÃŃĠ
fÄĵn ĠhuÃ¬Ġ
wÇĶ ĠrÃ¬Ġ
gÇĶ ĠjÃŃĠ
wÄĵi ĠsÄ«Ġ
wÄĵn ĠhÃ©Ġ
chÃ¨ ĠchÅ«Ġ
67 Ġ
ĠzhÅįngĠ wÇĶĠ
jÃ¬Ġ yÃ¬Ġ
zhÃ¨ngĠ wÄĽiĠ
fÇİĠ tÃŃng
fÄĵnĠ xÄ«
liÃºĠ chuÃ¡n
bÃłoĠ dÇİo
ĠhÃło ĠshÃ¬Ġ
biÃłnĠ huÃłn
jiÃłnĠ kÄģng
zhÅįngĠdeĠ yÃŃĠgÃ¨Ġ
wÅ«Ġ dÇĲngĠ
liÃłnĠ jiÄĵĠ
dÃłiĠbiÇİoĠ tuÃ¡n
xuÃ¡nĠ lÇľĠ
zhÃłngĠ Ãłi
ĠguÃ³ĠmÃŃnĠ gÃ©ĠmÃ¬ng
ĠtÃ¡ngĠ chÃ¡oĠ
ĠqÃŃĠtÄģ ĠrÃ©nĠ
xiÃłngĠmÃ¹ ĠdeĠ
jiÄģoĠliÃº ĠdÃłoĠ
Ġ fÄģĠzhÇİnĠ
Ġ cÃºnĠzÃłiĠ
ĠĠĠ quÃ¡n
lÇĲ ĠwÃ¨iĠ
sÃłi ĠhuÃ¬Ġ
wÇĶ ĠjÃŃĠ
luÃ³ ĠyÄ«Ġ
ter nation
62 Ġ
MV Ġ
ĠzÃłiĠ jÃ¹Ġ
ĠyÃºĠ 2007
ĠxiÃłn ĠxÃŃngĠ
ĠdÃłĠ xiÇİo
ĠyÇĲĠ cÇĲ
ĠchÅ«Ġ shÇĲĠ
bÇİoĠ Äģn
chuÃ¡nĠ fÃ³ĠjiÃłoĠ
tÃŃĠ jiÄģo
gÇİngĠ kÇĴu
yÃ¡nĠjiÅ« ĠrÃ©nĠyuÃ¡nĠ
ĠyÄĽĠ chÄĵngĠwÃ©iĠ
ĠluÃ³Ġ nÃ¨Ġ
ĠpÇĶĠ tÅįngĠ
ĠÃło ĠzhÅįuĠ
sÇĶnĠ shÄģngĠ
ĠwÃ¨iĠyÃºĠgÄģiĠguÃ³Ġ zhÅįngĠbÃ¹Ġ
zuÃ¬ĠhÃ²uĠyÄ«Ġ cÃ¬Ġ
yÃ¬nĠdÃ¬Ġ ÄģnĠrÃ©nĠ
chÃ³ngĠqÃ¬ng ĠshÃ¬Ġ
ĠzhÄ«ĠjiÄģĠ gÄĵĠ
R NA
Ġ 140
Ġ jÃºĠ
Ġ bÃºĠhuÃ¬Ġ
Ġ yÃłĠlÃ¬ĠshÄģnĠdÃłĠ
qÅ« ĠzÃłiĠ
zhÃłn ĠjÄ«Ġ
shÃ¹ ĠzhÄ«Ġ
fÇİ ĠlÃ¬Ġ
shÇĴu ĠzhÄ«Ġ
mÃ¹ ĠjÄ«Ġ
bÄĽi ĠwÃ¨iĠ
gÄĵ ĠsÄ«Ġ
zhuÇİn ĠrÃ¨nĠ
bÄģng ĠdeĠ
zhÄģo ĠmÃ¹Ġ
mm Ġ
ĠshÃ¬Ġ tÃ¡iĠwÄģn
ĠwÃ¨iĠ rÃ¬ĠbÄĽnĠ
ĠyÄ«Ġ shÅ«Ġ
jÄ«Ġ hÅ«Ġ
zuÃ²Ġ biÄģoĠ
ĠÃ©rĠ sÇĲĠ
ĠbÃ¬ngĠ zhÇĲĠyÃºĠ
tÇĲĠ cÄģoĠ
gÇİiĠ liÃ¡ngĠ
cÃ¡iĠ pÃłn
ĠchÃ©ngĠwÃ©iĠ yÃŃĠgÃ¨Ġ
yÄ«nĠ mÃ³uĠ
ĠĠĠdÃ¬Ġ mÃŃngĠ
ĠniÃ¡nĠ6ĠyuÃ¨Ġ 1ĠrÃ¬Ġ
ĠzhÃŃĠ yÃ¨Ġ
ĠĠĠS cho
dÃłnĠ yÃłoĠ
zÃłoĠchÃ©ngĠ leĠ
ĠpÃŃng ĠjÅ«n
ĠqÇĲ ĠchÅ«Ġ
tÃ¡iĠfÄĵngĠ jÇĲngĠbÃło
7 ĠmÃŃngĠ
H E
K i
Ġ 1978
Ġ Ca
mÃŃng ĠyÇĶĠ
qÅ« ĠzhÄ«ĠyÄ«Ġ
fÇİn ĠfÃ¹Ġ
pÃłi ĠchÅ«
rÃ¨ ĠhÃ©Ġ
tuÃ¬ ĠchÅ«
1990 ĠniÃ¡nĠdÃłi
1950 ĠniÃ¡nĠdÃłiĠ
chÇĴu ĠkÄĵĠ
ĠyÃºĠ 188
zhÃłnĠ tÄ«ngĠ
nÃ¡nĠ cÃ¨Ġ
ĠbÃ¨iĠ shÄģĠ
zhÃ¨nĠ yÄģ
bÃ¬Ġ yÃ¨
bÃ¬Ġ yÃło
zÄ«Ġ gÃ©
ĠdeĠdÃ¬Ġ xiÃłĠ
chÇĶĠ sÇĲĠ
ĠnÃ¨iĠ rÃ³ng
tÅįngĠguÃ² ĠdeĠ
jiÄģoĠtÅįng ĠbÃ¹Ġ
dÃ²ngĠlÃ¬Ġ xuÃ©Ġ
ĠxÄ«ĠlÃł Ġ
ĠruÃ¬Ġ diÇİnĠ
bÅįĠshÃ¬Ġ dÃ¹nĠ
gÇİnĠlÇİn ĠqiÃºĠ
G D
O P
Ġ 1971ĠniÃ¡nĠ
Ġ 1936ĠniÃ¡nĠ
Ġ 1940ĠniÃ¡nĠ
Ġ 1927ĠniÃ¡nĠ
Ãło ĠkÃ¨ĠxÄ«ĠtÇİĠnÃŃĠdÃłĠqÅ«Ġ
ÄĽr ĠsÄ«Ġ
sÄģn ĠhÃ©Ġ
zhÄĽ ĠzhÄ«ĠyÄ«Ġ
cÃ¡i ĠshÃ¬Ġ
fÃłng ĠdeĠ
64 Ġ
ĠzÃłiĠ gÄģoĠ
ĠhÃ©Ġ sÄ«Ġ
ĠhÃ©Ġ yÇĲĠ
ĠzhÅįngĠ chÇİngĠ
ĠshÃŃĠ bÃ¹Ġ
ĠyÃ¬Ġ rÃ¬Ġ
ĠyÇĶĠ yÄ«nĠ
jiÄģnĠ jÃ¬nĠ
ĠbÃ¬ngĠ dÄģnĠrÃ¨nĠ
ĠqÃŃĠ jiÄģnĠ
ĠjÃ¬n ĠchÃ©ngĠ
ĠzhÃłnĠ chÇİngĠ
ĠpÃŃngĠ gÅ«Ġ
jiÄĵĠ cÃ©ngĠ
fÃºĠ lÄģĠ
cÇĲĠ qiÃ¡nĠ
lÃŃnĠ qÅ«Ġ
mÃ©iĠ yÇĴuĠzÃłiĠ
ĠgÄģiĠ dÇİng
fÃłnĠ chÃ³uĠ
gÃ¹Ġ zhÃłngĠ
chÃ³ngĠ bÃłiĠ
ĠĠĠF or
ĠbÅįĠ lÃ¡n
chÄģĠ biÃ©Ġ
sÇĶnĠ hÃłiĠ
ĠshÃ¬ĠyÃ¬Ġ yuÃ¡nĠ
ĠV Ġ
gÇİiĠbiÄģn ĠzÃ¬Ġ
yÇĴuĠbÃ¹Ġ shÇİoĠ
ub li
Ġ 2025ĠniÃ¡nĠ
Ġ 1934ĠniÃ¡nĠ
hÃ²u ĠrÃ©nĠ
yÃ¹ ĠmÃŃngĠ
shÄģn ĠjÃŃĠ
zÇĴng ĠrÃ©nĠkÇĴuĠdeĠ
nÇĶ ĠÄĽrĠ
ĠshÃŃĠ wÇĶĠ
yÃ¬Ġ jiÃłnĠ
ĠdÃłn ĠdÃłoĠ
tÃŃngĠ liÃºĠ
ĠdeĠyÄ«Ġ yuÃ¡nĠ
kÅįngĠ jiÄģnĠdeĠ
zhÄĵnĠ zhÅ«Ġ
ĠdeĠshÃŃĠ wÃ¹Ġ
sÃ²ngĠ wÇİngĠ
ĠnÇļĠ xÃ¬ngĠwÃ¨iĠ
ĠdeĠjÃ¬Ġ zÇİiĠ
xiÃłĠjÃ¬Ġ ÃłoĠyÃ¹nĠhuÃ¬Ġ
zhÃłnĠzhÄĵng ĠdeĠ
huÃ¡nĠjÃ¬ng ĠzhÅįngĠ
ĠÑ Ģ
gÄģoĠdÄĽng ĠxuÃ©ĠxiÃłoĠ
fÃºĠlÃ©i ĠdÃ©Ġ
Ġonly includeĠ
N G
l l
t ri
jÄ« ĠwÃ¨iĠ
bÃ¨i ĠlÃ¬Ġ
wÃłn ĠyuÃ¡nĠ
an n
50 ĠmÇĲĠ
hÇİn ĠjiÃłnĠ
ĠshÃ¬Ġ jÃ¬
ĠzÃłiĠ 17
ĠhÃ©Ġ hÃ²uĠ
jÃ¬Ġ zÇİi
jÄ«Ġ xiÃ¨Ġ
ĠzhÄ« ĠrÃ©nĠ
ĠgÃ¨ ĠjÃŃĠ
ĠzhÅįu ĠzhÃ¬Ġ
fÄģĠ diÃłnĠjÄ«Ġ
yÃ¨Ġ zhÄĽĠ
ĠtÃ³ng ĠzhÄ«Ġ
rÃ¹Ġ xuÃ©Ġ
chÃ¡ngĠ chÅ«n
qÄ«ngĠ chÇĶ
hÃ¡nĠ mÃŃnĠguÃ³Ġ
wÄĽiĠyuÃ¡nĠhuÃ¬Ġ zhÇĶĠrÃ¨nĠ
chÅįngĠ mÇİn
ĠyÄ«ngĠ cÃ¹nĠ
ĠqÄ«ngĠ chÃ¡o
nÃŃngĠ bÅįĠ
Ã¨Ġ liÃ¨Ġ
ĠyÃ¬ĠzhÃŃ ĠdÃłoĠ
ĠhÄģĠÄĽrĠ bÄ«nĠshÃ¬Ġ
tÃłnĠxiÇİn ĠduÃ¬Ġ
+ +
0 ĠbÇĲĠ
7 ĠpÃŃngĠfÄģngĠgÅįngĠlÇĲĠ
m ÇĴ
Ġ bÃłn
Ġ juÇİn
Ġ hÄĵng
Ġ 1933ĠniÃ¡nĠ
zhÃŃ ĠxiÃłnĠ
yÃł ĠÄĽrĠ
chÄĵ ĠshÃłngĠ
Ã¨r ĠgÃ¨Ġ
qÄ«ng ĠlÇĲĠ
tÃº ĠshÃłngĠ
kÃ¹ ĠsÄ«Ġ
te sĠ
oo d
ĠshÃŃĠ liÃ¹
ĠfÃ¹Ġ zÃ¡Ġ
zuÃ¬Ġ dÃł
ÄģnĠ dÇİĠ
zÇĴngĠ jiÃ©Ġ
wÄĵiĠ ruÇİn
xiÄģoĠ liÃłng
ĠsuÇĴĠ shÇĶĠdeĠ
ĠshÃ¹Ġ zÃ¬Ġ
ruÃ¬Ġ shÃ¬ĠdeĠ
mÇĴuĠ zhÇĴngĠ
ĠÄĽrĠsÄ«Ġ kÃ¨Ġ
ĠdÃ©ĠlÇĲĠ kÃ¨Ġ
ĠchÅ«ĠbÇİn ĠleĠ
ĠxÄ«nĠzÄĵngĠ jÃ¬ngĠwÃłiĠshÅ«ĠrÃ¹Ġ
mÃŃnĠjÃ¬nĠ dÇİngĠ
Ġcom Ġ
I ON
T wit
jÇĲ ĠwÃ¨iĠ
kÄĽ ĠgÅįngĠ
tiÄģn ĠdÃ¬Ġ
dÃ¡ ĠlÃ¬Ġ
yÃ²u ĠyÇĴuĠ
mÃ³ ĠÄĽrĠ
cÃ¡i ĠbÃ¨iĠ
âĢ ¢
gÇİn ĠjÅ«nĠ
nÇĲ ĠdeĠ
yÃ¬Ġ zhÃŃĠ
ĠyÇĴuĠ gÅįngĠ
zhÃ¨Ġ xiÃłngĠ
dÅįngĠ hÇİiĠ
tiÄģnĠ qiÃ¡oĠ
ĠzhÃ¨Ġ lÃ¨iĠ
tÃłiĠ lÄĵiĠ
nÃłĠ rÃ¹
bÅįĠ luÃ³Ġ
zhÄĵngĠ yÃ¬ĠdeĠ
shuÅįĠ fÃºĠ
Ġ17 0
ĠgÄĵnĠjÃ¹Ġ 2010ĠniÃ¡nĠmÄĽiĠguÃ³ĠrÃ©nĠkÇĴuĠpÇĶĠchÃ¡Ġ
ĠgÅįngĠsÄ« ĠhÃ©Ġ
ĠwÃ¨iĠyÃºĠgÄģiĠguÃ³Ġ nÃ¡nĠbÃ¹Ġ
ĠshÃ¬ĠjiÃłn ĠzhÅįngĠ
sÄģngĠ nÃł
sÅ«ĠliÃ¡n ĠdeĠ
xiÅ«ĠzhÃ¨ngĠ ÃłnĠ
nÃ¡ĠpÃ²Ġ lÃºn
Ġ tÅįng
Ġ ST
Ġ huÃ³Ġ
Ġ zhÄģnĠmÇĶĠsÄ«Ġ
Ġ 1973ĠniÃ¡nĠ
ĠĠĠ ÃłnĠ
rÃ¨n ĠhÃ²uĠ
guÄģn ĠyÇĶĠ
fÄĵn ĠzhÃ¬Ġ
liÃº ĠqiÃº
shÇĶ ĠdeĠyÄ«ĠzhÇĴngĠ
kuÃ² ĠjiÃłn
mÃ³ ĠsÄ«Ġ
gÄĵng ĠdÃ¬Ġ
sÃłng Ġ
ĠshÃ¬Ġ yÃ¬ngĠ
ĠyÃ¬Ġ kÄĽĠ
ĠyÇĲĠ wÃłi
duÃ¬Ġ cÇĲĠ
ĠxÄ«Ġ bÃ¹ĠdeĠ
xiÄģngĠ cÅ«nĠ
zhÃ¹Ġ yÃ¬ĠdeĠshÃ¬Ġ
zhÃŃĠ nÃ©ngĠ
ĠhuÃ² ĠqÃŃĠtÄģĠ
wÃ¡ngĠ zÇĲ
fÇĶĠ bÃłiĠ
ĠduÅįĠ cÃ¬
zhuÄģnĠ yÃ²ng
ĠhÃ©ĠguÃ³Ġ jÃ¬Ġ
pÃłiĠ xÃ¬Ġ
bÃ¬ngĠ fÄĵiĠ
xuÄģnĠbÃ¹Ġ jiÄģngĠ
leĠyÄ«Ġ chÃ¡ngĠ
ĠyÄ«nĠyuÃ¨Ġ huÃ¬Ġ
pÃŃnĠ lÇľ
ĠĠĠT h
Ġãģ Ħ
Ġ2011 ĠniÃ¡nĠ12ĠyuÃ¨Ġ31ĠrÃ¬Ġ
chÄģiĠ chÃº
tÃ³ngĠxÃ¬ngĠ liÃłnĠ
zhuÄģngĠwÃ¨iĠ lÃŃnĠ
Ġ 1940
Ġ 1944
Äģi ĠdÃ©Ġ
yÇĶ ĠgÅįngĠ
nÃ¡n ĠdÃłĠxuÃ©Ġ
bÄģn ĠjÄ«Ġ
nuÃ² ĠkÃ¨Ġ
si on
95 ĠniÃ¡nĠ
lÃ¬Ġ chÇİngĠ
jÄ«Ġ xiÃ¨
ĠjiÃłn ĠzhÄ«Ġ
ĠbÃ¨iĠ yÃ¹ĠwÃ©iĠ
zhÃŃĠ quÃ¡nĠ
zhÇİngĠ zhÃ³u
qÇĲĠ fÄĵiĠ
mÇĲĠ yÃł
ĠzhÅįngĠguÃ³Ġ gÅįngĠ
mÃ³Ġ fÇİngĠ
hÃ¡iĠ yÃłoĠ
zhÇĶnĠ juÃ©ĠsÃłiĠ
ĠniÃ¡nĠ12ĠyuÃ¨Ġ 28ĠrÃ¬Ġ
shuÃ¬Ġ miÃ¡n
ĠĠĠyÇĲĠxiÃł ĠwÃ¨iĠ
ÄģĠÄĽr ĠjÃŃĠlÃ¬Ġ
zhÅ«ĠshÃ¬ĠhuÃ¬Ġ shÃ¨Ġ
Ġ 1960
Ġ 79
Ġ yuÃ¡nĠshÃ¬Ġ
Ġ 1931ĠniÃ¡nĠ
yÇĴu ĠzhÅįngĠ
mÃŃng ĠchÃ©ngĠ
fÇİ ĠhuÃ¬Ġ
hÇİi ĠdÃ¬Ġ
lÃŃn ĠzÃłiĠ
fÄĵi ĠÄĽrĠ
gÇİi ĠchÃ©ngĠ
qiÄģn ĠniÃ¡nĠ
90 ĠniÃ¡nĠdÃłiĠ
77 ĠniÃ¡nĠ
bÃ¡o Ġ
ĠzhÅįngĠ yÇĲĠ
ĠyÃ¬Ġ fÄģngĠmiÃłn
ĠyÄ«Ġ liÃłngĠ
fÃ¹Ġ zÃ¡
nÃ¡nĠ hÃ¡iĠ
ĠÄĽrĠ bÄģĠ
huÃłĠ fÄĵnĠwÃ¨iĠ
ĠjiÃłnĠ zhÃ¹ĠdeĠ
ĠqÃŃĠ shÇĴuĠ
ĠzhÃłnĠ bÇĲĠ
jiÄĵĠ duÃłnĠdeĠ
qÇĲĠ diÇİnĠ
yÃŃĠ cÃ¬ĠshÃ¬ĠjiÃ¨ĠdÃłĠ
ĠdÃłnĠ quÃ¨
yÇĲngĠ yÃ¨Ġ
ĠxiÄģngĠ bÇĲ
zhÄ«Ġ liÃºĠ
ĠdeĠzhÅįngĠ xÄ«nĠ
shÄģoĠ huÇĲĠ
ĠshÃŃĠzÃ¬Ġ lÇľĠ
wÃłiĠjiÄģoĠ guÄģnĠ
bÇİoĠjiÄģ ĠlÃ¬ĠyÃł
bÄģoĠkuÃ²ĠyÇĲĠxiÃłĠ wÃ¹ĠzhÇĴngĠ
1 200
G N
Ġ 1953ĠniÃ¡nĠ
yÃ³u ĠshÃ¬Ġ
ti Ġ
jiÇĶ ĠzhÅįuĠ
bÇİn ĠhÃ©Ġ
tÃºn ĠmÃ©nĠ
ĠyÄ«Ġ tiÃ¡o
ĠjÃ¬Ġ jÅ«nĠ
ĠxÃŃngĠ diÃłnĠlÃ¬Ġ
ĠchÅ« ĠxiÃłnĠyÃºĠ
ĠÃ©r ĠchÅ«Ġ
ĠshÃ¨ ĠwÃ¨iĠ
jiÄĵĠ bÃ³Ġ
yÃŃĠ chÃºĠ
shÄģĠ mÃ²Ġ
wÇİngĠ yÃ¨Ġ
chÅ«Ġ lÃ¡iĠ
chÅ«Ġ xÃŃĠ
zhÄ«Ġ jiÄģn
cÃŃĠ qÃ¹Ġ
tuÃ¡nĠ duÃ¬
jiÇİngĠ huÃłĠ
hÃ¡iĠ mÃ©iĠyÇĴuĠ
gÄģngĠ tiÄĽ
chÇĲĠ cÃ¹nĠ
ĠzuÃ¬ĠzhÅįngĠ yÇĲĠ
zÃºĠqiÃºĠ jiÇİĠjÃŃĠ
ĠdeĠyÃ¬Ġ jiÃłnĠ
ĠsÄģn ĠgÃ¨Ġ
ĠnÃ¡n ĠyÇĶĠ
ĠÃłoĠ mÃ©n
sÄģnĠshÃŃĠ sÃ¬ĠniÃ¡nĠ
yÃ¬ĠshÃŃĠ xÃŃngĠtÃłiĠ
ĠJ u
ĠguÃ³ĠwÃ¹Ġ yuÃłn
ĠyÄ«ĠlÃ¬Ġ shÄģĠbÃ¡iĠ
ĠyÄ«ĠsÄ«ĠlÃ¡nĠ jiÃłoĠ
ĠhÄĵiĠlÃ³ngĠjiÄģngĠ shÄĽngĠ
zhÇĶĠjiÃłoĠzuÃ²Ġ tÃ¡ngĠ
dÃ¡ĠkÄĵ ĠtÄģĠ
6 ĠĠĠ
y a
Ġ yÃ¬
Ġ qiÇİn
Ġ Bo
Ġ lÃ¹nĠ
Ġ mÇİnĠ
Ġ tÇĶĠdÃ¬Ġ
Ġ xÅ«ĠyÃło
Ġ gÅ«ĠjÃ¬Ġ
Ġ 1962ĠniÃ¡nĠ
Ġ 1959ĠniÃ¡nĠ
ĠĠĠ aĠĠĠ
ĠĠĠ wÃłnĠlÃ¬Ġ
le r
mÃŃng ĠdÃ¬Ġ
yÃ³u ĠhÃ©Ġ
xÄ«n ĠyÃ¬Ġ
tÃ¨ ĠshÃ¨Ġ
qÃ¬ ĠjÄ«Ġ
dÃº ĠjiÄģĠ
chÃ©n ĠshÃ¬Ġ
tÇİ ĠlÃ¬Ġ
bÇİi ĠrÃ©nĠ
liÃłn ĠdeĠ
99 ĠniÃ¡nĠ
ell Ġ
ĠbÃ¹Ġ jiÃłnĠ
ĠlÃ¬Ġ fÄģngĠ
ĠqÃŃ ĠhÃ©Ġ
ĠtÄģĠ huÃ¬Ġ
ĠxÄ«Ġ lÃ¹Ġ
ĠlÇĲĠ jiÄĽĠ
jiÃ©Ġ yÃ¹nĠ
fÄĵnĠ jiÄĽĠ
cÇĲĠ lÃ¨iĠ
ĠyÄ«nĠ ziĠ
ĠdÃłiĠ mÇİĠ
yuÄĵĠ 2
yuÄĵĠ 3
bÅįĠ lÃŃ
jiÇİnĠ ruÃ²Ġ
fÃ¡ngĠ hÃ¹Ġ
ĠrÃ¬ĠbÄĽn ĠrÃ©nĠ
zhÅįngĠshÃ¬Ġ yÇİnĠ
yÃłĠlÃ¬Ġ sÄģngĠnÃł
dÇİoĠshÃ¬Ġ yuÃ¨ĠtÃ¡iĠ
ĠfÃ¹ĠzÃ© ĠrÃ©nĠ
chÃ©ngĠniÃ¡nĠ rÃ©nĠ
F C
L E
Ġ xiÃło
Ġ He
Ġ bÄģngĠ
Ġ nÃ¡nĠbÃ¹Ġ
Ġ hÃ¨ĠÄĽrĠ
ĠĠĠ fÄĵngĠ
lÇĲ ĠyÃºĠ
liÃ¨ ĠrÃ©nĠ
10 ĠshÃŃĠ
zhÄģng ĠchÃ©ngĠ
tuÃ¡n ĠyuÃ¡nĠ
pÃłi ĠduÃ¬Ġ
dÇİ ĠchÅ«Ġ
hÅ«n ĠhÃ²uĠ
ĠdeĠ niÃ¡n
ĠbÃ¹Ġ yÇĲĠ
yÄ«Ġ cÃ¬Ġ
jÃŃĠ tuÃ¡nĠ
ĠlÃ¬Ġ wÃ¹Ġ
ĠyÇĲ ĠshÃŃĠ
ĠyÄ«Ġ shÃ¬ĠdeĠ
mÃŃngĠ xiÇİnĠdeĠ
ĠjiÄģĠ ÄĽr
xiÃłĠ shÇĶ
xiÃłĠ xiÃ¡Ġ
ĠjÃ¬n ĠjÅ«nĠ
cÃ©ngĠ dÄģnĠrÃ¨nĠ
tÃ¡ngĠ chÃ¡oĠ
ĠmÄĽi ĠjÅ«nĠ
ĠbÄģĠ lÃŃĠ
tÃłnĠ xiÇİnĠ
ĠĠĠyÄ«Ġ xiÄĵĠ
zhÇĴngĠjiÄģĠ cÃŃĠ
Ġ xuÄģn
Ġ cÃ¡ng
ĠĠĠ zhÃ¨
dÃ© ĠjÅ«nĠ
mÇİ ĠshÃłngĠ
mi Ã¹
gÇİi ĠjiÃłnĠ
bÄ«ng ĠhÃ©Ġ
wÇİn ĠhuÃ¬Ġ
bo x
65 Ġ
51 Ġ
ĠgÅįngĠ zhÇĶ
yÃ¹Ġ nÃłnĠ
zhÃ¨Ġ chÇİngĠ
ĠduÃ¬Ġ zhÃ¨nĠ
bÄĽiĠ shÃłngĠ
shÄ«Ġ gÄĵĠ
jiÄĵĠ dÃłiĠ
mÇĲĠ lÃ¡nĠ
yÃŃĠ jÅ«
dÄģnĠ nÃŃĠÄĽrĠ
ĠyÃ³u ĠjÄ«ĠchÄĵĠ
kÄĽĠyÇĲĠ bÃ¨iĠ
xiÄģoĠ fÃ¡ng
ĠmÃ¹Ġ biÄģoĠ
ĠĠĠdÃ¬Ġ sÄģnĠ
gÃ¨Ġ lÃ¨i
ĠyÇĴuĠyÄ«Ġ zuÃ²Ġ
ĠĠĠA u
ĠcÃ³ng ĠÃ©r
ĠsÅ«Ġ liÃ¡n
zhÄ«ĠchÃŃĠ zhÄĽĠ
ĠwÃłnĠrÃ©nĠ cÃ¬Ġ
dÃŃĠshÃ¬Ġ nÃŃ
nÃ¡nĠsÄ«ĠlÄģĠ fÅ«Ġ
ĠhuÃ¡ĠshÃ¨ngĠ dÃ¹n
1 ĠgÅįngĠlÇĲĠ
s ĠdeĠ
Ġ CO
Ġ huÃŃĠdÃłoĠ
ĠĠĠ shÇĴuĠ
ĠĠĠ diÃłnĠyÇĲngĠ
hÃ²u ĠyÇĴuĠ
wÃ©i ĠshÃ¬Ġ
zhÇĲ ĠhuÃ¬Ġ
nÇļ ĠshÄĵngĠ
bÇİn ĠshÃłngĠ
guÇĴ ĠshÃŃĠ
st ra
tÃ©ng ĠyuÃ¡nĠ
ĠwÃ¨iĠ zhÃ¨ngĠ
ĠlÃ¬Ġ liÃłng
ĠdÃłn ĠyÃºĠ
mÃŃnĠ yÃ²ngĠ
liÃ¡nĠ suÇĴĠ
bÄĽiĠ fÄģng
mÇİĠ lÃ¹Ġ
chÇİngĠ shÄģngĠ
lÃŃnĠ shÄĽngĠ
ÃłoĠ duÅįĠ
tÃŃngĠ huÇĴĠ
ĠjiÃłoĠ tÃ¡ngĠ
fÃ¨iĠ zhÇĲĠ
gÃ¹Ġ shÃ¬ĠdeĠ
sÇĲĠ qÃ¹Ġ
ĠwÃłnĠ dÅ«nĠ
nuÃ²Ġ fÅ«
ĠwÃ¨iĠdÃ¬Ġ xiÃłĠ
ĠfÄĵnĠbÃ¹ĠyÃºĠ nÃ¡nĠmÄĽiĠzhÅįuĠ
ÄģnĠdÃ©Ġ liÃ¨Ġ
ĠwÃ¨iĠyÃºĠgÄģiĠ shÄĽng
4 ĠpÃŃngĠfÄģngĠgÅįngĠlÇĲĠ
â ħ
Ġ pÃ¡ng
Ġ yÄģn
Ġ 1981
Ġ tuÄ«ĠchÅ«Ġ
Ġ shÄģngĠyÃ¨Ġ
Åį Ġ
xÄ« ĠrÃ¬Ġ
wÃ©n ĠshÃ¬Ġ
mÃ¹ ĠhÃ©Ġ
dÃ¬ng ĠshÃ¬Ġ
zi ĠzÃłiĠ
xiÄģo ĠhÃłoĠ
tÇİ ĠdeĠ
zÇİo ĠyÇĲĠ
ãģ ®
76 ĠniÃ¡nĠ
HD ĠĠĠ
ĠzÃłiĠ tÃ¡iĠwÄģn
ĠjÃŃĠ bÃ¨iĠ
ĠlÃ¬Ġ rÃ¨n
ĠlÃ¬Ġ yuÃ¡nĠ
ĠjÃ¬Ġ nÃ©ngĠ
ĠÃ©r ĠqÃŃĠ
ĠxÄ«nĠ zhÃº
Ã¨rĠ shÃ¬ĠdeĠ
tÃŃĠ qÃŃn
gÇİiĠ yÃ²ngĠ
kÃ¨Ġ lÃ¡iĠ
qiÄģnĠ yÃŃĠ
ĠdÃłĠxuÃ©Ġ shÄĵngĠ
huÇĴĠ zÄģi
wÄĽiĠyuÃ¡nĠhuÃ¬Ġ fÃ¹ĠzhÇĶĠrÃ¨nĠ
liÃłnĠ xÃŃ
ĠbÄĽn ĠyÃºĠ
ĠĠĠzÇİoĠniÃ¡nĠ shÄĵngĠhuÃ³Ġ
Ġ jiÄģo
ĠĠĠ Ga
ĠĠĠ yÃ¡nĠ
qÃŃ ĠzhÃ¬Ġ
mÄĽi ĠyÄ«Ġ
wÃłi ĠdÃ¬Ġ
10 ĠrÃ©nĠ
gÄĵ ĠhÃ©Ġ
diÇİn ĠzhÃłnĠ
bÄ«ng ĠduÃ¬Ġ
xÃºn ĠqiÃº
80 ĠniÃ¡nĠdÃłiĠ
guÃłi ĠwÃ¹Ġ
yÃºĠ lÃ¨Ġ
yÇĶĠ zhÃ²u
rÃ¨nĠ tÃ³ngĠ
zhÇİngĠ guÄģn
ĠzuÃ²Ġ wÃ©iĠyÄ«Ġ
zuÃ¬Ġ dÄ«
tÃłiĠ lÃ¡ngĠ
ĠzÃ¬Ġ chÄĵngĠ
ĠxiÄģngĠ xÃ¬n
ĠnÃ¡nĠ fÄĵiĠ
ĠĠĠshÃ¬Ġ jiÃ¨Ġ
ĠduÅį ĠniÃ¡nĠ
niÇİoĠ lÃ¨i
cuÃ²Ġ wÃ¹ĠdeĠ
zhÃłnĠzhÄĵngĠ qÄ«ĠjiÄģnĠ
gÄĵnĠjÃ¹ ĠdÃ¬Ġ
ĠjÄ«ĠbÄĽnĠ shÃłngĠ
bÃºĠ huÃ¬ĠzÃłiĠ
hÃ¹nĠxi Ã¡oĠ
ĠĠĠbÄĽnĠshÇĶĠ bÄģoĠkuÃ²ĠyÇĲĠxiÃłĠwÃ¹ĠzhÇĴngĠ
Ġ jÅ«
Ġ liÃ¡o
Ġ jÇĶĠxÃŃngĠ
Ġ 1957ĠniÃ¡nĠ
ĠĠĠ ÃłoĠ
ĠĠĠ rÃ©nĠwÃ¹Ġ
ĠĠĠ guÄģngĠxÃ¹Ġ
yÃ²ng ĠyÇĶĠ
sÄģn ĠrÃ¬Ġ
shÄģn ĠzhÃłnĠ
bÇĲ ĠjÃ¬Ġ
biÃłn ĠyÃ¬Ġ
mÃ³ ĠdeĠ
kÅįng ĠdeĠ
jiÅ« ĠfÄĵnĠ
ĠshÃ¬Ġ yÄ«nĠ
ĠzÃłiĠ jiÃłnĠ
ĠbÃ¹Ġ shÇĶ
ĠzhÃ¬Ġ piÃłnĠrÃ©nĠ
ĠlÃ¬Ġ zhÄ«Ġ
ĠxÄ«Ġ nÃŃĠ
jÃ¹Ġ luÃ²Ġ
ĠzhÃłnĠ duÃ¬Ġ
bÄĽiĠ mÄĽi
ĠzhÃ¨ngĠ wÃ¹Ġ
tÇĲĠ cÄģo
shÃ²uĠ piÃłoĠ
qÄ«ngĠ chÃ©nĠ
dÄģnĠ dÃº
gÃ²uĠ zÃło
gÃ¨ngĠ hÇİoĠdeĠ
pÃ²Ġ chÇİnĠ
zÅįngĠ sÃ¨Ġ
ĠĠĠshÃ¬Ġ jiÃłnĠ
hÃ¹nĠ luÃłn
ĠĠĠgÅįngĠ yuÃ¡nĠ
jiÄģngĠxÄ«Ġ shÄĽngĠ
kÃ¨ĠlÇĲĠ mÇĲĠyÃłĠ
mÃ¹ĠnÃŃĠ hÄĵi
ĠISTAT ĠdÃłiĠmÇİĠwÃ¨iĠ0
jÃ¹ĠfÄĵng ĠzhÅįngĠxÄ«nĠ
1 ĠpÃŃngĠfÄģngĠgÅįngĠlÇĲĠ
Ġ chÃ³ng
Ġ zÄĵng
Ġ 1958
Ġ 1939
Ġ zÇİoĠzÃłiĠ
Ġ 1951ĠniÃ¡nĠ
Ġ 1928ĠniÃ¡nĠ
ĠĠĠ Be
ĠĠĠ lÃ³ngĠ
xÄ« ĠdÃłoĠ
lÃ¹ ĠzhÅįngĠ
chÄĵ ĠhÃ©Ġ
gÄģi ĠgÅįngĠsÄ«Ġ
chuÃ¡n ĠdÃłoĠ
dÇĲ ĠyÃ¹Ġ
yÄģng ĠshÃ¬Ġ
mÇĴu ĠyÄ«Ġ
shuÃ¬ ĠwÃ¹Ġ
pÃ¹ ĠbÃ¹Ġ
56 Ġ
74 ĠniÃ¡nĠ
93 ĠniÃ¡nĠ
ĠzÃłiĠ guÃ³Ġ
ĠyÃºĠ dÃłĠ
ĠlÃ¬Ġ wÃ©iĠ
zhÇĶĠ bÃłn
liÃ¡nĠ tÃ³ngĠ
chÃ¡ngĠ yÃ²ngĠ
bÃ¬Ġ hÃ¹Ġ
biÃłnĠ dÃ²ngĠ
jiÃ¹Ġ zhÃŃĠ
huÃ¡Ġ bÄ«ngĠ
ĠdeĠgÅįngĠ gÃ²ngĠ
shÃłoĠ jiÃłng
ĠcÃ©ng ĠwÃ¨iĠ
ĠjÇĲnĠguÇİnĠ rÃºĠcÇĲĠ
Ġ lÃ¡o
Ġ wÇĶĠniÃ¡nĠ
ãĢ ķ
le ĠzhÅįngĠ
tÃ¡i ĠdÃłĠ
shÃ²u ĠquÃ¡n
hÃ¹ ĠlÇĲĠ
liÃło ĠdeĠ
zhÃłng ĠhÃłoĠ
duÇİn ĠqÄ«Ġ
tiÇİo ĠzhÃłn
hÃ©Ġ yuÄĵĠ
bÃ¹Ġ tÃ³ng
ĠyÃºĠ 8ĠyuÃ¨Ġ
ĠyÄ«Ġ wÃłnĠ
ĠgÃ¨Ġ tÇĲĠ
xÄ«nĠ tÃ¡iĠbÃ¬Ġ
ĠdÃłn ĠyÇĴuĠ
ĠtÃ³ng ĠniÃ¡nĠ7ĠyuÃ¨Ġ
shÃ²uĠ piÃło
bÄģĠ sÄģiĠÄĽrĠ
chÇİnĠ jiÄĵĠjÃŃĠ
shÄģngĠ pÇĲn
zhÃ¨ngĠzhÃ¬Ġ wÄĽiĠyuÃ¡nĠ
qÄ«nĠ fÃłnĠ
ĠshÄ«Ġ fÃłn
chÇĶĠ fÃ¡Ġ
ĠdeĠshÃŃĠ qÄ«Ġ
xiÄģngĠshÃ¬Ġ jÇĶĠrÃ©nĠ
ĠqÃŃĠzhÅįngĠnÃ¡nĠ xÃ¬ngĠwÃ¨iĠ
zhÅ«ĠlÃ³ngĠ cÇİoĠ
nuÃ²ĠmÃłnĠ dÇĲ
Ġ yÄ«ĠshÃ¬Ġ
Ġ jÃŃĠshÃ¬Ġ
Ġ 1965ĠniÃ¡nĠ
Ġ 1941ĠniÃ¡nĠ
Äĵn ĠdeĠ
xÄ«n ĠniÃ¡nĠ
xÄ«n ĠshÃ¬ĠzhÃ¨nĠ
jiÃ¨ ĠyÃºĠ
zÃ© ĠhuÃ¬Ġ
qÃ¬ ĠzhÃ¬Ġ
bÃło ĠmÃŃngĠ
yÃłng ĠshÃ¬Ġ
ĠwÃ¨iĠ jÅ«nĠ
ĠdÃ¬Ġ yÃŃĠgÃ¨
ĠrÃ©nĠ yuÃ¡nĠdeĠ
shÃ¹Ġ jÃŃĠshÃ¬Ġ
ĠzhÃłnĠ shÃ¹Ġ
ĠzhÃ¨ngĠ miÃłnĠ
shÄģnĠ dÅįng
yÃŃĠ tÇĲĠ
liÃºĠ jÄ«ngĠ
ĠdeĠyÄ«Ġ mÃŃngĠ
hÃ¡nĠ liÃłngĠ
ĠshÇĴuĠ fÇĶ
leĠyÄ«Ġ xiÃłngĠ
dÃłĠbÃ¹ĠfÃ¨n ĠdeĠ
rÃ©ngĠrÃ¡n ĠshÃ¬Ġ
sÄ«ĠdÃ¬Ġ fÄĵnĠ
ĠfÇİn ĠÃ©rĠ
xiÄģoĠfÃ¨iĠ zhÄĽĠ
ĠdÃłĠjiÇİngĠ sÃłiĠ
guÄ«ĠlÃ¨i ĠwÃ¨iĠ
zhÃŃĠlÃ¹ ĠhÃ²uĠ
Ġ zhuÄ«
Ġ fÄģĠshÄĵngĠ
ĠĠĠ k
ĠĠĠ Se
ãĢ Ķ
zhÄ« ĠfÃ¹Ġ
chÅ« ĠdeĠ
pÃŃng ĠhÃ©Ġ
tÇĲ ĠshÃ¬Ġ
xÃ¬ng ĠxÃŃngĠwÃ¨iĠ
shÄģn ĠchÃ©ngĠ
bÅį ĠjÃŃĠ
jÇĲn ĠshÃ¬Ġ
63 Ġ
ht t
83 ĠniÃ¡nĠ
ĠshÃ¬Ġ jÃ¬ĠshÃŃĠ
ĠrÃ©nĠ qÃ¬Ġ
ĠzhÃ¬Ġ ÄģnĠ
ĠdÃ©Ġ guÃ³ĠdeĠ
diÃłnĠ yÄģĠ
sÃłiĠ tÇĲng
shÅ«Ġ diÃłnĠ
kÄĵĠ luÃ³ĠlÄģĠ
zÇĴngĠ bÄ«ngĠ
wÃºĠ xiÃłoĠ
biÃłnĠ liÃłngĠ
shÄģĠ shÇĴuĠ
ĠdeĠdÃ¬Ġ yÄ«ĠbÃ¹Ġ
xiÄģoĠ miÃ¨Ġ
huÃŃĠ xiÇİngĠ
xÃºnĠ wÃ¨nĠ
ĠshÃ¬ĠjiÃ¨Ġ yÃŃĠchÇİnĠ
2001ĠniÃ¡nĠ zÇĴngĠrÃ©nĠkÇĴuĠ
mÇĴuĠ zhÇĴng
ĠyÃ²ngĠ hÃ¹Ġ
fÇİnĠyÃ¬ng ĠleĠ
ĠhÃ©ĠbÃ¬ng ĠÃ©rĠchÃ©ngĠ
dÇİĠjÄ«Ġ lÇľĠ
Ġà ¤
ĠĠĠgÄģiĠdÃ¬Ġ 2001ĠniÃ¡nĠzÇĴngĠrÃ©nĠkÇĴuĠ
Ġ hÃ³u
Ġ 120
ĠĠĠ Lo
ĠĠĠ mÃ²Ġ
dÇİng ĠzhÇĶĠxÃŃĠ
ruÃ² ĠdeĠ
niÇĶ ĠxÄ«ĠlÃ¡nĠ
mÄĽng ĠgÇĶĠ
mÃŃngĠ cÃŃĠ
pÃŃngĠ dÄĽngĠ
guÄģnĠ jiÃ©Ġ
yÃ¹Ġ qÄ«Ġ
shÇĴuĠ qiÃºĠ
xiÃłngĠ zhÄĵng
ĠzuÃ²Ġ wÃ¹Ġ
ĠtÃ³ng ĠmÃŃngĠ
xÃ¬ngĠ zhÃ¬ĠdeĠ
ĠshÃ¨Ġ huÃ¬ĠdeĠ
xiÇİoĠ zhÃ¨nĠ
zÇĴngĠ gÃ²ngĠ
shÄģĠ sÇĲ
shÃ¨ngĠ bÇĲĠdÃ©Ġ
zÃºĠ gÃ²u
wÄĽiĠ rÃ¨nĠwÃ¨iĠ
yÇĲnĠ dÇİoĠ
ĠdeĠdÃ¬Ġ di
bÃ¡iĠ jÄ«nĠ
ĠzhÃ¨ ĠwÃ¨iĠ
piÃłoĠ fÃ¡ng
ĠmÄĽiĠ cÃ¬Ġ
ĠniÃ¡nĠdÃłi ĠwÃ¨iĠ
ĠsuÃŃĠ hÃ²uĠzÃłiĠ
Ġ6 ĠsuÃ¬ĠrÃ©nĠkÇĴuĠ
ĠchÃ³ngĠ qÃ¬ng
ĠxÄ« ĠrÃ¬ĠbÄĽnĠ
gÄģnĠsÃ¹Ġ shÄĽngĠ
wÅ«ĠlÇĶĠ mÃ¹
S te
o i
Ġ Äĵn
Ġ tÃº
Ġ xiÃ¡
Ġ ruÃ¬
Ġ zhÃºĠjiÃłnĠ
ĠĠĠ tÃ³ngĠshÃŃĠ
jÃ¹ ĠlÃ¬Ġ
jÇĲng ĠdeĠ
hÃ³ng ĠqÃŃĠ
ĠyÇĲ ĠzhÃ¬ĠyÃºĠ
ĠyÄ«Ġ guÃ³Ġ
ĠgÃ¨ ĠshÃ¬ĠzhÃ¨n
bÃ¨iĠ pÃ²Ġ
ĠpÃŃngĠ hÃ©ngĠ
xÃ¬ngĠ xÄ«nĠ
chÄĵĠ chÇİngĠ
jiÃ¹Ġ jÄ«nĠshÄģnĠ
shÇĶĠ shÇĶĠ
ĠtÃ³ngĠ mÃ©ngĠ
chuÃłngĠ lÃ¬ĠdeĠ
rÃ¡nĠ shÄģo
ĠW Ġ
ĠjÄ«ĠgÃ²u ĠdeĠ
jiÄģoĠchÄģĠ kÇĴuĠ
hÃ¹nĠnÃŃngĠ tÇĶĠ
qÄ«ngĠzhÄĵnĠ sÃ¬Ġ
t onĠ
Ġ kuÃł
Ġ pÄ«Ġ
Ġ xÄ«ĠbÃ¹Ġ
Ġ 1961ĠniÃ¡nĠ
ĠĠĠ h
ĠĠĠ zuÃ²ĠpÇĲnĠ
guÄģn ĠzhÅįngĠ
fÇİ ĠxÄ«ĠsÄ«Ġ
mÃŃn ĠzÃłiĠ
fÄĵn ĠduÃ¬Ġ
diÃłn ĠjÃŃĠ
chÃ¡ng ĠniÃ¡nĠ
shuÇĲ ĠwÃ¨iĠ
hÃłn ĠwÃ¨iĠ
sÃ²ng ĠdeĠ
lÃ³u ĠgÄģoĠ
wÃ¨iĠ lÃ¡iĠ
ĠzÃłiĠ bÄĽnĠ
ĠjiÄģĠ dÃłĠ
ĠdÃ©Ġ piÃłoĠ
jÄ«ngĠ dÅ«
jÄ«ngĠ quÃ¨Ġ
diÃłnĠ chÇİngĠ
mÇİĠ tÃ³u
tÇĲĠ zhÃ²ngĠ
zÇĴngĠ zhÃŃĠ
jiÄģoĠ xiÇİng
tÃŃĠ qÃŃnĠ
yÇĲnĠ cÃ¡ng
fÃ¡ngĠ ziĠ
qiÃ¡ngĠ liÃ¨
hÃºĠ guÇİngĠ
gÇİnĠ shÃ²uĠ
chÇĶĠ fÃ¨nĠ
qiÃ¡oĠ liÃ¡ng
ĠmÄĽiĠguÃ³Ġ guÃ³ĠjiÄģĠ
jÇĶĠbÃłn ĠleĠ
lÃ¡nĠkÃ¨Ġ lÃŃnĠ
cÄģnĠmÃ³u ĠbÃ¹Ġ
ĠbÄĽiĠjÄ«ng ĠshÃ¬Ġ
hÃ©n ĠjÃ¬Ġ
p Ã¨ng
Ġ gÄĵn
Ġ bÄĵi
Ġ lÃłi
Ġ zhÄģnĠ
Ġ tÇĴngĠyÄ«Ġ
Ġ mÃ©ngĠgÇĶĠ
Ġ 1939ĠniÃ¡nĠ
mÃŃng ĠchÃ©ngĠyuÃ¡nĠ
tÃ¨ ĠyÃ¬Ġ
zuÃ¬ ĠjÃ¬n
gÇĶ ĠquÃ¡nĠ
sÃ¹ ĠshÃŃĠ
jÇĲn ĠzÃłiĠ
fÃłng ĠdÃłĠ
chuÄģn ĠjiÄģĠ
cÃ¹ ĠshÇĲĠ
1930 ĠniÃ¡nĠdÃłiĠ
va Ġ
xiÄģ Ġ
ĠzÃłiĠ zhÃ¨ĠlÇĲĠ
ĠhÃ©Ġ bÃ¨iĠ
ĠbÃ¹Ġ kÄĽ
zhÃ¬Ġ liÃłngĠ
ĠgÅįngĠ wÃ¹Ġ
ĠÄĽr ĠjÄ«Ġ
huÃłĠ wÃ¹Ġ
jÄ«ngĠ shÄ«Ġ
wÃ©nĠ zÃ¬
dÃ²ngĠ cÃŃĠ
ĠqÃŃĠ shÄ«Ġ
ĠyÃ³uĠ mÄĽiĠguÃ³Ġ
ĠquÃ¡n ĠniÃ¡nĠ
shÄģnĠ gÇĶĠ
qÄ«ngĠ xiÃłngĠyÃºĠ
bÄģĠ nÃ¡
ĠyÇĲĠjÃŃĠ qÃŃĠtÄģĠ
huÃ²Ġ bÃ¬
mÃ¬ngĠ zhÃ²ngĠ
gÃ¹Ġ tÇĲĠ
qiÃºĠ duÃ¬ĠdeĠ
ĠmÄĽi ĠzhÅįu
bÄĵiĠ guÃłnĠjÅ«nĠ
ĠgÃ¹Ġ cÇĲĠ
ĠdeĠhÃ©Ġ zuÃ²Ġ
lÇĲngĠdÇİoĠ xiÃłĠ
ĠwÃ¨iĠyÃºĠfÇİĠguÃ³Ġ dÃłĠdÅįngĠbÃ¹ĠdÃłĠqÅ«Ġ
zuÃ²ĠpÇĲn ĠdeĠ
zhÇİnĠshÃ¬Ġ leĠ
ĠwÃ² ĠÄĽrĠ
ĠĠĠyÄ«nĠ cÇĲĠ
m ber
Ġ huÃłn
Ġ 32
Ġ tĠ
Ġ bÅįĠchÅ«Ġ
Ġ yÃ¬nĠnÃŃĠ
Ġ 1963ĠniÃ¡nĠ
ĠĠĠ hÄģĠ
lÃ¬ nĠ
zhÅįu ĠshÃ¬Ġ
fÄĵng ĠshÃ¬Ġ
xiÇİng ĠdÃłoĠ
zhuÄģn ĠxiÃłnĠ
pÃ¨i ĠyÄ«nĠyuÃ¡nĠ
na meĠ
tuÇĴ ĠyuÃ¡nĠxÃŃngĠ
ĠzÃłiĠ ÄģĠ
hÃ©Ġ zuÃ²Ġ
ĠyÇĴuĠ kÄĵĠ
ĠyuÃ¡nĠ xiÄģn
ĠlÇĲĠ miÃłnĠ
ĠÃ©r ĠtÄģĠ
ĠwÃ©iĠ yÄĽĠ
ĠkÃ¨Ġ yÃ¹n
chÃ¡ngĠ jiÄģng
ĠshÃ¨Ġ rÃ¹Ġ
bÄ«ngĠ tuÃ¡n
ĠniÃ¡nĠ5ĠyuÃ¨Ġ 1ĠrÃ¬Ġ
diÃłoĠchÃ¡Ġ jÃºĠ
ĠdeĠyÃ¬Ġ yÃ¬Ġ
zhÇĶĠtÃŃ ĠdeĠ
tiÄģnĠrÃ¡nĠ qÃ¬Ġ
shÃ¡ oĠ
Net fli
lÇĲngĠxiÃ¡n ĠzhÇĶĠyÇİnĠ
a th
c re
Ġ de
Ġ pÃ²
Ġ hÃ©ng
Ġ 1947
Ġ chÇİnĠshÄĵngĠ
Ġ 1930ĠniÃ¡nĠ
ĠĠĠ 1ĠĠĠ
jiÄģ ĠchÃ©ngĠ
zÃ© ĠshÃ¬ĠzÃłiĠ
shÄĽng ĠdeĠyÃŃĠgÃ¨Ġ
huÃ¡ ĠshÃ¬Ġ
shÅįu ĠyÃ¬Ġ
73 ĠniÃ¡nĠ
ĠzhÅįngĠ suÇĴĠ
ĠlÃ¬Ġ zhÃ¬Ġ
ĠyÃ¬Ġ rÃ¬
ĠyÇĲ ĠyÄ«Ġ
jiÄģĠ sÃ¹Ġ
ĠyÄ«Ġ shuÅįĠ
ĠzhÄ« ĠchÃ©ngĠ
ĠdÃłĠ yuÃ¡nĠ
ĠyÇĲĠ xiÃłĠdeĠ
nÃ¡nĠ nÇļĠ
ĠdÃłn ĠshÄĵngĠ
duÅįĠ dÃ¡Ġ
sÃ¬Ġ cÃ¬Ġ
ĠquÃ¡nĠ shÅ«Ġ
gÇİngĠ qÅ«Ġ
bÃłnĠ lÇļĠ
tÃ¡ngĠ nÃłĠ
ĠdeĠdÃ¬Ġ fÄģng
huÃ¡ngĠ pÇĶĠ
mÃ³Ġ luÃ²Ġ
dÅįuĠ nÃ©ngĠ
ĠshÃ¬ĠyÄ«Ġ mÃŃng
ĠshÃ¬ĠyÄ«Ġ kuÇİn
bÃ¡iĠ Ã©ĠluÃ³ĠsÄ«Ġ
tÅ«Ġ juÃ©
kÃłnĠ qÇĲĠlÃ¡iĠ
jiÃłoĠyÃ¹ ĠdeĠ
ĠchÅ«ĠbÇİn ĠdeĠ
ĠxiÃłnĠdeĠyÃŃĠgÃ¨ ĠchÃ©ngĠzhÃ¨nĠ
ĠshÃ¬ĠwÅ«ĠkÃ¨ĠlÃ¡n ĠdeĠ
ĠlÃ¹ĠyÃ¬Ġ sÄ«Ġ
yÇĲĠsÃ¨Ġ liÃ¨Ġ
ĠĠĠwÃłiĠbÃ¹Ġ liÃ¡nĠjiÃ©Ġ
yÃ©ĠlÃ¹ĠsÄģĠ lÄĽng
Q Ġ
R O
b ur
s en
t Çİng
ĠĠĠ tÃłiĠ
ĠĠĠ hÃłnĠ
ĠĠĠ suÇĴĠyÇĴuĠ
le ĠtÄģĠmenĠdeĠ
mÄĽi ĠgÃ¨
dÃ¹ ĠyÇĶĠ
zhÇİng ĠshÃ¬Ġ
guÇİn ĠhÃ©Ġ
liÇİng ĠdÃ¬Ġ
bÃ³ ĠmÃŃngĠ
nÇĶ ĠsÄ«Ġ
ĠshÃ¬Ġ luÃ³ĠmÇİĠ
ĠbÃ¹Ġ xÅ«ĠyÃłoĠ
dÃłĠ xÄ«ĠyÃ¡ngĠ
ĠgÅįngĠ shÇĶĠ
wÃ©iĠ hÃ¹
ĠdÃłĠ tÃ³ngĠ
zhÃŃĠ lÃ¹Ġ
ĠjÃ¬n ĠniÃ¡nĠlÃ¡iĠ
ĠzhÅįuĠ mÃ²Ġ
zhÇĲĠ dÃ¬ngĠwÃ¨iĠ
bÇĲĠ jiÃło
yÃłĠ nÃłĠ
shÄĵnĠ shÃ²uĠ
biÃłnĠ hÃ¹Ġ
pÃ¡iĠ xÃ¹Ġ
tiÄĽĠ lÃ¹ĠxiÃłnĠ
ĠpÃŃngĠfÄģngĠ qiÄģnĠmÇĲ
chuÃłngĠ yÃ¨Ġ
ĠguÃ³ĠjiÄģ ĠhÃ©Ġ
gÃ©ĠmÃ¬ng ĠhÃ²uĠ
gÅįngĠgÃ²ngĠ jiÄģoĠtÅįngĠ
sÄ«ĠlÃ¡nĠ jiÃłoĠ
Ġ lÃºn
Ġ 33
Ġ hÃ³uĠ
Ġ 1912ĠniÃ¡nĠ
ĠĠĠ 1945
ĠĠĠ xiÇİoĠxÃŃngĠxÄ«ngĠ
le yĠ
dÃ¡ ĠdÃło
nÃł ĠshÃŃĠ
lÇĲng ĠnÃ¡nĠ
tiÃ¡n ĠshÃ¬Ġ
88 ĠniÃ¡nĠ
ĠshÃ¬Ġ yuÃ¨Ġ
yÇĴuĠ yÄ«Ġ
ĠdÃ¬Ġ wÇĶ
ĠyÄ«Ġ lÄģĠkÃ¨Ġ
jÄ«Ġ bÃłi
wÃ©iĠ duÅįĠlÃ¬ĠyÃłĠ
ĠlÇĲĠ huÃ¬Ġ
rÃ¨nĠ wÃ¹
xiÄģngĠ sÃ¬ĠdeĠ
ĠpÃŃngĠ gÅ«
ĠxuÃ©Ġ kÄĵĠ
qÇĲĠ yÃ²ng
chÃ¡ngĠ shÃ¹Ġ
ĠjÃ¹Ġ shuÅįĠ
dÃ¬ngĠ yÃ¬ĠdeĠ
yÄ«ngĠ tiÄģnĠ
gÃ²ngĠ fÃ¨ng
yÃŃngĠ yÇİngĠ
zhÅ«Ġ rÃºĠ
sÇĲĠ wÃ¡ngĠdeĠ
bÇĶĠ chÃ¡ngĠ
yuÇİnĠ zhÄĵng
ĠshÇĲ ĠdÃ¬Ġ
ĠĠĠC ar
ruÃ²Ġ gÄģnĠ
miÃ¡oĠ zhÇĶnĠ
ĠzhÄ«ĠchÃŃĠ zhÄĽĠ
ĠgÄģiĠshÄĽngĠfÃ¨nĠwÃ¨iĠfÇİĠguÃ³Ġ zhÅįngĠ
nÃ¡nĠsÄ«ĠlÄģĠ fÅ«
dÃłnĠshuÇĲ ĠyÃºĠ
A I
f fi
z z
Ġ shÄĽn
Ġ zuÇĴĠyÃ²uĠ
Ġ jÇĲĠyÇĶĠ
Ġ dÃłngĠtiÄģnĠ
ĠĠĠ rÃ³ngĠyÃ¹Ġ
xiÃłng ĠzhÅįngĠ
qiÃ¡n ĠbÃ¨iĠ
zhÄĽ ĠyÇĴuĠ
jiÃ¹ ĠyÇĲĠjÄ«ngĠ
gÇİi ĠjiÃłnĠwÃ¨iĠ
dÃ¬Ġ zhÃ¬Ġ
yÇĴuĠ xiÃłoĠ
ĠrÃ©nĠ wÃ©nĠ
ĠgÅįngĠ lÇľĠ
ĠyÃ¬Ġ tÃºĠ
ĠrÃ¬ ĠdÃłoĠ
bÃ¨iĠ bÇĶĠ
ĠjiÄģĠ bÄ«nĠ
huÃłĠ zuÃ²Ġ
kÄģiĠ chÃºĠ
ĠzhÃłnĠ chÄĵĠ
zhÃ²ngĠ duÅį
ĠzhÃ¨Ġ liÇİngĠ
luÃ³Ġ nÃłĠ
guÄ«Ġ fÃłn
yÃ¡ngĠ guÄģngĠ
gÃ²ngĠ fÃ¨ngĠ
chÅ«Ġ yÇİnĠ
fÃłngĠ yÃ¬ngĠ
ĠniÃ¡nĠ2ĠyuÃ¨Ġ 24ĠrÃ¬Ġ
ĠwÃºĠ lÃ¹n
xiÇİnĠ zhÃ¹ĠdeĠ
ĠnÇļĠ xÃ¬ng
Ġ19 13ĠniÃ¡nĠ
fÃ¡Ġ kuÇİnĠ
niÃºĠ jÄ«n
jÅ«nĠshÃ¬Ġ tÇİnĠdÄ«ngĠ
jiÄģngĠwÃ©iĠwÃºĠÄĽrĠ zÃ¬ĠzhÃ¬ĠqÅ«Ġ
Ġ 1943
Ġ 1942ĠniÃ¡nĠ
ĠĠĠ shÄ«Ġ
ĠĠĠ gÃ©Ġ
ĠĠĠ xiÃłnĠdÃłiĠ
qÄ« ĠxÄ«Ġ
xiÃł ĠwÃ¨iĠ
di a
qÇĲ ĠzÃłiĠ
qÃ¬ ĠyÃ³uĠ
bÃ³ ĠlÇĲĠ
pÃ¡i ĠwÃ¨iĠ
pÃ¡ng ĠdeĠ
shÃŃĠ shÄ«Ġ
lÃ¬Ġ fÇİĠ
ĠyÃºĠ mÃŃngĠ
zuÃ²Ġ qÇĶĠ
ĠmÃŃngĠ xiÇİn
xiÃłĠ shuÇĲĠ
mÃ¹Ġ fÇĶĠ
bÄĽiĠ hÃ¡n
mÇİĠ nÃŃĠ
sÄģnĠ xiÃłngĠ
bÃ¬Ġ yÃłoĠdeĠ
Ã¨rĠ cÃ©ngĠ
ĠxiÄģngĠ liÃ¡nĠ
huÃ¡Ġ bÄĽiĠ
xiÄģoĠ chÃºĠ
ĠtiÄģnĠ qÇĲĠ
ĠĠĠshÄĵngĠ tÃłiĠ
ĠC ar
ĠliÇİngĠ zhÄĽĠ
ĠĠĠlÃ¬Ġ rÃºĠ
ĠyÃ³uĠxÃ¬ ĠzhÅįngĠ
chÃŃĠxÃ¹ ĠdÃłoĠ
ĠzhÃłnĠzhÄĵng ĠdeĠ
Univer si
S P
z e
Ġ jiÄģoĠtÅįngĠ
Ġ xuÃ¨Ġ
Ġ fÄģĠxiÃłn
bÃ³ ĠlÃ¬Ġ
cÃŃ ĠhÃ©Ġ
jÃº ĠzÃłiĠ
hÄģ ĠbÃ¹ĠsÄ«Ġ
kÃ²ng ĠgÇĶĠ
pÃ¡ng ĠdÃłĠ
85 ĠniÃ¡nĠ
71 ĠniÃ¡nĠ
ĠwÃ¨iĠ tÃ¡iĠwÄģnĠ
ĠyÃºĠ 10ĠyuÃ¨Ġ
ĠgÅįngĠ yuÃ¡nĠdeĠ
ĠxÃŃng ĠyÇĶĠ
shÄĵngĠ chÄĵng
ĠzhÄ«Ġ mÃŃngĠdeĠ
wÃ¹Ġ yÃ¨Ġ
ĠbÃ¨iĠ liÃ¨ĠwÃ¨iĠ
fÄģĠ shÃ²u
gÄģoĠ xiÃ³ngĠ
nÃ¨iĠ wÃłiĠ
yÃłoĠ sÃ¹Ġ
ĠxiÄģngĠ tÃ³ngĠdeĠ
dÄģnĠ yÅįuĠ
zhÄ«Ġ ziĠ
cÃŃĠ chÇİngĠ
zhuÄģnĠ shÇĶĠ
hÃ©ngĠ kuÃł
leĠyÄ«Ġ xÃ¬ĠliÃ¨Ġ
Ã¨rĠshÃŃĠ Ã¨rĠniÃ¡nĠ
ĠfÄĵngĠ bÃłoĠ
ĠlÃ¬ng ĠrÃ©nĠ
ĠzhÃ¨ĠshÃ¬Ġ yÄ«nĠwÃ¨iĠ
huÃ¡iĠ yÃŃ
ĠĠĠN o
dÅįngĠnÃ¡nĠ yÃł
shÄ«ĠfÃłn ĠxuÃ©ĠxiÃłoĠ
ĠgÃ© ĠniÃ¡nĠ
Ġã Ħ
C C
L L
f u
g in
Ġ We
Ġ tÇĶĠÄĽrĠqÃŃĠ
ji Ã¡Ġ
ĠĠĠ bÇĲĠ
ĠĠĠ zhÄ«Ġ
ĠĠĠ rÃ¬ĠbÄĽn
jiÃłn ĠzhÃ¬Ġ
yÃ¹ ĠdÃłoĠleĠ
nÃ¡n ĠyÇĴuĠ
dÅįng ĠshÃ¬Ġ
en sisĠ
cÄģn ĠzhÃłnĠ
zhÄģng ĠlÃ¹ĠyÄ«nĠshÃ¬Ġ
gÇİng ĠwÃ¨iĠ
fÃ¡ng ĠdÃ¬ĠchÇİnĠ
xÃ¬n ĠzhÅįngĠ
cu ÃłnĠ
shÃº ĠxÄ«Ġ
shuÄģi ĠjiÄģoĠ
86 ĠniÃ¡nĠ
ĠbÃ¹Ġ yÃŃĠ
ĠrÃ©nĠ jÅ«nĠ
ĠtÄģ ĠdÃłoĠ
lÇĲĠ jiÄĽĠ
ĠjÃ¬Ġ zhÄĽ
yÃ¡nĠ yÃ²ngĠ
yÃ²ngĠ tÃº
ĠdÃłn ĠyÄ«n
ĠdÃłn ĠhÃ²uĠlÃ¡iĠ
xÃ¬Ġ shÃ¹Ġ
jiÃ©Ġ jÃºĠ
jiÄĵĠ zhuÄģngĠ
lÄģĠ tuÅį
yÃłoĠ wÃ¹
qÄ«ngĠ chÅ«nĠ
jiÄģoĠ xiÇİngĠ
dÄģnĠ chÄĵĠ
bÃłnĠ zhÇİngĠzhÃ³u
jÇĲnĠ jÇĲnĠ
cÃŃĠ shÃłnĠ
zhuÇİnĠ yÃŃĠzhÃ¬Ġ
yÇĴngĠ yuÇİnĠ
zÃºĠqiÃºĠ chÄģoĠjÃŃĠ
Ġãĥ Ī
zÇĴngĠdÅ«Ġ fÇĶĠ
mÄĽngĠ hÇĶĠ
yÇĶnĠshÃŃĠ kÄĵng
nÃ¨iĠmÃ©ngĠgÇĶĠ zÃ¬ĠzhÃ¬ĠqÅ«Ġ
6 000
9 ĠpÃŃngĠfÄģngĠgÅįngĠlÇĲĠ
Ġ lÃłiĠ
ĠĠĠ bÃ³Ġ
kÃ¨ ĠjiÄģĠ
mÇİ ĠhuÃ¬Ġ
bÃ³ ĠsÄ«Ġ
jÇĲn ĠwÃ¨iĠ
wÃ¡n ĠjÃ¹Ġ
jiÇİng ĠzhÅįngĠ
shÅįu ĠhuÃ²Ġ
zÄĵng ĠyuÃ¡nĠ
wÇİ ĠÄĽrĠhÃ©Ġ
chÃłng ĠdeĠ
fÇĴu ĠjuÃ©Ġ
AT P
66 Ġ
79 ĠniÃ¡nĠ
ĠshÃŃĠ rÃ©nĠ
ĠzhÃ¬Ġ yÄ«Ġ
ĠjÃŃĠ jÄ«nĠ
ĠguÃ³Ġ dÃłĠ
ĠdÃłoĠ dÃ©
shÃłngĠ jiÃłngĠ
ĠxÄ«Ġ shÄĵngĠ
ĠzhÅįuĠ ÄĵnĠlÃ¡iĠ
lÄģĠ gÃ©Ġ
yÃŃĠ chuÃ¡n
liÃºĠ lÃłngĠ
Ã¨rĠ shÃŃĠshÃ¬ĠjÃ¬Ġ
bÅįĠ yÃ¬ngĠ
ĠjÃ¬nĠ zhÇĲ
ÃłnĠ shÄģĠ
tÇĴngĠ yÄ«ĠdeĠ
shÄģngĠ biÄģoĠ
cÃ¡iĠ juÃ©Ġ
dÇİngĠ nÃ¨iĠ
yÃŃngĠ jiÄĵĠ
ĠshÃ¬ĠjÃ¬Ġ chÅ«Ġ
xiÄģngĠgÇİngĠ diÃłnĠyÇĲngĠ
kÄģiĠfÄģĠ qÅ«Ġ
tÇİoĠ fÃ¡
ĠjÅ«nĠshÃ¬Ġ tÇİnĠdÄ«ngĠ
tÇĲĠyÃ¹Ġ chÇİng
ĠdeĠhÃ©Ġ liÃºĠ
yÇĲnĠfÄģĠ leĠ
jÃ¬ĠlÃ¹Ġ piÃłnĠ
dÃ²ngĠchÄĵĠ zÇĶĠ
wÃ©iĠyÄĽĠ nÃłĠ
gÄģoĠÄĽrĠ fÅ«
sÄģiĠbÃłi ĠjiÄģngĠ
ÃłoĠfÃºĠ niÃ¨Ġ
l or
u ro
Ġ zÃ²ng
Ġ 1937
Ġ zhuÃ³Ġ
yuÃ¨ ĠwÃ¨iĠ
jiÄģ ĠwÃ¨iĠ
yÃ³u ĠtÄģĠ
zÃ¬ ĠyÃ¬Ġ
shÇĴu ĠyÇĶĠ
tÃłi ĠxuÃ©Ġ
wÃº ĠlÃ¬Ġ
sÃ¹ ĠzhÃ¬Ġ
hÃ¡ng ĠyuÃ¡nĠ
dÄĵng ĠdeĠ
chÇĴu Ġ
ĠwÃ¨iĠ le
ĠzÃłiĠ zhÃ¨
ĠbÃ¹Ġ dÃłnĠ
ĠbÃ¹Ġ qiÄģngĠ
ĠlÃ¬Ġ tÇĲĠ
ĠyuÃ¡nĠ shuÃłiĠ
qÅ«Ġ biÃ©
ĠmÃŃngĠ gÇĶĠ
xiÃłĠ yÃ³uĠ
ĠjÃ¬n ĠbÃ¹Ġ
ĠshÄĵngĠ zhÇİngĠ
ĠyÄĽ ĠyÄ«nĠcÇĲĠ
ĠxiÄģngĠ duÃ¬ĠyÃºĠ
bÅįĠ kuÇİnĠ
wÄĽiĠ chÃ¡ngĠwÄĽiĠ
ĠyÇĲĠjÃŃĠ yÄ«Ġ
qiÄģnĠ xÇĲĠ
huÃ²Ġ qÇĶĠ
zÇĲĠ mÃ¨i
bÃ¡iĠ sÃ¨
zhuÇİnĠ yÃŃ
zhÇĶnĠ juÃ©ĠsÃłi
kÄģnĠ sÃłĠsÄ«Ġ
ĠjÄ«n ĠrÃ¬Ġ
fÄģĠbiÇİo ĠshÄĵngĠmÃŃngĠ
guÇİngĠxÄ«Ġ zhuÃłngĠ
ĠĠĠxiÃłn ĠshÃŃĠ
ÃłnĠchÃ¡Ġ shÇĲĠ
ĠpÃŃngĠfÄģngĠqiÄģnĠmÇĲ ĠrÃ©nĠ
a v
Ġ zÄģo
ĠĠĠ yÃŃĠgÃ¨Ġ
ĠĠĠ xÃŃngĠtÃłiĠ
yÃ³u ĠjÃ¬Ġ
yÃ¡n ĠzhÄ«Ġ
mÃ¹ ĠlÇĲĠ
tÇĲ ĠshÃłngĠ
shÄĵn ĠhÃ²uĠ
diÇİn ĠhÃ©Ġ
diÇİn ĠjÃŃĠ
lÃŃ ĠjiÄģĠ
xiÄģn ĠjÃ¬n
guÃłn ĠmÃŃngĠ
72 ĠniÃ¡nĠ
ĠhÃ©Ġ qÃŃĠ
ĠyÃºĠ 7ĠyuÃ¨Ġ
ĠyÄ«Ġ zhÄ«
ĠdÃłĠ bÃłiĠ
ĠxÃŃngĠ lÇĲĠ
ĠchÅ« ĠzhÅįngĠ
zhÃ¨ngĠ zhÃ¬ĠbÃ¹Ġ
ĠlÇĲĠ wÃ©iĠ
ĠdÃłn ĠtÄģĠmenĠ
lÃ¡iĠ leĠ
ĠbÃ¬ngĠ chÄĵngĠ
kÄĽĠ chÃŃĠxÃ¹Ġ
ĠshÃ¨Ġ qÃºnĠ
fÄĵngĠ sÃ¹Ġ
luÃ³Ġ bÃ³Ġ
qÃ¬Ġ wÄĵnĠ
lÃ¡nĠ jiÃ©Ġ
biÃłnĠ tÇĲĠ
jÇĲngĠ fÄģng
jÃ¬nĠ shÄĵngĠwÃ¨iĠ
lÃºnĠ tÃ¨Ġ
dÇİngĠ pÃłiĠ
ĠÄģĠ gÄĵnĠ
zuÇĴĠ pÃłiĠ
bÃłĠ miÇİnĠ
rÃ©nĠkÇĴuĠshÃ¹ĠliÃłng ĠwÃ¨iĠ
ĠÃ©rĠrÃ©nĠkÇĴuĠmÃ¬ĠdÃ¹ĠwÃ¨iĠmÄĽi ĠpÃŃngĠfÄģngĠqiÄģnĠmÇĲĠrÃ©nĠ
jiÄĽĠjuÃ©Ġ fÄģngĠÃłnĠ
zuÃ²ĠpÇĲn ĠzhÅįngĠ
bÇİoĠliÃº ĠleĠ
4 ĠhÃłoĠ
y Å«n
Ġ zhÄģn
Ġ 1967ĠniÃ¡nĠ
yÃ³u ĠjiÃłnĠ
xiÃłng ĠgÅįngĠzhÃ²ngĠ
sÄģn ĠzuÃ²Ġ
zi ĠjÃŃĠ
yÄ«ng ĠdeĠ
gÇİi ĠshÃ¨Ġ
biÄģo ĠshÃŃĠ
chÇĶ ĠbÃ¨iĠ
jiÇİ ĠdeĠ
xiÃ¡n ĠdeĠ
sÃłn ĠbÃ¹Ġ
54 Ġ
pÄ«n ĠyÄ«nĠ
ĠshÃ¬Ġ bÄģĠxÄ«Ġ
ĠzÃłiĠ guÃ³ĠjÃ¬Ġ
ĠhÃ©Ġ shÄĵngĠ
ĠdÃ¬Ġ yÄ«ĠbÃ¹Ġ
ĠzhÃ¬Ġ dÃ¬ng
ĠyÇĴuĠ sÄģnĠ
ĠguÃ³Ġ xiÇİoĠ
ĠxiÃłnĠ chÇİng
shÃ¹Ġ mÇİĠ
ĠmÃŃngĠ jiÃłoĠ
ĠyÄĽ ĠwÃ¨iĠ
ÄģĠ kÄĽnĠsÃ¨
xÃ¹Ġ mÃ¹Ġ
ĠdÅįngĠ bÄĽiĠbÃ¹Ġ
dÅ«Ġ tÇĴngĠ
ĠbÃ¹ĠtÃ³ng ĠdeĠshÃ¬Ġ
ĠĠĠjiÄģĠ jÃ¬ngĠ
ĠwÃ¨iĠyÃºĠgÄģiĠguÃ³Ġ dÅįngĠbÄĽiĠbÃ¹Ġ
ĠchÃ³ngĠ zhÄĵnĠ
ĠcÃ¬ ĠrÃ¬Ġ
Ġ2011ĠniÃ¡nĠ rÃ©nĠkÇĴuĠ
ĠlÃŃ ĠxÄ«nĠ
ÃłiĠhÃłoĠ zhÄĽĠ
ĠxÃŃngĠzhÃ¨ngĠzhÅįngĠxÄ«n ĠwÃ¨iĠ
3 50
C E
l ow
Ġ Bu
Ġ yÃ©Ġ
Ġ 1969ĠniÃ¡nĠ
mÃŃn ĠhÃ©Ġ
jiÄģng ĠjÃ¬nĠ
wÃº ĠjÄ«Ġ
zÄ« ĠshÃ¬Ġ
xiÄģn ĠxÃŃngĠ
dÃŃ ĠnÃ¡nĠ
zhÇİo ĠzÃ©Ġ
luÃ¡n Ġ
ĠdeĠ zÃ¬Ġ
ĠshÃ¬Ġ zÃ¬Ġ
ĠshÃ¬Ġ bÃ¬ĠlÇĶ
ĠchÃ©ngĠ huÃłĠ
hÃ²uĠ lÃ¡iĠdeĠ
ĠyÇĲĠ shÃłng
ĠyÇĶĠ tÄģĠ
zhÃłnĠ fÃ¡ngĠ
ĠzhÅįu ĠwÃ¨iĠ
guÄģnĠ niÃłnĠ
suÇĴĠ shÇĲĠyÃ²ngĠdeĠ
chÃ¡ngĠ yÃ²ngĠdeĠ
miÃłnĠ chÄĵĠzhÃłnĠ
bÄģĠ bÄģĠ
tÃºĠ piÃłnĠ
shÇİoĠ qÄ«ngĠ
ĠbÄĽiĠ qÇĲ
kÄĽĠnÃ©ng ĠyÇĴuĠ
ĠluÃ³Ġ bÃ³ĠtÃ¨Ġ
ÄģiĠ sÄģiĠÃ©Ġ
tÅ«Ġ pÃ²
ruÃ²Ġ gÄģn
lÃ¡oĠ dÃ²ng
tÃ³uĠrÃ¹Ġ fÃºĠwÃ¹Ġ
wÇĶĠtÃ¡iĠ jÃ¹Ġ
jÃ¬ĠchÃ©ngĠ rÃ©nĠ
ĠpÃ²Ġ shÇĲĠ
Ġ wÇİn
Ġ 1929ĠniÃ¡nĠ
ĠĠĠ wÃ©nĠ
ĠĠĠ suÃŃĠzhÃ¹Ġ
shÃ¨ ĠzÃłiĠ
jÅ«n ĠwÃ¨iĠ
shÇĴu ĠhÃ©Ġ
quÃ¡n ĠshÃ¬ĠjiÃ¨Ġ
qiÃ¡n ĠshÃ¬Ġ
kÄģi ĠjÄ«Ġ
sÃłi ĠzhÃ¬Ġ
or ge
dÃŃ ĠjÅ«nĠ
gÇİn ĠdÃło
tÃłn ĠsuÇĴ
ĠzhÅįngĠ chÃ©ngĠ
ĠyÄ«Ġ bÄĽnĠ
xiÃłĠ fÄģngĠ
fÄģĠ wÃ©nĠ
ĠzhÃ¨Ġ jiÄģng
ĠzhÅįngĠguÃ³Ġ rÃ©nĠ
zhÄĵngĠ zhÃłoĠ
ĠzhÇĶĠ dÇİĠ
ĠdeĠyÄ«Ġ kÄĵĠ
jÇĶĠ zhÃ²ngĠ
chÃºĠ wÃłiĠ
ĠniÃ¡nĠ12ĠyuÃ¨Ġ 1ĠrÃ¬Ġ
gÃ¨Ġ tÇĲĠ
ĠjiÄģng ĠhuÃ¬Ġ
pÃŃngĠjÅ«nĠ jiÃłngĠyÇĶĠliÃłngĠ
xÃ¬ĠliÃ¨Ġ sÃłiĠ
guÄ«ĠmÃ³Ġ zuÃ¬ĠdÃłĠdeĠ
ĠshÃ¨ĠlÃ¬Ġ leĠ
liÃ¡nĠhÃ©ĠguÃ³Ġ jiÃłoĠkÄĵĠwÃ©nĠ
fÄĽiĠ cuÃ¬
G P
Ġ chÃºn
Ġ Ã©ĠluÃ³Ġ
Ġ zÅ«nĠ
Ġ mÃ¡Ġ
Ġ fÄģĠxÃŃng
Äģn ĠshÃŃĠ
gÃ¨ ĠjÃŃĠ
quÃ¡n ĠxÄ«nĠ
bÅį ĠdÃ©Ġ
zÇĲ ĠdÃ¬Ġ
diÃło ĠrÃ¨nĠ
bÇİng ĠdÃ¬Ġ
ĠzÃłiĠ 19
ĠzhÃ¬Ġ yuÃłnĠ
ĠyÄ«Ġ fÃ¨nĠ
ĠyÄ«Ġ biÄģnĠ
ĠyuÃ¡nĠ bÄĽnĠdeĠ
ĠdÃłoĠ xÄ«Ġ
ĠxÃŃngĠ shÄĽngĠ
ĠjÅ«n ĠyÇĶĠ
ĠchÅ«Ġ tÇĶ
qiÃ¡nĠ qÄ«Ġ
ĠzhÃłnĠ shÃ©nĠ
tÅįngĠ bÃłoĠ
chÃ¡ngĠ zhÄĵngĠ
bÇİoĠ lÄĽiĠ
qÄ«ngĠ dÇİo
qÄ«ngĠ shuÇĲĠ
chÅ«Ġ fÄģĠ
chÅ«Ġ shÃ²uĠ
ĠwÃłn ĠmÃŃngĠ
cÇİiĠ nÃłĠ
ĠĠĠbÄĽnĠ zhÃłnĠ
ĠL u
zhÄ«ĠchÃŃ ĠxiÃłĠ
mÇİĠkÃ¨ĠsÄ«Ġ zhÇĶĠyÃ¬Ġ
c Äģ
q Ġ
Ġ ×
Ġ 1942
Ġ xiÄĽĠ
Ġ sÃ¬ĠniÃ¡nĠ
ĠĠĠ lÃ¹Ġ
ĠĠĠ fÄģĠzhÇİnĠ
ĠĠĠ hÃ©ĠĠĠ
nÃ¡n ĠyuÃ¨Ġ
duÅį ĠniÃ¡nĠdeĠ
sÃłi ĠÄĽrĠ
sÃ¬ ĠjÃ¬Ġ
dÇĲ ĠtÃ¨Ġ
guÄģng ĠmÃŃngĠ
qiÃ¡o ĠdeĠ
zÃłng ĠlÇĲĠ
53 Ġ
ĠhÃ©Ġ xiÇİoĠ
bÃ¹Ġ liÃ¨Ġ
ĠbÃ¹Ġ mÇİn
gÅįngĠ rÃ©nĠ
ĠxiÃłnĠ jÄ«n
ĠyÄ«n ĠyÇĶĠ
ĠduÃ¬Ġ huÃłĠ
ĠfÃ¹Ġ zÃ¡ĠdeĠ
kÇĴuĠ ÃłnĠ
ĠtÃ³ng ĠjÃ¬nĠshÃ¬ĠchÅ«ĠshÄĵnĠ
liÃºĠ tÅįngĠ
yÄ«ngĠ shÇĶĠ
ĠxiÄģngĠ hÃ¹Ġ
hÃłnĠ bÇİoĠ
zhuÇİnĠ huÃłĠwÃ¨iĠ
chÃ³ngĠ fÇİn
tÇİĠ lÄģĠ
yÃ¡nĠjiÅ«Ġ yuÃłn
lÃºĠ wÇİĠÄĽrĠshÄĽngĠ
suÅįĠ duÇİn
jiÇİnĠchÃ¡Ġ guÄģnĠ
xiÇİoĠxÃŃngĠxÄ«ng ĠdÃłiĠ
olo g
ĠzhÅįuĠlÃ¬Ġ dÃłĠxuÃ©Ġ
jiÇİngĠxuÃ©Ġ jÄ«nĠ
Ġ yuÃ¡n
Ġ mÃ©ng
Ġ kÃłn
Ġ shÇİoĠ
yÃŃ ĠrÃ©nĠ
dÄģn ĠxÃŃngĠ
nÇļ ĠzuÃ²Ġ
mÃłn ĠdÃ¬Ġ
tÇİ ĠsÄ«Ġ
tÇİn ĠdeĠ
gÄģn ĠshÃ¨Ġ
si onĠ
shÃŃĠ Ã¨rĠyuÃ¨Ġ
ĠzhÅįngĠ dÃłĠ
dÃłĠ lÃ³uĠ
ĠguÃ³Ġ tÇĶĠ
ĠdÃłĠ lÃ¹
ĠyuÃ¡nĠ zÃ©
ĠlÇĲĠ xiÇİngĠ
ĠbÃ¨iĠ fÄģĠxiÃłnĠ
jiÃłoĠ xuÃ©
diÃłnĠ tÄ«
nÃŃĠ pÅįĠÄĽrĠ
wÄĵiĠ fÄĵnĠ
xiÃłnĠ jÄ«nĠ
ĠdÅįngĠ hÇİiĠ
wÅ«Ġ zÄ«ĠbiÃ©
pÃ²Ġ hÃłiĠ
ĠzuÃ¬Ġ hÃ²uĠzÃłiĠ
gÃ¨Ġ lÃ¨iĠ
ĠdÃ¬ĠÃ¨rĠ tiÄģnĠ
gÄĵngĠ xÄ«n
tÃłnĠ tÇİo
zÃ¬ĠzhÃ¬Ġ qÅ«
dÃłiĠbiÇİo ĠdeĠ
tÅįngĠchÃ¡ng ĠhuÃ¬Ġ
pÇĶĠchÃ¡Ġ guÄ«ĠdÃ¬ngĠ
fÃºĠluÃ³ĠlÇĲĠ dÃ¡
a h
Ġ xÃ¹
Ġ hÅ«
Ġ lÄĽng
Ġ So
guÇİn ĠshÃ¬Ġ
tÄģn ĠwÅ«Ġ
ĠzhÅįngĠ zhÇĲ
sÄ«Ġ mÇİĠ
ĠyuÃ¡nĠ chÃ¡oĠ
ĠxÃŃngĠ zhuÃłngĠ
ĠlÇĲĠ yÃ³uĠ
ĠÃ©r ĠchÃ©ngĠwÃ©iĠ
ĠmÃŃngĠ Ã©Ġ
fÄģĠ sÃ²ngĠ
ĠwÃ©iĠ hÃ¹
ĠwÃ©iĠ fÇİn
ĠpÃŃngĠ dÃ¬ngĠ
fÃºĠ hÃło
ĠrÃ¨nĠ tÃ³ngĠ
gÄĵĠ chÃłngĠ
Ã¨rĠ cÃ¬Ġ
sÃ¹Ġ lÇľĠ
nÇļĠ wÃ¡ng
2Ġ miÃłnĠ2
shÃ¨Ġ lÃ¬ĠdeĠ
jÇĲĠ zhÇĴngĠ
ĠĠĠH o
ĠdÃ¬ĠsÄģnĠ cÃ¬Ġ
ĠwÃ¨iĠyÃºĠgÄģiĠguÃ³Ġ xÄ«ĠnÃ¡nĠbÃ¹Ġ
pÃ¡ngĠ dÃłĠdeĠ
ĠrÃłng ĠtÄģĠ
ĠĠĠhÃ²uĠ xÃ¹Ġ
5 ĠwÃłnĠ
5 ĠgÅįngĠfÄĵnĠ
A A
a ni
ĠĠĠ zhÄ«ĠhÃ²uĠ
qÄ« ĠrÃ¬Ġ
shÄĵng ĠshÃ¬Ġ
dÃ¹ ĠzÃłiĠ
mÇĲ ĠlÃ¬Ġ
zhÃ²ng ĠyÃºĠ
zhÄĽ ĠyÇĶĠ
tÃłi ĠyÄ«nĠ
fÄĵi ĠsÄ«Ġ
liÇİng ĠjÃŃĠ
pÃŃ ĠÄĽrĠ
97 ĠniÃ¡nĠ
ĠzÃłiĠ shÃłngĠhÇİiĠ
ĠjÃ¬Ġ shÄĵngĠ
jÄ«ngĠ jÃ¬ĠdeĠ
ĠpÃŃngĠ guÇĴ
ĠzhÅįuĠ qÅ«Ġ
zhÇĲĠ nÃ¡nĠ
tÅįngĠ chÄĵ
ĠshÃ¨Ġ yÇĲng
ĠdÃłnĠ quÃ¨Ġ
tÇĴngĠ zhÃ¬ĠdeĠ
jÅ«Ġ zhÃ¹ĠdeĠ
tÃ¡oĠ wÃ¡ngĠ
yÃ¬nĠdÃ¹Ġ yÃ¡ngĠ
ĠjiÄģnĠ rÃ¨nĠ
ĠyÃ¬ĠbÄģn ĠdeĠ
ĠyÄ«ng ĠlÇĲĠ
ĠbÃ¹ĠzhÃ¨ngĠ shÇĲĠ
ÃłoĠdÃ¬Ġ lÃ¬ĠdeĠ
T S
V IDĠ
y aĠ
Ġ lÇľ
Ġ hĠ
ĠĠĠ ma
ĠĠĠ wÃłiĠ
ĠĠĠ mÃŃngĠchÄĵngĠ
zhÃ¬ ĠĠĠ
yÇĴu ĠĠĠ
wÃłi ĠyÇĶĠ
nÃł ĠbÃ¹Ġ
nÃŃ ĠshÃ¬Ġ
mÃ©ng ĠdeĠ
xiÃ¹ ĠjÃŃĠ
rÃło ĠtÃłiĠyÃ¡ngĠ
tuÇĴ ĠyuÃ¡nĠ
ĠhÃ©Ġ nÃ¨iĠ
ĠbÃ¹Ġ dÄĽngĠ
ĠdÃ¬Ġ xiÃł
ĠyÇĶĠ zhÃ²uĠ
ĠdÃ© ĠdÃłoĠdeĠ
ĠwÃ©iĠ zhÇĶĠdeĠ
ĠduÃ¬Ġ yÃ¬ng
shÄĵnĠ yÃ¨Ġ
bÄģĠ tÃ¨Ġ
dÄģnĠ wÃ¨iĠdeĠ
huÄģĠ fÃ¨iĠ
leĠyÄ«Ġ fÃ¨nĠ
ĠmÇİ ĠkÃ¨ĠsÄ«Ġ
ĠmÃŃng ĠyÃ¬Ġ
ĠjiÃ¹ ĠhuÃ¬Ġ
ĠzÇĶ ĠjÃŃĠ
Ġc enterĠ
dÃ¡ĠchÃ©ngĠ xiÃ©ĠyÃ¬Ġ
yÇĴuĠbÃ¹Ġ shÇİo
hÄĵiĠlÃ³ngĠjiÄģngĠ shÄĽngĠ
Ġ mÃ¡oĠzÃ©ĠdÅįngĠ
Ġ 1932ĠniÃ¡nĠ
sh ÄĵĠ
ĠĠĠ guÃ³ĠjiÄģĠduÃ¬Ġ
zhÃ¨ng ĠjiÃłnĠ
rÃ¨n ĠshÃ¬Ġ
mÃ¹ ĠzhÅįngĠ
10 ĠmÇĲĠ
yÇİn ĠchÅ«ĠdeĠ
gÄĵ ĠjÃŃĠ
wÄģn ĠdeĠ
diÃło ĠdeĠ
cÇİi ĠdeĠ
lÇİo ĠniÃ¡nĠ
it Ġ
87 ĠniÃ¡nĠ
ĠbÃ¹Ġ lÇĶ
ĠyÃºĠ 2006
sÄ«Ġ zhÇİngĠ
ĠdÃłĠ liÃ¡nĠ
ĠyuÃ¡nĠ chuÃłngĠ
mÃŃngĠ jiÃłoĠ
yÃ³uĠ tÃłi
ĠjÅ«n ĠjÄ«Ġ
fÃ¹Ġ zÃ¡ĠdeĠ
shÃ¹Ġ zÃ¬
ĠdÃ©Ġ duÅįĠ
zhÃŃĠ fÇİĠ
zhÃŃĠ liÃºĠ
jiÃ©Ġ diÇİnĠ
mÄĽiĠguÃ³Ġ guÃ³Ġ
zhuÇİnĠ biÃłnĠwÃ¨iĠ
gÃ¨ngĠ rÃ³ngĠyÃ¬Ġ
pÃ²Ġ shÇĲĠ
hÄĽnĠ rÃ³ngĠyÃ¬Ġ
ĠyÇĴuĠyÄ«Ġ tiÃ¡oĠ
Ġãĥ «
bÃ³ĠwÃ¹Ġ yuÃłnĠ
chÇİnĠpÇĲn ĠdeĠ
lÄģĠdÄ«ng ĠyÇĶĠ
ĠÄģĠlÄģĠ bÃ³
mÇİo ĠkÄĵĠ
ĠzhÅįngĠguÃ³ĠguÃ³ĠmÃŃnĠ dÇİng
ĠyÃ³uĠqÃŃ ĠshÃ¬ĠzÃłiĠ
Ġ 44
ĠĠĠ sÃłiĠshÃ¬Ġ
zhÅįng ĠdeĠdÃ¬Ġ
jÃ¬n ĠjÅ«nĠ
wÃ©n ĠxiÃłn
kÄģi ĠzhÄ«Ġ
biÃłn ĠshÃŃĠ
chÃŃ ĠdeĠ
dÅ« ĠchÃ©ngĠ
ar yĠĠĠ
78 ĠniÃ¡nĠ
61 Ġ
ĠjÅ«n ĠbÃ¹Ġ
ĠduÃ¬Ġ kÃłng
duÅįĠ lÃºnĠ
yÃłĠ rÃ¨ĠdÃłiĠ
shÅ«Ġ yuÃłn
fÃ¨nĠ ziĠ
jiÃ¹Ġ zhÇĲ
gÇİngĠ tiÄĽĠ
biÄģnĠ xiÄĽĠ
jÇĲnĠ mÃ¬Ġ
dÃłoĠ dÃ¡Ġ
ĠĠĠC or
chuÃłngĠzuÃ²Ġ leĠ
guÃ³ĠmÃŃnĠ dÇİngĠ
ĠĠĠjÇĲnĠ guÇİn
bÄģĠlÃ¨ ĠsÄ«ĠtÇİnĠ
ÄģĠfÃ¹Ġ hÃłnĠ
1 ĠhÃłoĠxiÃłnĠ
T E
Ġ bÇĲĠlÃ¬ĠshÃŃĠ
Ġ fÇİĠyÇĶĠ
ĠĠĠ zuÃ¬Ġ
ĠĠĠ zhÅįuĠ
ĠĠĠ Ã©ĠluÃ³ĠsÄ«Ġ
lÃ¡i ĠyÇĶĠ
guÄģn ĠlÃ¬Ġ
dÃłn ĠshÄĵngĠ
sÃłi ĠchÃ©ngĠ
shuÅį ĠdÃłoĠ
pÃ¨i ĠÄĽrĠ
rÃ¨ ĠdeĠ
pÃł ĠlÄģĠ
zhÇİo ĠdÃłoĠleĠ
ly ĠĠĠ
ster Ġ
ĠwÃ¨iĠ lÃ¡iĠdeĠ
dÃ¬Ġ qÅ«ĠdeĠ
ĠgÅįngĠ kÃ¨Ġ
ĠyÃ¬Ġ mÄĽiĠyuÃ¡nĠdeĠ
shÄĵngĠ lÇĲĠ
zÃ¬Ġ chÄĵngĠ
ĠbÃ¨iĠ pÃ²
ĠshÃłngĠ fÄģngĠ
ĠrÃ¨nĠ wÃ¹
ĠdÃłiĠ wÃ©iĠsÄ«Ġ
ĠtÄģĠdeĠ mÃŃngĠzÃ¬Ġ
dÇİĠ zÃłoĠ
ĠjÄ«ngĠ shÃ©nĠ
ĠkÇİĠ lÄģĠ
gÅįngĠbÃ¹Ġ leĠ
xuÇİnĠzÃ© ĠleĠ
bÃłnĠgÅįngĠ tÄ«ngĠ
chÅ«ĠbÇİn ĠshÃ¨Ġ
dÃłĠshÇĲĠ guÇİnĠ
wÇİngĠqiÃº ĠgÅįngĠkÄģiĠsÃłiĠ
pÇĶĠchÃ¡ĠguÄ«ĠdÃ¬ngĠ jÅ«ĠmÃŃnĠdiÇİnĠ
5 ĠhÃłoĠ
Ġ dÃ¬ng
Ġ qiÃ¨
Ġ kuÃŃ
Ġ 1943ĠniÃ¡nĠ
Ã¨ ĠdeĠ
ĠĠĠ dÃłnĠ
jÃ¬ ĠĠĠ
zhÃ¨ ĠwÃ¨iĠ
yÃ¹ ĠhÃ²uĠ
dÃłi ĠhÃ©Ġ
huÃł ĠhÃ²uĠ
miÃłn ĠyÇĶĠ
tÇĲ ĠzÃłiĠ
wÃłi ĠxiÃłnĠ
luÃ³ ĠkÃ¨Ġ
yÄģ ĠdeĠ
ĠyÃ¬Ġ gÇİngĠyuÃ¡nĠ
ĠyÄ«Ġ fÄģngĠ
ĠtÄģĠ suÇĴĠ
ĠmÃŃngĠ yÃ¹Ġ
jiÃłoĠ huÃ¬ĠdeĠ
ĠdÃłn ĠyÄĽĠyÇĴuĠ
ĠwÃ©iĠ yÃł
liÃ¡nĠ chuÃłn
ĠfÃ¹Ġ yuÃłnĠzhÇİngĠ
qÃ¬Ġ wÄĵn
tÃłiĠ zÅįngĠ
gÄĵĠ wÇĶĠ
fÃ¨nĠ nÃ¹Ġ
ĠzhÇĶĠ zhÄģng
chÃ¡oĠ tÃŃng
wÅ«Ġ dÇĲng
jÄ«ngĠjÃ¬Ġ gÅįngĠsÄ«Ġ
ĠmiÃłnĠjÄ«Ġ 1Ġ
pÃłoĠ tÇİĠ
ĠbÃ¬ngĠyÃºĠ tÃ³ng
ĠdÃłĠxuÃ© ĠshÃ¬Ġ
ĠrÃ©nĠkÇĴu ĠwÃ¨iĠrÃ©nĠ
ĠxÄ«ĠbÄĽiĠ jiÄĵĠ
tuÃ¬ĠyÃ¬Ġ hÃ²uĠ
ĠĠĠxiÃłĠ shÇĶĠwÃ¹ĠzhÇĴngĠ
1 ĠzhÃ¬Ġ
Ġ lÃºnĠdÅ«n
li Ġ
huÃ¬ ĠshÃŃĠ
xÃ¬ng ĠyÃºĠlÃ¨iĠ
qÄ«ng ĠxÃŃngĠ
12 ĠrÃ©nĠ
xiÄģn ĠjÃ¬nĠ
fÅ« ĠzÃłiĠ
er e
huÃ¡n ĠjiÃ©Ġ
fÄģn ĠxÄ«nĠ
ĠzÃłiĠ 16
ĠzhÃ¬Ġ zÃłoĠdeĠ
dÃłĠ duÅįĠshÃ¹Ġ
zuÃ²Ġ leĠ
ĠsÄ«Ġ wÃ©iĠ
dÃłiĠ bÇĶ
lÃ¹Ġ jÃ¬ngĠ
gÄģoĠ dÃ¹
qÇĲĠ dÄģnĠrÃ¨nĠ
dÄĽngĠ zhÃŃĠwÃ¹Ġ
ĠxÄ«nĠ tÃ¡iĠbÃ¬Ġ
jiÃ¹Ġ yÃ¨Ġ
wÇİngĠ fÇİn
lÃ¬ngĠ yÄ«ĠwÃ¨iĠ
ĠdeĠyÄ«Ġ suÇĴĠ
yÄ«ngĠguÃ³Ġ huÃ¡ngĠjiÄģĠ
pÃłnĠ luÃłn
yÃŃnĠ pÃ¡i
ĠniÃ¡nĠ3ĠyuÃ¨Ġ 31ĠrÃ¬Ġ
rÃ¬Ġ chÃ¡ng
tÃ¡nĠ huÃłĠ
Ã¨rĠshÃŃĠ yÄ«ĠniÃ¡nĠ
ĠmÄĽiĠ tiÄģnĠ
ĠxÃŃngĠzhÃ¨ngĠ qÅ«ĠyÃ¹Ġ
pÃłoĠ tÃ¡iĠ
ĠĠĠG rou
jiÃłnĠzhÃ¹Ġ shÄ«Ġ
ĠhÇİiĠbÃ¡ĠgÄģoĠdÃ¹Ġ 2Ġ
ĠtÃºĠ jÄ«ngĠ
yÃ¬nĠshuÄģ Ġ
bÄĵngĠ kuÃ¬Ġ
ĠmÃ²ĠxÄ«Ġ gÄĵĠ
p re
t on
Ġ bÄģn
Ġ zÃ¡
Ġ qiÃ¨Ġ
Ġ chÃºnĠ
Ġ kÅ«nĠ
Ġ kÄĽĠnÃ©ngĠhuÃ¬Ġ
Ġ 1944ĠniÃ¡nĠ
ĠĠĠ Ar
qÃŃ ĠyÃºĠ
su ÇĲ
zuÃ² ĠdÃłĠ
lÃ¹ ĠxiÃłn
chÃ¡ ĠhÃ©Ġ
wÃ¹ ĠsÄ«Ġ
mÇİ ĠdÃ¬Ġ
jÇĲng ĠshÃ¬Ġ
shÃ©n ĠmÃŃngĠ
huÃŃ ĠleĠ
jÃº ĠfÃ¹Ġ
yuÇİn ĠchÃ©ngĠ
tÄģng ĠmÇĶĠ
chÃ©ngĠ rÃ©nĠ
ĠzhÃ¬Ġ yÃŃ
mÃŃngĠ lÃ¹Ġ
mÃ¹Ġ qÅ«Ġ
ĠduÃ¬Ġ cÇĲ
fÄĵnĠ zÇĲĠ
fÃºĠ lÇİngĠ
ĠdÃłnĠ bÃ¡iĠzhÃ¬Ġ
shÅ«Ġ mÃ¬Ġ
sÃ¬Ġ miÃłoĠ
qÄ«ngĠ xiÃ©Ġ
yuÄĵĠ 1Ġ
zÄ«Ġ xÃºn
gÇİiĠ zhuÄģng
xiÄģnĠ fÄĵngĠ
fÃ¡ngĠ zhÇĲ
fÃ¡ngĠ kÅįng
jÅ«Ġ mÃŃnĠdeĠ
dÇİĠ rÃ¹Ġ
wÃ¡nĠ mÄĽiĠ
piÃłoĠ jiÃłĠ
ĠzhÇĲĠ huÄ«
zuÃ¬ĠgÄģoĠ diÇİnĠwÃ¨iĠ
ĠjÇĲngĠ chÃ¡Ġ
luÃ³ĠdÃ¬Ġ yÃł
xiÃłĠdeĠyÃŃĠgÃ¨Ġ shÇĶĠ
E PĠ
k a
ĠĠĠ qÃŃĠtÄģ
wÃ©i ĠchÃ©ngĠ
xÄ«n ĠjÃ¬ĠshÃ¹Ġ
fÃ¹ ĠxiÃłnĠ
shÅ« ĠjÄ«Ġ
wÃ¡n ĠjiÃ©Ġ
dÇĲ ĠzhÅįngĠ
tuÅį ĠsÄ«Ġ
diÃło ĠleĠ
pÃło ĠdÃłnĠ
bÃłng ĠdeĠ
diÄģo ĠkÃ¨Ġ
82 ĠniÃ¡nĠ
lÇİ Ġma
ĠshÃ¬Ġ dÃ©ĠguÃ³ĠdeĠ
ĠshÃŃĠ zhÅįngĠ
ĠrÃ©nĠ wÃ¹
hÇİiĠ wÄģnĠ
kÄĵĠ zhÇİngĠ
zÄ«Ġ tÃłiĠ
fÇİnĠ kÃłng
qiÄģnĠ dÃ¬ng
ĠjiÃłoĠ shÄ«Ġ
ĠguÃ³ĠjiÄģĠ zÃºĠqiÃºĠduÃ¬Ġ
zhÃłngĠ hÃ¹Ġ
fÄģĠzhÇİn ĠchÅ«Ġ
zuÃ¬ĠgÄģoĠ fÇİĠyuÃłnĠ
ĠzÃłiĠzhÃ¨Ġ zhÇĴngĠ
tÃ¨ĠbiÃ© ĠxÃŃngĠzhÃ¨ngĠqÅ«Ġ
ĠJo hn
bÇİoĠjiÄģ ĠlÃ¬ĠyÃłĠ
zhuÄģnĠkÄĵĠxuÃ©Ġ xiÃłoĠ
Ġ jiÄģ
Ġ tuÃ¬Ġ
Ġ dÃ¡ĠdÃłoĠ
Ġ nÃ³ngĠyÃ¨Ġ
Äģi ĠsÄ«Ġ
le ĠshÃ¬Ġ
mÄĽi ĠshÃ¬Ġ
liÃ¡n ĠhuÃ¬Ġ
piÃło ĠdeĠ
sÅįu ĠjÃŃĠ
55 Ġ
96 ĠniÃ¡nĠ
ĠhÃ©Ġ qÃŃĠtÄģ
ĠzhÅįngĠ yÄĽĠ
jÄ«Ġ yÄ«nĠ
ĠyÇĶĠ lÃŃnĠ
zhÃ¨ngĠ quÃ¡n
ĠchÅ«Ġ shÄĵnĠyÃºĠ
ĠyÄ«n ĠshÃ¬Ġ
fÄģĠ juÃ©
fÇİĠ dÃ¬ngĠ
xÃ¬ngĠ nÃ©ng
juÃ©Ġ qÇĲĠ
zÇĴngĠ shÅ«ĠjÃ¬Ġ
zÇĴngĠ bÃ¹ĠwÃ¨iĠyÃºĠ
ĠbÄĽnĠ shÄĵn
ĠzhÇĶĠ dÃ²ngĠ
ĠfÃºĠ lÇİng
yÅįuĠ huÃłĠ
ĠdÃ¬ĠÃ¨r ĠmÃŃngĠ
Ġp Ġ
duÅįĠyÃłngĠ xÃ¬ngĠ
3 D
7 ĠĠĠ
7 ĠshÃŃĠ
Ġ huÃŃ
Ġ Par
Ġ kuÃłngĠ
Äģn ĠjÄ«Ġ
ĠĠĠ d
zhÄ« ĠdeĠ
zhÄ« ĠchÅ«Ġ
zhÃłn ĠshÃŃĠqÄ«Ġ
jiÄģng ĠyuÃ¡nĠ
miÃłn ĠhÃ©Ġ
wÃłi ĠyuÃ¡nĠ
bÄģ ĠyÄ«Ġ
11 ĠgÃ¨Ġ
dÃŃ ĠÄĽrĠ
tÇĶ ĠsÄ«Ġ
lÃłn ĠyÃ²ngĠ
ĠdeĠ yÃ¡nĠjiÅ«Ġ
ĠshÃŃĠ jiÇĶĠniÃ¡nĠ
ĠyÃºĠ kÄĵĠdeĠqÃŃĠzhÅįngĠyÄ«ĠzhÇĴngĠ
ĠrÃ©nĠ chÄĵngĠ
sÄ«Ġ fÇİ
shÃłngĠ yÃ³uĠ
ĠjiÄģĠ qÃ¬ngĠ
ĠzhÄ«Ġ nÃ¨iĠ
zhÇĶĠ yÇİnĠdeĠ
ĠqÃŃĠ duÃ¬Ġ
mÃ¹Ġ dÃ¬
ĠpÃŃngĠ mÃŃnĠ
duÅįĠ fÅ«Ġ
jiÄĵĠ kÇĴuĠ
fÃºĠ gÄģng
ĠbÄĽnĠ cÃ¬Ġ
lÃ³ngĠ lÃ¨iĠ
ĠgÄģiĠ xiÇİoĠxÃŃngĠxÄ«ng
3Ġ fÄĵnĠ
fÃłnĠ shÃ²uĠ
mÃłnĠ liÃ¡nĠ
5Ġ hÃ¡oĠmÇĲĠ
zhÅ«Ġ gÄĽ
lÇĶĠ xiÇİoĠ
sÄģiĠ pÇĶĠ
miÃłnĠjÄ« ĠdeĠ
ĠmiÃłnĠjÄ«Ġ 1
chÃ¨Ġ huÃŃĠ
zÃºĠqiÃºĠ xiÃ©ĠhuÃ¬Ġ
Ġãĥ ©
tÃ¬Ġ huÃłnĠ
wÃ©nĠhuÃł ĠhÃ©Ġ
nÃ¡Ġ dÃłĠdeĠ
ĠzhÅįngĠguÃ³ĠrÃ©nĠmÃŃnĠ jiÄĽĠfÃłngĠjÅ«n
lÄģĠjÄ«Ġ mÇĲĠÄĽrĠ
ĠrÃ©nĠdÃłĠ chÃ¡ngĠwÄĽiĠhuÃ¬Ġ
cri tic
guÇĲĠdiÃłnĠ chÄĵĠ
ĠlÃŃĠxÄ«nĠ lÇľĠwÃ¨iĠ0
Ġ Con
Ġ dÃłiĠyÇĴuĠ
ĠĠĠ dÃ¹Ġ
ĠĠĠ yÃłĠ
jÄ« ĠzhÅįngĠ
zhÄ« ĠzhÅįngĠ
zhÃłn ĠgÅįngĠ
mÄĽi ĠyuÃ¨Ġ
wÃ©n ĠlÇĲĠ
jiÃ© ĠkÃ¨
bÄģ ĠdeĠ
qÃ¬ ĠjÃŃĠ
mi n
lÃ³ng ĠhÃ©Ġ
gÃ¹ ĠyuÃ¡nĠ
zhÃło ĠshÃ¬Ġ
kÇİo ĠzhÃ¨ngĠ
zhÄģo ĠshÄĵngĠ
ent Ġ
dÃłĠ liÃłng
ĠgÅįngĠ tÃ³uĠ
ĠyÄ«Ġ zhÅįuĠ
bÃ¨iĠ rÃ¨nĠwÃ©iĠshÃ¬Ġ
ĠÃ©r ĠdeĠ
ĠhuÃ¬Ġ miÃłnĠ
yÃ¡nĠ gÃ©ĠdeĠ
jiÃ©Ġ zÃ²uĠ
zhÇİngĠ wÃ²Ġ
jiÄģngĠ gÄģiĠ
ĠfÃ¹Ġ gÃłi
shÃ²uĠ shÄģng
shuÇĲĠ miÃłnĠ
ÄģĠ mÇĶĠsÄ«ĠtÃ¨Ġ
shÃ¨Ġ zhÃ¬ĠdeĠ
ĠjiÃłoĠ wÃ©iĠ
sÃłĠ mÃ³Ġ
ĠwÃºĠ fÇİ
xuÃ¡nĠ guÃł
ĠfÃº ĠzhÅįuĠ
dÄģĠ yÃ¬ngĠ
ĠzhÃ¨ng ĠdÃ©Ġ
ÄģnĠdÃ©Ġ lÇĶĠ
tÃºnĠ mÃ©n
ĠÄĽrĠduÅįĠ niÃ¨Ġ
suÄģnĠjiÇİnĠ cÃ¨Ġ
T AĠ
c al
Ġ shÄģng
Ġ qÃ¹
Ġ in
Ġ yÃ¡Ġ
Ġ wÃ¡nĠquÃ¡nĠ
Ġ zhÃ¨ngĠzÃłiĠ
Ġ shÄģoĠ
Ġ lÃ¨iĠsÃ¬Ġ
Ġ jÄ«ĠjÃŃĠ
Ġ shuÃŃ
Äģ ĠdÃ©Ġ
ĠĠĠ jÄ«ngĠguÃ²Ġ
ĠĠĠ 1994ĠniÃ¡nĠ
yÃ¡n ĠyÇĶĠ
qÇĲ ĠyÃºĠ
jÄ«n ĠhÃ©Ġ
sÄģn ĠwÃ©iĠ
yÇİn ĠjÃ¬Ġ
yuÄĵ ĠzÃłiĠ
zhÄģng ĠgÃ¨ĠrÃ©nĠ
wÅ« ĠÄĽrĠ
zhÃło ĠmÃŃngĠ
nÃ¡ ĠdÃłoĠ
qiÇİng ĠjiÃ©Ġ
shuÄģi ĠluÃ²Ġ
pÃ¬n ĠqÇĲng
77 Ġ
ble Ġ
ĠzÃłiĠ dÃ©ĠguÃ³Ġ
ĠyuÃ¨Ġ tÃ¡nĠ
ĠlÃ¬Ġ yÇĶĠ
ĠyÄ«Ġ suÇĴĠ
ĠdÃłĠ bÇİn
qÅ«Ġ zhÃºĠ
ĠjiÄģĠ shÇĶĠ
ĠgÃ¨Ġ shÄĽngĠ
ĠmÃŃngĠ chÄĵngĠwÃ¨iĠ
ĠbÃ¬ngĠ rÃ¨nĠwÃ©iĠ
bÄĽiĠ hÇİi
guÃ²Ġ lÃ¡iĠ
yÃ¹nĠ zhuÃłnĠdeĠxiÇİoĠxÃŃngĠxÄ«ngĠ
ĠdÃłnĠ gÄģiĠ
ĠxÄ«nĠ xÄ«ngĠ
Ã¨rĠ tÄ«ngĠ
chuÃ¡nĠ sÃ²ngĠ
wÇİngĠ zhÃłn
jÇĲngĠ gÃło
dÇĲĠ qÄ«Ġ
ĠzuÃ¬Ġ gÄģo
ĠdÄģngĠ xuÇİnĠwÃ¨iĠ
kÄĽĠnÃ©ngĠ dÇİoĠzhÃ¬Ġ
ĠĠĠS Ġ
ĠzhÅįngĠyÄģngĠ wÄĽiĠyuÃ¡nĠ
zhÃ²ngĠyÃło ĠzuÃ²ĠyÃ²ngĠ
pÃŃngĠjÅ«nĠ shuÇĲĠpÃŃngĠ
hÃ¡oĠ mÇĲ
ĠshÃŃĠjÃ¬Ġ shÃłngĠshÃ¬Ġ
ĠhÇİiĠbÃ¡ĠgÄģoĠdÃ¹Ġ 1Ġ
ĠshÃ¬ĠyÃ¬Ġ huÃ¬Ġ
ĠwÃ¨iĠyÃºĠfÇİĠguÃ³Ġ xÄ«nĠÄģĠjÄ«ĠtÇİn
chuÃłngĠlÃ¬Ġ leĠ
yÃŃnĠhÃ¡ng ĠdeĠ
ĠshÄĵngĠwÃ¹Ġ xuÃ©Ġ
hÄģĠÄĽrĠ bÄ«n
ĠshÃ¬ĠyÄ«ĠkÄĵĠ rÃłoĠtÃłiĠyÃ¡ngĠ
ĠshÃ¬ĠxÄ«ngĠdÄĽngĠwÃ¨iĠ 6
ĠdeĠguÇĲĠdÃłoĠ bÃłnĠzhÇİngĠzhÃ³u
ĠĠĠguÇĲĠdÃłoĠ cÄģnĠshÃ¹Ġ
ĠshÃ¬ĠyÄ«ĠkÄĵĠrÃłoĠtÃłiĠyÃ¡ngĠ yÃ¹nĠzhuÃłnĠdeĠxiÇİoĠxÃŃngĠxÄ«ngĠ
3 ĠshÃŃĠ
s er
Ġ bÃłoĠgÃłoĠ
ĠĠĠ Ra
qÄ« ĠgÅįngĠchÃ©ngĠ
zhÇĶ ĠxiÃłnĠ
xiÃło ĠyÃ¬Ġ
shuÅį ĠtÄģĠ
dÅ« ĠwÃ¨iĠ
nuÃ² ĠdeĠ
gÇĴng ĠgÃ¹
gra mĠ
ĠzÃłiĠ gÄģi
ĠhÃ©Ġ yÃ³uĠ
ĠlÃ¬Ġ fÇİĠyuÃłnĠ
ĠgÅįngĠ lÇĲ
ĠdÃło ĠyÇĶĠ
hÃ²uĠ dÃłiĠ
xiÄģngĠ sÃ¬
kÄģiĠ bÃłn
zhÃ¹Ġ zhÄģ
ĠzuÃ²Ġ luÃ²ĠyÃºĠ
ĠrÃ¨nĠ dÃ¬ngĠ
ĠzhÃ¨Ġ jiÃ¹ĠshÃ¬Ġ
cÃ©ngĠ miÃłnĠ
lÇľĠ bÅįĠ
biÄģnĠ zuÇİn
pÃ¡iĠ chÃºĠ
xÃŃngĠ mÃ¹Ġ
hÃ¡iĠ kÄĽĠyÇĲĠ
ĠjÄ«nĠ rÃ³ngĠ
[...]
