{"!":0,"\"":1,"#":2,"$":3,"%":4,"&":5,"'":6,"(":7,")":8,"*":9,"+":10,",":11,"-":12,".":13,"/":14,"0":15,"1":16,"2":17,"3":18,"4":19,"5":20,"6":21,"7":22,"8":23,"9":24,":":25,";":26,"=":27,"?":28,"@":29,"A":30,"B":31,"C":32,"D":33,"E":34,"F":35,"G":36,"H":37,"I":38,"J":39,"K":40,"L":41,"M":42,"N":43,"O":44,"P":45,"Q":46,"R":47,"S":48,"T":49,"U":50,"V":51,"W":52,"X":53,"Y":54,"Z":55,"[":56,"\\":57,"]":58,"^":59,"_":60,"`":61,"a":62,"b":63,"c":64,"d":65,"e":66,"f":67,"g":68,"h":69,"i":70,"j":71,"k":72,"l":73,"m":74,"n":75,"o":76,"p":77,"q":78,"r":79,"s":80,"t":81,"u":82,"v":83,"w":84,"x":85,"y":86,"z":87,"|":88,"~":89,"¡":90,"¢":91,"£":92,"¤":93,"¥":94,"¦":95,"§":96,"¨":97,"©":98,"ª":99,"«":100,"¬":101,"®":102,"¯":103,"°":104,"±":105,"²":106,"³":107,"´":108,"µ":109,"¶":110,"·":111,"¸":112,"¹":113,"º":114,"»":115,"¼":116,"½":117,"¾":118,"¿":119,"Â":120,"Ã":121,"Ä":122,"Å":123,"Æ":124,"Ç":125,"È":126,"É":127,"Ê":128,"Ë":129,"Ì":130,"Í":131,"Î":132,"Ï":133,"Ð":134,"Ñ":135,"Ò":136,"Ó":137,"Ô":138,"Õ":139,"Ö":140,"×":141,"Ø":142,"Ù":143,"Ú":144,"Û":145,"Ü":146,"Þ":147,"ß":148,"à":149,"á":150,"â":151,"ã":152,"ä":153,"ê":154,"ë":155,"ì":156,"í":157,"î":158,"ï":159,"ð":160,"ñ":161,"Ċ":162,"Ġ":163,"ġ":164,"Ģ":165,"ģ":166,"Ĥ":167,"ĥ":168,"Ħ":169,"ħ":170,"Ĩ":171,"ĩ":172,"Ī":173,"ī":174,"Ĭ":175,"ĭ":176,"Į":177,"į":178,"İ":179,"ı":180,"Ĳ":181,"ĳ":182,"Ĵ":183,"ĵ":184,"Ķ":185,"ķ":186,"ĸ":187,"Ĺ":188,"ĺ":189,"Ļ":190,"ļ":191,"Ľ":192,"ľ":193,"Ŀ":194,"ŀ":195,"Ł":196,"ł":197,"Ń":198,"ng":199,"hÃ":200,"Ãł":201,"Äģ":202,"Ã¬":203,"Ã¡":204,"Ä«":205,"Ã¨":206,"Çİ":207,"ĠĠ":208,"Ã©":209,"ÃŃ":210,"shÃ":211,"Ã¹":212,"Ã¡n":213,"zh":214,"ÇĲ":215,"Åį":216,"ji":217,"de":218,"Ãłn":219,"Äĵ":220,"zhÃ":221,"sh":222,"ÄĽ":223,"Ã³":224,"ÇĶ":225,"xi":226,"Ã²":227,"Ãº":228,"Äģn":229,"ĠĠĠ":230,"Ãłi":231,"Å«":232,"Åįng":233,"ÇĴ":234,"ãĢ":235,"shÃ¬":236,"hu":237,"Ã¨i":238,"gu":239,"iÃ¡n":240,"hÃ©":241,"Ãło":242,"Äģng":243,"ÃŃng":244,"yu":245,"Çİn":246,"ch":247,"niÃ¡n":248,"yÄ«":249,"Çİng":250,"Ã©n":251,"ÇĴu":252,"Ã¬ng":253,"wÃ¨i":254,"Çİo":255,"zÃłi":256,"ãĢģ":257,"jÄ«":258,"Äĵng":259,"zhÅįng":260,"xÄ«":261,"bÃ¹":262,"jÃ¬":263,"Ãłng":264,"li":265,"zhÃ¨":266,"shÃŃ":267,"dÃ¬":268,"guÃ³":269,"yÃº":270,"rÃ©n":271,"Ã²ng":272,"chÃ":273,"Äģo":274,"du":275,"chÃ©":276,"yÇĲ":277,"lÃ¬":278,"Ã¡ng":279,"yÃ¬":280,"uÃ²":281,"Ã¡i":282,"zhÃ¬":283,"chÃ©ng":284,"Ã©i":285,"xu":286,"gÅįng":287,"jÃŃ":288,"²u":289,"ÄĽi":290,"iÃłn":291,"Äĵn":292,"Ã³ng":293,"yuÃ¨":294,"yÇĴu":295,"yuÃ¡n":296,"dÃł":297,"qi":298,"Åįu":299,"lÇĲ":300,"20":301,"Ã³u":302,"Äģi":303,"xiÃłn":304,"jiÄģ":305,"sÄ«":306,"Å«n":307,"xÃŃng":308,"yÇĶ":309,"Ã¨n":310,"ÇĴng":311,"ÃŃn":312,"tÄģ":313,"rÃ¬":314,"zhÄ«":315,"hÃ²u":316,"Çİi":317,"gÃ¨":318,"zhÃł":319,"Ã©ng":320,"le":321,"wÃ©i":322,"huÃ¬":323,"dÃło":324,"19":325,"bi":326,"shÃł":327,"qÄ«":328,"qÃŃ":329,"shÃ¨":330,"su":331,"zhÃ¨ng":332,"mÃŃng":333,"jiÃłn":334,"xuÃ©":335,"chÅ«":336,"yÃ¹":337,"ÄĽng":338,"zuÃ²":339,"shÄĵng":340,"duÃ¬":341,"yÃ³u":342,"qÅ«":343,"shÃłng":344,"ÄĽn":345,"dÃ©":346,"lÃ¹":347,"bÃ¨i":348,"chÃ¡":349,"ti":350,"shÇĲ":351,"zhÃłn":352,"zhÇĶ":353,"Äĵi":354,"qu":355,"jÃ¹":356,"xÄ«n":357,"jÅ«n":358,"zhu":359,"ÄĽr":360,"Ã¡o":361,"shÃ¹":362,"uÃ¬":363,"rÃ¨n":364,"fÄģ":365,"wÃ¹":366,"bÃ¬ng":367,"kÃ¨":368,"Ã©r":369,"dÃłi":370,"yÃŃ":371,"jÃ¬n":372,"zÃ¬":373,"yÄ«n":374,"fÃ¹":375,"fÄģng":376,"jÄ«ng":377,"nÃ¡n":378,"huÃł":379,"xÃ¬":380,"zhÅįu":381,"pÃŃng":382,"Ã²u":383,"xiÃł":384,"lÃ¡i":385,"yÃ²ng":386,"shu":387,"guÄģn":388,"tÃ³ng":389,"ãĢĭ":390,"ãĢĬ":391,"fÇİ":392,"zhÃ¹":393,"mÄĽi":394,"hÃ¡":395,"Â·":396,"jiÄģn":397,"jÇĲ":398,"huÃ²":399,"dÃ¹":400,"chu":401,"bÄĽn":402,"xiÄģng":403,"zhÃŃ":404,"dÃ²ng":405,"xiÃłng":406,"mÃŃn":407,"jiÄģng":408,"fÄĵn":409,"shÇĴu":410,"quÃ¡n":411,"wÃ©n":412,"yÃ¡n":413,"hÃł":414,"suÇĴ":415,"jiÃło":416,"qiÃ¡n":417,"diÃłn":418,"tÃ¨":419,"di":420,"duÅį":421,"Ãºn":422,"zuÃ¬":423,"kÄģi":424,"tu":425,"jiÃ©":426,"liÃ¡n":427,"zhÇĲ":428,"kÄĽ":429,"dÃłn":430,"mÃ¹":431,"yÃ¨":432,"fÃº":433,"mÇİ":434,"yÄĽ":435,"dÅįng":436,"qiÃº":437,"bÄĽi":438,"ãĢĮ":439,"ãĢį":440,"gÄģo":441,"yÃł":442,"qÇĲ":443,"jiÄĵ":444,"miÃłn":445,"hÇİi":446,"zhÇİng":447,"shÄ«":448,"jÄ«n":449,"cÇĲ":450,"lu":451,"nÃ¨i":452,"tÇĲ":453,"sÃłi":454,"sÄģn":455,"tÃ¡i":456,"gÃ©":457,"xÃ¬ng":458,"guÃ²":459,"rÃ¹":460,"201":461,"dÄĽng":462,"yÃło":463,"ju":464,"chÄĵ":465,"cÃ¬":466,"wÇĶ":467,"gÄģi":468,"dÃ¬ng":469,"chÃ¡ng":470,"biÇİo":471,"lÄģ":472,"gÃ²ng":473,"jiÃ¨":474,"shÃ²u":475,"dÇİo":476,"shÄģn":477,"chÇİng":478,"sÃ¬":479,"bÇĲ":480,"zÃ©":481,"tÃŃ":482,"kÄĵ":483,"dÄģng":484,"nÃ©ng":485,"Ã¨r":486,"wÃłi":487,"dÄģn":488,"xÃ¹":489,"zi":490,"kÇĴu":491,"xiÇİo":492,"zÇĶ":493,"bÄģ":494,"juÃ©":495,"lÃŃn":496,"liÃº":497,"shÄĽng":498,"yÄ«ng":499,"ku":500,"lÃ¡n":501,"luÃ³":502,"tÅįng":503,"200":504,"Ä«ng":505,"²ng":506,"mÇĲ":507,"zhÃ²ng":508,"en":509,"zhÄĽ":510,"shÇĶ":511,"tiÄģn":512,"zhÃ¨n":513,"Çļ":514,"qÃ¬":515,"zhÇĴng":516,"liÃ¨":517,"chÄĵng":518,"shÅ«":519,"yuÃłn":520,"bÇİo":521,"tÃłi":522,"fÇĶ":523,"fÄĵng":524,"gÇĶ":525,"qÄ«ng":526,"shÄĵn":527,"wÃ¡ng":528,"yÃ¹n":529,"guÇİn":530,"fÄĵi":531,"jiÃ¹":532,"liÇİng":533,"cÃ©ng":534,"mÃ©i":535,"10":536,"fÃ¨n":537,"hÃło":538,"³ng":539,"yÇİn":540,"wÄĽi":541,"zÇĴng":542,"xuÇİn":543,"xiÃło":544,"dÃ¡":545,"nÃł":546,"liÃłng":547,"bÅį":548,"zÃº":549,"jÃ¬ng":550,"bÃło":551,"nÃŃ":552,"wÃº":553,"tÇĴng":554,"huÃ¡":555,"jiÄģo":556,"yuÄĵ":557,"yÇĲng":558,"biÃłn":559,"xÄ«ng":560,"sÃ¹":561,"shuÇĲ":562,"yÃ¡ng":563,"hÃ¹":564,"men":565,"bÄģo":566,"gÄĵ":567,"bÃ³":568,"cÄģn":569,"cÃ³ng":570,"diÇİn":571,"bÃ¬":572,"rÃº":573,"bÃłn":574,"biÄģn":575,"wÇİng":576,"qÇĶ":577,"mi":578,"chÇİn":579,"sÃ¨":580,"zÄ«":581,"chuÃ¡n":582,"00":583,"shÃ¨ng":584,"rÃ¡n":585,"tÃº":586,"zhÄģng":587,"pÇĶ":588,"gÇİi":589,"gÇİng":590,"nÇļ":591,"lÃ¬ng":592,"luÃ²":593,"yÃ²u":594,"tÃ³u":595,"cÃ¨":596,"lÇ":597,"chÃŃ":598,"18":599,"lÇľ":600,"qiÄģn":601,"shÃ©":602,"lÃŃ":603,"dÅįu":604,"pÇĲ":605,"12":606,"zhÄĵng":607,"ni":608,"kuÃ²":609,"shÄģ":610,"dÇİng":611,"fÇİn":612,"gÃ²u":613,"lÃ¨i":614,"xÃŃ":615,"jÇĲng":616,"tuÃ¡n":617,"wÄĵi":618,"xiÄĵ":619,"lÇĲng":620,"lÃ³ng":621,"guÄ«":622,"xiÄģn":623,"rÃ³ng":624,"huÃ¡ng":625,"xiÇİng":626,"bÄģn":627,"jiÇĶ":628,"yÃ¬ng":629,"mÃ©n":630,"shÄģng":631,"shÃ©n":632,"202":633,"bÇİn":634,"kÇİ":635,"mÇĶ":636,"jÇĲn":637,"fÅ«":638,"jÇĶ":639,"mÃ³":640,"guÇİng":641,"cÃŃ":642,"shuÅį":643,"qÃŃng":644,"zhÇİn":645,"hÃ¡i":646,"zhuÄģng":647,"mÃ²":648,"cÃ¡i":649,"dÃº":650,"11":651,"pÇĲn":652,"tÃŃng":653,"chÃ¡o":654,"yÃŃng":655,"tiÃ¡o":656,"jiÇİn":657,"tÃ¡ng":658,"huÃŃ":659,"duÃłn":660,"chÃ©n":661,"gÄĵn":662,"mÃ¬":663,"wÃłn":664,"pÃ¡i":665,"wÄģn":666,"zÃło":667,"hÃ¡ng":668,"wÃ¡n":669,"biÄģo":670,"gÃ¹":671,"lÃºn":672,"199":673,"xiÃ©":674,"jiÇİng":675,"hÃłn":676,"jÃº":677,"fÃłn":678,"fÃ¡ng":679,"huÃ³":680,"hÃ¡n":681,"pi":682,"kÅįng":683,"or":684,"tiÄĽ":685,"mÃ©ng":686,"biÃ©":687,"wÅ«":688,"jiÄĽ":689,"zhuÄģn":690,"yÇĲn":691,"xÅ«":692,"zhÄĵn":693,"dÇĲ":694,"er":695,"chÃº":696,"hÃº":697,"jiÃł":698,"bÄ«ng":699,"mÃ¬ng":700,"lÃŃng":701,"hÃ³ng":702,"qÄ«n":703,"zÇĲ":704,"lÃ¹n":705,"xÃ¬n":706,"chÃ¹":707,"chÇĶ":708,"sÅ«":709,"an":710,"xiÅ«":711,"zÅįng":712,"15":713,"quÃ¨":714,"xiÄģo":715,"zhÃło":716,"qiÃ¡ng":717,"qÃ¹":718,"cÅ«n":719,"chÃ³ng":720,"piÃłn":721,"jiÅ«":722,"fÃłng":723,"suÃŃ":724,"shÅįu":725,"gÃ¨ng":726,"âĢ":727,"guÄģng":728,"Ã¨ng":729,"jÅ«":730,"on":731,"jiÇİ":732,"chuÃłng":733,"dÃŃ":734,"16":735,"zhuÇİn":736,"guÇĴ":737,"xÃ¹n":738,"mÃłn":739,"pÃłi":740,"fÃ¨i":741,"pÃ¨i":742,"198":743,"dÇİ":744,"tuÅį":745,"la":746,"xuÄģn":747,"bÃ¡i":748,"zhÅ«":749,"dÅ«":750,"tÇĶ":751,"diÃło":752,"xiÃ¡":753,"liÃ¹":754,"17":755,"suÃ¬":756,"huÄ«":757,"tÄ«ng":758,"qiÄĽ":759,"tÇİ":760,"qiÃ¡o":761,"hÄģ":762,"gÇİn":763,"zÄĵng":764,"xiÇİn":765,"mÃłi":766,"huÃ¡n":767,"xÇĶ":768,"wÇİ":769,"tuÄ«":770,"wÃ¨n":771,"chÄģo":772,"tiÃ¡n":773,"bÇİi":774,"cÇİi":775,"liÃ¡ng":776,"yÃ¡":777,"sÃł":778,"ar":779,"bÃłi":780,"cÃºn":781,"jiÇİo":782,"shÇİo":783,"yÃłn":784,"zhuÃłng":785,"huÇĴ":786,"lÃ©i":787,"14":788,"zu":789,"jiÃłng":790,"chuÄģn":791,"yÃ¬n":792,"zÇİo":793,"chÃł":794,"yÇĴng":795,"sÇĲ":796,"dÄĵng":797,"30":798,"zhÇĶn":799,"lÃ¨":800,"xÃºn":801,"nuÃ²":802,"kÃ¹":803,"huÃłn":804,"sÃ²ng":805,"gÃło":806,"lÇĶ":807,"13":808,"194":809,"bÄģng":810,"lÇļ":811,"pÄ«":812,"yÃłng":813,"hÄĽn":814,"qÃºn":815,"zhÄĽng":816,"guÃłn":817,"pÃ²":818,"gÄģng":819,"wÇĴ":820,"197":821,"huÄģ":822,"lÄĵi":823,"hÇİo":824,"tÃ¡o":825,"kuÃłng":826,"hÃ¨":827,"in":828,"dÃ¹n":829,"nÃ³ng":830,"gÄĽi":831,"sÄģi":832,"shuÄģng":833,"liÃłn":834,"kuÃłi":835,"dÄ«":836,"bÄ«":837,"pÃłn":838,"xiÄĽ":839,"195":840,"kÇİo":841,"gÃłi":842,"hÄĵi":843,"wÃłng":844,"liÃło":845,"rÃ¨":846,"ge":847,"zuÇĴ":848,"kÃ²ng":849,"196":850,"yÄģng":851,"chÃłng":852,"yÃŃn":853,"³u":854,"rÃ©ng":855,"sÄĵn":856,"bÄĵi":857,"lÃº":858,"piÃło":859,"yÄģ":860,"25":861,"bÄ«n":862,"âĢĶ":863,"rÃłng":864,"chÅįng":865,"lÃ³u":866,"bÇĶ":867,"lÇİo":868,"zhÃº":869,"jÃ¹n":870,"yÇİng":871,"ruÃ¬":872,"yÄģo":873,"xiÃ¡n":874,"xiÃ¨":875,"niÃłn":876,"for":877,"yÅįu":878,"tÃ¡n":879,"kÄģng":880,"pÃŃ":881,"hÃ©ng":882,"yÃºn":883,"xÇĲ":884,"kÃłn":885,"nÃŃng":886,"liÃ¡o":887,"shÃło":888,"bÃº":889,"24":890,"qÇĲng":891,"chÇĲ":892,"mu":893,"dÃ²u":894,"miÇİn":895,"yÅįng":896,"tÇİn":897,"wÇİn":898,"hÅ«":899,"fÄģn":900,"al":901,"tÅ«":902,"gÄģn":903,"suÃłn":904,"dÄ«ng":905,"yuÇİn":906,"wÄĵn":907,"tuÃ¬":908,"zhe":909,"21":910,"st":911,"xiÃ¹":912,"bÇİ":913,"mÇİn":914,"193":915,"23":916,"mula":917,"kÃłng":918,"formula":919,"28":920,"th":921,"mÃ¡o":922,"ruÃ²":923,"piÄģn":924,"chÃ¨":925,"mÃło":926,"lÇİng":927,"qÃŃn":928,"bÃ¡":929,"nÃ¡":930,"zÃłn":931,"guÇĲ":932,"guÃ¬":933,"ou":934,"pÃŃn":935,"wÃ²":936,"xiÃ³ng":937,"shÃłn":938,"re":939,"22":940,"xiÅįng":941,"me":942,"suÄ«":943,"Ã¼":944,"26":945,"shÄĽn":946,"qÃ¬ng":947,"miÃ¡o":948,"fÇİng":949,"50":950,"2020":951,"27":952,"lÃ¡ng":953,"ru":954,"qiÅ«":955,"sÅįng":956,"Ã¼Ã¨":957,"dÃłng":958,"gÄĵng":959,"qiÄģng":960,"ri":961,"fÃ¡":962,"zÄģo":963,"fÃ¨ng":964,"zhÃłng":965,"ï¼":966,"hÃ¡o":967,"dÅ«n":968,"zÇĴu":969,"hÃłi":970,"qiÃ¨":971,"29":972,"tÃłn":973,"pÃło":974,"pÃł":975,"shÃ¹n":976,"pÃ©ng":977,"xuÃ¡n":978,"2010":979,"nÇĲ":980,"000":981,"dÇĲng":982,"niÇĶ":983,"zÇİi":984,"zhÄģo":985,"zhuÄ«":986,"lÃ¼Ã¨":987,"chÅ«n":988,"2019":989,"hÅ«n":990,"kÇĴng":991,"duÄģn":992,"shÃ¨n":993,"xiÃ¡ng":994,"duÇİn":995,"gÃłn":996,"te":997,"ro":998,"kÄģn":999,"lÃ¡o":1000,"cÇİo":1001,"2016":1002,"si":1003,"gÅ«":1004,"pÃ©i":1005,"2018":1006,"kuÇİn":1007,"zÃ¡":1008,"sÅ«n":1009,"yÃ©":1010,"yÇİ":1011,"pÅį":1012,"2021":1013,"ra":1014,"chÃ¬":1015,"duÃ³":1016,"2014":1017,"fÃ¡n":1018,"2011":1019,"2015":1020,"cuÃ²":1021,"2017":1022,"zhÃ©":1023,"yÃ¡o":1024,"pÄģi":1025,"tÃ²u":1026,"cÃ¡ng":1027,"2012":1028,"40":1029,"kÇİi":1030,"2013":1031,"2022":1032,"mÃŃ":1033,"ruÇİn":1034,"suÄģn":1035,"chÄģ":1036,"zÃłng":1037,"miÃło":1038,"lt":1039,"2009":1040,"zhÇİo":1041,"2008":1042,"huÃ¡i":1043,"ãĥ":1044,"ce":1045,"60":1046,"am":1047,"cu":1048,"xuÃ¨":1049,"chÃ³u":1050,"se":1051,"bÇİng":1052,"mÃ¨ng":1053,"100":1054,"tÃ¬":1055,"pÃº":1056,"nÇİo":1057,"2023":1058,"zhuÃłn":1059,"gt":1060,"lÄĽi":1061,"190":1062,"31":1063,"cÃłi":1064,"cÃ¹":1065,"sÃłn":1066,"mÃ³u":1067,"tion":1068,"ta":1069,"hÃ¹n":1070,"ÇĶn":1071,"kuÄģn":1072,"2007":1073,"niÃº":1074,"mÇĴu":1075,"tÇİo":1076,"diÃ©":1077,"2001":1078,"ol":1079,"tÃ©ng":1080,"sÅįu":1081,"kÄĽn":1082,"qiÇİn":1083,"chÄģng":1084,"rÇİn":1085,"quÄĵ":1086,"fÇĴu":1087,"sÇĶn":1088,"el":1089,"bÃł":1090,"2000":1091,"80":1092,"kÃło":1093,"suÅį":1094,"2006":1095,"niÇİo":1096,"chÃºn":1097,"ma":1098,"2024":1099,"lÇİn":1100,"ãģ":1101,"zÄģi":1102,"zhÃ¡":1103,"xuÄĽ":1104,"huÇĲ":1105,"luÃłn":1106,"tÇĲng":1107,"2005":1108,"zÅ«n":1109,"bÃłng":1110,"lÃł":1111,"huÄģn":1112,"rÇİng":1113,"shuÃ¬":1114,"mÇĲn":1115,"35":1116,"lÃłi":1117,"cÄģng":1118,"70":1119,"fÃ³":1120,"pÃ¡n":1121,"of":1122,"nÃłi":1123,"wÄĽn":1124,"et":1125,"cÄģo":1126,"sÄģng":1127,"pÃ¡ng":1128,"90":1129,"bÇĲng":1130,"ï¼į":1131,"zhÄģ":1132,"ãĤ":1133,"shuÃłi":1134,"niÃ¨":1135,"es":1136,"hÃ³u":1137,"mÃ¨i":1138,"shÄģo":1139,"nÇĶ":1140,"dÇĴng":1141,"il":1142,"at":1143,"ow":1144,"fÃ©ng":1145,"miÃ¨":1146,"yÇĶn":1147,"zÃ²u":1148,"mÇİi":1149,"huÃłi":1150,"2004":1151,"45":1152,"yÄģn":1153,"co":1154,"48":1155,"the":1156,"zhuÃ³":1157,"and":1158,"ter":1159,"he":1160,"tÃło":1161,"nÇİi":1162,"kÅ«n":1163,"2025":1164,"zhÄĽn":1165,"ck":1166,"rÇĶ":1167,"kuÃł":1168,"kuÃŃ":1169,"ãĢī":1170,"ãĢĪ":1171,"gÅįu":1172,"36":1173,"cuÄ«":1174,"38":1175,"shÇİn":1176,"rÃ²u":1177,"diÄģo":1178,"2003":1179,"hÇĶ":1180,"guÅį":1181,"37":1182,"cuÃ¬":1183,"ne":1184,"xÃº":1185,"mÃ¡ng":1186,"juÇİn":1187,"cÃ¡n":1188,"diÄģn":1189,"zhÄģn":1190,"cÃ¡o":1191,"189":1192,"IN":1193,"2002":1194,"is":1195,"bo":1196,"kÄĵng":1197,"TC":1198,"ve":1199,"34":1200,"mÃ¡":1201,"lÄĽng":1202,"as":1203,"zÅ«":1204,"75":1205,"âĢĵ":1206,"sÃº":1207,"quÄģn":1208,"dÄģ":1209,"to":1210,"chÄģi":1211,"nu":1212,"lÃłng":1213,"kÃ¹n":1214,"46":1215,"tÃºn":1216,"fÄĽn":1217,"1990":1218,"âĢ¦":1219,"zhÃ²u":1220,"shÇİng":1221,"rÃło":1222,"hÄĵng":1223,"tÄ«":1224,"xÅ«n":1225,"39":1226,"nÃ¨":1227,"..":1228,"pÃ¬":1229,"nÃłn":1230,"pÄģn":1231,"65":1232,"hÅįng":1233,"shÃº":1234,"tÄģn":1235,"Ch":1236,"tÄģng":1237,"kÇİn":1238,"Ma":1239,"nÃ¬":1240,"32":1241,"In":1242,"ST":1243,"47":1244,"hÇİn":1245,"it":1246,"UTC":1247,"qiÃłn":1248,"1999":1249,"1998":1250,"1980":1251,"188":1252,"500":1253,"33":1254,"64":1255,"qiÇİng":1256,"shuÃ²":1257,"pÇİo":1258,"lo":1259,"be":1260,"kÄģ":1261,"zhÃ¡i":1262,"SE":1263,"55":1264,"quÃłn":1265,"nÄ«":1266,"dÃ¨ng":1267,"1997":1268,"The":1269,"miÃ¡n":1270,"49":1271,"gÇİo":1272,"II":1273,"68":1274,"Co":1275,"vi":1276,"shÄĽ":1277,"zÃ¨ng":1278,"Re":1279,"han":1280,"zhÃ³u":1281,"zhÃłi":1282,"44":1283,"1996":1284,"na":1285,"tiÄĵ":1286,"dÄģo":1287,"ad":1288,"br":1289,"1994":1290,"ver":1291,"fÃ©i":1292,"zÃ²ng":1293,"qiÃ³ng":1294,"ci":1295,"tiÃło":1296,"chuÃ¡ng":1297,"1992":1298,"ba":1299,"chuÃŃ":1300,"juÄģn":1301,"chÃ¡i":1302,"miÇİo":1303,"guÄģ":1304,"xuÄĵ":1305,"tÃ²ng":1306,"1995":1307,"fÄĽi":1308,"chÄ«":1309,"oo":1310,"mÄĽng":1311,"wÅį":1312,"67":1313,"ir":1314,"shuÄģi":1315,"tuÃ³":1316,"chuÄģng":1317,"huÇİn":1318,"1991":1319,"1970":1320,"58":1321,"ay":1322,"1950":1323,"ca":1324,"nd":1325,"guÃł":1326,"chÃ¡n":1327,"300":1328,"wÄģ":1329,"1993":1330,"187":1331,"1949":1332,"pe":1333,"sÄģ":1334,"tiÇİo":1335,"AT":1336,"1960":1337,"biÇİn":1338,"42":1339,"1945":1340,"ing":1341,"guÃłi":1342,"au":1343,"kÇĶ":1344,"nÃº":1345,"1988":1346,"dÇĶ":1347,"1989":1348,"ig":1349,"pÃ¹":1350,"69":1351,"liÇĶ":1352,"gÇĴng":1353,"SEE":1354,"tuÃ²":1355,"amp":1356,"ct":1357,"liÇİo":1358,"INSEE":1359,"59":1360,"tÄģi":1361,"43":1362,"66":1363,"chuÃłn":1364,"op":1365,"chÃ¨n":1366,"os":1367,"57":1368,"1985":1369,"huÄģng":1370,"99":1371,"SA":1372,"ãĢİ":1373,"cÃ¹n":1374,"ãĢı":1375,"1984":1376,"hÃºn":1377,"41":1378,"pÅ«":1379,"ly":1380,"us":1381,"kÃ²u":1382,"fÃ©n":1383,"88":1384,"1986":1385,"rÇİo":1386,"mp":1387,"St":1388,"id":1389,"rÃ¹n":1390,"TV":1391,"150":1392,"zhuÅį":1393,"ind":1394,"400":1395,"sÇİn":1396,"1987":1397,"78":1398,"un":1399,"ed":1400,"ha":1401,"1982":1402,"56":1403,"Li":1404,"ur":1405,"ard":1406,"nuÃ³":1407,"1983":1408,"NA":1409,"gÇĶn":1410,"Ro":1411,"De":1412,"ss":1413,"mÄģ":1414,"tou":1415,"pÃ¬n":1416,"CD":1417,"chÅįu":1418,"ber":1419,"gÇĴu":1420,"quÇİn":1421,"Mi":1422,"77":1423,"zhÄģi":1424,"Me":1425,"qiÃł":1426,"mÄģo":1427,"qiÇİo":1428,"Mar":1429,"tw":1430,"kÅ«":1431,"kuÃ¡ng":1432,"rÃ³u":1433,"der":1434,"79":1435,"lÃ²u":1436,"OS":1437,"Â°":1438,"kuÃ¬":1439,"sÃłng":1440,"ï½":1441,"Al":1442,"180":1443,"ty":1444,"BC":1445,"54":1446,"1979":1447,"61":1448,"1920":1449,"ang":1450,"pÄĵn":1451,"98":1452,"sÄĵng":1453,"52":1454,"You":1455,"ap":1456,"1978":1457,"nÃ¹":1458,"wÄĵng":1459,"62":1460,"yÄĵ":1461,"duÇĴ":1462,"Le":1463,"53":1464,"xÇĲng":1465,"juÃłn":1466,"ï½ŀ":1467,"BA":1468,"ke":1469,"1946":1470,"ts":1471,"CO":1472,"mo":1473,"ction":1474,"51":1475,"1958":1476,"1981":1477,"Vi":1478,"1972":1479,"1948":1480,"zhuÃ¬":1481,"cÅįng":1482,"tÅįu":1483,"AM":1484,"hi":1485,"63":1486,"man":1487,"ows":1488,"AR":1489,"ry":1490,"1941":1491,"Wind":1492,"BS":1493,"wÃ¡":1494,"liÇİn":1495,"1930":1496,"Mo":1497,"Pro":1498,"luÇİn":1499,"kuÄģng":1500,"qÃº":1501,"tuÇĴ":1502,"kÃ©":1503,"76":1504,"hans":1505,"va":1506,"1940":1507,"1937":1508,"con":1509,"1976":1510,"zuÇĲ":1511,"1944":1512,"Jo":1513,"89":1514,"1975":1515,"um":1516,"ï¼ı":1517,"Te":1518,"1968":1519,"niÃ¡ng":1520,"pÃ³":1521,"shuÄģ":1522,"hk":1523,"yuÄģn":1524,"tÄģo":1525,"per":1526,"wÄģng":1527,"ga":1528,"1000":1529,"ran":1530,"Windows":1531,"95":1532,"Ne":1533,"bÃŃ":1534,"sÇİo":1535,"da":1536,"87":1537,"1966":1538,"85":1539,"fÃł":1540,"pÄĵng":1541,"600":1542,"lÃłn":1543,"Se":1544,"Sta":1545,"sp":1546,"120":1547,"1947":1548,"Ga":1549,"Ar":1550,"ot":1551,"gÄģ":1552,"1956":1553,"AC":1554,"1964":1555,"dÇİn":1556,"cÅ«":1557,"1942":1558,"1955":1559,"chÇĴu":1560,"lay":1561,"1952":1562,"1939":1563,"IS":1564,"1938":1565,"72":1566,"74":1567,"ht":1568,"rÄĽn":1569,"1973":1570,"ace":1571,"fi":1572,"1974":1573,"1954":1574,"qiÄĵ":1575,"ED":1576,"1900":1577,"--":1578,"Be":1579,"AP":1580,"ore":1581,"1943":1582,"1977":1583,"Da":1584,"1971":1585,"pÄ«n":1586,"pÇĴ":1587,"mÃ¡n":1588,"1967":1589,"shÃ©ng":1590,"ment":1591,"IC":1592,"800":1593,"ER":1594,"La":1595,"86":1596,"1959":1597,"bÄĵng":1598,"son":1599,"1965":1600,"JR":1601,"1969":1602,"Ra":1603,"duÄ«":1604,"Di":1605,"ok":1606,"pÃ©n":1607,"ãĥ»":1608,"ÃĹ":1609,"qiÃło":1610,"chuÄ«":1611,"ID":1612,"qiÄģo":1613,"Su":1614,"ine":1615,"1936":1616,"160":1617,"97":1618,"bÄĵn":1619,"zhuÄģ":1620,"ent":1621,"1953":1622,"Sa":1623,"1962":1624,"MA":1625,"Tu":1626,"tic":1627,"1961":1628,"lÇĴng":1629,"ation":1630,"âĶ":1631,"1935":1632,"tÃł":1633,"mÃ¡i":1634,"Sh":1635,"96":1636,"ON":1637,"ak":1638,"ï¼ħ":1639,"1951":1640,"1957":1641,"1963":1642,"Lo":1643,"âĶĢ":1644,"one":1645,"rou":1646,"84":1647,"Ja":1648,"2026":1649,"do":1650,"cÇİn":1651,"82":1652,"gi":1653,"bu":1654,"mer":1655,"73":1656,"po":1657,"94":1658,"tÅ«n":1659,"92":1660,"So":1661,"AN":1662,"IP":1663,"An":1664,"ho":1665,"ali":1666,"1933":1667,"Mu":1668,"1931":1669,"nÃ¡ng":1670,"niÃło":1671,"les":1672,"71":1673,"bÃ¡o":1674,"nuÇİn":1675,"lÃ©ng":1676,"pÃ¡":1677,"83":1678,"93":1679,"ai":1680,"We":1681,"81":1682,"dÇĴu":1683,"1918":1684,"sta":1685,"HD":1686,"Bo":1687,"sÄģo":1688,"Uni":1689,"1928":1690,"luÃ¡n":1691,"ki":1692,"1932":1693,"wi":1694,"nÃ¨n":1695,"col":1696,"int":1697,"MV":1698,"SS":1699,"our":1700,"110":1701,"tÃ¹":1702,"IT":1703,"1912":1704,"all":1705,"1929":1706,"tuÇĲ":1707,"duÃ²":1708,"1927":1709,"cn":1710,"1934":1711,"are":1712,"Pa":1713,"700":1714,"gÃ¡":1715,"che":1716,"by":1717,"ted":1718,"ster":1719,"huÇİng":1720,"Si":1721,"250":1722,"ff":1723,"91":1724,"mm":1725,"Par":1726,"zÃ©i":1727,"Ri":1728,"1924":1729,"pp":1730,"ph":1731,"...":1732,"1919":1733,"kuÄ«":1734,"He":1735,"so":1736,"xuÃłn":1737,"130":1738,"piÄģo":1739,"no":1740,"1925":1741,"PS":1742,"Play":1743,"pÄģo":1744,"140":1745,"xiÄģ":1746,"Bu":1747,"Ca":1748,"SM":1749,"Con":1750,"Sp":1751,"PC":1752,"1914":1753,"ble":1754,"ste":1755,"zhÇİi":1756,"km":1757,"DV":1758,"zhÄĵ":1759,"En":1760,"mes":1761,"YouTu":1762,"com":1763,"Ba":1764,"hÄĵ":1765,"Fi":1766,"Ti":1767,"diÄĵ":1768,"ell":1769,"gra":1770,"lÇİ":1771,"AS":1772,"ia":1773,"1911":1774,"Wi":1775,"shi":1776,"end":1777,"ill":1778,"nÃ¼Ã¨":1779,"ana":1780,"ara":1781,"Ge":1782,"1926":1783,"deĠ":1784,"ĠdeĠ":1785,"shÃ¬Ġ":1786,"ĠshÃ¬Ġ":1787,"ĠniÃ¡n":1788,"ĠniÃ¡nĠ":1789,"wÃ¨iĠ":1790,"zÃłiĠ":1791,"ĠwÃ¨iĠ":1792,"ĠzÃłiĠ":1793,"hÃ©Ġ":1794,"ĠhÃ©Ġ":1795,"zhÅįngĠ":1796,"bÃ¹Ġ":1797,"dÃ¬Ġ":1798,"shÃŃĠ":1799,"guÃ³Ġ":1800,"yÃºĠ":1801,"rÃ©nĠ":1802,"ĠbÃ¹Ġ":1803,"yÄ«Ġ":1804,"ĠzhÅįngĠ":1805,"lÃ¬Ġ":1806,"zhÃ¬Ġ":1807,"gÅįngĠ":1808,"ĠshÃŃĠ":1809,"yuÃ¨Ġ":1810,"jÃŃĠ":1811,"chÃ©ngĠ":1812,"yÃ¬Ġ":1813,"yÇĴuĠ":1814,"ĠdÃ¬Ġ":1815,"ĠyuÃ¨Ġ":1816,"ĠyÃºĠ":1817,"ĠrÃ©nĠ":1818,"ĠzhÃ¬Ġ":1819,"dÃłĠ":1820,"ĠjÃŃĠ":1821,"yuÃ¡nĠ":1822,"ĠyÇĴuĠ":1823,"jÃ¬Ġ":1824,"ĠguÃ³Ġ":1825,"ĠlÃ¬Ġ":1826,"ĠgÅįngĠ":1827,"ĠyÃ¬Ġ":1828,"ĠyÇĲ":1829,"ĠchÃ©ngĠ":1830,"jiÄģĠ":1831,"sÄ«Ġ":1832,"yÇĶĠ":1833,"ĠxiÃłn":1834,"ĠrÃ¬":1835,"ĠyÄ«Ġ":1836,"ĠxÃŃng":1837,"ĠtÄģ":1838,"lÇĲĠ":1839,"jÄ«Ġ":1840,"ĠdÃło":1841,"hÃ²uĠ":1842,"wÃ©iĠ":1843,"ĠzhÄ«":1844,"ĠdÃłĠ":1845,"ĠyuÃ¡nĠ":1846,"xÄ«Ġ":1847,"ĠrÃ¬Ġ":1848,"ĠgÃ¨":1849,"ĠyÇĲĠ":1850,"xuÃ©Ġ":1851,"huÃ¬Ġ":1852,"leĠ":1853,"zuÃ²Ġ":1854,"ĠyÇĶĠ":1855,"ĠdÃłoĠ":1856,"mÃŃngĠ":1857,"ĠjÃ¬Ġ":1858,"bÃ¨iĠ":1859,"ĠxÃŃngĠ":1860,"shÄĵngĠ":1861,"ĠjiÃłn":1862,"ĠchÅ«":1863,"ĠqÃŃ":1864,"ĠsÄ«Ġ":1865,"ĠdÃ©":1866,"zhÃ¨ngĠ":1867,"ĠxiÃłnĠ":1868,"ĠhÃ²uĠ":1869,"ĠjÄ«Ġ":1870,"duÃ¬Ġ":1871,"shÃłngĠ":1872,"qÅ«Ġ":1873,"shÇĲĠ":1874,"ĠÄĽr":1875,"ĠjiÄģĠ":1876,"yÃ³uĠ":1877,"ĠtÄģĠ":1878,"ĠxÄ«Ġ":1879,"ĠlÇĲĠ":1880,"ĠÃ©r":1881,"zhÃłnĠ":1882,"ĠjÅ«n":1883,"ĠbÃ¬ng":1884,"ĠzhÄ«Ġ":1885,"ĠgÃ¨Ġ":1886,"zhÇĶĠ":1887,"rÃ¨nĠ":1888,"fÃ¹Ġ":1889,"zÃ¬Ġ":1890,"wÃ¹Ġ":1891,"xÄ«nĠ":1892,"dÃłiĠ":1893,"jÃ¹Ġ":1894,"pÃŃngĠ":1895,"ĠchÅ«Ġ":1896,"ĠkÃ¨":1897,"ĠzhÅįu":1898,"xiÄģngĠ":1899,"ĠhuÃ¬Ġ":1900,"shÃ¹Ġ":1901,"nÃ¡nĠ":1902,"ĠshÃ¨":1903,"ĠbÃ¨iĠ":1904,"ĠmÃŃngĠ":1905,"xiÃłĠ":1906,"guÄģnĠ":1907,"ĠÄĽrĠ":1908,"ĠdÃ©Ġ":1909,"lÃ¹Ġ":1910,"yÃ¹Ġ":1911,"huÃłĠ":1912,"ĠjiÃłnĠ":1913,"jÄ«ngĠ":1914,"yÃ¡nĠ":1915,"fÄģngĠ":1916,"ĠyÄ«n":1917,"kÄģiĠ":1918,"jiÄģnĠ":1919,"jiÃłoĠ":1920,"fÄģĠ":1921,"yÃ²ngĠ":1922,"ĠdÃłn":1923,"ĠÃ©rĠ":1924,"zhÃ¹Ġ":1925,"lÃ¡iĠ":1926,"mÃŃnĠ":1927,"shÇĴuĠ":1928,"zhÃ¨Ġ":1929,"xiÃłngĠ":1930,"wÃ©nĠ":1931,"ĠjÅ«nĠ":1932,"xÃ¬Ġ":1933,"qiÃ¡nĠ":1934,"bÄĽnĠ":1935,"tÃ¨Ġ":1936,"ĠwÃ©iĠ":1937,"zhÃŃĠ":1938,"fÇİĠ":1939,"qÄ«Ġ":1940,"jiÃ©Ġ":1941,"liÃ¡nĠ":1942,"ĠbÃ¬ngĠ":1943,"dÃ²ngĠ":1944,"diÃłnĠ":1945,"ĠqÃŃĠ":1946,"ĠkÃ¨Ġ":1947,"dÅįngĠ":1948,"mÃ¹Ġ":1949,"ĠjÃ¬n":1950,"ĠduÃ¬Ġ":1951,"ĠhuÃ²":1952,"ĠzhÃłnĠ":1953,"fÄĵnĠ":1954,"tÃ¡iĠ":1955,"zhÇİngĠ":1956,"dÃ¹Ġ":1957,"jiÄģngĠ":1958,"ĠqiÃº":1959,"ĠpÃŃngĠ":1960,"gÄģoĠ":1961,"yÃ¨Ġ":1962,"suÇĴĠ":1963,"bÄĽiĠ":1964,"ĠzhÅįuĠ":1965,"shÄ«Ġ":1966,"ĠleĠ":1967,"duÅįĠ":1968,"jiÄĵĠ":1969,"gÃ©Ġ":1970,"ĠshÃłngĠ":1971,"jÄ«nĠ":1972,"ĠzhÃ¨ngĠ":1973,"fÃºĠ":1974,"ĠzuÃ²Ġ":1975,"ĠyÃ³uĠ":1976,"ĠfÃ¹Ġ":1977,"kÇĴuĠ":1978,"guÃ²Ġ":1979,"zhÇĲĠ":1980,"ĠtÃ³ng":1981,"hÇİiĠ":1982,"ĠrÃ¨nĠ":1983,"ĠquÃ¡n":1984,"mÇİĠ":1985,"tÅįngĠ":1986,"rÃ¹Ġ":1987,"zuÃ¬Ġ":1988,"ĠshÄĵngĠ":1989,"ĠxuÃ©Ġ":1990,"cÇĲĠ":1991,"xÃ¬ngĠ":1992,"wÃłiĠ":1993,"nÃ¨iĠ":1994,"lÄģĠ":1995,"tÇĲĠ":1996,"juÃ©Ġ":1997,"kÄĽĠ":1998,"qÇĲĠ":1999,"shÄģnĠ":2000,"tiÄģnĠ":2001,"chÇİngĠ":2002,"dÄĽngĠ":2003,"zhÃ¨nĠ":2004,"wÇĶĠ":2005,"chÃ¡ngĠ":2006,"ziĠ":2007,"yÃłoĠ":2008,"bÇĲĠ":2009,"ĠjÃ¹Ġ":2010,"bÇİoĠ":2011,"mÇĲĠ":2012,"yÃłĠ":2013,"ĠyÄĽ":2014,"gÄģiĠ":2015,"ĠyÄ«nĠ":2016,"ĠdÃłiĠ":2017,"miÃłnĠ":2018,"zhÃ²ngĠ":2019,"ĠshÃ¨Ġ":2020,"fÄĵngĠ":2021,"ĠzhÃ¨Ġ":2022,"zhÇĴngĠ":2023,"cÃ¬Ġ":2024,"yÃ¹nĠ":2025,"yÃŃĠ":2026,"liÃºĠ":2027,"chÄĵĠ":2028,"shÃ²uĠ":2029,"lÃŃnĠ":2030,"bÄģoĠ":2031,"yÃŃĠgÃ¨Ġ":2032,"sÃłiĠ":2033,"jiÃ¨Ġ":2034,"dÃ¬ngĠ":2035,"shÄĵnĠ":2036,"shÄĽngĠ":2037,"luÃ³Ġ":2038,"mÄĽiĠguÃ³Ġ":2039,"sÄģnĠ":2040,"qÃ¬Ġ":2041,"xiÇİoĠ":2042,"ĠdÃłnĠ":2043,"nÃ©ngĠ":2044,"shÅ«Ġ":2045,"zÃ©Ġ":2046,"liÃ¨Ġ":2047,"xuÇİnĠ":2048,"sÃ¬Ġ":2049,"qÄ«ngĠ":2050,"zhÄĽĠ":2051,"ĠqiÃºĠ":2052,"jÃ¬ngĠ":2053,"yuÃłnĠ":2054,"bÄģĠ":2055,"ÄģnĠ":2056,"wÃ¡ngĠ":2057,"kÄĵĠ":2058,"tÃłiĠ":2059,"lÃ¡nĠ":2060,"bÃłoĠ":2061,"zÇĴngĠ":2062,"yÇĲngĠ":2063,"ĠhuÃ²Ġ":2064,"bÃ¬Ġ":2065,"fÇĶĠ":2066,"dÇİoĠ":2067,"ĠxÄ«nĠ":2068,"gÇĶĠ":2069,"yÄ«ngĠ":2070,"ĠhÃło":2071,"ĠxiÃłĠ":2072,"ĠzÃ¬Ġ":2073,"gÄĵĠ":2074,"fÃ¨nĠ":2075,"xiÃłoĠ":2076,"yuÄĵĠ":2077,"nÃŃĠ":2078,"jiÄģoĠ":2079,"nÃłĠ":2080,"ĠyÃ¹Ġ":2081,"ĠmÇĲĠ":2082,"zÄ«Ġ":2083,"Ã¨rĠ":2084,"ĠxiÄģngĠ":2085,"pÇĶĠ":2086,"dÄģnĠ":2087,"ĠzhÃ¹Ġ":2088,"biÇİoĠ":2089,"guÇİnĠ":2090,"tÃ³uĠ":2091,"liÃłngĠ":2092,"chuÃ¡nĠ":2093,"ĠlÃ¹Ġ":2094,"sÃ¹Ġ":2095,"wÃºĠ":2096,"ĠdÄģng":2097,"bÅįĠ":2098,"rÃºĠ":2099,"yÇİnĠ":2100,"nÇļĠ":2101,"bÃ³Ġ":2102,"ĠzhÅįngĠguÃ³Ġ":2103,"xÄ«ngĠ":2104,"tÃŃĠ":2105,"fÄĵiĠ":2106,"dÃ¡Ġ":2107,"sÃ¨Ġ":2108,"chÄĵngĠ":2109,"mÄĽiĠ":2110,"ĠwÃ¨iĠyÃºĠ":2111,"ĠjÃ¬nĠ":2112,"cÃ©ngĠ":2113,"chÇİnĠ":2114,"ĠnÃ¡nĠ":2115,"shuÇĲĠ":2116,"tÃºĠ":2117,"biÃłnĠ":2118,"ÄģĠ":2119,"guÄ«Ġ":2120,"ĠrÃ¡n":2121,"yÃ¡ngĠ":2122,"zhÄģngĠ":2123,"gÇİiĠ":2124,"diÇİnĠ":2125,"cÃ³ngĠ":2126,"jiÃ¹Ġ":2127,"ĠbÄĽnĠ":2128,"ĠquÃ¡nĠ":2129,"shÄģĠ":2130,"bÄģoĠkuÃ²":2131,"wÇİngĠ":2132,"jiÇİnĠ":2133,"shÃ¨ngĠ":2134,"zÇĶĠ":2135,"shÇĶĠ":2136,"gÇİngĠ":2137,"huÃ¡Ġ":2138,"lÇľĠ":2139,"qÃŃngĠ":2140,"jÇĲngĠ":2141,"liÇİngĠ":2142,"zÃºĠ":2143,"bÃłnĠ":2144,"ÃłnĠ":2145,"tÇĴngĠ":2146,"gÃ²ngĠ":2147,"shÄģngĠ":2148,"ÃłoĠ":2149,"lÃŃĠ":2150,"hÃ¹Ġ":2151,"tÃ³ngĠ":2152,"1Ġ":2153,"biÄģnĠ":2154,"jÃ¬nĠ":2155,"lÃ³ngĠ":2156,"luÃ²Ġ":2157,"xÃ¹Ġ":2158,"chÃŃĠ":2159,"mÃ©iĠ":2160,"jÇĲnĠ":2161,"bÄģnĠ":2162,"guÇİngĠ":2163,"chÅ«Ġ":2164,"cÃ¨Ġ":2165,"mÃ¬Ġ":2166,"shÃ©nĠ":2167,"ĠtÄģĠmen":2168,"zhÄĵngĠ":2169,"zhÄ«Ġ":2170,"lÇĲngĠ":2171,"yÃ²uĠ":2172,"fÇİnĠ":2173,"wÄĵiĠ":2174,"ĠzhÇĶĠ":2175,"huÃ³Ġ":2176,"xÃŃĠ":2177,"tÃŃngĠ":2178,"kÇİĠ":2179,"chÃ¡Ġ":2180,"ĠgÄģiĠ":2181,"ĠxiÃłngĠ":2182,"cÃ¡iĠ":2183,"gÃ²uĠ":2184,"shuÅįĠ":2185,"mÃ©nĠ":2186,"cÃŃĠ":2187,"2Ġ":2188,"xiÇİngĠ":2189,"mÇĶĠ":2190,"lÃ¨iĠ":2191,"wÄĽiĠ":2192,"qÇĶĠ":2193,"ĠgÅįngĠlÇĲĠ":2194,"yÃ¡nĠjiÅ«":2195,"ĠduÅįĠ":2196,"tuÃ¡nĠ":2197,"yÇĲnĠ":2198,"jiÃłnĠ":2199,"ĠyÄĽĠ":2200,"chÃ¡oĠ":2201,"yÃ¬ngĠ":2202,"chÃ©nĠ":2203,"tÃ¡ngĠ":2204,"xiÄĵĠ":2205,"qÃŃĠ":2206,"pÇĲnĠ":2207,"ĠyÇĲĠjÃŃĠ":2208,"jiÃłĠ":2209,"shÇĲĠyÃ²ngĠ":2210,"jiÄĽĠ":2211,"hÃ¡ngĠ":2212,"yÇĲĠ":2213,"lÃºnĠ":2214,"rÃ³ngĠ":2215,"Ã©Ġ":2216,"jiÇİngĠ":2217,"ĠyÃ³u":2218,"pÃ¡iĠ":2219,"fÅ«Ġ":2220,"jiÇĶĠ":2221,"lÃ¬ngĠ":2222,"tÃ¡iĠwÄģn":2223,"ĠhÃłoĠ":2224,"ĠwÃłn":2225,"ĠdeĠdÃ¬Ġ":2226,"xÅ«Ġ":2227,"kÄĽĠyÇĲĠ":2228,"huÃ¡ngĠ":2229,"xiÄģnĠ":2230,"duÃłnĠ":2231,"kÃ¨Ġ":2232,"dÇİngĠ":2233,"mÃ³Ġ":2234,"cÄģnĠ":2235,"yÃŃngĠ":2236,"tiÃ¡oĠ":2237,"biÄģoĠ":2238,"ĠdeĠyÄ«Ġ":2239,"kÄģiĠshÇĲĠ":2240,"quÃ¡nĠ":2241,"zhÇİnĠ":2242,"ĠchÃ©ngĠwÃ©iĠ":2243,"yÄĽĠ":2244,"hÃ³ngĠ":2245,"mÃ©iĠyÇĴuĠ":2246,"hÃłnĠ":2247,"yÄ«nĠ":2248,"wÄĽiĠyuÃ¡nĠ":2249,"qiÄģnĠ":2250,"bÇİnĠ":2251,"xiÃłnĠ":2252,"lÃŃngĠ":2253,"xiÄģoĠ":2254,"ĠtÃ³ngĠ":2255,"huÃŃĠ":2256,"sÅ«Ġ":2257,"fÃ¡ngĠ":2258,"mÃ©ngĠ":2259,"zhuÄģngĠ":2260,"kÅįngĠ":2261,"jÃºĠ":2262,"cÅ«nĠ":2263,"bÄģoĠkuÃ²Ġ":2264,"rÃ©nĠkÇĴuĠ":2265,"ĠqÃŃĠzhÅįngĠ":2266,"huÃ²Ġ":2267,"ĠgÅįngĠsÄ«Ġ":2268,"zÇĲĠ":2269,"xÃŃngĠ":2270,"dÅįuĠ":2271,"ĠdeĠshÃ¬Ġ":2272,"ĠĠĠzÃłiĠ":2273,"qiÃ¡ngĠ":2274,"zhÃłoĠ":2275,"dÃºĠ":2276,"zhÃ¨ngĠzhÃ¬Ġ":2277,"yÃŃĠgÃ¨":2278,"mÃ²Ġ":2279,"bÄ«ngĠ":2280,"cÇİiĠ":2281,"3Ġ":2282,"fÇİĠguÃ³Ġ":2283,"ĠgÄģoĠ":2284,"ĠdÃłĠxuÃ©Ġ":2285,"ĠshÃ¬ĠyÄ«Ġ":2286,"hÃ¡iĠ":2287,"hÃºĠ":2288,"chÃ¹Ġ":2289,"ĠtÄģĠdeĠ":2290,"qÄ«nĠ":2291,"lÃ¹nĠ":2292,"ĠfÄĵnĠ":2293,"fÃłnĠ":2294,"zhÄĵnĠ":2295,"guÄģngĠ":2296,"wÃ¨nĠ":2297,"mÃłnĠ":2298,"shÃ¨Ġ":2299,"ĠjiÃ©Ġ":2300,"biÇİoĠshÃ¬Ġ":2301,"ÃłiĠ":2302,"zhÅįngĠdeĠ":2303,"jÅ«Ġ":2304,"ĠjiÃłoĠ":2305,"zhuÄģnĠ":2306,"diÃłoĠ":2307,"bÃ¡iĠ":2308,"dÇİĠ":2309,"quÃ¨Ġ":2310,"diÃłnĠshÃ¬Ġ":2311,"ĠdÅįngĠ":2312,"fÃ¨iĠ":2313,"ĠshÃ¬ĠwÃ¨iĠ":2314,"ĠdÃ¹Ġ":2315,"ĠmÃ¹Ġ":2316,"hÃ¡nĠ":2317,"shÃ¬ĠdeĠ":2318,"ĠtÃ¨Ġ":2319,"xÃ¹nĠ":2320,"ĠjÄ«nĠ":2321,"piÃłnĠ":2322,"mÃ¬ngĠ":2323,"jÇĶĠ":2324,"ĠjiÄģngĠ":2325,"tuÅįĠ":2326,"gÃ¹Ġ":2327,"ĠrÃ©nĠkÇĴuĠ":2328,"xiÅ«Ġ":2329,"ĠbÃ¹ĠfÃ¨nĠ":2330,"xiÃ©Ġ":2331,"zÃłoĠ":2332,"ĠhÃ©ĠguÃ³Ġ":2333,"zhÅįngĠguÃ³Ġ":2334,"guÇĴĠ":2335,"10ĠyuÃ¨Ġ":2336,"shÅįuĠ":2337,"ĠzuÃ¬":2338,"xÃ¬nĠ":2339,"12ĠyuÃ¨Ġ":2340,"7ĠyuÃ¨Ġ":2341,"5Ġ":2342,"9ĠyuÃ¨Ġ":2343,"zhuÇİnĠ":2344,"tÄģĠ":2345,"dÄģngĠ":2346,"wÅ«Ġ":2347,"miÃłnĠjÄ«Ġ":2348,"ĠrÃ©nĠmÃŃnĠ":2349,"8ĠyuÃ¨Ġ":2350,"xÃºnĠ":2351,"ĠdÃ¬ĠqÅ«Ġ":2352,"3ĠyuÃ¨Ġ":2353,"ĠshÄ«Ġ":2354,"ĠguÃ²Ġ":2355,"1ĠyuÃ¨Ġ":2356,"4Ġ":2357,"ĠjÄ«ngĠ":2358,"dÃŃĠ":2359,"gÇİnĠ":2360,"huÃ¡nĠ":2361,"jiÇİĠ":2362,"xiÃ¡Ġ":2363,"5ĠyuÃ¨Ġ":2364,"ĠsuÇĴĠ":2365,"yÄ«ngĠguÃ³Ġ":2366,"dÃłoĠ":2367,"ĠcÇĲĠ":2368,"dÇĲĠ":2369,"ĠshÇĴuĠ":2370,"zhÅ«Ġ":2371,"tÄ«ngĠ":2372,"zhÃ¨ngĠshÃ¬Ġ":2373,"chÃ³ngĠ":2374,"huÇĴĠ":2375,"6ĠyuÃ¨Ġ":2376,"zhÅįuĠ":2377,"zhuÃłngĠ":2378,"chÃ©ngĠshÃ¬Ġ":2379,"4ĠyuÃ¨Ġ":2380,"ĠguÃ³ĠjiÄģĠ":2381,"tiÃ¡nĠ":2382,"gÃ¨ngĠ":2383,"ĠĠĠdÃ¬Ġ":2384,"fÃłngĠ":2385,"yÇĴngĠ":2386,"shÇĶĠyÃºĠ":2387,"ĠpÃŃngĠfÄģng":2388,"pÃ²Ġ":2389,"jÅ«nĠ":2390,"ĠdÃ¬ĠyÄ«Ġ":2391,"ĠqiÃ¡nĠ":2392,"11ĠyuÃ¨Ġ":2393,"qÃºnĠ":2394,"qÃ¹Ġ":2395,"jiÃłngĠ":2396,"tÃ¡oĠ":2397,"ĠshÃ¬ĠjÃ¬Ġ":2398,"ĠpÃŃngĠfÄģngĠgÅįngĠlÇĲĠ":2399,"ĠtÃ³ngĠshÃŃĠ":2400,"dÄģnĠrÃ¨nĠ":2401,"gÄĵnĠ":2402,"ĠrÃºĠ":2403,"ĠmÇİĠ":2404,"jÇĲĠ":2405,"ĠdÄĽngĠ":2406,"biÃ©Ġ":2407,"pÃłiĠ":2408,"dÅ«Ġ":2409,"liÃ¡ngĠ":2410,"shÇİoĠ":2411,"huÄ«Ġ":2412,"tiÄĽĠ":2413,"nÃ³ngĠ":2414,"ĠniÃ¡nĠ1ĠyuÃ¨Ġ":2415,"tÇİĠ":2416,"diÃłnĠyÇĲngĠ":2417,"zÅįngĠ":2418,"chÇĶĠ":2419,"ĠqÄ«Ġ":2420,"ĠzhÃ¨":2421,"sÇĲĠ":2422,"ÄĽrĠ":2423,"ĠtiÄģnĠ":2424,"ĠdeĠshÃŃĠ":2425,"shuÄģngĠ":2426,"qiÃ¡oĠ":2427,"tÃ¡iĠwÄģnĠ":2428,"ĠsuÃ¬":2429,"gÄĵnĠjÃ¹Ġ":2430,"lÃ¬ĠshÇĲĠ":2431,"chÃºĠ":2432,"ĠshÃ¬ĠzhÃ¨nĠ":2433,"gÃłoĠ":2434,"bÃłiĠ":2435,"cÄģnĠjiÄģĠ":2436,"yÃ¹nĠdÃ²ng":2437,"gÄģngĠ":2438,"chÄĵĠzhÃłnĠ":2439,"guÃ³ĠdeĠ":2440,"jiÇİoĠ":2441,"ĠyÄ«nĠwÃ¨iĠ":2442,"sĠ":2443,"ĠrÃ¬ĠbÄĽnĠ":2444,"ĠpÃŃngĠfÄģngĠ":2445,"lÃ¬ĠdeĠ":2446,"ĠniÃ¡nĠdeĠ":2447,"gÃłiĠ":2448,"pÃłnĠ":2449,"ĠwÃ©nĠ":2450,"ĠhÇİiĠ":2451,"zhÃ¨ngĠfÇĶĠ":2452,"bÃ¬ngĠ":2453,"zhÇĶnĠ":2454,"ĠniÃ¡nĠ12ĠyuÃ¨Ġ":2455,"wÇİĠ":2456,"yÃłnĠ":2457,"6Ġ":2458,"wÇĴĠ":2459,"gÃ²ngĠhÃ©ĠguÃ³Ġ":2460,"ĠxiÃłnĠdeĠ":2461,"ĠfÃºĠ":2462,"yÃ¡Ġ":2463,"yÃŃnĠ":2464,"fÄģĠxiÃłnĠ":2465,"formulaĠ":2466,"chuÃłngĠ":2467,"hÄĵiĠ":2468,"huÃłnĠ":2469,"qÅ«ĠdeĠ":2470,"sÃ²ngĠ":2471,"hÄģĠ":2472,"hÄĽnĠ":2473,"tÃŃĠgÅįngĠ":2474,"ĠsuÇĴ":2475,"jÃ¬nĠxÃŃngĠ":2476,"ĠbÄĽiĠ":2477,"lÃ©iĠ":2478,"2ĠyuÃ¨Ġ":2479,"jÄ«ngĠjÃ¬Ġ":2480,"tÅįngĠguÃ²Ġ":2481,"ĠniÃ¡nĠ3ĠyuÃ¨Ġ":2482,"suÃŃĠ":2483,"chuÄģnĠ":2484,"ĠwÃłnĠ":2485,"qiÄĽĠ":2486,"ĠzhÅįngĠyÄģng":2487,"ĠguÃ³ĠjÃ¬Ġ":2488,"huÄģĠ":2489,"shÃłngĠdeĠ":2490,"ĠyÃ³uĠyÃºĠ":2491,"lÄĵiĠ":2492,"ĠyÃ²uĠ":2493,"wÄĽiĠyuÃ¡nĠhuÃ¬Ġ":2494,"kÇİoĠ":2495,"ĠniÃ¡nĠ7ĠyuÃ¨Ġ":2496,"wÃ¡nĠ":2497,"chÄĵngĠwÃ©iĠ":2498,"ĠniÃ¡nĠ10ĠyuÃ¨Ġ":2499,"bÇİiĠ":2500,"dÄĵngĠ":2501,"ĠshÃ¬ĠjiÃ¨Ġ":2502,"ĠyÄ«nĠcÇĲĠ":2503,"mÃŃngĠwÃ¨iĠ":2504,"ĠjÃ¬nĠxÃŃngĠ":2505,"nuÃ²Ġ":2506,"ĠshÃ¬ĠzÃłiĠ":2507,"ĠrÃ¡nĠ":2508,"chÅįngĠ":2509,"zhÇĶĠyÃ¬Ġ":2510,"ĠniÃ¡nĠ9ĠyuÃ¨Ġ":2511,"ĠtÄģĠmenĠ":2512,"kuÃłiĠ":2513,"yÃ¡nĠjiÅ«Ġ":2514,"tÇĶĠ":2515,"ĠzhÄ«ĠhÃ²uĠ":2516,"qiÃºĠ":2517,"mÃłiĠ":2518,"shÃŃĠdeĠ":2519,"liÃłnĠ":2520,"hÃłoĠ":2521,"ĠniÃ¡nĠ5ĠyuÃ¨Ġ":2522,"sÃłĠ":2523,"lÃºĠ":2524,"xÃ¬ĠtÇĴngĠ":2525,"pÃ¨iĠ":2526,"ĠzuÃ¬Ġ":2527,"lÇĶĠ":2528,"ĠniÃ¡nĠ4ĠyuÃ¨Ġ":2529,"chÇĲĠ":2530,"liÃłoĠ":2531,"ĠdÄģngĠ":2532,"ĠniÃ¡nĠ8ĠyuÃ¨Ġ":2533,"ĠniÃ¡nĠ6ĠyuÃ¨Ġ":2534,"ĠliÃ¡nĠ":2535,"ĠyÄ«ngĠ":2536,"ĠxÃŃngĠdeĠ":2537,"zÄĵngĠ":2538,"rÃ©nĠdeĠ":2539,"xuÄģnĠ":2540,"xiÄģngĠgÇİngĠ":2541,"ĠshÇĲĠ":2542,"qÄ«ĠjiÄģnĠ":2543,"ÄĵnĠ":2544,"dÃ©Ġ":2545,"kuÃłngĠ":2546,"guÇİnĠlÇĲĠ":2547,"ĠgÅįngĠzuÃ²Ġ":2548,"piÃłoĠ":2549,"ĠzhÄ«ĠyÄ«Ġ":2550,"xÇĶĠ":2551,"dÄ«Ġ":2552,"hÃ©ngĠ":2553,"dÃłĠdeĠ":2554,"bÇĶĠ":2555,"yÃłngĠ":2556,"sÄĵnĠ":2557,"ĠzhÅįngĠxÄ«nĠ":2558,"xuÄģnĠbÃ¹Ġ":2559,"tuÄ«Ġ":2560,"ĠniÃ¡nĠ11ĠyuÃ¨Ġ":2561,"zÇĶĠzhÄ«Ġ":2562,"rÃ¬Ġ":2563,"wÃłngĠ":2564,"bÃ¹ĠdeĠ":2565,"pÃŃĠ":2566,"menĠ":2567,"ĠbÄģoĠkuÃ²Ġ":2568,"chÃłngĠ":2569,"yÇĲngĠxiÇİngĠ":2570,"yÇİngĠ":2571,"ĠtÄģĠzÃłiĠ":2572,"qiÄģnĠmÇĲĠ":2573,"sÄģiĠ":2574,"Ã©rĠ":2575,"ĠĠĠshÄĵngĠ":2576,"ĠhuÃ²ĠdÃ©Ġ":2577,"pÄ«Ġ":2578,"ĠshÃ¬ĠjiÃ¨":2579,"luÃ³ĠsÄ«Ġ":2580,"hÃ¨Ġ":2581,"kÄĽĠnÃ©ng":2582,"chÃ©ngĠdeĠ":2583,"ĠgÄģi":2584,"ĠqÄ«ngĠ":2585,"niÃłnĠ":2586,"dÃ¹nĠ":2587,"xiÃ¡nĠ":2588,"ĠmÄĽi":2589,"ĠC":2590,"sĠĠĠ":2591,"ĠÄģĠ":2592,"lÃ³uĠ":2593,"qÃŃĠtÄģĠ":2594,"ĠniÃ¡nĠ2ĠyuÃ¨Ġ":2595,"ĠchÃ©ngĠlÃ¬Ġ":2596,"leĠyÄ«Ġ":2597,"bÄģngĠ":2598,"huÃ³ĠdÃ²ngĠ":2599,"ĠrÃ¨nĠwÃ©iĠ":2600,"liÃ¹Ġ":2601,"ĠlÃ¡iĠ":2602,"yÅįuĠ":2603,"ĠshÃ¹Ġ":2604,"ĠbÇĲĠ":2605,"kÄĵĠxuÃ©Ġ":2606,"fÄģĠzhÇİnĠ":2607,"ĠfÄĵn":2608,"huÃ²ĠdÃ©Ġ":2609,"jÃ¹nĠ":2610,"ĠzuÃ²ĠwÃ©iĠ":2611,"ĠluÃ³Ġ":2612,"yÄģĠ":2613,"ĠpÃŃngĠfÄģngĠqiÄģnĠmÇĲĠ":2614,"huÃ¡ĠrÃ©nĠmÃŃnĠ":2615,"ĠwÃºĠ":2616,"rÃ¬ĠbÄĽnĠ":2617,"bÄĵiĠ":2618,"lÇİoĠ":2619,"huÃ¬ĠyÃ¬Ġ":2620,"rÃ¨Ġ":2621,"ĠzhÃŃ":2622,"kÃ¹Ġ":2623,"tÃ¡nĠ":2624,"jiÄģnĠdeĠ":2625,"tiÄĽĠlÃ¹Ġ":2626,"ĠliÃºĠ":2627,"ĠdeĠrÃ©nĠ":2628,"yÃ²ngĠyÃºĠ":2629,"liÃ¡oĠ":2630,"nÃŃngĠ":2631,"ĠshÃŃĠjiÄģnĠ":2632,"ĠdeĠgÅįngĠ":2633,"gÃ¨Ġ":2634,"ĠshÄģnĠ":2635,"miÇİnĠ":2636,"miÃłnĠjÄ«":2637,"yÃ¬nĠ":2638,"ruÃ¬Ġ":2639,"mÃŃnĠguÃ³Ġ":2640,"wÅ«ĠkÃ¨Ġ":2641,"ĠyÃ¡nĠ":2642,"ÅįuĠ":2643,"xiÇİnĠ":2644,"lÃ¨Ġ":2645,"7Ġ":2646,"zuÇĴĠ":2647,"gÃ²ngĠyÇĴuĠ":2648,"ĠĠĠlÃ¬ĠshÇĲĠ":2649,"ĠA":2650,"hÇİoĠ":2651,"ÄģiĠ":2652,"ĠzhÄģngĠ":2653,"ĠĠĠshÄĵngĠpÃŃngĠ":2654,"huÃ¡ĠrÃ©nĠmÃŃnĠgÃ²ngĠhÃ©ĠguÃ³Ġ":2655,"fÄģngĠshÃ¬Ġ":2656,"fÄģĠshÄĵngĠ":2657,"gÄģnĠ":2658,"ĠcÃ³ngĠ":2659,"dÃ²uĠ":2660,"wÃ¨nĠtÃŃĠ":2661,"ĠzhÃŃĠ":2662,"guÃłnĠjÅ«nĠ":2663,"zhÇĶĠyÃłoĠ":2664,"rÃ¡nĠ":2665,"dÃ¬ĠdeĠ":2666,"ĠdÃ¬ĠÃ¨rĠ":2667,"dÇİoĠzhÃ¬Ġ":2668,"guÄģnĠxÃ¬Ġ":2669,"cÃºnĠ":2670,"kÄģngĠ":2671,"cÄģnĠyÃ¹Ġ":2672,"yuÇİnĠ":2673,"ĠbÃ¹ĠfÃ¨n":2674,"zhÄĽngĠ":2675,"ĠgÅįngĠchÃ©ngĠ":2676,"wÃ¡nĠchÃ©ngĠ":2677,"dÄģnĠwÃ¨iĠ":2678,"kÄĽĠnÃ©ngĠ":2679,"ĠxiÇİoĠ":2680,"yÄ«ĠwÃ¨iĠ":2681,"ĠjÇĲnĠ":2682,"ĠwÇĶĠ":2683,"ĠzhÇĲĠ":2684,"1ĠrÃ¬Ġ":2685,"xiÃ¨Ġ":2686,"ĠĠĠS":2687,"geĠ":2688,"suÇĴĠyÇĴuĠ":2689,"ĠzÃ©Ġ":2690,"zhÃ¬ĠdeĠ":2691,"wÃ©nĠhuÃłĠ":2692,"ĠzÇĴngĠ":2693,"ĠchÃ©ngĠyuÃ¡nĠ":2694,"ĠdeĠchÃ©ngĠ":2695,"8Ġ":2696,"lÇļĠ":2697,"gÄĽiĠ":2698,"Ġ18":2699,"yuÃ¡nĠdeĠ":2700,"yÅįngĠyÇĴuĠ":2701,"cÃºnĠzÃłiĠ":2702,"Ã¨rĠshÃŃĠ":2703,"ĠtÅįngĠ":2704,"bÄĽiĠbÃ¹Ġ":2705,"ĠbÄģĠ":2706,"liÃ¡nĠhÃ©Ġ":2707,"hÃ²uĠdeĠ":2708,"niÇĶĠ":2709,"ĠshÃ¬ĠzhÅįngĠ":2710,"zhÃ¨ngĠfÇĶ":2711,"yÃ³uĠyÃºĠ":2712,"guÃ³ĠjiÄģĠ":2713,"duÃ¬ĠyÃºĠ":2714,"ĠniÃ¡nĠzhÃ¬Ġ":2715,"fÄģĠxÃŃngĠ":2716,"yÃ¬ĠdeĠ":2717,"jÃ¹ĠyÇĴuĠ":2718,"ĠjiÃłnĠzhÃ¹Ġ":2719,"bÇĲĠsÃłiĠ":2720,"ĠbÃ¬ngĠzÃłiĠ":2721,"ĠdÃłoĠleĠ":2722,"Ã¨Ġ":2723,"ĠzhÇĲ":2724,"xÄ«nĠdeĠ":2725,"sÄ«ĠdeĠ":2726,"shÄĽnĠ":2727,"yÃºnĠ":2728,"zÃ¬ĠjÇĲ":2729,"yÃ¹nĠdÃ²ngĠ":2730,"xÃŃngĠzhÃ¨ngĠ":2731,"yÃ¬nĠdÃ¹Ġ":2732,"Ã©ĠluÃ³ĠsÄ«Ġ":2733,"Ġ15":2734,"bÄ«nĠ":2735,"ĠmiÃłnĠjÄ«Ġ":2736,"dÃłiĠbiÇİoĠ":2737,"shÃłoĠ":2738,"ĠmÄĽiĠguÃ³Ġ":2739,"ĠlÃ¬ngĠ":2740,"xÇĶĠduÅįĠ":2741,"ĠdÃłnĠshÃ¬Ġ":2742,"rÃ¨nĠhÃ©Ġ":2743,"shÄĵngĠyÃºĠ":2744,"tÅ«Ġ":2745,"guÃ¬Ġ":2746,"ĠniÃ¡nĠdÃłiĠ":2747,"ĠS":2748,"dÄ«ngĠ":2749,"liÇİngĠgÃ¨Ġ":2750,"chÃ¨Ġ":2751,"bÇİoĠhÃ¹Ġ":2752,"ĠrÃ©nĠkÇĴuĠmÃ¬Ġ":2753,"ĠjiÇİnĠ":2754,"xiÃ¹Ġ":2755,"ĠshÇĲ":2756,"mÇİnĠ":2757,"zhĠ":2758,"xuÃ¡nĠ":2759,"ĠdÄģngĠshÃŃĠ":2760,"zhÃłngĠ":2761,"ĠdeĠyÃŃĠgÃ¨Ġ":2762,"nÃ¡nĠbÃ¹Ġ":2763,"jÇĶĠxÃŃngĠ":2764,"zhuÄģnĠjÃŃĠ":2765,"miÃłnĠjÄ«ĠwÃ¨iĠ":2766,"ĠdiÃłnĠ":2767,"lÃ¡iĠdeĠ":2768,"Ġ0":2769,"ĠxÃ¬Ġ":2770,"fÄģnĠ":2771,"ĠguÄģnĠ":2772,"ĠĠĠC":2773,"zÇİoĠ":2774,"ĠzhÃ¨ngĠfÇĶĠ":2775,"fÃºĠwÃ¹Ġ":2776,"dÃºĠlÃ¬Ġ":2777,"juÃ©ĠdÃ¬ngĠ":2778,"ĠchÅ«ĠdeĠ":2779,"zhÇĶĠyÃło":2780,"ruÃ²Ġ":2781,"xiÄĽĠ":2782,"kÄģiĠshÇĲ":2783,"ĠlÃ¬ĠshÇĲĠ":2784,"qÇĲngĠ":2785,"ĠcÃ©ngĠ":2786,"ĠshÃ¨ĠjÃ¬Ġ":2787,"nĠ":2788,"ĠsÄģnĠ":2789,"ĠwÃ¡ngĠ":2790,"mÃŃngĠdeĠ":2791,"ĠmÄĽiĠ":2792,"hÃłiĠ":2793,"rÃłngĠ":2794,"ĠshÃ¬ĠwÃ¨iĠyÃºĠ":2795,"jiÃ¹ĠshÃ¬Ġ":2796,"ĠyÇĴuĠyÄ«Ġ":2797,"ĠB":2798,"gÄĵngĠ":2799,"gtĠ":2800,"ĠcÇĲ":2801,"ĠgtĠ":2802,"xÇĲĠ":2803,"ĠjiÄģng":2804,"tÃłnĠ":2805,"ĠqÃŃĠtÄģĠ":2806,"ĠxÃŃngĠzhÃ¨ngĠ":2807,"pÃ©iĠ":2808,"jiÃłoĠyÃ¹Ġ":2809,"suÃłnĠ":2810,"shÃ²uĠdÃłoĠ":2811,"Ġ16":2812,"ltĠ":2813,"ĠĠĠA":2814,"rÃ¨nĠwÃ©iĠ":2815,"ĠfÄĵngĠ":2816,"fÇİngĠ":2817,"ĠshÃ¬ĠdÃ¬Ġ":2818,"fÄģĠzhÇİn":2819,"wÇİnĠ":2820,"kÄģnĠ":2821,"shÃłnĠ":2822,"shÃ¨ĠhuÃ¬Ġ":2823,"ĠltĠ":2824,"yÃ¬ĠwÃ¨iĠ":2825,"gÃ¹ĠshÃ¬Ġ":2826,"piÄģnĠ":2827,"fÄģngĠmiÃłnĠ":2828,"ĠxiÃłnĠzÃłiĠ":2829,"qÅ«ĠwÃ¨iĠ":2830,"ĠzuÃ¬ĠzhÅįngĠ":2831,"qÃŃnĠ":2832,"ĠbÃ¬Ġ":2833,"ĠP":2834,"ĠjiÄĵĠ":2835,"ĠzhÅįngĠyÄģngĠ":2836,"ĠshÃ¬ĠshÃ¬Ġ":2837,"tuÃ¬Ġ":2838,"pÃłoĠ":2839,"zheĠ":2840,"nÃ¨iĠdeĠ":2841,"9Ġ":2842,"shÇĶĠdeĠ":2843,"xiÄģngĠgÇİng":2844,"ĠjiÃ¹Ġ":2845,"xiÇİoĠshÃŃĠ":2846,"dÃłnĠ":2847,"ĠlÃ¬ĠrÃºĠ":2848,"zÃºĠqiÃºĠ":2849,"shÃ¹ĠjÃ¹Ġ":2850,"ĠbÃ¹ĠtÃ³ng":2851,"qiÄģngĠ":2852,"liÃ¨ĠchÄĵĠ":2853,"xÅ«ĠyÃłoĠ":2854,"huÃłĠdeĠ":2855,"zhÃŃĠwÃ¹Ġ":2856,"rÃ©nĠshÃ¬Ġ":2857,"ĠsuÄ«":2858,"kÃłnĠ":2859,"shÇĲĠyÃ²ng":2860,"zuÃ²ĠdeĠ":2861,"zÄĵngĠjiÄģĠ":2862,"ĠjÃ¬ĠhuÃłĠ":2863,"mÃŃnĠzhÇĶĠ":2864,"ĠshÃŃĠqÄ«Ġ":2865,"zuÃ²ĠwÃ©iĠ":2866,"ĠqÅ«Ġ":2867,"kÃ²ngĠzhÃ¬Ġ":2868,"ĠyÄĽĠshÃ¬Ġ":2869,"tÇİnĠ":2870,"ĠgÇĶĠ":2871,"duÇİnĠ":2872,"ĠjiÃłnĠdeĠ":2873,"aĠ":2874,"yÄ«nĠyuÃ¨Ġ":2875,"ĠrÃ¡nĠÃ©rĠ":2876,"ĠĠĠP":2877,"ĠdÃ²ngĠ":2878,"Ġ17":2879,"lÃ¡ngĠ":2880,"ĠyÇĲĠjÄ«ngĠ":2881,"ĠhÃ©ĠzuÃ²Ġ":2882,"ĠshÇĶĠyÃºĠ":2883,"ĠzÃłiĠdÃ¬Ġ":2884,"rÃ©nĠmÃŃnĠ":2885,"ĠshÃ¬ĠjiÃłnĠ":2886,"ĠrÃ©nĠyuÃ¡nĠ":2887,"ĠÄģnĠ":2888,"tÄģĠdeĠ":2889,"ĠjiÃłnĠyÃºĠ":2890,"xuÃ©ĠyuÃłnĠ":2891,"zÇĶĠchÃ©ngĠ":2892,"ĠyÃ²u":2893,"chÄģoĠguÃ²Ġ":2894,"zuÃ²ĠpÇĲnĠ":2895,"ĠcÃ©ng":2896,"ĠyÄ«nĠyuÃ¨Ġ":2897,"ĠmÇİ":2898,"mÃłoĠ":2899,"ĠgÃ©Ġ":2900,"ĠquÃ¡nĠguÃ³Ġ":2901,"ĠkÄĵĠ":2902,"xiÃ³ngĠ":2903,"zÇİiĠ":2904,"hÅ«Ġ":2905,"huÃ¬ĠdeĠ":2906,"jÃ¬ĠdeĠ":2907,"zÇĴngĠtÇĴngĠ":2908,"ĠsÃ¬Ġ":2909,"ĠzhÃ¨ĠxiÄĵĠ":2910,"ĠwÃ¨iĠleĠ":2911,"10Ġ":2912,"ĠhÃ²uĠlÃ¡iĠ":2913,"yÃºĠshÃ¬Ġ":2914,"tĠ":2915,"ĠpÇĶĠ":2916,"xiÅįngĠ":2917,"ĠchÃ©ngĠgÅįngĠ":2918,"fÄģĠbÃ¹Ġ":2919,"ĠshÃ²uĠ":2920,"ĠtÃłiĠ":2921,"dÃłĠlÃ¬Ġ":2922,"tÃŃĠchÅ«Ġ":2923,"ĠlÃ¬ĠyÃłĠ":2924,"Ġ000":2925,"ĠyÃ¬ĠyuÃ¡nĠ":2926,"ĠshÃ¨ĠyÇĴuĠ":2927,"ĠT":2928,"ĠyÄ«nĠcÇĲ":2929,"ĠM":2930,"yÃ¹nĠdÃ²ngĠyuÃ¡nĠ":2931,"yÄģoĠqiÃºĠ":2932,"hÃ¡nĠguÃ³Ġ":2933,"bÃ¹ĠzÃłiĠ":2934,"pÃŃnĠ":2935,"nÃŃĠyÃł":2936,"yÇĴuĠdeĠ":2937,"ĠĠĠdeĠ":2938,"pÃºĠ":2939,"qiÅ«Ġ":2940,"zÃłoĠchÃ©ngĠ":2941,"ÅįuĠzhÅįuĠ":2942,"cÇİiĠyÃ²ngĠ":2943,"xiÇİoĠxÃŃngĠ":2944,"ĠgÅįngĠyuÃ¡nĠ":2945,"jiÄģĠdeĠ":2946,"xÃ¬ngĠdeĠ":2947,"shÄĵngĠdeĠ":2948,"ĠdeĠyÃŃĠgÃ¨":2949,"ĠrÃ¬ĠzÃłiĠ":2950,"dÄģngĠshÃŃĠ":2951,"kÃ²ngĠ":2952,"fÃ¨ngĠ":2953,"bÇİĠ":2954,"rÃ©nĠwÃ¹Ġ":2955,"ĠcÇĲĠwÃłiĠ":2956,"gÃ²ngĠchÇİnĠ":2957,"ĠsuÃŃ":2958,"ĠlÄģĠ":2959,"ĠzhĠ":2960,"ĠD":2961,"Ġãĥ":2962,"ĠcÃ³ng":2963,"ĠwÇĴĠ":2964,"wÄģnĠ":2965,"ĠshÃ¬ĠhÃ©Ġ":2966,"2010ĠniÃ¡nĠ":2967,"ĠE":2968,"ĠlÃ¬ng":2969,"ĠH":2970,"mÇİĠwÃ¨iĠ":2971,"ĠdeĠbÃ¹Ġ":2972,"mÃ¡oĠ":2973,"xuÃ©ĠjiÄģĠ":2974,"yÃ³uĠxÃ¬Ġ":2975,"ĠĠĠB":2976,"sÅįngĠ":2977,"ĠshÄģĠ":2978,"fÃłnĠwÃ©iĠ":2979,"ĠtÇĲĠ":2980,"ĠbÃ¹ĠtÃ³ngĠ":2981,"ĠgÄĵnĠjÃ¹Ġ":2982,"kÄģiĠfÄģĠ":2983,"shÃ¨ĠjÃ¬Ġ":2984,"chÄģoĠ":2985,"dÅ«nĠ":2986,"sÄģnĠniÃ¡nĠ":2987,"qÇĶĠdÃ©Ġ":2988,"ĠnÇļĠ":2989,"ĠdeĠjÄ«Ġ":2990,"ĠkÄĽĠ":2991,"sÃłiĠshÃ¬Ġ":2992,"Ġ1":2993,"ĠxÃŃngĠchÃ©ngĠ":2994,"ĠzhÇİngĠ":2995,"ĠĠĠdÃ¬ĠlÇĲĠ":2996,"yÃ¡oĠ":2997,"ĠĠĠshÃ¬Ġ":2998,"ÄģĠÄĽrĠ":2999,"zÃ¬ĠzhÃ¬Ġ":3000,"chÇİnĠshÄĵngĠ":3001,"ĠwÃ¹Ġ":3002,"dÇĲngĠ":3003,"ĠdeĠjÃ¬Ġ":3004,"wÄĵnĠ":3005,"jiÃ©ĠmÃ¹Ġ":3006,"shÅ«ĠjÃ¬Ġ":3007,"ĠsuÃ¬Ġ":3008,"nÇĲĠ":3009,"ĠbÃ¬ngĠyÃºĠ":3010,"dÅįuĠshÃ¬Ġ":3011,"chÃ³ngĠxÄ«nĠ":3012,"xÃ¬ĠtÇĴng":3013,"zÃłnĠ":3014,"lÃ¼Ã¨Ġ":3015,"ĠshÃ¨ĠhuÃ¬Ġ":3016,"chÅ«nĠ":3017,"zhÃ²ngĠyÃło":3018,"lÇĲĠdeĠ":3019,"bÃºĠshÃ¬Ġ":3020,"ĠdÃłiĠbiÇİoĠ":3021,"yÄ«ĠniÃ¡nĠ":3022,"ĠxiÄģngĠgÇİngĠ":3023,"diÃłnĠyÇĲng":3024,"ĠsÄ«ĠtÃ¨Ġ":3025,"zhuÄ«Ġ":3026,"ĠliÇİngĠ":3027,"guÄģnĠyÃºĠ":3028,"dÃłngĠ":3029,"juÃ©ĠsÃ¨Ġ":3030,"ĠnÃłĠ":3031,"ĠfÃº":3032,"jiÄģoĠtÅįngĠ":3033,"lÇİngĠ":3034,"ĠfÇİĠ":3035,"ĠyÃ³uĠxÃ¬Ġ":3036,"dÃłĠxuÃ©Ġ":3037,"ĠyÃŃĠ":3038,"jÃŃĠdeĠ":3039,"mÃŃĠ":3040,"gÄĵĠqÇĶĠ":3041,"chÃºĠleĠ":3042,"ĠchÅ«ĠxiÃłnĠ":3043,"2020ĠniÃ¡nĠ":3044,"tÇİoĠ":3045,"ĠjiÃ©":3046,"ĠzhÃ¬ĠzuÃ²Ġ":3047,"ĠdÃłĠxuÃ©":3048,"pÃŃngĠjÅ«nĠ":3049,"ĠdÃ©ĠguÃ³Ġ":3050,"xiÇİnĠshÃ¬Ġ":3051,"ĠchÃ©nĠ":3052,"ĠĠĠT":3053,"huÃ¡ĠmÃŃnĠguÃ³Ġ":3054,"ĠniÃ¡nĠzÃłiĠ":3055,"yĠ":3056,"ĠshÄĵnĠ":3057,"ĠzhÅįngĠhuÃ¡ĠrÃ©nĠmÃŃnĠgÃ²ngĠhÃ©ĠguÃ³Ġ":3058,"kÇĴngĠ":3059,"hÃ²uĠzÃłiĠ":3060,"kuÃ²Ġ":3061,"miÃ¡oĠ":3062,"ĠniÃ¡nĠdÃłi":3063,"Ã¨rĠniÃ¡nĠ":3064,"ĠliÇİng":3065,"xiÃłĠdeĠ":3066,"Ġ19":3067,"yÇİnĠyuÃ¡nĠ":3068,"AĠ":3069,"ĠkÃ¨ĠsÄ«Ġ":3070,"ĠjiÄģnĠ":3071,"dÃ©ĠguÃ³Ġ":3072,"ĠĠĠM":3073,"xiÃ¡ngĠ":3074,"ĠĠĠF":3075,"ĠĠĠH":3076,"ĠF":3077,"Ġ1Ġ":3078,"wÃ©iĠyÄ«Ġ":3079,"cÇİoĠ":3080,"qÃ¬ngĠ":3081,"dÄģngĠdÃ¬Ġ":3082,"guÃ³ĠjÃ¬Ġ":3083,"duÃ¬ĠdeĠ":3084,"bÃ³ĠwÃ¹Ġ":3085,"ĠbÇİoĠ":3086,"ĠjiÃłnĠlÃ¬Ġ":3087,"hÅ«nĠ":3088,"ĠdÃ¬ĠguÃ³Ġ":3089,"ĠĠĠG":3090,"ĠbÃ¹ĠyÃºĠ":3091,"ĠfÄĵiĠ":3092,"fÇİnĠduÃ¬Ġ":3093,"qÄ«ĠdeĠ":3094,"duÄģnĠ":3095,"wÃ¹ĠdeĠ":3096,"zÇĴuĠ":3097,"xuÃ¨Ġ":3098,"yÄ«nĠwÃ¨iĠ":3099,"qÅ«ĠyÃ¹Ġ":3100,"Ġ2":3101,"qÃ¹ĠshÃ¬Ġ":3102,"yÄ«ĠbÃ¹ĠfÃ¨nĠ":3103,"bÃ¡ĠgÄģoĠ":3104,"wÃ²Ġ":3105,"quÄĵĠ":3106,"2001ĠniÃ¡nĠ":3107,"guÇİnĠxiÃ¡Ġ":3108,"ĠchÃ¡ngĠ":3109,"ĠG":3110,"ĠN":3111,"dÃ¹ĠwÃ¨iĠ":3112,"zhÃ¨ngĠzhÃ¬ĠrÃ©nĠwÃ¹Ġ":3113,"nÃŃĠyÃłĠ":3114,"hÃ¡iĠyÇĴuĠ":3115,"pÃ©ngĠ":3116,"ĠĠĠrÃ©nĠkÇĴuĠ":3117,"ĠdÄģngĠdÃ¬Ġ":3118,"ĠkÇİĠ":3119,"zuÃ¬ĠzhÅįngĠ":3120,"ĠãĤ":3121,"Ġãģ":3122,"ĠyuÄĵĠ":3123,"ĠtÄģĠshÃ¬Ġ":3124,"ĠbÃ¹ĠduÃ¬Ġ":3125,"lÃ¡iĠzÃ¬Ġ":3126,"bÇĲĠsÃłi":3127,"ĠxÃŃngĠshÃ¬Ġ":3128,"chÃ¬Ġ":3129,"kuÇİnĠ":3130,"zhÃŃĠyÃ¨Ġ":3131,"qiÃ¡nĠwÇİngĠ":3132,"ĠdÄģnĠ":3133,"dÃ¬ngĠdeĠ":3134,"ĠwÄĵiĠ":3135,"quÃ¡nĠguÃ³Ġ":3136,"Ġ3":3137,"bÄģĠshÃ¬Ġ":3138,"yÄ«ĠbÃ¹Ġ":3139,"ĠdeĠyuÃ¡nĠ":3140,"ĠzhÃ¨ngĠfÇĶ":3141,"zhÃ²ngĠyÃłoĠ":3142,"diÃłoĠchÃ¡Ġ":3143,"ĠchÃºĠ":3144,"ĠzhÄ«ĠjiÄģnĠ":3145,"ĠlÃŃnĠ":3146,"biÄģnĠmÇİĠwÃ¨iĠ":3147,"ĠfÄģĠ":3148,"ĠniÃ¡nĠjiÄģnĠ":3149,"ĠhuÃ¡ngĠ":3150,"ĠxuÃ©ĠmÃŃngĠ":3151,"Ġ14":3152,"xuÃ©ĠxiÃłoĠ":3153,"zhÄģoĠ":3154,"zhÇĶĠxÃŃĠ":3155,"xuÇİnĠjÇĶĠ":3156,"ĠrÃ¬ĠzhÃ¬Ġ":3157,"gÇİiĠwÃ©iĠ":3158,"zÇĶĠzhÄ«":3159,"zhÇĶĠjiÃłoĠ":3160,"ĠnÃ¨iĠ":3161,"zÄ«ĠliÃłoĠ":3162,"fÃ¡Ġ":3163,"hÇİiĠjÅ«nĠ":3164,"gÅįngĠshÃ¬Ġ":3165,"ĠjÅ«nĠshÃ¬Ġ":3166,"ĠdeĠdÃłĠ":3167,"sÅ«nĠ":3168,"ĠrÃ©nĠkÇĴuĠmÃ¬ĠdÃ¹Ġ":3169,"chÇĶĠlÇĲĠ":3170,"zÄģiĠ":3171,"ĠdeĠyÃ¬Ġ":3172,"ĠjÃ¬ngĠ":3173,"fÄģngĠfÇİĠ":3174,"kÃłngĠ":3175,"fÃ¹ĠzÃ©Ġ":3176,"ĠduÅį":3177,"ĠrÃ¬ĠbÄĽn":3178,"wÅ«ĠkÃ¨ĠlÃ¡nĠ":3179,"ĠĠĠyÇĶĠ":3180,"guÃłnĠ":3181,"shÃ¹ĠdeĠ":3182,"ĠyÇĴuĠxiÃłn":3183,"dÃłiĠbiÇİo":3184,"ĠbÅįĠ":3185,"ĠgÃ¨ĠrÃ©nĠ":3186,"wÃºĠfÇİĠ":3187,"yÇĲngĠxiÇİng":3188,"ĠjÃ¬ĠshÃ¹Ġ":3189,"ĠshÃ¬ĠyÃ³uĠ":3190,"ĠsÄģn":3191,"jiÄĵĠrÇİng":3192,"zuÃ¬ĠgÄģoĠ":3193,"jÅ«ĠmÃŃnĠ":3194,"ĠshÃ¨ngĠ":3195,"pÃłĠ":3196,"xÃ¬ĠliÃ¨Ġ":3197,"qiÃ¨Ġ":3198,"ĠhuÃłĠ":3199,"qÃŃĠzhÅįngĠ":3200,"lÃ¹ĠdeĠ":3201,"ĠÐ":3202,"ĠmÃ©iĠ":3203,"ĠjiÃ¨Ġ":3204,"xuÃ©ĠshÄĵngĠ":3205,"Ġ2Ġ":3206,"Ġ12":3207,"ĠzhÄ«ĠchÃŃĠ":3208,"ĠhÃ³ngĠ":3209,"zÃ¬ĠyÃ³uĠ":3210,"biÄģoĠzhÇĶnĠ":3211,"wÄĽnĠ":3212,"xiÃ©ĠhuÃ¬Ġ":3213,"shÃ¹ĠliÃłng":3214,"ÄģnĠquÃ¡nĠ":3215,"fÇİnĠyÃ¬ngĠ":3216,"kÄĽĠyÇĲ":3217,"kÄĽnĠ":3218,"huÃ¬ĠzÃłiĠ":3219,"yÄģoĠ":3220,"yÃ©Ġ":3221,"ĠgÇİiĠ":3222,"shÃ¨nĠzhÃ¬Ġ":3223,"bÇĲĠlÃ¬Ġ":3224,"tÇĴngĠzhÃ¬Ġ":3225,"liÃ¡nĠmÃ©ngĠ":3226,"chuÃłngĠzuÃ²Ġ":3227,"zhÇĶĠrÃ¨nĠ":3228,"kÇİiĠ":3229,"ĠsuÃŃĠ":3230,"ĠĠĠbÄĽnĠ":3231,"ĠkÄģiĠ":3232,"dÅįngĠbÃ¹Ġ":3233,"ĠdeĠyÃŃĠgÃ¨ĠshÃ¬ĠzhÃ¨nĠ":3234,"ĠxÄ«n":3235,"ĠshÃ¬ĠyÃŃĠgÃ¨Ġ":3236,"ĠgÅįngĠsÄ«":3237,"gÄģiĠguÃ³Ġ":3238,"yÇİĠ":3239,"ĠfÃ¹ĠzÃ©Ġ":3240,"fÃ¡nĠ":3241,"ĠnÃ¡n":3242,"ĠzÃ©":3243,"yĠĠĠ":3244,"ĠdÃ¬ĠsÄģnĠ":3245,"tÇĲĠyÃ¹Ġ":3246,"ĠdÃ¬ĠshÃŃĠ":3247,"ĠĠĠxÃŃngĠzhÃ¨ngĠ":3248,"jiÃ©ĠgÃ²uĠ":3249,"ĠsÅ«Ġ":3250,"ĠbÃ¹ĠguÃ²Ġ":3251,"mĠ":3252,"ĠqÇĲĠ":3253,"ĠdÃłoĠdeĠ":3254,"shÃŃĠniÃ¡nĠ":3255,"qÃŃngĠkuÃłngĠ":3256,"nÃ©ngĠlÃ¬Ġ":3257,"niÃºĠ":3258,"nÃ¡nĠziĠ":3259,"mÇĴuĠ":3260,"zhÅįngĠshÃ¬Ġ":3261,"qÃŃngĠkuÃłng":3262,"sÃ¬ĠniÃ¡nĠ":3263,"suÅįĠ":3264,"xÄ«ĠbÃ¹Ġ":3265,"gÅįngĠbÃ¹Ġ":3266,"jiÄĵĠshÃ²uĠ":3267,"shÄĵngĠhuÃ³Ġ":3268,"ĠK":3269,"nÇļĠzÇĲĠ":3270,"ĠÃło":3271,"lÃ¹ĠxiÃłnĠ":3272,"ĠgÄĵĠ":3273,"chÃ©ngĠlÃ¬Ġ":3274,"ĠzhÅįngĠxuÃ©Ġ":3275,"ĠĠĠformulaĠ":3276,"ĠshuÇĲĠ":3277,"miÃłnĠdeĠ":3278,"gÅ«Ġ":3279,"huÄģnĠ":3280,"wÃłnĠ":3281,"ĠjÃ¬nĠrÃ¹Ġ":3282,"yÃ¬ĠshÃ¬Ġ":3283,"ĠÄĽrĠsÄ«Ġ":3284,"liÃ¡nĠsÃłiĠ":3285,"bÄĽiĠjÄ«ngĠ":3286,"ĠzhÇĶĠyÃłoĠ":3287,"eĠ":3288,"aĠĠĠ":3289,"ĠbÄģ":3290,"yÇĴuĠshÃŃĠ":3291,"ĠÃłoĠ":3292,"ĠyÃ¬ĠhuÃ¬Ġ":3293,"guÇİngĠdÅįngĠ":3294,"ĠyÃ¡ngĠ":3295,"ĠmÃŃng":3296,"ĠkÄĽĠyÇĲĠ":3297,"duÃ³Ġ":3298,"hÃ¡oĠ":3299,"ĠĠĠjiÄģĠ":3300,"lÃ¡oĠ":3301,"jiÃłnĠzhÃ¹Ġ":3302,"yÃłĠzhÅįuĠ":3303,"dÇİoĠdeĠ":3304,"ĠguÃ³ĠmÃŃnĠ":3305,"yÄĽĠshÃ¬Ġ":3306,"nÃ¡ĠdÃłĠ":3307,"dÃ²ngĠwÃ¹Ġ":3308,"tÃłiĠpÃŃngĠ":3309,"ĠsuÇĴĠyÇĲĠ":3310,"ĠĠĠthe":3311,"zhuÃłnĠ":3312,"dÃ¬ĠwÃ¨iĠ":3313,"ĠzhÃ¨ĠshÃ¬Ġ":3314,"bÃ¡ĠgÄģoĠdÃ¹Ġ":3315,"dÃ¡ĠdÃłoĠ":3316,"zÃ¬ĠjÇĲĠdeĠ":3317,"lÇĲĠshÃ¬Ġ":3318,"zhÃºĠjiÃłnĠ":3319,"ĠbÃ¬ngĠqiÄĽ":3320,"ĠtÃ¡iĠ":3321,"dÃłiĠdeĠ":3322,"bÇİnĠbÄĽnĠ":3323,"guÇĲĠ":3324,"xiÃłngĠmÃ¹Ġ":3325,"rÇİnĠ":3326,"xÇĶĠduÅį":3327,"zhÄĽĠdeĠ":3328,"jiÃłoĠshÃ²uĠ":3329,"2008ĠniÃ¡nĠ":3330,"ĠxuÃ©ĠxiÃłoĠ":3331,"fÄĵiĠchÃ¡ngĠ":3332,"wÅ«ĠkÃ¨ĠlÃ¡n":3333,"2009ĠniÃ¡nĠ":3334,"ĠxÄ«ĠyÃłĠ":3335,"qÄ«ngĠniÃ¡nĠ":3336,"ĠdÃł":3337,"ĠhÃ¡iĠ":3338,"ĠbÃ¬ngĠqiÄĽĠ":3339,"ĠzÇĴng":3340,"suÄģnĠ":3341,"ĠzhÇĶĠyÃło":3342,"lÄģĠsÄ«Ġ":3343,"ĠĠĠgÄĵnĠjÃ¹Ġ":3344,"yÄ«ĠshÃ¬Ġ":3345,"ĠhÃºĠ":3346,"ĠchÃ©ngĠwÃ©i":3347,"suÃ¬Ġ":3348,"rÃ¬ĠbÄĽn":3349,"mÃ³ĠshÃ¬Ġ":3350,"zhÃ©Ġ":3351,"Ġ4":3352,"niÇİoĠ":3353,"wÃ©nĠwÃ¹Ġ":3354,"ĠtÄģĠmenĠdeĠ":3355,"zhÇĲĠyÇĴuĠ":3356,"ĠyÃ¬ĠshÃ¹Ġ":3357,"chÄģĠ":3358,"ĠjÃ¬ĠlÃ¹Ġ":3359,"ĠmÇĶĠ":3360,"ĠzhÅįuĠdeĠ":3361,"hÃ¡ngĠkÅįngĠ":3362,"ĠÃłiĠ":3363,"wÃ©nĠxuÃ©Ġ":3364,"ĠyÃºĠshÃ¬Ġ":3365,"fÄĵnĠwÃ©iĠ":3366,"ĠĠĠD":3367,"ĠbÃ³Ġ":3368,"ĠqÃŃĠshÃ¬Ġ":3369,"ĠqÃŃĠyÃºĠ":3370,"tÅįngĠguÃ²":3371,"ĠÃ¨rĠ":3372,"zhÇĲĠchÅ«Ġ":3373,"ĠmÃŃnĠ":3374,"dÄĽngĠrÃ©nĠ":3375,"ĠL":3376,"Ġ10":3377,"huÇĲĠ":3378,"28ĠrÃ¬Ġ":3379,"shuÃłiĠ":3380,"cuÃ²Ġ":3381,"cÃ¡ngĠ":3382,"rÃ©nĠkÇĴuĠpÇĶĠ":3383,"zhÃŃĠxÃŃngĠ":3384,"tÃ³ngĠshÃŃĠ":3385,"hÃ¹nĠ":3386,"zhÃŃĠjiÄĵĠ":3387,"ĠqiÃºĠduÃ¬Ġ":3388,"zhÃłĠ":3389,"ĠlÃ¬ĠyÃł":3390,"jÇĲnĠbiÄģoĠ":3391,"yÇİnĠchÅ«Ġ":3392,"TĠ":3393,"ĠjÄ«n":3394,"gÄģiĠdÃ¬Ġ":3395,"Ġ13":3396,"gÃ©ĠlÃ¡nĠ":3397,"2016ĠniÃ¡nĠ":3398,"zhÃ¨ĠyÄ«Ġ":3399,"huÃ³ĠdÃ²ng":3400,"rÃ¨nĠwÃ©i":3401,"jÃ¬nĠrÃ¹Ġ":3402,"ĠzhÄ«ĠjiÄģnĠdeĠ":3403,"ĠgÅįngĠkÄģiĠ":3404,"ĠdÄģngĠzhÅįngĠ":3405,"gÃ²ngĠtÃ³ngĠ":3406,"xiÃłĠjÃ¬Ġ":3407,"ĠdÃłnĠzÃłiĠ":3408,"Ġ5":3409,"zhÃłnĠzhÄĵngĠ":3410,"wÇĶĠniÃ¡nĠ":3411,"jiÄģngĠjÅ«nĠ":3412,"chÃ³uĠ":3413,"mÃ©iĠtÇĲĠ":3414,"ĠyÃ²ngĠ":3415,"lÃ¨ĠbÃ¹Ġ":3416,"tÇĲĠdeĠ":3417,"ĠI":3418,"chÄĵĠzhÃłn":3419,"ĠĠĠE":3420,"tuÄ«ĠchÅ«Ġ":3421,"jiÃłoĠyÃ¹":3422,"yÇĶnĠ":3423,"zhÃ¨ĠxiÄĵĠ":3424,"ĠshÃ¬ĠwÃ¹Ġ":3425,"mÃ¨ngĠ":3426,"diÃ©Ġ":3427,"pÅįĠ":3428,"miÃłoĠ":3429,"lÃŃĠkÄģiĠ":3430,"tÃ¬Ġ":3431,"ĠlÃ¬ngĠwÃłiĠ":3432,"huÃ¡nĠjÃ¬ngĠ":3433,"Ġ6":3434,"2012ĠniÃ¡nĠ":3435,"zhÃºĠ":3436,"tÃ©ngĠ":3437,"lÃŃnĠpÇĲ":3438,"ĠdÃ¬ĠÃ¨r":3439,"shÄģngĠyÃ¨Ġ":3440,"2011ĠniÃ¡nĠ":3441,"chuÃ¡nĠtÇĴngĠ":3442,"ĠĠĠniÃ¡n":3443,"15ĠrÃ¬Ġ":3444,"dÄģnĠqÅ«Ġ":3445,"guÄģnĠdeĠ":3446,"sÄģnĠshÃŃĠ":3447,"jÅ«nĠshÃ¬Ġ":3448,"liÃłngĠdeĠ":3449,"jiÄĵĠdÃłoĠ":3450,"sÃłnĠ":3451,"dÃ²ngĠhuÃłĠ":3452,"nÃ¨iĠrÃ³ngĠ":3453,"jÄ«ĠdeĠ":3454,"qiÃ¡nĠdeĠ":3455,"ĠzhÃ¨ĠgeĠ":3456,"ĠcÃ¬Ġ":3457,"rÃ©nĠzÃłiĠ":3458,"zÃłngĠ":3459,"sÃłiĠjÃ¬Ġ":3460,"ĠyÇĲnĠ":3461,"gÄģoĠdeĠ":3462,"bÃ³ĠshÃ¬Ġ":3463,"dÃ¹ĠdeĠ":3464,"ĠwÃ¨iĠrÃ©nĠ":3465,"meĠ":3466,"yÃŃnĠhÃ¡ngĠ":3467,"xuÇİnĠjÇĶ":3468,"ĠwÃ¨iĠzhÃ¬Ġ":3469,"chÃ©ngĠzhÅįngĠ":3470,"mÃ¬ngĠmÃŃngĠ":3471,"dÄĽngĠdÃ¬Ġ":3472,"ĠgÅįngĠlÃ¹Ġ":3473,"rÃ¨ĠdÃłiĠ":3474,"sÇĶnĠ":3475,"ĠgÃ¹Ġ":3476,"bÄĽiĠjÄ«ng":3477,"ĠshÃŃĠjÃ¬Ġ":3478,"yÃ¹nĠdÃ²ngĠhuÃ¬Ġ":3479,"xuÇİnĠzÃ©Ġ":3480,"ĠdÃłĠlÃ¬Ġ":3481,"ĠÃ©rĠzÃłiĠ":3482,"yuÃ¡nĠniÃ¡nĠ":3483,"bÃłoĠgÃłoĠ":3484,"ĠdeĠhÃ©Ġ":3485,"ĠmÃ¹ĠqiÃ¡nĠ":3486,"CĠ":3487,"bÅįĠchÅ«Ġ":3488,"zuÃ¬ĠjiÄģĠ":3489,"ĠwÃº":3490,"PĠ":3491,"ĠĠĠjÃ¹Ġ":3492,"zÅįngĠjiÃłoĠ":3493,"xuÃ©ĠwÃ¨iĠ":3494,"ĠhÃłnĠ":3495,"tÇĶĠdÃ¬Ġ":3496,"ĠdÃ©ĠdÃłoĠ":3497,"bÇİngĠ":3498,"zuÃ¬ĠhÃ²uĠ":3499,"wÃ©nĠhuÃł":3500,"tuÃ¡nĠtÇĲĠ":3501,"25ĠrÃ¬Ġ":3502,"ĠdÃ¬ĠfÄģngĠ":3503,"Ġ5Ġ":3504,"guÇĲĠdÃłoĠ":3505,"luÃłnĠ":3506,"ĠwÃ¨iĠdÃ¬Ġ":3507,"jÄ«ngĠlÃ¬Ġ":3508,"xÃ¬ĠdeĠ":3509,"ĠzhÄ«ĠqiÃ¡nĠ":3510,"shÄĽngĠdeĠyÃŃĠgÃ¨ĠshÃ¬ĠzhÃ¨nĠ":3511,"fÄĵnĠbiÃ©":3512,"ĠshÃ¬ĠyÄ«ĠzhÇĴngĠ":3513,"dĠĠĠ":3514,"ĠshÃ¬ĠwÃ¨iĠyÃºĠmÄĽiĠguÃ³Ġ":3515,"ĠzhÃłn":3516,"jÃŃĠzhÅįngĠ":3517,"Ġ9":3518,"ĠgÃ¨ĠyuÃ¨Ġ":3519,"oĠ":3520,"ĠjÅ«nĠdeĠ":3521,"sÇĲĠwÃ¡ngĠ":3522,"xiÄģngĠguÄģnĠ":3523,"shÇĴuĠcÃ¬Ġ":3524,"ĠyÃ¨Ġ":3525,"30ĠrÃ¬Ġ":3526,"ĠbÄģoĠkuÃ²":3527,"ĠjÄ«ĠgÃ²uĠ":3528,"wÃ¨iĠdeĠ":3529,"ÃłoĠlÃŃnĠpÇĲ":3530,"ĠmÃ³Ġ":3531,"ĠqÃ¬Ġ":3532,"lÇĲngĠdÇİoĠ":3533,"ĠxÃ¬ngĠ":3534,"ĠyÇĴuĠguÄģnĠ":3535,"ĠmÇĲ":3536,"ĠhÇİiĠbÃ¡ĠgÄģoĠdÃ¹Ġ":3537,"ĠyÄ«ĠxiÄĵĠ":3538,"ĠtÃ³ngĠniÃ¡nĠ":3539,"tĠĠĠ":3540,"2014ĠniÃ¡nĠ":3541,"huÃ¡iĠ":3542,"yÃ²ngĠdeĠ":3543,"dĠ":3544,"ĠĠĠwÃ¨iĠ":3545,"20ĠrÃ¬Ġ":3546,"mÄĽiĠyuÃ¡nĠ":3547,"ĠxÃŃngĠdÃ²ngĠ":3548,"ĠzÃłiĠyÄ«Ġ":3549,"jÄ«ĠyÃºĠ":3550,"xuÄĽĠ":3551,"ĠzhÅįngĠhuÃ¡ĠmÃŃnĠguÃ³Ġ":3552,"shuÇĲĠyÃ¹Ġ":3553,"11Ġ":3554,"biÃłnĠhuÃłĠ":3555,"ĠjuÃ©Ġ":3556,"shÃłngĠwÃ¨iĠ":3557,"ĠjÃŃĠtuÃ¡n":3558,"ĠzhÃ²ngĠ":3559,"2018ĠniÃ¡nĠ":3560,"ĠjÃ¬ĠxÃ¹Ġ":3561,"zhÄ«ĠyÄ«Ġ":3562,"ĠshÃŃĠdÃłiĠ":3563,"SĠ":3564,"ĠR":3565,"chÇĶĠyÃºĠ":3566,"UTCĠ":3567,"gÃ²ngĠhÃ©Ġ":3568,"jiÃ©ĠshÃ¹Ġ":3569,"ĠbÃ¹ĠzhÇİngĠ":3570,"zÃ¬ĠjÇĲĠ":3571,"2019ĠniÃ¡nĠ":3572,"ĠzÃ¬ĠjÇĲ":3573,"zhÄ«ĠchÃŃĠ":3574,"2005ĠniÃ¡nĠ":3575,"guÃ²ĠchÃ©ngĠ":3576,"ĠhÃ²uĠlÃ¡i":3577,"shÃ¹nĠ":3578,"ĠbÃ¡iĠ":3579,"10ĠrÃ¬Ġ":3580,"mÃŃnĠzÃºĠ":3581,"2015ĠniÃ¡nĠ":3582,"kÅįngĠjiÄģnĠ":3583,"shuÃ¬Ġ":3584,"Ġ8":3585,"ĠwÃłiĠ":3586,"bÃºĠhuÃ¬Ġ":3587,"yÃ¨ĠyÃºĠ":3588,"ĠrÃº":3589,"tÃ²uĠguÃ²Ġ":3590,"mÃ¨iĠ":3591,"nÃ¨iĠbÃ¹Ġ":3592,"2013ĠniÃ¡nĠ":3593,"jiÄĽĠfÃłng":3594,"xÄ«nĠwÃ©nĠ":3595,"ĠzhÃŃĠdÃłoĠ":3596,"fÄĵnĠbÃ¹Ġ":3597,"ĠyÃ¬ĠzhÃŃĠ":3598,"ĠsÃ¬":3599,"gÄĵnĠjÃ¹":3600,"ĠchÄĵngĠ":3601,"ĠzhÅįuĠshÃ¬Ġ":3602,"pÄ«ĠpÃŃngĠ":3603,"ĠjÃŃĠtuÃ¡nĠ":3604,"2007ĠniÃ¡nĠ":3605,"dÃ¬ĠqÅ«Ġ":3606,"Ġ7":3607,"DĠ":3608,"ĠĠĠzhÃ¨Ġ":3609,"ĠhÃ©ĠnÃ¡nĠ":3610,"tÄģĠmen":3611,"ĠshÃ¬ĠshÃŃĠ":3612,"ĠyÇĴuĠxiÃłnĠgÅįngĠsÄ«Ġ":3613,"ĠjiÃ¹":3614,"gÃ©ĠmÃ¬ngĠ":3615,"20Ġ":3616,"wÃ¡nĠjiÄģĠ":3617,"guÄ«ĠdÃ¬ngĠ":3618,"ĠÃłi":3619,"ĠziĠ":3620,"ĠshÇĶĠ":3621,"ĠjiÄģĠrÃ¹Ġ":3622,"ĠjÇĲngĠ":3623,"wÃ¡nĠquÃ¡nĠ":3624,"chÃ©ngĠwÃ©iĠ":3625,"xÄ«ĠbÄģnĠ":3626,"zÄ«ĠgÃ©Ġ":3627,"ĠshÃ©nĠ":3628,"26ĠrÃ¬Ġ":3629,"dÃłĠlÃ¹Ġ":3630,"ĠĠĠgÄģiĠ":3631,"ĠtÃ¡ngĠ":3632,"2017ĠniÃ¡nĠ":3633,"ÃłoĠlÃŃnĠpÇĲĠkÃ¨Ġ":3634,"ĠdÃłĠhuÃ¬Ġ":3635,"Ġ3Ġ":3636,"24ĠrÃ¬Ġ":3637,"zÃłiĠdeĠ":3638,"zÃ¡ĠzhÃ¬Ġ":3639,"ĠzhÃ¨ĠzhÇĴngĠ":3640,"yÄ«ngĠyÇĶĠ":3641,"pÃºĠtÃ¡oĠ":3642,"lÃ¹ĠdÃ¬Ġ":3643,"qÇĲĠyÃ¨Ġ":3644,"hÃ©ĠdeĠ":3645,"shÃłngĠhÇİiĠ":3646,"ĠyÄ«ngĠguÃ³Ġ":3647,"hÃ¡oĠmÇĲĠ":3648,"ĠyÇĶĠyÃ¡nĠ":3649,"ĠĠĠyÄ«Ġ":3650,"qÃŃĠtÄģ":3651,"fÄģngĠdeĠ":3652,"hÃ²uĠyÄ«Ġ":3653,"luÃ³ĠmÇİĠ":3654,"ĠmÃ²Ġ":3655,"sÄģnĠgÃ¨Ġ":3656,"wÃ¨nĠtÃŃ":3657,"ĠchÃ©ngĠqÅ«Ġ":3658,"ĠkÄĽ":3659,"sÃ¨ĠdeĠ":3660,"2006ĠniÃ¡nĠ":3661,"chuÃ¡nĠtÇĴng":3662,"ĠshÃ¬ĠfÇİĠguÃ³Ġ":3663,"yÄ«ĠdeĠ":3664,"18ĠrÃ¬Ġ":3665,"wÃ¹ĠzhÇĴngĠ":3666,"ĠwÃ¨iĠyÃºĠgÄģiĠguÃ³Ġ":3667,"ĠlÇĲĠsÄ«Ġ":3668,"jÃ¬ngĠnÃ¨iĠ":3669,"ĠbÃ¹ĠtÃ³ngĠdeĠ":3670,"ĠhÄģĠ":3671,"ĠtÃ¡iĠwÄģnĠ":3672,"ĠĠĠof":3673,"wÃ¹ĠlÇĲĠ":3674,"duÅįĠdeĠ":3675,"ĠmÃ²":3676,"shÃ¹ĠwÃ¨iĠ":3677,"ĠdÃłiĠbiÇİo":3678,"ĠĠĠK":3679,"biÇİoĠxiÃłnĠ":3680,"fÇİĠlÇľĠ":3681,"ĠshÃ¬ĠjiÃ¨ĠdÃłĠ":3682,"shÄĽngĠjÃŃĠ":3683,"miÃ¡oĠshÃ¹Ġ":3684,"ĠtÃ³uĠ":3685,"jÄ«ngĠguÃ²Ġ":3686,"guÄģnĠyuÃ¡nĠ":3687,"gÃłnĠ":3688,"21Ġ":3689,"ĠlÃºĠ":3690,"chÄģngĠ":3691,"ĠÄģ":3692,"ĠĠĠN":3693,"ĠzuÃ¬ĠhÃ²uĠ":3694,"bÃłĠ":3695,"ĠyÃ¬ĠbÄģnĠ":3696,"pÃ²ĠhuÃłi":3697,"ĠguÃ³ĠjiÄģ":3698,"ĠyÃłoĠ":3699,"yÃŃngĠdÃ©Ġ":3700,"kuÄģnĠ":3701,"ĠĠĠW":3702,"cÃłiĠ":3703,"zhÃ¨ngĠzÃłiĠ":3704,"ĠsuÃŃĠhÃ²uĠ":3705,"bÄģoĠhÃ¡nĠ":3706,"ĠshÃ¬ĠjiÃłn":3707,"bÃ³ĠwÃ¹ĠguÇİnĠ":3708,"ĠO":3709,"ĠgÅįngĠjÄ«Ġ":3710,"shÃ¨nĠ":3711,"cÃ¨ĠshÃ¬Ġ":3712,"chÇİngĠdeĠ":3713,"zÃ©ĠshÃ¬Ġ":3714,"ĠwÃ¨iĠzhÅįngĠ":3715,"ĠlÃ¬ĠyÃ²ngĠ":3716,"bÃ¹ĠhÃ©Ġ":3717,"nÃ¡Ġ":3718,"30Ġ":3719,"fÇİĠyuÃłnĠ":3720,"niÃ¨Ġ":3721,"fÄĵiĠjÄ«Ġ":3722,"ĠfÄĵnĠbÃ¹ĠyÃºĠ":3723,"ĠĠĠL":3724,"shÇĲĠdeĠ":3725,"zhuÄģnĠyÃ¨Ġ":3726,"zhÄĵngĠyÃ¬Ġ":3727,"27ĠrÃ¬Ġ":3728,"chÃºnĠ":3729,"16ĠrÃ¬Ġ":3730,"BĠ":3731,"Ġ2001ĠniÃ¡nĠ":3732,"ĠdÃ¬ĠqÅ«":3733,"ĠchÃ¡oĠ":3734,"21ĠrÃ¬Ġ":3735,"yÃ¬ĠshÃŃĠ":3736,"yÅįngĠ":3737,"17ĠrÃ¬Ġ":3738,"zÄģoĠdÃłoĠ":3739,"ĠshÃ¬ĠyÃ¬Ġ":3740,"ĠshÄĵngĠhuÃ³Ġ":3741,"12ĠrÃ¬Ġ":3742,"ĠbÃ¨iĠchÄĵngĠwÃ©iĠ":3743,"dÃ¬ngĠyÃ¬Ġ":3744,"ĠzhÅįngĠxÄ«n":3745,"8ĠrÃ¬Ġ":3746,"ĠdÃłĠqÅ«Ġ":3747,"ĠsuÄ«ĠrÃ¡n":3748,"zÅįngĠhÃ©Ġ":3749,"ĠzhÃłnĠzhÄĵngĠ":3750,"ĠW":3751,"xuÃ©ĠdeĠ":3752,"ĠxiÃłnĠshÃŃĠ":3753,"ĠzhÅįngĠgÃ²ng":3754,"jÃŃĠwÃ¨iĠ":3755,"23ĠrÃ¬Ġ":3756,"2021ĠniÃ¡nĠ":3757,"huÃ¡ngĠdÃ¬Ġ":3758,"ĠdeĠzuÃ²Ġ":3759,"zhÇĲĠshÃ¬Ġ":3760,"2022ĠniÃ¡nĠ":3761,"11ĠrÃ¬Ġ":3762,"ÄģĠlÄģĠ":3763,"jiÄģngĠqÃŃĠ":3764,"sÅįuĠ":3765,"ÅįuĠzhÅįu":3766,"ĠbÃ¬ngĠbÃ¹Ġ":3767,"yuÃ¡nĠyÃºĠ":3768,"ĠzhÅ«Ġ":3769,"fÄģngĠxiÃłngĠ":3770,"zhÃłnĠdeĠ":3771,"liÃ¹ĠniÃ¡nĠ":3772,"Ã©ĠluÃ³Ġ":3773,"Ġp":3774,"chÅ«ĠxiÃłnĠ":3775,"quÃ¡nĠlÃ¬Ġ":3776,"ĠchÃ³ngĠ":3777,"ĠĠĠyÃºĠ":3778,"guÄ«ĠmÃ³Ġ":3779,"22ĠrÃ¬Ġ":3780,"liÃ¨ĠchÄĵ":3781,"7ĠrÃ¬Ġ":3782,"29ĠrÃ¬Ġ":3783,"liÃ¨ĠdeĠ":3784,"zuÃ¬ĠdÃłĠdeĠ":3785,"duÅįĠshÃ¹Ġ":3786,"xiÃłngĠdeĠ":3787,"nÇİoĠ":3788,"xÅ«ĠyÃło":3789,"hÃ¡iĠshÃ¬Ġ":3790,"yÃ¹ĠdeĠ":3791,"nÃ©ngĠgÃ²uĠ":3792,"yuÄĵĠhÃłnĠ":3793,"ĠzhÃ¨ĠxiÄĵ":3794,"9ĠrÃ¬Ġ":3795,"ĠlÃ³ngĠ":3796,"ĠĠĠcÇĲĠ":3797,"dÃ¬ngĠwÃ¨iĠ":3798,"tÇĴngĠjÃ¬Ġ":3799,"EĠ":3800,"ĠxiÄģngĠgÇİng":3801,"19ĠrÃ¬Ġ":3802,"sÄģngĠ":3803,"ĠĠĠzhÃ¨ngĠzhÃ¬Ġ":3804,"ĠzÃłiĠzhÃ¨Ġ":3805,"xÃ¬nĠxÄ«Ġ":3806,"liÃ¡nĠmÃ©ng":3807,"yÃłngĠdeĠ":3808,"ĠxiÃłnĠzhÃ¬Ġ":3809,"ĠcÃ¬":3810,"gÅįngĠdeĠ":3811,"jÇĶĠbÃłn":3812,"qiÃºĠduÃ¬Ġ":3813,"hÅįngĠ":3814,"chÃ¡ĠdeĠ":3815,"14ĠrÃ¬Ġ":3816,"lÃ¬ngĠyÄ«Ġ":3817,"chÃ¡ngĠshÃ¬Ġ":3818,"5ĠrÃ¬Ġ":3819,"mÄĽiĠguÃ³ĠrÃ©nĠkÇĴuĠpÇĶĠ":3820,"niÇĶĠyuÄĵ":3821,"zÇĶĠhÃ©Ġ":3822,"ĠhuÃ²ĠdÃ©":3823,"3ĠrÃ¬Ġ":3824,"lÃŃnĠshÃŃĠ":3825,"31ĠrÃ¬Ġ":3826,"ĠzhÅįngĠbÃ¹Ġ":3827,"wÃ¨iĠshÃ¬Ġ":3828,"dÇĴngĠshÃ¬Ġ":3829,"ĠfÄĵnĠbiÃ©":3830,"jÄ«ĠdÃ¬Ġ":3831,"gÄĵĠshÇĴuĠ":3832,"dÅįngĠnÃ¡nĠ":3833,"hÇİiĠbÃ¡":3834,"ĠĠĠzhÅįngĠ":3835,"onĠ":3836,"bÄģngĠzhÃ¹Ġ":3837,"ĠdeĠshÃ¬ĠzhÃ¨nĠ":3838,"6ĠrÃ¬Ġ":3839,"ĠlÃ¹":3840,"bÇĲngĠ":3841,"mÃ³uĠ":3842,"pÄģiĠshÃ¨Ġ":3843,"Ġ4Ġ":3844,"ĠyÃ¬ĠdÃłĠlÃ¬Ġ":3845,"2000ĠniÃ¡nĠ":3846,"ĠshÃ¨ĠlÃ¬Ġ":3847,"2ĠrÃ¬Ġ":3848,"ĠyÃ¬ĠbÄģn":3849,"ĠrÃ©nĠkÇĴu":3850,"gÃ¨ĠrÃ©nĠ":3851,"Ġ190":3852,"shÃ¨ĠyÇĴuĠ":3853,"ĠdeĠzhÅįngĠ":3854,"ĠgÃ²ngĠ":3855,"4ĠrÃ¬Ġ":3856,"ĠliÃº":3857,"shÄĵngĠyÃ¡Ġ":3858,"ĠrÃ¹Ġ":3859,"ĠhuÃ¡Ġ":3860,"yuÃ¡nĠhÃ©Ġ":3861,"2004ĠniÃ¡nĠ":3862,"ĠdÃ¬ĠqÅ«ĠdeĠ":3863,"ĠxuÃ©ĠshÄĵngĠ":3864,"ĠdÇİoĠzhÃ¬Ġ":3865,"tiÄĽĠlÃ¹":3866,"ĠbÃłoĠ":3867,"zÃºĠqiÃº":3868,"zÇİoĠqÄ«Ġ":3869,"alĠĠĠ":3870,"ĠqÃŃĠtÄģ":3871,"cÄģngĠ":3872,"fÃ©ngĠ":3873,"13ĠrÃ¬Ġ":3874,"xiÅįngĠdÃ¬Ġ":3875,"ĠĠĠtheĠĠĠ":3876,"shÄĵngĠzÃłiĠ":3877,"dÅįngĠbÄĽiĠ":3878,"12Ġ":3879,"tÅįngĠchÃ¡ngĠ":3880,"mÃ¹ĠdÃ¬Ġ":3881,"huÄ«ĠfÃ¹Ġ":3882,"0Ġ":3883,"ĠshÃ¬ĠchÇİngĠ":3884,"ĠxuÃ©ĠyuÃłnĠ":3885,"ĠzhÃ¨ĠyÄ«Ġ":3886,"erĠ":3887,"ruÇİnĠ":3888,"shÄģoĠ":3889,"ĠwÇĴ":3890,"shÄĵnĠfÃ¨nĠ":3891,"ĠĠĠyÃ³uĠyÃºĠ":3892,"qÇĶĠdÃłiĠ":3893,"gÃ©ĠmÃ¬ng":3894,"zhÇĲĠhuÄ«Ġ":3895,"qÃŃngĠkuÃłngĠxiÃłĠ":3896,"sÅ«ĠliÃ¡nĠ":3897,"yÃŃĠbÃ¹Ġ":3898,"xiÃ©ĠyÃ¬Ġ":3899,"huÃ¡ngĠjiÄģĠ":3900,"kÄĵĠjÃ¬Ġ":3901,"fÄģĠxiÃłn":3902,"pÃ¡nĠ":3903,"pÃ¡ngĠ":3904,"zhÄĽngĠgÃ¨Ġ":3905,"zhÄģnĠ":3906,"ĠmÃ©iĠyÇĴuĠ":3907,"rÃ©nĠhÃ©Ġ":3908,"ĠgÅįngĠchÇĲĠ":3909,"liÃ¡nĠbÄģngĠ":3910,"yÄģoĠqiÃº":3911,"yÄģnĠ":3912,"ĠhÄĵiĠ":3913,"ĠbiÃłnĠ":3914,"chÄģoĠjÃŃĠ":3915,"mÃłoĠyÃ¬Ġ":3916,"yuÃ¨ĠdeĠ":3917,"ĠgÃ¹":3918,"zhÇİngĠdeĠ":3919,"xuÃ©ĠyuÃłn":3920,"fÇİnĠyÃ¬ng":3921,"jÇĶĠbÃłnĠ":3922,"cuÄ«Ġ":3923,"hÃ¡ngĠkÅįng":3924,"xÃŃĠjÄ«Ġ":3925,"ĠyÄĽĠyÇĴuĠ":3926,"huÃłĠhÃ©Ġ":3927,"guÄģnĠfÄģngĠ":3928,"xiÇİoĠshuÅįĠ":3929,"nÇļĠxÃ¬ngĠ":3930,"ĠfÃ¹":3931,"ĠdÃ¬ĠlÃ¬Ġ":3932,"3ĠniÃ¡nĠ":3933,"IĠ":3934,"lÃ¬ĠhÃ©Ġ":3935,"ĠxÄ«ĠnÃ¡nĠ":3936,"tÃºĠshÅ«Ġ":3937,"bÃ¬ĠyÃ¨Ġ":3938,"4ĠniÃ¡nĠ":3939,"xiÄģnĠhÃ²uĠ":3940,"zÃ¡Ġ":3941,"tÇĴngĠyÄ«Ġ":3942,"ĠhÄģ":3943,"brĠ":3944,"hÃ³uĠ":3945,"ĠJ":3946,"sÃłiĠdeĠ":3947,"zÅ«nĠ":3948,"ĠyÇĲĠjÄ«ng":3949,"lÇİnĠ":3950,"ĠbrĠ":3951,"xiÃ©ĠzhÃ¹Ġ":3952,"cÃ¬ĠshÃ¬ĠjiÃ¨ĠdÃłĠ":3953,"ĠwÄĵi":3954,"Ġ6Ġ":3955,"ĠshÅ«Ġ":3956,"ĠrÃºĠguÇĴĠ":3957,"shÃłngĠshÃ¬Ġ":3958,"qÅ«ĠhuÃłĠ":3959,"ĠdÅįng":3960,"ĠquÃ¨Ġ":3961,"fÄĵnĠxÄ«Ġ":3962,"yÇĶĠdeĠ":3963,"ĠÄĽrĠshÄĽngĠ":3964,"rÃ©nĠkÇĴuĠshÃ¹ĠliÃłng":3965,"wÃ©nĠwÃ¹ĠbÇİoĠhÃ¹Ġ":3966,"tÇĲngĠ":3967,"ĠhÃ©ĠyÄ«Ġ":3968,"iĠ":3969,"ĠbÃ¹ĠnÃ©ngĠ":3970,"zÃ¬ĠxÃŃngĠ":3971,"ĠĠĠR":3972,"jiÄĵĠduÃłnĠ":3973,"wÃºĠxiÃłnĠ":3974,"guÇİngĠbÅįĠ":3975,"ĠyÇĲĠlÃ¡iĠ":3976,"ĠxÄ«ĠbÄģnĠ":3977,"dÄģnĠrÃ¨n":3978,"ĠshuÄģngĠ":3979,"ĠqiÄĽĠ":3980,"ĠbÄĽn":3981,"ĠzÇĶĠ":3982,"ĠtÄģĠcÃ©ng":3983,"chÃŃĠxÃ¹Ġ":3984,"tÃ¡iĠbÄĽi":3985,"5ĠniÃ¡nĠ":3986,"gÃ²ngĠchÇİnĠdÇİngĠ":3987,"guÃ³ĠhÃ©Ġ":3988,"ĠwÇĶ":3989,"ĠyÇĲĠxiÃłĠ":3990,"fÄģĠbiÇİo":3991,"qÄ«ĠniÃ¡nĠ":3992,"tÃ¨ĠdeĠ":3993,"rÃ©ngĠ":3994,"dÇİoĠyÇİnĠ":3995,"6ĠniÃ¡nĠ":3996,"hÃ²uĠyÃºĠ":3997,"yÇİnĠchÃłng":3998,"zhÃ¹ĠzÃłiĠ":3999,"ĠĠĠO":4000,"xiÃłĠxiÃ¡":4001,"tiÃ¡oĠjiÃłnĠ":4002,"pÃŃnĠdÃłoĠ":4003,"ĠgÅįngĠzuÃ²":4004,"ĠmÃłnĠ":4005,"yÃ¨ĠdeĠ":4006,"jiÄģoĠyÃ¬Ġ":4007,"ĠzÃłiĠcÃ¬Ġ":4008,"ĠcÃ¡iĠ":4009,"shÃłoĠniÃ¡nĠ":4010,"jiÃ©ĠshÃ¹":4011,"ĠshÃ¬ĠzhÅįngĠguÃ³Ġ":4012,"lÃłiĠ":4013,"hÇĶĠ":4014,"bÃłoĠdÃłoĠ":4015,"ĠrÃ©nĠkÇĴuĠmÃ¬ĠdÃ¹ĠwÃ¨iĠ":4016,"qiÃºĠyuÃ¡nĠ":4017,"anĠ":4018,"ĠshÃ¬ĠlÃ¬Ġ":4019,"ĠĠĠbÃ¹Ġ":4020,"juÃ©ĠsÃłiĠ":4021,"ĠqiÄĽ":4022,"yÃ¬ngĠyÃ²ngĠ":4023,"wÃłiĠdeĠ":4024,"yÃ³uĠzhÃ¨ngĠ":4025,"jiÃłnĠlÃ¬Ġ":4026,"zÄģoĠ":4027,"9ĠniÃ¡nĠ":4028,"zÄ«ĠyuÃ¡nĠ":4029,"sÄģiĠÄĽrĠ":4030,"ĠzhÄģng":4031,"ĠqÃŃĠhÃ²uĠ":4032,"ĠjiÇĶĠ":4033,"ĠyÃłĠ":4034,"zuÃ¬ĠdÃłĠ":4035,"cÄģoĠ":4036,"ĠbÃ¬ngĠwÃ¨iĠ":4037,"huÃŃĠdÃłoĠ":4038,"sÃ¹ĠdÃ¹Ġ":4039,"qÃ¬ĠhÃ²uĠ":4040,"kÄĽĠdÃ¡Ġ":4041,"ĠwÃ¨iĠyÃºĠfÇİĠguÃ³Ġ":4042,"gÇİiĠgÃ©Ġ":4043,"mÃ¬ĠshÅ«Ġ":4044,"ĠxÄ«":4045,"ĠyÄ«ĠyuÃłnĠ":4046,"diÃłnĠshÃ¬ĠjÃ¹Ġ":4047,"zhuÃłngĠtÃłiĠ":4048,"zhÃ¹ĠdeĠ":4049,"fÃ¨nĠwÃ¨iĠ":4050,"ĠgÅįngĠyÃ¨Ġ":4051,"ĠluÃ²Ġ":4052,"wÇİngĠzhÃłnĠ":4053,"kÄģiĠfÄģ":4054,"gÅįngĠsÄ«Ġ":4055,"jiÃ©ĠguÇĴĠ":4056,"suÇĴĠshÇĶĠdeĠ":4057,"ĠdeĠdÃ¬ĠyÄ«Ġ":4058,"ĠqiÄģnĠ":4059,"hÃºĠnÃ¡nĠ":4060,"ĠyÄ«ĠsÄ«Ġ":4061,"yÃłĠlÃ¬Ġ":4062,"ĠwÃ¨iĠyÄ«Ġ":4063,"shÇĴuĠcÃ¬":4064,"jiÃ©ĠhÃ©Ġ":4065,"shÃłngĠhÇİi":4066,"ĠzhÃ¨Ġge":4067,"20ĠshÃ¬ĠjÃ¬Ġ":4068,"zÃ²uĠ":4069,"ĠzuÃ²ĠpÇĲnĠ":4070,"ĠmÃłi":4071,"zuÇĴĠyÃ²uĠ":4072,"xiÇİoĠxuÃ©Ġ":4073,"ĠjiÄĽĠ":4074,"ĠzhÃłoĠ":4075,"shÃ¨ngĠlÃ¬Ġ":4076,"ĠzhÅįngĠgÃ²ngĠ":4077,"UĠ":4078,"ĠhÃłoĠxiÃłnĠ":4079,"zhÃ¨nĠqÅ«Ġ":4080,"2ĠniÃ¡nĠ":4081,"ĠdeĠfÃ¹Ġ":4082,"wÃ©nĠmÃŃngĠ":4083,"ĠjiÇİnĠchÄĵngĠ":4084,"yÃŃĠzhÃ¬Ġ":4085,"jiÃłoĠhuÃ¬Ġ":4086,"shÄĽngĠfÃ¨nĠ":4087,"zhÇİnĠkÄģiĠ":4088,"yÃ¬nĠdÃ¹":4089,"shÃŃĠqÄ«Ġ":4090,"ĠsuÇĴĠyÇĴuĠ":4091,"lÇĲngĠdÇİo":4092,"ĠfÇİĠguÃ³Ġ":4093,"mÃ¹ĠbiÄģoĠ":4094,"ĠÃ©rĠshÃ¬Ġ":4095,"gÄģoĠjÃŃĠ":4096,"zhÇĶnĠbÃ¨iĠ":4097,"fÄģĠbiÇİoĠ":4098,"wÇİngĠluÃ²Ġ":4099,"ĠjiÃłnĠshÃ¨Ġ":4100,"xÃ¹nĠliÃłnĠ":4101,"kÄĵĠdeĠ":4102,"ĠrÃ©nĠwÃ¹Ġ":4103,"xuÇİnĠshÇĴuĠ":4104,"jiÄģoĠtÅįng":4105,"hÇİoĠdeĠ":4106,"zÃ¬ĠrÃ¡nĠ":4107,"zhÃ²ngĠyÃłoĠdeĠ":4108,"dÅįngĠjÄ«ngĠ":4109,"chÇİnĠpÇĲnĠ":4110,"gÃ²ngĠyÇĴuĠrÃ©nĠkÇĴuĠ":4111,"ĠxiÃłnĠdÃłiĠ":4112,"ĠyÄ«ĠmÃŃngĠ":4113,"ĠxÄ«ĠbÄĽiĠ":4114,"fÄĵngĠgÃ©Ġ":4115,"ĠfÄĵi":4116,"ĠchÃ©ngĠjÃ¬Ġ":4117,"lÄĽiĠ":4118,"ĠhÃ©ĠdÃ¬Ġ":4119,"yÃ¡nĠzhÃ²ngĠ":4120,"xiÇİoĠxÃŃngĠxÄ«ngĠ":4121,"rĠ":4122,"ziĠdeĠ":4123,"mÃ¹ĠqiÃ¡nĠ":4124,"ĠjiÇİĠ":4125,"liÃºĠxÃŃngĠ":4126,"wÃ©nĠwÃ¹ĠbÇİoĠhÃ¹ĠdÄģnĠwÃ¨iĠ":4127,"juÇİnĠ":4128,"ĠjÄ«ĠchÇİngĠ":4129,"biÃłnĠchÃ©ngĠ":4130,"7ĠniÃ¡nĠ":4131,"qiÃ¡oĠzhÃ¬Ġ":4132,"miÃ¨Ġ":4133,"8ĠniÃ¡nĠ":4134,"lÃ¨iĠsÃ¬":4135,"1ĠniÃ¡nĠ":4136,"diÃłnĠshÃ¬ĠtÃ¡iĠ":4137,"jiÄĽĠshÃ¬Ġ":4138,"guÃ³ĠmÃŃnĠ":4139,"ĠyÃ¬ĠqÇĲĠ":4140,"ĠwÅ«Ġ":4141,"kÄģiĠfÃłngĠ":4142,"ĠlÃ¡nĠ":4143,"ĠyÇĴngĠ":4144,"ĠxiÃłĠlÃ¬ng":4145,"ĠmÃłiĠ":4146,"kÇİĠÄĽrĠ":4147,"2003ĠniÃ¡nĠ":4148,"xÃŃngĠshÃ¬Ġ":4149,"dÅįuĠyÇĴuĠ":4150,"ĠshÃ¨nĠzhÃ¬Ġ":4151,"2002ĠniÃ¡nĠ":4152,"ĠyÃŃĠgÃ¨Ġ":4153,"zhÄ«ĠhÃ²uĠ":4154,"huÃ¬ĠhÃ©Ġ":4155,"mÄĽiĠpÃŃngĠfÄģngĠgÅįngĠlÇĲĠ":4156,"rÃ¹ĠleĠ":4157,"ĠyÄ«ĠyÃłngĠ":4158,"ĠchÃºĠleĠ":4159,"ĠgÅįngĠfÄĵnĠ":4160,"ĠshÃ¨ĠzhÃ¬Ġ":4161,"tÃ¨ĠzhÄĵngĠ":4162,"cÄģnĠsÃłiĠ":4163,"ĠsÄ«ĠjÄ«Ġ":4164,"rÃºĠxiÃłĠ":4165,"eĠĠĠ":4166,"zhÄĵnĠduÃ¬Ġ":4167,"jiÃ¹ĠshÃ¬ĠzhÃ¨nĠ":4168,"ĠshÃ¬ĠfÇĴu":4169,"ĠshÃŃĠjiÄģn":4170,"zhÃ¨ĠgeĠ":4171,"ĠguÄģngĠ":4172,"gÄģoĠzhÅįngĠ":4173,"ĠcÇĲĠhÃ²uĠ":4174,"ĠdÄģnĠrÃ¨nĠ":4175,"bÃ¬ĠxÅ«Ġ":4176,"ĠzÃłiĠzhÅįngĠ":4177,"wÃ¡ngĠguÃ³Ġ":4178,"bÃłngĠ":4179,"bÇĲĠjiÃłoĠ":4180,"Ġ00":4181,"Ã¨rĠshÃ¬Ġ":4182,"wÃłiĠjiÄģo":4183,"guÄ«ĠhuÃłĠ":4184,"diÄģoĠ":4185,"ĠyÃ¬ĠzhÃ¬Ġ":4186,"lÃ¨iĠsÃ¬Ġ":4187,"shÄģnĠdÅįngĠ":4188,"ĠrÃ¡nĠhÃ²uĠ":4189,"ĠyÃ¬ĠzhÃŃ":4190,"ĠlÃ¬ĠshÇĶĠyÃºĠ":4191,"ĠsuÄ«ĠrÃ¡nĠ":4192,"yuÃ¡nĠshÃ¬Ġ":4193,"duÃ¬ĠzÃłiĠ":4194,"zhÃ¹ĠmÃŃngĠ":4195,"yÃºnĠnÃ¡nĠ":4196,"hÄĽnĠduÅįĠ":4197,"ĠÄĽrĠdeĠ":4198,"huÃ²ĠdÃ©":4199,"ĠjiÃłĠ":4200,"shÄĵngĠchÇİnĠ":4201,"zhÃłnĠyÃ¬Ġ":4202,"ĠyÇĶ":4203,"ĠĠĠgÅįngĠ":4204,"diÃłnĠziĠ":4205,"ĠbÄĽi":4206,"zhÃ²ngĠdeĠ":4207,"Ġ11":4208,"ĠjiÃłnĠzhÃ¬Ġ":4209,"ĠĠĠdÃłĠ":4210,"xÄ«nĠjiÄģĠ":4211,"lÃ¡iĠzÃ¬":4212,"zhÃ¬ĠzuÃ²Ġ":4213,"shÄģnĠxÄ«Ġ":4214,"rÃ©nĠkÇĴuĠshÃ¹ĠliÃłngĠwÃ¨iĠrÃ©nĠ":4215,"jÃ¹ĠjÃŃĠ":4216,"ĠdeĠyÄ«ĠzhÇĴngĠ":4217,"ĠdeĠmÃŃngĠ":4218,"jÃŃĠhÃ©Ġ":4219,"ĠxÄ«ĠyÃł":4220,"tÃłoĠ":4221,"ĠgÇĶ":4222,"lÇļĠyÃ³uĠ":4223,"ĠzhÃ¬ĠzÃłoĠ":4224,"ĠxÃŃngĠwÃ©iĠ":4225,"ĠshÄģngĠ":4226,"mÇİĠlÃ¡i":4227,"bÃłoĠfÄģĠ":4228,"nÇļĠÃ©rĠ":4229,"ĠrÃ¨n":4230,"ĠINSEE":4231,"deĠĠĠ":4232,"zÇĴngĠlÇĲĠ":4233,"quÃ¡nĠqiÃºĠ":4234,"sÄ«ĠhÃ©Ġ":4235,"ĠdeĠzhÇĶĠ":4236,"yÃ¨ĠwÃ¹Ġ":4237,"ĠshÃłngĠhÇİiĠ":4238,"sÃłiĠzhÅįngĠ":4239,"fÄģĠshÃ¨Ġ":4240,"ruÃ¬ĠshÃ¬Ġ":4241,"bÄģoĠhÃ¡n":4242,"nÃ³ngĠyÃ¨Ġ":4243,"ĠtÃºĠ":4244,"tÃ³uĠzÄ«Ġ":4245,"nÃłiĠ":4246,"lÃ¹ĠjÅ«nĠ":4247,"wÃ¹ĠzhÃ¬Ġ":4248,"juÃ©ĠdeĠ":4249,"ĠchÄĵĠ":4250,"ĠduÃ¬ĠyÃºĠ":4251,"tÃ¨ĠbiÃ©Ġ":4252,"ĠzÇĶ":4253,"ĠjÃ¬nĠshÃ¬Ġ":4254,"ĠdeĠshÃŃĠhÃ²uĠ":4255,"ÃłoĠlÃŃnĠpÇĲĠkÃ¨ĠyÃ¹nĠdÃ²ngĠhuÃ¬Ġ":4256,"gÃ©ĠdeĠ":4257,"mÇĲnĠ":4258,"ĠzhÃ¬ĠjÄ«nĠ":4259,"fÄģngĠÃłnĠ":4260,"sÄ«ĠrÃ©nĠ":4261,"huÃłĠxuÃ©Ġ":4262,"ĠtÃ¨ĠbiÃ©":4263,"ĠdÃłĠliÃłngĠ":4264,"ĠdÄĽng":4265,"jÃŃĠshÃ¬Ġ":4266,"ĠbiÇİoĠshÃ¬Ġ":4267,"kÄĽĠnÃ©ngĠshÃ¬Ġ":4268,"liÃ¡nĠjiÄĵĠ":4269,"jÃ¬nĠdeĠ":4270,"ĠzhÄ«ĠwÃłiĠ":4271,"fÄģĠdÃ²ngĠ":4272,"sÃ¬ĠshÃŃĠ":4273,"ĠnÃŃĠ":4274,"cÃ¡oĠ":4275,"ĠV":4276,"xuÇİnĠwÃ¨iĠ":4277,"chÃłĠ":4278,"qiÇİnĠ":4279,"ĠshÃ¨ĠshÄ«Ġ":4280,"chÃ¹ĠdeĠ":4281,"tÇĶĠÄĽr":4282,"ĠlÃ¬ĠsÄ«Ġ":4283,"bÃ³ĠtÃ¨Ġ":4284,"xĠ":4285,"ĠzÇĴngĠmiÃłnĠjÄ«Ġ":4286,"luÃ³ĠmÇİ":4287,"chuÃłngĠlÃ¬Ġ":4288,"ĠdeĠlÃ¬Ġ":4289,"ĠdÃ©ĠlÇĲĠ":4290,"guÇİngĠchÇİngĠ":4291,"liÃ¡nĠhÃ©ĠguÃ³Ġ":4292,"jÃŃĠshÃŃĠ":4293,"gÄĵngĠmÃŃngĠwÃ¨iĠ":4294,"zÇİoĠniÃ¡nĠ":4295,"2023ĠniÃ¡nĠ":4296,"xiÃłoĠlÃ¬Ġ":4297,"XĠ":4298,"qÃ¬ĠdeĠ":4299,"juÃ©ĠdÃ¬ng":4300,"biÇİoĠyÇİnĠ":4301,"yÃŃĠshÃ¬Ġ":4302,"rÃ©ngĠrÃ¡nĠ":4303,"ĠjÅ«nĠzÃłiĠ":4304,"fÄģngĠmiÃłn":4305,"ĠgÄģiĠshÄĽngĠ":4306,"zÇĴngĠtÇĴng":4307,"zhÃ¬ĠshÃ¬Ġ":4308,"dÄģĠ":4309,"ĠgÅįngĠnÃ©ngĠ":4310,"ĠgÃ¨ngĠ":4311,"ĠrÃ©nĠkÇĴuĠmÃ¬ĠdÃ¹ĠmÄĽiĠpÃŃngĠfÄģngĠgÅįngĠlÇĲĠ":4312,"ĠrÃ©nĠkÇĴuĠmÃ¬ĠdÃ¹ĠwÃ¨iĠmÄĽi":4313,"ĠxiÃłĠlÃ¬ngĠshÃŃĠ":4314,"yÃ³uĠzhÃ¨ngĠbiÄģnĠmÇİĠwÃ¨iĠ":4315,"chÃ¡ĠdeĠshÃ¹ĠjÃ¹Ġ":4316,"ĠjÃ¹ĠlÃ¨ĠbÃ¹Ġ":4317,"ĠzhÄĵnĠ":4318,"ĠshÃ¬ĠzhÃ¨nĠbiÄģnĠmÇİĠwÃ¨iĠ":4319,"ĠINSEEĠshÃ¬ĠzhÃ¨nĠbiÄģnĠmÇİĠwÃ¨iĠ":4320,"ngĠ":4321,"ĠĠĠbÃ¨iĠ":4322,"biÄģoĠzhÇĶn":4323,"ĠxiÄģnĠ":4324,"ĠshÃ¨ĠdeĠ":4325,"xuÇİnĠqÅ«ĠwÃ¨iĠ":4326,"jiÇĶĠniÃ¡nĠ":4327,"ĠzÃłiĠcÇĲĠ":4328,"ĠbÃ¹ĠguÃ²":4329,"pÃ¡iĠmÃŃngĠ":4330,"ĠguÃ³ĠwÃ¡ngĠ":4331,"dÃ²ngĠlÃ¬Ġ":4332,"shÃŃĠdeĠrÃ©nĠkÇĴuĠshÃ¹ĠliÃłngĠwÃ¨iĠrÃ©nĠ":4333,"jiÄĵĠrÇİngĠdeĠshÃ¬ĠzhÃ¨nĠ":4334,"mÄĽiĠguÃ³ĠrÃ©nĠkÇĴuĠpÇĶĠchÃ¡ĠdeĠshÃ¹ĠjÃ¹Ġ":4335,"cÃ³ngĠshÃ¬Ġ":4336,"jiÄģĠlÃ¬Ġ":4337,"ĠÃ©rĠrÃ©nĠkÇĴuĠmÃ¬ĠdÃ¹ĠwÃ¨iĠmÄĽi":4338,"gÃ©ĠlÃ¡n":4339,"ĠdÄģngĠdÃ¬ĠgÃ²ngĠyÇĴuĠrÃ©nĠkÇĴuĠ":4340,"fÄĵnĠlÃ¨iĠ":4341,"jiÄĽĠjuÃ©Ġ":4342,"shÇĲĠyÃ²ngĠdeĠ":4343,"FĠ":4344,"zÃºĠdeĠ":4345,"liÃ¡nĠbÄģng":4346,"ĠfÄĵnĠzhÅįngĠ":4347,"gÅįuĠ":4348,"dÃłĠbÃ¹ĠfÃ¨n":4349,"yÄ«ĠzhÇĴngĠ":4350,"lÇĲngĠyÃ¹Ġ":4351,"ĠhuÃ²ĠjiÃ¹ĠshÃ¬ĠzhÃ¨nĠ":4352,"hÃ©ĠshÃ¬Ġ":4353,"ĠĠĠlÃ¬Ġ":4354,"ĠchÅ«ĠbÇİnĠ":4355,"yÃ¹nĠyÃŃngĠ":4356,"shÄĽngĠjÃŃĠxuÇİnĠqÅ«ĠwÃ¨iĠ":4357,"jÄ«ĠjÃŃĠ":4358,"ĠdeĠyÄ«ĠbÃ¹ĠfÃ¨nĠ":4359,"shÃŃĠshÃ¬Ġ":4360,"ĠxiÃłng":4361,"ĠniÃ¡nĠdÃ¹Ġ":4362,"Ã©rĠziĠ":4363,"zuÃ²ĠpÇĲn":4364,"jiÄĵĠshÃ²u":4365,"xuÇİnĠrÃ©nĠ":4366,"gÃłiĠniÃłnĠ":4367,"xÄ«ngĠdeĠ":4368,"ĠÄĽrĠdÃ©Ġ":4369,"shÄĽngĠhÃ©Ġ":4370,"tiÃ¡oĠyuÄĵĠ":4371,"ĠjÇĲnĠguÇİnĠ":4372,"ĠzhÃ¨ngĠshÃ¬Ġ":4373,"fÃ¨nĠwÃ¨iĠfÇİĠguÃ³Ġ":4374,"ĠgÄģiĠshÄĽngĠfÃ¨nĠwÃ¨iĠfÇİĠguÃ³Ġ":4375,"ĠchÅ«ĠbÇİn":4376,"ĠzhÄ«ĠxiÃłnĠ":4377,"tiÄĽĠdÃłoĠ":4378,"ĠdÃ¬ĠsÄģn":4379,"ĠÃ©rĠqiÄĽĠ":4380,"ĠjÅ«nĠduÃ¬Ġ":4381,"guÇİngĠzhÅįuĠ":4382,"ĠbÃ¹ĠjiÇĶĠ":4383,"ĠjiÇİngĠ":4384,"ĠsÃ²ngĠ":4385,"ĠxiÄģoĠ":4386,"ÃłoĠdÃłĠlÃ¬Ġ":4387,"ĠwÃ¨iĠshÃŃĠ":4388,"ĠxÄ«ĠlÃł":4389,"ĠĠĠ18":4390,"fÃºĠjiÃłnĠ":4391,"ĠqÄ«ng":4392,"ĠhÃ©ĠbÃ¬ng":4393,"bÄģĠniÃ¡nĠ":4394,"zhÃłnĠzhÄĵng":4395,"ĠhÃ¡nĠ":4396,"ĠyÇĴuĠrÃ©nĠ":4397,"pÃ¡iĠmÃŃng":4398,"Ġc":4399,"zhÃłnĠshÃ¬Ġ":4400,"jÇĲnĠbiÄģoĠsÃłiĠ":4401,"zuÃ¬ĠhÃ²uĠyÄ«Ġ":4402,"jÇĲngĠchÃ¡Ġ":4403,"qÃºnĠdÇİoĠ":4404,"lÃ¡iĠyuÃ¡nĠ":4405,"tÃ¨ĠbiÃ©":4406,"ĠtÄģĠbÃ¨iĠ":4407,"xÄ«ngĠjiÃłnĠ":4408,"ĠwÃłnĠrÃ©nĠ":4409,"ĠduÃ¬":4410,"ĠchÅ«ĠshÄĵngĠyÃºĠ":4411,"shÃ¨ĠlÃ¬Ġ":4412,"rÃ©ngĠrÃ¡n":4413,"dÃ¬ĠyÄ«Ġ":4414,"ĠrÃ¬ĠdeĠ":4415,"ĠruÃ²Ġ":4416,"lÃºnĠdÅ«n":4417,"bÄĽnĠdeĠ":4418,"wÄĽiĠhuÃ¬Ġ":4419,"ĠyÃ³uĠxÃ¬":4420,"ĠrÃ©nĠgÅįngĠ":4421,"xuÃ©ĠxiÃło":4422,"ĠkÄģiĠshÇĲĠ":4423,"shÇİnĠxÄ«Ġ":4424,"cÃ©ngĠzÃłiĠ":4425,"tÅįngĠchÃ¡ng":4426,"tiÄģnĠwÃ©nĠ":4427,"ĠzhÃ¬ĠyÃºĠ":4428,"liÃ¨ĠwÃ¨iĠ":4429,"ĠbÃ¹ĠmÃŃngĠ":4430,"ĠyÃ¬ĠwÃ¨iĠ":4431,"mÇĶĠsÄ«Ġ":4432,"ĠmÃŃngĠchÃ¡oĠ":4433,"yÃ¹nĠxÃŃngĠ":4434,"lĠ":4435,"mÄĽiĠzhÅįuĠ":4436,"cÇİiĠyÃ²ng":4437,"Ã¡ngĠ":4438,"rÃ²uĠ":4439,"ĠdÃ¬ĠsÃ¬Ġ":4440,"yÃ¡nĠjiÅ«ĠsuÇĴĠ":4441,"guÇİngĠfÃłnĠ":4442,"ÃłoĠsÄ«Ġ":4443,"ĠxiÃłnĠlÃ¹Ġ":4444,"ĠgÃ¨ng":4445,"mÃ©ngĠgÇĶĠ":4446,"ĠshÃ¬ĠbÃ¹Ġ":4447,"yÇĲĠjÃŃĠ":4448,"ĠhÃ©ĠpÃŃngĠ":4449,"jiÄģĠrÃ¹Ġ":4450,"huÃłĠshÃŃĠ":4451,"zhÃłnĠhÃ²uĠ":4452,"ĠĠĠtÄģ":4453,"ĠdÃŃĠ":4454,"nÃ¡nĠjÃŃĠ":4455,"shuÅįĠfÇİĠ":4456,"gÇİnĠrÇİnĠ":4457,"kĠ":4458,"xÄ«ĠzÃłiĠ":4459,"ĠrÃłng":4460,"ĠjÃ¬nĠdeĠ":4461,"ĠrÃ¨nĠwÃ©i":4462,"ĠjÄ«ĠbÄĽnĠ":4463,"ĠjÃ¹ĠlÃŃĠ":4464,"ĠfÃ¨iĠ":4465,"mÃ³ĠxÃŃngĠ":4466,"ĠjiÄģoĠ":4467,"guÃ²ĠchÃ©ngĠzhÅįngĠ":4468,"ĠdeĠdÃ¬ĠfÄģngĠ":4469,"wÃºĠrÃ©nĠ":4470,"ĠdeĠxÄ«nĠ":4471,"jÃ¬ĠshÃ¹Ġ":4472,"ĠjiÃłnĠyÃ¬Ġ":4473,"ĠtÄģĠyÇĶĠ":4474,"yÃ¹nĠshÅ«Ġ":4475,"gÃ²uĠmÇİi":4476,"wÃ¡nĠquÃ¡n":4477,"wÇĶĠshÃŃĠ":4478,"ĠkÃ¨ĠdeĠ":4479,"rÃ¨nĠwÃ©iĠshÃ¬Ġ":4480,"ĠdÃ¡Ġ":4481,"ĠzÃłiĠyÃ¬Ġ":4482,"ĠgÃ¨ĠdÃ¬Ġ":4483,"bÃłnĠgÅįngĠshÃ¬Ġ":4484,"ĠchÃ©n":4485,"Ġ10ĠyuÃ¨Ġ":4486,"tÃ³ngĠyÄ«Ġ":4487,"duÅįĠgÃ¨Ġ":4488,"wÃłiĠguÃ³Ġ":4489,"ĠzÇĴngĠrÃ©nĠkÇĴuĠ":4490,"xuÃ©ĠshÃ¬Ġ":4491,"jiÃłĠzhÃŃĠ":4492,"shÃłngĠyÇĴuĠ":4493,"yuÃ¡nĠwÃ¨iĠ":4494,"fÄĵiĠxÃŃngĠ":4495,"gÅįngĠzuÃ²Ġ":4496,"ĠzÃ¬ĠjÇĲĠ":4497,"nÃŃĠsÄ«Ġ":4498,"ĠzÃłiĠzhÅįngĠguÃ³Ġ":4499,"xuÃ©ĠxÃŃĠ":4500,"zhÇİoĠ":4501,"yÇİngĠhuÃłĠ":4502,"quÄģnĠ":4503,"ĠshÃ²u":4504,"ĠcÄģnĠ":4505,"ĠÄģi":4506,"xuÄģnĠchuÃ¡nĠ":4507,"ĠfÃłnĠ":4508,"mÃ²ĠxÄ«Ġ":4509,"ĠyÄ«ĠxiÄĵ":4510,"xuÇİnĠzÃ©":4511,"ĠÎ":4512,"chÄĵngĠwÃ¨iĠ":4513,"xiÄģoĠxÄ«Ġ":4514,"ĠxiÃłnĠrÃ©nĠ":4515,"ĠdeĠguÄģnĠ":4516,"hÇİiĠjÅ«n":4517,"qÇĲĠlÃ¡iĠ":4518,"biÄģoĠzhÃ¬Ġ":4519,"ĠbÃ¹ĠmÃ©nĠ":4520,"zhÃ¬ĠwÃ¨iĠ":4521,"ĠniÃ¡nĠhÃ²uĠ":4522,"yÃ³uĠxÃ¬":4523,"mÃ¡Ġ":4524,"huÃ¡nĠjÃ¬ng":4525,"fÃ¹ĠzÃ©ĠguÇİnĠxiÃ¡Ġ":4526,"xÃ¬ĠbÄģoĠ":4527,"ĠwÃ©iĠzhÇĶĠ":4528,"jiÃ¨ĠquÃ¡nĠguÃ³Ġ":4529,"ĠxÄ«ngĠ":4530,"ĠshÇĲĠyÃ²ngĠ":4531,"gÃ²uĠchÃ©ngĠ":4532,"chÄĵĠliÃłngĠ":4533,"shÄ«ĠdeĠ":4534,"zhÃ©ĠxuÃ©Ġ":4535,"ĠĠĠyÇĲĠ":4536,"1999ĠniÃ¡nĠ":4537,"ÃłnĠdeĠ":4538,"kÄĵngĠ":4539,"gĠ":4540,"ĠjÃ¬ĠhuÃł":4541,"sÄ«ĠzÃłiĠ":4542,"zhÃ¨ngĠdeĠ":4543,"ÄģnĠquÃ¡n":4544,"ĠkÄĵ":4545,"dÇİngĠdeĠ":4546,"ĠlÃŃn":4547,"bÇĲĠdÃ©Ġ":4548,"ĠdÃłoĠlÃ¹Ġ":4549,"chÃ¡oĠxiÄģnĠ":4550,"yÃŃnĠhÃ¡ng":4551,"xÄ«ĠdeĠ":4552,"ĠÃłnĠ":4553,"ĠshÃ¬ĠmÄĽiĠguÃ³Ġ":4554,"ĠshÃ¬ĠtÃºĠ":4555,"zhÅįngĠzÃłiĠ":4556,"ĠjÃ¬ĠniÃłnĠ":4557,"zhÇĶĠjuÃ©Ġ":4558,"sÃ¬ĠchuÄģnĠ":4559,"bÃ¹ĠwÃ¨iĠ":4560,"ĠjÃŃĠqÃŃĠ":4561,"LĠ":4562,"pÃ©ngĠyÇĴuĠ":4563,"ĠhuÄģĠ":4564,"ĠÃ¨r":4565,"chÃŃĠxÃ¹":4566,"24Ġ":4567,"ÃłiĠÄĽrĠ":4568,"ĠgÅįngĠgÃ²ngĠ":4569,"ĠzhÄ«ĠchÃŃ":4570,"kÃłngĠyÃ¬Ġ":4571,"ĠĠĠyÇĴuĠ":4572,"yuÄĵĠwÃ¨iĠ":4573,"tÃłiĠguÃ³Ġ":4574,"ĠÃ©rĠqiÄĽ":4575,"jiÄĵĠwÃ¨iĠ":4576,"xuÇİnĠqÅ«Ġ":4577,"ĠyÄ«ngĠchÇĲĠ":4578,"shÃŃĠzÃłiĠ":4579,"yÃ¬ĠhÃ©Ġ":4580,"huÃ¬ĠyÇĴuĠ":4581,"shÄĵngĠwÃ¹Ġ":4582,"xiÃłoĠzhÇİngĠ":4583,"wÃ©nĠjiÃłnĠ":4584,"ĠbÃ¨iĠÄĽrĠ":4585,"ĠfÇİnĠ":4586,"gÄĵĠqÇĶ":4587,"mÃłnĠhuÃłĠ":4588,"shÅįuĠrÃ¹Ġ":4589,"ĠjiÃ©ĠzhÃ¬Ġ":4590,"ĠtÃ¡iĠwÄģn":4591,"ĠjiÃ¨":4592,"ĠĠĠV":4593,"biÄģoĠwÃ¨iĠ":4594,"fÃ³ĠjiÃłoĠ":4595,"ĠdÅįuĠ":4596,"rÃ³ngĠyÃ¬Ġ":4597,"ĠĠĠshÃŃĠ":4598,"ÃłoĠyÃ¹n":4599,"suÇĴĠshÇĶĠdeĠshÄĽngĠjÃŃĠxuÇİnĠqÅ«ĠwÃ¨iĠ":4600,"ĠĠĠhÃ©Ġ":4601,"ĠĠĠchÄĵĠzhÃłnĠ":4602,"ĠshÄĵngĠwÃ¹Ġ":4603,"yÇİnĠdeĠ":4604,"biÄģnĠjÃŃĠ":4605,"qiÃłnĠ":4606,"ĠzhÃłnĠzhÄĵng":4607,"sÄ«ĠdÃ¬Ġ":4608,"yÄĽĠyÇĴuĠ":4609,"qiÃ¡nĠwÇİng":4610,"ĠruÃ²":4611,"yÇĶĠyÃ¡nĠ":4612,"zhÃ¨ngĠcÃ¨Ġ":4613,"ĠdÇİĠ":4614,"jÃ¬ĠzhÅįngĠ":4615,"mÇĲĠÄĽrĠ":4616,"OĠ":4617,"ĠqiÃ¡ngĠ":4618,"jÅ«nĠduÃ¬Ġ":4619,"jiÄĽĠfÃłngĠjÅ«nĠ":4620,"tiÇİoĠzhÃłnĠ":4621,"ĠyuÃ¡nĠzhÃ¹Ġ":4622,"ĠchÅ«ĠleĠ":4623,"ÃłoĠyÃ¹nĠ":4624,"ĠzhÃ¬ĠdÃ¹Ġ":4625,"1998ĠniÃ¡nĠ":4626,"ĠyÃ²uĠchÄĵngĠ":4627,"MĠ":4628,"gÄģoĠyÃºĠ":4629,"ĠshÃ¬ĠyÃŃĠgÃ¨":4630,"ĠhuÃ²ĠshÃ¬Ġ":4631,"gÇİnĠdÃłoĠ":4632,"nÃ¡nĠxÃ¬ngĠ":4633,"mÇİĠlÃ¬Ġ":4634,"ĠyÇĲĠshÃłngĠ":4635,"gÇİiĠbiÃłnĠ":4636,"kÅ«nĠ":4637,"ĠĠĠ2021":4638,"ĠdÃ¬ĠxiÃłĠ":4639,"tÃ³uĠrÃ¹Ġ":4640,"ĠchÇİngĠ":4641,"fÃ³Ġ":4642,"jiÄĵĠrÇİngĠ":4643,"pÃ¨iĠhÃ©Ġ":4644,"zhÇĲĠhuÄ«":4645,"jiÄģĠrÃ©nĠ":4646,"ceĠ":4647,"wÄĽnĠdÃ¬ngĠ":4648,"zhÄģĠ":4649,"ĠzhÅįngĠyÇĴuĠ":4650,"ĠzÃłiĠbÃ¹Ġ":4651,"tÃŃĠmÃŃngĠ":4652,"dÃ¡ĠchÃ©ngĠ":4653,"2024ĠniÃ¡nĠ":4654,"ĠyÄ«ĠzhÇĴngĠ":4655,"rÇĶĠ":4656,"nÃ¨Ġ":4657,"mÃ²ĠsÄ«Ġ":4658,"fÄĵnĠzhÄ«Ġ":4659,"zÃłiĠshÃ¬Ġ":4660,"tÃ³ngĠdeĠ":4661,"jiÇİnĠjiÃ¨Ġ":4662,"shÄĵnĠfÃ¨n":4663,"tiÄģnĠzhÇĶĠjiÃłoĠ":4664,"ĠzhÅįngĠguÃ³ĠrÃ©nĠmÃŃnĠ":4665,"ĠquÃ¨":4666,"biÇİoĠmÃŃngĠ":4667,"duÃ³ĠdeĠ":4668,"tÃŃngĠzhÇĲĠ":4669,"ĠyÃ¹":4670,"ĠÃ©rĠrÃ©nĠkÇĴuĠmÃ¬ĠdÃ¹ĠwÃ¨iĠmÄĽiĠpÃŃngĠfÄģngĠqiÄģnĠmÇĲĠ":4671,"ĠyÇİnĠ":4672,"xiÇİoĠdeĠ":4673,"ĠzÃ¬":4674,"zhÃ¨ngĠshÃŃĠ":4675,"cÃ¨ĠdeĠ":4676,"zÃłoĠdeĠ":4677,"ĠwÃ¨iĠfÃº":4678,"juÄģnĠ":4679,"ĠhÃ¡iĠyÇĴuĠ":4680,"quÃ¨ĠzhÄĽn":4681,"ĠtÅįngĠguÃ²Ġ":4682,"ĠĠĠ2020":4683,"ĠjÄ«ĠbÃłiĠ":4684,"ĠniÃ¡nĠchÅ«Ġ":4685,"bÃłnĠdÇİoĠ":4686,"guÃ³ĠzÃłiĠ":4687,"wÇĶĠqÃ¬Ġ":4688,"tÄģĠmenĠ":4689,"ĠĠĠyuÃ¡nĠ":4690,"ĠjiÄģĠnÃ¡ĠdÃłĠ":4691,"ĠpÃŃngĠfÄģngĠmÇĲĠ":4692,"zÃ¬ĠzhÃ¬ĠqÅ«Ġ":4693,"Ġ8ĠyuÃ¨Ġ":4694,"lÄģĠkÃ¨Ġ":4695,"lÃ¨iĠdeĠ":4696,"inĠ":4697,"RĠ":4698,"hÃ¹nĠhÃ©Ġ":4699,"ĠzÃ¬ĠyÃ³uĠ":4700,"ĠĠĠzÃ¬Ġ":4701,"ĠtÃŃĠ":4702,"ĠzÃłiĠmÄĽiĠguÃ³Ġ":4703,"ĠshÃŃĠyÃłn":4704,"zuÃ¬ĠzÇİo":4705,"jÇĶĠrÃ©nĠ":4706,"ĠpÃŃĠ":4707,"tuÃ¡nĠduÃ¬Ġ":4708,"dÃ¬ĠshÃ¬Ġ":4709,"kÄĽĠnÃ©ngĠhuÃ¬Ġ":4710,"yÄģĠlÃ¬Ġ":4711,"quÃ¡nĠbÃ¹Ġ":4712,"ĠsÅ«":4713,"jÃ¬ĠwÃ¨iĠ":4714,"ĠÃ©rĠbÃ¨iĠ":4715,"jÃ¬ĠhuÃłĠ":4716,"ĠjÃ¬ĠchÃ©ngĠ":4717,"gÃ²ngĠxiÃłnĠ":4718,"xÄ«ĠbÄģnĠyÃ¡Ġ":4719,"ĠU":4720,"ĠpÃŃng":4721,"ĠshÃŃĠshÄ«Ġ":4722,"jiÃ©ĠmÃ¹":4723,"ĠlÃŃĠ":4724,"ĠĠĠJ":4725,"ĠjiÃ©ĠguÇĴĠ":4726,"ĠdÃ¬ĠtiÄĽĠ":4727,"ĠbÅį":4728,"ĠThe":4729,"shÄĵngĠchÇİn":4730,"lÃ¡iĠshuÅįĠ":4731,"zhÃ¨ĠzhÇĴngĠ":4732,"lÃ¬ĠbÃ¹Ġ":4733,"chÇİnĠyÃ¨Ġ":4734,"ĠÃ©Ġ":4735,"ĠwÃ¡ng":4736,"xÃŃngĠdÃ²ngĠ":4737,"fÄģnĠyÃ¬Ġ":4738,"ĠqÄ«ĠjiÄģnĠ":4739,"ĠchÅ«ĠrÃ¨nĠ":4740,"shÇİoĠshÃ¹Ġ":4741,"cÄģoĠzuÃ²Ġ":4742,"jiÇİnĠchÃ¡Ġ":4743,"bÃłnĠshÃ¬Ġ":4744,"jiÄģĠnÃ¡ĠdÃłĠ":4745,"yÇĲngĠpiÃłnĠ":4746,"chÅįngĠtÅ«Ġ":4747,"ĠtÄģĠyÃºĠ":4748,"bÇİoĠhÃ¹":4749,"ĠzÃłiĠdÃłĠ":4750,"jÃ¬ĠniÃłnĠ":4751,"ÃłnĠjiÃłnĠ":4752,"Ã¡oĠ":4753,"fÄĵnĠbiÃ©Ġ":4754,"cÃ©ngĠjÄ«ngĠ":4755,"chÃ³ngĠjiÃłnĠ":4756,"ĠzhuÄģnĠ":4757,"shÇĴuĠdeĠ":4758,"ampĠ":4759,"ĠĠĠp":4760,"ĠjiÃłnĠzhÃ¹":4761,"ĠmÃ¹":4762,"ĠshÃ¬ĠyÇĲĠ":4763,"xÃŃngĠwÃ©iĠ":4764,"xÄ«nĠlÇĲĠ":4765,"ĠbÃ¨i":4766,"gÃ²ngĠtÃ³ng":4767,"nÃłnĠ":4768,"ĠshÃŃĠfÄĵnĠ":4769,"dÃ²ngĠdeĠ":4770,"kÅįngĠjÅ«nĠ":4771,"bÃłnĠgÅįngĠ":4772,"ĠshÇĲĠdeĠ":4773,"dÃłĠbÃ¹ĠfÃ¨nĠ":4774,"yÄģngĠ":4775,"ĠxiÃłnĠwÃ¨iĠ":4776,"qÄ«ĠjiÄģn":4777,"ĠzhÃ¬ĠzuÃ²":4778,"jiÃ©ĠgÃ²u":4779,"ĠzhÇĲĠyÇĴuĠ":4780,"liÃ¡nĠsÃłi":4781,"liÃ¡nĠxÃ¹Ġ":4782,"juÃ©ĠsÃ¨":4783,"ĠyÃ¬ĠyÇĴuĠ":4784,"ĠlÃ¬ĠrÃº":4785,"jÃŃĠzÃłiĠ":4786,"shÄĵnĠdeĠ":4787,"ĠhÃ©ĠbÄĽiĠ":4788,"ĠwÃ¨iĠnÃ©ngĠ":4789,"ĠÄģn":4790,"xiÄģngĠduÃ¬Ġ":4791,"mÃ©iĠtÇĲ":4792,"zhÇĶĠtÃŃĠ":4793,"jiÇİnĠshÇİoĠ":4794,"ÅįuĠyuÃ¡nĠ":4795,"ĠhÃ©ĠliÃºĠ":4796,"gÅįngĠyuÃ¡nĠ":4797,"xiÇİoĠzÇĶĠ":4798,"tÃ²uĠ":4799,"ĠyÃ²uĠmÃŃngĠ":4800,"tÃ²ngĠ":4801,"ĠyÇĲĠsÃ¨Ġ":4802,"fÃ¨nĠzÇĲĠ":4803,"xiÃłnĠdÃłiĠ":4804,"ĠshÃ¬ĠyÄ«ĠmÃŃngĠ":4805,"ĠtÇĲĠzhÇİngĠ":4806,"ĠĠĠ2019":4807,"ĠxÄ«ĠwÃłngĠ":4808,"yÃ¬ngĠdeĠ":4809,"wÄĽiĠyuÃ¡nĠhuÃ¬":4810,"ĠmÃ©nĠ":4811,"zhÃ¨Ġge":4812,"mÃ¬ngĠmÃŃngĠwÃ¨iĠ":4813,"ĠgÅįngĠsÄ«ĠdeĠ":4814,"ĠhÃ¹Ġ":4815,"ĠliÇİngĠrÃ©nĠ":4816,"yÃ¬ĠzÃłiĠ":4817,"dÃ²ngĠjÄ«Ġ":4818,"dÇİĠjÄ«Ġ":4819,"ĠdeĠdÃ¬ĠqÅ«Ġ":4820,"zhÇİnĠshÃ¬Ġ":4821,"ĠbiÄģnĠ":4822,"ĠhÃ¡i":4823,"zhuÃ³Ġ":4824,"ĠzhÃŃĠzhÃ¬Ġ":4825,"ĠshÃ¨ĠqÅ«Ġ":4826,"ĠjÃ¬ĠxÃ¹":4827,"guÄ«ĠmÃ³":4828,"shÇĴuĠwÃ¨iĠ":4829,"xÃºnĠhuÃŃĠ":4830,"ĠsÄ«ĠlÃ¬ng":4831,"shÃ¹ĠliÃłngĠ":4832,"xiÃłĠwÇĶĠ":4833,"1996ĠniÃ¡nĠ":4834,"yÃ²ngĠlÃ¡iĠ":4835,"lÃ¹ĠdÃ¬ĠmiÃłnĠjÄ«ĠwÃ¨iĠ":4836,"ĠchuÃ¡nĠ":4837,"shuÇĲĠyÃ¹ĠmiÃłnĠjÄ«ĠwÃ¨iĠ":4838,"ĠlÃ¬ĠjÃŃĠ":4839,"qÇĲĠyÃ²ngĠ":4840,"lÃ¨iĠxÃŃngĠ":4841,"rÃ¨nĠwÃ¹Ġ":4842,"ĠguÃ³ĠlÃ¬Ġ":4843,"ĠshÃŃĠzÃ¬Ġ":4844,"ĠyÄ«ĠcÃ¬Ġ":4845,"duÅįĠcÃ¬Ġ":4846,"pÃŃngĠjiÃłĠ":4847,"bÃ¹ĠshÃ¬Ġ":4848,"Ġ2009ĠniÃ¡nĠ":4849,"ngĠĠĠ":4850,"ĠfÃ¹ĠjÃ¬nĠ":4851,"fÃºĠhÃ©Ġ":4852,"jÇĶĠxÃŃngĠdeĠ":4853,"ĠdeĠshÇĴuĠ":4854,"ĠĠĠ2018":4855,"wÃłiĠjiÄģoĠ":4856,"tÇĲĠxÃ¬Ġ":4857,"fÇİĠlÇľ":4858,"ĠzhÃ¨ĠjiÄģngĠ":4859,"1997ĠniÃ¡nĠ":4860,"cĠ":4861,"ĠdÃłĠshÇĲĠ":4862,"ĠlÃŃngĠ":4863,"liÇİngĠgÃ¨":4864,"zuÃ²ĠjiÄģĠ":4865,"ĠshÃ¨ĠbÃ¨iĠ":4866,"ĠzhÃ¨nĠ":4867,"mÄĽiĠniÃ¡nĠ":4868,"zhÃ¹ĠyÃ¬Ġ":4869,"diÃłnĠlÃ¬Ġ":4870,"ĠampĠ":4871,"dÃ©ĠdÃłoĠ":4872,"ĠlÃ¬ĠfÇİĠ":4873,"kuÃŃĠ":4874,"ĠsÄ«ĠlÃ¬ngĠ":4875,"ĠcÃ³ngĠÃ©rĠ":4876,"kÃłoĠ":4877,"jiÃłoĠtÃ¡ngĠ":4878,"ĠdÄģngĠzhÅįngĠlÃ¹ĠdÃ¬ĠmiÃłnĠjÄ«ĠwÃ¨iĠ":4879,"zhÃ¬ĠhÃ©Ġ":4880,"zhÃŃĠdeĠ":4881,"ĠÃ©rĠshuÇĲĠyÃ¹ĠmiÃłnĠjÄ«ĠwÃ¨iĠ":4882,"qÇĶĠxiÄģoĠ":4883,"jiÃ©ĠzhÃ¬Ġ":4884,"shÄĵngĠhuÃ³":4885,"fÃºĠwÃ¹":4886,"lÃºnĠdÅ«nĠ":4887,"xuÃ©ĠzhÄĽĠ":4888,"ĠĠĠxÄ«Ġ":4889,"hÇİiĠyÃ¹Ġ":4890,"ĠĠĠ2022":4891,"shuÇĲĠpÃŃngĠ":4892,"diÄģnĠ":4893,"nÃ¨iĠrÃ³ng":4894,"yÄ«ngĠgÃ©ĠlÃ¡nĠ":4895,"ĠzhÄ«ĠshÃŃĠ":4896,"zhÃ¹ĠzuÃ²Ġ":4897,"Ġ9ĠyuÃ¨Ġ":4898,"ĠdÃłĠchÃ©nĠ":4899,"ĠchÃ©ngĠlÃ¬ĠyÃºĠ":4900,"ĠliÃ¨Ġ":4901,"ĠĠĠgÃłiĠ":4902,"tuÃ²Ġ":4903,"lÇļĠkÃ¨Ġ":4904,"zhÃ¬ĠzÃłiĠ":4905,"jiÄĵĠjÃ¬nĠ":4906,"chÃ¡ngĠqÄ«Ġ":4907,"ĠxÄ«nĠwÃ©nĠ":4908,"ĠbiÃłn":4909,"ĠwÃ©iĠÄĽrĠ":4910,"gÄģoĠsÃ¹":4911,"lÃ¬ngĠwÃłiĠ":4912,"ĠĠĠxÃŃngĠzhÃ¨ngĠqÅ«ĠhuÃłĠ":4913,"rÃ¨nĠmÃ¬ng":4914,"ĠxiÃłoĠ":4915,"ĠjiÄģĠshÃłngĠ":4916,"bÇĲĠsÃłiĠzhÅįngĠ":4917,"yuÃłnĠzhÇİngĠ":4918,"jÇĲĠyÇĶĠ":4919,"diÇİnĠdeĠ":4920,"xÄ«ĠyÃ¡ngĠ":4921,"ĠyÇĲĠhÃ²uĠ":4922,"ĠjÅ«nĠwÃ¨iĠ":4923,"mÃŃnĠdeĠ":4924,"shuÃ²ĠshÃ¬Ġ":4925,"ĠdÃ©ĠdeĠ":4926,"wÄĵiĠliÃ¡nĠ":4927,"wÄĽiĠshÅ«ĠjÃ¬Ġ":4928,"ĠguÇİngĠ":4929,"ĠyÃ¬ĠrÃ©nĠ":4930,"tÃłiĠyÃ¡ngĠ":4931,"jiÄģĠhÃ©Ġ":4932,"1992ĠniÃ¡nĠ":4933,"dÇİoĠyÇĶĠ":4934,"pÄ«ĠzhÇĶnĠ":4935,"dÃłiĠyÇĴuĠ":4936,"hÄĵngĠlÃ¬Ġ":4937,"ĠshÃ¬ĠyÄ«ĠwÃ¨iĠ":4938,"guÅįĠ":4939,"ĠxuÃ©ĠxiÃło":4940,"cÄģnĠyÃ¹":4941,"ĠwÃ¨iĠfÃºĠqÃŃĠyÃºĠ":4942,"Ġ7ĠyuÃ¨Ġ":4943,"cÃ¬ĠshÃ¬ĠjiÃ¨ĠdÃłĠzhÃłnĠ":4944,"ĠshÃ¬ĠqÅ«Ġ":4945,"fÄģĠchÅ«Ġ":4946,"quÃłnĠ":4947,"xÃ¬ngĠzhÃ¬Ġ":4948,"yÇİnĠchÃłngĠhuÃ¬Ġ":4949,"ĠyuÃ¡nĠyÄ«nĠ":4950,"tÇİoĠlÃ¹nĠ":4951,"ĠformulaĠ":4952,"tuÃ¬ĠyÃ¬Ġ":4953,"fÄĵngĠbÃłoĠ":4954,"KĠ":4955,"bÇĲĠyÃłĠ":4956,"jÄ«ĠzhÃ¬Ġ":4957,"xÃ¬nĠhÃłoĠ":4958,"yÃłĠdeĠ":4959,"shÃ²uĠshÄģngĠ":4960,"nÃ©ngĠgÃ²u":4961,"ĠĠĠyÃ¬Ġ":4962,"ĠjiÃłnĠchÃ©ngĠ":4963,"liÃ¡nĠxÃ¬Ġ":4964,"ĠmÃ©ngĠ":4965,"wÃ¨iĠzhÃ¬Ġ":4966,"bÃ¬ĠxÅ«":4967,"ĠĠĠin":4968,"rÃºĠhÃ©Ġ":4969,"ĠĠĠ2017":4970,"bÇİoĠchÃŃĠ":4971,"ĠrÃºĠguÇĴ":4972,"ĠtÇĲĠzhÇİngĠkÄĽĠdÃ¡Ġ":4973,"ĠhuÃŃĠ":4974,"zhuÄģnĠjiÄģĠ":4975,"ĠÄĽrĠtÃ¨Ġ":4976,"fÅ«ĠrÃ©nĠ":4977,"jiÇİngĠxiÃłngĠ":4978,"chÄģĠyÃ¬Ġ":4979,"shÃ²uĠyÇĶĠ":4980,"wÅįĠ":4981,"ĠjÄ«ĠgÃ²u":4982,"ĠzÃłiĠyÃºĠ":4983,"ĠdeĠyÄ«ĠzuÃ²Ġ":4984,"ĠjÄ«ngĠguÃ²Ġ":4985,"ĠtÅįngĠchÃ¡ngĠ":4986,"ĠtuÅįĠ":4987,"Ġ2010ĠniÃ¡nĠ":4988,"wÇİngĠlÃ¹Ġ":4989,"jÄ«ngĠyÃŃngĠ":4990,"Ġ12ĠyuÃ¨Ġ":4991,"ĠmÃŃnĠguÃ³Ġ":4992,"gÃ²ngĠchÇİnĠdÇİng":4993,"Ġ21Ġ":4994,"diÃłnĠtÃ¡iĠ":4995,"dÅįngĠxÄ«Ġ":4996,"ĠkÃ¨ĠlÇĲĠ":4997,"ĠshÄĵngĠchÇİnĠ":4998,"tÄģnĠ":4999,"ĠbÃ¹ĠlÇĲĠ":5000,"suÃŃĠhÃ²uĠ":5001,"ĠyÇĲĠxiÃł":5002,"cÅ«nĠzhuÄģngĠ":5003,"ĠcÃŃĠ":5004,"Ġ11ĠyuÃ¨Ġ":5005,"lÃ¡iĠdÃłoĠ":5006,"15Ġ":5007,"ĠzhÄ«ĠzhÅįngĠ":5008,"xÃ¬ĠliÃ¨":5009,"bÃ¬ĠyÃ¨ĠyÃºĠ":5010,"xÃ¹nĠliÃłn":5011,"cuÃ²ĠshÄ«Ġ":5012,"fÇİĠdeĠ":5013,"ĠyÃ¬ĠshÃ¹":5014,"zÇĴngĠdÅ«Ġ":5015,"zhÃ¹ĠmÃŃngĠdeĠ":5016,"50Ġ":5017,"ĠshÃ¬ĠyÇĴuĠ":5018,"ĠjiÃłnĠduÃ¬Ġ":5019,"kuÃłiĠsÃ¹Ġ":5020,"zhÃ¹ĠyÃºĠ":5021,"lÃłngĠ":5022,"ĠchÃ¡ng":5023,"1994ĠniÃ¡nĠ":5024,"ĠshÃŃĠrÃ¨nĠ":5025,"ĠyÄ«ĠshÄĵngĠ":5026,"gÅ«ĠjÃ¬Ġ":5027,"hÃ¡iĠziĠ":5028,"ĠÄĽrĠhÃ©Ġ":5029,"tÃłiĠpÃŃngĠyÃ¡ngĠ":5030,"oĠĠĠ":5031,"yÃ¡nĠgÃ©Ġ":5032,"ĠĠĠ2016":5033,"tÃ³ngĠyÃ¬Ġ":5034,"leĠdÃłĠ":5035,"shÄĵngĠwÃ¨iĠ":5036,"shÃ©Ġ":5037,"dÇİoĠshÃ¬Ġ":5038,"chÃ©ngĠgÅįngĠ":5039,"ĠzhÅ«":5040,"Ġtw":5041,"sÃ¬ĠgÃ¨Ġ":5042,"onĠĠĠ":5043,"ĠjiÃ©ĠmÃ¹Ġ":5044,"fÄģĠdiÃłnĠ":5045,"ĠshÃłngĠhÇİi":5046,"ĠrÃłngĠ":5047,"zhÃłnĠzhÅįngĠ":5048,"ĠdeĠqiÃ¡nĠ":5049,"ĠrÃ©nĠlÃ¨iĠ":5050,"jiÃ©ĠshÃ¹ĠhÃ²uĠ":5051,"ĠdÃ©ĠyÇĲĠ":5052,"pÇĶĠtÅįngĠ":5053,"ĠdeĠshÃŃĠqÅ«ĠwÃ¨iĠ":5054,"ĠguÄ«Ġ":5055,"ĠhuÇĴĠ":5056,"yÇĶĠzhÅįngĠ":5057,"ĠzhÃ¨ngĠcÃ¨Ġ":5058,"ĠmÃŃngĠchÄĵngĠ":5059,"chÃ¨ĠxiÄģoĠ":5060,"anĠĠĠ":5061,"enĠ":5062,"shÇİngĠ":5063,"tÃ³uĠpiÃłoĠ":5064,"ĠĠĠzhÃ¬Ġ":5065,"dÇĲĠdÃ¡Ġ":5066,"ĠyÃ¬nĠdÃ¹Ġ":5067,"alĠ":5068,"ĠjÇĲnĠguÇİn":5069,"zhÃ¡iĠ":5070,"jÃºĠzhÇİngĠ":5071,"ĠdeĠshÃŃĠjiÄģnĠ":5072,"gÃ¨ngĠjiÄģĠ":5073,"zÇĶĠchÃ©ngĠdeĠ":5074,"fÇİnĠhuÃŃĠ":5075,"miÇİoĠ":5076,"1995ĠniÃ¡nĠ":5077,"zhÃ¨ĠxiÄĵ":5078,"ĠwÃ¨iĠshÄĵngĠ":5079,"yuÃ¨ĠtÃ¡iĠ":5080,"ĠpÃŃngĠtÃ¡iĠ":5081,"ĠshÃ¨ng":5082,"guÇİngĠxÄ«Ġ":5083,"fÄĽiĠ":5084,"hÄģĠÄĽrĠ":5085,"hansĠ":5086,"kuÃ²ĠdÃłĠ":5087,"ĠfÄģngĠ":5088,"ĠhansĠ":5089,"yÃ¬ĠzhÅįngĠ":5090,"dÄĵngĠlÃ¹Ġ":5091,"rÃ³ngĠyÃ¹Ġ":5092,"ĠtwĠ":5093,"yuÃ¨ĠshÃŃĠ":5094,"zhÃ²ngĠdÃłĠ":5095,"lÃ¹ĠyÃ¬Ġ":5096,"fÄģĠdeĠ":5097,"ĠqÄ«":5098,"quÃ¨ĠdÃ¬ngĠ":5099,"ĠqiÃ¡n":5100,"ĠgÇİi":5101,"zhÇĲĠzÃłiĠ":5102,"ĠshÃ¬ĠyÇİnĠ":5103,"yÃ¨ĠhÃ²uĠ":5104,"25Ġ":5105,"22Ġ":5106,"ĠbÃ¹ĠkÄĽĠ":5107,"nĠĠĠ":5108,"ĠbÃ¬ngĠmÃ©iĠyÇĴuĠ":5109,"ĠyÃ¡ng":5110,"ĠsÃłĠ":5111,"ĠcÇĲĠshÃŃĠ":5112,"ĠĠĠdeĠshÃŃĠ":5113,"qÃ¬ĠchÄĵĠ":5114,"Ġs":5115,"jÃ¬nĠxÃŃng":5116,"ĠÄģĠÄĽrĠ":5117,"ĠwÇİngĠ":5118,"ĠĠĠ19":5119,"ĠxuÃ©ĠxÃŃĠ":5120,"ĠchÄĵng":5121,"wÇİnĠshÃłngĠ":5122,"jiÃłoĠqÅ«Ġ":5123,"xiÄģoĠshÃ²uĠ":5124,"ĠmÃ¹ĠqiÃ¡n":5125,"mÃŃngĠchÄĵngĠ":5126,"gÇİiĠbiÄģn":5127,"yÃłĠlÃ¬ĠshÄģn":5128,"Ġ189":5129,"wÃ¹ĠzhÇĴng":5130,"guÄģnĠzhÃ²ngĠ":5131,"ĠguÃ³ĠwÃ¹Ġ":5132,"ĠzhÄ«ĠyuÃ¡nĠ":5133,"yuÃłnĠdeĠ":5134,"ĠzhÅįngĠdeĠ":5135,"bÄģĠxÄ«Ġ":5136,"ĠgÅįngĠyÃ¨":5137,"rÃ¹ĠkÇĴuĠ":5138,"bÄģĠlÃŃĠ":5139,"ĠhuÃ²ĠzhÄĽĠ":5140,"ĠĠĠ2023":5141,"xiÄģngĠtÃ³ngĠ":5142,"bÇİnĠdeĠ":5143,"ĠĠĠ2014":5144,"xuÃ©ĠhÃ©Ġ":5145,"sÇĶnĠshÄ«Ġ":5146,"ĠlÇľĠ":5147,"biÇİoĠxiÃłn":5148,"ĠshÃŃĠxiÃłnĠ":5149,"xÄ«ĠlÃł":5150,"fÄģĠxiÃłnĠleĠ":5151,"kÃłnĠdÃłoĠ":5152,"qÄ«ĠzÇĲĠ":5153,"nÇİiĠ":5154,"guÄģnĠzhÃ¹Ġ":5155,"ĠcÃ©ngĠrÃ¨nĠ":5156,"qiÇİngĠ":5157,"pÃ²ĠhuÃłiĠ":5158,"ĠbÃ¬ngĠyÇĲĠ":5159,"ĠÑ":5160,"pÄģnĠ":5161,"xiÅįngĠyÃ¡":5162,"Ġ6ĠyuÃ¨Ġ":5163,"ĠĠĠsuÇĴĠshÇĶĠdeĠshÄĽngĠjÃŃĠxuÇİnĠqÅ«ĠwÃ¨iĠ":5164,"ĠĠĠdeĠyÃ³uĠzhÃ¨ngĠbiÄģnĠmÇİĠwÃ¨iĠ":5165,"ĠĠĠyÇĶĠjiÄĵĠrÇİngĠdeĠshÃ¬ĠzhÃ¨nĠ":5166,"ĠĠĠyÃºĠshÃŃĠdeĠrÃ©nĠkÇĴuĠshÃ¹ĠliÃłngĠwÃ¨iĠrÃ©nĠ":5167,"ĠĠĠdeĠshÃŃĠqÅ«ĠwÃ¨iĠ":5168,"zhuÄģngĠzhÃ¬Ġ":5169,"zhÃŃĠwÃ¨iĠ":5170,"Ġ2011":5171,"jÃ¬ĠhÃ©Ġ":5172,"kÄģiĠfÃłng":5173,"ĠzuÃ²ĠyÃ²ngĠ":5174,"ĠquÃ¡nĠzhÇİngĠ":5175,"tÃºĠzhÅįngĠ":5176,"sÅ«ĠliÃ¡n":5177,"ĠxiÃł":5178,"xÅ«ĠqiÃºĠ":5179,"lÃŃnĠdeĠ":5180,"ĠzhÄ«ĠmÃŃngĠ":5181,"ĠsÄ«ĠlÄģĠ":5182,"shÃŃĠwÃ¨iĠ":5183,"hÃ©ngĠxÄ«ngĠ":5184,"ĠĠĠjÄ«Ġ":5185,"mÇĶĠqÄ«nĠ":5186,"tuÄ«ĠdÃ²ngĠ":5187,"wÃ©iĠdeĠ":5188,"ĠshÃ¬ĠzhÇİngĠ":5189,"ĠquÃ¡nĠbÃ¹Ġ":5190,"rÃ¹ĠqÄ«nĠ":5191,"tÃ¡iĠbÄĽiĠ":5192,"guÇİnĠlÇĲ":5193,"Ġ2019":5194,"ĠchuÃłngĠ":5195,"ÇİĠ":5196,"fÃ¹ĠdeĠ":5197,"cÃ¡nĠ":5198,"ĠjiÄģĠtÃŃngĠ":5199,"yÃŃĠdÃ²ngĠ":5200,"rÃºĠcÇĲĠ":5201,"Ġhk":5202,"yÇĶĠhÃ©Ġ":5203,"ĠyÄ«ĠdÃłiĠ":5204,"jÃ¬nĠshÃ¬Ġ":5205,"ĠchÅ«ĠxiÃłnĠzÃłiĠ":5206,"fÃ¹ĠqÄ«nĠ":5207,"zhÃ¨ĠjiÄģngĠ":5208,"GĠ":5209,"ĠniÃ¡nĠqÄ«ng":5210,"xiÅįngĠyÃ¡ĠlÃ¬Ġ":5211,"ĠĠĠ2015":5212,"mÃ¹ĠsÄ«Ġ":5213,"1991ĠniÃ¡nĠ":5214,"ĠrÃ©nĠshÃ¹Ġ":5215,"ĠdÃłnĠtÄģĠ":5216,"ĠxÄ«ĠbÄģnĠyÃ¡":5217,"mÃŃnĠzÃº":5218,"guÇİngĠbÅį":5219,"zuÃ¬ĠchÅ«Ġ":5220,"tÃ¡iĠdeĠ":5221,"ĠdÃ¬ĠqiÃºĠ":5222,"16Ġ":5223,"ĠshÃ¬ĠzhÇĲĠ":5224,"tÃŃĠshÄĵngĠ":5225,"fÄĵiĠjiÃłnĠzhÃ¬Ġ":5226,"ĠxiÇİng":5227,"ĠgÄģnĠ":5228,"ĠsÄ«ĠtÇİnĠ":5229,"Ġ5ĠyuÃ¨Ġ":5230,"ĠchÄĵĠzhÃłnĠ":5231,"shÃ¹ĠxuÃ©Ġ":5232,"xÃ¹nĠsÃ¹Ġ":5233,"ĠhkĠ":5234,"orĠ":5235,"andĠĠĠ":5236,"ĠwÃ¨iĠhÃ©Ġ":5237,"ĠbÃ¬ngĠlÃ¬Ġ":5238,"ĠchÃ©ngĠwÃ©iĠleĠ":5239,"ĠĠĠ2013":5240,"niÇĶĠyuÄĵĠ":5241,"fÄģĠxÃŃng":5242,"zÇĴngĠbÃ¹Ġ":5243,"ĠjÃ¬nĠrÃ¹":5244,"tÃ¨ĠlÇĲĠ":5245,"kÃłngĠrÃ¬Ġ":5246,"ĠhÃ©ĠxÄ«nĠ":5247,"ĠgÃ¨ĠzhÇĴngĠ":5248,"ĠjÄ«ng":5249,"leĠĠĠ":5250,"zhÄĽnĠ":5251,"mÃ¡ngĠ":5252,"ĠjÇĲn":5253,"mÃŃngĠyÃ¬Ġ":5254,"gÇİoĠ":5255,"ĠjÃŃĠqÃŃ":5256,"fÄģĠshÄĵng":5257,"shÅįuĠlÃ¹Ġ":5258,"ĠshÃ¬ĠrÃ©nĠ":5259,"jiÃłoĠdeĠ":5260,"lÃ¡nĠkÃ¨Ġ":5261,"cÃ¡iĠzhÃ¨ngĠ":5262,"chÃłngĠpiÃłnĠ":5263,"ĠjÃ¬ĠzÇİiĠ":5264,"ĠzuÃ²ĠpÇĲn":5265,"ĠĠĠniÃ¡nĠ":5266,"sÃłĠkÃ¨Ġ":5267,"ĠzhÅįngĠwÃ©nĠ":5268,"juÃ©ĠsÃłi":5269,"jÃ¬nĠgÅįngĠ":5270,"23Ġ":5271,"ĠshÃ¬ĠjÃŃĠ":5272,"qÇĲĠyÃ¬Ġ":5273,"cÄģnĠyÃ¬Ġ":5274,"cÄģnĠkÇİoĠ":5275,"zhuÃłngĠkuÃłngĠ":5276,"ĠxiÃłnĠyÃºĠ":5277,"ĠzÃłoĠchÃ©ngĠ":5278,"lÇľĠwÃ¨iĠ":5279,"ĠmiÃłnĠ":5280,"ĠĠĠzhÅįngĠguÃ³Ġ":5281,"leĠtÄģĠ":5282,"zÄĵngĠzhÇİngĠ":5283,"gÄģoĠdÃ¹Ġ":5284,"chÇİnĠpÇĲn":5285,"fÄĵiĠjiÃłnĠzhÃ¬ĠdÃ¬ĠqÅ«Ġ":5286,"NĠ":5287,"13Ġ":5288,"zhÃłnĠdÃ²uĠ":5289,"suÄ«ĠrÃ¡nĠ":5290,"kÇİnĠ":5291,"dÅįuĠhuÃ¬Ġ":5292,"ĠhÃ©ĠbÃ¬ngĠ":5293,"ĠzhuÇİnĠ":5294,"ĠshÄĵngĠhuÃ³":5295,"wÃ¡ngĠdeĠ":5296,"zhÃ²ngĠdiÇİnĠ":5297,"ĠÃ©ĠluÃ³ĠsÄ«Ġ":5298,"diÃłoĠchÃ¡":5299,"chÄģiĠ":5300,"ĠdÃłĠlÃ³uĠ":5301,"pĠ":5302,"hÇİiĠdÃłoĠ":5303,"chÃłngĠpiÃłn":5304,"ĠhuÃ¡ng":5305,"ĠrÃ©nĠmenĠ":5306,"wÄĵiĠxiÃ©Ġ":5307,"ÃłoĠdÃ¬ĠlÃ¬Ġ":5308,"ĠhÃ©ĠzhÅįngĠ":5309,"shÃłngĠshÅ«Ġ":5310,"ĠwÃ©iĠqÃŃĠ":5311,"lÇĲngĠdÇİoĠrÃ©nĠ":5312,"jÄ«ngĠshÃ©nĠ":5313,"ĠxiÄģngĠguÄģnĠ":5314,"jiÄģĠzhÅįngĠ":5315,"liÇİngĠrÃ©nĠ":5316,"ĠyÄ«nĠÃ©rĠ":5317,"yuÃ¨ĠzÃłiĠ":5318,"ĠbÃ¹ĠduÃłnĠ":5319,"cÄģnĠjiÄģĠleĠ":5320,"huÃłĠwÃ¨iĠ":5321,"jiÄģngĠxÄ«Ġ":5322,"yÃŃngĠyÃ¹nĠ":5323,"ĠdeĠchÃ©ngĠyuÃ¡nĠ":5324,"ĠjÃ¬ĠsuÃłn":5325,"jiÃ©ĠkÃ¨Ġ":5326,"tÃºĠshÅ«ĠguÇİnĠ":5327,"ĠhÃ©ĠchÃ©ngĠ":5328,"zhÇĶĠchÃŃĠ":5329,"ĠzhÅįngĠguÃ³ĠgÃ²ngĠchÇİnĠdÇİngĠ":5330,"jÃ¹ĠdeĠ":5331,"nÃłĠlÇĲĠ":5332,"ĠhÃ²u":5333,"Ġ4ĠyuÃ¨Ġ":5334,"mÃŃnĠzhÃ²ngĠ":5335,"1988ĠniÃ¡nĠ":5336,"jÃ¬nĠrÃ¹":5337,"zÃ¬ĠdÃ²ngĠ":5338,"mÇĴuĠxiÄĵĠ":5339,"shÄĵnĠwÃ¨iĠ":5340,"jÅ«ĠzhÃ¹Ġ":5341,"xiÃłĠjÃ¬ĠÃłoĠlÃŃnĠpÇĲĠkÃ¨ĠyÃ¹nĠdÃ²ngĠhuÃ¬Ġ":5342,"yÄ«nĠshÃ¬Ġ":5343,"dÄģoĠ":5344,"zhÃłnĠdÃ²u":5345,"shÃŃĠjiÄģnĠ":5346,"chÇİnĠshÄĵngĠdeĠ":5347,"ĠhuÃ¡":5348,"ĠzÃłiĠjiÄģĠ":5349,"ĠĠĠzhĠ":5350,"shuÅįĠmÃŃngĠ":5351,"yÇĲnĠfÄģĠ":5352,"ĠyÇĴuĠshÃŃĠ":5353,"ĠzhÃ¨ngĠzhuÃłngĠ":5354,"ĠdÇİoĠ":5355,"jiÄģngĠsÅ«Ġ":5356,"esĠ":5357,"1993ĠniÃ¡nĠ":5358,"ĠhuÃ²ĠdÃ©ĠleĠ":5359,"Ġ20":5360,"ĠzhÄ«ĠxiÃłĠ":5361,"ĠxiÇİo":5362,"ĠshÃ¬ĠwÄĵiĠ":5363,"xiÇİoĠshuÅį":5364,"ĠqiÃ¡oĠ":5365,"ĠxuÄģnĠbÃ¹Ġ":5366,"ĠĠĠjiÄģĠzÃºĠ":5367,"ĠxÇĶĠduÅįĠ":5368,"ĠshÃ¬ĠzhÃ¨n":5369,"ĠgÅįngĠrÃ©nĠ":5370,"ĠÃ":5371,"ĠfÃ¡ngĠ":5372,"dÃ¬ngĠleĠ":5373,"yÅįuĠshÃ¬Ġ":5374,"lÃ¡nĠqiÃºĠ":5375,"ĠdÃłĠduÅįĠ":5376,"zhÅįuĠdeĠ":5377,"jÃ¬ĠshÃŃĠ":5378,"ĠxiÃłngĠmÃ¹Ġ":5379,"ĠwÄĽiĠ":5380,"ĠzuÇĴĠ":5381,"xiÇİnĠdeĠ":5382,"zÄ«ĠxÃ¹nĠ":5383,"ÃłoĠyÃ¹nĠhuÃ¬Ġ":5384,"cuÃ¬Ġ":5385,"sÃ¹ĠdeĠ":5386,"ĠdÃłĠxÃŃngĠ":5387,"Ġ2018":5388,"ĠyuÃ¨ĠnÃ¡nĠ":5389,"chuÄģngĠ":5390,"xiÃłngĠmÃ¹":5391,"ĠtiÄģn":5392,"ĠjÃŃĠlÃ¬Ġ":5393,"ĠzhÅįngĠhuÃ¡Ġ":5394,"xiÄģngĠdÄģngĠ":5395,"qÇĶĠdÃ©":5396,"yuÃ¡nĠzÃłiĠ":5397,"ĠbÃ¹ĠmÃ©n":5398,"ĠdÃłnĠyÃ³uĠyÃºĠ":5399,"ĠlÃ¡iĠzÃ¬Ġ":5400,"fÇİngĠwÃ¨nĠ":5401,"ĠĠĠI":5402,"zhÃŃĠdÃłoĠ":5403,"suÄ«ĠrÃ¡n":5404,"ĠlÇĲĠlÃ¹nĠ":5405,"jiÃłoĠwÃ©iĠ":5406,"ĠshÃ¬ĠwÃ¨iĠleĠ":5407,"jiÃ©ĠhÅ«nĠ":5408,"pÇĲnĠpÃ¡iĠ":5409,"cÄģnĠjiÄģ":5410,"xÃŃĠwÃ¨iĠ":5411,"ĠdÃ¬ĠwÇĶĠ":5412,"ĠyuÃ¨ĠtÃ¡iĠ":5413,"zhÅįngĠwÃ¨iĠ":5414,"ĠCĠ":5415,"ĠdÃºĠ":5416,"zhÄĵnĠshÃŃĠ":5417,"zhÃ²uĠ":5418,"mÄĽiĠshÃ¹Ġ":5419,"zhÅįngĠhuÃ¡ĠrÃ©nĠmÃŃnĠgÃ²ngĠhÃ©ĠguÃ³Ġ":5420,"yÇĴuĠbÃ¹Ġ":5421,"yÃ¬nĠdÃ¬Ġ":5422,"xuÃ©ĠshÃ¹Ġ":5423,"bĠ":5424,"xÄ«ngĠqÄ«Ġ":5425,"mÃ¬ngĠlÃ¬ngĠ":5426,"ĠdeĠgÅįngĠzuÃ²Ġ":5427,"2020ĠniÃ¡nĠmÄĽiĠguÃ³ĠrÃ©nĠkÇĴuĠpÇĶĠchÃ¡ĠdeĠshÃ¹ĠjÃ¹Ġ":5428,"jiÃłnĠshÃ¨Ġ":5429,"jÇĶĠxÃŃng":5430,"wÇĶĠzhuÄģngĠ":5431,"pÇĲĠ":5432,"fÃ¡ngĠyÃ¹Ġ":5433,"ĠrÃ¨nĠwÃ¹Ġ":5434,"bÃłoĠdÇİoĠ":5435,"tiÃ¡oĠzhÄĽngĠ":5436,"ĠÅįuĠ":5437,"tÄ«Ġ":5438,"yÃŃĠchÇİnĠ":5439,"ÃłoĠmÃ©nĠ":5440,"ĠĠĠ2025":5441,"ĠshÃŃĠyÄ«Ġ":5442,"ĠlÇİoĠ":5443,"tÃŃĠgÄģoĠ":5444,"yÇĶnĠxÇĶĠ":5445,"ĠlÇĲ":5446,"ĠjiÄģĠrÃ¹":5447,"ĠzhÄ«ĠhÃ²u":5448,"hÃ¡nĠshÃ¹Ġ":5449,"1990ĠniÃ¡nĠ":5450,"fÄĵiĠlÇľĠ":5451,"wÇİĠÄĽrĠ":5452,"yÃŃĠmÃŃnĠ":5453,"yÇĲĠlÃ¡iĠ":5454,"leĠtÄģĠdeĠ":5455,"huÃ¬ĠyuÃ¡nĠ":5456,"ĠshÃŃĠqÄ«":5457,"jÃ¬ĠlÃ¹Ġ":5458,"ĠjÄ«ĠguÄģnĠ":5459,"dÅ«ĠshÃ¬Ġ":5460,"jÄ«ĠchÇİngĠ":5461,"leĠyÃŃĠgÃ¨Ġ":5462,"huÃłĠjiÄģĠ":5463,"shÅ«ĠdeĠ":5464,"jÃ¹ĠlÃŃĠ":5465,"shÃ¹ĠzÃ¬Ġ":5466,"ĠfÃ¹ĠzÃ©":5467,"yÃ²ngĠhÃ¹Ġ":5468,"ĠshÃ¬ĠyÄ«ĠzhÇĴng":5469,"jÄ«nĠdeĠ":5470,"ĠrÃ©nĠlÃ¨i":5471,"ĠzhÃ¨ng":5472,"ĠzhÅįuĠniÃ¡nĠ":5473,"hÅįngĠzhÃł":5474,"ĠzÃ¬ĠjÇĲĠdeĠ":5475,"jiÄĵĠjÃŃĠ":5476,"duÃłnĠdeĠ":5477,"dÅ«ĠjiÃłoĠ":5478,"ĠĠĠ2024":5479,"lÃ¬ĠshÃ¬Ġ":5480,"kÃ¨ĠlÇĲĠ":5481,"ĠzhuÄģngĠ":5482,"sÃºĠ":5483,"yÃ¡nĠdeĠ":5484,"yÃŃngĠdeĠ":5485,"huÄģĠyuÃ¡nĠ":5486,"shÄģnĠmÃłi":5487,"shÄĵngĠjÃŃĠ":5488,"yuÄĵĠyÇĴuĠ":5489,"ĠshÃ¬ĠdÃłĠ":5490,"wÃ©nĠzÃ¬Ġ":5491,"chÅ«ĠbÇİnĠ":5492,"dÅįngĠjÃ¬Ġ":5493,"miÃłnĠduÃ¬Ġ":5494,"yÄģoĠqÇĲngĠ":5495,"Ġ2011ĠniÃ¡nĠ":5496,"ĠhÃ³ng":5497,"dÄĽngĠwÃ¨iĠ":5498,"zÄ«ĠjÄ«nĠ":5499,"ĠlÃ¬ĠshÇĲ":5500,"wÇĶĠtÃ¡iĠ":5501,"ĠyÃºĠ18":5502,"ĠshÃ¨ĠjÃŃĠ":5503,"xiÃłoĠguÇĴĠ":5504,"ĠsuÃ¬ĠdeĠ":5505,"ĠwÃ©n":5506,"ĠxÃº":5507,"ĠzhÃ¬ĠshÃŃĠ":5508,"ĠzhÃ¬ĠlÃ¬Ġ":5509,"gÄģoĠdÄĽngĠ":5510,"Ġ2016":5511,"ĠdÃ¬ngĠ":5512,"ĠchÄĵngĠwÃ©iĠ":5513,"ĠsuÇĴĠyÇĲ":5514,"ĠliÃ¡ngĠ":5515,"yuÃ¡nĠjÃŃĠ":5516,"ĠrÃ©nĠmÃŃn":5517,"ĠhÃ©ĠlÃ¡nĠ":5518,"shÄĵnĠqÇĲngĠ":5519,"Ġ2005ĠniÃ¡nĠ":5520,"dÃ²ngĠzuÃ²Ġ":5521,"erĠĠĠ":5522,"ĠxiÃłnĠhÃ©Ġ":5523,"Ġ3ĠyuÃ¨Ġ":5524,"mÄĽiĠguÃ³ĠdeĠ":5525,"liÇİngĠzhÇĴngĠ":5526,"Ġn":5527,"Ġ2008ĠniÃ¡nĠ":5528,"jiÃłoĠliÃłnĠ":5529,"ĠmÃŃngĠchÃ¡oĠzhÃ¨ngĠzhÃ¬ĠrÃ©nĠwÃ¹Ġ":5530,"ĠbiÄģn":5531,"ĠĠĠzÇİoĠniÃ¡nĠ":5532,"ĠjiÇĶ":5533,"bÃ¡Ġ":5534,"ĠrÃ¬ĠjÅ«nĠ":5535,"xiÃłĠlÃ¬ng":5536,"ĠwÃłnĠmÄĽiĠyuÃ¡nĠ":5537,"ĠzhuÇİn":5538,"ĠhÃ¡nĠguÃ³Ġ":5539,"ĠĠĠxÄ«nĠ":5540,"lÇĲngĠtÇĶĠ":5541,"ĠyuÃ¡nĠmÃŃngĠ":5542,"nÇĶĠlÃ¬Ġ":5543,"zhÃ¨ngĠmÃŃngĠ":5544,"liÃ¨ĠbiÇİoĠ":5545,"ĠĠĠhÃ²uĠ":5546,"lÃ¹ĠjÅ«n":5547,"ĠzhÅįngĠyÃºĠ":5548,"zuÃ²ĠyÃ²ngĠ":5549,"jÄ«ngĠchÃ¡ngĠ":5550,"qÅ«ĠyÃ¹":5551,"yÇĴuĠzÃłiĠ":5552,"ĠyÃ¬ĠyÃ¬Ġ":5553,"yÇĲngĠpiÃłn":5554,"ĠzhÄģo":5555,"ĠyuÃ¡nĠgÅįngĠ":5556,"ĠjÃ¬nĠxÃŃng":5557,"ĠnÃ¡nĠzhÃ¬Ġ":5558,"ĠĠĠyÃ³uĠ":5559,"ĠguÃ³ĠhuÃ¬Ġ":5560,"ĠgÅįngĠhuÃ¬Ġ":5561,"guÄģnĠxÃ¬":5562,"ĠxiÃ©Ġ":5563,"STĠ":5564,"ĠjÃ¬ĠzhÄĽĠ":5565,"huÃŃĠyÃ¬ngĠ":5566,"lÇĲĠlÃ¹nĠ":5567,"yÃ²ngĠzuÃ²Ġ":5568,"nÃ¨iĠlÃ¹Ġ":5569,"2ĠrÃ©nĠ":5570,"ĠshÄ«":5571,"zhÇİoĠdÃłoĠ":5572,"1984ĠniÃ¡nĠ":5573,"wÃ¡ngĠchÃ¡o":5574,"jÄ«ngĠlÇĲĠ":5575,"lÇļĠxÃŃngĠ":5576,"shÃ©nĠjÄ«ngĠ":5577,"ĠshÃ¬ĠhÃ²uĠ":5578,"ĠCh":5579,"ĠshÃłng":5580,"ĠjÃ¹":5581,"ĠxiÅ«Ġ":5582,"ĠgÅįngĠchÇİngĠ":5583,"fÃ¹ĠjÃ¬nĠ":5584,"jiÇĶĠdiÃłnĠ":5585,"yÃºĠzÃłiĠ":5586,"bÇİoĠchÃŃ":5587,"guÄ«ĠzÃ©Ġ":5588,"ĠchÃ¬Ġ":5589,"tÃłiĠrÃ©nĠ":5590,"ĠhÃ©ĠgÅįngĠ":5591,"qÃ¬ĠxiÃłngĠ":5592,"kÄĽĠyÇĲĠzÃłiĠ":5593,"suÃ¬ĠdÃłoĠ":5594,"zhÄ«ĠjiÄģnĠ":5595,"tÃŃĠdÃłoĠ":5596,"ĠchÃ©ngĠxiÃłnĠ":5597,"ĠniÃ¡nĠ1ĠyuÃ¨Ġ1ĠrÃ¬Ġ":5598,"VĠ":5599,"ĠjÄ«ĠchÄĵĠ":5600,"ĠshÃŃĠÃ¨rĠ":5601,"ĠbÃ³":5602,"ÄģiĠjÃŃĠ":5603,"1989ĠniÃ¡nĠ":5604,"gÃ©ĠwÃ¨iĠ":5605,"shÇĴuĠjÄ«Ġ":5606,"ĠguÃ³ĠfÃ¡ng":5607,"ĠjuÃ©":5608,"kÅįngĠzhÅįngĠ":5609,"ĠniÃ¡nĠshÃ¬ĠjiÃ¨Ġ":5610,"shÇĴuĠdÅ«Ġ":5611,"zhÃ¹ĠlÇĲĠ":5612,"14Ġ":5613,"bÃ¨iĠshÃ¬ĠwÃ¨iĠ":5614,"tÅįngĠdÃłoĠ":5615,"kÇĴngĠbÃ¹Ġ":5616,"wÇĴĠmen":5617,"qÃŃĠzhÅįngĠyÄ«ĠzhÇĴngĠ":5618,"ĠluÃ³":5619,"zuÃ²ĠwÃ¨iĠ":5620,"ĠdeĠzhÃ¬Ġ":5621,"ĠwÇĴĠmenĠ":5622,"ĠbÇĲ":5623,"lÃ¬ĠwÃ¨iĠ":5624,"shÅ«ĠjÃŃĠ":5625,"ĠÃ©rĠchÃ©ngĠ":5626,"jÄ«ĠhÃ©Ġ":5627,"ĠyÄ«ng":5628,"Ġ188":5629,"ĠtiÃ¡nĠ":5630,"dÅįngĠnÃ¡nĠbÃ¹Ġ":5631,"yÇĲĠxiÃłĠ":5632,"xÄ«nĠjiÄģĠpÅį":5633,"yÇİnĠyÃ¬Ġ":5634,"ĠxÄ«ĠwÃłng":5635,"Ġm":5636,"dÃłĠlÃ¹ĠdeĠ":5637,"qÇĲĠyÃ¨":5638,"ĠfÇİn":5639,"ĠzuÃ²ĠwÃ©i":5640,"gÃ¹ĠwÃ¨nĠ":5641,"dÃłiĠlÇĲĠ":5642,"ĠdeĠjiÄģĠ":5643,"jÄ«nĠshÇĶĠ":5644,"jÃ¬nĠyÃŃĠbÃ¹Ġ":5645,"fÄĵnĠzhÅįngĠ":5646,"10ĠniÃ¡nĠ":5647,"ĠxuÇİnĠ":5648,"ĠhÄĽnĠ":5649,"ĠĠĠ3":5650,"lÃ¡oĠdÃ²ngĠ":5651,"zhÇĶĠchÃŃ":5652,"jiÃłoĠxuÃ©Ġ":5653,"biÇİoĠmiÃłnĠ":5654,"ĠlÃ©iĠ":5655,"ĠyÄ«ngĠyÇĶĠ":5656,"Ġ30":5657,"nÄ«Ġ":5658,"cÃ¡iĠliÃłoĠ":5659,"ĠhÃ©ĠxÄ«Ġ":5660,"ĠbÃ¹ĠbÃ¹Ġ":5661,"ĠhÃ©ĠshÃŃĠ":5662,"ĠyÇĴuĠjÄ«Ġ":5663,"chÃ¡oĠxiÄģn":5664,"Ġ2001ĠniÃ¡nĠrÃ©nĠkÇĴuĠ":5665,"dÃłoĠlÃ¹Ġ":5666,"huÃ¡ĠrÃ©nĠ":5667,"3ĠrÃ©nĠ":5668,"ĠguÄģn":5669,"ĠzÃłiĠwÃ¨iĠ":5670,"ĠbÄĽiĠqÇĲĠ":5671,"bÇİoĠliÃºĠ":5672,"jÃ¬ngĠdeĠ":5673,"sÇĲĠhÃ²uĠ":5674,"bÅįĠlÃ¡n":5675,"tÅįngĠchÄĵĠ":5676,"sÄ«ĠlÃ¬Ġ":5677,"ĠzhÅįngĠguÃ³ĠdÃłĠlÃ¹Ġ":5678,"bÃ¡iĠsÃ¨Ġ":5679,"yÃłĠlÃ¬ĠshÄģnĠdÃłĠ":5680,"huÃ¬ĠshÃ¬Ġ":5681,"ĠyÇĲĠbÃ¨iĠ":5682,"ĠtÇĶĠ":5683,"fÇİĠÃłnĠ":5684,"jÅ«ĠmÃŃn":5685,"Ġà":5686,"zhÇĶĠlÃ¬Ġ":5687,"ĠpÃŃngĠmiÃłnĠ":5688,"nÃŃĠkÃ¨Ġ":5689,"ĠtÄģĠwÃ¨iĠ":5690,"yÇĲnĠqÇĲĠ":5691,"ĠwÃłnĠyuÃ¡nĠ":5692,"Ġ2021":5693,"zhÇĶĠdeĠ":5694,"ĠzhÄ«ĠjiÄģn":5695,"yÇĲnĠqÇĲ":5696,"ĠsÄ«ĠtÃ¨":5697,"nÇļĠzÇĲ":5698,"zhÃłoĠkÄģiĠ":5699,"ĠxiÃłnĠdeĠyÃŃĠgÃ¨Ġ":5700,"neĠ":5701,"ĠdÃłoĠdÃ¡Ġ":5702,"zhÃłiĠ":5703,"ĠdÅįngĠnÃ¡nĠ":5704,"yÃ¹nĠzuÃ²Ġ":5705,"ĠĠĠ2012":5706,"jiÄģoĠhuÃ¬Ġ":5707,"yÃŃĠzhÇĲĠ":5708,"wÃ¨iĠĠĠ":5709,"shÇĴuĠgÃ¨Ġ":5710,"tuÃ¬ĠchÅ«Ġ":5711,"dÃ¬ĠÃ¨rĠ":5712,"ĠÃ©rĠyÃ¡nĠ":5713,"ĠxiÃłnĠdeĠyÃŃĠgÃ¨":5714,"ĠqÇĲ":5715,"jiÃ¨ĠdeĠ":5716,"zhÃ¡Ġ":5717,"ĠbÃ¨iĠrÃ¨nĠwÃ©iĠshÃ¬Ġ":5718,"cÃ©ngĠjÄ«ng":5719,"lÃ¬ĠzÃłiĠ":5720,"ĠjÄ«ĠhÅ«":5721,"ĠkÃ¨ĠchÃ©ngĠ":5722,"wÃ©nĠzhÄģngĠ":5723,"jÇĲĠgÃ¨Ġ":5724,"ĠshÃ¬ĠjiÄģĠ":5725,"ĠyÇĴuĠyÃ¬Ġ":5726,"tÃ¨ĠshÅ«Ġ":5727,"ĠnÇļĠxÃ¬ngĠ":5728,"ĠxÄ«ĠsÄ«Ġ":5729,"xiÄģngĠguÄģn":5730,"shÄ«ĠfÃłn":5731,"ĠfÃ¹ĠqÄ«nĠ":5732,"wÃºĠfÇİ":5733,"cÄģnĠmÃ³u":5734,"ĠsĠĠĠ":5735,"jÄ«nĠhuÃ¬Ġ":5736,"lÄĽngĠ":5737,"1985ĠniÃ¡nĠ":5738,"jiÃłoĠshÄ«Ġ":5739,"ĠĠĠxiÃłĠ":5740,"fÄĵiĠzhÅįuĠ":5741,"lÇľĠshÄ«Ġ":5742,"ĠshÃ¬ĠyÇĶĠ":5743,"wÄĵiĠjÄ«Ġ":5744,"xÄ«ĠbÄģnĠyÃ¡":5745,"dÃłĠwÃ¨iĠ":5746,"ĠyÄ«ĠjÃŃĠ":5747,"chÃ¡ngĠdeĠ":5748,"ĠbÃ¹ĠdÃ©":5749,"ĠtÄģĠmenĠzÃłiĠ":5750,"ĠyÃ¬ĠfÄģngĠmiÃłnĠ":5751,"fÇİĠyuÃłn":5752,"ĠÃ©rĠshuÇĲĠyÃ¹ĠmiÃłnĠjÄ«ĠwÃ¨iĠ0":5753,"ĠguÃ³ĠjiÄģĠdeĠ":5754,"ĠfÃ©ngĠ":5755,"zhÄĽĠzÃłiĠ":5756,"ĠhÃ©ĠqÃŃĠtÄģĠ":5757,"xÃ¬ĠtÇĴngĠdeĠ":5758,"ĠĠĠU":5759,"duÅįĠniÃ¡nĠ":5760,"yÃłĠzhÅįu":5761,"chÄĵĠdeĠ":5762,"jÄ«nĠpÃ¡iĠ":5763,"ĠzhÄ«ĠwÃ¨iĠ":5764,"ĠbÃ¬ngĠjiÄģngĠ":5765,"ĠzhÇĶĠxÃŃĠ":5766,"kÄģngĠxÄ«Ġ":5767,"yÃłoĠwÃ¹Ġ":5768,"1ĠrÃ©nĠ":5769,"wÃ©nĠxiÃłnĠ":5770,"zÃ©ĠwÃ¨iĠ":5771,"ĠchÃ©ngĠxÃ¹Ġ":5772,"biÃłnĠdÃ©Ġ":5773,"biÇİoĠdÃ¡":5774,"ĠmÄĽiĠniÃ¡nĠ":5775,"dÃłĠdÃ¬Ġ":5776,"ĠchÃ©ngĠrÃ¨nĠ":5777,"zhÃŃĠmÃŃn":5778,"guÃ²ĠqÃ¹Ġ":5779,"pÃºĠtÃ¡oĠyÃ¡":5780,"huÄģnĠyÃŃngĠ":5781,"ĠjÃ¹ĠyÇĴuĠ":5782,"ĠzhÃ¬ĠliÃ¡oĠ":5783,"ĠsÄ«ĠkÃ¨Ġ":5784,"ĠjÃ¬nĠxÃŃngĠleĠ":5785,"ĠgÇİngĠ":5786,"ĠĠĠchÃ©ngĠ":5787,"mÃ¹ĠbiÄģo":5788,"Ġ00Ġ":5789,"ĠhÇİi":5790,"fÃºĠyÃ¬Ġ":5791,"zhuÄģngĠshÃ¬Ġ":5792,"dÅįngĠbÄĽiĠbÃ¹Ġ":5793,"gÃ²uĠzÃłoĠ":5794,"huÃ²ĠdÃ©ĠleĠ":5795,"bÃ³ĠwÃ¹ĠguÇİn":5796,"ÃłoĠdÃłĠlÃ¬ĠyÃłĠ":5797,"ĠbÄģnĠ":5798,"ĠqÇĶĠ":5799,"bÄĽnĠdÃ¬Ġ":5800,"jiÄģngĠhuÃ¬Ġ":5801,"ĠqiÃºĠyuÃ¡nĠ":5802,"ĠfÃ¨i":5803,"Ġ100":5804,"ĠguÄģnĠyÃºĠ":5805,"ĠÃ©rĠgÄģiĠdÃ¬Ġ":5806,"xiÄģnĠshÄĵngĠ":5807,"ĠbÃ¹ĠlÄģĠ":5808,"ĠyÃºĠlÃ¨Ġ":5809,"bÅįĠlÃ¡nĠ":5810,"1949ĠniÃ¡nĠ":5811,"jiÄģĠrÃ¹":5812,"fÃłngĠqÃ¬Ġ":5813,"jiÃłnĠyÃ¬Ġ":5814,"ĠlÃŃ":5815,"Ġ2015":5816,"ĠwÃ¨iĠyÇĴuĠ":5817,"yÃ¬ĠdÃłĠlÃ¬Ġ":5818,"dÄģngĠshÃŃĠdeĠ":5819,"ĠqÄ«ĠxÄ«ĠzÃłiĠ":5820,"mÃ¡oĠzÃ©Ġ":5821,"liÇİngĠniÃ¡nĠ":5822,"xiÃłoĠdeĠ":5823,"sÃłĠsÄ«Ġ":5824,"ĠbÃ¬ngĠyÇĶĠ":5825,"ĠzhÇĴngĠ":5826,"ĠdÃłĠlÃ¹Ġ":5827,"ĠzhÃ¹":5828,"ĠyÅįngĠyÇĴuĠ":5829,"guÇİngĠgÃłoĠ":5830,"ĠwÃ¨iĠlÃ¡iĠ":5831,"Ġ2007ĠniÃ¡nĠ":5832,"chÄĵngĠzuÃ²Ġ":5833,"fÃ¹ĠqÄ«n":5834,"zÃ¬ĠyÃ³u":5835,"ĠjiÃłnĠzÃłoĠ":5836,"liÃºĠzÃłiĠ":5837,"shÅįuĠshÃ¬Ġ":5838,"ĠdeĠzhÃ¨ngĠ":5839,"ĠjÃ¬nĠyÃŃĠbÃ¹Ġ":5840,"ĠbÃłnĠ":5841,"ĠĠĠcÃ³ngĠ":5842,"nÃ¡nĠjÄ«ngĠ":5843,"ĠjÃ¬nĠgÅįngĠ":5844,"sÃłĠÄĽrĠ":5845,"luÃ³ĠdÃ¬Ġ":5846,"ĠshÃ¬ĠzhÃ¨ngĠ":5847,"ĠfÃ¹ĠqÄ«n":5848,"tiÄģnĠdeĠ":5849,"jÇĲnĠjÃŃĠ":5850,"xÃ¬ĠjÃ¹Ġ":5851,"ĠhÃłoĠwÃ¨iĠ":5852,"jÃ¬ĠxÃ¹Ġ":5853,"ĠjÃ¬ĠshÃ¹":5854,"tÇİnĠkÃ¨Ġ":5855,"ĠgÃ©":5856,"ĠrÃ©nĠmen":5857,"ĠrÃ¬ĠjÅ«n":5858,"4ĠrÃ©nĠ":5859,"ĠyÃ¬ĠmÄĽiĠyuÃ¡nĠ":5860,"cÃ¬ĠshÇĲĠ":5861,"Ġ2013":5862,"ĠzÃłiĠcÇĲ":5863,"ĠĠĠIn":5864,"ĠtÃ¨ĠbiÃ©ĠshÃ¬Ġ":5865,"huÇĴĠjiÃłnĠ":5866,"ĠjiÄģĠzÃºĠ":5867,"piÃłoĠfÃ¡ngĠ":5868,"quÃ¨ĠrÃ¨nĠ":5869,"qÇĲngĠqiÃºĠ":5870,"ĠdeĠshÄĵngĠ":5871,"jÇĲngĠfÄģngĠ":5872,"kÇİoĠlÇľ":5873,"bÇĲĠlÃ¬ĠshÃŃĠ":5874,"1986ĠniÃ¡nĠ":5875,"ĠshÃ¬ĠrÃ¬ĠbÄĽnĠ":5876,"tÃłiĠpÃŃngĠyÃ¡ng":5877,"zhÄģnĠmÇĶĠsÄ«Ġ":5878,"ĠbÄ«ngĠ":5879,"ĠjiÃ©ĠguÇĴ":5880,"Ġ2014":5881,"ĠchÅ«ĠshÄĵngĠ":5882,"dÃ¬ĠzÃłiĠ":5883,"pÄģiĠ":5884,"ĠyÇĲĠyÇĴuĠ":5885,"ĠsÄ«ĠtÇİn":5886,"tÃ³uĠpiÃło":5887,"ĠbÇİiĠ":5888,"biÄģnĠdeĠ":5889,"shÃłngĠwÇĶĠ":5890,"bÄģĠlÃŃ":5891,"wÃ¡ngĠchÃ¡oĠ":5892,"nÃ¨iĠyÇĴuĠ":5893,"wÃ¡nĠgÅįngĠ":5894,"ĠzhÃ¬ĠchÃ©ngĠ":5895,"guÇİngĠdÅįngĠshÄĽngĠ":5896,"ĠĠĠjiÃ©ĠzhÃ¬Ġ":5897,"fÄĽnĠ":5898,"Ġf":5899,"pÄģiĠshÃ¨":5900,"ĠyuÃ¡nĠbÄĽnĠ":5901,"chÃ©ngĠniÃ¡nĠ":5902,"ĠgÄģo":5903,"chÇİngĠhÃ©Ġ":5904,"chÄ«Ġ":5905,"ĠqÃŃĠzÃłiĠ":5906,"ĠzhÄ«ĠziĠ":5907,"ĠxÃ¬ĠliÃ¨Ġ":5908,"ĠpÃ¨i":5909,"ĠĠĠw":5910,"shÄĵnĠtÇĲĠ":5911,"mÃ©ngĠgÇĶ":5912,"18Ġ":5913,"ĠdÃłĠyuÄĵĠ":5914,"ĠzhÃłnĠdÃ²uĠ":5915,"gÇĶĠfÃ¨n":5916,"ĠzhÄ«ĠdeĠ":5917,"yÇİnĠchÃłngĠ":5918,"xÃŃĠxÃ¬ng":5919,"gÃ¨ngĠduÅįĠ":5920,"hÃºĠbÄĽiĠ":5921,"ĠyuÄĵĠhÃłnĠ":5922,"dÄĵngĠshÃłngĠ":5923,"ĠxiÃłnĠchÇİngĠ":5924,"ĠĠĠzÄĵngĠ":5925,"suÇĴĠzÃłiĠ":5926,"mÃŃnĠjiÄģnĠ":5927,"qÃŃngĠbÃłoĠ":5928,"guÇİngĠfÃłn":5929,"mÇĶĠqÄ«n":5930,"5ĠrÃ©nĠ":5931,"wÃłiĠbÃ¹Ġ":5932,"zhÃ²ngĠyÃ¬Ġ":5933,"mÃ¬ĠmÃ¬Ġ":5934,"ĠyÄ«ngĠwÃ©nĠ":5935,"guÄģnĠbÃ¬Ġ":5936,"ĠdÃ¨ng":5937,"ĠhÃ¨Ġ":5938,"xiÃłoĠyuÃ¡nĠ":5939,"ĠshÃ¬ĠyÃ¨Ġ":5940,"ĠzÃłiĠqÃŃĠ":5941,"kÇİoĠlÇľĠ":5942,"Ã©ĠluÃ³ĠsÄ«":5943,"ĠtÃŃĠgÅįngĠ":5944,"tÃ¨ĠsÃ¨Ġ":5945,"ĠjÄ«ngĠjÃ¬Ġ":5946,"ĠÄģiĠ":5947,"ĠyÇĴuĠxiÃłnĠ":5948,"sÄĵnĠlÃŃnĠ":5949,"mÇİĠsÄ«Ġ":5950,"ÄģnĠpÃ¡iĠ":5951,"Ġ2020":5952,"ĠĠĠ2":5953,"wÃ¹ĠyuÃ¡nĠ":5954,"mÄĽngĠ":5955,"xiÃłĠyÄ«Ġ":5956,"mÄĽiĠgÃ¨Ġ":5957,"ĠquÃ¡nĠqiÃºĠ":5958,"ĠwÇĴĠmen":5959,"Ã¨rĠyuÃ¨Ġ":5960,"ĠdÃłĠduÅįĠshÃ¹Ġ":5961,"ĠbÃ¹ĠjiÇĶ":5962,"zhuÄģngĠbÃ¨iĠ":5963,"huÇİnĠ":5964,"ĠdÃłĠdÃłoĠ":5965,"Ġ10Ġ":5966,"nÃ©ngĠzÃłiĠ":5967,"ĠjÄ«ĠbÃłi":5968,"tÇĶĠÄĽrĠqÃŃĠ":5969,"ĠwÃ²":5970,"qiÄģnĠzhÃ¬Ġ":5971,"cÃ¹nĠ":5972,"ĠdÃ¬ĠyÄ«ĠcÃ¬Ġ":5973,"ĠzuÃ¬ĠgÄģoĠ":5974,"chÇİngĠdÃ¬Ġ":5975,"zÃ¨ngĠ":5976,"mÃŃnĠzhÇĶĠdÇİngĠ":5977,"nÃ¡nĠyÇĲĠ":5978,"xÃ¬ngĠqÃ¹Ġ":5979,"ĠshÃŃĠyÃłnĠ":5980,"zuÃ²ĠzhÃłnĠ":5981,"ĠjÃŃĠbÄĽiĠ":5982,"ĠchÅ«ĠlÃ¡iĠ":5983,"tÃ¡iĠfÄĵngĠ":5984,"tiÄģnĠjÄ«nĠ":5985,"ĠniÃ¡nĠĠĠ":5986,"Ġ2017":5987,"bÃłnĠlÇĲĠ":5988,"ĠzhÄ«ĠdÃłoĠ":5989,"tiÄģnĠjÄ«n":5990,"ĠxÃºnĠ":5991,"ĠpÃ¨iĠ":5992,"lÃ³ngĠjiÄģngĠ":5993,"lÇĲngĠshÃ¬Ġ":5994,"ĠbÃ¹ĠzÃºĠ":5995,"yÃ²ngĠtÃºĠ":5996,"HĠ":5997,"ĠcÄģnĠjiÄģĠ":5998,"ĠzhÅįngĠshÃ¬Ġ":5999,"lÇĲĠgÅįngĠ":6000,"ĠtÅįngĠchÃ¡ng":6001,"ĠyuÃ¡nĠsÃ¹Ġ":6002,"ĠÃ©":6003,"wÄĵiĠÄĽrĠ":6004,"nÃ³ngĠyÃ¨":6005,"ĠqÄ«ngĠchÃ¡oĠ":6006,"ÄģiĠÄĽrĠ":6007,"ĠkÄģngĠ":6008,"chÃ¡ngĠjiÃłnĠdeĠ":6009,"ĠchÃ©ngĠdÃ¹Ġ":6010,"zhÃłnĠlÇĲngĠ":6011,"jÃ¬nĠxÃŃngĠleĠ":6012,"ĠshÇĲĠjiÃłnĠyÃºĠ":6013,"ĠgÄģngĠ":6014,"ĠĠĠmÃŃngĠ":6015,"dÇİoĠdÃłnĠ":6016,"xiÅ«ĠzhÃ¨ngĠ":6017,"ĠyuÃ¨ĠtuÃ¡nĠ":6018,"ĠlÇļĠ":6019,"zÇĶĠjiÃłnĠ":6020,"guÃ¬ĠzhÅįuĠ":6021,"ĠtÄģĠhÃ¡iĠ":6022,"ĠĠĠxiÃłn":6023,"fÄĵnĠbÃ¹ĠyÃºĠ":6024,"maĠ":6025,"mÇİĠlÃ¡iĠxÄ«ĠyÃłĠ":6026,"xÇĲĠjÃ¹Ġ":6027,"ĠgÅįngĠzhÇĶĠ":6028,"xÃŃĠxÃ¬ngĠbÃ¹ĠmÃŃngĠ":6029,"ĠshÃŃĠdÃłi":6030,"zhÃłngĠÃłiĠ":6031,"xiÃłngĠshÃ¬Ġ":6032,"ĠwÃ©nĠhuÃłĠ":6033,"ĠĠĠf":6034,"ĠchÅ«ĠqÄ«Ġ":6035,"ĠzhÃłnĠdÃ²u":6036,"teĠ":6037,"huÃ¡ĠshÃ¨ngĠ":6038,"ĠyÃ¡n":6039,"shÄĵngĠchÃ©ngĠ":6040,"1987ĠniÃ¡nĠ":6041,"ĠyÇĴuĠxiÄĵĠ":6042,"fÇİĠguÄģnĠ":6043,"jiÄģoĠliÃºĠ":6044,"rÃ¨nĠmÃ¬ngĠwÃ¨iĠ":6045,"ĠshÄĵngĠchÇİn":6046,"ĠyÃ¬ĠqÇĲ":6047,"ĠyÄĽĠjiÃ¹ĠshÃ¬Ġ":6048,"ĠĠĠtÄģĠ":6049,"ĠdeĠfÄģngĠshÃ¬Ġ":6050,"ĠhÃ©ĠhÃ©Ġ":6051,"ĠshÄĵngĠhuÃ³ĠxÃŃĠxÃ¬ngĠbÃ¹ĠmÃŃngĠ":6052,"ĠhÃ©ngĠ":6053,"shÃ¨ĠzhÃ¬Ġ":6054,"shÃ²uĠdÃło":6055,"tÃŃĠchÅ«":6056,"40Ġ":6057,"jÄ«ĠchÇĶĠ":6058,"ĠtÄģĠyÄĽĠ":6059,"ĠAĠ":6060,"ĠshÅįuĠ":6061,"hÄĽnĠdÃłĠ":6062,"ĠchÇĶĠyÃºĠ":6063,"zhÃ¬ĠzhÅįngĠ":6064,"tÃ³ngĠniÃ¡nĠ":6065,"bÃłoĠfÄģ":6066,"ĠtÃ¡oĠ":6067,"zhÇĶĠshÃ¬Ġ":6068,"seĠ":6069,"1980ĠniÃ¡nĠ":6070,"jÃ¹ĠjuÃ©Ġ":6071,"ĠwÃłnĠlÃ¬Ġ":6072,"ĠgÄĵnĠjÃ¹":6073,"ĠĠĠmÄĽiĠguÃ³Ġ":6074,"chuÃ¡nĠshuÅįĠ":6075,"hĠ":6076,"17Ġ":6077,"lÄģĠdÄ«ng":6078,"lÇĲngĠxiÃ¹Ġ":6079,"chuÃłngĠbÃłn":6080,"huÃłĠhÃ©ĠwÃ¹Ġ":6081,"ĠÃ©rĠbÃºĠshÃ¬Ġ":6082,"ÄģnĠzhuÄģng":6083,"ĠruÃ¬Ġ":6084,"rÃ¨nĠshÃŃĠ":6085,"qiÃ³ngĠ":6086,"1982ĠniÃ¡nĠ":6087,"ĠyÃŃnĠ":6088,"bÃłoĠlÃ¬Ġ":6089,"ÄģnĠnÃłĠ":6090,"ĠyÄ«ĠxuÃ©Ġ":6091,"wÇĴĠmenĠ":6092,"ĠgÃ²ng":6093,"ĠxuÄģnĠ":6094,"terĠ":6095,"zhÃ¬ĠbÃ¹Ġ":6096,"wÃ©nĠyÃ¬Ġ":6097,"shÃºĠ":6098,"jiÄģĠlÃ¬ĠfÃºĠ":6099,"ĠzhÃło":6100,"ĠyÇĴuĠyÃŃĠgÃ¨Ġ":6101,"ĠxiÃłnĠxiÃłngĠ":6102,"shÃłngĠyÃ¬ngĠ":6103,"ĠgÃ²ngĠyÇĴuĠ":6104,"ĠĠĠlÇĲĠ":6105,"fÇİĠyÇĶĠ":6106,"ĠzÃłiĠnÃ¨iĠdeĠ":6107,"gÄģoĠsÃ¹Ġ":6108,"ĠzÃłiĠdÃ¹Ġ":6109,"ĠÃ©rĠbÃ¹Ġ":6110,"jÃ¬ĠshÃ¬Ġ":6111,"yuÃłnĠshÃ¬Ġ":6112,"ĠwÃ¨iĠxÄ«ngĠ":6113,"yÃ¡nĠshÄĵn":6114,"hÇİiĠÃłnĠ":6115,"chuÃłngĠjiÃłnĠ":6116,"bÄ«nĠhÇİiĠ":6117,"shÃ¹nĠlÃ¬Ġ":6118,"ĠlÇĲĠlÃ¹n":6119,"ĠdÅįngĠbÄĽiĠ":6120,"ĠĠĠcÇĲĠwÃłiĠ":6121,"ĠluÃ²":6122,"ĠhÃłn":6123,"Ġ2013ĠniÃ¡nĠ":6124,"lÃ©iĠsÄ«Ġ":6125,"ruÇİnĠjiÃłnĠ":6126,"ĠshÄĵngĠzhÇİng":6127,"shÅ«ĠrÃ¹Ġ":6128,"nÇļĠxÃ¬ng":6129,"ĠyÃ³uĠqÃŃĠshÃ¬Ġ":6130,"tuÄ«ĠjÃ¬nĠ":6131,"ĠhÃ©ĠbÃ¹Ġ":6132,"zÄ«ĠchÇİnĠ":6133,"lÃ¹nĠwÃ©nĠ":6134,"kÇĶĠ":6135,"ĠxÃŃngĠzhÃ¨ng":6136,"wÇİngĠluÃ²":6137,"wÇİngĠqiÃºĠ":6138,"hÇİiĠwÃłiĠ":6139,"zuÃ¬ĠgÄģo":6140,"pÃŃngĠlÃ¹nĠ":6141,"ĠbÃ¹ĠluÃ²Ġ":6142,"ĠdÃłĠshÃł":6143,"ĠkÇİ":6144,"zhÇĶĠyÃ¬ĠdeĠ":6145,"bÃłoĠgÃło":6146,"Ġ2010":6147,"1983ĠniÃ¡nĠ":6148,"yÃ¬ngĠyÃ²ng":6149,"cÇİiĠqÇĶĠ":6150,"Ġ2012":6151,"jiÃłoĠshÃ¬Ġ":6152,"zÅ«Ġ":6153,"bÇİnĠbÄĽn":6154,"pÃ¡iĠmÃŃngĠdÃ¬Ġ":6155,"ĠsÄģiĠ":6156,"jÃ¹ĠhÃ©Ġ":6157,"biÃłnĠwÃ¨iĠ":6158,"15ĠniÃ¡nĠ":6159,"Ġ2006ĠniÃ¡nĠ":6160,"tÃ³uĠzÄ«":6161,"ĠshÇĶ":6162,"ĠwÇİĠ":6163,"yÃºĠdeĠ":6164,"sÄģnĠshÃ¬Ġ":6165,"zÃ©ĠrÃ¨nĠ":6166,"fÄģngĠmiÃłnĠdeĠ":6167,"diÃłnĠnÇİo":6168,"bÅįĠfÃłngĠ":6169,"ĠbÄĽiĠjÄ«ngĠ":6170,"ĠĠĠqÃŃĠ":6171,"ĠzÃłiĠxÄ«Ġ":6172,"rÃ©nĠdÃłĠ":6173,"ĠdÃ©ĠÄĽrĠ":6174,"ĠhÃ²uĠxuÇİnĠrÃ©nĠ":6175,"ĠnÃł":6176,"ĠtÇİĠ":6177,"mÇİĠlÇĲĠ":6178,"yÇĲnĠqÃŃngĠ":6179,"gÃ¨ĠzhÇĴngĠ":6180,"ĠĠĠofĠĠĠ":6181,"ĠMa":6182,"1945ĠniÃ¡nĠ":6183,"ĠshÃ¬ĠmÃŃnĠ":6184,"ĠhÃ©ĠdÃłĠ":6185,"diÃłnĠzi":6186,"lÇĲngĠdÃ¬Ġ":6187,"21ĠniÃ¡nĠ":6188,"ĠzÃłiĠcÃ¬":6189,"fÃłnĠwÃ©iĠnÃ¨iĠ":6190,"rÇİoĠ":6191,"ĠĠĠjÃ¹ĠqÃŃngĠ":6192,"ĠĠĠqiÃ¡nĠ":6193,"zhÃ¨ĠlÇĲĠ":6194,"xiÄģngĠshÃ¬ĠdÃ¬Ġ":6195,"13ĠniÃ¡nĠ":6196,"ĠyÃºĠrÃ©nĠ":6197,"zhÃ¨ngĠdÇİngĠ":6198,"ĠrÃ¬ĠbÃłoĠ":6199,"ĠlÃ¬ngĠyÄ«Ġ":6200,"xÃŃngĠchÃ©ngĠ":6201,"fÄģĠxÃŃngĠdeĠ":6202,"ĠjÄ«ĠhÅ«Ġ":6203,"zhÃŃĠjiÄĵ":6204,"ĠpÃł":6205,"fÄĵngĠwÃ¨iĠ":6206,"pÃłiĠdeĠ":6207,"22ĠniÃ¡nĠ":6208,"ĠshÃ¬ĠgÃ¹Ġ":6209,"xÃ¬ĠbÄģo":6210,"ĠzhÃ¬ĠshÇİoĠ":6211,"biÇİoĠdÃ¡Ġ":6212,"yuÃłnĠyÃ¬Ġ":6213,"ĠtÄģĠhÃ©Ġ":6214,"jÃ¹ĠlÃ¨ĠbÃ¹Ġ":6215,"dÃºĠlÃ¬ĠdeĠ":6216,"miÃ¡nĠ":6217,"ĠzhÄ«ĠfÃ¹Ġ":6218,"jiÇĶĠlÃ³ngĠ":6219,"dÄģngĠxuÇİnĠ":6220,"hÃ¨ĠÄĽrĠ":6221,"zÃ¬ĠrÃ¡n":6222,"Ġ30Ġ":6223,"ĠĠĠchÅ«Ġ":6224,"ĠĠĠxiÃłnĠ":6225,"ĠyÇĴuĠxiÃłoĠ":6226,"bÃºĠ":6227,"wÄĵnĠdÃ¹Ġ":6228,"cĠĠĠ":6229,"jÃ¬ĠchÃ©ngĠ":6230,"huÇĴĠshÄģnĠ":6231,"yÇĶnĠxÇĶ":6232,"ĠyÄ«ĠxiÇİoĠshÃŃĠ":6233,"ĠjÃ¬ĠsuÃłnĠ":6234,"ĠdÃłĠxÄ«ĠyÃ¡ngĠ":6235,"guÃ²ĠqÃ¹":6236,"jiÃ¹ĠdÃº":6237,"pÃ¡iĠhÃ¡ngĠ":6238,"ÄģnĠdÃ©Ġ":6239,"ĠdÅįngĠlÃŃnĠ":6240,"toĠĠĠ":6241,"jÇĲngĠchÃ¡":6242,"zhÄ«ĠchÃŃ":6243,"fÇİngĠwÃ¨n":6244,"mÃŃngĠzÃ¬Ġ":6245,"ĠzuÃ²ĠjiÄģĠ":6246,"xÇĲĠhuÄģn":6247,"ĠyÃ²ngĠyÃºĠ":6248,"dÇİngĠyuÃ¡nĠ":6249,"ĠrÃ³ngĠ":6250,"qÅ«ĠyÃ¬ĠhuÃ¬Ġ":6251,"ĠdÃłĠfÃºĠ":6252,"ĠdÃ©ĠhuÃ¡Ġ":6253,"ĠlÃ¡i":6254,"Ġ2012ĠniÃ¡nĠ":6255,"huÃłnĠchÃ©ngĠ":6256,"fÄģngĠyÃ¡nĠ":6257,"biÇİoĠyÇİn":6258,"xiÃłnĠzhÃ¬Ġ":6259,"yÃ¡ngĠshÃ¬Ġ":6260,"dÅįuĠzÃłiĠ":6261,"ĠdÃ¬ĠyÃŃĠgÃ¨Ġ":6262,"1ĠlÃ¬Ġ":6263,"ĠchÅ«ĠzhÃłnĠ":6264,"bÇĲĠyÃł":6265,"ĠĠĠdÃ¬ĠfÄģngĠ":6266,"ĠyÇĶĠmÃ¡o":6267,"ĠbÃ¬ngĠbÃ¨iĠ":6268,"qÅ«ĠhÃ©Ġ":6269,"ĠyÄ«ĠtÃ³ngĠ":6270,"ĠzhÅįngĠhuÃ¡ĠrÃ©nĠmÃŃnĠgÃ²ngĠhÃ©ĠguÃ³ĠzhÃ¨ngĠzhÃ¬ĠrÃ©nĠwÃ¹Ġ":6271,"ĠkÇĴngĠ":6272,"ĠxiÃłnĠshÃ¬Ġ":6273,"xiÄģngĠdÄģng":6274,"jÄ«ngĠyÃłnĠ":6275,"tiÃ¡oĠzhÄĽng":6276,"pÇĶĠbiÃłnĠ":6277,"ĠyÃŃngĠ":6278,"Ġ7Ġ":6279,"zuÃ²ĠshÃ¬Ġ":6280,"ĠzhÅįngĠbÃ¨iĠ":6281,"guÄģnĠdiÇİnĠ":6282,"jiÃłngĠdÄ«Ġ":6283,"kÄĵĠdeĠqÃŃĠzhÅįngĠyÄ«ĠzhÇĴngĠ":6284,"23ĠniÃ¡nĠ":6285,"ĠgÅįngĠyÃ¬Ġ":6286,"xÃºnĠyÃ¡ng":6287,"Ġ0Ġ":6288,"dÃłĠzhÃ¬Ġ":6289,"liÇİngĠmÃŃngĠ":6290,"hÃ¡nĠyÇĴuĠ":6291,"zhÃ²ngĠduÅįĠ":6292,"diÇİnĠlÇĲĠ":6293,"ĠshÄĵngĠyÃºĠ":6294,"shÄĽĠ":6295,"guÃłĠ":6296,"ĠbÃ¬ngĠdÃº":6297,"yÃłĠjÅ«nĠ":6298,"ĠqÃŃĠzhÅįngĠyÄ«Ġ":6299,"shÃ¨ĠqÅ«Ġ":6300,"kÇĴuĠwÃ¨iĠ":6301,"chÃ©ngĠyuÃ¡nĠ":6302,"zhÄ«ĠqiÃ¡nĠ":6303,"mÃ¬ĠshÅ«ĠzhÇİngĠ":6304,"ĠdÃ¬ĠsÃ¬":6305,"yÃŃĠdÃ¹Ġ":6306,"ĠsÃłiĠjÃ¬Ġ":6307,"tiÃ¡oĠlÃ¬Ġ":6308,"nÃ¨iĠgÃ©Ġ":6309,"ĠliÃłngĠ":6310,"shÃ¹ĠyÇĶĠ":6311,"shÄģnĠshÃ¬Ġ":6312,"wÃºĠzhÃ¨ngĠzhuÃłngĠ":6313,"ĠxiÃłnĠrÃ¨nĠ":6314,"tÅ«ĠpÃ²Ġ":6315,"xiÄĽĠdÃłoĠ":6316,"dÃłngĠtiÄģnĠ":6317,"ĠchÃ¡Ġ":6318,"ĠxÃŃngĠwÃ¨iĠ":6319,"ĠzÇĶĠfÃ¹Ġ":6320,"ĠpÃŃngĠjÅ«nĠ":6321,"ĠgÅįngĠmÃŃnĠ":6322,"xÄ«ngĠdÄĽngĠwÃ¨iĠ":6323,"ĠshÃ¬ĠyÃºĠ":6324,"ĠtÃ³ngĠyÃ¬Ġ":6325,"ĠÃ¨Ġ":6326,"ĠjiÃ¹ĠshÃ¬Ġ":6327,"hÃ³ngĠsÃ¨Ġ":6328,"zhÃ¨ngĠbÃ¹Ġ":6329,"wÃ¡nĠzhÄĽng":6330,"ĠbÇĲĠsÃłiĠ":6331,"kÄģiĠshÇĲĠzÃłiĠ":6332,"7ĠrÃ©nĠ":6333,"tuÃ¡nĠdeĠ":6334,"gÄĽiĠleĠ":6335,"ĠjÄ«ĠjÄ«nĠ":6336,"sÇĲĠwÃ¡ng":6337,"zhÄĽngĠtÇĲĠ":6338,"zĠ":6339,"yÃ¬ĠniÃ¡nĠ":6340,"bÄĽnĠrÃ©nĠ":6341,"juÃ©ĠduÃ¬Ġ":6342,"lÇĶĠsÄ«Ġ":6343,"ĠliÃ¹":6344,"Ġ500":6345,"ĠshuÅįĠ":6346,"ĠquÃ¡nĠlÃ¬Ġ":6347,"yÃŃĠdÃ¬ngĠ":6348,"yÄ«ngĠwÃ©nĠ":6349,"dÃłiĠbiÇİoĠdÃłĠhuÃ¬Ġ":6350,"6ĠrÃ©nĠ":6351,"ĠsÃłiĠ":6352,"ĠhÃ¡oĠmÇĲĠ":6353,"ĠĠĠjÃŃĠ":6354,"chÃŃĠyÇĴuĠ":6355,"ĠshÃ¬ĠbÄ«ngĠ":6356,"gÃłiĠniÃłn":6357,"ĠrÃ©ng":6358,"ĠĠĠ2011":6359,"ĠgÅįngĠjÃ¹Ġ":6360,"shÃ¨ĠshÄ«Ġ":6361,"ĠzuÃ¬ĠchÅ«Ġ":6362,"ĠnÃ©ngĠ":6363,"ĠsÅ«n":6364,"huÃ¡ngĠhÃ²uĠ":6365,"gÅįngĠchÃ©ngĠ":6366,"ĠzhÃ¨ĠzhÇĴng":6367,"xiÃłĠxiÃ¡ĠdeĠyÃŃĠgÃ¨Ġ":6368,"zhÇĴngĠzÃºĠ":6369,"ĠĠĠÄģĠ":6370,"zhÃŃĠdÇİoĠ":6371,"mĠĠĠ":6372,"nÃŃĠÄĽrĠ":6373,"ĠdeĠchÃ©ngĠjÃ¬Ġ":6374,"1ĠĠĠ":6375,"ĠjÃŃĠrÃ©nĠ":6376,"ĠsuÃ¬ĠshÃŃĠ":6377,"lÃ¡iĠyuÃ¨Ġ":6378,"qÇĲĠdÃ²ngĠ":6379,"bÇİoĠshÇĴuĠ":6380,"tÃ³uĠxiÃ¡ngĠ":6381,"guÃ¬ĠzÃºĠ":6382,"yuÃ¨ĠzhÅįngĠ":6383,"zhÃ¨nĠqÅ«ĠdeĠ":6384,"zÇİoĠqÄ«":6385,"bÃ³ĠshÃ¬ĠxuÃ©ĠwÃ¨iĠ":6386,"ĠĠĠqÃŃĠtÄģĠ":6387,"shÄģnĠjÄ«Ġ":6388,"kuÃ¬Ġ":6389,"ĠwÃ©iĠÄĽr":6390,"jiÃ¨ĠshÃłoĠ":6391,"shÃ©nĠmeĠ":6392,"ĠmÄĽiĠgÃ¨Ġ":6393,"yÄģoĠqÇĲng":6394,"ĠxÃ¬nĠ":6395,"gÇĶĠdÃłiĠ":6396,"ĠmÃŃngĠdÄģnĠ":6397,"ĠdiÃłnĠyÇĲngĠ":6398,"mÃŃngĠrÃ©nĠ":6399,"ĠdÃ©ĠyÇĶĠ":6400,"hÄĵiĠsÃ¨Ġ":6401,"ĠyÄ«ĠzuÃ²Ġ":6402,"ĠyÇĲĠjÃŃ":6403,"ĠÃ©rĠgÄģiĠ":6404,"3ĠgÃ¨Ġ":6405,"ĠĠĠ2010":6406,"tÄģngĠ":6407,"ĠrÃ©nĠmÃŃnĠzhÃ¨ngĠfÇĶĠ":6408,"ÄĵnĠshÄĽngĠ":6409,"tÃ²uĠguÃ²":6410,"fÃłnĠzuÃ¬Ġ":6411,"ĠxiÇİngĠniÃ¡nĠ":6412,"wÃºĠzhÃ¨ngĠzhuÃłngĠgÇİnĠrÇİnĠ":6413,"suÃŃĠzhÃ¹Ġ":6414,"mÃ¹ĠqiÃ¡n":6415,"ĠduÃłnĠ":6416,"19Ġ":6417,"huÃ³ĠyuÃ¨Ġ":6418,"chÃ¡ngĠwÃ¹Ġ":6419,"chÃ¡ngĠwÄĽiĠ":6420,"gÇİiĠmÃŃngĠwÃ¨iĠ":6421,"bÄĽiĠjÄ«ngĠshÃ¬Ġ":6422,"quÃ¨ĠzhÄĽnĠbÃ¬ngĠlÃ¬Ġ":6423,"mÃŃngĠzhÃ¬Ġ":6424,"sÄģĠ":6425,"ĠrÃ¬ĠyÃºĠ":6426,"chÅ«ĠshÄĵnĠ":6427,"tÃºnĠ":6428,"diÃłnĠhuÃłĠ":6429,"gÄģoĠsÃ¹ĠgÅįngĠlÃ¹Ġ":6430,"Ġ2022":6431,"ĠfÄģnĠ":6432,"gÃ¨ngĠwÃ©iĠ":6433,"ĠbÃ¹ĠsÄ«Ġ":6434,"ĠjÄ«ĠsÄ«Ġ":6435,"tÃłiĠziĠ":6436,"ĠbÇĲĠrÃºĠ":6437,"quÄĵĠfÃ¡":6438,"ĠĠĠgÄģi":6439,"kÃ¨ĠchÃ©ngĠ":6440,"kÃ¹nĠnÃ¡nĠ":6441,"ĠbÃ¹ĠlÃ¬Ġ":6442,"dÄģnĠdeĠ":6443,"lÃ³ngĠdeĠ":6444,"rÃ¹ĠxuÇİnĠ":6445,"yÇĲĠjÄ«ngĠ":6446,"tÃŃĠjÃŃĠ":6447,"zuÃ¬ĠduÅįĠ":6448,"ĠwÃ¨iĠyÃºĠzhÅįngĠguÃ³Ġ":6449,"sÄģiĠÄĽrĠwÃ©iĠ":6450,"ĠÃ¨rĠshÃŃĠ":6451,"huÃ¬ĠzhÅįngĠ":6452,"shÅįuĠjÃŃĠ":6453,"ĠlÃ¬ĠfÇİ":6454,"xuÃ©ĠhuÃ¬Ġ":6455,"ĠbÃ¬ngĠfÄĵiĠ":6456,"hÇİiĠxiÃ¡Ġ":6457,"gÃ²uĠdeĠ":6458,"ĠxÄ«ĠjiÄĵĠ":6459,"gÄĵĠlÃºnĠ":6460,"ĠjÄ«ĠchÇİng":6461,"jÃ¹ĠdÃłĠ":6462,"duÅįĠrÃ©nĠ":6463,"ĠchÃ©ngĠrÃ©nĠ":6464,"fÃ¹ĠzÃ©":6465,"ÄģnĠnÃł":6466,"zÃºĠqiÃºĠyÃ¹nĠdÃ²ngĠyuÃ¡nĠ":6467,"xiÄĽĠdeĠ":6468,"zuÃ²ĠchÅ«Ġ":6469,"zhuÄ«ĠsÃ¹":6470,"ĠkuÄģn":6471,"Ġ2014ĠniÃ¡nĠ":6472,"1979ĠniÃ¡nĠ":6473,"ĠtÃ³ngĠshÃŃĠgÄģiĠdÃ¬Ġ":6474,"ĠxiÇİngĠ":6475,"1972ĠniÃ¡nĠ":6476,"bÄĵiĠsÄ«Ġ":6477,"ĠyÄĽĠzÃłiĠ":6478,"shÄĽngĠdeĠ":6479,"lÃ¬ngĠrÃ©nĠ":6480,"ĠyÃ²ng":6481,"huÃ¬ĠzhÃ¬Ġ":6482,"ĠdÃ©ĠzhÇĶĠ":6483,"tÇİoĠlÃ¹n":6484,"ĠjÃŃĠdÃ¬Ġ":6485,"nÃ¨iĠlÃ¹ĠshÄĽngĠfÃ¨nĠ":6486,"1978ĠniÃ¡nĠ":6487,"ÄģnĠhuÄ«Ġ":6488,"kÄĵĠxuÃ©ĠjiÄģĠ":6489,"ĠZ":6490,"tÃºĠxÃŃngĠ":6491,"ĠguÃ³ĠnÃ¨iĠ":6492,"pÄ«ĠzhÇĶn":6493,"jiÄģngĠzÃłiĠ":6494,"arĠ":6495,"tiÃłoĠ":6496,"ĠbÃ¬ngĠdÃºĠ":6497,"ĠyuÄĵ":6498,"cÃ¬ĠdeĠ":6499,"yÃŃĠdÃ¬ng":6500,"Ġse":6501,"zhÃºĠbÃ¹Ġ":6502,"ĠdeĠdÃ¬ĠÃ¨rĠ":6503,"shÃ²uĠdeĠ":6504,"shÄģnĠdeĠ":6505,"stĠĠĠ":6506,"ĠshÃ¬ĠyÄ«nĠwÃ¨iĠ":6507,"ĠkÃ¨ĠxÄ«Ġ":6508,"jiÃ©ĠguÇĴ":6509,"qiÃ¡ngĠliÃ¨Ġ":6510,"liÃ¡nĠhÃ©ĠhuÃ¬Ġ":6511,"chÄģoĠyuÃ¨Ġ":6512,"tÃ¡iĠnÃ¡n":6513,"jiÇİnĠshÇİo":6514,"dÄ«ĠyÃºĠ":6515,"tÃŃĠgÅįngĠleĠ":6516,"ĠpÃ²Ġ":6517,"leĠzÃłiĠ":6518,"jiÃłĠgÃ©Ġ":6519,"pÃłiĠqiÇİn":6520,"xiÃłĠlÃ¬ngĠshÃŃĠjiÄģnĠ":6521,"hÇİiĠpÃŃngĠmiÃłnĠ":6522,"bÃºĠdÃłoĠ":6523,"ĠshÃŃĠqÄ«ĠdeĠ":6524,"ĠyuÃ¡nĠxÃŃngĠ":6525,"8ĠrÃ©nĠ":6526,"ĠyÄģoĠqiÃºĠ":6527,"yÄĽĠzÃłiĠ":6528,"ĠjÄ«ĠhuÃ¬Ġ":6529,"ĠxuÃ©ĠyuÃłn":6530,"huÄ«ĠfÃ¹":6531,"guÃ²ĠdeĠ":6532,"yÃłĠmÄĽiĠ":6533,"biÄģnĠjiÃ¨Ġ":6534,"dÇĴngĠshÃ¬ĠzhÇİngĠ":6535,"ĠwÃ¡nĠjiÄģĠ":6536,"fÄģngĠfÇİ":6537,"tÃŃĠyÃ¬Ġ":6538,"shÅ«ĠzhÅįngĠ":6539,"xÅ«nĠzhÄģngĠ":6540,"shÄ«ĠbÃłiĠ":6541,"ĠjiÃłoĠyÃ¹Ġ":6542,"zhÇĶĠyÃłoĠdeĠ":6543,"zhÇĶĠjiÃło":6544,"ĠhÃłoĠdeĠ":6545,"nÃŃĠyÃłĠzhÅįuĠ":6546,"ĠhÃ²uĠbÃ¨iĠ":6547,"guÄģnĠchÃ¡Ġ":6548,"ĠxuÃ©ĠjiÄģĠ":6549,"liÃºĠxiÃłĠ":6550,"shuÄģngĠfÄģngĠ":6551,"ĠĠĠbÃ¨iĠjÇĲngĠ":6552,"Ã©rĠtÃ³ngĠ":6553,"1976ĠniÃ¡nĠ":6554,"ĠyÄ«ĠlÃ¬Ġ":6555,"jiÄģĠyÃ¬Ġ":6556,"tÅįuĠ":6557,"ĠbÃ¹ĠduÃ¬":6558,"ĠyÇĲĠwÃ©iĠ":6559,"liÃ¡nĠxÃ¹":6560,"xiÃłnĠdeĠ":6561,"qÄ«nĠzÃ¬Ġ":6562,"ĠÃ©rĠziĠ":6563,"zhuÄģngĠjiÇİĠ":6564,"Ġ1950":6565,"ĠyÇĴuĠsuÇĴĠ":6566,"ÇĴuĠ":6567,"ĠzÃłiĠshÃŃĠ":6568,"zuÃ¬ĠgÄģoĠdeĠ":6569,"huÃ¬ĠyÃ¬ĠyuÃ¡nĠ":6570,"sÄģnĠjiÇİo":6571,"ĠĠĠdÃ¬ĠfÄģngĠzÄ«ĠliÃłoĠ":6572,"rÃ¨nĠwÃ¨iĠ":6573,"mÇİĠÄĽrĠ":6574,"zÇĶĠfÃ¹Ġ":6575,"lÃ¡nĠdeĠ":6576,"nÃ¡ĠxiÃłĠ":6577,"pÃŃngĠtÃ¡iĠ":6578,"fÄĵiĠchÃ¡ng":6579,"ĠĠĠjiÇİnĠjiÃ¨Ġ":6580,"duÅįĠwÃ¨iĠ":6581,"ĠhÃ©ĠyuÄĵĠ":6582,"1958ĠniÃ¡nĠ":6583,"bÃ¨iĠdeĠ":6584,"ĠlÃ¬ĠliÃłngĠ":6585,"ĠchÅ«ĠkÇĴuĠ":6586,"gÇİiĠbiÃłn":6587,"ĠtÄģĠcÃ©ngĠdÃłiĠbiÇİoĠ":6588,"ĠĠĠ17":6589,"ĠdÃ¬ĠlÇĲĠ":6590,"nÃ¡nĠbÄĽiĠ":6591,"pÃŃngĠwÃ¨iĠ":6592,"nÃ©ngĠyuÃ¡nĠ":6593,"ĠdÃ¬ĠqÄ«Ġ":6594,"ĠxiÃłnĠfÇİĠ":6595,"dÃŃĠshÃ¬Ġ":6596,"stĠ":6597,"ĠhÃ²uĠzhÄĽĠ":6598,"zÃ¬ĠdeĠ":6599,"tÃ¡iĠzhÅįngĠ":6600,"laĠ":6601,"ĠzhÃ¨ngĠmÃŃngĠ":6602,"ĠshÃŃĠjÃ¬ĠshÃłngĠ":6603,"ĠĠĠ1Ġ":6604,"lÇĲĠhÃ©Ġ":6605,"ĠchÃ©ngĠzhÃ¨nĠ":6606,"ĠmÄĽiĠyuÃ¡nĠ":6607,"Ġ28":6608,"Ġ2015ĠniÃ¡nĠ":6609,"xuÇİnĠzhÅįngĠ":6610,"dÃŃĠrÃ©nĠ":6611,"ĠlÃ¬ĠyÃ¬Ġ":6612,"quÄĵĠfÃ¡Ġ":6613,"suÃŃĠjÃŃĠ":6614,"pÃłiĠchÅ«Ġ":6615,"liÇİoĠ":6616,"ĠzhÅįngĠguÃ³ĠrÃ©nĠmÃŃnĠjiÄĽĠfÃłngĠjÅ«nĠ":6617,"duÅįĠzhÇĴngĠ":6618,"yÄ«ngĠgÄģiĠ":6619,"tÃ¡nĠpÃłnĠ":6620,"liÃ¡oĠnÃŃngĠ":6621,"ĠshÃ¬ĠgÅįngĠ":6622,"ĠbÃ¹ĠshÇİoĠ":6623,"ĠsÄ«ĠtÇİĠ":6624,"miÇİnĠdiÄģn":6625,"tÃŃĠchÅ«ĠdeĠ":6626,"nÇĶĠ":6627,"yÄ«ngĠgÃ©ĠlÃ¡n":6628,"tuÃ¬ĠxiÅ«Ġ":6629,"ĠdÃłĠxuÃ©ĠdeĠ":6630,"hÇİiĠbÃ¡ĠwÃ¨iĠ":6631,"gÃłnĠbÃ¹Ġ":6632,"lÄĽiĠjÃ¬Ġ":6633,"ĠshÃŃĠxÃŃngĠ":6634,"dÄģngĠzhÅįngĠ":6635,"xÃ¹ĠlÃ¬ĠyÃłĠ":6636,"juÃ©ĠyÃ¬Ġ":6637,"shÄģngĠrÃ©nĠ":6638,"biÄģoĠbÄĽnĠ":6639,"zhuÇİnĠxiÃłngĠ":6640,"fÄģĠshÄĵngĠzÃłiĠ":6641,"suÇĴĠcÇİiĠyÃ²ng":6642,"zhÇĲĠdÇİoĠ":6643,"huÃłĠzhÅįngĠ":6644,"mÄĽiĠzhÅįu":6645,"zÃłnĠshÃŃĠ":6646,"ĠjÃ¹ĠjuÃ©Ġ":6647,"ĠfÃ¹ĠjÃ¬n":6648,"ĠzhÅįngĠgÃ²ngĠzhÅįngĠyÄģngĠ":6649,"ĠĠĠ2Ġ":6650,"cÃ©ngĠwÃ¨iĠ":6651,"ĠyÃ¬ĠqÃŃngĠ":6652,"fÄģĠshÃ²uĠ":6653,"nÃ³ngĠmÃŃnĠ":6654,"cÃ¬ĠyÃºĠ":6655,"ĠĠĠyÄ«nĠ":6656,"yÃŃĠdÃłiĠ":6657,"ĠdÃ©ĠmÃŃngĠ":6658,"xiÅ«ĠgÇİiĠ":6659,"shuÇĲĠlÃ¬Ġ":6660,"rÃ³ngĠhÃ©Ġ":6661,"ĠzhÅįngĠguÃ³ĠdeĠ":6662,"fÄģĠmÃŃngĠ":6663,"ĠqÃŃĠwÃ¨iĠ":6664,"zhÇĲĠnÃ©ngĠ":6665,"zÄ«ĠliÃło":6666,"ĠmÃŃngĠzhÃ¬Ġ":6667,"ĠgÅįngĠzhÃ²ngĠ":6668,"zhÇĶĠyÇİnĠ":6669,"zhÇĴngĠziĠ":6670,"17ĠniÃ¡nĠ":6671,"zÄ«ĠbÄĽnĠ":6672,"ÄģĠlÄģĠbÃ³":6673,"xiÄģngĠsÃ¬Ġ":6674,"jiÄĵĠchÃ¹Ġ":6675,"ĠbÄĽiĠjÄ«ng":6676,"kÄģiĠshÃ¨Ġ":6677,"xiÅ«ĠjiÃłnĠ":6678,"2025ĠniÃ¡nĠ":6679,"guÄģnĠchÃ¡":6680,"jÃ¬ngĠjÃ¬Ġ":6681,"fÄģĠqÇĲĠ":6682,"ÄģnĠpÃ¡i":6683,"jiÄĽĠsÃłnĠ":6684,"ĠdeĠshÃ¬ĠjiÃ¨Ġ":6685,"ĠmÃ©i":6686,"Ġ2016ĠniÃ¡nĠ":6687,"kÄģiĠtÅįngĠ":6688,"wÇĶĠzhuÄģng":6689,"bÃłoĠzhÃłĠ":6690,"diÃłnĠjÄ«Ġ":6691,"chÄģiĠchÃºĠ":6692,"cnĠ":6693,"jÇĶĠbÃłnĠdeĠ":6694,"veĠ":6695,"shÄĵnĠdÃ¹Ġ":6696,"zhÄģngĠzhuÄģnĠjÃŃĠ":6697,"ĠchÃº":6698,"qÅ«ĠshÃ¬Ġ":6699,"wÃ©iĠsÄ«Ġ":6700,"tuÃ¡nĠtÇĲ":6701,"ĠchÃ¡":6702,"jÄ«ĠgÃ²uĠ":6703,"fÃ¹ĠzhÇĶĠrÃ¨nĠ":6704,"fÄĵngĠxiÇİnĠ":6705,"zÇĶĠzhÄ«ĠdeĠ":6706,"zÃ©ĠzÃłiĠ":6707,"biÄģnĠjÃ¹Ġ":6708,"diÃłoĠkuÃłi":6709,"Ġ187":6710,"chÃ©ngĠhÃ©Ġ":6711,"ĠyÇĶĠqÃŃĠtÄģĠ":6712,"jiÃ©ĠdeĠ":6713,"nÃ©ngĠliÃłngĠ":6714,"ĠbÇİ":6715,"ĠsÃ¹Ġ":6716,"ĠcnĠ":6717,"ĠĠĠqÃŃ":6718,"zÃłoĠleĠ":6719,"pÃ¨iĠzhÃ¬Ġ":6720,"ĠwÃ¨iĠUTCĠ":6721,"ĠbÃ¹ĠjÃŃĠ":6722,"ĠzhÅįngĠshÄģnĠ":6723,"shuÃłiĠlÇĲng":6724,"bÃłnĠshÃ¬ĠchÃ¹Ġ":6725,"shÇĴuĠzhÅįngĠ":6726,"yÃ³uĠjÄ«Ġ":6727,"qiÃºĠjÃ¬Ġ":6728,"yÄ«ngĠxiÃ³ngĠ":6729,"ĠxÄ«ĠbÄģnĠyÃ¡Ġ":6730,"luÃ³ĠlÇĲĠ":6731,"gÃ©ĠlÄģĠ":6732,"jiÃ¹ĠdÃºĠ":6733,"shÄģngĠyÃ¨":6734,"xiÄģoĠfÃ¨iĠ":6735,"qiÃ¡ngĠdiÃłoĠ":6736,"diÃłoĠkuÃłiĠyÄ«ĠxiÇİoĠshÃŃĠ":6737,"ĠdeĠyÇĲngĠxiÇİngĠ":6738,"ĠĠĠduÃ¬Ġ":6739,"dÃ¡ĠÄĽrĠ":6740,"shuÄģiĠ":6741,"ĠjÃŃĠUTCĠ":6742,"kÄĵĠxuÃ©ĠyuÃłnĠ":6743,"shÃ¨ĠyÇĴuĠxiÃłĠlÃ¬ngĠshÃŃĠjiÄģnĠ":6744,"ĠdeĠshÃŃĠqÅ«ĠwÃ¨iĠUTCĠ":6745,"ĠÃ©rĠgÄģiĠdÃ¬ĠsuÇĴĠcÇİiĠyÃ²ng":6746,"ĠtÃ³ngĠshÃŃĠgÄģiĠdÃ¬ĠshÃ¨ĠyÇĴuĠxiÃłĠlÃ¬ngĠshÃŃĠjiÄģnĠ":6747,"ĠÃ©rĠgÄģiĠdÃ¬ĠsuÇĴĠcÇİiĠyÃ²ngĠdeĠshÃŃĠqÅ«ĠwÃ¨iĠUTCĠ":6748,"hÃ²uĠwÃ¨iĠ":6749,"ĠtÃ³ngĠyÃłng":6750,"xÃ¬nĠyÇİngĠ":6751,"tÄģĠmenĠdeĠ":6752,"ĠjiÇİ":6753,"kÃ¹nĠ":6754,"ĠdÃłĠjiÇİngĠ":6755,"jiÃłoĠtÃ¡ng":6756,"bÇİoĠliÃº":6757,"ĠlÃ¬ngĠyÇĴuĠ":6758,"ĠyÄ«ĠsÄ«ĠlÃ¡nĠ":6759,"yuÃ¡nĠzhÃ¹Ġ":6760,"tÃłiĠdÃ¹Ġ":6761,"chuÃ¡nĠbÅįĠ":6762,"ĠgÄģiĠcÅ«nĠ":6763,"suÇĴĠzÃłiĠdÃ¬Ġ":6764,"quÃ¨ĠdeĠ":6765,"zhÄ«ĠjiÄģnĠdeĠ":6766,"ĠgÄĵ":6767,"ĠnÇĲĠ":6768,"ĠĠĠjiÄģoĠtÅįngĠ":6769,"fÄģĠshÃ¨":6770,"ĠshÃŃĠwÃ¹Ġ":6771,"dÃ¬ngĠjÅ«Ġ":6772,"ĠlÃ¬ĠshÇĲĠshÃłngĠ":6773,"gÄģoĠyÃºĠhÇİiĠpÃŃngĠmiÃłnĠ":6774,"ĠcÃ¨Ġ":6775,"xÃ¬ngĠwÃ¨iĠ":6776,"ĠmÇİĠlÃ¡i":6777,"ĠwÃ¨iĠfÃºĠqÃŃĠyÃºĠgÄģngĠ":6778,"5ĠmÇĲĠ":6779,"ĠtÃ¡ng":6780,"zhÃºĠjiÃłn":6781,"ĠbÃ¹ĠnÃ©ng":6782,"ĠgÅįngĠjuÃ©Ġ":6783,"wÃ¹ĠhÃ©Ġ":6784,"hÃ¹ĠxiÄģngĠ":6785,"ĠlÇĶĠ":6786,"ĠqÃŃĠxiÃłĠ":6787,"chÃ¹ĠdeĠhÇİiĠbÃ¡ĠwÃ¨iĠ":6788,"chÃ¹ĠdeĠhÇİiĠbÃ¡ĠwÃ¨iĠgÄģoĠyÃºĠhÇİiĠpÃŃngĠmiÃłnĠ":6789,"ĠĠĠqÄ«ngĠ":6790,"ĠwÃ¨iĠdÃłĠ":6791,"ĠÄĽrĠduÅįĠ":6792,"ĠyÄ«nĠsÃ¹Ġ":6793,"tÇĲĠzhÃ¬Ġ":6794,"ĠyÃºĠlÃ¨":6795,"chÇİngĠsuÇĴĠ":6796,"jÃ¬ngĠxuÇİnĠ":6797,"ĠĠĠ190":6798,"wÃ¹ĠshÃ¬Ġ":6799,"zhÇİngĠdÃ¡Ġ":6800,"lÃ¹ĠzhÃ¬Ġ":6801,"ĠzhÄ«ĠyÃ¬Ġ":6802,"gÄģoĠxiÃ³ng":6803,"kuÃ¡ngĠ":6804,"ĠhÃ©ĠpÃłnĠ":6805,"ĠbÃ¹ĠjÇĲnĠ":6806,"ĠyÇĲĠxÄ«Ġ":6807,"fÄģĠxiÃłnĠdeĠ":6808,"zhÃ²ngĠshÃ¬Ġ":6809,"ctionĠĠĠ":6810,"ĠqÃŃĠshÃŃĠ":6811,"chÃ³ngĠqÃ¬ng":6812,"ĠsuÃŃĠzhÃ¹Ġ":6813,"ĠdÄģn":6814,"nÃ¡nĠjÄ«ng":6815,"yÃ¹nĠshÅ«":6816,"Ġ2008":6817,"ĠzhÄĵngĠ":6818,"Ġ8Ġ":6819,"Ġ2017ĠniÃ¡nĠ":6820,"shÃ¹ĠshÃŃĠ":6821,"nÃ¨iĠdÃ¬Ġ":6822,"biÄģnĠhÃłoĠ":6823,"shÃŃĠqÅ«Ġ":6824,"ĠĠĠmÇİĠ":6825,"jiÃłnĠchÃ©ngĠ":6826,"gÄĵngĠxÄ«nĠ":6827,"ĠyÄ«ĠjiÄģĠ":6828,"ĠxÄ«ĠlÃ¡nĠ":6829,"yÃ¹nĠyÃ²ngĠ":6830,"bÃ¬ĠyÃ¨ĠhÃ²uĠ":6831,"ĠzÃ¬ĠrÃ¡nĠ":6832,"shÃ¬ĠĠĠ":6833,"Ġ24":6834,"ĠzhÃ¨ngĠzhÃ¬Ġ":6835,"ĠĠĠrÃ¡n":6836,"Ã¨rĠjÃŃĠ":6837,"ĠlÃ¬ĠrÃ¨nĠ":6838,"wÃ©iĠÄĽrĠ":6839,"zhÃŃĠzhÃ¨ngĠ":6840,"diÃłnĠqÃ¬Ġ":6841,"shÄģnĠfÄĵngĠ":6842,"ĠwÃ¨iĠyÃºĠgÄģiĠ":6843,"60Ġ":6844,"tionĠ":6845,"zhÄĽĠshÃ¬Ġ":6846,"wÃ¡ngĠshÃ¬Ġ":6847,"jiÃ¹ĠhuÃ¬Ġ":6848,"16ĠniÃ¡nĠ":6849,"xiÃłoĠqÅ«Ġ":6850,"qiÃłĠ":6851,"xiÃ¡ĠqÅ«Ġ":6852,"xuÄģnĠchuÃ¡n":6853,"ĠĠĠbÄĽn":6854,"bÄģoĠwÃ©iĠ":6855,"bÃłngĠqiÃºĠ":6856,"ĠzuÃ²ĠchÅ«Ġ":6857,"ĠxiÃ¨Ġ":6858,"xuÃ©ĠyuÃ¡nĠ":6859,"cuÃ²ĠwÃ¹Ġ":6860,"ĠdÃ¬ĠqiÃº":6861,"jÄ«nĠrÃ³ngĠ":6862,"ĠyÃ¹ĠshÇĲĠ":6863,"ĠxÅ«Ġ":6864,"hÃ²uĠyÃ¬Ġ":6865,"dÅįngĠfÄģngĠ":6866,"ĠwÃ¡nĠ":6867,"bÄĽiĠshÃ¬Ġ":6868,"jÄ«ngĠchÃ¡ng":6869,"ĠrÃ¡nĠÃ©r":6870,"ĠcÃ¬ĠniÃ¡nĠ":6871,"ĠhÃº":6872,"ĠjiÃ©ĠkÃ¨Ġ":6873,"huÃ¬ĠyÃºĠ":6874,"ĠsÄ«ĠkÄĵĠ":6875,"ĠduÃ¬ĠshÇĴuĠ":6876,"ĠxÃŃngĠzhÃ¨ngĠqÅ«Ġ":6877,"zhÃ¨nĠqÅ«ĠdeĠmiÃłnĠjÄ«ĠwÃ¨iĠ":6878,"9ĠrÃ©nĠ":6879,"mÃŃngĠshÃ¬Ġ":6880,"veĠĠĠ":6881,"ĠzhÅįuĠcÃ¬ĠshÇĲĠ":6882,"ĠshÄĵngĠyÃ¡Ġ":6883,"jiÄģĠyÇĲĠ":6884,"fÃºĠdeĠ":6885,"jÃºĠdeĠ":6886,"kÄĽĠzÃłiĠ":6887,"mÇİĠkÃ¨Ġ":6888,"ĠtÄģĠyÇĲĠ":6889,"ĠyuÃ¡nĠzÃ¬Ġ":6890,"zÃłoĠchÃ©ngĠdeĠ":6891,"ĠY":6892,"ĠhuÃłnĠ":6893,"ĠlÇĲĠxÄ«Ġ":6894,"zhÃŃĠmÃŃnĠ":6895,"gÅįngĠgÃ²ngĠ":6896,"pÃŃngĠlÃ¹n":6897,"fÅ«ĠkÇİĠ":6898,"ĠdÄģngĠshÃŃĠdeĠ":6899,"ÃłoĠzhÅįuĠ":6900,"chÃ¡nĠ":6901,"ĠyÄ«ĠjÃ¹Ġ":6902,"qiÄģnĠshÇĶĠ":6903,"jÃ¬ĠyÇĴuĠ":6904,"shÇĲĠjiÃłnĠyÃºĠ":6905,"rÃ¨nĠdeĠ":6906,"yÄĽĠbÃ¨iĠ":6907,"miÃłnĠshÃłngĠ":6908,"ĠniÃ¡nĠlÃ¡iĠ":6909,"ĠsÄ«ĠkÃ¨":6910,"ĠÃ©rĠtÃ³ngĠ":6911,"Ġ2018ĠniÃ¡nĠ":6912,"dÄĽngĠjÃŃĠ":6913,"pÇİoĠ":6914,"ĠxuÃ©ĠzhÄĽĠ":6915,"ĠdÃłi":6916,"ĠyÃŃ":6917,"ĠdiÃłnĠshÃ¬Ġ":6918,"1968ĠniÃ¡nĠ":6919,"ĠjiÃłnĠshÃ¨":6920,"ĠwÃ©iĠrÃło":6921,"ĠyÄĽĠbÃ¨iĠ":6922,"ĠqÃŃĠzhÅįngĠbÄģoĠkuÃ²Ġ":6923,"jiÄģĠzÃłiĠ":6924,"qÃ¬ĠchÄĵ":6925,"ĠshÄģ":6926,"Ġ2009":6927,"bÃłnĠdeĠ":6928,"tÅ«ĠrÃ¡nĠ":6929,"hÇİiĠyÃ¡ngĠ":6930,"chÅ«ĠbÇİn":6931,"lÃ¡iĠyÄ«nĠ":6932,"jÄ«ĠzÃłiĠ":6933,"gÃ©ĠshÃ¬Ġ":6934,"jÃ¹nĠgÅįngĠ":6935,"ĠdÃ©ĠzhÄ«Ġ":6936,"ĠjÄ«ĠjÄ«nĠhuÃ¬Ġ":6937,"xiÄģoĠshÄ«Ġ":6938,"ĠfÃºĠwÃ¹Ġ":6939,"xiÃłoĠlÃ¬ĠyÃºĠ":6940,"Ġ2019ĠniÃ¡nĠ":6941,"jÃ¬ĠniÃłn":6942,"rÃºĠguÇĴĠ":6943,"lÃ¬ngĠyÃŃĠgÃ¨Ġ":6944,"tiÃ¡nĠjÃ¬ngĠ":6945,"tÃ¡oĠtÃłiĠ":6946,"ÄģoĠ":6947,"ĠwÃ¨iĠduÃ¬Ġ":6948,"ĠjÃŃĠdÃłĠ":6949,"yÃ¡nĠhÇİiĠ":6950,"dÄģngĠdÃ¬ĠdeĠ":6951,"jiÃłngĠlÇĲngĠ":6952,"ĠbÇİi":6953,"19ĠshÃ¬ĠjÃ¬Ġ":6954,"Ã¨rĠrÃ©nĠ":6955,"wÄĽiĠyuÃ¡nĠhuÃ¬ĠwÄĽiĠyuÃ¡nĠ":6956,"pÃŃngĠyuÃ¡nĠ":6957,"ĠlÇĲĠyÃłĠ":6958,"Ġ2ĠyuÃ¨Ġ":6959,"ĠĠĠjÇĲnĠ":6960,"duÃ¬ĠqÃŃĠ":6961,"bÃ¨iĠjÇĲngĠ":6962,"kÇİĠluÃ³Ġ":6963,"ĠliÃ¡nĠhÃ©Ġ":6964,"jÃ¬nĠbÃ¹Ġ":6965,"liÇİngĠguÃ³Ġ":6966,"tÃ¨ĠdÃ¬ngĠ":6967,"fÃ¨nĠzÇĲ":6968,"dÃłĠbÃ¹Ġ":6969,"dÃ¬ngĠyÃºĠ":6970,"ĠqÃŃĠdeĠ":6971,"gÇİiĠzÃłoĠ":6972,"ĠdeĠbÃ¹ĠfÃ¨nĠ":6973,"zhÃŃĠmÃŃnĠdÃ¬Ġ":6974,"Ġ26":6975,"ĠĠĠshÃ¨ngĠ":6976,"ĠqÄ«nĠ":6977,"ĠĠĠCh":6978,"jiÃłoĠdÃłĠ":6979,"ĠzhÃ¬ĠzuÃ²ĠdeĠ":6980,"ĠjÄ«ĠdÅ«Ġ":6981,"chuÃ¡nĠtÇĴngĠdeĠ":6982,"Ġ2023":6983,"guÄģnĠjiÃłnĠ":6984,"shÄĵngĠyÃ¡":6985,"ĠbÃ¹ĠbÃ¹ĠzhÇİngĠ":6986,"jÄ«ngĠshÃ©n":6987,"shÅįuĠgÃ²uĠ":6988,"ĠqiÃ¡nĠwÇİngĠ":6989,"ĠyÃºnĠ":6990,"diÇİnĠshÃ¬Ġ":6991,"1970ĠniÃ¡nĠ":6992,"yÃ¬ĠshÃ¹Ġ":6993,"shÅ«ĠyuÃłnĠ":6994,"lÃŃĠkÄģi":6995,"quÃ¡nĠmiÃłnĠ":6996,"mÃ²ĠxÄ«ĠgÄĵĠ":6997,"ĠĠĠ4":6998,"zhÃ¨nĠdeĠ":6999,"tuÄ«ĠchÅ«":7000,"gÇĴuĠ":7001,"guÃ³ĠjiÄģ":7002,"ĠdÃ¬ĠtiÄĽ":7003,"ĠxiÃłnĠyÇĲĠ":7004,"ĠjÄ«ĠchÇĶ":7005,"ĠjÃ¹ĠlÃŃ":7006,"ĠxiÃ¡nĠ":7007,"sÄģnĠmÃŃngĠ":7008,"jiÄĵĠduÃłn":7009,"ĠluÃ³ĠmÇİĠ":7010,"Ġ23":7011,"wÃ©nĠdeĠ":7012,"ĠshÃŃĠduÃłnĠ":7013,"liÇİngĠcÃ¬Ġ":7014,"cÃ¡iĠnÃ©ngĠ":7015,"ÃłiĠÄĽrĠlÃ¡nĠ":7016,"hÅ«nĠyÄ«nĠ":7017,"dÃłĠlÃ¹":7018,"ĠyÃ¬ĠyÃºĠ":7019,"ĠshÄģnĠdÅįngĠ":7020,"ÄģĠlÄģĠbÃ³Ġ":7021,"ĠgÇİnĠ":7022,"mÃ¹ĠdeĠ":7023,"liÇİngĠwÃ¨iĠ":7024,"bÅįĠsÄ«Ġ":7025,"pÃ¨iĠyÄ«nĠ":7026,"huÃ¬ĠzhÇİngĠ":7027,"jÃ¬ngĠzhÄĵngĠ":7028,"mÇİnĠzÃºĠ":7029,"ĠdiÃłnĠyÇĲng":7030,"ĠĠĠnÃ¡nĠ":7031,"qÄ«ĠwÃ¨iĠ":7032,"touĠ":7033,"ĠdÃ¬ĠdiÇİnĠ":7034,"ĠtÃŃngĠ":7035,"ĠfÄģĠxiÃłnĠ":7036,"xÄ«nĠchÃ©ngĠ":7037,"1981ĠniÃ¡nĠ":7038,"zhÃ¨ngĠjÃ¹Ġ":7039,"hÃ¹ĠliÃ¡nĠ":7040,"ĠĠĠc":7041,"liÃ¡nĠdeĠ":7042,"xiÅ«ĠfÃ¹Ġ":7043,"ĠbÃ¬ngĠyÃ³uĠ":7044,"zÄģiĠpÃ©iĠ":7045,"lÄģĠjÄ«Ġ":7046,"kÃłoĠjÃ¬nĠ":7047,"1956ĠniÃ¡nĠ":7048,"ĠdÃ¬ĠdÃłiĠ":7049,"ĠlÃ¬ĠshÃŃĠ":7050,"jiÄĽĠfÃłngĠ":7051,"ĠyÃ³uĠjÄ«Ġ":7052,"ĠwÃºĠfÇİĠ":7053,"nÃ¨iĠzhÃłnĠ":7054,"bÅįĠshÃ¬Ġ":7055,"ĠwÃ©iĠchÃŃ":7056,"ĠxiÄģn":7057,"duÃ¬ĠzhÇİngĠ":7058,"fÄģĠqÇĲ":7059,"jÅ«ĠzhÃ¹ĠzÃłiĠ":7060,"zhÃ¨ĠshÃ¬Ġ":7061,"zÇİoĠzÃłiĠ":7062,"ĠshÇĴu":7063,"ĠbÃłiĠ":7064,"bÃ¬ngĠbÃ¹Ġ":7065,"shÇĴuĠxiÃłngĠ":7066,"diÃłnĠnÇİoĠ":7067,"shÄģnĠqÅ«Ġ":7068,"chÅįngĠtÅ«":7069,"zÃºĠqiÃºĠjÃ¹ĠlÃ¨ĠbÃ¹Ġ":7070,"lÇĲĠchÃ©ngĠ":7071,"juÃłnĠ":7072,"jiÄģoĠliÃº":7073,"ĠguÃ³ĠwÃ¹ĠyuÃłnĠ":7074,"ĠliÃ¹Ġ":7075,"qÇĲĠyuÃ¡nĠ":7076,"wÄĽiĠfÃ¹Ġ":7077,"Ġw":7078,"tÃłiĠyÃ¡ng":7079,"cÅ«nĠluÃ²Ġ":7080,"fÅ«ĠdeĠ":7081,"ĠshÃ¬ĠdÃ©ĠguÃ³Ġ":7082,"jÄ«ĠchÇĶ":7083,"ĠdÃłĠlÃ³u":7084,"yÃ¡nĠsÃ¨Ġ":7085,"xiÃłngĠzhÄĵngĠ":7086,"ĠwÃ©iĠsÄ«Ġ":7087,"tiÄģnĠtÇĲĠ":7088,"dÅįuĠbÃ¨iĠ":7089,"1960ĠniÃ¡nĠ":7090,"ĠbÃ¹ĠbÄ«ngĠ":7091,"ĠyÇĶĠyÃ¡n":7092,"ĠĠĠdÃ¬ĠÃ¨rĠ":7093,"Ġ2004ĠniÃ¡nĠ":7094,"liÃ¹ĠshÃŃĠ":7095,"ĠzhÃ¬ĠliÃłngĠ":7096,"ĠzhÅįuĠfÇĶĠ":7097,"lÃ¡ngĠzhÅįngĠ":7098,"ĠyÄ«ĠyuÃłn":7099,"ĠxÃŃngĠmÃ¹Ġ":7100,"chÃ¡ngĠdÃ¹Ġ":7101,"xÃ¬ngĠhÃ©Ġ":7102,"1920ĠniÃ¡nĠ":7103,"ĠyÇĲĠwÃłiĠ":7104,"luÃ²ĠfÃ¡":7105,"ĠzhÃ¬ĠdÃ¬Ġ":7106,"ĠyÇĶĠyÄ«Ġ":7107,"shÄ«ĠqÃ¹":7108,"wÃºĠzhÃ¨ngĠzhuÃłngĠgÇİnĠrÇİnĠzhÄĽĠ":7109,"zuÃ¬ĠchÅ«":7110,"liÃłngĠwÃ¨iĠ":7111,"mÇĶĠdeĠ":7112,"ĠdÃ©ĠsÄ«Ġ":7113,"Ġ2020ĠniÃ¡nĠ":7114,"chĠ":7115,"1964ĠniÃ¡nĠ":7116,"xiÄĽĠzuÃ²Ġ":7117,"mÃ¨ngĠjiÄģĠ":7118,"ĠxÄ«ng":7119,"fÃ¹ĠhÃ©Ġ":7120,"teĠĠĠ":7121,"tÃ¨ĠxÃ¬ngĠ":7122,"ĠwÃ¨iĠyÃºĠmÄĽiĠguÃ³Ġ":7123,"jiÇİĠdÃ¬Ġ":7124,"ÃłoĠmÃ©n":7125,"ĠzuÃ¬ĠjiÄģĠ":7126,"2ĠgÃ¨Ġ":7127,"ĠdÄ«ngĠ":7128,"zhÃŃĠyÃ¨ĠshÄĵngĠyÃ¡Ġ":7129,"fÃºĠlÃ¬Ġ":7130,"ĠxiÃłnĠjÃŃĠ":7131,"ĠĠĠ2008":7132,"suÇĴĠdeĠ":7133,"suÇĴĠwÃ¨iĠ":7134,"juÃ©ĠshÃ¬Ġ":7135,"zhuÃłnĠdeĠ":7136,"fĠ":7137,"zÅįngĠyÃ¬Ġ":7138,"zÃ¬ĠmÇĶĠ":7139,"lÃŃngĠchÃ©nĠ":7140,"tÃ²uĠlÃ¹Ġ":7141,"dÅįngĠbÄĽi":7142,"ĠbÇİo":7143,"ĠyÃ¬ĠshÃ¬Ġ":7144,"chuÃ¡ngĠ":7145,"1948ĠniÃ¡nĠ":7146,"ÇĴuĠxiÃłngĠ":7147,"kÇİoĠshÃ¬Ġ":7148,"ĠfÃºĠjiÃłnĠ":7149,"ĠĠĠgÃ¨ĠrÃ©nĠ":7150,"zÇĴngĠrÃ©nĠkÇĴuĠ":7151,"ĠdÃ¬ĠfÄģng":7152,"ĠxiÃłnĠchÃ©ngĠ":7153,"ĠlÇĲĠkÃ¨Ġ":7154,"ĠzÃ¡ĠzhÃ¬Ġ":7155,"ĠdÃ©ĠlÄģĠ":7156,"kÅįngĠqÃ¬Ġ":7157,"ĠgÄĵnĠ":7158,"ĠnuÃ²Ġ":7159,"pÃŃngĠdeĠ":7160,"nÃłĠdeĠ":7161,"zuÃ²ĠwÃ©i":7162,"zhÇĶĠzhÄģngĠ":7163,"xÄ«ĠhÃ©Ġ":7164,"xÄ«ĠnÃ¡nĠ":7165,"Ġ50":7166,"huÃŃĠyÃ¬Ġ":7167,"fÃ©nĠ":7168,"1975ĠniÃ¡nĠ":7169,"ĠyÇĲĠzÃłiĠ":7170,"ĠyÄĽĠkÄĽĠyÇĲĠ":7171,"pÃºĠtÃ¡oĠyÃ¡Ġ":7172,"siĠ":7173,"ĠzuÃ²ĠzhÃłnĠ":7174,"xÃºnĠzhÇİo":7175,"qÄ«ĠshÃŃĠ":7176,"zÇĴuĠxiÃłngĠ":7177,"1952ĠniÃ¡nĠ":7178,"ĠcÄģnĠyÃ¹Ġ":7179,"nÃ¡nĠdeĠ":7180,"ĠchÃ©ngĠkÃ¨Ġ":7181,"sÅ«ĠgÃ©ĠlÃ¡nĠ":7182,"ĠtÃłi":7183,"chÄĵĠduÃ¬Ġ":7184,"ĠÄĽrĠshÃ¬Ġ":7185,"wÇĶĠshÃ¬Ġ":7186,"hÃ¹ĠbÃ¹Ġ":7187,"ĠdÃ¬ĠtÃºĠ":7188,"ĠyuÃ¡nĠbÄĽn":7189,"ĠchÅ«ĠdÃłoĠ":7190,"yÃ¬nĠnÃŃĠ":7191,"Ġ2007":7192,"Ġ35":7193,"ĠyÃŃĠgÃ¨":7194,"ĠsÅ«nĠ":7195,"Ġ2021ĠniÃ¡nĠ":7196,"gÇĶĠlÃ¬Ġ":7197,"luÃ²ĠchÃ©ngĠ":7198,"shÅįuĠdÃłoĠ":7199,"wÇİĠÄĽrĠshÄĽngĠ":7200,"shÇĲĠshÃłngĠ":7201,"shÇĴuĠdÅ«":7202,"xÃ¬nĠyÇİng":7203,"ĠkÃ¹Ġ":7204,"ĠĠĠMa":7205,"ĠĠĠrÃ©nĠ":7206,"guÃ²ĠleĠ":7207,"guÇİnĠzhÃ¬Ġ":7208,"ĠgÅįngĠlÇĲĠdeĠ":7209,"zhÇĶĠyÃ¬ĠzhÄĽĠ":7210,"ĠwÃ¨iĠyuÃ¡nĠ":7211,"ĠyÇĲĠyÃºĠ":7212,"guÃ²ĠdÃ¹Ġ":7213,"guÇİngĠchÇİng":7214,"ĠshÃŃĠyÃłnĠshÃ¬Ġ":7215,"yÃ¡nĠrÃ©nĠ":7216,"xiÇİnĠzhÃ¹Ġ":7217,"guÃ³ĠwÃ¹Ġ":7218,"ĠsÄ«ĠlÃ¬ngĠbÃ¹Ġ":7219,"xÄ«ĠdÃ¬Ġ":7220,"shÃłngĠxiÃłnĠ":7221,"shÇĲĠrÃ©nĠ":7222,"dÃ¹ĠhÃ©Ġ":7223,"jiÄģngĠyÃºĠ":7224,"bÃ¬ĠdeĠ":7225,"mÃłiĠkÃ¨Ġ":7226,"ĠdÃ¬ĠliÃ¹Ġ":7227,"zhuÄģnĠyÃ¨":7228,"wÃłngĠyuÇİnĠ":7229,"ĠĠĠ10":7230,"xiÅ«ĠdÃłoĠ":7231,"ĠdÃłĠgÅįngĠ":7232,"gÃ©ĠlÃŃĠ":7233,"ĠfÃ¹ĠjÃ¬nĠdeĠ":7234,"ĠĠĠCo":7235,"yÃ¡nĠzhÃ¬Ġ":7236,"sÃ¬ĠdeĠ":7237,"bÃ¨iĠchÄĵngĠwÃ©iĠ":7238,"shÃłoĠnÇļĠ":7239,"reĠ":7240,"dÅįngĠjÄ«ng":7241,"yÃºĠhÃ©Ġ":7242,"xiÄģngĠguÄģnĠdeĠ":7243,"dÄĽngĠdÄĽngĠ":7244,"fÇİnĠhuÃŃ":7245,"4ĠgÃ¨Ġ":7246,"ĠĠĠRe":7247,"dÃ¬ĠhÃ©Ġ":7248,"fÃłngĠzÃłiĠ":7249,"baĠ":7250,"ĠjÃŃĠshÇĲĠ":7251,"jiÄģnĠyÃ¹Ġ":7252,"miÇİnĠfÃ¨iĠ":7253,"jiÇİoĠdÃ¹Ġ":7254,"zuÇĴĠyÃ¬Ġ":7255,"ĠchÃ©ngĠbÄĽnĠ":7256,"wÃ©iĠzhÇĶĠ":7257,"ĠxÃŃngĠdÃ²ng":7258,"gÇİiĠshÃłnĠ":7259,"cÇİiĠqÇĶ":7260,"guÇİnĠlÇĲĠjÃºĠ":7261,"ĠzhÄĵn":7262,"tÃ¡iĠbÄĽiĠshÃ¬Ġ":7263,"Ġ29":7264,"ĠdÇİngĠ":7265,"ĠyuÃ¨ĠduÃ¬Ġ":7266,"ĠjÅ«nĠqÅ«Ġ":7267,"bÃ¬ĠmiÇİn":7268,"kÅįngĠjiÄģn":7269,"xÃŃngĠtÃłiĠ":7270,"ĠĠĠdÄģngĠ":7271,"ÃłoĠÄĽrĠ":7272,"shÃ¨ĠbÃ¨iĠ":7273,"xiÄģngĠshÃ¬Ġ":7274,"kÇİĠsÄ«Ġ":7275,"jiÃłĠshÇĲĠ":7276,"cÇİiĠfÇİng":7277,"fÃ¨iĠchÃºĠ":7278,"Ã¡Ġ":7279,"shÄģnĠxiÃłnĠ":7280,"ĠÃ©rĠfÄĵiĠ":7281,"luÃ²ĠshÄģnĠjÄ«Ġ":7282,"Ġ25":7283,"shÃłngĠdÃ¬Ġ":7284,"huÃłiĠ":7285,"xÄ«ĠbÄĽiĠ":7286,"hÄĽnĠkuÃłiĠ":7287,"zhÃ¨ngĠfÇĶĠdeĠ":7288,"ĠĠĠ2009":7289,"dÇİoĠshÃłngĠ":7290,"ĠzÃłiĠhÃ©Ġ":7291,"ĠkÃ¨ĠÄĽrĠ":7292,"ĠshÃ¨ĠyÃºĠ":7293,"Ġ27":7294,"cÇĲĠtÃ³ngĠshÃŃĠ":7295,"hÃºnĠ":7296,"Ġ2002ĠniÃ¡nĠ":7297,"kÄģiĠgÅįngĠ":7298,"tÅįngĠzhÄ«Ġ":7299,"lÇĲĠlÃ¹n":7300,"bÅįĠlÃŃĠ":7301,"ĠfÃ¨ngĠ":7302,"ĠkÇİiĠ":7303,"cÃŃĠzhÃŃĠ":7304,"ĠĠĠsÄ«Ġ":7305,"jiÃ¹ĠyuÃ¡nĠ":7306,"ĠshÃ©n":7307,"ĠcÃłi":7308,"cÃŃĠdeĠ":7309,"ĠdÃ¬ĠyÄ«ĠcÃ¬":7310,"ĠpÇĶ":7311,"ĠĠĠzhÃ¨ngĠ":7312,"hÃ©ĠzÃłiĠ":7313,"yÄĽĠhuÃ¬Ġ":7314,"wÃ¡Ġ":7315,"ĠzhÄ«ĠshÃ¬Ġ":7316,"hÇİiĠÃłn":7317,"Ã©ĠluÃ³ĠsÄ«ĠdeĠ":7318,"ĠyÇĴng":7319,"ĠsuÅįĠ":7320,"kÇĴuĠdeĠ":7321,"ĠyÃ¬ĠjiÃłnĠ":7322,"ĠxiÃ¨":7323,"ĠwÃ¨iĠzÃłiĠ":7324,"shÃ©nĠme":7325,"ĠdiÃłoĠ":7326,"zhÄĵngĠyuÃ¨Ġ":7327,"tÃ¬ĠdÃłiĠ":7328,"ĠrÃ©nĠdÃłĠ":7329,"chÃ¹ĠzhÇİngĠ":7330,"ĠxiÇİoĠshÃŃĠ":7331,"jiÇĶĠdeĠ":7332,"jÇĲnĠyÇĴuĠ":7333,"qiÃ¡ngĠzhÃ¬Ġ":7334,"ĠshÃŃĠxiÃłn":7335,"jiÄģnĠdÅ«Ġ":7336,"yÇĲnĠyÃ²ngĠ":7337,"yÇĲngĠshÃ¬Ġ":7338,"tÃŃĠchÅ«ĠleĠ":7339,"wÃłiĠjiÄģoĠbÃ¹Ġ":7340,"ĠbÇİnĠ":7341,"xuÃ©ĠzhÅįngĠ":7342,"qiÃ¡ngĠdeĠ":7343,"ĠgÃ¨ĠguÃ³Ġ":7344,"mÃŃnĠzhÇĶĠdÇİng":7345,"ĠchÅįngĠ":7346,"shÄģnĠdÃ¬Ġ":7347,"1966ĠniÃ¡nĠ":7348,"jÃ¬ĠsuÃłn":7349,"fÄĵngĠfÃ¹Ġ":7350,"thĠ":7351,"ĠĠĠbÄģĠ":7352,"sÄ«ĠshÃ¬Ġ":7353,"nuÃ³ĠwÄĵi":7354,"1937ĠniÃ¡nĠ":7355,"ĠzhÇĶĠyÇİnĠ":7356,"xÇĲĠhuÄģnĠ":7357,"ĠĠĠgÃ¹ĠshÃ¬Ġ":7358,"cÃ©ngĠyÃºĠ":7359,"ĠsÄ«ĠmÇİĠ":7360,"ĠhÃłoĠxiÃłn":7361,"ĠkÇĴuĠ":7362,"ĠgÃ¨ĠzhÇĴng":7363,"zhÇİngĠguÄģnĠ":7364,"zÅįngĠjiÃło":7365,"xiÇİoĠxÃŃngĠxÄ«ng":7366,"ĠkÇİi":7367,"tiÄģnĠhÃ²uĠ":7368,"ĠshÃŃĠhÃ²uĠ":7369,"mÃ²ĠxÄ«ĠgÄĵ":7370,"Ã©ĠguÃ³Ġ":7371,"1974ĠniÃ¡nĠ":7372,"ĠyÇĴuĠxiÄĵ":7373,"pÇĶĠbiÃłn":7374,"ĠfÄĵnĠbiÃ©Ġ":7375,"bÃ¹ĠdeĠcÅ«nĠzhuÄģngĠ":7376,"ĠĠĠyÇĲĠxiÃł":7377,"ĠjuÃ©ĠdÃ¬ngĠ":7378,"ĠĠĠyuÃ¨Ġ":7379,"guÇİnĠdeĠ":7380,"lÃŃĠmÇĲĠ":7381,"zÃłnĠzhÃ¹Ġ":7382,"fÄģĠdÃ²ngĠjÄ«Ġ":7383,"cÃ¨ĠliÃ¡ngĠ":7384,"yÃ¬nĠshuÄģ":7385,"ĠmÃ¬Ġ":7386,"cÃ¹ĠjÃ¬nĠ":7387,"ĠyuÃ¨ĠlÃ¡iĠyuÃ¨Ġ":7388,"liÃºĠyÃ¹Ġ":7389,"liÃ¨ĠrÃ¹Ġ":7390,"kÃ²uĠ":7391,"gÇĶĠlÇİo":7392,"ÄģĠgÄĵnĠ":7393,"mÇİĠlÃ¡iĠxÄ«ĠyÃł":7394,"tÄģĠzÃłiĠ":7395,"jiÃłngĠyÇĶĠ":7396,"liÇİoĠjiÄĽĠ":7397,"jiÄģĠtÃŃngĠ":7398,"chÄĵĠxiÄģngĠ":7399,"ĠxÃ¹Ġ":7400,"ĠĠĠwÃ©iĠ":7401,"fÃ¹ĠshÃ¬Ġ":7402,"liÃ¨ĠchÅ«Ġ":7403,"ĠdeĠjÃ¹Ġ":7404,"ĠchÃ©ngĠxiÃłn":7405,"ĠzhÄ«ĠdÃ¬Ġ":7406,"jÄ«ngĠdiÇİnĠ":7407,"ĠdÃłnĠbÃ¡iĠ":7408,"tÃŃngĠchÄĵĠ":7409,"ĠfÇİ":7410,"yÄ«ngĠlÇĲĠ":7411,"yÇĶnĠshÃŃĠ":7412,"1946ĠniÃ¡nĠ":7413,"ĠxiÃłnĠshÃłngĠ":7414,"qiÃ¡ngĠdÃ¹Ġ":7415,"chuÃłngĠzuÃ²ĠdeĠ":7416,"ĠlÃ©i":7417,"sÅ«ĠwÃ©iĠ":7418,"guÃłnĠjÅ«n":7419,"ĠbÃ¹ĠshÇİo":7420,"ĠzhÄ«ĠjiÄģĠ":7421,"cÄģnĠxuÇİnĠ":7422,"ĠchuÄģnĠ":7423,"ĠĠĠfÃ¹Ġ":7424,"ĠkÃ¨ĠhÃ©Ġ":7425,"bÃ¬ĠmiÇİnĠ":7426,"ĠQ":7427,"shuÃŃ":7428,"tÃ³ngĠxÃ¬ngĠ":7429,"ĠsÃ¨Ġ":7430,"zÇİoĠshÃłngĠ":7431,"1955ĠniÃ¡nĠ":7432,"zhÇĶĠtÃŃ":7433,"ĠxiÄģngĠdÄģng":7434,"cÃ¡iĠliÃło":7435,"sÄĵnĠlÃŃn":7436,"ĠfÃ¹ĠzÃ©ĠguÇİnĠxiÃ¡Ġ":7437,"Ġì":7438,"ĠĠĠde":7439,"lÄģĠdeĠ":7440,"mÃŃngĠdÄģnĠ":7441,"zhÃłnĠtÃ¡iĠ":7442,"guÃ³ĠshÃ¬Ġ":7443,"hÅ«ĠyÃ¹Ġ":7444,"ĠgÅįngĠyÃ¬ngĠ":7445,"jiÄģnĠrÃ¨nĠ":7446,"bÃ³ĠlÃŃnĠ":7447,"xuÇİnĠjÇĶĠzhÅįngĠ":7448,"ĠtiÃ¡oĠ":7449,"ĠyÄ«ĠzhÃŃĠ":7450,"guÄģnĠfÄģng":7451,"suÇĴĠyÇĴuĠdeĠ":7452,"jÇĲngĠgÃłoĠ":7453,"jiÃłnĠzhÃ¹":7454,"dÄ«ĠqÃ¬Ġ":7455,"xiÃłĠzÃłiĠ":7456,"ĠĠĠzÄĵngĠzÇĶĠ":7457,"ĠkÇİoĠ":7458,"hÃ¡iĠzÃłiĠ":7459,"1954ĠniÃ¡nĠ":7460,"nÃ¡nĠzi":7461,"zhÃłoĠpiÄģnĠ":7462,"tÇĲĠyÃ¹ĠchÇİngĠ":7463,"guÇİngĠzhÅįu":7464,"sÄģoĠ":7465,"liÃ¡nĠjiÄĵ":7466,"diÃłnĠshÃ¬ĠtÃ¡i":7467,"lÄģĠdÃ©Ġ":7468,"shÅ«ĠchÅ«Ġ":7469,"ĠgÅįngĠnÃ©ng":7470,"yÇĲnĠrÃ¹Ġ":7471,"lÃ¡nĠxÄ«Ġ":7472,"dÃ¹nĠdeĠ":7473,"ĠbÃ¹ĠmÇİnĠ":7474,"ĠqiÃºĠdeĠ":7475,"yÃŃnĠpÃ¡iĠ":7476,"yÃ¡oĠgÇĶn":7477,"cÃ©ngĠdeĠ":7478,"nÃ¬Ġ":7479,"ĠÃ©rĠgÄģiĠdÃ¬ĠdeĠ":7480,"nuÃ³ĠwÄĵiĠ":7481,"guÃ³ĠwÃ¡ngĠ":7482,"ĠyÇĶĠqÃŃĠ":7483,"qÄ«ĠzÇĲ":7484,"ÄģnĠzhuÄģngĠ":7485,"ĠpÃłĠ":7486,"xÃ¹ĠlÃ¬ĠyÃł":7487,"shÄĵnĠqÇĲng":7488,"zÇİoĠqÄ«ĠdeĠ":7489,"shÃŃĠhÃ©Ġ":7490,"zhÃłnĠdÃ¬Ġ":7491,"tÃºĠdeĠ":7492,"mÇĴuĠxiÄĵ":7493,"fÄĵiĠxÃŃng":7494,"ĠjÃ¬ĠlÃ¹":7495,"ĠchÅ«ĠyÇİnĠ":7496,"Ġt":7497,"ĠnÇĲ":7498,"zhÄ«ĠshÃŃĠ":7499,"qiÃºĠhuÃ¬Ġ":7500,"ĠbÃ¨iĠÄĽr":7501,"Ġ000Ġ":7502,"zhÃłnĠshÃŃĠ":7503,"zÄģoĠyÃ¹Ġ":7504,"ĠwÃ¨iĠnÃ©ng":7505,"xiÃłĠlÃ¡iĠ":7506,"ĠzÃº":7507,"niÃ¡ngĠ":7508,"ĠhÃ©ĠgÇĶĠ":7509,"ĠchÃ©ngĠleĠ":7510,"ĠyÇĲĠqiÃ¡nĠ":7511,"ĠjÃ¬ĠyÃ¬Ġ":7512,"ĠkÃ¨ĠlÃ¬Ġ":7513,"fÄģĠshÄĵngĠdeĠ":7514,"shÄ«ĠqÃ¹Ġ":7515,"gÇĶĠlÄģĠ":7516,"ĠshÃ¹n":7517,"qiÃ¡nĠhÃ²uĠ":7518,"tÃ¨ĠlÃ¬Ġ":7519,"zÇĶĠdeĠ":7520,"biÄģnĠyuÃ¡nĠ":7521,"mÃ²ĠÄĽrĠ":7522,"zhÅįngĠyÄģngĠ":7523,"ĠjiÄģĠtÃŃng":7524,"ĠxiÄģngĠtÃ³ngĠ":7525,"xÄ«ngĠqÄ«":7526,"yÅįuĠxiÃ¹":7527,"ĠyÇĲĠsÃ¨ĠliÃ¨Ġ":7528,"duÃ¬ĠyuÃ¡nĠ":7529,"ĠshÃŃĠbÃłoĠ":7530,"ĠRe":7531,"ĠzÃºĠ":7532,"shÄģnĠdÅįngĠshÄĽngĠ":7533,"ĠzhÄģoĠhÃ©Ġ":7534,"1ĠgÃ¨Ġ":7535,"chÇĴng":7536,"ĠduÃ¬ĠcÇĲĠ":7537,"tÃłiĠkÅįngĠ":7538,"ĠĠĠgÃłiĠyÃłoĠ":7539,"Ġ2006":7540,"sÄģnĠdÃłĠ":7541,"mÇĲĠdeĠ":7542,"ĠzÃ¬ĠyÃ³u":7543,"Ġ2000ĠniÃ¡nĠ":7544,"bÇİoĠdeĠ":7545,"ĠjÅ«nĠdÃ¬Ġ":7546,"ĠshÄĵngĠmÃŃngĠ":7547,"ĠzhÇĲĠzÃłiĠ":7548,"Ġz":7549,"ĠqÇĲngĠ":7550,"zhÃłĠdÃłnĠ":7551,"huÃŃĠguÄ«Ġ":7552,"wÇİngĠshÃłngĠ":7553,"tÇİĠÄĽrĠ":7554,"ĠdÃ¬ĠzhÃ¨nĠ":7555,"xiÃłĠjiÃłngĠ":7556,"lÇĲngĠdÇİoĠdeĠ":7557,"yÃ¡nĠjiÅ«ĠshÄĵngĠ":7558,"ĠjiÄĵ":7559,"tÃ¨ĠÄĽrĠ":7560,"zhÄģiĠ":7561,"ĠxiÃłnĠyÇĴuĠ":7562,"ĠyuÃ¡nĠyÄ«n":7563,"ĠsÃ²ng":7564,"wÅ«ĠsÄ«Ġ":7565,"hÇİoĠpÃŃngĠ":7566,"isĠĠĠ":7567,"ĠdeĠzhÇĶĠyÃłoĠ":7568,"ĠzhÅįngĠjiÄģnĠ":7569,"pÇĶĠchÃ¡Ġ":7570,"ĠyÃ¨":7571,"duÅįĠcÃ¬":7572,"qÄ«nĠwÃ¡ngĠ":7573,"ĠBĠ":7574,"ĠfÇĴu":7575,"ĠniÃ¡nĠqÄ«ngĠ":7576,"ĠwÃłi":7577,"ĠIn":7578,"tÃ³ngĠmÃŃngĠ":7579,"tÃ¨ĠyÇĴuĠ":7580,"biÄģnĠwÃ¨iĠ":7581,"bÃ³ĠjuÃ©Ġ":7582,"ĠwÄĵiĠliÃ¡nĠ":7583,"30ĠniÃ¡nĠ":7584,"nÃ¹Ġ":7585,"ĠjÃŃĠbÃ¬ngĠ":7586,"ĠxÃŃngĠbÃ¹Ġ":7587,"kuÃłiĠsÃ¹":7588,"zÃłnĠtÃŃngĠ":7589,"shÄ«ĠgÅįngĠ":7590,"dÄģngĠniÃ¡nĠ":7591,"dÃ¡ĠzhÅįuĠ":7592,"cÃºnĠdeĠ":7593,"ĠmÃ³":7594,"ĠguÇİnĠ":7595,"ĠbÇİĠ":7596,"ĠguÇİngĠdÅįngĠ":7597,"qÃŃngĠdeĠ":7598,"ĠshÃ¬ĠyÄ«ĠbÃ¹Ġ":7599,"ĠxÄ«nĠzÄĵngĠ":7600,"gÇİiĠzhÃ¬ĠwÃ¨iĠ":7601,"ĠĠĠdÃ¬ĠyÄ«Ġ":7602,"gÇİngĠyuÃ¡nĠ":7603,"fÃ¨iĠyÃ¡nĠ":7604,"Ġ40":7605,"ĠxiÄģnĠhÃ²uĠ":7606,"fÄĽnĠsÄ«Ġ":7607,"zhÇĲĠkÃ²ngĠ":7608,"chÄĵĠliÃłng":7609,"mÃ¬ĠdeĠ":7610,"ĠX":7611,"shÄĵnĠshÃ¬Ġ":7612,"pÃ¨iĠbÃ¨iĠ":7613,"yÇĲngĠxiÃłngĠ":7614,"ĠshÇĴuĠcÃ¬Ġ":7615,"xÅ«nĠ":7616,"zhuÃ¬Ġ":7617,"fÄģngĠmÇĲĠ":7618,"ĠcÃ¡i":7619,"sÄģnĠrÃ©nĠ":7620,"sÄģnĠgÃ¨":7621,"100Ġ":7622,"ĠdeĠhuÃłĠ":7623,"dÃłĠqÅ«Ġ":7624,"shÄĽngĠjiÄĵĠrÇİngĠ":7625,"ĠzÃ¬ĠdÃ²ngĠ":7626,"zhÄĽĠhÃ©Ġ":7627,"bÄĵngĠ":7628,"tÃ¨ĠzhÄĵng":7629,"cÄģnĠshÃ¹Ġ":7630,"ĠzuÃ¬ĠdÃłĠ":7631,"ruÃ¬ĠdiÇİnĠ":7632,"Ġ45":7633,"wÇĶĠgÃ¨Ġ":7634,"ĠzhÃ¨ĠyÃłngĠ":7635,"ĠjÃ¬nĠzhÇĲĠ":7636,"tuÄ«ĠguÇİngĠ":7637,"ĠmÃłiĠkÃ¨Ġ":7638,"lÃ¹ĠyÃ¬ĠsÄ«Ġ":7639,"yÃ³uĠxÃŃngĠ":7640,"ĠbÃ¹ĠyÄ«Ġ":7641,"ĠpÃŃngĠlÃ¹nĠ":7642,"jÃ¬ngĠnÃ¨iĠgÃ²ngĠyÇĴuĠ":7643,"ĠĠĠjÄ«nĠ":7644,"sÃ¬ĠshÃ¬Ġ":7645,"tÃłiĠdeĠ":7646,"Ã¨ngĠ":7647,"1947ĠniÃ¡nĠ":7648,"YouTube":7649,"zhÇİnĠlÇİnĠ":7650,"ĠguÅį":7651,"shÃ¨ngĠchÅ«Ġ":7652,"ĠshÃ¨ĠhuÃ¬ĠzhÇĶĠyÃ¬Ġ":7653,"zhÄĽĠhuÃ¬Ġ":7654,"ĠshÃ¬ĠyÄ«ĠkÄĵĠ":7655,"ĠjiÃ©ĠshÃ¹Ġ":7656,"ĠshuÄģngĠfÄģngĠ":7657,"ĠzÃłiĠyÃ¬ĠqÇĲĠ":7658,"ĠcÇİiĠyÃ²ngĠ":7659,"lÄģĠhÃ©Ġ":7660,"huÃŃĠguÃ³Ġ":7661,"huÄģngĠ":7662,"ĠbÃ¹ĠlÃ¡iĠ":7663,"ĠshÃŃĠxÃ¬ngĠ":7664,"xÄ«nĠwÃ©n":7665,"bÇİoĠluÃ³Ġ":7666,"jÃ¬ngĠzhÄĵng":7667,"lÇľĠsÃ¨Ġ":7668,"Ġ200":7669,"ĠĠĠ16":7670,"ĠjÃŃĠhÃ²uĠ":7671,"ĠjÃ¬ĠzÇİi":7672,"ĠxÄ«ĠÄĽrĠ":7673,"ĠjiÄģngĠsÅ«Ġ":7674,"wÃºĠxiÃłnĠdiÃłnĠshÃ¬Ġ":7675,"20ĠniÃ¡nĠ":7676,"50ĠniÃ¡nĠ":7677,"ĠzÃłiĠ18":7678,"ĠdÃ¬ĠzhÃ¬Ġ":7679,"ĠzhÃ¬ĠyÃŃĠ":7680,"fÃ¨iĠyÃ²ngĠ":7681,"yÃ¬ngĠjÃŃĠ":7682,"ĠbÃ¨iĠpÃ²Ġ":7683,"dÃ¹ĠshÇĲĠ":7684,"chÇİnĠshÄĵngĠleĠ":7685,"ĠĠĠ2019ĠniÃ¡nĠ":7686,"mÇİĠkÃ¨ĠsÄ«Ġ":7687,"1973ĠniÃ¡nĠ":7688,"ĠguÃ³ĠjiÄģĠduÃ¬Ġ":7689,"tiÄĽĠlÃ¹ĠchÄĵĠzhÃłnĠ":7690,"ĠdÃ²ngĠwÃ¹Ġ":7691,"ĠshÃłnĠ":7692,"chuÃłngĠzÃłoĠ":7693,"ĠÏ":7694,"ĠhÃºĠnÃ¡nĠ":7695,"kÅ«Ġ":7696,"ĠgÅįngĠqÇĲngĠ":7697,"ĠjiÄģĠzÃº":7698,"ĠmÃ¡oĠ":7699,"wÃ¡ngĠwÃ¨iĠ":7700,"tuÄ«ĠjiÃłnĠ":7701,"1971ĠniÃ¡nĠ":7702,"liÃ¡nĠrÃ¨nĠ":7703,"zhÇİngĠzÇĲĠ":7704,"yÄ«ngĠchÇĲĠ":7705,"sÄģnĠjÃŃĠ":7706,"lÃ¨iĠxÃŃngĠdeĠ":7707,"ĠtÄģĠcÃ©ngĠ":7708,"bÄĽiĠfÄģngĠ":7709,"ĠniÃ¡nĠlÃŃngĠ":7710,"ĠgÅįngĠgÃ²ng":7711,"ĠdÃłĠdÃło":7712,"fÃºĠluÃ³ĠlÇĲĠ":7713,"fÃ¡ngĠwÅ«Ġ":7714,"nÃ³ngĠcÅ«nĠ":7715,"ĠshÃ¬ĠzhÅįngĠhuÃ¡ĠrÃ©nĠmÃŃnĠgÃ²ngĠhÃ©ĠguÃ³Ġ":7716,"ĠcÃ©ngĠrÃ¨n":7717,"yÇĲngĠxiÇİngĠlÃ¬Ġ":7718,"ĠdeĠzuÃ²ĠbiÄģoĠwÃ¨iĠ":7719,"chÅįngĠjÄ«Ġ":7720,"ĠshÃ¬ĠhuÃ¬Ġ":7721,"qÃºnĠdÇİo":7722,"Ġ2022ĠniÃ¡nĠ":7723,"ĠzÃłiĠxÄ«nĠ":7724,"tÃ¨ĠdiÇİnĠ":7725,"tiÄģnĠrÃ¡nĠ":7726,"qÄ«ngĠchÃ¡oĠ":7727,"chÅ«ĠqÄ«Ġ":7728,"gÃ¹ĠdÃ¬ngĠ":7729,"ĠĠĠjiÄģĠtÃŃngĠ":7730,"lĠĠĠ":7731,"sÇĲĠyÃºĠ":7732,"ĠzÃłiĠtÄģĠdeĠ":7733,"shÃ¨ĠhuÃ¬":7734,"ĠkÄĽĠnÃ©ngĠ":7735,"jÃŃĠbÃ¹Ġ":7736,"shÄĵngĠzhÃ¬Ġ":7737,"cÃ³ngĠwÃ¨iĠ":7738,"biÇİnĠ":7739,"lÃ²uĠ":7740,"fÃ¹ĠjÃ¬n":7741,"fÄģngĠxiÃłng":7742,"tÃ¨ĠlÄģĠ":7743,"jÃ¬ngĠnÃ¨i":7744,"gÃ¨ngĠduÅįĠdeĠ":7745,"xÄ«nĠshÃ¬Ġ":7746,"1977ĠniÃ¡nĠ":7747,"ĠyÄ«ĠrÃ©nĠ":7748,"ĠdÃłoĠhÃ©Ġ":7749,"gÄģoĠdÃ¡Ġ":7750,"ĠshÄĽnĠ":7751,"ĠĠĠ0":7752,"ĠshÃŃĠzhÃ¬Ġ":7753,"ĠdÃłoĠyÄ«Ġ":7754,"qÃ¬ĠxuÃ¡nĠ":7755,"ĠsectionĠĠĠ":7756,"ĠchÇĶĠ":7757,"lÇľĠdeĠ":7758,"bÄģnĠdeĠ":7759,"qÇĶĠxiÄģo":7760,"ĠnÇİi":7761,"ĠxÇĶĠduÅį":7762,"dÄĽngĠdeĠ":7763,"xuÇİnĠchÅ«Ġ":7764,"yÃŃĠdÃłoĠ":7765,"shÃ²uĠquÃ¡nĠ":7766,"zhÃ³uĠ":7767,"zhÅįngĠyÄģng":7768,"shÄĵngĠjÄ«Ġ":7769,"guÄģnĠcÃ¨Ġ":7770,"ĠyÄĽĠbÃ¹Ġ":7771,"qÄ«ngĠshÃłoĠniÃ¡nĠ":7772,"wÃ¡nĠzhÄĽngĠ":7773,"ĠĠĠshÇĲĠyÃ²ngĠ":7774,"ĠshÃ¬ĠjÃ¬ĠdeĠ":7775,"ĠyÇĴuĠdÃłĠ":7776,"ĠfÇĶĠ":7777,"jiÄģĠgÅįngĠ":7778,"luÃ²ĠsÄ«Ġ":7779,"ĠshÃ¬ĠyÃ³u":7780,"fÃ¹ĠjÃ¬nĠdeĠ":7781,"mÄĽiĠguÃ³ĠrÃ©nĠ":7782,"zhÃłngĠfÅ«Ġ":7783,"xuÃ©ĠbÃ¹Ġ":7784,"tiÄĵĠ":7785,"pÃ¹Ġ":7786,"ĠyÇĴuĠzhÃ¹Ġ":7787,"yÃ¬ĠbÃ¹Ġ":7788,"shÇĲĠyÃºĠ":7789,"enĠĠĠ":7790,"guÃ³ĠhuÃ¬Ġ":7791,"xÄ«ĠbÄĽiĠbÃ¹Ġ":7792,"ĠtÄģĠrÃ¨nĠwÃ©iĠ":7793,"mÃ¹ĠnÃŃĠ":7794,"ĠtÃ³ngĠpÃ¡iĠ":7795,"ĠzhÇĲĠshÃ¬Ġ":7796,"kuÃ²ĠzhÇİn":7797,"ĠhÃ¨":7798,"sÇĲĠxÃŃngĠ":7799,"qÃ¬ngĠzhÃ¹Ġ":7800,"zhÃłnĠlÇĲng":7801,"liÃ¡nĠjiÃ©Ġ":7802,"ĠtÃ³ngĠyÃłngĠ":7803,"ĠĠĠgÄĵnĠjÃ¹Ġ2020ĠniÃ¡nĠmÄĽiĠguÃ³ĠrÃ©nĠkÇĴuĠpÇĶĠchÃ¡ĠdeĠshÃ¹ĠjÃ¹Ġ":7804,"bÃ¬ngĠwÃ¨iĠ":7805,"zuÃ¬ĠwÃ¨iĠ":7806,"hÇİiĠshÃłngĠ":7807,"rÃ©ngĠzÃłiĠ":7808,"ĠdeĠgÃ¹ĠshÃ¬Ġ":7809,"guÃ³ĠlÃ¬Ġ":7810,"fÄĵnĠpÃ¨iĠ":7811,"huÃ¡ngĠsÃ¨Ġ":7812,"xiÄģoĠliÃłngĠ":7813,"zhuÄģnĠmÃ©nĠ":7814,"zÄĵngĠjiÄģĠleĠ":7815,"kĠĠĠ":7816,"âĨ":7817,"Ġ2024":7818,"guÃ²ĠyÃºĠ":7819,"ĠzÃłiĠtÄģĠ":7820,"xiÃ©ĠdÃ¬ngĠ":7821,"shÃłngĠhÇİiĠshÃ¬Ġ":7822,"quÃ¡nĠdeĠ":7823,"sÃ¬ĠdÃłĠ":7824,"zÇĴngĠhuÃ¬Ġ":7825,"huÃŃĠhÃ©Ġ":7826,"lÇİoĠshÄ«Ġ":7827,"ĠyÄ«ĠzhÃ¬Ġ":7828,"ĠchÅ«ĠfÄģĠ":7829,"sÃ¨ĠfÅ«Ġ":7830,"ĠSĠ":7831,"xiÄģngĠjÃ¬Ġ":7832,"qiÃ¨ĠÄĽrĠ":7833,"jÄ«ngĠjÃ¬":7834,"bÄģnĠjiÇİngĠ":7835,"fÃ¡ngĠwÃ¨iĠ":7836,"vĠ":7837,"ĠJo":7838,"Ġ9Ġ":7839,"ĠqiÅ«Ġ":7840,"Ġ2003ĠniÃ¡nĠ":7841,"ĠlÃ¬ĠshÇĶĠ":7842,"ĠbÃ¬ngĠrÃ¹Ġ":7843,"dÄĵngĠchÃ¡ngĠ":7844,"ĠxÃŃĠ":7845,"ĠtiÄĽĠ":7846,"xÃ¬ngĠshÃ¬Ġ":7847,"ckĠ":7848,"duÃ¬ĠshÇĴuĠ":7849,"cÄģnĠsÃłi":7850,"ĠdeĠjÃ¬ĠlÃ¹Ġ":7851,"ĠjÃŃĠxÃŃngĠzhÃ¨ngĠ":7852,"ĠlÃ¬ĠziĠ":7853,"ĠyÄĽĠhuÃ¬Ġ":7854,"ĠÄģĠlÄģĠ":7855,"ÃłiĠdeĠ":7856,"piÃłnĠdeĠ":7857,"ĠyÇĲĠzhÃ¬Ġ":7858,"jiÇİngĠshÃ¹Ġ":7859,"lÃ¡iĠzÃ¬ĠyÃºĠ":7860,"ĠSA":7861,"fÃºĠlÇĲĠ":7862,"dÄģnĠyuÃ¡nĠ":7863,"mÄģĠ":7864,"zhÃŃĠyÃ¨":7865,"zhÃłoĠkÄģi":7866,"Ġ000ĠrÃ©nĠ":7867,"ĠbÄģoĠhÃ¡nĠ":7868,"fÃ¹ĠjiÄģĠ":7869,"yÄ«ĠxiÄĵĠ":7870,"hÇİiĠbÃ¡ĠgÄģoĠ":7871,"shuÄģngĠdÇİĠ":7872,"Ġhan":7873,"qÃ¬ĠhÃ©Ġ":7874,"xÃ¬ngĠnÃ©ngĠ":7875,"cÃºnĠzÃłiĠdeĠ":7876,"zhuÃłngĠjÄ«Ġ":7877,"ĠjiÃłnĠkÄģngĠ":7878,"nÃłĠcuÃ¬":7879,"ĠxiÄģngĠduÃ¬Ġ":7880,"gÄĽng":7881,"ĠkÃ¹":7882,"ĠfÄģĠxÃŃngĠ":7883,"hÃ©ĠwÃ¨iĠ":7884,"shÄĽngĠdÃłoĠ":7885,"lÃ¡oĠgÅįngĠ":7886,"tuÃ³Ġ":7887,"xÄ«ĠnÃ¡nĠbÃ¹Ġ":7888,"ĠkÃ¨ĠyÃ¹nĠ":7889,"mÇİĠlÄģĠ":7890,"gÇİiĠgÃ©":7891,"nÃ¡nĠjÃŃĠzhÅįuĠdeĠ":7892,"ĠÃłn":7893,"wÄģĠ":7894,"shÇĴuĠbÅįĠ":7895,"yÄ«ngĠgÄģi":7896,"lÃ¨iĠsÃ¬ĠdeĠ":7897,"mÄĽiĠjÅ«nĠ":7898,"bÄģĠÄĽrĠ":7899,"chuÃłngĠxÄ«nĠ":7900,"ĠyÇĴuĠguÄģn":7901,"zhÃ¨ngĠxiÃ©Ġ":7902,"ĠtÄģĠduÃ¬Ġ":7903,"shÄģnĠmÃłiĠ":7904,"shÄģĠsÇĲĠ":7905,"ĠsÃ¬ĠchuÄģnĠ":7906,"hÅįngĠzhÃłĠjÄ«Ġ":7907,"ĠĠĠrÃ¡nĠÃ©rĠ":7908,"ĠhantĠ":7909,"lÇĲĠbÃ¹Ġ":7910,"chÃ¡ngĠjiÃłnĠ":7911,"chuÃ¡nĠzhÄ«Ġ":7912,"ĠzhÄ«ĠzhÃłnĠ":7913,"ĠxiÇİoĠshuÅįĠ":7914,"ĠbÃ¡i":7915,"yÄ«ĠbÃ¹ĠfÃ¨n":7916,"fÄĵiĠzhÅįu":7917,"1962ĠniÃ¡nĠ":7918,"ĠxiÃłnĠzhÄ«ĠxiÃłnĠ":7919,"fÄģĠshÄĵngĠleĠ":7920,"shÇĶĠdeĠzhÃŃĠwÃ¹Ġ":7921,"wĠ":7922,"zhÃŃĠzhÃ¬Ġ":7923,"diÃłnĠdeĠ":7924,"yÃłoĠdeĠ":7925,"IIĠ":7926,"yÃ¡nĠzhÃ²ngĠdeĠ":7927,"cÄģnĠtÄ«ngĠ":7928,"ĠlÃ¬ngĠwÃłi":7929,"ĠCo":7930,"ĠĠĠdÃłn":7931,"mÃ¬ĠsÄ«Ġ":7932,"etĠ":7933,"zÃ²ngĠ":7934,"quÇİnĠ":7935,"qiÇİoĠ":7936,"ĠjiÃłnĠshÃ¬Ġ":7937,"suÇĴĠshÇĶ":7938,"zÇĶĠzhÇĲĠ":7939,"ĠĠĠ2007":7940,"xÄ«ĠshÃ¬Ġ":7941,"tÃ³uĠbÃ¹Ġ":7942,"duÃ¬ĠwÇĶĠ":7943,"ĠyÃ³uĠcÇĲĠ":7944,"ĠdÅįngĠjÄ«ngĠ":7945,"fÃłngĠqÃ¬":7946,"yÃ¹nĠdÃ²ngĠdeĠ":7947,"WĠ":7948,"ĠĠĠandĠĠĠ":7949,"jiÄģnĠshÃ¬Ġ":7950,"nÃłĠdÃ©Ġ":7951,"fÃ©iĠ":7952,"bÄģngĠzhÃ¹":7953,"ĠchÄĵĠzhÃłn":7954,"ĠĠĠThe":7955,"jiÄģngĠtÄģĠ":7956,"jiÃłngĠdÄ«":7957,"ĠshÃ¬ĠyÃ¬ĠdÃłĠlÃ¬Ġ":7958,"huÃ¬ĠyÇĲĠ":7959,"luÇĴ":7960,"Ġ60":7961,"hÄĵiĠrÃ©nĠ":7962,"jÄ«ĠbÄĽnĠ":7963,"ĠzhÄ«ĠliÃºĠ":7964,"zhÇĶĠxÃŃ":7965,"shuÃłiĠlÇĲngĠ":7966,"tÇĶĠÄĽrĠqÃŃ":7967,"huÃ¬ĠshÃ¬ĠdÃ¬Ġ":7968,"huÃ¡nĠxÃŃngĠ":7969,"ĠzÃłiĠyÇĶĠ":7970,"ĠgÅįngĠlÃ¹":7971,"ĠdÃ©ĠdÃłoĠleĠ":7972,"ĠshÃ¨ĠjÃ¬ĠdeĠ":7973,"shÃłngĠbÃ¹Ġ":7974,"bÃ¹ĠfÃ¨nĠ":7975,"nÃ¡ĠpÃ²Ġ":7976,"zhÄĽngĠgÃ¨":7977,"xiÄģngĠbÇĲĠ":7978,"ĠshÃ¬ĠyÄ«ĠzuÃ²Ġ":7979,"zhÅįuĠbiÄģnĠ":7980,"xiÃłĠxiÃ¡ĠyÇĲĠxiÃł":7981,"ĠĠĠ3ĠyuÃ¨Ġ":7982,"ĠxiÃłnĠjÄ«nĠ":7983,"hÃ¡ngĠtiÄģnĠ":7984,"qiÄģnĠyuÄĵĠ":7985,"ĠshÃ¬ĠjiÃ¨ĠbÄĵiĠ":7986,"zhÇİngĠdÃłĠ":7987,"luÃ³ĠdÃ©Ġ":7988,"ĠdÃłĠliÃłng":7989,"zÃ¬ĠwÃ¨iĠ":7990,"yÃ¡nĠshÃŃĠ":7991,"ĠlÃ¬ĠyÃ²ng":7992,"yÃŃĠchÇİn":7993,"gÃ©ĠÄĽrĠ":7994,"ĠxÃŃngĠshÇĲĠ":7995,"xÄ«nĠrÃ©nĠ":7996,"zhÇĲĠdeĠ":7997,"zÇĴngĠcÃ¡iĠ":7998,"chuÃ¡nĠmÃ©iĠ":7999,"ĠnÃ¡nĠziĠ":8000,"chÅ«ĠshÄĵngĠyÃºĠ":8001,"ĠmÇİĠlÃ¬Ġ":8002,"ĠshÄĵngĠzhÇİngĠyÃºĠ":8003,"mÇİo":8004,"cÇĲĠshÃŃĠ":8005,"ĠgÅįngĠchÇĲ":8006,"ĠqiÃºĠhuÃ¬Ġ":8007,"hÇİiĠbÃ¡ĠgÄģoĠdÃ¹ĠwÃ¨iĠ":8008,"ĠĠĠ2018ĠniÃ¡nĠ":8009,"bÄĽnĠxiÃłnĠ":8010,"zhÄĽĠwÃ¨iĠ":8011,"nuÃ²ĠyÄ«Ġ":8012,"ayĠ":8013,"cÅįngĠ":8014,"ĠjÃŃĠlÃŃnĠ":8015,"xiÄģngĠtÃ³ngĠdeĠ":8016,"ĠzhÅįngĠguÃ³ĠguÃ³ĠmÃŃnĠ":8017,"cÄģnĠyÃ¹ĠleĠ":8018,"ĠjÇĲĠ":8019,"ĠdÃ¬Ġ1Ġ":8020,"yÃłĠmÃ¹Ġ":8021,"ĠzhÃ¨ĠshÇĴuĠ":8022,"guÄģngĠxÃ¹Ġ":8023,"OĠĠĠ":8024,"ĠzhÃ²ng":8025,"jÃ¬ĠzÃłiĠ":8026,"wÇĶĠyuÃ¨Ġ":8027,"dÄģnĠyÄ«Ġ":8028,"biÃ©ĠdeĠ":8029,"1939ĠniÃ¡nĠ":8030,"ĠhÃ©ĠlÇĲĠ":8031,"yÃ³uĠtÃłiĠrÃ©nĠ":8032,"ĠdeĠchÃ©ngĠzhÃ¨nĠ":8033,"lÄģĠÄĽrĠ":8034,"xÃºnĠqiÃºĠ":8035,"1938ĠniÃ¡nĠ":8036,"ĠbÃ¹ĠÄĽrĠ":8037,"ĠxÃŃngĠxiÃłngĠ":8038,"ĠwÃ©iĠchÃŃĠ":8039,"yÇĲnĠzhÇĴngĠ":8040,"bÃºĠyÃłoĠ":8041,"ĠqÃŃnĠ":8042,"shÄģngĠdeĠ":8043,"1965ĠniÃ¡nĠ":8044,"ĠbÃ¹ĠdÃŃĠ":8045,"ĠyÃºĠlÃ¨iĠ":8046,"mÄĽiĠyuÃ¡nĠdeĠ":8047,"yÃŃngĠyÃ¨Ġ":8048,"qiÄģnĠdÃ¬ngĠ":8049,"ĠguÄģnĠfÄģngĠ":8050,"ĠxÅ«ĠyÃłoĠ":8051,"Ã©ĠwÃ¨iĠ":8052,"ĠĠĠ5ĠyuÃ¨Ġ":8053,"1936ĠniÃ¡nĠ":8054,"ĠzÃłiĠgÄģiĠ":8055,"ĠguÃ³ĠmÃŃn":8056,"jiÄĵĠrÃ¨nĠ":8057,"wÄĽiĠfÃ¹ĠshÅ«ĠjÃ¬Ġ":8058,"Ġre":8059,"wÇĶĠdÃ¬Ġ":8060,"zhuÅįĠ":8061,"1959ĠniÃ¡nĠ":8062,"sÄ«ĠlÃ¡nĠ":8063,"ĠkÃ¨ĠlÄģĠ":8064,"ĠjiÄģngĠqÃŃĠ":8065,"zhÃŃĠyuÃ¡nĠ":8066,"ĠyÄ«ĠliÃ¡oĠ":8067,"tÇĲĠyÃ¹":8068,"xiÃłoĠyÃ¬ngĠ":8069,"ĠjiÃłoĠyÃ¹":8070,"ĠdÅįu":8071,"1967ĠniÃ¡nĠ":8072,"ĠyÄ«ĠcÃŃĠ":8073,"ĠqÃŃĠzhÅįngĠnÃ¡nĠxÃ¬ngĠ":8074,"dÇĲĠkÃłngĠ":8075,"ĠliÃºĠyÃ¹Ġ":8076,"gÇĶĠfÃ¨nĠyÇĴuĠxiÃłnĠgÅįngĠsÄ«Ġ":8077,"ĠMar":8078,"ĠhuÃ¡nĠ":8079,"yÃ¹nĠhÃ©Ġ":8080,"gÄĵĠdeĠ":8081,"huÃ¡iĠyÃŃĠ":8082,"guÄģĠ":8083,"ĠwÃ¨iĠcÇĲĠ":8084,"ĠdÃ¬ĠmiÃłnĠ":8085,"zhÇĲĠdÃ¬ngĠ":8086,"cÃ©ngĠshuÇĲĠyÃ¹Ġ":8087,"rÃ³ngĠnÃłĠ":8088,"zhuÃłnĠdeĠxiÇİoĠxÃŃngĠxÄ«ngĠ":8089,"cro":8090,"uĠ":8091,"ĠbÃło":8092,"ĠhÃ²uĠqÄ«Ġ":8093,"fÇİĠtÃŃngĠ":8094,"ĠkÃ¨ĠlÃ¡iĠ":8095,"jÃ¬ngĠsÃłiĠ":8096,"ĠĠĠpÃŃngĠjiÃłĠ":8097,"yÃ³uĠqÃŃĠ":8098,"gÄĵĠjÃ¹Ġ":8099,"liÃ¡ngĠshÃŃĠ":8100,"1935ĠniÃ¡nĠ":8101,"ĠshÃ¬ĠnÃ¨iĠ":8102,"yuÃ¨ĠnÃ¡nĠ":8103,"ĠdeĠdÃ¬ĠÃ¨r":8104,"mÃ²ĠsÄ«ĠkÄĵĠ":8105,"yÃ³uĠrÃ©nĠgÅįngĠ":8106,"zhÇİngĠwÃ¨iĠ":8107,"yÃ¡ngĠxiÃłnĠ":8108,"ĠshÃ¬ĠxÄ«Ġ":8109,"ĠyÄ«ĠzhÄ«Ġ":8110,"ĠshÃ¨ĠjÄ«Ġ":8111,"bÄģĠlÄģĠ":8112,"gÇİnĠlÇİn":8113,"ĠjiÃłnĠlÃ¬ĠleĠ":8114,"ĠlÇĲngĠ":8115,"ĠwÅ«ĠkÃ¨ĠlÃ¡nĠ":8116,"chÃ¡oĠdeĠ":8117,"tuÄ«ĠchÅ«ĠdeĠ":8118,"ruÇİnĠtÇĲĠ":8119,"ĠliÇİngĠgÃ¨Ġ":8120,"ĠĠĠchÃºĠleĠ":8121,"jiÃłoĠyÃºĠ":8122,"mÃ©nĠdeĠ":8123,"ĠshÃŃĠyÃ²ngĠ":8124,"zhÅįngĠxÄ«nĠ":8125,"ĠshuÇĲ":8126,"ĠsÃº":8127,"shÃ¹ĠshÃ¬Ġ":8128,"ĠjiÃłnĠwÃ¨iĠ":8129,"ĠchÃ¡oĠxiÄģnĠ":8130,"ĠÄĽrĠdÃ©":8131,"shuÃ²ĠshÃ¬ĠxuÃ©ĠwÃ¨iĠ":8132,"ĠqiÄģn":8133,"ĠĠĠs":8134,"biÄģnĠhÃłoĠwÃ¨iĠ":8135,"wÃ©iĠzhÇĲĠ":8136,"lÃŃĠziĠ":8137,"ĠjiÃ©ĠgÃ²uĠ":8138,"huÃ¡ĠshÃ¨ngĠdÃ¹n":8139,"Ġ11Ġ":8140,"ĠĠĠ3Ġ":8141,"zhÄ«ĠyuÃ¡nĠ":8142,"gÃ¨ĠdÃ¬Ġ":8143,"ĠhÃ©ĠjÃŃĠ":8144,"ĠzhÃ¬ĠzÃło":8145,"ĠyÄ«ĠtiÃ¡oĠ":8146,"kÄģiĠzhÇİnĠ":8147,"ĠqiÃºĠchÇİngĠ":8148,"qÃºnĠtÇĲĠ":8149,"leĠyÄ«ĠxiÄĵĠ":8150,"ĠgÅįngĠchÃ©ngĠshÄ«Ġ":8151,"ĠtuÄ«Ġ":8152,"ÄģĠÄĽr":8153,"wÃ¹ĠzhÅįngĠ":8154,"mÃ©ngĠjÅ«nĠ":8155,"bÇİiĠniÃ¡nĠ":8156,"luÃ³ĠbÃ³ĠtÃ¨Ġ":8157,"zÇĴngĠjiÄģnĠ":8158,"ĠzÃłiĠdÃ¬ĠÃ¨rĠ":8159,"pÃŃngĠjÅ«nĠhÇİiĠbÃ¡ĠgÄģoĠdÃ¹ĠwÃ¨iĠ":8160,"ĠĠĠjÄ«ngĠjÃ¬Ġ":8161,"zhÃŃĠlÃ¬Ġ":8162,"boĠ":8163,"ĠwÃ¨iĠmÃŃngĠ":8164,"ĠwÃ¨iĠyÃºĠzhÅįngĠhuÃ¡ĠrÃ©nĠmÃŃnĠgÃ²ngĠhÃ©ĠguÃ³Ġ":8165,"ĠrÃ©nĠmÃŃnĠbÃ¬Ġ":8166,"dÅ«ĠdÅ«Ġ":8167,"yÃ¡ngĠgÅįngĠ":8168,"bÃłnĠniÃ¡nĠ":8169,"ĠxÄ«ĠyÇĲnĠ":8170,"bÄĽnĠtÇĶĠ":8171,"fÇİĠlÃ¡nĠ":8172,"chuÃ¡nĠbÅį":8173,"jiÇİnĠdÄģnĠ":8174,"zhuÄģngĠjiÇİ":8175,"gÅįngĠkÄģiĠ":8176,"ĠyÇĴuĠlÃ¬Ġ":8177,"ĠtÄģĠyÄĽ":8178,"zhÇİngĠyuÄĵĠ":8179,"jiÄĵĠshÅįuĠ":8180,"miÃłnĠlÃŃnĠ":8181,"huÃłnĠzhÄĽĠ":8182,"ĠtÅįngĠguÃ²":8183,"ĠÃ©rĠgÄģiĠdÃ¬ĠdeĠpÃŃngĠjÅ«nĠhÇİiĠbÃ¡ĠgÄģoĠdÃ¹ĠwÃ¨iĠ":8184,"Ġr":8185,"ĠhÃ¡n":8186,"ĠyÅįuĠ":8187,"qÇĲĠleĠ":8188,"shÄ«ĠrÃ©nĠ":8189,"fÄĵngĠdeĠ":8190,"zÃºĠqiÃºĠduÃ¬Ġ":8191,"nÃŃĠxÄ«ĠyÃłĠ":8192,"12ĠniÃ¡nĠ":8193,"cÃ¹ĠjÃ¬n":8194,"hÇİnĠmÃ²":8195,"ĠzÃłiĠrÃ¬ĠbÄĽnĠ":8196,"lÃ¹ĠzhÃłnĠ":8197,"tÃºĠxiÃłngĠ":8198,"xÃºnĠhuÃ¡nĠ":8199,"ĠĠĠtiÄģnĠ":8200,"lÃ¬ĠzhÅįngĠ":8201,"1953ĠniÃ¡nĠ":8202,"2010ĠniÃ¡nĠmÄĽiĠguÃ³ĠrÃ©nĠkÇĴuĠpÇĶĠchÃ¡ĠdeĠshÃ¹ĠjÃ¹Ġ":8203,"ĠmÇİn":8204,"jÄ«ĠshÃ¬Ġ":8205,"chÅ«ĠdÃłoĠ":8206,"yÇİnĠchÅ«":8207,"yÃ¬ngĠduÃ¬Ġ":8208,"ĠzhÄ«ĠqiÃ¡n":8209,"yÇĲnĠzhÇĴngĠzÄģiĠpÃ©iĠ":8210,"ĠyÃºnĠnÃ¡nĠ":8211,"lÃłĠ":8212,"ĠdÃłĠqiÃ¡oĠ":8213,"dÃ²ngĠhuÃł":8214,"guÄ«ĠfÃłnĠ":8215,"shÄĽnĠchÃ¡Ġ":8216,"ĠxÃ¬ĠtÇĴng":8217,"fÄĵiĠlÇľĠbÄ«n":8218,"ĠĠĠ12":8219,"chÅ«ĠrÃ¨nĠ":8220,"shuÅįĠshÃ¬Ġ":8221,"hÇİnĠ":8222,"kmĠ":8223,"ĠjÃŃĠshÇĲ":8224,"suÇĴĠchÃ¹ĠdeĠhÇİiĠbÃ¡ĠwÃ¨iĠgÄģoĠyÃºĠhÇİiĠpÃŃngĠmiÃłnĠ":8225,"shÄĽngĠwÄĽiĠ":8226,"ĠxÄ«nĠzÄĵng":8227,"kÇİĠluÃ³ĠlÃ¡iĠ":8228,"yuÃ¡nĠdÃ¬Ġ":8229,"shÄĵnĠshÃłngĠ":8230,"1963ĠniÃ¡nĠ":8231,"ĠzÃłiĠbÄĽiĠ":8232,"ĠxÄ«ĠxÄ«Ġ":8233,"rÃ¹ĠqÄ«n":8234,"hÄĽnĠduÅį":8235,"ĠsuÃŃĠzhe":8236,"ĠsÃł":8237,"ĠqÇĲng":8238,"liÃ¨ĠshÃ¬Ġ":8239,"jÄ«ĠbÇİiĠ":8240,"wÃ©iĠÄĽr":8241,"xuÃ©ĠxÃŃ":8242,"ĠjÄ«ĠyÄ«nĠ":8243,"tÅįngĠxÃ¹nĠ":8244,"nÃłĠxiÄĵĠ":8245,"gÇİngĠkÇĴuĠ":8246,"zhÇİnĠkÄģi":8247,"yÇĴngĠjiÇĶĠ":8248,"fÄĵnĠbiÃ©ĠwÃ¨iĠ":8249,"yÃ³uĠrÃ©nĠgÅįngĠyÇĲnĠzhÇĴngĠzÄģiĠpÃ©iĠ":8250,"Ġb":8251,"qÃŃngĠxÃŃngĠ":8252,"1941ĠniÃ¡nĠ":8253,"qÃŃngĠxÃ¹Ġ":8254,"cÃ¨ĠliÃ¡ng":8255,"rÃ¨ĠdÃłiĠfÄĵngĠbÃłoĠ":8256,"cÃ¬ĠwÃ¨iĠ":8257,"zhÄĽngĠhÃ©Ġ":8258,"jÅ«ĠmÃŃnĠdiÇİnĠ":8259,"ĠlÇļ":8260,"ĠĠĠ2017ĠniÃ¡nĠ":8261,"jÃ¬ĠjÃŃĠ":8262,"gÇĴngĠ":8263,"ĠzhÄ«ĠfÇĶĠ":8264,"ĠshÃ¨ĠhuÃ¬":8265,"ĠhÃłnĠzÃºĠ":8266,"yÇĶĠshÃ¬Ġ":8267,"dÃ²ngĠgÅįngĠ":8268,"lÇĶĠkÃ¨Ġ":8269,"ĠbÃ¹ĠjiÄģĠ":8270,"ĠyÇĲĠshÃłngĠdeĠ":8271,"ĠyÇĶĠcÇĲĠtÃ³ngĠshÃŃĠ":8272,"mÇĲĠyÃłĠ":8273,"ĠzhÇĶĠchÃŃĠ":8274,"ĠxÇĶĠ":8275,"sÃ¬ĠmÃŃngĠ":8276,"00Ġ":8277,"bÄ«ngĠbÃ¹Ġ":8278,"tÄģiĠ":8279,"jiÃ¨ĠshÃło":8280,"ĠdeĠyÄ«ĠxiÄĵĠ":8281,"ĠsÅ«ĠliÃ¡nĠ":8282,"liÇİoĠjiÄĽ":8283,"xĠĠĠ":8284,"ĠÅįuĠzhÅįuĠ":8285,"guÃłiĠ":8286,"ĠsÄ«ĠkÇİĠ":8287,"shÇĴuĠxÃŃĠ":8288,"zÇĶĠchÃ©ng":8289,"dÇĲĠdÃ¡":8290,"gÃłoĠsÃ¹Ġ":8291,"chuÃłngĠbÃłnĠ":8292,"fÄģĠzhÇİnĠdeĠ":8293,"NBA":8294,"yÇĲĠhÃ²uĠ":8295,"yÃ¹ĠjÃ¬Ġ":8296,"duÃ¬ĠhÃ©Ġ":8297,"zhÇĲĠyÃºĠ":8298,"gÃ©ĠlÃ¬Ġ":8299,"dÄĵngĠjÃ¬Ġ":8300,"1969ĠniÃ¡nĠ":8301,"jÃ¹ĠqÃŃngĠ":8302,"ĠwÃ©iĠyÃłĠ":8303,"ĠzhÅįngĠguÃ³ĠdÃłĠlÃ¹ĠdeĠ":8304,"ĠzhÇĲĠchÅ«Ġ":8305,"xiÃłĠxiÃ¡ĠyÇĲĠxiÃłĠdÃ¬ĠqÅ«Ġ":8306,"ĠbÄģoĠ":8307,"chÅ«ĠshÄĵngĠ":8308,"liÃºĠdeĠ":8309,"yÇİnĠshÄĵngĠ":8310,"ĠzhÃ¬ĠliÃ¡o":8311,"dÃłĠshÇĲĠ":8312,"ĠxÄ«ĠÄģnĠ":8313,"zÄ«ĠzhÃ¹Ġ":8314,"fÄĵiĠfÇİĠ":8315,"5ĠgÃ¨Ġ":8316,"ĠwÃ¡nĠchÃ©ngĠ":8317,"ĠĠĠ2016ĠniÃ¡nĠ":8318,"bÃ¡iĠzhÃ¬Ġ":8319,"ĠjiÃłoĠshÃ²uĠ":8320,"zhuÃłngĠkuÃłng":8321,"ĠbÃ¬ĠyÃ¨ĠyÃºĠ":8322,"xÃºnĠyÃ¡ngĠjiÃłnĠ":8323,"fÄĵnĠzhÄ«ĠyÄ«Ġ":8324,"wÃ©nĠhuÃłĠdeĠ":8325,"ĠÃłoĠdÃłĠlÃ¬Ġ":8326,"xÄ«nĠjiÄģĠpÅįĠ":8327,"ĠĠĠjÃ¬Ġ":8328,"kÅįngĠjÅ«n":8329,"shÃ¹nĠshÃŃĠ":8330,"taĠ":8331,"ĠbÃ¹ĠbiÃłnĠ":8332,"ĠchÅ«ĠxÃŃĠ":8333,"wÄĵiĠxiÇİnĠ":8334,"ĠzhÃ¨ĠbÃ¹Ġ":8335,"ĠniÃ¡nĠ7ĠyuÃ¨Ġ1ĠrÃ¬Ġ":8336,"wÃ¨nĠtÃŃĠdeĠ":8337,"ĠjÃ¬nĠshÃ¬ĠchÅ«ĠshÄĵnĠ":8338,"ĠzhÃ¬ĠshÇİo":8339,"ĠxiÃłnĠrÃ¹Ġ":8340,"nÃ¡nĠfÄģngĠ":8341,"ĠbÃ¨iĠqÃŃĠ":8342,"ĠqÃŃĠzhÅįngĠnÃ¡nĠ":8343,"mÃ¡oĠzÃ©ĠdÅįngĠ":8344,"ĠpÃłiĠ":8345,"ĠĠĠ10ĠyuÃ¨Ġ":8346,"ziĠhÃ©Ġ":8347,"lÇĶĠshÃ¬Ġ":8348,"ĠbÃ¹ĠzhÃ¬Ġ":8349,"ĠdÃ¬ĠsÄ«Ġ":8350,"zÄ«ĠshÄĽngĠ":8351,"pÃŃnĠlÇľĠ":8352,"ĠtÄģng":8353,"ĠshÃ¨nĠ":8354,"1957ĠniÃ¡nĠ":8355,"ĠzhÅįngĠzuÃ¬Ġ":8356,"ĠjÃ¬ĠniÃłn":8357,"pÃłnĠjuÃ©Ġ":8358,"gÃ²ngĠchÇİnĠzhÇĶĠyÃ¬Ġ":8359,"Ġãĥ¼":8360,"ĠyÇĲĠsÃ¨ĠliÃ¨":8361,"ĠgÃłiĠ":8362,"ĠdÄĵngĠ":8363,"duÅįĠgÃ¨":8364,"qÇĶĠjiÄģĠ":8365,"jÃºĠjÃºĠzhÇİngĠ":8366,"Ġ15Ġ":8367,"âĪ":8368,"ĠlÃ¨iĠ":8369,"fÃ¡nĠzhÃŃĠ":8370,"zhÇĶĠchÇİngĠ":8371,"gÄģnĠsÃ¹Ġ":8372,"zÃ¬ĠxÃŃngĠchÄĵĠ":8373,"Ġ2005":8374,"ĠĠĠbÄĽiĠ":8375,"miÃ¡oĠhuÃ¬Ġ":8376,"ĠyÄ«ĠmÃ©iĠ":8377,"fÄĵnĠlÃ¨i":8378,"ĠpÃŃngĠjiÃłĠ":8379,"duÅįĠyÃłngĠ":8380,"ĠnÃ¡nĠbÄĽiĠ":8381,"shÃłoĠjiÃłngĠ":8382,"fÄĵiĠlÃ¬Ġ":8383,"xuÄĵĠ":8384,"ĠsÄ«ĠxiÇİngĠ":8385,"yÃ¡nĠzhÃ²ng":8386,"ÃłnĠzhÃłoĠ":8387,"dÄģngĠjÃºĠ":8388,"ĠshÃ¬ĠzhÅįngĠxÄ«nĠ":8389,"ĠdÄģnĠrÃ¨n":8390,"Ġi":8391,"ĠpÃ¡iĠ":8392,"ĠĠĠlÃ¬ngĠwÃłiĠ":8393,"hÃ²uĠshÃ¬Ġ":8394,"zhÃ¹ĠdÃ¬Ġ":8395,"yÇĲnĠshÃŃĠ":8396,"ĠshÃ¬ĠwÅ«ĠkÃ¨ĠlÃ¡n":8397,"ÄģiĠnÃłĠ":8398,"ĠgÅįngĠzuÃ²ĠshÃ¬Ġ":8399,"cÄģnĠmÃ³uĠzhÇİngĠ":8400,"xiÃłngĠxÄ«Ġ":8401,"zÃ©ĠyÇĴuĠ":8402,"Ã¨rĠzhÃłnĠ":8403,"bÇİoĠzhÃ¨ngĠ":8404,"niÃłng":8405,"ĠchÃ©ngĠshÃ¬ĠdeĠ":8406,"ĠzhÄ«ĠjÃ¬Ġ":8407,"ĠdÃłĠjiÄģĠ":8408,"ĠmÃŃngĠchÄĵng":8409,"ĠtÃ³ngĠyÄ«Ġ":8410,"jiÄģoĠhuÃłnĠ":8411,"ĠhÃ©ĠbÃ¬ngĠwÃ¨iĠ":8412,"Ġ80":8413,"Ġma":8414,"yÇĶĠyÇĲĠ":8415,"lÃŃngĠdeĠ":8416,"chuÃłnĠ":8417,"kÄĵĠfÅ«":8418,"dÄģngĠxuÇİn":8419,"ĠgÅįngĠkÄģiĠsÃłiĠ":8420,"hÅįngĠzhÃłĠ":8421,"RĠĠĠ":8422,"ĠxiÅįngĠ":8423,"suÃ¬ĠshÃŃĠ":8424,"liÇĶĠ":8425,"fÇİĠlÃ¬ngĠ":8426,"rÃ¹ĠxuÇİn":8427,"ĠzhÄĽngĠ":8428,"Ġ1998ĠniÃ¡nĠ":8429,"ĠĠĠ2006":8430,"zhÃ¨ĠbÃ¹Ġ":8431,"jÇĲĠhÃ©Ġ":8432,"ĠyÃºĠdÃ¬Ġ":8433,"shÄģngĠwÃ¡ngĠ":8434,"biÄģnĠjÃ¬ngĠ":8435,"guÇİngĠgÃło":8436,"wÃºĠrÃ©nĠjÄ«Ġ":8437,"ĠchÃ©ngĠshÃ¬Ġ":8438,"ĠĠĠzhÃ¹Ġ":8439,"cÃ¬ĠdÃłĠ":8440,"wÃłnĠrÃ©nĠ":8441,"shÄĵnĠzhÃ¨n":8442,"gÇİiĠshÃłn":8443,"1961ĠniÃ¡nĠ":8444,"ĠdÃ¬ĠguÃ³ĠdeĠ":8445,"ĠjiÃłnĠhÃ©Ġ":8446,"bÇİoĠcÃºnĠ":8447,"bÃłoĠzhÇĲĠ":8448,"gÇİiĠbiÄģnĠ":8449,"zÄĵngĠqiÃ¡ngĠ":8450,"qÃºnĠdeĠ":8451,"ĠzÃłiĠjÄ«Ġ":8452,"ĠfÄĵnĠbiÃ©ĠwÃ¨iĠ":8453,"jÄ«ĠbÃ¹Ġ":8454,"zhÄ«ĠmÃŃngĠ":8455,"rÃ¹ĠdeĠ":8456,"guÃ³ĠnÃ¨iĠ":8457,"ĠgÅįngĠzhÃłnĠ":8458,"ĠyÇĲĠnÃ¡nĠ":8459,"zÇĲĠnÇļĠ":8460,"luÃ²ĠdeĠ":8461,"ĠxÃŃngĠchÃ©ngĠdeĠ":8462,"qÅ«ĠfÄĵnĠ":8463,"bÄģĠfÃ¡":8464,"bÃłnĠyÇİnĠ":8465,"xiÃłnĠfÇİĠ":8466,"ĠzhuÄģnĠjÃŃĠ":8467,"ÄĽnĠ":8468,"huÃ²ĠshÃ¬Ġ":8469,"cÇĲĠzhÄ«ĠwÃłiĠ":8470,"wÃłiĠwÃ©iĠ":8471,"sÄ«ĠxiÇİngĠ":8472,"ĠdÃłĠshÄ«Ġ":8473,"ĠchÅ«ĠxiÃłnĠleĠ":8474,"miÃ¡oĠshÃ¹":8475,"ĠdeĠmÃŃngĠzÃ¬Ġ":8476,"ĠguÄģng":8477,"ĠAl":8478,"hÃ©ĠĠĠ":8479,"cÃ©ngĠshÃ¬Ġ":8480,"ĠdÃłnĠyÄ«nĠ":8481,"shÄģĠhÃłiĠ":8482,"zhÇĲĠhuÄ«ĠguÄģnĠ":8483,"xiÃłĠdeĠyÃŃĠgÃ¨Ġ":8484,"chuÃŃĠ":8485,"ĠdÃłĠzhÃ²ngĠ":8486,"shÃ²uĠhÃłiĠ":8487,"yÄ«ngĠguÃ³ĠdeĠ":8488,"Ġ20Ġ":8489,"wÃ©nĠzhÅįngĠ":8490,"bÅįĠÄĽrĠ":8491,"hÄĵngĠ":8492,"ĠyuÃ¨ĠtÃ¡i":8493,"ĠnÃ¡nĠjÄ«ngĠ":8494,"cÃ¡iĠwÃ¹Ġ":8495,"bÃ¬ngĠmÃ©iĠyÇĴuĠ":8496,"jiÃłoĠyÃ¹ĠbÃ¹Ġ":8497,"sti":8498,"gÃ²ngĠshÃŃĠ":8499,"ĠwÃ¨iĠyÃ³uĠ":8500,"miÃłnĠtÇĲĠ":8501,"yÃ¡nĠjiÅ«ĠyuÃłnĠ":8502,"nÃ²ng":8503,"Ġh":8504,"ĠyuÃ¡nĠshÇĲĠ":8505,"jÇĲngĠguÄģnĠ":8506,"6ĠgÃ¨Ġ":8507,"âĦ":8508,"ĠxiÃ¡Ġ":8509,"nuÃ²ĠsÄ«Ġ":8510,"1980ĠniÃ¡nĠdÃłiĠ":8511,"1944ĠniÃ¡nĠ":8512,"mÇİĠtÃ³uĠ":8513,"âĨĴ":8514,"ĠshÄĵngĠzhÇİngĠyÃºĠhÇİiĠbÃ¡":8515,"chÄĵngĠhÃłoĠ":8516,"ĠdeĠxiÇİoĠ":8517,"ĠzÃłiĠyÄ«ngĠguÃ³Ġ":8518,"shÇĲĠyÃ²ngĠleĠ":8519,"zhÇİnĠlÇİn":8520,"ĠfÄĵnĠbiÃ©ĠshÃ¬Ġ":8521,"gÄģoĠyuÃ¡nĠ":8522,"shÃ¨ngĠdÃ¬Ġ":8523,"ĠdÃłoĠshÃ¬Ġ":8524,"ĠdÃłĠxÃŃng":8525,"jÄ«ngĠyÃŃng":8526,"ĠniÇĶĠyuÄĵ":8527,"tÃ¡oĠyuÃ¡nĠ":8528,"oun":8529,"hÃ²uĠlÃ¡iĠ":8530,"pÃłnĠluÃłnĠ":8531,"ĠRo":8532,"ĠrÃ¨Ġ":8533,"mÇİĠdeĠ":8534,"diÇİnĠwÃ¨iĠ":8535,"ĠwÃ¨iĠbÃ¨iĠ":8536,"ĠyÃ¬Ġsi":8537,"ĠshÃłngĠshÅ«Ġ":8538,"ĠzhÃ¨ĠyÃłngĠdeĠ":8539,"hÃ¡ngĠyÃ¨Ġ":8540,"ĠxÄ«nĠjiÄģĠ":8541,"ĠchÅ«nĠ":8542,"ÃłiĠguÃ³Ġ":8543,"shÃłngĠyÄ«Ġ":8544,"31Ġ":8545,"qÃŃngĠjiÃ©Ġ":8546,"ĠmÃ¹ĠqiÃ¡nĠshÃłngĠwÃ¨iĠ":8547,"ĠwÅ«":8548,"Ġ2000":8549,"tÅ«ĠchÅ«Ġ":8550,"ĠhÃ©ĠfÇİĠ":8551,"ĠdÃłoĠbÃ¹Ġ":8552,"pÃŃngĠmÃŃnĠ":8553,"guÄģnĠfÃ¨iĠyÃ¡nĠ":8554,"ĠpÃŃngĠlÃ¹n":8555,"tuÃ¡nĠzhÇİngĠ":8556,"luÃ³ĠjÃŃĠ":8557,"ĠyÃ¬ĠmÃŃngĠ":8558,"ĠyÇĲĠshÃ¬Ġ":8559,"ĠmÇĲĠdeĠdÃ¬ĠqÅ«Ġ":8560,"ĠxiÃłnĠdeĠyÃŃĠgÃ¨ĠfÄĵiĠjiÃłnĠzhÃ¬ĠdÃ¬ĠqÅ«Ġ":8561,"tiÄģnĠjiÄģĠ":8562,"ĠyÃ¬ĠjÃŃĠ":8563,"jiÃłoĠshÃ²u":8564,"ĠzuÃ²ĠchÅ«":8565,"tiÄģnĠhuÃ¡ngĠ":8566,"fÃ¡ngĠzhÇĲĠ":8567,"dÃ²uĠzhÄĵngĠ":8568,"wÃ¹ĠzhÇĴngĠdeĠ":8569,"ĠbÇĶĠ":8570,"hÃ³ngĠjÅ«nĠ":8571,"ĠÄĽrĠzÃłiĠ":8572,"jÄ«ngĠguÃ²":8573,"ĠyÃłnĠ":8574,"kÄģĠfÄĵiĠ":8575,"ĠhÃ©ĠtÄģĠdeĠ":8576,"ĠyÇĶĠdÃłĠ":8577,"ĠrÃ¨nĠmÃ¬ng":8578,"sÄģiĠnÃłĠ":8579,"ĠpÃ©iĠ":8580,"lÃ¡iĠsÄ«Ġ":8581,"hÇİoĠyÇĴuĠ":8582,"1940ĠniÃ¡nĠ":8583,"zuÃ²ĠchÅ«":8584,"chÃ¡ngĠqÄ«":8585,"lÇĲngĠyÃ¹":8586,"ĠzhÅįngĠgÃ²ngĠzhÅįngĠyÄģng":8587,"ĠgÇİiĠwÃ©iĠ":8588,"miÃłnĠshÃ¬Ġ":8589,"chÃ³uĠbÃ¨iĠ":8590,"xiÇİngĠfÇİĠ":8591,"yuÃ¡nĠzhÅįngĠ":8592,"ĠyuÃ¡nĠzÃ©Ġ":8593,"ĠzhÄ«ĠchÃ¹Ġ":8594,"dÅįngĠnÃŃĠ":8595,"pÇĲnĠpÃ¡i":8596,"mÃ¬ngĠlÃ¬ng":8597,"gÇİnĠrÇİn":8598,"ĠĠĠ2021ĠniÃ¡nĠ":8599,"nÃŃĠdeĠ":8600,"dÃłiĠlÃ¡iĠ":8601,"ĠdÄģngĠxuÇİn":8602,"ĠnÃŃngĠ":8603,"Ġ1999ĠniÃ¡nĠ":8604,"fÃºĠÄĽrĠ":8605,"hÃ¡ngĠxiÃłnĠ":8606,"ĠjÄ«ĠdÅ«ĠjiÃłoĠ":8607,"ĠtÃ³ngĠrÃ¬Ġ":8608,"ĠxÃŃngĠzhÃ¨ngĠzhÃ¨nĠqÅ«Ġ":8609,"ĠdeĠlÇĲĠ":8610,"ĠdeĠxÄ«Ġ":8611,"ĠshÃ¬ĠnÃ¡nĠjÃŃĠzhÅįuĠdeĠ":8612,"xiÅ«ĠgÇİi":8613,"ĠmÃŃn":8614,"ĠĠĠX":8615,"ĠĠĠsuÃŃĠ":8616,"ĠwÃ¨iĠqÃŃĠ":8617,"ĠhÃ©ĠdÃło":8618,"lÃ¬ĠyÃ²ngĠ":8619,"ĠshÃŃĠdÃłiĠdeĠ":8620,"shÄ«ĠbÃłi":8621,"ĠzuÃ²ĠbiÄģoĠwÃ¨iĠ":8622,"xÃ¬ngĠbiÃ©Ġ":8623,"chÃ¡ngĠjiÄģngĠ":8624,"dÃ¬ngĠzÃłiĠ":8625,"âĢ§":8626,"ĠbÃ¹ĠdÃ©Ġ":8627,"fÃºĠhÃłoĠ":8628,"qÃ¬ĠtÇĲĠ":8629,"chÇİnĠyÃ¨":8630,"shÄģngĠdiÃłnĠ":8631,"ĠdÃ¬ĠÃ¨rĠcÃ¬Ġ":8632,"ÃłoĠsÄ«ĠkÇİĠ":8633,"ĠwÃ©i":8634,"ÄĵĠ":8635,"ĠĠĠÃ©r":8636,"huÃ¬ĠjÃŃĠ":8637,"zuÃ²ĠzhÅįngĠ":8638,"pÇĲnĠzhÃ¬Ġ":8639,"bÄ«nĠshÃ¬Ġ":8640,"1951ĠniÃ¡nĠ":8641,"ĠgÅįngĠjÄ«nĠ":8642,"ĠtÃºn":8643,"ĠĠĠzhÇĶĠyÃłoĠ":8644,"gÄĵĠÄĽrĠ":8645,"rÃ¹nĠ":8646,"chÇİngĠjÇĲngĠ":8647,"chÄĵngĠwÃ©i":8648,"ĠzuÃ¬ĠchÅ«":8649,"shÃ¨ĠhuÃ¬ĠzhÇĶĠyÃ¬Ġ":8650,"dÃłngĠÃłnĠ":8651,"yÃŃngĠdÃ©ĠleĠ":8652,"Ġ1990":8653,"ĠgÅįngĠzuÃ²ĠdeĠ":8654,"ĠyÇĶĠzhÃ²u":8655,"ĠzhÃ¨ĠcÃ¬Ġ":8656,"ĠniÃ¡nĠ12ĠyuÃ¨Ġ31ĠrÃ¬Ġ":8657,"yÃ¹ĠdÃłoĠ":8658,"zhÃłnĠzhÃ¬Ġ":8659,"zhÃłnĠjÃ¬Ġ":8660,"jiÄĵĠjÃ¬n":8661,"wÇĶĠmÃŃngĠ":8662,"chÇİngĠshÃłngĠ":8663,"dÇĲĠzhÃ¬Ġ":8664,"jiÄĵĠchÃ¹":8665,"ĠsÄģnĠshÃŃĠ":8666,"niÇİoĠlÃ¨iĠ":8667,"dÅįngĠxiÃłnĠ":8668,"ĠbÃ¹ĠÄĽr":8669,"ĠzhÃ¬ĠdÃ¬ngĠ":8670,"wÇĶĠqÃ¬":8671,"liÃ¨ĠrÃ¹":8672,"jÄ«ngĠjÃ¬ĠxuÃ©Ġ":8673,"lÃ¨iĠsÃ¬ĠyÃºĠ":8674,".&":8675,"ĠĠĠzhÃłnĠ":8676,"zhÅįngĠshÃ¬ĠjÃ¬Ġ":8677,"dÃ²ngĠyuÃ¡nĠ":8678,"fÄĵnĠchÃ©ngĠ":8679,"kuÃ²ĠzhÄģngĠ":8680,"nÃłnĠmÃŃnĠ":8681,"32Ġ":8682,"ĠmÃŃngĠzÃ¬Ġ":8683,"rÃ©nĠmÃŃnĠdÃłiĠbiÇİoĠdÃłĠhuÃ¬Ġ":8684,"ĠyÃ¡oĠ":8685,"ĠjÄ«ĠxiÃ¨Ġ":8686,"jÃ¹ĠfÄĵngĠ":8687,"yÃ¡nĠjiÅ«ĠsuÇĴ":8688,"jiÄģngĠsÅ«ĠshÄĽngĠ":8689,"fÃºĠdÃ©Ġ":8690,"yÇĲnĠlÃ¬Ġ":8691,"ĠxiÃłnĠdÃłi":8692,"ĠĠĠduÃ¬ĠyÃºĠ":8693,"jiÇİngĠdeĠ":8694,"codi":8695,"1930ĠniÃ¡nĠ":8696,"ĠtÄģĠshuÅįĠ":8697,"zhÃ²ngĠzhÃŃĠ":8698,"5ĠgÅįngĠlÇĲĠ":8699,"Ġe":8700,"dÃ¡ĠdeĠ":8701,"nÃºĠ":8702,"ĠzhÅįngĠshÅ«Ġ":8703,"hÃ²uĠxuÇİnĠrÃ©nĠ":8704,"yÃ¡nĠshÄĵnĠ":8705,"ĠdÃłnĠbÃ¹Ġ":8706,"ĠwÃ©iĠzhÇĲĠ":8707,"zhÅ«ĠlÃ³ngĠ":8708,"mÃ¹ĠsÄ«ĠlÃŃnĠ":8709,"Ġ36":8710,"Ġ1ĠyuÃ¨Ġ":8711,"ĠĠĠkÃ¨Ġ":8712,"fÄģngĠchÃ©ngĠ":8713,"chÄĵĠdÃłoĠ":8714,"sÅ«ĠlÇĲĠ":8715,"ceĠĠĠ":8716,"chÃ¨nĠ":8717,"shÄĵngĠmÃŃngĠ":8718,"bÄģnĠfÄģĠ":8719,"gÃ¨ngĠduÅį":8720,"hÃłiĠÃ©":8721,"ĠniÃºĠ":8722,"zÅ«ĠjiÃ¨Ġ":8723,"ĠjiÄģĠjÃ¬ngĠ":8724,"zhÃ¹ĠcÃ¨Ġ":8725,"ĠyÃ³uĠyÇĴngĠ":8726,"dÄĽngĠzhÃŃĠ":8727,"ĠchÄģo":8728,"rÃ©nĠwÃ¨iĠ":8729,"duÃ¬ĠyÇĴuĠ":8730,"tÇĲĠxÃŃngĠ":8731,"chÄĵngĠzhÄ«ĠwÃ¨iĠ":8732,"yÄĵĠsÅ«":8733,"ĠjÄ«ĠchÇĶĠ":8734,"ĠchÅ«ĠshÄĵnĠ":8735,"fÄĵnĠqÅ«Ġ":8736,"bÇİoĠcÃºn":8737,"lÇĲngĠxiÃ¹":8738,"ĠtÃłiĠyÃ¡ngĠ":8739,"gÃ²ngĠhÃ©ĠguÃ³ĠdeĠ":8740,"ĠwÃ¨iĠfÃºĠqÃŃĠyÃºĠgÄģng":8741,"shÇĲĠzhÅįngĠ":8742,"lÇİngĠdÃ©Ġ":8743,"90ĠniÃ¡nĠ":8744,"ĠchÅ«ĠrÃ¹ĠkÇĴuĠ":8745,"tÅįngĠxÃ¬nĠ":8746,"yÃ¡nĠjiÅ«ĠyuÃ¡nĠ":8747,"xiÃ©ĠtiÃ¡o":8748,"huÇĴĠbÃłnĠ":8749,"ĠshÃ¬ĠdÃ¬ĠyÄ«Ġ":8750,"ĠcÃ©ngĠzÃłiĠ":8751,"ĠbÃ¬ngĠqiÄĽĠzÃłiĠ":8752,"jÇĲnĠbiÄģoĠsÃłi":8753,"ĠJR":8754,"ĠshÃ²uĠdÃłoĠ":8755,"ĠxiÃ³ngĠ":8756,"ÃłiĠdÃ©ĠhuÃ¡Ġ":8757,"xiÃłnĠshÃŃĠ":8758,"chuÇİng":8759,"bÄģnĠbÃ¹Ġ":8760,"hÃ¡ngĠzhÅįuĠ":8761,"jiÃłoĠzuÃ²Ġ":8762,"nÇļĠyÇİnĠyuÃ¡nĠ":8763,"kÇİoĠgÇĶĠ":8764,"miÃłnĠjÄ«ĠhÃ©Ġ":8765,"zuÃ¬ĠzÇİoĠdeĠ":8766,"guÄ«ĠmÃ³ĠdeĠ":8767,"pÃ¡iĠdÃ©ĠzhÇĶĠ":8768,"bÄ«ngĠlÃ¬Ġ":8769,"1931ĠniÃ¡nĠ":8770,"ĠjiÄģĠmÃ©ngĠ":8771,"mÇİĠlÃ¡iĠ":8772,"chÃ¨ĠdÇĲĠ":8773,"xÄ«ĠyuÃ¡nĠ":8774,"quÃ¡nĠxiÃłnĠ":8775,"qÇĲĠdeĠ":8776,"bÃłiĠzhÃłnĠ":8777,"rÃ©ngĠyÇĴuĠ":8778,"ĠchÃ©ngĠxÃ¹":8779,"ĠjiÃłnĠyÇĴuĠ":8780,"shÇĴuĠduÃłnĠ":8781,"fÄĵnĠlÃŃĠ":8782,"ĠqÃ¬":8783,"ĠpiÃłnĠ":8784,"chÃ©ngĠzÃłiĠ":8785,"quÃ¡nĠqiÃº":8786,"zÃºĠrÃ©nĠ":8787,"ĠzhÅįngĠfÄģĠxiÃłnĠ":8788,"shÇĴuĠfÇĶĠ":8789,"zÃºĠxiÃ©Ġ":8790,"zÄģoĠshÃ²uĠ":8791,"ĠzhÅįngĠguÃ³ĠgÃ²ngĠchÇİnĠdÇİng":8792,"ĠĠĠ2015ĠniÃ¡nĠ":8793,"jiÄģngĠshÃ¬Ġ":8794,"amĠ":8795,"jiÄģoĠchÄģĠ":8796,"ĠgÄģiĠdÃ¬ĠdeĠ":8797,"ĠgÅįngĠyuÃ¡nĠqiÃ¡nĠ":8798,"ĠdÃ¬ĠshÃŃĠyÄ«Ġ":8799,"ĠdÃ¡":8800,"ĠnĠ":8801,"ĠĠĠfÃºĠ":8802,"yÇĲĠshÃłngĠ":8803,"hÃłnĠyÇĶĠ":8804,"1933ĠniÃ¡nĠ":8805,"ĠwÃ¨iĠzhÅįngĠguÃ³Ġ":8806,"ĠhÃ©ĠlÃ¡n":8807,"ĠqiÃºĠyÃ¹nĠdÃ²ngĠyuÃ¡nĠ":8808,"tÃŃĠgÅįngĠdeĠ":8809,"ÃłiĠqÃŃngĠ":8810,"miÇİnĠdiÄģnĠ":8811,"tuÃ¬ĠxiÅ«":8812,"ĠlÃ¬ngĠyÃ¬ĠfÄģngĠmiÃłnĠ":8813,"ĠbÃ¹ĠdÃ©ĠbÃ¹Ġ":8814,"ĠmÃ¹ĠqiÃ¡nĠshÃłngĠwÃ¨iĠyÃ³uĠrÃ©nĠgÅįngĠyÇĲnĠzhÇĴngĠzÄģiĠpÃ©iĠ":8815,"ĠĠĠ1":8816,"jiÄģnĠzhÃ¬Ġ":8817,"huÃ¡ĠdÃłĠxuÃ©Ġ":8818,"cÃ¡iĠchÇİnĠ":8819,"wÃ¹ĠlÇĲĠxuÃ©Ġ":8820,"ÃłnĠzhÅįngĠ":8821,"ĠĠĠ4ĠyuÃ¨Ġ":8822,"fÄĵnĠwÃ¨iĠ":8823,"tÃ³uĠdeĠ":8824,"1928ĠniÃ¡nĠ":8825,"ĠzhÃ¨ĠyÄĽĠshÃ¬Ġ":8826,"gÇİnĠjuÃ©Ġ":8827,"ĠMi":8828,"diĠ":8829,"wÇİngĠdeĠ":8830,"hÃłnĠzÃ¬Ġ":8831,"mÃ³uĠshÄģĠ":8832,"ĠzÃłiĠgÅįngĠ":8833,"ĠjiÃłnĠzÃło":8834,"ĠyÄ«nĠdeĠ":8835,"bÃłoĠzhÃł":8836,"dÇİoĠyÇİn":8837,"ĠDĠ":8838,"ĠxÄ«ĠbÄģnĠyÃ¡ĠyÇĶĠ":8839,"yuÃ¡nĠshÃŃĠ":8840,"jÄ«nĠrÃ¬Ġ":8841,"lÃŃnĠsÄ«Ġ":8842,"rÃłngĠtÄģĠ":8843,"mÄģoĠ":8844,"New":8845,"xuÃ©ĠshÄĵng":8846,"ĠfÄĵnĠwÃ©iĠ":8847,"kÇİĠluÃ³ĠlÃ¡iĠnÃł":8848,"ĠqiÅ«":8849,"fÇİĠshÃ¬Ġ":8850,"1942ĠniÃ¡nĠ":8851,"ĠjÃŃĠyÄ«Ġ":8852,"ĠchÅ«ĠyÄ«Ġ":8853,"fÃ¹ĠyÇĴuĠ":8854,"tÃ¨ĠhÃ©Ġ":8855,"tÃłiĠhÃ²uĠ":8856,"zhÅįngĠbÃ¹Ġ":8857,"ĠdÃłĠyuÄĵ":8858,"shÄĵngĠtÃłiĠ":8859,"wÄĽiĠyuÃ¡nĠhuÃ¬ĠdeĠ":8860,"qiÄģnĠshÇĶ":8861,"ĠwÃ©nĠhuÃł":8862,"ĠdÄģngĠxuÇİnĠ":8863,"ĠzhÃ¬ĠzuÃ²ĠrÃ©nĠ":8864,"xiÃłĠxiÃ¡ĠdeĠyÃŃĠgÃ¨ĠxiÄģngĠ":8865,"nÃ¡nĠsÄ«ĠlÄģĠ":8866,"gÃłnĠxiÃłnĠ":8867,"ĠshÃ¬ĠnÃ¡nĠ":8868,"yÃ¡nĠchÃ¡ng":8869,"shuÇĲĠkÃ¹Ġ":8870,"zÃºĠzÃ¬ĠzhÃ¬Ġ":8871,"biÄģnĠmÇİĠ":8872,"xÃ¹ĠshÃ¹Ġ":8873,"ĠnÃ¨i":8874,"ĠwÄĵn":8875,"ziĠgÅįngĠsÄ«Ġ":8876,"ĠyuÃ¨ĠtuÃ¡n":8877,"ĠyÃ¬ĠdiÇİnĠ":8878,"duÃ¬ĠwÃłiĠ":8879,"qÇĲĠsÃ¹Ġ":8880,"zhÃ²ngĠdiÇİn":8881,"Ġ34":8882,"ĠkÅįngĠ":8883,"jÃ¬ĠyÃºĠ":8884,"tÃ¨ĠjÃŃĠ":8885,"1943ĠniÃ¡nĠ":8886,"ĠshÃ¬ĠxiÄģngĠgÇİngĠ":8887,"shÄĵnĠzhÃ¨nĠ":8888,"ĠmÇİĠlÃ¡iĠxÄ«ĠyÃłĠ":8889,"Ġ2025":8890,"ĠrÃ¨nĠhÃ©Ġ":8891,"mÃ¹ĠshÃ¬Ġ":8892,"biÄģnĠchÃ©ngĠ":8893,"ĠzÃłiĠnÃ¡nĠ":8894,"ĠhÃ©ĠtÃ³ngĠ":8895,"shÃłngĠshÃ¹Ġ":8896,"ĠhuÃ¬ĠbÃ¨iĠ":8897,"wÇĶĠhÃłn":8898,"dÃ¬ngĠqÄ«Ġ":8899,"gÇİiĠwÃ©i":8900,"ĠsuÃŃĠzheĠ":8901,"ĠĠĠgÃ¨ĠrÃ©nĠshÄĵngĠhuÃ³Ġ":8902,"ĠtÃ²uĠguÃ²Ġ":8903,"ĠkÄģngĠxÄ«Ġ":8904,"jÃ¬nĠjÃŃĠ":8905,"fÃ¹ĠzhÃ¬Ġ":8906,"ĠshÃ¬ĠgÃ¨Ġ":8907,"sÄģnĠcÃ¬Ġ":8908,"bÅįĠfÃłng":8909,"cÃ¨ĠlÃ¼Ã¨Ġ":8910,"ĠjÃ¬ĠsuÃłnĠjÄ«Ġ":8911,"fÄĽng":8912,"ĠzhÇĶ":8913,"ĠjiÇİoĠ":8914,"ĠĠĠ7ĠyuÃ¨Ġ":8915,"zhÃłnĠwÃ¨iĠ":8916,"rÃ¹ĠwÃ©iĠ":8917,"qÃ¬ĠrÃ©nĠ":8918,"xiÃ©ĠdÃłiĠ":8919,"wÃ²ĠÄĽrĠ":8920,"tÃłnĠsuÇĴĠ":8921,"cÅ«Ġ":8922,"duÃ¬ĠxiÃłngĠ":8923,"miÃ¡oĠshÃ¹ĠwÃ¨iĠ":8924,"ĠhÄģĠÄĽrĠ":8925,"Ġà¸":8926,"codiceĠ":8927,"ĠCD":8928,"ĠfÇİnĠduÃ¬Ġ":8929,"ĠyÄģoĠqiÃº":8930,"chÇİo":8931,"shÃ¹ĠhÃ©Ġ":8932,"mÄĽiĠrÃ¬Ġ":8933,"shÇĴuĠbÃ¹Ġ":8934,"shÄ«ĠhÃ©Ġ":8935,"xiÅ«ĠsÄ«Ġ":8936,"sÇİoĠ":8937,"xÃ¬ĠliÃ¨ĠdeĠ":8938,"tÃ¡iĠbÃ¬Ġ":8939,"bÄģnĠcÃ¬Ġ":8940,"ĠdeĠjÄ«ĠhuÃ¬Ġ":8941,"JĠ":8942,"jiÇĴng":8943,"ĠĠĠdÅįngĠ":8944,"zhuÇİnĠwÃ©iĠ":8945,"Station":8946,"ĠguÃ³ĠgÅįngĠ":8947,"ĠyuÃ¡nĠyÇĴuĠ":8948,"ĠgÃ¨ĠdÃłĠ":8949,"ĠkÃ¨ĠlÇĲĠsÄ«Ġ":8950,"dÃ²ngĠchÄĵĠ":8951,"zhÇĶĠchÃŃĠrÃ©nĠ":8952,"âĦĥ":8953,"2ĠmÇĲĠ":8954,"Ġy":8955,"ĠĠĠ2020ĠniÃ¡nĠ":8956,"juÃ©ĠleĠ":8957,"bÄĵnĠ":8958,"ĠbÃ¹ĠzhÃ¨ngĠ":8959,"ĠlÃ¬ĠkÃ¨Ġ":8960,"ĠgÅįngĠkÄģi":8961,"lÃ¹ĠshÃłngĠ":8962,"mÃŃnĠjÃ¬nĠ":8963,"guÄ«ĠhuÃł":8964,"mÃ²ĠsÄ«ĠkÄĵ":8965,"Ġ22":8966,"ÄģnĠrÃ©nĠ":8967,"ĠĠĠzhÃ¬ĠzuÃ²Ġ":8968,"fÅ«ĠfÃ¹Ġ":8969,"zhuÃłngĠbÃ¬ngĠdÃº":8970,"rÄĽnĠ":8971,"ĠchÃ©ngĠbÇİoĠ":8972,"qÃŃĠshÃ¬Ġ":8973,"bÃ¨iĠshÃ¬Ġ":8974,"nÃłĠsÄ«Ġ":8975,"hÃ¡ngĠzhÃłnĠ":8976,"yÃŃĠmÃŃn":8977,"jiÃłnĠzÃłoĠ":8978,"tÃ¡iĠwÄģnĠdeĠ":8979,"pÄ«ĠpÃŃng":8980,"ĠĠĠxiÄģngĠgÇİngĠ":8981,"jÄ«ngĠdeĠ":8982,"dÅįngĠdeĠ":8983,"oog":8984,"ĠdÃ¬Ġ2Ġ":8985,"zhÃ¨ngĠquÃ¡nĠ":8986,"qÅ«ĠjiÄģnĠ":8987,"ĠgÃ¨ĠzÃ¬Ġ":8988,"zuÇĴĠyÃ²u":8989,"jiÃ¹ĠdÃºĠyÃºĠ":8990,"ĠfÄģ":8991,"ĠniÃ¡nĠniÃ¡nĠ":8992,"ĠchÃ©ngĠwÃ©iĠyÄ«Ġ":8993,"ĠxiÄģngĠdÄģngĠ":8994,"ĠyÇĴuĠyÄ«ĠxiÄĵĠ":8995,"kuÃ²ĠzhÇİnĠ":8996,"kÄĵĠÄĽrĠ":8997,"ĠzhÅįngĠzhÇĲĠ":8998,"ĠguÃ³ĠyÇĶĠ":8999,"kÄģiĠmÃ¹Ġ":9000,"bÄģĠnÃ¨n":9001,"dÃºĠtÃ¨ĠdeĠ":9002,"fÃłnĠwÃ©i":9003,"ĠguÃ³ĠmÃŃnĠdÇİngĠ":9004,"ĠgÃ¹ĠshÃ¬Ġ":9005,"ĠĠĠ2014ĠniÃ¡nĠ":9006,"jÇĲĠniÃ¡nĠ":9007,"wÃºĠÄĽrĠ":9008,"ĠdÃ¬Ġ2":9009,"mÃŃnĠzhÇĶ":9010,"zhÃ¨ĠzhÇĴng":9011,"ĠzhÃłnĠlÇĲngĠ":9012,"tiÄģnĠtÃ¡ngĠ":9013,"jiÇİngĠzuÃ¬ĠjiÄģĠ":9014,"qiÃºĠduÃ¬":9015,"3000":9016,"xiÃłnĠxiÃłngĠ":9017,"ĠhuÃ¬ĠshÃłngĠ":9018,"fÄĵngĠgÃ©":9019,"tÃ³ngĠyÃłng":9020,"xiÃ©ĠshÄģngĠ":9021,"huÃ³ĠdÃ²ngĠdeĠ":9022,"ĠbiÇİoĠ":9023,"ĠĠĠlÄģĠ":9024,"ĠĠĠ6Ġ":9025,"ĠĠĠ2010ĠniÃ¡nĠ":9026,"yÃ¬nĠxiÃłngĠ":9027,"ĠmÃŃngĠxÄ«ngĠ":9028,"diÃłnĠchÄĵĠ":9029,"ĠqiÃ¡nĠlÃ³ngĠ":9030,"cuÄ«ĠhuÇĲ":9031,"ĠpÃŃ":9032,"ĠshÇİnĠxÄ«Ġ":9033,"shÅ«ĠshÃ¬Ġ":9034,"jiÅ«Ġ":9035,"ĠzÃłiĠyuÃ¡nĠ":9036,"ĠrÃ¬ĠqÄ«Ġ":9037,"nÃ¨iĠmÃ©ngĠgÇĶĠ":9038,"fÇĶĠzhÃ¹Ġ":9039,"Ġ38":9040,"ĠĠĠPro":9041,"ĠĠĠ8ĠyuÃ¨Ġ":9042,"ĠdÃ¬ĠbÄģĠ":9043,"ĠjÃŃĠyÇĲĠ":9044,"ĠqÃŃĠbÄ«ngĠ":9045,"lÇĲngĠxiÄģnĠ":9046,"Ġ55":9047,"pÇĲnĠdeĠ":9048,"olo":9049,"1912ĠniÃ¡nĠ":9050,"ĠzhÅįuĠrÃ©nĠ":9051,"zhÃłoĠpiÄģn":9052,"ĠtÇİ":9053,"ĠĠĠsuÄ«ĠrÃ¡nĠ":9054,"chuÄģnĠyuÃ¨Ġ":9055,"thĠĠĠ":9056,"xÄ«ĠwÃłngĠ":9057,"shÄĵngĠmÃ¬ngĠ":9058,"jÃ¬nĠzhÇĲĠ":9059,"cÄģiĠ":9060,"Ġ75":9061,"ĠlÃ¡oĠ":9062,"Ã¨ĠÄĽrĠ":9063,"ĠĠĠ15":9064,"lÃ¹ĠyÇĶĠ":9065,"dÃłĠxuÃ©":9066,"ĠrÃ¬ĠyÃ¬Ġ":9067,"yÃ³uĠtÃłiĠ":9068,"tÃ¨ĠqÅ«Ġ":9069,"ĠbÃ¬ngĠbiÇİoĠshÃ¬Ġ":9070,"zuÃ¬ĠduÅįĠdeĠ":9071,"chÇİngĠbÇĲĠsÃłiĠ":9072,"ĠtÃ¨ĠbiÃ©Ġ":9073,"ĠdÃŃ":9074,"ĠcÇİiĠ":9075,"jiÃłoĠkÄĵĠ":9076,"bÃłnĠyÇİn":9077,"ĠhÃ©ĠliÃºĠyÃ¹Ġ":9078,"ĠhuÄģ":9079,"cho":9080,"chÃ©ngĠshÃŃĠ":9081,"gÃ©ĠsÄ«Ġ":9082,"verĠ":9083,"ĠshÃ¬ĠyuÃ¡nĠ":9084,"jÃ¹ĠdÃłĠdeĠ":9085,"bÇİoĠzhÃłng":9086,"jiÄĵĠwÃ¨iĠzhÄ«Ġ":9087,"ĠshÃ¬ĠyÃŃĠgÃ¨ĠwÃ¨iĠyÃºĠmÄĽiĠguÃ³Ġ":9088,"miÃłnĠjÄ«ĠhÃ©ĠrÃ©nĠkÇĴuĠ":9089,"ĠØ":9090,"ĠcÃŃ":9091,"fÄģngĠwÃ¨iĠ":9092,"cÇĲĠshÃ¬Ġ":9093,"jÅ«ĠyÃºĠ":9094,"1929ĠniÃ¡nĠ":9095,"ĠtÄģĠjiÄģngĠ":9096,"zÇĴngĠjÄ«ngĠlÇĲĠ":9097,"kÇİĠlÄģĠ":9098,"ĠtÃ³ngĠshÃŃĠyÄĽĠ":9099,"hÃ¨ĠsÃ¨Ġ":9100,"Ġ90":9101,"xiÄģngĠdeĠ":9102,"duÅįĠmÃŃngĠ":9103,"bÅįĠchÅ«":9104,"jiÇİĠjÄ«Ġ":9105,"shÃłngĠxiÃłĠ":9106,"fÄĵnĠlÃ¡nĠ":9107,"huÃ¡ngĠjÄ«n":9108,"ĠfÄĵng":9109,"ĠlÃº":9110,"ĠĠĠmÃ¹ĠqiÃ¡nĠ":9111,"wÃ¡ngĠhÃ²uĠ":9112,"bÅįĠlÃ¬Ġ":9113,"nÃºĠlÃ¬Ġ":9114,"dÇĶĠ":9115,"1927ĠniÃ¡nĠ":9116,"ĠchÅ«ĠrÃ¨n":9117,"ĠjÅ«nĠguÄģnĠ":9118,"ĠqÃŃĠzhÅįngĠyÇĴuĠ":9119,"mÃŃĠnÇĲĠ":9120,"hÃ¡ngĠkÅįngĠgÅįngĠsÄ«Ġ":9121,"ĠgÄģiĠdÃ¬ĠdeĠmiÃłnĠjÄ«ĠhÃ©ĠrÃ©nĠkÇĴuĠ":9122,"ĠgÄģiĠdÃ¬ĠdeĠmiÃłnĠjÄ«ĠhÃ©ĠrÃ©nĠkÇĴuĠjiÄĵĠwÃ¨iĠzhÄ«Ġ":9123,"ĠĠĠst":9124,"yuÃ¨ĠhÃ©Ġ":9125,"qÅ«ĠjÃŃĠ":9126,"diÅ«":9127,"zhÃ¹ĠzhÃ¡i":9128,"jiÃłnĠkÄģngĠ":9129,"hÃłnĠlÃŃnĠ":9130,"ĠzhÃ¬ĠlÃ¬ĠyÃºĠ":9131,"ĠLe":9132,"yÃŃĠjÃ¬Ġ":9133,"dÄģnĠxÄ«nĠ":9134,"zhÄģngĠdeĠ":9135,"dÃłiĠbÇĶĠ":9136,"gÄģoĠdÄĽng":9137,"bÇİnĠbÄĽnĠdeĠ":9138,"fÃ¹ĠyÇĶĠ":9139,"zÃºĠyÇĲĠ":9140,"tÃ¡ngĠdeĠ":9141,"ĠshÃŃĠyuÃ¨Ġ":9142,"ĠyÄ«ĠtiÄģnĠ":9143,"dÄģnĠdÇİĠ":9144,"shÄģngĠpÇĲnĠ":9145,"tuÃ¡nĠjiÃ©Ġ":9146,"ĠyÄ«nĠcÇĲĠzÃłiĠ":9147,"bÇĲĠÄĽrĠ":9148,"yÄ«ngĠjÅ«nĠ":9149,"jiÃ¹ĠyÇĴuĠ":9150,"xiÇİngĠdeĠ":9151,"guÃ³ĠfÃ¡ng":9152,"ĠchÅ«ĠxiÃłn":9153,"ĠjiÄģĠrÃ¹ĠleĠ":9154,"huÃ¬ĠyÃ¬ĠshÃłngĠ":9155,"cÃºnĠzÃłiĠyÃºĠ":9156,"ĠhuÃ¡i":9157,"sÄģnĠwÃ¨iĠ":9158,"diÇİnĠxÃŃngĠdeĠ":9159,"biÄģoĠjÃ¬Ġ":9160,"ari":9161,"ĠyÄ«ĠchÃ¡ngĠ":9162,"ĠdÃ©ĠlÃ¬Ġ":9163,"ĠdÃłiĠlÃ¡iĠ":9164,"yÃŃĠzhÇĲ":9165,"2ĠĠĠ":9166,"ĠcÃłiĠ":9167,"jÃ¹ĠzhÅįngĠ":9168,"tÄ«ngĠdeĠ":9169,"zhuÃłngĠdeĠ":9170,"1932ĠniÃ¡nĠ":9171,"jÃ¬ĠxÃ¹":9172,"ĠkÃ¨ĠluÃ³Ġ":9173,"ĠjÃ¬nĠjÃŃĠ":9174,"gÄģoĠjiÃłĠ":9175,"quÃ¨ĠbÇİoĠ":9176,"chuÃłngĠshÇĲĠrÃ©nĠ":9177,"ĠĠĠwÃ¨iĠleĠ":9178,"Ġ2004":9179,"ĠyÃ¡nĠjiÅ«Ġ":9180,"ÄģĠjÄ«Ġ":9181,"ÄģnĠshÃ¬Ġ":9182,"ĠĠĠ2012ĠniÃ¡nĠ":9183,"ĠĠĠ2013ĠniÃ¡nĠ":9184,"chÃ¡ĠlÇĲĠ":9185,"xÃ¬ĠjÅ«nĠ":9186,"mÃ¹ĠzhÃ¬Ġ":9187,"fÃºĠshÃ¨Ġ":9188,"ĠyÃ¬ĠwÃłiĠ":9189,"ĠdÃłĠguÄ«ĠmÃ³Ġ":9190,"chÇİnĠshÄĵng":9191,"ĠzhÇĶĠchÃŃ":9192,"ruÃ¬ĠdiÇİn":9193,"ĠĠĠ9ĠyuÃ¨Ġ":9194,"ĠĠĠ4Ġ":9195,"80ĠniÃ¡nĠ":9196,"ĠdeĠjÃ¬ĠhuÃłĠ":9197,"ĠguÃ³ĠmÃŃnĠdÇİng":9198,"ĠzhÇĶĠyÃłoĠshÃ¬Ġ":9199,"ĠyuÇİnĠ":9200,"ĠshÃłoĠ":9201,"ĠĠĠqÃŃĠzhÅįngĠ":9202,"jiÇİnĠlÃ¬Ġ":9203,"zuÇİn":9204,"gÄĽiĠtÄģĠ":9205,"juÃ©ĠsÃłiĠzhÅįngĠ":9206,"mÃ©ngĠtÃ¨Ġ":9207,"ĠguÃ³ĠmÃŃnĠzhÃ¨ngĠfÇĶĠ":9208,"wÃł":9209,"pÃŃngĠjÅ«n":9210,"ĠshÃŃĠjiÄģnĠdeĠ":9211,"lÃ¹ĠxÃ¹Ġ":9212,"hÄĵiĠlÃ³ngĠjiÄģngĠ":9213,"lÄ«":9214,"zhÅįngĠhÃ©Ġ":9215,"jiÄģĠshÃ¬Ġ":9216,"duÃłnĠshÃŃĠjiÄģnĠ":9217,"ĠyÇĲĠ1Ġ":9218,"ĠxÄ«ĠlÇĲĠ":9219,"fÄģĠhuÄ«":9220,"fÄģĠyÃ¡nĠrÃ©nĠ":9221,"ĠwÃ©iĠqÃŃ":9222,"ĠzhÇĶĠrÃ¨nĠ":9223,"tÃŃngĠyÃ¹nĠ":9224,"Ġ70":9225,"qiÃ¡nĠzÃłiĠ":9226,"shÄ«ĠdÃ¬Ġ":9227,"diÃłoĠyÃºĠ":9228,"illi":9229,"ĠchÅ«ĠshÃ²uĠ":9230,"duÇİnĠzÃłn":9231,"ĠnÃ³ngĠ":9232,"ĠdÅįuĠshÃ¬Ġ":9233,"fÃºĠzhÅįuĠ":9234,"guÄģnĠcÃ¨":9235,"tÇİĠnÃŃ":9236,"ĠshÇĲĠyÃ²ng":9237,"Ġ1997ĠniÃ¡nĠ":9238,"shÃ¹ĠrÃ©nĠ":9239,"xÃ¹ĠjÃŃĠ":9240,"chuÄģnĠguÃ²Ġ":9241,"ĠguÃ³ĠwÃ¡ng":9242,"fÃ¹ĠzhÇĶĠxÃŃĠ":9243,"ĠzhÅįuĠwÃ©iĠ":9244,"ĠfÄĵnĠbÃ¹ĠzÃłiĠ":9245,"ĠcÃ©ngĠjÄ«ngĠ":9246,"ĠnÃłĠme":9247,"ĠdeĠyuÃ¡nĠyÄ«nĠ":9248,"fĠĠĠ":9249,"ĠkÄĽnĠ":9250,"shÇĲĠdÃ¬Ġ":9251,"wÃ¹ĠyÇĶĠ":9252,"cÃ¬ĠjÄ«Ġ":9253,"juÃ©ĠyÃºĠ":9254,"ĠhÃ©ĠlÃ¬Ġ":9255,"ĠzhÄ«ĠchÄĵngĠ":9256,"ĠdÃłnĠqÃŃĠ":9257,"ĠxuÃ©ĠxÃŃ":9258,"lÇĲngĠyÃ¹ĠdeĠ":9259,"quÃ¨ĠdÃ¬ng":9260,"qÃºnĠzhÃ²ngĠ":9261,"chuÃłngĠzuÃ²":9262,"ĠshÃ¬ĠjiÃ¨ĠdeĠ":9263,"ĠzÇĴngĠtÇĴngĠ":9264,"tÃłnĠxiÇİn":9265,"nÃŃĠyÃłĠdeĠ":9266,"ĠzhÃłnĠdÃ¬Ġ":9267,"ĠĠĠchÄĵĠzhÃłnĠjiÃ©ĠgÃ²uĠ":9268,"ĠmÃ¨ngĠ":9269,"xÃŃngĠxiÃłngĠ":9270,"1934ĠniÃ¡nĠ":9271,"shÃ¹ĠmÃ¹Ġ":9272,"ĠÃ©rĠlÃ¡iĠ":9273,"zhÃŃĠbÅįĠ":9274,"ĠfÃ¹ĠgÃłiĠ":9275,"gÃłoĠsÃ¹":9276,"suÃłnĠfÇİĠ":9277,"ĠniÃ¡nĠdÃłiĠchÅ«Ġ":9278,"ÃłoĠdÃłĠlÃ¬ĠyÃł":9279,"CĠĠĠ":9280,"ĠĠĠcÄģnĠkÇİoĠ":9281,"duÇĴĠ":9282,"sonĠ":9283,"yÇĴuĠguÄģnĠ":9284,"ĠdÄģngĠniÃ¡nĠ":9285,"ĠchÃ©ngĠlÃ¬ĠleĠ":9286,"qÃ¹ĠshÃ¬ĠhÃ²uĠ":9287,"6ĠmÇĲĠ":9288,"ĠhÃ¹":9289,"yÃ¹ĠbÃ¨iĠ":9290,"shÃ©nĠdeĠ":9291,"chÃ³ngĠfÃ¹Ġ":9292,"tuÄ«ĠxÃŃngĠ":9293,"1924ĠniÃ¡nĠ":9294,"ĠdÃłoĠzhÅįngĠ":9295,"hÇİiĠyÃ¡ng":9296,"ĠdeĠdÃ¬ĠyÃŃĠgÃ¨Ġ":9297,"ĠgÅįngĠbÃ¹Ġ":9298,"zhÇİnĠxiÃłnĠ":9299,"ĠshÃ¬ĠbÃ¨iĠ":9300,"ĠyÄ«nĠyuÃ¡nĠ":9301,"ĠyÄ«nĠqÃŃĠ":9302,"zhÃ¹ĠzhÃ¡iĠ":9303,"fÃºĠhuÃłĠ":9304,"zuÃ¬ĠzÇİoĠ":9305,"jÃ¬ngĠnÃ¨iĠdeĠ":9306,"gÄĵĠcÃŃĠ":9307,"fÃ¡ngĠjiÄģnĠ":9308,"ĠqÃŃn":9309,"Ġ46":9310,"ÃłnĠshÃ¬Ġ":9311,"ÃłnĠshÃŃĠ":9312,"liÃ¨ĠsÄ«Ġ":9313,"dÅ«ĠhuÃ¬Ġ":9314,"sÃ²ngĠdÃłoĠ":9315,"33Ġ":9316,"ĠjÃŃĠÄĽrĠ":9317,"xÄ«ĠyÃłĠ":9318,"wÇĶĠdÇİoĠ":9319,"jÃ¬ngĠwÃłiĠ":9320,"mÃ¬ĠqiÃ¨":9321,"Ã©ĠhÃłiĠÃ©":9322,"ĠlÃ¹ĠyÃ¬Ġ":9323,"ĠkÄĽĠnÃ©ng":9324,"ĠĠĠ6ĠyuÃ¨Ġ":9325,"zhÄĽĠrÃ¨nĠwÃ©iĠ":9326,"chÃ¡iĠ":9327,"ĠdÃłĠqiÃ¡o":9328,"dÇİĠsuÃłnĠ":9329,"guÃ³ĠjiÄģĠduÃ¬Ġ":9330,"zhÃ¨ĠjiÄģngĠshÄĽngĠ":9331,"pÃ¡iĠhÃ¡ngĠbÇİng":9332,"zhÄ«ĠdÃłoĠ":9333,"ÇİiĠ":9334,"duÅįĠyuÃ¡nĠ":9335,"ĠyÇĲĠlÃ¡i":9336,"shÄĵnĠwÃ¡ngĠ":9337,"fÇİnĠduÃ¬":9338,"tÃłnĠcÃ¨Ġ":9339,"ĠdÄĵng":9340,"duÄģnĠdeĠ":9341,"ĠdÃ¬ĠzhÅįngĠ":9342,"ĠtÄģĠhÃ¡i":9343,"jÄ«ngĠyÃ³uĠ":9344,"25ĠniÃ¡nĠ":9345,"asĠĠĠ":9346,"ĠyÄ«ĠtÃ³ng":9347,"ĠrÃ¬ĠhÃ²uĠ":9348,"ĠshÄĵngĠchÄĵngĠ":9349,"guÄ«ĠzÃ©":9350,"cÃ¡iĠzhÃ¨ng":9351,"ĠliÃ¡nĠjiÄĵĠ":9352,"mÇİnĠzÃº":9353,"Ġ150":9354,"hÃ²uĠbÃ¹ĠjiÇĶĠ":9355,"jÃ¬nĠxÃŃngĠdeĠ":9356,"ĠÄĽrĠyÇĶĠ":9357,"cÅ«nĠmÃŃnĠ":9358,"chÅ«ĠzhÃłnĠ":9359,"fÃ¹ĠbÃ¹ĠzhÇİngĠ":9360,"orl":9361,"PlayStation":9362,"ĠlÃ¬ĠshÇĶ":9363,"ĠxÃŃngĠyÃºĠ":9364,"lÄģĠtÃ¨Ġ":9365,"bÄģĠlÃ¨":9366,"tÃ³uĠxiÃ¡nĠ":9367,"qiÃ¡ngĠdÃłĠdeĠ":9368,"shÅįuĠlÃ¹":9369,"ĠĠĠ2011ĠniÃ¡nĠ":9370,"zhÃłnĠzÃłiĠ":9371,"fÄĵnĠdeĠ":9372,"wÇİngĠqiÃº":9373,"kuÃ²ĠjiÃłnĠ":9374,"ĠjÃŃĠsÄ«Ġ":9375,"ĠjiÄģĠsÄ«Ġ":9376,"ĠbÃ¬ngĠyÇĴuĠ":9377,"Ġ12Ġ":9378,"yÃºĠĠĠ":9379,"inĠĠĠ":9380,"kuÃłĠ":9381,"ndĠ":9382,"yÄ«ĠlÃ¬Ġ":9383,"chÃ©ngĠjÃ¬Ġ":9384,"kÄĵĠfÅ«Ġ":9385,"3ĠmÇĲĠ":9386,"ĠyÇİ":9387,"ÄģĠlÇĲĠ":9388,"ĠĠĠgÄĵnĠjÃ¹":9389,"qÄ«ĠshÃ¬Ġ":9390,"olĠ":9391,"ĠhÃ©ĠdÅįngĠ":9392,"ĠrÃ¬ĠyÇĶĠ":9393,"zhÃłnĠlÃ¼Ã¨Ġ":9394,"zhÃŃĠwÃ¹":9395,"ĠxuÃ©ĠhuÃ¬Ġ":9396,"wÃ¡nĠchÃ©ngĠleĠ":9397,"wÃ¡nĠzhÄĽngĠdeĠ":9398,"5ĠĠĠ":9399,"ĠjiÇİng":9400,"ĠĠĠcÇĲ":9401,"shuÅįĠdeĠ":9402,"zhÄĵnĠzhÃ¨ngĠ":9403,"tsĠ":9404,"ĠqÃŃĠtÄģĠdeĠ":9405,"chÃ¡ngĠwÄĽiĠhuÃ¬Ġ":9406,"bÃłnĠdÇİo":9407,"hÃ¡ngĠbÄģnĠ":9408,"fÃ¡ngĠkÅįngĠ":9409,"EN":9410,"ĠĠĠrÃ¬ĠbÄĽnĠ":9411,"ĠĠĠjiÃłnĠzhÃ¹Ġ":9412,"dÄ«ĠdeĠ":9413,"zÃ¡ĠdeĠ":9414,"ĠzhÅįngĠduÃ¬Ġ":9415,"dÃłĠliÃłngĠ":9416,"kÄĵĠxuÃ©":9417,"chÃ³ngĠxÄ«n":9418,"ĠpÃ©ngĠ":9419,"ĠjÄ«ĠyÃºĠ":9420,"ĠĠĠxiÄģngĠ":9421,"dÃ¬ngĠlÇĲĠ":9422,"xiÃłoĠshÃ¨Ġ":9423,"xiÄĽĠleĠ":9424,"ĠjÃŃĠjiÄģngĠ":9425,"ĠdÃłĠsÃłiĠ":9426,"pÇĶĠtÅįng":9427,"ĠguÃ³ĠjÃ¬ĠjÄ«ĠchÇİngĠ":9428,"yÅįuĠxiÃ¹Ġ":9429,"ĠĠĠgÄĵnĠjÃ¹Ġ2010ĠniÃ¡nĠmÄĽiĠguÃ³ĠrÃ©nĠkÇĴuĠpÇĶĠchÃ¡ĠdeĠshÃ¹ĠjÃ¹Ġ":9430,"Ġ2003":9431,"Ġ180":9432,"ĠxuÃ¡nĠ":9433,"bÄģĠshÃŃĠ":9434,"shÄĽngĠzhÃ¨ngĠfÇĶĠ":9435,"bÇİoĠwÃ¨iĠ":9436,"dÅįuĠbÃ¹Ġ":9437,"ĠzÃłiĠxiÃłnĠ":9438,"sÄģnĠzhÇĴngĠ":9439,"xiÇİoĠzÇĶ":9440,"hÃ¹ĠdÃ²ngĠ":9441,"chÃ¨ĠtuÃ¬Ġ":9442,"ĠMĠ":9443,"ĠguÄģnĠzhÃ¬Ġ":9444,"ĠsÇĲĠ":9445,"rÃ¨nĠyÃ¬Ġ":9446,"xiÃ¡ngĠxÃ¬Ġ":9447,"chuÃŃĠzhÃŃĠ":9448,"ĠchÅ«ĠxiÃłnĠdeĠ":9449,"nuÃ²ĠmÃłnĠ":9450,"den":9451,"ĠĠĠgÄģoĠ":9452,"26Ġ":9453,"ĠyÄ«ĠzhÇĴng":9454,"ĠxÃŃngĠhÃ©Ġ":9455,"xuÃ©ĠshÃ¬ĠxuÃ©ĠwÃ¨iĠ":9456,"ĠyÄ«ĠwÃ¨iĠ":9457,"ÄģĠfÃ¹Ġ":9458,"bÃ¹ĠwÃ¨iĠyÃºĠ":9459,"xiÃłoĠyÇĴuĠ":9460,"lÇĺ":9461,"zÃłngĠyÃºĠ":9462,"usĠ":9463,"ĠhÃ©ĠjÄ«Ġ":9464,"chÃ¡oĠtÃŃngĠ":9465,"ĠhÃ©ĠnÃ¡nĠshÄĽngĠ":9466,"hÇİnĠmÃ²ĠdÃ©Ġ":9467,"ĠzÄĵngĠ":9468,"ĠwÇİnĠ":9469,"qiÄģnĠrÃ©nĠ":9470,"dÇİngĠjÃŃĠ":9471,"bÇİiĠwÃłnĠ":9472,"28Ġ":9473,"ĠxiÃłnĠyÇĶĠ":9474,"ĠxiÃłnĠzÃłiĠdeĠ":9475,"xiÄģngĠhÃ¹Ġ":9476,"ĠkÃ¨ĠsÃłĠsÄ«Ġ":9477,"ĠruÇİn":9478,"hÃ²uĠtÄģĠ":9479,"rÃ©nĠmÃŃn":9480,"yÃ¡nĠchÃ¡ngĠ":9481,"jiÃ©ĠdÃ¹ĠshÇĲĠ":9482,"zÄ«ĠxÃ¹n":9483,"wÅ«ĠrÇİn":9484,"ĠshÇĴuĠcÃ¬":9485,"tÃ¡nĠpÃłn":9486,"ĠguÃ¬Ġ":9487,"orĠĠĠ":9488,"zhÄĵnĠyÇĶĠ":9489,"ĠshÃ¬ĠduÃ¬Ġ":9490,"ĠtÄģĠchÃ©ngĠwÃ©iĠ":9491,"ĠzhÅįuĠhÃ©Ġ":9492,"fÄģĠbÃ¹ĠdeĠ":9493,"fÇİĠguÃ³ĠdeĠ":9494,"tiÄģnĠqÃ¬Ġ":9495,"bÃłnĠfÇİĠ":9496,"²Ġ":9497,"ĠĠĠfÇİĠguÃ³Ġ":9498,"bÄĽnĠbÃ¹Ġ":9499,"liÃºĠxuÃ©Ġ":9500,"gÇİiĠmÃŃngĠ":9501,"27Ġ":9502,"STAT":9503,"ĠdÃłĠchÃ©ngĠ":9504,"ĠrÃ¨nĠzhÃŃĠ":9505,"bÇİoĠzhÃłngĠ":9506,"nÃłĠrÃ¹Ġ":9507,"liÃłngĠxiÃłngĠ":9508,"ĠquÃ¡nĠmiÃłnĠ":9509,"pÃłnĠchÇĶĠ":9510,"ĠshÃ¬ĠshÃ¬ĠjiÃ¨":9511,"mÃłoĠxiÇİnĠ":9512,"lÇĲĠshÃ¬ĠhuÃ¬Ġ":9513,"ĠrÃ©nĠkÇĴuĠdeĠ":9514,"tÃºĠshÅ«ĠguÇİn":9515,"1ĠhÃłoĠ":9516,"ĠzhÄģoĠ":9517,"Ã©rĠtÃ³ng":9518,"zÇĴngĠzhÃłnĠ":9519,"sÃ¹ĠshÃ¨Ġ":9520,"chuÃ¡nĠqÃŃĠ":9521,"qÃ¹ĠdeĠ":9522,"fÇĴuĠrÃ¨nĠ":9523,"ĠshÃ¬ĠzhÃ¨ngĠfÇĶĠ":9524,"ĠzÃłiĠqÃŃ":9525,"ĠbÃ¹ĠjÇĲn":9526,"ĠsÄ«ĠfÇİĠ":9527,"mÃŃnĠzhÃ²ng":9528,"ĠbÃ¬ngĠjiÄģng":9529,"kÃ¨ĠyÃ¹nĠ":9530,"zhuÇİnĠyÃŃĠ":9531,"qÇĶĠdÃ©ĠleĠ":9532,"qiÃ¡nĠxiÃłnĠ":9533,"cÄģnĠyÃ¬ĠyuÃ¡nĠ":9534,"cÃŃĠhuÃ¬Ġ":9535,"xÇĲngĠ":9536,"liÇİnĠ":9537,"ĠniÃ¡nĠqiÃ¡nĠ":9538,"ĠyÄ«ĠlÇİng":9539,"ĠzhÄ«ĠbÃ¹Ġ":9540,"rÃ¨nĠzhÃŃĠ":9541,"wÃłiĠguÄģnĠ":9542,"mÃ¬ngĠmÃŃngĠdeĠ":9543,"rÃ©nĠdÃłĠdÃłiĠbiÇİoĠ":9544,"ĠlÃ¡n":9545,"ĠĠĠchÃ©nĠ":9546,"liÃ¹ĠgÃ¨Ġ":9547,"ĠyÇĲĠ2Ġ":9548,"wÇİngĠwÇİngĠ":9549,"biÄģnĠjiÃ¨":9550,"hÃºĠpÅįĠ":9551,"dÄĵngĠlÃ¹":9552,"ĠjiÄģngĠxÄ«Ġ":9553,"Ġ1992ĠniÃ¡nĠ":9554,"wÃ©iĠrÃ©nĠ":9555,"duÅįĠbÃ¹Ġ":9556,"sÄģnĠyuÃ¨Ġ":9557,"dÃłngĠzuÃ²Ġ":9558,"fÄģngĠchÃ©ngĠshÃ¬Ġ":9559,"ĠrÃ¬ĠbÄĽnĠdeĠ":9560,"luÃ³ĠmÇİĠdÃ¬ĠguÃ³Ġ":9561,"ĠxiÃłnĠdeĠyÃŃĠgÃ¨ĠxÃŃngĠzhÃ¨ngĠzhÃ¨nĠqÅ«Ġ":9562,"yÇĲngĠdÃłiĠ":9563,"zhÄĵnĠdeĠ":9564,"ĠshÃ¬ĠyÃłnĠ":9565,"ĠwÃ¨iĠwÃ¨iĠ":9566,"ĠxiÄģngĠsÃ¬Ġ":9567,"dÄģnĠmÃłi":9568,"yÇİnĠzÃ²u":9569,"mÃ¬ĠdÃ¹Ġ":9570,"huÃŃĠguÄ«":9571,"rÃ©nĠkÇĴuĠpÇĶĠchÃ¡Ġ":9572,"ĠhÄĵi":9573,"chÄĵĠrÃ©nĠ":9574,"bÅįĠchÅ«ĠdeĠ":9575,"80Ġ":9576,"ĠzhÄ«ĠhÃ²uĠzÃłiĠ":9577,"rÃºĠguÇĴ":9578,"xÄ«ngĠxÃ¬Ġ":9579,"ĠRĠ":9580,"shÄģnĠxÄ«ĠshÄĽngĠ":9581,"ĠchuÃłng":9582,"Ġ37":9583,"Ġ2023ĠniÃ¡nĠ":9584,"Ġ1994ĠniÃ¡nĠ":9585,"ĠĠĠyÃ¡nĠgÃ©Ġ":9586,"miÇİnĠyÃ¬Ġ":9587,"ĠjiÃłnĠzÃłiĠ":9588,"ĠbÃ¨iĠjÇĲngĠ":9589,"zhÃ¨ĠyÃłngĠdeĠ":9590,"ĠquÃ¡nĠdeĠ":9591,"ĠtÃ³ngĠshÃŃĠyÄĽĠshÃ¬Ġ":9592,"ĠqÄ«ĠjiÄģn":9593,"ĠdÃłĠbÃ¹ĠfÃ¨n":9594,"kÄģiĠfÄģĠdeĠ":9595,"ĠĠĠ2008ĠniÃ¡nĠ":9596,"ĠĠĠyÇĲĠxiÃłĠ":9597,"tÇĲĠjÄ«Ġ":9598,"nÃłĠhÃ©Ġ":9599,"jiÇİĠshÃ¨Ġ":9600,"kÄģĠ":9601,"ĠshÃ¬ĠzhÇĲ":9602,"gÇİiĠchÄĵngĠ":9603,"fÃłnĠzuÃ¬":9604,"ĠdÅįngĠbÄĽi":9605,"wÄĽiĠyuÃ¡nĠhuÃ¬ĠzhÇĶĠxÃŃĠ":9606,"guÇİngĠfÃłnĠdeĠ":9607,"ĠliÃºĠyÃ¹ĠmiÃłnĠjÄ«Ġ":9608,"ĠqÇĶ":9609,"ĠtÄ«ngĠ":9610,"chuÃ¡nĠdÃ¬Ġ":9611,"cÅ«nĠdeĠ":9612,"ĠxiÃłnĠzhÅįngĠ":9613,"ĠdÃłĠfÅ«Ġ":9614,"ĠdÃłnĠdeĠ":9615,"ĠliÃ¡nĠmÃ©ngĠ":9616,"ĠgÄĵnĠjÃ¹Ġ2020ĠniÃ¡nĠmÄĽiĠguÃ³ĠrÃ©nĠkÇĴuĠpÇĶĠchÃ¡ĠdeĠshÃ¹ĠjÃ¹Ġ":9617,"ĠfÃ©ng":9618,"ĠwÄģng":9619,"yÇĴuĠhÃ©Ġ":9620,"lÃŃĠshÃ¬Ġ":9621,"chÃ¡oĠshÃŃĠ":9622,"jÃºĠshÃ¬Ġ":9623,"48Ġ":9624,"zÇĴngĠmiÃłnĠjÄ«Ġ":9625,"gÇİiĠzÃło":9626,"ĠPĠ":9627,"ĠDa":9628,"ĠhÄĵngĠlÃ¬Ġ":9629,"xÄ«nĠxÃŃngĠ":9630,"kÄģiĠshÃ¨":9631,"chÃ¡ngĠbÃ¨iĠ":9632,"zÇĲĠdÃłnĠ":9633,"dÃłngĠdeĠ":9634,"tÄģoĠ":9635,"xuÃ©ĠxÃ¬Ġ":9636,"shÅįuĠcÃ¡ng":9637,"ĠÄģnĠdÃ©Ġ":9638,"Ġ400":9639,"leĠdÃ¬Ġ":9640,"ĠchÃ©ngĠlÃ¬ĠdeĠ":9641,"ĠbÃ¬ngĠfÄĵi":9642,"ĠzÃ¬ĠmÇĶĠ":9643,"hÃ¡ngĠkÅįngĠmÇĶ":9644,"Ġ39":9645,"gÃ©ĠlÇĲĠ":9646,"18ĠniÃ¡nĠ":9647,"jÇĲngĠyuÃ¡nĠ":9648,"qiÇİnĠzÃ©Ġ":9649,"kuÄģngĠ":9650,"bÃ¹ĠtÃ³ngĠ":9651,"yÃ¬ĠbÇİiĠ":9652,"xÄ«ĠyÃ¡ng":9653,"diÃłnĠzÇĲ":9654,"ĠbÃ¬ĠxÅ«Ġ":9655,"fÄĵiĠlÇľĠbÄ«nĠ":9656,"gÄĽn":9657,"ĠshuÄģng":9658,"ĠĠĠtÃ³ng":9659,"chÃ¡ĠÄĽrĠsÄ«Ġ":9660,"zhÇİngĠhÃ©Ġ":9661,"jiÄģoĠdeĠ":9662,"wÇİnĠniÃ¡nĠ":9663,"60ĠniÃ¡nĠ":9664,"ĠzÃłiĠbÃ¨iĠ":9665,"ĠshÃŃĠyÃ³uĠ":9666,"ĠjÄ«ĠxiÃ¨":9667,"yÃŃĠdÃ¹":9668,"sÃłiĠchÄĵĠ":9669,"jiÄģoĠjiÃ¨Ġ":9670,"nÇļĠhÃ¡iĠ":9671,"shÄģngĠchÇİngĠ":9672,"wit":9673,"ĠshÄĵng":9674,"Ġ21":9675,"ĠĠĠtÃ¡iĠwÄģnĠ":9676,"fÃºĠshÃ¬Ġ":9677,"ĠxÄ«ĠfÄģngĠ":9678,"ĠqÃŃĠhÃ²uĠyÃºĠ":9679,"tÃŃngĠkÃło":9680,"diÃłnĠyÇĲngĠdeĠ":9681,"Ġ300":9682,"Ġ1996ĠniÃ¡nĠ":9683,"ĠĠĠ189":9684,"xÄ«ngĠjiÃłn":9685,"gÄĵnĠbÄĽnĠ":9686,"35Ġ":9687,"esĠĠĠ":9688,"pÇİoĠdÃłoĠ":9689,"ĠzhÅįngĠqÄ«Ġ":9690,"ĠshÃŃĠlÃ¬Ġ":9691,"zhÃ¨ngĠchÃ¡ngĠ":9692,"ĠzhÄ«ĠshÃłngĠ":9693,"bÇİoĠjiÄģ":9694,"yÃŃĠcÃ¬ĠshÃ¬ĠjiÃ¨ĠdÃłĠzhÃłnĠ":9695,"qiÃ¡ngĠdiÃło":9696,"dÃ©ĠguÃ³ĠdeĠ":9697,"bÇĶĠchÅįngĠ":9698,"fÃºĠjiÃłnĠshÄĽngĠ":9699,"Ġa":9700,"ĠĠĠxiÄģngĠgÇİng":9701,"40ĠniÃ¡nĠ":9702,"ĠshÃŃĠkÃ¨Ġ":9703,"ĠgÃ¨ĠbÃ¹Ġ":9704,"fÄĵnĠpÃ¨i":9705,"fÄĵnĠliÃ¨Ġ":9706,"chi":9707,"hÃłoĠdeĠ":9708,"eri":9709,"ĠyÇĴuĠliÇİngĠ":9710,"lÇĲĠlÃ¡nĠ":9711,"ĠzhÅįuĠlÃ¬Ġ":9712,"shÇĴuĠshÃ¹Ġ":9713,"ĠduÃ¬ĠwÃłiĠ":9714,"jÄ«nĠrÃ³ng":9715,"shÃ²uĠhuÄģnĠ":9716,"wÃ¡ngĠzÇĲĠ":9717,"guÄ«ĠlÃ¨i":9718,"ĠlÃ¬ĠshÇĲĠxuÃ©ĠjiÄģĠ":9719,"ĠyÃ¬ĠshÃ¹ĠjiÄģĠ":9720,"cri":9721,"ĠjÇĲ":9722,"ĠSt":9723,"sÄģnĠbÃ¹Ġ":9724,"sÃ¬ĠyuÃ¨Ġ":9725,"shuÃ²Ġ":9726,"ĠduÃ¬ĠwÇĶĠ":9727,"jÄ«nĠshÄģnĠ":9728,"ĠxiÄģngĠbÇĲĠ":9729,"yÇİnĠjiÇİngĠ":9730,"qÃŃngĠbÃło":9731,"yÄ«nĠsÃ¹Ġ":9732,"ĠmÇĲĠzhÃ¬Ġ":9733,"ĠguÄģngĠxÃ¹Ġ":9734,"24ĠxiÇİoĠshÃŃĠ":9735,"1925ĠniÃ¡nĠ":9736,"yÃ¡nĠlÃ¹nĠ":9737,"xÃ¹ĠliÃ¨Ġ":9738,"wÄĵiĠxiÃ©":9739,"ÄģĠÄĽrĠbÄĵiĠsÄ«Ġ":9740,"cuÄ«ĠhuÇĲĠ":9741,"fÃ³ĠjiÃło":9742,"ĠchÃ³ngĠxÄ«nĠ":9743,"ĠĠĠliÃºĠ":9744,"isĠ":9745,"ĠhÃ©ĠshÃłngĠ":9746,"ĠguÃ³ĠshÃŃĠ":9747,"shÄĵngĠyÄ«nĠ":9748,"zhÃŃĠshÄĵngĠjÄ«Ġ":9749,"ĠjÃ¬nĠÃ©rĠ":9750,"luÃ³ĠlÄģĠ":9751,"qiÃ¡oĠliÃ¡ngĠ":9752,"sÃłĠlÄģĠ":9753,"ĠmiÃłnĠjÄ«Ġ0":9754,"fÄģĠbÃ¹ĠleĠ":9755,"gÇĶĠlÇİoĠdeĠ":9756,"ĠDe":9757,"chĠĠĠ":9758,"gÄģoĠdÃ¬Ġ":9759,"gÇĶĠjÃ¬Ġ":9760,"nÇļĠrÃ©nĠ":9761,"shuÇĲĠshÄĵnĠ":9762,"yÇĲĠsÃ¨Ġ":9763,"ĠjÄ«nĠshÇĶĠ":9764,"gÃ¨ĠzhÇĴng":9765,"chÄģoĠguÃ²":9766,"zhÃ²ngĠdiÇİnĠwÃ©nĠwÃ¹ĠbÇİoĠhÃ¹ĠdÄģnĠwÃ¨iĠ":9767,"jiÄģĠlÃ¬ĠfÃºĠnÃŃĠyÃłĠzhÅįuĠ":9768,"dÄ«ĠqÃ¬ĠyÄģĠ":9769,"1ĠmÃŃngĠ":9770,"duÃ¬ĠtÄģĠ":9771,"ĠshÃ¬ĠxÄ«ĠbÄģnĠyÃ¡Ġ":9772,"ĠhÃ©ĠjÃ¬Ġ":9773,"ĠbÃ¹ĠshÃŃĠ":9774,"ĠshÃŃĠdÃłĠ":9775,"rÃ¨nĠmÃ¬ngĠ":9776,"Ġcom":9777,"lÃ¡iĠkÃ¨Ġ":9778,"tÃ¨ĠzÃłiĠ":9779,"fÃºĠyÄ«nĠ":9780,"yÃłĠsÄ«Ġ":9781,"IDĠ":9782,"ĠyuÃ¡nĠziĠ":9783,"xÄ«nĠjiÄģngĠ":9784,"qiÃ¡nĠjÃ¬nĠ":9785,"ĠshÃ¨ĠyÇĲngĠ":9786,"tÃºĠshÄģĠ":9787,"kÅįngĠxÃŃĠ":9788,"tÇİnĠdÄ«ngĠ":9789,"ĠkÄĽĠshÃ¬Ġ":9790,"ĠyÃło":9791,"shÃ¡":9792,"shÄģĠdeĠ":9793,"jÃºĠbÃ¹Ġ":9794,"14ĠniÃ¡nĠ":9795,"ingĠ":9796,"ĠyÃ¬ĠdÃłĠ":9797,"ĠjÅ«nĠtuÃ¡nĠ":9798,"nÇļĠzhÇĶĠjuÃ©Ġ":9799,"shÅįuĠrÃ¹":9800,"ĠjÇĲngĠfÄģngĠ":9801,"ĠhÇİoĠ":9802,"19ĠniÃ¡nĠ":9803,"luÃ²ĠkÃ¨Ġ":9804,"huÃŃĠjiÄģĠ":9805,"ĠgÅįngĠgÃłoĠ":9806,"ĠzhÄ«ĠhÃ²uĠdeĠ":9807,"jÃ¬ngĠtÃ³uĠ":9808,"mÃ³ĠtÃ¨":9809,"ĠshÃ¬ĠyÄ«ĠkÄĵ":9810,"hn":9811,"ĠluÃ³ĠsÄ«Ġ":9812,"ĠkuÄģnĠ":9813,"ĠĠĠ8":9814,"guÇİngĠzhÅįuĠshÃ¬Ġ":9815,"70ĠniÃ¡nĠ":9816,"ĠguÃ³ĠjÅ«nĠ":9817,"fÃºĠlÃ©i":9818,"zÄ«ĠxÃºnĠ":9819,"chÃ©ngĠlÃ¬ĠhÃ²uĠ":9820,"ĠbÃ¹ĠzÃłiĠ":9821,"dÃłĠyÃºĠ":9822,"luÃ²ĠzÃłiĠ":9823,"1970ĠniÃ¡nĠdÃłiĠ":9824,"ĠshÃ¬ĠxÄ«ngĠdÄĽngĠwÃ¨iĠ":9825,"ul":9826,"shuÇĲĠdeĠ":9827,"zhuÇİnĠchÃ©ngĠ":9828,"yÄ«ĠyuÃłnĠ":9829,"ĠyÇĲĠbÄĽiĠ":9830,"ĠxiÃłnĠmÃŃngĠ":9831,"xuÇİnĠqÅ«":9832,"yÄ«ngĠxiÃ³ng":9833,"yÃ¡nĠjiÅ«ĠzhÅįngĠxÄ«nĠ":9834,"ĠÐ°":9835,"dÃŃĠshÃ¬ĠnÃŃĠ":9836,"zhuÄģnĠlÃ¬Ġ":9837,"ĠrÃ©nĠduÃ¬Ġ":9838,"ĠxiÃłĠleĠ":9839,"pÇĶĠluÃ³Ġ":9840,"zhuÄģnĠmÃ©n":9841,"pÃ©iĠxÃ¹nĠ":9842,"ĠniÃ¡nĠqÄ«ngĠdeĠ":9843,"ĠdÃ²uĠ":9844,"jiÄĵĠdeĠ":9845,"wÇĶĠdÃ©Ġ":9846,"gÃ²ngĠjÃ¬Ġ":9847,"jiÃ¹ĠzÃłiĠ":9848,"00ĠniÃ¡nĠ":9849,"lÃºnĠsÄ«Ġ":9850,"shÃ©nĠhuÃłĠ":9851,"diÃłnĠyÇĲngĠjiÃ©Ġ":9852,"ĠdÃ¹":9853,"ĠkuÃłiĠ":9854,"zhÃ¬ĠdÃ¹Ġ":9855,"ĠzhÃ¨ngĠquÃ¡nĠ":9856,"yÃŃĠdÃ¬ngĠdeĠ":9857,"lÃ¡nĠsÃ¨Ġ":9858,"fÇİĠlÃ¡nĠxÄ«":9859,"ĠED":9860,"ĠyÃ¹nĠ":9861,"duÅįĠlÃ¬ĠyÃłĠ":9862,"jiÃ¹ĠbÃ¨iĠ":9863,"biÃłnĠshÃ¬Ġ":9864,"tÃŃngĠdeĠ":9865,"kuÃłiĠdeĠ":9866,"ĠshÃ¬ĠyÄ«ngĠguÃ³Ġ":9867,"ĠjÃŃĠbÃ¬ng":9868,"yÇĶĠmÃ¡o":9869,"qÅ«ĠzhÃº":9870,"fÄģngĠxiÃłngĠdeĠ":9871,"ĠtiÄģnĠjÄ«nĠ":9872,"5000":9873,"ĠchÃ¹Ġ":9874,"gÅįngĠhÃ©Ġ":9875,"nÃ¡nĠrÃ©nĠ":9876,"mÇİiĠ":9877,"fÃ©iĠtÃ¨Ġ":9878,"ĠmÃŃngĠxiÇİnĠ":9879,"mÃ³ĠfÇİĠ":9880,"tÇĲĠyÃ¹ĠguÇİnĠ":9881,"3ĠmÃŃngĠ":9882,"8ĠgÃ¨Ġ":9883,"pen":9884,"ĠĠĠ2005":9885,"zhÄ«ĠjiÄģĠ":9886,"gÇĶĠdeĠ":9887,"gÃłoĠshÃ¬Ġ":9888,"ĠxÃŃngĠrÃ³ng":9889,"bÄĽnĠshÄĵnĠ":9890,"nÃ¨iĠruÃ¬Ġ":9891,"tÃ³uĠshÇĴuĠ":9892,"yÃŃngĠyÃ¹n":9893,"zhuÇİnĠhuÃłn":9894,"ĠshÃ¬ĠshÃŃĠshÃłngĠ":9895,"ĠzÇĲĠ":9896,"dÃłĠhÃ©Ġ":9897,"shuÇĲĠhÃ©Ġ":9898,"zhÃ¬ĠzuÃ²":9899,"ĠjÃŃĠxiÃłnĠ":9900,"ĠrÃ¬ĠhÃ©Ġ":9901,"ĠjÅ«nĠyÇĴuĠ":9902,"fÃ¹ĠshÇĲĠ":9903,"ĠzhÅįuĠqÄ«Ġ":9904,"ĠyÃ³uĠxÃ¬ĠdeĠ":9905,"zhÇĲĠkÃ²ng":9906,"zhÇĶnĠbÃ¨i":9907,"Ġ1949ĠniÃ¡nĠ":9908,"nÃ¡ngĠ":9909,"ĠshÃŃĠpÇĲnĠ":9910,"ĠbÃ¬ngĠshÃ¬Ġ":9911,"ĠtÃ³ngĠzhÃ¬Ġ":9912,"qÄ«ngĠchÇĶĠ":9913,"chÇİnĠwÃ¹Ġ":9914,"ÃłnĠzhÃło":9915,"rÃ¬ĠbÄĽnĠdeĠ":9916,"Ġ2002":9917,"wÇİngĠyÇĴuĠ":9918,"ĠwÃ¨iĠlÃ¬Ġ":9919,"ĠyÃºĠ2021":9920,"liÃºĠliÃłngĠ":9921,"zhÄĵngĠqÇĶĠ":9922,"zhuÇİnĠhuÃłnĠ":9923,"mÄĽiĠguÃ³ĠrÃ©nĠkÇĴuĠpÇĶĠchÃ¡Ġ":9924,"sÄģiĠÄĽrĠwÃ©iĠyÃłĠ":9925,"ĠĠĠdÃłoĠ":9926,"zhÃłnĠhÃ©Ġ":9927,"kÃ¨ĠsÄ«Ġ":9928,"rÃ¹ĠqiÃºĠ":9929,"biÃłnĠdeĠ":9930,"dÇİnĠ":9931,"ĠxÃŃngĠrÃ©nĠ":9932,"liÃłngĠzÇĲĠ":9933,"ĠwÃ¨iĠyÃºĠyÃŃn":9934,"sÅ«ĠdÄģnĠ":9935,"kÄĽĠnÃ©ngĠxÃ¬ngĠ":9936,"zhuÃłnĠxiÄĽĠ":9937,"shÃ¹nĠxÃ¹Ġ":9938,"ĠlÃºĠwÇİĠÄĽrĠshÄĽngĠ":9939,"sÃ¬ĠchuÄģnĠshÄĽngĠ":9940,"EĠĠĠ":9941,"jÃ¬ĠzÇİiĠ":9942,"ĠxÃŃngĠrÃ³ngĠ":9943,"ĠbÃ¨iĠrÃ¨nĠmÃ¬ngĠwÃ¨iĠ":9944,"ĠzhÇĶĠtÃŃĠ":9945,"qiÃºĠchÇİngĠ":9946,"ĠshÃ¬ĠjiÃ¨ĠshÃłngĠ":9947,"ĠmÄĽiĠzhÅįuĠ":9948,"gÃ²uĠmÇİiĠ":9949,"ĠwÃ²Ġ":9950,"fÄģngĠzÃłiĠ":9951,"chuÄģnĠxiÃłnĠ":9952,"ĠyÃºĠshÃŃĠdeĠrÃ©nĠkÇĴuĠshÃ¹ĠliÃłngĠwÃ¨iĠrÃ©nĠ":9953,"bÃ¨iĠjÇĲng":9954,"sÃłiĠguÃłnĠjÅ«nĠ":9955,"gÇĶĠdiÇİnĠ":9956,"chÃ¨ĠxiÄģo":9957,"NH":9958,"ĠpÄģn":9959,"huÃłĠshÃ¬Ġ":9960,"tÃ¡nĠhÃ©Ġ":9961,"ĠshÃłngĠleĠ":9962,"ĠhuÃ²ĠzhÄĽ":9963,"jiÇİnĠdÄģnĠdeĠ":9964,"ĠwÃ¨iĠyÃºĠgÄģiĠguÃ³ĠxÄ«ĠbÃ¹Ġ":9965,"bÄģoĠhÃ¡nĠleĠ":9966,"Ġg":9967,"zÃłiĠĠĠ":9968,"bÄģĠbÃ¹Ġ":9969,"chÃ¬ĠjÄ«ngĠ":9970,"35ĠniÃ¡nĠ":9971,"ĠshÃ¬ĠjÃ¬ĠzhÅįngĠ":9972,"ĠlÃ¬ĠtÃ¡oĠ":9973,"fÇİĠlÃ¡nĠkÃ¨Ġ":9974,"ĠfÄĵiĠlÇľĠ":9975,"ĠyuÃ¡nĠzhÃ¹ĠmÃŃnĠ":9976,"ĠkÇİĠÄĽrĠ":9977,"mÇİĠlÃ¬ĠyÃłĠ":9978,"dÄĽngĠyÃºĠ":9979,"ori":9980,"bÇĶĠzhÃ¹Ġ":9981,"kÄģiĠzhÇİn":9982,"zhÄĵngĠfÃºĠ":9983,"lÇĲngĠtÇĶ":9984,"wÄĽiĠtuÅįĠ":9985,"tiÃ¡oĠwÃ©nĠ":9986,"dÃłiĠbiÇİoĠtuÃ¡nĠ":9987,"ruÇİnĠtiÃ¡oĠ":9988,"hÃłoĠwÃ¨iĠ":9989,"CDĠ":9990,"jiÄģngĠhÃ¹":9991,"tÅįngĠxÃ¹n":9992,"sÃ¬ĠhÅ«":9993,"qÇĶĠmÃ¹Ġ":9994,"ĠxiÄģngĠdÄģngĠyÃºĠ":9995,"ĠwÄĵnĠ":9996,"ĠĠĠhÃ³ngĠ":9997,"ĠĠĠyÃ³uĠxÃ¬Ġ":9998,"kÄĽĠjiÃłnĠ":9999,"pÇĶĠjÃŃĠ":10000,"ĠtÄģĠrÃ©nĠ":10001,"zuÃ²ĠzhÄĽĠ":10002,"yÃ³uĠyÇĴngĠ":10003,"ĠdÃ©ĠwÃ©iĠ":10004,"mÃ©iĠyÇĴuĠrÃ¨nĠhÃ©Ġ":10005,"ĠtiÄģnĠjÄ«n":10006,"Ġ1949":10007,"hÃ²uĠyÇĲĠ":10008,"jiÄģnĠwÃ¨iĠ":10009,"bÅįĠdeĠ":10010,"dÃºĠdeĠ":10011,"gÃ¨ngĠshÃ¬Ġ":10012,"rÃłoĠ":10013,"qiÃ¡nĠtÇĲng":10014,"yÃ¡nĠshÄĵnĠzhÃ¬Ġ":10015,"ven":10016,"Ġ1995ĠniÃ¡nĠ":10017,"Ġ1993ĠniÃ¡nĠ":10018,"zhÅįngĠdeĠyÄ«Ġ":10019,"jiÇİĠjÃŃĠ":10020,"pÃŃnĠdÃło":10021,"bÄĽiĠbÃ¹ĠdeĠ":10022,"jiÄĵĠxiÃłĠ":10023,"ĠxuÃ©ĠshÃ¹Ġ":10024,"zhÃ¨nĠrÃ³ngĠ":10025,"bÃ¬ngĠrÃ¹Ġ":10026,"ĠzuÃ¬ĠzÇİo":10027,"zhÇĶĠyÃłoĠshÃ¬Ġ":10028,"ĠyÇĴuĠxiÃłnĠgÅįngĠsÄ«":10029,"qÃŃĠzhÅįngĠyÄ«Ġ":10030,"gÄĵĠlÃºnĠbÇĲĠyÃłĠ":10031,"sÅ«ĠwÃ©iĠÄģi":10032,"±Ġ":10033,"qÇĶĠdeĠ":10034,"ĠshÃŃĠÃ¨rĠniÃ¡nĠ":10035,"jÄ«ĠguÄģnĠ":10036,"kÄģiĠtÅįng":10037,"zhÃŃĠbÃłng":10038,"tÃłiĠshÇĴuĠ":10039,"gÄĵĠgÄĵĠ":10040,"diÃłnĠshÃ¬ĠdÃ²ngĠhuÃłĠ":10041,"ĠchÃºĠcÇĲĠzhÄ«ĠwÃłiĠ":10042,"jiÃ¨ĠquÃ¡nĠguÃ³ĠzhÃ¨ngĠxiÃ©Ġ":10043,"bÃłoĠfÄģĠhÃ²uĠ":10044,"ĠliÃ¡ng":10045,"shÃ¹ĠjiÄģĠ":10046,"piÃłnĠzhÅįngĠ":10047,"meĠĠĠ":10048,"ĠzÃłiĠxiÄģngĠgÇİngĠ":10049,"ĠshÃŃĠyÄ«ĠniÃ¡nĠ":10050,"ĠjÃŃĠwÃ©iĠ":10051,"ĠyÇĲĠbiÃłnĠ":10052,"tÅįngĠwÇİngĠ":10053,"wÇĶĠhÃłnĠ":10054,"ĠyÃ¹ĠjÃ¬Ġ":10055,"DNA":10056,"Ġë":10057,"ĠtÃŃĠchÅ«Ġ":10058,"yuÃ¡nĠbÃ¹Ġ":10059,"chÄĵĠxÃŃngĠ":10060,"fÃ¨nĠdeĠ":10061,"1919ĠniÃ¡nĠ":10062,"ĠzhÅįngĠxÄ«nĠdeĠ":10063,"ĠdÃłĠxiÇİoĠ":10064,"gÃ©ĠlÄģĠsÄ«Ġ":10065,"OR":10066,"ĠpÃ©ng":10067,"wÃłnĠlÃ¬Ġ":10068,"hÅ«ĠxÄ«Ġ":10069,"elĠ":10070,"ĠdÃłĠlÇĲĠ":10071,"jÃ¹ĠlÃŃ":10072,"liÃ¡nĠluÃ²Ġ":10073,"ĠdeĠdÃ¬ĠsÄģnĠ":10074,"shÅįuĠfÃ¨iĠ":10075,"hÄĽnĠdÃłĠdeĠ":10076,"mÃ¡oĠdÃ¹nĠ":10077,"ĠfÃ¡n":10078,"jÃ¬ĠzhÃ¬Ġ":10079,"jiÄĵĠshÃ¬Ġ":10080,"jiÃ¨ĠshÃŃĠ":10081,"hÄģĠlÇĲĠ":10082,"huÇĴĠlÃ¬Ġ":10083,"rÃ©ngĠwÃ¨iĠ":10084,"atĠĠĠ":10085,"kuÃłĠyuÃ¨Ġ":10086,"TVĠ":10087,"tyĠ":10088,"ĠshÃ¬ĠÃ©ĠluÃ³ĠsÄ«Ġ":10089,"ĠrÃ©nĠbÃ¨iĠ":10090,"yÃ²ngĠhÃ¹":10091,"dÃ²ngĠwÃ¹":10092,"shuÇĲĠliÃłngĠ":10093,"xiÃ©ĠtiÃ¡oĠ":10094,"huÇĴĠchÄĵĠzhÃłnĠ":10095,"nÃ³ngĠchÇİngĠ":10096,"chÅįngĠmÇİnĠ":10097,"xuÄģnĠyÃ¡nĠ":10098,"ĠchÃ¬ĠwÄĽiĠ":10099,"ĠĠĠÃ¨rĠ":10100,"ĠĠĠjiÇİnĠlÃ¬Ġ":10101,"zhÃłnĠyÇĴuĠ":10102,"chÄĵngĠshÃ¬Ġ":10103,"gÇĶĠxÄ«ĠlÃł":10104,"sÄĵngĠ":10105,"yÃ¬ĠmÃŃngĠ":10106,"wÃ¹ĠpÇĲnĠ":10107,"duÅįĠzhÇĴng":10108,"ĠyÃ³uĠtÃłiĠ":10109,"hÇİiĠnÃ¡nĠ":10110,"shÄĽngĠzhÇİngĠ":10111,"huÃ¡ngĠjÄ«nĠ":10112,"chuÃłngĠzÃło":10113,"ĠxiÃłnĠshÃŃĠyÃ³uĠ":10114,"ĠĠĠjÇĲnĠguÇİnĠ":10115,"ĠĠĠkÇİĠ":10116,"hÇİiĠdeĠ":10117,"tÅ«ĠjÄ«Ġ":10118,"ĠrÃ©nĠyÇĶĠ":10119,"ĠjÃŃĠgÅįngĠ":10120,"ĠyÇĲĠbÃ¹Ġ":10121,"qÅ«ĠnÃ¨iĠ":10122,"shÅįuĠgÃ²u":10123,"qÄ«ĠzhÃ¬Ġ":10124,"jÃ¹nĠdeĠ":10125,"sisĠ":10126,"ĠdÃłoĠdÃ¡":10127,"ĠdÃ©ĠdÃło":10128,"ĠzhÃ¨ĠzuÃ²Ġ":10129,"nÃŃĠsÅ«Ġ":10130,"mÄĽiĠxiÇİoĠshÃŃĠ":10131,"ĠjÄ«ngĠchÃ¡ngĠ":10132,"zhÅįuĠbiÄģn":10133,"ĠjiÃłnĠzhÃ¹ĠwÃ¹Ġ":10134,"ĠkÄĵĠxuÃ©Ġ":10135,"xÄ«nĠjiÃłnĠ":10136,"zÃłoĠxÃŃngĠ":10137,"ĠdÃ©ĠjÅ«nĠ":10138,"shÄĵnĠtÇĲ":10139,"shÇĲĠyÃ²ngĠzhÄĽĠ":10140,"ĠzhÃ¨ĠshÃŃĠ":10141,"wÃłngĠyuÇİnĠjÃ¬ngĠ":10142,"ĠĠĠ2022ĠniÃ¡nĠ":10143,"xÃ¹ĠdeĠ":10144,"cÃ©ngĠbÃ¨iĠ":10145,"spanĠ":10146,"ĠdÃłĠbÇİnĠ":10147,"ĠchÅ«ĠchÇİngĠ":10148,"lÃ³ngĠshÄĽngĠ":10149,"xiÅ«ĠdÃ¬ngĠ":10150,"ght":10151,"je":10152,"ĠĠĠjÄ«ngĠlÃ¬Ġ":10153,"liÃ¹ĠmÃŃngĠ":10154,"luÇİnĠ":10155,"ĠdÃ¬ĠyÄ«ĠwÃ¨iĠ":10156,"ĠjÃŃĠhuÃ¬Ġ":10157,"ĠjÃŃĠqÃŃĠtÄģĠ":10158,"jÇĶĠzhÃ¨nĠ":10159,"zhÅįngĠguÃ³ĠdÃłĠlÃ¹Ġ":10160,"8ĠmÇĲĠ":10161,"ami":10162,"fÃłĠ":10163,"ĠguÃ³ĠyÇĴuĠ":10164,"ĠchÅ«ĠxÃŃ":10165,"xÃ¬ĠjiÃ©Ġ":10166,"liÃ¡nĠluÃ²":10167,"ĠshÄĵngĠtÃłiĠ":10168,"mÄĽiĠtiÄģnĠ":10169,"jiÇİngĠjÄ«nĠ":10170,"nuÃ²ĠfÅ«Ġ":10171,"ĠguÄģnĠzhuÃłngĠbÃ¬ngĠdÃº":10172,"ĠEĠ":10173,"Ġ2001":10174,"ĠpÃºĠtÃ¡oĠyÃ¡":10175,"ÇĲĠ":10176,"nÃłĠÄĽrĠ":10177,"11ĠniÃ¡nĠ":10178,"ĠdeĠgÄģoĠ":10179,"ĠrÃ©nĠzhÃ¬Ġ":10180,"ĠchÃ©ngĠyÄ«Ġ":10181,"ĠduÃ¬ĠxiÃłngĠ":10182,"shÃ²uĠhuÄģnĠyÃŃngĠ":10183,"guÄ«ĠdÃ¬ng":10184,"cÃ¡iĠpÃłnĠ":10185,"tuÅįĠlÃŃĠ":10186,"cÄģnĠyÃ¬ĠyuÃłnĠ":10187,"ĠlÃ¬ĠfÇİĠhuÃ¬Ġ":10188,"yÃłĠhÃ©Ġ":10189,"zÃ©ĠbÃ¨iĠ":10190,"chÃ³ngĠjiÃłn":10191,"pÅ«Ġ":10192,"ĠzÃłiĠfÇİĠguÃ³Ġ":10193,"ĠqÃŃĠB":10194,"xuÄģnĠchÄĵngĠ":10195,"ĠlÃºnĠ":10196,"ĠĠĠlÃŃnĠ":10197,"shÃ¨ngĠdÃłnĠ":10198,"bÇİĠtÄģĠ":10199,"book":10200,"68ĠniÃ¡nĠ":10201,"ĠshÃŃĠrÃ¨n":10202,"yÃ¡nĠfÄģĠ":10203,"jiÃłoĠgÄģoĠ":10204,"zhÇĲĠshÃ¹Ġ":10205,"ĠrÃ¨nĠmÃ¬ngĠ":10206,"pÃ¡iĠliÃ¨Ġ":10207,"biÇİoĠxiÃłnĠchÅ«Ġ":10208,"ĠjÃŃĠxÃŃngĠzhÃ¨ngĠdÄģnĠwÃ¨iĠ":10209,"ĠÃłoĠdÃłĠlÃ¬ĠyÃłĠ":10210,"Ġk":10211,"ĠqÃ¹Ġ":10212,"fÄģngĠxÃŃngĠ":10213,"zhuÄģngĠwÃ¨iĠ":10214,"1911ĠniÃ¡nĠ":10215,"ĠshÃŃĠsÄģnĠ":10216,"ĠyÃºĠ2019":10217,"ĠÃ©rĠhÃ²uĠ":10218,"zhÇĶĠdÃ²ngĠ":10219,"bÃ¬ĠyÃłoĠ":10220,"ĠyÃŃnĠwÄĽiĠ":10221,"0ĠzuÃ²ĠbiÄģoĠwÃ¨iĠ":10222,"2ĠlÃ¬Ġ":10223,"xÃŃngĠdeĠ":10224,"ziĠshÃ¬Ġ":10225,"fÄĵiĠdÃłnĠ":10226,"zhÄĵnĠrÃ©nĠ":10227,"wÃ©iĠyÄ«ĠdeĠ":10228,"bÃ¨iĠÄĽrĠ":10229,"ĠdÃłnĠshÃ¬ĠzÃłiĠ":10230,"ĠdÃłnĠzuÃ¬ĠzhÅįngĠ":10231,"jiÄģoĠgÄĽiĠ":10232,"xÃ¹nĠsÃ¹":10233,"huÇĴĠchÄĵĠ":10234,"rÃ©nĠmÃŃnĠzhÃ¨ngĠfÇĶĠ":10235,"ĠhÃºĠbÄĽiĠ":10236,"ĠwÃ¨iĠyÃºĠyÃŃnĠjÄ«ngĠ":10237,"ĠqÃŃĠB1900":10238,"0ĠzuÃ²ĠbiÄģoĠwÃ¨iĠchÃ¬ĠjÄ«ngĠ":10239,"ĠĠĠ11ĠyuÃ¨Ġ":10240,"jiÄģngĠjÅ«n":10241,"liÃ¡nĠjÅ«nĠ":10242,"lÄģĠwÃ©iĠ":10243,"bÃ³ĠÄĽrĠ":10244,"lÃºnĠdeĠ":10245,"ï¼İ":10246,"ĠzhÅįngĠhuÃ¡":10247,"jÄ«ĠdÅ«Ġ":10248,"ĠxÃŃngĠtÃłiĠ":10249,"gÃ¨ngĠdÃłĠdeĠ":10250,"tÇĶĠrÇİng":10251,"ĠjiÃłnĠzhÃ¹ĠmiÃłnĠjÄ«Ġ":10252,"ĠxÃ¬ĠbÄģoĠ":10253,"kÃ²ngĠzhÃ¬ĠdeĠ":10254,"gÃ²ngĠhÃ©ĠdÇİngĠ":10255,"lan":10256,"ĠwÅ«ĠkÃ¨ĠlÃ¡n":10257,"ĠĠĠsÄģnĠ":10258,"ĠĠĠfÄĵnĠbÃ¹Ġ":10259,"mÃŃngĠhÃ©Ġ":10260,"suÇĴĠyÇĲĠ":10261,"jiÄģoĠzhÃłnĠ":10262,"peĠ":10263,"1926ĠniÃ¡nĠ":10264,"ĠsÄ«ĠzhÃŃĠ":10265,"guÄģnĠxÃ¬ĠdeĠ":10266,"xiÄģoĠfÃ¡ngĠ":10267,"Ġãĥ³":10268,"ĠzÃ©ĠshÃ¬Ġ":10269,"ĠqÄ«ngĠchÃ¡oĠzhÃ¨ngĠzhÃ¬ĠrÃ©nĠwÃ¹Ġ":10270,"KB":10271,"huÃłĠyÇĶĠ":10272,"xiÃłngĠyÃºĠ":10273,"sÇĲĠleĠ":10274,"yÃ³uĠxÃ¬ĠdeĠ":10275,"xiÃłoĠlÇľĠ":10276,"ÅįuĠmÃ©ngĠ":10277,"ĠTĠ":10278,"ĠhuÃ¡n":10279,"ĠĠĠshÃłngĠ":10280,"biÄģnĠzhÃ¬Ġ":10281,"shÄģĠrÃ©nĠ":10282,"zhÅįngĠhuÃ¡ĠmÃŃnĠguÃ³Ġ":10283,"ĠjÃŃĠtÇĲĠ":10284,"ĠĠĠchÄĵĠzhÃłnĠgÃ²uĠzÃłoĠ":10285,"luÃ²ĠfÃ¡ĠkÃ¨Ġ":10286,"ĠÅįu":10287,"Ġ1985ĠniÃ¡nĠ":10288,"ĠĠĠ6":10289,"ĠĠĠY":10290,"ĠĠĠpÃŃngĠ":10291,"lÃ¹nĠshÃ¬Ġ":10292,"xiÄĽĠwÃ¨iĠ":10293,"75ĠniÃ¡nĠ":10294,"wÄĵngĠ":10295,"ĠshÃŃĠbÄģĠ":10296,"ĠyÃºĠtÃ³ng":10297,"ĠdÃłĠjiÄĵĠ":10298,"jÄ«nĠshÇĶ":10299,"ĠjÃ¹ĠqÃŃngĠ":10300,"zÃºĠqÃºnĠ":10301,"ĠmÇĶĠqÄ«n":10302,"jiÄĽĠfÃłngĠjÅ«n":10303,"ĠĠĠchÃºĠ":10304,"dÇİoĠhÃ©Ġ":10305,"mÃłnĠdeĠ":10306,"kÃłngĠzhÃłnĠ":10307,"ĠjÃŃĠchÃ©ngĠ":10308,"jÄ«ĠchÄĵĠ":10309,"yÃŃĠbÃłnĠ":10310,"jiÃłĠgÃ²uĠ":10311,"xÇĶĠkÄĽĠ":10312,"ÃłiĠÄĽrĠlÃ¡n":10313,"ĠzhÄĽngĠgÃ¨Ġ":10314,"wÇĴĠdeĠ":10315,"dÄģĠzÃłiĠ":10316,"zhÇĶĠquÃ¡nĠ":10317,"ĠqiÃºĠduÃ¬":10318,"4ĠmÇĲĠ":10319,"zhÃŃĠxÃŃng":10320,"nÃ¨iĠsÄ«Ġ":10321,"dÇĴngĠ":10322,"wÃ¹ĠtÇĲĠ":10323,"zhÇĲĠdÃ¬ng":10324,"jÇĲnĠzhÄģngĠ":10325,"zhÄĵnĠzhÃ¨ngĠdeĠ":10326,"cÇİiĠyÃ²ngĠleĠ":10327,"ĠdÃłĠbÃ¹ĠfÃ¨nĠ":10328,"shÃ¹nĠshÃŃĠzhÄĵnĠyÇĶĠ":10329,"Ġ160":10330,"bÄģĠsÄ«Ġ":10331,"cÄģnĠjiÃłnĠ":10332,"wÄĵnĠdÃłiĠ":10333,"hÅ«nĠyÄ«n":10334,"64ĠniÃ¡nĠ":10335,"tiÄĵĠmÃ¹":10336,"1918ĠniÃ¡nĠ":10337,"ĠyÄ«ĠshÃŃĠ":10338,"ĠyÇĲĠdÅįngĠ":10339,"ĠxiÃłnĠzhÇİngĠ":10340,"zÃ¬ĠwÇĴĠ":10341,"fÄĵngĠgÃ©ĠdeĠ":10342,"pÇĶĠlÄģĠ":10343,"tÃŃĠqiÃ¡nĠ":10344,"sÃ¨ĠcÇİiĠ":10345,"liÃ¡nĠmÃ©ngĠdeĠ":10346,"ĠwÄĽi":10347,"ĠxiÅįng":10348,"zÃ©ĠyÃ³uĠ":10349,"pÄ«nĠ":10350,"ĠshÃ¬ĠtÃ¡iĠwÄģnĠ":10351,"ĠdÃłĠduÃ¬Ġ":10352,"zhÇĶĠdÇİĠ":10353,"guÄģnĠkÃłnĠ":10354,"suÇĴĠxÅ«":10355,"ĠĠĠ2009ĠniÃ¡nĠ":10356,"lÃ¡iĠshÃ¬Ġ":10357,"duÅįĠÄĽrĠ":10358,"lÃŃnĠjÃ¬nĠ":10359,"zhÃ¨nĠjÃŃĠxÃŃngĠzhÃ¨ngĠdÄģnĠwÃ¨iĠ":10360,"ĠbÃ¹ĠchÃ©ngĠ":10361,"fÄģngĠbiÃłnĠ":10362,"ĠyÃ³uĠzhÃ¨ngĠ":10363,"juÃ©ĠsÃ¨ĠdeĠ":10364,"dÃ¬ngĠyÃ¬ĠwÃ¨iĠ":10365,"ĠzÃ¬ĠrÃ¡n":10366,"tÃºĠÃłnĠ":10367,"chÃ³ngĠfÇİnĠ":10368,"ĠyÇĲnĠfÄģĠ":10369,"7ĠmÇĲĠ":10370,"ĠzÃłoĠ":10371,"ĠĠĠtÄģĠdeĠ":10372,"shÃ¨ngĠdeĠ":10373,"ĠzhÅįngĠyÄ«Ġ":10374,"ĠzhÃ¬ĠyuÃ¡nĠ":10375,"shÄĵngĠgÃ©ĠwÃ¨iĠ":10376,"ĠjiÃłnĠkÄģng":10377,"ĠquÃ¡nĠxiÃłnĠ":10378,"zuÃ¬ĠzhÃ²ngĠyÃłoĠdeĠ":10379,"ĠzhÃ¨ĠyÃłng":10380,"zhÇĴngĠlÃ¨iĠ":10381,"kÃłnĠfÇİĠ":10382,"ĠwÄĵiĠÄĽrĠ":10383,"ĠzÅįngĠ":10384,"ĠliÃ¨ĠchÄĵĠ":10385,"ĠsÅįngĠ":10386,"ÃłnĠlÃ¬Ġ":10387,"ĠĠĠÃ©rĠ":10388,"28ĠniÃ¡nĠ":10389,"raĠ":10390,"bÃŃĠ":10391,"ĠshÃ¬ĠlÃ¡ngĠ":10392,"ĠzÃłiĠqiÃ¡nĠ":10393,"ĠzhÅįngĠjiÃłngĠ":10394,"ĠjÃŃĠbiÃ©Ġ":10395,"ĠÃ©rĠtÃ³ng":10396,"ĠshÃłngĠyÃ¬ngĠ":10397,"cÃ¬ĠshÃ¹Ġ":10398,"tÃ³ngĠyÃłngĠ":10399,"cÄģnĠguÄģnĠ":10400,"ĠzhÃ¨ngĠfÇĶĠdeĠ":10401,"ĠrÃ©nĠkÇĴuĠwÃ¨iĠ":10402,"ĠĠĠgÇĶĠ":10403,"ĠĠĠguÃ³ĠjÃ¬Ġ":10404,"jÇĲngĠwÃ¨iĠ":10405,"xiÄģnĠwÃ©iĠ":10406,"jiÃłĠdeĠ":10407,"1914ĠniÃ¡nĠ":10408,"ĠyÄ«ĠliÃ¡o":10409,"ĠyÄ«nĠÃ©r":10410,"jiÄģnĠchÃŃĠ":10411,"ĠkÄģiĠfÄģĠ":10412,"yÃ²uĠyÃ¬Ġ":10413,"xiÄģnĠdeĠ":10414,"90Ġ":10415,"mÃ¡iĠ":10416,"yÃ¬ĠhuÃ¬Ġ":10417,"ĠyÃºĠ2016":10418,"ĠzhÅįuĠzhÇİngĠ":10419,"wÇİngĠwÇİng":10420,"jiÇİnĠchÃ¡":10421,"shÄĽnĠpÃłnĠ":10422,"Ġ17Ġ":10423,"hÃ¹nĠnÃŃngĠ":10424,"Ġ58":10425,"shÃ²uĠdÃłoĠleĠ":10426,"qÃ¹ĠleĠ":10427,"65ĠniÃ¡nĠ":10428,"ĠgÃ¨ĠguÃ³ĠjiÄģĠ":10429,"ĠyÇĶĠxÄ«Ġ":10430,"dÄģnĠdÃºĠ":10431,"biÄģnĠzÇĶĠ":10432,"ĠtÃłiĠguÃ³Ġ":10433,"ĠguÇİngĠxÄ«Ġ":10434,"ĠĠĠxiÇİoĠ":10435,"shÄ«ĠjÃŃĠ":10436,"shÄĵnĠyÃºĠ":10437,"lÃ¹nĠdeĠ":10438,"xÃ¹nĠxÄ«Ġ":10439,"62ĠniÃ¡nĠ":10440,"umĠ":10441,"ĠzhÅįngĠduÃłnĠ":10442,"ĠdÃłĠchÃ©n":10443,"qÃºnĠdÇİoĠdeĠ":10444,"Ã¨ĠhuÃłĠ":10445,"ĠnÃŃ":10446,"ĠbÄ«nĠ":10447,"ĠĠĠ7":10448,"mÃŃngĠyÃºĠ":10449,"xÃ¬ngĠmÃŃngĠ":10450,"1950ĠniÃ¡nĠ":10451,"ĠyÇĶĠwÃ©nĠ":10452,"zhÃ¹ĠshÇĴuĠ":10453,"miÃłnĠxiÃłngĠ":10454,"chÄĵngĠhÅ«Ġ":10455,"ĠyÃ³uĠqÃŃĠ":10456,"ĠJĠ":10457,"bÄģĠjÄ«ĠsÄ«Ġ":10458,"ĠshÃ¬ĠchÃ©ngĠ":10459,"ĠshÃ¬ĠchÅ«Ġ":10460,"ĠyÇĴuĠmÃŃngĠ":10461,"ĠdÃłoĠshÃŃĠ":10462,"ĠyÇĲĠcÇĲĠ":10463,"jiÃłoĠliÃłn":10464,"ĠzhÅįuĠfÃ¹ĠzÃ©ĠguÇİnĠxiÃ¡Ġ":10465,"wÃłiĠlÃ¡ngĠ":10466,"tiÄģnĠwÃ©nĠxuÃ©Ġ":10467,"xiÇİngĠyÃłoĠ":10468,"jiÇİngĠpÃ¡iĠ":10469,"gÄĵnĠsuÃŃĠ":10470,"ĠzhÃłnĠhÃ²uĠ":10471,"ĠÃłiĠÄĽrĠ":10472,"tiÃ¡oĠyuÄĵĠtÇĲĠxÃ¬Ġ":10473,"4ĠmÃŃngĠ":10474,"7ĠgÃ¨Ġ":10475,"Ġ47":10476,"ÄģnĠxiÃłnĠ":10477,"ĠĠĠluÃ³Ġ":10478,"ĠĠĠwÃ¡ngĠ":10479,"ĠĠĠzuÃ²ĠwÃ©iĠ":10480,"suÇĴĠshÃ¬Ġ":10481,"tÃ¡ngĠhÃ©Ġ":10482,"ĠzhÅįngĠshÄģn":10483,"hÃ²uĠqÄ«Ġ":10484,"jÄ«ngĠyÃłn":10485,"sÃ¹ĠdÃ¹":10486,"pÃ©iĠxÃ¹n":10487,"ĠpÃŃngĠchÃ©ngĠ":10488,"AL":10489,"Ġ1988ĠniÃ¡nĠ":10490,"jÃ¬ĠbÃ¹Ġ":10491,"wÃ¹ĠbÃ¹Ġ":10492,"ther":10493,"70Ġ":10494,"jÄ«ĠhuÃ¬Ġ":10495,"zhÇĶĠbÃłnĠ":10496,"fÃ¹ĠmÇĶĠ":10497,"jiÄģnĠchÃ¡":10498,"gÄĵĠshÇĴu":10499,"ĠxiÄģngĠguÄģnĠdeĠ":10500,"ĠzhÃŃĠjiÄĵĠ":10501,"ET":10502,"Ġ1984ĠniÃ¡nĠ":10503,"suÄģnĠjiÇİnĠ":10504,"ĠdeĠxÃŃngĠ":10505,"fÄģngĠÃłn":10506,"qiÃ¡nĠshÄĵnĠ":10507,"xuÇİnĠmÃŃnĠ":10508,"kÄĵĠhuÃ¬ĠshÃ¬ĠdÃ¬Ġ":10509,"Ã¨rĠshÃŃĠniÃ¡nĠ":10510,"ĠdeĠshÃŃĠjiÄģn":10511,"ĠguÃ³ĠfÃ¡ngĠbÃ¹Ġ":10512,"ĠĠĠ2007ĠniÃ¡nĠ":10513,"xiÇİngĠyÇĴuĠ":10514,"ĠjÄ«ĠfÄĵnĠ":10515,"yÃ³uĠjÃº":10516,"piÃłnĠduÃłnĠ":10517,"ĠlÃ¡iĠzÃ¬":10518,"nÃ¡nĠjÃŃĠtiÃ¡oĠyuÄĵĠtÇĲĠxÃ¬Ġ":10519,"Ġ600":10520,"ĠĠĠquÃ¡nĠ":10521,"tÄ«ngĠdÃłoĠ":10522,"yÃŃnĠhÃ©Ġ":10523,"tÅ«ĠrÃ¡n":10524,"cÃ¡nĠjÃŃĠrÃ©nĠ":10525,"ĠbÃ¹ĠlÇĶĠ":10526,"ĠrÃ©nĠquÃ¡nĠ":10527,"ĠgÅįngĠdÇİĠ":10528,"ĠchÅ«ĠyÃºĠ":10529,"zÃ¬ĠshÄģĠ":10530,"pÇĲnĠzhÇĴngĠ":10531,"rÃ³ngĠliÃłngĠ":10532,"jÇĲĠnÃ¨iĠ":10533,"ĠgÄģiĠcÅ«nĠshÇĲĠjiÃłnĠyÃºĠ":10534,"Ġ64":10535,"ĠzÄ«Ġ":10536,"ĠĠĠe":10537,"yÃºĠwÃ¨iĠ":10538,"zhÃ¨ngĠyÃ¬Ġ":10539,"zhÃłnĠwÃ¨iĠyÃºĠ":10540,"zhÃ¹ĠyÇĴuĠ":10541,"ĠshÃ¬ĠpÃŃnĠ":10542,"ĠzÃłiĠnÃ¨iĠ":10543,"wÃ©iĠyÄĽĠ":10544,"diÃłnĠchÃŃĠ":10545,"duÅįĠshÃ¹":10546,"qÃŃngĠgÇİnĠ":10547,"rÃ¨ĠdÃłi":10548,"ĠzhÃŃĠxÃŃngĠ":10549,"ĠÄģnĠhuÄ«Ġ":10550,"ĠxÃŃngĠchÃ©ngĠleĠ":10551,"ĠjÃ¬ngĠnÃ¨iĠ":10552,"qÃŃĠzhÅįngĠyÃŃĠgÃ¨Ġ":10553,"xiÃłĠxiÃ¡ĠdeĠyÃŃĠgÃ¨ĠxiÄģngĠzhÃ¨nĠjÃŃĠxÃŃngĠzhÃ¨ngĠdÄģnĠwÃ¨iĠ":10554,"ĠlÃ³ng":10555,"mÇİĠshÃ¬Ġ":10556,"zhÃ¨nĠdÃ¬Ġ":10557,"wÃ©iĠchÃŃ":10558,"vo":10559,"Ġ1990ĠniÃ¡nĠ":10560,"ÄģĠsÄ«Ġ":10561,"ĠĠĠjÃ¬n":10562,"mÃ©iĠtÃ³ngĠpÃ¡iĠ":10563,"tÇİĠjÄ«Ġ":10564,"gÅįngĠmÃŃnĠ":10565,"ĠshÃŃĠyÇĴuĠ":10566,"ĠchÃ©ngĠgÅįngĠdeĠ":10567,"ĠyÄ«ĠlÃłi":10568,"ĠjÄ«ĠbÄĽn":10569,"ĠjiÄģĠlÇĲĠ":10570,"ĠkÃ¨ĠyÇĶĠ":10571,"huÃłĠguÄ«Ġ":10572,"fÃºĠzhuÄģngĠ":10573,"zhÃ¨nĠyÄģĠ":10574,"sÃ¹ĠsÃ²ngĠ":10575,"kÇİoĠchÃ¡Ġ":10576,"pÄ«ĠpÃłnĠ":10577,"ĠsÄ«ĠlÃ¬ngĠyuÃ¡nĠ":10578,"ĠdÄ«Ġ":10579,"ĠĠĠfor":10580,"liÇİngĠzuÃ²Ġ":10581,"nÃ³ngĠlÃ¬Ġ":10582,"ĠzÃłiĠnÃłĠ":10583,"ĠyÃ¬ĠxÃŃĠ":10584,"ĠrÃ¬ĠyÇĲĠ":10585,"ĠjiÃłnĠdÃłoĠ":10586,"ĠhÃ²uĠzhÄĽ":10587,"ĠdÃ©ĠluÃ³Ġ":10588,"jiÃłoĠdÃłĠdeĠ":10589,"wÃ©nĠzhÄģng":10590,"ĠwÃ©iĠwÃºĠÄĽrĠ":10591,"jiÄģngĠnÃ¡nĠ":10592,"ĠzuÃ²ĠzhÄĽĠ":10593,"qÇĲĠyuÃ¡nĠyÃºĠ":10594,"bÅįĠtÃ¨Ġ":10595,"ĠFĠ":10596,"1ĠmÇĲĠ":10597,"ĠshÃ¹":10598,"ĠfÃłn":10599,"ĠzÇĶĠzhÄ«Ġ":10600,"ĠkÄģiĠshÇĲ":10601,"yÃ²ngĠzÃłiĠ":10602,"ĠzÃłiĠchÃ©ngĠ":10603,"ĠyuÃ¨ĠyÇĶĠ":10604,"fÇİĠlÃ¡nĠxÄ«Ġ":10605,"ĠjiÃ©ĠhÅ«nĠ":10606,"shÅįuĠcÃ¡ngĠ":10607,"tiÄģnĠwÃ©nĠtÃ¡iĠ":10608,"ĠxiÇİnĠshÃ¬Ġ":10609,"ĠĠĠsuÄ«ĠrÃ¡n":10610,"wÃ©iĠgÅįngĠ":10611,"tÃ¨ĠshÃ¬Ġ":10612,"fÃ¡ngĠxiÃłnĠ":10613,"1990ĠniÃ¡nĠdÃłiĠ":10614,"kuÄģngĠjiÃłĠ":10615,"ĠxÄ«ĠtÃ¨Ġ":10616,"ĠbÃ¬ngĠbÃºĠshÃ¬Ġ":10617,"qÄ«ngĠxiÃłngĠ":10618,"ĠxiÃłĠlÃ¡iĠ":10619,"jiÄĽĠsÃłn":10620,"mÃ²ĠqÄ«Ġ":10621,"ĠniÃ¡nĠ4ĠyuÃ¨Ġ1ĠrÃ¬Ġ":10622,"yÃ¬nĠnÃŃ":10623,"xiÇİoĠxÃŃngĠxÄ«ngĠdeĠ":10624,"nÃ¡nĠjÃŃĠtiÃ¡oĠyuÄĵĠtÇĲĠxÃ¬ĠguÇİnĠlÇĲĠ":10625,"ĠĠĠzhÃŃĠyÃ¨ĠshÄĵngĠyÃ¡Ġ":10626,"leĠzhÅįngĠguÃ³Ġ":10627,"biÄģnĠxÃŃngĠ":10628,"luÃ²ĠyÄ«Ġ":10629,"cÃŃĠjÄ«Ġ":10630,"shÃŃĠyÄ«Ġ":10631,"ĠshÃŃĠtÇĲĠ":10632,"ĠdÃłĠqÃ¬Ġ":10633,"huÃ¬ĠshÃłngĠ":10634,"fÇİĠxuÃ©Ġ":10635,"fÄĵnĠlÃŃ":10636,"shÃłoĠnÇļ":10637,"ĠTheĠĠĠ":10638,"IV":10639,"UN":10640,"Ġ1989ĠniÃ¡nĠ":10641,"kÄĵĠlÃ¬Ġ":10642,"shÄĽngĠfÃ¹ĠzÃ©ĠguÇİnĠxiÃ¡Ġ":10643,"hÃ¹ĠwÃ¨iĠ":10644,"lÄĽiĠjÄ«Ġ":10645,"sÇİnĠ":10646,"ĠdÃ¬ĠyÃ¹Ġ":10647,"wÃ©iĠchÃŃĠ":10648,"qiÃ¡nĠlÃ¡iĠ":10649,"shÄģngĠhÃłiĠ":10650,"tiÃ¡oĠjiÃ©Ġ":10651,"yÃŃĠgÃ¨ĠyuÃ¨Ġ":10652,"dÄģngĠxuÇİnĠwÃ¨iĠ":10653,"ĠliÃ¡nĠbÄģng":10654,"ĠjÃŃĠbÄĽiĠmÄĽiĠ":10655,"gÄĽnĠdÃ¬Ġ":10656,"Ġ1945":10657,"ÃłiĠhÃłoĠ":10658,"rÃ¬ĠjÅ«nĠ":10659,"miÃ¨ĠjuÃ©Ġ":10660,"shÇİnĠ":10661,"ĠdeĠzhÄ«ĠchÃŃĠ":10662,"ĠshÃ¬ĠzhÃ¬Ġ":10663,"ĠchÃ©ngĠfÃ¨nĠ":10664,"ĠzhÄ«ĠlÇĲĠ":10665,"ĠyuÃ¡nĠyÄ«nĠshÃ¬Ġ":10666,"xÄ«ĠwÃłng":10667,"ĠdÃłnĠyÄĽĠ":10668,"ĠfÃ¹ĠzhÇĶĠxÃŃĠ":10669,"zhÃ²ngĠliÃłngĠ":10670,"lÃ©iĠdÃ¡Ġ":10671,"ĠshÃ¬ĠjiÃ¨ĠbÄĵi":10672,"chÇĲĠcÃ¹n":10673,"wÃ©iĠyÄ«ĠyÄ«Ġ":10674,"ĠĠĠwÃłiĠbÃ¹Ġ":10675,"zuÃ¬ĠyÇĴuĠ":10676,"mÃ²ĠniÃ¡nĠ":10677,"jiÇİnĠyÃ¬Ġ":10678,"sÃłĠkÃ¨ĠsÄ«Ġ":10679,"37ĠniÃ¡nĠ":10680,"jiÃłoĠzÅįngĠ":10681,"ĠzhÃ¨ngĠcÃ¨":10682,"yÇİnĠhuÃłĠ":10683,"tÃ³ngĠmÃ©ng":10684,"tÃŃngĠzhÇĲ":10685,"ĠchÄģoĠ":10686,"ĠcÃ¡oĠ":10687,"fÄĵiĠÄĽrĠdÃ©Ġ":10688,"shuÇĲĠdÃłoĠ":10689,"pÃ©nĠdÃ¬Ġ":10690,"ĠwÃ¨iĠjÃŃĠ":10691,"ĠxÄ«ĠzÃłngĠ":10692,"ĠkÃ¨ĠzÃłiĠ":10693,"xiÃłĠlÃ¬ngĠ":10694,"shÄģĠbÃ¡iĠ":10695,"jiÇĶĠlÃ³ng":10696,"ĠjiÄĵĠshÃ²uĠ":10697,"ĠniÃ¡nĠdÃłiĠdeĠ":10698,"Ġ800":10699,"ĠjiÄĵĠwÃ¨iĠ":10700,"jiÃłnĠshÃ¨":10701,"sÃ¬ĠwÃ¨iĠ":10702,"mentĠ":10703,"ĠdeĠqÃŃngĠkuÃłngĠxiÃłĠ":10704,"ĠdÃ¬Ġ3Ġ":10705,"ĠyÃºĠ2018":10706,"ĠchÃ©ngĠjiÃ¹Ġ":10707,"ĠyÄ«ĠshÄ«Ġ":10708,"ĠgÃ¨ĠlÃ¨iĠ":10709,"ĠrÃ©nĠmÃŃnĠzhÃ¨ngĠfÇĶ":10710,"ĠĠĠzhÅįngĠhuÃ¡ĠrÃ©nĠmÃŃnĠgÃ²ngĠhÃ©ĠguÃ³Ġ":10711,"ĠhuÃ¡ĠshÃ¨ngĠ":10712,"cÄģnĠsÃłiĠzÄ«ĠgÃ©Ġ":10713,"shÄģnĠmÃłiĠdeĠyÄ«ĠbÃ¹ĠfÃ¨nĠ":10714,"ĠhuÄ«Ġ":10715,"ĠdÃºĠlÃ¬Ġ":10716,"ĠlÄĽiĠjÃ¬Ġ":10717,"ĠĠĠjiÃ©Ġ":10718,"suÃŃĠjÄ«Ġ":10719,"rÃ©nĠkÇĴuĠwÃ¨iĠ":10720,"jÃ¬ĠhuÃł":10721,"ĠyÄ«ĠcÃ¬":10722,"ĠyuÃ¡nĠlÇĲĠ":10723,"ĠxiÃłnĠxÃ¬ngĠ":10724,"qÅ«ĠbiÃ©Ġ":10725,"tÅįngĠyÃ²ngĠ":10726,"shÃ²uĠsÇĶnĠ":10727,"tÃ³uĠxiÃ¡ng":10728,"ĠzhÇĶĠzhÄģngĠ":10729,"huÃŃĠdÃ¡Ġ":10730,"zhÃ¨ngĠzhÃ¬ĠjiÄģĠ":10731,"Ġ19Ġ":10732,"rÃ¨ĠdÃłiĠqÃ¬ĠxuÃ¡nĠ":10733,"ĠgÃ¨ĠyuÃ¨ĠhÃ²uĠ":10734,"Ġ1991ĠniÃ¡nĠ":10735,"ĠĠĠ5Ġ":10736,"huÃ¬ĠwÃ¨iĠ":10737,"hÇİiĠshÃ¬Ġ":10738,"xÃ¬nĠrÃ¨nĠ":10739,"manĠ":10740,"ĠzÃłiĠshÃłngĠ":10741,"ĠguÃ³ĠÄģnĠ":10742,"qiÃ¡nĠfÄĵngĠ":10743,"jiÇİnĠcÃ¨Ġ":10744,"tiÃ¡oĠkuÇİnĠ":10745,"diÃłnĠshÃ¬ĠjiÃ©ĠmÃ¹Ġ":10746,"ĠdeĠgÅįngĠnÃ©ngĠ":10747,"ĠmÃ¡o":10748,"ĠJa":10749,"ĠchÄģoĠguÃ²Ġ":10750,"xÄ«ĠyÃºĠ":10751,"juÃ©ĠwÃ¨iĠ":10752,"24ĠniÃ¡nĠ":10753,"1960ĠniÃ¡nĠdÃłiĠ":10754,"ĠdÃ¬ĠchÇİnĠ":10755,"ĠyÄ«ĠrÃ¡n":10756,"suÇĴĠwÃ¨iĠdeĠ":10757,"ĠzhÅįuĠkÄģnĠ":10758,"hÇİiĠbÃ¡ĠgÄģoĠdÃ¹Ġ":10759,"tÃ¡ngĠqÅ«Ġ":10760,"yÄ«nĠcÇĲĠ":10761,"ĠtÃ³ngĠxÃ¬ngĠ":10762,"Ġ18Ġ":10763,"ĠdeĠjÃ¬ĠshÃ¹Ġ":10764,"wÄĽnĠdÃ¬ngĠdeĠ":10765,"jiÃ©ĠchÅ«Ġ":10766,"bÄ«ngĠdeĠ":10767,"idĠ":10768,"ĠtÄģĠyÇĴuĠ":10769,"guÄģnĠliÃ¡nĠ":10770,"bÇİoĠxiÇİnĠ":10771,"ĠhuÃ²ĠchÄĵngĠ":10772,"dÅ«ĠchÃ¡Ġ":10773,"ĠjiÇİnĠchÄĵng":10774,"fÄģĠbiÇİoĠdeĠ":10775,"hÃ¹ĠliÃ¡nĠwÇİngĠ":10776,"pÄ«ng":10777,"ĠguÇİnĠlÇĲĠ":10778,"ĠĠĠ2006ĠniÃ¡nĠ":10779,"cha":10780,"yÇĶĠyÃ¬Ġ":10781,"xiÃłngĠwÃ¨iĠ":10782,"cÃ©ngĠrÃ¨nĠ":10783,"seĠĠĠ":10784,"ĠhÃ©ĠyÃ¬Ġ":10785,"ĠduÃ¬ĠfÄģngĠ":10786,"ĠquÃ¡nĠshÃ¬Ġ":10787,"cÃŃĠdiÇİnĠ":10788,"yÃłĠmÄĽiĠnÃŃĠyÃłĠ":10789,"ĠsÄģng":10790,"nÃ¡nĠshÃ¬Ġ":10791,"cÃ©ngĠyÇĴuĠ":10792,"gÇİiĠjÃ¬nĠ":10793,"zÄĵngĠshÃ¨Ġ":10794,"tuÄ«ĠlÇĲĠ":10795,"zuÄģnĠ":10796,"ĠlÃ¬ĠÃłoĠ":10797,"ĠzhÃ¨ngĠchÃ¡ngĠ":10798,"dÇİoĠshÄ«Ġ":10799,"pÇĶĠlÇĶĠshÃ¬Ġ":10800,"ĠdiÃłnĠziĠ":10801,"tuÄ«ĠchÅ«ĠleĠ":10802,"xiÅ«ĠdÃłoĠyuÃłnĠ":10803,"ĠrÃ³ng":10804,"ĠzhuÄ«Ġ":10805,"ĠĠĠhuÃ²Ġ":10806,"lÃ¹ĠshÃ¬Ġ":10807,"bÄĽiĠjÃŃĠ":10808,"liÃºĠqiÃºĠ":10809,"qÇĶĠzÃ¬Ġ":10810,"yÇĲnĠjÃ¬nĠ":10811,"andĠ":10812,"ĠhÃ©ĠyuÃ¡nĠ":10813,"ĠyÇĶĠqÃŃ":10814,"ĠdeĠshÃ¬ĠjiÃ¨":10815,"ĠkÄģng":10816,"ĠĠĠmÃŃnĠguÃ³Ġ":10817,"hÅ«nĠlÇĲĠ":10818,"ĠyÃºĠ2020":10819,"ĠyÃºĠ2024":10820,"ĠchÃ©ngĠzuÃ²Ġ":10821,"sÅ«ĠgÃ©ĠlÃ¡n":10822,"ĠcÇĲĠcÃ¬Ġ":10823,"OM":10824,"rĠĠĠ":10825,"Ġ65":10826,"ĠqiÃ¡oĠzhÃ¬Ġ":10827,"duÃ¬ĠzhÅįngĠ":10828,"67ĠniÃ¡nĠ":10829,"ĠdÃ¬ĠjiÇĶĠ":10830,"ĠtÄģĠbÃ¹Ġ":10831,"ĠxÃŃngĠchÃ¡i":10832,"ĠxÃŃngĠshÃ¬ĠdeĠ":10833,"zhÃ¨ngĠcÃ¨":10834,"dÃłiĠmÇİĠ":10835,"ĠleĠyÃŃĠgÃ¨Ġ":10836,"ĠxiÄģngĠguÄģn":10837,"liÃ¡ngĠhÇİoĠ":10838,"ĠxÃŃngĠzhÃ¨ngĠyuÃłnĠ":10839,"ĠbÄģngĠzhÃ¹Ġ":10840,"mÄĽiĠdeĠ":10841,"bÇİoĠhÃ©Ġ":10842,"chuÃ¡nĠdeĠ":10843,"tÃŃngĠzhÃłnĠ":10844,"nÃ¡ĠdÃł":10845,"38ĠniÃ¡nĠ":10846,"edĠĠĠ":10847,"dÇĴuĠ":10848,"ĠchÃ©ngĠdÅ«Ġ":10849,"jÄ«ĠbÃłiĠ":10850,"ĠyÇĶĠzhÄ«Ġ":10851,"ĠdÃłiĠmÇİĠwÃ¨iĠ":10852,"liÃºĠdÃ²ngĠ":10853,"lÃ¬ĠshÇĲĠshÃłngĠ":10854,"ĠxÃ¬ĠliÃ¨":10855,"ĠpÄģng":10856,"ĠxiÃłnĠshÃŃĠyÃ³uĠnÃ¡nĠjÃŃĠtiÃ¡oĠyuÄĵĠtÇĲĠxÃ¬ĠguÇİnĠlÇĲĠ":10857,"ĠLa":10858,"ĠSa":10859,"ĠbiÄģoĠ":10860,"ĠtÃ¡nĠ":10861,"ĠĠĠchÄĵĠzhÃłn":10862,"bÃ¡iĠrÃ©nĠ":10863,"dÇĲngĠjÃŃĠ":10864,"zÅ«ĠjiÃ¨":10865,"ĠyÃºĠ2015":10866,"ĠzhÃ¬ĠdÃ¹":10867,"ĠchÅ«ĠlÃ¡iĠdeĠ":10868,"tÃ¨ĠshÅ«":10869,"miÃłnĠ2":10870,"ĠduÅįĠcÃ¬Ġ":10871,"ĠwÇİ":10872,"ĠshÄĽngĠ":10873,"ĠyÃ¡nĠjiÅ«":10874,"ĠĠĠzhÄģngĠ":10875,"jiÃ©ĠshÃŃĠ":10876,"yÃ¨ĠhÃ©Ġ":10877,"luÃ²ĠyÃºĠ":10878,"ardĠ":10879,"ĠdÃ¬ĠshÃłngĠ":10880,"ĠgÅįngĠchÇİng":10881,"lÃ¹ĠyÇĲngĠdÃłiĠ":10882,"ĠbÄĽnĠzhÃłnĠ":10883,"ĠbÄĽnĠtÇĶĠ":10884,"shÃ©nĠshÃ¨ngĠ":10885,"ĠtiÄģnĠwÃ©nĠ":10886,"ĠzÇĶĠchÃ©ngĠ":10887,"ĠUĠ":10888,"ĠĠĠwÇĶĠ":10889,"pÃŃngĠrÃ©nĠ":10890,"piÃłnĠrÃ©nĠ":10891,"29Ġ":10892,"45Ġ":10893,"ĠyÃºĠ19":10894,"ĠyÃºĠlÃ©iĠ":10895,"dÃłĠxÃŃngĠ":10896,"yÃ¨ĠjiÄģnĠ":10897,"tÃŃĠgÄģo":10898,"liÇİngĠÃłnĠ":10899,"yÇĲĠjÄ«ng":10900,"ĠzÃłiĠdÃ¬ĠyÄ«Ġ":10901,"guÄģnĠfÃ¨iĠyÃ¡nĠquÃ¨ĠzhÄĽnĠbÃ¬ngĠlÃ¬Ġ":10902,"ĠĠĠshÄģĠ":10903,"ĠĠĠyÄ«nĠyuÃ¨Ġ":10904,"bÄĽiĠdeĠ":10905,"jiÄģoĠyÃ³uĠ":10906,"mÃłnĠdÃ¬ĠguÃ³Ġ":10907,"zhÄĽngĠlÇĲĠ":10908,"ĠdeĠyÇĴuĠ":10909,"ĠyÃºĠ2013":10910,"ĠyÇĴuĠguÄģnĠdeĠ":10911,"jÃ¬ĠshÃ¹":10912,"ĠgÅįngĠÄģnĠ":10913,"zhuÃłngĠtÃłi":10914,"ĠzhÃŃĠlÃ¬Ġ":10915,"pÃ©iĠyÇİng":10916,"ĠdÃ²ngĠhuÃłĠ":10917,"ĠĠĠzhÃ¨ĠkÄĵĠ":10918,"ĠgÃ²ngĠtÃ³ngĠ":10919,"rÃ¬ĠzhÃ¬Ġ":10920,"tÃ³ngĠwÃ¨iĠ":10921,"huÃŃĠdÃło":10922,"ĠrÃ©nĠlÃ¬Ġ":10923,"ĠyÄ«ĠrÃ¡nĠ":10924,"ĠchÅ«ĠniÃ¡nĠ":10925,"nÃ¨iĠgÃ©":10926,"dÄģnĠmÃłiĠ":10927,"jÇĲngĠdiÇİnĠ":10928,"ĠyÃ³uĠqÃŃ":10929,"fÃ¡ngĠwÅ«":10930,"chÃ³ngĠqÃ¬ngĠ":10931,"ĠdÄĽngĠdÄĽngĠ":10932,"ĠtÇĲĠyÃ¹Ġ":10933,"âĪĴ":10934,"ĠlÇİo":10935,"mÃŃnĠyÃ¬Ġ":10936,"zhuÄ«ĠqiÃºĠ":10937,"ĠdeĠxÃŃngĠshÃ¬Ġ":10938,"ĠshÃ¬ĠchÇİng":10939,"rÃ©nĠyuÃ¡nĠ":10940,"ĠyÃºĠ2012":10941,"ĠguÃ³ĠdÃłoĠ":10942,"ĠxÃŃngĠhÃłoĠ":10943,"huÃłĠmiÃłnĠ":10944,"chuÃ¡nĠshuÅį":10945,"ĠnÃ¡nĠxÃ¬ngĠ":10946,"jiÃ¹ĠzhÇĲĠ":10947,"jÇĲngĠqÅ«Ġ":10948,"ĠdeĠjÄ«ĠchÇĶ":10949,"ĠchÃŃĠ":10950,"shÄĽngĠhuÃ¬Ġ":10951,"tÅįngĠxÃŃngĠ":10952,"lÃ¨ĠyuÃ¡nĠ":10953,"ĠshÃ¬ĠxiÃłĠxiÃ¡ĠdeĠyÃŃĠgÃ¨ĠxiÄģngĠzhÃ¨nĠjÃŃĠxÃŃngĠzhÃ¨ngĠdÄģnĠwÃ¨iĠ":10954,"gÅįngĠjÄ«Ġ":10955,"ĠyÇĲĠbiÃłn":10956,"rÃ¹ĠjÃ¬ngĠ":10957,"yÇİnĠzÃ²uĠ":10958,"shÃ¨ĠyÇĲngĠ":10959,"zhuÄģnĠyÃ²ngĠ":10960,"ĠhÇİiĠbÃ¡":10961,"guÃ¬ĠzÃº":10962,"ĠÐ¾":10963,"YĠ":10964,"zÄĽnĠ":10965,"ĠĠĠfÄĵnĠlÃ¨iĠ":10966,"ÃłiĠlÃ¬Ġ":10967,"jÃŃĠzhÅįngĠxuÃ©Ġ":10968,"zÃ©ĠxÄ«Ġ":10969,"bÄģĠlÇĲĠ":10970,"lÃŃnĠzhÅįngĠ":10971,"luÃ²ĠshÃŃĠ":10972,"jiÃłngĠjÃŃĠ":10973,"ĠjÃ¬ĠhuÃłĠdeĠ":10974,"zhÇĶĠdÇİoĠ":10975,"fÄģĠjuÃ©Ġ":10976,"bÃ³ĠlÄģĠ":10977,"ĠshÅ«":10978,"zÇĴngĠsÄ«ĠlÃ¬ngĠ":10979,"yÃ²uĠzÃłiĠ":10980,"xiÄĵĠÄĽrĠ":10981,"bÇİnĠquÃ¡nĠ":10982,"ĠdeĠzuÃ¬Ġ":10983,"ĠzhÅįngĠzhÃ¨ngĠ":10984,"nÃ¡nĠbÃ¹ĠdeĠ":10985,"ĠbÃ¨iĠbÇĶĠ":10986,"guÄģnĠguÄģngĠ":10987,"liÃ¡nĠsÃłiĠdeĠ":10988,"ĠqÃŃĠxiÃłĠdeĠ":10989,"tÇĲĠyÃłnĠ":10990,"yÃŃĠmiÃłnĠ":10991,"ĠdÃłnĠmÃ©iĠyÇĴuĠ":10992,"lÃ¹nĠtÃ¡nĠ":10993,"zhÄĵnĠchÃ¡Ġ":10994,"ĠsÄģnĠyuÃ¨Ġ":10995,"tÇĴngĠzhÃ¬ĠzhÄĽĠ":10996,"fÃ¡nĠmÃ¡ng":10997,"ĠhÄĵiĠlÃ³ngĠjiÄģngĠ":10998,"sof":10999,"ĠzhuÄģn":11000,"ĠyÃ¬ĠniÃ¡nĠ":11001,"ĠĠĠi":11002,"xiÃłngĠjÄ«Ġ":11003,"enterĠ":11004,"kÃ¹ĠÄĽrĠ":11005,"gÅįngĠyÃ¨Ġ":11006,"ĠyÇĲĠjÃŃĠzÃłiĠ":11007,"zhÇĶĠliÃºĠ":11008,"dÅįngĠqÅ«Ġ":11009,"ĠxiÃłĠwÇĶĠ":11010,"tÃ³ngĠmÃ©ngĠ":11011,"ĠHĠ":11012,"Ġ1999":11013,"qiÄģnĠmÃŃngĠ":11014,"gÃ¨ngĠgÄģoĠ":11015,"qiÅ«ĠjÃ¬Ġ":11016,"yÃ©ĠÄĽrĠ":11017,"ĠhÃ©ĠzhÃ¬Ġ":11018,"ĠqÃŃĠzhÃ¬Ġ":11019,"huÃłĠrÃ¹Ġ":11020,"lÃŃĠbÄģĠnÃ¨n":11021,"mÃ¬ĠsÅ«ĠlÇĲĠ":11022,"Ġ16Ġ":11023,"kÃłngĠrÃ¬ĠzhÃłnĠzhÄĵngĠ":11024,"ĠhÃ©ĠdÃłoĠquÃ¡nĠzhÇİngĠ":11025,"mÃº":11026,"ĠĠĠzhÄĵngĠyÃ¬Ġ":11027,"yÇĶĠdÃ¬Ġ":11028,"zuÃ²ĠzÃłiĠ":11029,"tÃ¨ĠrÃ©nĠ":11030,"ĠshÃ¬ĠxÄ«nĠ":11031,"ĠbÃ¹ĠduÃłn":11032,"ĠyÃºĠ2014":11033,"ĠyÄ«ĠÄĽrĠ":11034,"ĠdÃłoĠjÃŃĠ":11035,"jiÄģnĠchÃ¡Ġ":11036,"fÄĵngĠsuÇĴĠ":11037,"ĠyÄĽĠmÃ©iĠyÇĴuĠ":11038,"xiÄģngĠgÇİngĠdeĠ":11039,"dÅįngĠbÃ¹ĠshÃŃĠqÅ«Ġ":11040,"1ĠjiÄģĠ":11041,"sÃ¬ĠrÃ©nĠ":11042,"rÃ³ngĠdeĠ":11043,"tuÅįĠÄĽrĠ":11044,"kÃ©Ġ":11045,"ĠgÅįngĠjiÄģoĠ":11046,"ĠchÃ©ngĠzhÇİngĠ":11047,"ĠjÅ«nĠrÃ©nĠ":11048,"luÃ²ĠtÃ¨Ġ":11049,"ĠmÇİĠlÄģĠ":11050,"ĠtÃłiĠyÃ¡ngĠgÅįngĠ":11051,"ĠyÇĴu":11052,"ĠhÃ¡oĠ":11053,"ĠĠĠ9":11054,"ĠĠĠÐ":11055,"kÃ¨ĠlÇĲĠsÄ«Ġ":11056,"yÃ¹nĠzÃłiĠ":11057,"guÇİngĠyÃ¬Ġ":11058,"xuÄģnĠshÃ¬Ġ":11059,"inc":11060,"dÃ¬ĠguÃ³Ġ":11061,"ĠxÄ«ĠyÇĲn":11062,"diÃłnĠtÃ¡i":11063,"bÄĽiĠhÇİiĠdÃłoĠ":11064,"ĠyÃ²uĠyÃ¬Ġ":11065,"ĠsuÃŃĠjÃŃĠ":11066,"lÄģĠsÄ«ĠjiÄģĠ":11067,"Ġ59":11068,"ĠhÃ²uĠyÃºĠ":11069,"duÅįĠsÄ«Ġ":11070,"zÃ©ĠyÇĲĠ":11071,"fÄĵiĠdeĠ":11072,"zhuÄģngĠdeĠ":11073,"wÄģnĠqÅ«Ġ":11074,"liÃ¹ĠshÃ¬Ġ":11075,"niÃºĠsÄ«Ġ":11076,"endĠ":11077,"ĠyÄ«ĠqiÃ¨":11078,"ĠdÃłĠliÃ¡nĠmÃ©ngĠ":11079,"jiÃłoĠdÄ«Ġ":11080,"yÃ¹nĠyÃŃng":11081,"bÄģoĠkuÃ²ĠyÇĲĠxiÃłĠ":11082,"lÇľĠhuÃłĠ":11083,"gÅįngĠyuÃ¡nĠqiÃ¡nĠ":11084,"zhuÄ«ĠsÃ¹ĠdÃłoĠ":11085,"od":11086,"Ġ49":11087,"ÄģĠbÃ¹Ġ":11088,"ĠĠĠwÃºĠ":11089,"len":11090,"shÄĵngĠhÃ©Ġ":11091,"yuÇİnĠdeĠ":11092,"chÅ«nĠjÃ¬Ġ":11093,"xÃŃĠjÄ«":11094,"ĠdÄģngĠdÃ¬ĠdeĠ":11095,"mÃ¨iĠmÃ¨iĠ":11096,"guÃ³ĠwÃ¹ĠyuÃłnĠ":11097,"ÄģiĠnÃłĠshÄĽngĠ":11098,"ĠAn":11099,"ĠmÃŃngĠwÃ¨iĠ":11100,"ĠqÇĶĠdÃ©Ġ":11101,"yÇĶĠzhÅįngĠguÃ³Ġ":11102,"tÃ¨ĠgÅįngĠ":11103,"liÃłngĠjÃŃĠ":11104,"dÇİngĠzÃłiĠ":11105,"atĠ":11106,"ĠdeĠhÃ²uĠ":11107,"bÄĽnĠkÄĵĠ":11108,"dÅįngĠcÃ¨Ġ":11109,"shÄģngĠwÃ¹Ġ":11110,"kÄĽĠyÇĲĠtÅįngĠguÃ²Ġ":11111,"dÅįuĠmÃ©iĠyÇĴuĠ":11112,"zhÇĶnĠquÃ¨Ġ":11113,"ĠESTĠ":11114,"ĠyÇİĠ":11115,"ĠĠĠdÃło":11116,"qÄ«ĠyuÃ¨Ġ":11117,"69ĠniÃ¡nĠ":11118,"ĠyÇĴuĠxÇĶĠduÅįĠ":11119,"nÃłĠxiÄĵ":11120,"guÇİnĠxiÃ¡":11121,"zhÅįngĠguÃ³ĠdÃłĠlÃ¹ĠdeĠ":11122,"ĠnÃ¨iĠrÃ³ngĠ":11123,"ĠISTAT":11124,"ĠtiÃ¡n":11125,"ĠnuÃ²":11126,"huÃ¡ĠdeĠ":11127,"fÇİnĠjÄ«Ġ":11128,"ĠyÄ«ĠqiÃ¨Ġ":11129,"jÃ¹ĠfÄĵng":11130,"nÃ¡nĠmÄĽiĠzhÅįuĠ":11131,"guÇİnĠkÃ²ng":11132,"tÃ³uĠrÃ¹":11133,"tÃŃngĠkÃłoĠ":11134,"ĠmÃ²ĠxÄ«Ġ":11135,"zhÃ²ngĠyÃ¬ĠyuÃłnĠ":11136,"ĠshÃ¬ĠyÄ«ĠkÄĵĠwÃ©iĠrÃło":11137,"ĠzÇİoĠ":11138,"lÇĲĠrÃ©nĠ":11139,"shÃ¨ĠjÃŃĠ":11140,"rÃ¨nĠzhÄ«Ġ":11141,"shÄĽngĠlÃ¬Ġ":11142,"ĠzhÅįngĠyuÃ¡nĠ":11143,"ĠxÄ«ĠÄĽr":11144,"guÄģnĠzhÃ²ng":11145,"guÄģnĠzhÃ¨ngĠ":11146,"ĠpÃŃngĠjiÃ¨Ġ":11147,"fÄĵngĠfÃ¹ĠdeĠ":11148,"ĠshÃ¬ĠyÄ«ĠzuÃ²":11149,"wÅ«ĠrÇİnĠ":11150,"shÅįuĠshÃ¬ĠlÇľĠ":11151,"jiÃ¨ĠquÃ¡nĠguÃ³ĠzhÃ¨ngĠxiÃ©ĠwÄĽiĠyuÃ¡nĠ":11152,"4ĠĠĠ":11153,"ĠcÃ¡o":11154,"ĠyÇİngĠ":11155,"lÇĲĠshÃŃĠ":11156,"fÃ¹ĠyÃºĠ":11157,"chuÃ¡nĠyuÃ¡nĠ":11158,"zhÇİnĠchÅ«Ġ":11159,"yÃŃngĠlÃ¬Ġ":11160,"biÄģoĠshÃ¬Ġ":11161,"yÅįuĠhuÃ¬Ġ":11162,"ĠyÃºĠ2022":11163,"ĠlÃ¬ĠxuÃ©Ġ":11164,"jÃ¹ĠbÄĽnĠ":11165,"yÃ¹ĠwÃ©iĠ":11166,"ĠbÃ¬ngĠhuÃ²ĠdÃ©Ġ":11167,"jiÄĵĠguÇİnĠ":11168,"ĠjÃ¹ĠbÄĽnĠ":11169,"shÅ«ĠniÇĶĠ":11170,"hÃ©ngĠxÄ«ng":11171,"dÃłnĠshuÇĲ":11172,"bÇĲĠsÃłiĠdeĠ":11173,"juÃ©ĠduÃ¬ĠxÄ«ngĠdÄĽngĠwÃ¨iĠ":11174,"ĠfÃ¨ng":11175,"ĠLi":11176,"ĠĠĠguÃ³Ġ":11177,"dÃ©ĠyÃ¬ĠzhÃ¬Ġ":11178,"zuÃ¬ĠchÅ«ĠdeĠ":11179,"xÃ¬nĠhÃło":11180,"27ĠniÃ¡nĠ":11181,"gÅįuĠtÅįngĠ":11182,"ĠshÃ¬ĠxiÃłĠ":11183,"shÄĵngĠchÄĵngĠ":11184,"pÃŃngĠhÃ©ngĠ":11185,"ĠbÃ¨iĠjÇĲng":11186,"liÃ¡nĠzÇİiĠ":11187,"duÅįĠxiÃłngĠ":11188,"ĠjÄ«ngĠguÃ²":11189,"Ġ5ĠdiÃłoĠkuÃłiĠyÄ«ĠxiÇİoĠshÃŃĠ":11190,"ĠEDTĠ":11191,"ĠjÃŃĠbÄĽiĠmÄĽiĠdÅįngĠbÃ¹ĠshÃŃĠqÅ«Ġ":11192,"ĠtÃłiĠyÃ¡ngĠgÅįngĠzhuÃłnĠdeĠxiÇİoĠxÃŃngĠxÄ«ngĠ":11193,"ĠshÃ¬ĠyÄ«ĠkÄĵĠwÃ©iĠrÃłoĠtÃłiĠyÃ¡ngĠgÅįngĠzhuÃłnĠdeĠxiÇİoĠxÃŃngĠxÄ«ngĠ":11194,"ĠsĠ":11195,"ĠĠĠwÃ©nĠhuÃłĠ":11196,"ÃłoĠkÃ¨Ġ":11197,"jiÃłnĠdeĠ":11198,"hÃ¡nĠyÃ¬Ġ":11199,"ĠdÃłĠzhÃ¬Ġ":11200,"fÄģĠbiÇİoĠleĠ":11201,"xiÇİoĠxÃŃngĠxÄ«ngĠdeĠjuÃ©ĠduÃ¬ĠxÄ«ngĠdÄĽngĠwÃ¨iĠ":11202,"ĠĠĠSt":11203,"ĠĠĠ2005ĠniÃ¡nĠ":11204,"lÇĲngĠduÃ¬Ġ":11205,"pÄģiĠshÃ¨ĠdeĠ":11206,"owĠ":11207,"ĠhÃ©ĠyÇĶĠ":11208,"ĠzhÅįngĠlÃ¬Ġ":11209,"ĠgÅįngĠshÃ¨Ġ":11210,"ĠzhÄ«ĠchÅ«Ġ":11211,"ĠzuÃ²ĠqÇĶĠ":11212,"rÃ¹ĠkÇĴu":11213,"ĠshÃ¬ĠwÃ¹ĠsuÇĴĠ":11214,"ĠVi":11215,"Ġ1986ĠniÃ¡nĠ":11216,"ĠĠĠyÃ¹Ġ":11217,"zhÇĲĠchÅ«":11218,"fÃºĠjÃŃĠ":11219,"inu":11220,"yuÄģnĠ":11221,"ĠshÃ¬ĠzuÃ¬Ġ":11222,"ĠzÃłiĠlÃ¬Ġ":11223,"ĠxÃŃngĠxÄ«ngĠ":11224,"ĠdÃłnĠbÃ¨iĠ":11225,"zÃºĠliÃ¡nĠ":11226,"wÃºĠxiÃłnĠdiÃłnĠ":11227,"shÄĵngĠchÇİnĠdeĠ":11228,"ĠdÃłĠshÃłĠ":11229,"ĠĠĠzhÃ¨ĠkÄĵĠxiÇİoĠxÃŃngĠxÄ«ngĠdeĠjuÃ©ĠduÃ¬ĠxÄ«ngĠdÄĽngĠwÃ¨iĠ":11230,"Ġ1998":11231,"ĠĠĠhuÃ¡ngĠ":11232,"xÄ«ĠxiÃłnĠ":11233,"ture":11234,"miÃłoĠyÇĶĠ":11235,"48ĠniÃ¡nĠ":11236,"ĠyÄ«ĠxiÃłngĠ":11237,"shÇĴuĠxiÄģnĠ":11238,"ĠtÃ³ngĠniÃ¡nĠ12ĠyuÃ¨Ġ":11239,"ĠdeĠyÄ«ĠxiÃłngĠ":11240,"bÇĲĠlÃ¬ĠniÃºĠsÄ«Ġ":11241,"nÃ¨ĠshÄĽngĠ":11242,"ĠzuÇĴ":11243,"ĠjÅ«Ġ":11244,"ĠĠĠLi":11245,"yÃłoĠzÃłiĠ":11246,"zhÇĴngĠdeĠ":11247,"menĠdeĠ":11248,"34ĠniÃ¡nĠ":11249,"acebook":11250,"ĠxÄ«ĠcÃ¨Ġ":11251,"lÃ¡iĠkÃłnĠ":11252,"kÄĽĠyÃ²ngĠ":11253,"ĠxiÃłĠlÃ¬ngĠ":11254,"yÃ¡nĠjiÅ«ĠdeĠ":11255,"ĠdeĠyÄ«ĠtiÃ¡oĠ":11256,"hÄĽnĠshÇİoĠ":11257,"tiÄģnĠwÃ©nĠxuÃ©ĠjiÄģĠ":11258,"zÇĶĠchÃ©ngĠbÃ¹ĠfÃ¨nĠ":11259,"Ġ2024ĠniÃ¡nĠ":11260,"ĠĠĠguÄģnĠyÃºĠ":11261,"ĠĠĠzÇİoĠqÄ«Ġ":11262,"lÃ¡iĠÄĽrĠ":11263,"jiÇĶĠshÃŃĠ":11264,"lÄĵiĠsÄ«Ġ":11265,"fÇĴuĠ":11266,"lÃ¹ĠduÃłnĠ":11267,"diÃłnĠliÃºĠ":11268,"ĠfÃ¹ĠmÇĶĠ":11269,"zÇĴngĠlÇĲngĠshÃ¬Ġ":11270,"liÇİngĠcÃ¨Ġ":11271,"zhuÄģnĠjÃŃĠdeĠ":11272,"ĠyÄ«nĠwÃ¨iĠtÄģĠ":11273,"ĠgÄĽi":11274,"ĠcÅ«nĠ":11275,"liÇİngĠdÃłĠ":11276,"ctĠ":11277,"ĠwÃ¨iĠguÃ³Ġ":11278,"ĠzÃłiĠyÇĴuĠ":11279,"ĠzÃłiĠdÄģngĠshÃŃĠ":11280,"xuÃ©ĠkÄĵĠ":11281,"qÅ«ĠfÃ¹ĠzÃ©ĠguÇİnĠxiÃ¡Ġ":11282,"cÇĲĠtiÄģnĠtÇĲĠ":11283,"tÃºĠjÃ¬ngĠ":11284,"shÃ¨ngĠjÄ«ngĠ":11285,"qÇĶĠjuÃ©ĠyÃºĠ":11286,"kÄĽĠnÃ©ngĠdeĠ":11287,"ĠGĠ":11288,"ĠdÃ¬ĠshÃŃĠsÄģnĠ":11289,"2ĠhÃłoĠ":11290,"gÄĽ":11291,"ĠMe":11292,"Ġ1983ĠniÃ¡nĠ":11293,"chÃ¡ĠdÃ©Ġ":11294,"qiÃ¡nĠxÄ«Ġ":11295,"nÃŃĠxÄ«ĠyÃł":11296,"shÃ¨ngĠyÃºĠ":11297,"wÄĵiĠlÃ¬Ġ":11298,"hÃ©ĠliÃºĠ":11299,"ĠshÃŃĠliÃ¹ĠniÃ¡nĠ":11300,"ĠyuÃ¡nĠlÃ¡iĠ":11301,"shÃłngĠyÃ¬ngĠdeĠ":11302,"ĠjiÄģĠqiÃ¡ngĠ":11303,"jÃ¹ĠyuÃłnĠ":11304,"qÄ«ĠjiÄģnĠdeĠ":11305,"yÃ²uĠchÄĵngĠ":11306,"duÇİnĠzÃłnĠ":11307,"hÃ¹nĠluÃłnĠ":11308,"IR":11309,"ĠpiÃłoĠ":11310,"yÃ²ngĠdÃ¬Ġ":11311,"jiÇİngĠxuÃ©Ġ":11312,"mÇİnĠyÃ¬Ġ":11313,"gÄĵngĠmÃŃngĠ":11314,"zhÃ¨nĠwÃ¡ngĠ":11315,"shÄĵnĠrÃ¹Ġ":11316,"ĠzÃ¬ĠcÇĲĠ":11317,"xÃŃĠguÃłnĠ":11318,"ĠÃłoĠmÃ©nĠ":11319,"mÃŃnĠzÃºĠzhÇĶĠyÃ¬Ġ":11320,"Ġba":11321,"ĠsÄģngĠ":11322,"ÄģnĠdeĠ":11323,"cÇĲĠdÃ¬Ġ":11324,"guÃ²ĠhÃ²uĠ":11325,"kÄĵĠyÄ«ĠshÄĵngĠ":11326,"hÇİoĠlÃ¡iĠ":11327,"adĠ":11328,"sÃłngĠshÄ«Ġ":11329,"ĠyÇĲĠwÃłiĠdeĠ":11330,"ĠlÇĲĠxuÃ©Ġ":11331,"bÄĽnĠtÇĶ":11332,"tÃ¨ĠdÃ¬ng":11333,"ĠshÃ¨ĠshÄ«":11334,"biÃłnĠhuÃłnĠ":11335,"tiÃ¡oĠmÃ¹Ġ":11336,"qiÄģnĠyÇĲnĠ":11337,"shÃ¨ĠjiÄģoĠ":11338,"EC":11339,"ag":11340,"ub":11341,"ĠshÄģnĠxÄ«Ġ":11342,"bÄĽnĠdÃ¬ĠqÅ«Ġ":11343,"quÃ¡nĠshÃ¬Ġ":11344,"ziĠlÇĲĠ":11345,"fÇĶĠzhÄ«ĠfÇĶĠ":11346,"wÇİnĠqÄ«Ġ":11347,"ĠwÃ¨iĠxÄ«nĠ":11348,"ĠzÃłiĠrÃ©nĠ":11349,"ĠdÃłĠduÅį":11350,"ĠchÅ«ĠbÃ¹Ġ":11351,"tÃŃĠcÃ¡iĠ":11352,"ĠdeĠzuÃ²ĠyÃ²ngĠ":11353,"ĠSe":11354,"ĠdÇİoĠyÇİnĠ":11355,"Ġ1958ĠniÃ¡nĠ":11356,"ĠĠĠyÄ«nĠwÃ¨iĠ":11357,"fÇİĠÄĽrĠ":11358,"niĠ":11359,"zÅįngĠdeĠ":11360,"ĠhÃ©ĠjÄ«nĠ":11361,"ĠshÃŃĠbÃ¨iĠ":11362,"ĠdÃ©ĠhÃ©Ġ":11363,"shÃ¹ĠjÃ¹":11364,"xiÄģoĠshÃ²u":11365,"dÇİĠsuÃłn":11366,"pÃ©iĠchÃ¡ngĠ":11367,"ĠjÃŃĠtuÃ¡nĠjÅ«nĠ":11368,"ĠkÄģnĠ":11369,"ĠĠĠ2000":11370,"bÄĽnĠzhÃ¬Ġ":11371,"wÃ©nĠsÄ«Ġ":11372,"nÇļĠÃ©r":11373,"ĠniÃ¡nĠshÃ¬Ġ":11374,"ĠzÃłiĠtÄģ":11375,"ĠyuÃ¡nĠqÅ«Ġ":11376,"jiÃ©ĠlÃ¹nĠ":11377,"ĠqÃŃĠzhÅįngĠdeĠ":11378,"zÇĴngĠÃ©ĠwÃ¨iĠ":11379,"ĠnÃ¡nĠjÄ«ng":11380,"liÇİngĠtiÃ¡oĠ":11381,"qiÃ¡ngĠhuÃłĠ":11382,"ĠtÇĴngĠ":11383,"ĠliÃłnĠ":11384,"ĠhuÃ¡iĠ":11385,"ĠchÄģoĠjÃŃĠ":11386,"ĠguÃ¬ĠzhÅįuĠ":11387,"fÄĵnĠqÃŃĠ":11388,"tÃŃĠwÃ¨iĠ":11389,"bÄģĠmÃŃngĠ":11390,"shuÇĲĠzhÅįngĠ":11391,"00ĠpÃŃngĠfÄģngĠqiÄģnĠmÇĲĠ":11392,"pÃłĠÄĽrĠ":11393,"46ĠniÃ¡nĠ":11394,"ĠwÃ¨iĠsÄ«Ġ":11395,"ĠzhÅįngĠwÃ©n":11396,"ĠyÃºĠ2017":11397,"ĠqÃŃĠyÇĶĠ":11398,"ĠshÃ¨ĠzÃłiĠ":11399,"fÄĵngĠxiÇİn":11400,"yÃŃĠdÃ²ng":11401,"mÃ³ĠnÇĲ":11402,"zhuÇİnĠyÃŃĠdÃłoĠ":11403,"ĠfÃºĠlÇİngĠ":11404,"ĠmÇĲĠdeĠ":11405,"fÄĵiĠxÃŃngĠyuÃ¡nĠ":11406,"1ĠrÃ¬":11407,"ĠsÃłi":11408,"ĠxÇĲĠ":11409,"mÄĽiĠzhÅįngĠbÃ¹Ġ":11410,"tÃ¨ĠsÄ«Ġ":11411,"chÄģĠjÃ¹Ġ":11412,"bÃ¹ĠfÃ¨n":11413,"ĠyÄ«ĠyÃłng":11414,"ĠjiÃłnĠzhÅįngĠ":11415,"ĠzhÄ«ĠqiÃ¡nĠdeĠ":11416,"zhÇĶĠjuÃ©":11417,"ĠbÃ¨iĠrÃ¨nĠwÃ©iĠ":11418,"ĠjÃ¹ĠtÇĲĠ":11419,"ĠsuÇĴĠyÇĴuĠdeĠ":11420,"tuÄ«ĠguÇİng":11421,"lÇĲĠshÃ¬ĠzhÇİngĠ":11422,"gÃ²ngĠhÃ©ĠdÇİng":11423,"jiÄģoĠyÃ¬ĠsuÇĴĠ":11424,"jiÃ¨ĠquÃ¡nĠguÃ³ĠrÃ©nĠmÃŃnĠdÃłiĠbiÇİoĠdÃłĠhuÃ¬Ġ":11425,"ĠAr":11426,"Ġ1987ĠniÃ¡nĠ":11427,"ĠĠĠdÄģng":11428,"duÃ¬ĠlÃ¬Ġ":11429,"cÃ¡iĠdeĠ":11430,"ĠyÇĴuĠxiÃło":11431,"ĠchÃ©ngĠnuÃ²Ġ":11432,"ĠgÃ¨ĠgÃ¨Ġ":11433,"ĠbÃ¬ngĠwÃºĠ":11434,"ĠshÃ¨ĠxiÃ¡nĠ":11435,"ĠdeĠgÅįngĠsÄ«Ġ":11436,"ĠhÃ²uĠlÃ¡iĠzÃłiĠ":11437,"chÃłngĠpiÃłnĠgÅįngĠsÄ«Ġ":11438,"oli":11439,"ĠxuÄĵ":11440,"ĠdÃłngĠ":11441,"ĠĠĠjiÃłnĠ":11442,"tiÄģo":11443,"tÇĲĠxiÃłnĠ":11444,"chÄĵĠshÃ¬Ġ":11445,"dÇİngĠbÃ¹Ġ":11446,"suÃŃĠzhÄ«Ġ":11447,"61ĠniÃ¡nĠ":11448,"zuÇĲĠ":11449,"ĠwÃ¨iĠmÄĽiĠguÃ³Ġ":11450,"ĠjÃŃĠÄĽr":11451,"ĠyÃ¬ĠmÄĽiĠguÃ³ĠrÃ©nĠ":11452,"ĠjÅ«nĠyÇĲĠ":11453,"jiÄĽĠjuÃ©":11454,"chÇĶĠjuÃ©Ġ":11455,"ĠNĠ":11456,"ĠLĠ":11457,"ĠÄģĠÄĽrĠbÄĵiĠsÄ«Ġ":11458,"guÇİngĠbÅįĠgÅįngĠsÄ«Ġ":11459,"sÄ«ĠdÃ¬ĠlÃ¬Ġ":11460,"dÃłiĠdÃłoĠ":11461,"xiÃłĠshÃ¬Ġ":11462,"qÄ«ngĠdÃłiĠ":11463,"mÇĶĠsÄ«ĠtÃ¨Ġ":11464,"fÅ«ĠsÄ«Ġ":11465,"39ĠniÃ¡nĠ":11466,"ĠyÃºĠ190":11467,"ĠxÄ«ĠfÇİĠ":11468,"yÃ¹ĠcÃ¨Ġ":11469,"ĠdÄģngĠrÃ¬Ġ":11470,"ĠtÄģĠmenĠshÃ¬Ġ":11471,"ĠdeĠyÄ«ĠjiÄģĠ":11472,"dÅįuĠkÄĽĠyÇĲĠ":11473,"ĠcÇĲĠwÃłi":11474,"dÇĲĠcÃ©ngĠshuÇĲĠyÃ¹Ġ":11475,"lÇİngĠpÇĶ":11476,"mÃ¹ĠsÄ«ĠlÃŃn":11477,"cor":11478,"ĠlÃ¨i":11479,"ĠxĠ":11480,"ĠĠĠgÃ¨Ġ":11481,"duÃ¬ĠdÃ¬Ġ":11482,"nÃ¡nĠxÄ«Ġ":11483,"suÃ¬ĠdeĠ":11484,"shÇİoĠdeĠ":11485,"qÃ¬ngĠxiÃłĠ":11486,"bÃłĠgÅįngĠ":11487,"ĠyÃºĠ2023":11488,"yÃ¹ĠsuÃłnĠ":11489,"qÄ«ngĠzhÄĵnĠ":11490,"jiÄģoĠgÄĽi":11491,"Ġ14Ġ":11492,"ĠcÃ¹":11493,"ĠguÅįĠ":11494,"xÃŃngĠrÃ©nĠ":11495,"yÇĶĠwÃ¨iĠ":11496,"jÅ«nĠzhÇĶĠ":11497,"ĠshÃ¬ĠyÇĲ":11498,"ĠsÄ«ĠdÃłĠ":11499,"rÃ¨nĠzhÃ¨ngĠ":11500,"ĠzhÅįuĠdeĠyÃŃĠgÃ¨ĠshÃ¬ĠzhÃ¨nĠ":11501,"qiÃ¡nĠtÇĲngĠ":11502,"shÄ«ĠtÇĲĠ":11503,"qÄ«ngĠdÇİoĠ":11504,"dÃłnĠshuÇĲĠ":11505,"yÃ¬nĠdÃ¬ĠÄģnĠnÃł":11506,"chÃ©ngĠwÃ¨iĠ":11507,"yuÃ¡nĠrÃ©nĠmÃŃnĠbÃ¬Ġ":11508,"jiÃłnĠduÃ¬Ġ":11509,"qÅ«ĠzhÅįngĠ":11510,"xÄ«nĠyÄ«Ġ":11511,"mÄĽiĠlÃ¬Ġ":11512,"ĠdeĠjÃŃĠ":11513,"ĠzÃłiĠduÃ¬Ġ":11514,"ĠbÃ¹ĠzhÄ«Ġ":11515,"ĠshÃŃĠshÄ«":11516,"ĠyÃ¬ĠbÃ¨iĠ":11517,"ĠÄĽrĠbÃ¨iĠ":11518,"zhÃłnĠshÃ¹Ġ":11519,"ĠbÃ¬ngĠchÃ©ngĠwÃ©iĠ":11520,"zÃ¬ĠshÄĵnĠ":11521,"fÄĵnĠbÃ¹ĠzÃłiĠ":11522,"chuÃ¡nĠmÃ©i":11523,"bÃ³ĠgÃ©Ġ":11524,"zÃłoĠchuÃ¡nĠ":11525,"ĠchÃ¡ngĠqÄ«Ġ":11526,"zhÃ²ngĠyÃłoĠxÃ¬ngĠ":11527,"1ĠhÃło":11528,"om":11529,"sÇĴng":11530,"ĠruÃ¬ĠshÃ¬Ġ":11531,"ÄģĠkÃ¨Ġ":11532,"zhÇİngĠjÃŃĠ":11533,"ork":11534,"kuÄ«Ġ":11535,"ĠshÃ¬ĠyÃ¬nĠdÃ¹Ġ":11536,"ĠhÃ©ĠchÃłngĠ":11537,"ĠguÃ³ĠnÃ¨i":11538,"shÇĴuĠlÇĲngĠ":11539,"zhuÇİnĠbiÃłnĠ":11540,"xÃºnĠfÇĶĠ":11541,"liÃ¡ngĠhÇİoĠdeĠ":11542,"ĠtÄģĠcÃ©ngĠdÃłiĠbiÇİo":11543,"ĠshÃłngĠhÇİiĠshÃ¬Ġ":11544,"jiÃłngĠyÇĶĠliÃłngĠ":11545,"ĠxiÅįngĠyÃ¡ĠlÃ¬Ġ":11546,"ĠĠĠ14":11547,"yÃŃĠdeĠ":11548,"yÃ¹nĠxÃŃng":11549,"hÃ¨nĠ":11550,"beg":11551,"igh":11552,"ĠshÃŃĠsÄģnĠniÃ¡nĠ":11553,"fÃ¹ĠxÄ«ngĠ":11554,"ĠkÃ¨ĠjiÄģĠ":11555,"yÃ¡nĠÃłnĠ":11556,"yÄĽĠkÄĽĠyÇĲĠ":11557,"ĠtÃºnĠqÃŃĠ":11558,"zuÃłnĠshÃŃĠ":11559,"30ĠfÄĵnĠ":11560,"sÅįuĠsuÇĴĠ":11561,"32ĠniÃ¡nĠ":11562,"jÄ«ĠdÅ«ĠjiÃłoĠ":11563,"yÃ³uĠkÃ¨Ġ":11564,"fÄĵnĠxiÃłoĠ":11565,"zuÃ¬ĠhÃ²uĠdeĠ":11566,"shÃ¨ngĠmÇĶĠ":11567,"kÇİoĠgÇĶ":11568,"ĠmÇĶĠqÄ«nĠ":11569,"Ġ13Ġ":11570,"jÃ¬ĠsuÃłnĠjÄ«Ġ":11571,"ZĠ":11572,"Ġli":11573,"ĠyÃ¬ngĠ":11574,"cÃ¨ĠwÃ¨iĠ":11575,"jiÇİngĠlÃ¬Ġ":11576,"xiÃ¨ĠÄĽrĠ":11577,"26ĠniÃ¡nĠ":11578,"zhuÄ«ĠjÄ«Ġ":11579,"rÃ²uĠshÃŃĠxÃ¬ngĠ":11580,"mÃ¡nĠ":11581,"ĠyuÃ¡nĠzÃ¬":11582,"shÇĴuĠrÃ¨nĠ":11583,"ĠzhÃ¨ngĠjÃ¹Ġ":11584,"ĠzuÃ²ĠyÃ¨Ġ":11585,"ĠdeĠyÄ«ĠcÃ¬Ġ":11586,"ĠdeĠshÃ¬ĠqÃŃngĠ":11587,"duÇİnĠpiÃłnĠ":11588,"ĠdeĠjÄ«ĠchÇĶĠ":11589,"ĠyÇĲĠjÃŃĠzhÅįngĠguÃ³ĠdÃłĠlÃ¹ĠdeĠ":11590,"mÄĽiĠzhÅįngĠbÃ¹ĠshÃŃĠqÅ«Ġ":11591,"pÃ¨ngĠ":11592,"Ġ1994":11593,"Ġ1982ĠniÃ¡nĠ":11594,"zÃ©ĠÄĽrĠshÄĽngĠ":11595,"bÄģĠyuÃ¨Ġ":11596,"hÄģĠlÃ¬Ġ":11597,"36ĠniÃ¡nĠ":11598,"ĠdÃłoĠtÄģĠ":11599,"ĠÃ©rĠwÃ©nĠmÃŃngĠ":11600,"tÃ¡iĠzhÅįngĠshÃ¬Ġ":11601,"jÄ«nĠxiÃłngĠ":11602,"tÅįngĠxÃ¬n":11603,"mÃ³ĠtuÅįĠ":11604,"bÄ«ngĠtuÃ¡nĠ":11605,"ĠgÄģoĠsÃ¹":11606,"ĠbÃłi":11607,"ĠliÃ¡nĠhÃ©ĠguÃ³Ġ":11608,"lÃ¹ĠhÃ©Ġ":11609,"qiÃ¡ngĠdÃłĠ":11610,"2019ĠguÄģnĠzhuÃłngĠbÃ¬ngĠdÃº":11611,"45ĠniÃ¡nĠ":11612,"43ĠniÃ¡nĠ":11613,"ĠshÃŃĠwÇĶĠniÃ¡nĠ":11614,"ĠjÃ¬nĠxÃŃngĠdeĠ":11615,"xuÇİnĠshÇĴu":11616,"yuÄĵĠsÃ¨ĠfÅ«Ġ":11617,"liÇİngĠzhÇĴng":11618,"ĠshÃ¬ĠyÄ«ĠjiÄģĠ":11619,"ĠCSTĠ":11620,"ÅįuĠmÃ©ng":11621,"ĠcÃ³ngĠcÇĲĠ":11622,"ĠcÃ©ngĠjÄ«ng":11623,"Ġ6ĠdiÃłoĠkuÃłiĠyÄ«ĠxiÇİoĠshÃŃĠ":11624,"ĠjÃŃĠbÄĽiĠmÄĽiĠzhÅįngĠbÃ¹ĠshÃŃĠqÅ«Ġ":11625,"ĠCDTĠ":11626,"mÃł":11627,"ĠtÃ¡i":11628,"ĠmÇĲn":11629,"duÃ¬ĠshÃ¬Ġ":11630,"mÇĲĠÄĽr":11631,"33ĠniÃ¡nĠ":11632,"ĠdÃ¬ĠmÃŃngĠ":11633,"jÄ«ĠchÇİng":11634,"jÄ«ngĠdÅ«Ġ":11635,"ĠshÃłngĠshÃ¹Ġ":11636,"nÇļĠwÃ¡ngĠ":11637,"tuÅįĠmÇİĠsÄ«Ġ":11638,"ĠshÇĲĠmÃ¬ĠsÄ«Ġ":11639,"yÃ¬nĠdÃ¹ĠdeĠ":11640,"Ġá":11641,"Ġ1945ĠniÃ¡nĠ":11642,"Ġ1920ĠniÃ¡nĠ":11643,"jÄ«ĠshÃŃĠ":11644,"mÃ©iĠÄĽrĠ":11645,"fÅ«ĠsÄ«ĠjÄ«Ġ":11646,"zhuÄģnĠyuÃ¡nĠ":11647,"quÃ¨ĠlÃ¬Ġ":11648,"ĠshÃ¬ĠyÃŃĠ":11649,"ĠchÃ©ngĠkÃ¨":11650,"qÅ«ĠzhÃºĠjiÃłnĠ":11651,"zhÃ¨ĠshÇĴuĠ":11652,"ĠqiÃºĠbÇĲĠsÃłiĠ":11653,"wÇİngĠlÃ¡iĠ":11654,"cÃ¡iĠnÃ©ng":11655,"zhuÄģnĠqÅ«Ġ":11656,"ĠHRĠĠĠ":11657,"ĠÄģĠlÇĲĠ":11658,"zhÃ©ĠxuÃ©ĠjiÄģĠ":11659,"ĠqÄ«ĠxÄ«Ġ":11660,"fÃ©iĠtÃ¨ĠliÃ¨Ġ":11661,"ĠlÄĵiĠ":11662,"ĠdÅ«nĠ":11663,"shÄģiĠ":11664,"ĠĠĠ13":11665,"ĠĠĠkÄĵĠ":11666,"pÃŃngĠxiÃłnĠ":11667,"jiÃłoĠyÇĴuĠ":11668,"jiÄģoĠfÃ¹Ġ":11669,"31ĠniÃ¡nĠ":11670,"lÃ¬ĠshÇĲ":11671,"dÅįngĠyÃłĠ":11672,"zÇĴngĠjÃºĠ":11673,"wÄĽiĠnÃ¨iĠruÃ¬Ġ":11674,"rÃ¡nĠliÃłoĠ":11675,"ĠÃłoĠsÄ«Ġ":11676,"ĠshÃ¬ĠfÇĴuĠ":11677,"Ġd":11678,"ĠlÇĶ":11679,"ĠĠĠre":11680,"ĠĠĠ12ĠyuÃ¨Ġ":11681,"ĠĠĠ2023ĠniÃ¡nĠ":11682,"shÃŃĠshÃ¬ĠjÃ¬Ġ":11683,"jÄ«nĠsÄ«Ġ":11684,"pÃ¨iĠyuÃ¨Ġ":11685,"ĠwÃ¨iĠchÃ©ngĠ":11686,"gÃ©ĠlÃ©iĠ":11687,"xÃ¬ngĠbiÃ©":11688,"chÃ¡ngĠÄģnĠ":11689,"liÃºĠchuÃ¡nĠ":11690,"bÃ³ĠgÄĽnĠdÃ¬Ġ":11691,"zÇĶĠxiÄģnĠ":11692,"ĠgÄģoĠxiÃ³ng":11693,"ĠyÄ«nĠwÃ¨iĠtÄģ":11694,"ĠwÃ©nĠzhÄģngĠ":11695,"hÃºĠbÄĽiĠshÄĽngĠ":11696,"yÃ¡nĠhÇİiĠshÄĽngĠfÃ¨nĠ":11697,"ĠsÃºĠchÄĵngĠ":11698,"mar":11699,"Ġ1996":11700,"ÄĵnĠsÄ«Ġ":11701,"leĠbÃ¹Ġ":11702,"dÃŃĠsÄ«Ġ":11703,"tuÄ«ĠjÃ¬n":11704,"diÄģoĠxiÃłngĠ":11705,"zhÃłiĠwÃ¹Ġ":11706,"yÃ¬ĠqÇĲĠ":11707,"ĠyÄ«ĠlÃ¹Ġ":11708,"qÅ«ĠdÃ²ngĠ":11709,"shÃ¹ĠbÇİi":11710,"ĠqÃŃĠfÃ¹Ġ":11711,"gÄģoĠxiÃłoĠ":11712,"ĠhuÃ²ĠwÃ¹Ġ":11713,"bÃ³ĠlÃŃn":11714,"chÇİnĠliÃłngĠ":11715,"bÇİiĠxÃ¬ngĠ":11716,"ĠdÃ¬ĠÃ¨rĠcÃ¬":11717,"Ġ1950ĠniÃ¡nĠ":11718,"ĠÙ":11719,"ĠduÃłn":11720,"ĠlÃŃng":11721,"ĠhÃ¡ngĠ":11722,"ĠmÃ¬ngĠ":11723,"ĠĠĠb":11724,"ĠĠĠmÃ¹Ġ":11725,"ĠĠĠyÄ«ngĠguÃ³Ġ":11726,"ĠĠĠgÄģiĠdÃ¬Ġ":11727,"bÃłoĠfÃ¹Ġ":11728,"xÃ¹nĠhÃłoĠ":11729,"jiÇİoĠdeĠ":11730,"ĠrÃ©nĠshÄĵngĠ":11731,"ĠgÅįngĠdiÃłnĠ":11732,"shÄĵngĠrÃ¨nĠ":11733,"ĠtÃ³ngĠniÃ¡nĠ10ĠyuÃ¨Ġ":11734,"sÄģnĠjiÇİoĠ":11735,"lÃŃngĠgÇİnĠ":11736,"ĠyÃ²uĠchÄĵng":11737,"chÅįngĠshÃ©ng":11738,"zÄĵngĠqiÃ¡ng":11739,"ÄģĠÄĽrĠbÄģĠ":11740,"cÇİoĠÃłnĠ":11741,"ĠshÃ¬ĠjiÃłnĠdeĠ":11742,"fe":11743,"ĠbÃºĠshÃ¬Ġ":11744,"shÃ¹ĠgÃ¨Ġ":11745,"yÄ«ngĠÃ©rĠ":11746,"mÃ²ĠdeĠ":11747,"hÄĽnĠnÃ¡nĠ":11748,"ĠwÃ¨iĠjÄ«ngĠ":11749,"shÃŃĠqÄ«":11750,"ĠyÇĴuĠleĠ":11751,"ĠgÅįngĠlÃ¬Ġ":11752,"fÄģĠshÄĵngĠyÃºĠ":11753,"zhÃŃĠjÃ¬ngĠ":11754,"ĠzhÅįuĠbiÄģnĠ":11755,"ĠzÄĵngĠjiÄģĠ":11756,"hÃ¹ĠshÃ¬Ġ":11757,"zhÄģngĠshÃ¬Ġ":11758,"huÃ¡ngĠshÃ¬Ġ":11759,"huÃłnĠyÇĴuĠ":11760,"sÃłngĠshÄĵngĠ":11761,"chÃ©ngĠwÃ©i":11762,"ĠÄĽrĠxÄ«Ġ":11763,"zhÃłnĠlÃ¼Ã¨":11764,"xiÄģngĠxÃ¬nĠ":11765,"dÃ²ngĠtÃłiĠ":11766,"ĠshÄĵngĠmÃ¬ngĠ":11767,"guÇİngĠdÅįng":11768,"huÃ²ĠzhÄĽĠ":11769,"zhÃ¨ngĠzhÃ¬ĠjÃºĠ":11770,"qÅ«ĠdeĠfÃ¹ĠzÃ©ĠguÇİnĠxiÃ¡Ġ":11771,"zhÄĽngĠtÇĲ":11772,"ĠjÇĲnĠcÃ¬ĠyÃºĠ":11773,"yÃłĠmÄĽiĠnÃŃĠyÃł":11774,"fli":11775,"sa":11776,"ĠĠĠtÃ¨ĠzhÄĵngĠ":11777,"xuÇİnĠdeĠ":11778,"hÃłnĠguÃ³Ġ":11779,"kÃłnĠjiÃłnĠ":11780,"guÇĲĠdiÃłnĠ":11781,"dÃ¬ĠfÄģngĠ":11782,"ĠdÃ¬ĠÃ¨rĠshÃŃĠ":11783,"ĠyÇĲĠzhÄ«Ġ":11784,"wÃ©iĠjÄ«ĠbÇİiĠ":11785,"bÄĽnĠzhÃłnĠ":11786,"ĠzhÃłnĠtÃ¡iĠ":11787,"xiÇİoĠjiÄĽĠ":11788,"guÇİnĠlÇĲĠdeĠ":11789,"ĠrÃ¡nĠhÃ²uĠzÃłiĠ":11790,"pÃŃĠfÅ«Ġ":11791,"ĠduÅįĠrÃ©nĠ":11792,"ÄģnĠhuÄ«ĠshÄĽngĠ":11793,"2ĠmÃŃngĠ":11794,"Ġ1997":11795,"ĠmÃŃĠ":11796,"ĠĠĠMe":11797,"ĠĠĠtÃ¡ngĠ":11798,"xiÇİoĠyÃºĠ":11799,"wÄĽiĠdeĠ":11800,"dÃºĠzÃ¬Ġ":11801,"44ĠniÃ¡nĠ":11802,"ĠzhÃ¬ĠjÄ«n":11803,"ĠjÃŃĠkÄĽĠ":11804,"fÃºĠwÃ¹ĠdeĠ":11805,"sÃ¬ĠchuÄģn":11806,"bÃ¬ĠlÇĶ":11807,"ĠshÇĴuĠxiÄģnĠ":11808,"zhÇĶĠjiÃłoĠliÃłnĠ":11809,"ĠSu":11810,"ĠgÄĽiĠ":11811,"zhÅįngĠniÃ¡nĠ":11812,"jiÃłnĠyÃºĠ":11813,"qÅ«ĠxiÃłnĠ":11814,"diÇİnĠxÃŃngĠ":11815,"bÄģnĠdÃłoĠ":11816,"liÃ¡ngĠdeĠ":11817,"pÄ«ĠfÃ¹Ġ":11818,"OSĠ":11819,"BCĠ":11820,"53ĠniÃ¡nĠ":11821,"ĠshÃ¬ĠqÃŃĠ":11822,"ĠshÃŃĠsÃ¬ĠniÃ¡nĠ":11823,"ĠlÃ¬ĠyÃºĠ":11824,"huÃłĠfÄĵnĠ":11825,"yÃ¡nĠxÃ¹":11826,"xÃ¬ngĠgÃ©Ġ":11827,"ĠzhÃ¨ĠxiÃłngĠ":11828,"shÄģĠtiÃ¡nĠ":11829,"guÄģngĠpÇĶĠ":11830,"xiÃ©ĠhuÃ¬":11831,"ĠbÃ¹ĠfÃ¨nĠdeĠ":11832,"ĠIĠ":11833,"bÃ¨n":11834,"ĠdÄ«ng":11835,"ĠyÃ¬nĠdÃ¹":11836,"ĠĠĠDe":11837,"ĠĠĠrÃ¬Ġ":11838,"yÃ¬ĠdeĠshÃ¬Ġ":11839,"leĠyuÃ¡nĠ":11840,"ĠshÃ¬ĠyÃ²ngĠyÃºĠ":11841,"ĠdÃłĠzhÃ¨ngĠ":11842,"tÃ¨ĠdÃ¬ngĠdeĠ":11843,"fÄĵngĠbÃło":11844,"mÄĽiĠguÃ³ĠzÇĴngĠtÇĴngĠ":11845,"xiÃłoĠguÇĴ":11846,"bÄģoĠkuÃ²ĠleĠ":11847,"tÄ«ngĠzhÇİngĠ":11848,"kuÃłngĠwÃ¹Ġ":11849,"ĠdeĠyÃ¬ĠsiĠ":11850,"yÇĲngĠxiÇİngĠdeĠ":11851,"wÃ¹ĠlÇĲĠxuÃ©ĠjiÄģĠ":11852,"shÄĽngĠdÃłoĠtÃ¡iĠ":11853,"Ġte":11854,"ĠXĠ":11855,"jÄ«ĠlÃ¬Ġ":11856,"gÇĶĠsÄ«Ġ":11857,"pÇĶĠÄĽrĠ":11858,"qiÄģnĠzhÃ¨ngĠ":11859,"guÄģngĠdeĠ":11860,"lÄĵiĠdeĠ":11861,"dÃ¬ĠÃ¨r":11862,"ĠjÃŃĠzhÅįngĠzÃłiĠ":11863,"yÃ²ngĠleĠ":11864,"lÃ¡iĠyuÃ¡nĠyÃºĠ":11865,"zhÇİngĠwÃ²":11866,"huÃ³ĠxÃ¬ngĠ":11867,"jÅ«nĠguÄģnĠ":11868,"tiÄĽĠlÃ¹ĠdeĠ":11869,"ÄĵnĠlÃ¡iĠ":11870,"ÄģĠgÄĵnĠtÃŃngĠ":11871,"zuÃ²ĠyÇĲĠ":11872,"qiÃ¡nĠwÃ¨iĠ":11873,"jÄ«nĠrÃ¬":11874,"lÇļĠyÃ³u":11875,"lÇİngĠpÇĶĠ":11876,"pÅįĠÄĽrĠ":11877,"ĠhÃ©ĠkÇĴuĠ":11878,"ĠlÃ¬ĠchÇİngĠ":11879,"ĠyÄ«ĠkÄģiĠshÇĲĠ":11880,"ĠyÇĶĠyuÃ¡nĠ":11881,"ĠchÅ«ĠkÇĴu":11882,"fÄģĠdÃ²ng":11883,"ĠyÃ³uĠtÃłiĠrÃ©nĠ":11884,"tiÄģnĠhuÃ¡ng":11885,"xÃ¬nĠtÃºĠ":11886,"gÄĵĠlÃºnĠbÇĲĠyÃł":11887,"ĠyÃº":11888,"ĠyÄģĠ":11889,"ĠhÃ²uĠzÃłiĠ":11890,"ĠĠĠMo":11891,"ĠĠĠ2004ĠniÃ¡nĠ":11892,"mÃŃngĠzÃłiĠ":11893,"shÄĵngĠbÃ¹Ġ":11894,"mÇİĠqÃŃĠ":11895,"luÃ²ĠhÃ²uĠ":11896,"gÃłoĠzhÄ«Ġ":11897,"ssĠ":11898,"ĠdÃłĠzhÃłnĠ":11899,"xiÇİngĠyÃ¬ngĠ":11900,"ĠbÇĲĠsÃłi":11901,"pÃ©iĠyÇİngĠ":11902,
[...]
