#version: 0.2
n g
h Ã
Ã ł
Ä ģ
Ã ¬
Ã ¡
Ä «
Ã ¨
Ç İ
Ġ Ġ
Ã ©
Ã Ń
s hÃ
Ã ¹
Ã¡ n
z h
Ç Ĳ
Å į
j i
d e
Ãł n
Ä ĵ
z hÃ
s h
Ä Ľ
Ã ³
Ç Ķ
x i
Ã ²
Ã º
Äģ n
ĠĠ Ġ
Ãł i
Å «
Åį ng
Ç Ĵ
ã Ģ
shÃ ¬
h u
Ã¨ i
g u
i Ã¡n
hÃ ©
Ãł o
Äģ ng
ÃŃ ng
y u
Çİ n
c h
n iÃ¡n
y Ä«
Çİ ng
Ã© n
ÇĴ u
Ã¬ ng
w Ã¨i
Çİ o
z Ãłi
ãĢ ģ
j Ä«
Äĵ ng
zh Åįng
x Ä«
b Ã¹
j Ã¬
Ãł ng
l i
zhÃ ¨
shÃ Ń
d Ã¬
gu Ã³
y Ãº
r Ã©n
Ã² ng
c hÃ
Äģ o
d u
c hÃ©
y ÇĲ
l Ã¬
Ã¡ ng
y Ã¬
u Ã²
Ã¡ i
zhÃ ¬
chÃ© ng
Ã© i
x u
g Åįng
j ÃŃ
² u
ÄĽ i
i Ãłn
Äĵ n
Ã³ ng
yu Ã¨
y ÇĴu
yu Ã¡n
d Ãł
q i
Åį u
l ÇĲ
2 0
Ã³ u
Äģ i
xi Ãłn
ji Äģ
s Ä«
Å« n
x ÃŃng
y ÇĶ
Ã¨ n
ÇĴ ng
ÃŃ n
t Äģ
r Ã¬
zh Ä«
hÃ ²u
Çİ i
g Ã¨
zhÃ ł
Ã© ng
l e
w Ã©i
hu Ã¬
d Ãło
1 9
b i
shÃ ł
q Ä«
q ÃŃ
shÃ ¨
s u
zhÃ¨ ng
m ÃŃng
ji Ãłn
xu Ã©
ch Å«
y Ã¹
ÄĽ ng
z uÃ²
sh Äĵng
du Ã¬
y Ã³u
q Å«
shÃł ng
ÄĽ n
d Ã©
l Ã¹
b Ã¨i
chÃ ¡
t i
sh ÇĲ
zhÃł n
zh ÇĶ
Äĵ i
q u
j Ã¹
xÄ« n
j Å«n
zh u
ÄĽ r
Ã¡ o
shÃ ¹
u Ã¬
r Ã¨n
f Äģ
w Ã¹
b Ã¬ng
k Ã¨
Ã© r
d Ãłi
y ÃŃ
jÃ¬ n
z Ã¬
yÄ« n
f Ã¹
f Äģng
jÄ« ng
n Ã¡n
hu Ãł
x Ã¬
zh Åįu
p ÃŃng
Ã² u
xi Ãł
l Ã¡i
y Ã²ng
sh u
gu Äģn
t Ã³ng
ãĢ ĭ
ãĢ Ĭ
f Çİ
zhÃ ¹
m ÄĽi
hÃ ¡
Â ·
ji Äģn
j ÇĲ
hu Ã²
d Ã¹
c hu
b ÄĽn
xi Äģng
zhÃ Ń
d Ã²ng
xi Ãłng
m ÃŃn
ji Äģng
f Äĵn
sh ÇĴu
qu Ã¡n
w Ã©n
y Ã¡n
hÃ ł
su ÇĴ
ji Ãło
q iÃ¡n
d iÃłn
t Ã¨
d i
du Åį
Ãº n
z uÃ¬
k Äģi
t u
ji Ã©
l iÃ¡n
zh ÇĲ
k ÄĽ
d Ãłn
m Ã¹
y Ã¨
f Ãº
m Çİ
y ÄĽ
d Åįng
qi Ãº
b ÄĽi
ãĢ Į
ãĢ į
g Äģo
y Ãł
q ÇĲ
ji Äĵ
m iÃłn
h Çİi
zh Çİng
sh Ä«
jÄ« n
c ÇĲ
l u
n Ã¨i
t ÇĲ
s Ãłi
s Äģn
t Ã¡i
g Ã©
x Ã¬ng
gu Ã²
r Ã¹
20 1
d ÄĽng
y Ãło
j u
ch Äĵ
c Ã¬
w ÇĶ
g Äģi
d Ã¬ng
chÃ¡ ng
bi Çİo
l Äģ
g Ã²ng
ji Ã¨
shÃ ²u
d Çİo
sh Äģn
ch Çİng
s Ã¬
b ÇĲ
z Ã©
t ÃŃ
k Äĵ
d Äģng
n Ã©ng
Ã¨ r
w Ãłi
d Äģn
x Ã¹
z i
k ÇĴu
xi Çİo
z ÇĶ
b Äģ
ju Ã©
l ÃŃn
li Ãº
sh ÄĽng
yÄ« ng
k u
l Ã¡n
lu Ã³
t Åįng
20 0
Ä« ng
² ng
m ÇĲ
zhÃ ²ng
e n
zh ÄĽ
sh ÇĶ
ti Äģn
zhÃ¨ n
Ç ļ
q Ã¬
zh ÇĴng
li Ã¨
ch Äĵng
sh Å«
yu Ãłn
b Çİo
t Ãłi
f ÇĶ
f Äĵng
g ÇĶ
qÄ« ng
sh Äĵn
w Ã¡ng
yÃ¹ n
gu Çİn
f Äĵi
ji Ã¹
li Çİng
c Ã©ng
m Ã©i
1 0
f Ã¨n
hÃł o
³ ng
y Çİn
w ÄĽi
z ÇĴng
xu Çİn
xi Ãło
d Ã¡
n Ãł
li Ãłng
b Åį
z Ãº
j Ã¬ng
b Ãło
n ÃŃ
w Ãº
t ÇĴng
hu Ã¡
ji Äģo
yu Äĵ
yÇĲ ng
b iÃłn
xÄ« ng
s Ã¹
shu ÇĲ
y Ã¡ng
hÃ ¹
m en
b Äģo
g Äĵ
b Ã³
c Äģn
c Ã³ng
di Çİn
b Ã¬
r Ãº
b Ãłn
bi Äģn
w Çİng
q ÇĶ
m i
ch Çİn
s Ã¨
z Ä«
chu Ã¡n
0 0
shÃ¨ ng
r Ã¡n
t Ãº
zh Äģng
p ÇĶ
g Çİi
g Çİng
n Çļ
l Ã¬ng
l uÃ²
y Ã²u
t Ã³u
c Ã¨
l Ç
chÃ Ń
1 8
lÇ ľ
qi Äģn
shÃ ©
l ÃŃ
d Åįu
p ÇĲ
1 2
zh Äĵng
n i
k uÃ²
sh Äģ
d Çİng
f Çİn
g Ã²u
l Ã¨i
x ÃŃ
jÇĲ ng
tu Ã¡n
w Äĵi
xi Äĵ
lÇĲ ng
l Ã³ng
gu Ä«
xi Äģn
r Ã³ng
hu Ã¡ng
xi Çİng
b Äģn
ji ÇĶ
y Ã¬ng
m Ã©n
sh Äģng
shÃ© n
20 2
b Çİn
k Çİ
m ÇĶ
jÇĲ n
f Å«
j ÇĶ
m Ã³
gu Çİng
c ÃŃ
shu Åį
q ÃŃng
zh Çİn
hÃ¡ i
zhu Äģng
m Ã²
c Ã¡i
d Ãº
1 1
pÇĲ n
t ÃŃng
chÃ¡ o
y ÃŃng
ti Ã¡o
ji Çİn
t Ã¡ng
hu ÃŃ
du Ãłn
chÃ© n
g Äĵn
m Ã¬
w Ãłn
p Ã¡i
w Äģn
z Ãło
hÃ¡ ng
w Ã¡n
bi Äģo
g Ã¹
l Ãºn
19 9
xi Ã©
ji Çİng
hÃł n
j Ãº
f Ãłn
f Ã¡ng
hu Ã³
hÃ¡ n
p i
k Åįng
o r
ti ÄĽ
m Ã©ng
bi Ã©
w Å«
ji ÄĽ
zhu Äģn
yÇĲ n
x Å«
zh Äĵn
d ÇĲ
e r
chÃ º
hÃ º
ji Ãł
b Ä«ng
m Ã¬ng
l ÃŃng
hÃ ³ng
qÄ« n
z ÇĲ
lÃ¹ n
xÃ¬ n
chÃ ¹
ch ÇĶ
s Å«
a n
xi Å«
z Åįng
1 5
qu Ã¨
xi Äģo
zhÃł o
qi Ã¡ng
q Ã¹
c Å«n
chÃ ³ng
p iÃłn
ji Å«
f Ãłng
su ÃŃ
sh Åįu
gÃ¨ ng
â Ģ
gu Äģng
Ã¨ ng
j Å«
o n
ji Çİ
chu Ãłng
d ÃŃ
1 6
zhu Çİn
gu ÇĴ
xÃ¹ n
m Ãłn
p Ãłi
f Ã¨i
p Ã¨i
19 8
d Çİ
tu Åį
l a
xu Äģn
b Ã¡i
zh Å«
d Å«
t ÇĶ
di Ãło
xi Ã¡
li Ã¹
1 7
su Ã¬
hu Ä«
t Ä«ng
qi ÄĽ
t Çİ
qi Ã¡o
h Äģ
g Çİn
z Äĵng
xi Çİn
m Ãłi
hu Ã¡n
x ÇĶ
w Çİ
tu Ä«
w Ã¨n
ch Äģo
t iÃ¡n
b Çİi
c Çİi
li Ã¡ng
y Ã¡
s Ãł
a r
b Ãłi
c Ãºn
ji Çİo
sh Çİo
y Ãłn
zhu Ãłng
hu ÇĴ
l Ã©i
1 4
z u
ji Ãłng
chu Äģn
yÃ¬ n
z Çİo
chÃ ł
y ÇĴng
s ÇĲ
d Äĵng
3 0
zhÇĶ n
l Ã¨
x Ãºn
n uÃ²
k Ã¹
hu Ãłn
s Ã²ng
g Ãło
l ÇĶ
1 3
19 4
b Äģng
l Çļ
p Ä«
y Ãłng
h ÄĽn
q Ãºn
zh ÄĽng
gu Ãłn
p Ã²
g Äģng
w ÇĴ
19 7
hu Äģ
l Äĵi
h Çİo
t Ã¡o
ku Ãłng
hÃ ¨
i n
dÃ¹ n
n Ã³ng
g ÄĽi
s Äģi
shu Äģng
li Ãłn
ku Ãłi
d Ä«
b Ä«
p Ãłn
xi ÄĽ
19 5
k Çİo
g Ãłi
h Äĵi
w Ãłng
li Ãło
r Ã¨
g e
zu ÇĴ
k Ã²ng
19 6
y Äģng
chÃł ng
y ÃŃn
³ u
r Ã©ng
s Äĵn
b Äĵi
l Ãº
pi Ãło
y Äģ
2 5
bÄ« n
âĢ Ķ
r Ãłng
ch Åįng
l Ã³u
b ÇĶ
l Çİo
zhÃ º
jÃ¹ n
y Çİng
r uÃ¬
y Äģo
xi Ã¡n
xi Ã¨
n iÃłn
f or
y Åįu
t Ã¡n
k Äģng
p ÃŃ
hÃ© ng
yÃº n
x ÇĲ
k Ãłn
n ÃŃng
li Ã¡o
shÃł o
b Ãº
2 4
qÇĲ ng
ch ÇĲ
m u
d Ã²u
mi Çİn
y Åįng
t Çİn
w Çİn
h Å«
f Äģn
a l
t Å«
g Äģn
su Ãłn
d Ä«ng
yu Çİn
w Äĵn
t uÃ¬
zh e
2 1
s t
xi Ã¹
b Çİ
m Çİn
19 3
2 3
mu la
k Ãłng
for mula
2 8
t h
m Ã¡o
r uÃ²
pi Äģn
chÃ ¨
m Ãło
l Çİng
q ÃŃn
b Ã¡
n Ã¡
z Ãłn
gu ÇĲ
gu Ã¬
o u
p ÃŃn
w Ã²
xi Ã³ng
shÃł n
r e
2 2
xi Åįng
m e
su Ä«
Ã ¼
2 6
sh ÄĽn
q Ã¬ng
mi Ã¡o
f Çİng
5 0
20 20
2 7
l Ã¡ng
r u
qi Å«
s Åįng
Ã¼ Ã¨
d Ãłng
g Äĵng
qi Äģng
r i
f Ã¡
z Äģo
f Ã¨ng
zhÃł ng
ï ¼
hÃ¡ o
d Å«n
z ÇĴu
hÃł i
qi Ã¨
2 9
t Ãłn
p Ãło
p Ãł
shÃ¹ n
p Ã©ng
xu Ã¡n
201 0
n ÇĲ
00 0
dÇĲ ng
ni ÇĶ
z Çİi
zh Äģo
zhu Ä«
l Ã¼Ã¨
ch Å«n
20 19
h Å«n
k ÇĴng
du Äģn
shÃ¨ n
xi Ã¡ng
du Çİn
g Ãłn
t e
r o
k Äģn
l Ã¡o
c Çİo
201 6
s i
g Å«
p Ã©i
201 8
ku Çİn
z Ã¡
s Å«n
y Ã©
y Çİ
p Åį
202 1
r a
chÃ ¬
du Ã³
201 4
f Ã¡n
201 1
201 5
c uÃ²
201 7
zhÃ ©
y Ã¡o
p Äģi
t Ã²u
c Ã¡ng
201 2
4 0
k Çİi
201 3
202 2
m ÃŃ
ru Çİn
su Äģn
ch Äģ
z Ãłng
mi Ãło
l t
200 9
zh Çİo
200 8
hu Ã¡i
ã ĥ
c e
6 0
a m
c u
xu Ã¨
chÃ ³u
s e
b Çİng
m Ã¨ng
10 0
t Ã¬
p Ãº
n Çİo
202 3
zhu Ãłn
g t
l ÄĽi
19 0
3 1
c Ãłi
c Ã¹
s Ãłn
m Ã³u
ti on
t a
hÃ¹ n
ÇĶ n
ku Äģn
200 7
ni Ãº
m ÇĴu
t Çİo
di Ã©
200 1
o l
t Ã©ng
s Åįu
k ÄĽn
qi Çİn
ch Äģng
r Çİn
qu Äĵ
f ÇĴu
s ÇĶn
e l
b Ãł
200 0
8 0
k Ãło
su Åį
200 6
ni Çİo
chÃº n
m a
202 4
l Çİn
ã ģ
z Äģi
zhÃ ¡
xu ÄĽ
hu ÇĲ
lu Ãłn
tÇĲ ng
200 5
z Å«n
b Ãłng
l Ãł
hu Äģn
r Çİng
sh uÃ¬
mÇĲ n
3 5
l Ãłi
c Äģng
7 0
f Ã³
p Ã¡n
o f
n Ãłi
w ÄĽn
e t
c Äģo
s Äģng
p Ã¡ng
9 0
bÇĲ ng
ï¼ į
zh Äģ
ã Ĥ
shu Ãłi
ni Ã¨
e s
hÃ ³u
m Ã¨i
sh Äģo
n ÇĶ
d ÇĴng
i l
a t
o w
f Ã©ng
mi Ã¨
yÇĶ n
z Ã²u
m Çİi
hu Ãłi
200 4
4 5
y Äģn
c o
4 8
th e
zhu Ã³
an d
t er
h e
t Ãło
n Çİi
k Å«n
202 5
zh ÄĽn
c k
r ÇĶ
ku Ãł
ku ÃŃ
ãĢ ī
ãĢ Ī
g Åįu
3 6
cu Ä«
3 8
sh Çİn
r Ã²u
di Äģo
200 3
h ÇĶ
gu Åį
3 7
c uÃ¬
n e
x Ãº
m Ã¡ng
ju Çİn
c Ã¡n
di Äģn
zh Äģn
c Ã¡o
18 9
I N
200 2
de Ġ
Ġ deĠ
shÃ¬ Ġ
Ġ shÃ¬Ġ
Ġ niÃ¡n
ĠniÃ¡n Ġ
wÃ¨i Ġ
zÃłi Ġ
Ġ wÃ¨iĠ
Ġ zÃłiĠ
hÃ© Ġ
Ġ hÃ©Ġ
zhÅįng Ġ
bÃ¹ Ġ
dÃ¬ Ġ
shÃŃ Ġ
guÃ³ Ġ
yÃº Ġ
rÃ©n Ġ
Ġ bÃ¹Ġ
yÄ« Ġ
Ġ zhÅįngĠ
lÃ¬ Ġ
zhÃ¬ Ġ
gÅįng Ġ
Ġ shÃŃĠ
yuÃ¨ Ġ
jÃŃ Ġ
chÃ©ng Ġ
yÃ¬ Ġ
yÇĴu Ġ
Ġ dÃ¬Ġ
Ġ yuÃ¨Ġ
Ġ yÃºĠ
Ġ rÃ©nĠ
Ġ zhÃ¬Ġ
dÃł Ġ
Ġ jÃŃĠ
yuÃ¡n Ġ
Ġ yÇĴuĠ
jÃ¬ Ġ
Ġ guÃ³Ġ
Ġ lÃ¬Ġ
Ġ gÅįngĠ
Ġ yÃ¬Ġ
Ġ yÇĲ
Ġ chÃ©ngĠ
jiÄģ Ġ
sÄ« Ġ
yÇĶ Ġ
Ġ xiÃłn
Ġ rÃ¬
Ġ yÄ«Ġ
Ġ xÃŃng
Ġ tÄģ
lÇĲ Ġ
jÄ« Ġ
Ġ dÃło
hÃ²u Ġ
wÃ©i Ġ
Ġ zhÄ«
Ġ dÃłĠ
Ġ yuÃ¡nĠ
xÄ« Ġ
ĠrÃ¬ Ġ
Ġ gÃ¨
ĠyÇĲ Ġ
xuÃ© Ġ
huÃ¬ Ġ
le Ġ
zuÃ² Ġ
Ġ yÇĶĠ
ĠdÃło Ġ
mÃŃng Ġ
Ġ jÃ¬Ġ
bÃ¨i Ġ
ĠxÃŃng Ġ
shÄĵng Ġ
Ġ jiÃłn
Ġ chÅ«
Ġ qÃŃ
Ġ sÄ«Ġ
Ġ dÃ©
zhÃ¨ng Ġ
ĠxiÃłn Ġ
Ġ hÃ²uĠ
Ġ jÄ«Ġ
duÃ¬ Ġ
shÃłng Ġ
qÅ« Ġ
shÇĲ Ġ
Ġ ÄĽr
Ġ jiÄģĠ
yÃ³u Ġ
ĠtÄģ Ġ
Ġ xÄ«Ġ
Ġ lÇĲĠ
Ġ Ã©r
zhÃłn Ġ
Ġ jÅ«n
Ġ bÃ¬ng
ĠzhÄ« Ġ
ĠgÃ¨ Ġ
zhÇĶ Ġ
rÃ¨n Ġ
fÃ¹ Ġ
zÃ¬ Ġ
wÃ¹ Ġ
xÄ«n Ġ
dÃłi Ġ
jÃ¹ Ġ
pÃŃng Ġ
ĠchÅ« Ġ
Ġ kÃ¨
Ġ zhÅįu
xiÄģng Ġ
Ġ huÃ¬Ġ
shÃ¹ Ġ
nÃ¡n Ġ
Ġ shÃ¨
Ġ bÃ¨iĠ
Ġ mÃŃngĠ
xiÃł Ġ
guÄģn Ġ
ĠÄĽr Ġ
ĠdÃ© Ġ
lÃ¹ Ġ
yÃ¹ Ġ
huÃł Ġ
ĠjiÃłn Ġ
jÄ«ng Ġ
yÃ¡n Ġ
fÄģng Ġ
Ġ yÄ«n
kÄģi Ġ
jiÄģn Ġ
jiÃło Ġ
fÄģ Ġ
yÃ²ng Ġ
Ġ dÃłn
ĠÃ©r Ġ
zhÃ¹ Ġ
lÃ¡i Ġ
mÃŃn Ġ
shÇĴu Ġ
zhÃ¨ Ġ
xiÃłng Ġ
wÃ©n Ġ
ĠjÅ«n Ġ
xÃ¬ Ġ
qiÃ¡n Ġ
bÄĽn Ġ
tÃ¨ Ġ
Ġ wÃ©iĠ
zhÃŃ Ġ
fÇİ Ġ
qÄ« Ġ
jiÃ© Ġ
liÃ¡n Ġ
ĠbÃ¬ng Ġ
dÃ²ng Ġ
diÃłn Ġ
ĠqÃŃ Ġ
ĠkÃ¨ Ġ
dÅįng Ġ
mÃ¹ Ġ
Ġ jÃ¬n
Ġ duÃ¬Ġ
Ġ huÃ²
Ġ zhÃłnĠ
fÄĵn Ġ
tÃ¡i Ġ
zhÇİng Ġ
dÃ¹ Ġ
jiÄģng Ġ
Ġ qiÃº
Ġ pÃŃngĠ
gÄģo Ġ
yÃ¨ Ġ
suÇĴ Ġ
bÄĽi Ġ
ĠzhÅįu Ġ
shÄ« Ġ
Ġ leĠ
duÅį Ġ
Äģn Ġ
jiÄĵ Ġ
gÃ© Ġ
Ġ shÃłngĠ
jÄ«n Ġ
Ġ zhÃ¨ngĠ
fÃº Ġ
Ġ zuÃ²Ġ
Ġ yÃ³uĠ
Ġ fÃ¹Ġ
kÇĴu Ġ
guÃ² Ġ
zhÇĲ Ġ
hÇİi Ġ
Ġ tÃ³ng
Ġ rÃ¨nĠ
mÇİ Ġ
rÃ¹ Ġ
tÅįng Ġ
zuÃ¬ Ġ
quÃ¡n Ġ
Ġ shÄĵngĠ
cÇĲ Ġ
Ġ xuÃ©Ġ
xÃ¬ng Ġ
wÃłi Ġ
nÃ¨i Ġ
lÄģ Ġ
tÇĲ Ġ
juÃ© Ġ
kÄĽ Ġ
qÇĲ Ġ
shÄģn Ġ
tiÄģn Ġ
dÄĽng Ġ
chÇİng Ġ
zhÃ¨n Ġ
wÇĶ Ġ
chÃ¡ng Ġ
zi Ġ
Äģ Ġ
yÃło Ġ
bÇĲ Ġ
Ġ jÃ¹Ġ
bÇİo Ġ
mÇĲ Ġ
yÃł Ġ
ĠyÄ«n Ġ
miÃłn Ġ
cÃ¬ Ġ
gÄģi Ġ
shÃ²u Ġ
jiÃ¨ Ġ
yÄĽ Ġ
zhÃ²ng Ġ
yÃŃ Ġ
ĠshÃ¨ Ġ
fÄĵng Ġ
zhÇĴng Ġ
liÃº Ġ
chÄĵ Ġ
yÃ¹n Ġ
Ġ zhÃ¨Ġ
lÃŃn Ġ
bÄģo Ġ
sÃłi Ġ
dÃ¬ng Ġ
yÃŃ ĠgÃ¨Ġ
shÄĵn Ġ
Ġ dÃłiĠ
shÄĽng Ġ
ĠdÃłn Ġ
luÃ³ Ġ
qÃ¬ Ġ
sÄģn Ġ
xiÇİo Ġ
mÄĽi ĠguÃ³Ġ
nÃ©ng Ġ
shÅ« Ġ
zÃ© Ġ
zhÄĽ Ġ
liÃ¨ Ġ
xuÇİn Ġ
sÃ¬ Ġ
qÄ«ng Ġ
ĠqiÃº Ġ
yuÃłn Ġ
jÃ¬ng Ġ
bÄģ Ġ
wÃ¡ng Ġ
kÄĵ Ġ
tÃłi Ġ
lÃ¡n Ġ
bÃło Ġ
Ãłn Ġ
yÇĲng Ġ
ĠhuÃ² Ġ
zÇĴng Ġ
bÃ¬ Ġ
fÇĶ Ġ
dÇİo Ġ
gÇĶ Ġ
yÄ«ng Ġ
Ġ hÃło
Ġ xÄ«nĠ
Ġ xiÃłĠ
fÃ¨n Ġ
gÄĵ Ġ
xiÃło Ġ
yuÄĵ Ġ
Ġ zÃ¬Ġ
jiÄģo Ġ
nÃŃ Ġ
nÃł Ġ
shuÇĲ Ġ
zÄ« Ġ
Ãło Ġ
Ã¨r Ġ
Ġ mÇĲĠ
pÇĶ Ġ
dÄģn Ġ
biÇİo Ġ
liÃłng Ġ
guÇİn Ġ
tÃ³u Ġ
chuÃ¡n Ġ
sÃ¹ Ġ
wÃº Ġ
rÃº Ġ
xÄ«ng Ġ
bÅį Ġ
nÇļ Ġ
yÇİn Ġ
Ġ zhÃ¹Ġ
bÃ³ Ġ
fÄĵi Ġ
tÃŃ Ġ
sÃ¨ Ġ
mÄĽi Ġ
dÃ¡ Ġ
chÄĵng Ġ
ĠzhÅįngĠ guÃ³Ġ
Ġ dÄģng
ĠjÃ¬n Ġ
Ġ lÃ¹Ġ
ĠwÃ¨iĠ yÃºĠ
cÃ©ng Ġ
Ġ xiÄģngĠ
chÇİn Ġ
biÃłn Ġ
tÃº Ġ
1 Ġ
Ġ nÃ¡nĠ
guÄ« Ġ
Ġ rÃ¡n
Ġ yÃ¹Ġ
yÃ¡ng Ġ
zhÄģng Ġ
2 Ġ
diÇİn Ġ
gÇİi Ġ
cÃ³ng Ġ
jiÃ¹ Ġ
wÇİng Ġ
shÄģ Ġ
zÇĶ Ġ
huÃ¡ Ġ
lÇľ Ġ
shÃ¨ng Ġ
bÄģoĠ kuÃ²
jiÇİn Ġ
Ġ bÄĽnĠ
shÇĶ Ġ
gÇİng Ġ
jÇĲng Ġ
qÃŃng Ġ
zÃº Ġ
bÃłn Ġ
liÇİng Ġ
tÇĴng Ġ
shÄģng Ġ
gÃ²ng Ġ
hÃ¹ Ġ
lÃŃ Ġ
tÃ³ng Ġ
lÃ³ng Ġ
jÃ¬n Ġ
biÄģn Ġ
luÃ² Ġ
xÃ¹ Ġ
chÃŃ Ġ
mÃ©i Ġ
jÇĲn Ġ
bÄģn Ġ
guÇİng Ġ
cÃ¨ Ġ
chÅ« Ġ
zhÄĵng Ġ
shÃ©n Ġ
mÃ¬ Ġ
ĠtÄģĠ men
zhÄ« Ġ
lÇĲng Ġ
wÄĵi Ġ
yÃ²u Ġ
fÇİn Ġ
tÃŃng Ġ
xÃŃ Ġ
huÃ³ Ġ
chÃ¡ Ġ
kÇİ Ġ
gÃ²u Ġ
cÃ¡i Ġ
Ġ gÄģiĠ
mÃ©n Ġ
xiÇİng Ġ
shuÅį Ġ
cÃŃ Ġ
wÄĽi Ġ
qÇĶ Ġ
mÇĶ Ġ
jiÇİng Ġ
lÃ¨i Ġ
tuÃ¡n Ġ
jiÃłn Ġ
chÃ¡o Ġ
yÃ¬ng Ġ
3 Ġ
ĠgÅįngĠ lÇĲĠ
yÇĲn Ġ
yÃ¡nĠ jiÅ«
Ã© Ġ
xiÄĵ Ġ
tÃ¡ng Ġ
qÃŃ Ġ
chÃ©n Ġ
pÇĲn Ġ
Ġ duÅįĠ
jiÃł Ġ
ĠyÇĲ ĠjÃŃĠ
Ġ zhÇĶĠ
jiÄĽ Ġ
hÃ¡ng Ġ
shÇĲĠ yÃ²ngĠ
yÇĲ Ġ
lÃºn Ġ
rÃ³ng Ġ
fÅ« Ġ
jiÇĶ Ġ
pÃ¡i Ġ
n Ġ
Ġ yÃ³u
lÃ¬ng Ġ
ĠhÃło Ġ
tÃ¡iĠ wÄģn
huÃ¡ng Ġ
dÇİng Ġ
xÅ« Ġ
duÃłn Ġ
ĠdeĠ dÃ¬Ġ
xiÄģn Ġ
kÄĽ ĠyÇĲĠ
kÃ¨ Ġ
yÃŃng Ġ
mÃ³ Ġ
cÄģn Ġ
5 Ġ
tiÃ¡o Ġ
biÄģo Ġ
zhÇİn Ġ
xiÃłn Ġ
bÇİn Ġ
ĠdeĠ yÄ«Ġ
kÄģiĠ shÇĲĠ
4 Ġ
qiÄģn Ġ
ĠchÃ©ngĠ wÃ©iĠ
hÃłn Ġ
hÃ³ng Ġ
yÄ«n Ġ
mÃ©i ĠyÇĴuĠ
wÄĽi ĠyuÃ¡nĠ
lÃŃng Ġ
ĠtÃ³ng Ġ
xiÄģo Ġ
jÃº Ġ
mÃ©ng Ġ
kÅįng Ġ
huÃŃ Ġ
sÅ« Ġ
zhuÄģng Ġ
fÃ¡ng Ġ
bÄģoĠkuÃ² Ġ
cÅ«n Ġ
9 ĠniÃ¡nĠ
rÃ©nĠ kÇĴuĠ
xÃŃng Ġ
ĠqÃŃ ĠzhÅįngĠ
huÃ² Ġ
ĠgÅįngĠ sÄ«Ġ
zÇĲ Ġ
dÅįu Ġ
6 ĠniÃ¡nĠ
ĠdeĠ shÃ¬Ġ
ĠĠĠ zÃłiĠ
s Ġ
Ãłi Ġ
zhÃło Ġ
qiÃ¡ng Ġ
dÃº Ġ
8 ĠniÃ¡nĠ
zhÃ¨ng ĠzhÃ¬Ġ
bÄ«ng Ġ
yÃŃ ĠgÃ¨
mÃ² Ġ
cÇİi Ġ
fÇİ ĠguÃ³Ġ
5 ĠniÃ¡nĠ
qÄ«n Ġ
Äģi Ġ
hÃ¡i Ġ
chÃ¹ Ġ
ĠdÃłĠ xuÃ©Ġ
hÃº Ġ
ĠshÃ¬Ġ yÄ«Ġ
zhÄĵn Ġ
ĠtÄģ ĠdeĠ
Ġ wÃłn
4 ĠniÃ¡nĠ
lÃ¹n Ġ
Ġ gÄģoĠ
fÃłn Ġ
guÄģng Ġ
2 ĠniÃ¡nĠ
mÃłn Ġ
Çİn Ġ
wÃ¨n Ġ
shÃ¨ Ġ
7 ĠniÃ¡nĠ
jÅ« Ġ
biÇİo ĠshÃ¬Ġ
Ġ xiÃłngĠ
zhÅįng ĠdeĠ
quÃ¨ Ġ
zhuÄģn Ġ
wÃ¡n Ġ
diÃło Ġ
bÃ¡i Ġ
3 ĠniÃ¡nĠ
dÇİ Ġ
6 Ġ
zÅįng Ġ
jÇĶ Ġ
fÃ¨i Ġ
diÃłn ĠshÃ¬Ġ
hÃ¡n Ġ
xÃ¹n Ġ
ĠshÃ¬Ġ wÃ¨iĠ
piÃłn Ġ
mÃ¬ng Ġ
shÃ¬ ĠdeĠ
Ġ dÅįngĠ
tuÅį Ġ
Ġ mÃ¹Ġ
Ġ dÃ¹Ġ
Ġ jÄ«nĠ
gÃ¹ Ġ
1 ĠniÃ¡nĠ
s ĠĠĠ
guÇĴ Ġ
Ġ tÃ¨Ġ
xiÅ« Ġ
xiÃ© Ġ
ĠbÃ¹Ġ fÃ¨nĠ
tÄģ Ġ
0 ĠniÃ¡nĠ
zÃło Ġ
ĠrÃ©nĠ kÇĴuĠ
Ġ fÄĵnĠ
ĠhÃ©Ġ guÃ³Ġ
zhÅįngĠ guÃ³Ġ
10 ĠyuÃ¨Ġ
shÅįu Ġ
xÃ¬n Ġ
dÄģng Ġ
Ġ jiÄģngĠ
12 ĠyuÃ¨Ġ
7 ĠyuÃ¨Ġ
Ġ jiÃ©Ġ
Ġ yÄĽĠ
9 ĠyuÃ¨Ġ
dÃło Ġ
Ġ zuÃ¬
zhuÇİn Ġ
wÅ« Ġ
miÃłn ĠjÄ«Ġ
ĠrÃ©nĠ mÃŃnĠ
8 ĠyuÃ¨Ġ
xÃºn Ġ
ĠdÃ¬Ġ qÅ«Ġ
3 ĠyuÃ¨Ġ
jiÇİ Ġ
xiÃ¡ Ġ
1 ĠyuÃ¨Ġ
dÅ« Ġ
gÇİn Ġ
dÃŃ Ġ
zhÅ« Ġ
huÃ¡n Ġ
5 ĠyuÃ¨Ġ
dÇĲ Ġ
tÄ«ng Ġ
yÄ«ng ĠguÃ³Ġ
Ġ cÇĲĠ
Ġ guÃ²Ġ
zhÅįu Ġ
huÇĴ Ġ
zhÃ¨ng ĠshÃ¬Ġ
chÃ³ng Ġ
Ġ jÄ«ngĠ
6 ĠyuÃ¨Ġ
zhuÃłng Ġ
tiÃ¡n Ġ
chÃ©ng ĠshÃ¬Ġ
4 ĠyuÃ¨Ġ
gÃ¨ng Ġ
Ġ yÄĽ
fÃłng Ġ
ĠguÃ³Ġ jiÄģĠ
jÅ«n Ġ
yÇĴng Ġ
ĠĠĠ dÃ¬Ġ
Ġ shÇĴuĠ
Ġ suÇĴĠ
Ġ shÄ«Ġ
Çİo Ġ
shÇĶ ĠyÃºĠ
ĠpÃŃngĠ fÄģng
pÃ² Ġ
ĠdÃ¬Ġ yÄ«Ġ
qÃ¹ Ġ
qÃºn Ġ
11 ĠyuÃ¨Ġ
jiÃłng Ġ
tÃ¡o Ġ
ĠĠĠ S
ĠshÃ¬Ġ jÃ¬Ġ
gÄĵn Ġ
ĠpÃŃngĠfÄģng ĠgÅįngĠlÇĲĠ
ĠtÃ³ng ĠshÃŃĠ
Ġ rÃºĠ
dÄģn ĠrÃ¨nĠ
Ġ C
biÃ© Ġ
pÃłi Ġ
jÇĲ Ġ
huÄ« Ġ
tiÄĽ Ġ
liÃ¡ng Ġ
Ġ qiÃ¡nĠ
shÇİo Ġ
tÇİ Ġ
nÃ³ng Ġ
diÃłnĠ yÇĲngĠ
chÇĶ Ġ
Äĵn Ġ
ÄĽr Ġ
sÇĲ Ġ
tÃ¡iĠwÄģn Ġ
shuÄģng Ġ
qiÃ¡o Ġ
Ġ zhÃ¨
Ġ S
Ġ mÇİĠ
ĠdeĠ shÃŃĠ
gÄĵn ĠjÃ¹Ġ
lÃ¬Ġ shÇĲĠ
7 Ġ
chÃº Ġ
gÃło Ġ
bÃłi Ġ
ĠshÃ¬Ġ zhÃ¨nĠ
cÄģn ĠjiÄģĠ
yÃ¹nĠ dÃ²ng
jiÇİo Ġ
gÄģng Ġ
chÄĵ ĠzhÃłnĠ
Ġ tiÄģnĠ
guÃ³ ĠdeĠ
qÄ«Ġ jiÄģnĠ
Ġ dÄĽngĠ
ĠyÄ«n ĠwÃ¨iĠ
pÃłn Ġ
ĠrÃ¬Ġ bÄĽnĠ
zhÃ¨ngĠ fÇĶĠ
ĠpÃŃngĠ fÄģngĠ
lÃ¬ ĠdeĠ
gÃłi Ġ
ĠniÃ¡n ĠdeĠ
yÃłn Ġ
bÃ¬ng Ġ
zhÇĶn Ġ
wÇİ Ġ
yÃ¡ Ġ
hÄĵi Ġ
wÇĴ Ġ
Åįu Ġ
gÃ²ng ĠhÃ©ĠguÃ³Ġ
ĠxiÃłn ĠdeĠ
sÃ²ng Ġ
hÄģ Ġ
yÃŃn Ġ
huÃłn Ġ
fÄģ ĠxiÃłnĠ
chuÃłng Ġ
formula Ġ
lÃ©i Ġ
qÅ« ĠdeĠ
Ġ 19
hÄĽn Ġ
yÃ¡nĠjiÅ« Ġ
tÃŃ ĠgÅįngĠ
Ġ hÇİiĠ
jÃ¬n ĠxÃŃngĠ
huÄģ Ġ
Ġ bÄĽiĠ
2 ĠyuÃ¨Ġ
qiÄĽ Ġ
jÄ«ng ĠjÃ¬Ġ
chuÄģn Ġ
tÅįngĠ guÃ²Ġ
suÃŃ Ġ
Ġ A
lÄĵi Ġ
ĠzhÅįngĠ yÄģng
kÇİo Ġ
ĠguÃ³Ġ jÃ¬Ġ
Ġ 199
shÃłng ĠdeĠ
bÇİi Ġ
ĠyÃ³u ĠyÃºĠ
wÄĽiĠyuÃ¡nĠ huÃ¬Ġ
Ġ fÃºĠ
ĠĠĠ C
Ġ t
Ġ yÃ²uĠ
dÄĵng Ġ
chÄĵng ĠwÃ©iĠ
ĠshÃ¬Ġ jiÃ¨Ġ
8 Ġ
ĠyÄ«nĠ cÇĲĠ
9 Ġ
nuÃ² Ġ
ĠtÄģĠmen Ġ
mÃŃng ĠwÃ¨iĠ
ĠjÃ¬n ĠxÃŃngĠ
tÇĶ Ġ
chÅįng Ġ
ĠshÃ¬Ġ zÃłiĠ
mÃłi Ġ
zhÇĶ ĠyÃ¬Ġ
qiÃº Ġ
ĠrÃ¡n Ġ
kuÃłi Ġ
hÃło Ġ
ĠzhÄ« ĠhÃ²uĠ
liÃłn Ġ
Ġ 18
shÃŃ ĠdeĠ
xÃ¬Ġ tÇĴngĠ
xiÄģngĠ gÇİngĠ
sÃł Ġ
pÃ¨i Ġ
lÃº Ġ
liÃło Ġ
lÇĶ Ġ
quÃ¡n ĠguÃ³Ġ
a Ġ
piÃło Ġ
chÇĲ Ġ
dÃ© Ġ
Ġ suÇĴ
kuÃłng Ġ
xuÄģn Ġ
i Ġ
zÄĵng Ġ
ĠxÃŃng ĠdeĠ
rÃ©n ĠdeĠ
xÇĶ Ġ
rÃ¬ Ġ
guÇİn ĠlÇĲĠ
Ġ zuÃ¬Ġ
ĠgÅįngĠ zuÃ²Ġ
Ġ M
Äĵ Ġ
ĠzhÄ« ĠyÄ«Ġ
Ġ shÇĲĠ
ĠdÄģng Ġ
Ġ mÄĽi
dÄ« Ġ
ĠĠĠ M
hÃ©ng Ġ
bÇĶ Ġ
dÃł ĠdeĠ
suÃ¬ Ġ
yÃłng Ġ
pÄ« Ġ
tuÄ« Ġ
ĠzhÅįngĠ xÄ«nĠ
xuÄģn ĠbÃ¹Ġ
Ã¨ Ġ
zÇİo Ġ
men Ġ
sÄĵn Ġ
wÃłng Ġ
zÇĶ ĠzhÄ«Ġ
pÃŃ Ġ
bÃ¹ ĠdeĠ
chÃłng Ġ
Ġ bÄģoĠkuÃ²Ġ
yÇİng Ġ
yÇĲngĠ xiÇİngĠ
ĠtÄģ ĠzÃłiĠ
hÃ¨ Ġ
Ä« Ġ
qiÄģn ĠmÇĲĠ
Ã©r Ġ
sÄģi Ġ
ĠĠĠ shÄĵngĠ
ĠhuÃ² ĠdÃ©Ġ
liÃ¹ Ġ
2020 ĠniÃ¡nĠ
luÃ³ ĠsÄ«Ġ
chÃ©ng ĠdeĠ
ĠshÃ¬Ġ jiÃ¨
Ġ wÃ©nĠ
dÃ¹n Ġ
Ġ gÄģi
Ġ yÄ«ngĠ
bÄģng Ġ
kÄĽĠ nÃ©ng
e Ġ
Äģng Ġ
xiÃ¡n Ġ
Ġ ÄģĠ
niÃłn Ġ
qÃŃ ĠtÄģĠ
Ġ qÄ«ngĠ
ĠchÃ©ngĠ lÃ¬Ġ
le ĠyÄ«Ġ
C Ġ
huÃ³Ġ dÃ²ngĠ
Ġ jiÃłoĠ
Ġ 198
ĠrÃ¨nĠ wÃ©iĠ
yÅįu Ġ
fÄģĠ zhÇİnĠ
yÄģ Ġ
Äģo Ġ
kÄĵ ĠxuÃ©Ġ
ĠĠĠ A
hÇİo Ġ
lÃ¨ Ġ
kÃ¹ Ġ
huÃ² ĠdÃ©Ġ
jÃ¹n Ġ
ĠzuÃ²Ġ wÃ©iĠ
ĠpÃŃngĠfÄģngĠ qiÄģnĠmÇĲĠ
lÇİo Ġ
lÃ³u Ġ
Ġ T
rÃ¨ Ġ
huÃ¡ ĠrÃ©nĠmÃŃnĠ
bÄĵi Ġ
rÃ¬ ĠbÄĽnĠ
Ġ wÃºĠ
huÃ¬ ĠyÃ¬Ġ
tÃ¡n Ġ
jiÄģn ĠdeĠ
t Ġ
Ġ shÃ¹Ġ
tiÄĽ ĠlÃ¹Ġ
bÇĲĠ sÃłiĠ
ĠdeĠ rÃ©nĠ
liÃ¡o Ġ
miÇİn Ġ
yÃ²ng ĠyÃºĠ
gÃ¨ Ġ
nÃŃng Ġ
Ġ h
Ġ 5
ĠshÃŃĠ jiÄģnĠ
2010 ĠniÃ¡nĠ
ruÃ¬ Ġ
ĠdeĠ gÅįngĠ
Ġ zhÃŃ
Ġ liÃ¡nĠ
Ġ zhÄģngĠ
Ġ p
miÃłnĠ jÄ«
Ġ B
xiÇİn Ġ
mÃŃn ĠguÃ³Ġ
gÄģn Ġ
wÅ« ĠkÃ¨Ġ
yÃ¬n Ġ
Äĵng Ġ
zhÇĶĠ yÃłoĠ
gÃ²ng ĠyÇĴuĠ
ĠĠĠ lÃ¬ĠshÇĲĠ
rÃ¡n Ġ
zuÇĴ Ġ
ĠĠĠ P
dÃ²u Ġ
wÃ¨nĠ tÃŃĠ
ĠĠĠshÄĵngĠ pÃŃngĠ
yuÇİn Ġ
huÃ¡ĠrÃ©nĠmÃŃnĠ gÃ²ngĠhÃ©ĠguÃ³Ġ
Ġ luÃ³Ġ
fÄģng ĠshÃ¬Ġ
Å« Ġ
fÄģĠ shÄĵngĠ
zhÄĽng Ġ
guÃłn ĠjÅ«nĠ
kÄģng Ġ
kÄĽĠ nÃ©ngĠ
cÃºn Ġ
ĠdÃ¬Ġ Ã¨rĠ
ĠniÃ¡nĠ 1ĠyuÃ¨Ġ
dÃ¬ ĠdeĠ
Ġ P
dÇİo ĠzhÃ¬Ġ
guÄģnĠ xÃ¬Ġ
ge Ġ
cÄģn ĠyÃ¹Ġ
Ġ cÃ³ngĠ
dÃłiĠ biÇİoĠ
y Ġ
fÄĵn ĠbÃ¹Ġ
ĠgÅįngĠ chÃ©ngĠ
wÃ¡n ĠchÃ©ngĠ
Ġ 15
xiÃ¨ Ġ
dÄģn ĠwÃ¨iĠ
Ġ lÃ¡iĠ
yÄ« ĠwÃ¨iĠ
wÃ©nĠ huÃłĠ
Ġ quÃ¡nĠ
suÇĴ ĠyÇĴuĠ
1 ĠrÃ¬Ġ
ĠniÃ¡nĠ 12ĠyuÃ¨Ġ
ĠbÃ¹Ġ fÃ¨n
lÇļ Ġ
zhÃ¬ ĠdeĠ
Ġ shÄģnĠ
gÄĽi Ġ
ĠchÃ©ngĠ yuÃ¡nĠ
Ġ jÇĲnĠ
e ĠĠĠ
Ġ liÃºĠ
ĠdeĠ chÃ©ngĠ
Ġ yÃ¡nĠ
Ġ 194
00 Ġ
A Ġ
yuÃ¡n ĠdeĠ
ĠwÃłn Ġ
yÅįng ĠyÇĴuĠ
cÃºn ĠzÃłiĠ
Ã¨r ĠshÃŃĠ
Ġ zÃ©Ġ
Ġ zÇĴngĠ
Ġ 3
bÄĽi ĠbÃ¹Ġ
Ġ xiÇİoĠ
liÃ¡n ĠhÃ©Ġ
Ġ zhÃŃĠ
Ġ wÇĶĠ
Ġ 4
Ã¡ng Ġ
hÃ²u ĠdeĠ
niÇĶ Ġ
yÃ³u ĠyÃºĠ
ĠshÃ¬Ġ zhÅįngĠ
Ġ D
guÃ³Ġ jiÄģĠ
duÃ¬ ĠyÃºĠ
fÄģ ĠxÃŃngĠ
yÃ¬ ĠdeĠ
jÃ¹ ĠyÇĴuĠ
ĠjiÃłnĠ zhÃ¹Ġ
ĠbÃ¬ng ĠzÃłiĠ
ĠdÃłoĠ leĠ
Ġ zhÇĲĠ
xÄ«n ĠdeĠ
sÄ« ĠdeĠ
shÄĽn Ġ
ĠĠĠ B
zhÃ¨ngĠ fÇĶ
zÃ¬Ġ jÇĲ
bÄ«n Ġ
yÃ¹nĠ dÃ²ngĠ
Ġ bÄģĠ
Ġ tÅįngĠ
xÃŃng ĠzhÃ¨ngĠ
yÃ¬n ĠdÃ¹Ġ
Ã©Ġ luÃ³ĠsÄ«Ġ
tÅ« Ġ
Ġ miÃłnĠjÄ«Ġ
xÇĶ ĠduÅįĠ
shÃło Ġ
yÃºn Ġ
ĠdÃłn ĠshÃ¬Ġ
rÃ¨n ĠhÃ©Ġ
Ġ mÄĽiĠguÃ³Ġ
Ġ lÃ¬ngĠ
shÄĵng ĠyÃºĠ
guÃ¬ Ġ
Ġ zhÇĲ
bÇİoĠ hÃ¹Ġ
Ġ 16
chÃ¨ Ġ
liÇİng ĠgÃ¨Ġ
xiÃ¹ Ġ
ĠrÃ©nĠkÇĴuĠ mÃ¬Ġ
dÄ«ng Ġ
ĠniÃ¡nĠ 3ĠyuÃ¨Ġ
zhÇĶĠ yÃło
mÇİn Ġ
zhÃłng Ġ
zh Ġ
ĠĠĠ T
d Ġ
xuÃ¡n Ġ
ĠdeĠ yÃŃĠgÃ¨Ġ
nÃ¡n ĠbÃ¹Ġ
jÇĶ ĠxÃŃngĠ
zhuÄģn ĠjÃŃĠ
miÃłnĠjÄ« ĠwÃ¨iĠ
ĠzhÃ¨ngĠ fÇĶĠ
wÇİn Ġ
ĠniÃ¡nĠ 7ĠyuÃ¨Ġ
Ġ shÇĲ
lÃ¡i ĠdeĠ
ĠdÄģng ĠshÃŃĠ
juÃ©Ġ dÃ¬ngĠ
fÃºĠ wÃ¹Ġ
Ġ 0
ruÃ² Ġ
dÃº ĠlÃ¬Ġ
fÄģn Ġ
ĠniÃ¡nĠ 10ĠyuÃ¨Ġ
ĠchÅ« ĠdeĠ
rÃłng Ġ
Ġ 6
xiÄĽ Ġ
kÄģiĠ shÇĲ
qÇĲng Ġ
o Ġ
ĠlÃ¬Ġ shÇĲĠ
Ġ 195
Ġ mÄĽiĠ
jiÃłoĠ yÃ¹Ġ
ĠshÃ¨ ĠjÃ¬Ġ
hÃłi Ġ
d ĠĠĠ
mÃŃng ĠdeĠ
xÇĲ Ġ
ĠshÃ¬ĠwÃ¨iĠ yÃºĠ
jiÃ¹ ĠshÃ¬Ġ
ĠyÇĴuĠ yÄ«Ġ
gÄĵng Ġ
qÃŃn Ġ
ĠniÃ¡nĠ 5ĠyuÃ¨Ġ
gt Ġ
Ġ gtĠ
ĠniÃ¡nĠ 9ĠyuÃ¨Ġ
tÃłn Ġ
ĠniÃ¡nĠ 6ĠyuÃ¨Ġ
fÄģngĠ miÃłnĠ
ĠqÃŃ ĠtÄģĠ
pÃ©i Ġ
Ġ 197
suÃłn Ġ
ĠxÃŃngĠ zhÃ¨ngĠ
Ġ cÇĲ
ÄĽng Ġ
10 Ġ
shÃ²u ĠdÃłoĠ
lt Ġ
ĠniÃ¡nĠ 8ĠyuÃ¨Ġ
Ġ jiÇİnĠ
rÃ¨nĠ wÃ©iĠ
Ġ sÄģnĠ
fÇİng Ġ
shÃłn Ġ
y ĠĠĠ
ĠshÃ¬Ġ dÃ¬Ġ
ĠniÃ¡nĠ 4ĠyuÃ¨Ġ
ĠzhÅįngĠyÄģng Ġ
shÃ¨ ĠhuÃ¬Ġ
Ġ ltĠ
yÃ¬ ĠwÃ¨iĠ
gÃ¹ ĠshÃ¬Ġ
kÄģn Ġ
ĠxiÃłn ĠzÃłiĠ
Ġ ÄģnĠ
xiÄģngĠ gÇİng
m Ġ
qÅ« ĠwÃ¨iĠ
piÄģn Ġ
Ġ cÃ©ngĠ
Ġ bÇĲĠ
ĠzuÃ¬ ĠzhÅįngĠ
tuÃ¬ Ġ
Ġ diÃłnĠ
duÇİn Ġ
Ġ n
Ġ wÃ¡ngĠ
fÄģĠ zhÇİn
ĠshÃ¬Ġ shÃ¬Ġ
liÃ¨Ġ chÄĵĠ
Ġ guÄģnĠ
ĠlÃ¬Ġ rÃºĠ
Ġ jiÄģng
Ġ E
nÃ¨i ĠdeĠ
wÃłn Ġ
shÇĶ ĠdeĠ
xiÇİo ĠshÃŃĠ
qiÄģng Ġ
zÃº ĠqiÃºĠ
dÃłn Ġ
shÃ¹Ġ jÃ¹Ġ
r Ġ
hÅ« Ġ
xÅ«Ġ yÃłoĠ
zhÃŃĠ wÃ¹Ġ
zhe Ġ
ĠshÃ¬Ġ jiÃłnĠ
huÃł ĠdeĠ
shÇĲĠ yÃ²ng
kÃłn Ġ
kÃ²ng Ġ
ĠbÃ¹Ġ tÃ³ng
Ġ 1
Çİng Ġ
zuÃ² ĠdeĠ
zÄĵng ĠjiÄģĠ
zuÃ²Ġ wÃ©iĠ
ĠjÃ¬Ġ huÃłĠ
ĠniÃ¡nĠ 11ĠyuÃ¨Ġ
mÃŃnĠ zhÇĶĠ
ĠshÃŃĠ qÄ«Ġ
Ġ suÄ«
pÃło Ġ
zhuÄ« Ġ
Ġ 7
tÇİn Ġ
zuÃ²Ġ pÇĲnĠ
T Ġ
kÃ²ng ĠzhÃ¬Ġ
rÃ©n ĠshÃ¬Ġ
wÄģn Ġ
xiÃ³ng Ġ
ĠjiÃłn ĠdeĠ
yÄ«n ĠyuÃ¨Ġ
Ġ H
ĠrÃ¡n ĠÃ©rĠ
lÃ¡ng Ġ
mÃło Ġ
ĠyÇĲĠ jÄ«ngĠ
xuÃ©Ġ yuÃłnĠ
Ġ 17
ĠzÃłiĠ dÃ¬Ġ
rÃ©nĠ mÃŃnĠ
ĠrÃ©nĠ yuÃ¡nĠ
ĠhÃ©Ġ zuÃ²Ġ
Ġ I
tÄģ ĠdeĠ
ĠjiÃłn ĠyÃºĠ
zÇİi Ġ
zÇĶ ĠchÃ©ngĠ
Ġ shÇĶĠyÃºĠ
Ġ b
chÄģo ĠguÃ²Ġ
ĠyÄ«n ĠyuÃ¨Ġ
lÇİng Ġ
fÃ¨ng Ġ
xÃ¬Ġ tÇĴng
xiÃ¡ng Ġ
Ġ L
zÇĴngĠ tÇĴngĠ
t ĠĠĠ
ĠzhÃ¨Ġ xiÄĵĠ
S Ġ
huÃ¬ ĠdeĠ
jÃ¬ ĠdeĠ
Ġ yÃ²u
a ĠĠĠ
qiÅ« Ġ
ĠwÃ¨iĠ leĠ
ĠhÃ²uĠ lÃ¡iĠ
pÃŃn Ġ
lÃ¡o Ġ
Ġ 196
yÃº ĠshÃ¬Ġ
Ġ R
ĠlÃ¬Ġ yÃłĠ
sÅįng Ġ
ĠchÃ©ngĠ gÅįngĠ
fÄģ ĠbÃ¹Ġ
yÄģo ĠqiÃºĠ
Ã¡ Ġ
dÃłĠ lÃ¬Ġ
tÃŃ ĠchÅ«Ġ
Ġ 000
ĠyÃ¬Ġ yuÃ¡nĠ
ĠshÃ¨ ĠyÇĴuĠ
Ġ cÃ©ng
Ġ jiÃ¹Ġ
yÃ¹nĠdÃ²ng ĠyuÃ¡nĠ
pÃº Ġ
Äģ ĠÄĽrĠ
dÄģng ĠshÃŃĠ
hÃ¡n ĠguÃ³Ġ
bÃ¹ ĠzÃłiĠ
yÇĴu ĠdeĠ
Ġ jiÄĵĠ
nÃŃĠ yÃł
bÇİ Ġ
xÃ¬Ġ liÃ¨Ġ
zÃło ĠchÃ©ngĠ
Ġ 8
ĠyÄ«nĠ cÇĲ
Åįu ĠzhÅįuĠ
cÇİiĠ yÃ²ngĠ
xiÇİo ĠxÃŃngĠ
ĠgÅįngĠ yuÃ¡nĠ
jiÄģ ĠdeĠ
xÃ¬ng ĠdeĠ
Ġ fÄĵngĠ
shÄĵng ĠdeĠ
ĠdeĠ yÃŃĠgÃ¨
ĠrÃ¬ ĠzÃłiĠ
rÃ©nĠ wÃ¹Ġ
ĠcÇĲĠ wÃłiĠ
ĠniÃ¡nĠ 2ĠyuÃ¨Ġ
gÃ²ngĠ chÇİnĠ
mÃ¡o Ġ
Ġ zhĠ
Ġ N
D Ġ
yÃ¡o Ġ
Ġ ãĥ
ĠĠĠ deĠ
ĠshÃ¬Ġ hÃ©Ġ
Ġ zhÇİngĠ
Ġ G
Ġ wÇĴĠ
mÇİ ĠwÃ¨iĠ
dÅ«n Ġ
ĠdeĠ bÃ¹Ġ
chÄģo Ġ
xuÃ©Ġ jiÄģĠ
ĠĠĠ 199
sÄģn ĠniÃ¡nĠ
yÃ³uĠ xÃ¬Ġ
fÃłn ĠwÃ©iĠ
Ġ cÃ³ng
chÅ«n Ġ
Ġ suÃŃ
kÄģiĠ fÄģĠ
ĠbÃ¹Ġ tÃ³ngĠ
shÃ¨ ĠjÃ¬Ġ
Ġ bÃ¬Ġ
Ġ gÄĵnĠjÃ¹Ġ
qÇĶ ĠdÃ©Ġ
jiÃ©Ġ mÃ¹Ġ
Ġ gÃ©Ġ
ĠdeĠ jÄ«Ġ
Ġ lÃ¬ng
dÇĲng Ġ
nÇĲ Ġ
sÃłi ĠshÃ¬Ġ
ĠxÃŃng ĠchÃ©ngĠ
ĠĠĠdÃ¬Ġ lÇĲĠ
zÃ¬ ĠzhÃ¬Ġ
chÇİn ĠshÄĵngĠ
dÃłng Ġ
yÄĽ ĠshÃ¬Ġ
Ãł Ġ
zÃłn Ġ
juÃ©Ġ sÃ¨Ġ
ĠdeĠ jÃ¬Ġ
shÅ« ĠjÃ¬Ġ
Ġ F
ĠbÃ¬ng ĠyÃºĠ
ĠĠĠ shÃ¬Ġ
Ġ shÃ²uĠ
Ġ 193
dÅįu ĠshÃ¬Ġ
Ġ m
chÃ³ng ĠxÄ«nĠ
yÄ« ĠniÃ¡nĠ
ĠshÃ¨ ĠhuÃ¬Ġ
diÃłnĠ yÇĲng
lÇĲ ĠdeĠ
bÃº ĠshÃ¬Ġ
zhÃ²ngĠ yÃło
lÃ¼Ã¨ Ġ
ĠsÄ«Ġ tÃ¨Ġ
Ġ 9
Ġ k
guÄģn ĠyÃºĠ
qÅ«Ġ yÃ¹Ġ
mÃŃ Ġ
Ġ gÇĶĠ
gÄĵĠ qÇĶĠ
ĠzhÅįngĠ huÃ¡Ġ
jiÄģoĠ tÅįngĠ
ĠĠĠ L
Ġ sÃ¬Ġ
Ġ nÇļĠ
wÄĵn Ġ
ĠyÃ³uĠ xÃ¬Ġ
dÃłĠ xuÃ©Ġ
jÃŃ ĠdeĠ
kÇĴng Ġ
chÃº ĠleĠ
ĠchÅ« ĠxiÃłnĠ
ng Ġ
miÃ¡o Ġ
tÇİo Ġ
ĠzhÃ¬Ġ zuÃ²Ġ
ĠdÃłĠ xuÃ©
pÃŃng ĠjÅ«nĠ
wÃ² Ġ
ĠĠĠ R
cÇİo Ġ
ĠdÃ© ĠguÃ³Ġ
xiÇİn ĠshÃ¬Ġ
qÃ¬ng Ġ
Ġ kÄĽĠ
Ã¨r ĠniÃ¡nĠ
ĠzhÅįngĠ huÃ¡ĠrÃ©nĠmÃŃnĠgÃ²ngĠhÃ©ĠguÃ³Ġ
xiÅįng Ġ
kuÃ² Ġ
hÃ²u ĠzÃłiĠ
hÅ«n Ġ
xiÃł ĠdeĠ
yÇİn ĠyuÃ¡nĠ
Ġ chÃ©nĠ
ĠkÃ¨ ĠsÄ«Ġ
xuÇİnĠ jÇĶĠ
dÄģng ĠdÃ¬Ġ
dÃ© ĠguÃ³Ġ
Ġ liÇİngĠ
guÇİnĠ xiÃ¡Ġ
ĠxiÄģngĠ gÇİngĠ
pÃł Ġ
wÃ©i ĠyÄ«Ġ
duÄģn Ġ
zÇĴu Ġ
guÃ³Ġ jÃ¬Ġ
duÃ¬ ĠdeĠ
bÃ³Ġ wÃ¹Ġ
Ġ mÇİ
Ãłng Ġ
cuÃ² Ġ
Ãº Ġ
2001 ĠniÃ¡nĠ
ĠjiÃłn ĠlÃ¬Ġ
Ġ 1Ġ
Ġ tÇĲĠ
ĠdÃ¬Ġ guÃ³Ġ
Ġ 14
Ġ liÇİng
ĠdÃłiĠ biÇİoĠ
fÇİn ĠduÃ¬Ġ
xuÃ¨ Ġ
qÄ« ĠdeĠ
wÃ¹ ĠdeĠ
sÅ«n Ġ
yÄ«n ĠwÃ¨iĠ
0 Ġ
Ġ shÄģĠ
qÃ¹ ĠshÃ¬Ġ
Ã¨ng Ġ
yÄ« ĠbÃ¹ĠfÃ¨nĠ
zhÇĶĠ xÃŃĠ
quÄĵ Ġ
dÃ²ngĠ wÃ¹Ġ
bÃ¡ ĠgÄģoĠ
ĠyÄĽ ĠshÃ¬Ġ
shÃŃ ĠniÃ¡nĠ
Ġ c
yÄ« ĠbÃ¹Ġ
dÃ¹ ĠwÃ¨iĠ
Ġ J
zhÃ¨ngĠzhÃ¬Ġ rÃ©nĠwÃ¹Ġ
Ġ fÃº
ĠĠĠ D
nÃŃĠ yÃłĠ
qiÃ¡nĠ wÇİngĠ
Ġ fÇİĠ
zuÃ¬ ĠzhÅįngĠ
hÃ¡i ĠyÇĴuĠ
Ġ yÃŃĠ
Ġ jiÃ©
ĠĠĠ rÃ©nĠkÇĴuĠ
Ġ qÄ«Ġ
bÇĲĠ sÃłi
ĠĠĠ G
pÃ©ng Ġ
lÃ¡iĠ zÃ¬Ġ
Ġ shÄĵnĠ
zhÃŃĠ yÃ¨Ġ
Ġ bÇİoĠ
Ġ ãĤ
dÃłiĠ biÇİo
ĠtÄģ ĠshÃ¬Ġ
Ġ 2
20 Ġ
ĠdÄģng ĠdÃ¬Ġ
ĠbÃ¹Ġ duÃ¬Ġ
ĠxÃŃng ĠshÃ¬Ġ
Ġ ãģ
Ġ nÃłĠ
chÃ¬ Ġ
dÃ¬ng ĠdeĠ
Ġ chÃ¡ngĠ
bÄģ ĠshÃ¬Ġ
diÃłoĠ chÃ¡Ġ
ĠdeĠ yuÃ¡nĠ
zhÃ²ngĠ yÃłoĠ
xuÃ©Ġ xiÃłoĠ
zhÇĶĠ jiÃłoĠ
ĠzhÄ«Ġ jiÄģnĠ
fÃ¡ Ġ
biÄģnĠ mÇİĠwÃ¨iĠ
dÃłi ĠdeĠ
ĠxuÃ©Ġ mÃŃngĠ
Ġ kÄĵĠ
Ã³ Ġ
Ġ lÄģĠ
ĠrÃ¬ ĠzhÃ¬Ġ
kuÇİn Ġ
gÇİi ĠwÃ©iĠ
zÇĶ ĠzhÄ«
er Ġ
zÄ«Ġ liÃłoĠ
fÄĵn ĠwÃ©iĠ
ĠzhÃ¨ngĠ fÇĶ
hÇİi ĠjÅ«nĠ
ĠjÅ«n ĠshÃ¬Ġ
gÅįng ĠshÃ¬Ġ
Ġ yuÄĵĠ
ĠrÃ©nĠkÇĴuĠmÃ¬Ġ dÃ¹Ġ
qiÃ¨ Ġ
chÇĶ ĠlÇĲĠ
kÃłng Ġ
fÃ¹Ġ zÃ©Ġ
Ġ huÃ¡ngĠ
shÃ¹ ĠdeĠ
fÄģngĠ fÇİĠ
wÅ«ĠkÃ¨Ġ lÃ¡nĠ
zhÄģo Ġ
jiÄĵĠ rÇİng
Ġ dÄģnĠ
ĠdeĠ dÃłĠ
ĠrÃ¬Ġ bÄĽn
ĠĠĠ 19
Ġ jiÄģnĠ
ĠdeĠ yÃ¬Ġ
ĠĠĠ H
liÃ¡nĠ mÃ©ngĠ
Ġ pÇĶĠ
wÃºĠ fÇİĠ
ĠyÇĴuĠ xiÃłn
ĠĠĠ yÇĶĠ
zuÃ¬Ġ gÄģoĠ
ĠgÃ¨ ĠrÃ©nĠ
12 Ġ
ĠjÃ¬Ġ shÃ¹Ġ
guÃłn Ġ
jÅ«Ġ mÃŃnĠ
wÄĽn Ġ
zhÇĶĠ rÃ¨nĠ
fÇİnĠ yÃ¬ngĠ
qÃŃ ĠzhÅįngĠ
fÄĵiĠ chÃ¡ngĠ
ĠshÃ¬Ġ yÃ³uĠ
lÃ¹ ĠdeĠ
fÃ¡n Ġ
zÃ¬Ġ yÃ³uĠ
Ġ Ð
sÄģn ĠshÃŃĠ
yÇĲngĠ xiÇİng
ĠzhÄ«Ġ chÃŃĠ
xuÃ©Ġ shÄĵngĠ
kÇİi Ġ
yÃ© Ġ
kÄĽn Ġ
biÄģoĠ zhÇĶnĠ
xiÃ© ĠhuÃ¬Ġ
ĠĠĠ F
kÄĽ ĠyÇĲ
huÃ¬ ĠzÃłiĠ
jiÃ©Ġ gÃ²uĠ
shÃ¨n ĠzhÃ¬Ġ
jiÃłoĠ shÃ²uĠ
fÄĵnĠbÃ¹Ġ yÃºĠ
bÇĲ ĠlÃ¬Ġ
Ġ lÃŃnĠ
Ġ 2Ġ
tÇĴng ĠzhÃ¬Ġ
chuÃłng ĠzuÃ²Ġ
Ġ kÇİĠ
yÄģo Ġ
tÇĲĠ yÃ¹Ġ
jiÄĵĠ shÃ²uĠ
ĠĠĠ bÄĽnĠ
p Ġ
dÅįng ĠbÃ¹Ġ
ĠfÃ¹Ġ zÃ©Ġ
ĠdeĠyÃŃĠgÃ¨ ĠshÃ¬ĠzhÃ¨nĠ
yÇİ Ġ
ĠdÃ¬Ġ sÄģnĠ
ĠgÅįngĠ sÄ«
Ġ quÃ¡n
gÄģi ĠguÃ³Ġ
30 Ġ
ÇĶ Ġ
Ġ suÃŃĠ
xiÃłngĠ mÃ¹Ġ
nÃ¡nĠ ziĠ
sÃ¬ ĠniÃ¡nĠ
nÇļĠ zÇĲĠ
qÃŃngĠ kuÃłngĠ
shÃ¹Ġ liÃłng
ĠdÃ¬Ġ shÃŃĠ
mÇĴu Ġ
rÇİn Ġ
ĠĠĠ xÃŃngĠzhÃ¨ngĠ
Ġ tÃłiĠ
ĠbÃ¹Ġ guÃ²Ġ
zhÅįng ĠshÃ¬Ġ
k Ġ
nÃ¨iĠ rÃ³ngĠ
ĠdÃło ĠdeĠ
Ġ ÃłoĠ
nÃ©ng ĠlÃ¬Ġ
gÅįng ĠbÃ¹Ġ
Ġ hÃ³ngĠ
shÄĵngĠ huÃ³Ġ
ĠshÃ¬Ġ yÃŃĠgÃ¨Ġ
ĠĠĠ I
niÃº Ġ
suÅį Ġ
xÄ« ĠbÃ¹Ġ
ĠjÃ¬nĠ rÃ¹Ġ
ÄģnĠ quÃ¡nĠ
liÃ¡nĠ sÃłiĠ
dÃ²ngĠ huÃłĠ
2008 ĠniÃ¡nĠ
Ġ K
qÃŃngĠ kuÃłng
huÄģn Ġ
lÃ¹ ĠxiÃłnĠ
P Ġ
chÃ©ngĠ lÃ¬Ġ
Ġ gÇİiĠ
ĠzhÅįngĠ xuÃ©Ġ
chÄģ Ġ
ĠĠĠ formulaĠ
miÃłn ĠdeĠ
gÅ« Ġ
yÃ¬ ĠshÃ¬Ġ
duÃ³ Ġ
ĠÄĽr ĠsÄ«Ġ
bÄĽiĠ jÄ«ngĠ
mÃ©iĠ tÇĲĠ
2009 ĠniÃ¡nĠ
Ã¬ Ġ
yÇĴu ĠshÃŃĠ
ĠyÃ¬Ġ huÃ¬Ġ
ÇĴu Ġ
zÄģi Ġ
guÇİngĠ dÅįngĠ
hÃ¡o Ġ
suÄģn Ġ
Åįng Ġ
âĢ ĵ
Ġ bÅįĠ
ĠĠĠ jiÄģĠ
Ġ xÄ«n
jiÃłn ĠzhÃ¹Ġ
yÃł ĠzhÅįuĠ
Ġ suÃ¬
ÇĴng Ġ
zhuÃłn Ġ
dÇİo ĠdeĠ
ĠguÃ³Ġ mÃŃnĠ
wÃ©nĠ wÃ¹Ġ
nÃ¡ ĠdÃłĠ
ĠĠĠ 198
tÃłi ĠpÃŃngĠ
zÃ¬ĠjÇĲ ĠdeĠ
ĠsuÇĴ ĠyÇĲĠ
dÃ¬ ĠwÃ¨iĠ
ĠxuÃ©Ġ xiÃłoĠ
Ġ shÃ¨ngĠ
bÃ¡ĠgÄģoĠ dÃ¹Ġ
dÃ¡ ĠdÃłoĠ
niÇİo Ġ
lÇĲ ĠshÃ¬Ġ
zhÃº ĠjiÃłnĠ
ĠzhÃ¨ ĠshÃ¬Ġ
quÃ¡n ĠlÃ¬Ġ
bÇİn ĠbÄĽnĠ
qÄ«ng ĠniÃ¡nĠ
xÇĶĠ duÅį
zhÄĽ ĠdeĠ
cÃ¡ng Ġ
Ġ Ãło
ĠbÃ¬ngĠ qiÄĽ
ĠxÄ«Ġ yÃłĠ
ĠbÃ¬ngĠ qiÄĽĠ
Ġ s
guÇĲ Ġ
wÃ©nĠ xuÃ©Ġ
wÅ«ĠkÃ¨Ġ lÃ¡n
lÄģ ĠsÄ«Ġ
2016 ĠniÃ¡nĠ
ĠĠĠ gÄĵnĠjÃ¹Ġ
yÄ« ĠshÃ¬Ġ
ĠchÃ©ngĠ wÃ©i
zhÇĲ ĠyÇĴuĠ
rÃ¬Ġ bÄĽn
zhÃł Ġ
mÃ³ ĠshÃ¬Ġ
Ġ bÄģ
hÃ¡ngĠ kÅįngĠ
Ġ 10
mÃ¨ng Ġ
ĠtÄģĠmen ĠdeĠ
ĠyÃ¬Ġ shÃ¹Ġ
ĠjÃ¬Ġ lÃ¹Ġ
Ġ zÇĴng
f ÄĽn
ĠzhÇĶĠ yÃłoĠ
diÃ© Ġ
ĠzhÅįu ĠdeĠ
chÃ³u Ġ
zhÇĲ ĠchÅ«Ġ
âĢ ¦
tÅįngĠ guÃ²
zhÃ ²u
Ġ kÄģiĠ
jÇĲnĠ biÄģoĠ
wÇĶ ĠniÃ¡nĠ
Ġ W
Ġ dÃł
jiÃłoĠ yÃ¹
2012 ĠniÃ¡nĠ
huÇĲ Ġ
Ġ zÃ©
ĠqÃŃ ĠshÃ¬Ġ
ĠqÃŃ ĠyÃºĠ
Ġ kÄĽĠyÇĲĠ
dÄĽng ĠrÃ©nĠ
Ġ yÃºĠshÃ¬Ġ
zhÃŃ ĠxÃŃngĠ
pÅį Ġ
miÃło Ġ
shuÃłi Ġ
2011 ĠniÃ¡nĠ
hÃ¹n Ġ
28 ĠrÃ¬Ġ
zhÃŃĠ jiÄĵĠ
Åį Ġ
tÃ³ng ĠshÃŃĠ
jÃ¬nĠ rÃ¹Ġ
rÃ©nĠkÇĴuĠ pÇĶĠ
zhÃ© Ġ
zhÃłnĠ zhÄĵngĠ
zhÃ¨Ġ xiÄĵĠ
gÃ©Ġ lÃ¡nĠ
ĠqiÃº ĠduÃ¬Ġ
yÇİn ĠchÅ«Ġ
gÄģi ĠdÃ¬Ġ
zhÃ¨ ĠyÄ«Ġ
mÃŃnĠ zÃºĠ
Ġ nÃ¡n
huÃ³Ġ dÃ²ng
rÃ¨nĠ wÃ©i
on Ġ
x Å«n
zÃłng Ġ
ĠzhÄ«Ġ jiÄģnĠdeĠ
11 Ġ
ĠgÅįngĠ kÄģiĠ
jiÄģng ĠjÅ«nĠ
gÃ²ng ĠtÃ³ngĠ
ĠlÃ¬Ġ yÃł
Ġ 13
U T
. .
xiÃł ĠjÃ¬Ġ
lÃ¨ ĠbÃ¹Ġ
Ġ hÃ¡iĠ
ĠdÃłn ĠzÃłiĠ
ĠdÄģng ĠzhÅįngĠ
Ġ sÅ«Ġ
jÃ¬ngĠ nÃ¨iĠ
tÇĲ ĠdeĠ
ĠĠĠ E
Ġ d
chÄĵĠ zhÃłn
Ġ Ã¨rĠ
tuÄ« ĠchÅ«Ġ
me Ġ
shÇĴuĠ cÃ¬Ġ
Ġ yÃ¡ngĠ
ĠshÃ¬Ġ wÃ¹Ġ
Ġ ÃłiĠ
ĠĠĠ W
huÃ¡nĠ jÃ¬ngĠ
lÃŃĠ kÄģiĠ
ĠzhÃ¨Ġ geĠ
ĠlÃ¬ngĠ wÃłiĠ
ĠzhÇĶĠ yÃło
dÄģnĠ qÅ«Ġ
chuÃ¡nĠ tÇĴngĠ
zhÃº Ġ
sÃłn Ġ
lÃŃnĠ pÇĲ
shÄģngĠ yÃ¨Ġ
ĠĠĠ niÃ¡n
yÃŃnĠ hÃ¡ngĠ
15 ĠrÃ¬Ġ
qÇĲĠ yÃ¨Ġ
o o
fÄĵn ĠzhÅįngĠ
guÄģn ĠdeĠ
xuÇİnĠ zÃ©Ġ
jÅ«n ĠshÃ¬Ġ
ĠĠĠ 194
shÃ º
liÃłng ĠdeĠ
jiÄĵ ĠdÃłoĠ
jÄ« ĠdeĠ
qiÃ¡n ĠdeĠ
tÃ¬ Ġ
rÃ©n ĠzÃłiĠ
sÃłi ĠjÃ¬Ġ
gÄģo ĠdeĠ
bÃ³ ĠshÃ¬Ġ
dÃ¹ ĠdeĠ
ĠwÃ¨iĠ rÃ©nĠ
Ġ gÄĵĠ
yuÃ¡n ĠniÃ¡nĠ
Ġ fÄģĠ
ĠdÃ¬Ġ Ã¨r
wÃ¡nĠ quÃ¡nĠ
2014 ĠniÃ¡nĠ
Ġ jÄ«n
ĠwÃ¨iĠ zhÃ¬Ġ
mÃ¬ng ĠmÃŃngĠ
tuÃ¡nĠ tÇĲĠ
Ġ tÃ¡iĠ
dÄĽng ĠdÃ¬Ġ
ĠgÅįngĠ lÃ¹Ġ
I Ġ
xiÄģngĠ guÄģnĠ
rÃ¨ ĠdÃłiĠ
bÄĽiĠ jÄ«ng
wÃ©nĠ huÃł
chÃ©ng ĠzhÅįngĠ
bÃłoĠ gÃłoĠ
ĠshÃŃĠ jÃ¬Ġ
yÃ¹nĠdÃ²ng ĠhuÃ¬Ġ
sÇĶn Ġ
ĠdÃłĠ lÃ¬Ġ
ĠÃ©r ĠzÃłiĠ
shÃ¹n Ġ
bÇİng Ġ
2005 ĠniÃ¡nĠ
zÅ«n Ġ
sÄģn ĠgÃ¨Ġ
zuÃ¬ ĠjiÄģĠ
2018 ĠniÃ¡nĠ
Ġ 5Ġ
zuÃ¬ ĠhÃ²uĠ
bÅį ĠchÅ«Ġ
quÃ¡n ĠbÃ¹Ġ
ĠdeĠ hÃ©Ġ
ĠĠĠ jÃ¹Ġ
xuÃ© ĠwÃ¨iĠ
luÃłn Ġ
tÃ©ng Ġ
lÇĲngĠ dÇİoĠ
ĠmÃ¹Ġ qiÃ¡nĠ
ĠjÄ«Ġ gÃ²uĠ
zÅįngĠ jiÃłoĠ
tÇĶ ĠdÃ¬Ġ
ĠniÃ¡nĠ dÃłiĠ
ĠdÃ© ĠdÃłoĠ
25 ĠrÃ¬Ġ
ĠshÃ¬ĠyÄ«Ġ zhÇĴngĠ
R Ġ
ĠtÃ³ng ĠniÃ¡nĠ
fÄĵnĠ biÃ©
ĠdÃ¬Ġ fÄģngĠ
guÇĲ ĠdÃłoĠ
2015 ĠniÃ¡nĠ
ĠwÃ¨iĠ dÃ¬Ġ
niÃ¨ Ġ
2013 ĠniÃ¡nĠ
huÃ¡i Ġ
jÄ«ng ĠlÃ¬Ġ
xÃ¬ ĠdeĠ
ĠzhÄ«Ġ qiÃ¡nĠ
shÄĽng ĠdeĠyÃŃĠgÃ¨ĠshÃ¬ĠzhÃ¨nĠ
2007 ĠniÃ¡nĠ
2019 ĠniÃ¡nĠ
ĠyÄ«Ġ xiÄĵĠ
xuÄĽ Ġ
ĠshÃ¬ĠwÃ¨iĠyÃºĠ mÄĽiĠguÃ³Ġ
ĠzhÅįngĠhuÃ¡Ġ mÃŃnĠguÃ³Ġ
sÇĲĠ wÃ¡ngĠ
ĠgÃ¨ ĠyuÃ¨Ġ
ĠjÅ«n ĠdeĠ
q iÃłn
30 ĠrÃ¬Ġ
t o
wÃ¨i ĠdeĠ
ÃłoĠ lÃŃnĠpÇĲ
Ã²ng Ġ
ĠhÇİiĠ bÃ¡ĠgÄģoĠdÃ¹Ġ
ĠyÇĴuĠ guÄģnĠ
Ġ wÄĵiĠ
ch ÄģiĠ
an Ġ
jiÃ©Ġ shÃ¹Ġ
20 ĠrÃ¬Ġ
ĠxÃŃngĠ dÃ²ngĠ
ĠzÃłiĠ yÄ«Ġ
jÄ« ĠyÃºĠ
sÅįu Ġ
Ġ yÇĲnĠ
ĠĠĠ wÃ¨iĠ
yÃ²ng ĠdeĠ
shuÇĲĠ yÃ¹Ġ
biÃłnĠ huÃłĠ
shÃłng ĠwÃ¨iĠ
zÃ¬Ġ jÇĲĠ
ĠjÃ¬Ġ xÃ¹Ġ
chÃºn Ġ
ĠĠĠ N
ĠjÃŃĠ tuÃ¡nĠ
Ġ bÄģoĠkuÃ²
gÃłn Ġ
jÃŃ ĠzhÅįngĠ
zhÄ« ĠyÄ«Ġ
ĠshÃŃĠ dÃłiĠ
chÇĶ ĠyÃºĠ
UT CĠ
zhÄ«Ġ chÃŃĠ
2006 ĠniÃ¡nĠ
gÃ²ng ĠhÃ©Ġ
2017 ĠniÃ¡nĠ
Ġ 12
guÃ² ĠchÃ©ngĠ
ĠhÃ²uĠ lÃ¡i
gÃ©Ġ mÃ¬ngĠ
ĠbÃ¹Ġ zhÇİngĠ
ĠĠĠ the
10 ĠrÃ¬Ġ
nÇİo Ġ
kÅįngĠ jiÄģnĠ
Ġ hÃłnĠ
ĠyÃºĠ 199
bÃº ĠhuÃ¬Ġ
Ġ fÄĵiĠ
sh uÃ²
mÃ¨i Ġ
xÄ«nĠ wÃ©nĠ
cÃłi Ġ
tÃ²u ĠguÃ²Ġ
nÃ¨i ĠbÃ¹Ġ
chÄģng Ġ
yÃ¨ ĠyÃºĠ
z Å«Ġ
Ġ mÃ©iĠ
wÃ¹Ġ zhÇĴngĠ
ĠyÃ¬Ġ zhÃŃĠ
jiÄĽĠ fÃłng
ĠzÃ¬Ġ jÇĲ
gÄĵnĠ jÃ¹
ĠjÃŃĠ tuÃ¡n
ĠzhÅįu ĠshÃ¬Ġ
pÄ« ĠpÃŃngĠ
V Ġ
ĠzhÃŃ ĠdÃłoĠ
E Ġ
Ġ hÃºĠ
dÃ¬Ġ qÅ«Ġ
ÄģĠ lÄģĠ
2000 ĠniÃ¡nĠ
ĠjiÄģĠ rÃ¹Ġ
guÄ«Ġ dÃ¬ngĠ
ĠhÃ©Ġ nÃ¡nĠ
ĠshÃ¬Ġ shÃŃĠ
v i
ĠyÇĴuĠxiÃłn ĠgÅįngĠsÄ«Ġ
wÃ¡n ĠjiÄģĠ
21 Ġ
shÃ¨n Ġ
ĠĠĠ zhÃ¨Ġ
l Ġ
tÄģĠ men
chÃ©ngĠ wÃ©iĠ
xÄ«Ġ bÄģnĠ
zÄ«Ġ gÃ©Ġ
26 ĠrÃ¬Ġ
Ġ 3Ġ
rÃ©ng Ġ
dÃłĠ lÃ¹Ġ
ĠĠĠ gÄģiĠ
ÃłoĠlÃŃnĠpÇĲ ĠkÃ¨Ġ
Ġ O
yÇĶn Ġ
ĠdÃłĠ huÃ¬Ġ
Ġ bÃ¡iĠ
24 ĠrÃ¬Ġ
Ġ mÃŃng
shÃłngĠ hÇİiĠ
duÅį ĠdeĠ
zÃłi ĠdeĠ
zÃ¡ ĠzhÃ¬Ġ
xÃ¬Ġ liÃ¨
Ġ nÃ¨iĠ
yÄ«ng ĠyÇĶĠ
ĠzhÃ¨Ġ zhÇĴngĠ
pÃºĠ tÃ¡oĠ
lÃ¹ ĠdÃ¬Ġ
Ġ shuÇĲĠ
hÃ© ĠdeĠ
hÃ¡o ĠmÇĲĠ
ĠyÇĶĠ yÃ¡nĠ
qÃŃ ĠtÄģ
hÃ³u Ġ
luÃ³Ġ mÇİĠ
fÄģng ĠdeĠ
B Ġ
Ġ gÃ¹Ġ
ĠĠĠ yÄ«Ġ
hÃ²u ĠyÄ«Ġ
ĠĠĠ 18
miÃ¨ Ġ
ĠchÃ©ngĠ qÅ«Ġ
sÃ¨ ĠdeĠ
zÃ© ĠshÃ¬Ġ
Ġ tÃ¡iĠwÄģnĠ
yÄ« ĠdeĠ
fÇİĠ lÇľĠ
yÄģn Ġ
ĠshÃ¬Ġ fÇİĠguÃ³Ġ
Ġ wÃº
18 ĠrÃ¬Ġ
chuÃ¡nĠ tÇĴng
shuÃ¬ Ġ
ĠwÃ¨iĠyÃºĠ gÄģiĠguÃ³Ġ
ĠlÇĲĠ sÄ«Ġ
bÃł Ġ
zhÃłn ĠdeĠ
wÃ¹ ĠlÇĲĠ
Ġ chÃºĠ
jÄ«ngĠ guÃ²Ġ
shÃ¹ ĠwÃ¨iĠ
ĠyÃ¬Ġ bÄģnĠ
ĠbÃ¹ĠtÃ³ng ĠdeĠ
xuÇİnĠ jÇĶ
biÇİo ĠxiÃłnĠ
Ġ yÄ«ngĠguÃ³Ġ
bÄģoĠ hÃ¡nĠ
Ġ mÇĶĠ
ĠshÃ¬ĠjiÃ¨ ĠdÃłĠ
2021 ĠniÃ¡nĠ
0ĠniÃ¡nĠ dÃłiĠ
shÄĽng ĠjÃŃĠ
miÃ¡o ĠshÃ¹Ġ
guÄģn ĠyuÃ¡nĠ
Ġ Ãłi
Ġ 2001ĠniÃ¡nĠ
bÃ³ĠwÃ¹Ġ guÇİnĠ
Ġ 6Ġ
2022 ĠniÃ¡nĠ
pÃ²Ġ huÃłi
wÃ¨nĠ tÃŃ
ĠguÃ³Ġ jiÄģ
yÃŃng ĠdÃ©Ġ
zhÃ¨ng ĠzÃłiĠ
fÇİĠ yuÃłnĠ
bÇĲng Ġ
ĠgÅįngĠ jÄ«Ġ
ĠzuÃ¬ ĠhÃ²uĠ
cÄģng Ġ
shÇĲ ĠdeĠ
cÃ¨ ĠshÃ¬Ġ
sh ÄĽ
Ġ sÄģn
chÇİng ĠdeĠ
ĠwÃ¨iĠ zhÅįngĠ
bÃ¹ ĠhÃ©Ġ
ĠsuÃŃ ĠhÃ²uĠ
ĠlÃ¬Ġ yÃ²ngĠ
Ġ lÃºĠ
fÄĵi ĠjÄ«Ġ
Ġ huÃłĠ
zhuÄģnĠ yÃ¨Ġ
zhÄĵng ĠyÃ¬Ġ
27 ĠrÃ¬Ġ
16 ĠrÃ¬Ġ
zhÇĲ ĠshÃ¬Ġ
ĠdÃ¬Ġ qÅ«
21 ĠrÃ¬Ġ
ĠshÄĵngĠ huÃ³Ġ
c i
yÃ¬ ĠshÃŃĠ
ĠzhÃłnĠ zhÄĵngĠ
zhÃ ³u
17 ĠrÃ¬Ġ
zÄģo ĠdÃłoĠ
Ġ mÃ³Ġ
jiÄģng ĠqÃŃĠ
sÄģng Ġ
2004 ĠniÃ¡nĠ
12 ĠrÃ¬Ġ
ĠbÃ¨iĠ chÄĵngĠwÃ©iĠ
dÃ¬ng ĠyÃ¬Ġ
8 ĠrÃ¬Ġ
Ġ sÃ¬
ĠdÃłĠ qÅ«Ġ
ĠzhÅįngĠ xÄ«n
zÅįng ĠhÃ©Ġ
liÃ¹ ĠniÃ¡nĠ
nÃ¡ Ġ
ĠshÃ¬Ġ yÃ¬Ġ
xuÃ© ĠdeĠ
ĠxiÃłn ĠshÃŃĠ
jÃŃ ĠwÃ¨iĠ
Ġ tÃ¡ngĠ
23 ĠrÃ¬Ġ
huÃ¡ng ĠdÃ¬Ġ
guÄ«Ġ mÃ³Ġ
Ġ fÄĵnĠbÃ¹ĠyÃºĠ
yÄĽ ĠyÇĴuĠ
ĠbÃ¬ng ĠbÃ¹Ġ
11 ĠrÃ¬Ġ
Ã¹ Ġ
Åįu ĠzhÅįu
ĠzhÅįngĠ gÃ²ng
fÄģngĠ xiÃłngĠ
Ã©Ġ luÃ³Ġ
ĠsuÄ« ĠrÃ¡n
kuÄģn Ġ
ĠshÃ¬Ġ jiÃłn
zuÃ¬Ġ dÃłĠdeĠ
Ġ jÇĲngĠ
chÅ« ĠxiÃłnĠ
Ġ wÃłiĠ
duÅįĠ shÃ¹Ġ
fÄĵn ĠxÄ«Ġ
nÃ©ngĠ gÃ²uĠ
7 ĠrÃ¬Ġ
Ġ rÃº
22 ĠrÃ¬Ġ
29 ĠrÃ¬Ġ
ĠĠĠ yÃºĠ
xiÃłng ĠdeĠ
pÃ¡n Ġ
yuÃ¡n ĠyÃºĠ
ĠdeĠ zuÃ²Ġ
gÄĵĠ shÇĴuĠ
yuÄĵĠ hÃłnĠ
hÃ¡i ĠshÃ¬Ġ
Ġ kÄĽ
9 ĠrÃ¬Ġ
ĠĠĠ cÇĲĠ
f Ã©i
Ġ bÃ³Ġ
dÃ¬ng ĠwÃ¨iĠ
E E
Ġ shÃ©nĠ
lÇİn Ġ
xÅ«Ġ yÃło
ĠĠĠ zhÃ¨ngĠzhÃ¬Ġ
yÃ¹ ĠdeĠ
tÇĴng ĠjÃ¬Ġ
xÃ¬n ĠxÄ«Ġ
ĠzÃłiĠ zhÃ¨Ġ
yÃłng ĠdeĠ
ĠxiÃłn ĠzhÃ¬Ġ
19 ĠrÃ¬Ġ
fÃ©ng Ġ
gÅįng ĠdeĠ
lÃ¬ng ĠyÄ«Ġ
zhÇĲĠ huÄ«Ġ
qiÃº ĠduÃ¬Ġ
ruÇİn Ġ
mÃ³u Ġ
ÃŃ Ġ
chÃ¡ ĠdeĠ
14 ĠrÃ¬Ġ
5 ĠrÃ¬Ġ
qi Ã³ng
quÃ¡n ĠqiÃºĠ
chÃ¡ng ĠshÃ¬Ġ
yÅįng Ġ
mÄĽiĠguÃ³Ġ rÃ©nĠkÇĴuĠpÇĶĠ
3 ĠrÃ¬Ġ
zÇĶ ĠhÃ©Ġ
zÃ¡ Ġ
liÃ¡nĠ mÃ©ng
dÅįngĠ nÃ¡nĠ
ĠhuÃ² ĠdÃ©
niÇĶĠ yuÄĵ
Ġ 4Ġ
lÃŃn ĠshÃŃĠ
31 ĠrÃ¬Ġ
wÃ¨i ĠshÃ¬Ġ
dÇĴng ĠshÃ¬Ġ
jÄ« ĠdÃ¬Ġ
pÄģi ĠshÃ¨Ġ
hÇİiĠ bÃ¡
bÄģng ĠzhÃ¹Ġ
ĠdeĠshÃ¬Ġ zhÃ¨nĠ
6 ĠrÃ¬Ġ
qu ÄģnĠ
jÇĶĠ bÃłn
ĠĠĠ zhÅįngĠ
ĠzhÅįngĠ bÃ¹Ġ
2 ĠrÃ¬Ġ
tÇĲng Ġ
ĠyÃ¬Ġ dÃłĠlÃ¬Ġ
Ġ Äģ
ĠshÃ¨ ĠlÃ¬Ġ
Ġ duÅį
n u
shÄĵngĠ yÃ¡Ġ
ĠdeĠ zhÅįngĠ
ĠrÃ©nĠ kÇĴu
ĠzhÃ¨Ġ xiÄĵ
4 ĠrÃ¬Ġ
gÃ¨ ĠrÃ©nĠ
shÃ¨ ĠyÇĴuĠ
shÄģo Ġ
Ġ 190
liÃ¡nĠ bÄģngĠ
l o
yuÃ¡n ĠhÃ©Ġ
ĠdÃ¬Ġ qÅ«ĠdeĠ
tÅįngĠ chÃ¡ngĠ
ĠxuÃ©Ġ shÄĵngĠ
tiÄĽĠ lÃ¹
l ÃłngĠ
ĠĠĠ 197
liÃ¨Ġ chÄĵ
f ÄĽi
Ġ zhÅ«Ġ
ĠfÄĵnĠ biÃ©
zÇİoĠ qÄ«Ġ
ĠqÃŃ ĠtÄģ
ĠyÃ¬Ġ bÄģn
dÅįngĠ bÄĽiĠ
chÃ¡oĠ xiÄģnĠ
shÄĵnĠ fÃ¨nĠ
zÃº ĠqiÃº
13 ĠrÃ¬Ġ
xiÅįng ĠdÃ¬Ġ
shÄĵng ĠzÃłiĠ
jiÃ©Ġ guÇĴĠ
mÃ¹ ĠdÃ¬Ġ
huÄ« ĠfÃ¹Ġ
juÇİn Ġ
ĠshÃ¬Ġ chÇİngĠ
guÄģnĠ fÄģngĠ
pÃ¡ng Ġ
ĠĠĠ 195
ĠxuÃ©Ġ yuÃłnĠ
a u
qÇĶ ĠdÃłiĠ
l ÄĽngĠ
ĠĠĠ K
ĠĠĠ yÃ³uĠyÃºĠ
lÃłi Ġ
ĠzhÃ¨ ĠyÄ«Ġ
Ġ dÇİoĠzhÃ¬Ġ
zhÄģn Ġ
sÅ«Ġ liÃ¡nĠ
jÇĶĠ bÃłnĠ
qÃŃngĠkuÃłng ĠxiÃłĠ
Ġ mÃ²Ġ
yÃŃ ĠbÃ¹Ġ
xiÃ© ĠyÃ¬Ġ
huÃ¡ng ĠjiÄģĠ
juÃ©Ġ sÃłi
kÄĵ ĠjÃ¬Ġ
nÇļĠ xÃ¬ngĠ
Ġ hÄģĠ
fÄģ ĠxiÃłn
xiÇİoĠ shuÅįĠ
zhÄĽng ĠgÃ¨Ġ
ĠxiÄģngĠ gÇİng
ĠgÅįngĠ chÇĲĠ
rÃ©n ĠhÃ©Ġ
fÇĴu Ġ
Ġ gÃ²ngĠ
gÃ©Ġ mÃ¬ng
chÄģo ĠjÃŃĠ
Ġ yÃ¨Ġ
mÃło ĠyÃ¬Ġ
ĠrÃºĠ guÇĴĠ
yuÃ¨ ĠdeĠ
bÃ¬Ġ yÃ¨Ġ
Ġ jiÃ¹
Ġ w
zhÇİng ĠdeĠ
juÃ©Ġ sÃłiĠ
Ġ wÇĴ
wÃ©nĠwÃ¹Ġ bÇİoĠhÃ¹Ġ
r ÃłoĠ
xÃŃ ĠjÄ«Ġ
Ġ yÃ²ngĠ
huÃł ĠhÃ©Ġ
zÃ²u Ġ
ĠdÃ¬Ġ lÃ¬Ġ
xuÃ©Ġ yuÃłn
lÃ¬ ĠhÃ©Ġ
tÃºĠ shÅ«Ġ
qÅ«Ġ huÃłĠ
xiÄģn ĠhÃ²uĠ
tÇĴng ĠyÄ«Ġ
ĠxÄ«Ġ nÃ¡nĠ
hÃ¡ngĠ kÅįng
t Ãºn
Ġ qÇĲĠ
liÃº ĠxÃŃngĠ
ĠyÇĲĠ jÄ«ng
jiÃ©Ġ shÃ¹
jiÄĵĠ duÃłnĠ
Ġ hÄĵiĠ
yÄģo ĠqiÃº
Çİ Ġ
Ġb rĠ
xiÃ© ĠzhÃ¹Ġ
cÃ¬ ĠshÃ¬ĠjiÃ¨ĠdÃłĠ
shÃłng ĠshÃ¬Ġ
zhÃłn ĠhÃ²uĠ
wÃº ĠxiÃłnĠ
dÄģnĠ rÃ¨n
guÇİngĠ bÅįĠ
ĠÄĽrĠ shÄĽngĠ
yÇĶ ĠdeĠ
fÇİnĠ yÃ¬ng
Ġ huÃ¡Ġ
rÃ©nĠkÇĴuĠ shÃ¹ĠliÃłng
ĠhÃ©Ġ yÄ«Ġ
gÃ²ngĠchÇİnĠ dÇİngĠ
zÃ¬ ĠxÃŃngĠ
ĠbÃ¹Ġ nÃ©ngĠ
Ġ U
Ã²u Ġ
cuÄ« Ġ
ĠyÇĲĠ lÃ¡iĠ
tÃ¡iĠ bÄĽi
shÃło ĠniÃ¡nĠ
ĠxÄ«Ġ bÄģnĠ
ĠĠĠ 196
qÄ« ĠniÃ¡nĠ
hÇĶ Ġ
kÄģiĠ fÄģ
chÃŃĠ xÃ¹Ġ
ĠtÄģĠ cÃ©ng
dÇİoĠ yÇİnĠ
ĠzÃłiĠ cÃ¬Ġ
Ġ yÃłoĠ
fÄģĠ biÇİo
liÃ¡nĠ sÃłi
shu ÄģiĠ
guÃ³ ĠhÃ©Ġ
xÃ¬Ġ bÄģoĠ
ĠyÇĲĠ xiÃłĠ
i t
tÃ¨ ĠdeĠ
Ġ z
Ġ chÃ³ngĠ
juÃ©Ġ dÃ¬ng
Ãłn ĠdeĠ
zhÃ¹ ĠzÃłiĠ
xiÃłĠ xiÃ¡
tiÃ¡o ĠjiÃłnĠ
Ġ 2010ĠniÃ¡nĠ
pÃŃn ĠdÃłoĠ
ĠgÅįngĠ zuÃ²
yÇİnĠ chÃłng
yÃ¨ ĠdeĠ
jiÄģo ĠyÃ¬Ġ
Ġ mÃ©iĠyÇĴuĠ
ĠĠĠ O
Ġ shÇĶĠ
zÄģo Ġ
Ġ hÄģ
2002 ĠniÃ¡nĠ
jiÃ© ĠhÃ©Ġ
Ġ qiÄĽĠ
ĠshÃ¬Ġ zhÅįngĠguÃ³Ġ
bÃło ĠdÃłoĠ
ĠrÃ©nĠkÇĴuĠmÃ¬Ġ dÃ¹ĠwÃ¨iĠ
M Ġ
qiÃº ĠyuÃ¡nĠ
2003 ĠniÃ¡nĠ
Ġ xÃ¬ngĠ
ĠshÃ¬Ġ lÃ¬Ġ
ĠzuÃ²Ġ pÇĲnĠ
ĠĠĠ bÃ¹Ġ
yÃ³uĠ zhÃ¨ngĠ
jiÃłn ĠlÃ¬Ġ
yÃ¬ngĠ yÃ²ngĠ
wÃłi ĠdeĠ
zÄ« ĠyuÃ¡nĠ
sÄģi ĠÄĽrĠ
zuÃ¬ ĠdÃłĠ
ĠqÃŃ ĠhÃ²uĠ
mÃ² ĠxÄ«Ġ
kÄĽĠ dÃ¡Ġ
ĠyÄ«Ġ yuÃłnĠ
gÇİiĠ gÃ©Ġ
zhuÃłngĠ tÃłiĠ
ĠbÃ¬ng ĠwÃ¨iĠ
Ġ lÃ¹
huÃŃ ĠdÃłoĠ
sÃ¹Ġ dÃ¹Ġ
qÃ¬ ĠhÃ²uĠ
suÇĴĠ shÇĶĠdeĠ
mÃ¬Ġ shÅ«Ġ
ĠwÃ¨iĠyÃºĠ fÇİĠguÃ³Ġ
xÃ¹nĠ liÃłnĠ
Ġ jÃ¬ngĠ
Ġ shuÄģngĠ
fÄģĠ biÇİoĠ
p Ã¬
diÃłnĠshÃ¬Ġ jÃ¹Ġ
zhÃ¹ ĠdeĠ
fÃ¨n ĠwÃ¨iĠ
ĠgÅįngĠ yÃ¨Ġ
wÇİng ĠzhÃłnĠ
gÅįngĠ sÄ«Ġ
ĠjiÇİnĠ chÄĵngĠ
Ã¡o Ġ
tÃ³uĠ zÄ«Ġ
zÃ¬Ġ rÃ¡nĠ
ĠdeĠdÃ¬Ġ yÄ«Ġ
ĠzhÅįngĠ gÃ²ngĠ
zuÇĴ ĠyÃ²uĠ
chÇİnĠ pÇĲnĠ
hÃº ĠnÃ¡nĠ
lÄĽi Ġ
ĠyÄ«Ġ sÄ«Ġ
Ġ bÄĽn
zhÃłn ĠyÃ¬Ġ
yÃł ĠlÃ¬Ġ
ĠwÃ¨iĠ yÄ«Ġ
wÃ©nĠwÃ¹ĠbÇİoĠhÃ¹Ġ dÄģnĠwÃ¨iĠ
20 ĠshÃ¬ĠjÃ¬Ġ
mÃ¹Ġ biÄģoĠ
Ġ bÃłoĠ
ĠdÃłiĠ biÇİo
xiÇİo ĠxuÃ©Ġ
Ġ suÃ¬Ġ
shÃ¨ng ĠlÃ¬Ġ
w Ġ
shÃłngĠ hÇİi
ĠhÃło ĠxiÃłnĠ
ĠdeĠ fÃ¹Ġ
zhÃ¨nĠ qÅ«Ġ
fÄĵngĠ gÃ©Ġ
wÃ©n ĠmÃŃngĠ
ĠjiÃłn ĠshÃ¨Ġ
wÇİngĠ luÃ²Ġ
shÄĽngĠ fÃ¨nĠ
yÃŃ ĠzhÃ¬Ġ
jiÃło ĠhuÃ¬Ġ
zhÇİnĠ kÄģiĠ
yÃ¬nĠ dÃ¹
shÃŃĠ qÄ«Ġ
zhÃ¨Ġ geĠ
ĠÃ©r ĠshÃ¬Ġ
gÄģo ĠjÃŃĠ
zhÇĶn ĠbÃ¨iĠ
yÃ¡nĠ zhÃ²ngĠ
Ġ fÇİĠguÃ³Ġ
xuÇİnĠ shÇĴuĠ
ÇĴ Ġ
kÄĵ ĠdeĠ
ĠrÃ©nĠ wÃ¹Ġ
hÇİo ĠdeĠ
dÅįngĠ jÄ«ngĠ
zhÃ²ngĠyÃło ĠdeĠ
jiÄģoĠ tÅįng
gÃ²ngĠyÇĴuĠ rÃ©nĠkÇĴuĠ
Ġ qiÄĽ
Ġ IN
i r
ĠyÄ«Ġ mÃŃngĠ
ĠxiÃłnĠ dÃłiĠ
bÃ¬Ġ xÅ«Ġ
Ġ fÃ¹
hÃ²u ĠyÃºĠ
cÄģnĠ sÃłiĠ
xiÇİoĠxÃŃngĠ xÄ«ngĠ
mÃ¹Ġ qiÃ¡nĠ
ĠchÃ©ngĠ jÃ¬Ġ
ĠxÄ«Ġ bÄĽiĠ
ĠhÃ©Ġ dÃ¬Ġ
kÄģiĠ fÃłngĠ
ĠjÄ«Ġ chÇİngĠ
zi ĠdeĠ
ĠĠĠ J
Ġ mÃŃnĠ
biÃłn ĠchÃ©ngĠ
bÃłng Ġ
qiÃ¡o ĠzhÃ¬Ġ
nÃłi Ġ
lÃ¨iĠ sÃ¬
diÃłnĠshÃ¬Ġ tÃ¡iĠ
jiÄĽ ĠshÃ¬Ġ
bÇĲĠ jiÃłoĠ
guÃ³Ġ mÃŃnĠ
ĠyÃ¬Ġ qÇĲĠ
rÇĶ Ġ
h a
Ġh an
tÃ¨Ġ zhÄĵngĠ
zhÃ¬Ġ zuÃ²Ġ
mÇĲn Ġ
kÇİ ĠÄĽrĠ
xÃŃng ĠshÃ¬Ġ
dÅįu ĠyÇĴuĠ
ĠsuÇĴ ĠyÇĴuĠ
zhÄ« ĠhÃ²uĠ
huÃ¬ ĠhÃ©Ġ
zhÃłn ĠshÃ¬Ġ
mÄĽi ĠpÃŃngĠfÄģngĠgÅįngĠlÇĲĠ
ĠyÄ«Ġ yÃłngĠ
rÃ¹ ĠleĠ
shÄĵngĠ chÇİnĠ
rÃº ĠxiÃłĠ
ĠgÅįngĠ fÄĵnĠ
ĠshÃ¨ ĠzhÃ¬Ġ
tÃło Ġ
ĠzhÃ¨Ġ ge
diÄģo Ġ
ĠsÄ«Ġ jÄ«Ġ
ĠxiÃłĠ lÃ¬ng
Ġ mÃłi
zhÄĵn ĠduÃ¬Ġ
lÇĲngĠ dÇİo
jiÃ¹ ĠshÃ¬ĠzhÃ¨nĠ
Ġ zhÄģng
ĠshÃŃĠ jiÄģn
Ġ V
i g
ĠcÇĲ ĠhÃ²uĠ
yuÃ¡n ĠshÃ¬Ġ
gÄģo ĠzhÅįngĠ
ĠzÃłiĠ zhÅįngĠ
wÃ¡ng ĠguÃ³Ġ
qu ÃłnĠ
kuÃŃ Ġ
ĠniÃ¡nĠ jiÄģnĠ
Ã¨r ĠshÃ¬Ġ
guÄ«Ġ huÃłĠ
diÃłnĠ ziĠ
zÇİo ĠniÃ¡nĠ
Ġ cÃ¬
Ġ shÃ¨nĠzhÃ¬Ġ
wÃłiĠ jiÄģo
lÃ¨iĠ sÃ¬Ġ
shÄģnĠ dÅįngĠ
o m
ĠrÃ¡n ĠhÃ²uĠ
ĠsuÄ« ĠrÃ¡nĠ
t ÄģnĠ
ĠlÃ¬Ġ shÇĶĠyÃºĠ
ĠyÃ¬Ġ zhÃŃ
Ġ cÃ¡iĠ
X Ġ
duÃ¬ ĠzÃłiĠ
zhÃ¹ ĠmÃŃngĠ
yÃºn ĠnÃ¡nĠ
hÄĽn ĠduÅįĠ
ĠÄĽr ĠdeĠ
huÃ² ĠdÃ©
jiÄĽĠ juÃ©Ġ
Ġ lÃ³ngĠ
ĠzhÃ¬Ġ zÃłoĠ
lÃ¡iĠ zÃ¬
ĠĠĠ 2020ĠniÃ¡nĠ
xÄ«n ĠjiÄģĠ
shÇĴuĠ cÃ¬
ĠĠĠ gÅįngĠ
cÃ¡o Ġ
ĠdeĠ mÃŃngĠ
ĠdeĠ zhÇĶĠ
gÅįu Ġ
a s
ĠyÃ¬Ġ zhÃ¬Ġ
ĠĠĠ dÃłĠ
zhÃ²ng ĠdeĠ
ĠdeĠyÄ«Ġ zhÇĴngĠ
Ġ wÇĶ
shÄģn ĠxÄ«Ġ
rÃ©nĠkÇĴuĠshÃ¹ĠliÃłng ĠwÃ¨iĠrÃ©nĠ
Ġ yÃŃĠgÃ¨Ġ
jÃ¹ ĠjÃŃĠ
bÃłoĠ fÄģĠ
jÃŃ ĠhÃ©Ġ
yÃ¨Ġ wÃ¹Ġ
Ġ yÃłĠ
ĠIN S
x Ġ
ĠjiÃłn ĠzhÃ¬Ġ
lÇļ ĠyÃ³uĠ
mÇİĠ lÃ¡i
Ġ chÃºĠleĠ
ĠxÃŃngĠ wÃ©iĠ
Ġ zhÃłoĠ
tÃ¨Ġ biÃ©Ġ
i c
liÃ¡nĠ jiÄĵĠ
ĠĠĠ p
nÇļ ĠÃ©rĠ
jÃŃ ĠshÃ¬Ġ
zhÃł iĠ
fÄģngĠ ÃłnĠ
zÇĴng ĠlÇĲĠ
ĠyÃºĠ 18
ĠshÃłngĠ hÇİiĠ
lÃ¹ ĠjÅ«nĠ
fÄģ ĠshÃ¨Ġ
sÄ« ĠhÃ©Ġ
ĠxÄ«Ġ yÃł
ruÃ¬ ĠshÃ¬Ġ
F Ġ
ĠĠĠ of
ĠdÃłĠ liÃłngĠ
nÃ³ngĠ yÃ¨Ġ
zhÃ¡ iĠ
fÄģĠ dÃ²ngĠ
Ġ dÄģnĠrÃ¨nĠ
2023 ĠniÃ¡nĠ
wÃ¹ ĠzhÃ¬Ġ
juÃ© ĠdeĠ
Ġ gÃ¹
ĠjÃ¬n ĠshÃ¬Ġ
ĠdeĠ lÃ¬Ġ
ĠdeĠshÃŃĠ hÃ²uĠ
huÃłĠ xuÃ©Ġ
Ġ jiÇİĠ
O Ġ
ÃłoĠlÃŃnĠpÇĲĠkÃ¨Ġ yÃ¹nĠdÃ²ngĠhuÃ¬Ġ
ĠzhÃ¬Ġ jÄ«nĠ
n ÃłnĠ
sÄ« ĠrÃ©nĠ
ĠINS EE
ĠĠĠ b
gÃ© ĠdeĠ
sÃ¬ ĠshÃŃĠ
ĠmÄĽi ĠyuÃ¡nĠ
Ġ 11
ju ÄģnĠ
fÄĵi ĠxÃŃngĠ
ĠzhÄ«Ġ wÃłiĠ
kÄĽĠnÃ©ng ĠshÃ¬Ġ
biÇİoĠ yÇİnĠ
Ġ quÃ¨Ġ
ĠtÃ¨Ġ biÃ©
Ġ biÃłnĠ
qiÇİn Ġ
jiÄĵĠrÇİng ĠdeĠshÃ¬ĠzhÃ¨nĠ
xuÇİn ĠwÃ¨iĠ
Ġ duÃ¬ĠyÃºĠ
ĠshÃ¨Ġ shÄ«Ġ
yÃŃ ĠshÃ¬Ġ
jÃ¬n ĠdeĠ
lÃł Ġ
tÇĶ ĠÄĽr
ĠlÃ¬Ġ sÄ«Ġ
bÃ³Ġ tÃ¨Ġ
jiÃłĠ zhÃŃĠ
ti ÃłoĠ
chuÃłng ĠlÃ¬Ġ
ĠgÅįngĠ nÃ©ngĠ
ĠzÇĴngĠ miÃłnĠjÄ«Ġ
chÃ¹ ĠdeĠ
rÃ©ng ĠrÃ¡nĠ
luÃ³Ġ mÇİ
bÄģoĠ hÃ¡n
u n
ĠĠĠ c
ĠdÃ© ĠlÇĲĠ
zhÃ¬ ĠshÃ¬Ġ
v er
guÇİngĠ chÇİngĠ
liÃ¡n ĠhÃ©ĠguÃ³Ġ
ĠyÇĴuĠ rÃ©nĠ
N Ġ
jÃŃ ĠshÃŃĠ
gÄĵngĠ mÃŃngĠwÃ¨iĠ
ĠdeĠ yÄ«ĠbÃ¹ĠfÃ¨nĠ
20 ĠniÃ¡nĠ
xiÃło ĠlÃ¬Ġ
ĠzÃłiĠ cÇĲĠ
jiÇĶ ĠniÃ¡nĠ
chu ÄģngĠ
ĠgÄģiĠ shÄĽngĠ
qÃ¬ ĠdeĠ
ĠrÃ©nĠkÇĴuĠmÃ¬ĠdÃ¹Ġ mÄĽiĠpÃŃngĠfÄģngĠgÅįngĠlÇĲĠ
ĠjÃ¹Ġ lÃ¨ĠbÃ¹Ġ
ĠrÃ©nĠkÇĴuĠmÃ¬ĠdÃ¹ĠwÃ¨iĠ mÄĽi
ĠxiÃłĠlÃ¬ng ĠshÃŃĠ
o p
yÃ³uĠzhÃ¨ngĠ biÄģnĠmÇİĠwÃ¨iĠ
shÃŃ ĠshÃ¬Ġ
zÇĶ ĠfÃ¹Ġ
chÃ¡ĠdeĠ shÃ¹ĠjÃ¹Ġ
liÃ¡nĠ bÄģng
fÄĵnĠ lÃ¨iĠ
ĠshÃ¬ĠzhÃ¨nĠ biÄģnĠmÇİĠwÃ¨iĠ
ĠINSEE ĠshÃ¬ĠzhÃ¨nĠbiÄģnĠmÇİĠwÃ¨iĠ
a tion
Ġ g
Ġ qÃ¬Ġ
mÃ² ĠsÄ«Ġ
ĠguÃ³Ġ wÃ¡ngĠ
ãĢ İ
qi ÇİngĠ
biÄģoĠ zhÇĶn
shÇĲĠyÃ²ng ĠdeĠ
ĠĠĠ bÃ¨iĠ
2 ĠrÃ©nĠ
ĠjÅ«n ĠzÃłiĠ
xuÇİnĠ qÅ«ĠwÃ¨iĠ
ãĢ ı
pÃ¡i ĠmÃŃngĠ
dÃ²ng ĠlÃ¬Ġ
cÃ³ng ĠshÃ¬Ġ
ĠbÃ¹Ġ guÃ²
hÃ© ĠshÃ¬Ġ
ĠshÃ¨ ĠdeĠ
yÃ¹nĠ yÃŃngĠ
shÃŃĠdeĠ rÃ©nĠkÇĴuĠshÃ¹ĠliÃłngĠwÃ¨iĠrÃ©nĠ
zÇĴngĠ tÇĴng
yÄ«Ġ zhÇĴngĠ
mÄĽiĠguÃ³ĠrÃ©nĠkÇĴuĠpÇĶĠ chÃ¡ĠdeĠshÃ¹ĠjÃ¹Ġ
ĠĠĠ 193
ĠjÇĲnĠ guÇİnĠ
Ġ jiÃ¨Ġ
jiÄģ ĠlÃ¬Ġ
ĠÃ©r ĠrÃ©nĠkÇĴuĠmÃ¬ĠdÃ¹ĠwÃ¨iĠmÄĽi
ĠchÅ«Ġ bÇİnĠ
chÄĵĠ liÃłngĠ
ĠdÄģngĠdÃ¬Ġ gÃ²ngĠyÇĴuĠrÃ©nĠkÇĴuĠ
ĠÃ©rĠ qiÄĽĠ
duÅį ĠgÃ¨Ġ
zÃº ĠdeĠ
lÇĲng ĠyÃ¹Ġ
ĠhuÃ²Ġ jiÃ¹ĠshÃ¬ĠzhÃ¨nĠ
Ġ zhÃ²ngĠ
ĠĠĠ lÃ¬Ġ
tiÃ¡oĠ yuÄĵĠ
gÃ©Ġ lÃ¡n
ĠzÃłiĠ 199
shÄĽngĠjÃŃĠ xuÇİnĠqÅ«ĠwÃ¨iĠ
jÄ« ĠjÃŃĠ
gÃłiĠ niÃłnĠ
Ã©rĠ ziĠ
xÄ« ĠdeĠ
dÃł ĠbÃ¹ĠfÃ¨n
Ġ shÅ«Ġ
mÃłnĠ huÃłĠ
k ÄĵngĠ
ĠĠĠ V
ĠbÃ¹Ġ jiÇĶĠ
xuÇİn ĠrÃ©nĠ
xÄ«ng ĠdeĠ
ĠÄĽr ĠdÃ©Ġ
bÄģ ĠniÃ¡nĠ
shÄĽng ĠhÃ©Ġ
jÇĲngĠ chÃ¡Ġ
Ġ mÃłiĠ
fÃ¨nĠwÃ¨iĠ fÇİĠguÃ³Ġ
ĠgÄģiĠshÄĽngĠ fÃ¨nĠwÃ¨iĠfÇİĠguÃ³Ġ
mÇĲ ĠÄĽrĠ
ĠzhÄ« ĠxiÃłnĠ
qÇĲĠ lÃ¡iĠ
Ġ jiÇĶĠ
tiÄĽ ĠdÃłoĠ
Ġ dÅįng
Ãło ĠdÃłĠlÃ¬Ġ
Ġ lÃ¡nĠ
Ġ gÃ¨ngĠ
ĠjÅ«nĠ duÃ¬Ġ
jÇĲnĠbiÄģoĠ sÃłiĠ
fÃº ĠjiÃłnĠ
guÇİng ĠzhÅįuĠ
f Ã©n
Ġ yÇĴngĠ
ĠchÅ«Ġ bÇİn
ĠwÃ¨iĠ shÃŃĠ
qÃºnĠ dÇİoĠ
tiÄģnĠ wÃ©nĠ
mÄĽi ĠyuÃ¡nĠ
zuÃ¬Ġ hÃ²uĠyÄ«Ġ
pÃ¡iĠ mÃŃng
tÅįngĠ chÃ¡ng
xu ÄĵĠ
ĠdÃ¬Ġ sÃ¬Ġ
Ġ guÄģngĠ
lÃ¡i ĠyuÃ¡nĠ
bÄĽn ĠdeĠ
ĠhÃ©Ġ bÃ¬ng
ĠtÄģĠ bÃ¨iĠ
guÇİngĠ fÃłnĠ
xÄ«ng ĠjiÃłnĠ
ĠdÃ¬Ġ sÄģn
tÃ¨Ġ biÃ©
ĠchÅ«Ġ shÄĵngĠyÃºĠ
shÃ¨ ĠlÃ¬Ġ
m iÃ¡n
sh ÇİngĠ
dÃ¬Ġ yÄ«Ġ
ĠrÃ¬ ĠdeĠ
wÄĽi ĠhuÃ¬Ġ
ĠrÃ©nĠ gÅįngĠ
ĠyÃ³uĠ xÃ¬
mÃ©ngĠ gÇĶĠ
ce Ġ
shÇİn ĠxÄ«Ġ
ĠzhÃ¬Ġ yÃºĠ
Ãło ĠsÄ«Ġ
wÃº ĠrÃ©nĠ
rÃ©ng ĠrÃ¡n
mÇĶ ĠsÄ«Ġ
d ÄģĠ
mÄĽi ĠzhÅįuĠ
yÃ¹n ĠxÃŃngĠ
24 Ġ
jiÄĵĠ shÃ²u
ĠmÃŃngĠ chÃ¡oĠ
cÇİiĠ yÃ²ng
Ġ zhÄĵnĠ
ĠbÃ¹Ġ mÃŃngĠ
jiÄģĠ rÃ¹Ġ
yÃ¡nĠjiÅ« ĠsuÇĴĠ
m Ã¡Ġ
ĠxiÃłnĠ lÃ¹Ġ
gÇİnĠ rÇİnĠ
h ÅįngĠ
ĠshÃ¬Ġ bÃ¹Ġ
yÇĲ ĠjÃŃĠ
ĠhÃ©Ġ pÃŃngĠ
xÄ« ĠzÃłiĠ
nÃ¡n ĠjÃŃĠ
huÃł ĠshÃŃĠ
cÄģo Ġ
shuÅįĠ fÇİĠ
qiÃłn Ġ
guÃ²Ġ chÃ©ngĠzhÅįngĠ
cÃ©ng ĠzÃłiĠ
zuÃ²Ġ pÇĲn
ĠjÃ¬n ĠdeĠ
ĠbÃ¹Ġ mÃ©nĠ
ĠjÄ«Ġ bÄĽnĠ
zhÃłnĠ zhÄĵng
wÇĶ ĠshÃŃĠ
xuÃ©Ġ xiÃło
ĠrÃ¨nĠ wÃ©i
a p
n Ã¨Ġ
Ġ tÃ³uĠ
Ġ hÃ¡nĠ
50 Ġ
ĠjÃ¹Ġ lÃŃĠ
mÃ³ ĠxÃŃngĠ
Ġ qÅ«Ġ
Ġ yÃ¬ĠwÃ¨iĠ
ĠdeĠdÃ¬Ġ fÄģngĠ
Ġ biÇİoĠshÃ¬Ġ
Ġ zhÃ¨ngĠshÃ¬Ġ
ĠkÃ¨ ĠdeĠ
h i
jÃ¬Ġ shÃ¹Ġ
yÃ¹nĠ shÅ«Ġ
ĠjiÃłn ĠyÃ¬Ġ
ĠtÄģ ĠyÇĶĠ
Ġ jiÇİngĠ
gÃ²uĠ mÇİi
xuÃ© ĠshÃ¬Ġ
xuÃ©Ġ xÃŃĠ
0ĠniÃ¡nĠ dÃłi
rÃ¨nĠwÃ©i ĠshÃ¬Ġ
hu ÇİnĠ
xuÄģnĠ chuÃ¡nĠ
ĠzÃłiĠ yÃ¬Ġ
ĠyÃºĠ 198
ĠgÃ¨ ĠdÃ¬Ġ
lÃºnĠ dÅ«n
3 ĠrÃ©nĠ
liÃ¨ ĠwÃ¨iĠ
chÃł Ġ
fÃ³ Ġ
ĠdeĠ xÄ«nĠ
bÃłnĠ gÅįngĠshÃ¬Ġ
mi ÇİoĠ
tÃ³ng ĠyÄ«Ġ
wÃłi ĠguÃ³Ġ
Ġ 10ĠyuÃ¨Ġ
ĠzÇĴng ĠrÃ©nĠkÇĴuĠ
shÃłng ĠyÇĴuĠ
a d
Ġ liÃº
yuÃ¡n ĠwÃ¨iĠ
li ÇİoĠ
Ġ xiÄģoĠ
gÅįngĠ zuÃ²Ġ
nÃŃ ĠsÄ«Ġ
ĠzÃłiĠ zhÅįngĠguÃ³Ġ
ĠzÃ¬Ġ jÇĲĠ
chÃ¡ nĠ
yÇİngĠ huÃłĠ
30 ĠniÃ¡nĠ
tÃłiĠ yÃ¡ngĠ
L Ġ
fÄģngĠ miÃłn
a c
hÇİi ĠjÅ«n
chÄĵng ĠwÃ¨iĠ
xiÄģo ĠxÄ«Ġ
ĠxiÃłn ĠrÃ©nĠ
4 ĠrÃ©nĠ
biÄģo ĠzhÃ¬Ġ
zhÃ¬ ĠwÃ¨iĠ
15 Ġ
ĠdeĠ guÄģnĠ
yÃ³uĠ xÃ¬
fÃ¹ĠzÃ©Ġ guÇİnĠxiÃ¡Ġ
fÄĵn ĠzhÄ«Ġ
Ġ xiÄģnĠ
ĠwÃ©iĠ zhÇĶĠ
u b
gÃ²u ĠchÃ©ngĠ
shÄ« ĠdeĠ
Ġ Î
Ġ qÄ«ng
zhÃ© ĠxuÃ©Ġ
ĠjÃŃĠ qÃŃĠ
zhÇĶĠ juÃ©Ġ
zhÄģ Ġ
ĠĠĠ yÇĲĠ
sÃ¬Ġ chuÄģnĠ
ĠjÃ¬Ġ huÃł
zÃłi ĠshÃ¬Ġ
zhÃ¨ng ĠdeĠ
jiÃ¨Ġ quÃ¡nĠguÃ³Ġ
Ġ gÃ¨ng
kÃ¹ n
dÇİng ĠdeĠ
huÃ¡nĠ jÃ¬ng
bÇĲ ĠdÃ©Ġ
ĠdÃłoĠ lÃ¹Ġ
mÇİ ĠlÃ¬Ġ
2024 ĠniÃ¡nĠ
ĠyÄ«Ġ xiÄĵ
rÃ²u Ġ
ĠjÃ¬Ġ niÃłnĠ
Ġ rÃłng
bÃ¹ ĠwÃ¨iĠ
Ġ yÇĶ
ĠshÃ¬Ġ mÄĽiĠguÃ³Ġ
pÃ©ng ĠyÇĴuĠ
sÄ« ĠzÃłiĠ
Ġ xÄ«
Ãłi ĠÄĽrĠ
chÃŃĠ xÃ¹
ĠgÅįngĠ gÃ²ngĠ
ÃłoĠ yÃ¹nĠ
kÃłng ĠyÃ¬Ġ
Ġ wÅ«Ġ
yuÄĵ ĠwÃ¨iĠ
tÃłi ĠguÃ³Ġ
shÄĵngĠ wÃ¹Ġ
ĠĠĠ yÇĴuĠ
U Ġ
ch Ä«Ġ
ĠbÃ¨iĠ ÄĽrĠ
jiÄĵ ĠwÃ¨iĠ
liÃ¨ ĠdeĠ
xuÇİnĠ qÅ«Ġ
huÃ¬ ĠyÇĴuĠ
shÅįuĠ rÃ¹Ġ
yÃ¬ ĠhÃ©Ġ
xiÃłoĠ zhÇİngĠ
wÃ©n ĠjiÃłnĠ
shÃŃ ĠzÃłiĠ
zhÃ¨ngĠ cÃ¨Ġ
Ġ sÃ²ngĠ
ti Çİo
xuÇİnĠ zÃ©
qiÃ¡nĠ wÇİng
Ġ cÃ¬Ġ
rÃ³ng ĠyÃ¬Ġ
suÇĴĠshÇĶĠdeĠ shÄĽngĠjÃŃĠxuÇİnĠqÅ«ĠwÃ¨iĠ
ĠyÃ²uĠ chÄĵngĠ
ĠjiÃ© ĠzhÃ¬Ġ
zhÅįng ĠzÃłiĠ
biÄģo ĠwÃ¨iĠ
cÄģnĠ yÃ¹
fÃ³ ĠjiÃłoĠ
ĠzhÄ«Ġ chÃŃ
kÅ«n Ġ
Ġ kÄģiĠshÇĲĠ
ĠĠĠ chÄĵĠzhÃłnĠ
ti ÄĵĠ
yÇİn ĠdeĠ
biÄģn ĠjÃŃĠ
ĠĠĠ shÃŃĠ
yÃŃnĠ hÃ¡ng
yÇĶĠ yÃ¡nĠ
Ġ bÄĽi
sÄ« ĠdÃ¬Ġ
b o
ĠshÄĵngĠ wÃ¹Ġ
Ġ chÃ©n
tÃ³uĠ rÃ¹Ġ
k ÇİnĠ
qÄ«Ġ jiÄģn
ĠhuÃ² ĠshÃ¬Ġ
jÅ«n ĠduÃ¬Ġ
ĠÃ©rĠ qiÄĽ
Ġ rÃ¨n
gu ÄģĠ
nÃ¡nĠ xÃ¬ngĠ
jiÄĽĠfÃłng ĠjÅ«nĠ
xiÄģngĠ duÃ¬Ġ
tiÇİo ĠzhÃłnĠ
ĠyuÃ¡nĠ zhÃ¹Ġ
ĠchÅ«Ġ leĠ
s p
ĠzhÃ¬Ġ dÃ¹Ġ
gÇİiĠ biÃłnĠ
Ġ qiÄģnĠ
ĠĠĠ hÃ©Ġ
shÃ²u ĠyÇĶĠ
ĠzhÅįngĠ yÇĴuĠ
ĠzhÃłnĠ zhÄĵng
Ġ tÃºĠ
ĠniÃ¡nĠ dÃ¹Ġ
ĠyÄ«Ġ zhÇĴngĠ
gÄģo ĠyÃºĠ
gÇİn ĠdÃłoĠ
jiÄĵĠrÇİng Ġ
Ġ 2020ĠniÃ¡nĠ
ĠyÇĲĠ shÃłngĠ
Ġ fÄĵi
yÃ¹n ĠhuÃ¬Ġ
g ÇİoĠ
r Ã³u
ĠdÃ¬Ġ xiÃłĠ
ĠĠĠ tÄģ
ĠshÃ¬Ġ yÃŃĠgÃ¨
wÄĽnĠ dÃ¬ngĠ
pÃ¨i ĠhÃ©Ġ
ĠyÃºĠ 19
Ġ gÇĶ
ĠshÃ¬Ġ tÃºĠ
jiÄģ ĠrÃ©nĠ
yÄģng Ġ
Ãłn ĠjiÃłnĠ
Ġ dÃŃĠ
in d
ĠzÃłiĠ bÃ¹Ġ
gÄĵĠ qÇĶ
tÃŃ ĠmÃŃngĠ
jÃ¬ ĠzhÅįngĠ
dÃ¡ ĠchÃ©ngĠ
Ġ Ã¨r
tÃ³ng ĠdeĠ
tiÄģnĠ zhÇĶĠjiÃłoĠ
1 ĠrÃ©nĠ
ĠĠĠ 2021
wÇĶĠ qÃ¬Ġ
Ġ chÄĵngĠ
shÃ¹Ġ liÃłngĠ
lÃ¡iĠ shuÅįĠ
jiÇİnĠ jiÃ¨Ġ
biÇİo ĠmÃŃngĠ
ĠzhÅįngĠguÃ³Ġ rÃ©nĠmÃŃnĠ
tÃŃngĠ zhÇĲĠ
tÄģĠ menĠ
xÄ«ĠbÄģnĠ yÃ¡Ġ
duÃ³ ĠdeĠ
yÇĲngĠ piÃłnĠ
s ÃºĠ
zhuÃ³ Ġ
Â °
ĠÃ©rĠrÃ©nĠkÇĴuĠmÃ¬ĠdÃ¹ĠwÃ¨iĠmÄĽi ĠpÃŃngĠfÄģngĠqiÄģnĠmÇĲĠ
t uÃ²
bÃłnĠ dÇİoĠ
xiÇİo ĠdeĠ
zhÃ¨ng ĠshÃŃĠ
cÃ¨ ĠdeĠ
zÃło ĠdeĠ
ĠwÃ¨iĠ fÃº
zhÇĶĠ tÃŃĠ
shÄĵnĠ fÃ¨n
quÃ¨Ġ zhÄĽn
juÃ©Ġ sÃ¨
ĠjÄ«Ġ bÃłiĠ
in Ġ
zhÃ¨Ġ zhÇĴngĠ
u r
ï ½
guÅį Ġ
jiÃ©Ġ mÃ¹
Ġ tÃ¡iĠwÄģn
dÃ¬ ĠshÃ¬Ġ
a g
jiÃłoĠ tÃ¡ngĠ
ĠpÃŃngĠfÄģngĠ mÇĲĠ
ĠĠĠ yuÃ¡nĠ
ĠjiÄģĠ nÃ¡ĠdÃłĠ
zÃ¬ĠzhÃ¬Ġ qÅ«Ġ
Ġ 8ĠyuÃ¨Ġ
lÄģ ĠkÃ¨Ġ
lÃ¨i ĠdeĠ
ĠzÃłiĠ mÄĽiĠguÃ³Ġ
ĠĠĠ zÃ¬Ġ
hÃ¹n ĠhÃ©Ġ
4 6
kÃło Ġ
fÄĵnĠ biÃ©Ġ
jÇĶ ĠrÃ©nĠ
chÅįngĠ tÅ«Ġ
Ġ luÃ²Ġ
Ġ shÇĲĠyÃ²ngĠ
tuÃ¡n ĠduÃ¬Ġ
3 9
quÃ¡n ĠdeĠ
kÄĽĠnÃ©ng ĠhuÃ¬Ġ
yÄģ ĠlÃ¬Ġ
guÃ³ ĠzÃłiĠ
jÃ¬ ĠwÃ¨iĠ
ĠÃ©r ĠbÃ¨iĠ
jÃ¬Ġ huÃłĠ
ĠjÃ¬Ġ chÃ©ngĠ
gÃ²ng ĠxiÃłnĠ
Ġ hÃ¡iĠyÇĴuĠ
n Ä«Ġ
xÄ«n ĠlÇĲĠ
ĠshÃŃĠ shÄ«Ġ
ĠdÃ¬Ġ tiÄĽĠ
jiÇİnĠ chÃ¡Ġ
shÄĵngĠ chÇİn
ĠT he
ĠshÃŃĠ yÃłn
duÅįĠ cÃ¬Ġ
liÃ¡nĠ xÃ¹Ġ
lÃ¬ ĠbÃ¹Ġ
4 7
Ġ tÅįngĠguÃ²Ġ
cÃ©ngĠ jÄ«ngĠ
chÇİnĠ yÃ¨Ġ
Ġ nÃŃĠ
xÃŃngĠ dÃ²ngĠ
Ġ xÄ«ngĠ
fÄģn ĠyÃ¬Ġ
ĠhÃ©Ġ liÃºĠ
zuÃ¬Ġ zÇİo
25 Ġ
dÃł ĠbÃ¹ĠfÃ¨nĠ
ĠchÅ«Ġ rÃ¨nĠ
ĠzÃ¬Ġ yÃ³uĠ
cÄģo ĠzuÃ²Ġ
jiÄģĠ nÃ¡ĠdÃłĠ
zhÇĲĠ huÄ«
bÃłn ĠshÃ¬Ġ
ĠxÄ«Ġ wÃłngĠ
am pĠ
ĠzÃłiĠ dÃłĠ
shÇİoĠ shÃ¹Ġ
Äģn ĠdÃ©Ġ
fÇİnĠ huÃŃĠ
chÃ³ng ĠjiÃłnĠ
tÃ²u Ġ
xiÇİoĠ zÇĶĠ
shÇĴu ĠdeĠ
jiÇİnĠ shÇİoĠ
ĠshÃ¬Ġ yÇĲĠ
ĠjiÃłnĠ zhÃ¹
fÃ¨nĠ zÇĲĠ
ĠwÃ¨iĠ nÃ©ngĠ
Y ou
xÃŃng ĠwÃ©iĠ
Ġ zÃ¬
dÃ²ng ĠdeĠ
kÅįng ĠjÅ«nĠ
ĠshÃŃĠ fÄĵnĠ
mÃ©iĠ tÇĲ
bÃłn ĠgÅįngĠ
ĠzhÃ¬Ġ zuÃ²
ÇĲ Ġ
kÃ¹ nĠ
jÃ¬Ġ niÃłnĠ
mÄĽi ĠniÃ¡nĠ
gÃ²ng ĠtÃ³ng
ĠyÃ¬Ġ yÇĴuĠ
shÄĵn ĠdeĠ
ĠhÃ©Ġ bÄĽiĠ
ĠxiÃłn ĠwÃ¨iĠ
Ġ 2009ĠniÃ¡nĠ
5 ĠrÃ©nĠ
ou n
Åįu ĠyuÃ¡nĠ
gÅįngĠ yuÃ¡nĠ
k ÄģĠ
lÃºnĠ dÅ«nĠ
A T
ĠyÇĲĠ sÃ¨Ġ
xiÃłn ĠdÃłiĠ
ĠshÃ¬ĠyÄ«Ġ mÃŃngĠ
ĠyÃ²u ĠmÃŃngĠ
jÄ«ngĠ yÃŃngĠ
wÄĵi ĠÄĽrĠ
ĠshÇĲ ĠdeĠ
yÃ¬ng ĠdeĠ
jiÃ©Ġ gÃ²u
bÇİoĠ hÃ¹
wÄĽiĠyuÃ¡nĠ huÃ¬
jÃŃ ĠzÃłiĠ
chÃ¡oĠ xiÄģn
ĠzhÇĲ ĠyÇĴuĠ
chu ÃŃ
diÄģn Ġ
xiÄģngĠ tÃ³ngĠ
mÃ¬ngĠ mÃŃngĠwÃ¨iĠ
ĠdeĠ shÇĴuĠ
ĠgÅįngĠ sÄ«ĠdeĠ
Ġ duÃ¬
yÃ²ngĠ lÃ¡iĠ
dÃ²ng ĠjÄ«Ġ
dÇİ ĠjÄ«Ġ
ĠdeĠdÃ¬Ġ qÅ«Ġ
Ġ ÃłnĠ
zhÇİn ĠshÃ¬Ġ
xÃºnĠ huÃŃĠ
ĠyÄ«Ġ cÃ¬Ġ
qÇĲĠ yÃ²ngĠ
ĠshÃ¨Ġ qÅ«Ġ
tÃ³uĠ piÃłoĠ
ĠĠĠ 2019
i ng
Ġ fÃłnĠ
shÇĴu ĠwÃ¨iĠ
xiÃłĠ wÇĶĠ
ĠliÇİng ĠrÃ©nĠ
ĠzhÃŃ ĠzhÃ¬Ġ
a k
yÃ¬ ĠzÃłiĠ
ĠjÃ¬Ġ xÃ¹
ĠsÄ«Ġ lÃ¬ng
zhÃŃ ĠdeĠ
rÃ¨nĠ wÃ¹Ġ
lÃ¹ĠdÃ¬Ġ miÃłnĠjÄ«ĠwÃ¨iĠ
K Ġ
pÃŃngĠ jiÃłĠ
k uÃ¬
bÃ¹ ĠshÃ¬Ġ
shuÇĲĠyÃ¹Ġ miÃłnĠjÄ«ĠwÃ¨iĠ
h ÇİnĠ
Ġ lÃŃn
mÃ¹ ĠsÄ«Ġ
jiÄĵ ĠjÃ¬nĠ
lÃ¨i ĠxÃŃngĠ
16 Ġ
p ÄģnĠ
ĠguÃ³Ġ lÃ¬Ġ
wÃłiĠ jiÄģoĠ
ĠtÇĲĠ zhÇİngĠ
ĠshÃŃĠ zÃ¬Ġ
fÃº ĠhÃ©Ġ
Ġ dÄĽng
diÃłn ĠlÃ¬Ġ
ĠfÃ¹Ġ jÃ¬nĠ
Ġ huÄģĠ
Ġ ruÃ²Ġ
jÇĶ ĠxÃŃngĠdeĠ
xuÃ©Ġ zhÄĽĠ
tÇĲĠ xÃ¬Ġ
liÇİng ĠgÃ¨
zhÃ¨Ġ ge
Ġ yÃ¹
Ġ zÇĶĠ
bÇĲĠsÃłi ĠzhÅįngĠ
fÃºĠ wÃ¹
ĠdÃłĠ shÇĲĠ
ï½ ŀ
zuÃ²Ġ jiÄģĠ
guÄ«Ġ mÃ³
ĠshÃ¨ ĠbÃ¨iĠ
Ġ dÅįuĠ
qÇĶĠ xiÄģoĠ
zhÃ¹ ĠyÃ¬Ġ
Ġ shÄģngĠ
Ġ ampĠ
ĠsÄ«Ġ lÃ¬ngĠ
zhÃ¹Ġ zuÃ²Ġ
dÃ© ĠdÃłoĠ
xiÃłng ĠshÃ¬Ġ
hÇİiĠ yÃ¹Ġ
yÄ«ngĠ gÃ©ĠlÃ¡nĠ
jiÃ© ĠzhÃ¬Ġ
ĠdÃłĠ chÃ©nĠ
ĠcÃ³ng ĠÃ©rĠ
ĠdÄģngĠzhÅįngĠ lÃ¹ĠdÃ¬ĠmiÃłnĠjÄ«ĠwÃ¨iĠ
a b
zhÃ¬ ĠhÃ©Ġ
ĠÃ©rĠ shuÇĲĠyÃ¹ĠmiÃłnĠjÄ«ĠwÃ¨iĠ
Ġ Äģi
ĠlÃ¬Ġ jÃŃĠ
ĠlÃ¬Ġ fÇİĠ
Ġ fÃ¨iĠ
ĠĠĠ 2018
ĠĠĠ xÄ«Ġ
ĠlÃ¬Ġ rÃº
shuÇĲ ĠpÃŃngĠ
ĠzhÄ« ĠshÃŃĠ
fÇİĠ lÇľ
gÄģoĠ sÃ¹
yÄ«ngĠ chÇĲĠ
chÃ¡ngĠ qÄ«Ġ
kuÃłiĠ sÃ¹Ġ
Ġ 9ĠyuÃ¨Ġ
ĠchÃ©ngĠlÃ¬Ġ yÃºĠ
ĠĠĠ gÃłiĠ
lÇļ ĠkÃ¨Ġ
ĠwÃ©iĠ ÄĽrĠ
wÄĵiĠ liÃ¡nĠ
n Ã¬Ġ
Ġ zhuÄģnĠ
lÃ¬ngĠ wÃłiĠ
dÃłi ĠyÇĴuĠ
shÄĵngĠ huÃ³
xÄ«Ġ yÃ¡ngĠ
ĠĠĠxÃŃngĠzhÃ¨ngĠ qÅ«ĠhuÃłĠ
ĠjiÄģĠ shÃłngĠ
cÄģnĠ jiÄģ
e c
ĠĠĠ 2022
yuÃłnĠ zhÇİngĠ
jÇĲ ĠyÇĶĠ
diÇİn ĠdeĠ
ĠyÇĲĠ hÃ²uĠ
guÄģnĠ zhÃ²ngĠ
bÇĲĠ yÃłĠ
ĠjÅ«n ĠwÃ¨iĠ
mÃŃn ĠdeĠ
shuÃ² ĠshÃ¬Ġ
ĠdÃ© ĠdeĠ
ĠĠĠ U
Äĵng ĠlÃ¬Ġ
wÄĽiĠ shÅ«ĠjÃ¬Ġ
zhÃ¬ ĠzÃłiĠ
ĠyÃ¬Ġ rÃ©nĠ
fÄĵngĠ bÃłoĠ
ĠyuÃ¡nĠ yÄ«nĠ
pÄ«Ġ zhÇĶnĠ
d ÄģoĠ
Ġ bÃ¨i
Ġ hÃ¡i
g Ġ
dÇİo ĠyÇĶĠ
dÅįng ĠxÄ«Ġ
ĠxÄ«nĠ wÃ©nĠ
ĠzhÃ¨Ġ jiÄģngĠ
ĠwÃ¨iĠfÃº ĠqÃŃĠyÃºĠ
bÇİoĠ chÃŃĠ
liÃ¡nĠ xÃ¬Ġ
Ġ tÃŃĠ
xÃ¬n ĠhÃłoĠ
22 Ġ
jiÃ©ĠshÃ¹ ĠhÃ²uĠ
rÃº ĠhÃ©Ġ
cÃ¬ĠshÃ¬ĠjiÃ¨ĠdÃłĠ zhÃłnĠ
Ġ 7ĠyuÃ¨Ġ
chu ÃłnĠ
rÃ¨nĠ mÃ¬ng
shÃ²uĠ shÄģngĠ
ĠshÃ¬Ġ yÄ«ĠwÃ¨iĠ
tÇİoĠ lÃ¹nĠ
zhÇİo Ġ
fÄģ ĠchÅ«Ġ
xÃ¬ng ĠzhÃ¬Ġ
nÃ¨iĠ rÃ³ng
yÇİnĠchÃłng ĠhuÃ¬Ġ
ĠjÄ«Ġ dÅ«Ġ
4 9
Ġ pÃŃng
tuÃ¬ ĠyÃ¬Ġ
ĠshÃ¬Ġ qÅ«Ġ
jÄ« ĠzhÃ¬Ġ
jiÄģ ĠhÃ©Ġ
yÃł ĠdeĠ
Ġ pÃŃĠ
ĠĠĠ yÃ¬Ġ
Ġ formulaĠ
suÃŃ ĠhÃ²uĠ
ĠjiÃłn ĠchÃ©ngĠ
diÃłnĠ tÃ¡iĠ
ĠmÃŃngĠ chÄĵngĠ
wÃ¨iĠ zhÃ¬Ġ
jiÃłoĠ qÅ«Ġ
zhÃ¹Ġ mÃŃngĠdeĠ
m ÄĽngĠ
Ġ 21Ġ
ĠtÇĲĠzhÇİngĠ kÄĽĠdÃ¡Ġ
Ġ rÃłngĠ
zhuÄģn ĠjiÄģĠ
Ġ bÅį
fÅ« ĠrÃ©nĠ
chÄģ ĠyÃ¬Ġ
ĠjiÃ©Ġ guÇĴĠ
Ġ rÃ¹Ġ
zÇĴngĠ dÅ«Ġ
bÃ¬Ġ yÃ¨ĠyÃºĠ
ĠdeĠyÄ«Ġ zuÃ²Ġ
ĠzÃłiĠ yÃºĠ
dÇĲĠ dÃ¡Ġ
ĠdeĠ qiÃ¡nĠ
G Ġ
wÇİng ĠlÃ¹Ġ
cÅ«nĠ zhuÄģngĠ
Ġ 12ĠyuÃ¨Ġ
nÃ©ngĠ gÃ²u
Ġ mÃŃnĠguÃ³Ġ
ĠkÃ¨ ĠlÇĲĠ
Ġ dÇİĠ
ĠbÃ¹Ġ lÇĲĠ
ĠyÇĲĠ xiÃł
zhÃłn ĠzhÅįngĠ
ĠrÃ©nĠ lÃ¨iĠ
fÄģĠ diÃłnĠ
Ġ 11ĠyuÃ¨Ġ
lÃ¡i ĠdÃłoĠ
o v
ĠĠĠ 3
ĠĠĠ 2017
bÃ¬Ġ xÅ«
hÃ¡iĠ ziĠ
i s
cuÃ² ĠshÄ«Ġ
pÇĶĠ tÅįngĠ
qÄ«Ġ zÇĲĠ
yÇĶ ĠzhÅįngĠ
en Ġ
ĠzhÄ« ĠzhÅįngĠ
zÇĶĠ chÃ©ngĠdeĠ
ĠyÃ¬Ġ shÃ¹
ĠjiÃłnĠ duÃ¬Ġ
ĠxuÃ©Ġ xiÃło
fÇİ ĠdeĠ
ĠshÃŃĠ rÃ¨nĠ
ĠyÄ«Ġ shÄĵngĠ
ĠzhÃ¨ngĠ cÃ¨Ġ
gÅ« ĠjÃ¬Ġ
ĠjÄ«ngĠ guÃ²Ġ
tÃłiĠpÃŃngĠ yÃ¡ngĠ
tÃ³ng ĠyÃ¬Ġ
ĠÄĽr ĠhÃ©Ġ
yÃ¡nĠ gÃ©Ġ
guÇİngĠ bÅį
chÅ«Ġ bÇİnĠ
Ġ wÃ¡ng
dÇİo ĠshÃ¬Ġ
al Ġ
sÃ¬ ĠgÃ¨Ġ
Ġ mÃ©ngĠ
ĠÄĽrĠ tÃ¨Ġ
6 ĠrÃ©nĠ
shÄĵng ĠwÃ¨iĠ
chÃ©ngĠ gÅįngĠ
gÃ²ngĠchÇİnĠ dÇİng
ĠĠĠ w
13 Ġ
qÃ¬Ġ chÄĵĠ
ĠshÃ¬Ġ yÇĴuĠ
mÃŃngĠ chÄĵngĠ
ĠshÄĵngĠ chÇİnĠ
chÃ¡ i
ĠtÅįngĠ chÃ¡ngĠ
chÃ¨Ġ xiÄģoĠ
8 ĠrÃ©nĠ
le ĠdÃłĠ
zhÃ¹ ĠyÃºĠ
ĠdÃ© ĠyÇĲĠ
ĠdeĠshÃŃĠ qÅ«ĠwÃ¨iĠ
fÄĽi Ġ
Ġ kÄĵ
yÄĽ ĠzÃłiĠ
gÃ¨ng ĠjiÄģĠ
ĠshÃŃĠ xiÃłnĠ
gu ÃłiĠ
ĠshÃłngĠ hÇİi
nÇİi Ġ
sh Çİng
ĠĠĠ in
xiÄģoĠ shÃ²uĠ
23 Ġ
ĠĠĠ zhÃ¬Ġ
ind ow
Ġ fÇİnĠ
jÃºĠ zhÇİngĠ
ĠdeĠshÃŃĠ jiÄģnĠ
lÃ¹ ĠyÃ¬Ġ
ĠĠĠ 2016
ĠwÃ¨iĠ shÄĵngĠ
quÃ¨Ġ dÃ¬ngĠ
yuÃ¨Ġ tÃ¡iĠ
guÇİng ĠxÄ«Ġ
hÄģ ĠÄĽrĠ
ĠrÃºĠ guÇĴ
Ġ qiÃ¡ngĠ
kuÃ² ĠdÃłĠ
dÄĵng ĠlÃ¹Ġ
Ġhan sĠ
yÃ¬ ĠzhÅįngĠ
rÃ³ng ĠyÃ¹Ġ
ĠpÃŃngĠ tÃ¡iĠ
Ġt wĠ
ĠshÃ¬Ġ yÇİnĠ
mÇĶĠ qÄ«nĠ
zhÃ²ng ĠdÃłĠ
dÃ²ngĠ zuÃ²Ġ
zhÇĲ ĠzÃłiĠ
Ġ yÃ¬nĠdÃ¹Ġ
cÃ¹ nĠ
5 5
yuÃ¨ ĠshÃŃĠ
Ġ lÃŃngĠ
yÃ¨ ĠhÃ²uĠ
zhÃ¨Ġ jiÄģngĠ
ĠbÃ¬ngĠ mÃ©iĠyÇĴuĠ
ĠjÇĲnĠ guÇİn
pÃ²ĠhuÃłi Ġ
ĠĠĠ de
ĠjÄ«Ġ gÃ²u
yÇĶ ĠhÃ©Ġ
ĠĠĠdeĠ shÃŃĠ
jÃ¬n ĠxÃŃng
rÃ¹Ġ kÇĴuĠ
ĠhuÃ²Ġ zhÄĽĠ
Ġ biÄģnĠ
wÃ¹Ġ zhÇĴng
xÃ¹nĠ liÃłn
s ÄģĠ
bÄģ ĠxÄ«Ġ
ĠbÃ¹Ġ kÄĽĠ
ĠwÃłn ĠrÃ©nĠ
rÃ¹Ġ qÄ«nĠ
cÄģnĠ kÇİoĠ
t ÄģngĠ
wÇİn ĠshÃłngĠ
ĠyÄĽ ĠyÇĴuĠ
chÅ«Ġ bÇİn
yÃłĠlÃ¬Ġ shÄģn
lÃŃn ĠdeĠ
bÄģĠ lÃŃĠ
ĠcÇĲ ĠshÃŃĠ
Ġ chÃ¡ng
fÃ¹ ĠdeĠ
ĠguÃ³Ġ wÃ¹Ġ
Ġ 189
ĠgÅįngĠ yÃ¨
ĠxuÃ©Ġ xÃŃĠ
ĠmÃ¹Ġ qiÃ¡n
Ġ ÄģĠÄĽrĠ
yuÃłn ĠdeĠ
00 ĠniÃ¡nĠ
xÅ« ĠqiÃºĠ
ĠzhÄ« ĠyuÃ¡nĠ
ï¼ ı
Ġ chÄĵĠ
r ÇİoĠ
cuÃ¬ Ġ
guÄģnĠ zhÃ¹Ġ
ĠĠĠniÃ¡n Ġ
xuÃ© ĠhÃ©Ġ
zhÃŃ ĠwÃ¨iĠ
zuÃ¬ ĠchÅ«Ġ
sÇĶn ĠshÄ«Ġ
Ġ sÃłĠ
biÇİo ĠxiÃłn
zhÃ¨Ġ xiÄĵ
fÄģĠxiÃłnĠ leĠ
hÃ©ngĠ xÄ«ngĠ
Ġ quÃ¨
kÃłn ĠdÃłoĠ
fÃ¹Ġ qÄ«nĠ
gÇİiĠ biÄģn
ĠjiÄģĠ tÃŃngĠ
Ġ yÇİnĠ
bi ÇİnĠ
fÄģĠ shÄĵng
c Ġ
ĠbÃ¬ng ĠyÇĲĠ
yÃŃĠ dÃ²ngĠ
zhÃłn ĠdÃ¬Ġ
xiÅįngĠ yÃ¡
Ġ Ñ
ĠĠĠ 2014
huÃ¡Ġ mÃŃnĠguÃ³Ġ
Ġ gÇİi
ĠĠĠ suÇĴĠshÇĶĠdeĠshÄĽngĠjÃŃĠxuÇİnĠqÅ«ĠwÃ¨iĠ
ĠĠĠdeĠ yÃ³uĠzhÃ¨ngĠbiÄģnĠmÇİĠwÃ¨iĠ
ĠĠĠyÇĶĠ jiÄĵĠrÇİngĠdeĠshÃ¬ĠzhÃ¨nĠ
ĠĠĠyÃºĠ shÃŃĠdeĠrÃ©nĠkÇĴuĠshÃ¹ĠliÃłngĠwÃ¨iĠrÃ©nĠ
ĠĠĠdeĠshÃŃĠ qÅ«ĠwÃ¨iĠ
c tion
zhuÄģng ĠzhÃ¬Ġ
ĠcÃ©ng ĠrÃ¨nĠ
7 ĠrÃ©nĠ
Ġ 6ĠyuÃ¨Ġ
ĠĠĠ 2023
sÅ«Ġ liÃ¡n
jÃ¬ ĠhÃ©Ġ
or Ġ
ĠzuÃ²Ġ yÃ²ngĠ
ĠĠĠ 2010ĠniÃ¡nĠ
mÃŃng ĠyÃ¬Ġ
tÃº ĠzhÅįngĠ
tÃ¡iĠ bÄĽiĠ
fÄģ ĠdeĠ
ĠdÃ¬Ġ qiÃºĠ
ĠzhÄ«Ġ mÃŃngĠ
zÇĴng ĠbÃ¹Ġ
ĠsÄ«Ġ lÄģĠ
xiÄģngĠ dÄģngĠ
shÃŃ ĠwÃ¨iĠ
rÃºĠ cÇĲĠ
zÄ«Ġ xÃ¹nĠ
wÃ©i ĠdeĠ
Ġ cÃŃĠ
Ġ chuÃ¡nĠ
ĠĠĠ jÄ«Ġ
duÅį ĠniÃ¡nĠ
guÇİnĠ lÇĲ
14 Ġ
ĠshÃ¬Ġ zhÇİngĠ
kÄģiĠ fÃłng
jiÇİngĠ xiÃłngĠ
jÃ¬n ĠshÃ¬Ġ
ĠyÄ«Ġ dÃłiĠ
ĠchÅ« ĠxiÃłnĠzÃłiĠ
ĠsÄ«Ġ tÇİnĠ
zhÇĶĠ chÃŃĠ
chÃłngĠ piÃłnĠ
xiÅįngĠyÃ¡ ĠlÃ¬Ġ
zÃ¬Ġ dÃ²ngĠ
w ÄģĠ
ĠrÃ©nĠ shÃ¹Ġ
ĠdÃłn ĠtÄģĠ
tÃ¡i ĠdeĠ
xÃ¹nĠ sÃ¹Ġ
sÃłi ĠdeĠ
b er
tÃŃ ĠshÄĵngĠ
fÄĵi ĠjiÃłnĠzhÃ¬Ġ
shÃ¹Ġ xuÃ©Ġ
jiÃłoĠ wÃ©iĠ
ĠyÃºĠ 197
Ġh kĠ
xÃ¬Ġ jÃ¹Ġ
ĠgÃ¨Ġ zhÇĴngĠ
Ġ 5ĠyuÃ¨Ġ
100 Ġ
ĠwÃ¨iĠ hÃ©Ġ
ĠbÃ¬ng ĠlÃ¬Ġ
xiÃłngĠ mÃ¹
tuÄ«Ġ dÃ²ngĠ
ĠchÃ©ngĠwÃ©iĠ leĠ
niÇĶĠ yuÄĵĠ
7 5
ĠyÃ¬Ġ yuÃłnĠ
fÄģ ĠxÃŃng
ĠshÃ¬Ġ zhÇĲĠ
tÃ¨ ĠlÇĲĠ
kÃłng ĠrÃ¬Ġ
ĠhÃ©Ġ xÄ«nĠ
mÃŃnĠ zhÃ²ngĠ
Ġ tuÅįĠ
wÄĵiĠ xiÃ©Ġ
ĠĠĠ 2015
shÅįu ĠlÃ¹Ġ
jiÃło ĠdeĠ
zhuÃłngĠ kuÃłngĠ
zhÃłnĠ dÃ²u
ĠjiÃ©Ġ mÃ¹Ġ
zhÃ²u Ġ
hu ÄģngĠ
lÃ¡n ĠkÃ¨Ġ
ĠĠĠ f
cÃ¡i ĠzhÃ¨ngĠ
ĠniÃ¡nĠ qÄ«ng
ĠzÃłiĠ 19
mÃ¡ng Ġ
wÃ¡ng ĠdeĠ
cÃ¡n Ġ
ĠjÃ¬Ġ zÇİiĠ
sÃł ĠkÃ¨Ġ
w ÅįĠ
Ġ qiÃ¡n
ĠĠĠ 2013
ĠzhÅįngĠ wÃ©nĠ
ĠrÃ©nĠ menĠ
Ġ 2019
12 ĠniÃ¡nĠ
suÄ« ĠrÃ¡nĠ
ĠhÃ©Ġ bÃ¬ngĠ
jÃ¬n ĠgÅįngĠ
gÄģoĠ dÃ¹Ġ
qÇĲ ĠyÃ¬Ġ
Ġ 2011
zhÃ²ngĠ diÇİnĠ
p Çİo
lÇľ ĠwÃ¨iĠ
shÃ© Ġ
le ĠtÄģĠ
ĠĠĠ zhÅįngĠguÃ³Ġ
zÄĵngĠ zhÇİngĠ
ĠbÃ¹Ġ duÃłnĠ
jÄ«ngĠ shÃ©nĠ
Ġ dÃ¡Ġ
yÄĽ ĠbÃ¨iĠ
a y
t ou
Ġ zhÅ«
lÃ¬ ĠshÃ¬Ġ
ĠxÄ«ĠbÄģnĠ yÃ¡
fÄĵiĠjiÃłnĠzhÃ¬Ġ dÃ¬ĠqÅ«Ġ
ÄĽn Ġ
Ġ chÄĵĠzhÃłnĠ
tÃºĠshÅ«Ġ guÇİnĠ
3 3
y ÄĵĠ
Ġ guÇİngĠ
dÅįu ĠhuÃ¬Ġ
ĠjÃŃĠ qÃŃ
Ġ ÅįuĠ
ĠwÃ©iĠ qÃŃĠ
xÃ¬ĠtÇĴng ĠdeĠ
rÃ¹ nĠ
liÇİng ĠrÃ©nĠ
hÇİi ĠdÃłoĠ
yÃŃngĠ yÃ¹nĠ
hÃº nĠ
ĠdÃłĠ lÃ³uĠ
shÃłngĠ shÅ«Ġ
Ġ guÄ«Ġ
mÃŃnĠ zÃº
Ġ Ã©ĠluÃ³ĠsÄ«Ġ
Ãło ĠdÃ¬ĠlÃ¬Ġ
18 Ġ
pÇĲ Ġ
ĠshÃ¬Ġ jÃŃĠ
ĠhÃ©Ġ zhÅįngĠ
Ġ lÇľĠ
lÇĲngĠdÇİo ĠrÃ©nĠ
jiÄģng ĠxÄ«Ġ
liÇİng ĠniÃ¡nĠ
jiÃ©Ġ hÅ«nĠ
ĠshÄĵngĠ huÃ³
ĠzhÅįngĠguÃ³Ġ gÃ²ngĠchÇİnĠdÇİngĠ
ĠyÄ«n ĠÃ©rĠ
yÄ«n ĠshÃ¬Ġ
tÃłiĠ yÃ¡ng
mÇĴuĠ xiÄĵĠ
ĠjÃ¬nĠ rÃ¹
cÄģnĠjiÄģĠ leĠ
Ġ yÃ¡ng
yuÃ¨ ĠzÃłiĠ
jiÃ© ĠkÃ¨Ġ
huÃł ĠwÃ¨iĠ
ĠdeĠchÃ©ngĠ yuÃ¡nĠ
A S
xÃ¬Ġ bÄģo
a i
jÃ¹ ĠdeĠ
ĠhÃ©Ġ chÃ©ngĠ
ĠjÃ¬Ġ suÃłn
ĠC Ġ
nÃł ĠlÇĲĠ
zhÄĽn Ġ
Ġ chuÃłngĠ
Ġ zÃłoĠchÃ©ngĠ
xiÃłoĠ guÇĴĠ
diÃłoĠ chÃ¡
Ġ 4ĠyuÃ¨Ġ
zh ÄģiĠ
Ġ jÇĲn
yÇĲnĠ fÄģĠ
shÄĵn ĠwÃ¨iĠ
jÅ« ĠzhÃ¹Ġ
zhÃ¡ Ġ
xiÃłĠjÃ¬Ġ ÃłoĠlÃŃnĠpÇĲĠkÃ¨ĠyÃ¹nĠdÃ²ngĠhuÃ¬Ġ
Ġ quÃ¡nĠguÃ³Ġ
40 Ġ
ĠzhÃ¨ngĠ zhuÃłngĠ
nu Ã³Ġ
Ġ ÄģiĠ
suÃ¬ ĠdÃłoĠ
yÃ²ngĠ hÃ¹Ġ
shÃŃĠ jiÄģnĠ
chÃłngĠ piÃłn
chÇİnĠ shÄĵngĠdeĠ
es Ġ
Ġ ruÃ²
ĠĠĠ zhĠ
shuÅį ĠmÃŃngĠ
jiÄģngĠ sÅ«Ġ
r an
ĠlÇĲĠ lÃ¹nĠ
9 ĠrÃ©nĠ
Ġ fÄģngĠ
ĠdÃłĠ xÃŃngĠ
chÇİnĠ pÇĲn
fÇİngĠ wÃ¨nĠ
10 ĠniÃ¡nĠ
ĠhuÃ²ĠdÃ©Ġ leĠ
Ġ gÄģnĠ
qu ÇİnĠ
zhÃŃ ĠdÃłoĠ
ĠzhÄ«Ġ xiÃłĠ
ĠzuÃ²Ġ pÇĲn
Ġ 00Ġ
suÄ« ĠrÃ¡n
ĠzÃłiĠ jiÄģĠ
ĠĠĠjiÄģĠ zÃºĠ
lÃ¡n ĠqiÃºĠ
yÅįu ĠshÃ¬Ġ
ĠgÅįngĠ rÃ©nĠ
pÇĲnĠ pÃ¡iĠ
ĠdÃłĠ duÅįĠ
zhÅįu ĠdeĠ
jiÃ¨ ĠdeĠ
Ġ mÃłnĠ
gu ÃłĠ
huÃ¡ ĠrÃ©nĠ
Ġ 2008ĠniÃ¡nĠ
jÃ¬ ĠshÃŃĠ
Ġ lÃŃĠ
Ġ 2005ĠniÃ¡nĠ
xiÇİn ĠdeĠ
zhÃłnĠ dÃ²uĠ
ÃłoĠ yÃ¹nĠhuÃ¬Ġ
Ġ xÇĶĠduÅįĠ
Ġ 2011ĠniÃ¡nĠ
ĠshÃ¬Ġ rÃ©nĠ
sÃ¹ ĠdeĠ
Ġ hÃ²u
ĠshÃ¬Ġ zhÃ¨n
ĠyuÃ¨Ġ nÃ¡nĠ
ĠjÃŃĠ lÃ¬Ġ
Ġ yÇĴuĠshÃŃĠ
bÃłoĠ dÇİoĠ
hÃ¡nĠ shÃ¹Ġ
qÇĶ ĠdÃ©
jÃ¬nĠ rÃ¹
ÃłoĠ mÃ©nĠ
yÇĶnĠ xÇĶĠ
Ġ biÃłn
dÃ¬ng ĠleĠ
ĠdÃłnĠ yÃ³uĠyÃºĠ
xiÇİoĠ shuÅį
a v
wÇĶĠ zhuÄģngĠ
ĠshÃ¬ĠwÃ¨iĠ leĠ
tiÃ¡oĠ zhÄĽngĠ
mÇİ ĠsÄ«Ġ
xÃŃ ĠwÃ¨iĠ
ĠxÄ«Ġ lÃł
jÃ¹Ġ lÃŃĠ
huÃŃĠ yÃ¬ngĠ
ĠyuÃ¨Ġ tÃ¡iĠ
mÄĽiĠ shÃ¹Ġ
shÃº Ġ
zhÅįng ĠwÃ¨iĠ
yÇĴu ĠbÃ¹Ġ
yuÃ¡n ĠzÃłiĠ
chu Ã¡ng
mÃ¬ngĠ lÃ¬ngĠ
Ġ shÃ¨ng
jiÄģ ĠzhÅįngĠ
jiÃłn ĠshÃ¨Ġ
zhÄĵn ĠshÃŃĠ
wÃ©nĠ zÃ¬Ġ
ĠdÃ¬Ġ wÇĶĠ
zhÅįngĠ huÃ¡ĠrÃ©nĠmÃŃnĠgÃ²ngĠhÃ©ĠguÃ³Ġ
xuÃ©Ġ shÃ¹Ġ
6 5
Ġ xiÇİng
yÃ¬n ĠdÃ¬Ġ
jiÃłoĠ liÃłnĠ
xÄ«ngĠ qÄ«Ġ
ĠĠĠ and
jÄ«n ĠdeĠ
yÃŃĠ chÇİnĠ
g ÇĴngĠ
fÄĵiĠ lÇľĠ
ĠdeĠgÅįngĠ zuÃ²Ġ
3 4
ĠzhÄ«Ġ hÃ²u
2020ĠniÃ¡nĠ mÄĽiĠguÃ³ĠrÃ©nĠkÇĴuĠpÇĶĠchÃ¡ĠdeĠshÃ¹ĠjÃ¹Ġ
chu Ã¡ngĠ
jÇĶ ĠxÃŃng
a li
fÃ¡ng ĠyÃ¹Ġ
yÃŃĠ mÃŃnĠ
ĠĠĠ 2025
qÅ«Ġ yÃ¹
ĠzhÅįu ĠniÃ¡nĠ
shÃ¹Ġ zÃ¬Ġ
liÃ¨Ġ biÇİoĠ
tÃŃĠ gÄģoĠ
ĠshÃ¬Ġ wÄĵiĠ
ĠlÃ¡iĠ zÃ¬Ġ
Ġ xiÃłoĠ
Ġ wÇİngĠ
ĠrÃ¨nĠ wÃ¹Ġ
- -
ĠxiÃłn ĠyÃºĠ
jÄ«Ġ chÇİngĠ
yÇĲĠ lÃ¡iĠ
le ĠtÄģĠdeĠ
huÃ¬ ĠyuÃ¡nĠ
huÃł ĠjiÄģĠ
wÇİ ĠÄĽrĠ
jÃ¬Ġ lÃ¹Ġ
ĠjÄ«Ġ guÄģnĠ
z Ã¨ngĠ
dÄĽng ĠwÃ¨iĠ
dÅ« ĠshÃ¬Ġ
ĠshÃŃĠ yÄ«Ġ
leĠ yÃŃĠgÃ¨Ġ
a te
ch ÅįuĠ
shÅ« ĠdeĠ
ĠĠĠI n
shÄģnĠ mÃłi
ĠshÃŃĠ qÄ«
wÇĶĠ tÃ¡iĠ
yÄģoĠ qÇĲngĠ
jiÄĵ ĠjÃŃĠ
duÃłn ĠdeĠ
shÄĵnĠ qÇĲngĠ
liÇİngĠ zhÇĴngĠ
Ġ zuÇĴĠ
ĠĠĠ zÇİoĠniÃ¡nĠ
kÃ¨ ĠlÇĲĠ
ĠhÃ©Ġ xÄ«Ġ
ĠrÃ¬Ġ jÅ«nĠ
tu Ã³
zÇĶ ĠjiÃłnĠ
de r
Çİi Ġ
jÄ«ng ĠlÇĲĠ
yÃ¡n ĠdeĠ
shÃ©nĠ jÄ«ngĠ
Ġ huÃ¡ng
dÅįng ĠjÃ¬Ġ
yÃŃng ĠdeĠ
huÄģ ĠyuÃ¡nĠ
ĠjiÄģĠ rÃ¹
shÇĴuĠ dÅ«Ġ
t Ä«Ġ
yuÄĵ ĠyÇĴuĠ
shÄĵng ĠjÃŃĠ
miÃłn ĠduÃ¬Ġ
xiÃł ĠyÄ«Ġ
a me
u m
Ġ qÄ«
Ġ 2018
ĠlÃ¬Ġ shÇĲ
chÃ¨ nĠ
ĠshÃ¨ ĠjÃŃĠ
ĠhÃ©Ġ lÃ¡nĠ
ĠzhÃ¬Ġ shÃŃĠ
gÄģoĠ dÄĽngĠ
fÃ¹Ġ jÃ¬nĠ
ĠzhÃ¬Ġ lÃ¬Ġ
ĠshÃ¬Ġ dÃłĠ
ĠsuÇĴ ĠyÇĲ
yuÃ¡n ĠjÃŃĠ
mÇĲ ĠdeĠ
quÃ¡nĠ miÃłnĠ
zÄ«Ġ jÄ«nĠ
ĠzÃ¬ĠjÇĲ ĠdeĠ
guÄģnĠ xÃ¬
fÄĽn Ġ
jÄ«ngĠ chÃ¡ngĠ
mÄĽiĠ guÃ³ĠdeĠ
wÃ¡nĠ quÃ¡n
lÇĲngĠ tÇĶĠ
Ġ 3ĠyuÃ¨Ġ
Äģi ĠjÃŃĠ
Ġ zhÃ¨nĠ
chÄĵng ĠzuÃ²Ġ
ĠrÃ©nĠ mÃŃn
ĠmÃŃngĠchÃ¡oĠ zhÃ¨ngĠzhÃ¬ĠrÃ©nĠwÃ¹Ġ
Ġ shÃ²u
ĠrÃ©nĠ lÃ¨i
jiÃłoĠ xuÃ©Ġ
Ġ xÃº
Ġ zhÅįngĠdeĠ
ĠĠĠ xÄ«nĠ
ĠzÃłiĠ xÄ«Ġ
yÃ²ngĠ zuÃ²Ġ
jiÇĶĠ diÃłnĠ
ĠwÇĴĠ menĠ
ĠĠĠ 2024
ku Ã¡ngĠ
ĠjÃ¬Ġ zhÄĽĠ
ĠshÃ¬ĠyÄ«Ġ zhÇĴng
6 8
wÃ©n ĠxiÃłnĠ
ĠxiÄģngĠ guÄģnĠ
cÄģnĠ mÃ³u
h o
lÇĲĠ lÃ¹nĠ
zhÃ¨ngĠ mÃŃngĠ
nÇĶ ĠlÃ¬Ġ
ĠyuÃ¡nĠ mÃŃngĠ
lÃ¹ ĠjÅ«n
ĠzhÅįngĠ yÃºĠ
ĠjÄ«Ġ chÄĵĠ
ĠniÃ¡nĠ dÃłi
dÃ²ngĠ wÃ¹
biÄģn ĠhÃłoĠ
ĠxiÃłn ĠhÃ©Ġ
ĠĠĠ hÃ²uĠ
guÄ«Ġ zÃ©Ġ
Ġ jiÄģoĠ
ĠĠĠ yÃ³uĠ
ĠĠĠ tÄģĠ
ĠyÃ¬Ġ yÃ¬Ġ
ĠjÃ¬n ĠxÃŃng
ĠguÃ³Ġ huÃ¬Ġ
ĠgÅįngĠ huÃ¬Ġ
ĠyuÃ¡nĠ gÅįngĠ
f Ġ
pÄģi Ġ
qi ÃłĠ
ĠchÃ©ngĠ xiÃłnĠ
nÃ¨iĠ lÃ¹Ġ
qÃ¬Ġ xiÃłngĠ
ĠnÃ¡n ĠzhÃ¬Ġ
m ÄģĠ
zhÇİo ĠdÃłoĠ
ĠgÅįngĠ chÇİngĠ
wÃ¡ngĠ chÃ¡o
lÇļ ĠxÃŃngĠ
ĠfÃ¹Ġ zÃ©
ĠdÃ¬ĠyÄ«Ġ cÃ¬Ġ
wÄĵi ĠjÄ«Ġ
ĠshÃ¬Ġ hÃ²uĠ
Ġ zhÄģo
yÇĴu ĠzÃłiĠ
25 ĠniÃ¡nĠ
jiÃłoĠ shÄ«Ġ
bÇİoĠ liÃºĠ
e st
Ġ hÃ¡nĠguÃ³Ġ
tÃłi ĠrÃ©nĠ
ĠhÃ©Ġ gÅįngĠ
zhÇĶĠ chÃŃ
wÃ©nĠ zhÄģngĠ
wÃ©n ĠyÃ¬Ġ
zhÄ«Ġ jiÄģnĠ
bÃ¨i ĠshÃ¬ĠwÃ¨iĠ
tÃŃ ĠdÃłoĠ
xiÃłĠ lÃ¬ng
fÇİĠ ÃłnĠ
ĠyÃ¬Ġ fÄģngĠmiÃłnĠ
ĠmÄĽi ĠniÃ¡nĠ
bÇİoĠ chÃŃ
e g
Ġ zhÃ¨ng
tiÄģn ĠdeĠ
ĠyÃºĠ 194
cÃ¡iĠ liÃłoĠ
kÄĽĠyÇĲ ĠzÃłiĠ
gÃ© ĠwÃ¨iĠ
ĠniÃ¡n ĠshÃ¬ĠjiÃ¨Ġ
qÇĲĠ yÃ¨
d ÇĶĠ
jÄ«nĠ shÇĶĠ
kÅįng ĠzhÅįngĠ
zhÃ¹ ĠlÇĲĠ
kÇĴng ĠbÃ¹Ġ
ĠguÃ³Ġ fÃ¡ng
dÅįngĠ nÃ¡nĠbÃ¹Ġ
biÇİoĠ miÃłnĠ
bÃ¡iĠ sÃ¨Ġ
shÇĴu ĠjÄ«Ġ
tÅįng ĠdÃłoĠ
ĠshÃŃĠ Ã¨rĠ
qÃŃĠzhÅįngĠ yÄ«ĠzhÇĴngĠ
zuÃ² ĠwÃ¨iĠ
17 Ġ
dÃłi ĠlÇĲĠ
ĠbÃ¹Ġ mÃ©n
lÃ¬ ĠwÃ¨iĠ
shÅ« ĠjÃŃĠ
ĠÃ©r ĠchÃ©ngĠ
a ng
Ġ lÇĲ
zuÃ²Ġ yÃ²ngĠ
gÃ¹Ġ wÃ¨nĠ
yÇĲ ĠxiÃłĠ
ju ÃłnĠ
bÃ¡ Ġ
dÃłĠ lÃ¹ĠdeĠ
xiÄģngĠ guÄģn
yÃŃĠ zhÇĲĠ
yÇİn ĠyÃ¬Ġ
Ġ 2016
ĠzÃłiĠ 198
jÃ¬nĠ yÃŃĠbÃ¹Ġ
ĠzuÃ²Ġ wÃ©i
yÇĲnĠ qÇĲĠ
jÄ« ĠhÃ©Ġ
bÅįĠ lÃ¡n
jÃ¬ng ĠdeĠ
ĠdÃłoĠ dÃ¡Ġ
wÇĴĠ men
lÃ¡oĠ dÃ²ngĠ
Ġ wÃ¹Ġ
shÄ«Ġ fÃłn
tÃºn Ġ
S T
Ġ Ã©Ġ
ĠzÃłiĠ wÃ¨iĠ
tÅįngĠ chÄĵĠ
zhÇĶ ĠdeĠ
ne Ġ
ĠzÃłiĠ 18
ĠyÇĴuĠ jÄ«Ġ
ĠfÃ¹Ġ qÄ«nĠ
Ġ2001ĠniÃ¡nĠ rÃ©nĠkÇĴuĠ
ĠhÃ©Ġ shÃŃĠ
dÃło ĠlÃ¹Ġ
3 00
huÃ¬ ĠshÃ¬Ġ
ĠbÄĽiĠ qÇĲĠ
Ġ18 8
chÃ©ng ĠniÃ¡nĠ
sÇĲ ĠhÃ²uĠ
Ġ yÄ«ngĠyÇĶĠ
duÅį ĠrÃ©nĠ
chÃ¡ng ĠdeĠ
zhÃłoĠ kÄģiĠ
sÄ« ĠlÃ¬Ġ
ĠzhÅįngĠguÃ³Ġ dÃłĠlÃ¹Ġ
cÃ©ngĠ jÄ«ng
yÃłĠlÃ¬ĠshÄģn ĠdÃłĠ
28 ĠniÃ¡nĠ
ĠyÇĲĠ bÃ¨iĠ
4 4
Ġ 2007ĠniÃ¡nĠ
zÃ© ĠwÃ¨iĠ
ĠpÃŃngĠ miÃłnĠ
jÅ«Ġ mÃŃn
Ġ xuÄģnĠbÃ¹Ġ
zhÇĶ ĠlÃ¬Ġ
liÃº ĠzÃłiĠ
nÃŃ ĠkÃ¨Ġ
ĠtÄģ ĠwÃ¨iĠ
ĠtÄģĠ yÄĽĠ
tÃ¨Ġ shÅ«Ġ
Ġ à
ĠbÃ¹Ġ bÃ¹Ġ
ĠzhÄ«Ġ jiÄģn
S TĠ
dÃł ĠwÃ¨iĠ
yÇĲnĠ qÇĲ
ĠxiÃłnĠdeĠ yÃŃĠgÃ¨Ġ
ku ÄģngĠ
yÃ¹n ĠzuÃ²Ġ
dÃ¬Ġ Ã¨rĠ
yÇĲngĠ piÃłn
wÃºĠ fÇİ
lÇľĠ shÄ«Ġ
A R
jiÄģo ĠhuÃ¬Ġ
shÇĴu ĠgÃ¨Ġ
chÄĵ ĠdeĠ
tuÃ¬ ĠchÅ«Ġ
ĠÃ©rĠ yÃ¡nĠ
ĠxiÃłnĠdeĠ yÃŃĠgÃ¨
5 00
ĠsÄ«Ġ tÃ¨
ĠxÄ«Ġ wÃłng
yÃº ĠzÃłiĠ
ĠkÃ¨ ĠchÃ©ngĠ
jÇĲ ĠgÃ¨Ġ
ĠyÇĴuĠ yÃ¬Ġ
yÃłoĠ wÃ¹Ġ
xÄ«nĠjiÄģĠ pÅį
3 2
jÄ«n ĠhuÃ¬Ġ
fÄĵi ĠzhÅįuĠ
bÅįĠ lÃ¡nĠ
Ġ lÇİoĠ
Ġ 10Ġ
tu Ã³Ġ
ĠdeĠ jiÄģĠ
Ġ lÃ©iĠ
ĠĠĠ xiÃłĠ
biÃłn ĠdÃ©Ġ
ĠshÃ¬Ġ jiÄģĠ
ĠxÄ«Ġ sÄ«Ġ
jiÄģng ĠhuÃ¬Ġ
ĠchÃ©ngĠ xÃ¹Ġ
guÇİngĠ gÃłoĠ
ãĥ »
ĠdÅįngĠ nÃ¡nĠ
ĠÃ©rĠshuÇĲĠyÃ¹ĠmiÃłnĠjÄ«ĠwÃ¨iĠ 0
o s
Ã Ĺ
Ġ qiÃ¡oĠ
ĠzhÃ¬Ġ liÃ¡oĠ
ĠguÃ³Ġ jiÄģĠdeĠ
jÄ«nĠ pÃ¡iĠ
guÃ²Ġ qÃ¹Ġ
H Ġ
Ġ chÃ¡oĠ
dÃł ĠdÃ¬Ġ
qi ÄĵĠ
yÃł ĠzhÅįu
biÄģn ĠhÃło
ĠshÃ¬Ġ yÇĶĠ
ĠhÃ©Ġ qÃŃĠtÄģĠ
dÅįngĠ bÄĽiĠbÃ¹Ġ
5 8
sÃłi ĠzhÅįngĠ
ĠdeĠ zhÃ¬Ġ
ĠĠĠ 2012
mÃŃng ĠshÃ¬Ġ
ĠzhÄ« ĠwÃ¨iĠ
ĠbÃ¬ngĠ jiÄģngĠ
ĠĠĠ 1
kÄģng ĠxÄ«Ġ
ĠyÃºĠ 196
ÃłoĠdÃłĠlÃ¬Ġ yÃłĠ
Ġ chÄĵngĠwÃ©iĠ
60 Ġ
ĠbÃ¹Ġ dÃ©
zhÃŃĠ mÃŃn
gÃ²uĠ zÃłoĠ
huÄģnĠ yÃŃngĠ
bÄĽn ĠdÃ¬Ġ
biÄģn ĠjÃ¹Ġ
ĠyÃºĠ lÃ¨Ġ
zÃ¬Ġ yÃ³u
zhuÄģngĠ jiÇİĠ
dÄģngĠ shÃŃĠdeĠ
ĠchÃ©ngĠ rÃ¨nĠ
Ġ fÇİn
Ġ 2021
e v
suÇĴ ĠzÃłiĠ
fÃłngĠ qÃ¬Ġ
jÃ¹ ĠhÃ©Ġ
24 ĠniÃ¡nĠ
ĠjÃ¬nĠxÃŃngĠ leĠ
Ġ hÃ³ng
Ġ liÃ¡ngĠ
fÃº ĠyÃ¬Ġ
zhuÄģng ĠshÃ¬Ġ
nÇļĠ zÇĲ
huÃ²ĠdÃ©Ġ leĠ
ĠqiÃº ĠyuÃ¡nĠ
ĠĠĠ chÃ©ngĠ
p er
Ġ bÇĲ
Ġ dÃºĠ
ĠjiÃłnĠ zÃłoĠ
ĠÃ©rĠ gÄģiĠdÃ¬Ġ
mÃ¹Ġ biÄģo
ĠnÇļĠ xÃ¬ngĠ
Ġ hÄĽnĠ
Ġ chÃ¬Ġ
jiÃłn ĠyÃ¬Ġ
xiÄģn ĠshÄĵngĠ
ĠbÃ¹Ġ lÄģĠ
yÃ¬Ġ dÃłĠlÃ¬Ġ
yÇİnĠ chÃłngĠ
Ġ sĠĠĠ
fÇİĠ yuÃłn
Ġ fÃ©ngĠ
wÃ¡ngĠ chÃ¡oĠ
ĠwÃ¨iĠ yÇĴuĠ
biÇİoĠ dÃ¡
mÃ¡o ĠzÃ©Ġ
xiÃło ĠdeĠ
sÃł ĠsÄ«Ġ
ĠyÄ«Ġ jÃŃĠ
ĠbÃ¬ng ĠyÇĶĠ
Ġ chÃ¡
Ġ guÄģnĠyÃºĠ
ĠdÃłĠ lÃ¹Ġ
pÃºĠtÃ¡oĠ yÃ¡
jiÄģĠ rÃ¹
luÃ³ ĠdÃ¬Ġ
ĠwÃ¨iĠ lÃ¡iĠ
nÃ¡nĠ jÄ«ngĠ
e d
ĠĠĠ cÃ³ngĠ
lÃ¬ ĠzÃłiĠ
qÇĲng ĠqiÃºĠ
jÇĲn ĠjÃŃĠ
ĠjÃ¬nĠ yÃŃĠbÃ¹Ġ
shÅįu ĠshÃ¬Ġ
ĠjiÄģĠ zÃºĠ
quÃ¨ ĠrÃ¨nĠ
ĠjÃ¬n ĠgÅįngĠ
e m
Ġ000 Ġ
sÃł ĠÄĽrĠ
jÃ¬Ġ xÃ¹Ġ
xÄ«ĠbÄģnĠ yÃ¡
zhÄĽ ĠzÃłiĠ
guÄģnĠ bÃ¬Ġ
piÃłoĠ fÃ¡ngĠ
ĠĠĠ i
tÇİn ĠkÃ¨Ġ
cÃ¬Ġ shÇĲĠ
bÃ³ĠwÃ¹Ġ guÇİn
a ce
l ÃłnĠ
ĠdeĠ shÄĵngĠ
ĠshÃ¬Ġ fÇĴu
Ġ 20
ĠyÃ¬Ġ mÄĽiĠyuÃ¡nĠ
ĠjÃ¬Ġ shÃ¹
ĠjÄ«Ġ hÅ«Ġ
jÇĲngĠ fÄģngĠ
huÇĴĠ shÄģnĠ
yÄĽ ĠhuÃ¬Ġ
ĠyuÃ¨Ġ tuÃ¡nĠ
wÃłn ĠrÃ©nĠ
ĠtÄģĠmen ĠzÃłiĠ
ĠtÃ¨ĠbiÃ© ĠshÃ¬Ġ
huÇĴ ĠjiÃłnĠ
mÃ²ĠxÄ«Ġ gÄĵĠ
ĠsÄ«Ġ kÃ¨Ġ
bÇĲĠlÃ¬Ġ shÃŃĠ
biÄģn ĠdeĠ
zhÄģnĠ mÇĶĠsÄ«Ġ
d Äģ
â Ķ
juÃ© ĠduÃ¬Ġ
mÃŃnĠzhÇĶĠ dÇİngĠ
tÃłiĠpÃŃngĠ yÃ¡ng
ĠĠĠ s
tÃ³ng ĠniÃ¡nĠ
ĠshÃ¬Ġ zhÃ¨ngĠ
ĠchÅ«Ġ shÄĵngĠ
shÄĵnĠ tÇĲĠ
ĠqÄ«Ġ xÄ«ĠzÃłiĠ
Ġ huÃŃĠ
ĠshÃ¬Ġ rÃ¬ĠbÄĽnĠ
ĠyÇĲ ĠyÇĴuĠ
zhÇĴngĠ zÃºĠ
kÇİoĠ lÇľ
p ÇİoĠ
Ġ guÄģn
Ġ cÄģnĠ
shÃłngĠ wÇĶĠ
ĠzhÃłnĠ dÃ²uĠ
gÇĶĠ fÃ¨n
guÇİngĠdÅįngĠ shÄĽngĠ
ĠdeĠ zhÃ¨ngĠ
ĠbÃ¨iĠ rÃ¨nĠwÃ©iĠshÃ¬Ġ
Ġ fÃ¡ngĠ
Ġ 30Ġ
ĠĠĠ jiÃ©ĠzhÃ¬Ġ
nÃ¨i ĠyÇĴuĠ
wÃ¡n ĠgÅįngĠ
ĠzhÃ¬Ġ chÃ©ngĠ
mÃŃnĠ jiÄģnĠ
ĠdÃłĠ yuÄĵĠ
ĠyuÃ¡nĠ bÄĽnĠ
sÄĵnĠ lÃŃnĠ
chÇİng ĠhÃ©Ġ
15 ĠniÃ¡nĠ
ĠzhÄ«Ġ ziĠ
fÃ¹Ġ qÄ«n
tÃ¨Ġ sÃ¨Ġ
bÄģĠ lÃŃ
ĠzÃłiĠ qÃŃĠ
hÃºĠ bÄĽiĠ
19 ĠniÃ¡nĠ
gÃ¨ng ĠduÅįĠ
gÄģoĠ sÃ¹Ġ
ĠA Ġ
o g
Ã¨r ĠyuÃ¨Ġ
ĠzhÄ« ĠdeĠ
ĠdÃłĠ dÃłoĠ
ÄģnĠ pÃ¡iĠ
qÃŃngĠ bÃłoĠ
xÃŃĠ xÃ¬ng
Ġ kuÄģn
Ġ wÄĽiĠ
ĠrÃ©nĠ men
ĠsÄ«Ġ tÇİn
yÃ²ngĠ tÃºĠ
mÃ¬Ġ mÃ¬Ġ
dÄĵng ĠshÃłngĠ
ĠxiÃłnĠ chÇİngĠ
dÃłiĠbiÇİo ĠdÃłĠhuÃ¬Ġ
ĠĠĠ zÄĵngĠ
wÃłi ĠbÃ¹Ġ
18 ĠniÃ¡nĠ
ĠrÃ¬Ġ jÅ«n
ĠfÃ¹Ġ qÄ«n
kÇİoĠ lÇľĠ
Ġ yÅįngĠyÇĴuĠ
ĠshÃŃĠ yÃłnĠ
jÄ«Ġ chÇĶĠ
mÃ©ngĠ gÇĶ
xiÃło ĠyuÃ¡nĠ
hÇİiĠ ÃłnĠ
pÄģi ĠshÃ¨
Ã©ĠluÃ³Ġ sÄ«
ĠyÇĴuĠ xiÃłnĠ
ĠyuÄĵĠ hÃłnĠ
l ÄĽng
ï¼ ħ
Ġ xiÅ«Ġ
Ġ 2013ĠniÃ¡nĠ
ĠyuÃ¡nĠ sÃ¹Ġ
m Ã¡
Ġ 2015
ĠshÃ¬Ġ yÃ¨Ġ
d a
nÃ¡n ĠyÇĲĠ
tÃ¡iĠ fÄĵngĠ
ĠdÃłĠ duÅįĠshÃ¹Ġ
Ġ xiÃł
h Çİn
lÃŃ ĠmÇĲĠ
zhuÄģng ĠbÃ¨iĠ
zuÃ²Ġ zhÃłnĠ
tiÄģnĠ jÄ«nĠ
mÄĽi ĠgÃ¨Ġ
ma Ġ
ĠtÄģ ĠyÃºĠ
xÃ¬ngĠ qÃ¹Ġ
jiÄģoĠ liÃºĠ
tÇĶĠÄĽr ĠqÃŃĠ
qiÄģn ĠzhÃ¬Ġ
âĶ Ģ
Ġ tÇĶĠ
chÇİng ĠdÃ¬Ġ
27 ĠniÃ¡nĠ
tiÄģnĠ jÄ«n
lÃ³ngĠ jiÄģngĠ
ĠyÄ«ngĠ wÃ©nĠ
qiÃ³ng Ġ
ĠwÃ¨iĠ xÄ«ngĠ
xiÄģngĠ dÄģng
dÇİo ĠdÃłnĠ
ĠjÄ«Ġ bÃłi
ĠqÄ«ngĠ chÃ¡oĠ
Ġ gÇİngĠ
Ġ jÄ«ngĠjÃ¬Ġ
nÃ©ng ĠzÃłiĠ
21 ĠniÃ¡nĠ
ĠjÃŃĠ bÄĽiĠ
ĠyÇĴuĠ xiÄĵĠ
zhÃłnĠ lÇĲngĠ
ĠchÅ«Ġ lÃ¡iĠ
bÅįĠ fÃłngĠ
Ġ xiÃłng
ĠwÃłn ĠmÄĽiĠyuÃ¡nĠ
pÃ¬ nĠ
bÃłn ĠlÇĲĠ
22 ĠniÃ¡nĠ
ĠzhÄ« ĠdÃłoĠ
Ġ 2006ĠniÃ¡nĠ
ĠbÃ¹Ġ zÃºĠ
ĠtÄģĠ hÃ¡iĠ
3 ĠgÃ¨Ġ
shÃłng ĠdÃ¬Ġ
lÇĲng ĠshÃ¬Ġ
6 4
lÇĲ ĠgÅįngĠ
chuÃ¡nĠ shuÅįĠ
mÇĶĠ qÄ«n
Ġ hÃ¨Ġ
Äģi ĠÄĽrĠ
chÃ¡ng ĠjiÃłnĠdeĠ
zhÃłngĠ ÃłiĠ
mÇİĠlÃ¡i ĠxÄ«ĠyÃłĠ
19 Ġ
13 ĠniÃ¡nĠ
nÃ³ngĠ yÃ¨
li ÇĶĠ
ĠyÃ¬Ġ yuÃłn
guÇİngĠ fÃłn
ĠbÃ¹Ġ jiÇĶ
ĠchÃ©ngĠ dÃ¹Ġ
Ġ zhÅįngĠshÃ¬Ġ
ĠĠĠ mÃŃngĠ
dÃ¬ ĠzÃłiĠ
shu ÄģĠ
jÃ¹Ġ juÃ©Ġ
jÃ¬nĠxÃŃngĠ leĠ
rÃ¨n ĠshÃŃĠ
xiÅ« ĠzhÃ¨ngĠ
huÃ¡Ġ shÃ¨ngĠ
wÇĴĠ menĠ
zhu ÅįĠ
shÃ²u ĠdÃło
guÃ¬ ĠzhÅįuĠ
ÄģnĠ quÃ¡n
yÇĲnĠ qÃŃngĠ
s Ãº
ĠĠĠ 2
14 ĠniÃ¡nĠ
xÇĲ ĠjÃ¹Ġ
ĠgÅįngĠ zhÇĶĠ
xÃŃĠxÃ¬ng ĠbÃ¹ĠmÃŃngĠ
ĠĠĠ 4
Ġ fÃ¨i
ĠĠĠ qÃŃĠ
se Ġ
ter Ġ
fÇİĠ guÄģnĠ
xÅ«n Ġ
Ġ 2013
ĠchÅ«Ġ qÄ«Ġ
rÃ¨nĠmÃ¬ng ĠwÃ¨iĠ
Ġ kÄģngĠ
ĠshÇĲ ĠjiÃłnĠyÃºĠ
Ġ mÃ²
shÄĵng ĠchÃ©ngĠ
ĠjÄ«Ġ hÅ«
ĠĠĠ mÄĽiĠguÃ³Ġ
lÄģĠ dÄ«ng
Ġ 7Ġ
ĠĠĠ xiÃłn
ĠzÃłiĠ cÇĲ
wÇİngĠ luÃ²
chuÃłngĠ bÃłn
Ġ liÃ¨Ġ
ĠshÄĵngĠhuÃ³Ġ xÃŃĠxÃ¬ngĠbÃ¹ĠmÃŃngĠ
s ÇİnĠ
Ġ jÃ¹ĠyÇĴuĠ
shÃ¨ ĠzhÃ¬Ġ
zhÇĶ ĠshÃ¬Ġ
tÃŃ ĠchÅ«
biÃłn ĠwÃ¨iĠ
zhu Ã¬Ġ
ĠyÃ¬Ġ qÇĲ
ĠqÃŃ ĠzÃłiĠ
ĠzhÃłnĠ dÃ²u
ÄģnĠ nÃłĠ
cÇİiĠ qÇĶĠ
Ġ gÄģo
Ġ 2014
ar i
ĠhÃ©Ġ hÃ©Ġ
bÃłoĠ fÄģ
zhÃ¬ ĠzhÅįngĠ
hÄĽn ĠdÃłĠ
6 7
Ġ cÄģnĠjiÄģĠ
11 ĠniÃ¡nĠ
ĠbÃ¹Ġ luÃ²Ġ
Ġ pÃ¨i
Ġ bÇİiĠ
huÃłĠhÃ©Ġ wÃ¹Ġ
Ġ 2012ĠniÃ¡nĠ
sÄģn ĠshÃ¬Ġ
ĠÃ©rĠ bÃºĠshÃ¬Ġ
ĠshÃŃĠ dÃłi
yÃ¡nĠ shÄĵn
quÃ¡nĠ zhÇİngĠ
tÃŃĠgÅįngĠ leĠ
ĠwÇĴĠ men
bÃło ĠlÃ¬Ġ
29 ĠniÃ¡nĠ
zhÇĶĠ yÃ¬ĠdeĠ
ĠĠĠ lÇĲĠ
ĠyÄ«Ġ xuÃ©Ġ
shÃłngĠ yÃ¬ngĠ
Ġ0 Ġ
l Ã²uĠ
jÃ¬ ĠshÃ¬Ġ
9 9
Ġ chÄĵng
shÅ«Ġ rÃ¹Ġ
ĠtÅįngĠ chÃ¡ng
jiÄģĠlÃ¬Ġ fÃºĠ
Ġ tiÄģn
Ġ pÃ¨iĠ
Ġ chÇĶĠyÃºĠ
ĠyÇĴuĠ yÃŃĠgÃ¨Ġ
ĠxiÃłnĠ xiÃłngĠ
zÄ«Ġ chÇİnĠ
ĠyÄĽĠ jiÃ¹ĠshÃ¬Ġ
zhÃ¬ ĠbÃ¹Ġ
suÃ¬ ĠshÃŃĠ
zuÃ¬Ġ gÄģo
Ġ gÄĵnĠjÃ¹
fÇİ ĠyÇĶĠ
ĠzÃłiĠ nÃ¨iĠdeĠ
ÄģnĠ zhuÄģng
hÇİiĠ wÃłiĠ
ĠzuÃ¬Ġ gÄģoĠ
Ġ jÄ«ng
zhuÇİn ĠxiÃłngĠ
23 ĠniÃ¡nĠ
ĠdeĠ fÄģngĠshÃ¬Ġ
Ġ 30
ĠÃ©r ĠbÃ¹Ġ
lÇĲngĠ xiÃ¹Ġ
tuÄ« ĠjÃ¬nĠ
pÃŃngĠ lÃ¹nĠ
jiÃłĠ gÃ©Ġ
ĠĠĠcÇĲĠ wÃłiĠ
Ġ ruÃ¬Ġ
mÇİ ĠlÇĲĠ
chuÃłng ĠjiÃłnĠ
bÄ«n ĠhÇİiĠ
shÃ¹n ĠlÃ¬Ġ
o h
dÄģngĠ xuÇİnĠ
Ġ 2017
lÃ©i ĠsÄ«Ġ
ruÇİn ĠjiÃłnĠ
zhÃ¨ngĠ dÇİngĠ
ĠyÃ³u ĠqÃŃĠshÃ¬Ġ
li ÇİnĠ
yuÃłn ĠshÃ¬Ġ
ĠshÄĵngĠ zhÇİng
xÃºnĠ yÃ¡ng
ĠxÃŃngĠ zhÃ¨ng
wÇİng ĠqiÃºĠ
ĠzÃłiĠ dÃ¹Ġ
1 ĠlÃ¬Ġ
a st
ĠshÄĵngĠ chÇİn
lÃ¹nĠ wÃ©nĠ
Ġ gÃ²ngĠyÇĴuĠ
nÇļĠ xÃ¬ng
ĠhÃ©Ġ bÃ¹Ġ
ĠdÃłĠ shÃł
fÄģngĠ miÃłnĠdeĠ
tÃ³uĠ zÄ«
n Ãº
Ġ bÃ³
la y
yÃ¬ngĠ yÃ²ng
p Ã©n
Ã¡i Ġ
jiÃło ĠshÃ¬Ġ
yÄ«ng ĠlÇĲĠ
diÃłnĠ zi
bÇİnĠ bÄĽn
ĠxiÃłngĠ mÃ¹Ġ
gÃ¨Ġ zhÇĴngĠ
pÃ¡iĠmÃŃng ĠdÃ¬Ġ
nÇĶ Ġ
gu Ãł
zÃ© ĠrÃ¨nĠ
biÇİoĠ dÃ¡Ġ
Ġ gÃ©
yÃº ĠdeĠ
bÃº Ġ
rÃ©nĠ dÃłĠ
ĠdÃ© ĠÄĽrĠ
ĠhÃ²uĠ xuÇİnĠrÃ©nĠ
A M
jÃ¹Ġ lÃ¨ĠbÃ¹Ġ
Ġ bÄģnĠ
yÃ¬ ĠniÃ¡nĠ
Ġ gÃ²ng
tÃłiĠ ziĠ
bÃłoĠ gÃło
ĠdÅįngĠ bÄĽiĠ
ĠbÄĽiĠ jÄ«ngĠ
jiÇĶĠ lÃ³ngĠ
fÃłnĠwÃ©iĠ nÃ¨iĠ
lÇĲng ĠdÃ¬Ġ
ĠhÃ©Ġ dÃłĠ
ĠĠĠ qiÃ¡nĠ
zhÃ¨ ĠlÇĲĠ
ĠshÃ¬Ġ gÃ¹Ġ
zhÃŃĠ jiÄĵ
ĠĠĠjÃ¹Ġ qÃŃngĠ
ĠĠĠ xiÃłnĠ
xiÄģng ĠshÃ¬ĠdÃ¬Ġ
ĠyÃºĠ rÃ©nĠ
ĠrÃ¬Ġ bÃłoĠ
Ġ Ã
xÃŃng ĠchÃ©ngĠ
fÄģ ĠxÃŃngĠdeĠ
shÃ©nĠ meĠ
fÄĵng ĠwÃ¨iĠ
pÃłi ĠdeĠ
ĠzhÃ¬Ġ shÇİoĠ
jÄ«ngĠ yÃłnĠ
n a
p ÄĵnĠ
dÃºĠ lÃ¬ĠdeĠ
ĠtÄģ ĠhÃ©Ġ
guÃ²Ġ qÃ¹
Ġ hÇİi
Ã© ĠguÃ³Ġ
ĠyÇĴuĠ xiÃłoĠ
ĠzhÄ«Ġ fÃ¹Ġ
hÃ¨ ĠÄĽrĠ
ĠzhÅįngĠ bÃ¨iĠ
e w
Ġ xuÄģnĠ
ĠjÃ¬Ġ suÃłnĠ
ĠlÇĲĠ lÃ¹n
chÅ«Ġ shÄĵngĠyÃºĠ
Ġ jÃ¹
guÄģnĠ diÇİnĠ
jiÃ¹Ġ dÃº
wÄĵn ĠdÃ¹Ġ
ĠlÃ¬ng ĠyÄ«Ġ
Ġ wÃ²
ĠshÃ¬Ġ xÄ«Ġ
jÃ¬Ġ chÃ©ngĠ
bÇĲĠ yÃł
li ÇĶ
kÇİ ĠsÄ«Ġ
ĠyÄ«Ġ xiÇİoĠshÃŃĠ
ĠdÃłĠ xÄ«ĠyÃ¡ngĠ
pÃ¡iĠ hÃ¡ngĠ
Ġ qÇĲ
Ġ gÄģngĠ
fÄģngĠ yÃ¡nĠ
ĠĠĠ ÄģĠ
ĠniÃ¡n ĠĠĠ
mÃŃngĠ zÃ¬Ġ
ĠdÃ©Ġ huÃ¡Ġ
pÇĶĠ biÃłnĠ
ĠdÅįngĠ lÃŃnĠ
wÃ¨i ĠĠĠ
juÃ© ĠyÃ¬Ġ
ĠzuÃ²Ġ jiÄģĠ
dÇİng ĠyuÃ¡nĠ
chÅ«Ġ shÄĵnĠ
Ġ 2014ĠniÃ¡nĠ
mÃŃng ĠrÃ©nĠ
qÅ« ĠyÃ¬ĠhuÃ¬Ġ
ĠdÃłĠ fÃºĠ
huÃłn ĠchÃ©ngĠ
hÃ³ngĠ sÃ¨Ġ
dÃł ĠzhÃ¬Ġ
xiÃłn ĠzhÃ¬Ġ
Ġ zhuÄģngĠ
ĠchÅ«Ġ zhÃłnĠ
ĠbÃ¬ngĠ fÄĵiĠ
nÃ¨iĠ gÃ©Ġ
ĠjiÃ©Ġ guÇĴ
ĠĠĠdÃ¬Ġ fÄģngĠ
fÃ©n Ġ
mÇİ ĠÄĽrĠ
zhÃ²ngĠ duÅįĠ
Ġ shÅįuĠ
Ġ sÄģiĠ
ĠyÇĶĠ mÃ¡o
ĠbÃ¬ng ĠbÃ¨iĠ
zhÃŃĠ dÇİoĠ
Ġ yÃŃnĠ
qÅ« ĠhÃ©Ġ
bÄĽn ĠrÃ©nĠ
ĠyÄ«Ġ tÃ³ngĠ
ĠzhÅįngĠhuÃ¡ĠrÃ©nĠmÃŃnĠgÃ²ngĠhÃ©ĠguÃ³Ġ zhÃ¨ngĠzhÃ¬ĠrÃ©nĠwÃ¹Ġ
I n
zuÃ² ĠshÃ¬Ġ
rÃ¹Ġ xuÇİnĠ
n Ã¨
liÇİng ĠmÃŃngĠ
hÃ¡n ĠyÇĴuĠ
ĠzÃłiĠ cÃ¬
tÃ³uĠ xiÃ¡ngĠ
kÄĵĠdeĠ qÃŃĠzhÅįngĠyÄ«ĠzhÇĴngĠ
ĠgÅįngĠ yÃ¬Ġ
ĠxiÃłn ĠshÃ¬Ġ
yÃŃĠ dÃ¹Ġ
zhÄ«Ġ chÃŃ
p h
Ġ tÇİĠ
yÃŃĠ dÃ¬ngĠ
zhÇĴngĠ ziĠ
ĠĠĠC h
xÇĲĠ huÄģn
diÇİn ĠlÇĲĠ
dÃłng ĠtiÄģnĠ
yÄ«ngĠ wÃ©nĠ
jÇĲngĠ chÃ¡
Ġ huÇĴĠ
chÃ©ngĠ yuÃ¡nĠ
ĠyÃºĠ 195
jiÃłngĠ dÄ«Ġ
Ġt Ãºn
dÅįu ĠzÃłiĠ
Ġ18 7
yÃł ĠjÅ«nĠ
zÃ¬Ġ rÃ¡n
ĠqÃŃĠzhÅįngĠ yÄ«Ġ
shÃ¨Ġ qÅ«Ġ
cÃ¬ ĠdeĠ
kÇĴu ĠwÃ¨iĠ
ĠshÃ¬Ġ mÃŃnĠ
zhÄ«Ġ qiÃ¡nĠ
shÄĽ Ġ
mÃ¬ĠshÅ«Ġ zhÇİngĠ
zhÃ¨ng ĠbÃ¹Ġ
qÇĲĠ dÃ²ngĠ
tÅ«Ġ pÃ²Ġ
tiÃ¡o ĠlÃ¬Ġ
28 Ġ
suÇĴ ĠdeĠ
wÃº ĠzhÃ¨ngĠzhuÃłngĠ
ar Ġ
jÄ«Ġ dÅ«Ġ
ĠxiÃłnĠ rÃ¨nĠ
yÇĶnĠ xÇĶ
Ġ bÃłnĠ
xiÄĽ ĠdÃłoĠ
Ġ huÃ¡
Ġ sÅ«
Ġ qÄ«ĠjiÄģnĠ
shÃ¹ ĠyÇĶĠ
ĠxÃŃng ĠwÃ¨iĠ
fÇİngĠ wÃ¨n
xÄ«ngĠ dÄĽngĠwÃ¨iĠ
ĠwÃłn ĠlÃ¬Ġ
de ĠĠĠ
ĠshÃ¬Ġ yÃºĠ
ĠgÅįngĠ mÃŃnĠ
t or
ĠbÃ¬ngĠ dÃº
Ġ 2012
tiÃ¡oĠ zhÄĽng
hÄĵiĠ sÃ¨Ġ
zhÄĽngĠ tÇĲĠ
gÄģoĠsÃ¹ ĠgÅįngĠlÃ¹Ġ
Ġ zÇĶĠfÃ¹Ġ
tuÃ¡n ĠdeĠ
gÄĽi ĠleĠ
26 ĠniÃ¡nĠ
ĠshÃ¬Ġ gÅįngĠ
ĠjÄ«Ġ jÄ«nĠ
l Ã©ng
Ġ hÃłn
lÇĶ ĠsÄ«Ġ
ĠtÃ³ng ĠyÃ¬Ġ
jiÃ¨Ġ shÃłoĠ
O S
z Ã²ngĠ
ĠĠĠ jÃŃĠ
huÃ¡ng ĠhÃ²uĠ
jiÃ©Ġ guÇĴ
kÄģiĠshÇĲ ĠzÃłiĠ
yu ÄģnĠ
mÃŃng ĠzhÃ¬Ġ
ti c
jiÄģng ĠzÃłiĠ
chÃŃ ĠyÇĴuĠ
fÃłnĠ zuÃ¬Ġ
i v
Ġ yÃ²ngĠyÃºĠ
Ġ shÄĵngĠyÃºĠ
ĠgÅįngĠ jÃ¹Ġ
shÃ¨Ġ shÄ«Ġ
Ġ199 8ĠniÃ¡nĠ
t Ã²ng
guÃ¬Ġ zÃºĠ
bÇİoĠ shÇĴuĠ
tÃ³uĠ piÃło
xiÃłĠxiÃ¡ ĠdeĠyÃŃĠgÃ¨Ġ
Ġ pÃŃngĠjÅ«nĠ
bÇİn ĠdeĠ
zuÃ¬Ġ duÅįĠ
gÃłiĠ niÃłn
W indow
s ÄĵngĠ
Ġ hÃ¹Ġ
shÄģn ĠshÃ¬Ġ
yÄ«ngĠ gÄģiĠ
Ġ yÃ¡n
lÃ¡i ĠyuÃ¨Ġ
gÇĶ ĠdÃłiĠ
nÃŃ ĠÄĽrĠ
ĠmÃŃngĠ dÄģnĠ
diÃłnĠ huÃłĠ
hÇİiĠ xiÃ¡Ġ
zhÃ¨nĠ qÅ«ĠdeĠ
biÇİoĠ yÇİn
wÃ¡nĠ zhÄĽng
ĠmÄĽi ĠgÃ¨Ġ
ĠdeĠchÃ©ngĠ jÃ¬Ġ
Ġ194 9ĠniÃ¡nĠ
ĠjÃŃĠ rÃ©nĠ
gÇİiĠ mÃŃngĠwÃ¨iĠ
sÇĲĠ wÃ¡ng
Ġ zhuÇİnĠ
Ġ tiÃ¡nĠ
ĠĠĠ qÃŃĠtÄģĠ
suÃŃ ĠzhÃ¹Ġ
gÃ¨ng ĠwÃ©iĠ
diÃłnĠ nÇİoĠ
bÃ³ĠshÃ¬Ġ xuÃ©ĠwÃ¨iĠ
5 7
yuÃ¨ ĠzhÅįngĠ
mÃ¹Ġ qiÃ¡n
nÃ©ngĠ liÃłngĠ
zÇİoĠ qÄ«
f f
g ÄģĠ
shÄģn ĠjÄ«Ġ
ĠyÇĲĠ jÃŃ
35 Ġ
ĠdÃ© ĠyÇĶĠ
ĠbÇĲĠ rÃºĠ
ĠÃ©rĠ gÄģiĠ
chÃ¡ngĠ wÄĽiĠ
ĠrÃ©nĠmÃŃnĠ zhÃ¨ngĠfÇĶĠ
i k
shÃ²u ĠdeĠ
ÄĵnĠ shÄĽngĠ
tÃ²uĠ guÃ²
ĠyÄ«Ġ zuÃ²Ġ
ĠxiÇİng ĠniÃ¡nĠ
wÃºĠzhÃ¨ngĠzhuÃłngĠ gÇİnĠrÇİnĠ
6 6
17 ĠniÃ¡nĠ
ĠwÃ©iĠ ÄĽr
2 ĠgÃ¨Ġ
yÃ³u ĠjÄ«Ġ
huÃ³ ĠyuÃ¨Ġ
chÃ¡ngĠ wÃ¹Ġ
yÄģoĠ qÇĲng
quÃ¨ĠzhÄĽn ĠbÃ¬ngĠlÃ¬Ġ
duÅį ĠwÃ¨iĠ
xuÃ©Ġ huÃ¬Ġ
ÄģnĠ huÄ«Ġ
t Ä«
ĠbÃ¹Ġ sÄ«Ġ
shÄ«Ġ bÃłiĠ
Ġ xÃºnĠ
Ġ 2015ĠniÃ¡nĠ
ĠĠĠ 2011
fÄģĠ shÃ²uĠ
dÃ¬ngĠ jÅ«Ġ
yÇĲĠ jÄ«ngĠ
ĠĠĠ gÄģi
rÃ¨n ĠwÃ¨iĠ
kÃ¨ ĠchÃ©ngĠ
gÄĵĠ lÃºnĠ
kÃ¹n ĠnÃ¡nĠ
dÄģn ĠdeĠ
yÃ¡ng ĠshÃ¬Ġ
lÃ³ng ĠdeĠ
ĠbÃ¹Ġ lÃ¬Ġ
ÄģnĠ nÃł
bÃłoĠ zhÃłĠ
tÃŃ ĠjÃŃĠ
ĠrÃ¬ ĠyÃºĠ
ĠwÃ¨iĠyÃºĠ zhÅįngĠguÃ³Ġ
sÄģiĠÄĽrĠ wÃ©iĠ
huÃ¬ ĠzhÅįngĠ
shÅįu ĠjÃŃĠ
zuÃ²Ġ chÅ«Ġ
ĠĠĠ 1Ġ
jÃ¹ ĠdÃłĠ
ĠxÄ«Ġ jiÄĵĠ
xiÄģngĠ sÃ¬Ġ
zhÇĶĠyÃło ĠdeĠ
gÅįngĠ chÃ©ngĠ
ĠlÃ¬Ġ fÇİ
lu Ã¡n
ĠchÃ©ngĠ rÃ©nĠ
ĠbÃ¬ngĠ dÃºĠ
zÃºĠqiÃºĠ yÃ¹nĠdÃ²ngĠyuÃ¡nĠ
lÃ¬ng ĠrÃ©nĠ
xiÄĽ ĠdeĠ
ĠtÃ³ngĠshÃŃĠ gÄģiĠdÃ¬Ġ
Ġ199 9ĠniÃ¡nĠ
Ġ18 6
ĠjÄ«Ġ sÄ«Ġ
bÄĵi ĠsÄ«Ġ
qiÃ¡ngĠ liÃ¨Ġ
huÃ¬ ĠzhÃ¬Ġ
nÃ¡n ĠdeĠ
shÄĽng ĠdeĠ
ĠhÃ²uĠ zhÄĽĠ
g h
m Ã¡n
qu Äģn
Ã©r ĠtÃ³ngĠ
ĠjÄ«Ġ chÇİng
ĠdÃ©Ġ zhÇĶĠ
ĠzhÃ¨Ġ zhÇĴng
xÃ¬nĠ yÇİngĠ
zhuÄ«Ġ sÃ¹
ĠyuÃ¡nĠ xÃŃngĠ
nÃ¨iĠlÃ¹Ġ shÄĽngĠfÃ¨nĠ
gÃ²u ĠdeĠ
ĠjÃŃĠ dÃ¬Ġ
liÃºĠ xiÃłĠ
jiÄĽĠ sÃłnĠ
ĠzuÃ¬ ĠchÅ«Ġ
kÄĵĠxuÃ©Ġ jiÄģĠ
quÄĵĠ fÃ¡Ġ
Ġ 2022
tÃº ĠxÃŃngĠ
guÄģnĠ chÃ¡Ġ
biÄģnĠ jiÃ¨Ġ
zhÃº ĠbÃ¹Ġ
5 ĠmÇĲĠ
a ck
Ġ Ã¨rĠshÃŃĠ
Ġ 2016ĠniÃ¡nĠ
2025 ĠniÃ¡nĠ
ĠdÃ¬Ġ sÃ¬
jiÄĽĠ fÃłngĠ
ĠdeĠdÃ¬Ġ Ã¨rĠ
tÇİoĠ lÃ¹n
yÃłĠ mÄĽiĠ
ĠzhÇĶĠ xÃŃĠ
xÅ«n ĠzhÄģngĠ
e dĠĠĠ
shÄģn ĠdeĠ
ĠkÃ¨ ĠxÄ«Ġ
fÄģngĠ fÇİ
pÄ«Ġ zhÇĶn
liÃ¡nĠhÃ©Ġ huÃ¬Ġ
Ġ Z
chÄģo ĠyuÃ¨Ġ
fÃ¹Ġ zÃ©
liÃ¡nĠ xÃ¹
ĠwÃłn ĠyuÃ¡nĠ
Ġ se
hÇİi ĠpÃŃngĠmiÃłnĠ
ĠguÃ³Ġ nÃ¨iĠ
zhÇĶĠ jiÃło
tuÃ¬Ġ xiÅ«Ġ
xiÃłĠlÃ¬ng ĠshÃŃĠjiÄģnĠ
bÃ¨i ĠdeĠ
bÃº ĠdÃłoĠ
ĠzÃłiĠ 197
ĠlÃ¬Ġ liÃłngĠ
zuÃ¬Ġ gÄģoĠdeĠ
jiÇİnĠ shÇİo
Ġ 25
Ġ 8Ġ
Ġ yÄģoĠqiÃºĠ
ĠshÃŃĠ qÄ«ĠdeĠ
huÄ«Ġ fÃ¹
shuÄģngĠ fÄģngĠ
tÃ¡nĠ pÃłnĠ
h ÄĵngĠlÃ¬Ġ
fÄģĠ shÄĵngĠzÃłiĠ
fÄĵiĠ chÃ¡ng
I C
ĠjÄ«Ġ huÃ¬Ġ
dÇĴngĠshÃ¬Ġ zhÇİngĠ
guÃ² ĠdeĠ
tÃŃ ĠyÃ¬Ġ
p Ã¹
Ġ hÃ©ngĠ
shÅ« ĠzhÅįngĠ
202 6ĠniÃ¡nĠ
yÃŃĠ dÃ¬ng
ĠwÃ©nĠ huÃłĠ
jÃ¬ngĠnÃ¨iĠ gÃ²ngĠyÇĴuĠ
nÃŃĠyÃł ĠzhÅįuĠ
Ġ zhÃło
Ġ xÃ¬Ġ
Ġ jiÃ¹ĠshÃ¬Ġ
xÃ¹ ĠlÃ¬ĠyÃłĠ
dÄ« ĠyÃºĠ
ĠxuÃ©Ġ jiÄģĠ
ĠĠĠbÃ¨iĠ jÇĲngĠ
ĠzÃłiĠ shÃŃĠ
ĠyÄ«Ġ lÃ¬Ġ
tÃ¡iĠ nÃ¡n
A C
ĠyÇĲĠ wÃ©iĠ
qi Çİng
ĠhÃ©Ġ yuÄĵĠ
ĠgÅįngĠ zhÃ²ngĠ
zhÇĶĠ yÇİnĠ
pÃŃngĠ tÃ¡iĠ
ĠÃ©rĠ ziĠ
sÄģnĠ jiÇİo
16 ĠniÃ¡nĠ
quÄĵĠ fÃ¡
Ġ nÃł
xiÃłn ĠdeĠ
pÃŃng ĠwÃ¨iĠ
dÄģng ĠzhÅįngĠ
qÄ«n ĠzÃ¬Ġ
ĠshÃŃĠ xÃŃngĠ
w Ã¡Ġ
Ġ wÃ¡nĠjiÄģĠ
ĠĠĠ 17
jiÄģ ĠyÃ¬Ġ
suÃŃ ĠjÃŃĠ
ĠshÃ¬Ġ yÄ«nĠwÃ¨iĠ
Ġ shÇĶ
huÃ¬ĠyÃ¬Ġ yuÃ¡nĠ
D TĠ
l y
Ġ dÇİoĠ
Ġ xiÃ©Ġ
ĠyÇĴuĠ suÇĴĠ
ĠxÄ«ĠbÄģnĠ yÃ¡Ġ
ĠĠĠdÃ¬ĠfÄģngĠ zÄ«ĠliÃłoĠ
T V
Ġ jiÇĶ
Ġ qÇĶĠ
zÃ¬ ĠdeĠ
jiÃ© ĠdeĠ
ĠhÃ²uĠ bÃ¨iĠ
fÄģĠ qÇĲĠ
ĠyÄ«ngĠ chÇĲĠ
7 8
s Ãłng
lÃ¡n ĠdeĠ
nÃ¡ ĠxiÃłĠ
ĠxuÃ©Ġ yuÃłn
ĠĠĠ jiÇİnĠjiÃ¨Ġ
luÃ³ ĠlÇĲĠ
nÃ¡nĠ bÄĽiĠ
bÄĽiĠjÄ«ng ĠshÃ¬Ġ
ĠbÃ¹Ġ shÇİoĠ
ĠtÄģĠcÃ©ng ĠdÃłiĠbiÇİoĠ
Ġ yuÄĵ
lÇĲ ĠhÃ©Ġ
dÃŃ ĠshÃ¬Ġ
la Ġ
ĠchÅ«Ġ kÇĴuĠ
jiÃłoĠ tÃ¡ng
duÅįĠ zhÇĴngĠ
pÃłiĠ qiÇİn
du Ã²
nÃ©ng ĠyuÃ¡nĠ
ĠxiÃłnĠ fÇİĠ
k Å«Ġ
le ĠzÃłiĠ
lÃ¡i ĠyÄ«nĠ
cÃ©ng ĠwÃ¨iĠ
ĠdÃ¬Ġ lÇĲĠ
i d
tÃ¡i ĠzhÅįngĠ
ni Ã¡ngĠ
ĠchÃ©ngĠ zhÃ¨nĠ
jiÃłĠ shÇĲĠ
ĠshÃŃĠjÃ¬Ġ shÃłngĠ
jiÄĵĠ chÃ¹Ġ
ĠzhÃ¨ngĠ mÃŃngĠ
liÃ¡oĠ nÃŃngĠ
mÃ²ĠxÄ«Ġ gÄĵ
kuÃ¬ Ġ
E R
dÃŃ ĠrÃ©nĠ
b oĠ
g ÇĴuĠ
xuÇİn ĠzhÅįngĠ
ĠdeĠ xÃŃngĠ
jÄ«Ġ gÃ²uĠ
ĠyÇĲĠ xÄ«Ġ
zhÇĲĠ dÇİoĠ
yÄ«ngĠ xiÃ³ngĠ
gÇİiĠ biÃłn
Ġ tÃŃĠgÅįngĠ
pÃłi ĠchÅ«Ġ
fÄĵngĠ xiÇİnĠ
ĠzhÅįngĠguÃ³ĠrÃ©nĠmÃŃnĠ jiÄĽĠfÃłngĠjÅ«nĠ
diÃłnĠ nÇİo
r Ãło
qi ÇİoĠ
A N
g Çİo
Ġ xiÇİngĠ
Ġ kÇĴngĠ
tÃŃ ĠchÅ«ĠdeĠ
gÃłn ĠbÃ¹Ġ
5 6
I I
ĠdÃ¬Ġ yÃŃĠgÃ¨Ġ
ĠyÃ¬Ġ qÃŃngĠ
zhÇĲĠ nÃ©ngĠ
hÇİiĠbÃ¡ ĠwÃ¨iĠ
5 9
lÄĽi ĠjÃ¬Ġ
ĠlÃ¬Ġ yÃ¬Ġ
suÇĴĠ cÇİiĠyÃ²ng
ĠzhÅįngĠgÃ²ng ĠzhÅįngĠyÄģngĠ
Ġ sÅ«nĠ
Ġ 2017ĠniÃ¡nĠ
shÄģng ĠrÃ©nĠ
biÄģo ĠbÄĽnĠ
kÄģiĠ tÅįngĠ
shÄĵnĠ dÃ¹Ġ
xiÅ«Ġ gÇİiĠ
mÄĽi ĠzhÅįu
zÃłn ĠshÃŃĠ
ĠdÃ¬Ġ qÄ«Ġ
ĠC h
3 2Ġ
chuÃ¡nĠ bÅįĠ
ĠdÃłĠxuÃ© ĠdeĠ
k Äĵng
n Ã¬
kÄģi ĠshÃ¨Ġ
yÄ«ngĠ gÃ©ĠlÃ¡n
ĠdeĠshÃ¬Ġ jiÃ¨Ġ
tÃ¡oĠ tÃłiĠ
nÃ³ngĠ mÃŃnĠ
chu ÃŃĠ
15 0
ĠzhÅįngĠ guÃ³ĠdeĠ
guÄģnĠ chÃ¡
qiÃ¡ngĠ diÃłoĠ
ĠdÃ© ĠmÃŃngĠ
ĠĠĠ yÄ«nĠ
shuÇĲ ĠlÃ¬Ġ
Ġ diÃłnĠyÇĲngĠ
fÄģ ĠmÃŃngĠ
huÃł ĠzhÅįngĠ
rÃ³ng ĠhÃ©Ġ
ĠqÃŃ ĠwÃ¨iĠ
Ġ zhuÇİn
Ġ wÇİĠ
quÃ¨ ĠdeĠ
chÇİngĠ suÇĴĠ
chÄģiĠ chÃºĠ
wÅ« ĠsÄ«Ġ
zÄ«Ġ bÄĽnĠ
N B
jiÃ¹Ġ dÃºĠ
tuÃ² Ġ
bÃłnĠshÃ¬Ġ chÃ¹Ġ
t Å«n
juÃ© ĠshÃ¬Ġ
xiÅ« ĠjiÃłnĠ
zhÄģngĠ zhuÄģnĠjÃŃĠ
Ġ 2018ĠniÃ¡nĠ
jÃ¬ng ĠjÃ¬Ġ
m o
z Ġ
wÃ©n ĠdeĠ
ĠbÄĽiĠ jÄ«ng
ÄģĠlÄģĠ bÃ³
m ÄģoĠ
ĠĠĠ 2Ġ
diÃłn ĠjÄ«Ġ
shÄģngĠ yÃ¨
jÇĶĠbÃłn ĠdeĠ
b Ġ
qÄ« ĠwÃ¨iĠ
xiÄģoĠ fÃ¨iĠ
pÃ¨i ĠzhÃ¬Ġ
ĠjÃ¹Ġ juÃ©Ġ
u l
qÅ« ĠshÃ¬Ġ
wÃ©iĠ sÄ«Ġ
ÄģnĠ pÃ¡i
fÃ¹Ġ zhÇĶĠrÃ¨nĠ
wÇĶĠ zhuÄģng
tÃłiĠ dÃ¹Ġ
k Ã©Ġ
diÃłoĠ kuÃłi
Ġ xiÇİo
qi ÃłoĠ
suÃ¬ ĠdeĠ
ĠzhÅįngĠ shÄģnĠ
ĠyÇĶĠ qÃŃĠtÄģĠ
jÃ¬ngĠ xuÇİnĠ
chÃ©ng ĠhÃ©Ġ
fÃº ĠdeĠ
jiÃ¹ ĠhuÃ¬Ġ
gÃ©Ġ lÄģĠ
ĠcÃ¬ ĠniÃ¡nĠ
hÃ²u ĠwÃ¨iĠ
wÃ¡ng ĠshÃ¬Ġ
zÃło ĠleĠ
ĠwÃ¨iĠ UTCĠ
Ġc nĠ
shÇĴu ĠzhÅįngĠ
zÄ«Ġ liÃło
l Ãłng
ĠĠĠ duÃ¬Ġ
qiÃº ĠjÃ¬Ġ
p e
lÃ¹ ĠzhÃ¬Ġ
liÃ¹ ĠshÃŃĠ
kÄĵĠxuÃ©Ġ yuÃłnĠ
diÃłoĠkuÃłi ĠyÄ«ĠxiÇİoĠshÃŃĠ
ĠbÃ¹Ġ jÃŃĠ
ĠdÃłĠ jiÇİngĠ
suÇĴ ĠzÃłiĠdÃ¬Ġ
dÃ¡ ĠÄĽrĠ
ĠbÃ¹Ġ duÃ¬
ĠjÃŃĠ UTCĠ
ĠyÄ«nĠ sÃ¹Ġ
zÇĶĠzhÄ« ĠdeĠ
ĠmÃŃng ĠzhÃ¬Ġ
shÃ¨ĠyÇĴuĠ xiÃłĠlÃ¬ngĠshÃŃĠjiÄģnĠ
ĠdeĠshÃŃĠqÅ«ĠwÃ¨iĠ UTCĠ
ĠÃ©rĠgÄģiĠdÃ¬Ġ suÇĴĠcÇİiĠyÃ²ng
ĠtÃ³ngĠshÃŃĠgÄģiĠdÃ¬Ġ shÃ¨ĠyÇĴuĠxiÃłĠlÃ¬ngĠshÃŃĠjiÄģnĠ
ĠÃ©rĠgÄģiĠdÃ¬ĠsuÇĴĠcÇİiĠyÃ²ng ĠdeĠshÃŃĠqÅ«ĠwÃ¨iĠUTCĠ
Ġ nÇĲĠ
ĠgÄģiĠ cÅ«nĠ
shuÃłiĠ lÇĲng
Ġ shuÅįĠ
Ġ wÃ¡nĠ
ĠyÄ«ĠsÄ«Ġ lÃ¡nĠ
6 9
d Ã¨ngĠ
Ġ f
Ġ yÃŃngĠ
tÇĲ ĠzhÃ¬Ġ
yuÃ¡nĠ zhÃ¹Ġ
ĠlÃ¬ng ĠyÇĴuĠ
Ġ 2004ĠniÃ¡nĠ
lu ÇİnĠ
ĠfÃ¹Ġ jÃ¬n
zhÄ«Ġ jiÄģnĠdeĠ
ĠwÃ¨iĠfÃºĠqÃŃĠyÃºĠ gÄģngĠ
ĠĠĠ jiÄģoĠtÅįngĠ
mÃ¹ ĠdeĠ
ĠhÃło ĠdeĠ
ĠlÃ¬ĠshÇĲĠ shÃłngĠ
gÄģoĠyÃºĠ hÇİiĠpÃŃngĠmiÃłnĠ
Ġ wÄĵi
ĠĠĠ qÄ«ngĠ
t ÅįuĠ
xÃ¬ng ĠwÃ¨iĠ
cÃ¬ ĠyÃºĠ
hÃ¹ ĠxiÄģngĠ
zhÃº ĠjiÃłn
ĠgÅįngĠ juÃ©Ġ
ĠxÄ«Ġ lÃ¡nĠ
4 ĠgÃ¨Ġ
n d
Ġ 2019ĠniÃ¡nĠ
ĠshÃŃĠ wÃ¹Ġ
tÄģĠmen ĠdeĠ
Ġ Ã¨Ġ
shÃłng ĠxiÃłnĠ
ti Äĵ
zhÄĽ ĠshÃ¬Ġ
xiÃłngĠ zhÄĵngĠ
ĠqÃŃĠ xiÃłĠ
ĠtÃ³ngĠ yÃłng
ĠmÇİĠ lÃ¡i
Ġn u
chÃ¹ĠdeĠ hÇİiĠbÃ¡ĠwÃ¨iĠ
chÃ¹ĠdeĠhÇİiĠbÃ¡ĠwÃ¨iĠ gÄģoĠyÃºĠhÇİiĠpÃŃngĠmiÃłnĠ
ĠĠĠ 190
ĠbÃ¹Ġ jÇĲnĠ
zhÇİngĠ dÃ¡Ġ
yÃŃĠ dÃłiĠ
ĠdeĠ yÇĲngĠxiÇİngĠ
ĠwÃ¨iĠ dÃłĠ
O N
Ġ pÃł
fÄģ ĠshÃ¨
zhÃ²ng ĠshÃ¬Ġ
ĠhÃ©Ġ pÃłnĠ
ĠzÃ¬Ġ rÃ¡nĠ
Ġ Äģn
Ãłi ĠdeĠ
diÃłnĠ qÃ¬Ġ
qiÄģnĠ shÇĶĠ
Ġ chÃ¡Ġ
zhÃ¹ ĠyÇĴuĠ
kÄĽ ĠzÃłiĠ
wÃ©iĠ ÄĽrĠ
nÃ¡nĠ jÄ«ng
bÃ¬Ġ yÃ¨ĠhÃ²uĠ
fÄģ ĠxiÃłnĠdeĠ
ĠzhÄ« ĠyÃ¬Ġ
ĠqÃŃ ĠshÃŃĠ
xiÃłoĠ qÅ«Ġ
8 8
Ġ rÃ³ngĠ
ĠĠĠ mÇİĠ
ĠÄĽrĠ duÅįĠ
.. .
nÃ¨i ĠdÃ¬Ġ
Ã¨r ĠjÃŃĠ
shÄģnĠ fÄĵngĠ
rÃ¨n ĠdeĠ
luÃ² ĠchÃ©ngĠ
shÃŃĠ qÅ«Ġ
jiÃłn ĠchÃ©ngĠ
pÃŃng ĠyuÃ¡nĠ
gÄĵng ĠxÄ«nĠ
jÄ«ngĠ chÃ¡ng
zhÃŃĠ zhÃ¨ngĠ
yÃ¹nĠ shÅ«
yÃ¹nĠ yÃ²ngĠ
Ġ miÃłnĠ
ĠyÄ«Ġ jiÄģĠ
ĠÃ©rĠ tÃ³ngĠ
jÄ«nĠ rÃ³ngĠ
ĠĠĠthe ĠĠĠ
ĠĠĠ rÃ¡n
gÃ© ĠshÃ¬Ġ
dÄĽng ĠjÃŃĠ
26 Ġ
ĠlÃ¬Ġ rÃ¨nĠ
yÃ¡nĠ sÃ¨Ġ
ĠwÃ¨iĠyÃºĠ gÄģiĠ
Ġ yÄ«ng
hÃ²u ĠyÃ¬Ġ
bÃłng ĠqiÃºĠ
ĠyÃºĠ lÃ¨
rÃºĠ guÇĴĠ
ĠzuÃ²Ġ chÅ«Ġ
ĠsuÃŃ ĠzhÃ¹Ġ
ĠxuÃ©Ġ zhÄĽĠ
bÇİoĠ liÃº
xiÃ¡Ġ qÅ«Ġ
ĠĠĠ bÄĽn
bÄģo ĠwÃ©iĠ
shÅįuĠ gÃ²uĠ
chÃ³ngĠ qÃ¬ng
Ġ199 7ĠniÃ¡nĠ
ig h
xuÃ© ĠyuÃ¡nĠ
shÃ¹ ĠshÃŃĠ
ĠbÃ¹Ġ nÃ©ng
dÅįngĠ fÄģngĠ
cuÃ²Ġ wÃ¹Ġ
7 9
mÇİ ĠkÃ¨Ġ
o ĠĠĠ
Ġ tÃ¡oĠ
ĠrÃ¡n ĠÃ©r
xÃ¬nĠ yÇİng
miÇİnĠ diÄģn
a sĠĠĠ
jÃ¬Ġ niÃłn
zhÃ¹Ġ zhÃ¡iĠ
zhÃŃĠ mÃŃnĠ
zhÃ¨nĠqÅ«ĠdeĠ miÃłnĠjÄ«ĠwÃ¨iĠ
n Ã¨n
shÇĲ ĠjiÃłnĠyÃºĠ
ĠshÄĵngĠ yÃ¡Ġ
fÅ«Ġ kÇİĠ
ĠdeĠ xÄ«Ġ
ĠduÃ¬Ġ shÇĴuĠ
ĠxÃŃngĠzhÃ¨ngĠ qÅ«Ġ
w ÄĵngĠ
Ġ liÃ¹Ġ
bÅį ĠsÄ«Ġ
gÄģoĠ xiÃ³ng
ĠzhÅįuĠ cÃ¬ĠshÇĲĠ
hÇİiĠ yÃ¡ngĠ
zÃ© ĠzÃłiĠ
45 Ġ
ĠyuÃ¡nĠ zÃ¬Ġ
zÃłoĠ chÃ©ngĠdeĠ
ĠjiÃ© ĠkÃ¨Ġ
ĠĠĠ qÃŃ
dÄģngĠ dÃ¬ĠdeĠ
ĠtÄģ ĠyÇĲĠ
zhÇĶĠ zhÄģngĠ
Ġ Y
jiÄģ ĠyÇĲĠ
Ã¨r ĠrÃ©nĠ
biÄģn ĠyuÃ¡nĠ
jÃº ĠdeĠ
ĠqÃŃĠzhÅįngĠ bÄģoĠkuÃ²Ġ
s ÇİoĠ
Ãło ĠzhÅįuĠ
gÅįngĠ gÃ²ngĠ
ĠdeĠbÃ¹Ġ fÃ¨nĠ
I S
jÃ¬ ĠyÇĴuĠ
miÃłn ĠshÃłngĠ
zhÃŃĠ wÃ¹
liÇİngĠ cÃ¬Ġ
Ġm iÃ¡n
ĠyÄ«Ġ jÃ¹Ġ
ĠlÇĲĠ xÄ«Ġ
qÃ¬Ġ chÄĵ
jÃ¬ngĠ zhÄĵngĠ
xiÄģoĠ shÄ«Ġ
tiÃ¡nĠ jÃ¬ngĠ
tÅ« ĠrÃ¡nĠ
pÃŃngĠ lÃ¹n
tÃ¨Ġ dÃ¬ngĠ
gÇİiĠ zÃłoĠ
Ġ199 4ĠniÃ¡nĠ
4 00
duÃ¬ ĠqÃŃĠ
shÄ« ĠgÅįngĠ
ta tion
ĠzÃłiĠ 196
yÃ¬Ġ shÃ¹Ġ
lÃ¬ngĠ yÃŃĠgÃ¨Ġ
jiÃłngĠ lÇĲngĠ
xuÄģnĠ chuÃ¡n
Ġ rÃ©ng
cÃ¡iĠ nÃ©ngĠ
n Ä«
jÃ¹n ĠgÅįngĠ
ĠdÃ© ĠzhÄ«Ġ
ĠjÄ«Ġ jÄ«nĠhuÃ¬Ġ
lÃŃĠ kÄģi
xiÃłoĠlÃ¬Ġ yÃºĠ
hÅ«n ĠyÄ«nĠ
guÃ³Ġ jiÄģ
Ġ199 2ĠniÃ¡nĠ
T ub
Ġ lÇļĠ
zhÃłn ĠshÃŃĠ
ĠwÃ¨iĠ duÃ¬Ġ
ĠjÃŃĠ dÃłĠ
i m
o t
Ġ mÃ©i
Ġ sÅ«n
dÃł ĠbÃ¹Ġ
liÇİng ĠguÃ³Ġ
ĠzhÃ¬Ġ liÃłngĠ
bÃ¨iĠ jÇĲngĠ
ĠlÇĲĠ yÃłĠ
yÃ¡nĠ hÇİiĠ
kÇİĠ luÃ³Ġ
wÄĽiĠyuÃ¡nĠhuÃ¬Ġ wÄĽiĠyuÃ¡nĠ
guÄģn ĠjiÃłnĠ
xÇĲ ngĠ
shÅ«Ġ yuÃłnĠ
ÃłiĠÄĽrĠ lÃ¡nĠ
zhÃŃĠmÃŃn ĠdÃ¬Ġ
bÃłn ĠdeĠ
e a
Ġ 2ĠyuÃ¨Ġ
ĠĠĠ shÃ¨ngĠ
ĠĠĠ jÇĲnĠ
jÃ¬n ĠbÃ¹Ġ
Ġ co
quÃ¡n ĠqiÃº
ĠdÃ¬Ġ qiÃº
ĠdÄģngĠ shÃŃĠdeĠ
chÃ¡ iĠ
p p
Ġ pÃłĠ
jiÃło ĠdÃłĠ
diÇİn ĠshÃ¬Ġ
pÃ¨i ĠyÄ«nĠ
ĠshÃŃĠ duÃłnĠ
ĠzhÃ¬Ġ zuÃ²ĠdeĠ
jÄ«ngĠ shÃ©n
pÃŃng ĠdeĠ
liÇİng ĠwÃ¨iĠ
Ġ zhÄĵngĠ
sÄģn ĠmÃŃngĠ
ĠqÃŃ ĠdeĠ
ÄģĠlÄģĠ bÃ³Ġ
Ġ bÇİ
bÄĽi ĠshÃ¬Ġ
tuÄ« ĠchÅ«
zhÃ¨ngĠ jÃ¹Ġ
xÄ«n ĠchÃ©ngĠ
ĠxiÃłn ĠyÇĲĠ
ĠjiÃłn ĠshÃ¨
Ġ199 6ĠniÃ¡nĠ
ĠĠĠ nÃ¡nĠ
du ÇĴ
al ĠĠĠ
kÃło ĠjÃ¬nĠ
hÃ¹Ġ liÃ¡nĠ
mÇİnĠ zÃºĠ
Ġ lÇĶĠ
dÃłĠ lÃ¹
ĠsÄ«Ġ kÃ¨
chuÃ¡nĠtÇĴng ĠdeĠ
ĠyÃ¬Ġ yÃºĠ
cÃ¨Ġ liÃ¡ngĠ
ĠluÃ³Ġ mÇİĠ
Ġ zhÃ¨ngĠzhÃ¬Ġ
Ġ xiÃ¨Ġ
ch Ġ
zuÃ¬ ĠchÅ«
ĠdÃ¬Ġ diÇİnĠ
huÃ¬Ġ zhÇİngĠ
chÃ¡ngĠ dÃ¹Ġ
zÄģiĠ pÃ©iĠ
Ġ 2023
Ġ 2002ĠniÃ¡nĠ
ĠhÃ©Ġ dÃłoĠ
A P
lÄģ ĠjÄ«Ġ
ĠbÃ¹Ġ bÄ«ngĠ
ĠlÃ¬Ġ shÃŃĠ
zÃ¬Ġ mÇĶĠ
ĠjÃ¹Ġ lÃŃ
bÅįĠ lÃŃĠ
tÃŃngĠ chÄĵĠ
ĠshÄģnĠ dÅįngĠ
1 ĠgÃ¨Ġ
b aĠ
zhÃ¨n ĠdeĠ
bÅį ĠshÃ¬Ġ
xiÅ« ĠfÃ¹Ġ
xiÄģngĠ guÄģnĠdeĠ
ĠbÃ¬ngĠ yÃ³uĠ
shÄģnĠ qÅ«Ġ
Ġ 24
ĠshÃ¬Ġ yÄ«ĠbÃ¹Ġ
ĠdÃ© ĠsÄ«Ġ
cÅ«nĠ luÃ²Ġ
zÃºĠqiÃº ĠjÃ¹ĠlÃ¨ĠbÃ¹Ġ
nÃ¨i ĠzhÃłnĠ
shÄĵngĠ yÃ¡
ĠguÃ³ĠwÃ¹Ġ yuÃłnĠ
7 7
lÇĲ ĠchÃ©ngĠ
qÇĲ ĠyuÃ¡nĠ
duÃ¬Ġ zhÇİngĠ
shÇĴuĠ xiÃłngĠ
jÅ«Ġ zhÃ¹ĠzÃłiĠ
ĠbÃ¹ĠbÃ¹Ġ zhÇİngĠ
shÄ« ĠrÃ©nĠ
ĠdÃ¬Ġ tiÄĽ
jiÄĵĠ duÃłn
bÃ¬ng ĠbÃ¹Ġ
liÃ¡n ĠdeĠ
ĠdÃ¬Ġ dÃłiĠ
Ġ dÄģn
zu ÇĲ
ĠshÃ¬Ġ dÃ©ĠguÃ³Ġ
tiÄģnĠ tÇĲĠ
wÄĽi ĠfÃ¹Ġ
ĠdÃłĠ lÃ³u
ĠwÃ©iĠ chÃŃ
ĠyÃ¹Ġ shÇĲĠ
Ġt ÄģngĠ
Ġ 2021ĠniÃ¡nĠ
3 3Ġ
ĠyÇĲĠ wÃłiĠ
ĠwÃ©iĠ sÄ«Ġ
fÃ¨nĠ zÇĲ
tuÃ¡nĠ tÇĲ
ĠĠĠdÃ¬Ġ Ã¨rĠ
Ġ 23
fÃ¹ ĠhÃ©Ġ
quÃ¡n ĠxiÃłnĠ
dÅįu ĠbÃ¨iĠ
ĠyÇĶĠ yÃ¡n
fÄģĠ qÇĲ
suÇĴ ĠwÃ¨iĠ
27 Ġ
ĠchÃ©ngĠ kÃ¨Ġ
ĠzhÅįuĠ fÇĶĠ
jiÄģoĠ liÃº
xÃ¬ng ĠhÃ©Ġ
gÇĶ nĠ
lÃ¡ng ĠzhÅįngĠ
ĠxÃŃngĠ mÃ¹Ġ
diÃłnĠshÃ¬Ġ tÃ¡i
zhÃŃĠyÃ¨Ġ shÄĵngĠyÃ¡Ġ
wÃºĠzhÃ¨ngĠzhuÃłngĠgÇİnĠrÇİnĠ zhÄĽĠ
Ġ luÃ³
fÃº ĠlÃ¬Ġ
bÇİi ĠniÃ¡nĠ
jiÄģnĠ dÅ«Ġ
luÃ²Ġ fÃ¡
You Tub
ĠzhÃ¬Ġ dÃ¬Ġ
pÃºĠtÃ¡oĠ yÃ¡Ġ
jÄ« ĠzÃłiĠ
chu Ä«Ġ
fÅ« ĠdeĠ
ĠyÇĶĠ yÄ«Ġ
Ġ199 3ĠniÃ¡nĠ
miÇİnĠ fÃ¨iĠ
Ġ liÃ¹
liÃłng ĠwÃ¨iĠ
dÄĽngĠ dÄĽngĠ
xiÄĽ ĠzuÃ²Ġ
mÃ¨ng ĠjiÄģĠ
tÃ¨Ġ xÃ¬ngĠ
shÄ«Ġ qÃ¹
Ġ 100
mÇĶ ĠdeĠ
jiÇİ ĠdÃ¬Ġ
ĠwÃ¨iĠyÃºĠ mÄĽiĠguÃ³Ġ
Ġ tÃ¡ng
wÃ¹ ĠshÃ¬Ġ
Ġ xÅ«Ġ
ÇĴu ĠxiÃłngĠ
ĠxiÃłn ĠjÃŃĠ
lÃŃngĠ chÃ©nĠ
xÄ« ĠhÃ©Ġ
bi Çİn
Ġ 2000ĠniÃ¡nĠ
zhÃ¨ ĠshÃ¬Ġ
zÅįng ĠyÃ¬Ġ
ĠyÄ«Ġ yuÃłn
ĠlÇĲĠ kÃ¨Ġ
dÅįngĠ bÄĽi
kÅįngĠ qÃ¬Ġ
ĠwÃºĠ fÇİĠ
ĠĠĠ 10
ĠĠĠ gÃ¨ĠrÃ©nĠ
50 ĠniÃ¡nĠ
tÃ²u ĠlÃ¹Ġ
zhuÃłn ĠdeĠ
ĠzuÃ¬ ĠjiÄģĠ
c ÇİnĠ
Ġ kÃ¹Ġ
kÇİo ĠshÃ¬Ġ
kuÃł Ġ
yÃ¬nĠ nÃŃĠ
zÇĴng ĠrÃ©nĠkÇĴuĠ
zhuÄģnĠ yÃ¨
ĠfÃºĠ wÃ¹Ġ
zhÇĶĠyÃ¬Ġ zhÄĽĠ
Ġ 2008
sÅ«Ġ gÃ©ĠlÃ¡nĠ
d ÇİnĠ
Ġ fÄģĠxiÃłnĠ
nÃł ĠdeĠ
zuÃ²Ġ wÃ©i
guÃ²Ġ dÃ¹Ġ
ĠĠĠP ro
qÄ« ĠshÃŃĠ
ou r
ĠjÄ«Ġ chÇĶ
fÄģĠ dÃ²ngĠjÄ«Ġ
fÇİnĠ huÃŃ
Ġ194 5ĠniÃ¡nĠ
ĠsÄ«ĠlÃ¬ng ĠbÃ¹Ġ
Ġ 2009
wÇĶ ĠshÃ¬Ġ
gÇĶ ĠlÃ¬Ġ
ÃłoĠ mÃ©n
ĠfÃº ĠjiÃłnĠ
ĠĠĠ 2008
ar k
si Ġ
jiÄģnĠ rÃ¨nĠ
shÃłoĠ nÇļĠ
Ġ pÃ²Ġ
ĠdÃ¬Ġ liÃ¹Ġ
ĠxiÃłn ĠchÃ©ngĠ
guÇİngĠ chÇİng
guÇİnĠlÇĲĠ jÃºĠ
t ÄģiĠ
ĠĠĠ rÃ©nĠ
xÄ« ĠdÃ¬Ġ
zÇĴu ĠxiÃłngĠ
ĠzÃłiĠ hÃ©Ġ
Ġ nuÃ²Ġ
ĠyuÃ¡nĠ bÄĽn
ĠzuÃ²Ġ zhÃłnĠ
chÄĵ ĠduÃ¬Ġ
sÃ¬ ĠdeĠ
te Ġ
jiÄģnĠ yÃ¹Ġ
ĠÃ©rĠ fÄĵiĠ
z Ã¨ng
Ġ liÃ¡nĠhÃ©Ġ
guÃ³ ĠshÃ¬Ġ
jiÃ¹ ĠyuÃ¡nĠ
hÃ¹ ĠbÃ¹Ġ
wÇİ ĠÄĽrĠshÄĽngĠ
ĠchÅ« ĠdÃłoĠ
shÇĲĠ shÃłngĠ
ĠniÃ¡nĠ1ĠyuÃ¨Ġ 1ĠrÃ¬Ġ
shÅįu ĠdÃłoĠ
mÃłi ĠkÃ¨Ġ
gÇİiĠ shÃłnĠ
s s
Ġ dÃłi
jiÄģng ĠyÃºĠ
guÇİn ĠzhÃ¬Ġ
huÃŃ ĠyÃ¬Ġ
huÃłi Ġ
ĠgÅįngĠ lÇĲĠdeĠ
xÃºnĠ zhÇİo
yÃ¡n ĠzhÃ¬Ġ
tiÄģn ĠhÃ²uĠ
zhÅįngĠ yÄģngĠ
ĠÄĽr ĠshÃ¬Ġ
7 6
shÇĲ ĠrÃ©nĠ
yÃ¡n ĠrÃ©nĠ
guÃ² ĠleĠ
xiÇİn ĠzhÃ¹Ġ
ĠwÃ¨iĠ yuÃ¡nĠ
guÃ³Ġ wÃ¹Ġ
chÄĵĠ xiÄģngĠ
wÃłngĠ yuÇİnĠ
hÅįngĠ zhÃł
ĠshÃŃĠyÃłn ĠshÃ¬Ġ
ĠĠĠ dÄģngĠ
dÃ¹ ĠhÃ©Ġ
xiÅ« ĠdÃłoĠ
re Ġ
cÃ¹ ĠjÃ¬nĠ
ĠyÃ¬Ġ jiÃłnĠ
ĠdÃłĠ gÅįngĠ
gÃ©Ġ lÃŃĠ
ĠqiÃ¡nĠ wÇİngĠ
chÅįngĠ tÅ«
ĠĠĠT he
k Çİn
Ġ yÃ²ng
Ġ zÃ¡ĠzhÃ¬Ġ
bÃ¨iĠ chÄĵngĠwÃ©iĠ
dÅįngĠ jÄ«ng
Ġ dÃ²ngĠ
zhÃ¡ i
jiÄģĠ tÃŃngĠ
b ÄĵngĠ
Ġ yÃŃĠgÃ¨
ĠĠĠ yuÃ¨Ġ
ĠdÃ¬Ġ fÄģng
ĠfÃ¹Ġ jÃ¬nĠdeĠ
luÃ²Ġ shÄģnĠjÄ«Ġ
yÇĲnĠ yÃ²ngĠ
fÃ¨iĠ chÃºĠ
9 8
Ġ yÃ¬ĠshÃ¬Ġ
ĠĠĠ chÅ«Ġ
Ãło ĠÄĽrĠ
zhu ÄģĠ
ĠjÃŃĠ shÇĲĠ
hÄĽnĠ kuÃłiĠ
m an
Ġ sÃłiĠ
bÃ¬ ĠdeĠ
jiÇİo ĠdÃ¹Ġ
zuÇĴ ĠyÃ¬Ġ
ĠchÃ©ngĠ bÄĽnĠ
ng ĠĠĠ
dÃ¬ ĠhÃ©Ġ
ĠdÃ¬Ġ tÃºĠ
ĠxÃŃngĠ dÃ²ng
w Åį
wÃ©iĠ zhÇĶĠ
liÃ¡nĠ jiÄĵ
Ġ bÄ«ngĠ
xiÄģng ĠshÃ¬Ġ
yuÃłn ĠyÃ¬Ġ
ĠyuÃ¨Ġ duÃ¬Ġ
ĠjÅ«nĠ qÅ«Ġ
kÅįngĠ jiÄģn
Ġ nÃ©ngĠ
ĠĠĠ 16
shÃ¨ ĠbÃ¨iĠ
ĠdÃłnĠ bÃ¡iĠ
Ġ 00
Ġ xiÄģn
yÃº ĠhÃ©Ġ
shÄģn ĠxiÃłnĠ
zÇĶ ĠdeĠ
fÃłng ĠzÃłiĠ
biÄģnĠhÃło ĠwÃ¨iĠ
Ġ jiÇİ
Ġ yÃºnĠ
ĠĠĠ sÄ«Ġ
jÄ«Ġ chÇĶ
tÃ¡iĠbÄĽi ĠshÃ¬Ġ
mÃ²ĠsÄ«Ġ kÄĵĠ
5 4
z Ã©i
dÇİo ĠshÃłngĠ
ĠkÃ¨ ĠÄĽrĠ
shÃłng ĠbÃ¹Ġ
cÇĲ ĠtÃ³ngĠshÃŃĠ
cÃŃĠ zhÃŃĠ
kÄģi ĠgÅįngĠ
tÅįng ĠzhÄ«Ġ
xÇĲĠ huÄģnĠ
Ġ gÄĵ
ĠĠĠ zhÃ¨ngĠ
jiÇĶ ĠdeĠ
ĠzhÄ« ĠshÃ¬Ġ
liÃ¨Ġ rÃ¹Ġ
wÃłiĠjiÄģo ĠbÃ¹Ġ
jiÄģ ĠzÃłiĠ
yÇĲng ĠshÃ¬Ġ
huÃłnĠ zhÄĽĠ
c Å«Ġ
Ġ qÄ«nĠ
jÇĲn ĠyÇĴuĠ
cÄģnĠ xuÇİnĠ
Ã©ĠluÃ³Ġ sÄ«ĠdeĠ
bÃ¬Ġ miÇİn
ĠB Ġ
u Ġ
Ġ lÃ¡i
Ġ199 5ĠniÃ¡nĠ
zhÃ¨ngĠfÇĶ ĠdeĠ
200 Ġ
Ġ kÇİ
Ġ cÄģnĠyÃ¹Ġ
ĠĠĠ 2009
zhÄĵng ĠyuÃ¨Ġ
th Ġ
tÃ¬ ĠdÃłiĠ
cÇİiĠ fÇİng
chÃ¹Ġ zhÇİngĠ
00Ġ mÇĲ
Ġ 29
qiÃ¡ng ĠzhÃ¬Ġ
liÃºĠ yÃ¹Ġ
9 5
dÄģng ĠniÃ¡nĠ
ĠwÃ¨iĠ zÃłiĠ
bÃ¬Ġ miÇİnĠ
tÃŃĠchÅ«Ġ leĠ
xuÃ© ĠzhÅįngĠ
fÃ¹ ĠshÃ¬Ġ
ĠgÃ¨ ĠguÃ³Ġ
ĠhÃło ĠxiÃłn
jÇĲngĠ gÃłoĠ
chuÃłngĠ zuÃ²ĠdeĠ
ĠĠĠ bÄģĠ
shÄģn ĠdÃ¬Ġ
lÇĲĠ lÃ¹n
ĠdÃ©Ġ lÄģĠ
qi Çİo
fÄĵng ĠfÃ¹Ġ
cÃŃ ĠdeĠ
ĠyÇĲ ĠzÃłiĠ
zhÇĶĠ tÃŃ
zhÇİngĠ guÄģnĠ
ĠfÄĵnĠ biÃ©Ġ
ĠdiÃłnĠ yÇĲng
Ġ 12Ġ
Ġ kÇİiĠ
ĠĠĠ gÃ¹ĠshÃ¬Ġ
sÄ« ĠshÃ¬Ġ
ĠsÄ«Ġ mÇİĠ
zÅįngĠ jiÃło
jÄ«ngĠ diÇİnĠ
qÄ«Ġ zÇĲ
hÇİiĠ Ãłn
gÇĶĠ lÇİo
bÃ³Ġ lÃŃnĠ
bÃ¹ĠdeĠ cÅ«nĠzhuÄģngĠ
ĠĠĠyÇĲĠ xiÃł
s ÄģoĠ
zÃłn ĠzhÃ¹Ġ
p Ã¹Ġ
kÇĴu ĠdeĠ
jÃ¬Ġ suÃłn
ÄģĠ gÄĵnĠ
yÇĲnĠ rÃ¹Ġ
Ġ198 5ĠniÃ¡nĠ
liÇİoĠ jiÄĽĠ
ĠyuÃ¨Ġ lÃ¡iĠyuÃ¨Ġ
pÇĶĠ biÃłn
qiÃ¡ngĠ dÃ¹Ġ
ĠĠĠ wÃ©iĠ
sÅ« ĠwÃ©iĠ
jiÃłng ĠyÇĶĠ
ĠzÃłiĠ 194
ĠgÅįngĠ yÃ¬ngĠ
ÄģnĠ zhuÄģngĠ
cÇİiĠ qÇĶ
tÇĲĠyÃ¹Ġ chÇİngĠ
zhÃ³u Ġ
guÇİn ĠdeĠ
ĠzhÄ« ĠdÃ¬Ġ
guÄģnĠ fÄģng
shÄ«Ġ qÃ¹Ġ
xiÇİoĠxÃŃngĠ xÄ«ng
s ti
qiÃ¡ng ĠdeĠ
yÇĶn ĠshÃŃĠ
ĠrÃ©nĠ dÃłĠ
fÄģĠ shÄĵngĠdeĠ
z Ã²ng
Ġ fÃ¨ngĠ
Ġ suÅįĠ
ĠĠĠ fÃ¹Ġ
cÃ©ng ĠdeĠ
guÃłn ĠjÅ«n
al l
ĠshÃŃĠ hÃ²uĠ
ĠzhÄ« ĠjiÄģĠ
mÇİĠlÃ¡i ĠxÄ«ĠyÃł
xiÃł ĠzÃłiĠ
ĠgÃ¨Ġ zhÇĴng
ĠkÃ¨ ĠhÃ©Ġ
Ġ199 0ĠniÃ¡nĠ
Ġ juÃ©ĠdÃ¬ngĠ
suÇĴĠ yÇĴuĠdeĠ
tÃ³ngĠ xÃ¬ngĠ
Ġ Q
zÇİo ĠshÃłngĠ
ĠyÃ³u ĠjÄ«Ġ
ĠfÃ¹ĠzÃ©Ġ guÇİnĠxiÃ¡Ġ
zhÃłnĠ tÃ¡iĠ
shÇĴuĠ dÅ«
zhÇİnĠ lÇİnĠ
Ġh ÅįngĠ
Ġ ì
biÄģn ĠwÃ¨iĠ
hÅ« ĠyÃ¹Ġ
ĠxiÃłnĠ shÃłngĠ
zhÃłoĠ piÄģnĠ
xuÇİnĠjÇĶ ĠzhÅįngĠ
Ġ bÇİo
liÃ¨ ĠchÅ«Ġ
fÄĵi ĠxÃŃng
ĠyÄ«Ġ zhÃŃĠ
dÄ«Ġ qÃ¬Ġ
ĠĠĠzÄĵngĠ zÇĶĠ
Ġ shÇĴu
tu ÇĴ
ĠyÇĶĠ qÃŃĠ
B C
B S
Ġ dÃ¬ngĠ
ĠĠĠ 8
guÇİng ĠzhÅįu
mÃ² ĠÄĽrĠ
shÃ©nĠ me
huÃŃĠ guÄ«Ġ
yÃŃnĠ pÃ¡iĠ
Ġ yÃŃ
Ġ shÄģ
sÄģn ĠdÃłĠ
lÄģ ĠdÃ©Ġ
shÅ« ĠchÅ«Ġ
ĠchÃ©ngĠ xiÃłn
tÃłiĠ kÅįngĠ
cÃ¡iĠ liÃło
lÄģ ĠdeĠ
lÃ¡n ĠxÄ«Ġ
mÃŃngĠ dÄģnĠ
shÄĵnĠ qÇĲng
Ġ 2007
guÃ³Ġ wÃ¡ngĠ
ĠÃ©rĠgÄģiĠ dÃ¬ĠdeĠ
Ġ xiÃ¨
shÃ¬ ĠĠĠ
dÃ¹n ĠdeĠ
ĠchÅ«Ġ yÇİnĠ
Ġ199 1ĠniÃ¡nĠ
Ġ gÄĵnĠ
zhÃ¬Ġ 199
ĠyÇĴuĠ xiÄĵ
gÇĶĠ lÄģĠ
Ġ 9Ġ
qiÃ¡n ĠhÃ²uĠ
ĠshÃ¬Ġ bÄ«ngĠ
ĠhÃ©Ġ gÇĶĠ
zÇİoĠ qÄ«ĠdeĠ
t Ã²ngĠ
hÃ© ĠzÃłiĠ
ti v
sÄģn ĠrÃ©nĠ
ĠjÃ¬Ġ lÃ¹
ĠzhÇĶĠ yÇİnĠ
m er
Ãłn ĠshÃ¬Ġ
duÅįĠ cÃ¬
ĠyÇĲĠsÃ¨Ġ liÃ¨Ġ
duÃ¬ ĠyuÃ¡nĠ
qiÃº ĠhuÃ¬Ġ
bÃłn ĠniÃ¡nĠ
ĠbÃ¹Ġ mÇİnĠ
ĠjÃ¬Ġ yÃ¬Ġ
ĠduÃ¬Ġ cÇĲĠ
sÄĵnĠ lÃŃn
o d
Ġ 50
shÃŃ ĠhÃ©Ġ
zhÄ« ĠshÃŃĠ
zhu Åį
zÄģo ĠyÃ¹Ġ
bÃ³Ġ juÃ©Ġ
qÄ«nĠ wÃ¡ngĠ
Ġ tiÄĽĠ
ĠbÃ¹Ġ shÇİo
ĠshÃŃĠ bÃłoĠ
ĠchÃ©ngĠ leĠ
ĠyÇĲĠ qiÃ¡nĠ
ĠkÃ¨ ĠlÃ¬Ġ
xiÃłĠ jiÃłngĠ
jÃ¬ngĠ nÃ¨i
xÄ«ngĠ qÄ«
jiÃłnĠ zhÃ¹
mÃŃnĠzhÇĶĠ dÇİng
4 2
zhÃł ĠdÃłnĠ
p ÇĴ
tÃ¨ ĠlÃ¬Ġ
dÃ¬ng ĠyÃºĠ
liÃ¡nĠ rÃ¨nĠ
zhÇĲĠ kÃ²ngĠ
shÄģnĠdÅįngĠ shÄĽngĠ
i ch
Ġ zhÃ²ng
Ġ 2003ĠniÃ¡nĠ
tÃº ĠdeĠ
yÅįuĠ xiÃ¹
ĠzhÄģo ĠhÃ©Ġ
r y
Ġ kÇİi
Ġ juÃ©Ġ
bÇİo ĠdeĠ
ĠbÃ¨iĠ ÄĽr
xiÃłĠ lÃ¡iĠ
ĠĠĠgÃłiĠ yÃłoĠ
q Ãº
shÃ¨ng ĠchÅ«Ġ
shÃ²uĠ quÃ¡nĠ
ĠjiÃłoĠ yÃ¹Ġ
zÃłnĠ tÃŃngĠ
80 Ġ
ĠwÃ¨iĠ nÃ©ng
ĠjÅ«n ĠdÃ¬Ġ
fÄĵn ĠdeĠ
sÄģn ĠgÃ¨
Ġ195 0ĠniÃ¡nĠ
5 3
wÇİng ĠshÃłngĠ
tÇİ ĠÄĽrĠ
ĠdÃ¬Ġ zhÃ¨nĠ
bÄĽiĠ fÄģngĠ
pÇĶĠ chÃ¡Ġ
yÃ¡nĠjiÅ« ĠshÄĵngĠ
n Ã¹Ġ
ĠdeĠ jÃ¹Ġ
lÇĲngĠ dÇİoĠdeĠ
mÇĴuĠ xiÄĵ
4 3
tÃ¨ ĠÄĽrĠ
ĠxiÃłn ĠyÇĴuĠ
Ġ198 8ĠniÃ¡nĠ
Ġ xuÇİnĠ
Ġ sÃ¹Ġ
hÇİo ĠpÃŃngĠ
ĠzhÅįngĠ jiÄģnĠ
ĠshÃ¨ ĠyÃºĠ
ĠshÄĵngĠ mÃŃngĠ
cÄģnĠ shÃ¹Ġ
shÃ¨Ġ huÃ¬
ĠshÃŃĠ xiÃłn
chÇİngĠ bÇĲĠsÃłiĠ
Ġ kÇİoĠ
ar d
ĠjÃŃĠ bÃ¬ngĠ
ĠquÃ¡nĠ zhÇİngĠ
ĠsuÃ¬ ĠdeĠ
a w
d Ã¨ng
tÃ³ng ĠmÃŃngĠ
tÃ¨ ĠyÇĴuĠ
en t
pÄ« nĠ
qÄ«ngĠ chÃ¡oĠ
lÇľĠ sÃ¨Ġ
yÃ³u ĠxÃŃngĠ
ĠxÃŃng ĠbÃ¹Ġ
wÃ©n ĠzhÅįngĠ
dÃ¡ ĠzhÅįuĠ
pÃ¨i ĠbÃ¨iĠ
ĠgÅįngĠ nÃ©ng
gÇİiĠ zhÃ¬ĠwÃ¨iĠ
Ġ r
Ġ fÇİ
ĠĠĠdÃ¬Ġ yÄ«Ġ
gÇĶ n
gÇİng ĠyuÃ¡nĠ
ĠxÄ«nĠ zÄĵngĠ
fÃ¨iĠ yÃ¡nĠ
e e
k ÇĶ
m p
ch ÇĴu
qÃŃng ĠdeĠ
cÄģnĠ tÄ«ngĠ
fÃ¡ngĠ wÅ«Ġ
fÄĽn ĠsÄ«Ġ
ĠpÃŃngĠ lÃ¹nĠ
xÃŃngĠ tÃłiĠ
ĠzhÇĲ ĠzÃłiĠ
Ġ 20Ġ
fÄģngĠ mÇĲĠ
yÇĲngĠ xiÃłngĠ
huÃ¡ngĠ sÃ¨Ġ
tuÄ«Ġ guÇİngĠ
Ġ xiÃ¡nĠ
Ġ guÇİngĠdÅįngĠ
wÇĶ ĠgÃ¨Ġ
xÃ¹ ĠlÃ¬ĠyÃł
mÃ¬ ĠdeĠ
cÃºn ĠdeĠ
ĠwÃ©iĠ rÃłoĠ
tiÄģnĠ rÃ¡nĠ
ruÃ¬Ġ diÇİnĠ
shÄĵn ĠshÃ¬Ġ
dÃłĠ qÅ«Ġ
shÄĽngĠ jiÄĵĠrÇİngĠ
qÄ«ngĠ shÃłoĠniÃ¡nĠ
lÃ¹ĠyÃ¬Ġ sÄ«Ġ
a ni
ĠĠĠ 2019ĠniÃ¡nĠ
sÃ¬ ĠshÃ¬Ġ
hÃ¡i ĠzÃłiĠ
ĠzhÃ¬Ġ yÃŃĠ
ĠjiÄģĠ tÃŃng
ĠshÇĴuĠ cÃ¬Ġ
Ġ 2022ĠniÃ¡nĠ
Ġ xiÄģnĠhÃ²uĠ
tÃłi ĠdeĠ
ĠxÄ«Ġ ÄĽrĠ
Ġ15 Ġ
ĠĠĠ 6
zhÄĽ ĠhÃ©Ġ
18 8
ĠjÃ¬nĠ zhÇĲĠ
fÃ¨iĠ yÃ²ngĠ
ĠĠĠ k
bÇİoĠ luÃ³Ġ
chÅ«Ġ qÄ«Ġ
W Ġ
ĠĠĠ 0
ĠbÃ¨iĠ pÃ²Ġ
zhÇİngĠ zÇĲĠ
xÃ¬ngĠ nÃ©ngĠ
ĠwÄĵiĠ liÃ¡nĠ
wÃ¡ng ĠwÃ¨iĠ
ĠzÃłiĠ xÄ«nĠ
jÃ¬ngĠ zhÄĵng
ĠjiÄģngĠ sÅ«Ġ
ĠshÃ¨ĠhuÃ¬Ġ zhÇĶĠyÃ¬Ġ
Ġ mÃ¬Ġ
ĠĠĠ jÄ«nĠ
sÄģn ĠjÃŃĠ
zhÄĽ ĠhuÃ¬Ġ
luÃ² ĠsÄ«Ġ
ĠyuÃ¡nĠ yÄ«n
xiÄģoĠ liÃłngĠ
ĠshÃ¬ĠyÄ«Ġ kÄĵĠ
gÃ¹Ġ dÃ¬ngĠ
chuÃłngĠ zÃłoĠ
ĠmÃłi ĠkÃ¨Ġ
ĠzÃłiĠyÃ¬Ġ qÇĲĠ
Ġ nÇĲ
Ġ chÅįngĠ
huÃŃ ĠguÃ³Ġ
chÃ¨ n
xÄ«Ġ nÃ¡nĠ
mÇİĠ lÄģĠ
gÇİnĠ lÇİn
wÃºĠxiÃłnĠ diÃłnĠshÃ¬Ġ
Ġ shÃ©n
Ġ bÇİĠ
mÇİ ĠkÃ¨ĠsÄ«Ġ
ĠdeĠ zhÇĶĠyÃłoĠ
ĠjÃ¬Ġ zÇİi
xiÄģngĠ tÃ³ngĠdeĠ
cÃ¨Ġ liÃ¡ng
Ġ18 5
fÄĵn ĠchÃ©ngĠ
yÃ¬ng ĠjÃŃĠ
ĠbÃ¹Ġ lÃ¡iĠ
ĠdÃ¬Ġ zhÃ¬Ġ
ĠsÄ«Ġ kÄĵĠ
zh ÄĵĠ
xÄ«n ĠshÃ¬Ġ
lÄģ ĠhÃ©Ġ
48 Ġ
ĠdeĠ huÃłĠ
ĠjÃŃĠ hÃ²uĠ
ĠgÅįngĠ qÇĲngĠ
xiÄģngĠ bÇĲĠ
dÃ¹Ġ shÇĲĠ
ĠzuÃ¬ ĠdÃłĠ
ĠshÃ¬ĠjiÃ¨Ġ bÄĵiĠ
chÇİnĠshÄĵngĠ leĠ
Ġ dÄ«ngĠ
ĠshÃŃĠ xÃ¬ngĠ
tÃ¨Ġ diÇİnĠ
ĠguÃ³ĠjiÄģĠ duÃ¬Ġ
tiÄĽĠlÃ¹Ġ chÄĵĠzhÃłnĠ
du ÇĴĠ
cÃ³ng ĠwÃ¨iĠ
wÃ¡nĠ zhÄĽngĠ
ĠshuÄģngĠ fÄģngĠ
Ġ tÃłi
ĠniÃ¡nĠ lÃŃngĠ
xÄ«nĠ wÃ©n
fÄĵnĠ pÃ¨iĠ
ĠzhÃ¨Ġ yÃłngĠ
7 4
Ġ wÃłi
tuÄ« ĠjiÃłnĠ
fÃºĠ luÃ³ĠlÇĲĠ
nÃ³ngĠ cÅ«nĠ
9 6
k Ã²uĠ
lÇĲ ĠbÃ¹Ġ
dÄĽng ĠdeĠ
lÃ¨i ĠxÃŃngĠdeĠ
ĠtÄģĠ cÃ©ngĠ
C O
Ġ Ï
Ġ hÃºĠnÃ¡nĠ
jÃŃ ĠbÃ¹Ġ
zi ĠhÃ©Ġ
ĠzÃłiĠ tÄģĠdeĠ
gÄģoĠ dÃ¡Ġ
xiÃ©Ġ dÃ¬ngĠ
ĠshÃ¬ĠzhÅįngĠ huÃ¡ĠrÃ©nĠmÃŃnĠgÃ²ngĠhÃ©ĠguÃ³Ġ
yÇĲngĠxiÇİng ĠlÃ¬Ġ
b ÄĵnĠ
chÅįng ĠjÄ«Ġ
tÃ¨Ġ lÄģĠ
qÃ¬Ġ xuÃ¡nĠ
zhÃłngĠ fÅ«Ġ
10 00
ĠgÅįngĠ gÃ²ng
tÃ¨Ġ zhÄĵng
liÃ¡nĠ jiÃ©Ġ
ĠzÃ¬Ġ yÃ³u
Ġ198 9ĠniÃ¡nĠ
ĠĠĠjiÄģĠ tÃŃngĠ
Ġ X
Ġ cÃłi
Ãłn ĠzhÅįngĠ
xi ÄģĠ
dÃ²ngĠ huÃł
zhuÇİnĠ yÃŃ
gÃ¨ngĠ duÅįĠdeĠ
ĠdeĠzuÃ²Ġ biÄģoĠwÃ¨iĠ
tÄģ ĠzÃłiĠ
nÃł ĠdÃ©Ġ
shÄģĠ sÇĲĠ
ĠS Ġ
fÃ©i Ġ
shÄĵng ĠzhÃ¬Ġ
ĠshÃ¬Ġ huÃ¬Ġ
ĠyÄ«Ġ rÃ©nĠ
Ġse ction
duÅį ĠmÃŃngĠ
ĠdÃło ĠhÃ©Ġ
zhuÄģnĠ mÃ©nĠ
ĠcÃ©ngĠ rÃ¨n
Ġ 40
xuÃ© ĠbÃ¹Ġ
lÇľ ĠdeĠ
ĠdÃło ĠyÄ«Ġ
fÃ¹Ġ jÃ¬n
fÄģngĠ xiÃłng
ĠtÃ³ngĠ pÃ¡iĠ
Ġ 11Ġ
ĠĠĠ shÇĲĠyÃ²ngĠ
huÃ¬ ĠyÃºĠ
sÃ¬ ĠdÃłĠ
xuÇİn ĠchÅ«Ġ
ĠniÃ¡nĠ qÄ«ngĠ
ĠyÃºĠ lÃ¨iĠ
ĠtÃ³ngĠ yÃłngĠ
xÃ¬ĠliÃ¨ ĠdeĠ
Ġ mÃ©nĠ
yÄ«Ġ xiÄĵĠ
shÄĵngĠ jÄ«Ġ
Ġ shÄĽnĠ
ĠĠĠ 5
yÃ¬ ĠbÃ¹Ġ
quÃ¡n ĠshÃ¬Ġ
ĠshÃ¬Ġ jÃ¬ĠdeĠ
ĠzÃłiĠ tÄģĠ
ĠshÃŃĠ zhÃ¬Ġ
ĠsÄ«Ġ tÇİĠ
ĠjiÄģĠ zÃº
mÃ¹Ġ nÃŃĠ
chÄĵĠ liÃłng
sÃ¨Ġ fÅ«Ġ
Ġ198 3ĠniÃ¡nĠ
bÄģn ĠdeĠ
rÃ©ng ĠzÃłiĠ
31 Ġ
et Ġ
guÄģnĠ cÃ¨Ġ
n Ã¼Ã¨
zuÃ¬ ĠwÃ¨iĠ
guÃ³Ġ huÃ¬Ġ
ĠtÄģĠ rÃ¨nĠwÃ©iĠ
mÄĽiĠguÃ³Ġ rÃ©nĠ
Ġ yÇĴng
Ġ xÇĶĠduÅį
jiÄģ ĠgÅįngĠ
hÇİi ĠshÃłngĠ
zÇĴng ĠhuÃ¬Ġ
sÇĲ ĠxÃŃngĠ
qÃ¬ng ĠzhÃ¹Ġ
ĠyÇĴuĠ dÃłĠ
fÃ¹Ġ jÃ¬nĠdeĠ
qÇĶĠ xiÄģo
ĠĠĠgÄĵnĠjÃ¹Ġ 2020ĠniÃ¡nĠmÄĽiĠguÃ³ĠrÃ©nĠkÇĴuĠpÇĶĠchÃ¡ĠdeĠshÃ¹ĠjÃ¹Ġ
bÃ¬ng ĠwÃ¨iĠ
guÃ³Ġ lÃ¬Ġ
jiÄĵĠ rÃ¨nĠ
zÄĵngĠjiÄģĠ leĠ
â Ĩ
Ġ chÃº
Ġ dÇİngĠ
jÄ«ngĠ jÃ¬
jiÄģng ĠtÄģĠ
fÃº ĠlÇĲĠ
wÇĶ ĠyuÃ¨Ġ
huÃŃ ĠhÃ©Ġ
sÇĲ ĠyÃºĠ
lÇİo ĠshÄ«Ġ
ĠyÄ«Ġ zhÃ¬Ġ
ĠchÅ«Ġ fÄģĠ
bÄģnĠ jiÇİngĠ
jiÇİngĠ shÃ¹Ġ
qiÄģnĠ yuÄĵĠ
shÃłngĠhÇİi ĠshÃ¬Ġ
xiÄģng ĠjÃ¬Ġ
cÇĲ ĠshÃŃĠ
qiÃ¨ ĠÄĽrĠ
ĠyÇĴuĠ zhÃ¹Ġ
ĠyÄ«Ġ cÃŃĠ
shÇĴuĠ bÅįĠ
ĠbÃ¬ngĠ rÃ¹Ġ
Ġ sÃ²ng
wÃ¹ ĠhÃ©Ġ
xÃ¬ng ĠshÃ¬Ġ
fÃ¡ng ĠwÃ¨iĠ
ĠbÃ¹Ġ yÄ«Ġ
zhÃ¨ngĠ xiÃ©Ġ
ĠI n
k ÇĶĠ
Ġ qÃŃnĠ
Ġ bÄģoĠhÃ¡nĠ
shÃłng ĠyÄ«Ġ
dÄģn ĠyuÃ¡nĠ
ĠshÃ¬Ġ yÃ³u
ĠlÃ¬Ġ shÇĶĠ
ĠdÃłĠ dÃło
qÃºnĠ dÇİo
dÄĵngĠ chÃ¡ngĠ
cÄģnĠmÃ³u ĠzhÇİngĠ
ĠĠĠ 3Ġ
guÃ² ĠyÃºĠ
duÃ¬Ġ shÇĴuĠ
ĠdeĠjÃ¬Ġ lÃ¹Ġ
kuÃ²Ġ zhÇİn
Ġ kÄĽĠnÃ©ngĠ
Ġ mÃ¡oĠ
fÃ¹ ĠjiÄģĠ
bÄģ ĠÄĽrĠ
piÃłn ĠdeĠ
ĠlÃ¬Ġ ziĠ
dÃłiĠ lÃ¡iĠ
shÄģnĠ mÃłiĠ
zhÃłoĠ kÄģi
h ÄĵngĠ
Ġ sÃłiĠjÃ¬Ġ
ch Ä«
ĠjÃŃĠ xÃŃngĠzhÃ¨ngĠ
ĠjiÃłnĠ kÄģngĠ
zhÃŃĠ yÃ¨
gÇİiĠ gÃ©
shuÄģngĠ dÇİĠ
ĠsÃ¬Ġ chuÄģnĠ
lÃ¨iĠsÃ¬ ĠdeĠ
2 ĠmÇĲĠ
3 4Ġ
Ġ 2006
zhÃłnĠ lÇĲng
yÄĽĠ kÄĽĠyÇĲĠ
yÄ«ngĠ gÄģi
ĠÄģĠ lÄģĠ
Ġ000 ĠrÃ©nĠ
lÃ¡iĠzÃ¬ ĠyÃºĠ
ĠĠĠ 12
mÄĽi ĠjÅ«nĠ
zhÃŃ ĠzhÃ¬Ġ
ĠyÇĲ ĠzhÃ¬Ġ
hÇİiĠ bÃ¡ĠgÄģoĠ
Ġd Ã¨ngĠ
1 20
o li
ĠĠĠ dÃłn
qÃ¬ ĠhÃ©Ġ
zhÇĶĠ xÃŃ
nÃłĠ cuÃ¬
cÃºnĠ zÃłiĠdeĠ
9 7
jÇĲ ĠniÃ¡nĠ
zhuÃłng ĠjÄ«Ġ
ĠkÃ¨Ġ yÃ¹nĠ
zÇĶĠ zhÇĲĠ
o ng
Ġ chÇĶĠ
Äģ ĠÄĽr
ĠĠĠ 2018ĠniÃ¡nĠ
hÃ© ĠwÃ¨iĠ
duÅį ĠgÃ¨
shÄĽng ĠdÃłoĠ
lÃ¡o ĠgÅįngĠ
90 Ġ
nÃ¡nĠjÃŃĠ zhÅįuĠdeĠ
Ġ xÄ«ng
Ġ198 4ĠniÃ¡nĠ
fÄĵi ĠzhÅįu
chuÃłng ĠxÄ«nĠ
Ġhan tĠ
ĠĠĠrÃ¡n ĠÃ©rĠ
chÃ¡ng ĠjiÃłnĠ
chuÃ¡n ĠzhÄ«Ġ
ĠzhÄ«Ġ zhÃłnĠ
Ġ cÇİiĠyÃ²ngĠ
yÃ¡ng ĠxiÃłnĠ
ĠxiÃłn ĠzhÄ«ĠxiÃłnĠ
yÃ¡nĠ zhÃ²ngĠdeĠ
fÄģĠshÄĵngĠ leĠ
shÇĶĠdeĠ zhÃŃĠwÃ¹Ġ
e x
bÃ¹Ġ fÃ¨nĠ
xÄ«Ġ bÄĽiĠ
duÃ¬Ġ wÇĶĠ
ĠyÃ³uĠ cÇĲĠ
jiÃłngĠ dÄ«
shuÃłiĠ lÇĲngĠ
tÇĶĠÄĽr ĠqÃŃ
jiÄģn ĠshÃ¬Ġ
mÃ¬ ĠsÄ«Ġ
ĠzhÄ«Ġ liÃºĠ
suÇĴĠ shÇĶ
tÃ³u ĠbÃ¹Ġ
ĠyÇĴuĠ guÄģn
xiÃłoĠ yÃ¬ngĠ
ĠzhÇĲ ĠshÃ¬Ġ
b ÃŃĠ
xÄ«n ĠrÃ©nĠ
diÃłn ĠdeĠ
yÃło ĠdeĠ
ĠjiÃłn ĠshÃ¬Ġ
ĠtÄģĠ duÃ¬Ġ
kÄģiĠ zhÇİnĠ
ĠxiÇİoĠ shuÅįĠ
8 7
xÄ« ĠshÃ¬Ġ
zÇĴngĠ cÃ¡iĠ
ĠdÅįngĠ jÄ«ngĠ
ĠshÃ¬ĠyÃ¬Ġ dÃłĠlÃ¬Ġ
xu ÃłnĠ
le ĠĠĠ
huÃ¬ ĠyÇĲĠ
zÃ¬ ĠwÃ¨iĠ
huÃ¡i ĠyÃŃĠ
ĠzÃłiĠ yÇĶĠ
ĠyÇĲ ĠyÃºĠ
ĠdÃłĠ qiÃ¡oĠ
ĠlÃ¬ngĠ wÃłi
n o
Ã© ĠwÃ¨iĠ
hÄĵi ĠrÃ©nĠ
jÄ«Ġ bÄĽnĠ
yÃłĠ mÃ¹Ġ
ĠjiÃ©Ġ shÃ¹Ġ
Ġ xÃ¹Ġ
huÃ¬ ĠshÃ¬ĠdÃ¬Ġ
zhÇĲ ĠdeĠ
huÃ¡n ĠxÃŃngĠ
ĠgÅįngĠ lÃ¹
ĠdÃ© ĠdÃłoĠleĠ
ĠshÃ¨Ġ jÃ¬ĠdeĠ
chuÃ¡nĠ mÃ©iĠ
zhÅįuĠ biÄģnĠ
yÃ¹nĠdÃ²ng ĠdeĠ
Ġ lÃŃ
yÃ¡n ĠshÃŃĠ
qiÄģnĠ dÃ¬ngĠ
nÃ¡Ġ pÃ²Ġ
zhÃ¹ ĠdÃ¬Ġ
luÃ³ ĠdÃ©Ġ
zhÄĽng ĠgÃ¨
ĠshÃ¬ĠyÄ«Ġ zuÃ²Ġ
xiÃłĠxiÃ¡ ĠyÇĲĠxiÃł
xÄ«nĠjiÄģĠ pÅįĠ
Ġ lÃ©i
Ġ 2024
ĠĠĠ 3ĠyuÃ¨Ġ
bÄĽn ĠxiÃłnĠ
xÇĲ ng
zhÇĲĠ dÃ¬ngĠ
hÃ¡ngĠ tiÄģnĠ
gÇĶĠfÃ¨n ĠyÇĴuĠxiÃłnĠgÅįngĠsÄ«Ġ
p Å«Ġ
zhÇİng ĠdÃłĠ
ĠjÃŃĠ lÃŃnĠ
tÇĲĠ yÃ¹
fÃłngĠ qÃ¬
gÃ© ĠÄĽrĠ
70 Ġ
xÄ«Ġ bÄĽiĠbÃ¹Ġ
mÃ¹ĠsÄ«Ġ lÃŃnĠ
ĠbÃ¹Ġ ÄĽrĠ
ĠxÃŃngĠ shÇĲĠ
fÇİĠ tÃŃngĠ
cÄģnĠyÃ¹Ġ leĠ
ĠsuÃŃĠ zhe
Ġ Ã©
Ġ luÃ²
ĠdeĠ gÃ¹ĠshÃ¬Ġ
ĠzÃłiĠ gÄģiĠ
ĠlÃ¬Ġ yÃ²ng
jiÄĵĠ shÅįuĠ
yÃŃĠ chÇİn
xÃºnĠ huÃ¡nĠ
yÄ« ĠbÃ¹ĠfÃ¨n
zhÃłn ĠwÃ¨iĠyÃºĠ
ĠwÃ©iĠ chÃŃĠ
jÃ¬ngĠ sÃłiĠ
ĠxiÄģngĠ dÄģng
ĠshÄĵngĠzhÇİng ĠyÃºĠ
ĠyÃºĠ 193
ĠnÃ¡nĠ ziĠ
hÇİiĠbÃ¡ĠgÄģoĠ dÃ¹ĠwÃ¨iĠ
2 ĠĠĠ
c on
Ġ shÃ¹n
zhÄĽ ĠwÃ¨iĠ
xÃºn ĠqiÃºĠ
nuÃ² ĠyÄ«Ġ
ĠgÅįngĠ chÇĲ
xÄ«Ġ nÃ¡nĠbÃ¹Ġ
ĠxiÃłnĠ jÄ«nĠ
yÃ³uĠ tÃłiĠrÃ©nĠ
bÄĽnĠ tÇĶĠ
ĠzhÅįngĠguÃ³Ġ guÃ³ĠmÃŃnĠ
Ġ diÃłnĠshÃ¬Ġ
ĠqiÃº ĠhuÃ¬Ġ
shÄĽngĠ wÄĽiĠ
mÄĽiĠ yuÃ¡nĠdeĠ
guÄģngĠ xÃ¹Ġ
du Ä«Ġ
dÄģn ĠyÄ«Ġ
yÃ¹n ĠhÃ©Ġ
ĠbÃ¹Ġ dÃŃĠ
ĠdeĠchÃ©ngĠ zhÃ¨nĠ
Ġ bÃ¡i
lÄģ ĠÄĽrĠ
ĠyÄ«Ġ liÃ¡oĠ
yÇĲnĠ zhÇĴngĠ
t ÄģoĠ
Ġ chÄĵĠzhÃłn
ĠĠĠ 2007
wÃ¹ ĠyuÃ¡nĠ
bÃº ĠyÃłoĠ
ĠniÃ¡n ĠniÃ¡nĠ
ĠxÃŃngĠ xiÃłngĠ
lÃ¹Ġ zhÃłnĠ
ĠzhÃ¨Ġ shÇĴuĠ
bÄģĠ lÄģĠ
yÃŃngĠ yÃ¨Ġ
ĠhÃ©Ġ lÇĲĠ
ĠyÄ«Ġ zhÄ«Ġ
wÃ©nĠ huÃłĠdeĠ
bÄģngĠ zhÃ¹
d Äģo
Ġ bÇİi
ĠĠĠ 5ĠyuÃ¨Ġ
gÄĵ ĠjÃ¹Ġ
ta Ġ
ĠguÃ³Ġ mÃŃn
mÃ²ĠsÄ«Ġ kÄĵ
wÄĽiĠfÃ¹Ġ shÅ«ĠjÃ¬Ġ
Ġ hÃ¨
ĠĠĠ v
cÃ¬ ĠwÃ¨iĠ
wÇĶ ĠdÃ¬Ġ
mi Çİo
biÃ© ĠdeĠ
sÄ«Ġ lÃ¡nĠ
ĠkÃ¨Ġ lÄģĠ
e b
ĠĠĠ st
zhÃŃ ĠyuÃ¡nĠ
shÄģng ĠdeĠ
90 ĠniÃ¡nĠ
ĠdÃ¬Ġ miÃłnĠ
xÄ«Ġ lÃł
rÃ³ngĠ nÃłĠ
dÇĲĠ kÃłngĠ
xÃºnĠyÃ¡ng ĠjiÃłnĠ
o b
q ÃºĠ
Ġ zhÄĵn
Ġ nÇİi
ĠwÃ¨iĠ cÇĲĠ
guÄ«Ġ fÃłnĠ
lÃŃĠ ziĠ
ĠqÃŃĠzhÅįngĠ nÃ¡nĠxÃ¬ngĠ
dÅ«Ġ dÅ«Ġ
kuÃłiĠ sÃ¹
Ġ wÅ«ĠkÃ¨ĠlÃ¡nĠ
yÃ³u ĠqÃŃĠ
mÃ©n ĠdeĠ
shÇĴuĠ xÃŃĠ
cÃ©ngĠ shuÇĲĠyÃ¹Ġ
jiÇİnĠ dÄģnĠ
Ġ198 6ĠniÃ¡nĠ
zhuÃłnĠdeĠ xiÇİoĠxÃŃngĠxÄ«ngĠ
8 5
t y
Ġ yÃ¡oĠ
ĠĠĠ pÃŃngĠjiÃłĠ
ĠkÃ¨Ġ lÃ¡iĠ
qÇĲ ĠleĠ
yuÃ¨Ġ nÃ¡nĠ
jiÃ¨Ġ shÃło
fÇĶĠ zhÃ¹Ġ
f ÃłĠ
i st
Ġ pÇĶ
Ġ re
Äģ ĠlÇĲĠ
yÃ³u ĠrÃ©nĠgÅįngĠ
zhÇİng ĠwÃ¨iĠ
ĠshÃ¬Ġ nÃ¨iĠ
ĠdÃ¬Ġ 1Ġ
ĠhÃ²uĠ qÄ«Ġ
ĠshÃ¨ ĠjÄ«Ġ
nÃłĠ xiÄĵĠ
ĠdeĠdÃ¬Ġ Ã¨r
leĠyÄ«Ġ xiÄĵĠ
ĠjiÃłnĠlÃ¬Ġ leĠ
A O
Ġ huÃłnĠ
liÃº ĠdeĠ
tuÄ« ĠchÅ«ĠdeĠ
ruÇİn ĠtÇĲĠ
ĠshÃŃĠ yÃ²ngĠ
ĠyÄ«Ġ tiÃ¡oĠ
l ÇĴngĠ
Ġ xÃ¬nĠ
Ġ jÇĲĠ
zhÃŃ ĠlÃ¬Ġ
juÃ© ĠleĠ
a mi
ĠĠĠ chÃºĠleĠ
shÃ¹ ĠshÃ¬Ġ
cÃ¬ ĠdÃłĠ
zhÅįngĠ xÄ«nĠ
miÃłnĠ lÃŃnĠ
luÃ³Ġ bÃ³ĠtÃ¨Ġ
ĠdeĠyÄ«Ġ xiÄĵĠ
Ġ chÃ¡oĠxiÄģnĠ
jiÃło ĠyÃºĠ
ĠjiÃłn ĠwÃ¨iĠ
bÃłnĠ yÇİnĠ
qÃºnĠ tÇĲĠ
yÇĶ ĠshÃ¬Ġ
il l
ĠzÃłiĠ rÃ¬ĠbÄĽnĠ
ĠdÃłĠ liÃłng
ĠxÄ«Ġ yÇĲnĠ
tÃºĠ xiÃłngĠ
fÄĵnĠbiÃ© ĠwÃ¨iĠ
shuÃ²ĠshÃ¬Ġ xuÃ©ĠwÃ¨iĠ
ĠĠĠ 2017ĠniÃ¡nĠ
ĠzÃłiĠ bÄĽiĠ
wÃ©iĠ zhÇĲĠ
jiÃłoĠ shÃ²u
cÄģnĠ sÃłi
dÄģngĠ jÃºĠ
ĠrÃ©nĠmÃŃnĠ bÃ¬Ġ
Ġ yÃ¨
gÃ¨ ĠdÃ¬Ġ
ĠdeĠ xiÃłnĠ
ĠjÃ¬n ĠniÃ¡nĠ
ĠgÅįngĠchÃ©ngĠ shÄ«Ġ
ĠliÃºĠ yÃ¹Ġ
Ġ195 8ĠniÃ¡nĠ
zhÄ« ĠyuÃ¡nĠ
mÃ©ng ĠjÅ«nĠ
ĠjÃŃĠ shÇĲ
zÇĴngĠ jiÄģnĠ
ĠdÃ¬ĠÃ¨rĠ cÃ¬Ġ
shÄĽnĠ chÃ¡Ġ
ĠzÃłiĠdÃ¬Ġ Ã¨rĠ
pÃŃngĠjÅ«nĠ hÇİiĠbÃ¡ĠgÄģoĠdÃ¹ĠwÃ¨iĠ
jiÃłoĠyÃ¹ ĠbÃ¹Ġ
ĠĠĠ jÄ«ngĠjÃ¬Ġ
ĠĠĠ 2016ĠniÃ¡nĠ
jÄ« ĠshÃ¬Ġ
zÃº ĠqiÃºĠduÃ¬Ġ
ĠhÃ©Ġ jÃŃĠ
ĠÄĽr ĠdÃ©
fÇİĠ lÃ¡nĠ
L E
Ġ cÃ¨Ġ
duÃ¬ ĠhÃ©Ġ
nÃŃ ĠxÄ«ĠyÃłĠ
zhÅįngĠ yÄģng
ĠxÄ«Ġ ÄģnĠ
ĠqiÃºĠ chÇİngĠ
qÃŃngĠ xÃ¹Ġ
wÄĵiĠ xiÇİnĠ
gÃłoĠ sÃ¹Ġ
huÃ¡ĠshÃ¨ngĠ dÃ¹n
Ġ kÃ¹
gÅįngĠ kÄģiĠ
chÇİngĠ jÇĲngĠ
gÇİiĠ biÄģnĠ
ĠÃ©rĠgÄģiĠdÃ¬ĠdeĠ pÃŃngĠjÅ«nĠhÇİiĠbÃ¡ĠgÄģoĠdÃ¹ĠwÃ¨iĠ
Ġ qiÅ«Ġ
ĠĠĠ tiÄģnĠ
fÄĵn ĠzhÄ«ĠyÄ«Ġ
ĠwÃ¨iĠ mÃŃngĠ
ĠyÇĴuĠ lÃ¬Ġ
ĠjÄ«Ġ yÄ«nĠ
tÅįngĠ xÃ¹nĠ
liÃ¡ng ĠshÃŃĠ
suÇĴĠ chÃ¹ĠdeĠhÇİiĠbÃ¡ĠwÃ¨iĠgÄģoĠyÃºĠhÇİiĠpÃŃngĠmiÃłnĠ
yÇĴngĠ jiÇĶĠ
2010ĠniÃ¡nĠ mÄĽiĠguÃ³ĠrÃ©nĠkÇĴuĠpÇĶĠchÃ¡ĠdeĠshÃ¹ĠjÃ¹Ġ
pÃŃnĠ lÇľĠ
hÇİnĠ mÃ²
n Ã¡ngĠ
chÅ« ĠdÃłoĠ
tu ÇĴĠ
yÇİn ĠchÅ«
biÄģn ĠchÃ©ngĠ
yÃ¬ng ĠduÃ¬Ġ
ĠchÅ«Ġ xÃŃĠ
gÇİnĠ rÇİn
Ġ194 6ĠniÃ¡nĠ
yÇĲnĠzhÇĴngĠ zÄģiĠpÃ©iĠ
Ġ huÃ¡nĠ
chÃ¡o ĠdeĠ
Ġ cÃ¡i
Ġ liÇİngĠgÃ¨Ġ
chÅ« ĠrÃ¨nĠ
luÃ² ĠdeĠ
shuÅį ĠshÃ¬Ġ
pi ÄģoĠ
yÃ¡nĠ zhÃ²ng
chuÃłngĠ bÃłnĠ
kÇİĠluÃ³Ġ lÃ¡iĠ
yuÃ¡n ĠdÃ¬Ġ
shÄĵn ĠshÃłngĠ
xuÃ©Ġ xÃŃ
ĠsÄ«Ġ xiÇİngĠ
ĠxÄ«Ġ xÄ«Ġ
ĠzhÄ«Ġ qiÃ¡n
mÇĲĠ yÃłĠ
gÇİngĠ kÇĴuĠ
ĠyÇĲĠsÃ¨Ġ liÃ¨
Ġ guÅį
Ġ yÃºnĠnÃ¡nĠ
fÄĵng ĠdeĠ
zÃº ĠyÇĲĠ
jÄ«Ġ bÇİiĠ
fÄĵiĠ fÇİĠ
zhÇİnĠ kÄģi
yÃ³uĠrÃ©nĠgÅįngĠ yÇĲnĠzhÇĴngĠzÄģiĠpÃ©iĠ
lÃ¬ ĠzhÅįngĠ
yÄĽ ĠbÃ¹Ġ
gÄĵ ĠdeĠ
qÃŃng ĠxÃŃngĠ
jÅ«ĠmÃŃnĠ diÇİnĠ
rÃ¨ĠdÃłiĠ fÄĵngĠbÃłoĠ
a la
jÃ¬ ĠjÃŃĠ
sÃ¬ ĠmÃŃngĠ
rÃ¹Ġ qÄ«n
4 6Ġ
jÃ¬ ĠzÃłiĠ
yÃ¹ ĠjÃ¬Ġ
ĠzhÅįngĠ zuÃ¬Ġ
ĠzhÄ«Ġ fÇĶĠ
jÃ¹Ġ qÃŃngĠ
ĠqiÃº ĠdeĠ
ĠshÃ¨Ġ huÃ¬
ĠxÄ«nĠ zÄĵng
ĠhÃłnĠ zÃºĠ
Ġ ziĠ
dÃ²ng ĠgÅįngĠ
lÇĶ ĠkÃ¨Ġ
ĠyÇĲĠ shÃłngĠdeĠ
ĠyÇĶĠ cÇĲĠtÃ³ngĠshÃŃĠ
ĠwÃ©iĠ yÃłĠ
i sĠĠĠ
Ġ 28
ĠĠĠ jÃ¬Ġ
jiÃ¨ ĠshÃŃĠ
bÄ«ng ĠbÃ¹Ġ
shÇİn Ġ
ĠzhÃ¬Ġ zÃło
duÅįĠ yÃłngĠ
ÃłnĠ zhÃłoĠ
zÇĶĠ chÃ©ng
h Ġ
gu Äģ
yÇĲ ĠhÃ²uĠ
yÇİn ĠshÄĵngĠ
dÄĵng ĠjÃ¬Ġ
ĠbÃ¹Ġ jiÄģĠ
wÃ©iĠ ÄĽr
ĠzhÅįngĠguÃ³Ġ dÃłĠlÃ¹ĠdeĠ
xiÃłĠxiÃ¡ĠyÇĲĠxiÃł ĠdÃ¬ĠqÅ«Ġ
Ġ tÃŃngĠ
Ġ tuÄ«Ġ
Äģn ĠshÃ¬Ġ
chÅ« ĠshÄĵngĠ
xiÃłng ĠxÄ«Ġ
gÃ© ĠlÃ¬Ġ
zÃ© ĠyÇĴuĠ
dÃłĠ shÇĲĠ
nÃ¡nĠ fÄģngĠ
ĠzÃ¬Ġ dÃ²ngĠ
zhÃłn ĠzhÃ¬Ġ
kÅįng ĠjÅ«n
on ĠĠĠ
bÃ¡i ĠzhÃ¬Ġ
zÄ«Ġ zhÃ¹Ġ
B CĠ
Ġ xÅ«ĠyÃłoĠ
yÇĶ ĠyÇĲĠ
hÃ²u ĠshÃ¬Ġ
shÃ¹n ĠshÃŃĠ
ĠpÃŃngĠ jiÃłĠ
shÃłoĠ jiÃłngĠ
liÇİoĠ jiÄĽ
9 3
p Å«
Ġ yÅįuĠ
shÄ« ĠdÃ¬Ġ
ĠxiÃłnĠ rÃ¹Ġ
kÄĵĠ fÅ«
biÄģnĠ jÃ¬ngĠ
ĠqÃŃĠzhÅįngĠ nÃ¡nĠ
fÄģĠzhÇİn ĠdeĠ
ĠjÃ¬nĠshÃ¬Ġ chÅ«ĠshÄĵnĠ
Ġ shÃ¨nĠ
ĠbÃ¹Ġ biÃłnĠ
qÅ«Ġ fÄĵnĠ
ĠbÃ¨iĠ qÃŃĠ
cÃ¡iĠ chÇİnĠ
gÄģnĠ sÃ¹Ġ
fÄĵiĠlÇľĠ bÄ«n
mÃ¡oĠzÃ©Ġ dÅįngĠ
Ġ xÇĶĠ
ĠĠĠ 10ĠyuÃ¨Ġ
lÇĶ ĠshÃ¬Ġ
ĠzhÃ¬Ġ shÇİo
sÄ«Ġ xiÇİngĠ
zÄ«Ġ shÄĽngĠ
chuÃ¡nĠ bÅį
zÇĲĠ nÇļĠ
gÇİnĠ juÃ©Ġ
ĠtÅįngĠ guÃ²
ĠsÅ«Ġ liÃ¡nĠ
wÃ¨nĠtÃŃ ĠdeĠ
wÃºĠrÃ©nĠ jÄ«Ġ
5 ĠgÃ¨Ġ
Ġ 26
fÃº ĠdÃ©Ġ
zÃº ĠrÃ©nĠ
jiÅ« Ġ
80 ĠniÃ¡nĠ
ĠdÃ¬Ġ sÄ«Ġ
ĠyÃºĠ dÃ¬Ġ
nÃ¡nĠ zi
ĠĠĠS t
pÃłnĠ juÃ©Ġ
Ġãĥ ¼
zhÃłn ĠjÃ¬Ġ
bÇİo ĠzhÃ¨ngĠ
fÄĵi ĠlÃ¬Ġ
qÇĶ ĠjiÄģĠ
jÃºĠ jÃºĠzhÇİngĠ
Ġ198 2ĠniÃ¡nĠ
miÇİnĠ diÄģnĠ
gÃ²ngĠchÇİnĠ zhÇĶĠyÃ¬Ġ
ĠÃło ĠdÃłĠlÃ¬Ġ
ĠgÅįngĠkÄģiĠ sÃłiĠ
zÃ¬ĠxÃŃngĠ chÄĵĠ
1 ĠhÃłoĠ
d ÇĶ
â Ī
ĠĠĠ bÄĽiĠ
fÃ¡n ĠzhÃŃĠ
ĠzhÃ¨ ĠbÃ¹Ġ
ĠjiÄģng ĠqÃŃĠ
zhÃ¨ ĠbÃ¹Ġ
miÃ¡o ĠhuÃ¬Ġ
ĠzhÄ« ĠjÃ¬Ġ
shÄģngĠ wÃ¡ngĠ
wÃ¡nĠchÃ©ngĠ leĠ
zhÇĲĠhuÄ«Ġ guÄģnĠ
ĠyÄ«Ġ mÃ©iĠ
fÇİĠ lÃ¬ngĠ
jiÄģoĠ huÃłnĠ
hÄĽnĠ duÅį
Ġ198 7ĠniÃ¡nĠ
ĠshÃ¬ĠzhÅįngĠ xÄ«nĠ
Ġ 27
ĠĠĠ lÃ¬ngĠwÃłiĠ
yÇĲn ĠshÃŃĠ
ĠshÃ¬Ġ wÅ«ĠkÃ¨ĠlÃ¡n
ĠshÃ¬Ġ fÇĴuĠ
ĠwÃ¨iĠ qÃŃĠ
ĠbÃ¹Ġ zhÃ¬Ġ
bÇİoĠ cÃºnĠ
ĠnÃ¡nĠ bÄĽiĠ
ÄģiĠ nÃłĠ
ĠgÅįngĠzuÃ² ĠshÃ¬Ġ
n ÃºĠ
Ã¨r ĠzhÃłnĠ
ĠtÃ³ng ĠyÄ«Ġ
mÇİĠ tÃ³uĠ
shÇĲĠyÃ²ngĠ leĠ
cÃ©ng ĠshÃ¬Ġ
ĠhÃ©ĠbÃ¬ng ĠwÃ¨iĠ
Ġ xÃ¬ĠliÃ¨Ġ
Ġ ÅįuĠzhÅįuĠ
ĠzhÃ¬Ġ liÃ¡o
ĠdÃłĠ jiÄģĠ
n Ã¹
Ġ mÇİn
fÄģng ĠchÃ©ngĠ
jÇĲ ĠhÃ©Ġ
shÄĵnĠ zhÃ¨n
bÃłoĠ zhÇĲĠ
zhuÃłngĠ kuÃłng
zÄĵngĠ qiÃ¡ngĠ
shÄģĠ hÃłiĠ
zhÄ« ĠmÃŃngĠ
wÃłi ĠwÃ©iĠ
ku Ä«Ġ
18 6
guÃ³Ġ nÃ¨iĠ
ĠdÃłĠ zhÃ²ngĠ
ĠjÃ¬Ġ niÃłn
ĠjiÃłn ĠhÃ©Ġ
Ġ i
Ġ 60
mÇİ ĠdeĠ
luÃ³ ĠjÃŃĠ
zhÄĽng ĠhÃ©Ġ
ĠyÃºĠ 2020ĠniÃ¡nĠ
shÃ²uĠ hÃłiĠ
cÃ¡iĠ wÃ¹Ġ
ĠbÃ¬Ġ yÃ¨ĠyÃºĠ
I IĠ
jÄ« ĠbÃ¹Ġ
chÄĵng ĠhÃłoĠ
bÅį ĠÄĽrĠ
ĠdÃ¬Ġ guÃ³ĠdeĠ
ĠgÅįngĠ zhÃłnĠ
ĠsÄ«Ġ kÇİĠ
fÄĵnĠ lÃ¨i
bÄģĠ fÃ¡
4 2Ġ
cÇĲ ĠzhÄ«ĠwÃłiĠ
dÃ¡ ĠdeĠ
cÃ¹ ĠjÃ¬n
ĠyÇĲĠ nÃ¡nĠ
ĠxÃŃngĠ chÃ©ngĠdeĠ
sÄģnĠ cÃ¬Ġ
lÇĲngĠ xiÃ¹
pÃłnĠ luÃłnĠ
Ġp ÄģnĠ
6 ĠgÃ¨Ġ
Ġ hÃ¡n
huÃ² ĠshÃ¬Ġ
liÃ¨ ĠshÃ¬Ġ
ĠzÃłiĠ 195
ĠdÃłn ĠyÄ«nĠ
zhÃ¹Ġ cÃ¨Ġ
ĠchÅ«ĠxiÃłnĠ leĠ
ĠdeĠmÃŃngĠ zÃ¬Ġ
Ġ mÃ³
Ãłi ĠguÃ³Ġ
199 9ĠniÃ¡nĠ
th er
ĠdÃłĠ shÄ«Ġ
yÄ«ngĠ guÃ³ĠdeĠ
gÇİiĠ shÃłn
chÃ¨Ġ dÇĲĠ
e le
Ġ hÃº
xiÃł ĠdeĠyÃŃĠgÃ¨Ġ
lÃŃng ĠdeĠ
zhÃ¨ngĠ quÃ¡nĠ
zÃºĠ xiÃ©Ġ
guÇİngĠ gÃło
Ġ197 8ĠniÃ¡nĠ
Ġ fÄģĠxÃŃngĠ
ĠĠĠ 2021ĠniÃ¡nĠ
zhÇĲ ĠyÃºĠ
jiÄĵ ĠjÃ¬n
rÃ¹ ĠdeĠ
gÃ²ng ĠshÃŃĠ
shÃ¨ng ĠdÃ¬Ġ
ĠwÃ¨iĠ yÃ³uĠ
ĠyuÃ¨Ġ tÃ¡i
ĠdÃło ĠbÃ¹Ġ
ĠjÄ«Ġ chÇĶĠ
tiÄģnĠ huÃ¡ngĠ
miÃłnĠ tÇĲĠ
lÇĲngĠ yÃ¹
bÃ¬ngĠ mÃ©iĠyÇĴuĠ
yÃ¡nĠjiÅ«Ġ yuÃłnĠ
ĠlÃ¬ng ĠyÃ¬ĠfÄģngĠmiÃłnĠ
miÃ¡oĠ shÃ¹
7 5Ġ
Ġ zhÄĽngĠ
mÃ¹ ĠzhÃ¬Ġ
qÃºn ĠdeĠ
jÄ«ngĠ guÃ²
Ġ fÇĴu
ĠyuÃ¡nĠ shÇĲĠ
zhÃ²ngĠ zhÃŃĠ
jÇĲngĠ guÄģnĠ
dÄģngĠ xuÇİn
wÅ«Ġ rÇİnĠ
â Ħ
18 7
nuÃ² ĠsÄ«Ġ
xÃ¬ngĠ biÃ©Ġ
ĠjiÃ©Ġ gÃ²uĠ
zhÅ«Ġ lÃ³ngĠ
dÃ²uĠ zhÄĵngĠ
âĨ Ĵ
ĠshÄĵngĠzhÇİngĠyÃºĠ hÇİiĠbÃ¡
gÄģo ĠyuÃ¡nĠ
shÄ«Ġ bÃłi
Ġ5 00
ĠmÇİ ĠlÃ¬Ġ
e p
Ġ dÅįu
ĠwÃ¨iĠ bÃ¨iĠ
ĠdÃło ĠshÃ¬Ġ
hÃ²uĠ lÃ¡iĠ
ĠnÃ¡nĠ jÄ«ngĠ
ĠdÃ¬ĠyÄ«Ġ cÃ¬
Ġ198 0ĠniÃ¡nĠ
Ġ194 8ĠniÃ¡nĠ
ĠzhÇĲ ĠchÅ«Ġ
t Äģi
Ġ lÃ¡oĠ
Ġ niÇĶĠyuÄĵ
tÃ¡o ĠyuÃ¡nĠ
Ġ sÃł
el l
ĠzÃłiĠ yÄ«ngĠguÃ³Ġ
ĠyuÃ¡nĠ zÃ©Ġ
hÃ¡ngĠ yÃ¨Ġ
fÃ¡ngĠ zhÇĲĠ
Ġ chuÄģnĠ
ĠshÃŃĠ dÃłiĠdeĠ
ĠshÃłngĠ shÅ«Ġ
qÃŃngĠ jiÃ©Ġ
tuÃ¡nĠ zhÇİngĠ
ĠmÃ¹ĠqiÃ¡nĠ shÃłngĠwÃ¨iĠ
tiÄģn ĠjiÄģĠ
tÅ« ĠchÅ«Ġ
ĠzhÅįngĠ shÅ«Ġ
pÃŃngĠ mÃŃnĠ
guÄģnĠ fÃ¨iĠyÃ¡nĠ
ĠzhÃ¨Ġ cÃ¬Ġ
qÃ¬Ġ tÇĲĠ
shÄģngĠ diÃłnĠ
ĠfÄĵnĠbiÃ© ĠshÃ¬Ġ
ĠĠĠ 15
ĠĠĠ 6Ġ
lÃ¡i ĠsÄ«Ġ
ĠhÃ©Ġ fÇİĠ
ĠyÃ¬Ġ si
ĠyÃ¬Ġ mÃŃngĠ
ĠyÇĲ ĠshÃ¬Ġ
chÃ¡ngĠ qÄ«
ĠxiÃłnĠdeĠyÃŃĠgÃ¨Ġ fÄĵiĠjiÃłnĠzhÃ¬ĠdÃ¬ĠqÅ«Ġ
8 9
diÇİn ĠwÃ¨iĠ
ĠbÃ¹Ġ dÃ©Ġ
jiÃłoĠ zuÃ²Ġ
ĠfÄĵnĠbiÃ© ĠwÃ¨iĠ
3 ĠmÇĲĠ
Ġ ch
Ġ shÃłnĠ
Äģ ĠjÄ«Ġ
fÃº ĠÄĽrĠ
bÅį ĠchÅ«
hÃ³ng ĠjÅ«nĠ
rÃ¹Ġ xuÇİn
sÄģiĠ nÃłĠ
miÃ¡n Ġ
wÃ¹ĠzhÇĴng ĠdeĠ
u s
ĠzhÄ«Ġ chÃ¹Ġ
Ġ chÅ«nĠ
18 0
hÇİo ĠyÇĴuĠ
ĠhÃ©Ġ tÄģĠdeĠ
shÇĴuĠ fÇĶĠ
xiÇİngĠ fÇİĠ
kÇİoĠ gÇĶĠ
ĠĠĠA l
Ġ pÃ©iĠ
199 6ĠniÃ¡nĠ
chÃ³u ĠbÃ¨iĠ
ĠzhÅįngĠ fÄģĠxiÃłnĠ
ĠyÇĶĠ dÃłĠ
dÅįngĠ nÃŃĠ
fÃºĠ hÃłoĠ
dÃłngĠ ÃłnĠ
Ġ jiÄĽĠ
Äģn ĠrÃ©nĠ
ĠĠĠ 2006
miÃłn ĠshÃ¬Ġ
ĠyÃ¬Ġ jÃŃĠ
zhÇİngĠ yuÄĵĠ
ĠpÃŃngĠ lÃ¹n
niÇİoĠ lÃ¨iĠ
8 6
I T
yÃ¹ ĠdÃłoĠ
ĠdÄģnĠ rÃ¨n
to ĠĠĠ
ĠzhÅįngĠgÃ²ng ĠzhÅįngĠyÄģng
c ÅįngĠ
chÄĵng ĠzhÄ«ĠwÃ¨iĠ
hÃ¡ng ĠxiÃłnĠ
ĠyÃ¬Ġ diÇİnĠ
yÃ¡nĠ shÄĵnĠ
ĠtÃ³ng ĠrÃ¬Ġ
chÃ¡ngĠ jiÄģngĠ
chÄĵngĠ wÃ©i
ĠxÃŃngĠzhÃ¨ngĠ zhÃ¨nĠqÅ«Ġ
4 1
ĠzhÃ¬Ġ dÃ¬ngĠ
zuÃ²Ġ chÅ«
qÅ«Ġ jiÄģnĠ
ÃłoĠsÄ«Ġ kÇİĠ
ĠĠĠ suÃŃĠ
ĠshÃ¬Ġ nÃ¡nĠjÃŃĠzhÅįuĠdeĠ
zhÇĶĠ chÇİngĠ
jÃ¹Ġ fÄĵngĠ
ĠzuÃ²Ġ biÄģoĠwÃ¨iĠ
chÇİnĠ yÃ¨
xiÅ«Ġ gÇİi
a yĠ
ĠĠĠ 2015ĠniÃ¡nĠ
nÃŃ ĠdeĠ
âĢ §
lÃ¬Ġ yÃ²ngĠ
ĠgÅįngĠ jÄ«nĠ
ĠdÃłĠ xÃŃng
ĠzuÃ²Ġ chÅ«
ĠD Ġ
ĠxÄ«n ĠjiÄģĠ
huÃ¬ ĠjÃŃĠ
zhÃłn ĠguÃ³Ġ
pÇĲn ĠzhÃ¬Ġ
dÃ²ngĠ chÄĵĠ
fÄĵnĠ lÃŃĠ
N AĠ
Ġ bÃło
Ġ xiÃ¡Ġ
ĠĠĠ Ã©r
ĠĠĠ zhÇĶĠyÃłoĠ
dÅįng ĠxiÃłnĠ
wÇĶ ĠmÃŃngĠ
gÄĵ ĠÄĽrĠ
kuÃ² ĠzhÄģngĠ
bÄ«n ĠshÃ¬Ġ
ĠjÄ«Ġ xiÃ¨Ġ
shÃ¨ĠhuÃ¬Ġ zhÇĶĠyÃ¬Ġ
yÃŃngĠdÃ©Ġ leĠ
N A
Ãłn ĠshÃŃĠ
zuÃ² ĠzhÅįngĠ
qÇĲ ĠdeĠ
tÅįngĠ xÃ¬nĠ
mÃ¬ngĠ lÃ¬ng
huÇĴĠ bÃłnĠ
zÅ«Ġ jiÃ¨Ġ
l Ã²u
Ġ xiÃ³ngĠ
Ġ gÇİiĠwÃ©iĠ
ĠĠĠ zhÃłnĠ
chÇİng ĠshÃłngĠ
dÇĲ ĠzhÃ¬Ġ
ĠgÅįngĠ zuÃ²ĠdeĠ
shÄĵngĠ mÃŃngĠ
lÇĲngĠ xiÄģnĠ
jÄ«ngĠjÃ¬Ġ xuÃ©Ġ
Ġ mÃŃn
ĠĠĠ zhÃ¹Ġ
duÃ¬ ĠyÇĴuĠ
duÃ¬ ĠtÄģĠ
zhÃłn ĠwÃ¨iĠ
bÇİoĠ cÃºn
ĠzhÃ¨Ġ yÃłngĠdeĠ
ĠguÄģnĠ fÄģngĠ
. &
zhÅįng ĠshÃ¬ĠjÃ¬Ġ
dÃ²ng ĠyuÃ¡nĠ
mÃ¹ ĠshÃ¬Ġ
shÄ« ĠhÃ©Ġ
bÄģn ĠbÃ¹Ġ
hÃ²uĠ xuÇİnĠrÃ©nĠ
ĠmÃŃngĠ zÃ¬Ġ
ĠA l
rÃ©nĠmÃŃnĠ dÃłiĠbiÇİoĠdÃłĠhuÃ¬Ġ
tÃłi ĠhÃ²uĠ
ĠxÄ«Ġ lÃłĠ
jiÄģngĠsÅ«Ġ shÄĽngĠ
5 ĠgÅįngĠlÇĲĠ
Ġ pÃłiĠ
Ġ bÃłiĠ
ĠĠĠ kÃ¨Ġ
yÇĲn ĠlÃ¬Ġ
ĠdÃłn ĠbÃ¹Ġ
zÃºĠ zÃ¬ĠzhÃ¬Ġ
lÃ¨iĠsÃ¬ ĠyÃºĠ
J Ġ
f Ãł
shÃ© ng
ĠyÃ³uĠ yÇĴngĠ
bÄģnĠ fÄģĠ
e ar
ĠĠĠ duÃ¬ĠyÃºĠ
shÇĲ ĠzhÅįngĠ
am Ġ
ĠzÃłiĠ jÄ«Ġ
ĠwÃ©iĠ zhÇĲĠ
jiÄĵĠ chÃ¹
dÄĽngĠ zhÃŃĠ
jiÄģoĠ chÄģĠ
nÇļĠ yÇİnĠyuÃ¡nĠ
tÃŃĠ gÅįngĠdeĠ
ĠbÃ¹ĠdÃ© ĠbÃ¹Ġ
f i
i th
Ġ 1ĠyuÃ¨Ġ
jiÄĵ ĠshÃ¬Ġ
199 8ĠniÃ¡nĠ
sÅ« ĠlÇĲĠ
ĠdeĠ lÇĲĠ
ĠjiÄģĠ mÃ©ngĠ
ĠchÅ«Ġ shÄĵnĠ
shÇĴuĠ duÃłnĠ
qÇĲĠ sÃ¹Ġ
xiÃłnĠ fÇİĠ
hÃłiĠ Ã©
ĠjÄ«ĠdÅ«Ġ jiÃłoĠ
5 2
Ãłi ĠdÃ©ĠhuÃ¡Ġ
fÄĵn ĠwÃ¨iĠ
chÄĵ ĠdÃłoĠ
ĠxiÃłnĠ dÃłi
ĠjiÄģĠ jÃ¬ngĠ
ĠrÃ¨nĠ mÃ¬ng
ĠzhÇĶĠ chÃŃĠ
ÃłiĠ qÃŃngĠ
Ġ197 9ĠniÃ¡nĠ
u t
Ġ bÄģoĠ
Ġ chÃ©ngĠshÃ¬Ġ
Ġ rÃ¨Ġ
rÃ©n ĠwÃ¨iĠ
tÇĲ ĠxÃŃngĠ
hÃłn ĠzÃ¬Ġ
ĠzÃłiĠ gÅįngĠ
ĠchÃ©ngĠ shÃ¬ĠdeĠ
diÃłnĠ chÄĵĠ
bÄģnĠ cÃ¬Ġ
gÃ²ngĠhÃ©Ġ guÃ³ĠdeĠ
Ġ 36
Ġ nÃŃngĠ
yuÃ¡n ĠzhÅįngĠ
jiÇİng ĠdeĠ
rÃ©ng ĠyÇĴuĠ
lÇİng ĠdÃ©Ġ
ĠzÃłiĠ nÃ¡nĠ
shÄĵngĠ mÃ¬ngĠ
ĠchÅ«Ġ rÃ¹ĠkÇĴuĠ
mÇİĠ lÃ¡iĠ
shuÇĲĠ kÃ¹Ġ
yÃ¡nĠjiÅ« ĠyuÃ¡nĠ
bÇİnĠ bÄĽnĠdeĠ
ĠdÄģngĠ xuÇİn
ĠshÃ¬ĠdÃ¬Ġ yÄ«Ġ
I P
Ġ zhuÄģnĠjÃŃĠ
xiÃłn ĠshÃŃĠ
fÃ¹ ĠzhÃ¬Ġ
hÃ¡ng ĠzhÅįuĠ
hÃłn ĠyÇĶĠ
ĠdeĠ xiÇİoĠ
fÄĵnĠ qÅ«Ġ
miÃłnĠjÄ« ĠhÃ©Ġ
ĠwÃ¨iĠfÃºĠqÃŃĠyÃºĠ gÄģng
xÄ« ĠyuÃ¡nĠ
zhÃł i
kÄĵ ĠÄĽrĠ
pÃ¡i ĠdÃ©ĠzhÇĶĠ
zÄģo ĠshÃ²uĠ
gÃ¨ngĠ duÅį
jÇĲnĠbiÄģoĠ sÃłi
s ÃłngĠ
Äģn ĠxiÃłnĠ
jiÄģng ĠshÃ¬Ġ
bÄ«ng ĠlÃ¬Ġ
bÃłi ĠzhÃłnĠ
ĠjiÃłn ĠyÇĴuĠ
ĠhuÃ¬Ġ bÃ¨iĠ
xiÃ©Ġ tiÃ¡o
Ġ yuÇİnĠ
fÃ¹ ĠyÇĴuĠ
rÃłng ĠtÄģĠ
38 Ġ
guÄ«ĠmÃ³ ĠdeĠ
Ġ sÄģnĠshÃŃĠ
jÄ«n ĠrÃ¬Ġ
ĠbÃ¹Ġ ÄĽr
wÇĶĠ qÃ¬
pÇĲnĠ pÃ¡i
de n
ĠĠĠ fÃºĠ
hu Äģng
ol Ġ
ĠwÃ¨iĠ zhÅįngĠguÃ³Ġ
ĠzhÃ¨Ġ yÄĽĠshÃ¬Ġ
liÃ¨Ġ rÃ¹
biÄģnĠ mÇİĠ
ĠgÄģiĠ dÃ¬ĠdeĠ
ĠzuÃ¬ ĠchÅ«
ĠgÅįngĠyuÃ¡nĠ qiÃ¡nĠ
ĠdÃ¬ĠshÃŃĠ yÄ«Ġ
S tation
s onĠ
Ġ guÇİnĠ
yÇĲ ĠshÃłngĠ
19 00
ĠqiÃºĠ yÃ¹nĠdÃ²ngĠyuÃ¡nĠ
ĠmÃ¹ĠqiÃ¡nĠshÃłngĠwÃ¨iĠ yÃ³uĠrÃ©nĠgÅįngĠyÇĲnĠzhÇĴngĠzÄģiĠpÃ©iĠ
a in
ĠĠĠ 2014ĠniÃ¡nĠ
nÃ¡n ĠsÄ«ĠlÄģĠ
huÃ¡ ĠdÃłĠxuÃ©Ġ
ĠhÃ©Ġ lÃ¡n
wÃ¹ĠlÇĲĠ xuÃ©Ġ
zuÃ¬ĠzÇİo ĠdeĠ
ĠĠĠ 4ĠyuÃ¨Ġ
fÇİ ĠshÃ¬Ġ
di ceĠ
mÃ³u ĠshÄģĠ
lÃ¹Ġ xÃ¹Ġ
oh n
jiÄģn ĠzhÃ¬Ġ
xuÃ©Ġ shÄĵng
lÃ¹Ġ shÃłngĠ
mÃŃnĠ jÃ¬nĠ
ĠxiÄģngĠ duÃ¬Ġ
jiÃłnĠ zÃłoĠ
qiÄģnĠ shÇĶ
ĠxÄ«ĠbÄģnĠyÃ¡ ĠyÇĶĠ
yÄĵĠ sÅ«
a le
Ġ wÃ©i
sh i
yuÃ¡n ĠshÃŃĠ
lÃŃn ĠsÄ«Ġ
ĠlÃ¬Ġ kÃ¨Ġ
shÄĵngĠ tÃłiĠ
dÃ¬ngĠ qÄ«Ġ
dÇİoĠ yÇİn
cÃ¨Ġ lÃ¼Ã¨Ġ
oo g
kÇİĠluÃ³ĠlÃ¡iĠ nÃł
ro s
tion Ġ
ĠzÃłiĠ yuÃ¡nĠ
shÄĵnĠ zhÃ¨nĠ
xÃ¹Ġ shÃ¹Ġ
ĠdÄģngĠ xuÇİnĠ
ĠyÇĴuĠyÄ«Ġ xiÄĵĠ
19 ĠshÃ¬ĠjÃ¬Ġ
wÃ² ĠÄĽrĠ
zhÅįngĠ bÃ¹Ġ
ĠchÃ©ngĠ xÃ¹
ĠchÅ« ĠxiÃłn
zhÇİnĠ lÇİn
wÄĽiĠyuÃ¡nĠ huÃ¬ĠdeĠ
ĠzhÃ¬ĠzuÃ² ĠrÃ©nĠ
xiÃłĠxiÃ¡ĠdeĠyÃŃĠgÃ¨Ġ xiÄģngĠ
u sĠ
lÃ¹ ĠyÇĶĠ
shÇĴu ĠbÃ¹Ġ
tÃ¨ ĠhÃ©Ġ
tÃ¨ ĠjÃŃĠ
wÇİng ĠdeĠ
tÃ³u ĠdeĠ
gÃłn ĠxiÃłnĠ
ĠĠĠ194 9ĠniÃ¡nĠ
1 ĠĠĠ
Ġ y
Ġ hÇİoĠ
Ġ shÃ²uĠdÃłoĠ
jÄ«ng ĠdeĠ
duÅį ĠÄĽrĠ
duÃ¬Ġ wÃłiĠ
shÃłngĠ shÃ¹Ġ
ĠmÃŃngĠ chÄĵng
fÄĵngĠ gÃ©
gÇİiĠ wÃ©i
ĠmÇİĠlÃ¡i ĠxÄ«ĠyÃłĠ
Ġ dÄĵngĠ
zi ĠgÅįngĠsÄ«Ġ
ĠjÃŃĠ yÄ«Ġ
xiÄģngĠ hÃ¹Ġ
ĠyÄ«n ĠdeĠ
zuÃ¬Ġ duÅįĠdeĠ
wÇĶĠ hÃłn
ĠzhÅįngĠguÃ³Ġ gÃ²ngĠchÇİnĠdÇİng
ĠĠĠC om
ĠguÃ³ĠmÃŃnĠ dÇİngĠ
ĠĠĠgÃ¨ĠrÃ©nĠ shÄĵngĠhuÃ³Ġ
bÃ¨i ĠshÃ¬Ġ
ti ÄģoĠ
di Ġ
jiÇİ ĠjÄ«Ġ
zÇİo ĠzÃłiĠ
ĠyÃºĠ 2010ĠniÃ¡nĠ
ĠdÃłĠ yuÄĵ
yÃ¡nĠ chÃ¡ng
tÃ¡iĠ bÃ¬Ġ
Ġ193 8ĠniÃ¡nĠ
mÃŃĠ nÇĲĠ
ĠjÃ¬ĠsuÃłn ĠjÄ«Ġ
z Å«
ĠĠĠ 7ĠyuÃ¨Ġ
shÃ¹ ĠhÃ©Ġ
jÃ¬n ĠjÃŃĠ
ĠshÃ¬Ġ xiÄģngĠgÇİngĠ
ĠqÃŃĠ bÄ«ngĠ
zuÃ¬Ġ zÇİoĠ
kuÃ²Ġ zhÇİnĠ
Ġ 2005
Ġ kÄģngĠxÄ«Ġ
rÃ¹ ĠwÃ©iĠ
qÃ¬ ĠrÃ©nĠ
xiÃ© ĠdÃłiĠ
tÃłn ĠsuÇĴĠ
ĠhÃ©Ġ tÃ³ngĠ
duÃ¬Ġ xiÃłngĠ
tiÄģnĠ tÃ¡ngĠ
miÃ¡oĠ shÃ¹ĠwÃ¨iĠ
jiÃ¹ĠdÃº ĠyÃºĠ
Ġ shÃłng
qÃŃ ĠshÃ¬Ġ
xiÅ« ĠsÄ«Ġ
zhuÇİn ĠwÃ©iĠ
198 8ĠniÃ¡nĠ
guÄ«Ġ huÃł
ĠdeĠjÄ«Ġ huÃ¬Ġ
mÄĽi ĠrÃ¬Ġ
ĠkÃ¨ ĠlÇĲĠsÄ«Ġ
jiÃłoĠ kÄĵĠ
liÃłngĠ zÇĲĠ
ĠhÄģ ĠÄĽrĠ
zhÇĶĠchÃŃ ĠrÃ©nĠ
Ġà ¸
âĦ ĥ
t Äģng
199 2ĠniÃ¡nĠ
ĠshÃ¬Ġ gÃ¨Ġ
ĠdÃ¬Ġ 2Ġ
ĠguÃ³Ġ gÅįngĠ
ĠgÅįngĠ kÄģi
ĠchÃ©ngĠ bÇİoĠ
ĠgÃ¨ ĠdÃłĠ
zhÃ²ngĠ diÇİn
yÃŃĠ zhÇĲ
Ġ194 7ĠniÃ¡nĠ
1 ĠmÃŃngĠ
t sĠ
Ġ wÄĵn
ĠĠĠ 7
ĠĠĠ dÅįngĠ
ĠĠĠ 2012ĠniÃ¡nĠ
dÅįng ĠdeĠ
fÅ« ĠfÃ¹Ġ
ĠzhÅįngĠ zhÇĲĠ
dÃłiĠ bÇĶĠ
kÄģiĠ mÃ¹Ġ
bÄĽnĠ shÄĵnĠ
yÃŃĠ mÃŃn
jiÇİngĠ zuÃ¬ĠjiÄģĠ
zuÇĴĠ yÃ²u
nuÃ³Ġ wÄĵi
ĠĠĠ 2013ĠniÃ¡nĠ
hÃ¡ng ĠzhÃłnĠ
zhuÃłng ĠbÃ¬ngĠdÃº
ĠjiÃłnĠ zÃło
pÄ«Ġ pÃŃng
ĠĠĠ xiÄģngĠgÇİngĠ
nÃł ĠsÄ«Ġ
mÃŃnĠ zhÇĶ
shÄģngĠ pÇĲnĠ
fÃłnĠ wÃ©i
xiÃ©Ġ shÄģngĠ
lay Station
6 4Ġ
r ÄĽnĠ
Ġ fÇĶĠ
ĠbÃ¹Ġ zhÃ¨ngĠ
ĠchÃ©ngĠ wÃ©iĠyÄ«Ġ
ĠzhÃłnĠ lÇĲngĠ
fÄĵnĠ lÃ¡nĠ
nÃ¨iĠ mÃ©ngĠgÇĶĠ
tÃ¡iĠwÄģn ĠdeĠ
dÃºĠ tÃ¨ĠdeĠ
quÃ¨Ġ dÃ¬ng
dÇĲĠ dÃ¡
ĠĠĠM o
cuÄ«Ġ huÇĲ
Ġ pÃ¡iĠ
ĠĠĠ 4Ġ
60 ĠniÃ¡nĠ
bÄģĠ nÃ¨n
ĠquÃ¡n ĠqiÃºĠ
c ÄģiĠ
Ġ chÄģo
ĠĠĠ hÃ©
ĠĠĠ zhÃ¬ĠzuÃ²Ġ
wÃº ĠÄĽrĠ
ĠshÃ¬Ġ nÃ¡nĠ
qiÃºĠ duÃ¬
Ã¨ ĠÄĽrĠ
jÃ¹ ĠzhÅįngĠ
zhÄģng ĠdeĠ
shÃ© ngĠ
29 Ġ
ck Ġ
ĠyÄ«Ġ chÃ¡ngĠ
ĠĠĠ lÄģĠ
ch ÇĴngĠ
yÃ¬n ĠxiÃłngĠ
ĠmÃŃngĠ xÄ«ngĠ
huÃ¡ngĠ jÄ«n
p en
Ġ 2025
Ġ fÇİnĠduÃ¬Ġ
shÅ« ĠshÃ¬Ġ
70 ĠniÃ¡nĠ
ĠjÃŃĠ yÇĲĠ
ĠrÃ¬Ġ qÄ«Ġ
zhÃŃĠ bÅįĠ
tÃ³ngĠ yÃłng
Ġ mÃ¨ngĠ
Ġ shÇİnĠxÄ«Ġ
ĠĠĠ 8ĠyuÃ¨Ġ
fÃ¹ ĠyÇĶĠ
mÇİ ĠshÃ¬Ġ
37 Ġ
ĠfÃ¹Ġ gÃłiĠ
jÃ¬ngĠ nÃ¨iĠdeĠ
gÄĵĠ cÃŃĠ
zhÃłoĠ piÄģn
Ġ tÃ²uĠguÃ²Ġ
sÄģn ĠwÃ¨iĠ
cÃŃ ĠhuÃ¬Ġ
ĠguÃ³Ġ yÇĶĠ
yÃ³uĠ tÃłiĠ
ĠzhÅįu ĠrÃ©nĠ
kÇİĠ lÄģĠ
ĠtÃ³ngĠshÃŃĠ yÄĽĠ
huÃ³ĠdÃ²ng ĠdeĠ
p Ã³
Ġ 22
Ġ lÇĲngĠ
hu Çİn
gu Ãłi
fÃº ĠshÃ¨Ġ
cÃ¬ ĠjÄ«Ġ
wÃ¡ng ĠhÃ²uĠ
cÃ©ng ĠyÃºĠ
chuÄģn ĠyuÃ¨Ġ
40 ĠniÃ¡nĠ
ĠdÃ¬Ġ bÄģĠ
ĠÄĽr ĠzÃłiĠ
tÃ¨Ġ qÅ«Ġ
jÃ¬nĠ zhÇĲĠ
dÃłĠ xuÃ©
ĠrÃ¬ ĠyÃ¬Ġ
ĠbÃ¬ngĠ biÇİoĠshÃ¬Ġ
hÃłnĠ lÃŃnĠ
l ÇİĠ
xu Äĵ
zhÃłn ĠzÃłiĠ
mÇİi Ġ
zhÃ¨Ġ zhÇĴng
zÇĴngĠ jÄ«ngĠlÇĲĠ
ĠhÃ©ĠliÃºĠ yÃ¹Ġ
6 5Ġ
Ġ cÄģn
Ġ gÃ¹ĠshÃ¬Ġ
cÇĲ ĠshÃ¬Ġ
gÃ© ĠsÄ«Ġ
jiÃ¹ ĠyÇĴuĠ
ĠyuÃ¡nĠ yÇĴuĠ
shÃłngĠ xiÃłĠ
jÃ¹Ġ dÃłĠdeĠ
hÃ¨Ġ sÃ¨Ġ
kÄģiĠfÄģ ĠdeĠ
jiÄĵĠwÃ¨iĠ zhÄ«Ġ
ĠshÃ¬ĠyÃŃĠgÃ¨ ĠwÃ¨iĠyÃºĠmÄĽiĠguÃ³Ġ
miÃłnĠjÄ«ĠhÃ©Ġ rÃ©nĠkÇĴuĠ
D V
g ÇĴu
Ġ Ø
ĠĠĠ 2011ĠniÃ¡nĠ
chÃ©ng ĠzÃłiĠ
chÃ©ng ĠshÃŃĠ
fÄģng ĠwÃ¨iĠ
xiÇİng ĠdeĠ
zu ÇĲĠ
bÅįĠ fÃłng
ĠxiÄģngĠ tÃ³ngĠ
fÃ¡ngĠ kÅįngĠ
dÇİĠ suÃłnĠ
qÃºnĠ zhÃ²ngĠ
Ġ198 1ĠniÃ¡nĠ
ĠsuÃ¬ ĠshÃŃĠ
Ġ yÄģoĠqiÃº
ĠĠĠ suÄ«ĠrÃ¡nĠ
bÇĲ ĠÄĽrĠ
dÄģn ĠxÄ«nĠ
yÄ«ng ĠjÅ«nĠ
st Ġ
ĠtÄģĠ jiÄģngĠ
bÇİoĠ zhÃłng
ĠdÄģng ĠniÃ¡nĠ
jiÃłnĠ kÄģngĠ
quÃ¨Ġ bÇİoĠ
ĠqiÃ¡nĠ lÃ³ngĠ
ĠjiÃłoĠ yÃ¹
Ġ yÃ¡nĠjiÅ«Ġ
qi Äģo
chÃ¡ ĠlÇĲĠ
bÅį ĠlÃ¬Ġ
ĠyÄ«Ġ tiÄģnĠ
ĠchÅ«Ġ rÃ¨n
lÃ¡nĠ sÃ¨Ġ
ĠqÃŃĠzhÅįngĠ yÇĴuĠ
tuÃ¬Ġ xiÅ«
hÃ¡ngĠkÅįng ĠgÅįngĠsÄ«Ġ
ĠgÄģiĠdÃ¬ĠdeĠ miÃłnĠjÄ«ĠhÃ©ĠrÃ©nĠkÇĴuĠ
ĠgÄģiĠdÃ¬ĠdeĠmiÃłnĠjÄ«ĠhÃ©ĠrÃ©nĠkÇĴuĠ jiÄĵĠwÃ¨iĠzhÄ«Ġ
s k
Ġ zhÃłnĠdÃ¬Ġ
ĠĠĠ mÃ¹ĠqiÃ¡nĠ
yuÃ¨ ĠhÃ©Ġ
qÅ« ĠjÃŃĠ
jÅ« ĠyÃºĠ
ĠyÃ¬Ġ wÃłiĠ
xÄ«Ġ wÃłngĠ
gÄģoĠ dÄĽng
chuÃłngĠ shÇĲĠrÃ©nĠ
Ġ193 7ĠniÃ¡nĠ
ĠzhÃ¬ĠlÃ¬Ġ yÃºĠ
k Ã²u
Ġ rÃ¨nĠhÃ©Ġ
xiÄģng ĠdeĠ
dÄģnĠ dÇİĠ
B SĠ
Ġ wÅ«
yÃŃ ĠjÃ¬Ġ
ĠgÃ¨Ġ zÃ¬Ġ
ĠjÅ«nĠ guÄģnĠ
tuÃ¡nĠ jiÃ©Ġ
ation Ġ
o y
pÇĲn ĠdeĠ
194 5ĠniÃ¡nĠ
ĠjiÄģĠ rÃ¹ĠleĠ
ĠchÅ«Ġ shÃ²uĠ
gÄģoĠ jiÃłĠ
hÇİiĠ yÃ¡ng
chÃ¡oĠ tÃŃngĠ
huÃ¬ĠyÃ¬Ġ shÃłngĠ
cÃºnĠzÃłiĠ yÃºĠ
ĠguÃ³ĠmÃŃnĠ zhÃ¨ngĠfÇĶĠ
a vi
diÇİn ĠxÃŃngĠdeĠ
tÃ¡ng ĠdeĠ
biÄģo ĠjÃ¬Ġ
gÄĽi ĠtÄģĠ
ĠshÃŃĠ yuÃ¨Ġ
ĠdÃ© ĠlÃ¬Ġ
3 000
Ġ diÃłoĠ
ĠshÃ¬Ġ yuÃ¡nĠ
ĠzhÅįngĠ duÃ¬Ġ
ĠdÃłĠ guÄ«ĠmÃ³Ġ
xÄ«Ġ yÃ¡ng
ĠkÃ¨Ġ luÃ³Ġ
nÇļĠ hÃ¡iĠ
ĠdeĠyuÃ¡nĠ yÄ«nĠ
ĠĠĠwÃ¨iĠ leĠ
xÃ¬ ĠjÅ«nĠ
zhÄĵn ĠdeĠ
guÃ³Ġ fÃ¡ng
ĠjÃ¬n ĠjÃŃĠ
chÇİnĠ shÄĵng
lÇĲngĠ yÃ¹ĠdeĠ
Ġ 35
Ġ kÇĴuĠ
Ġ cÃłiĠ
ĠĠĠ Y
ĠĠĠ 9ĠyuÃ¨Ġ
ĠĠĠ qÃŃĠzhÅįngĠ
pÃŃng ĠjÅ«n
fÃº ĠzhÅįuĠ
zhuÃłng ĠdeĠ
fÄģĠ yÃ¡nĠrÃ©nĠ
chuÃłngĠ zuÃ²
Ġ195 6ĠniÃ¡nĠ
ĠdeĠjÃ¬Ġ huÃłĠ
Ġs ÃºĠ
t Äģn
duÅį ĠyuÃ¡nĠ
xÃ¹ ĠjÃŃĠ
jiÇİn ĠlÃ¬Ġ
wÃłn ĠlÃ¬Ġ
mÃ©ngĠ tÃ¨Ġ
hÄĵiĠ lÃ³ngĠjiÄģngĠ
ruÃ¬Ġ diÇİn
Ġ nÃ¨i
ĠyÇĲĠ 1Ġ
tÃŃngĠ yÃ¹nĠ
fÃ¡ngĠ jiÄģnĠ
Ġt Ä«Ġ
tou Ġ
duÃłn ĠshÃŃĠjiÄģnĠ
tÄ«ng ĠdeĠ
ĠhÃ©Ġ lÃ¬Ġ
ĠshÃŃĠ jiÄģnĠdeĠ
wÇĶĠ dÇİoĠ
ĠtÃ¨Ġ biÃ©Ġ
bÇĶĠ chÅįngĠ
6 3
qiÄģn ĠrÃ©nĠ
diÃło ĠyÃºĠ
il li
ĠxÄ«Ġ lÇĲĠ
ĠzhÄ«Ġ chÄĵngĠ
fÃ¹Ġ zhÇĶĠxÃŃĠ
shÃ¹Ġ mÃ¹Ġ
guÄģnĠ cÃ¨
wÇİngĠ wÇİngĠ
zhuÄģngĠ jiÇİ
Ġ qiÅ«
qi ÄģoĠ
sÄģn ĠyuÃ¨Ġ
ĠzhÅįu ĠwÃ©iĠ
nÃłĠ rÃ¹Ġ
liÃłngĠ xiÃłngĠ
1 ĠmÇĲĠ
jiÄģ ĠshÃ¬Ġ
shÃ¹ ĠrÃ©nĠ
chuÄģn ĠguÃ²Ġ
jÃ¬Ġ xÃ¹
fÄģĠ huÄ«
shÄĵnĠ wÃ¡ngĠ
duÇİnĠ zÃłn
fÃºĠjiÃłnĠ shÄĽngĠ
p Ã³Ġ
r ÄĽn
Ġ niÃºĠ
shÇĲ ĠdÃ¬Ġ
ĠdÃłn ĠqÃŃĠ
fÃºĠ huÃłĠ
kÄĵĠ fÅ«Ġ
tÇİĠ nÃŃ
ĠsuÃŃĠ zheĠ
ĠĠĠchÄĵĠzhÃłnĠ jiÃ©ĠgÃ²uĠ
r oun
Ġ gÇİnĠ
ĠĠĠ cÄģnĠkÇİoĠ
yÇĴuĠ guÄģnĠ
ĠjÃŃĠ ÄĽrĠ
ĠÃ©rĠ lÃ¡iĠ
suÃłnĠ fÇİĠ
t yĠ
Ġ lÃº
zhÅįng ĠhÃ©Ġ
dÇİng ĠjÃŃĠ
jÄ«ngĠ yÃ³uĠ
jÃ¬ngĠ wÃłiĠ
ĠchÃ©ngĠlÃ¬Ġ leĠ
qÃ¹ĠshÃ¬Ġ hÃ²uĠ
ĠbÃ¬ngĠqiÄĽ ĠzÃłiĠ
qÄ« ĠshÃ¬Ġ
yÃ¹ ĠbÃ¨iĠ
qiÃ¡n ĠzÃłiĠ
shÃ©n ĠdeĠ
hÃº n
chÃ³ng ĠfÃ¹Ġ
tuÄ« ĠxÃŃngĠ
kÄĵĠ xuÃ©
ĠdeĠdÃ¬Ġ yÃŃĠgÃ¨Ġ
ĠyÄĽĠ kÄĽĠyÇĲĠ
s Çİn
zhÃłn ĠhÃ©Ġ
duÅį ĠbÃ¹Ġ
zhÇİn ĠxiÃłnĠ
sÃ²ng ĠdÃłoĠ
ĠtÄģĠ hÃ¡i
ĠyÄ«n ĠyuÃ¡nĠ
ĠyÄ«n ĠqÃŃĠ
ĠshÄĵngĠ chÄĵngĠ
kÅįngĠ xÃŃĠ
ĠshÃ¬ĠjiÃ¨ ĠdeĠ
nÃŃĠyÃł ĠdeĠ
ÃłoĠdÃłĠlÃ¬Ġ yÃł
zhÃ¨ĠjiÄģngĠ shÄĽngĠ
Ġ zhÇĶ
Ġ huÃ¡i
Ġ 2000
liÃ¨ ĠsÄ«Ġ
dÅ« ĠhuÃ¬Ġ
re s
tÃ³uĠ xiÃ¡nĠ
Ã©Ġ hÃłiĠÃ©
hÃ¡ngĠ bÄģnĠ
shÅįuĠ lÃ¹
ĠwÃ©nĠ huÃł
ĠĠĠ 6ĠyuÃ¨Ġ
zhÄĽ ĠrÃ¨nĠwÃ©iĠ
ĠdÃ¬Ġ 2
ĠyÇĶĠ zhÃ²u
ĠchÅ« ĠyÄ«Ġ
ĠhuÃ¬Ġ shÃłngĠ
lÄģĠ tÃ¨Ġ
sÃ¨Ġ cÇİiĠ
qiÃ¡ngĠ dÃłĠdeĠ
guÃ³ĠjiÄģĠ duÃ¬Ġ
tÃłnĠ cÃ¨Ġ
zhÄ« ĠdÃłoĠ
hÃ²u ĠbÃ¹ĠjiÇĶĠ
juÃ© ĠyÃºĠ
wÇİn ĠniÃ¡nĠ
dÃłĠ liÃłngĠ
ĠdÃło ĠzhÅįngĠ
xÄ«Ġ yÃłĠ
ĠyÇĲĠ lÃ¡i
ĠwÃ©iĠ qÃŃ
chÃ³ngĠ xÄ«n
Ġh ÄĵngĠlÃ¬Ġ
tÃłnĠ xiÇİn
pÃ¡iĠhÃ¡ngĠ bÇİng
Ġ dÃŃ
Ġ cÇİiĠ
bÃ¹ ĠwÃ¨iĠyÃºĠ
shuÇĲ ĠhÃ©Ġ
ĠzÃłiĠ xiÃłnĠ
ĠdÃ¬Ġ zhÅįngĠ
wÃłiĠ guÄģnĠ
cÃ¡iĠ zhÃ¨ng
Ġ195 5ĠniÃ¡nĠ
9 2
or l
zhÄĵn ĠzhÃ¨ngĠ
ĠguÃ³Ġ wÃ¡ng
ĠyÄ«Ġ tÃ³ng
yÃ¡nĠ chÃ¡ngĠ
ĠxuÃ©Ġ xÃŃ
bÃłoĠ zhÃł
jÃ¬n ĠxÃŃngĠdeĠ
ĠdÃłĠ sÃłiĠ
fÄģĠ bÃ¹ĠdeĠ
pÇĶĠ tÅįng
cÅ«nĠ mÃŃnĠ
ĠshÇĲĠ yÃ²ng
ĠzÇĴngĠ tÇĴngĠ
nÃłnĠ mÃŃnĠ
p ÄĵngĠ
Ġ biÇİoĠ
chÅ« ĠzhÃłnĠ
ti Ãło
fÃ¹ ĠbÃ¹ĠzhÇİngĠ
lu Çİn
wÇİng ĠqiÃº
dÅįu ĠbÃ¹Ġ
ĠÄĽr ĠyÇĶĠ
bÄģĠ lÃ¨
wÃ¡ngĠ zÇĲĠ
hÃ¹Ġ dÃ²ngĠ
5 00Ġ
² Ġ
Ġ ÄģnĠdÃ©Ġ
shÄĽng ĠzhÃ¨ngĠfÇĶĠ
kuÃ² ĠjiÃłnĠ
199 7ĠniÃ¡nĠ
chÃ©ngĠ jÃ¬Ġ
ĠjiÄģĠ sÄ«Ġ
ĠbÃ¬ng ĠyÇĴuĠ
sÄģnĠ zhÇĴngĠ
chÃ¨Ġ tuÃ¬Ġ
mÇİnĠ zÃº
Ġ xiÅįng
bÅį ĠchÅ«ĠdeĠ
duÄģn ĠdeĠ
yÄ«Ġ lÃ¬Ġ
ĠjÃŃĠ sÄ«Ġ
ĠlÃ¬Ġ shÇĶ
zhÃ¨Ġ yÃłngĠdeĠ
guÄ«Ġ zÃ©
ĠcÃ©ngĠ jÄ«ngĠ
ĠlÃ¹ ĠyÃ¬Ġ
d o
Ġ mÃ¹
ĠĠĠ gÄĵnĠjÃ¹
bÄĽn ĠbÃ¹Ġ
xiÃło ĠshÃ¨Ġ
ĠrÃ¬Ġ yÇĶĠ
ĠrÃ¬Ġ hÃ²uĠ
tiÄģnĠ qÃ¬Ġ
hÃºĠ pÅįĠ
ĠM Ġ
Äģ ĠfÃ¹Ġ
hÃ²u ĠtÄģĠ
rÃ¨n ĠyÃ¬Ġ
mÇİ ĠlÃ¬ĠyÃłĠ
yÃ¹n ĠxÃŃng
ĠshÃ¬Ġ yÃłnĠ
ĠqÃŃ ĠtÄģĠdeĠ
chÃ¡ngĠ wÄĽiĠhuÃ¬Ġ
gÃłoĠ sÃ¹
ĠguÃ³ĠjÃ¬Ġ jÄ«ĠchÇİngĠ
yÅįuĠ xiÃ¹Ġ
nuÃ³Ġ wÄĵiĠ
fÄĵiĠlÇľĠ bÄ«nĠ
ĠĠĠ xiÄģngĠ
ĠĠĠ rÃ¬ĠbÄĽnĠ
ĠĠĠ jiÃłnĠzhÃ¹Ġ
bÄģ ĠshÃŃĠ
jÃ¬ngĠ tÃ³uĠ
gÇİiĠ chÄĵngĠ
xÃ¹Ġ liÃ¨Ġ
3 ĠmÃŃngĠ
9 4
w ÄģngĠ
Ġ wÇİnĠ
ĠĠĠ 2008ĠniÃ¡nĠ
dÃ¬ng ĠlÇĲĠ
bÇİo ĠwÃ¨iĠ
xiÄĽ ĠleĠ
ĠdeĠ gÇĶĠ
bÃłnĠ dÇİo
zhuÇİnĠ yÃŃĠ
ĠĠĠgÄĵnĠjÃ¹Ġ 2010ĠniÃ¡nĠmÄĽiĠguÃ³ĠrÃ©nĠkÇĴuĠpÇĶĠchÃ¡ĠdeĠshÃ¹ĠjÃ¹Ġ
d ÇĴuĠ
t t
Ġ tÇİ
ĠĠĠ cÇĲ
ĠyuÃ¨Ġ tuÃ¡n
ĠjÃŃĠ jiÄģngĠ
qÅ«Ġ zhÃº
mÃ¬Ġ qiÃ¨
rÃ©nĠkÇĴuĠpÇĶĠ chÃ¡Ġ
g i
ĠĠĠ gÄģoĠ
liÃº ĠxuÃ©Ġ
ĠchÅ« ĠxiÃłnĠdeĠ
ĠzhÅįu ĠhÃ©Ġ
jiÃ©Ġ dÃ¹ĠshÇĲĠ
bÇİoĠ zhÃłngĠ
xÄ«ngĠ xÃ¬Ġ
bÃłnĠ yÇİn
nuÃ²Ġ mÃłnĠ
chuÃŃ ĠzhÃŃĠ
Ġ zÇĶ
ĠnÃłĠ me
xuÃ©ĠshÃ¬Ġ xuÃ©ĠwÃ¨iĠ
p o
Ġ nÃ³ngĠ
Ġ yÃłnĠ
Ġ zhuÄ«Ġ
xiÃło ĠyÇĴuĠ
lÇ ĺ
shuÅį ĠdeĠ
dÄ« ĠdeĠ
ĠshÃ¬Ġ zhÇĲ
pÃłnĠ chÇĶĠ
hÇİnĠmÃ² ĠdÃ©Ġ
E N
Ġ chÇİngĠ
sÃ¹ ĠshÃ¨Ġ
gÇİi ĠmÃŃngĠ
zÃłng ĠyÃºĠ
ĠshÃ¬Ġ bÃ¨iĠ
ĠxiÃłn ĠyÇĶĠ
ĠxiÃłnĠ zÃłiĠdeĠ
ĠkÃ¨Ġ sÃłĠsÄ«Ġ
ĠxuÃ©Ġ huÃ¬Ġ
bÃłnĠ fÇİĠ
ĠguÃ³ĠmÃŃnĠ dÇİng
Ġ yÄ«ĠwÃ¨iĠ
jiÇİng ĠzhÅįngĠ
ĠshÃ¬Ġ zhÃ¨ngĠfÇĶĠ
rÃ©nĠ mÃŃn
yÃ¡nĠ lÃ¹nĠ
fÇİĠ guÃ³ĠdeĠ
tiÃ¡oĠ wÃ©nĠ
ĠtÃ³ngĠshÃŃĠ yÄĽĠshÃ¬Ġ
ĠhÃ©ĠnÃ¡nĠ shÄĽngĠ
4 4Ġ
a h
e i
Ġ nĠ
Ġ shÃłoĠ
Ġ gÅįngĠbÃ¹Ġ
Ġ 2023ĠniÃ¡nĠ
qiÃ¡n ĠxiÃłnĠ
sÃ¬ ĠyuÃ¨Ġ
nÃł ĠhÃ©Ġ
zhÄĵn ĠyÇĶĠ
fÇĴu ĠrÃ¨nĠ
ĠtÄģ ĠchÃ©ngĠwÃ©iĠ
rÃ¨nĠ mÃ¬ngĠ
ĠbÃ¬ngĠ jiÄģng
dÄĵngĠ lÃ¹
ÄģĠÄĽrĠ bÄģĠ
Ġ dÅįuĠshÃ¬Ġ
ĠĠĠ 189
ĠĠĠ fÇİĠguÃ³Ġ
zÇĴng ĠzhÃłnĠ
jiÇİ ĠshÃ¨Ġ
ĠzhÄ« ĠbÃ¹Ġ
ĠdÃłĠ chÃ©ngĠ
xiÇİoĠ zÇĶ
kÃ¨Ġ yÃ¹nĠ
ĠĠĠA r
lÇĲĠshÃ¬Ġ huÃ¬Ġ
Ġ fÄĵng
ĠĠĠ X
chuÃ¡n ĠqÃŃĠ
ĠhÃ©Ġ dÅįngĠ
ĠyÇĲĠ 2Ġ
ĠsÄ«Ġ fÇİĠ
shuÇĲĠ shÄĵnĠ
ĠfÄĵnĠ bÃ¹ĠzÃłiĠ
mÃłoĠ xiÇİnĠ
qÇĶĠdÃ©Ġ leĠ
ĠrÃ©nĠkÇĴu ĠdeĠ
rÃ©nĠdÃłĠ dÃłiĠbiÇİoĠ
a ch
Ġ 80
Ġ wÃ²Ġ
ĠĠĠ chÃ©nĠ
ĠtÄģĠ shuÅįĠ
ĠbÃ¨iĠ jÇĲngĠ
mÃ¬ngĠ mÃŃngĠdeĠ
ĠguÄģn ĠzhÃ¬Ġ
Ġ gÃłiĠ
wÃ©i ĠrÃ©nĠ
sÄģn ĠbÃ¹Ġ
liÃ¹ ĠgÃ¨Ġ
zÃ¡ ĠdeĠ
rÃ¨nĠ zhÃŃĠ
sÃłiĠ chÄĵĠ
ĠR Ġ
5 5Ġ
i re
m Äģo
t ÃłĠ
yÇĲng ĠdÃłiĠ
qÃ¹ ĠdeĠ
dÃłng ĠzuÃ²Ġ
fÄģngĠ chÃ©ngĠshÃ¬Ġ
ĠshÃ¬ĠshÃ¬Ġ jiÃ¨
ĠjiÄģng ĠxÄ«Ġ
luÃ³ĠmÇİ ĠdÃ¬ĠguÃ³Ġ
ĠxiÃłnĠdeĠyÃŃĠgÃ¨ ĠxÃŃngĠzhÃ¨ngĠzhÃ¨nĠqÅ«Ġ
5 1
O M
lÃŃ ĠshÃ¬Ġ
jÃº ĠshÃ¬Ġ
er i
zÇĲ ĠdÃłnĠ
ĠbÃ¹Ġ jÇĲn
ĠrÃ¨nĠ zhÃŃĠ
mÃ¬Ġ dÃ¹Ġ
fÇİnĠ duÃ¬
yÄ«nĠ sÃ¹Ġ
diÃłnĠyÇĲng ĠdeĠ
H D
l an
Ġ dÃ¡
Ġ pÃŃ
zhÃłn ĠyÇĴuĠ
xÄ«n ĠxÃŃngĠ
chÄĵ ĠrÃ©nĠ
35 ĠniÃ¡nĠ
ĠdÃłĠ fÅ«Ġ
ĠzhÄ«Ġ hÃ²uĠzÃłiĠ
tÃ¨Ġ lÇİngĠ
yÃŃĠ dÃ¹
liÃºĠ liÃłngĠ
zhÄĵngĠ qÇĶĠ
fÃłnĠ zuÃ¬
yÃ¬nĠ shuÄģĠ
juÃ©ĠsÃłi ĠzhÅįngĠ
Ġ guÃ¬Ġ
Ġ qÇĲngĠ
ĠĠĠ yÃ¡nĠgÃ©Ġ
ĠĠĠ yÇĲĠxiÃłĠ
jiÄģoĠ jiÃ¨Ġ
wÄĽiĠyuÃ¡nĠhuÃ¬Ġ zhÇĶĠxÃŃĠ
Ġ chuÃłng
Ġ wÃ¡nĠchÃ©ngĠ
tÇĲ ĠjÄ«Ġ
hÃ¹ ĠshÃ¬Ġ
miÇİn ĠyÃ¬Ġ
zÇĴngĠ miÃłnĠjÄ«Ġ
ĠP Ġ
ĠcÃ©ng ĠzÃłiĠ
shÄģnĠxÄ«Ġ shÄĽngĠ
ĠliÃºĠyÃ¹Ġ miÃłnĠjÄ«Ġ
chÃ¡ ĠÄĽrĠsÄ«Ġ
yÃ¹n ĠdeĠ
xÄ«ng ĠjiÃłn
chuÃ¡n ĠdÃ¬Ġ
ĠzÃłiĠ bÃ¨iĠ
ĠxiÃłn ĠzhÅįngĠ
ĠxÃŃng ĠhÃ©Ġ
xuÃ©Ġ xÃ¬Ġ
ĠjÅ«nĠ tuÃ¡nĠ
diÃłnĠ zÇĲ
dÄģnĠ mÃłi
shÄģngĠ chÇİngĠ
huÃŃĠ guÄ«
ĠdÅįngĠ bÄĽi
dÃłiĠbiÇİoĠ tuÃ¡nĠ
ĠgÄĵnĠjÃ¹Ġ 2020ĠniÃ¡nĠmÄĽiĠguÃ³ĠrÃ©nĠkÇĴuĠpÇĶĠchÃ¡ĠdeĠshÃ¹ĠjÃ¹Ġ
ĠrÃ¬ĠbÄĽn ĠdeĠ
Ãłn ĠlÃ¬Ġ
fÃº ĠshÃ¬Ġ
chÃ¡o ĠshÃŃĠ
bÃ¹Ġ tÃ³ngĠ
shÇĴuĠ shÃ¹Ġ
fÄĵnĠ liÃ¨Ġ
ĠzhÃ¨ngĠ quÃ¡nĠ
yÇİnĠ zÃ²u
yÇİnĠ jiÇİngĠ
6 ĠmÇĲĠ
O R
Ġ dÄĵng
yÇĴu ĠhÃ©Ġ
le ĠdÃ¬Ġ
gÄģo ĠdÃ¬Ġ
chÃ¡ng ĠbÃ¨iĠ
biÃłn ĠshÃ¬Ġ
qiÇİn ĠzÃ©Ġ
mÃŃnĠ zhÃ²ng
biÄģnĠ jiÃ¨
ĠĠĠ tÃ¡iĠwÄģnĠ
jÃ¬n ĠniÃ¡nĠ
gÃ© ĠlÇĲĠ
00 ĠmÇĲĠ
cÅ«n ĠdeĠ
ĠzhÇĶĠ chÃŃ
hÃ¡ngĠkÅįngĠ mÇĶ
guÇİngĠfÃłn ĠdeĠ
C DĠ
Ġ lÃ¡n
Ġ cÃŃ
ch o
jÃ¬ ĠyÃºĠ
zhÇİng ĠhÃ©Ġ
199 4ĠniÃ¡nĠ
yÃ¬Ġ bÇİiĠ
jÄ«ngĠ yÃŃng
xiÃ¡ngĠ xÃ¬Ġ
ĠzhÇĶĠyÃło ĠshÃ¬Ġ
shuÇĲ ĠdeĠ
jÇĲng ĠyuÃ¡nĠ
ĠzhÅįngĠ qÄ«Ġ
ĠchÃ©ngĠ lÃ¬ĠdeĠ
shÄĵngĠ yÄ«nĠ
zhÃ¨ngĠ chÃ¡ngĠ
ĠmÃŃngĠ xiÇİnĠ
bÇİoĠ jiÄģ
w it
ĠĠĠ tÃ³ng
di ÄĵĠ
ĠzÃłiĠ qÃŃ
ĠyÄ«Ġ zhÇĴng
ĠdÃłn ĠdeĠ
jÄ«nĠ rÃ³ng
guÄ«Ġ lÃ¨i
shuÃ² Ġ
wÃ¡nĠzhÄĽng ĠdeĠ
6 1
7 2
Ġ jÄ«ĠyÃºĠ
kÄģi ĠshÃ¨
gÄĵn ĠbÄĽnĠ
dÃłng ĠdeĠ
ĠwÃ¨iĠ wÃ¨iĠ
ĠxÄ«Ġ fÄģngĠ
ĠzhÄ«Ġ shÃłngĠ
zhÇĶĠ bÃłnĠ
qiÃ¡nĠ jÃ¬nĠ
fÃºĠ lÃ©i
shÃ²uĠ huÄģnĠ
yÃŃĠ cÃ¬ĠshÃ¬ĠjiÃ¨ĠdÃłĠzhÃłnĠ
gÇİiĠ zÃło
qiÃ¡oĠ liÃ¡ngĠ
dÃ©Ġ guÃ³ĠdeĠ
zhÇĶĠyÃło ĠshÃ¬Ġ
ĠĠĠ xiÄģngĠgÇİng
jiÃ¹ ĠbÃ¨iĠ
198 0ĠniÃ¡nĠ
ĠduÃ¬Ġ wÇĶĠ
jÄ«nĠ shÄģnĠ
tÃºĠ shÄģĠ
Ġn ÃłnĠ
ĠĠĠ dÃłoĠ
Ã©r ĠtÃ³ng
ĠshÃŃĠ kÃ¨Ġ
lÇĲĠ lÃ¡nĠ
ĠgÃ¨ ĠbÃ¹Ġ
ĠzhÅįu ĠlÃ¬Ġ
ĠduÃ¬Ġ wÃłiĠ
ĠlÃ¬ĠshÇĲĠ xuÃ©ĠjiÄģĠ
ĠyÃ¬ĠshÃ¹ ĠjiÄģĠ
Window sĠĠĠ
T VĠ
Ġ kÄĽĠnÃ©ng
fÃº ĠyÄ«nĠ
jiÄĵ ĠdeĠ
jiÃ¨ ĠyÃ³uĠ
jiÄģo ĠdeĠ
ĠshÃŃĠ yÃ³uĠ
ĠyÇĴuĠ liÇİngĠ
luÃ³Ġ lÄģĠ
shÅįuĠ cÃ¡ng
ÄģĠÄĽrĠ bÄĵiĠsÄ«Ġ
ĠguÄģngĠ xÃ¹Ġ
24Ġ xiÇİoĠshÃŃĠ
nÃº ĠlÃ¬Ġ
ĠĠĠ liÃºĠ
ti ÇİoĠ
199 1ĠniÃ¡nĠ
fÄĵnĠ pÃ¨i
nÇļĠ zhÇĶĠjuÃ©Ġ
zÃºĠ qÃºnĠ
sÃłĠ lÄģĠ
Ġ195 2ĠniÃ¡nĠ
fÃ³Ġ jiÃło
luÃ² ĠkÃ¨Ġ
ĠshÃ¬Ġ xÄ«ĠbÄģnĠyÃ¡Ġ
ĠbÃ¹Ġ shÃŃĠ
ĠguÃ³Ġ jÅ«nĠ
ĠdÃłĠ qiÃ¡o
ĠjÃ¬n ĠÃ©rĠ
mÃ³Ġ tÃ¨
ĠmiÃłnĠjÄ«Ġ 0
fÄģĠbÃ¹Ġ leĠ
chÄģoĠ guÃ²
ĠdÃł ĠbÃ¹ĠfÃ¨n
dÄ«ĠqÃ¬Ġ yÄģĠ
1 10
m ÇİoĠ
Ġ zhÄģoĠ
qu Ãłn
nÃ¡n ĠrÃ©nĠ
chÄĵng ĠshÃ¬Ġ
gÇĶ ĠjÃ¬Ġ
biÃłn ĠdeĠ
nÇļ ĠrÃ©nĠ
luÃ² ĠzÃłiĠ
ĠshÃŃĠ lÃ¬Ġ
ĠjÄ«Ġ xiÃ¨
ĠxÄ«Ġ zÃłngĠ
tÅįngĠ wÇİngĠ
ĠshÃ¨Ġ yÇĲngĠ
xuÇİnĠ qÅ«
yÇĲĠ sÃ¨Ġ
pÃ©iĠ xÃ¹nĠ
zhÃ²ngĠdiÇİnĠ wÃ©nĠwÃ¹ĠbÇİoĠhÃ¹ĠdÄģnĠwÃ¨iĠ
jiÄģĠlÃ¬ĠfÃºĠ nÃŃĠyÃłĠzhÅįuĠ
4 3Ġ
8 ĠgÃ¨Ġ
hÃło ĠdeĠ
biÄģn ĠzhÃ¬Ġ
yÄ«Ġ yuÃłnĠ
zhÃ¬Ġ zuÃ²
zhÇĴngĠ lÃ¨iĠ
zÄ«Ġ xÃºnĠ
qÃŃngĠ bÃło
qiÃ¡ngĠ diÃło
tÇİnĠ dÄ«ngĠ
A L
dÃł ĠhÃ©Ġ
lÃ¡i ĠkÃ¨Ġ
yÃł ĠsÄ«Ġ
zhuÇİn ĠchÃ©ngĠ
ĠgÅįngĠ gÃłoĠ
ĠrÃ¬ ĠhÃ©Ġ
ĠyuÃ¡nĠ ziĠ
xÄ«nĠ jiÄģngĠ
tÃ³uĠ shÇĴuĠ
jiÃłĠ gÃ²uĠ
zhuÄģnĠ mÃ©n
cuÄ«Ġ huÇĲĠ
Ġ kÄĽnĠ
shÃ ¡
shÄģ ĠdeĠ
ĠjÃŃĠ xiÃłnĠ
ĠyÃ¬Ġ dÃłĠ
ĠzÃ¬Ġ mÇĶĠ
ĠjÄ«nĠ shÇĶĠ
tÃºĠshÅ«Ġ guÇİn
gÇĶĠlÇİo ĠdeĠ
Ġ zÃº
jÃº ĠbÃ¹Ġ
ĠshÃ¬Ġ duÃ¬Ġ
ĠzhÄ«Ġ hÃ²uĠdeĠ
guÄ«Ġ dÃ¬ng
ĠshÃ¬ĠyÄ«Ġ kÄĵ
tÃ¡nĠ pÃłn
tÇĲĠyÃ¹Ġ guÇİnĠ
gÃ²uĠmÇİi Ġ
dÃŃĠshÃ¬Ġ nÃŃĠ
c Åįng
r ou
Ġ luÃ³ĠsÄ«Ġ
guÇİng ĠzhÅįuĠshÃ¬Ġ
huÃŃ ĠjiÄģĠ
ĠyÄ«Ġ lÇİng
shÅįuĠ rÃ¹
chÃ©ngĠlÃ¬Ġ hÃ²uĠ
gÃ²ngĠhÃ©Ġ dÇİngĠ
Ġ mÇĲ
Ġ xiÅįngĠ
rÃ¹ n
gÃ²ng ĠjÃ¬Ġ
ĠshÃ¬Ġ xÄ«ngĠdÄĽngĠwÃ¨iĠ
ĠzhÅįngĠ xÄ«nĠdeĠ
rÃºĠ guÇĴ
shÃ©nĠ huÃłĠ
diÃłnĠyÇĲngĠ jiÃ©Ġ
zhuÄģn ĠlÃ¬Ġ
ĠyÇĲĠ bÄĽiĠ
yÃŃĠ dÃ¬ngĠdeĠ
pÇĶĠ luÃ³Ġ
yÃ¡nĠjiÅ« ĠzhÅįngĠxÄ«nĠ
gÃ¨Ġ zhÇĴng
ĠÐ °
ĠkÄĽ ĠshÃ¬Ġ
g ÄĽn
t sĠĠĠ
Ġ xuÃ¡nĠ
jiÄģn ĠwÃ¨iĠ
shÄ« ĠjÃŃĠ
wÇĶ ĠdÃ©Ġ
ar dĠĠĠ
zhÃ¬Ġ dÃ¹Ġ
wÄĽiĠ tuÅįĠ
Ġ18 0
ĠjÇĲngĠ fÄģngĠ
hÅįngĠ zhÃłĠ
6 2
Ġ lÇļ
Ġ huÄģ
Äģ ĠsÄ«Ġ
kÄĽ ĠjiÃłnĠ
lÃºn ĠsÄ«Ġ
ĠtÄģĠ yÄĽ
fÄģngĠ xiÃłngĠdeĠ
wÄĵiĠ xiÃ©
h er
o ni
Ġ zÄĵngĠ
Äģ ĠkÃ¨Ġ
gÅįng ĠhÃ©Ġ
duÅį ĠlÃ¬ĠyÃłĠ
yÇĶĠ mÃ¡o
mÃ³Ġ fÇİĠ
sÅ«Ġ dÄģnĠ
zhuÇİnĠ huÃłnĠ
ĠniÃ¡nĠ12ĠyuÃ¨Ġ 31ĠrÃ¬Ġ
fÇİĠlÃ¡nĠ xÄ«
Ġ bÃ¹ĠzÃłiĠ
Ġ pÃ©ngĠ
dÄĽng ĠyÃºĠ
cÃ©ng ĠbÃ¨iĠ
si c
ĠzÃłiĠ xiÄģngĠgÇİngĠ
wÃ¹Ġ pÇĲnĠ
gÄĵĠ gÄĵĠ
shÇĲĠyÃ²ngĠ zhÄĽĠ
Ġ19 Ġ
o k
Ġ bÇĲĠsÃłiĠ
qÇĶ ĠzÃ¬Ġ
ĠhÃ©Ġ jÃ¬Ġ
ĠshÃŃĠ pÇĲnĠ
qÄ«ngĠ chÇĶĠ
ĠxiÃłĠ leĠ
tÃŃngĠ kÃło
fÃ©i ĠtÃ¨Ġ
7 3
b oo
Ġ 21
ĠĠĠ for
dÃł ĠyÃºĠ
zhÄ« ĠjiÄģĠ
jiÃ¹ ĠzÃłiĠ
gÃ¨ng ĠshÃ¬Ġ
gÃło ĠshÃ¬Ġ
ĠxiÃłnĠ mÃŃngĠ
nÃ¨iĠ ruÃ¬Ġ
zhuÇİnĠ huÃłn
zhuÃłnĠ xiÄĽĠ
ĠshÃ¬ĠshÃŃĠ shÃłngĠ
ĠniÃ¡nĠqÄ«ng ĠdeĠ
ĠĠĠ m
ĠĠĠ 2005
rÃ¹ ĠqiÃºĠ
tÃ¡n ĠhÃ©Ġ
ĠxÃŃngĠ rÃ³ng
ĠjÅ«n ĠyÇĴuĠ
fÃ¹Ġ shÇĲĠ
liÃ¡nĠ luÃ²Ġ
ĠzhÅįuĠ qÄ«Ġ
ĠyÃ³uĠ xÃ¬ĠdeĠ
zhÇĶnĠ bÃ¨i
shÃ¹nĠ xÃ¹Ġ
kuÃłi ĠdeĠ
ĠshÃ¬Ġ yÄ«ngĠguÃ³Ġ
ĠtÃ³ng ĠzhÃ¬Ġ
chÇİnĠ wÃ¹Ġ
shÅįuĠ fÃ¨iĠ
shÄĽnĠ pÃłnĠ
ĠyÄ«nĠcÇĲ ĠzÃłiĠ
u sĠĠĠ
wÃ¹ ĠyÇĶĠ
kÃ¨ ĠsÄ«Ġ
tu ÇĲ
bÄģ ĠbÃ¹Ġ
wÇİng ĠyÇĴuĠ
jÃ¬Ġ zÇİiĠ
ĠxÃŃng ĠrÃ©nĠ
qÅ«Ġ nÃ¨iĠ
ĠbÃ¬ng ĠshÃ¬Ġ
ĠbÃ¨iĠ rÃ¨nĠmÃ¬ngĠwÃ¨iĠ
Ġ197 0ĠniÃ¡nĠ
ĠbÃ¬Ġ xÅ«Ġ
ĠlÃºĠ wÇİĠÄĽrĠshÄĽngĠ
mÄĽiĠguÃ³ĠrÃ©nĠkÇĴuĠpÇĶĠ chÃ¡Ġ
sÄģiĠÄĽrĠwÃ©iĠ yÃłĠ
8 9ĠniÃ¡nĠ
± Ġ
Ġ jiÇİoĠ
ĠĠĠ 14
ĠĠĠ 2022ĠniÃ¡nĠ
cÃ¹ n
ĠwÃ¨iĠ lÃ¬Ġ
ĠjÃŃĠ bÃ¬ng
ĠtÄģ ĠrÃ©nĠ
jÄ«Ġ guÄģnĠ
zuÃ²Ġ zhÄĽĠ
ĠxÃŃngĠ rÃ³ngĠ
yÃ³uĠ yÇĴngĠ
zhÇĲĠ kÃ²ng
jiÄģoĠ gÄĽiĠ
shuÇĲĠ liÃłngĠ
ĠtiÄģnĠ jÄ«nĠ
qiÃºĠ chÇİngĠ
ĠliÃ¡nĠ jiÄĵĠ
kÄĽĠnÃ©ngĠ xÃ¬ngĠ
Ġ15 7
rÃ¬ĠbÄĽn ĠdeĠ
E C
Ġ 2004
00 ĠrÃ©nĠ
ĠshÃŃĠ dÃłĠ
zhÃłnĠ lÃ¼Ã¨Ġ
jiÃłoĠ gÄģoĠ
fÇİĠ lÃ¡nĠkÃ¨Ġ
ĠqÃŃĠ hÃ²uĠyÃºĠ
zhÃ¨nĠ rÃ³ngĠ
jiÇİnĠ dÄģnĠdeĠ
qÇĶĠ mÃ¹Ġ
piÃłnĠ duÃłnĠ
ĠshÃ¬ĠjiÃ¨ ĠshÃłngĠ
sÃ¬ĠchuÄģnĠ shÄĽngĠ
Ġ ruÇİn
chuÄģn ĠxiÃłnĠ
ĠyÃºĠ shÃŃĠdeĠrÃ©nĠkÇĴuĠshÃ¹ĠliÃłngĠwÃ¨iĠrÃ©nĠ
zhÃŃĠ shÄĵngĠjÄ«Ġ
sÃłiĠ guÃłnĠjÅ«nĠ
yÄ«ngĠ xiÃ³ng
mÃ©iĠyÇĴuĠ rÃ¨nĠhÃ©Ġ
ĠmÄĽi ĠzhÅįuĠ
Ġ194 1ĠniÃ¡nĠ
yÃ¡nĠshÄĵn ĠzhÃ¬Ġ
U S
w Äĵng
Ġ chÃ³ngĠxÄ«nĠ
ĠĠĠ hÃ³ngĠ
gÇĶ ĠdeĠ
hÃło ĠwÃ¨iĠ
pÇĶ ĠjÃŃĠ
ĠshÃ¬Ġ jÃ¬ĠzhÅįngĠ
ĠshÃłngĠ leĠ
tÅįngĠ xÃ¹n
wÇĶĠ hÃłnĠ
ĠwÃ¨iĠyÃºĠgÄģiĠguÃ³Ġ xÄ«ĠbÃ¹Ġ
bÄģoĠhÃ¡n ĠleĠ
Ġ qÃŃn
chÃ¬ ĠjÄ«ngĠ
bÃ¨iĠ jÇĲng
zhÇĲĠ shÃ¹Ġ
tÃłiĠ shÇĴuĠ
Ã¨rĠ shÃŃĠniÃ¡nĠ
ĠwÃ¨iĠyÃºĠ yÃŃn
ĠĠĠM u
ĠT Ġ
ĠyuÃ¡nĠzhÃ¹Ġ mÃŃnĠ
N H
l and
o c
Ġ kÇİĠÄĽrĠ
cÄģn ĠyÃ¬ĠyuÃ¡nĠ
bÇĶ ĠzhÃ¹Ġ
el Ġ
ĠlÃ¬Ġ tÃ¡oĠ
ĠjiÃłn ĠzÃłiĠ
zhÇĶĠ dÃ²ngĠ
xÃ¬Ġ jiÃ©Ġ
jiÄĵĠ xiÃłĠ
zhÄĵngĠ fÃºĠ
cÃ¡iĠ pÃłnĠ
xiÃ©Ġ tiÃ¡oĠ
chÅįngĠ mÇİnĠ
ruÇİnĠ tiÃ¡oĠ
gÄĵĠlÃºnĠ bÇĲĠyÃłĠ
p ÄģoĠ
yuÃ¡n ĠbÃ¹Ġ
qi Ãł
hÃ²u ĠyÇĲĠ
huÃł ĠshÃ¬Ġ
199 5ĠniÃ¡nĠ
jiÄģngĠ hÃ¹
bÄĽiĠ bÃ¹ĠdeĠ
chÃ¨Ġ xiÄģo
4 ĠmÇĲĠ
Ġ shuÄģng
mÃŃng ĠhÃ©Ġ
qÇĶ ĠdeĠ
zhÄĵn ĠrÃ©nĠ
198 4ĠniÃ¡nĠ
ĠshÃŃĠ Ã¨rĠniÃ¡nĠ
ĠyÇĲĠ biÃłnĠ
ĠdÃ©Ġ wÃ©iĠ
jiÃłoĠ liÃłn
ĠrÃ¨nĠ mÃ¬ngĠ
ÃłnĠ zhÃło
bÃ¬ngĠ rÃ¹Ġ
Ġ tÄ«ngĠ
ĠĠĠ yÃ³uĠxÃ¬Ġ
kÄģiĠ tÅįng
Ġ195 4ĠniÃ¡nĠ
Ġm ÄĽngĠ
M A
lÃŃn ĠjÃ¬nĠ
jiÇİ ĠjÃŃĠ
pÃŃn ĠdÃło
sÃ¬Ġ hÅ«
tÃºĠ ÃłnĠ
ĠyÇĴuĠxiÃłn ĠgÅįngĠsÄ«
qÃŃĠzhÅįngĠ yÄ«Ġ
jiÃ¨ĠquÃ¡nĠguÃ³Ġ zhÃ¨ngĠxiÃ©Ġ
bÃłoĠfÄģ ĠhÃ²uĠ
wÃłngĠyuÇİnĠ jÃ¬ngĠ
s on
Äģ ĠbÃ¹Ġ
ch ÇĴuĠ
rÃ©ng ĠwÃ¨iĠ
xuÇİnĠ xiÃ¹
lÇĲngĠ tÇĶ
huÃ¡ngĠ jÄ«nĠ
diÃłnĠshÃ¬Ġ dÃ²ngĠhuÃłĠ
nÃ³ngĠ chÇİngĠ
ĠhÇİiĠ bÃ¡
Ġ197 5ĠniÃ¡nĠ
mÃ¡oĠ dÃ¹nĠ
ĠchÃºĠ cÇĲĠzhÄ«ĠwÃłiĠ
Ġ 2003
Äģn ĠdeĠ
zhÅįng ĠdeĠyÄ«Ġ
shÃ¹ ĠjiÄģĠ
chÄĵ ĠxÃŃngĠ
wÃłn ĠyuÃ¡nĠ
hÄģ ĠlÇĲĠ
in e
ĠdÃłĠ xiÇİoĠ
gÃ©Ġ lÄģĠsÄ«Ġ
ĠxuÃ©Ġ shÃ¹Ġ
huÇĴĠ chÄĵĠzhÃłnĠ
xuÄģnĠ yÃ¡nĠ
ĠH R
ĠĠĠjÇĲnĠ guÇİnĠ
D S
e li
ĠĠĠ kÇİĠ
lÃ¹ ĠshÃ¬Ġ
shÇĲ ĠyÃºĠ
ni ÃłoĠ
piÃłn ĠzhÅįngĠ
hÇİiĠ nÃ¡nĠ
ĠtiÄģnĠ jÄ«n
xuÄģnĠ chÄĵngĠ
I DĠ
h Äĵng
Ġ fÄģ
Ġ 45
qÄ« ĠzhÃ¬Ġ
zÃ© ĠbÃ¨iĠ
bÅį ĠdeĠ
shuÇĲ ĠdÃłoĠ
bÇİi ĠwÃłnĠ
hÅ« ĠxÄ«Ġ
ĠyÃºĠ 2021
hÄĽnĠ dÃłĠdeĠ
ĠfÄĵiĠ lÇľĠ
c ri
m Ã¡i
Ġ ë
jÃ¬ ĠzhÃ¬Ġ
tÃŃng ĠdeĠ
ar dĠ
huÇĴ ĠlÃ¬Ġ
kuÃł ĠyuÃ¨Ġ
ĠshÃŃĠ yÄ«ĠniÃ¡nĠ
ĠdÃłĠ lÇĲĠ
zhÇĶĠ quÃ¡nĠ
mÄĽiĠ tiÄģnĠ
nuÃ²Ġ fÅ«Ġ
ĠchÃ¬Ġ wÄĽiĠ
4 ĠĠĠ
4 3ĠniÃ¡nĠ
ĠĠĠ jiÇİnĠlÃ¬Ġ
yÄĽ ĠshÄĵngĠ
fÄĵi ĠdÃłnĠ
men tĠ
si sĠ
yÃ¬Ġ mÃŃngĠ
jÄ«Ġ chÄĵĠ
wÃ¹Ġ tÇĲĠ
duÅįĠ zhÇĴng
shÄĽngĠ zhÇİngĠ
tuÅįĠ lÃŃĠ
ĠxiÃłnĠshÃŃĠ yÃ³uĠ
kÄģĠ fÄĵiĠ
t Äģo
Ġ sÅįngĠ
mÃ² ĠniÃ¡nĠ
dÃº ĠdeĠ
tÅ« ĠjÄ«Ġ
wÄĵn ĠdÃłiĠ
ĠjÃŃĠ wÃ©iĠ
ĠyÇĲ ĠbÃ¹Ġ
ĠdÃłĠ bÇİnĠ
ĠxÃŃngĠ tÃłiĠ
ĠyÃ³uĠ tÃłiĠ
mÄĽiĠ xiÇİoĠshÃŃĠ
ĠdeĠdÃ¬Ġ sÄģnĠ
chuÃłngĠ zÃło
ĠyÃ¹ ĠjÃ¬Ġ
Ġ fÃ¡n
ĠĠĠ gÇĶĠ
shÄĵng ĠyuÃ¡nĠ
fÄģng ĠzÃłiĠ
hÃ¹ ĠwÃ¨iĠ
ĠshÃ¬Ġ Ã©ĠluÃ³ĠsÄ«Ġ
ĠdÃ© ĠdÃło
ĠchÅ«Ġ chÇİngĠ
shÄĵnĠ tÇĲ
nÃŃĠ sÅ«Ġ
tiÃ¡oĠ jiÃ©Ġ
Ġ18 Ġ
ĠjiÃłnĠzhÃ¹Ġ wÃ¹Ġ
Ġ193 9ĠniÃ¡nĠ
2 ĠlÃ¬Ġ
xÄ«n ĠjiÃłnĠ
shÄģ ĠrÃ©nĠ
ĠzÃłiĠ fÇİĠguÃ³Ġ
ĠhÃ©Ġ shÃłngĠ
ĠdÃ© ĠjÅ«nĠ
liÃ¡nĠ luÃ²
ĠzhÃ¨Ġ zuÃ²Ġ
xiÅ«Ġ dÃ¬ngĠ
ĠzhÃ¨ ĠshÃŃĠ
Ġ194 4ĠniÃ¡nĠ
4 1Ġ
Ġ cÃ¡oĠ
ĠĠĠ 2009ĠniÃ¡nĠ
shÃ¨ng ĠdÃłnĠ
jÃ¹n ĠdeĠ
ra Ġ
ĠrÃ©nĠ duÃ¬Ġ
ĠjÃŃĠ gÅįngĠ
jiÃłoĠ zÅįngĠ
ĠhuÃ²Ġ zhÄĽ
lÃ³ngĠ shÄĽngĠ
jiÇİngĠ jÄ«nĠ
pÃ¡iĠ liÃ¨Ġ
zhÅįngĠguÃ³Ġ dÃłĠlÃ¹Ġ
xÇĶĠ kÄĽĠ
sp anĠ
ĠĠĠ jÄ«ngĠlÃ¬Ġ
fÃ¨n ĠdeĠ
ni Ãło
zÃło ĠxÃŃngĠ
chÃ³ng ĠjiÃłn
liÃ¹ ĠmÃŃngĠ
ĠdÃ¬Ġ yÄ«ĠwÃ¨iĠ
shÃ²uĠ huÄģnĠyÃŃngĠ
fÄĵngĠ gÃ©ĠdeĠ
xiÃłoĠ lÇľĠ
jÇĶĠ zhÃ¨nĠ
ĠshÇĴuĠ cÃ¬
ĠS AO
ĠE Ġ
5 2Ġ
ĠĠĠ xiÇİoĠ
ĠĠĠ Ã¨rĠ
nÃł ĠÄĽrĠ
bÇİ ĠtÄģĠ
ĠguÃ³Ġ yÇĴuĠ
ĠyÇĶĠ xÄ«Ġ
ĠshÄĵngĠ tÃłiĠ
Ġ194 0ĠniÃ¡nĠ
K B
Ġ 90
Ġ fÃ©ng
ĠĠĠ en
ĠĠĠ lÃŃnĠ
hÇİi ĠdeĠ
zÃ© ĠyÃ³uĠ
hÃ¹ ĠdeĠ
ĠyÃºĠ tÃ³ng
guÄģnĠ xÃ¬ĠdeĠ
yÃ¡nĠ fÄģĠ
ĠqÃŃĠ B
ĠduÃ¬Ġ xiÃłngĠ
zhÅįuĠ biÄģn
huÇĴĠ chÄĵĠ
bÇĶĠ rÇĶĠ
ĠlÃ¬ĠfÇİ ĠhuÃ¬Ġ
8 ĠmÇĲĠ
u mĠ
jiÄģng ĠjÅ«n
suÇĴ ĠyÇĲĠ
g ÇĴng
Ġ zÇĲĠ
xÃ¹ ĠdeĠ
zhuÄģng ĠwÃ¨iĠ
198 9ĠniÃ¡nĠ
ĠjÃŃĠ huÃ¬Ġ
ĠjÃŃĠ qÃŃĠtÄģĠ
jÃ¹Ġ lÃŃ
qiÃ¡nĠ tÇĲng
shÅįuĠ gÃ²u
gÃ¨ngĠ dÃłĠdeĠ
ÅįuĠ mÃ©ngĠ
Ġ196 0ĠniÃ¡nĠ
biÇİoĠxiÃłn ĠchÅ«Ġ
ĠjÃŃĠxÃŃngĠzhÃ¨ngĠ dÄģnĠwÃ¨iĠ
Ġ tÃŃĠchÅ«Ġ
fÄģng ĠxÃŃngĠ
zhÃŃ ĠxÃŃng
yÃł ĠhÃ©Ġ
juÃ© ĠwÃ¨iĠ
ĠjÃŃĠ tÇĲĠ
bÃ¨iĠ ÄĽrĠ
guÄģnĠ kÃłnĠ
yÃŃĠ bÃłnĠ
bÃ¬Ġ yÃłoĠ
xiÄģoĠ fÃ¡ngĠ
rÃ©nĠmÃŃnĠ zhÃ¨ngĠfÇĶĠ
ĠyÃŃnĠ wÄĽiĠ
0 ĠzuÃ²ĠbiÄģoĠwÃ¨iĠ
c a
Ġ wÃ©n
ĠĠĠ shÃłngĠ
fÄĵn ĠqÃŃĠ
ĠchÃ©ngĠ yÄ«Ġ
wÃ©iĠ yÄ«ĠdeĠ
zhÇĶĠ dÇİoĠ
ĠdÃłn ĠshÃ¬ĠzÃłiĠ
zhÃŃĠ bÃłng
ĠbÃ¬ngĠ fÄĵi
ĠdÃłnĠ zuÃ¬ĠzhÅįngĠ
ĠxiÄģngĠ bÇĲĠ
tÇĶĠ rÇİng
ĠguÄģnĠ zhuÃłngĠbÃ¬ngĠdÃº
ĠwÃ¨iĠyÃºĠyÃŃn ĠjÄ«ngĠ
ĠqÃŃĠB 1900
0ĠzuÃ²ĠbiÄģoĠwÃ¨iĠ chÃ¬ĠjÄ«ngĠ
4 6ĠniÃ¡nĠ
Ġ kÄĵĠxuÃ©Ġ
ĠĠĠ 11ĠyuÃ¨Ġ
ĠĠĠ 2007ĠniÃ¡nĠ
xÃŃng ĠdeĠ
jiÃ© ĠshÃŃĠ
liÃ¡n ĠjÅ«nĠ
lÄģ ĠwÃ©iĠ
bÃ³ ĠÄĽrĠ
ï¼ İ
ĠÃ©r ĠhÃ²uĠ
ĠjÄ«ngĠ chÃ¡ngĠ
ĠjiÃłnĠzhÃ¹Ġ miÃłnĠjÄ«Ġ
kÃ²ngĠ zhÃ¬ĠdeĠ
cÇİiĠyÃ²ngĠ leĠ
g Ã¡
ĠĠĠ 9
ĠĠĠ sÄģnĠ
ĠĠĠ fÄĵnĠbÃ¹Ġ
zi ĠshÃ¬Ġ
jiÄģo ĠzhÃłnĠ
37 ĠniÃ¡nĠ
ĠshÃŃĠ rÃ¨n
ĠsÄ«Ġ zhÃŃĠ
cÃ¬Ġ shÃ¹Ġ
ĠxiÄģngĠ sÃ¬Ġ
biÄģnĠ zÇĶĠ
ĠzuÃ¬Ġ zÇİo
Ġãĥ ³
ĠqÄ«ngĠchÃ¡oĠ zhÃ¨ngĠzhÃ¬ĠrÃ©nĠwÃ¹Ġ
ĠÃłoĠdÃłĠlÃ¬Ġ yÃłĠ
4 ĠmÃŃngĠ
r in
Ġ pÃºĠtÃ¡oĠyÃ¡
00 ĠwÃłnĠ
18 5
sÇĲ ĠleĠ
ĠzÃłiĠ qiÃ¡nĠ
ĠrÃ©nĠ zhÃ¬Ġ
hÃ²uĠ qÄ«Ġ
yÃ³uĠ xÃ¬ĠdeĠ
zÃ¬Ġ wÇĴĠ
juÃ©Ġ sÃ¨ĠdeĠ
ĠjÃ¹Ġ qÃŃngĠ
pÇĶĠ lÄģĠ
Ġ liÃ¡ng
Ġ yÇİ
Ġ zÃºĠ
Ġ fÄģnĠ
ĠĠĠ chÃºĠ
xiÃłng ĠjÄ«Ġ
dÇİo ĠhÃ©Ġ
bÄģ ĠsÄ«Ġ
shÃ¨ng ĠdeĠ
lÃºn ĠdeĠ
wÇĴ ĠdeĠ
zhÅįngĠ huÃ¡ĠmÃŃnĠguÃ³Ġ
yÃ¹nĠ yÃŃng
tÃŃĠ qiÃ¡nĠ
ĠĠĠC on
ĠĠĠchÄĵĠzhÃłnĠ gÃ²uĠzÃłoĠ
luÃ²ĠfÃ¡ ĠkÃ¨Ġ
ĠĠĠ pÃŃngĠ
zuÃ¬ ĠyÇĴuĠ
lÃ¹n ĠshÃ¬Ġ
mÃłn ĠdeĠ
xiÄĽ ĠwÃ¨iĠ
shÃŃĠ dÃłiĠ
ĠshÃŃĠ sÄģnĠ
ĠdÃłĠ jiÄĵĠ
xiÃłĠ lÃ¬ngĠ
kÄģiĠ zhÇİn
dÃ¬ngĠ yÃ¬ĠwÃ¨iĠ
ĠxiÄģngĠ dÄģngĠ
xÃ¹nĠ sÃ¹
chÃ³ngĠ fÇİnĠ
gÄĵnĠ suÃŃĠ
jiÄĽĠfÃłng ĠjÅ«n
ĠhÃºĠ bÄĽiĠ
liÃ¡nĠmÃ©ng ĠdeĠ
mÃ¹ĠsÄ«Ġ lÃŃn
kÃłng ĠzhÃłnĠ
ĠzhÅįngĠ yÄ«Ġ
jiÄģnĠ chÃŃĠ
suÇĴĠ xÅ«
Ġ196 6ĠniÃ¡nĠ
ĠdÃł ĠbÃ¹ĠfÃ¨nĠ
Ġ zÄ«Ġ
Ġ wÅ«ĠkÃ¨ĠlÃ¡n
huÃł ĠyÇĶĠ
nÃ¨i ĠsÄ«Ġ
ĠjÃŃĠ chÃ©ngĠ
ĠjÃŃĠ biÃ©Ġ
zhÇĶĠ dÇİĠ
fÄģngĠ biÃłnĠ
jiÄģnĠ chÃ¡
ĠdÃłiĠ lÃ¡iĠ
ĠqiÃºĠ duÃ¬
dÄģnĠ dÃºĠ
jÇĲnĠ zhÄģngĠ
cÄģnĠ guÄģnĠ
zhÄĵnĠ zhÃ¨ngĠdeĠ
Ġ194 2ĠniÃ¡nĠ
ĠÄģnĠ huÄ«Ġ
Ġ shÄ«
Ġ zhÄĽngĠgÃ¨Ġ
suÇĴ ĠshÃ¬Ġ
hÃ¨ nĠ
ĠzhÅįngĠ jiÃłngĠ
zhÃ²ngĠ liÃłngĠ
shÃ¹nĠshÃŃĠ zhÄĵnĠyÇĶĠ
Ġ xÃŃĠ
ĠzhÅįngĠ duÃłnĠ
ĠshÃŃĠ bÄģĠ
ĠyÇĲĠ dÅįngĠ
ĠchÅ«Ġ xÃŃ
tÃ³ngĠ yÃłngĠ
ĠyÄĽ ĠbÃ¹Ġ
tiÄĵĠ mÃ¹
7 ĠgÃ¨Ġ
V i
r Çİo
Ġ 38
ĠĠĠ guÃ³ĠjÃ¬Ġ
hu ÇİngĠ
ni ÃłngĠ
199 0ĠniÃ¡nĠ
ĠshÃ¬Ġ tÃ¡iĠwÄģnĠ
ĠrÃ©nĠ quÃ¡nĠ
ĠyÃ¬Ġ xÃŃĠ
ĠyÄ«Ġ shÃŃĠ
ĠdÃłĠ duÃ¬Ġ
fÃ¹Ġ mÇĶĠ
jiÃłoĠ dÃłĠdeĠ
zhÇĲĠ dÃ¬ng
zuÃ¬Ġ zhÃ²ngĠyÃłoĠdeĠ
Ġ193 5ĠniÃ¡nĠ
O SĠ
Ġ sÃ¨Ġ
ĠĠĠ tÄģĠdeĠ
zhÃ¨n ĠjÃŃĠxÃŃngĠzhÃ¨ngĠdÄģnĠwÃ¨iĠ
xiÄģn ĠwÃ©iĠ
la s
ter n
ĠxiÃłnĠ zhÇİngĠ
ĠyÄ«n ĠÃ©r
qÇĲĠ yuÃ¡nĠyÃºĠ
gÇĶĠ diÇİnĠ
gÄĵĠ shÇĴu
Ġ197 6ĠniÃ¡nĠ
ĠguÃ³ĠfÃ¡ng ĠbÃ¹Ġ
Ġ jÇĲ
Ġ 200
ĠĠĠ Ã©rĠ
wÃ¹ ĠbÃ¹Ġ
lÃ¡i ĠshÃ¬Ġ
huÃ¡ ĠdeĠ
jiÇİng ĠlÃ¬Ġ
shÄĵngĠ gÃ©ĠwÃ¨iĠ
xiÇİngĠ yÃłoĠ
rÃ³ngĠ liÃłngĠ
kÃłnĠ fÇİĠ
kÃłngĠrÃ¬Ġ zhÃłnĠzhÄĵngĠ
o i
Ġ kuÃłiĠ
ĠĠĠ re
shÃ²u ĠdÃłoĠleĠ
or k
ĠzhÃ¬Ġ yuÃ¡nĠ
ĠshÃłngĠ yÃ¬ngĠ
ĠrÃ©nĠkÇĴu ĠwÃ¨iĠ
4 2ĠniÃ¡nĠ
Ġ wÄĵiĠÄĽrĠ
jÃ¬ ĠbÃ¹Ġ
jÄ«Ġ huÃ¬Ġ
ĠdÃłoĠ dÃ¡
qÅ«Ġ zhÃºĠjiÃłnĠ
jÄ«nĠ shÇĶ
shÃ²uĠ sÇĶnĠ
ÃłiĠÄĽrĠ lÃ¡n
Ġ wÄĵnĠ
Ãłi ĠhÃłoĠ
jÇĲng ĠwÃ¨iĠ
jiÃł ĠdeĠ
16 0
ĠshÃ¬Ġ lÃ¡ngĠ
yÃ¬Ġ huÃ¬Ġ
ĠyÃºĠ lÃ©iĠ
ĠjiÃłnĠ kÄģng
zhÃ¹Ġ shÇĴuĠ
diÃłnĠ chÃŃĠ
ĠzhÅįuĠ zhÇİngĠ
chÄĵngĠ hÅ«Ġ
jiÇİnĠ chÃ¡
pÇĲnĠ zhÇĴngĠ
Ġ196 8ĠniÃ¡nĠ
ĠzhÃ¨ngĠfÇĶ ĠdeĠ
hÃ¹nĠ nÃŃngĠ
4 4ĠniÃ¡nĠ
ĠĠĠ wÃ¡ngĠ
yÃ²u ĠyÃ¬Ġ
lÃ¹n ĠdeĠ
xÃ¹n ĠxÄ«Ġ
fÃºĠ zhuÄģngĠ
ĠyÃ³uĠ zhÃ¨ngĠ
zhÃ¨nĠ yÄģĠ
nu ÇİnĠ
f ÄĽngĠ
p Ã¡
Ġ 70
Ġ tÃłiĠguÃ³Ġ
ĠĠĠ zuÃ²ĠwÃ©iĠ
ĠĠĠ 2006ĠniÃ¡nĠ
wÃ©i ĠgÅįngĠ
quÃ¡n ĠyÃ¬Ġ
197 2ĠniÃ¡nĠ
dÇĴng Ġ
38 ĠniÃ¡nĠ
ĠyÇĲĠ cÇĲĠ
zÃ¬Ġ shÄģĠ
huÃłĠ guÄ«Ġ
miÃłnĠ xiÃłngĠ
qÃŃngĠ gÇİnĠ
jiÇİngĠ pÃ¡iĠ
shÅįuĠ cÃ¡ngĠ
qÃºnĠ dÇİoĠdeĠ
Ã¨Ġ huÃłĠ
ĠJ Ġ
tÃ²ng Ġk
2 ĠhÃłoĠ
Ġ guÇİngĠxÄ«Ġ
ĠĠĠ luÃ³Ġ
xÃ¬ng ĠmÃŃngĠ
bÄģ ĠjÄ«ĠsÄ«Ġ
biÄģn ĠxÃŃngĠ
ĠrÃ©nĠ yÇĶĠ
ĠzuÃ²Ġ zhÄĽĠ
tiÄģnĠ wÃ©nĠxuÃ©Ġ
Ġ15 0
ĠĠĠ 5Ġ
xiÃłng ĠwÃ¨iĠ
ĠshÃ¬Ġ pÃŃnĠ
ĠyÄ«Ġ liÃ¡o
ĠdÃło ĠshÃŃĠ
ĠyÇĶĠ wÃ©nĠ
qÅ«Ġ biÃ©Ġ
ĠzhÅįuĠ fÃ¹ĠzÃ©ĠguÇİnĠxiÃ¡Ġ
ĠzhÃ¨Ġ yÃłng
ĠzhÇĶĠ rÃ¨nĠ
ĠliÃ¡nĠ mÃ©ngĠ
tiÃ¡oĠyuÄĵĠ tÇĲĠxÃ¬Ġ
8 3ĠniÃ¡nĠ
p or
xiÃłng ĠyÃºĠ
ĠzÃłiĠ yÇĴuĠ
huÃłĠ miÃłnĠ
xuÇİnĠ mÃŃnĠ
sÃ¹Ġ sÃ²ngĠ
ĠyÇĲnĠ fÄģĠ
3 9Ġ
Ġ pÃ©ng
Ġ guÅįĠ
nÃ¡n ĠshÃ¬Ġ
ku Ã¡ng
xiÇİng ĠyÇĴuĠ
tÃ¡ng ĠhÃ©Ġ
ĠzhÅįngĠ shÄģn
ĠyÃºĠ 2016
jiÄģngĠ nÃ¡nĠ
wÃłiĠ lÃ¡ngĠ
kÇİoĠ chÃ¡Ġ
Ġ kÅįngĠ
tÃ¨ ĠzÃłiĠ
shÄĵn ĠyÃºĠ
fÄĵi ĠdeĠ
liÇİng ĠzuÃ²Ġ
quÃ¨ ĠshÃŃĠ
qÃ¹ ĠleĠ
suÄģn ĠjiÇİnĠ
ĠzÃłiĠ chÃ©ngĠ
yÃ³uĠ jÃº
kÄĵĠ huÃ¬ĠshÃ¬ĠdÃ¬Ġ
ĠyÃ³u ĠqÃŃĠ
ĠdeĠshÃŃĠ jiÄģn
ĠĠĠL i
ĠÃłi ĠÄĽrĠ
E S
w Ã¡
Ġ qiÄģn
mÃ² ĠdeĠ
yÃŃn ĠhÃ©Ġ
ĠgÅįngĠ dÇİĠ
qiÃ¡nĠ lÃ¡iĠ
qiÃ¡nĠ shÄĵnĠ
jiÇİnĠ cÃ¨Ġ
nÃ¡nĠjÃŃĠ tiÃ¡oĠyuÄĵĠtÇĲĠxÃ¬Ġ
ĠpÃŃng ĠchÃ©ngĠ
3 4ĠniÃ¡nĠ
E T
ĠĠĠ suÄ«ĠrÃ¡n
kÄĵ ĠlÃ¬Ġ
mÃ©i ĠtÃ³ngĠpÃ¡iĠ
tÄ«ng ĠdÃłoĠ
in c
36 Ġ
cÃ¡n ĠjÃŃĠrÃ©nĠ
ĠyÃºĠ 2019
wÃ©iĠ yÄĽĠ
ĠyuÃ¡nĠ yÄ«nĠshÃ¬Ġ
jÇĲĠ nÃ¨iĠ
ĠgÄģiĠcÅ«nĠ shÇĲĠjiÃłnĠyÃºĠ
Ġ bÄ«nĠ
yÃº ĠwÃ¨iĠ
luÃ² ĠyÄ«Ġ
tÅ« ĠrÃ¡n
ĠshÃ¬Ġ chÅ«Ġ
ĠzÃłiĠ nÃ¨iĠ
duÅįĠ shÃ¹
quÃ¡nĠ tÇĲĠ
sÃ¹Ġ dÃ¹
Ġt Ä«
quÃ¡nĠguÃ³Ġ zhÃ²ngĠdiÇİnĠwÃ©nĠwÃ¹ĠbÇİoĠhÃ¹ĠdÄģnĠwÃ¨iĠ
pÄ«Ġ pÃłnĠ
rÃ¨Ġ dÃłi
pÃ©iĠ xÃ¹n
ĠxÃŃngĠchÃ©ngĠ leĠ
qÃŃĠzhÅįngĠ yÃŃĠgÃ¨Ġ
xiÃłĠxiÃ¡ĠdeĠyÃŃĠgÃ¨ĠxiÄģngĠ zhÃ¨nĠjÃŃĠxÃŃngĠzhÃ¨ngĠdÄģnĠwÃ¨iĠ
Ġ lÃ¨iĠ
zhÃ¨ng ĠyÃ¬Ġ
mÄĽi ĠdeĠ
zhÃ¨n ĠdÃ¬Ġ
pÄ« n
hÅ«n ĠyÄ«n
cÃ¹ Ġ
ĠchÃ©ngĠ dÅ«Ġ
bÅįĠ tÃ¨Ġ
shÄģĠ bÃ¡iĠ
shÄģngĠ hÃłiĠ
lÃ©iĠ dÃ¡Ġ
tiÄģnĠwÃ©nĠ tÃ¡iĠ
3 3ĠniÃ¡nĠ
k Å«
n ĠĠĠ
tÃ¨ ĠshÃ¬Ġ
17 9
tÇİ ĠjÄ«Ġ
gÅįngĠ mÃŃnĠ
ĠchÃ©ngĠ gÅįngĠdeĠ
ĠjiÄģĠ lÇĲĠ
ĠkÃ¨ ĠyÇĶĠ
ĠdÃ©Ġ luÃ³Ġ
fÇİĠ lÃ¡nĠxÄ«Ġ
huÃŃĠ dÃ¡Ġ
dÄģngĠ xuÇİnĠwÃ¨iĠ
Ġ195 9ĠniÃ¡nĠ
Ġ17 Ġ
wÃ¹ ĠzhÅįngĠ
199 3ĠniÃ¡nĠ
nÃ³ng ĠlÃ¬Ġ
ĠzÃłiĠ nÃłĠ
ĠrÃ¬ ĠyÇĲĠ
ĠyÄ«Ġ rÃ¡nĠ
wÃ©iĠ chÃŃĠ
ĠjiÃłn ĠdÃłoĠ
ĠwÃ©iĠ wÃºĠÄĽrĠ
tiÃ¡oĠ kuÇİnĠ
kuÄģngĠ jiÃłĠ
yÇĶ ĠdÃ¬Ġ
sÃ¬ ĠwÃ¨iĠ
48 ĠniÃ¡nĠ
chÃ©ngĠ rÃ¨nĠ
ĠyuÃ¨Ġ yÇĶĠ
ĠguÃ³Ġ ÄģnĠ
ĠchÃ©ngĠ fÃ¨nĠ
ĠgÃ¨ ĠguÃ³ĠjiÄģĠ
fÄĵnĠ lÃŃ
qÄ«ngĠ xiÃłngĠ
mÃ²Ġ qÄ«Ġ
Ġ195 3ĠniÃ¡nĠ
ĠsÄ«ĠlÃ¬ng ĠyuÃ¡nĠ
a di
du Ä«
shÄĵng ĠhÃ©Ġ
cÃŃ ĠjÄ«Ġ
fÃ¡ng ĠxiÃłnĠ
yÃłn ĠdeĠ
lÄĽi ĠjÄ«Ġ
ĠzÃłiĠ shÃłngĠ
wÃ©iĠ chÃŃ
ĠgÃ¨Ġ lÃ¨iĠ
ĠbÃ¬ngĠ bÃºĠshÃ¬Ġ
bÇİoĠ xiÇİnĠ
ĠxiÃłĠ lÃ¡iĠ
wÇİngĠ wÇİng
xiÇİoĠxÃŃngĠ xÄ«ngĠdeĠ
ĠF Ġ
mÃŃnĠzÃºĠ zhÇĶĠyÃ¬Ġ
nÃ¡nĠjÃŃĠtiÃ¡oĠyuÄĵĠtÇĲĠxÃ¬Ġ guÇİnĠlÇĲĠ
r en
Ġ guÄģng
Ġ 2002
ĠĠĠ aĠĠĠ
ĠĠĠ zhÃŃĠyÃ¨ĠshÄĵngĠyÃ¡Ġ
le ĠzhÅįngĠguÃ³Ġ
tÃ³ng ĠwÃ¨iĠ
shuÇĲ ĠshÃłngĠ
sÃł ĠkÃ¨ĠsÄ«Ġ
shÃŃĠ yÄ«Ġ
huÃ¬Ġ shÃłngĠ
dÃłiĠ mÇİĠ
tÅįngĠ yÃ²ngĠ
yÃŃĠgÃ¨ ĠyuÃ¨Ġ
diÃłnĠshÃ¬Ġ jiÃ©ĠmÃ¹Ġ
Ġ16 Ġ
rÃ¨ĠdÃłiĠ qÃ¬ĠxuÃ¡nĠ
shÄģnĠmÃłi ĠdeĠyÄ«ĠbÃ¹ĠfÃ¨nĠ
hÃ¹ĠliÃ¡nĠ wÇİngĠ
4 1ĠniÃ¡nĠ
p Ã¨ngĠ
hÇİi ĠshÃ¬Ġ
shÄĽng ĠfÃ¹ĠzÃ©ĠguÇİnĠxiÃ¡Ġ
ni Ã¡ng
yÇĲn ĠjÃ¬nĠ
zu ÄģnĠ
25 0
ĠshÃŃĠ tÇĲĠ
ĠdÃłĠ qÃ¬Ġ
jiÃłoĠ dÄ«Ġ
qiÃ¡nĠ fÄĵngĠ
fÇİĠ xuÃ©Ġ
ĠfÃ¹Ġ zhÇĶĠxÃŃĠ
yÇİnĠ huÃłĠ
tÃŃngĠ zhÇĲ
miÃ¨Ġ juÃ©Ġ
ĠjÃŃĠbÄĽiĠ mÄĽiĠ
gÄĽn ĠdÃ¬Ġ
ĠĠĠ 13
rÃ¬ ĠjÅ«nĠ
fÄĵi ĠÄĽrĠdÃ©Ġ
cÃ©ng ĠyÇĴuĠ
jiÇİn ĠyÃ¬Ġ
suÃŃ ĠjÄ«Ġ
ĠdÃ¬Ġ 3Ġ
ĠchÃ©ngĠ jiÃ¹Ġ
ĠzhÄ« ĠlÇĲĠ
ĠdÃłĠ chÃ©n
ĠhuÃ²Ġ chÄĵngĠ
zhÃ¨ngĠzhÃ¬Ġ jiÄģĠ
ĠcÇĲĠ cÃ¬Ġ
Ġ19 20ĠniÃ¡nĠ
ĠA n
wÃ©iĠyÄ«Ġ yÄ«Ġ
e y
ĠĠĠ wÃłiĠbÃ¹Ġ
duÃ¬ ĠzhÅįngĠ
yÃ²ng ĠzÃłiĠ
jiÃ© ĠchÅ«Ġ
cÃ©ng ĠrÃ¨nĠ
gÇİi ĠjÃ¬nĠ
ĠchÅ« ĠyÃºĠ
tÃ³ngĠ mÃ©ng
jiÄĽĠ sÃłn
Ġ197 2ĠniÃ¡nĠ
m Ã¡iĠ
ĠĠĠ jiÃ©Ġ
yÃ¨ ĠhÃ©Ġ
ĠwÃ¨iĠ jÃŃĠ
ĠjÄ«Ġ fÄĵnĠ
wÃ©nĠ zhÄģng
ĠzhÅįuĠ kÄģnĠ
ĠdÃłnĠ yÄĽĠ
liÃ¡ngĠ hÇİoĠ
ĠdeĠgÅįngĠ nÃ©ngĠ
Ġ194 3ĠniÃ¡nĠ
ĠmÇĶĠ qÄ«n
fÄģĠbiÇİo ĠdeĠ
YouTub eĠ
7 ĠmÇĲĠ
Ġ yÃło
yÇĶ ĠyÃ¬Ġ
ĠrÃ©nĠ bÃ¨iĠ
ĠyÄ«Ġ shÄ«Ġ
ĠxiÃłnĠ xÃ¬ngĠ
tÃ¡ngĠ qÅ«Ġ
xiÄģngĠgÇİng ĠdeĠ
ĠĠĠ199 9ĠniÃ¡nĠ
ĠĠĠzhÅįngĠ huÃ¡ĠrÃ©nĠmÃŃnĠgÃ²ngĠhÃ©ĠguÃ³Ġ
cÄģnĠsÃłiĠ zÄ«ĠgÃ©Ġ
Ġ li
ĠĠĠ rÃ¬Ġ
bÄĽi ĠjÃŃĠ
dÃ¬ng ĠzÃłiĠ
liÃº ĠqiÃºĠ
bÄ«ng ĠdeĠ
co diceĠ
rÃ©nĠ kÇĴuĠwÃ¨iĠ
ĠdÃ¬Ġ chÇİnĠ
ĠyÇĴuĠ mÃŃngĠ
jÃ¬Ġ huÃł
ĠyuÃ¡nĠ lÇĲĠ
suÇĴĠ wÃ¨iĠdeĠ
yÇİnĠ zÃ²uĠ
ĠrÃ©nĠmÃŃnĠ zhÃ¨ngĠfÇĶ
chÃ³ngĠ qÃ¬ngĠ
ĠyÄĽ ĠzÃłiĠ
bÇĲĠsÃłi ĠdeĠ
ĠgÃ¨ĠyuÃ¨Ġ hÃ²uĠ
yÃłĠmÄĽiĠ nÃŃĠyÃłĠ
3 9ĠniÃ¡nĠ
huÃ¬ ĠwÃ¨iĠ
xÃ¬n ĠrÃ¨nĠ
zÄĵng ĠshÃ¨Ġ
nÃ¡nĠ bÃ¹ĠdeĠ
yÃ¹Ġ cÃ¨Ġ
liÇİngĠ ÃłnĠ
cÃŃĠ diÇİnĠ
xiÅ«ĠdÃłoĠ yuÃłnĠ
4 7ĠniÃ¡nĠ
fÄĵn ĠjÃŃĠ
yÄĽ ĠzhÃłnĠ
ĠguÃ³Ġ dÃłoĠ
ĠduÃ¬Ġ fÄģngĠ
hÇİiĠ bÃ¡ĠgÄģoĠdÃ¹Ġ
nÃ¨iĠ gÃ©
pÇĶĠ lÇĶĠshÃ¬Ġ
ĠwÃ¨iĠyÃºĠ zhÅįngĠhuÃ¡ĠrÃ©nĠmÃŃnĠgÃ²ngĠhÃ©ĠguÃ³Ġ
ĠzhÇĶĠ tÃŃĠ
jiÇĶĠ lÃ³ng
yÄ«nĠ cÇĲĠ
ĠtÃ³ngĠ xÃ¬ngĠ
dÅ«Ġ chÃ¡Ġ
ĠzhÃŃĠ jiÄĵĠ
shÃłoĠ nÇļ
ĠdeĠjÃ¬Ġ shÃ¹Ġ
wÄĽnĠ dÃ¬ngĠdeĠ
tÃłiĠyÃ¡ng ĠgÅįngĠ
ĠĠĠ wÃºĠ
dÃłĠ xÃŃngĠ
ĠtÄģ ĠyÇĴuĠ
dÇİoĠ shÄ«Ġ
bÇİnĠ quÃ¡nĠ
jÅ«Ġ liÃºĠ
yÃ¬nĠ nÃŃ
ĠxiÄģngĠdÄģng ĠyÃºĠ
1 ĠjiÄģĠ
U N
Ġ dÄ«Ġ
Ġ jiÄĵĠwÃ¨iĠ
Ġ lÄĽiĠjÃ¬Ġ
shuÇĲ ĠzhÅįngĠ
ĠxÄ«Ġ tÃ¨Ġ
qÄ«Ġ jiÄģnĠdeĠ
rÃ¹Ġ jÃ¬ngĠ
shÃ¨ngĠ mÇĶĠ
shÄģngĠ wÃ¹Ġ
shÃ©nĠ shÃ¨ngĠ
Ġ15 6
ĠlÃ¡iĠ zÃ¬
Ġ197 7ĠniÃ¡nĠ
I V
l Ä«Ġ
o me
p Ä«ng
t yĠĠĠ
ĠĠĠ huÃ²Ġ
bÇİo ĠhÃ©Ġ
tuÄ« ĠlÇĲĠ
ĠdeĠ zhÄ«ĠchÃŃĠ
ĠbÃ¹Ġ lÇĶĠ
ĠlÃ¬Ġ ÃłoĠ
ĠgÅįngĠ ÄģnĠ
ĠtÄģ ĠbÃ¹Ġ
qÅ«Ġ dÃ²ngĠ
ĠzhÃ¨ngĠ chÃ¡ngĠ
liÃºĠ dÃ²ngĠ
dÄģnĠ mÃłiĠ
ĠxÃŃngĠzhÃ¨ngĠ yuÃłnĠ
tuÄ«ĠchÅ«Ġ leĠ
1 30
5 1Ġ
e di
Ġ zhÃłnĠhÃ²uĠ
ch Äģi
jiÃłn ĠshÃ¨
luÃ² ĠshÃŃĠ
xiÄģn ĠdeĠ
huÃ¡n ĠqiÃºĠ
ĠshÃ¬Ġ chÃ©ngĠ
jÄ«Ġ bÃłiĠ
ĠdÃłĠ liÃ¡nĠmÃ©ngĠ
ĠchÅ« ĠniÃ¡nĠ
ĠleĠ yÃŃĠgÃ¨Ġ
tÇĲĠ yÃłnĠ
8 2
y st
Ġ kÄģiĠshÇĲ
ĠĠĠ mÃŃnĠguÃ³Ġ
hÅ«n ĠlÇĲĠ
ĠhÃ©Ġ yuÃ¡nĠ
ĠyÇĶĠ zhÄ«Ġ
ĠpÃŃngĠ jiÃ¨Ġ
ĠzÃ¬Ġ rÃ¡n
ĠbÄĽnĠ tÇĶĠ
tÃŃngĠ kÃłoĠ
Ġp Ã¬
ĠhuÃ¡Ġ shÃ¨ngĠ
3 2ĠniÃ¡nĠ
Ġ kuÄģnĠ
Ġ qiÃ¡oĠzhÃ¬Ġ
ĠĠĠ wÇĶĠ
ĠĠĠ zhÄģngĠ
bÃ¡i ĠrÃ©nĠ
ĠxÃŃngĠ shÃ¬ĠdeĠ
zhÇĶĠ liÃºĠ
ĠchÅ«Ġ lÃ¡iĠdeĠ
lÃ¹Ġ yÇĲngĠdÃłiĠ
yÃ¨Ġ jiÄģnĠ
o ck
z ÄĽnĠ
chuÃ¡n ĠdeĠ
tÃŃng ĠzhÃłnĠ
nÃ¡ ĠdÃł
ĠchÃ©ngĠ zuÃ²Ġ
ĠdÃłiĠ mÇİĠwÃ¨iĠ
tÃ³uĠ xiÃ¡ng
sÅ«Ġ gÃ©ĠlÃ¡n
lÃ¬ĠshÇĲĠ shÃłngĠ
xiÇİoĠshÃŃĠ hÃ²uĠ
Ġ196 4ĠniÃ¡nĠ
ĠxiÃłnĠshÃŃĠyÃ³uĠ nÃ¡nĠjÃŃĠtiÃ¡oĠyuÄĵĠtÇĲĠxÃ¬ĠguÇİnĠlÇĲĠ
5 000
6 2Ġ
P S
Ġ 2024ĠniÃ¡nĠ
ĠĠĠ chÄĵĠzhÃłn
pÃŃng ĠrÃ©nĠ
zÃ© ĠyÇĲĠ
198 6ĠniÃ¡nĠ
dÇĲng ĠjÃŃĠ
ĠshÃ¬Ġ zhÃ¬Ġ
ĠdÃ¬Ġ shÃłngĠ
fÄģĠ juÃ©Ġ
miÃłnĠ 2
tÃŃĠ gÄģo
jÇĲngĠ diÇİnĠ
ĠyÃ³u ĠqÃŃ
zhÄĵnĠ chÃ¡Ġ
zhuÄģnĠ yÃ²ngĠ
Ġ193 6ĠniÃ¡nĠ
1 ĠhÃło
Y Ġ
xÄ« ĠyÃºĠ
bÄģ ĠlÇĲĠ
luÃ² ĠyÃºĠ
piÃłn ĠrÃ©nĠ
ĠhÃ©Ġ yÃ¬Ġ
ĠzhÃ¬Ġ dÃ¹
jiÃ¹Ġ zhÇĲĠ
tÇĴngĠzhÃ¬Ġ zhÄĽĠ
ĠĠĠ194 5ĠniÃ¡nĠ
5 4Ġ
Ġ wÄĽi
Ġ hÄĵi
Ġ zÅįngĠ
Ġ chÄģoĠguÃ²Ġ
ĠĠĠ yÄ«nĠyuÃ¨Ġ
qÄ« ĠyuÃ¨Ġ
jiÇİng ĠxuÃ©Ġ
ĠdÃ¬Ġ jiÇĶĠ
ĠjÄ«Ġ bÄĽn
guÄģnĠ guÄģngĠ
yÇĲĠ jÄ«ng
Ġ195 1ĠniÃ¡nĠ
ĠĠĠR e
ĠU Ġ
guÄģnĠfÃ¨iĠyÃ¡nĠ quÃ¨ĠzhÄĽnĠbÃ¬ngĠlÃ¬Ġ
c t
Ġ rÃ³ng
Ġ sÇĲĠ
Ġ dÃ²uĠ
Ġ bÄģngĠzhÃ¹Ġ
ĠĠĠ shÄģĠ
ĠĠĠ 2005ĠniÃ¡nĠ
bÄĽi ĠdeĠ
jiÄģo ĠyÃ³uĠ
mÃłn ĠdÃ¬ĠguÃ³Ġ
zhÄĽng ĠlÇĲĠ
zhuÄ« ĠqiÃºĠ
ĠzÃłiĠ 193
ĠhÃ²uĠ zhÄĽ
jiÄģnĠ chÃ¡Ġ
ĠÃ©rĠ tÃ³ng
yÃŃĠ miÃłnĠ
zÃłoĠ chuÃ¡nĠ
ĠyÄ«nĠwÃ¨iĠ tÄģĠ
ĠzÃłiĠdÃ¬Ġ yÄ«Ġ
ĠĠĠzhÃ¨Ġ kÄĵĠ
Ġ fÃłn
rÃ¬ ĠzhÃ¬Ġ
dÃłi ĠdÃłoĠ
huÃŃ ĠdÃło
rÃ©nĠ yuÃ¡nĠ
ĠdÃ¬Ġ yÃ¹Ġ
ĠyÇĴuĠ guÄģnĠdeĠ
ĠgÅįngĠ chÇİng
xÄ«Ġ wÃłng
jÇĲngĠ qÅ«Ġ
lÃŃĠ bÄģĠnÃ¨n
ĠzhÃŃ ĠxÃŃngĠ
ĠdÃłĠshÃł Ġ
âĪ Ĵ
T A
Ġ shÃ¹
Ġ zÇĶĠzhÄ«Ġ
sÃ¬ ĠrÃ©nĠ
bÄĵi ĠdeĠ
ĠhÃ©Ġ jÄ«Ġ
ĠyÃºĠ 2018
ĠyÃºĠ 2024
ĠrÃ©nĠ lÃ¬Ġ
zhÃłnĠ lÃ¼Ã¨
guÄģnĠ liÃ¡nĠ
lÃ¹Ġ duÃłnĠ
huÃłĠ rÃ¹Ġ
fÄĵngĠ fÃ¹ĠdeĠ
bÃ³Ġ lÄģĠ
lÃ¹nĠ tÃ¡nĠ
shÃ¨Ġ yÇĲngĠ
o ci
Ġ jiÄĵ
Ġ tÃ¡nĠ
zÃ© ĠxÄ«Ġ
shÄĽng ĠhuÃ¬Ġ
tÅįng ĠxÃŃngĠ
en terĠ
gÃ¨ng ĠgÄģoĠ
lÃ¨ ĠyuÃ¡nĠ
kÃ¹ ĠÄĽrĠ
ol spanĠ
ĠshÃ¬Ġ xiÃłĠxiÃ¡ĠdeĠyÃŃĠgÃ¨ĠxiÄģngĠzhÃ¨nĠjÃŃĠxÃŃngĠzhÃ¨ngĠdÄģnĠwÃ¨iĠ
gÅįngĠ jÄ«Ġ
jÃ¬Ġ shÃ¹
ĠyÄ«Ġ ÄĽrĠ
ĠyÄ«Ġ qiÃ¨Ġ
ĠyÇĶĠ qÃŃ
fÃ¡ngĠ wÅ«
ĠdeĠshÃ¬Ġ jiÃ¨
ĠÐ ¾
Ġ nÃŃ
ĠĠĠ Ð
ĠĠĠ fÄĵnĠlÃ¨iĠ
jÃŃ ĠzhÅįngĠxuÃ©Ġ
duÅį ĠsÄ«Ġ
or i
jiÃłng ĠjÃŃĠ
ĠjÃ¬Ġ huÃłĠdeĠ
yÃ¡nĠjiÅ« ĠdeĠ
Ġ16 0
Ġnu Ã³Ġ
4 7Ġ
Ġ huÄ«Ġ
Ãłi ĠlÃ¬Ġ
ch Åįu
zÇĴng ĠsÄ«ĠlÃ¬ngĠ
xiÄĵ ĠÄĽrĠ
ĠbÃ¨iĠ bÇĶĠ
ĠqÃŃĠ xiÃłĠdeĠ
dÅįngĠ qÅ«Ġ
jiÄĵĠ guÇİnĠ
ĠzhÃ¨ngĠ cÃ¨
ĠdÃłnĠ mÃ©iĠyÇĴuĠ
ĠbÄĽnĠ zhÃłnĠ
tÃ³ngĠ mÃ©ngĠ
Ġ197 3ĠniÃ¡nĠ
ation al
cÃ¬ ĠshÃ¬Ġ
kÄĵ ĠjÃ¬nĠshÃ¬Ġ
fÇİn ĠjÄ«Ġ
shÃŃĠ qÄ«
ĠgÅįngĠ jiÄģoĠ
ĠxÃŃngĠ hÃłoĠ
zhÃ¨ngĠ cÃ¨
liÃ¡nĠ zÇİiĠ
diÃłnĠ tÃ¡i
sĠĠĠ of
ĠH Ġ
ĠdeĠjÄ«Ġ chÇĶ
Ġ14 Ġ
ĠhÄĵiĠ lÃ³ngĠjiÄģngĠ
Ġ yÃº
Ġ yÇİngĠ
jiÃłn ĠdeĠ
mÃŃn ĠyÃ¬Ġ
qiÄģn ĠmÃŃngĠ
an n
qiÅ« ĠjÃ¬Ġ
yÃ© ĠÄĽrĠ
jiÃłoĠ tÃºĠ
lÃ¡iĠ kÃłnĠ
ĠxiÃłĠ wÇĶĠ
mÃ¬Ġ sÅ«ĠlÇĲĠ
ĠzhÃŃ ĠlÃ¬Ġ
ĠhÃ©ĠdÃłoĠ quÃ¡nĠzhÇİngĠ
Ġ 37
ĠĠĠ zhÄĵngĠyÃ¬Ġ
tÃ¨ ĠrÃ©nĠ
mi c
xuÄģn ĠshÃ¬Ġ
yuÇİn ĠdeĠ
ĠgÅįngĠ shÃ¨Ġ
ĠyÇĲĠ biÃłn
bÄĽnĠ kÄĵĠ
tÃ¨Ġ shÅ«
fÄĵngĠ suÇĴĠ
tiÃ¡oĠ mÃ¹Ġ
pÃ©iĠ yÇİng
ĠI ST
dÅįngĠbÃ¹Ġ shÃŃĠqÅ«Ġ
guÃ³ĠwÃ¹Ġ yuÃłnĠ
a z
t en
Ġ sÄģng
xÄ« ĠxiÃłnĠ
cÄģn ĠyÃ¬ĠyuÃłnĠ
hÃłn ĠguÃ³Ġ
tuÅį ĠÄĽrĠ
liÃ¹ ĠshÃ¬Ġ
at Ġ
ĠdÃło ĠjÃŃĠ
qÅ«Ġ fÃ¹ĠzÃ©ĠguÇİnĠxiÃ¡Ġ
ĠjÅ«n ĠrÃ©nĠ
dÃ²ngĠ wÃ¹ĠdeĠ
chuÃ¡nĠ shuÅį
luÃ²Ġ tÃ¨Ġ
xÃŃĠ jÄ«
zhÇĶnĠ quÃ¨Ġ
guÃ¬Ġ zÃº
Ġ kÄģng
Ġ 2001
sh ÄĵĠ
yÇĶ ĠzhÅįngĠguÃ³Ġ
kÃ¨ ĠlÇĲĠsÄ«Ġ
chu Äģng
cÄģn ĠyÃ¬Ġ
guÇİng ĠyÃ¬Ġ
ĠhÃ©Ġ zhÃ¬Ġ
dÃ¬Ġ guÃ³Ġ
gÅįngĠ yÃ¨Ġ
ĠyÃºĠ 2015
ĠchÃ©ngĠ zhÇİngĠ
ĠqÃŃ ĠzhÃ¬Ġ
shÇĴuĠ xiÄģnĠ
bÄĽiĠ hÇİiĠdÃłoĠ
duÅįĠ xiÃłngĠ
ĠxiÃłĠ lÃ¬ngĠ
ĠnÃ¡nĠ xÃ¬ngĠ
dÅįuĠ mÃ©iĠyÇĴuĠ
zhuÃłngĠ tÃłi
ĠĠĠM ar
Ġ197 4ĠniÃ¡nĠ
ĠyÃ²u ĠyÃ¬Ġ
lÄģĠsÄ«Ġ jiÄģĠ
fÄģĠbiÇİo ĠleĠ
shÄĵngĠchÇİn ĠdeĠ
Ġ wÇİ
Ġ shÄĽngĠ
rÃ¨n ĠzhÄ«Ġ
lÃŃn ĠzhÅįngĠ
yÃ¹n ĠzÃłiĠ
zhuÄģng ĠdeĠ
niÃº ĠsÄ«Ġ
36 ĠniÃ¡nĠ
dÅįngĠ cÃ¨Ġ
lÇľĠ huÃłĠ
bÄģoĠkuÃ² ĠyÇĲĠxiÃłĠ
ĠM ar
fÃ¡nĠ mÃ¡ng
gÅįngĠyuÃ¡nĠ qiÃ¡nĠ
shÅįuĠshÃ¬Ġ lÇľĠ
zhuÄ«ĠsÃ¹ ĠdÃłoĠ
Ġ biÄģoĠ
Ġ guÇİnĠlÇĲĠ
ĠĠĠ quÃ¡nĠ
198 7ĠniÃ¡nĠ
chÅ«n ĠjÃ¬Ġ
ĠyÄ«Ġ rÃ¡n
shÄĵngĠ chÄĵngĠ
fÃ¹Ġ xÄ«ngĠ
yÃ¹Ġ wÃ©iĠ
fÄĵnĠ bÃ¹ĠzÃłiĠ
tÃ³uĠ rÃ¹
ĠshÃ¬ĠyÄ«Ġ zuÃ²
Ġ13 Ġ
mÃ¨iĠ mÃ¨iĠ
ÄģiĠnÃłĠ shÄĽngĠ
p Äĵng
Ġ lÇİo
Ġ chÄģoĠ
zhu Ã¬
tÃ¨ ĠgÅįngĠ
zuÃ¬ ĠchÅ«ĠdeĠ
liÃłng ĠjÃŃĠ
31 ĠniÃ¡nĠ
ĠbÃ¨iĠ rÃ¨nĠwÃ©iĠ
zuÃ¬Ġ dÄ«Ġ
ĠE STĠ
xÃ¬ĠtÇĴng ĠzhÅįngĠ
3 00Ġ
I R
Ġ duÃłnĠ
Ġ yÃ¬ĠniÃ¡nĠ
duÃ¬ ĠlÃ¬Ġ
shuÃ¬ ĠmiÃ¡n
ĠzÃłiĠ lÃ¬Ġ
ĠyÇĴuĠ xÇĶĠduÅįĠ
pÃŃngĠ hÃ©ngĠ
nÃ¡nĠ mÄĽiĠzhÅįuĠ
fÄģngĠ Ãłn
dÅįuĠ kÄĽĠyÇĲĠ
zhÅįngĠguÃ³Ġ dÃłĠlÃ¹ĠdeĠ
y p
lÇĲ ĠshÃŃĠ
qu Çİn
guÄģng ĠdeĠ
ĠyÇĲĠ jÃŃĠzÃłiĠ
ĠxÄ«Ġ yÇĲn
zÃ¬Ġ shÄĵnĠ
bÃ³Ġ gÃ©Ġ
wÃºĠxiÃłnĠ diÃłnĠ
ĠshÃ¬ĠyÄ«ĠkÄĵ ĠwÃ©iĠrÃłoĠ
b a
Ġ v
Ġ chÃŃĠ
Ġ fÄĵnĠwÃ©iĠ
lÇĲ ĠrÃ©nĠ
shÃ¨ ĠjÃŃĠ
zhÇĲ ĠchÅ«
dÄģng ĠrÃ¬Ġ
shÄĽng ĠlÃ¬Ġ
rÃ³ng ĠdeĠ
jiÇĶ ĠshÃŃĠ
biÄģo ĠshÃ¬Ġ
xÃ¬n ĠhÃło
guÄģnĠ zhÃ¨ngĠ
qiÃ¡nĠ tÇĲngĠ
diÃłnĠ liÃºĠ
rÃ¹Ġ kÇĴu
tÃŃĠ cÃ¡iĠ
ĠxiÄģngĠ guÄģnĠdeĠ
qiÄģnĠ yÇĲnĠ
ĠjiÄĵĠ shÃ²uĠ
liÃ¡nĠsÃłi ĠdeĠ
pÇİo ĠdÃłoĠ
juÃ©ĠduÃ¬Ġ xÄ«ngĠdÄĽngĠwÃ¨iĠ
jiÃ¨ĠquÃ¡nĠguÃ³ĠzhÃ¨ngĠxiÃ©Ġ wÄĽiĠyuÃ¡nĠ
8 3
w Äģ
Ġ nuÃ²
chuÃ¡n ĠyuÃ¡nĠ
zhÇİn ĠchÅ«Ġ
yÅįu ĠhuÃ¬Ġ
yÇĴuĠ yÃ¬Ġ
xuÃ©Ġ kÄĵĠ
ĠxÃŃngĠ xÄ«ngĠ
ĠbÃ¬ngĠ huÃ²ĠdÃ©Ġ
ĠjÃ¹Ġ bÄĽnĠ
shÅ«Ġ niÇĶĠ
biÃłnĠ huÃłnĠ
liÇİngĠ cÃ¨Ġ
hÄĽnĠ shÇİoĠ
ĠĠĠ wÃ©nĠhuÃłĠ
duÃ¬ ĠdÃ¬Ġ
dÃ© ĠyÃ¬ĠzhÃ¬Ġ
fÃº ĠjÃŃĠ
yÃŃng ĠlÃ¬Ġ
gÅįu ĠtÅįngĠ
ĠzÃłiĠ dÄģngĠshÃŃĠ
ĠzhÅįngĠ yuÃ¡nĠ
ĠshÃŃĠ liÃ¹ĠniÃ¡nĠ
jÃ¹Ġ bÄĽnĠ
fÄĵnĠ xiÃłoĠ
zhÇĴngĠ zÃº
shÃ¨ngĠ jÄ«ngĠ
kÄĽĠnÃ©ng ĠdeĠ
ĠE DTĠ
wÄģnĠ qÅ«Ġ
Ġ5Ġ diÃłoĠkuÃłiĠyÄ«ĠxiÇİoĠshÃŃĠ
sÅ«ĠwÃ©iĠ Äģi
ĠjÃŃĠbÄĽiĠmÄĽiĠ dÅįngĠbÃ¹ĠshÃŃĠqÅ«Ġ
tÃłiĠyÃ¡ngĠgÅįngĠ zhuÃłnĠdeĠxiÇİoĠxÃŃngĠxÄ«ngĠ
ĠshÃ¬ĠyÄ«ĠkÄĵĠwÃ©iĠrÃłoĠ tÃłiĠyÃ¡ngĠgÅįngĠzhuÃłnĠdeĠxiÇİoĠxÃŃngĠxÄ«ngĠ
Ġ shÅ«
Ãło ĠkÃ¨Ġ
Äĵn ĠsÄ«Ġ
yÇĶ ĠwÃ¨iĠ
hÃ¡n ĠyÃ¬Ġ
45 ĠniÃ¡nĠ
ĠzuÃ²Ġ qÇĶĠ
yÃ²uĠ chÄĵngĠ
ĠdeĠyÄ«Ġ tiÃ¡oĠ
Ġ197 1ĠniÃ¡nĠ
xiÇİoĠxÃŃngĠxÄ«ngĠdeĠ juÃ©ĠduÃ¬ĠxÄ«ngĠdÄĽngĠwÃ¨iĠ
8 4
ĠĠĠ huÃ¡ngĠ
cÇĲ ĠdÃ¬Ġ
lÇĲng ĠduÃ¬Ġ
zhuÄģn ĠyuÃ¡nĠ
197 6ĠniÃ¡nĠ
pÄģi ĠshÃ¨ĠdeĠ
ĠshÃ¬Ġ xÄ«nĠ
ĠyÄ«Ġ lÃłi
ĠzhÄ« ĠchÅ«Ġ
jÃ¹Ġ fÄĵng
shÇĴuĠ lÇĲngĠ
ĠfÃ¹Ġ mÇĶĠ
nÃłĠ xiÄĵ
tÃºĠ jÃ¬ngĠ
chÇĲĠ cÃ¹nĠ
ĠshÃ¬ĠwÃ¹Ġ suÇĴĠ
k i
ĠĠĠ guÃ³Ġ
ĠĠĠ gÃ¨Ġ
men ĠdeĠ
ĠshÃ¬Ġ zuÃ¬Ġ
ĠhÃ©Ġ yÇĶĠ
ĠzhÅįngĠ lÃ¬Ġ
ĠlÃ¬Ġ xuÃ©Ġ
guÄģnĠ zhÃ²ng
zÃºĠ liÃ¡nĠ
qÇĶĠ juÃ©ĠyÃºĠ
tiÄģnĠwÃ©nĠ xuÃ©ĠjiÄģĠ
ĠĠĠzhÃ¨ĠkÄĵĠ xiÇİoĠxÃŃngĠxÄ«ngĠdeĠjuÃ©ĠduÃ¬ĠxÄ«ngĠdÄĽngĠwÃ¨iĠ
Ġ yÃ¡nĠjiÅ«
liÇİng ĠdÃłĠ
miÃło ĠyÇĶĠ
ĠshÃ¬Ġ xiÃłĠ
ĠjiÄģĠ qiÃ¡ngĠ
ĠtÃ³ng ĠniÃ¡nĠ12ĠyuÃ¨Ġ
kÄĽĠ yÃ²ngĠ
ĠdeĠyÄ«Ġ xiÃłngĠ
zhuÄģnĠ jÃŃĠdeĠ
ĠĠĠ199 8ĠniÃ¡nĠ
bÇĲĠlÃ¬Ġ niÃºĠsÄ«Ġ
l ÇĴng
mÃŃng ĠyÃºĠ
zhÇĴng ĠdeĠ
ĠzÃłiĠ rÃ©nĠ
ĠyÄ«Ġ xiÃłngĠ
ĠxÄ«Ġ ÄĽr
ĠbÃ¨iĠ jÇĲng
yÃ¹Ġ suÃłnĠ
ĠbÃ¬ngĠ wÃºĠ
xiÇİoĠ jiÄĽĠ
ace boo
zÇĶĠchÃ©ng ĠbÃ¹ĠfÃ¨nĠ
I D
Ġ tiÃ¡n
Ġ zÇĶĠchÃ©ngĠ
ĠĠĠ guÄģnĠyÃºĠ
lÃ¡i ĠÄĽrĠ
guÃ² ĠhÃ²uĠ
lÄĵi ĠsÄ«Ġ
ĠyÃºĠ 2013
ĠyÄ«Ġ qiÃ¨
ĠxÄ«Ġ cÃ¨Ġ
jÃ¹Ġ yuÃłnĠ
zhÃ¨nĠ wÃ¡ngĠ
shÄĵnĠ rÃ¹Ġ
zÇĴngĠ lÇĲngĠshÃ¬Ġ
ĠdÄģngĠ dÃ¬ĠdeĠ
duÇİnĠ zÃłnĠ
Ġ196 9ĠniÃ¡nĠ
ĠsuÃŃ ĠjÃŃĠ
h ÄĵĠ
Ġ mÃŃngĠwÃ¨iĠ
Ġ xiÇİnĠshÃ¬Ġ
Ġ gÃ²ngĠtÃ³ngĠ
ĠĠĠ Z
lÃ¹ ĠhÃ©Ġ
wÄĵi ĠlÃ¬Ġ
ĠyÃºĠ 2014
ĠchÅ« ĠbÃ¹Ġ
cÇĲĠ tiÄģnĠtÇĲĠ
liÃºĠ chuÃ¡nĠ
liÇİngĠ tiÃ¡oĠ
bÄ«ngĠ tuÃ¡nĠ
Ġ15 9
ĠÃłoĠ mÃ©nĠ
g ÄĽ
Ġ zÃłi
ĠĠĠ zÇİoĠqÄ«Ġ
chÃ¡ ĠdÃ©Ġ
fÃ¹ ĠyÃºĠ
qiÃ¡n ĠxÄ«Ġ
14 0
in u
mÇİn ĠyÃ¬Ġ
hÃ©Ġ liÃºĠ
shÃłngĠ yÃ¬ngĠdeĠ
jÄ«ngĠ dÅ«Ġ
xÃŃĠ guÃłnĠ
Ġp Äģng
ĠG Ġ
zhuÇİnĠyÃŃ ĠdÃłoĠ
p Äģn
Ġ dÃºĠlÃ¬Ġ
yÃ²ng ĠdÃ¬Ġ
kÄĵ ĠyÄ«ĠshÄĵngĠ
zÅįng ĠdeĠ
198 5ĠniÃ¡nĠ
ĠrÃ¬ ĠshÃŃĠ
ĠyuÃ¡nĠ lÃ¡iĠ
ĠdÃłn ĠbÃ¨iĠ
qiÃ¡ngĠ huÃłĠ
ĠdiÃłnĠ ziĠ
duÇİnĠ piÃłnĠ
5 6Ġ
8 5ĠniÃ¡nĠ
b Ã¨n
g ÄĽngĠ
Ġ zhÃ¹
Ġ mÃ¡o
Ġ sÄģngĠ
bÄĽn ĠzhÃ¬Ġ
nÃŃ ĠxÄ«ĠyÃł
shÃ¨ng ĠyÃºĠ
xiÃ¡ ĠdeĠ
gÄĵng ĠmÃŃngĠ
ĠshÃ¬Ġ chÇİng
ĠzÃłiĠ tÄģ
ĠyÇĲĠ wÃłiĠdeĠ
shÃ¹Ġ jÃ¹
tÃ¨Ġ dÃ¬ng
jiÃ©Ġ lÃ¹nĠ
qÄ«ngĠ zhÄĵnĠ
mÃ³Ġ tuÅįĠ
shÃ¨Ġ jiÄģoĠ
ĠyÄĽ ĠbÃ¨iĠ
pÃ©iĠ chÃ¡ngĠ
Ġ17 9
ĠdÃł ĠzhÃ¬Ġ
hÃ¹nĠ luÃłnĠ
Ġ qÃ¹Ġ
Ġ liÃ¨ĠchÄĵĠ
bÄĽn ĠdÃ¬ĠqÅ«Ġ
zi ĠlÇĲĠ
fÇĶ ĠzhÄ«ĠfÇĶĠ
00 ĠpÃŃngĠfÄģngĠqiÄģnĠmÇĲĠ
ĠwÃ¨iĠ guÃ³Ġ
ĠzÃłiĠ duÃ¬Ġ
ĠchÃ©ngĠ nuÃ²Ġ
ĠdÃłĠ duÅį
ĠshÃ¨Ġ shÄ«
zÇĴngĠ Ã©ĠwÃ¨iĠ
nÇļĠ wÃ¡ngĠ
ĠzhÇĶĠ zhÄģngĠ
Ġ193 3ĠniÃ¡nĠ
fÄĵiĠxÃŃng ĠyuÃ¡nĠ
8 8ĠniÃ¡nĠ
c or
Ġ yÇĴu
Ġ bÇĶĠ
Ġ shÄģnĠxÄ«Ġ
ĠĠĠ yÄ«nĠwÃ¨iĠ
fÇİ ĠÄĽrĠ
wÃ©n ĠsÄ«Ġ
ĠyÃºĠ 2012
ĠdÃ© ĠhÃ©Ġ
yÃŃĠ dÃ²ng
fÄĵngĠ bÃło
mÃ³Ġ nÇĲ
ĠdÄĽngĠ dÄĽngĠ
Ġ195 7ĠniÃ¡nĠ
ĠjÃŃĠtuÃ¡n ĠjÅ«nĠ
r on
Ġ qÇĶĠdÃ©Ġ
ĠĠĠ dÃło
ĠĠĠ jiÃłnĠ
zuÃ² ĠzÃłiĠ
qÅ« ĠzhÅįngĠ
xÄ«n ĠyÄ«Ġ
nÃ¡n ĠxÄ«Ġ
xiÃł ĠshÃ¬Ġ
nÇļ ĠÃ©r
lÃºn ĠlÇĲĠ
yÃ³uĠ kÃ¨Ġ
xiÄģngĠ xÃ¬nĠ
xiÃłngĠ bÄĽiĠ
ĠqÃŃĠ zhÅįngĠdeĠ
ĠjÃ¹Ġ tÇĲĠ
ĠjiÃ©Ġ hÅ«nĠ
ĠjÄ«ngĠ guÃ²
hÃ©ngĠ xÄ«ng
S S
Ġ kÄģnĠ
Ġ xĠ
Ġ guÃ¬ĠzhÅįuĠ
bÄģ ĠmÃŃngĠ
dÇİng ĠbÃ¹Ġ
cÃ¡i ĠdeĠ
suÃŃ ĠzhÄ«Ġ
pÃł ĠÄĽrĠ
ĠniÃ¡n ĠshÃ¬Ġ
ĠwÃ¨iĠ xÄ«nĠ
ĠyÃºĠ 2022
ĠqÃŃ ĠyÇĶĠ
yÃ¡nĠ ÃłnĠ
chÃ¡ngĠ ÄģnĠ
ĠjiÇİnĠ chÄĵng
guÇİngĠbÅį ĠgÅįngĠsÄ«Ġ
chÃ¡i ĠyÃ³uĠ
jiÃłngĠyÇĶĠ liÃłngĠ
mÄĽi ĠzhÅįngĠbÃ¹Ġ
tÃ¨ ĠsÄ«Ġ
yÃło ĠzÃłiĠ
shuÇĲ ĠyÃºĠ
chÄģ ĠjÃ¹Ġ
ĠhÃ©Ġ jÄ«nĠ
ĠzhÅįngĠ wÃ©n
ĠyuÃ¡nĠ qÅ«Ġ
ĠjiÃłn ĠzhÅįngĠ
ĠxiÄģngĠ guÄģn
ĠnÃ¡nĠ jÄ«ng
zhÇĶnĠ juÃ©ĠsÃłi
ĠfÃºĠ lÇİngĠ
Ġ196 5ĠniÃ¡nĠ
lÇĲĠshÃ¬Ġ zhÇİngĠ
ĠĠĠE n
ĠdeĠzuÃ²Ġ yÃ²ngĠ
jiÄģoĠyÃ¬Ġ suÇĴĠ
jiÃ¨ĠquÃ¡nĠguÃ³Ġ rÃ©nĠmÃŃnĠdÃłiĠbiÇİoĠdÃłĠhuÃ¬Ġ
Ġ huÃ¡iĠ
Ġ dÇİoĠyÇİnĠ
qÄ«ng ĠdÃłiĠ
ĠzhÄ«Ġ qiÃ¡nĠdeĠ
shÄ«Ġ tÇĲĠ
ĠdeĠyÄ«Ġ cÃ¬Ġ
ĠwÃłn ĠniÃ¡nĠ
chÇĶĠ juÃ©Ġ
Ġt ou
ĠdeĠgÅįngĠ sÄ«Ġ
dÃłnĠ shuÇĲĠ
ĠN Ġ
ĠqÄ«Ġ jiÄģn
chÃłngĠpiÃłn ĠgÅįngĠsÄ«Ġ
ĠĠĠ yÃ¹Ġ
ĠĠĠ 2023ĠniÃ¡nĠ
tÇĲ ĠxiÃłnĠ
chÄĵ ĠshÃ¬Ġ
chÄĵng ĠdeĠ
ĠyÃºĠ 190
ĠyÃ¬Ġ mÄĽiĠguÃ³ĠrÃ©nĠ
ĠjÅ«n ĠyÇĲĠ
zhÇĶĠ juÃ©
qÄ«ngĠ dÇİoĠ
zÄ«Ġ xÃ¹n
chÇİnĠ liÃłngĠ
o sĠ
Ġ zuÇĴ
Ġ kÄģiĠfÄģĠ
sh ÄģiĠ
sÄ« ĠdÃ¬ĠlÃ¬Ġ
chÃ¡ n
jÅ«n ĠzhÇĶĠ
jÄ«n ĠsÄ«Ġ
bÄģ ĠyuÃ¨Ġ
mÇĶ ĠsÄ«ĠtÃ¨Ġ
ĠwÃ¨iĠ mÄĽiĠguÃ³Ġ
ĠyÇĴuĠ xiÃło
ĠyÄ«Ġ yÃłng
ĠgÃ¨ ĠgÃ¨Ġ
zhÃŃĠ jÃ¬ngĠ
gÄģoĠ xiÃłoĠ
kÄĵĠ huÃłnĠ
ĠdeĠyÄ«Ġ jiÄģĠ
dÇĲĠ cÃ©ngĠshuÇĲĠyÃ¹Ġ
Ġn Ã¬Ġ
ĠL Ġ
ĠdÃ¬ĠshÃŃĠ sÄģnĠ
ĠsÄģn ĠyuÃ¨Ġ
ĠÄģĠÄĽrĠ bÄĵiĠsÄ«Ġ
pÃ©n ĠdÃ¬Ġ
C A
zh Çİi
tu r
tÃŃ ĠwÃ¨iĠ
30 ĠniÃ¡nĠdÃłiĠ
qÃ¬ng ĠxiÃłĠ
bÃł ĠgÅįngĠ
ĠwÃ¨iĠ sÄ«Ġ
rÃ¨nĠ zhÃ¨ngĠ
yuÄĵĠ 1
ĠtÄģĠmen ĠshÃ¬Ġ
jiÄĽĠ juÃ©
zhuÇİnĠ biÃłnĠ
ĠcÇĲĠ wÃłi
ĠsuÇĴĠ yÇĴuĠdeĠ
ĠtiÄģnĠ wÃ©nĠ
yÅįuĠ xiÄģnĠ
ĠĠĠ199 7ĠniÃ¡nĠ
4 9ĠniÃ¡nĠ
b e
jÄ« ĠshÃŃĠ
yuÃ¡n ĠrÃ©nĠmÃŃnĠbÃ¬Ġ
xÃŃng ĠrÃ©nĠ
jiÃłn ĠduÃ¬Ġ
ĠdeĠ qÃŃngĠkuÃłngĠxiÃłĠ
bÃ¹Ġ fÃ¨n
ĠshÃŃĠ sÄģnĠniÃ¡nĠ
ĠzhÅįu ĠdeĠyÃŃĠgÃ¨ĠshÃ¬ĠzhÃ¨nĠ
yÃ²ngĠ leĠ
dÃ²ngĠ tÃłiĠ
tuÄ«Ġ guÇİng
yÃ¬nĠdÃ¬Ġ ÄģnĠnÃł
tÃŃngĠchÄĵĠ chÇİngĠ
5 3Ġ
a th
Ġ yÃ¹nĠ
hu Çİng
chÃ©ng ĠwÃ¨iĠ
pÃŃng ĠxiÃłnĠ
hÄģ ĠlÃ¬Ġ
ow Ġ
ĠdeĠ hÃ²uĠ
ĠdeĠ xÃŃngĠshÃ¬Ġ
ĠshÃ¬Ġ yÃ¬nĠdÃ¹Ġ
zhÃłnĠ shÃ¹Ġ
ĠbÃ¬ng ĠchÃ©ngĠwÃ©iĠ
shÇĴuĠ rÃ¨nĠ
ĠdeĠshÃ¬Ġ qÃŃngĠ
zhuÄģnĠ qÅ«Ġ
xÃºnĠ fÇĶĠ
liÃ¡ngĠ hÇİoĠdeĠ
yÃ¡nĠjiÅ«Ġ suÇĴ
ĠdeĠjÄ«Ġ chÇĶĠ
zhÃ²ngĠyÃłoĠ xÃ¬ngĠ
ĠsÃºĠ chÄĵngĠ
Ġ zÇİoĠ
Ġ XĠ
zh ÇİiĠ
duÃ¬ ĠshÃ¬Ġ
zhÇİng ĠjÃŃĠ
fÅ« ĠsÄ«Ġ
196 0ĠniÃ¡nĠ
cÃ¹ ĠshÇĲĠ
ĠjÃŃĠ ÄĽr
ĠÄĽr ĠbÃ¨iĠ
ĠxÄ«Ġ fÇİĠ
fÃ¹Ġ nÇļĠ
fÄģĠ shÄĵngĠyÃºĠ
gÃ©Ġ lÃŃnĠ
fÄĵngĠ xiÇİn
ĠzÃ¬Ġ cÇĲĠ
xiÄģoĠ shÃ²u
dÇİĠ suÃłn
bÇİiĠ xÃ¬ngĠ
ĠshÃłngĠhÇİi ĠshÃ¬Ġ
g ra
Ġ dÃ¹
Ġ xiÅįngĠyÃ¡ĠlÃ¬Ġ
liÃ¹ ĠyuÃ¨Ġ
zu ÃłnĠshÃŃĠ
30 ĠfÄĵnĠ
xiÃ¨ ĠÄĽrĠ
ĠhÃ©Ġ chÃłngĠ
ĠshÃŃĠ wÇĶĠniÃ¡nĠ
ĠkÃ¨ ĠjiÄģĠ
ĠshÃ¨ ĠzÃłiĠ
zuÃ¬Ġ hÃ²uĠdeĠ
ĠshÄĵngĠ mÃ¬ngĠ
yuÄĵĠ sÃ¨ĠfÅ«Ġ
xiÃ©Ġ huÃ¬
ĠcÃ³ngĠ cÇĲĠ
ĠJ RĠ
ĠtÄģĠcÃ©ng ĠdÃłiĠbiÇİo
pÃ¬ n
ĠtÃºn ĠqÃŃĠ
M P
a ngĠ
ch i
sÅįu ĠsuÇĴĠ
ĠbÃ¹Ġ duÃłn
ĠyÃ¬Ġ bÃ¨iĠ
ĠjÅ«nĠ wÄĽiĠ
zÇĶĠ xiÄģnĠ
liÇİngĠ zhÇĴng
jÃ¬ĠsuÃłn ĠjÄ«Ġ
cÃ¨ ĠwÃ¨iĠ
wÄĵi ĠdeĠ
shÇİo ĠdeĠ
zhuÄ« ĠjÄ«Ġ
rÃ²u ĠshÃŃĠxÃ¬ngĠ
wÃ¹Ġ zÄ«Ġ
ĠkÃ¨ ĠzÃłiĠ
tÃ¡iĠ zhÅįngĠshÃ¬Ġ
jÄ«nĠ xiÃłngĠ
ĠzhÃ¨ngĠ jÃ¹Ġ
sÄģnĠ jiÇİoĠ
zÇĴngĠ jÃºĠ
ĠshÇĲĠ mÃ¬ĠsÄ«Ġ
pÃŃĠ fÅ«Ġ
ĠmÇĶĠ qÄ«nĠ
ĠyÇĲĠjÃŃ ĠzhÅįngĠguÃ³ĠdÃłĠlÃ¹ĠdeĠ
mÄĽiĠzhÅįngĠbÃ¹Ġ shÃŃĠqÅ«Ġ
ĠĠĠ 2004ĠniÃ¡nĠ
zhÅįng ĠniÃ¡nĠ
le ĠbÃ¹Ġ
zhÃłn ĠlÃ¬Ġ
zÃ© ĠÄĽrĠshÄĽngĠ
ĠdÃło ĠtÄģĠ
ĠyuÃ¡nĠ zÃ¬
dÃłiĠ lÇĲng
ĠÃ©rĠ wÃ©nĠmÃŃngĠ
zhÃ¨Ġ shÇĴuĠ
ĠzuÃ²Ġ yÃ¨Ġ
ĠzÃ© ĠshÃ¬Ġ
ĠhÅįngĠ zhÃł
fÃ©iĠtÃ¨Ġ liÃ¨Ġ
Ġ sĠ
mÇĲ ĠÄĽr
quÃ¨ ĠlÃ¬Ġ
qiÃ¡ng ĠdÃłĠ
huÃ¡n ĠyuÃ¡nĠ
2019 ĠguÄģnĠzhuÃłngĠbÃ¬ngĠdÃº
ĠjÃ¬n ĠxÃŃngĠdeĠ
xuÇİnĠ shÇĴu
chuÃ¡nĠ mÃ©i
wÇİngĠ lÃ¡iĠ
huÃ²Ġ zhÄĽĠ
ĠshÃ¬ĠyÄ«Ġ jiÄģĠ
tuÅįĠ mÇİĠsÄ«Ġ
1ĠyuÃ¨Ġ 1ĠrÃ¬Ġ
ĠC STĠ
ĠC DTĠ
ĠmÇİĠ lÄģĠ
rÃ¡nĠ liÃłoĠ
Ġ196 2ĠniÃ¡nĠ
Ġ196 1ĠniÃ¡nĠ
cÇİoĠ ÃłnĠ
ĠchÃ¡ngĠ qÄ«Ġ
Ġ6Ġ diÃłoĠkuÃłiĠyÄ«ĠxiÇİoĠshÃŃĠ
ĠjÃŃĠbÄĽiĠ mÄĽiĠzhÅįngĠbÃ¹ĠshÃŃĠqÅ«Ġ
7 1
m anĠ
Ġ ruÃ¬ĠshÃ¬Ġ
ĠĠĠ mÄĽiĠ
zhÄģng ĠshÃ¬Ġ
an ĠĠĠ
xÃ¹n ĠhÃłoĠ
198 2ĠniÃ¡nĠ
hÄģ ĠdÃ©Ġ
194 9ĠniÃ¡nĠ
ĠdÃ¬Ġ mÃŃngĠ
ĠzhÅįuĠ biÄģnĠ
gÃ©Ġ lÃ©iĠ
yÄ«ngĠ cÃ¹nĠ
jiÄģoĠ gÄĽi
kÄĽĠyÇĲĠ tÅįngĠguÃ²Ġ
zhÃ¨ngĠzhÃ¬Ġ jÃºĠ
huÇĴĠ zÄģiĠ
ĠA r
yÃ¬nĠ dÃ¹ĠdeĠ
Ġ193 1ĠniÃ¡nĠ
hÃºĠbÄĽiĠ shÄĽngĠ
jÄ«ĠdÅ«Ġ jiÃłoĠ
Ġ liÃ¡nĠhÃ©ĠguÃ³Ġ
shÄĵng ĠbÃ¹Ġ
shÄ« ĠshÃ¬Ġ
mÃ©i ĠÄĽrĠ
wÄĽi ĠdeĠ
bÄĽnĠ tÇĶ
bÄĽnĠ zhÃłnĠ
dÅįngĠ yÃłĠ
ĠshÃłngĠ shÃ¹Ġ
yÄĽĠ mÃ©iĠyÇĴuĠ
ĠqiÃºĠ bÇĲĠsÃłiĠ
cÃ¡iĠ nÃ©ng
zhÃ©ĠxuÃ©Ġ jiÄģĠ
Ġ liÃłnĠ
Ġ chÄģoĠjÃŃĠ
jiÃło ĠyÇĴuĠ
dÄģng ĠdÃłiĠ
yÄ«ng ĠÃ©rĠ
jiÄģo ĠfÃ¹Ġ
qÇĶ ĠleĠ
luÃ² ĠhÃ²uĠ
pÃ¨i ĠyuÃ¨Ġ
chÃ©ngĠ wÃ©i
tiÄģnĠ shÇĲĠ
ĠshÃ¨Ġ xiÃ¡nĠ
wÄĽiĠ nÃ¨iĠruÃ¬Ġ
guÄģngĠ pÇĶĠ
ĠĠĠ199 1ĠniÃ¡nĠ
ĠÄģ ĠlÇĲĠ
7 2Ġ
k mĠ
ĠĠĠ 12ĠyuÃ¨Ġ
ĠĠĠ yÄ«ngĠguÃ³Ġ
shÃŃ ĠshÃ¬ĠjÃ¬Ġ
shÄĵng ĠrÃ¬Ġ
shu ÃŃĠ
mÄĽi ĠlÃ¬Ġ
xiÃłng ĠhÃ©Ġ
tu ÇĲĠ
bÃło ĠfÃ¹Ġ
jiÇİo ĠdeĠ
ĠshÃ¬Ġ yÃŃĠ
ĠshÃŃĠ bÃ¨iĠ
ĠyÃºĠ 2017
ĠyÃºĠ 2023
lÃ¡iĠ yuÃ¡nĠyÃºĠ
zhÃ¨Ġ yÃłngĠ
bÃ³Ġ gÄĽnĠdÃ¬Ġ
ĠdeĠfÃ¹Ġ qÄ«nĠ
yÃ¡nĠhÇİiĠ shÄĽngĠfÃ¨nĠ
2 ĠmÃŃngĠ
6 00
8 7ĠniÃ¡nĠ
m ĠĠĠ
Ġ xÇĲĠ
Ġ hÃ²uĠyÃºĠ
ĠĠĠ mÃ¹Ġ
ĠĠĠ gÄģiĠdÃ¬Ġ
shÃł Ġ
qÇĲ ĠshÃ¬Ġ
xuÇİn ĠdeĠ
dÃŃ ĠsÄ«Ġ
diÄģo ĠxiÃłngĠ
ĠgÅįngĠ lÃ¬Ġ
ĠgÅįngĠ diÃłnĠ
ĠyÄ«Ġ lÃ¹Ġ
shÄĵngĠ rÃ¨nĠ
ĠsÄ«Ġ dÃłĠ
xiÃłngĠ dÅįngĠ
xÃ¬ngĠ gÃ©Ġ
guÇİnĠ lÇĲĠdeĠ
lÃŃngĠ gÇİnĠ
ÅįuĠ mÃ©ng
pÃ©iĠ yÇİngĠ
yÇĲngĠxiÇİng ĠdeĠ
zhÃłiĠ wÃ¹Ġ
ĠqÄ« ĠxÄ«Ġ
hÅįngĠzhÃł ĠjÄ«Ġ
a f
l yĠĠĠ
Ġ Ù
Ġ te
huÃ¡ng ĠshÃ¬Ġ
hÃ¡o ĠwÃºĠ
ĠwÃ¨iĠ jÄ«ngĠ
jÄ«Ġ chÇİng
xÄ«Ġ zÃłngĠ
fÃºĠ wÃ¹ĠdeĠ
ĠtÃ³ng ĠniÃ¡nĠ10ĠyuÃ¨Ġ
ĠhuÃ²Ġ wÃ¹Ġ
Ã¨rĠ bÇİiĠ
shÄģĠ tiÃ¡nĠ
xÃ¬nĠ tÃºĠ
ĠĠĠ199 4ĠniÃ¡nĠ
yÃłĠmÄĽiĠ nÃŃĠyÃł
G B
Ġ rÃ©ngĠ
shÃ¹ ĠgÃ¨Ġ
jÄ«n ĠrÃ¬
yÃ²u ĠzÃłiĠ
fÅ« ĠsÄ«ĠjÄ«Ġ
er ĠĠĠ
hÄĽn ĠnÃ¡nĠ
yÃ¬Ġ qÇĲĠ
shÃ¹Ġ bÇİi
fÄģĠ dÃ²ng
xiÃłngĠ nÃ¡nĠ
ĠqÃŃĠ fÃ¹Ġ
guÇİngĠ dÅįng
zÄĵngĠ qiÃ¡ng
ÄģĠgÄĵnĠ tÃŃngĠ
Ġ juÃ©
Ġ zhuÄģn
Ġ mÃŃĠ
qiÃ¡n ĠwÃ¨iĠ
pÇĶ ĠdeĠ
huÃłn ĠyÇĴuĠ
gÄĽi ĠshÃ¬ĠzhÅįngĠ
ĠshÃ¬Ġ yÇĲ
ĠshÃŃĠ sÃ¬ĠniÃ¡nĠ
xÃ¬ngĠ biÃ©
bÄģoĠkuÃ² ĠleĠ
xiÇİngĠ yÃ¬ngĠ
ĠduÅįĠ cÃ¬Ġ
gÄģngĠ qÃŃnĠ
qÅ«ĠdeĠ fÃ¹ĠzÃ©ĠguÇİnĠxiÃ¡Ġ
gÃ²ngĠhÃ©Ġ dÇİng
ĠshÃ¬ĠjiÃłn ĠdeĠ
8 1
pÇĶ ĠÄĽrĠ
tuÄ« ĠjÃ¬n
kÃłn ĠjiÃłnĠ
guÇĲ ĠdiÃłnĠ
ĠshÃŃĠ jiÃłnĠ
ĠjÃŃĠ kÄĽĠ
ĠyÇĲ ĠzhÄ«Ġ
wÃ©iĠ jÄ«ĠbÇİiĠ
huÃłĠ fÄĵnĠ
ĠzhÃłnĠ tÃ¡iĠ
tÅįngĠ xÃ¬n
huÃ¡Ġ xuÄĽĠ
tiÄĽĠ lÃ¹ĠdeĠ
ĠrÃ¡nĠ hÃ²uĠzÃłiĠ
zhÄĽngĠ tÇĲ
ÄģnĠhuÄ«Ġ shÄĽngĠ
f ĠĠĠ
Ġ hÃ¡ngĠ
ĠĠĠ kÄĵĠ
ĠĠĠ tÃ¡ngĠ
ĠĠĠ tÃ¨ĠzhÄĵngĠ
tu re
dÃº ĠzÃ¬Ġ
ĠniÃ¡nĠ hÃ²uĠ
dÃ¬Ġ fÄģngĠ
lÃ¬Ġ shÇĲ
ĠdÃ¬Ġ xÃŃngĠ
ĠrÃ©nĠ shÄĵngĠ
ĠÄĽr ĠxÄ«Ġ
ĠbÃ¨iĠ kÃ¨Ġ
shÅ«Ġ xiÄĽĠ
nÃłĠ yÃłngĠ
ĠshÇĴuĠ xiÄģnĠ
ĠĠĠA n
wÇİnĠ jiÄģnĠ
ĠI Ġ
Ġ196 7ĠniÃ¡nĠ
zhÇĶĠjiÃłoĠ liÃłnĠ
ĠÃło ĠsÄ«Ġ
sÃłng ĠshÄĵngĠ
qÅ« ĠxiÃłnĠ
wÃ©n ĠjÃŃĠ
mÇİ ĠqÃŃĠ
gÇĶ ĠsÄ«Ġ
diÇİn ĠxÃŃngĠ
qiÄģn ĠzhÃ¨ngĠ
bÄģn ĠdÃłoĠ
gÃ¨ng ĠdÃłĠ
pÄ« ĠfÃ¹Ġ
ĠbÃ¹Ġ zhÄ«Ġ
ĠdÃ¬Ġ Ã¨rĠshÃŃĠ
yÃ¡nĠ xÃ¹
mÄĽiĠguÃ³Ġ zÇĴngĠtÇĴngĠ
bÃ³Ġ lÃŃn
ĠdÄģng ĠrÃ¬Ġ
6 1Ġ
L i
Ġ lÇĶ
Ġ shÃŃĠniÃ¡nĠ
yÃ¬ ĠdeĠshÃ¬Ġ
mÃŃng ĠzÃłiĠ
sÄģn ĠguÃ³Ġ
xiÇİo ĠyÃºĠ
gÇĶ ĠchÃ©ngĠ
lÄĵi ĠdeĠ
ĠzhÃ¬Ġ jÄ«n
ĠyÇĴuĠ leĠ
fÄģĠ huÄ«Ġ
tÃ¨Ġ dÃ¬ngĠdeĠ
bÄĽiĠ mÄĽiĠ
bÃ¬Ġ lÇĶ
yÃ¬ngĠ yÃ²ngĠyÃºĠ
mÃ³Ġ nÇĲĠ
dÃºĠ zhÄĽĠ
tÄ«ngĠ zhÇİngĠ
ĠS t
kuÃłngĠ wÃ¹Ġ
ĠtÇĲĠ yÃ¹Ġ
zhÇĶĠjiÃłoĠ zuÃ²Ġ
wÃ¹ĠlÇĲĠ xuÃ©ĠjiÄģĠ
shÄĽngĠdÃłoĠ tÃ¡iĠ
le ĠyuÃ¡nĠ
lÇļ ĠyÃ³u
ĠshÃ¬Ġ fÃłngĠ
ĠshÃ¬Ġ yÃ²ngĠyÃºĠ
ĠdÃłĠ zhÃ¨ngĠ
ĠchÅ«Ġ sÃłiĠ
biÃłnĠ huÃł
huÃ³Ġ xÃ¬ngĠ
jÅ«nĠ guÄģnĠ
ÄĵnĠ lÃ¡iĠ
hÄģĠ lÄģĠ
fÄģĠxÃŃngĠ leĠ
wÇİnĠ qÄ«Ġ
jiÄĵĠshÃ²u ĠleĠ
chÃ¡i ĠyÃ³uĠjÄ«Ġ
a ge
Ġ zÄĵngĠjiÄģĠ
jÄ« ĠlÃ¬Ġ
bÅį ĠyÄ«nĠ
pÅį ĠÄĽrĠ
ĠwÃ¨iĠ chÃ©ngĠ
ĠhÃ©Ġ kÇĴuĠ
dÃ¬Ġ Ã¨r
ĠyÄ«Ġ kÄģiĠshÇĲĠ
ĠdÃłĠ gÃ©ĠmÃ¬ngĠ
ĠchÅ«Ġ kÇĴu
ĠyÃ³uĠ tÃłiĠrÃ©nĠ
bÇİoĠ ÄģnĠ
tÃŃĠ ÃłnĠ
luÃ²Ġ bÃłiĠ
xÃ¬nĠ yÃ²ngĠ
hÃºĠnÃ¡nĠ shÄĽngĠ
diÄģoĠ sÃ¹Ġ
ÄģĠjÄ«Ġ tÇİn
1 ĠrÃ¬
zuÃ² ĠyÇĲĠ
mÃ¬ng ĠdeĠ
liÃ¡ng ĠdeĠ
gÃło ĠzhÄ«Ġ
ĠjÃŃĠ zhÅįngĠzÃłiĠ
ĠchÃ©ngĠ dÄģnĠ
ĠyÇĶĠ yuÃ¡nĠ
dÄĽngĠ dÃłiĠ
zhÄģngĠ dÄģnĠqÅ«Ġ
jiÇİnĠ chÄĵngĠ
wÄĵiĠ bÃ³Ġ
huÃłnĠ xiÇİngĠ
kÇĴngĠ lÃ³ngĠ
ĠguÃ³ĠjiÄģ ĠgÅįngĠyuÃ¡nĠ
lÇļĠkÃ¨Ġ tiÄĽĠdÃłoĠ
3 ĠhÃłoĠ
S M
Ġ bÃºĠshÃ¬Ġ
ĠĠĠ jiÃłoĠyÃ¹Ġ
tÃ³ng ĠxuÃ©Ġ
jiÃ¨ ĠxiÃłnĠ
nÃł ĠxÄ«Ġ
ri c
si on
ĠdeĠ gÄģoĠ
jÃ¬Ġ zhÄĽĠ
yÇĶĠ yÃ¡n
ĠjÃ¬Ġ hÃ²uĠ
ĠÃ©r ĠyuÃ¡nĠ
rÃ¨nĠ kÄĽĠ
ĠjiÃłnĠ duÃ¬
shÄ«Ġ zhÇİngĠ
zhÇĲĠ nÃ©ng
chÃ¡ngĠ guÄ«Ġ
chÃ©nĠ mÃ²Ġ
ĠjÇĲnĠ cÃ¬ĠyÃºĠ
gÄĵĠlÃºnĠ bÇĲĠyÃł
f li
Ġ yÃ¬nĠdÃ¹
Ġ chÃ¡oĠxiÄģn
zÄĵng ĠzhÃ¬Ġ
ĠlÃ¬Ġ yÃºĠ
ĠyÄ«Ġ duÃłnĠ
ĠsÄ«Ġ fÇİ
ĠÃ©r ĠyÇĲĠ
fÃ¹Ġ zÃ¡Ġ
zhÃ¹Ġ mÃŃng
ĠjÅ«nĠ zhÇĶĠ
fÄĵnĠ lÃ¡n
rÃ¹Ġ yÃ¹Ġ
yÇİnĠ jÄ«ngĠ
biÄģnĠ qÅ«Ġ
ĠcÃ©ngĠ jÄ«ng
Ġk ÇİnĠ
3 ĠĠĠ
M V
Ġ zhÇİnĠ
Ġ jÅ«Ġ
Ġ gÄĽiĠ
Ġ hÃ²uĠzÃłiĠ
ĠĠĠ shuÇĲĠ
ĠĠĠ pÇĶĠ
wÇĶ ĠdeĠ
jiÇĶ ĠyuÃ¨Ġ
ar t
ĠzhÃ¬Ġ cÇĲĠ
ĠjÃŃĠ jÃ¹Ġ
ĠdÃłĠ zhÃłnĠ
zhÃ¨Ġ cÃ¬Ġ
tiÄģnĠ huÃ¡ng
tiÄģnĠ zhÇĶĠjiÃło
miÃłnĠ qiÃ¡nĠ
huÇĴĠ pÃłoĠ
ĠxiÃłnĠdeĠ fÄĵiĠjiÃłnĠzhÃ¬ĠdÃ¬ĠqÅ«Ġ
jÇĶĠxÃŃngĠ leĠ
Ġ193 4ĠniÃ¡nĠ
ĠdeĠyÃ¬Ġ siĠ
Ġ tÃ¡i
zh Äģi
jÃ¬n ĠdÃłiĠ
liÃº ĠchÃ©ngĠ
hÃ¡ng ĠxÃŃngĠ
ĠshÃŃĠ shÄ«
ĠdÃłn ĠwÃ¨iĠ
ĠjÅ«nĠ duÃ¬
suÇĴĠ zhÇİngĠ
xÃºnĠ zhÇİoĠ
xÇĶĠ kÄĽ
ĠshÃ¬ĠwÃ¨iĠyÃºĠ wÅ«ĠkÃ¨ĠlÃ¡nĠ
Ġd Ã¨ng
l ÃłoĠ
Ġ lÃºnĠ
Ġ 22Ġ
shÄĵng ĠyÃ¬Ġ
gÄģo ĠÄĽrĠ
liÃº ĠshÃ¬Ġ
ĠlÃ¬Ġ chÇİngĠ
ĠdÃłĠ dÃłĠ
xiÃłngĠ liÃłngĠ
ĠzhÃ¨Ġ xiÃłngĠ
wÃ¡ngĠ guÃ³ĠdeĠ
ĠgÄģiĠ zhuÄģngĠ
jiÃłĠ shÇĲ
cÃºnĠ chÇĶĠ
Ġm Ã¡Ġ
Ġz Ã¨ngĠ
jiÄģĠrÃ¹ ĠzhÅįngĠguÃ³ĠgÃ²ngĠchÇİnĠdÇİngĠ
bÄģnĠjiÇİngĠ diÇİnĠlÇĲĠ
s Äģ
Ġ xiÇİoĠshÃŃĠ
Ġ yÄ«ĠniÃ¡nĠ
Ġ xiÃ©ĠzhÃ¹Ġ
Ġ zhÄĵnĠduÃ¬Ġ
Äģn ĠzhÃ¬Ġ
ĠĠĠ jÃ¬nĠ
guÃ³ ĠwÃ¨iĠ
shÅįu ĠfÃ¹Ġ
am p
ĠzÃłiĠ jÄ«nĠ
ĠyÇĴuĠ liÇİngĠgÃ¨Ġ
ĠguÃ³Ġ nÃ¨i
sÃ¬Ġ chuÄģn
yÃŃĠgÃ¨ ĠrÃ©nĠ
dÇİĠ kÄģiĠ
Ġz Ã²ngĠ
qÅ«ĠyÃ¬ĠhuÃ¬Ġ xuÇİnĠjÇĶĠ
4 9Ġ
P layStation
Ġ cÃ¡o
ĠĠĠ ÄģnĠ
fÄĵn ĠzhÃ¬Ġ
kÄģi ĠyuÃ¡nĠ
pÃłi ĠrÃ©nĠ
zhÅ« ĠshÃ¬ĠhuÃ¬Ġ
ĠchÃ©ngĠ kÃ¨
zhÇĶĠ tÇĲĠ
ĠwÃ©iĠ qÄ«Ġ
ĠzhÃłnĠ lÇĲng
ĠshÃłngĠ zhÃ¨nĠ
jiÄģoĠ huÃłn
ĠyÄ«nĠwÃ¨iĠ tÄģ
pÃłnĠ duÃłnĠ
kÇİoĠ gÇĶ
ĠbÃ¹ĠfÃ¨n ĠdeĠ
xuÃ¡nĠ zhuÇİnĠ
ĠĠĠb eg
5 8ĠniÃ¡nĠ
e ta
wÇĶ ĠgÅįngĠ
shÃ©n ĠshÃ¨Ġ
er sĠ
yÇĶn Ġk
ĠyÃºĠ yÄ«Ġ
ĠjiÃłn ĠguÃ³Ġ
rÃ¨nĠ qÄ«Ġ
ĠqÃŃĠ ziĠ
tÃ¡iĠ nÃ¡nĠ
shÄģnĠ hÃºĠ
yÃŃĠ qÃ¬Ġ
lÃ³ngĠ kÄĵĠ
fÅ«Ġ lÄĵiĠ
xiÃ©Ġ zhÃ¹
yÃ¡oĠ gÇĶn
liÃ¡nĠsÃłiĠ guÃłnĠjÅ«nĠ
Ġ fÃ¨ng
Ġ huÃ¬ĠyÃ¬Ġ
yÃŃ ĠdeĠ
cÃ©ng ĠyÇĶĠ
pÇĶ ĠlÇĲĠ
hÄĽn ĠyÇĴuĠ
197 9ĠniÃ¡nĠ
ĠshÃ¬Ġ cÃ³ngĠ
ĠjiÄģĠ sÃ¹Ġ
zhÇĶĠ chÇİng
qÄ«Ġ tÃºĠxÃŃngĠ
guÇİnĠ kÃ²ng
chuÃ¡nĠ shÅ«Ġ
guÃ³ĠdeĠ tÃ¨ĠyÇĴuĠ
dÃłnĠ bÃ¡iĠ
Ġ196 3ĠniÃ¡nĠ
zhÇĲĠhuÄ« ĠbÃ¹Ġ
ĠzhÃłnĠdÃ²u ĠjÄ«Ġ
N et
Z Ġ
Ġ 23Ġ
dÃ© ĠyÇĲĠ
xÄ«n ĠjÄ«Ġ
huÃł ĠgÅįngĠ
yÃ¡ng ĠzhÅįuĠ
fÃłng ĠshÃ¨Ġ
gÄģn ĠyÃ¹Ġ
ĠyÄ«Ġ cÃ¬
lÃŃĠ hÅ«nĠ
fÃ¡ngĠ shÇĴuĠ
ĠdeĠshÃ¬Ġ jiÃłnĠ
Ġ193 2ĠniÃ¡nĠ
ic ros
chÅ«ĠbÇİn ĠdeĠ
ĠfÇĴu ĠzÃ©Ġ
Ġ ma
le sĠĠĠ
mÃŃng ĠzhÅįngĠ
suÇĴ ĠbÃ¹Ġ
shuÇĲ ĠyuÃ¡nĠ
hÃłn ĠdeĠ
dÄ«ng ĠmÃ¹Ġ
cÇİo ĠyuÃ¡nĠ
ĠbÃ¹Ġ liÃ¨Ġ
ĠgÃ¨Ġ dÃ¬ĠdeĠ
ĠhuÃ¬Ġ dÇİoĠzhÃ¬Ġ
qÄ«Ġ xÄ«ĠdÃ¬Ġ
zuÃ¬Ġ hÇİoĠdeĠ
quÃ¡nĠ wÄĵiĠ
tiÄģnĠ xiÃłĠ
ĠgÄģoĠ xiÃ³ng
ĠguÃ²Ġ qÃ¹Ġ
ĠyÇĶĠmÃ¡o ĠqiÃº
mÃ¨ngĠjiÄģĠ lÄģĠ
5 6ĠniÃ¡nĠ
b Ã¡o
g nĠ
i ck
ĠĠĠ xÃŃngĠ
jiÄģ ĠjÃŃĠ
guÄģn ĠhÃ©Ġ
diÃłn ĠyuÃ¡nĠ
shÄĽng ĠrÃ©nĠmÃŃnĠzhÃ¨ngĠfÇĶĠ
shÄģ ĠshÃ¬Ġ
nÃ³ng ĠdÃ¹Ġ
ĠshÃ¬Ġ yÃ²ngĠ
dÃłĠ huÃ¬Ġ
ĠchÃ©ngĠ rÃ¨n
ĠzhÄ«Ġ duÃ¬Ġ
liÃ¨ĠchÄĵ ĠdeĠ
Ġ bÇĲĠdÃ©Ġ
bÇİo ĠshÃŃĠ
fÃłng ĠzhÃ¬Ġ
ĠdÃłoĠ fÅ«Ġ
xÄ«nĠ qÅ«Ġ
kÄģiĠ yÃ¨Ġ
dÃ¹Ġ guÃ²Ġ
gÃ©Ġ luÃ³Ġ
tÅįngĠ chÃ¡ngĠshÃ¬Ġ
pÃ¨iĠ juÃ©Ġ
dÇĴngĠshÃ¬Ġ huÃ¬Ġ
5 ĠĠĠ
s Äĵng
Ġ ÇĴu
Ġ lÄĵiĠ
Ġ 20ĠshÃ¬ĠjÃ¬Ġ
yÇĶ ĠrÃ©nĠ
chÅ« ĠxiÃłnĠzÃłiĠ
shÄ« ĠxÃŃngĠ
chÇİn ĠdeĠ
xiÄĽ ĠchÃ©ngĠ
ĠdÃ© ĠyÃ¬ĠzhÃ¬Ġ
yÃ¹Ġ gÃłoĠ
ĠgÄģi ĠdÃ¬Ġ
ĠĠĠ199 5ĠniÃ¡nĠ
ĠhuÃ²ĠdÃ© ĠdÃ¬Ġ
guÄģng ĠxuÃ©Ġ
fÃ¨i ĠÄĽrĠ
ĠhÃ©Ġ jiÄģĠ
ĠhÃ©Ġ shuÇĲĠ
ĠshÄĵngĠ rÃ¨nĠ
qÇĲĠ tÃºĠ
luÃ³Ġ xuÃ¡nĠ
jiÄĽĠ chÃºĠ
huÃ²Ġ bÃ¬Ġ
fÄģĠxiÃłnĠleĠ cÇĲĠtiÄģnĠtÇĲĠ
fÇİĠlÃ¡nĠxÄ« ĠdÃłĠqÅ«Ġ
5 ĠmÃŃngĠ
7 5ĠniÃ¡nĠ
Ġ qÇĶ
Ġ sÄģi
jÄ« ĠxÃŃngĠ
guÄģn ĠzhÃ¬Ġ
zhÃ¬Ġ zÃłoĠ
ĠyuÃ¨Ġ nÃ¡n
nÃ¡nĠ fÄĵiĠ
ĠwÃ©iĠ fÇİnĠ
ĠtÃ³ng ĠwÃ¨iĠ
yÃŃĠ chuÃ¡nĠ
jiÇĶĠ diÃłn
zhÃłoĠ gÃ¹Ġ
ĠzuÃ¬Ġ zhÅįngĠzÃłiĠ
ĠdeĠgÅįngĠ jÄ«Ġ
ĠjiÇİngĠ shÃ¹Ġ
zÅįngĠyÃ¬Ġ jiÃ©ĠmÃ¹Ġ
jÃ¬ngĠwÃłiĠ shÅ«ĠrÃ¹Ġ
C h
Ġ tÇĴngĠ
Ġ yÃŃngĠdÃ©Ġ
yÇĶ ĠjÃŃĠ
bÃ¨i ĠyÄ«Ġ
yÃŃng ĠdÃ©
or d
sÄĵn ĠdeĠ
yÃ© ĠlÃ¹Ġ
ĠzhÃłnĠ jÃ¹Ġ
quÃ¡nĠ shÃ¹Ġ
yÃłĠ kÄĵĠ
icros of
D R
b Ã¡oĠ
c Ã©n
sh Ġ
ĠĠĠ shÇĲĠ
ĠĠĠ 2003ĠniÃ¡nĠ
mÃ¹ ĠzhÅįngĠ
dÅįng ĠrÃ¬ĠbÄĽnĠ
lu ÇĴ
âĢ ĭ
kÅ«n ĠmÃŃngĠ
ĠjiÄģĠ ÄĽrĠ
ĠÃ©r ĠdÃ©ĠmÃŃngĠ
suÇĴĠ shÇĶĠ
xiÃłnĠ xiÃłngĠ
shÃ¨Ġ jÃ¬ĠdeĠ
ĠyÃ²uĠ chÄĵng
ĠliÃ¡nĠ bÄģng
zhÃłngĠ fÅ«
ĠshÃŃĠjiÄģn ĠwÃ¨iĠ
huÃ³ĠyuÃ¨Ġ yÃºĠ
tÇİĠnÃŃ ĠdÃłĠqÅ«Ġ
r yĠ
Ġ zhuÃ³
Ġ liÃłngĠ
ĠĠĠ shÃ¨ĠjÃ¬Ġ
le ĠdÃ¬ĠyÄ«Ġ
xuÃ© ĠjÃŃĠ
zhÇĶ ĠrÃ©nĠ
zhÅįu ĠwÃ©iĠ
bÄĽi ĠpÃŃngĠ
zhÃ²ng ĠyÃ¬ĠyuÃłnĠ
lÇľ ĠbÃ¹Ġ
xiÃ¡ ĠshÃ¬Ġ
ĠshÃ¬Ġ pÃŃn
ĠzÃłiĠ nÃłĠlÇĲĠ
lÃ¬Ġ liÃłngĠ
ĠxÄ«Ġ bÄĽiĠbÃ¹Ġ
ĠlÇĲĠ ÃłoĠ
ĠmÃŃngĠ quÃ¨Ġ
jiÃłoĠ shÇİoĠ
tÃ¨Ġ sÃ¨
wÃłiĠ jiÃ¨Ġ
shÃ²uĠ mÃ¬ngĠ
ĠzhÃ¨Ġ shÇĲĠdeĠ
nÃ³ngĠ cÅ«n
ĠR o
ĠĠĠ199 6ĠniÃ¡nĠ
A G
O V
g en
Ġ gÄĵngĠ
zhÃ¨ng ĠsÄ«Ġ
shÃłng ĠjÃŃĠ
yuÄĵ ĠdeĠ
chÃ©n ĠjÄ«Ġ
zhuÇİn ĠhuÃ¬Ġ
wÄĵn ĠquÃ¡nĠ
ĠchÃ©ngĠ xiÃłngĠ
ĠyÇĶĠ xÄ«nĠ
ĠzhÄ«Ġ lÃ¹Ġ
xiÃłĠ xÃºnĠ
gÇĶĠ dÅįngĠ
ĠwÇĴ ĠdeĠ
xÃºnĠhuÃŃĠ sÃłiĠ
ĠbÄĽiĠqÇĲĠ shÃ¹nĠshÃŃĠzhÄĵnĠyÇĶĠ
Ġ sÃłi
Ġ hÇİiĠjÅ«nĠ
dÃ© ĠzhÄ«Ġ
ĠshÃŃĠ yÇĴuĠ
xuÃ©Ġ zhÄĽ
ĠkÃ¨ ĠrÃ©nĠ
cÇĲĠ cÃ¬Ġ
tiÄģnĠ zhÇĶĠ
Ã©Ġ wÃłiĠ
mÃłnĠ huÃł
yÃ¡Ġ chÇĲĠ
xuÃ¨Ġ yÃ¨Ġ
9 ĠshÃŃĠ
U R
huÃł ĠchÃ©ngĠ
tÃ³ng ĠshÃ¬Ġ
cÄģn ĠzhÃ¨ngĠ
yÃ²u ĠbÃ¨iĠ
ĠxÃŃng ĠzhÅįngĠ
fÃ¹Ġ gÃłiĠ
yÃ¹Ġ shÇĲĠ
jiÄģoĠ qÅ«Ġ
nÇļĠ shÃ©nĠ
cÃ¨Ġ lÃ¼Ã¨
huÇĴĠ xÄ«ngĠ
ĠzuÃ¬Ġ hÃ²uĠyÄ«Ġ
ĠniÃ¡nĠ7ĠyuÃ¨Ġ 1ĠrÃ¬Ġ
ĠgÃ©Ġ lÃ¡nĠ
zhÃŃĠyÃ¨Ġ shÄĵngĠyÃ¡
ĠyÇĲnĠ qÇĲĠ
bÄģĠfÃ¡ ĠlÃ¬ĠyÃł
8 6ĠniÃ¡nĠ
n ÇİĠ
Ġ lÃŃng
Ġ xiÃ³ng
Ġ yÇİĠ
Ġ nÃ¨iĠrÃ³ngĠ
ĠshÃ¬Ġ qÃŃĠ
ĠzÃłiĠ dÄģngĠdÃ¬Ġ
ĠchÅ«Ġ zÃ¬Ġ
gÄģoĠ shÄģnĠ
hÇİiĠ guÄģnĠ
ĠdÃłnĠ shuÇĲĠ
xiÃłoĠ guÇĴ
Ã¨rĠ yÇİngĠhuÃłĠ
zÇĶĠ zhÇĲ
huÃ²Ġ yÃ¹nĠ
Ġt uÃ²
kÄĽĠyÇĲ ĠshÃ¬Ġ
tÅįngĠguÃ² ĠleĠ
fÄģĠxiÃłn ĠyÃºĠ
yÃ©ĠlÃ¹Ġ sÄģĠ
Ġ hÅ«Ġ
Ġ ruÇİnĠ
wÃ©i ĠlÃ¬Ġ
wÇĶ ĠlÃ¬Ġ
ĠwÃ¨iĠ tÄģĠ
ĠzÃłiĠ hÃ²uĠ
ĠjÃ¬n ĠleĠ
kÇĴuĠ jÃ¬ngĠ
jiÇİnĠ huÃłĠ
hÃ¡ngĠ tiÄģn
fÃłngĠ sÃ²ngĠ
chÃ¨Ġ tuÃ¬
duÃ³Ġ qÇĶĠ
E M
p Ã¡Ġ
ji Ã¡Ġ
chu ÇİngĠ
kÄģi ĠxÃŃngĠ
zhÃ²ng ĠyÃ¬ĠyuÃłn
zhÃ¨n ĠxiÃłnĠ
yÇİn ĠleĠ
liÃłng ĠhÃ©Ġ
gÇİi ĠzhÃ¬Ġ
la r
yÃłn ĠzhÃ¨ngĠ
yÄģ ĠzhÃ¬Ġ
cÇİo ĠdÃ¬Ġ
ĠbÃ¹Ġ lÃ¡nĠ
ĠyÇĲĠ qÃŃĠ
zhÃŃĠ dÇİoĠdeĠ
jÄ«nĠ pÃ¡i
gÄĵnĠ suÃŃ
ĠwÃ©nĠ zhÄģngĠ
sÃłng ĠshÄ«Ġ
a ti
Ġ cuÄ«
Ġ yÃ¬ngĠ
Ġ tÅ«Ġ
Ġ xuÄĵĠ
jiÄģng ĠwÃ©iĠwÃºĠÄĽrĠ
kuÃłi ĠjÃ¬Ġ
ĠshÃŃĠ qÃ¬
shÃłngĠ fÇİĠlÃ¡nĠxÄ«ĠdÃłĠqÅ«Ġ
ĠxÄ«Ġ nÃ¡nĠbÃ¹Ġ
ĠshÃ¨ ĠxiÃłnĠ
guÄģnĠ diÇİn
ĠbÃ¬ngĠ duÃ¬Ġ
kÇĴuĠ hÃłoĠ
yÃŃngĠ yÃ¹n
ÃłiĠ shÄģĠ
qiÃ¡ngĠ liÃ¨ĠdeĠ
ĠyÃ¬Ġsi ĠshÃ¬Ġ
m b
Ġ xiÄģng
ĠĠĠ yÇĲngĠxiÇİngĠ
le n
Ã¨r ĠmÃŃngĠ
liÇİng ĠbÃ¹Ġ
dÇİng ĠzÃłiĠ
fÇİn ĠshÃ¨Ġ
gÃ¹ ĠyÃ¬Ġ
tÃ²u ĠmÃŃngĠ
ol og
shÄĵngĠ wÃ¹
ĠjiÃłnĠ lÃ¬ĠdeĠ
fÄĵnĠ zÇĶĠ
zhÃ²ngĠ shÄģngĠ
tÃłiĠ kÅįng
jÇĲĠ zhuÄ«Ġ
zÄĵngĠ jiÄģ
dÃłnĠ bÃ¡iĠzhÃ¬Ġ
ĠĠĠwÃ¨iĠ yÃºĠ
Ġ Ãłn
Ġ yÄģĠ
Ġ dÃłngĠ
ĠĠĠ 2000ĠniÃ¡nĠ
ju Äģn
xÃ¹ ĠshÃ¬Ġ
zhÃ²ng ĠrÃ©nĠ
fÇĶ ĠdeĠ
ĠgÅįngĠ shÄģngĠ
ĠjÃ¬Ġ shÃ¹ĠdeĠ
ĠdÃłn ĠyÄ«nĠwÃ¨iĠ
ĠdÃłĠxuÃ©Ġ jiÃłoĠshÃ²uĠ
ĠgÄģi ĠgÅįngĠsÄ«Ġ
ĠshÇĲ ĠqÃŃĠ
chÇĶĠlÇĲĠ qÃ¬Ġ
ĠgÅįngĠzuÃ² ĠrÃ©nĠyuÃ¡nĠ
ĠchÅ«ĠbÇİn ĠshÃ¨Ġ
5 7ĠniÃ¡nĠ
5 8Ġ
6 3Ġ
Ġ lÃ³ng
Ġ zÃłoĠ
fÃ¹ ĠchÅ«Ġ
nÃ¨i ĠshÃ¨ĠyÇĴuĠ
tÃº ĠÄĽrĠ
hÃº ĠdeĠ
198 3ĠniÃ¡nĠ
zu ÇİnĠ
ĠshÃŃĠ xÃŃng
ĠshÃŃĠ yÃ¬Ġ
lÄģĠ fÅ«Ġ
chÅ«Ġ kÇĴuĠ
xuÃ¨Ġ tÇĴngĠ
Ġz Ã²ng
ĠdeĠmÃŃngĠ chÄĵngĠ
biÄģoĠzhÇĶn ĠdeĠ
fÄģĠdiÃłnĠ chÇİngĠ
8 ĠshÃŃĠ
e ĠĠĠS
Ãło ĠdÃ¬Ġ
tÇĲ ĠhÃ©Ġ
zÄģi ĠnÃłnĠ
ĠzÃłiĠ xiÃłĠ
ĠhÃ©Ġ pÃŃng
ĠzhÅįngĠ jÃŃĠ
ĠjÃ¬Ġ gÅįngĠ
lÃ¡iĠ wÃ¹Ġ
ĠjÃ¬n ĠpÃŃngĠ
yÄ«ngĠ wÇĶĠ
zÃºĠ zÃ¬ĠzhÃ¬ĠqÅ«Ġ
hÄĽnĠ kuÃłi
liÃłnĠ xÃŃĠ
Ġ3 9
chÃ¨Ġ lÃŃĠ
kÄĽnĠ dÃ¬ngĠ
ĠbÄĽn ĠmÃŃngĠ
Ġ lÄģ
Ġ tÃłnĠ
Ġ zÃłnĠ
Ġ gÅ«Ġ
yuÃ¡n ĠzhÃ¬Ġ
yÃ¡n ĠxiÃłnĠ
bÇĲ ĠdeĠ
zÃ© ĠÄĽrĠ
tÃŃ ĠshÃ¬Ġ
qÃ¬ ĠshÃ¬Ġ
wÃº ĠyÃ¬Ġ
zhÄĵn ĠjÅ«nĠ
bÄ«n ĠxÄ«ĠfÇİĠ
ĠjÃŃĠ yÃºĠ
ĠxÄ«Ġ bÄĽi
mÃ¬Ġ qiÃ¨Ġ
Ġ000 ĠmÃŃngĠ
xuÃ©ĠyuÃłn ĠdeĠ
ĠhÃ©ĠbÄĽiĠ shÄĽngĠ
6 5ĠniÃ¡nĠ
Ġ yÇĲn
Ġ zhÃ¹ĠyÇĴuĠ
ĠĠĠ 2004
le ĠshÃŃĠ
shÃ¨ ĠyÃºĠ
yÃ²ng ĠyÇĲĠ
ni ver
fÃłn ĠdeĠ
biÃ© ĠmÃŃngĠ
ĠwÃ¨iĠ zhÄ«Ġ
ĠzhÅįngĠ yÃ¬Ġ
ĠshÃŃĠ biÇİoĠshÃ¬Ġ
ĠyÃºĠ 2011
ĠjÃŃĠ yÇĶĠ
ĠtÄģ ĠyÃ¬Ġ
ĠyÇĶĠ yÃ¡nĠdeĠ
jÃ¹Ġ bÃ¨iĠ
xiÄģngĠ xÃ¬n
ĠÃ©rĠ zhÃ¨Ġ
jiÄĵĠ tÃ¬
jiÄĵĠ tÃ³uĠ
fÃºĠ lÇİng
zhÇĲĠ zÃ©Ġ
jiÃ¨Ġ sÃłiĠshÃ¬Ġ
ĠbÄĽnĠ piÃłn
ĠgÄģiĠ wÃ¹ĠzhÇĴngĠdeĠ
qÇĶĠ dÃłi
mÃ³ĠshÃ¬Ġ chÇİnĠ
yuÃ¨ĠzhÅįngĠ xÃºnĠ
hÃ¡ngĠkÅįngĠmÇĶ ĠjiÃłnĠ
8 2ĠniÃ¡nĠ
Ġ zhÃº
chÃ ²u
zhÇĶĠ guÇİnĠ
zhÃŃĠ zÃ©Ġ
zhÇİngĠ wÃ²
bÄĽiĠ cÃ¨Ġ
jiÇİnĠ dÄģn
hÃ³ngĠ shuÇĲĠ
wÅ«Ġ lÇĶĠ
miÇİnĠ fÃ¨i
dÅįngĠbÃ¹Ġ dÃłĠqÅ«Ġ
8 5Ġ
8 4ĠniÃ¡nĠ
A D
a dĠ
Ġ mÇĲn
Ã© ĠdeĠ
jÇĲ ĠgÃ¨
duÅį ĠjiÄģĠ
cÇĲ ĠzhÃłnĠ
piÄģn ĠxiÇİoĠshuÅįĠ
ĠshÃ¬Ġ wÅ«ĠkÃ¨ĠlÃ¡nĠ
chÃ©ngĠ dÃ¹Ġ
ĠchÃ©ngĠ jÃŃĠ
jiÄģĠ zÃºĠ
wÃ©iĠ kÃ¨Ġ
pÃŃngĠ gÅ«Ġ
tÃŃĠ jiÄģoĠ
chÄĵngĠ hÅ«
ĠdÅįngĠ fÄģngĠ
ĠmÄĽi ĠrÃ¬Ġ
wÄĽnĠ dÃ¬ng
fÄĵnĠbiÃ© ĠshÃ¬Ġ
juÄģnĠ zÃ¨ngĠ
7 1ĠniÃ¡nĠ
Ġ yÅįng
yÇĶ ĠzÃłiĠ
hÃ²u ĠchÃ©ngĠwÃ©iĠ
xÅ« ĠqiÃº
diÃło ĠrÃ¨nĠ
lÃ³u ĠdeĠ
ĠzhÄ« ĠhÃ©Ġ
tÇĲĠ xÃ¬
wÄĵiĠ nÃŃĠsÄ«Ġ
ĠĠĠ199 3ĠniÃ¡nĠ
ĠdeĠzhÇĶĠ tÃŃĠ
yÇĶnĠshÃŃĠ kÄĵngĠ
9 ĠmÇĲĠ
l l
y n
Ġ shÄĵn
Ġ guÇĲ
li Çİn
yÃ¹ ĠhÃ©Ġ
bÃ¨i ĠbÃ¹Ġ
yÃ¡ng ĠdeĠ
qiÄģn ĠxiÃłĠ
196 8ĠniÃ¡nĠ
qÇĲng ĠqiÃº
yÃ¬Ġ yuÃ¡nĠ
wÃ¡nĠ chÃ©ngĠdeĠ
luÃ³ĠdÃ¬Ġ yÃłĠ
j ec
Ġ pÃłnĠ
Ġ pÃºĠ
zuÃ¬ ĠxÃŃngĠ
jiÄĵ ĠlÃ¬Ġ
gÃ© ĠhÃ©Ġ
zÇĶ ĠwÃ¨iĠ
tÃłi ĠyuÃ¡nĠ
biÃłn ĠlÃ¬Ġ
kÇİ ĠdeĠ
197 8ĠniÃ¡nĠ
shÄĽn ĠlÇĲĠ
ĠhÃ©Ġ mÄĽiĠguÃ³Ġ
ĠyÇĴuĠ zhÃ¹ĠyÃºĠ
ĠguÃ³Ġ fÃ¡ngĠ
ĠyÄ«Ġ lÇİngĠ
mÃŃngĠ nÃŃĠsÅ«Ġ
ĠtÄģĠ biÇİoĠshÃ¬Ġ
zhÃŃĠ lÃ¹
suÇĴĠ zÃłiĠdeĠ
ĠzhÃ¨Ġ chÇİngĠ
gÄĵĠ chÃłng
zÃºĠ gÃ²uĠ
jiÇĶĠ bÄģĠ
dÇİĠ pÃ²Ġ
chÃ³ngĠ zÇĶĠ
ĠliÃ¡nĠ sÃłiĠ
zÅ«nĠ zhÃ²ngĠ
ĠbÃ¹ĠjiÇĶ ĠhÃ²uĠ
ĠwÃ¨iĠyÃºĠgÄģiĠ shÄĽngĠ
ĠĠĠen dĠ
r ÄĽ
v en
Ġ yÃłĠzhÅįuĠ
yÃ¹ ĠzhÅįngĠ
wÇĶ ĠwÃ¨iĠ
shÄģn ĠhÃ©Ġ
suÄģn ĠyÃ¡nĠ
zhÃ¬Ġ jÄ«nĠ
dÃłĠ yuÄĵĠ
ĠguÃ³Ġ jÃŃĠ
ĠguÃ³Ġ gÃ²ngĠ
ĠÄĽr ĠdÃ¬Ġ
ĠjÅ«n ĠjÃŃĠ
ĠjÅ«n ĠbÃ¨iĠ
xÄ«nĠ zÄĵngĠ
dÃłiĠ lÃ¡iĠdeĠ
guÄģnĠ yÄ«nĠ
jiÄģnĠ chÃŃ
diÃłnĠ lÃ¹Ġ
ĠzhÃ¨ngĠ quÃłnĠ
dÃŃĠ yÃłĠ
pÃłiĠ qiÇİnĠ
ĠjiÃłoĠ shÃ²uĠ
gÄĵĠqÇĶ ĠdeĠ
9 ĠgÃ¨Ġ
p Äĵn
Ġ bÇİnĠ
zhÃ¹ ĠshÃ¬Ġ
xÃ¬ng ĠyÇĶĠ
lÄģ ĠkÃ¨
liÃº ĠyÃ¬Ġ
lÃ¡n ĠzhÅįuĠ
men t
bÃłn ĠbÃ¹Ġ
xÃº Ġ
jiÄģnĠ dÅ«
ĠdeĠyÄ«Ġ tiÃ¡o
ĠquÃ¡n ĠbÃ¹Ġ
liÃ¡oĠnÃŃngĠ shÄĽngĠ
bÃłiĠzhÃłnĠ tÃŃng
Q u
Ġ nÃ¨iĠbÃ¹Ġ
duÃ¬ ĠtÄģĠdeĠ
jiÃ¹ ĠyÇĲĠ
jiÇĶ ĠmÃŃngĠ
196 4ĠniÃ¡nĠ
ĠyÇĲ ĠchÃ©ngĠwÃ©iĠ
kÄģiĠ bÃłnĠ
lÃ¡iĠ wÇİngĠ
ĠjÃ¹Ġ lÃ¨Ġ
luÃ²Ġ shÄģnĠ
ĠgÄģiĠ piÃłn
ĠgÄģoĠ sÃ¹
ĠshÃ¬ĠshÃ¬Ġ jiÃ¨Ġ
ĠdÃł ĠwÃ¨iĠ
ĠhuÃłĠ xuÃ©
Ġ á
Ġ 48
ĠĠĠ 2002ĠniÃ¡nĠ
fÇİ ĠzhÅįngĠ
xiÅ« ĠshÃ¬Ġ
197 0ĠniÃ¡nĠ
jÃ¬Ġ suÃłnĠ
ĠguÃ³Ġ zhÅįngĠ
ĠgÅįngĠ Äģn
ĠxÃŃng ĠyÃºĠ
mÃŃnĠ zhÃ¨ngĠ
shÄģnĠ dÇĲngĠ
chÄĵĠ shÇĴuĠ
shuÇĲĠ kÃ¹
dÃ¡Ġ nÃŃ
lÇĲngĠ xiÃ¡n
yÄ«nĠ cÇĲ
dÄģngĠ jÃº
suÃŃĠ zhe
tuÄ«Ġ cÃ¨Ġ
ĠbÄģ ĠyuÃ¨Ġ
lÃłngĠ mÃłnĠ
ĠdÃłĠshÇĲĠ guÇİnĠ
Ġ si
Ġ fÅ«Ġ
Ġ mÃŃnĠzhÇĶĠ
ĠĠĠ 2ĠyuÃ¨Ġ
tÃ³ng ĠbÃ¹Ġ
fÇİ ĠzhÃ¬Ġ
dÃ²ng ĠshÃ¬Ġ
yÃ¨ ĠzhÅįngĠ
qÃ¬ ĠzhÅįngĠ
zÇĴng ĠshÃ¬Ġ
mÃ©ng ĠdÃ©Ġ
yuÃ¡nĠ yÄ«nĠ
xÄ«nĠ zÄĵng
mÃ¹Ġ shÄ«Ġ
ĠtÃ³ng ĠyuÃ¨Ġ
juÃ©Ġ cÃ¨Ġ
kÄĽĠ kÃło
guÄ«Ġ gÃ©Ġ
biÄģoĠ tÃŃĠ
ĠyÄĽ ĠhuÃ¬Ġ
ĠrÃºĠ cÇĲĠ
7 6ĠniÃ¡nĠ
a yĠĠĠ
e mĠ
Ġ tÃ¡n
Ġ qÇĶĠdÃłiĠ
qÅ« ĠyÃ¬ĠyuÃ¡nĠ
shÇĴu ĠÄĽrĠ
quÃ¡n ĠjÄ«Ġ
shÃ©n ĠfÃ¹Ġ
zhÅ« ĠduÅįĠ
kÃłn ĠdÃło
ĠyÃ¬Ġ qÃŃng
shÃłngĠ shÄĵngĠ
ĠzhÄ«Ġ qiÃºĠduÃ¬Ġ
ĠdÃ©Ġ lÃ¡nĠ
ÄģnĠ dÅįngĠnÃŃĠ
zÇĴngĠ dÅ«
yÇĲĠ qiÃ¡nĠ
Ġt Ã²ngĠ
Ġ liÃ¡oĠ
ĠĠĠ h
jiÄģng ĠbÃ¨iĠ
duÅį ĠlÃ¬ĠyÃł
zuÃ¬ ĠjÃ¬nĠdeĠ
kÄĽ ĠyÃ³uĠ
tÃłi ĠjÃŃĠ
jiÃ¹ ĠrÃ¨nĠ
gÃło ĠzhÅįngĠ
lÃº ĠxÃŃngĠmÃ¹Ġ
ĠhÃ©Ġ rÃ©nĠ
yÄ«Ġ mÃŃngĠ
ĠguÃ³Ġ jÃ¬
ĠyÄ«Ġ xÃ¬ĠliÃ¨Ġ
nÃ¡nĠ zhÇĶĠjuÃ©Ġ
jiÄĵĠ shÅįu
zÃºĠ xiÃ©
kÄģiĠshÇĲĠ leĠ
mÃ¬ngĠ yÃ¹nĠ
zhuÇİnĠ bÅįĠ
ĠdeĠchÃ©ngĠ gÅįngĠ
Ġ190 9ĠniÃ¡nĠ
ĠwÇĶ ĠyuÃ¨Ġ
6 2ĠniÃ¡nĠ
P C
t on
ĠĠĠ 2003
le ĠyÇĲĠ
dÃło ĠdÃ©Ġ
wÇĶ ĠdÃłĠ
lÃŃn ĠjÃ¬nĠdeĠ
ĠrÃ¬Ġ ÄĽrĠ
fÃ¹Ġ xÄ«ng
jÃ¹Ġ tÇĲĠ
kÄģiĠ qÇĲĠ
fÄģĠ yÃ¹Ġ
qÃ¬Ġ guÄģnĠ
shÃ©nĠ mÃ¬Ġ
xiÄģnĠ qiÃ¡nĠ
bÄģĠshÃ¬Ġ lÃ¹ĠxiÃłnĠ
ĠdÅįng ĠxÄ«Ġ
ĠÃ¨r ĠrÃ©nĠ
ĠĠĠgÃłiĠ shÃ¹Ġ
sÄģnĠjiÇİo ĠxÃŃngĠ
R e
Ġ gÃłnĠ
yÃ¹ ĠwÃ¨iĠ
duÃ¬ ĠchÃ©ngĠyuÃ¡nĠ
bÄģ ĠkÃ¨Ġ
197 5ĠniÃ¡nĠ
ro w
ĠdeĠ jÃŃĠ
ĠchÃ©ngĠ guÇĴĠ
ĠdÃłoĠ dÃ©Ġ
ĠqÃŃ ĠyÃ¬Ġ
ĠjÄ«Ġ zhÃ²ngĠ
ĠjiÄģĠ qiÃ¡ng
xiÄģngĠ hÃ¹
ĠmÃŃngĠ lÃ¹Ġ
ĠdÃ©Ġ fÄĵnĠ
jiÃłoĠ xiÇİoĠ
mÃ¹Ġ dÃ¬ĠshÃ¬Ġ
xÃ¬ngĠ cÃºnĠ
kÄĽĠ qiÃ¡nĠwÇİngĠ
ĠjÃ¹Ġ chÇİngĠ
gÇĶĠ diÇİn
kÇİĠ sÄ«ĠdÃ¬ĠlÃ¬Ġ
dÃºĠ shÅ«Ġ
ĠyÄĽĠ chÄĵngĠ
ĠliÃ¡nĠ bÄģngĠ
kÄĽnĠ tÇİĠjÄ«Ġ
ĠK Ġ
liÃ¡nĠxÃ¹ ĠjÃ¹Ġ
ĠĠĠbeg inĠ
9 1
U C
Ġ hÃ¡iĠshÃ¬Ġ
ĠĠĠ cÃ³ng
le rĠ
yÃ¹ ĠshÃ¬Ġ
shÃłng ĠzÃłiĠ
shÃłng ĠyÇĶĠ
dÃłi ĠÄĽrĠ
zhÃŃ ĠrÃ©nĠyuÃ¡nĠ
wÃ©n ĠdÃ¬Ġ
tÃ¨ ĠyÇĶĠ
chuÃłng ĠyÃ¬Ġ
gÄĽi ĠchÅ«Ġ
nÃŃng ĠxiÃłĠ
ĠdeĠ wÃ¨iĠ
ĠzÃłiĠ jÃŃĠ
ĠguÃ³Ġ jÅ«n
ĠrÃ¬ ĠyuÃ¡nĠ
ĠyÃ³uĠ kÃ¨Ġ
ĠhuÃ²Ġ yÃ¹nĠ
zhÃ¨ngĠshÃ¬Ġ chÃ©ngĠlÃ¬Ġ
ĠjÄ«ngĠ chÃ¡ng
lÃ¨Ġ bÇĲĠ
ĠbÃ¹ĠtÃ³ng ĠyÃºĠ
mÃłoĠ xiÇİn
guÇİngĠbÅįĠ diÃłnĠtÃ¡iĠ
Ġsection ĠĠĠbeginĠ
7 9ĠniÃ¡nĠ
ĠĠĠ jÄ«ngĠ
dÃ¹ ĠshÃ¬Ġ
liÃ¡n ĠxiÃłnĠ
guÇİn ĠdÃłoĠ
tuÅį ĠkÃ¨Ġ
ĠshÃŃĠ huÃ¬Ġ
ĠdÃłoĠ lÃ¹
mÃŃngĠ xiÇİnĠ
ĠjÃ¬Ġ sÃ¬Ġ
duÃ¬Ġ kÃłngĠ
ĠtÄģĠ yÄĽĠshÃ¬Ġ
cÇİiĠ fÇİngĠ
gÇİnĠ qÃŃngĠ
hÃ¹nĠ xi
ĠsÄģn ĠguÃ³Ġ
fÃ¹ĠzÃ© ĠrÃ©nĠ
c ÄģĠ
ĠĠĠ lÃ¬ng
yÇĴu ĠbÃ¹ĠtÃ³ngĠ
fÃ¹ ĠbÃ¹Ġ
fÇİ ĠrÃ©nĠ
shÇĴu ĠshÃ¬Ġ
dÃłĠ chÃ©nĠ
ĠyÇĴuĠ hÇİoĠ
sÄ«Ġ tÃ¨Ġ
ĠkÃ¨ ĠshÃ¬Ġ
fÄģĠ yÃ¡nĠ
shÇĴuĠ dÃ¹Ġ
tÃ¨Ġ shÅ«ĠdeĠ
ĠqiÃº ĠjÃ¬Ġ
jiÄĵĠ tÃ¬Ġ
ĠjÃ¹Ġ bÃ¨iĠ
ĠdeĠbÃ¹Ġ fÃ¨n
ĠĠĠbÄĽnĠ shÇĶĠ
ĠgÄĵĠ lÃºnĠ
ĠsÃ¬ ĠyuÃ¨Ġ
ĠĠĠqÃŃ ĠhÃ²uĠ
gÃłoĠshÃ¬Ġ pÃ¡iĠ
jiÄĵĠxiÃłĠ lÃ¡iĠdeĠ
ĠdÃłiĠmÇİĠwÃ¨iĠ 0
I G
p Ã¬Ġ
s ch
v eĠĠĠ
Ġ wÇİng
ĠĠĠ gÃ¨
shÃ©n ĠxuÃ©Ġ
zÇİi ĠxiÃłngĠ
ĠchÃ©ngĠ zhÃ¨n
ĠyÄ«Ġ gÃ²ngĠ
ĠjiÃłn ĠjiÃłnĠ
ĠhÃ²uĠ fÄģngĠ
ĠÄĽr ĠkÃ¨Ġ
zuÃ¬Ġ xÄ«nĠ
cÃ¬Ġ ziĠ
yÃŃĠ jÅ«Ġ
ĠhuÃ²Ġ shÃ¨ngĠ
ĠyÃ¡nĠ zhÃ²ngĠ
bÇİoĠhÃ¹Ġ qÅ«Ġ
kÃ²ngĠ gÇĶ
ĠdeĠjÄ«Ġ bÄĽnĠ
nÃ¨Ġ shÄĽngĠ
xÃºnĠhuÃŃĠ yÇİnĠchÃłngĠhuÃ¬Ġ
chuÃłngĠbÃłn ĠrÃ©nĠ
ĠsuÅįĠ xiÄĽĠ
nÃ¡ĠpÃ²Ġ lÃºnĠ
6 4ĠniÃ¡nĠ
7 7ĠniÃ¡nĠ
8 6Ġ
Ġ yuÃłnĠ
yÃ³u ĠdeĠ
shÃłng ĠyÇĲĠ
shu ÃŃ
ĠwÃ¨iĠ bÃ¹Ġ
ĠyÄ«Ġ duÃ¬Ġ
lÃ¹Ġ kÇĴuĠ
ĠdÃłn ĠzhÃ¨Ġ
ĠrÃ¨nĠ qÄ«Ġ
jiÄģoĠ diÇİnĠ
jÇĲngĠ bÃłoĠ
cÃ¨Ġ huÃłĠ
ĠhÃ²uĠlÃ¡i ĠbÃ¨iĠ
dÅįngĠnÃ¡nĠ yÃłĠ
ĠqÄ« ĠyuÃ¨Ġ
ĠyÃ²ng ĠyÇĲĠ
mÃŃĠnÇĲĠ zhuÄģnĠjÃŃĠ
roun dĠ
pÄ«ng ĠpÄģng
8 8Ġ
Ġ dÄ«ng
Ġ dÇĲĠ
Ġ sÄģnĠniÃ¡nĠ
nÃ¨i ĠhÃ©Ġ
liÃ¨ ĠjiÃłnĠ
shÃ©n ĠqÃŃĠ
dÇİ ĠjÃ¬nĠ
rÃ©ng ĠshÃ¬Ġ
ĠrÃ©nĠ bÃ¹Ġ
ĠyÃ¬Ġ zuÃ²Ġ
chÃ¡ngĠ shÄģĠ
qÄ«ngĠ chÅ«nĠ
ĠdÄģngĠ jÃºĠ
ĠĠĠ199 2ĠniÃ¡nĠ
yÃ©Ġ fÅ«Ġ
sÄ«ĠdÃ¬Ġ ÄģnĠ
4 000
Ġ sÅįng
Ġ yuÃ¡nĠwÃ¨iĠ
ĠĠĠ ÃłiĠ
zhÃŃ ĠyÃºĠ
dÇİo ĠxiÃłnĠ
10 00Ġ
guÃłn ĠmÃ¹Ġ
195 0ĠniÃ¡nĠ
guÃ¬ ĠdeĠ
kÇĴng ĠjÃ¹Ġ
yÃ¬Ġ bÄģnĠ
shÄĵngĠ zhÇİngĠ
xiÃłĠ tiÄģnĠ
ĠyÄ«n ĠhÃ©Ġ
sÄģnĠ shÃŃĠniÃ¡nĠ
qÄ«ngĠ hÇİiĠ
chuÃ¡nĠ jiÃłoĠshÃ¬Ġ
5Ġ wÃłn
ĠyÄ«ngĠ bÃłngĠ
ĠliÃ¡nĠ xÃ¹Ġ
ĠnÇļĠ zÇĲĠ
3 ĠgÅįngĠlÇĲĠ
t Ãł
Ġ chÃ¹Ġ
Ġ bÄģoĠhÃ¡n
xÃŃ ĠjÃ¬nĠpÃŃngĠ
cÃºn ĠyÃºĠ
194 4ĠniÃ¡nĠ
ĠzÃłiĠ tÃ¡iĠwÄģnĠ
chÃ©ngĠ zhÃ¨nĠ
ĠxÃŃngĠ wÃ©i
ĠjiÄģĠ lÄģĠ
xiÄģngĠ liÃ¡nĠ
shÃ¹Ġ zhÃŃĠ
ĠjÅ«nĠ zhÇİngĠ
sÃ¬Ġ yuÃłnĠ
ĠxÄ«nĠ jiÄģngĠ
xÄ«ngĠ qÇĲĠ
cÃŃĠ shÃłn
dÇİoĠzhÃ¬Ġ leĠ
kÄģnĠ wÃ¹Ġ
tiÄĽĠlÃ¹ ĠgÅįngĠsÄ«Ġ
mÄĽiĠshÃ¹Ġ guÇİnĠ
6 6Ġ
B DĠ
de rĠ
ĠĠĠ 2024ĠniÃ¡nĠ
bÃ¨i ĠrÃ©nĠ
lÃŃn ĠshÃ¬Ġ
liÃº ĠxÃŃngĠdeĠ
lÃ¡n ĠdÃ©Ġ
yÃŃng ĠdÃ¬Ġ
zhuÃłn ĠjÃ¬Ġ
zhÃ¬Ġ liÃ¡oĠ
jiÃ©Ġ hÅ«n
cÃ¡iĠ dÃ¬ngĠ
cÄģnĠ kÇİo
ĠzhÃ¨ ĠlÇĲĠ
ĠxÃ¬ngĠ biÃ©Ġ
ĠniÃ¡nĠshÃ¬ĠjiÃ¨Ġ bÄĵiĠ
inc lu
Ġ jiÄģn
Ġ tÃ©ngĠ
Ġ juÃ©ĠdÃ¬ng
Ġ chÃ¨ĠxiÄģoĠ
ĠĠĠ dÃłiĠ
Åįu ĠzhÅįuĠdeĠ
zhÃłn ĠjiÃłnĠ
huÃ¡ng ĠhÃ©Ġ
yÃłng ĠbÄĽnĠ
ĠlÃ¬Ġ jÄ«ngĠ
ĠxÃŃngĠ zÇĴuĠ
jÄ«ngĠ fÃ¨iĠ
diÃłnĠ rÃ³ngĠ
bÇİoĠ xiÇİn
bÇİoĠ yÃ¹Ġ
yÃłĠ tÃ¨Ġ
nÃŃĠ gÇĶĠlÄģĠ
zÄ«Ġ jÄ«n
zhÄĵngĠ qÃ¬Ġ
wÄĵiĠ yÃŃĠ
yÇĲnĠ qÃŃng
qiÄģnĠ rÃ¹Ġ
dÃºĠ tÃ¨Ġ
chÇĶĠ lÇĲ
wÃ¡ngĠchÃ¡o ĠdeĠ
hÃłnĠlÃŃnĠ yuÃłnĠ
8 1ĠniÃ¡nĠ
v erĠ
Ġ jiÃłngĠ
Ġ fÃ¡nĠ
ĠĠĠ 1ĠyuÃ¨Ġ
tÃ³ng ĠzhÃ¬Ġ
qiÃ¡n ĠyÄ«Ġ
mÇİ ĠdÃ¬Ġ
hÇİi ĠjÅ«nĠdeĠ
luÃ³ ĠdeĠ
ĠniÃ¡nĠ lÃŃng
ĠzhÅįngĠ shÃŃĠ
ĠyuÃ¡nĠ sÃ¹
yÃ³uĠ lÃ¡iĠ
ĠchÅ«Ġ shÄĵngĠzÃłiĠ
chÃ¡ngĠ zhÃ¹
jiÃ¨Ġ miÃłnĠ
ĠshÃ¨Ġ dÃ¬ngĠ
wÇİngĠ mÃŃnĠ
zhuÄ«ĠsÃ¹ ĠzhÃ¬Ġ
Ġsection ĠĠĠendĠ
b ÃŃ
Ġ jÇĲng
Ġ piÃłnĠ
ĠĠĠ zhÃ¹ĠzuÃ²Ġ
sÄ« ĠjÃŃĠ
dÃ© ĠkÃ¨ĠsÃłĠsÄ«Ġ
pÃŃng ĠjÃŃĠ
xiÃłng ĠtÄģĠ
tÃ¡i ĠjÃŃĠ
guÃ² ĠshÃ¬Ġ
mÃ¬ ĠxÄ«ĠxÄ«Ġ
gÃ¹ n
ĠdeĠ shuÅįĠfÇİĠ
ĠzÃłiĠ yÃŃĠgÃ¨Ġ
ĠjÅ«n ĠgÅįngĠ
ĠwÃ©iĠ yÄ«ĠdeĠ
ĠzhÃ¨ngĠ dÇİngĠ
yÇİnĠ huÃł
jiÇİnĠ pÇĶĠ
qiÄģnĠ wÇİngĠ
Ã©rĠ zi
ĠĠĠT e
zÅ«Ġ jiÃ¨
ĠwÃº ĠxiÃłnĠ
ĠhuÃ²ĠdÃ© ĠyÄ«ĠmÃ©iĠ
ĠdÃłĠduÅįĠ shÃ¹
mÃ¨ngĠjiÄģĠ lÄģ
A V
Ġ xÄ«nĠdeĠ
yuÄĵ ĠkÃ¨Ġ
yÃ¡ng ĠjÄ«Ġ
zhuÄģng ĠyÇĴuĠ
chuÄģn ĠzhÃ¹Ġ
ĠdeĠ qÃŃngĠkuÃłngĠ
ĠdÃ¬Ġ 1
ĠlÃ¬Ġ chÃ©ngĠ
ĠyÇĲ ĠgÅįngĠ
sÄ«Ġ fÇİĠ
ĠyÄ«Ġ cÃŃ
ĠdÃłĠ liÃłngĠdeĠ
ĠjiÃłnĠ leĠ
ĠduÃ¬Ġ yÃ¬ngĠ
chÇİngĠ jÇĲng
ĠjÃ¹Ġ fÄĵngĠ
zÃ©Ġ rÃ¨n
ĠxiÃłĠ xiÃ¡Ġ
tÃºĠ jÄ«ngĠ
ĠduÅįĠ shÃ¹Ġ
zhuÄģnĠ kÄĵĠxuÃ©Ġ
shÄĽnĠ yÃ¡ngĠ
ĠbÇĲĠ sÃłi
Ġw ÄģĠ
biÃłnĠchÃ©ngĠ leĠ
c huÃ²
Ġ tÇĶ
Ġ kÃłnĠ
yu Äģn
jiÃłn ĠyÃºĠ
xiÇİo ĠpÃŃngĠ
jiÃł ĠrÃ¬Ġ
194 8ĠniÃ¡nĠ
ruÃ¬ ĠkÃ¨Ġ
ĠbÃ¹Ġ gÅįngĠ
ĠshÃŃĠ qÄ«ĠniÃ¡nĠ
kÄģiĠ bÅįĠ
yÃ²ngĠ hÃ¹
qÄ«Ġ kÄģnĠ
dÇİngĠ wÄĽiĠ
Ġt ÄģnĠ
Ã¨Ġ tÃºĠ
ĠyÃºĠ199 8ĠniÃ¡nĠ
mÃ¨iĠ mÃ¨i
ĠzÃłiĠcÇĲĠ qÄ«ĠjiÄģnĠ
5 3ĠniÃ¡nĠ
Ġ zhÃºĠ
fÄģ ĠyÄ«nĠ
jÄ«n ĠzhÅįngĠ
zhÃ²ng ĠyÃ¬ĠyuÃ¡nĠ
10 ĠgÃ¨Ġ
nÇļ ĠshÃ¬Ġ
mÇĶ ĠshÃ¬Ġ
ta in
ĠdeĠ yÇĴuĠ
ĠbÃ¹Ġ luÃ²
ĠyuÃ¨Ġ qÃ¬Ġ
ĠyÃ¬Ġ tÃŃĠ
ĠjiÃłnĠ zhÃ¨ngĠ
jiÃłoĠ duÅįĠ
nÇļĠ gÄĵĠshÇĴuĠ
ĠrÃ©nĠkÇĴuĠ pÇĶĠchÃ¡Ġ
ĠyÄĽĠ mÃ©iĠyÇĴuĠ
rÃ¨Ġ mÃ©nĠ
ĠzhÇĲĠ yÃłoĠ
ĠhÃ²uĠlÃ¡i ĠzÃłiĠ
zhÃłnĠzhÄĵng ĠzhÅįngĠ
mÃ¡oĠzÃ©Ġ dÅįng
ĠjiÄĵĠwÃ¨iĠ lÃ¹ĠdÃ¬Ġ
8 1Ġ
8 2Ġ
B M
s ĠdeĠ
y leĠ
ĠĠĠ jiÄģngĠ
ĠĠĠ zhÃłnĠhÃ²uĠ
sÃłi ĠshÃ¬ĠzhÅįngĠ
mÇĶ ĠyÇĶĠ
st ĠĠĠ
shÃ¹n ĠtiÄģnĠ
ĠdÃ¬Ġ liÃ¹
ĠwÃ©iĠ kÃ¨Ġ
ĠtÃ³ng ĠniÃ¡nĠ9ĠyuÃ¨Ġ
ĠbÄĽnĠ shÄĵnĠ
jÇĲngĠ bÃło
zÃºĠqiÃºĠ liÃ¡nĠsÃłiĠ
ĠbÇİoĠ luÃ³Ġ
dÅįngĠjÄ«ngĠ dÅ«Ġ
ĠzÃłiĠzhÅįngĠguÃ³Ġ dÃłĠlÃ¹Ġ
tÃ³uĠrÃ¹Ġ shÇĲĠyÃ²ngĠ
6 7Ġ
t Ã¹Ġ
Ġ in
Ġ bÃ³ĠshÃ¬Ġ
yÇĴu ĠshÃ¬Ġ
yÃ¹ ĠyÇĴuĠ
shÃłng ĠhÃ©Ġ
jÅ«n ĠrÃ©nĠ
jÃ¬n ĠchÃ©ngĠ
zhÇİng ĠlÇĲĠ
gÇİn ĠdeĠ
wÃ² ĠsÄ«Ġ
ĠbÃ¹Ġ bÄ«ng
wÃ©nĠ bÄĽnĠ
gÃ©Ġ lÄĵiĠ
jÄ«nĠ qÇĶĠ
lÇľĠ shÄ«
zÃºĠ gÃ²uĠdeĠ
ĠdeĠyÄ«Ġ xiÄĵ
xÃŃngĠ xiÃłngĠ
suÃŃĠ zhÃ¹
ĠÃło ĠdÃ¬ĠlÃ¬Ġ
ĠtÃ¡iĠ bÄĽi
yÃ³uĠxÃ¬ ĠzhÅįngĠ
ĠshÃ¬ĠwÄĵiĠ zhÄĽĠ
lÇĲĠgÅįngĠ dÃłĠxuÃ©Ġ
ĠshÃ¬ĠshÃ¬ĠjiÃ¨ ĠshÃłngĠ
6 8ĠniÃ¡nĠ
G oog
Ġ bÃłi
Ġ aĠ
lÃ¡i ĠdÃ©Ġ
zhÇĴng ĠjiÄģĠ
qiÄģn ĠshÃ¬Ġ
hÃ³ng ĠshÃŃĠzÃ¬Ġ
bÃłi ĠdeĠ
ĠwÃ¨iĠ gÄģiĠ
ĠwÃ¨iĠ rÃ¨ĠdÃłiĠ
ĠzÃłiĠ bÄĽiĠjÄ«ngĠ
ĠyÃ¬Ġ chÃ©ngĠ
ĠyÄ«Ġ xuÃ©ĠyuÃłnĠ
ĠsÄ«Ġ xiÇİng
duÃ¬Ġ fÄģngĠ
ĠtÄģĠ cÃ³ngĠ
jiÃłoĠ gÄģoĠdeĠ
tÇĲĠ cÄģoĠ
bÇĲĠ cÇĲĠ
nÃ©ngĠ lÃ¬ĠdeĠ
yuÃłnĠ xiÃłoĠ
ĠrÃ¡n ĠÃ©rĠzÃłiĠ
jÃºĠ miÃłnĠ
hÃ¡nĠ gÃłiĠ
wÅ«Ġ rÇİn
ĠzuÃ¬Ġ hÃ²u
ĠzhÃŃ ĠdeĠ
ĠliÇİng ĠguÃ³Ġ
yÃºnĠnÃ¡nĠ shÄĽngĠ
NB AĠ
C R
li n
yÇĴu ĠbÃ¹ĠtÃ³ngĠdeĠ
jiÃ¨ ĠyÃºĠ
tÃłi ĠÄĽrĠ
dÃ¡ ĠhÃ©Ġ
ĠdÃłĠ yÇĶĠ
zÃ¬Ġ zhÇĶĠ
ĠtÃ³ng ĠniÃ¡nĠ11ĠyuÃ¨Ġ
kÄĽĠ fÄĵnĠwÃ©iĠ
ĠshÃ¨Ġ bÃ¨i
zÄ«Ġ biÃ©
xiÄģnĠ fÄģĠ
quÃ¨Ġ bÇİo
ĠĠĠlÃ¬ĠshÇĲĠ yÃ¡nĠgÃ©Ġ
fÄģĠshÄĵngĠ hÃ²uĠ
ĠdÃ¬ĠshÃŃĠ Ã¨rĠ
xiÄģngĠdÄģng ĠyÃºĠ
7 8ĠniÃ¡nĠ
r Ã¡oĠ
Ġ bÄĵiĠ
Ġ kÄĽĠnÃ©ngĠshÃ¬Ġ
xiÃłn ĠzÃłiĠ
gÃ¨ ĠgÃ¨Ġ
shÇĲ ĠsÄ«Ġ
jÃ¹ ĠrÃ©nĠ
pÃŃng ĠxÄ«Ġ
195 8ĠniÃ¡nĠ
yÄ«Ġ xiÄĵ
ĠdÃ¬Ġ 4Ġ
ĠyuÃ¨Ġ qiÃºĠ
ĠsÄ«Ġ dÃ¹nĠ
lÃ¹Ġ xÃ¹
jiÄĵĠ qÅ«Ġ
ĠfÃ¹Ġ nÇļĠ
yÃ¹nĠ suÃłnĠ
shÃ©nĠ jÄ«ng
ĠshÃ¬ĠjiÃ¨ ĠgÃ¨ĠdÃ¬Ġ
ĠshÃ¹Ġ jÃ¹Ġ
ĠzhÇĲĠ nÃ©ngĠ
liÃ¡nĠsÃłi ĠqiÃºĠduÃ¬Ġ
shÇİnĠxÄ«Ġ shÄĽngĠ
ĠlÃ¬ĠfÇİĠ wÄĽiĠyuÃ¡nĠ
ĠIST AT
G C
p Äĵi
Ġ fÄģĠbÃ¹Ġ
ĠĠĠ duÅįĠ
fÇİ ĠhÃ©Ġ
xiÄģng ĠdÃłoĠ
xiÃłng ĠyÇĶĠ
cÇĲ ĠyÄ«Ġ
lÃŃn ĠjÃ¬n
ku ÄģĠ
qiÄģn ĠniÃ¡nĠ
dÅįu ĠyÇĲĠ
huÃŃ ĠfÃ¹Ġ
ĠbÃ¹Ġ zÃº
ĠyuÃ¨Ġ dÃºĠ
dÃłĠ dÅįngĠbÃ¹ĠdÃłĠqÅ«Ġ
ĠchÃ©ngĠ qiÃ¡ngĠ
ĠhÃ²uĠ lÃ¡iĠdeĠ
ĠjÄ«Ġ qÃ¬Ġ
ĠjÄ«Ġ qÃ¬ĠrÃ©nĠ
ĠbÃ¬ngĠ jiÄģngĠqÃŃĠ
zhÇĲĠ lÃ¬ngĠ
qÇĲĠ fÄģĠ
pÃ¡iĠ fÃłngĠ
cÄģnĠ mÃ³uĠ
ĠhÃ©ĠguÃ³Ġ jiÄģĠ
ĠyÇĴuĠyÄ«Ġ xiÄĵ
fÇĴuĠ juÃ©Ġ
huÇİnĠ mÃłnĠ
Ġ ÅįuĠzhÅįu
ch ÇİoĠ
lÇĲ ĠyÇĴuĠ
nÃ¡n ĠzhÃ¬Ġ
jiÃło ĠyÃ¬Ġ
shÄ« ĠlÃ¬Ġ
shÄģ ĠleĠ
shÄĽn ĠyÃ¬Ġ
dÃ¬Ġ sÄģnĠ
ĠzhÄ«Ġ nÇļĠ
ĠzhÅįuĠ biÄģn
ĠshÃłngĠ shÄĵngĠ
hÇİiĠ wÃłi
bÄģĠ hÃ¨Ġ
biÄģnĠ fÃºĠ
ĠĠĠS h
dÄģ ĠzÃłiĠ
huÃ¡ĠshÃ¨ngĠ dÃ¹nĠ
S O
ĠĠĠ 2000
huÃ¬ ĠchÃ©ngĠyuÃ¡nĠ
shÃ¨ ĠjÄ«Ġ
xÄ«n ĠhÃ©Ġ
fÃº ĠkÃ¨Ġ
dÇİo ĠdÃłn
huÃ¡ ĠyÇĶĠ
xiÅ« ĠxÄ«Ġ
on eĠ
al lĠ
ĠshÃŃĠ shÃŃĠ
jÃ¬Ġ hÃ²uĠ
fÄĵnĠ shÃ¹Ġ
sÃłiĠ tÇĲngĠ
xuÇİnĠ piÃłoĠ
fÃłnĠ diÃłnĠ
ĠC o
sÄģiĠ bÃłi
ĠgÄĵĠ qÇĶ
niÇĶĠyuÄĵ ĠshÃ¬Ġ
kÄĵĠjÃ¬Ġ dÃłĠxuÃ©Ġ
jiÄģĠlÃ¬ĠfÃºĠ nÃŃĠyÃł
mÃ³ĠtÃ¨ ĠÃ©rĠ
Ġ guÇİngĠzhÅįuĠ
ĠĠĠ yuÃ¨
zhÃ²ng ĠxÃŃngĠ
zÄ« ĠdeĠ
jiÇĶ ĠzhÅįuĠ
194 1ĠniÃ¡nĠ
rÃłng ĠrÃ©nĠ
ĠshÃŃĠ zÃ¬
ĠdÃ¬Ġ chÇĶĠ
ĠyÇĶĠ lÇĲĠ
xÄ«nĠ shÄĵngĠ
ĠbÃ¬ngĠ xiÃłngĠ
ĠkÃ¨Ġ lÇĶĠ
gÄģoĠ fÄĵngĠ
yÃ¨Ġ wÃ¹
ĠtÃ¨Ġ lÇİngĠ
chÅįngĠ fÃ¨nĠ
ĠzhÃŃ ĠdÃło
zhÇĶĠtÃŃĠ qÅ«Ġ
ĠshÃ¬ĠyÄ«ĠkÄĵĠ hÃ©ngĠxÄ«ngĠ
mÃ¹ĠnÃŃĠ hÄĵiĠ
7 4Ġ
I M
Ġ zhÄģ
Ġ qÃŃngĠ
Ġ zÇİoĠniÃ¡nĠ
ĠĠĠ zuÃ²Ġ
huÃł ĠxiÃłnĠ
cÃ¬ ĠrÃ¬Ġ
wÇĶ ĠrÃ©nĠ
wÃłi ĠxÃŃngĠ
fÇİng ĠzhÄ«Ġ
te l
ĠwÃ¨iĠ gÅįngĠ
ĠhÃ©Ġ mÇİĠ
ĠzhÅįu ĠguÃ³Ġ
jÄ«ngĠ yÄ«ngĠ
ĠÃ©rĠ fÄĵi
pÃ¡iĠ hÃ¡ng
shÃ¨Ġ dÃ¬ngĠ
ĠrÃºĠ jÄ«nĠ
fÄģnĠ chuÃ¡nĠ
R o
Ġ tÃ¡o
ĠĠĠ qÃ¬ĠhÃ²uĠ
on eĠĠĠ
ar eĠĠĠ
ĠdeĠ guÄģnĠxÃ¬Ġ
ĠgÅįngĠ guÃ³Ġ
dÅįngĠ bÃ¹ĠdeĠ
zhÇĲĠ biÄģoĠ
cÃ¬Ġ quÃ¡nĠguÃ³Ġ
lÃŃnĠ nÃłĠ
biÃłnĠ gÄĵng
gÃ²uĠ wÃ¹Ġ
gÄĵngĠ huÃłn
ĠĠĠR o
ĠdÃ¬ĠÃ¨r ĠgÃ¨Ġ
5 5ĠniÃ¡nĠ
7 7Ġ
n Ã²ngĠ
Ġ zhÄĵngĠyuÃ¨Ġ
men tĠĠĠ
dÅįu ĠyÃ¹ĠshÇĲĠ
zÃłn ĠchÃ©ngĠ
zÄģo ĠdÃło
ĠzÃłiĠ yuÃ¨Ġ
ĠzÃłiĠ bÄģĠ
ĠbÃ¹Ġ lÇİngĠ
ĠxiÃłn ĠlÃ¬Ġ
xÄ«Ġ fÄģngĠ
jÄ«ngĠ tÇĲĠ
tiÃ¡nĠ xÃ¬nĠ
shÇİoĠ liÃłngĠ
sÃłĠ zhÅ«Ġ
ĠjiÄĵĠ zhÃ¹Ġ
jiÃłnĠzhÃ¹Ġ wÃ¹Ġ
ĠÃ¨r ĠyuÃ¨Ġ
xÄ«nĠlÇĲĠ xuÃ©Ġ
ĠqÄ«ĠxÄ«Ġ shÄĵnĠdÃ¹Ġ
Ãłi ĠhÃ©Ġ
zhÃ¨ng ĠhÃ©Ġ
xÄ«n ĠxÄ«ĠlÃ¡nĠ
diÇİn ĠwÃ¨iĠyÃºĠ
lÇĶ ĠjÃŃĠ
ĠdeĠ Ã©rĠziĠ
ĠbÃ¹Ġ yÇĶĠ
ĠgÅįngĠ yuÄĵĠ
kÄĽĠ yÃ²ngĠyÃºĠ
sÃ¬Ġ hÅ«Ġ
bÄģnĠ diÇİnĠ
ĠdÃ¬ĠÃ¨rĠ cÃ¬
ĠfÄģĠ biÇİoĠ
miÃ¡oĠshÃ¹Ġ leĠ
00ĠmÇĲ ĠdeĠdÃ¬ĠqÅ«Ġ
T T
v e
Ġ Ã¨
ĠĠĠ dÄģng
ĠĠĠ 11
yÃº ĠniÃ¡nĠ
shÄĵng ĠdÃłoĠ
jÇĲ ĠnÃ¡nĠ
yÃ¡n ĠhÃ©Ġ
dÄĵng ĠjÄ«Ġ
ĠzÃłiĠ 2010ĠniÃ¡nĠ
lÃ¬Ġ ziĠ
ĠdÃłoĠ guÄģngĠ
ĠjÃ¬Ġ zhÄĽĠhuÃ¬Ġ
lÃ¹Ġ yÇĲngĠ
ĠjÅ«nĠ tuÃ¡n
liÃ¡nĠ bÅįĠ
yÇĲngĠ zhÇİnĠ
ĠbÄĽnĠ tÇĶ
biÄģnĠ jÃ¬ng
xiÄĵĠ gÄĵn
ĠqÃŃĠzhÅįngĠ bÄģoĠkuÃ²
sĠĠĠ S
ĠzhÃŃĠ wÃ¹Ġ
zhÃłnĠdÃ²u ĠjÄ«Ġ
zhÄĽnĠ duÃłnĠ
sÄģiĠÄĽrĠwÃ©iĠ yÃł
Ġ qiÃ³ng
ĠĠĠ 7Ġ
jiÄģ ĠshÃŃĠ
dÃłi ĠshÃŃĠ
shÇĴu ĠbÃ¨iĠ
zhÃ²ng ĠzhÃ¬Ġ
bÇİo ĠshÃ¬Ġ
ĠshÃ¬Ġ rÃ¬ĠbÄĽn
ĠhÃ©Ġ zhÅįngĠguÃ³Ġ
ĠdÃ© ĠyÃ¬Ġ
fÄĵnĠ fÄĵnĠ
ĠtÃ³ng ĠbÃ¹Ġ
ĠrÃ¨nĠ zhÃ¨ngĠ
juÃ©Ġ xÄ«nĠ
zÃºĠ zÇĴngĠ
kÄĽĠyÇĲĠ yÃ²ngĠ
ali gnĠ
ĠxÃŃngĠzhÃ¨ng ĠzhÅįngĠxÄ«n
diÃłnĠzÇĲ ĠyÃ³uĠxÃ¬Ġ
6 9ĠniÃ¡nĠ
6 1ĠniÃ¡nĠ
C D
ĠĠĠ huÃ²
zuÃ² ĠyÇĴuĠ
kÄĽ ĠxÃŃngĠ
tiÄĽ ĠdÃło
mÃ©ng ĠyÇĴuĠ
qÄ«n ĠshÃŃĠ
yÇĴng ĠshÃ¬Ġ
ĠbÃ¹Ġ dÃłĠ
ĠbÃ¹Ġ shÇĶĠ
ĠrÃ©nĠ shÃ¹
ĠgÅįngĠ jÄ«n
ĠgÅįngĠ bÃ¹ĠdeĠ
ĠzhÄ« ĠyÃºĠ
ĠyuÃ¡nĠ lÃ¡iĠdeĠ
shÄĵngĠ xiÃłoĠ
jiÃłoĠ xiÇİoĠdeĠ
xiÇİoĠ xiÃłngĠ
sÃ¨Ġ qÃŃngĠ
jiÇİnĠ cÃ¨
liÇİngĠ zhÄĽĠ
Ġt Ã²ng
luÃ³ĠmÇİĠ nÃŃĠyÃłĠ
ĠgÄģiĠshÄĽngĠfÃ¨nĠwÃ¨iĠfÇİĠguÃ³Ġ bÄĽiĠbÃ¹Ġ
ĠfÄĵi ĠlÃ¬Ġ
guÃ³ĠdeĠtÃ¨ĠyÇĴuĠ zhÃŃĠwÃ¹Ġ
2 ĠhÃło
7 6Ġ
Ġ zhÇĶnĠbÃ¨iĠ
ĠĠĠ 2001ĠniÃ¡nĠ
zhÃ¹ ĠgÅįngĠ
wÃłi ĠjÃŃĠ
shÄĽng ĠzhÃ¨ngĠ
12 ĠgÃ¨Ġ
ĠyÃºĠ 2009
zhÇĶĠ zhÄģng
ĠbÃ¨iĠ pÃłnĠ
yÃ¡nĠ hÇİi
yÃ¡nĠ lÃ¹n
shÇĴuĠ fÇİĠ
fÄĵngĠ miÃłnĠ
lÃ¹nĠ shÃ¹Ġ
xÃºnĠ yÇİnĠ
shÄĽnĠ chÃ¡
ĠĠĠ198 8ĠniÃ¡nĠ
niÃ¨Ġ cÃŃ
ĠyÃłĠ mÄĽiĠ
illi am
C P
Ġ yÃł
Ġ shuÅį
Ġ biÃ©Ġ
Ġ qiÄģngĠ
Ġ 25Ġ
yÇĴu ĠbÃ¹ĠfÃ¨nĠ
le ĠtÄģ
qÅ« ĠyÃ¬Ġ
pÃŃng ĠxÃŃngĠ
gÄģi ĠdÃ¬ĠqÅ«Ġ
bÃło ĠdeĠ
biÃłn ĠxÃŃngĠ
mÃ©n ĠshÃ¬Ġ
tiÃ¡o ĠjiÃłn
gÃ¹ ĠdeĠ
ar e
nuÃ² ĠbÃ¨iĠÄĽrĠ
ĠlÇĲĠ xuÃ©Ġ
ĠÃ©r ĠyÇĴuĠ
zhÄĵngĠ lÃ¹nĠ
zhuÄģnĠ zhÃ¹ĠyÃºĠ
xÃºnĠ luÃ³Ġ
ĠjÄ«ngĠ yÃŃngĠ
diÃłnĠyÇĲng ĠzhÅįngĠ
ĠfÃº ĠlÇĲĠ
rÇİnĠ sÃ¨Ġ
duÃ³Ġ guÃłnĠ
ĠdeĠlÃ¬Ġ shÇĲ
ĠjiÇĶ ĠyuÃ¨Ġ
shÄ«ĠqÃ¹ ĠleĠ
7 2ĠniÃ¡nĠ
I L
t Åįu
Ġ wÃłngĠ
ĠĠĠ shÃ¨ĠhuÃ¬Ġ
zuÃ² ĠhÃ©Ġ
zhÃłn ĠjÃŃĠ
Ã©r ĠchÃ©ngĠ
qÇĲ ĠchÅ«Ġ
qÄ«ng ĠxÄ«Ġ
mÃ©i ĠlÃ¬Ġ
fÇİn ĠgÅįngĠ
nÃŃng ĠxiÃłnĠ
ĠjÄ«Ġ dÃ²ngĠ
pÃŃngĠ miÃłnĠ
fÃºĠ tÃ¨Ġ
zhÄĵnĠ duÃ¬
ĠdÅįngĠ lÃŃn
ĠguÃ²Ġ chÃ©ngĠzhÅįngĠ
ĠshÃ¬ĠjÃ¬Ġ chÅ«Ġ
tuÄ«Ġ fÄģnĠ
ĠbÅįĠ luÃ³Ġ
ĠĠĠV i
guÇİnĠkÃ²ng ĠzhÅįngĠfÄģĠxiÃłnĠ
7 ĠgÅįngĠlÇĲĠ
Ġ lÃ¨i
Ġ kÇİo
mÃŃn ĠshÃ¬Ġ
jiÄĵ ĠyÇĴuĠ
bÃ³ ĠkÃ¨Ġ
sÃ¨ ĠhuÃ²Ġ
guÄ« ĠdeĠ
shÄģng ĠhuÃ¬Ġ
qÃŃng ĠrÃ©nĠ
ĠzÃłiĠ kÃ¨Ġ
ĠzhÅįngĠ huÃ¡
ĠyÃ¬Ġ bÇİiĠ
zhÃ¹Ġ fÃ¡ngĠ
diÃłnĠ dÃ²ngĠ
bÄĽiĠ kÇİĠluÃ³ĠlÃ¡iĠnÃł
dÃ¬ngĠ lÇľĠ
lÃŃngĠ shÃ²uĠ
zhÄĵnĠ chÃ¡
ĠmÇİĠ dÄ«ngĠ
xÇĲĠ ÃłiĠ
ĠÐ ½
ĠĠĠof ĠĠĠthe
shÄ«ĠfÃłn ĠdÃłĠxuÃ©Ġ
Ġ zhÇİng
Ġ mÃ¨ng
Ġ lÃ¨Ġ
Ġ zÅįngĠjiÃłoĠ
Ãło ĠlÃ¬Ġ
xuÃ© ĠlÃ¬Ġ
sÇĲ ĠdeĠ
ĠshÃ¬Ġ jiÄģngĠ
ĠshÃŃĠ chÃ¡ngĠ
ĠshÃŃĠ biÃ©Ġ
jiÄģĠ qiÃ¡ngĠ
ĠxÃŃng ĠzhÃ¬Ġ
ĠdÃłĠ jiÄģngĠjÅ«nĠ
ĠyuÃ¡nĠ xÃŃng
ĠyÇĲĠ 3Ġ
ĠzhÃłnĠ yÃ¬ĠzhÅįngĠ
ĠshÄĵngĠ chÄĵng
shÄģĠ hÃłi
ĠS u
ĠjÃŃĠtuÃ¡n ĠyÇĴuĠxiÃłnĠgÅįngĠsÄ«Ġ
ĠO Ġ
Ġw ÄģngĠ
yÄĵĠ sÅ«Ġ
ĠyÇĶĠmÃ¡o ĠqiÃºĠ
0 ĠrÃ©nĠ
8 ĠgÅįngĠlÇĲĠ
b u
p sĠ
Ġ fÄĵn
Ġ qiÃ¡o
zhÃło ĠjÃŃĠ
ĠshÃ¬Ġ dÄģngĠdÃ¬Ġ
ĠchÃ©ngĠ yuÃ¡nĠdeĠ
ĠyÄ«Ġ shÇĴuĠ
wÃ©iĠ hÃ¹Ġ
ĠdÃłĠ zÃ¬Ġ
fÄĵiĠ jÄ«
jiÃ¹Ġ kÄĽĠyÇĲĠ
hÃ¡iĠ zi
lÃºĠ wÇİĠ
ĠdeĠbÃ¹Ġ tÃ³ngĠ
ĠbÃ¬Ġ yÃ¨ĠhÃ²uĠ
shÅįuĠlÃ¹Ġ leĠ
m on
Ġ zhÃ¨n
Ġ fÇĶ
Ġ hÃ¹
li c
lÃ¬ ĠniÃ¡nĠ
zhÃłn ĠjÄ«Ġ
mÇİ ĠdÃ©ĠlÇĲĠ
shÇĲĠ guÇİnĠ
fÄĵnĠ liÃ¨
xÃŃĠ sÃºĠ
ĠdeĠyÄ«Ġ zhÇĴng
lÃŃngĠ mÃ¹Ġ
ĠgÅįngĠzuÃ²Ġ zhÄĽĠ
2010ĠniÃ¡nĠ mÄĽiĠguÃ³ĠrÃ©nĠkÇĴuĠpÇĶĠchÃ¡Ġ
ĠshÃ¨ĠjÃ¬Ġ shÄ«Ġ
tÇİoĠ fÃ¡Ġ
hÃ¡oĠ mÇĲ
ĠguÃ³ĠjiÄģ ĠjÃŃĠ
ĠwÃ¨iĠzhÅįngĠ xÄ«nĠ
ĠshÄĵngĠhuÃ³ ĠzÃłiĠ
ĠmÃŃn ĠjÃŃĠ
qiÄģo ĠchÅ«Ġ
jÇĲĠnÃ¨iĠ yÃłĠ
5 4ĠniÃ¡nĠ
I F
t ra
Ġ xiÃłngĠshÃ¬Ġ
chÃ¡ ĠsÄ«Ġ
shÇĲ ĠqÃŃĠ
mÃ¹ ĠhÃ²uĠ
jiÄĵ ĠdÃło
jiÇİng ĠzuÃ²Ġ
15 0Ġ
kÅ«n ĠchÃ³ngĠ
ĠshÃ¬Ġ xiÃłnĠ
ĠshÃ¬Ġ xiÄģngĠgÇİng
ĠyÃ¬Ġ lÃ¬Ġ
ĠxÄ«Ġ dÃ©Ġ
ĠjiÃłnĠ zÃłoĠdeĠ
ĠbÃ¬ngĠ kÄģiĠshÇĲĠ
wÃłiĠ jiÃ¨
tÇĲĠ nÃ¨iĠ
qÇĲĠ huÃłĠ
liÃ¨Ġ biÇİo
shuÇĲĠ zhÇĶnĠ
mÄĽiĠ guÃ³ĠhÃ©Ġ
liÇİngĠ cÃ¨
ĠĠĠS ta
ĠshÃ¬ĠjiÃ¨Ġ bÄĵi
x ĠĠĠ
Ġ zhÇĴngĠ
le ĠdeĠ
xiÃł ĠxÃŃngĠ
tu di
sÅ« ĠzhÅįuĠ
zhÄĽng ĠshÃ¹Ġ
ĠbÃ¹Ġ yÃ¬Ġ
ĠrÃ©nĠ lÃ¨iĠdeĠ
ĠzhÃ¬Ġ piÃłnĠ
jÃ¹Ġ chÇİngĠ
jÄ«ngĠ diÇİn
ĠjÃ¹Ġ qÃ¬ngĠxiÃłĠ
ĠzhÅįngĠguÃ³Ġ guÃ³ĠjiÄģĠ
zhÄĵngĠ duÃ³
huÃ¡nĠ bÇİoĠ
guÇĲĠdÃłoĠ jiÄģoĠtÅįngĠ
ĠwÃ¨iĠfÃºĠqÃŃĠyÃºĠgÄģngĠ lÃºĠxÃŃngĠmÃ¹Ġ
ĠpÃºĠtÃ¡oĠyÃ¡ ĠyÇĶĠ
6 ĠmÃŃngĠ
6 8Ġ
ruÃ² ĠdeĠ
ĠshÃ¬Ġ hÃ¡nĠguÃ³Ġ
ĠwÃ¨iĠ jÄ«ĠchÇĶĠ
ĠbÃ¹Ġ xiÃ¡ngĠ
ĠrÃ©nĠ jÃŃĠ
ĠyÃ¬Ġ chÃ¡ngĠ
ĠqÃŃ ĠdÃ¬Ġ
ĠhÃ²uĠ yÄ«nĠ
qiÃ¡nĠ lÃ³ngĠ
dÅįngĠ lÃ¹Ġ
shÄģnĠ chÃºĠ
ĠdÃłnĠ rÃ©ng
wÇİngĠ fÇİnĠ
cÄģnĠ yÇİnĠ
dÇİĠ pÃ²
ĠtÃłiĠ yÃ¡ngĠ
ĠkÄĵ ĠÄĽrĠ
zhÄĽnĠ duÃłn
kÇİoĠlÇľ ĠdÃłoĠ
zhÅ«ĠlÃ³ngĠ cÇİo
nÃ¡nĠsÄ«ĠlÄģĠ fÅ«Ġ
shÃ²uĠhuÄģnĠ yÃŃngĠdeĠ
KB 48
jiÄģnĠchÃ¡ ĠyÃ¹ĠshÇĲĠ
7 3Ġ
ĠĠĠ 20
ĠĠĠ fÇİnĠ
le ĠdÃłĠliÃłngĠ
xiÃłng ĠqÃŃĠ
yÇĲng ĠjÃŃĠ
biÃłn ĠdÃ©
sÄģi ĠsÄ«Ġ
ĠwÃ¨iĠ 2
zhÅįngĠ xuÃ©Ġ
ĠlÃ¬Ġ ÄģnĠ
ĠyÃ¬Ġ miÃ¡o
ĠjÄ«Ġ guÄģn
fÄģngĠ zhÄĵnĠ
zhÃ¨Ġ yÃłng
suÇĴĠ mÇĶĠ
mÇİĠ chÇİngĠ
yÃłĠ zhÇĴngĠ
sÃłiĠ shÃ¬ĠdeĠ
bÅįĠ luÃ³ĠdÃ¬Ġ
ĠnÃ¡nĠ fÄģngĠ
jiÇĶĠ jÄ«ngĠ
huÃ²Ġ shÃ¨ngĠ
gÃ¹Ġ dÃ¬ng
Ã©rĠ yÃ¡nĠ
tiÄĽĠlÃ¹Ġ jÃºĠ
yÇĲnĠqÇĲ ĠdeĠ
9 5Ġ
Ġ shÄģn
ji ÇĴngĠ
fÃ¹ ĠyuÃ¡nĠ
quÃ¡n ĠhÃ©Ġ
quÃ¡n ĠchÃ©ngĠ
tÃ¨ ĠzhÃ¬Ġ
gÄģo ĠjiÄģĠ
tÇĲ ĠzhÅįngĠ
shuÇĲ ĠxiÃłnĠ
bÃłn ĠxuÃ©Ġ
195 2ĠniÃ¡nĠ
gÃłi ĠleĠ
tÇİn ĠkÃ¨
gÃłn ĠshÃ¬Ġ
ĠzhÅįngĠ xuÃ©
hÃ²uĠ lÃ¡i
guÄģnĠ bÃ¬
bÄĽiĠ lÃ¹Ġ
mÄĽiĠguÃ³Ġ guÃ³ĠjiÄģĠ
qÄ«ngĠ chÃ¡o
qÄ«ngĠ huÃ¡ĠdÃłĠxuÃ©Ġ
ĠzhÅįngĠguÃ³Ġ dÃłĠlÃ¹
ĠxiÄģngĠ fÇİnĠ
ĠdeĠshÃ¬Ġ lÃ¬Ġ
wÃ©nĠhuÃłĠ yÃŃĠchÇİnĠ
ĠĠĠ199 0ĠniÃ¡nĠ
ĠãĤ ĵ
huÃ¡nĠxÃŃngĠ shÄģnĠ
3 ĠlÃ¬Ġ
c ÃłnĠ
Ġ huÃ¡n
Ġ gÃłi
Ġ xÃ¬ĠtÇĴngĠ
hÃ© n
gÅįng ĠwÃ¨iĠ
yÃ¡n ĠshÃ¬Ġ
dÄĽng ĠzhÃłnĠ
lÄģ ĠlÃ¬Ġ
dÄģn ĠrÃ©nĠ
hÃ¡i ĠhuÃ¬Ġ
fÃ¡ng ĠdeĠ
zÅįng ĠzuÃ²Ġ
ĠdÃłĠ mÃŃngĠ
ĠdÃłĠ jÅ«nĠ
ĠxÄ«Ġ shÅįuĠ
ĠbÃ¨iĠ rÃ¨nĠwÃ©i
ĠmÃŃngĠ chÃ¡o
ĠkÃ¨Ġ lÃºnĠ
gÄģoĠ cÃ©ngĠ
ĠzhÃ¨Ġ yÄĽĠ
fÃ¨iĠ chÃº
qÅ«ĠdeĠ yÃŃĠgÃ¨Ġ
ĠjiÄģng ĠjÅ«nĠ
mÃŃnĠzhÇĶĠ zhÇĶĠyÃ¬Ġ
pÃłoĠ bÄ«ngĠ
wÄĵnĠ gÄĵĠ
chÃ©ngĠlÃ¬Ġ yÃºĠ
shuÃłiĠ xiÄģnĠ
ĠgÄģiĠwÃ¹ĠzhÇĴngĠdeĠ mÃ³ĠshÃ¬ĠchÇİnĠ
5 2ĠniÃ¡nĠ
Ġ shÃłn
liÃ¡n ĠsÄ«Ġ
sÃ¬ ĠgÃ¨
cÃ³ng ĠzhÅįngĠ
nÇļ ĠdeĠ
guÃłn ĠjÅ«nĠdeĠ
ĠdeĠ zuÃ²ĠpÇĲnĠ
ĠdeĠ shÃ¨ĠjÃ¬Ġ
ĠshÃŃĠ shÃłngĠ
ĠyÃºĠ zhÅįngĠ
ĠjÄ«Ġ qiÄģngĠ
ĠzhÄ«Ġ yÄ«ĠdeĠ
jÃ¹Ġ diÇİnĠ
huÃłĠ xuÃ©
diÃłnĠ xÃ¬nĠ
ĠduÃ¬Ġ kÃłngĠ
ÄģnĠ fÇĶĠ
gÃ©Ġ lÃŃ
kÅįngĠ tiÃ¡oĠ
ĠjÇĲnĠ biÄģoĠ
ĠĠĠB u
ĠbÄģ ĠxÄ«Ġ
ĠzhÃłnĠzhÄĵng ĠzhÅįngĠ
ĠzhÅįngĠguÃ³ĠguÃ³ĠmÃŃnĠ dÇİngĠ
E D
Ġ xÇĲ
ĠĠĠ yÄ«ngĠ
zhu Äģ
lÃŃn ĠxiÃłnĠ
liÃº ĠdÃłnĠ
zhÃ²ng ĠlÃ¬Ġ
miÃ¨ ĠwÃ¡ngĠ
ĠdeĠ yÄ«nĠyuÃ¨Ġ
ĠwÃ¨iĠ xÄ«ng
ĠyÄ«Ġ hÃłoĠ
qÅ«Ġ yÃ¹ĠdeĠ
dÃłiĠ lÇĲngĠ
ĠmÃŃngĠ dÄģn
suÇĴĠ ÄĵnĠ
ĠzuÃ²Ġ leĠ
dÇİoĠ zhÃ¬ĠdeĠ
jiÄģoĠ wÇİngĠ
luÃ²Ġ fÅ«Ġ
jÅ«Ġ bÇĶĠ
7ĠyuÃ¨Ġ 1ĠrÃ¬Ġ
dÇĲĠ kÃłng
ĠdÃ¬ĠÃ¨rĠ cÃ¬ĠshÃ¬ĠjiÃ¨ĠdÃłĠzhÃłnĠ
ĠĠĠbÄĽn ĠyÃºĠ
n ÃłoĠ
sÄ« ĠyÇĴuĠ
hÃ²u ĠjÃŃĠ
le sĠ
dÃ¡ ĠdÃłoĠleĠ
cÃ¡i ĠhuÃ¬Ġ
gÃ¹ nĠ
dÇĲng ĠbÃ¹Ġ
ĠzÃłiĠ dÅįngĠ
ĠshÃŃĠ Ã¨r
duÃ¬Ġ yÃ¬ngĠ
wÃ©nĠ shÅ«Ġ
zÇĴngĠ jiÃłoĠqÅ«Ġ
ĠxÄ«nĠ wÃ©n
guÄģngĠ xÃ¹
ĠqiÃ¡nĠ lÃ³ng
ĠwÃ©nĠ xuÃ©Ġ
hÇİiĠjÅ«nĠ lÃ¹ĠzhÃłnĠ
pÃ¡iĠhÃ¡ngĠ bÇİngĠ
5 9ĠniÃ¡nĠ
Ġ zÇİo
Ġ iĠ
Ġ gÄĵĠqÇĶĠ
qÄ« ĠgÃ¨Ġ
kÃ¨ ĠdeĠ
fÃ¹ ĠwÃ¨iĠ
jiÄģng ĠxiÃłnĠ
shÃ²u ĠleĠ
chuÃ¡n ĠchÃ©ngĠ
xÃŃ ĠdeĠ
198 1ĠniÃ¡nĠ
ĠshÃŃĠ bÄģĠniÃ¡nĠ
ĠyÃºĠ 2025
ĠyÄ«Ġ wÃłnĠ
ĠjÃ¬Ġ rÃ¨nĠ
zhÃ¨ngĠ wÃ¹Ġ
guÄģnĠ shÇİng
ĠxuÃ©Ġ shÄĵng
ĠdÃłiĠ lÇĲngĠ
ĠdÃłnĠ yÃłoĠ
bÃłoĠ dÃ²ngĠ
mÃ©iĠ tÇĲĠdeĠ
zhÄĵngĠ qÇĶ
huÃŃĠ lÃ¡iĠ
ĠĠĠS u
fÄģnĠ qi
ĠwÃ¨iĠdÃ¬Ġ yÄ«Ġ
bÃ¬ĠyÃ¨Ġ shÄĵngĠ
bÃłnĠshÃ¬Ġ chÃ¹
ĠzhÅįngĠshÃ¬Ġ yÇİnĠ
A TĠ
m ÄĽng
Ġ gÄĽi
Ġ hÃ³uĠ
ĠĠĠ fÄģĠxÃŃngĠ
lÃ¹ ĠdÃ©Ġ
zhÇĲ ĠdeĠshÃ¬Ġ
jiÃłng ĠzhÃ¬Ġ
in eĠ
ĠdeĠ wÃ¨iĠzhÃ¬Ġ
shÃŃĠ yuÃ¨Ġ
ĠzhÃ¬Ġ huÃ¬Ġ
jiÄģĠ mÃ©ngĠ
shÃłngĠ sÃ¹Ġ
yÃ¡nĠ sÃ¨
mÇİĠ ÄĵnĠshÄĽngĠ
ĠshÃ¨Ġ lÃ¬ĠdeĠ
qÃ¬Ġ xuÃ¡n
liÇİngĠ cÃ©ngĠ
mÃ¬Ġ mÇİĠ
xÃºnĠ hÃ¡ngĠ
jiÇİĠ zÇĶĠ
leĠyÄ«Ġ xiÄĵ
ĠzhÃŃĠ jÃ¬ngĠ
dÃłiĠbiÇİo ĠdÃłĠ
guÇİngĠbÅįĠ diÃłnĠshÃ¬Ġ
diÃłnĠqÃ¬Ġ huÃłĠ
P ro
Ġ yÇİnĠyuÃ¡nĠ
yÄ« ĠzÃłiĠ
qÃŃ ĠtÄģĠdeĠ
bÃ³ ĠlÃ¬ĠyÃłĠ
ni Ġ
lÃºn ĠduÅįĠ
jiÄĽ ĠdeĠ
cÇİi ĠjÃŃĠ
ĠzhÃ¬Ġ lÇĲĠ
fÃ¹Ġ shÇĶ
pÃŃngĠ gÅ«
ĠhuÃ¬Ġ huÃłĠ
diÃłnĠ chÄĵ
ĠzhÃłnĠ lÃ¼Ã¨Ġ
hÇİiĠ dÇĲĠ
ĠzÃ¬Ġ shÄģĠ
lÃ¬ngĠ wÃłi
suÃŃĠ zheĠ
leĠyÄ«Ġ zhÇĴngĠ
dÃ²uĠ zhÄĵng
yÅįngĠ yÇĴuĠdeĠ
o la
Ġ miÃ¡oĠ
Ġ guÄ«ĠdÃ¬ngĠ
Ã© ĠjÅ«nĠ
zhÄ« ĠxiÃłĠ
zhÃłn ĠyÇĶĠ
mi n
ĠshÃ¬Ġ tÃº
ĠyÄ«Ġ yÄ«Ġ
nÃ¡nĠ xÃ¬ng
mÃŃnĠ dÇİngĠ
wÄĽiĠ tuÅį
lÃŃngĠ hÃºnĠ
chÇĶĠ cÃºnĠ
kÇİoĠ rÃ¹Ġ
kÄĵĠxuÃ©Ġ yuÃłn
ĠzhÇĲ ĠdeĠshÃ¬Ġ
ĠgÃ²ng ĠjÃ¬Ġ
2 ĠgÅįngĠlÇĲĠ
ĠĠĠ bÃ¡iĠ
nÃ¡n ĠdÃłoĠ
zhÇĲ ĠwÃ¨iĠ
huÃ¡ ĠwÃ¨iĠ
chÃłng ĠyÃ¬Ġ
lÇİo ĠrÃ©nĠ
qiÄģng ĠjÄ«Ġ
ĠzÃłiĠ jiÃłnĠ
ĠyÃºĠ 9ĠyuÃ¨Ġ
ĠjÃŃĠ zhÃ¬Ġ
ĠÃ©r ĠwÃ¨iĠ
ĠjÅ«n ĠhÃ©Ġ
xÄ«nĠ zhÃº
ĠshÃłngĠ wÇĶĠ
zuÃ¬Ġ xiÇİoĠ
nÃ¨iĠ bÃ¹ĠdeĠ
tÃłiĠ luÃ³Ġ
ĠxiÃłĠ jiÃłngĠ
dÃ¹nĠ niÃ¨ĠcÃŃ
ĠshÄĵnĠ dÃ¹Ġ
ĠÐ ¸
ĠgÄĵĠ shÇĴuĠ
shuÃłiĠlÇĲng ĠdeĠ
shÃ¡ oĠ
Ġ diÇİnĠ
ĠĠĠ d
le r
zhÅįu ĠniÃ¡nĠ
pÇĶ ĠlÃ¬Ġ
wÄĵi ĠÄĽrĠsÄ«Ġ
zÅįng ĠshÃ¬Ġ
ĠniÃ¡nĠ dÃ¹
shÃŃĠ qÄ«ĠdeĠ
ĠyÃ¬Ġ zhÇİngĠ
ĠdÃłĠ xuÇİnĠ
jÃ¹Ġ juÃ©
yÃ¡nĠ fÄģ
fÄģĠ dÃ¡Ġ
zhÃŃĠ wÃ¹ĠdeĠ
gÇĶĠ dÃłi
biÄģnĠ rÃ¹Ġ
zhÄĵngĠ duÃ³Ġ
mÃłnĠ huÃłĠjiÄģĠ
ĠĠĠC ol
ĠĠĠ198 9ĠniÃ¡nĠ
ĠyÃºĠ199 7ĠniÃ¡nĠ
shÃ²uĠhÃłiĠ zhÄĽĠ
suÇĴĠxÅ« ĠdeĠ
Ãłi ĠlÃ¬ĠsÄ«Ġ
lÇĲ ĠzÃłiĠ
zhÄģng ĠjiÄģĠ
mÃłi ĠkÃ¨ĠÄĽrĠ
lÇİo ĠhuÃ¬Ġ
ĠbÃ¹Ġ xiÃłĠ
lÃ¬Ġ yÃ¬Ġ
ĠyÃºĠ jiÄģĠ
ĠyÇĶĠ qiÃ¡nĠ
mÃŃngĠ chÃ¡oĠ
ĠqÃŃ ĠrÃ©nĠ
zhÃ¨ngĠ biÃłnĠ
ĠxÄ«Ġ lÃ¡n
yÃ¡nĠ xÃ¹Ġ
shÄ«Ġ zÅįngĠ
yÃ¡ngĠ xÃ¬ngĠ
zÃºĠ qÃºn
liÇİngĠ cÃ¬
wÄĵiĠ fÅ«Ġ
fÇİnĠ kÃłngĠ
jiÄĽĠ jiÄĽĠ
ĠdeĠdÃ¬Ġ tiÄĽĠ
ĠshÃ¬ĠjÃ¬Ġ mÃ²Ġ
Ġco mĠ
Ġ kÃ²ngĠzhÃ¬Ġ
Ġ biÄģoĠzhÇĶnĠ
chu Ãłn
zuÃ¬ ĠmÃŃngĠ
qÄ«ng ĠdeĠ
lÃ³ng ĠshÃ¬Ġ
te dĠĠĠ
ĠxÃŃngĠ chÄĵĠ
ĠbÃ¨iĠ jÄ«Ġ
xiÃłĠ lÇİngĠdÃ©Ġ
ĠhuÃ² ĠÄĽrĠ
jiÄĵĠ shÃłngĠ
zÇĴngĠ guÇİnĠ
zÇĶĠ zhÇİngĠ
Ã©Ġ wÃłiĠdeĠ
jiÃłĠ zhÃŃ
jiÃłĠ zhÃŃĠdeĠ
tuÄ«Ġ fÄģn
lÇİoĠ bÇİnĠ
ĠdeĠrÃ©nĠ wÃ¹Ġ
ĠÐ µ
ĠshÇĶĠ rÃ²uĠshÃŃĠxÃ¬ngĠ
ĠliÃ¹ ĠyuÃ¨Ġ
yÅįuĠxiÃ¹ ĠdeĠ
6 6ĠniÃ¡nĠ
7 8Ġ
Ġ xÇĶ
ĠĠĠ g
quÃ¡n ĠshÃ¬ĠjiÃ¨Ġ
zÇĶ ĠchÃ©ngĠyuÃ¡nĠ
195 4ĠniÃ¡nĠ
196 6ĠniÃ¡nĠ
ro p
ĠhÃ©Ġ xiÃłnĠ
ĠhÃ©Ġ zuÃ²ĠdeĠ
rÃ©nĠ lÃ¨iĠ
yÇĴuĠ xiÃłnĠ
shÇĴuĠ hÃ¹Ġ
chÃ¡ngĠ chÃ¡ngĠ
ĠdÃłiĠ wÃ©iĠ
yÄ«ngĠ chÄģo
quÃ¨Ġ rÃ¨n
fÃ¨iĠ qÃ¬Ġ
ĠluÃ³Ġ bÃ³Ġ
yĠĠĠ of
ĠR e
huÃ³ĠdÃ²ng ĠzhÅįngĠ
ĠĠĠ193 7ĠniÃ¡nĠ
ĠchÃ¡oĠ tÃŃngĠ
yÄ«ĠlÃ¬Ġ nuÃ²ĠyÄ«Ġ
Ġ ã
Ġ xiÄģo
Ġ qÃºnĠ
Ġ fÄĵiĠchÃ¡ngĠ
ĠĠĠ miÃ¡oĠshÃ¹Ġ
wÃ©i ĠjÃŃĠ
tÃ¡i ĠyÇĶĠ
zhÇİn ĠxiÃłn
zhuÄģng ĠyuÃ¡nĠ
xÃ¬n ĠzhÅįngĠ
bÇİi ĠwÃłn
zÇĴu ĠleĠ
ĠbÃ¹Ġ chÃ©ngĠ
ĠzhÅįngĠ jiÃ©Ġ
ĠshÃŃĠ yÃºĠ
ĠyÃºĠ 189
ĠrÃ©nĠ cÃ¡iĠ
ĠgÅįngĠ zhÃ²ng
zuÃ²Ġ qÇĶĠjiÄģĠ
ĠxiÃłnĠ rÃ¨n
shÃłngĠ zhÃ¨nĠ
shÇĲĠ zhÄĽĠ
ĠjiÄģĠ jÃ¹Ġ
ĠjiÄģĠ zÃºĠdeĠ
ĠtÄģĠ kÄĽĠyÇĲĠ
xiÄģngĠ tÃ³ng
jÄ«ngĠ yÃłn
jÄ«nĠ tiÄģnĠ
quÃ¡nĠ lÄĽiĠ
jiÃ¨Ġ rÃ¹Ġ
ĠzhÃ¨Ġ yÃ¬ĠwÃ¨iĠ
sÄģnĠ cÃ©ngĠ
shÅ«Ġ niÇĶ
nÃłĠ cuÃ¬Ġ
chÄĵngĠ zÃłn
lÃ¨iĠ ÃłnĠjiÃłnĠ
xiÄģnĠ qÅ«Ġ
gÄģngĠ qÃŃn
ĠjiÃłnĠzhÃ¹Ġ shÄ«Ġ
ĠxÃŃngĠzhÃ¨ngĠ zhÇİngĠguÄģnĠ
ĠdeĠbÃ¹Ġ duÃ¬Ġ
kuÃ²Ġ zhÄģng
ĠĠĠzhÃ¨Ġ geĠ
bo ĠdÃ¹Ġ
ĠÄģi ĠÄĽrĠ
wÇĴĠmen ĠdeĠ
ĠhuÃłĠxuÃ© ĠshÃ¬ĠwÃ¨iĠ
Ġ guÄ«
Ġ ÄĵnĠ
Ġ biÄģnĠhÃłoĠ
fÄģng ĠjÃ¬Ġ
bÄĽn ĠshÃ¬Ġ
194 0ĠniÃ¡nĠ
zÃłiĠ wÃ¨iĠ
yÃ¬Ġ yÃ¬Ġ
ĠrÃ©nĠ yÃ¬Ġ
hÃ²uĠ bÃ¨iĠ
ĠyÇĶĠ zhÃ²uĠ
ĠjiÄģĠ mÃ©ng
mÃ¹Ġ hÇİnĠmÃ²ĠdÃ©Ġ
suÇĴĠ xiÃ¡
ĠhuÃ²Ġ bÃ¬Ġ
bÃ³Ġ luÃ³Ġ
jÇĲnĠ cÃ¬ĠyÃºĠ
mÃ¬Ġ mÃ¬
jiÇİngĠ shÄ«Ġ
ĠdeĠyÄ«Ġ zuÃ²
qiÄģnĠ xÇĲ
xÃŃngĠ dÃ²ng
ĠgÄģoĠ dÄĽngĠ
ĠfÄĵnĠ lÃ¡nĠ
xÃºnĠ huÃ¡n
Ġ19 30ĠniÃ¡nĠ
gÄĵngĠ gÇİiĠ
ĠcÇĲ ĠzhÃłnĠ
zÄģiĠ hÃłiĠ
ĠguÃ³ĠmÃŃnĠ zhÃ¨ngĠfÇĶ
ĠfÄģĠ biÇİo
ĠyÃºĠ199 9ĠniÃ¡nĠ
niÇĶĠyuÄĵ ĠzhÅįuĠ
liÃºĠxÃŃngĠ yÄ«nĠyuÃ¨Ġ
ĠxiÃłnĠlÃ¹Ġ kÇĴuĠ
5 ĠshÃŃĠ
8 00
k Äģ
ĠĠĠ xiÃłoĠ
ĠĠĠ 20ĠshÃ¬ĠjÃ¬Ġ
pÃŃng ĠshÃ¬Ġ
zuÃ¬ ĠjÃ¬nĠ
bÃ³ ĠdeĠ
an ce
ĠlÃ¬Ġ wÄĽiĠ
ĠjiÄģĠ shÃłng
jiÄģnĠ guÇİnĠ
ĠtÃ³ng ĠniÃ¡nĠ8ĠyuÃ¨Ġ
zuÃ¬Ġ duÅį
zuÃ¬Ġ zhÃ¹ĠmÃŃngĠdeĠ
ĠshÄĵngĠ yÃ¡
bÄģĠ dÃ¡Ġ
zÇĴngĠ tÇĲĠ
zhÄ«Ġ hÃ²uĠdeĠ
gÄĵngĠ huÃłnĠ
xÅ«n ĠzhÄģng
tiÃ¡oĠjiÃłnĠ xiÃłĠ
nÃłĠcuÃ¬ ĠdÃ©ĠguÃ³Ġ
Ã©ĠhÃłiĠÃ© ĠzhÅįuĠ
D NAĠ
H E
e or
n Ãłn
Ġ tuÃ¡nĠ
Ġ niÇĶĠ
Ġ huÃ¡ngĠdÃ¬Ġ
Ġ huÃ¡ngĠjiÄģĠ
ĠĠĠ yÃ¡ngĠ
ĠĠĠ tÃ¡iĠwÄģn
lÃ¬ nĠ
yÄ«ng ĠshÃ¬Ġ
pÇĶ ĠsÄ«Ġ
mÇĶ ĠhÃ©Ġ
chÇĶ ĠguÃ³Ġ
chÃ©ngĠ lÃ¬ĠdeĠ
ĠlÇĲĠ chÃ¡Ġ
yÃ¹Ġ qÄ«Ġ
bÄĽnĠ shÅ«Ġ
ĠxiÄģngĠ xÃ¬nĠ
biÃłnĠ gÄĵngĠ
xÅ«Ġ nÇĲĠ
Ġt ÄģiĠ
ĠJ ohn
lÇľĠwÃ¨iĠ 0
Ġ duÇİnĠ
Ġ huÄ«ĠfÃ¹Ġ
ĠĠĠ xiÄģngĠguÄģnĠ
hÃ© nĠ
qÄ« ĠmÃŃngĠ
shÃ¹ ĠniÃ¡nĠ
zhÃŃ ĠgÅįngĠ
miÃłn ĠwÃ¨iĠ
xÃ¬ng ĠdÃ¬Ġ
pÃ¡i ĠqiÃºĠ
197 1ĠniÃ¡nĠ
zhÄģo ĠhÃ©Ġ
ĠdeĠ wÃ¨nĠtÃŃĠ
ĠbÃ¹Ġ shÃ²uĠ
jÃ¬Ġ lÃ¹
lÃ¹Ġ yÄ«nĠ
ĠqÃŃĠ bÄ«ng
liÃºĠ lÃłngĠ
ĠzhÃ¨Ġ cÃ¬
sÃłiĠ jÅ«Ġ
shÇĶĠ xÃ¬ngĠ
xuÄģnĠ gÃłoĠ
sÄģiĠ Ã©Ġ
zhuÃłnĠ xiÄĽ
ĠhÄģ ĠlÃ¬Ġ
7 4ĠniÃ¡nĠ
i ngĠ
Ġ on
hÃ²u ĠgÅįngĠ
zhÃłn ĠxiÃłnĠ
xiÃło ĠzhÅįngĠ
rÃ³ng ĠhuÃ²Ġ
wÇİ ĠÄĽr
194 6ĠniÃ¡nĠ
197 4ĠniÃ¡nĠ
ĠchÃ©ngĠ dÃ¹ĠdeĠ
ĠxiÃłn ĠyÃ¬Ġ
jÄ«Ġ hÅ«Ġ
mÃŃngĠ chÄĵng
ĠxÄ«Ġ lÃŃnĠ
rÃ¨nĠ jiÃłoĠ
ĠchÅ«Ġ jÃºĠ
ĠbÃ¨iĠ xuÇİnĠwÃ¨iĠ
kÄģiĠ pÇĶĠ
ĠwÃ©iĠ hÃ¹Ġ
zhÃ¨nĠ yÃŃngĠ
lÃºĠ sÄĵnĠ
ĠchÃ©ngĠyuÃ¡nĠ guÃ³Ġ
Ġk Ã²uĠ
ĠmÇİ ĠkÃ¨Ġ
Ġ14 9
ĠbÅįĠ lÃ¡nĠ
jÄ«ngĠlÃ¬Ġ leĠ
lÃ¬ngĠyÄ«Ġ zhÇĴngĠ
nd ro
Ġ u
Ġ hÄĽnĠduÅįĠ
hÃ²u ĠzhÃ¬Ġ
fÇİ ĠjÅ«nĠ
quÃ¡n ĠzhÅįuĠ
bÇİo ĠjiÃłnĠ
gÇĶ ĠxÄ«ĠlÃł
xÃ¹n ĠdeĠ
193 9ĠniÃ¡nĠ
quÄĵ ĠxiÃłnĠ
ĠjÃŃĠ tÄģĠ
zhÃłnĠ chÇİngĠ
ĠzhÄ«Ġ yÃ²ngĠ
ĠwÃ©iĠ lÃ¡iĠ
wÃºĠ guÄģnĠ
biÃłnĠ lÃ¹nĠ
tiÃ¡oĠ yuÄĵ
zhuÄģngĠ cÅ«nĠ
bÄ«ngĠ chuÄģnĠ
hÃ¡iĠ bÄģoĠkuÃ²Ġ
chÃ¹Ġ chÃ¹ĠzhÇİngĠ
sĠĠĠ A
ĠdeĠshÃŃĠ jÃ¬Ġ
shÃ¹ĠliÃłng ĠdeĠ
ĠhÃ³ngĠ sÃ¨Ġ
mÃ¹ĠdÃ¬Ġ dÃ¬Ġ
ĠyÃ¬ĠzhÃŃ ĠzÃłiĠ
xiÃ©ĠshÄģngĠ huÃ¬ĠyÃ¬Ġ
1 ĠyÃ¬Ġ
8 4Ġ
F aceboo
z ÅįuĠ
Ġ cÅ«nĠ
wÃ©n ĠjiÃłn
yÃ¡n ĠlÃ¬Ġ
qiÃ¡ng ĠxÃŃngĠ
âĢ »
kÃ¹ ĠdeĠ
guÃłn ĠlÃ¬Ġ
zhÃ¬Ġ 19
rÃ¨nĠ tiÄģnĠtÃ¡ngĠ
quÃ¡nĠ xÄ«nĠ
gÇĶĠ bÄģĠ
ĠzhÃ¹Ġ mÃŃngĠdeĠ
mÄĽiĠ lÄģĠ
zhuÄģnĠ ÃłnĠ
zhÅįuĠ qÄ«Ġ
yÄģĠ suÅįĠ
kÄģiĠshÇĲ ĠhÃ²uĠ
Ġb ack
ĠL i
pÃŃnĠ fÃ¡nĠ
ĠãĤ ¹
kÄĽnĠ sÃ¨
ĠgÄģnĠ sÃ¹Ġ
ĠĠĠhÃ²uĠ lÃ¡iĠ
hÃ¡ngĠzhÃłnĠ lÃ³uĠ
2 ĠshÃŃĠ
5 1ĠniÃ¡nĠ
5 7Ġ
a ta
ĠĠĠ zhÃ¨ĠxiÄĵĠ
le ĠhÃ©Ġ
chÅ« ĠxiÃłnĠdeĠ
duÃ¬ ĠzhÃ¬Ġ
qÅ« ĠyÇĶĠ
lÃ¹ ĠsÄ«Ġ
chu Ä«
fÃº ĠdÃłĠxuÃ©Ġ
gÃ¨ng ĠyÇĴuĠ
17 0
sÃ²ng ĠzhÃ¬Ġ
194 2ĠniÃ¡nĠ
shuÃłi ĠjÅ«nĠ
ĠyuÃ¡nĠ yÇĴuĠdeĠ
shÄĵngĠ zhÇİng
ĠsÄ«Ġ tÇİ
ĠxiÃłnĠ dÃ¬ngĠ
ĠlÇĲĠ jiÄģĠ
shÇĴuĠ qiÄģngĠ
gÃ©Ġ lÃ¡iĠ
mÇİĠ dÄ«ngĠ
chuÃ¡nĠ jiÃłoĠ
liÇİngĠ xiÃłngĠ
yÇĲnĠ fÄģ
huÃŃĠ yÃ¬ng
shÄĽnĠ pÃłn
tÅ«Ġ pÃ²
yÇİĠ diÇİnĠ
lÃ¬ĠhÃ©Ġ wÃºĠzhÃ¨ngĠzhuÃłngĠgÇİnĠrÇİnĠzhÄĽĠ
ĠshÃŃĠyÄ«Ġ yuÃ¨Ġ
mÄģĠ zÇĶĠ
fÃºĠluÃ³ĠlÇĲĠ dÃ¡ĠzhÅįuĠ
5 9Ġ
yÄ« ĠniÃ¡nĠdeĠ
Ã©r ĠbÃ¨iĠ
zÃ© ĠrÃ¨nĠwÃ©iĠ
nÃ©ng ĠdeĠ
rÃ³ng ĠyÃºĠ
wÄģn ĠdÃłoĠ
195 6ĠniÃ¡nĠ
rÃ©nĠ kÇĴu
rÃ©nĠ lÃ¨i
ĠbÃ¹Ġ bÃ¨iĠ
ĠjÃŃĠ yÇĴuĠ
ĠyÇĶĠ zhÄ«
ĠxÄ«Ġ zÃłng
zhÇĶĠ yÃ¬ĠhÃ©Ġ
xÄ«nĠ ÄģĠjÄ«ĠtÇİn
mÃŃnĠ jiÄģn
ĠleĠ duÃ¬Ġ
zuÃ¬Ġ jÃ¹Ġ
ĠdÃłnĠ bÃ¡i
chÃ³ngĠ xiÅ«Ġ
ĠxiÇİoĠ shuÅį
tÅ«Ġ juÃ©Ġ
ĠnÃłĠ meĠ
ĠtÃ¡iĠ bÄĽiĠ
bÄĽiĠjÄ«ng ĠdÃłĠxuÃ©Ġ
ĠyÃ²uĠmÃŃngĠ BDĠ
yÄ«nĠshÃ¬Ġ zhuÄģnĠjÃŃĠ
bÄģĠlÃ¨ ĠsÄ«ĠtÇİn
g roundĠ
Ġ st
ĠĠĠ sÃ¬Ġ
gÅįng ĠzhÅįngĠ
suÇĴ ĠbÃ¹ĠtÃ³ngĠ
er n
193 6ĠniÃ¡nĠ
ĠhÃ©Ġ M
ĠbÃ¹Ġ lÇĶĠkÃ¨Ġ
ĠyÄ«Ġ zhÃłoĠ
xÄ«Ġ lÇĲĠ
huÃ¬Ġ huÃłĠ
mÃŃngĠ quÃ¨Ġ
ĠdÃ© ĠshÃ¬Ġ
shÇĴuĠ gÄĵĠqÇĶĠ
ĠzhÃ¨Ġ liÇİngĠgÃ¨Ġ
ÃłnĠ chÃ¡Ġ
ĠzhÃ¹Ġ zuÃ²Ġ
lÃ¨iĠ biÃ©Ġ
yÃ¬ngĠ bÃ¬Ġ
sĠĠĠ C
ĠcÇĲĠ qiÃ¡nĠ
ĠĠĠC or
mÃłiĠ ÄģĠ
dÇĲngĠ diÇİnĠ
jiÄĵĠdÃłoĠ bÃłnĠshÃ¬ĠchÃ¹Ġ
ĠwÃ¨iĠyÃºĠgÄģiĠguÃ³Ġ bÄĽiĠbÃ¹Ġ
mÇĲnĠ gÇİnĠ
Ġ gÄĵngĠmÃŃngĠwÃ¨iĠ
ĠĠĠ suÇĴĠ
ĠĠĠ ÃłoĠ
zhÃŃ ĠbÃ¨iĠ
duÅį ĠlÃ¬Ġ
ju Ãłn
qiÄģn ĠdÃłoĠ
11 ĠshÃŃĠ
mÃ¬ ĠjÃŃĠ
2010 Ġ
kÃło ĠjÃ¬n
ĠshÃ¬Ġ juÃ©Ġ
ĠgÃ¨ ĠyÇĴuĠ
zhÃ¨ngĠ dÇİng
zhÃłnĠ jÃ¹Ġ
guÄģnĠ qi
ĠwÃ©iĠ xiÅ«Ġ
fÇİĠ guÄ«Ġ
yÃ¨Ġ tÇĲĠ
zhÄ«Ġ wÃłiĠ
zhuÄģngĠ bÃ¨i
mÃłnĠ hÄģĠ
jiÇİĠ bÇİnĠ
ĠãĤ ¤
ÅįuĠzhÅįu ĠguÃ³ĠjiÄģĠ
jiÃ©ĠshÃ¹ ĠshÃŃĠ
ĠxÄ« ĠyuÃ¡nĠ
jiÄģoĠhuÃ¬Ġ chÃ¹Ġ
ĠkÃ¨ĠxÄ«Ġ tÇİĠnÃŃĠdÃłĠqÅ«Ġ
7 ĠniÃ¡nĠdeĠ
v eĠ
Ġ huÃ³ĠdÃ²ngĠ
Ãło ĠbÃ¹Ġ
Ãło ĠdÃ©Ġ
dÃł ĠshÃ¬Ġ
yÇĶ ĠshÃŃĠ
qÅ« ĠwÃ¨iĠyÃºĠ
tÃŃ ĠdeĠ
nÇļ ĠyÇĴuĠ
mÃ¬ ĠÄĽrĠ
miÃło ĠdeĠ
ĠshÃ¬Ġ dÃłiĠ
shÃŃĠ jÃ¬Ġ
zhÃ¬Ġ shÇİoĠ
ĠyÄ«Ġ fÃºĠ
ĠsÄ«Ġ lÇĲĠlÃ¡nĠ
dÃ¡Ġ kÄĵ
ĠxiÄģngĠ jiÃłoĠyÃºĠ
jiÄĽĠ mÃ¨iĠ
gÃ¹Ġ wÃ¨n
biÃ©Ġ shÃ¹Ġ
xuÄģnĠ chÄĵng
ĠsuÃŃĠ zhÃ¹
zuÃ¬ĠhÃ²uĠ yÃŃĠgÃ¨Ġ
ĠÃłi ĠdÃ©ĠhuÃ¡Ġ
ÄģĠgÄĵnĠ tÃŃng
Ġ shuÇĲ
Ġ yÄģnĠ
ĠĠĠ wÅ«ĠkÃ¨ĠlÃ¡nĠ
fÄĵn ĠduÃ¬Ġ
di Å«Ġ
biÃłn ĠhÃ²uĠ
lÇľ ĠdÃ¬Ġ
hÄĽn ĠgÄģoĠ
bÄĽnĠ shÄĵn
ĠqÃŃĠ xiÃł
gÇĶĠ fÃ¨nĠ
wÇİĠ shÄĽngĠ
bÇĶĠ jÇĲĠ
ĠĠĠP ar
ĠbÃ¬Ġ xÅ«
ĠgÃ©Ġ lÃ©iĠ
ĠĠĠc on
7 3ĠniÃ¡nĠ
a sĠ
k Ã©
lÇĲ ĠzhÃ¬Ġ
qÃŃ ĠxiÃłĠ
suÇĴ ĠzhÃ¬Ġ
shÄ« ĠzÃłiĠ
bÇĲ ĠsÄ«Ġ
2020 Ġ
mÇĴu ĠgÃ¨Ġ
ol orĠ
ĠshÃŃĠ Ã¨rĠyuÃ¨Ġ
ĠchÃ©ngĠ shÃº
ĠgÃ¨ ĠxiÃłnĠ
ĠyÇĶĠ mÄĽiĠguÃ³Ġ
huÃłĠ tÃŃĠ
ĠfÃ¹Ġ zÃ¡Ġ
xuÇİnĠ bÃ¡
liÃłngĠ zÇĲ
qÄ«nĠ wÃ¡ng
ĠshÃ¬ĠzhÃ¨nĠ fÃłnĠwÃ©iĠnÃ¨iĠ
chÇĲĠ cÃ¹n
ĠshÇĲĠ chÄĵngĠ
kÄĽĠnÃ©ng ĠzÃłiĠ
ĠtÅįngĠ chÃ¡ngĠshÃ¬Ġ
ĠdeĠyÃ¬Ġ shÃ¹Ġ
rÃ¨ĠdÃłiĠ dÄ«ĠqÃ¬ĠyÄģĠ
ĠÃłnĠ zhÃłoĠ
zÄ«ĠbÄĽnĠ zhÇĶĠyÃ¬Ġ
I A
Ġ Åįu
Ġ guÇĴĠ
ĠĠĠ bÇĲĠsÃłiĠ
zhÇĶ ĠjÄ«Ġ
jÃ¬n ĠqiÃºĠ
xiÃłng ĠzÃłiĠ
quÃ¡n ĠniÃ¡nĠ
miÃłn ĠyÇĴuĠ
lu ÇĴĠ
zhuÄģng ĠzÃłiĠ
hÃłn ĠrÃ©nĠ
dÇĲ ĠbÃ¹Ġ
lÃ¡ng ĠdeĠ
kÇİi ĠÄĽrĠ
bÇİng ĠdÄģnĠ
ĠshÃŃĠ sÃ¬Ġ
ĠyuÃ¡nĠ shÄĵngĠ
ĠtÄģĠ dÄģnĠrÃ¨nĠ
guÄģnĠ kÃłn
jiÄģnĠ jÃ¬nĠ
ĠshÃłngĠ xiÃłĠ
bÄģĠ mÇİ
bÄģĠ sÄģiĠ
jÇĲngĠ wÃ¹Ġ
wÃ¡nĠ fÇİĠ
ĠqiÃ¡nĠ wÇİng
ĠzhÃ¬ĠzÃłoĠ shÄģngĠ
inclu deĠ
6 ĠshÃŃĠ
9 9Ġ
T he
h Åįng
t Ã¹
Ġ hÃ¡oĠ
hÃ²u ĠbÃ¹Ġ
yÄ«n ĠdeĠ
mÃ¹ ĠhÃ©Ġ
biÃ© ĠrÃ©nĠ
el lĠ
yÄ«Ġ yÃłngĠ
ĠdÃ¬Ġ 5Ġ
jÄ«Ġ gÃ²u
ĠgÃ¨ ĠchÅ«ĠrÃ¹ĠkÇĴuĠ
zuÃ²Ġ yÃ²ng
ĠtÄģĠ yÃ²uĠ
nÃ¡nĠ hÇİiĠ
ĠjÅ«nĠ qÅ«
diÃłnĠ cÃŃĠ
lÄģĠ dÄ«ngĠ
ĠyÄ«nĠ sÃ¹
pÃ¡iĠ chÃº
ĠtÃ³ngĠ shÃŃĠzÃłiĠ
ĠshÃ¬ĠzhÅįngĠ xÄ«n
ĠshÃ¬ĠshÃ¬Ġ zhÇİngĠ
ĠtÃ¨ĠbiÃ© ĠshÃ¬ĠzÃłiĠ
zhÃłnĠdÃ²u ĠzhÅįngĠ
sÅ«ĠwÃ©iĠ ÄģiĠ
jiÃłoĠkÄĵĠ wÃ©nĠ
T E
ĠĠĠ mÇĲĠ
ĠĠĠ fÄĵiĠ
xiÃłn ĠlÃ¹Ġ
huÃ¬ ĠchÃ©ngĠ
fÄĵn ĠhuÃ¬Ġ
kÄģi ĠguÃ³Ġ
yÃ¨ ĠshÃ¬Ġ
zÇĶ ĠjiÃłn
194 3ĠniÃ¡nĠ
sÄģi ĠÄĽr
zÅ«n ĠshÇĴuĠ
ĠdeĠ guÇĲĠdÃłoĠ
ĠrÃ¬ ĠshÃ¬Ġ
lÇĲĠ yÃ³uĠ
shÄĵngĠ yÃ¹Ġ
ĠbÃ¨iĠ sÄ«Ġ
zhÃ¹Ġ rÃ¹Ġ
qiÃ¡nĠ fÄģngĠ
ĠkÃ¨Ġ lÃŃnĠ
duÅįĠ dÃ¡Ġ
luÃ³Ġ fÅ«
wÃºĠ xÅ«Ġ
gÇİiĠ zhuÄģngĠ
zÇĶĠ shÅ«ĠjÃ¬Ġ
cÃ¡iĠ zhÃ¨ngĠbÃ¹Ġ
cÃŃĠ xÃ¬ngĠ
qiÄģnĠ mÇĲ
huÃ²Ġ wÃ¹Ġ
zhÄĵnĠ xiÃłngĠ
ĠgÄģoĠ sÃ¹Ġ
dÇİĠ bÃłiĠ
xuÃ¨Ġ guÇİnĠ
ĠgÅįngĠsÄ« ĠzÃłiĠ
ĠyÄ«ĠsÄ«Ġ lÃ¡n
kuÃŃĠ bÄĽi
ĠmÃ©ngĠ gÇĶ
yÇĲnĠqÇĲ ĠleĠ
tÃ¡iĠnÃ¡n ĠshÃ¬Ġ
O C
o st
x tĠ
Ġ xiÃ¹Ġ
gu Çİ
mÄĽi ĠrÃ©nĠ
shÇĶ ĠdeĠyÄ«ĠzhÇĴngĠ
jÃ¬ng ĠwÃ¨iĠ
ĠzÃłiĠ dÃ¹
ĠgÅįngĠ bÃ¹
ĠgÅįngĠ yÃ¹Ġ
duÃ¬Ġ huÃłĠ
ĠkÃ¨Ġ hÃ¹Ġ
fÄĵnĠ wÃ©i
wÄĽiĠ dÃłĠdeĠ
xÃŃngĠ zhÃ¨ng
hÃ¡nĠ shÃ¹
ĠguÃ³ĠjiÄģĠ ÄģnĠquÃ¡nĠ
hÄģĠ sÃłĠkÃ¨ĠsÄ«Ġ
liÃłnĠ ÃłiĠ
tuÄ«Ġ dÃ²ng
yÇĲngĠxiÇİng ĠleĠ
suÅįĠ xiÄĽĠ
ĠĠĠE x
ĠwÃ¨iĠyÃºĠgÄģiĠguÃ³Ġ dÅįngĠnÃ¡nĠbÃ¹Ġ
xiÃłngĠmÃ¹ ĠdeĠ
DV DĠ
ĠdeĠjÄ«ĠchÇĶ ĠshÃłngĠ
mÃ¬ĠxÄ«ĠxÄ«Ġ bÇĲ
6 ĠgÅįngĠlÇĲĠ
F C
T e
m ar
¡ Ġ
Ġ liÃ¡n
Ġ bÄģngĠ
lÇĲ ĠjÃŃĠ
guÄģn ĠjiÃłn
bÅį ĠxÄ«Ġ
fÃ¨i ĠchÃ©ngĠ
wÃłng ĠdeĠ
xiÃ¨ ĠrÃ¨nĠ
gÅįngĠ zuÃ²
guÄģnĠ zhÃ¹
shÇĴuĠ yÃ¬ngĠ
ÃłnĠ chÃ¡ĠsÄ«Ġ
jÃ¬nĠ zhÇİnĠ
gÃ²uĠ chÃ©ngĠdeĠ
ĠguÃ²Ġ qÃ¹
ĠcÃ³ng ĠshÃ¬Ġ
mÃ¨ngĠ xiÇİngĠ
dÅįngĠjÃ¬Ġ ÃłoĠlÃŃnĠpÇĲĠkÃ¨ĠyÃ¹nĠdÃ²ngĠhuÃ¬Ġ
pÃŃngĠlÃ¹n ĠjiÄģĠ
2019ĠguÄģnĠzhuÃłngĠbÃ¬ngĠdÃº ĠbÃ¬ng
4 ĠgÅįngĠlÇĲĠ
m ÃºĠ
Ġ bÃ¬
Ġ dÃ²ngĠhuÃłĠ
Ġ guÇĲĠ
ĠĠĠ 2002
ĠĠĠ shÃ¨Ġ
nÃŃ ĠjÄ«Ġ
gÃ²u ĠjiÃłnĠ
dÇĲ ĠdeĠ
chÄģo ĠshÃ¬Ġ
yuÇİn ĠdÅįngĠ
ĠdeĠ guÃ³ĠjÃ¬Ġ
ĠbÃ¹Ġ lÃ©iĠ
ĠzhÃ¬Ġ shÇĲĠ
ĠxiÃłnĠ lÃ¹
ĠhÃ²uĠ xÃ¹Ġ
ĠdÃ©Ġ piÃłoĠ
zhÃ¹Ġ zhÃ¡i
wÇĶĠ shÃ¹Ġ
yuÄĵĠ hÃłn
nÃŃĠ ÃłoĠ
hÃ¹Ġ zhÃłoĠ
luÃ²Ġ yÃ¡ngĠ
jiÃłnĠ zÃło
gÃ¨ngĠ gÄģoĠdeĠ
ĠxiÃłnĠdeĠ chÃ©ngĠshÃ¬Ġ
zÄ«ĠgÃ©Ġ sÃłiĠ
ĠV i
lÃ¡nĠqiÃºĠ yÃ¹nĠdÃ²ngĠyuÃ¡nĠ
ĠkÇĴngĠ tÃłi
ĠĠĠst yleĠ
P h
Ġ bÃłoĠdÃłoĠ
shÇĲ ĠtÄģĠ
wÃ¹ ĠjÃŃĠ
jÄ«ng ĠchÃ©ngĠ
shÇĴu ĠgÃ¨
tÇĲ ĠwÃ¨iĠ
tÃ¡i ĠshÃ¬Ġ
wÃ¡ng ĠgÅįngĠ
liÃło ĠlÇĲĠ
chÅ«n ĠjiÃ©Ġ
ĠyÃºĠ 2008
ĠyÇĴuĠ zheĠ
ĠyuÃ¡nĠ xiÄģnĠ
xÄ«Ġ lÃłĠ
ĠzhÅįu ĠzhÄ«Ġ
gÃ©Ġ lÄĵi
zuÃ¬Ġ dÄ«
zuÃ¬Ġ zhÇİngĠdeĠ
shÅ«Ġ fÇİĠ
bÄģĠ hÃ¨
yÇİnĠ xÃŃĠ
gÃ²ngĠ xiÇİngĠ
ĠpÃŃngĠfÄģngĠ yÄ«ngĠlÇĲĠ
Ġ19 27ĠniÃ¡nĠ
ĠjiÃ© ĠhÃ©Ġ
NB A
ĠniÇĶĠyuÄĵ ĠshÃŃĠbÃłoĠ
ĠxÄ«nĠjiÄģĠ pÅįĠ
5 ĠniÃ¡nĠdeĠ
S P
Ġ dÇĴng
Ġ jÇĶĠ
dÃłi ĠzÃłiĠ
huÃł ĠjÃ¬Ġ
wÃ©n ĠhÃ©Ġ
sÃłi ĠshÃłngĠ
bÄģ ĠgÃ¨Ġ
wÄĽi ĠrÃ¨nĠ
lÇľ ĠhÃ©Ġ
xiÄģn ĠshÃ¬Ġ
bÃ¡i ĠgÅįngĠ
ĠyÃ¬Ġ miÃ¡oĠ
wÃ©iĠ qÄ«Ġ
fÃºĠ lÇĶĠ
shÇĶĠ wÃ¹ĠzhÇĴngĠ
qiÃ¡ngĠ liÃ¨
ĠlÃ¬ngĠ yÃŃĠgÃ¨Ġ
ĠxÃŃngĠzhÃ¨ngĠ qÅ«ĠhuÃłĠ
wÅ«ĠkÃ¨ĠlÃ¡n ĠdeĠ
jiÃ©ĠmÃ¹ ĠzhÅįngĠ
8 7Ġ
Ġ xiÇİn
Ġ qiÇİngĠ
ĠĠĠ 2001
ĠĠĠ zhÇĲĠ
ĠĠĠ dÄģngĠshÃŃĠ
sÄ« ĠwÃ¨iĠ
chÅ« ĠxiÃłn
jiÄģng ĠqÃŃ
shÃ¨ng ĠxiÃłĠ
wÄĵi ĠÄĽrĠshÃ¬Ġ
suÃ¬ ĠrÃ©nĠkÇĴuĠ
si onĠ
ĠÃ©r ĠyÇĶĠ
ĠshÃ¨ ĠshÃ¬Ġ
ĠzhÃłnĠ shÃ¨ngĠ
nÃ¨iĠ zhÃ¨ngĠbÃ¹Ġ
shÄģnĠ lÃ¹Ġ
fÄĵngĠ bÃ¬Ġ
bÄģĠ xÄ«
kÄĵĠ tÃ¨Ġ
ÃłoĠ yÃ¹n
mÃ¬Ġ xiÄĵĠgÄĵn
jiÇİngĠ zhÄģngĠ
dÃºĠ xÃ¬ngĠ
shÇĶĠdeĠ dÃ²ngĠwÃ¹Ġ
Ġk ÄģĠ
qÃ¬ngĠ zhÃ¹
ĠĠĠF or
cÄģngĠ kÃ¹Ġ
ĠyÃ¬ĠzhÃŃ ĠshÃ¬Ġ
chÃ¡i ĠyÃ³u
ĠgÄģiĠwÃ¹ĠzhÇĴngĠdeĠmÃ³ĠshÃ¬ĠchÇİnĠ dÃ¬ĠzÃłiĠ
Ġ zhÄĽng
Ġ zÇİoĠqÄ«Ġ
ĠĠĠ dÃ©Ġ
yÇĴu ĠwÃ¨iĠ
duÅį ĠniÃ¡nĠdeĠ
xÄ«ng ĠrÃ©nĠ
yÃłn ĠshÃ¬Ġ
wÃłng ĠsÄ«Ġ
zÃłn ĠwÃºĠ
xiÅįng ĠzhÇİngĠ
nÇĲ ĠdeĠ
dÃ¬Ġ shÃŃĠ
ĠbÃ¹Ġ xÃŃngĠ
ĠrÃ©nĠ qÃºnĠ
nÇļĠ xÃ¬ngĠdeĠ
gÃ²uĠ rÃ¹Ġ
huÃłnĠ zhÄĽ
ĠĠĠ198 4ĠniÃ¡nĠ
bÄģngĠzhÃ¹Ġ xiÃłĠ
xuÃ©ĠxiÃło ĠdeĠ
- .
Ġ chÃ¬
Ġ mĠ
Ġ nÃ©ngĠgÃ²uĠ
jiÃłn ĠguÃ³Ġ
mÄĽi ĠshÃŃĠ
jiÃ© ĠrÃ¬Ġ
tÃ¡i ĠhÃ©Ġ
bÃło ĠyÇĶĠ
cÄģn ĠyÃ¬ĠyuÃłn
kuÄģn ĠdÃ¹Ġ
cuÄ« ĠhuÃłĠ
ĠlÃ¬Ġ xiÃłnĠ
yÃ¹Ġ suÃłn
jÄ«ngĠ lÃŃngĠ
fÇİĠ Ãłn
ĠshÃłngĠ sÃ¹Ġ
jÄ«nĠ gÄģngĠ
ĠshÄĵngĠ yÄ«nĠ
yÃłĠ mÇİĠ
shÃ¨ngĠ diÃłnĠ
yÇĲnĠ rÃ¹
zÇĲĠ mÃ¨iĠ
zhÃ¨ngĠzhÃ¬Ġ xiÃ©ĠshÄģngĠhuÃ¬ĠyÃ¬Ġ
ĠgÄģoĠ dÃ¹Ġ
shÃ¨Ġ huÃ¬ĠdeĠ
shuÄģngĠ fÄģng
bÇĶĠ chÅįng
xÃŃngĠzhÃ¨ngĠ qÅ«Ġ
ĠbÇĲĠ rÃº
ĠzuÃ¬ĠzhÅįngĠ yÃºĠ
diÄģoĠ sÃ¹
bo x
gÇİiĠbiÄģn ĠwÃ¨iĠ
tiÄģnĠjÄ«n ĠshÃ¬Ġ
gÇİnĠlÇİn ĠqiÃºĠ
Ġ jÃŃ
Ġ pÃ¨iĠhÃ©Ġ
ĠĠĠ rÃºĠguÇĴĠ
Ãło ĠzhÅįu
Ã¡i ĠzhÃ¨ngĠ
fÃ¹ ĠlÇĲĠ
zhÃ¹ ĠshÃ¨Ġ
mÇİ ĠdÃ©Ġ
jiÃ¹ ĠdeĠ
wÃº ĠshÃ¬Ġ
yÃ¡ng ĠrÃ©nĠ
cÃ¡i ĠfÃ¹Ġ
wÇİ ĠsÄ«Ġ
bÃłi ĠhÃ²uĠ
mÇİn ĠzhÅįuĠ
es ĠĠĠ
mÇİi ĠjiÄģĠ
ĠjÃŃĠ xÃ¬ngĠ
ĠyÄ«Ġ duÃłn
ĠrÃ¨nĠ jiÃłoĠ
huÃ¡nĠ rÃłoĠ
yÇĲngĠxiÇİngĠ lÃ¬ĠdeĠ
gÄģnĠ rÇİoĠ
yÃ¬ĠshÃŃĠ dÃłoĠ
cÄģnĠsÃłiĠ zhÄĽĠ
ĠĠĠc olspanĠ
ĠdeĠguÄģnĠ diÇİnĠ
zÃ²ng ĠduÃ¬Ġ
fÄĵiĠlÃ¬Ġ pÇĶĠ
7 9Ġ
Äģn ĠdÃłĠ
xÄ« ĠrÃ¬ĠbÄĽnĠ
19 20ĠniÃ¡nĠ
mÃŃng ĠyÇĶĠ
mÃŃng ĠchÃ©ngĠyuÃ¡nĠ
fÃ¹ ĠzÃłiĠ
dÄĽng ĠshÃ¬Ġ
dÄģn ĠshÃ¬Ġ
ĠshÃ¬Ġ qiÃ¡nĠ
ĠbÃ¹Ġ luÃ³Ġ
ĠbÃ¹Ġ fÃ¹ĠbÃ¹ĠzhÇİngĠ
yÄ«Ġ jÃŃĠ
ĠzhÃ¬Ġ xÃ¹Ġ
ĠlÃ¬Ġ xÄ«Ġ
ĠyÄ«Ġ jiÇİoĠ
lÇĲĠ sÄ«Ġ
jÄ«Ġ hÅ«
shÃ¹Ġ xuÃ©ĠjiÄģĠ
ĠbÃ¨iĠ gÃ©Ġ
fÄĵnĠ xÄ«
zhÇĲĠ dÇİo
yÃŃĠ lÃ¡n
xiÃłoĠ xiÃłngĠ
biÃłnĠ huÃłn
shÄģngĠ hÃłi
wÇİĠ lÄģĠ
ĠmÇİ ĠÄĽrĠ
fÃ¡nĠ rÃ³ngĠ
lÃŃĠkÄģiĠ leĠ
oo d
ĠzÃłiĠyÄ«Ġ cÃ¬Ġ
ĠzÃłiĠzhÃ¨Ġ ge
wÃłiĠguÃ³Ġ rÃ©nĠ
Ġ jÇĶ
Ġ VĠ
Ãło ĠdeĠ
yÄ« ĠhÃ©Ġ
lÇĲ ĠwÃ¨iĠ
yÇĶ ĠĠĠ
zhÃ¨ng ĠrÃ©nĠ
duÃ¬ ĠzhÅįngĠguÃ³Ġ
duÅį ĠyÃºĠ
fÃº ĠsÄ«Ġ
huÃ¡ ĠyÃ¬Ġ
tÃ¡ng ĠdÃłiĠ
qiÄģng ĠdeĠ
ĠbÃ¹Ġ lÇİng
ĠrÃ¬ ĠjÃŃĠ
ĠyÇĶĠ duÅįĠ
duÃ¬Ġ bÇĲĠ
ĠxÄ«Ġ fÄģng
fÄĵnĠ kÄģiĠ
yÃŃĠ bÃ¹ĠdeĠ
ĠhÃło ĠhÃ©Ġ
jiÇİnĠ yÃłnĠ
bÃłnĠ chÇİngĠ
xÃ¬nĠ fÃ¨ng
ĠS h
ĠshÃ¬ĠdÃ¬Ġ Ã¨rĠ
ĠshÃ¬ĠwÃ¨iĠyÃºĠmÄĽiĠguÃ³Ġ mÃ¬ĠsÅ«ĠlÇĲĠ
zuÃ¬ĠhÃ²uĠyÄ«Ġ cÃ¬Ġ
mÃ¹ĠbiÄģo ĠshÃ¬Ġ
bÅįĠshÃ¬Ġ dÃ¹nĠ
ĠxÄ«nĠjiÄģĠ pÅį
6 7ĠniÃ¡nĠ
Ġ xiÃ¡ng
Ġ yÇĴuĠdeĠ
Ġ xuÄĽĠ
Ġ biÄģoĠzhÃ¬Ġ
20 ĠniÃ¡nĠdÃłiĠ
shÃ¹ ĠlÃ¬Ġ
Ã¨r ĠhÃłoĠ
rÃº ĠtÃ³ngĠ
an k
shuÄģng ĠxiÃłngĠ
il Ġ
ĠdÃło ĠwÃ¨iĠ
ĠdÃłĠ tÄ«ngĠ
ĠrÃ¬Ġ jÃ¬Ġ
mÃŃngĠ yÃ¹Ġ
shÇĴuĠ pÄ«Ġ
ĠjÃ¹Ġ juÃ©
dÄģnĠ dÄģngĠ
tuÅįĠ lÃŃ
ĠjÄ«nĠ tiÄģnĠ
ĠĠĠS e
dÄĵngĠ chÃ¡ng
leĠyÄ«Ġ zuÃ²Ġ
kÄģiĠshÇĲ ĠdeĠ
chuÃ¡nĠtÇĴng ĠshÃłngĠ
ĠyÃ²ngĠ lÃ¡iĠ
jiÃ¨ĠquÃ¡nĠguÃ³Ġ rÃ©nĠdÃłĠdÃłiĠbiÇİoĠ
1 ĠzhÃ¬Ġ
7 1Ġ
a j
qiÃ¡n ĠlÃ¬Ġ
cÃ¡i ĠshÃ¬Ġ
pÃło ĠjÄ«Ġ
ĠdeĠ gÄĵĠqÇĶĠ
ĠyuÃ¡nĠ yÃ¬Ġ
ĠdÃłoĠ qiÃłnĠ
zhÃ¨ngĠ jiÃłoĠ
ĠhÃ²uĠ yÃ²uĠ
zhÃŃĠ jiÃłoĠ
sÄģnĠ fÄĵnĠzhÄ«Ġ
liÃ¨Ġ nÃŃngĠ
zÇĴngĠ zhÇİngĠ
bÅįĠ lÃŃ
bÅįĠ yÃ¬ngĠ
bÃłnĠ jÃ¬ngĠ
yÃ¡nĠjiÅ« ĠzhÅįngĠ
qÄ«nĠ lÃ¼Ã¨Ġ
jÅ«nĠ duÃ¬
huÃ¡ĠrÃ©nĠmÃŃnĠ gÃ²ngĠhÃ©Ġ
ĠzhÅįngĠyÄģngĠ wÄĽiĠyuÃ¡nĠhuÃ¬Ġ
ĠdeĠdÃłĠ xÃŃngĠ
yÃ¬ngĠyÃ²ngĠ chÃ©ngĠshÃ¬Ġ
zÃ©i Ġ
kÇİĠsÄ«ĠdÃ¬ĠlÃ¬Ġ yÃłĠ
M S
Ġ mÃ¬ngĠmÃŃngĠ
Ġ 2025ĠniÃ¡nĠ
ĠĠĠ cÃ©ngĠ
gÅįng ĠzÃłiĠ
huÃ¡ ĠnÃ¡nĠ
quÃ¨ ĠshÃ¬Ġ
bÇĶ ĠshÃŃĠ
ĠrÃ©nĠ shÃ²uĠshÄģngĠ
jiÄģĠ tÃŃng
ĠchÅ« ĠwÃ¨iĠ
duÃ¬Ġ kÃłng
ĠÄĽr ĠjiÄģĠ
xiÃłngĠ zhÄĵng
liÃ¡nĠ xÃ¬
fÃºĠ niÃ¨Ġ
yÃłoĠ sÃłiĠ
bÃ¬Ġ huÃłĠ
biÄģnĠ jiÄģngĠ
dÇİngĠ wÄĽiĠshÅ«ĠjÃ¬Ġ
ĠxiÃłngĠ zhÄĵngĠ
xiÃ©Ġ huÃ¬ĠdeĠ
wÅ«Ġ dÇĲngĠ
huÄ«Ġ sÃ¨Ġ
hÄĽnĠ shÇİo
ĠĠĠzhÅįngĠ huÃ¡ĠmÃŃnĠguÃ³Ġ
ĠyÇĲĠjÄ«ng ĠbÃ¨iĠ
ĠbÃ¹ĠguÃ² ĠzÃłiĠ
ĠdÃ¬ĠzhÅįngĠ hÇİiĠ
ĠfÃºĠlÇİngĠ shÃ©nĠ
ï ¹
Ġ hÇİo
Ġ chuÃłngĠlÃ¬Ġ
de l
jÃ¹ ĠshÃ¬Ġ
mÇĲ ĠzhÃ¬Ġ
qÃ¬ ĠjÄ«Ġ
fÄĵng ĠlÃ¬Ġ
gÇĶ ĠjÃŃĠ
gÇİi ĠyÃ³uĠ
197 7ĠniÃ¡nĠ
ĠbÃ¹Ġ lÃºnĠ
jÃŃĠ tuÃ¡nĠ
yuÃ¡nĠ sÃ¹Ġ
ĠguÃ³Ġ huÃ¬ĠyÃ¬ĠyuÃ¡nĠ
ĠgÅįngĠ wÃ¹ĠyuÃ¡nĠ
ĠdÃ© ĠchÅ«Ġ
pÃŃngĠ jiÃ¨Ġ
ĠjÅ«nĠ xiÃ¡nĠ
diÃłnĠ zhÃłnĠ
ĠkÃ¨Ġ lÃ©iĠ
dÅįngĠ fÄĵngĠ
hÇİiĠ xiÃ¡
ĠdÃłiĠ bÇĶĠ
tÃłiĠ lÃ¡ngĠ
biÇİoĠ miÃłn
tÃºĠ shÄģ
tÃ³ngĠ pÃ¡iĠ
xÃŃĠ guÃłn
zhÄĵnĠ zhÅ«Ġ
fÃłnĠ chÃ³uĠ
gÃłiĠ yÃłoĠ
ĠluÃ³Ġ mÇİ
ĠdeĠhÃ©Ġ xÄ«nĠ
ÃłoĠlÃŃnĠpÇĲĠkÃ¨Ġ yÃ¹nĠdÃ²ngĠ
yÃ¬ĠshÃŃĠ dÃło
ĠĠĠ195 0ĠniÃ¡nĠ
ĠĠĠand ĠĠĠ
Ġback groundĠ
8 3Ġ
9 ĠniÃ¡nĠdeĠ
p u
Ġ tÃ³u
Ġ qÇĲng
Ġ fÃłngĠ
Ġ kÄĽĠyÇĲ
Ġ chuÃłngĠzuÃ²Ġ
Ġ lÄĽngĠ
Ġ gÄģoĠzhÅįngĠ
le ĠshÃ¬Ġ
suÇĴ ĠzhÄ«Ġ
hÇİi ĠzhÃłnĠ
tÃ¡i ĠhÃ²uĠ
cÄģn ĠjÅ«nĠ
sÃ¨ ĠhÃ©Ġ
chuÃ¡n ĠdÃłoĠ
pÃ¡i ĠdeĠ
jiÃł ĠwÃ¨iĠ
bÃ¹Ġ duÃ¬Ġ
ĠdÃ¬Ġ 3
ĠzhÃ¬Ġ dÃłĠ
yuÃ¡nĠ wÃłiĠlÃ¡ngĠ
ĠchÃ©ngĠ nuÃ²
ĠtÄģĠ kÄģiĠshÇĲĠ
guÄģnĠ zhÃŃĠ
lÃ¹Ġ duÃłn
bÃ³Ġ lÇİn
jÅ«Ġ zhÃ¹
ĠyÄ«nĠwÃ¨iĠ zÃłiĠ
zhuÄ«Ġ suÃŃĠ
zÃłoĠchÃ©ngĠ leĠ
ĠmÃŃnĠ jÃ¬nĠ
dÄģĠ pÃ¨iĠ
rÃ³u Ġ
ĠzÃłiĠjiÄģĠ shÃłngĠ
xÄ«nĠchÃ©ngĠ lÃ¬ĠdeĠ
jiÄģoĠliÃº ĠdÃłoĠ
zhÅ«ĠlÃ³ngĠ cÇİoĠ
chÄĵĠrÃ©nĠ cÃ¬Ġ
ĠlÃ¬ĠtÃ¡oĠ wÇİn
sÃłĠzhÅ«Ġ sÄģi
O P
mÃŃng ĠchÃ©ngĠ
yÃ¹ ĠmÃŃngĠ
mÃ¹ ĠjÄ«Ġ
yÄĽ ĠwÃ¨iĠ
yÃł ĠÄĽrĠ
wÇĶ ĠjÃŃĠ
biÄģn ĠzÃ¬Ġ
gÇİng ĠdeĠ
mÃ³ ĠdeĠ
cÃŃ ĠyÇĶĠ
195 5ĠniÃ¡nĠ
ĠbÃ¹Ġ jiÃłnĠ
ĠdÃ¬Ġ zhÇĲĠ
zhÃŃĠ tÅįngĠ
yÃ¨Ġ zhÄĽĠ
jiÄĵĠ cÃ©ngĠ
wÄĵiĠ ruÇİn
ĠqÃŃĠzhÅįngĠ yÃŃĠgÃ¨Ġ
ĠdeĠshÃŃĠ dÃłiĠ
Ġh Äĵng
ĠrÃ¨nĠwÃ©i ĠshÃ¬Ġ
ĠjÄ«ĠbÃłi ĠleĠ
Ġ nÃ©ng
Ġ chÇİnĠ
Ġ qÄ«ngĠniÃ¡nĠ
shÄĵn ĠkÃ¨Ġ
sÃ¹ ĠwÃ¨iĠ
ni c
jiÄĽ ĠxÄ«Ġ
bÄģng ĠdeĠ
dÅ«n ĠdeĠ
pÃło ĠdeĠ
ĠhÃ©Ġ sÄ«Ġ
ĠdÃ¬Ġ di
ĠyÄ«Ġ shÅ«Ġ
ĠjiÄģĠ zhÅįu
pÃŃngĠ dÄĽngĠ
nÃ¡nĠ cÃ¨Ġ
yÃ¹Ġ nÃłnĠ
ĠdÃłiĠ lÇĲng
shÄģĠ tÃ¨Ġ
zhÅįngĠdeĠ yÃŃĠgÃ¨Ġ
piÃłoĠ jiÃłĠ
pÄ«Ġ quÃ¡nĠguÃ³ĠzhÃ²ngĠdiÇİnĠwÃ©nĠwÃ¹ĠbÇİoĠhÃ¹ĠdÄģnĠwÃ¨iĠ
qÇĲĠyÃ¨ ĠjiÄģĠ
ĠfÄĵiĠlÇľĠ bÄ«nĠ
ĠkÇĴngĠtÃłi ĠdÃłĠqÅ«Ġ
J RĠ
u st
w ÃłĠ
Ġ gÄģn
Ġ lÃŃnĠshÃŃĠ
ĠĠĠ hÇİiĠ
tÃ³u ĠyÃºĠ
ĠzÃłiĠ jÃ¹Ġ
ĠzÃłiĠ xiÄģngĠgÇİng
ĠshÃŃĠ jiÄģĠ
ĠrÃ©nĠ wÃ©iĠ
ĠjÃ¬Ġ jiÃ©Ġ
ĠchÅ« ĠshÃ¬Ġ
rÃ¨nĠ nÃ¨iĠ
nÃ¡nĠ yÇİnĠyuÃ¡nĠ
gÄģoĠ xiÃ³ngĠ
ĠzuÃ²Ġ yÃ²ng
ĠrÃ¨nĠ nÃ¨iĠ
cÃ¬Ġ liÃ¨ĠchÄĵĠ
yÃŃĠ dÇİoĠ
dÃ¬ngĠ jÅ«
bÅįĠ luÃ³Ġ
cÃŃĠ qÃ¹Ġ
yÃ¡nĠjiÅ« ĠshÃ¬Ġ
ĠtÃ³ngĠ mÃ©ng
kÅįngĠ jiÄģnĠdeĠ
gÃ¹Ġ zhÃłngĠ
tÃ¡oĠ lÃŃĠ
ĠtiÄģnĠ zhÇĶĠjiÃłoĠ
Ġ19 28ĠniÃ¡nĠ
jÃ¹nĠ wÃ¡ngĠ
sÅ«nĠ ziĠ
ĠhuÃłĠ xuÃ©Ġ
wÃłiĠjiÄģoĠ guÄģnĠxÃ¬Ġ
guÃ²ĠqÃ¹ ĠdeĠ
6 3ĠniÃ¡nĠ
G P
Ġ fÄģĠzhÇİn
Ġ dÇĲngĠ
Ġ cuÄ«Ġ
Ġ duÃ³ĠdeĠ
ĠĠĠ ÃłnĠ
zhÃłn ĠshÃŃĠqÄ«Ġ
liÃ¡n ĠsÄ«ĠjÄ«Ġ
sÃłi ĠhÃ©Ġ
shÄģn ĠshÃłngĠ
tÃłi ĠhÃ©Ġ
wÄĵi ĠsÄ«Ġ
dÄ« ĠdÃ¬Ġ
ĠzhÃ¬Ġ suÇĴĠzÃłiĠ
zhÃ¨Ġ zuÃ²Ġ
qÇĲĠ fÄĵiĠ
bÃ¬Ġ yÃ¨
biÃłnĠ huÃłĠdeĠ
jiÄĽĠ p
yÇĲĠ lÃ¡i
kÅįngĠ xÃŃ
chÃ³ngĠ bÃłiĠ
ĠM o
ĠdeĠrÃ©nĠ kÇĴuĠwÃ¨iĠ
wÃ¡nĠchÃ©ngĠ hÃ²uĠ
1ĠrÃ¬Ġ qÇĲĠ
yÃ¬nĠdÃ¹Ġ jiÃłoĠ
jiÄģoĠtÅįng ĠbÃ¹Ġ
tÃ³ngĠxÃ¬ngĠ liÃłnĠ
mÃŃnĠjÃ¬nĠ dÇİngĠ
4 ĠhÃłoĠ
8 ĠmÃŃngĠ
9 6Ġ
B A
D A
d Çİn
Ġ e
shÃ¹ ĠzhÄ«Ġ
zhÇİng ĠshÃŃĠjiÄģnĠ
lÃŃn ĠhÃ©Ġ
luÃ³ ĠyÄ«Ġ
pÃ¨i ĠsÄ«Ġ
wÄĵn ĠhÃ©Ġ
ĠwÃ¨iĠ fÃ¹Ġ
ĠzhÅįngĠ wÇĶĠ
jÃ¬Ġ yÃ¬Ġ
ĠrÃ¬ ĠĠĠ
ĠjÅ«n ĠjiÃłnĠ
nÃ¡nĠ hÃ¡iĠ
zhÃ¨Ġ xiÃłngĠ
ĠpÃŃngĠ gÅ«Ġ
quÃ¡nĠ miÃłn
xiÄģoĠ miÃ¨Ġ
ĠdeĠshÃ¬Ġ wÃ¹Ġ
guÇİnĠlÇĲĠ jÃº
xuÃ¡nĠ lÇľĠ
ĠbÃ¬Ġ yÃ¨Ġ
Ġ2 ĠĠĠ
sÇĶnĠ shÄģngĠ
ĠzhÄ«ĠjiÄģĠ gÄĵĠ
zhÇĶĠjiÃłoĠzuÃ²Ġ tÃ¡ngĠ
U ni
Ġ yÇİn
Ġ zhÇİo
Ġ mÃ¬ngĠ
Ġ pÃ¡ngĠ
Ġ 100Ġ
ĠĠĠ guÇĲĠdÃłoĠ
zuÃ² ĠchÃ©ngĠ
shÄĵng ĠshÃŃĠ
yÃŃ ĠdÃłoĠ
shÇĴu ĠzhÄ«Ġ
di Äĵ
kÄģi ĠdeĠ
chÄĵ ĠzÃłiĠ
wÇĶ ĠrÃ¬Ġ
gÄģi ĠshÃ¬Ġ
mÇĲ ĠdeĠdÃ¬ĠqÅ«Ġ
zhuÇİn ĠrÃ¨nĠ
197 3ĠniÃ¡nĠ
196 5ĠniÃ¡nĠ
chÃ¨ ĠchÅ«Ġ
zhÄģo ĠmÃ¹Ġ
ĠwÃ¨iĠ jÅ«nĠ
ĠyÄ«Ġ dÃłi
ĠyÇĶĠ tÄģ
zhÃ¨ngĠ wÄĽiĠ
xiÄģngĠ cÅ«nĠ
fÃºĠ lÄģĠ
shÇĶĠ shÇĶĠ
gÇİngĠ kÇĴu
ĠĠĠC o
liÃłnĠ jiÄĵĠ
yÃ¡oĠ gÇĶnĠ
juÃ©ĠsÃ¨Ġ bÃłnĠyÇİn
chÄģĠ biÃ©Ġ
sÇĶnĠ hÃłiĠ
ĠtÃ¡ngĠ chÃ¡oĠ
ĠqÃŃĠtÄģ ĠrÃ©nĠ
0ĠniÃ¡nĠdÃłi ĠchÅ«Ġ
T S
r yĠĠĠ
Ġ jiÃłĠ
Ġ pÄ«ĠpÃŃngĠ
Ġ miÃłnĠduÃ¬Ġ
ĠĠĠ yÇĲ
ĠĠĠ huÃ¬Ġ
ĠĠĠ zhÇĶĠ
kÄĽ ĠgÅįngĠ
chÃ¡ng ĠniÃ¡nĠ
qÃ¬ ĠzhÃ¬Ġ
qÃ¬ ĠyÃ³uĠ
qÄ«ng ĠlÇĲĠ
lÃŃng ĠshÃŃĠ
ĠniÃ¡n ĠshÃ¬ĠjiÃ¨
ĠwÃ¨iĠ rÃ¬ĠbÄĽnĠ
jÄ«Ġ xiÃ¨Ġ
ĠchÅ«Ġ shÇĲĠ
ĠbÃ¨iĠ shÄģĠ
shÄģnĠ kÇĴuĠ
qÄ«ngĠ chÇĶ
bÃ¬Ġ yÃło
chuÃ¡nĠ fÃ³ĠjiÃłoĠ
yÃ¡nĠjiÅ« ĠrÃ©nĠyuÃ¡nĠ
hÃ¡nĠ liÃłngĠ
chÇĶĠ sÇĲĠ
sÃ²ngĠ wÇİngĠ
dÃłnĠ yÃłoĠ
ĠĠĠD e
ĠguÃ³ĠmÃŃnĠ gÃ©ĠmÃ¬ng
ĠÃło ĠzhÅįuĠ
ĠwÃ¨iĠyÃºĠgÄģiĠguÃ³Ġ zhÅįngĠbÃ¹Ġ
ĠrÃ¨n ĠzhÅįngĠgÃ²ngĠ
yÃ¬nĠdÃ¬Ġ ÄģnĠrÃ©nĠ
chÃ³ngĠqÃ¬ng ĠshÃ¬Ġ
gÄģoĠdÄĽng ĠxuÃ©ĠxiÃłoĠ
ĠhÅįngĠzhÃł ĠjÄ«Ġ
1 ĠniÃ¡nĠdeĠ
p iÃ¡n
Ġ xiÅ«
Ġ xÃ¬ĠliÃ¨
Ġ 24Ġ
ĠĠĠ rÃ¬
hÃ²u ĠrÃ©nĠ
fÇİ ĠlÃ¬Ġ
tÅįng ĠdeĠ
gÄĵ ĠsÄ«Ġ
kÃ¹ ĠsÄ«Ġ
wÄĵn Ġnu
tuÃ¬ ĠchÅ«
ĠbÃ¹Ġ duÃ¬ĠdeĠ
ĠjÃŃĠ jiÃ©Ġ
ĠdÃłĠ xiÇİo
ĠgÃ¨ ĠshÃ¬Ġ
ĠyÇĲĠ cÇĲ
zuÃ²Ġ biÄģoĠ
ĠyÇĶĠ yÄ«nĠ
zhÃłnĠ tÄ«ngĠ
wÃ¹Ġ yÃ¨Ġ
fÄģĠ diÃłnĠjÄ«Ġ
ĠÃ©rĠ sÇĲĠ
ĠbÃ¬ngĠ zhÇĲĠyÃºĠ
fÄĵnĠ jiÄĽĠ
zuÃ¬Ġ dÃł
chÇİngĠ shÄģngĠ
tÃŃĠ jiÄģo
gÇİiĠ liÃ¡ngĠ
ĠchÃ©ngĠwÃ©iĠ yÃŃĠgÃ¨Ġ
ĠĠĠdÃ¬Ġ mÃŃngĠ
bÃ¬ngĠ fÄĵiĠ
piÃłoĠ fÃ¡ng
nÃŃngĠ bÅįĠ
yÇĴuĠbÃ¹Ġ shÇİoĠ
xiÅ«ĠzhÃ¨ngĠ ÃłnĠ
ĠruÃ¬Ġ diÇİnĠ
icrosof tĠĠĠ
2 ĠpÃŃngĠfÄģngĠgÅįngĠlÇĲĠ
7 00
D e
Ġ l
Ġ xiÃło
Ġ xÅ«
Ġ zÅ«nĠ
Ġ zÃ¡Ġ
ĠĠĠ se
qÅ« ĠzhÄ«ĠyÄ«Ġ
jiÄģng ĠdeĠ
sÃłi ĠhuÃ¬Ġ
zhÄĽ ĠzhÄ«ĠyÄ«Ġ
fÇİn ĠfÃ¹Ġ
pÃłi ĠchÅ«
rÃ¨ ĠhÃ©Ġ
196 7ĠniÃ¡nĠ
yÃ¬Ġ jiÃłnĠ
ĠyÃ¬Ġ rÃ¬Ġ
ĠxiÃłn ĠxÃŃngĠ
ĠdÃło ĠzÃłiĠ
ÄģnĠ dÇİĠ
lÃŃnĠ qÅ«Ġ
bÃłoĠ dÇİo
zÄ«Ġ gÃ©
ĠlÃ¹Ġ kÇĴuĠ
mÃ©iĠ yÇĴuĠzÃłiĠ
tÃŃngĠ liÃºĠ
ĠdeĠdÃ¬Ġ xiÃłĠ
cÄģnĠ tÄ«ng
yÄ«nĠ mÃ³uĠ
ĠluÃ³Ġ nÃ¨Ġ
ĠĠĠ198 6ĠniÃ¡nĠ
dÃ²ngĠlÃ¬Ġ xuÃ©Ġ
gÇİiĠbiÄģn ĠzÃ¬Ġ
tÃ¡iĠfÄĵngĠ jÇĲngĠbÃło
chÇĴu ĠkÄĵĠ
g a
Ġ nÃłi
Ãło ĠkÃ¨ĠxÄ«ĠtÇİĠnÃŃĠdÃłĠqÅ«Ġ
ÄĽr ĠsÄ«Ġ
mÇİ ĠshÃłngĠ
shÄģn ĠjÃŃĠ
yÇİng ĠhÃ©Ġ
ĠbÃ¹Ġ lÃ©i
ĠgÅįngĠ zhÇĶ
zhÃ¨Ġ chÇİngĠ
zhÃŃĠ quÃ¡nĠ
ĠbÃ¬ngĠ dÄģnĠrÃ¨nĠ
ĠqÃŃĠ jiÄģnĠ
ĠzhÃłnĠ chÇİngĠ
cÇĲĠ lÃ¨iĠ
fÇĶĠ bÃłiĠ
hÃ¡iĠ yÃłoĠ
hÃ¡iĠ mÃ©iĠyÇĴuĠ
xuÄģnĠbÃ¹Ġ jiÄģngĠ
leĠyÄ«Ġ chÃ¡ngĠ
ĠÄĽrĠsÄ«Ġ kÃ¨Ġ
ĠshÃ¬ĠyÃ¬Ġ yuÃ¡nĠ
ĠpÃŃng ĠjÅ«n
Ġon ly
s o
Ġ yÃłĠlÃ¬ĠshÄģnĠdÃłĠ
yÇĴu ĠzhÅįngĠ
shÄĵng ĠshÃ¬Ġ
wÃ©n ĠshÃ¬Ġ
en ce
yuÃłn ĠhÃ©Ġ
zÇĴng ĠrÃ©nĠkÇĴuĠdeĠ
gÇİi ĠchÃ©ngĠ
xiÄģn ĠzÃłiĠ
bÄ«ng ĠduÃ¬Ġ
nÇĶ ĠÄĽrĠ
ĠhÃ©Ġ yÇĲĠ
ĠzhÅįngĠ chÇİngĠ
ĠdÃłn ĠdÃłoĠ
shÇĴuĠ xÃŃ
ĠjÃ¬n ĠchÃ©ngĠ
tiÄģnĠ qiÃ¡oĠ
chÃ¡ngĠ chÅ«n
bÇİoĠ Äģn
lÃŃnĠ chuÃ¡ng
ĠzhÃ¹Ġ zhÃ¡iĠ
ĠdeĠyÄ«Ġ yuÃ¡nĠ
ĠdeĠshÃŃĠ wÃ¹Ġ
Ã¨Ġ liÃ¨Ġ
Ġp Å«
ĠdeĠjÃ¬Ġ zÇİiĠ
xiÃłĠjÃ¬Ġ ÃłoĠyÃ¹nĠhuÃ¬Ġ
ĠwÃłiĠ jiÄģo
huÃ¡nĠjÃ¬ng ĠzhÅįngĠ
ĠqiÃ¡ngĠ diÃłoĠ
ĠÑ Ģ
ĠyÄ«ĠlÃ¬Ġ shÄģĠbÃ¡iĠ
fÃºĠlÃ©i ĠdÃ©Ġ
Ġonly includeĠ
0 ĠbÇĲĠ
1 12
C C
G D
Ġ pÃłoĠ
bÃ¨i ĠlÃ¬Ġ
rÃ¨n ĠhÃ²uĠ
zhÃŃ ĠxiÃłnĠ
tiÄģn ĠdÃ¬Ġ
yÃ²u ĠyÇĴuĠ
50 ĠmÇĲĠ
ĠshÃ¬Ġ tÃ¡iĠwÄģn
ĠshÃŃĠ bÃ¹Ġ
ĠlÃ¬Ġ zhÄ«Ġ
ĠyÃ¬Ġ kÄĽĠ
sÄ«Ġ xiÇİng
hÃ²uĠ lÃ¡iĠdeĠ
ĠzhÄ« ĠrÃ©nĠ
ĠzhÅįu ĠzhÃ¬Ġ
liÃ¡nĠ suÇĴĠ
rÃ¹Ġ xuÃ©Ġ
cÇĲĠ qiÃ¡nĠ
tÃłiĠ lÄĵiĠ
wÇİngĠ yÃ¨Ġ
ĠgÄģiĠ dÇİng
xÅ«Ġ nÇĲ
hÃ¡nĠ mÃŃnĠguÃ³Ġ
wÄĽiĠyuÃ¡nĠhuÃ¬Ġ zhÇĶĠrÃ¨nĠ
dÃłiĠbiÇİoĠ tuÃ¡n
ĠnÇļĠ xÃ¬ngĠwÃ¨iĠ
ĠyÃ¬ĠzhÃŃ ĠdÃłoĠ
zhÃłnĠzhÄĵng ĠdeĠ
ĠqÇĲ ĠchÅ«Ġ
ĠhÄģĠÄĽrĠ bÄ«nĠshÃ¬Ġ
tÃłnĠxiÇİn ĠduÃ¬Ġ
zhÅ«ĠshÃ¬ĠhuÃ¬Ġ shÃ¨Ġ
+ +
7 ĠmÃŃngĠ
8 ĠniÃ¡nĠdeĠ
T wit
Ġ jiÇİng
Ġ mÇİnĠ
yÇĶ ĠgÅįngĠ
qÃŃ ĠzhÃ¬Ġ
mÃŃng ĠdÃ¬Ġ
chÄĵ ĠshÃłngĠ
Ã¨r ĠgÃ¨Ġ
10 ĠrÃ©nĠ
tÃº ĠshÃłngĠ
fÃłng ĠdeĠ
193 7ĠniÃ¡nĠ
ĠshÃ¬Ġ jÃ¬
ĠgÃ¨ ĠjÃŃĠ
ĠdÃ© ĠzÃłiĠ
ĠlÇĲĠ yÃł
jiÄĵĠ bÃ³Ġ
ziĠ kÄĵĠ
wÃ¡ngĠ zÇĲ
zÇĴngĠ jiÃ©Ġ
ĠzhÃ¹Ġ cÃ¨Ġ
shÄģĠ shÇĴuĠ
shÄģĠ mÃ²Ġ
chÅ«Ġ xÃŃĠ
shuÅįĠ fÃºĠ
ĠjiÃ©Ġ shÃ¹
pÃłiĠ xÃ¬Ġ
ruÃ¬Ġ shÃ¬ĠdeĠ
tÃłnĠ xiÇİnĠ
mÇĴuĠ zhÇĴngĠ
ĠĠĠ194 6ĠniÃ¡nĠ
yÃ¬ĠshÃŃĠ xÃŃngĠtÃłiĠ
ĠdÃ©ĠlÇĲĠ kÃ¨Ġ
ĠchÅ«ĠbÇİn ĠleĠ
pÃ©n Ġ
xiÄģoĠfÃ¨iĠ zhÄĽĠ
ĠxÄ«nĠzÄĵngĠ jÃ¬ngĠwÃłiĠshÅ«ĠrÃ¹Ġ
8 ĠpÃŃngĠfÄģngĠgÅįngĠlÇĲĠ
b Ã¨ngĠ
Ġ kÇĴng
Ġ yÃ¹nĠdÃ²ngĠ
Ġ bÃºĠhuÃ¬Ġ
ĠĠĠ zhÃ¨
ĠĠĠ lÃ³ngĠ
jÄ« ĠwÃ¨iĠ
yÃ³u ĠshÃ¬Ġ
yÃ³u ĠhÃ©Ġ
xÄ«n ĠniÃ¡nĠ
jÇĲ ĠwÃ¨iĠ
zÃ© ĠhuÃ¬Ġ
liÃº ĠqiÃº
fÄĵi ĠÄĽrĠ
mÃ³ ĠÄĽrĠ
cÃ¡i ĠbÃ¨iĠ
âĢ ¢
gÇİn ĠjÅ«nĠ
bÇİi ĠrÃ©nĠ
yÃ¬Ġ zhÃŃĠ
ĠyÇĴuĠ gÅįngĠ
jÃ¬Ġ zÇİi
ĠyÇĲ ĠshÃŃĠ
shÄĵngĠ mÃ¬ng
ĠxÄ«Ġ yÇĶĠ
huÃłĠ fÄĵnĠwÃ¨iĠ
zhÃŃĠ nÃ©ngĠ
dÃ²ngĠ cÃŃĠ
jiÄĵĠ duÃłnĠdeĠ
zhÃ¨nĠ yÄģ
zhÄĵngĠ yÃ¬ĠdeĠ
cÃ¡iĠ pÃłn
fÃ¡ngĠ hÃ¹Ġ
zhuÄģnĠ yÃ²ng
pÃŃnĠ kÃ¹n
ĠgÄĵnĠjÃ¹Ġ 2010ĠniÃ¡nĠmÄĽiĠguÃ³ĠrÃ©nĠkÇĴuĠpÇĶĠchÃ¡Ġ
ĠgÅįngĠsÄ« ĠhÃ©Ġ
ĠĠĠ198 5ĠniÃ¡nĠ
ĠĠĠ198 2ĠniÃ¡nĠ
ĠĠĠW orl
zhÄ«ĠchÃŃĠ zhÄĽĠ
ĠwÃ¨iĠyÃºĠgÄģiĠguÃ³Ġ nÃ¡nĠbÃ¹Ġ
sÄģngĠ nÃł
ĠĠĠyÇĲĠxiÃł ĠwÃ¨iĠ
1 ĠgÅįngĠlÇĲĠ
2 ĠniÃ¡nĠdeĠ
4 00Ġ
5 ĠpÃŃngĠfÄģngĠgÅįngĠlÇĲĠ
Ġ zhÄģnĠmÇĶĠsÄ«Ġ
Äĵn ĠdeĠ
le ĠzhÅįngĠ
zhÇĲ ĠhuÃ¬Ġ
ku Äģng
dÃ¡ ĠlÃ¬Ġ
kuÃ² ĠjiÃłn
mÃ³ ĠsÄ«Ġ
gÄĵng ĠdÃ¬Ġ
at ĠĠĠ
ĠxÄ«Ġ bÃ¹ĠdeĠ
zhÃ¹Ġ yÃ¬ĠdeĠshÃ¬Ġ
liÃ¡nĠ tÃ³ngĠ
dÅįngĠ hÇİiĠ
ĠhuÃ² ĠqÃŃĠtÄģĠ
shÄ«Ġ gÄĵĠ
qÇĲĠ diÇİnĠ
yÃŃĠ chÃºĠ
ĠnÃ¡nĠ fÄĵiĠ
ĠhÃ©ĠguÃ³Ġ jÃ¬Ġ
ĠĠĠS cho
ĠP ro
zhÃłngĠ Ãłi
ĠyÄ«nĠyuÃ¨Ġ huÃ¬Ġ
Ġãģ Ħ
zhÅįngĠshÃ¬Ġ yÇİnĠ
tÅįngĠguÃ² ĠdeĠ
ĠshÃ¬ĠjiÃłn ĠzhÅįngĠ
ĠduÅį ĠniÃ¡nĠ
shÄģoĠ huÇĲĠ
sÅ«ĠliÃ¡n ĠdeĠ
Ġ2011 ĠniÃ¡nĠ12ĠyuÃ¨Ġ31ĠrÃ¬Ġ
zhuÄģngĠwÃ¨iĠ lÃŃnĠ
R A
y Å«n
y Å«Ġ
Ġ lÄĵi
Ġ fÄģĠzhÇİnĠ
Äģi ĠdÃ©Ġ
dÃłi ĠchÅ«Ġ
nÃ¡n ĠdÃłĠxuÃ©Ġ
guÄģn ĠyÇĶĠ
fÇİ ĠhuÃ¬Ġ
bÄĽi ĠwÃ¨iĠ
hÇİi ĠdÃ¬Ġ
bÄģn ĠjÄ«Ġ
chÃ©n ĠshÃ¬Ġ
chÃ¹ ĠzÃłiĠ
tÇİ ĠlÃ¬Ġ
nuÃ² ĠkÃ¨Ġ
ĠyÄ«Ġ liÃłngĠ
ĠjÃ¬Ġ nÃ©ngĠ
ĠjiÃłn ĠzhÄ«Ġ
ĠbÃ¨iĠ yÃ¹ĠwÃ©iĠ
shÇĴuĠ qiÃºĠ
fÇİĠ tÃŃng
jiÃ©Ġ yÃ¹nĠ
zhÇİngĠ zhÃ³u
cÃ¬Ġ huÃ¬ĠyÃ¬Ġ
yÃŃĠ jÅ«
ĠzhÃ¨Ġ lÃ¨iĠ
yÇĲngĠ yÃ¨Ġ
yuÄĵĠ 2
dÄģnĠ chÄĵĠ
ĠzhÅįngĠguÃ³Ġ gÅįngĠ
huÃ¡Ġ bÄ«ngĠ
bÄ«ngĠ tuÃ¡n
qÄ«nĠ fÃłnĠ
zhÇĶnĠ juÃ©ĠsÃłiĠ
ĠdeĠyÃ¬Ġ jiÃłnĠ
wÃłiĠjiÄģoĠ guÄģnĠ
ÄģĠÄĽr ĠjÃŃĠlÃ¬Ġ
nÃ¡ĠpÃ²Ġ lÃºn
T AĠ
l Ã¡Ġ
Ġ cÃºnĠzÃłiĠ
Ġ yÅįngĠ
ĠĠĠ diÃłnĠyÇĲngĠ
dÃłi ĠhÃ©Ġ
shu Äģ
10 ĠshÃŃĠ
guÄģng ĠniÃ¡nĠ
ãģ ®
90 ĠniÃ¡nĠdÃłiĠ
ĠyÃºĠ 8ĠyuÃ¨Ġ
ĠlÇĲĠ jiÄĽĠ
ĠjiÃłnĠ zhÃ¹ĠdeĠ
ĠqÃŃĠ shÇĴuĠ
ĠzhÃłnĠ bÇĲĠ
ĠtÃ³ng ĠzhÄ«Ġ
mÇĲĠ lÃ¡nĠ
yÃŃĠ cÃ¬ĠshÃ¬ĠjiÃ¨ĠdÃłĠ
xiÇİoĠ tÃŃĠ
zhÄ«Ġ liÃºĠ
jiÇİngĠ huÃłĠ
tuÃ¡nĠ duÃ¬
gÃ¹Ġ shÃ¬ĠdeĠ
sÇĲĠ qÃ¹Ġ
ĠĠĠyÄ«Ġ xiÄĵĠ
ĠdeĠzhÅįngĠ xÄ«nĠ
ĠshÃŃĠzÃ¬Ġ lÇľĠ
dÃ²ngĠchÄĵĠ zÇĶĠ
bÇİoĠjiÄģ ĠlÃ¬ĠyÃł
bÄģoĠkuÃ²ĠyÇĲĠxiÃłĠ wÃ¹ĠzhÇĴngĠ
9 2Ġ
Ġ de
Ġ tuÅį
Ġ wÇĶĠniÃ¡nĠ
hÃ²u ĠyÇĴuĠ
ti Ġ
zhÄģng ĠchÃ©ngĠ
liÃłn ĠdeĠ
ĠzhÅįngĠ yÇĲĠ
ĠzhÃ¬Ġ ÄģnĠ
jÄ«Ġ xiÃ¨
mÃŃngĠ xiÇİnĠdeĠ
ĠjÃ¬Ġ jÅ«nĠ
ĠxÃŃngĠ diÃłnĠlÃ¬Ġ
duÃ¬Ġ cÇĲĠ
ĠÃ©r ĠchÅ«Ġ
ĠshÃ¨ ĠwÃ¨iĠ
mÇĲĠ yÃł
fÃ¨nĠ nÃ¹Ġ
jiÇİnĠ ruÃ²Ġ
chÅ«Ġ lÃ¡iĠ
kÄĽĠyÇĲĠ bÃ¨iĠ
qiÄģnĠ yÃŃĠ
ĠC ar
ĠzuÃ¬ĠzhÅįngĠ yÇĲĠ
zÃºĠqiÃºĠ jiÇİĠjÃŃĠ
kÃ²ngĠ gÇĶĠ
sÄģnĠshÃŃĠ sÃ¬ĠniÃ¡nĠ
ĠnÃ¡n ĠyÇĶĠ
ĠyÄ«ĠsÄ«ĠlÃ¡nĠ jiÃłoĠ
dÃ¡ĠkÄĵ ĠtÄģĠ
s ÇĴngĠ
Ġ cÃ¡ng
Ġ guÃłnĠ
Ġ chÃºnĠ
ĠĠĠ fÄĵngĠ
ĠĠĠ wÃłnĠlÃ¬Ġ
ti n
tÃ¨ ĠshÃ¨Ġ
biÄģn ĠyÃ¬Ġ
dÃº ĠjiÄģĠ
ĠzÃłiĠ guÃ³Ġ
ĠyÄ«Ġ kÃło
ĠtÄģĠ huÃ¬Ġ
xiÃłĠ xiÃ¡Ġ
huÃłĠ wÃ¹Ġ
bÄĽiĠ shÃłngĠ
ĠyÄ«nĠ ziĠ
cÃ©ngĠ dÄģnĠrÃ¨nĠ
biÃłnĠ liÃłngĠ
tÃ¡ngĠ chÃ¡oĠ
fÃ¨iĠ zhÇĲĠ
ĠjiÃ©Ġ gÃ²u
suÃ¬Ġ piÃłnĠ
ĠbÄģĠ lÃŃĠ
ĠrÃ¬ĠbÄĽn ĠrÃ©nĠ
ĠpÇĶĠ tÅįngĠ
Ġd ÄģĠ
yÃłĠlÃ¬Ġ sÄģngĠnÃł
dÇİoĠshÃ¬Ġ yuÃ¨ĠtÃ¡iĠ
chÃ©ngĠniÃ¡nĠ rÃ©nĠ
ĠhÄĵiĠlÃ³ngĠjiÄģngĠ shÄĽngĠ
hÃ¹nĠxi Ã¡oĠ
C T
a se
Ġ tÅįng
Ġ bÄĵi
Ġ jÃºĠ
wÃ©i ĠshÃ¬Ġ
xÄ«n ĠyÃ¬Ġ
gÇİi ĠjiÃłnĠ
pÃłi ĠduÃ¬Ġ
dÇİ ĠchÅ«Ġ
co m
ĠdeĠ pÃŃngĠ
lÃ¬Ġ chÇİngĠ
zhÃ¬Ġ liÃłngĠ
ĠlÃ¬Ġ zhÃ¬Ġ
ĠlÃ¬Ġ wÃ¹Ġ
ĠdÃłĠ xÄ«ĠyÃ¡ng
ĠyÇĲĠ wÃłi
ĠqÃŃ ĠhÃ©Ġ
ĠxÄ«Ġ lÃ¹Ġ
mÃŃnĠ yÃ²ngĠ
ĠjÃ¬n ĠjÅ«nĠ
bÃ¬Ġ hÃ¹Ġ
Ã¨rĠ shÃ¬ĠdeĠ
dÄģnĠ nÃŃĠÄĽrĠ
zhÄ«Ġ jiÄģn
tÃŃngĠ huÇĴĠ
xiÄģoĠ fÃ¡ng
Ġ19 29ĠniÃ¡nĠ
chÅįngĠ mÇİn
ĠqÄ«ngĠ chÃ¡o
ĠĠĠA Ġ
jiÃłoĠyÃ¹ ĠdeĠ
dÄģ ĠchÃ©ngĠ
pÅ« ĠshÃ¨Ġ
zhÇĴngĠjiÄģĠ cÃŃĠ
6 ĠĠĠ
t ri
Ġ pÃ¡ng
Ġ huÃ³Ġ
Ġ hÃ¨ĠÄĽrĠ
dÃ© ĠjÅ«nĠ
sÄģn ĠhÃ©Ġ
bÇĲ ĠjÃ¬Ġ
liÃ¨ ĠrÃ©nĠ
biÃłn ĠyÃ¬Ġ
nÇļ ĠshÄĵngĠ
tuÃ¡n ĠyuÃ¡nĠ
xiÄģo ĠhÃłoĠ
wÇİn ĠhuÃ¬Ġ
hÅ«n ĠhÃ²uĠ
ĠhÃ©Ġ S
yÃºĠ lÃ¨Ġ
ĠlÃ¬Ġ fÄģngĠ
bÃ¨iĠ pÃ²Ġ
ĠjiÄģĠ ÄĽr
ĠlÇĲĠ miÃłnĠ
ĠyÄ«n ĠzÃłiĠ
xÃ¬Ġ shÃ¹Ġ
diÃłnĠ yÄģĠ
ĠduÃ¬Ġ zhÃ¨nĠ
jiÄĵĠ dÃłiĠ
quÃ¡nĠ lÃ¬ĠdeĠ
shÃ²uĠ piÃłoĠ
ĠĠĠdÃ¬Ġ sÄģnĠ
gÄģngĠ tiÄĽ
ĠyÇĴuĠyÄ«Ġ zuÃ²Ġ
Ġ17 0
ĠcÃ³ng ĠÃ©r
ĠĠĠshÃ¬Ġ jiÃ¨Ġ
ĠĠĠ198 7ĠniÃ¡nĠ
ĠĠĠ198 3ĠniÃ¡nĠ
chÄģiĠ chÃº
ĠyÃºĠ199 5ĠniÃ¡nĠ
gÄĵnĠjÃ¹ ĠdÃ¬Ġ
ÄģnĠdÃ©Ġ liÃ¨Ġ
3 ĠpÃŃngĠfÄģngĠgÅįngĠlÇĲĠ
8 9Ġ
t onĠ
Ġ gÅ«ĠjÃ¬Ġ
xÄ« ĠrÃ¬Ġ
bÇİn ĠshÃłngĠ
bÄ«ng ĠhÃ©Ġ
guÇĴ ĠshÃŃĠ
zÇİo ĠyÇĲĠ
yuÇİn ĠchÃ©ngĠ
zhÃłng ĠhÃłoĠ
sÃłn ĠbÃ¹Ġ
tÃ©ng ĠyuÃ¡nĠ
ĠbÃ¹Ġ yÇĲĠ
ĠlÃ¬Ġ yuÃ¡nĠ
ĠyÄ«Ġ shÃ¬ĠdeĠ
xÄ«nĠ tÃ¡iĠbÃ¬Ġ
xiÃłĠ shÇĶ
zhÇİngĠ guÄģn
mÇİĠ lÃ¹Ġ
lÃŃnĠ shÄĽngĠ
biÃłnĠ dÃ²ngĠ
gÇİiĠ yÃ²ngĠ
bÃłnĠ lÇļĠ
kÃ¨Ġ lÃ¡iĠ
mÃ³Ġ fÇİngĠ
xiÃłnĠ chÇİngĠ
xiÄģoĠ miÃ¨
pÃ²Ġ chÇİnĠ
chÇĶĠ fÃ¨nĠ
liÃłnĠ xÃŃ
ĠsÅ«Ġ liÃ¡n
ĠwÃ¨iĠdÃ¬Ġ xiÃłĠ
ĠfÄĵnĠbÃ¹ĠyÃºĠ nÃ¡nĠmÄĽiĠzhÅįuĠ
ĠĠĠp ro
ĠguÃ³ĠwÃ¹Ġ yuÃłn
ĠwÃ¨iĠyÃºĠgÄģiĠ shÄĽng
C E
C o
w Ãł
â ħ
Ġ lÃłiĠ
ĠĠĠ yÃ¡nĠ
sÄģn ĠrÃ¬Ġ
wÃłi ĠdÃ¬Ġ
liÃ¨ ĠdÃ¬Ġ
zÇĴng ĠduÃ¬Ġ
ĠyÃºĠ 17
ĠlÃ¬Ġ rÃ¨n
ĠÃ©r ĠqÃŃĠ
jÃ¹Ġ luÃ²Ġ
bÄĽiĠ fÄģng
xiÇİoĠ zhÃ¨nĠ
yÇĲngĠ pÃŃngĠrÃ©nĠ
jiÄģoĠ xiÇİng
ÃłoĠ duÅįĠ
ĠxiÄģngĠ bÇĲ
jiÃ¹Ġ zhÃŃĠ
ĠtÃ³ngĠ mÃ©ngĠ
fÃ¡ngĠ ziĠ
ĠdÃłĠxuÃ©Ġ shÄĵngĠ
xÃºnĠ wÃ¨nĠ
gÃ¨ngĠ hÇİoĠdeĠ
Ġ19 12ĠniÃ¡nĠ
Ġ19 13ĠniÃ¡nĠ
wÄĽiĠyuÃ¡nĠhuÃ¬Ġ fÃ¹ĠzhÇĶĠrÃ¨nĠ
ĠĠĠC ar
ĠshÃ¹Ġ zÃ¬Ġ
hÃ¹nĠ luÃłn
ĠbÄĽn ĠyÃºĠ
dÇİĠjÄ«Ġ lÇľĠ
ĠĠĠzÇİoĠniÃ¡nĠ shÄĵngĠhuÃ³Ġ
1 20Ġ
6 ĠpÃŃngĠfÄģngĠgÅįngĠlÇĲĠ
6 9Ġ
C H
E n
R E
Ġ xÅ«ĠyÃło
jÄ«ng ĠwÃ¨iĠ
shÄģn ĠzhÃłnĠ
zi ĠzÃłiĠ
diÇİn ĠzhÃłnĠ
mÇĴu ĠyÄ«Ġ
80 ĠniÃ¡nĠdÃłiĠ
ĠzÃłiĠ gÄģoĠ
ĠshÃŃĠ wÇĶĠ
ĠyÃºĠ 2007
ĠzhÃ¬Ġ piÃłnĠrÃ©nĠ
rÃ¨nĠ tÃ³ngĠ
ĠzuÃ²Ġ wÃ©iĠyÄ«Ġ
qÄ«ngĠ chÃ©nĠ
dÄģnĠ dÃº
shÄģngĠ biÄģoĠ
xiÄģoĠ liÃłng
zÅįngĠ sÃ¨Ġ
ĠmÄĽi ĠjÅ«nĠ
Ġ1 ĠĠĠ
xÃ¬ĠliÃ¨Ġ sÃłiĠ
ĠĠĠshÃ¬Ġ jiÃłnĠ
cuÃ²Ġ wÃ¹ĠdeĠ
zhÃłnĠzhÄĵngĠ qÄ«ĠjiÄģnĠ
ĠjÄ«ĠbÄĽnĠ shÃłngĠ
kÃ¨ĠlÇĲĠ mÇĲĠyÃłĠ
bÃºĠ huÃ¬ĠzÃłiĠ
dÃŃĠshÃ¬Ġ nÃŃ
00ĠmÇĲ ĠzhÃ¬Ġ
ĠhuÃ¡ĠshÃ¨ngĠ dÃ¹n
qÄ«ngĠzhÄĵnĠ sÃ¬Ġ
ĠĠĠbÄĽnĠshÇĶĠ bÄģoĠkuÃ²ĠyÇĲĠxiÃłĠwÃ¹ĠzhÇĴngĠ
Ġ chuÃ¡n
Ġ nÃ¡nĠbÃ¹Ġ
ĠĠĠ rÃ©nĠwÃ¹Ġ
ĠĠĠ guÄģngĠxÃ¹Ġ
chÅ« ĠdeĠ
lÃ¹ ĠzhÅįngĠ
yÃ²ng ĠyÇĶĠ
mÄĽi ĠyÄ«Ġ
tÇĲ ĠshÃ¬Ġ
tÃ¡i ĠdÃłĠ
bÃło ĠmÃŃngĠ
jiÅ« ĠfÄĵnĠ
tÇİ ĠdeĠ
wÃ©iĠ yÃłĠ
bÃ¨iĠ bÇĶĠ
ĠgÃ¨Ġ tÇĲĠ
ĠdÃłn ĠyÇĴuĠ
ĠzhÃłnĠ duÃ¬Ġ
ĠzhÃ¨ngĠ wÃ¹Ġ
xÃ¬ngĠ zhÃ¬ĠdeĠ
nÃ¨iĠ wÃłiĠ
tÇĲĠ zhÃ²ngĠ
pÃ¡iĠ xÃ¹Ġ
xiÃłnĠ dÃłi
dÅįuĠ nÃ©ngĠ
hÃºĠ guÇİngĠ
bÃ¡iĠ jÄ«nĠ
gÇİnĠ shÃ²uĠ
ĠĠĠS p
gÃ¨Ġ lÃ¨i
ĠĠĠgÅįngĠ yuÃ¡nĠ
indow sĠĠĠ
jiÄģngĠxÄ«Ġ shÄĽngĠ
jÃ¹ĠfÄĵng ĠzhÅįngĠxÄ«nĠ
ĠISTAT ĠdÃłiĠmÇİĠwÃ¨iĠ0
chÃ¡iĠyÃ³u ĠjÄ«ĠchÄĵĠ
3 ĠniÃ¡nĠdeĠ
R O
n Çİ
Ġ sÃłiĠshÃ¬Ġ
Ġ shÄģngĠyÃ¨Ġ
ĠĠĠ shÇĴuĠ
ĠĠĠ mÃ²Ġ
xÄ« ĠdÃłoĠ
chÄĵ ĠhÃ©Ġ
gÄģi ĠgÅįngĠsÄ«Ġ
dÃ¬ng ĠshÃ¬Ġ
nÃł ĠzÃłiĠ
bÅį ĠjÃŃĠ
dÇĲ ĠyÃ¹Ġ
yÃłng ĠshÃ¬Ġ
liÃło ĠdeĠ
yÄģng ĠshÃ¬Ġ
niÇĶ ĠxÄ«ĠlÃ¡nĠ
ĠdeĠ chÃ©ngĠshÃ¬Ġ
ĠzÃłiĠ tÃ¡iĠwÄģn
ĠyÃºĠ 10ĠyuÃ¨Ġ
mÇİĠ nÃŃĠ
chÃ¡ngĠ yÃ²ngĠ
ĠjÃ¹Ġ shuÅįĠ
zÇĴngĠ gÃ²ngĠ
ĠxÄ«nĠ zhÃº
ĠzÃ¬Ġ chÄĵngĠ
chÅ«Ġ yÇİnĠ
ĠyÄ«ngĠ gÄģiĠ
ĠdeĠgÅįngĠ gÃ²ngĠ
shuÃ¬Ġ wÃ¹Ġ
ĠjÇĲnĠguÇİnĠ rÃºĠcÇĲĠ
hÇİn ĠjiÃłnĠ
guÄ«ĠlÃ¨i ĠwÃ¨iĠ
A r
Ġ zÄĵng
Ġ gÃłn
Ġ yuÃ¡nĠshÃ¬Ġ
ãĢ ķ
xÄ«n ĠshÃ¬ĠzhÃ¨nĠ
xiÃłng ĠzhÅįngĠ
mÃ¹ ĠlÇĲĠ
zÃ© ĠshÃ¬ĠzÃłiĠ
hÃ¹ ĠlÇĲĠ
zhÄģng ĠlÃ¹Ġ
jÇĲn ĠshÃ¬Ġ
kÅįng ĠdeĠ
xÃºn ĠqiÃº
sÃ²ng ĠdeĠ
194 7ĠniÃ¡nĠ
196 9ĠniÃ¡nĠ
196 2ĠniÃ¡nĠ
wÃ¨iĠ lÃ¡iĠ
ĠzÃłiĠ ÄģĠ
hÃ©Ġ yuÄĵĠ
ĠyÃºĠ dÃłĠ
ĠyÇĶĠ tÄģĠ
mÃŃngĠ cÃŃĠ
wÃ©nĠ zÃ¬
ĠzhÃ¨ngĠ miÃłnĠ
ĠtÃ³ng ĠniÃ¡nĠ7ĠyuÃ¨Ġ
yÃŃĠ tÇĲĠ
liÃºĠ jÄ«ngĠ
liÃºĠ lÇİnĠ
dÃ¬ngĠ yÃ¬ĠdeĠ
shÅ«Ġ diÃłnĠ
chÇİnĠ jiÄĵĠjÃŃĠ
jiÃłnĠ kÄģng
yÇĲnĠ dÇİoĠ
ĠzhÇĶĠ jiÃłoĠ
ĠdeĠdÃ¬Ġ di
zhÃ¨ngĠzhÃ¬Ġ wÄĽiĠyuÃ¡nĠ
chÇĶĠ fÃ¡Ġ
ĠdeĠshÃŃĠ qÄ«Ġ
chuÃłngĠ lÃ¬ĠdeĠ
ĠÃłoĠ mÃ©n
ĠbÅį ĠsÄ«Ġ
guÃłiĠ wÃ¹Ġ
tÃºnĠ mÃ©nĠ
ĠgÃ© ĠniÃ¡nĠ
ĠdÃłĠjiÇİngĠ sÃłiĠ
xiÄģngĠshÃ¬Ġ jÇĶĠrÃ©nĠ
mÃ¹ĠnÃŃĠ hÄĵi
ĠqÃŃĠzhÅįngĠnÃ¡nĠ xÃ¬ngĠwÃ¨iĠ
nuÃ²ĠmÃłnĠ dÇĲ
e u
Ġ tÇĶĠdÃ¬Ġ
Ġ huÃŃĠdÃłoĠ
ĠĠĠ hÄģĠ
ĠĠĠ zuÃ²ĠpÇĲnĠ
qÅ« ĠyÄ«Ġ
ti ng
jÃ¹ ĠlÃ¬Ġ
pÃŃng ĠhÃ©Ġ
198 0ĠniÃ¡nĠdÃłiĠ
cu ÃłnĠ
ĠrÃ©nĠ qÃ¬Ġ
ĠrÃ©nĠ yuÃ¡nĠdeĠ
ĠxÄ«Ġ nÃŃĠ
shÃ¹Ġ jÃŃĠshÃ¬Ġ
guÄģnĠ jiÃ©Ġ
jÄ«ngĠ quÃ¨Ġ
ĠzhÃłnĠ shÃ¹Ġ
ÄģnĠ nÄ«Ġ
shÄģnĠ dÅįng
zÇĴngĠ bÄ«ngĠ
Ã¨rĠ cÃ©ngĠ
wÃºĠ xiÃłoĠ
ĠdeĠyÄ«Ġ mÃŃngĠ
zhuÄģnĠ shÇĶĠ
nuÃ²Ġ fÅ«
leĠyÄ«Ġ xiÃłngĠ
sÄ«ĠdÃ¬Ġ fÄĵnĠ
cÄģnĠmÃ³u ĠbÃ¹Ġ
zhÃŃĠlÃ¹ ĠhÃ²uĠ
6 ĠniÃ¡nĠdeĠ
m mĠ
Ġ liÃ¡o
Ġ qiÇİn
ãĢ Ķ
shÇĴu ĠhÃ©Ġ
xÃ¬ng ĠxÃŃngĠwÃ¨iĠ
shÄģn ĠchÃ©ngĠ
bÇİn ĠhÃ©Ġ
ĠshÃ¬Ġ jÃ¬ĠshÃŃĠ
ĠzÃłiĠ bÄĽnĠ
ĠzÃłiĠ 2020ĠniÃ¡nĠ
ĠzÃłiĠ zhÃ¨ĠlÇĲĠ
ĠdÃ¬Ġ yÃŃĠgÃ¨
nÃ¡nĠ nÇļĠ
ĠdÃ©Ġ guÃ³ĠdeĠ
shÃ²uĠ piÃło
liÃºĠ chuÃ¡n
bÄģĠ sÄģiĠÄĽrĠ
kÄĵĠ luÃ³ĠlÄģĠ
chÅ«Ġ shÃ²uĠ
ĠdeĠdÃ¬Ġ yÄ«ĠbÃ¹Ġ
huÃŃĠ xiÇİngĠ
gÃ¹Ġ tÇĲĠ
ĠzhÃ¨ ĠwÃ¨iĠ
ĠzhÅįngĠyÄģng ĠjÅ«nĠwÄĽiĠ
ĠshÃ¬ĠjiÃ¨Ġ yÃŃĠchÇİnĠ
ĠD i
ĠzhÇĲĠ huÄ«Ġ
2001ĠniÃ¡nĠ zÇĴngĠrÃ©nĠkÇĴuĠ
mÇĴuĠ zhÇĴng
bÃłĠ miÇİnĠ
fÇİnĠyÃ¬ng ĠleĠ
dÃłĠbÃ¹ĠfÃ¨n ĠdeĠ
ĠhÃ©ĠbÃ¬ng ĠÃ©rĠchÃ©ngĠ
rÃ©ngĠrÃ¡n ĠshÃ¬Ġ
dÄģĠ dÃłngĠ
jÃ¬ĠlÃ¹Ġ piÃłnĠ
Ġà ¤
jiÄģoĠchÄģĠ kÇĴuĠ
yÇĲĠsÃ¨Ġ liÃ¨Ġ
ÃłiĠhÃłoĠ zhÄĽĠ
ĠĠĠgÄģiĠdÃ¬Ġ 2001ĠniÃ¡nĠzÇĴngĠrÃ©nĠkÇĴuĠ
niver si
s Çİo
Ġ tiÄĽ
Ġ rÇĶ
Ġ jÃŃĠshÃ¬Ġ
ĠĠĠ th
zhÄ« ĠfÃ¹Ġ
guÄģn ĠzhÅįngĠ
shuÇĲ ĠwÃ¨iĠ
cÄģn ĠjiÃłnĠ
dÇİng ĠzhÇĶĠxÃŃĠ
hÃłn ĠwÃ¨iĠ
ĠshÃ¬Ġ yÄ«nĠ
hÃ©Ġ zuÃ²Ġ
ĠyÇĲ ĠyÄ«Ġ
ĠtÃ³ng ĠmÃŃngĠ
chÃ¡ngĠ jiÄģng
bÇĲĠ jiÃło
ĠshÃ¨Ġ huÃ¬ĠdeĠ
gÇĶĠ gÃ©Ġ
jiÃ¹Ġ jÄ«nĠshÄģnĠ
shÃ¨ngĠ bÇĲĠdÃ©Ġ
gÃ²uĠ zÃło
wÄĽiĠ rÃ¨nĠwÃ¨iĠ
ĠsuÇĴĠ shÇĶĠdeĠ
shÃłoĠ jiÃłng
ĠmÄĽiĠ cÃ¬Ġ
Ġn Ã¨Ġ
miÃ¡oĠ zhÇĶnĠ
diÃłoĠchÃ¡Ġ jÃºĠ
ĠzhÄ«ĠchÃŃĠ zhÄĽĠ
ĠW Ġ
ĠchÃºĠ le
Ġ6Ġ suÃ¬ĠrÃ©nĠkÇĴuĠ
ĠdeĠzuÃ²Ġ pÇĲn
zhÇĶĠtÃŃ ĠdeĠ
gÄģnĠsÃ¹Ġ shÄĽngĠ
hÃ¹nĠnÃŃngĠ tÇĶĠ
wÅ«ĠlÇĶĠ mÃ¹
l la
Ġ mÃ©ngĠgÇĶĠ
hÃ³ng ĠqÃŃĠ
pÃ¨i ĠyÄ«nĠyuÃ¡nĠ
tiÃ¡n ĠshÃ¬Ġ
cÃ¹ ĠchÃ©ngĠ
bÃ¹Ġ tÃ³ng
yÇĴuĠ xiÃłoĠ
ĠgÅįngĠ shÇĶĠ
ĠgÅįngĠ yuÃ¡nĠdeĠ
ĠyÇĲ ĠzhÃ¬ĠyÃºĠ
ĠgÃ¨ ĠshÃ¬ĠzhÃ¨n
xiÄģngĠ sÃ¬ĠdeĠ
fÄģĠ wÃ©nĠ
fÇİĠ dÃ¬ngĠ
jiÃ©Ġ jÃºĠ
kÇĴuĠ ÃłnĠ
xÃ¬ngĠ xÄ«nĠ
shÄģnĠ gÇĶĠ
nÃłĠ rÃ¹
biÃłnĠ hÃ¹Ġ
zÃºĠ gÃ²u
gÃ²ngĠ fÃ¨ngĠ
dÇİngĠ pÃłiĠ
qiÄģnĠ xÇĲĠ
fÃłngĠ yÃ¬ngĠ
ĠshÇĴuĠ fÇĶ
ruÃ²Ġ gÄģnĠ
ĠJ o
jiÄĽĠjuÃ©Ġ fÄģngĠÃłnĠ
lÃ¡nĠkÃ¨Ġ lÃŃnĠ
K i
Ġ xiÃ¡
Ġ yÃ¬nĠnÃŃĠ
ĠĠĠ tÃ³ngĠshÃŃĠ
fÇİ ĠxÄ«ĠsÄ«Ġ
diÃłn ĠjÃŃĠ
nÃł ĠshÃŃĠ
jÇĲng ĠdeĠ
195 9ĠniÃ¡nĠ
lÃ³u ĠgÄģoĠ
jÄ«ngĠ shÄ«Ġ
fÄģĠ shÃ²u
ĠpÃŃngĠ hÃ©ngĠ
ĠshÃ¨Ġ rÃ¹Ġ
shÄĵnĠ shÃ²uĠ
ĠdÃłiĠ mÇİĠ
qÄ«ngĠ xiÃłngĠyÃºĠ
zÇĴngĠ zhÃŃĠ
yÃ¡ngĠ guÄģngĠ
mÃ¬ngĠ zhÃ²ngĠ
bÄĵiĠ guÃłnĠjÅ«nĠ
ĠĠĠB e
ĠmÄĽiĠguÃ³Ġ guÃ³ĠjiÄģĠ
wÄģnĠ zÇİiĠ
ĠbÅįĠ lÃ¡n
ĠgÃ¹Ġ cÇĲĠ
jÇĶĠbÃłn ĠleĠ
zuÃ²ĠpÇĲn ĠdeĠ
yÃ³uĠjÄ«Ġ duÃ¬Ġ
ĠĠĠyÄ«nĠ cÇĲĠ
ĠbÄĽiĠjÄ«ng ĠshÃ¬Ġ
tiÄģnĠrÃ¡nĠ qÃ¬Ġ
hÃ©n ĠjÃ¬Ġ
1 ĠpÃŃngĠfÄģngĠgÅįngĠlÇĲĠ
r Ã¡o
Ġ lÃ¹nĠ
tÃ¨ ĠyÃ¬Ġ
zuÃ¬ ĠjÃ¬n
yÄĽ ĠyÇĲĠ
zi ĠjÃŃĠ
huÃ¡ ĠshÃ¬Ġ
sÃ¹ ĠshÃŃĠ
xiÇİng ĠdÃłoĠ
zhuÄģn ĠxiÃłnĠ
fÃłng ĠdÃłĠ
jiÇİ ĠdeĠ
chuÄģn ĠjiÄģĠ
shÃŃĠ shÄ«Ġ
ĠbÃ¹Ġ shÇĶ
ĠgÅįngĠ wÃ¹Ġ
ĠgÅįngĠ lÇľĠ
jiÄģĠ sÃ¹Ġ
ĠjiÄģĠ dÃłĠ
ĠÃ©r ĠtÄģĠ
suÇĴĠ shÇĲĠyÃ²ngĠdeĠ
ĠyÃ³uĠ mÄĽiĠguÃ³Ġ
yÃłoĠ sÃ¹Ġ
tÃ¡ngĠ nÃłĠ
ĠyÇĲĠjÃŃĠ qÃŃĠtÄģĠ
hÃłnĠ bÇİoĠ
zhÅ«Ġ rÃºĠ
qiÃºĠ duÃ¬ĠdeĠ
Ġp Å«Ġ
ĠĠĠT i
kÃłnĠ qÇĲĠlÃ¡iĠ
pÃŃnĠ lÇľ
niÇİoĠ lÃ¨i
ĠdeĠhÃ©Ġ zuÃ²Ġ
lÇĲngĠdÇİoĠ xiÃłĠ
ĠyÃºĠ199 4ĠniÃ¡nĠ
ĠwÃ¨iĠyÃºĠfÇİĠguÃ³Ġ dÃłĠdÅįngĠbÃ¹ĠdÃłĠqÅ«Ġ
zhÇİnĠshÃ¬Ġ leĠ
ĠjÄ«ĠgÃ²u ĠdeĠ
a de
Ġ zhÄģnĠ
nÃ¡n ĠyÇĴuĠ
liÇİng ĠdÃ¬Ġ
diÃło ĠdeĠ
hÃ¨ n
ĠyÇĴuĠ kÄĵĠ
ĠyÃ¬Ġ tÃºĠ
ĠyÄ«Ġ shuÅįĠ
lÇĲĠ jiÄĽĠ
rÃ¨nĠ wÃ¹
jiÃłoĠ xuÃ©
ĠdÃłn ĠshÄĵngĠ
lÃ¡iĠ shuÅį
ĠwÃ©iĠ yÄĽĠ
ĠqÃŃĠ shÄ«Ġ
ĠkÃ¨Ġ yÃ¹n
ĠzhÃłnĠ chÄĵĠ
ĠzhÅįuĠ mÃ²Ġ
ĠzuÃ²Ġ wÃ¹Ġ
hÇİiĠ tÄģnĠ
bÄģĠ nÃ¡
cÃŃĠ shÃłnĠ
yÃŃngĠ yÇİngĠ
ĠshÃ¬ĠyÄ«Ġ mÃŃng
ĠmÃ¹Ġ biÄģoĠ
yÇĴngĠ yuÇİnĠ
chuÃłngĠ yÃ¨Ġ
xiÄģngĠgÇİngĠ diÃłnĠyÇĲngĠ
ĠliÇİngĠ zhÄĽĠ
ĠsuÃŃĠ hÃ²uĠzÃłiĠ
ĠĠĠ194 8ĠniÃ¡nĠ
ĠfÇİn ĠÃ©rĠ
tuÇĴ ĠyuÃ¡nĠxÃŃngĠ
Net fli
lÇĲngĠxiÃ¡n ĠzhÇĶĠyÇİnĠ
9 1Ġ
Ġ jÃ¬ng
Ġ yÄ«ĠshÃ¬Ġ
Ġ tÇĴngĠyÄ«Ġ
ĠĠĠ tÃłiĠ
zhÅįu ĠshÃ¬Ġ
di Å«
yÄĽ ĠchÃ©ngĠwÃ©iĠ
shÄĽng ĠdeĠyÃŃĠgÃ¨Ġ
dÃ¡ ĠdÃło
bÃ³ ĠsÄ«Ġ
shÅįu ĠyÃ¬Ġ
195 7ĠniÃ¡nĠ
ĠwÃ¨iĠ tÃ¡iĠwÄģnĠ
ĠhÃ©Ġ bÃ¨iĠ
ĠyÃºĠ mÃŃngĠ
dÃłĠ xÄ«ĠyÃ¡ngĠ
yÇĶĠ zhÃ²u
ĠzhÄ« ĠchÃ©ngĠ
ĠyÇĲĠ xiÃłĠdeĠ
huÃłĠ zuÃ²Ġ
yÃ¡nĠ yÃ²ngĠ
kÄģiĠ chÃºĠ
zhÃŃĠ lÃ¹Ġ
diÃłnĠ tÄ«Ġ
mÃ¹Ġ fÇĶĠ
zhÇĲĠ dÃ¬ngĠwÃ¨iĠ
mÇİĠ tÃ³u
yÄ«ngĠ tiÄģnĠ
shÄģĠ sÇĲ
gÇİngĠ qÅ«Ġ
jiÃłĠ fÄĵiĠjÄ«Ġ
huÃ¡ngĠ pÇĶĠ
ĠdeĠdÃ¬Ġ fÄģng
mÃ³Ġ luÃ²Ġ
xiÄģoĠ chÃºĠ
bÃ¡iĠ Ã©ĠluÃ³ĠsÄ«Ġ
chÃºĠ wÃłiĠ
ĠmÄĽi ĠzhÅįu
hÇİoĠ lÃ¡iĠwÃ¹Ġ
gÃ©ĠmÃ¬ng ĠhÃ²uĠ
wÅįĠ lÃºnĠ
ĠfÃ¹ĠzÃ© ĠrÃ©nĠ
ĠxiÃłnĠdeĠyÃŃĠgÃ¨ ĠchÃ©ngĠzhÃ¨nĠ
ĠshÃ¬ĠwÅ«ĠkÃ¨ĠlÃ¡n ĠdeĠ
ĠĠĠwÃłiĠbÃ¹Ġ liÃ¡nĠjiÃ©Ġ
7 ĠĠĠ
B AĠ
Q Ġ
T M
h y
Ġ xuÄģn
Ġ zhÃºĠjiÃłnĠ
Äģ ĠlÃ¬Ġ
ĠĠĠ la
ĠĠĠ suÇĴĠyÇĴuĠ
ĠĠĠ to
le ĠtÄģĠmenĠdeĠ
xiÃł ĠwÃ¨iĠ
jiÄģng ĠyuÃ¡nĠ
zhÇİng ĠshÃ¬Ġ
en sisĠ
bÃ³ ĠmÃŃngĠ
an aĠ
nÇĶ ĠsÄ«Ġ
ĠshÃ¬Ġ luÃ³ĠmÇİĠ
ĠdÃ¬Ġ wÇĶ
ĠjÃŃĠ bÃ¨iĠ
ĠyÄ«Ġ guÃ³Ġ
jÄ«Ġ bÃłi
ĠdÃłĠ yuÃ¡nĠ
ĠdÃłĠ tÃ³ngĠ
diÃłnĠ chÇİngĠ
qÇĲĠ yÃ²ng
gÇİngĠ tiÄĽĠ
lÃ³ngĠ lÃ¨iĠ
ĠshÃ¬ĠyÄ«Ġ kuÇİn
sÇĲĠ wÃ¡ngĠdeĠ
Ġm Ã¡n
ĠĠĠD i
fÄģĠbiÇİo ĠshÄĵngĠmÃŃngĠ
sÄ«ĠlÃ¡nĠ jiÃłoĠ
ĠjÃ¬nĠniÃ¡nĠ lÃ¡iĠ
G N
Ġ jÇĶĠxÃŃngĠ
Ġ fÄģĠxiÃłn
Ġ dÃłngĠtiÄģnĠ
ĠĠĠ shÄ«Ġ
ĠĠĠ xiÇİoĠxÃŃngĠxÄ«ngĠ
jiÄģ ĠchÃ©ngĠ
mÄĽi ĠgÃ¨
dÃ¹ ĠyÇĶĠ
shÇĴu ĠyÇĶĠ
dÅįng ĠshÃ¬Ġ
qÇĲ ĠzÃłiĠ
guÇİn ĠhÃ©Ġ
gÇİi ĠjiÃłnĠwÃ¨iĠ
lÇĲng ĠnÃ¡nĠ
bÄ« Ġ
ĠdÃ¬Ġ yÄ«ĠbÃ¹Ġ
ĠyÃ¬Ġ rÃ¬
wÃ©iĠ duÅįĠlÃ¬ĠyÃłĠ
ĠlÇĲĠ huÃ¬Ġ
zÃ¬Ġ chÄĵngĠ
lÃ¹Ġ jÃ¬ngĠ
chÃ¡ngĠ shÃ¹Ġ
gÃ²ngĠ fÃ¨ng
ĠyÇĲĠjÃŃĠ yÄ«Ġ
huÇĴĠ zÄģi
tiÄĽĠ lÃ¹ĠxiÃłnĠ
qiÃ¡oĠ liÃ¡ng
ĠpÃŃngĠfÄģngĠ qiÄģnĠmÇĲ
bÇĶĠ chÃ¡ngĠ
tÅ«Ġ juÃ©
ĠshÇĲ ĠdÃ¬Ġ
dÃłnĠ shuÇĲĠyÃºĠ
tÇĲĠyÃ¹Ġ chÇİng
ĠguÃ³ĠjiÄģ ĠhÃ©Ġ
ĠgÄģiĠshÄĽngĠfÃ¨nĠwÃ¨iĠfÇİĠguÃ³Ġ zhÅįngĠ
ĠchÅ«ĠbÇİn ĠdeĠ
zuÃ²ĠpÇĲn ĠzhÅįngĠ
shÄ«ĠfÃłn ĠxuÃ©ĠxiÃłoĠ
gÅįngĠgÃ²ngĠ jiÄģoĠtÅįngĠ
Ġ chÃ³ng
Ġ fÄģĠshÄĵngĠ
Ġ xÄ«ĠbÃ¹Ġ
Ġ tuÄ«ĠchÅ«Ġ
ĠĠĠ rÃ³ngĠyÃ¹Ġ
le yĠ
qiÃ¡n ĠbÃ¨iĠ
jiÃ¹ ĠyÇĲĠjÄ«ngĠ
bÃ³ ĠlÃ¬Ġ
pÃ¡i ĠwÃ¨iĠ
dÃ¬Ġ zhÃ¬Ġ
ĠbÃ¹Ġ kÄĽ
ĠrÃ¬ ĠdÃłoĠ
ĠyÄ«Ġ lÄģĠkÃ¨Ġ
zuÃ²Ġ qÇĶĠ
shÃłngĠ jiÃłngĠ
qÅ«Ġ biÃ©
ĠÄĽr ĠjÄ«Ġ
shÃ¹Ġ mÇİĠ
xiÃłĠ shuÇĲĠ
jiÄĵĠ zhuÄģngĠ
zhÃ²ngĠ duÅį
fÄĵngĠ sÃ¹Ġ
luÃ³Ġ nÃłĠ
sÄģnĠ xiÃłngĠ
kÄĵĠ hÃ©ngĠxÄ«ngĠ
ÃłnĠ shÄģĠ
jiÄģoĠ xiÇİngĠ
ĠlÃ¹Ġ xÃ¹Ġ
tÃºĠ piÃłnĠ
shÄģngĠ pÇĲn
cÃ¡iĠ juÃ©Ġ
leĠyÄ«Ġ xÃ¬ĠliÃ¨Ġ
xiÇİnĠ zhÃ¹ĠdeĠ
yuÇİnĠ zhÄĵng
zhÃ¨ngĠfÇĶ ĠzÃłiĠ
niÃºĠ jÄ«n
jÅ«nĠshÃ¬Ġ tÇİnĠdÄ«ngĠ
ĠchÃ³ngĠ qÃ¬ng
zÇĴngĠdÅ«Ġ fÇĶĠ
ĠlÃ¹ĠyÃ¬Ġ sÄ«Ġ
jiÄģngĠwÃ©iĠwÃºĠÄĽrĠ zÃ¬ĠzhÃ¬ĠqÅ«Ġ
7 ĠpÃŃngĠfÄģngĠgÅįngĠlÇĲĠ
i ni
z ÄģngĠ
Ġ hÃ©ng
Ġ yÃ¡o
ĠĠĠ n
ĠĠĠ gÃ©Ġ
ĠĠĠ xiÃłnĠdÃłiĠ
yÃ¹ ĠdÃłoĠleĠ
jiÄģng ĠjÃ¬nĠ
di ng
zhÄĽ ĠyÇĴuĠ
fÄĵng ĠshÃ¬Ġ
wÃº ĠlÃ¬Ġ
bÃ³ ĠlÇĲĠ
jÇĲn ĠwÃ¨iĠ
shÅįu ĠhuÃ²Ġ
dÄĵng ĠdeĠ
21 ĠshÃ¬ĠjÃ¬Ġ
pÃ¡ng ĠdeĠ
ĠwÃ¨iĠ qÃŃ
ĠbÃ¹Ġ qiÄģngĠ
ĠrÃ©nĠ wÃ©nĠ
ĠyÇĴuĠ duÅįĠ
wÃ©iĠ hÃ¹
ĠxÃŃngĠ zhuÃłngĠ
zhÃ¨ngĠ zhÃ¬ĠbÃ¹Ġ
ĠjiÄģĠ bÄ«nĠ
ĠbÃ¨iĠ liÃ¨ĠwÃ¨iĠ
ĠbÃ¬ngĠ chÄĵngĠ
zhÇİngĠ wÃ²Ġ
bÄĽiĠ mÄĽi
lÄģĠ tuÅį
bÄģĠ bÄģĠ
bÃ¬Ġ yÃłoĠdeĠ
ÃłoĠ fÃºĠniÃ¨Ġ
huÃ¡Ġ bÄĽiĠ
cÃŃĠ chÇİngĠ
dÇİngĠ nÃ¨iĠ
zhuÇİnĠ yÃŃĠzhÃ¬Ġ
ĠĠĠshÄĵngĠ tÃłiĠ
ĠĠĠN ew
ĠyÃºĠ199 6ĠniÃ¡nĠ
ĠnÃ¨iĠ rÃ³ng
ĠĠĠ197 9ĠniÃ¡nĠ
ĠĠĠlÃ¬Ġ rÃºĠ
ĠyÃ³uĠxÃ¬ ĠzhÅįngĠ
chÃŃĠxÃ¹ ĠdÃłoĠ
ĠwÃ² ĠÄĽrĠ
jiÇİngĠxuÃ©Ġ jÄ«nĠ
4 ĠpÃŃngĠfÄģngĠgÅįngĠlÇĲĠ
c c
Ġ shÄĽn
Ã¨ ĠdeĠ
gÇİng ĠwÃ¨iĠ
wÅ« ĠÄĽrĠ
diÃło ĠleĠ
hÄģ ĠbÃ¹ĠsÄ«Ġ
pÃ¡ng ĠdÃłĠ
ĠzÃłiĠ shÃłngĠhÇİiĠ
ĠbÃ¹Ġ yÃŃĠ
qÅ«Ġ zhÃºĠ
ĠzhÄ«Ġ mÃŃngĠdeĠ
guÄģnĠ niÃłnĠ
ĠxuÃ©Ġ kÄĵĠ
lÄģĠ gÃ©Ġ
yÃłĠ nÃłĠ
qÃ¬Ġ wÄĵn
dÄģnĠ yÅįuĠ
tÇĴngĠ yÄ«ĠdeĠ
jÇĲnĠ jÇĲnĠ
huÃ²Ġ qÇĶĠ
ĠjiÃ©Ġ mÃ¹
ĠtiÄģnĠ qÇĲĠ
kÄĽĠnÃ©ng ĠyÇĴuĠ
ĠwÃºĠ lÃ¹n
Ã¨rĠshÃŃĠ Ã¨rĠniÃ¡nĠ
ĠzhÃ¨ĠshÃ¬Ġ yÄ«nĠwÃ¨iĠ
huÇĲĠ miÃ¨Ġ
ĠdeĠhÃ©Ġ liÃºĠ
dÅįngĠnÃ¡nĠ yÃł
ĠzhÃłnĠzhÄĵng ĠdeĠ
ĠĠĠtÄģ ĠzÃłiĠ
wÃ©iĠyÄĽĠ nÃłĠ
Ġã Ħ
Ġ xÃ¬n
Ġ jiÄģoĠtÅįngĠ
Ġ tÇĶĠÄĽrĠqÃŃĠ
Äģn ĠshÃŃĠ
ĠĠĠ tÃ¨Ġ
ĠĠĠ zhÄ«Ġ
ĠĠĠ rÃ¬ĠbÄĽn
qÄ« ĠxÄ«Ġ
jiÃłn ĠzhÃ¬Ġ
yÃ³u ĠtÄģĠ
lÃŃn ĠzÃłiĠ
liÇİng ĠjÃŃĠ
xiÄģn ĠxÃŃngĠ
cÃŃ ĠhÃ©Ġ
fÃ¡ng ĠdÃ¬ĠchÇİnĠ
zhÃło ĠmÃŃngĠ
ro m
lÃ¬Ġ fÇİĠ
ĠtÄģ ĠdÃłoĠ
ĠxÄ«Ġ shÄĵngĠ
dÃłiĠ bÇĶ
ĠdÃłn ĠhÃ²uĠlÃ¡iĠ
chÃ¡ngĠ yÃ²ngĠdeĠ
ĠzhÃ¨Ġ liÇİngĠ
ĠxÄ«nĠ xÄ«ngĠ
bÃłnĠ zhÇİngĠzhÃ³u
zhÄ«Ġ ziĠ
yÃŃngĠ jiÄĵĠ
huÃ²Ġ bÃ¬
ĠÄģnĠ quÃ¡nĠ
zÃºĠqiÃºĠ chÄģoĠjÃŃĠ
Ġãĥ Ī
ĠjÅ«nĠshÃ¬Ġ tÇİnĠdÄ«ngĠ
ĠdÃ¬ĠsÄģnĠ cÃ¬Ġ
shÃº ĠxÄ«Ġ
yÇĲnĠfÄģĠ leĠ
nÃ¨iĠmÃ©ngĠgÇĶĠ zÃ¬ĠzhÃ¬ĠqÅ«Ġ
9 4Ġ
n Ã²ng
p an
u d
Ġ chÇİnĠshÄĵngĠ
ji ÇĴng
ĠĠĠ bÇĲĠ
ĠĠĠ yÃŃĠgÃ¨Ġ
kÃ¨ ĠjiÄģĠ
jÃ¬n ĠjÅ«nĠ
zÃ¬ ĠyÃ¬Ġ
yÃ¡n ĠzhÄ«Ġ
mÇİ ĠhuÃ¬Ġ
sÄģn ĠzuÃ²Ġ
gÄĵ ĠhÃ©Ġ
12 ĠrÃ©nĠ
xiÄģn ĠjÃ¬n
jÇĲn ĠzÃłiĠ
wÃ¡n ĠjÃ¹Ġ
zÄĵng ĠyuÃ¡nĠ
wÇİ ĠÄĽrĠhÃ©Ġ
195 3ĠniÃ¡nĠ
196 3ĠniÃ¡nĠ
chÃłng ĠdeĠ
ĠshÃŃĠ rÃ©nĠ
yÇĴuĠ yÄ«Ġ
shÄĵngĠ chÄĵng
ĠmÃŃngĠ gÇĶĠ
xiÃłĠ yÃ³uĠ
yÃ²ngĠ tÃº
ĠdÃłn ĠyÄ«n
ĠpÃŃngĠ gÅ«
ĠzhÅįuĠ ÄĵnĠlÃ¡iĠ
yÃłoĠ wÃ¹
luÃ³Ġ bÃ³Ġ
Ã¨rĠ shÃŃĠshÃ¬ĠjÃ¬Ġ
ĠwÃłn ĠzhÄģngĠ
Ġt Ġ
zuÇĴĠ pÃłiĠ
kÄģnĠ sÃłĠsÄ«Ġ
kÄģiĠfÄģĠ qÅ«Ġ
ĠquÃ¡n ĠxiÃłnĠ
Ġd ÄģoĠ
shuÄģiĠ jiÄģoĠ
tiv eĠĠĠ
pÄ«n ĠyÄ«nĠ
yÇĶnĠk Äĵng
sÄģiĠbÃłi ĠjiÄģngĠ
ÃłnĠchÃ¡Ġ shÇĲĠ
l or
Ġ zhÄģn
Ġ pÄ«Ġ
Ġ sÃ¬ĠniÃ¡nĠ
ch e
yÃ³u ĠjiÃłnĠ
xiÃłng ĠgÅįngĠzhÃ²ngĠ
yÄ«ng ĠdeĠ
tÃłi ĠxuÃ©Ġ
sÃ¹ ĠzhÃ¬Ġ
hÃ¡ng ĠyuÃ¡nĠ
guÃłn ĠmÃŃngĠ
xiÃ¡n ĠdeĠ
ĠzÃłiĠ guÃ³ĠjÃ¬Ġ
ĠhÃ©Ġ shÄĵngĠ
ĠbÃ¹Ġ rÃºĠ
ĠbÃ¹Ġ dÃłnĠ
ĠbÃ¹Ġ xÅ«ĠyÃłoĠ
ĠguÃ³Ġ xiÇİoĠ
ĠlÃ¬Ġ tÇĲĠ
ĠchÅ« ĠzhÅįngĠ
zhÃłnĠ fÃ¡ngĠ
fÄģĠ sÃ²ngĠ
qiÃ¡nĠ qÄ«Ġ
ĠjÃ¬n ĠbÃ¹Ġ
bÄĽiĠ hÃ¡n
biÃłnĠ tÇĲĠ
jÇĲngĠ fÄģng
zÇĲĠ mÃ¨i
chÃ³ngĠ fÇİn
Ġ19 26ĠniÃ¡nĠ
Ġh ÄĵngĠ
ĠcÃ©ng ĠwÃ¨iĠ
tÇİoĠ fÃ¡
ĠdeĠyÃ¬Ġ yÃ¬Ġ
guÇİngĠxÄ«Ġ zhuÃłngĠ
ĠĠĠxiÃłn ĠshÃŃĠ
bÇİoĠliÃº ĠleĠ
ĠpÃŃngĠfÄģngĠqiÄģnĠmÇĲ ĠrÃ©nĠ
D CĠ
a dĠĠĠ
q Ġ
Ġ huÇĴ
Ġ shÇİn
Ġ zhuÃ³Ġ
ĠĠĠ xÃŃngĠtÃłiĠ
yÃ³u ĠjÃ¬Ġ
qiÃ¡n ĠshÃ¬Ġ
qÇĲ nĠ
zhÄĽ ĠyÇĶĠ
shÄĵn ĠhÃ²uĠ
diÇİn ĠjÃŃĠ
lÃŃ ĠjiÄģĠ
dÃŃ ĠjÅ«nĠ
dÃŃ ĠnÃ¡nĠ
ĠzÃłiĠ zhÃ¨
zhÃ¬Ġ lÃ¬Ġ
ĠrÃ©nĠ jÅ«nĠ
ĠzhÃ¬Ġ yÄ«Ġ
ĠlÃ¬Ġ liÃłng
ĠxÃŃngĠ lÇĲĠ
ĠmÃŃngĠ jiÃłoĠ
yÃ¹Ġ dÃ¬ngĠ
jÄ«ngĠ dÅ«
ĠdÃłn ĠtÄģĠmenĠ
lÃ¡iĠ leĠ
jiÃ©Ġ zÃ²uĠ
quÃ¡nĠ xÄ«nĠdeĠ
ĠshÄĵngĠ zhÇİngĠ
kÄĽĠ chÃŃĠxÃ¹Ġ
ĠshÃ¨Ġ qÃºnĠ
lÃ¡nĠ jiÃ©Ġ
dÄģnĠ wÃ¨iĠdeĠ
jÃ¬nĠ shÄĵngĠwÃ¨iĠ
lÃºnĠ tÃ¨Ġ
ĠyÄĽĠ chÄĵngĠwÃ©iĠ
zhuÇİnĠ huÃłĠwÃ¨iĠ
Ġt Äģng
ĠÄģĠ gÄĵnĠ
rÃ¡nĠ shÄģo
ĠlÃ¬ng ĠrÃ©nĠ
rÃ©nĠkÇĴuĠshÃ¹ĠliÃłng ĠwÃ¨iĠ
ĠÃ©rĠrÃ©nĠkÇĴuĠmÃ¬ĠdÃ¹ĠwÃ¨iĠmÄĽi ĠpÃŃngĠfÄģngĠqiÄģnĠmÇĲĠrÃ©nĠ
tÃ³uĠrÃ¹Ġ fÃºĠwÃ¹Ġ
ate Ġ
wÇĶĠtÃ¡iĠ jÃ¹Ġ
P P
Ġ zuÇĴĠyÃ²uĠ
Ġ jÇĲĠyÇĶĠ
jiÄģ ĠwÃ¨iĠ
jÅ«n ĠwÃ¨iĠ
wÃº ĠjÄ«Ġ
gÇİi ĠshÃ¨Ġ
biÄģo ĠshÃŃĠ
193 8ĠniÃ¡nĠ
ĠshÃ¬Ġ bÄģĠxÄ«Ġ
ĠhÃ©Ġ qÃŃĠ
ĠdÃłĠ bÃłiĠ
ĠxÃŃngĠ shÄĽngĠ
ĠxiÃłnĠ chÇİng
jiÄĵĠ kÇĴuĠ
ÄģĠ kÄĽnĠsÃ¨
ĠdÃłnĠ quÃ¨Ġ
tÃłiĠ zÅįngĠ
ĠjÃ¬nĠ zhÇĲ
wÇİngĠ zhÃłnĠdeĠ
xÃ¹Ġ mÃ¹Ġ
bÃ¡iĠ sÃ¨
dÅ«Ġ tÇĴngĠ
Ġ19 24ĠniÃ¡nĠ
gÃ¨Ġ tÇĲĠ
ĠbÃ¹ĠtÃ³ng ĠdeĠshÃ¬Ġ
lÃ¡oĠ dÃ²ng
Ġk Ã²u
Ġk ÄĵngĠ
ĠĠĠjiÄģĠ jÃ¬ngĠ
ĠwÃ¨iĠyÃºĠgÄģiĠguÃ³Ġ dÅįngĠbÄĽiĠbÃ¹Ġ
ĠchÃ³ngĠ zhÄĵnĠ
Ġ2011ĠniÃ¡nĠ rÃ©nĠkÇĴuĠ
ĠlÃŃ ĠxÄ«nĠ
ĠxÃŃngĠzhÃ¨ngĠzhÅįngĠxÄ«n ĠwÃ¨iĠ
1 200
3 50
4 ĠniÃ¡nĠdeĠ
O NĠ
m Äģ
v Ġ
Ġ chÃ¡o
Ġ huÃłn
ĠĠĠ wÃ©nĠ
ĠĠĠ hÃłnĠ
ĠĠĠ fÄģĠzhÇİnĠ
tÇĲ ĠshÃłngĠ
cÃ¬ ĠzÃłiĠ
sÃ¬ ĠjÃ¬Ġ
10 ĠmÇĲĠ
bÅį ĠdÃ©Ġ
chÇĶ ĠbÃ¨iĠ
ĠchÃ©ngĠ huÃłĠ
ĠzhÅįu ĠwÃ¨iĠ
xiÃłĠ fÄģngĠ
duÅįĠ fÅ«Ġ
tÅįngĠ bÃłoĠ
miÃłnĠ chÄĵĠzhÃłnĠ
qÄ«ngĠ shuÇĲĠ
sÃ¹Ġ lÇľĠ
ĠxiÄģngĠ xÃ¬n
zhÄĵngĠ zhÃłoĠ
cÇİiĠ nÃłĠ
ÄģiĠ sÄģiĠÃ©Ġ
dÇİĠ zÃłoĠ
shÇİoĠ qÄ«ngĠ
ĠbÄĽiĠ qÇĲ
gÃ¨Ġ lÃ¨iĠ
jÃ¬ĠchÃ©ngĠ rÃ©nĠ
ĠpÃ²Ġ shÇĲĠ
zhuÃłngĠjÄ«Ġ kÄĵngĠ
o ngĠ
Ġ jÅ«
ĠĠĠ bÃ³Ġ
ĠĠĠ suÃŃĠzhÃ¹Ġ
zhÃłn ĠgÅįngĠ
yÃŃ ĠrÃ©nĠ
nÃ¡n ĠyuÃ¨Ġ
mÃŃn ĠzÃłiĠ
kÄģi ĠjÄ«Ġ
jÄ«n ĠhÃ©Ġ
bÄģ ĠdeĠ
zÄ« ĠshÃ¬Ġ
tÇİ ĠsÄ«Ġ
qiÃ¡o ĠdeĠ
gÇİn ĠdÃło
tÃłn ĠsuÇĴ
ĠshÃ¬Ġ bÃ¬ĠlÇĶ
ĠhÃ©Ġ fÃ¹Ġ
ĠjÃŃĠ jÄ«nĠ
ĠyÇĴuĠ sÄģnĠ
ĠyÄ«Ġ bÄĽnĠ
ĠdÃłoĠ dÃ©
ĠdÃłoĠ xÄ«Ġ
ĠlÇĲĠ xiÇİngĠ
ĠzhÃłnĠ shÃ©nĠ
liÃºĠ tÅįngĠ
ĠzhÅįngĠguÃ³Ġ rÃ©nĠ
biÄģnĠ xiÄĽĠ
chÅ«Ġ fÄģĠ
wÄĵiĠ fÄĵnĠ
jÇĶĠ zhÃ²ngĠ
hÄĽnĠ rÃ³ngĠyÃ¬Ġ
ĠzhÃŃĠ yÃ¨Ġ
gÄĵngĠ xÄ«n
pÃŃngĠjÅ«nĠ jiÃłngĠyÇĶĠliÃłngĠ
suÅįĠ duÇİn
guÄ«ĠmÃ³Ġ zuÃ¬ĠdÃłĠdeĠ
ĠshÃ¨ĠlÃ¬Ġ leĠ
liÃ¡nĠhÃ©ĠguÃ³Ġ jiÃłoĠkÄĵĠwÃ©nĠ
tÅįngĠchÃ¡ng ĠhuÃ¬Ġ
fÄģngĠmiÃłn ĠjÅ«nĠ
ĠjÃ¬ĠhuÃł ĠzÃłiĠ
jiÇİnĠchÃ¡Ġ guÄģnĠ
ĠniÃ¡nĠdÃłi ĠwÃ¨iĠ
mÇİĠkÃ¨ĠsÄ«Ġ zhÇĶĠyÃ¬Ġ
5 ĠhÃłoĠ
g Ã¡Ġ
Ġ Ã©ĠluÃ³Ġ
rÃ¨n ĠshÃ¬Ġ
sÃłi ĠzhÃ¬Ġ
guÄģng ĠmÃŃngĠ
gÄģn ĠshÃ¨Ġ
bÇİng ĠdÃ¬Ġ
gÅįngĠ rÃ©nĠ
ĠzhÃ¬Ġ yuÃłnĠ
ĠyÄ«Ġ fÃ¨nĠ
ĠyÄ«Ġ biÄģnĠ
ĠyuÃ¡nĠ chÃ¡oĠ
ĠchÅ« ĠxiÃłnĠyÃºĠ
ĠlÇĲĠ wÃ©iĠ
ĠjÅ«n ĠyÇĶĠ
jiÃłoĠ huÃ¬ĠdeĠ
jiÃ©Ġ diÇİnĠ
liÃ¡nĠ duÃ¬Ġ
chÃ¡ngĠ zhÄĵngĠ
gÄĵĠ chÃłngĠ
guÄ«Ġ fÃłn
ĠbÄĽnĠ piÃłnĠ
wÄĽiĠ chÃ¡ngĠwÄĽiĠ
3Ġ fÄĵnĠ
5Ġ wÃłnĠ
yÃ¡nĠjiÅ«Ġ yuÃłn
huÄģĠ fÃ¨iĠ
Ġ5 00Ġ
ĠĠĠbÄĽnĠ zhÃłnĠ
chÅ«ĠbÇİn ĠshÃ¨Ġ
zhÄ«ĠchÃŃ ĠxiÃłĠ
ÄģĠfÃ¹Ġ hÃłnĠ
Ġ ×
Ġ xuÇİnĠjÇĶĠ
Ġ wÃ¡nĠquÃ¡nĠ
gÃ¨ ĠjÃŃĠ
qÄ« ĠrÃ¬Ġ
dÃłi ĠzhÅįngĠ
shu ÇİngĠ
sÃłi ĠÄĽrĠ
199 0ĠniÃ¡nĠdÃłiĠ
dÇĲ ĠtÃ¨Ġ
zÇĲ ĠdÃ¬Ġ
zÃłng ĠlÇĲĠ
ow er
ĠshÃ¬Ġ yÃ¬ngĠ
ĠhÃ©Ġ suÄģnĠjiÇİnĠ
bÃ¹Ġ liÃ¨Ġ
dÃ¬Ġ sÃ¬Ġ
ĠxÃŃng ĠyÇĶĠ
ĠyuÃ¡nĠ xiÄģn
ĠyuÃ¡nĠ shuÃłiĠ
ĠyÇĲĠ shÃłng
ĠyÄ«n ĠyÇĶĠ
ĠduÃ¬Ġ huÃłĠ
gÄģoĠ dÃ¹
ĠtÃ³ng ĠjÃ¬nĠshÃ¬ĠchÅ«ĠshÄĵnĠ
ĠrÃ¨nĠ tÃ³ngĠ
qÄ«ngĠ dÇİo
zÇĴngĠ bÃ¹ĠwÃ¨iĠyÃºĠ
yÄ«ngĠ shÇĶĠ
ĠzhÇĶĠ dÇİĠ
zhuÇİnĠ biÃłnĠwÃ¨iĠ
pÃ²Ġ hÃłiĠ
tÇİĠ lÄģĠ
lÃºĠ wÇİĠÄĽrĠshÄĽngĠ
ĠnÇļĠ xÃ¬ng
ĠjÄ«n ĠrÃ¬Ġ
xiÇİoĠxÃŃngĠxÄ«ng ĠdÃłiĠ
ĠzhÅįuĠlÃ¬Ġ dÃłĠxuÃ©Ġ
5 ĠgÅįngĠfÄĵnĠ
o x
Ġ gÄĵn
Ġ mÃ©iĠtÇĲĠ
ĠĠĠ zhÅįuĠ
yuÃ¨ ĠwÃ¨iĠ
zhÇĲ ĠyÇĴuĠyÄ«Ġ
dÄģn ĠxÃŃngĠ
tÃłi ĠyÄ«nĠ
guÇİn ĠshÃ¬Ġ
nÇļ ĠzuÃ²Ġ
lÃ³ng ĠhÃ©Ġ
mÃłn ĠdÃ¬Ġ
re e
shÃŃĠ Ã¨rĠyuÃ¨Ġ
ĠbÃ¹Ġ mÇİn
ĠdÃ¬Ġ xiÃł
ĠzhÃ¬Ġ dÃ¬ng
dÃłĠ lÃ³uĠ
dÃłĠ duÅįĠshÃ¹Ġ
sÄ«Ġ mÇİĠ
ĠdÃłĠ lÃ¹
ĠmÃŃngĠ Ã©Ġ
fÃºĠ lÇİngĠ
nÃŃĠ pÅįĠÄĽrĠ
dÇİĠ rÃ¹Ġ
dÃłoĠ dÃ¡Ġ
wÅ«Ġ zÄ«ĠbiÃ©
tÃ¡oĠ wÃ¡ngĠ
jÇĲĠ zhÇĴngĠ
leĠyÄ«Ġ fÃ¨nĠ
ĠdÃ¬ĠÃ¨rĠ tiÄģnĠ
ĠbÇĲĠ jiÃłoĠ
bÃ³ĠwÃ¹Ġ yuÃłnĠ
Ġ14 0
dÃłiĠbiÇİo ĠdeĠ
ir l
ction Ġ
lÄģĠdÄ«ng ĠyÇĶĠ
pÇĶĠchÃ¡Ġ guÄ«ĠdÃ¬ngĠ
gÄģoĠÄĽrĠ fÅ«
ÃłoĠdÃ¬Ġ lÃ¬ĠdeĠ
p ha
Ġ xuÃ©
Ġ jiÄģo
Ġ mÃ©ng
ĠĠĠ zhÄ«ĠhÃ²uĠ
19 30ĠniÃ¡nĠ
zhÃ¨ng ĠjiÃłnĠ
mÃ¹ ĠwÃ¨iĠ
mÇĲ ĠlÃ¬Ġ
lÃ³u ĠtÄ«Ġ
pÃŃ ĠÄĽrĠ
ĠdeĠ niÃ¡n
ĠbÃ¹Ġ dÄĽngĠ
ĠlÇĲĠ yÃ³uĠ
ĠwÃ©iĠ fÇİn
zhÃŃĠ fÇİĠ
zhÃŃĠ liÃºĠ
ĠpÃŃngĠ dÃ¬ngĠ
suÇĴĠ zuÃ²ĠdeĠ
ÄģnĠ quÃ¡nĠdeĠ
zhÇĲĠ nÃ¡nĠ
quÃ¡nĠ shÅ«Ġ
chÄĵĠ shÄĵnĠ
kÄĵĠ zhÇİngĠ
fÃ¨nĠ ziĠ
nÇļĠ wÃ¡ng
2Ġ miÃłnĠ2
tÇĴngĠ zhÃ¬ĠdeĠ
shÃ¨Ġ lÃ¬ĠdeĠ
gÃ¨ngĠ rÃ³ngĠyÃ¬Ġ
ĠluÃ³Ġ bÃ³ĠtÃ¨Ġ
yÃ¬nĠdÃ¹Ġ yÃ¡ngĠ
ruÃ²Ġ gÄģn
ĠwÃ¨iĠyÃºĠgÄģiĠguÃ³Ġ xÄ«ĠnÃ¡nĠbÃ¹Ġ
pÃ¡ngĠ dÃłĠdeĠ
ĠĠĠhÃ²uĠ xÃ¹Ġ
Window sĠ
fÃºĠluÃ³ĠlÇĲĠ dÃ¡
E PĠ
w i
Ġ yÃ¬
zhÃłn ĠĠĠ
guÄģn ĠlÃ¬Ġ
zhÄĽ ĠjÃŃĠ
gÇĶ ĠhÃ©Ġ
fÄĵi ĠsÄ«Ġ
nÃŃ ĠshÃ¬Ġ
biÃłn ĠshÃŃĠ
ĠzhÅįngĠ chÃ©ngĠ
ĠyÃºĠ 7ĠyuÃ¨Ġ
ĠjÃ¬Ġ shÄĵngĠ
ĠÃ©r ĠchÃ©ngĠwÃ©iĠ
ĠbÃ¨iĠ fÄģĠxiÃłnĠ
jÄ«ngĠ jÃ¬ĠdeĠ
fÄģĠ juÃ©
ĠwÃ©iĠ zhÇĶĠdeĠ
ĠzhÅįuĠ qÅ«Ġ
fÃºĠ hÃło
tÅįngĠ chÄĵ
yÃłĠ rÃ¨ĠdÃłiĠ
bÄģĠ tÃ¨Ġ
jiÃ¹Ġ zhÇĲ
jiÃ¹Ġ yÃ¨Ġ
jÅ«Ġ zhÃ¹ĠdeĠ
chÅįngĠ shÃ©ng
ĠzuÃ¬Ġ hÃ²uĠzÃłiĠ
ĠĠĠA d
pÃłoĠ tÇİĠ
ĠL e
Ġ190 5ĠniÃ¡nĠ
xÃ¬ĠbÄģo ĠdeĠ
mÃ¡n Ġ
ĠbÃ¹ĠzhÃ¨ngĠ shÇĲĠ
hÄĵiĠlÃ³ngĠjiÄģngĠ shÄĽngĠ
9 8Ġ
F or
M o
l yĠ
Î ²Ġ
Ġ xÃ¹
Ġ tÃº
Ġ lÃłi
Ġ juÇİn
Äģn ĠjÄ«Ġ
ĠĠĠ lÃ¹Ġ
ĠĠĠ wÃłiĠ
ĠĠĠ mÃŃngĠchÄĵngĠ
yÃ¹ ĠhÃ²uĠ
lÃ¹ ĠxiÃłn
wÃ©n ĠxiÃłn
wÃłi ĠyÇĶĠ
qÄ«ng ĠxÃŃngĠ
nÃł ĠbÃ¹Ġ
xÄ«ng ĠshÃ¬Ġ
xiÃ¹ ĠjÃŃĠ
ĠhÃ©Ġ xiÇİoĠ
yÄ«Ġ cÃ¬Ġ
ĠlÃ¬Ġ yÇĶĠ
mÃŃngĠ jiÃłoĠ
ĠdÃ© ĠdÃłoĠdeĠ
zhÇĶĠ yÇİnĠdeĠ
shÃ¹Ġ zÃ¬
mÃŃnĠ bÄ«ngĠ
shÄĵnĠ yÃ¨Ġ
qÄ«ngĠ xiÃ©Ġ
zhuÇİnĠ tÃ³uĠ
yÄ«ngĠguÃ³Ġ huÃ¡ngĠjiÄģĠ
jÄ«ngĠjÃ¬Ġ gÅįngĠsÄ«Ġ
Ġc enterĠ
chuÃłngĠzuÃ²Ġ leĠ
rÃłoĠ tÃłiĠyÃ¡ngĠ
dÃ¡ĠchÃ©ngĠ xiÃ©ĠyÃ¬Ġ
fÄĽiĠ cuÃ¬
tuÇĴ ĠyuÃ¡nĠ
E P
Ġ kÃłn
Ġ shÇİoĠ
Ġ kuÃłngĠ
ĠĠĠ zuÃ¬Ġ
ĠĠĠ guÃ³ĠjiÄģĠduÃ¬Ġ
zhÄ« ĠzhÅįngĠ
lÃ¡i ĠyÇĶĠ
shÄ« ĠyÇĶĠ
zhÃ²ng ĠyÃºĠ
yÇİn ĠchÅ«ĠdeĠ
pÃ¨i ĠÄĽrĠ
lÇİo ĠniÃ¡nĠ
ĠhÃ©Ġ nÃ¨iĠ
ĠbÃ¹Ġ lÇĶ
ĠguÃ³Ġ tÇĶĠ
sÄ«Ġ zhÇİngĠ
ĠyuÃ¡nĠ chuÃłngĠ
shÄĵngĠ cÃºnĠ
ĠjÅ«n ĠjÄ«Ġ
ĠdÃ©Ġ duÅįĠ
kÄģiĠ pÃ¬
jiÄģngĠ gÄģiĠ
ĠpÃŃngĠ guÇĴ
dÄĽngĠ zhÃŃĠwÃ¹Ġ
mÄĽiĠguÃ³Ġ guÃ³Ġ
xuÇİnĠ xiÃ¹Ġ
sÃ¬Ġ miÃłoĠ
ĠhÃło ĠwÃ¨iĠ
gÄĵĠ wÇĶĠ
jÇĲnĠ mÃ¬Ġ
kÅįngĠ jiÃłngĠ
wÃ¡nĠ mÄĽiĠ
ĠdÅįngĠ hÇİiĠ
pÃ²Ġ shÇĲĠ
tÃłnĠ tÇİo
Ġãĥ «
gÅįngĠbÃ¹Ġ leĠ
ĠĠĠ194 1ĠniÃ¡nĠ
ĠyÃºĠ199 2ĠniÃ¡nĠ
ĠyÃ¬ĠbÄģn ĠdeĠ
guÃ³ĠmÃŃnĠ dÇİngĠ
jiÃ©ĠgÃ²u ĠdeĠ
mer ic
ĠÄģĠlÄģĠ bÃ³
dÃłĠshÇĲĠ guÇİnĠ
wÇİngĠqiÃº ĠgÅįngĠkÄģiĠsÃłiĠ
bÄģĠjÄ«ĠsÄ«Ġ tÇİn
ĠyÃ³uĠqÃŃ ĠshÃ¬ĠzÃłiĠ
1 ĠhÃłoĠxiÃłnĠ
O L
Ġ Äĵn
Ġ sÄģnĠgÃ¨Ġ
Ġ nÃłiĠ
Ġ fÇİĠyÇĶĠ
ĠĠĠ sÃłiĠshÃ¬Ġ
zhÅįng ĠdeĠdÃ¬Ġ
shÃ¨ ĠzÃłiĠ
kÄģi ĠzhÄ«Ġ
cÃ¬ ĠniÃ¡nĠ
luÃ³ ĠkÃ¨Ġ
gÄĵ ĠjÃŃĠ
diÇİn ĠhÃ©Ġ
dÅ« ĠchÃ©ngĠ
yÃ³uĠ tÃłi
xiÄģngĠ sÃ¬
xiÃłngĠ qiÃ¡nĠ
duÅįĠ lÃºnĠ
ĠshÃ¨Ġ yÇĲng
shÅ«Ġ yuÃłn
shÇĶĠ xiÃłĠdeĠyÃŃĠgÃ¨Ġ
Ġ19 11ĠniÃ¡nĠ
ĠĠĠM a
Ġh Ġ
xiÄĽĠ xÃ¬nĠ
Ġn ÃºĠ
Ġc Å«Ġ
chÇİnĠpÇĲn ĠdeĠ
yÇĴuĠbÃ¹Ġ shÇİo
guÇĲĠdiÃłnĠ chÄĵĠ
6 000
A l
a ĠĠĠS
f u
Ġ kuÃł
Ġ fÄģĠxÃŃng
Ġ 200Ġ
Ġ mÃ¡oĠzÃ©ĠdÅįngĠ
ĠĠĠ Ã©ĠluÃ³ĠsÄ«Ġ
dÃło ĠdeĠ
su ÇĲĠ
mÄĽi ĠshÃ¬Ġ
dÃłn ĠshÄĵngĠ
xiÄģn ĠjÃ¬nĠ
shuÅį ĠdÃłoĠ
wÄģn ĠdeĠ
ri st
ĠwÃ¨iĠ lÃ¡iĠdeĠ
ĠzÃłiĠ gÄģi
dÃ¬Ġ qÅ«ĠdeĠ
ĠrÃ©nĠ wÃ¹
ĠyÃ¬Ġ mÄĽiĠyuÃ¡nĠdeĠ
ĠyuÃ¡nĠ zÃ©
shÄĵngĠ lÇĲĠ
ĠxiÃłnĠ jÄ«n
ĠjÅ«n ĠbÃ¹Ġ
xiÄģngĠ yÃ¬ngĠdeĠ
ĠfÃ¹Ġ zÃ¡ĠdeĠ
cÃ¬Ġ fÃºĠ
yÃŃĠ chuÃ¡n
ĠxiÄģngĠ duÃ¬ĠyÃºĠ
huÃ¡Ġ xuÄĽ
xiÄģnĠ fÄĵngĠ
5Ġ hÃ¡oĠmÇĲĠ
ĠtÄģĠdeĠ mÃŃngĠzÃ¬Ġ
ĠdÅįngĠ bÄĽiĠbÃ¹Ġ
dÃ©Ġ piÃłoĠ
zhÃłngĠ hÃ¹Ġ
ĠmÇİ ĠkÃ¨ĠsÄ«Ġ
zuÃ¬ĠgÄģoĠ fÇİĠyuÃłnĠ
xuÇİnĠzÃ© ĠleĠ
ag ra
bÃłnĠgÅįngĠ tÄ«ngĠ
pÇĶĠchÃ¡ĠguÄ«ĠdÃ¬ngĠ jÅ«ĠmÃŃnĠdiÇİnĠ
b le
Ġ cÇİoĠ
Ġ bÇĲngĠ
Ġ bÇĲĠlÃ¬ĠshÃŃĠ
ĠĠĠ di
zhÃ¨ ĠwÃ¨iĠ
huÃ¬ ĠshÃŃĠ
mÇİ ĠÄĽr
sÃłi ĠchÃ©ngĠ
wÃłi ĠxiÃłnĠ
shÃ©n ĠmÃŃngĠ
dÇĲ ĠzhÅįngĠ
et er
ĠshÃ¬Ġ zÃ¬Ġ
ĠzhÅįngĠ yÄĽĠ
ĠgÅįngĠ kÃ¨Ġ
ĠyÄ«Ġ fÄģngĠ
jÄ«Ġ yÄ«nĠ
shÃłngĠ yÃ³uĠ
ĠjiÄģĠ qÃ¬ngĠ
ĠbÃ¨iĠ pÃ²
qÄ«Ġ wÃłngĠ
ĠduÃ¬Ġ yÃ¬ng
fÄĵnĠ xiÇİngĠ
ĠshÃłngĠ fÄģngĠ
ĠfÃ¹Ġ yuÃłnĠzhÇİngĠ
hÇİiĠ wÄģnĠ
ĠrÃ¨nĠ wÃ¹
Ã¨rĠ cÃ¬Ġ
cÃ©ngĠ miÃłnĠ
lÃ¬ngĠ yÄ«ĠwÃ¨iĠ
qiÄģnĠ dÃ¬ng
fÃłnĠ shÃ²uĠ
wÅ«Ġ dÇĲng
ĠwÃłnĠ mÄĽiĠyuÃ¡nĠdeĠ
Ã¨rĠshÃŃĠ yÄ«ĠniÃ¡nĠ
ĠmiÃłnĠjÄ«Ġ 1Ġ
ĠfÄĵngĠ bÃłoĠ
ĠdÃłĠxuÃ© ĠshÃ¬Ġ
ĠrÃ©nĠkÇĴu ĠwÃ¨iĠrÃ©nĠ
ĠxÄ«ĠbÄĽiĠ jiÄĵĠ
ĠrÃłng ĠtÄģĠ
ÄģnĠdÃ©Ġ lÇĶĠ
tuÃ¬ĠyÃ¬Ġ hÃ²uĠ
ĠĠĠxiÃłĠ shÇĶĠwÃ¹ĠzhÇĴngĠ
ĠzhÅįngĠguÃ³ĠguÃ³ĠmÃŃnĠ dÇİng
S te
Ġ bÄ«ng
Ġ 50Ġ
Ġ nÇİiĠ
Ġ mÃ²ĠxÄ«ĠgÄĵĠ
ĠĠĠ dÃłnĠ
duÃ¬ ĠyÇĲĠ
fÃ¹ ĠxiÃłnĠ
huÃł ĠhÃ²uĠ
yÃ¡n ĠyÇĶĠ
miÃłn ĠyÇĶĠ
sÄģn ĠwÃ©iĠ
xÃ¬ng ĠyÃºĠlÃ¨iĠ
cÄģn ĠzhÃłnĠ
chÃ©n ĠdeĠ
huÃ¡n ĠjiÃ©Ġ
fÄģn ĠxÄ«nĠ
ĠzhÅįngĠ dÃłĠ
chÃ©ngĠ rÃ©nĠ
ĠyuÃ¨Ġ kÄģnĠ
ĠrÃ©nĠ chÄĵngĠ
ĠyÃ¬Ġ gÇİngĠyuÃ¡nĠ
ĠmÃŃngĠ yÃ¹Ġ
fÄĵnĠ zÇĲĠ
guÃ²Ġ lÃ¡iĠ
juÃ©Ġ qÇĲĠ
ĠdÃłiĠ wÃ©iĠsÄ«Ġ
zÇĴngĠ shÅ«ĠjÃ¬Ġ
yuÄĵĠ 1Ġ
ĠdeĠyÄ«Ġ suÇĴĠ
fÃ¡ngĠ kÅįng
jÅ«Ġ mÃŃnĠdeĠ
zhÅ«Ġ gÄĽ
tÃ¡nĠ huÃłĠ
ĠxÃŃngĠzhÃ¨ngĠ qÅ«ĠyÃ¹Ġ
pÃłoĠ tÃ¡iĠ
ĠkÇİĠ lÄģĠ
jiÃłnĠzhÃ¹Ġ shÄ«Ġ
ĠhÇİiĠbÃ¡ĠgÄģoĠdÃ¹Ġ 2Ġ
ĠcÃ¬ ĠrÃ¬Ġ
tÃ¨ĠbiÃ© ĠxÃŃngĠzhÃ¨ngĠqÅ«Ġ
bÇİoĠjiÄģ ĠlÃ¬ĠyÃłĠ
zhuÄģnĠkÄĵĠxuÃ©Ġ xiÃłoĠ
3 ĠshÃŃĠ
A I
Ġ xuÃ¨Ġ
Ġ shÃ¹nĠ
chÃ¡ ĠhÃ©Ġ
xÄ«n ĠjÃ¬ĠshÃ¹Ġ
bÄģ ĠyÄ«Ġ
jÇĲng ĠshÃ¬Ġ
jÃº ĠfÃ¹Ġ
cÇİi ĠdeĠ
al k
pÃło ĠdÃłnĠ
ĠdÃłĠ mÃ©nĠ
mÃŃngĠ lÃ¹Ġ
dÃłiĠ mÃ¹Ġ
ĠyÄ«n ĠshÃ¬Ġ
fÄĵnĠ huÃłĠ
shÃ²uĠ shÄģng
ĠshÃ¨Ġ jÃ¬
ĠdÃłnĠ yÄĽĠyÇĴuĠ
ĠdÃłnĠ bÃ¡iĠzhÃ¬Ġ
shÅ«Ġ mÃ¬Ġ
shuÇĲĠ miÃłnĠ
gÇİiĠ zhuÄģng
gÃ²uĠ wÃ¹
yÇĲnĠ cÃ¡ng
fÃ¡ngĠ zhÇĲ
ĠwÃłn ĠpÃŃngĠfÄģngĠmÇĲĠ
ĠshÄ«Ġ fÃłn
yÃŃnĠ pÃ¡i
rÃ¬Ġ chÃ¡ng
hÃ©ngĠ kuÃł
yÅįuĠ huÃłĠ
Ġp Ġ
ĠyÇĴuĠyÄ«Ġ tiÃ¡oĠ
zuÃ¬ĠgÄģoĠ diÇİnĠwÃ¨iĠ
ĠĠĠ198 0ĠniÃ¡nĠ
wÃ©nĠhuÃł ĠhÃ©Ġ
ĠĠĠ197 8ĠniÃ¡nĠ
ĠĠĠjÇĲnĠ guÇİn
xiÃłĠdeĠyÃŃĠgÃ¨Ġ shÇĶĠ
1 18
1 ĠdeĠ
f er
ĠĠĠ ma
jÄ« ĠzhÅįngĠ
Äģi ĠsÄ«Ġ
yÇĶ ĠzhÃ¬Ġ
wÃ©i ĠchÃ©ngĠ
wÃ¹ ĠsÄ«Ġ
wÃ©n ĠlÇĲĠ
wÃłi ĠyuÃ¡nĠ
shÅ« ĠjÄ«Ġ
huÃŃ ĠleĠ
tuÅį ĠsÄ«Ġ
yÄģ ĠdeĠ
diÄģo ĠkÃ¨Ġ
ĠshÃ¬Ġ dÃ©ĠguÃ³ĠdeĠ
ĠyÄ«Ġ zhÅįuĠ
ĠdÃłĠ liÃ¡nĠ
ĠtÄģĠ suÇĴĠ
ĠzhÄ«Ġ nÃ¨iĠ
ĠwÃ©iĠ yÃł
tÃłiĠ zÇĶĠ
wÇİngĠ fÇİn
hÃ¡iĠ kÄĽĠyÇĲĠ
ĠguÃ³ĠjiÄģĠ zÃºĠqiÃºĠduÃ¬Ġ
ĠtÃ³ngĠshÃŃĠ yÄĽ
chuÃłngĠ zÃłoĠleĠ
fÄģĠzhÇİn ĠchÅ«Ġ
quÄĵĠ diÇİnĠ
ĠjiÄģnĠ rÃ¨nĠ
tÃ¬Ġ huÃłnĠ
ĠzÃłiĠzhÃ¨Ġ zhÇĴngĠ
duÅįĠyÃłngĠ xÃ¬ngĠ
Ġ or
Ġ dÅ«nĠ
Ġ kÄĽĠnÃ©ngĠhuÃ¬Ġ
yÇĶ ĠyÇĴuĠ
liÃ¡n ĠhuÃ¬Ġ
zÇĶ ĠguÃ³Ġ
qÃ¬ ĠjÃŃĠ
chÄĵng ĠqÃŃĠwÃ¨iĠ
chÃŃ ĠdeĠ
rÃ¨ ĠdeĠ
piÃło ĠdeĠ
sÅįu ĠjÃŃĠ
bÃłng ĠdeĠ
ĠshÃŃĠ jiÇĶĠniÃ¡nĠ
ĠgÅįngĠ tÃ³uĠ
sÄ«Ġ fÇİ
ĠyuÃ¡nĠ bÄĽnĠdeĠ
ĠyÇĶĠ lÃŃnĠ
ĠchÅ«Ġ shÄĵnĠyÃºĠ
ĠmÃŃngĠ xiÇİn
zhÃ¹Ġ zhÄģ
ĠwÃ©iĠ hÃ¹
fÇİĠ shÄ«Ġ
mÃ¹Ġ dÃ¬
mÃ¹Ġ lÃ¹Ġ
ĠzhÃ¨Ġ jiÄģng
bÃ¬Ġ nÃłnĠ
ĠzÃ¬Ġ shÄĵnĠ
zÄ«Ġ tÃłiĠ
chuÃ¡nĠ sÃ²ngĠ
kÇİĠ tÃ¨Ġ
ĠcÇĲĠ jÇĶĠ
Ġ19 14ĠniÃ¡nĠ
sÄģiĠ pÇĶĠ
cÄģnĠyÃ¹Ġ zhÄĽĠ
chÃ¨Ġ huÃŃĠ
zhÇĶĠyÃło ĠyÃ³uĠ
ĠmÄĽiĠ tiÄģnĠ
ĠdÃ¬ĠÃ¨r ĠmÃŃngĠ
ĠtÃºĠ jÄ«ngĠ
kÃ¹nĠ rÇİoĠ
ĠzÇĶ ĠjÃŃĠ
5 ĠzhÃ¬Ġ
S B
Ġ shÄĵng
Äģ ĠdÃ©Ġ
yÇĶ ĠbÃ¹Ġ
zhÄ« ĠchÅ«Ġ
qÅ« ĠzÃłiĠ
mÄĽi ĠyuÃ¨Ġ
wÃ©n ĠrÃ©nĠ
yÇİn ĠjÃ¬Ġ
biÃłn ĠbÃ¹Ġ
11 ĠgÃ¨Ġ
xÃ¬n ĠdeĠ
dÃŃ ĠÄĽrĠ
tÇĶ ĠsÄ«Ġ
196 1ĠniÃ¡nĠ
ĠyÃºĠ kÄĵĠdeĠqÃŃĠzhÅįngĠyÄ«ĠzhÇĴngĠ
ĠzhÃ¬Ġ zÃłoĠdeĠ
ĠlÃ¬Ġ fÇİĠyuÃłnĠ
ĠgÅįngĠ lÇĲ
ĠyÄ«Ġ zhÄ«
hÃ²uĠ dÃłiĠ
bÃ¨iĠ rÃ¨nĠwÃ©iĠshÃ¬Ġ
xiÄģngĠ cÅ«n
xiÄģngĠ lÃŃnĠ
ĠqÃŃĠ duÃ¬Ġ
ĠpÃŃngĠ mÃŃnĠ
qÇĲĠ dÄģnĠrÃ¨nĠ
ÄģĠ mÇĶĠsÄ«ĠtÃ¨Ġ
shÄĵnĠ biÄģnĠ
ĠxÄ«nĠ tÃ¡iĠbÃ¬Ġ
2Ġ fÄĵnĠ
luÃ²Ġ fÅ«
xÃ¹Ġ yuÄĵĠ
ĠgÄģiĠ xiÇİoĠxÃŃngĠxÄ«ng
chÃ¡oĠ tÃŃng
pÃ¡iĠ chÃºĠ
tÃ¡oĠ tÃłi
Ġ19 25ĠniÃ¡nĠ
Ġ19 23ĠniÃ¡nĠ
lÇĶĠ xiÇİoĠ
duÇİnĠ qÄ«Ġ
zÃºĠqiÃºĠ xiÃ©ĠhuÃ¬Ġ
nÃ¡Ġ dÃłĠdeĠ
ĠbÄĽi ĠwÃ¨iĠ
ĠzhÅįngĠguÃ³ĠrÃ©nĠmÃŃnĠ jiÄĽĠfÃłngĠjÅ«n
luÃ³ĠdÃ¬Ġ yÃł
lÄģĠjÄ«Ġ mÇĲĠÄĽrĠ
YouTub e
ĠrÃ©nĠdÃłĠ chÃ¡ngĠwÄĽiĠhuÃ¬Ġ
ĠlÃŃĠxÄ«nĠ lÇľĠwÃ¨iĠ0
7 ĠshÃŃĠ
A ĠdeĠ
M VĠ
w Äģng
Ġ ruÃ¬
Ġ xiÃ¡n
Ġ yÃ©Ġ
Ġ dÃ¡ĠdÃłoĠ
Ġ nÃ³ngĠyÃ¨Ġ
Ġ 28Ġ
ĠĠĠ dÃ¹Ġ
ĠĠĠ yÃłĠ
ĠĠĠ yÇĴngĠ
ĠĠĠ jÄ«ngĠguÃ²Ġ
zhÇĶ ĠxiÃłnĠ
cÃ¬ ĠyÇĶĠ
zhÄģng ĠgÃ¨ĠrÃ©nĠ
gÃ¹ ĠyuÃ¡nĠ
mÃ©ng ĠdeĠ
zhÃło ĠshÃ¬Ġ
xÃºn ĠshÃ¬Ġ
kÇİo ĠzhÃ¨ngĠ
zhÄģo ĠshÄĵngĠ
ĠzÃłiĠ 17
ĠzÃłiĠ dÃ©ĠguÃ³Ġ
ĠhÃ©Ġ yÃ³uĠ
ĠhÃ©Ġ qÃŃĠtÄģ
ĠgÅįngĠ dÇİngĠ
ĠdÃłĠ pÄ«Ġ
zuÃ²Ġ fÇİĠ
ĠjiÄģĠ shÇĶĠ
ĠgÃ¨Ġ shÄĽngĠ
ĠhuÃ¬Ġ yÇĶĠ
ĠhuÃ¬Ġ miÃłnĠ
yÃ¡nĠ gÃ©ĠdeĠ
mÃŃnĠ hÃ¡ngĠ
ĠduÃ¬Ġ chÃ¨nĠ
1Ġ fÄĵnĠ
jÇĲngĠ gÃło
shÃ¨Ġ zhÃ¬ĠdeĠ
Ġ19 22ĠniÃ¡nĠ
sÃłĠ mÃ³Ġ
Ġãĥ ©
ĠdeĠyuÃ¡nĠ sÃ¹Ġ
Ġ190 3ĠniÃ¡nĠ
shÇİoĠshÃ¹Ġ mÃŃnĠzÃºĠ
ĠzhÃ¨ng ĠdÃ©Ġ
na meĠ
ĠÄĽrĠduÅįĠ niÃ¨Ġ
jiÇİngĠzhÅįngĠ zhÃ¨ngĠ
Ġ fÃ¨nĠ
Ġ lÃ³uĠ
ĠĠĠ nÃ¨iĠrÃ³ngĠ
ĠĠĠ qÃŃĠtÄģ
lÃ¹ ĠÃ©rĠ
shÃ¹ ĠjÃŃĠ
jiÃ© ĠkÃ¨
zi ĠgÅįngĠ
en d
qÃ¬ nĠ
gÃ¹ ĠxiÄģngĠ
nÃ¡ ĠdÃłoĠ
ĠzÃłiĠ 16
ĠshÃŃĠ zhÅįngĠ
zhÃ¨ngĠ zhuÃłngĠ
ĠÃ©r ĠdeĠ
ĠmÃŃngĠ chÄĵngĠwÃ¨iĠ
ĠbÃ¬ngĠ rÃ¨nĠwÃ©iĠ
bÄĽiĠ hÇİi
fÃºĠ gÄģng
ĠrÃ¨nĠ dÃ¬ngĠ
yÃ¹nĠ zhuÃłnĠdeĠxiÇİoĠxÃŃngĠxÄ«ngĠ
ĠdÃłnĠ gÄģiĠ
Ã¨rĠ tÄ«ngĠ
mÃ³Ġ fÇİng
dÇĲĠ qÄ«Ġ
ĠdÃ¬ĠyÄ«Ġ jiÃ¨Ġ
miÃłnĠjÄ« ĠdeĠ
kÄĽĠnÃ©ngĠ dÇİoĠzhÃ¬Ġ
ĠzhÅįngĠyÄģngĠ wÄĽiĠyuÃ¡nĠ
zhÃ²ngĠyÃło ĠzuÃ²ĠyÃ²ngĠ
pÃŃngĠjÅ«nĠ shuÇĲĠpÃŃngĠ
ĠshÃŃĠjÃ¬Ġ shÃłngĠshÃ¬Ġ
ĠhÇİiĠbÃ¡ĠgÄģoĠdÃ¹Ġ 1Ġ
ĠshÃ¬ĠyÃ¬Ġ huÃ¬Ġ
ĠwÃ¨iĠyÃºĠfÇİĠguÃ³Ġ xÄ«nĠÄģĠjÄ«ĠtÇİn
chuÃłngĠlÃ¬Ġ leĠ
ĠshÄĵngĠwÃ¹Ġ xuÃ©Ġ
hÄģĠÄĽrĠ bÄ«n
qiÇİng ĠjiÃ©Ġ
ĠshÃ¬ĠyÄ«ĠkÄĵĠ rÃłoĠtÃłiĠyÃ¡ngĠ
ĠshÃ¬ĠxÄ«ngĠdÄĽngĠwÃ¨iĠ 6
quÃ¡nĠlÄĽiĠ dÇİĠ
ĠdeĠguÇĲĠdÃłoĠ bÃłnĠzhÇİngĠzhÃ³u
ĠĠĠguÇĲĠdÃłoĠ cÄģnĠshÃ¹Ġ
zhÄģngĠlÃ¹Ġ yÄ«nĠshÃ¬ĠzhuÄģnĠjÃŃĠ
ĠshÃ¬ĠyÄ«ĠkÄĵĠrÃłoĠtÃłiĠyÃ¡ngĠ yÃ¹nĠzhuÃłnĠdeĠxiÇİoĠxÃŃngĠxÄ«ngĠ
3 ĠhÃło
n er
y c
Ġ bÃłn
Ġ zhÃ¨ngĠzÃłiĠ
Ġ shÄģoĠ
qÄ« ĠgÅįngĠchÃ©ngĠ
sÃ¬ ĠjÃŃĠ
liÇİng ĠbÃ¹ĠfÃ¨nĠ
xiÃło ĠyÃ¬Ġ
shuÅį ĠtÄģĠ
dÅ« ĠwÃ¨iĠ
cÇİo ĠbÄĽnĠ
ĠgÅįngĠ rÃ¹Ġ
ĠchÃ©ngĠ dÃ¹
shÃ¹Ġ cÃ¬Ġ
jiÃ©Ġ mÃ©ngĠ
ĠzhÃłnĠ lÃ¼Ã¨
ĠzuÃ²Ġ luÃ²ĠyÃºĠ
ĠzhÃ¨Ġ jiÃ¹ĠshÃ¬Ġ
qÃ¬Ġ wÄĵnĠ
lÇľĠ bÅįĠ
jiÇİngĠ jiÃ¨ĠshÃŃĠ
ĠdeĠdÃ¬Ġ sÃ¬Ġ
xiÃłnĠ jÄ«nĠ
ĠdeĠyÄ«Ġ chÃ¡ngĠ
xÃŃngĠ mÃ¹Ġ
zhuÇİnĠ rÃ¹Ġ
tiÄĽĠ dÃ¡ĠnÃŃ
ĠmiÃłnĠjÄ«Ġ 1
ĠyÃ²ngĠ hÃ¹Ġ
jiÃłnĠlÃ¬Ġ leĠ
juÄģnĠ zÃ¨ng
ĠwÃ©iĠzhÇĶĠ xiÇİoĠxÃŃngĠxÄ«ngĠdÃłiĠ
lÃłnĠ yÃ²ngĠ
bÄĵngĠ kuÃ¬Ġ
qiÄģnĠshÇĶ ĠleĠ
bÄģĠlÃ¨ ĠsÄ«ĠtÇİnĠ
ĠgÅįngĠbÃ¹ ĠwÃ¨iĠdÃ¬Ġ
ĠwÃ©iĠzhÇĶĠxiÇİoĠxÃŃngĠxÄ«ngĠdÃłiĠ xiÇİoĠxÃŃngĠxÄ«ngĠ
3 DĠ
n aĠ
Ġ xiÃ©
Ġ bÃłoĠgÃłoĠ
Ġ dÃłiĠyÇĴuĠ
Ġ liÇĶĠ
Ã© ĠyÇĶĠ
ĠĠĠ guÄģnĠ
ĠĠĠ dÃ©ĠguÃ³Ġ
xiÃłn ĠshÃłngĠ
[...]
