{"!":0,"\"":1,"#":2,"$":3,"%":4,"&":5,"'":6,"(":7,")":8,"*":9,"+":10,",":11,"-":12,".":13,"/":14,"0":15,"1":16,"2":17,"3":18,"4":19,"5":20,"6":21,"7":22,"8":23,"9":24,":":25,";":26,"=":27,"?":28,"@":29,"A":30,"B":31,"C":32,"D":33,"E":34,"F":35,"G":36,"H":37,"I":38,"J":39,"K":40,"L":41,"M":42,"N":43,"O":44,"P":45,"Q":46,"R":47,"S":48,"T":49,"U":50,"V":51,"W":52,"X":53,"Y":54,"Z":55,"[":56,"\\":57,"]":58,"^":59,"_":60,"`":61,"a":62,"b":63,"c":64,"d":65,"e":66,"f":67,"g":68,"h":69,"i":70,"j":71,"k":72,"l":73,"m":74,"n":75,"o":76,"p":77,"q":78,"r":79,"s":80,"t":81,"u":82,"v":83,"w":84,"x":85,"y":86,"z":87,"|":88,"~":89,"¡":90,"¢":91,"£":92,"¤":93,"¥":94,"¦":95,"§":96,"¨":97,"©":98,"ª":99,"«":100,"¬":101,"®":102,"¯":103,"°":104,"±":105,"²":106,"³":107,"´":108,"µ":109,"¶":110,"·":111,"¸":112,"¹":113,"º":114,"»":115,"¼":116,"½":117,"¾":118,"¿":119,"Â":120,"Ã":121,"Ä":122,"Å":123,"Æ":124,"Ç":125,"È":126,"É":127,"Ê":128,"Ë":129,"Ì":130,"Í":131,"Î":132,"Ï":133,"Ð":134,"Ñ":135,"Ò":136,"Ó":137,"Ô":138,"Õ":139,"Ö":140,"×":141,"Ø":142,"Ù":143,"Ú":144,"Û":145,"Ü":146,"Þ":147,"ß":148,"à":149,"á":150,"â":151,"ã":152,"ä":153,"ê":154,"ë":155,"ì":156,"í":157,"î":158,"ï":159,"ð":160,"ñ":161,"Ċ":162,"Ġ":163,"ġ":164,"Ģ":165,"ģ":166,"Ĥ":167,"ĥ":168,"Ħ":169,"ħ":170,"Ĩ":171,"ĩ":172,"Ī":173,"ī":174,"Ĭ":175,"ĭ":176,"Į":177,"į":178,"İ":179,"ı":180,"Ĳ":181,"ĳ":182,"Ĵ":183,"ĵ":184,"Ķ":185,"ķ":186,"ĸ":187,"Ĺ":188,"ĺ":189,"Ļ":190,"ļ":191,"Ľ":192,"ľ":193,"Ŀ":194,"ŀ":195,"Ł":196,"ł":197,"Ń":198,"ng":199,"hÃ":200,"Ãł":201,"Äģ":202,"Ã¬":203,"Ã¡":204,"Ä«":205,"Ã¨":206,"Çİ":207,"ĠĠ":208,"Ã©":209,"ÃŃ":210,"shÃ":211,"Ã¹":212,"Ã¡n":213,"zh":214,"ÇĲ":215,"Åį":216,"ji":217,"de":218,"Ãłn":219,"Äĵ":220,"zhÃ":221,"sh":222,"ÄĽ":223,"Ã³":224,"ÇĶ":225,"xi":226,"Ã²":227,"Ãº":228,"Äģn":229,"ĠĠĠ":230,"Ãłi":231,"Å«":232,"Åįng":233,"ÇĴ":234,"ãĢ":235,"shÃ¬":236,"hu":237,"Ã¨i":238,"gu":239,"iÃ¡n":240,"hÃ©":241,"Ãło":242,"Äģng":243,"ÃŃng":244,"yu":245,"Çİn":246,"ch":247,"niÃ¡n":248,"yÄ«":249,"Çİng":250,"Ã©n":251,"ÇĴu":252,"Ã¬ng":253,"wÃ¨i":254,"Çİo":255,"zÃłi":256,"ãĢģ":257,"jÄ«":258,"Äĵng":259,"zhÅįng":260,"xÄ«":261,"bÃ¹":262,"jÃ¬":263,"Ãłng":264,"li":265,"zhÃ¨":266,"shÃŃ":267,"dÃ¬":268,"guÃ³":269,"yÃº":270,"rÃ©n":271,"Ã²ng":272,"chÃ":273,"Äģo":274,"du":275,"chÃ©":276,"yÇĲ":277,"lÃ¬":278,"Ã¡ng":279,"yÃ¬":280,"uÃ²":281,"Ã¡i":282,"zhÃ¬":283,"chÃ©ng":284,"Ã©i":285,"xu":286,"gÅįng":287,"jÃŃ":288,"²u":289,"ÄĽi":290,"iÃłn":291,"Äĵn":292,"Ã³ng":293,"yuÃ¨":294,"yÇĴu":295,"yuÃ¡n":296,"dÃł":297,"qi":298,"Åįu":299,"lÇĲ":300,"20":301,"Ã³u":302,"Äģi":303,"xiÃłn":304,"jiÄģ":305,"sÄ«":306,"Å«n":307,"xÃŃng":308,"yÇĶ":309,"Ã¨n":310,"ÇĴng":311,"ÃŃn":312,"tÄģ":313,"rÃ¬":314,"zhÄ«":315,"hÃ²u":316,"Çİi":317,"gÃ¨":318,"zhÃł":319,"Ã©ng":320,"le":321,"wÃ©i":322,"huÃ¬":323,"dÃło":324,"19":325,"bi":326,"shÃł":327,"qÄ«":328,"qÃŃ":329,"shÃ¨":330,"su":331,"zhÃ¨ng":332,"mÃŃng":333,"jiÃłn":334,"xuÃ©":335,"chÅ«":336,"yÃ¹":337,"ÄĽng":338,"zuÃ²":339,"shÄĵng":340,"duÃ¬":341,"yÃ³u":342,"qÅ«":343,"shÃłng":344,"ÄĽn":345,"dÃ©":346,"lÃ¹":347,"bÃ¨i":348,"chÃ¡":349,"ti":350,"shÇĲ":351,"zhÃłn":352,"zhÇĶ":353,"Äĵi":354,"qu":355,"jÃ¹":356,"xÄ«n":357,"jÅ«n":358,"zhu":359,"ÄĽr":360,"Ã¡o":361,"shÃ¹":362,"uÃ¬":363,"rÃ¨n":364,"fÄģ":365,"wÃ¹":366,"bÃ¬ng":367,"kÃ¨":368,"Ã©r":369,"dÃłi":370,"yÃŃ":371,"jÃ¬n":372,"zÃ¬":373,"yÄ«n":374,"fÃ¹":375,"fÄģng":376,"jÄ«ng":377,"nÃ¡n":378,"huÃł":379,"xÃ¬":380,"zhÅįu":381,"pÃŃng":382,"Ã²u":383,"xiÃł":384,"lÃ¡i":385,"yÃ²ng":386,"shu":387,"guÄģn":388,"tÃ³ng":389,"ãĢĭ":390,"ãĢĬ":391,"fÇİ":392,"zhÃ¹":393,"mÄĽi":394,"hÃ¡":395,"Â·":396,"jiÄģn":397,"jÇĲ":398,"huÃ²":399,"dÃ¹":400,"chu":401,"bÄĽn":402,"xiÄģng":403,"zhÃŃ":404,"dÃ²ng":405,"xiÃłng":406,"mÃŃn":407,"jiÄģng":408,"fÄĵn":409,"shÇĴu":410,"quÃ¡n":411,"wÃ©n":412,"yÃ¡n":413,"hÃł":414,"suÇĴ":415,"jiÃło":416,"qiÃ¡n":417,"diÃłn":418,"tÃ¨":419,"di":420,"duÅį":421,"Ãºn":422,"zuÃ¬":423,"kÄģi":424,"tu":425,"jiÃ©":426,"liÃ¡n":427,"zhÇĲ":428,"kÄĽ":429,"dÃłn":430,"mÃ¹":431,"yÃ¨":432,"fÃº":433,"mÇİ":434,"yÄĽ":435,"dÅįng":436,"qiÃº":437,"bÄĽi":438,"ãĢĮ":439,"ãĢį":440,"gÄģo":441,"yÃł":442,"qÇĲ":443,"jiÄĵ":444,"miÃłn":445,"hÇİi":446,"zhÇİng":447,"shÄ«":448,"jÄ«n":449,"cÇĲ":450,"lu":451,"nÃ¨i":452,"tÇĲ":453,"sÃłi":454,"sÄģn":455,"tÃ¡i":456,"gÃ©":457,"xÃ¬ng":458,"guÃ²":459,"rÃ¹":460,"201":461,"dÄĽng":462,"yÃło":463,"ju":464,"chÄĵ":465,"cÃ¬":466,"wÇĶ":467,"gÄģi":468,"dÃ¬ng":469,"chÃ¡ng":470,"biÇİo":471,"lÄģ":472,"gÃ²ng":473,"jiÃ¨":474,"shÃ²u":475,"dÇİo":476,"shÄģn":477,"chÇİng":478,"sÃ¬":479,"bÇĲ":480,"zÃ©":481,"tÃŃ":482,"kÄĵ":483,"dÄģng":484,"nÃ©ng":485,"Ã¨r":486,"wÃłi":487,"dÄģn":488,"xÃ¹":489,"zi":490,"kÇĴu":491,"xiÇİo":492,"zÇĶ":493,"bÄģ":494,"juÃ©":495,"lÃŃn":496,"liÃº":497,"shÄĽng":498,"yÄ«ng":499,"ku":500,"lÃ¡n":501,"luÃ³":502,"tÅįng":503,"200":504,"Ä«ng":505,"²ng":506,"mÇĲ":507,"zhÃ²ng":508,"en":509,"zhÄĽ":510,"shÇĶ":511,"tiÄģn":512,"zhÃ¨n":513,"Çļ":514,"qÃ¬":515,"zhÇĴng":516,"liÃ¨":517,"chÄĵng":518,"shÅ«":519,"yuÃłn":520,"bÇİo":521,"tÃłi":522,"fÇĶ":523,"fÄĵng":524,"gÇĶ":525,"qÄ«ng":526,"shÄĵn":527,"wÃ¡ng":528,"yÃ¹n":529,"guÇİn":530,"fÄĵi":531,"jiÃ¹":532,"liÇİng":533,"cÃ©ng":534,"mÃ©i":535,"10":536,"fÃ¨n":537,"hÃło":538,"³ng":539,"yÇİn":540,"wÄĽi":541,"zÇĴng":542,"xuÇİn":543,"xiÃło":544,"dÃ¡":545,"nÃł":546,"liÃłng":547,"bÅį":548,"zÃº":549,"jÃ¬ng":550,"bÃło":551,"nÃŃ":552,"wÃº":553,"tÇĴng":554,"huÃ¡":555,"jiÄģo":556,"yuÄĵ":557,"yÇĲng":558,"biÃłn":559,"xÄ«ng":560,"sÃ¹":561,"shuÇĲ":562,"yÃ¡ng":563,"hÃ¹":564,"men":565,"bÄģo":566,"gÄĵ":567,"bÃ³":568,"cÄģn":569,"cÃ³ng":570,"diÇİn":571,"bÃ¬":572,"rÃº":573,"bÃłn":574,"biÄģn":575,"wÇİng":576,"qÇĶ":577,"mi":578,"chÇİn":579,"sÃ¨":580,"zÄ«":581,"chuÃ¡n":582,"00":583,"shÃ¨ng":584,"rÃ¡n":585,"tÃº":586,"zhÄģng":587,"pÇĶ":588,"gÇİi":589,"gÇİng":590,"nÇļ":591,"lÃ¬ng":592,"luÃ²":593,"yÃ²u":594,"tÃ³u":595,"cÃ¨":596,"lÇ":597,"chÃŃ":598,"18":599,"lÇľ":600,"qiÄģn":601,"shÃ©":602,"lÃŃ":603,"dÅįu":604,"pÇĲ":605,"12":606,"zhÄĵng":607,"ni":608,"kuÃ²":609,"shÄģ":610,"dÇİng":611,"fÇİn":612,"gÃ²u":613,"lÃ¨i":614,"xÃŃ":615,"jÇĲng":616,"tuÃ¡n":617,"wÄĵi":618,"xiÄĵ":619,"lÇĲng":620,"lÃ³ng":621,"guÄ«":622,"xiÄģn":623,"rÃ³ng":624,"huÃ¡ng":625,"xiÇİng":626,"bÄģn":627,"jiÇĶ":628,"yÃ¬ng":629,"mÃ©n":630,"shÄģng":631,"shÃ©n":632,"202":633,"bÇİn":634,"kÇİ":635,"mÇĶ":636,"jÇĲn":637,"fÅ«":638,"jÇĶ":639,"mÃ³":640,"guÇİng":641,"cÃŃ":642,"shuÅį":643,"qÃŃng":644,"zhÇİn":645,"hÃ¡i":646,"zhuÄģng":647,"mÃ²":648,"cÃ¡i":649,"dÃº":650,"11":651,"pÇĲn":652,"tÃŃng":653,"chÃ¡o":654,"yÃŃng":655,"tiÃ¡o":656,"jiÇİn":657,"tÃ¡ng":658,"huÃŃ":659,"duÃłn":660,"chÃ©n":661,"gÄĵn":662,"mÃ¬":663,"wÃłn":664,"pÃ¡i":665,"wÄģn":666,"zÃło":667,"hÃ¡ng":668,"wÃ¡n":669,"biÄģo":670,"gÃ¹":671,"lÃºn":672,"199":673,"xiÃ©":674,"jiÇİng":675,"hÃłn":676,"jÃº":677,"fÃłn":678,"fÃ¡ng":679,"huÃ³":680,"hÃ¡n":681,"pi":682,"kÅįng":683,"or":684,"tiÄĽ":685,"mÃ©ng":686,"biÃ©":687,"wÅ«":688,"jiÄĽ":689,"zhuÄģn":690,"yÇĲn":691,"xÅ«":692,"zhÄĵn":693,"dÇĲ":694,"er":695,"chÃº":696,"hÃº":697,"jiÃł":698,"bÄ«ng":699,"mÃ¬ng":700,"lÃŃng":701,"hÃ³ng":702,"qÄ«n":703,"zÇĲ":704,"lÃ¹n":705,"xÃ¬n":706,"chÃ¹":707,"chÇĶ":708,"sÅ«":709,"an":710,"xiÅ«":711,"zÅįng":712,"15":713,"quÃ¨":714,"xiÄģo":715,"zhÃło":716,"qiÃ¡ng":717,"qÃ¹":718,"cÅ«n":719,"chÃ³ng":720,"piÃłn":721,"jiÅ«":722,"fÃłng":723,"suÃŃ":724,"shÅįu":725,"gÃ¨ng":726,"âĢ":727,"guÄģng":728,"Ã¨ng":729,"jÅ«":730,"on":731,"jiÇİ":732,"chuÃłng":733,"dÃŃ":734,"16":735,"zhuÇİn":736,"guÇĴ":737,"xÃ¹n":738,"mÃłn":739,"pÃłi":740,"fÃ¨i":741,"pÃ¨i":742,"198":743,"dÇİ":744,"tuÅį":745,"la":746,"xuÄģn":747,"bÃ¡i":748,"zhÅ«":749,"dÅ«":750,"tÇĶ":751,"diÃło":752,"xiÃ¡":753,"liÃ¹":754,"17":755,"suÃ¬":756,"huÄ«":757,"tÄ«ng":758,"qiÄĽ":759,"tÇİ":760,"qiÃ¡o":761,"hÄģ":762,"gÇİn":763,"zÄĵng":764,"xiÇİn":765,"mÃłi":766,"huÃ¡n":767,"xÇĶ":768,"wÇİ":769,"tuÄ«":770,"wÃ¨n":771,"chÄģo":772,"tiÃ¡n":773,"bÇİi":774,"cÇİi":775,"liÃ¡ng":776,"yÃ¡":777,"sÃł":778,"ar":779,"bÃłi":780,"cÃºn":781,"jiÇİo":782,"shÇİo":783,"yÃłn":784,"zhuÃłng":785,"huÇĴ":786,"lÃ©i":787,"14":788,"zu":789,"jiÃłng":790,"chuÄģn":791,"yÃ¬n":792,"zÇİo":793,"chÃł":794,"yÇĴng":795,"sÇĲ":796,"dÄĵng":797,"30":798,"zhÇĶn":799,"lÃ¨":800,"xÃºn":801,"nuÃ²":802,"kÃ¹":803,"huÃłn":804,"sÃ²ng":805,"gÃło":806,"lÇĶ":807,"13":808,"194":809,"bÄģng":810,"lÇļ":811,"pÄ«":812,"yÃłng":813,"hÄĽn":814,"qÃºn":815,"zhÄĽng":816,"guÃłn":817,"pÃ²":818,"gÄģng":819,"wÇĴ":820,"197":821,"huÄģ":822,"lÄĵi":823,"hÇİo":824,"tÃ¡o":825,"kuÃłng":826,"hÃ¨":827,"in":828,"dÃ¹n":829,"nÃ³ng":830,"gÄĽi":831,"sÄģi":832,"shuÄģng":833,"liÃłn":834,"kuÃłi":835,"dÄ«":836,"bÄ«":837,"pÃłn":838,"xiÄĽ":839,"195":840,"kÇİo":841,"gÃłi":842,"hÄĵi":843,"wÃłng":844,"liÃło":845,"rÃ¨":846,"ge":847,"zuÇĴ":848,"kÃ²ng":849,"196":850,"yÄģng":851,"chÃłng":852,"yÃŃn":853,"³u":854,"rÃ©ng":855,"sÄĵn":856,"bÄĵi":857,"lÃº":858,"piÃło":859,"yÄģ":860,"25":861,"bÄ«n":862,"âĢĶ":863,"rÃłng":864,"chÅįng":865,"lÃ³u":866,"bÇĶ":867,"lÇİo":868,"zhÃº":869,"jÃ¹n":870,"yÇİng":871,"ruÃ¬":872,"yÄģo":873,"xiÃ¡n":874,"xiÃ¨":875,"niÃłn":876,"for":877,"yÅįu":878,"tÃ¡n":879,"kÄģng":880,"pÃŃ":881,"hÃ©ng":882,"yÃºn":883,"xÇĲ":884,"kÃłn":885,"nÃŃng":886,"liÃ¡o":887,"shÃło":888,"bÃº":889,"24":890,"qÇĲng":891,"chÇĲ":892,"mu":893,"dÃ²u":894,"miÇİn":895,"yÅįng":896,"tÇİn":897,"wÇİn":898,"hÅ«":899,"fÄģn":900,"al":901,"tÅ«":902,"gÄģn":903,"suÃłn":904,"dÄ«ng":905,"yuÇİn":906,"wÄĵn":907,"tuÃ¬":908,"zhe":909,"21":910,"st":911,"xiÃ¹":912,"bÇİ":913,"mÇİn":914,"193":915,"23":916,"mula":917,"kÃłng":918,"formula":919,"28":920,"th":921,"mÃ¡o":922,"ruÃ²":923,"piÄģn":924,"chÃ¨":925,"mÃło":926,"lÇİng":927,"qÃŃn":928,"bÃ¡":929,"nÃ¡":930,"zÃłn":931,"guÇĲ":932,"guÃ¬":933,"ou":934,"pÃŃn":935,"wÃ²":936,"xiÃ³ng":937,"shÃłn":938,"re":939,"22":940,"xiÅįng":941,"me":942,"suÄ«":943,"Ã¼":944,"26":945,"shÄĽn":946,"qÃ¬ng":947,"miÃ¡o":948,"fÇİng":949,"50":950,"2020":951,"27":952,"lÃ¡ng":953,"ru":954,"qiÅ«":955,"sÅįng":956,"Ã¼Ã¨":957,"dÃłng":958,"gÄĵng":959,"qiÄģng":960,"ri":961,"fÃ¡":962,"zÄģo":963,"fÃ¨ng":964,"zhÃłng":965,"ï¼":966,"hÃ¡o":967,"dÅ«n":968,"zÇĴu":969,"hÃłi":970,"qiÃ¨":971,"29":972,"tÃłn":973,"pÃło":974,"pÃł":975,"shÃ¹n":976,"pÃ©ng":977,"xuÃ¡n":978,"2010":979,"nÇĲ":980,"000":981,"dÇĲng":982,"niÇĶ":983,"zÇİi":984,"zhÄģo":985,"zhuÄ«":986,"lÃ¼Ã¨":987,"chÅ«n":988,"2019":989,"hÅ«n":990,"kÇĴng":991,"duÄģn":992,"shÃ¨n":993,"xiÃ¡ng":994,"duÇİn":995,"gÃłn":996,"te":997,"ro":998,"kÄģn":999,"lÃ¡o":1000,"cÇİo":1001,"2016":1002,"si":1003,"gÅ«":1004,"pÃ©i":1005,"2018":1006,"kuÇİn":1007,"zÃ¡":1008,"sÅ«n":1009,"yÃ©":1010,"yÇİ":1011,"pÅį":1012,"2021":1013,"ra":1014,"chÃ¬":1015,"duÃ³":1016,"2014":1017,"fÃ¡n":1018,"2011":1019,"2015":1020,"cuÃ²":1021,"2017":1022,"zhÃ©":1023,"yÃ¡o":1024,"pÄģi":1025,"tÃ²u":1026,"cÃ¡ng":1027,"2012":1028,"40":1029,"kÇİi":1030,"2013":1031,"2022":1032,"mÃŃ":1033,"ruÇİn":1034,"suÄģn":1035,"chÄģ":1036,"zÃłng":1037,"miÃło":1038,"lt":1039,"2009":1040,"zhÇİo":1041,"2008":1042,"huÃ¡i":1043,"ãĥ":1044,"ce":1045,"60":1046,"am":1047,"cu":1048,"xuÃ¨":1049,"chÃ³u":1050,"se":1051,"bÇİng":1052,"mÃ¨ng":1053,"100":1054,"tÃ¬":1055,"pÃº":1056,"nÇİo":1057,"2023":1058,"zhuÃłn":1059,"gt":1060,"lÄĽi":1061,"190":1062,"31":1063,"cÃłi":1064,"cÃ¹":1065,"sÃłn":1066,"mÃ³u":1067,"tion":1068,"ta":1069,"hÃ¹n":1070,"ÇĶn":1071,"kuÄģn":1072,"2007":1073,"niÃº":1074,"mÇĴu":1075,"tÇİo":1076,"diÃ©":1077,"2001":1078,"ol":1079,"tÃ©ng":1080,"sÅįu":1081,"kÄĽn":1082,"qiÇİn":1083,"chÄģng":1084,"rÇİn":1085,"quÄĵ":1086,"fÇĴu":1087,"sÇĶn":1088,"el":1089,"bÃł":1090,"2000":1091,"80":1092,"kÃło":1093,"suÅį":1094,"2006":1095,"niÇİo":1096,"chÃºn":1097,"ma":1098,"2024":1099,"lÇİn":1100,"ãģ":1101,"zÄģi":1102,"zhÃ¡":1103,"xuÄĽ":1104,"huÇĲ":1105,"luÃłn":1106,"tÇĲng":1107,"2005":1108,"zÅ«n":1109,"bÃłng":1110,"lÃł":1111,"huÄģn":1112,"rÇİng":1113,"shuÃ¬":1114,"mÇĲn":1115,"35":1116,"lÃłi":1117,"cÄģng":1118,"70":1119,"fÃ³":1120,"pÃ¡n":1121,"of":1122,"nÃłi":1123,"wÄĽn":1124,"et":1125,"cÄģo":1126,"sÄģng":1127,"pÃ¡ng":1128,"90":1129,"bÇĲng":1130,"ï¼į":1131,"zhÄģ":1132,"ãĤ":1133,"shuÃłi":1134,"niÃ¨":1135,"es":1136,"hÃ³u":1137,"mÃ¨i":1138,"shÄģo":1139,"nÇĶ":1140,"dÇĴng":1141,"il":1142,"at":1143,"ow":1144,"fÃ©ng":1145,"miÃ¨":1146,"yÇĶn":1147,"zÃ²u":1148,"mÇİi":1149,"huÃłi":1150,"2004":1151,"45":1152,"yÄģn":1153,"co":1154,"48":1155,"the":1156,"zhuÃ³":1157,"and":1158,"ter":1159,"he":1160,"tÃło":1161,"nÇİi":1162,"kÅ«n":1163,"2025":1164,"zhÄĽn":1165,"ck":1166,"rÇĶ":1167,"kuÃł":1168,"kuÃŃ":1169,"ãĢī":1170,"ãĢĪ":1171,"gÅįu":1172,"36":1173,"cuÄ«":1174,"38":1175,"shÇİn":1176,"rÃ²u":1177,"diÄģo":1178,"2003":1179,"hÇĶ":1180,"guÅį":1181,"37":1182,"cuÃ¬":1183,"ne":1184,"xÃº":1185,"mÃ¡ng":1186,"juÇİn":1187,"cÃ¡n":1188,"diÄģn":1189,"zhÄģn":1190,"cÃ¡o":1191,"189":1192,"IN":1193,"2002":1194,"deĠ":1195,"ĠdeĠ":1196,"shÃ¬Ġ":1197,"ĠshÃ¬Ġ":1198,"ĠniÃ¡n":1199,"ĠniÃ¡nĠ":1200,"wÃ¨iĠ":1201,"zÃłiĠ":1202,"ĠwÃ¨iĠ":1203,"ĠzÃłiĠ":1204,"hÃ©Ġ":1205,"ĠhÃ©Ġ":1206,"zhÅįngĠ":1207,"bÃ¹Ġ":1208,"dÃ¬Ġ":1209,"shÃŃĠ":1210,"guÃ³Ġ":1211,"yÃºĠ":1212,"rÃ©nĠ":1213,"ĠbÃ¹Ġ":1214,"yÄ«Ġ":1215,"ĠzhÅįngĠ":1216,"lÃ¬Ġ":1217,"zhÃ¬Ġ":1218,"gÅįngĠ":1219,"ĠshÃŃĠ":1220,"yuÃ¨Ġ":1221,"jÃŃĠ":1222,"chÃ©ngĠ":1223,"yÃ¬Ġ":1224,"yÇĴuĠ":1225,"ĠdÃ¬Ġ":1226,"ĠyuÃ¨Ġ":1227,"ĠyÃºĠ":1228,"ĠrÃ©nĠ":1229,"ĠzhÃ¬Ġ":1230,"dÃłĠ":1231,"ĠjÃŃĠ":1232,"yuÃ¡nĠ":1233,"ĠyÇĴuĠ":1234,"jÃ¬Ġ":1235,"ĠguÃ³Ġ":1236,"ĠlÃ¬Ġ":1237,"ĠgÅįngĠ":1238,"ĠyÃ¬Ġ":1239,"ĠyÇĲ":1240,"ĠchÃ©ngĠ":1241,"jiÄģĠ":1242,"sÄ«Ġ":1243,"yÇĶĠ":1244,"ĠxiÃłn":1245,"ĠrÃ¬":1246,"ĠyÄ«Ġ":1247,"ĠxÃŃng":1248,"ĠtÄģ":1249,"lÇĲĠ":1250,"jÄ«Ġ":1251,"ĠdÃło":1252,"hÃ²uĠ":1253,"wÃ©iĠ":1254,"ĠzhÄ«":1255,"ĠdÃłĠ":1256,"ĠyuÃ¡nĠ":1257,"xÄ«Ġ":1258,"ĠrÃ¬Ġ":1259,"ĠgÃ¨":1260,"ĠyÇĲĠ":1261,"xuÃ©Ġ":1262,"huÃ¬Ġ":1263,"leĠ":1264,"zuÃ²Ġ":1265,"ĠyÇĶĠ":1266,"ĠdÃłoĠ":1267,"mÃŃngĠ":1268,"ĠjÃ¬Ġ":1269,"bÃ¨iĠ":1270,"ĠxÃŃngĠ":1271,"shÄĵngĠ":1272,"ĠjiÃłn":1273,"ĠchÅ«":1274,"ĠqÃŃ":1275,"ĠsÄ«Ġ":1276,"ĠdÃ©":1277,"zhÃ¨ngĠ":1278,"ĠxiÃłnĠ":1279,"ĠhÃ²uĠ":1280,"ĠjÄ«Ġ":1281,"duÃ¬Ġ":1282,"shÃłngĠ":1283,"qÅ«Ġ":1284,"shÇĲĠ":1285,"ĠÄĽr":1286,"ĠjiÄģĠ":1287,"yÃ³uĠ":1288,"ĠtÄģĠ":1289,"ĠxÄ«Ġ":1290,"ĠlÇĲĠ":1291,"ĠÃ©r":1292,"zhÃłnĠ":1293,"ĠjÅ«n":1294,"ĠbÃ¬ng":1295,"ĠzhÄ«Ġ":1296,"ĠgÃ¨Ġ":1297,"zhÇĶĠ":1298,"rÃ¨nĠ":1299,"fÃ¹Ġ":1300,"zÃ¬Ġ":1301,"wÃ¹Ġ":1302,"xÄ«nĠ":1303,"dÃłiĠ":1304,"jÃ¹Ġ":1305,"pÃŃngĠ":1306,"ĠchÅ«Ġ":1307,"ĠkÃ¨":1308,"ĠzhÅįu":1309,"xiÄģngĠ":1310,"ĠhuÃ¬Ġ":1311,"shÃ¹Ġ":1312,"nÃ¡nĠ":1313,"ĠshÃ¨":1314,"ĠbÃ¨iĠ":1315,"ĠmÃŃngĠ":1316,"xiÃłĠ":1317,"guÄģnĠ":1318,"ĠÄĽrĠ":1319,"ĠdÃ©Ġ":1320,"lÃ¹Ġ":1321,"yÃ¹Ġ":1322,"huÃłĠ":1323,"ĠjiÃłnĠ":1324,"jÄ«ngĠ":1325,"yÃ¡nĠ":1326,"fÄģngĠ":1327,"ĠyÄ«n":1328,"kÄģiĠ":1329,"jiÄģnĠ":1330,"jiÃłoĠ":1331,"fÄģĠ":1332,"yÃ²ngĠ":1333,"ĠdÃłn":1334,"ĠÃ©rĠ":1335,"zhÃ¹Ġ":1336,"lÃ¡iĠ":1337,"mÃŃnĠ":1338,"shÇĴuĠ":1339,"zhÃ¨Ġ":1340,"xiÃłngĠ":1341,"wÃ©nĠ":1342,"ĠjÅ«nĠ":1343,"xÃ¬Ġ":1344,"qiÃ¡nĠ":1345,"bÄĽnĠ":1346,"tÃ¨Ġ":1347,"ĠwÃ©iĠ":1348,"zhÃŃĠ":1349,"fÇİĠ":1350,"qÄ«Ġ":1351,"jiÃ©Ġ":1352,"liÃ¡nĠ":1353,"ĠbÃ¬ngĠ":1354,"dÃ²ngĠ":1355,"diÃłnĠ":1356,"ĠqÃŃĠ":1357,"ĠkÃ¨Ġ":1358,"dÅįngĠ":1359,"mÃ¹Ġ":1360,"ĠjÃ¬n":1361,"ĠduÃ¬Ġ":1362,"ĠhuÃ²":1363,"ĠzhÃłnĠ":1364,"fÄĵnĠ":1365,"tÃ¡iĠ":1366,"zhÇİngĠ":1367,"dÃ¹Ġ":1368,"jiÄģngĠ":1369,"ĠqiÃº":1370,"ĠpÃŃngĠ":1371,"gÄģoĠ":1372,"yÃ¨Ġ":1373,"suÇĴĠ":1374,"bÄĽiĠ":1375,"ĠzhÅįuĠ":1376,"shÄ«Ġ":1377,"ĠleĠ":1378,"duÅįĠ":1379,"ÄģnĠ":1380,"jiÄĵĠ":1381,"gÃ©Ġ":1382,"ĠshÃłngĠ":1383,"jÄ«nĠ":1384,"ĠzhÃ¨ngĠ":1385,"fÃºĠ":1386,"ĠzuÃ²Ġ":1387,"ĠyÃ³uĠ":1388,"ĠfÃ¹Ġ":1389,"kÇĴuĠ":1390,"guÃ²Ġ":1391,"zhÇĲĠ":1392,"hÇİiĠ":1393,"ĠtÃ³ng":1394,"ĠrÃ¨nĠ":1395,"mÇİĠ":1396,"rÃ¹Ġ":1397,"tÅįngĠ":1398,"zuÃ¬Ġ":1399,"quÃ¡nĠ":1400,"ĠshÄĵngĠ":1401,"cÇĲĠ":1402,"ĠxuÃ©Ġ":1403,"xÃ¬ngĠ":1404,"wÃłiĠ":1405,"nÃ¨iĠ":1406,"lÄģĠ":1407,"tÇĲĠ":1408,"juÃ©Ġ":1409,"kÄĽĠ":1410,"qÇĲĠ":1411,"shÄģnĠ":1412,"tiÄģnĠ":1413,"dÄĽngĠ":1414,"chÇİngĠ":1415,"zhÃ¨nĠ":1416,"wÇĶĠ":1417,"chÃ¡ngĠ":1418,"ziĠ":1419,"ÄģĠ":1420,"yÃłoĠ":1421,"bÇĲĠ":1422,"ĠjÃ¹Ġ":1423,"bÇİoĠ":1424,"mÇĲĠ":1425,"yÃłĠ":1426,"ĠyÄ«nĠ":1427,"miÃłnĠ":1428,"cÃ¬Ġ":1429,"gÄģiĠ":1430,"shÃ²uĠ":1431,"jiÃ¨Ġ":1432,"yÄĽĠ":1433,"zhÃ²ngĠ":1434,"yÃŃĠ":1435,"ĠshÃ¨Ġ":1436,"fÄĵngĠ":1437,"zhÇĴngĠ":1438,"liÃºĠ":1439,"chÄĵĠ":1440,"yÃ¹nĠ":1441,"ĠzhÃ¨Ġ":1442,"lÃŃnĠ":1443,"bÄģoĠ":1444,"sÃłiĠ":1445,"dÃ¬ngĠ":1446,"yÃŃĠgÃ¨Ġ":1447,"shÄĵnĠ":1448,"ĠdÃłiĠ":1449,"shÄĽngĠ":1450,"ĠdÃłnĠ":1451,"luÃ³Ġ":1452,"qÃ¬Ġ":1453,"sÄģnĠ":1454,"xiÇİoĠ":1455,"mÄĽiĠguÃ³Ġ":1456,"nÃ©ngĠ":1457,"shÅ«Ġ":1458,"zÃ©Ġ":1459,"zhÄĽĠ":1460,"liÃ¨Ġ":1461,"xuÇİnĠ":1462,"sÃ¬Ġ":1463,"qÄ«ngĠ":1464,"ĠqiÃºĠ":1465,"yuÃłnĠ":1466,"jÃ¬ngĠ":1467,"bÄģĠ":1468,"wÃ¡ngĠ":1469,"kÄĵĠ":1470,"tÃłiĠ":1471,"lÃ¡nĠ":1472,"bÃłoĠ":1473,"ÃłnĠ":1474,"yÇĲngĠ":1475,"ĠhuÃ²Ġ":1476,"zÇĴngĠ":1477,"bÃ¬Ġ":1478,"fÇĶĠ":1479,"dÇİoĠ":1480,"gÇĶĠ":1481,"yÄ«ngĠ":1482,"ĠhÃło":1483,"ĠxÄ«nĠ":1484,"ĠxiÃłĠ":1485,"fÃ¨nĠ":1486,"gÄĵĠ":1487,"xiÃłoĠ":1488,"yuÄĵĠ":1489,"ĠzÃ¬Ġ":1490,"jiÄģoĠ":1491,"nÃŃĠ":1492,"nÃłĠ":1493,"shuÇĲĠ":1494,"zÄ«Ġ":1495,"ÃłoĠ":1496,"Ã¨rĠ":1497,"ĠmÇĲĠ":1498,"pÇĶĠ":1499,"dÄģnĠ":1500,"biÇİoĠ":1501,"liÃłngĠ":1502,"guÇİnĠ":1503,"tÃ³uĠ":1504,"chuÃ¡nĠ":1505,"sÃ¹Ġ":1506,"wÃºĠ":1507,"rÃºĠ":1508,"xÄ«ngĠ":1509,"bÅįĠ":1510,"nÇļĠ":1511,"yÇİnĠ":1512,"ĠzhÃ¹Ġ":1513,"bÃ³Ġ":1514,"fÄĵiĠ":1515,"tÃŃĠ":1516,"sÃ¨Ġ":1517,"mÄĽiĠ":1518,"dÃ¡Ġ":1519,"chÄĵngĠ":1520,"ĠzhÅįngĠguÃ³Ġ":1521,"ĠdÄģng":1522,"ĠjÃ¬nĠ":1523,"ĠlÃ¹Ġ":1524,"ĠwÃ¨iĠyÃºĠ":1525,"cÃ©ngĠ":1526,"ĠxiÄģngĠ":1527,"chÇİnĠ":1528,"biÃłnĠ":1529,"tÃºĠ":1530,"1Ġ":1531,"ĠnÃ¡nĠ":1532,"guÄ«Ġ":1533,"ĠrÃ¡n":1534,"ĠyÃ¹Ġ":1535,"yÃ¡ngĠ":1536,"zhÄģngĠ":1537,"2Ġ":1538,"diÇİnĠ":1539,"gÇİiĠ":1540,"cÃ³ngĠ":1541,"jiÃ¹Ġ":1542,"wÇİngĠ":1543,"shÄģĠ":1544,"zÇĶĠ":1545,"huÃ¡Ġ":1546,"lÇľĠ":1547,"shÃ¨ngĠ":1548,"bÄģoĠkuÃ²":1549,"jiÇİnĠ":1550,"ĠbÄĽnĠ":1551,"shÇĶĠ":1552,"gÇİngĠ":1553,"jÇĲngĠ":1554,"qÃŃngĠ":1555,"zÃºĠ":1556,"bÃłnĠ":1557,"liÇİngĠ":1558,"tÇĴngĠ":1559,"shÄģngĠ":1560,"gÃ²ngĠ":1561,"hÃ¹Ġ":1562,"lÃŃĠ":1563,"tÃ³ngĠ":1564,"lÃ³ngĠ":1565,"jÃ¬nĠ":1566,"biÄģnĠ":1567,"luÃ²Ġ":1568,"xÃ¹Ġ":1569,"chÃŃĠ":1570,"mÃ©iĠ":1571,"jÇĲnĠ":1572,"bÄģnĠ":1573,"guÇİngĠ":1574,"cÃ¨Ġ":1575,"chÅ«Ġ":1576,"zhÄĵngĠ":1577,"shÃ©nĠ":1578,"mÃ¬Ġ":1579,"ĠtÄģĠmen":1580,"zhÄ«Ġ":1581,"lÇĲngĠ":1582,"wÄĵiĠ":1583,"yÃ²uĠ":1584,"fÇİnĠ":1585,"tÃŃngĠ":1586,"xÃŃĠ":1587,"huÃ³Ġ":1588,"chÃ¡Ġ":1589,"kÇİĠ":1590,"gÃ²uĠ":1591,"cÃ¡iĠ":1592,"ĠgÄģiĠ":1593,"mÃ©nĠ":1594,"xiÇİngĠ":1595,"shuÅįĠ":1596,"cÃŃĠ":1597,"wÄĽiĠ":1598,"qÇĶĠ":1599,"mÇĶĠ":1600,"jiÇİngĠ":1601,"lÃ¨iĠ":1602,"tuÃ¡nĠ":1603,"jiÃłnĠ":1604,"chÃ¡oĠ":1605,"yÃ¬ngĠ":1606,"3Ġ":1607,"ĠgÅįngĠlÇĲĠ":1608,"yÇĲnĠ":1609,"yÃ¡nĠjiÅ«":1610,"Ã©Ġ":1611,"xiÄĵĠ":1612,"tÃ¡ngĠ":1613,"qÃŃĠ":1614,"chÃ©nĠ":1615,"pÇĲnĠ":1616,"ĠduÅįĠ":1617,"jiÃłĠ":1618,"ĠyÇĲĠjÃŃĠ":1619,"ĠzhÇĶĠ":1620,"jiÄĽĠ":1621,"hÃ¡ngĠ":1622,"shÇĲĠyÃ²ngĠ":1623,"yÇĲĠ":1624,"lÃºnĠ":1625,"rÃ³ngĠ":1626,"fÅ«Ġ":1627,"jiÇĶĠ":1628,"pÃ¡iĠ":1629,"nĠ":1630,"ĠyÃ³u":1631,"lÃ¬ngĠ":1632,"ĠhÃłoĠ":1633,"tÃ¡iĠwÄģn":1634,"huÃ¡ngĠ":1635,"dÇİngĠ":1636,"xÅ«Ġ":1637,"duÃłnĠ":1638,"ĠdeĠdÃ¬Ġ":1639,"xiÄģnĠ":1640,"kÄĽĠyÇĲĠ":1641,"kÃ¨Ġ":1642,"yÃŃngĠ":1643,"mÃ³Ġ":1644,"cÄģnĠ":1645,"5Ġ":1646,"tiÃ¡oĠ":1647,"biÄģoĠ":1648,"zhÇİnĠ":1649,"xiÃłnĠ":1650,"bÇİnĠ":1651,"ĠdeĠyÄ«Ġ":1652,"kÄģiĠshÇĲĠ":1653,"4Ġ":1654,"qiÄģnĠ":1655,"ĠchÃ©ngĠwÃ©iĠ":1656,"hÃłnĠ":1657,"hÃ³ngĠ":1658,"yÄ«nĠ":1659,"mÃ©iĠyÇĴuĠ":1660,"wÄĽiĠyuÃ¡nĠ":1661,"lÃŃngĠ":1662,"ĠtÃ³ngĠ":1663,"xiÄģoĠ":1664,"jÃºĠ":1665,"mÃ©ngĠ":1666,"kÅįngĠ":1667,"huÃŃĠ":1668,"sÅ«Ġ":1669,"zhuÄģngĠ":1670,"fÃ¡ngĠ":1671,"bÄģoĠkuÃ²Ġ":1672,"cÅ«nĠ":1673,"9ĠniÃ¡nĠ":1674,"rÃ©nĠkÇĴuĠ":1675,"xÃŃngĠ":1676,"ĠqÃŃĠzhÅįngĠ":1677,"huÃ²Ġ":1678,"ĠgÅįngĠsÄ«Ġ":1679,"zÇĲĠ":1680,"dÅįuĠ":1681,"6ĠniÃ¡nĠ":1682,"ĠdeĠshÃ¬Ġ":1683,"ĠĠĠzÃłiĠ":1684,"sĠ":1685,"ÃłiĠ":1686,"zhÃłoĠ":1687,"qiÃ¡ngĠ":1688,"dÃºĠ":1689,"8ĠniÃ¡nĠ":1690,"zhÃ¨ngĠzhÃ¬Ġ":1691,"bÄ«ngĠ":1692,"yÃŃĠgÃ¨":1693,"mÃ²Ġ":1694,"cÇİiĠ":1695,"fÇİĠguÃ³Ġ":1696,"5ĠniÃ¡nĠ":1697,"qÄ«nĠ":1698,"ÄģiĠ":1699,"hÃ¡iĠ":1700,"chÃ¹Ġ":1701,"ĠdÃłĠxuÃ©Ġ":1702,"hÃºĠ":1703,"ĠshÃ¬ĠyÄ«Ġ":1704,"zhÄĵnĠ":1705,"ĠtÄģĠdeĠ":1706,"ĠwÃłn":1707,"4ĠniÃ¡nĠ":1708,"lÃ¹nĠ":1709,"ĠgÄģoĠ":1710,"fÃłnĠ":1711,"guÄģngĠ":1712,"2ĠniÃ¡nĠ":1713,"mÃłnĠ":1714,"ÇİnĠ":1715,"wÃ¨nĠ":1716,"shÃ¨Ġ":1717,"7ĠniÃ¡nĠ":1718,"jÅ«Ġ":1719,"biÇİoĠshÃ¬Ġ":1720,"ĠxiÃłngĠ":1721,"zhÅįngĠdeĠ":1722,"quÃ¨Ġ":1723,"zhuÄģnĠ":1724,"wÃ¡nĠ":1725,"diÃłoĠ":1726,"bÃ¡iĠ":1727,"3ĠniÃ¡nĠ":1728,"dÇİĠ":1729,"6Ġ":1730,"zÅįngĠ":1731,"jÇĶĠ":1732,"fÃ¨iĠ":1733,"diÃłnĠshÃ¬Ġ":1734,"hÃ¡nĠ":1735,"xÃ¹nĠ":1736,"ĠshÃ¬ĠwÃ¨iĠ":1737,"piÃłnĠ":1738,"mÃ¬ngĠ":1739,"shÃ¬ĠdeĠ":1740,"ĠdÅįngĠ":1741,"tuÅįĠ":1742,"ĠmÃ¹Ġ":1743,"ĠdÃ¹Ġ":1744,"ĠjÄ«nĠ":1745,"gÃ¹Ġ":1746,"1ĠniÃ¡nĠ":1747,"sĠĠĠ":1748,"guÇĴĠ":1749,"ĠtÃ¨Ġ":1750,"xiÅ«Ġ":1751,"xiÃ©Ġ":1752,"ĠbÃ¹ĠfÃ¨nĠ":1753,"tÄģĠ":1754,"0ĠniÃ¡nĠ":1755,"zÃłoĠ":1756,"ĠrÃ©nĠkÇĴuĠ":1757,"ĠfÄĵnĠ":1758,"ĠhÃ©ĠguÃ³Ġ":1759,"zhÅįngĠguÃ³Ġ":1760,"10ĠyuÃ¨Ġ":1761,"shÅįuĠ":1762,"xÃ¬nĠ":1763,"dÄģngĠ":1764,"ĠjiÄģngĠ":1765,"12ĠyuÃ¨Ġ":1766,"7ĠyuÃ¨Ġ":1767,"ĠjiÃ©Ġ":1768,"ĠyÄĽĠ":1769,"9ĠyuÃ¨Ġ":1770,"dÃłoĠ":1771,"ĠzuÃ¬":1772,"zhuÇİnĠ":1773,"wÅ«Ġ":1774,"miÃłnĠjÄ«Ġ":1775,"ĠrÃ©nĠmÃŃnĠ":1776,"8ĠyuÃ¨Ġ":1777,"xÃºnĠ":1778,"ĠdÃ¬ĠqÅ«Ġ":1779,"3ĠyuÃ¨Ġ":1780,"jiÇİĠ":1781,"xiÃ¡Ġ":1782,"1ĠyuÃ¨Ġ":1783,"dÅ«Ġ":1784,"gÇİnĠ":1785,"dÃŃĠ":1786,"zhÅ«Ġ":1787,"huÃ¡nĠ":1788,"5ĠyuÃ¨Ġ":1789,"dÇĲĠ":1790,"tÄ«ngĠ":1791,"yÄ«ngĠguÃ³Ġ":1792,"ĠcÇĲĠ":1793,"ĠguÃ²Ġ":1794,"zhÅįuĠ":1795,"huÇĴĠ":1796,"zhÃ¨ngĠshÃ¬Ġ":1797,"chÃ³ngĠ":1798,"ĠjÄ«ngĠ":1799,"6ĠyuÃ¨Ġ":1800,"zhuÃłngĠ":1801,"tiÃ¡nĠ":1802,"chÃ©ngĠshÃ¬Ġ":1803,"4ĠyuÃ¨Ġ":1804,"gÃ¨ngĠ":1805,"ĠyÄĽ":1806,"fÃłngĠ":1807,"ĠguÃ³ĠjiÄģĠ":1808,"jÅ«nĠ":1809,"yÇĴngĠ":1810,"ĠĠĠdÃ¬Ġ":1811,"ĠshÇĴuĠ":1812,"ĠsuÇĴĠ":1813,"ĠshÄ«Ġ":1814,"ÇİoĠ":1815,"shÇĶĠyÃºĠ":1816,"ĠpÃŃngĠfÄģng":1817,"pÃ²Ġ":1818,"ĠdÃ¬ĠyÄ«Ġ":1819,"qÃ¹Ġ":1820,"qÃºnĠ":1821,"11ĠyuÃ¨Ġ":1822,"jiÃłngĠ":1823,"tÃ¡oĠ":1824,"ĠĠĠS":1825,"ĠshÃ¬ĠjÃ¬Ġ":1826,"gÄĵnĠ":1827,"ĠpÃŃngĠfÄģngĠgÅįngĠlÇĲĠ":1828,"ĠtÃ³ngĠshÃŃĠ":1829,"ĠrÃºĠ":1830,"dÄģnĠrÃ¨nĠ":1831,"ĠC":1832,"biÃ©Ġ":1833,"pÃłiĠ":1834,"jÇĲĠ":1835,"huÄ«Ġ":1836,"tiÄĽĠ":1837,"liÃ¡ngĠ":1838,"ĠqiÃ¡nĠ":1839,"shÇİoĠ":1840,"tÇİĠ":1841,"nÃ³ngĠ":1842,"diÃłnĠyÇĲngĠ":1843,"chÇĶĠ":1844,"ÄĵnĠ":1845,"ÄĽrĠ":1846,"sÇĲĠ":1847,"tÃ¡iĠwÄģnĠ":1848,"shuÄģngĠ":1849,"qiÃ¡oĠ":1850,"ĠzhÃ¨":1851,"ĠS":1852,"ĠmÇİĠ":1853,"ĠdeĠshÃŃĠ":1854,"gÄĵnĠjÃ¹Ġ":1855,"lÃ¬ĠshÇĲĠ":1856,"7Ġ":1857,"chÃºĠ":1858,"gÃłoĠ":1859,"bÃłiĠ":1860,"ĠshÃ¬ĠzhÃ¨nĠ":1861,"cÄģnĠjiÄģĠ":1862,"yÃ¹nĠdÃ²ng":1863,"jiÇİoĠ":1864,"gÄģngĠ":1865,"chÄĵĠzhÃłnĠ":1866,"ĠtiÄģnĠ":1867,"guÃ³ĠdeĠ":1868,"qÄ«ĠjiÄģnĠ":1869,"ĠdÄĽngĠ":1870,"ĠyÄ«nĠwÃ¨iĠ":1871,"pÃłnĠ":1872,"ĠrÃ¬ĠbÄĽnĠ":1873,"zhÃ¨ngĠfÇĶĠ":1874,"ĠpÃŃngĠfÄģngĠ":1875,"lÃ¬ĠdeĠ":1876,"gÃłiĠ":1877,"ĠniÃ¡nĠdeĠ":1878,"yÃłnĠ":1879,"bÃ¬ngĠ":1880,"zhÇĶnĠ":1881,"wÇİĠ":1882,"yÃ¡Ġ":1883,"hÄĵiĠ":1884,"wÇĴĠ":1885,"ÅįuĠ":1886,"gÃ²ngĠhÃ©ĠguÃ³Ġ":1887,"ĠxiÃłnĠdeĠ":1888,"sÃ²ngĠ":1889,"hÄģĠ":1890,"yÃŃnĠ":1891,"huÃłnĠ":1892,"fÄģĠxiÃłnĠ":1893,"chuÃłngĠ":1894,"formulaĠ":1895,"lÃ©iĠ":1896,"qÅ«ĠdeĠ":1897,"Ġ19":1898,"hÄĽnĠ":1899,"yÃ¡nĠjiÅ«Ġ":1900,"tÃŃĠgÅįngĠ":1901,"ĠhÇİiĠ":1902,"jÃ¬nĠxÃŃngĠ":1903,"huÄģĠ":1904,"ĠbÄĽiĠ":1905,"2ĠyuÃ¨Ġ":1906,"qiÄĽĠ":1907,"jÄ«ngĠjÃ¬Ġ":1908,"chuÄģnĠ":1909,"tÅįngĠguÃ²Ġ":1910,"suÃŃĠ":1911,"ĠA":1912,"lÄĵiĠ":1913,"ĠzhÅįngĠyÄģng":1914,"kÇİoĠ":1915,"ĠguÃ³ĠjÃ¬Ġ":1916,"Ġ199":1917,"shÃłngĠdeĠ":1918,"bÇİiĠ":1919,"ĠyÃ³uĠyÃºĠ":1920,"wÄĽiĠyuÃ¡nĠhuÃ¬Ġ":1921,"ĠfÃºĠ":1922,"ĠĠĠC":1923,"Ġt":1924,"ĠyÃ²uĠ":1925,"dÄĵngĠ":1926,"chÄĵngĠwÃ©iĠ":1927,"ĠshÃ¬ĠjiÃ¨Ġ":1928,"8Ġ":1929,"ĠyÄ«nĠcÇĲĠ":1930,"9Ġ":1931,"nuÃ²Ġ":1932,"ĠtÄģĠmenĠ":1933,"mÃŃngĠwÃ¨iĠ":1934,"ĠjÃ¬nĠxÃŃngĠ":1935,"tÇĶĠ":1936,"chÅįngĠ":1937,"ĠshÃ¬ĠzÃłiĠ":1938,"mÃłiĠ":1939,"zhÇĶĠyÃ¬Ġ":1940,"qiÃºĠ":1941,"ĠrÃ¡nĠ":1942,"kuÃłiĠ":1943,"hÃłoĠ":1944,"ĠzhÄ«ĠhÃ²uĠ":1945,"liÃłnĠ":1946,"Ġ18":1947,"shÃŃĠdeĠ":1948,"xÃ¬ĠtÇĴngĠ":1949,"xiÄģngĠgÇİngĠ":1950,"sÃłĠ":1951,"pÃ¨iĠ":1952,"lÃºĠ":1953,"liÃłoĠ":1954,"lÇĶĠ":1955,"quÃ¡nĠguÃ³Ġ":1956,"aĠ":1957,"piÃłoĠ":1958,"chÇĲĠ":1959,"dÃ©Ġ":1960,"ĠsuÇĴ":1961,"kuÃłngĠ":1962,"xuÄģnĠ":1963,"iĠ":1964,"zÄĵngĠ":1965,"ĠxÃŃngĠdeĠ":1966,"rÃ©nĠdeĠ":1967,"xÇĶĠ":1968,"rÃ¬Ġ":1969,"guÇİnĠlÇĲĠ":1970,"ĠzuÃ¬Ġ":1971,"ĠgÅįngĠzuÃ²Ġ":1972,"ĠM":1973,"ÄĵĠ":1974,"ĠzhÄ«ĠyÄ«Ġ":1975,"ĠshÇĲĠ":1976,"ĠdÄģngĠ":1977,"ĠmÄĽi":1978,"dÄ«Ġ":1979,"ĠĠĠM":1980,"hÃ©ngĠ":1981,"bÇĶĠ":1982,"dÃłĠdeĠ":1983,"suÃ¬Ġ":1984,"yÃłngĠ":1985,"pÄ«Ġ":1986,"tuÄ«Ġ":1987,"ĠzhÅįngĠxÄ«nĠ":1988,"xuÄģnĠbÃ¹Ġ":1989,"Ã¨Ġ":1990,"zÇİoĠ":1991,"menĠ":1992,"sÄĵnĠ":1993,"wÃłngĠ":1994,"zÇĶĠzhÄ«Ġ":1995,"pÃŃĠ":1996,"bÃ¹ĠdeĠ":1997,"chÃłngĠ":1998,"ĠbÄģoĠkuÃ²Ġ":1999,"yÇİngĠ":2000,"yÇĲngĠxiÇİngĠ":2001,"ĠtÄģĠzÃłiĠ":2002,"hÃ¨Ġ":2003,"Ä«Ġ":2004,"qiÄģnĠmÇĲĠ":2005,"Ã©rĠ":2006,"sÄģiĠ":2007,"ĠĠĠshÄĵngĠ":2008,"ĠhuÃ²ĠdÃ©Ġ":2009,"liÃ¹Ġ":2010,"2020ĠniÃ¡nĠ":2011,"luÃ³ĠsÄ«Ġ":2012,"chÃ©ngĠdeĠ":2013,"ĠshÃ¬ĠjiÃ¨":2014,"ĠwÃ©nĠ":2015,"dÃ¹nĠ":2016,"ĠgÄģi":2017,"ĠyÄ«ngĠ":2018,"bÄģngĠ":2019,"kÄĽĠnÃ©ng":2020,"eĠ":2021,"ÄģngĠ":2022,"xiÃ¡nĠ":2023,"ĠÄģĠ":2024,"niÃłnĠ":2025,"qÃŃĠtÄģĠ":2026,"ĠqÄ«ngĠ":2027,"ĠchÃ©ngĠlÃ¬Ġ":2028,"leĠyÄ«Ġ":2029,"CĠ":2030,"huÃ³ĠdÃ²ngĠ":2031,"ĠjiÃłoĠ":2032,"Ġ198":2033,"ĠrÃ¨nĠwÃ©iĠ":2034,"yÅįuĠ":2035,"fÄģĠzhÇİnĠ":2036,"yÄģĠ":2037,"ÄģoĠ":2038,"kÄĵĠxuÃ©Ġ":2039,"ĠĠĠA":2040,"hÇİoĠ":2041,"lÃ¨Ġ":2042,"kÃ¹Ġ":2043,"huÃ²ĠdÃ©Ġ":2044,"jÃ¹nĠ":2045,"ĠzuÃ²ĠwÃ©iĠ":2046,"ĠpÃŃngĠfÄģngĠqiÄģnĠmÇĲĠ":2047,"lÇİoĠ":2048,"lÃ³uĠ":2049,"ĠT":2050,"rÃ¨Ġ":2051,"huÃ¡ĠrÃ©nĠmÃŃnĠ":2052,"bÄĵiĠ":2053,"rÃ¬ĠbÄĽnĠ":2054,"ĠwÃºĠ":2055,"huÃ¬ĠyÃ¬Ġ":2056,"tÃ¡nĠ":2057,"jiÄģnĠdeĠ":2058,"tĠ":2059,"ĠshÃ¹Ġ":2060,"tiÄĽĠlÃ¹Ġ":2061,"bÇĲĠsÃłiĠ":2062,"ĠdeĠrÃ©nĠ":2063,"liÃ¡oĠ":2064,"miÇİnĠ":2065,"yÃ²ngĠyÃºĠ":2066,"gÃ¨Ġ":2067,"nÃŃngĠ":2068,"Ġh":2069,"Ġ5":2070,"ĠshÃŃĠjiÄģnĠ":2071,"2010ĠniÃ¡nĠ":2072,"ruÃ¬Ġ":2073,"ĠdeĠgÅįngĠ":2074,"ĠzhÃŃ":2075,"ĠliÃ¡nĠ":2076,"ĠzhÄģngĠ":2077,"Ġp":2078,"miÃłnĠjÄ«":2079,"ĠB":2080,"xiÇİnĠ":2081,"mÃŃnĠguÃ³Ġ":2082,"gÄģnĠ":2083,"wÅ«ĠkÃ¨Ġ":2084,"yÃ¬nĠ":2085,"ÄĵngĠ":2086,"zhÇĶĠyÃłoĠ":2087,"gÃ²ngĠyÇĴuĠ":2088,"ĠĠĠlÃ¬ĠshÇĲĠ":2089,"rÃ¡nĠ":2090,"zuÇĴĠ":2091,"ĠĠĠP":2092,"dÃ²uĠ":2093,"wÃ¨nĠtÃŃĠ":2094,"ĠĠĠshÄĵngĠpÃŃngĠ":2095,"yuÇİnĠ":2096,"huÃ¡ĠrÃ©nĠmÃŃnĠgÃ²ngĠhÃ©ĠguÃ³Ġ":2097,"ĠluÃ³Ġ":2098,"fÄģngĠshÃ¬Ġ":2099,"Å«Ġ":2100,"fÄģĠshÄĵngĠ":2101,"zhÄĽngĠ":2102,"guÃłnĠjÅ«nĠ":2103,"kÄģngĠ":2104,"kÄĽĠnÃ©ngĠ":2105,"cÃºnĠ":2106,"ĠdÃ¬ĠÃ¨rĠ":2107,"ĠniÃ¡nĠ1ĠyuÃ¨Ġ":2108,"dÃ¬ĠdeĠ":2109,"ĠP":2110,"dÇİoĠzhÃ¬Ġ":2111,"guÄģnĠxÃ¬Ġ":2112,"geĠ":2113,"cÄģnĠyÃ¹Ġ":2114,"ĠcÃ³ngĠ":2115,"dÃłiĠbiÇİoĠ":2116,"yĠ":2117,"fÄĵnĠbÃ¹Ġ":2118,"ĠgÅįngĠchÃ©ngĠ":2119,"wÃ¡nĠchÃ©ngĠ":2120,"Ġ15":2121,"xiÃ¨Ġ":2122,"dÄģnĠwÃ¨iĠ":2123,"ĠlÃ¡iĠ":2124,"yÄ«ĠwÃ¨iĠ":2125,"wÃ©nĠhuÃłĠ":2126,"ĠquÃ¡nĠ":2127,"suÇĴĠyÇĴuĠ":2128,"1ĠrÃ¬Ġ":2129,"ĠniÃ¡nĠ12ĠyuÃ¨Ġ":2130,"ĠbÃ¹ĠfÃ¨n":2131,"lÇļĠ":2132,"zhÃ¬ĠdeĠ":2133,"ĠshÄģnĠ":2134,"gÄĽiĠ":2135,"ĠchÃ©ngĠyuÃ¡nĠ":2136,"ĠjÇĲnĠ":2137,"eĠĠĠ":2138,"ĠliÃºĠ":2139,"ĠdeĠchÃ©ngĠ":2140,"ĠyÃ¡nĠ":2141,"Ġ194":2142,"00Ġ":2143,"AĠ":2144,"yuÃ¡nĠdeĠ":2145,"ĠwÃłnĠ":2146,"yÅįngĠyÇĴuĠ":2147,"cÃºnĠzÃłiĠ":2148,"Ã¨rĠshÃŃĠ":2149,"ĠzÃ©Ġ":2150,"ĠzÇĴngĠ":2151,"Ġ3":2152,"bÄĽiĠbÃ¹Ġ":2153,"ĠxiÇİoĠ":2154,"liÃ¡nĠhÃ©Ġ":2155,"ĠzhÃŃĠ":2156,"ĠwÇĶĠ":2157,"Ġ4":2158,"Ã¡ngĠ":2159,"hÃ²uĠdeĠ":2160,"niÇĶĠ":2161,"yÃ³uĠyÃºĠ":2162,"ĠshÃ¬ĠzhÅįngĠ":2163,"ĠD":2164,"guÃ³ĠjiÄģĠ":2165,"duÃ¬ĠyÃºĠ":2166,"fÄģĠxÃŃngĠ":2167,"yÃ¬ĠdeĠ":2168,"jÃ¹ĠyÇĴuĠ":2169,"ĠjiÃłnĠzhÃ¹Ġ":2170,"ĠbÃ¬ngĠzÃłiĠ":2171,"ĠdÃłoĠleĠ":2172,"ĠzhÇĲĠ":2173,"xÄ«nĠdeĠ":2174,"sÄ«ĠdeĠ":2175,"shÄĽnĠ":2176,"ĠĠĠB":2177,"zhÃ¨ngĠfÇĶ":2178,"zÃ¬ĠjÇĲ":2179,"bÄ«nĠ":2180,"yÃ¹nĠdÃ²ngĠ":2181,"ĠbÄģĠ":2182,"ĠtÅįngĠ":2183,"xÃŃngĠzhÃ¨ngĠ":2184,"yÃ¬nĠdÃ¹Ġ":2185,"Ã©ĠluÃ³ĠsÄ«Ġ":2186,"tÅ«Ġ":2187,"ĠmiÃłnĠjÄ«Ġ":2188,"xÇĶĠduÅįĠ":2189,"shÃłoĠ":2190,"yÃºnĠ":2191,"ĠdÃłnĠshÃ¬Ġ":2192,"rÃ¨nĠhÃ©Ġ":2193,"ĠmÄĽiĠguÃ³Ġ":2194,"ĠlÃ¬ngĠ":2195,"shÄĵngĠyÃºĠ":2196,"guÃ¬Ġ":2197,"ĠzhÇĲ":2198,"bÇİoĠhÃ¹Ġ":2199,"Ġ16":2200,"chÃ¨Ġ":2201,"liÇİngĠgÃ¨Ġ":2202,"xiÃ¹Ġ":2203,"ĠrÃ©nĠkÇĴuĠmÃ¬Ġ":2204,"dÄ«ngĠ":2205,"ĠniÃ¡nĠ3ĠyuÃ¨Ġ":2206,"zhÇĶĠyÃło":2207,"mÇİnĠ":2208,"zhÃłngĠ":2209,"zhĠ":2210,"ĠĠĠT":2211,"dĠ":2212,"xuÃ¡nĠ":2213,"ĠdeĠyÃŃĠgÃ¨Ġ":2214,"nÃ¡nĠbÃ¹Ġ":2215,"jÇĶĠxÃŃngĠ":2216,"zhuÄģnĠjÃŃĠ":2217,"miÃłnĠjÄ«ĠwÃ¨iĠ":2218,"ĠzhÃ¨ngĠfÇĶĠ":2219,"wÇİnĠ":2220,"ĠniÃ¡nĠ7ĠyuÃ¨Ġ":2221,"ĠshÇĲ":2222,"lÃ¡iĠdeĠ":2223,"ĠdÄģngĠshÃŃĠ":2224,"juÃ©ĠdÃ¬ngĠ":2225,"fÃºĠwÃ¹Ġ":2226,"Ġ0":2227,"ruÃ²Ġ":2228,"dÃºĠlÃ¬Ġ":2229,"fÄģnĠ":2230,"ĠniÃ¡nĠ10ĠyuÃ¨Ġ":2231,"ĠchÅ«ĠdeĠ":2232,"rÃłngĠ":2233,"Ġ6":2234,"xiÄĽĠ":2235,"kÄģiĠshÇĲ":2236,"qÇĲngĠ":2237,"oĠ":2238,"ĠlÃ¬ĠshÇĲĠ":2239,"Ġ195":2240,"ĠmÄĽiĠ":2241,"jiÃłoĠyÃ¹Ġ":2242,"ĠshÃ¨ĠjÃ¬Ġ":2243,"hÃłiĠ":2244,"dĠĠĠ":2245,"mÃŃngĠdeĠ":2246,"xÇĲĠ":2247,"ĠshÃ¬ĠwÃ¨iĠyÃºĠ":2248,"jiÃ¹ĠshÃ¬Ġ":2249,"ĠyÇĴuĠyÄ«Ġ":2250,"gÄĵngĠ":2251,"qÃŃnĠ":2252,"ĠniÃ¡nĠ5ĠyuÃ¨Ġ":2253,"gtĠ":2254,"ĠgtĠ":2255,"ĠniÃ¡nĠ9ĠyuÃ¨Ġ":2256,"tÃłnĠ":2257,"ĠniÃ¡nĠ6ĠyuÃ¨Ġ":2258,"fÄģngĠmiÃłnĠ":2259,"ĠqÃŃĠtÄģĠ":2260,"pÃ©iĠ":2261,"Ġ197":2262,"suÃłnĠ":2263,"ĠxÃŃngĠzhÃ¨ngĠ":2264,"ĠcÇĲ":2265,"ÄĽngĠ":2266,"10Ġ":2267,"shÃ²uĠdÃłoĠ":2268,"ltĠ":2269,"ĠniÃ¡nĠ8ĠyuÃ¨Ġ":2270,"ĠjiÇİnĠ":2271,"rÃ¨nĠwÃ©iĠ":2272,"ĠsÄģnĠ":2273,"fÇİngĠ":2274,"shÃłnĠ":2275,"yĠĠĠ":2276,"ĠshÃ¬ĠdÃ¬Ġ":2277,"ĠniÃ¡nĠ4ĠyuÃ¨Ġ":2278,"ĠzhÅįngĠyÄģngĠ":2279,"shÃ¨ĠhuÃ¬Ġ":2280,"ĠltĠ":2281,"yÃ¬ĠwÃ¨iĠ":2282,"gÃ¹ĠshÃ¬Ġ":2283,"kÄģnĠ":2284,"ĠxiÃłnĠzÃłiĠ":2285,"ĠÄģnĠ":2286,"xiÄģngĠgÇİng":2287,"mĠ":2288,"qÅ«ĠwÃ¨iĠ":2289,"piÄģnĠ":2290,"ĠcÃ©ngĠ":2291,"ĠbÇĲĠ":2292,"ĠzuÃ¬ĠzhÅįngĠ":2293,"tuÃ¬Ġ":2294,"ĠdiÃłnĠ":2295,"duÇİnĠ":2296,"Ġn":2297,"ĠwÃ¡ngĠ":2298,"fÄģĠzhÇİn":2299,"ĠshÃ¬ĠshÃ¬Ġ":2300,"liÃ¨ĠchÄĵĠ":2301,"ĠguÄģnĠ":2302,"ĠlÃ¬ĠrÃºĠ":2303,"ĠjiÄģng":2304,"ĠE":2305,"nÃ¨iĠdeĠ":2306,"wÃłnĠ":2307,"shÇĶĠdeĠ":2308,"xiÇİoĠshÃŃĠ":2309,"qiÄģngĠ":2310,"zÃºĠqiÃºĠ":2311,"dÃłnĠ":2312,"shÃ¹ĠjÃ¹Ġ":2313,"rĠ":2314,"hÅ«Ġ":2315,"xÅ«ĠyÃłoĠ":2316,"zhÃŃĠwÃ¹Ġ":2317,"zheĠ":2318,"ĠshÃ¬ĠjiÃłnĠ":2319,"huÃłĠdeĠ":2320,"shÇĲĠyÃ²ng":2321,"kÃłnĠ":2322,"kÃ²ngĠ":2323,"ĠbÃ¹ĠtÃ³ng":2324,"Ġ1":2325,"ÇİngĠ":2326,"zuÃ²ĠdeĠ":2327,"zÄĵngĠjiÄģĠ":2328,"zuÃ²ĠwÃ©iĠ":2329,"ĠjÃ¬ĠhuÃłĠ":2330,"ĠniÃ¡nĠ11ĠyuÃ¨Ġ":2331,"mÃŃnĠzhÇĶĠ":2332,"ĠshÃŃĠqÄ«Ġ":2333,"ĠsuÄ«":2334,"pÃłoĠ":2335,"zhuÄ«Ġ":2336,"Ġ7":2337,"tÇİnĠ":2338,"zuÃ²ĠpÇĲnĠ":2339,"TĠ":2340,"kÃ²ngĠzhÃ¬Ġ":2341,"rÃ©nĠshÃ¬Ġ":2342,"wÄģnĠ":2343,"xiÃ³ngĠ":2344,"ĠjiÃłnĠdeĠ":2345,"yÄ«nĠyuÃ¨Ġ":2346,"ĠH":2347,"ĠrÃ¡nĠÃ©rĠ":2348,"lÃ¡ngĠ":2349,"mÃłoĠ":2350,"ĠyÇĲĠjÄ«ngĠ":2351,"xuÃ©ĠyuÃłnĠ":2352,"Ġ17":2353,"ĠzÃłiĠdÃ¬Ġ":2354,"rÃ©nĠmÃŃnĠ":2355,"ĠrÃ©nĠyuÃ¡nĠ":2356,"ĠhÃ©ĠzuÃ²Ġ":2357,"ĠI":2358,"tÄģĠdeĠ":2359,"ĠjiÃłnĠyÃºĠ":2360,"zÇİiĠ":2361,"zÇĶĠchÃ©ngĠ":2362,"ĠshÇĶĠyÃºĠ":2363,"Ġb":2364,"chÄģoĠguÃ²Ġ":2365,"ĠyÄ«nĠyuÃ¨Ġ":2366,"lÇİngĠ":2367,"fÃ¨ngĠ":2368,"xÃ¬ĠtÇĴng":2369,"xiÃ¡ngĠ":2370,"ĠL":2371,"zÇĴngĠtÇĴngĠ":2372,"tĠĠĠ":2373,"ĠzhÃ¨ĠxiÄĵĠ":2374,"SĠ":2375,"huÃ¬ĠdeĠ":2376,"jÃ¬ĠdeĠ":2377,"ĠyÃ²u":2378,"aĠĠĠ":2379,"qiÅ«Ġ":2380,"ĠwÃ¨iĠleĠ":2381,"ĠhÃ²uĠlÃ¡iĠ":2382,"pÃŃnĠ":2383,"lÃ¡oĠ":2384,"Ġ196":2385,"yÃºĠshÃ¬Ġ":2386,"ĠR":2387,"ĠlÃ¬ĠyÃłĠ":2388,"sÅįngĠ":2389,"ĠchÃ©ngĠgÅįngĠ":2390,"fÄģĠbÃ¹Ġ":2391,"yÄģoĠqiÃºĠ":2392,"Ã¡Ġ":2393,"dÃłĠlÃ¬Ġ":2394,"tÃŃĠchÅ«Ġ":2395,"Ġ000":2396,"ĠyÃ¬ĠyuÃ¡nĠ":2397,"ĠshÃ¨ĠyÇĴuĠ":2398,"ĠcÃ©ng":2399,"ĠjiÃ¹Ġ":2400,"yÃ¹nĠdÃ²ngĠyuÃ¡nĠ":2401,"pÃºĠ":2402,"ÄģĠÄĽrĠ":2403,"dÄģngĠshÃŃĠ":2404,"hÃ¡nĠguÃ³Ġ":2405,"bÃ¹ĠzÃłiĠ":2406,"yÇĴuĠdeĠ":2407,"ĠjiÄĵĠ":2408,"nÃŃĠyÃł":2409,"bÇİĠ":2410,"xÃ¬ĠliÃ¨Ġ":2411,"zÃłoĠchÃ©ngĠ":2412,"Ġ8":2413,"ĠyÄ«nĠcÇĲ":2414,"ÅįuĠzhÅįuĠ":2415,"cÇİiĠyÃ²ngĠ":2416,"xiÇİoĠxÃŃngĠ":2417,"ĠgÅįngĠyuÃ¡nĠ":2418,"jiÄģĠdeĠ":2419,"xÃ¬ngĠdeĠ":2420,"ĠfÄĵngĠ":2421,"shÄĵngĠdeĠ":2422,"ĠdeĠyÃŃĠgÃ¨":2423,"ĠrÃ¬ĠzÃłiĠ":2424,"rÃ©nĠwÃ¹Ġ":2425,"ĠcÇĲĠwÃłiĠ":2426,"ĠniÃ¡nĠ2ĠyuÃ¨Ġ":2427,"gÃ²ngĠchÇİnĠ":2428,"mÃ¡oĠ":2429,"ĠzhĠ":2430,"ĠN":2431,"DĠ":2432,"yÃ¡oĠ":2433,"Ġãĥ":2434,"ĠĠĠdeĠ":2435,"ĠshÃ¬ĠhÃ©Ġ":2436,"ĠzhÇİngĠ":2437,"ĠG":2438,"ĠwÇĴĠ":2439,"mÇİĠwÃ¨iĠ":2440,"dÅ«nĠ":2441,"ĠdeĠbÃ¹Ġ":2442,"chÄģoĠ":2443,"xuÃ©ĠjiÄģĠ":2444,"ĠĠĠ199":2445,"sÄģnĠniÃ¡nĠ":2446,"yÃ³uĠxÃ¬Ġ":2447,"fÃłnĠwÃ©iĠ":2448,"ĠcÃ³ng":2449,"chÅ«nĠ":2450,"ĠsuÃŃ":2451,"kÄģiĠfÄģĠ":2452,"ĠbÃ¹ĠtÃ³ngĠ":2453,"shÃ¨ĠjÃ¬Ġ":2454,"ĠbÃ¬Ġ":2455,"ĠgÄĵnĠjÃ¹Ġ":2456,"qÇĶĠdÃ©Ġ":2457,"jiÃ©ĠmÃ¹Ġ":2458,"ĠgÃ©Ġ":2459,"ĠdeĠjÄ«Ġ":2460,"ĠlÃ¬ng":2461,"dÇĲngĠ":2462,"nÇĲĠ":2463,"sÃłiĠshÃ¬Ġ":2464,"ĠxÃŃngĠchÃ©ngĠ":2465,"ĠĠĠdÃ¬ĠlÇĲĠ":2466,"zÃ¬ĠzhÃ¬Ġ":2467,"chÇİnĠshÄĵngĠ":2468,"dÃłngĠ":2469,"yÄĽĠshÃ¬Ġ":2470,"ÃłĠ":2471,"zÃłnĠ":2472,"juÃ©ĠsÃ¨Ġ":2473,"ĠdeĠjÃ¬Ġ":2474,"shÅ«ĠjÃ¬Ġ":2475,"ĠF":2476,"ĠbÃ¬ngĠyÃºĠ":2477,"ĠĠĠshÃ¬Ġ":2478,"ĠshÃ²uĠ":2479,"Ġ193":2480,"dÅįuĠshÃ¬Ġ":2481,"Ġm":2482,"chÃ³ngĠxÄ«nĠ":2483,"yÄ«ĠniÃ¡nĠ":2484,"ĠshÃ¨ĠhuÃ¬Ġ":2485,"diÃłnĠyÇĲng":2486,"lÇĲĠdeĠ":2487,"bÃºĠshÃ¬Ġ":2488,"zhÃ²ngĠyÃło":2489,"lÃ¼Ã¨Ġ":2490,"ĠsÄ«ĠtÃ¨Ġ":2491,"Ġ9":2492,"Ġk":2493,"guÄģnĠyÃºĠ":2494,"qÅ«ĠyÃ¹Ġ":2495,"mÃŃĠ":2496,"ĠgÇĶĠ":2497,"gÄĵĠqÇĶĠ":2498,"ĠzhÅįngĠhuÃ¡Ġ":2499,"jiÄģoĠtÅįngĠ":2500,"ĠĠĠL":2501,"ĠsÃ¬Ġ":2502,"ĠnÇļĠ":2503,"wÄĵnĠ":2504,"ĠyÃ³uĠxÃ¬Ġ":2505,"dÃłĠxuÃ©Ġ":2506,"jÃŃĠdeĠ":2507,"kÇĴngĠ":2508,"chÃºĠleĠ":2509,"ĠchÅ«ĠxiÃłnĠ":2510,"ngĠ":2511,"miÃ¡oĠ":2512,"tÇİoĠ":2513,"ĠzhÃ¬ĠzuÃ²Ġ":2514,"ĠdÃłĠxuÃ©":2515,"pÃŃngĠjÅ«nĠ":2516,"wÃ²Ġ":2517,"ĠĠĠR":2518,"cÇİoĠ":2519,"ĠdÃ©ĠguÃ³Ġ":2520,"xiÇİnĠshÃ¬Ġ":2521,"qÃ¬ngĠ":2522,"ĠkÄĽĠ":2523,"Ã¨rĠniÃ¡nĠ":2524,"ĠzhÅįngĠhuÃ¡ĠrÃ©nĠmÃŃnĠgÃ²ngĠhÃ©ĠguÃ³Ġ":2525,"xiÅįngĠ":2526,"kuÃ²Ġ":2527,"hÃ²uĠzÃłiĠ":2528,"hÅ«nĠ":2529,"xiÃłĠdeĠ":2530,"yÇİnĠyuÃ¡nĠ":2531,"ĠchÃ©nĠ":2532,"ĠkÃ¨ĠsÄ«Ġ":2533,"xuÇİnĠjÇĶĠ":2534,"dÄģngĠdÃ¬Ġ":2535,"dÃ©ĠguÃ³Ġ":2536,"ĠliÇİngĠ":2537,"guÇİnĠxiÃ¡Ġ":2538,"ĠxiÄģngĠgÇİngĠ":2539,"pÃłĠ":2540,"wÃ©iĠyÄ«Ġ":2541,"duÄģnĠ":2542,"zÇĴuĠ":2543,"guÃ³ĠjÃ¬Ġ":2544,"duÃ¬ĠdeĠ":2545,"bÃ³ĠwÃ¹Ġ":2546,"ĠmÇİ":2547,"ÃłngĠ":2548,"cuÃ²Ġ":2549,"ÃºĠ":2550,"2001ĠniÃ¡nĠ":2551,"ĠjiÃłnĠlÃ¬Ġ":2552,"Ġ1Ġ":2553,"ĠtÇĲĠ":2554,"ĠdÃ¬ĠguÃ³Ġ":2555,"Ġ14":2556,"ĠliÇİng":2557,"ĠdÃłiĠbiÇİoĠ":2558,"fÇİnĠduÃ¬Ġ":2559,"xuÃ¨Ġ":2560,"qÄ«ĠdeĠ":2561,"wÃ¹ĠdeĠ":2562,"sÅ«nĠ":2563,"yÄ«nĠwÃ¨iĠ":2564,"0Ġ":2565,"ĠshÄģĠ":2566,"qÃ¹ĠshÃ¬Ġ":2567,"Ã¨ngĠ":2568,"yÄ«ĠbÃ¹ĠfÃ¨nĠ":2569,"zhÇĶĠxÃŃĠ":2570,"quÄĵĠ":2571,"dÃ²ngĠwÃ¹Ġ":2572,"bÃ¡ĠgÄģoĠ":2573,"ĠyÄĽĠshÃ¬Ġ":2574,"shÃŃĠniÃ¡nĠ":2575,"Ġc":2576,"yÄ«ĠbÃ¹Ġ":2577,"dÃ¹ĠwÃ¨iĠ":2578,"ĠJ":2579,"zhÃ¨ngĠzhÃ¬ĠrÃ©nĠwÃ¹Ġ":2580,"ĠfÃº":2581,"ĠĠĠD":2582,"nÃŃĠyÃłĠ":2583,"qiÃ¡nĠwÇİngĠ":2584,"ĠfÇİĠ":2585,"zuÃ¬ĠzhÅįngĠ":2586,"hÃ¡iĠyÇĴuĠ":2587,"ĠyÃŃĠ":2588,"ĠjiÃ©":2589,"ĠĠĠrÃ©nĠkÇĴuĠ":2590,"ĠqÄ«Ġ":2591,"bÇĲĠsÃłi":2592,"ĠĠĠG":2593,"pÃ©ngĠ":2594,"lÃ¡iĠzÃ¬Ġ":2595,"ĠshÄĵnĠ":2596,"zhÃŃĠyÃ¨Ġ":2597,"ĠbÇİoĠ":2598,"ĠãĤ":2599,"dÃłiĠbiÇİo":2600,"ĠtÄģĠshÃ¬Ġ":2601,"Ġ2":2602,"20Ġ":2603,"ĠdÄģngĠdÃ¬Ġ":2604,"ĠbÃ¹ĠduÃ¬Ġ":2605,"ĠxÃŃngĠshÃ¬Ġ":2606,"Ġãģ":2607,"ĠnÃłĠ":2608,"chÃ¬Ġ":2609,"dÃ¬ngĠdeĠ":2610,"ĠchÃ¡ngĠ":2611,"bÄģĠshÃ¬Ġ":2612,"diÃłoĠchÃ¡Ġ":2613,"ĠdeĠyuÃ¡nĠ":2614,"zhÃ²ngĠyÃłoĠ":2615,"xuÃ©ĠxiÃłoĠ":2616,"zhÇĶĠjiÃłoĠ":2617,"ĠzhÄ«ĠjiÄģnĠ":2618,"fÃ¡Ġ":2619,"biÄģnĠmÇİĠwÃ¨iĠ":2620,"dÃłiĠdeĠ":2621,"ĠxuÃ©ĠmÃŃngĠ":2622,"ĠkÄĵĠ":2623,"Ã³Ġ":2624,"ĠlÄģĠ":2625,"ĠrÃ¬ĠzhÃ¬Ġ":2626,"kuÇİnĠ":2627,"gÇİiĠwÃ©iĠ":2628,"zÇĶĠzhÄ«":2629,"erĠ":2630,"zÄ«ĠliÃłoĠ":2631,"fÄĵnĠwÃ©iĠ":2632,"ĠzhÃ¨ngĠfÇĶ":2633,"hÇİiĠjÅ«nĠ":2634,"ĠjÅ«nĠshÃ¬Ġ":2635,"gÅįngĠshÃ¬Ġ":2636,"ĠyuÄĵĠ":2637,"ĠrÃ©nĠkÇĴuĠmÃ¬ĠdÃ¹Ġ":2638,"qiÃ¨Ġ":2639,"chÇĶĠlÇĲĠ":2640,"kÃłngĠ":2641,"fÃ¹ĠzÃ©Ġ":2642,"ĠhuÃ¡ngĠ":2643,"shÃ¹ĠdeĠ":2644,"fÄģngĠfÇİĠ":2645,"wÅ«ĠkÃ¨ĠlÃ¡nĠ":2646,"zhÄģoĠ":2647,"jiÄĵĠrÇİng":2648,"ĠdÄģnĠ":2649,"ĠdeĠdÃłĠ":2650,"ĠrÃ¬ĠbÄĽn":2651,"ĠĠĠ19":2652,"ĠjiÄģnĠ":2653,"ĠdeĠyÃ¬Ġ":2654,"ĠĠĠH":2655,"liÃ¡nĠmÃ©ngĠ":2656,"ĠpÇĶĠ":2657,"wÃºĠfÇİĠ":2658,"ĠyÇĴuĠxiÃłn":2659,"ĠĠĠyÇĶĠ":2660,"zuÃ¬ĠgÄģoĠ":2661,"ĠgÃ¨ĠrÃ©nĠ":2662,"12Ġ":2663,"ĠjÃ¬ĠshÃ¹Ġ":2664,"guÃłnĠ":2665,"jÅ«ĠmÃŃnĠ":2666,"wÄĽnĠ":2667,"zhÇĶĠrÃ¨nĠ":2668,"fÇİnĠyÃ¬ngĠ":2669,"qÃŃĠzhÅįngĠ":2670,"fÄĵiĠchÃ¡ngĠ":2671,"ĠshÃ¬ĠyÃ³uĠ":2672,"lÃ¹ĠdeĠ":2673,"fÃ¡nĠ":2674,"zÃ¬ĠyÃ³uĠ":2675,"ĠÐ":2676,"sÄģnĠshÃŃĠ":2677,"yÇĲngĠxiÇİng":2678,"ĠzhÄ«ĠchÃŃĠ":2679,"xuÃ©ĠshÄĵngĠ":2680,"kÇİiĠ":2681,"yÃ©Ġ":2682,"kÄĽnĠ":2683,"biÄģoĠzhÇĶnĠ":2684,"xiÃ©ĠhuÃ¬Ġ":2685,"ĠĠĠF":2686,"kÄĽĠyÇĲ":2687,"huÃ¬ĠzÃłiĠ":2688,"jiÃ©ĠgÃ²uĠ":2689,"shÃ¨nĠzhÃ¬Ġ":2690,"jiÃłoĠshÃ²uĠ":2691,"fÄĵnĠbÃ¹ĠyÃºĠ":2692,"bÇĲĠlÃ¬Ġ":2693,"ĠlÃŃnĠ":2694,"Ġ2Ġ":2695,"tÇĴngĠzhÃ¬Ġ":2696,"chuÃłngĠzuÃ²Ġ":2697,"ĠkÇİĠ":2698,"yÄģoĠ":2699,"tÇĲĠyÃ¹Ġ":2700,"jiÄĵĠshÃ²uĠ":2701,"ĠĠĠbÄĽnĠ":2702,"pĠ":2703,"dÅįngĠbÃ¹Ġ":2704,"ĠfÃ¹ĠzÃ©Ġ":2705,"ĠdeĠyÃŃĠgÃ¨ĠshÃ¬ĠzhÃ¨nĠ":2706,"yÇİĠ":2707,"ĠdÃ¬ĠsÄģnĠ":2708,"ĠgÅįngĠsÄ«":2709,"ĠquÃ¡n":2710,"gÄģiĠguÃ³Ġ":2711,"30Ġ":2712,"ÇĶĠ":2713,"ĠsuÃŃĠ":2714,"xiÃłngĠmÃ¹Ġ":2715,"nÃ¡nĠziĠ":2716,"sÃ¬ĠniÃ¡nĠ":2717,"nÇļĠzÇĲĠ":2718,"qÃŃngĠkuÃłngĠ":2719,"shÃ¹ĠliÃłng":2720,"ĠdÃ¬ĠshÃŃĠ":2721,"mÇĴuĠ":2722,"rÇİnĠ":2723,"ĠĠĠxÃŃngĠzhÃ¨ngĠ":2724,"ĠtÃłiĠ":2725,"ĠbÃ¹ĠguÃ²Ġ":2726,"zhÅįngĠshÃ¬Ġ":2727,"kĠ":2728,"nÃ¨iĠrÃ³ngĠ":2729,"ĠdÃłoĠdeĠ":2730,"ĠÃłoĠ":2731,"nÃ©ngĠlÃ¬Ġ":2732,"gÅįngĠbÃ¹Ġ":2733,"ĠhÃ³ngĠ":2734,"shÄĵngĠhuÃ³Ġ":2735,"ĠshÃ¬ĠyÃŃĠgÃ¨Ġ":2736,"ĠĠĠI":2737,"niÃºĠ":2738,"suÅįĠ":2739,"xÄ«ĠbÃ¹Ġ":2740,"ĠjÃ¬nĠrÃ¹Ġ":2741,"ÄģnĠquÃ¡nĠ":2742,"liÃ¡nĠsÃłiĠ":2743,"dÃ²ngĠhuÃłĠ":2744,"2008ĠniÃ¡nĠ":2745,"ĠK":2746,"qÃŃngĠkuÃłng":2747,"huÄģnĠ":2748,"lÃ¹ĠxiÃłnĠ":2749,"PĠ":2750,"chÃ©ngĠlÃ¬Ġ":2751,"ĠgÇİiĠ":2752,"ĠzhÅįngĠxuÃ©Ġ":2753,"chÄģĠ":2754,"ĠĠĠformulaĠ":2755,"miÃłnĠdeĠ":2756,"gÅ«Ġ":2757,"yÃ¬ĠshÃ¬Ġ":2758,"duÃ³Ġ":2759,"ĠÄĽrĠsÄ«Ġ":2760,"bÄĽiĠjÄ«ngĠ":2761,"mÃ©iĠtÇĲĠ":2762,"2009ĠniÃ¡nĠ":2763,"Ã¬Ġ":2764,"yÇĴuĠshÃŃĠ":2765,"ĠyÃ¬ĠhuÃ¬Ġ":2766,"ÇĴuĠ":2767,"zÄģiĠ":2768,"guÇİngĠdÅįngĠ":2769,"hÃ¡oĠ":2770,"suÄģnĠ":2771,"ÅįngĠ":2772,"âĢĵ":2773,"ĠbÅįĠ":2774,"ĠĠĠjiÄģĠ":2775,"ĠxÄ«n":2776,"jiÃłnĠzhÃ¹Ġ":2777,"yÃłĠzhÅįuĠ":2778,"ĠsuÃ¬":2779,"ÇĴngĠ":2780,"zhuÃłnĠ":2781,"dÇİoĠdeĠ":2782,"ĠguÃ³ĠmÃŃnĠ":2783,"wÃ©nĠwÃ¹Ġ":2784,"nÃ¡ĠdÃłĠ":2785,"ĠĠĠ198":2786,"tÃłiĠpÃŃngĠ":2787,"zÃ¬ĠjÇĲĠdeĠ":2788,"ĠsuÇĴĠyÇĲĠ":2789,"dÃ¬ĠwÃ¨iĠ":2790,"ĠxuÃ©ĠxiÃłoĠ":2791,"ĠshÃ¨ngĠ":2792,"bÃ¡ĠgÄģoĠdÃ¹Ġ":2793,"dÃ¡ĠdÃłoĠ":2794,"niÇİoĠ":2795,"lÇĲĠshÃ¬Ġ":2796,"zhÃºĠjiÃłnĠ":2797,"ĠzhÃ¨ĠshÃ¬Ġ":2798,"quÃ¡nĠlÃ¬Ġ":2799,"bÇİnĠbÄĽnĠ":2800,"qÄ«ngĠniÃ¡nĠ":2801,"xÇĶĠduÅį":2802,"zhÄĽĠdeĠ":2803,"cÃ¡ngĠ":2804,"ĠÃło":2805,"ĠbÃ¬ngĠqiÄĽ":2806,"ĠxÄ«ĠyÃłĠ":2807,"ĠbÃ¬ngĠqiÄĽĠ":2808,"Ġs":2809,"guÇĲĠ":2810,"wÃ©nĠxuÃ©Ġ":2811,"wÅ«ĠkÃ¨ĠlÃ¡n":2812,"lÄģĠsÄ«Ġ":2813,"2016ĠniÃ¡nĠ":2814,"ĠĠĠgÄĵnĠjÃ¹Ġ":2815,"yÄ«ĠshÃ¬Ġ":2816,"ĠchÃ©ngĠwÃ©i":2817,"zhÇĲĠyÇĴuĠ":2818,"rÃ¬ĠbÄĽn":2819,"zhÃłĠ":2820,"mÃ³ĠshÃ¬Ġ":2821,"ĠbÄģ":2822,"hÃ¡ngĠkÅįngĠ":2823,"Ġ10":2824,"mÃ¨ngĠ":2825,"ĠtÄģĠmenĠdeĠ":2826,"ĠyÃ¬ĠshÃ¹Ġ":2827,"ĠjÃ¬ĠlÃ¹Ġ":2828,"ĠzÇĴng":2829,"fÄĽn":2830,"ĠzhÇĶĠyÃłoĠ":2831,"diÃ©Ġ":2832,"ĠzhÅįuĠdeĠ":2833,"chÃ³uĠ":2834,"zhÇĲĠchÅ«Ġ":2835,"âĢ¦":2836,"tÅįngĠguÃ²":2837,"zhÃ²u":2838,"ĠkÄģiĠ":2839,"jÇĲnĠbiÄģoĠ":2840,"wÇĶĠniÃ¡nĠ":2841,"ĠW":2842,"ĠdÃł":2843,"jiÃłoĠyÃ¹":2844,"2012ĠniÃ¡nĠ":2845,"huÇĲĠ":2846,"ĠzÃ©":2847,"ĠqÃŃĠshÃ¬Ġ":2848,"ĠqÃŃĠyÃºĠ":2849,"ĠkÄĽĠyÇĲĠ":2850,"dÄĽngĠrÃ©nĠ":2851,"ĠyÃºĠshÃ¬Ġ":2852,"zhÃŃĠxÃŃngĠ":2853,"pÅįĠ":2854,"miÃłoĠ":2855,"shuÃłiĠ":2856,"2011ĠniÃ¡nĠ":2857,"hÃ¹nĠ":2858,"28ĠrÃ¬Ġ":2859,"zhÃŃĠjiÄĵĠ":2860,"ÅįĠ":2861,"tÃ³ngĠshÃŃĠ":2862,"jÃ¬nĠrÃ¹Ġ":2863,"rÃ©nĠkÇĴuĠpÇĶĠ":2864,"zhÃ©Ġ":2865,"zhÃłnĠzhÄĵngĠ":2866,"zhÃ¨ĠxiÄĵĠ":2867,"gÃ©ĠlÃ¡nĠ":2868,"ĠqiÃºĠduÃ¬Ġ":2869,"yÇİnĠchÅ«Ġ":2870,"gÄģiĠdÃ¬Ġ":2871,"zhÃ¨ĠyÄ«Ġ":2872,"mÃŃnĠzÃºĠ":2873,"ĠnÃ¡n":2874,"huÃ³ĠdÃ²ng":2875,"rÃ¨nĠwÃ©i":2876,"onĠ":2877,"xÅ«n":2878,"zÃłngĠ":2879,"ĠzhÄ«ĠjiÄģnĠdeĠ":2880,"11Ġ":2881,"ĠgÅįngĠkÄģiĠ":2882,"jiÄģngĠjÅ«nĠ":2883,"gÃ²ngĠtÃ³ngĠ":2884,"ĠlÃ¬ĠyÃł":2885,"Ġ13":2886,"UT":2887,"..":2888,"xiÃłĠjÃ¬Ġ":2889,"lÃ¨ĠbÃ¹Ġ":2890,"ĠhÃ¡iĠ":2891,"ĠdÃłnĠzÃłiĠ":2892,"ĠdÄģngĠzhÅįngĠ":2893,"ĠsÅ«Ġ":2894,"jÃ¬ngĠnÃ¨iĠ":2895,"tÇĲĠdeĠ":2896,"ĠĠĠE":2897,"Ġd":2898,"chÄĵĠzhÃłn":2899,"ĠÃ¨rĠ":2900,"tuÄ«ĠchÅ«Ġ":2901,"meĠ":2902,"shÇĴuĠcÃ¬Ġ":2903,"ĠyÃ¡ngĠ":2904,"ĠshÃ¬ĠwÃ¹Ġ":2905,"ĠÃłiĠ":2906,"ĠĠĠW":2907,"huÃ¡nĠjÃ¬ngĠ":2908,"lÃŃĠkÄģiĠ":2909,"ĠzhÃ¨ĠgeĠ":2910,"ĠlÃ¬ngĠwÃłiĠ":2911,"ĠzhÇĶĠyÃło":2912,"dÄģnĠqÅ«Ġ":2913,"chuÃ¡nĠtÇĴngĠ":2914,"zhÃºĠ":2915,"sÃłnĠ":2916,"lÃŃnĠpÇĲ":2917,"shÄģngĠyÃ¨Ġ":2918,"ĠĠĠniÃ¡n":2919,"yÃŃnĠhÃ¡ngĠ":2920,"15ĠrÃ¬Ġ":2921,"qÇĲĠyÃ¨Ġ":2922,"oo":2923,"fÄĵnĠzhÅįngĠ":2924,"guÄģnĠdeĠ":2925,"xuÇİnĠzÃ©Ġ":2926,"jÅ«nĠshÃ¬Ġ":2927,"ĠĠĠ194":2928,"shÃº":2929,"liÃłngĠdeĠ":2930,"jiÄĵĠdÃłoĠ":2931,"jÄ«ĠdeĠ":2932,"qiÃ¡nĠdeĠ":2933,"tÃ¬Ġ":2934,"rÃ©nĠzÃłiĠ":2935,"sÃłiĠjÃ¬Ġ":2936,"gÄģoĠdeĠ":2937,"bÃ³ĠshÃ¬Ġ":2938,"dÃ¹ĠdeĠ":2939,"ĠwÃ¨iĠrÃ©nĠ":2940,"ĠgÄĵĠ":2941,"yuÃ¡nĠniÃ¡nĠ":2942,"ĠfÄģĠ":2943,"ĠdÃ¬ĠÃ¨r":2944,"wÃ¡nĠquÃ¡nĠ":2945,"2014ĠniÃ¡nĠ":2946,"ĠjÄ«n":2947,"ĠwÃ¨iĠzhÃ¬Ġ":2948,"mÃ¬ngĠmÃŃngĠ":2949,"tuÃ¡nĠtÇĲĠ":2950,"ĠtÃ¡iĠ":2951,"dÄĽngĠdÃ¬Ġ":2952,"ĠgÅįngĠlÃ¹Ġ":2953,"IĠ":2954,"xiÄģngĠguÄģnĠ":2955,"rÃ¨ĠdÃłiĠ":2956,"bÄĽiĠjÄ«ng":2957,"wÃ©nĠhuÃł":2958,"chÃ©ngĠzhÅįngĠ":2959,"bÃłoĠgÃłoĠ":2960,"ĠshÃŃĠjÃ¬Ġ":2961,"yÃ¹nĠdÃ²ngĠhuÃ¬Ġ":2962,"sÇĶnĠ":2963,"ĠdÃłĠlÃ¬Ġ":2964,"ĠÃ©rĠzÃłiĠ":2965,"shÃ¹nĠ":2966,"bÇİngĠ":2967,"2005ĠniÃ¡nĠ":2968,"zÅ«nĠ":2969,"sÄģnĠgÃ¨Ġ":2970,"zuÃ¬ĠjiÄģĠ":2971,"2018ĠniÃ¡nĠ":2972,"Ġ5Ġ":2973,"zuÃ¬ĠhÃ²uĠ":2974,"bÅįĠchÅ«Ġ":2975,"quÃ¡nĠbÃ¹Ġ":2976,"ĠdeĠhÃ©Ġ":2977,"ĠĠĠjÃ¹Ġ":2978,"xuÃ©ĠwÃ¨iĠ":2979,"luÃłnĠ":2980,"tÃ©ngĠ":2981,"lÇĲngĠdÇİoĠ":2982,"ĠmÃ¹ĠqiÃ¡nĠ":2983,"ĠjÄ«ĠgÃ²uĠ":2984,"zÅįngĠjiÃłoĠ":2985,"tÇĶĠdÃ¬Ġ":2986,"ĠniÃ¡nĠdÃłiĠ":2987,"ĠdÃ©ĠdÃłoĠ":2988,"25ĠrÃ¬Ġ":2989,"ĠshÃ¬ĠyÄ«ĠzhÇĴngĠ":2990,"RĠ":2991,"ĠtÃ³ngĠniÃ¡nĠ":2992,"fÄĵnĠbiÃ©":2993,"ĠdÃ¬ĠfÄģngĠ":2994,"guÇĲĠdÃłoĠ":2995,"2015ĠniÃ¡nĠ":2996,"ĠwÃ¨iĠdÃ¬Ġ":2997,"niÃ¨Ġ":2998,"2013ĠniÃ¡nĠ":2999,"huÃ¡iĠ":3000,"jÄ«ngĠlÃ¬Ġ":3001,"xÃ¬ĠdeĠ":3002,"ĠzhÄ«ĠqiÃ¡nĠ":3003,"shÄĽngĠdeĠyÃŃĠgÃ¨ĠshÃ¬ĠzhÃ¨nĠ":3004,"2007ĠniÃ¡nĠ":3005,"2019ĠniÃ¡nĠ":3006,"ĠyÄ«ĠxiÄĵĠ":3007,"xuÄĽĠ":3008,"ĠshÃ¬ĠwÃ¨iĠyÃºĠmÄĽiĠguÃ³Ġ":3009,"ĠzhÅįngĠhuÃ¡ĠmÃŃnĠguÃ³Ġ":3010,"sÇĲĠwÃ¡ngĠ":3011,"ĠgÃ¨ĠyuÃ¨Ġ":3012,"ĠjÅ«nĠdeĠ":3013,"qiÃłn":3014,"30ĠrÃ¬Ġ":3015,"to":3016,"wÃ¨iĠdeĠ":3017,"ÃłoĠlÃŃnĠpÇĲ":3018,"Ã²ngĠ":3019,"ĠhÇİiĠbÃ¡ĠgÄģoĠdÃ¹Ġ":3020,"ĠyÇĴuĠguÄģnĠ":3021,"ĠwÄĵiĠ":3022,"chÄģiĠ":3023,"anĠ":3024,"jiÃ©ĠshÃ¹Ġ":3025,"20ĠrÃ¬Ġ":3026,"ĠxÃŃngĠdÃ²ngĠ":3027,"ĠzÃłiĠyÄ«Ġ":3028,"jÄ«ĠyÃºĠ":3029,"sÅįuĠ":3030,"ĠyÇĲnĠ":3031,"ĠĠĠwÃ¨iĠ":3032,"yÃ²ngĠdeĠ":3033,"shuÇĲĠyÃ¹Ġ":3034,"biÃłnĠhuÃłĠ":3035,"shÃłngĠwÃ¨iĠ":3036,"zÃ¬ĠjÇĲĠ":3037,"ĠjÃ¬ĠxÃ¹Ġ":3038,"chÃºnĠ":3039,"ĠĠĠN":3040,"ĠjÃŃĠtuÃ¡nĠ":3041,"ĠbÄģoĠkuÃ²":3042,"gÃłnĠ":3043,"jÃŃĠzhÅįngĠ":3044,"zhÄ«ĠyÄ«Ġ":3045,"ĠshÃŃĠdÃłiĠ":3046,"chÇĶĠyÃºĠ":3047,"UTCĠ":3048,"zhÄ«ĠchÃŃĠ":3049,"2006ĠniÃ¡nĠ":3050,"gÃ²ngĠhÃ©Ġ":3051,"2017ĠniÃ¡nĠ":3052,"Ġ12":3053,"guÃ²ĠchÃ©ngĠ":3054,"ĠhÃ²uĠlÃ¡i":3055,"gÃ©ĠmÃ¬ngĠ":3056,"ĠbÃ¹ĠzhÇİngĠ":3057,"ĠĠĠthe":3058,"10ĠrÃ¬Ġ":3059,"nÇİoĠ":3060,"kÅįngĠjiÄģnĠ":3061,"ĠhÃłnĠ":3062,"ĠyÃºĠ199":3063,"bÃºĠhuÃ¬Ġ":3064,"ĠfÄĵiĠ":3065,"shuÃ²":3066,"mÃ¨iĠ":3067,"xÄ«nĠwÃ©nĠ":3068,"cÃłiĠ":3069,"tÃ²uĠguÃ²Ġ":3070,"nÃ¨iĠbÃ¹Ġ":3071,"chÄģngĠ":3072,"yÃ¨ĠyÃºĠ":3073,"zÅ«Ġ":3074,"ĠmÃ©iĠ":3075,"wÃ¹ĠzhÇĴngĠ":3076,"ĠyÃ¬ĠzhÃŃĠ":3077,"jiÄĽĠfÃłng":3078,"ĠzÃ¬ĠjÇĲ":3079,"gÄĵnĠjÃ¹":3080,"ĠjÃŃĠtuÃ¡n":3081,"ĠzhÅįuĠshÃ¬Ġ":3082,"pÄ«ĠpÃŃngĠ":3083,"VĠ":3084,"ĠzhÃŃĠdÃłoĠ":3085,"EĠ":3086,"ĠhÃºĠ":3087,"dÃ¬ĠqÅ«Ġ":3088,"ÄģĠlÄģĠ":3089,"2000ĠniÃ¡nĠ":3090,"ĠjiÄģĠrÃ¹Ġ":3091,"guÄ«ĠdÃ¬ngĠ":3092,"ĠhÃ©ĠnÃ¡nĠ":3093,"ĠshÃ¬ĠshÃŃĠ":3094,"vi":3095,"ĠyÇĴuĠxiÃłnĠgÅįngĠsÄ«Ġ":3096,"wÃ¡nĠjiÄģĠ":3097,"21Ġ":3098,"shÃ¨nĠ":3099,"ĠĠĠzhÃ¨Ġ":3100,"lĠ":3101,"tÄģĠmen":3102,"chÃ©ngĠwÃ©iĠ":3103,"xÄ«ĠbÄģnĠ":3104,"zÄ«ĠgÃ©Ġ":3105,"26ĠrÃ¬Ġ":3106,"Ġ3Ġ":3107,"rÃ©ngĠ":3108,"dÃłĠlÃ¹Ġ":3109,"ĠĠĠgÄģiĠ":3110,"ÃłoĠlÃŃnĠpÇĲĠkÃ¨Ġ":3111,"ĠO":3112,"yÇĶnĠ":3113,"ĠdÃłĠhuÃ¬Ġ":3114,"ĠbÃ¡iĠ":3115,"24ĠrÃ¬Ġ":3116,"ĠmÃŃng":3117,"shÃłngĠhÇİiĠ":3118,"duÅįĠdeĠ":3119,"zÃłiĠdeĠ":3120,"zÃ¡ĠzhÃ¬Ġ":3121,"xÃ¬ĠliÃ¨":3122,"ĠnÃ¨iĠ":3123,"yÄ«ngĠyÇĶĠ":3124,"ĠzhÃ¨ĠzhÇĴngĠ":3125,"pÃºĠtÃ¡oĠ":3126,"lÃ¹ĠdÃ¬Ġ":3127,"ĠshuÇĲĠ":3128,"hÃ©ĠdeĠ":3129,"hÃ¡oĠmÇĲĠ":3130,"ĠyÇĶĠyÃ¡nĠ":3131,"qÃŃĠtÄģ":3132,"hÃ³uĠ":3133,"luÃ³ĠmÇİĠ":3134,"fÄģngĠdeĠ":3135,"BĠ":3136,"ĠgÃ¹Ġ":3137,"ĠĠĠyÄ«Ġ":3138,"hÃ²uĠyÄ«Ġ":3139,"ĠĠĠ18":3140,"miÃ¨Ġ":3141,"ĠchÃ©ngĠqÅ«Ġ":3142,"sÃ¨ĠdeĠ":3143,"zÃ©ĠshÃ¬Ġ":3144,"ĠtÃ¡iĠwÄģnĠ":3145,"yÄ«ĠdeĠ":3146,"fÇİĠlÇľĠ":3147,"yÄģnĠ":3148,"ĠshÃ¬ĠfÇİĠguÃ³Ġ":3149,"ĠwÃº":3150,"18ĠrÃ¬Ġ":3151,"chuÃ¡nĠtÇĴng":3152,"shuÃ¬Ġ":3153,"ĠwÃ¨iĠyÃºĠgÄģiĠguÃ³Ġ":3154,"ĠlÇĲĠsÄ«Ġ":3155,"bÃłĠ":3156,"zhÃłnĠdeĠ":3157,"wÃ¹ĠlÇĲĠ":3158,"ĠchÃºĠ":3159,"jÄ«ngĠguÃ²Ġ":3160,"shÃ¹ĠwÃ¨iĠ":3161,"ĠyÃ¬ĠbÄģnĠ":3162,"ĠbÃ¹ĠtÃ³ngĠdeĠ":3163,"xuÇİnĠjÇĶ":3164,"biÇİoĠxiÃłnĠ":3165,"ĠyÄ«ngĠguÃ³Ġ":3166,"bÄģoĠhÃ¡nĠ":3167,"ĠmÇĶĠ":3168,"ĠshÃ¬ĠjiÃ¨ĠdÃłĠ":3169,"2021ĠniÃ¡nĠ":3170,"0ĠniÃ¡nĠdÃłiĠ":3171,"shÄĽngĠjÃŃĠ":3172,"miÃ¡oĠshÃ¹Ġ":3173,"guÄģnĠyuÃ¡nĠ":3174,"ĠÃłi":3175,"Ġ2001ĠniÃ¡nĠ":3176,"bÃ³ĠwÃ¹ĠguÇİnĠ":3177,"Ġ6Ġ":3178,"2022ĠniÃ¡nĠ":3179,"pÃ²ĠhuÃłi":3180,"wÃ¨nĠtÃŃ":3181,"ĠguÃ³ĠjiÄģ":3182,"yÃŃngĠdÃ©Ġ":3183,"zhÃ¨ngĠzÃłiĠ":3184,"fÇİĠyuÃłnĠ":3185,"bÇĲngĠ":3186,"ĠgÅįngĠjÄ«Ġ":3187,"ĠzuÃ¬ĠhÃ²uĠ":3188,"cÄģngĠ":3189,"shÇĲĠdeĠ":3190,"cÃ¨ĠshÃ¬Ġ":3191,"shÄĽ":3192,"ĠsÄģn":3193,"chÇİngĠdeĠ":3194,"ĠwÃ¨iĠzhÅįngĠ":3195,"bÃ¹ĠhÃ©Ġ":3196,"ĠsuÃŃĠhÃ²uĠ":3197,"ĠlÃ¬ĠyÃ²ngĠ":3198,"ĠlÃºĠ":3199,"fÄĵiĠjÄ«Ġ":3200,"ĠhuÃłĠ":3201,"zhuÄģnĠyÃ¨Ġ":3202,"zhÄĵngĠyÃ¬Ġ":3203,"27ĠrÃ¬Ġ":3204,"16ĠrÃ¬Ġ":3205,"zhÇĲĠshÃ¬Ġ":3206,"ĠdÃ¬ĠqÅ«":3207,"21ĠrÃ¬Ġ":3208,"ĠshÄĵngĠhuÃ³Ġ":3209,"ci":3210,"yÃ¬ĠshÃŃĠ":3211,"ĠzhÃłnĠzhÄĵngĠ":3212,"zhÃ³u":3213,"17ĠrÃ¬Ġ":3214,"zÄģoĠdÃłoĠ":3215,"ĠmÃ³Ġ":3216,"jiÄģngĠqÃŃĠ":3217,"sÄģngĠ":3218,"2004ĠniÃ¡nĠ":3219,"12ĠrÃ¬Ġ":3220,"ĠbÃ¨iĠchÄĵngĠwÃ©iĠ":3221,"dÃ¬ngĠyÃ¬Ġ":3222,"8ĠrÃ¬Ġ":3223,"ĠsÃ¬":3224,"ĠdÃłĠqÅ«Ġ":3225,"ĠzhÅįngĠxÄ«n":3226,"zÅįngĠhÃ©Ġ":3227,"liÃ¹ĠniÃ¡nĠ":3228,"nÃ¡Ġ":3229,"ĠshÃ¬ĠyÃ¬Ġ":3230,"xuÃ©ĠdeĠ":3231,"ĠxiÃłnĠshÃŃĠ":3232,"jÃŃĠwÃ¨iĠ":3233,"ĠtÃ¡ngĠ":3234,"23ĠrÃ¬Ġ":3235,"huÃ¡ngĠdÃ¬Ġ":3236,"guÄ«ĠmÃ³Ġ":3237,"ĠfÄĵnĠbÃ¹ĠyÃºĠ":3238,"yÄĽĠyÇĴuĠ":3239,"ĠbÃ¬ngĠbÃ¹Ġ":3240,"11ĠrÃ¬Ġ":3241,"Ã¹Ġ":3242,"ÅįuĠzhÅįu":3243,"ĠzhÅįngĠgÃ²ng":3244,"fÄģngĠxiÃłngĠ":3245,"Ã©ĠluÃ³Ġ":3246,"ĠsuÄ«ĠrÃ¡n":3247,"kuÄģnĠ":3248,"ĠshÃ¬ĠjiÃłn":3249,"zuÃ¬ĠdÃłĠdeĠ":3250,"ĠjÇĲngĠ":3251,"chÅ«ĠxiÃłnĠ":3252,"ĠwÃłiĠ":3253,"duÅįĠshÃ¹Ġ":3254,"fÄĵnĠxÄ«Ġ":3255,"nÃ©ngĠgÃ²uĠ":3256,"7ĠrÃ¬Ġ":3257,"ĠrÃº":3258,"22ĠrÃ¬Ġ":3259,"29ĠrÃ¬Ġ":3260,"ĠĠĠyÃºĠ":3261,"xiÃłngĠdeĠ":3262,"pÃ¡nĠ":3263,"yuÃ¡nĠyÃºĠ":3264,"ĠdeĠzuÃ²Ġ":3265,"gÄĵĠshÇĴuĠ":3266,"yuÄĵĠhÃłnĠ":3267,"hÃ¡iĠshÃ¬Ġ":3268,"ĠkÄĽ":3269,"9ĠrÃ¬Ġ":3270,"ĠĠĠcÇĲĠ":3271,"fÃ©i":3272,"ĠbÃ³Ġ":3273,"dÃ¬ngĠwÃ¨iĠ":3274,"EE":3275,"ĠshÃ©nĠ":3276,"lÇİnĠ":3277,"xÅ«ĠyÃło":3278,"ĠĠĠzhÃ¨ngĠzhÃ¬Ġ":3279,"yÃ¹ĠdeĠ":3280,"tÇĴngĠjÃ¬Ġ":3281,"xÃ¬nĠxÄ«Ġ":3282,"ĠzÃłiĠzhÃ¨Ġ":3283,"yÃłngĠdeĠ":3284,"ĠxiÃłnĠzhÃ¬Ġ":3285,"19ĠrÃ¬Ġ":3286,"fÃ©ngĠ":3287,"gÅįngĠdeĠ":3288,"lÃ¬ngĠyÄ«Ġ":3289,"zhÇĲĠhuÄ«Ġ":3290,"qiÃºĠduÃ¬Ġ":3291,"ruÇİnĠ":3292,"mÃ³uĠ":3293,"ÃŃĠ":3294,"chÃ¡ĠdeĠ":3295,"14ĠrÃ¬Ġ":3296,"5ĠrÃ¬Ġ":3297,"qiÃ³ng":3298,"quÃ¡nĠqiÃºĠ":3299,"chÃ¡ngĠshÃ¬Ġ":3300,"yÅįngĠ":3301,"mÄĽiĠguÃ³ĠrÃ©nĠkÇĴuĠpÇĶĠ":3302,"3ĠrÃ¬Ġ":3303,"zÇĶĠhÃ©Ġ":3304,"zÃ¡Ġ":3305,"liÃ¡nĠmÃ©ng":3306,"dÅįngĠnÃ¡nĠ":3307,"ĠhuÃ²ĠdÃ©":3308,"niÇĶĠyuÄĵ":3309,"Ġ4Ġ":3310,"lÃŃnĠshÃŃĠ":3311,"31ĠrÃ¬Ġ":3312,"wÃ¨iĠshÃ¬Ġ":3313,"dÇĴngĠshÃ¬Ġ":3314,"jÄ«ĠdÃ¬Ġ":3315,"pÄģiĠshÃ¨Ġ":3316,"hÇİiĠbÃ¡":3317,"bÄģngĠzhÃ¹Ġ":3318,"ĠdeĠshÃ¬ĠzhÃ¨nĠ":3319,"6ĠrÃ¬Ġ":3320,"quÄģnĠ":3321,"jÇĶĠbÃłn":3322,"ĠĠĠzhÅįngĠ":3323,"ĠzhÅįngĠbÃ¹Ġ":3324,"2ĠrÃ¬Ġ":3325,"tÇĲngĠ":3326,"ĠyÃ¬ĠdÃłĠlÃ¬Ġ":3327,"ĠÄģ":3328,"ĠshÃ¨ĠlÃ¬Ġ":3329,"ĠduÅį":3330,"nu":3331,"shÄĵngĠyÃ¡Ġ":3332,"ĠdeĠzhÅįngĠ":3333,"ĠrÃ©nĠkÇĴu":3334,"ĠzhÃ¨ĠxiÄĵ":3335,"4ĠrÃ¬Ġ":3336,"gÃ¨ĠrÃ©nĠ":3337,"shÃ¨ĠyÇĴuĠ":3338,"shÄģoĠ":3339,"Ġ190":3340,"liÃ¡nĠbÄģngĠ":3341,"lo":3342,"yuÃ¡nĠhÃ©Ġ":3343,"ĠdÃ¬ĠqÅ«ĠdeĠ":3344,"tÅįngĠchÃ¡ngĠ":3345,"ĠxuÃ©ĠshÄĵngĠ":3346,"tiÄĽĠlÃ¹":3347,"lÃłngĠ":3348,"ĠĠĠ197":3349,"liÃ¨ĠchÄĵ":3350,"fÄĽi":3351,"ĠzhÅ«Ġ":3352,"ĠfÄĵnĠbiÃ©":3353,"zÇİoĠqÄ«Ġ":3354,"ĠqÃŃĠtÄģ":3355,"ĠyÃ¬ĠbÄģn":3356,"dÅįngĠbÄĽiĠ":3357,"chÃ¡oĠxiÄģnĠ":3358,"shÄĵnĠfÃ¨nĠ":3359,"zÃºĠqiÃº":3360,"13ĠrÃ¬Ġ":3361,"xiÅįngĠdÃ¬Ġ":3362,"shÄĵngĠzÃłiĠ":3363,"jiÃ©ĠguÇĴĠ":3364,"mÃ¹ĠdÃ¬Ġ":3365,"huÄ«ĠfÃ¹Ġ":3366,"juÇİnĠ":3367,"ĠshÃ¬ĠchÇİngĠ":3368,"guÄģnĠfÄģngĠ":3369,"pÃ¡ngĠ":3370,"ĠĠĠ195":3371,"ĠxuÃ©ĠyuÃłnĠ":3372,"au":3373,"qÇĶĠdÃłiĠ":3374,"lÄĽngĠ":3375,"ĠĠĠK":3376,"ĠĠĠyÃ³uĠyÃºĠ":3377,"lÃłiĠ":3378,"ĠzhÃ¨ĠyÄ«Ġ":3379,"ĠdÇİoĠzhÃ¬Ġ":3380,"zhÄģnĠ":3381,"sÅ«ĠliÃ¡nĠ":3382,"jÇĶĠbÃłnĠ":3383,"qÃŃngĠkuÃłngĠxiÃłĠ":3384,"ĠmÃ²Ġ":3385,"yÃŃĠbÃ¹Ġ":3386,"xiÃ©ĠyÃ¬Ġ":3387,"huÃ¡ngĠjiÄģĠ":3388,"juÃ©ĠsÃłi":3389,"kÄĵĠjÃ¬Ġ":3390,"nÇļĠxÃ¬ngĠ":3391,"ĠhÄģĠ":3392,"fÄģĠxiÃłn":3393,"xiÇİoĠshuÅįĠ":3394,"zhÄĽngĠgÃ¨Ġ":3395,"ĠxiÄģngĠgÇİng":3396,"ĠgÅįngĠchÇĲĠ":3397,"rÃ©nĠhÃ©Ġ":3398,"fÇĴuĠ":3399,"ĠgÃ²ngĠ":3400,"gÃ©ĠmÃ¬ng":3401,"chÄģoĠjÃŃĠ":3402,"ĠyÃ¨Ġ":3403,"mÃłoĠyÃ¬Ġ":3404,"ĠrÃºĠguÇĴĠ":3405,"yuÃ¨ĠdeĠ":3406,"bÃ¬ĠyÃ¨Ġ":3407,"ĠjiÃ¹":3408,"Ġw":3409,"zhÇİngĠdeĠ":3410,"juÃ©ĠsÃłiĠ":3411,"ĠwÇĴ":3412,"wÃ©nĠwÃ¹ĠbÇİoĠhÃ¹Ġ":3413,"rÃłoĠ":3414,"xÃŃĠjÄ«Ġ":3415,"ĠyÃ²ngĠ":3416,"huÃłĠhÃ©Ġ":3417,"zÃ²uĠ":3418,"ĠdÃ¬ĠlÃ¬Ġ":3419,"xuÃ©ĠyuÃłn":3420,"lÃ¬ĠhÃ©Ġ":3421,"tÃºĠshÅ«Ġ":3422,"qÅ«ĠhuÃłĠ":3423,"xiÄģnĠhÃ²uĠ":3424,"tÇĴngĠyÄ«Ġ":3425,"ĠxÄ«ĠnÃ¡nĠ":3426,"hÃ¡ngĠkÅįng":3427,"tÃºn":3428,"ĠqÇĲĠ":3429,"liÃºĠxÃŃngĠ":3430,"ĠyÇĲĠjÄ«ng":3431,"jiÃ©ĠshÃ¹":3432,"jiÄĵĠduÃłnĠ":3433,"ĠhÄĵiĠ":3434,"yÄģoĠqiÃº":3435,"ÇİĠ":3436,"ĠbrĠ":3437,"xiÃ©ĠzhÃ¹Ġ":3438,"cÃ¬ĠshÃ¬ĠjiÃ¨ĠdÃłĠ":3439,"shÃłngĠshÃ¬Ġ":3440,"zhÃłnĠhÃ²uĠ":3441,"wÃºĠxiÃłnĠ":3442,"dÄģnĠrÃ¨n":3443,"guÇİngĠbÅįĠ":3444,"ĠÄĽrĠshÄĽngĠ":3445,"yÇĶĠdeĠ":3446,"fÇİnĠyÃ¬ng":3447,"ĠhuÃ¡Ġ":3448,"rÃ©nĠkÇĴuĠshÃ¹ĠliÃłng":3449,"ĠhÃ©ĠyÄ«Ġ":3450,"gÃ²ngĠchÇİnĠdÇİngĠ":3451,"zÃ¬ĠxÃŃngĠ":3452,"ĠbÃ¹ĠnÃ©ngĠ":3453,"ĠU":3454,"Ã²uĠ":3455,"cuÄ«Ġ":3456,"ĠyÇĲĠlÃ¡iĠ":3457,"tÃ¡iĠbÄĽi":3458,"shÃłoĠniÃ¡nĠ":3459,"ĠxÄ«ĠbÄģnĠ":3460,"ĠĠĠ196":3461,"qÄ«ĠniÃ¡nĠ":3462,"hÇĶĠ":3463,"kÄģiĠfÄģ":3464,"chÃŃĠxÃ¹Ġ":3465,"ĠtÄģĠcÃ©ng":3466,"dÇİoĠyÇİnĠ":3467,"ĠzÃłiĠcÃ¬Ġ":3468,"ĠyÃłoĠ":3469,"fÄģĠbiÇİo":3470,"liÃ¡nĠsÃłi":3471,"shuÄģiĠ":3472,"guÃ³ĠhÃ©Ġ":3473,"xÃ¬ĠbÄģoĠ":3474,"ĠyÇĲĠxiÃłĠ":3475,"it":3476,"tÃ¨ĠdeĠ":3477,"Ġz":3478,"ĠchÃ³ngĠ":3479,"juÃ©ĠdÃ¬ng":3480,"ÃłnĠdeĠ":3481,"zhÃ¹ĠzÃłiĠ":3482,"xiÃłĠxiÃ¡":3483,"tiÃ¡oĠjiÃłnĠ":3484,"Ġ2010ĠniÃ¡nĠ":3485,"pÃŃnĠdÃłoĠ":3486,"ĠgÅįngĠzuÃ²":3487,"yÇİnĠchÃłng":3488,"yÃ¨ĠdeĠ":3489,"jiÄģoĠyÃ¬Ġ":3490,"ĠmÃ©iĠyÇĴuĠ":3491,"ĠĠĠO":3492,"ĠshÇĶĠ":3493,"zÄģoĠ":3494,"ĠhÄģ":3495,"2002ĠniÃ¡nĠ":3496,"jiÃ©ĠhÃ©Ġ":3497,"ĠqiÄĽĠ":3498,"ĠshÃ¬ĠzhÅįngĠguÃ³Ġ":3499,"bÃłoĠdÃłoĠ":3500,"ĠrÃ©nĠkÇĴuĠmÃ¬ĠdÃ¹ĠwÃ¨iĠ":3501,"MĠ":3502,"qiÃºĠyuÃ¡nĠ":3503,"2003ĠniÃ¡nĠ":3504,"ĠxÃ¬ngĠ":3505,"ĠshÃ¬ĠlÃ¬Ġ":3506,"ĠzuÃ²ĠpÇĲnĠ":3507,"ĠĠĠbÃ¹Ġ":3508,"yÃ³uĠzhÃ¨ngĠ":3509,"jiÃłnĠlÃ¬Ġ":3510,"yÃ¬ngĠyÃ²ngĠ":3511,"wÃłiĠdeĠ":3512,"zÄ«ĠyuÃ¡nĠ":3513,"sÄģiĠÄĽrĠ":3514,"zuÃ¬ĠdÃłĠ":3515,"ĠqÃŃĠhÃ²uĠ":3516,"mÃ²ĠxÄ«Ġ":3517,"kÄĽĠdÃ¡Ġ":3518,"ĠyÄ«ĠyuÃłnĠ":3519,"gÇİiĠgÃ©Ġ":3520,"zhuÃłngĠtÃłiĠ":3521,"ĠbÃ¬ngĠwÃ¨iĠ":3522,"ĠlÃ¹":3523,"huÃŃĠdÃłoĠ":3524,"sÃ¹ĠdÃ¹Ġ":3525,"qÃ¬ĠhÃ²uĠ":3526,"suÇĴĠshÇĶĠdeĠ":3527,"mÃ¬ĠshÅ«Ġ":3528,"ĠwÃ¨iĠyÃºĠfÇİĠguÃ³Ġ":3529,"xÃ¹nĠliÃłnĠ":3530,"ĠjÃ¬ngĠ":3531,"ĠshuÄģngĠ":3532,"fÄģĠbiÇİoĠ":3533,"pÃ¬":3534,"diÃłnĠshÃ¬ĠjÃ¹Ġ":3535,"zhÃ¹ĠdeĠ":3536,"fÃ¨nĠwÃ¨iĠ":3537,"ĠgÅįngĠyÃ¨Ġ":3538,"wÇİngĠzhÃłnĠ":3539,"gÅįngĠsÄ«Ġ":3540,"ĠjiÇİnĠchÄĵngĠ":3541,"Ã¡oĠ":3542,"tÃ³uĠzÄ«Ġ":3543,"zÃ¬ĠrÃ¡nĠ":3544,"ĠdeĠdÃ¬ĠyÄ«Ġ":3545,"ĠzhÅįngĠgÃ²ngĠ":3546,"zuÇĴĠyÃ²uĠ":3547,"chÇİnĠpÇĲnĠ":3548,"hÃºĠnÃ¡nĠ":3549,"lÄĽiĠ":3550,"ĠyÄ«ĠsÄ«Ġ":3551,"ĠbÄĽn":3552,"zhÃłnĠyÃ¬Ġ":3553,"yÃłĠlÃ¬Ġ":3554,"ĠwÃ¨iĠyÄ«Ġ":3555,"wÃ©nĠwÃ¹ĠbÇİoĠhÃ¹ĠdÄģnĠwÃ¨iĠ":3556,"20ĠshÃ¬ĠjÃ¬Ġ":3557,"mÃ¹ĠbiÄģoĠ":3558,"ĠbÃłoĠ":3559,"ĠdÃłiĠbiÇİo":3560,"xiÇİoĠxuÃ©Ġ":3561,"ĠsuÃ¬Ġ":3562,"shÃ¨ngĠlÃ¬Ġ":3563,"wĠ":3564,"shÃłngĠhÇİi":3565,"ĠhÃłoĠxiÃłnĠ":3566,"ĠdeĠfÃ¹Ġ":3567,"zhÃ¨nĠqÅ«Ġ":3568,"fÄĵngĠgÃ©Ġ":3569,"wÃ©nĠmÃŃngĠ":3570,"ĠjiÃłnĠshÃ¨Ġ":3571,"wÇİngĠluÃ²Ġ":3572,"shÄĽngĠfÃ¨nĠ":3573,"yÃŃĠzhÃ¬Ġ":3574,"jiÃłoĠhuÃ¬Ġ":3575,"zhÇİnĠkÄģiĠ":3576,"yÃ¬nĠdÃ¹":3577,"shÃŃĠqÄ«Ġ":3578,"zhÃ¨ĠgeĠ":3579,"ĠÃ©rĠshÃ¬Ġ":3580,"gÄģoĠjÃŃĠ":3581,"zhÇĶnĠbÃ¨iĠ":3582,"yÃ¡nĠzhÃ²ngĠ":3583,"ĠfÇİĠguÃ³Ġ":3584,"xuÇİnĠshÇĴuĠ":3585,"ÇĴĠ":3586,"kÄĵĠdeĠ":3587,"ĠrÃ©nĠwÃ¹Ġ":3588,"hÇİoĠdeĠ":3589,"dÅįngĠjÄ«ngĠ":3590,"zhÃ²ngĠyÃłoĠdeĠ":3591,"jiÄģoĠtÅįng":3592,"gÃ²ngĠyÇĴuĠrÃ©nĠkÇĴuĠ":3593,"ĠqiÄĽ":3594,"ĠIN":3595,"ir":3596,"ĠyÄ«ĠmÃŃngĠ":3597,"ĠxiÃłnĠdÃłiĠ":3598,"bÃ¬ĠxÅ«Ġ":3599,"ĠfÃ¹":3600,"hÃ²uĠyÃºĠ":3601,"cÄģnĠsÃłiĠ":3602,"xiÇİoĠxÃŃngĠxÄ«ngĠ":3603,"mÃ¹ĠqiÃ¡nĠ":3604,"ĠchÃ©ngĠjÃ¬Ġ":3605,"ĠxÄ«ĠbÄĽiĠ":3606,"ĠhÃ©ĠdÃ¬Ġ":3607,"kÄģiĠfÃłngĠ":3608,"ĠjÄ«ĠchÇİngĠ":3609,"ziĠdeĠ":3610,"ĠĠĠJ":3611,"ĠmÃŃnĠ":3612,"biÃłnĠchÃ©ngĠ":3613,"bÃłngĠ":3614,"qiÃ¡oĠzhÃ¬Ġ":3615,"nÃłiĠ":3616,"lÃ¨iĠsÃ¬":3617,"diÃłnĠshÃ¬ĠtÃ¡iĠ":3618,"jiÄĽĠshÃ¬Ġ":3619,"bÇĲĠjiÃłoĠ":3620,"guÃ³ĠmÃŃnĠ":3621,"ĠyÃ¬ĠqÇĲĠ":3622,"rÇĶĠ":3623,"ha":3624,"Ġhan":3625,"tÃ¨ĠzhÄĵngĠ":3626,"zhÃ¬ĠzuÃ²Ġ":3627,"mÇĲnĠ":3628,"kÇİĠÄĽrĠ":3629,"xÃŃngĠshÃ¬Ġ":3630,"dÅįuĠyÇĴuĠ":3631,"ĠsuÇĴĠyÇĴuĠ":3632,"zhÄ«ĠhÃ²uĠ":3633,"huÃ¬ĠhÃ©Ġ":3634,"zhÃłnĠshÃ¬Ġ":3635,"mÄĽiĠpÃŃngĠfÄģngĠgÅįngĠlÇĲĠ":3636,"ĠyÄ«ĠyÃłngĠ":3637,"rÃ¹ĠleĠ":3638,"shÄĵngĠchÇİnĠ":3639,"rÃºĠxiÃłĠ":3640,"ĠgÅįngĠfÄĵnĠ":3641,"ĠshÃ¨ĠzhÃ¬Ġ":3642,"tÃłoĠ":3643,"ĠzhÃ¨Ġge":3644,"diÄģoĠ":3645,"ĠsÄ«ĠjÄ«Ġ":3646,"ĠxiÃłĠlÃ¬ng":3647,"ĠmÃłi":3648,"zhÄĵnĠduÃ¬Ġ":3649,"lÇĲngĠdÇİo":3650,"jiÃ¹ĠshÃ¬ĠzhÃ¨nĠ":3651,"ĠzhÄģng":3652,"ĠshÃŃĠjiÄģn":3653,"ĠV":3654,"ig":3655,"ĠcÇĲĠhÃ²uĠ":3656,"yuÃ¡nĠshÃ¬Ġ":3657,"gÄģoĠzhÅįngĠ":3658,"ĠzÃłiĠzhÅįngĠ":3659,"wÃ¡ngĠguÃ³Ġ":3660,"quÃłnĠ":3661,"kuÃŃĠ":3662,"ĠniÃ¡nĠjiÄģnĠ":3663,"Ã¨rĠshÃ¬Ġ":3664,"guÄ«ĠhuÃłĠ":3665,"diÃłnĠziĠ":3666,"zÇİoĠniÃ¡nĠ":3667,"ĠcÃ¬":3668,"ĠshÃ¨nĠzhÃ¬Ġ":3669,"wÃłiĠjiÄģo":3670,"lÃ¨iĠsÃ¬Ġ":3671,"shÄģnĠdÅįngĠ":3672,"om":3673,"ĠrÃ¡nĠhÃ²uĠ":3674,"ĠsuÄ«ĠrÃ¡nĠ":3675,"tÄģnĠ":3676,"ĠlÃ¬ĠshÇĶĠyÃºĠ":3677,"ĠyÃ¬ĠzhÃŃ":3678,"ĠcÃ¡iĠ":3679,"XĠ":3680,"duÃ¬ĠzÃłiĠ":3681,"zhÃ¹ĠmÃŃngĠ":3682,"yÃºnĠnÃ¡nĠ":3683,"hÄĽnĠduÅįĠ":3684,"ĠÄĽrĠdeĠ":3685,"huÃ²ĠdÃ©":3686,"jiÄĽĠjuÃ©Ġ":3687,"ĠlÃ³ngĠ":3688,"ĠzhÃ¬ĠzÃłoĠ":3689,"lÃ¡iĠzÃ¬":3690,"ĠĠĠ2020ĠniÃ¡nĠ":3691,"xÄ«nĠjiÄģĠ":3692,"shÇĴuĠcÃ¬":3693,"ĠĠĠgÅįngĠ":3694,"cÃ¡oĠ":3695,"ĠdeĠmÃŃngĠ":3696,"ĠdeĠzhÇĶĠ":3697,"gÅįuĠ":3698,"as":3699,"ĠyÃ¬ĠzhÃ¬Ġ":3700,"ĠĠĠdÃłĠ":3701,"zhÃ²ngĠdeĠ":3702,"ĠdeĠyÄ«ĠzhÇĴngĠ":3703,"ĠwÇĶ":3704,"shÄģnĠxÄ«Ġ":3705,"rÃ©nĠkÇĴuĠshÃ¹ĠliÃłngĠwÃ¨iĠrÃ©nĠ":3706,"ĠyÃŃĠgÃ¨Ġ":3707,"jÃ¹ĠjÃŃĠ":3708,"bÃłoĠfÄģĠ":3709,"jÃŃĠhÃ©Ġ":3710,"yÃ¨ĠwÃ¹Ġ":3711,"ĠyÃłĠ":3712,"ĠINS":3713,"xĠ":3714,"ĠjiÃłnĠzhÃ¬Ġ":3715,"lÇļĠyÃ³uĠ":3716,"mÇİĠlÃ¡i":3717,"ĠchÃºĠleĠ":3718,"ĠxÃŃngĠwÃ©iĠ":3719,"ĠzhÃłoĠ":3720,"tÃ¨ĠbiÃ©Ġ":3721,"ic":3722,"liÃ¡nĠjiÄĵĠ":3723,"ĠĠĠp":3724,"nÇļĠÃ©rĠ":3725,"jÃŃĠshÃ¬Ġ":3726,"zhÃłiĠ":3727,"fÄģngĠÃłnĠ":3728,"zÇĴngĠlÇĲĠ":3729,"ĠyÃºĠ18":3730,"ĠshÃłngĠhÇİiĠ":3731,"lÃ¹ĠjÅ«nĠ":3732,"fÄģĠshÃ¨Ġ":3733,"sÄ«ĠhÃ©Ġ":3734,"ĠxÄ«ĠyÃł":3735,"ruÃ¬ĠshÃ¬Ġ":3736,"FĠ":3737,"ĠĠĠof":3738,"ĠdÃłĠliÃłngĠ":3739,"nÃ³ngĠyÃ¨Ġ":3740,"zhÃ¡iĠ":3741,"fÄģĠdÃ²ngĠ":3742,"ĠdÄģnĠrÃ¨nĠ":3743,"2023ĠniÃ¡nĠ":3744,"wÃ¹ĠzhÃ¬Ġ":3745,"juÃ©ĠdeĠ":3746,"ĠgÃ¹":3747,"ĠjÃ¬nĠshÃ¬Ġ":3748,"ĠdeĠlÃ¬Ġ":3749,"ĠdeĠshÃŃĠhÃ²uĠ":3750,"huÃłĠxuÃ©Ġ":3751,"ĠjiÇİĠ":3752,"OĠ":3753,"ÃłoĠlÃŃnĠpÇĲĠkÃ¨ĠyÃ¹nĠdÃ²ngĠhuÃ¬Ġ":3754,"ĠzhÃ¬ĠjÄ«nĠ":3755,"nÃłnĠ":3756,"sÄ«ĠrÃ©nĠ":3757,"ĠINSEE":3758,"ĠĠĠb":3759,"gÃ©ĠdeĠ":3760,"sÃ¬ĠshÃŃĠ":3761,"ĠmÄĽiĠyuÃ¡nĠ":3762,"Ġ11":3763,"juÄģnĠ":3764,"fÄĵiĠxÃŃngĠ":3765,"ĠzhÄ«ĠwÃłiĠ":3766,"kÄĽĠnÃ©ngĠshÃ¬Ġ":3767,"biÇİoĠyÇİnĠ":3768,"ĠquÃ¨Ġ":3769,"ĠtÃ¨ĠbiÃ©":3770,"ĠbiÃłnĠ":3771,"qiÇİnĠ":3772,"jiÄĵĠrÇİngĠdeĠshÃ¬ĠzhÃ¨nĠ":3773,"xuÇİnĠwÃ¨iĠ":3774,"ĠduÃ¬ĠyÃºĠ":3775,"ĠshÃ¨ĠshÄ«Ġ":3776,"yÃŃĠshÃ¬Ġ":3777,"jÃ¬nĠdeĠ":3778,"lÃłĠ":3779,"tÇĶĠÄĽr":3780,"ĠlÃ¬ĠsÄ«Ġ":3781,"bÃ³ĠtÃ¨Ġ":3782,"jiÃłĠzhÃŃĠ":3783,"tiÃłoĠ":3784,"chuÃłngĠlÃ¬Ġ":3785,"ĠgÅįngĠnÃ©ngĠ":3786,"ĠzÇĴngĠmiÃłnĠjÄ«Ġ":3787,"chÃ¹ĠdeĠ":3788,"rÃ©ngĠrÃ¡nĠ":3789,"luÃ³ĠmÇİ":3790,"bÄģoĠhÃ¡n":3791,"un":3792,"ĠĠĠc":3793,"ĠdÃ©ĠlÇĲĠ":3794,"zhÃ¬ĠshÃ¬Ġ":3795,"ver":3796,"guÇİngĠchÇİngĠ":3797,"liÃ¡nĠhÃ©ĠguÃ³Ġ":3798,"ĠyÇĴuĠrÃ©nĠ":3799,"NĠ":3800,"jÃŃĠshÃŃĠ":3801,"gÄĵngĠmÃŃngĠwÃ¨iĠ":3802,"ĠdeĠyÄ«ĠbÃ¹ĠfÃ¨nĠ":3803,"20ĠniÃ¡nĠ":3804,"xiÃłoĠlÃ¬Ġ":3805,"ĠzÃłiĠcÇĲĠ":3806,"jiÇĶĠniÃ¡nĠ":3807,"chuÄģngĠ":3808,"ĠgÄģiĠshÄĽngĠ":3809,"qÃ¬ĠdeĠ":3810,"ĠrÃ©nĠkÇĴuĠmÃ¬ĠdÃ¹ĠmÄĽiĠpÃŃngĠfÄģngĠgÅįngĠlÇĲĠ":3811,"ĠjÃ¹ĠlÃ¨ĠbÃ¹Ġ":3812,"ĠrÃ©nĠkÇĴuĠmÃ¬ĠdÃ¹ĠwÃ¨iĠmÄĽi":3813,"ĠxiÃłĠlÃ¬ngĠshÃŃĠ":3814,"op":3815,"yÃ³uĠzhÃ¨ngĠbiÄģnĠmÇİĠwÃ¨iĠ":3816,"shÃŃĠshÃ¬Ġ":3817,"zÇĶĠfÃ¹Ġ":3818,"chÃ¡ĠdeĠshÃ¹ĠjÃ¹Ġ":3819,"liÃ¡nĠbÄģng":3820,"fÄĵnĠlÃ¨iĠ":3821,"ĠshÃ¬ĠzhÃ¨nĠbiÄģnĠmÇİĠwÃ¨iĠ":3822,"ĠINSEEĠshÃ¬ĠzhÃ¨nĠbiÄģnĠmÇİĠwÃ¨iĠ":3823,"ation":3824,"Ġg":3825,"ĠqÃ¬Ġ":3826,"mÃ²ĠsÄ«Ġ":3827,"ĠguÃ³ĠwÃ¡ngĠ":3828,"ãĢİ":3829,"qiÇİngĠ":3830,"biÄģoĠzhÇĶn":3831,"shÇĲĠyÃ²ngĠdeĠ":3832,"ĠĠĠbÃ¨iĠ":3833,"2ĠrÃ©nĠ":3834,"ĠjÅ«nĠzÃłiĠ":3835,"xuÇİnĠqÅ«ĠwÃ¨iĠ":3836,"ãĢı":3837,"pÃ¡iĠmÃŃngĠ":3838,"dÃ²ngĠlÃ¬Ġ":3839,"cÃ³ngĠshÃ¬Ġ":3840,"ĠbÃ¹ĠguÃ²":3841,"hÃ©ĠshÃ¬Ġ":3842,"ĠshÃ¨ĠdeĠ":3843,"yÃ¹nĠyÃŃngĠ":3844,"shÃŃĠdeĠrÃ©nĠkÇĴuĠshÃ¹ĠliÃłngĠwÃ¨iĠrÃ©nĠ":3845,"zÇĴngĠtÇĴng":3846,"yÄ«ĠzhÇĴngĠ":3847,"mÄĽiĠguÃ³ĠrÃ©nĠkÇĴuĠpÇĶĠchÃ¡ĠdeĠshÃ¹ĠjÃ¹Ġ":3848,"ĠĠĠ193":3849,"ĠjÇĲnĠguÇİnĠ":3850,"ĠjiÃ¨Ġ":3851,"jiÄģĠlÃ¬Ġ":3852,"ĠÃ©rĠrÃ©nĠkÇĴuĠmÃ¬ĠdÃ¹ĠwÃ¨iĠmÄĽi":3853,"ĠchÅ«ĠbÇİnĠ":3854,"chÄĵĠliÃłngĠ":3855,"ĠdÄģngĠdÃ¬ĠgÃ²ngĠyÇĴuĠrÃ©nĠkÇĴuĠ":3856,"ĠÃ©rĠqiÄĽĠ":3857,"duÅįĠgÃ¨Ġ":3858,"zÃºĠdeĠ":3859,"lÇĲngĠyÃ¹Ġ":3860,"ĠhuÃ²ĠjiÃ¹ĠshÃ¬ĠzhÃ¨nĠ":3861,"ĠzhÃ²ngĠ":3862,"ĠĠĠlÃ¬Ġ":3863,"tiÃ¡oĠyuÄĵĠ":3864,"gÃ©ĠlÃ¡n":3865,"ĠzÃłiĠ199":3866,"shÄĽngĠjÃŃĠxuÇİnĠqÅ«ĠwÃ¨iĠ":3867,"jÄ«ĠjÃŃĠ":3868,"gÃłiĠniÃłnĠ":3869,"Ã©rĠziĠ":3870,"xÄ«ĠdeĠ":3871,"dÃłĠbÃ¹ĠfÃ¨n":3872,"ĠshÅ«Ġ":3873,"mÃłnĠhuÃłĠ":3874,"kÄĵngĠ":3875,"ĠĠĠV":3876,"ĠbÃ¹ĠjiÇĶĠ":3877,"xuÇİnĠrÃ©nĠ":3878,"xÄ«ngĠdeĠ":3879,"ĠÄĽrĠdÃ©Ġ":3880,"bÄģĠniÃ¡nĠ":3881,"shÄĽngĠhÃ©Ġ":3882,"jÇĲngĠchÃ¡Ġ":3883,"ĠmÃłiĠ":3884,"fÃ¨nĠwÃ¨iĠfÇİĠguÃ³Ġ":3885,"ĠgÄģiĠshÄĽngĠfÃ¨nĠwÃ¨iĠfÇİĠguÃ³Ġ":3886,"mÇĲĠÄĽrĠ":3887,"ĠzhÄ«ĠxiÃłnĠ":3888,"qÇĲĠlÃ¡iĠ":3889,"ĠjiÇĶĠ":3890,"tiÄĽĠdÃłoĠ":3891,"ĠdÅįng":3892,"ÃłoĠdÃłĠlÃ¬Ġ":3893,"ĠlÃ¡nĠ":3894,"ĠgÃ¨ngĠ":3895,"ĠjÅ«nĠduÃ¬Ġ":3896,"jÇĲnĠbiÄģoĠsÃłiĠ":3897,"fÃºĠjiÃłnĠ":3898,"guÇİngĠzhÅįuĠ":3899,"fÃ©n":3900,"ĠyÇĴngĠ":3901,"ĠchÅ«ĠbÇİn":3902,"ĠwÃ¨iĠshÃŃĠ":3903,"qÃºnĠdÇİoĠ":3904,"tiÄģnĠwÃ©nĠ":3905,"mÄĽiĠyuÃ¡nĠ":3906,"zuÃ¬ĠhÃ²uĠyÄ«Ġ":3907,"pÃ¡iĠmÃŃng":3908,"tÅįngĠchÃ¡ng":3909,"xuÄĵĠ":3910,"ĠdÃ¬ĠsÃ¬Ġ":3911,"ĠguÄģngĠ":3912,"lÃ¡iĠyuÃ¡nĠ":3913,"bÄĽnĠdeĠ":3914,"ĠhÃ©ĠbÃ¬ng":3915,"ĠtÄģĠbÃ¨iĠ":3916,"guÇİngĠfÃłnĠ":3917,"xÄ«ngĠjiÃłnĠ":3918,"ĠdÃ¬ĠsÄģn":3919,"tÃ¨ĠbiÃ©":3920,"ĠchÅ«ĠshÄĵngĠyÃºĠ":3921,"shÃ¨ĠlÃ¬Ġ":3922,"miÃ¡n":3923,"shÇİngĠ":3924,"dÃ¬ĠyÄ«Ġ":3925,"ĠrÃ¬ĠdeĠ":3926,"wÄĽiĠhuÃ¬Ġ":3927,"ĠrÃ©nĠgÅįngĠ":3928,"ĠyÃ³uĠxÃ¬":3929,"mÃ©ngĠgÇĶĠ":3930,"ceĠ":3931,"shÇİnĠxÄ«Ġ":3932,"ĠzhÃ¬ĠyÃºĠ":3933,"ÃłoĠsÄ«Ġ":3934,"wÃºĠrÃ©nĠ":3935,"rÃ©ngĠrÃ¡n":3936,"mÇĶĠsÄ«Ġ":3937,"dÄģĠ":3938,"mÄĽiĠzhÅįuĠ":3939,"yÃ¹nĠxÃŃngĠ":3940,"24Ġ":3941,"jiÄĵĠshÃ²u":3942,"ĠmÃŃngĠchÃ¡oĠ":3943,"cÇİiĠyÃ²ng":3944,"ĠzhÄĵnĠ":3945,"ĠbÃ¹ĠmÃŃngĠ":3946,"jiÄģĠrÃ¹Ġ":3947,"yÃ¡nĠjiÅ«ĠsuÇĴĠ":3948,"mÃ¡Ġ":3949,"ĠxiÃłnĠlÃ¹Ġ":3950,"gÇİnĠrÇİnĠ":3951,"hÅįngĠ":3952,"ĠshÃ¬ĠbÃ¹Ġ":3953,"yÇĲĠjÃŃĠ":3954,"ĠhÃ©ĠpÃŃngĠ":3955,"xÄ«ĠzÃłiĠ":3956,"nÃ¡nĠjÃŃĠ":3957,"huÃłĠshÃŃĠ":3958,"cÄģoĠ":3959,"shuÅįĠfÇİĠ":3960,"qiÃłnĠ":3961,"guÃ²ĠchÃ©ngĠzhÅįngĠ":3962,"cÃ©ngĠzÃłiĠ":3963,"zuÃ²ĠpÇĲn":3964,"ĠjÃ¬nĠdeĠ":3965,"ĠbÃ¹ĠmÃ©nĠ":3966,"ĠjÄ«ĠbÄĽnĠ":3967,"zhÃłnĠzhÄĵng":3968,"wÇĶĠshÃŃĠ":3969,"xuÃ©ĠxiÃło":3970,"ĠrÃ¨nĠwÃ©i":3971,"ap":3972,"nÃ¨Ġ":3973,"ĠtÃ³uĠ":3974,"ĠhÃ¡nĠ":3975,"50Ġ":3976,"ĠjÃ¹ĠlÃŃĠ":3977,"mÃ³ĠxÃŃngĠ":3978,"ĠqÅ«Ġ":3979,"ĠyÃ¬ĠwÃ¨iĠ":3980,"ĠdeĠdÃ¬ĠfÄģngĠ":3981,"ĠbiÇİoĠshÃ¬Ġ":3982,"ĠzhÃ¨ngĠshÃ¬Ġ":3983,"ĠkÃ¨ĠdeĠ":3984,"hi":3985,"jÃ¬ĠshÃ¹Ġ":3986,"yÃ¹nĠshÅ«Ġ":3987,"ĠjiÃłnĠyÃ¬Ġ":3988,"ĠtÄģĠyÇĶĠ":3989,"ĠjiÇİngĠ":3990,"gÃ²uĠmÇİi":3991,"xuÃ©ĠshÃ¬Ġ":3992,"xuÃ©ĠxÃŃĠ":3993,"0ĠniÃ¡nĠdÃłi":3994,"rÃ¨nĠwÃ©iĠshÃ¬Ġ":3995,"huÇİnĠ":3996,"xuÄģnĠchuÃ¡nĠ":3997,"ĠzÃłiĠyÃ¬Ġ":3998,"ĠyÃºĠ198":3999,"ĠgÃ¨ĠdÃ¬Ġ":4000,"lÃºnĠdÅ«n":4001,"3ĠrÃ©nĠ":4002,"liÃ¨ĠwÃ¨iĠ":4003,"chÃłĠ":4004,"fÃ³Ġ":4005,"ĠdeĠxÄ«nĠ":4006,"bÃłnĠgÅįngĠshÃ¬Ġ":4007,"miÇİoĠ":4008,"tÃ³ngĠyÄ«Ġ":4009,"wÃłiĠguÃ³Ġ":4010,"Ġ10ĠyuÃ¨Ġ":4011,"ĠzÇĴngĠrÃ©nĠkÇĴuĠ":4012,"shÃłngĠyÇĴuĠ":4013,"ad":4014,"ĠliÃº":4015,"yuÃ¡nĠwÃ¨iĠ":4016,"liÇİoĠ":4017,"ĠxiÄģoĠ":4018,"gÅįngĠzuÃ²Ġ":4019,"nÃŃĠsÄ«Ġ":4020,"ĠzÃłiĠzhÅįngĠguÃ³Ġ":4021,"ĠzÃ¬ĠjÇĲĠ":4022,"chÃ¡nĠ":4023,"yÇİngĠhuÃłĠ":4024,"30ĠniÃ¡nĠ":4025,"tÃłiĠyÃ¡ngĠ":4026,"LĠ":4027,"fÄģngĠmiÃłn":4028,"ac":4029,"hÇİiĠjÅ«n":4030,"chÄĵngĠwÃ¨iĠ":4031,"xiÄģoĠxÄ«Ġ":4032,"ĠxiÃłnĠrÃ©nĠ":4033,"4ĠrÃ©nĠ":4034,"biÄģoĠzhÃ¬Ġ":4035,"zhÃ¬ĠwÃ¨iĠ":4036,"15Ġ":4037,"ĠdeĠguÄģnĠ":4038,"yÃ³uĠxÃ¬":4039,"fÃ¹ĠzÃ©ĠguÇİnĠxiÃ¡Ġ":4040,"fÄĵnĠzhÄ«Ġ":4041,"ĠxiÄģnĠ":4042,"ĠwÃ©iĠzhÇĶĠ":4043,"ub":4044,"gÃ²uĠchÃ©ngĠ":4045,"shÄ«ĠdeĠ":4046,"ĠÎ":4047,"ĠqÄ«ng":4048,"zhÃ©ĠxuÃ©Ġ":4049,"ĠjÃŃĠqÃŃĠ":4050,"zhÇĶĠjuÃ©Ġ":4051,"zhÄģĠ":4052,"ĠĠĠyÇĲĠ":4053,"sÃ¬ĠchuÄģnĠ":4054,"ĠjÃ¬ĠhuÃł":4055,"zÃłiĠshÃ¬Ġ":4056,"zhÃ¨ngĠdeĠ":4057,"jiÃ¨ĠquÃ¡nĠguÃ³Ġ":4058,"ĠgÃ¨ng":4059,"kÃ¹n":4060,"dÇİngĠdeĠ":4061,"huÃ¡nĠjÃ¬ng":4062,"bÇĲĠdÃ©Ġ":4063,"ĠdÃłoĠlÃ¹Ġ":4064,"mÇİĠlÃ¬Ġ":4065,"2024ĠniÃ¡nĠ":4066,"ĠyÄ«ĠxiÄĵ":4067,"rÃ²uĠ":4068,"ĠjÃ¬ĠniÃłnĠ":4069,"ĠrÃłng":4070,"bÃ¹ĠwÃ¨iĠ":4071,"ĠyÇĶ":4072,"ĠshÃ¬ĠmÄĽiĠguÃ³Ġ":4073,"pÃ©ngĠyÇĴuĠ":4074,"sÄ«ĠzÃłiĠ":4075,"ĠxÄ«":4076,"ÃłiĠÄĽrĠ":4077,"chÃŃĠxÃ¹":4078,"ĠgÅįngĠgÃ²ngĠ":4079,"ÃłoĠyÃ¹nĠ":4080,"kÃłngĠyÃ¬Ġ":4081,"ĠwÅ«Ġ":4082,"yuÄĵĠwÃ¨iĠ":4083,"tÃłiĠguÃ³Ġ":4084,"shÄĵngĠwÃ¹Ġ":4085,"ĠĠĠyÇĴuĠ":4086,"UĠ":4087,"chÄ«Ġ":4088,"ĠbÃ¨iĠÄĽrĠ":4089,"jiÄĵĠwÃ¨iĠ":4090,"liÃ¨ĠdeĠ":4091,"xuÇİnĠqÅ«Ġ":4092,"huÃ¬ĠyÇĴuĠ":4093,"shÅįuĠrÃ¹Ġ":4094,"yÃ¬ĠhÃ©Ġ":4095,"xiÃłoĠzhÇİngĠ":4096,"wÃ©nĠjiÃłnĠ":4097,"shÃŃĠzÃłiĠ":4098,"zhÃ¨ngĠcÃ¨Ġ":4099,"ĠsÃ²ngĠ":4100,"tiÇİo":4101,"xuÇİnĠzÃ©":4102,"qiÃ¡nĠwÇİng":4103,"ĠcÃ¬Ġ":4104,"rÃ³ngĠyÃ¬Ġ":4105,"suÇĴĠshÇĶĠdeĠshÄĽngĠjÃŃĠxuÇİnĠqÅ«ĠwÃ¨iĠ":4106,"ĠyÃ²uĠchÄĵngĠ":4107,"ĠjiÃ©ĠzhÃ¬Ġ":4108,"zhÅįngĠzÃłiĠ":4109,"biÄģoĠwÃ¨iĠ":4110,"cÄģnĠyÃ¹":4111,"fÃ³ĠjiÃłoĠ":4112,"ĠzhÄ«ĠchÃŃ":4113,"kÅ«nĠ":4114,"ĠkÄģiĠshÇĲĠ":4115,"ĠĠĠchÄĵĠzhÃłnĠ":4116,"tiÄĵĠ":4117,"yÇİnĠdeĠ":4118,"biÄģnĠjÃŃĠ":4119,"ĠĠĠshÃŃĠ":4120,"yÃŃnĠhÃ¡ng":4121,"yÇĶĠyÃ¡nĠ":4122,"ĠbÄĽi":4123,"sÄ«ĠdÃ¬Ġ":4124,"bo":4125,"ĠshÄĵngĠwÃ¹Ġ":4126,"ĠchÃ©n":4127,"tÃ³uĠrÃ¹Ġ":4128,"kÇİnĠ":4129,"qÄ«ĠjiÄģn":4130,"ĠhuÃ²ĠshÃ¬Ġ":4131,"jÅ«nĠduÃ¬Ġ":4132,"ĠÃ©rĠqiÄĽ":4133,"ĠrÃ¨n":4134,"guÄģĠ":4135,"nÃ¡nĠxÃ¬ngĠ":4136,"jiÄĽĠfÃłngĠjÅ«nĠ":4137,"xiÄģngĠduÃ¬Ġ":4138,"tiÇİoĠzhÃłnĠ":4139,"ĠyuÃ¡nĠzhÃ¹Ġ":4140,"ĠchÅ«ĠleĠ":4141,"sp":4142,"ĠzhÃ¬ĠdÃ¹Ġ":4143,"gÇİiĠbiÃłnĠ":4144,"ĠqiÄģnĠ":4145,"ĠĠĠhÃ©Ġ":4146,"shÃ²uĠyÇĶĠ":4147,"ĠzhÅįngĠyÇĴuĠ":4148,"ĠzhÃłnĠzhÄĵng":4149,"ĠtÃºĠ":4150,"ĠniÃ¡nĠdÃ¹Ġ":4151,"ĠyÄ«ĠzhÇĴngĠ":4152,"gÄģoĠyÃºĠ":4153,"gÇİnĠdÃłoĠ":4154,"jiÄĵĠrÇİngĠ":4155,"Ġ2020ĠniÃ¡nĠ":4156,"ĠyÇĲĠshÃłngĠ":4157,"ĠfÄĵi":4158,"yÃ¹nĠhuÃ¬Ġ":4159,"gÇİoĠ":4160,"rÃ³u":4161,"ĠdÃ¬ĠxiÃłĠ":4162,"ĠĠĠtÄģ":4163,"ĠshÃ¬ĠyÃŃĠgÃ¨":4164,"wÄĽnĠdÃ¬ngĠ":4165,"pÃ¨iĠhÃ©Ġ":4166,"ĠyÃºĠ19":4167,"ĠgÇĶ":4168,"ĠshÃ¬ĠtÃºĠ":4169,"jiÄģĠrÃ©nĠ":4170,"yÄģngĠ":4171,"ÃłnĠjiÃłnĠ":4172,"ĠdÃŃĠ":4173,"ind":4174,"ĠzÃłiĠbÃ¹Ġ":4175,"gÄĵĠqÇĶ":4176,"tÃŃĠmÃŃngĠ":4177,"jÃ¬ĠzhÅįngĠ":4178,"dÃ¡ĠchÃ©ngĠ":4179,"ĠÃ¨r":4180,"tÃ³ngĠdeĠ":4181,"tiÄģnĠzhÇĶĠjiÃłoĠ":4182,"1ĠrÃ©nĠ":4183,"ĠĠĠ2021":4184,"wÇĶĠqÃ¬Ġ":4185,"ĠchÄĵngĠ":4186,"shÃ¹ĠliÃłngĠ":4187,"lÃ¡iĠshuÅįĠ":4188,"jiÇİnĠjiÃ¨Ġ":4189,"biÇİoĠmÃŃngĠ":4190,"ĠzhÅįngĠguÃ³ĠrÃ©nĠmÃŃnĠ":4191,"tÃŃngĠzhÇĲĠ":4192,"tÄģĠmenĠ":4193,"xÄ«ĠbÄģnĠyÃ¡Ġ":4194,"duÃ³ĠdeĠ":4195,"yÇĲngĠpiÃłnĠ":4196,"sÃºĠ":4197,"zhuÃ³Ġ":4198,"Â°":4199,"ĠÃ©rĠrÃ©nĠkÇĴuĠmÃ¬ĠdÃ¹ĠwÃ¨iĠmÄĽiĠpÃŃngĠfÄģngĠqiÄģnĠmÇĲĠ":4200,"tuÃ²":4201,"bÃłnĠdÇİoĠ":4202,"xiÇİoĠdeĠ":4203,"zhÃ¨ngĠshÃŃĠ":4204,"cÃ¨ĠdeĠ":4205,"zÃłoĠdeĠ":4206,"ĠwÃ¨iĠfÃº":4207,"zhÇĶĠtÃŃĠ":4208,"shÄĵnĠfÃ¨n":4209,"quÃ¨ĠzhÄĽn":4210,"juÃ©ĠsÃ¨":4211,"ĠjÄ«ĠbÃłiĠ":4212,"inĠ":4213,"zhÃ¨ĠzhÇĴngĠ":4214,"ur":4215,"ï½":4216,"guÅįĠ":4217,"jiÃ©ĠmÃ¹":4218,"ĠtÃ¡iĠwÄģn":4219,"dÃ¬ĠshÃ¬Ġ":4220,"ag":4221,"jiÃłoĠtÃ¡ngĠ":4222,"ĠpÃŃngĠfÄģngĠmÇĲĠ":4223,"ĠĠĠyuÃ¡nĠ":4224,"ĠjiÄģĠnÃ¡ĠdÃłĠ":4225,"zÃ¬ĠzhÃ¬ĠqÅ«Ġ":4226,"Ġ8ĠyuÃ¨Ġ":4227,"lÄģĠkÃ¨Ġ":4228,"lÃ¨iĠdeĠ":4229,"ĠzÃłiĠmÄĽiĠguÃ³Ġ":4230,"ĠĠĠzÃ¬Ġ":4231,"hÃ¹nĠhÃ©Ġ":4232,"46":4233,"kÃłoĠ":4234,"fÄĵnĠbiÃ©Ġ":4235,"jÇĶĠrÃ©nĠ":4236,"chÅįngĠtÅ«Ġ":4237,"ĠluÃ²Ġ":4238,"ĠshÇĲĠyÃ²ngĠ":4239,"tuÃ¡nĠduÃ¬Ġ":4240,"39":4241,"quÃ¡nĠdeĠ":4242,"kÄĽĠnÃ©ngĠhuÃ¬Ġ":4243,"yÄģĠlÃ¬Ġ":4244,"guÃ³ĠzÃłiĠ":4245,"jÃ¬ĠwÃ¨iĠ":4246,"ĠÃ©rĠbÃ¨iĠ":4247,"jÃ¬ĠhuÃłĠ":4248,"ĠjÃ¬ĠchÃ©ngĠ":4249,"gÃ²ngĠxiÃłnĠ":4250,"ĠhÃ¡iĠyÇĴuĠ":4251,"nÄ«Ġ":4252,"xÄ«nĠlÇĲĠ":4253,"ĠshÃŃĠshÄ«Ġ":4254,"ĠdÃ¬ĠtiÄĽĠ":4255,"jiÇİnĠchÃ¡Ġ":4256,"shÄĵngĠchÇİn":4257,"ĠThe":4258,"ĠshÃŃĠyÃłn":4259,"duÅįĠcÃ¬Ġ":4260,"liÃ¡nĠxÃ¹Ġ":4261,"lÃ¬ĠbÃ¹Ġ":4262,"47":4263,"ĠtÅįngĠguÃ²Ġ":4264,"cÃ©ngĠjÄ«ngĠ":4265,"chÇİnĠyÃ¨Ġ":4266,"ĠnÃŃĠ":4267,"xÃŃngĠdÃ²ngĠ":4268,"ĠxÄ«ngĠ":4269,"fÄģnĠyÃ¬Ġ":4270,"ĠhÃ©ĠliÃºĠ":4271,"zuÃ¬ĠzÇİo":4272,"25Ġ":4273,"dÃłĠbÃ¹ĠfÃ¨nĠ":4274,"ĠchÅ«ĠrÃ¨nĠ":4275,"ĠzÃ¬ĠyÃ³uĠ":4276,"cÄģoĠzuÃ²Ġ":4277,"jiÄģĠnÃ¡ĠdÃłĠ":4278,"zhÇĲĠhuÄ«":4279,"bÃłnĠshÃ¬Ġ":4280,"ĠxÄ«ĠwÃłngĠ":4281,"ampĠ":4282,"ĠzÃłiĠdÃłĠ":4283,"shÇİoĠshÃ¹Ġ":4284,"ÄģnĠdÃ©Ġ":4285,"fÇİnĠhuÃŃĠ":4286,"chÃ³ngĠjiÃłnĠ":4287,"tÃ²uĠ":4288,"xiÇİoĠzÇĶĠ":4289,"shÇĴuĠdeĠ":4290,"jiÇİnĠshÇİoĠ":4291,"ĠshÃ¬ĠyÇĲĠ":4292,"ĠjiÃłnĠzhÃ¹":4293,"fÃ¨nĠzÇĲĠ":4294,"ĠwÃ¨iĠnÃ©ngĠ":4295,"You":4296,"xÃŃngĠwÃ©iĠ":4297,"ĠzÃ¬":4298,"dÃ²ngĠdeĠ":4299,"kÅįngĠjÅ«nĠ":4300,"ĠshÃŃĠfÄĵnĠ":4301,"mÃ©iĠtÇĲ":4302,"bÃłnĠgÅįngĠ":4303,"ĠzhÃ¬ĠzuÃ²":4304,"ÇĲĠ":4305,"kÃ¹nĠ":4306,"jÃ¬ĠniÃłnĠ":4307,"mÄĽiĠniÃ¡nĠ":4308,"gÃ²ngĠtÃ³ng":4309,"ĠyÃ¬ĠyÇĴuĠ":4310,"shÄĵnĠdeĠ":4311,"ĠhÃ©ĠbÄĽiĠ":4312,"ĠxiÃłnĠwÃ¨iĠ":4313,"Ġ2009ĠniÃ¡nĠ":4314,"5ĠrÃ©nĠ":4315,"oun":4316,"ÅįuĠyuÃ¡nĠ":4317,"gÅįngĠyuÃ¡nĠ":4318,"kÄģĠ":4319,"lÃºnĠdÅ«nĠ":4320,"AT":4321,"ĠyÇĲĠsÃ¨Ġ":4322,"xiÃłnĠdÃłiĠ":4323,"ĠshÃ¬ĠyÄ«ĠmÃŃngĠ":4324,"ĠyÃ²uĠmÃŃngĠ":4325,"jÄ«ngĠyÃŃngĠ":4326,"wÄĵiĠÄĽrĠ":4327,"ĠshÇĲĠdeĠ":4328,"yÃ¬ngĠdeĠ":4329,"jiÃ©ĠgÃ²u":4330,"bÇİoĠhÃ¹":4331,"wÄĽiĠyuÃ¡nĠhuÃ¬":4332,"jÃŃĠzÃłiĠ":4333,"chÃ¡oĠxiÄģn":4334,"ĠzhÇĲĠyÇĴuĠ":4335,"chuÃŃ":4336,"diÄģnĠ":4337,"xiÄģngĠtÃ³ngĠ":4338,"mÃ¬ngĠmÃŃngĠwÃ¨iĠ":4339,"ĠdeĠshÇĴuĠ":4340,"ĠgÅįngĠsÄ«ĠdeĠ":4341,"ĠduÃ¬":4342,"yÃ²ngĠlÃ¡iĠ":4343,"dÃ²ngĠjÄ«Ġ":4344,"dÇİĠjÄ«Ġ":4345,"ĠdeĠdÃ¬ĠqÅ«Ġ":4346,"ĠÃłnĠ":4347,"zhÇİnĠshÃ¬Ġ":4348,"xÃºnĠhuÃŃĠ":4349,"ĠyÄ«ĠcÃ¬Ġ":4350,"qÇĲĠyÃ²ngĠ":4351,"ĠshÃ¨ĠqÅ«Ġ":4352,"tÃ³uĠpiÃłoĠ":4353,"ĠĠĠ2019":4354,"ing":4355,"ĠfÃłnĠ":4356,"shÇĴuĠwÃ¨iĠ":4357,"xiÃłĠwÇĶĠ":4358,"ĠliÇİngĠrÃ©nĠ":4359,"ĠzhÃŃĠzhÃ¬Ġ":4360,"ak":4361,"yÃ¬ĠzÃłiĠ":4362,"ĠjÃ¬ĠxÃ¹":4363,"ĠsÄ«ĠlÃ¬ng":4364,"zhÃŃĠdeĠ":4365,"rÃ¨nĠwÃ¹Ġ":4366,"lÃ¹ĠdÃ¬ĠmiÃłnĠjÄ«ĠwÃ¨iĠ":4367,"KĠ":4368,"pÃŃngĠjiÃłĠ":4369,"kuÃ¬":4370,"bÃ¹ĠshÃ¬Ġ":4371,"shuÇĲĠyÃ¹ĠmiÃłnĠjÄ«ĠwÃ¨iĠ":4372,"hÇİnĠ":4373,"ĠlÃŃn":4374,"mÃ¹ĠsÄ«Ġ":4375,"jiÄĵĠjÃ¬nĠ":4376,"lÃ¨iĠxÃŃngĠ":4377,"16Ġ":4378,"pÄģnĠ":4379,"ĠguÃ³ĠlÃ¬Ġ":4380,"wÃłiĠjiÄģoĠ":4381,"ĠtÇĲĠzhÇİngĠ":4382,"ĠshÃŃĠzÃ¬Ġ":4383,"fÃºĠhÃ©Ġ":4384,"ĠdÄĽng":4385,"diÃłnĠlÃ¬Ġ":4386,"ĠfÃ¹ĠjÃ¬nĠ":4387,"ĠhuÄģĠ":4388,"ĠruÃ²Ġ":4389,"jÇĶĠxÃŃngĠdeĠ":4390,"xuÃ©ĠzhÄĽĠ":4391,"tÇĲĠxÃ¬Ġ":4392,"liÇİngĠgÃ¨":4393,"zhÃ¨Ġge":4394,"ĠyÃ¹":4395,"ĠzÇĶĠ":4396,"bÇĲĠsÃłiĠzhÅįngĠ":4397,"fÃºĠwÃ¹":4398,"ĠdÃłĠshÇĲĠ":4399,"ï½ŀ":4400,"zuÃ²ĠjiÄģĠ":4401,"guÄ«ĠmÃ³":4402,"ĠshÃ¨ĠbÃ¨iĠ":4403,"ĠdÅįuĠ":4404,"qÇĶĠxiÄģoĠ":4405,"zhÃ¹ĠyÃ¬Ġ":4406,"ĠshÄģngĠ":4407,"ĠampĠ":4408,"ĠsÄ«ĠlÃ¬ngĠ":4409,"zhÃ¹ĠzuÃ²Ġ":4410,"dÃ©ĠdÃłoĠ":4411,"xiÃłngĠshÃ¬Ġ":4412,"hÇİiĠyÃ¹Ġ":4413,"yÄ«ngĠgÃ©ĠlÃ¡nĠ":4414,"jiÃ©ĠzhÃ¬Ġ":4415,"ĠdÃłĠchÃ©nĠ":4416,"ĠcÃ³ngĠÃ©rĠ":4417,"ĠdÄģngĠzhÅįngĠlÃ¹ĠdÃ¬ĠmiÃłnĠjÄ«ĠwÃ¨iĠ":4418,"ab":4419,"zhÃ¬ĠhÃ©Ġ":4420,"ĠÃ©rĠshuÇĲĠyÃ¹ĠmiÃłnĠjÄ«ĠwÃ¨iĠ":4421,"ĠÄģi":4422,"ĠlÃ¬ĠjÃŃĠ":4423,"ĠlÃ¬ĠfÇİĠ":4424,"ĠfÃ¨iĠ":4425,"ĠĠĠ2018":4426,"ĠĠĠxÄ«Ġ":4427,"ĠlÃ¬ĠrÃº":4428,"shuÇĲĠpÃŃngĠ":4429,"ĠzhÄ«ĠshÃŃĠ":4430,"fÇİĠlÇľ":4431,"gÄģoĠsÃ¹":4432,"yÄ«ngĠchÇĲĠ":4433,"chÃ¡ngĠqÄ«Ġ":4434,"kuÃłiĠsÃ¹Ġ":4435,"Ġ9ĠyuÃ¨Ġ":4436,"ĠchÃ©ngĠlÃ¬ĠyÃºĠ":4437,"ĠĠĠgÃłiĠ":4438,"lÇļĠkÃ¨Ġ":4439,"ĠwÃ©iĠÄĽrĠ":4440,"wÄĵiĠliÃ¡nĠ":4441,"nÃ¬Ġ":4442,"ĠzhuÄģnĠ":4443,"lÃ¬ngĠwÃłiĠ":4444,"dÃłiĠyÇĴuĠ":4445,"shÄĵngĠhuÃ³":4446,"xÄ«ĠyÃ¡ngĠ":4447,"ĠĠĠxÃŃngĠzhÃ¨ngĠqÅ«ĠhuÃłĠ":4448,"ĠjiÄģĠshÃłngĠ":4449,"cÄģnĠjiÄģ":4450,"ec":4451,"ĠĠĠ2022":4452,"yuÃłnĠzhÇİngĠ":4453,"jÇĲĠyÇĶĠ":4454,"diÇİnĠdeĠ":4455,"ĠyÇĲĠhÃ²uĠ":4456,"guÄģnĠzhÃ²ngĠ":4457,"bÇĲĠyÃłĠ":4458,"ĠjÅ«nĠwÃ¨iĠ":4459,"mÃŃnĠdeĠ":4460,"shuÃ²ĠshÃ¬Ġ":4461,"ĠdÃ©ĠdeĠ":4462,"ĠĠĠU":4463,"ÄĵngĠlÃ¬Ġ":4464,"wÄĽiĠshÅ«ĠjÃ¬Ġ":4465,"zhÃ¬ĠzÃłiĠ":4466,"ĠyÃ¬ĠrÃ©nĠ":4467,"fÄĵngĠbÃłoĠ":4468,"ĠyuÃ¡nĠyÄ«nĠ":4469,"pÄ«ĠzhÇĶnĠ":4470,"dÄģoĠ":4471,"ĠbÃ¨i":4472,"ĠhÃ¡i":4473,"gĠ":4474,"dÇİoĠyÇĶĠ":4475,"dÅįngĠxÄ«Ġ":4476,"ĠxÄ«nĠwÃ©nĠ":4477,"ĠzhÃ¨ĠjiÄģngĠ":4478,"ĠwÃ¨iĠfÃºĠqÃŃĠyÃºĠ":4479,"bÇİoĠchÃŃĠ":4480,"liÃ¡nĠxÃ¬Ġ":4481,"ĠtÃŃĠ":4482,"xÃ¬nĠhÃłoĠ":4483,"22Ġ":4484,"jiÃ©ĠshÃ¹ĠhÃ²uĠ":4485,"rÃºĠhÃ©Ġ":4486,"cÃ¬ĠshÃ¬ĠjiÃ¨ĠdÃłĠzhÃłnĠ":4487,"Ġ7ĠyuÃ¨Ġ":4488,"chuÃłnĠ":4489,"rÃ¨nĠmÃ¬ng":4490,"shÃ²uĠshÄģngĠ":4491,"ĠshÃ¬ĠyÄ«ĠwÃ¨iĠ":4492,"tÇİoĠlÃ¹nĠ":4493,"zhÇİoĠ":4494,"fÄģĠchÅ«Ġ":4495,"xÃ¬ngĠzhÃ¬Ġ":4496,"nÃ¨iĠrÃ³ng":4497,"yÇİnĠchÃłngĠhuÃ¬Ġ":4498,"ĠjÄ«ĠdÅ«Ġ":4499,"49":4500,"ĠpÃŃng":4501,"tuÃ¬ĠyÃ¬Ġ":4502,"ĠshÃ¬ĠqÅ«Ġ":4503,"jÄ«ĠzhÃ¬Ġ":4504,"jiÄģĠhÃ©Ġ":4505,"yÃłĠdeĠ":4506,"ĠpÃŃĠ":4507,"ĠĠĠyÃ¬Ġ":4508,"ĠformulaĠ":4509,"suÃŃĠhÃ²uĠ":4510,"ĠjiÃłnĠchÃ©ngĠ":4511,"diÃłnĠtÃ¡iĠ":4512,"ĠmÃŃngĠchÄĵngĠ":4513,"wÃ¨iĠzhÃ¬Ġ":4514,"jiÃłoĠqÅ«Ġ":4515,"zhÃ¹ĠmÃŃngĠdeĠ":4516,"mÄĽngĠ":4517,"Ġ21Ġ":4518,"ĠtÇĲĠzhÇİngĠkÄĽĠdÃ¡Ġ":4519,"ĠrÃłngĠ":4520,"zhuÄģnĠjiÄģĠ":4521,"ĠbÅį":4522,"fÅ«ĠrÃ©nĠ":4523,"chÄģĠyÃ¬Ġ":4524,"ĠjiÃ©ĠguÇĴĠ":4525,"ĠrÃ¹Ġ":4526,"zÇĴngĠdÅ«Ġ":4527,"bÃ¬ĠyÃ¨ĠyÃºĠ":4528,"ĠdeĠyÄ«ĠzuÃ²Ġ":4529,"ĠzÃłiĠyÃºĠ":4530,"dÇĲĠdÃ¡Ġ":4531,"ĠdeĠqiÃ¡nĠ":4532,"GĠ":4533,"wÇİngĠlÃ¹Ġ":4534,"cÅ«nĠzhuÄģngĠ":4535,"Ġ12ĠyuÃ¨Ġ":4536,"nÃ©ngĠgÃ²u":4537,"ĠmÃŃnĠguÃ³Ġ":4538,"ĠkÃ¨ĠlÇĲĠ":4539,"ĠdÇİĠ":4540,"ĠbÃ¹ĠlÇĲĠ":4541,"ĠyÇĲĠxiÃł":4542,"zhÃłnĠzhÅįngĠ":4543,"ĠrÃ©nĠlÃ¨iĠ":4544,"fÄģĠdiÃłnĠ":4545,"Ġ11ĠyuÃ¨Ġ":4546,"lÃ¡iĠdÃłoĠ":4547,"ov":4548,"ĠĠĠ3":4549,"ĠĠĠ2017":4550,"bÃ¬ĠxÅ«":4551,"hÃ¡iĠziĠ":4552,"is":4553,"cuÃ²ĠshÄ«Ġ":4554,"pÇĶĠtÅįngĠ":4555,"qÄ«ĠzÇĲĠ":4556,"yÇĶĠzhÅįngĠ":4557,"enĠ":4558,"ĠzhÄ«ĠzhÅįngĠ":4559,"zÇĶĠchÃ©ngĠdeĠ":4560,"ĠyÃ¬ĠshÃ¹":4561,"ĠjiÃłnĠduÃ¬Ġ":4562,"ĠxuÃ©ĠxiÃło":4563,"fÇİĠdeĠ":4564,"ĠshÃŃĠrÃ¨nĠ":4565,"ĠyÄ«ĠshÄĵngĠ":4566,"ĠzhÃ¨ngĠcÃ¨Ġ":4567,"gÅ«ĠjÃ¬Ġ":4568,"ĠjÄ«ngĠguÃ²Ġ":4569,"tÃłiĠpÃŃngĠyÃ¡ngĠ":4570,"tÃ³ngĠyÃ¬Ġ":4571,"ĠÄĽrĠhÃ©Ġ":4572,"yÃ¡nĠgÃ©Ġ":4573,"guÇİngĠbÅį":4574,"chÅ«ĠbÇİnĠ":4575,"ĠwÃ¡ng":4576,"dÇİoĠshÃ¬Ġ":4577,"alĠ":4578,"sÃ¬ĠgÃ¨Ġ":4579,"ĠmÃ©ngĠ":4580,"ĠÄĽrĠtÃ¨Ġ":4581,"6ĠrÃ©nĠ":4582,"shÄĵngĠwÃ¨iĠ":4583,"chÃ©ngĠgÅįngĠ":4584,"gÃ²ngĠchÇİnĠdÇİng":4585,"ĠĠĠw":4586,"13Ġ":4587,"qÃ¬ĠchÄĵĠ":4588,"ĠshÃ¬ĠyÇĴuĠ":4589,"mÃŃngĠchÄĵngĠ":4590,"ĠshÄĵngĠchÇİnĠ":4591,"chÃ¡i":4592,"ĠtÅįngĠchÃ¡ngĠ":4593,"chÃ¨ĠxiÄģoĠ":4594,"8ĠrÃ©nĠ":4595,"leĠdÃłĠ":4596,"zhÃ¹ĠyÃºĠ":4597,"ĠdÃ©ĠyÇĲĠ":4598,"ĠdeĠshÃŃĠqÅ«ĠwÃ¨iĠ":4599,"fÄĽiĠ":4600,"ĠkÄĵ":4601,"yÄĽĠzÃłiĠ":4602,"gÃ¨ngĠjiÄģĠ":4603,"ĠshÃŃĠxiÃłnĠ":4604,"guÃłiĠ":4605,"ĠshÃłngĠhÇİi":4606,"nÇİiĠ":4607,"shÇİng":4608,"ĠĠĠin":4609,"xiÄģoĠshÃ²uĠ":4610,"23Ġ":4611,"ĠĠĠzhÃ¬Ġ":4612,"indow":4613,"ĠfÇİnĠ":4614,"jÃºĠzhÇİngĠ":4615,"ĠdeĠshÃŃĠjiÄģnĠ":4616,"lÃ¹ĠyÃ¬Ġ":4617,"ĠĠĠ2016":4618,"ĠwÃ¨iĠshÄĵngĠ":4619,"quÃ¨ĠdÃ¬ngĠ":4620,"yuÃ¨ĠtÃ¡iĠ":4621,"guÇİngĠxÄ«Ġ":4622,"hÄģĠÄĽrĠ":4623,"ĠrÃºĠguÇĴ":4624,"ĠqiÃ¡ngĠ":4625,"kuÃ²ĠdÃłĠ":4626,"dÄĵngĠlÃ¹Ġ":4627,"ĠhansĠ":4628,"yÃ¬ĠzhÅįngĠ":4629,"rÃ³ngĠyÃ¹Ġ":4630,"ĠpÃŃngĠtÃ¡iĠ":4631,"ĠtwĠ":4632,"ĠshÃ¬ĠyÇİnĠ":4633,"mÇĶĠqÄ«nĠ":4634,"zhÃ²ngĠdÃłĠ":4635,"dÃ²ngĠzuÃ²Ġ":4636,"zhÇĲĠzÃłiĠ":4637,"ĠyÃ¬nĠdÃ¹Ġ":4638,"cÃ¹nĠ":4639,"55":4640,"yuÃ¨ĠshÃŃĠ":4641,"ĠlÃŃngĠ":4642,"yÃ¨ĠhÃ²uĠ":4643,"zhÃ¨ĠjiÄģngĠ":4644,"ĠbÃ¬ngĠmÃ©iĠyÇĴuĠ":4645,"ĠjÇĲnĠguÇİn":4646,"pÃ²ĠhuÃłiĠ":4647,"ĠĠĠde":4648,"ĠjÄ«ĠgÃ²u":4649,"yÇĶĠhÃ©Ġ":4650,"ĠĠĠdeĠshÃŃĠ":4651,"jÃ¬nĠxÃŃng":4652,"rÃ¹ĠkÇĴuĠ":4653,"ĠhuÃ²ĠzhÄĽĠ":4654,"ĠbiÄģnĠ":4655,"wÃ¹ĠzhÇĴng":4656,"xÃ¹nĠliÃłn":4657,"sÄģĠ":4658,"bÄģĠxÄ«Ġ":4659,"ĠbÃ¹ĠkÄĽĠ":4660,"ĠwÃłnĠrÃ©nĠ":4661,"rÃ¹ĠqÄ«nĠ":4662,"cÄģnĠkÇİoĠ":4663,"tÄģngĠ":4664,"wÇİnĠshÃłngĠ":4665,"ĠyÄĽĠyÇĴuĠ":4666,"chÅ«ĠbÇİn":4667,"yÃłĠlÃ¬ĠshÄģn":4668,"lÃŃnĠdeĠ":4669,"bÄģĠlÃŃĠ":4670,"ĠcÇĲĠshÃŃĠ":4671,"ĠchÃ¡ng":4672,"fÃ¹ĠdeĠ":4673,"ĠguÃ³ĠwÃ¹Ġ":4674,"Ġ189":4675,"ĠgÅįngĠyÃ¨":4676,"ĠxuÃ©ĠxÃŃĠ":4677,"ĠmÃ¹ĠqiÃ¡n":4678,"ĠÄģĠÄĽrĠ":4679,"yuÃłnĠdeĠ":4680,"00ĠniÃ¡nĠ":4681,"xÅ«ĠqiÃºĠ":4682,"ĠzhÄ«ĠyuÃ¡nĠ":4683,"ï¼ı":4684,"ĠchÄĵĠ":4685,"rÇİoĠ":4686,"cuÃ¬Ġ":4687,"guÄģnĠzhÃ¹Ġ":4688,"ĠĠĠniÃ¡nĠ":4689,"xuÃ©ĠhÃ©Ġ":4690,"zhÃŃĠwÃ¨iĠ":4691,"zuÃ¬ĠchÅ«Ġ":4692,"sÇĶnĠshÄ«Ġ":4693,"ĠsÃłĠ":4694,"biÇİoĠxiÃłn":4695,"zhÃ¨ĠxiÄĵ":4696,"fÄģĠxiÃłnĠleĠ":4697,"hÃ©ngĠxÄ«ngĠ":4698,"ĠquÃ¨":4699,"kÃłnĠdÃłoĠ":4700,"fÃ¹ĠqÄ«nĠ":4701,"gÇİiĠbiÄģn":4702,"ĠjiÄģĠtÃŃngĠ":4703,"ĠyÇİnĠ":4704,"biÇİnĠ":4705,"fÄģĠshÄĵng":4706,"cĠ":4707,"ĠbÃ¬ngĠyÇĲĠ":4708,"yÃŃĠdÃ²ngĠ":4709,"zhÃłnĠdÃ¬Ġ":4710,"xiÅįngĠyÃ¡":4711,"ĠÑ":4712,"ĠĠĠ2014":4713,"huÃ¡ĠmÃŃnĠguÃ³Ġ":4714,"ĠgÇİi":4715,"ĠĠĠsuÇĴĠshÇĶĠdeĠshÄĽngĠjÃŃĠxuÇİnĠqÅ«ĠwÃ¨iĠ":4716,"ĠĠĠdeĠyÃ³uĠzhÃ¨ngĠbiÄģnĠmÇİĠwÃ¨iĠ":4717,"ĠĠĠyÇĶĠjiÄĵĠrÇİngĠdeĠshÃ¬ĠzhÃ¨nĠ":4718,"ĠĠĠyÃºĠshÃŃĠdeĠrÃ©nĠkÇĴuĠshÃ¹ĠliÃłngĠwÃ¨iĠrÃ©nĠ":4719,"ĠĠĠdeĠshÃŃĠqÅ«ĠwÃ¨iĠ":4720,"ction":4721,"zhuÄģngĠzhÃ¬Ġ":4722,"ĠcÃ©ngĠrÃ¨nĠ":4723,"7ĠrÃ©nĠ":4724,"Ġ6ĠyuÃ¨Ġ":4725,"ĠĠĠ2023":4726,"sÅ«ĠliÃ¡n":4727,"jÃ¬ĠhÃ©Ġ":4728,"orĠ":4729,"ĠzuÃ²ĠyÃ²ngĠ":4730,"ĠĠĠ2010ĠniÃ¡nĠ":4731,"mÃŃngĠyÃ¬Ġ":4732,"tÃºĠzhÅįngĠ":4733,"tÃ¡iĠbÄĽiĠ":4734,"fÄģĠdeĠ":4735,"ĠdÃ¬ĠqiÃºĠ":4736,"ĠzhÄ«ĠmÃŃngĠ":4737,"zÇĴngĠbÃ¹Ġ":4738,"ĠsÄ«ĠlÄģĠ":4739,"xiÄģngĠdÄģngĠ":4740,"shÃŃĠwÃ¨iĠ":4741,"rÃºĠcÇĲĠ":4742,"zÄ«ĠxÃ¹nĠ":4743,"wÃ©iĠdeĠ":4744,"ĠcÃŃĠ":4745,"ĠchuÃ¡nĠ":4746,"ĠĠĠjÄ«Ġ":4747,"duÅįĠniÃ¡nĠ":4748,"guÇİnĠlÇĲ":4749,"14Ġ":4750,"ĠshÃ¬ĠzhÇİngĠ":4751,"kÄģiĠfÃłng":4752,"jiÇİngĠxiÃłngĠ":4753,"jÃ¬nĠshÃ¬Ġ":4754,"ĠyÄ«ĠdÃłiĠ":4755,"ĠchÅ«ĠxiÃłnĠzÃłiĠ":4756,"ĠsÄ«ĠtÇİnĠ":4757,"zhÇĶĠchÃŃĠ":4758,"chÃłngĠpiÃłnĠ":4759,"xiÅįngĠyÃ¡ĠlÃ¬Ġ":4760,"zÃ¬ĠdÃ²ngĠ":4761,"wÄģĠ":4762,"ĠrÃ©nĠshÃ¹Ġ":4763,"ĠdÃłnĠtÄģĠ":4764,"tÃ¡iĠdeĠ":4765,"xÃ¹nĠsÃ¹Ġ":4766,"sÃłiĠdeĠ":4767,"ber":4768,"tÃŃĠshÄĵngĠ":4769,"fÄĵiĠjiÃłnĠzhÃ¬Ġ":4770,"shÃ¹ĠxuÃ©Ġ":4771,"jiÃłoĠwÃ©iĠ":4772,"ĠyÃºĠ197":4773,"ĠhkĠ":4774,"xÃ¬ĠjÃ¹Ġ":4775,"ĠgÃ¨ĠzhÇĴngĠ":4776,"Ġ5ĠyuÃ¨Ġ":4777,"100Ġ":4778,"ĠwÃ¨iĠhÃ©Ġ":4779,"ĠbÃ¬ngĠlÃ¬Ġ":4780,"xiÃłngĠmÃ¹":4781,"tuÄ«ĠdÃ²ngĠ":4782,"ĠchÃ©ngĠwÃ©iĠleĠ":4783,"niÇĶĠyuÄĵĠ":4784,"75":4785,"ĠyÃ¬ĠyuÃłnĠ":4786,"fÄģĠxÃŃng":4787,"ĠshÃ¬ĠzhÇĲĠ":4788,"tÃ¨ĠlÇĲĠ":4789,"kÃłngĠrÃ¬Ġ":4790,"ĠhÃ©ĠxÄ«nĠ":4791,"mÃŃnĠzhÃ²ngĠ":4792,"ĠtuÅįĠ":4793,"wÄĵiĠxiÃ©Ġ":4794,"ĠĠĠ2015":4795,"shÅįuĠlÃ¹Ġ":4796,"jiÃłoĠdeĠ":4797,"zhuÃłngĠkuÃłngĠ":4798,"zhÃłnĠdÃ²u":4799,"ĠjiÃ©ĠmÃ¹Ġ":4800,"zhÃ²uĠ":4801,"huÄģngĠ":4802,"lÃ¡nĠkÃ¨Ġ":4803,"ĠĠĠf":4804,"cÃ¡iĠzhÃ¨ngĠ":4805,"ĠniÃ¡nĠqÄ«ng":4806,"ĠzÃłiĠ19":4807,"mÃ¡ngĠ":4808,"wÃ¡ngĠdeĠ":4809,"cÃ¡nĠ":4810,"ĠjÃ¬ĠzÇİiĠ":4811,"sÃłĠkÃ¨Ġ":4812,"wÅįĠ":4813,"ĠqiÃ¡n":4814,"ĠĠĠ2013":4815,"ĠzhÅįngĠwÃ©nĠ":4816,"ĠrÃ©nĠmenĠ":4817,"Ġ2019":4818,"12ĠniÃ¡nĠ":4819,"suÄ«ĠrÃ¡nĠ":4820,"ĠhÃ©ĠbÃ¬ngĠ":4821,"jÃ¬nĠgÅįngĠ":4822,"gÄģoĠdÃ¹Ġ":4823,"qÇĲĠyÃ¬Ġ":4824,"Ġ2011":4825,"zhÃ²ngĠdiÇİnĠ":4826,"pÇİo":4827,"lÇľĠwÃ¨iĠ":4828,"shÃ©Ġ":4829,"leĠtÄģĠ":4830,"ĠĠĠzhÅįngĠguÃ³Ġ":4831,"zÄĵngĠzhÇİngĠ":4832,"ĠbÃ¹ĠduÃłnĠ":4833,"jÄ«ngĠshÃ©nĠ":4834,"ĠdÃ¡Ġ":4835,"yÄĽĠbÃ¨iĠ":4836,"ay":4837,"tou":4838,"ĠzhÅ«":4839,"lÃ¬ĠshÃ¬Ġ":4840,"ĠxÄ«ĠbÄģnĠyÃ¡":4841,"fÄĵiĠjiÃłnĠzhÃ¬ĠdÃ¬ĠqÅ«Ġ":4842,"ÄĽnĠ":4843,"ĠchÄĵĠzhÃłnĠ":4844,"tÃºĠshÅ«ĠguÇİnĠ":4845,"33":4846,"yÄĵĠ":4847,"ĠguÇİngĠ":4848,"dÅįuĠhuÃ¬Ġ":4849,"ĠjÃŃĠqÃŃ":4850,"ĠÅįuĠ":4851,"ĠwÃ©iĠqÃŃĠ":4852,"xÃ¬ĠtÇĴngĠdeĠ":4853,"rÃ¹nĠ":4854,"liÇİngĠrÃ©nĠ":4855,"hÇİiĠdÃłoĠ":4856,"yÃŃngĠyÃ¹nĠ":4857,"hÃºnĠ":4858,"ĠdÃłĠlÃ³uĠ":4859,"shÃłngĠshÅ«Ġ":4860,"ĠguÄ«Ġ":4861,"mÃŃnĠzÃº":4862,"ĠÃ©ĠluÃ³ĠsÄ«Ġ":4863,"ÃłoĠdÃ¬ĠlÃ¬Ġ":4864,"18Ġ":4865,"pÇĲĠ":4866,"ĠshÃ¬ĠjÃŃĠ":4867,"ĠhÃ©ĠzhÅįngĠ":4868,"ĠlÇľĠ":4869,"lÇĲngĠdÇİoĠrÃ©nĠ":4870,"jiÄģngĠxÄ«Ġ":4871,"liÇİngĠniÃ¡nĠ":4872,"jiÃ©ĠhÅ«nĠ":4873,"ĠshÄĵngĠhuÃ³":4874,"ĠzhÅįngĠguÃ³ĠgÃ²ngĠchÇİnĠdÇİngĠ":4875,"ĠyÄ«nĠÃ©rĠ":4876,"yÄ«nĠshÃ¬Ġ":4877,"tÃłiĠyÃ¡ng":4878,"mÇĴuĠxiÄĵĠ":4879,"ĠjÃ¬nĠrÃ¹":4880,"cÄģnĠjiÄģĠleĠ":4881,"ĠyÃ¡ng":4882,"yuÃ¨ĠzÃłiĠ":4883,"jiÃ©ĠkÃ¨Ġ":4884,"huÃłĠwÃ¨iĠ":4885,"ĠdeĠchÃ©ngĠyuÃ¡nĠ":4886,"AS":4887,"xÃ¬ĠbÄģo":4888,"ai":4889,"jÃ¹ĠdeĠ":4890,"ĠhÃ©ĠchÃ©ngĠ":4891,"ĠjÃ¬ĠsuÃłn":4892,"ĠCĠ":4893,"nÃłĠlÇĲĠ":4894,"zhÄĽnĠ":4895,"ĠchuÃłngĠ":4896,"ĠzÃłoĠchÃ©ngĠ":4897,"xiÃłoĠguÇĴĠ":4898,"diÃłoĠchÃ¡":4899,"Ġ4ĠyuÃ¨Ġ":4900,"zhÄģiĠ":4901,"ĠjÇĲn":4902,"yÇĲnĠfÄģĠ":4903,"shÄĵnĠwÃ¨iĠ":4904,"jÅ«ĠzhÃ¹Ġ":4905,"zhÃ¡Ġ":4906,"xiÃłĠjÃ¬ĠÃłoĠlÃŃnĠpÇĲĠkÃ¨ĠyÃ¹nĠdÃ²ngĠhuÃ¬Ġ":4907,"ĠquÃ¡nĠguÃ³Ġ":4908,"40Ġ":4909,"ĠzhÃ¨ngĠzhuÃłngĠ":4910,"nuÃ³Ġ":4911,"ĠÄģiĠ":4912,"suÃ¬ĠdÃłoĠ":4913,"yÃ²ngĠhÃ¹Ġ":4914,"shÃŃĠjiÄģnĠ":4915,"chÃłngĠpiÃłn":4916,"chÇİnĠshÄĵngĠdeĠ":4917,"esĠ":4918,"ĠruÃ²":4919,"ĠĠĠzhĠ":4920,"shuÅįĠmÃŃngĠ":4921,"jiÄģngĠsÅ«Ġ":4922,"ran":4923,"ĠlÇĲĠlÃ¹nĠ":4924,"9ĠrÃ©nĠ":4925,"ĠfÄģngĠ":4926,"ĠdÃłĠxÃŃngĠ":4927,"chÇİnĠpÇĲn":4928,"fÇİngĠwÃ¨nĠ":4929,"10ĠniÃ¡nĠ":4930,"ĠhuÃ²ĠdÃ©ĠleĠ":4931,"ĠgÄģnĠ":4932,"quÇİnĠ":4933,"zhÃŃĠdÃłoĠ":4934,"ĠzhÄ«ĠxiÃłĠ":4935,"ĠzuÃ²ĠpÇĲn":4936,"Ġ00Ġ":4937,"suÄ«ĠrÃ¡n":4938,"ĠzÃłiĠjiÄģĠ":4939,"ĠĠĠjiÄģĠzÃºĠ":4940,"lÃ¡nĠqiÃºĠ":4941,"yÅįuĠshÃ¬Ġ":4942,"ĠgÅįngĠrÃ©nĠ":4943,"pÇĲnĠpÃ¡iĠ":4944,"ĠdÃłĠduÅįĠ":4945,"zhÅįuĠdeĠ":4946,"jiÃ¨ĠdeĠ":4947,"ĠmÃłnĠ":4948,"guÃłĠ":4949,"huÃ¡ĠrÃ©nĠ":4950,"Ġ2008ĠniÃ¡nĠ":4951,"jÃ¬ĠshÃŃĠ":4952,"ĠlÃŃĠ":4953,"Ġ2005ĠniÃ¡nĠ":4954,"xiÇİnĠdeĠ":4955,"zhÃłnĠdÃ²uĠ":4956,"ÃłoĠyÃ¹nĠhuÃ¬Ġ":4957,"ĠxÇĶĠduÅįĠ":4958,"Ġ2011ĠniÃ¡nĠ":4959,"ĠshÃ¬ĠrÃ©nĠ":4960,"sÃ¹ĠdeĠ":4961,"ĠhÃ²u":4962,"ĠshÃ¬ĠzhÃ¨n":4963,"ĠyuÃ¨ĠnÃ¡nĠ":4964,"ĠjÃŃĠlÃ¬Ġ":4965,"ĠyÇĴuĠshÃŃĠ":4966,"bÃłoĠdÇİoĠ":4967,"hÃ¡nĠshÃ¹Ġ":4968,"qÇĶĠdÃ©":4969,"jÃ¬nĠrÃ¹":4970,"ÃłoĠmÃ©nĠ":4971,"yÇĶnĠxÇĶĠ":4972,"ĠbiÃłn":4973,"dÃ¬ngĠleĠ":4974,"ĠdÃłnĠyÃ³uĠyÃºĠ":4975,"xiÇİoĠshuÅį":4976,"av":4977,"wÇĶĠzhuÄģngĠ":4978,"ĠshÃ¬ĠwÃ¨iĠleĠ":4979,"tiÃ¡oĠzhÄĽngĠ":4980,"mÇİĠsÄ«Ġ":4981,"xÃŃĠwÃ¨iĠ":4982,"ĠxÄ«ĠlÃł":4983,"jÃ¹ĠlÃŃĠ":4984,"huÃŃĠyÃ¬ngĠ":4985,"ĠyuÃ¨ĠtÃ¡iĠ":4986,"mÄĽiĠshÃ¹Ġ":4987,"shÃºĠ":4988,"zhÅįngĠwÃ¨iĠ":4989,"yÇĴuĠbÃ¹Ġ":4990,"yuÃ¡nĠzÃłiĠ":4991,"chuÃ¡ng":4992,"mÃ¬ngĠlÃ¬ngĠ":4993,"ĠshÃ¨ng":4994,"jiÄģĠzhÅįngĠ":4995,"jiÃłnĠshÃ¨Ġ":4996,"zhÄĵnĠshÃŃĠ":4997,"wÃ©nĠzÃ¬Ġ":4998,"ĠdÃ¬ĠwÇĶĠ":4999,"zhÅįngĠhuÃ¡ĠrÃ©nĠmÃŃnĠgÃ²ngĠhÃ©ĠguÃ³Ġ":5000,"xuÃ©ĠshÃ¹Ġ":5001,"65":5002,"ĠxiÇİng":5003,"yÃ¬nĠdÃ¬Ġ":5004,"jiÃłoĠliÃłnĠ":5005,"xÄ«ngĠqÄ«Ġ":5006,"ĠĠĠand":5007,"jÄ«nĠdeĠ":5008,"yÃŃĠchÇİnĠ":5009,"gÇĴngĠ":5010,"fÄĵiĠlÇľĠ":5011,"ĠdeĠgÅįngĠzuÃ²Ġ":5012,"34":5013,"ĠzhÄ«ĠhÃ²u":5014,"2020ĠniÃ¡nĠmÄĽiĠguÃ³ĠrÃ©nĠkÇĴuĠpÇĶĠchÃ¡ĠdeĠshÃ¹ĠjÃ¹Ġ":5015,"chuÃ¡ngĠ":5016,"jÇĶĠxÃŃng":5017,"ali":5018,"fÃ¡ngĠyÃ¹Ġ":5019,"yÃŃĠmÃŃnĠ":5020,"ĠĠĠ2025":5021,"qÅ«ĠyÃ¹":5022,"ĠzhÅįuĠniÃ¡nĠ":5023,"shÃ¹ĠzÃ¬Ġ":5024,"liÃ¨ĠbiÇİoĠ":5025,"tÃŃĠgÄģoĠ":5026,"ĠshÃ¬ĠwÄĵiĠ":5027,"ĠlÃ¡iĠzÃ¬Ġ":5028,"ĠxiÃłoĠ":5029,"ĠwÇİngĠ":5030,"ĠrÃ¨nĠwÃ¹Ġ":5031,"--":5032,"ĠxiÃłnĠyÃºĠ":5033,"jÄ«ĠchÇİngĠ":5034,"yÇĲĠlÃ¡iĠ":5035,"leĠtÄģĠdeĠ":5036,"huÃ¬ĠyuÃ¡nĠ":5037,"huÃłĠjiÄģĠ":5038,"wÇİĠÄĽrĠ":5039,"jÃ¬ĠlÃ¹Ġ":5040,"ĠjÄ«ĠguÄģnĠ":5041,"zÃ¨ngĠ":5042,"dÄĽngĠwÃ¨iĠ":5043,"dÅ«ĠshÃ¬Ġ":5044,"ĠshÃŃĠyÄ«Ġ":5045,"leĠyÃŃĠgÃ¨Ġ":5046,"ate":5047,"chÅįuĠ":5048,"shÅ«ĠdeĠ":5049,"ĠĠĠIn":5050,"shÄģnĠmÃłi":5051,"ĠshÃŃĠqÄ«":5052,"wÇĶĠtÃ¡iĠ":5053,"yÄģoĠqÇĲngĠ":5054,"jiÄĵĠjÃŃĠ":5055,"duÃłnĠdeĠ":5056,"shÄĵnĠqÇĲngĠ":5057,"liÇİngĠzhÇĴngĠ":5058,"ĠzuÇĴĠ":5059,"ĠĠĠzÇİoĠniÃ¡nĠ":5060,"kÃ¨ĠlÇĲĠ":5061,"ĠhÃ©ĠxÄ«Ġ":5062,"ĠrÃ¬ĠjÅ«nĠ":5063,"tuÃ³":5064,"zÇĶĠjiÃłnĠ":5065,"der":5066,"ÇİiĠ":5067,"jÄ«ngĠlÇĲĠ":5068,"yÃ¡nĠdeĠ":5069,"shÃ©nĠjÄ«ngĠ":5070,"ĠhuÃ¡ng":5071,"dÅįngĠjÃ¬Ġ":5072,"yÃŃngĠdeĠ":5073,"huÄģĠyuÃ¡nĠ":5074,"ĠjiÄģĠrÃ¹":5075,"shÇĴuĠdÅ«Ġ":5076,"tÄ«Ġ":5077,"yuÄĵĠyÇĴuĠ":5078,"shÄĵngĠjÃŃĠ":5079,"miÃłnĠduÃ¬Ġ":5080,"xiÃłĠyÄ«Ġ":5081,"ame":5082,"um":5083,"ĠqÄ«":5084,"Ġ2018":5085,"ĠlÃ¬ĠshÇĲ":5086,"chÃ¨nĠ":5087,"ĠshÃ¨ĠjÃŃĠ":5088,"ĠhÃ©ĠlÃ¡nĠ":5089,"ĠzhÃ¬ĠshÃŃĠ":5090,"gÄģoĠdÄĽngĠ":5091,"fÃ¹ĠjÃ¬nĠ":5092,"ĠzhÃ¬ĠlÃ¬Ġ":5093,"ĠshÃ¬ĠdÃłĠ":5094,"ĠsuÇĴĠyÇĲ":5095,"yuÃ¡nĠjÃŃĠ":5096,"mÇĲĠdeĠ":5097,"quÃ¡nĠmiÃłnĠ":5098,"zÄ«ĠjÄ«nĠ":5099,"ĠzÃ¬ĠjÇĲĠdeĠ":5100,"guÄģnĠxÃ¬":5101,"fÄĽnĠ":5102,"jÄ«ngĠchÃ¡ngĠ":5103,"mÄĽiĠguÃ³ĠdeĠ":5104,"wÃ¡nĠquÃ¡n":5105,"lÇĲngĠtÇĶĠ":5106,"Ġ3ĠyuÃ¨Ġ":5107,"ÄģiĠjÃŃĠ":5108,"ĠzhÃ¨nĠ":5109,"chÄĵngĠzuÃ²Ġ":5110,"ĠrÃ©nĠmÃŃn":5111,"ĠmÃŃngĠchÃ¡oĠzhÃ¨ngĠzhÃ¬ĠrÃ©nĠwÃ¹Ġ":5112,"ĠshÃ²u":5113,"ĠrÃ©nĠlÃ¨i":5114,"jiÃłoĠxuÃ©Ġ":5115,"ĠxÃº":5116,"ĠzhÅįngĠdeĠ":5117,"ĠĠĠxÄ«nĠ":5118,"ĠzÃłiĠxÄ«Ġ":5119,"yÃ²ngĠzuÃ²Ġ":5120,"jiÇĶĠdiÃłnĠ":5121,"ĠwÇĴĠmenĠ":5122,"ĠĠĠ2024":5123,"kuÃ¡ngĠ":5124,"ĠjÃ¬ĠzhÄĽĠ":5125,"ĠshÃ¬ĠyÄ«ĠzhÇĴng":5126,"68":5127,"wÃ©nĠxiÃłnĠ":5128,"ĠxiÄģngĠguÄģnĠ":5129,"cÄģnĠmÃ³u":5130,"ho":5131,"lÇĲĠlÃ¹nĠ":5132,"zhÃ¨ngĠmÃŃngĠ":5133,"nÇĶĠlÃ¬Ġ":5134,"ĠyuÃ¡nĠmÃŃngĠ":5135,"lÃ¹ĠjÅ«n":5136,"ĠzhÅįngĠyÃºĠ":5137,"ĠjÄ«ĠchÄĵĠ":5138,"ĠniÃ¡nĠdÃłi":5139,"dÃ²ngĠwÃ¹":5140,"biÄģnĠhÃłoĠ":5141,"ĠxiÃłnĠhÃ©Ġ":5142,"ĠĠĠhÃ²uĠ":5143,"guÄ«ĠzÃ©Ġ":5144,"ĠjiÄģoĠ":5145,"ĠĠĠyÃ³uĠ":5146,"ĠĠĠtÄģĠ":5147,"ĠyÃ¬ĠyÃ¬Ġ":5148,"ĠjÃ¬nĠxÃŃng":5149,"ĠguÃ³ĠhuÃ¬Ġ":5150,"ĠgÅįngĠhuÃ¬Ġ":5151,"ĠyuÃ¡nĠgÅįngĠ":5152,"fĠ":5153,"pÄģiĠ":5154,"qiÃłĠ":5155,"ĠchÃ©ngĠxiÃłnĠ":5156,"nÃ¨iĠlÃ¹Ġ":5157,"qÃ¬ĠxiÃłngĠ":5158,"ĠnÃ¡nĠzhÃ¬Ġ":5159,"mÄģĠ":5160,"zhÇİoĠdÃłoĠ":5161,"ĠgÅįngĠchÇİngĠ":5162,"wÃ¡ngĠchÃ¡o":5163,"lÇļĠxÃŃngĠ":5164,"ĠfÃ¹ĠzÃ©":5165,"ĠdÃ¬ĠyÄ«ĠcÃ¬Ġ":5166,"wÄĵiĠjÄ«Ġ":5167,"ĠshÃ¬ĠhÃ²uĠ":5168,"ĠzhÄģo":5169,"yÇĴuĠzÃłiĠ":5170,"25ĠniÃ¡nĠ":5171,"jiÃłoĠshÄ«Ġ":5172,"bÇİoĠliÃºĠ":5173,"est":5174,"ĠhÃ¡nĠguÃ³Ġ":5175,"tÃłiĠrÃ©nĠ":5176,"ĠhÃ©ĠgÅįngĠ":5177,"zhÇĶĠchÃŃ":5178,"wÃ©nĠzhÄģngĠ":5179,"wÃ©nĠyÃ¬Ġ":5180,"zhÄ«ĠjiÄģnĠ":5181,"bÃ¨iĠshÃ¬ĠwÃ¨iĠ":5182,"tÃŃĠdÃłoĠ":5183,"xiÃłĠlÃ¬ng":5184,"fÇİĠÃłnĠ":5185,"ĠyÃ¬ĠfÄģngĠmiÃłnĠ":5186,"ĠmÄĽiĠniÃ¡nĠ":5187,"bÇİoĠchÃŃ":5188,"eg":5189,"ĠzhÃ¨ng":5190,"tiÄģnĠdeĠ":5191,"ĠyÃºĠ194":5192,"cÃ¡iĠliÃłoĠ":5193,"kÄĽĠyÇĲĠzÃłiĠ":5194,"gÃ©ĠwÃ¨iĠ":5195,"ĠniÃ¡nĠshÃ¬ĠjiÃ¨Ġ":5196,"qÇĲĠyÃ¨":5197,"dÇĶĠ":5198,"jÄ«nĠshÇĶĠ":5199,"kÅįngĠzhÅįngĠ":5200,"zhÃ¹ĠlÇĲĠ":5201,"kÇĴngĠbÃ¹Ġ":5202,"ĠguÃ³ĠfÃ¡ng":5203,"dÅįngĠnÃ¡nĠbÃ¹Ġ":5204,"biÇİoĠmiÃłnĠ":5205,"bÃ¡iĠsÃ¨Ġ":5206,"shÇĴuĠjÄ«Ġ":5207,"tÅįngĠdÃłoĠ":5208,"ĠshÃŃĠÃ¨rĠ":5209,"qÃŃĠzhÅįngĠyÄ«ĠzhÇĴngĠ":5210,"zuÃ²ĠwÃ¨iĠ":5211,"17Ġ":5212,"dÃłiĠlÇĲĠ":5213,"ĠbÃ¹ĠmÃ©n":5214,"lÃ¬ĠwÃ¨iĠ":5215,"shÅ«ĠjÃŃĠ":5216,"ĠÃ©rĠchÃ©ngĠ":5217,"ang":5218,"ĠlÇĲ":5219,"zuÃ²ĠyÃ²ngĠ":5220,"gÃ¹ĠwÃ¨nĠ":5221,"yÇĲĠxiÃłĠ":5222,"juÃłnĠ":5223,"bÃ¡Ġ":5224,"dÃłĠlÃ¹ĠdeĠ":5225,"xiÄģngĠguÄģn":5226,"yÃŃĠzhÇĲĠ":5227,"yÇİnĠyÃ¬Ġ":5228,"Ġ2016":5229,"ĠzÃłiĠ198":5230,"jÃ¬nĠyÃŃĠbÃ¹Ġ":5231,"ĠzuÃ²ĠwÃ©i":5232,"yÇĲnĠqÇĲĠ":5233,"jÄ«ĠhÃ©Ġ":5234,"bÅįĠlÃ¡n":5235,"jÃ¬ngĠdeĠ":5236,"ĠdÃłoĠdÃ¡Ġ":5237,"wÇĴĠmen":5238,"lÃ¡oĠdÃ²ngĠ":5239,"ĠwÃ¹Ġ":5240,"shÄ«ĠfÃłn":5241,"tÃºnĠ":5242,"ST":5243,"ĠÃ©Ġ":5244,"ĠzÃłiĠwÃ¨iĠ":5245,"tÅįngĠchÄĵĠ":5246,"zhÇĶĠdeĠ":5247,"neĠ":5248,"ĠzÃłiĠ18":5249,"ĠyÇĴuĠjÄ«Ġ":5250,"ĠfÃ¹ĠqÄ«nĠ":5251,"Ġ2001ĠniÃ¡nĠrÃ©nĠkÇĴuĠ":5252,"ĠhÃ©ĠshÃŃĠ":5253,"dÃłoĠlÃ¹Ġ":5254,"300":5255,"huÃ¬ĠshÃ¬Ġ":5256,"ĠbÄĽiĠqÇĲĠ":5257,"Ġ188":5258,"chÃ©ngĠniÃ¡nĠ":5259,"sÇĲĠhÃ²uĠ":5260,"ĠyÄ«ngĠyÇĶĠ":5261,"duÅįĠrÃ©nĠ":5262,"chÃ¡ngĠdeĠ":5263,"zhÃłoĠkÄģiĠ":5264,"sÄ«ĠlÃ¬Ġ":5265,"ĠzhÅįngĠguÃ³ĠdÃłĠlÃ¹Ġ":5266,"cÃ©ngĠjÄ«ng":5267,"yÃłĠlÃ¬ĠshÄģnĠdÃłĠ":5268,"28ĠniÃ¡nĠ":5269,"ĠyÇĲĠbÃ¨iĠ":5270,"44":5271,"Ġ2007ĠniÃ¡nĠ":5272,"zÃ©ĠwÃ¨iĠ":5273,"ĠpÃŃngĠmiÃłnĠ":5274,"jÅ«ĠmÃŃn":5275,"ĠxuÄģnĠbÃ¹Ġ":5276,"zhÇĶĠlÃ¬Ġ":5277,"liÃºĠzÃłiĠ":5278,"nÃŃĠkÃ¨Ġ":5279,"ĠtÄģĠwÃ¨iĠ":5280,"ĠtÄģĠyÄĽĠ":5281,"tÃ¨ĠshÅ«Ġ":5282,"Ġà":5283,"ĠbÃ¹ĠbÃ¹Ġ":5284,"ĠzhÄ«ĠjiÄģn":5285,"STĠ":5286,"dÃłĠwÃ¨iĠ":5287,"yÇĲnĠqÇĲ":5288,"ĠxiÃłnĠdeĠyÃŃĠgÃ¨Ġ":5289,"kuÄģngĠ":5290,"yÃ¹nĠzuÃ²Ġ":5291,"dÃ¬ĠÃ¨rĠ":5292,"yÇĲngĠpiÃłn":5293,"wÃºĠfÇİ":5294,"lÇľĠshÄ«Ġ":5295,"AR":5296,"jiÄģoĠhuÃ¬Ġ":5297,"shÇĴuĠgÃ¨Ġ":5298,"chÄĵĠdeĠ":5299,"tuÃ¬ĠchÅ«Ġ":5300,"ĠÃ©rĠyÃ¡nĠ":5301,"ĠxiÃłnĠdeĠyÃŃĠgÃ¨":5302,"500":5303,"ĠsÄ«ĠtÃ¨":5304,"ĠxÄ«ĠwÃłng":5305,"yÃºĠzÃłiĠ":5306,"ĠkÃ¨ĠchÃ©ngĠ":5307,"jÇĲĠgÃ¨Ġ":5308,"ĠyÇĴuĠyÃ¬Ġ":5309,"yÃłoĠwÃ¹Ġ":5310,"xÄ«nĠjiÄģĠpÅį":5311,"32":5312,"jÄ«nĠhuÃ¬Ġ":5313,"fÄĵiĠzhÅįuĠ":5314,"bÅįĠlÃ¡nĠ":5315,"ĠlÇİoĠ":5316,"Ġ10Ġ":5317,"tuÃ³Ġ":5318,"ĠdeĠjiÄģĠ":5319,"ĠlÃ©iĠ":5320,"ĠĠĠxiÃłĠ":5321,"biÃłnĠdÃ©Ġ":5322,"ĠshÃ¬ĠjiÄģĠ":5323,"ĠxÄ«ĠsÄ«Ġ":5324,"jiÄģngĠhuÃ¬Ġ":5325,"ĠchÃ©ngĠxÃ¹Ġ":5326,"guÇİngĠgÃłoĠ":5327,"ãĥ»":5328,"ĠdÅįngĠnÃ¡nĠ":5329,"ĠÃ©rĠshuÇĲĠyÃ¹ĠmiÃłnĠjÄ«ĠwÃ¨iĠ0":5330,"os":5331,"ÃĹ":5332,"ĠqiÃ¡oĠ":5333,"ĠzhÃ¬ĠliÃ¡oĠ":5334,"ĠguÃ³ĠjiÄģĠdeĠ":5335,"jÄ«nĠpÃ¡iĠ":5336,"guÃ²ĠqÃ¹Ġ":5337,"HĠ":5338,"ĠchÃ¡oĠ":5339,"dÃłĠdÃ¬Ġ":5340,"qiÄĵĠ":5341,"yÃłĠzhÅįu":5342,"biÄģnĠhÃło":5343,"ĠshÃ¬ĠyÇĶĠ":5344,"ĠhÃ©ĠqÃŃĠtÄģĠ":5345,"dÅįngĠbÄĽiĠbÃ¹Ġ":5346,"58":5347,"sÃłiĠzhÅįngĠ":5348,"ĠdeĠzhÃ¬Ġ":5349,"ĠĠĠ2012":5350,"mÃŃngĠshÃ¬Ġ":5351,"ĠzhÄ«ĠwÃ¨iĠ":5352,"ĠbÃ¬ngĠjiÄģngĠ":5353,"ĠĠĠ1":5354,"kÄģngĠxÄ«Ġ":5355,"ĠyÃºĠ196":5356,"ÃłoĠdÃłĠlÃ¬ĠyÃłĠ":5357,"ĠchÄĵngĠwÃ©iĠ":5358,"60Ġ":5359,"ĠbÃ¹ĠdÃ©":5360,"zhÃŃĠmÃŃn":5361,"gÃ²uĠzÃłoĠ":5362,"huÄģnĠyÃŃngĠ":5363,"bÄĽnĠdÃ¬Ġ":5364,"biÄģnĠjÃ¹Ġ":5365,"ĠyÃºĠlÃ¨Ġ":5366,"zÃ¬ĠyÃ³u":5367,"zhuÄģngĠjiÇİĠ":5368,"dÄģngĠshÃŃĠdeĠ":5369,"ĠchÃ©ngĠrÃ¨nĠ":5370,"ĠfÇİn":5371,"Ġ2021":5372,"ev":5373,"suÇĴĠzÃłiĠ":5374,"fÃłngĠqÃ¬Ġ":5375,"jÃ¹ĠhÃ©Ġ":5376,"24ĠniÃ¡nĠ":5377,"ĠjÃ¬nĠxÃŃngĠleĠ":5378,"ĠhÃ³ng":5379,"ĠliÃ¡ngĠ":5380,"fÃºĠyÃ¬Ġ":5381,"zhuÄģngĠshÃ¬Ġ":5382,"nÇļĠzÇĲ":5383,"huÃ²ĠdÃ©ĠleĠ":5384,"ĠqiÃºĠyuÃ¡nĠ":5385,"ĠĠĠchÃ©ngĠ":5386,"per":5387,"ĠbÇĲ":5388,"ĠdÃºĠ":5389,"ĠjiÃłnĠzÃłoĠ":5390,"ĠÃ©rĠgÄģiĠdÃ¬Ġ":5391,"mÃ¹ĠbiÄģo":5392,"ĠnÇļĠxÃ¬ngĠ":5393,"ĠhÄĽnĠ":5394,"ĠchÃ¬Ġ":5395,"jiÃłnĠyÃ¬Ġ":5396,"xiÄģnĠshÄĵngĠ":5397,"ĠbÃ¹ĠlÄģĠ":5398,"yÃ¬ĠdÃłĠlÃ¬Ġ":5399,"yÇİnĠchÃłngĠ":5400,"ĠsĠĠĠ":5401,"fÇİĠyuÃłn":5402,"ĠfÃ©ngĠ":5403,"wÃ¡ngĠchÃ¡oĠ":5404,"ĠwÃ¨iĠyÇĴuĠ":5405,"biÇİoĠdÃ¡":5406,"mÃ¡oĠzÃ©Ġ":5407,"xiÃłoĠdeĠ":5408,"sÃłĠsÄ«Ġ":5409,"ĠyÄ«ĠjÃŃĠ":5410,"ĠbÃ¬ngĠyÇĶĠ":5411,"ĠchÃ¡":5412,"ĠguÄģnĠyÃºĠ":5413,"ĠdÃłĠlÃ¹Ġ":5414,"pÃºĠtÃ¡oĠyÃ¡":5415,"jiÄģĠrÃ¹":5416,"luÃ³ĠdÃ¬Ġ":5417,"ĠwÃ¨iĠlÃ¡iĠ":5418,"nÃ¡nĠjÄ«ngĠ":5419,"ed":5420,"ĠĠĠcÃ³ngĠ":5421,"lÃ¬ĠzÃłiĠ":5422,"qÇĲngĠqiÃºĠ":5423,"jÇĲnĠjÃŃĠ":5424,"ĠjÃ¬nĠyÃŃĠbÃ¹Ġ":5425,"shÅįuĠshÃ¬Ġ":5426,"ĠjiÄģĠzÃºĠ":5427,"quÃ¨ĠrÃ¨nĠ":5428,"ĠjÃ¬nĠgÅįngĠ":5429,"em":5430,"Ġ000Ġ":5431,"sÃłĠÄĽrĠ":5432,"jÃ¬ĠxÃ¹Ġ":5433,"xÄ«ĠbÄģnĠyÃ¡":5434,"zhÄĽĠzÃłiĠ":5435,"guÄģnĠbÃ¬Ġ":5436,"piÃłoĠfÃ¡ngĠ":5437,"ĠĠĠi":5438,"tÇİnĠkÃ¨Ġ":5439,"cÃ¬ĠshÇĲĠ":5440,"bÃ³ĠwÃ¹ĠguÇİn":5441,"ace":5442,"lÃłnĠ":5443,"ĠdeĠshÄĵngĠ":5444,"ĠshÃ¬ĠfÇĴu":5445,"Ġ20":5446,"ĠyÃ¬ĠmÄĽiĠyuÃ¡nĠ":5447,"ĠjÃ¬ĠshÃ¹":5448,"ĠjÄ«ĠhÅ«Ġ":5449,"jÇĲngĠfÄģngĠ":5450,"huÇĴĠshÄģnĠ":5451,"yÄĽĠhuÃ¬Ġ":5452,"ĠyuÃ¨ĠtuÃ¡nĠ":5453,"wÃłnĠrÃ©nĠ":5454,"ĠtÄģĠmenĠzÃłiĠ":5455,"ĠtÃ¨ĠbiÃ©ĠshÃ¬Ġ":5456,"huÇĴĠjiÃłnĠ":5457,"mÃ²ĠxÄ«ĠgÄĵĠ":5458,"ĠsÄ«ĠkÃ¨Ġ":5459,"bÇĲĠlÃ¬ĠshÃŃĠ":5460,"biÄģnĠdeĠ":5461,"zhÄģnĠmÇĶĠsÄ«Ġ":5462,"dÄģ":5463,"âĶ":5464,"juÃ©ĠduÃ¬Ġ":5465,"mÃŃnĠzhÇĶĠdÇİngĠ":5466,"tÃłiĠpÃŃngĠyÃ¡ng":5467,"ĠĠĠs":5468,"tÃ³ngĠniÃ¡nĠ":5469,"ĠshÃ¬ĠzhÃ¨ngĠ":5470,"ĠchÅ«ĠshÄĵngĠ":5471,"shÄĵnĠtÇĲĠ":5472,"ĠqÄ«ĠxÄ«ĠzÃłiĠ":5473,"ĠhuÃŃĠ":5474,"ĠshÃ¬ĠrÃ¬ĠbÄĽnĠ":5475,"ĠyÇĲĠyÇĴuĠ":5476,"zhÇĴngĠzÃºĠ":5477,"kÇİoĠlÇľ":5478,"pÇİoĠ":5479,"ĠguÄģn":5480,"ĠcÄģnĠ":5481,"shÃłngĠwÇĶĠ":5482,"ĠzhÃłnĠdÃ²uĠ":5483,"gÇĶĠfÃ¨n":5484,"guÇİngĠdÅįngĠshÄĽngĠ":5485,"ĠdeĠzhÃ¨ngĠ":5486,"ĠbÃ¨iĠrÃ¨nĠwÃ©iĠshÃ¬Ġ":5487,"ĠfÃ¡ngĠ":5488,"Ġ30Ġ":5489,"ĠĠĠjiÃ©ĠzhÃ¬Ġ":5490,"nÃ¨iĠyÇĴuĠ":5491,"wÃ¡nĠgÅįngĠ":5492,"ĠzhÃ¬ĠchÃ©ngĠ":5493,"mÃŃnĠjiÄģnĠ":5494,"ĠdÃłĠyuÄĵĠ":5495,"ĠyuÃ¡nĠbÄĽnĠ":5496,"sÄĵnĠlÃŃnĠ":5497,"chÇİngĠhÃ©Ġ":5498,"15ĠniÃ¡nĠ":5499,"ĠzhÄ«ĠziĠ":5500,"fÃ¹ĠqÄ«n":5501,"tÃ¨ĠsÃ¨Ġ":5502,"bÄģĠlÃŃ":5503,"ĠzÃłiĠqÃŃĠ":5504,"hÃºĠbÄĽiĠ":5505,"19ĠniÃ¡nĠ":5506,"gÃ¨ngĠduÅįĠ":5507,"gÄģoĠsÃ¹Ġ":5508,"ĠAĠ":5509,"og":5510,"Ã¨rĠyuÃ¨Ġ":5511,"ĠzhÄ«ĠdeĠ":5512,"ĠdÃłĠdÃłoĠ":5513,"ÄģnĠpÃ¡iĠ":5514,"qÃŃngĠbÃłoĠ":5515,"xÃŃĠxÃ¬ng":5516,"ĠkuÄģn":5517,"ĠwÄĽiĠ":5518,"ĠrÃ©nĠmen":5519,"ĠsÄ«ĠtÇİn":5520,"yÃ²ngĠtÃºĠ":5521,"mÃ¬ĠmÃ¬Ġ":5522,"dÄĵngĠshÃłngĠ":5523,"ĠxiÃłnĠchÇİngĠ":5524,"dÃłiĠbiÇİoĠdÃłĠhuÃ¬Ġ":5525,"ĠĠĠzÄĵngĠ":5526,"wÃłiĠbÃ¹Ġ":5527,"18ĠniÃ¡nĠ":5528,"ĠrÃ¬ĠjÅ«n":5529,"ĠfÃ¹ĠqÄ«n":5530,"kÇİoĠlÇľĠ":5531,"ĠyÅįngĠyÇĴuĠ":5532,"ĠshÃŃĠyÃłnĠ":5533,"jÄ«ĠchÇĶĠ":5534,"mÃ©ngĠgÇĶ":5535,"xiÃłoĠyuÃ¡nĠ":5536,"hÇİiĠÃłnĠ":5537,"pÄģiĠshÃ¨":5538,"Ã©ĠluÃ³ĠsÄ«":5539,"ĠyÇĴuĠxiÃłnĠ":5540,"ĠyuÄĵĠhÃłnĠ":5541,"lÄĽng":5542,"ï¼ħ":5543,"ĠxiÅ«Ġ":5544,"Ġ2013ĠniÃ¡nĠ":5545,"ĠyuÃ¡nĠsÃ¹Ġ":5546,"mÃ¡":5547,"Ġ2015":5548,"ĠshÃ¬ĠyÃ¨Ġ":5549,"da":5550,"nÃ¡nĠyÇĲĠ":5551,"tÃ¡iĠfÄĵngĠ":5552,"ĠdÃłĠduÅįĠshÃ¹Ġ":5553,"ĠxiÃł":5554,"hÇİn":5555,"lÃŃĠmÇĲĠ":5556,"zhuÄģngĠbÃ¨iĠ":5557,"zuÃ²ĠzhÃłnĠ":5558,"tiÄģnĠjÄ«nĠ":5559,"mÄĽiĠgÃ¨Ġ":5560,"maĠ":5561,"ĠtÄģĠyÃºĠ":5562,"xÃ¬ngĠqÃ¹Ġ":5563,"jiÄģoĠliÃºĠ":5564,"tÇĶĠÄĽrĠqÃŃĠ":5565,"qiÄģnĠzhÃ¬Ġ":5566,"âĶĢ":5567,"ĠtÇĶĠ":5568,"chÇİngĠdÃ¬Ġ":5569,"27ĠniÃ¡nĠ":5570,"tiÄģnĠjÄ«n":5571,"lÃ³ngĠjiÄģngĠ":5572,"ĠyÄ«ngĠwÃ©nĠ":5573,"qiÃ³ngĠ":5574,"ĠwÃ¨iĠxÄ«ngĠ":5575,"xiÄģngĠdÄģng":5576,"dÇİoĠdÃłnĠ":5577,"ĠjÄ«ĠbÃłi":5578,"ĠqÄ«ngĠchÃ¡oĠ":5579,"ĠgÇİngĠ":5580,"ĠjÄ«ngĠjÃ¬Ġ":5581,"nÃ©ngĠzÃłiĠ":5582,"21ĠniÃ¡nĠ":5583,"ĠjÃŃĠbÄĽiĠ":5584,"ĠyÇĴuĠxiÄĵĠ":5585,"zhÃłnĠlÇĲngĠ":5586,"ĠchÅ«ĠlÃ¡iĠ":5587,"bÅįĠfÃłngĠ":5588,"ĠxiÃłng":5589,"ĠwÃłnĠmÄĽiĠyuÃ¡nĠ":5590,"pÃ¬nĠ":5591,"bÃłnĠlÇĲĠ":5592,"22ĠniÃ¡nĠ":5593,"ĠzhÄ«ĠdÃłoĠ":5594,"Ġ2006ĠniÃ¡nĠ":5595,"ĠbÃ¹ĠzÃºĠ":5596,"ĠtÄģĠhÃ¡iĠ":5597,"3ĠgÃ¨Ġ":5598,"shÃłngĠdÃ¬Ġ":5599,"lÇĲngĠshÃ¬Ġ":5600,"64":5601,"lÇĲĠgÅįngĠ":5602,"chuÃ¡nĠshuÅįĠ":5603,"mÇĶĠqÄ«n":5604,"ĠhÃ¨Ġ":5605,"ÄģiĠÄĽrĠ":5606,"chÃ¡ngĠjiÃłnĠdeĠ":5607,"zhÃłngĠÃłiĠ":5608,"mÇİĠlÃ¡iĠxÄ«ĠyÃłĠ":5609,"19Ġ":5610,"13ĠniÃ¡nĠ":5611,"nÃ³ngĠyÃ¨":5612,"liÇĶĠ":5613,"ĠyÃ¬ĠyuÃłn":5614,"guÇİngĠfÃłn":5615,"ĠbÃ¹ĠjiÇĶ":5616,"ĠchÃ©ngĠdÃ¹Ġ":5617,"ĠzhÅįngĠshÃ¬Ġ":5618,"ĠĠĠmÃŃngĠ":5619,"dÃ¬ĠzÃłiĠ":5620,"shuÄģĠ":5621,"jÃ¹ĠjuÃ©Ġ":5622,"jÃ¬nĠxÃŃngĠleĠ":5623,"rÃ¨nĠshÃŃĠ":5624,"xiÅ«ĠzhÃ¨ngĠ":5625,"huÃ¡ĠshÃ¨ngĠ":5626,"wÇĴĠmenĠ":5627,"zhuÅįĠ":5628,"shÃ²uĠdÃło":5629,"guÃ¬ĠzhÅįuĠ":5630,"ÄģnĠquÃ¡n":5631,"yÇĲnĠqÃŃngĠ":5632,"sÃº":5633,"ĠĠĠ2":5634,"14ĠniÃ¡nĠ":5635,"xÇĲĠjÃ¹Ġ":5636,"ĠgÅįngĠzhÇĶĠ":5637,"xÃŃĠxÃ¬ngĠbÃ¹ĠmÃŃngĠ":5638,"ĠĠĠ4":5639,"ĠfÃ¨i":5640,"ĠĠĠqÃŃĠ":5641,"seĠ":5642,"terĠ":5643,"fÇİĠguÄģnĠ":5644,"xÅ«nĠ":5645,"Ġ2013":5646,"ĠchÅ«ĠqÄ«Ġ":5647,"rÃ¨nĠmÃ¬ngĠwÃ¨iĠ":5648,"ĠkÄģngĠ":5649,"ĠshÇĲĠjiÃłnĠyÃºĠ":5650,"ĠmÃ²":5651,"shÄĵngĠchÃ©ngĠ":5652,"ĠjÄ«ĠhÅ«":5653,"ĠĠĠmÄĽiĠguÃ³Ġ":5654,"lÄģĠdÄ«ng":5655,"Ġ7Ġ":5656,"ĠĠĠxiÃłn":5657,"ĠzÃłiĠcÇĲ":5658,"wÇİngĠluÃ²":5659,"chuÃłngĠbÃłn":5660,"ĠliÃ¨Ġ":5661,"ĠshÄĵngĠhuÃ³ĠxÃŃĠxÃ¬ngĠbÃ¹ĠmÃŃngĠ":5662,"sÇİnĠ":5663,"ĠjÃ¹ĠyÇĴuĠ":5664,"shÃ¨ĠzhÃ¬Ġ":5665,"zhÇĶĠshÃ¬Ġ":5666,"tÃŃĠchÅ«":5667,"biÃłnĠwÃ¨iĠ":5668,"zhuÃ¬Ġ":5669,"ĠyÃ¬ĠqÇĲ":5670,"ĠqÃŃĠzÃłiĠ":5671,"ĠzhÃłnĠdÃ²u":5672,"ÄģnĠnÃłĠ":5673,"cÇİiĠqÇĶĠ":5674,"ĠgÄģo":5675,"Ġ2014":5676,"ari":5677,"ĠhÃ©ĠhÃ©Ġ":5678,"bÃłoĠfÄģ":5679,"zhÃ¬ĠzhÅįngĠ":5680,"hÄĽnĠdÃłĠ":5681,"67":5682,"ĠcÄģnĠjiÄģĠ":5683,"11ĠniÃ¡nĠ":5684,"ĠbÃ¹ĠluÃ²Ġ":5685,"ĠpÃ¨i":5686,"ĠbÇİiĠ":5687,"huÃłĠhÃ©ĠwÃ¹Ġ":5688,"Ġ2012ĠniÃ¡nĠ":5689,"sÄģnĠshÃ¬Ġ":5690,"ĠÃ©rĠbÃºĠshÃ¬Ġ":5691,"ĠshÃŃĠdÃłi":5692,"yÃ¡nĠshÄĵn":5693,"quÃ¡nĠzhÇİngĠ":5694,"tÃŃĠgÅįngĠleĠ":5695,"ĠwÇĴĠmen":5696,"bÃłoĠlÃ¬Ġ":5697,"29ĠniÃ¡nĠ":5698,"zhÇĶĠyÃ¬ĠdeĠ":5699,"ĠĠĠlÇĲĠ":5700,"ĠyÄ«ĠxuÃ©Ġ":5701,"shÃłngĠyÃ¬ngĠ":5702,"Ġ0Ġ":5703,"lÃ²uĠ":5704,"jÃ¬ĠshÃ¬Ġ":5705,"99":5706,"ĠchÄĵng":5707,"shÅ«ĠrÃ¹Ġ":5708,"ĠtÅįngĠchÃ¡ng":5709,"jiÄģĠlÃ¬ĠfÃºĠ":5710,"ĠtiÄģn":5711,"ĠpÃ¨iĠ":5712,"ĠchÇĶĠyÃºĠ":5713,"ĠyÇĴuĠyÃŃĠgÃ¨Ġ":5714,"ĠxiÃłnĠxiÃłngĠ":5715,"zÄ«ĠchÇİnĠ":5716,"ĠyÄĽĠjiÃ¹ĠshÃ¬Ġ":5717,"zhÃ¬ĠbÃ¹Ġ":5718,"suÃ¬ĠshÃŃĠ":5719,"zuÃ¬ĠgÄģo":5720,"ĠgÄĵnĠjÃ¹":5721,"fÇİĠyÇĶĠ":5722,"ĠzÃłiĠnÃ¨iĠdeĠ":5723,"ÄģnĠzhuÄģng":5724,"hÇİiĠwÃłiĠ":5725,"ĠzuÃ¬ĠgÄģoĠ":5726,"ĠjÄ«ng":5727,"zhuÇİnĠxiÃłngĠ":5728,"23ĠniÃ¡nĠ":5729,"ĠdeĠfÄģngĠshÃ¬Ġ":5730,"Ġ30":5731,"ĠÃ©rĠbÃ¹Ġ":5732,"lÇĲngĠxiÃ¹Ġ":5733,"tuÄ«ĠjÃ¬nĠ":5734,"pÃŃngĠlÃ¹nĠ":5735,"jiÃłĠgÃ©Ġ":5736,"ĠĠĠcÇĲĠwÃłiĠ":5737,"ĠruÃ¬Ġ":5738,"mÇİĠlÇĲĠ":5739,"chuÃłngĠjiÃłnĠ":5740,"bÄ«nĠhÇİiĠ":5741,"shÃ¹nĠlÃ¬Ġ":5742,"oh":5743,"dÄģngĠxuÇİnĠ":5744,"Ġ2017":5745,"lÃ©iĠsÄ«Ġ":5746,"ruÇİnĠjiÃłnĠ":5747,"zhÃ¨ngĠdÇİngĠ":5748,"ĠyÃ³uĠqÃŃĠshÃ¬Ġ":5749,"liÇİnĠ":5750,"yuÃłnĠshÃ¬Ġ":5751,"ĠshÄĵngĠzhÇİng":5752,"xÃºnĠyÃ¡ng":5753,"ĠxÃŃngĠzhÃ¨ng":5754,"wÇİngĠqiÃºĠ":5755,"ĠzÃłiĠdÃ¹Ġ":5756,"1ĠlÃ¬Ġ":5757,"ast":5758,"ĠshÄĵngĠchÇİn":5759,"lÃ¹nĠwÃ©nĠ":5760,"ĠgÃ²ngĠyÇĴuĠ":5761,"nÇļĠxÃ¬ng":5762,"ĠhÃ©ĠbÃ¹Ġ":5763,"ĠdÃłĠshÃł":5764,"fÄģngĠmiÃłnĠdeĠ":5765,"tÃ³uĠzÄ«":5766,"nÃº":5767,"ĠbÃ³":5768,"lay":5769,"yÃ¬ngĠyÃ²ng":5770,"pÃ©n":5771,"Ã¡iĠ":5772,"jiÃłoĠshÃ¬Ġ":5773,"yÄ«ngĠlÇĲĠ":5774,"diÃłnĠzi":5775,"bÇİnĠbÄĽn":5776,"ĠxiÃłngĠmÃ¹Ġ":5777,"gÃ¨ĠzhÇĴngĠ":5778,"pÃ¡iĠmÃŃngĠdÃ¬Ġ":5779,"nÇĶĠ":5780,"guÃł":5781,"zÃ©ĠrÃ¨nĠ":5782,"biÇİoĠdÃ¡Ġ":5783,"ĠgÃ©":5784,"yÃºĠdeĠ":5785,"bÃºĠ":5786,"rÃ©nĠdÃłĠ":5787,"ĠdÃ©ĠÄĽrĠ":5788,"ĠhÃ²uĠxuÇİnĠrÃ©nĠ":5789,"AM":5790,"jÃ¹ĠlÃ¨ĠbÃ¹Ġ":5791,"ĠbÄģnĠ":5792,"yÃ¬ĠniÃ¡nĠ":5793,"ĠgÃ²ng":5794,"tÃłiĠziĠ":5795,"bÃłoĠgÃło":5796,"ĠdÅįngĠbÄĽiĠ":5797,"ĠbÄĽiĠjÄ«ngĠ":5798,"jiÇĶĠlÃ³ngĠ":5799,"fÃłnĠwÃ©iĠnÃ¨iĠ":5800,"lÇĲngĠdÃ¬Ġ":5801,"ĠhÃ©ĠdÃłĠ":5802,"ĠĠĠqiÃ¡nĠ":5803,"zhÃ¨ĠlÇĲĠ":5804,"ĠshÃ¬ĠgÃ¹Ġ":5805,"zhÃŃĠjiÄĵ":5806,"ĠĠĠjÃ¹ĠqÃŃngĠ":5807,"ĠĠĠxiÃłnĠ":5808,"xiÄģngĠshÃ¬ĠdÃ¬Ġ":5809,"ĠyÃºĠrÃ©nĠ":5810,"ĠrÃ¬ĠbÃłoĠ":5811,"ĠÃ":5812,"xÃŃngĠchÃ©ngĠ":5813,"fÄģĠxÃŃngĠdeĠ":5814,"shÃ©nĠmeĠ":5815,"fÄĵngĠwÃ¨iĠ":5816,"pÃłiĠdeĠ":5817,"ĠzhÃ¬ĠshÇİoĠ":5818,"jÄ«ngĠyÃłnĠ":5819,"na":5820,"pÄĵnĠ":5821,"dÃºĠlÃ¬ĠdeĠ":5822,"ĠtÄģĠhÃ©Ġ":5823,"guÃ²ĠqÃ¹":5824,"ĠhÇİi":5825,"Ã©ĠguÃ³Ġ":5826,"ĠyÇĴuĠxiÃłoĠ":5827,"ĠzhÄ«ĠfÃ¹Ġ":5828,"hÃ¨ĠÄĽrĠ":5829,"ĠzhÅįngĠbÃ¨iĠ":5830,"ew":5831,"ĠxuÄģnĠ":5832,"ĠjÃ¬ĠsuÃłnĠ":5833,"ĠlÇĲĠlÃ¹n":5834,"chÅ«ĠshÄĵngĠyÃºĠ":5835,"ĠjÃ¹":5836,"guÄģnĠdiÇİnĠ":5837,"jiÃ¹ĠdÃº":5838,"wÄĵnĠdÃ¹Ġ":5839,"ĠlÃ¬ngĠyÄ«Ġ":5840,"ĠwÃ²":5841,"ĠshÃ¬ĠxÄ«Ġ":5842,"jÃ¬ĠchÃ©ngĠ":5843,"bÇĲĠyÃł":5844,"liÇĶ":5845,"kÇİĠsÄ«Ġ":5846,"ĠyÄ«ĠxiÇİoĠshÃŃĠ":5847,"ĠdÃłĠxÄ«ĠyÃ¡ngĠ":5848,"pÃ¡iĠhÃ¡ngĠ":5849,"ĠqÇĲ":5850,"ĠgÄģngĠ":5851,"fÄģngĠyÃ¡nĠ":5852,"ĠĠĠÄģĠ":5853,"ĠniÃ¡nĠĠĠ":5854,"mÃŃngĠzÃ¬Ġ":5855,"ĠdÃ©ĠhuÃ¡Ġ":5856,"pÇĶĠbiÃłnĠ":5857,"ĠdÅįngĠlÃŃnĠ":5858,"wÃ¨iĠĠĠ":5859,"juÃ©ĠyÃ¬Ġ":5860,"ĠzuÃ²ĠjiÄģĠ":5861,"dÇİngĠyuÃ¡nĠ":5862,"chÅ«ĠshÄĵnĠ":5863,"Ġ2014ĠniÃ¡nĠ":5864,"mÃŃngĠrÃ©nĠ":5865,"qÅ«ĠyÃ¬ĠhuÃ¬Ġ":5866,"ĠdÃłĠfÃºĠ":5867,"huÃłnĠchÃ©ngĠ":5868,"hÃ³ngĠsÃ¨Ġ":5869,"dÃłĠzhÃ¬Ġ":5870,"xiÃłnĠzhÃ¬Ġ":5871,"ĠzhuÄģngĠ":5872,"ĠchÅ«ĠzhÃłnĠ":5873,"ĠbÃ¬ngĠfÄĵiĠ":5874,"nÃ¨iĠgÃ©Ġ":5875,"ĠjiÃ©ĠguÇĴ":5876,"ĠĠĠdÃ¬ĠfÄģngĠ":5877,"fÃ©nĠ":5878,"mÇİĠÄĽrĠ":5879,"zhÃ²ngĠduÅįĠ":5880,"ĠshÅįuĠ":5881,"ĠsÄģiĠ":5882,"ĠyÇĶĠmÃ¡o":5883,"ĠbÃ¬ngĠbÃ¨iĠ":5884,"zhÃŃĠdÇİoĠ":5885,"ĠyÃŃnĠ":5886,"qÅ«ĠhÃ©Ġ":5887,"bÄĽnĠrÃ©nĠ":5888,"ĠyÄ«ĠtÃ³ngĠ":5889,"ĠzhÅįngĠhuÃ¡ĠrÃ©nĠmÃŃnĠgÃ²ngĠhÃ©ĠguÃ³ĠzhÃ¨ngĠzhÃ¬ĠrÃ©nĠwÃ¹Ġ":5890,"In":5891,"zuÃ²ĠshÃ¬Ġ":5892,"rÃ¹ĠxuÇİnĠ":5893,"nÃ¨":5894,"liÇİngĠmÃŃngĠ":5895,"hÃ¡nĠyÇĴuĠ":5896,"ĠzÃłiĠcÃ¬":5897,"tÃ³uĠxiÃ¡ngĠ":5898,"kÄĵĠdeĠqÃŃĠzhÅįngĠyÄ«ĠzhÇĴngĠ":5899,"ĠgÅįngĠyÃ¬Ġ":5900,"ĠxiÃłnĠshÃ¬Ġ":5901,"yÃŃĠdÃ¹Ġ":5902,"zhÄ«ĠchÃŃ":5903,"ph":5904,"ĠtÇİĠ":5905,"yÃŃĠdÃ¬ngĠ":5906,"zhÇĴngĠziĠ":5907,"ĠĠĠCh":5908,"xÇĲĠhuÄģn":5909,"diÇİnĠlÇĲĠ":5910,"dÃłngĠtiÄģnĠ":5911,"yÄ«ngĠwÃ©nĠ":5912,"jÇĲngĠchÃ¡":5913,"ĠhuÇĴĠ":5914,"chÃ©ngĠyuÃ¡nĠ":5915,"ĠyÃºĠ195":5916,"jiÃłngĠdÄ«Ġ":5917,"ĠtÃºn":5918,"dÅįuĠzÃłiĠ":5919,"Ġ187":5920,"yÃłĠjÅ«nĠ":5921,"zÃ¬ĠrÃ¡n":5922,"ĠqÃŃĠzhÅįngĠyÄ«Ġ":5923,"shÃ¨ĠqÅ«Ġ":5924,"cÃ¬ĠdeĠ":5925,"kÇĴuĠwÃ¨iĠ":5926,"ĠshÃ¬ĠmÃŃnĠ":5927,"zhÄ«ĠqiÃ¡nĠ":5928,"shÄĽĠ":5929,"mÃ¬ĠshÅ«ĠzhÇİngĠ":5930,"zhÃ¨ngĠbÃ¹Ġ":5931,"qÇĲĠdÃ²ngĠ":5932,"tÅ«ĠpÃ²Ġ":5933,"tiÃ¡oĠlÃ¬Ġ":5934,"28Ġ":5935,"suÇĴĠdeĠ":5936,"wÃºĠzhÃ¨ngĠzhuÃłngĠ":5937,"arĠ":5938,"jÄ«ĠdÅ«Ġ":5939,"ĠxiÃłnĠrÃ¨nĠ":5940,"yÇĶnĠxÇĶ":5941,"ĠbÃłnĠ":5942,"xiÄĽĠdÃłoĠ":5943,"ĠhuÃ¡":5944,"ĠsÅ«":5945,"ĠqÄ«ĠjiÄģnĠ":5946,"shÃ¹ĠyÇĶĠ":5947,"ĠxÃŃngĠwÃ¨iĠ":5948,"fÇİngĠwÃ¨n":5949,"xÄ«ngĠdÄĽngĠwÃ¨iĠ":5950,"ĠwÃłnĠlÃ¬Ġ":5951,"deĠĠĠ":5952,"ĠshÃ¬ĠyÃºĠ":5953,"ĠgÅįngĠmÃŃnĠ":5954,"tor":5955,"ĠbÃ¬ngĠdÃº":5956,"Ġ2012":5957,"tiÃ¡oĠzhÄĽng":5958,"hÄĵiĠsÃ¨Ġ":5959,"zhÄĽngĠtÇĲĠ":5960,"gÄģoĠsÃ¹ĠgÅįngĠlÃ¹Ġ":5961,"ĠzÇĶĠfÃ¹Ġ":5962,"tuÃ¡nĠdeĠ":5963,"gÄĽiĠleĠ":5964,"26ĠniÃ¡nĠ":5965,"ĠshÃ¬ĠgÅįngĠ":5966,"ĠjÄ«ĠjÄ«nĠ":5967,"lÃ©ng":5968,"ĠhÃłn":5969,"lÇĶĠsÄ«Ġ":5970,"ĠtÃ³ngĠyÃ¬Ġ":5971,"jiÃ¨ĠshÃłoĠ":5972,"OS":5973,"zÃ²ngĠ":5974,"ĠĠĠjÃŃĠ":5975,"huÃ¡ngĠhÃ²uĠ":5976,"jiÃ©ĠguÇĴ":5977,"kÄģiĠshÇĲĠzÃłiĠ":5978,"yuÄģnĠ":5979,"mÃŃngĠzhÃ¬Ġ":5980,"tic":5981,"jiÄģngĠzÃłiĠ":5982,"chÃŃĠyÇĴuĠ":5983,"fÃłnĠzuÃ¬Ġ":5984,"iv":5985,"ĠyÃ²ngĠyÃºĠ":5986,"ĠshÄĵngĠyÃºĠ":5987,"ĠgÅįngĠjÃ¹Ġ":5988,"shÃ¨ĠshÄ«Ġ":5989,"Ġ1998ĠniÃ¡nĠ":5990,"tÃ²ng":5991,"guÃ¬ĠzÃºĠ":5992,"bÇİoĠshÇĴuĠ":5993,"tÃ³uĠpiÃło":5994,"xiÃłĠxiÃ¡ĠdeĠyÃŃĠgÃ¨Ġ":5995,"ĠpÃŃngĠjÅ«nĠ":5996,"bÇİnĠdeĠ":5997,"zuÃ¬ĠduÅįĠ":5998,"gÃłiĠniÃłn":5999,"Window":6000,"sÄĵngĠ":6001,"ĠhÃ¹Ġ":6002,"shÄģnĠshÃ¬Ġ":6003,"yÄ«ngĠgÄģiĠ":6004,"ĠyÃ¡n":6005,"lÃ¡iĠyuÃ¨Ġ":6006,"gÇĶĠdÃłiĠ":6007,"nÃŃĠÄĽrĠ":6008,"ĠmÃŃngĠdÄģnĠ":6009,"diÃłnĠhuÃłĠ":6010,"hÇİiĠxiÃ¡Ġ":6011,"zhÃ¨nĠqÅ«ĠdeĠ":6012,"biÇİoĠyÇİn":6013,"wÃ¡nĠzhÄĽng":6014,"ĠmÄĽiĠgÃ¨Ġ":6015,"ĠdeĠchÃ©ngĠjÃ¬Ġ":6016,"Ġ1949ĠniÃ¡nĠ":6017,"ĠjÃŃĠrÃ©nĠ":6018,"gÇİiĠmÃŃngĠwÃ¨iĠ":6019,"sÇĲĠwÃ¡ng":6020,"ĠzhuÇİnĠ":6021,"ĠtiÃ¡nĠ":6022,"ĠĠĠqÃŃĠtÄģĠ":6023,"suÃŃĠzhÃ¹Ġ":6024,"gÃ¨ngĠwÃ©iĠ":6025,"diÃłnĠnÇİoĠ":6026,"bÃ³ĠshÃ¬ĠxuÃ©ĠwÃ¨iĠ":6027,"57":6028,"yuÃ¨ĠzhÅįngĠ":6029,"mÃ¹ĠqiÃ¡n":6030,"nÃ©ngĠliÃłngĠ":6031,"zÇİoĠqÄ«":6032,"ff":6033,"gÄģĠ":6034,"shÄģnĠjÄ«Ġ":6035,"ĠyÇĲĠjÃŃ":6036,"35Ġ":6037,"ĠdÃ©ĠyÇĶĠ":6038,"ĠbÇĲĠrÃºĠ":6039,"ĠÃ©rĠgÄģiĠ":6040,"chÃ¡ngĠwÄĽiĠ":6041,"ĠrÃ©nĠmÃŃnĠzhÃ¨ngĠfÇĶĠ":6042,"ik":6043,"shÃ²uĠdeĠ":6044,"ÄĵnĠshÄĽngĠ":6045,"tÃ²uĠguÃ²":6046,"ĠyÄ«ĠzuÃ²Ġ":6047,"ĠxiÇİngĠniÃ¡nĠ":6048,"wÃºĠzhÃ¨ngĠzhuÃłngĠgÇİnĠrÇİnĠ":6049,"66":6050,"17ĠniÃ¡nĠ":6051,"ĠwÃ©iĠÄĽr":6052,"2ĠgÃ¨Ġ":6053,"yÃ³uĠjÄ«Ġ":6054,"huÃ³ĠyuÃ¨Ġ":6055,"chÃ¡ngĠwÃ¹Ġ":6056,"yÄģoĠqÇĲng":6057,"quÃ¨ĠzhÄĽnĠbÃ¬ngĠlÃ¬Ġ":6058,"duÅįĠwÃ¨iĠ":6059,"xuÃ©ĠhuÃ¬Ġ":6060,"ÄģnĠhuÄ«Ġ":6061,"tÄ«":6062,"ĠbÃ¹ĠsÄ«Ġ":6063,"shÄ«ĠbÃłiĠ":6064,"ĠxÃºnĠ":6065,"Ġ2015ĠniÃ¡nĠ":6066,"ĠĠĠ2011":6067,"fÄģĠshÃ²uĠ":6068,"dÃ¬ngĠjÅ«Ġ":6069,"yÇĲĠjÄ«ngĠ":6070,"ĠĠĠgÄģi":6071,"rÃ¨nĠwÃ¨iĠ":6072,"kÃ¨ĠchÃ©ngĠ":6073,"gÄĵĠlÃºnĠ":6074,"kÃ¹nĠnÃ¡nĠ":6075,"dÄģnĠdeĠ":6076,"yÃ¡ngĠshÃ¬Ġ":6077,"lÃ³ngĠdeĠ":6078,"ĠbÃ¹ĠlÃ¬Ġ":6079,"ÄģnĠnÃł":6080,"bÃłoĠzhÃłĠ":6081,"tÃŃĠjÃŃĠ":6082,"ĠrÃ¬ĠyÃºĠ":6083,"ĠwÃ¨iĠyÃºĠzhÅįngĠguÃ³Ġ":6084,"sÄģiĠÄĽrĠwÃ©iĠ":6085,"huÃ¬ĠzhÅįngĠ":6086,"shÅįuĠjÃŃĠ":6087,"zuÃ²ĠchÅ«Ġ":6088,"ĠĠĠ1Ġ":6089,"jÃ¹ĠdÃłĠ":6090,"ĠxÄ«ĠjiÄĵĠ":6091,"xiÄģngĠsÃ¬Ġ":6092,"zhÇĶĠyÃłoĠdeĠ":6093,"gÅįngĠchÃ©ngĠ":6094,"ĠlÃ¬ĠfÇİ":6095,"luÃ¡n":6096,"ĠchÃ©ngĠrÃ©nĠ":6097,"ĠbÃ¬ngĠdÃºĠ":6098,"zÃºĠqiÃºĠyÃ¹nĠdÃ²ngĠyuÃ¡nĠ":6099,"lÃ¬ngĠrÃ©nĠ":6100,"xiÄĽĠdeĠ":6101,"ĠtÃ³ngĠshÃŃĠgÄģiĠdÃ¬Ġ":6102,"Ġ1999ĠniÃ¡nĠ":6103,"Ġ186":6104,"ĠjÄ«ĠsÄ«Ġ":6105,"bÄĵiĠsÄ«Ġ":6106,"qiÃ¡ngĠliÃ¨Ġ":6107,"huÃ¬ĠzhÃ¬Ġ":6108,"nÃ¡nĠdeĠ":6109,"shÄĽngĠdeĠ":6110,"ĠhÃ²uĠzhÄĽĠ":6111,"gh":6112,"mÃ¡n":6113,"quÄģn":6114,"Ã©rĠtÃ³ngĠ":6115,"ĠjÄ«ĠchÇİng":6116,"ĠdÃ©ĠzhÇĶĠ":6117,"ĠzhÃ¨ĠzhÇĴng":6118,"xÃ¬nĠyÇİngĠ":6119,"zhuÄ«ĠsÃ¹":6120,"ĠyuÃ¡nĠxÃŃngĠ":6121,"nÃ¨iĠlÃ¹ĠshÄĽngĠfÃ¨nĠ":6122,"gÃ²uĠdeĠ":6123,"ĠjÃŃĠdÃ¬Ġ":6124,"liÃºĠxiÃłĠ":6125,"jiÄĽĠsÃłnĠ":6126,"ĠzuÃ¬ĠchÅ«Ġ":6127,"kÄĵĠxuÃ©ĠjiÄģĠ":6128,"quÄĵĠfÃ¡Ġ":6129,"Ġ2022":6130,"tÃºĠxÃŃngĠ":6131,"guÄģnĠchÃ¡Ġ":6132,"biÄģnĠjiÃ¨Ġ":6133,"zhÃºĠbÃ¹Ġ":6134,"5ĠmÇĲĠ":6135,"ack":6136,"ĠÃ¨rĠshÃŃĠ":6137,"Ġ2016ĠniÃ¡nĠ":6138,"2025ĠniÃ¡nĠ":6139,"ĠdÃ¬ĠsÃ¬":6140,"jiÄĽĠfÃłngĠ":6141,"ĠdeĠdÃ¬ĠÃ¨rĠ":6142,"tÇİoĠlÃ¹n":6143,"yÃłĠmÄĽiĠ":6144,"ĠzhÇĶĠxÃŃĠ":6145,"xÅ«nĠzhÄģngĠ":6146,"edĠĠĠ":6147,"shÄģnĠdeĠ":6148,"ĠkÃ¨ĠxÄ«Ġ":6149,"fÄģngĠfÇİ":6150,"pÄ«ĠzhÇĶn":6151,"liÃ¡nĠhÃ©ĠhuÃ¬Ġ":6152,"ĠZ":6153,"chÄģoĠyuÃ¨Ġ":6154,"fÃ¹ĠzÃ©":6155,"liÃ¡nĠxÃ¹":6156,"ĠwÃłnĠyuÃ¡nĠ":6157,"Ġse":6158,"hÇİiĠpÃŃngĠmiÃłnĠ":6159,"ĠguÃ³ĠnÃ¨iĠ":6160,"zhÇĶĠjiÃło":6161,"tuÃ¬ĠxiÅ«Ġ":6162,"xiÃłĠlÃ¬ngĠshÃŃĠjiÄģnĠ":6163,"bÃ¨iĠdeĠ":6164,"bÃºĠdÃłoĠ":6165,"ĠzÃłiĠ197":6166,"ĠlÃ¬ĠliÃłngĠ":6167,"zuÃ¬ĠgÄģoĠdeĠ":6168,"jiÇİnĠshÇİo":6169,"Ġ25":6170,"Ġ8Ġ":6171,"ĠyÄģoĠqiÃºĠ":6172,"ĠshÃŃĠqÄ«ĠdeĠ":6173,"huÄ«ĠfÃ¹":6174,"shuÄģngĠfÄģngĠ":6175,"tÃ¡nĠpÃłnĠ":6176,"hÄĵngĠlÃ¬Ġ":6177,"fÄģĠshÄĵngĠzÃłiĠ":6178,"fÄĵiĠchÃ¡ng":6179,"IC":6180,"ĠjÄ«ĠhuÃ¬Ġ":6181,"dÇĴngĠshÃ¬ĠzhÇİngĠ":6182,"guÃ²ĠdeĠ":6183,"tÃŃĠyÃ¬Ġ":6184,"pÃ¹":6185,"ĠhÃ©ngĠ":6186,"shÅ«ĠzhÅįngĠ":6187,"2026ĠniÃ¡nĠ":6188,"yÃŃĠdÃ¬ng":6189,"ĠwÃ©nĠhuÃłĠ":6190,"jÃ¬ngĠnÃ¨iĠgÃ²ngĠyÇĴuĠ":6191,"nÃŃĠyÃłĠzhÅįuĠ":6192,"ĠzhÃło":6193,"ĠxÃ¬Ġ":6194,"ĠjiÃ¹ĠshÃ¬Ġ":6195,"xÃ¹ĠlÃ¬ĠyÃłĠ":6196,"dÄ«ĠyÃºĠ":6197,"ĠxuÃ©ĠjiÄģĠ":6198,"ĠĠĠbÃ¨iĠjÇĲngĠ":6199,"ĠzÃłiĠshÃŃĠ":6200,"ĠyÄ«ĠlÃ¬Ġ":6201,"tÃ¡iĠnÃ¡n":6202,"AC":6203,"ĠyÇĲĠwÃ©iĠ":6204,"qiÇİng":6205,"ĠhÃ©ĠyuÄĵĠ":6206,"ĠgÅįngĠzhÃ²ngĠ":6207,"zhÇĶĠyÇİnĠ":6208,"pÃŃngĠtÃ¡iĠ":6209,"ĠÃ©rĠziĠ":6210,"sÄģnĠjiÇİo":6211,"16ĠniÃ¡nĠ":6212,"quÄĵĠfÃ¡":6213,"ĠnÃł":6214,"xiÃłnĠdeĠ":6215,"pÃŃngĠwÃ¨iĠ":6216,"dÄģngĠzhÅįngĠ":6217,"qÄ«nĠzÃ¬Ġ":6218,"ĠshÃŃĠxÃŃngĠ":6219,"wÃ¡Ġ":6220,"ĠwÃ¡nĠjiÄģĠ":6221,"ĠĠĠ17":6222,"jiÄģĠyÃ¬Ġ":6223,"suÃŃĠjÃŃĠ":6224,"ĠshÃ¬ĠyÄ«nĠwÃ¨iĠ":6225,"ĠshÇĶ":6226,"huÃ¬ĠyÃ¬ĠyuÃ¡nĠ":6227,"DTĠ":6228,"ly":6229,"ĠdÇİoĠ":6230,"ĠxiÃ©Ġ":6231,"ĠyÇĴuĠsuÇĴĠ":6232,"ĠxÄ«ĠbÄģnĠyÃ¡Ġ":6233,"ĠĠĠdÃ¬ĠfÄģngĠzÄ«ĠliÃłoĠ":6234,"TV":6235,"ĠjiÇĶ":6236,"ĠqÇĶĠ":6237,"zÃ¬ĠdeĠ":6238,"jiÃ©ĠdeĠ":6239,"ĠhÃ²uĠbÃ¨iĠ":6240,"fÄģĠqÇĲĠ":6241,"ĠyÄ«ngĠchÇĲĠ":6242,"78":6243,"sÃłng":6244,"lÃ¡nĠdeĠ":6245,"nÃ¡ĠxiÃłĠ":6246,"ĠxuÃ©ĠyuÃłn":6247,"ĠĠĠjiÇİnĠjiÃ¨Ġ":6248,"luÃ³ĠlÇĲĠ":6249,"nÃ¡nĠbÄĽiĠ":6250,"bÄĽiĠjÄ«ngĠshÃ¬Ġ":6251,"ĠbÃ¹ĠshÇİoĠ":6252,"ĠtÄģĠcÃ©ngĠdÃłiĠbiÇİoĠ":6253,"ĠyuÄĵ":6254,"lÇĲĠhÃ©Ġ":6255,"dÃŃĠshÃ¬Ġ":6256,"laĠ":6257,"ĠchÅ«ĠkÇĴuĠ":6258,"jiÃłoĠtÃ¡ng":6259,"duÅįĠzhÇĴngĠ":6260,"pÃłiĠqiÇİn":6261,"duÃ²":6262,"nÃ©ngĠyuÃ¡nĠ":6263,"ĠxiÃłnĠfÇİĠ":6264,"kÅ«Ġ":6265,"leĠzÃłiĠ":6266,"lÃ¡iĠyÄ«nĠ":6267,"cÃ©ngĠwÃ¨iĠ":6268,"ĠdÃ¬ĠlÇĲĠ":6269,"id":6270,"tÃ¡iĠzhÅįngĠ":6271,"niÃ¡ngĠ":6272,"ĠchÃ©ngĠzhÃ¨nĠ":6273,"jiÃłĠshÇĲĠ":6274,"ĠshÃŃĠjÃ¬ĠshÃłngĠ":6275,"jiÄĵĠchÃ¹Ġ":6276,"ĠzhÃ¨ngĠmÃŃngĠ":6277,"liÃ¡oĠnÃŃngĠ":6278,"mÃ²ĠxÄ«ĠgÄĵ":6279,"kuÃ¬Ġ":6280,"ER":6281,"dÃŃĠrÃ©nĠ":6282,"boĠ":6283,"gÇĴuĠ":6284,"xuÇİnĠzhÅįngĠ":6285,"ĠdeĠxÃŃngĠ":6286,"jÄ«ĠgÃ²uĠ":6287,"ĠyÇĲĠxÄ«Ġ":6288,"zhÇĲĠdÇİoĠ":6289,"yÄ«ngĠxiÃ³ngĠ":6290,"gÇİiĠbiÃłn":6291,"ĠtÃŃĠgÅįngĠ":6292,"pÃłiĠchÅ«Ġ":6293,"fÄĵngĠxiÇİnĠ":6294,"ĠzhÅįngĠguÃ³ĠrÃ©nĠmÃŃnĠjiÄĽĠfÃłngĠjÅ«nĠ":6295,"diÃłnĠnÇİo":6296,"rÃło":6297,"qiÇİoĠ":6298,"AN":6299,"gÇİo":6300,"ĠxiÇİngĠ":6301,"ĠkÇĴngĠ":6302,"tÃŃĠchÅ«ĠdeĠ":6303,"gÃłnĠbÃ¹Ġ":6304,"56":6305,"II":6306,"ĠdÃ¬ĠyÃŃĠgÃ¨Ġ":6307,"ĠyÃ¬ĠqÃŃngĠ":6308,"zhÇĲĠnÃ©ngĠ":6309,"hÇİiĠbÃ¡ĠwÃ¨iĠ":6310,"59":6311,"lÄĽiĠjÃ¬Ġ":6312,"ĠlÃ¬ĠyÃ¬Ġ":6313,"suÇĴĠcÇİiĠyÃ²ng":6314,"ĠzhÅįngĠgÃ²ngĠzhÅįngĠyÄģngĠ":6315,"ĠsÅ«nĠ":6316,"Ġ2017ĠniÃ¡nĠ":6317,"shÄģngĠrÃ©nĠ":6318,"biÄģoĠbÄĽnĠ":6319,"kÄģiĠtÅįngĠ":6320,"shÄĵnĠdÃ¹Ġ":6321,"xiÅ«ĠgÇİiĠ":6322,"mÄĽiĠzhÅįu":6323,"zÃłnĠshÃŃĠ":6324,"ĠdÃ¬ĠqÄ«Ġ":6325,"ĠCh":6326,"32Ġ":6327,"chuÃ¡nĠbÅįĠ":6328,"ĠdÃłĠxuÃ©ĠdeĠ":6329,"kÄĵng":6330,"nÃ¬":6331,"kÄģiĠshÃ¨Ġ":6332,"yÄ«ngĠgÃ©ĠlÃ¡n":6333,"ĠdeĠshÃ¬ĠjiÃ¨Ġ":6334,"tÃ¡oĠtÃłiĠ":6335,"nÃ³ngĠmÃŃnĠ":6336,"chuÃŃĠ":6337,"150":6338,"ĠzhÅįngĠguÃ³ĠdeĠ":6339,"guÄģnĠchÃ¡":6340,"qiÃ¡ngĠdiÃłoĠ":6341,"ĠdÃ©ĠmÃŃngĠ":6342,"ĠĠĠyÄ«nĠ":6343,"shuÇĲĠlÃ¬Ġ":6344,"ĠdiÃłnĠyÇĲngĠ":6345,"fÄģĠmÃŃngĠ":6346,"huÃłĠzhÅįngĠ":6347,"rÃ³ngĠhÃ©Ġ":6348,"ĠqÃŃĠwÃ¨iĠ":6349,"ĠzhuÇİn":6350,"ĠwÇİĠ":6351,"quÃ¨ĠdeĠ":6352,"chÇİngĠsuÇĴĠ":6353,"chÄģiĠchÃºĠ":6354,"wÅ«ĠsÄ«Ġ":6355,"zÄ«ĠbÄĽnĠ":6356,"NB":6357,"jiÃ¹ĠdÃºĠ":6358,"tuÃ²Ġ":6359,"bÃłnĠshÃ¬ĠchÃ¹Ġ":6360,"tÅ«n":6361,"juÃ©ĠshÃ¬Ġ":6362,"xiÅ«ĠjiÃłnĠ":6363,"zhÄģngĠzhuÄģnĠjÃŃĠ":6364,"Ġ2018ĠniÃ¡nĠ":6365,"jÃ¬ngĠjÃ¬Ġ":6366,"mo":6367,"zĠ":6368,"wÃ©nĠdeĠ":6369,"ĠbÄĽiĠjÄ«ng":6370,"ÄģĠlÄģĠbÃ³":6371,"mÄģoĠ":6372,"ĠĠĠ2Ġ":6373,"diÃłnĠjÄ«Ġ":6374,"shÄģngĠyÃ¨":6375,"jÇĶĠbÃłnĠdeĠ":6376,"bĠ":6377,"qÄ«ĠwÃ¨iĠ":6378,"xiÄģoĠfÃ¨iĠ":6379,"pÃ¨iĠzhÃ¬Ġ":6380,"ĠjÃ¹ĠjuÃ©Ġ":6381,"ul":6382,"qÅ«ĠshÃ¬Ġ":6383,"wÃ©iĠsÄ«Ġ":6384,"ÄģnĠpÃ¡i":6385,"fÃ¹ĠzhÇĶĠrÃ¨nĠ":6386,"wÇĶĠzhuÄģng":6387,"tÃłiĠdÃ¹Ġ":6388,"kÃ©Ġ":6389,"diÃłoĠkuÃłi":6390,"ĠxiÇİo":6391,"qiÃłoĠ":6392,"suÃ¬ĠdeĠ":6393,"ĠzhÅįngĠshÄģnĠ":6394,"ĠyÇĶĠqÃŃĠtÄģĠ":6395,"jÃ¬ngĠxuÇİnĠ":6396,"chÃ©ngĠhÃ©Ġ":6397,"fÃºĠdeĠ":6398,"jiÃ¹ĠhuÃ¬Ġ":6399,"gÃ©ĠlÄģĠ":6400,"ĠcÃ¬ĠniÃ¡nĠ":6401,"hÃ²uĠwÃ¨iĠ":6402,"wÃ¡ngĠshÃ¬Ġ":6403,"zÃłoĠleĠ":6404,"ĠwÃ¨iĠUTCĠ":6405,"ĠcnĠ":6406,"shÇĴuĠzhÅįngĠ":6407,"zÄ«ĠliÃło":6408,"lÃłng":6409,"ĠĠĠduÃ¬Ġ":6410,"qiÃºĠjÃ¬Ġ":6411,"pe":6412,"lÃ¹ĠzhÃ¬Ġ":6413,"liÃ¹ĠshÃŃĠ":6414,"kÄĵĠxuÃ©ĠyuÃłnĠ":6415,"diÃłoĠkuÃłiĠyÄ«ĠxiÇİoĠshÃŃĠ":6416,"ĠbÃ¹ĠjÃŃĠ":6417,"ĠdÃłĠjiÇİngĠ":6418,"suÇĴĠzÃłiĠdÃ¬Ġ":6419,"dÃ¡ĠÄĽrĠ":6420,"ĠbÃ¹ĠduÃ¬":6421,"ĠjÃŃĠUTCĠ":6422,"ĠyÄ«nĠsÃ¹Ġ":6423,"zÇĶĠzhÄ«ĠdeĠ":6424,"ĠmÃŃngĠzhÃ¬Ġ":6425,"shÃ¨ĠyÇĴuĠxiÃłĠlÃ¬ngĠshÃŃĠjiÄģnĠ":6426,"ĠdeĠshÃŃĠqÅ«ĠwÃ¨iĠUTCĠ":6427,"ĠÃ©rĠgÄģiĠdÃ¬ĠsuÇĴĠcÇİiĠyÃ²ng":6428,"ĠtÃ³ngĠshÃŃĠgÄģiĠdÃ¬ĠshÃ¨ĠyÇĴuĠxiÃłĠlÃ¬ngĠshÃŃĠjiÄģnĠ":6429,"ĠÃ©rĠgÄģiĠdÃ¬ĠsuÇĴĠcÇİiĠyÃ²ngĠdeĠshÃŃĠqÅ«ĠwÃ¨iĠUTCĠ":6430,"ĠnÇĲĠ":6431,"ĠgÄģiĠcÅ«nĠ":6432,"shuÃłiĠlÇĲng":6433,"ĠshuÅįĠ":6434,"ĠwÃ¡nĠ":6435,"ĠyÄ«ĠsÄ«ĠlÃ¡nĠ":6436,"69":6437,"dÃ¨ngĠ":6438,"Ġf":6439,"ĠyÃŃngĠ":6440,"tÇĲĠzhÃ¬Ġ":6441,"yuÃ¡nĠzhÃ¹Ġ":6442,"ĠlÃ¬ngĠyÇĴuĠ":6443,"Ġ2004ĠniÃ¡nĠ":6444,"luÇİnĠ":6445,"ĠfÃ¹ĠjÃ¬n":6446,"zhÄ«ĠjiÄģnĠdeĠ":6447,"ĠwÃ¨iĠfÃºĠqÃŃĠyÃºĠgÄģngĠ":6448,"ĠĠĠjiÄģoĠtÅįngĠ":6449,"mÃ¹ĠdeĠ":6450,"ĠhÃłoĠdeĠ":6451,"ĠlÃ¬ĠshÇĲĠshÃłngĠ":6452,"gÄģoĠyÃºĠhÇİiĠpÃŃngĠmiÃłnĠ":6453,"ĠwÄĵi":6454,"ĠĠĠqÄ«ngĠ":6455,"tÅįuĠ":6456,"xÃ¬ngĠwÃ¨iĠ":6457,"cÃ¬ĠyÃºĠ":6458,"hÃ¹ĠxiÄģngĠ":6459,"zhÃºĠjiÃłn":6460,"ĠgÅįngĠjuÃ©Ġ":6461,"ĠxÄ«ĠlÃ¡nĠ":6462,"4ĠgÃ¨Ġ":6463,"nd":6464,"Ġ2019ĠniÃ¡nĠ":6465,"ĠshÃŃĠwÃ¹Ġ":6466,"tÄģĠmenĠdeĠ":6467,"ĠÃ¨Ġ":6468,"shÃłngĠxiÃłnĠ":6469,"tiÄĵ":6470,"zhÄĽĠshÃ¬Ġ":6471,"xiÃłngĠzhÄĵngĠ":6472,"ĠqÃŃĠxiÃłĠ":6473,"ĠtÃ³ngĠyÃłng":6474,"ĠmÇİĠlÃ¡i":6475,"Ġnu":6476,"chÃ¹ĠdeĠhÇİiĠbÃ¡ĠwÃ¨iĠ":6477,"chÃ¹ĠdeĠhÇİiĠbÃ¡ĠwÃ¨iĠgÄģoĠyÃºĠhÇİiĠpÃŃngĠmiÃłnĠ":6478,"ĠĠĠ190":6479,"ĠbÃ¹ĠjÇĲnĠ":6480,"zhÇİngĠdÃ¡Ġ":6481,"yÃŃĠdÃłiĠ":6482,"ĠdeĠyÇĲngĠxiÇİngĠ":6483,"ĠwÃ¨iĠdÃłĠ":6484,"ON":6485,"ĠpÃł":6486,"fÄģĠshÃ¨":6487,"zhÃ²ngĠshÃ¬Ġ":6488,"ĠhÃ©ĠpÃłnĠ":6489,"ĠzÃ¬ĠrÃ¡nĠ":6490,"ĠÄģn":6491,"ÃłiĠdeĠ":6492,"diÃłnĠqÃ¬Ġ":6493,"qiÄģnĠshÇĶĠ":6494,"ĠchÃ¡Ġ":6495,"zhÃ¹ĠyÇĴuĠ":6496,"kÄĽĠzÃłiĠ":6497,"wÃ©iĠÄĽrĠ":6498,"nÃ¡nĠjÄ«ng":6499,"bÃ¬ĠyÃ¨ĠhÃ²uĠ":6500,"fÄģĠxiÃłnĠdeĠ":6501,"ĠzhÄ«ĠyÃ¬Ġ":6502,"ĠqÃŃĠshÃŃĠ":6503,"xiÃłoĠqÅ«Ġ":6504,"88":6505,"ĠrÃ³ngĠ":6506,"ĠĠĠmÇİĠ":6507,"ĠÄĽrĠduÅįĠ":6508,"...":6509,"nÃ¨iĠdÃ¬Ġ":6510,"Ã¨rĠjÃŃĠ":6511,"shÄģnĠfÄĵngĠ":6512,"rÃ¨nĠdeĠ":6513,"luÃ²ĠchÃ©ngĠ":6514,"shÃŃĠqÅ«Ġ":6515,"jiÃłnĠchÃ©ngĠ":6516,"pÃŃngĠyuÃ¡nĠ":6517,"gÄĵngĠxÄ«nĠ":6518,"jÄ«ngĠchÃ¡ng":6519,"zhÃŃĠzhÃ¨ngĠ":6520,"yÃ¹nĠshÅ«":6521,"yÃ¹nĠyÃ²ngĠ":6522,"ĠmiÃłnĠ":6523,"ĠyÄ«ĠjiÄģĠ":6524,"ĠÃ©rĠtÃ³ngĠ":6525,"jÄ«nĠrÃ³ngĠ":6526,"ĠĠĠtheĠĠĠ":6527,"ĠĠĠrÃ¡n":6528,"gÃ©ĠshÃ¬Ġ":6529,"dÄĽngĠjÃŃĠ":6530,"26Ġ":6531,"ĠlÃ¬ĠrÃ¨nĠ":6532,"yÃ¡nĠsÃ¨Ġ":6533,"ĠwÃ¨iĠyÃºĠgÄģiĠ":6534,"ĠyÄ«ng":6535,"hÃ²uĠyÃ¬Ġ":6536,"bÃłngĠqiÃºĠ":6537,"ĠyÃºĠlÃ¨":6538,"rÃºĠguÇĴĠ":6539,"ĠzuÃ²ĠchÅ«Ġ":6540,"ĠsuÃŃĠzhÃ¹Ġ":6541,"ĠxuÃ©ĠzhÄĽĠ":6542,"bÇİoĠliÃº":6543,"xiÃ¡ĠqÅ«Ġ":6544,"ĠĠĠbÄĽn":6545,"bÄģoĠwÃ©iĠ":6546,"shÅįuĠgÃ²uĠ":6547,"chÃ³ngĠqÃ¬ng":6548,"Ġ1997ĠniÃ¡nĠ":6549,"igh":6550,"xuÃ©ĠyuÃ¡nĠ":6551,"shÃ¹ĠshÃŃĠ":6552,"ĠbÃ¹ĠnÃ©ng":6553,"dÅįngĠfÄģngĠ":6554,"cuÃ²ĠwÃ¹Ġ":6555,"79":6556,"mÇİĠkÃ¨Ġ":6557,"oĠĠĠ":6558,"ĠtÃ¡oĠ":6559,"ĠrÃ¡nĠÃ©r":6560,"xÃ¬nĠyÇİng":6561,"miÇİnĠdiÄģn":6562,"asĠĠĠ":6563,"jÃ¬ĠniÃłn":6564,"zhÃ¹ĠzhÃ¡iĠ":6565,"zhÃŃĠmÃŃnĠ":6566,"zhÃ¨nĠqÅ«ĠdeĠmiÃłnĠjÄ«ĠwÃ¨iĠ":6567,"nÃ¨n":6568,"shÇĲĠjiÃłnĠyÃºĠ":6569,"ĠshÄĵngĠyÃ¡Ġ":6570,"fÅ«ĠkÇİĠ":6571,"ĠdeĠxÄ«Ġ":6572,"ĠduÃ¬ĠshÇĴuĠ":6573,"ĠxÃŃngĠzhÃ¨ngĠqÅ«Ġ":6574,"wÄĵngĠ":6575,"ĠliÃ¹Ġ":6576,"bÅįĠsÄ«Ġ":6577,"gÄģoĠxiÃ³ng":6578,"ĠzhÅįuĠcÃ¬ĠshÇĲĠ":6579,"hÇİiĠyÃ¡ngĠ":6580,"zÃ©ĠzÃłiĠ":6581,"45Ġ":6582,"ĠyuÃ¡nĠzÃ¬Ġ":6583,"zÃłoĠchÃ©ngĠdeĠ":6584,"ĠjiÃ©ĠkÃ¨Ġ":6585,"ĠĠĠqÃŃ":6586,"dÄģngĠdÃ¬ĠdeĠ":6587,"ĠtÄģĠyÇĲĠ":6588,"zhÇĶĠzhÄģngĠ":6589,"ĠY":6590,"jiÄģĠyÇĲĠ":6591,"Ã¨rĠrÃ©nĠ":6592,"biÄģnĠyuÃ¡nĠ":6593,"jÃºĠdeĠ":6594,"ĠqÃŃĠzhÅįngĠbÄģoĠkuÃ²Ġ":6595,"sÇİoĠ":6596,"ÃłoĠzhÅįuĠ":6597,"gÅįngĠgÃ²ngĠ":6598,"ĠdeĠbÃ¹ĠfÃ¨nĠ":6599,"IS":6600,"jÃ¬ĠyÇĴuĠ":6601,"miÃłnĠshÃłngĠ":6602,"zhÃŃĠwÃ¹":6603,"liÇİngĠcÃ¬Ġ":6604,"ĠmiÃ¡n":6605,"ĠyÄ«ĠjÃ¹Ġ":6606,"ĠlÇĲĠxÄ«Ġ":6607,"qÃ¬ĠchÄĵ":6608,"jÃ¬ngĠzhÄĵngĠ":6609,"xiÄģoĠshÄ«Ġ":6610,"tiÃ¡nĠjÃ¬ngĠ":6611,"tÅ«ĠrÃ¡nĠ":6612,"pÃŃngĠlÃ¹n":6613,"tÃ¨ĠdÃ¬ngĠ":6614,"gÇİiĠzÃłoĠ":6615,"Ġ1994ĠniÃ¡nĠ":6616,"400":6617,"duÃ¬ĠqÃŃĠ":6618,"shÄ«ĠgÅįngĠ":6619,"tation":6620,"ĠzÃłiĠ196":6621,"yÃ¬ĠshÃ¹Ġ":6622,"lÃ¬ngĠyÃŃĠgÃ¨Ġ":6623,"jiÃłngĠlÇĲngĠ":6624,"xuÄģnĠchuÃ¡n":6625,"ĠrÃ©ng":6626,"cÃ¡iĠnÃ©ngĠ":6627,"nÄ«":6628,"jÃ¹nĠgÅįngĠ":6629,"ĠdÃ©ĠzhÄ«Ġ":6630,"ĠjÄ«ĠjÄ«nĠhuÃ¬Ġ":6631,"lÃŃĠkÄģi":6632,"xiÃłoĠlÃ¬ĠyÃºĠ":6633,"hÅ«nĠyÄ«nĠ":6634,"guÃ³ĠjiÄģ":6635,"Ġ1992ĠniÃ¡nĠ":6636,"Tub":6637,"ĠlÇļĠ":6638,"zhÃłnĠshÃŃĠ":6639,"ĠwÃ¨iĠduÃ¬Ġ":6640,"ĠjÃŃĠdÃłĠ":6641,"im":6642,"ot":6643,"ĠmÃ©i":6644,"ĠsÅ«n":6645,"dÃłĠbÃ¹Ġ":6646,"liÇİngĠguÃ³Ġ":6647,"ĠzhÃ¬ĠliÃłngĠ":6648,"bÃ¨iĠjÇĲngĠ":6649,"ĠlÇĲĠyÃłĠ":6650,"yÃ¡nĠhÇİiĠ":6651,"kÇİĠluÃ³Ġ":6652,"wÄĽiĠyuÃ¡nĠhuÃ¬ĠwÄĽiĠyuÃ¡nĠ":6653,"guÄģnĠjiÃłnĠ":6654,"xÇĲngĠ":6655,"shÅ«ĠyuÃłnĠ":6656,"ÃłiĠÄĽrĠlÃ¡nĠ":6657,"zhÃŃĠmÃŃnĠdÃ¬Ġ":6658,"bÃłnĠdeĠ":6659,"ea":6660,"Ġ2ĠyuÃ¨Ġ":6661,"ĠĠĠshÃ¨ngĠ":6662,"ĠĠĠjÇĲnĠ":6663,"jÃ¬nĠbÃ¹Ġ":6664,"Ġco":6665,"quÃ¡nĠqiÃº":6666,"ĠdÃ¬ĠqiÃº":6667,"ĠdÄģngĠshÃŃĠdeĠ":6668,"chÃ¡iĠ":6669,"pp":6670,"ĠpÃłĠ":6671,"jiÃłoĠdÃłĠ":6672,"diÇİnĠshÃ¬Ġ":6673,"pÃ¨iĠyÄ«nĠ":6674,"ĠshÃŃĠduÃłnĠ":6675,"ĠzhÃ¬ĠzuÃ²ĠdeĠ":6676,"jÄ«ngĠshÃ©n":6677,"pÃŃngĠdeĠ":6678,"liÇİngĠwÃ¨iĠ":6679,"ĠzhÄĵngĠ":6680,"sÄģnĠmÃŃngĠ":6681,"ĠqÃŃĠdeĠ":6682,"ÄģĠlÄģĠbÃ³Ġ":6683,"ĠbÇİ":6684,"bÄĽiĠshÃ¬Ġ":6685,"tuÄ«ĠchÅ«":6686,"zhÃ¨ngĠjÃ¹Ġ":6687,"xÄ«nĠchÃ©ngĠ":6688,"ĠxiÃłnĠyÇĲĠ":6689,"ĠjiÃłnĠshÃ¨":6690,"Ġ1996ĠniÃ¡nĠ":6691,"ĠĠĠnÃ¡nĠ":6692,"duÇĴ":6693,"alĠĠĠ":6694,"kÃłoĠjÃ¬nĠ":6695,"hÃ¹ĠliÃ¡nĠ":6696,"mÇİnĠzÃºĠ":6697,"ĠlÇĶĠ":6698,"dÃłĠlÃ¹":6699,"ĠsÄ«ĠkÃ¨":6700,"chuÃ¡nĠtÇĴngĠdeĠ":6701,"ĠyÃ¬ĠyÃºĠ":6702,"cÃ¨ĠliÃ¡ngĠ":6703,"ĠluÃ³ĠmÇİĠ":6704,"ĠzhÃ¨ngĠzhÃ¬Ġ":6705,"ĠxiÃ¨Ġ":6706,"chĠ":6707,"zuÃ¬ĠchÅ«":6708,"ĠdÃ¬ĠdiÇİnĠ":6709,"huÃ¬ĠzhÇİngĠ":6710,"chÃ¡ngĠdÃ¹Ġ":6711,"zÄģiĠpÃ©iĠ":6712,"Ġ2023":6713,"Ġ2002ĠniÃ¡nĠ":6714,"ĠhÃ©ĠdÃłoĠ":6715,"AP":6716,"lÄģĠjÄ«Ġ":6717,"ĠbÃ¹ĠbÄ«ngĠ":6718,"ĠlÃ¬ĠshÃŃĠ":6719,"zÃ¬ĠmÇĶĠ":6720,"ĠjÃ¹ĠlÃŃ":6721,"bÅįĠlÃŃĠ":6722,"tÃŃngĠchÄĵĠ":6723,"ĠshÄģnĠdÅįngĠ":6724,"1ĠgÃ¨Ġ":6725,"baĠ":6726,"zhÃ¨nĠdeĠ":6727,"bÅįĠshÃ¬Ġ":6728,"xiÅ«ĠfÃ¹Ġ":6729,"xiÄģngĠguÄģnĠdeĠ":6730,"ĠbÃ¬ngĠyÃ³uĠ":6731,"shÄģnĠqÅ«Ġ":6732,"Ġ24":6733,"ĠshÃ¬ĠyÄ«ĠbÃ¹Ġ":6734,"ĠdÃ©ĠsÄ«Ġ":6735,"cÅ«nĠluÃ²Ġ":6736,"zÃºĠqiÃºĠjÃ¹ĠlÃ¨ĠbÃ¹Ġ":6737,"nÃ¨iĠzhÃłnĠ":6738,"shÄĵngĠyÃ¡":6739,"ĠguÃ³ĠwÃ¹ĠyuÃłnĠ":6740,"77":6741,"lÇĲĠchÃ©ngĠ":6742,"qÇĲĠyuÃ¡nĠ":6743,"duÃ¬ĠzhÇİngĠ":6744,"shÇĴuĠxiÃłngĠ":6745,"jÅ«ĠzhÃ¹ĠzÃłiĠ":6746,"ĠbÃ¹ĠbÃ¹ĠzhÇİngĠ":6747,"shÄ«ĠrÃ©nĠ":6748,"ĠdÃ¬ĠtiÄĽ":6749,"jiÄĵĠduÃłn":6750,"bÃ¬ngĠbÃ¹Ġ":6751,"liÃ¡nĠdeĠ":6752,"ĠdÃ¬ĠdÃłiĠ":6753,"ĠdÄģn":6754,"zuÇĲ":6755,"ĠshÃ¬ĠdÃ©ĠguÃ³Ġ":6756,"tiÄģnĠtÇĲĠ":6757,"wÄĽiĠfÃ¹Ġ":6758,"ĠdÃłĠlÃ³u":6759,"ĠwÃ©iĠchÃŃ":6760,"ĠyÃ¹ĠshÇĲĠ":6761,"ĠtÄģngĠ":6762,"Ġ2021ĠniÃ¡nĠ":6763,"33Ġ":6764,"ĠyÇĲĠwÃłiĠ":6765,"ĠwÃ©iĠsÄ«Ġ":6766,"fÃ¨nĠzÇĲ":6767,"tuÃ¡nĠtÇĲ":6768,"ĠĠĠdÃ¬ĠÃ¨rĠ":6769,"Ġ23":6770,"fÃ¹ĠhÃ©Ġ":6771,"quÃ¡nĠxiÃłnĠ":6772,"dÅįuĠbÃ¨iĠ":6773,"ĠyÇĶĠyÃ¡n":6774,"fÄģĠqÇĲ":6775,"suÇĴĠwÃ¨iĠ":6776,"27Ġ":6777,"ĠchÃ©ngĠkÃ¨Ġ":6778,"ĠzhÅįuĠfÇĶĠ":6779,"jiÄģoĠliÃº":6780,"xÃ¬ngĠhÃ©Ġ":6781,"gÇĶnĠ":6782,"lÃ¡ngĠzhÅįngĠ":6783,"ĠxÃŃngĠmÃ¹Ġ":6784,"diÃłnĠshÃ¬ĠtÃ¡i":6785,"zhÃŃĠyÃ¨ĠshÄĵngĠyÃ¡Ġ":6786,"wÃºĠzhÃ¨ngĠzhuÃłngĠgÇİnĠrÇİnĠzhÄĽĠ":6787,"ĠluÃ³":6788,"fÃºĠlÃ¬Ġ":6789,"bÇİiĠniÃ¡nĠ":6790,"jiÄģnĠdÅ«Ġ":6791,"luÃ²ĠfÃ¡":6792,"YouTub":6793,"ĠzhÃ¬ĠdÃ¬Ġ":6794,"pÃºĠtÃ¡oĠyÃ¡Ġ":6795,"jÄ«ĠzÃłiĠ":6796,"chuÄ«Ġ":6797,"fÅ«ĠdeĠ":6798,"ĠyÇĶĠyÄ«Ġ":6799,"Ġ1993ĠniÃ¡nĠ":6800,"miÇİnĠfÃ¨iĠ":6801,"ĠliÃ¹":6802,"liÃłngĠwÃ¨iĠ":6803,"dÄĽngĠdÄĽngĠ":6804,"xiÄĽĠzuÃ²Ġ":6805,"mÃ¨ngĠjiÄģĠ":6806,"tÃ¨ĠxÃ¬ngĠ":6807,"shÄ«ĠqÃ¹":6808,"Ġ100":6809,"mÇĶĠdeĠ":6810,"jiÇİĠdÃ¬Ġ":6811,"ĠwÃ¨iĠyÃºĠmÄĽiĠguÃ³Ġ":6812,"ĠtÃ¡ng":6813,"wÃ¹ĠshÃ¬Ġ":6814,"ĠxÅ«Ġ":6815,"ÇĴuĠxiÃłngĠ":6816,"ĠxiÃłnĠjÃŃĠ":6817,"lÃŃngĠchÃ©nĠ":6818,"xÄ«ĠhÃ©Ġ":6819,"biÇİn":6820,"Ġ2000ĠniÃ¡nĠ":6821,"zhÃ¨ĠshÃ¬Ġ":6822,"zÅįngĠyÃ¬Ġ":6823,"ĠyÄ«ĠyuÃłn":6824,"ĠlÇĲĠkÃ¨Ġ":6825,"dÅįngĠbÄĽi":6826,"kÅįngĠqÃ¬Ġ":6827,"ĠwÃºĠfÇİĠ":6828,"ĠĠĠ10":6829,"ĠĠĠgÃ¨ĠrÃ©nĠ":6830,"50ĠniÃ¡nĠ":6831,"tÃ²uĠlÃ¹Ġ":6832,"zhuÃłnĠdeĠ":6833,"ĠzuÃ¬ĠjiÄģĠ":6834,"cÇİnĠ":6835,"ĠkÃ¹Ġ":6836,"kÇİoĠshÃ¬Ġ":6837,"kuÃłĠ":6838,"yÃ¬nĠnÃŃĠ":6839,"zÇĴngĠrÃ©nĠkÇĴuĠ":6840,"zhuÄģnĠyÃ¨":6841,"ĠfÃºĠwÃ¹Ġ":6842,"zhÇĶĠyÃ¬ĠzhÄĽĠ":6843,"Ġ2008":6844,"sÅ«ĠgÃ©ĠlÃ¡nĠ":6845,"dÇİnĠ":6846,"ĠfÄģĠxiÃłnĠ":6847,"nÃłĠdeĠ":6848,"zuÃ²ĠwÃ©i":6849,"guÃ²ĠdÃ¹Ġ":6850,"ĠĠĠPro":6851,"qÄ«ĠshÃŃĠ":6852,"our":6853,"ĠjÄ«ĠchÇĶ":6854,"fÄģĠdÃ²ngĠjÄ«Ġ":6855,"fÇİnĠhuÃŃ":6856,"Ġ1945ĠniÃ¡nĠ":6857,"ĠsÄ«ĠlÃ¬ngĠbÃ¹Ġ":6858,"Ġ2009":6859,"wÇĶĠshÃ¬Ġ":6860,"gÇĶĠlÃ¬Ġ":6861,"ÃłoĠmÃ©n":6862,"ĠfÃºĠjiÃłnĠ":6863,"ĠĠĠ2008":6864,"ark":6865,"siĠ":6866,"jiÄģnĠrÃ¨nĠ":6867,"shÃłoĠnÇļĠ":6868,"ĠpÃ²Ġ":6869,"ĠdÃ¬ĠliÃ¹Ġ":6870,"ĠxiÃłnĠchÃ©ngĠ":6871,"guÇİngĠchÇİng":6872,"guÇİnĠlÇĲĠjÃºĠ":6873,"tÄģiĠ":6874,"ĠĠĠrÃ©nĠ":6875,"xÄ«ĠdÃ¬Ġ":6876,"zÇĴuĠxiÃłngĠ":6877,"ĠzÃłiĠhÃ©Ġ":6878,"ĠnuÃ²Ġ":6879,"ĠyuÃ¡nĠbÄĽn":6880,"ĠzuÃ²ĠzhÃłnĠ":6881,"chÄĵĠduÃ¬Ġ":6882,"sÃ¬ĠdeĠ":6883,"teĠ":6884,"jiÄģnĠyÃ¹Ġ":6885,"ĠÃ©rĠfÄĵiĠ":6886,"zÃ¨ng":6887,"ĠliÃ¡nĠhÃ©Ġ":6888,"guÃ³ĠshÃ¬Ġ":6889,"jiÃ¹ĠyuÃ¡nĠ":6890,"hÃ¹ĠbÃ¹Ġ":6891,"wÇİĠÄĽrĠshÄĽngĠ":6892,"ĠchÅ«ĠdÃłoĠ":6893,"shÇĲĠshÃłngĠ":6894,"ĠniÃ¡nĠ1ĠyuÃ¨Ġ1ĠrÃ¬Ġ":6895,"shÅįuĠdÃłoĠ":6896,"mÃłiĠkÃ¨Ġ":6897,"gÇİiĠshÃłnĠ":6898,"ss":6899,"ĠdÃłi":6900,"jiÄģngĠyÃºĠ":6901,"guÇİnĠzhÃ¬Ġ":6902,"huÃŃĠyÃ¬Ġ":6903,"huÃłiĠ":6904,"ĠgÅįngĠlÇĲĠdeĠ":6905,"xÃºnĠzhÇİo":6906,"yÃ¡nĠzhÃ¬Ġ":6907,"tiÄģnĠhÃ²uĠ":6908,"zhÅįngĠyÄģngĠ":6909,"ĠÄĽrĠshÃ¬Ġ":6910,"76":6911,"shÇĲĠrÃ©nĠ":6912,"yÃ¡nĠrÃ©nĠ":6913,"guÃ²ĠleĠ":6914,"xiÇİnĠzhÃ¹Ġ":6915,"ĠwÃ¨iĠyuÃ¡nĠ":6916,"guÃ³ĠwÃ¹Ġ":6917,"chÄĵĠxiÄģngĠ":6918,"wÃłngĠyuÇİnĠ":6919,"hÅįngĠzhÃł":6920,"ĠshÃŃĠyÃłnĠshÃ¬Ġ":6921,"ĠĠĠdÄģngĠ":6922,"dÃ¹ĠhÃ©Ġ":6923,"xiÅ«ĠdÃłoĠ":6924,"reĠ":6925,"cÃ¹ĠjÃ¬nĠ":6926,"ĠyÃ¬ĠjiÃłnĠ":6927,"ĠdÃłĠgÅįngĠ":6928,"gÃ©ĠlÃŃĠ":6929,"ĠqiÃ¡nĠwÇİngĠ":6930,"chÅįngĠtÅ«":6931,"ĠĠĠThe":6932,"kÇİn":6933,"ĠyÃ²ng":6934,"ĠzÃ¡ĠzhÃ¬Ġ":6935,"bÃ¨iĠchÄĵngĠwÃ©iĠ":6936,"dÅįngĠjÄ«ng":6937,"ĠdÃ²ngĠ":6938,"zhÃ¡i":6939,"jiÄģĠtÃŃngĠ":6940,"bÄĵngĠ":6941,"ĠyÃŃĠgÃ¨":6942,"ĠĠĠyuÃ¨Ġ":6943,"ĠdÃ¬ĠfÄģng":6944,"ĠfÃ¹ĠjÃ¬nĠdeĠ":6945,"luÃ²ĠshÄģnĠjÄ«Ġ":6946,"yÇĲnĠyÃ²ngĠ":6947,"fÃ¨iĠchÃºĠ":6948,"98":6949,"ĠyÃ¬ĠshÃ¬Ġ":6950,"ĠĠĠchÅ«Ġ":6951,"ÃłoĠÄĽrĠ":6952,"zhuÄģĠ":6953,"ĠjÃŃĠshÇĲĠ":6954,"hÄĽnĠkuÃłiĠ":6955,"man":6956,"ĠsÃłiĠ":6957,"bÃ¬ĠdeĠ":6958,"jiÇİoĠdÃ¹Ġ":6959,"zuÇĴĠyÃ¬Ġ":6960,"ĠchÃ©ngĠbÄĽnĠ":6961,"ngĠĠĠ":6962,"dÃ¬ĠhÃ©Ġ":6963,"ĠdÃ¬ĠtÃºĠ":6964,"ĠxÃŃngĠdÃ²ng":6965,"wÅį":6966,"wÃ©iĠzhÇĶĠ":6967,"liÃ¡nĠjiÄĵ":6968,"ĠbÄ«ngĠ":6969,"xiÄģngĠshÃ¬Ġ":6970,"yuÃłnĠyÃ¬Ġ":6971,"ĠyuÃ¨ĠduÃ¬Ġ":6972,"ĠjÅ«nĠqÅ«Ġ":6973,"kÅįngĠjiÄģn":6974,"ĠnÃ©ngĠ":6975,"ĠĠĠ16":6976,"shÃ¨ĠbÃ¨iĠ":6977,"ĠdÃłnĠbÃ¡iĠ":6978,"Ġ00":6979,"ĠxiÄģn":6980,"yÃºĠhÃ©Ġ":6981,"shÄģnĠxiÃłnĠ":6982,"zÇĶĠdeĠ":6983,"fÃłngĠzÃłiĠ":6984,"biÄģnĠhÃłoĠwÃ¨iĠ":6985,"ĠjiÇİ":6986,"ĠyÃºnĠ":6987,"ĠĠĠsÄ«Ġ":6988,"jÄ«ĠchÇĶ":6989,"tÃ¡iĠbÄĽiĠshÃ¬Ġ":6990,"mÃ²ĠsÄ«ĠkÄĵĠ":6991,"54":6992,"zÃ©i":6993,"dÇİoĠshÃłngĠ":6994,"ĠkÃ¨ĠÄĽrĠ":6995,"shÃłngĠbÃ¹Ġ":6996,"cÇĲĠtÃ³ngĠshÃŃĠ":6997,"cÃŃĠzhÃŃĠ":6998,"kÄģiĠgÅįngĠ":6999,"tÅįngĠzhÄ«Ġ":7000,"xÇĲĠhuÄģnĠ":7001,"ĠgÄĵ":7002,"ĠĠĠzhÃ¨ngĠ":7003,"jiÇĶĠdeĠ":7004,"ĠzhÄ«ĠshÃ¬Ġ":7005,"liÃ¨ĠrÃ¹Ġ":7006,"wÃłiĠjiÄģoĠbÃ¹Ġ":7007,"jiÄģĠzÃłiĠ":7008,"yÇĲngĠshÃ¬Ġ":7009,"huÃłnĠzhÄĽĠ":7010,"cÅ«Ġ":7011,"ĠqÄ«nĠ":7012,"jÇĲnĠyÇĴuĠ":7013,"cÄģnĠxuÇİnĠ":7014,"Ã©ĠluÃ³ĠsÄ«ĠdeĠ":7015,"bÃ¬ĠmiÇİn":7016,"ĠBĠ":7017,"uĠ":7018,"ĠlÃ¡i":7019,"Ġ1995ĠniÃ¡nĠ":7020,"zhÃ¨ngĠfÇĶĠdeĠ":7021,"200Ġ":7022,"ĠkÇİ":7023,"ĠcÄģnĠyÃ¹Ġ":7024,"ĠĠĠ2009":7025,"zhÄĵngĠyuÃ¨Ġ":7026,"thĠ":7027,"tÃ¬ĠdÃłiĠ":7028,"cÇİiĠfÇİng":7029,"chÃ¹ĠzhÇİngĠ":7030,"00ĠmÇĲ":7031,"Ġ29":7032,"qiÃ¡ngĠzhÃ¬Ġ":7033,"liÃºĠyÃ¹Ġ":7034,"95":7035,"dÄģngĠniÃ¡nĠ":7036,"ĠwÃ¨iĠzÃłiĠ":7037,"bÃ¬ĠmiÇİnĠ":7038,"tÃŃĠchÅ«ĠleĠ":7039,"xuÃ©ĠzhÅįngĠ":7040,"fÃ¹ĠshÃ¬Ġ":7041,"ĠgÃ¨ĠguÃ³Ġ":7042,"ĠhÃłoĠxiÃłn":7043,"jÇĲngĠgÃłoĠ":7044,"chuÃłngĠzuÃ²ĠdeĠ":7045,"ĠĠĠbÄģĠ":7046,"shÄģnĠdÃ¬Ġ":7047,"lÇĲĠlÃ¹n":7048,"ĠdÃ©ĠlÄģĠ":7049,"qiÇİo":7050,"fÄĵngĠfÃ¹Ġ":7051,"cÃŃĠdeĠ":7052,"ĠyÇĲĠzÃłiĠ":7053,"zhÇĶĠtÃŃ":7054,"zhÇİngĠguÄģnĠ":7055,"ĠfÄĵnĠbiÃ©Ġ":7056,"ĠdiÃłnĠyÇĲng":7057,"Ġ12Ġ":7058,"ĠkÇİiĠ":7059,"ĠĠĠgÃ¹ĠshÃ¬Ġ":7060,"sÄ«ĠshÃ¬Ġ":7061,"ĠsÄ«ĠmÇİĠ":7062,"zÅįngĠjiÃło":7063,"jÄ«ngĠdiÇİnĠ":7064,"qÄ«ĠzÇĲ":7065,"hÇİiĠÃłn":7066,"gÇĶĠlÇİo":7067,"bÃ³ĠlÃŃnĠ":7068,"bÃ¹ĠdeĠcÅ«nĠzhuÄģngĠ":7069,"ĠĠĠyÇĲĠxiÃł":7070,"sÄģoĠ":7071,"zÃłnĠzhÃ¹Ġ":7072,"pÃ¹Ġ":7073,"kÇĴuĠdeĠ":7074,"jÃ¬ĠsuÃłn":7075,"ÄģĠgÄĵnĠ":7076,"yÇĲnĠrÃ¹Ġ":7077,"Ġ1985ĠniÃ¡nĠ":7078,"liÇİoĠjiÄĽĠ":7079,"ĠyuÃ¨ĠlÃ¡iĠyuÃ¨Ġ":7080,"pÇĶĠbiÃłn":7081,"qiÃ¡ngĠdÃ¹Ġ":7082,"ĠĠĠwÃ©iĠ":7083,"sÅ«ĠwÃ©iĠ":7084,"jiÃłngĠyÇĶĠ":7085,"ĠzÃłiĠ194":7086,"ĠgÅįngĠyÃ¬ngĠ":7087,"ÄģnĠzhuÄģngĠ":7088,"cÇİiĠqÇĶ":7089,"tÇĲĠyÃ¹ĠchÇİngĠ":7090,"zhÃ³uĠ":7091,"guÇİnĠdeĠ":7092,"ĠzhÄ«ĠdÃ¬Ġ":7093,"guÄģnĠfÄģng":7094,"shÄ«ĠqÃ¹Ġ":7095,"xiÇİoĠxÃŃngĠxÄ«ng":7096,"sti":7097,"qiÃ¡ngĠdeĠ":7098,"yÇĶnĠshÃŃĠ":7099,"ĠrÃ©nĠdÃłĠ":7100,"fÄģĠshÄĵngĠdeĠ":7101,"zÃ²ng":7102,"ĠfÃ¨ngĠ":7103,"ĠsuÅįĠ":7104,"ĠĠĠfÃ¹Ġ":7105,"cÃ©ngĠdeĠ":7106,"guÃłnĠjÅ«n":7107,"all":7108,"ĠshÃŃĠhÃ²uĠ":7109,"ĠzhÄ«ĠjiÄģĠ":7110,"mÇİĠlÃ¡iĠxÄ«ĠyÃł":7111,"xiÃłĠzÃłiĠ":7112,"ĠgÃ¨ĠzhÇĴng":7113,"ĠkÃ¨ĠhÃ©Ġ":7114,"Ġ1990ĠniÃ¡nĠ":7115,"ĠjuÃ©ĠdÃ¬ngĠ":7116,"suÇĴĠyÇĴuĠdeĠ":7117,"tÃ³ngĠxÃ¬ngĠ":7118,"ĠQ":7119,"zÇİoĠshÃłngĠ":7120,"ĠyÃ³uĠjÄ«Ġ":7121,"ĠfÃ¹ĠzÃ©ĠguÇİnĠxiÃ¡Ġ":7122,"zhÃłnĠtÃ¡iĠ":7123,"shÇĴuĠdÅ«":7124,"zhÇİnĠlÇİnĠ":7125,"ĠhÅįngĠ":7126,"Ġì":7127,"biÄģnĠwÃ¨iĠ":7128,"hÅ«ĠyÃ¹Ġ":7129,"ĠxiÃłnĠshÃłngĠ":7130,"zhÃłoĠpiÄģnĠ":7131,"xuÇİnĠjÇĶĠzhÅįngĠ":7132,"ĠbÇİo":7133,"liÃ¨ĠchÅ«Ġ":7134,"fÄĵiĠxÃŃng":7135,"ĠyÄ«ĠzhÃŃĠ":7136,"dÄ«ĠqÃ¬Ġ":7137,"ĠĠĠzÄĵngĠzÇĶĠ":7138,"ĠshÇĴu":7139,"tuÇĴ":7140,"ĠyÇĶĠqÃŃĠ":7141,"BC":7142,"BS":7143,"ĠdÃ¬ngĠ":7144,"ĠĠĠ8":7145,"guÇİngĠzhÅįu":7146,"mÃ²ĠÄĽrĠ":7147,"shÃ©nĠme":7148,"huÃŃĠguÄ«Ġ":7149,"yÃŃnĠpÃ¡iĠ":7150,"ĠyÃŃ":7151,"ĠshÄģ":7152,"sÄģnĠdÃłĠ":7153,"lÄģĠdÃ©Ġ":7154,"shÅ«ĠchÅ«Ġ":7155,"ĠchÃ©ngĠxiÃłn":7156,"tÃłiĠkÅįngĠ":7157,"cÃ¡iĠliÃło":7158,"lÄģĠdeĠ":7159,"lÃ¡nĠxÄ«Ġ":7160,"mÃŃngĠdÄģnĠ":7161,"shÄĵnĠqÇĲng":7162,"Ġ2007":7163,"guÃ³ĠwÃ¡ngĠ":7164,"ĠÃ©rĠgÄģiĠdÃ¬ĠdeĠ":7165,"ĠxiÃ¨":7166,"shÃ¬ĠĠĠ":7167,"dÃ¹nĠdeĠ":7168,"ĠchÅ«ĠyÇİnĠ":7169,"Ġ1991ĠniÃ¡nĠ":7170,"ĠgÄĵnĠ":7171,"zhÃ¬Ġ199":7172,"ĠyÇĴuĠxiÄĵ":7173,"gÇĶĠlÄģĠ":7174,"Ġ9Ġ":7175,"qiÃ¡nĠhÃ²uĠ":7176,"ĠshÃ¬ĠbÄ«ngĠ":7177,"ĠhÃ©ĠgÇĶĠ":7178,"zÇİoĠqÄ«ĠdeĠ":7179,"tÃ²ngĠ":7180,"hÃ©ĠzÃłiĠ":7181,"tiv":7182,"sÄģnĠrÃ©nĠ":7183,"ĠjÃ¬ĠlÃ¹":7184,"ĠzhÇĶĠyÇİnĠ":7185,"mer":7186,"ÃłnĠshÃ¬Ġ":7187,"duÅįĠcÃ¬":7188,"ĠyÇĲĠsÃ¨ĠliÃ¨Ġ":7189,"duÃ¬ĠyuÃ¡nĠ":7190,"qiÃºĠhuÃ¬Ġ":7191,"bÃłnĠniÃ¡nĠ":7192,"ĠbÃ¹ĠmÇİnĠ":7193,"ĠjÃ¬ĠyÃ¬Ġ":7194,"ĠduÃ¬ĠcÇĲĠ":7195,"sÄĵnĠlÃŃn":7196,"od":7197,"Ġ50":7198,"shÃŃĠhÃ©Ġ":7199,"zhÄ«ĠshÃŃĠ":7200,"zhuÅį":7201,"zÄģoĠyÃ¹Ġ":7202,"bÃ³ĠjuÃ©Ġ":7203,"qÄ«nĠwÃ¡ngĠ":7204,"ĠtiÄĽĠ":7205,"ĠbÃ¹ĠshÇİo":7206,"ĠshÃŃĠbÃłoĠ":7207,"ĠchÃ©ngĠleĠ":7208,"ĠyÇĲĠqiÃ¡nĠ":7209,"ĠkÃ¨ĠlÃ¬Ġ":7210,"xiÃłĠjiÃłngĠ":7211,"jÃ¬ngĠnÃ¨i":7212,"xÄ«ngĠqÄ«":7213,"jiÃłnĠzhÃ¹":7214,"mÃŃnĠzhÇĶĠdÇİng":7215,"42":7216,"zhÃłĠdÃłnĠ":7217,"pÇĴ":7218,"tÃ¨ĠlÃ¬Ġ":7219,"dÃ¬ngĠyÃºĠ":7220,"liÃ¡nĠrÃ¨nĠ":7221,"zhÇĲĠkÃ²ngĠ":7222,"shÄģnĠdÅįngĠshÄĽngĠ":7223,"ich":7224,"ĠzhÃ²ng":7225,"Ġ2003ĠniÃ¡nĠ":7226,"tÃºĠdeĠ":7227,"yÅįuĠxiÃ¹":7228,"ĠzhÄģoĠhÃ©Ġ":7229,"ry":7230,"ĠkÇİi":7231,"ĠjuÃ©Ġ":7232,"bÇİoĠdeĠ":7233,"ĠbÃ¨iĠÄĽr":7234,"xiÃłĠlÃ¡iĠ":7235,"ĠĠĠgÃłiĠyÃłoĠ":7236,"qÃº":7237,"shÃ¨ngĠchÅ«Ġ":7238,"shÃ²uĠquÃ¡nĠ":7239,"ĠjiÃłoĠyÃ¹Ġ":7240,"zÃłnĠtÃŃngĠ":7241,"80Ġ":7242,"ĠwÃ¨iĠnÃ©ng":7243,"ĠjÅ«nĠdÃ¬Ġ":7244,"fÄĵnĠdeĠ":7245,"sÄģnĠgÃ¨":7246,"Ġ1950ĠniÃ¡nĠ":7247,"53":7248,"wÇİngĠshÃłngĠ":7249,"tÇİĠÄĽrĠ":7250,"ĠdÃ¬ĠzhÃ¨nĠ":7251,"bÄĽiĠfÄģngĠ":7252,"pÇĶĠchÃ¡Ġ":7253,"yÃ¡nĠjiÅ«ĠshÄĵngĠ":7254,"nÃ¹Ġ":7255,"ĠdeĠjÃ¹Ġ":7256,"lÇĲngĠdÇİoĠdeĠ":7257,"mÇĴuĠxiÄĵ":7258,"43":7259,"tÃ¨ĠÄĽrĠ":7260,"ĠxiÃłnĠyÇĴuĠ":7261,"Ġ1988ĠniÃ¡nĠ":7262,"ĠxuÇİnĠ":7263,"ĠsÃ¹Ġ":7264,"hÇİoĠpÃŃngĠ":7265,"ĠzhÅįngĠjiÄģnĠ":7266,"ĠshÃ¨ĠyÃºĠ":7267,"ĠshÄĵngĠmÃŃngĠ":7268,"cÄģnĠshÃ¹Ġ":7269,"shÃ¨ĠhuÃ¬":7270,"ĠshÃŃĠxiÃłn":7271,"chÇİngĠbÇĲĠsÃłiĠ":7272,"ĠkÇİoĠ":7273,"ard":7274,"ĠjÃŃĠbÃ¬ngĠ":7275,"ĠquÃ¡nĠzhÇİngĠ":7276,"ĠsuÃ¬ĠdeĠ":7277,"aw":7278,"dÃ¨ng":7279,"tÃ³ngĠmÃŃngĠ":7280,"tÃ¨ĠyÇĴuĠ":7281,"ent":7282,"pÄ«nĠ":7283,"qÄ«ngĠchÃ¡oĠ":7284,"lÇľĠsÃ¨Ġ":7285,"yÃ³uĠxÃŃngĠ":7286,"ĠxÃŃngĠbÃ¹Ġ":7287,"wÃ©nĠzhÅįngĠ":7288,"dÃ¡ĠzhÅįuĠ":7289,"pÃ¨iĠbÃ¨iĠ":7290,"ĠgÅįngĠnÃ©ng":7291,"gÇİiĠzhÃ¬ĠwÃ¨iĠ":7292,"Ġr":7293,"ĠfÇİ":7294,"ĠĠĠdÃ¬ĠyÄ«Ġ":7295,"gÇĶn":7296,"gÇİngĠyuÃ¡nĠ":7297,"ĠxÄ«nĠzÄĵngĠ":7298,"fÃ¨iĠyÃ¡nĠ":7299,"ee":7300,"kÇĶ":7301,"mp":7302,"chÇĴu":7303,"qÃŃngĠdeĠ":7304,"cÄģnĠtÄ«ngĠ":7305,"fÃ¡ngĠwÅ«Ġ":7306,"fÄĽnĠsÄ«Ġ":7307,"ĠpÃŃngĠlÃ¹nĠ":7308,"xÃŃngĠtÃłiĠ":7309,"ĠzhÇĲĠzÃłiĠ":7310,"Ġ20Ġ":7311,"fÄģngĠmÇĲĠ":7312,"yÇĲngĠxiÃłngĠ":7313,"huÃ¡ngĠsÃ¨Ġ":7314,"tuÄ«ĠguÇİngĠ":7315,"ĠxiÃ¡nĠ":7316,"ĠguÇİngĠdÅįngĠ":7317,"wÇĶĠgÃ¨Ġ":7318,"xÃ¹ĠlÃ¬ĠyÃł":7319,"mÃ¬ĠdeĠ":7320,"cÃºnĠdeĠ":7321,"ĠwÃ©iĠrÃłoĠ":7322,"tiÄģnĠrÃ¡nĠ":7323,"ruÃ¬ĠdiÇİnĠ":7324,"shÄĵnĠshÃ¬Ġ":7325,"dÃłĠqÅ«Ġ":7326,"shÄĽngĠjiÄĵĠrÇİngĠ":7327,"qÄ«ngĠshÃłoĠniÃ¡nĠ":7328,"lÃ¹ĠyÃ¬ĠsÄ«Ġ":7329,"ani":7330,"ĠĠĠ2019ĠniÃ¡nĠ":7331,"sÃ¬ĠshÃ¬Ġ":7332,"hÃ¡iĠzÃłiĠ":7333,"ĠzhÃ¬ĠyÃŃĠ":7334,"ĠjiÄģĠtÃŃng":7335,"ĠshÇĴuĠcÃ¬Ġ":7336,"Ġ2022ĠniÃ¡nĠ":7337,"ĠxiÄģnĠhÃ²uĠ":7338,"tÃłiĠdeĠ":7339,"ĠxÄ«ĠÄĽrĠ":7340,"Ġ15Ġ":7341,"ĠĠĠ6":7342,"zhÄĽĠhÃ©Ġ":7343,"188":7344,"ĠjÃ¬nĠzhÇĲĠ":7345,"fÃ¨iĠyÃ²ngĠ":7346,"ĠĠĠk":7347,"bÇİoĠluÃ³Ġ":7348,"chÅ«ĠqÄ«Ġ":7349,"WĠ":7350,"ĠĠĠ0":7351,"ĠbÃ¨iĠpÃ²Ġ":7352,"zhÇİngĠzÇĲĠ":7353,"xÃ¬ngĠnÃ©ngĠ":7354,"ĠwÄĵiĠliÃ¡nĠ":7355,"wÃ¡ngĠwÃ¨iĠ":7356,"ĠzÃłiĠxÄ«nĠ":7357,"jÃ¬ngĠzhÄĵng":7358,"ĠjiÄģngĠsÅ«Ġ":7359,"ĠshÃ¨ĠhuÃ¬ĠzhÇĶĠyÃ¬Ġ":7360,"ĠmÃ¬Ġ":7361,"ĠĠĠjÄ«nĠ":7362,"sÄģnĠjÃŃĠ":7363,"zhÄĽĠhuÃ¬Ġ":7364,"luÃ²ĠsÄ«Ġ":7365,"ĠyuÃ¡nĠyÄ«n":7366,"xiÄģoĠliÃłngĠ":7367,"ĠshÃ¬ĠyÄ«ĠkÄĵĠ":7368,"gÃ¹ĠdÃ¬ngĠ":7369,"chuÃłngĠzÃłoĠ":7370,"ĠmÃłiĠkÃ¨Ġ":7371,"ĠzÃłiĠyÃ¬ĠqÇĲĠ":7372,"ĠnÇĲ":7373,"ĠchÅįngĠ":7374,"huÃŃĠguÃ³Ġ":7375,"chÃ¨n":7376,"xÄ«ĠnÃ¡nĠ":7377,"mÇİĠlÄģĠ":7378,"gÇİnĠlÇİn":7379,"wÃºĠxiÃłnĠdiÃłnĠshÃ¬Ġ":7380,"ĠshÃ©n":7381,"ĠbÇİĠ":7382,"mÇİĠkÃ¨ĠsÄ«Ġ":7383,"ĠdeĠzhÇĶĠyÃłoĠ":7384,"ĠjÃ¬ĠzÇİi":7385,"xiÄģngĠtÃ³ngĠdeĠ":7386,"cÃ¨ĠliÃ¡ng":7387,"Ġ185":7388,"fÄĵnĠchÃ©ngĠ":7389,"yÃ¬ngĠjÃŃĠ":7390,"ĠbÃ¹ĠlÃ¡iĠ":7391,"ĠdÃ¬ĠzhÃ¬Ġ":7392,"ĠsÄ«ĠkÄĵĠ":7393,"zhÄĵĠ":7394,"xÄ«nĠshÃ¬Ġ":7395,"lÄģĠhÃ©Ġ":7396,"48Ġ":7397,"ĠdeĠhuÃłĠ":7398,"ĠjÃŃĠhÃ²uĠ":7399,"ĠgÅįngĠqÇĲngĠ":7400,"xiÄģngĠbÇĲĠ":7401,"dÃ¹ĠshÇĲĠ":7402,"ĠzuÃ¬ĠdÃłĠ":7403,"ĠshÃ¬ĠjiÃ¨ĠbÄĵiĠ":7404,"chÇİnĠshÄĵngĠleĠ":7405,"ĠdÄ«ngĠ":7406,"ĠshÃŃĠxÃ¬ngĠ":7407,"tÃ¨ĠdiÇİnĠ":7408,"ĠguÃ³ĠjiÄģĠduÃ¬Ġ":7409,"tiÄĽĠlÃ¹ĠchÄĵĠzhÃłnĠ":7410,"duÇĴĠ":7411,"cÃ³ngĠwÃ¨iĠ":7412,"wÃ¡nĠzhÄĽngĠ":7413,"ĠshuÄģngĠfÄģngĠ":7414,"ĠtÃłi":7415,"ĠniÃ¡nĠlÃŃngĠ":7416,"xÄ«nĠwÃ©n":7417,"fÄĵnĠpÃ¨iĠ":7418,"ĠzhÃ¨ĠyÃłngĠ":7419,"74":7420,"ĠwÃłi":7421,"tuÄ«ĠjiÃłnĠ":7422,"fÃºĠluÃ³ĠlÇĲĠ":7423,"nÃ³ngĠcÅ«nĠ":7424,"96":7425,"kÃ²uĠ":7426,"lÇĲĠbÃ¹Ġ":7427,"dÄĽngĠdeĠ":7428,"lÃ¨iĠxÃŃngĠdeĠ":7429,"ĠtÄģĠcÃ©ngĠ":7430,"CO":7431,"ĠÏ":7432,"ĠhÃºĠnÃ¡nĠ":7433,"jÃŃĠbÃ¹Ġ":7434,"ziĠhÃ©Ġ":7435,"ĠzÃłiĠtÄģĠdeĠ":7436,"gÄģoĠdÃ¡Ġ":7437,"xiÃ©ĠdÃ¬ngĠ":7438,"ĠshÃ¬ĠzhÅįngĠhuÃ¡ĠrÃ©nĠmÃŃnĠgÃ²ngĠhÃ©ĠguÃ³Ġ":7439,"yÇĲngĠxiÇİngĠlÃ¬Ġ":7440,"bÄĵnĠ":7441,"chÅįngĠjÄ«Ġ":7442,"tÃ¨ĠlÄģĠ":7443,"qÃ¬ĠxuÃ¡nĠ":7444,"zhÃłngĠfÅ«Ġ":7445,"1000":7446,"ĠgÅįngĠgÃ²ng":7447,"tÃ¨ĠzhÄĵng":7448,"liÃ¡nĠjiÃ©Ġ":7449,"ĠzÃ¬ĠyÃ³u":7450,"Ġ1989ĠniÃ¡nĠ":7451,"ĠĠĠjiÄģĠtÃŃngĠ":7452,"ĠX":7453,"ĠcÃłi":7454,"ÃłnĠzhÅįngĠ":7455,"xiÄģĠ":7456,"dÃ²ngĠhuÃł":7457,"zhuÇİnĠyÃŃ":7458,"gÃ¨ngĠduÅįĠdeĠ":7459,"ĠdeĠzuÃ²ĠbiÄģoĠwÃ¨iĠ":7460,"tÄģĠzÃłiĠ":7461,"nÃłĠdÃ©Ġ":7462,"shÄģĠsÇĲĠ":7463,"ĠSĠ":7464,"fÃ©iĠ":7465,"shÄĵngĠzhÃ¬Ġ":7466,"ĠshÃ¬ĠhuÃ¬Ġ":7467,"ĠyÄ«ĠrÃ©nĠ":7468,"Ġsection":7469,"duÅįĠmÃŃngĠ":7470,"ĠdÃłoĠhÃ©Ġ":7471,"zhuÄģnĠmÃ©nĠ":7472,"ĠcÃ©ngĠrÃ¨n":7473,"Ġ40":7474,"xuÃ©ĠbÃ¹Ġ":7475,"lÇľĠdeĠ":7476,"ĠdÃłoĠyÄ«Ġ":7477,"fÃ¹ĠjÃ¬n":7478,"fÄģngĠxiÃłng":7479,"ĠtÃ³ngĠpÃ¡iĠ":7480,"Ġ11Ġ":7481,"ĠĠĠshÇĲĠyÃ²ngĠ":7482,"huÃ¬ĠyÃºĠ":7483,"sÃ¬ĠdÃłĠ":7484,"xuÇİnĠchÅ«Ġ":7485,"ĠniÃ¡nĠqÄ«ngĠ":7486,"ĠyÃºĠlÃ¨iĠ":7487,"ĠtÃ³ngĠyÃłngĠ":7488,"xÃ¬ĠliÃ¨ĠdeĠ":7489,"ĠmÃ©nĠ":7490,"yÄ«ĠxiÄĵĠ":7491,"shÄĵngĠjÄ«Ġ":7492,"ĠshÄĽnĠ":7493,"ĠĠĠ5":7494,"yÃ¬ĠbÃ¹Ġ":7495,"quÃ¡nĠshÃ¬Ġ":7496,"ĠshÃ¬ĠjÃ¬ĠdeĠ":7497,"ĠzÃłiĠtÄģĠ":7498,"ĠshÃŃĠzhÃ¬Ġ":7499,"ĠsÄ«ĠtÇİĠ":7500,"ĠjiÄģĠzÃº":7501,"mÃ¹ĠnÃŃĠ":7502,"chÄĵĠliÃłng":7503,"sÃ¨ĠfÅ«Ġ":7504,"Ġ1983ĠniÃ¡nĠ":7505,"bÄģnĠdeĠ":7506,"rÃ©ngĠzÃłiĠ":7507,"31Ġ":7508,"etĠ":7509,"guÄģnĠcÃ¨Ġ":7510,"nÃ¼Ã¨":7511,"zuÃ¬ĠwÃ¨iĠ":7512,"guÃ³ĠhuÃ¬Ġ":7513,"ĠtÄģĠrÃ¨nĠwÃ©iĠ":7514,"mÄĽiĠguÃ³ĠrÃ©nĠ":7515,"ĠyÇĴng":7516,"ĠxÇĶĠduÅį":7517,"jiÄģĠgÅįngĠ":7518,"hÇİiĠshÃłngĠ":7519,"zÇĴngĠhuÃ¬Ġ":7520,"sÇĲĠxÃŃngĠ":7521,"qÃ¬ngĠzhÃ¹Ġ":7522,"ĠyÇĴuĠdÃłĠ":7523,"fÃ¹ĠjÃ¬nĠdeĠ":7524,"qÇĶĠxiÄģo":7525,"ĠĠĠgÄĵnĠjÃ¹Ġ2020ĠniÃ¡nĠmÄĽiĠguÃ³ĠrÃ©nĠkÇĴuĠpÇĶĠchÃ¡ĠdeĠshÃ¹ĠjÃ¹Ġ":7526,"bÃ¬ngĠwÃ¨iĠ":7527,"guÃ³ĠlÃ¬Ġ":7528,"jiÄĵĠrÃ¨nĠ":7529,"zÄĵngĠjiÄģĠleĠ":7530,"âĨ":7531,"ĠchÃº":7532,"ĠdÇİngĠ":7533,"jÄ«ngĠjÃ¬":7534,"jiÄģngĠtÄģĠ":7535,"fÃºĠlÇĲĠ":7536,"wÇĶĠyuÃ¨Ġ":7537,"huÃŃĠhÃ©Ġ":7538,"sÇĲĠyÃºĠ":7539,"lÇİoĠshÄ«Ġ":7540,"ĠyÄ«ĠzhÃ¬Ġ":7541,"ĠchÅ«ĠfÄģĠ":7542,"bÄģnĠjiÇİngĠ":7543,"jiÇİngĠshÃ¹Ġ":7544,"qiÄģnĠyuÄĵĠ":7545,"shÃłngĠhÇİiĠshÃ¬Ġ":7546,"xiÄģngĠjÃ¬Ġ":7547,"cÇĲĠshÃŃĠ":7548,"qiÃ¨ĠÄĽrĠ":7549,"ĠyÇĴuĠzhÃ¹Ġ":7550,"ĠyÄ«ĠcÃŃĠ":7551,"shÇĴuĠbÅįĠ":7552,"ĠbÃ¬ngĠrÃ¹Ġ":7553,"ĠsÃ²ng":7554,"wÃ¹ĠhÃ©Ġ":7555,"xÃ¬ngĠshÃ¬Ġ":7556,"fÃ¡ngĠwÃ¨iĠ":7557,"ĠbÃ¹ĠyÄ«Ġ":7558,"zhÃ¨ngĠxiÃ©Ġ":7559,"ĠIn":7560,"kÇĶĠ":7561,"ĠqÃŃnĠ":7562,"ĠbÄģoĠhÃ¡nĠ":7563,"shÃłngĠyÄ«Ġ":7564,"dÄģnĠyuÃ¡nĠ":7565,"ĠshÃ¬ĠyÃ³u":7566,"ĠlÃ¬ĠshÇĶĠ":7567,"ĠdÃłĠdÃło":7568,"qÃºnĠdÇİo":7569,"dÄĵngĠchÃ¡ngĠ":7570,"cÄģnĠmÃ³uĠzhÇİngĠ":7571,"ĠĠĠ3Ġ":7572,"guÃ²ĠyÃºĠ":7573,"duÃ¬ĠshÇĴuĠ":7574,"ĠdeĠjÃ¬ĠlÃ¹Ġ":7575,"kuÃ²ĠzhÇİn":7576,"ĠkÄĽĠnÃ©ngĠ":7577,"ĠmÃ¡oĠ":7578,"fÃ¹ĠjiÄģĠ":7579,"bÄģĠÄĽrĠ":7580,"piÃłnĠdeĠ":7581,"ĠlÃ¬ĠziĠ":7582,"dÃłiĠlÃ¡iĠ":7583,"shÄģnĠmÃłiĠ":7584,"zhÃłoĠkÄģi":7585,"hÄĵngĠ":7586,"ĠsÃłiĠjÃ¬Ġ":7587,"chÄ«":7588,"ĠjÃŃĠxÃŃngĠzhÃ¨ngĠ":7589,"ĠjiÃłnĠkÄģngĠ":7590,"zhÃŃĠyÃ¨":7591,"gÇİiĠgÃ©":7592,"shuÄģngĠdÇİĠ":7593,"ĠsÃ¬ĠchuÄģnĠ":7594,"lÃ¨iĠsÃ¬ĠdeĠ":7595,"2ĠmÇĲĠ":7596,"34Ġ":7597,"Ġ2006":7598,"zhÃłnĠlÇĲng":7599,"yÄĽĠkÄĽĠyÇĲĠ":7600,"yÄ«ngĠgÄģi":7601,"ĠÄģĠlÄģĠ":7602,"Ġ000ĠrÃ©nĠ":7603,"lÃ¡iĠzÃ¬ĠyÃºĠ":7604,"ĠĠĠ12":7605,"mÄĽiĠjÅ«nĠ":7606,"zhÃŃĠzhÃ¬Ġ":7607,"ĠyÇĲĠzhÃ¬Ġ":7608,"hÇİiĠbÃ¡ĠgÄģoĠ":7609,"ĠdÃ¨ngĠ":7610,"120":7611,"oli":7612,"ĠĠĠdÃłn":7613,"qÃ¬ĠhÃ©Ġ":7614,"zhÇĶĠxÃŃ":7615,"nÃłĠcuÃ¬":7616,"cÃºnĠzÃłiĠdeĠ":7617,"97":7618,"jÇĲĠniÃ¡nĠ":7619,"zhuÃłngĠjÄ«Ġ":7620,"ĠkÃ¨ĠyÃ¹nĠ":7621,"zÇĶĠzhÇĲĠ":7622,"ong":7623,"ĠchÇĶĠ":7624,"ÄģĠÄĽr":7625,"ĠĠĠ2018ĠniÃ¡nĠ":7626,"hÃ©ĠwÃ¨iĠ":7627,"duÅįĠgÃ¨":7628,"shÄĽngĠdÃłoĠ":7629,"lÃ¡oĠgÅįngĠ":7630,"90Ġ":7631,"nÃ¡nĠjÃŃĠzhÅįuĠdeĠ":7632,"ĠxÄ«ng":7633,"Ġ1984ĠniÃ¡nĠ":7634,"fÄĵiĠzhÅįu":7635,"chuÃłngĠxÄ«nĠ":7636,"ĠhantĠ":7637,"ĠĠĠrÃ¡nĠÃ©rĠ":7638,"chÃ¡ngĠjiÃłnĠ":7639,"chuÃ¡nĠzhÄ«Ġ":7640,"ĠzhÄ«ĠzhÃłnĠ":7641,"ĠcÇİiĠyÃ²ngĠ":7642,"yÃ¡ngĠxiÃłnĠ":7643,"ĠxiÃłnĠzhÄ«ĠxiÃłnĠ":7644,"yÃ¡nĠzhÃ²ngĠdeĠ":7645,"fÄģĠshÄĵngĠleĠ":7646,"shÇĶĠdeĠzhÃŃĠwÃ¹Ġ":7647,"ex":7648,"bÃ¹ĠfÃ¨nĠ":7649,"xÄ«ĠbÄĽiĠ":7650,"duÃ¬ĠwÇĶĠ":7651,"ĠyÃ³uĠcÇĲĠ":7652,"jiÃłngĠdÄ«":7653,"shuÃłiĠlÇĲngĠ":7654,"tÇĶĠÄĽrĠqÃŃ":7655,"jiÄģnĠshÃ¬Ġ":7656,"mÃ¬ĠsÄ«Ġ":7657,"ĠzhÄ«ĠliÃºĠ":7658,"suÇĴĠshÇĶ":7659,"tÃ³uĠbÃ¹Ġ":7660,"ĠyÇĴuĠguÄģn":7661,"xiÃłoĠyÃ¬ngĠ":7662,"ĠzhÇĲĠshÃ¬Ġ":7663,"bÃŃĠ":7664,"xÄ«nĠrÃ©nĠ":7665,"diÃłnĠdeĠ":7666,"yÃłoĠdeĠ":7667,"ĠjiÃłnĠshÃ¬Ġ":7668,"ĠtÄģĠduÃ¬Ġ":7669,"kÄģiĠzhÇİnĠ":7670,"ĠxiÇİoĠshuÅįĠ":7671,"87":7672,"xÄ«ĠshÃ¬Ġ":7673,"zÇĴngĠcÃ¡iĠ":7674,"ĠdÅįngĠjÄ«ngĠ":7675,"ĠshÃ¬ĠyÃ¬ĠdÃłĠlÃ¬Ġ":7676,"xuÃłnĠ":7677,"leĠĠĠ":7678,"huÃ¬ĠyÇĲĠ":7679,"zÃ¬ĠwÃ¨iĠ":7680,"huÃ¡iĠyÃŃĠ":7681,"ĠzÃłiĠyÇĶĠ":7682,"ĠyÇĲĠyÃºĠ":7683,"ĠdÃłĠqiÃ¡oĠ":7684,"ĠlÃ¬ngĠwÃłi":7685,"no":7686,"Ã©ĠwÃ¨iĠ":7687,"hÄĵiĠrÃ©nĠ":7688,"jÄ«ĠbÄĽnĠ":7689,"yÃłĠmÃ¹Ġ":7690,"ĠjiÃ©ĠshÃ¹Ġ":7691,"ĠxÃ¹Ġ":7692,"huÃ¬ĠshÃ¬ĠdÃ¬Ġ":7693,"zhÇĲĠdeĠ":7694,"huÃ¡nĠxÃŃngĠ":7695,"ĠgÅįngĠlÃ¹":7696,"ĠdÃ©ĠdÃłoĠleĠ":7697,"ĠshÃ¨ĠjÃ¬ĠdeĠ":7698,"chuÃ¡nĠmÃ©iĠ":7699,"zhÅįuĠbiÄģnĠ":7700,"yÃ¹nĠdÃ²ngĠdeĠ":7701,"ĠlÃŃ":7702,"yÃ¡nĠshÃŃĠ":7703,"qiÄģnĠdÃ¬ngĠ":7704,"nÃ¡ĠpÃ²Ġ":7705,"zhÃ¹ĠdÃ¬Ġ":7706,"luÃ³ĠdÃ©Ġ":7707,"zhÄĽngĠgÃ¨":7708,"ĠshÃ¬ĠyÄ«ĠzuÃ²Ġ":7709,"xiÃłĠxiÃ¡ĠyÇĲĠxiÃł":7710,"xÄ«nĠjiÄģĠpÅįĠ":7711,"ĠlÃ©i":7712,"Ġ2024":7713,"ĠĠĠ3ĠyuÃ¨Ġ":7714,"bÄĽnĠxiÃłnĠ":7715,"xÇĲng":7716,"zhÇĲĠdÃ¬ngĠ":7717,"hÃ¡ngĠtiÄģnĠ":7718,"gÇĶĠfÃ¨nĠyÇĴuĠxiÃłnĠgÅįngĠsÄ«Ġ":7719,"pÅ«Ġ":7720,"zhÇİngĠdÃłĠ":7721,"ĠjÃŃĠlÃŃnĠ":7722,"tÇĲĠyÃ¹":7723,"fÃłngĠqÃ¬":7724,"gÃ©ĠÄĽrĠ":7725,"70Ġ":7726,"xÄ«ĠbÄĽiĠbÃ¹Ġ":7727,"mÃ¹ĠsÄ«ĠlÃŃnĠ":7728,"ĠbÃ¹ĠÄĽrĠ":7729,"ĠxÃŃngĠshÇĲĠ":7730,"fÇİĠtÃŃngĠ":7731,"cÄģnĠyÃ¹ĠleĠ":7732,"ĠsuÃŃĠzhe":7733,"ĠÃ©":7734,"ĠluÃ²":7735,"ĠdeĠgÃ¹ĠshÃ¬Ġ":7736,"ĠzÃłiĠgÄģiĠ":7737,"ĠlÃ¬ĠyÃ²ng":7738,"jiÄĵĠshÅįuĠ":7739,"yÃŃĠchÇİn":7740,"xÃºnĠhuÃ¡nĠ":7741,"yÄ«ĠbÃ¹ĠfÃ¨n":7742,"zhÃłnĠwÃ¨iĠyÃºĠ":7743,"ĠwÃ©iĠchÃŃĠ":7744,"jÃ¬ngĠsÃłiĠ":7745,"ĠxiÄģngĠdÄģng":7746,"ĠshÄĵngĠzhÇİngĠyÃºĠ":7747,"ĠyÃºĠ193":7748,"ĠnÃ¡nĠziĠ":7749,"hÇİiĠbÃ¡ĠgÄģoĠdÃ¹ĠwÃ¨iĠ":7750,"2ĠĠĠ":7751,"con":7752,"ĠshÃ¹n":7753,"zhÄĽĠwÃ¨iĠ":7754,"xÃºnĠqiÃºĠ":7755,"nuÃ²ĠyÄ«Ġ":7756,"ĠgÅįngĠchÇĲ":7757,"xÄ«ĠnÃ¡nĠbÃ¹Ġ":7758,"ĠxiÃłnĠjÄ«nĠ":7759,"yÃ³uĠtÃłiĠrÃ©nĠ":7760,"bÄĽnĠtÇĶĠ":7761,"ĠzhÅįngĠguÃ³ĠguÃ³ĠmÃŃnĠ":7762,"ĠdiÃłnĠshÃ¬Ġ":7763,"ĠqiÃºĠhuÃ¬Ġ":7764,"shÄĽngĠwÄĽiĠ":7765,"mÄĽiĠyuÃ¡nĠdeĠ":7766,"guÄģngĠxÃ¹Ġ":7767,"duÄ«Ġ":7768,"dÄģnĠyÄ«Ġ":7769,"yÃ¹nĠhÃ©Ġ":7770,"ĠbÃ¹ĠdÃŃĠ":7771,"ĠdeĠchÃ©ngĠzhÃ¨nĠ":7772,"ĠbÃ¡i":7773,"lÄģĠÄĽrĠ":7774,"ĠyÄ«ĠliÃ¡oĠ":7775,"yÇĲnĠzhÇĴngĠ":7776,"tÄģoĠ":7777,"ĠchÄĵĠzhÃłn":7778,"ĠĠĠ2007":7779,"wÃ¹ĠyuÃ¡nĠ":7780,"bÃºĠyÃłoĠ":7781,"ĠniÃ¡nĠniÃ¡nĠ":7782,"ĠxÃŃngĠxiÃłngĠ":7783,"lÃ¹ĠzhÃłnĠ":7784,"ĠzhÃ¨ĠshÇĴuĠ":7785,"bÄģĠlÄģĠ":7786,"yÃŃngĠyÃ¨Ġ":7787,"ĠhÃ©ĠlÇĲĠ":7788,"ĠyÄ«ĠzhÄ«Ġ":7789,"wÃ©nĠhuÃłĠdeĠ":7790,"bÄģngĠzhÃ¹":7791,"dÄģo":7792,"ĠbÇİi":7793,"ĠĠĠ5ĠyuÃ¨Ġ":7794,"gÄĵĠjÃ¹Ġ":7795,"taĠ":7796,"ĠguÃ³ĠmÃŃn":7797,"mÃ²ĠsÄ«ĠkÄĵ":7798,"wÄĽiĠfÃ¹ĠshÅ«ĠjÃ¬Ġ":7799,"ĠhÃ¨":7800,"ĠĠĠv":7801,"cÃ¬ĠwÃ¨iĠ":7802,"wÇĶĠdÃ¬Ġ":7803,"miÇİo":7804,"biÃ©ĠdeĠ":7805,"sÄ«ĠlÃ¡nĠ":7806,"ĠkÃ¨ĠlÄģĠ":7807,"eb":7808,"ĠĠĠst":7809,"zhÃŃĠyuÃ¡nĠ":7810,"shÄģngĠdeĠ":7811,"90ĠniÃ¡nĠ":7812,"ĠdÃ¬ĠmiÃłnĠ":7813,"xÄ«ĠlÃł":7814,"rÃ³ngĠnÃłĠ":7815,"dÇĲĠkÃłngĠ":7816,"xÃºnĠyÃ¡ngĠjiÃłnĠ":7817,"ob":7818,"qÃºĠ":7819,"ĠzhÄĵn":7820,"ĠnÇİi":7821,"ĠwÃ¨iĠcÇĲĠ":7822,"guÄ«ĠfÃłnĠ":7823,"lÃŃĠziĠ":7824,"ĠqÃŃĠzhÅįngĠnÃ¡nĠxÃ¬ngĠ":7825,"dÅ«ĠdÅ«Ġ":7826,"kuÃłiĠsÃ¹":7827,"ĠwÅ«ĠkÃ¨ĠlÃ¡nĠ":7828,"yÃ³uĠqÃŃĠ":7829,"mÃ©nĠdeĠ":7830,"shÇĴuĠxÃŃĠ":7831,"cÃ©ngĠshuÇĲĠyÃ¹Ġ":7832,"jiÇİnĠdÄģnĠ":7833,"Ġ1986ĠniÃ¡nĠ":7834,"zhuÃłnĠdeĠxiÇİoĠxÃŃngĠxÄ«ngĠ":7835,"85":7836,"ty":7837,"ĠyÃ¡oĠ":7838,"ĠĠĠpÃŃngĠjiÃłĠ":7839,"ĠkÃ¨ĠlÃ¡iĠ":7840,"qÇĲĠleĠ":7841,"yuÃ¨ĠnÃ¡nĠ":7842,"jiÃ¨ĠshÃło":7843,"fÇĶĠzhÃ¹Ġ":7844,"fÃłĠ":7845,"ist":7846,"ĠpÇĶ":7847,"Ġre":7848,"ÄģĠlÇĲĠ":7849,"yÃ³uĠrÃ©nĠgÅįngĠ":7850,"zhÇİngĠwÃ¨iĠ":7851,"ĠshÃ¬ĠnÃ¨iĠ":7852,"ĠdÃ¬Ġ1Ġ":7853,"ĠhÃ²uĠqÄ«Ġ":7854,"ĠshÃ¨ĠjÄ«Ġ":7855,"nÃłĠxiÄĵĠ":7856,"ĠdeĠdÃ¬ĠÃ¨r":7857,"leĠyÄ«ĠxiÄĵĠ":7858,"ĠjiÃłnĠlÃ¬ĠleĠ":7859,"AO":7860,"ĠhuÃłnĠ":7861,"liÃºĠdeĠ":7862,"tuÄ«ĠchÅ«ĠdeĠ":7863,"ruÇİnĠtÇĲĠ":7864,"ĠshÃŃĠyÃ²ngĠ":7865,"ĠyÄ«ĠtiÃ¡oĠ":7866,"lÇĴngĠ":7867,"ĠxÃ¬nĠ":7868,"ĠjÇĲĠ":7869,"zhÃŃĠlÃ¬Ġ":7870,"juÃ©ĠleĠ":7871,"ami":7872,"ĠĠĠchÃºĠleĠ":7873,"shÃ¹ĠshÃ¬Ġ":7874,"cÃ¬ĠdÃłĠ":7875,"zhÅįngĠxÄ«nĠ":7876,"miÃłnĠlÃŃnĠ":7877,"luÃ³ĠbÃ³ĠtÃ¨Ġ":7878,"ĠdeĠyÄ«ĠxiÄĵĠ":7879,"ĠchÃ¡oĠxiÄģnĠ":7880,"jiÃłoĠyÃºĠ":7881,"ĠjiÃłnĠwÃ¨iĠ":7882,"bÃłnĠyÇİnĠ":7883,"qÃºnĠtÇĲĠ":7884,"yÇĶĠshÃ¬Ġ":7885,"ill":7886,"ĠzÃłiĠrÃ¬ĠbÄĽnĠ":7887,"ĠdÃłĠliÃłng":7888,"ĠxÄ«ĠyÇĲnĠ":7889,"tÃºĠxiÃłngĠ":7890,"fÄĵnĠbiÃ©ĠwÃ¨iĠ":7891,"shuÃ²ĠshÃ¬ĠxuÃ©ĠwÃ¨iĠ":7892,"ĠĠĠ2017ĠniÃ¡nĠ":7893,"ĠzÃłiĠbÄĽiĠ":7894,"wÃ©iĠzhÇĲĠ":7895,"jiÃłoĠshÃ²u":7896,"cÄģnĠsÃłi":7897,"dÄģngĠjÃºĠ":7898,"ĠrÃ©nĠmÃŃnĠbÃ¬Ġ":7899,"ĠyÃ¨":7900,"gÃ¨ĠdÃ¬Ġ":7901,"ĠdeĠxiÃłnĠ":7902,"ĠjÃ¬nĠniÃ¡nĠ":7903,"ĠgÅįngĠchÃ©ngĠshÄ«Ġ":7904,"ĠliÃºĠyÃ¹Ġ":7905,"Ġ1958ĠniÃ¡nĠ":7906,"zhÄ«ĠyuÃ¡nĠ":7907,"mÃ©ngĠjÅ«nĠ":7908,"ĠjÃŃĠshÇĲ":7909,"zÇĴngĠjiÄģnĠ":7910,"ĠdÃ¬ĠÃ¨rĠcÃ¬Ġ":7911,"shÄĽnĠchÃ¡Ġ":7912,"ĠzÃłiĠdÃ¬ĠÃ¨rĠ":7913,"pÃŃngĠjÅ«nĠhÇİiĠbÃ¡ĠgÄģoĠdÃ¹ĠwÃ¨iĠ":7914,"jiÃłoĠyÃ¹ĠbÃ¹Ġ":7915,"ĠĠĠjÄ«ngĠjÃ¬Ġ":7916,"ĠĠĠ2016ĠniÃ¡nĠ":7917,"jÄ«ĠshÃ¬Ġ":7918,"zÃºĠqiÃºĠduÃ¬Ġ":7919,"ĠhÃ©ĠjÃŃĠ":7920,"ĠÄĽrĠdÃ©":7921,"fÇİĠlÃ¡nĠ":7922,"LE":7923,"ĠcÃ¨Ġ":7924,"duÃ¬ĠhÃ©Ġ":7925,"nÃŃĠxÄ«ĠyÃłĠ":7926,"zhÅįngĠyÄģng":7927,"ĠxÄ«ĠÄģnĠ":7928,"ĠqiÃºĠchÇİngĠ":7929,"qÃŃngĠxÃ¹Ġ":7930,"wÄĵiĠxiÇİnĠ":7931,"gÃłoĠsÃ¹Ġ":7932,"huÃ¡ĠshÃ¨ngĠdÃ¹n":7933,"ĠkÃ¹":7934,"gÅįngĠkÄģiĠ":7935,"chÇİngĠjÇĲngĠ":7936,"gÇİiĠbiÄģnĠ":7937,"ĠÃ©rĠgÄģiĠdÃ¬ĠdeĠpÃŃngĠjÅ«nĠhÇİiĠbÃ¡ĠgÄģoĠdÃ¹ĠwÃ¨iĠ":7938,"ĠqiÅ«Ġ":7939,"ĠĠĠtiÄģnĠ":7940,"fÄĵnĠzhÄ«ĠyÄ«Ġ":7941,"ĠwÃ¨iĠmÃŃngĠ":7942,"ĠyÇĴuĠlÃ¬Ġ":7943,"ĠjÄ«ĠyÄ«nĠ":7944,"tÅįngĠxÃ¹nĠ":7945,"liÃ¡ngĠshÃŃĠ":7946,"suÇĴĠchÃ¹ĠdeĠhÇİiĠbÃ¡ĠwÃ¨iĠgÄģoĠyÃºĠhÇİiĠpÃŃngĠmiÃłnĠ":7947,"yÇĴngĠjiÇĶĠ":7948,"2010ĠniÃ¡nĠmÄĽiĠguÃ³ĠrÃ©nĠkÇĴuĠpÇĶĠchÃ¡ĠdeĠshÃ¹ĠjÃ¹Ġ":7949,"pÃŃnĠlÇľĠ":7950,"hÇİnĠmÃ²":7951,"nÃ¡ngĠ":7952,"chÅ«ĠdÃłoĠ":7953,"tuÇĴĠ":7954,"yÇİnĠchÅ«":7955,"biÄģnĠchÃ©ngĠ":7956,"yÃ¬ngĠduÃ¬Ġ":7957,"ĠchÅ«ĠxÃŃĠ":7958,"gÇİnĠrÇİn":7959,"Ġ1946ĠniÃ¡nĠ":7960,"yÇĲnĠzhÇĴngĠzÄģiĠpÃ©iĠ":7961,"ĠhuÃ¡nĠ":7962,"chÃ¡oĠdeĠ":7963,"ĠcÃ¡i":7964,"ĠliÇİngĠgÃ¨Ġ":7965,"chÅ«ĠrÃ¨nĠ":7966,"luÃ²ĠdeĠ":7967,"shuÅįĠshÃ¬Ġ":7968,"piÄģoĠ":7969,"yÃ¡nĠzhÃ²ng":7970,"chuÃłngĠbÃłnĠ":7971,"kÇİĠluÃ³ĠlÃ¡iĠ":7972,"yuÃ¡nĠdÃ¬Ġ":7973,"shÄĵnĠshÃłngĠ":7974,"xuÃ©ĠxÃŃ":7975,"ĠsÄ«ĠxiÇİngĠ":7976,"ĠxÄ«ĠxÄ«Ġ":7977,"ĠzhÄ«ĠqiÃ¡n":7978,"mÇĲĠyÃłĠ":7979,"gÇİngĠkÇĴuĠ":7980,"ĠyÇĲĠsÃ¨ĠliÃ¨":7981,"ĠguÅį":7982,"ĠyÃºnĠnÃ¡nĠ":7983,"fÄĵngĠdeĠ":7984,"zÃºĠyÇĲĠ":7985,"jÄ«ĠbÇİiĠ":7986,"fÄĵiĠfÇİĠ":7987,"zhÇİnĠkÄģi":7988,"yÃ³uĠrÃ©nĠgÅįngĠyÇĲnĠzhÇĴngĠzÄģiĠpÃ©iĠ":7989,"lÃ¬ĠzhÅįngĠ":7990,"yÄĽĠbÃ¹Ġ":7991,"gÄĵĠdeĠ":7992,"qÃŃngĠxÃŃngĠ":7993,"jÅ«ĠmÃŃnĠdiÇİnĠ":7994,"rÃ¨ĠdÃłiĠfÄĵngĠbÃłoĠ":7995,"ala":7996,"jÃ¬ĠjÃŃĠ":7997,"sÃ¬ĠmÃŃngĠ":7998,"rÃ¹ĠqÄ«n":7999,"46Ġ":8000,"jÃ¬ĠzÃłiĠ":8001,"yÃ¹ĠjÃ¬Ġ":8002,"ĠzhÅįngĠzuÃ¬Ġ":8003,"ĠzhÄ«ĠfÇĶĠ":8004,"jÃ¹ĠqÃŃngĠ":8005,"ĠqiÃºĠdeĠ":8006,"ĠshÃ¨ĠhuÃ¬":8007,"ĠxÄ«nĠzÄĵng":8008,"ĠhÃłnĠzÃºĠ":8009,"ĠziĠ":8010,"dÃ²ngĠgÅįngĠ":8011,"lÇĶĠkÃ¨Ġ":8012,"ĠyÇĲĠshÃłngĠdeĠ":8013,"ĠyÇĶĠcÇĲĠtÃ³ngĠshÃŃĠ":8014,"ĠwÃ©iĠyÃłĠ":8015,"isĠĠĠ":8016,"Ġ28":8017,"ĠĠĠjÃ¬Ġ":8018,"jiÃ¨ĠshÃŃĠ":8019,"bÄ«ngĠbÃ¹Ġ":8020,"shÇİnĠ":8021,"ĠzhÃ¬ĠzÃło":8022,"duÅįĠyÃłngĠ":8023,"ÃłnĠzhÃłoĠ":8024,"zÇĶĠchÃ©ng":8025,"hĠ":8026,"guÄģ":8027,"yÇĲĠhÃ²uĠ":8028,"yÇİnĠshÄĵngĠ":8029,"dÄĵngĠjÃ¬Ġ":8030,"ĠbÃ¹ĠjiÄģĠ":8031,"wÃ©iĠÄĽr":8032,"ĠzhÅįngĠguÃ³ĠdÃłĠlÃ¹ĠdeĠ":8033,"xiÃłĠxiÃ¡ĠyÇĲĠxiÃłĠdÃ¬ĠqÅ«Ġ":8034,"ĠtÃŃngĠ":8035,"ĠtuÄ«Ġ":8036,"ÄģnĠshÃ¬Ġ":8037,"chÅ«ĠshÄĵngĠ":8038,"xiÃłngĠxÄ«Ġ":8039,"gÃ©ĠlÃ¬Ġ":8040,"zÃ©ĠyÇĴuĠ":8041,"dÃłĠshÇĲĠ":8042,"nÃ¡nĠfÄģngĠ":8043,"ĠzÃ¬ĠdÃ²ngĠ":8044,"zhÃłnĠzhÃ¬Ġ":8045,"kÅįngĠjÅ«n":8046,"onĠĠĠ":8047,"bÃ¡iĠzhÃ¬Ġ":8048,"zÄ«ĠzhÃ¹Ġ":8049,"BCĠ":8050,"ĠxÅ«ĠyÃłoĠ":8051,"yÇĶĠyÇĲĠ":8052,"hÃ²uĠshÃ¬Ġ":8053,"shÃ¹nĠshÃŃĠ":8054,"ĠpÃŃngĠjiÃłĠ":8055,"shÃłoĠjiÃłngĠ":8056,"liÇİoĠjiÄĽ":8057,"93":8058,"pÅ«":8059,"ĠyÅįuĠ":8060,"shÄ«ĠdÃ¬Ġ":8061,"ĠxiÃłnĠrÃ¹Ġ":8062,"kÄĵĠfÅ«":8063,"biÄģnĠjÃ¬ngĠ":8064,"ĠqÃŃĠzhÅįngĠnÃ¡nĠ":8065,"fÄģĠzhÇİnĠdeĠ":8066,"ĠjÃ¬nĠshÃ¬ĠchÅ«ĠshÄĵnĠ":8067,"ĠshÃ¨nĠ":8068,"ĠbÃ¹ĠbiÃłnĠ":8069,"qÅ«ĠfÄĵnĠ":8070,"ĠbÃ¨iĠqÃŃĠ":8071,"cÃ¡iĠchÇİnĠ":8072,"gÄģnĠsÃ¹Ġ":8073,"fÄĵiĠlÇľĠbÄ«n":8074,"mÃ¡oĠzÃ©ĠdÅįngĠ":8075,"ĠxÇĶĠ":8076,"ĠĠĠ10ĠyuÃ¨Ġ":8077,"lÇĶĠshÃ¬Ġ":8078,"ĠzhÃ¬ĠshÇİo":8079,"sÄ«ĠxiÇİngĠ":8080,"zÄ«ĠshÄĽngĠ":8081,"chuÃ¡nĠbÅį":8082,"zÇĲĠnÇļĠ":8083,"gÇİnĠjuÃ©Ġ":8084,"ĠtÅįngĠguÃ²":8085,"ĠsÅ«ĠliÃ¡nĠ":8086,"wÃ¨nĠtÃŃĠdeĠ":8087,"wÃºĠrÃ©nĠjÄ«Ġ":8088,"5ĠgÃ¨Ġ":8089,"Ġ26":8090,"fÃºĠdÃ©Ġ":8091,"zÃºĠrÃ©nĠ":8092,"jiÅ«Ġ":8093,"80ĠniÃ¡nĠ":8094,"ĠdÃ¬ĠsÄ«Ġ":8095,"ĠyÃºĠdÃ¬Ġ":8096,"nÃ¡nĠzi":8097,"ĠĠĠSt":8098,"pÃłnĠjuÃ©Ġ":8099,"Ġãĥ¼":8100,"zhÃłnĠjÃ¬Ġ":8101,"bÇİoĠzhÃ¨ngĠ":8102,"fÄĵiĠlÃ¬Ġ":8103,"qÇĶĠjiÄģĠ":8104,"jÃºĠjÃºĠzhÇİngĠ":8105,"Ġ1982ĠniÃ¡nĠ":8106,"miÇİnĠdiÄģnĠ":8107,"gÃ²ngĠchÇİnĠzhÇĶĠyÃ¬Ġ":8108,"ĠÃłoĠdÃłĠlÃ¬Ġ":8109,"ĠgÅįngĠkÄģiĠsÃłiĠ":8110,"zÃ¬ĠxÃŃngĠchÄĵĠ":8111,"1ĠhÃłoĠ":8112,"dÇĶ":8113,"âĪ":8114,"ĠĠĠbÄĽiĠ":8115,"fÃ¡nĠzhÃŃĠ":8116,"ĠzhÃ¨ĠbÃ¹Ġ":8117,"ĠjiÄģngĠqÃŃĠ":8118,"zhÃ¨ĠbÃ¹Ġ":8119,"miÃ¡oĠhuÃ¬Ġ":8120,"ĠzhÄ«ĠjÃ¬Ġ":8121,"shÄģngĠwÃ¡ngĠ":8122,"wÃ¡nĠchÃ©ngĠleĠ":8123,"zhÇĲĠhuÄ«ĠguÄģnĠ":8124,"ĠyÄ«ĠmÃ©iĠ":8125,"fÇİĠlÃ¬ngĠ":8126,"jiÄģoĠhuÃłnĠ":8127,"hÄĽnĠduÅį":8128,"Ġ1987ĠniÃ¡nĠ":8129,"ĠshÃ¬ĠzhÅįngĠxÄ«nĠ":8130,"Ġ27":8131,"ĠĠĠlÃ¬ngĠwÃłiĠ":8132,"yÇĲnĠshÃŃĠ":8133,"ĠshÃ¬ĠwÅ«ĠkÃ¨ĠlÃ¡n":8134,"ĠshÃ¬ĠfÇĴuĠ":8135,"ĠwÃ¨iĠqÃŃĠ":8136,"ĠbÃ¹ĠzhÃ¬Ġ":8137,"bÇİoĠcÃºnĠ":8138,"ĠnÃ¡nĠbÄĽiĠ":8139,"ÄģiĠnÃłĠ":8140,"ĠgÅįngĠzuÃ²ĠshÃ¬Ġ":8141,"nÃºĠ":8142,"Ã¨rĠzhÃłnĠ":8143,"ĠtÃ³ngĠyÄ«Ġ":8144,"mÇİĠtÃ³uĠ":8145,"shÇĲĠyÃ²ngĠleĠ":8146,"cÃ©ngĠshÃ¬Ġ":8147,"ĠhÃ©ĠbÃ¬ngĠwÃ¨iĠ":8148,"ĠxÃ¬ĠliÃ¨Ġ":8149,"ĠÅįuĠzhÅįuĠ":8150,"ĠzhÃ¬ĠliÃ¡o":8151,"ĠdÃłĠjiÄģĠ":8152,"nÃ¹":8153,"ĠmÇİn":8154,"fÄģngĠchÃ©ngĠ":8155,"jÇĲĠhÃ©Ġ":8156,"shÄĵnĠzhÃ¨n":8157,"bÃłoĠzhÇĲĠ":8158,"zhuÃłngĠkuÃłng":8159,"zÄĵngĠqiÃ¡ngĠ":8160,"shÄģĠhÃłiĠ":8161,"zhÄ«ĠmÃŃngĠ":8162,"wÃłiĠwÃ©iĠ":8163,"kuÄ«Ġ":8164,"186":8165,"guÃ³ĠnÃ¨iĠ":8166,"ĠdÃłĠzhÃ²ngĠ":8167,"ĠjÃ¬ĠniÃłn":8168,"ĠjiÃłnĠhÃ©Ġ":8169,"Ġi":8170,"Ġ60":8171,"mÇİĠdeĠ":8172,"luÃ³ĠjÃŃĠ":8173,"zhÄĽngĠhÃ©Ġ":8174,"ĠyÃºĠ2020ĠniÃ¡nĠ":8175,"shÃ²uĠhÃłiĠ":8176,"cÃ¡iĠwÃ¹Ġ":8177,"ĠbÃ¬ĠyÃ¨ĠyÃºĠ":8178,"IIĠ":8179,"jÄ«ĠbÃ¹Ġ":8180,"chÄĵngĠhÃłoĠ":8181,"bÅįĠÄĽrĠ":8182,"ĠdÃ¬ĠguÃ³ĠdeĠ":8183,"ĠgÅįngĠzhÃłnĠ":8184,"ĠsÄ«ĠkÇİĠ":8185,"fÄĵnĠlÃ¨i":8186,"bÄģĠfÃ¡":8187,"42Ġ":8188,"cÇĲĠzhÄ«ĠwÃłiĠ":8189,"dÃ¡ĠdeĠ":8190,"cÃ¹ĠjÃ¬n":8191,"ĠyÇĲĠnÃ¡nĠ":8192,"ĠxÃŃngĠchÃ©ngĠdeĠ":8193,"sÄģnĠcÃ¬Ġ":8194,"lÇĲngĠxiÃ¹":8195,"pÃłnĠluÃłnĠ":8196,"ĠpÄģnĠ":8197,"6ĠgÃ¨Ġ":8198,"ĠhÃ¡n":8199,"huÃ²ĠshÃ¬Ġ":8200,"liÃ¨ĠshÃ¬Ġ":8201,"ĠzÃłiĠ195":8202,"ĠdÃłnĠyÄ«nĠ":8203,"zhÃ¹ĠcÃ¨Ġ":8204,"ĠchÅ«ĠxiÃłnĠleĠ":8205,"ĠdeĠmÃŃngĠzÃ¬Ġ":8206,"ĠmÃ³":8207,"ÃłiĠguÃ³Ġ":8208,"1999ĠniÃ¡nĠ":8209,"ther":8210,"ĠdÃłĠshÄ«Ġ":8211,"yÄ«ngĠguÃ³ĠdeĠ":8212,"gÇİiĠshÃłn":8213,"chÃ¨ĠdÇĲĠ":8214,"ele":8215,"ĠhÃº":8216,"xiÃłĠdeĠyÃŃĠgÃ¨Ġ":8217,"lÃŃngĠdeĠ":8218,"zhÃ¨ngĠquÃ¡nĠ":8219,"zÃºĠxiÃ©Ġ":8220,"guÇİngĠgÃło":8221,"Ġ1978ĠniÃ¡nĠ":8222,"ĠfÄģĠxÃŃngĠ":8223,"ĠĠĠ2021ĠniÃ¡nĠ":8224,"zhÇĲĠyÃºĠ":8225,"jiÄĵĠjÃ¬n":8226,"rÃ¹ĠdeĠ":8227,"gÃ²ngĠshÃŃĠ":8228,"shÃ¨ngĠdÃ¬Ġ":8229,"ĠwÃ¨iĠyÃ³uĠ":8230,"ĠyuÃ¨ĠtÃ¡i":8231,"ĠdÃłoĠbÃ¹Ġ":8232,"ĠjÄ«ĠchÇĶĠ":8233,"tiÄģnĠhuÃ¡ngĠ":8234,"miÃłnĠtÇĲĠ":8235,"lÇĲngĠyÃ¹":8236,"bÃ¬ngĠmÃ©iĠyÇĴuĠ":8237,"yÃ¡nĠjiÅ«ĠyuÃłnĠ":8238,"ĠlÃ¬ngĠyÃ¬ĠfÄģngĠmiÃłnĠ":8239,"miÃ¡oĠshÃ¹":8240,"75Ġ":8241,"ĠzhÄĽngĠ":8242,"mÃ¹ĠzhÃ¬Ġ":8243,"qÃºnĠdeĠ":8244,"jÄ«ngĠguÃ²":8245,"ĠfÇĴu":8246,"ĠyuÃ¡nĠshÇĲĠ":8247,"zhÃ²ngĠzhÃŃĠ":8248,"jÇĲngĠguÄģnĠ":8249,"dÄģngĠxuÇİn":8250,"wÅ«ĠrÇİnĠ":8251,"âĦ":8252,"187":8253,"nuÃ²ĠsÄ«Ġ":8254,"xÃ¬ngĠbiÃ©Ġ":8255,"ĠjiÃ©ĠgÃ²uĠ":8256,"zhÅ«ĠlÃ³ngĠ":8257,"dÃ²uĠzhÄĵngĠ":8258,"âĨĴ":8259,"ĠshÄĵngĠzhÇİngĠyÃºĠhÇİiĠbÃ¡":8260,"gÄģoĠyuÃ¡nĠ":8261,"shÄ«ĠbÃłi":8262,"Ġ500":8263,"ĠmÇİĠlÃ¬Ġ":8264,"ep":8265,"ĠdÅįu":8266,"ĠwÃ¨iĠbÃ¨iĠ":8267,"ĠdÃłoĠshÃ¬Ġ":8268,"hÃ²uĠlÃ¡iĠ":8269,"ĠnÃ¡nĠjÄ«ngĠ":8270,"ĠdÃ¬ĠyÄ«ĠcÃ¬":8271,"Ġ1980ĠniÃ¡nĠ":8272,"Ġ1948ĠniÃ¡nĠ":8273,"ĠzhÇĲĠchÅ«Ġ":8274,"tÄģi":8275,"ĠlÃ¡oĠ":8276,"ĠniÇĶĠyuÄĵ":8277,"tÃ¡oĠyuÃ¡nĠ":8278,"ĠsÃł":8279,"ell":8280,"ĠzÃłiĠyÄ«ngĠguÃ³Ġ":8281,"ĠyuÃ¡nĠzÃ©Ġ":8282,"hÃ¡ngĠyÃ¨Ġ":8283,"fÃ¡ngĠzhÇĲĠ":8284,"ĠchuÄģnĠ":8285,"ĠshÃŃĠdÃłiĠdeĠ":8286,"ĠshÃłngĠshÅ«Ġ":8287,"qÃŃngĠjiÃ©Ġ":8288,"tuÃ¡nĠzhÇİngĠ":8289,"ĠmÃ¹ĠqiÃ¡nĠshÃłngĠwÃ¨iĠ":8290,"tiÄģnĠjiÄģĠ":8291,"tÅ«ĠchÅ«Ġ":8292,"ĠzhÅįngĠshÅ«Ġ":8293,"pÃŃngĠmÃŃnĠ":8294,"guÄģnĠfÃ¨iĠyÃ¡nĠ":8295,"ĠzhÃ¨ĠcÃ¬Ġ":8296,"qÃ¬ĠtÇĲĠ":8297,"shÄģngĠdiÃłnĠ":8298,"ĠfÄĵnĠbiÃ©ĠshÃ¬Ġ":8299,"ĠĠĠ15":8300,"ĠĠĠ6Ġ":8301,"lÃ¡iĠsÄ«Ġ":8302,"ĠhÃ©ĠfÇİĠ":8303,"ĠyÃ¬Ġsi":8304,"ĠyÃ¬ĠmÃŃngĠ":8305,"ĠyÇĲĠshÃ¬Ġ":8306,"chÃ¡ngĠqÄ«":8307,"ĠxiÃłnĠdeĠyÃŃĠgÃ¨ĠfÄĵiĠjiÃłnĠzhÃ¬ĠdÃ¬ĠqÅ«Ġ":8308,"89":8309,"diÇİnĠwÃ¨iĠ":8310,"ĠbÃ¹ĠdÃ©Ġ":8311,"jiÃłoĠzuÃ²Ġ":8312,"ĠfÄĵnĠbiÃ©ĠwÃ¨iĠ":8313,"3ĠmÇĲĠ":8314,"Ġch":8315,"ĠshÃłnĠ":8316,"ÄģĠjÄ«Ġ":8317,"fÃºĠÄĽrĠ":8318,"bÅįĠchÅ«":8319,"hÃ³ngĠjÅ«nĠ":8320,"rÃ¹ĠxuÇİn":8321,"sÄģiĠnÃłĠ":8322,"miÃ¡nĠ":8323,"wÃ¹ĠzhÇĴngĠdeĠ":8324,"us":8325,"ĠzhÄ«ĠchÃ¹Ġ":8326,"ĠchÅ«nĠ":8327,"180":8328,"hÇİoĠyÇĴuĠ":8329,"ĠhÃ©ĠtÄģĠdeĠ":8330,"shÇĴuĠfÇĶĠ":8331,"xiÇİngĠfÇİĠ":8332,"kÇİoĠgÇĶĠ":8333,"ĠĠĠAl":8334,"ĠpÃ©iĠ":8335,"1996ĠniÃ¡nĠ":8336,"chÃ³uĠbÃ¨iĠ":8337,"ĠzhÅįngĠfÄģĠxiÃłnĠ":8338,"ĠyÇĶĠdÃłĠ":8339,"dÅįngĠnÃŃĠ":8340,"fÃºĠhÃłoĠ":8341,"dÃłngĠÃłnĠ":8342,"ĠjiÄĽĠ":8343,"ÄģnĠrÃ©nĠ":8344,"ĠĠĠ2006":8345,"miÃłnĠshÃ¬Ġ":8346,"ĠyÃ¬ĠjÃŃĠ":8347,"zhÇİngĠyuÄĵĠ":8348,"ĠpÃŃngĠlÃ¹n":8349,"niÇİoĠlÃ¨iĠ":8350,"86":8351,"IT":8352,"yÃ¹ĠdÃłoĠ":8353,"ĠdÄģnĠrÃ¨n":8354,"toĠĠĠ":8355,"ĠzhÅįngĠgÃ²ngĠzhÅįngĠyÄģng":8356,"cÅįngĠ":8357,"chÄĵngĠzhÄ«ĠwÃ¨iĠ":8358,"hÃ¡ngĠxiÃłnĠ":8359,"ĠyÃ¬ĠdiÇİnĠ":8360,"yÃ¡nĠshÄĵnĠ":8361,"ĠtÃ³ngĠrÃ¬Ġ":8362,"chÃ¡ngĠjiÄģngĠ":8363,"chÄĵngĠwÃ©i":8364,"ĠxÃŃngĠzhÃ¨ngĠzhÃ¨nĠqÅ«Ġ":8365,"41":8366,"ĠzhÃ¬ĠdÃ¬ngĠ":8367,"zuÃ²ĠchÅ«":8368,"qÅ«ĠjiÄģnĠ":8369,"ÃłoĠsÄ«ĠkÇİĠ":8370,"ĠĠĠsuÃŃĠ":8371,"ĠshÃ¬ĠnÃ¡nĠjÃŃĠzhÅįuĠdeĠ":8372,"zhÇĶĠchÇİngĠ":8373,"jÃ¹ĠfÄĵngĠ":8374,"ĠzuÃ²ĠbiÄģoĠwÃ¨iĠ":8375,"chÇİnĠyÃ¨":8376,"xiÅ«ĠgÇİi":8377,"ayĠ":8378,"ĠĠĠ2015ĠniÃ¡nĠ":8379,"nÃŃĠdeĠ":8380,"âĢ§":8381,"lÃ¬ĠyÃ²ngĠ":8382,"ĠgÅįngĠjÄ«nĠ":8383,"ĠdÃłĠxÃŃng":8384,"ĠzuÃ²ĠchÅ«":8385,"ĠDĠ":8386,"ĠxÄ«nĠjiÄģĠ":8387,"huÃ¬ĠjÃŃĠ":8388,"zhÃłnĠguÃ³Ġ":8389,"pÇĲnĠzhÃ¬Ġ":8390,"dÃ²ngĠchÄĵĠ":8391,"fÄĵnĠlÃŃĠ":8392,"NAĠ":8393,"ĠbÃło":8394,"ĠxiÃ¡Ġ":8395,"ĠĠĠÃ©r":8396,"ĠĠĠzhÇĶĠyÃłoĠ":8397,"dÅįngĠxiÃłnĠ":8398,"wÇĶĠmÃŃngĠ":8399,"gÄĵĠÄĽrĠ":8400,"kuÃ²ĠzhÄģngĠ":8401,"bÄ«nĠshÃ¬Ġ":8402,"ĠjÄ«ĠxiÃ¨Ġ":8403,"shÃ¨ĠhuÃ¬ĠzhÇĶĠyÃ¬Ġ":8404,"yÃŃngĠdÃ©ĠleĠ":8405,"NA":8406,"ÃłnĠshÃŃĠ":8407,"zuÃ²ĠzhÅįngĠ":8408,"qÇĲĠdeĠ":8409,"tÅįngĠxÃ¬nĠ":8410,"mÃ¬ngĠlÃ¬ng":8411,"huÇĴĠbÃłnĠ":8412,"zÅ«ĠjiÃ¨Ġ":8413,"lÃ²u":8414,"ĠxiÃ³ngĠ":8415,"ĠgÇİiĠwÃ©iĠ":8416,"ĠĠĠzhÃłnĠ":8417,"chÇİngĠshÃłngĠ":8418,"dÇĲĠzhÃ¬Ġ":8419,"ĠgÅįngĠzuÃ²ĠdeĠ":8420,"shÄĵngĠmÃŃngĠ":8421,"lÇĲngĠxiÄģnĠ":8422,"jÄ«ngĠjÃ¬ĠxuÃ©Ġ":8423,"ĠmÃŃn":8424,"ĠĠĠzhÃ¹Ġ":8425,"duÃ¬ĠyÇĴuĠ":8426,"duÃ¬ĠtÄģĠ":8427,"zhÃłnĠwÃ¨iĠ":8428,"bÇİoĠcÃºn":8429,"ĠzhÃ¨ĠyÃłngĠdeĠ":8430,"ĠguÄģnĠfÄģngĠ":8431,".&":8432,"zhÅįngĠshÃ¬ĠjÃ¬Ġ":8433,"dÃ²ngĠyuÃ¡nĠ":8434,"mÃ¹ĠshÃ¬Ġ":8435,"shÄ«ĠhÃ©Ġ":8436,"bÄģnĠbÃ¹Ġ":8437,"hÃ²uĠxuÇİnĠrÃ©nĠ":8438,"ĠmÃŃngĠzÃ¬Ġ":8439,"ĠAl":8440,"rÃ©nĠmÃŃnĠdÃłiĠbiÇİoĠdÃłĠhuÃ¬Ġ":8441,"tÃłiĠhÃ²uĠ":8442,"ĠxÄ«ĠlÃłĠ":8443,"jiÄģngĠsÅ«ĠshÄĽngĠ":8444,"5ĠgÅįngĠlÇĲĠ":8445,"ĠpÃłiĠ":8446,"ĠbÃłiĠ":8447,"ĠĠĠkÃ¨Ġ":8448,"yÇĲnĠlÃ¬Ġ":8449,"ĠdÃłnĠbÃ¹Ġ":8450,"zÃºĠzÃ¬ĠzhÃ¬Ġ":8451,"lÃ¨iĠsÃ¬ĠyÃºĠ":8452,"JĠ":8453,"fÃł":8454,"shÃ©ng":8455,"ĠyÃ³uĠyÇĴngĠ":8456,"bÄģnĠfÄģĠ":8457,"ear":8458,"ĠĠĠduÃ¬ĠyÃºĠ":8459,"shÇĲĠzhÅįngĠ":8460,"amĠ":8461,"ĠzÃłiĠjÄ«Ġ":8462,"ĠwÃ©iĠzhÇĲĠ":8463,"jiÄĵĠchÃ¹":8464,"dÄĽngĠzhÃŃĠ":8465,"jiÄģoĠchÄģĠ":8466,"nÇļĠyÇİnĠyuÃ¡nĠ":8467,"tÃŃĠgÅįngĠdeĠ":8468,"ĠbÃ¹ĠdÃ©ĠbÃ¹Ġ":8469,"fi":8470,"ith":8471,"Ġ1ĠyuÃ¨Ġ":8472,"jiÄĵĠshÃ¬Ġ":8473,"1998ĠniÃ¡nĠ":8474,"sÅ«ĠlÇĲĠ":8475,"ĠdeĠlÇĲĠ":8476,"ĠjiÄģĠmÃ©ngĠ":8477,"ĠchÅ«ĠshÄĵnĠ":8478,"shÇĴuĠduÃłnĠ":8479,"qÇĲĠsÃ¹Ġ":8480,"xiÃłnĠfÇİĠ":8481,"hÃłiĠÃ©":8482,"ĠjÄ«ĠdÅ«ĠjiÃłoĠ":8483,"52":8484,"ÃłiĠdÃ©ĠhuÃ¡Ġ":8485,"fÄĵnĠwÃ¨iĠ":8486,"chÄĵĠdÃłoĠ":8487,"ĠxiÃłnĠdÃłi":8488,"ĠjiÄģĠjÃ¬ngĠ":8489,"ĠrÃ¨nĠmÃ¬ng":8490,"ĠzhÇĶĠchÃŃĠ":8491,"ÃłiĠqÃŃngĠ":8492,"Ġ1979ĠniÃ¡nĠ":8493,"ut":8494,"ĠbÄģoĠ":8495,"ĠchÃ©ngĠshÃ¬Ġ":8496,"ĠrÃ¨Ġ":8497,"rÃ©nĠwÃ¨iĠ":8498,"tÇĲĠxÃŃngĠ":8499,"hÃłnĠzÃ¬Ġ":8500,"ĠzÃłiĠgÅįngĠ":8501,"ĠchÃ©ngĠshÃ¬ĠdeĠ":8502,"diÃłnĠchÄĵĠ":8503,"bÄģnĠcÃ¬Ġ":8504,"gÃ²ngĠhÃ©ĠguÃ³ĠdeĠ":8505,"Ġ36":8506,"ĠnÃŃngĠ":8507,"yuÃ¡nĠzhÅįngĠ":8508,"jiÇİngĠdeĠ":8509,"rÃ©ngĠyÇĴuĠ":8510,"lÇİngĠdÃ©Ġ":8511,"ĠzÃłiĠnÃ¡nĠ":8512,"shÄĵngĠmÃ¬ngĠ":8513,"ĠchÅ«ĠrÃ¹ĠkÇĴuĠ":8514,"mÇİĠlÃ¡iĠ":8515,"shuÇĲĠkÃ¹Ġ":8516,"yÃ¡nĠjiÅ«ĠyuÃ¡nĠ":8517,"bÇİnĠbÄĽnĠdeĠ":8518,"ĠdÄģngĠxuÇİn":8519,"ĠshÃ¬ĠdÃ¬ĠyÄ«Ġ":8520,"IP":8521,"ĠzhuÄģnĠjÃŃĠ":8522,"xiÃłnĠshÃŃĠ":8523,"fÃ¹ĠzhÃ¬Ġ":8524,"hÃ¡ngĠzhÅįuĠ":8525,"hÃłnĠyÇĶĠ":8526,"ĠdeĠxiÇİoĠ":8527,"fÄĵnĠqÅ«Ġ":8528,"miÃłnĠjÄ«ĠhÃ©Ġ":8529,"ĠwÃ¨iĠfÃºĠqÃŃĠyÃºĠgÄģng":8530,"xÄ«ĠyuÃ¡nĠ":8531,"zhÃłi":8532,"kÄĵĠÄĽrĠ":8533,"pÃ¡iĠdÃ©ĠzhÇĶĠ":8534,"zÄģoĠshÃ²uĠ":8535,"gÃ¨ngĠduÅį":8536,"jÇĲnĠbiÄģoĠsÃłi":8537,"sÃłngĠ":8538,"ÄģnĠxiÃłnĠ":8539,"jiÄģngĠshÃ¬Ġ":8540,"bÄ«ngĠlÃ¬Ġ":8541,"bÃłiĠzhÃłnĠ":8542,"ĠjiÃłnĠyÇĴuĠ":8543,"ĠhuÃ¬ĠbÃ¨iĠ":8544,"xiÃ©ĠtiÃ¡o":8545,"ĠyuÇİnĠ":8546,"fÃ¹ĠyÇĴuĠ":8547,"rÃłngĠtÄģĠ":8548,"38Ġ":8549,"guÄ«ĠmÃ³ĠdeĠ":8550,"ĠsÄģnĠshÃŃĠ":8551,"jÄ«nĠrÃ¬Ġ":8552,"ĠbÃ¹ĠÄĽr":8553,"wÇĶĠqÃ¬":8554,"pÇĲnĠpÃ¡i":8555,"den":8556,"ĠĠĠfÃºĠ":8557,"huÄģng":8558,"olĠ":8559,"ĠwÃ¨iĠzhÅįngĠguÃ³Ġ":8560,"ĠzhÃ¨ĠyÄĽĠshÃ¬Ġ":8561,"liÃ¨ĠrÃ¹":8562,"biÄģnĠmÇİĠ":8563,"ĠgÄģiĠdÃ¬ĠdeĠ":8564,"ĠzuÃ¬ĠchÅ«":8565,"ĠgÅįngĠyuÃ¡nĠqiÃ¡nĠ":8566,"ĠdÃ¬ĠshÃŃĠyÄ«Ġ":8567,"Station":8568,"sonĠ":8569,"ĠguÇİnĠ":8570,"yÇĲĠshÃłngĠ":8571,"1900":8572,"ĠqiÃºĠyÃ¹nĠdÃ²ngĠyuÃ¡nĠ":8573,"ĠmÃ¹ĠqiÃ¡nĠshÃłngĠwÃ¨iĠyÃ³uĠrÃ©nĠgÅįngĠyÇĲnĠzhÇĴngĠzÄģiĠpÃ©iĠ":8574,"ain":8575,"ĠĠĠ2014ĠniÃ¡nĠ":8576,"nÃ¡nĠsÄ«ĠlÄģĠ":8577,"huÃ¡ĠdÃłĠxuÃ©Ġ":8578,"ĠhÃ©ĠlÃ¡n":8579,"wÃ¹ĠlÇĲĠxuÃ©Ġ":8580,"zuÃ¬ĠzÇİoĠdeĠ":8581,"ĠĠĠ4ĠyuÃ¨Ġ":8582,"fÇİĠshÃ¬Ġ":8583,"diceĠ":8584,"mÃ³uĠshÄģĠ":8585,"lÃ¹ĠxÃ¹Ġ":8586,"ohn":8587,"jiÄģnĠzhÃ¬Ġ":8588,"xuÃ©ĠshÄĵng":8589,"lÃ¹ĠshÃłngĠ":8590,"mÃŃnĠjÃ¬nĠ":8591,"ĠxiÄģngĠduÃ¬Ġ":8592,"jiÃłnĠzÃłoĠ":8593,"qiÄģnĠshÇĶ":8594,"ĠxÄ«ĠbÄģnĠyÃ¡ĠyÇĶĠ":8595,"yÄĵĠsÅ«":8596,"ale":8597,"ĠwÃ©i":8598,"shi":8599,"yuÃ¡nĠshÃŃĠ":8600,"lÃŃnĠsÄ«Ġ":8601,"ĠlÃ¬ĠkÃ¨Ġ":8602,"shÄĵngĠtÃłiĠ":8603,"dÃ¬ngĠqÄ«Ġ":8604,"dÇİoĠyÇİn":8605,"cÃ¨ĠlÃ¼Ã¨Ġ":8606,"oog":8607,"kÇİĠluÃ³ĠlÃ¡iĠnÃł":8608,"ros":8609,"tionĠ":8610,"ĠzÃłiĠyuÃ¡nĠ":8611,"shÄĵnĠzhÃ¨nĠ":8612,"xÃ¹ĠshÃ¹Ġ":8613,"ĠdÄģngĠxuÇİnĠ":8614,"ĠyÇĴuĠyÄ«ĠxiÄĵĠ":8615,"19ĠshÃ¬ĠjÃ¬Ġ":8616,"wÃ²ĠÄĽrĠ":8617,"zhÅįngĠbÃ¹Ġ":8618,"ĠchÃ©ngĠxÃ¹":8619,"ĠchÅ«ĠxiÃłn":8620,"zhÇİnĠlÇİn":8621,"wÄĽiĠyuÃ¡nĠhuÃ¬ĠdeĠ":8622,"ĠzhÃ¬ĠzuÃ²ĠrÃ©nĠ":8623,"xiÃłĠxiÃ¡ĠdeĠyÃŃĠgÃ¨ĠxiÄģngĠ":8624,"usĠ":8625,"lÃ¹ĠyÇĶĠ":8626,"shÇĴuĠbÃ¹Ġ":8627,"tÃ¨ĠhÃ©Ġ":8628,"tÃ¨ĠjÃŃĠ":8629,"wÇİngĠdeĠ":8630,"tÃ³uĠdeĠ":8631,"gÃłnĠxiÃłnĠ":8632,"ĠĠĠ1949ĠniÃ¡nĠ":8633,"1ĠĠĠ":8634,"Ġy":8635,"ĠhÇİoĠ":8636,"ĠshÃ²uĠdÃłoĠ":8637,"jÄ«ngĠdeĠ":8638,"duÅįĠÄĽrĠ":8639,"duÃ¬ĠwÃłiĠ":8640,"shÃłngĠshÃ¹Ġ":8641,"ĠmÃŃngĠchÄĵng":8642,"fÄĵngĠgÃ©":8643,"gÇİiĠwÃ©i":8644,"ĠmÇİĠlÃ¡iĠxÄ«ĠyÃłĠ":8645,"ĠdÄĵngĠ":8646,"ziĠgÅįngĠsÄ«Ġ":8647,"ĠjÃŃĠyÄ«Ġ":8648,"xiÄģngĠhÃ¹Ġ":8649,"ĠyÄ«nĠdeĠ":8650,"zuÃ¬ĠduÅįĠdeĠ":8651,"wÇĶĠhÃłn":8652,"ĠzhÅįngĠguÃ³ĠgÃ²ngĠchÇİnĠdÇİng":8653,"ĠĠĠCom":8654,"ĠguÃ³ĠmÃŃnĠdÇİngĠ":8655,"ĠĠĠgÃ¨ĠrÃ©nĠshÄĵngĠhuÃ³Ġ":8656,"bÃ¨iĠshÃ¬Ġ":8657,"tiÄģoĠ":8658,"diĠ":8659,"jiÇİĠjÄ«Ġ":8660,"zÇİoĠzÃłiĠ":8661,"ĠyÃºĠ2010ĠniÃ¡nĠ":8662,"ĠdÃłĠyuÄĵ":8663,"yÃ¡nĠchÃ¡ng":8664,"tÃ¡iĠbÃ¬Ġ":8665,"Ġ1938ĠniÃ¡nĠ":8666,"mÃŃĠnÇĲĠ":8667,"ĠjÃ¬ĠsuÃłnĠjÄ«Ġ":8668,"zÅ«":8669,"ĠĠĠ7ĠyuÃ¨Ġ":8670,"shÃ¹ĠhÃ©Ġ":8671,"jÃ¬nĠjÃŃĠ":8672,"ĠshÃ¬ĠxiÄģngĠgÇİngĠ":8673,"ĠqÃŃĠbÄ«ngĠ":8674,"zuÃ¬ĠzÇİoĠ":8675,"kuÃ²ĠzhÇİnĠ":8676,"Ġ2005":8677,"ĠkÄģngĠxÄ«Ġ":8678,"rÃ¹ĠwÃ©iĠ":8679,"qÃ¬ĠrÃ©nĠ":8680,"xiÃ©ĠdÃłiĠ":8681,"tÃłnĠsuÇĴĠ":8682,"ĠhÃ©ĠtÃ³ngĠ":8683,"duÃ¬ĠxiÃłngĠ":8684,"tiÄģnĠtÃ¡ngĠ":8685,"miÃ¡oĠshÃ¹ĠwÃ¨iĠ":8686,"jiÃ¹ĠdÃºĠyÃºĠ":8687,"ĠshÃłng":8688,"qÃŃĠshÃ¬Ġ":8689,"xiÅ«ĠsÄ«Ġ":8690,"zhuÇİnĠwÃ©iĠ":8691,"1988ĠniÃ¡nĠ":8692,"guÄ«ĠhuÃł":8693,"ĠdeĠjÄ«ĠhuÃ¬Ġ":8694,"mÄĽiĠrÃ¬Ġ":8695,"ĠkÃ¨ĠlÇĲĠsÄ«Ġ":8696,"jiÃłoĠkÄĵĠ":8697,"liÃłngĠzÇĲĠ":8698,"ĠhÄģĠÄĽrĠ":8699,"zhÇĶĠchÃŃĠrÃ©nĠ":8700,"Ġà¸":8701,"âĦĥ":8702,"tÄģng":8703,"1992ĠniÃ¡nĠ":8704,"ĠshÃ¬ĠgÃ¨Ġ":8705,"ĠdÃ¬Ġ2Ġ":8706,"ĠguÃ³ĠgÅįngĠ":8707,"ĠgÅįngĠkÄģi":8708,"ĠchÃ©ngĠbÇİoĠ":8709,"ĠgÃ¨ĠdÃłĠ":8710,"zhÃ²ngĠdiÇİn":8711,"yÃŃĠzhÇĲ":8712,"Ġ1947ĠniÃ¡nĠ":8713,"1ĠmÃŃngĠ":8714,"tsĠ":8715,"ĠwÄĵn":8716,"ĠĠĠ7":8717,"ĠĠĠdÅįngĠ":8718,"ĠĠĠ2012ĠniÃ¡nĠ":8719,"dÅįngĠdeĠ":8720,"fÅ«ĠfÃ¹Ġ":8721,"ĠzhÅįngĠzhÇĲĠ":8722,"dÃłiĠbÇĶĠ":8723,"kÄģiĠmÃ¹Ġ":8724,"bÄĽnĠshÄĵnĠ":8725,"yÃŃĠmÃŃn":8726,"jiÇİngĠzuÃ¬ĠjiÄģĠ":8727,"zuÇĴĠyÃ²u":8728,"nuÃ³ĠwÄĵi":8729,"ĠĠĠ2013ĠniÃ¡nĠ":8730,"hÃ¡ngĠzhÃłnĠ":8731,"zhuÃłngĠbÃ¬ngĠdÃº":8732,"ĠjiÃłnĠzÃło":8733,"pÄ«ĠpÃŃng":8734,"ĠĠĠxiÄģngĠgÇİngĠ":8735,"nÃłĠsÄ«Ġ":8736,"mÃŃnĠzhÇĶ":8737,"shÄģngĠpÇĲnĠ":8738,"fÃłnĠwÃ©i":8739,"xiÃ©ĠshÄģngĠ":8740,"layStation":8741,"64Ġ":8742,"rÄĽnĠ":8743,"ĠfÇĶĠ":8744,"ĠbÃ¹ĠzhÃ¨ngĠ":8745,"ĠchÃ©ngĠwÃ©iĠyÄ«Ġ":8746,"ĠzhÃłnĠlÇĲngĠ":8747,"fÄĵnĠlÃ¡nĠ":8748,"nÃ¨iĠmÃ©ngĠgÇĶĠ":8749,"tÃ¡iĠwÄģnĠdeĠ":8750,"dÃºĠtÃ¨ĠdeĠ":8751,"quÃ¨ĠdÃ¬ng":8752,"dÇĲĠdÃ¡":8753,"ĠĠĠMo":8754,"cuÄ«ĠhuÇĲ":8755,"ĠpÃ¡iĠ":8756,"ĠĠĠ4Ġ":8757,"60ĠniÃ¡nĠ":8758,"bÄģĠnÃ¨n":8759,"ĠquÃ¡nĠqiÃºĠ":8760,"cÄģiĠ":8761,"ĠchÄģo":8762,"ĠĠĠhÃ©":8763,"ĠĠĠzhÃ¬ĠzuÃ²Ġ":8764,"wÃºĠÄĽrĠ":8765,"ĠshÃ¬ĠnÃ¡nĠ":8766,"qiÃºĠduÃ¬":8767,"Ã¨ĠÄĽrĠ":8768,"jÃ¹ĠzhÅįngĠ":8769,"zhÄģngĠdeĠ":8770,"shÃ©ngĠ":8771,"29Ġ":8772,"ckĠ":8773,"ĠyÄ«ĠchÃ¡ngĠ":8774,"ĠĠĠlÄģĠ":8775,"chÇĴngĠ":8776,"yÃ¬nĠxiÃłngĠ":8777,"ĠmÃŃngĠxÄ«ngĠ":8778,"huÃ¡ngĠjÄ«n":8779,"pen":8780,"Ġ2025":8781,"ĠfÇİnĠduÃ¬Ġ":8782,"shÅ«ĠshÃ¬Ġ":8783,"70ĠniÃ¡nĠ":8784,"ĠjÃŃĠyÇĲĠ":8785,"ĠrÃ¬ĠqÄ«Ġ":8786,"zhÃŃĠbÅįĠ":8787,"tÃ³ngĠyÃłng":8788,"ĠmÃ¨ngĠ":8789,"ĠshÇİnĠxÄ«Ġ":8790,"ĠĠĠ8ĠyuÃ¨Ġ":8791,"fÃ¹ĠyÇĶĠ":8792,"mÇİĠshÃ¬Ġ":8793,"37Ġ":8794,"ĠfÃ¹ĠgÃłiĠ":8795,"jÃ¬ngĠnÃ¨iĠdeĠ":8796,"gÄĵĠcÃŃĠ":8797,"zhÃłoĠpiÄģn":8798,"ĠtÃ²uĠguÃ²Ġ":8799,"sÄģnĠwÃ¨iĠ":8800,"cÃŃĠhuÃ¬Ġ":8801,"ĠguÃ³ĠyÇĶĠ":8802,"yÃ³uĠtÃłiĠ":8803,"ĠzhÅįuĠrÃ©nĠ":8804,"kÇİĠlÄģĠ":8805,"ĠtÃ³ngĠshÃŃĠyÄĽĠ":8806,"huÃ³ĠdÃ²ngĠdeĠ":8807,"pÃ³":8808,"Ġ22":8809,"ĠlÇĲngĠ":8810,"huÇİn":8811,"guÃłi":8812,"fÃºĠshÃ¨Ġ":8813,"cÃ¬ĠjÄ«Ġ":8814,"wÃ¡ngĠhÃ²uĠ":8815,"cÃ©ngĠyÃºĠ":8816,"chuÄģnĠyuÃ¨Ġ":8817,"40ĠniÃ¡nĠ":8818,"ĠdÃ¬ĠbÄģĠ":8819,"ĠÄĽrĠzÃłiĠ":8820,"tÃ¨ĠqÅ«Ġ":8821,"jÃ¬nĠzhÇĲĠ":8822,"dÃłĠxuÃ©":8823,"ĠrÃ¬ĠyÃ¬Ġ":8824,"ĠbÃ¬ngĠbiÇİoĠshÃ¬Ġ":8825,"hÃłnĠlÃŃnĠ":8826,"lÇİĠ":8827,"xuÄĵ":8828,"zhÃłnĠzÃłiĠ":8829,"mÇİiĠ":8830,"zhÃ¨ĠzhÇĴng":8831,"zÇĴngĠjÄ«ngĠlÇĲĠ":8832,"ĠhÃ©ĠliÃºĠyÃ¹Ġ":8833,"65Ġ":8834,"ĠcÄģn":8835,"ĠgÃ¹ĠshÃ¬Ġ":8836,"cÇĲĠshÃ¬Ġ":8837,"gÃ©ĠsÄ«Ġ":8838,"jiÃ¹ĠyÇĴuĠ":8839,"ĠyuÃ¡nĠyÇĴuĠ":8840,"shÃłngĠxiÃłĠ":8841,"jÃ¹ĠdÃłĠdeĠ":8842,"hÃ¨ĠsÃ¨Ġ":8843,"kÄģiĠfÄģĠdeĠ":8844,"jiÄĵĠwÃ¨iĠzhÄ«Ġ":8845,"ĠshÃ¬ĠyÃŃĠgÃ¨ĠwÃ¨iĠyÃºĠmÄĽiĠguÃ³Ġ":8846,"miÃłnĠjÄ«ĠhÃ©ĠrÃ©nĠkÇĴuĠ":8847,"DV":8848,"gÇĴu":8849,"ĠØ":8850,"ĠĠĠ2011ĠniÃ¡nĠ":8851,"chÃ©ngĠzÃłiĠ":8852,"chÃ©ngĠshÃŃĠ":8853,"fÄģngĠwÃ¨iĠ":8854,"xiÇİngĠdeĠ":8855,"zuÇĲĠ":8856,"bÅįĠfÃłng":8857,"ĠxiÄģngĠtÃ³ngĠ":8858,"fÃ¡ngĠkÅįngĠ":8859,"dÇİĠsuÃłnĠ":8860,"qÃºnĠzhÃ²ngĠ":8861,"Ġ1981ĠniÃ¡nĠ":8862,"ĠsuÃ¬ĠshÃŃĠ":8863,"ĠyÄģoĠqiÃº":8864,"ĠĠĠsuÄ«ĠrÃ¡nĠ":8865,"bÇĲĠÄĽrĠ":8866,"dÄģnĠxÄ«nĠ":8867,"yÄ«ngĠjÅ«nĠ":8868,"stĠ":8869,"ĠtÄģĠjiÄģngĠ":8870,"bÇİoĠzhÃłng":8871,"ĠdÄģngĠniÃ¡nĠ":8872,"jiÃłnĠkÄģngĠ":8873,"quÃ¨ĠbÇİoĠ":8874,"ĠqiÃ¡nĠlÃ³ngĠ":8875,"ĠjiÃłoĠyÃ¹":8876,"ĠyÃ¡nĠjiÅ«Ġ":8877,"qiÄģo":8878,"chÃ¡ĠlÇĲĠ":8879,"bÅįĠlÃ¬Ġ":8880,"ĠyÄ«ĠtiÄģnĠ":8881,"ĠchÅ«ĠrÃ¨n":8882,"lÃ¡nĠsÃ¨Ġ":8883,"ĠqÃŃĠzhÅįngĠyÇĴuĠ":8884,"tuÃ¬ĠxiÅ«":8885,"hÃ¡ngĠkÅįngĠgÅįngĠsÄ«Ġ":8886,"ĠgÄģiĠdÃ¬ĠdeĠmiÃłnĠjÄ«ĠhÃ©ĠrÃ©nĠkÇĴuĠ":8887,"ĠgÄģiĠdÃ¬ĠdeĠmiÃłnĠjÄ«ĠhÃ©ĠrÃ©nĠkÇĴuĠjiÄĵĠwÃ¨iĠzhÄ«Ġ":8888,"sk":8889,"ĠzhÃłnĠdÃ¬Ġ":8890,"ĠĠĠmÃ¹ĠqiÃ¡nĠ":8891,"yuÃ¨ĠhÃ©Ġ":8892,"qÅ«ĠjÃŃĠ":8893,"jÅ«ĠyÃºĠ":8894,"ĠyÃ¬ĠwÃłiĠ":8895,"xÄ«ĠwÃłngĠ":8896,"gÄģoĠdÄĽng":8897,"chuÃłngĠshÇĲĠrÃ©nĠ":8898,"Ġ1937ĠniÃ¡nĠ":8899,"ĠzhÃ¬ĠlÃ¬ĠyÃºĠ":8900,"kÃ²u":8901,"ĠrÃ¨nĠhÃ©Ġ":8902,"xiÄģngĠdeĠ":8903,"dÄģnĠdÇİĠ":8904,"BSĠ":8905,"ĠwÅ«":8906,"yÃŃĠjÃ¬Ġ":8907,"ĠgÃ¨ĠzÃ¬Ġ":8908,"ĠjÅ«nĠguÄģnĠ":8909,"tuÃ¡nĠjiÃ©Ġ":8910,"ationĠ":8911,"oy":8912,"pÇĲnĠdeĠ":8913,"1945ĠniÃ¡nĠ":8914,"ĠjiÄģĠrÃ¹ĠleĠ":8915,"ĠchÅ«ĠshÃ²uĠ":8916,"gÄģoĠjiÃłĠ":8917,"hÇİiĠyÃ¡ng":8918,"chÃ¡oĠtÃŃngĠ":8919,"huÃ¬ĠyÃ¬ĠshÃłngĠ":8920,"cÃºnĠzÃłiĠyÃºĠ":8921,"ĠguÃ³ĠmÃŃnĠzhÃ¨ngĠfÇĶĠ":8922,"avi":8923,"diÇİnĠxÃŃngĠdeĠ":8924,"tÃ¡ngĠdeĠ":8925,"biÄģoĠjÃ¬Ġ":8926,"gÄĽiĠtÄģĠ":8927,"ĠshÃŃĠyuÃ¨Ġ":8928,"ĠdÃ©ĠlÃ¬Ġ":8929,"3000":8930,"ĠdiÃłoĠ":8931,"ĠshÃ¬ĠyuÃ¡nĠ":8932,"ĠzhÅįngĠduÃ¬Ġ":8933,"ĠdÃłĠguÄ«ĠmÃ³Ġ":8934,"xÄ«ĠyÃ¡ng":8935,"ĠkÃ¨ĠluÃ³Ġ":8936,"nÇļĠhÃ¡iĠ":8937,"ĠdeĠyuÃ¡nĠyÄ«nĠ":8938,"ĠĠĠwÃ¨iĠleĠ":8939,"xÃ¬ĠjÅ«nĠ":8940,"zhÄĵnĠdeĠ":8941,"guÃ³ĠfÃ¡ng":8942,"ĠjÃ¬nĠjÃŃĠ":8943,"chÇİnĠshÄĵng":8944,"lÇĲngĠyÃ¹ĠdeĠ":8945,"Ġ35":8946,"ĠkÇĴuĠ":8947,"ĠcÃłiĠ":8948,"ĠĠĠY":8949,"ĠĠĠ9ĠyuÃ¨Ġ":8950,"ĠĠĠqÃŃĠzhÅįngĠ":8951,"pÃŃngĠjÅ«n":8952,"fÃºĠzhÅįuĠ":8953,"zhuÃłngĠdeĠ":8954,"fÄģĠyÃ¡nĠrÃ©nĠ":8955,"chuÃłngĠzuÃ²":8956,"Ġ1956ĠniÃ¡nĠ":8957,"ĠdeĠjÃ¬ĠhuÃłĠ":8958,"ĠsÃºĠ":8959,"tÄģn":8960,"duÅįĠyuÃ¡nĠ":8961,"xÃ¹ĠjÃŃĠ":8962,"jiÇİnĠlÃ¬Ġ":8963,"wÃłnĠlÃ¬Ġ":8964,"mÃ©ngĠtÃ¨Ġ":8965,"hÄĵiĠlÃ³ngĠjiÄģngĠ":8966,"ruÃ¬ĠdiÇİn":8967,"ĠnÃ¨i":8968,"ĠyÇĲĠ1Ġ":8969,"tÃŃngĠyÃ¹nĠ":8970,"fÃ¡ngĠjiÄģnĠ":8971,"ĠtÄ«Ġ":8972,"touĠ":8973,"duÃłnĠshÃŃĠjiÄģnĠ":8974,"tÄ«ngĠdeĠ":8975,"ĠhÃ©ĠlÃ¬Ġ":8976,"ĠshÃŃĠjiÄģnĠdeĠ":8977,"wÇĶĠdÇİoĠ":8978,"ĠtÃ¨ĠbiÃ©Ġ":8979,"bÇĶĠchÅįngĠ":8980,"63":8981,"qiÄģnĠrÃ©nĠ":8982,"diÃłoĠyÃºĠ":8983,"illi":8984,"ĠxÄ«ĠlÇĲĠ":8985,"ĠzhÄ«ĠchÄĵngĠ":8986,"fÃ¹ĠzhÇĶĠxÃŃĠ":8987,"shÃ¹ĠmÃ¹Ġ":8988,"guÄģnĠcÃ¨":8989,"wÇİngĠwÇİngĠ":8990,"zhuÄģngĠjiÇİ":8991,"ĠqiÅ«":8992,"qiÄģoĠ":8993,"sÄģnĠyuÃ¨Ġ":8994,"ĠzhÅįuĠwÃ©iĠ":8995,"nÃłĠrÃ¹Ġ":8996,"liÃłngĠxiÃłngĠ":8997,"1ĠmÇĲĠ":8998,"jiÄģĠshÃ¬Ġ":8999,"shÃ¹ĠrÃ©nĠ":9000,"chuÄģnĠguÃ²Ġ":9001,"jÃ¬ĠxÃ¹":9002,"fÄģĠhuÄ«":9003,"shÄĵnĠwÃ¡ngĠ":9004,"duÇİnĠzÃłn":9005,"fÃºĠjiÃłnĠshÄĽngĠ":9006,"pÃ³Ġ":9007,"rÄĽn":9008,"ĠniÃºĠ":9009,"shÇĲĠdÃ¬Ġ":9010,"ĠdÃłnĠqÃŃĠ":9011,"fÃºĠhuÃłĠ":9012,"kÄĵĠfÅ«Ġ":9013,"tÇİĠnÃŃ":9014,"ĠsuÃŃĠzheĠ":9015,"ĠĠĠchÄĵĠzhÃłnĠjiÃ©ĠgÃ²uĠ":9016,"roun":9017,"ĠgÇİnĠ":9018,"ĠĠĠcÄģnĠkÇİoĠ":9019,"yÇĴuĠguÄģnĠ":9020,"ĠjÃŃĠÄĽrĠ":9021,"ĠÃ©rĠlÃ¡iĠ":9022,"suÃłnĠfÇİĠ":9023,"tyĠ":9024,"ĠlÃº":9025,"zhÅįngĠhÃ©Ġ":9026,"dÇİngĠjÃŃĠ":9027,"jÄ«ngĠyÃ³uĠ":9028,"jÃ¬ngĠwÃłiĠ":9029,"ĠchÃ©ngĠlÃ¬ĠleĠ":9030,"qÃ¹ĠshÃ¬ĠhÃ²uĠ":9031,"ĠbÃ¬ngĠqiÄĽĠzÃłiĠ":9032,"qÄ«ĠshÃ¬Ġ":9033,"yÃ¹ĠbÃ¨iĠ":9034,"qiÃ¡nĠzÃłiĠ":9035,"shÃ©nĠdeĠ":9036,"hÃºn":9037,"chÃ³ngĠfÃ¹Ġ":9038,"tuÄ«ĠxÃŃngĠ":9039,"kÄĵĠxuÃ©":9040,"ĠdeĠdÃ¬ĠyÃŃĠgÃ¨Ġ":9041,"ĠyÄĽĠkÄĽĠyÇĲĠ":9042,"sÇİn":9043,"zhÃłnĠhÃ©Ġ":9044,"duÅįĠbÃ¹Ġ":9045,"zhÇİnĠxiÃłnĠ":9046,"sÃ²ngĠdÃłoĠ":9047,"ĠtÄģĠhÃ¡i":9048,"ĠyÄ«nĠyuÃ¡nĠ":9049,"ĠyÄ«nĠqÃŃĠ":9050,"ĠshÄĵngĠchÄĵngĠ":9051,"kÅįngĠxÃŃĠ":9052,"ĠshÃ¬ĠjiÃ¨ĠdeĠ":9053,"nÃŃĠyÃłĠdeĠ":9054,"ÃłoĠdÃłĠlÃ¬ĠyÃł":9055,"zhÃ¨ĠjiÄģngĠshÄĽngĠ":9056,"ĠzhÇĶ":9057,"ĠhuÃ¡i":9058,"Ġ2000":9059,"liÃ¨ĠsÄ«Ġ":9060,"dÅ«ĠhuÃ¬Ġ":9061,"res":9062,"tÃ³uĠxiÃ¡nĠ":9063,"Ã©ĠhÃłiĠÃ©":9064,"hÃ¡ngĠbÄģnĠ":9065,"shÅįuĠlÃ¹":9066,"ĠwÃ©nĠhuÃł":9067,"ĠĠĠ6ĠyuÃ¨Ġ":9068,"zhÄĽĠrÃ¨nĠwÃ©iĠ":9069,"ĠdÃ¬Ġ2":9070,"ĠyÇĶĠzhÃ²u":9071,"ĠchÅ«ĠyÄ«Ġ":9072,"ĠhuÃ¬ĠshÃłngĠ":9073,"lÄģĠtÃ¨Ġ":9074,"sÃ¨ĠcÇİiĠ":9075,"qiÃ¡ngĠdÃłĠdeĠ":9076,"guÃ³ĠjiÄģĠduÃ¬Ġ":9077,"tÃłnĠcÃ¨Ġ":9078,"zhÄ«ĠdÃłoĠ":9079,"hÃ²uĠbÃ¹ĠjiÇĶĠ":9080,"juÃ©ĠyÃºĠ":9081,"wÇİnĠniÃ¡nĠ":9082,"dÃłĠliÃłngĠ":9083,"ĠdÃłoĠzhÅįngĠ":9084,"xÄ«ĠyÃłĠ":9085,"ĠyÇĲĠlÃ¡i":9086,"ĠwÃ©iĠqÃŃ":9087,"chÃ³ngĠxÄ«n":9088,"ĠhÄĵngĠlÃ¬Ġ":9089,"tÃłnĠxiÇİn":9090,"pÃ¡iĠhÃ¡ngĠbÇİng":9091,"ĠdÃŃ":9092,"ĠcÇİiĠ":9093,"bÃ¹ĠwÃ¨iĠyÃºĠ":9094,"shuÇĲĠhÃ©Ġ":9095,"ĠzÃłiĠxiÃłnĠ":9096,"ĠdÃ¬ĠzhÅįngĠ":9097,"wÃłiĠguÄģnĠ":9098,"cÃ¡iĠzhÃ¨ng":9099,"Ġ1955ĠniÃ¡nĠ":9100,"92":9101,"orl":9102,"zhÄĵnĠzhÃ¨ngĠ":9103,"ĠguÃ³ĠwÃ¡ng":9104,"ĠyÄ«ĠtÃ³ng":9105,"yÃ¡nĠchÃ¡ngĠ":9106,"ĠxuÃ©ĠxÃŃ":9107,"bÃłoĠzhÃł":9108,"jÃ¬nĠxÃŃngĠdeĠ":9109,"ĠdÃłĠsÃłiĠ":9110,"fÄģĠbÃ¹ĠdeĠ":9111,"pÇĶĠtÅįng":9112,"cÅ«nĠmÃŃnĠ":9113,"ĠshÇĲĠyÃ²ng":9114,"ĠzÇĴngĠtÇĴngĠ":9115,"nÃłnĠmÃŃnĠ":9116,"pÄĵngĠ":9117,"ĠbiÇİoĠ":9118,"chÅ«ĠzhÃłnĠ":9119,"tiÃło":9120,"fÃ¹ĠbÃ¹ĠzhÇİngĠ":9121,"luÇİn":9122,"wÇİngĠqiÃº":9123,"dÅįuĠbÃ¹Ġ":9124,"ĠÄĽrĠyÇĶĠ":9125,"bÄģĠlÃ¨":9126,"wÃ¡ngĠzÇĲĠ":9127,"hÃ¹ĠdÃ²ngĠ":9128,"500Ġ":9129,"²Ġ":9130,"ĠÄģnĠdÃ©Ġ":9131,"shÄĽngĠzhÃ¨ngĠfÇĶĠ":9132,"kuÃ²ĠjiÃłnĠ":9133,"1997ĠniÃ¡nĠ":9134,"chÃ©ngĠjÃ¬Ġ":9135,"ĠjiÄģĠsÄ«Ġ":9136,"ĠbÃ¬ngĠyÇĴuĠ":9137,"sÄģnĠzhÇĴngĠ":9138,"chÃ¨ĠtuÃ¬Ġ":9139,"mÇİnĠzÃº":9140,"ĠxiÅįng":9141,"bÅįĠchÅ«ĠdeĠ":9142,"duÄģnĠdeĠ":9143,"yÄ«ĠlÃ¬Ġ":9144,"ĠjÃŃĠsÄ«Ġ":9145,"ĠlÃ¬ĠshÇĶ":9146,"zhÃ¨ĠyÃłngĠdeĠ":9147,"guÄ«ĠzÃ©":9148,"ĠcÃ©ngĠjÄ«ngĠ":9149,"ĠlÃ¹ĠyÃ¬Ġ":9150,"do":9151,"ĠmÃ¹":9152,"ĠĠĠgÄĵnĠjÃ¹":9153,"bÄĽnĠbÃ¹Ġ":9154,"xiÃłoĠshÃ¨Ġ":9155,"ĠrÃ¬ĠyÇĶĠ":9156,"ĠrÃ¬ĠhÃ²uĠ":9157,"tiÄģnĠqÃ¬Ġ":9158,"hÃºĠpÅįĠ":9159,"ĠMĠ":9160,"ÄģĠfÃ¹Ġ":9161,"hÃ²uĠtÄģĠ":9162,"rÃ¨nĠyÃ¬Ġ":9163,"mÇİĠlÃ¬ĠyÃłĠ":9164,"yÃ¹nĠxÃŃng":9165,"ĠshÃ¬ĠyÃłnĠ":9166,"ĠqÃŃĠtÄģĠdeĠ":9167,"chÃ¡ngĠwÄĽiĠhuÃ¬Ġ":9168,"gÃłoĠsÃ¹":9169,"ĠguÃ³ĠjÃ¬ĠjÄ«ĠchÇİngĠ":9170,"yÅįuĠxiÃ¹Ġ":9171,"nuÃ³ĠwÄĵiĠ":9172,"fÄĵiĠlÇľĠbÄ«nĠ":9173,"ĠĠĠxiÄģngĠ":9174,"ĠĠĠrÃ¬ĠbÄĽnĠ":9175,"ĠĠĠjiÃłnĠzhÃ¹Ġ":9176,"bÄģĠshÃŃĠ":9177,"jÃ¬ngĠtÃ³uĠ":9178,"gÇİiĠchÄĵngĠ":9179,"xÃ¹ĠliÃ¨Ġ":9180,"3ĠmÃŃngĠ":9181,"94":9182,"wÄģngĠ":9183,"ĠwÇİnĠ":9184,"ĠĠĠ2008ĠniÃ¡nĠ":9185,"dÃ¬ngĠlÇĲĠ":9186,"bÇİoĠwÃ¨iĠ":9187,"xiÄĽĠleĠ":9188,"ĠdeĠgÇĶĠ":9189,"bÃłnĠdÇİo":9190,"zhuÇİnĠyÃŃĠ":9191,"ĠĠĠgÄĵnĠjÃ¹Ġ2010ĠniÃ¡nĠmÄĽiĠguÃ³ĠrÃ©nĠkÇĴuĠpÇĶĠchÃ¡ĠdeĠshÃ¹ĠjÃ¹Ġ":9192,"dÇĴuĠ":9193,"tt":9194,"ĠtÇİ":9195,"ĠĠĠcÇĲ":9196,"ĠyuÃ¨ĠtuÃ¡n":9197,"ĠjÃŃĠjiÄģngĠ":9198,"qÅ«ĠzhÃº":9199,"mÃ¬ĠqiÃ¨":9200,"rÃ©nĠkÇĴuĠpÇĶĠchÃ¡Ġ":9201,"gi":9202,"ĠĠĠgÄģoĠ":9203,"liÃºĠxuÃ©Ġ":9204,"ĠchÅ«ĠxiÃłnĠdeĠ":9205,"ĠzhÅįuĠhÃ©Ġ":9206,"jiÃ©ĠdÃ¹ĠshÇĲĠ":9207,"bÇİoĠzhÃłngĠ":9208,"xÄ«ngĠxÃ¬Ġ":9209,"bÃłnĠyÇİn":9210,"nuÃ²ĠmÃłnĠ":9211,"chuÃŃĠzhÃŃĠ":9212,"ĠzÇĶ":9213,"ĠnÃłĠme":9214,"xuÃ©ĠshÃ¬ĠxuÃ©ĠwÃ¨iĠ":9215,"po":9216,"ĠnÃ³ngĠ":9217,"ĠyÃłnĠ":9218,"ĠzhuÄ«Ġ":9219,"xiÃłoĠyÇĴuĠ":9220,"lÇĺ":9221,"shuÅįĠdeĠ":9222,"dÄ«ĠdeĠ":9223,"ĠshÃ¬ĠzhÇĲ":9224,"pÃłnĠchÇĶĠ":9225,"hÇİnĠmÃ²ĠdÃ©Ġ":9226,"EN":9227,"ĠchÇİngĠ":9228,"sÃ¹ĠshÃ¨Ġ":9229,"gÇİiĠmÃŃngĠ":9230,"zÃłngĠyÃºĠ":9231,"ĠshÃ¬ĠbÃ¨iĠ":9232,"ĠxiÃłnĠyÇĶĠ":9233,"ĠxiÃłnĠzÃłiĠdeĠ":9234,"ĠkÃ¨ĠsÃłĠsÄ«Ġ":9235,"ĠxuÃ©ĠhuÃ¬Ġ":9236,"bÃłnĠfÇİĠ":9237,"ĠguÃ³ĠmÃŃnĠdÇİng":9238,"ĠyÄ«ĠwÃ¨iĠ":9239,"jiÇİngĠzhÅįngĠ":9240,"ĠshÃ¬ĠzhÃ¨ngĠfÇĶĠ":9241,"rÃ©nĠmÃŃn":9242,"yÃ¡nĠlÃ¹nĠ":9243,"fÇİĠguÃ³ĠdeĠ":9244,"tiÃ¡oĠwÃ©nĠ":9245,"ĠtÃ³ngĠshÃŃĠyÄĽĠshÃ¬Ġ":9246,"ĠhÃ©ĠnÃ¡nĠshÄĽngĠ":9247,"44Ġ":9248,"ah":9249,"ei":9250,"ĠnĠ":9251,"ĠshÃłoĠ":9252,"ĠgÅįngĠbÃ¹Ġ":9253,"Ġ2023ĠniÃ¡nĠ":9254,"qiÃ¡nĠxiÃłnĠ":9255,"sÃ¬ĠyuÃ¨Ġ":9256,"nÃłĠhÃ©Ġ":9257,"zhÄĵnĠyÇĶĠ":9258,"fÇĴuĠrÃ¨nĠ":9259,"ĠtÄģĠchÃ©ngĠwÃ©iĠ":9260,"rÃ¨nĠmÃ¬ngĠ":9261,"ĠbÃ¬ngĠjiÄģng":9262,"dÄĵngĠlÃ¹":9263,"ÄģĠÄĽrĠbÄģĠ":9264,"ĠdÅįuĠshÃ¬Ġ":9265,"ĠĠĠ189":9266,"ĠĠĠfÇİĠguÃ³Ġ":9267,"zÇĴngĠzhÃłnĠ":9268,"jiÇİĠshÃ¨Ġ":9269,"ĠzhÄ«ĠbÃ¹Ġ":9270,"ĠdÃłĠchÃ©ngĠ":9271,"xiÇİoĠzÇĶ":9272,"kÃ¨ĠyÃ¹nĠ":9273,"ĠĠĠAr":9274,"lÇĲĠshÃ¬ĠhuÃ¬Ġ":9275,"ĠfÄĵng":9276,"ĠĠĠX":9277,"chuÃ¡nĠqÃŃĠ":9278,"ĠhÃ©ĠdÅįngĠ":9279,"ĠyÇĲĠ2Ġ":9280,"ĠsÄ«ĠfÇİĠ":9281,"shuÇĲĠshÄĵnĠ":9282,"ĠfÄĵnĠbÃ¹ĠzÃłiĠ":9283,"mÃłoĠxiÇİnĠ":9284,"qÇĶĠdÃ©ĠleĠ":9285,"ĠrÃ©nĠkÇĴuĠdeĠ":9286,"rÃ©nĠdÃłĠdÃłiĠbiÇİoĠ":9287,"ach":9288,"Ġ80":9289,"ĠwÃ²Ġ":9290,"ĠĠĠchÃ©nĠ":9291,"ĠtÄģĠshuÅįĠ":9292,"ĠbÃ¨iĠjÇĲngĠ":9293,"mÃ¬ngĠmÃŃngĠdeĠ":9294,"ĠguÄģnĠzhÃ¬Ġ":9295,"ĠgÃłiĠ":9296,"wÃ©iĠrÃ©nĠ":9297,"sÄģnĠbÃ¹Ġ":9298,"liÃ¹ĠgÃ¨Ġ":9299,"zÃ¡ĠdeĠ":9300,"rÃ¨nĠzhÃŃĠ":9301,"sÃłiĠchÄĵĠ":9302,"ĠRĠ":9303,"55Ġ":9304,"ire":9305,"mÄģo":9306,"tÃłĠ":9307,"yÇĲngĠdÃłiĠ":9308,"qÃ¹ĠdeĠ":9309,"dÃłngĠzuÃ²Ġ":9310,"fÄģngĠchÃ©ngĠshÃ¬Ġ":9311,"ĠshÃ¬ĠshÃ¬ĠjiÃ¨":9312,"ĠjiÄģngĠxÄ«Ġ":9313,"luÃ³ĠmÇİĠdÃ¬ĠguÃ³Ġ":9314,"ĠxiÃłnĠdeĠyÃŃĠgÃ¨ĠxÃŃngĠzhÃ¨ngĠzhÃ¨nĠqÅ«Ġ":9315,"51":9316,"OM":9317,"lÃŃĠshÃ¬Ġ":9318,"jÃºĠshÃ¬Ġ":9319,"eri":9320,"zÇĲĠdÃłnĠ":9321,"ĠbÃ¹ĠjÇĲn":9322,"ĠrÃ¨nĠzhÃŃĠ":9323,"mÃ¬ĠdÃ¹Ġ":9324,"fÇİnĠduÃ¬":9325,"yÄ«nĠsÃ¹Ġ":9326,"diÃłnĠyÇĲngĠdeĠ":9327,"HD":9328,"lan":9329,"ĠdÃ¡":9330,"ĠpÃŃ":9331,"zhÃłnĠyÇĴuĠ":9332,"xÄ«nĠxÃŃngĠ":9333,"chÄĵĠrÃ©nĠ":9334,"35ĠniÃ¡nĠ":9335,"ĠdÃłĠfÅ«Ġ":9336,"ĠzhÄ«ĠhÃ²uĠzÃłiĠ":9337,"tÃ¨ĠlÇİngĠ":9338,"yÃŃĠdÃ¹":9339,"liÃºĠliÃłngĠ":9340,"zhÄĵngĠqÇĶĠ":9341,"fÃłnĠzuÃ¬":9342,"yÃ¬nĠshuÄģĠ":9343,"juÃ©ĠsÃłiĠzhÅįngĠ":9344,"ĠguÃ¬Ġ":9345,"ĠqÇĲngĠ":9346,"ĠĠĠyÃ¡nĠgÃ©Ġ":9347,"ĠĠĠyÇĲĠxiÃłĠ":9348,"jiÄģoĠjiÃ¨Ġ":9349,"wÄĽiĠyuÃ¡nĠhuÃ¬ĠzhÇĶĠxÃŃĠ":9350,"ĠchuÃłng":9351,"ĠwÃ¡nĠchÃ©ngĠ":9352,"tÇĲĠjÄ«Ġ":9353,"hÃ¹ĠshÃ¬Ġ":9354,"miÇİnĠyÃ¬Ġ":9355,"zÇĴngĠmiÃłnĠjÄ«Ġ":9356,"ĠPĠ":9357,"ĠcÃ©ngĠzÃłiĠ":9358,"shÄģnĠxÄ«ĠshÄĽngĠ":9359,"ĠliÃºĠyÃ¹ĠmiÃłnĠjÄ«Ġ":9360,"chÃ¡ĠÄĽrĠsÄ«Ġ":9361,"yÃ¹nĠdeĠ":9362,"xÄ«ngĠjiÃłn":9363,"chuÃ¡nĠdÃ¬Ġ":9364,"ĠzÃłiĠbÃ¨iĠ":9365,"ĠxiÃłnĠzhÅįngĠ":9366,"ĠxÃŃngĠhÃ©Ġ":9367,"xuÃ©ĠxÃ¬Ġ":9368,"ĠjÅ«nĠtuÃ¡nĠ":9369,"diÃłnĠzÇĲ":9370,"dÄģnĠmÃłi":9371,"shÄģngĠchÇİngĠ":9372,"huÃŃĠguÄ«":9373,"ĠdÅįngĠbÄĽi":9374,"dÃłiĠbiÇİoĠtuÃ¡nĠ":9375,"ĠgÄĵnĠjÃ¹Ġ2020ĠniÃ¡nĠmÄĽiĠguÃ³ĠrÃ©nĠkÇĴuĠpÇĶĠchÃ¡ĠdeĠshÃ¹ĠjÃ¹Ġ":9376,"ĠrÃ¬ĠbÄĽnĠdeĠ":9377,"ÃłnĠlÃ¬Ġ":9378,"fÃºĠshÃ¬Ġ":9379,"chÃ¡oĠshÃŃĠ":9380,"bÃ¹ĠtÃ³ngĠ":9381,"shÇĴuĠshÃ¹Ġ":9382,"fÄĵnĠliÃ¨Ġ":9383,"ĠzhÃ¨ngĠquÃ¡nĠ":9384,"yÇİnĠzÃ²u":9385,"yÇİnĠjiÇİngĠ":9386,"6ĠmÇĲĠ":9387,"OR":9388,"ĠdÄĵng":9389,"yÇĴuĠhÃ©Ġ":9390,"leĠdÃ¬Ġ":9391,"gÄģoĠdÃ¬Ġ":9392,"chÃ¡ngĠbÃ¨iĠ":9393,"biÃłnĠshÃ¬Ġ":9394,"qiÇİnĠzÃ©Ġ":9395,"mÃŃnĠzhÃ²ng":9396,"biÄģnĠjiÃ¨":9397,"ĠĠĠtÃ¡iĠwÄģnĠ":9398,"jÃ¬nĠniÃ¡nĠ":9399,"gÃ©ĠlÇĲĠ":9400,"00ĠmÇĲĠ":9401,"cÅ«nĠdeĠ":9402,"ĠzhÇĶĠchÃŃ":9403,"hÃ¡ngĠkÅįngĠmÇĶ":9404,"guÇİngĠfÃłnĠdeĠ":9405,"CDĠ":9406,"ĠlÃ¡n":9407,"ĠcÃŃ":9408,"cho":9409,"jÃ¬ĠyÃºĠ":9410,"zhÇİngĠhÃ©Ġ":9411,"1994ĠniÃ¡nĠ":9412,"yÃ¬ĠbÇİiĠ":9413,"jÄ«ngĠyÃŃng":9414,"xiÃ¡ngĠxÃ¬Ġ":9415,"ĠzhÇĶĠyÃłoĠshÃ¬Ġ":9416,"shuÇĲĠdeĠ":9417,"jÇĲngĠyuÃ¡nĠ":9418,"ĠzhÅįngĠqÄ«Ġ":9419,"ĠchÃ©ngĠlÃ¬ĠdeĠ":9420,"shÄĵngĠyÄ«nĠ":9421,"zhÃ¨ngĠchÃ¡ngĠ":9422,"ĠmÃŃngĠxiÇİnĠ":9423,"bÇİoĠjiÄģ":9424,"wit":9425,"ĠĠĠtÃ³ng":9426,"diÄĵĠ":9427,"ĠzÃłiĠqÃŃ":9428,"ĠyÄ«ĠzhÇĴng":9429,"ĠdÃłnĠdeĠ":9430,"jÄ«nĠrÃ³ng":9431,"guÄ«ĠlÃ¨i":9432,"shuÃ²Ġ":9433,"wÃ¡nĠzhÄĽngĠdeĠ":9434,"61":9435,"72":9436,"ĠjÄ«ĠyÃºĠ":9437,"kÄģiĠshÃ¨":9438,"gÄĵnĠbÄĽnĠ":9439,"dÃłngĠdeĠ":9440,"ĠwÃ¨iĠwÃ¨iĠ":9441,"ĠxÄ«ĠfÄģngĠ":9442,"ĠzhÄ«ĠshÃłngĠ":9443,"zhÇĶĠbÃłnĠ":9444,"qiÃ¡nĠjÃ¬nĠ":9445,"fÃºĠlÃ©i":9446,"shÃ²uĠhuÄģnĠ":9447,"yÃŃĠcÃ¬ĠshÃ¬ĠjiÃ¨ĠdÃłĠzhÃłnĠ":9448,"gÇİiĠzÃło":9449,"qiÃ¡oĠliÃ¡ngĠ":9450,"dÃ©ĠguÃ³ĠdeĠ":9451,"zhÇĶĠyÃłoĠshÃ¬Ġ":9452,"ĠĠĠxiÄģngĠgÇİng":9453,"jiÃ¹ĠbÃ¨iĠ":9454,"1980ĠniÃ¡nĠ":9455,"ĠduÃ¬ĠwÇĶĠ":9456,"jÄ«nĠshÄģnĠ":9457,"tÃºĠshÄģĠ":9458,"ĠnÃłnĠ":9459,"ĠĠĠdÃłoĠ":9460,"Ã©rĠtÃ³ng":9461,"ĠshÃŃĠkÃ¨Ġ":9462,"lÇĲĠlÃ¡nĠ":9463,"ĠgÃ¨ĠbÃ¹Ġ":9464,"ĠzhÅįuĠlÃ¬Ġ":9465,"ĠduÃ¬ĠwÃłiĠ":9466,"ĠlÃ¬ĠshÇĲĠxuÃ©ĠjiÄģĠ":9467,"ĠyÃ¬ĠshÃ¹ĠjiÄģĠ":9468,"WindowsĠĠĠ":9469,"TVĠ":9470,"ĠkÄĽĠnÃ©ng":9471,"fÃºĠyÄ«nĠ":9472,"jiÄĵĠdeĠ":9473,"jiÃ¨ĠyÃ³uĠ":9474,"jiÄģoĠdeĠ":9475,"ĠshÃŃĠyÃ³uĠ":9476,"ĠyÇĴuĠliÇİngĠ":9477,"luÃ³ĠlÄģĠ":9478,"shÅįuĠcÃ¡ng":9479,"ÄģĠÄĽrĠbÄĵiĠsÄ«Ġ":9480,"ĠguÄģngĠxÃ¹Ġ":9481,"24ĠxiÇİoĠshÃŃĠ":9482,"nÃºĠlÃ¬Ġ":9483,"ĠĠĠliÃºĠ":9484,"tiÇİoĠ":9485,"1991ĠniÃ¡nĠ":9486,"fÄĵnĠpÃ¨i":9487,"nÇļĠzhÇĶĠjuÃ©Ġ":9488,"zÃºĠqÃºnĠ":9489,"sÃłĠlÄģĠ":9490,"Ġ1952ĠniÃ¡nĠ":9491,"fÃ³ĠjiÃło":9492,"luÃ²ĠkÃ¨Ġ":9493,"ĠshÃ¬ĠxÄ«ĠbÄģnĠyÃ¡Ġ":9494,"ĠbÃ¹ĠshÃŃĠ":9495,"ĠguÃ³ĠjÅ«nĠ":9496,"ĠdÃłĠqiÃ¡o":9497,"ĠjÃ¬nĠÃ©rĠ":9498,"mÃ³ĠtÃ¨":9499,"ĠmiÃłnĠjÄ«Ġ0":9500,"fÄģĠbÃ¹ĠleĠ":9501,"chÄģoĠguÃ²":9502,"ĠdÃłĠbÃ¹ĠfÃ¨n":9503,"dÄ«ĠqÃ¬ĠyÄģĠ":9504,"110":9505,"mÇİoĠ":9506,"ĠzhÄģoĠ":9507,"quÃłn":9508,"nÃ¡nĠrÃ©nĠ":9509,"chÄĵngĠshÃ¬Ġ":9510,"gÇĶĠjÃ¬Ġ":9511,"biÃłnĠdeĠ":9512,"nÇļĠrÃ©nĠ":9513,"luÃ²ĠzÃłiĠ":9514,"ĠshÃŃĠlÃ¬Ġ":9515,"ĠjÄ«ĠxiÃ¨":9516,"ĠxÄ«ĠzÃłngĠ":9517,"tÅįngĠwÇİngĠ":9518,"ĠshÃ¨ĠyÇĲngĠ":9519,"xuÇİnĠqÅ«":9520,"yÇĲĠsÃ¨Ġ":9521,"pÃ©iĠxÃ¹nĠ":9522,"zhÃ²ngĠdiÇİnĠwÃ©nĠwÃ¹ĠbÇİoĠhÃ¹ĠdÄģnĠwÃ¨iĠ":9523,"jiÄģĠlÃ¬ĠfÃºĠnÃŃĠyÃłĠzhÅįuĠ":9524,"43Ġ":9525,"8ĠgÃ¨Ġ":9526,"hÃłoĠdeĠ":9527,"biÄģnĠzhÃ¬Ġ":9528,"yÄ«ĠyuÃłnĠ":9529,"zhÃ¬ĠzuÃ²":9530,"zhÇĴngĠlÃ¨iĠ":9531,"zÄ«ĠxÃºnĠ":9532,"qÃŃngĠbÃło":9533,"qiÃ¡ngĠdiÃło":9534,"tÇİnĠdÄ«ngĠ":9535,"AL":9536,"dÃłĠhÃ©Ġ":9537,"lÃ¡iĠkÃ¨Ġ":9538,"yÃłĠsÄ«Ġ":9539,"zhuÇİnĠchÃ©ngĠ":9540,"ĠgÅįngĠgÃłoĠ":9541,"ĠrÃ¬ĠhÃ©Ġ":9542,"ĠyuÃ¡nĠziĠ":9543,"xÄ«nĠjiÄģngĠ":9544,"tÃ³uĠshÇĴuĠ":9545,"jiÃłĠgÃ²uĠ":9546,"zhuÄģnĠmÃ©n":9547,"cuÄ«ĠhuÇĲĠ":9548,"ĠkÄĽnĠ":9549,"shÃ¡":9550,"shÄģĠdeĠ":9551,"ĠjÃŃĠxiÃłnĠ":9552,"ĠyÃ¬ĠdÃłĠ":9553,"ĠzÃ¬ĠmÇĶĠ":9554,"ĠjÄ«nĠshÇĶĠ":9555,"tÃºĠshÅ«ĠguÇİn":9556,"gÇĶĠlÇİoĠdeĠ":9557,"ĠzÃº":9558,"jÃºĠbÃ¹Ġ":9559,"ĠshÃ¬ĠduÃ¬Ġ":9560,"ĠzhÄ«ĠhÃ²uĠdeĠ":9561,"guÄ«ĠdÃ¬ng":9562,"ĠshÃ¬ĠyÄ«ĠkÄĵ":9563,"tÃ¡nĠpÃłn":9564,"tÇĲĠyÃ¹ĠguÇİnĠ":9565,"gÃ²uĠmÇİiĠ":9566,"dÃŃĠshÃ¬ĠnÃŃĠ":9567,"cÅįng":9568,"rou":9569,"ĠluÃ³ĠsÄ«Ġ":9570,"guÇİngĠzhÅįuĠshÃ¬Ġ":9571,"huÃŃĠjiÄģĠ":9572,"ĠyÄ«ĠlÇİng":9573,"shÅįuĠrÃ¹":9574,"chÃ©ngĠlÃ¬ĠhÃ²uĠ":9575,"gÃ²ngĠhÃ©ĠdÇİngĠ":9576,"ĠmÇĲ":9577,"ĠxiÅįngĠ":9578,"rÃ¹n":9579,"gÃ²ngĠjÃ¬Ġ":9580,"ĠshÃ¬ĠxÄ«ngĠdÄĽngĠwÃ¨iĠ":9581,"ĠzhÅįngĠxÄ«nĠdeĠ":9582,"rÃºĠguÇĴ":9583,"shÃ©nĠhuÃłĠ":9584,"diÃłnĠyÇĲngĠjiÃ©Ġ":9585,"zhuÄģnĠlÃ¬Ġ":9586,"ĠyÇĲĠbÄĽiĠ":9587,"yÃŃĠdÃ¬ngĠdeĠ":9588,"pÇĶĠluÃ³Ġ":9589,"yÃ¡nĠjiÅ«ĠzhÅįngĠxÄ«nĠ":9590,"gÃ¨ĠzhÇĴng":9591,"ĠÐ°":9592,"ĠkÄĽĠshÃ¬Ġ":9593,"gÄĽn":9594,"tsĠĠĠ":9595,"ĠxuÃ¡nĠ":9596,"jiÄģnĠwÃ¨iĠ":9597,"shÄ«ĠjÃŃĠ":9598,"wÇĶĠdÃ©Ġ":9599,"ardĠĠĠ":9600,"zhÃ¬ĠdÃ¹Ġ":9601,"wÄĽiĠtuÅįĠ":9602,"Ġ180":9603,"ĠjÇĲngĠfÄģngĠ":9604,"hÅįngĠzhÃłĠ":9605,"62":9606,"ĠlÇļ":9607,"ĠhuÄģ":9608,"ÄģĠsÄ«Ġ":9609,"kÄĽĠjiÃłnĠ":9610,"lÃºnĠsÄ«Ġ":9611,"ĠtÄģĠyÄĽ":9612,"fÄģngĠxiÃłngĠdeĠ":9613,"wÄĵiĠxiÃ©":9614,"her":9615,"oni":9616,"ĠzÄĵngĠ":9617,"ÄģĠkÃ¨Ġ":9618,"gÅįngĠhÃ©Ġ":9619,"duÅįĠlÃ¬ĠyÃłĠ":9620,"yÇĶĠmÃ¡o":9621,"mÃ³ĠfÇİĠ":9622,"sÅ«ĠdÄģnĠ":9623,"zhuÇİnĠhuÃłnĠ":9624,"ĠniÃ¡nĠ12ĠyuÃ¨Ġ31ĠrÃ¬Ġ":9625,"fÇİĠlÃ¡nĠxÄ«":9626,"ĠbÃ¹ĠzÃłiĠ":9627,"ĠpÃ©ngĠ":9628,"dÄĽngĠyÃºĠ":9629,"cÃ©ngĠbÃ¨iĠ":9630,"sic":9631,"ĠzÃłiĠxiÄģngĠgÇİngĠ":9632,"wÃ¹ĠpÇĲnĠ":9633,"gÄĵĠgÄĵĠ":9634,"shÇĲĠyÃ²ngĠzhÄĽĠ":9635,"Ġ19Ġ":9636,"ok":9637,"ĠbÇĲĠsÃłiĠ":9638,"qÇĶĠzÃ¬Ġ":9639,"ĠhÃ©ĠjÃ¬Ġ":9640,"ĠshÃŃĠpÇĲnĠ":9641,"qÄ«ngĠchÇĶĠ":9642,"ĠxiÃłĠleĠ":9643,"tÃŃngĠkÃło":9644,"fÃ©iĠtÃ¨Ġ":9645,"73":9646,"boo":9647,"Ġ21":9648,"ĠĠĠfor":9649,"dÃłĠyÃºĠ":9650,"zhÄ«ĠjiÄģĠ":9651,"jiÃ¹ĠzÃłiĠ":9652,"gÃ¨ngĠshÃ¬Ġ":9653,"gÃłoĠshÃ¬Ġ":9654,"ĠxiÃłnĠmÃŃngĠ":9655,"nÃ¨iĠruÃ¬Ġ":9656,"zhuÇİnĠhuÃłn":9657,"zhuÃłnĠxiÄĽĠ":9658,"ĠshÃ¬ĠshÃŃĠshÃłngĠ":9659,"ĠniÃ¡nĠqÄ«ngĠdeĠ":9660,"ĠĠĠm":9661,"ĠĠĠ2005":9662,"rÃ¹ĠqiÃºĠ":9663,"tÃ¡nĠhÃ©Ġ":9664,"ĠxÃŃngĠrÃ³ng":9665,"ĠjÅ«nĠyÇĴuĠ":9666,"fÃ¹ĠshÇĲĠ":9667,"liÃ¡nĠluÃ²Ġ":9668,"ĠzhÅįuĠqÄ«Ġ":9669,"ĠyÃ³uĠxÃ¬ĠdeĠ":9670,"zhÇĶnĠbÃ¨i":9671,"shÃ¹nĠxÃ¹Ġ":9672,"kuÃłiĠdeĠ":9673,"ĠshÃ¬ĠyÄ«ngĠguÃ³Ġ":9674,"ĠtÃ³ngĠzhÃ¬Ġ":9675,"chÇİnĠwÃ¹Ġ":9676,"shÅįuĠfÃ¨iĠ":9677,"shÄĽnĠpÃłnĠ":9678,"ĠyÄ«nĠcÇĲĠzÃłiĠ":9679,"usĠĠĠ":9680,"wÃ¹ĠyÇĶĠ":9681,"kÃ¨ĠsÄ«Ġ":9682,"tuÇĲ":9683,"bÄģĠbÃ¹Ġ":9684,"wÇİngĠyÇĴuĠ":9685,"jÃ¬ĠzÇİiĠ":9686,"ĠxÃŃngĠrÃ©nĠ":9687,"qÅ«ĠnÃ¨iĠ":9688,"ĠbÃ¬ngĠshÃ¬Ġ":9689,"ĠbÃ¨iĠrÃ¨nĠmÃ¬ngĠwÃ¨iĠ":9690,"Ġ1970ĠniÃ¡nĠ":9691,"ĠbÃ¬ĠxÅ«Ġ":9692,"ĠlÃºĠwÇİĠÄĽrĠshÄĽngĠ":9693,"mÄĽiĠguÃ³ĠrÃ©nĠkÇĴuĠpÇĶĠchÃ¡Ġ":9694,"sÄģiĠÄĽrĠwÃ©iĠyÃłĠ":9695,"89ĠniÃ¡nĠ":9696,"±Ġ":9697,"ĠjiÇİoĠ":9698,"ĠĠĠ14":9699,"ĠĠĠ2022ĠniÃ¡nĠ":9700,"cÃ¹n":9701,"ĠwÃ¨iĠlÃ¬Ġ":9702,"ĠjÃŃĠbÃ¬ng":9703,"ĠtÄģĠrÃ©nĠ":9704,"jÄ«ĠguÄģnĠ":9705,"zuÃ²ĠzhÄĽĠ":9706,"ĠxÃŃngĠrÃ³ngĠ":9707,"yÃ³uĠyÇĴngĠ":9708,"zhÇĲĠkÃ²ng":9709,"jiÄģoĠgÄĽiĠ":9710,"shuÇĲĠliÃłngĠ":9711,"ĠtiÄģnĠjÄ«nĠ":9712,"qiÃºĠchÇİngĠ":9713,"ĠliÃ¡nĠjiÄĵĠ":9714,"kÄĽĠnÃ©ngĠxÃ¬ngĠ":9715,"Ġ157":9716,"rÃ¬ĠbÄĽnĠdeĠ":9717,"EC":9718,"Ġ2004":9719,"00ĠrÃ©nĠ":9720,"ĠshÃŃĠdÃłĠ":9721,"zhÃłnĠlÃ¼Ã¨Ġ":9722,"jiÃłoĠgÄģoĠ":9723,"fÇİĠlÃ¡nĠkÃ¨Ġ":9724,"ĠqÃŃĠhÃ²uĠyÃºĠ":9725,"zhÃ¨nĠrÃ³ngĠ":9726,"jiÇİnĠdÄģnĠdeĠ":9727,"qÇĶĠmÃ¹Ġ":9728,"piÃłnĠduÃłnĠ":9729,"ĠshÃ¬ĠjiÃ¨ĠshÃłngĠ":9730,"sÃ¬ĠchuÄģnĠshÄĽngĠ":9731,"ĠruÇİn":9732,"chuÄģnĠxiÃłnĠ":9733,"ĠyÃºĠshÃŃĠdeĠrÃ©nĠkÇĴuĠshÃ¹ĠliÃłngĠwÃ¨iĠrÃ©nĠ":9734,"zhÃŃĠshÄĵngĠjÄ«Ġ":9735,"sÃłiĠguÃłnĠjÅ«nĠ":9736,"yÄ«ngĠxiÃ³ng":9737,"mÃ©iĠyÇĴuĠrÃ¨nĠhÃ©Ġ":9738,"ĠmÄĽiĠzhÅįuĠ":9739,"Ġ1941ĠniÃ¡nĠ":9740,"yÃ¡nĠshÄĵnĠzhÃ¬Ġ":9741,"US":9742,"wÄĵng":9743,"ĠchÃ³ngĠxÄ«nĠ":9744,"ĠĠĠhÃ³ngĠ":9745,"gÇĶĠdeĠ":9746,"hÃłoĠwÃ¨iĠ":9747,"pÇĶĠjÃŃĠ":9748,"ĠshÃ¬ĠjÃ¬ĠzhÅįngĠ":9749,"ĠshÃłngĠleĠ":9750,"tÅįngĠxÃ¹n":9751,"wÇĶĠhÃłnĠ":9752,"ĠwÃ¨iĠyÃºĠgÄģiĠguÃ³ĠxÄ«ĠbÃ¹Ġ":9753,"bÄģoĠhÃ¡nĠleĠ":9754,"ĠqÃŃn":9755,"chÃ¬ĠjÄ«ngĠ":9756,"bÃ¨iĠjÇĲng":9757,"zhÇĲĠshÃ¹Ġ":9758,"tÃłiĠshÇĴuĠ":9759,"Ã¨rĠshÃŃĠniÃ¡nĠ":9760,"ĠwÃ¨iĠyÃºĠyÃŃn":9761,"ĠĠĠMu":9762,"ĠTĠ":9763,"ĠyuÃ¡nĠzhÃ¹ĠmÃŃnĠ":9764,"NH":9765,"land":9766,"oc":9767,"ĠkÇİĠÄĽrĠ":9768,"cÄģnĠyÃ¬ĠyuÃ¡nĠ":9769,"bÇĶĠzhÃ¹Ġ":9770,"elĠ":9771,"ĠlÃ¬ĠtÃ¡oĠ":9772,"ĠjiÃłnĠzÃłiĠ":9773,"zhÇĶĠdÃ²ngĠ":9774,"xÃ¬ĠjiÃ©Ġ":9775,"jiÄĵĠxiÃłĠ":9776,"zhÄĵngĠfÃºĠ":9777,"cÃ¡iĠpÃłnĠ":9778,"xiÃ©ĠtiÃ¡oĠ":9779,"chÅįngĠmÇİnĠ":9780,"ruÇİnĠtiÃ¡oĠ":9781,"gÄĵĠlÃºnĠbÇĲĠyÃłĠ":9782,"pÄģoĠ":9783,"yuÃ¡nĠbÃ¹Ġ":9784,"qiÃł":9785,"hÃ²uĠyÇĲĠ":9786,"huÃłĠshÃ¬Ġ":9787,"1995ĠniÃ¡nĠ":9788,"jiÄģngĠhÃ¹":9789,"bÄĽiĠbÃ¹ĠdeĠ":9790,"chÃ¨ĠxiÄģo":9791,"4ĠmÇĲĠ":9792,"ĠshuÄģng":9793,"mÃŃngĠhÃ©Ġ":9794,"qÇĶĠdeĠ":9795,"zhÄĵnĠrÃ©nĠ":9796,"1984ĠniÃ¡nĠ":9797,"ĠshÃŃĠÃ¨rĠniÃ¡nĠ":9798,"ĠyÇĲĠbiÃłnĠ":9799,"ĠdÃ©ĠwÃ©iĠ":9800,"jiÃłoĠliÃłn":9801,"ĠrÃ¨nĠmÃ¬ngĠ":9802,"ÃłnĠzhÃło":9803,"bÃ¬ngĠrÃ¹Ġ":9804,"ĠtÄ«ngĠ":9805,"ĠĠĠyÃ³uĠxÃ¬Ġ":9806,"kÄģiĠtÅįng":9807,"Ġ1954ĠniÃ¡nĠ":9808,"ĠmÄĽngĠ":9809,"MA":9810,"lÃŃnĠjÃ¬nĠ":9811,"jiÇİĠjÃŃĠ":9812,"pÃŃnĠdÃło":9813,"sÃ¬ĠhÅ«":9814,"tÃºĠÃłnĠ":9815,"ĠyÇĴuĠxiÃłnĠgÅįngĠsÄ«":9816,"qÃŃĠzhÅįngĠyÄ«Ġ":9817,"jiÃ¨ĠquÃ¡nĠguÃ³ĠzhÃ¨ngĠxiÃ©Ġ":9818,"bÃłoĠfÄģĠhÃ²uĠ":9819,"wÃłngĠyuÇİnĠjÃ¬ngĠ":9820,"son":9821,"ÄģĠbÃ¹Ġ":9822,"chÇĴuĠ":9823,"rÃ©ngĠwÃ¨iĠ":9824,"xuÇİnĠxiÃ¹":9825,"lÇĲngĠtÇĶ":9826,"huÃ¡ngĠjÄ«nĠ":9827,"diÃłnĠshÃ¬ĠdÃ²ngĠhuÃłĠ":9828,"nÃ³ngĠchÇİngĠ":9829,"ĠhÇİiĠbÃ¡":9830,"Ġ1975ĠniÃ¡nĠ":9831,"mÃ¡oĠdÃ¹nĠ":9832,"ĠchÃºĠcÇĲĠzhÄ«ĠwÃłiĠ":9833,"Ġ2003":9834,"ÄģnĠdeĠ":9835,"zhÅįngĠdeĠyÄ«Ġ":9836,"shÃ¹ĠjiÄģĠ":9837,"chÄĵĠxÃŃngĠ":9838,"wÃłnĠyuÃ¡nĠ":9839,"hÄģĠlÇĲĠ":9840,"ine":9841,"ĠdÃłĠxiÇİoĠ":9842,"gÃ©ĠlÄģĠsÄ«Ġ":9843,"ĠxuÃ©ĠshÃ¹Ġ":9844,"huÇĴĠchÄĵĠzhÃłnĠ":9845,"xuÄģnĠyÃ¡nĠ":9846,"ĠHR":9847,"ĠĠĠjÇĲnĠguÇİnĠ":9848,"DS":9849,"eli":9850,"ĠĠĠkÇİĠ":9851,"lÃ¹ĠshÃ¬Ġ":9852,"shÇĲĠyÃºĠ":9853,"niÃłoĠ":9854,"piÃłnĠzhÅįngĠ":9855,"hÇİiĠnÃ¡nĠ":9856,"ĠtiÄģnĠjÄ«n":9857,"xuÄģnĠchÄĵngĠ":9858,"IDĠ":9859,"hÄĵng":9860,"ĠfÄģ":9861,"Ġ45":9862,"qÄ«ĠzhÃ¬Ġ":9863,"zÃ©ĠbÃ¨iĠ":9864,"bÅįĠdeĠ":9865,"shuÇĲĠdÃłoĠ":9866,"bÇİiĠwÃłnĠ":9867,"hÅ«ĠxÄ«Ġ":9868,"ĠyÃºĠ2021":9869,"hÄĽnĠdÃłĠdeĠ":9870,"ĠfÄĵiĠlÇľĠ":9871,"cri":9872,"mÃ¡i":9873,"Ġë":9874,"jÃ¬ĠzhÃ¬Ġ":9875,"tÃŃngĠdeĠ":9876,"ardĠ":9877,"huÇĴĠlÃ¬Ġ":9878,"kuÃłĠyuÃ¨Ġ":9879,"ĠshÃŃĠyÄ«ĠniÃ¡nĠ":9880,"ĠdÃłĠlÇĲĠ":9881,"zhÇĶĠquÃ¡nĠ":9882,"mÄĽiĠtiÄģnĠ":9883,"nuÃ²ĠfÅ«Ġ":9884,"ĠchÃ¬ĠwÄĽiĠ":9885,"4ĠĠĠ":9886,"43ĠniÃ¡nĠ":9887,"ĠĠĠjiÇİnĠlÃ¬Ġ":9888,"yÄĽĠshÄĵngĠ":9889,"fÄĵiĠdÃłnĠ":9890,"mentĠ":9891,"sisĠ":9892,"yÃ¬ĠmÃŃngĠ":9893,"jÄ«ĠchÄĵĠ":9894,"wÃ¹ĠtÇĲĠ":9895,"duÅįĠzhÇĴng":9896,"shÄĽngĠzhÇİngĠ":9897,"tuÅįĠlÃŃĠ":9898,"ĠxiÃłnĠshÃŃĠyÃ³uĠ":9899,"kÄģĠfÄĵiĠ":9900,"tÄģo":9901,"ĠsÅįngĠ":9902,"mÃ²ĠniÃ¡nĠ":9903,"dÃºĠdeĠ":9904,"tÅ«ĠjÄ«Ġ":9905,"wÄĵnĠdÃłiĠ":9906,"ĠjÃŃĠwÃ©iĠ":9907,"ĠyÇĲĠbÃ¹Ġ":9908,"ĠdÃłĠbÇİnĠ":9909,"ĠxÃŃngĠtÃłiĠ":9910,"ĠyÃ³uĠtÃłiĠ":9911,"mÄĽiĠxiÇİoĠshÃŃĠ":9912,"ĠdeĠdÃ¬ĠsÄģnĠ":9913,"chuÃłngĠzÃło":9914,"ĠyÃ¹ĠjÃ¬Ġ":9915,"ĠfÃ¡n":9916,"ĠĠĠgÇĶĠ":9917,"shÄĵngĠyuÃ¡nĠ":9918,"fÄģngĠzÃłiĠ":9919,"hÃ¹ĠwÃ¨iĠ":9920,"ĠshÃ¬ĠÃ©ĠluÃ³ĠsÄ«Ġ":9921,"ĠdÃ©ĠdÃło":9922,"ĠchÅ«ĠchÇİngĠ":9923,"shÄĵnĠtÇĲ":9924,"nÃŃĠsÅ«Ġ":9925,"tiÃ¡oĠjiÃ©Ġ":9926,"Ġ18Ġ":9927,"ĠjiÃłnĠzhÃ¹ĠwÃ¹Ġ":9928,"Ġ1939ĠniÃ¡nĠ":9929,"2ĠlÃ¬Ġ":9930,"xÄ«nĠjiÃłnĠ":9931,"shÄģĠrÃ©nĠ":9932,"ĠzÃłiĠfÇİĠguÃ³Ġ":9933,"ĠhÃ©ĠshÃłngĠ":9934,"ĠdÃ©ĠjÅ«nĠ":9935,"liÃ¡nĠluÃ²":9936,"ĠzhÃ¨ĠzuÃ²Ġ":9937,"xiÅ«ĠdÃ¬ngĠ":9938,"ĠzhÃ¨ĠshÃŃĠ":9939,"Ġ1944ĠniÃ¡nĠ":9940,"41Ġ":9941,"ĠcÃ¡oĠ":9942,"ĠĠĠ2009ĠniÃ¡nĠ":9943,"shÃ¨ngĠdÃłnĠ":9944,"jÃ¹nĠdeĠ":9945,"raĠ":9946,"ĠrÃ©nĠduÃ¬Ġ":9947,"ĠjÃŃĠgÅįngĠ":9948,"jiÃłoĠzÅįngĠ":9949,"ĠhuÃ²ĠzhÄĽ":9950,"lÃ³ngĠshÄĽngĠ":9951,"jiÇİngĠjÄ«nĠ":9952,"pÃ¡iĠliÃ¨Ġ":9953,"zhÅįngĠguÃ³ĠdÃłĠlÃ¹Ġ":9954,"xÇĶĠkÄĽĠ":9955,"spanĠ":9956,"ĠĠĠjÄ«ngĠlÃ¬Ġ":9957,"fÃ¨nĠdeĠ":9958,"niÃło":9959,"zÃłoĠxÃŃngĠ":9960,"chÃ³ngĠjiÃłn":9961,"liÃ¹ĠmÃŃngĠ":9962,"ĠdÃ¬ĠyÄ«ĠwÃ¨iĠ":9963,"shÃ²uĠhuÄģnĠyÃŃngĠ":9964,"fÄĵngĠgÃ©ĠdeĠ":9965,"xiÃłoĠlÇľĠ":9966,"jÇĶĠzhÃ¨nĠ":9967,"ĠshÇĴuĠcÃ¬":9968,"ĠSAO":9969,"ĠEĠ":9970,"52Ġ":9971,"ĠĠĠxiÇİoĠ":9972,"ĠĠĠÃ¨rĠ":9973,"nÃłĠÄĽrĠ":9974,"bÇİĠtÄģĠ":9975,"ĠguÃ³ĠyÇĴuĠ":9976,"ĠyÇĶĠxÄ«Ġ":9977,"ĠshÄĵngĠtÃłiĠ":9978,"Ġ1940ĠniÃ¡nĠ":9979,"KB":9980,"Ġ90":9981,"ĠfÃ©ng":9982,"ĠĠĠen":9983,"ĠĠĠlÃŃnĠ":9984,"hÇİiĠdeĠ":9985,"zÃ©ĠyÃ³uĠ":9986,"hÃ¹ĠdeĠ":9987,"ĠyÃºĠtÃ³ng":9988,"guÄģnĠxÃ¬ĠdeĠ":9989,"yÃ¡nĠfÄģĠ":9990,"ĠqÃŃĠB":9991,"ĠduÃ¬ĠxiÃłngĠ":9992,"zhÅįuĠbiÄģn":9993,"huÇĴĠchÄĵĠ":9994,"bÇĶĠrÇĶĠ":9995,"ĠlÃ¬ĠfÇİĠhuÃ¬Ġ":9996,"8ĠmÇĲĠ":9997,"umĠ":9998,"jiÄģngĠjÅ«n":9999,"suÇĴĠyÇĲĠ":10000,"gÇĴng":10001,"ĠzÇĲĠ":10002,"xÃ¹ĠdeĠ":10003,"zhuÄģngĠwÃ¨iĠ":10004,"1989ĠniÃ¡nĠ":10005,"ĠjÃŃĠhuÃ¬Ġ":10006,"ĠjÃŃĠqÃŃĠtÄģĠ":10007,"jÃ¹ĠlÃŃ":10008,"qiÃ¡nĠtÇĲng":10009,"shÅįuĠgÃ²u":10010,"gÃ¨ngĠdÃłĠdeĠ":10011,"ÅįuĠmÃ©ngĠ":10012,"Ġ1960ĠniÃ¡nĠ":10013,"biÇİoĠxiÃłnĠchÅ«Ġ":10014,"ĠjÃŃĠxÃŃngĠzhÃ¨ngĠdÄģnĠwÃ¨iĠ":10015,"ĠtÃŃĠchÅ«Ġ":10016,"fÄģngĠxÃŃngĠ":10017,"zhÃŃĠxÃŃng":10018,"yÃłĠhÃ©Ġ":10019,"juÃ©ĠwÃ¨iĠ":10020,"ĠjÃŃĠtÇĲĠ":10021,"bÃ¨iĠÄĽrĠ":10022,"guÄģnĠkÃłnĠ":10023,"yÃŃĠbÃłnĠ":10024,"bÃ¬ĠyÃłoĠ":10025,"xiÄģoĠfÃ¡ngĠ":10026,"rÃ©nĠmÃŃnĠzhÃ¨ngĠfÇĶĠ":10027,"ĠyÃŃnĠwÄĽiĠ":10028,"0ĠzuÃ²ĠbiÄģoĠwÃ¨iĠ":10029,"ca":10030,"ĠwÃ©n":10031,"ĠĠĠshÃłngĠ":10032,"fÄĵnĠqÃŃĠ":10033,"ĠchÃ©ngĠyÄ«Ġ":10034,"wÃ©iĠyÄ«ĠdeĠ":10035,"zhÇĶĠdÇİoĠ":10036,"ĠdÃłnĠshÃ¬ĠzÃłiĠ":10037,"zhÃŃĠbÃłng":10038,"ĠbÃ¬ngĠfÄĵi":10039,"ĠdÃłnĠzuÃ¬ĠzhÅįngĠ":10040,"ĠxiÄģngĠbÇĲĠ":10041,"tÇĶĠrÇİng":10042,"ĠguÄģnĠzhuÃłngĠbÃ¬ngĠdÃº":10043,"ĠwÃ¨iĠyÃºĠyÃŃnĠjÄ«ngĠ":10044,"ĠqÃŃĠB1900":10045,"0ĠzuÃ²ĠbiÄģoĠwÃ¨iĠchÃ¬ĠjÄ«ngĠ":10046,"46ĠniÃ¡nĠ":10047,"ĠkÄĵĠxuÃ©Ġ":10048,"ĠĠĠ11ĠyuÃ¨Ġ":10049,"ĠĠĠ2007ĠniÃ¡nĠ":10050,"xÃŃngĠdeĠ":10051,"jiÃ©ĠshÃŃĠ":10052,"liÃ¡nĠjÅ«nĠ":10053,"lÄģĠwÃ©iĠ":10054,"bÃ³ĠÄĽrĠ":10055,"ï¼İ":10056,"ĠÃ©rĠhÃ²uĠ":10057,"ĠjÄ«ngĠchÃ¡ngĠ":10058,"ĠjiÃłnĠzhÃ¹ĠmiÃłnĠjÄ«Ġ":10059,"kÃ²ngĠzhÃ¬ĠdeĠ":10060,"cÇİiĠyÃ²ngĠleĠ":10061,"gÃ¡":10062,"ĠĠĠ9":10063,"ĠĠĠsÄģnĠ":10064,"ĠĠĠfÄĵnĠbÃ¹Ġ":10065,"ziĠshÃ¬Ġ":10066,"jiÄģoĠzhÃłnĠ":10067,"37ĠniÃ¡nĠ":10068,"ĠshÃŃĠrÃ¨n":10069,"ĠsÄ«ĠzhÃŃĠ":10070,"cÃ¬ĠshÃ¹Ġ":10071,"ĠxiÄģngĠsÃ¬Ġ":10072,"biÄģnĠzÇĶĠ":10073,"ĠzuÃ¬ĠzÇİo":10074,"Ġãĥ³":10075,"ĠqÄ«ngĠchÃ¡oĠzhÃ¨ngĠzhÃ¬ĠrÃ©nĠwÃ¹Ġ":10076,"ĠÃłoĠdÃłĠlÃ¬ĠyÃłĠ":10077,"4ĠmÃŃngĠ":10078,"rin":10079,"ĠpÃºĠtÃ¡oĠyÃ¡":10080,"00ĠwÃłnĠ":10081,"185":10082,"sÇĲĠleĠ":10083,"ĠzÃłiĠqiÃ¡nĠ":10084,"ĠrÃ©nĠzhÃ¬Ġ":10085,"hÃ²uĠqÄ«Ġ":10086,"yÃ³uĠxÃ¬ĠdeĠ":10087,"zÃ¬ĠwÇĴĠ":10088,"juÃ©ĠsÃ¨ĠdeĠ":10089,"ĠjÃ¹ĠqÃŃngĠ":10090,"pÇĶĠlÄģĠ":10091,"ĠliÃ¡ng":10092,"ĠyÇİ":10093,"ĠzÃºĠ":10094,"ĠfÄģnĠ":10095,"ĠĠĠchÃºĠ":10096,"xiÃłngĠjÄ«Ġ":10097,"dÇİoĠhÃ©Ġ":10098,"bÄģĠsÄ«Ġ":10099,"shÃ¨ngĠdeĠ":10100,"lÃºnĠdeĠ":10101,"wÇĴĠdeĠ":10102,"zhÅįngĠhuÃ¡ĠmÃŃnĠguÃ³Ġ":10103,"yÃ¹nĠyÃŃng":10104,"tÃŃĠqiÃ¡nĠ":10105,"ĠĠĠCon":10106,"ĠĠĠchÄĵĠzhÃłnĠgÃ²uĠzÃłoĠ":10107,"luÃ²ĠfÃ¡ĠkÃ¨Ġ":10108,"ĠĠĠpÃŃngĠ":10109,"zuÃ¬ĠyÇĴuĠ":10110,"lÃ¹nĠshÃ¬Ġ":10111,"mÃłnĠdeĠ":10112,"xiÄĽĠwÃ¨iĠ":10113,"shÃŃĠdÃłiĠ":10114,"ĠshÃŃĠsÄģnĠ":10115,"ĠdÃłĠjiÄĵĠ":10116,"xiÃłĠlÃ¬ngĠ":10117,"kÄģiĠzhÇİn":10118,"dÃ¬ngĠyÃ¬ĠwÃ¨iĠ":10119,"ĠxiÄģngĠdÄģngĠ":10120,"xÃ¹nĠsÃ¹":10121,"chÃ³ngĠfÇİnĠ":10122,"gÄĵnĠsuÃŃĠ":10123,"jiÄĽĠfÃłngĠjÅ«n":10124,"ĠhÃºĠbÄĽiĠ":10125,"liÃ¡nĠmÃ©ngĠdeĠ":10126,"mÃ¹ĠsÄ«ĠlÃŃn":10127,"kÃłngĠzhÃłnĠ":10128,"ĠzhÅįngĠyÄ«Ġ":10129,"jiÄģnĠchÃŃĠ":10130,"suÇĴĠxÅ«":10131,"Ġ1966ĠniÃ¡nĠ":10132,"ĠdÃłĠbÃ¹ĠfÃ¨nĠ":10133,"ĠzÄ«Ġ":10134,"ĠwÅ«ĠkÃ¨ĠlÃ¡n":10135,"huÃłĠyÇĶĠ":10136,"nÃ¨iĠsÄ«Ġ":10137,"ĠjÃŃĠchÃ©ngĠ":10138,"ĠjÃŃĠbiÃ©Ġ":10139,"zhÇĶĠdÇİĠ":10140,"fÄģngĠbiÃłnĠ":10141,"jiÄģnĠchÃ¡":10142,"ĠdÃłiĠlÃ¡iĠ":10143,"ĠqiÃºĠduÃ¬":10144,"dÄģnĠdÃºĠ":10145,"jÇĲnĠzhÄģngĠ":10146,"cÄģnĠguÄģnĠ":10147,"zhÄĵnĠzhÃ¨ngĠdeĠ":10148,"Ġ1942ĠniÃ¡nĠ":10149,"ĠÄģnĠhuÄ«Ġ":10150,"ĠshÄ«":10151,"ĠzhÄĽngĠgÃ¨Ġ":10152,"suÇĴĠshÃ¬Ġ":10153,"hÃ¨nĠ":10154,"ĠzhÅįngĠjiÃłngĠ":10155,"zhÃ²ngĠliÃłngĠ":10156,"shÃ¹nĠshÃŃĠzhÄĵnĠyÇĶĠ":10157,"ĠxÃŃĠ":10158,"ĠzhÅįngĠduÃłnĠ":10159,"ĠshÃŃĠbÄģĠ":10160,"ĠyÇĲĠdÅįngĠ":10161,"ĠchÅ«ĠxÃŃ":10162,"tÃ³ngĠyÃłngĠ":10163,"ĠyÄĽĠbÃ¹Ġ":10164,"tiÄĵĠmÃ¹":10165,"7ĠgÃ¨Ġ":10166,"Vi":10167,"rÇİo":10168,"Ġ38":10169,"ĠĠĠguÃ³ĠjÃ¬Ġ":10170,"huÇİngĠ":10171,"niÃłngĠ":10172,"1990ĠniÃ¡nĠ":10173,"ĠshÃ¬ĠtÃ¡iĠwÄģnĠ":10174,"ĠrÃ©nĠquÃ¡nĠ":10175,"ĠyÃ¬ĠxÃŃĠ":10176,"ĠyÄ«ĠshÃŃĠ":10177,"ĠdÃłĠduÃ¬Ġ":10178,"fÃ¹ĠmÇĶĠ":10179,"jiÃłoĠdÃłĠdeĠ":10180,"zhÇĲĠdÃ¬ng":10181,"zuÃ¬ĠzhÃ²ngĠyÃłoĠdeĠ":10182,"Ġ1935ĠniÃ¡nĠ":10183,"OSĠ":10184,"ĠsÃ¨Ġ":10185,"ĠĠĠtÄģĠdeĠ":10186,"zhÃ¨nĠjÃŃĠxÃŃngĠzhÃ¨ngĠdÄģnĠwÃ¨iĠ":10187,"xiÄģnĠwÃ©iĠ":10188,"las":10189,"tern":10190,"ĠxiÃłnĠzhÇİngĠ":10191,"ĠyÄ«nĠÃ©r":10192,"qÇĲĠyuÃ¡nĠyÃºĠ":10193,"gÇĶĠdiÇİnĠ":10194,"gÄĵĠshÇĴu":10195,"Ġ1976ĠniÃ¡nĠ":10196,"ĠguÃ³ĠfÃ¡ngĠbÃ¹Ġ":10197,"ĠjÇĲ":10198,"Ġ200":10199,"ĠĠĠÃ©rĠ":10200,"wÃ¹ĠbÃ¹Ġ":10201,"lÃ¡iĠshÃ¬Ġ":10202,"huÃ¡ĠdeĠ":10203,"jiÇİngĠlÃ¬Ġ":10204,"shÄĵngĠgÃ©ĠwÃ¨iĠ":10205,"xiÇİngĠyÃłoĠ":10206,"rÃ³ngĠliÃłngĠ":10207,"kÃłnĠfÇİĠ":10208,"kÃłngĠrÃ¬ĠzhÃłnĠzhÄĵngĠ":10209,"oi":10210,"ĠkuÃłiĠ":10211,"ĠĠĠre":10212,"shÃ²uĠdÃłoĠleĠ":10213,"ork":10214,"ĠzhÃ¬ĠyuÃ¡nĠ":10215,"ĠshÃłngĠyÃ¬ngĠ":10216,"ĠrÃ©nĠkÇĴuĠwÃ¨iĠ":10217,"42ĠniÃ¡nĠ":10218,"ĠwÄĵiĠÄĽrĠ":10219,"jÃ¬ĠbÃ¹Ġ":10220,"jÄ«ĠhuÃ¬Ġ":10221,"ĠdÃłoĠdÃ¡":10222,"qÅ«ĠzhÃºĠjiÃłnĠ":10223,"jÄ«nĠshÇĶ":10224,"shÃ²uĠsÇĶnĠ":10225,"ÃłiĠÄĽrĠlÃ¡n":10226,"ĠwÄĵnĠ":10227,"ÃłiĠhÃłoĠ":10228,"jÇĲngĠwÃ¨iĠ":10229,"jiÃłĠdeĠ":10230,"160":10231,"ĠshÃ¬ĠlÃ¡ngĠ":10232,"yÃ¬ĠhuÃ¬Ġ":10233,"ĠyÃºĠlÃ©iĠ":10234,"ĠjiÃłnĠkÄģng":10235,"zhÃ¹ĠshÇĴuĠ":10236,"diÃłnĠchÃŃĠ":10237,"ĠzhÅįuĠzhÇİngĠ":10238,"chÄĵngĠhÅ«Ġ":10239,"jiÇİnĠchÃ¡":10240,"pÇĲnĠzhÇĴngĠ":10241,"Ġ1968ĠniÃ¡nĠ":10242,"ĠzhÃ¨ngĠfÇĶĠdeĠ":10243,"hÃ¹nĠnÃŃngĠ":10244,"44ĠniÃ¡nĠ":10245,"ĠĠĠwÃ¡ngĠ":10246,"yÃ²uĠyÃ¬Ġ":10247,"lÃ¹nĠdeĠ":10248,"xÃ¹nĠxÄ«Ġ":10249,"fÃºĠzhuÄģngĠ":10250,"ĠyÃ³uĠzhÃ¨ngĠ":10251,"zhÃ¨nĠyÄģĠ":10252,"nuÇİnĠ":10253,"fÄĽngĠ":10254,"pÃ¡":10255,"Ġ70":10256,"ĠtÃłiĠguÃ³Ġ":10257,"ĠĠĠzuÃ²ĠwÃ©iĠ":10258,"ĠĠĠ2006ĠniÃ¡nĠ":10259,"wÃ©iĠgÅįngĠ":10260,"quÃ¡nĠyÃ¬Ġ":10261,"1972ĠniÃ¡nĠ":10262,"dÇĴngĠ":10263,"38ĠniÃ¡nĠ":10264,"ĠyÇĲĠcÇĲĠ":10265,"zÃ¬ĠshÄģĠ":10266,"huÃłĠguÄ«Ġ":10267,"miÃłnĠxiÃłngĠ":10268,"qÃŃngĠgÇİnĠ":10269,"jiÇİngĠpÃ¡iĠ":10270,"shÅįuĠcÃ¡ngĠ":10271,"qÃºnĠdÇİoĠdeĠ":10272,"Ã¨ĠhuÃłĠ":10273,"ĠJĠ":10274,"tÃ²ngĠk":10275,"2ĠhÃłoĠ":10276,"ĠguÇİngĠxÄ«Ġ":10277,"ĠĠĠluÃ³Ġ":10278,"xÃ¬ngĠmÃŃngĠ":10279,"bÄģĠjÄ«ĠsÄ«Ġ":10280,"biÄģnĠxÃŃngĠ":10281,"ĠrÃ©nĠyÇĶĠ":10282,"ĠzuÃ²ĠzhÄĽĠ":10283,"tiÄģnĠwÃ©nĠxuÃ©Ġ":10284,"Ġ150":10285,"ĠĠĠ5Ġ":10286,"xiÃłngĠwÃ¨iĠ":10287,"ĠshÃ¬ĠpÃŃnĠ":10288,"ĠyÄ«ĠliÃ¡o":10289,"ĠdÃłoĠshÃŃĠ":10290,"ĠyÇĶĠwÃ©nĠ":10291,"qÅ«ĠbiÃ©Ġ":10292,"ĠzhÅįuĠfÃ¹ĠzÃ©ĠguÇİnĠxiÃ¡Ġ":10293,"ĠzhÃ¨ĠyÃłng":10294,"ĠzhÇĶĠrÃ¨nĠ":10295,"ĠliÃ¡nĠmÃ©ngĠ":10296,"tiÃ¡oĠyuÄĵĠtÇĲĠxÃ¬Ġ":10297,"83ĠniÃ¡nĠ":10298,"por":10299,"xiÃłngĠyÃºĠ":10300,"ĠzÃłiĠyÇĴuĠ":10301,"huÃłĠmiÃłnĠ":10302,"xuÇİnĠmÃŃnĠ":10303,"sÃ¹ĠsÃ²ngĠ":10304,"ĠyÇĲnĠfÄģĠ":10305,"39Ġ":10306,"ĠpÃ©ng":10307,"ĠguÅįĠ":10308,"nÃ¡nĠshÃ¬Ġ":10309,"kuÃ¡ng":10310,"xiÇİngĠyÇĴuĠ":10311,"tÃ¡ngĠhÃ©Ġ":10312,"ĠzhÅįngĠshÄģn":10313,"ĠyÃºĠ2016":10314,"jiÄģngĠnÃ¡nĠ":10315,"wÃłiĠlÃ¡ngĠ":10316,"kÇİoĠchÃ¡Ġ":10317,"ĠkÅįngĠ":10318,"tÃ¨ĠzÃłiĠ":10319,"shÄĵnĠyÃºĠ":10320,"fÄĵiĠdeĠ":10321,"liÇİngĠzuÃ²Ġ":10322,"quÃ¨ĠshÃŃĠ":10323,"qÃ¹ĠleĠ":10324,"suÄģnĠjiÇİnĠ":10325,"ĠzÃłiĠchÃ©ngĠ":10326,"yÃ³uĠjÃº":10327,"kÄĵĠhuÃ¬ĠshÃ¬ĠdÃ¬Ġ":10328,"ĠyÃ³uĠqÃŃĠ":10329,"ĠdeĠshÃŃĠjiÄģn":10330,"ĠĠĠLi":10331,"ĠÃłiĠÄĽrĠ":10332,"ES":10333,"wÃ¡":10334,"ĠqiÄģn":10335,"mÃ²ĠdeĠ":10336,"yÃŃnĠhÃ©Ġ":10337,"ĠgÅįngĠdÇİĠ":10338,"qiÃ¡nĠlÃ¡iĠ":10339,"qiÃ¡nĠshÄĵnĠ":10340,"jiÇİnĠcÃ¨Ġ":10341,"nÃ¡nĠjÃŃĠtiÃ¡oĠyuÄĵĠtÇĲĠxÃ¬Ġ":10342,"ĠpÃŃngĠchÃ©ngĠ":10343,"34ĠniÃ¡nĠ":10344,"ET":10345,"ĠĠĠsuÄ«ĠrÃ¡n":10346,"kÄĵĠlÃ¬Ġ":10347,"mÃ©iĠtÃ³ngĠpÃ¡iĠ":10348,"tÄ«ngĠdÃłoĠ":10349,"inc":10350,"36Ġ":10351,"cÃ¡nĠjÃŃĠrÃ©nĠ":10352,"ĠyÃºĠ2019":10353,"wÃ©iĠyÄĽĠ":10354,"ĠyuÃ¡nĠyÄ«nĠshÃ¬Ġ":10355,"jÇĲĠnÃ¨iĠ":10356,"ĠgÄģiĠcÅ«nĠshÇĲĠjiÃłnĠyÃºĠ":10357,"ĠbÄ«nĠ":10358,"yÃºĠwÃ¨iĠ":10359,"luÃ²ĠyÄ«Ġ":10360,"tÅ«ĠrÃ¡n":10361,"ĠshÃ¬ĠchÅ«Ġ":10362,"ĠzÃłiĠnÃ¨iĠ":10363,"duÅįĠshÃ¹":10364,"quÃ¡nĠtÇĲĠ":10365,"sÃ¹ĠdÃ¹":10366,"ĠtÄ«":10367,"quÃ¡nĠguÃ³ĠzhÃ²ngĠdiÇİnĠwÃ©nĠwÃ¹ĠbÇİoĠhÃ¹ĠdÄģnĠwÃ¨iĠ":10368,"pÄ«ĠpÃłnĠ":10369,"rÃ¨ĠdÃłi":10370,"pÃ©iĠxÃ¹n":10371,"ĠxÃŃngĠchÃ©ngĠleĠ":10372,"qÃŃĠzhÅįngĠyÃŃĠgÃ¨Ġ":10373,"xiÃłĠxiÃ¡ĠdeĠyÃŃĠgÃ¨ĠxiÄģngĠzhÃ¨nĠjÃŃĠxÃŃngĠzhÃ¨ngĠdÄģnĠwÃ¨iĠ":10374,"ĠlÃ¨iĠ":10375,"zhÃ¨ngĠyÃ¬Ġ":10376,"mÄĽiĠdeĠ":10377,"zhÃ¨nĠdÃ¬Ġ":10378,"pÄ«n":10379,"hÅ«nĠyÄ«n":10380,"cÃ¹Ġ":10381,"ĠchÃ©ngĠdÅ«Ġ":10382,"bÅįĠtÃ¨Ġ":10383,"shÄģĠbÃ¡iĠ":10384,"shÄģngĠhÃłiĠ":10385,"lÃ©iĠdÃ¡Ġ":10386,"tiÄģnĠwÃ©nĠtÃ¡iĠ":10387,"33ĠniÃ¡nĠ":10388,"kÅ«":10389,"nĠĠĠ":10390,"tÃ¨ĠshÃ¬Ġ":10391,"179":10392,"tÇİĠjÄ«Ġ":10393,"gÅįngĠmÃŃnĠ":10394,"ĠchÃ©ngĠgÅįngĠdeĠ":10395,"ĠjiÄģĠlÇĲĠ":10396,"ĠkÃ¨ĠyÇĶĠ":10397,"ĠdÃ©ĠluÃ³Ġ":10398,"fÇİĠlÃ¡nĠxÄ«Ġ":10399,"huÃŃĠdÃ¡Ġ":10400,"dÄģngĠxuÇİnĠwÃ¨iĠ":10401,"Ġ1959ĠniÃ¡nĠ":10402,"Ġ17Ġ":10403,"wÃ¹ĠzhÅįngĠ":10404,"1993ĠniÃ¡nĠ":10405,"nÃ³ngĠlÃ¬Ġ":10406,"ĠzÃłiĠnÃłĠ":10407,"ĠrÃ¬ĠyÇĲĠ":10408,"ĠyÄ«ĠrÃ¡nĠ":10409,"wÃ©iĠchÃŃĠ":10410,"ĠjiÃłnĠdÃłoĠ":10411,"ĠwÃ©iĠwÃºĠÄĽrĠ":10412,"tiÃ¡oĠkuÇİnĠ":10413,"kuÄģngĠjiÃłĠ":10414,"yÇĶĠdÃ¬Ġ":10415,"sÃ¬ĠwÃ¨iĠ":10416,"48ĠniÃ¡nĠ":10417,"chÃ©ngĠrÃ¨nĠ":10418,"ĠyuÃ¨ĠyÇĶĠ":10419,"ĠguÃ³ĠÄģnĠ":10420,"ĠchÃ©ngĠfÃ¨nĠ":10421,"ĠgÃ¨ĠguÃ³ĠjiÄģĠ":10422,"fÄĵnĠlÃŃ":10423,"qÄ«ngĠxiÃłngĠ":10424,"mÃ²ĠqÄ«Ġ":10425,"Ġ1953ĠniÃ¡nĠ":10426,"ĠsÄ«ĠlÃ¬ngĠyuÃ¡nĠ":10427,"adi":10428,"duÄ«":10429,"shÄĵngĠhÃ©Ġ":10430,"cÃŃĠjÄ«Ġ":10431,"fÃ¡ngĠxiÃłnĠ":10432,"yÃłnĠdeĠ":10433,"lÄĽiĠjÄ«Ġ":10434,"ĠzÃłiĠshÃłngĠ":10435,"wÃ©iĠchÃŃ":10436,"ĠgÃ¨ĠlÃ¨iĠ":10437,"ĠbÃ¬ngĠbÃºĠshÃ¬Ġ":10438,"bÇİoĠxiÇİnĠ":10439,"ĠxiÃłĠlÃ¡iĠ":10440,"wÇİngĠwÇİng":10441,"xiÇİoĠxÃŃngĠxÄ«ngĠdeĠ":10442,"ĠFĠ":10443,"mÃŃnĠzÃºĠzhÇĶĠyÃ¬Ġ":10444,"nÃ¡nĠjÃŃĠtiÃ¡oĠyuÄĵĠtÇĲĠxÃ¬ĠguÇİnĠlÇĲĠ":10445,"ren":10446,"ĠguÄģng":10447,"Ġ2002":10448,"ĠĠĠaĠĠĠ":10449,"ĠĠĠzhÃŃĠyÃ¨ĠshÄĵngĠyÃ¡Ġ":10450,"leĠzhÅįngĠguÃ³Ġ":10451,"tÃ³ngĠwÃ¨iĠ":10452,"shuÇĲĠshÃłngĠ":10453,"sÃłĠkÃ¨ĠsÄ«Ġ":10454,"shÃŃĠyÄ«Ġ":10455,"huÃ¬ĠshÃłngĠ":10456,"dÃłiĠmÇİĠ":10457,"tÅįngĠyÃ²ngĠ":10458,"yÃŃĠgÃ¨ĠyuÃ¨Ġ":10459,"diÃłnĠshÃ¬ĠjiÃ©ĠmÃ¹Ġ":10460,"Ġ16Ġ":10461,"rÃ¨ĠdÃłiĠqÃ¬ĠxuÃ¡nĠ":10462,"shÄģnĠmÃłiĠdeĠyÄ«ĠbÃ¹ĠfÃ¨nĠ":10463,"hÃ¹ĠliÃ¡nĠwÇİngĠ":10464,"41ĠniÃ¡nĠ":10465,"pÃ¨ngĠ":10466,"hÇİiĠshÃ¬Ġ":10467,"shÄĽngĠfÃ¹ĠzÃ©ĠguÇİnĠxiÃ¡Ġ":10468,"niÃ¡ng":10469,"yÇĲnĠjÃ¬nĠ":10470,"zuÄģnĠ":10471,"250":10472,"ĠshÃŃĠtÇĲĠ":10473,"ĠdÃłĠqÃ¬Ġ":10474,"jiÃłoĠdÄ«Ġ":10475,"qiÃ¡nĠfÄĵngĠ":10476,"fÇİĠxuÃ©Ġ":10477,"ĠfÃ¹ĠzhÇĶĠxÃŃĠ":10478,"yÇİnĠhuÃłĠ":10479,"tÃŃngĠzhÇĲ":10480,"miÃ¨ĠjuÃ©Ġ":10481,"ĠjÃŃĠbÄĽiĠmÄĽiĠ":10482,"gÄĽnĠdÃ¬Ġ":10483,"ĠĠĠ13":10484,"rÃ¬ĠjÅ«nĠ":10485,"fÄĵiĠÄĽrĠdÃ©Ġ":10486,"cÃ©ngĠyÇĴuĠ":10487,"jiÇİnĠyÃ¬Ġ":10488,"suÃŃĠjÄ«Ġ":10489,"ĠdÃ¬Ġ3Ġ":10490,"ĠchÃ©ngĠjiÃ¹Ġ":10491,"ĠzhÄ«ĠlÇĲĠ":10492,"ĠdÃłĠchÃ©n":10493,"ĠhuÃ²ĠchÄĵngĠ":10494,"zhÃ¨ngĠzhÃ¬ĠjiÄģĠ":10495,"ĠcÇĲĠcÃ¬Ġ":10496,"Ġ1920ĠniÃ¡nĠ":10497,"ĠAn":10498,"wÃ©iĠyÄ«ĠyÄ«Ġ":10499,"ey":10500,"ĠĠĠwÃłiĠbÃ¹Ġ":10501,"duÃ¬ĠzhÅįngĠ":10502,"yÃ²ngĠzÃłiĠ":10503,"jiÃ©ĠchÅ«Ġ":10504,"cÃ©ngĠrÃ¨nĠ":10505,"gÇİiĠjÃ¬nĠ":10506,"ĠchÅ«ĠyÃºĠ":10507,"tÃ³ngĠmÃ©ng":10508,"jiÄĽĠsÃłn":10509,"Ġ1972ĠniÃ¡nĠ":10510,"mÃ¡iĠ":10511,"ĠĠĠjiÃ©Ġ":10512,"yÃ¨ĠhÃ©Ġ":10513,"ĠwÃ¨iĠjÃŃĠ":10514,"ĠjÄ«ĠfÄĵnĠ":10515,"wÃ©nĠzhÄģng":10516,"ĠzhÅįuĠkÄģnĠ":10517,"ĠdÃłnĠyÄĽĠ":10518,"liÃ¡ngĠhÇİoĠ":10519,"ĠdeĠgÅįngĠnÃ©ngĠ":10520,"Ġ1943ĠniÃ¡nĠ":10521,"ĠmÇĶĠqÄ«n":10522,"fÄģĠbiÇİoĠdeĠ":10523,"YouTubeĠ":10524,"7ĠmÇĲĠ":10525,"ĠyÃło":10526,"yÇĶĠyÃ¬Ġ":10527,"ĠrÃ©nĠbÃ¨iĠ":10528,"ĠyÄ«ĠshÄ«Ġ":10529,"ĠxiÃłnĠxÃ¬ngĠ":10530,"tÃ¡ngĠqÅ«Ġ":10531,"xiÄģngĠgÇİngĠdeĠ":10532,"ĠĠĠ1999ĠniÃ¡nĠ":10533,"ĠĠĠzhÅįngĠhuÃ¡ĠrÃ©nĠmÃŃnĠgÃ²ngĠhÃ©ĠguÃ³Ġ":10534,"cÄģnĠsÃłiĠzÄ«ĠgÃ©Ġ":10535,"Ġli":10536,"ĠĠĠrÃ¬Ġ":10537,"bÄĽiĠjÃŃĠ":10538,"dÃ¬ngĠzÃłiĠ":10539,"liÃºĠqiÃºĠ":10540,"bÄ«ngĠdeĠ":10541,"codiceĠ":10542,"rÃ©nĠkÇĴuĠwÃ¨iĠ":10543,"ĠdÃ¬ĠchÇİnĠ":10544,"ĠyÇĴuĠmÃŃngĠ":10545,"jÃ¬ĠhuÃł":10546,"ĠyuÃ¡nĠlÇĲĠ":10547,"suÇĴĠwÃ¨iĠdeĠ":10548,"yÇİnĠzÃ²uĠ":10549,"ĠrÃ©nĠmÃŃnĠzhÃ¨ngĠfÇĶ":10550,"chÃ³ngĠqÃ¬ngĠ":10551,"ĠyÄĽĠzÃłiĠ":10552,"bÇĲĠsÃłiĠdeĠ":10553,"ĠgÃ¨ĠyuÃ¨ĠhÃ²uĠ":10554,"yÃłĠmÄĽiĠnÃŃĠyÃłĠ":10555,"39ĠniÃ¡nĠ":10556,"huÃ¬ĠwÃ¨iĠ":10557,"xÃ¬nĠrÃ¨nĠ":10558,"zÄĵngĠshÃ¨Ġ":10559,"nÃ¡nĠbÃ¹ĠdeĠ":10560,"yÃ¹ĠcÃ¨Ġ":10561,"liÇİngĠÃłnĠ":10562,"cÃŃĠdiÇİnĠ":10563,"xiÅ«ĠdÃłoĠyuÃłnĠ":10564,"47ĠniÃ¡nĠ":10565,"fÄĵnĠjÃŃĠ":10566,"yÄĽĠzhÃłnĠ":10567,"ĠguÃ³ĠdÃłoĠ":10568,"ĠduÃ¬ĠfÄģngĠ":10569,"hÇİiĠbÃ¡ĠgÄģoĠdÃ¹Ġ":10570,"nÃ¨iĠgÃ©":10571,"pÇĶĠlÇĶĠshÃ¬Ġ":10572,"ĠwÃ¨iĠyÃºĠzhÅįngĠhuÃ¡ĠrÃ©nĠmÃŃnĠgÃ²ngĠhÃ©ĠguÃ³Ġ":10573,"ĠzhÇĶĠtÃŃĠ":10574,"jiÇĶĠlÃ³ng":10575,"yÄ«nĠcÇĲĠ":10576,"ĠtÃ³ngĠxÃ¬ngĠ":10577,"dÅ«ĠchÃ¡Ġ":10578,"ĠzhÃŃĠjiÄĵĠ":10579,"shÃłoĠnÇļ":10580,"ĠdeĠjÃ¬ĠshÃ¹Ġ":10581,"wÄĽnĠdÃ¬ngĠdeĠ":10582,"tÃłiĠyÃ¡ngĠgÅįngĠ":10583,"ĠĠĠwÃºĠ":10584,"dÃłĠxÃŃngĠ":10585,"ĠtÄģĠyÇĴuĠ":10586,"dÇİoĠshÄ«Ġ":10587,"bÇİnĠquÃ¡nĠ":10588,"jÅ«ĠliÃºĠ":10589,"yÃ¬nĠnÃŃ":10590,"ĠxiÄģngĠdÄģngĠyÃºĠ":10591,"1ĠjiÄģĠ":10592,"UN":10593,"ĠdÄ«Ġ":10594,"ĠjiÄĵĠwÃ¨iĠ":10595,"ĠlÄĽiĠjÃ¬Ġ":10596,"shuÇĲĠzhÅįngĠ":10597,"ĠxÄ«ĠtÃ¨Ġ":10598,"qÄ«ĠjiÄģnĠdeĠ":10599,"rÃ¹ĠjÃ¬ngĠ":10600,"shÃ¨ngĠmÇĶĠ":10601,"shÄģngĠwÃ¹Ġ":10602,"shÃ©nĠshÃ¨ngĠ":10603,"Ġ156":10604,"ĠlÃ¡iĠzÃ¬":10605,"Ġ1977ĠniÃ¡nĠ":10606,"IV":10607,"lÄ«Ġ":10608,"ome":10609,"pÄ«ng":10610,"tyĠĠĠ":10611,"ĠĠĠhuÃ²Ġ":10612,"bÇİoĠhÃ©Ġ":10613,"tuÄ«ĠlÇĲĠ":10614,"ĠdeĠzhÄ«ĠchÃŃĠ":10615,"ĠbÃ¹ĠlÇĶĠ":10616,"ĠlÃ¬ĠÃłoĠ":10617,"ĠgÅįngĠÄģnĠ":10618,"ĠtÄģĠbÃ¹Ġ":10619,"qÅ«ĠdÃ²ngĠ":10620,"ĠzhÃ¨ngĠchÃ¡ngĠ":10621,"liÃºĠdÃ²ngĠ":10622,"dÄģnĠmÃłiĠ":10623,"ĠxÃŃngĠzhÃ¨ngĠyuÃłnĠ":10624,"tuÄ«ĠchÅ«ĠleĠ":10625,"130":10626,"51Ġ":10627,"edi":10628,"ĠzhÃłnĠhÃ²uĠ":10629,"chÄģi":10630,"jiÃłnĠshÃ¨":10631,"luÃ²ĠshÃŃĠ":10632,"xiÄģnĠdeĠ":10633,"huÃ¡nĠqiÃºĠ":10634,"ĠshÃ¬ĠchÃ©ngĠ":10635,"jÄ«ĠbÃłiĠ":10636,"ĠdÃłĠliÃ¡nĠmÃ©ngĠ":10637,"ĠchÅ«ĠniÃ¡nĠ":10638,"ĠleĠyÃŃĠgÃ¨Ġ":10639,"tÇĲĠyÃłnĠ":10640,"82":10641,"yst":10642,"ĠkÄģiĠshÇĲ":10643,"ĠĠĠmÃŃnĠguÃ³Ġ":10644,"hÅ«nĠlÇĲĠ":10645,"ĠhÃ©ĠyuÃ¡nĠ":10646,"ĠyÇĶĠzhÄ«Ġ":10647,"ĠpÃŃngĠjiÃ¨Ġ":10648,"ĠzÃ¬ĠrÃ¡n":10649,"ĠbÄĽnĠtÇĶĠ":10650,"tÃŃngĠkÃłoĠ":10651,"ĠpÃ¬":10652,"ĠhuÃ¡ĠshÃ¨ngĠ":10653,"32ĠniÃ¡nĠ":10654,"ĠkuÄģnĠ":10655,"ĠqiÃ¡oĠzhÃ¬Ġ":10656,"ĠĠĠwÇĶĠ":10657,"ĠĠĠzhÄģngĠ":10658,"bÃ¡iĠrÃ©nĠ":10659,"ĠxÃŃngĠshÃ¬ĠdeĠ":10660,"zhÇĶĠliÃºĠ":10661,"ĠchÅ«ĠlÃ¡iĠdeĠ":10662,"lÃ¹ĠyÇĲngĠdÃłiĠ":10663,"yÃ¨ĠjiÄģnĠ":10664,"ock":10665,"zÄĽnĠ":10666,"chuÃ¡nĠdeĠ":10667,"tÃŃngĠzhÃłnĠ":10668,"nÃ¡ĠdÃł":10669,"ĠchÃ©ngĠzuÃ²Ġ":10670,"ĠdÃłiĠmÇİĠwÃ¨iĠ":10671,"tÃ³uĠxiÃ¡ng":10672,"sÅ«ĠgÃ©ĠlÃ¡n":10673,"lÃ¬ĠshÇĲĠshÃłngĠ":10674,"xiÇİoĠshÃŃĠhÃ²uĠ":10675,"Ġ1964ĠniÃ¡nĠ":10676,"ĠxiÃłnĠshÃŃĠyÃ³uĠnÃ¡nĠjÃŃĠtiÃ¡oĠyuÄĵĠtÇĲĠxÃ¬ĠguÇİnĠlÇĲĠ":10677,"5000":10678,"62Ġ":10679,"PS":10680,"Ġ2024ĠniÃ¡nĠ":10681,"ĠĠĠchÄĵĠzhÃłn":10682,"pÃŃngĠrÃ©nĠ":10683,"zÃ©ĠyÇĲĠ":10684,"1986ĠniÃ¡nĠ":10685,"dÇĲngĠjÃŃĠ":10686,"ĠshÃ¬ĠzhÃ¬Ġ":10687,"ĠdÃ¬ĠshÃłngĠ":10688,"fÄģĠjuÃ©Ġ":10689,"miÃłnĠ2":10690,"tÃŃĠgÄģo":10691,"jÇĲngĠdiÇİnĠ":10692,"ĠyÃ³uĠqÃŃ":10693,"zhÄĵnĠchÃ¡Ġ":10694,"zhuÄģnĠyÃ²ngĠ":10695,"Ġ1936ĠniÃ¡nĠ":10696,"1ĠhÃło":10697,"YĠ":10698,"xÄ«ĠyÃºĠ":10699,"bÄģĠlÇĲĠ":10700,"luÃ²ĠyÃºĠ":10701,"piÃłnĠrÃ©nĠ":10702,"ĠhÃ©ĠyÃ¬Ġ":10703,"ĠzhÃ¬ĠdÃ¹":10704,"jiÃ¹ĠzhÇĲĠ":10705,"tÇĴngĠzhÃ¬ĠzhÄĽĠ":10706,"ĠĠĠ1945ĠniÃ¡nĠ":10707,"54Ġ":10708,"ĠwÄĽi":10709,"ĠhÄĵi":10710,"ĠzÅįngĠ":10711,"ĠchÄģoĠguÃ²Ġ":10712,"ĠĠĠyÄ«nĠyuÃ¨Ġ":10713,"qÄ«ĠyuÃ¨Ġ":10714,"jiÇİngĠxuÃ©Ġ":10715,"ĠdÃ¬ĠjiÇĶĠ":10716,"ĠjÄ«ĠbÄĽn":10717,"guÄģnĠguÄģngĠ":10718,"yÇĲĠjÄ«ng":10719,"Ġ1951ĠniÃ¡nĠ":10720,"ĠĠĠRe":10721,"ĠUĠ":10722,"guÄģnĠfÃ¨iĠyÃ¡nĠquÃ¨ĠzhÄĽnĠbÃ¬ngĠlÃ¬Ġ":10723,"ct":10724,"ĠrÃ³ng":10725,"ĠsÇĲĠ":10726,"ĠdÃ²uĠ":10727,"ĠbÄģngĠzhÃ¹Ġ":10728,"ĠĠĠshÄģĠ":10729,"ĠĠĠ2005ĠniÃ¡nĠ":10730,"bÄĽiĠdeĠ":10731,"jiÄģoĠyÃ³uĠ":10732,"mÃłnĠdÃ¬ĠguÃ³Ġ":10733,"zhÄĽngĠlÇĲĠ":10734,"zhuÄ«ĠqiÃºĠ":10735,"ĠzÃłiĠ193":10736,"ĠhÃ²uĠzhÄĽ":10737,"jiÄģnĠchÃ¡Ġ":10738,"ĠÃ©rĠtÃ³ng":10739,"yÃŃĠmiÃłnĠ":10740,"zÃłoĠchuÃ¡nĠ":10741,"ĠyÄ«nĠwÃ¨iĠtÄģĠ":10742,"ĠzÃłiĠdÃ¬ĠyÄ«Ġ":10743,"ĠĠĠzhÃ¨ĠkÄĵĠ":10744,"ĠfÃłn":10745,"rÃ¬ĠzhÃ¬Ġ":10746,"dÃłiĠdÃłoĠ":10747,"huÃŃĠdÃło":10748,"rÃ©nĠyuÃ¡nĠ":10749,"ĠdÃ¬ĠyÃ¹Ġ":10750,"ĠyÇĴuĠguÄģnĠdeĠ":10751,"ĠgÅįngĠchÇİng":10752,"xÄ«ĠwÃłng":10753,"jÇĲngĠqÅ«Ġ":10754,"lÃŃĠbÄģĠnÃ¨n":10755,"ĠzhÃŃĠxÃŃngĠ":10756,"ĠdÃłĠshÃłĠ":10757,"âĪĴ":10758,"TA":10759,"ĠshÃ¹":10760,"ĠzÇĶĠzhÄ«Ġ":10761,"sÃ¬ĠrÃ©nĠ":10762,"bÄĵiĠdeĠ":10763,"ĠhÃ©ĠjÄ«Ġ":10764,"ĠyÃºĠ2018":10765,"ĠyÃºĠ2024":10766,"ĠrÃ©nĠlÃ¬Ġ":10767,"zhÃłnĠlÃ¼Ã¨":10768,"guÄģnĠliÃ¡nĠ":10769,"lÃ¹ĠduÃłnĠ":10770,"huÃłĠrÃ¹Ġ":10771,"fÄĵngĠfÃ¹ĠdeĠ":10772,"bÃ³ĠlÄģĠ":10773,"lÃ¹nĠtÃ¡nĠ":10774,"shÃ¨ĠyÇĲngĠ":10775,"oci":10776,"ĠjiÄĵ":10777,"ĠtÃ¡nĠ":10778,"zÃ©ĠxÄ«Ġ":10779,"shÄĽngĠhuÃ¬Ġ":10780,"tÅįngĠxÃŃngĠ":10781,"enterĠ":10782,"gÃ¨ngĠgÄģoĠ":10783,"lÃ¨ĠyuÃ¡nĠ":10784,"kÃ¹ĠÄĽrĠ":10785,"olspanĠ":10786,"ĠshÃ¬ĠxiÃłĠxiÃ¡ĠdeĠyÃŃĠgÃ¨ĠxiÄģngĠzhÃ¨nĠjÃŃĠxÃŃngĠzhÃ¨ngĠdÄģnĠwÃ¨iĠ":10787,"gÅįngĠjÄ«Ġ":10788,"jÃ¬ĠshÃ¹":10789,"ĠyÄ«ĠÄĽrĠ":10790,"ĠyÄ«ĠqiÃ¨Ġ":10791,"ĠyÇĶĠqÃŃ":10792,"fÃ¡ngĠwÅ«":10793,"ĠdeĠshÃ¬ĠjiÃ¨":10794,"ĠÐ¾":10795,"ĠnÃŃ":10796,"ĠĠĠÐ":10797,"ĠĠĠfÄĵnĠlÃ¨iĠ":10798,"jÃŃĠzhÅįngĠxuÃ©Ġ":10799,"duÅįĠsÄ«Ġ":10800,"ori":10801,"jiÃłngĠjÃŃĠ":10802,"ĠjÃ¬ĠhuÃłĠdeĠ":10803,"yÃ¡nĠjiÅ«ĠdeĠ":10804,"Ġ160":10805,"ĠnuÃ³Ġ":10806,"47Ġ":10807,"ĠhuÄ«Ġ":10808,"ÃłiĠlÃ¬Ġ":10809,"chÅįu":10810,"zÇĴngĠsÄ«ĠlÃ¬ngĠ":10811,"xiÄĵĠÄĽrĠ":10812,"ĠbÃ¨iĠbÇĶĠ":10813,"ĠqÃŃĠxiÃłĠdeĠ":10814,"dÅįngĠqÅ«Ġ":10815,"jiÄĵĠguÇİnĠ":10816,"ĠzhÃ¨ngĠcÃ¨":10817,"ĠdÃłnĠmÃ©iĠyÇĴuĠ":10818,"ĠbÄĽnĠzhÃłnĠ":10819,"tÃ³ngĠmÃ©ngĠ":10820,"Ġ1973ĠniÃ¡nĠ":10821,"ational":10822,"cÃ¬ĠshÃ¬Ġ":10823,"kÄĵĠjÃ¬nĠshÃ¬Ġ":10824,"fÇİnĠjÄ«Ġ":10825,"shÃŃĠqÄ«":10826,"ĠgÅįngĠjiÄģoĠ":10827,"ĠxÃŃngĠhÃłoĠ":10828,"zhÃ¨ngĠcÃ¨":10829,"liÃ¡nĠzÇİiĠ":10830,"diÃłnĠtÃ¡i":10831,"sĠĠĠof":10832,"ĠHĠ":10833,"ĠdeĠjÄ«ĠchÇĶ":10834,"Ġ14Ġ":10835,"ĠhÄĵiĠlÃ³ngĠjiÄģngĠ":10836,"ĠyÃº":10837,"ĠyÇİngĠ":10838,"jiÃłnĠdeĠ":10839,"mÃŃnĠyÃ¬Ġ":10840,"qiÄģnĠmÃŃngĠ":10841,"ann":10842,"qiÅ«ĠjÃ¬Ġ":10843,"yÃ©ĠÄĽrĠ":10844,"jiÃłoĠtÃºĠ":10845,"lÃ¡iĠkÃłnĠ":10846,"ĠxiÃłĠwÇĶĠ":10847,"mÃ¬ĠsÅ«ĠlÇĲĠ":10848,"ĠzhÃŃĠlÃ¬Ġ":10849,"ĠhÃ©ĠdÃłoĠquÃ¡nĠzhÇİngĠ":10850,"Ġ37":10851,"ĠĠĠzhÄĵngĠyÃ¬Ġ":10852,"tÃ¨ĠrÃ©nĠ":10853,"mic":10854,"xuÄģnĠshÃ¬Ġ":10855,"yuÇİnĠdeĠ":10856,"ĠgÅįngĠshÃ¨Ġ":10857,"ĠyÇĲĠbiÃłn":10858,"bÄĽnĠkÄĵĠ":10859,"tÃ¨ĠshÅ«":10860,"fÄĵngĠsuÇĴĠ":10861,"tiÃ¡oĠmÃ¹Ġ":10862,"pÃ©iĠyÇİng":10863,"ĠIST":10864,"dÅįngĠbÃ¹ĠshÃŃĠqÅ«Ġ":10865,"guÃ³ĠwÃ¹ĠyuÃłnĠ":10866,"az":10867,"ten":10868,"ĠsÄģng":10869,"xÄ«ĠxiÃłnĠ":10870,"cÄģnĠyÃ¬ĠyuÃłnĠ":10871,"hÃłnĠguÃ³Ġ":10872,"tuÅįĠÄĽrĠ":10873,"liÃ¹ĠshÃ¬Ġ":10874,"atĠ":10875,"ĠdÃłoĠjÃŃĠ":10876,"qÅ«ĠfÃ¹ĠzÃ©ĠguÇİnĠxiÃ¡Ġ":10877,"ĠjÅ«nĠrÃ©nĠ":10878,"dÃ²ngĠwÃ¹ĠdeĠ":10879,"chuÃ¡nĠshuÅį":10880,"luÃ²ĠtÃ¨Ġ":10881,"xÃŃĠjÄ«":10882,"zhÇĶnĠquÃ¨Ġ":10883,"guÃ¬ĠzÃº":10884,"ĠkÄģng":10885,"Ġ2001":10886,"shÄĵĠ":10887,"yÇĶĠzhÅįngĠguÃ³Ġ":10888,"kÃ¨ĠlÇĲĠsÄ«Ġ":10889,"chuÄģng":10890,"cÄģnĠyÃ¬Ġ":10891,"guÇİngĠyÃ¬Ġ":10892,"ĠhÃ©ĠzhÃ¬Ġ":10893,"dÃ¬ĠguÃ³Ġ":10894,"gÅįngĠyÃ¨Ġ":10895,"ĠyÃºĠ2015":10896,"ĠchÃ©ngĠzhÇİngĠ":10897,"ĠqÃŃĠzhÃ¬Ġ":10898,"shÇĴuĠxiÄģnĠ":10899,"bÄĽiĠhÇİiĠdÃłoĠ":10900,"duÅįĠxiÃłngĠ":10901,"ĠxiÃłĠlÃ¬ngĠ":10902,"ĠnÃ¡nĠxÃ¬ngĠ":10903,"dÅįuĠmÃ©iĠyÇĴuĠ":10904,"zhuÃłngĠtÃłi":10905,"ĠĠĠMar":10906,"Ġ1974ĠniÃ¡nĠ":10907,"ĠyÃ²uĠyÃ¬Ġ":10908,"lÄģĠsÄ«ĠjiÄģĠ":10909,"fÄģĠbiÇİoĠleĠ":10910,"shÄĵngĠchÇİnĠdeĠ":10911,"ĠwÇİ":10912,"ĠshÄĽngĠ":10913,"rÃ¨nĠzhÄ«Ġ":10914,"lÃŃnĠzhÅįngĠ":10915,"yÃ¹nĠzÃłiĠ":10916,"zhuÄģngĠdeĠ":10917,"niÃºĠsÄ«Ġ":10918,"36ĠniÃ¡nĠ":10919,"dÅįngĠcÃ¨Ġ":10920,"lÇľĠhuÃłĠ":10921,"bÄģoĠkuÃ²ĠyÇĲĠxiÃłĠ":10922,"ĠMar":10923,"fÃ¡nĠmÃ¡ng":10924,"gÅįngĠyuÃ¡nĠqiÃ¡nĠ":10925,"shÅįuĠshÃ¬ĠlÇľĠ":10926,"zhuÄ«ĠsÃ¹ĠdÃłoĠ":10927,"ĠbiÄģoĠ":10928,"ĠguÇİnĠlÇĲĠ":10929,"ĠĠĠquÃ¡nĠ":10930,"1987ĠniÃ¡nĠ":10931,"chÅ«nĠjÃ¬Ġ":10932,"ĠyÄ«ĠrÃ¡n":10933,"shÄĵngĠchÄĵngĠ":10934,"fÃ¹ĠxÄ«ngĠ":10935,"yÃ¹ĠwÃ©iĠ":10936,"fÄĵnĠbÃ¹ĠzÃłiĠ":10937,"tÃ³uĠrÃ¹":10938,"ĠshÃ¬ĠyÄ«ĠzuÃ²":10939,"Ġ13Ġ":10940,"mÃ¨iĠmÃ¨iĠ":10941,"ÄģiĠnÃłĠshÄĽngĠ":10942,"pÄĵng":10943,"ĠlÇİo":10944,"ĠchÄģoĠ":10945,"zhuÃ¬":10946,"tÃ¨ĠgÅįngĠ":10947,"zuÃ¬ĠchÅ«ĠdeĠ":10948,"liÃłngĠjÃŃĠ":10949,"31ĠniÃ¡nĠ":10950,"ĠbÃ¨iĠrÃ¨nĠwÃ©iĠ":10951,"zuÃ¬ĠdÄ«Ġ":10952,"ĠESTĠ":10953,"xÃ¬ĠtÇĴngĠzhÅįngĠ":10954,"300Ġ":10955,"IR":10956,"ĠduÃłnĠ":10957,"ĠyÃ¬ĠniÃ¡nĠ":10958,"duÃ¬ĠlÃ¬Ġ":10959,"shuÃ¬ĠmiÃ¡n":10960,"ĠzÃłiĠlÃ¬Ġ":10961,"ĠyÇĴuĠxÇĶĠduÅįĠ":10962,"pÃŃngĠhÃ©ngĠ":10963,"nÃ¡nĠmÄĽiĠzhÅįuĠ":10964,"fÄģngĠÃłn":10965,"dÅįuĠkÄĽĠyÇĲĠ":10966,"zhÅįngĠguÃ³ĠdÃłĠlÃ¹ĠdeĠ":10967,"yp":10968,"lÇĲĠshÃŃĠ":10969,"quÇİn":10970,"guÄģngĠdeĠ":10971,"ĠyÇĲĠjÃŃĠzÃłiĠ":10972,"ĠxÄ«ĠyÇĲn":10973,"zÃ¬ĠshÄĵnĠ":10974,"bÃ³ĠgÃ©Ġ":10975,"wÃºĠxiÃłnĠdiÃłnĠ":10976,"ĠshÃ¬ĠyÄ«ĠkÄĵĠwÃ©iĠrÃłoĠ":10977,"ba":10978,"Ġv":10979,"ĠchÃŃĠ":10980,"ĠfÄĵnĠwÃ©iĠ":10981,"lÇĲĠrÃ©nĠ":10982,"shÃ¨ĠjÃŃĠ":10983,"zhÇĲĠchÅ«":10984,"dÄģngĠrÃ¬Ġ":10985,"shÄĽngĠlÃ¬Ġ":10986,"rÃ³ngĠdeĠ":10987,"jiÇĶĠshÃŃĠ":10988,"biÄģoĠshÃ¬Ġ":10989,"xÃ¬nĠhÃło":10990,"guÄģnĠzhÃ¨ngĠ":10991,"qiÃ¡nĠtÇĲngĠ":10992,"diÃłnĠliÃºĠ":10993,"rÃ¹ĠkÇĴu":10994,"tÃŃĠcÃ¡iĠ":10995,"ĠxiÄģngĠguÄģnĠdeĠ":10996,"qiÄģnĠyÇĲnĠ":10997,"ĠjiÄĵĠshÃ²uĠ":10998,"liÃ¡nĠsÃłiĠdeĠ":10999,"pÇİoĠdÃłoĠ":11000,"juÃ©ĠduÃ¬ĠxÄ«ngĠdÄĽngĠwÃ¨iĠ":11001,"jiÃ¨ĠquÃ¡nĠguÃ³ĠzhÃ¨ngĠxiÃ©ĠwÄĽiĠyuÃ¡nĠ":11002,"83":11003,"wÄģ":11004,"ĠnuÃ²":11005,"chuÃ¡nĠyuÃ¡nĠ":11006,"zhÇİnĠchÅ«Ġ":11007,"yÅįuĠhuÃ¬Ġ":11008,"yÇĴuĠyÃ¬Ġ":11009,"xuÃ©ĠkÄĵĠ":11010,"ĠxÃŃngĠxÄ«ngĠ":11011,"ĠbÃ¬ngĠhuÃ²ĠdÃ©Ġ":11012,"ĠjÃ¹ĠbÄĽnĠ":11013,"shÅ«ĠniÇĶĠ":11014,"biÃłnĠhuÃłnĠ":11015,"liÇİngĠcÃ¨Ġ":11016,"hÄĽnĠshÇİoĠ":11017,"ĠĠĠwÃ©nĠhuÃłĠ":11018,"duÃ¬ĠdÃ¬Ġ":11019,"dÃ©ĠyÃ¬ĠzhÃ¬Ġ":11020,"fÃºĠjÃŃĠ":11021,"yÃŃngĠlÃ¬Ġ":11022,"gÅįuĠtÅįngĠ":11023,"ĠzÃłiĠdÄģngĠshÃŃĠ":11024,"ĠzhÅįngĠyuÃ¡nĠ":11025,"ĠshÃŃĠliÃ¹ĠniÃ¡nĠ":11026,"jÃ¹ĠbÄĽnĠ":11027,"fÄĵnĠxiÃłoĠ":11028,"zhÇĴngĠzÃº":11029,"shÃ¨ngĠjÄ«ngĠ":11030,"kÄĽĠnÃ©ngĠdeĠ":11031,"ĠEDTĠ":11032,"wÄģnĠqÅ«Ġ":11033,"Ġ5ĠdiÃłoĠkuÃłiĠyÄ«ĠxiÇİoĠshÃŃĠ":11034,"sÅ«ĠwÃ©iĠÄģi":11035,"ĠjÃŃĠbÄĽiĠmÄĽiĠdÅįngĠbÃ¹ĠshÃŃĠqÅ«Ġ":11036,"tÃłiĠyÃ¡ngĠgÅįngĠzhuÃłnĠdeĠxiÇİoĠxÃŃngĠxÄ«ngĠ":11037,"ĠshÃ¬ĠyÄ«ĠkÄĵĠwÃ©iĠrÃłoĠtÃłiĠyÃ¡ngĠgÅįngĠzhuÃłnĠdeĠxiÇİoĠxÃŃngĠxÄ«ngĠ":11038,"ĠshÅ«":11039,"ÃłoĠkÃ¨Ġ":11040,"ÄĵnĠsÄ«Ġ":11041,"yÇĶĠwÃ¨iĠ":11042,"hÃ¡nĠyÃ¬Ġ":11043,"45ĠniÃ¡nĠ":11044,"ĠzuÃ²ĠqÇĶĠ":11045,"yÃ²uĠchÄĵngĠ":11046,"ĠdeĠyÄ«ĠtiÃ¡oĠ":11047,"Ġ1971ĠniÃ¡nĠ":11048,"xiÇİoĠxÃŃngĠxÄ«ngĠdeĠjuÃ©ĠduÃ¬ĠxÄ«ngĠdÄĽngĠwÃ¨iĠ":11049,"84":11050,"ĠĠĠhuÃ¡ngĠ":11051,"cÇĲĠdÃ¬Ġ":11052,"lÇĲngĠduÃ¬Ġ":11053,"zhuÄģnĠyuÃ¡nĠ":11054,"1976ĠniÃ¡nĠ":11055,"pÄģiĠshÃ¨ĠdeĠ":11056,"ĠshÃ¬ĠxÄ«nĠ":11057,"ĠyÄ«ĠlÃłi":11058,"ĠzhÄ«ĠchÅ«Ġ":11059,"jÃ¹ĠfÄĵng":11060,"shÇĴuĠlÇĲngĠ":11061,"ĠfÃ¹ĠmÇĶĠ":11062,"nÃłĠxiÄĵ":11063,"tÃºĠjÃ¬ngĠ":11064,"chÇĲĠcÃ¹nĠ":11065,"ĠshÃ¬ĠwÃ¹ĠsuÇĴĠ":11066,"ki":11067,"ĠĠĠguÃ³Ġ":11068,"ĠĠĠgÃ¨Ġ":11069,"menĠdeĠ":11070,"ĠshÃ¬ĠzuÃ¬Ġ":11071,"ĠhÃ©ĠyÇĶĠ":11072,"ĠzhÅįngĠlÃ¬Ġ":11073,"ĠlÃ¬ĠxuÃ©Ġ":11074,"guÄģnĠzhÃ²ng":11075,"zÃºĠliÃ¡nĠ":11076,"qÇĶĠjuÃ©ĠyÃºĠ":11077,"tiÄģnĠwÃ©nĠxuÃ©ĠjiÄģĠ":11078,"ĠĠĠzhÃ¨ĠkÄĵĠxiÇİoĠxÃŃngĠxÄ«ngĠdeĠjuÃ©ĠduÃ¬ĠxÄ«ngĠdÄĽngĠwÃ¨iĠ":11079,"ĠyÃ¡nĠjiÅ«":11080,"liÇİngĠdÃłĠ":11081,"miÃłoĠyÇĶĠ":11082,"ĠshÃ¬ĠxiÃłĠ":11083,"ĠjiÄģĠqiÃ¡ngĠ":11084,"ĠtÃ³ngĠniÃ¡nĠ12ĠyuÃ¨Ġ":11085,"kÄĽĠyÃ²ngĠ":11086,"ĠdeĠyÄ«ĠxiÃłngĠ":11087,"zhuÄģnĠjÃŃĠdeĠ":11088,"ĠĠĠ1998ĠniÃ¡nĠ":11089,"bÇĲĠlÃ¬ĠniÃºĠsÄ«Ġ":11090,"lÇĴng":11091,"mÃŃngĠyÃºĠ":11092,"zhÇĴngĠdeĠ":11093,"ĠzÃłiĠrÃ©nĠ":11094,"ĠyÄ«ĠxiÃłngĠ":11095,"ĠxÄ«ĠÄĽr":11096,"ĠbÃ¨iĠjÇĲng":11097,"yÃ¹ĠsuÃłnĠ":11098,"ĠbÃ¬ngĠwÃºĠ":11099,"xiÇİoĠjiÄĽĠ":11100,"aceboo":11101,"zÇĶĠchÃ©ngĠbÃ¹ĠfÃ¨nĠ":11102,"ID":11103,"ĠtiÃ¡n":11104,"ĠzÇĶĠchÃ©ngĠ":11105,"ĠĠĠguÄģnĠyÃºĠ":11106,"lÃ¡iĠÄĽrĠ":11107,"guÃ²ĠhÃ²uĠ":11108,"lÄĵiĠsÄ«Ġ":11109,"ĠyÃºĠ2013":11110,"ĠyÄ«ĠqiÃ¨":11111,"ĠxÄ«ĠcÃ¨Ġ":11112,"jÃ¹ĠyuÃłnĠ":11113,"zhÃ¨nĠwÃ¡ngĠ":11114,"shÄĵnĠrÃ¹Ġ":11115,"zÇĴngĠlÇĲngĠshÃ¬Ġ":11116,"ĠdÄģngĠdÃ¬ĠdeĠ":11117,"duÇİnĠzÃłnĠ":11118,"Ġ1969ĠniÃ¡nĠ":11119,"ĠsuÃŃĠjÃŃĠ":11120,"hÄĵĠ":11121,"ĠmÃŃngĠwÃ¨iĠ":11122,"ĠxiÇİnĠshÃ¬Ġ":11123,"ĠgÃ²ngĠtÃ³ngĠ":11124,"ĠĠĠZ":11125,"lÃ¹ĠhÃ©Ġ":11126,"wÄĵiĠlÃ¬Ġ":11127,"ĠyÃºĠ2014":11128,"ĠchÅ«ĠbÃ¹Ġ":11129,"cÇĲĠtiÄģnĠtÇĲĠ":11130,"liÃºĠchuÃ¡nĠ":11131,"liÇİngĠtiÃ¡oĠ":11132,"bÄ«ngĠtuÃ¡nĠ":11133,"Ġ159":11134,"ĠÃłoĠmÃ©nĠ":11135,"gÄĽ":11136,"ĠzÃłi":11137,"ĠĠĠzÇİoĠqÄ«Ġ":11138,"chÃ¡ĠdÃ©Ġ":11139,"fÃ¹ĠyÃºĠ":11140,"qiÃ¡nĠxÄ«Ġ":11141,"140":11142,"inu":11143,"mÇİnĠyÃ¬Ġ":11144,"hÃ©ĠliÃºĠ":11145,"shÃłngĠyÃ¬ngĠdeĠ":11146,"jÄ«ngĠdÅ«Ġ":11147,"xÃŃĠguÃłnĠ":11148,"ĠpÄģng":11149,"ĠGĠ":11150,"zhuÇİnĠyÃŃĠdÃłoĠ":11151,"pÄģn":11152,"ĠdÃºĠlÃ¬Ġ":11153,"yÃ²ngĠdÃ¬Ġ":11154,"kÄĵĠyÄ«ĠshÄĵngĠ":11155,"zÅįngĠdeĠ":11156,"1985ĠniÃ¡nĠ":11157,"ĠrÃ¬ĠshÃŃĠ":11158,"ĠyuÃ¡nĠlÃ¡iĠ":11159,"ĠdÃłnĠbÃ¨iĠ":11160,"qiÃ¡ngĠhuÃłĠ":11161,"ĠdiÃłnĠziĠ":11162,"duÇİnĠpiÃłnĠ":11163,"56Ġ":11164,"85ĠniÃ¡nĠ":11165,"bÃ¨n":11166,"gÄĽngĠ":11167,"ĠzhÃ¹":11168,"ĠmÃ¡o":11169,"ĠsÄģngĠ":11170,"bÄĽnĠzhÃ¬Ġ":11171,"nÃŃĠxÄ«ĠyÃł":11172,"shÃ¨ngĠyÃºĠ":11173,"xiÃ¡ĠdeĠ":11174,"gÄĵngĠmÃŃngĠ":11175,"ĠshÃ¬ĠchÇİng":11176,"ĠzÃłiĠtÄģ":11177,"ĠyÇĲĠwÃłiĠdeĠ":11178,"shÃ¹ĠjÃ¹":11179,"tÃ¨ĠdÃ¬ng":11180,"jiÃ©ĠlÃ¹nĠ":11181,"qÄ«ngĠzhÄĵnĠ":11182,"mÃ³ĠtuÅįĠ":11183,"shÃ¨ĠjiÄģoĠ":11184,"ĠyÄĽĠbÃ¨iĠ":11185,"pÃ©iĠchÃ¡ngĠ":11186,"Ġ179":11187,"ĠdÃłĠzhÃ¬Ġ":11188,"hÃ¹nĠluÃłnĠ":11189,"ĠqÃ¹Ġ":11190,"ĠliÃ¨ĠchÄĵĠ":11191,"bÄĽnĠdÃ¬ĠqÅ«Ġ":11192,"ziĠlÇĲĠ":11193,"fÇĶĠzhÄ«ĠfÇĶĠ":11194,"00ĠpÃŃngĠfÄģngĠqiÄģnĠmÇĲĠ":11195,"ĠwÃ¨iĠguÃ³Ġ":11196,"ĠzÃłiĠduÃ¬Ġ":11197,"ĠchÃ©ngĠnuÃ²Ġ":11198,"ĠdÃłĠduÅį":11199,"ĠshÃ¨ĠshÄ«":11200,"zÇĴngĠÃ©ĠwÃ¨iĠ":11201,"nÇļĠwÃ¡ngĠ":11202,"ĠzhÇĶĠzhÄģngĠ":11203,"Ġ1933ĠniÃ¡nĠ":11204,"fÄĵiĠxÃŃngĠyuÃ¡nĠ":11205,"88ĠniÃ¡nĠ":11206,"cor":11207,"ĠyÇĴu":11208,"ĠbÇĶĠ":11209,"ĠshÄģnĠxÄ«Ġ":11210,"ĠĠĠyÄ«nĠwÃ¨iĠ":11211,"fÇİĠÄĽrĠ":11212,"wÃ©nĠsÄ«Ġ":11213,"ĠyÃºĠ2012":11214,"ĠdÃ©ĠhÃ©Ġ":11215,"yÃŃĠdÃ²ng":11216,"fÄĵngĠbÃło":11217,"mÃ³ĠnÇĲ":11218,"ĠdÄĽngĠdÄĽngĠ":11219,"Ġ1957ĠniÃ¡nĠ":11220,"ĠjÃŃĠtuÃ¡nĠjÅ«nĠ":11221,"ron":11222,"ĠqÇĶĠdÃ©Ġ":11223,"ĠĠĠdÃło":11224,"ĠĠĠjiÃłnĠ":11225,"zuÃ²ĠzÃłiĠ":11226,"qÅ«ĠzhÅįngĠ":11227,"xÄ«nĠyÄ«Ġ":11228,"nÃ¡nĠxÄ«Ġ":11229,"xiÃłĠshÃ¬Ġ":11230,"nÇļĠÃ©r":11231,"lÃºnĠlÇĲĠ":11232,"yÃ³uĠkÃ¨Ġ":11233,"xiÄģngĠxÃ¬nĠ":11234,"xiÃłngĠbÄĽiĠ":11235,"ĠqÃŃĠzhÅįngĠdeĠ":11236,"ĠjÃ¹ĠtÇĲĠ":11237,"ĠjiÃ©ĠhÅ«nĠ":11238,"ĠjÄ«ngĠguÃ²":11239,"hÃ©ngĠxÄ«ng":11240,"SS":11241,"ĠkÄģnĠ":11242,"ĠxĠ":11243,"ĠguÃ¬ĠzhÅįuĠ":11244,"bÄģĠmÃŃngĠ":11245,"dÇİngĠbÃ¹Ġ":11246,"cÃ¡iĠdeĠ":11247,"suÃŃĠzhÄ«Ġ":11248,"pÃłĠÄĽrĠ":11249,"ĠniÃ¡nĠshÃ¬Ġ":11250,"ĠwÃ¨iĠxÄ«nĠ":11251,"ĠyÃºĠ2022":11252,"ĠqÃŃĠyÇĶĠ":11253,"yÃ¡nĠÃłnĠ":11254,"chÃ¡ngĠÄģnĠ":11255,"ĠjiÇİnĠchÄĵng":11256,"guÇİngĠbÅįĠgÅįngĠsÄ«Ġ":11257,"chÃ¡iĠyÃ³uĠ":11258,"jiÃłngĠyÇĶĠliÃłngĠ":11259,"mÄĽiĠzhÅįngĠbÃ¹Ġ":11260,"tÃ¨ĠsÄ«Ġ":11261,"yÃłoĠzÃłiĠ":11262,"shuÇĲĠyÃºĠ":11263,"chÄģĠjÃ¹Ġ":11264,"ĠhÃ©ĠjÄ«nĠ":11265,"ĠzhÅįngĠwÃ©n":11266,"ĠyuÃ¡nĠqÅ«Ġ":11267,"ĠjiÃłnĠzhÅįngĠ":11268,"ĠxiÄģngĠguÄģn":11269,"ĠnÃ¡nĠjÄ«ng":11270,"zhÇĶnĠjuÃ©ĠsÃłi":11271,"ĠfÃºĠlÇİngĠ":11272,"Ġ1965ĠniÃ¡nĠ":11273,"lÇĲĠshÃ¬ĠzhÇİngĠ":11274,"ĠĠĠEn":11275,"ĠdeĠzuÃ²ĠyÃ²ngĠ":11276,"jiÄģoĠyÃ¬ĠsuÇĴĠ":11277,"jiÃ¨ĠquÃ¡nĠguÃ³ĠrÃ©nĠmÃŃnĠdÃłiĠbiÇİoĠdÃłĠhuÃ¬Ġ":11278,"ĠhuÃ¡iĠ":11279,"ĠdÇİoĠyÇİnĠ":11280,"qÄ«ngĠdÃłiĠ":11281,"ĠzhÄ«ĠqiÃ¡nĠdeĠ":11282,"shÄ«ĠtÇĲĠ":11283,"ĠdeĠyÄ«ĠcÃ¬Ġ":11284,"ĠwÃłnĠniÃ¡nĠ":11285,"chÇĶĠjuÃ©Ġ":11286,"Ġtou":11287,"ĠdeĠgÅįngĠsÄ«Ġ":11288,"dÃłnĠshuÇĲĠ":11289,"ĠNĠ":11290,"ĠqÄ«ĠjiÄģn":11291,"chÃłngĠpiÃłnĠgÅįngĠsÄ«Ġ":11292,"ĠĠĠyÃ¹Ġ":11293,"ĠĠĠ2023ĠniÃ¡nĠ":11294,"tÇĲĠxiÃłnĠ":11295,"chÄĵĠshÃ¬Ġ":11296,"chÄĵngĠdeĠ":11297,"ĠyÃºĠ190":11298,"ĠyÃ¬ĠmÄĽiĠguÃ³ĠrÃ©nĠ":11299,"ĠjÅ«nĠyÇĲĠ":11300,"zhÇĶĠjuÃ©":11301,"qÄ«ngĠdÇİoĠ":11302,"zÄ«ĠxÃ¹n":11303,"chÇİnĠliÃłngĠ":11304,"osĠ":11305,"ĠzuÇĴ":11306,"ĠkÄģiĠfÄģĠ":11307,"shÄģiĠ":11308,"sÄ«ĠdÃ¬ĠlÃ¬Ġ":11309,"chÃ¡n":11310,"jÅ«nĠzhÇĶĠ":11311,"jÄ«nĠsÄ«Ġ":11312,"bÄģĠyuÃ¨Ġ":11313,"mÇĶĠsÄ«ĠtÃ¨Ġ":11314,"ĠwÃ¨iĠmÄĽiĠguÃ³Ġ":11315,"ĠyÇĴuĠxiÃło":11316,"ĠyÄ«ĠyÃłng":11317,"ĠgÃ¨ĠgÃ¨Ġ":11318,"zhÃŃĠjÃ¬ngĠ":11319,"gÄģoĠxiÃłoĠ":11320,"kÄĵĠhuÃłnĠ":11321,"ĠdeĠyÄ«ĠjiÄģĠ":11322,"dÇĲĠcÃ©ngĠshuÇĲĠyÃ¹Ġ":11323,"ĠnÃ¬Ġ":11324,"ĠLĠ":11325,"ĠdÃ¬ĠshÃŃĠsÄģnĠ":11326,"ĠsÄģnĠyuÃ¨Ġ":11327,"ĠÄģĠÄĽrĠbÄĵiĠsÄ«Ġ":11328,"pÃ©nĠdÃ¬Ġ":11329,"CA":11330,"zhÇİi":11331,"tur":11332,"tÃŃĠwÃ¨iĠ":11333,"30ĠniÃ¡nĠdÃłiĠ":11334,"qÃ¬ngĠxiÃłĠ":11335,"bÃłĠgÅįngĠ":11336,"ĠwÃ¨iĠsÄ«Ġ":11337,"rÃ¨nĠzhÃ¨ngĠ":11338,"yuÄĵĠ1":11339,"ĠtÄģĠmenĠshÃ¬Ġ":11340,"jiÄĽĠjuÃ©":11341,"zhuÇİnĠbiÃłnĠ":11342,"ĠcÇĲĠwÃłi":11343,"ĠsuÇĴĠyÇĴuĠdeĠ":11344,"ĠtiÄģnĠwÃ©nĠ":11345,"yÅįuĠxiÄģnĠ":11346,"ĠĠĠ1997ĠniÃ¡nĠ":11347,"49ĠniÃ¡nĠ":11348,"be":11349,"jÄ«ĠshÃŃĠ":11350,"yuÃ¡nĠrÃ©nĠmÃŃnĠbÃ¬Ġ":11351,"xÃŃngĠrÃ©nĠ":11352,"jiÃłnĠduÃ¬Ġ":11353,"ĠdeĠqÃŃngĠkuÃłngĠxiÃłĠ":11354,"bÃ¹ĠfÃ¨n":11355,"ĠshÃŃĠsÄģnĠniÃ¡nĠ":11356,"ĠzhÅįuĠdeĠyÃŃĠgÃ¨ĠshÃ¬ĠzhÃ¨nĠ":11357,"yÃ²ngĠleĠ":11358,"dÃ²ngĠtÃłiĠ":11359,"tuÄ«ĠguÇİng":11360,"yÃ¬nĠdÃ¬ĠÄģnĠnÃł":11361,"tÃŃngĠchÄĵĠchÇİngĠ":11362,"53Ġ":11363,"ath":11364,"ĠyÃ¹nĠ":11365,"huÇİng":11366,"chÃ©ngĠwÃ¨iĠ":11367,"pÃŃngĠxiÃłnĠ":11368,"hÄģĠlÃ¬Ġ":11369,"owĠ":11370,"ĠdeĠhÃ²uĠ":11371,"ĠdeĠxÃŃngĠshÃ¬Ġ":11372,"ĠshÃ¬ĠyÃ¬nĠdÃ¹Ġ":11373,"zhÃłnĠshÃ¹Ġ":11374,"ĠbÃ¬ngĠchÃ©ngĠwÃ©iĠ":11375,"shÇĴuĠrÃ¨nĠ":11376,"ĠdeĠshÃ¬ĠqÃŃngĠ":11377,"zhuÄģnĠqÅ«Ġ":11378,"xÃºnĠfÇĶĠ":11379,"liÃ¡ngĠhÇİoĠdeĠ":11380,"yÃ¡nĠjiÅ«ĠsuÇĴ":11381,"ĠdeĠjÄ«ĠchÇĶĠ":11382,"zhÃ²ngĠyÃłoĠxÃ¬ngĠ":11383,"ĠsÃºĠchÄĵngĠ":11384,"ĠzÇİoĠ":11385,"ĠXĠ":11386,"zhÇİiĠ":11387,"duÃ¬ĠshÃ¬Ġ":11388,"zhÇİngĠjÃŃĠ":11389,"fÅ«ĠsÄ«Ġ":11390,"1960ĠniÃ¡nĠ":11391,"cÃ¹ĠshÇĲĠ":11392,"ĠjÃŃĠÄĽr":11393,"ĠÄĽrĠbÃ¨iĠ":11394,"ĠxÄ«ĠfÇİĠ":11395,"fÃ¹ĠnÇļĠ":11396,"fÄģĠshÄĵngĠyÃºĠ":11397,"gÃ©ĠlÃŃnĠ":11398,"fÄĵngĠxiÇİn":11399,"ĠzÃ¬ĠcÇĲĠ":11400,"xiÄģoĠshÃ²u":11401,"dÇİĠsuÃłn":11402,"bÇİiĠxÃ¬ngĠ":11403,"ĠshÃłngĠhÇİiĠshÃ¬Ġ":11404,"gra":11405,"ĠdÃ¹":11406,"ĠxiÅįngĠyÃ¡ĠlÃ¬Ġ":11407,"liÃ¹ĠyuÃ¨Ġ":11408,"zuÃłnĠshÃŃĠ":11409,"30ĠfÄĵnĠ":11410,"xiÃ¨ĠÄĽrĠ":11411,"ĠhÃ©ĠchÃłngĠ":11412,"ĠshÃŃĠwÇĶĠniÃ¡nĠ":11413,"ĠkÃ¨ĠjiÄģĠ":11414,"ĠshÃ¨ĠzÃłiĠ":11415,"zuÃ¬ĠhÃ²uĠdeĠ":11416,"ĠshÄĵngĠmÃ¬ngĠ":11417,"yuÄĵĠsÃ¨ĠfÅ«Ġ":11418,"xiÃ©ĠhuÃ¬":11419,"ĠcÃ³ngĠcÇĲĠ":11420,"ĠJRĠ":11421,"ĠtÄģĠcÃ©ngĠdÃłiĠbiÇİo":11422,"pÃ¬n":11423,"ĠtÃºnĠqÃŃĠ":11424,"MP":11425,"angĠ":11426,"chi":11427,"sÅįuĠsuÇĴĠ":11428,"ĠbÃ¹ĠduÃłn":11429,"ĠyÃ¬ĠbÃ¨iĠ":11430,"ĠjÅ«nĠwÄĽiĠ":11431,"zÇĶĠxiÄģnĠ":11432,"liÇİngĠzhÇĴng":11433,"jÃ¬ĠsuÃłnĠjÄ«Ġ":11434,"cÃ¨ĠwÃ¨iĠ":11435,"wÄĵiĠdeĠ":11436,"shÇİoĠdeĠ":11437,"zhuÄ«ĠjÄ«Ġ":11438,"rÃ²uĠshÃŃĠxÃ¬ngĠ":11439,"wÃ¹ĠzÄ«Ġ":11440,"ĠkÃ¨ĠzÃłiĠ":11441,"tÃ¡iĠzhÅįngĠshÃ¬Ġ":11442,"jÄ«nĠxiÃłngĠ":11443,"ĠzhÃ¨ngĠjÃ¹Ġ":11444,"sÄģnĠjiÇİoĠ":11445,"zÇĴngĠjÃºĠ":11446,"ĠshÇĲĠmÃ¬ĠsÄ«Ġ":11447,"pÃŃĠfÅ«Ġ":11448,"ĠmÇĶĠqÄ«nĠ":11449,"ĠyÇĲĠjÃŃĠzhÅįngĠguÃ³ĠdÃłĠlÃ¹ĠdeĠ":11450,"mÄĽiĠzhÅįngĠbÃ¹ĠshÃŃĠqÅ«Ġ":11451,"ĠĠĠ2004ĠniÃ¡nĠ":11452,"zhÅįngĠniÃ¡nĠ":11453,"leĠbÃ¹Ġ":11454,"zhÃłnĠlÃ¬Ġ":11455,"zÃ©ĠÄĽrĠshÄĽngĠ":11456,"ĠdÃłoĠtÄģĠ":11457,"ĠyuÃ¡nĠzÃ¬":11458,"dÃłiĠlÇĲng":11459,"ĠÃ©rĠwÃ©nĠmÃŃngĠ":11460,"zhÃ¨ĠshÇĴuĠ":11461,"ĠzuÃ²ĠyÃ¨Ġ":11462,"ĠzÃ©ĠshÃ¬Ġ":11463,"ĠhÅįngĠzhÃł":11464,"fÃ©iĠtÃ¨ĠliÃ¨Ġ":11465,"ĠsĠ":11466,"mÇĲĠÄĽr":11467,"quÃ¨ĠlÃ¬Ġ":11468,"qiÃ¡ngĠdÃłĠ":11469,"huÃ¡nĠyuÃ¡nĠ":11470,"2019ĠguÄģnĠzhuÃłngĠbÃ¬ngĠdÃº":11471,"ĠjÃ¬nĠxÃŃngĠdeĠ":11472,"xuÇİnĠshÇĴu":11473,"chuÃ¡nĠmÃ©i":11474,"wÇİngĠlÃ¡iĠ":11475,"huÃ²ĠzhÄĽĠ":11476,"ĠshÃ¬ĠyÄ«ĠjiÄģĠ":11477,"tuÅįĠmÇİĠsÄ«Ġ":11478,"1ĠyuÃ¨Ġ1ĠrÃ¬Ġ":11479,"ĠCSTĠ":11480,"ĠCDTĠ":11481,"ĠmÇİĠlÄģĠ":11482,"rÃ¡nĠliÃłoĠ":11483,"Ġ1962ĠniÃ¡nĠ":11484,"Ġ1961ĠniÃ¡nĠ":11485,"cÇİoĠÃłnĠ":11486,"ĠchÃ¡ngĠqÄ«Ġ":11487,"Ġ6ĠdiÃłoĠkuÃłiĠyÄ«ĠxiÇİoĠshÃŃĠ":11488,"ĠjÃŃĠbÄĽiĠmÄĽiĠzhÅįngĠbÃ¹ĠshÃŃĠqÅ«Ġ":11489,"71":11490,"manĠ":11491,"ĠruÃ¬ĠshÃ¬Ġ":11492,"ĠĠĠmÄĽiĠ":11493,"zhÄģngĠshÃ¬Ġ":11494,"anĠĠĠ":11495,"xÃ¹nĠhÃłoĠ":11496,"1982ĠniÃ¡nĠ":11497,"hÄģĠdÃ©Ġ":11498,"1949ĠniÃ¡nĠ":11499,"ĠdÃ¬ĠmÃŃngĠ":11500,"ĠzhÅįuĠbiÄģnĠ":11501,"gÃ©ĠlÃ©iĠ":11502,"yÄ«ngĠcÃ¹nĠ":11503,"jiÄģoĠgÄĽi":11504,"kÄĽĠyÇĲĠtÅįngĠguÃ²Ġ":11505,"zhÃ¨ngĠzhÃ¬ĠjÃºĠ":11506,"huÇĴĠzÄģiĠ":11507,"ĠAr":11508,"yÃ¬nĠdÃ¹ĠdeĠ":11509,"Ġ1931ĠniÃ¡nĠ":11510,"hÃºĠbÄĽiĠshÄĽngĠ":11511,"jÄ«ĠdÅ«ĠjiÃłoĠ":11512,"ĠliÃ¡nĠhÃ©ĠguÃ³Ġ":11513,"shÄĵngĠbÃ¹Ġ":11514,"shÄ«ĠshÃ¬Ġ":11515,"mÃ©iĠÄĽrĠ":11516,"wÄĽiĠdeĠ":11517,"bÄĽnĠtÇĶ":11518,"bÄĽnĠzhÃłnĠ":11519,"dÅįngĠyÃłĠ":11520,"ĠshÃłngĠshÃ¹Ġ":11521,"yÄĽĠmÃ©iĠyÇĴuĠ":11522,"ĠqiÃºĠbÇĲĠsÃłiĠ":11523,"cÃ¡iĠnÃ©ng":11524,"zhÃ©ĠxuÃ©ĠjiÄģĠ":11525,"ĠliÃłnĠ":11526,"ĠchÄģoĠjÃŃĠ":11527,"jiÃłoĠyÇĴuĠ":11528,"dÄģngĠdÃłiĠ":11529,"yÄ«ngĠÃ©rĠ":11530,"jiÄģoĠfÃ¹Ġ":11531,"qÇĶĠleĠ":11532,"luÃ²ĠhÃ²uĠ":11533,"pÃ¨iĠyuÃ¨Ġ":11534,"chÃ©ngĠwÃ©i":11535,"tiÄģnĠshÇĲĠ":11536,"ĠshÃ¨ĠxiÃ¡nĠ":11537,"wÄĽiĠnÃ¨iĠruÃ¬Ġ":11538,"guÄģngĠpÇĶĠ":11539,"ĠĠĠ1991ĠniÃ¡nĠ":11540,"ĠÄģĠlÇĲĠ":11541,"72Ġ":11542,"kmĠ":11543,"ĠĠĠ12ĠyuÃ¨Ġ":11544,"ĠĠĠyÄ«ngĠguÃ³Ġ":11545,"shÃŃĠshÃ¬ĠjÃ¬Ġ":11546,"shÄĵngĠrÃ¬Ġ":11547,"shuÃŃĠ":11548,"mÄĽiĠlÃ¬Ġ":11549,"xiÃłngĠhÃ©Ġ":11550,"tuÇĲĠ":11551,"bÃłoĠfÃ¹Ġ":11552,"jiÇİoĠdeĠ":11553,"ĠshÃ¬ĠyÃŃĠ":11554,"ĠshÃŃĠbÃ¨iĠ":11555,"ĠyÃºĠ2017":11556,"ĠyÃºĠ2023":11557,"lÃ¡iĠyuÃ¡nĠyÃºĠ":11558,"zhÃ¨ĠyÃłngĠ":11559,"bÃ³ĠgÄĽnĠdÃ¬Ġ":11560,"ĠdeĠfÃ¹ĠqÄ«nĠ":11561,"yÃ¡nĠhÇİiĠshÄĽngĠfÃ¨nĠ":11562,"2ĠmÃŃngĠ":11563,"600":11564,"87ĠniÃ¡nĠ":11565,"mĠĠĠ":11566,"ĠxÇĲĠ":11567,"ĠhÃ²uĠyÃºĠ":11568,"ĠĠĠmÃ¹Ġ":11569,"ĠĠĠgÄģiĠdÃ¬Ġ":11570,"shÃłĠ":11571,"qÇĲĠshÃ¬Ġ":11572,"xuÇİnĠdeĠ":11573,"dÃŃĠsÄ«Ġ":11574,"diÄģoĠxiÃłngĠ":11575,"ĠgÅįngĠlÃ¬Ġ":11576,"ĠgÅįngĠdiÃłnĠ":11577,"ĠyÄ«ĠlÃ¹Ġ":11578,"shÄĵngĠrÃ¨nĠ":11579,"ĠsÄ«ĠdÃłĠ":11580,"xiÃłngĠdÅįngĠ":11581,"xÃ¬ngĠgÃ©Ġ":11582,"guÇİnĠlÇĲĠdeĠ":11583,"lÃŃngĠgÇİnĠ":11584,"ÅįuĠmÃ©ng":11585,"pÃ©iĠyÇİngĠ":11586,"yÇĲngĠxiÇİngĠdeĠ":11587,"zhÃłiĠwÃ¹Ġ":11588,"ĠqÄ«ĠxÄ«Ġ":11589,"hÅįngĠzhÃłĠjÄ«Ġ":11590,"af":11591,"lyĠĠĠ":11592,"ĠÙ":11593,"Ġte":11594,"huÃ¡ngĠshÃ¬Ġ":11595,"hÃ¡oĠwÃºĠ":11596,"ĠwÃ¨iĠjÄ«ngĠ":11597,"jÄ«ĠchÇİng":11598,"xÄ«ĠzÃłngĠ":11599,"fÃºĠwÃ¹ĠdeĠ":11600,"ĠtÃ³ngĠniÃ¡nĠ10ĠyuÃ¨Ġ":11601,"ĠhuÃ²ĠwÃ¹Ġ":11602,"Ã¨rĠbÇİiĠ":11603,"shÄģĠtiÃ¡nĠ":11604,"xÃ¬nĠtÃºĠ":11605,"ĠĠĠ1994ĠniÃ¡nĠ":11606,"yÃłĠmÄĽiĠnÃŃĠyÃł":11607,"GB":11608,"ĠrÃ©ngĠ":11609,"shÃ¹ĠgÃ¨Ġ":11610,"jÄ«nĠrÃ¬":11611,"yÃ²uĠzÃłiĠ":11612,"fÅ«ĠsÄ«ĠjÄ«Ġ":11613,"erĠĠĠ":11614,"hÄĽnĠnÃ¡nĠ":11615,"yÃ¬ĠqÇĲĠ":11616,"shÃ¹ĠbÇİi":11617,"fÄģĠdÃ²ng":11618,"xiÃłngĠnÃ¡nĠ":11619,"ĠqÃŃĠfÃ¹Ġ":11620,"guÇİngĠdÅįng":11621,"zÄĵngĠqiÃ¡ng":11622,"ÄģĠgÄĵnĠtÃŃngĠ":11623,"ĠjuÃ©":11624,"ĠzhuÄģn":11625,"ĠmÃŃĠ":11626,"qiÃ¡nĠwÃ¨iĠ":11627,"pÇĶĠdeĠ":11628,"huÃłnĠyÇĴuĠ":11629,"gÄĽiĠshÃ¬ĠzhÅįngĠ":11630,"ĠshÃ¬ĠyÇĲ":11631,"ĠshÃŃĠsÃ¬ĠniÃ¡nĠ":11632,"xÃ¬ngĠbiÃ©":11633,"bÄģoĠkuÃ²ĠleĠ":11634,"xiÇİngĠyÃ¬ngĠ":11635,"ĠduÅįĠcÃ¬Ġ":11636,"gÄģngĠqÃŃnĠ":11637,"qÅ«ĠdeĠfÃ¹ĠzÃ©ĠguÇİnĠxiÃ¡Ġ":11638,"gÃ²ngĠhÃ©ĠdÇİng":11639,"ĠshÃ¬ĠjiÃłnĠdeĠ":11640,"81":11641,"pÇĶĠÄĽrĠ":11642,"tuÄ«ĠjÃ¬n":11643,"kÃłnĠjiÃłnĠ":11644,"guÇĲĠdiÃłnĠ":11645,"ĠshÃŃĠjiÃłnĠ":11646,"ĠjÃŃĠkÄĽĠ":11647,"ĠyÇĲĠzhÄ«Ġ":11648,"wÃ©iĠjÄ«ĠbÇİiĠ":11649,"huÃłĠfÄĵnĠ":11650,"ĠzhÃłnĠtÃ¡iĠ":11651,"tÅįngĠxÃ¬n":11652,"huÃ¡ĠxuÄĽĠ":11653,"tiÄĽĠlÃ¹ĠdeĠ":11654,"ĠrÃ¡nĠhÃ²uĠzÃłiĠ":11655,"zhÄĽngĠtÇĲ":11656,"ÄģnĠhuÄ«ĠshÄĽngĠ":11657,"fĠĠĠ":11658,"ĠhÃ¡ngĠ":11659,"ĠĠĠkÄĵĠ":11660,"ĠĠĠtÃ¡ngĠ":11661,"ĠĠĠtÃ¨ĠzhÄĵngĠ":11662,"ture":11663,"dÃºĠzÃ¬Ġ":11664,"ĠniÃ¡nĠhÃ²uĠ":11665,"dÃ¬ĠfÄģngĠ":11666,"lÃ¬ĠshÇĲ":11667,"ĠdÃ¬ĠxÃŃngĠ":11668,"ĠrÃ©nĠshÄĵngĠ":11669,"ĠÄĽrĠxÄ«Ġ":11670,"ĠbÃ¨iĠkÃ¨Ġ":11671,"shÅ«ĠxiÄĽĠ":11672,"nÃłĠyÃłngĠ":11673,"ĠshÇĴuĠxiÄģnĠ":11674,"ĠĠĠAn":11675,"wÇİnĠjiÄģnĠ":11676,"ĠIĠ":11677,"Ġ1967ĠniÃ¡nĠ":11678,"zhÇĶĠjiÃłoĠliÃłnĠ":11679,"ĠÃłoĠsÄ«Ġ":11680,"sÃłngĠshÄĵngĠ":11681,"qÅ«ĠxiÃłnĠ":11682,"wÃ©nĠjÃŃĠ":11683,"mÇİĠqÃŃĠ":11684,"gÇĶĠsÄ«Ġ":11685,"diÇİnĠxÃŃngĠ":11686,"qiÄģnĠzhÃ¨ngĠ":11687,"bÄģnĠdÃłoĠ":11688,"gÃ¨ngĠdÃłĠ":11689,"pÄ«ĠfÃ¹Ġ":11690,"ĠbÃ¹ĠzhÄ«Ġ":11691,"ĠdÃ¬ĠÃ¨rĠshÃŃĠ":11692,"yÃ¡nĠxÃ¹":11693,"mÄĽiĠguÃ³ĠzÇĴngĠtÇĴngĠ":11694,"bÃ³ĠlÃŃn":11695,"ĠdÄģngĠrÃ¬Ġ":11696,"61Ġ":11697,"Li":11698,"ĠlÇĶ":11699,"ĠshÃŃĠniÃ¡nĠ":11700,"yÃ¬ĠdeĠshÃ¬Ġ":11701,"mÃŃngĠzÃłiĠ":11702,"sÄģnĠguÃ³Ġ":11703,"xiÇİoĠyÃºĠ":11704,"gÇĶĠchÃ©ngĠ":11705,"lÄĵiĠdeĠ":11706,"ĠzhÃ¬ĠjÄ«n":11707,"ĠyÇĴuĠleĠ":11708,"fÄģĠhuÄ«Ġ":11709,"tÃ¨ĠdÃ¬ngĠdeĠ":11710,"bÄĽiĠmÄĽiĠ":11711,"bÃ¬ĠlÇĶ":11712,"yÃ¬ngĠyÃ²ngĠyÃºĠ":11713,"mÃ³ĠnÇĲĠ":11714,"dÃºĠzhÄĽĠ":11715,"tÄ«ngĠzhÇİngĠ":11716,"ĠSt":11717,"kuÃłngĠwÃ¹Ġ":11718,"ĠtÇĲĠyÃ¹Ġ":11719,"zhÇĶĠjiÃłoĠzuÃ²Ġ":11720,"wÃ¹ĠlÇĲĠxuÃ©ĠjiÄģĠ":11721,"shÄĽngĠdÃłoĠtÃ¡iĠ":11722,"leĠyuÃ¡nĠ":11723,"lÇļĠyÃ³u":11724,"ĠshÃ¬ĠfÃłngĠ":11725,"ĠshÃ¬ĠyÃ²ngĠyÃºĠ":11726,"ĠdÃłĠzhÃ¨ngĠ":11727,"ĠchÅ«ĠsÃłiĠ":11728,"biÃłnĠhuÃł":11729,"huÃ³ĠxÃ¬ngĠ":11730,"jÅ«nĠguÄģnĠ":11731,"ÄĵnĠlÃ¡iĠ":11732,"hÄģĠlÄģĠ":11733,"fÄģĠxÃŃngĠleĠ":11734,"wÇİnĠqÄ«Ġ":11735,"jiÄĵĠshÃ²uĠleĠ":11736,"chÃ¡iĠyÃ³uĠjÄ«Ġ":11737,"age":11738,"ĠzÄĵngĠjiÄģĠ":11739,"jÄ«ĠlÃ¬Ġ":11740,"bÅįĠyÄ«nĠ":11741,"pÅįĠÄĽrĠ":11742,"ĠwÃ¨iĠchÃ©ngĠ":11743,"ĠhÃ©ĠkÇĴuĠ":11744,"dÃ¬ĠÃ¨r":11745,"ĠyÄ«ĠkÄģiĠshÇĲĠ":11746,"ĠdÃłĠgÃ©ĠmÃ¬ngĠ":11747,"ĠchÅ«ĠkÇĴu":11748,"ĠyÃ³uĠtÃłiĠrÃ©nĠ":11749,"bÇİoĠÄģnĠ":11750,"tÃŃĠÃłnĠ":11751,"luÃ²ĠbÃłiĠ":11752,"xÃ¬nĠyÃ²ngĠ":11753,"hÃºĠnÃ¡nĠshÄĽngĠ":11754,"diÄģoĠsÃ¹Ġ":11755,"ÄģĠjÄ«ĠtÇİn":11756,"1ĠrÃ¬":11757,"zuÃ²ĠyÇĲĠ":11758,"mÃ¬ngĠdeĠ":11759,"liÃ¡ngĠdeĠ":11760,"gÃłoĠzhÄ«Ġ":11761,"ĠjÃŃĠzhÅįngĠzÃłiĠ":11762,"ĠchÃ©ngĠdÄģnĠ":11763,"ĠyÇĶĠyuÃ¡nĠ":11764,"dÄĽngĠdÃłiĠ":11765,"zhÄģngĠdÄģnĠqÅ«Ġ":11766,"jiÇİnĠchÄĵngĠ":11767,"wÄĵiĠbÃ³Ġ":11768,"huÃłnĠxiÇİngĠ":11769,"kÇĴngĠlÃ³ngĠ":11770,"ĠguÃ³ĠjiÄģĠgÅįngĠyuÃ¡nĠ":11771,"lÇļĠkÃ¨ĠtiÄĽĠdÃłoĠ":11772,"3ĠhÃłoĠ":11773,"SM":11774,"ĠbÃºĠshÃ¬Ġ":11775,"ĠĠĠjiÃłoĠyÃ¹Ġ":11776,"tÃ³ngĠxuÃ©Ġ":11777,"jiÃ¨ĠxiÃłnĠ":11778,"nÃłĠxÄ«Ġ":11779,"ric":11780,"sion":11781,"ĠdeĠgÄģoĠ":11782,"jÃ¬ĠzhÄĽĠ":11783,"yÇĶĠyÃ¡n":11784,"ĠjÃ¬ĠhÃ²uĠ":11785,"ĠÃ©rĠyuÃ¡nĠ":11786,"rÃ¨nĠkÄĽĠ":11787,"ĠjiÃłnĠduÃ¬":11788,"shÄ«ĠzhÇİngĠ":11789,"zhÇĲĠnÃ©ng":11790,"chÃ¡ngĠguÄ«Ġ":11791,"chÃ©nĠmÃ²Ġ":11792,"ĠjÇĲnĠcÃ¬ĠyÃºĠ":11793,"gÄĵĠlÃºnĠbÇĲĠyÃł":11794,"fli":11795,"ĠyÃ¬nĠdÃ¹":11796,"ĠchÃ¡oĠxiÄģn":11797,"zÄĵngĠzhÃ¬Ġ":11798,"ĠlÃ¬ĠyÃºĠ":11799,"ĠyÄ«ĠduÃłnĠ":11800,"ĠsÄ«ĠfÇİ":11801,"ĠÃ©rĠyÇĲĠ":11802,"fÃ¹ĠzÃ¡Ġ":11803,"zhÃ¹ĠmÃŃng":11804,"ĠjÅ«nĠzhÇĶĠ":11805,"fÄĵnĠlÃ¡n":11806,"rÃ¹ĠyÃ¹Ġ":11807,"yÇİnĠjÄ«ngĠ":11808,"biÄģnĠqÅ«Ġ":11809,"ĠcÃ©ngĠjÄ«ng":11810,"ĠkÇİnĠ":11811,"3ĠĠĠ":11812,"MV":11813,"ĠzhÇİnĠ":11814,"ĠjÅ«Ġ":11815,"ĠgÄĽiĠ":11816,"ĠhÃ²uĠzÃłiĠ":11817,"ĠĠĠshuÇĲĠ":11818,"ĠĠĠpÇĶĠ":11819,"wÇĶĠdeĠ":11820,"jiÇĶĠyuÃ¨Ġ":11821,"art":11822,"ĠzhÃ¬ĠcÇĲĠ":11823,"ĠjÃŃĠjÃ¹Ġ":11824,"ĠdÃłĠzhÃłnĠ":11825,"zhÃ¨ĠcÃ¬Ġ":11826,"tiÄģnĠhuÃ¡ng":11827,"tiÄģnĠzhÇĶĠjiÃło":11828,"miÃłnĠqiÃ¡nĠ":11829,"huÇĴĠpÃłoĠ":11830,"ĠxiÃłnĠdeĠfÄĵiĠjiÃłnĠzhÃ¬ĠdÃ¬ĠqÅ«Ġ":11831,"jÇĶĠxÃŃngĠleĠ":11832,"Ġ1934ĠniÃ¡nĠ":11833,"ĠdeĠyÃ¬ĠsiĠ":11834,"ĠtÃ¡i":11835,"zhÄģi":11836,"jÃ¬nĠdÃłiĠ":11837,"liÃºĠchÃ©ngĠ":11838,"hÃ¡ngĠxÃŃngĠ":11839,"ĠshÃŃĠshÄ«":11840,"ĠdÃłnĠwÃ¨iĠ":11841,"ĠjÅ«nĠduÃ¬":11842,"suÇĴĠzhÇİngĠ":11843,"xÃºnĠzhÇİoĠ":11844,
[...]
