#version: 0.2
n g
i 4
a n
s h
z h
ng 1
j i
u 4
ng 2
Ġ Ġ
i 2
a o
x i
ng 4
an 2
i 3
i 1
d e
u 3
an 4
e 4
e n
c h
u o
u 2
ng 3
an 1
e 2
a i4
u 1
ĠĠ Ġ
o ng1
a 1
ã Ģ
sh i4
e i4
ao 4
i an2
a 4
y u
a ng1
y o
an 3
n 1
h u
a ng4
n ian2
en 2
l i
a ng3
e ng2
uo 4
uo 2
w ei4
m i
ao 3
z ai4
ãĢ ģ
b i
q i
a ng2
e 1
h e2
y i
e ng1
zh ong1
e r
b u4
o u4
a 3
e 3
n 4
sh i2
d i4
g uo2
a i2
u i4
r en2
ao 1
x u
y i1
n 2
o ng2
y u2
g u
l i4
zh i4
d i
w e
en 4
ch eng2
o ng4
y i4
g ong1
ji 2
e ng4
en 1
yu e4
yo u3
yu an2
d a4
a 2
l e
j i4
2 0
y i3
j u
a i1
p i
xi an4
o u1
ji a1
s i1
xi ng2
e i3
t i
y u3
ji 1
t a1
r i4
zh i1
h ou4
l i3
o u3
a i3
we i2
hu i4
d ao4
1 9
o ng3
q i2
u an2
zh eng4
mi ng2
xi 1
ao 2
ji an4
xu e2
ch u1
g e4
z uo4
uo 1
sh eng1
d ui4
yo u2
uo 3
q u1
sh ang4
en 3
de 2
b ei4
sh i3
zh u
zh an4
n 3
xi n1
ju n1
er 3
sh e4
r en4
f a1
w u4
bi ng4
k e4
er 2
l u4
d ai4
zh u3
y i2
sh u4
j u4
ji n4
z i4
yi n1
f u4
f ang1
ji ng1
n an2
hu a4
zh ou1
pi ng2
xi a4
l ai2
yo ng4
gu an1
t ong2
y u4
ãĢ ĭ
ãĢ Ĭ
f a3
zh u4
m ei3
Â ·
ji an1
b o
h uo4
b en3
xi ang1
zh i2
d ong4
xi ang4
mi n2
zh e4
ji ang1
q i1
f en1
sh ou3
q uan2
w en2
y an2
s uo3
ji ao4
q ian2
di an4
t e4
d uo1
z ui4
k ai1
ji e2
l ian2
zh i3
x i4
k e3
e ng3
e i1
d an4
m u4
y e4
d u4
f u2
sh u
m a3
y e3
d ong1
qi u2
b ei3
ãĢ Į
ãĢ į
g ao1
y a4
o u2
d u
ji e1
u n2
mi an4
h ai3
zh ang3
sh i1
ji n1
c i3
n ei4
s ai4
s an1
t ai2
g e2
xi ng4
g uo4
20 1
de ng3
y ao4
ch e1
c i4
s u
m o
r u4
w u3
g ai1
k u
di ng4
ch ang2
bi ao3
l a1
t i3
g ong4
ji e4
sh ou4
d ao3
sh an1
ch ang3
s i4
l v
z e2
t i2
k e1
d ang1
n eng2
er 4
w ai4
e i2
ch u
d an1
q i3
z i
k ou3
xi ao3
z u3
b a1
ju e2
li n2
li u2
n i
sh eng3
yi ng1
l an2
b i3
l uo2
t ong1
20 0
zh ong4
zh e3
sh u3
ti an1
zh en4
zh ong3
li e4
q i4
ch eng1
sh u1
yu an4
b ao3
t ai4
f u3
f eng1
m i3
qi ng1
sh en1
w ang2
yu n4
gu an3
f ei1
ji u4
g u3
li ang3
c eng2
m ei2
1 0
f en4
h ao4
y an3
we i3
z ong3
xu an3
xi ao4
d a2
n a4
li ang4
bo 1
z u2
ji ng4
b ao4
n i2
w u2
t ong3
hu a2
ji ao1
yu e1
yi ng3
bi an4
xi ng1
s u4
shu i3
y ang2
m en
b ao1
g e1
bo 2
c an1
c ong2
di an3
r u2
b an4
b i4
bi an1
w ang3
q u3
ch an3
s e4
z i1
q u
0 0
ch uan2
n v
sh eng4
r an2
t u2
zh ang1
x u4
p u3
g ai3
g ang3
nv 3
li ng4
l uo4
yo u4
t ou2
h u4
ch a2
c e4
ch i2
1 8
Ġ de
Ġde Ġ
shi4 Ġ
Ġ shi4Ġ
Ġ nian2
Ġnian2 Ġ
wei4 Ġ
zai4 Ġ
an4 Ġ
Ġ wei4Ġ
Ġ zai4Ġ
an1 Ġ
he2 Ġ
Ġ h
zhong1 Ġ
bu4 Ġ
Ġ he2Ġ
Ġ xi
di4 Ġ
an3 Ġ
shi2 Ġ
guo2 Ġ
ren2 Ġ
yu2 Ġ
Ġ ji
u1 Ġ
Ġ bu4Ġ
Ġ t
Ġ g
Ġ l
li4 Ġ
Ġ zhong1Ġ
yi1 Ġ
zhi4 Ġ
gong1 Ġ
Ġ yue4
Ġ ch
Ġ shi2Ġ
Ġ zh
cheng2 Ġ
Ġ di4Ġ
Ġ yi4
Ġ you3
Ġ m
Ġ ji2
Ġyue4 Ġ
Ġ ren2Ġ
Ġ yu2Ġ
Ġ f
Ġ b
Ġ d
Ġ qi
Ġ zhi4Ġ
Ġ sh
Ġ w
Ġ li4Ġ
Ġ guo2Ġ
Ġ k
Ġ gong1Ġ
Ġ p
Ġ yi3
Ġ da4
Ġ yuan2
ji4 Ġ
i2 Ġ
Ġ xian4
Ġ cheng2Ġ
Ġ z
Ġ ri4
Ġ xing2
Ġ le
Ġ ta1
Ġ c
Ġ yi1Ġ
Ġ yu3
Ġ s
Ġ zhi1
Ġ hui4
Ġ ji1
Ġ si1
Ġ dao4
Ġ ge4
Ġ hou4
Ġ hu
Ġ jia1
Ġ qi2
Ġ ming2
ao4 Ġ
i1 Ġ
Ġyou3 Ġ
u3 Ġ
ang4 Ġ
Ġji2 Ġ
Ġri4 Ġ
Ġ xi1
ang1 Ġ
Ġ xue2
Ġ li3
Ġ wei2
ang2 Ġ
Ġyi4 Ġ
Ġ zheng4
Ġ chu1
Ġ de2
Ġ ji4Ġ
ang3 Ġ
Ġ jian4
Ġ you2
Ġ dui4
Ġ er3
Ġ sheng1
Ġ bei4
Ġ zhan4
Ġ shang4
Ġ r
Ġ li
Ġyuan2 Ġ
Ġ er2
Ġ zhu
Ġ y
Ġ bing4
Ġ 1
Ġ shi3
Ġ ren4
qu1 Ġ
Ġhou4 Ġ
Ġxian4 Ġ
Ġ gu
Ġyi3 Ġ
Ġ yin1
Ġ she4
Ġ ju4
Ġ jun1
Ġ ti
Ġyu3 Ġ
Ġ yong4
Ġ ke4
Ġ wu4
Ġ zhu3
Ġ jin4
Ġ zi4
Ġ fa1
Ġ zhou1
Ġxing2 Ġ
Ġ bi
ao2 Ġ
ong2 Ġ
Ġ 19
Ġ fang1
Ġ lu4
Ġ zuo4
Ġ yi
Ġ ping2
n4 Ġ
Ġ jing1
Ġsi1 Ġ
Ġ yu4
ng2 Ġ
Ġ nan2
Ġ dan4
ai4 Ġ
Ġ fu4
Ġdao4 Ġ
Ġ dong4
Ġ shu4
Ġ dai4
Ġ zhe4
Ġ huo4
Ġ n
Ġ guan1
Ġta1 Ġ
Ġ hua4
u2 Ġ
Ġming2 Ġ
Ġ pi
Ġzhi1 Ġ
Ġ lai2
Ġ xiang4
Ġ xi4
Ġ jiang1
Ġ x
Ġ tong2
Ġ jiao4
ao3 Ġ
Ġ xin1
a1 Ġ
Ġzheng4 Ġ
Ġjia1 Ġ
Ġxi1 Ġ
Ġji1 Ġ
Ġ xu
Ġ sai4
Ġ shou3
Ġ zhu4
Ġ fen1
Ġ fa3
Ġ xia4
Ġ mu4
yi2 Ġge4
Ġ mian4
Ġ xiang1
Ġ j
4 Ġ
Ġ zhi2
a3 Ġ
Ġle Ġ
Ġ ye3
Ġ ke3
Ġ wen2
Ġ ma3
Ġ qian2
Ġ mei3
Ġ qiu2
Ġhui4 Ġ
Ġ ci3
n3 Ġ
Ġ yan2
Ġ zhi3
Ġ duo1
Ġ quan2
Ġ te4
Ġ zui4
Ġ suo3
Ġ gao1
Ġ ge2
Ġ jie2
Ġ jie1
Ġ biao3
ng3 Ġ
Ġ guo4
Ġ ti3
n1 Ġ
Ġ yao4
i3 Ġ
Ġ jian1
e4 Ġ
Ġ fu2
Ġ deng3
Ġxue2 Ġ
Ġ hai3
Ġ mi
Ġ qu1Ġ
Ġ gai1
Ġ 2
ai2 Ġ
Ġ chang2
Ġ du4
Ġ shou4
Ġ lian2
Ġ lan2
Ġ che1
Ġ bei3
Ġ zhang3
Ġ ru4
Ġ qi1
Ġ dian4
Ġ ti2
Ġ ze2
Ġ dong1
Ġ xing4
Ġ luo2
Ġ ci4
Ġ dang1
Ġ ding4
Ġ ben3
Ġ ye4
Ġ du
Ġ dao3
Ġ shi1
Ġwei2 Ġ
3 Ġ
Ġli3 Ġ
Ġ sheng3
Ġ jin1
Ġwu4 Ġ
Ġ tong1
Ġ su
Ġ lv
Ġ wai4
Ġ tai2
Ġ kai1
Ġ tong3
Ġ zi
Ġ chu
Ġ nei4
Ġ shu1
Ġ liu2
Ġ zu3
Ġ la1
Ġ bi3
Ġ shan1
1 Ġnian2Ġ
0 Ġnian2Ġ
Ġ lie4
Ġ neng2
Ġ lin2
5 Ġnian2Ġ
Ġ wu3
4 Ġnian2Ġ
Ġ zhong4
2 Ġnian2Ġ
Ġ xiao3
Ġ shu3
Ġ si4
Ġ cheng1
Ġ ying1
Ġ ya4
Ġ chang3
3 Ġnian2Ġ
Ġ jue2
Ġ min2
Ġ feng1
Ġ dan1
Ġ ke1
Ġxi e1
Ġ mo
Ġk uo4
Ġ gong4
Ġ shen1
Ġ liang4
Ġ hao4
Ġ ku
8 Ġnian2Ġ
6 Ġnian2Ġ
Ġ yan3
Ġ ying3
Ġyue4Ġ 2
Ġ mei2
20 2
Ġ gang3
Ġ qi4
Ġ ceng2
Ġ tian1
Ġ zong3
Ġ di
Ġ bao1
Ġg ou4
li3 Ġ
Ġ san1
Ġ jiu4
7 Ġnian2Ġ
Ġ xuan3
Ġ fei1
Ġ 3
Ġt uan2
Ġzh eng1
Ġyue4Ġ 1
Ġ jing4
Ġ qu3
Ġ yang2
Ġ yun4
Ġ zhong3
Ġ ba1
Ġd ou1
Ġ bao3
Ġqi an1Ġ
Ġ yi2
Ġ tai4
Ġ gu3
Ġ liang3
Ġ wang3
Ġ zhe3
Ġ da2
Ġ qi3
mi3 Ġ
Ġ guan3
Ġ qu1
Ġ chan3
Ġzhong1Ġ guo2Ġ
Ġ jiao1
Ġ an1Ġ
Ġ yuan4
Ġwei4Ġ yu2Ġ
Ġ hu4
Ġxi an1Ġ
Ġ wu2
Ġl u
Ġ ni2
Ġ cong2
Ġ qing1
Ġ bian4
Ġ bian1
Ġ dian3
Ġ q
Ġ jie4
Ġ zu2
o r
ĠĠĠ 19
Ġ bi4
Ġ wei3
Ġ shui3
Ġ 201
Ġb an1Ġ
Ġf u1Ġ
Ġ na4
Ġw an1Ġ
Ġ bao4
Ġ ling4
Ġ you4
Ġsh uo1
Ġ 5
Ġ 200
Ġl ei4
9 Ġnian2Ġ
Ġzh an3Ġ
Ġ bo2
Ġh uo2
Ġxi e2
Ġf an3Ġ
Ġsh en2
Ġm i4
Ġ xiao4
Ġ zhang1
Ġ ran2
Ġ xing1
Ġ ji4
Ġ wang2
Ġc u
Ġ an4Ġ
Ġ bo1
Ġ se4
Ġ fu3
Ġl i2Ġ
Ġb an3Ġ
Ġm eng2
Ġch en2
Ġ can1
Ġl un2
Ġw o
Ġ ru2
Ġh an4Ġ
Ġzhan4 Ġ
Ġ cheng2
Ġw an4Ġ
Ġh an2
Ġji a4
Ġ ge1
Ġta1Ġ men
Ġ ni
e ĠĠĠ
Ġ yue1
Ġm en2
Ġ sheng4
Ġ ce4
Ġ chi2
â Ģ
Ġ su4
Ġping2 Ġfang1
Ġ luo4
Ġcheng2Ġ wei2
Ġ zi1
Ġbi e2
Ġ zhen4
Ġgong1Ġ si1
Ġp o
Ġbi ao1
Ġ pu3
Ġk ong1
Ġji e3
Ġ gai3
Ġg en1
Ġji an3Ġ
u4 Ġ
Ġ tou2
a Ġ
Ġ 4
mei3 Ġguo2Ġ
Ġ yi1
Ġji 3
Ġh ai2
Ġbu4Ġ fen4
Ġ ban4
Ġw an2
Ġf an4Ġ
t Ġ
Ġx i2Ġ
Ġ er4
Ġji u1Ġ
o n
Ġ qu
Ġ chuan2
Ġg uo3
Ġmi ng4
Ġxi ao1
we i1Ġ
Ġ 6
Ġzh en1
1 2
Ġg eng4
Ġxi u1Ġ
Ġ nv3
Ġ zhong1
Ġren2Ġ kou3
Ġ tu2
ĠdeĠ di4Ġ
a r
Ġxi ang3Ġ
Ġ shu
Ġqi e3
Ġ hua2
Ġshi4Ġ jie4
Ġgong1Ġ li3Ġ
Ġxi a2
Ġshi3 Ġyong4
Ġzhu an1Ġ
Ġzheng4Ġ fu3
Ġbao1 Ġkuo4
Ġ yo
Ġsh ou1
Ġz ong1
ĠĠĠ 201
Ġt uo1
Ġc i2Ġ
Ġw u1Ġ
Ġs u1Ġ
Ġ xu4
Ġqi2 Ġzhong1Ġ
Ġgu i1Ġ
Ġs ui4
Ġg u4
Ġde ng1
Ġguo2Ġ jia1
Ġx u1Ġ
ĠdeĠ yi1Ġ
Ġ zhi4
ĠdeĠ yi2Ġge4
Ġ fen4
Ġyu2Ġ 19
Ġ cha2
ĠdeĠ shi4Ġ
ĠĠĠ zai4Ġ
yi ng4
Ġp ei4
1 1
Ġsh ang1Ġ
Ġt u
Ġchu1 Ġ
Ġji ang3Ġ
Ġta1 ĠdeĠ
ren2Ġ kou3
Ġhu i2Ġ
Ġf ei4
e Ġ
Ġch ao2
Ġ 7
Ġ li4
Ġt ang2Ġ
Ġ yu
Ġm an4Ġ
Ġt ian2
Ġ shi2
Ġ 10
Ġb ai3
Ġri4Ġ ben3
Ġl ong2Ġ
Ġbi ng1
mo 2
s Ġ
Ġji ng3
Ġren2Ġ min2
Ġ 8
Ġmo 2
Ġshi4Ġ yi1Ġ
zuo4 Ġ
Ġli ng3
Ġc ai3
Ġer3 Ġ
Ġyin1 Ġci3
1 Ġ
Ġti e3
Ġdu an4Ġ
Ġshi4Ġ wei4Ġ
Ġsh a1
Ġ ren2
Ġd ang3Ġ
Ġji n3
Ġyi ng4
Ġsai4 Ġ
Ġr ong2Ġ
Ġzh u1Ġ
Ġhuo4 Ġde2
Ġm u3Ġ
Ġch u4
Ġ a1
Ġc ai2
Ġd u1Ġ
Ġch ao1
Ġmei3 Ġguo2Ġ
Ġh uo3
Ġ C
Ġ kou3
i n
Ġw en4
Ġ ã
Ġhu an2
Ġzhu an3Ġ
Ġc un2
Ġd ang3
Ġz eng1
Ġs a4
Ġju4 Ġ
shi4 ĠdeĠ
Ġg an3Ġ
Ġ bu4
Ġ 18
Ġh en3
Ġti ng1
zhong1Ġ guo2Ġ
Ġs ong4
Ġ S
s ĠĠĠ
Ġqi ng2Ġ
Ġqi n1
Ġhe2Ġ guo2Ġ
zhen4 Ġ
Ġlu4 Ġ
Ġpi an4Ġ
Ġyi3 Ġji2Ġ
Ġ A
an4 ĠdeĠ
0 Ġ
Ġdong4 Ġ
Ġhua4 Ġ
Ġjian4 Ġ
Ġ 9
âĢ Ķ
Ġ e2
Ġg ei3
u l
Ġd u2
Ġlv 4
Ġxi4 Ġ
Ġh ang2
Ġkai1 Ġshi3
Ġ yi2Ġge4
Ġp ai2
Ġda4 Ġxue2
Ġj u1Ġ
Ġz i3
Ġ19 9
Ġk a3
Ġl ong2
Ġ guo2
we i1
Ġzhu3 Ġyao4
Ġf ang4Ġ
Ġdai4 Ġbiao3
Ġzhu ang1Ġ
Ġyou2 Ġyu2Ġ
Ġyu4 Ġ
Ġzh eng3
ĠdeĠ h
Ġ di4
Ġji ng3Ġ
Ġqi ang2Ġ
Ġch u3Ġ
Ġtong2 Ġshi2Ġ
ĠĠĠ di4Ġ
Ġh ang2Ġ
Ġxu an1Ġ
a l
Ġgu ang3Ġ
li4Ġ shi3
Ġf ang2Ġ
Ġhu ang2
Ġhu an4Ġ
Ġti ng2Ġ
Ġzhang3 Ġ
Ġshang4 Ġ
2 Ġ
Ġl ou2
Ġd i2Ġ
du an4Ġ
Ġq u4
hou4 Ġ
Ġ M
Ġtu i1Ġ
Ġji u3Ġ
Ġ ju
Ġzai4Ġ 19
Ġxu n2
ti e3
Ġ1 5
Ġy a2
Ġsh a1Ġ
Ġxi e3
Ġhu ang2Ġ
Ġli an4Ġ
Ġxi n4
Ġs en1
kai1 Ġshi3
Ġli4Ġ ya4
Ġji a3
Ġping2 Ġ
Ġs ai1
Ġyin1 Ġwei4Ġ
Ġpi n3Ġ
Ġm u3
Ġ mi3
Ġr ong2
Ġdi4Ġ yi1Ġ
Ġdui4 Ġ
Ġchu an1Ġ
Ġk ong4
Ġke4 Ġ
Ġxiang1 Ġgang3
Ġyi n3
Ġ gong1
Ġsu i2Ġ
Ġk a3Ġ
fa3 Ġguo2Ġ
Ġsheng1 Ġ
Ġyong4 Ġ
Ġdi4Ġ er4
ĠdeĠ shi2Ġ
Ġ 20
Ġh u2
or m
Ġlu n4Ġ
Ġyan2 Ġjiu1Ġ
Ġshi4Ġ ji4Ġ
Ġren4 Ġwei2
Ġle i2Ġ
Ġxi an2
Ġz ao4
Ġh a1
Ġ wei1Ġ
Ġping2Ġfang1 Ġgong1Ġli3Ġ
20 Ġnian2Ġ
Ġzhu ang1
Ġh ei1
Ġzhong1Ġ xin1
Ġzh ao4Ġ
Ġp ai4
Ġr eng2
ĠĠĠ S
Ġxi4 Ġtong3
Ġpi n3
xiang1 Ġgang3
Ġg e
Ġjian1 Ġ
Ġxi ang3
Ġwai4 Ġ
Ġh ong2Ġ
Ġyi ng2
Ġnian2 ĠdeĠ
yuan2 Ġ
wu4 Ġ
Ġ mi3Ġ
Ġb ei1
Ġj u3Ġ
Ġdi4Ġ qu1Ġ
ul aĠ
Ġp an4Ġ
Ġj u3
Ġlu n4
Ġxi an3Ġ
orm ulaĠ
Ġyun4 Ġdong4
Ġgu an4Ġ
Ġmu4 Ġ
Ġyi ng2Ġ
Ġt an2
Ġch u2
hua4 Ġ
Ġch ong1
Ġgu ang1Ġ
Ġ ao4Ġ
Ġhu i1Ġ
ri4 Ġben3
ni an4Ġ
Ġ yu2
Ġti ao2
jian1 Ġ
Ġbu4Ġ tong2
ĠĠĠ 200
Ġshi4Ġ zai4Ġ
Ġshuo1 Ġ
Ġzhong1 ĠdeĠ
Ġ19 8
Ġh eng2
Ġzhe4 Ġxie1
t ĠĠĠ
Ġzhong1Ġ y
Ġz ao4Ġ
Ġh ong2
u3Ġ duo1
Ġ1 6
t h
Ġq un2
Ġcu n1Ġ
Ġlv 4Ġ
Ġmo 4
Ġshu4 Ġ
Ġzhi1 Ġyi1Ġ
Ġ B
Ġti ng2
Ġd ou4
Ġb a2
Ġde2 Ġ
Ġw a3
Ġzhou1 Ġ
bi ng1
Ġbiao3 Ġshi4Ġ
Ġdan1 Ġren4
Ġj u2Ġ
Ġke3 Ġneng2
d ĠĠĠ
ku ang4Ġ
Ġjin4 Ġxing2
ĠdeĠ xi
Ġji n3Ġ
Ġt a3
Ġd a3
Ġz uo3
Ġzhong1Ġ hua2
Ġ T
Ġb ang1Ġ
Ġm ai4
li u4
ĠdeĠ qi
Ġfa3 Ġ
Ġ I
Ġch ong2Ġ
Ġj u2
Ġzuo4 Ġ
ĠdeĠ ji
ĠĠĠ 202
Ġd u2Ġ
Ġy ao1
Ġk an4Ġ
Ġh u2Ġ
Ġke3 Ġyi3
zheng4 Ġfu3
Ġg ao4Ġ
Ġshi4Ġ jian4
n4Ġ du4
Ġn uo4
Ġ 202
dian4 Ġying3
Ġr ui4
Ġh ao3
Ġl e4
Ġ1 2
Ġyi n2
Ġdeng3 Ġ
Ġyue4Ġ 3
Ġgong4 Ġhe2Ġguo2Ġ
Ġch ong2
ĠdeĠ g
Ġhou4Ġ lai2
ĠĠĠ g
a m
Ġmian4 Ġji1Ġ
tai2 Ġwan1Ġ
Ġxiang4 Ġ
Ġpo 4
Ġshi1 Ġ
Ġzhu ang4Ġ
Ġb u2
Ġ ai4
Ġming2 Ġwei4Ġ
Ġk u4
Ġy an4Ġ
o u
Ġge2 Ġ
Ġjian4 Ġzhu4
Ġh u1Ġ
m en2
mo 4
Ġqu e4
Ġch ao2Ġ
Ġxia4 Ġ
Ġjun1 Ġ
Ġxue2Ġ yuan4
Ġy ong1
Ġb ai2
Ġ P
Ġti ao2Ġ
Ġzuo4 Ġwei2
Ġji u3
Ġshi2Ġ qi1
ï ¼
Ġtai2 Ġwan1Ġ
Ġz i3Ġ
5 Ġ
ĠĠĠ sheng1
Ġguo2Ġ ji4Ġ
an3 ĠdeĠ
Ġqi n2
Ġt u3Ġ
Ġxi n4Ġ
Ġ D
Ġp ai2Ġ
Ġb ai4
Ġp i1Ġ
Ġ ao4
Ġt u1Ġ
Ġyi3 Ġji2
a ĠĠĠ
Ġcu n1
Ġzh u2
Ġt an3Ġ
Ġsheng3 Ġ
Ġli ng3Ġ
Ġt ang2
ĠdeĠ sh
Ġli u4
Ġchu ang4Ġ
r i
Ġ ou1
Ġ1 7
0Ġnian2Ġ dai4
ĠdeĠ c
Ġli ng2Ġ
Ġt ui4
Ġli ao4Ġ
zhang3 Ġ
Ġt ao2
Ġlai2 Ġ
Ġn a2
Ġmei2 Ġyou3Ġ
ĠdeĠ f
Ġxue2Ġ xiao4
ĠdeĠ gong1Ġ
Ġf an1Ġ
l ei4
Ġji ang4Ġ
an3 Ġshi4Ġ
Ġzi4 Ġji3
zheng4 Ġzhi4Ġ
Ġg an1Ġ
Ġ19 4
Ġcheng2Ġ li4Ġ
Ġw en1
Ġf ang2
5 Ġri4Ġ
Ġguan1 Ġ
19 Ġnian2Ġ
Ġli ng2
Ġxing2 ĠdeĠ
Ġshou3 Ġ
Ġzheng4 Ġshi4Ġ
Ġxing4 Ġ
Ġtong1 Ġguo4
Ġping2Ġfang1 Ġqian1Ġ
w u1Ġ
Ġta1 Ġzai4Ġ
Ġxu n4
Ġg ui4
t u
Ġw an3Ġ
u an3Ġ
zhu an1Ġ
Ġji ao3
Ġchang3 Ġ
Ġmian4 Ġ
Ġqi ao2
Ġdi4Ġ qu1
Ġli4Ġ shi3
Ġzi Ġ
Ġdi ao4Ġ
pi an4Ġ
ĠĠĠ f
lu4 Ġ
Ġli ang2Ġ
Ġyi3Ġ jing1
Ġzui4 Ġzhong1Ġ
Ġw ang4Ġ
Ġxian4 ĠdeĠ
Ġda4 ĠdeĠ
Ġqi2 Ġta1
yan2 Ġjiu1Ġ
Ġqi n1Ġ
chang3 Ġ
Ġqi ao2Ġ
s t
ĠdeĠ zhu3
Ġf a2
Ġh e4
Ġdian4 Ġying3
Ġzh e
Ġshu3 Ġyu2Ġ
Ġsh an4Ġ
Ġren4 Ġ
Ġshi3 Ġ
gu ang3Ġ
Ġdang1 Ġshi2Ġ
Ġxi ong1
r o
guo2Ġ jia1
Ġb ai4Ġ
ke4 Ġlan2
Ġqi ng4
Ġsh ang1
ĠdeĠ ren2Ġ
Ġ19 7
Ġzhi1 Ġhou4Ġ
Ġti2 Ġ
Ġyu2Ġ 201
n uo4
Ġxi e4
Ġz ao3
e l
Ġxi u4
ĠĠĠ C
li4Ġshi3 Ġ
j u1Ġ
Ġs ong1
Ġti3 Ġ
i1Ġ ran2
Ġren2Ġmin2 Ġgong4Ġhe2Ġguo2Ġ
1 Ġri4Ġ
6 Ġri4Ġ
gu i1Ġ
Ġke3 Ġyi3Ġ
Ġzheng4 Ġzhi4Ġ
Ġz ou3
dian4 Ġshi4Ġ
4 Ġri4Ġ
Ġhao4 Ġ
Ġh ai2Ġ
Ġc ai2Ġ
Ġl u2
Ġwo 3
Ġdian3 Ġ
Ġer2 Ġ
7 Ġri4Ġ
Ġt a3Ġ
Ġ19 5
Ġr uo4
Ġ 00
w an2
xu an1Ġ
ĠdeĠ ch
ĠdeĠ p
1 Ġyue4Ġ
Ġqi ng2
Ġz an4Ġ
Ġle i1Ġ
Ġg eng1
Ġzhu n3
Ġxu n4Ġ
Ġshi4Ġ f
Ġzhe4 Ġge
Ġli4Ġ ru2
ĠĠĠsheng1 Ġping2Ġ
Ġb ai2Ġ
r e
6 Ġ
Ġjin4 Ġxing2Ġ
Ġwei3 Ġyuan2
Ġgen1 Ġju4
Ġji ao3Ġ
Ġhu a1
ĠdeĠ cheng2Ġ
Ġz ao1
Ġfa1 Ġsheng1
Ġgu ang3
Ġshe4 Ġ
Ġyi n3Ġ
Ġye3 Ġshi4Ġ
Ġfu4 Ġze2
Ġch u3
Ġsh en3
jun1 Ġ
Ġf eng4
Ġmi4 Ġdu4
Ġyu n2
Ġdian4 Ġshi4Ġ
Ġch u2Ġ
Ġ en1
ĠdeĠ da4
Ġdi ng1
Ġye4 Ġ
ĠdeĠ zh
Ġjin4 Ġru4
y ĠĠĠ
Ġbing4 Ġqie3
Ġyou2 Ġxi4
Ġdao3 Ġ
Ġzhong1Ġy ang1Ġ
Ġzhi1Ġ jian1
Ġshi4Ġ zhen4Ġ
Ġda4 Ġxue2Ġ
Ġshi4Ġ zhong1Ġ
q u4
Ġping2Ġfang1Ġqian1Ġ mi3Ġ
ĠdeĠ m
Ġsi1Ġ te4
Ġmi an3Ġ
Ġgong1Ġ zuo4
Ġ ai1
1 7
bao1 Ġkuo4
Ġm an3Ġ
Ġp ai4Ġ
Ġ E
Ġsh en4
ĠdeĠ t
Ġda4 Ġ
Ġfa1 Ġzhan3Ġ
Ġlv 3
Ġ a1Ġ
Ġgong1Ġ cheng2Ġ
xia4 Ġ
Ġ1 Ġ
ĠdeĠ k
Ġ shi4ĠdeĠ
zi Ġ
Ġzh ao4
di ao4Ġ
Ġl i2
Ġd i1Ġ
Ġpi ao4Ġ
Ġcheng2 Ġshi4Ġ
Ġ19 6
ĠdeĠ guan1
Ġji1 Ġwei4Ġ
ĠdeĠ ji1
y an4Ġ
ĠĠĠ li4Ġshi3Ġ
Ġzh a4
9 Ġyue4Ġ
lv 4
Ġzh ao1
Ġg ang1Ġ
Ġni2 Ġya4
Ġ 0
qu e4
d ou1
su an4Ġ
zhe3 Ġ
a c
Ġ1 4
Ġp a4
ĠĠĠ M
Ġf ang4
1 5
chu ang4Ġ
Ġp i2Ġ
Ġs i3Ġ
Ġshi4Ġ you2
3 Ġyue4Ġ
Ġche1 Ġ
Ġk ao3Ġ
y a2
Ġqi ng3
Ġl ao3
x u1Ġ
Ġying1 Ġguo2Ġ
Ġti2 Ġgong1Ġ
Ġb u3Ġ
Ġshi2Ġ jian1
Ġgou4 Ġ
7 Ġyue4Ġ
10 Ġyue4Ġ
ĠĠĠ de
Ġd a3Ġ
a t
Ġte4 Ġ
o l
Ġp eng2
Ġl u3Ġ
Ġzhe3 Ġ
Ġz a2
Ġs i3
Ġmin2 Ġguo2Ġ
Ġshe4 Ġji4Ġ
12 Ġyue4Ġ
Ġyin1 Ġ
Ġtong2 Ġnian2Ġ
Ġji a3Ġ
Ġ H
Ġji ang4
ĠdeĠ xing2
Ġzheng1 Ġ
Ġ L
Ġren2Ġkou3 Ġmi4Ġdu4
Ġyo ng3
Ġch ang4Ġ
8 Ġyue4Ġ
5 Ġyue4Ġ
1 6
Ġ N
Ġdi4Ġ san1
ĠdeĠ bu4Ġ
Ġy ang3Ġ
Ġ1 3
Ġc i2
Ġji4Ġ shu4
wei3 Ġyuan2
Ġji ang3
Ġbi n1
yi1 Ġxie1
Ġt an4Ġ
Ġd i3
Ġqi2 Ġ
20 20Ġnian2Ġ
Ġcheng1 Ġ
Ġshi4Ġ yi2Ġge4
Ġl u3
Ġ R
Ġ19 3
Ġse4 Ġ
tong1 Ġguo4
Ġd uo2
Ġdan4 Ġshi4Ġ
shi3 Ġyong4
Ġqi ang2
Ġ G
Ġfen1 Ġbie2
Ġt u3
Ġshou4 Ġ
u1 Ġshi4Ġ
bi ao1
Ġgong1Ġsi1 Ġ
6 Ġyue4Ġ
Ġshang4 ĠdeĠ
ying1 Ġguo2Ġ
ĠĠĠ h
Ġyue4Ġ1 Ġri4Ġ
l u
Ġy a1
Ġwo 3Ġ
Ġbing4 Ġzai4Ġ
Ġyin1 Ġyue4Ġ
4 Ġyue4Ġ
Ġmu4 Ġqian2
Ġqi u1Ġ
Ġxi1Ġ ya4
wang2 Ġ
Ġp ei2
ĠdeĠ hu
Ġzhi1Ġ chi2
huo4 Ġde2
y Ġ
Ġquan2 Ġguo2Ġ
Ġy ang4Ġ
Ġwen2 Ġ
ĠdeĠ z
j u3
d Ġ
zhu an3Ġ
q un2
x i2Ġ
Ġw a3Ġ
ĠĠĠ A
Ġg an4Ġ
Ġji2 Ġtuan2
Ġli ang2
Ġxu an2
Ġg tĠ
Ġzhu4 Ġ
Ġk ong3
lv 3
Ġbu4Ġfen4 Ġ
Ġshi4Ġwei4Ġ yu2Ġ
Ġ F
Ġr e4
lv 4Ġ
Ġmo 4Ġ
Ġzhu3 Ġyi4Ġ
Ġluo2 Ġsi1
Ġg u1Ġ
Ġz u
Ġwei4Ġ le
ti on
7 Ġ
Ġxing2 Ġzheng4Ġ
Ġbu4Ġ ji
Ġ wei1
Ġch e4
C Ġ
Ġzhi2 Ġ
Ġjia1Ġ ru4
ke3 Ġneng2
Ġm ai4Ġ
Ġshi4Ġ shi4Ġ
ĠdeĠ zuo4
Ġl tĠ
11 Ġyue4Ġ
Ġbu4Ġ dui4
Ġxuan1Ġ bu4Ġ
Ġbu4Ġ guo4
Ġsu i1Ġran2
Ġgu i1
Ġle i1
Ġh ao2Ġ
Ġf an2
s u1Ġ
Ġsheng1 Ġhuo2
Ġb a3
Ġwen2 Ġhua4
Ġtong1 Ġchang2
Ġshi4Ġ di4Ġ
Ġxian4 Ġzai4Ġ
ren2Ġ min2
Ġt ou4
Ġg ai4Ġ
Ġgu ang1
s i
Ġy e2
Ġzhi4Ġ zuo4
Ġxi 3
Ġshu ang1Ġ
8 Ġ
Ġ men
8 Ġri4Ġ
ĠdeĠ yi4
Ġx u3Ġduo1
Ġwo 4
Ġyao1 Ġqiu2
Ġji4Ġ hua4
Ġle Ġyi1Ġ
ĠĠĠ ji
Ġyu2Ġ 200
Ġyuan4 Ġ
Ġpo 1
Ġcheng1 Ġwei2Ġ
Ġx i2
Ġm ao2Ġ
ji2 Ġ
sh ao3
Ġcai3 Ġyong4
Ġpi n2
Ġdang1 Ġdi4Ġ
Ġshi4Ġ zhen4
Ġzh e2
ying3 Ġxiang3Ġ
Ġgao1 Ġdu4
Ġyan2 Ġ
Ġxu1Ġ yao4
Ġtie3 Ġlu4
ti ao2
Ġxia2 Ġ
Ġjiao4 Ġyu4
Ġch i4
Ġn ong2Ġ
ĠdeĠ d
qi an1Ġ
Ġg ao4
Ġk ai3
yu an3Ġ
Ġjing1 Ġ
ĠdeĠ yuan2
Ġji4Ġ xu4
Ġyi4Ġ shu4
jian4 Ġ
an4 Ġshi4Ġ
Ġzai4Ġ di4Ġ
Ġcheng2Ġ yuan2
ĠĠĠ P
Ġsh ao3
Ġda4 Ġli4Ġ
Ġk an1Ġ
Ġk ang1Ġ
ĠdeĠ shu4
Ġy ang4
li ng3
chu an1Ġ
Ġ1 1
dai4 Ġbiao3
2 Ġyue4Ġ
Ġc uo4
an1 ĠdeĠ
Ġt i4
shi1 Ġ
Ġp ai1
ye4 Ġ
Ġch u4Ġ
Ġlai2 Ġzi4
ti ng1
fa1 Ġzhan3Ġ
Ġgong1Ġ zuo4Ġ
xu n2
Ġshe4 Ġhui4
ĠdeĠ ji4Ġ
Ġqi4 Ġ
ĠdeĠ zui4
Ġdai4 Ġ
Ġyi4Ġ zhi2
Ġjie2 Ġ
Ġyi n4Ġdu4
Ġban1Ġ ya2
Ġr ang4Ġ
Ġzhi3 Ġ
Ġr ang4
Ġchao1 Ġguo4
ĠdeĠ xin1
Ġyou3 Ġyi1Ġ
Ġnan2 Ġ
Ġshu1 Ġ
Ġpi an1Ġ
sh en2
3 0
bao3 Ġhu4
Ġding4 Ġ
p o
Ġqi2 Ġta1Ġ
mi ng4
Ġzu2 Ġqiu2
cheng1 Ġ
Ġshang4 Ġhai3
Ġm ou2
Ġfen1 Ġbu4Ġ
Ġyong4 Ġyu2Ġ
Ġã ĥ
wai4 Ġ
Ġzhu3 Ġjiao4
cheng2 Ġshi4Ġ
hu i2Ġ
qi1 Ġ
Ġhai3 Ġba2
gu an4Ġ
5 0
Ġg ang1
Ġzhong1Ġ gong4
Ġcheng2Ġ gong1Ġ
Ġhuo2 Ġdong4
Ġji 3Ġ
Ġ J
Ġri4 Ġzai4Ġ
Ġyi4 Ġyuan2Ġ
Ġh ai4Ġ
Ġzh ang4Ġ
dai4 Ġ
Ġde2 Ġguo2Ġ
ĠdeĠ sheng1
Ġhang2 Ġkong1
Ġren4 Ġwei2Ġ
ĠdeĠ b
Ġh a1Ġ
Ġcan1 Ġyu4
Ġyi4 Ġwei4Ġ
zh en1
Ġzhe4 Ġzhong3
Ġd i1
Ġqu3 Ġ
yi1 Ġwei4Ġ
Ġzh Ġ
Ġjin4 Ġ
Ġshi4Ġ he2Ġ
Ġdao3 Ġzhi4Ġ
ĠĠĠ T
Ġzhu n3Ġ
wen2 Ġhua4
Ġqian2 Ġwang3
Ġdui4 Ġyu2Ġ
Ġ2 Ġ
biao3 Ġshi4Ġ
Ġzi4 Ġyou2
dan1 Ġren4
li ng2
er Ġ
ĠĠĠ19 9
o f
ĠĠĠ B
Ġfeng1 Ġ
Ġs an4Ġ
w o
ĠĠĠ z
Ġhu a1Ġ
2 Ġri4Ġ
Ġf ormulaĠ
Ġmei2 Ġyou3
Ġyan3 Ġ
ĠdeĠ he2Ġ
o m
Ġwan2 Ġcheng2Ġ
Ġtai2 Ġ
Ġyo u1Ġ
o 2
zhong3 Ġ
bao4 Ġ
Ġsheng1 Ġyu2Ġ
Ġzhu ang4
Ġma3 Ġwei4Ġ
9 Ġri4Ġ
Ġluo2 Ġsi1Ġ
i l
Ġhu i2
Ġch ang4
pi an1Ġ
Ġfa1 Ġ
3 Ġri4Ġ
Ġl a4
Ġdi4Ġ fang1
ĠĠĠ you2
ĠĠĠ xing2
dian3 Ġ
Ġgu i3
Ġdan1 Ġwei4Ġ
Ġxi ang2Ġ
ĠdeĠ fu4
Ġt eng2
Ġfa3 Ġguo2Ġ
du4 Ġ
Ġsh ao4Ġ
Ġw ang4
Ġlian2 Ġmeng2
ĠĠĠ ben3
Ġyou3Ġ guan1
Ġdu4 Ġ
ou1 Ġzhou1
Ġd i2
mo 4Ġ
Ġf ang3
Ġjia4 Ġ
r Ġ
Ġch ou2
Ġp ao4Ġ
ï¼ į
yi n3
Ġm ao4
Ġte4 Ġbie2
Ġqi1 Ġjian1
Ġquan2 Ġ
ĠĠĠ shi4Ġ
Ġku ai4Ġ
9 Ġ
Ġqiu2 Ġ
Ġh e4Ġ
Ġã ģ
Ġguo3 Ġ
c u
su i2Ġ
Ġz ao3Ġ
ĠĠĠdi4Ġ li3Ġ
ĠdeĠ shou3
Ġk ao3
Ġzhu3 Ġ
Ġm eng4
Ġd ang4Ġ
Ġshi4Ġ g
Ġren2Ġ yuan2
Ġk ang1
Ġzhong1Ġ xue2
Ġsh ao4
yu n2
Ġzhi1 Ġhou4
Ġfen1 Ġ
Ġbi3 Ġsai4
e t
Ġbei4 Ġ
xian4 Ġ
ĠdeĠ qi2
ti ao2Ġ
qi3 Ġ
ren2Ġ wu4Ġ
Ġxi4 Ġlie4
Ġjing1 Ġji4Ġ
bi e2
ĠdeĠ fang1
Ġb a4
Ġd i3Ġ
z ai3
Ġfan3Ġ ying4
j u2Ġ
Ġsheng1 Ġchan3
Ġcun2 Ġzai4Ġ
ĠdeĠ zhi2
Ġxi ong2Ġ
Ġche1 Ġzhan4
Ġsu i2
Ġshu4 Ġliang4
Ġhuo2 Ġdong4Ġ
Ġt ao2Ġ
yun4 Ġdong4
Ġjian4 Ġli4Ġ
ĠĠĠ t
Ġz ai1
Ġdu an1Ġ
Ġyi4 Ġban1Ġ
Ġyo ng3Ġ
Ġ00 0
Ġl ang2Ġ
Ġzai4Ġ 201
Ġxue2 Ġsheng1
Ġyu3Ġ yan2
Ġcan1 Ġjia1
Ġdi4 ĠdeĠ
Ġyi1 Ġxie1
ren2Ġkou3 Ġ
20 19Ġnian2Ġ
Ġhu i1
ĠdeĠ yi1
Ġchong2Ġ xin1
ju4 Ġ
zhong4 Ġyao4
Ġfen4 Ġ
zhu3 Ġyao4
Ġguo2Ġ min2
Ġch un2
Ġzong3 Ġtong3
Ġgong1Ġ yuan2
pi n2
yu4 Ġ
l a
Ġxi ong2
Ġ K
liang3 Ġge4
Ġshi4Ġ h
x u3Ġduo1
Ġzhi1Ġ qian2
Ġyu an3Ġ
Ġzhong1Ġhua2 Ġren2Ġmin2Ġgong4Ġhe2Ġguo2Ġ
xiang4 Ġ
Ġshe4 Ġyou3Ġ
ao2Ġ shu4
Ġxing2Ġ dong4
Ġl ang3
Ġru2 Ġguo3
Ġs uo1
Ġnan2 Ġbu4Ġ
che1 Ġzhan4
ĠdeĠ zhong1Ġ
r a
Ġshi2Ġ er4
Ġxing2Ġ xing1
shu3 Ġyu2Ġ
Ġzhong4 Ġyao4
Ġã Ĥ
Ġfa1 Ġxian4
Ġpi ao4
Ġxing2 Ġcheng2Ġ
sheng3 Ġ
ji1 Ġ
Ġqu e4Ġ
ĠĠĠ ch
Ġbi n1Ġ
Ġl ang3Ġ
Ġzhen4 Ġ
p ai2
Ġk en3
Ġhe2Ġ zuo4
Ġguan3 Ġ
Ġdu n4
Ġch i3Ġ
Ġliang3 Ġge4
da4 Ġlu4
Ġjue2 Ġding4
Ġg ai4
ĠĠĠ gai1
le Ġ
ti ng2Ġ
Ġqi an3Ġ
1 4
Ġwu2 Ġfa3
ĠĠĠ yu3
yi n2
ĠdeĠ she4
z ong1
Ġyi3Ġ xia4
Ġfan4Ġ wei2
Ġqian2 Ġ
Ġqi1 Ġ
ming2 Ġ
Ġmen2 Ġ
Ġshi4Ġyi1Ġ zhong3
Ġda4 Ġliang4
Ġguo2 ĠdeĠ
Ġzai4Ġ zhe4
Ġsu4 Ġ
Ġxue2 Ġjia1Ġ
Ġqi e4
1 3
Ġp i3
Ġdao4 Ġle
Ġsuo3 Ġ
Ġ19 2
o w
c ai2
gu ang1Ġ
Ġwu4Ġ guan3
ta1 Ġmen
Ġzao4 Ġcheng2Ġ
chu1 Ġ
fa3 Ġ
Ġxi an3Ġshi4Ġ
Ġb ang1
zhu4 Ġ
yo ng3
Ġjing4 Ġ
yi ng2Ġ
Ġhu an1Ġ
Ġ Ã
Ġshi4Ġ ch
Ġsi4 Ġ
ĠdeĠ ming2
sh a1
Ġxue2 Ġming2Ġ
Ġy a1Ġ
Ġk ang4
shang4 Ġ
Ġzai4Ġ 200
19 9
T Ġ
Ġxiao4 Ġ
ĠĠĠg en1
Ġfa1 Ġxian4Ġ
Ġs ou1
Ġjue2 Ġ
Ġzai4Ġ h
Ġ W
ĠdeĠ jian4
sh ang1Ġ
Ġhui4 Ġyi4Ġ
Ġzhu3 Ġxi2Ġ
f an3Ġ
Ġp an2
Ġli ao4
Ġgong1Ġ kai1
Ġlian2 Ġhe2Ġ
Ġz ou4
Ġdu n4Ġ
Ġtuan2 Ġ
Ġm i2Ġ
Ġlei4 Ġ
e s
Ġzai4Ġ ci4
ĠdeĠyi2Ġge4 Ġshi4Ġzhen4Ġ
Ġdu n1
Ġh ao3Ġ
Ġr uan3Ġ
Ġdu an3Ġ
ĠĠĠ ren2Ġkou3Ġ
Ġx u3Ġ
ĠĠĠ L
Ġchu1 Ġban3Ġ
Ġzu2 Ġ
xi4 Ġtong3
Ġce4 Ġ
l un2
bei3 Ġjing1
Ġdu2 Ġli4Ġ
Ġyi4 ĠdeĠ
w en4
zhu ang1
ĠĠĠ zhe4
Ġzui4 Ġgao1
Ġzhe4 Ġyi1Ġ
yi ng2
sh uo1
zheng4 Ġshi4Ġ
w an4Ġ
Ġshan1 Ġ
Ġzi4 Ġ
u3Ġ yue1
r e4
yi n4Ġdu4
Ġm ai3
Ġyu2Ġ 202
Ġjiu4 Ġshi4Ġ
ãĢ ī
ãĢ Ī
Ġming2 ĠdeĠ
Ġci3 Ġwai4Ġ
j u3Ġ
hu ang2
fen1 Ġ
ben3 Ġ
Ġyu2 Ġshi4Ġ
Ġdi4Ġ shi2Ġ
Ġh ou2
Ġzh ao3
Ġjing1 Ġguo4
li ao2Ġ
shu ang1Ġ
Ġpu3 Ġcha2
Ġzhan4 Ġzheng1
Ġfu4 Ġ
Ġduo1 Ġshu4
Ġlin2 Ġ
Ġhai3Ġba2 Ġgao1Ġdu4
Ġxing2 Ġshi4Ġ
Ġliang4 Ġ
Ġchu1 ĠdeĠ
Ġguan3 Ġli3
Ġwo3Ġ men
Ġju n4Ġ
Ġxiang1 Ġ
Ġqi ang1Ġ
Ġsh ui4
k ong1
zh eng1
ĠĠĠ qi2
pi n3
Ġy ang3
Ġjun1 Ġshi4Ġ
Ġsui2Ġ hou4
ji u3
s a4
xing4 Ġ
Ġshi4Ġ ji4
ĠĠĠ R
Ġm e
Ġzu3 Ġzhi1
Ġbei3 Ġbu4Ġ
Ġling3Ġ dao3
Ġ Ð
Ġzhu an4Ġ
qu e4Ġ
Ġb u3
ĠĠĠ D
Ġbi4 Ġ
zhong1Ġ hua2
Ġzhong3 Ġ
Ġku an3Ġ
Ġsh ao1
Ġge4 Ġren2Ġ
ĠĠĠ 2
mian4 Ġji1Ġwei4Ġ
Ġwu1Ġ ke4Ġlan2
jin1 Ġ
Ġchu ang4
Ġqi1 Ġjian1Ġ
di ng1
Ġjiao4 Ġ
Ġ 3Ġ
ĠdeĠ jing1
Ġzui4 Ġhou4
Ġbei3 Ġjing1
Ġri4 Ġzhi4Ġ
mi an3Ġ
Ġzhe4 Ġshi4Ġ
c i2Ġ
i Ġ
Ġl ao3Ġ
Ġdi4Ġ guo2Ġ
tie3 Ġlu4
sheng1 Ġ
si1 Ġ
Ġzhi4Ġ z
Ġbao1Ġkuo4 Ġ
Ġfan3Ġ dui4
Ġduo1 Ġ
Ġbu2 Ġshi4Ġ
yin1 Ġyue4Ġ
n ong2Ġ
Ġkong4 Ġzhi4Ġ
Ġyou3 Ġxian4
ding4 Ġ
Ġren4 Ġhe2Ġ
Ġ ai4Ġ
Ġshou3 Ġci4
Ġge2 Ġlan2
deng3 Ġ
zi4 Ġji3
Ġkou3 Ġ
Ġli4Ġ yong4
Ġshen1 Ġ
gong4 Ġchan3
Ġm ei4
Ġnei4 Ġ
r an3Ġ
Ġzhu2 Ġjian4
se4 Ġ
i c
Ġwei4Ġyu2Ġ gai1
k Ġ
gu ang3
ĠĠĠ G
ĠĠĠ jia1
hao4 Ġ
Ġdang1 Ġzhong1Ġ
Ġ201 0Ġnian2Ġ
Ġfang1 Ġmian4
Ġwei3Ġyuan2 Ġhui4
Ġzi4 Ġzhi4Ġ
Ġ he2
zong3 Ġtong3
Ġxiang1 Ġguan1
Ġshu1 Ġji4Ġ
Ġshi3Ġyong4 Ġ
Ġer2 Ġqie3
ĠdeĠ jie2
Ġxu e3
Ġqiu2 Ġdui4
ĠĠĠxing2 Ġzheng4Ġ
Ġc ao1
Ġfa1 Ġbiao3
Ġsui4 Ġ
ĠĠĠ p
Ġku an1Ġ
Ġl e4Ġ
Ġf eng2
Ġlie4 Ġche1
Ġyong1 Ġyou3Ġ
de2 Ġguo2Ġ
li4 ĠdeĠ
cheng2Ġ wei2
Ġtong2 Ġ
quan2 Ġ
Ġsi1 Ġtan3Ġ
Ġ3 0
Ġgong1Ġ ch
Ġbu4Ġ neng2
j u2
ĠdeĠqi ng2Ġ
zhi1 Ġchi2
mei2 Ġyou3Ġ
Ġz ai3
Ġjin3Ġ guan3
Ġchan3 Ġsheng1
Ġshi4Ġ yi3
m Ġ
m an4Ġ
Ġting1 Ġ
Ġd ong3
Ġgong1Ġ li3
Ġzai4Ġ ci3
Ġcheng2 ĠdeĠ
Ġlu an4Ġ
hui4 Ġ
shi2 ĠdeĠ
ĠdeĠ jue2
Ġle i3
Ġqi3 Ġ
zhan4 Ġzheng1
qi ng2Ġ
Ġwang2 Ġ
ĠĠĠf ormulaĠ
cheng2Ġ li4Ġ
tu i1Ġ
A Ġ
Ġjin3 Ġbiao1
Ġsheng1 Ġya2
Ġgong1Ġ ye4
sh ao3Ġ
n Ġ
li ng2Ġ
yue1 Ġ
Ġgao1 Ġ
Ġzh en3
Ġbu4Ġ l
sh ou1
yin1 Ġwei4Ġ
âĢ ĵ
Ġche1 Ġzhan4Ġ
Ġyun4Ġdong4 Ġyuan2Ġ
an1 Ġshi4Ġ
guo2Ġ ji4Ġ
Ġkai1 Ġfa1
Ġsu an4Ġ
xin1 Ġ
bi3 Ġsai4
shang4 Ġhai3
ĠĠĠ k
Ġk ang4Ġ
Ġwen4 Ġti2Ġ
Ġshi2Ġ dai4
Ġxi4Ġtong3 Ġ
wu1Ġ ke4Ġlan2
Ġhe2Ġ bing4
hai3 Ġjun1
li ng3Ġ
4 0
su an1Ġ
Ġzhang1 Ġ
e c
ĠdeĠ te4
Ġzhong1Ġxin1 Ġ
Ġluo2 Ġma3
Ġl u2Ġ
ĠĠĠ19 8
qi4 Ġ
Ġfu4 Ġjin4
ji an3Ġ
Ġxi e4Ġ
zu2 Ġ
Ġfang1 Ġ
a1 Ġer3
Ġt ao3
jie4 Ġ
ĠdeĠ you2
Ġhe2Ġ p
Ġz ang4Ġ
Ġqu3 Ġde2
Ġfang1 Ġshi4Ġ
Ġgui1Ġ mo2
Ġna2 Ġda4
i t
Ġge2 Ġming4
ĠĠĠ H
jin4 Ġxing2
jiao1 Ġtong1
Ġta1 Ġshi4Ġ
Ġyou2 Ġ
a s
r ui4
Ġxi1Ġ bei3
ĠĠĠ ta1
Ġwen4 Ġti2
Ġyi1Ġ yuan4
l i2Ġ
Ġran2 Ġer2
Ġying3 Ġxiang3Ġ
Ġc ang2Ġ
Ġp u2
b an1Ġ
Ġli4 ĠdeĠ
yi n3Ġ
Ġm ou3
Ġku ai4
hu i1Ġ
Ġsu1Ġ lian2
Ġ U
y ang4Ġ
Ġdi e2
Ġdou1 Ġshi4Ġ
Ġbu4 Ġzai4Ġ
ku ai4
hu an4Ġ
Ġxue2 Ġjia1
o Ġ
Ġbao4 Ġ
Ġzhu i1Ġ
Ġren2 ĠdeĠ
Ġc ui4
âĢ ¦
Ġhe2Ġ nan2
Ġyi3Ġ lai2
2 5
d u2
ĠĠĠ 18
Ġyue4Ġ3 0
Ġjian4 Ġyu2Ġ
Ġguan4Ġ jun1Ġ
th eĠĠĠ
Ġg ou1
Ġfa1 Ġbu4Ġ
Ġh ai4
Ġxiao3 Ġshi2Ġ
Ġli2Ġ kai1
zh ao4Ġ
Ġcheng1 Ġwei2
Ġju n4
Ġwan2 Ġquan2
f ei4
ren2Ġkou3 Ġpu3Ġcha2
Ġ 4Ġ
xi4 Ġlie4
6 0
Ġzu3 Ġcheng2Ġ
Ġzh uo2
Ġyu2Ġ19 9
Ġni ng2Ġ
Ġqi2 Ġyu2Ġ
dian4Ġying3 Ġ
Ġzuo4 Ġpin3Ġ
ĠĠĠ I
Ġfen1Ġbu4Ġ yu2Ġ
Ġshu3 Ġ
ĠĠĠ c
Ġgong4 Ġyou3Ġ
p Ġ
Ġn i3
Ġxing1 Ġ
r ong2Ġ
Ġjiao1 Ġtong1
Ġjie1 Ġshou4
Ġshi2 ĠdeĠ
Ġta1Ġ ceng2
Ġsi1Ġ ling4
S Ġ
jia1 Ġ
quan2 Ġguo2Ġ
Ġzu3 Ġ
Ġ O
Ġti2 Ġchu1
zu2 Ġqiu2
ĠĠĠ F
Ġcan1 Ġjia1Ġ
ĠĠĠ ci3
Ġf o2
Ġqi2 Ġshi4Ġ
da4 Ġxue2
Ġw en3
Ġhan2 Ġguo2Ġ
ke3 Ġyi3
Ġyi1Ġ ming2
Ġn ong2
Ġ200 1Ġnian2Ġ
Ġbu4 ĠdeĠ
Ġlou2 Ġ
du n4
Ġdi4Ġ si4
. .
Ġju4 Ġyou3Ġ
Ġyou3 ĠdeĠ
dang1 Ġshi2Ġ
Ġle4 Ġbu4Ġ
Ġren2Ġ lei4
chuan2 Ġtong3
Ġju3Ġ ban4
Ġsh ao3Ġ
du an3Ġ
Ġ wei4
Ġzhi4 ĠdeĠ
ĠĠĠ ju4
Ġji4Ġ nian4Ġ
Ġran2 Ġer2Ġ
y ao1
Ġchu1 Ġxian4
Ġyi1Ġ zhong3
Ġtou4 Ġguo4
Ġxian4Ġ dai4
Ġshi4Ġ shi2Ġ
d i3Ġ
pi n3Ġ
Ġshi4Ġ wu4
jiao4 Ġyu4
Ġnan2 Ġzi
Ġb ang3Ġ
Ġlv e4
cha2 Ġ
Ġshu3 ĠdeĠ
Ġxin1 Ġ
Ġmin2 Ġzhu3
hu an2
Ġsuo3 Ġyou3Ġ
ĠĠĠ nian2
Ġm ao4Ġ
Ġjie1 Ġr
xu n4
Ġmei2 Ġti3
Ġshen2 Ġ
Ġxiang4 Ġmu4
ĠdeĠzhu3 Ġyao4
Ġjie1 Ġ
jin4 Ġxing2Ġ
Ġfu2 Ġ
Ġk ao4Ġ
Ġc ao3Ġ
ji e3
Ġhe2Ġ h
Ġla1 Ġ
ĠĠĠ19 4
wen2 Ġ
Ġguan3 Ġxia2Ġ
ĠdeĠ zheng4
s ai1
b an3Ġ
ĠdeĠ qian2
Ġyi4Ġ qi3
Ġna4 Ġ
Ġzu3 Ġzhi1Ġ
hu ang2Ġ
Ġchen2 Ġ
Ġwei4Ġ ren2Ġ
Ġch a1
Ġa1 Ġer3
z uo3
ĠĠĠ m
Ġqi ng3Ġ
Ġyi1Ġ ci4
a tion
xuan1Ġ bu4Ġ
Ġbao1 Ġhan2
du n4Ġ
d i3
shu1 Ġ
can1 Ġyu4
di4Ġ qu1Ġ
Ġchu1 Ġxian4Ġ
xiang1 Ġguan1
qu1 Ġwei4Ġ
ĠdeĠyi1 Ġbu4Ġfen4Ġ
Ġyuan2 ĠdeĠ
D Ġ
Ġjie3 Ġfang4Ġ
Ġn ao3
Ġreng2 Ġran2
Ġpo 4Ġ
lin2 Ġpi3
Ġwei4Ġ zhi4Ġ
Ġl ao2Ġ
le i2Ġ
Ġshi4Ġ yan3
Ġzuo4 Ġwei2Ġ
Ġlei4 Ġsi4
Ġzhi2 Ġjie1
Ġji2 Ġqi2
Ġbu4Ġ men2
Ġshi2 Ġnian2Ġ
ch en2
wei3Ġyuan2 Ġhui4
zhou1 Ġ
U T
Ġma3 Ġ
Ġq u4Ġ
Ġshi4Ġwei4Ġyu2Ġ mei3Ġguo2Ġ
Ġg uo1
Ġwei4Ġ di4Ġ
jin4 Ġru4
Ġtu2 Ġ
Ġzhuan1Ġ ji2
Ġdan4 Ġ
Ġchu n1
Ġshen4 Ġzhi4Ġ
Ġch i3
Ġbo1 Ġ
t er
Ġzhan4 Ġdou4
yo u1Ġ
Ġdao4 ĠleĠ
Ġqu e1
ti2 Ġgong1Ġ
Ġling4 Ġshi2Ġ
Ġbao3 Ġhu4
ti ng2
Ġch ai1
Ġji1 Ġgou4
lin2Ġpi3 Ġke4
Ġb a3Ġ
Ġ19 0
Ġhu n1
Ġch a4
zhi2 Ġ
suo3 Ġyou3Ġ
Ġliu2 Ġ
Ġfei1 Ġchang2
ĠĠĠ wei4Ġ
Ġli ao2Ġ
Ġzhong1Ġhua2 Ġmin2Ġguo2Ġ
Ġqu1 ĠdeĠ
guan3 Ġli3
Ġc u4
Ġlun2 Ġ
ĠdeĠ nv3
ju n4Ġ
ku ai4Ġ
Ġshi4Ġ yi4
Ġp i2
Ġjie2 Ġshu4
shu3 Ġ
ĠĠĠ zh
Ġjiang1 Ġqi2
Ġyi n4Ġ
k a3
Ġzh u2Ġ
Ġyue4Ġ2 8Ġri4Ġ
Ġda4 Ġbu4Ġfen4
Ġy an1Ġ
u1 ĠdeĠ
Ġshi2Ġ san1
Ġzhu3 Ġyi4
Ġfen1 Ġzhong1Ġ
Ġtui1Ġ chu1
Ġdong1 Ġbei3
ping2 Ġjun1
Ġ zai4
zhu ang1Ġ
19 8
Ġzhu3 Ġchi2
Ġshi4Ġjian4 Ġ
jun1 Ġshi4Ġ
Ġjie2 Ġmu4
ni ng2Ġ
Ġqi ang1
Ġwei3Ġyuan2 Ġhui4Ġ
Ġy a3
Ġze2 Ġ
Ġbiao1 Ġ
Ġxi1 Ġban1Ġya2
Ġl ao2
Ġwei4Ġ mei3
Ġshi2Ġ si4
zhu ang4Ġ
m an3Ġ
ĠĠĠ b
she4 Ġhui4
r uo4
zu3 Ġzhi1
r u
Ġhe2Ġ t
Ġfu2 Ġwu4
Ġxian1Ġ hou4
Ġqing2Ġ kuang4Ġ
Ġyuan2Ġ yin1
Ġjin4 Ġshi4Ġ
u4 Ġshi4Ġ
Ġwei4Ġ neng2
Ġshi2Ġqi1 Ġ
Ġwei3 Ġ
Ġshu n4
Ġji1Ġ ben3
Ġt un2
Ġgong4 Ġtong2
zhang1 Ġ
Ġgong1Ġ neng2
Ġzhong4 Ġ
zhong1 ĠdeĠ
Ġ V
Ġch ang1Ġ
Ġda4 Ġzhan4
shu4 Ġ
jue2 Ġding4
Ġsi1Ġ ke1
Ġyue4Ġ1 5Ġri4Ġ
ĠĠĠ yi3
fa1 Ġsheng1
zuo4 Ġwei2
Ġf ang3Ġ
Ġn ai3
Ġnv3 Ġxing4
Ġying4 Ġ
Ġzheng4Ġ ce4
wei3Ġyuan2 Ġhui4Ġ
ĠdeĠ l
Ġlian2 Ġsai4
Ġr ou4
Ġli4Ġ fa3
ku an3Ġ
Ġchu2 Ġle
Ġsh an3Ġ
Ġl ang2
Ġyu2Ġ 18
Ġ201 1Ġnian2Ġ
Ġbi3 Ġ
a g
Ġzai4Ġ qi2
Ġyou3 Ġshi2Ġ
Ġmian4 Ġji1
Ġgong1 Ġshi4Ġ
Ġxin1 Ġwen2
Ġh eng1
ĠĠĠ E
Ġzhu i1
ĠdeĠ gao1
Ġhai2 Ġyou3Ġ
jing1 Ġji4Ġ
h eĠĠĠ
Ġgong1Ġ lu4
Ġxi1 Ġnan2
Ġguan1 Ġyu2Ġ
ĠĠĠ W
Ġju3 Ġxing2Ġ
shi2Ġ qi1
Ġguan4Ġ jun1
Ġhuo4 Ġ
Ġm ao2
d i2Ġ
00 0
can1 Ġjia1
UT CĠ
Ġh ong1
Ġxuan3 Ġ
Ġ19 1
Ġzh ou4
zu3 Ġzhi1Ġ
Ġle i2
Ġmin2 Ġzu2
Ġsu an1Ġ
ĠdeĠ xi1
Ġc ao3
Ġshi4Ġ xue2
min2 Ġzhu3
Ġsai4 Ġshi4Ġ
Ġwei4Ġyu2Ġgai1 Ġguo2Ġ
Ġm a2
Ġping2 Ġyang2
Ġjin1 Ġ
Ġshi4Ġ fa3Ġguo2Ġ
ĠdeĠ jia1
Ġshi2Ġ ji4Ġ
Ġxie2 Ġhui4
ĠdeĠ quan2
Ġtian1 Ġ
Ġdian4 Ġ
i r
Ġjian4 Ġshe4
lai2 Ġzi4
ji u3Ġ
Ġmi ao4Ġ
ĠdeĠ zhi4Ġ
Ġhui1Ġ fu4
jue2 Ġ
m i4
dang1 Ġdi4Ġ
f an4Ġ
ĠdeĠ tong2
Ġh an3Ġ
Ġlai2 Ġxi1Ġya4
Ġyi4 Ġshi4Ġ
ĠdeĠ ju4
Ġju1Ġ min2
Ġzhong1Ġy ang1
Ġhu n1Ġ
Ġlan2 Ġ
Ġchuan2 Ġtong3
Ġ2 5
Ġmeng2 Ġgu3
ĠdeĠ xian4
ĠĠĠ 3
xue2 Ġyuan4
Ġfa3 Ġyuan4
dui4 Ġ
Ġzeng1 Ġjia1
Ġli3 Ġshi4Ġ
ke4 Ġ
ĠdeĠqing2Ġ kuang4Ġ
dian4 Ġ
Ġz u1Ġ
Ġdan4 Ġzai4Ġ
xu1Ġ yao4
ĠdeĠ li4Ġ
Ġzuo4 Ġpin3
Ġchi2 Ġxu4
ĠdeĠ hai3
Ġshe4 Ġli4Ġ
Ġti3 Ġyu4
yi1 Ġnian2Ġ
10 Ġri4Ġ
ĠdeĠ xiao3
bi4 Ġye4
Ġshi2Ġ wu3
yi1 Ġbu4Ġ
on Ġ
Ġshi4Ġ xi
Ġzhi3 Ġyou3Ġ
Ġ200 9Ġnian2Ġ
E E
Ġhui4 Ġzai4Ġ
Ġ5 Ġ
Ġshi4Ġ chang3
fa1 Ġxian4Ġ
Ġjie2 Ġguo3
ĠdeĠ zhan4
f ang2
zhu n3
Ġzi4 Ġran2
Ġy ao2
e2 Ġluo2Ġsi1
Ġfu2 Ġwu4Ġ
Ġxue2 Ġxi2Ġ
t e
8 0
r eng2
Ġji4Ġ lu4
m u3
Ġren4 Ġming4
Ġji1Ġ chang3
Ġshi4Ġ zhi3
Ġou1 Ġzhou1
shan1 Ġ
tai4 Ġ
Ġb ang4Ġ
Ġmeng2 Ġ
Ġwu3 Ġ
ni2 Ġya4
Ġcheng2Ġ yuan2Ġ
Ġyue4Ġ2 5Ġri4Ġ
ni ng2
shou3 Ġci4
ĠdeĠ wei4Ġ
Ġshi4Ġ tu2
ĠĠĠgen1 Ġju4
20 Ġri4Ġ
Ġk eng1
Ġben3 Ġ
Ġp ao4
a1Ġ la1
Ġdi ao4
2 2
ch ao1
li ao2
Ġjiang1 Ġ
qi1 Ġjian1
Ġr e4Ġ
Ġhe2Ġ qi2
Ġl an3Ġ
Ġhu n4
Ġcheng2 Ġzhong1Ġ
an Ġ
qi ang2Ġ
Ġyue4Ġ30 Ġri4Ġ
liang4 Ġ
ĠĠĠ N
ĠdeĠ zi4
Ġcheng2Ġ qu1Ġ
Ġx u3
ju n4
s i3Ġ
Ġqu1Ġ yu4
Ġhe2Ġ ping2
Ġyi4Ġ yuan4
ĠdeĠ mu4
Ġhuan2 Ġjing4
su4 Ġ
yi4 Ġ
ao4Ġ lin2Ġpi3Ġke4
Ġni ng2
Ġf en3
sheng1 Ġhuo2
Ġbi3 Ġsai4Ġ
Ġgong1Ġ gong4
Ġchao2 Ġxian1Ġ
Ġpi1Ġ ping2
Ġda4 Ġli4Ġya4
Ġzui4 Ġchu1
Ġzai4Ġ yi1Ġ
Ġde ng4
Ġling4 Ġwai4
Ġxue2Ġyuan4 Ġ
ĠĠĠ yu2Ġ
ĠĠĠ xi
z eng1
shu ang1
ng Ġ
zhan4 Ġ
Ġneng2 Ġgou4
Ġyi4 Ġhui4
Ġru4 Ġ
7 0
yi2 Ġ
Ġbing4 Ġbu4Ġ
Ġzheng4Ġzhi4Ġ ren2Ġwu4Ġ
ya4 Ġzhou1
Ġyu2Ġ l
Ġshi4Ġf ou3
Ġhou4 ĠdeĠ
Ġjie3 Ġ
Ġchu3Ġ li3
Ġyu n3
ju1Ġ min2
Ġzhi2 Ġye4
Ġjie4 Ġ
w en1
ĠĠĠ zheng4Ġzhi4Ġ
wei3 Ġyuan2Ġ
Ġy ao2Ġ
c ai3
Ġsuo3 Ġyi3
Ġzh an1Ġ
Ġge4 Ġyue4Ġ
Ġluo4 Ġ
Ġhu i3Ġ
k a3Ġ
Ġtu i1
Ġdi ng3
Ġci4 Ġ
gu i3
Ġyi4 Ġda4Ġli4Ġ
Ġzui4 Ġhou4Ġ
ke3 Ġyi3Ġ
Ġshu ang1
Ġwu4Ġ bao3Ġhu4
Ġwa3 Ġer3
you2 Ġxi4
Ġxian4 Ġshi2Ġ
Ġc ang2
xu an2
Ġzhong1Ġ bu4Ġ
Ġshe4 Ġji4
Ġf ou3
Ġju4 Ġle4Ġbu4Ġ
qiu2 Ġ
Ġyou3 Ġren2Ġ
mei3Ġguo2Ġ ren2Ġkou3Ġpu3Ġcha2
Ġhu ai2
Ġt ao4Ġ
Ġan1Ġ quan2
Ġjun1 Ġdui4
lie4 Ġche1
Ġfa1 Ġdong4
Ġhen3 Ġduo1
Ġbi4 Ġxu1Ġ
nei4 Ġ
Ġren2Ġ men
du an1Ġ
gong1Ġ si1
ĠĠĠ jie2
fa1 Ġxing2Ġ
18 Ġri4Ġ
N S
Ġyuan2 Ġnian2Ġ
ĠdeĠ xue2
Ġji4Ġ suan4Ġ
Ġtuan2 Ġti3
Ġlie4 Ġ
suo3 Ġ
r ong2
chu ang4
xia4 Ġji4Ġ
Ġyue1 Ġhan4Ġ
Ġmei3 Ġzhou1
Ġbian4 Ġ
Ġming2Ġ cheng1
Ġbu4Ġtong2 Ġ
Ġshi2Ġ ba1
Ġxian4 Ġzhi4Ġ
qu e1
Ġke1 Ġ
qu3 Ġde2
Ġd a1
Ġyue4Ġ2 4Ġri4Ġ
Ġping2 Ġjun1
c un2
u n
4 8
Ġshi2Ġ liu4
zh eng3
Ġjing1 Ġchang2
Ġchu3 Ġyu2Ġ
ĠĠĠ s
shi2Ġ jian1
Ġyue4Ġ2 6Ġri4Ġ
kai1 Ġfa1
Ġda4 Ġyue1
na4 Ġ
Ġjian4 ĠdeĠ
Ġ5 0
ĠĠĠ19 7
Ġge4 Ġzhong3
Ġshi3 ĠdeĠ
Ġta1Ġ ye3
Ġshou4 Ġdao4
Ġdi4Ġ tie3
tong2 Ġnian2Ġ
Ġzong3 Ġren2Ġkou3
ĠĠĠ da4
d u1Ġ
Ġxue2Ġxiao4 Ġ
tai2 Ġ
Ġsh e2
ĠĠĠ19 5
tai2 Ġbei3
zh u1Ġ
Ġdi4Ġ li4Ġ
Ġgu4 Ġshi4Ġ
zui4 Ġgao1
guo2Ġ min2
Ġxiang1 Ġdang1
l o
Ġc an2
Ġke1 Ġxue2
ying4 Ġ
b ei1
d a3
Ġyang2 Ġ
Ġe2 Ġluo2Ġsi1
ĠdeĠ zhu4
Ġzh a1
ren4 Ġhe2Ġ
Ġwei2 Ġer3
Ġluo2 Ġ
Ġwo 4Ġ
qiu2 Ġdui4
Ġdong1 Ġnan2
Ġci4 Ġshi4Ġjie4
Ġceng2 Ġjing1
Ġbing4 Ġwei4Ġ
Ġ201 6Ġnian2Ġ
bei3 Ġbu4Ġ
p ei4
Ġshang1Ġ ye4
ji n3
Ġl ai4
Ġhai3 Ġjun1
i s
Ġbiao3 Ġ
liu2 Ġ
Ġge4 Ġ
ji ang3Ġ
Ġri4Ġ jun1
Ġk an3Ġ
Ġy a3Ġ
Ġwei4Ġ zhong1Ġ
Ġzai4Ġ ta1
Ġyue4Ġ1 6Ġri4Ġ
ĠĠĠ theĠĠĠ
ĠdeĠ dian4
Ġmian4 Ġji1Ġwei4Ġ
jie2 Ġ
Ġhui2Ġ dao4
Ġzai4Ġ19 9
dan1 Ġ
mei3 Ġyuan2Ġ
Ġfa1 Ġxing2Ġ
Ġqi an4Ġ
2 3
Ġbo2 Ġwu4Ġguan3
Ġyue4Ġ1 7Ġri4Ġ
Ġdu n1Ġ
10 0
Ġshi4Ġ bu4Ġ
Ġp i1
sh a1Ġ
Ġjing3Ġ cha2
Ġhe2Ġ xi
r uan3Ġ
Ġt an1Ġ
Ġti ng3
Ġyin3Ġ qi3
ĠĠĠyou2 Ġyu2Ġ
Ġwei4Ġ yi1Ġ
Ġxian4 ĠdeĠyi2Ġge4
Ġb rĠ
Ġji4Ġ hua4Ġ
Ġwei4Ġ h
xu n4Ġ
Ġ200 8Ġnian2Ġ
Ġzhan3Ġ kai1
Ġhu ai4Ġ
Ġbao3 Ġ
Ġ10 0
lian2 Ġhe2Ġ
Ġban3Ġ ben3
Ġhu ai2Ġ
Ġzh ang4
yo ng3Ġ
Ġwei3 Ġyuan2Ġ
xu4 Ġ
Ġshang4 Ġwei4Ġ
Ġgong1Ġ ji1
Ġbi4 Ġye4
Ġyuan2Ġ ben3
li ang2Ġ
Ġyue4Ġ1 2Ġri4Ġ
Ġsh uo4
Ġceng2 Ġren4
P Ġ
f ang2Ġ
Ġh ao2
luo2 Ġma3
tu2 Ġ
Ġguang3Ġ dong1
Ġling4 Ġ
Ġc ai4
Ġdi ng3Ġ
Ġjue2 Ġse4
Ġyue4Ġ2 7Ġri4Ġ
Ġge1 Ġ
Ġgeng4 Ġduo1
Ġxi u4Ġ
Ġsu n1
she4 Ġji4Ġ
lu4 Ġdi4Ġ
Ġku ang4Ġ
Ġyue4Ġ2 1Ġri4Ġ
Ġxuan3 Ġze2
chan3 Ġsheng1
Ġjian3Ġ cheng1
Ġjing4 Ġnei4
i g
19 Ġri4Ġ
lian2 Ġsai4
Ġde2 Ġdao4
Ġzhi2 Ġdao4
Ġlian2 Ġ
Ġguang3Ġ bo1
Ġ20 19Ġnian2Ġ
Ġshi4Ġ xi1
ĠdeĠshu4 Ġju4Ġ
Ġlai2 ĠdeĠ
Ġsuo3 Ġyi3Ġ
ĠdeĠshi4Ġ zhen4Ġ
di ao4
Ġyue4Ġ1 1Ġri4Ġ
n ong2
ĠĠĠ19 6
Ġku a4
2 1
ĠdeĠ ping2
Ġhuo4 Ġzhe3
Ġwan4Ġ ren2Ġ
Ġyue4Ġ3 Ġri4Ġ
Ġyi2 Ġbu4Ġ
Ġ201 8Ġnian2Ġ
ĠĠĠ xian4
Ġchuang4Ġ zuo4
nan2 Ġ
Ġguan1 Ġxi4
Ġshi4Ġ li4Ġ
Ġguan1 Ġfang1
Ġm ian2
an dĠĠĠ
Ġyou3 Ġren2Ġkou3
zhu n3Ġ
qi1 Ġjian1Ġ
Ġxi1Ġ yang2
xuan3 Ġqu1
Ġzhong1Ġ yi1Ġ
ren2Ġkou3 Ġshu4Ġliang4
Ġ e4
Ġguan1 Ġxi4Ġ
Ġda2 Ġ
Ġguan3 Ġli3Ġ
Ġbing4 Ġyu2Ġ
Ġshe4 Ġhui4Ġ
Ġsai4 Ġji4Ġ
Ġyue4Ġ2 2Ġri4Ġ
Ġyue4Ġ2 Ġri4Ġ
wai4 Ġjiao1
3 5
luo4 Ġ
Ġke4 Ġsi1
ĠdeĠ nan2
Ġyue4Ġ1 4Ġri4Ġ
Ġp an1Ġ
Ġyue4Ġ2 3Ġri4Ġ
ni u3Ġyue1
Ġzhe4 Ġjiang1
Ġyue4Ġ2 9Ġri4Ġ
Ġxuan3 Ġju3Ġ
Ġ201 3Ġnian2Ġ
Ġhe2Ġ di4Ġ
ĠĠĠ K
ĠĠĠ bu4Ġ
yan2 Ġ
Ġke4 Ġsi1Ġ
Ġren2 Ġshi4Ġ
Ġmi ao2Ġshu4
ao4Ġlin2Ġpi3Ġke4 Ġyun4Ġdong4
t o
Ġc ai4Ġ
Ġyu2Ġ19 8
Ġyue4Ġ3 1Ġri4Ġ
n i3
Ġchu1 Ġren4
Ġwei4Ġyu2Ġ fa3Ġguo2Ġ
ge4 Ġren2Ġ
Ġjiao4 Ġshou4Ġ
di an1Ġ
ke1 Ġxue2
Ġshi4Ġ zhong1Ġguo2Ġ
Ġxing2 Ġzheng4
Ġxi1 Ġla4
di e2
Ġhu i3
ĠdeĠ fen1
Ġyi1Ġ si1
lian2 Ġ
zhi3 Ġ
Ġ201 4Ġnian2Ġ
d u2Ġ
Ġying2 Ġde2
li ang2
Ġwu4Ġbao3Ġhu4 Ġdan1Ġwei4Ġ
y ong1
Ġ201 2Ġnian2Ġ
Ġshi4Ġxue2 Ġwei4Ġ
m eng2
qian2 Ġ
l an3Ġ
Ġer2 Ġgai1
Ġsh e3
Ġ201 5Ġnian2Ġ
ch u4
Ġxie2 Ġzhu4
Ġzhu3 Ġren4Ġ
Ġtai2 Ġbei3
ĠdeĠ shen1
Ġzheng4Ġ bian1
Ġbei4 Ġer3
Ġhe2Ġ xin1
Ġza2 Ġzhi4Ġ
Ġguo2Ġ ji4
Ġshe4 Ġzhi4Ġ
Ġgong1Ġch i3Ġ
ren2 Ġshi4Ġ
Ġke3 Ġda2
Ġh u3Ġ
a v
s ui4
Ġn an4Ġ
dan1 Ġwei4Ġ
Ġdi4Ġ xia4
Ġdong1 Ġbu4Ġ
Ġzong1 Ġjiao4
ĠdeĠdi4Ġ fang1
Ġxian2 Ġ
Ġduo1 Ġci4
Ġcheng2Ġ le
Ġju4 Ġli2Ġ
Ġ20 20Ġnian2Ġ
jie1 Ġshou4
Ġyue4Ġ1 3Ġri4Ġ
4 5
ĠdeĠ wen2
Ġhe2Ġ lan2
ao1 Ġ
Ġb ang3
Ġbei4 Ġren4Ġwei2
Ġyi n4
ĠdeĠ yan2
Ġya4 Ġ
shou3 Ġ
Ġlv e4Ġ
Ġzi1 Ġliao4Ġ
Ġbei4 Ġcheng1Ġwei2Ġ
Ġyan3 Ġyuan2Ġ
che1 Ġ
u r
Ġji1 Ġhu1Ġ
e2 Ġluo2Ġsi1Ġ
yun4 Ġ
ge2 Ġming4
Ġliang3 Ġren2Ġ
Ġyi4 Ġhui4Ġ
qian2 Ġwang3
Ġz ong4
Ġshi4Ġ t
Ġsheng1 Ġwu4
Ġfu4 Ġqin1
Ġdian4Ġying3 Ġ
y ang1Ġ
Ġh an
Ġguo2Ġ wang2
ĠdeĠdi4Ġ yi1Ġ
Ġpai1 Ġshe4
Ġda4 Ġhui4
Ġli4Ġru2 Ġ
Ġyi4 Ġzhi4Ġ
an1Ġ quan2
ĠĠĠ19 3
Ġer2 Ġzai4Ġ
ĠdeĠ ge1
19 7
ĠĠĠ che1Ġzhan4
ĠĠĠ yi1Ġ
xuan3 Ġju3Ġ
Ġlv 3Ġ
ĠdeĠ wu3
ling3Ġ dao3
Ġxi1Ġ ge1
Ġjie3Ġfang4Ġ jun1
Ġnian2Ġ qing1
Ġbang1Ġ zhu4
sheng3 Ġji2Ġ
Ġzhong1Ġ guo2
qi u1Ġ
qu4 Ġshi4Ġ
g ou4
Ġsheng4 Ġ
Ġfen4 Ġwei4Ġ
li an4Ġ
Ġtou2 Ġ
ĠĠĠ202 1Ġnian2Ġ
ĠdeĠf an3Ġ
2 8
ĠdeĠ yi2
d ang3
Ġzai4Ġ jia1
Ġzeng1 Ġjia1Ġ
Ġsen1 Ġ
ĠdeĠ zi1
Ġyou2 Ġxi4Ġ
Ġjie1 Ġduan4Ġ
Ġhao2Ġ mi3Ġ
xue2 Ġxiao4
9 0
Ġjie2 Ġgou4
Ġyi1Ġ yang4Ġ
Ġhai2 Ġshi4Ġ
o o
Ġdi4Ġ wu3
s ong4
Ġ200 7Ġnian2Ġ
ĠĠĠ 2019Ġnian2Ġ
en1 Ġ
xiao3 Ġshi2Ġ
Ġbu4Ġ xi
Ġjiu4 Ġshi4Ġzhen4Ġ
ĠĠĠ zi4
w Ġ
Ġwei2Ġ chi2
a p
tong1 Ġchang2
Ġxi 3Ġ
Ġhe2Ġ bei3
Ġfu3 Ġ
Ġzu n1
Ġceng2 Ġ
Ġju an3Ġ
Ġt ong4
Ġk u4Ġ
Ġc ang1Ġ
I Ġ
c ai2Ġ
Ġti ng3Ġ
Ġbei1 Ġ
Ġge1 Ġqu3
dao4 Ġ
te4 Ġ
tong3 Ġzhi4Ġ
Ġji4Ġ zai3
Ġhe2Ġ yi1Ġ
Ġli4Ġ shu3Ġyu2Ġ
Ġsheng3 ĠdeĠyi2Ġge4Ġshi4Ġzhen4Ġ
yong4 Ġyu2Ġ
ze2 Ġ
Ġ4 0
Ġren2Ġkou3Ġmi4Ġdu4 Ġwei4Ġmei3
y a1
Ġdong3 Ġshi4Ġ
Ġxi4 Ġbao1
f u1Ġ
Ġ201 7Ġnian2Ġ
Ġshu ai4
ĠĠĠ 2020Ġnian2Ġ
Ġgan3Ġ ran3Ġ
2 7
Ġdong4 Ġhua4
gu ang1
2 4
ĠdeĠ ying3Ġxiang3Ġ
Ġ202 1Ġnian2Ġ
Ġmei3 Ġnian2Ġ
Ġyin1Ġci3 Ġ
Ġshi2Ġ ren4
ĠdeĠ dui4
Ġt uo2
Ġli4Ġ shi2Ġ
Ġci4Ġshi4Ġjie4 Ġda4Ġzhan4
Ġwu4Ġ zhong3
Ġdi4Ġ qiu2
Ġd ang4
zhi1 Ġyi1Ġ
can1 Ġjia1Ġ
Ġwei2Ġ ya4
Ġbian1 Ġ
ĠdeĠ san1
2 6
ĠĠĠ suo3
Ġjia1 Ġpo1
diao4Ġ cha2
ĠdeĠ feng1
Ġci3 Ġ
Ġzao3Ġ qi1
lin2 Ġ
Ġbi ng3
ren2Ġkou3Ġshu4Ġliang4 Ġwei4Ġren2Ġ
jia1 Ġru4
Ġgai1 Ġsheng3
ĠI NS
ĠdeĠ yan3
Ġyou3 Ġxie1
gu i1
E Ġ
Ġyuan2 Ġyu2Ġ
ba1 Ġshi4Ġ
Ġdong4 Ġwu4
Ġjia1Ġ zu2
Ġ200 5Ġnian2Ġ
guan1 Ġ
Ġshu n4Ġ
Ġchang4Ġ pian4Ġ
Ġshi2Ġ fen1
Ġwei4Ġ lai2
Ġsu n1Ġ
jing4 Ġ
Ġyin1 Ġer2
Ġfang1 Ġxiang4
Ġbao3 Ġchi2
ĠINS EE
Ġzai4Ġ yi4
Ġjian4 Ġzhi4Ġ
Ġwei4Ġ fu2
Ġzhong1Ġguo2Ġ gong4Ġchan3
Ġzheng4Ġbian1 Ġma3Ġwei4Ġ
ĠĠĠ 1
Ġshui3 Ġ
Ġyou4 Ġcheng1
Ġxiao1 Ġ
ĠĠĠ O
Ġzh ou2
ĠĠĠ bei4
Ġcheng2Ġ ji4Ġ
ĠĠĠ zhi4Ġ
Ġzuo4 Ġchu1
ĠĠĠ201 8Ġnian2Ġ
ci4 Ġ
fu4 Ġze2
Ġjing1 Ġji4
Ġshi2Ġ zi4
Ġzheng4 Ġzai4Ġ
Ġkong1 Ġjian1
Ġbu2 Ġhui4
Ġqi2 Ġhou4
Ġye3 Ġyou3Ġ
Ġzui4 Ġda4
tai4 Ġyang2
Ġzai4Ġ zhong1Ġ
b ai3
l Ġ
Ġshi2Ġ xing2
Ġzhi3 Ġshi4Ġ
o p
d ang3Ġ
g an3Ġ
Ġdeng3 Ġren2Ġ
Ġgong1Ġ fen1Ġ
Ġch ang1
Ġshan1 Ġdong1
Ġzhuan1Ġ ji2Ġ
Ġcong2 Ġer2
Ġxiao3 Ġ
gong4 Ġtong2
Ġbu4Ġ zhang3
Ġr ao4Ġ
dong1 Ġbei3
Ġlu4 Ġjun1
Ġzheng3 Ġge4
u n1
Ġqi2 Ġxia4
Ġgong4 Ġhe2Ġ
ĠĠĠ J
ĠdeĠ yan2Ġjiu1Ġ
Ġp ang2Ġ
o c
Ġzhi4Ġ 202
Ġsh a4
Ġzhuan1Ġ ye4
a u
Ġc ang1
fei1 Ġchang2
Ġer3 Ġde2
Ġhe2Ġ ch
ĠĠĠ gong1Ġ
Ġwei4Ġ sheng1
Ġming2 Ġchao2
Ġying1 Ġchi3Ġ
Ġdian4 Ġzi
Ġ2 3
Ġtou2 Ġzi1
z an4Ġ
Ġf u1
kai1Ġshi3 Ġ
Ġtao2 Ġya2
Ġxia4 Ġling4Ġshi2Ġ
ĠdeĠ dong4
Ġzhong1Ġguo2Ġ da4Ġlu4
Ġbian1 Ġma3Ġwei4Ġ
su i2
gong4 Ġyou3Ġren2Ġkou3
Ġzhen1 Ġdui4
Ġwei4Ġ shi2Ġ
Ġli4Ġ si1
mi ao2Ġshu4
Ġshi2Ġ xian4
Ġyi4 Ġyuan2
Ġf ei3
l ong2
o v
Ġjia1 Ġshang4
ku ang4
Ġn i4
Ġfei4 Ġ
jing4 Ġnei4
Ġren2Ġkou3Ġmi4Ġdu4 Ġmei3
t uan2
chu n1
Ġzai4Ġ da4
Ġju4 Ġjue2
Ġjia1 Ġna2Ġda4
yao4 Ġ
qu1Ġ yu4
Ġshi4Ġzhen4 Ġbian1Ġma3Ġwei4Ġ
ĠINSEE Ġshi4Ġzhen4Ġbian1Ġma3Ġwei4Ġ
ti3 Ġyu4
Ġquan2 Ġqiu2
Ġyin2 Ġhang2Ġ
Ġxun4 Ġlian4Ġ
ãĢ İ
mei2 Ġyou3
a d
Ġli4Ġ yu2Ġ
Ġxi1 Ġbu4Ġ
Ġjian4Ġzhu4 Ġ
Ġshi4Ġ yu3
ĠdeĠ li3
Ġn ao3Ġ
Ġqi1 Ġxi1
ãĢ ı
Ġ200 6Ġnian2Ġ
Ġsan1 Ġnian2Ġ
shi2ĠdeĠ ren2Ġkou3Ġshu4Ġliang4Ġwei4Ġren2Ġ
Ġ Î
Ġyin3 Ġfa1
mei3Ġguo2Ġren2Ġkou3Ġpu3Ġcha2 ĠdeĠshu4Ġju4Ġ
Ġt i1Ġ
Ġzai4Ġ xi1
Ġer2 Ġren2Ġkou3Ġmi4Ġdu4Ġwei4Ġmei3
Ġzhi2 Ġwu4Ġ
ĠĠĠ201 7Ġnian2Ġ
Ġdang1Ġdi4Ġ gong4Ġyou3Ġren2Ġkou3
ĠdeĠ mo2
ren4 Ġwei2
Ġg u4Ġ
xuan3Ġqu1 Ġwei4Ġ
ang3 ĠdeĠshi4Ġzhen4Ġ
Ġhuo4 Ġjiu4Ġshi4Ġzhen4Ġ
Ġbing1 Ġ
Ġzhi2 Ġwu4
Ġsai1 Ġer3
Ġfang1 Ġmian4Ġ
Ġshu3ĠdeĠ sheng3Ġji2Ġ
Ġshu3ĠdeĠsheng3Ġji2Ġ xuan3Ġqu1Ġwei4Ġ
Ġz ang4
Ġs ang1Ġ
Ġke4 Ġli3
zhi1 Ġ
Ġ6 Ġ
Ġzh a2
Ġji1Ġ jin1
Ġdong1 Ġjing1
re4 Ġdai4
Ġji2 Ġwei4Ġ
g eng4
Ġmi n3
Ġchuan2 Ġ
Ġyan2 Ġzhong4
2 9
Ġfen4Ġwei4Ġ fa3Ġguo2Ġ
Ġgai1Ġsheng3 Ġfen4Ġwei4Ġfa3Ġguo2Ġ
Ġzhi2 Ġzhi4Ġ
Ġli ao2
t uo1
Ġhe2Ġ zuo4Ġ
ĠdeĠ nei4
Ġta1 Ġbei4
Ġyou3Ġ xiao4
wu2 Ġfa3
Ġzhi1Ġ jian1Ġ
Ġren2Ġ shu4
xuan3 Ġze2
xi e3
Ġxie2 Ġ
quan2 Ġqiu2
Ġsui2Ġ zhu4
Ġyi1 Ġwei4Ġ
tian1 Ġ
Ġshi4Ġyi1Ġ ming2
Ġqu4 Ġshi4Ġ
e dĠĠĠ
Ġdi4Ġyi1Ġ ci4
Ġshi2Ġ shi1
Ġwai4 Ġjiao1
lu n4Ġ
chu1 Ġban3Ġ
Ġnian2Ġ du4
Ġji1 Ġyu2Ġ
Ġjing3 Ġfang1
g u4
Ġxi ang2
Ġzhi2 Ġdao4Ġ
Ġxie2 Ġhui4Ġ
Ġtai4 Ġ
Ġda4 Ġduo1Ġshu4
Ġli4Ġ ji2
Ġxin1 ĠdeĠ
fu2 Ġ
Ġzai4Ġ nei4
Ġm eng3
a b
ĠĠĠ xi1
Ġxin1 Ġzeng1
Ġtong1 Ġ
p i1Ġ
ti2 Ġchu1
zhe4 Ġxie1
Ġsuo3 Ġyou3
Ġhu4 Ġ
Ġbiao1 Ġzhun3
Ġban4 Ġ
hu i2
ĠĠĠ201 6Ġnian2Ġ
Ġgong1 Ġbu4Ġ
zhong1Ġhua2 Ġren2Ġmin2Ġgong4Ġhe2Ġguo2Ġ
jun1 Ġdui4
lie4 Ġ
ĠĠĠ you3
4 6
Ġzai4Ġ zhong1Ġguo2Ġ
Ġde2 Ġdao4Ġ
Ġgu i3Ġ
Ġ5 00
Ġzai4Ġ du4
Ġji1 Ġgou4Ġ
ĠleĠ yi2Ġge4
a k
Ġshi4Ġ ji2
Ġshi2Ġ yi1Ġ
ĠĠĠ202 2Ġnian2Ġ
Ġyong1 Ġyou3
Ġwen2 Ġxue2
jian4 Ġzhu4
e sĠ
Ġbu4Ġji u3Ġ
Ġbu4Ġ de2
Ġbi3 Ġya4
Ġgu a4
Ġdiao4Ġ cha2
e sĠĠĠ
Ġhou4Ġ zhe3
Ġhai3 Ġ
Ġni2 Ġ
ju3 Ġxing2Ġ
Ġshi4Ġ nan2
Ġdi4Ġ mian4
Ġdi ao1
ĠdeĠ zhi3
Ġbu4Ġ ke3
Ġzhong1Ġ wen2
Ġji1 Ġdu1Ġ
ao4Ġ yun4
Ġshu4 Ġju4
zh e
Ġl ai4Ġ
Ġjin3Ġbiao1 Ġsai4
Ġzai4Ġ bu4Ġ
Ġxian4Ġ lu4
Ġfa1 Ġxing2
Ġlian2 Ġjie1
Ġshui3 Ġyu4
Ġwen4 Ġ
ĠdeĠ xing4
zhi2 Ġye4
Ġyuan2Ġ zhu4
Ġzhen1 Ġ
di ng3
ge2 Ġlan2
Ġshou4 Ġdao4Ġ
Ġzhong1Ġguo2Ġ ren2Ġmin2
Ġguo2Ġ hui4
Ġji4Ġ lu4Ġ
ĠĠĠ yi4
di4 Ġwei4Ġ
y ang3Ġ
7 5
bian4 Ġ
Ġti e1
Ġdeng3 Ġdi4Ġ
Ġru2 Ġ
Ġzhong1Ġxue2 Ġ
19 4
fa1 Ġxian4
ĠĠĠji an3Ġ
fen1 Ġbie2
yi n4Ġ
Ġ18 9
Ġxue2Ġ zhe3
zi4 Ġyou2
ao3Ġ qi1
Ġzhi3 Ġhui1Ġ
Ġji2 ĠdeĠ
ji ng3
da4 Ġxue2Ġ
bao3 Ġ
Ġxie2 Ġyi4Ġ
mu4 Ġqian2
i ng
Ġzai4Ġ mei3Ġguo2Ġ
Ġ202 2Ġnian2Ġ
guang3Ġ dong1
fu2 Ġwu4
y e2
Ġshi4Ġ mei3Ġguo2Ġ
Ġfa1 Ġshe4
xiao3 Ġxing2Ġxing1
Ġxi1 Ġwang4Ġ
Ġxu e1
Ġzu3 Ġfu4
Ġha1 Ġer3
shi3 Ġyong4Ġ
Ġshi4Ġ you3
Ġhe2Ġ liu2
Ġji2 Ġzhong1Ġ
di4Ġ yi1Ġ
2 Ġren2Ġ
neng2 Ġli4Ġ
19 6
ti3 Ġ
Ġtan2 Ġ
Ġxiong1 Ġdi4Ġ
wen4 Ġti2Ġ
ĠdeĠ hou4
Ġchu1 Ġsheng1Ġyu2Ġ
Ġmei2 Ġ
Ġgu3 Ġ
ĠĠĠ yuan2
Ġdai4Ġbiao3 Ġ
Ġshuang1Ġ fang1
Ġbu4Ġ duan4Ġ
ĠĠĠ V
fu2 Ġwu4Ġ
Ġzhi4Ġ yu2Ġ
Ġa1Ġ la1
Ġju4 Ġyou3
lai2 Ġ
lian2 Ġbang1Ġ
Ġci3 Ġhou4Ġ
Ġsi4 Ġchuan1Ġ
Ġsheng1Ġya2 Ġ
w an3Ġ
qi e4
Ġgai3 Ġwei2
er3 Ġqi2
fu4 Ġ
zu3 Ġ
Ġxie3 Ġ
Ġyi3 Ġshang4
Ġchan3 Ġ
o s
Ġx u1
Ġjie2 Ġmu4Ġ
Ġzuo3 Ġyou4
Ġch en4
Ġying3 Ġxiang3
3 8
chuang4Ġ zuo4
Ġfang1 Ġan4Ġ
Ġcu i1
zhi1 Ġhou4Ġ
Ġt ai1
u b
yu3 Ġ
Ġjiao4 Ġshou4
Ġren2Ġ gong1Ġ
zu3 Ġcheng2Ġ
Ġshao4 Ġnian2Ġ
sh en3
Ġqi3 Ġye4
ch u3Ġ
fu3 Ġ
Ġdao4Ġ da2
Ġzhi1Ġ wai4Ġ
ĠdeĠyi1Ġ zuo4
feng1 Ġ
Ġju3 Ġxing2
nv3 Ġ
0Ġnian2Ġdai4 Ġ
w a3
Ġxiang4 Ġmu4Ġ
xing2 Ġ
zheng4 Ġ
ĠdeĠ jiao4
Ġhua4 Ġxue2
Ġwo 1
Ġguang3 Ġfan4Ġ
su i1Ġran2
guan3 Ġ
Ġgan3Ġ dao4
xiang1 Ġ
Ġgao1 Ġsu4
ĠĠĠ201 4Ġnian2Ġ
Ġgen1 Ġju4Ġ
ĠĠĠ201 5Ġnian2Ġ
Ġbing4 Ġjiang1
Ġyu2Ġ hai3
Ġ2 8
Ġyou3Ġxian4 Ġgong1Ġsi1
Ġxuan3 Ġwei4Ġ
Ġguang3Ġ zhou1
zh ao4
ĠdeĠ hua4
e m
Ġfei1 Ġ
Ġyu2Ġ19 7
Ġli4Ġ shan1
shu n4
ying3 Ġxiang3
Ġyi1 Ġnian2Ġ
ĠĠĠ 5
yi2 Ġding4
nan2 Ġbu4Ġ
ĠdeĠ lu4
3 6
Ġjian3Ġ cha2
T A
qu an1Ġ
ĠĠĠ fen1
Ġre4 Ġdai4
R Ġ
Ġhua2 Ġ
Ġzai4Ġ gai1
Ġch an2
Ġyou2 Ġqi2
Ġzai4Ġ t
Ġquan2 Ġbu4Ġ
Ġdi4Ġ an1Ġ
Ġhu ai4
Ġyo u1
ĠĠĠ 4
Ġhe2Ġ xi1
Ġnan2 Ġjing1
ĠdeĠdi4Ġ er4
ĠĠĠ xin1
ĠdeĠ biao3
Ġjian4 Ġdui4
Ġtian1 Ġjin1
dong1 Ġjing1
ĠdeĠ fei1
Ġz eng4
po 4
Ġji4Ġ zhe3
ĠĠĠ li4Ġ
Ġchu n1Ġ
zuo4 Ġpin3Ġ
Ġcheng2Ġ du4
qu1Ġ hua4Ġ
di4Ġ er4
ĠĠĠ201 3Ġnian2Ġ
Ġjie1Ġr ang3ĠdeĠshi4Ġzhen4Ġ
Ġcheng2Ġ ren4
Ġmi ao4
Ġshi4Ġ l
Ġya4 Ġzhou1
4 Ġren2Ġ
Ġch ai2
Ġzhao4Ġ kai1
Ġtu3 Ġdi4Ġ
ju3Ġ ban4
xia4 Ġxia2
ĠdeĠ er2
Ġp ang2
Ġwei4Ġ xing1
Ġe2 Ġluo2Ġsi1Ġ
Ġji1 Ġdi4Ġ
Ġjiang1 Ġjun1
fen4 Ġ
Ġji4Ġ cheng2Ġ
ĠdeĠ bao4
min2 Ġzu2
Ġzhong1Ġ you3
Ġmei3 Ġge4
Ġchang2 Ġ
Ġhu2 Ġnan2
ĠdeĠ ji2
Ġ2 6
san1 Ġge4
Ġshi4Ġ ri4Ġben3
Ġmi ao2
Ġqing1 Ġnian2Ġ
z ao4
mei2 Ġti3
1 Ġren2Ġ
Ġn i3Ġ
er3 Ġ
an3 Ġhe2Ġ
qi3 Ġye4
Ġshou1 Ġlu4
Ġch a1Ġ
shu n4Ġ
qing1 Ġnian2Ġ
Ġdao4 ĠdeĠ
3 Ġren2Ġ
Ġshi2Ġ yan4Ġ
ku an1Ġ
wu4 Ġyuan4
Ġbao4 Ġfa1
Ġbiao1 Ġwei4Ġ
ĠĠĠ l
jie2 Ġshu4
Ġshi4Ġ zheng4
Ġsu n3Ġ
Ġni u3Ġ
Ġjie3 Ġjue2
she4 Ġ
zhe4 Ġge
Ġwu4 Ġli3
ĠdeĠyi1Ġ zhong3
Ġer2 Ġshi4Ġ
Ġling4 Ġwai4Ġ
Ġfu2 Ġjian4
ch ao2
ĠdeĠfang1 Ġshi4Ġ
Ġping2 Ġtai2
Ġshi4Ġ yue4
ĠĠĠ he2Ġ
she4 Ġyou3Ġ
jue2 Ġsai4
Ġyi1Ġ tong2
Ġti3 Ġzhang3
ĠĠĠ dui4
ĠdeĠ gu3
Ġzai4Ġ yu2Ġ
Ġbu4Ġ la1
Ġni ao3
Ġran2 Ġhou4
Ġzhi1 Ġxian4Ġ
Ġfen1 Ġwei2Ġ
yuan4 Ġ
in d
Ġba1 Ġshi4Ġ
lian2 Ġmeng2
Ġm i2
Ġxian4 Ġren2Ġ
g ang1
Ġyue4Ġ tai2
m ou3
Ġshi4Ġ min2
Ġk ou4
Ġzong3 Ġmian4Ġji1Ġ
ĠĠĠ202 3Ġnian2Ġ
Ġkan4Ġ dao4
Ġzhi1Ġqian2 Ġ
Ġhong1 Ġzha4
Â °
Ġguo2Ġ li4Ġ
Ġzhi4Ġz ao4
Ġm ang2
u m
ĠdeĠ fa3
Ġyun4 Ġshu1
ku i2Ġ
Ġzhi4Ġz ao4Ġ
ï ½
ĠdeĠ zhong4Ġyao4
Ġshi4Ġ da4
Ġda4 Ġqu1Ġ
Ġli3Ġ ya4
mu4 Ġ
Ġzong1 Ġhe2Ġ
Ġlian2 Ġbang1Ġ
dao3 Ġzhi4Ġ
z ao4Ġ
Ġer2 Ġtong2
Ġci3 Ġshi2Ġ
Ġdi3Ġ da2
che1 Ġzhan4Ġ
e v
an2 Ġguo2Ġ
Ġshi4Ġ bing1
Ġtong2Ġshi2Ġ ye3
Ġgui1Ġ ding4
Ġyue4Ġ nan2
Ġhuang2 Ġdi4Ġ
ke1 Ġ
s i3
Ġsh ang3Ġ
ĠdeĠ si1
ku a4
Ġd ao1
Ġlian2 Ġxu4
Ġer3 Ġsi1Ġ
Ġzhun3 Ġbei4
3 7
n a2
Ġping2 Ġmian4
Ġni u3Ġyue1
Ġer3 Ġlan2
19 5
Ġyou3Ġ yi2Ġge4
Ġ2 1
Ġfang1 Ġfa3
Ġding4 Ġwei4Ġ
Ġhuo3 Ġ
M Ġ
ĠdeĠ yu3
bi3 Ġsai4Ġ
ĠdeĠ wai4
Ġdao4 Ġlu4
Ġtiao2 Ġzheng3
Ġchang2 Ġqi1
Ġla1 Ġsi1Ġ
zui4 Ġzhong1Ġ
Ġyi1Ġ xue2
Ġhu n2
Ġqun2 Ġ
ĠdeĠ liang3
Ġyu2Ġ19 4
wan2 Ġcheng2Ġ
Ġwei2 Ġzhu3Ġ
Ġku n1
ĠT heĠĠĠ
Ġxing2Ġdong4 Ġ
Ġzou3 Ġ
Ġsui2 Ġzhe
xi1 Ġ
Ġyi3Ġ se4
Ġnv3 Ġ
zhi2 Ġjie1
00 Ġwan4Ġ
Ġr u
Ġbi an3Ġ
Ġn e4Ġ
ĠdeĠ tou2
Ġzai4Ġ 18
Ġzhou1 Ġshi4Ġ
Ġze2 Ġshi4Ġ
Ġman4Ġ hua4
yue1 Ġhan4Ġ
Ġhui4 Ġyi4
Ġ2 4
Ġdong1 Ġ
Ġzhu3 Ġjue2
bao1 Ġhan2
Ġma3 Ġli4Ġ
am pĠ
B Ġ
Ġ6 0
Ġt uo4
ĠĠĠ shi2Ġ
bei3 Ġmei3
Ġzhi1 Ġshi2Ġ
Ġshe4 Ġqu1Ġ
Ġtuo1 Ġ
ĠdeĠ shui3
Ġ3 5
ĠĠĠ zhong1Ġ
Ġhuo4 Ġshi4Ġ
Y ou
g en1
she4 Ġhui4Ġ
ch ong1
fa1 Ġbu4Ġ
Ġming4 Ġming2Ġ
ge1 Ġ
Ġyou3Ġxian4 Ġgong1Ġsi1Ġ
tong2 Ġshi2Ġ
kou3 Ġ
Ġzai4Ġ19 8
lv e4
Ġjin4 Ġgong1Ġ
Ġling3 Ġyu4
jian4 Ġli4Ġ
gong1 Ġbu4Ġ
Ġzhi4Ġ jin1
Ġhou4Ġ xuan3
Ġgui1Ġ hua4
xue2 Ġsheng1
te4 Ġbie2
sai4 Ġ
ji4Ġ nian4Ġ
Ġcheng2Ġ xian4
Ġer2 Ġbei4
Ġli4Ġya4 Ġ
Ġsan1 Ġge4
Ġwan2 Ġjia1
jie2 Ġmu4
Ġbu4Ġ he2Ġ
Ġer3 Ġsi1
Ġqi e4Ġ
Ġzhi4Ġ zuo4Ġ
Ġjin4 Ġyi2Ġbu4Ġ
Ġjie2 Ġhe2Ġ
Ġsa4 Ġke4
Ġguo2Ġ nei4
b ai2Ġ
ĠdeĠ jin4
Ġhe2Ġp an4Ġ
zhi1 Ġjian1
9 Ġren2Ġ
Ġb an3ĠdeĠ
Ġfa3 Ġlan2
p ai2Ġ
Ġyi4Ġ fang1
chuan2 Ġ
cu n1Ġ
ĠĠĠ ji1
in Ġ
Ġdeng1 Ġ
Ġshi4Ġ yi1Ġwei4Ġ
Ġgeng1 Ġming2Ġwei4Ġ
Ġzi4 Ġdong4
Ġ2 7
Ġbing4 Ġfei1
Ġmu3 Ġqin1
xu e4Ġ
lu4Ġdi4Ġ mian4Ġji1Ġwei4Ġ
ĠĠĠ 10
00 Ġnian2Ġ
ĠdeĠ chu1
Ġp u1Ġ
Ġshui3Ġyu4 Ġmian4Ġji1Ġwei4Ġ
Ġyou3Ġ suo3
Ġchu2 ĠleĠ
Ġge4 Ġdi4Ġ
Ġxiang1 Ġdui4
Ġku i2Ġ
hu a1
Ġxu e4
f ormulaĠ
z ao1
Ġsheng1 Ġzhang3
Ġn ai4
Ġren2 Ġzai4Ġ
Ġn u3
Ġji1 Ġchu3Ġ
g an1Ġ
Ġf ei2
Ġyong4 Ġlai2
6 5
Ġmo2 Ġshi4Ġ
V Ġ
ĠĠĠ ming2
xi4 Ġbao1
Ġg ong3
Ġxiao3 Ġxing2Ġxing1
Ġnian2 Ġshi4Ġjie4
ï½ ŀ
t a
t ang2Ġ
jing1 Ġguo4
Ġji1 Ġbai4
Ġle i3Ġ
Ġwei4Ġ he2Ġ
Ġshi4Ġ jia1
ying1 Ġge2Ġlan2
Ġkai1 Ġfang4Ġ
Ġ ampĠ
Ġpo 1Ġ
Ġdan1 Ġ
guan3 Ġli3Ġ
f an1Ġ
p ai4
Ġni u2Ġ
Ġda4 Ġlu4
Ġdang1Ġzhong1Ġ lu4Ġdi4Ġmian4Ġji1Ġwei4Ġ
qi ng2
Ġer2 Ġshui3Ġyu4Ġmian4Ġji1Ġwei4Ġ
ou n
Ġl ang4
Ġmin2 Ġ
ĠĠĠ201 2Ġnian2Ġ
Ġyuan2 Ġhe2Ġ
Ġmi4 Ġshu1
Ġnong2Ġ ye4
p h
Ġzh ai2
Ġ200 4Ġnian2Ġ
Ġyi1 Ġshi4Ġ
mi ao2
dong1 Ġnan2
Ġjue2 Ġsai4
Ġqun2 Ġdao3
t ian2
Ġwei4Ġ gao1
Ġzi4 Ġji3Ġ
ĠdeĠsh en2
Ġcheng2Ġli4Ġ yu2Ġ
Ġc ao2
xu e3
Ġneng2 Ġli4Ġ
Ġwei1Ġ er3
san1 Ġnian2Ġ
qing1 Ġ
Ġyou2 Ġtai4
Ġshi4Ġ nei4
Ġf en2
Ġbiao1 Ġzhun3Ġ
Ġdi4Ġ 1
Ġqi2 Ġhou4Ġ
Ġx u2
qi ng4
t ui4
Ġn ai4Ġ
nan2 Ġxing4
ni u2
Ġhua4 Ġhe2Ġ
Ġzhi3 Ġneng2
su n1Ġ
Ġshi4Ġ gong1Ġ
Ġji1Ġ che1
Ġmi4 Ġ
Ġ18 8
Ġyu2Ġ19 6
w en3
Ġtuan2 Ġdui4
suo3 Ġyou3
di ao1
xin1 Ġwen2
nan2 Ġzi
ĠdeĠ guo2Ġjia1
ji 3
Ġwei4Ġ you3
Ġnv3 Ġzi3
i m
Ġfu1Ġ si1
e g
Ġxing2 Ġwei2
Ġduo1 Ġge4
Ġying1 Ġyu3Ġ
k ong3
ĠĠĠ cong2
ao3 Ġnian2Ġ
zui4 Ġhou4
sai4 Ġshi4Ġ
Ġjie1 Ġdao4Ġ
sh an4Ġ
ĠĠĠ ma3
ĠdeĠ wu4
Ġshi4Ġ ren2Ġ
ĠĠĠxing2Ġzheng4Ġ qu1Ġhua4Ġ
ĠdeĠ you3
Ġtong3 Ġzhi4Ġ
g ang1Ġ
ni ao3
Ġgai3 Ġbian1
xun4 Ġlian4Ġ
Ġji2Ġ shi3
Ġda2 Ġdao4Ġ
Ġgong1Ġ zhu3
Ġwei4Ġfu2 Ġqi2Ġyu2Ġ
ĠĠĠ ling4
Ġgong1Ġ hui4
Ġxu e4Ġ
z i3
Ġ2 1Ġ
Ġyu2Ġ19 5
Ġdian4Ġshi4Ġ tai2
Ġjie2 Ġgou4Ġ
she4 Ġli4Ġ
fu4 Ġjin4
Ġwang3 Ġluo4
Ġkong1 Ġjun1
ĠdeĠshi2Ġ jian1
ĠdeĠg u4Ġshi4Ġ
guang3Ġ bo1
Ġshi4Ġ zheng4Ġfu3
duo1 Ġ
ĠdeĠ shan1
Ġnei4 Ġrong2Ġ
Ġguo2Ġjia1 Ġ
Ġao4Ġ yun4
zheng4Ġzhi4Ġ ren2Ġwu4Ġ
di ng3Ġ
Ġyi1Ġ sheng1
Ġpai2 Ġming2
Ġti3Ġzhang3 Ġke3Ġda2
Ġbu4Ġ zhang3Ġ
Ġjiao4 Ġlian4Ġ
Ġ2 9
Ġ202 3Ġnian2Ġ
X Ġ
Ġbi ng3Ġ
Ġjia4 Ġzhi2
Ġzong1 Ġ
Ġren2Ġmin2 Ġzheng4Ġfu3
ch ong2
nv3 Ġxing4
Ġdeng1 Ġlu4
an1 Ġwei4Ġ
su n1
ĠdeĠ lian2
Ġzh an3Ġshi4Ġ
Ġp ao3
Ġjin4 Ġzhi3
Ġfan3Ġ hui2Ġ
a ng
n e
ĠĠĠ 6
20 Ġshi4Ġji4Ġ
Ġli3 Ġlun4
Ġb ang4
Ġbi3 Ġli4Ġ
Ġsui4 Ġshi2Ġ
ĠdeĠ biao1
Ġhe2Ġ gong1Ġ
dao3 Ġ
F Ġ
ĠdeĠ fa1
Ġxing1 Ġqi1
ĠĠĠ U
ĠdeĠ zhi1Ġchi2
ĠdeĠdi4Ġ qu1Ġ
Ġren2Ġ wu4
Ġban3Ġ ben3Ġ
r an
dong1 Ġbu4Ġ
18 Ġnian2Ġ
Ġzui4 Ġda4ĠdeĠ
0Ġ mi3Ġ
7 Ġren2Ġ
shou4 Ġdao4
Ġyang3Ġ hua4
bo2 Ġwu4Ġguan3
xu e4
Ġsheng3 Ġfen4Ġ
Ġwang3 Ġzhan4
Ġzao1 Ġdao4
Ġyou3Ġ zhu4
Ġle ng3
Ġchong1 Ġtu1Ġ
ce4 Ġ
Ġzhong1Ġ shan1
Ġyue1 Ġ
Ġzhe4 Ġyang4
Ġzh ao3Ġ
Ġtai4 Ġping2Ġyang2
Ġcha2 Ġ
Ġsi1Ġ la1
ĠĠĠ of
Ġquan2 Ġli4Ġ
Ġjie3 Ġshi4Ġ
Ġcai3 Ġqu3
Ġgong1Ġ lu4Ġ
Ġxian4 Ġwei4Ġ
Ġyou2 Ġzheng4Ġbian1Ġma3Ġwei4Ġ
Ġju1Ġ zhu4
sh ang1
Ġying4 Ġyong4
ĠĠĠ202 4Ġnian2Ġ
Ġbu4Ġ shao3
Ġshi2Ġ jian1Ġ
Ġchao1 Ġji2Ġ
ji4Ġ hua4
qi ao2
Ġzhi4Ġ du4
Ġ2 2
Ġer4 Ġnian2Ġ
ni2 Ġ
Ġzh uo1
ĠC h
Ġxuan3 Ġju3
ping2 Ġ
ĠdeĠ dao4
ĠdeĠ ge4
p a4
ying3 Ġpian4Ġ
Ġhu an3Ġ
Ġbei3 Ġqi3
Ġhe2Ġ zhong1Ġ
ĠdeĠ bian1
Ġqiao2 Ġzhi4Ġ
m ai4
Ġzai4Ġ xin1
Ġdi4 Ġwei4Ġ
Ġfo2 Ġjiao4
Ġtian1 Ġzhu3Ġjiao4
k ong4
ji4Ġ shu4
Ġgou4 Ġmai3
Ġshao3 Ġshu4
O Ġ
ao4Ġlin2Ġpi3Ġke4Ġyun4Ġdong4 Ġhui4
Ġming2 Ġzhi4Ġ
Ġlu4 Ġxian4Ġ
b ai2
ĠĠĠg ai4Ġ
ji ang4Ġ
Ġshe4 Ġbei4
k uo4
le i1Ġ
Ġsi3Ġ wang2
s ou1
ĠdeĠ guo2Ġ
ĠdeĠ sheng4
Ġyi3Ġse4 Ġlie4
Ġgai4Ġ nian4Ġ
de2 Ġ
Ġci3 Ġwai4
ĠdeĠshi2Ġ qu1Ġwei4Ġ
a y
ti c
lu4 Ġjun1
zhi4Ġ zuo4
Ġguang3Ġ chang3
en Ġ
Ġji1 Ġhe2Ġ
Ġni an4Ġ
Ġju an1Ġ
ind ow
Ġxi1Ġ sheng3
Ġchu1 Ġsheng1
Ġjie1 Ġwei4Ġ
Ġ200 0Ġnian2Ġ
Ġen1 Ġ
cheng2 ĠdeĠ
Ġguo4 Ġcheng2Ġ
Ġg ou3
Ġquan2 Ġzhang3
Ġtui1Ġ dong4
Ġhe2Ġ ta1
Ġdi4Ġ yi2Ġge4
Ġnei4 Ġbu4Ġ
k an1Ġ
yi3 Ġjing1
Ġbao4 Ġgao4Ġ
ĠdeĠ chang2
Ġt wĠ
Ġshi2Ġ jiu3
Ġda4 Ġlou2
Ġling4 Ġyi1Ġ
Ġxi2Ġ ji1
wei4 Ġshi4Ġ
Ġzai4Ġ 202
Ġgong1Ġ zhong4
Ġhan sĠ
Ġji1 Ġguan1
Ġfen1 Ġwei2
Ġer3 Ġsheng3Ġ
s en1
neng2 Ġgou4
Ġr u3Ġ
ĠdeĠ qing1
ji a3
Ġshu ai1
Ġfa3 Ġlv4
Ġqing1 Ġ
zh an3Ġ
Ġjiang1 Ġsu1Ġ
Ġzhi3 Ġchu1Ġ
Ġxian4 Ġren4
du2 Ġli4Ġ
Ġxing2Ġ che1
c i2
ĠdeĠ zong3
Ġdan1 Ġqu1Ġ
ĠĠĠ ping2
Ġbao3 Ġliu2
Ġbu4Ġ ming2Ġ
Ġl ang4Ġ
ĠdeĠqi2 Ġzhong1Ġyi1Ġ
su1Ġ lian2
ĠdeĠ guo4
Ġma3 Ġlai2Ġxi1Ġya4
Ġqi4 Ġche1
Ġdao3 Ġyan3
Ġchu1 Ġxian4Ġzai4Ġ
Ġhu2Ġ bei3
Ġt ang1Ġ
ĠĠĠde Ġshi2Ġ
3 2
mi n3
Ġzhan4 Ġshi4Ġ
Ġzheng1 Ġyi4Ġ
d a3Ġ
ĠdeĠ zhuan1Ġ
Ġzai4Ġ wei4Ġ
Ġgong1Ġ min2
5 Ġri4
Ġfang3 Ġwen4
8 Ġren2Ġ
jie1 Ġ
ï¼ ı
yu n3
xue2 Ġ
Ġke4 Ġla1
Ġzu n1Ġ
wei3 Ġ
Ġshen1 Ġfen4
Ġzhi1 Ġzhong1Ġ
gong1Ġ yuan2
Ġzhe4 Ġci4
Ġjie2 Ġzhi4Ġ
Ġjin1 Ġshu3
Ġbi3 Ġjiao4
Ġli4 Ġhe2Ġ
Ġshi2Ġer4 Ġnian2Ġ
ĠĠĠ dang1
Ġzui4 Ġduo1
Ġta1 Ġhai2
Ġguan1 Ġzhong4
qu an4Ġ
Ġ200 2Ġnian2Ġ
x u3Ġ
Ġwei4Ġ qi2
Ġm ang2Ġ
Ġda4 Ġxi1Ġyang2
ĠdeĠxi ao1
N Ġ
Ġji2Ġ bing4
Ġxiu1Ġ gai3
Ġji1 Ġbai4Ġ
Ġyuan2Ġ zi4
ĠĠĠ yue4
ĠdeĠ jiao1
ĠĠĠde Ġyou2Ġzheng4Ġbian1Ġma3Ġwei4Ġ
ĠĠĠyu3 Ġjie1Ġrang3ĠdeĠshi4Ġzhen4Ġ
ĠĠĠyu2Ġ shi2ĠdeĠren2Ġkou3Ġshu4Ġliang4Ġwei4Ġren2Ġ
ĠĠĠsuo3 Ġshu3ĠdeĠsheng3Ġji2Ġxuan3Ġqu1Ġwei4Ġ
ĠĠĠdeĠshi2Ġ qu1Ġwei4Ġ
u s
Ġ Ñ
Ġs ang1
6 Ġren2Ġ
a li
k ao3Ġ
ĠĠĠ19 2
shuo1 Ġ
ch ong2Ġ
ni e4
N A
k u4
Ġwei4Ġ ji1
Ġqu an1Ġ
Ġxia4 Ġxia2
i v
wei2 Ġyi1Ġ
Ġda4 Ġhui4Ġ
Ġgong1Ġ yuan2Ġ
wo 4
Ġhu n4Ġ
Ġsi4 Ġnian2Ġ
fa1 Ġbiao3
Ġhe2Ġ cheng2Ġ
Ġyue4 Ġtuan2
Ġzhu3 Ġti2
Ġsu n3
xi an1Ġ
b er
lv 3Ġ
r ang4Ġ
ã ĥ
Ġp u4
Ġyao4 Ġ
Ġshi4Ġwei4Ġ le
zhu3 Ġyi4Ġ
k an4Ġ
Ġzhi3 Ġchu1
ĠdeĠzh en1
Ġdang1 Ġxuan3
Ġyu3 Ġqi2
Ġshou1 Ġru4
Ġri4Ġben3 Ġ
bo1 Ġlan2
Ġs u2Ġ
Ġshan3Ġ xi1
Ġhe2Ġ gu3
Ġge1 Ġshou3
a i
Ġtai4 Ġyang2
ĠĠĠ w
guan1 Ġyu2Ġ
ĠdeĠ bian4
Ġdong1 Ġlin2
chi2 Ġxu4
Ġshe4 Ġyou3
Ġtu2 Ġshu1
Ġdi4Ġ 2
Ġyi4 Ġshi2Ġ
Ġting2Ġ zhi3
Ġyi1Ġ ji2
Ġmao2Ġ qiu2
qi n1
Ġh kĠ
Ġzai4Ġ ri4Ġben3
Ġ200 3Ġnian2Ġ
jue2 Ġse4
ĠdeĠ dan1
Ġli4Ġ shu3
la1 Ġ
Ġmi e4Ġ
q u4Ġ
Ġzai4Ġ na4
ĠĠĠ201 1Ġnian2Ġ
5 5
ju an3Ġ
ĠdeĠ duo1
ĠdeĠ fu2
Ġshi4Ġ ta1
Ġnei4 Ġrong2
ĠdeĠ shi1
ĠdeĠ ma3
Ġdai4 Ġlai2
Ġtian1 Ġwen2
Ġyun4 Ġdong4Ġ
Ġl ou4
r ang4
Ġshi4Ġ qi2
ĠdeĠ zhong4
Ġshi4Ġ hou4
Ġwu2 Ġxian4Ġ
Ġta1Ġceng2 Ġdai4Ġbiao3
Ġxiao3 Ġshuo1
al Ġ
Ġyin2 Ġhang2
ĠdeĠ xiang1
Ġzh ai1
lian2 Ġxu4
Ġgong4 Ġchan3
Ġyi2 Ġdu4
ĠdeĠ qiu2
Ġs i
Ġbian1 Ġhao4
shu ai4
Ġzui4 Ġzao3
Ġda4 Ġgui1Ġmo2
Ġge1 Ġqu3Ġ
Ġya2 Ġ
Ġshi4Ġg u4
dong1 Ġ
Ġjian4Ġzhi4Ġ di4Ġqu1Ġ
s ong1
Ġyi3 Ġbei4
Ġdian4 Ġtai2
de r
20 Ġ
jing1 Ġli4Ġ
Ġyuan2 Ġshi4Ġ
tian1 Ġzhu3Ġjiao4
Ġgong1Ġ ren2Ġ
da2 Ġ
Ġshi2Ġji4Ġ shang4
ĠĠĠ ba1
dian4 Ġzi
Ġyou3Ġ liang3
zi4 Ġran2
Ġc ao2Ġ
Ġwen2 Ġwu4Ġbao3Ġhu4Ġdan1Ġwei4Ġ
Ġyu2Ġl e4
mi e4Ġ
tian1 Ġjin1
xing1 Ġ
Ġzhi3 Ġzai4Ġ
Ġni e4
Ġjie2 Ġke4
ĠdeĠsh uo1
Ġlu2 Ġwa3Ġer3
sheng1Ġhuo2 Ġ
ĠĠĠ201 0Ġnian2Ġ
en t
tong2 Ġ
Ġli3 Ġlun4Ġ
Ġzhi2 Ġxing2Ġ
ĠdeĠ chuan2
Ġguo4 Ġqu4
Ġsheng3 Ġhe2Ġ
ĠĠĠyi3 Ġxia4
Ġren2Ġ wu4Ġ
Ġw a2
Ġwei2 Ġyi1Ġ
Ġfu4Ġze2 Ġguan3Ġxia2Ġ
Ġfan3Ġying4 Ġ
B C
10 Ġnian2Ġ
ĠdeĠ ke4
xi1 Ġbu4Ġ
Ġdi4Ġ liu4
Ġbing4 Ġli4Ġ
Ġshi4Ġ qu1Ġ
o t
r e4Ġ
ch u3
Ġhou4 Ġbei4
ĠdeĠ fa1Ġzhan3Ġ
ĠdeĠzuo4 Ġpin3Ġ
xi u1Ġ
Ġzhong1Ġ bei4
Ġde2 Ġli3
Ġlie4 Ġwei4Ġ
Ġhao4 Ġxian4Ġ
Ġfan1Ġ yi4
ĠĠĠgen1 Ġju4Ġ
ĠĠĠ zhong1Ġguo2Ġ
Ġnv3 Ġzi3Ġ
Ġmai4 Ġke4
Ġye3 Ġbei4
Ġni u2
Ġpu2 Ġtao2Ġya2
Ġda4 Ġzhi4Ġ
Ġjian4 Ġcheng2Ġ
Ġzi1 Ġ
ĠĠĠ chu1
dong4 Ġhua4
y ang4
yong4 Ġ
hu a1Ġ
Ġzui4 Ġ
Ġya2 Ġli4Ġ
Ġyan2Ġjiu1Ġ suo3
Ġao4 Ġmen2
u n1Ġ
tian1 Ġwen2
Ġbing4 Ġru4
b u3Ġ
Ġd uo3
Ġzuo4 Ġyong4Ġ
Ġdang1 Ġshi2
Ġqi1Ġxi1 Ġzai4Ġ
ĠĠĠ zhan4
Ġjie1 Ġjin4
Ġzhan4 Ġyi4Ġ
ĠĠĠ jian4
ĠdeĠ ren4
Ġshi4Ġ dui4
ĠdeĠ ri4
ĠĠĠ hou4
Ġqi a4
Ġdi4Ġ ya4
Ġsi1 Ġtuo1
Ġqing1 Ġchao2
l u3Ġ
Ġgai3 Ġge2
Ġzai4Ġ19 7
Ġdi4Ġ qi1
Ġhe2Ġ shi2Ġ
Ġk ui4
Ġyi4 Ġren2Ġ
Ġfeng1 Ġge2
Ġs a1
Ġti ao3
Ġzheng4Ġ zhi4
ĠĠĠ 8
Ġbo1 Ġchu1Ġ
1 Ġri4
ji a4
ch i4
ĠdeĠ zhi1
Ġs an3Ġ
Ġjiao4 Ġtang2Ġ
ĠdeĠshi2Ġ hou4Ġ
Ġbu4Ġ bing1
Ġda4 Ġchen2
Ġjian4 Ġzao4
Ġying1 Ġge2Ġlan2
ĠdeĠ dong1
Ġbu4Ġ luo4
Ġxu n1Ġ
Ġfang4Ġ qi4
ĠĠĠzh Ġ
Ġcong2 Ġshi4Ġ
Ġbo1 Ġlan2
Ġtui4 Ġ
Ġjia1 Ġting2Ġ
Ġying1 Ġgai1
Ġbu4Ġ zu2
gong1Ġ zuo4
Ġguo2 Ġhe2Ġ
xi4Ġtong3 Ġ
c eĠ
chu n1Ġ
ĠdeĠ si4
Ġ18 7
nong2Ġ ye4
ao4 Ġmen2
Ġzh ui4
xia4 Ġwu3
Ġjiao1 Ġ
Ġw eng1
3 9
b ang1Ġ
Ġwu2 Ġren2Ġ
Ġli4Ġ fu2
Ġao4 Ġda4Ġli4Ġya4
ge2 Ġ
wang3 Ġluo4
Ġwei4Ġ 2
Ġhai2 Ġyou3
L Ġ
shen1 Ġfen4
Ġshi4Ġ zui4
guan1 Ġxi4
yan2 Ġzhong4
Ġshi2Ġ yi1Ġnian2Ġ
g ui4
Ġjun1 Ġzai4Ġ
Ġwei4Ġ xin1
Ġch ou1
Ġyi2 Ġ
Ġyi3Ġlai2 Ġ
Ġhe2Ġ bu4Ġ
Ġg ao3Ġ
Ġr an3Ġ
Ġmei3 Ġni2Ġya4
su4 Ġdu4
Ġn u3Ġ
Ġzu3 Ġhe2Ġ
a sĠĠĠ
t u3Ġ
ku n1
Ġwen2 Ġming2Ġ
Ġren4 Ġwu4Ġ
qi ao2Ġ
ĠdeĠ mei3
bao4 Ġgao4Ġ
Ġzhong1Ġgong4 Ġzhong1Ġyang1Ġ
bi n1
Ġqi ong2
Ġshi4Ġ yu2Ġ
c uo4
d ou4
Ġhe2Ġ da4
Ġran2 Ġhou4Ġ
Ġ18 6
ĠĠĠ zhu4
ĠĠĠjia1 Ġzu2Ġ
Ġzhu3 Ġren4
Ġbao4 Ġdao4Ġ
ĠdeĠk ong1
ji ng3Ġ
jie2 Ġmu4Ġ
Ġbiao3 Ġyan3
Ġsheng4 Ġli4Ġ
4 7
x i2
Ġzhong1Ġ yu2Ġ
7 Ġri4
Ġqu an4Ġ
Ġzhong1 Ġshi4Ġ
Ġji2 Ġshi4Ġ
yao1 Ġqiu2
g ei3
Ġgong1Ġ chang3
Ġxi1 Ġwang4
Ġer3 Ġte4
Ġren4 Ġwu4
Ġqi2Ġzhong1Ġ bao1Ġkuo4
Ġshi4Ġyi1Ġ ke1
jin4 Ġ
ĠdeĠ xuan3
Ġku n4Ġ
Ġchi2 Ġ
Ġ202 4Ġnian2Ġ
ao4 Ġda4Ġli4Ġya4
Ġyin1 Ġyue4
Ġshe4 Ġshi1Ġ
Ġzhou1 Ġnian2Ġ
Ġjian3Ġ shao3
6 Ġri4
Ġzh a1Ġ
Ġli4Ġshi3 Ġshang4
ac k
Ġyi1Ġyuan4 Ġ
Ġyi1Ġ zuo4
Ġcai2Ġ neng2
2020Ġnian2Ġ mei3Ġguo2Ġren2Ġkou3Ġpu3Ġcha2ĠdeĠshu4Ġju4Ġ
Ġxi1 Ġfang1
Ġlin2 Ġshi2Ġ
Ġyi1Ġsi1 Ġlan2
Ġming4 Ġming2Ġwei4Ġ
an d
3 3
bi n1Ġ
Ġt ou1
0Ġ mi3
ĠdeĠ qi1
ĠĠĠ can1
Ġzheng4Ġfu3 Ġ
- -
o g
ĠĠĠ 7
er4 Ġnian2Ġ
Ġwei4Ġ dui4
Ġqu3 Ġdai4
Ġda4 Ġxing2
Ġchu an4Ġ
t an3Ġ
Ġda4 Ġduo1
Ġxing1 Ġjian4
ĠC Ġ
pi ao4
ĠdeĠ shu1
Ġnan2 Ġzhi4Ġ
Ġbu4Ġji n3
e d
y a3
Ġda4 Ġqu1
Ġchu1 Ġqi1
Ġjing1 Ġli4Ġ
Ġming4 Ġ
O S
Ġdan4 Ġyou2Ġyu2Ġ
ĠdeĠh uo2
e2 Ġ
yan3 Ġchang4
Ġp i4
Ġjun1 Ġwei4Ġ
Ġfa3 Ġan4Ġ
19 3
Ġp en1
Ġjian4 Ġyi4Ġ
Ġxiao1 Ġshou4
Ġye3 Ġyou3
ĠĠĠz ao3Ġnian2Ġ
p an4Ġ
Ġguan1 Ġcha2
Ġsong4 Ġ
e w
Ġwu3 Ġnian2Ġ
ch e4
tong2 Ġyi1Ġ
Ġxi an3ĠdeĠ
Ġdi an1Ġ
Ġ3 00
ĠdeĠf an4Ġ
jie2 Ġgou4
i sĠĠĠ
Ġzhi4Ġ li4Ġ
Ġmi ao3Ġ
Ġyi3 Ġhou4Ġ
Ġ8 0
Ġming2Ġchao2 Ġzheng4Ġzhi4Ġren2Ġwu4Ġ
xiang1 Ġdang1
su n3Ġ
Ġs eng1
deng3 Ġren2Ġ
Ġjiang1 Ġjun1Ġ
Ġzhi4 Ġwei4Ġ
Ġbu4Ġdui4 Ġ
p ai1
po 4Ġ
qi n2
Ġshi4Ġ ge4
Ġhui4 Ġbei4
or Ġ
Ġlong2Ġ jiang1
wan2 Ġquan2
Ġyuan2Ġ lai2
Ġbiao3 Ġda2
Ġtou2 Ġru4
ĠdeĠsh ang1Ġ
Ġshi4Ġ wei1Ġ
Ġche1 Ġliang4
Ġji4Ġshu4 Ġ
Ġjin4Ġxing2 Ġle
p er
u3 Ġdi4Ġ
Ġsi1Ġ lin2
i d
Ġ4 5
nv3 Ġzi3
Ġji u1
Ġshi3 Ġjian4Ġyu2Ġ
Ġwan2 Ġjia1Ġ
Ġyou4 Ġming2Ġ
Ġchuang4Ġ ban4
Ġhou4Ġxuan3 Ġren2Ġ
xiao3 Ġshuo1
Ġzai4Ġ nan2
Ġzhan4 Ġzheng1Ġ
ĠdeĠxi n4
Ġji2Ġ zhou1
Ġyi4 Ġyi4Ġ
Ġzhi3 Ġyou3
Ġhe2Ġ ma3
Ġcheng2Ġ xu4
Ġcai2 Ġzheng4
Ġsheng1Ġhuo2 Ġ
Ġyu2Ġ19 3
Ġqi ang3
Ġzhou1 Ġbian1
Ġdong4 Ġwu4Ġ
b a3
bo1 Ġ
Ġhe2Ġ he2Ġ
Ġkai1Ġshi3 Ġ
Ġyi1Ġ zhi1
d i1Ġ
b u2
Ġli3 Ġsi1Ġ
Ġbing4 Ġ
n ai3
Ġshi4Ġ zhang3
Ġyi1Ġ jia1
Ġzhuan1Ġ men2
Ġ199 8Ġnian2Ġ
4 Ġri4
bu4 Ġzai4Ġ
Ġji2 Ġshi2Ġ
Ġli4Ġ ren4
Ġcu i1Ġ
Ġshi2Ġsi4 Ġnian2Ġ
shan1 Ġdong1
Ġwei4Ġ da4
Ġzhi4Ġ liao2Ġ
ĠdeĠz ong1
shi2Ġ qi1Ġ
lv3 Ġyou2
Ġh u3
Ġzhong1Ġ zui4
Ġyong4 Ġzuo4
Ġhai3 Ġan4Ġ
Ġ199 9Ġnian2Ġ
yun4Ġdong4 Ġyuan2Ġ
Ġxing2 Ġwei2Ġ
Ġcan1 Ġmou2
Ġshi2Ġsan1 Ġnian2Ġ
Ġjia1 Ġting2
Ġgao1 Ġzhong1Ġ
Ġshi4Ġ yan4Ġ
Ġqin2 Ġ
ni u2Ġ
Ġshi1 Ġqu4
A S
xi ao1
yi n4
guan1 Ġfang1
ĠdeĠ yin1
Ġshen2 Ġjing1
ĠĠĠ200 8Ġnian2Ġ
sheng1 Ġchan3
Ġan1Ġ de2
Ġlun2 Ġbi3Ġya4
Ġ3 6
Ġzhi4Ġ ding4
Ġfeng1 Ġbao4
Ġpo4 Ġhuai4Ġ
Ġle ng3Ġ
Ġxuan1Ġ chuan2
Ġd u3Ġ
gai3 Ġge2
Ġzai4Ġ xian4
Ġda4 Ġfu2
Ġyi1Ġ chang2
Ġxin4 Ġxi1Ġ
201 6Ġnian2Ġ
Ġpu3 Ġ
Ġzheng3 Ġti3
Ġpai2 Ġming2Ġ
ao3 Ġjie3
g eng1
Ġji2 Ġhe2Ġ
Ġmao4 Ġyi4Ġ
Ġyou3Ġ duo1
Ġke4 Ġyun4
Ġsi1Ġ ma3
Ġgai3 Ġwei2Ġ
Ġ ou3
Ġwei4Ġ zhu3
Ġfa1 Ġqi3
Ġyan3 Ġchang4
Ġkuai4Ġ su4
Ġque4Ġ ding4
mi ao4Ġ
jing1 Ġji4
ĠdeĠ li4Ġshi3
zhong1Ġ xin1
Ġzhi2 Ġmin2
Ġni ao3Ġ
Ġzai4Ġ ba1
Ġzai4Ġ xiang1Ġgang3
Ġhao4 Ġxian4
Ġshi4Ġ yin1Ġwei4Ġ
Ġji1Ġdu1Ġ jiao4
Ġcheng2Ġ ke4
Ġgao1 Ġdeng3
Ġlian2 Ġhe2Ġguo2Ġ
min2 Ġ
Ġzuo4 Ġyong4
bi4Ġye4 Ġyu2Ġ
Ġren2Ġ yuan2Ġ
Ġxi1Ġ jie1
Ġwang2 Ġguo2Ġ
gao1 Ġsu4
Ġbu4Ġ li3
Ġbiao3 Ġxian4
Ġwan2 Ġzheng3
Ġheng1 Ġli4Ġ
Ġjie4 Ġquan2Ġguo2Ġ
8 5
Ġshe4 Ġshi1
k ai3
ĠĠĠ zheng4
neng2 Ġ
Ġzi1 Ġge2Ġ
ting1 Ġ
ĠĠĠ n
Ġpu3 Ġtong1
ĠdeĠji e3
Ġche4 Ġxiao1
9 5
ĠĠĠ sheng4
ĠdeĠ qi3
Ġke4 Ġcheng2Ġ
Ġmu4 Ġbiao1
Ġguo4 Ġ
ĠdeĠguan1 Ġxi4Ġ
Ġpin2 Ġdao4Ġ
y an4Ġshi4Ġ
ĠĠĠ qian2
Ġyi1Ġ duan4Ġ
ĠdeĠbu4Ġ fen4
ju3 Ġren2Ġ
shou4 Ġdao4Ġ
ying1 Ġwen2
ge1 Ġqu3
Ġfa1 Ġchu1
Ġ à
ĠdeĠ jin1
Ġjue2 Ġse4Ġ
Ġhan2 Ġshu4
Ġping2Ġfang1 Ġmi3Ġ
Ġxu4 Ġ
Ġcun2 Ġ
cun2 Ġzai4Ġ
ceng2 Ġjing1
Ġzai4Ġ19 6
Ġchong2 Ġqing4
Ġxing2Ġzheng4Ġ qu1Ġ
Ġlie4 Ġche1Ġ
Ġsh u2
Ġyuan2 Ġwei4Ġ
Ġjiao4 Ġqu1Ġ
f f
di4Ġ qu1
Ġyi1Ġ dai4
Ġzhuang1Ġ bei4
dian4Ġshi4Ġ tai2
cu n1
Ġzai4Ġ19 4
shui3 Ġ
Ġr ou2
Ġzhou1 ĠdeĠ
Ġjie1Ġr ang3Ġ
Ġming2Ġ dan1Ġ
ĠA Ġ
Ġzhong1Ġguo2Ġren2Ġmin2 Ġjie3Ġfang4Ġjun1
1 Ġyue4Ġ1Ġri4Ġ
gu3 Ġ
Ġfa1 Ġdian4
Ġwen3 Ġding4
Ġsi1 Ġji1
t an4Ġ
pu3 Ġtong1
ĠdeĠ xiao4
lun2 Ġdun1
Ġ2001Ġnian2Ġ ren2Ġkou3
ĠdeĠ qi4
ĠĠĠ202 5Ġnian2Ġ
cheng2Ġ gong1Ġ
Ġzhi4Ġ shao3
Ġsi1Ġ fa3
Ġgui3 Ġdao4Ġ
ĠĠĠ yin1
ĠĠĠ te4
Ġxi3 Ġhuan1Ġ
Ġqiu2 Ġyuan2Ġ
zh ao1
Ġch ou3
Ġzhan4 Ġling3
lan2 Ġ
Ġbu4Ġ zhi1
Ġtong3 Ġji4Ġ
Ġren2 Ġhe2Ġ
ĠĠĠ xia4
Ġyong4 Ġhu4
S t
ĠdeĠ bi3
Ġbu4Ġ bu4Ġ
Ġque1 Ġfa2
ĠĠĠ200 9Ġnian2Ġ
Ġlao2Ġ dong4
zhong1Ġ yang1Ġ
Ġming2 Ġxian3Ġ
Ġying1 Ġ
Ġxiu1Ġ jian4
Ġguang1Ġ xu4
Ġxun4Ġ su4
Ġw a1Ġ
Ġgai3 Ġbian4
ĠdeĠg ai4Ġ
zuo4 Ġpin3
Ġzui4 Ġjia1
3 Ġge4
ĠdeĠ nian2
Ġping2 Ġlun4
Ġjia1Ġ la1
Ġte4 Ġshu1
Ġxun2 Ġhui2Ġ
Ġtian2 Ġ
Ġgong4Ġhe2Ġ guo2
Ġer2Ġshui3Ġyu4Ġmian4Ġji1Ġwei4Ġ 0
ãĥ »
Ã Ĺ
Ġsheng1 Ġcheng1
Ġyuan2Ġ su4
ĠdeĠh uo3
Ġbu4Ġji u3
ĠdeĠqi2Ġzhong1Ġyi1Ġ zhong3Ġ
fa3 Ġlv4
Ġda4 Ġwei4Ġ
Ġtiao2 Ġjian4
wen4 Ġti2
ĠĠĠ qing1
Ġren2Ġkou3Ġmi4Ġdu4Ġmei3 Ġping2Ġfang1Ġgong1Ġli3Ġ
ĠĠĠ fu2
ĠdeĠ n
Ġn e4
Ġtong3 Ġyi1Ġ
Ġyun2 Ġnan2
ĠĠĠ er2
Ġdeng1 Ġshang4
Ġ7 0
guan4Ġ jun1Ġ
quan2 Ġli4Ġ
ĠdeĠ yu4
Ġsi1 Ġke4
ci3 Ġ
y an1Ġ
Ġzhi2 Ġxing2
Ġxiao3 Ġzu3
Ġgou4 Ġcheng2Ġ
du n1
Ġwan4Ġ li4Ġ
Ġpu3 Ġbian4
hu n1
Ġbu4Ġ lai2
zhong4 Ġ
Ġshi4Ġ ye4
Ġping2Ġfang1Ġqian1Ġ mi3
Ġfu4 Ġza2
guang3Ġ zhou1
ĠĠĠz eng1
gai3 Ġwei2
Ġxian4Ġ chang3
dong4 Ġwu4
Ġwang3 Ġ
si4 Ġ
ĠdeĠc un1
shi2 Ġnian2Ġ
chu1 Ġxian4Ġ
Ġwu4Ġ zhong3Ġ
Ġshi4Ġyi1Ġ zuo4
ĠĠĠdi4Ġ er4
Ġer2Ġgai1 Ġdi4Ġ
ĠdeĠ shang4
ĠdeĠ dai4
Ġc ong1
Ġwei2 Ġqi2
Ġjiang3Ġ shu4
Ġkao3Ġ lv4
4 9
o h
Ġceng2 Ġzai4Ġ
Ġzong3 Ġli3
Ġgen1 Ġ
B A
zhan4 Ġdou4
Ġm ao1
gui3 Ġdao4Ġ
ji1 Ġchang3
Ġke4 Ġluo2
Ġ10 Ġ
f eng4
ĠdeĠ jun1
el l
Ġming2 Ġzi4
jiu4 Ġshi4Ġ
s p
yi2 Ġzhi4Ġ
gai1 Ġdi4Ġ
Ġta1 Ġyu3Ġ
a1Ġla1 Ġbo2
e a
ĠĠĠ yan2
ĠĠĠ xiang1Ġgang3
Ġsu4 Ġdu4
fu4 Ġqin1
Ġer2 Ġfei1
Ġlun2 Ġdun1
Ġbiao1 Ġzhi4Ġ
Ġjian3Ġ shao3Ġ
Ġmi3 Ġer3
ĠdeĠ zu3
Ġzh ai4Ġ
Ġcheng2Ġ gong1
Ġti2 Ġgong1
Ġchu i2Ġ
Ġji3 Ġge4
Ġer2Ġren2Ġkou3Ġmi4Ġdu4Ġwei4Ġmei3 Ġping2Ġfang1Ġqian1Ġmi3
e x
ĠdeĠshi4Ġ jie4
Ġ194 9Ġnian2Ġ
ĠĠĠ 12
yang2 Ġ
Ġdui4 Ġci3
Ġkong1 Ġ
B S
Ġsi1 Ġka3Ġ
Ġzh ai2Ġ
Ġdi4Ġ zhen4
Ġzuo4 Ġjia1Ġ
si4 Ġchuan1Ġ
Ġbu4Ġ man3Ġ
Ġzhi4Ġ liang4
Ġdeng3 Ġwei4Ġ
Ġchan3 Ġye4
g Ġ
Ġtong2 Ġyang4
Ġcan1 Ġsai4
que4Ġ ding4
Ġshi4Ġ bei4
Ġshi2Ġ dai4Ġ
Ġlu4 Ġyi4
la1 Ġke4
Ġk ao4
Ġsi1 Ġta3
Ġquan2 Ġmian4
Ġbu4Ġ shang4
Ġzhu3 Ġzhang1
Ġren4Ġming4 Ġwei4Ġ
d ang4Ġ
Ġjiao4 Ġyu4Ġ
Ġ199 7Ġnian2Ġ
Ġcu4 Ġjin4
â Ķ
zhu an4Ġ
Ġfei1 Ġji1
Ġni e4Ġ
Ġchong2 Ġjian4
yo u1
gong4 Ġyou3Ġ
Ġti ao4Ġ
Ġnan2 Ġbei3
Ġyun2 Ġ
Ġji2Ġtuan2 Ġ
xiang1 Ġdui4
Ġke4 Ġlai2
shang1Ġ ye4
Ġcao1 Ġzuo4
ĠĠĠ zui4
Ġ199 2Ġnian2Ġ
sh en4
Ġci4 Ġnian2Ġ
Ġbo2 Ġte4Ġ
Ġchu1Ġ kou3
wu2 Ġxian4Ġ
Ġshi4Ġ xin1
Ġyi4 Ġzhong1Ġ
Ġzheng4 Ġzhuang4
xiao3 Ġshuo1Ġ
lin2 Ġshi2Ġ
ĠdeĠ kai1
Ġzhu4 Ġming2
Ġlu an3Ġ
Ġfan4Ġ zui4
zhong1Ġhua2 Ġmin2Ġguo2Ġ
xi an3Ġ
ĠdeĠ gui1Ġ
Ġda4 Ġdao4Ġ
Ġka3 Ġer3
Ġli4Ġshi3 Ġ
shi3 Ġ
wei3 Ġshu1Ġji4Ġ
Ġbi3 Ġru2
Ġa1Ġla1 Ġbo2
l ong2Ġ
Ġjian3Ġ dan1
Ġxi2Ġ xing4
Ġtu1Ġ ran2
lu an4Ġ
ĠdeĠwei4Ġ zhi4Ġ
Ġk u3Ġ
Ġchu1 Ġzhan4
Ġti3 Ġxi4
Ġxin4Ġ hao4
U Ġ
l u2
201 2Ġnian2Ġ
tai4 Ġping2Ġyang2
Ġying3 Ġpian4Ġ
Ġshi4Ġjie4 Ġ
Ġgui1Ġ ding4Ġ
mian4 Ġ
Ġshi4Ġ ba1
Ġbu4Ġ er3
p eng2
xuan3 Ġju3
Ġzai4Ġ shi2Ġ
Ġge4 Ġzi4
ĠdeĠji a4
Ġshi4Ġ xiang1Ġgang3
Ġzai4Ġ mei3
lian2 Ġjie1
Ġsi1 Ġren2Ġ
ĠĠĠC h
ĠĠĠ 9
200 8Ġnian2Ġ
Ġt ang1
Ġzhong1Ġ jian1
ch ou2
zhi2 Ġxing2Ġ
zhen4 Ġqu1Ġ
Ġxian4Ġ jin1
Ġben3 Ġshen1
y ang1
ĠdeĠ liu2
Ġfu1Ġ ren2Ġ
ding4 Ġyi4Ġ
Ġy e1
Ġ9 0
Ġyou3Ġguan1 Ġ
ĠĠĠ ji2
ĠĠĠ in
Ġli4Ġ ke4
Ġjiao4 Ġhui4
Ġbiao3 Ġmian4
u2 Ġli4Ġ
nei4 Ġlu4
xiao4 Ġ
Ġban4 Ġdao3
ï¼ ħ
Ġn uo2
Ġn i1Ġ
ĠdeĠ bei4
Ġbu4Ġ zhu3
Ġzhi1 Ġyuan2Ġ
Ġguo4 Ġcheng2Ġzhong1Ġ
Ġ199 4Ġnian2Ġ
Ġ15 0
fei1 Ġzhou1
Ġyan3 Ġchu1
Ġqu3 Ġxiao1
deng3 Ġdi4Ġ
Ġshu4 Ġwei4Ġ
Ġan4Ġ jian4
zi1 Ġliao4Ġ
Ġhe2Ġ fa3
si3Ġ wang2Ġ
m ai4Ġ
Ġt ao4
Ġyou3 Ġxian4Ġ
Ġshi4Ġzhong1Ġ hua2
cheng1 Ġwei2Ġ
Ġcu n4Ġ
Ġni u3
Ġbu4Ġguo4 Ġ
âĶ Ģ
Ġqiang2Ġ lie4
tong3 Ġji4Ġ
bi4 Ġxu1Ġ
Ġwu4 Ġzhi4Ġ
Ġqi4 Ġxuan2
Ġyu3 Ġzhong1Ġ
Ġ1 4Ġ
Ġhong2Ġ se4
Ġmo4 Ġxi1Ġge1
ren4 Ġwei2Ġ
Ġda4 Ġsha4
Ġbing4 Ġmei2Ġyou3Ġ
Ġgu n3
Ġfen1 Ġzhi1Ġ
Ġbie2 Ġ
Ġdi4Ġ ba1
Ġchu1 Ġru4
Ġhan2 Ġ
zhe4 Ġzhong3
ren2Ġ da4
S TĠ
zh e2
Ġguo2Ġ wu4Ġyuan4
Ġli3 Ġxue2
Ġer2 Ġcheng2Ġ
yi1 Ġshi4Ġ
10 Ġ
Ġshi2Ġ duan4Ġ
gong4 Ġhe2Ġguo2Ġ
Ġjian4 Ġzao4Ġ
Ġdui4 Ġshou3
qi ang2
Ġshi4Ġ ji1
Ġf an4ĠdeĠ
Ġyan2 Ġshen1
Ġsheng1Ġhuo2 Ġxi2Ġxing4
Ġshi2Ġliu4 Ġnian2Ġ
3 4
yun4 Ġdong4Ġ
ge1 Ġqu3Ġ
Ġer2 Ġzi
tu2 Ġshu1
Ġwei4Ġ zai4Ġ
Ġji4Ġzai3 Ġ
Ġm an2
ar i
fa1 Ġxing2
guo4 Ġqu4
Ġ199 6Ġnian2Ġ
ĠdeĠsheng1 Ġhuo2
Ġjing1 Ġshen2
Ġzheng4Ġce4 Ġ
an1 Ġzai4Ġ
ĠĠĠ cheng2Ġ
Ġsh eng2
Ġta1 Ġwei4Ġ
Ġshi2Ġwu3 Ġnian2Ġ
Ġbian4 Ġhua4
Ġsi1Ġte4 Ġ
ĠdeĠhu an2
Ġsheng1Ġhuo2Ġxi2Ġxing4 Ġbu4Ġming2Ġ
c i
zhong4 Ġdian3
Ġzhi4Ġ du4Ġ
Ġgu ai4
ĠĠĠ 17
su n3
Ġtong2 Ġshi2
Ġtan2 Ġpan4Ġ
lu n4
k ang4
ren2Ġ lei4
Ġxue2 Ġshu4
Ġyi3Ġ bian4
Ġheng2 Ġ
ju3 Ġxing2
Ġhe2Ġqi2 Ġta1
Ġzhong1Ġguo2Ġgong4Ġchan3 Ġdang3Ġ
6 8
Ġdi4Ġer4 Ġci4
Ġlian2Ġmeng2 Ġ
ĠdeĠ ling3
Ġdi4Ġ 5
Ġli4Ġ xue2
Ġchu1 Ġle
Ġlu4 Ġxu4
pu3 Ġ
Ġtu3Ġ er3Ġqi2
K Ġ
00 Ġ
Ġzheng4Ġ chang2
min2 Ġzhong4
Ġt uo3
Ġ3 8
Ġzuo4 Ġzhan4
Ġrui4 Ġdian3
Ġyu3Ġyan2 Ġ
ĠĠĠ mei3
zhi3 Ġchu1Ġ
Ġshi4Ġ chu1
Ġshi4Ġ wu1Ġke4Ġlan2
Ġsh ang3
Ġji1Ġ chang3Ġ
xuan1Ġ chuan2
wo 3Ġ
T V
ĠĠĠ sui1Ġran2
ya4 Ġ
Ġg ao3
Ġgu4 Ġding4
ĠĠĠ mei3Ġguo2Ġ
shou3 Ġdu1Ġ
Ġwei4Ġ 1
Ġzhi1 Ġwei4Ġ
Ġqian1Ġ shu3
Ġjiu3Ġ dian4
3 1
fen1 Ġbu4Ġ
Ġmian4 Ġdui4
zhe4 Ġjiang1
Ġzai4Ġ he2Ġ
Ġda4 Ġshi3
Ġzhan1Ġ mu3
Ġnan2 Ġxing4
Ġchu ang1Ġ
v er
Ġji1 Ġxie4
Ġyou2 Ġqi2Ġshi4Ġ
Ġxiang1 Ġtong2Ġ
ĠĠĠ200 7Ġnian2Ġ
Ġli4Ġfu2 Ġni2Ġya4
ni u3Ġ
Ġch i1Ġ
ĠdeĠ yue4
Ġlie4 Ġru4
Ġhu ang1Ġ
Ġzheng4 Ġming2
Ġfen1 Ġpei4
Ġping2Ġfang1 Ġgong1Ġli3
yi3 Ġji2Ġ
dang1 Ġxuan3
Ġmu4 Ġdi4Ġ
Ġjie3 Ġsan4Ġ
Ġtou2 Ġpiao4Ġ
9 9
Ġshi4Ġ jiang1
Ġneng2 Ġ
zhuan1Ġ ji2Ġ
Ġsi3Ġ wang2Ġ
wei1Ġ er3
zuo3 Ġyou4
m u3Ġ
qi n1Ġ
Ġxi1 Ġyin3
Ġtong2 Ġyang4Ġ
Ġyi2 Ġchan3
ĠdeĠgong1Ġ zuo4
Ġzhu3 Ġyan3
Ġbao4 Ġzha4
Ġzheng4 Ġshi2Ġ
Ġhao2Ġ mi3
ĠdeĠzhi2 Ġwu4Ġ
ĠĠĠ dan4
Ġliu4 Ġnian2Ġ
d i2
4 2
ĠĠĠ nan2
ĠdeĠ tian1
Ġnian2Ġ jian1Ġ
Ġyi1Ġ li4Ġ
Ġzhi1 Ġming2Ġ
dian4Ġshi4Ġ ju4Ġ
sui2Ġ hou4
Ġji2Ġ bie2
Ġci3 Ġci4
Ġte4Ġbie2 Ġshi4Ġ
ĠdeĠcun1 Ġzhuang1Ġ
Ġbing4 Ġyou2
ma3 Ġlai2Ġxi1Ġya4
hu4 Ġ
Ġhou4 Ġzai4Ġ
Ġyan3 Ġchu1Ġ
Ġhuo4Ġde2 Ġle
a h
ĠĠĠ zhi2
jie1 Ġduan4Ġ
Ġsen1 Ġlin2
Ġdui4 Ġwu3
Ġxin4 Ġxi1
Ġlei2Ġ si1
Ġjiu3 Ġnian2Ġ
Ġmou3 Ġxie1
Ġ5 5
Ġchu3Ġ li3Ġ
wo 3
ĠĠĠ dao4
al l
xiang4 Ġmu4
201 8Ġnian2Ġ
Ġji1Ġ qi4
Ġye3 Ġjiu4Ġshi4Ġ
Ġ7 Ġ
Ġyuan2 Ġgong1Ġ
Ġce4 Ġshi4Ġ
zuo4 Ġwei2Ġ
Ġti2 Ġsheng1
Ġyin1Ġwei4Ġ ta1
Ġpai4 Ġqian3Ġ
e p
an3 Ġwei4Ġ
Ġk e2
Ġli u3Ġ
ĠĠĠdi4Ġ fang1
ĠdeĠm i4
201 4Ġnian2Ġ
Ġk u1Ġ
Ġju4 Ġti3
Ġpei4 Ġhe2Ġ
n ai4
Ġ Z
duo1 Ġge4
Ġbing4 Ġbei4
Ġfa2 Ġ
Ġjing1 Ġying2Ġ
Ġli3Ġ da2
Ġbi4 Ġmian3Ġ
ĠdeĠxi e2
Ġfen1Ġbie2 Ġwei4Ġ
o k
Ġhe2Ġ dao4
Ġyi1Ġ xiao3Ġshi2Ġ
Ġyu3 Ġmao2Ġqiu2
Ġtie3 Ġdao4
Ġque4 Ġzhen3
201 0Ġnian2Ġ
ĠĠĠ fu4
ĠdeĠ ba1
Ġyun4 Ġxing2Ġ
Ġzhuang1 Ġzhi4Ġ
lv e4Ġ
Ġt ao1
Ġxue2 Ġhui4
Ġduo1 Ġnian2Ġ
Ġliu2 Ġxia4
Ġhuan2 Ġ
ĠdeĠh ei1
f a2
Ġwei4Ġ bei4
Ġyun4 Ġying2Ġ
Ġyue4Ġ dui4
ĠĠĠ li3
Ġjian4Ġli4Ġ le
6 4
shou4 Ġshang1Ġ
si4 Ġnian2Ġ
Ġpai4 Ġchu1
Ġzhuang4Ġ kuang4Ġ
Ġpi1Ġ zhun3
du n1Ġ
Ġshi4Ġ cong2
Ġyi1 Ġbu4Ġ
Ġzao1 Ġdao4Ġ
ĠdeĠshe4 Ġji4Ġ
ĠĠĠ jin4
Ġyao1 Ġqing3
I N
zhu i1
tou2 Ġru4
Ġge4 Ġlei4
Ġzhu3 Ġxi2
k en3
Ġt i1
Ġbi3 Ġde2
Ġliang3 Ġnian2Ġ
Ġye3 Ġ
Ġzui4 Ġjia1Ġ
xue2 Ġyuan4Ġ
wu3 Ġ
ying4 Ġyong4
zhong1Ġguo2Ġ da4Ġlu4
fu2 Ġjian4
Ġdou1 Ġyou3Ġ
nei4 Ġrong2Ġ
Ġwei4Ġ yu2
Ġguo2Ġ fang2
Ġji1 Ġzhi4Ġ
Ġliu2 Ġyu4
Ġqi2Ġzhong1Ġ nan2Ġxing4
ju an1Ġ
Ġmin2 Ġzhong4
ĠdeĠ wen4Ġti2Ġ
Ġsi1 Ġhe2Ġ
Ġshi1 Ġfan4Ġ
Ġzhen4 Ġqu1Ġ
Ġka3Ġ luo2
qi2 Ġta1
Ġbu4Ġ fu4
Ġzhan3Ġ lan3Ġ
Ġ199 3Ġnian2Ġ
Ġqiang2Ġ diao4Ġ
Ġju4 Ġfeng1
ri c
ĠdeĠ yin1Ġyue4Ġ
Ġzai4Ġ yu3
Ġchan3 Ġpin3
Ġxin1 Ġjia1Ġpo1
ĠĠĠS t
Ġzhong1Ġhua2Ġren2Ġmin2Ġgong4Ġhe2Ġguo2Ġ zheng4Ġzhi4Ġren2Ġwu4Ġ
jiao1Ġtong1 Ġ
Ġpi n4
I n
x Ġ
pi ao4Ġ
Ġwei2 Ġzhu3
Ġguan1 Ġyuan2Ġ
Ġ1 3Ġ
Ġgu1Ġ ji4Ġ
Ġgong1Ġneng2 Ġ
ren2Ġ yuan2
Ġyue4 Ġzai4Ġ
Ġli3 Ġke4
Ġhuo4Ġde2 ĠleĠ
xian4 Ġdai4
Ġshi4Ġ pin2
Ġ18 5
Ġlv4 Ġbin1
ĠĠĠ jin1
Ġqi e1
Ġbei4 Ġshi4Ġwei4Ġ
Ġdan4 Ġta1
ming4 Ġming2Ġ
ĠdeĠ jing4
Ġer4 Ġshi2Ġ
Ġyou3 Ġji1
Ġju4 Ġli2
Ġzhi3 Ġhui1
m eng4
shou4 Ġ
Ġ194 5Ġnian2Ġ
yi4 Ġshu4
chang2 Ġqi1
Ġyi1Ġ ran2
Ġyi3Ġ wai4
Ġ3 7
ji n3Ġ
ou1 Ġyuan2Ġ
Ġzh ai4
Ġyu3 Ġzhou4
r ou4
dong4 Ġ
fang1 Ġ
wen2 Ġxue2
Ġf a4
Ġyun4 Ġ
Ġbo2 Ġshi4Ġ
guan1 Ġxi4Ġ
ĠdeĠ bi3Ġsai4
Ġjia1 Ġmeng2
Ġxiang1 Ġtong2
Ġqi4 Ġxiang4
ĠĠĠch u2
ĠĠĠ andĠĠĠ
Ġer3 Ġduo1
Ġshen1 Ġti3
Ġzhui1Ġ su4
Ġdui4 Ġying4
Ġyin3Ġ ru4
e ar
i ch
ĠdeĠ xia4
Ġku ang4
tong3 Ġyi1Ġ
ĠdeĠ cheng2Ġshi4Ġ
gong1Ġ cheng2Ġ
ĠdeĠc ai2
Ġqing3 Ġqiu2
p i2Ġ
202 2Ġnian2Ġ
Ġtie3 Ġlu4Ġ
Ġman3Ġ zu2
6 7
quan2 Ġbu4Ġ
Ġzh an3ĠdeĠ
Ġb u2Ġ
kuai4Ġ su4
d i1
ji ang3
Ġshi3 Ġqi2
Ġti2 Ġgao1
Ġbo2 Ġ
Ġ7 5
i k
shu ai1
Ġzong3 Ġbu4Ġ
Ġxiang3 Ġnian2Ġ
Ġgao4Ġ su4
Ġzheng4Ġzhuang4 Ġgan3Ġran3Ġ
ku n4Ġ
ĠdeĠ mian4Ġji1Ġwei4Ġ
min2 Ġguo2Ġ
Ġshi3 Ġshang4
bao3 Ġchi2
ĠĠĠI n
ĠdeĠ ban4
Ġxi u1
Ġcheng2Ġwei2 Ġle
Ġtie3 Ġdao4Ġ
wei2 Ġ
zhi2 Ġwu4Ġ
Ġda3Ġ suan4Ġ
Ġfen1 Ġxi1
e f
Ġdi4Ġ li3
Ġji2Ġ jiang1
Ġ199 5Ġnian2Ġ
Ġgeng4 Ġjia1
Ġdi4 Ġshi4Ġ
Ġhei1 Ġlong2Ġjiang1
dao3 Ġyan3
Ġli4Ġ liang4
Ġyue4Ġ1 Ġri4
ĠĠĠ wai4
Ġer2 Ġbu2Ġshi4Ġ
Ġdou4 Ġ
Ġbing4 Ġyi3Ġ
Ġji2 Ġda4
ji4Ġ xu4
Ġbian4 Ġde2
G Ġ
d uo2
fa1 Ġdong4
Ġzai4Ġ bei3
Ġsheng1 Ġming4
Ġwei1Ġ lian2
la y
Ġxian4 Ġhe2Ġ
Ġxian4Ġ fa3
Ġmei3 Ġ
ĠdeĠji1 Ġchu3Ġ
tou2 Ġzi1
Ġb eng1
Ġjia1 Ġren2Ġ
ban4 Ġ
yun2 Ġnan2
t an2
ch ao2Ġ
Ġxi1Ġ an1Ġ
ĠdeĠxing2 Ġshi4Ġ
H Ġ
n i3Ġ
Ġshi4Ġ ni2
Ġd u1
Ġli4Ġ fang1
Ġfen1 Ġlei4
Ġru4 Ġxuan3
Ġqi4 Ġhou4Ġ
wang3 Ġlu4
Ġjian3Ġ cheng1Ġ
p ei2
Ġcheng2Ġ ren2Ġ
Ġsuo3 Ġshu3
Ġwang3 Ġwang3
a tĠĠĠ
Ġfen1 Ġxi1Ġ
Ġwen2 Ġjian4
Ġmei3 Ġshu4
Ġjie2 Ġhun1Ġ
Ġzi1 Ġyuan2Ġ
Ġshi4Ġzhong1Ġ xin1
Ġhun4 Ġhe2Ġ
p ai4Ġ
dan1 Ġqu1Ġ
Ġdi4Ġ yi1
Ġgong1Ġ ji1Ġ
Ġr ao4
Ġzheng4Ġ quan2
ĠdeĠdi4Ġfang1 Ġ
A M
zi1 Ġ
Ġhui4 Ġhe2Ġ
Ġshen4 Ġzhi4
chu i2Ġ
Ġhu1Ġ yu4
ĠdeĠ tong1
Ġd u1Ġshi4Ġ
Ġp en2
Ġs ang4Ġ
Ġr u3
Ġming2Ġ cheng1Ġ
Ġ198 8Ġnian2Ġ
mo4 Ġxi1Ġge1
ĠdeĠhai3 Ġba2
chan3 Ġ
Ġsi1 Ġji1Ġ
Ġyi3Ġ qian2
Ġzi4 Ġmu3Ġ
mei2 Ġ
Ġchai2 Ġyou2
4 4
qi ang1Ġ
zhu ang4
201 5Ġnian2Ġ
Ġbu4Ġ li4Ġ
Ġgai1 Ġcun1
Ġzhi1Ġchi2 Ġ
ju4 Ġyou3Ġ
Ġchu ang2Ġ
Ġtong2Ġshi2Ġ gai1Ġdi4Ġ
A R
Ġshu4 Ġzi4
Ġzong3 Ġdu1Ġ
Ġhang2Ġ tian1
zhuan1Ġ ji2
Ġshi4Ġf ang4Ġ
Ġ 0Ġ
Ġxing2Ġ mu4
f an2
00 Ġmi3
ji4Ġ lu4
1 2Ġnian2Ġ
Ġnian2Ġ dai4
Ġmi e4
E R
s ang1Ġ
ze2 Ġdong1
Ġban4 Ġgong1Ġshi4Ġ
Ġ199 1Ġnian2Ġ
Ġqi ao1
Ġyou2 Ġci3
Ġ199 0Ġnian2Ġ
il l
Ġjin3Ġbiao1 Ġsai4Ġ
Ġgu a1Ġ
Ġye4 Ġwu4Ġ
guan4Ġ jun1
nei4Ġlu4 Ġsheng3Ġfen4Ġ
yan3 Ġyuan2Ġ
Ġzhan4 Ġhou4Ġ
Ġxi4Ġlie4 Ġ
ĠdeĠ zheng4Ġzhi4Ġ
guo2Ġ hui4
Ġk a1Ġ
Ġgang3 Ġ
Ġsui4 Ġdao4Ġ
ĠdeĠ che1
ĠdeĠ tu2
Ġyou3Ġ ke3Ġneng2
Ġshang4 Ġshi4Ġ
Ġliang3 Ġzhong3
ĠĠĠci3 Ġwai4Ġ
Ġzhi4Ġ shi2Ġ
Ġji1 Ġyin1
Ġgong1Ġ yi4
Ġzai3 Ġ
ĠĠĠ liu2
ĠdeĠ tai4
Ġshe4 Ġying3
Ġshou3 Ġdu1Ġ
Ġte4 Ġding4
Ġrong2 Ġyi4Ġ
Ġlv3 Ġyou2
Ġbei4Ġren4Ġwei2 Ġshi4Ġ
zui4 Ġjia1
Ġzai4Ġ jin1
Ġhai3 Ġyang2
xi e2
Ġyi4Ġ mei3Ġyuan2Ġ
201 7Ġnian2Ġ
Ġwei3 Ġhui4
Ġda4 Ġjiang3Ġ
Ġxi1 Ġer3
Ġsheng1 Ġtai4
m ao4
Ġnian2Ġ jian1
Ġxian4 Ġshang4
Ġwen2 Ġhua4Ġ
Ġ Y
h an4Ġ
Ġshang4 Ġshu4
Ġzai4Ġ19 5
ig h
Ġp eng1
Ġzhi1Ġ xia4Ġ
Ġzhi3 Ġkong4
Ġpo 2
lei4 Ġ
t ou4
yi4 Ġda4Ġli4Ġ
201 3Ġnian2Ġ
tou2 Ġ
di4Ġ guo2Ġ
8 Ġri4
I C
Ġzu3 Ġjian4
Ġqin1 Ġzi4
ĠĠĠ200 6Ġnian2Ġ
Ġzi4Ġzhi4Ġ qu1
Ġwei4Ġ yuan2
Ġwan3Ġ shang4
w an1Ġ
Ġjing1 Ġying2
Ġpi an4ĠdeĠ
Ġ10 Ġyue4Ġ
lu4 Ġxian4Ġ
Ġdui4 Ġqi2
Ġzhe4 Ġbu4Ġ
Ġgou4 Ġzao4Ġ
dai4Ġbiao3 Ġ
ĠÃ ©
gao1 Ġdeng3
jiu4 Ġ
nv3 Ġzi3Ġ
Ġzhi4Ġ cheng2Ġ
Ġzhuan4Ġ xie3
ĠĠĠdi4Ġfang1 Ġzi1Ġliao4Ġ
Ġch i1
Ġ00 Ġ
Ġshi4Ġyi2Ġge4 Ġwei4Ġyu2Ġ
Ġjie2Ġshu4 Ġhou4Ġ
f o2
le i1
201 1Ġnian2Ġ
g an4Ġ
y ao2
xue2 Ġxiao4Ġ
Ġji2 Ġren2Ġ
Ġhuo3 Ġjian4
ĠĠĠjian3Ġ jie4Ġ
ĠĠĠ ge4
gong4 Ġhe2Ġ
Ġda4 Ġzhong4
Ġda4 Ġxiao3
Ġyou3Ġ xu3Ġduo1
Ġxian4Ġ zai4
Ġkao4Ġ jin4
xia4 Ġling4Ġshi2Ġ
gu3 Ġdai4
bo2 Ġ
Ġdan4 Ġyin1
Ġta1Ġmen Ġzai4Ġ
suo3 Ġcai3Ġyong4
Ġta1Ġ jiang1
Ġru2 Ġxia4Ġ
ĠdeĠdi4Ġ san1
Ġti2Ġgong1Ġ le
yin2 Ġhang2Ġ
8 8
hu i1
gao1 Ġ
shen1 Ġ
Ġde2 Ġyi3
Ġxian1Ġ sheng1
zheng3 Ġge4
Ġqi ang3Ġ
biao1 Ġzhun3
ĠĠĠbei4 Ġjing3Ġ
c eĠĠĠ
de Ġ
Ġdi4Ġ 3
Ġyi4 Ġhe2Ġ
Ġli4Ġ yi4
Ġta1 Ġdui4
Ġyi1Ġ mei2
Ġ202 5Ġnian2Ġ
Ġbai2Ġ se4
s uo1
ĠĠĠ ran2
shang4 Ġwu3
fang1 Ġmian4
Ġshi4Ġ zhi1
Ġci3 Ġhou4
ĠdeĠgai4Ġ nian4Ġ
Ġ198 5Ġnian2Ġ
sheng3 ĠdeĠyi2Ġge4Ġshi4Ġzhen4Ġ
f ang4Ġ
Ġbu4Ġ si1
wei2 Ġai1
zui4 Ġchu1
Ġwei4Ġ you2
Ġyin1 Ġsu4
xia4Ġling4Ġshi2Ġ jian1Ġ
Ġyi4 Ġzai4Ġ
Ġkai1 Ġshe4
Ġtao3 Ġlun4Ġ
g h
lian2 Ġbang1
Ġzhong1Ġ zhi3
Ġsi1Ġla1 Ġfu1Ġ
ĠĠĠ si1
ĠdeĠ ying1
Ġzi4 Ġshen1
Ġjia1Ġ jing4
Ġshi2Ġqi1 Ġnian2Ġ
shu4 Ġju4
Ġpi1Ġ zhun3Ġ
Ġnan2 Ġfang1
Ġqing2Ġ bao4
Ġlv3 Ġke4
li ao4Ġ
ling4 Ġyi1Ġ
Ġzhu3 Ġyan3Ġ
Ġjie1 Ġchu4
fang1 Ġshi4Ġ
si4 Ġge4
Ġda4 Ġdao4
Ġpai2 Ġhang2
Ġfang2Ġ yu4
Ġnuo4 Ġ
D TĠ
z ou3
Ġyuan2Ġ shi3
Ġ3 2
Ġcai2 Ġliao4Ġ
ĠdeĠzuo4 Ġbiao1Ġwei4Ġ
l ao3
jiao4 Ġyu4Ġ
Ġc u1Ġ
Ġqi2Ġzhong1Ġ yi1Ġ
Ġzhuan3Ġ xiang4
ma3 Ġ
Ġt a4
Ġzhong1Ġ yi3
ren2 ĠdeĠ
Ġbei4 Ġpo4
Ġzuo4 Ġzhe3
Ġye3 Ġzai4Ġ
n d
Ġgong1Ġ bu4
Ġliang3 Ġzhe3
Ġjia4 Ġshi3
mo2 Ġshi4Ġ
wen2 Ġhua4Ġ
Ġzhe4 Ġshou3
Ġzhu4 Ġming2ĠdeĠ
Ġbian4 Ġhua4Ġ
Ġhuan4Ġ zhe3
ji a3Ġ
Ġzh u1
Ġli2Ġ mi3Ġ
wu3 Ġnian2Ġ
Ġtong2 Ġyi1Ġ
Ġzui4 Ġjin4
Ġchuang4 Ġli4Ġ
ĠdeĠjian4 Ġzhu4
Ġchu1 Ġyan3
Ġyi3Ġ bei3
Ġshen2 Ġme
Ġheng2 Ġxing1
zai3 Ġ
xia4Ġxia2 ĠdeĠyi2Ġge4
6 6
ce4 Ġshi4Ġ
Ġsi1 Ġdi4Ġ
Ġwei4Ġ UTCĠ
Ġer3 Ġman4Ġ
ĠdeĠc un2
tu r
Ġzhong1Ġguo2Ġgong4Ġchan3 Ġdang3
8 7
Ġ198 4Ġnian2Ġ
hai3 Ġ
da2 Ġdao4Ġ
Ġxian4Ġ ru4
Ġjiang1 Ġhui4
Ġ X
Ġguo2Ġ jun1
Ġxia4 Ġlai2
Ġxing4 Ġbie2
Ġpei2 Ġ
mi ao2Ġ
ĠdeĠ zhong1Ġguo2Ġ
Ġbu4Ġ ji2
Ġmei3 Ġyuan2Ġ
Ġ8 Ġyue4Ġ
Ġdiao4Ġ kuai4
Ġyuan2Ġyin1 Ġ
ĠĠĠzeng1 Ġzu3
c o
Ġt ou
Ġji1 Ġji2Ġ
Ġji2Ġ lin2
Ġzhe4 Ġyang4Ġ
tui1Ġ chu1
Ġqi2 Ġwei4Ġ
Ġxing2Ġ cheng2
Ġtong2 Ġyi4Ġ
ar k
ĠdeĠg an3Ġ
zh u2
Ġshi4Ġ yuan2
Ġtui4 Ġxiu1Ġ
Ġle Ġta1ĠdeĠ
Ġc nĠ
Ġzhi1 Ġfu4
Ġxiao3 Ġxue2Ġ
xi 3
Ġyi1Ġ ju4
Ġchu1 Ġshen1
Ġwu3 Ġqi4
Ġlei4 Ġxing2Ġ
Ġxiao1 Ġfei4
Ġhei1 Ġse4
ri4 Ġ
hua2 Ġ
Ġben3 Ġzhan4
Ġnei4 Ġge2
Ġbo2Ġwu4Ġguan3 Ġ
Ġdiao4Ġkuai4 Ġyi1Ġxiao3Ġshi2Ġ
I S
Ġfan4Ġwei2 Ġnei4
A T
Ġji2Ġ UTCĠ
Ġdui4 Ġfang1
Ġbo1 Ġchu1
ĠdeĠzui4 Ġgao1
she4Ġyou3Ġ xia4Ġling4Ġshi2Ġjian1Ġ
ĠdeĠshi2Ġqu1Ġwei4Ġ UTCĠ
Ġer2Ġgai1Ġdi4Ġ suo3Ġcai3Ġyong4
Ġtong2Ġshi2Ġgai1Ġdi4Ġ she4Ġyou3Ġxia4Ġling4Ġshi2Ġjian1Ġ
Ġer2Ġgai1Ġdi4Ġsuo3Ġcai3Ġyong4 ĠdeĠshi2Ġqu1Ġwei4ĠUTCĠ
gong1Ġ zuo4Ġ
Ġan1Ġ hui1Ġ
s s
ĠdeĠ yun4
ĠdeĠ can1
Ġbei4 Ġcheng1Ġwei2
Ġkai1 Ġfang4
Ġtan3Ġ ke4
Ġr en3
ju1Ġ zhu4
Ġyi4 Ġnian2Ġ
Ġji2Ġ bei3Ġmei3
ĠdeĠxi an1Ġ
ĠdeĠji an3Ġ
Ġyi4 Ġyou3Ġ
Ġwei4Ġfu2Ġqi2Ġyu2Ġ gang1
Ġzhi4Ġ jin1Ġ
Ġzhan4 Ġzhong1Ġ
Ġ198 9Ġnian2Ġ
sheng1 Ġwu4
Ġwei2 Ġqi2Ġ
Ġtuan2 Ġti3Ġ
Ġzhi2 Ġli4Ġ
Ġchu4 ĠdeĠhai3Ġba2
ĠĠĠ wei2
ĠdeĠ wei2
Ġshi2Ġ you2
Ġzhou1 Ġci4
Ġ3 0Ġ
Ġshou1 Ġgou4
Ġwei4Ġgao1 Ġyu2Ġhai3
Ġchu4ĠdeĠhai3Ġba2 Ġwei4Ġgao1Ġyu2Ġhai3
n i4
ti ao3
ye3 Ġshi4Ġ
ĠĠĠ19 0
Ġpo 3
Ġkang4 Ġyi4Ġ
Ġben3 Ġtu3Ġ
Ġyuan4 Ġzhang3Ġ
Ġmi4 Ġmi4
Ġjiang4 Ġdi1Ġ
Ġw an1ĠdeĠ
Ġguo2Ġ yu3
Ġfang2 Ġwu1Ġ
Ġgui4 Ġzu2
gui1Ġ hua4
ĠdeĠzh eng1
Ġtao3 Ġlun4
y a1Ġ
Ġp u2Ġ
Ġx u2Ġ
ĠdeĠ wu2
mo4 Ġsi1Ġke1
t ang2
Ġb en1
Ġla1 Ġding1
Ġer4 Ġshi4Ġ
Ġshi4Ġjie4 Ġbei1
l e4
ĠĠĠ zhu3Ġyao4
zong3 Ġdu1Ġ
ban4 Ġdao3
ĠdeĠ chan3
Ġfu4 Ġshu1Ġji4Ġ
Ġbai3 Ġwan4Ġ
Ġxian3Ġ zhu4
Ġgong1Ġch i3
.. .
mi ao4
qiu2 Ġyuan2Ġ
Ġk a1
Ġli3 Ġlan2
Ġbian4 Ġcheng2Ġ
t u1Ġ
Ġshen1 Ġwei4Ġ
ĠB Ġ
Ġhuan1Ġ ying2Ġ
ping2 Ġfang1
Ġgong1Ġ jue2
Ġsai4 Ġji4
Ġzhi3 Ġding4
Ġxun2 Ġyang2
tai2 Ġnan2
ĠdeĠ an1Ġ
ĠdeĠ xiang4
gong1Ġ gong4
Ġan1Ġ pai2
Ġchu4ĠdeĠhai3Ġba2Ġwei4Ġgao1Ġyu2Ġhai3 Ġping2Ġmian4
Ġbu4Ġl u3Ġ
w a3Ġ
Ġl ong3
Ġri4Ġ bao4Ġ
Ġxuan3 Ġshou3
Ġ3 9
Ġqu1ĠdeĠ mian4Ġji1Ġwei4Ġ
m a
Ġfei1 Ġxing2
Ġd an3Ġ
Ġgong1Ġ an1Ġ
Ġyi1Ġ zhou1
qi2 Ġ
guo4 Ġcheng2Ġ
ceng2 Ġ
bi4 Ġ
shi2Ġ qu1Ġ
Ġming2Ġ dan1
ĠĠĠ 1Ġ
Ġyue4Ġ lai2
Ġyou3Ġ san1
Ġchu1 Ġxi2Ġ
Ġzhi2 Ġwei4Ġ
Ġchang2 Ġdu4
Ġyi2 Ġshi4Ġ
Ġshou1 Ġ
sh ao4Ġ
ĠĠĠ ke4
bi3 Ġjiao4
Ġshi2Ġ wu4
Ġdui4 Ġwai4
Ġjian1 Ġren4
ĠI n
Ġ195 0Ġnian2Ġ
d ang4
ke1 Ġxue2Ġyuan4
Ġzh eĠ
ĠdeĠsh ou1
k eng1
Ġgong1Ġ ying4
Ġfa3 Ġguan1
Ġdong1 Ġfang1
Ġqu an3Ġ
Ġyi4Ġfang1 Ġmian4Ġ
Ġyin1 Ġshi4Ġ
Ġfang1 Ġfa3Ġ
Ġdou1 Ġhui4
bu4Ġ fen4
Ġli an3Ġ
Ġmi n3Ġ
mi3 Ġya4
ĠdeĠ ti2
Ġzhuan3Ġ yi2
Ġzhao1 Ġhe2Ġ
O N
Ġrui4 Ġshi4Ġ
wen2 Ġwu4Ġbao3Ġhu4Ġdan1Ġwei4Ġ
Ġwen1 Ġdu4
A C
Ġzai4Ġ ji1
guo2Ġ nei4
ji4Ġ suan4Ġ
Ġzhou1 Ġwei2
Ġlai2 Ġyuan2Ġ
Ġxiang4 Ġshi4Ġ
Ġfang2Ġ zhi3
bing4 Ġdu2
jie2 Ġguo3
qi3 Ġyong4Ġ
Ġwei4Ġ ta1
Ġyue4 Ġzhong1Ġ
Ġjia1Ġ ge1
Ġwang2 Ġchao2
Ġhuo3 Ġshan1
ĠdeĠg u4
z i3Ġ
ĠdeĠ hui4
Ġ2 4Ġ
Ġdang1 Ġshi2ĠdeĠ
Ġshu1 Ġru4
Ġla1 Ġsi1
Ġgai3 Ġshan4Ġ
7 6
ĠĠĠ huo4
ao4 Ġdi4Ġli4Ġ
qi4 Ġhou4Ġ
bo1 Ġchu1Ġ
Ġyi2 Ġdong4
Ġta1Ġmen Ġ
ji ao3
ĠĠĠ ri4Ġben3
ĠdeĠ bao3
Ġyu4 Ġji4Ġ
Ġyu2Ġ19 2
Ġchuang4Ġ jian4
T ub
Ġdang1 Ġnian2Ġ
Ġkuo4 Ġzhan3Ġ
p u2
Ġwei2 Ġer3Ġ
Ġlan2 Ġqiu2
Ġzeng1 Ġzhang3
ĠdeĠcheng2Ġ ji4Ġ
Ġqi2 Ġbing1
Ġjiao1 Ġliu2
Ġhuang2Ġ jin1
Ġke3Ġneng2 Ġhui4
gai3 Ġbian1
Ġchan3 Ġpin3Ġ
Ġ4 8
Ġyi4 Ġb
Ġyu3 Ġhe2Ġ
Ġchu1 ĠleĠ
Ġsheng1 Ġren4
Ġlian2 Ġwang3
Ġdu an4ĠdeĠ
Ġpei4 Ġ
Ġ8 Ġ
r u3Ġ
Ġshi4Ġ qu1
zhi4Ġ 200
Ġ6 5
ĠĠĠ li4Ġshi3
Ġli3 Ġgong1Ġ
1 5Ġnian2Ġ
2 Ġri4
e st
o d
ĠdeĠ mei3Ġguo2Ġ
Ġl eng2
Ġming2 Ġren2Ġ
Ġke1 Ġxue2Ġ
Ġan1Ġ zhuang1
Ġju3 Ġxing2ĠdeĠ
Ġshi2Ġba1 Ġnian2Ġ
t ao3
Ġ1 1Ġyue4Ġ
Ġyu3Ġ ci3
cai3 Ġyong4
Ġzuo4 Ġjia1
Ġguan1 Ġzhu4
u t
Ġzhou1 Ġfu3
Ġque4 Ġren4
dong1 Ġji4Ġ
Ġdi4Ġ dian3
Ġda4 Ġchen2Ġ
Ġzheng4 Ġming2Ġ
Ġsheng1 Ġwei4Ġ
Ġchang2 Ġshi4Ġ
Ġxiu1Ġ zheng4
Ġzao4Ġ cheng2
ĠĠĠ a1
Ġcheng2Ġ ben3
Ġju4 Ġji2Ġ
Ġwu3 Ġzhuang1
ru2 Ġguo3
Ġxia4 Ġling4
Ġsong1 Ġ
zhu i1Ġ
ge1 Ġshou3
Ġda4 Ġxing2Ġ
Ġyi3Ġ ci3
Ġn u4
Ġyi2 Ġmin2
Ġai4 Ġer3Ġlan2
Ġxi2 Ġwei4Ġ
Ġfei1 Ġji1Ġ
ĠĠĠ200 5Ġnian2Ġ
z eng4
bei4 Ġ
min2 Ġjian1
Ġshi4Ġ chang3Ġ
Ġdi4Ġ guo2
Ġyi4Ġ ti2
Ġtai4 Ġguo2Ġ
W indow
Ġgu a1
Ġbian1 Ġji2Ġ
Ġguo2Ġmin2 Ġzheng4Ġfu3
Ġn en4
Ġfen1 Ġbu4Ġzai4Ġ
Ġxing4 ĠdeĠ
Ġsheng4 Ġdun4
Ġding1 Ġ
Ġyu2Ġ19 0
Ġ198 3Ġnian2Ġ
Ġbi4Ġye4 Ġyu2Ġ
ĠĠĠ 11
jie1 Ġr
Ġyi2 Ġding4
nuo4 Ġ
b ai4
Ġxi ng3
Ġw a1
Ġzhen1 Ġzheng4
Ġhai2Ġ zi
ĠĠĠ quan2
si1 Ġlan2
Ġjian4 Ġkang1Ġ
Ġyi3Ġ nan2
r am
ĠĠĠ er4
Ġshi4Ġ tai2Ġwan1Ġ
Ġxiang1 Ġsi4Ġ
Ġfu2 Ġhe2Ġ
Ġhai3 Ġyu4Ġ
Ġhuang2 Ġjia1
Ġfu4 Ġzhu3Ġxi2Ġ
Ġming2Ġ que4
Ġzui4 Ġzhong1
Ġcheng1 Ġwei4Ġ
Ġya1 Ġli4Ġ
Ġzi4Ġzhi4Ġ qu1Ġ
sh ao4
ti v
ĠdeĠ ri4Ġben3
Ġshi4Ġ yong4
Ġshi3 Ġmi4
Ġya4 Ġli4Ġshan1
C h
ĠĠĠ zhu3
ĠĠĠ san1
fa3 Ġyuan4
Ġmei3 Ġjun1
Ġfei4 Ġyan2
Ġzheng4Ġzhuang4Ġgan3Ġran3Ġ zhe3
qi ng3Ġ
Ġgu3 Ġfen4
4 1
jiang1 Ġ
Ġluo2 Ġli3Ġda2
Ġjin1 Ġpai2Ġ
Ġzhuang4Ġ tai4Ġ
sh an3Ġ
chu1 Ġxian4
zui4 Ġda4
xi4 Ġ
Ġshi2Ġ yan4Ġshi4Ġ
Ġyi1Ġ xi4Ġlie4
ĠleĠ liang3
Ġshi4Ġshi4Ġ jie4
ec tion
3 Ġri4
jian4 Ġshe4
jie2 Ġshu4Ġ
ĠdeĠ ye4
Ġshang4 Ġxia4
Ġxiong1 Ġya2Ġli4Ġ
Ġxue2 Ġsheng1Ġ
u Ġ
wang2 Ġguo2Ġ
Ġer3 Ġfu1Ġ
ar Ġ
ĠdeĠb an3Ġ
l l
Ġma3 Ġer3
7 8
te4 Ġding4
qu3 Ġ
Ġshi4Ġ de2Ġguo2Ġ
Ġqi2 Ġshi2Ġ
Ġgeng4 Ġwei2
Ġxun2 Ġ
ĠdeĠp ei4
a mi
ĠĠĠ gao1
ĠdeĠ wei1
Ġren2Ġ da4
Ġta1 Ġyu3
Ġ1 2Ġ
Ġduo1 Ġli4Ġya4
Ġhen3 Ġkuai4Ġ
xia4Ġji4Ġ ao4Ġlin2Ġpi3Ġke4Ġyun4Ġdong4Ġhui4
1 4Ġnian2Ġ
Ġyi3 Ġwei2
Ġli ao3Ġjie3
Ġyu2Ġ201 6Ġnian2Ġ
You Tub
ĠĠĠ wu3
Ġbu4Ġ shao3Ġ
Ġyi4 Ġyu2Ġ
Ġ9 Ġyue4Ġ
Ġxiang1Ġgang3 Ġ
ĠdeĠf ang2Ġ
Ġzhe4 Ġxiang4
Ġjie2 Ġshu4Ġ
Ġpei4 Ġbei4
Ġ15 Ġ
z ao3
zui4 Ġhou4Ġ
Ġp ao3Ġ
Ġban1Ġ fa1
3 0Ġnian2Ġ
9 Ġri4
c an2
qu1Ġ yu4Ġ
9 6
li n
Ġyue1 Ġwei4Ġ
c Ġ
jiang1 Ġqi2
Ġshi4Ġ ying4
Ġzai4Ġ yuan2
Ġni2 Ġxi1Ġya4
xu n1Ġ
ji4Ġ cheng2Ġ
Ġke3Ġneng2 Ġshi4Ġ
guang3Ġdong1 Ġsheng3
ĠĠĠ mu4
ju an4Ġ
gai3 Ġbian4
Ġfei1 Ġjian4Ġzhi4Ġdi4Ġqu1Ġ
Ġ198 6Ġnian2Ġ
Ġdu2Ġ te4
Ġsi1Ġling4 Ġbu4Ġ
ĠĠĠ tian1
fen4 Ġzi3
Ġxuan3 Ġqu1Ġ
Ġsu1Ġ ge2Ġlan2
1 7Ġnian2Ġ
A N
ying1 Ġgai1
Ġshi4Ġ yi1Ġbu4Ġ
Ġji1 Ġhui4Ġ
z a2
ĠĠĠ tai2Ġwan1Ġ
mian4 Ġji1Ġ
Ġshi4Ġ cheng2Ġ
di4Ġ san1
Ġta1 Ġhe2Ġ
Ġer4 Ġren2Ġ
ĠdeĠming2 Ġzi4
xi1 Ġban1Ġya2
Ġzhan4 Ġling3Ġ
Ġfei1 Ġzhou1
Ġna4 Ġme
Ġzhong1Ġ dui4
Ġkong1 Ġjian1Ġ
yong1 Ġyou3Ġ
I I
Ġqi ong2Ġ
Ġying1 Ġwen2
ĠdeĠshi2Ġ hou4
Ġ12 Ġyue4Ġ
Ġzhi1Ġjian1 ĠdeĠ
Ġyu2Ġ202 1Ġnian2Ġ
ĠĠĠ 16
Ġ1 1Ġ
Ġte4 Ġla1
Ġ18 4
Ġyu2Ġ201 5Ġnian2Ġ
9 8
ĠĠĠ gu3
Ġxiang4 Ġzheng1
Ġtong2 Ġpai2Ġ
Ġge2 Ġwei4Ġ
Ġlin2 Ġjin4
Ġke1 Ġji4Ġ
Ġyi2 Ġzhi4Ġ
ĠdeĠk ong4
ĠdeĠ M
Ġwei4Ġ wei4Ġ
Ġshui3 Ġyu4Ġ
Ġzhong4 Ġdian3
ĠdeĠc i2Ġ
ĠdeĠquan2 Ġli4Ġ
l ou2
Ġ Q
yu3 Ġyan2
shi2Ġ dai4
Ġye3 Ġhui4
4 3
ĠĠĠ ge4Ġren2Ġ
Ġge1 Ġshou3Ġ
xi an2
zhi2 Ġwu4
Ġwan4Ġ mei3Ġyuan2Ġ
Ġyu2Ġ201 8Ġnian2Ġ
f ei2
z ao3Ġqi1
de2 Ġdao4
duo1 Ġci4
zhong3 Ġzu2
Ġshou3 Ġxian1Ġ
Ġding4 Ġyi4Ġ
y a3Ġ
Ġsi1 Ġxiang3Ġ
Ġxu4 Ġli4Ġya4
Ġzhuang4Ġ tai4
xi ang3Ġ
xiang1 Ġtong2
zu3 Ġhe2Ġ
Ġhe2Ġ li3
ao4Ġ zhou1
Ġzou4 Ġ
Ġshi4Ġl ang2Ġ
tong1 Ġche1Ġ
Ġshi4Ġ wu4Ġ
Ġxiang1 Ġhu4
Ġlan2 Ġke4
Ġwei2Ġ yi1
3Ġ hao4
Ġsha1 Ġsi3
7 7
ge4 Ġzhong3
ni ao3Ġ
Ġsa4 Ġ
Ġyu2Ġ201 2Ġnian2Ġ
Ġ e4Ġ
ĠdeĠ dan4
Ġhe2Ġ yue1
Ġbei4 Ġqi2
Ġshen1 Ġzhen4
Ġduo2 ĠdeĠ
ĠĠĠji n3Ġ
Ġyun3 Ġxu3Ġ
zhi3 Ġhui1Ġ
Ġhe2Ġ wu4
Ġdi4Ġ yi4
Ġqian1Ġ ding4
Ġzhe4 Ġchang3
Ġsi4 Ġge4
Ġbu2Ġ yao4
t ao2
ĠdeĠ zhang3
Ġda4 Ġsai4
Ġmei3 Ġguo2
202 1Ġnian2Ġ
Ġji3 Ġyu3
ĠI S
sh ui4
gong1 Ġshi4Ġ
bo1 Ġluo2
ĠdeĠ jie1
Ġhua4 Ġshi2Ġ
Ġming2Ġ xing1
Ġduo1 Ġzhong3
Ġke1 Ġji4
Ġmeng2 Ġte4
Ġzu1Ġ jie4
ch ang4Ġ
s tĠĠĠ
x u2
Ġde2 Ġyu3Ġ
Ġgui4 Ġ
ation Ġ
e tĠĠĠ
ĠĠĠ xiang1
Ġc an3Ġ
Ġtiao2Ġ yue1Ġ
Ġbiao3 Ġxian4Ġ
Ġjue2 Ġsai4Ġ
Ġ7 Ġyue4Ġ
ĠdeĠqing2Ġkuang4Ġ xia4
a w
Ġlian2 Ġsai4Ġ
Ġmin2 Ġjian1
Ġpai1 Ġshe4Ġ
A P
fu4Ġze2 Ġguan3Ġxia2Ġ
ĠdeĠshuo1 Ġfa3Ġ
la1 Ġding1
Ġle Ġxu3Ġduo1
Ġfu4 Ġshu3
Ġzheng4Ġ mian4
Ġshan1 Ġji1
Ġxiang3Ġ yao4
Ġbai3 Ġke1
Ġyu2Ġ201 4Ġnian2Ġ
Ġyu2Ġ201 7Ġnian2Ġ
gu i3Ġ
ba1 Ġli2Ġ
ĠdeĠ jiu4
Ġshi4Ġ wei3
Ġhuo2 Ġyue4Ġ
Ġfan4Ġwei2 Ġ
xing1 Ġjian4
Ġde2 Ġming2Ġ
Ġshe4 Ġyu2Ġ
Ġ19 20Ġnian2Ġ
Ġ198 0Ġnian2Ġ
5 Ġren2Ġ
Ġl uan2
Ġjing1 Ġyan4Ġ
Ġtong2 Ġxing4
Ġma3 Ġla1
chuang4 Ġli4Ġ
Ġer2Ġren2Ġkou3Ġmi4Ġdu4Ġwei4Ġmei3 Ġping2Ġfang1Ġqian1Ġmi3Ġ
zheng4 Ġxie2
Ġbu2 Ġhui4Ġ
o ng
y ao2Ġ
ĠĠĠ bei3
ĠĠĠ jiao1Ġtong1Ġ
bu4Ġ tong2
Ġde2 Ġyi3Ġ
Ġguan1 Ġce4
Ġ4 6
Ġdang3 Ġyuan2Ġ
ji ao3Ġ
Ġl an4Ġ
Ġdi4Ġ tu2
Ġtui4 Ġchu1
Ġren2Ġkou3Ġmi4Ġdu4Ġmei3 Ġping2Ġfang1Ġgong1Ġli3
Ġp i3Ġ
Ġda4 Ġlou2Ġ
Ġdan4 Ġbai2
Ġbao3 Ġcun2
Ġda2 Ġdao4
Ġwei4Ġyu2Ġ zhong1Ġguo2Ġ
Ġling3 Ġshi4Ġ
ĠdeĠcheng2Ġ yuan2Ġ
Ġshi4Ġdi4Ġ er4
Ġji4Ġsuan4Ġ ji1
yi3 Ġ
bi3 Ġ
jiao1 Ġyi4Ġ
Ġyuan2Ġ zi
Ġren4 Ġqi1
Ġfa3 Ġlv4Ġ
Ġzhuan3Ġ huan4Ġ
Ġling3Ġdao3 Ġren2Ġ
guan1 Ġyuan2Ġ
Ġzhe4 Ġzuo4
Ġxing2 Ġwei4Ġ
Ġs u2
Ġxian4Ġ xiang4
diao4Ġ cha2Ġ
4 Ġge4
ĠĠĠ 0
Ġbu4Ġ zheng4
Ġxin1 Ġjiang1
Ġao4Ġ er3
e b
sh u2
Ġjia1 Ġzhou1
Ġhe2Ġnan2 Ġsheng3
k ang4Ġ
chu1 Ġshen1Ġ
yan2 Ġhai3
Ġhui4 Ġshang4
3 00
ĠĠĠ 20
ĠdeĠ jian1
Ġyi3 Ġyou3Ġ
Ġdan4 Ġshui3
Ġban4 Ġyan3
Ġguo2Ġjia1 Ġdui4
ĠĠĠnian2 Ġ
che1 Ġliang4
Ġbi4 Ġye4Ġ
Ġcai3 Ġ
chao1 Ġguo4
chu1 Ġsheng1Ġyu2Ġ
Ġli4Ġ zi
Ġren4 Ġzhi2
Ġjun1 Ġtuan2
Ġyan3 Ġyuan2
Ġxin4 Ġyang3Ġ
Ġdie2 Ġ
Ġke1 Ġfu1Ġ
Ġmao2Ġ ze2Ġdong1
ĠĠĠch en2
b u3
dong1 Ġnan2Ġbu4Ġ
wu3 Ġqi4
Ġli4Ġ ji1
ji ang4
ren2 Ġzai4Ġ
ze2 Ġshi4Ġ
ĠdeĠ yu2Ġ
Ġqu1Ġ yu4Ġ
Ġcu n4
g ao4Ġ
Ġjiao4 Ġwei2
Ġxi1Ġ lan2
Ġceng2 Ġwei4Ġ
Ġ198 7Ġnian2Ġ
reng2 Ġran2
t ou
ĠĠĠ shang4
Ġzuo4 Ġzhan4Ġ
Ġfen1Ġbie2 Ġshi4Ġ
kong4 Ġzhi4Ġ
5 8
m an
zhi3 Ġyou3Ġ
Ġzhi3 Ġyao4
ĠdeĠzuo4 Ġpin3
Ġzai4Ġdi4Ġ er4
i f
Ġhe2Ġ jia1
guo2Ġ ji4
Ġping2 Ġwei4Ġ
Ġku n4
Ġlv4Ġ shi1
19 Ġ
ĠdeĠqi ang2Ġ
Ġta3Ġ ni2
fa1 Ġshe4
Ġshang4 Ġshu1
Ġbo2 Ġte4
Ġrong2Ġ na4
Ġsa4 Ġer3
ĠdeĠh an2
Ġli3 ĠdeĠ
Ġjiang3Ġ xiang4Ġ
ĠS Ġ
Ġsui2Ġ hou4Ġ
Ġgan4Ġ bu4Ġ
Ġzai4Ġ bei4
Ġna4 Ġxie1
Ġbu4 Ġwei4Ġ
Ġlv4 Ġwei4Ġ
Ġpo4 Ġhuai4
Ġ194 8Ġnian2Ġ
mou3 Ġxie1
l i2
Ġhou4Ġ qi1
w ang4Ġ
ti e1
yi2 Ġmin2
ĠdeĠ ren2Ġkou3
Ġsi1Ġ zhi2
Ġyan2 Ġren2Ġ
Ġwan2 Ġ
ying2 Ġde2
Ġgong1Ġ jiao1
Ġxian4 Ġyu2Ġ
Ġmu4 Ġbiao1Ġ
Ġjin1 Ġshan1
Ġ4 7
Ġshi4Ġ jue2
3Ġ mi3Ġ
Ġhang2Ġ zhou1
zheng4Ġfu3 Ġ
Ġkao3Ġ gu3
Ġzai4Ġ dang1
Ġyin1 Ġqi2
Ġjin4 Ġnian2Ġ
Ġkai1 Ġ
p p
Ġ ì
Ġhe2Ġ ji1
Ġsi1 Ġman4Ġ
Ġling4 Ġren2Ġ
Ġ5 8
Ġai4 Ġde2
Ġyu2Ġ201 3Ġnian2Ġ
Ġshi2Ġ zhi4Ġ
Ġ198 2Ġnian2Ġ
Ġ195 8Ġnian2Ġ
ao4Ġlin2Ġpi3Ġke4Ġyun4Ġdong4 Ġhui4Ġ
Ġyu2Ġ 2019Ġnian2Ġ
Ġju4 Ġyuan4
Ġze2 Ġwei4Ġ
Ġmian3Ġ dian1Ġ
gong1Ġ kai1
Ġyu2Ġ 2020Ġnian2Ġ
Ġshou3 Ġge4
ĠleĠ yi1Ġxie1
Ġqu1Ġ nei4
Ġwang3 Ġqiu2
Ġjiao1 Ġgei3
Ġcuo4 Ġshi1Ġ
19 2
Ġte4 Ġzheng1Ġ
qun2 Ġ
1 6Ġnian2Ġ
Ġyi1Ġ ci2Ġ
Ġye4 Ġwu4
Ġd ou3
Ġshou3 Ġwei4Ġ
Ġdeng3 Ġdeng3Ġ
Ġdiao4Ġ cha2Ġ
Ġyu2Ġ202 2Ġnian2Ġ
ch u2
Ġh en4
Ġsi1 Ġzhou1
Ġta1Ġmen ĠdeĠ
Ġer2Ġgai1 Ġdi4ĠdeĠ
Ġzuo3Ġyou4 Ġ
yue4 Ġ
yi3 Ġlai2
zhe4 Ġyi1Ġ
Ġzai4Ġ hai3
Ġpei4 Ġyin1
Ġruo4 Ġ
Ġyu2Ġl e4Ġ
1 1Ġnian2Ġ
o b
qi an3Ġ
Ġyi3 Ġshang4Ġ
Ġzuo4 Ġwei4Ġ
Ġmian4 Ġlin2
Ġxiao1 Ġxi1Ġ
Ġchou2 Ġ
Ġlang3Ġ pu3
5 6
ĠĠĠ she4
Ġao4 Ġdi4Ġli4Ġ
Ġpin2 Ġdao4
bi3 Ġya4
ĠdeĠ de2
zhi4Ġ 199
Ġyi2 Ġzhi3
Ġda4 Ġdi4Ġ
Ġwei2 Ġfan3Ġ
ĠĠĠ dong1
Ġxue2 Ġxi2
Ġbei4 Ġjing3
Ġxi4 Ġju4
Ġbei3 Ġfang1
Ġrui4 Ġ
ĠdeĠguan1 Ġxi4
yin1 Ġ
mei3 Ġyuan2
Ġshi4Ġ ren2Ġmin2
Ġzh ai3
Ġ1 20
Ġba1 Ġ
zi4 Ġzhi4Ġ
dong1 Ġbei3Ġbu4Ġ
Ġzhong1Ġ ye3
Ġer2 Ġbu4Ġ
Ġzan4Ġ shi2Ġ
kong1 Ġjun1
Ġping2 Ġlun4Ġ
Ġxia4 Ġjiang4Ġ
Ġ3 3
Ġ6 Ġyue4Ġ
xue2 Ġshu4
Ġqi ao3
Ġshe4 Ġding4
Ġte4 Ġzheng1
Ġgai1 Ġgong1Ġsi1
Ġliang3 Ġguo2Ġ
Ġhe2Ġqi2 Ġta1Ġ
Ġgong1Ġ wu4
Ġge4 Ġguo2Ġ
4Ġ mi3Ġ
Ġmei4 Ġ
f ang4
Ġzai4Ġ shang4
Ġxian4 Ġcheng2Ġ
Ġcong2 Ġci3
jing1 Ġ
jiang1 Ġjun1
Ġwei4Ġ zhi1
Ġh u1
Ġzhi4Ġ di4Ġ
Ġsi1Ġ tai4
Ġren2Ġmin2 Ġgong4Ġhe2Ġguo2
Ġzai4Ġ19 3
Ġqin1Ġ wang2
Ġzai4Ġ tai2Ġwan1Ġ
ĠĠĠgai4Ġ yao4Ġ
7 2
k ang1Ġ
jiang1 Ġsu1Ġ
Ġji2Ġ ju4
Ġzheng4 Ġdang3Ġ
Ġlv4 Ġbin1Ġ
Ġ197 9Ġnian2Ġ
lv3 Ġke4
ling4 Ġwai4
yo u1Ġshi4Ġ
Ġxiao1 Ġliang4
li2Ġ kai1
z Ġ
Ġ Ï
Ġde2 Ġzhu3Ġ
Ġli u4Ġ
Ġ197 8Ġnian2Ġ
Ġfeng2 Ġ
ĠdeĠ ke1
Ġzai4Ġ ying1Ġguo2Ġ
Ġhe2Ġ yuan2
ji4Ġ hua4Ġ
Ġxi1 Ġli3
Ġling4 Ġyi2Ġge4
Ġmo2 Ġxing2Ġ
p i1
ĠĠĠ shi3Ġyong4
yong4 Ġhu4
Ġyuan2Ġzhu4 Ġmin2
9 2
ang2 Ġkong1
er2 Ġtong2
Ġh e1
Ġdi4Ġ zhi4Ġ
Ġye3 Ġbu4Ġ
Ġying3 Ġ
ĠdeĠqi ng2
mei3 Ġzhou1
Ġren2Ġ zhi1
Ġ194 6Ġnian2Ġ
Ġmao4 Ġyi4
h i
Ġping2 Ġjie4
Ġjiu4 Ġ
Ġzi1 Ġge2
Ġzhuan1Ġ jia1
Ġdao4 Ġlu4Ġ
Ġe2 Ġ
Ġyu2Ġ201 0Ġnian2Ġ
f ang3
200 9Ġnian2Ġ
ru2 Ġ
qu3 Ġdai4
Ġzhu3 Ġban4
Ġling4 Ġyou3Ġ
Ġzhi4 Ġshi4Ġ
rui4 Ġshi4Ġ
Ġtiao3 Ġzhan4
Ġwei4Ġ ci3
Ġna2 Ġxia4
zong1 Ġjiao4
Ġyu2Ġ202 3Ġnian2Ġ
bian1 Ġ
Ġhe2Ġ dong1
Ġer2 Ġyan2Ġ
Ġma3 Ġke4
ĠdeĠxi u1Ġ
Ġhou2 Ġ
bei1 Ġ
Ġyue4Ġlai2 Ġyue4Ġ
an4 Ġnian2Ġ
Ġzhi4Ġ pian4Ġ
Ġyou2 Ġyu2
Ġzheng1 Ġqu3
Ġzai1 Ġ
n u3
Ġhe2Ġ shang4
Ġsi1Ġ luo4
Ġtong2 Ġmeng2
Ġ5 Ġyue4Ġ
Ġxie2 Ġdai4
Ġgai3 Ġming2Ġwei4Ġ
Ġyu an1Ġ
Ġhou4Ġlai2 Ġ
nei4 Ġbu4Ġ
ĠdeĠ bo1
Ġkuo4 Ġda4
Ġtong1Ġguo4 Ġ
Ġcha4 Ġ
Ġji1 Ġdui4
Ġyu4 Ġshi3Ġ
Ġmi ao3
Ġxiao4 Ġzhang3
Ġguang3Ġ chang3Ġ
1 3Ġnian2Ġ
hu n1Ġ
qi ng3
ci4 Ġyu2Ġ
yun4 Ġshu1
Ġjiu4 Ġdu2
Ġru2 Ġhe2Ġ
th Ġ
ou r
om p
xing2 Ġzheng4Ġ
gang3 Ġ
Ġbu4Ġ di2Ġ
zhuan1Ġ ye4
xi2Ġ ji1
ye3 Ġ
Ġlian2 Ġbang1
Ġbao4 Ġfa1Ġ
Ġpeng2 Ġyou3Ġ
qi4 Ġche1
Ġji1Ġ fen1
Ġdang1 Ġju2
Ġ18 0
Ġhong2 Ġjun1
Ġyu3 Ġqi2Ġta1
Ġdai4 Ġling3
Ġshi2Ġjiu3 Ġnian2Ġ
8 6
ĠĠĠ ren2Ġ
zui4 Ġda4ĠdeĠ
ru2 Ġhe2Ġ
Ġzai4Ġ bei3Ġjing1
Ġsheng3 Ġwei3
Ġshen1 Ġqing3
Ġtui1Ġ jin4
Ġzhang4Ġ ai4Ġ
7 9
Ġzai4Ġ qian2
Ġm a1Ġ
Ġk u3
Ġse4 Ġfu1Ġ
Ġdang4Ġ tian1
zheng1 Ġyi4Ġ
l an
yi2 Ġshi4Ġ
shi1 Ġqu4
shen1 Ġzhen4
chan3 Ġye4
Ġwei2 Ġrao4Ġ
Ġmi ao2Ġ
ĠdeĠm u3
Ġshuai4 Ġling3
ĠdeĠer2 Ġzi
zui4 Ġ
200 0Ġnian2Ġ
sheng4 Ġ
Ġde2 Ġer3
biao3 Ġyan3
Ġgong1Ġ zhan4
Ġzhan4 Ġdui4
Ġjing1 Ġli3Ġ
Ġdou1 Ġbei4
zh ao3
biao3 Ġxian4
an1Ġ de2
Ġde2 Ġjun1
Ġban4 Ġgong1Ġ
Ġtian2 Ġjing4
Ġshao4Ġ nv3
shuang1Ġ fang1
ĠdeĠqing2Ġkuang4Ġ xia4Ġ
ĠĠĠjin3Ġ guan3
o ĠĠĠ
chi2 Ġ
Ġjing1 Ġdian3
Ġfu4 Ġjin4Ġ
Ġti2 Ġchu1Ġ
Ġrong2Ġ yu4
2Ġ mi3Ġ
Ġke3Ġyi3 Ġzai4Ġ
Ġguang3 Ġgao4Ġ
Ġshi4Ġyou2 Ġyu2Ġ
Ġcha1 Ġyi4Ġ
jian4 Ġcheng2Ġ
shang4 Ġying4Ġ
ĠdeĠ ke3
Ġta1 Ġcheng2Ġwei2
Ġhai3 Ġdao4Ġ
Ġli2Ġ zi
Ġchong1 Ġman3Ġ
Ġzao3 Ġnian2Ġ
Ġzu i3
Ġcuo4 Ġ
Ġfen1 Ġlan2
Ġliu2 Ġxing2
u sĠ
zui4 Ġjia1Ġ
ĠdeĠ zhuang4Ġ
a st
ĠĠĠ lin2
ri4 Ġzhi4Ġ
Ġni2 Ġhei1
Ġhe2Ġbing4 Ġ
ĠĠĠ tong2
Ġgong1Ġ ju4
Ġsi1 Ġli4Ġ
Ġqiu2 Ġchang3
Ġqi1 Ġnian2Ġ
Ġdao3 ĠdeĠ
Ġdi4Ġqu1 ĠdeĠ
y p
qi3 Ġlai2
tai4 Ġguo2Ġ
Ġle Ġdui4
Ġxia4 ĠdeĠ
ĠleĠ gai1
Ġzu3 Ġcheng2ĠdeĠ
Ġtu n1
Ġfa2 Ġli4Ġya4
Ġzhe2 Ġxue2
Ġshi4Ġ xing1
Ġgong1Ġ cheng2
Ġcheng2Ġ zhen4
Ġgu ai4Ġ
Ġwang3 Ġlu4
Ġling3 Ġyu4Ġ
Ġdi1 Ġyu2Ġ
s e
mu4 Ġdi4Ġ
bo2 Ġshi4Ġ
Ġm a1
Ġqi ao3Ġ
ĠJ R
Ġda4 Ġqi4
Ġwan4Ġ yuan2Ġ
jie1 Ġdao4Ġ
Ġs ection
Ġji2Ġ er3
Ġliu2 Ġxing2Ġ
ĠdeĠyi1Ġ zhong3Ġ
Ġhui2Ġ gui1Ġ
Ġka3 Ġsi1
Ġshi4Ġch u4
xiao3Ġxing2Ġxing1 Ġ
Ġben3 Ġpian4Ġ
Ġcai2 Ġpan4Ġ
Ġhuan4Ġ cheng2Ġ
Ġzhu2 Ġbu4Ġ
Ġhuan1Ġ ying2
kai1 Ġfang4Ġ
Ġzhan4 Ġtai2
Ġshang4 Ġyou3Ġ
Ġhui4Ġ zhang3Ġ
Ġjian1 Ġdu1Ġ
Ġchang2 Ġjian4
Ġman3Ġ zhou1
yao1 Ġqiu2Ġ
gai3 Ġshan4Ġ
Ġhe2Ġ ji2
Ġguan1 Ġzhi4Ġ
Ġying1 Ġli3Ġ
Ġmo2 Ġ
Ġzi4Ġji3 ĠdeĠ
huang2 Ġdi4Ġ
Ġshe4 Ġbei4Ġ
Ġhai3 Ġwai4
ar d
Ġwu1Ġ ran3Ġ
Ġyue4 ĠdeĠ
Ġm ai2
Ġren2Ġ dui4
Ġyi1Ġ zhi4Ġ
Ġzu3 Ġcheng2
Ġwu3 Ġhan4Ġ
Ġjiao1 Ġyi4Ġ
Ġer4 Ġ
Ġzao1 Ġshou4
Ġshi4Ġ zhang3Ġ
Ġru4 Ġqin1
Ġ4 00
Ġzhi4 Ġhe2Ġ
ren2Ġmin2 Ġdai4Ġbiao3
Ġpan2 Ġ
ĠĠĠ xiao3
chu1 Ġren4
mei3 Ġnian2Ġ
Ġzai4Ġ gao1
Ġxing2 Ġshi3
Ġle Ġta1Ġ
Ġdan4 Ġqi2
Ġli4 Ġbu4Ġ
ĠĠĠjia1 Ġting2Ġ
na4 Ġzhou1
Ġhe2Ġ suan1Ġ
Ġzu3 Ġzhi3
Ġzai1 Ġpei2Ġ
Ġlei3 Ġji4Ġ
ĠĠĠ 15
lian2 Ġmeng2Ġ
ling4 Ġyi2Ġge4
Ġke4 Ġsa4
Ġkai1 Ġzhan3Ġ
Ġru2 Ġci3Ġ
Ġming4 Ġling4
ĠĠĠgen1Ġju4Ġ 2020Ġnian2Ġmei3Ġguo2Ġren2Ġkou3Ġpu3Ġcha2ĠdeĠshu4Ġju4Ġ
zhi2 Ġmin2
Ġzai4Ġ ju4
Ġzhong1Ġ shu1
Ġyi1Ġ dai4Ġ
Ġlai2 Ġna4
Ġjian1 Ġchi2
Ġdi1Ġ qi4
â Ĩ
xi ong1
Ġma3 Ġsi1Ġ
xing2 Ġdong4
200 7Ġnian2Ġ
Ġshe4 Ġji2Ġ
Ġjie2 Ġguo3Ġ
Ġka3Ġ la1
Ġ16 0
Ġjiu3 Ġlong2
Ġa1Ġer3 Ġbei1
Ġzhan1Ġmu3 Ġsi1Ġ
k ang1
ĠdeĠ gong4
Ġyou3 Ġyi4Ġ
Ġzhi4Ġ liao2
Ġjia1 Ġli4Ġya4
Ġzhan3Ġ xian4
Ġtui1Ġ chu1Ġ
Ġzhao4Ġ pian1Ġ
E C
xing2 Ġshi4Ġ
Ġyi1Ġ qie4
Ġbei4 Ġpan4Ġ
Ġchang3 Ġbi3Ġsai4
202 4Ġnian2Ġ
Ġshi4Ġxi1 Ġban1Ġya2
O M
lian2 Ġhe2Ġguo2Ġ
xu4 Ġli4Ġya4
Ġshi4Ġ gai1
Ġxue2Ġ ke1
Ġdian4 Ġnao3
Ġliang3 Ġci4
k ao4Ġ
shen1 Ġti3
Ġhe2Ġ jin1
Ġyue4Ġ sheng1
Ġzhi4Ġ yi2
Ġzhi1 Ġdi4Ġ
Ġz ei2
Ġyi1Ġ ren2Ġ
Ġbu4Ġtong2 ĠdeĠ
Ġfa2 Ġke4
ĠĠĠyou2 Ġxi4
miao2Ġshu4 Ġ
ĠĠĠ v
ĠĠĠ luo2
Ġzh e1
Ġyuan4 Ġshi4Ġ
Ġxie3 Ġdao4Ġ
Ġgui4 Ġzhou1
huan2 Ġjing4
f or
you2 Ġxi4Ġ
feng1 Ġge2
Ġg a2
202 3Ġnian2Ġ
Ġyin4Ġ ni2
xi n4
hu n4
chu ang1Ġ
qu an3Ġ
Ġzhi1Ġ ziĠ
ĠdeĠdi4Ġ yi2Ġge4
Ġkong4 Ġ
Ġxing2Ġzheng4Ġ yuan4
xue2 Ġzhe3
Ġfu4 Ġnv3
Ġzong3 Ġli3Ġ
Ġsi3 Ġhou4Ġ
tong1Ġguo4 Ġ
sui2Ġ zhu4
Ġruan3Ġ jian4
an3 Ġzai4Ġ
yan3 Ġ
Ġyi4 Ġda4
Ġyuan2 Ġming2Ġ
Ġhuan2 Ġjing4Ġ
Ġshi4Ġf an4Ġ
ai4 Ġer3Ġlan2
yan3 Ġchu1
Ġp a2
Ġzhi1 Ġshi4Ġ
Ġchu1 Ġlai2Ġ
Ġzhou1 Ġqi1
Ġzhu4 Ġce4
Ġtai2 Ġnan2
Ġtu2Ġshu1 Ġguan3
fa1 Ġdian4
yan3 Ġchu1Ġ
ban4 Ġgong1Ġshi4Ġ
Ġzhong1Ġ duan4Ġ
Ġzhi1 Ġyi4Ġ
Ġke3 Ġ
ĠdeĠt u3Ġdi4Ġ
Ġhan tĠ
yi2 Ġci4Ġshi4Ġjie4Ġda4Ġzhan4
Ġti2 Ġming2Ġ
Ġqu3 Ġdai4Ġ
Ġ4 9
2 4Ġ
ĠdeĠ na4
Ġyi4Ġ wai4
Ġmo4 Ġsi1Ġke1
ĠĠĠg u4Ġshi4Ġ
Ġyu2Ġ202 4Ġnian2Ġ
qi ang1
bi4 Ġyao4
wang3 Ġqiu2
Ġxian4 Ġshi4Ġ
Ġsi1 Ġzai4Ġ
Ġri4Ġ zhan4Ġzheng1
Ġyan2 Ġjiu1
Ġfan3Ġ er2
Ġshi4Ġjie4 Ġshang4
Ġba4 Ġ
t a3
Ġhe2Ġ zhi4Ġ
Ġbu4Ġ shu3
yi1Ġ ci4
Ġw ang1Ġ
k ao3
ĠdeĠ ben3
Ġda4 Ġqiao2Ġ
Ġdan4 Ġreng2
Ġbo1 Ġfang4Ġ
ĠĠĠ200 4Ġnian2Ġ
bing1 Ġ
Ġ000 Ġren2Ġ
pai2 Ġming2
jie2 Ġke4
xuan3 Ġshou3
ĠdeĠ xu1Ġ
Ġqi2 Ġta1ĠdeĠ
Ġxiao4 Ġzhang3Ġ
jing1 Ġshen2
ĠdeĠ suo3Ġyou3Ġ
Ġzhi4Ġ yuan2
Ġyao4 Ġwu4
Ġfeng1 Ġge2Ġ
Ġji4 Ġwei4Ġ
ĠdeĠch a1
chong2Ġ xin1
ru4 Ġxuan3
Ġzhong1Ġ qi1
Ġzhi1 Ġming2
Ġxia4 Ġwu3
Ġmei3 Ġtian1
Ġgu3 Ġlao3
Ġfa3Ġlan2 Ġxi1
5 2
ya4 Ġli4Ġshan1
guo2Ġ wang2
Ġda4 Ġbu4Ġ
Ġda4 Ġshi1
Ġde2 Ġla1
Ġdai4 Ġbu3Ġ
Ġfu2 Ġlang3
Ġshou4 Ġyu3
Ġqun2 Ġdao3Ġ
ĠdeĠ chuang4Ġ
Ġsheng1 Ġming2Ġ
Ġli3Ġ ao4Ġ
Ġan4Ġ zhao4Ġ
Ġpeng2 Ġ
jia1 Ġna2Ġda4
chang2 Ġ
Ġdong4 Ġli4Ġ
ĠleĠ ci3
Ġkong1 Ġqi4
ĠdeĠgong1Ġ zuo4Ġ
Ġyu2Ġ201 1Ġnian2Ġ
Ġque4Ġzhen3 Ġbing4Ġli4Ġ
ĠĠĠ d
Ġsheng1 Ġcheng2Ġ
Ġfa1 Ġsheng1Ġ
Ġping2 Ġmin2
ĠdeĠch ao1
ĠdeĠz eng1
ĠdeĠjing1 Ġji4Ġ
Ġbang4Ġ qiu2
wen3 Ġding4
she4 Ġzhi4Ġ
ĠdeĠ bei3
Ġyi4 Ġsi
Ġyi1Ġ yang4
Ġzuo4 Ġluo4
Ġnan2 Ġji2Ġ
Ġchao1 Ġyue4Ġ
6 2
a yĠ
ĠĠĠ la1
qi e4Ġ
jie2 Ġgou4Ġ
ĠdeĠ ling3Ġdao3
Ġzhi1 Ġdao4
Ġdu1Ġ du1Ġ
Ġsi1Ġling4 Ġ
wo3Ġ men
ĠdeĠ chang3
Ġzai4Ġ yi2Ġge4
Ġguan1 Ġfei4Ġyan2
Ġbai3 Ġnian2Ġ
bao1Ġkuo4 Ġ
c ao3
200 6Ġnian2Ġ
Ġnian2 Ġnian2Ġ
Ġzhu3 Ġli4Ġ
Ġnan2 Ġfei1
Ġgen1 Ġsui2Ġ
Ġ9 Ġ
ĠdeĠcheng2Ġ yuan2
yi3 Ġji2
zhi1 Ġqian2
Ġxi an3
Ġd uo4
Ġ3 4
Ġshui3 Ġping2
Ġ15 8
e di
m er
ren2 Ġhe2Ġ
Ġwai4 Ġguo2Ġ
tie3 Ġlu4Ġ
ĠĠĠju4 Ġqing2Ġ
5 00
an1 Ġdeng1
hou4 Ġlai2
guan1 Ġzhong4
Ġbao4 Ġdao3
Ġzhong1 Ġshi4Ġyan3
Ġyi3Ġxia4 Ġdi4Ġqu1Ġ
u sĠĠĠ
ĠdeĠ dao3
Ġshi4Ġ qian2
Ġqi2 Ġfu4
Ġsu i1
Ġxian1Ġ jin4
m ao2Ġ
ĠĠĠ 2Ġ
fang1 Ġxiang4
fei1 Ġ
bo1 Ġchu1
shi2Ġ jian1Ġ
Ġjiao4 Ġtang2
Ġxia4 Ġlai2Ġ
Ġtui4 Ġyi4Ġ
Ġfan2 Ġ
Ġshi4Ġzhong1Ġhua2 Ġren2Ġmin2Ġgong4Ġhe2Ġguo2Ġ
nv e4
18 9
Ġzai4Ġ dui4
Ġshi2Ġ yong4
Ġyou2 Ġyong3Ġ
Ġjiao4 Ġshi1
Ġwei2Ġ hu4
Ġjia4 Ġge2
Ġzhuang1 Ġshi4Ġ
6 9
jie2 Ġhun1Ġ
bi4 Ġmian3Ġ
Ġzhi4Ġ shao3Ġ
Ġ1 Ġli4Ġ
ĠdeĠcheng2Ġ zhen4Ġ
ĠdeĠjue2 Ġse4
si3Ġ wang2
t u3
qi2 Ġta1Ġ
chu1 Ġsheng1
lu4 Ġying3
zui4 Ġzao3
Ġzai4Ġ dong1
Ġhe2Ġ shui3
Ġxiao3 Ġshuo1Ġ
Ġxuan3 Ġzhong1Ġ
Ġhua1 Ġyuan2Ġ
ac e
Ġxian4ĠdeĠyi2Ġge4 Ġfei1Ġjian4Ġzhi4Ġdi4Ġqu1Ġ
you2 Ġtai4
hai3 Ġan4Ġ
cheng1 Ġwei2
pu3 Ġbian4
Ġyu3Ġ wen2
Ġjie1 Ġdao4
Ġzhang3 Ġda2
Ġkong1 Ġzhong1Ġ
Ġzhuang1 Ġjia3
Ġta3 Ġer3
Ġha1Ġer3 Ġbin1
n an4Ġ
hu ai2Ġ
ke3 Ġ
ĠdeĠ shou4
Ġshi2Ġ zhen1
Ġyi1Ġ xiang4
Ġma3 Ġen1
Ġ16 2
Ġzong3Ġtong3 Ġ
g ai4Ġ
tou2 Ġpiao4Ġ
yi1Ġ zhong3
Ġtao2Ġ tai4
bian4 Ġhua4
zi1 Ġge2
Ġwei4Ġ ming2
Ġda4 Ġban3Ġ
Ġming2 Ġjin4Ġshi4Ġ
Ġqiang2Ġ du4
hai3 Ġba2
tai2 Ġfeng1
Ġzai4Ġ ben3
Ġren2Ġ bei4
Ġyan2 Ġchang2
an4ĠdeĠ xiao3Ġxing2Ġxing1Ġ
Ġtao2 Ġwan3Ġ
yan3Ġchang4 Ġhui4Ġ
5 Ġmi3Ġ
mi e4
lai2 Ġyuan2Ġ
ge1 Ġlun2Ġbi3Ġya4
Ġren4 Ġshi2Ġ
Ġjin4Ġxing2 ĠleĠ
5 9
