{"!":0,"\"":1,"#":2,"$":3,"%":4,"&":5,"'":6,"(":7,")":8,"*":9,"+":10,",":11,"-":12,".":13,"/":14,"0":15,"1":16,"2":17,"3":18,"4":19,"5":20,"6":21,"7":22,"8":23,"9":24,":":25,";":26,"=":27,"?":28,"@":29,"A":30,"B":31,"C":32,"D":33,"E":34,"F":35,"G":36,"H":37,"I":38,"J":39,"K":40,"L":41,"M":42,"N":43,"O":44,"P":45,"Q":46,"R":47,"S":48,"T":49,"U":50,"V":51,"W":52,"X":53,"Y":54,"Z":55,"[":56,"\\":57,"]":58,"^":59,"_":60,"`":61,"a":62,"b":63,"c":64,"d":65,"e":66,"f":67,"g":68,"h":69,"i":70,"j":71,"k":72,"l":73,"m":74,"n":75,"o":76,"p":77,"q":78,"r":79,"s":80,"t":81,"u":82,"v":83,"w":84,"x":85,"y":86,"z":87,"|":88,"~":89,"¡":90,"¢":91,"£":92,"¤":93,"¥":94,"¦":95,"§":96,"¨":97,"©":98,"ª":99,"«":100,"¬":101,"®":102,"¯":103,"°":104,"±":105,"²":106,"³":107,"´":108,"µ":109,"¶":110,"·":111,"¸":112,"¹":113,"º":114,"»":115,"¼":116,"½":117,"¾":118,"¿":119,"Â":120,"Ã":121,"Ä":122,"Å":123,"Æ":124,"Ç":125,"È":126,"É":127,"Ê":128,"Ë":129,"Ì":130,"Í":131,"Î":132,"Ï":133,"Ð":134,"Ñ":135,"Ò":136,"Ó":137,"Ô":138,"Õ":139,"Ö":140,"×":141,"Ø":142,"Ù":143,"Ú":144,"Û":145,"Ü":146,"Þ":147,"ß":148,"à":149,"á":150,"â":151,"ã":152,"ä":153,"ê":154,"ë":155,"ì":156,"í":157,"î":158,"ï":159,"ð":160,"ñ":161,"Ċ":162,"Ġ":163,"ġ":164,"Ģ":165,"ģ":166,"Ĥ":167,"ĥ":168,"Ħ":169,"ħ":170,"Ĩ":171,"ĩ":172,"Ī":173,"ī":174,"Ĭ":175,"ĭ":176,"Į":177,"į":178,"İ":179,"ı":180,"Ĳ":181,"ĳ":182,"Ĵ":183,"ĵ":184,"Ķ":185,"ķ":186,"ĸ":187,"Ĺ":188,"ĺ":189,"Ļ":190,"ļ":191,"Ľ":192,"ľ":193,"Ŀ":194,"ŀ":195,"Ł":196,"ł":197,"Ń":198,"ng":199,"i4":200,"an":201,"sh":202,"zh":203,"ng1":204,"ji":205,"u4":206,"ng2":207,"ĠĠ":208,"i2":209,"ao":210,"xi":211,"ng4":212,"an2":213,"i3":214,"i1":215,"de":216,"u3":217,"an4":218,"e4":219,"en":220,"ch":221,"uo":222,"u2":223,"ng3":224,"an1":225,"e2":226,"ai4":227,"u1":228,"ĠĠĠ":229,"ong1":230,"a1":231,"ãĢ":232,"shi4":233,"ei4":234,"ao4":235,"ian2":236,"a4":237,"yu":238,"ang1":239,"yo":240,"an3":241,"n1":242,"hu":243,"ang4":244,"nian2":245,"en2":246,"li":247,"ang3":248,"eng2":249,"uo4":250,"uo2":251,"wei4":252,"mi":253,"ao3":254,"zai4":255,"ãĢģ":256,"bi":257,"qi":258,"ang2":259,"e1":260,"he2":261,"yi":262,"eng1":263,"zhong1":264,"er":265,"bu4":266,"ou4":267,"a3":268,"e3":269,"n4":270,"shi2":271,"di4":272,"guo2":273,"ai2":274,"ui4":275,"ren2":276,"ao1":277,"xu":278,"yi1":279,"n2":280,"ong2":281,"yu2":282,"gu":283,"li4":284,"zhi4":285,"di":286,"we":287,"en4":288,"cheng2":289,"ong4":290,"yi4":291,"gong1":292,"ji2":293,"eng4":294,"en1":295,"yue4":296,"you3":297,"yuan2":298,"da4":299,"a2":300,"le":301,"ji4":302,"20":303,"yi3":304,"ju":305,"ai1":306,"pi":307,"xian4":308,"ou1":309,"jia1":310,"si1":311,"xing2":312,"ei3":313,"ti":314,"yu3":315,"ji1":316,"ta1":317,"ri4":318,"zhi1":319,"hou4":320,"li3":321,"ou3":322,"ai3":323,"wei2":324,"hui4":325,"dao4":326,"19":327,"ong3":328,"qi2":329,"uan2":330,"zheng4":331,"ming2":332,"xi1":333,"ao2":334,"jian4":335,"xue2":336,"chu1":337,"ge4":338,"zuo4":339,"uo1":340,"sheng1":341,"dui4":342,"you2":343,"uo3":344,"qu1":345,"shang4":346,"en3":347,"de2":348,"bei4":349,"shi3":350,"zhu":351,"zhan4":352,"n3":353,"xin1":354,"jun1":355,"er3":356,"she4":357,"ren4":358,"fa1":359,"wu4":360,"bing4":361,"ke4":362,"er2":363,"lu4":364,"dai4":365,"zhu3":366,"yi2":367,"shu4":368,"ju4":369,"jin4":370,"zi4":371,"yin1":372,"fu4":373,"fang1":374,"jing1":375,"nan2":376,"hua4":377,"zhou1":378,"ping2":379,"xia4":380,"lai2":381,"yong4":382,"guan1":383,"tong2":384,"yu4":385,"ãĢĭ":386,"ãĢĬ":387,"fa3":388,"zhu4":389,"mei3":390,"Â·":391,"jian1":392,"bo":393,"huo4":394,"ben3":395,"xiang1":396,"zhi2":397,"dong4":398,"xiang4":399,"min2":400,"zhe4":401,"jiang1":402,"qi1":403,"fen1":404,"shou3":405,"quan2":406,"wen2":407,"yan2":408,"suo3":409,"jiao4":410,"qian2":411,"dian4":412,"te4":413,"duo1":414,"zui4":415,"kai1":416,"jie2":417,"lian2":418,"zhi3":419,"xi4":420,"ke3":421,"eng3":422,"ei1":423,"dan4":424,"mu4":425,"ye4":426,"du4":427,"fu2":428,"shu":429,"ma3":430,"ye3":431,"dong1":432,"qiu2":433,"bei3":434,"ãĢĮ":435,"ãĢį":436,"gao1":437,"ya4":438,"ou2":439,"du":440,"jie1":441,"un2":442,"mian4":443,"hai3":444,"zhang3":445,"shi1":446,"jin1":447,"ci3":448,"nei4":449,"sai4":450,"san1":451,"tai2":452,"ge2":453,"xing4":454,"guo4":455,"201":456,"deng3":457,"yao4":458,"che1":459,"ci4":460,"su":461,"mo":462,"ru4":463,"wu3":464,"gai1":465,"ku":466,"ding4":467,"chang2":468,"biao3":469,"la1":470,"ti3":471,"gong4":472,"jie4":473,"shou4":474,"dao3":475,"shan1":476,"chang3":477,"si4":478,"lv":479,"ze2":480,"ti2":481,"ke1":482,"dang1":483,"neng2":484,"er4":485,"wai4":486,"ei2":487,"chu":488,"dan1":489,"qi3":490,"zi":491,"kou3":492,"xiao3":493,"zu3":494,"ba1":495,"jue2":496,"lin2":497,"liu2":498,"ni":499,"sheng3":500,"ying1":501,"lan2":502,"bi3":503,"luo2":504,"tong1":505,"200":506,"zhong4":507,"zhe3":508,"shu3":509,"tian1":510,"zhen4":511,"zhong3":512,"lie4":513,"qi4":514,"cheng1":515,"shu1":516,"yuan4":517,"bao3":518,"tai4":519,"fu3":520,"feng1":521,"mi3":522,"qing1":523,"shen1":524,"wang2":525,"yun4":526,"guan3":527,"fei1":528,"jiu4":529,"gu3":530,"liang3":531,"ceng2":532,"mei2":533,"10":534,"fen4":535,"hao4":536,"yan3":537,"wei3":538,"zong3":539,"xuan3":540,"xiao4":541,"da2":542,"na4":543,"liang4":544,"bo1":545,"zu2":546,"jing4":547,"bao4":548,"ni2":549,"wu2":550,"tong3":551,"hua2":552,"jiao1":553,"yue1":554,"ying3":555,"bian4":556,"xing1":557,"su4":558,"shui3":559,"yang2":560,"men":561,"bao1":562,"ge1":563,"bo2":564,"can1":565,"cong2":566,"dian3":567,"ru2":568,"ban4":569,"bi4":570,"bian1":571,"wang3":572,"qu3":573,"chan3":574,"se4":575,"zi1":576,"qu":577,"00":578,"chuan2":579,"nv":580,"sheng4":581,"ran2":582,"tu2":583,"zhang1":584,"xu4":585,"pu3":586,"gai3":587,"gang3":588,"nv3":589,"ling4":590,"luo4":591,"you4":592,"tou2":593,"hu4":594,"cha2":595,"ce4":596,"chi2":597,"18":598,"Ġde":599,"ĠdeĠ":600,"shi4Ġ":601,"Ġshi4Ġ":602,"Ġnian2":603,"Ġnian2Ġ":604,"wei4Ġ":605,"zai4Ġ":606,"an4Ġ":607,"Ġwei4Ġ":608,"Ġzai4Ġ":609,"an1Ġ":610,"he2Ġ":611,"Ġh":612,"zhong1Ġ":613,"bu4Ġ":614,"Ġhe2Ġ":615,"Ġxi":616,"di4Ġ":617,"an3Ġ":618,"shi2Ġ":619,"guo2Ġ":620,"ren2Ġ":621,"yu2Ġ":622,"Ġji":623,"u1Ġ":624,"Ġbu4Ġ":625,"Ġt":626,"Ġg":627,"Ġl":628,"li4Ġ":629,"Ġzhong1Ġ":630,"yi1Ġ":631,"zhi4Ġ":632,"gong1Ġ":633,"Ġyue4":634,"Ġch":635,"Ġshi2Ġ":636,"Ġzh":637,"cheng2Ġ":638,"Ġdi4Ġ":639,"Ġyi4":640,"Ġyou3":641,"Ġm":642,"Ġji2":643,"Ġyue4Ġ":644,"Ġren2Ġ":645,"Ġyu2Ġ":646,"Ġf":647,"Ġb":648,"Ġd":649,"Ġqi":650,"Ġzhi4Ġ":651,"Ġsh":652,"Ġw":653,"Ġli4Ġ":654,"Ġguo2Ġ":655,"Ġk":656,"Ġgong1Ġ":657,"Ġp":658,"Ġyi3":659,"Ġda4":660,"Ġyuan2":661,"ji4Ġ":662,"i2Ġ":663,"Ġxian4":664,"Ġcheng2Ġ":665,"Ġz":666,"Ġri4":667,"Ġxing2":668,"Ġle":669,"Ġta1":670,"Ġc":671,"Ġyi1Ġ":672,"Ġyu3":673,"Ġs":674,"Ġzhi1":675,"Ġhui4":676,"Ġji1":677,"Ġsi1":678,"Ġdao4":679,"Ġge4":680,"Ġhou4":681,"Ġhu":682,"Ġjia1":683,"Ġqi2":684,"Ġming2":685,"ao4Ġ":686,"i1Ġ":687,"Ġyou3Ġ":688,"u3Ġ":689,"ang4Ġ":690,"Ġji2Ġ":691,"Ġri4Ġ":692,"Ġxi1":693,"ang1Ġ":694,"Ġxue2":695,"Ġli3":696,"Ġwei2":697,"ang2Ġ":698,"Ġyi4Ġ":699,"Ġzheng4":700,"Ġchu1":701,"Ġde2":702,"Ġji4Ġ":703,"ang3Ġ":704,"Ġjian4":705,"Ġyou2":706,"Ġdui4":707,"Ġer3":708,"Ġsheng1":709,"Ġbei4":710,"Ġzhan4":711,"Ġshang4":712,"Ġr":713,"Ġli":714,"Ġyuan2Ġ":715,"Ġer2":716,"Ġzhu":717,"Ġy":718,"Ġbing4":719,"Ġ1":720,"Ġshi3":721,"Ġren4":722,"qu1Ġ":723,"Ġhou4Ġ":724,"Ġxian4Ġ":725,"Ġgu":726,"Ġyi3Ġ":727,"Ġyin1":728,"Ġshe4":729,"Ġju4":730,"Ġjun1":731,"Ġti":732,"Ġyu3Ġ":733,"Ġyong4":734,"Ġke4":735,"Ġwu4":736,"Ġzhu3":737,"Ġjin4":738,"Ġzi4":739,"Ġfa1":740,"Ġzhou1":741,"Ġxing2Ġ":742,"Ġbi":743,"ao2Ġ":744,"ong2Ġ":745,"Ġ19":746,"Ġfang1":747,"Ġlu4":748,"Ġzuo4":749,"Ġyi":750,"Ġping2":751,"n4Ġ":752,"Ġjing1":753,"Ġsi1Ġ":754,"Ġyu4":755,"ng2Ġ":756,"Ġnan2":757,"Ġdan4":758,"ai4Ġ":759,"Ġfu4":760,"Ġdao4Ġ":761,"Ġdong4":762,"Ġshu4":763,"Ġdai4":764,"Ġzhe4":765,"Ġhuo4":766,"Ġn":767,"Ġguan1":768,"Ġta1Ġ":769,"Ġhua4":770,"u2Ġ":771,"Ġming2Ġ":772,"Ġpi":773,"Ġzhi1Ġ":774,"Ġlai2":775,"Ġxiang4":776,"Ġxi4":777,"Ġjiang1":778,"Ġx":779,"Ġtong2":780,"Ġjiao4":781,"ao3Ġ":782,"Ġxin1":783,"a1Ġ":784,"Ġzheng4Ġ":785,"Ġjia1Ġ":786,"Ġxi1Ġ":787,"Ġji1Ġ":788,"Ġxu":789,"Ġsai4":790,"Ġshou3":791,"Ġzhu4":792,"Ġfen1":793,"Ġfa3":794,"Ġxia4":795,"Ġmu4":796,"yi2Ġge4":797,"Ġmian4":798,"Ġxiang1":799,"Ġj":800,"4Ġ":801,"Ġzhi2":802,"a3Ġ":803,"ĠleĠ":804,"Ġye3":805,"Ġke3":806,"Ġwen2":807,"Ġma3":808,"Ġqian2":809,"Ġmei3":810,"Ġqiu2":811,"Ġhui4Ġ":812,"Ġci3":813,"n3Ġ":814,"Ġyan2":815,"Ġzhi3":816,"Ġduo1":817,"Ġquan2":818,"Ġte4":819,"Ġzui4":820,"Ġsuo3":821,"Ġgao1":822,"Ġge2":823,"Ġjie2":824,"Ġjie1":825,"Ġbiao3":826,"ng3Ġ":827,"Ġguo4":828,"Ġti3":829,"n1Ġ":830,"Ġyao4":831,"i3Ġ":832,"Ġjian1":833,"e4Ġ":834,"Ġfu2":835,"Ġdeng3":836,"Ġxue2Ġ":837,"Ġhai3":838,"Ġmi":839,"Ġqu1Ġ":840,"Ġgai1":841,"Ġ2":842,"ai2Ġ":843,"Ġchang2":844,"Ġdu4":845,"Ġshou4":846,"Ġlian2":847,"Ġlan2":848,"Ġche1":849,"Ġbei3":850,"Ġzhang3":851,"Ġru4":852,"Ġqi1":853,"Ġdian4":854,"Ġti2":855,"Ġze2":856,"Ġdong1":857,"Ġxing4":858,"Ġluo2":859,"Ġci4":860,"Ġdang1":861,"Ġding4":862,"Ġben3":863,"Ġye4":864,"Ġdu":865,"Ġdao3":866,"Ġshi1":867,"Ġwei2Ġ":868,"3Ġ":869,"Ġli3Ġ":870,"Ġsheng3":871,"Ġjin1":872,"Ġwu4Ġ":873,"Ġtong1":874,"Ġsu":875,"Ġlv":876,"Ġwai4":877,"Ġtai2":878,"Ġkai1":879,"Ġtong3":880,"Ġzi":881,"Ġchu":882,"Ġnei4":883,"Ġshu1":884,"Ġliu2":885,"Ġzu3":886,"Ġla1":887,"Ġbi3":888,"Ġshan1":889,"1Ġnian2Ġ":890,"0Ġnian2Ġ":891,"Ġlie4":892,"Ġneng2":893,"Ġlin2":894,"5Ġnian2Ġ":895,"Ġwu3":896,"4Ġnian2Ġ":897,"Ġzhong4":898,"2Ġnian2Ġ":899,"Ġxiao3":900,"Ġshu3":901,"Ġsi4":902,"Ġcheng1":903,"Ġying1":904,"Ġya4":905,"Ġchang3":906,"3Ġnian2Ġ":907,"Ġjue2":908,"Ġmin2":909,"Ġfeng1":910,"Ġdan1":911,"Ġke1":912,"Ġxie1":913,"Ġmo":914,"Ġkuo4":915,"Ġgong4":916,"Ġshen1":917,"Ġliang4":918,"Ġhao4":919,"Ġku":920,"8Ġnian2Ġ":921,"6Ġnian2Ġ":922,"Ġyan3":923,"Ġying3":924,"Ġyue4Ġ2":925,"Ġmei2":926,"202":927,"Ġgang3":928,"Ġqi4":929,"Ġceng2":930,"Ġtian1":931,"Ġzong3":932,"Ġdi":933,"Ġbao1":934,"Ġgou4":935,"li3Ġ":936,"Ġsan1":937,"Ġjiu4":938,"7Ġnian2Ġ":939,"Ġxuan3":940,"Ġfei1":941,"Ġ3":942,"Ġtuan2":943,"Ġzheng1":944,"Ġyue4Ġ1":945,"Ġjing4":946,"Ġqu3":947,"Ġyang2":948,"Ġyun4":949,"Ġzhong3":950,"Ġba1":951,"Ġdou1":952,"Ġbao3":953,"Ġqian1Ġ":954,"Ġyi2":955,"Ġtai4":956,"Ġgu3":957,"Ġliang3":958,"Ġwang3":959,"Ġzhe3":960,"Ġda2":961,"Ġqi3":962,"mi3Ġ":963,"Ġguan3":964,"Ġqu1":965,"Ġchan3":966,"Ġzhong1Ġguo2Ġ":967,"Ġjiao1":968,"Ġan1Ġ":969,"Ġyuan4":970,"Ġwei4Ġyu2Ġ":971,"Ġhu4":972,"Ġxian1Ġ":973,"Ġwu2":974,"Ġlu":975,"Ġni2":976,"Ġcong2":977,"Ġqing1":978,"Ġbian4":979,"Ġbian1":980,"Ġdian3":981,"Ġq":982,"Ġjie4":983,"Ġzu2":984,"or":985,"ĠĠĠ19":986,"Ġbi4":987,"Ġwei3":988,"Ġshui3":989,"Ġ201":990,"Ġban1Ġ":991,"Ġfu1Ġ":992,"Ġna4":993,"Ġwan1Ġ":994,"Ġbao4":995,"Ġling4":996,"Ġyou4":997,"Ġshuo1":998,"Ġ5":999,"Ġ200":1000,"Ġlei4":1001,"9Ġnian2Ġ":1002,"Ġzhan3Ġ":1003,"Ġbo2":1004,"Ġhuo2":1005,"Ġxie2":1006,"Ġfan3Ġ":1007,"Ġshen2":1008,"Ġmi4":1009,"Ġxiao4":1010,"Ġzhang1":1011,"Ġran2":1012,"Ġxing1":1013,"Ġji4":1014,"Ġwang2":1015,"Ġcu":1016,"Ġan4Ġ":1017,"Ġbo1":1018,"Ġse4":1019,"Ġfu3":1020,"Ġli2Ġ":1021,"Ġban3Ġ":1022,"Ġmeng2":1023,"Ġchen2":1024,"Ġcan1":1025,"Ġlun2":1026,"Ġwo":1027,"Ġru2":1028,"Ġhan4Ġ":1029,"Ġzhan4Ġ":1030,"Ġcheng2":1031,"Ġwan4Ġ":1032,"Ġhan2":1033,"Ġjia4":1034,"Ġge1":1035,"Ġta1Ġmen":1036,"Ġni":1037,"eĠĠĠ":1038,"Ġyue1":1039,"Ġmen2":1040,"Ġsheng4":1041,"Ġce4":1042,"Ġchi2":1043,"âĢ":1044,"Ġsu4":1045,"Ġping2Ġfang1":1046,"Ġluo4":1047,"Ġcheng2Ġwei2":1048,"Ġzi1":1049,"Ġbie2":1050,"Ġzhen4":1051,"Ġgong1Ġsi1":1052,"Ġpo":1053,"Ġbiao1":1054,"Ġpu3":1055,"Ġkong1":1056,"Ġjie3":1057,"Ġgai3":1058,"Ġgen1":1059,"Ġjian3Ġ":1060,"u4Ġ":1061,"Ġtou2":1062,"aĠ":1063,"Ġ4":1064,"mei3Ġguo2Ġ":1065,"Ġyi1":1066,"Ġji3":1067,"Ġhai2":1068,"Ġbu4Ġfen4":1069,"Ġban4":1070,"Ġwan2":1071,"Ġfan4Ġ":1072,"tĠ":1073,"Ġxi2Ġ":1074,"Ġer4":1075,"Ġjiu1Ġ":1076,"on":1077,"Ġqu":1078,"Ġchuan2":1079,"Ġguo3":1080,"Ġming4":1081,"Ġxiao1":1082,"wei1Ġ":1083,"Ġ6":1084,"Ġzhen1":1085,"12":1086,"Ġgeng4":1087,"Ġxiu1Ġ":1088,"Ġnv3":1089,"Ġzhong1":1090,"Ġren2Ġkou3":1091,"Ġtu2":1092,"ĠdeĠdi4Ġ":1093,"ar":1094,"Ġxiang3Ġ":1095,"Ġshu":1096,"Ġqie3":1097,"Ġhua2":1098,"Ġshi4Ġjie4":1099,"Ġgong1Ġli3Ġ":1100,"Ġxia2":1101,"Ġshi3Ġyong4":1102,"Ġzhuan1Ġ":1103,"Ġzheng4Ġfu3":1104,"Ġbao1Ġkuo4":1105,"Ġyo":1106,"Ġshou1":1107,"Ġzong1":1108,"ĠĠĠ201":1109,"Ġtuo1":1110,"Ġci2Ġ":1111,"Ġwu1Ġ":1112,"Ġsu1Ġ":1113,"Ġxu4":1114,"Ġqi2Ġzhong1Ġ":1115,"Ġgui1Ġ":1116,"Ġsui4":1117,"Ġgu4":1118,"Ġdeng1":1119,"Ġguo2Ġjia1":1120,"Ġxu1Ġ":1121,"ĠdeĠyi1Ġ":1122,"Ġzhi4":1123,"ĠdeĠyi2Ġge4":1124,"Ġfen4":1125,"Ġyu2Ġ19":1126,"Ġcha2":1127,"ĠdeĠshi4Ġ":1128,"ĠĠĠzai4Ġ":1129,"ying4":1130,"Ġpei4":1131,"11":1132,"Ġshang1Ġ":1133,"Ġtu":1134,"Ġchu1Ġ":1135,"Ġjiang3Ġ":1136,"Ġta1ĠdeĠ":1137,"ren2Ġkou3":1138,"Ġhui2Ġ":1139,"Ġfei4":1140,"eĠ":1141,"Ġchao2":1142,"Ġ7":1143,"Ġli4":1144,"Ġtang2Ġ":1145,"Ġyu":1146,"Ġman4Ġ":1147,"Ġtian2":1148,"Ġshi2":1149,"Ġ10":1150,"Ġbai3":1151,"Ġri4Ġben3":1152,"Ġlong2Ġ":1153,"Ġbing1":1154,"mo2":1155,"sĠ":1156,"Ġjing3":1157,"Ġren2Ġmin2":1158,"Ġ8":1159,"Ġmo2":1160,"Ġshi4Ġyi1Ġ":1161,"zuo4Ġ":1162,"Ġling3":1163,"Ġcai3":1164,"Ġer3Ġ":1165,"Ġyin1Ġci3":1166,"1Ġ":1167,"Ġtie3":1168,"Ġduan4Ġ":1169,"Ġshi4Ġwei4Ġ":1170,"Ġsha1":1171,"Ġren2":1172,"Ġdang3Ġ":1173,"Ġjin3":1174,"Ġying4":1175,"Ġsai4Ġ":1176,"Ġrong2Ġ":1177,"Ġzhu1Ġ":1178,"Ġhuo4Ġde2":1179,"Ġmu3Ġ":1180,"Ġchu4":1181,"Ġa1":1182,"Ġcai2":1183,"Ġdu1Ġ":1184,"Ġchao1":1185,"Ġmei3Ġguo2Ġ":1186,"Ġhuo3":1187,"ĠC":1188,"Ġkou3":1189,"in":1190,"Ġwen4":1191,"Ġã":1192,"Ġhuan2":1193,"Ġzhuan3Ġ":1194,"Ġcun2":1195,"Ġdang3":1196,"Ġzeng1":1197,"Ġsa4":1198,"Ġju4Ġ":1199,"shi4ĠdeĠ":1200,"Ġgan3Ġ":1201,"Ġbu4":1202,"Ġ18":1203,"Ġhen3":1204,"Ġting1":1205,"zhong1Ġguo2Ġ":1206,"Ġsong4":1207,"ĠS":1208,"sĠĠĠ":1209,"Ġqing2Ġ":1210,"Ġqin1":1211,"Ġhe2Ġguo2Ġ":1212,"zhen4Ġ":1213,"Ġlu4Ġ":1214,"Ġpian4Ġ":1215,"Ġyi3Ġji2Ġ":1216,"ĠA":1217,"an4ĠdeĠ":1218,"0Ġ":1219,"Ġdong4Ġ":1220,"Ġhua4Ġ":1221,"Ġjian4Ġ":1222,"Ġ9":1223,"âĢĶ":1224,"Ġe2":1225,"Ġgei3":1226,"ul":1227,"Ġdu2":1228,"Ġlv4":1229,"Ġxi4Ġ":1230,"Ġhang2":1231,"Ġkai1Ġshi3":1232,"Ġyi2Ġge4":1233,"Ġpai2":1234,"Ġda4Ġxue2":1235,"Ġju1Ġ":1236,"Ġzi3":1237,"Ġ199":1238,"Ġka3":1239,"Ġlong2":1240,"Ġguo2":1241,"wei1":1242,"Ġzhu3Ġyao4":1243,"Ġfang4Ġ":1244,"Ġdai4Ġbiao3":1245,"Ġzhuang1Ġ":1246,"Ġyou2Ġyu2Ġ":1247,"Ġyu4Ġ":1248,"Ġzheng3":1249,"ĠdeĠh":1250,"Ġdi4":1251,"Ġjing3Ġ":1252,"Ġqiang2Ġ":1253,"Ġchu3Ġ":1254,"Ġtong2Ġshi2Ġ":1255,"ĠĠĠdi4Ġ":1256,"Ġhang2Ġ":1257,"Ġxuan1Ġ":1258,"al":1259,"Ġguang3Ġ":1260,"li4Ġshi3":1261,"Ġfang2Ġ":1262,"Ġhuang2":1263,"Ġhuan4Ġ":1264,"Ġting2Ġ":1265,"Ġzhang3Ġ":1266,"Ġshang4Ġ":1267,"2Ġ":1268,"Ġlou2":1269,"Ġdi2Ġ":1270,"duan4Ġ":1271,"Ġqu4":1272,"hou4Ġ":1273,"ĠM":1274,"Ġtui1Ġ":1275,"Ġjiu3Ġ":1276,"Ġju":1277,"Ġzai4Ġ19":1278,"Ġxun2":1279,"tie3":1280,"Ġ15":1281,"Ġya2":1282,"Ġsha1Ġ":1283,"Ġxie3":1284,"Ġhuang2Ġ":1285,"Ġlian4Ġ":1286,"Ġxin4":1287,"Ġsen1":1288,"kai1Ġshi3":1289,"Ġli4Ġya4":1290,"Ġjia3":1291,"Ġping2Ġ":1292,"Ġsai1":1293,"Ġyin1Ġwei4Ġ":1294,"Ġpin3Ġ":1295,"Ġmu3":1296,"Ġmi3":1297,"Ġrong2":1298,"Ġdi4Ġyi1Ġ":1299,"Ġdui4Ġ":1300,"Ġchuan1Ġ":1301,"Ġkong4":1302,"Ġke4Ġ":1303,"Ġxiang1Ġgang3":1304,"Ġyin3":1305,"Ġgong1":1306,"Ġsui2Ġ":1307,"Ġka3Ġ":1308,"fa3Ġguo2Ġ":1309,"Ġsheng1Ġ":1310,"Ġyong4Ġ":1311,"Ġdi4Ġer4":1312,"ĠdeĠshi2Ġ":1313,"Ġ20":1314,"Ġhu2":1315,"orm":1316,"Ġlun4Ġ":1317,"Ġyan2Ġjiu1Ġ":1318,"Ġshi4Ġji4Ġ":1319,"Ġren4Ġwei2":1320,"Ġlei2Ġ":1321,"Ġxian2":1322,"Ġzao4":1323,"Ġha1":1324,"Ġwei1Ġ":1325,"Ġping2Ġfang1Ġgong1Ġli3Ġ":1326,"20Ġnian2Ġ":1327,"Ġzhuang1":1328,"Ġhei1":1329,"Ġzhong1Ġxin1":1330,"Ġzhao4Ġ":1331,"Ġpai4":1332,"Ġreng2":1333,"ĠĠĠS":1334,"Ġxi4Ġtong3":1335,"Ġpin3":1336,"xiang1Ġgang3":1337,"Ġge":1338,"Ġjian1Ġ":1339,"Ġxiang3":1340,"Ġwai4Ġ":1341,"Ġhong2Ġ":1342,"Ġying2":1343,"Ġnian2ĠdeĠ":1344,"yuan2Ġ":1345,"wu4Ġ":1346,"Ġmi3Ġ":1347,"Ġbei1":1348,"Ġju3Ġ":1349,"Ġdi4Ġqu1Ġ":1350,"ulaĠ":1351,"Ġpan4Ġ":1352,"Ġju3":1353,"Ġlun4":1354,"Ġxian3Ġ":1355,"ormulaĠ":1356,"Ġyun4Ġdong4":1357,"Ġguan4Ġ":1358,"Ġmu4Ġ":1359,"Ġying2Ġ":1360,"Ġtan2":1361,"Ġchu2":1362,"hua4Ġ":1363,"Ġchong1":1364,"Ġguang1Ġ":1365,"Ġao4Ġ":1366,"Ġhui1Ġ":1367,"ri4Ġben3":1368,"nian4Ġ":1369,"Ġyu2":1370,"Ġtiao2":1371,"jian1Ġ":1372,"Ġbu4Ġtong2":1373,"ĠĠĠ200":1374,"Ġshi4Ġzai4Ġ":1375,"Ġshuo1Ġ":1376,"Ġzhong1ĠdeĠ":1377,"Ġ198":1378,"Ġheng2":1379,"Ġzhe4Ġxie1":1380,"tĠĠĠ":1381,"Ġzhong1Ġy":1382,"Ġzao4Ġ":1383,"Ġhong2":1384,"u3Ġduo1":1385,"Ġ16":1386,"th":1387,"Ġqun2":1388,"Ġcun1Ġ":1389,"Ġlv4Ġ":1390,"Ġmo4":1391,"Ġshu4Ġ":1392,"Ġzhi1Ġyi1Ġ":1393,"ĠB":1394,"Ġting2":1395,"Ġdou4":1396,"Ġba2":1397,"Ġde2Ġ":1398,"Ġwa3":1399,"Ġzhou1Ġ":1400,"bing1":1401,"Ġbiao3Ġshi4Ġ":1402,"Ġdan1Ġren4":1403,"Ġju2Ġ":1404,"Ġke3Ġneng2":1405,"dĠĠĠ":1406,"kuang4Ġ":1407,"Ġjin4Ġxing2":1408,"ĠdeĠxi":1409,"Ġjin3Ġ":1410,"Ġta3":1411,"Ġda3":1412,"Ġzuo3":1413,"Ġzhong1Ġhua2":1414,"ĠT":1415,"Ġbang1Ġ":1416,"Ġmai4":1417,"liu4":1418,"ĠdeĠqi":1419,"Ġfa3Ġ":1420,"ĠI":1421,"Ġchong2Ġ":1422,"Ġju2":1423,"Ġzuo4Ġ":1424,"ĠdeĠji":1425,"ĠĠĠ202":1426,"Ġdu2Ġ":1427,"Ġyao1":1428,"Ġkan4Ġ":1429,"Ġhu2Ġ":1430,"Ġke3Ġyi3":1431,"zheng4Ġfu3":1432,"Ġgao4Ġ":1433,"Ġshi4Ġjian4":1434,"n4Ġdu4":1435,"Ġnuo4":1436,"Ġ202":1437,"dian4Ġying3":1438,"Ġrui4":1439,"Ġhao3":1440,"Ġle4":1441,"Ġ12":1442,"Ġyin2":1443,"Ġdeng3Ġ":1444,"Ġyue4Ġ3":1445,"Ġgong4Ġhe2Ġguo2Ġ":1446,"Ġchong2":1447,"ĠdeĠg":1448,"Ġhou4Ġlai2":1449,"ĠĠĠg":1450,"am":1451,"Ġmian4Ġji1Ġ":1452,"tai2Ġwan1Ġ":1453,"Ġxiang4Ġ":1454,"Ġpo4":1455,"Ġshi1Ġ":1456,"Ġzhuang4Ġ":1457,"Ġbu2":1458,"Ġai4":1459,"Ġming2Ġwei4Ġ":1460,"Ġku4":1461,"Ġyan4Ġ":1462,"ou":1463,"Ġge2Ġ":1464,"Ġjian4Ġzhu4":1465,"Ġhu1Ġ":1466,"men2":1467,"mo4":1468,"Ġque4":1469,"Ġchao2Ġ":1470,"Ġxia4Ġ":1471,"Ġjun1Ġ":1472,"Ġxue2Ġyuan4":1473,"Ġyong1":1474,"Ġbai2":1475,"ĠP":1476,"Ġtiao2Ġ":1477,"Ġzuo4Ġwei2":1478,"Ġjiu3":1479,"Ġshi2Ġqi1":1480,"ï¼":1481,"Ġtai2Ġwan1Ġ":1482,"Ġzi3Ġ":1483,"5Ġ":1484,"ĠĠĠsheng1":1485,"Ġguo2Ġji4Ġ":1486,"an3ĠdeĠ":1487,"Ġqin2":1488,"Ġtu3Ġ":1489,"Ġxin4Ġ":1490,"ĠD":1491,"Ġpai2Ġ":1492,"Ġbai4":1493,"Ġpi1Ġ":1494,"Ġao4":1495,"Ġtu1Ġ":1496,"Ġyi3Ġji2":1497,"aĠĠĠ":1498,"Ġcun1":1499,"Ġzhu2":1500,"Ġtan3Ġ":1501,"Ġsheng3Ġ":1502,"Ġling3Ġ":1503,"Ġtang2":1504,"ĠdeĠsh":1505,"Ġliu4":1506,"Ġchuang4Ġ":1507,"ri":1508,"Ġou1":1509,"Ġ17":1510,"0Ġnian2Ġdai4":1511,"ĠdeĠc":1512,"Ġling2Ġ":1513,"Ġtui4":1514,"Ġliao4Ġ":1515,"zhang3Ġ":1516,"Ġtao2":1517,"Ġlai2Ġ":1518,"Ġna2":1519,"Ġmei2Ġyou3Ġ":1520,"ĠdeĠf":1521,"Ġxue2Ġxiao4":1522,"ĠdeĠgong1Ġ":1523,"Ġfan1Ġ":1524,"lei4":1525,"Ġjiang4Ġ":1526,"an3Ġshi4Ġ":1527,"Ġzi4Ġji3":1528,"zheng4Ġzhi4Ġ":1529,"Ġgan1Ġ":1530,"Ġ194":1531,"Ġcheng2Ġli4Ġ":1532,"Ġwen1":1533,"Ġfang2":1534,"5Ġri4Ġ":1535,"Ġguan1Ġ":1536,"19Ġnian2Ġ":1537,"Ġling2":1538,"Ġxing2ĠdeĠ":1539,"Ġshou3Ġ":1540,"Ġzheng4Ġshi4Ġ":1541,"Ġxing4Ġ":1542,"Ġtong1Ġguo4":1543,"Ġping2Ġfang1Ġqian1Ġ":1544,"wu1Ġ":1545,"Ġta1Ġzai4Ġ":1546,"Ġxun4":1547,"Ġgui4":1548,"tu":1549,"Ġwan3Ġ":1550,"uan3Ġ":1551,"zhuan1Ġ":1552,"Ġjiao3":1553,"Ġchang3Ġ":1554,"Ġmian4Ġ":1555,"Ġqiao2":1556,"Ġdi4Ġqu1":1557,"Ġli4Ġshi3":1558,"ĠziĠ":1559,"Ġdiao4Ġ":1560,"pian4Ġ":1561,"ĠĠĠf":1562,"lu4Ġ":1563,"Ġliang2Ġ":1564,"Ġyi3Ġjing1":1565,"Ġzui4Ġzhong1Ġ":1566,"Ġwang4Ġ":1567,"Ġxian4ĠdeĠ":1568,"Ġda4ĠdeĠ":1569,"Ġqi2Ġta1":1570,"yan2Ġjiu1Ġ":1571,"Ġqin1Ġ":1572,"chang3Ġ":1573,"Ġqiao2Ġ":1574,"st":1575,"ĠdeĠzhu3":1576,"Ġfa2":1577,"Ġhe4":1578,"Ġdian4Ġying3":1579,"Ġzhe":1580,"Ġshu3Ġyu2Ġ":1581,"Ġshan4Ġ":1582,"Ġren4Ġ":1583,"Ġshi3Ġ":1584,"guang3Ġ":1585,"Ġdang1Ġshi2Ġ":1586,"Ġxiong1":1587,"ro":1588,"guo2Ġjia1":1589,"Ġbai4Ġ":1590,"ke4Ġlan2":1591,"Ġqing4":1592,"Ġshang1":1593,"ĠdeĠren2Ġ":1594,"Ġ197":1595,"Ġzhi1Ġhou4Ġ":1596,"Ġti2Ġ":1597,"Ġyu2Ġ201":1598,"nuo4":1599,"Ġxie4":1600,"Ġzao3":1601,"el":1602,"Ġxiu4":1603,"ĠĠĠC":1604,"li4Ġshi3Ġ":1605,"ju1Ġ":1606,"Ġsong1":1607,"Ġti3Ġ":1608,"i1Ġran2":1609,"Ġren2Ġmin2Ġgong4Ġhe2Ġguo2Ġ":1610,"1Ġri4Ġ":1611,"6Ġri4Ġ":1612,"gui1Ġ":1613,"Ġke3Ġyi3Ġ":1614,"Ġzheng4Ġzhi4Ġ":1615,"Ġzou3":1616,"dian4Ġshi4Ġ":1617,"4Ġri4Ġ":1618,"Ġhao4Ġ":1619,"Ġhai2Ġ":1620,"Ġcai2Ġ":1621,"Ġlu2":1622,"Ġwo3":1623,"Ġdian3Ġ":1624,"Ġer2Ġ":1625,"7Ġri4Ġ":1626,"Ġta3Ġ":1627,"Ġ195":1628,"Ġruo4":1629,"Ġ00":1630,"wan2":1631,"xuan1Ġ":1632,"ĠdeĠch":1633,"ĠdeĠp":1634,"1Ġyue4Ġ":1635,"Ġqing2":1636,"Ġzan4Ġ":1637,"Ġlei1Ġ":1638,"Ġgeng1":1639,"Ġzhun3":1640,"Ġxun4Ġ":1641,"Ġshi4Ġf":1642,"Ġzhe4Ġge":1643,"Ġli4Ġru2":1644,"ĠĠĠsheng1Ġping2Ġ":1645,"Ġbai2Ġ":1646,"re":1647,"6Ġ":1648,"Ġjin4Ġxing2Ġ":1649,"Ġwei3Ġyuan2":1650,"Ġgen1Ġju4":1651,"Ġjiao3Ġ":1652,"Ġhua1":1653,"ĠdeĠcheng2Ġ":1654,"Ġzao1":1655,"Ġfa1Ġsheng1":1656,"Ġguang3":1657,"Ġshe4Ġ":1658,"Ġyin3Ġ":1659,"Ġye3Ġshi4Ġ":1660,"Ġfu4Ġze2":1661,"Ġchu3":1662,"Ġshen3":1663,"jun1Ġ":1664,"Ġfeng4":1665,"Ġmi4Ġdu4":1666,"Ġyun2":1667,"Ġdian4Ġshi4Ġ":1668,"Ġchu2Ġ":1669,"Ġen1":1670,"ĠdeĠda4":1671,"Ġding1":1672,"Ġye4Ġ":1673,"ĠdeĠzh":1674,"Ġjin4Ġru4":1675,"yĠĠĠ":1676,"Ġbing4Ġqie3":1677,"Ġyou2Ġxi4":1678,"Ġdao3Ġ":1679,"Ġzhong1Ġyang1Ġ":1680,"Ġzhi1Ġjian1":1681,"Ġshi4Ġzhen4Ġ":1682,"Ġda4Ġxue2Ġ":1683,"Ġshi4Ġzhong1Ġ":1684,"qu4":1685,"Ġping2Ġfang1Ġqian1Ġmi3Ġ":1686,"ĠdeĠm":1687,"Ġsi1Ġte4":1688,"Ġmian3Ġ":1689,"Ġgong1Ġzuo4":1690,"Ġai1":1691,"17":1692,"bao1Ġkuo4":1693,"Ġman3Ġ":1694,"Ġpai4Ġ":1695,"ĠE":1696,"Ġshen4":1697,"ĠdeĠt":1698,"Ġda4Ġ":1699,"Ġfa1Ġzhan3Ġ":1700,"Ġlv3":1701,"Ġa1Ġ":1702,"Ġgong1Ġcheng2Ġ":1703,"xia4Ġ":1704,"Ġ1Ġ":1705,"ĠdeĠk":1706,"Ġshi4ĠdeĠ":1707,"ziĠ":1708,"Ġzhao4":1709,"diao4Ġ":1710,"Ġli2":1711,"Ġdi1Ġ":1712,"Ġpiao4Ġ":1713,"Ġcheng2Ġshi4Ġ":1714,"Ġ196":1715,"ĠdeĠguan1":1716,"Ġji1Ġwei4Ġ":1717,"ĠdeĠji1":1718,"yan4Ġ":1719,"ĠĠĠli4Ġshi3Ġ":1720,"Ġzha4":1721,"9Ġyue4Ġ":1722,"lv4":1723,"Ġzhao1":1724,"Ġgang1Ġ":1725,"Ġni2Ġya4":1726,"Ġ0":1727,"que4":1728,"dou1":1729,"suan4Ġ":1730,"zhe3Ġ":1731,"ac":1732,"Ġ14":1733,"Ġpa4":1734,"ĠĠĠM":1735,"Ġfang4":1736,"15":1737,"chuang4Ġ":1738,"Ġpi2Ġ":1739,"Ġsi3Ġ":1740,"Ġshi4Ġyou2":1741,"3Ġyue4Ġ":1742,"Ġche1Ġ":1743,"Ġkao3Ġ":1744,"ya2":1745,"Ġqing3":1746,"Ġlao3":1747,"xu1Ġ":1748,"Ġying1Ġguo2Ġ":1749,"Ġti2Ġgong1Ġ":1750,"Ġbu3Ġ":1751,"Ġshi2Ġjian1":1752,"Ġgou4Ġ":1753,"7Ġyue4Ġ":1754,"10Ġyue4Ġ":1755,"ĠĠĠde":1756,"Ġda3Ġ":1757,"at":1758,"Ġte4Ġ":1759,"ol":1760,"Ġpeng2":1761,"Ġlu3Ġ":1762,"Ġzhe3Ġ":1763,"Ġza2":1764,"Ġsi3":1765,"Ġmin2Ġguo2Ġ":1766,"Ġshe4Ġji4Ġ":1767,"12Ġyue4Ġ":1768,"Ġyin1Ġ":1769,"Ġtong2Ġnian2Ġ":1770,"Ġjia3Ġ":1771,"ĠH":1772,"Ġjiang4":1773,"ĠdeĠxing2":1774,"Ġzheng1Ġ":1775,"ĠL":1776,"Ġren2Ġkou3Ġmi4Ġdu4":1777,"Ġyong3":1778,"Ġchang4Ġ":1779,"8Ġyue4Ġ":1780,"5Ġyue4Ġ":1781,"16":1782,"ĠN":1783,"Ġdi4Ġsan1":1784,"ĠdeĠbu4Ġ":1785,"Ġyang3Ġ":1786,"Ġ13":1787,"Ġci2":1788,"Ġji4Ġshu4":1789,"wei3Ġyuan2":1790,"Ġjiang3":1791,"Ġbin1":1792,"yi1Ġxie1":1793,"Ġtan4Ġ":1794,"Ġdi3":1795,"Ġqi2Ġ":1796,"2020Ġnian2Ġ":1797,"Ġcheng1Ġ":1798,"Ġshi4Ġyi2Ġge4":1799,"Ġlu3":1800,"ĠR":1801,"Ġ193":1802,"Ġse4Ġ":1803,"tong1Ġguo4":1804,"Ġduo2":1805,"Ġdan4Ġshi4Ġ":1806,"shi3Ġyong4":1807,"Ġqiang2":1808,"ĠG":1809,"Ġfen1Ġbie2":1810,"Ġtu3":1811,"Ġshou4Ġ":1812,"u1Ġshi4Ġ":1813,"biao1":1814,"Ġgong1Ġsi1Ġ":1815,"6Ġyue4Ġ":1816,"Ġshang4ĠdeĠ":1817,"ying1Ġguo2Ġ":1818,"ĠĠĠh":1819,"Ġyue4Ġ1Ġri4Ġ":1820,"lu":1821,"Ġya1":1822,"Ġwo3Ġ":1823,"Ġbing4Ġzai4Ġ":1824,"Ġyin1Ġyue4Ġ":1825,"4Ġyue4Ġ":1826,"Ġmu4Ġqian2":1827,"Ġqiu1Ġ":1828,"Ġxi1Ġya4":1829,"wang2Ġ":1830,"Ġpei2":1831,"ĠdeĠhu":1832,"Ġzhi1Ġchi2":1833,"huo4Ġde2":1834,"yĠ":1835,"Ġquan2Ġguo2Ġ":1836,"Ġyang4Ġ":1837,"Ġwen2Ġ":1838,"ĠdeĠz":1839,"ju3":1840,"dĠ":1841,"zhuan3Ġ":1842,"qun2":1843,"xi2Ġ":1844,"Ġwa3Ġ":1845,"ĠĠĠA":1846,"Ġgan4Ġ":1847,"Ġji2Ġtuan2":1848,"Ġliang2":1849,"Ġxuan2":1850,"ĠgtĠ":1851,"Ġzhu4Ġ":1852,"Ġkong3":1853,"lv3":1854,"Ġbu4Ġfen4Ġ":1855,"Ġshi4Ġwei4Ġyu2Ġ":1856,"ĠF":1857,"Ġre4":1858,"lv4Ġ":1859,"Ġmo4Ġ":1860,"Ġzhu3Ġyi4Ġ":1861,"Ġluo2Ġsi1":1862,"Ġgu1Ġ":1863,"Ġzu":1864,"Ġwei4Ġle":1865,"tion":1866,"7Ġ":1867,"Ġxing2Ġzheng4Ġ":1868,"Ġbu4Ġji":1869,"Ġwei1":1870,"Ġche4":1871,"CĠ":1872,"Ġzhi2Ġ":1873,"Ġjia1Ġru4":1874,"ke3Ġneng2":1875,"Ġmai4Ġ":1876,"Ġshi4Ġshi4Ġ":1877,"ĠdeĠzuo4":1878,"ĠltĠ":1879,"11Ġyue4Ġ":1880,"Ġbu4Ġdui4":1881,"Ġxuan1Ġbu4Ġ":1882,"Ġbu4Ġguo4":1883,"Ġsui1Ġran2":1884,"Ġgui1":1885,"Ġlei1":1886,"Ġhao2Ġ":1887,"Ġfan2":1888,"su1Ġ":1889,"Ġsheng1Ġhuo2":1890,"Ġba3":1891,"Ġwen2Ġhua4":1892,"Ġtong1Ġchang2":1893,"Ġshi4Ġdi4Ġ":1894,"Ġxian4Ġzai4Ġ":1895,"ren2Ġmin2":1896,"Ġtou4":1897,"Ġgai4Ġ":1898,"Ġguang1":1899,"si":1900,"Ġye2":1901,"Ġzhi4Ġzuo4":1902,"Ġxi3":1903,"Ġshuang1Ġ":1904,"8Ġ":1905,"Ġmen":1906,"8Ġri4Ġ":1907,"ĠdeĠyi4":1908,"Ġxu3Ġduo1":1909,"Ġwo4":1910,"Ġyao1Ġqiu2":1911,"Ġji4Ġhua4":1912,"ĠleĠyi1Ġ":1913,"ĠĠĠji":1914,"Ġyu2Ġ200":1915,"Ġyuan4Ġ":1916,"Ġpo1":1917,"Ġcheng1Ġwei2Ġ":1918,"Ġxi2":1919,"Ġmao2Ġ":1920,"ji2Ġ":1921,"shao3":1922,"Ġcai3Ġyong4":1923,"Ġpin2":1924,"Ġdang1Ġdi4Ġ":1925,"Ġshi4Ġzhen4":1926,"Ġzhe2":1927,"ying3Ġxiang3Ġ":1928,"Ġgao1Ġdu4":1929,"Ġyan2Ġ":1930,"Ġxu1Ġyao4":1931,"Ġtie3Ġlu4":1932,"tiao2":1933,"Ġxia2Ġ":1934,"Ġjiao4Ġyu4":1935,"Ġchi4":1936,"Ġnong2Ġ":1937,"ĠdeĠd":1938,"qian1Ġ":1939,"Ġgao4":1940,"Ġkai3":1941,"yuan3Ġ":1942,"Ġjing1Ġ":1943,"ĠdeĠyuan2":1944,"Ġji4Ġxu4":1945,"Ġyi4Ġshu4":1946,"jian4Ġ":1947,"an4Ġshi4Ġ":1948,"Ġzai4Ġdi4Ġ":1949,"Ġcheng2Ġyuan2":1950,"ĠĠĠP":1951,"Ġshao3":1952,"Ġda4Ġli4Ġ":1953,"Ġkan1Ġ":1954,"Ġkang1Ġ":1955,"ĠdeĠshu4":1956,"Ġyang4":1957,"ling3":1958,"chuan1Ġ":1959,"Ġ11":1960,"dai4Ġbiao3":1961,"2Ġyue4Ġ":1962,"Ġcuo4":1963,"an1ĠdeĠ":1964,"Ġti4":1965,"shi1Ġ":1966,"Ġpai1":1967,"ye4Ġ":1968,"Ġchu4Ġ":1969,"Ġlai2Ġzi4":1970,"ting1":1971,"fa1Ġzhan3Ġ":1972,"Ġgong1Ġzuo4Ġ":1973,"xun2":1974,"Ġshe4Ġhui4":1975,"ĠdeĠji4Ġ":1976,"Ġqi4Ġ":1977,"ĠdeĠzui4":1978,"Ġdai4Ġ":1979,"Ġyi4Ġzhi2":1980,"Ġjie2Ġ":1981,"Ġyin4Ġdu4":1982,"Ġban1Ġya2":1983,"Ġrang4Ġ":1984,"Ġzhi3Ġ":1985,"Ġrang4":1986,"Ġchao1Ġguo4":1987,"ĠdeĠxin1":1988,"Ġyou3Ġyi1Ġ":1989,"Ġnan2Ġ":1990,"Ġshu1Ġ":1991,"Ġpian1Ġ":1992,"shen2":1993,"30":1994,"bao3Ġhu4":1995,"Ġding4Ġ":1996,"po":1997,"Ġqi2Ġta1Ġ":1998,"ming4":1999,"Ġzu2Ġqiu2":2000,"cheng1Ġ":2001,"Ġshang4Ġhai3":2002,"Ġmou2":2003,"Ġfen1Ġbu4Ġ":2004,"Ġyong4Ġyu2Ġ":2005,"Ġãĥ":2006,"wai4Ġ":2007,"Ġzhu3Ġjiao4":2008,"cheng2Ġshi4Ġ":2009,"hui2Ġ":2010,"qi1Ġ":2011,"Ġhai3Ġba2":2012,"guan4Ġ":2013,"50":2014,"Ġgang1":2015,"Ġzhong1Ġgong4":2016,"Ġcheng2Ġgong1Ġ":2017,"Ġhuo2Ġdong4":2018,"Ġji3Ġ":2019,"ĠJ":2020,"Ġri4Ġzai4Ġ":2021,"Ġyi4Ġyuan2Ġ":2022,"Ġhai4Ġ":2023,"Ġzhang4Ġ":2024,"dai4Ġ":2025,"Ġde2Ġguo2Ġ":2026,"ĠdeĠsheng1":2027,"Ġhang2Ġkong1":2028,"Ġren4Ġwei2Ġ":2029,"ĠdeĠb":2030,"Ġha1Ġ":2031,"Ġcan1Ġyu4":2032,"Ġyi4Ġwei4Ġ":2033,"zhen1":2034,"Ġzhe4Ġzhong3":2035,"Ġdi1":2036,"Ġqu3Ġ":2037,"yi1Ġwei4Ġ":2038,"ĠzhĠ":2039,"Ġjin4Ġ":2040,"Ġshi4Ġhe2Ġ":2041,"Ġdao3Ġzhi4Ġ":2042,"ĠĠĠT":2043,"Ġzhun3Ġ":2044,"wen2Ġhua4":2045,"Ġqian2Ġwang3":2046,"Ġdui4Ġyu2Ġ":2047,"Ġ2Ġ":2048,"biao3Ġshi4Ġ":2049,"Ġzi4Ġyou2":2050,"dan1Ġren4":2051,"ling2":2052,"erĠ":2053,"ĠĠĠ199":2054,"of":2055,"ĠĠĠB":2056,"Ġfeng1Ġ":2057,"Ġsan4Ġ":2058,"wo":2059,"ĠĠĠz":2060,"Ġhua1Ġ":2061,"2Ġri4Ġ":2062,"ĠformulaĠ":2063,"Ġmei2Ġyou3":2064,"Ġyan3Ġ":2065,"ĠdeĠhe2Ġ":2066,"om":2067,"Ġwan2Ġcheng2Ġ":2068,"Ġtai2Ġ":2069,"Ġyou1Ġ":2070,"o2":2071,"zhong3Ġ":2072,"bao4Ġ":2073,"Ġsheng1Ġyu2Ġ":2074,"Ġzhuang4":2075,"Ġma3Ġwei4Ġ":2076,"9Ġri4Ġ":2077,"Ġluo2Ġsi1Ġ":2078,"il":2079,"Ġhui2":2080,"Ġchang4":2081,"pian1Ġ":2082,"Ġfa1Ġ":2083,"3Ġri4Ġ":2084,"Ġla4":2085,"Ġdi4Ġfang1":2086,"ĠĠĠyou2":2087,"ĠĠĠxing2":2088,"dian3Ġ":2089,"Ġgui3":2090,"Ġdan1Ġwei4Ġ":2091,"Ġxiang2Ġ":2092,"ĠdeĠfu4":2093,"Ġteng2":2094,"Ġfa3Ġguo2Ġ":2095,"du4Ġ":2096,"Ġshao4Ġ":2097,"Ġwang4":2098,"Ġlian2Ġmeng2":2099,"ĠĠĠben3":2100,"Ġyou3Ġguan1":2101,"Ġdu4Ġ":2102,"ou1Ġzhou1":2103,"Ġdi2":2104,"mo4Ġ":2105,"Ġfang3":2106,"Ġjia4Ġ":2107,"rĠ":2108,"Ġchou2":2109,"Ġpao4Ġ":2110,"ï¼į":2111,"yin3":2112,"Ġmao4":2113,"Ġte4Ġbie2":2114,"Ġqi1Ġjian1":2115,"Ġquan2Ġ":2116,"ĠĠĠshi4Ġ":2117,"Ġkuai4Ġ":2118,"9Ġ":2119,"Ġqiu2Ġ":2120,"Ġhe4Ġ":2121,"Ġãģ":2122,"Ġguo3Ġ":2123,"cu":2124,"sui2Ġ":2125,"Ġzao3Ġ":2126,"ĠĠĠdi4Ġli3Ġ":2127,"ĠdeĠshou3":2128,"Ġkao3":2129,"Ġzhu3Ġ":2130,"Ġmeng4":2131,"Ġdang4Ġ":2132,"Ġshi4Ġg":2133,"Ġren2Ġyuan2":2134,"Ġkang1":2135,"Ġzhong1Ġxue2":2136,"Ġshao4":2137,"yun2":2138,"Ġzhi1Ġhou4":2139,"Ġfen1Ġ":2140,"Ġbi3Ġsai4":2141,"et":2142,"Ġbei4Ġ":2143,"xian4Ġ":2144,"ĠdeĠqi2":2145,"tiao2Ġ":2146,"qi3Ġ":2147,"ren2Ġwu4Ġ":2148,"Ġxi4Ġlie4":2149,"Ġjing1Ġji4Ġ":2150,"bie2":2151,"ĠdeĠfang1":2152,"Ġba4":2153,"Ġdi3Ġ":2154,"zai3":2155,"Ġfan3Ġying4":2156,"ju2Ġ":2157,"Ġsheng1Ġchan3":2158,"Ġcun2Ġzai4Ġ":2159,"ĠdeĠzhi2":2160,"Ġxiong2Ġ":2161,"Ġche1Ġzhan4":2162,"Ġsui2":2163,"Ġshu4Ġliang4":2164,"Ġhuo2Ġdong4Ġ":2165,"Ġtao2Ġ":2166,"yun4Ġdong4":2167,"Ġjian4Ġli4Ġ":2168,"ĠĠĠt":2169,"Ġzai1":2170,"Ġduan1Ġ":2171,"Ġyi4Ġban1Ġ":2172,"Ġyong3Ġ":2173,"Ġ000":2174,"Ġlang2Ġ":2175,"Ġzai4Ġ201":2176,"Ġxue2Ġsheng1":2177,"Ġyu3Ġyan2":2178,"Ġcan1Ġjia1":2179,"Ġdi4ĠdeĠ":2180,"Ġyi1Ġxie1":2181,"ren2Ġkou3Ġ":2182,"2019Ġnian2Ġ":2183,"Ġhui1":2184,"ĠdeĠyi1":2185,"Ġchong2Ġxin1":2186,"ju4Ġ":2187,"zhong4Ġyao4":2188,"Ġfen4Ġ":2189,"zhu3Ġyao4":2190,"Ġguo2Ġmin2":2191,"Ġchun2":2192,"Ġzong3Ġtong3":2193,"Ġgong1Ġyuan2":2194,"pin2":2195,"yu4Ġ":2196,"la":2197,"Ġxiong2":2198,"ĠK":2199,"liang3Ġge4":2200,"Ġshi4Ġh":2201,"xu3Ġduo1":2202,"Ġzhi1Ġqian2":2203,"Ġyuan3Ġ":2204,"Ġzhong1Ġhua2Ġren2Ġmin2Ġgong4Ġhe2Ġguo2Ġ":2205,"xiang4Ġ":2206,"Ġshe4Ġyou3Ġ":2207,"ao2Ġshu4":2208,"Ġxing2Ġdong4":2209,"Ġlang3":2210,"Ġru2Ġguo3":2211,"Ġsuo1":2212,"Ġnan2Ġbu4Ġ":2213,"che1Ġzhan4":2214,"ĠdeĠzhong1Ġ":2215,"ra":2216,"Ġshi2Ġer4":2217,"Ġxing2Ġxing1":2218,"shu3Ġyu2Ġ":2219,"Ġzhong4Ġyao4":2220,"ĠãĤ":2221,"Ġfa1Ġxian4":2222,"Ġpiao4":2223,"Ġxing2Ġcheng2Ġ":2224,"sheng3Ġ":2225,"ji1Ġ":2226,"Ġque4Ġ":2227,"ĠĠĠch":2228,"Ġbin1Ġ":2229,"Ġlang3Ġ":2230,"Ġzhen4Ġ":2231,"pai2":2232,"Ġken3":2233,"Ġhe2Ġzuo4":2234,"Ġguan3Ġ":2235,"Ġdun4":2236,"Ġchi3Ġ":2237,"Ġliang3Ġge4":2238,"da4Ġlu4":2239,"Ġjue2Ġding4":2240,"Ġgai4":2241,"ĠĠĠgai1":2242,"leĠ":2243,"ting2Ġ":2244,"Ġqian3Ġ":2245,"14":2246,"Ġwu2Ġfa3":2247,"ĠĠĠyu3":2248,"yin2":2249,"ĠdeĠshe4":2250,"zong1":2251,"Ġyi3Ġxia4":2252,"Ġfan4Ġwei2":2253,"Ġqian2Ġ":2254,"Ġqi1Ġ":2255,"ming2Ġ":2256,"Ġmen2Ġ":2257,"Ġshi4Ġyi1Ġzhong3":2258,"Ġda4Ġliang4":2259,"Ġguo2ĠdeĠ":2260,"Ġzai4Ġzhe4":2261,"Ġsu4Ġ":2262,"Ġxue2Ġjia1Ġ":2263,"Ġqie4":2264,"13":2265,"Ġpi3":2266,"Ġdao4Ġle":2267,"Ġsuo3Ġ":2268,"Ġ192":2269,"ow":2270,"cai2":2271,"guang1Ġ":2272,"Ġwu4Ġguan3":2273,"ta1Ġmen":2274,"Ġzao4Ġcheng2Ġ":2275,"chu1Ġ":2276,"fa3Ġ":2277,"Ġxian3Ġshi4Ġ":2278,"Ġbang1":2279,"zhu4Ġ":2280,"yong3":2281,"Ġjing4Ġ":2282,"ying2Ġ":2283,"Ġhuan1Ġ":2284,"ĠÃ":2285,"Ġshi4Ġch":2286,"Ġsi4Ġ":2287,"ĠdeĠming2":2288,"sha1":2289,"Ġxue2Ġming2Ġ":2290,"Ġya1Ġ":2291,"Ġkang4":2292,"shang4Ġ":2293,"Ġzai4Ġ200":2294,"199":2295,"TĠ":2296,"Ġxiao4Ġ":2297,"ĠĠĠgen1":2298,"Ġfa1Ġxian4Ġ":2299,"Ġsou1":2300,"Ġjue2Ġ":2301,"Ġzai4Ġh":2302,"ĠW":2303,"ĠdeĠjian4":2304,"shang1Ġ":2305,"Ġhui4Ġyi4Ġ":2306,"Ġzhu3Ġxi2Ġ":2307,"fan3Ġ":2308,"Ġpan2":2309,"Ġliao4":2310,"Ġgong1Ġkai1":2311,"Ġlian2Ġhe2Ġ":2312,"Ġzou4":2313,"Ġdun4Ġ":2314,"Ġtuan2Ġ":2315,"Ġmi2Ġ":2316,"Ġlei4Ġ":2317,"es":2318,"Ġzai4Ġci4":2319,"ĠdeĠyi2Ġge4Ġshi4Ġzhen4Ġ":2320,"Ġdun1":2321,"Ġhao3Ġ":2322,"Ġruan3Ġ":2323,"Ġduan3Ġ":2324,"ĠĠĠren2Ġkou3Ġ":2325,"Ġxu3Ġ":2326,"ĠĠĠL":2327,"Ġchu1Ġban3Ġ":2328,"Ġzu2Ġ":2329,"xi4Ġtong3":2330,"Ġce4Ġ":2331,"lun2":2332,"bei3Ġjing1":2333,"Ġdu2Ġli4Ġ":2334,"Ġyi4ĠdeĠ":2335,"wen4":2336,"zhuang1":2337,"ĠĠĠzhe4":2338,"Ġzui4Ġgao1":2339,"Ġzhe4Ġyi1Ġ":2340,"ying2":2341,"shuo1":2342,"zheng4Ġshi4Ġ":2343,"wan4Ġ":2344,"Ġshan1Ġ":2345,"Ġzi4Ġ":2346,"u3Ġyue1":2347,"re4":2348,"yin4Ġdu4":2349,"Ġmai3":2350,"Ġyu2Ġ202":2351,"Ġjiu4Ġshi4Ġ":2352,"ãĢī":2353,"ãĢĪ":2354,"Ġming2ĠdeĠ":2355,"Ġci3Ġwai4Ġ":2356,"ju3Ġ":2357,"huang2":2358,"fen1Ġ":2359,"ben3Ġ":2360,"Ġyu2Ġshi4Ġ":2361,"Ġdi4Ġshi2Ġ":2362,"Ġhou2":2363,"Ġzhao3":2364,"Ġjing1Ġguo4":2365,"liao2Ġ":2366,"shuang1Ġ":2367,"Ġpu3Ġcha2":2368,"Ġzhan4Ġzheng1":2369,"Ġfu4Ġ":2370,"Ġduo1Ġshu4":2371,"Ġlin2Ġ":2372,"Ġhai3Ġba2Ġgao1Ġdu4":2373,"Ġxing2Ġshi4Ġ":2374,"Ġliang4Ġ":2375,"Ġchu1ĠdeĠ":2376,"Ġguan3Ġli3":2377,"Ġwo3Ġmen":2378,"Ġjun4Ġ":2379,"Ġxiang1Ġ":2380,"Ġqiang1Ġ":2381,"Ġshui4":2382,"kong1":2383,"zheng1":2384,"ĠĠĠqi2":2385,"pin3":2386,"Ġyang3":2387,"Ġjun1Ġshi4Ġ":2388,"Ġsui2Ġhou4":2389,"jiu3":2390,"sa4":2391,"xing4Ġ":2392,"Ġshi4Ġji4":2393,"ĠĠĠR":2394,"Ġme":2395,"Ġzu3Ġzhi1":2396,"Ġbei3Ġbu4Ġ":2397,"Ġling3Ġdao3":2398,"ĠÐ":2399,"Ġzhuan4Ġ":2400,"que4Ġ":2401,"Ġbu3":2402,"ĠĠĠD":2403,"Ġbi4Ġ":2404,"zhong1Ġhua2":2405,"Ġzhong3Ġ":2406,"Ġkuan3Ġ":2407,"Ġshao1":2408,"Ġge4Ġren2Ġ":2409,"ĠĠĠ2":2410,"mian4Ġji1Ġwei4Ġ":2411,"Ġwu1Ġke4Ġlan2":2412,"jin1Ġ":2413,"Ġchuang4":2414,"Ġqi1Ġjian1Ġ":2415,"ding1":2416,"Ġjiao4Ġ":2417,"Ġ3Ġ":2418,"ĠdeĠjing1":2419,"Ġzui4Ġhou4":2420,"Ġbei3Ġjing1":2421,"Ġri4Ġzhi4Ġ":2422,"mian3Ġ":2423,"Ġzhe4Ġshi4Ġ":2424,"ci2Ġ":2425,"iĠ":2426,"Ġlao3Ġ":2427,"Ġdi4Ġguo2Ġ":2428,"tie3Ġlu4":2429,"sheng1Ġ":2430,"si1Ġ":2431,"Ġzhi4Ġz":2432,"Ġbao1Ġkuo4Ġ":2433,"Ġfan3Ġdui4":2434,"Ġduo1Ġ":2435,"Ġbu2Ġshi4Ġ":2436,"yin1Ġyue4Ġ":2437,"nong2Ġ":2438,"Ġkong4Ġzhi4Ġ":2439,"Ġyou3Ġxian4":2440,"ding4Ġ":2441,"Ġren4Ġhe2Ġ":2442,"Ġai4Ġ":2443,"Ġshou3Ġci4":2444,"Ġge2Ġlan2":2445,"deng3Ġ":2446,"zi4Ġji3":2447,"Ġkou3Ġ":2448,"Ġli4Ġyong4":2449,"Ġshen1Ġ":2450,"gong4Ġchan3":2451,"Ġmei4":2452,"Ġnei4Ġ":2453,"ran3Ġ":2454,"Ġzhu2Ġjian4":2455,"se4Ġ":2456,"ic":2457,"Ġwei4Ġyu2Ġgai1":2458,"kĠ":2459,"guang3":2460,"ĠĠĠG":2461,"ĠĠĠjia1":2462,"hao4Ġ":2463,"Ġdang1Ġzhong1Ġ":2464,"Ġ2010Ġnian2Ġ":2465,"Ġfang1Ġmian4":2466,"Ġwei3Ġyuan2Ġhui4":2467,"Ġzi4Ġzhi4Ġ":2468,"Ġhe2":2469,"zong3Ġtong3":2470,"Ġxiang1Ġguan1":2471,"Ġshu1Ġji4Ġ":2472,"Ġshi3Ġyong4Ġ":2473,"Ġer2Ġqie3":2474,"ĠdeĠjie2":2475,"Ġxue3":2476,"Ġqiu2Ġdui4":2477,"ĠĠĠxing2Ġzheng4Ġ":2478,"Ġcao1":2479,"Ġfa1Ġbiao3":2480,"Ġsui4Ġ":2481,"ĠĠĠp":2482,"Ġkuan1Ġ":2483,"Ġle4Ġ":2484,"Ġfeng2":2485,"Ġlie4Ġche1":2486,"Ġyong1Ġyou3Ġ":2487,"de2Ġguo2Ġ":2488,"li4ĠdeĠ":2489,"cheng2Ġwei2":2490,"Ġtong2Ġ":2491,"quan2Ġ":2492,"Ġsi1Ġtan3Ġ":2493,"Ġ30":2494,"Ġgong1Ġch":2495,"Ġbu4Ġneng2":2496,"ju2":2497,"ĠdeĠqing2Ġ":2498,"zhi1Ġchi2":2499,"mei2Ġyou3Ġ":2500,"Ġzai3":2501,"Ġjin3Ġguan3":2502,"Ġchan3Ġsheng1":2503,"Ġshi4Ġyi3":2504,"mĠ":2505,"man4Ġ":2506,"Ġting1Ġ":2507,"Ġdong3":2508,"Ġgong1Ġli3":2509,"Ġzai4Ġci3":2510,"Ġcheng2ĠdeĠ":2511,"Ġluan4Ġ":2512,"hui4Ġ":2513,"shi2ĠdeĠ":2514,"ĠdeĠjue2":2515,"Ġlei3":2516,"Ġqi3Ġ":2517,"zhan4Ġzheng1":2518,"qing2Ġ":2519,"Ġwang2Ġ":2520,"ĠĠĠformulaĠ":2521,"cheng2Ġli4Ġ":2522,"tui1Ġ":2523,"AĠ":2524,"Ġjin3Ġbiao1":2525,"Ġsheng1Ġya2":2526,"Ġgong1Ġye4":2527,"shao3Ġ":2528,"nĠ":2529,"ling2Ġ":2530,"yue1Ġ":2531,"Ġgao1Ġ":2532,"Ġzhen3":2533,"Ġbu4Ġl":2534,"shou1":2535,"yin1Ġwei4Ġ":2536,"âĢĵ":2537,"Ġche1Ġzhan4Ġ":2538,"Ġyun4Ġdong4Ġyuan2Ġ":2539,"an1Ġshi4Ġ":2540,"guo2Ġji4Ġ":2541,"Ġkai1Ġfa1":2542,"Ġsuan4Ġ":2543,"xin1Ġ":2544,"bi3Ġsai4":2545,"shang4Ġhai3":2546,"ĠĠĠk":2547,"Ġkang4Ġ":2548,"Ġwen4Ġti2Ġ":2549,"Ġshi2Ġdai4":2550,"Ġxi4Ġtong3Ġ":2551,"wu1Ġke4Ġlan2":2552,"Ġhe2Ġbing4":2553,"hai3Ġjun1":2554,"ling3Ġ":2555,"40":2556,"suan1Ġ":2557,"Ġzhang1Ġ":2558,"ec":2559,"ĠdeĠte4":2560,"Ġzhong1Ġxin1Ġ":2561,"Ġluo2Ġma3":2562,"Ġlu2Ġ":2563,"ĠĠĠ198":2564,"qi4Ġ":2565,"Ġfu4Ġjin4":2566,"jian3Ġ":2567,"Ġxie4Ġ":2568,"zu2Ġ":2569,"Ġfang1Ġ":2570,"a1Ġer3":2571,"Ġtao3":2572,"jie4Ġ":2573,"ĠdeĠyou2":2574,"Ġhe2Ġp":2575,"Ġzang4Ġ":2576,"Ġqu3Ġde2":2577,"Ġfang1Ġshi4Ġ":2578,"Ġgui1Ġmo2":2579,"Ġna2Ġda4":2580,"it":2581,"Ġge2Ġming4":2582,"ĠĠĠH":2583,"jin4Ġxing2":2584,"jiao1Ġtong1":2585,"Ġta1Ġshi4Ġ":2586,"Ġyou2Ġ":2587,"as":2588,"rui4":2589,"Ġxi1Ġbei3":2590,"ĠĠĠta1":2591,"Ġwen4Ġti2":2592,"Ġyi1Ġyuan4":2593,"li2Ġ":2594,"Ġran2Ġer2":2595,"Ġying3Ġxiang3Ġ":2596,"Ġcang2Ġ":2597,"Ġpu2":2598,"ban1Ġ":2599,"Ġli4ĠdeĠ":2600,"yin3Ġ":2601,"Ġmou3":2602,"Ġkuai4":2603,"hui1Ġ":2604,"Ġsu1Ġlian2":2605,"ĠU":2606,"yang4Ġ":2607,"Ġdie2":2608,"Ġdou1Ġshi4Ġ":2609,"Ġbu4Ġzai4Ġ":2610,"kuai4":2611,"huan4Ġ":2612,"Ġxue2Ġjia1":2613,"oĠ":2614,"Ġbao4Ġ":2615,"Ġzhui1Ġ":2616,"Ġren2ĠdeĠ":2617,"Ġcui4":2618,"âĢ¦":2619,"Ġhe2Ġnan2":2620,"Ġyi3Ġlai2":2621,"25":2622,"du2":2623,"ĠĠĠ18":2624,"Ġyue4Ġ30":2625,"Ġjian4Ġyu2Ġ":2626,"Ġguan4Ġjun1Ġ":2627,"theĠĠĠ":2628,"Ġgou1":2629,"Ġfa1Ġbu4Ġ":2630,"Ġhai4":2631,"Ġxiao3Ġshi2Ġ":2632,"Ġli2Ġkai1":2633,"zhao4Ġ":2634,"Ġcheng1Ġwei2":2635,"Ġjun4":2636,"Ġwan2Ġquan2":2637,"fei4":2638,"ren2Ġkou3Ġpu3Ġcha2":2639,"Ġ4Ġ":2640,"xi4Ġlie4":2641,"60":2642,"Ġzu3Ġcheng2Ġ":2643,"Ġzhuo2":2644,"Ġyu2Ġ199":2645,"Ġning2Ġ":2646,"Ġqi2Ġyu2Ġ":2647,"dian4Ġying3Ġ":2648,"Ġzuo4Ġpin3Ġ":2649,"ĠĠĠI":2650,"Ġfen1Ġbu4Ġyu2Ġ":2651,"Ġshu3Ġ":2652,"ĠĠĠc":2653,"Ġgong4Ġyou3Ġ":2654,"pĠ":2655,"Ġni3":2656,"Ġxing1Ġ":2657,"rong2Ġ":2658,"Ġjiao1Ġtong1":2659,"Ġjie1Ġshou4":2660,"Ġshi2ĠdeĠ":2661,"Ġta1Ġceng2":2662,"Ġsi1Ġling4":2663,"SĠ":2664,"jia1Ġ":2665,"quan2Ġguo2Ġ":2666,"Ġzu3Ġ":2667,"ĠO":2668,"Ġti2Ġchu1":2669,"zu2Ġqiu2":2670,"ĠĠĠF":2671,"Ġcan1Ġjia1Ġ":2672,"ĠĠĠci3":2673,"Ġfo2":2674,"Ġqi2Ġshi4Ġ":2675,"da4Ġxue2":2676,"Ġwen3":2677,"Ġhan2Ġguo2Ġ":2678,"ke3Ġyi3":2679,"Ġyi1Ġming2":2680,"Ġnong2":2681,"Ġ2001Ġnian2Ġ":2682,"Ġbu4ĠdeĠ":2683,"Ġlou2Ġ":2684,"dun4":2685,"Ġdi4Ġsi4":2686,"..":2687,"Ġju4Ġyou3Ġ":2688,"Ġyou3ĠdeĠ":2689,"dang1Ġshi2Ġ":2690,"Ġle4Ġbu4Ġ":2691,"Ġren2Ġlei4":2692,"chuan2Ġtong3":2693,"Ġju3Ġban4":2694,"Ġshao3Ġ":2695,"duan3Ġ":2696,"Ġwei4":2697,"Ġzhi4ĠdeĠ":2698,"ĠĠĠju4":2699,"Ġji4Ġnian4Ġ":2700,"Ġran2Ġer2Ġ":2701,"yao1":2702,"Ġchu1Ġxian4":2703,"Ġyi1Ġzhong3":2704,"Ġtou4Ġguo4":2705,"Ġxian4Ġdai4":2706,"Ġshi4Ġshi2Ġ":2707,"di3Ġ":2708,"pin3Ġ":2709,"Ġshi4Ġwu4":2710,"jiao4Ġyu4":2711,"Ġnan2Ġzi":2712,"Ġbang3Ġ":2713,"Ġlve4":2714,"cha2Ġ":2715,"Ġshu3ĠdeĠ":2716,"Ġxin1Ġ":2717,"Ġmin2Ġzhu3":2718,"huan2":2719,"Ġsuo3Ġyou3Ġ":2720,"ĠĠĠnian2":2721,"Ġmao4Ġ":2722,"Ġjie1Ġr":2723,"xun4":2724,"Ġmei2Ġti3":2725,"Ġshen2Ġ":2726,"Ġxiang4Ġmu4":2727,"ĠdeĠzhu3Ġyao4":2728,"Ġjie1Ġ":2729,"jin4Ġxing2Ġ":2730,"Ġfu2Ġ":2731,"Ġkao4Ġ":2732,"Ġcao3Ġ":2733,"jie3":2734,"Ġhe2Ġh":2735,"Ġla1Ġ":2736,"ĠĠĠ194":2737,"wen2Ġ":2738,"Ġguan3Ġxia2Ġ":2739,"ĠdeĠzheng4":2740,"sai1":2741,"ban3Ġ":2742,"ĠdeĠqian2":2743,"Ġyi4Ġqi3":2744,"Ġna4Ġ":2745,"Ġzu3Ġzhi1Ġ":2746,"huang2Ġ":2747,"Ġchen2Ġ":2748,"Ġwei4Ġren2Ġ":2749,"Ġcha1":2750,"Ġa1Ġer3":2751,"zuo3":2752,"ĠĠĠm":2753,"Ġqing3Ġ":2754,"Ġyi1Ġci4":2755,"ation":2756,"xuan1Ġbu4Ġ":2757,"Ġbao1Ġhan2":2758,"dun4Ġ":2759,"di3":2760,"shu1Ġ":2761,"can1Ġyu4":2762,"di4Ġqu1Ġ":2763,"Ġchu1Ġxian4Ġ":2764,"xiang1Ġguan1":2765,"qu1Ġwei4Ġ":2766,"ĠdeĠyi1Ġbu4Ġfen4Ġ":2767,"Ġyuan2ĠdeĠ":2768,"DĠ":2769,"Ġjie3Ġfang4Ġ":2770,"Ġnao3":2771,"Ġreng2Ġran2":2772,"Ġpo4Ġ":2773,"lin2Ġpi3":2774,"Ġwei4Ġzhi4Ġ":2775,"Ġlao2Ġ":2776,"lei2Ġ":2777,"Ġshi4Ġyan3":2778,"Ġzuo4Ġwei2Ġ":2779,"Ġlei4Ġsi4":2780,"Ġzhi2Ġjie1":2781,"Ġji2Ġqi2":2782,"Ġbu4Ġmen2":2783,"Ġshi2Ġnian2Ġ":2784,"chen2":2785,"wei3Ġyuan2Ġhui4":2786,"zhou1Ġ":2787,"UT":2788,"Ġma3Ġ":2789,"Ġqu4Ġ":2790,"Ġshi4Ġwei4Ġyu2Ġmei3Ġguo2Ġ":2791,"Ġguo1":2792,"Ġwei4Ġdi4Ġ":2793,"jin4Ġru4":2794,"Ġtu2Ġ":2795,"Ġzhuan1Ġji2":2796,"Ġdan4Ġ":2797,"Ġchun1":2798,"Ġshen4Ġzhi4Ġ":2799,"Ġchi3":2800,"Ġbo1Ġ":2801,"ter":2802,"Ġzhan4Ġdou4":2803,"you1Ġ":2804,"Ġdao4ĠleĠ":2805,"Ġque1":2806,"ti2Ġgong1Ġ":2807,"Ġling4Ġshi2Ġ":2808,"Ġbao3Ġhu4":2809,"ting2":2810,"Ġchai1":2811,"Ġji1Ġgou4":2812,"lin2Ġpi3Ġke4":2813,"Ġba3Ġ":2814,"Ġ190":2815,"Ġhun1":2816,"Ġcha4":2817,"zhi2Ġ":2818,"suo3Ġyou3Ġ":2819,"Ġliu2Ġ":2820,"Ġfei1Ġchang2":2821,"ĠĠĠwei4Ġ":2822,"Ġliao2Ġ":2823,"Ġzhong1Ġhua2Ġmin2Ġguo2Ġ":2824,"Ġqu1ĠdeĠ":2825,"guan3Ġli3":2826,"Ġcu4":2827,"Ġlun2Ġ":2828,"ĠdeĠnv3":2829,"jun4Ġ":2830,"kuai4Ġ":2831,"Ġshi4Ġyi4":2832,"Ġpi2":2833,"Ġjie2Ġshu4":2834,"shu3Ġ":2835,"ĠĠĠzh":2836,"Ġjiang1Ġqi2":2837,"Ġyin4Ġ":2838,"ka3":2839,"Ġzhu2Ġ":2840,"Ġyue4Ġ28Ġri4Ġ":2841,"Ġda4Ġbu4Ġfen4":2842,"Ġyan1Ġ":2843,"u1ĠdeĠ":2844,"Ġshi2Ġsan1":2845,"Ġzhu3Ġyi4":2846,"Ġfen1Ġzhong1Ġ":2847,"Ġtui1Ġchu1":2848,"Ġdong1Ġbei3":2849,"ping2Ġjun1":2850,"Ġzai4":2851,"zhuang1Ġ":2852,"198":2853,"Ġzhu3Ġchi2":2854,"Ġshi4Ġjian4Ġ":2855,"jun1Ġshi4Ġ":2856,"Ġjie2Ġmu4":2857,"ning2Ġ":2858,"Ġqiang1":2859,"Ġwei3Ġyuan2Ġhui4Ġ":2860,"Ġya3":2861,"Ġze2Ġ":2862,"Ġbiao1Ġ":2863,"Ġxi1Ġban1Ġya2":2864,"Ġlao2":2865,"Ġwei4Ġmei3":2866,"Ġshi2Ġsi4":2867,"zhuang4Ġ":2868,"man3Ġ":2869,"ĠĠĠb":2870,"she4Ġhui4":2871,"ruo4":2872,"zu3Ġzhi1":2873,"ru":2874,"Ġhe2Ġt":2875,"Ġfu2Ġwu4":2876,"Ġxian1Ġhou4":2877,"Ġqing2Ġkuang4Ġ":2878,"Ġyuan2Ġyin1":2879,"Ġjin4Ġshi4Ġ":2880,"u4Ġshi4Ġ":2881,"Ġwei4Ġneng2":2882,"Ġshi2Ġqi1Ġ":2883,"Ġwei3Ġ":2884,"Ġshun4":2885,"Ġji1Ġben3":2886,"Ġtun2":2887,"Ġgong4Ġtong2":2888,"zhang1Ġ":2889,"Ġgong1Ġneng2":2890,"Ġzhong4Ġ":2891,"zhong1ĠdeĠ":2892,"ĠV":2893,"Ġchang1Ġ":2894,"Ġda4Ġzhan4":2895,"shu4Ġ":2896,"jue2Ġding4":2897,"Ġsi1Ġke1":2898,"Ġyue4Ġ15Ġri4Ġ":2899,"ĠĠĠyi3":2900,"fa1Ġsheng1":2901,"zuo4Ġwei2":2902,"Ġfang3Ġ":2903,"Ġnai3":2904,"Ġnv3Ġxing4":2905,"Ġying4Ġ":2906,"Ġzheng4Ġce4":2907,"wei3Ġyuan2Ġhui4Ġ":2908,"ĠdeĠl":2909,"Ġlian2Ġsai4":2910,"Ġrou4":2911,"Ġli4Ġfa3":2912,"kuan3Ġ":2913,"Ġchu2Ġle":2914,"Ġshan3Ġ":2915,"Ġlang2":2916,"Ġyu2Ġ18":2917,"Ġ2011Ġnian2Ġ":2918,"Ġbi3Ġ":2919,"ag":2920,"Ġzai4Ġqi2":2921,"Ġyou3Ġshi2Ġ":2922,"Ġmian4Ġji1":2923,"Ġgong1Ġshi4Ġ":2924,"Ġxin1Ġwen2":2925,"Ġheng1":2926,"ĠĠĠE":2927,"Ġzhui1":2928,"ĠdeĠgao1":2929,"Ġhai2Ġyou3Ġ":2930,"jing1Ġji4Ġ":2931,"heĠĠĠ":2932,"Ġgong1Ġlu4":2933,"Ġxi1Ġnan2":2934,"Ġguan1Ġyu2Ġ":2935,"ĠĠĠW":2936,"Ġju3Ġxing2Ġ":2937,"shi2Ġqi1":2938,"Ġguan4Ġjun1":2939,"Ġhuo4Ġ":2940,"Ġmao2":2941,"di2Ġ":2942,"000":2943,"can1Ġjia1":2944,"UTCĠ":2945,"Ġhong1":2946,"Ġxuan3Ġ":2947,"Ġ191":2948,"Ġzhou4":2949,"zu3Ġzhi1Ġ":2950,"Ġlei2":2951,"Ġmin2Ġzu2":2952,"Ġsuan1Ġ":2953,"ĠdeĠxi1":2954,"Ġcao3":2955,"Ġshi4Ġxue2":2956,"min2Ġzhu3":2957,"Ġsai4Ġshi4Ġ":2958,"Ġwei4Ġyu2Ġgai1Ġguo2Ġ":2959,"Ġma2":2960,"Ġping2Ġyang2":2961,"Ġjin1Ġ":2962,"Ġshi4Ġfa3Ġguo2Ġ":2963,"ĠdeĠjia1":2964,"Ġshi2Ġji4Ġ":2965,"Ġxie2Ġhui4":2966,"ĠdeĠquan2":2967,"Ġtian1Ġ":2968,"Ġdian4Ġ":2969,"ir":2970,"Ġjian4Ġshe4":2971,"lai2Ġzi4":2972,"jiu3Ġ":2973,"Ġmiao4Ġ":2974,"ĠdeĠzhi4Ġ":2975,"Ġhui1Ġfu4":2976,"jue2Ġ":2977,"mi4":2978,"dang1Ġdi4Ġ":2979,"fan4Ġ":2980,"ĠdeĠtong2":2981,"Ġhan3Ġ":2982,"Ġlai2Ġxi1Ġya4":2983,"Ġyi4Ġshi4Ġ":2984,"ĠdeĠju4":2985,"Ġju1Ġmin2":2986,"Ġzhong1Ġyang1":2987,"Ġhun1Ġ":2988,"Ġlan2Ġ":2989,"Ġchuan2Ġtong3":2990,"Ġ25":2991,"Ġmeng2Ġgu3":2992,"ĠdeĠxian4":2993,"ĠĠĠ3":2994,"xue2Ġyuan4":2995,"Ġfa3Ġyuan4":2996,"dui4Ġ":2997,"Ġzeng1Ġjia1":2998,"Ġli3Ġshi4Ġ":2999,"ke4Ġ":3000,"ĠdeĠqing2Ġkuang4Ġ":3001,"dian4Ġ":3002,"Ġzu1Ġ":3003,"Ġdan4Ġzai4Ġ":3004,"xu1Ġyao4":3005,"ĠdeĠli4Ġ":3006,"Ġzuo4Ġpin3":3007,"Ġchi2Ġxu4":3008,"ĠdeĠhai3":3009,"Ġshe4Ġli4Ġ":3010,"Ġti3Ġyu4":3011,"yi1Ġnian2Ġ":3012,"10Ġri4Ġ":3013,"ĠdeĠxiao3":3014,"bi4Ġye4":3015,"Ġshi2Ġwu3":3016,"yi1Ġbu4Ġ":3017,"onĠ":3018,"Ġshi4Ġxi":3019,"Ġzhi3Ġyou3Ġ":3020,"Ġ2009Ġnian2Ġ":3021,"EE":3022,"Ġhui4Ġzai4Ġ":3023,"Ġ5Ġ":3024,"Ġshi4Ġchang3":3025,"fa1Ġxian4Ġ":3026,"Ġjie2Ġguo3":3027,"ĠdeĠzhan4":3028,"fang2":3029,"zhun3":3030,"Ġzi4Ġran2":3031,"Ġyao2":3032,"e2Ġluo2Ġsi1":3033,"Ġfu2Ġwu4Ġ":3034,"Ġxue2Ġxi2Ġ":3035,"te":3036,"80":3037,"reng2":3038,"Ġji4Ġlu4":3039,"mu3":3040,"Ġren4Ġming4":3041,"Ġji1Ġchang3":3042,"Ġshi4Ġzhi3":3043,"Ġou1Ġzhou1":3044,"shan1Ġ":3045,"tai4Ġ":3046,"Ġbang4Ġ":3047,"Ġmeng2Ġ":3048,"Ġwu3Ġ":3049,"ni2Ġya4":3050,"Ġcheng2Ġyuan2Ġ":3051,"Ġyue4Ġ25Ġri4Ġ":3052,"ning2":3053,"shou3Ġci4":3054,"ĠdeĠwei4Ġ":3055,"Ġshi4Ġtu2":3056,"ĠĠĠgen1Ġju4":3057,"20Ġri4Ġ":3058,"Ġkeng1":3059,"Ġben3Ġ":3060,"Ġpao4":3061,"a1Ġla1":3062,"Ġdiao4":3063,"22":3064,"chao1":3065,"liao2":3066,"Ġjiang1Ġ":3067,"qi1Ġjian1":3068,"Ġre4Ġ":3069,"Ġhe2Ġqi2":3070,"Ġlan3Ġ":3071,"Ġhun4":3072,"Ġcheng2Ġzhong1Ġ":3073,"anĠ":3074,"qiang2Ġ":3075,"Ġyue4Ġ30Ġri4Ġ":3076,"liang4Ġ":3077,"ĠĠĠN":3078,"ĠdeĠzi4":3079,"Ġcheng2Ġqu1Ġ":3080,"Ġxu3":3081,"jun4":3082,"si3Ġ":3083,"Ġqu1Ġyu4":3084,"Ġhe2Ġping2":3085,"Ġyi4Ġyuan4":3086,"ĠdeĠmu4":3087,"Ġhuan2Ġjing4":3088,"su4Ġ":3089,"yi4Ġ":3090,"ao4Ġlin2Ġpi3Ġke4":3091,"Ġning2":3092,"Ġfen3":3093,"sheng1Ġhuo2":3094,"Ġbi3Ġsai4Ġ":3095,"Ġgong1Ġgong4":3096,"Ġchao2Ġxian1Ġ":3097,"Ġpi1Ġping2":3098,"Ġda4Ġli4Ġya4":3099,"Ġzui4Ġchu1":3100,"Ġzai4Ġyi1Ġ":3101,"Ġdeng4":3102,"Ġling4Ġwai4":3103,"Ġxue2Ġyuan4Ġ":3104,"ĠĠĠyu2Ġ":3105,"ĠĠĠxi":3106,"zeng1":3107,"shuang1":3108,"ngĠ":3109,"zhan4Ġ":3110,"Ġneng2Ġgou4":3111,"Ġyi4Ġhui4":3112,"Ġru4Ġ":3113,"70":3114,"yi2Ġ":3115,"Ġbing4Ġbu4Ġ":3116,"Ġzheng4Ġzhi4Ġren2Ġwu4Ġ":3117,"ya4Ġzhou1":3118,"Ġyu2Ġl":3119,"Ġshi4Ġfou3":3120,"Ġhou4ĠdeĠ":3121,"Ġjie3Ġ":3122,"Ġchu3Ġli3":3123,"Ġyun3":3124,"ju1Ġmin2":3125,"Ġzhi2Ġye4":3126,"Ġjie4Ġ":3127,"wen1":3128,"ĠĠĠzheng4Ġzhi4Ġ":3129,"wei3Ġyuan2Ġ":3130,"Ġyao2Ġ":3131,"cai3":3132,"Ġsuo3Ġyi3":3133,"Ġzhan1Ġ":3134,"Ġge4Ġyue4Ġ":3135,"Ġluo4Ġ":3136,"Ġhui3Ġ":3137,"ka3Ġ":3138,"Ġtui1":3139,"Ġding3":3140,"Ġci4Ġ":3141,"gui3":3142,"Ġyi4Ġda4Ġli4Ġ":3143,"Ġzui4Ġhou4Ġ":3144,"ke3Ġyi3Ġ":3145,"Ġshuang1":3146,"Ġwu4Ġbao3Ġhu4":3147,"Ġwa3Ġer3":3148,"you2Ġxi4":3149,"Ġxian4Ġshi2Ġ":3150,"Ġcang2":3151,"xuan2":3152,"Ġzhong1Ġbu4Ġ":3153,"Ġshe4Ġji4":3154,"Ġfou3":3155,"Ġju4Ġle4Ġbu4Ġ":3156,"qiu2Ġ":3157,"Ġyou3Ġren2Ġ":3158,"mei3Ġguo2Ġren2Ġkou3Ġpu3Ġcha2":3159,"Ġhuai2":3160,"Ġtao4Ġ":3161,"Ġan1Ġquan2":3162,"Ġjun1Ġdui4":3163,"lie4Ġche1":3164,"Ġfa1Ġdong4":3165,"Ġhen3Ġduo1":3166,"Ġbi4Ġxu1Ġ":3167,"nei4Ġ":3168,"Ġren2Ġmen":3169,"duan1Ġ":3170,"gong1Ġsi1":3171,"ĠĠĠjie2":3172,"fa1Ġxing2Ġ":3173,"18Ġri4Ġ":3174,"NS":3175,"Ġyuan2Ġnian2Ġ":3176,"ĠdeĠxue2":3177,"Ġji4Ġsuan4Ġ":3178,"Ġtuan2Ġti3":3179,"Ġlie4Ġ":3180,"suo3Ġ":3181,"rong2":3182,"chuang4":3183,"xia4Ġji4Ġ":3184,"Ġyue1Ġhan4Ġ":3185,"Ġmei3Ġzhou1":3186,"Ġbian4Ġ":3187,"Ġming2Ġcheng1":3188,"Ġbu4Ġtong2Ġ":3189,"Ġshi2Ġba1":3190,"Ġxian4Ġzhi4Ġ":3191,"que1":3192,"Ġke1Ġ":3193,"qu3Ġde2":3194,"Ġda1":3195,"Ġyue4Ġ24Ġri4Ġ":3196,"Ġping2Ġjun1":3197,"cun2":3198,"un":3199,"48":3200,"Ġshi2Ġliu4":3201,"zheng3":3202,"Ġjing1Ġchang2":3203,"Ġchu3Ġyu2Ġ":3204,"ĠĠĠs":3205,"shi2Ġjian1":3206,"Ġyue4Ġ26Ġri4Ġ":3207,"kai1Ġfa1":3208,"Ġda4Ġyue1":3209,"na4Ġ":3210,"Ġjian4ĠdeĠ":3211,"Ġ50":3212,"ĠĠĠ197":3213,"Ġge4Ġzhong3":3214,"Ġshi3ĠdeĠ":3215,"Ġta1Ġye3":3216,"Ġshou4Ġdao4":3217,"Ġdi4Ġtie3":3218,"tong2Ġnian2Ġ":3219,"Ġzong3Ġren2Ġkou3":3220,"ĠĠĠda4":3221,"du1Ġ":3222,"Ġxue2Ġxiao4Ġ":3223,"tai2Ġ":3224,"Ġshe2":3225,"ĠĠĠ195":3226,"tai2Ġbei3":3227,"zhu1Ġ":3228,"Ġdi4Ġli4Ġ":3229,"Ġgu4Ġshi4Ġ":3230,"zui4Ġgao1":3231,"guo2Ġmin2":3232,"Ġxiang1Ġdang1":3233,"lo":3234,"Ġcan2":3235,"Ġke1Ġxue2":3236,"ying4Ġ":3237,"bei1":3238,"da3":3239,"Ġyang2Ġ":3240,"Ġe2Ġluo2Ġsi1":3241,"ĠdeĠzhu4":3242,"Ġzha1":3243,"ren4Ġhe2Ġ":3244,"Ġwei2Ġer3":3245,"Ġluo2Ġ":3246,"Ġwo4Ġ":3247,"qiu2Ġdui4":3248,"Ġdong1Ġnan2":3249,"Ġci4Ġshi4Ġjie4":3250,"Ġceng2Ġjing1":3251,"Ġbing4Ġwei4Ġ":3252,"Ġ2016Ġnian2Ġ":3253,"bei3Ġbu4Ġ":3254,"pei4":3255,"Ġshang1Ġye4":3256,"jin3":3257,"Ġlai4":3258,"Ġhai3Ġjun1":3259,"is":3260,"Ġbiao3Ġ":3261,"liu2Ġ":3262,"Ġge4Ġ":3263,"jiang3Ġ":3264,"Ġri4Ġjun1":3265,"Ġkan3Ġ":3266,"Ġya3Ġ":3267,"Ġwei4Ġzhong1Ġ":3268,"Ġzai4Ġta1":3269,"Ġyue4Ġ16Ġri4Ġ":3270,"ĠĠĠtheĠĠĠ":3271,"ĠdeĠdian4":3272,"Ġmian4Ġji1Ġwei4Ġ":3273,"jie2Ġ":3274,"Ġhui2Ġdao4":3275,"Ġzai4Ġ199":3276,"dan1Ġ":3277,"mei3Ġyuan2Ġ":3278,"Ġfa1Ġxing2Ġ":3279,"Ġqian4Ġ":3280,"23":3281,"Ġbo2Ġwu4Ġguan3":3282,"Ġyue4Ġ17Ġri4Ġ":3283,"Ġdun1Ġ":3284,"100":3285,"Ġshi4Ġbu4Ġ":3286,"Ġpi1":3287,"sha1Ġ":3288,"Ġjing3Ġcha2":3289,"Ġhe2Ġxi":3290,"ruan3Ġ":3291,"Ġtan1Ġ":3292,"Ġting3":3293,"Ġyin3Ġqi3":3294,"ĠĠĠyou2Ġyu2Ġ":3295,"Ġwei4Ġyi1Ġ":3296,"Ġxian4ĠdeĠyi2Ġge4":3297,"ĠbrĠ":3298,"Ġji4Ġhua4Ġ":3299,"Ġwei4Ġh":3300,"xun4Ġ":3301,"Ġ2008Ġnian2Ġ":3302,"Ġzhan3Ġkai1":3303,"Ġhuai4Ġ":3304,"Ġbao3Ġ":3305,"Ġ100":3306,"lian2Ġhe2Ġ":3307,"Ġban3Ġben3":3308,"Ġhuai2Ġ":3309,"Ġzhang4":3310,"yong3Ġ":3311,"Ġwei3Ġyuan2Ġ":3312,"xu4Ġ":3313,"Ġshang4Ġwei4Ġ":3314,"Ġgong1Ġji1":3315,"Ġbi4Ġye4":3316,"Ġyuan2Ġben3":3317,"liang2Ġ":3318,"Ġyue4Ġ12Ġri4Ġ":3319,"Ġshuo4":3320,"Ġceng2Ġren4":3321,"PĠ":3322,"fang2Ġ":3323,"Ġhao2":3324,"luo2Ġma3":3325,"tu2Ġ":3326,"Ġguang3Ġdong1":3327,"Ġling4Ġ":3328,"Ġcai4":3329,"Ġding3Ġ":3330,"Ġjue2Ġse4":3331,"Ġyue4Ġ27Ġri4Ġ":3332,"Ġge1Ġ":3333,"Ġgeng4Ġduo1":3334,"Ġxiu4Ġ":3335,"Ġsun1":3336,"she4Ġji4Ġ":3337,"lu4Ġdi4Ġ":3338,"Ġkuang4Ġ":3339,"Ġyue4Ġ21Ġri4Ġ":3340,"Ġxuan3Ġze2":3341,"chan3Ġsheng1":3342,"Ġjian3Ġcheng1":3343,"Ġjing4Ġnei4":3344,"ig":3345,"19Ġri4Ġ":3346,"lian2Ġsai4":3347,"Ġde2Ġdao4":3348,"Ġzhi2Ġdao4":3349,"Ġlian2Ġ":3350,"Ġguang3Ġbo1":3351,"Ġ2019Ġnian2Ġ":3352,"Ġshi4Ġxi1":3353,"ĠdeĠshu4Ġju4Ġ":3354,"Ġlai2ĠdeĠ":3355,"Ġsuo3Ġyi3Ġ":3356,"ĠdeĠshi4Ġzhen4Ġ":3357,"diao4":3358,"Ġyue4Ġ11Ġri4Ġ":3359,"nong2":3360,"ĠĠĠ196":3361,"Ġkua4":3362,"21":3363,"ĠdeĠping2":3364,"Ġhuo4Ġzhe3":3365,"Ġwan4Ġren2Ġ":3366,"Ġyue4Ġ3Ġri4Ġ":3367,"Ġyi2Ġbu4Ġ":3368,"Ġ2018Ġnian2Ġ":3369,"ĠĠĠxian4":3370,"Ġchuang4Ġzuo4":3371,"nan2Ġ":3372,"Ġguan1Ġxi4":3373,"Ġshi4Ġli4Ġ":3374,"Ġguan1Ġfang1":3375,"Ġmian2":3376,"andĠĠĠ":3377,"Ġyou3Ġren2Ġkou3":3378,"zhun3Ġ":3379,"qi1Ġjian1Ġ":3380,"Ġxi1Ġyang2":3381,"xuan3Ġqu1":3382,"Ġzhong1Ġyi1Ġ":3383,"ren2Ġkou3Ġshu4Ġliang4":3384,"Ġe4":3385,"Ġguan1Ġxi4Ġ":3386,"Ġda2Ġ":3387,"Ġguan3Ġli3Ġ":3388,"Ġbing4Ġyu2Ġ":3389,"Ġshe4Ġhui4Ġ":3390,"Ġsai4Ġji4Ġ":3391,"Ġyue4Ġ22Ġri4Ġ":3392,"Ġyue4Ġ2Ġri4Ġ":3393,"wai4Ġjiao1":3394,"35":3395,"luo4Ġ":3396,"Ġke4Ġsi1":3397,"ĠdeĠnan2":3398,"Ġyue4Ġ14Ġri4Ġ":3399,"Ġpan1Ġ":3400,"Ġyue4Ġ23Ġri4Ġ":3401,"niu3Ġyue1":3402,"Ġzhe4Ġjiang1":3403,"Ġyue4Ġ29Ġri4Ġ":3404,"Ġxuan3Ġju3Ġ":3405,"Ġ2013Ġnian2Ġ":3406,"Ġhe2Ġdi4Ġ":3407,"ĠĠĠK":3408,"ĠĠĠbu4Ġ":3409,"yan2Ġ":3410,"Ġke4Ġsi1Ġ":3411,"Ġren2Ġshi4Ġ":3412,"Ġmiao2Ġshu4":3413,"ao4Ġlin2Ġpi3Ġke4Ġyun4Ġdong4":3414,"to":3415,"Ġcai4Ġ":3416,"Ġyu2Ġ198":3417,"Ġyue4Ġ31Ġri4Ġ":3418,"ni3":3419,"Ġchu1Ġren4":3420,"Ġwei4Ġyu2Ġfa3Ġguo2Ġ":3421,"ge4Ġren2Ġ":3422,"Ġjiao4Ġshou4Ġ":3423,"dian1Ġ":3424,"ke1Ġxue2":3425,"Ġshi4Ġzhong1Ġguo2Ġ":3426,"Ġxing2Ġzheng4":3427,"Ġxi1Ġla4":3428,"die2":3429,"Ġhui3":3430,"ĠdeĠfen1":3431,"Ġyi1Ġsi1":3432,"lian2Ġ":3433,"zhi3Ġ":3434,"Ġ2014Ġnian2Ġ":3435,"du2Ġ":3436,"Ġying2Ġde2":3437,"liang2":3438,"Ġwu4Ġbao3Ġhu4Ġdan1Ġwei4Ġ":3439,"yong1":3440,"Ġ2012Ġnian2Ġ":3441,"Ġshi4Ġxue2Ġwei4Ġ":3442,"meng2":3443,"qian2Ġ":3444,"lan3Ġ":3445,"Ġer2Ġgai1":3446,"Ġshe3":3447,"Ġ2015Ġnian2Ġ":3448,"chu4":3449,"Ġxie2Ġzhu4":3450,"Ġzhu3Ġren4Ġ":3451,"Ġtai2Ġbei3":3452,"ĠdeĠshen1":3453,"Ġzheng4Ġbian1":3454,"Ġbei4Ġer3":3455,"Ġhe2Ġxin1":3456,"Ġza2Ġzhi4Ġ":3457,"Ġguo2Ġji4":3458,"Ġshe4Ġzhi4Ġ":3459,"Ġgong1Ġchi3Ġ":3460,"ren2Ġshi4Ġ":3461,"Ġke3Ġda2":3462,"Ġhu3Ġ":3463,"av":3464,"sui4":3465,"Ġnan4Ġ":3466,"dan1Ġwei4Ġ":3467,"Ġdi4Ġxia4":3468,"Ġdong1Ġbu4Ġ":3469,"Ġzong1Ġjiao4":3470,"ĠdeĠdi4Ġfang1":3471,"Ġxian2Ġ":3472,"Ġduo1Ġci4":3473,"Ġcheng2Ġle":3474,"Ġju4Ġli2Ġ":3475,"Ġ2020Ġnian2Ġ":3476,"jie1Ġshou4":3477,"Ġyue4Ġ13Ġri4Ġ":3478,"45":3479,"ĠdeĠwen2":3480,"Ġhe2Ġlan2":3481,"ao1Ġ":3482,"Ġbang3":3483,"Ġbei4Ġren4Ġwei2":3484,"Ġyin4":3485,"ĠdeĠyan2":3486,"Ġya4Ġ":3487,"shou3Ġ":3488,"Ġlve4Ġ":3489,"Ġzi1Ġliao4Ġ":3490,"Ġbei4Ġcheng1Ġwei2Ġ":3491,"Ġyan3Ġyuan2Ġ":3492,"che1Ġ":3493,"ur":3494,"Ġji1Ġhu1Ġ":3495,"e2Ġluo2Ġsi1Ġ":3496,"yun4Ġ":3497,"ge2Ġming4":3498,"Ġliang3Ġren2Ġ":3499,"Ġyi4Ġhui4Ġ":3500,"qian2Ġwang3":3501,"Ġzong4":3502,"Ġshi4Ġt":3503,"Ġsheng1Ġwu4":3504,"Ġfu4Ġqin1":3505,"Ġdian4Ġying3Ġ":3506,"yang1Ġ":3507,"Ġhan":3508,"Ġguo2Ġwang2":3509,"ĠdeĠdi4Ġyi1Ġ":3510,"Ġpai1Ġshe4":3511,"Ġda4Ġhui4":3512,"Ġli4Ġru2Ġ":3513,"Ġyi4Ġzhi4Ġ":3514,"an1Ġquan2":3515,"ĠĠĠ193":3516,"Ġer2Ġzai4Ġ":3517,"ĠdeĠge1":3518,"197":3519,"ĠĠĠche1Ġzhan4":3520,"ĠĠĠyi1Ġ":3521,"xuan3Ġju3Ġ":3522,"Ġlv3Ġ":3523,"ĠdeĠwu3":3524,"ling3Ġdao3":3525,"Ġxi1Ġge1":3526,"Ġjie3Ġfang4Ġjun1":3527,"Ġnian2Ġqing1":3528,"Ġbang1Ġzhu4":3529,"sheng3Ġji2Ġ":3530,"Ġzhong1Ġguo2":3531,"qiu1Ġ":3532,"qu4Ġshi4Ġ":3533,"gou4":3534,"Ġsheng4Ġ":3535,"Ġfen4Ġwei4Ġ":3536,"lian4Ġ":3537,"Ġtou2Ġ":3538,"ĠĠĠ2021Ġnian2Ġ":3539,"ĠdeĠfan3Ġ":3540,"28":3541,"ĠdeĠyi2":3542,"dang3":3543,"Ġzai4Ġjia1":3544,"Ġzeng1Ġjia1Ġ":3545,"Ġsen1Ġ":3546,"ĠdeĠzi1":3547,"Ġyou2Ġxi4Ġ":3548,"Ġjie1Ġduan4Ġ":3549,"Ġhao2Ġmi3Ġ":3550,"xue2Ġxiao4":3551,"90":3552,"Ġjie2Ġgou4":3553,"Ġyi1Ġyang4Ġ":3554,"Ġhai2Ġshi4Ġ":3555,"oo":3556,"Ġdi4Ġwu3":3557,"song4":3558,"Ġ2007Ġnian2Ġ":3559,"ĠĠĠ2019Ġnian2Ġ":3560,"en1Ġ":3561,"xiao3Ġshi2Ġ":3562,"Ġbu4Ġxi":3563,"Ġjiu4Ġshi4Ġzhen4Ġ":3564,"ĠĠĠzi4":3565,"wĠ":3566,"Ġwei2Ġchi2":3567,"ap":3568,"tong1Ġchang2":3569,"Ġxi3Ġ":3570,"Ġhe2Ġbei3":3571,"Ġfu3Ġ":3572,"Ġzun1":3573,"Ġceng2Ġ":3574,"Ġjuan3Ġ":3575,"Ġtong4":3576,"Ġku4Ġ":3577,"Ġcang1Ġ":3578,"IĠ":3579,"cai2Ġ":3580,"Ġting3Ġ":3581,"Ġbei1Ġ":3582,"Ġge1Ġqu3":3583,"dao4Ġ":3584,"te4Ġ":3585,"tong3Ġzhi4Ġ":3586,"Ġji4Ġzai3":3587,"Ġhe2Ġyi1Ġ":3588,"Ġli4Ġshu3Ġyu2Ġ":3589,"Ġsheng3ĠdeĠyi2Ġge4Ġshi4Ġzhen4Ġ":3590,"yong4Ġyu2Ġ":3591,"ze2Ġ":3592,"Ġ40":3593,"Ġren2Ġkou3Ġmi4Ġdu4Ġwei4Ġmei3":3594,"ya1":3595,"Ġdong3Ġshi4Ġ":3596,"Ġxi4Ġbao1":3597,"fu1Ġ":3598,"Ġ2017Ġnian2Ġ":3599,"Ġshuai4":3600,"ĠĠĠ2020Ġnian2Ġ":3601,"Ġgan3Ġran3Ġ":3602,"27":3603,"Ġdong4Ġhua4":3604,"guang1":3605,"24":3606,"ĠdeĠying3Ġxiang3Ġ":3607,"Ġ2021Ġnian2Ġ":3608,"Ġmei3Ġnian2Ġ":3609,"Ġyin1Ġci3Ġ":3610,"Ġshi2Ġren4":3611,"ĠdeĠdui4":3612,"Ġtuo2":3613,"Ġli4Ġshi2Ġ":3614,"Ġci4Ġshi4Ġjie4Ġda4Ġzhan4":3615,"Ġwu4Ġzhong3":3616,"Ġdi4Ġqiu2":3617,"Ġdang4":3618,"zhi1Ġyi1Ġ":3619,"can1Ġjia1Ġ":3620,"Ġwei2Ġya4":3621,"Ġbian1Ġ":3622,"ĠdeĠsan1":3623,"26":3624,"ĠĠĠsuo3":3625,"Ġjia1Ġpo1":3626,"diao4Ġcha2":3627,"ĠdeĠfeng1":3628,"Ġci3Ġ":3629,"Ġzao3Ġqi1":3630,"lin2Ġ":3631,"Ġbing3":3632,"ren2Ġkou3Ġshu4Ġliang4Ġwei4Ġren2Ġ":3633,"jia1Ġru4":3634,"Ġgai1Ġsheng3":3635,"ĠINS":3636,"ĠdeĠyan3":3637,"Ġyou3Ġxie1":3638,"gui1":3639,"EĠ":3640,"Ġyuan2Ġyu2Ġ":3641,"ba1Ġshi4Ġ":3642,"Ġdong4Ġwu4":3643,"Ġjia1Ġzu2":3644,"Ġ2005Ġnian2Ġ":3645,"guan1Ġ":3646,"Ġshun4Ġ":3647,"Ġchang4Ġpian4Ġ":3648,"Ġshi2Ġfen1":3649,"Ġwei4Ġlai2":3650,"Ġsun1Ġ":3651,"jing4Ġ":3652,"Ġyin1Ġer2":3653,"Ġfang1Ġxiang4":3654,"Ġbao3Ġchi2":3655,"ĠINSEE":3656,"Ġzai4Ġyi4":3657,"Ġjian4Ġzhi4Ġ":3658,"Ġwei4Ġfu2":3659,"Ġzhong1Ġguo2Ġgong4Ġchan3":3660,"Ġzheng4Ġbian1Ġma3Ġwei4Ġ":3661,"ĠĠĠ1":3662,"Ġshui3Ġ":3663,"Ġyou4Ġcheng1":3664,"Ġxiao1Ġ":3665,"ĠĠĠO":3666,"Ġzhou2":3667,"ĠĠĠbei4":3668,"Ġcheng2Ġji4Ġ":3669,"ĠĠĠzhi4Ġ":3670,"Ġzuo4Ġchu1":3671,"ĠĠĠ2018Ġnian2Ġ":3672,"ci4Ġ":3673,"fu4Ġze2":3674,"Ġjing1Ġji4":3675,"Ġshi2Ġzi4":3676,"Ġzheng4Ġzai4Ġ":3677,"Ġkong1Ġjian1":3678,"Ġbu2Ġhui4":3679,"Ġqi2Ġhou4":3680,"Ġye3Ġyou3Ġ":3681,"Ġzui4Ġda4":3682,"tai4Ġyang2":3683,"Ġzai4Ġzhong1Ġ":3684,"bai3":3685,"lĠ":3686,"Ġshi2Ġxing2":3687,"Ġzhi3Ġshi4Ġ":3688,"op":3689,"dang3Ġ":3690,"gan3Ġ":3691,"Ġdeng3Ġren2Ġ":3692,"Ġgong1Ġfen1Ġ":3693,"Ġchang1":3694,"Ġshan1Ġdong1":3695,"Ġzhuan1Ġji2Ġ":3696,"Ġcong2Ġer2":3697,"Ġxiao3Ġ":3698,"gong4Ġtong2":3699,"Ġbu4Ġzhang3":3700,"Ġrao4Ġ":3701,"dong1Ġbei3":3702,"Ġlu4Ġjun1":3703,"Ġzheng3Ġge4":3704,"un1":3705,"Ġqi2Ġxia4":3706,"Ġgong4Ġhe2Ġ":3707,"ĠĠĠJ":3708,"ĠdeĠyan2Ġjiu1Ġ":3709,"Ġpang2Ġ":3710,"oc":3711,"Ġzhi4Ġ202":3712,"Ġsha4":3713,"Ġzhuan1Ġye4":3714,"au":3715,"Ġcang1":3716,"fei1Ġchang2":3717,"Ġer3Ġde2":3718,"Ġhe2Ġch":3719,"ĠĠĠgong1Ġ":3720,"Ġwei4Ġsheng1":3721,"Ġming2Ġchao2":3722,"Ġying1Ġchi3Ġ":3723,"Ġdian4Ġzi":3724,"Ġ23":3725,"Ġtou2Ġzi1":3726,"zan4Ġ":3727,"Ġfu1":3728,"kai1Ġshi3Ġ":3729,"Ġtao2Ġya2":3730,"Ġxia4Ġling4Ġshi2Ġ":3731,"ĠdeĠdong4":3732,"Ġzhong1Ġguo2Ġda4Ġlu4":3733,"Ġbian1Ġma3Ġwei4Ġ":3734,"sui2":3735,"gong4Ġyou3Ġren2Ġkou3":3736,"Ġzhen1Ġdui4":3737,"Ġwei4Ġshi2Ġ":3738,"Ġli4Ġsi1":3739,"miao2Ġshu4":3740,"Ġshi2Ġxian4":3741,"Ġyi4Ġyuan2":3742,"Ġfei3":3743,"long2":3744,"ov":3745,"Ġjia1Ġshang4":3746,"kuang4":3747,"Ġni4":3748,"Ġfei4Ġ":3749,"jing4Ġnei4":3750,"Ġren2Ġkou3Ġmi4Ġdu4Ġmei3":3751,"tuan2":3752,"chun1":3753,"Ġzai4Ġda4":3754,"Ġju4Ġjue2":3755,"Ġjia1Ġna2Ġda4":3756,"yao4Ġ":3757,"qu1Ġyu4":3758,"Ġshi4Ġzhen4Ġbian1Ġma3Ġwei4Ġ":3759,"ĠINSEEĠshi4Ġzhen4Ġbian1Ġma3Ġwei4Ġ":3760,"ti3Ġyu4":3761,"Ġquan2Ġqiu2":3762,"Ġyin2Ġhang2Ġ":3763,"Ġxun4Ġlian4Ġ":3764,"ãĢİ":3765,"mei2Ġyou3":3766,"ad":3767,"Ġli4Ġyu2Ġ":3768,"Ġxi1Ġbu4Ġ":3769,"Ġjian4Ġzhu4Ġ":3770,"Ġshi4Ġyu3":3771,"ĠdeĠli3":3772,"Ġnao3Ġ":3773,"Ġqi1Ġxi1":3774,"ãĢı":3775,"Ġ2006Ġnian2Ġ":3776,"Ġsan1Ġnian2Ġ":3777,"shi2ĠdeĠren2Ġkou3Ġshu4Ġliang4Ġwei4Ġren2Ġ":3778,"ĠÎ":3779,"Ġyin3Ġfa1":3780,"mei3Ġguo2Ġren2Ġkou3Ġpu3Ġcha2ĠdeĠshu4Ġju4Ġ":3781,"Ġti1Ġ":3782,"Ġzai4Ġxi1":3783,"Ġer2Ġren2Ġkou3Ġmi4Ġdu4Ġwei4Ġmei3":3784,"Ġzhi2Ġwu4Ġ":3785,"ĠĠĠ2017Ġnian2Ġ":3786,"Ġdang1Ġdi4Ġgong4Ġyou3Ġren2Ġkou3":3787,"ĠdeĠmo2":3788,"ren4Ġwei2":3789,"Ġgu4Ġ":3790,"xuan3Ġqu1Ġwei4Ġ":3791,"ang3ĠdeĠshi4Ġzhen4Ġ":3792,"Ġhuo4Ġjiu4Ġshi4Ġzhen4Ġ":3793,"Ġbing1Ġ":3794,"Ġzhi2Ġwu4":3795,"Ġsai1Ġer3":3796,"Ġfang1Ġmian4Ġ":3797,"Ġshu3ĠdeĠsheng3Ġji2Ġ":3798,"Ġshu3ĠdeĠsheng3Ġji2Ġxuan3Ġqu1Ġwei4Ġ":3799,"Ġzang4":3800,"Ġsang1Ġ":3801,"Ġke4Ġli3":3802,"zhi1Ġ":3803,"Ġ6Ġ":3804,"Ġzha2":3805,"Ġji1Ġjin1":3806,"Ġdong1Ġjing1":3807,"re4Ġdai4":3808,"Ġji2Ġwei4Ġ":3809,"geng4":3810,"Ġmin3":3811,"Ġchuan2Ġ":3812,"Ġyan2Ġzhong4":3813,"29":3814,"Ġfen4Ġwei4Ġfa3Ġguo2Ġ":3815,"Ġgai1Ġsheng3Ġfen4Ġwei4Ġfa3Ġguo2Ġ":3816,"Ġzhi2Ġzhi4Ġ":3817,"Ġliao2":3818,"tuo1":3819,"Ġhe2Ġzuo4Ġ":3820,"ĠdeĠnei4":3821,"Ġta1Ġbei4":3822,"Ġyou3Ġxiao4":3823,"wu2Ġfa3":3824,"Ġzhi1Ġjian1Ġ":3825,"Ġren2Ġshu4":3826,"xuan3Ġze2":3827,"xie3":3828,"Ġxie2Ġ":3829,"quan2Ġqiu2":3830,"Ġsui2Ġzhu4":3831,"Ġyi1Ġwei4Ġ":3832,"tian1Ġ":3833,"Ġshi4Ġyi1Ġming2":3834,"Ġqu4Ġshi4Ġ":3835,"edĠĠĠ":3836,"Ġdi4Ġyi1Ġci4":3837,"Ġshi2Ġshi1":3838,"Ġwai4Ġjiao1":3839,"lun4Ġ":3840,"chu1Ġban3Ġ":3841,"Ġnian2Ġdu4":3842,"Ġji1Ġyu2Ġ":3843,"Ġjing3Ġfang1":3844,"gu4":3845,"Ġxiang2":3846,"Ġzhi2Ġdao4Ġ":3847,"Ġxie2Ġhui4Ġ":3848,"Ġtai4Ġ":3849,"Ġda4Ġduo1Ġshu4":3850,"Ġli4Ġji2":3851,"Ġxin1ĠdeĠ":3852,"fu2Ġ":3853,"Ġzai4Ġnei4":3854,"Ġmeng3":3855,"ab":3856,"ĠĠĠxi1":3857,"Ġxin1Ġzeng1":3858,"Ġtong1Ġ":3859,"pi1Ġ":3860,"ti2Ġchu1":3861,"zhe4Ġxie1":3862,"Ġsuo3Ġyou3":3863,"Ġhu4Ġ":3864,"Ġbiao1Ġzhun3":3865,"Ġban4Ġ":3866,"hui2":3867,"ĠĠĠ2016Ġnian2Ġ":3868,"Ġgong1Ġbu4Ġ":3869,"zhong1Ġhua2Ġren2Ġmin2Ġgong4Ġhe2Ġguo2Ġ":3870,"jun1Ġdui4":3871,"lie4Ġ":3872,"ĠĠĠyou3":3873,"46":3874,"Ġzai4Ġzhong1Ġguo2Ġ":3875,"Ġde2Ġdao4Ġ":3876,"Ġgui3Ġ":3877,"Ġ500":3878,"Ġzai4Ġdu4":3879,"Ġji1Ġgou4Ġ":3880,"ĠleĠyi2Ġge4":3881,"ak":3882,"Ġshi4Ġji2":3883,"Ġshi2Ġyi1Ġ":3884,"ĠĠĠ2022Ġnian2Ġ":3885,"Ġyong1Ġyou3":3886,"Ġwen2Ġxue2":3887,"jian4Ġzhu4":3888,"esĠ":3889,"Ġbu4Ġjiu3Ġ":3890,"Ġbu4Ġde2":3891,"Ġbi3Ġya4":3892,"Ġgua4":3893,"Ġdiao4Ġcha2":3894,"esĠĠĠ":3895,"Ġhou4Ġzhe3":3896,"Ġhai3Ġ":3897,"Ġni2Ġ":3898,"ju3Ġxing2Ġ":3899,"Ġshi4Ġnan2":3900,"Ġdi4Ġmian4":3901,"Ġdiao1":3902,"ĠdeĠzhi3":3903,"Ġbu4Ġke3":3904,"Ġzhong1Ġwen2":3905,"Ġji1Ġdu1Ġ":3906,"ao4Ġyun4":3907,"Ġshu4Ġju4":3908,"zhe":3909,"Ġlai4Ġ":3910,"Ġjin3Ġbiao1Ġsai4":3911,"Ġzai4Ġbu4Ġ":3912,"Ġxian4Ġlu4":3913,"Ġfa1Ġxing2":3914,"Ġlian2Ġjie1":3915,"Ġshui3Ġyu4":3916,"Ġwen4Ġ":3917,"ĠdeĠxing4":3918,"zhi2Ġye4":3919,"Ġyuan2Ġzhu4":3920,"Ġzhen1Ġ":3921,"ding3":3922,"ge2Ġlan2":3923,"Ġshou4Ġdao4Ġ":3924,"Ġzhong1Ġguo2Ġren2Ġmin2":3925,"Ġguo2Ġhui4":3926,"Ġji4Ġlu4Ġ":3927,"ĠĠĠyi4":3928,"di4Ġwei4Ġ":3929,"yang3Ġ":3930,"75":3931,"bian4Ġ":3932,"Ġtie1":3933,"Ġdeng3Ġdi4Ġ":3934,"Ġru2Ġ":3935,"Ġzhong1Ġxue2Ġ":3936,"194":3937,"fa1Ġxian4":3938,"ĠĠĠjian3Ġ":3939,"fen1Ġbie2":3940,"yin4Ġ":3941,"Ġ189":3942,"Ġxue2Ġzhe3":3943,"zi4Ġyou2":3944,"ao3Ġqi1":3945,"Ġzhi3Ġhui1Ġ":3946,"Ġji2ĠdeĠ":3947,"jing3":3948,"da4Ġxue2Ġ":3949,"bao3Ġ":3950,"Ġxie2Ġyi4Ġ":3951,"mu4Ġqian2":3952,"ing":3953,"Ġzai4Ġmei3Ġguo2Ġ":3954,"Ġ2022Ġnian2Ġ":3955,"guang3Ġdong1":3956,"fu2Ġwu4":3957,"ye2":3958,"Ġshi4Ġmei3Ġguo2Ġ":3959,"Ġfa1Ġshe4":3960,"xiao3Ġxing2Ġxing1":3961,"Ġxi1Ġwang4Ġ":3962,"Ġxue1":3963,"Ġzu3Ġfu4":3964,"Ġha1Ġer3":3965,"shi3Ġyong4Ġ":3966,"Ġshi4Ġyou3":3967,"Ġhe2Ġliu2":3968,"Ġji2Ġzhong1Ġ":3969,"di4Ġyi1Ġ":3970,"2Ġren2Ġ":3971,"neng2Ġli4Ġ":3972,"196":3973,"ti3Ġ":3974,"Ġtan2Ġ":3975,"Ġxiong1Ġdi4Ġ":3976,"wen4Ġti2Ġ":3977,"ĠdeĠhou4":3978,"Ġchu1Ġsheng1Ġyu2Ġ":3979,"Ġmei2Ġ":3980,"Ġgu3Ġ":3981,"ĠĠĠyuan2":3982,"Ġdai4Ġbiao3Ġ":3983,"Ġshuang1Ġfang1":3984,"Ġbu4Ġduan4Ġ":3985,"ĠĠĠV":3986,"fu2Ġwu4Ġ":3987,"Ġzhi4Ġyu2Ġ":3988,"Ġa1Ġla1":3989,"Ġju4Ġyou3":3990,"lai2Ġ":3991,"lian2Ġbang1Ġ":3992,"Ġci3Ġhou4Ġ":3993,"Ġsi4Ġchuan1Ġ":3994,"Ġsheng1Ġya2Ġ":3995,"wan3Ġ":3996,"qie4":3997,"Ġgai3Ġwei2":3998,"er3Ġqi2":3999,"fu4Ġ":4000,"zu3Ġ":4001,"Ġxie3Ġ":4002,"Ġyi3Ġshang4":4003,"Ġchan3Ġ":4004,"os":4005,"Ġxu1":4006,"Ġjie2Ġmu4Ġ":4007,"Ġzuo3Ġyou4":4008,"Ġchen4":4009,"Ġying3Ġxiang3":4010,"38":4011,"chuang4Ġzuo4":4012,"Ġfang1Ġan4Ġ":4013,"Ġcui1":4014,"zhi1Ġhou4Ġ":4015,"Ġtai1":4016,"ub":4017,"yu3Ġ":4018,"Ġjiao4Ġshou4":4019,"Ġren2Ġgong1Ġ":4020,"zu3Ġcheng2Ġ":4021,"Ġshao4Ġnian2Ġ":4022,"shen3":4023,"Ġqi3Ġye4":4024,"chu3Ġ":4025,"fu3Ġ":4026,"Ġdao4Ġda2":4027,"Ġzhi1Ġwai4Ġ":4028,"ĠdeĠyi1Ġzuo4":4029,"feng1Ġ":4030,"Ġju3Ġxing2":4031,"nv3Ġ":4032,"0Ġnian2Ġdai4Ġ":4033,"wa3":4034,"Ġxiang4Ġmu4Ġ":4035,"xing2Ġ":4036,"zheng4Ġ":4037,"ĠdeĠjiao4":4038,"Ġhua4Ġxue2":4039,"Ġwo1":4040,"Ġguang3Ġfan4Ġ":4041,"sui1Ġran2":4042,"guan3Ġ":4043,"Ġgan3Ġdao4":4044,"xiang1Ġ":4045,"Ġgao1Ġsu4":4046,"ĠĠĠ2014Ġnian2Ġ":4047,"Ġgen1Ġju4Ġ":4048,"ĠĠĠ2015Ġnian2Ġ":4049,"Ġbing4Ġjiang1":4050,"Ġyu2Ġhai3":4051,"Ġ28":4052,"Ġyou3Ġxian4Ġgong1Ġsi1":4053,"Ġxuan3Ġwei4Ġ":4054,"Ġguang3Ġzhou1":4055,"zhao4":4056,"ĠdeĠhua4":4057,"em":4058,"Ġfei1Ġ":4059,"Ġyu2Ġ197":4060,"Ġli4Ġshan1":4061,"shun4":4062,"ying3Ġxiang3":4063,"Ġyi1Ġnian2Ġ":4064,"ĠĠĠ5":4065,"yi2Ġding4":4066,"nan2Ġbu4Ġ":4067,"ĠdeĠlu4":4068,"36":4069,"Ġjian3Ġcha2":4070,"TA":4071,"quan1Ġ":4072,"ĠĠĠfen1":4073,"Ġre4Ġdai4":4074,"RĠ":4075,"Ġhua2Ġ":4076,"Ġzai4Ġgai1":4077,"Ġchan2":4078,"Ġyou2Ġqi2":4079,"Ġzai4Ġt":4080,"Ġquan2Ġbu4Ġ":4081,"Ġdi4Ġan1Ġ":4082,"Ġhuai4":4083,"Ġyou1":4084,"ĠĠĠ4":4085,"Ġhe2Ġxi1":4086,"Ġnan2Ġjing1":4087,"ĠdeĠdi4Ġer4":4088,"ĠĠĠxin1":4089,"ĠdeĠbiao3":4090,"Ġjian4Ġdui4":4091,"Ġtian1Ġjin1":4092,"dong1Ġjing1":4093,"ĠdeĠfei1":4094,"Ġzeng4":4095,"po4":4096,"Ġji4Ġzhe3":4097,"ĠĠĠli4Ġ":4098,"Ġchun1Ġ":4099,"zuo4Ġpin3Ġ":4100,"Ġcheng2Ġdu4":4101,"qu1Ġhua4Ġ":4102,"di4Ġer4":4103,"ĠĠĠ2013Ġnian2Ġ":4104,"Ġjie1Ġrang3ĠdeĠshi4Ġzhen4Ġ":4105,"Ġcheng2Ġren4":4106,"Ġmiao4":4107,"Ġshi4Ġl":4108,"Ġya4Ġzhou1":4109,"4Ġren2Ġ":4110,"Ġchai2":4111,"Ġzhao4Ġkai1":4112,"Ġtu3Ġdi4Ġ":4113,"ju3Ġban4":4114,"xia4Ġxia2":4115,"ĠdeĠer2":4116,"Ġpang2":4117,"Ġwei4Ġxing1":4118,"Ġe2Ġluo2Ġsi1Ġ":4119,"Ġji1Ġdi4Ġ":4120,"Ġjiang1Ġjun1":4121,"fen4Ġ":4122,"Ġji4Ġcheng2Ġ":4123,"ĠdeĠbao4":4124,"min2Ġzu2":4125,"Ġzhong1Ġyou3":4126,"Ġmei3Ġge4":4127,"Ġchang2Ġ":4128,"Ġhu2Ġnan2":4129,"ĠdeĠji2":4130,"Ġ26":4131,"san1Ġge4":4132,"Ġshi4Ġri4Ġben3":4133,"Ġmiao2":4134,"Ġqing1Ġnian2Ġ":4135,"zao4":4136,"mei2Ġti3":4137,"1Ġren2Ġ":4138,"Ġni3Ġ":4139,"er3Ġ":4140,"an3Ġhe2Ġ":4141,"qi3Ġye4":4142,"Ġshou1Ġlu4":4143,"Ġcha1Ġ":4144,"shun4Ġ":4145,"qing1Ġnian2Ġ":4146,"Ġdao4ĠdeĠ":4147,"3Ġren2Ġ":4148,"Ġshi2Ġyan4Ġ":4149,"kuan1Ġ":4150,"wu4Ġyuan4":4151,"Ġbao4Ġfa1":4152,"Ġbiao1Ġwei4Ġ":4153,"ĠĠĠl":4154,"jie2Ġshu4":4155,"Ġshi4Ġzheng4":4156,"Ġsun3Ġ":4157,"Ġniu3Ġ":4158,"Ġjie3Ġjue2":4159,"she4Ġ":4160,"zhe4Ġge":4161,"Ġwu4Ġli3":4162,"ĠdeĠyi1Ġzhong3":4163,"Ġer2Ġshi4Ġ":4164,"Ġling4Ġwai4Ġ":4165,"Ġfu2Ġjian4":4166,"chao2":4167,"ĠdeĠfang1Ġshi4Ġ":4168,"Ġping2Ġtai2":4169,"Ġshi4Ġyue4":4170,"ĠĠĠhe2Ġ":4171,"she4Ġyou3Ġ":4172,"jue2Ġsai4":4173,"Ġyi1Ġtong2":4174,"Ġti3Ġzhang3":4175,"ĠĠĠdui4":4176,"ĠdeĠgu3":4177,"Ġzai4Ġyu2Ġ":4178,"Ġbu4Ġla1":4179,"Ġniao3":4180,"Ġran2Ġhou4":4181,"Ġzhi1Ġxian4Ġ":4182,"Ġfen1Ġwei2Ġ":4183,"yuan4Ġ":4184,"ind":4185,"Ġba1Ġshi4Ġ":4186,"lian2Ġmeng2":4187,"Ġmi2":4188,"Ġxian4Ġren2Ġ":4189,"gang1":4190,"Ġyue4Ġtai2":4191,"mou3":4192,"Ġshi4Ġmin2":4193,"Ġkou4":4194,"Ġzong3Ġmian4Ġji1Ġ":4195,"ĠĠĠ2023Ġnian2Ġ":4196,"Ġkan4Ġdao4":4197,"Ġzhi1Ġqian2Ġ":4198,"Ġhong1Ġzha4":4199,"Â°":4200,"Ġguo2Ġli4Ġ":4201,"Ġzhi4Ġzao4":4202,"Ġmang2":4203,"um":4204,"ĠdeĠfa3":4205,"Ġyun4Ġshu1":4206,"kui2Ġ":4207,"Ġzhi4Ġzao4Ġ":4208,"ï½":4209,"ĠdeĠzhong4Ġyao4":4210,"Ġshi4Ġda4":4211,"Ġda4Ġqu1Ġ":4212,"Ġli3Ġya4":4213,"mu4Ġ":4214,"Ġzong1Ġhe2Ġ":4215,"Ġlian2Ġbang1Ġ":4216,"dao3Ġzhi4Ġ":4217,"zao4Ġ":4218,"Ġer2Ġtong2":4219,"Ġci3Ġshi2Ġ":4220,"Ġdi3Ġda2":4221,"che1Ġzhan4Ġ":4222,"ev":4223,"an2Ġguo2Ġ":4224,"Ġshi4Ġbing1":4225,"Ġtong2Ġshi2Ġye3":4226,"Ġgui1Ġding4":4227,"Ġyue4Ġnan2":4228,"Ġhuang2Ġdi4Ġ":4229,"ke1Ġ":4230,"si3":4231,"Ġshang3Ġ":4232,"ĠdeĠsi1":4233,"kua4":4234,"Ġdao1":4235,"Ġlian2Ġxu4":4236,"Ġer3Ġsi1Ġ":4237,"Ġzhun3Ġbei4":4238,"37":4239,"na2":4240,"Ġping2Ġmian4":4241,"Ġniu3Ġyue1":4242,"Ġer3Ġlan2":4243,"195":4244,"Ġyou3Ġyi2Ġge4":4245,"Ġ21":4246,"Ġfang1Ġfa3":4247,"Ġding4Ġwei4Ġ":4248,"Ġhuo3Ġ":4249,"MĠ":4250,"ĠdeĠyu3":4251,"bi3Ġsai4Ġ":4252,"ĠdeĠwai4":4253,"Ġdao4Ġlu4":4254,"Ġtiao2Ġzheng3":4255,"Ġchang2Ġqi1":4256,"Ġla1Ġsi1Ġ":4257,"zui4Ġzhong1Ġ":4258,"Ġyi1Ġxue2":4259,"Ġhun2":4260,"Ġqun2Ġ":4261,"ĠdeĠliang3":4262,"Ġyu2Ġ194":4263,"wan2Ġcheng2Ġ":4264,"Ġwei2Ġzhu3Ġ":4265,"Ġkun1":4266,"ĠTheĠĠĠ":4267,"Ġxing2Ġdong4Ġ":4268,"Ġzou3Ġ":4269,"Ġsui2Ġzhe":4270,"xi1Ġ":4271,"Ġyi3Ġse4":4272,"Ġnv3Ġ":4273,"zhi2Ġjie1":4274,"00Ġwan4Ġ":4275,"Ġru":4276,"Ġbian3Ġ":4277,"Ġne4Ġ":4278,"ĠdeĠtou2":4279,"Ġzai4Ġ18":4280,"Ġzhou1Ġshi4Ġ":4281,"Ġze2Ġshi4Ġ":4282,"Ġman4Ġhua4":4283,"yue1Ġhan4Ġ":4284,"Ġhui4Ġyi4":4285,"Ġ24":4286,"Ġdong1Ġ":4287,"Ġzhu3Ġjue2":4288,"bao1Ġhan2":4289,"Ġma3Ġli4Ġ":4290,"ampĠ":4291,"BĠ":4292,"Ġ60":4293,"Ġtuo4":4294,"ĠĠĠshi2Ġ":4295,"bei3Ġmei3":4296,"Ġzhi1Ġshi2Ġ":4297,"Ġshe4Ġqu1Ġ":4298,"Ġtuo1Ġ":4299,"ĠdeĠshui3":4300,"Ġ35":4301,"ĠĠĠzhong1Ġ":4302,"Ġhuo4Ġshi4Ġ":4303,"You":4304,"gen1":4305,"she4Ġhui4Ġ":4306,"chong1":4307,"fa1Ġbu4Ġ":4308,"Ġming4Ġming2Ġ":4309,"ge1Ġ":4310,"Ġyou3Ġxian4Ġgong1Ġsi1Ġ":4311,"tong2Ġshi2Ġ":4312,"kou3Ġ":4313,"Ġzai4Ġ198":4314,"lve4":4315,"Ġjin4Ġgong1Ġ":4316,"Ġling3Ġyu4":4317,"jian4Ġli4Ġ":4318,"gong1Ġbu4Ġ":4319,"Ġzhi4Ġjin1":4320,"Ġhou4Ġxuan3":4321,"Ġgui1Ġhua4":4322,"xue2Ġsheng1":4323,"te4Ġbie2":4324,"sai4Ġ":4325,"ji4Ġnian4Ġ":4326,"Ġcheng2Ġxian4":4327,"Ġer2Ġbei4":4328,"Ġli4Ġya4Ġ":4329,"Ġsan1Ġge4":4330,"Ġwan2Ġjia1":4331,"jie2Ġmu4":4332,"Ġbu4Ġhe2Ġ":4333,"Ġer3Ġsi1":4334,"Ġqie4Ġ":4335,"Ġzhi4Ġzuo4Ġ":4336,"Ġjin4Ġyi2Ġbu4Ġ":4337,"Ġjie2Ġhe2Ġ":4338,"Ġsa4Ġke4":4339,"Ġguo2Ġnei4":4340,"bai2Ġ":4341,"ĠdeĠjin4":4342,"Ġhe2Ġpan4Ġ":4343,"zhi1Ġjian1":4344,"9Ġren2Ġ":4345,"Ġban3ĠdeĠ":4346,"Ġfa3Ġlan2":4347,"pai2Ġ":4348,"Ġyi4Ġfang1":4349,"chuan2Ġ":4350,"cun1Ġ":4351,"ĠĠĠji1":4352,"inĠ":4353,"Ġdeng1Ġ":4354,"Ġshi4Ġyi1Ġwei4Ġ":4355,"Ġgeng1Ġming2Ġwei4Ġ":4356,"Ġzi4Ġdong4":4357,"Ġ27":4358,"Ġbing4Ġfei1":4359,"Ġmu3Ġqin1":4360,"xue4Ġ":4361,"lu4Ġdi4Ġmian4Ġji1Ġwei4Ġ":4362,"ĠĠĠ10":4363,"00Ġnian2Ġ":4364,"ĠdeĠchu1":4365,"Ġpu1Ġ":4366,"Ġshui3Ġyu4Ġmian4Ġji1Ġwei4Ġ":4367,"Ġyou3Ġsuo3":4368,"Ġchu2ĠleĠ":4369,"Ġge4Ġdi4Ġ":4370,"Ġxiang1Ġdui4":4371,"Ġkui2Ġ":4372,"hua1":4373,"Ġxue4":4374,"formulaĠ":4375,"zao1":4376,"Ġsheng1Ġzhang3":4377,"Ġnai4":4378,"Ġren2Ġzai4Ġ":4379,"Ġnu3":4380,"Ġji1Ġchu3Ġ":4381,"gan1Ġ":4382,"Ġfei2":4383,"Ġyong4Ġlai2":4384,"65":4385,"Ġmo2Ġshi4Ġ":4386,"VĠ":4387,"ĠĠĠming2":4388,"xi4Ġbao1":4389,"Ġgong3":4390,"Ġxiao3Ġxing2Ġxing1":4391,"Ġnian2Ġshi4Ġjie4":4392,"ï½ŀ":4393,"ta":4394,"tang2Ġ":4395,"jing1Ġguo4":4396,"Ġji1Ġbai4":4397,"Ġlei3Ġ":4398,"Ġwei4Ġhe2Ġ":4399,"Ġshi4Ġjia1":4400,"ying1Ġge2Ġlan2":4401,"Ġkai1Ġfang4Ġ":4402,"ĠampĠ":4403,"Ġpo1Ġ":4404,"Ġdan1Ġ":4405,"guan3Ġli3Ġ":4406,"fan1Ġ":4407,"pai4":4408,"Ġniu2Ġ":4409,"Ġda4Ġlu4":4410,"Ġdang1Ġzhong1Ġlu4Ġdi4Ġmian4Ġji1Ġwei4Ġ":4411,"qing2":4412,"Ġer2Ġshui3Ġyu4Ġmian4Ġji1Ġwei4Ġ":4413,"oun":4414,"Ġlang4":4415,"Ġmin2Ġ":4416,"ĠĠĠ2012Ġnian2Ġ":4417,"Ġyuan2Ġhe2Ġ":4418,"Ġmi4Ġshu1":4419,"Ġnong2Ġye4":4420,"ph":4421,"Ġzhai2":4422,"Ġ2004Ġnian2Ġ":4423,"Ġyi1Ġshi4Ġ":4424,"miao2":4425,"dong1Ġnan2":4426,"Ġjue2Ġsai4":4427,"Ġqun2Ġdao3":4428,"tian2":4429,"Ġwei4Ġgao1":4430,"Ġzi4Ġji3Ġ":4431,"ĠdeĠshen2":4432,"Ġcheng2Ġli4Ġyu2Ġ":4433,"Ġcao2":4434,"xue3":4435,"Ġneng2Ġli4Ġ":4436,"Ġwei1Ġer3":4437,"san1Ġnian2Ġ":4438,"qing1Ġ":4439,"Ġyou2Ġtai4":4440,"Ġshi4Ġnei4":4441,"Ġfen2":4442,"Ġbiao1Ġzhun3Ġ":4443,"Ġdi4Ġ1":4444,"Ġqi2Ġhou4Ġ":4445,"Ġxu2":4446,"qing4":4447,"tui4":4448,"Ġnai4Ġ":4449,"nan2Ġxing4":4450,"niu2":4451,"Ġhua4Ġhe2Ġ":4452,"Ġzhi3Ġneng2":4453,"sun1Ġ":4454,"Ġshi4Ġgong1Ġ":4455,"Ġji1Ġche1":4456,"Ġmi4Ġ":4457,"Ġ188":4458,"Ġyu2Ġ196":4459,"wen3":4460,"Ġtuan2Ġdui4":4461,"suo3Ġyou3":4462,"diao1":4463,"xin1Ġwen2":4464,"nan2Ġzi":4465,"ĠdeĠguo2Ġjia1":4466,"ji3":4467,"Ġwei4Ġyou3":4468,"Ġnv3Ġzi3":4469,"im":4470,"Ġfu1Ġsi1":4471,"eg":4472,"Ġxing2Ġwei2":4473,"Ġduo1Ġge4":4474,"Ġying1Ġyu3Ġ":4475,"kong3":4476,"ĠĠĠcong2":4477,"ao3Ġnian2Ġ":4478,"zui4Ġhou4":4479,"sai4Ġshi4Ġ":4480,"Ġjie1Ġdao4Ġ":4481,"shan4Ġ":4482,"ĠĠĠma3":4483,"ĠdeĠwu4":4484,"Ġshi4Ġren2Ġ":4485,"ĠĠĠxing2Ġzheng4Ġqu1Ġhua4Ġ":4486,"ĠdeĠyou3":4487,"Ġtong3Ġzhi4Ġ":4488,"gang1Ġ":4489,"niao3":4490,"Ġgai3Ġbian1":4491,"xun4Ġlian4Ġ":4492,"Ġji2Ġshi3":4493,"Ġda2Ġdao4Ġ":4494,"Ġgong1Ġzhu3":4495,"Ġwei4Ġfu2Ġqi2Ġyu2Ġ":4496,"ĠĠĠling4":4497,"Ġgong1Ġhui4":4498,"Ġxue4Ġ":4499,"zi3":4500,"Ġ21Ġ":4501,"Ġyu2Ġ195":4502,"Ġdian4Ġshi4Ġtai2":4503,"Ġjie2Ġgou4Ġ":4504,"she4Ġli4Ġ":4505,"fu4Ġjin4":4506,"Ġwang3Ġluo4":4507,"Ġkong1Ġjun1":4508,"ĠdeĠshi2Ġjian1":4509,"ĠdeĠgu4Ġshi4Ġ":4510,"guang3Ġbo1":4511,"Ġshi4Ġzheng4Ġfu3":4512,"duo1Ġ":4513,"ĠdeĠshan1":4514,"Ġnei4Ġrong2Ġ":4515,"Ġguo2Ġjia1Ġ":4516,"Ġao4Ġyun4":4517,"zheng4Ġzhi4Ġren2Ġwu4Ġ":4518,"ding3Ġ":4519,"Ġyi1Ġsheng1":4520,"Ġpai2Ġming2":4521,"Ġti3Ġzhang3Ġke3Ġda2":4522,"Ġbu4Ġzhang3Ġ":4523,"Ġjiao4Ġlian4Ġ":4524,"Ġ29":4525,"Ġ2023Ġnian2Ġ":4526,"XĠ":4527,"Ġbing3Ġ":4528,"Ġjia4Ġzhi2":4529,"Ġzong1Ġ":4530,"Ġren2Ġmin2Ġzheng4Ġfu3":4531,"chong2":4532,"nv3Ġxing4":4533,"Ġdeng1Ġlu4":4534,"an1Ġwei4Ġ":4535,"sun1":4536,"ĠdeĠlian2":4537,"Ġzhan3Ġshi4Ġ":4538,"Ġpao3":4539,"Ġjin4Ġzhi3":4540,"Ġfan3Ġhui2Ġ":4541,"ang":4542,"ne":4543,"ĠĠĠ6":4544,"20Ġshi4Ġji4Ġ":4545,"Ġli3Ġlun4":4546,"Ġbang4":4547,"Ġbi3Ġli4Ġ":4548,"Ġsui4Ġshi2Ġ":4549,"ĠdeĠbiao1":4550,"Ġhe2Ġgong1Ġ":4551,"dao3Ġ":4552,"FĠ":4553,"ĠdeĠfa1":4554,"Ġxing1Ġqi1":4555,"ĠĠĠU":4556,"ĠdeĠzhi1Ġchi2":4557,"ĠdeĠdi4Ġqu1Ġ":4558,"Ġren2Ġwu4":4559,"Ġban3Ġben3Ġ":4560,"ran":4561,"dong1Ġbu4Ġ":4562,"18Ġnian2Ġ":4563,"Ġzui4Ġda4ĠdeĠ":4564,"0Ġmi3Ġ":4565,"7Ġren2Ġ":4566,"shou4Ġdao4":4567,"Ġyang3Ġhua4":4568,"bo2Ġwu4Ġguan3":4569,"xue4":4570,"Ġsheng3Ġfen4Ġ":4571,"Ġwang3Ġzhan4":4572,"Ġzao1Ġdao4":4573,"Ġyou3Ġzhu4":4574,"Ġleng3":4575,"Ġchong1Ġtu1Ġ":4576,"ce4Ġ":4577,"Ġzhong1Ġshan1":4578,"Ġyue1Ġ":4579,"Ġzhe4Ġyang4":4580,"Ġzhao3Ġ":4581,"Ġtai4Ġping2Ġyang2":4582,"Ġcha2Ġ":4583,"Ġsi1Ġla1":4584,"ĠĠĠof":4585,"Ġquan2Ġli4Ġ":4586,"Ġjie3Ġshi4Ġ":4587,"Ġcai3Ġqu3":4588,"Ġgong1Ġlu4Ġ":4589,"Ġxian4Ġwei4Ġ":4590,"Ġyou2Ġzheng4Ġbian1Ġma3Ġwei4Ġ":4591,"Ġju1Ġzhu4":4592,"shang1":4593,"Ġying4Ġyong4":4594,"ĠĠĠ2024Ġnian2Ġ":4595,"Ġbu4Ġshao3":4596,"Ġshi2Ġjian1Ġ":4597,"Ġchao1Ġji2Ġ":4598,"ji4Ġhua4":4599,"qiao2":4600,"Ġzhi4Ġdu4":4601,"Ġ22":4602,"Ġer4Ġnian2Ġ":4603,"ni2Ġ":4604,"Ġzhuo1":4605,"ĠCh":4606,"Ġxuan3Ġju3":4607,"ping2Ġ":4608,"ĠdeĠdao4":4609,"ĠdeĠge4":4610,"pa4":4611,"ying3Ġpian4Ġ":4612,"Ġhuan3Ġ":4613,"Ġbei3Ġqi3":4614,"Ġhe2Ġzhong1Ġ":4615,"ĠdeĠbian1":4616,"Ġqiao2Ġzhi4Ġ":4617,"mai4":4618,"Ġzai4Ġxin1":4619,"Ġdi4Ġwei4Ġ":4620,"Ġfo2Ġjiao4":4621,"Ġtian1Ġzhu3Ġjiao4":4622,"kong4":4623,"ji4Ġshu4":4624,"Ġgou4Ġmai3":4625,"Ġshao3Ġshu4":4626,"OĠ":4627,"ao4Ġlin2Ġpi3Ġke4Ġyun4Ġdong4Ġhui4":4628,"Ġming2Ġzhi4Ġ":4629,"Ġlu4Ġxian4Ġ":4630,"bai2":4631,"ĠĠĠgai4Ġ":4632,"jiang4Ġ":4633,"Ġshe4Ġbei4":4634,"kuo4":4635,"lei1Ġ":4636,"Ġsi3Ġwang2":4637,"sou1":4638,"ĠdeĠguo2Ġ":4639,"ĠdeĠsheng4":4640,"Ġyi3Ġse4Ġlie4":4641,"Ġgai4Ġnian4Ġ":4642,"de2Ġ":4643,"Ġci3Ġwai4":4644,"ĠdeĠshi2Ġqu1Ġwei4Ġ":4645,"ay":4646,"tic":4647,"lu4Ġjun1":4648,"zhi4Ġzuo4":4649,"Ġguang3Ġchang3":4650,"enĠ":4651,"Ġji1Ġhe2Ġ":4652,"Ġnian4Ġ":4653,"Ġjuan1Ġ":4654,"indow":4655,"Ġxi1Ġsheng3":4656,"Ġchu1Ġsheng1":4657,"Ġjie1Ġwei4Ġ":4658,"Ġ2000Ġnian2Ġ":4659,"Ġen1Ġ":4660,"cheng2ĠdeĠ":4661,"Ġguo4Ġcheng2Ġ":4662,"Ġgou3":4663,"Ġquan2Ġzhang3":4664,"Ġtui1Ġdong4":4665,"Ġhe2Ġta1":4666,"Ġdi4Ġyi2Ġge4":4667,"Ġnei4Ġbu4Ġ":4668,"kan1Ġ":4669,"yi3Ġjing1":4670,"Ġbao4Ġgao4Ġ":4671,"ĠdeĠchang2":4672,"ĠtwĠ":4673,"Ġshi2Ġjiu3":4674,"Ġda4Ġlou2":4675,"Ġling4Ġyi1Ġ":4676,"Ġxi2Ġji1":4677,"wei4Ġshi4Ġ":4678,"Ġzai4Ġ202":4679,"Ġgong1Ġzhong4":4680,"ĠhansĠ":4681,"Ġji1Ġguan1":4682,"Ġfen1Ġwei2":4683,"Ġer3Ġsheng3Ġ":4684,"sen1":4685,"neng2Ġgou4":4686,"Ġru3Ġ":4687,"ĠdeĠqing1":4688,"jia3":4689,"Ġshuai1":4690,"Ġfa3Ġlv4":4691,"Ġqing1Ġ":4692,"zhan3Ġ":4693,"Ġjiang1Ġsu1Ġ":4694,"Ġzhi3Ġchu1Ġ":4695,"Ġxian4Ġren4":4696,"du2Ġli4Ġ":4697,"Ġxing2Ġche1":4698,"ci2":4699,"ĠdeĠzong3":4700,"Ġdan1Ġqu1Ġ":4701,"ĠĠĠping2":4702,"Ġbao3Ġliu2":4703,"Ġbu4Ġming2Ġ":4704,"Ġlang4Ġ":4705,"ĠdeĠqi2Ġzhong1Ġyi1Ġ":4706,"su1Ġlian2":4707,"ĠdeĠguo4":4708,"Ġma3Ġlai2Ġxi1Ġya4":4709,"Ġqi4Ġche1":4710,"Ġdao3Ġyan3":4711,"Ġchu1Ġxian4Ġzai4Ġ":4712,"Ġhu2Ġbei3":4713,"Ġtang1Ġ":4714,"ĠĠĠdeĠshi2Ġ":4715,"32":4716,"min3":4717,"Ġzhan4Ġshi4Ġ":4718,"Ġzheng1Ġyi4Ġ":4719,"da3Ġ":4720,"ĠdeĠzhuan1Ġ":4721,"Ġzai4Ġwei4Ġ":4722,"Ġgong1Ġmin2":4723,"5Ġri4":4724,"Ġfang3Ġwen4":4725,"8Ġren2Ġ":4726,"jie1Ġ":4727,"ï¼ı":4728,"yun3":4729,"xue2Ġ":4730,"Ġke4Ġla1":4731,"Ġzun1Ġ":4732,"wei3Ġ":4733,"Ġshen1Ġfen4":4734,"Ġzhi1Ġzhong1Ġ":4735,"gong1Ġyuan2":4736,"Ġzhe4Ġci4":4737,"Ġjie2Ġzhi4Ġ":4738,"Ġjin1Ġshu3":4739,"Ġbi3Ġjiao4":4740,"Ġli4Ġhe2Ġ":4741,"Ġshi2Ġer4Ġnian2Ġ":4742,"ĠĠĠdang1":4743,"Ġzui4Ġduo1":4744,"Ġta1Ġhai2":4745,"Ġguan1Ġzhong4":4746,"quan4Ġ":4747,"Ġ2002Ġnian2Ġ":4748,"xu3Ġ":4749,"Ġwei4Ġqi2":4750,"Ġmang2Ġ":4751,"Ġda4Ġxi1Ġyang2":4752,"ĠdeĠxiao1":4753,"NĠ":4754,"Ġji2Ġbing4":4755,"Ġxiu1Ġgai3":4756,"Ġji1Ġbai4Ġ":4757,"Ġyuan2Ġzi4":4758,"ĠĠĠyue4":4759,"ĠdeĠjiao1":4760,"ĠĠĠdeĠyou2Ġzheng4Ġbian1Ġma3Ġwei4Ġ":4761,"ĠĠĠyu3Ġjie1Ġrang3ĠdeĠshi4Ġzhen4Ġ":4762,"ĠĠĠyu2Ġshi2ĠdeĠren2Ġkou3Ġshu4Ġliang4Ġwei4Ġren2Ġ":4763,"ĠĠĠsuo3Ġshu3ĠdeĠsheng3Ġji2Ġxuan3Ġqu1Ġwei4Ġ":4764,"ĠĠĠdeĠshi2Ġqu1Ġwei4Ġ":4765,"us":4766,"ĠÑ":4767,"Ġsang1":4768,"6Ġren2Ġ":4769,"ali":4770,"kao3Ġ":4771,"ĠĠĠ192":4772,"shuo1Ġ":4773,"chong2Ġ":4774,"nie4":4775,"NA":4776,"ku4":4777,"Ġwei4Ġji1":4778,"Ġquan1Ġ":4779,"Ġxia4Ġxia2":4780,"iv":4781,"wei2Ġyi1Ġ":4782,"Ġda4Ġhui4Ġ":4783,"Ġgong1Ġyuan2Ġ":4784,"wo4":4785,"Ġhun4Ġ":4786,"Ġsi4Ġnian2Ġ":4787,"fa1Ġbiao3":4788,"Ġhe2Ġcheng2Ġ":4789,"Ġyue4Ġtuan2":4790,"Ġzhu3Ġti2":4791,"Ġsun3":4792,"xian1Ġ":4793,"ber":4794,"lv3Ġ":4795,"rang4Ġ":4796,"ãĥ":4797,"Ġpu4":4798,"Ġyao4Ġ":4799,"Ġshi4Ġwei4Ġle":4800,"zhu3Ġyi4Ġ":4801,"kan4Ġ":4802,"Ġzhi3Ġchu1":4803,"ĠdeĠzhen1":4804,"Ġdang1Ġxuan3":4805,"Ġyu3Ġqi2":4806,"Ġshou1Ġru4":4807,"Ġri4Ġben3Ġ":4808,"bo1Ġlan2":4809,"Ġsu2Ġ":4810,"Ġshan3Ġxi1":4811,"Ġhe2Ġgu3":4812,"Ġge1Ġshou3":4813,"ai":4814,"Ġtai4Ġyang2":4815,"ĠĠĠw":4816,"guan1Ġyu2Ġ":4817,"ĠdeĠbian4":4818,"Ġdong1Ġlin2":4819,"chi2Ġxu4":4820,"Ġshe4Ġyou3":4821,"Ġtu2Ġshu1":4822,"Ġdi4Ġ2":4823,"Ġyi4Ġshi2Ġ":4824,"Ġting2Ġzhi3":4825,"Ġyi1Ġji2":4826,"Ġmao2Ġqiu2":4827,"qin1":4828,"ĠhkĠ":4829,"Ġzai4Ġri4Ġben3":4830,"Ġ2003Ġnian2Ġ":4831,"jue2Ġse4":4832,"ĠdeĠdan1":4833,"Ġli4Ġshu3":4834,"la1Ġ":4835,"Ġmie4Ġ":4836,"qu4Ġ":4837,"Ġzai4Ġna4":4838,"ĠĠĠ2011Ġnian2Ġ":4839,"55":4840,"juan3Ġ":4841,"ĠdeĠduo1":4842,"ĠdeĠfu2":4843,"Ġshi4Ġta1":4844,"Ġnei4Ġrong2":4845,"ĠdeĠshi1":4846,"ĠdeĠma3":4847,"Ġdai4Ġlai2":4848,"Ġtian1Ġwen2":4849,"Ġyun4Ġdong4Ġ":4850,"Ġlou4":4851,"rang4":4852,"Ġshi4Ġqi2":4853,"ĠdeĠzhong4":4854,"Ġshi4Ġhou4":4855,"Ġwu2Ġxian4Ġ":4856,"Ġta1Ġceng2Ġdai4Ġbiao3":4857,"Ġxiao3Ġshuo1":4858,"alĠ":4859,"Ġyin2Ġhang2":4860,"ĠdeĠxiang1":4861,"Ġzhai1":4862,"lian2Ġxu4":4863,"Ġgong4Ġchan3":4864,"Ġyi2Ġdu4":4865,"ĠdeĠqiu2":4866,"Ġsi":4867,"Ġbian1Ġhao4":4868,"shuai4":4869,"Ġzui4Ġzao3":4870,"Ġda4Ġgui1Ġmo2":4871,"Ġge1Ġqu3Ġ":4872,"Ġya2Ġ":4873,"Ġshi4Ġgu4":4874,"dong1Ġ":4875,"Ġjian4Ġzhi4Ġdi4Ġqu1Ġ":4876,"song1":4877,"Ġyi3Ġbei4":4878,"Ġdian4Ġtai2":4879,"der":4880,"20Ġ":4881,"jing1Ġli4Ġ":4882,"Ġyuan2Ġshi4Ġ":4883,"tian1Ġzhu3Ġjiao4":4884,"Ġgong1Ġren2Ġ":4885,"da2Ġ":4886,"Ġshi2Ġji4Ġshang4":4887,"ĠĠĠba1":4888,"dian4Ġzi":4889,"Ġyou3Ġliang3":4890,"zi4Ġran2":4891,"Ġcao2Ġ":4892,"Ġwen2Ġwu4Ġbao3Ġhu4Ġdan1Ġwei4Ġ":4893,"Ġyu2Ġle4":4894,"mie4Ġ":4895,"tian1Ġjin1":4896,"xing1Ġ":4897,"Ġzhi3Ġzai4Ġ":4898,"Ġnie4":4899,"Ġjie2Ġke4":4900,"ĠdeĠshuo1":4901,"Ġlu2Ġwa3Ġer3":4902,"sheng1Ġhuo2Ġ":4903,"ĠĠĠ2010Ġnian2Ġ":4904,"ent":4905,"tong2Ġ":4906,"Ġli3Ġlun4Ġ":4907,"Ġzhi2Ġxing2Ġ":4908,"ĠdeĠchuan2":4909,"Ġguo4Ġqu4":4910,"Ġsheng3Ġhe2Ġ":4911,"ĠĠĠyi3Ġxia4":4912,"Ġren2Ġwu4Ġ":4913,"Ġwa2":4914,"Ġwei2Ġyi1Ġ":4915,"Ġfu4Ġze2Ġguan3Ġxia2Ġ":4916,"Ġfan3Ġying4Ġ":4917,"BC":4918,"10Ġnian2Ġ":4919,"ĠdeĠke4":4920,"xi1Ġbu4Ġ":4921,"Ġdi4Ġliu4":4922,"Ġbing4Ġli4Ġ":4923,"Ġshi4Ġqu1Ġ":4924,"ot":4925,"re4Ġ":4926,"chu3":4927,"Ġhou4Ġbei4":4928,"ĠdeĠfa1Ġzhan3Ġ":4929,"ĠdeĠzuo4Ġpin3Ġ":4930,"xiu1Ġ":4931,"Ġzhong1Ġbei4":4932,"Ġde2Ġli3":4933,"Ġlie4Ġwei4Ġ":4934,"Ġhao4Ġxian4Ġ":4935,"Ġfan1Ġyi4":4936,"ĠĠĠgen1Ġju4Ġ":4937,"ĠĠĠzhong1Ġguo2Ġ":4938,"Ġnv3Ġzi3Ġ":4939,"Ġmai4Ġke4":4940,"Ġye3Ġbei4":4941,"Ġniu2":4942,"Ġpu2Ġtao2Ġya2":4943,"Ġda4Ġzhi4Ġ":4944,"Ġjian4Ġcheng2Ġ":4945,"Ġzi1Ġ":4946,"ĠĠĠchu1":4947,"dong4Ġhua4":4948,"yang4":4949,"yong4Ġ":4950,"hua1Ġ":4951,"Ġzui4Ġ":4952,"Ġya2Ġli4Ġ":4953,"Ġyan2Ġjiu1Ġsuo3":4954,"Ġao4Ġmen2":4955,"un1Ġ":4956,"tian1Ġwen2":4957,"Ġbing4Ġru4":4958,"bu3Ġ":4959,"Ġduo3":4960,"Ġzuo4Ġyong4Ġ":4961,"Ġdang1Ġshi2":4962,"Ġqi1Ġxi1Ġzai4Ġ":4963,"ĠĠĠzhan4":4964,"Ġjie1Ġjin4":4965,"Ġzhan4Ġyi4Ġ":4966,"ĠĠĠjian4":4967,"ĠdeĠren4":4968,"Ġshi4Ġdui4":4969,"ĠdeĠri4":4970,"ĠĠĠhou4":4971,"Ġqia4":4972,"Ġdi4Ġya4":4973,"Ġsi1Ġtuo1":4974,"Ġqing1Ġchao2":4975,"lu3Ġ":4976,"Ġgai3Ġge2":4977,"Ġzai4Ġ197":4978,"Ġdi4Ġqi1":4979,"Ġhe2Ġshi2Ġ":4980,"Ġkui4":4981,"Ġyi4Ġren2Ġ":4982,"Ġfeng1Ġge2":4983,"Ġsa1":4984,"Ġtiao3":4985,"Ġzheng4Ġzhi4":4986,"ĠĠĠ8":4987,"Ġbo1Ġchu1Ġ":4988,"1Ġri4":4989,"jia4":4990,"chi4":4991,"ĠdeĠzhi1":4992,"Ġsan3Ġ":4993,"Ġjiao4Ġtang2Ġ":4994,"ĠdeĠshi2Ġhou4Ġ":4995,"Ġbu4Ġbing1":4996,"Ġda4Ġchen2":4997,"Ġjian4Ġzao4":4998,"Ġying1Ġge2Ġlan2":4999,"ĠdeĠdong1":5000,"Ġbu4Ġluo4":5001,"Ġxun1Ġ":5002,"Ġfang4Ġqi4":5003,"ĠĠĠzhĠ":5004,"Ġcong2Ġshi4Ġ":5005,"Ġbo1Ġlan2":5006,"Ġtui4Ġ":5007,"Ġjia1Ġting2Ġ":5008,"Ġying1Ġgai1":5009,"Ġbu4Ġzu2":5010,"gong1Ġzuo4":5011,"Ġguo2Ġhe2Ġ":5012,"xi4Ġtong3Ġ":5013,"ceĠ":5014,"chun1Ġ":5015,"ĠdeĠsi4":5016,"Ġ187":5017,"nong2Ġye4":5018,"ao4Ġmen2":5019,"Ġzhui4":5020,"xia4Ġwu3":5021,"Ġjiao1Ġ":5022,"Ġweng1":5023,"39":5024,"bang1Ġ":5025,"Ġwu2Ġren2Ġ":5026,"Ġli4Ġfu2":5027,"Ġao4Ġda4Ġli4Ġya4":5028,"ge2Ġ":5029,"wang3Ġluo4":5030,"Ġwei4Ġ2":5031,"Ġhai2Ġyou3":5032,"LĠ":5033,"shen1Ġfen4":5034,"Ġshi4Ġzui4":5035,"guan1Ġxi4":5036,"yan2Ġzhong4":5037,"Ġshi2Ġyi1Ġnian2Ġ":5038,"gui4":5039,"Ġjun1Ġzai4Ġ":5040,"Ġwei4Ġxin1":5041,"Ġchou1":5042,"Ġyi2Ġ":5043,"Ġyi3Ġlai2Ġ":5044,"Ġhe2Ġbu4Ġ":5045,"Ġgao3Ġ":5046,"Ġran3Ġ":5047,"Ġmei3Ġni2Ġya4":5048,"su4Ġdu4":5049,"Ġnu3Ġ":5050,"Ġzu3Ġhe2Ġ":5051,"asĠĠĠ":5052,"tu3Ġ":5053,"kun1":5054,"Ġwen2Ġming2Ġ":5055,"Ġren4Ġwu4Ġ":5056,"qiao2Ġ":5057,"ĠdeĠmei3":5058,"bao4Ġgao4Ġ":5059,"Ġzhong1Ġgong4Ġzhong1Ġyang1Ġ":5060,"bin1":5061,"Ġqiong2":5062,"Ġshi4Ġyu2Ġ":5063,"cuo4":5064,"dou4":5065,"Ġhe2Ġda4":5066,"Ġran2Ġhou4Ġ":5067,"Ġ186":5068,"ĠĠĠzhu4":5069,"ĠĠĠjia1Ġzu2Ġ":5070,"Ġzhu3Ġren4":5071,"Ġbao4Ġdao4Ġ":5072,"ĠdeĠkong1":5073,"jing3Ġ":5074,"jie2Ġmu4Ġ":5075,"Ġbiao3Ġyan3":5076,"Ġsheng4Ġli4Ġ":5077,"47":5078,"xi2":5079,"Ġzhong1Ġyu2Ġ":5080,"7Ġri4":5081,"Ġquan4Ġ":5082,"Ġzhong1Ġshi4Ġ":5083,"Ġji2Ġshi4Ġ":5084,"yao1Ġqiu2":5085,"gei3":5086,"Ġgong1Ġchang3":5087,"Ġxi1Ġwang4":5088,"Ġer3Ġte4":5089,"Ġren4Ġwu4":5090,"Ġqi2Ġzhong1Ġbao1Ġkuo4":5091,"Ġshi4Ġyi1Ġke1":5092,"jin4Ġ":5093,"ĠdeĠxuan3":5094,"Ġkun4Ġ":5095,"Ġchi2Ġ":5096,"Ġ2024Ġnian2Ġ":5097,"ao4Ġda4Ġli4Ġya4":5098,"Ġyin1Ġyue4":5099,"Ġshe4Ġshi1Ġ":5100,"Ġzhou1Ġnian2Ġ":5101,"Ġjian3Ġshao3":5102,"6Ġri4":5103,"Ġzha1Ġ":5104,"Ġli4Ġshi3Ġshang4":5105,"ack":5106,"Ġyi1Ġyuan4Ġ":5107,"Ġyi1Ġzuo4":5108,"Ġcai2Ġneng2":5109,"2020Ġnian2Ġmei3Ġguo2Ġren2Ġkou3Ġpu3Ġcha2ĠdeĠshu4Ġju4Ġ":5110,"Ġxi1Ġfang1":5111,"Ġlin2Ġshi2Ġ":5112,"Ġyi1Ġsi1Ġlan2":5113,"Ġming4Ġming2Ġwei4Ġ":5114,"and":5115,"33":5116,"bin1Ġ":5117,"Ġtou1":5118,"0Ġmi3":5119,"ĠdeĠqi1":5120,"ĠĠĠcan1":5121,"Ġzheng4Ġfu3Ġ":5122,"--":5123,"og":5124,"ĠĠĠ7":5125,"er4Ġnian2Ġ":5126,"Ġwei4Ġdui4":5127,"Ġqu3Ġdai4":5128,"Ġda4Ġxing2":5129,"Ġchuan4Ġ":5130,"tan3Ġ":5131,"Ġda4Ġduo1":5132,"Ġxing1Ġjian4":5133,"ĠCĠ":5134,"piao4":5135,"ĠdeĠshu1":5136,"Ġnan2Ġzhi4Ġ":5137,"Ġbu4Ġjin3":5138,"ed":5139,"ya3":5140,"Ġda4Ġqu1":5141,"Ġchu1Ġqi1":5142,"Ġjing1Ġli4Ġ":5143,"Ġming4Ġ":5144,"OS":5145,"Ġdan4Ġyou2Ġyu2Ġ":5146,"ĠdeĠhuo2":5147,"e2Ġ":5148,"yan3Ġchang4":5149,"Ġpi4":5150,"Ġjun1Ġwei4Ġ":5151,"Ġfa3Ġan4Ġ":5152,"193":5153,"Ġpen1":5154,"Ġjian4Ġyi4Ġ":5155,"Ġxiao1Ġshou4":5156,"Ġye3Ġyou3":5157,"ĠĠĠzao3Ġnian2Ġ":5158,"pan4Ġ":5159,"Ġguan1Ġcha2":5160,"Ġsong4Ġ":5161,"ew":5162,"Ġwu3Ġnian2Ġ":5163,"che4":5164,"tong2Ġyi1Ġ":5165,"Ġxian3ĠdeĠ":5166,"Ġdian1Ġ":5167,"Ġ300":5168,"ĠdeĠfan4Ġ":5169,"jie2Ġgou4":5170,"isĠĠĠ":5171,"Ġzhi4Ġli4Ġ":5172,"Ġmiao3Ġ":5173,"Ġyi3Ġhou4Ġ":5174,"Ġ80":5175,"Ġming2Ġchao2Ġzheng4Ġzhi4Ġren2Ġwu4Ġ":5176,"xiang1Ġdang1":5177,"sun3Ġ":5178,"Ġseng1":5179,"deng3Ġren2Ġ":5180,"Ġjiang1Ġjun1Ġ":5181,"Ġzhi4Ġwei4Ġ":5182,"Ġbu4Ġdui4Ġ":5183,"pai1":5184,"po4Ġ":5185,"qin2":5186,"Ġshi4Ġge4":5187,"Ġhui4Ġbei4":5188,"orĠ":5189,"Ġlong2Ġjiang1":5190,"wan2Ġquan2":5191,"Ġyuan2Ġlai2":5192,"Ġbiao3Ġda2":5193,"Ġtou2Ġru4":5194,"ĠdeĠshang1Ġ":5195,"Ġshi4Ġwei1Ġ":5196,"Ġche1Ġliang4":5197,"Ġji4Ġshu4Ġ":5198,"Ġjin4Ġxing2Ġle":5199,"per":5200,"u3Ġdi4Ġ":5201,"Ġsi1Ġlin2":5202,"id":5203,"Ġ45":5204,"nv3Ġzi3":5205,"Ġjiu1":5206,"Ġshi3Ġjian4Ġyu2Ġ":5207,"Ġwan2Ġjia1Ġ":5208,"Ġyou4Ġming2Ġ":5209,"Ġchuang4Ġban4":5210,"Ġhou4Ġxuan3Ġren2Ġ":5211,"xiao3Ġshuo1":5212,"Ġzai4Ġnan2":5213,"Ġzhan4Ġzheng1Ġ":5214,"ĠdeĠxin4":5215,"Ġji2Ġzhou1":5216,"Ġyi4Ġyi4Ġ":5217,"Ġzhi3Ġyou3":5218,"Ġhe2Ġma3":5219,"Ġcheng2Ġxu4":5220,"Ġcai2Ġzheng4":5221,"Ġsheng1Ġhuo2Ġ":5222,"Ġyu2Ġ193":5223,"Ġqiang3":5224,"Ġzhou1Ġbian1":5225,"Ġdong4Ġwu4Ġ":5226,"ba3":5227,"bo1Ġ":5228,"Ġhe2Ġhe2Ġ":5229,"Ġkai1Ġshi3Ġ":5230,"Ġyi1Ġzhi1":5231,"di1Ġ":5232,"bu2":5233,"Ġli3Ġsi1Ġ":5234,"Ġbing4Ġ":5235,"nai3":5236,"Ġshi4Ġzhang3":5237,"Ġyi1Ġjia1":5238,"Ġzhuan1Ġmen2":5239,"Ġ1998Ġnian2Ġ":5240,"4Ġri4":5241,"bu4Ġzai4Ġ":5242,"Ġji2Ġshi2Ġ":5243,"Ġli4Ġren4":5244,"Ġcui1Ġ":5245,"Ġshi2Ġsi4Ġnian2Ġ":5246,"shan1Ġdong1":5247,"Ġwei4Ġda4":5248,"Ġzhi4Ġliao2Ġ":5249,"ĠdeĠzong1":5250,"shi2Ġqi1Ġ":5251,"lv3Ġyou2":5252,"Ġhu3":5253,"Ġzhong1Ġzui4":5254,"Ġyong4Ġzuo4":5255,"Ġhai3Ġan4Ġ":5256,"Ġ1999Ġnian2Ġ":5257,"yun4Ġdong4Ġyuan2Ġ":5258,"Ġxing2Ġwei2Ġ":5259,"Ġcan1Ġmou2":5260,"Ġshi2Ġsan1Ġnian2Ġ":5261,"Ġjia1Ġting2":5262,"Ġgao1Ġzhong1Ġ":5263,"Ġshi4Ġyan4Ġ":5264,"Ġqin2Ġ":5265,"niu2Ġ":5266,"Ġshi1Ġqu4":5267,"AS":5268,"xiao1":5269,"yin4":5270,"guan1Ġfang1":5271,"ĠdeĠyin1":5272,"Ġshen2Ġjing1":5273,"ĠĠĠ2008Ġnian2Ġ":5274,"sheng1Ġchan3":5275,"Ġan1Ġde2":5276,"Ġlun2Ġbi3Ġya4":5277,"Ġ36":5278,"Ġzhi4Ġding4":5279,"Ġfeng1Ġbao4":5280,"Ġpo4Ġhuai4Ġ":5281,"Ġleng3Ġ":5282,"Ġxuan1Ġchuan2":5283,"Ġdu3Ġ":5284,"gai3Ġge2":5285,"Ġzai4Ġxian4":5286,"Ġda4Ġfu2":5287,"Ġyi1Ġchang2":5288,"Ġxin4Ġxi1Ġ":5289,"2016Ġnian2Ġ":5290,"Ġpu3Ġ":5291,"Ġzheng3Ġti3":5292,"Ġpai2Ġming2Ġ":5293,"ao3Ġjie3":5294,"geng1":5295,"Ġji2Ġhe2Ġ":5296,"Ġmao4Ġyi4Ġ":5297,"Ġyou3Ġduo1":5298,"Ġke4Ġyun4":5299,"Ġsi1Ġma3":5300,"Ġgai3Ġwei2Ġ":5301,"Ġou3":5302,"Ġwei4Ġzhu3":5303,"Ġfa1Ġqi3":5304,"Ġyan3Ġchang4":5305,"Ġkuai4Ġsu4":5306,"Ġque4Ġding4":5307,"miao4Ġ":5308,"jing1Ġji4":5309,"ĠdeĠli4Ġshi3":5310,"zhong1Ġxin1":5311,"Ġzhi2Ġmin2":5312,"Ġniao3Ġ":5313,"Ġzai4Ġba1":5314,"Ġzai4Ġxiang1Ġgang3":5315,"Ġhao4Ġxian4":5316,"Ġshi4Ġyin1Ġwei4Ġ":5317,"Ġji1Ġdu1Ġjiao4":5318,"Ġcheng2Ġke4":5319,"Ġgao1Ġdeng3":5320,"Ġlian2Ġhe2Ġguo2Ġ":5321,"min2Ġ":5322,"Ġzuo4Ġyong4":5323,"bi4Ġye4Ġyu2Ġ":5324,"Ġren2Ġyuan2Ġ":5325,"Ġxi1Ġjie1":5326,"Ġwang2Ġguo2Ġ":5327,"gao1Ġsu4":5328,"Ġbu4Ġli3":5329,"Ġbiao3Ġxian4":5330,"Ġwan2Ġzheng3":5331,"Ġheng1Ġli4Ġ":5332,"Ġjie4Ġquan2Ġguo2Ġ":5333,"85":5334,"Ġshe4Ġshi1":5335,"kai3":5336,"ĠĠĠzheng4":5337,"neng2Ġ":5338,"Ġzi1Ġge2Ġ":5339,"ting1Ġ":5340,"ĠĠĠn":5341,"Ġpu3Ġtong1":5342,"ĠdeĠjie3":5343,"Ġche4Ġxiao1":5344,"95":5345,"ĠĠĠsheng4":5346,"ĠdeĠqi3":5347,"Ġke4Ġcheng2Ġ":5348,"Ġmu4Ġbiao1":5349,"Ġguo4Ġ":5350,"ĠdeĠguan1Ġxi4Ġ":5351,"Ġpin2Ġdao4Ġ":5352,"yan4Ġshi4Ġ":5353,"ĠĠĠqian2":5354,"Ġyi1Ġduan4Ġ":5355,"ĠdeĠbu4Ġfen4":5356,"ju3Ġren2Ġ":5357,"shou4Ġdao4Ġ":5358,"ying1Ġwen2":5359,"ge1Ġqu3":5360,"Ġfa1Ġchu1":5361,"Ġà":5362,"ĠdeĠjin1":5363,"Ġjue2Ġse4Ġ":5364,"Ġhan2Ġshu4":5365,"Ġping2Ġfang1Ġmi3Ġ":5366,"Ġxu4Ġ":5367,"Ġcun2Ġ":5368,"cun2Ġzai4Ġ":5369,"ceng2Ġjing1":5370,"Ġzai4Ġ196":5371,"Ġchong2Ġqing4":5372,"Ġxing2Ġzheng4Ġqu1Ġ":5373,"Ġlie4Ġche1Ġ":5374,"Ġshu2":5375,"Ġyuan2Ġwei4Ġ":5376,"Ġjiao4Ġqu1Ġ":5377,"ff":5378,"di4Ġqu1":5379,"Ġyi1Ġdai4":5380,"Ġzhuang1Ġbei4":5381,"dian4Ġshi4Ġtai2":5382,"cun1":5383,"Ġzai4Ġ194":5384,"shui3Ġ":5385,"Ġrou2":5386,"Ġzhou1ĠdeĠ":5387,"Ġjie1Ġrang3Ġ":5388,"Ġming2Ġdan1Ġ":5389,"ĠAĠ":5390,"Ġzhong1Ġguo2Ġren2Ġmin2Ġjie3Ġfang4Ġjun1":5391,"1Ġyue4Ġ1Ġri4Ġ":5392,"gu3Ġ":5393,"Ġfa1Ġdian4":5394,"Ġwen3Ġding4":5395,"Ġsi1Ġji1":5396,"tan4Ġ":5397,"pu3Ġtong1":5398,"ĠdeĠxiao4":5399,"lun2Ġdun1":5400,"Ġ2001Ġnian2Ġren2Ġkou3":5401,"ĠdeĠqi4":5402,"ĠĠĠ2025Ġnian2Ġ":5403,"cheng2Ġgong1Ġ":5404,"Ġzhi4Ġshao3":5405,"Ġsi1Ġfa3":5406,"Ġgui3Ġdao4Ġ":5407,"ĠĠĠyin1":5408,"ĠĠĠte4":5409,"Ġxi3Ġhuan1Ġ":5410,"Ġqiu2Ġyuan2Ġ":5411,"zhao1":5412,"Ġchou3":5413,"Ġzhan4Ġling3":5414,"lan2Ġ":5415,"Ġbu4Ġzhi1":5416,"Ġtong3Ġji4Ġ":5417,"Ġren2Ġhe2Ġ":5418,"ĠĠĠxia4":5419,"Ġyong4Ġhu4":5420,"St":5421,"ĠdeĠbi3":5422,"Ġbu4Ġbu4Ġ":5423,"Ġque1Ġfa2":5424,"ĠĠĠ2009Ġnian2Ġ":5425,"Ġlao2Ġdong4":5426,"zhong1Ġyang1Ġ":5427,"Ġming2Ġxian3Ġ":5428,"Ġying1Ġ":5429,"Ġxiu1Ġjian4":5430,"Ġguang1Ġxu4":5431,"Ġxun4Ġsu4":5432,"Ġwa1Ġ":5433,"Ġgai3Ġbian4":5434,"ĠdeĠgai4Ġ":5435,"zuo4Ġpin3":5436,"Ġzui4Ġjia1":5437,"3Ġge4":5438,"ĠdeĠnian2":5439,"Ġping2Ġlun4":5440,"Ġjia1Ġla1":5441,"Ġte4Ġshu1":5442,"Ġxun2Ġhui2Ġ":5443,"Ġtian2Ġ":5444,"Ġgong4Ġhe2Ġguo2":5445,"Ġer2Ġshui3Ġyu4Ġmian4Ġji1Ġwei4Ġ0":5446,"ãĥ»":5447,"ÃĹ":5448,"Ġsheng1Ġcheng1":5449,"Ġyuan2Ġsu4":5450,"ĠdeĠhuo3":5451,"Ġbu4Ġjiu3":5452,"ĠdeĠqi2Ġzhong1Ġyi1Ġzhong3Ġ":5453,"fa3Ġlv4":5454,"Ġda4Ġwei4Ġ":5455,"Ġtiao2Ġjian4":5456,"wen4Ġti2":5457,"ĠĠĠqing1":5458,"Ġren2Ġkou3Ġmi4Ġdu4Ġmei3Ġping2Ġfang1Ġgong1Ġli3Ġ":5459,"ĠĠĠfu2":5460,"ĠdeĠn":5461,"Ġne4":5462,"Ġtong3Ġyi1Ġ":5463,"Ġyun2Ġnan2":5464,"ĠĠĠer2":5465,"Ġdeng1Ġshang4":5466,"Ġ70":5467,"guan4Ġjun1Ġ":5468,"quan2Ġli4Ġ":5469,"ĠdeĠyu4":5470,"Ġsi1Ġke4":5471,"ci3Ġ":5472,"yan1Ġ":5473,"Ġzhi2Ġxing2":5474,"Ġxiao3Ġzu3":5475,"Ġgou4Ġcheng2Ġ":5476,"dun1":5477,"Ġwan4Ġli4Ġ":5478,"Ġpu3Ġbian4":5479,"hun1":5480,"Ġbu4Ġlai2":5481,"zhong4Ġ":5482,"Ġshi4Ġye4":5483,"Ġping2Ġfang1Ġqian1Ġmi3":5484,"Ġfu4Ġza2":5485,"guang3Ġzhou1":5486,"ĠĠĠzeng1":5487,"gai3Ġwei2":5488,"Ġxian4Ġchang3":5489,"dong4Ġwu4":5490,"Ġwang3Ġ":5491,"si4Ġ":5492,"ĠdeĠcun1":5493,"shi2Ġnian2Ġ":5494,"chu1Ġxian4Ġ":5495,"Ġwu4Ġzhong3Ġ":5496,"Ġshi4Ġyi1Ġzuo4":5497,"ĠĠĠdi4Ġer4":5498,"Ġer2Ġgai1Ġdi4Ġ":5499,"ĠdeĠshang4":5500,"ĠdeĠdai4":5501,"Ġcong1":5502,"Ġwei2Ġqi2":5503,"Ġjiang3Ġshu4":5504,"Ġkao3Ġlv4":5505,"49":5506,"oh":5507,"Ġceng2Ġzai4Ġ":5508,"Ġzong3Ġli3":5509,"Ġgen1Ġ":5510,"BA":5511,"zhan4Ġdou4":5512,"Ġmao1":5513,"gui3Ġdao4Ġ":5514,"ji1Ġchang3":5515,"Ġke4Ġluo2":5516,"Ġ10Ġ":5517,"feng4":5518,"ĠdeĠjun1":5519,"ell":5520,"Ġming2Ġzi4":5521,"jiu4Ġshi4Ġ":5522,"sp":5523,"yi2Ġzhi4Ġ":5524,"gai1Ġdi4Ġ":5525,"Ġta1Ġyu3Ġ":5526,"a1Ġla1Ġbo2":5527,"ea":5528,"ĠĠĠyan2":5529,"ĠĠĠxiang1Ġgang3":5530,"Ġsu4Ġdu4":5531,"fu4Ġqin1":5532,"Ġer2Ġfei1":5533,"Ġlun2Ġdun1":5534,"Ġbiao1Ġzhi4Ġ":5535,"Ġjian3Ġshao3Ġ":5536,"Ġmi3Ġer3":5537,"ĠdeĠzu3":5538,"Ġzhai4Ġ":5539,"Ġcheng2Ġgong1":5540,"Ġti2Ġgong1":5541,"Ġchui2Ġ":5542,"Ġji3Ġge4":5543,"Ġer2Ġren2Ġkou3Ġmi4Ġdu4Ġwei4Ġmei3Ġping2Ġfang1Ġqian1Ġmi3":5544,"ex":5545,"ĠdeĠshi4Ġjie4":5546,"Ġ1949Ġnian2Ġ":5547,"ĠĠĠ12":5548,"yang2Ġ":5549,"Ġdui4Ġci3":5550,"Ġkong1Ġ":5551,"BS":5552,"Ġsi1Ġka3Ġ":5553,"Ġzhai2Ġ":5554,"Ġdi4Ġzhen4":5555,"Ġzuo4Ġjia1Ġ":5556,"si4Ġchuan1Ġ":5557,"Ġbu4Ġman3Ġ":5558,"Ġzhi4Ġliang4":5559,"Ġdeng3Ġwei4Ġ":5560,"Ġchan3Ġye4":5561,"gĠ":5562,"Ġtong2Ġyang4":5563,"Ġcan1Ġsai4":5564,"que4Ġding4":5565,"Ġshi4Ġbei4":5566,"Ġshi2Ġdai4Ġ":5567,"Ġlu4Ġyi4":5568,"la1Ġke4":5569,"Ġkao4":5570,"Ġsi1Ġta3":5571,"Ġquan2Ġmian4":5572,"Ġbu4Ġshang4":5573,"Ġzhu3Ġzhang1":5574,"Ġren4Ġming4Ġwei4Ġ":5575,"dang4Ġ":5576,"Ġjiao4Ġyu4Ġ":5577,"Ġ1997Ġnian2Ġ":5578,"Ġcu4Ġjin4":5579,"âĶ":5580,"zhuan4Ġ":5581,"Ġfei1Ġji1":5582,"Ġnie4Ġ":5583,"Ġchong2Ġjian4":5584,"you1":5585,"gong4Ġyou3Ġ":5586,"Ġtiao4Ġ":5587,"Ġnan2Ġbei3":5588,"Ġyun2Ġ":5589,"Ġji2Ġtuan2Ġ":5590,"xiang1Ġdui4":5591,"Ġke4Ġlai2":5592,"shang1Ġye4":5593,"Ġcao1Ġzuo4":5594,"ĠĠĠzui4":5595,"Ġ1992Ġnian2Ġ":5596,"shen4":5597,"Ġci4Ġnian2Ġ":5598,"Ġbo2Ġte4Ġ":5599,"Ġchu1Ġkou3":5600,"wu2Ġxian4Ġ":5601,"Ġshi4Ġxin1":5602,"Ġyi4Ġzhong1Ġ":5603,"Ġzheng4Ġzhuang4":5604,"xiao3Ġshuo1Ġ":5605,"lin2Ġshi2Ġ":5606,"ĠdeĠkai1":5607,"Ġzhu4Ġming2":5608,"Ġluan3Ġ":5609,"Ġfan4Ġzui4":5610,"zhong1Ġhua2Ġmin2Ġguo2Ġ":5611,"xian3Ġ":5612,"ĠdeĠgui1Ġ":5613,"Ġda4Ġdao4Ġ":5614,"Ġka3Ġer3":5615,"Ġli4Ġshi3Ġ":5616,"shi3Ġ":5617,"wei3Ġshu1Ġji4Ġ":5618,"Ġbi3Ġru2":5619,"Ġa1Ġla1Ġbo2":5620,"long2Ġ":5621,"Ġjian3Ġdan1":5622,"Ġxi2Ġxing4":5623,"Ġtu1Ġran2":5624,"luan4Ġ":5625,"ĠdeĠwei4Ġzhi4Ġ":5626,"Ġku3Ġ":5627,"Ġchu1Ġzhan4":5628,"Ġti3Ġxi4":5629,"Ġxin4Ġhao4":5630,"UĠ":5631,"lu2":5632,"2012Ġnian2Ġ":5633,"tai4Ġping2Ġyang2":5634,"Ġying3Ġpian4Ġ":5635,"Ġshi4Ġjie4Ġ":5636,"Ġgui1Ġding4Ġ":5637,"mian4Ġ":5638,"Ġshi4Ġba1":5639,"Ġbu4Ġer3":5640,"peng2":5641,"xuan3Ġju3":5642,"Ġzai4Ġshi2Ġ":5643,"Ġge4Ġzi4":5644,"ĠdeĠjia4":5645,"Ġshi4Ġxiang1Ġgang3":5646,"Ġzai4Ġmei3":5647,"lian2Ġjie1":5648,"Ġsi1Ġren2Ġ":5649,"ĠĠĠCh":5650,"ĠĠĠ9":5651,"2008Ġnian2Ġ":5652,"Ġtang1":5653,"Ġzhong1Ġjian1":5654,"chou2":5655,"zhi2Ġxing2Ġ":5656,"zhen4Ġqu1Ġ":5657,"Ġxian4Ġjin1":5658,"Ġben3Ġshen1":5659,"yang1":5660,"ĠdeĠliu2":5661,"Ġfu1Ġren2Ġ":5662,"ding4Ġyi4Ġ":5663,"Ġye1":5664,"Ġ90":5665,"Ġyou3Ġguan1Ġ":5666,"ĠĠĠji2":5667,"ĠĠĠin":5668,"Ġli4Ġke4":5669,"Ġjiao4Ġhui4":5670,"Ġbiao3Ġmian4":5671,"u2Ġli4Ġ":5672,"nei4Ġlu4":5673,"xiao4Ġ":5674,"Ġban4Ġdao3":5675,"ï¼ħ":5676,"Ġnuo2":5677,"Ġni1Ġ":5678,"ĠdeĠbei4":5679,"Ġbu4Ġzhu3":5680,"Ġzhi1Ġyuan2Ġ":5681,"Ġguo4Ġcheng2Ġzhong1Ġ":5682,"Ġ1994Ġnian2Ġ":5683,"Ġ150":5684,"fei1Ġzhou1":5685,"Ġyan3Ġchu1":5686,"Ġqu3Ġxiao1":5687,"deng3Ġdi4Ġ":5688,"Ġshu4Ġwei4Ġ":5689,"Ġan4Ġjian4":5690,"zi1Ġliao4Ġ":5691,"Ġhe2Ġfa3":5692,"si3Ġwang2Ġ":5693,"mai4Ġ":5694,"Ġtao4":5695,"Ġyou3Ġxian4Ġ":5696,"Ġshi4Ġzhong1Ġhua2":5697,"cheng1Ġwei2Ġ":5698,"Ġcun4Ġ":5699,"Ġniu3":5700,"Ġbu4Ġguo4Ġ":5701,"âĶĢ":5702,"Ġqiang2Ġlie4":5703,"tong3Ġji4Ġ":5704,"bi4Ġxu1Ġ":5705,"Ġwu4Ġzhi4Ġ":5706,"Ġqi4Ġxuan2":5707,"Ġyu3Ġzhong1Ġ":5708,"Ġ14Ġ":5709,"Ġhong2Ġse4":5710,"Ġmo4Ġxi1Ġge1":5711,"ren4Ġwei2Ġ":5712,"Ġda4Ġsha4":5713,"Ġbing4Ġmei2Ġyou3Ġ":5714,"Ġgun3":5715,"Ġfen1Ġzhi1Ġ":5716,"Ġbie2Ġ":5717,"Ġdi4Ġba1":5718,"Ġchu1Ġru4":5719,"Ġhan2Ġ":5720,"zhe4Ġzhong3":5721,"ren2Ġda4":5722,"STĠ":5723,"zhe2":5724,"Ġguo2Ġwu4Ġyuan4":5725,"Ġli3Ġxue2":5726,"Ġer2Ġcheng2Ġ":5727,"yi1Ġshi4Ġ":5728,"10Ġ":5729,"Ġshi2Ġduan4Ġ":5730,"gong4Ġhe2Ġguo2Ġ":5731,"Ġjian4Ġzao4Ġ":5732,"Ġdui4Ġshou3":5733,"qiang2":5734,"Ġshi4Ġji1":5735,"Ġfan4ĠdeĠ":5736,"Ġyan2Ġshen1":5737,"Ġsheng1Ġhuo2Ġxi2Ġxing4":5738,"Ġshi2Ġliu4Ġnian2Ġ":5739,"34":5740,"yun4Ġdong4Ġ":5741,"ge1Ġqu3Ġ":5742,"Ġer2Ġzi":5743,"tu2Ġshu1":5744,"Ġwei4Ġzai4Ġ":5745,"Ġji4Ġzai3Ġ":5746,"Ġman2":5747,"ari":5748,"fa1Ġxing2":5749,"guo4Ġqu4":5750,"Ġ1996Ġnian2Ġ":5751,"ĠdeĠsheng1Ġhuo2":5752,"Ġjing1Ġshen2":5753,"Ġzheng4Ġce4Ġ":5754,"an1Ġzai4Ġ":5755,"ĠĠĠcheng2Ġ":5756,"Ġsheng2":5757,"Ġta1Ġwei4Ġ":5758,"Ġshi2Ġwu3Ġnian2Ġ":5759,"Ġbian4Ġhua4":5760,"Ġsi1Ġte4Ġ":5761,"ĠdeĠhuan2":5762,"Ġsheng1Ġhuo2Ġxi2Ġxing4Ġbu4Ġming2Ġ":5763,"ci":5764,"zhong4Ġdian3":5765,"Ġzhi4Ġdu4Ġ":5766,"Ġguai4":5767,"ĠĠĠ17":5768,"sun3":5769,"Ġtong2Ġshi2":5770,"Ġtan2Ġpan4Ġ":5771,"lun4":5772,"kang4":5773,"ren2Ġlei4":5774,"Ġxue2Ġshu4":5775,"Ġyi3Ġbian4":5776,"Ġheng2Ġ":5777,"ju3Ġxing2":5778,"Ġhe2Ġqi2Ġta1":5779,"Ġzhong1Ġguo2Ġgong4Ġchan3Ġdang3Ġ":5780,"68":5781,"Ġdi4Ġer4Ġci4":5782,"Ġlian2Ġmeng2Ġ":5783,"ĠdeĠling3":5784,"Ġdi4Ġ5":5785,"Ġli4Ġxue2":5786,"Ġchu1Ġle":5787,"Ġlu4Ġxu4":5788,"pu3Ġ":5789,"Ġtu3Ġer3Ġqi2":5790,"KĠ":5791,"00Ġ":5792,"Ġzheng4Ġchang2":5793,"min2Ġzhong4":5794,"Ġtuo3":5795,"Ġ38":5796,"Ġzuo4Ġzhan4":5797,"Ġrui4Ġdian3":5798,"Ġyu3Ġyan2Ġ":5799,"ĠĠĠmei3":5800,"zhi3Ġchu1Ġ":5801,"Ġshi4Ġchu1":5802,"Ġshi4Ġwu1Ġke4Ġlan2":5803,"Ġshang3":5804,"Ġji1Ġchang3Ġ":5805,"xuan1Ġchuan2":5806,"wo3Ġ":5807,"TV":5808,"ĠĠĠsui1Ġran2":5809,"ya4Ġ":5810,"Ġgao3":5811,"Ġgu4Ġding4":5812,"ĠĠĠmei3Ġguo2Ġ":5813,"shou3Ġdu1Ġ":5814,"Ġwei4Ġ1":5815,"Ġzhi1Ġwei4Ġ":5816,"Ġqian1Ġshu3":5817,"Ġjiu3Ġdian4":5818,"31":5819,"fen1Ġbu4Ġ":5820,"Ġmian4Ġdui4":5821,"zhe4Ġjiang1":5822,"Ġzai4Ġhe2Ġ":5823,"Ġda4Ġshi3":5824,"Ġzhan1Ġmu3":5825,"Ġnan2Ġxing4":5826,"Ġchuang1Ġ":5827,"ver":5828,"Ġji1Ġxie4":5829,"Ġyou2Ġqi2Ġshi4Ġ":5830,"Ġxiang1Ġtong2Ġ":5831,"ĠĠĠ2007Ġnian2Ġ":5832,"Ġli4Ġfu2Ġni2Ġya4":5833,"niu3Ġ":5834,"Ġchi1Ġ":5835,"ĠdeĠyue4":5836,"Ġlie4Ġru4":5837,"Ġhuang1Ġ":5838,"Ġzheng4Ġming2":5839,"Ġfen1Ġpei4":5840,"Ġping2Ġfang1Ġgong1Ġli3":5841,"yi3Ġji2Ġ":5842,"dang1Ġxuan3":5843,"Ġmu4Ġdi4Ġ":5844,"Ġjie3Ġsan4Ġ":5845,"Ġtou2Ġpiao4Ġ":5846,"99":5847,"Ġshi4Ġjiang1":5848,"Ġneng2Ġ":5849,"zhuan1Ġji2Ġ":5850,"Ġsi3Ġwang2Ġ":5851,"wei1Ġer3":5852,"zuo3Ġyou4":5853,"mu3Ġ":5854,"qin1Ġ":5855,"Ġxi1Ġyin3":5856,"Ġtong2Ġyang4Ġ":5857,"Ġyi2Ġchan3":5858,"ĠdeĠgong1Ġzuo4":5859,"Ġzhu3Ġyan3":5860,"Ġbao4Ġzha4":5861,"Ġzheng4Ġshi2Ġ":5862,"Ġhao2Ġmi3":5863,"ĠdeĠzhi2Ġwu4Ġ":5864,"ĠĠĠdan4":5865,"Ġliu4Ġnian2Ġ":5866,"di2":5867,"42":5868,"ĠĠĠnan2":5869,"ĠdeĠtian1":5870,"Ġnian2Ġjian1Ġ":5871,"Ġyi1Ġli4Ġ":5872,"Ġzhi1Ġming2Ġ":5873,"dian4Ġshi4Ġju4Ġ":5874,"sui2Ġhou4":5875,"Ġji2Ġbie2":5876,"Ġci3Ġci4":5877,"Ġte4Ġbie2Ġshi4Ġ":5878,"ĠdeĠcun1Ġzhuang1Ġ":5879,"Ġbing4Ġyou2":5880,"ma3Ġlai2Ġxi1Ġya4":5881,"hu4Ġ":5882,"Ġhou4Ġzai4Ġ":5883,"Ġyan3Ġchu1Ġ":5884,"Ġhuo4Ġde2Ġle":5885,"ah":5886,"ĠĠĠzhi2":5887,"jie1Ġduan4Ġ":5888,"Ġsen1Ġlin2":5889,"Ġdui4Ġwu3":5890,"Ġxin4Ġxi1":5891,"Ġlei2Ġsi1":5892,"Ġjiu3Ġnian2Ġ":5893,"Ġmou3Ġxie1":5894,"Ġ55":5895,"Ġchu3Ġli3Ġ":5896,"wo3":5897,"ĠĠĠdao4":5898,"all":5899,"xiang4Ġmu4":5900,"2018Ġnian2Ġ":5901,"Ġji1Ġqi4":5902,"Ġye3Ġjiu4Ġshi4Ġ":5903,"Ġ7Ġ":5904,"Ġyuan2Ġgong1Ġ":5905,"Ġce4Ġshi4Ġ":5906,"zuo4Ġwei2Ġ":5907,"Ġti2Ġsheng1":5908,"Ġyin1Ġwei4Ġta1":5909,"Ġpai4Ġqian3Ġ":5910,"ep":5911,"an3Ġwei4Ġ":5912,"Ġke2":5913,"Ġliu3Ġ":5914,"ĠĠĠdi4Ġfang1":5915,"ĠdeĠmi4":5916,"2014Ġnian2Ġ":5917,"Ġku1Ġ":5918,"Ġju4Ġti3":5919,"Ġpei4Ġhe2Ġ":5920,"nai4":5921,"ĠZ":5922,"duo1Ġge4":5923,"Ġbing4Ġbei4":5924,"Ġfa2Ġ":5925,"Ġjing1Ġying2Ġ":5926,"Ġli3Ġda2":5927,"Ġbi4Ġmian3Ġ":5928,"ĠdeĠxie2":5929,"Ġfen1Ġbie2Ġwei4Ġ":5930,"ok":5931,"Ġhe2Ġdao4":5932,"Ġyi1Ġxiao3Ġshi2Ġ":5933,"Ġyu3Ġmao2Ġqiu2":5934,"Ġtie3Ġdao4":5935,"Ġque4Ġzhen3":5936,"2010Ġnian2Ġ":5937,"ĠĠĠfu4":5938,"ĠdeĠba1":5939,"Ġyun4Ġxing2Ġ":5940,"Ġzhuang1Ġzhi4Ġ":5941,"lve4Ġ":5942,"Ġtao1":5943,"Ġxue2Ġhui4":5944,"Ġduo1Ġnian2Ġ":5945,"Ġliu2Ġxia4":5946,"Ġhuan2Ġ":5947,"ĠdeĠhei1":5948,"fa2":5949,"Ġwei4Ġbei4":5950,"Ġyun4Ġying2Ġ":5951,"Ġyue4Ġdui4":5952,"ĠĠĠli3":5953,"Ġjian4Ġli4Ġle":5954,"64":5955,"shou4Ġshang1Ġ":5956,"si4Ġnian2Ġ":5957,"Ġpai4Ġchu1":5958,"Ġzhuang4Ġkuang4Ġ":5959,"Ġpi1Ġzhun3":5960,"dun1Ġ":5961,"Ġshi4Ġcong2":5962,"Ġyi1Ġbu4Ġ":5963,"Ġzao1Ġdao4Ġ":5964,"ĠdeĠshe4Ġji4Ġ":5965,"ĠĠĠjin4":5966,"Ġyao1Ġqing3":5967,"IN":5968,"zhui1":5969,"tou2Ġru4":5970,"Ġge4Ġlei4":5971,"Ġzhu3Ġxi2":5972,"ken3":5973,"Ġti1":5974,"Ġbi3Ġde2":5975,"Ġliang3Ġnian2Ġ":5976,"Ġye3Ġ":5977,"Ġzui4Ġjia1Ġ":5978,"xue2Ġyuan4Ġ":5979,"wu3Ġ":5980,"ying4Ġyong4":5981,"zhong1Ġguo2Ġda4Ġlu4":5982,"fu2Ġjian4":5983,"Ġdou1Ġyou3Ġ":5984,"nei4Ġrong2Ġ":5985,"Ġwei4Ġyu2":5986,"Ġguo2Ġfang2":5987,"Ġji1Ġzhi4Ġ":5988,"Ġliu2Ġyu4":5989,"Ġqi2Ġzhong1Ġnan2Ġxing4":5990,"juan1Ġ":5991,"Ġmin2Ġzhong4":5992,"ĠdeĠwen4Ġti2Ġ":5993,"Ġsi1Ġhe2Ġ":5994,"Ġshi1Ġfan4Ġ":5995,"Ġzhen4Ġqu1Ġ":5996,"Ġka3Ġluo2":5997,"qi2Ġta1":5998,"Ġbu4Ġfu4":5999,"Ġzhan3Ġlan3Ġ":6000,"Ġ1993Ġnian2Ġ":6001,"Ġqiang2Ġdiao4Ġ":6002,"Ġju4Ġfeng1":6003,"ric":6004,"ĠdeĠyin1Ġyue4Ġ":6005,"Ġzai4Ġyu3":6006,"Ġchan3Ġpin3":6007,"Ġxin1Ġjia1Ġpo1":6008,"ĠĠĠSt":6009,"Ġzhong1Ġhua2Ġren2Ġmin2Ġgong4Ġhe2Ġguo2Ġzheng4Ġzhi4Ġren2Ġwu4Ġ":6010,"jiao1Ġtong1Ġ":6011,"Ġpin4":6012,"In":6013,"xĠ":6014,"piao4Ġ":6015,"Ġwei2Ġzhu3":6016,"Ġguan1Ġyuan2Ġ":6017,"Ġ13Ġ":6018,"Ġgu1Ġji4Ġ":6019,"Ġgong1Ġneng2Ġ":6020,"ren2Ġyuan2":6021,"Ġyue4Ġzai4Ġ":6022,"Ġli3Ġke4":6023,"Ġhuo4Ġde2ĠleĠ":6024,"xian4Ġdai4":6025,"Ġshi4Ġpin2":6026,"Ġ185":6027,"Ġlv4Ġbin1":6028,"ĠĠĠjin1":6029,"Ġqie1":6030,"Ġbei4Ġshi4Ġwei4Ġ":6031,"Ġdan4Ġta1":6032,"ming4Ġming2Ġ":6033,"ĠdeĠjing4":6034,"Ġer4Ġshi2Ġ":6035,"Ġyou3Ġji1":6036,"Ġju4Ġli2":6037,"Ġzhi3Ġhui1":6038,"meng4":6039,"shou4Ġ":6040,"Ġ1945Ġnian2Ġ":6041,"yi4Ġshu4":6042,"chang2Ġqi1":6043,"Ġyi1Ġran2":6044,"Ġyi3Ġwai4":6045,"Ġ37":6046,"jin3Ġ":6047,"ou1Ġyuan2Ġ":6048,"Ġzhai4":6049,"Ġyu3Ġzhou4":6050,"rou4":6051,"dong4Ġ":6052,"fang1Ġ":6053,"wen2Ġxue2":6054,"Ġfa4":6055,"Ġyun4Ġ":6056,"Ġbo2Ġshi4Ġ":6057,"guan1Ġxi4Ġ":6058,"ĠdeĠbi3Ġsai4":6059,"Ġjia1Ġmeng2":6060,"Ġxiang1Ġtong2":6061,"Ġqi4Ġxiang4":6062,"ĠĠĠchu2":6063,"ĠĠĠandĠĠĠ":6064,"Ġer3Ġduo1":6065,"Ġshen1Ġti3":6066,"Ġzhui1Ġsu4":6067,"Ġdui4Ġying4":6068,"Ġyin3Ġru4":6069,"ear":6070,"ich":6071,"ĠdeĠxia4":6072,"Ġkuang4":6073,"tong3Ġyi1Ġ":6074,"ĠdeĠcheng2Ġshi4Ġ":6075,"gong1Ġcheng2Ġ":6076,"ĠdeĠcai2":6077,"Ġqing3Ġqiu2":6078,"pi2Ġ":6079,"2022Ġnian2Ġ":6080,"Ġtie3Ġlu4Ġ":6081,"Ġman3Ġzu2":6082,"67":6083,"quan2Ġbu4Ġ":6084,"Ġzhan3ĠdeĠ":6085,"Ġbu2Ġ":6086,"kuai4Ġsu4":6087,"di1":6088,"jiang3":6089,"Ġshi3Ġqi2":6090,"Ġti2Ġgao1":6091,"Ġbo2Ġ":6092,"Ġ75":6093,"ik":6094,"shuai1":6095,"Ġzong3Ġbu4Ġ":6096,"Ġxiang3Ġnian2Ġ":6097,"Ġgao4Ġsu4":6098,"Ġzheng4Ġzhuang4Ġgan3Ġran3Ġ":6099,"kun4Ġ":6100,"ĠdeĠmian4Ġji1Ġwei4Ġ":6101,"min2Ġguo2Ġ":6102,"Ġshi3Ġshang4":6103,"bao3Ġchi2":6104,"ĠĠĠIn":6105,"ĠdeĠban4":6106,"Ġxiu1":6107,"Ġcheng2Ġwei2Ġle":6108,"Ġtie3Ġdao4Ġ":6109,"wei2Ġ":6110,"zhi2Ġwu4Ġ":6111,"Ġda3Ġsuan4Ġ":6112,"Ġfen1Ġxi1":6113,"ef":6114,"Ġdi4Ġli3":6115,"Ġji2Ġjiang1":6116,"Ġ1995Ġnian2Ġ":6117,"Ġgeng4Ġjia1":6118,"Ġdi4Ġshi4Ġ":6119,"Ġhei1Ġlong2Ġjiang1":6120,"dao3Ġyan3":6121,"Ġli4Ġliang4":6122,"Ġyue4Ġ1Ġri4":6123,"ĠĠĠwai4":6124,"Ġer2Ġbu2Ġshi4Ġ":6125,"Ġdou4Ġ":6126,"Ġbing4Ġyi3Ġ":6127,"Ġji2Ġda4":6128,"ji4Ġxu4":6129,"Ġbian4Ġde2":6130,"GĠ":6131,"duo2":6132,"fa1Ġdong4":6133,"Ġzai4Ġbei3":6134,"Ġsheng1Ġming4":6135,"Ġwei1Ġlian2":6136,"lay":6137,"Ġxian4Ġhe2Ġ":6138,"Ġxian4Ġfa3":6139,"Ġmei3Ġ":6140,"ĠdeĠji1Ġchu3Ġ":6141,"tou2Ġzi1":6142,"Ġbeng1":6143,"Ġjia1Ġren2Ġ":6144,"ban4Ġ":6145,"yun2Ġnan2":6146,"tan2":6147,"chao2Ġ":6148,"Ġxi1Ġan1Ġ":6149,"ĠdeĠxing2Ġshi4Ġ":6150,"HĠ":6151,"ni3Ġ":6152,"Ġshi4Ġni2":6153,"Ġdu1":6154,"Ġli4Ġfang1":6155,"Ġfen1Ġlei4":6156,"Ġru4Ġxuan3":6157,"Ġqi4Ġhou4Ġ":6158,"wang3Ġlu4":6159,"Ġjian3Ġcheng1Ġ":6160,"pei2":6161,"Ġcheng2Ġren2Ġ":6162,"Ġsuo3Ġshu3":6163,"Ġwang3Ġwang3":6164,"atĠĠĠ":6165,"Ġfen1Ġxi1Ġ":6166,"Ġwen2Ġjian4":6167,"Ġmei3Ġshu4":6168,"Ġjie2Ġhun1Ġ":6169,"Ġzi1Ġyuan2Ġ":6170,"Ġshi4Ġzhong1Ġxin1":6171,"Ġhun4Ġhe2Ġ":6172,"pai4Ġ":6173,"dan1Ġqu1Ġ":6174,"Ġdi4Ġyi1":6175,"Ġgong1Ġji1Ġ":6176,"Ġrao4":6177,"Ġzheng4Ġquan2":6178,"ĠdeĠdi4Ġfang1Ġ":6179,"AM":6180,"zi1Ġ":6181,"Ġhui4Ġhe2Ġ":6182,"Ġshen4Ġzhi4":6183,"chui2Ġ":6184,"Ġhu1Ġyu4":6185,"ĠdeĠtong1":6186,"Ġdu1Ġshi4Ġ":6187,"Ġpen2":6188,"Ġsang4Ġ":6189,"Ġru3":6190,"Ġming2Ġcheng1Ġ":6191,"Ġ1988Ġnian2Ġ":6192,"mo4Ġxi1Ġge1":6193,"ĠdeĠhai3Ġba2":6194,"chan3Ġ":6195,"Ġsi1Ġji1Ġ":6196,"Ġyi3Ġqian2":6197,"Ġzi4Ġmu3Ġ":6198,"mei2Ġ":6199,"Ġchai2Ġyou2":6200,"44":6201,"qiang1Ġ":6202,"zhuang4":6203,"2015Ġnian2Ġ":6204,"Ġbu4Ġli4Ġ":6205,"Ġgai1Ġcun1":6206,"Ġzhi1Ġchi2Ġ":6207,"ju4Ġyou3Ġ":6208,"Ġchuang2Ġ":6209,"Ġtong2Ġshi2Ġgai1Ġdi4Ġ":6210,"AR":6211,"Ġshu4Ġzi4":6212,"Ġzong3Ġdu1Ġ":6213,"Ġhang2Ġtian1":6214,"zhuan1Ġji2":6215,"Ġshi4Ġfang4Ġ":6216,"Ġ0Ġ":6217,"Ġxing2Ġmu4":6218,"fan2":6219,"00Ġmi3":6220,"ji4Ġlu4":6221,"12Ġnian2Ġ":6222,"Ġnian2Ġdai4":6223,"Ġmie4":6224,"ER":6225,"sang1Ġ":6226,"ze2Ġdong1":6227,"Ġban4Ġgong1Ġshi4Ġ":6228,"Ġ1991Ġnian2Ġ":6229,"Ġqiao1":6230,"Ġyou2Ġci3":6231,"Ġ1990Ġnian2Ġ":6232,"ill":6233,"Ġjin3Ġbiao1Ġsai4Ġ":6234,"Ġgua1Ġ":6235,"Ġye4Ġwu4Ġ":6236,"guan4Ġjun1":6237,"nei4Ġlu4Ġsheng3Ġfen4Ġ":6238,"yan3Ġyuan2Ġ":6239,"Ġzhan4Ġhou4Ġ":6240,"Ġxi4Ġlie4Ġ":6241,"ĠdeĠzheng4Ġzhi4Ġ":6242,"guo2Ġhui4":6243,"Ġka1Ġ":6244,"Ġgang3Ġ":6245,"Ġsui4Ġdao4Ġ":6246,"ĠdeĠche1":6247,"ĠdeĠtu2":6248,"Ġyou3Ġke3Ġneng2":6249,"Ġshang4Ġshi4Ġ":6250,"Ġliang3Ġzhong3":6251,"ĠĠĠci3Ġwai4Ġ":6252,"Ġzhi4Ġshi2Ġ":6253,"Ġji1Ġyin1":6254,"Ġgong1Ġyi4":6255,"Ġzai3Ġ":6256,"ĠĠĠliu2":6257,"ĠdeĠtai4":6258,"Ġshe4Ġying3":6259,"Ġshou3Ġdu1Ġ":6260,"Ġte4Ġding4":6261,"Ġrong2Ġyi4Ġ":6262,"Ġlv3Ġyou2":6263,"Ġbei4Ġren4Ġwei2Ġshi4Ġ":6264,"zui4Ġjia1":6265,"Ġzai4Ġjin1":6266,"Ġhai3Ġyang2":6267,"xie2":6268,"Ġyi4Ġmei3Ġyuan2Ġ":6269,"2017Ġnian2Ġ":6270,"Ġwei3Ġhui4":6271,"Ġda4Ġjiang3Ġ":6272,"Ġxi1Ġer3":6273,"Ġsheng1Ġtai4":6274,"mao4":6275,"Ġnian2Ġjian1":6276,"Ġxian4Ġshang4":6277,"Ġwen2Ġhua4Ġ":6278,"ĠY":6279,"han4Ġ":6280,"Ġshang4Ġshu4":6281,"Ġzai4Ġ195":6282,"igh":6283,"Ġpeng1":6284,"Ġzhi1Ġxia4Ġ":6285,"Ġzhi3Ġkong4":6286,"Ġpo2":6287,"lei4Ġ":6288,"tou4":6289,"yi4Ġda4Ġli4Ġ":6290,"2013Ġnian2Ġ":6291,"tou2Ġ":6292,"di4Ġguo2Ġ":6293,"8Ġri4":6294,"IC":6295,"Ġzu3Ġjian4":6296,"Ġqin1Ġzi4":6297,"ĠĠĠ2006Ġnian2Ġ":6298,"Ġzi4Ġzhi4Ġqu1":6299,"Ġwei4Ġyuan2":6300,"Ġwan3Ġshang4":6301,"wan1Ġ":6302,"Ġjing1Ġying2":6303,"Ġpian4ĠdeĠ":6304,"Ġ10Ġyue4Ġ":6305,"lu4Ġxian4Ġ":6306,"Ġdui4Ġqi2":6307,"Ġzhe4Ġbu4Ġ":6308,"Ġgou4Ġzao4Ġ":6309,"dai4Ġbiao3Ġ":6310,"ĠÃ©":6311,"gao1Ġdeng3":6312,"jiu4Ġ":6313,"nv3Ġzi3Ġ":6314,"Ġzhi4Ġcheng2Ġ":6315,"Ġzhuan4Ġxie3":6316,"ĠĠĠdi4Ġfang1Ġzi1Ġliao4Ġ":6317,"Ġchi1":6318,"Ġ00Ġ":6319,"Ġshi4Ġyi2Ġge4Ġwei4Ġyu2Ġ":6320,"Ġjie2Ġshu4Ġhou4Ġ":6321,"fo2":6322,"lei1":6323,"2011Ġnian2Ġ":6324,"gan4Ġ":6325,"yao2":6326,"xue2Ġxiao4Ġ":6327,"Ġji2Ġren2Ġ":6328,"Ġhuo3Ġjian4":6329,"ĠĠĠjian3Ġjie4Ġ":6330,"ĠĠĠge4":6331,"gong4Ġhe2Ġ":6332,"Ġda4Ġzhong4":6333,"Ġda4Ġxiao3":6334,"Ġyou3Ġxu3Ġduo1":6335,"Ġxian4Ġzai4":6336,"Ġkao4Ġjin4":6337,"xia4Ġling4Ġshi2Ġ":6338,"gu3Ġdai4":6339,"bo2Ġ":6340,"Ġdan4Ġyin1":6341,"Ġta1ĠmenĠzai4Ġ":6342,"suo3Ġcai3Ġyong4":6343,"Ġta1Ġjiang1":6344,"Ġru2Ġxia4Ġ":6345,"ĠdeĠdi4Ġsan1":6346,"Ġti2Ġgong1Ġle":6347,"yin2Ġhang2Ġ":6348,"88":6349,"hui1":6350,"gao1Ġ":6351,"shen1Ġ":6352,"Ġde2Ġyi3":6353,"Ġxian1Ġsheng1":6354,"zheng3Ġge4":6355,"Ġqiang3Ġ":6356,"biao1Ġzhun3":6357,"ĠĠĠbei4Ġjing3Ġ":6358,"ceĠĠĠ":6359,"deĠ":6360,"Ġdi4Ġ3":6361,"Ġyi4Ġhe2Ġ":6362,"Ġli4Ġyi4":6363,"Ġta1Ġdui4":6364,"Ġyi1Ġmei2":6365,"Ġ2025Ġnian2Ġ":6366,"Ġbai2Ġse4":6367,"suo1":6368,"ĠĠĠran2":6369,"shang4Ġwu3":6370,"fang1Ġmian4":6371,"Ġshi4Ġzhi1":6372,"Ġci3Ġhou4":6373,"ĠdeĠgai4Ġnian4Ġ":6374,"Ġ1985Ġnian2Ġ":6375,"sheng3ĠdeĠyi2Ġge4Ġshi4Ġzhen4Ġ":6376,"fang4Ġ":6377,"Ġbu4Ġsi1":6378,"wei2Ġai1":6379,"zui4Ġchu1":6380,"Ġwei4Ġyou2":6381,"Ġyin1Ġsu4":6382,"xia4Ġling4Ġshi2Ġjian1Ġ":6383,"Ġyi4Ġzai4Ġ":6384,"Ġkai1Ġshe4":6385,"Ġtao3Ġlun4Ġ":6386,"gh":6387,"lian2Ġbang1":6388,"Ġzhong1Ġzhi3":6389,"Ġsi1Ġla1Ġfu1Ġ":6390,"ĠĠĠsi1":6391,"ĠdeĠying1":6392,"Ġzi4Ġshen1":6393,"Ġjia1Ġjing4":6394,"Ġshi2Ġqi1Ġnian2Ġ":6395,"shu4Ġju4":6396,"Ġpi1Ġzhun3Ġ":6397,"Ġnan2Ġfang1":6398,"Ġqing2Ġbao4":6399,"Ġlv3Ġke4":6400,"liao4Ġ":6401,"ling4Ġyi1Ġ":6402,"Ġzhu3Ġyan3Ġ":6403,"Ġjie1Ġchu4":6404,"fang1Ġshi4Ġ":6405,"si4Ġge4":6406,"Ġda4Ġdao4":6407,"Ġpai2Ġhang2":6408,"Ġfang2Ġyu4":6409,"Ġnuo4Ġ":6410,"DTĠ":6411,"zou3":6412,"Ġyuan2Ġshi3":6413,"Ġ32":6414,"Ġcai2Ġliao4Ġ":6415,"ĠdeĠzuo4Ġbiao1Ġwei4Ġ":6416,"lao3":6417,"jiao4Ġyu4Ġ":6418,"Ġcu1Ġ":6419,"Ġqi2Ġzhong1Ġyi1Ġ":6420,"Ġzhuan3Ġxiang4":6421,"ma3Ġ":6422,"Ġta4":6423,"Ġzhong1Ġyi3":6424,"ren2ĠdeĠ":6425,"Ġbei4Ġpo4":6426,"Ġzuo4Ġzhe3":6427,"Ġye3Ġzai4Ġ":6428,"nd":6429,"Ġgong1Ġbu4":6430,"Ġliang3Ġzhe3":6431,"Ġjia4Ġshi3":6432,"mo2Ġshi4Ġ":6433,"wen2Ġhua4Ġ":6434,"Ġzhe4Ġshou3":6435,"Ġzhu4Ġming2ĠdeĠ":6436,"Ġbian4Ġhua4Ġ":6437,"Ġhuan4Ġzhe3":6438,"jia3Ġ":6439,"Ġzhu1":6440,"Ġli2Ġmi3Ġ":6441,"wu3Ġnian2Ġ":6442,"Ġtong2Ġyi1Ġ":6443,"Ġzui4Ġjin4":6444,"Ġchuang4Ġli4Ġ":6445,"ĠdeĠjian4Ġzhu4":6446,"Ġchu1Ġyan3":6447,"Ġyi3Ġbei3":6448,"Ġshen2Ġme":6449,"Ġheng2Ġxing1":6450,"zai3Ġ":6451,"xia4Ġxia2ĠdeĠyi2Ġge4":6452,"66":6453,"ce4Ġshi4Ġ":6454,"Ġsi1Ġdi4Ġ":6455,"Ġwei4ĠUTCĠ":6456,"Ġer3Ġman4Ġ":6457,"ĠdeĠcun2":6458,"tur":6459,"Ġzhong1Ġguo2Ġgong4Ġchan3Ġdang3":6460,"87":6461,"Ġ1984Ġnian2Ġ":6462,"hai3Ġ":6463,"da2Ġdao4Ġ":6464,"Ġxian4Ġru4":6465,"Ġjiang1Ġhui4":6466,"ĠX":6467,"Ġguo2Ġjun1":6468,"Ġxia4Ġlai2":6469,"Ġxing4Ġbie2":6470,"Ġpei2Ġ":6471,"miao2Ġ":6472,"ĠdeĠzhong1Ġguo2Ġ":6473,"Ġbu4Ġji2":6474,"Ġmei3Ġyuan2Ġ":6475,"Ġ8Ġyue4Ġ":6476,"Ġdiao4Ġkuai4":6477,"Ġyuan2Ġyin1Ġ":6478,"ĠĠĠzeng1Ġzu3":6479,"co":6480,"Ġtou":6481,"Ġji1Ġji2Ġ":6482,"Ġji2Ġlin2":6483,"Ġzhe4Ġyang4Ġ":6484,"tui1Ġchu1":6485,"Ġqi2Ġwei4Ġ":6486,"Ġxing2Ġcheng2":6487,"Ġtong2Ġyi4Ġ":6488,"ark":6489,"ĠdeĠgan3Ġ":6490,"zhu2":6491,"Ġshi4Ġyuan2":6492,"Ġtui4Ġxiu1Ġ":6493,"ĠleĠta1ĠdeĠ":6494,"ĠcnĠ":6495,"Ġzhi1Ġfu4":6496,"Ġxiao3Ġxue2Ġ":6497,"xi3":6498,"Ġyi1Ġju4":6499,"Ġchu1Ġshen1":6500,"Ġwu3Ġqi4":6501,"Ġlei4Ġxing2Ġ":6502,"Ġxiao1Ġfei4":6503,"Ġhei1Ġse4":6504,"ri4Ġ":6505,"hua2Ġ":6506,"Ġben3Ġzhan4":6507,"Ġnei4Ġge2":6508,"Ġbo2Ġwu4Ġguan3Ġ":6509,"Ġdiao4Ġkuai4Ġyi1Ġxiao3Ġshi2Ġ":6510,"IS":6511,"Ġfan4Ġwei2Ġnei4":6512,"AT":6513,"Ġji2ĠUTCĠ":6514,"Ġdui4Ġfang1":6515,"Ġbo1Ġchu1":6516,"ĠdeĠzui4Ġgao1":6517,"she4Ġyou3Ġxia4Ġling4Ġshi2Ġjian1Ġ":6518,"ĠdeĠshi2Ġqu1Ġwei4ĠUTCĠ":6519,"Ġer2Ġgai1Ġdi4Ġsuo3Ġcai3Ġyong4":6520,"Ġtong2Ġshi2Ġgai1Ġdi4Ġshe4Ġyou3Ġxia4Ġling4Ġshi2Ġjian1Ġ":6521,"Ġer2Ġgai1Ġdi4Ġsuo3Ġcai3Ġyong4ĠdeĠshi2Ġqu1Ġwei4ĠUTCĠ":6522,"gong1Ġzuo4Ġ":6523,"Ġan1Ġhui1Ġ":6524,"ss":6525,"ĠdeĠyun4":6526,"ĠdeĠcan1":6527,"Ġbei4Ġcheng1Ġwei2":6528,"Ġkai1Ġfang4":6529,"Ġtan3Ġke4":6530,"Ġren3":6531,"ju1Ġzhu4":6532,"Ġyi4Ġnian2Ġ":6533,"Ġji2Ġbei3Ġmei3":6534,"ĠdeĠxian1Ġ":6535,"ĠdeĠjian3Ġ":6536,"Ġyi4Ġyou3Ġ":6537,"Ġwei4Ġfu2Ġqi2Ġyu2Ġgang1":6538,"Ġzhi4Ġjin1Ġ":6539,"Ġzhan4Ġzhong1Ġ":6540,"Ġ1989Ġnian2Ġ":6541,"sheng1Ġwu4":6542,"Ġwei2Ġqi2Ġ":6543,"Ġtuan2Ġti3Ġ":6544,"Ġzhi2Ġli4Ġ":6545,"Ġchu4ĠdeĠhai3Ġba2":6546,"ĠĠĠwei2":6547,"ĠdeĠwei2":6548,"Ġshi2Ġyou2":6549,"Ġzhou1Ġci4":6550,"Ġ30Ġ":6551,"Ġshou1Ġgou4":6552,"Ġwei4Ġgao1Ġyu2Ġhai3":6553,"Ġchu4ĠdeĠhai3Ġba2Ġwei4Ġgao1Ġyu2Ġhai3":6554,"ni4":6555,"tiao3":6556,"ye3Ġshi4Ġ":6557,"ĠĠĠ190":6558,"Ġpo3":6559,"Ġkang4Ġyi4Ġ":6560,"Ġben3Ġtu3Ġ":6561,"Ġyuan4Ġzhang3Ġ":6562,"Ġmi4Ġmi4":6563,"Ġjiang4Ġdi1Ġ":6564,"Ġwan1ĠdeĠ":6565,"Ġguo2Ġyu3":6566,"Ġfang2Ġwu1Ġ":6567,"Ġgui4Ġzu2":6568,"gui1Ġhua4":6569,"ĠdeĠzheng1":6570,"Ġtao3Ġlun4":6571,"ya1Ġ":6572,"Ġpu2Ġ":6573,"Ġxu2Ġ":6574,"ĠdeĠwu2":6575,"mo4Ġsi1Ġke1":6576,"tang2":6577,"Ġben1":6578,"Ġla1Ġding1":6579,"Ġer4Ġshi4Ġ":6580,"Ġshi4Ġjie4Ġbei1":6581,"le4":6582,"ĠĠĠzhu3Ġyao4":6583,"zong3Ġdu1Ġ":6584,"ban4Ġdao3":6585,"ĠdeĠchan3":6586,"Ġfu4Ġshu1Ġji4Ġ":6587,"Ġbai3Ġwan4Ġ":6588,"Ġxian3Ġzhu4":6589,"Ġgong1Ġchi3":6590,"...":6591,"miao4":6592,"qiu2Ġyuan2Ġ":6593,"Ġka1":6594,"Ġli3Ġlan2":6595,"Ġbian4Ġcheng2Ġ":6596,"tu1Ġ":6597,"Ġshen1Ġwei4Ġ":6598,"ĠBĠ":6599,"Ġhuan1Ġying2Ġ":6600,"ping2Ġfang1":6601,"Ġgong1Ġjue2":6602,"Ġsai4Ġji4":6603,"Ġzhi3Ġding4":6604,"Ġxun2Ġyang2":6605,"tai2Ġnan2":6606,"ĠdeĠan1Ġ":6607,"ĠdeĠxiang4":6608,"gong1Ġgong4":6609,"Ġan1Ġpai2":6610,"Ġchu4ĠdeĠhai3Ġba2Ġwei4Ġgao1Ġyu2Ġhai3Ġping2Ġmian4":6611,"Ġbu4Ġlu3Ġ":6612,"wa3Ġ":6613,"Ġlong3":6614,"Ġri4Ġbao4Ġ":6615,"Ġxuan3Ġshou3":6616,"Ġ39":6617,"Ġqu1ĠdeĠmian4Ġji1Ġwei4Ġ":6618,"ma":6619,"Ġfei1Ġxing2":6620,"Ġdan3Ġ":6621,"Ġgong1Ġan1Ġ":6622,"Ġyi1Ġzhou1":6623,"qi2Ġ":6624,"guo4Ġcheng2Ġ":6625,"ceng2Ġ":6626,"bi4Ġ":6627,"shi2Ġqu1Ġ":6628,"Ġming2Ġdan1":6629,"ĠĠĠ1Ġ":6630,"Ġyue4Ġlai2":6631,"Ġyou3Ġsan1":6632,"Ġchu1Ġxi2Ġ":6633,"Ġzhi2Ġwei4Ġ":6634,"Ġchang2Ġdu4":6635,"Ġyi2Ġshi4Ġ":6636,"Ġshou1Ġ":6637,"shao4Ġ":6638,"ĠĠĠke4":6639,"bi3Ġjiao4":6640,"Ġshi2Ġwu4":6641,"Ġdui4Ġwai4":6642,"Ġjian1Ġren4":6643,"ĠIn":6644,"Ġ1950Ġnian2Ġ":6645,"dang4":6646,"ke1Ġxue2Ġyuan4":6647,"ĠzheĠ":6648,"ĠdeĠshou1":6649,"keng1":6650,"Ġgong1Ġying4":6651,"Ġfa3Ġguan1":6652,"Ġdong1Ġfang1":6653,"Ġquan3Ġ":6654,"Ġyi4Ġfang1Ġmian4Ġ":6655,"Ġyin1Ġshi4Ġ":6656,"Ġfang1Ġfa3Ġ":6657,"Ġdou1Ġhui4":6658,"bu4Ġfen4":6659,"Ġlian3Ġ":6660,"Ġmin3Ġ":6661,"mi3Ġya4":6662,"ĠdeĠti2":6663,"Ġzhuan3Ġyi2":6664,"Ġzhao1Ġhe2Ġ":6665,"ON":6666,"Ġrui4Ġshi4Ġ":6667,"wen2Ġwu4Ġbao3Ġhu4Ġdan1Ġwei4Ġ":6668,"Ġwen1Ġdu4":6669,"AC":6670,"Ġzai4Ġji1":6671,"guo2Ġnei4":6672,"ji4Ġsuan4Ġ":6673,"Ġzhou1Ġwei2":6674,"Ġlai2Ġyuan2Ġ":6675,"Ġxiang4Ġshi4Ġ":6676,"Ġfang2Ġzhi3":6677,"bing4Ġdu2":6678,"jie2Ġguo3":6679,"qi3Ġyong4Ġ":6680,"Ġwei4Ġta1":6681,"Ġyue4Ġzhong1Ġ":6682,"Ġjia1Ġge1":6683,"Ġwang2Ġchao2":6684,"Ġhuo3Ġshan1":6685,"ĠdeĠgu4":6686,"zi3Ġ":6687,"ĠdeĠhui4":6688,"Ġ24Ġ":6689,"Ġdang1Ġshi2ĠdeĠ":6690,"Ġshu1Ġru4":6691,"Ġla1Ġsi1":6692,"Ġgai3Ġshan4Ġ":6693,"76":6694,"ĠĠĠhuo4":6695,"ao4Ġdi4Ġli4Ġ":6696,"qi4Ġhou4Ġ":6697,"bo1Ġchu1Ġ":6698,"Ġyi2Ġdong4":6699,"Ġta1ĠmenĠ":6700,"jiao3":6701,"ĠĠĠri4Ġben3":6702,"ĠdeĠbao3":6703,"Ġyu4Ġji4Ġ":6704,"Ġyu2Ġ192":6705,"Ġchuang4Ġjian4":6706,"Tub":6707,"Ġdang1Ġnian2Ġ":6708,"Ġkuo4Ġzhan3Ġ":6709,"pu2":6710,"Ġwei2Ġer3Ġ":6711,"Ġlan2Ġqiu2":6712,"Ġzeng1Ġzhang3":6713,"ĠdeĠcheng2Ġji4Ġ":6714,"Ġqi2Ġbing1":6715,"Ġjiao1Ġliu2":6716,"Ġhuang2Ġjin1":6717,"Ġke3Ġneng2Ġhui4":6718,"gai3Ġbian1":6719,"Ġchan3Ġpin3Ġ":6720,"Ġ48":6721,"Ġyi4Ġb":6722,"Ġyu3Ġhe2Ġ":6723,"Ġchu1ĠleĠ":6724,"Ġsheng1Ġren4":6725,"Ġlian2Ġwang3":6726,"Ġduan4ĠdeĠ":6727,"Ġpei4Ġ":6728,"Ġ8Ġ":6729,"ru3Ġ":6730,"Ġshi4Ġqu1":6731,"zhi4Ġ200":6732,"Ġ65":6733,"ĠĠĠli4Ġshi3":6734,"Ġli3Ġgong1Ġ":6735,"15Ġnian2Ġ":6736,"2Ġri4":6737,"est":6738,"od":6739,"ĠdeĠmei3Ġguo2Ġ":6740,"Ġleng2":6741,"Ġming2Ġren2Ġ":6742,"Ġke1Ġxue2Ġ":6743,"Ġan1Ġzhuang1":6744,"Ġju3Ġxing2ĠdeĠ":6745,"Ġshi2Ġba1Ġnian2Ġ":6746,"tao3":6747,"Ġ11Ġyue4Ġ":6748,"Ġyu3Ġci3":6749,"cai3Ġyong4":6750,"Ġzuo4Ġjia1":6751,"Ġguan1Ġzhu4":6752,"ut":6753,"Ġzhou1Ġfu3":6754,"Ġque4Ġren4":6755,"dong1Ġji4Ġ":6756,"Ġdi4Ġdian3":6757,"Ġda4Ġchen2Ġ":6758,"Ġzheng4Ġming2Ġ":6759,"Ġsheng1Ġwei4Ġ":6760,"Ġchang2Ġshi4Ġ":6761,"Ġxiu1Ġzheng4":6762,"Ġzao4Ġcheng2":6763,"ĠĠĠa1":6764,"Ġcheng2Ġben3":6765,"Ġju4Ġji2Ġ":6766,"Ġwu3Ġzhuang1":6767,"ru2Ġguo3":6768,"Ġxia4Ġling4":6769,"Ġsong1Ġ":6770,"zhui1Ġ":6771,"ge1Ġshou3":6772,"Ġda4Ġxing2Ġ":6773,"Ġyi3Ġci3":6774,"Ġnu4":6775,"Ġyi2Ġmin2":6776,"Ġai4Ġer3Ġlan2":6777,"Ġxi2Ġwei4Ġ":6778,"Ġfei1Ġji1Ġ":6779,"ĠĠĠ2005Ġnian2Ġ":6780,"zeng4":6781,"bei4Ġ":6782,"min2Ġjian1":6783,"Ġshi4Ġchang3Ġ":6784,"Ġdi4Ġguo2":6785,"Ġyi4Ġti2":6786,"Ġtai4Ġguo2Ġ":6787,"Window":6788,"Ġgua1":6789,"Ġbian1Ġji2Ġ":6790,"Ġguo2Ġmin2Ġzheng4Ġfu3":6791,"Ġnen4":6792,"Ġfen1Ġbu4Ġzai4Ġ":6793,"Ġxing4ĠdeĠ":6794,"Ġsheng4Ġdun4":6795,"Ġding1Ġ":6796,"Ġyu2Ġ190":6797,"Ġ1983Ġnian2Ġ":6798,"Ġbi4Ġye4Ġyu2Ġ":6799,"ĠĠĠ11":6800,"jie1Ġr":6801,"Ġyi2Ġding4":6802,"nuo4Ġ":6803,"bai4":6804,"Ġxing3":6805,"Ġwa1":6806,"Ġzhen1Ġzheng4":6807,"Ġhai2Ġzi":6808,"ĠĠĠquan2":6809,"si1Ġlan2":6810,"Ġjian4Ġkang1Ġ":6811,"Ġyi3Ġnan2":6812,"ram":6813,"ĠĠĠer4":6814,"Ġshi4Ġtai2Ġwan1Ġ":6815,"Ġxiang1Ġsi4Ġ":6816,"Ġfu2Ġhe2Ġ":6817,"Ġhai3Ġyu4Ġ":6818,"Ġhuang2Ġjia1":6819,"Ġfu4Ġzhu3Ġxi2Ġ":6820,"Ġming2Ġque4":6821,"Ġzui4Ġzhong1":6822,"Ġcheng1Ġwei4Ġ":6823,"Ġya1Ġli4Ġ":6824,"Ġzi4Ġzhi4Ġqu1Ġ":6825,"shao4":6826,"tiv":6827,"ĠdeĠri4Ġben3":6828,"Ġshi4Ġyong4":6829,"Ġshi3Ġmi4":6830,"Ġya4Ġli4Ġshan1":6831,"Ch":6832,"ĠĠĠzhu3":6833,"ĠĠĠsan1":6834,"fa3Ġyuan4":6835,"Ġmei3Ġjun1":6836,"Ġfei4Ġyan2":6837,"Ġzheng4Ġzhuang4Ġgan3Ġran3Ġzhe3":6838,"qing3Ġ":6839,"Ġgu3Ġfen4":6840,"41":6841,"jiang1Ġ":6842,"Ġluo2Ġli3Ġda2":6843,"Ġjin1Ġpai2Ġ":6844,"Ġzhuang4Ġtai4Ġ":6845,"shan3Ġ":6846,"chu1Ġxian4":6847,"zui4Ġda4":6848,"xi4Ġ":6849,"Ġshi2Ġyan4Ġshi4Ġ":6850,"Ġyi1Ġxi4Ġlie4":6851,"ĠleĠliang3":6852,"Ġshi4Ġshi4Ġjie4":6853,"ection":6854,"3Ġri4":6855,"jian4Ġshe4":6856,"jie2Ġshu4Ġ":6857,"ĠdeĠye4":6858,"Ġshang4Ġxia4":6859,"Ġxiong1Ġya2Ġli4Ġ":6860,"Ġxue2Ġsheng1Ġ":6861,"uĠ":6862,"wang2Ġguo2Ġ":6863,"Ġer3Ġfu1Ġ":6864,"arĠ":6865,"ĠdeĠban3Ġ":6866,"ll":6867,"Ġma3Ġer3":6868,"78":6869,"te4Ġding4":6870,"qu3Ġ":6871,"Ġshi4Ġde2Ġguo2Ġ":6872,"Ġqi2Ġshi2Ġ":6873,"Ġgeng4Ġwei2":6874,"Ġxun2Ġ":6875,"ĠdeĠpei4":6876,"ami":6877,"ĠĠĠgao1":6878,"ĠdeĠwei1":6879,"Ġren2Ġda4":6880,"Ġta1Ġyu3":6881,"Ġ12Ġ":6882,"Ġduo1Ġli4Ġya4":6883,"Ġhen3Ġkuai4Ġ":6884,"xia4Ġji4Ġao4Ġlin2Ġpi3Ġke4Ġyun4Ġdong4Ġhui4":6885,"14Ġnian2Ġ":6886,"Ġyi3Ġwei2":6887,"Ġliao3Ġjie3":6888,"Ġyu2Ġ2016Ġnian2Ġ":6889,"YouTub":6890,"ĠĠĠwu3":6891,"Ġbu4Ġshao3Ġ":6892,"Ġyi4Ġyu2Ġ":6893,"Ġ9Ġyue4Ġ":6894,"Ġxiang1Ġgang3Ġ":6895,"ĠdeĠfang2Ġ":6896,"Ġzhe4Ġxiang4":6897,"Ġjie2Ġshu4Ġ":6898,"Ġpei4Ġbei4":6899,"Ġ15Ġ":6900,"zao3":6901,"zui4Ġhou4Ġ":6902,"Ġpao3Ġ":6903,"Ġban1Ġfa1":6904,"30Ġnian2Ġ":6905,"9Ġri4":6906,"can2":6907,"qu1Ġyu4Ġ":6908,"96":6909,"lin":6910,"Ġyue1Ġwei4Ġ":6911,"cĠ":6912,"jiang1Ġqi2":6913,"Ġshi4Ġying4":6914,"Ġzai4Ġyuan2":6915,"Ġni2Ġxi1Ġya4":6916,"xun1Ġ":6917,"ji4Ġcheng2Ġ":6918,"Ġke3Ġneng2Ġshi4Ġ":6919,"guang3Ġdong1Ġsheng3":6920,"ĠĠĠmu4":6921,"juan4Ġ":6922,"gai3Ġbian4":6923,"Ġfei1Ġjian4Ġzhi4Ġdi4Ġqu1Ġ":6924,"Ġ1986Ġnian2Ġ":6925,"Ġdu2Ġte4":6926,"Ġsi1Ġling4Ġbu4Ġ":6927,"ĠĠĠtian1":6928,"fen4Ġzi3":6929,"Ġxuan3Ġqu1Ġ":6930,"Ġsu1Ġge2Ġlan2":6931,"17Ġnian2Ġ":6932,"AN":6933,"ying1Ġgai1":6934,"Ġshi4Ġyi1Ġbu4Ġ":6935,"Ġji1Ġhui4Ġ":6936,"za2":6937,"ĠĠĠtai2Ġwan1Ġ":6938,"mian4Ġji1Ġ":6939,"Ġshi4Ġcheng2Ġ":6940,"di4Ġsan1":6941,"Ġta1Ġhe2Ġ":6942,"Ġer4Ġren2Ġ":6943,"ĠdeĠming2Ġzi4":6944,"xi1Ġban1Ġya2":6945,"Ġzhan4Ġling3Ġ":6946,"Ġfei1Ġzhou1":6947,"Ġna4Ġme":6948,"Ġzhong1Ġdui4":6949,"Ġkong1Ġjian1Ġ":6950,"yong1Ġyou3Ġ":6951,"II":6952,"Ġqiong2Ġ":6953,"Ġying1Ġwen2":6954,"ĠdeĠshi2Ġhou4":6955,"Ġ12Ġyue4Ġ":6956,"Ġzhi1Ġjian1ĠdeĠ":6957,"Ġyu2Ġ2021Ġnian2Ġ":6958,"ĠĠĠ16":6959,"Ġ11Ġ":6960,"Ġte4Ġla1":6961,"Ġ184":6962,"Ġyu2Ġ2015Ġnian2Ġ":6963,"98":6964,"ĠĠĠgu3":6965,"Ġxiang4Ġzheng1":6966,"Ġtong2Ġpai2Ġ":6967,"Ġge2Ġwei4Ġ":6968,"Ġlin2Ġjin4":6969,"Ġke1Ġji4Ġ":6970,"Ġyi2Ġzhi4Ġ":6971,"ĠdeĠkong4":6972,"ĠdeĠM":6973,"Ġwei4Ġwei4Ġ":6974,"Ġshui3Ġyu4Ġ":6975,"Ġzhong4Ġdian3":6976,"ĠdeĠci2Ġ":6977,"ĠdeĠquan2Ġli4Ġ":6978,"lou2":6979,"ĠQ":6980,"yu3Ġyan2":6981,"shi2Ġdai4":6982,"Ġye3Ġhui4":6983,"43":6984,"ĠĠĠge4Ġren2Ġ":6985,"Ġge1Ġshou3Ġ":6986,"xian2":6987,"zhi2Ġwu4":6988,"Ġwan4Ġmei3Ġyuan2Ġ":6989,"Ġyu2Ġ2018Ġnian2Ġ":6990,"fei2":6991,"zao3Ġqi1":6992,"de2Ġdao4":6993,"duo1Ġci4":6994,"zhong3Ġzu2":6995,"Ġshou3Ġxian1Ġ":6996,"Ġding4Ġyi4Ġ":6997,"ya3Ġ":6998,"Ġsi1Ġxiang3Ġ":6999,"Ġxu4Ġli4Ġya4":7000,"Ġzhuang4Ġtai4":7001,"xiang3Ġ":7002,"xiang1Ġtong2":7003,"zu3Ġhe2Ġ":7004,"Ġhe2Ġli3":7005,"ao4Ġzhou1":7006,"Ġzou4Ġ":7007,"Ġshi4Ġlang2Ġ":7008,"tong1Ġche1Ġ":7009,"Ġshi4Ġwu4Ġ":7010,"Ġxiang1Ġhu4":7011,"Ġlan2Ġke4":7012,"Ġwei2Ġyi1":7013,"3Ġhao4":7014,"Ġsha1Ġsi3":7015,"77":7016,"ge4Ġzhong3":7017,"niao3Ġ":7018,"Ġsa4Ġ":7019,"Ġyu2Ġ2012Ġnian2Ġ":7020,"Ġe4Ġ":7021,"ĠdeĠdan4":7022,"Ġhe2Ġyue1":7023,"Ġbei4Ġqi2":7024,"Ġshen1Ġzhen4":7025,"Ġduo2ĠdeĠ":7026,"ĠĠĠjin3Ġ":7027,"Ġyun3Ġxu3Ġ":7028,"zhi3Ġhui1Ġ":7029,"Ġhe2Ġwu4":7030,"Ġdi4Ġyi4":7031,"Ġqian1Ġding4":7032,"Ġzhe4Ġchang3":7033,"Ġsi4Ġge4":7034,"Ġbu2Ġyao4":7035,"tao2":7036,"ĠdeĠzhang3":7037,"Ġda4Ġsai4":7038,"Ġmei3Ġguo2":7039,"2021Ġnian2Ġ":7040,"Ġji3Ġyu3":7041,"ĠIS":7042,"shui4":7043,"gong1Ġshi4Ġ":7044,"bo1Ġluo2":7045,"ĠdeĠjie1":7046,"Ġhua4Ġshi2Ġ":7047,"Ġming2Ġxing1":7048,"Ġduo1Ġzhong3":7049,"Ġke1Ġji4":7050,"Ġmeng2Ġte4":7051,"Ġzu1Ġjie4":7052,"chang4Ġ":7053,"stĠĠĠ":7054,"xu2":7055,"Ġde2Ġyu3Ġ":7056,"Ġgui4Ġ":7057,"ationĠ":7058,"etĠĠĠ":7059,"ĠĠĠxiang1":7060,"Ġcan3Ġ":7061,"Ġtiao2Ġyue1Ġ":7062,"Ġbiao3Ġxian4Ġ":7063,"Ġjue2Ġsai4Ġ":7064,"Ġ7Ġyue4Ġ":7065,"ĠdeĠqing2Ġkuang4Ġxia4":7066,"aw":7067,"Ġlian2Ġsai4Ġ":7068,"Ġmin2Ġjian1":7069,"Ġpai1Ġshe4Ġ":7070,"AP":7071,"fu4Ġze2Ġguan3Ġxia2Ġ":7072,"ĠdeĠshuo1Ġfa3Ġ":7073,"la1Ġding1":7074,"ĠleĠxu3Ġduo1":7075,"Ġfu4Ġshu3":7076,"Ġzheng4Ġmian4":7077,"Ġshan1Ġji1":7078,"Ġxiang3Ġyao4":7079,"Ġbai3Ġke1":7080,"Ġyu2Ġ2014Ġnian2Ġ":7081,"Ġyu2Ġ2017Ġnian2Ġ":7082,"gui3Ġ":7083,"ba1Ġli2Ġ":7084,"ĠdeĠjiu4":7085,"Ġshi4Ġwei3":7086,"Ġhuo2Ġyue4Ġ":7087,"Ġfan4Ġwei2Ġ":7088,"xing1Ġjian4":7089,"Ġde2Ġming2Ġ":7090,"Ġshe4Ġyu2Ġ":7091,"Ġ1920Ġnian2Ġ":7092,"Ġ1980Ġnian2Ġ":7093,"5Ġren2Ġ":7094,"Ġluan2":7095,"Ġjing1Ġyan4Ġ":7096,"Ġtong2Ġxing4":7097,"Ġma3Ġla1":7098,"chuang4Ġli4Ġ":7099,"Ġer2Ġren2Ġkou3Ġmi4Ġdu4Ġwei4Ġmei3Ġping2Ġfang1Ġqian1Ġmi3Ġ":7100,"zheng4Ġxie2":7101,"Ġbu2Ġhui4Ġ":7102,"ong":7103,"yao2Ġ":7104,"ĠĠĠbei3":7105,"ĠĠĠjiao1Ġtong1Ġ":7106,"bu4Ġtong2":7107,"Ġde2Ġyi3Ġ":7108,"Ġguan1Ġce4":7109,"Ġ46":7110,"Ġdang3Ġyuan2Ġ":7111,"jiao3Ġ":7112,"Ġlan4Ġ":7113,"Ġdi4Ġtu2":7114,"Ġtui4Ġchu1":7115,"Ġren2Ġkou3Ġmi4Ġdu4Ġmei3Ġping2Ġfang1Ġgong1Ġli3":7116,"Ġpi3Ġ":7117,"Ġda4Ġlou2Ġ":7118,"Ġdan4Ġbai2":7119,"Ġbao3Ġcun2":7120,"Ġda2Ġdao4":7121,"Ġwei4Ġyu2Ġzhong1Ġguo2Ġ":7122,"Ġling3Ġshi4Ġ":7123,"ĠdeĠcheng2Ġyuan2Ġ":7124,"Ġshi4Ġdi4Ġer4":7125,"Ġji4Ġsuan4Ġji1":7126,"yi3Ġ":7127,"bi3Ġ":7128,"jiao1Ġyi4Ġ":7129,"Ġyuan2Ġzi":7130,"Ġren4Ġqi1":7131,"Ġfa3Ġlv4Ġ":7132,"Ġzhuan3Ġhuan4Ġ":7133,"Ġling3Ġdao3Ġren2Ġ":7134,"guan1Ġyuan2Ġ":7135,"Ġzhe4Ġzuo4":7136,"Ġxing2Ġwei4Ġ":7137,"Ġsu2":7138,"Ġxian4Ġxiang4":7139,"diao4Ġcha2Ġ":7140,"4Ġge4":7141,"ĠĠĠ0":7142,"Ġbu4Ġzheng4":7143,"Ġxin1Ġjiang1":7144,"Ġao4Ġer3":7145,"eb":7146,"shu2":7147,"Ġjia1Ġzhou1":7148,"Ġhe2Ġnan2Ġsheng3":7149,"kang4Ġ":7150,"chu1Ġshen1Ġ":7151,"yan2Ġhai3":7152,"Ġhui4Ġshang4":7153,"300":7154,"ĠĠĠ20":7155,"ĠdeĠjian1":7156,"Ġyi3Ġyou3Ġ":7157,"Ġdan4Ġshui3":7158,"Ġban4Ġyan3":7159,"Ġguo2Ġjia1Ġdui4":7160,"ĠĠĠnian2Ġ":7161,"che1Ġliang4":7162,"Ġbi4Ġye4Ġ":7163,"Ġcai3Ġ":7164,"chao1Ġguo4":7165,"chu1Ġsheng1Ġyu2Ġ":7166,"Ġli4Ġzi":7167,"Ġren4Ġzhi2":7168,"Ġjun1Ġtuan2":7169,"Ġyan3Ġyuan2":7170,"Ġxin4Ġyang3Ġ":7171,"Ġdie2Ġ":7172,"Ġke1Ġfu1Ġ":7173,"Ġmao2Ġze2Ġdong1":7174,"ĠĠĠchen2":7175,"bu3":7176,"dong1Ġnan2Ġbu4Ġ":7177,"wu3Ġqi4":7178,"Ġli4Ġji1":7179,"jiang4":7180,"ren2Ġzai4Ġ":7181,"ze2Ġshi4Ġ":7182,"ĠdeĠyu2Ġ":7183,"Ġqu1Ġyu4Ġ":7184,"Ġcun4":7185,"gao4Ġ":7186,"Ġjiao4Ġwei2":7187,"Ġxi1Ġlan2":7188,"Ġceng2Ġwei4Ġ":7189,"Ġ1987Ġnian2Ġ":7190,"reng2Ġran2":7191,"tou":7192,"ĠĠĠshang4":7193,"Ġzuo4Ġzhan4Ġ":7194,"Ġfen1Ġbie2Ġshi4Ġ":7195,"kong4Ġzhi4Ġ":7196,"58":7197,"man":7198,"zhi3Ġyou3Ġ":7199,"Ġzhi3Ġyao4":7200,"ĠdeĠzuo4Ġpin3":7201,"Ġzai4Ġdi4Ġer4":7202,"if":7203,"Ġhe2Ġjia1":7204,"guo2Ġji4":7205,"Ġping2Ġwei4Ġ":7206,"Ġkun4":7207,"Ġlv4Ġshi1":7208,"19Ġ":7209,"ĠdeĠqiang2Ġ":7210,"Ġta3Ġni2":7211,"fa1Ġshe4":7212,"Ġshang4Ġshu1":7213,"Ġbo2Ġte4":7214,"Ġrong2Ġna4":7215,"Ġsa4Ġer3":7216,"ĠdeĠhan2":7217,"Ġli3ĠdeĠ":7218,"Ġjiang3Ġxiang4Ġ":7219,"ĠSĠ":7220,"Ġsui2Ġhou4Ġ":7221,"Ġgan4Ġbu4Ġ":7222,"Ġzai4Ġbei4":7223,"Ġna4Ġxie1":7224,"Ġbu4Ġwei4Ġ":7225,"Ġlv4Ġwei4Ġ":7226,"Ġpo4Ġhuai4":7227,"Ġ1948Ġnian2Ġ":7228,"mou3Ġxie1":7229,"li2":7230,"Ġhou4Ġqi1":7231,"wang4Ġ":7232,"tie1":7233,"yi2Ġmin2":7234,"ĠdeĠren2Ġkou3":7235,"Ġsi1Ġzhi2":7236,"Ġyan2Ġren2Ġ":7237,"Ġwan2Ġ":7238,"ying2Ġde2":7239,"Ġgong1Ġjiao1":7240,"Ġxian4Ġyu2Ġ":7241,"Ġmu4Ġbiao1Ġ":7242,"Ġjin1Ġshan1":7243,"Ġ47":7244,"Ġshi4Ġjue2":7245,"3Ġmi3Ġ":7246,"Ġhang2Ġzhou1":7247,"zheng4Ġfu3Ġ":7248,"Ġkao3Ġgu3":7249,"Ġzai4Ġdang1":7250,"Ġyin1Ġqi2":7251,"Ġjin4Ġnian2Ġ":7252,"Ġkai1Ġ":7253,"pp":7254,"Ġì":7255,"Ġhe2Ġji1":7256,"Ġsi1Ġman4Ġ":7257,"Ġling4Ġren2Ġ":7258,"Ġ58":7259,"Ġai4Ġde2":7260,"Ġyu2Ġ2013Ġnian2Ġ":7261,"Ġshi2Ġzhi4Ġ":7262,"Ġ1982Ġnian2Ġ":7263,"Ġ1958Ġnian2Ġ":7264,"ao4Ġlin2Ġpi3Ġke4Ġyun4Ġdong4Ġhui4Ġ":7265,"Ġyu2Ġ2019Ġnian2Ġ":7266,"Ġju4Ġyuan4":7267,"Ġze2Ġwei4Ġ":7268,"Ġmian3Ġdian1Ġ":7269,"gong1Ġkai1":7270,"Ġyu2Ġ2020Ġnian2Ġ":7271,"Ġshou3Ġge4":7272,"ĠleĠyi1Ġxie1":7273,"Ġqu1Ġnei4":7274,"Ġwang3Ġqiu2":7275,"Ġjiao1Ġgei3":7276,"Ġcuo4Ġshi1Ġ":7277,"192":7278,"Ġte4Ġzheng1Ġ":7279,"qun2Ġ":7280,"16Ġnian2Ġ":7281,"Ġyi1Ġci2Ġ":7282,"Ġye4Ġwu4":7283,"Ġdou3":7284,"Ġshou3Ġwei4Ġ":7285,"Ġdeng3Ġdeng3Ġ":7286,"Ġdiao4Ġcha2Ġ":7287,"Ġyu2Ġ2022Ġnian2Ġ":7288,"chu2":7289,"Ġhen4":7290,"Ġsi1Ġzhou1":7291,"Ġta1ĠmenĠdeĠ":7292,"Ġer2Ġgai1Ġdi4ĠdeĠ":7293,"Ġzuo3Ġyou4Ġ":7294,"yue4Ġ":7295,"yi3Ġlai2":7296,"zhe4Ġyi1Ġ":7297,"Ġzai4Ġhai3":7298,"Ġpei4Ġyin1":7299,"Ġruo4Ġ":7300,"Ġyu2Ġle4Ġ":7301,"11Ġnian2Ġ":7302,"ob":7303,"qian3Ġ":7304,"Ġyi3Ġshang4Ġ":7305,"Ġzuo4Ġwei4Ġ":7306,"Ġmian4Ġlin2":7307,"Ġxiao1Ġxi1Ġ":7308,"Ġchou2Ġ":7309,"Ġlang3Ġpu3":7310,"56":7311,"ĠĠĠshe4":7312,"Ġao4Ġdi4Ġli4Ġ":7313,"Ġpin2Ġdao4":7314,"bi3Ġya4":7315,"ĠdeĠde2":7316,"zhi4Ġ199":7317,"Ġyi2Ġzhi3":7318,"Ġda4Ġdi4Ġ":7319,"Ġwei2Ġfan3Ġ":7320,"ĠĠĠdong1":7321,"Ġxue2Ġxi2":7322,"Ġbei4Ġjing3":7323,"Ġxi4Ġju4":7324,"Ġbei3Ġfang1":7325,"Ġrui4Ġ":7326,"ĠdeĠguan1Ġxi4":7327,"yin1Ġ":7328,"mei3Ġyuan2":7329,"Ġshi4Ġren2Ġmin2":7330,"Ġzhai3":7331,"Ġ120":7332,"Ġba1Ġ":7333,"zi4Ġzhi4Ġ":7334,"dong1Ġbei3Ġbu4Ġ":7335,"Ġzhong1Ġye3":7336,"Ġer2Ġbu4Ġ":7337,"Ġzan4Ġshi2Ġ":7338,"kong1Ġjun1":7339,"Ġping2Ġlun4Ġ":7340,"Ġxia4Ġjiang4Ġ":7341,"Ġ33":7342,"Ġ6Ġyue4Ġ":7343,"xue2Ġshu4":7344,"Ġqiao3":7345,"Ġshe4Ġding4":7346,"Ġte4Ġzheng1":7347,"Ġgai1Ġgong1Ġsi1":7348,"Ġliang3Ġguo2Ġ":7349,"Ġhe2Ġqi2Ġta1Ġ":7350,"Ġgong1Ġwu4":7351,"Ġge4Ġguo2Ġ":7352,"4Ġmi3Ġ":7353,"Ġmei4Ġ":7354,"fang4":7355,"Ġzai4Ġshang4":7356,"Ġxian4Ġcheng2Ġ":7357,"Ġcong2Ġci3":7358,"jing1Ġ":7359,"jiang1Ġjun1":7360,"Ġwei4Ġzhi1":7361,"Ġhu1":7362,"Ġzhi4Ġdi4Ġ":7363,"Ġsi1Ġtai4":7364,"Ġren2Ġmin2Ġgong4Ġhe2Ġguo2":7365,"Ġzai4Ġ193":7366,"Ġqin1Ġwang2":7367,"Ġzai4Ġtai2Ġwan1Ġ":7368,"ĠĠĠgai4Ġyao4Ġ":7369,"72":7370,"kang1Ġ":7371,"jiang1Ġsu1Ġ":7372,"Ġji2Ġju4":7373,"Ġzheng4Ġdang3Ġ":7374,"Ġlv4Ġbin1Ġ":7375,"Ġ1979Ġnian2Ġ":7376,"lv3Ġke4":7377,"ling4Ġwai4":7378,"you1Ġshi4Ġ":7379,"Ġxiao1Ġliang4":7380,"li2Ġkai1":7381,"zĠ":7382,"ĠÏ":7383,"Ġde2Ġzhu3Ġ":7384,"Ġliu4Ġ":7385,"Ġ1978Ġnian2Ġ":7386,"Ġfeng2Ġ":7387,"ĠdeĠke1":7388,"Ġzai4Ġying1Ġguo2Ġ":7389,"Ġhe2Ġyuan2":7390,"ji4Ġhua4Ġ":7391,"Ġxi1Ġli3":7392,"Ġling4Ġyi2Ġge4":7393,"Ġmo2Ġxing2Ġ":7394,"pi1":7395,"ĠĠĠshi3Ġyong4":7396,"yong4Ġhu4":7397,"Ġyuan2Ġzhu4Ġmin2":7398,"92":7399,"ang2Ġkong1":7400,"er2Ġtong2":7401,"Ġhe1":7402,"Ġdi4Ġzhi4Ġ":7403,"Ġye3Ġbu4Ġ":7404,"Ġying3Ġ":7405,"ĠdeĠqing2":7406,"mei3Ġzhou1":7407,"Ġren2Ġzhi1":7408,"Ġ1946Ġnian2Ġ":7409,"Ġmao4Ġyi4":7410,"hi":7411,"Ġping2Ġjie4":7412,"Ġjiu4Ġ":7413,"Ġzi1Ġge2":7414,"Ġzhuan1Ġjia1":7415,"Ġdao4Ġlu4Ġ":7416,"Ġe2Ġ":7417,"Ġyu2Ġ2010Ġnian2Ġ":7418,"fang3":7419,"2009Ġnian2Ġ":7420,"ru2Ġ":7421,"qu3Ġdai4":7422,"Ġzhu3Ġban4":7423,"Ġling4Ġyou3Ġ":7424,"Ġzhi4Ġshi4Ġ":7425,"rui4Ġshi4Ġ":7426,"Ġtiao3Ġzhan4":7427,"Ġwei4Ġci3":7428,"Ġna2Ġxia4":7429,"zong1Ġjiao4":7430,"Ġyu2Ġ2023Ġnian2Ġ":7431,"bian1Ġ":7432,"Ġhe2Ġdong1":7433,"Ġer2Ġyan2Ġ":7434,"Ġma3Ġke4":7435,"ĠdeĠxiu1Ġ":7436,"Ġhou2Ġ":7437,"bei1Ġ":7438,"Ġyue4Ġlai2Ġyue4Ġ":7439,"an4Ġnian2Ġ":7440,"Ġzhi4Ġpian4Ġ":7441,"Ġyou2Ġyu2":7442,"Ġzheng1Ġqu3":7443,"Ġzai1Ġ":7444,"nu3":7445,"Ġhe2Ġshang4":7446,"Ġsi1Ġluo4":7447,"Ġtong2Ġmeng2":7448,"Ġ5Ġyue4Ġ":7449,"Ġxie2Ġdai4":7450,"Ġgai3Ġming2Ġwei4Ġ":7451,"Ġyuan1Ġ":7452,"Ġhou4Ġlai2Ġ":7453,"nei4Ġbu4Ġ":7454,"ĠdeĠbo1":7455,"Ġkuo4Ġda4":7456,"Ġtong1Ġguo4Ġ":7457,"Ġcha4Ġ":7458,"Ġji1Ġdui4":7459,"Ġyu4Ġshi3Ġ":7460,"Ġmiao3":7461,"Ġxiao4Ġzhang3":7462,"Ġguang3Ġchang3Ġ":7463,"13Ġnian2Ġ":7464,"hun1Ġ":7465,"qing3":7466,"ci4Ġyu2Ġ":7467,"yun4Ġshu1":7468,"Ġjiu4Ġdu2":7469,"Ġru2Ġhe2Ġ":7470,"thĠ":7471,"our":7472,"omp":7473,"xing2Ġzheng4Ġ":7474,"gang3Ġ":7475,"Ġbu4Ġdi2Ġ":7476,"zhuan1Ġye4":7477,"xi2Ġji1":7478,"ye3Ġ":7479,"Ġlian2Ġbang1":7480,"Ġbao4Ġfa1Ġ":7481,"Ġpeng2Ġyou3Ġ":7482,"qi4Ġche1":7483,"Ġji1Ġfen1":7484,"Ġdang1Ġju2":7485,"Ġ180":7486,"Ġhong2Ġjun1":7487,"Ġyu3Ġqi2Ġta1":7488,"Ġdai4Ġling3":7489,"Ġshi2Ġjiu3Ġnian2Ġ":7490,"86":7491,"ĠĠĠren2Ġ":7492,"zui4Ġda4ĠdeĠ":7493,"ru2Ġhe2Ġ":7494,"Ġzai4Ġbei3Ġjing1":7495,"Ġsheng3Ġwei3":7496,"Ġshen1Ġqing3":7497,"Ġtui1Ġjin4":7498,"Ġzhang4Ġai4Ġ":7499,"79":7500,"Ġzai4Ġqian2":7501,"Ġma1Ġ":7502,"Ġku3":7503,"Ġse4Ġfu1Ġ":7504,"Ġdang4Ġtian1":7505,"zheng1Ġyi4Ġ":7506,"lan":7507,"yi2Ġshi4Ġ":7508,"shi1Ġqu4":7509,"shen1Ġzhen4":7510,"chan3Ġye4":7511,"Ġwei2Ġrao4Ġ":7512,"Ġmiao2Ġ":7513,"ĠdeĠmu3":7514,"Ġshuai4Ġling3":7515,"ĠdeĠer2Ġzi":7516,"zui4Ġ":7517,"2000Ġnian2Ġ":7518,"sheng4Ġ":7519,"Ġde2Ġer3":7520,"biao3Ġyan3":7521,"Ġgong1Ġzhan4":7522,"Ġzhan4Ġdui4":7523,"Ġjing1Ġli3Ġ":7524,"Ġdou1Ġbei4":7525,"zhao3":7526,"biao3Ġxian4":7527,"an1Ġde2":7528,"Ġde2Ġjun1":7529,"Ġban4Ġgong1Ġ":7530,"Ġtian2Ġjing4":7531,"Ġshao4Ġnv3":7532,"shuang1Ġfang1":7533,"ĠdeĠqing2Ġkuang4Ġxia4Ġ":7534,"ĠĠĠjin3Ġguan3":7535,"oĠĠĠ":7536,"chi2Ġ":7537,"Ġjing1Ġdian3":7538,"Ġfu4Ġjin4Ġ":7539,"Ġti2Ġchu1Ġ":7540,"Ġrong2Ġyu4":7541,"2Ġmi3Ġ":7542,"Ġke3Ġyi3Ġzai4Ġ":7543,"Ġguang3Ġgao4Ġ":7544,"Ġshi4Ġyou2Ġyu2Ġ":7545,"Ġcha1Ġyi4Ġ":7546,"jian4Ġcheng2Ġ":7547,"shang4Ġying4Ġ":7548,"ĠdeĠke3":7549,"Ġta1Ġcheng2Ġwei2":7550,"Ġhai3Ġdao4Ġ":7551,"Ġli2Ġzi":7552,"Ġchong1Ġman3Ġ":7553,"Ġzao3Ġnian2Ġ":7554,"Ġzui3":7555,"Ġcuo4Ġ":7556,"Ġfen1Ġlan2":7557,"Ġliu2Ġxing2":7558,"usĠ":7559,"zui4Ġjia1Ġ":7560,"ĠdeĠzhuang4Ġ":7561,"ast":7562,"ĠĠĠlin2":7563,"ri4Ġzhi4Ġ":7564,"Ġni2Ġhei1":7565,"Ġhe2Ġbing4Ġ":7566,"ĠĠĠtong2":7567,"Ġgong1Ġju4":7568,"Ġsi1Ġli4Ġ":7569,"Ġqiu2Ġchang3":7570,"Ġqi1Ġnian2Ġ":7571,"Ġdao3ĠdeĠ":7572,"Ġdi4Ġqu1ĠdeĠ":7573,"yp":7574,"qi3Ġlai2":7575,"tai4Ġguo2Ġ":7576,"ĠleĠdui4":7577,"Ġxia4ĠdeĠ":7578,"ĠleĠgai1":7579,"Ġzu3Ġcheng2ĠdeĠ":7580,"Ġtun1":7581,"Ġfa2Ġli4Ġya4":7582,"Ġzhe2Ġxue2":7583,"Ġshi4Ġxing1":7584,"Ġgong1Ġcheng2":7585,"Ġcheng2Ġzhen4":7586,"Ġguai4Ġ":7587,"Ġwang3Ġlu4":7588,"Ġling3Ġyu4Ġ":7589,"Ġdi1Ġyu2Ġ":7590,"se":7591,"mu4Ġdi4Ġ":7592,"bo2Ġshi4Ġ":7593,"Ġma1":7594,"Ġqiao3Ġ":7595,"ĠJR":7596,"Ġda4Ġqi4":7597,"Ġwan4Ġyuan2Ġ":7598,"jie1Ġdao4Ġ":7599,"Ġsection":7600,"Ġji2Ġer3":7601,"Ġliu2Ġxing2Ġ":7602,"ĠdeĠyi1Ġzhong3Ġ":7603,"Ġhui2Ġgui1Ġ":7604,"Ġka3Ġsi1":7605,"Ġshi4Ġchu4":7606,"xiao3Ġxing2Ġxing1Ġ":7607,"Ġben3Ġpian4Ġ":7608,"Ġcai2Ġpan4Ġ":7609,"Ġhuan4Ġcheng2Ġ":7610,"Ġzhu2Ġbu4Ġ":7611,"Ġhuan1Ġying2":7612,"kai1Ġfang4Ġ":7613,"Ġzhan4Ġtai2":7614,"Ġshang4Ġyou3Ġ":7615,"Ġhui4Ġzhang3Ġ":7616,"Ġjian1Ġdu1Ġ":7617,"Ġchang2Ġjian4":7618,"Ġman3Ġzhou1":7619,"yao1Ġqiu2Ġ":7620,"gai3Ġshan4Ġ":7621,"Ġhe2Ġji2":7622,"Ġguan1Ġzhi4Ġ":7623,"Ġying1Ġli3Ġ":7624,"Ġmo2Ġ":7625,"Ġzi4Ġji3ĠdeĠ":7626,"huang2Ġdi4Ġ":7627,"Ġshe4Ġbei4Ġ":7628,"Ġhai3Ġwai4":7629,"ard":7630,"Ġwu1Ġran3Ġ":7631,"Ġyue4ĠdeĠ":7632,"Ġmai2":7633,"Ġren2Ġdui4":7634,"Ġyi1Ġzhi4Ġ":7635,"Ġzu3Ġcheng2":7636,"Ġwu3Ġhan4Ġ":7637,"Ġjiao1Ġyi4Ġ":7638,"Ġer4Ġ":7639,"Ġzao1Ġshou4":7640,"Ġshi4Ġzhang3Ġ":7641,"Ġru4Ġqin1":7642,"Ġ400":7643,"Ġzhi4Ġhe2Ġ":7644,"ren2Ġmin2Ġdai4Ġbiao3":7645,"Ġpan2Ġ":7646,"ĠĠĠxiao3":7647,"chu1Ġren4":7648,"mei3Ġnian2Ġ":7649,"Ġzai4Ġgao1":7650,"Ġxing2Ġshi3":7651,"ĠleĠta1Ġ":7652,"Ġdan4Ġqi2":7653,"Ġli4Ġbu4Ġ":7654,"ĠĠĠjia1Ġting2Ġ":7655,"na4Ġzhou1":7656,"Ġhe2Ġsuan1Ġ":7657,"Ġzu3Ġzhi3":7658,"Ġzai1Ġpei2Ġ":7659,"Ġlei3Ġji4Ġ":7660,"ĠĠĠ15":7661,"lian2Ġmeng2Ġ":7662,"ling4Ġyi2Ġge4":7663,"Ġke4Ġsa4":7664,"Ġkai1Ġzhan3Ġ":7665,"Ġru2Ġci3Ġ":7666,"Ġming4Ġling4":7667,"ĠĠĠgen1Ġju4Ġ2020Ġnian2Ġmei3Ġguo2Ġren2Ġkou3Ġpu3Ġcha2ĠdeĠshu4Ġju4Ġ":7668,"zhi2Ġmin2":7669,"Ġzai4Ġju4":7670,"Ġzhong1Ġshu1":7671,"Ġyi1Ġdai4Ġ":7672,"Ġlai2Ġna4":7673,"Ġjian1Ġchi2":7674,"Ġdi1Ġqi4":7675,"âĨ":7676,"xiong1":7677,"Ġma3Ġsi1Ġ":7678,"xing2Ġdong4":7679,"2007Ġnian2Ġ":7680,"Ġshe4Ġji2Ġ":7681,"Ġjie2Ġguo3Ġ":7682,"Ġka3Ġla1":7683,"Ġ160":7684,"Ġjiu3Ġlong2":7685,"Ġa1Ġer3Ġbei1":7686,"Ġzhan1Ġmu3Ġsi1Ġ":7687,"kang1":7688,"ĠdeĠgong4":7689,"Ġyou3Ġyi4Ġ":7690,"Ġzhi4Ġliao2":7691,"Ġjia1Ġli4Ġya4":7692,"Ġzhan3Ġxian4":7693,"Ġtui1Ġchu1Ġ":7694,"Ġzhao4Ġpian1Ġ":7695,"EC":7696,"xing2Ġshi4Ġ":7697,"Ġyi1Ġqie4":7698,"Ġbei4Ġpan4Ġ":7699,"Ġchang3Ġbi3Ġsai4":7700,"2024Ġnian2Ġ":7701,"Ġshi4Ġxi1Ġban1Ġya2":7702,"OM":7703,"lian2Ġhe2Ġguo2Ġ":7704,"xu4Ġli4Ġya4":7705,"Ġshi4Ġgai1":7706,"Ġxue2Ġke1":7707,"Ġdian4Ġnao3":7708,"Ġliang3Ġci4":7709,"kao4Ġ":7710,"shen1Ġti3":7711,"Ġhe2Ġjin1":7712,"Ġyue4Ġsheng1":7713,"Ġzhi4Ġyi2":7714,"Ġzhi1Ġdi4Ġ":7715,"Ġzei2":7716,"Ġyi1Ġren2Ġ":7717,"Ġbu4Ġtong2ĠdeĠ":7718,"Ġfa2Ġke4":7719,"ĠĠĠyou2Ġxi4":7720,"miao2Ġshu4Ġ":7721,"ĠĠĠv":7722,"ĠĠĠluo2":7723,"Ġzhe1":7724,"Ġyuan4Ġshi4Ġ":7725,"Ġxie3Ġdao4Ġ":7726,"Ġgui4Ġzhou1":7727,"huan2Ġjing4":7728,"for":7729,"you2Ġxi4Ġ":7730,"feng1Ġge2":7731,"Ġga2":7732,"2023Ġnian2Ġ":7733,"Ġyin4Ġni2":7734,"xin4":7735,"hun4":7736,"chuang1Ġ":7737,"quan3Ġ":7738,"Ġzhi1ĠziĠ":7739,"ĠdeĠdi4Ġyi2Ġge4":7740,"Ġkong4Ġ":7741,"Ġxing2Ġzheng4Ġyuan4":7742,"xue2Ġzhe3":7743,"Ġfu4Ġnv3":7744,"Ġzong3Ġli3Ġ":7745,"Ġsi3Ġhou4Ġ":7746,"tong1Ġguo4Ġ":7747,"sui2Ġzhu4":7748,"Ġruan3Ġjian4":7749,"an3Ġzai4Ġ":7750,"yan3Ġ":7751,"Ġyi4Ġda4":7752,"Ġyuan2Ġming2Ġ":7753,"Ġhuan2Ġjing4Ġ":7754,"Ġshi4Ġfan4Ġ":7755,"ai4Ġer3Ġlan2":7756,"yan3Ġchu1":7757,"Ġpa2":7758,"Ġzhi1Ġshi4Ġ":7759,"Ġchu1Ġlai2Ġ":7760,"Ġzhou1Ġqi1":7761,"Ġzhu4Ġce4":7762,"Ġtai2Ġnan2":7763,"Ġtu2Ġshu1Ġguan3":7764,"fa1Ġdian4":7765,"yan3Ġchu1Ġ":7766,"ban4Ġgong1Ġshi4Ġ":7767,"Ġzhong1Ġduan4Ġ":7768,"Ġzhi1Ġyi4Ġ":7769,"Ġke3Ġ":7770,"ĠdeĠtu3Ġdi4Ġ":7771,"ĠhantĠ":7772,"yi2Ġci4Ġshi4Ġjie4Ġda4Ġzhan4":7773,"Ġti2Ġming2Ġ":7774,"Ġqu3Ġdai4Ġ":7775,"Ġ49":7776,"24Ġ":7777,"ĠdeĠna4":7778,"Ġyi4Ġwai4":7779,"Ġmo4Ġsi1Ġke1":7780,"ĠĠĠgu4Ġshi4Ġ":7781,"Ġyu2Ġ2024Ġnian2Ġ":7782,"qiang1":7783,"bi4Ġyao4":7784,"wang3Ġqiu2":7785,"Ġxian4Ġshi4Ġ":7786,"Ġsi1Ġzai4Ġ":7787,"Ġri4Ġzhan4Ġzheng1":7788,"Ġyan2Ġjiu1":7789,"Ġfan3Ġer2":7790,"Ġshi4Ġjie4Ġshang4":7791,"Ġba4Ġ":7792,"ta3":7793,"Ġhe2Ġzhi4Ġ":7794,"Ġbu4Ġshu3":7795,"yi1Ġci4":7796,"Ġwang1Ġ":7797,"kao3":7798,"ĠdeĠben3":7799,"Ġda4Ġqiao2Ġ":7800,"Ġdan4Ġreng2":7801,"Ġbo1Ġfang4Ġ":7802,"ĠĠĠ2004Ġnian2Ġ":7803,"bing1Ġ":7804,"Ġ000Ġren2Ġ":7805,"pai2Ġming2":7806,"jie2Ġke4":7807,"xuan3Ġshou3":7808,"ĠdeĠxu1Ġ":7809,"Ġqi2Ġta1ĠdeĠ":7810,"Ġxiao4Ġzhang3Ġ":7811,"jing1Ġshen2":7812,"ĠdeĠsuo3Ġyou3Ġ":7813,"Ġzhi4Ġyuan2":7814,"Ġyao4Ġwu4":7815,"Ġfeng1Ġge2Ġ":7816,"Ġji4Ġwei4Ġ":7817,"ĠdeĠcha1":7818,"chong2Ġxin1":7819,"ru4Ġxuan3":7820,"Ġzhong1Ġqi1":7821,"Ġzhi1Ġming2":7822,"Ġxia4Ġwu3":7823,"Ġmei3Ġtian1":7824,"Ġgu3Ġlao3":7825,"Ġfa3Ġlan2Ġxi1":7826,"52":7827,"ya4Ġli4Ġshan1":7828,"guo2Ġwang2":7829,"Ġda4Ġbu4Ġ":7830,"Ġda4Ġshi1":7831,"Ġde2Ġla1":7832,"Ġdai4Ġbu3Ġ":7833,"Ġfu2Ġlang3":7834,"Ġshou4Ġyu3":7835,"Ġqun2Ġdao3Ġ":7836,"ĠdeĠchuang4Ġ":7837,"Ġsheng1Ġming2Ġ":7838,"Ġli3Ġao4Ġ":7839,"Ġan4Ġzhao4Ġ":7840,"Ġpeng2Ġ":7841,"jia1Ġna2Ġda4":7842,"chang2Ġ":7843,"Ġdong4Ġli4Ġ":7844,"ĠleĠci3":7845,"Ġkong1Ġqi4":7846,"ĠdeĠgong1Ġzuo4Ġ":7847,"Ġyu2Ġ2011Ġnian2Ġ":7848,"Ġque4Ġzhen3Ġbing4Ġli4Ġ":7849,"ĠĠĠd":7850,"Ġsheng1Ġcheng2Ġ":7851,"Ġfa1Ġsheng1Ġ":7852,"Ġping2Ġmin2":7853,"ĠdeĠchao1":7854,"ĠdeĠzeng1":7855,"ĠdeĠjing1Ġji4Ġ":7856,"Ġbang4Ġqiu2":7857,"wen3Ġding4":7858,"she4Ġzhi4Ġ":7859,"ĠdeĠbei3":7860,"Ġyi4Ġsi":7861,"Ġyi1Ġyang4":7862,"Ġzuo4Ġluo4":7863,"Ġnan2Ġji2Ġ":7864,"Ġchao1Ġyue4Ġ":7865,"62":7866,"ayĠ":7867,"ĠĠĠla1":7868,"qie4Ġ":7869,"jie2Ġgou4Ġ":7870,"ĠdeĠling3Ġdao3":7871,"Ġzhi1Ġdao4":7872,"Ġdu1Ġdu1Ġ":7873,"Ġsi1Ġling4Ġ":7874,"wo3Ġmen":7875,"ĠdeĠchang3":7876,"Ġzai4Ġyi2Ġge4":7877,"Ġguan1Ġfei4Ġyan2":7878,"Ġbai3Ġnian2Ġ":7879,"bao1Ġkuo4Ġ":7880,"cao3":7881,"2006Ġnian2Ġ":7882,"Ġnian2Ġnian2Ġ":7883,"Ġzhu3Ġli4Ġ":7884,"Ġnan2Ġfei1":7885,"Ġgen1Ġsui2Ġ":7886,"Ġ9Ġ":7887,"ĠdeĠcheng2Ġyuan2":7888,"yi3Ġji2":7889,"zhi1Ġqian2":7890,"Ġxian3":7891,"Ġduo4":7892,"Ġ34":7893,"Ġshui3Ġping2":7894,"Ġ158":7895,"edi":7896,"mer":7897,"ren2Ġhe2Ġ":7898,"Ġwai4Ġguo2Ġ":7899,"tie3Ġlu4Ġ":7900,"ĠĠĠju4Ġqing2Ġ":7901,"500":7902,"an1Ġdeng1":7903,"hou4Ġlai2":7904,"guan1Ġzhong4":7905,"Ġbao4Ġdao3":7906,"Ġzhong1Ġshi4Ġyan3":7907,"Ġyi3Ġxia4Ġdi4Ġqu1Ġ":7908,"usĠĠĠ":7909,"ĠdeĠdao3":7910,"Ġshi4Ġqian2":7911,"Ġqi2Ġfu4":7912,"Ġsui1":7913,"Ġxian1Ġjin4":7914,"mao2Ġ":7915,"ĠĠĠ2Ġ":7916,"fang1Ġxiang4":7917,"fei1Ġ":7918,"bo1Ġchu1":7919,"shi2Ġjian1Ġ":7920,"Ġjiao4Ġtang2":7921,"Ġxia4Ġlai2Ġ":7922,"Ġtui4Ġyi4Ġ":7923,"Ġfan2Ġ":7924,"Ġshi4Ġzhong1Ġhua2Ġren2Ġmin2Ġgong4Ġhe2Ġguo2Ġ":7925,"nve4":7926,"189":7927,"Ġzai4Ġdui4":7928,"Ġshi2Ġyong4":7929,"Ġyou2Ġyong3Ġ":7930,"Ġjiao4Ġshi1":7931,"Ġwei2Ġhu4":7932,"Ġjia4Ġge2":7933,"Ġzhuang1Ġshi4Ġ":7934,"69":7935,"jie2Ġhun1Ġ":7936,"bi4Ġmian3Ġ":7937,"Ġzhi4Ġshao3Ġ":7938,"Ġ1Ġli4Ġ":7939,"ĠdeĠcheng2Ġzhen4Ġ":7940,"ĠdeĠjue2Ġse4":7941,"si3Ġwang2":7942,"tu3":7943,"qi2Ġta1Ġ":7944,"chu1Ġsheng1":7945,"lu4Ġying3":7946,"zui4Ġzao3":7947,"Ġzai4Ġdong1":7948,"Ġhe2Ġshui3":7949,"Ġxiao3Ġshuo1Ġ":7950,"Ġxuan3Ġzhong1Ġ":7951,"Ġhua1Ġyuan2Ġ":7952,"ace":7953,"Ġxian4ĠdeĠyi2Ġge4Ġfei1Ġjian4Ġzhi4Ġdi4Ġqu1Ġ":7954,"you2Ġtai4":7955,"hai3Ġan4Ġ":7956,"cheng1Ġwei2":7957,"pu3Ġbian4":7958,"Ġyu3Ġwen2":7959,"Ġjie1Ġdao4":7960,"Ġzhang3Ġda2":7961,"Ġkong1Ġzhong1Ġ":7962,"Ġzhuang1Ġjia3":7963,"Ġta3Ġer3":7964,"Ġha1Ġer3Ġbin1":7965,"nan4Ġ":7966,"huai2Ġ":7967,"ke3Ġ":7968,"ĠdeĠshou4":7969,"Ġshi2Ġzhen1":7970,"Ġyi1Ġxiang4":7971,"Ġma3Ġen1":7972,"Ġ162":7973,"Ġzong3Ġtong3Ġ":7974,"gai4Ġ":7975,"tou2Ġpiao4Ġ":7976,"yi1Ġzhong3":7977,"Ġtao2Ġtai4":7978,"bian4Ġhua4":7979,"zi1Ġge2":7980,"Ġwei4Ġming2":7981,"Ġda4Ġban3Ġ":7982,"Ġming2Ġjin4Ġshi4Ġ":7983,"Ġqiang2Ġdu4":7984,"hai3Ġba2":7985,"tai2Ġfeng1":7986,"Ġzai4Ġben3":7987,"Ġren2Ġbei4":7988,"Ġyan2Ġchang2":7989,"an4ĠdeĠxiao3Ġxing2Ġxing1Ġ":7990,"Ġtao2Ġwan3Ġ":7991,"yan3Ġchang4Ġhui4Ġ":7992,"5Ġmi3Ġ":7993,"mie4":7994,"lai2Ġyuan2Ġ":7995,"ge1Ġlun2Ġbi3Ġya4":7996,"Ġren4Ġshi2Ġ":7997,"Ġjin4Ġxing2ĠleĠ":7998,"59":7999}