#version: 0.2
ä ¸
ä º
ç ļ
çļ Ħ
å ħ
å ı
æ ľ
ã Ģ
å ¹
ä »
å ¤
å ľ
å Ĳ
å Ī
å Ľ
å ®
å¹ ´
ä ½
æ Ĺ
ç Ķ
å į
æ ĸ
è ¿
å °
æ ĺ
ä ¹
ç »
ãĢ ģ
åľ ¨
ä¸ º
å Ĭ
æ Ī
ä ¼
ä¸ Ģ
å Ń
å Į
å ¸
è ¯
è ®
ä¸ Ń
å Ĩ
åĽ ½
äº º
æĺ ¯
å º
æ Ŀ
å ¼
å ·
äº İ
å ¾
é ĩ
ç ī
ç §
è ¡
ç º
å¤ §
æ ī
é Ģ
æľ ī
å ±
æ Ķ
å ĩ
å Ĵ
åĴ Į
2 0
æ Ń
é ĥ
è µ
è Ģ
æ ķ
å ½
å İ
æľ Ī
å ¯
æ °
é Ļ
æ ĭ
æĹ ¥
ç Ľ
è ĩ
æ ³
å ¥
æ ł
ç İ
1 9
é ĺ
ä» ¥
åĲ İ
æĹ ¶
â Ģ
å ĳ
äº Ĩ
åľ °
æ ²
ç «
æ µ
ä¼ ļ
åŃ ¦
è §
æ Ģ
è ¾
è ´
æĪ Ĳ
é Ĺ
è ½
é Ŀ
å Ł
ä¸ ª
ç Ĳ
ä¸ Ĭ
éĥ ¨
å ī
æĸ ¯
é ķ
ä¸ İ
è¡ Į
ä» ĸ
åĩ º
ä¸ į
æ ¯
åĮ º
æ ´
æ ŀ
æ Ĭ
æ İ
åħ ¬
ç ¬
åħ ¶
åı ĳ
æ ¸
ç ½
ä½ ľ
çĶ Ł
æ Ľ
å° Ķ
åĲ į
ä ¿
ä¸ »
åĪ Ĩ
è ¢
ç Ń
è ĥ
ä¹ ĭ
é ģ
æĸ ¹
ç¬ ¬
çĶ ¨
å® ¶
å §
ãĢ ĭ
ãĢ Ĭ
è ¥
å¹ ¶
ç ¾
è¥ ¿
æ³ ķ
åĪ °
å ¿
èĢ Į
Â ·
æ ¬
é ¢
åĨ Ľ
å »
åı Ĭ
è¢ «
ä ¾
æĶ ¿
ä½ į
ç ±
çĶ ±
æ Į
æľ ¬
ç ľ
æ ±
æ° ĳ
è ·
é Ľ
é ¦
ä¸ ĭ
å¸ Ĥ
å ĵ
å¯ ¹
åĲ Į
è ģ
è ĭ
åħ ĭ
åĬ ¨
æĿ ¥
çī ¹
éķ ¿
è¿ Ļ
å¤ ļ
ä» »
èĩ ª
å¼ Ģ
éĩ Į
åĳ ĺ
åį Ĺ
é ©
åŃ Ĳ
åı ¯
æĸ °
å¹ ³
è ī
å Ŀ
è İ
åĬ ł
å¾ ·
åĮ Ĺ
ãĢ Į
ãĢ į
æľ Ģ
æĸ ĩ
å £
åĪ ©
æ Ļ
ç¾ İ
é «
åī į
ä¸ ľ
ä» £
é« ĺ
äº ļ
éĿ ¢
æµ ·
æī Ģ
¦ ģ
å¾ Ĺ
èĩ ³
ç ¤
å» º
è Ī
éĹ ´
æŃ ¤
åĨ ħ
åĽ ł
äº ĭ
âĢ ľ
ä¸ ī
âĢ Ŀ
çİ °
è¿ Ľ
çĶ µ
) ,
ä¹ Ł
çī ©
è¿ ĩ
èµ Ľ
20 1
çŃ ī
åı °
åº ¦
è½ ¦
åħ ¥
è¯ ¥
ç» ı
å½ ĵ
éģ ĵ
ç ¥
è ¦ģ
ç« ĭ
æĪ ĺ
å° Ĩ
çĲ Ĩ
ç ©
è¡ ¨
ä½ ĵ
ç Ł
ç ķ
æĭ ī
é ¡
å ¦
è °
å ²
æľ º
æķ Ļ
æľ Ł
ä¸ ĸ
è Ĳ
é ļ
æ ı
å· ¥
åĪ ¶
ç ®
èĥ ½
äº Į
å¤ ĸ
åĲ Ī
æ į
è· ¯
å® ļ
åı £
çľ ģ
å¸ ĥ
æ¬ ¡
æ Ħ
é© ¬
è® ¾
åħ ±
æĢ §
éĺ Ł
åľ º
éĢ ļ
ä¸ ļ
å± ±
å° ı
20 0
çĲ ĥ
ä½ Ĩ
è Ĭ
ä½ ¿
é ĵ
è ¶
åį ģ
ä¸Ģ ä¸ª
èĢ ħ
å· ŀ
åĮ ĸ
åħ ¨
æ ĥ
ç ³
æķ °
ç§ į
é £
ç§ °
å¤ ©
è Ĥ
ç½ Ĺ
ç§ ĳ
ç ł
æ Ł
çº ¿
ç Ļ
å¼ ı
ç± ³
ç« Ļ
éĩ į
å® ī
é Ł
èģ Ķ
æ ģ
ç Ĥ
ä¸ ¤
é Ĥ
ç³ »
æ¯ Ķ
æ ¼
ç ¼
1 0
ç Ī
æ ¡
ç ¦
ç ¨
å ¢
æĢ »
éĢ ī
è¿ Ĳ
åĬ Ľ
åİ ¿
åħ °
å£ «
çĽ ¸
éĻ ¢
æ ¹
åŁ º
åħ ³
ä¸Ń åĽ½
éĥ ½
æ² »
åİ Ł
è¾ ¾
åŁ İ
ç» Ł
å ģ
æł ¼
èµ ·
ç» Ħ
æŃ £
æĺ İ
é »
çº ¦
åı ·
èĭ ±
æ° ´
å½ ±
å° ¼
æĪ ĸ
å± ŀ
åº ľ
å ¡
æİ ¥
åı ¸
è® ¡
éĩ ĳ
çĽ ®
é¦ ĸ
çİ ĭ
è® ®
æı Ĳ
åį İ
ç Ħ
ä» ¬
éĺ ¿
åĽ Ľ
ä» İ
åĪ Ĺ
åħ ĥ
ç ģ
æ¼ Ķ
å· ´
ç¾İ åĽ½
è ĳ
0 0
å¦ Ĥ
äº §
è¯ Ń
å Ģ
é ħ
åı Ĥ
åı ²
éĩ ı
å ŀ
æĶ ¹
å¸ ¸
å¥ ³
æ ®
æ ¶
éķ ĩ
åĲ ĳ
è £
è į
åĬ ¡
æŀ Ĺ
1 8
åĮ ħ
æ¸ ¯
å ¨
) .
æĽ ¾
æĹ ł
èİ ·
äºº åı£
çĦ ¶
äº ¤
å Ķ
å® ŀ
å¿ ĥ
é Ķ
åı Ĺ
é ľ
1 2
ä½į äºİ
ç» ´
æĦ ı
åİ Ĩ
ç» ĵ
èī ²
çķ Į
çº §
ä¹ Ĳ
æī ĭ
å§ ĭ
ä¿ Ŀ
å§ Ķ
åĪ Ļ
ä¹ ī
æ Ĵ
å¤ Ħ
åħ ļ
è§ Ĩ
ä¹ ¦
ç ´
åĽ ¢
0 å¹´
ç® ¡
å½ ¢
ç¨ ĭ
æ £
å¯ ¼
å ĭ
1 å¹´
è® ¤
æį ®
ç± »
æ² ³
å° ±
åį ¡
éĹ ¨
æ ·
æĮ ĩ
æľĪ 2
çĽ ´
20 2
5 å¹´
åį ķ
é Ĵ
ç ĥ
è¯ ´
éŁ ³
äº Ľ
å¹ ¿
åŀ ĭ
å· ²
åº Ķ
4 å¹´
æĺ Ł
éĽ Ĩ
ç¤ º
å¥ ¥
æµ ģ
é¢ Ĩ
ç¤ ¾
å ł
ä¼ ł
æ º
æĮ ģ
é ²
åĵ ģ
çĤ ¹
è º
æł ¡
æĽ ´
2 å¹´
å± ķ
å¤ «
3 å¹´
e r
ç ĭ
åĽ ŀ
è Į
ä¸ ¾
æĻ ®
1 1
æ¸ ¸
ä¸ ĩ
ç§ ¯
8 å¹´
èº «
6 å¹´
æ ¢
ç© º
åı į
é ª
èµ Ħ
æĶ¿ åºľ
æĥ ħ
å® ĺ
ç ¡
çº ª
äº Ķ
æ´ »
è¿ ĺ
é ¾
åĩ »
a n
æĶ ¯
é¦ Ļ
æł ĩ
æĬ ¥
æ »
o r
å¸ Ī
åĲ Ħ
æ¹ ¾
éĵ ģ
åĪ «
7 å¹´
è Ĵ
éĢ ł
å¤§ åŃ¦
çº ³
è Ļ
åı ĸ
ä½¿ çĶ¨
ç Ĭ
åı ¤
å² Ľ
ç ĸ
æĪĲ ä¸º
å¤ ª
æĹ¥ æľ¬
i n
åī §
å± Ģ
åħ¬ åı¸
åı ĺ
æĭ ¬
ç ı
æľ ¯
åŃ Ĺ
å ķ
å¥ ¹
ç Ŀ
æĹ ı
ä¸ ĵ
åĳ ½
åĮħ æĭ¬
åľ° åĮº
éĿ ŀ
å¸ ¦
èĳ Ĺ
åĽ½ å®¶
å¼ ł
è® º
è¿ ĳ
åį ³
å¼Ģ å§ĭ
çł Ķ
æľ Ŀ
æ± Ł
åĨ ³
ä¿ ¡
è§ £
æ´ ²
æĽ ²
èĬ Ĥ
ç Ĺ
ç¥ ŀ
é£ İ
o n
çī ĩ
å° ĳ
èģ Į
ä» ¶
ç ²
è¿Ľ è¡Į
ä¼ Ĭ
åĽ ¾
è Ħ
æľ ª
ç ĵ
è® °
åı ª
ç ¿
å¹³ æĸ¹
å® ĥ
æľĪ 1
æł ¹
æĿ ĥ
æ² ¡
çŁ ³
éĻ ħ
ç¬¬ ä¸Ģ
èĭ ı
æ¯ ı
ç¼ ĸ
è§ Ĵ
è½ ¬
åı¯ ä»¥
æĶ ¾
æ³ ¢
æ ¨
äº ¬
ä¾ ĭ
19 9
æĶ ¶
æĿ ¡
çļĦ ä¸Ģ
åĪ Ĵ
è° ĥ
é¾ Ļ
åħ¬ éĩĮ
é¦Ļ æ¸¯
åĳ ¨
åħ ī
åķ Ĩ
åĪ Ľ
æ¸ ħ
è¿ ŀ
åĪ Ŀ
9 å¹´
æ° Ķ
æŃ Į
ç¦ »
æĿ ĳ
å ĸ
æ ĳ
çī Ī
éĻ Ĩ
éĥ¨ åĪĨ
ç© ¶
å Ļ
å¾ Ģ
äºº æ°ĳ
å¤ ´
èİ· å¾Ĺ
è ±
åŃ £
çŁ ¥
ä¸ĸ çķĮ
åı Ī
éĿ¢ ç§¯
åħ Ī
çłĶ ç©¶
åİ »
å¯ Ĩ
æŀ Ħ
åŁ Ł
æ´ ¾
ä» ¤
æī ĵ
ç» Ń
æŀ ľ
åĬ ŀ
å¼ º
éļ ı
æŁ ¥
å¨ ģ
ä¸» è¦ģ
çĻ ½
åĨ į
åħ µ
äº ī
åº §
æŃ ¦
ä»ĸ ä»¬
ç¦ ı
å¤ į
è§ Ĥ
èĤ ²
è£ ħ
åİĨ åı²
å® Į
åħ Ń
l a
åĻ ¨
è®¤ ä¸º
å¼ ķ
é¡ ¹
æ® µ
æ ļ
é¢ ĺ
è¶ ³
åı° æ¹¾
åĵ Ī
æ²¡ æľī
ä¸ Ķ
æĿ İ
ç ĳ
å¡ Ķ
æľ į
éĻ ¤
å± ħ
å® £
æ¬ §
1 5
æĪ ı
ç½ ĳ
æĴ Ń
ç» Ī
è§ Ħ
æĭ ħ
åį ı
èĲ ¥
äº ¦
è® ¸
æİ ¨
è ı
çĵ ¦
åľ £
ä» ½
å§Ķ åĳĺ
å¥ ĸ
åľ Ł
æ¡ Ī
ç½ ®
å½ ķ
ä¿ ®
è´ ¨
è ¨
äº ²
èĲ ¨
è¨ Ģ
çĶ ·
å Ħ
a r
æº Ĳ
ç¬¬ äºĮ
åŃ ĺ
å¸ Ŀ
ä»£ è¡¨
éĹ ®
åĭ Ĵ
ä» Ĭ
è¯ Ħ
åĽ Ń
æ ¥
e n
åħ ·
ç» Ļ
æĬ ¤
ä¾ Ľ
éĽ ·
è¿Ĳ åĬ¨
é¦ Ĩ
æŃ »
æĬ ķ
åħ «
çĪ ±
æĶ¿ æ²»
çĶ± äºİ
æ³ķ åĽ½
éĢ Ł
åħ¶ ä»ĸ
åį ĥ
åĩ Ĩ
å® Ĺ
åį °
å¢ ŀ
è¾ ĥ
è¶ ħ
ä¼ ¯
å¢ ĥ
æ´ Ľ
å¸ Į
æ± Ĥ
åĬ Ł
è§ ģ
çĶµ å½±
çĶ »
çļĦ ä¸Ģä¸ª
æ± ī
1 6
èĩ ´
( ),
åĿ ĩ
åį ĩ
å¤ ĩ
åı ¦
è¯ º
åĬ ©
åį «
å·¥ ä½ľ
åį ļ
ç Į
çİ ĩ
èİ ±
éĺ ³
åĦ ¿
è¾ ¹
ä¼ Ĺ
å¥ ½
è Ĺ
é ¥
å ĥ
å® ¢
å® ¹
èĪ ª
ä¼ ¦
åĳ Ĭ
19 8
æĹ ©
æ¨ ¡
ç ª
ä¹ Į
åĲ ī
è¯ ķ
ä¿ Ħ
ä½ľ ä¸º
ä»¥ åıĬ
æİ Ĵ
åī ¯
èī º
æł ·
æµ İ
å¾ Ī
çģ «
çİ ¯
æķ ħ
å¡ ŀ
æĪ ĳ
æĶ »
åĽ½ éĻħ
é» Ħ
çĶ °
ç¾ ¤
å· ±
èĬ ±
åı¯ èĥ½
æ¯ į
ä¹ Ŀ
çĪ ¶
æĸ ½
åĵ į
çı Ń
è ħ
åĽ ´
ä¸Ń å¿ĥ
è¡¨ ç¤º
1 7
æĬ Ģ
æķ ´
é² ģ
æ² Ļ
ç» §
åĮ »
æĭħ ä»»
3 0
å¤ ±
å¸Ĥ éķĩ
çŃ ĳ
èĲ ½
çĹ ħ
ä¸Ń åįİ
åħ ´
è¯ ģ
ç» ĩ
) ãĢģ
ç³» ç»Ł
æ ¦
è´ £
ä¹ ¡
å¿ Ĺ
å¸ Ń
éĩ ĩ
éĺ ²
èĪ °
å® ¤
è Ń
å± Ĥ
æī ĺ
ä¸Ń çļĦ
éĿ Ĵ
çĽ Ł
ä¸ ĥ
æĦ Ł
èŃ ¦
éľ Ģ
çĻ »
åĨ ł
æĹ¶ éĹ´
çĭ ¬
èĭ± åĽ½
è´ Ł
åį Ĭ
é º
æ¹ ĸ
æ¸¸ æĪı
éĢļ è¿ĩ
å£ °
çĶµ è§Ĩ
å§ Ĩ
éĤ £
çĻ ¾
éħ į
ç ¢
èĩª å·±
åı Į
è½¦ ç«Ļ
éĻ Ī
æł¹ æį®
a l
åł Ĥ
é» ĳ
åıĳ çİ°
æĺ ĵ
çĥ Ń
çļ ĩ
åĨ Ļ
å½ĵ æĹ¶
è¡Į æĶ¿
( ,
ç¡ ®
çº ¢
çĬ ¶
é£ ŀ
åıĳ å±ķ
æĪĲ ç«ĭ
æģ ©
ä½ ķ
å¤ ı
æľŁ éĹ´
æ· ±
ä» į
èĢ ĥ
æŀ ģ
ä½ ı
åį ł
ç ħ
é ±
åħ± åĴĮ
æ£ ®
è¡ Ĺ
1 4
è¶ Ĭ
éĻ Ĳ
å¤ ®
å° Ħ
é ¸
é± ¼
çĶ ²
åĲĮ æĹ¶
æŃ ¥
a t
è®¾ è®¡
ç¤¾ ä¼ļ
âĢ Ķ
é£ Ł
è® ©
å»º çŃĳ
äºİ 19
åĥ ı
åŁ ĥ
è± ¡
ä¹ĭ ä¸Ģ
æĽ ¼
æĿ Ģ
å¯ Ł
è´ ¹
èĮ ĥ
å± Ĭ
æİ §
æī ¹
ç¥ ¨
ä» ħ
æ ½
è´ Ŀ
æĻ ¯
ç»Ħ ç»ĩ
æĸ Ļ
æ Ĥ
åŃ¦ éĻ¢
å¥ ĩ
e s
ä¸į åĲĮ
æ´ ĭ
å² ģ
åıĤ åĬł
æµ ĭ
çķ Ļ
èĢ ģ
ä¸Ń å¤®
å§Ķåĳĺ ä¼ļ
è¿ ª
åĨ ľ
æ¥ ¼
æĸĩ åĮĸ
ä½ İ
æŃ ¢
ä¸ĸ çºª
å· Ŀ
å½± åĵį
æ¯Ķ èµĽ
èĥ ľ
éĿ ©
è¯ į
åĵ ¥
ç§° ä¸º
å¾ ĭ
çī Į
é¡ ¿
æĥ ³
å±ŀ äºİ
æİ Ī
f or
æķ Ī
1 3
å ĺ
æ³ °
è¾ ĸ
ä¾ ¿
å¹³æĸ¹ åħ¬éĩĮ
æ ¤
æľ ¨
éĻ į
åĩ ł
ç§ »
è¿ °
çľ Ł
i c
æ ħ
åģ ľ
æī į
æ° ı
éĵ ¶
æ¡ ¥
( )
èĴ Ļ
æĪ ¿
å¿ µ
æĺ ¾
éŁ³ ä¹Ĳ
æī ¿
æĢ ģ
çĿ Ģ
è´ ¥
âĢĿ .
å ©
ç´ ¢
æ ¾
åħ±åĴĮ åĽ½
åº ķ
åº ·
åº ĵ
é¢ Ħ
ä¸» ä¹ī
é Ń
m u
åŃ¦ æł¡
å¾ ģ
ç´ ł
æ´» åĬ¨
çī Ļ
è¾ ĳ
çľ ĭ
å¼ ¹
åĶ ±
åħ ¸
ä½ľ åĵģ
æŃ£ å¼ı
æ¶ Ī
æıĲ ä¾Ľ
åĪ© äºļ
ç® Ģ
è®¡ åĪĴ
åĩº çİ°
ç½Ĺ æĸ¯
è½ ½
ä¹ ł
ä»ĸ çļĦ
æīĢ æľī
æģ ¯
ä» ·
å ³
ä¹ĭ éĹ´
éĻ Ħ
ç»ı æµİ
ç®¡ çĲĨ
åıĳ çĶŁ
æľĢ ç»Ī
éĵģ è·¯
çł ģ
ãĢį .
çĳ ŀ
æī §
æĹ¶ æľŁ
è¿ ľ
i s
åĿ ¦
æĪ ·
ä¸Ģ ç§į
å¹ ²
åı ĭ
åŁİ å¸Ĥ
åĨ µ
ç® Ĺ
ä¾ §
æķĻ èĤ²
ç¥ ĸ
éĢ Ģ
éŁ ©
å® Ī
æ» ¡
åĲİ æĿ¥
äº ĳ
æ³ ¨
èĪ ¹
mu la
å½ĵ åľ°
è¯ ·
è¯ Ŀ
æ¸ ©
éĤ ¦
for mula
åĢ Ļ
ä½ Ļ
ä½ Ľ
æ Ĳ
æĬ Ĭ
ç« ł
ä¸ ģ
ç² ¾
i t
æĬ Ĺ
å® ģ
çĽ ĳ
19 7
åĪ¶ ä½ľ
åł ¡
19 4
20 å¹´
æľ Ľ
a m
æĹ §
è´Ł è´£
å¾· åĽ½
å· ¦
æĪĲ åĳĺ
ä¸Ĭ çļĦ
æĭ ¿
éĹ® é¢ĺ
æľ Ĺ
éª Į
h e
åĬ ¿
è¿Ľ åħ¥
æĢ Ŀ
ä¸ ´
è®¸ å¤ļ
åĪ ĺ
å ´
çª ģ
é ¹
çł ´
å¿ «
å® «
æĹ ħ
ä¾ Ŀ
åİ ĭ
åº Ħ
ç¬¬ ä¸ī
åĲį ä¸º
èİ «
æľĢ åĲİ
ä¼ ¼
æĪĺ äºī
å¯ Į
ä¸Ģ äºĽ
æ¢ ħ
çĿ £
åĢ ¼
åģ ļ
åħ¨ åĽ½
æĶ¯ æĮģ
å° ģ
èĹ ı
æ° ¸
åĲ «
å» ¶
æĸ Ĺ
èĴ Ĥ
5 0
æĭ Ķ
çĶŁ æ´»
åĽł ä¸º
åİ ħ
ä¹ĭ åĲİ
åį ¢
äºº çļĦ
çħ §
äº ¡
æľį åĬ¡
å¼ Ĺ
éļ ¾
l e
åİ Ĥ
ç» Ĩ
æ¾ ³
åĪ ¤
æ ĵ
æł ¸
æŀ ¶
ä¸ ¹
å¤§ çļĦ
éģ Ĺ
ä¼ ¤
å°¼ äºļ
å®£ å¸ĥ
çļ ®
èĻ ½
å½ Ĵ
åį° åº¦
åı ³
ä¿Ħ ç½Ĺæĸ¯
å·² ç»ı
è¯ Ĩ
åº Ĩ
åıĤ ä¸İ
åľ° æĸ¹
ä¸¾ è¡Į
æĸ Ń
åħ³ ç³»
åıĳ è¡Į
éĹ »
19 6
ç Ĩ
è½ ®
é ½
åı ¶
ä¸ ½
æĿ °
åº Ĺ
æĸ¹ éĿ¢
ç¤ ¼
åĶ Ĳ
åĨ³ å®ļ
å·¥ ç¨ĭ
ï ¼
éĩį è¦ģ
è Ľ
è¶³ çĲĥ
r o
åĮĹ äº¬
åĪ ĩ
ä¸¤ ä¸ª
ä¼ ĺ
çŃ ĸ
ä¸ ¥
ä¸Ĭ æµ·
åº Ń
èµ °
ãĢį ,
å¿ ħ
è¯ »
æĭ ¥
ç» Ŀ
éģ Ń
0å¹´ ä»£
å° ļ
èģĶ åĲĪ
äºº çī©
å¼ Ĥ
r e
åĺ ī
éĥ ¡
äºĭ ä»¶
ç» ĥ
æį ¢
åĮĹ éĥ¨
åĨł åĨĽ
é© »
å½ ¹
èµ «
åŃ¦ å®¶
èĬĤ çĽ®
æ¤ į
å² ¸
éº ¦
éĩ İ
åŃ¦ çĶŁ
å¼ Ł
ä¼ļ è®®
19 5
æ² ¹
äººæ°ĳ åħ±åĴĮåĽ½
æĬĢ æľ¯
éĢ Ĳ
åĶ ®
èĥ Į
æ¯ ķ
æĿ ¾
åĪ° äºĨ
åĬł åħ¥
é ³
å¯ º
00 0
èī ¾
è ĵ
åį ´
ä¿Ŀ æĬ¤
e l
åĪĹ è½¦
ä¹ ħ
æĢ» ç»Ł
æ¬§ æ´²
ç½ ²
20 19
èı ²
éļ Ĩ
è®¾ æľī
æĻ ļ
é ¼
å¹³æĸ¹ åįĥ
èĪ ¬
s t
å ª
åĪĨ åĪ«
æĿ¥ èĩª
ç« ¯
20 20å¹´
çĽ® åīį
ç ¯
æĺ ¥
çŁ Ń
éĢ ģ
åħ ¹
åĪĨ å¸ĥ
åħĭ åħ°
éľĢ è¦ģ
ç³» åĪĹ
ä¹ ĺ
ä½ ³
å° ½
æĿ Ł
å® Ŀ
å®Į æĪĲ
ä¸Ńåįİ äººæ°ĳåħ±åĴĮåĽ½
éĢļ å¸¸
é¡ º
æ°ĳ åĽ½
ä» Ģ
åĲĮ å¹´
æ² ¿
æľ «
æĹ Ĺ
å»º ç«ĭ
åĲ ¯
èį ī
åįĹ éĥ¨
åº ı
åŃĺ åľ¨
éĺ ¶
éĺ µ
èį ¯
å¯¼ èĩ´
èĢ ¶
éĽ Ħ
éħ Ĵ
æļ ´
æĸ¯ çī¹
æ¯ Ľ
æĪĲ åĬŁ
i on
æ³ ½
åħ ¼
é¢ ĳ
äºİ 201
åħ± æľī
åĨ ²
è½ »
è¦ģ æ±Ĥ
æĳ Ħ
çĭ¬ ç«ĭ
è· Ŀ
çĦ¶ èĢĮ
2 5
ç»Ħ æĪĲ
ä¾ĭ å¦Ĥ
æĳ ©
è¿Ļ äºĽ
æľĢ é«ĺ
éĶ Ģ
æ¬ ¾
è¿Ļ ä¸ª
è¾ ĵ
åįķ ä½į
èĻ½ çĦ¶
æµ· æĭĶ
12 æľĪ
å¼Ģ åıĳ
æĭ¥ æľī
å¸ ķ
èĩª çĶ±
ãĢĭ (
ãĢĭ ãĢģ
çģ µ
åŃ Ļ
ä¸ĵ è¾ĳ
æĺ¯ åľ¨
çŃ ¾
åª Ĵ
çĽ¸ åħ³
ä¹Į åħĭåħ°
ç± į
å© ļ
çİ Ľ
æĥħ åĨµ
çĶ¨ äºİ
ç½ ª
19 3
é¡ »
èīº æľ¯
æĺ¯ ä¸Ģ
æĿ Ĥ
äºº åĳĺ
çº ½
é¥ °
æ£ Ģ
éĽ ħ
e t
é¡ ¶
çĲĥ éĺŁ
âĢĿ ,
éĢī ä¸¾
å¯Ĩ åº¦
æĿ ¨
èģĶ çĽŁ
éĩĩ çĶ¨
æŀ ª
i l
å Ĥ
æıĲ åĩº
2 4
ä» ĭ
äºĨ ä¸Ģ
åīį å¾Ģ
åĬ ³
ç§ Ģ
åħ į
o u
7 æľĪ
çķ ¥
åıĹ åĪ°
æ² ĥ
å· ®
æĭ į
éĢ ı
è¿ ½
å® ³
äº ¿
æ ¿
ãĢĭ ,
å· ¡
o l
æĸ¹ å¼ı
9 æľĪ
çĽ ĸ
åĩ ı
èĭ ¥
è§Ĵ èī²
è´ ¢
ä¸º äºĨ
10 æľĪ
éĴ Ł
è¢ Ń
8 æľĪ
è¿ ģ
éĩ Ĭ
åĽ½ æ°ĳ
äºĮ åįģ
æĿ ¿
èī ¯
a c
å° ¾
åĲ ´
å¤§ éĻĨ
è® Ń
è ŀ
åħ· æľī
èį £
æĿ ¯
åĲĪ ä½ľ
3 æľĪ
è° ·
çĪ Ĩ
éħ ¸
äº¤ éĢļ
æķ £
æı ´
æł ĳ
æŃĮ æĽ²
åĩº çīĪ
éĽĨ åĽ¢
èģĶ èµĽ
äº§ çĶŁ
ç £
æĺ ł
çļĦ å¤§
é¦ĸ æ¬¡
å® ĭ
ä¼ ģ
è¯ ĳ
è´ Ń
äº Ī
æķ° æį®
åĸ Ħ
± ä¹Ĳ
å¾ ®
é» İ
æ´ ¥
åħ¶ ä¸Ń
èĤ ¡
å° º
è¡ ¥
çī¹ åĪ«
æ¯ķ ä¸ļ
è® ¿
å± ĭ
ç»§ ç»Ń
å® ¡
è´ µ
äº Ĵ
è¡ Ģ
é«ĺ åº¦
é¡¹ çĽ®
ç»ĵ æĿŁ
6 æľĪ
æĻ ĭ
è½ ¨
çĶŁ äº§
çĥ Ī
åģ ĩ
åĽł æŃ¤
è® ¯
éŁ ¦
ã ĥ
ãĢĭãĢģ ãĢĬ
åħ »
éĻ ©
ç»ĵ æŀĦ
èĩ £
5 æľĪ
å¸Ŀ åĽ½
é¢ Ŀ
æı ı
æī ©
2 3
éĥ¨ éĺŁ
è¥¿ äºļ
ä¸ª äºº
è¯Ń è¨Ģ
æķ ĳ
äººåı£ å¯Ĩåº¦
æ¯ Ĵ
æİ§ åĪ¶
é² ľ
å¯¹ äºİ
åĸ ľ
ç§ĳ åŃ¦
æİ¥ åıĹ
å½¢ æĪĲ
ç« ŀ
1 æľĪ
åıĸ å¾Ĺ
ä»» ä½ķ
æĹ¶ ä»£
æµ· åĨĽ
è¡Į åĬ¨
ä¸» å¸Ń
åĮº åŁŁ
æĮ ¥
å³ °
éĿ¢ç§¯ ä¸º
æķħ äºĭ
å¤ º
æĿ ľ
æ°ĳ ä¸»
èĪ ŀ
æ¦ Ĥ
éĶ ¦
è¯ Ĺ
åĩº çĶŁ
æĹł æ³ķ
è® ²
4 æľĪ
éĢ Ĥ
11 æľĪ
éĢ Ķ
çļĦ æĺ¯
ä¹Ł æĺ¯
æĭ ľ
ä¸ °
æľº æŀĦ
çİ ©
çĶ ļ
å¢ŀ åĬł
åĮº çļĦ
éĢł æĪĲ
4 0
2019 å¹´
æľ ±
å¸ ģ
çĸ Ĺ
é½ Ĳ
æ¢ ģ
èį ·
è¾ Ĩ
éĻĦ è¿ĳ
ä¸» æķĻ
è¶ħ è¿ĩ
çļĦ äºº
ç§ ĺ
å» ·
é¢Ĩ å¯¼
æĮ ī
ä¼ł ç»Ł
ç»ĵ æŀľ
ç½Ĺ é©¬
å¾ Ħ
ä»¥ ä¸ĭ
ç ĩ
å® ¾
éļ ¶
202 1å¹´
ç ¦ģ
æĴ ¤
ä¸Ń åħ±
åĿ Ģ
æĿ Ĳ
åį Ī
in g
è´ §
åĩ ¯
åĬ¨ çī©
æ¸ Ĳ
çĬ ¯
èĥ ¡
202 2å¹´
a s
åĨĽ äºĭ
2 1
ç« ¥
æķ ¦
èĪª ç©º
åľ Ĩ
ä½ ©
çĽ Ĭ
çļĦ æĹ¶
ä» ª
å¤ Ł
æłĩ åĩĨ
o m
åıĳ å¸ĥ
5 æĹ¥
èģ ļ
è° ¢
10 0
æĸ° éĹ»
6 0
éª ¨
æ· ·
çĮ ®
çĽ Ľ
åĨħ çļĦ
è¿ Ķ
åıª æľī
ãĢĭ .
ä» ģ
éĥ İ
çī Ľ
çļ Ĩ
æķ° éĩı
æŁ Ĳ
è® ¨
å°± æĺ¯
ç¿ °
åĪ ĳ
ç© Ĩ
çĤ ¸
æį ķ
éĺ¿ å°Ķ
å¨ ľ
éĿ© åĳ½
èĮĥ åĽ´
äºİ 200
c h
å¤§ åĪ©
å¸ ®
åªĴ ä½ĵ
e d
éĻ¤ äºĨ
å® ½
å¾Ĺ åĪ°
æľº åľº
å¥³ æĢ§
èĮ ¨
å®ī åħ¨
è°ĥ æŁ¥
è¿ĩ ç¨ĭ
è§ ī
æİ ¢
ä¹ĭ åīį
æł¼ åħ°
ç»ı è¿ĩ
çĤ ®
æĻ º
åº Ļ
åĨħ å®¹
åħ¬ åĽŃ
çĪ¶ äº²
å¹ ķ
æĪ ª
åĲ ¦
éģ ĩ
å¤ ľ
: âĢľ
(, ),
éŁ© åĽ½
çĶ· åŃĲ
ä¹ Ķ
åįģ äºĮ
éľ į
èµ ŀ
åħ ħ
è Ķ
æĭ ©
2 2
è½ ¯
éĩį æĸ°
å¥³ åŃĲ
å¹³æĸ¹åįĥ ç±³
åĪ »
æīĢ ä»¥
éľ ²
èµĽ äºĭ
æĽ ¿
7 æĹ¥
ä¼ ĳ
å° ¤
ç§ ģ
åĪ º
ä½į ç½®
å¹³ åĿĩ
è ĸ
å «
èĩªå·± çļĦ
çİ ī
è¿ĲåĬ¨ åĳĺ
æŁ ĵ
çºª å¿µ
å±ħ æ°ĳ
6 æĹ¥
201 0å¹´
ä¸Ģ èĪ¬
é¸ Ł
åĪĽ ä½ľ
åıĳ è¡¨
åº Ł
ä¸Ģ åĲį
ç¼ º
éĿ ł
u s
ä¸ Ŀ
ã ģ
éĴ Ī
æķ Į
åĢ Ł
æĺ Į
çİ° ä»£
è®¾ ç«ĭ
ç» ©
è¯ ī
æº ª
æĬ µ
éĤ ®
æľī éĻĲ
èģĶ éĤ¦
åĲ Ľ
å· ¨
è ľ
åĲ ¸
å® ĩ
è¥¿ çıŃ
è· Ł
çĪ µ
ä¹ ±
å±ŀ çļĦ
èĵ Ŀ
è¥¿çıŃ çīĻ
éª ĳ
å¾ ¡
2 8
å® ª
æĹ¶ çļĦ
3 1
çľ ¼
è®® ä¼ļ
åıį å¯¹
æ¼Ķ åĳĺ
æ¤į çī©
ä¸Ģ çĽ´
åĿ ¡
æ® ¿
åħ± äº§
æķĻ æİĪ
æį Ł
å¾ Ĵ
éĽ ª
æĿ¥ çļĦ
å·¥ ä¸ļ
åĽ º
æ°ĳ æĹı
è¯ ¸
ä¾ µ
åĪ Ĭ
çīĪ æľ¬
åĮ ¹
æľī åħ³
ç¬¬ åĽĽ
éĢ ĥ
åħ¬ è·¯
çĽ´ æİ¥
çİ° åľ¨
éļ Ķ
202 3å¹´
è ª
å»º è®¾
4 æĹ¥
èģĮ ä¸ļ
æī ¾
çİ¯ å¢ĥ
è° ĭ
ä¸¾ åĬŀ
èĦ ĳ
æ¶ ¯
éļı åĲİ
ä¸Ń åŃ¦
3 æĹ¥
ä¹ İ
éĢī æĭ©
åĨĽ éĺŁ
çĹ ĩ
è¿ĺ æľī
éĿŀ å¸¸
ç¿ »
æ¬ ¢
èĭı èģĶ
åıį åºĶ
ç¼ĸ çłģ
ä½ ł
çĶ ³
åħ¬ å¼Ģ
d e
ä½ĵ èĤ²
å£ ¤
éĥ ĳ
å² ©
éĵ¶ è¡Į
æ¦ ľ
è£ ģ
èµĦ æĸĻ
åħ± åĲĮ
æ± ĩ
å½¢ å¼ı
åĨ³ èµĽ
ç© ¿
æĪĺ æĸĹ
è¡Į æĺŁ
åħ Ħ
åı ¬
éĥ½ æĺ¯
åĨ °
æĺ¾ ç¤º
éĤ »
æ¼ «
åįı ä¼ļ
2 æľĪ
æĢ ¥
æ¿ Ģ
åĲį ç§°
. âĢĿ
è·Ŀ ç¦»
2 7
o f
å¥ ī
æĸ¹ æ³ķ
ç» ľ
éķ ľ
æĪ Ī
åŁ ¹
u n
åĶ ¯
æİ¨ åĩº
åĲį çļĦ
è¯ ¾
å°ı è¯´
ç¬ ¦
èĥ ŀ
åĪ© çĶ¨
å¤ļ æķ°
åĲ ¬
çĶŁ æ¶¯
æ¯ ģ
è®® åĳĺ
èĬ ¬
è¿ «
ç¾İ åħĥ
çĽ´ åĪ°
æĸ¯ åĿ¦
ä¹¦ è®°
ä¼ģ ä¸ļ
è® ¢
è° Ī
åĳ ¼
é» ĺ
åĮħ åĲ«
èĩª æ²»
å¾ ħ
æ³ķ å¾ĭ
éĽ ¨
é Ĩ
ä¸Ģ èµ·
ç®¡ è¾ĸ
æĮĩ æĮ¥
åĳ Ī
èĤ ¯
S t
è¿Ļ ä¸Ģ
åģ ¥
å®Į åħ¨
ä¸» ä»»
æĢ Ģ
èĢ ³
åı° åĮĹ
ä¸Ńåįİ æ°ĳåĽ½
çĶŁ çī©
æĸ° çļĦ
ï¼ į
çĸ ĳ
æ³ Ľ
å®¶ åºŃ
èµ µ
åĿ ļ
ä¸ľ åĮĹ
ä¸į æĺ¯
2 6
æ³ķ éĻ¢
äºº ç±»
èİ ī
éĻ µ
æĦ ¿
en t
âĢĶ âĢĶ
ã Ĥ
an d
æĵ į
æĹ ĭ
æĪĳ ä»¬
å®¶ æĹı
èĩª çĦ¶
å§ ĵ
åı¦ ä¸Ģ
æľī ä¸Ģ
åŃ¦ ä¹ł
åľ° çļĦ
åĨį æ¬¡
r i
202 4å¹´
æ¶ ī
çĶµ åŃĲ
å¤§ éĩı
æŀ ļ
æĮĩ åĩº
é¢ Ĺ
æĶ¿ çŃĸ
åħ³ äºİ
æĪ ´
æ¯ «
åŃ ©
èĦ ±
æī§ è¡Į
åĬ¨ çĶ»
çĶļ èĩ³
åĪĨ ä¸º
201 6å¹´
çĲĨ è®º
3 5
è¡¨ çİ°
èŀ į
: ãĢĮ
æľĪ1 æĹ¥
åĲİ çļĦ
å¿ħ é¡»
åĮ» éĻ¢
2 9
æļ Ĥ
åŁº ç¡
åį ±
ç» ¿
ä»¥ æĿ¥
è¡Į ä¸º
å°Ĩ åĨĽ
å¦ »
ç§ ĭ
ä¸ľ éĥ¨
çĽ ĺ
æľĢ ä½³
æģ Ĵ
å¢ĥ åĨħ
å°½ ç®¡
201 1å¹´
èĪ į
o w
æī İ
æĢ§ çļĦ
æľĢ åĪĿ
åĿ Ĳ
è Ŀ
é¡ ¾
æĸĩ åŃ¦
åŁºç¡ Ģ
æĶ¹ ä¸º
åį ·
æ¨ ª
201 8å¹´
ç¾ ½
æŁ ı
ä¸ŃåĽ½ å¤§éĻĨ
ä¹ Ī
åĬ ª
å®ĺ æĸ¹
ç¿ ¼
ç´ §
åįļ çī©
èī ĩ
åķĨ ä¸ļ
ç¯ ĩ
çľģ ä»½
è¾ Ľ
æĶ» åĩ»
æ» ¨
æĦı å¤§åĪ©
è´ ¡
åħ¬ åħ±
å¥ ı
ä¹ °
çī© ç§į
æŃ» äº¡
æĴŃ åĩº
u r
æ¡ ĳ
éĴ ±
æĬ¥ åĳĬ
ç±» ä¼¼
åĿ ı
æĻ® æŁ¥
éŃ Ķ
ç¼ ©
æľĿ é²ľ
æĶ¿æ²» äººçī©
æ´ ª
å¸Ĥ åľº
201 4å¹´
æĹ© æľŁ
èĥ½ åĬĽ
¤ Ĳ
æ½ ľ
å®ŀ éĻħ
äºļ æ´²
è Ĩ
æıı è¿°
å¢ ĵ
a d
è¯ ¯
æ¼Ķ åĩº
è§Ħ æ¨¡
8 0
çº¦ ç¿°
åĽ¢ ä½ĵ
åĬł æĭ¿
éģ ¿
å¿ ł
åħ¨ çĲĥ
ç» į
æ® ĸ
åİ» ä¸ĸ
æĭį æĳĦ
å¤Ħ çĲĨ
æĺ¯ ä¸Ģä¸ª
æł ĸ
æµ·æĭĶ é«ĺåº¦
çģ Ń
ä¹ĭéĹ´ çļĦ
è¥¿ éĥ¨
å¤ĸ äº¤
å¹¿ ä¸ľ
ä¸ĭ çļĦ
éľ ĩ
æµ Ļ
201 7å¹´
201 2å¹´
åĪ¶ éĢł
éĵ ľ
201 5å¹´
èĥ½ å¤Ł
ä¸¥ éĩį
å¤§ ä¼ļ
å» ī
ç¦» å¼Ģ
ç« ¹
çļĦ åľ°
çĸ «
åŁº æľ¬
ãĢį (
å®Ĺ æķĻ
æģ ¶
æ± ½
å® ľ
è¿ ·
i g
ä¼ į
çºª å½ķ
é³ į
ä¸º ä¸»
ä½ľ çĶ¨
è¿ ¹
è¿Ļ ç§į
éĹ Ń
å¥ Ĺ
200 1å¹´
æĮģ ç»Ń
åĿ Ĺ
åģ ı
å°ı æĹ¶
ä» ĺ
è®¡ ç®Ĺ
201 3å¹´
è·¯ çº¿
200 9å¹´
18 9
t h
æī ¬
åħ±äº§ åħļ
äºĭ åĬ¡
åŃ Ķ
è¯¥ åĽ½
ç©º éĹ´
çļĦä¸Ģä¸ª å¸Ĥéķĩ
èµ ĸ
è¡ £
8 æĹ¥
è¿ İ
7 0
å°Ķ æĸ¯
æ³ ī
åĪ ļ
è¾ ħ
t he
å¸Į æľĽ
ä»» åĬ¡
çĽ® æłĩ
æŀ Ĳ
èĦ ī
ä¸ī ä¸ª
å¥¹ çļĦ
æ± ł
ç»Ł æ²»
æİ¥ å£¤
èª ī
ä¼ °
åı¦ å¤ĸ
æĸ¹ åĲĳ
æ¸ ¡
æģ Ĳ
ç¼ ĺ
æĸĩ çī©
ç¬¬ åįģ
ä¸ľ åįĹ
åĬŁ èĥ½
èĳ £
éļ ľ
å¼ ĥ
å¹´ çļĦ
åįķ æĽ²
éĺ¿ æĭī
ãĢ ī
ãĢ Ī
åĬłæĭ¿ å¤§
çº½ çº¦
å¢ ¨
éĶ¦ æłĩ
æĭ Ľ
äº «
è· ¨
è®¾ æĸ½
æľĪ åı°
èµ ¤
å¯ »
19 2
èµĽ åŃ£
èħ Ĭ
æĺ¯ çĶ±
åī ĳ
éĢı è¿ĩ
çĶ ĺ
äº ķ
ä¿ ±ä¹Ĳ
è§Ħ å®ļ
ä¸» æĮģ
éĶ ¡
éŃ ı
çĲĥ åĳĺ
éĢ Ĭ
ä¿±ä¹Ĳ éĥ¨
éĺ »
åĪĨå¸ĥ äºİ
ä»į çĦ¶
åįļçī© é¦Ĩ
éĢī åĮº
åıĺ åĮĸ
æĥ ł
åĲĪ å¹¶
è´ ¸
è§£ æĶ¾
åĽ½ çİĭ
çĳ Ł
ä¸Ģ æ¬¡
é¢ ģ
åħ¬ å¸ĥ
å·´ å£«
å¼Ģ æĶ¾
å¹¿ æĴŃ
åĨ ¬
åħĭ æĸ¯
ç» ĺ
å¦Ĥ æŀľ
åħĭ éĩĮ
äº ®
200 8å¹´
ä»ĸ åľ¨
èĤ ī
è¾¾ åĪ°
å®ŀ éªĮ
èµ ¢
ä¹Ł æľī
åĶ¯ ä¸Ģ
åİŁ åĽł
è ¸
å½ĵ ä¸Ń
éĢĲ æ¸Ĳ
æį ·
èı Į
åıĳ åĬ¨
éĥ¨ éķ¿
äººåı£ æĻ®æŁ¥
çĥŃ å¸¦
çº ²
åĦ¿ åŃĲ
ç» ¼
é©¬ æĿ¥
åĵ ²
çŁ ¿
è¿ŀ æİ¥
å½ĵ éĢī
4 5
æ¨¡ å¼ı
å¾ Ĳ
ç ¹
å¤§ åĮº
è¾ ŀ
ç¬¬ä¸Ģ æ¬¡
ä¸ľ äº¬
åı· çº¿
çģ ¾
èĴĻ åı¤
è¿ĲåĬ¨ ä¼ļ
å®ļ ä¹ī
i d
æľīéĻĲ åħ¬åı¸
o s
çĽ¸ å½ĵ
éĺ ´
èĽ ĭ
åĲĦ ç§į
è®Ń ç»ĥ
æ´ ŀ
ç¨ ³
ç»Ĩ èĥŀ
æ½ ®
çĽ¸ åĲĮ
r a
åĩ» è´¥
å¦ ĩ
åı Ļ
æ¼Ķ åĶ±
é£İ æł¼
å¤ª å¹³
çĬ ¹
å¤ª éĺ³
å¦ ¹
19 0
èĢħ çļĦ
ç¹ ģ
I N
æ° §
éģĵ è·¯
ä½ Ĳ
c t
æĪĲ ç»©
4 8
æļ Ĺ
æŃĮ æīĭ
æİ Į
T C
æĭ Ĵ
å¥¥ è¿Ĳ
æ» ĳ
åı¸ ä»¤
æģ ¢
çİ© å®¶
ä¸ĵ ä¸ļ
å¹¶ ä¸į
éĺ¶ æ®µ
äºº å£«
t er
éĴ ¢
è¥¿ åįĹ
åĢ Ĵ
202 5å¹´
åĨ ·
åĨ Į
æī¹ è¯Ħ
. ãĢį
è¥¿ åĮĹ
èĻ İ
çĲ ´
ä¸įåĲĮ çļĦ
ç§ Ł
å»º éĢł
ä¸Ģ æł·
è®¾ ç½®
äº§ åĵģ
ä¼ Ĳ
âĢ ĵ
åĬŀ åħ¬
è½¨ éģĵ
æĺ Ĥ
ç¨ İ
é© ±
ä¿ Ĺ
å¾ ½
äºİ 199
ä¸į è¿ĩ
è¡ĮæĶ¿ åĮº
çı ł
è¢« ç§°ä¸º
éº »
èī ĺ
å¥ Ī
éĶ Ļ
ç¡ ¬
åĿ ĳ
èĥĮ æĻ¯
åľ Ī
å®ļ çļĦ
å¹ ¼
åĳ ³
çĶ º
çĪĨ åıĳ
å½ ¼
æµĻ æ±Ł
åĪĨ éĴŁ
å°ı è¡ĮæĺŁ
æĤ £
çļĦä¸Ģ éĥ¨åĪĨ
éĺ ģ
èĳ ¡
å¢ Ļ
å½ ©
ä¼¦ æķ¦
ä¹ Ļ
9 0
åŃ¦ èĢħ
å¤§ æĪĺ
æµ ¦
æģ¢ å¤į
åºĶ çĶ¨
å¸Į èħĬ
ä¸ī åįģ
æĶ¹ éĿ©
çļĦ ä¸»
åį ĸ
æ¯į äº²
è§ ¦
9 æĹ¥
èº« ä»½
çº ¸
å¯ ¿
u m
3 6
éĥ¨ éĹ¨
èŃ¦ å¯Ł
æİĴ åĲį
ç¬ Ķ
å±± ä¸ľ
è± ª
åĽ °
æ® ĭ
é£ŀ æľº
i m
åĪ¶ åº¦
åī Ĥ
ä¸Ģ ä½į
éĿĴ å¹´
ä¸į èĥ½
èİ İ
è ķ
ä¿ ĥ
ä¸ĭ è¾ĸ
è¯Ħ è®º
è¿Ľ å£«
ç² ī
æĽ¾ ç»ı
æľĢ å¤§
âĢ ¦
æĬķ èµĦ
èĦ ļ
éĢ Ŀ
é«ĺ éĢŁ
ç½ĳ ç»ľ
i r
å¤ı åŃ£
o t
è£ Ĥ
è®° è½½
æ¡ £
æ¥ ļ
æµ ª
èµ ı
æ¢ ¦
å°Ĩ åħ¶
å¯¼ æ¼Ķ
3 8
åĮĸ åŃ¦
æ² ī
èµĦ æł¼
éĽ ¶
å¤© æ´¥
o d
å¹¿ å·ŀ
æĺ Ń
äº ¨
ãĢį ãĢģ
æŁ ±
æĭ Ł
å¾Ī å¤ļ
åģ ¶
åĨ Ī
å° Ĭ
çĶµè§Ĩ åı°
å¸® åĬ©
åįļ å£«
éĤ Ģ
çļĦ æĸ°
çĽ Ĳ
200 7å¹´
å¼ ±
è® ·
çĸ Ĩ
åı «
ç¬¬ äºĶ
éĻ ·
åħ¨ éĥ¨
åĪĨ åŃĲ
å´ ĩ
æģ ĭ
ä» Ļ
æ¶ ħ
çĭ ±
ç Ĵ
è¯ Ĭ
at ion
3 7
ç¾¤ å²Ľ
äºİ 18
éĿ Ļ
å¥¥ æŀĹ
ä»» åĳ½
éĻĨ åĨĽ
åĨľ ä¸ļ
æĿĤ å¿Ĺ
æ± Ĺ
ç» ķ
åŁº çĿ£
é ¤Ĳ
I n
çļĦ çī¹
ä¸į ä¼ļ
åħ¬ å°º
æķ´ ä¸ª
åĲį åŃĹ
è£ Ķ
v e
åĲ ķ
ç®Ģ ç§°
çĶ· æĢ§
ç«ĭ æ³ķ
æ¶ ²
è ļ
å¤ļ æ¬¡
ç¥ Ń
é¢Ĩ åŁŁ
èµ¢ å¾Ĺ
å»º è®®
åıĬ åħ¶
è´Ŀ å°Ķ
ä½ľ å®¶
é¼ ĵ
ç¬¬äºĮ æ¬¡
ä¾ ¯
æ ©
è¿ŀ ç»Ń
åĪĨ æŀĲ
è¡¨ æ¼Ķ
çĸ ¾
ä¼ ´
ä¼ Ł
åįĹ äº¬
i a
ä»ĸä»¬ çļĦ
éĶ¦æłĩ èµĽ
åĲĮ æł·
èĻ ĳ
å¹¿ åľº
å¥¥æŀĹ åĮ¹
æĢ» äººåı£
ç»ı å¸¸
åĩº çļĦ
åĪĻ æĺ¯
ä¸ ĺ
åĽĽ å·Ŀ
åĮº ä¸º
åħĪ åĲİ
åıĳ å°Ħ
ä¸Ń éĥ¨
äºī è®®
5 00
åĩ ¤
å¹ ħ
åľ° ä¸ĭ
é¢ ľ
éĥ Ń
åľ° çĲĥ
æĭ Ĩ
çī §
çŃī äºº
éĢŁ åº¦
æĪª èĩ³
è®° å½ķ
è®¾ å¤ĩ
é© ¶
ç¦ı å»º
äºº ä»¬
ç»´ å°Ķ
æĲ Ń
åĩº ä»»
ä¿Ŀ æĮģ
åľ°åĮº çļĦ
æĿ¡ ä»¶
å¼ķ èµ·
æ°´ åŁŁ
200 6å¹´
ç» ª
æĭī æĸ¯
çľģ çļĦä¸Ģä¸ªå¸Ĥéķĩ
è§Ħ åĪĴ
æĹ¥ åĨĽ
ä¼Ĭ æĸ¯
æŁ ¯
æ²³ åįĹ
åıĤ èµĽ
ä¿¡ æģ¯
éģŃ åĪ°
å¹³ åı°
å±ħ ä½ı
å¤ı ä»¤
å¤ļ çļĦ
è¯¥ åľ°
é£ŀ è¡Į
U TC
åĤ ¨
ç»Ł è®¡
è¢Ń åĩ»
åĨħ éĥ¨
çĽ¸ å¯¹
å¹¿ æ³Ľ
èĻ «
çī© çĲĨ
è¿ĩ åİ»
æķĻ åłĤ
å®ĺ åĳĺ
è¶Ĭ åįĹ
S T
èĩ³ ä»Ĭ
ä¸Ģ æŃ¥
æĪĺ å½¹
200 5å¹´
æĭĴ ç»Ŀ
èĶ ¡
æĸ¯ ç§ĳ
å¤ļ ä¸ª
æ£ Ĵ
èĭ± æĸĩ
è´¸ æĺĵ
åħ ģ
è§ Ī
æłĸ æģ¯
çĵ¦ å°Ķ
å¥¥æŀĹåĮ¹ åħĭ
åŁİ åĮº
èĲ Ħ
æ¯Ķ äºļ
èĳ¡ èĲĦ
å¹ ¸
æĺİ æľĿ
ç³ ĸ
åĦ¿ ç«¥
a g
æµģ è¡Į
æľĢ æĹ©
åĩ ½
å¡ŀ å°Ķ
ç§ ¦
æ· ¡
åıĸ ä»£
æľĪ2 1
æĹ ģ
é¢ĳ éģĵ
æ¼« çĶ»
é¥° æ¼Ķ
éĻ ¶
è¿ Ŀ
ç¾İ æ´²
æľª èĥ½
æ³¢ åħ°
ç»ı åİĨ
è¡Ĺ éģĵ
æ± ¤
ç¢ ĳ
çļĦ ä¸»è¦ģ
æľĪ2 2
åĩł ä¹İ
æĮ ĳ
å·´ é»İ
æ¦Ĥ å¿µ
èĻ ļ
é ŀ
å®ŀ çİ°
æĮ ¯
âĢĿ (
ç½ĳ ç«Ļ
å¤Ħ äºİ
æľĢ å¤§çļĦ
å·¦ åı³
é¾ Ħ
çĦ¶ åĲİ
è®° èĢħ
å®ŀ æĸ½
åįı åĬ©
å® ¿
åĩı å°ĳ
æĶ¹ åıĺ
èİ·å¾Ĺ äºĨ
è§Ĩ ä¸º
è· ĳ
ä¾ į
è¿ Ī
æ® Ĭ
è½¦ è¾Ĩ
èĳ ¬
åľ° éĵģ
ä¼ ¸
éķ¿ æľŁ
å±ķ å¼Ģ
çĨ Ļ
åĪĨ ç±»
çļĩ å¸Ŀ
è¿Ĳ è¾ĵ
æĺ Ĩ
ç§ĳ æĬĢ
å¤§ éĥ¨åĪĨ
èĭ± æł¼åħ°
åĩºçĶŁ äºİ
éķ¿ çļĦ
å½± çīĩ
ç±» åŀĭ
o p
ä¼ļ åľ¨
ä¹ ĥ
èĮ ¶
çĬ¶ æĢģ
çļĦæĹ¶ åĮºä¸º
æ¯Ķ è¾ĥ
éģ į
ç¬¬ ä¸Ģä¸ª
ç»ı èĲ¥
åįł é¢Ĩ
åİ¿ çļĦ
åī§ æĥħ
æ¾³ éĹ¨
çº¿ çļĦ
æĬķ ç¥¨
ç»§ æī¿
å® ħ
ä½ľ æĪĺ
çĥ §
åĽ½ çļĦ
æ²» çĸĹ
æŃ¦ åĻ¨
éĻĲ åĪ¶
3 4
åįģ ä¸Ģ
b r
ä¸ļ åĬ¡
åŁº äºİ
èį· åħ°
çŃ ¹
è§£ åĨ³
çº ¯
å¤© ä¸»æķĻ
çĩ ĥ
èĪ° éĺŁ
å¨ģ å»ī
è½ °
åĴĮ å¹³
å¦ ®
éĶ ®
å®£ ä¼ł
l i
çº¿ è·¯
åĭ ĭ
çı į
S E
çģ ¯
åľŁ åľ°
åİ ¦
åĩĨ å¤ĩ
u b
ç´ ¯
éĽ ķ
å² Ń
åĿ Ľ
èµĦ æºĲ
T he
è¾ ½
éļ Ĳ
æĬ ĺ
çļĦ æķ°æį®
åĭ ĩ
3 9
åĩº äºĨ
è¡ ¡
s e
ä½ĵ çļĦ
a y
æĸ¹ æ¡Ī
èı ľ
æĿ¥ æºĲ
ç»Ł ä¸Ģ
è¯Ħ ä»·
çĤ İ
è¯ķ åĽ¾
é½ ¿
æ¸ħ æľĿ
çĶµè§Ĩ åī§
å³ ¡
æ±½ è½¦
åİŁ æľ¬
I I
æ¾³ å¤§
å¤§ çº¦
å®ĥ ä»¬
æĸ¯ çļĦ
åħ´ å»º
åŃ Ł
åħĦ å¼Ł
çļĦ æĥħåĨµ
éĵģ éģĵ
éĢī æīĭ
äºº åľ¨
çł´ åĿı
ãĢįãĢģ ãĢĮ
éģ £
é©¬æĿ¥ è¥¿äºļ
åįı è®®
ç£ ģ
æīĢ åľ¨
èĲ §
éĤ® æĶ¿
7 5
çĲ ³
åĽŀ åĪ°
C h
è½ ´
æķ ¬
éļı èĳĹ
åĶ± çīĩ
ä¸º æ¯ı
è¿Ľ ä¸ĢæŃ¥
å£ ģ
åĪĿ æľŁ
çļĦ å½±åĵį
è¿Ĳ è¡Į
. .
4 6
é¥ ®
ä¸» è§Ĵ
æĽ ¹
è ¦
æĶ¹ ç¼ĸ
çĬ¹ å¤ª
æħ Ī
ç® Ń
è¿Ľ æĶ»
èĩª åĬ¨
å¹ »
è¡ Ķ
å¨ ±ä¹Ĳ
è¿ĺ æĺ¯
ç²¾ ç¥ŀ
æķ ı
å°ı åŃ¦
èµ ł
ç»´ æĮģ
éĴĪ å¯¹
ä¸Ń æĸĩ
è§Ĥ ä¼Ĺ
æ¢ °
åŁº éĩĳ
e m
è´ ¤
æ² Ī
åı Ľ
è¿Ľè¡Į äºĨ
åŁİ éķĩ
æľº è½¦
18 8
å¤§ æ¥¼
çĶŁ äºİ
ç»Ħ åĲĪ
ä» Ķ
æĢ» éĿ¢ç§¯
è¿Ĳ èĲ¥
è´ ¾
ä¸» é¢ĺ
äººåı£ æķ°éĩı
åľ¨ æŃ¤
è¾ Ĳ
ä¸į ä¹ħ
éĶ ĭ
ç¯ ®
çī¹ å¾ģ
çľģ çº§
å§ Ĳ
æŃ£ åľ¨
çº ¹
å¤ªå¹³ æ´ĭ
. ãĢĬ
éĥ¨ ä»½
åĬł ä¸Ĭ
å·ŀ çļĦ
èĹ ¤
è¢« è®¤ä¸º
çģ °
äº¤ æĺĵ
o c
v er
éĿ¢ çļĦ
ç©º åĨĽ
ç»¼ åĲĪ
åĨ ¯
å¤§ åŀĭ
è´Łè´£ ç®¡è¾ĸ
åıĮ æĸ¹
éĤ ĵ
ç¡® å®ļ
éĻ ķ
æ¾³å¤§ åĪ©äºļ
èµ ´
æķĻ ä¼ļ
% .
çŃ Ķ
æľī çļĦ
è§£ éĩĬ
ç¾İåĽ½ äººåı£æĻ®æŁ¥
è¯ģ æĺİ
åĽ¾ ä¹¦
ä»· åĢ¼
è¿Ķ åĽŀ
èĳ£ äºĭ
è¦ Ĩ
åĲį åįķ
åİ ļ
æīĢ å±ŀçļĦ
å¾· éĩĮ
æĦŁ æŁĵ
åĪ Ģ
ç¨ĭ åº¦
äºĳ åįĹ
ä» °
3 2
æ³ ³
è° ±
æ¹ĸ åįĹ
æ³ķ åħ°
ä¸» æ¼Ķ
çļĩ å®¶
æ²³ æµģ
çĥ Ł
åĢ į
å°ı ç»Ħ
çİĭ æľĿ
çļĦ åīį
åħĥ ç´ł
å¼ķ åıĳ
å°Ķ å¾·
å¥³ åĦ¿
åĩ Ń
ä¿Ŀ çķĻ
çº µ
a p
æĹħ æ¸¸
æľ ĭ
æ¨¡ åŀĭ
é¦ĸ éĥ½
åħ¬ åħĥ
å¸¸ è§ģ
è¶ħ çº§
é ¬
æĺ¯ ä¸Ģç§į
è´¢ æĶ¿
èĴ ĭ
æ² Ł
ä¸´ æĹ¶
äººåı£æķ°éĩı ä¸º
åĩº èº«
çķ ª
åĬł åĿ¡
u t
å¤© æĸĩ
æī¹ åĩĨ
é«ĺ çº§
åĨ² çªģ
åĽ½ éĺ²
ç½ ķ
è®¨ è®º
å° ĸ
åĬĽ éĩı
æĺ¯ åĲ¦
ç¬¬ åħŃ
20 ä¸ĸçºª
ä½Ľ æķĻ
åĽ½ ä¼ļ
çĳŀ å£«
åĲĮ æĦı
åĽ½æ°ĳ åħļ
åĽ½ åĨħ
æ¯ı å¹´
éĩįè¦ģ çļĦ
äºĨ ä¸Ģä¸ª
çłĶç©¶ æīĢ
åı ¥
éĿ ĸ
æľº åħ³
3 00
è¶ £
é© ¾
å¹´ è½»
å¤§ èĩ£
æ¡ ĥ
è®® éĻ¢
200 4å¹´
ç»ĵ åĲĪ
çļĦä¸Ģ ç§į
åĩ ¡
äº§ ä¸ļ
å·ŀ å¸Ĥ
è¾ ī
äºĮ ä¸ĸ
è· ³
æĸĩçī© ä¿ĿæĬ¤
åĬĽ çļĦ
æĸ° åĬłåĿ¡
æŁ ´
è¿ ħ
æĽ¾ åľ¨
å¤ĸ çļĦ
åİ¿ çļĦä¸Ģä¸ª
æŃ¦ è£ħ
æĹ º
åĽ½ ç«ĭ
æĻ® éĢļ
ä¸Ĭ æĺł
200 0å¹´
ç¼ ĵ
çĨ Ł
ä¸ª æľĪ
éĽĨ ä¸Ń
ç§ĺ ä¹¦
å»º æĪĲ
ä¸Ģ å¹´
åŁ Ķ
æ°Ķ åĢĻ
åįģ ä¸ī
æİ ª
æĸ¯ åŁº
è§£æĶ¾ åĨĽ
å¤§ ä½¿
ç¥ ¥
éģ Ĥ
æĺŁ æľŁ
å¥½ çļĦ
æ §
æĶ¶ åħ¥
åıĸ æ¶Ī
ç¼ĸ åı·
äºº æķ°
åľ¨ ç¾İåĽ½
æ½ ĺ
å°Ķ çļĦ
ä¸ĸçķĮ å¤§æĪĺ
æĸĩ ä»¶
æĬķ åħ¥
å¿« éĢŁ
æī¿ è®¤
an s
è¥¿ æ´ĭ
åı¯ è¾¾
èŃ¦ æĸ¹
an t
éĿŀ æ´²
( "
æĢ» éĥ¨
å·´ è¥¿
ç»´ äºļ
ãĢģ ãĢģ
èĩ³ å°ĳ
æł¸ å¿ĥ
é¹ ¿
å¿ Ĩ
å¤§ å¤ļæķ°
éļı çĿĢ
æĸĩçī©ä¿ĿæĬ¤ åįķä½į
è ©
6 5
ä» ĵ
æĿ¡ çº¦
4 7
åĭ ¤
é£İ æļ´
åĽ½ åĬ¡
ä¹ ı
èĭ Ĺ
ä¸į æĸŃ
èĥľ åĪ©
è¿Ļ æł·
ä¸į å°ĳ
èī² åĪĹ
æĢ» çĲĨ
èĭ± è¯Ń
æĸ¯ åħĭ
èĳĹ ä½ľ
c e
åŃ Ŀ
åİ Ħ
19 1
ç¼ ħ
åĪĽ ç«ĭ
æ³ Ĭ
åŃĲ çļĦ
éĩį å»º
9 æľĪ2
10 æľĪ2
è© ¹
æĹ¶ ä»»
ç§ Ĵ
ä»İ äºĭ
å¥¥æŀĹåĮ¹åħĭ è¿ĲåĬ¨ä¼ļ
æľª æĿ¥
æľī æķĪ
å¥¥ æĸ¯
è®¿ éĹ®
åĽ¢ éĺŁ
o g
è´ ¯
çĮ İ
çĹħ æ¯Ĵ
åħ¬ æ°ĳ
è¥¿ çľģ
æ°ĳ ä¼Ĺ
åįĬ å²Ľ
æ±Ł èĭı
ä¸Ģ åº§
çļĦ å¸Ĥéķĩ
èİ ²
ä¸ŃåĽ½ äººæ°ĳ
æĶ¶ å½ķ
æħ ķ
åħģ è®¸
é©¬ åħĭ
å¹´ åº¦
æĴ Ĵ
èĳĹ åĲį
3 3
ç ŀ
æµĭ è¯ķ
èĳ Ľ
è°ĥ æķ´
åĮĸ çļĦ
æĻ ¨
ä¼ ı
ç¨ĭ åºı
çĵ ľ
éĥ½ ä¼ļ
å°ĳ å¹´
ä¹Ĳ åĽ¢
åĢ ¾
18 7
ä¸Ģ ä¸ĸ
æµ· å²¸
çİĭ åĽ½
èĽĭ çĻ½
ç»ĵ å©ļ
éļ¶ å±ŀäºİ
æĻ ¶
éĥ½ æľī
u l
ç¬¬ ä¸ĥ
çĶµ èĦĳ
åģľ æŃ¢
çĶ¨ æĿ¥
æ¢ ¯
é«ĺ çŃī
ä»¥ ä¸Ĭ
æħ ¢
åĵĪ å°Ķ
çļĦ çłĶç©¶
am p
éĺ¿æĭī ä¼¯
èĥ ģ
æİ¥ è¿ĳ
ä¸ĭ åįĪ
èĢĥ èĻĳ
è¡ĮæĶ¿åĮº åĪĴ
å±± èĦī
äºİ 198
è´ º
å°¤ åħ¶
æ®ĸ æ°ĳ
åĩ Į
æĢĿ æĥ³
çĶµ åı°
ä¸ŃåĽ½ åħ±äº§åħļ
çĽ´ èĩ³
èĹ ©
åĳ¨ è¾¹
æĸ° å¢ŀ
ä¸Ģ å¸¦
éĤĢ è¯·
æµ ®
å§Ķ ä¼ļ
åĮ» çĸĹ
ä¸į åı¯
èµ· æĿ¥
åħ³ æ³¨
ä½¿çĶ¨ çļĦ
ç´ «
åįģ åħŃ
ç¡ ķ
é¬ ¼
6 4
å¦Ĥ ä¸ĭ
çĶ³ è¯·
æĥ Ĭ
èħ ¹
in d
è§Ĥ å¯Ł
åĿ İ
åįģ äºĶ
æĺİ æĺ¾
åĨį åº¦
ç¥ĸ çĪ¶
æĶ¿ åħļ
5 5
åįģ åĪĨ
çĽ¸ ä¼¼
è¯¾ ç¨ĭ
å¡ ĳ
èĬ Ŀ
ä¹Ķ æ²»
åĮ Ī
æĢ ª
ä¿ Ĭ
åĲĪ çī©
å®ª æ³ķ
è¡¨ è¾¾
åħ±æľī äººåı£
åħ¥ ä¾µ
å£« åħµ
ä» ²
å®ī æİĴ
æĴ °
åĲ ¨
èĭ ¦
æ¯ķä¸ļ äºİ
a k
åĬ ±
ç½ ļ
åĪ° è¾¾
äººæ°ĳ æĶ¿åºľ
A T
å¨ģ å°Ķ
å¥ ´
æĶ¯ æı´
ç§» åĬ¨
åŃ¦ æľ¯
æ³ ¥
æĴ ŀ
ä¸į åĨį
18 6
3 æľĪ2
éĶĢ åĶ®
å± ¿
åĢĻ éĢī
æĿ ī
è·¯ æĺĵ
çĽ Ĺ
% ,
æĭī åħĭ
ç¦ Ħ
éĩį çĤ¹
çĶ¨ çļĦ
æĹł çº¿
è¯ ¦
ä¸ §
ä¼Ĭæĸ¯ åħ°
å Ĺ
12 æľĪ2
åºĶ è¯¥
çĨ Ĭ
âĢĿ ãĢģ
, ãĢĬ
æĹ ¨
è¥¿ åĵ¥
çī¹ çļĦ
8 æľĪ2
ä»¥ èī²åĪĹ
ç¢ į
çļĦæĹ¶ åĢĻ
çİ° è±¡
å¦» åŃĲ
éģĹ åĿĢ
çĹ Ľ
ä¸º æ³ķåĽ½
çĶ¨ æĪ·
åıĺ æĪĲ
ç² Ĵ
åľ° åĪ©
èī² çļĦ
çĮ ª
å°± è¯»
åı¯èĥ½ æĺ¯
éĩĳ å±ŀ
æĹ§ å¸Ĥéķĩ
6 æľĪ2
æĬµ è¾¾
åįģ åĽĽ
æĿĲ æĸĻ
æĹ© å¹´
é ī
éĤ®æĶ¿ ç¼ĸçłģ
ä¹ ³
æĢ» çĿ£
è´¨ éĩı
éĺ ħ
æıĲ åįĩ
ä¸į æĺİ
çĦ ¦
4 9
æŀĦ æĪĲ
å°ĳ æķ°
åįģ åħ«
åīį çļĦ
èģĮ åĬ¡
a b
åº Ĭ
è· ĥ
çĩ ķ
å®ī è£ħ
æŁ ³
ç¨³ å®ļ
åį« æĺŁ
å½ Ń
20 æĹ¥
æ± ¡
äººåı£å¯Ĩåº¦ ä¸ºæ¯ı
é«ĺ çļĦ
éĢĿ ä¸ĸ
å·¥ åİĤ
ar d
æŁĲ äºĽ
æ¯Ķ åĪ©
30 æĹ¥
å± ı
å¹´ ä»£
æ¡ Ĥ
é Ħ
èĪ Ĵ
ä½ĵ ç³»
æģĴ æĺŁ
æĬ ļ
çī© è´¨
åĴ ¸
é¡ µ
å¡ ĺ
å»º äºİ
å¤± åİ»
ä»ª å¼ı
åĿ Ĭ
SE E
å¥¥ åľ°åĪ©
éī ´
200 3å¹´
éĻĨ åľ°
äºİ19 7
åĩ½ æķ°
åĩº åı£
ç¤¾ åĮº
çĶ ¸
ç§ĳ çļĦ
åĪĽ åĬŀ
ãĢģ (
æİ ī
éĶ ģ
éĺŁ çļĦ
å¢¨ è¥¿åĵ¥
æĸ¹ çļĦ
å»º åĪ¶
ä½¿ å¾Ĺ
åĲ ĥ
æľĭ åıĭ
è° ĵ
æĲ ľ
æĵį ä½ľ
æİ¥å£¤ çļĦå¸Ĥéķĩ
è¯ ļ
æĸ ĳ
æĸĩ ç«ł
èĲ¨ åħĭ
IN SEE
äºĭ ä¸ļ
æĦı è¯Ĩ
æĻ® éģį
æ°§ åĮĸ
, âĢľ
çº ¬
ç ĺ
çļĦ å°ı
ç§» æ°ĳ
æ¯ı å¹³æĸ¹åħ¬éĩĮ
ç¿» è¯ĳ
4 æľĪ2
å¨ģ èĥģ
æ¯ı ä¸ª
å¾Ĺ ä»¥
èĤ ĥ
å°ļ æľª
åĬŀåħ¬ å®¤
æľĪ1 5æĹ¥
å¹¿ åĳĬ
7 æľĪ2
åħ¥ åı£
æĹł äºº
æ¡Ī ä»¶
è¯ ŀ
åŀ Ĵ
æĹ ¢
æĮ Ĥ
æľº æ¢°
t o
èĥ ¶
éļ §
å¹³ éĿ¢
æĪĸ èĢħ
( ;
çĬ¶ åĨµ
æ¶Ī æģ¯
å¦Ĥ æŃ¤
ä¼ļ çļĦ
éģĹ äº§
åı¬ å¼Ģ
4 4
ä¸¤ äºº
äº¤ æµģ
å¾ ª
è¡¨ æĺİ
æĦı ä¹ī
æ°ĳä¸» åħļ
æĮĳ æĪĺ
200 2å¹´
10 æĹ¥
å¯¹ æīĭ
æıĲ é«ĺ
å¼ ĺ
èģĶåĲĪ åĽ½
çľĭ åĪ°
åĭ ĥ
è¯´ æ³ķ
æķ° åŃĹ
èģĶ ç³»
çķ Ķ
åĽ¾ä¹¦ é¦Ĩ
æħ §
ç¦ģ æŃ¢
åħ¥ éĢī
åĮĹ ç¾İ
ä¸į è¶³
èº« ä½ĵ
æłĩ å¿Ĺ
ç¬¬ 1
å¤Ħ çļĦ
çĲĥ åľº
åģ¥ åº·
æĭ ĵ
å² ³
å¸ĥ æĭī
åĪĽ éĢł
å± ¯
èĳ¡èĲĦ çīĻ
ç¥ Ŀ
ç±³ å°Ķ
è¢ ĸ
åıĳ çĶµ
åľŁ èĢ³
ä¹ ¾
çº ·
ä¸¤ ç§į
æ£® æŀĹ
æĪ Ĵ
äººåı£å¯Ĩåº¦ æ¯ıå¹³æĸ¹åħ¬éĩĮ
åľŁèĢ³ åħ¶
n e
åŃĹ æ¯į
æį Ĳ
æ° ¢
i e
ç® ±
èĩªæ²» åĮº
å¤± è´¥
å¸Ĥéķĩ ç¼ĸçłģ
ãĢ İ
çī¹ æ®Ĭ
åĮ» åŃ¦
ãĢ ı
åħ ½
çĳŀ åħ¸
çļĦ é¦ĸ
åį ĳ
äºİ æĹ¶çļĦ
ç±³ çļĦ
åĪĹ ä¸º
æ£ ĭ
ä¸Ģ åĲĮ
äººåı£å¯Ĩåº¦ä¸ºæ¯ı å¹³æĸ¹åįĥç±³
åĲĮ ä¸Ģ
æĻ ĵ
å½ĵåľ° åħ±æľīäººåı£
çĶŁ åĳ½
æ²³ åĮĹ
äºº å¤§
åľ ³
èĩª è¡Į
åį ¿
æµ ħ
ä¸ľ è¥¿
é«ĺ ä¸Ń
å»¶ ä¼¸
å¼º è°ĥ
éħĴ åºĹ
çľģçº§ éĢīåĮº
æīĢå±ŀçļĦ çľģçº§éĢīåĮº
å¸ĥ é²ģ
åį« çĶŁ
å¹¶ æ²¡æľī
çľģ åĴĮ
åĬ¨ åĬĽ
åĲĦ åľ°
ç¼ĸ è¾ĳ
å¥ĸ é¡¹
ä¸Ń å±±
11 æľĪ2
çĽ® çļĦ
éľĢ æ±Ĥ
åĳ½ ä»¤
éģ¿ åħį
6 8
æĬ¥ å¯¼
åıĹ ä¼¤
èĲ¥ è¿Ĳ
ä¼° è®¡
è½° çĤ¸
åıĪ ç§°
ç¼º ä¹ı
æľ¬ åľŁ
è¿ħ éĢŁ
æĹ ¦
åıĳ èµ·
ä¸Ģ å®¶
æµ· åŁŁ
R e
æī °
18 æĹ¥
æĲ ¬
æ³¨ æĦı
æ¬¢ è¿İ
æĶ¿ æĿĥ
éĩĮ çļĦ
ä¸» å¼ł
åİĨåı² ä¸Ĭ
å¹¶ æľª
éĥ Ĭ
åī ©
äºİ19 4
è¾¾ æĪĲ
æĸ¯ å¡Ķ
åĲ¸ å¼ķ
çĹĩ çĬ¶
ä¿¡ åı·
æı Ĵ
é² į
åĸ Ģ
å¤ĸ åĽ½
çŁ¥ éģĵ
è§Ħ åĪĻ
åĽĽ ä¸ª
ä»ĭ ç»į
S A
äºº åĴĮ
å®ī å¾·
ä¹ĺ å®¢
éĩĳ èŀį
æķĻ ç»ĥ
å¿ĥ çĲĨ
æĿ Ĩ
æĴ¤ éĶĢ
çİ »
ä¾ ¦
éľ ¸
ä¸ ²
is t
å°¼ æĸ¯
è´ ŀ
åı¯èĥ½ ä¼ļ
æķ° åŃ¦
éĥ¨ èĲ½
å´ İ
å¸Ĥ çļĦ
ä¹Ł åľ¨
æĽ´ åĲįä¸º
31 æĹ¥
T V
an g
ç¬¬ 2
5 æľĪ2
éĵ ¾
æĦŁ åĪ°
åħ¬ ä¼Ĺ
æ¬ ²
å½¼ å¾Ĺ
èĥ İ
æķĪ åĬĽ
A n
äºĭ å®ŀ
4 00
çĶŁ éķ¿
å°Ķ åħ°
æķĻ å¸Ī
ä» ¿
éĩĩ åıĸ
æİ¨ åĬ¨
æķĻ åŃ¦
es t
æµ ĵ
è ¹
åįĹ åĮĹ
èĳĹ åĲįçļĦ
å¤§ è¥¿æ´ĭ
èµĦ è®¯
è´Ń ä¹°
ä¿¡ ä»°
æī§ å¯¼
æŀ ¢
é¼ ł
ä¸Ńåħ± ä¸Ńå¤®
æĸ¯ èĴĤ
çļĦä¸Ģ åº§
è¯ ¢
çļĦ æĸ¹å¼ı
ä¼ Ļ
ç¥ŀ ç»ı
åľ¨ 199
å½ »
èĽ ĩ
åį ĵ
æĶ¾ å¼ĥ
åŁº åľ°
çİ° åľº
æĬ¥ éģĵ
12 æĹ¥
æĴŃ æĶ¾
19 æĹ¥
éĩį åºĨ
åĵģ çīĮ
çļĦ åĲĮ
2 æľĪ2
åįģ åŃĹ
âĢĿãĢģ âĢľ
å¤§ éģĵ
æ³ķ æ¡Ī
ç¨ĭ å¼ı
åıĤ èĢĥ
çļĦ ç¬¬ä¸Ģ
è´¡ çĮ®
æĭ ³
ç½ĳ è·¯
åĩº æĪĺ
æīĵ åĩ»
åĳ½ åĲį
å£ ®
èĭ± éĽĦ
å®¹ æĺĵ
) ;
11 æĹ¥
ç¬ ĳ
åİ ĺ
åĨĽ çļĦ
æ³° åĽ½
åįĹ æŀģ
ç§¯ æŀģ
æĵ İ
æĬĹ è®®
åĸľ æ¬¢
åĽ½åĬ¡ éĻ¢
ä¸Ģ åº¦
æı Ń
åī ²
äºĭ æķħ
ä¸Ģ æĿ¡
ä¹Ŀ é¾Ļ
å¤º å¾Ĺ
çī ł
è¯ģ æį®
äºİ19 6
æĢ§ è´¨
æİ¥ è§¦
äº Ń
éĺŁ ä¼į
N A
æ´ Ĺ
åį ľ
è£ħ çĶ²
æī ®
å° Ŀ
èµ Ĳ
å¤ļ ç§į
çŁ¥ è¯Ĩ
å±Ĭ åħ¨åĽ½
åį¡ å°Ķ
èĤ º
äºİ19 5
çĶŁ æĢģ
å¼º çĥĪ
æ¹ĸ åĮĹ
çª Ĺ
èĬ ³
æĮ ª
å®ī å¾½
å±ķ ç¤º
çĸ ı
å¤į æĿĤ
èĢĮ è¢«
æ¶ī åıĬ
æĽ´ å¤ļ
æľ¬ èº«
ä¸ĸçķĮ æĿ¯
çł ²
å®Į æķ´
èı² å¾ĭ
æĿĥ åĬĽ
çļĦ åİŁ
éĩĮ äºļ
èı²å¾ĭ å®¾
äºº å·¥
æĿ Ń
è¥¿ æĸ¹
å¸Ĥ åĮº
ç»´ å¥ĩ
ç¾½ æ¯Ľ
çİ Ħ
ä¸ĩ ç¾İåħĥ
åħ¬ ä¸»
çĪ± å°Ķåħ°
è´ «
èį¯ çī©
æĬ ¢
åħ¶ å®ĥ
ç¾İ æľ¯
åħī ç»ª
ä¸į å¾Ĺ
èĢĮ æĪĲ
æĸĩ çĮ®
æĿĳ åºĦ
æĦı è§ģ
è± Ĩ
éĢ Ĵ
ä¸ī å¹´
éĵ º
5 8
ä»Ģ ä¹Ī
1 æľĪ2
æ¸ Ķ
å¸Ĥ æ°ĳ
å¼ķ æĵİ
éĢ Ĩ
åĨħ éĺģ
in e
åŁĥ åıĬ
å£ ³
æĿĥ åĪ©
æĹħ å®¢
å« Į
è´ ´
é«ĺ éĽĦ
çļĦ éĩįè¦ģ
åŃ¦ ä½į
æ¹ ¿
t e
æĬ ½
é¢Ĩ åľŁ
çĬ ¬
å®¢ è¿Ĳ
çĪ¶ æ¯į
ç®Ģ åįķ
çļĦ æµ·
å¾ĭ å¸Ī
æº ¶
æİĪ äºĪ
æİª æĸ½
è¡¨ éĿ¢
æĭī ä¸ģ
éĽ ĩ
æľº ä¼ļ
çĮ «
æľĢåĲİ ä¸Ģ
ç®Ģ ä»ĭ
æ°ĳ éĹ´
å¦ ĥ
ä¹¾ éļĨ
åĴĮ åħ¶ä»ĸ
éķ¿ åº¦
èŀ º
èĤ¡ ä»½
æķĪ æŀľ
çŃ¾ ç½²
èģ ĺ
è±¡ å¾ģ
å¯ Ħ
ç² ®
åıĳ åĶ®
èį£ èªī
æĸ¯ æĭī
åľ° éľĩ
ä¼ł è¯´
å° ī
éĻį ä½İ
å£° ç§°
o b
é£ ĵ
æ·± åľ³
æĤ ¬
å½¢ è±¡
åħĭ ç½Ĺ
l y
äºļ åİĨ
ç¡® è®¤
ç¡® è¯Ĭ
4 2
ä¹Ł è¢«
å¦Ĥ ä½ķ
å· §
åĽł ç´ł
æĿ¥ åĪ°
åħ¨ éĿ¢
æ°´ å¹³
ç¢ ³
æĮī çħ§
çĬ¯ ç½ª
é£ĵ é£İ
çĽ ¾
åıĳ åĩº
çĪĨ çĤ¸
åı Ķ
è¿ Ł
æľĪ1 6æĹ¥
å°ı çļĦ
é¢Ĩ è¢ĸ
åĮ» çĶŁ
ç«ŀ äºī
è¢ ģ
çħ ¤
t w
æľī æīĢ
åĩºçİ° åľ¨
å·® å¼Ĥ
åŃ¦ ä¼ļ
ä¼ł æĴŃ
ç¨ ¿
å® ı
æ´ ģ
ä¸ĵ éĹ¨
æľĪ1 7æĹ¥
6 7
ä¸ Ī
æĸ ľ
æĸĩ åŃĹ
ä¼Ĭ æľĹ
åıĻ åĪ©äºļ
ç¾ Ĭ
åı¤ ä»£
æ°Ķ è±¡
ä¸ Ļ
å·¥ åħ·
ä¹¡ è¯ķ
åŁºçĿ£ æķĻ
O S
åĲİ æľŁ
æ¯« ç±³
èµĦ éĩĳ
Â °
åı° åįĹ
éļ§ éģĵ
= "
æĪı åī§
çī µ
èĨ ľ
èħ ¾
å½ĵæĹ¶ çļĦ
é«ĺ äºİ
èµ· æºĲ
æĬ ¼
å° ¸
åıª æĺ¯
å°ļ ä¹¦
æ²³ çķĶ
æįŁ å¤±
æľĪ22 æĹ¥
ï ½
çļĦ åľ°æĸ¹
åĨ Ĵ
å¡ «
ç»Ļ äºĪ
åıª èĥ½
è¾¹ çķĮ
åı°åĮĹ å¸Ĥ
é³į é±¼
å¸Ī èĮĥ
çĸ¾ çĹħ
è¾ ©
ä¸º ä¸Ģ
çĽ¸ æ¯Ķ
åĿ¦ åħĭ
ä¸į æ»¡
ç»ı éªĮ
å°Ķ çī¹
éĿ¢ å¯¹
çĲĨ äºĭ
è¡ į
å¹¶ éĿŀ
18 5
o k
å¥ ĳ
è£ ķ
éĴ ¦
B C
a v
ä½ľ æĽ²
äº¨ åĪ©
ä» ĳ
è¡ °
å§ »
ä¸ľ åĮĹéĥ¨
åĩº å¸Ń
æ° Ł
ç½ ¢
æľ¬ ç«Ļ
è¸ ª
åĪĹ è¡¨
éĢĢ å½¹
å·¡ åĽŀ
æľĪ1 4æĹ¥
å²ģ çļĦ
åĪĽ å»º
é¸ ¡
æĺİ æ²»
çĻ» éĻĨ
æĢ§ åĪ«
æĪĲä¸º äºĨ
èĮ Ĥ
ä½ı å®ħ
9 9
è ²
çĲ ī
åľ° éĿ¢
åŃ© åŃĲ
åĪĹ åħ¥
åĽŀ åºĶ
åħĭ èİ±
æľĪ21 æĹ¥
å® Ļ
ç«Ļ åı°
åı¸ æ³ķ
çİĩ é¢Ĩ
è´µ æĹı
èĪŀ åı°
åĩł ä¸ª
è½¬ ç§»
ç¤¾ä¼ļ ä¸»ä¹ī
å¦ Ī
å®ŀ è¡Į
å£° æĺİ
åĨ¬ åŃ£
åŁº åĽł
ä¸¾è¡Į çļĦ
ç² ¹
æĪĺ åĲİ
èĭ± å°º
çĶµ è½¦
ç§į æĹı
æ¾³ æ´²
æµ· æ´ĭ
èĤ ¥
çļĦ é«ĺ
äºİ æĺ¯
å°ı åŀĭ
çº¦ ä¸º
åıĤ è°ĭ
åĸ ·
åħ³ éĹŃ
æĽ´ åĬł
ç¬¬ åħ«
åĳ½ åĲįä¸º
èį Ĵ
æµģ åŁŁ
åĥ §
3 ä¸ª
ä¸ľ æĸ¹
æĪĲ æľ¬
Y ou
åįģ ä¸ĥ
7 8
è£ħ ç½®
ä¿® æĶ¹
è¾ĥ ä¸º
æ ĩ
éģ µ
çĭ Ħ
ç¤º å¨ģ
åį¢ çĵ¦å°Ķ
A l
ä¸Ģ å®ļ
å½¢ æĢģ
çĸ« æĥħ
éĹ´ çļĦ
æµ ©
ar t
æīį èĥ½
åıĺ å¾Ĺ
ç¡ķ å£«
å½ĵ å±Ģ
åıĤåĬł äºĨ
èĬ¬ åħ°
é¸ ¿
å´ Ķ
çİĽ ä¸½
ç¬¦ åĲĪ
é©± éĢĲ
æĦı æĢĿ
æľĪ1 3æĹ¥
é«ĺéĢŁ åħ¬è·¯
æľº åĻ¨
æµĭ éĩı
h a
é³įé±¼ çº²
æŃ£ å¸¸
å¸ ħ
éĢļ è½¦
æĮĩ å®ļ
èİ« æĸ¯ç§ĳ
æĸ° çĸĨ
çļĦ ä¸ī
å² Ĺ
çļĦ åĽ½å®¶
åı¦ ä¸Ģä¸ª
é¥ Ń
é¡¾ éĹ®
å¼Ģ è®¾
æĥħ æĬ¥
6 6
èĭı æł¼åħ°
å¼ ¥
åįģ ä¹Ŀ
ä¸Ń æľī
éħį åĲĪ
é£Ł çī©
æ·· åĲĪ
æĢ Ĵ
æĶ¹ éĢł
æ¶ µ
å§Ķ ä¹¦è®°
æĶ¶ è´Ń
åĵ² åŃ¦
ä¿ ĺ
å¾Ī å¿«
åħ¬åı¸ çļĦ
è¾Ĳ é³įé±¼çº²
èĢ Ĺ
çģ« ç®Ń
éĻĨåľ° éĿ¢ç§¯ä¸º
9 5
åĪĨ éħį
æ°´åŁŁ éĿ¢ç§¯ä¸º
æ¬ £
æ¶ ¦
u p
è¯´ æĺİ
åŃ ¤
ä¹Ł ä¼ļ
éħį éŁ³
èĢ Ģ
h t
å¼Ģ éĢļ
åĮĪ çīĻ
æŃ ĩ
éķĩ åĮº
è¥¿ èĹı
åıĳçİ° äºĨ
ä½ľ èĢħ
çŁ ¶
çĭ Ĥ
æķ´ ä½ĵ
æ³ķ å®ĺ
éĻĦè¿ĳ çļĦ
èµ ¶
å¯¼ å¼¹
æĮª å¨ģ
åĮĪçīĻ åĪ©
es s
8 8
éķ¿ åı¯è¾¾
15 0
åĤ ħ
èĢĮ è¨Ģ
å¯¹ è±¡
ç¥ Ģ
æĥ ¯
è£ħ å¤ĩ
çĭ ®
éĻ Ģ
åº· çĨĻ
å¯ ¸
ç¿ Į
ï½ ŀ
æµ· å¤ĸ
åħĭ æĭī
è¯· æ±Ĥ
æıĲ åĪ°
æĶ¹ åĸĦ
æģĲ æĢ
i k
å¯¹ æŃ¤
çĶ¨ ä½ľ
åĬ¨ ä½ľ
æµ· å³¡
åŀ Ĥ
æĪĺ çķ¥
ç¥¨ æĪ¿
å½ĵä¸Ń éĻĨåľ°éĿ¢ç§¯ä¸º
åľ¨ åħ¶
ä¸Ģ éĥ¨
ç§ĺ å¯Ĩ
ä¸ĭ éĻį
çĶµ åĬĽ
çĹħ ä¾ĭ
ç½Ĺ ä¼¯
èĦ Ĥ
er s
å¤ ·
åİ ¢
æŁ Ķ
ç² ¤
äºļåİĨ å±±
åĬ³ åĬ¨
åľ° çĲĨ
ä¸ľ åįĹéĥ¨
æłĩ ä¸º
æŃ¦ æ±ī
æĤ ī
ç¼ħ çĶ¸
åįİ çĽĽ
çĭ Ĺ
éĤ£ éĩĮ
éĢĢ ä¼ĳ
i p
åľ° ä½į
å®¶ çļĦ
å¸Ĥ éķ¿
äº¦ æľī
å¹¿ä¸ľ çľģ
å¸ĥ å°Ķ
åĩº æ¼Ķ
å§ ļ
èµ· ä¹ī
åĽŀ å½Ĵ
æ» ļ
æŃ¥ åħµ
è¦Ĩ çĽĸ
ç¼ĸ åī§
ç¢ İ
éĢ ¢
è§Ĥ æµĭ
ç§ģ äºº
æľĢ è¿ĳ
å°Ĩ ä¼ļ
çĮ Ľ
æī¾ åĪ°
åľ¨ æĹ¥æľ¬
æ¯Ķ ä¾ĭ
u e
åľ° åĽ¾
B A
çĲĥ ä¼ļ
æ·± åº¦
åľº æ¯ĶèµĽ
çģ Į
æİ¨ è¿Ľ
åįİçĽĽ é¡¿
é¢Ħ è®¡
å½ °
ä»» èģĮ
èĬ Ĵ
åĲĪ çº¦
åħ´ è¶£
æĳ ĩ
å®ŀéĻħ ä¸Ĭ
åĪ ¸
æľī ä¸Ģä¸ª
ä¸ĩ äºº
çľŁ æŃ£
ç»ı åħ¸
éĥ¨ çļĦ
ç¬¬ 5
å¹¿ è¥¿
è¯ķ éªĮ
åº ŀ
ç»Ħ å»º
åĳ¨ åĽ´
éĩį å¤§
é£İ éĻ©
æºĲ èĩª
å°Ŀ è¯ķ
ä¿Ŀ åŃĺ
å®ĥ çļĦ
åĬł çĽŁ
å¼ķ åħ¥
æĬķ éĻį
éĺ² å¾¡
å¾¡ åı²
æłĸæģ¯ åľ¨
ow s
å¹¶ åħ¥
æ» ©
èĬ± åĽŃ
æĿĢ æŃ»
i f
ç¬ ¼
å¹¶ ä¸Ķ
å» Ĭ
, ãĢĮ
ä¼ ª
åĳ İ
çĶŁ çļĦ
ç¬¬ 3
ç¾İ åĨĽ
åģ ·
å²Ľ å±¿
åĪ¶ çļĦ
åĮĹäº¬ å¸Ĥ
âĢ¦ âĢ¦
éĺ ª
å¸¦ æĿ¥
æľī æĹ¶
èį Ĳ
éļı åį³
å¹´ éĹ´
æľĢ å¤ļ
ä¸Ĭ åįĪ
å¥ İ
åĬŀ äºĭ
è´£ ä»»
è©¹ å§Ĩ
ä»£è¡¨ å¤§ä¼ļ
éĢ »
èĤ ĸ
å£° éŁ³
ä¸º æŃ¢
éħ ¶
å¹´ é¾Ħ
è®º æĸĩ
çĶ¨ éĢĶ
éĩĮ æĸ¯
åİĭ åĬĽ
çı Ĭ
ä¾ ł
è¿Ļ æĺ¯
æ¸© åº¦
è®² è¿°
åĲ ¾
äº¿ ç¾İåħĥ
çħ§ çīĩ
çļĦ ä¸Ń
çļĦ æĹ¶éĹ´
æľī äºº
æŀ Ŀ
è¿Ĳ ä½ľ
ä¿ĥ è¿Ľ
ä»£ çłģ
åľ¨ è¿Ļ
ä¼ĺ åĬ¿
W ind
å¤§ è§Ħæ¨¡
å¾Ĺ çŁ¥
æĮĩ å¯¼
è½¯ ä»¶
è§£ æķ£
è¢«è®¤ä¸º æĺ¯
åĲĮ çĽŁ
æ¹ ĺ
ç¿ ģ
è°Ī åĪ¤
çĴ ĥ
èµ ĭ
éļľ ç¢į
åĲį ä¹ī
; -
18 0
å¨ ĥ
åĵ¥ ä¼¦
å¤ıåŃ£ å¥¥æŀĹåĮ¹åħĭè¿ĲåĬ¨ä¼ļ
å¤ļ å¹´
ä¸ŃåĽ½äººæ°ĳ è§£æĶ¾åĨĽ
æŀĦ éĢł
éĺ Ķ
èĥ ¸
çº¢ èī²
éļ¾ ä»¥
4 3
å¼ ¦
æģĲæĢ ĸ
çļĦ ä¸¤
æĮĩ æİ§
éŃ Ĥ
åį µ
æľī äºĽ
æł ı
äºĨ è§£
A R
ä¸ĩ åİĨ
A M
ä» ĩ
ic e
çŁ¥ åĲį
9 8
ä¸Ĭæµ· å¸Ĥ
el l
åİĨ ä»»
åĲ Ĳ
B S
æ±Ł è¥¿
I C
g e
æľ ´
é©¾ é©¶
éĤ£ äºĽ
åĲ ı
ä¸ī è§Ĵ
è¯Ń çļĦ
éĩı çļĦ
åı ł
æ· ĺ
ç½ĳ çĲĥ
æĹĹ ä¸ĭ
( ).
7 6
éĤ ¨
æ³¨ åĨĮ
å©ļ å§»
ä¸Ģ é¢Ĺ
æĪĸ æĺ¯
å®ĩ å®Ļ
æī® æ¼Ķ
åı° ä¸Ń
å± ł
åĮĸ çŁ³
åĬł å¼º
æĳĦ å½±
ç¡ «
é©¬ æĭī
èħ Ĳ
éĶĻ è¯¯
é©¬ å°Ķ
æĲ º
æ¼ĶåĶ± ä¼ļ
èĪ ±
åı° é£İ
æķĻ åĮº
æ·¡ æ°´
s p
å½ ¦
å¤ª ç©º
ç³»ç»Ł çļĦ
è¥¿ åįĹéĥ¨
æŁı æŀĹ
b o
åħĭ çļĦ
èĦ Ĭ
æľį å½¹
åĲĪ æĪĲ
éĻĨ ç»Ń
éĢ ®
è² Į
æī© å¤§
æĺ¯ æĮĩ
åĺ ´
18 4
é¹ °
åĬł åĪ©
è§Ĥ çĤ¹
çļĦ å±±
æĶ¿ åįı
éļ¶ å±ŀ
u d
æŃ §
ä½ľ åĩº
" )
æĽ¾ ä»»
å¸¦ æľī
æĹ ¬
ç¨ į
åı ī
çĻ½ èī²
çĲĥ åŃ£
äººåı£ ä¸º
ä»· æł¼
éĩĬ æĶ¾
æĶ¿åºľ çļĦ
åľ¨ ä¸ŃåĽ½
ï¼ ı
åĳĪ çİ°
å®ļ å±ħ
çĽ¸ ä¿¡
æīĢ å±ŀ
é¦ĸ åħĪ
å¨ ĺ
ä¿Ŀ ç½Ĺ
åĪ ·
ç¿ ł
åħ¼ ä»»
åĽº å®ļ
æİĴ è¡Į
éĹ ½
æģ °
éĺ¶ çº§
è¥¿ åĮĹéĥ¨
æł¡ éķ¿
èĿ ¶
ct ion
ç¯® çĲĥ
çļĦ åİĨåı²
æ¸¸ æ³³
æı ¡
çĽ¸ äºĴ
åħ³ éĶ®
è¥¿ å®ī
ç«ĭ åį³
åŀĭ çļĦ
4 ä¸ª
7 7
éĢļ è®¯
åįģ å¹´
è®¾ å®ļ
èĸ Ħ
éªĳ å£«
åĿ ª
ä½ı æ°ĳ
å¯¹ å¤ĸ
æ¯Ķ å¦Ĥ
æ· »
éªĳ åħµ
å© Ĩ
æĸ¯ æŀĹ
éĽ Ģ
çİ° æĹ¶
å¸¦ é¢Ĩ
éĵ Ń
æĸ¹ è¨Ģ
ä¸Ģ èĩ´
10 00
ä¿® å»º
ä¸° å¯Į
å¿ §
è¶ ĭ
ä¼ĺ ç§Ģ
éĨ Ĵ
ç¬¬äºĮæ¬¡ ä¸ĸçķĮå¤§æĪĺ
2 ä¸ª
6 00
å· «
æ· ®
å±ķ è§Ī
al l
åľ° çĤ¹
åĪ¶ å®ļ
åĨħ éĻĨ
ä¾Ľ åºĶ
çľŁ å®ŀ
è¯ ı
éĿŀ å»ºåĪ¶
ç¾½æ¯Ľ çĲĥ
ä¼Ĺ å¤ļ
æĺ¯ ä»¥
æĦı å¿Ĺ
å¤ª åŃĲ
é¸ £
åĬ¿ åĬĽ
è¾ĵ åħ¥
Wind ows
ä»»åĳ½ ä¸º
ä¸¤ æ¬¡
æĬĹ æĹ¥
çļĦ å¤ĸ
æİ ĺ
en d
åħ· ä½ĵ
åį° å°¼
èĩª èº«
å·ŀ åºľ
æľĿ å»·
éĺ ®
å·¥ äºº
å·² è¢«
æ´¾ éģ£
å µ
å¤ļ å°Ķ
å±± è¥¿
æĹ¶æľŁ çļĦ
å¾Ģ å¾Ģ
æ£Ģ æµĭ
å§ ¬
å¯» æī¾
ä¸İ åħ¶ä»ĸ
å¯¹ åºĶ
P ro
äºİ19 3
æľº çļĦ
é»Ħ éĩĳ
ä»£è¡¨ åĽ¢
çªģ çł´
é¼ »
æĿ° åħĭ
ç»ĦæĪĲ çļĦ
åľ¨ è¯¥
ä¹Ĳ éĺŁ
ä¹ĭ æĪĺ
ãĢĬ ãĢĭ
çģ« å±±
çĽĳ çĿ£
åĹ £
å¼Ģ å±ķ
æĦ Ī
æĿī çŁ¶
S p
éĩĳ çīĮ
æ´Ľ æĿīçŁ¶
çĽ¸åħ³ çļĦ
æ° ¯
çĶµ è¯Ŀ
è¿ĩç¨ĭ ä¸Ń
æĸ ¤
è¢« è¿«
æıĲ åĲį
æ³¢ æĸ¯
åĦ Ĵ
çĻ» ä¸Ĭ
åħ Ĩ
èĭ ĳ
çªģ çĦ¶
åĮĹ æµ·
çİ° ä»»
ä¸¹ éº¦
å®ŀéªĮ å®¤
æĺ¯ ä¸ŃåĽ½
èĮ µ
åĽ½å®¶ çļĦ
ä¾Ŀ æį®
åħ¶ åĲİ
éĢĢ åĩº
i o
çī¹ å®ļ
åģ ¿
åįĹ æĸ¹
ä¸Ģ çº§
ä¸Ģ æ®µ
åħ¬ çĪµ
æĳ Ĩ
åį Ĵ
æ± ª
ä¸ī ä¸ĸ
il l
åĳĺ å·¥
æĻļ ä¸Ĭ
åĲĽ ä¸»
å¯ ¨
åĨĽ å®ĺ
åľº çļĦ
å°ĳ å¥³
ac e
r y
å¦ĩ å¥³
æĺİ ç¡®
æ²¿ æµ·
åĳ¨ å¹´
å¤§ æ¡¥
æĪ¿ å±ĭ
éĢ® æįķ
åĨĽ åĮº
è½¬ åĲĳ
å¥¥è¿Ĳ ä¼ļ
æī© å±ķ
å¤ ķ
ä¾ ¨
éĥ½ å¸Ĥ
èµĦ äº§
7 9
èĦ ı
éĻ ¨
4 1
ä»£ çĲĨ
è¯ģ å®ŀ
ç»Ŀ å¯¹
æ¬§ åħĥ
S h
åľ¨ é¦Ļæ¸¯
åĬ Ŀ
åĩ Ģ
å¯¹ æĬĹ
å¤§ åİ¦
la y
8 5
ä¸ Ľ
è¾ °
æ£Ģ æŁ¥
on g
äºļ ç¾İ
è§Ĩ é¢ĳ
åĽ½å®¶ éĺŁ
a in
åĮĸ åĲĪçī©
ç² Ĺ
åĲ¯ åĬ¨
çī¹åĪ« æĺ¯
Ã ©
æ³ķåħ° è¥¿
åĪĨ ç¦»
U n
éĵ ¸
åİŁ åĪĻ
å¤§ èµĽ
åī§ æľ¬
ç´§ æĢ¥
è¯Ħ ä¼°
ä¸ĵ å®¶
åĮĹ æĸ¹
ä¸¤ å¹´
åĨľ æ°ĳ
åĵ¥ä¼¦ æ¯Ķäºļ
6 9
éĻķ è¥¿
åĬł æĭī
æ¶ Ĥ
åĿĩ ä¸º
ä¸ ĳ
çŃī ä¸º
è®¡ç®Ĺ æľº
æĽ´ ä¸º
b e
ç§ĳ å¤«
A C
ä¿Ŀ å®Ī
åī§ éĻ¢
åºŁ éĻ¤
åĬ «
ä¸Ń è¢«
ç»ı çĲĨ
L e
çŁ ©
åĢ ¡
çķĻ ä¸ĭ
I S
æī «
è´ ©
æ± °
è´¨ çĸĳ
çŃ¾ è®¢
åı² ä¸Ĭ
é¦ĸ ä¸ª
åħĪ çĶŁ
æ± Ģ
1 ä¸ª
åĨĽ åĽ¢
å½¢ å®¹
ä¸ĭ ä»¤
ä¸Ĭ è¿°
èĲ¨ æĸ¯
éĦ Ĥ
1 20
æĹ¶ æ®µ
å¼ ¯
ç±³ äºļ
ç»´ æĬ¤
O N
çīł ä»¬
åŃ¦ å£«
ä¸į ä»ħ
èĥ½ éĩı
éĢī ä¸º
æĭ ĺ
éĽ Į
ä¸»è¦ģ çļĦ
åįĩ çº§
çİĩ ä¸º
åĲ¯ çĶ¨
é© ³
åİŁ åŃĲ
æ½ Ń
a st
åħļ çļĦ
é¾ Ł
éĺ» æŃ¢
åŁİ åł¡
å½ĵ å¹´
å¤© çļĦ
ä¿Ŀ éļľ
åĭĭ ç«ł
æłĩ æľ¬
ç©Ĩ æĸ¯æŀĹ
åĽ° éļ¾
çŃī åľ°
ç§ĳ åŃ¦éĻ¢
æ¶ Į
äºļç¾İ å°¼äºļ
åľ¨ å¤§
or t
åħ¨ éķ¿
åł ª
ç£ ¨
æıĲä¾Ľ äºĨ
åı· çļĦ
çł ĸ
ç»Ļ äºĨ
èĵ ¬
éĨ ĩ
å¯ Ĵ
åĪ© çĽĬ
æ»¡ è¶³
åĢĻéĢī äºº
åĺī éĿĸ
å¥¥ å°Ķ
p h
å¿ ½
æĿ¥ è¯´
é©¬ éĩĮ
æĥ Ł
åĢ º
å¤§åŃ¦ çļĦ
åįĹ éĿŀ
æ¸¸ è¡Į
åıĤ éĢī
æķ ¢
åľ¨ äºİ
ä¸ĸçķĮ ä¸Ĭ
æĶ¶ è§Ĩ
åĪº åı²
å° ¹
20 20
å¼Ĺ æľĹ
åħ¬ å®ī
åĳ¨ æľŁ
æ¶Ī è´¹
å¥ Ķ
åĭ Ł
æ°Ķ æĹĭ
éº¦ åħĭ
æĬ ĳ
- -
çļĦ æķħäºĭ
æº ¯
å¤į åħ´
éĹ ª
çº³ ç²¹
æĸ¯ é¡¿
æ´» è·ĥ
ä¿® æŃ£
éĤ» è¿ĳ
å¤« äºº
ç©º æ°Ķ
åıį æĺł
é¢ ĩ
å½¢ çĽ®
é¤Ĳ åİħ
6 2
199 8å¹´
æī ¶
199 9å¹´
åĳĬ è¯ī
ç¢ Ł
å°¼äºļ å·ŀ
æł¼ æĭī
æĻĭ çº§
çļĦ æ°´
ä¸Ń æľŁ
ä¸Ĭ æľī
æĽ´ æĸ°
ac k
åįı è°ĥ
åħ¶ä¸Ń ä¸Ģç§į
çİ» çĴĥ
çļĦ ä½ľåĵģ
19 ä¸ĸçºª
å½ķ éŁ³
æĤ ²
å¢ŀ éķ¿
è Ł
ä¼ł åªĴ
ç¿ ħ
çĽĳ çĭ±
å®¶ äºº
æĭ ¼
æĭ ĸ
åĩº åıĳ
ä¹¦ éĻ¢
åı¦ æľī
200 0
æİ¥ æĶ¶
æ¸ħ åįİ
èĲ¨ å°Ķ
åħ¸ ç¤¼
èķ ¾
æ·ĺ æ±°
æĹ¥ æľŁ
çĶŁ æĪĲ
æľ¬ åľ°
éĢ ¼
194 5å¹´
åįĩ ä»»
å¤© çļĩ
é£Ł åĵģ
æĸ Ĳ
å¯ ĵ
åıĳ æĺİ
è¢« è§Ĩä¸º
C D
ç«ĭ æĸ¹
å¤§ å¥ĸ
å¸ĥ èİ±
æĹ¥ æ²»
å·² æľī
æĳ §
å· ¢
ä¹Ł åı¯ä»¥
åħį è´¹
é¢ľ èī²
åĬł å·ŀ
ç§° ä½ľ
ä¸¤ åĲį
ç¨ »
é±¼ ç±»
çļĦ åĲİ
æİ¨ å¹¿
æı´ åĬ©
çİ° å®ŀ
åľ¨ åĨħçļĦ
ç»´ åŁĥ
äº² çİĭ
äºļåİĨå±± å¤§
æĸ¯ æīĺ
èĢĥ åı¤
ä¸» åĬŀ
åº¦ çļĦ
åī¯ ä¸»ä»»
åĿ Ŀ
ç¥ ł
çĻ Į
ç«ŀ éĢī
å¹³ åİŁ
æīĢ è°ĵ
åī¯ ä¸»å¸Ń
æĺ¾ èĳĹ
å½ĵåľ° çļĦ
è¿Ļ æ¬¡
åı¸ é©¬
it y
ç» ³
è¥¿ åħ°
åŁºéĩĳ ä¼ļ
çĲ ¼
å¿ į
äºĮ æĪĺ
åħ¬åħĥ åīį
çĲĨ è§£
ä¾Ŀ çĦ¶
M A
ä¸Ģ è¯į
æł ĭ
è£ħ é¥°
åĨľ æĿĳ
æĺŃ åĴĮ
åĨħ æĪĺ
8 00
è½¬ æį¢
é¾Ļ æ±Ł
åį± éĻ©
ç»Ī äºİ
D e
åľ Ń
ä¸į åĪ°
éĤ£ ä¹Ī
éĿł è¿ĳ
å¿ Ļ
é¹ ¤
å¾· çļĦ
å®Į å·¥
è´§ å¸ģ
E n
ä¿® å¤į
éļĶ ç¦»
åĩ Ŀ
åľ° å¸¦
ä¸Ī å¤«
æł¡ åĽŃ
ç¡® ä¿Ŀ
è¿Ľ æŃ¥
èĥ½ æºĲ
éĩĩ è®¿
æļ´ åĬĽ
æīĵ ç®Ĺ
æ½ľ èīĩ
å¾· åįİ
åİŁ å§ĭ
çĿ ¡
å¢ŀ å¼º
æīĢæľī çļĦ
ä¸¤ åĽ½
i ve
çŁ Ľ
èĴ ¸
èº« ä¸º
åİŁ ä½ıæ°ĳ
A r
æ°´ åºĵ
åį¡ ç½Ĺ
çłģ å¤´
æĹħ è¡Į
ä¹ī å¤§åĪ©
é² ¤
æ´¾ åĩº
æĴ° åĨĻ
å¤§ å¹ħ
èĻ ¹
194 9å¹´
éĢļ ä¿¡
åĬª åĬĽ
æł ½
æī§ æĶ¿
éĢĤ åĲĪ
2001å¹´ äººåı£
æĭĨ éĻ¤
å§ Ĭ
çļĦ æ¯ĶèµĽ
åĬ© çĲĨ
ä¸İ åħ¶
åĩº éģĵ
åĲ ģ
E R
o v
èµĦ æľ¬
çŁ³ æ²¹
5 9
èĢ Ĳ
æ³¢ ç½Ĺ
å²ģ æĹ¶
åľ¨ 198
ä¹¦ ç±į
æĮĩ ç¤º
çķĻ åľ¨
åĽ´ ç»ķ
åī Ĭ
å¸Ĥ ä¸Ńå¿ĥ
ç¿ Ķ
ä½Ľ ç½Ĺ
çļĦ è®¾è®¡
è®¤ è¯Ĩ
æ³ ¡
æ³ķ åºŃ
å¤© çĦ¶
çļĦ åıĳå±ķ
æľī æľº
åĩº åħ¥åı£
ä¸ĩ åħĥ
å¤§ å¤ļ
èĸ Ľ
s h
é¦ĸ çĽ¸
ç®¡çĲĨ å±Ģ
è¿ĳ å¹´
é»ĳ èī²
åľĨ å½¢
c om
å¤§ ä¼Ĺ
äº ¥
åł Ĩ
è¾¹ å¢ĥ
æĿĢ å®³
æĭ¿ ä¸ĭ
æ¯ĶåĪ© æĹ¶
N e
åįİ äºº
æīĭ æľº
éĶĢ éĩı
å¤« åį¡
å¤§ éĢī
æĶ¶ éĽĨ
ãĥ »
I D
Ã Ĺ
éĹ ¸
æĦı åĳ³
çĽ Ĩ
æĺİ æĺŁ
or e
åĲĦ èĩª
è¾½ å®ģ
ä¸Ģ åľº
åĪĨ æĶ¯
ä»¤ äºº
ç¡®è¯Ĭ çĹħä¾ĭ
" ,
æľĢ ä½İ
è®° å¿Ĩ
un d
b er
ç©º ä¸Ń
åĿļ æĮģ
åĲī æŀĹ
ä¸Ģ æŀļ
åĪĨ è£Ĥ
ç»´ æĸ¯
12 å¹´
èĴĻ çī¹
å°± ä¼ļ
å±±ä¸ľ çľģ
æĸ ĭ
èĩª æĿĢ
èŃ¦ åĳĬ
çļĩ åĲİ
çļĦ æĶ¯æĮģ
ä¹ł æĢ§
åĽ½æ°ĳ æĶ¿åºľ
åī§ éĽĨ
ä¸ĭè¾ĸ çļĦä¸Ģä¸ª
ä»¥ åįĹ
æĬ ĵ
æ± Ŀ
199 7å¹´
å»ºç«ĭ äºĨ
7 2
æĪĲ å¹´
èĥ º
å¹³ æ°ĳ
èĮĥåĽ´ åĨħ
æŁ´ æ²¹
åĲĦ ç±»
æĹ¨ åľ¨
èĪ Ł
ç§ĳ åŃ¦å®¶
å¼ı çļĦ
å¼Ł å¼Ł
7 4
ä¸ ŀ
çŃī çº§
6 3
o h
æł ª
å± Ī
D T
åĲĮ æĢ§
å¾· å°Ķ
æĶ¯ æµģ
åħĭ æŀĹ
i an
âĢ Ļ
äº² èĩª
æ¯Ľ æ³½
ç¤ ģ
èİ± èĮµ
äº§çĶŁ çļĦ
æ»¨ æµ·
æĬ ±
äº¤ æį¢
C O
æĭ ¨
æĸ¯ æ´Ľ
éĴ »
è§Ħ èĮĥ
m an
ä¸Ĭ ä¸ĭ
å´ ©
i v
æĹ¶ åĢĻ
å¹ ½
æ¶Ī å¤±
å® °
ç¬¬ ä¹Ŀ
é»ĳ é¾Ļæ±Ł
æ³ķ çļĦ
çł Ĥ
è¿Ŀ åıį
åĳ¼ åĲģ
æµĻæ±Ł çľģ
æĳ§ æ¯ģ
åĪ© æĸ¯
äºĮ äºº
çº§ åĪ«
å¸¸è§ģ çļĦ
ä»¥ åīį
ç§į æ¤į
â Ķ
çĭ ¼
æĶ¶ èĹı
çŃ¾ çº¦
T e
è¿ ¦
å¯¹ æĸ¹
è¾¾ å°Ķ
æ¬§ çĽŁ
æºĲ äºİ
at e
å»¶ éķ¿
r ic
æ ª
çī¹ æĭī
è¡Į çļĦ
å°¼ è¥¿äºļ
æİĪ æĿĥ
éĻ ª
è½¦ åİ¢
è¿Ĳ çĶ¨
å© ´
å¿ħ è¦ģ
ä»» æľŁ
æ¸¯ åı£
æ¦ Ħ
å¦ Ļ
199 6å¹´
åįł åľ°
æ¯Ľæ³½ ä¸ľ
æŃĮ è¯į
é¦ĸ å¸Ń
èĦ ¸
å¾ª çİ¯
åį ¸
åŃ¦ çļĦ
å°Ħ åĩ»
é¦ĸ åºľ
åį± æľº
æĤ£ èĢħ
èĪª å¤©
å¾Ĺ åĪ°äºĨ
æĶ¹ åĲįä¸º
æĬ «
åı¤ åħ¸
åĬŀ çĲĨ
èµ° åĲĳ
éĢļ éģĵ
æİ¥ æĽ¿
æ¼Ķ å¥ı
æĶ¹ åĪ¶
åįĩ ä¸º
am e
åľº æīĢ
ä¼ ½
æĢ§ èĥ½
çĭ Ń
199 2å¹´
ï¼ ħ
é¡º åĪ©
åĴ ĸ
åĪĻ ä¸º
å·¥ä½ľ å®¤
å®¡ æŁ¥
éĺ² æŃ¢
åĮº è®®ä¼ļ
ç¦ ħ
åĽ ļ
å¯ ®
è¢ ĭ
å·ŀ åĪºåı²
åĽĽ å¹´
ç¥ŀ è¯Ŀ
å« ģ
éķ¿ å®ĺ
æ³¢ å°Ķ
ä» ķ
éĺ¿ æł¹
ç´¯ è®¡
âĶ Ģ
æĭ ±
é¦ĸ æĴŃ
åķĨ åĵģ
è·Ł éļı
å® Ľ
éĽ į
å¾Ĺ ä¸»
èģĶåĲĪ ä¼ļ
å¤ĸäº¤ éĥ¨
ä»¥ åĮĹ
åŁĥ å°Ķ
ou n
åŁ¹ è®Ń
æıĲ åıĬ
äºĶ å¹´
å¸Ĥ æĶ¿åºľ
(, ;
ç¼© åĨĻ
å¸ĥ éĩĮ
çĤ ī
åıĹ æ¬¢è¿İ
åį¡ æĭī
éĺ¿æł¹ å»·
A P
s s
å°¼ åħĭ
çĶŁæ´» ä¹łæĢ§
18 å¹´
èĤ Į
ä¸ŃåĽ½ çļĦ
åģľ éĿł
q u
åĲ ¹
åĩº æĿ¥
æķ° ä½į
èĭ± åĨĽ
199 4å¹´
æ¸¸æĪı çļĦ
1 åı·
ä¸Ĭ åįĩ
éĿ¢ ä¸´
G o
éĻ· åħ¥
çĶŁæ´»ä¹łæĢ§ ä¸įæĺİ
è¾ Ł
æĮģ æľī
é¼ İ
C om
18 3
æ´¾ çļĦ
å¤§ èĩ´
è¾ ¨
éŁ µ
çĤ¹ çļĦ
åĩºçīĪ ç¤¾
åĸľ åī§
èĢ ķ
æľĪ çĲĥ
æ£ ĺ
åĲĦ åĽ½
ç½Ĺé©¬ å°¼äºļ
çİ° ä»Ĭ
æĥ ¨
c on
å°Ĩ åľ¨
ä½ĵèĤ² åľº
åŁ ĭ
èĭ ¯
ç¾İåĽ½ çļĦ
çĶĺ èĤĥ
)ãĢģ ãĢĬ
éĩĮ è¾¾
åľº æĻ¯
åı¸ä»¤ éĥ¨
çĶ «
å®ļ ä¸º
æķ° çļĦ
M ar
ç °
éģĵ å¾·
çļĦä¸Ģ äºĽ
æĸ¯æĭī å¤«
ä¸Ģ é¡¹
è¢« æįķ
æī¿ è¯º
ä¼¼ ä¹İ
çĤ¸ å¼¹
éģ ¥
éĽ ¾
çłĶ åıĳ
åĲĦ ä¸ª
é¦ĸ æŃĮ
å·´ å°Ķ
æĿĳ èĲ½
åħ¬ æĸ¤
çĶŁ åŃĺ
åĲī å°Ķ
å¸ Ĳ
ä»Ĭ æĹ¥
èĢĥ è¯ķ
éĥ½ åľ¨
éħį å¤ĩ
8 7
è¾¹ ç¼ĺ
åĬłåĪ© ç¦ı
å±Ģ éķ¿
ub e
è¹ Ī
éķ¿ æ±Ł
éħ ·
çĪ± æĥħ
åľ° è´¨
æľ¬ çīĩ
æ¡ Ĩ
å¸¸ åĬ¡
æĶ¯ ä»ĺ
äººæ°ĳ å¸ģ
èı Ĭ
æ²¿ éĿ©
æĬµ æĬĹ
çļĦ åĦ¿åŃĲ
æĸĩ æĺİ
åĮħ åĽ´
çĽĳ å¯Ł
å¤ ¹
å°Ĩ é¢Ĩ
å¹³ è¡¡
æĢĢ çĸĳ
çļĦ ç¬¬
äºī åıĸ
å¼Ģ å¹ķ
è¨Ģ è®º
17 9
èĥ Ĩ
ä¸ŃåĽ½å¤§éĻĨ çļĦ
èµ« å°Ķ
æ±Łèĭı çľģ
åĿ Ĥ
èĤ ł
åı¯ä»¥ åľ¨
è ¤
è®¾ äºİ
å¼ı æľĪåı°
ou r
å·¡ æ´ĭ
åŃ ķ
æīĭ æľ¯
ä¼¯ çĪµ
åºĨ ç¥Ŀ
çĲī çĲĥ
åĲ« æľī
æī £
éķ¿ è¾¾
æ±¡ æŁĵ
åıĳ æĮ¥
å¯¹ åħ¶
æľĢ ä¸º
æīĢ éĩĩçĶ¨
å¥ ĭ
æĬ¥ çº¸
æ² ª
æ£Ģ å¯Ł
è ¤Ĳ
æī ģ
åıĳ è¨Ģ
åĻ¨ çļĦ
çŃĸ çķ¥
åĤ ¬
é¼ĵ åĬ±
å¤§ èģĶçĽŁ
çŁŃ æļĤ
éļ ĭ
çı Ģ
è¶³ å¤Ł
é¡ ·
æıĲ è®®
æİ¨ èįĲ
çĪ± å¾·åįİ
åĲ §
I P
T h
è¥ Ħ
æĪĳ çļĦ
å¾· åĨĽ
è° Ń
é¢ģ åıĳ
åĩĮ æĻ¨
è¯ ±
19 00
æľª æľī
éĹ ²
åĩº åĶ®
æĸ¹éĿ¢ çļĦ
é¢ĳ çİĩ
éĻ¢ éķ¿
å§ĭ å»ºäºİ
åįķ çĭ¬
æĮ ĸ
çº ¤
åıĪ åĲį
éĢı éľ²
çļĦ ä½įç½®
åĩ ī
çº¦ æľī
åĶĲ æľĿ
æĪĲ å°±
æµ· å¹³éĿ¢
æĪĺ å£«
æ²³ çļĦ
æĿ¡ ä¾ĭ
éĻĦ å±ŀ
å·¥ç¨ĭ å¸Ī
æĪĲç«ĭ çļĦ
éĢĤ åºĶ
èµŀ åĬ©
å¢ĥåĨħ åħ±æľī
ä½į çļĦ
äºļ çĽ®
äºĭ æĥħ
åĨĻ ä½ľ
åıĳåĬ¨ æľº
6 1
åĮº åĨħ
çĽ´ å¾Ħ
è¿½ æº¯
åĩŃ åĢŁ
5 2
éĿĴ å²Ľ
A N
é¢ Ī
ä¸ĭ æĿ¥
åĪ¶ çīĩ
æīĢ å¤ĦçļĦ
åı² å¯Ĩ
é¢Ĩå¯¼ äºº
æĽ¿ ä»£
8 9
èģĶ ç»ľ
èĸ ª
é¹ ħ
æ° ¨
åħ¬ äº¤
f f
åĢ¾ åĲĳ
åĲ ŀ
æĪĲ äºº
æĻ® é²ģ
199 1å¹´
èħ Ķ
æ£ ķ
ç«Ļ çļĦ
æĹł çĹĩçĬ¶
æµ·æĭĶ ä¸º
åħ¬å¼Ģ èµĽ
æĽ °
æĹ¥æľ¬ çļĦ
en s
éĽĨ åĲĪ
æ¸¸ åĩ»
è¶³ åįı
æĸ ¥
å¥ ¶
ä»¥ åĲİ
æŃ£ ç¡®
åĬ ²
å¿ ĺ
é¦ĸ ä½į
æĦı å¤ĸ
å·¡æ´ĭ èĪ°
èĭ± éĩĮ
é¢Ħ ç®Ĺ
åĲ¸ æĶ¶
æĽ¾ ç¥ĸ
åıĳçĶŁ åľ¨
æī© å¼ł
çļĦ éĥ¨åĪĨ
åĨ ķ
S e
å¤§ å°ı
æĸĩ èīº
åı¤ èĢģ
éº Ł
æ²ĥ å°Ķ
é¢ģ å¥ĸ
å»ºçŃĳ çī©
æĦŁæŁĵ èĢħ
ç§ĳçļĦ åħ¶ä¸Ńä¸Ģç§į
åĽ Ĭ
5 3
çļĦ éĹ®é¢ĺ
åŁ¹ åħ»
çĲ ª
åħ¬ åĳĬ
éĿŀ æ³ķ
æ°Ķ åİĭ
åĲ »
å·² çŁ¥
èĪŀ è¹Ī
å½ĵéĢī ä¸º
éĴ ĵ
åĨ³ è®®
èľ ľ
ç¢ §
it h
æĺŁ çŃīä¸º
ä¿Ħ åĽ½
è± «
ç¢ ±
éŃ ģ
ä¸¥ æł¼
éģŃ éģĩ
åĲİ ç»Ń
å¾· æĭī
æķĪ åºĶ
å® ´
ä¸Ń éĹ´
ç§ĳ å°Ķ
èĪ¹ åıª
äºĴ çĽ¸
å®ī ä¸ľ
æł¼ ä¸º
ç»Ħç»ĩ çļĦ
çĶµ æ°Ķ
ä¸»è¦ģ æĺ¯
åĩºçİ° äºĨ
äº« å¹´
æĸ¯ åį¡
éĢĲ æŃ¥
é¸Ł ç±»
æĪĲ äºĨ
åī ª
å¤ĸ éĥ¨
æ¬¡ å¹´
åĪĽ å§ĭ
çļĦ ç¬¬äºĮ
æĪĲ éĥ½
æİ ł
æ¼ ı
199 5å¹´
L E
ä¹ĭ å¤ĸ
è¶ħ è¶Ĭ
çļĦ å¥³
å§ ľ
åĬł éĢŁ
å§ĭ å»º
è§Ĩ è§ī
ä¸Ģ åĪĩ
ä¹ĭ åŃĲ
å¸Ĥ æĶ¿
è¶³çĲĥ ä¿±ä¹Ĳéĥ¨
åģ¶ åĥı
ç© ·
p e
åĪĻ åľ¨
å½¢ çĬ¶
å®¡ åĪ¤
å¡Ķ å°Ķ
å½ķ å½±
åıĮ æīĵ
æ£ ī
æļ ¨
é¢Ħ æµĭ
æıı ç»ĺ
æł½ åŁ¹
æĿ¥ è¶Ĭ
éķ¿ æ²Ļ
çĽ´ éļ¶
åıĺ ä¸º
è´µ å·ŀ
è°¢ å°Ķ
åĴ ¨
ç¦» åŃĲ
å¼º åº¦
å¾Ī å¤§
è¿Ļæł· çļĦ
åĪĽ æĸ°
æķĳ æı´
åħħ æ»¡
åĵĪå°Ķ æ»¨
åĪ ł
ä¸Ģ ç³»åĪĹ
å¤§ åį«
éĶ Ĳ
æ¸¸ å®¢
å¼Ģå§ĭ åľ¨
æļ ĸ
éĥ¨ çĶµå½±
èĭı ä¸¹
è· µ
æŃ£ éĿ¢
æº ĥ
æĵ ħ
åģĩ è®¾
æ²³åįĹ çľģ
å¤ıä»¤ æĹ¶éĹ´
çĲĨ å·¥
æģ Ń
éĤ ª
on e
å¯» æ±Ĥ
éĥ¨ ç½²
ä¸» åľº
åİ¿ çŁ¥
æĶ¶ åĪ°
æ¨¡ æĭŁ
è¶Ĭ æĿ¥è¶Ĭ
ä¸»ä¹ī çļĦ
æĸĹ äºī
æĸ ©
åľ¨ ä¸Ģèµ·
æ¯ ħ
æļĤ åģľ
5 6
å½± åĥı
èĮ ħ
æĹı ç¾¤
èģĶ ç½ĳ
æĺ¯ä¸Ģ åĲį
è¿ģ èĩ³
éĺ¿å°Ķ åįĳ
å¸ ½
ç¬¬ 4
é«ĺ è¾¾
çĲĨ æĥ³
åĲĪ æ³ķ
çĻ¾ ä¸ĩ
éħį ç½®
æĢģ åº¦
å·¥ èīº
ç¨ Ģ
åĽ½éĻħ æľºåľº
æļĤ æĹ¶
ç§ ©
æĹ¶ åĮº
å¸¸ å§Ķ
é¢Ĩ äºĭ
åĽ¾ åĥı
å·´ æĭī
ç¦ı å·ŀ
c k
è¡Į ä¸ļ
æīĭ æ®µ
èª ĵ
7 00
åĩ ¶
å» ĸ
å±ł æĿĢ
ç§° åĳ¼
çĽ´ æĴŃ
ä¼Ĭ åĪ©
ä¾Ŀ èµĸ
èģļ éĽĨ
åľ¨ 197
éĺ¿å°Ķåįĳ æĸ¯
åĪ¶ æĪĲ
åħ±åĴĮ åħļ
ä½İ äºİ
æĢ ķ
äºİ19 0
m a
ç¼ ´
ç¹ģ æ®ĸ
èĤº çĤİ
çļĦ æĸ¹æ³ķ
åĽ½ åĨĽ
éĽ· æĸ¯
ç« Ł
åĬł å°Ķ
æķĻ å®Ĺ
èĤ ¤
å¸ ĸ
æľ¬ ä½ľ
æľº åĪ¶
äºĶ ä¸ª
1 10
ä¼ļ æľī
ä¾ £
202 6å¹´
å±± åĮº
èĲ½ æĪĲ
åĲĮæĹ¶ è¯¥åľ°
ç»´ å¤ļ
éŀ ĭ
ä¸»ä¹ī èĢħ
åŃ¦ ç§ĳ
æ¼ ł
ä¿Ŀ éĻ©
èĴ ²
çĶ° å¾Ħ
åĪĨå¸ĥ åľ¨
H D
éĺŁ éķ¿
ç¦ıå»º çľģ
ä¸º åħ¶
åī§ åľº
åį³ ä½¿
å¯Ĩ åĪĩ
198 8å¹´
æ£Ĵ çĲĥ
å° ¿
è®¤ åı¯
æ¶Ī éĺ²
åĽĽå·Ŀ çľģ
åĬŀäºĭ å¤Ħ
å¤© åłĤ
éĺ² ç©º
è¾ħ åĬ©
çļĦ è§Ĵèī²
è½ ©
10 å¹´
èĭ± åĳİ
äº¤ ç»Ļ
çłĶç©¶ éĻ¢
è§Ĥ çľĭ
éĤ ±
æīĵ çł´
æ¡¥ æ¢ģ
| |
ç¨ £
è®¤ è¯ģ
è·¯ æ®µ
åĨĴ éĻ©
çĲĨ çĶ±
å§Ķ æīĺ
åķĨ åºĹ
å« ©
å¤© æ°Ķ
ç«ŀ èµĽ
19 å¹´
âĢ ĺ
èĢ¶ ç¨£
æľĢé«ĺ çļĦ
å¡ŀå°Ķ ç»´äºļ
å¥ ł
è¥¿ ä¾§
æĭī çī¹
5 4
éĩı åŃĲ
åī¯ ä¹¦è®°
èģļ èĲ½
çļĦ å·¥ä½ľ
çļĦ åİŁåĽł
èµĦ åĬ©
åĬłåħ¥ äºĨ
ä¼ļ è¯ķ
å¼Ĺ éĽ·
æĴ¤ éĢĢ
å¤©æĸĩ åı°
ä¼ļ åĳĺ
åĬł åĵ¥
äºº ä¸º
åįĹ èĩ³
æī© å»º
I T
æł Ĺ
èĬĿ åĬłåĵ¥
6 ä¸ª
çļĦ æĢ»
ä»¥ ä¸º
ç© ´
5 ä¸ª
å®¶ ä¸Ń
çĤ ¼
è´§ è¿Ĳ
å½± è§Ĩ
å®¤ åĨħ
çļĦ éŁ³ä¹Ĳ
ä»¥ ä¸ĬçļĦ
è¢« ä»»åĳ½ä¸º
äººæ°ĳ ä»£è¡¨å¤§ä¼ļ
æ¤ İ
ä¸ĭ å±ŀ
èĭ ¹
èĩª æĪĳ
å±ķ çİ°
çļĦ ç¾İåĽ½
ç§¯ åĪĨ
çº³ åħ¥
æ¯ı æĹ¥
è®¸ åı¯
ç» ¥
çľ ł
åº§ æłĩä¸º
åģľ è½¦
äºº æĿĥ
é¸ Ń
çļĦ è¯Ŀ
ä¼Ĺ è®®éĻ¢
èħ ¿
å¼Ĺ éĩĮ
æ¶µ çĽĸ
åİŁ åĲį
in t
è§Ĵ åº¦
èĢģ å¸Ī
åģļ åĩº
ç»¿ èī²
å¤§ å¸Ī
éľ ŀ
èĬĤ åº¦
çļĦ éķ¿
çº¦ çĳŁ
æĥ³ è¦ģ
çļĨ ä¸º
çļĦ æĿĳåºĦ
ä¹Ł ä¸į
çļĦ æĹ¥
ä¹ĭ ä¸ĭ
è¿Ľ åħļ
æŃ» åĪĳ
p er
ä¸į æķĮ
è´¢ äº§
åľ¨ èĭ±åĽ½
ä¸¤ ä½į
ä¸¤ ä¾§
éª ļ
ä¸¹ å°¼
5 7
å· ·
æĸ¹ ä¾¿
ãĢĭ ãĢĬ
åıĽ ä¹±
åĨħ èĴĻåı¤
ç«ŀ æĬĢ
M V
m ent
å¥¹ åľ¨
ä¸ ¸
å¤§ å¤«
çī¹ æľĹ
å¨ ħ
èħ º
è½¦ éĺŁ
æľį è£ħ
éģŃ åıĹ
èħ ĵ
çĭ¬ç«ĭ çļĦ
æľ¬ äºº
çº¿ ä¸Ĭ
a i
è¥¿ éĩĮ
éĩį éĩı
æ¶ Ľ
199 3å¹´
å·¦ ç¿¼
åĽŀ å¿Ĩ
çļĦ å½¢å¼ı
èį ¡
äºĨ ä»ĸ
è° Ĭ
çĽ´ åįĩ
è£ģ åĪ¤
é©¬ æģ©
å¨ ¶
ç¤¾ ç¾¤
oc k
è°ĥ å¿«
ä»ħ æľī
æ²³ è°·
æ¶ī å«Į
æŁ¥ çĲĨ
å®£ ç§°
èĲ¥ ä¸ļ
é±¼ éĽ·
è® ¼
å¼ł ä¸ĵè¾ĳ
åįı å®ļ
çĽ¸åĲĮ çļĦ
äºº æ¬¡
æł¼ éĽ·
æĶ¹ è¿Ľ
ç©º è¢Ń
æĸ° åĨł
è¾Ĳ å°Ħ
çļĦ æľĢ
åľ¨ åı°æ¹¾
ä¸Ĭ éĺµ
éĵ ĥ
åł ¤
æĥħ ç»ª
å¾ģ æľį
å¤§ä½¿ é¦Ĩ
æ³ķ ä»¤
åĺī ä¹ī
æ³½ å°Ķ
èŀį åĲĪ
8 6
æ¯ Ĺ
æĬ Ħ
æİ ©
è¿ŀ è½½
åĻ ¶
åıĤ è®®éĻ¢
ä¾ĭ åŃĲ
ä»¥ ä¸ľ
æĪĺ æľ¯
ä¼ļ è¢«
é¢Ĩ åħĪ
éĩį è§Ĩ
æ´Ľ åħĭ
çļĦ åĲįåŃĹ
åľ¨ 196
ç£ ·
è§ī å¾Ĺ
éĢļ çŁ¥
èº« åĪĨ
è½¬ çļĦ
16 0
æĪĲ çĨŁ
èĪ Į
å½ĵ ä»£
æħ °
èĵĿ èī²
ç Ģ
éĥ ģ
åı¯ è§ģ
æ¿ Ĵ
ä¾į éĥİ
çĬ¹å¤ª äºº
èĩ Ĥ
å¸ĥ æľĹ
ç¤¾ äº¤
è®¾æľī å¤ıä»¤æĹ¶éĹ´
è¯¥åľ° æīĢéĩĩçĶ¨
åĲĮæĹ¶è¯¥åľ° è®¾æľīå¤ıä»¤æĹ¶éĹ´
è¯¥åľ°æīĢéĩĩçĶ¨ çļĦæĹ¶åĮºä¸º
æ¼Ķ è®²
å·¨ å¤§
éķĩ åĮºçļĦ
äº¤ æ±ĩ
æ»¡ æ´²
å»¶ ç»Ń
ä¸ĭ ä¸Ģ
éĢļ å¾Ģ
çĥ ¯
çĪµ å£«
ä¸ľ ä¾§
åįķ ä¸Ģ
è´ ·
æĦŁ è§ī
ç²ī ä¸Ŀ
é«ĺäºİ æµ·å¹³éĿ¢
u re
199 0å¹´
çļĦ åħ³ç³»
æĢ» çĽĳ
ä¼ł æķĻ
æį· åħĭ
çĽ¸å½ĵ äºİ
a h
æĮ ¡
åŃĲ å¥³
æİĴè¡Į æ¦ľ
èīº äºº
è´§ çī©
æīĢå¤ĦçļĦ æµ·æĭĶä¸º
æīĢå¤ĦçļĦæµ·æĭĶä¸º é«ĺäºİæµ·å¹³éĿ¢
è¾ĵ åĩº
è¡¥ åħħ
c ol
ä¸Ń æľĢ
åº ¶
çİ ²
åľ° å½¢
æ¼Ķ åĮĸ
éª Ĺ
è®¾è®¡ çļĦ
ç¬¦ åı·
ç§į åŃĲ
å¸ Ĩ
ç»ĺ çĶ»
C o
u g
åľ¨ ä¸Ń
å¤§ éĿ©åĳ½
èģ ª
æĦ ¤
ä¿Ŀ è¯ģ
æĻ® ç½Ĺ
æĹłçĹĩçĬ¶ æĦŁæŁĵèĢħ
å¼ ĵ
è¡ĮæĶ¿ éĻ¢
æ°¸ ä¹ħ
åĲĪ åĲĮ
é² ¸
è¯¦ ç»Ĩ
ç»´å¤ļ åĪ©äºļ
èį Ĩ
åĪ¶ä½ľ çļĦ
æıĲåĩº äºĨ
èĦ± ç¦»
çī¹ å°Ķ
æĪĺ éĺŁ
åŁİ çļĦ
äº¬ éĥ½
åħ· å¤ĩ
å¾Ī å°ĳ
äºĴ åĬ¨
r an
å¤§ éĺª
ä½Ĩ æĺ¯
å°¼ åı¤
or d
çĵ ¶
çĻ» è®°
7 3
æ¡ Į
ç¥ ¯
è·¯ åı£
) :
æł¼ å°Ķ
æĥħ èĬĤ
ar e
æ¾ Ħ
æ© Ħ
a w
åľ° äºļ
åĮº éĹ´
éĺ¿ éĩĮ
éħ ®
èİ· èĥľ
æķĻèĤ² éĥ¨
åºı åĪĹ
äºİ201 6å¹´
èĤ¡ä»½ æľīéĻĲåħ¬åı¸
S S
o y
æ¸ ł
æİ¢ éĻ©
éķĩåĮºçļĦ éĿ¢ç§¯ä¸º
äº ©
çī¹ éĩĮ
ä½ľ ä¸ļ
æł¼ éĩĮ
æĸ½ å·¥
ä¸º æĸ°
åº ĩ
æŃ¤ æ¬¡
æµģ ä¼ł
ä½įäºİ ç¾İåĽ½
çº¢ åĨĽ
èļ Ģ
ä¼Ĭæĸ¯åħ° æķĻ
ä¼ ŀ
å§ ¿
å¤ļ åĲį
åĽĽ ä¸ĸ
8 2
å§ ĳ
å¾· æĦıå¿Ĺ
éĤ ĳ
è¯º å¤«
è½°çĤ¸ æľº
éĿĴ å°ĳå¹´
æķĪåĬĽ äºİ
æ Ĩ
åħ¬ é¡·
ä¸» å¯¼
èĬ Ń
ç±» çļĦ
ä¼łç»Ł çļĦ
æ©Ħ æ¦Ħ
ç» ĳ
æĶ¾ åľ¨
å²Ľ çļĦ
èĩ´ åĬĽ
çģŃ ç»Ŀ
ä¼ļ ä¸Ĭ
è¿Ļ éĩĮ
ç»´ åŁº
ä½Ľç½Ĺ éĩĮè¾¾
ä» Ĩ
åº ļ
æ³ Ħ
æ» ķ
çİ°åľ¨ çļĦ
åįĹæŀģ æ´²
å¤ļ æł·
äºĮ çº§
æĢ» è£ģ
äºİ19 2
æ¤ ħ
äºĴ èģĶç½ĳ
å®¹ çº³
äº¿ åħĥ
æ®ĸæ°ĳ åľ°
æľ¬ ç§ĳ
æµ· ä¸Ĭ
å·´ åĭĴ
åİĨåı² åŃ¦å®¶
17 8
ãĢĭ( "
ä¸ľåįĹ äºļ
æ²Ī éĺ³
ä¸ľ äºļ
æ±ī åŃĹ
ç¥ Ī
çĽ¸ åıį
çıŃ æ¬¡
çĪ ·
å°ĳ å°Ĩ
æĪĺæĸĹ æľº
k m
çļĦ æĶ¿æ²»
æĶ¿ åıĺ
çļĦ ä¸į
éĥ¨ å°ļä¹¦
æ²¿ å²¸
éĽĨ ä½ĵ
åį³ å°Ĩ
åį« éĺŁ
çĸ« èĭĹ
éĩĳ å±±
ç¾¤ ä¼Ĺ
åľ¨ åĮĹäº¬
åŃ¦ ç³»
ç½ ©
çī¹ èī²
æ¼Ķ èīº
å®īå¾½ çľģ
è¿ĳ ä»£
è¿ŀ ä»»
ç¾¤ ä½ĵ
åĪĨ åĮº
å¸ĥ éĽ·
åį« è§Ĩ
èĭ¹ æŀľ
åĪĨ æł¡
éĢļ çĶ¨
æĢ» ä¼ļ
åķ ¡
åĬ £
ä½¿çĶ¨ äºĨ
æĭħ å¿ĥ
æĶ» åįł
çļĦæĥħåĨµ ä¸ĭ
çº§ èģĶèµĽ
198 9å¹´
æħ İ
P lay
ä»į æľī
åıĤä¸İ äºĨ
m e
éĢ ¸
è¿ŀ ç»ĵ
å¹² éĥ¨
æ°ĳ è¿Ľåħļ
å·¥ ä¼ļ
çļĦ çĶµ
ä»¥ è¥¿
ä»ĸ æĺ¯
æĥ §
æ¸ħ æ¥ļ
é¹ ı
æİ¢ ç´¢
2 50
éķĩ åİĭ
æĻ®é²ģ å£«
ð «
éķ ĳ
çľģ çļĦ
æł¸ éħ¸
æŀ¶ æŀĦ
è´ ª
å½ĵ å¤©
çŁ ®
éĥ½ è¢«
åįķ æīĵ
çĥ ·
åĢ¼ å¾Ĺ
åĪ¤ åĨ³
éķ¿ çº¦
èľ Ĥ
çļĦ åıį
ä»İ æľª
é³ ŀ
å¥³ çİĭ
å¤« å¦ĩ
, ),
çļĦ ç»ĵæŀľ
ç¬¬ä¸Ģ ä½į
æī ĳ
å±± è¥¿çľģ
æ¨ ±
çļĦä¸Ģ æĿ¡
æ¸ħ ä»£
éĴ¢ çĲ´
è´ ¼
æł¼ æŀĹ
å®ŀ è·µ
æĽ´ å¤ļçļĦ
èīºæľ¯ å®¶
åĲİ èĢħ
æŃ¤ ç«Ļ
è° ´
è¸ ı
i re
æĸ¯ åľ¨
åĨĽ åľ¨
éĢ ¾
å®ļ æľŁ
æĺŁ ç³»
åĮĹæµ· éģĵ
ä»ĸ ä¸İ
è¯¥ åľ°çļĦ
éĩį è¿Ķ
ä¿® è®¢
åĪĩ å°Ķ
å½» åºķ
9 6
åĬ³ å·¥
u st
åħ¶ å®ŀ
å¥¹ ä»¬
æ±Ł æĪ·
æĪĲ éķ¿
åĵ ª
æµ· åįĹ
è¿ª å£«
æĦ¿ æĦı
ig ht
çŃ Ĵ
åıĳè¡Į çļĦ
ä¼ļè®® åĳĺ
æ¡ĥ åĽŃ
You T
S c
ä¸Ń å°Ĩ
è¡Į èµ°
çª Ħ
èµ Ķ
äºĨ ä»ĸçļĦ
æł¼ é²ģ
æĺ¯ä¸Ģ ä½į
è½¯ ä½ĵ
éŃĶ æ³ķ
P S
éĻ¨ çŁ³
å¤´ è¡Ķ
æķ´ åĲĪ
2 åı·
D V
çļĦ ç¥ŀ
æķ ²
ä¸ľ æµ·
èĤ ¢
ç»´ ä¿®
å¼ķ è¿Ľ
å¥½ è¯Ħ
ä»į åľ¨
åİŁ åħĪ
åıĹ å®³
å±Ĥ çļĦ
s on
çº ł
æĬ Ľ
èĹ »
ä¼¤ å®³
çĲĨ æŁ¥
è¯ģ åĪ¸
i z
åĵĪ èĲ¨åħĭ
è¿ªå£« å°¼
åĲİ åľ¨
çļĦ åŁºç¡Ģ
åĲİ è¢«
è¾ĥ ä½İ
åĲ Ĭ
19 20å¹´
è° ¥
ä¸Ģ æĶ¯
åĨ Ģ
198 4å¹´
æĸ¯ åł¡
èµ· è¯ī
è®® å¸Ń
åĿ Ł
å®ĺ èĩ³
ä¼Ĭ æĭīåħĭ
ä¼¯ çī¹
c l
åĩ ¸
åĮº åĪ«
éģ ®
åįł æį®
p t
çļĦ æľº
æĥ ©
åĨħ åľ°
é»Ħ èī²
ç»´ åħĭ
i b
ä¸º äºº
ä¸» åĬ¨
çī¹ åĮº
åĪ© çļĦ
çĽ® çļĦæĺ¯
åĸ ĩ
ä¹¡ éķĩ
åľ¨ æĸ°
è¢« åĳĬ
ä¿® éģĵ
äº§çĶŁ äºĨ
æĴŀ åĩ»
ç½Ĺ å¾·
äºİ201 5å¹´
æŃ ī
è¯º æĽ¼
æľĽ è¿ľ
æĪĺ åĪĹ
èµ· åĪĿ
è®¤ åĲĮ
èĥĮ é³į
äºİ201 4å¹´
ç¬¬ä¸Ģæ¬¡ ä¸ĸçķĮå¤§æĪĺ
çĩĥ æĸĻ
çļĦ ä¸Ĭ
é£Ł çĶ¨
æĹłçº¿ çĶµè§Ĩ
çĶ ľ
åĽ½ éģĵ
èµ £
çİĭ åŃĲ
æŃ¦ å¸Ŀ
å¸Į å°Ķ
i al
æľ µ
å§Ķ ä»»
éĻ¤ æŃ¤
æĶ» æīĵ
äºİ201 8å¹´
çļĦ çĶµå½±
çļĦ æīĢæľī
å± ¥
åľ° åĲį
æłĩ è®°
çĶ· å¥³
å¤ļ é¡¹
æĲº å¸¦
P C
åħ¬ åĬ¡
é¢ ł
æĶ¹ å»º
èĭı ç»´åŁĥ
æ¡£ æ¡Ī
åĽ½éĺ² éĥ¨
è®® é¢ĺ
åĪĹ åĩº
æ¨¡ çī¹
æĤ ł
éĢĶ ä¸Ń
ç» µ
åŁİ å¢Ļ
äº¤ çķĮ
ç»Ī çĤ¹
è´¹ çĶ¨
äºİ201 7å¹´
èĽĭçĻ½ è´¨
B e
çļĦ æŃĮæĽ²
åİ ¥
äºĨ è®¸å¤ļ
äº¤ åıī
å¡ŀ çº³
æ³ķåħ° åħĭ
è°´ è´£
9 7
çļĦ æĪĲåĳĺ
æ¸ Ĭ
åį° ç¬¬
èı² åĪ©
æĸ¯ åĴĮ
èĬ Ļ
æ¢ ¨
å»ºçŃĳ å¸Ī
åħĪ è¿Ľ
æ¹ĸ æ³Ĭ
ä¸ĭè¾ĸ ä»¥ä¸ĭ
çŁĽ çĽ¾
" .
åį §
æĺ¯ åĽłä¸º
çī© åĵģ
è¿ĺ åľ¨
ä»Ĭ å¤©
çī¹æľĹ æĻ®
éĤ µ
æ²³ éģĵ
æĻº æħ§
å²© çŁ³
åľ° ä¸Ń
åĲį è¯į
ä¹Ł æĽ¾
åĽ¢ ç»ĵ
åºĶ å¯¹
è°ĭ æĿĢ
åĲİ æĸ¹
åı¯ åľ¨
çĶŁéķ¿ äºİ
ä¼Ļ ä¼´
å¼Ģ å·¥
åĿ ł
çĤ Ń
ä¸¾åĬŀ çļĦ
åī ¥
ä»£ æĽ¿
éģĵ åħī
å®ŀ ä½ĵ
æ²Ļ çĶ°
æĶ¶ è´¹
è¶³çĲĥ éĺŁ
åĶ¯ä¸Ģ çļĦ
8 4
äºİ 2020å¹´
æľ¬ çº¿
ç½Ĺ å¤«
æıĲ äº¤
èģĮ ä½į
è¿Ľè¡Į çļĦ
å¦¹ å¦¹
æľĽè¿ľ éķľ
i es
m er
äºİ æŃ¤
ä»» æķĻ
A S
å¥ ¸
çĲĨ å¿µ
çķ ħ
åľº åľ°
éģĩ åĪ°
æ²³åĮĹ çľģ
æĢ§ åĴĮ
çº³ å·ŀ
æĤ ¦
å·¨ å¤§çļĦ
9 3
å¼Ģ åĬŀ
å®ī å¨ľ
éļ¾ æ°ĳ
é¢ģ å¸ĥ
æŀ¢ çº½
éĢ» è¾ĳ
åį°ç¬¬ å®ī
ç¦ı å¾·
éĻį éĽ¨
æĹ ±
ãĢģ ãĢĬ
æ±Ł åįĹ
ic h
äºİ201 2å¹´
l d
è¯Ń éŁ³
ä¸ĵ çĶ¨
æĶ¿ åĬ¡
æīĢ éľĢ
å¤ĸ è§Ĥ
1 æľĪ1æĹ¥
æĹ¥ å¸¸
èµĽ çļĦ
çĪ± åĽ½
æ© ¡
æľŁ çļĦ
è¡Į é©¶
éĥ½ çĿ£
å²Ľ ä¸Ĭ
å¼º åĪ¶
å¼ķ çĶ¨
æİĴ åĪĹ
æµİ åįĹ
æľĢæĹ© çļĦ
èĤ ©
ä½ı åľ¨
ä¹¦ åĨĻ
åįı åķĨ
ä¹ł æĥ¯
å´ ĸ
æĹłäºº æľº
ç»ı çĶ±
è° ģ
éĢī åĩº
éĢī ç§Ģ
æł¹æį® 2010å¹´
14 0
è¿· ä½ł
D S
å° ĺ
æľī èĳĹ
æ³ķ è¯Ń
æĥ ľ
æł¼ åĭĴ
é¦ĸ æŃĮæĽ²
åĽĽ å¤§
ç½Ĺé©¬ å¸ĿåĽ½
èĸ ĩ
åĲĪ åĶ±
çº¿ æĢ§
æİ¥ èĳĹ
åį¡ æĸ¯
é¢Ĩ åľ°
æł¹ æľ¬
å¥ĸ éĩĳ
åį° åĪ·
æĹ¶ä»£ çļĦ
åĴ¨ è¯¢
ä¸Ĭ äºĨ
ä¸ĭ äºĨ
ç«ĭ éĻ¶
èĥľ åĩº
åĪĳ äºĭ
çī ²
æģ ¨
åľ£ ç»ı
è¯Ħ ä¸º
æ¢ µ
198 0å¹´
198 6å¹´
è° į
ä¿Ħ åĨĽ
èħ °
çĻ¾ å¹´
äºİ 2019å¹´
ä¸į è¦ģ
çĪ ª
å¡Ķ å°¼
ä¼Ĳ åĪ©äºļ
æĿŃ å·ŀ
5 1
åĲĮ åĲį
è° Ĳ
åĩĨ ç¡®
åĨł çĬ¶
R E
åĵ Ģ
è¿ĩ çļĦ
ç§° ä¹ĭ
é¦ĸ åº¦
é¢ĺ æĿĲ
ä½ı æĪ¿
çĽ Ī
ç«Ļ æĪ¿
æ°Ķ ä½ĵ
ç»¼ èīº
æĢ ¡
ä»ĸ è¢«
è§Ĥ åħī
å¢ŀåĬł äºĨ
ç¼ĸåı· ä¸º
èī² å½©
è½¬ ä¸º
å¼¹ èį¯
äºİ201 3å¹´
æĻº èĥ½
éķľ å¤´
çĥŃå¸¦ é£İæļ´
åŃŁ åĬłæĭī
çļĦ ä¸ŃåĽ½
å¯¹ è¯Ŀ
éĵ İ
èĻ ı
æ¯ı åĳ¨
åıĭ å¥½
æİ¢ æµĭ
å½ķå½± å¸¦
èĩ Ģ
åħ¥ åĽ´
è° ¦
ä¸¤ èĢħ
è¿« ä½¿
é©¬åħĭ æĢĿ
çĽ¸ åºĶ
çĻ¾ ç§ĳ
åĪĨåĪ« ä¸º
å±ħä½ı åľ¨
ç« £
é«ĺ åİŁ
ç»´ ä¹Ł
ç«ĭéĻ¶ å®Ľ
çļĦ æĹ¥æľ¬
æľī è®¸å¤ļ
æĪĲ æŀľ
åĮº åĪĨ
ç«ĭ åľº
æ¯ı å¤©
1 30
l o
çĿ Ľ
èĩªè¡Į è½¦
å¼ Ħ
åįģ æľĪ
ç§ĳ ä¼ļè¯ķ
è¯Ĩ åĪ«
çºªå½ķ çīĩ
æĳĩ æ»ļ
åĬ¨ è½¦
æĸ° å»º
æĥħ å½¢
çĳ ľ
ç¢ °
æİĮ æı¡
åĴĸ åķ¡
M e
N BA
æ· ĳ
éĿĴ æĺ¥
æŃ¥ æŀª
çŃ¹ å¤ĩ
æ² ¼
èĤ Ŀ
çŁ¥ åºľ
æĻ¯ è§Ĥ
ç¼ Ŀ
198 5å¹´
æľ Ń
ä¸» æĿĥ
æĭī å°Ķ
æ¬¡ äºİ
ç±³ åħ°
è®¤ä¸º æĺ¯
åıĳçĶŁ äºĨ
ç«ĭæ³ķ ä¼ļ
èļ ģ
å¤ ¸
åı²å¯Ĩ æĸ¯
åľ¨ ä¸Ģ
åľ° äº§
å¹³ çŃī
èĪ Ĩ
ar k
çĽŁ åĨĽ
åĪ¤ å¤Ħ
è´ ¬
çī¹ åħ°
å®¹ éĩı
åĲ¦ è®¤
ä¸º åŁºç¡Ģ
åĬł åĪ©äºļ
åīį è¿Ľ
é©±éĢĲ èĪ°
çĽ´åįĩ æľº
å¯¹ ç§°
åīį èº«
åĨħ æĶ¿
çĽ¸ ç»§
æİ¥ ç®¡
èĪª çıŃ
åĵ¥ åĵ¥
çŁ© éĺµ
åħĥ æľĿ
æĽ´ æį¢
èĿ ł
å¥¥æĸ¯ åį¡
è¡į çĶŁ
å¯¹ éĺµ
ä¸ī äºº
æł¡ åĮº
åħµ åĽ¢
æ³° åĭĴ
é¢Ħ å¤ĩ
P h
å® ł
å¼Ģ åĲ¯
æĪĺ èĥľ
æĳ Ķ
æµ Ĩ
ç¥ Ĳ
åįķ åħĥ
è½¬ ä¼ļ
å¸Ń ä½į
194 8å¹´
c o
æĸ° åĮĹ
ä½ĵ éªĮ
èĩ³ äºİ
æĮĩ æķ°
åŀĭ åı·
ä½¿çĶ¨ èĢħ
çģ« è½¦
çģ« çģ¾
çİ° åŃĺ
äºĮ å¹´
å°ģ ä¸º
æĿ¥èĩª äºİ
æīĺ é©¬
à ¸
ä¹ĭ éĻħ
æŃ¤ æĹ¶
æ¼ Ĩ
æł¡ èĪį
æİ¨ ç¿»
å¿Ĺ æĦ¿
çĻ¾ å§ĵ
é¢ ĸ
èĭ± éķĳ
å®¢ æĪ·
æĹ§ åĿĢ
J R
èµĽ è½¦
çĮ ľ
åŀĤ çĽ´
ä¸Ń ä¸ĸçºª
çĶµ æ±ł
åĭ ĺ
æĥħ æĦŁ
æ²³æµģ åŁŁ
åħ Ķ
å·´ ä¼ĲåĪ©äºļ
æĽ¾ æĺ¯
é¾Ļ çļĦ
æĹ© ä¸Ĭ
ä¼ģ åĽ¾
ç¥Ń ç¥Ģ
æ¹ĸåįĹ çľģ
å¿ Į
éĿ¢ åĲĳ
åħ¨ ä½ĵ
éĢī æ°ĳ
ä¼Ĳ åħĭ
è· Į
æķ° åįģ
ä¿Ŀ å®ī
åįĩ æł¼ä¸º
ä¸» æµģ
éĩį å¤į
èĽ Ľ
è¿ģ ç§»
è¾ Ī
åıĺ æį¢
ç¬¬åįģ ä¸ī
ç§© åºı
åįĹ ä¾§
C on
å¹¶ åľ¨
ç¾İåĽ½ æĢ»ç»Ł
éĺħ è¯»
æ° ®
ä¸» åĬĽ
å°º å¯¸
I V
çī© çļĦ
åľ£ æ¯į
é©± åĬ¨
8 3
æĺ¯ ä¸ª
ä¸ī åĽ½
äºĶ æľĪ
å½ķ åĪ¶
M S
a la
ä¸Ĭ è¯ī
çľģ éģĵ
194 4å¹´
èģĮä¸ļ çĶŁæ¶¯
se ction
9 2
åıĳ æİĺ
å¤§ è¡Ĺ
æ¹ĸåĮĹ çľģ
YouT ube
åİ ī
c he
å¤§ éĺŁ
åĿ ŀ
éģĹ ä¼ł
éĻķ è¥¿çľģ
æħķ å°¼
ä½ ĳ
åĮ ł
ä¸» ç®¡
å¸ĥ åħ°
åĮĹ ä¾§
èĤ ĩ
æĶ¹ è£ħ
çľ¼ çĿĽ
ä¸¥éĩį çļĦ
çĺ ¤
éĿ¢ ä½ĵ
å·´ èµ«
åĵģ è´¨
çĹħ éĢĿ
ä¼¤ äº¡
æŃ§ è§Ĩ
æ¡ Ĳ
æµģ éĩı
198 2å¹´
èľ Ģ
8 ä¸ª
æµ ¸
æĮ º
å±± çļĦ
ç©¿ è¿ĩ
äºĭåĬ¡ æīĢ
ä¸ľäº¬ éĥ½
ä»¥ å¤ĸ
å¥³ ä¸»è§Ĵ
åķĨ åĬ¡
çĻ» åľº
åĨĻ éģĵ
èµ Į
è¡Į äºº
é© ¹
åĩĨ åĨ³èµĽ
198 7å¹´
17 7
194 1å¹´
åĲį äºº
å·ŀ éķ¿
ä¸¤ å²¸
åı¤ å·´
éĵ¶ çīĮ
äºİ 2021å¹´
åİ¦ éĹ¨
æħķå°¼ é»ĳ
9 4
æĪ Ĭ
å®¶ ä¹¡
åĲĮ æŃ¥
æıĲ åīį
çĵ ·
åĩł ä½ķ
éĽķ å¡ĳ
åĨłçĬ¶ çĹħæ¯Ĵ
æľ¬ ä¹¦
ä¾Ŀ çħ§
ç±»ä¼¼ çļĦ
çīµ å¼ķ
ç»´ä¹Ł çº³
M P
a u
æĺ¯ ä¸į
å¤§ åħ¬
é©¬ ä¸ģ
æĹ© åľ¨
æĮĩæĮ¥ å®ĺ
å¢ŀ è®¾
ç«£ å·¥
èŃ¦ æĬ¥
äºİ201 0å¹´
DV D
ä¸Ĭ å¸Ŀ
æ» ¤
æ» ĭ
åĪĴ å½Ĵ
å¹ķ åºľ
æŁ Ħ
æĿĳ æ°ĳ
" ),
p p
èĮ Ħ
åĮ» åŃ¦éĻ¢
æ·» åĬł
èģĮ åĳĺ
æ±ī è¯Ń
çĶ² åŁº
ç»ĥ ä¹ł
èĬ ¦
å¥³ åŃ©
çĸ ¯
è¾¹ çļĦ
at h
å¾·åĽ½ çļĦ
ç»Ĩ èıĮ
èı² å°Ķå¾·
æ¯ķä¸ļ åĲİ
U S
æī Ń
ä¸ī ç§į
éħ ¯
18 2
åķĨ åľº
å®ĮæĪĲ äºĨ
æĺ¯ ä¸ºäºĨ
ä¸ª ä½ĵ
æ¿Ģ çĥĪ
ä¿®éģĵ éĻ¢
ä¿Ŀ åĬłåĪ©äºļ
åĽŀ åĲĪ
an n
èĢĥ å¯Ł
äºİ201 1å¹´
éĢĶ ç»ı
èĻļ æĭŁ
r am
èĢĮ ä¸į
æĪĺ åľº
k e
ä¸ĭ åįĬ
åĨħ æľī
äºĮ æľĪ
äºī å¤º
â Ĩ
äºİ 2022å¹´
æ´Ľ å¤«
æĶ» åĬ¿
æī¿ æĭħ
çļ® èĤ¤
èµ¢å¾Ĺ äºĨ
T A
å°Ķ é¡¿
æ£ į
ç´¢ æģ©
è¶ ģ
æ£ ±
ç»ıæµİ åŃ¦
æľ« æľŁ
åħ¶ä¸Ń ä¸Ģä¸ª
å¤§éĩı çļĦ
åĪĨ ä¹ĭä¸Ģ
ç§į ç±»
èİ· åıĸ
è´Ŀ åħĭ
é¡º åºı
è¸ ¢
E N
æĻ ´
åħĥ éŁ³
çķĮ çļĦ
åıĳçĶŁ çļĦ
In ter
å¸ ľ
æĹ¥ åĲİ
ä¸Ĭ å¸Ĥ
ä½įäºİ ä¸ŃåĽ½
æ» ¥
å¹¶ æĹł
ç»ı çºª
åıĹ æįŁ
åĳ¨ åĪĬ
è± ¹
æĸ°åĨł èĤºçĤİ
åľ°ä¸Ń æµ·
åĿ ¤
å£« é¡¿
åı¸ èģĮ
æĬĹæĹ¥ æĪĺäºī
ç¥ ¸
æĬĳ åĪ¶
8 1
çļĦ åĽ½éĻħ
çĽ´ è·¯
er t
äº¦ æĺ¯
é¥ ¶
å®ģ æ³¢
æİĴåĲį ç¬¬
W e
å¸¸ å¸¸
åĪĻ æľī
åħļ åĳĺ
ç¥ĸ åħĪ
æĲ ŀ
åĶĲ çº³
ç¬¬åįģ ä¸Ģ
éĺ´ è°ĭ
åĪ° çļĦ
çĮ ´
æ¯ĶèµĽ ä¸Ń
å©´ åĦ¿
çĶ· åŃ©
éĽ· è¾¾
194 6å¹´
æ·· ä¹±
æ§ ½
è¥¿ æĸ¯
å·´ åŁº
çİ° æľī
å¦ ¥
å¤© ä¸ĭ
ä¿¡ å¾Ĵ
æĿ¡ æ¬¾
æŃ» äºİ
ä¸Ńå¿ĥ çļĦ
ä½ĵèĤ² é¦Ĩ
äº® çĽ¸
å¯ ĩ
ä¸ī æľĪ
è®¤ å®ļ
åħ¬ ä¼ļ
å½ĵ æĹ¥
èĲ Ŀ
ä¹¦ ä¸Ń
ç¬¬ä¸Ģ å±Ĭ
æİ¨ æµĭ
æ¤ Ń
ç»Ĩ èĬĤ
193 7å¹´
é¢Ĩå¯¼ çļĦ
äºİ åĲĮå¹´
åīį åĲİ
åıĸ èĩª
åĽ½å®¶ åħ¬åĽŃ
æł· çļĦ
å·´åĭĴ æĸ¯åĿ¦
C l
ä¸¤ æĿ¡
è®º åĿĽ
æ¡Ĩ æŀ¶
çĽ¸ è¿ŀ
å¤´ éĥ¨
éĢģ åĪ°
è¯ī è®¼
åĳ¼ åĲ¸
æµ·æĭĶé«ĺåº¦ ä¸º
é¥® é£Ł
i x
å¾ Ļ
çĤ ³
éĢĶ å¾Ħ
å· ©
0 5
é¥ ¼
ç»§ ä»»
éĻĦ åĬł
å¯Į æ±Ĺ
æĺ¯ ä»İ
æ¬ ł
æĳ© å°Ķ
çļĦ çĪ¶äº²
å¤ĸ åĽ´
å¦Ĥ ä»Ĭ
æŃĮ åĶ±
å¼ķ ç§į
ç§» å±ħ
æĭ¿ çł´
è¿½ æ±Ĥ
å±ĭ é¡¶
ä¸»é¢ĺ æĽ²
è® ½
åĽł èĢĮ
çĽ¸ éĤ»
æ°´ éĩı
çłĶç©¶ çĶŁ
éŁ¦ å°Ķ
æĿ°åħĭ éĢĬ
èĩ´åĬĽ äºİ
çļĦ éĺ¿
çļĦ åŁİéķĩ
çī© ä½ĵ
è¯Ĭ æĸŃ
(; ),
æĭ¿çł´ ä»ĳ
E P
äºĨ è¯¥
åĩº èĩª
åĩº åľº
ä¸ŃåĽ½ åĽ½æ°ĳåħļ
çİ¯ å½¢
å§Ĩ æĸ¯
æī¹ åĪ¤
æĥħåĨµ ä¸ĭ
ac h
a z
äºº ä¸İ
æ£ ļ
æµģ åĬ¨
æĻ® æĭī
è¾ĸ åĮº
æ»ĳ éĽª
çļĦ åŃ¦çĶŁ
åĪĨ è§£
çī© èµĦ
å¦ ĸ
ç»Ī æŃ¢
æħĪ åĸĦ
çļĦ éĿ¢ç§¯ä¸º
æī ĩ
è° £
å±± åİ¿
å±± é¡¶
æ¡ ĵ
å´ĩ ç¥¯
ç¿Į å¹´
åĨ »
èĳ µ
å§ĭ ç»Ī
æłĩ é¢ĺ
g in
çļĦ åŁİå¸Ĥ
è¿ĩ æ¸¡
ç¦ §
éĴ ©
äºĶ åįģ
è¿ĲåĬ¨ çļĦ
çĶ» éĿ¢
m m
ä¸ī å¤§
æĢ» å±Ģ
åºķ å±Ĥ
ä¹ĭåĲİ çļĦ
å½¼ æŃ¤
ä¸º æŃ¤
åįĹ æµ·
çĪ ¬
è£ ´
ç§ĺ é²ģ
äºİ200 9å¹´
æĸ Į
æŁ ľ
åħĥ å¸ħ
å§Ķ åī¯ä¹¦è®°
æ²³ åı£
é³ Ħ
r is
åħ¥ å¢ĥ
èĤ ¿
æ¼ Ĥ
å¤§ æ°Ķ
å·¥ åķĨ
æĴ ĳ
åħ¬éĩĮ çļĦ
çĶ» å®¶
æ·± åħ¥
ç¬¬ä¸ī æ¬¡
ä¸įå¾Ĺ ä¸į
é»ĳé¾Ļæ±Ł çľģ
åħ¬ å¯ĵ
ä¸» æīĵ
æľĢ å¤ļçļĦ
çĲĥ è¿·
åĽĽ æľĪ
æĶ¹ ç§°
æĹł è®º
å± ¡
è¾ ±
å¾· åħĭ
éĨ ī
ç§ĺä¹¦ éķ¿
ä¸Ń å¼ı
åİ Į
çĦ ļ
æİ¨ è¡Į
åħ« æľĪ
çĶŁæ´» åľ¨
èĵ Ħ
äºĨ å¯¹
å¤ļ äºº
çīĩ æ®µ
ç¦ı éŁ³
éĺ³ å¸Ĥ
çª ĥ
æĵ ¦
æĸ° ç«¹
æł¼ å¼ı
èĭı éĩĮ
çªģ åİ¥
ä¼ĺ åħĪ
åħ±äº§ ä¸»ä¹ī
èģ Ĥ
çŃī å¾ħ
æĽ² çĽ®
åŃ£ åĲİ
ç¬¬äºĮ ä¸ª
åį° è±¡
çİ¯ çĲĥ
åį°åº¦ æķĻ
æ© Ļ
è½¬çļĦ å°ıè¡ĮæĺŁ
ä¹ĭ ä¸Ń
è¶³çĲĥ èģĶèµĽ
çĶ± äººå·¥
å·¥ä½ľ çļĦ
æĪĲç«ĭ äºĨ
é¢Ħ åĳĬ
æĹ Ń
åıĳ éŁ³
åıĬ åħ¶ä»ĸ
æİ¥ ä»»
èģĮ æ£Ĵ
ç¦ı åĪ©
198 3å¹´
åĥı æĺ¯
ä½İ æ°Ķåİĭ
æıĲåĩº çļĦ
ç¿° æŀĹ
åĢŁ çĶ±
è¾ŀ èģĮ
äºĳåįĹ çľģ
äºİ 2023å¹´
ä¼ļ éķ¿
åĲį èªī
ç³ ķ
å¾® è½¯
çĥŃå¸¦ æ°ĶæĹĭ
e ct
ä¸» ä½ĵ
åįĹ ç¾İæ´²
æľº æŀª
çĪ± çļĦ
ç¬¼ èįī
åĪĨ æĪĲ
æľ¬ åľ°åĮº
è¿ĩ äºİ
è¯º ä¼Ĭ
ol d
åĪº æ¿Ģ
èĳ£äºĭ éķ¿
çĮª ç¬¼èįī
åİ Ŀ
è´ ¿
çĶµ åĬ¨
åı² èĴĤ
æĪ¿ éĹ´
åµ Į
å±± å¸Ĥ
ç¾İåĽ½ åĽ½å®¶
æĹ©æľŁ çļĦ
çº º
å¥³ æ¼Ķåĳĺ
ä¹¡ æĿĳ
éĢĤ çĶ¨äºİ
åħĭç½Ĺ åľ°äºļ
ç¼ Ķ
åĭ ¾
èº ²
ä¸ģ åł¡
ç½ķ é»ĺ
A L
äºĨ è¿Ļ
åįĹ æĸ¯æĭīå¤«
ç«Ļ ä½įäºİ
å¥½ åıĭ
é¥ ¥
B L
åĬł åĭĴ
ç§° èµŀ
åıĤ è§Ĥ
å¹³åĿĩ æµ·æĭĶé«ĺåº¦ä¸º
åħ¨ çº¿
é² Ī
åıĳçİ° çļĦ
é£ŀ å¼¹
St ation
æİ§ èĤ¡
åĨľ åľº
å¼Ĺ æĭī
ãĥ ¼
å·´åŁº æĸ¯åĿ¦
ä¸ĭ è½½
åı° å¸ģ
æķ° çĻ¾
ä¸ĥ æľĪ
å¼Ĥ å¸¸
è´¢ åĬ¡
æĺ ı
æĸ¹ ç¨ĭ
åĮĹ éŁ©
åºĵ å°Ķ
x t
éģĹ è¿¹
N et
r it
ä¸Ģ çĻ¾
åĮº åĴĮ
åĪĨ çļĦ
éķ¿ åŃĲ
åı¸ æľº
è£ ¸
çģ« æĺŁ
ä¹ĺ åĿĲ
è£Ķ ç¾İåĽ½
R O
Î ±
äºĨ ä¸ĢäºĽ
æĸ¯ éĩĮ
æĿ¥ å¾Ģ
ä»£ çļĦ
éģĵ çļĦ
ç¾İåĽ½ æµ·åĨĽ
ç¥ŀ åľ£
åĸ ī
å®£ åĳĬ
ä¿Ħ äº¥
ä¿Ħäº¥ ä¿Ħ
p ro
åĬł ä»¥
ç§ĳ å¹»
åģļ ä¸º
çħ§ é¡¾
çĶ±äººå·¥ å¼ķç§į
7 ä¸ª
åį¡ æ´Ľ
åī§ ä¸Ń
æĿĥ çļĦ
è½¬ ä»»
d u
ä¸ĭ æĸ¹
åŃĲ å¼¹
çº¿ åĴĮ
è¿Ĳ æ²³
å±Ģ çļĦ
ç¼ĸ åĨĻ
èĲ¨ æĭī
åİĦ å°Ķ
å¥´ éļ¶
å»º æľī
å¸¸ å§Ķä¼ļ
æīĭ æŀª
å®£ è¨Ģ
åĬłåĪ©ç¦ı å°¼äºļå·ŀ
åĮĸ ä¸º
è¯Ń åĴĮ
èİ± æĸ¯
åĩºçİ° çļĦ
St e
åŁº è¾ħ
çĶµè§Ĩ åĬ¨çĶ»
å¤©æ´¥ å¸Ĥ
E C
å·´ å¡ŀå°Ķ
èį ĥ
èĻ Ĳ
ar y
å¤ľ éĹ´
éĵľ çīĮ
ç¤ºå¨ģ èĢħ
åİ ¨
é«ĺ æŀ¶
æ¶ ¡
çºªå¿µ ç¢ĳ
èĤ¯ å®ļ
i de
çļĦ èĥ½åĬĽ
æĸĩ æľ¬
ç¥ŀ ç§ĺ
æĭ ¦
çķ ľ
åİŁ åĪĽ
æµģ ç»ı
è°ĥ èĬĤ
7 1
åħŃ ä¸ª
åĿĲ æłĩ
æĶ¹ç¼ĸ èĩª
M ic
æĶ¹ åĲį
U N
åı£ å¾Ħ
éĩį ç»Ħ
çº§ çļĦ
åĽŀ çŃĶ
å®¢ å®¶
éľį å°Ķ
å°±è¯» äºİ
æľ¬ å±Ĭ
å±± åľ°
åŁº éļĨ
éĺµ å®¹
æ®ĭ çĸ¾
å¹¸ åŃĺ
å¥¥æĸ¯ æĽ¼
M E
éķ¿ å®ī
12 5
æŀģ ç«¯
çĽ ²
èĢĮ å¾Ĺ
å¤ļ åħĥ
ç»´ åĲ¾
ä¾Ľ å¥ī
é»ĳ äºº
æĮī å¯Ł
ç©Ĩ ç½ķé»ĺ
åĽ½ æľī
åĩº äºİ
æĮ ¤
ä¸ī æ¬¡
åħ³ èģĶ
åĪ¤ æĸŃ
ç´§ å¼ł
H K
â Ī
æĶ Ģ
äºļ åĨĽ
åĸ »
la t
åĵĪ æĭī
åıĸå¾Ĺ äºĨ
ä¸º å¤§
ä¸į åıĺ
å² Ĳ
åĪĻ çĶ±
çĹ ķ
æ°Ķ æ¸©
åĵĪ éĩĮ
åĪ¶ä½ľ äºº
èĢ¶ å¤«
æķĮ äºº
ç©¿ è¶Ĭ
åī© ä½Ļ
ç»´åĲ¾ å°Ķ
ä»¥ å¤ĸçļĦ
å¤ĸ çķĮ
æį ī
é» Ľ
éħ ĭ
çļĦå¤§ åŀĭ
çļĦå¤§ éĥ¨åĪĨ
çļĦ ä¸ĸçķĮ
åĴĮ ä»ĸçļĦ
æĢ» é¢Ŀ
å¿ĥ èĦı
åħļ ç»Ħ
éª ı
ç¼ĸ ç»Ħ
æľĹ å¾·
ç²® é£Ł
åĲĮæĢ§ æģĭ
H e
æ¬ º
éħ ¿
åĵĪ åĪ©
è¯į æ±ĩ
ä¹Įåħĭåħ° çļĦ
çĩĥ çĥ§
M y
c od
çĶŁ æķĪ
æĸ° çķĮ
æĮĩ è´£
åı¯ä»¥ éĢļè¿ĩ
å®¿ èĪį
è·¯æĺĵ æĸ¯
åŁ ł
é¦ĸ é¢Ĩ
å·´ å¸ĥ
æį¢ ä¹ĺ
oh n
åĴĮ å¤§
é¢ Ĥ
è¿Ľ åı£
çªģ åĩ»
åĨ² åĩ»
çĲĨäºĭ ä¼ļ
å°Ķ å¤«
ç«Ļ åİħ
æĺİ å°¼
çİĭ å®¤
å·´ åħĭ
ç½ĳ ä¸Ĭ
æģĲ é¾Ļ
çļĦ è¡Įä¸º
ä¸ī çĶ²
197 2å¹´
ä¸´ åºĬ
195 0å¹´
ç³ Ĭ
å°± åľ¨
å¥¥ åħĭ
çī©ç§į çļĦ
S ch
å¾Ĺ ç¥¨
éħ ī
å¸¸ è§Ħ
æĹł éĻĲ
æĦı åĽ¾
éĹ®é¢ĺ çļĦ
æĹĹ å¸ľ
çļĦå±± å³°
çĶµ æµģ
å¡ Į
å¤ª éĥİ
èĬĤ å¥ı
åŃĺ åĤ¨
çĭ¬ çī¹çļĦ
å¤º åıĸ
äºİ200 8å¹´
è¯¥ æł¡
å®Ī æĬ¤
çĶŁäº§ çļĦ
æĹĭ è½¬
åįģ å¤§
è¾ĥ å°ĳ
çĶµå½± èĬĤ
æ°¸ è¿ľ
çĶŁéķ¿äºİ æµ·æĭĶ
3 000
A K
çļĦ å¥³åĦ¿
äºº æīį
æ³ ª
ç¬¬ 6
å½¢ çļĦ
194 2å¹´
ä¸Ĭ æĸ¹
ä»» å¤©åłĤ
è° ¨
ä¼ł å¥ĩ
èĻ ¾
å§Ķåĳĺä¼ļ ä¸»å¸Ń
åĿĲ èĲ½
æĺ Ķ
åŀ ¦
åħŃ æľĪ
è¶³ èģĶ
çļĨ æľª
ä¸Ģ å¤©
åĬł å·¥
åĲİæĿ¥ çļĦ
ç±»åŀĭ çļĦ
.. .
â Ħ
æĹ¶ éĴĪ
è½¦ çļĦ
ç¡® å®ŀ
197 9å¹´
âĨ Ĵ
A I
y n
ä¸Ģ æīĢ
åħ¬ çº¦
åħī è°±
æıı åĨĻ
èĪªç©º åħ¬åı¸
ä¸º çĶ±
æĪ Į
åĮĹ å¹³
æķĻ ç§ĳ
æĢ§ æł¼
äº§ éĩı
ä¿Ŀ åį«
æ¶Ī çģŃ
èĻļ æŀĦ
ä¸ĭ æĿ¥çļĦ
åĽł åħ¶
æŃ£ ä¹ī
çĳ Ļ
äºº ç¾¤
åĿĩ æľī
æĬĢ èĥ½
æ¸© å¸¦
åĺī åºĨ
åİŁ æĿ¥
é¦ĸ ä»»
éĻĲ äºİ
åį¢ çĵ¦
åį°åº¦ å°¼è¥¿äºļ
ç±»ä¼¼ äºİ
åıĳçĶµ åİĤ
L o
éĥ¨ éĥ¨éķ¿
å¤© ä½¿
éĩĳ åĪļ
ç®Ĺ æ³ķ
éĩĩçĶ¨ äºĨ
éĴ¢ éĵģ
1 ä¾ĭ
æĢ ¨
çº¤ ç»´
C P
D NA
çļĦ åľ£
åĽ½ è¯Ń
äºİ 2024å¹´
ä»¥ å¾Ģ
åĲį å½ķ
è· ĭ
çī¹ åĭĴ
åħ± è®¡
çº³ å°Ķ
çª Ŀ
çģµ éŃĤ
éĢı æĺİ
æĶ¹åĪ¶ ä¸º
çļĦ çĶŁæ´»
åĵģ ç§į
æĻļ æľŁ
r u
åĽ½ æĹĹ
åįİ åĮĹ
éļı ä¹ĭ
æĤ ¼
è§£ éĻ¤
èı ±
ç¡® ç«ĭ
197 6å¹´
b y
åĴĮ äººåı£
åħĭ é²ģ
æ¸¯ éĵģ
åĸ Ŀ
å¾Ģ è¿Ķ
F C
æŃ¤ å¤ĸ
éĢī ç¥¨
åĲĳ åĮĹ
éĶ ħ
è®¤ çŁ¥
æľ¯ è¯Ń
æ²¡æľī ä»»ä½ķ
éĢłæĪĲ çļĦ
äºİ200 7å¹´
åħĭéĩĮ ç±³äºļ
æ²Ł éĢļ
ä¸Ń æŃ£
éĹ ¹
æĺİ ä»£
åĶ ¤
er n
17 0
æķĪ çİĩ
èī¯ å¥½
æĲŃ è½½
9 00
éĺ ľ
åİŁ ä¸º
é»ĳ æļĹ
é¸ ¦
åŃĺåľ¨ çļĦ
åİ¿çļĦä¸Ģä¸ª è¡ĮæĶ¿
åĽ½ å®ī
åľ° å¤Ħ
å»º åĽ½
äºĭ åıĺ
çĽ¸ è¾ĥ
æŃ£ æľĪ
å®ŀ åĬĽ
or k
å¼º åĮĸ
å¸ĿåĽ½ çļĦ
çĽ Ĵ
æīĵ å¼Ģ
âĢ §
ç¥ŀ ç¤¾
åħŃ å¹´
è¾ŀ åİ»
å° §
ä¸Ģ éĥ¨åĪĨ
ä¸ĭ çļĦä¸Ģä¸ª
å£« åĿ¦
æĶ¾ éĢģ
198 0å¹´ä»£
åĵį åºĶ
æĬĹ æĪĺ
193 9å¹´
ig n
åľ¨ è¥¿
åĮ ª
å¾· ç½Ĺ
ä½ĵ åĪ¶
æµģ æµª
å¢ĥ å¤ĸ
éĽĨåĽ¢ åĨĽ
ç§ģ ç«ĭ
ä¸Ģ ä»½
å·¥ åħļ
ç§Ł çķĮ
L in
åĽł åºĶ
å¹² çº¿
ä¿Ħç½Ĺæĸ¯ çļĦ
ç²Ĵ åŃĲ
æįĲ èµł
i ver
è®¾ åľ¨
èģĶ åĨĽ
æ¯į èĪ°
å·¡ éĢ»
éĹ´ è°į
äºĮ æ¬¡
çĥ Ĥ
åħĪ åīį
åıĳå±ķ çļĦ
ä¸»æķĻ ç»ĥ
èķ ĥ
å°Ĭ éĩį
çŃī çļĦ
éĺŁ åĳĺ
ç»ĵæĿŁ åĲİ
é¦ĸ æī¹
åı°æ¹¾ çļĦ
æĥ³ æ³ķ
æĺĨ æĺİ
æ§ Ł
æĢ İ
ç¼ Ģ
æ® ·
èĮ İ
ç²¾ çģµ
å¸ķ å°Ķ
åĤ¨ åŃĺ
å»¶ä¼¸ èĩ³
éĺŁ åľ¨
åĬĽ åŃ¦
è½¬ åıĺ
å¼º å¤§çļĦ
ä¼¯ æł¼
è¿ª äºļ
èĽ Ļ
3 åı·
åĬ ¾
ä¸Ń æĸŃ
æ°ĳ æĶ¿
ãĢį ;
è¿ĩ åº¦
æ³¢ çī¹
æĺ¥ ç§ĭ
12æľĪ 31æĹ¥
çº· çº·
/ /
è¯ Ī
åħ¬ ç¤¾
ä¸ĭ åĪĹ
åĬ¨ æĢģ
èĥ½ åľ¨
éĺ² å®Ī
E T
æľī çĿĢ
åıĳ è¾¾
ç®¡ æİ§
åĲĽ å£«åĿ¦
çļĦ é©¬
åľ° ä¸Ĭ
ä»ĸ ä¸º
è¢« åıĳçİ°
éķ¿ æĺ¥
éĴ ł
åķĨ äºº
èı ©
å°ģ éĹŃ
ç¬¬ 10
èĢĮ åľ¨
æĽ´ æĺ¯
å¼º çļĦ
å¥ĸ æľĢä½³
åı¦ ä¸Ģç§į
å¾® åįļ
ation al
çļĦ åĨħå®¹
æľī åı¯èĥ½
éĹ ¯
æ¬¡ æķ°
å¢ĥ åĨħçļĦ
èĽ ®
M O
åħĭ éĽ·
åıĤ è®®åĳĺ
åĲĳ éĩı
åħµ åĬĽ
å°ģ éĶģ
0 9
ä½ £
ä¸º æľŁ
ä¸Ĭ æ¸¸
åħ¬ å¼ı
æ³¨ åħ¥
è¡¨çİ° åĩº
å¸ĥ æĶ¿
é¦ĸ å°Ķ
æĺŁ çļĦ
æ³¢ å£«é¡¿
ä¹Ŀ æľĪ
çľĭ è§ģ
194 3å¹´
ä»¥ æŃ¤
æł¼ æĭīæĸ¯
åŀ £
åıĹ åĪ°äºĨ
ä¸ĵ ç§ĳ
ä¸ĵ æ³¨
æľŁ åĪĬ
ç¦ ¾
çĦ °
åıĤ æ¼Ķ
çĤ¹ æĺ¯
in a
ic k
éĩİ çĶŁ
èī ®
åħ¨ ä¸ĸçķĮ
ä¿ĥ ä½¿
å°¼ æ³Ĭ
è°ĥ ä»»
åİĭ ç¼©
æĺ¯ä¸Ģ åº§
å·¡ æĬļ
éŀ į
éĿŀå»ºåĪ¶ åľ°åĮº
éĺ Ģ
å¤ª åĲİ
éļı æľº
éĤ£ æł·
è®¾è®¡ å¸Ī
æıĲä¾Ľ çļĦ
åŁİå¸Ĥ çļĦ
ç²¾ ç¡®
åı³ ç¿¼
èĭ į
å¼Ģ æĴŃ
ç½Ĺ è®·
è¯º æĸ¯
æŀģ ä¸º
éĽħ åħ¸
èĤ¡ ä¸ľ
å®ľ åħ°
æľī ä¸¤ä¸ª
çŃī äºİ
æ¶ ¨
åĮ» å¸Ī
is h
æĹ¶ åĪ»
è·¯ å¾Ħ
åİ¿ åŁİ
ç»ĵ è®º
åı¤ å¸ĮèħĬ
å·¥ä½ľ äººåĳĺ
åħį çĸ«
è¶ĭ åĬ¿
æĺ¯ ç¾İåĽ½
ä»ĸ äºº
ä½ĵ æĵį
çķ ı
åĪĿ æŃ¥
æ´ª æ°´
åıĻ è¿°
å¤©æĸĩ åŃ¦å®¶
è¿Ļ é¡¹
äºĭ åĲİ
æ´»åĬ¨ çļĦ
åĬłåħ¥ ä¸ŃåĽ½åħ±äº§åħļ
èį£ èİ·
ä¸Ń ä»¥
å¤§ çĲĨ
åīį éĶĭ
é«ĺ æł¡
å®ļ çĲĨ
æ¬¡ åĪĹè½¦
æĦŁ æĥħ
æīĢåľ¨ åľ°
å§Ĭ å¦¹
åľ¨ ä¸Ģä¸ª
ä¸į ä½³
åıĳ èĤ²
åĬ¨ åĳĺ
æľĢ éĩįè¦ģçļĦ
å¤© åĲİ
ç¼ Ĩ
å±Ģ åĬ¿
æĬĢ å·§
çĭ¬ çī¹
èĢĥ åħ¥
è®¨ ä¼Ĳ
æĪª æŃ¢
ag e
l es
èĥ Ģ
å°ı å§Ĳ
éĢī æĭĶ
åĸ Ļ
å§Ķåĳĺä¼ļ çļĦ
å½Ĵ ç±»
ac t
æĭľ åįł
å±¯ éĹ¨
ä¼ļ ç¤¾
èĩª ä¸»
å¤© åºľ
èĭı å·ŀ
ç¦» å©ļ
åĶ® ç¥¨
æĹ¥ æĬ¥
åĩº åľŁ
åħ¬ ç«ĭ
ãĢĭ ()
å¹¶ ä¸įæĺ¯
åĨĽ æĸ¹
ä¸ļ ä½Ļ
éĤ ¹
å¤Ħ åĨ³
çİĩ åĨĽ
çħ Į
å½¢æĪĲ çļĦ
èµĭ äºĪ
åĴ ı
ä¸ľ åĮº
éĺ¿ å¯Įæ±Ĺ
åº§ åłĤ
æĪ· éĥ¨
äººå¤§ å¸¸å§Ķä¼ļ
èŀº æĹĭ
éĻ¨çŁ³ åĿĳ
âĦ ĥ
r on
åľ¨ ä¸Ĭæµ·
ç¼ ¸
åĨ³ çŃĸ
ä»ĸä»¬ åľ¨
am es
as s
C N
åİŁ æľī
çľŁæŃ£ çļĦ
t on
ç»ı è´¹
æĢ» ç»ıçĲĨ
æ°´ æ·±
æĶ¹ èī¯
12 7
å¤ª å®Ī
è§Ħ æł¼
å¼Ģåıĳ çļĦ
åĲ¦ åĪĻ
T O
åŃ ļ
åİŁ çĲĨ
é¦Ļæ¸¯ çļĦ
è§Ĥ éŁ³
å¤± è¸ª
èĭ±åĽ½ çļĦ
æ£® åł¡
çĨ Ķ
åĺī å®¾
195 8å¹´
éĤ® å±Ģ
0 1
æĪĺ ç»©
èİİ çĻ½
åĩº èµĽ
èĢĮ éĿŀ
åĳĺ å¤ĸ
åı¯ éĿł
éĺ¿ åŁº
å·´ å«©
èİ· å¥ĸ
er e
æ½ľ åľ¨
éĽķ åĥı
" ).
ä¹Ĳ åĽŃ
éĽĨ çļĦ
åĽ¾ æ¡Ī
çļĦ éģĵè·¯
è¢ ľ
ç¬¬ åįģäºĮ
åĨĽ äºº
å¤ļ ä¼¦
åĬł æĸ¯
ç±» åĪ«
éĴ §
ç¦ı å°Ķ
é¹ ¦
196 8å¹´
æľĢé«ĺ æ³ķéĻ¢
é¢Ŀ å¤ĸ
èŁ ¹
æĹ¥ çļĦ
èĢĮ éĹ»
é«ĺ å±Ĥ
å¨ģ å°¼æĸ¯
og le
æ°Ł åĮĸ
Play Station
çļĦ æĪĲç»©
æĭ ¯
ä»» æĦı
å¾· æĸ¯
æĽ¾ è¢«
éĽĨ ç»ĵ
ä¼ł éĢĴ
åıĺ æĽ´
199 0å¹´ä»£
èĪª ç«Ļ
ä¾¦ å¯Ł
èı²åĪ© æĻ®
é¢ Į
å½ĵ ä½ľ
å®ī å¦®
18 1
194 7å¹´
é»İ å·´å«©
äºİ200 6å¹´
ä¸Ń åİŁ
éĥ½ ä¸į
åı¤ è¿¹
æŃ» åĲİ
æĲľ ç´¢
æĪĺ åĽ½
æķ° ä¸º
å¤ª åİŁ
éĿ¢ç§¯ åĴĮäººåı£
è§Ĥ èµı
æ¸© æ³ī
çªģ åĩº
æĴ¤ ç¦»
åĵ º
åı¯ åīįå¾Ģ
10 5
å¦Ĥ åĲĮ
ç¡ ħ
ç½® äºİ
ç¡¬ å¸ģ
å¤§ å®¶
å£ ¬
éĺŁ åıĭ
äº¤ åĵį
è§Ĥ å¿µ
éº ĵ
æĲŃ éħį
i um
p en
åľ¨ ä»ĸ
æĪ İ
ä¸ī åĲį
åĽĽ åįģ
ä¿¡ ä»»
æİĴ éĻ¤
è´Ń çī©
åº ¸
ç¥ ·
ç«Ļ èĩ³
ä¸¤ åº§
äºº è¢«
è¿Ļ é¢Ĺ
å¹³ æĪĲ
åıª è¦ģ
è¾ĥ å¤§çļĦ
æĶ¯æĮģ èĢħ
An d
éĴĵ é±¼
ð ¬
æŃ ¼
åĨħ äºļ
æķĻ å¾Ĵ
ä¼ł è¾ĵ
æĳ ĺ
éĺ² åį«
èĿ Ļ
è¯´ æľį
17 5
æĹ¶éĹ´ çļĦ
åĲĪå¹¶ ä¸º
æĭľåįł åºŃ
ä¸ ¢
ä¸º è¯¥
åľ° åľ¨
åĪĨ ä¹ĭ
åĲĳ ä¸ľ
æĸĩåĮĸ çļĦ
æĸĩåĮĸ å¤§éĿ©åĳ½
ä¾Ŀ éĿł
åģļ æ³ķ
é¡º æĹ¶éĴĪ
æĦıè¯Ĩ åĪ°
åĨ ¢
åĪĴ åħ¥
198 1å¹´
çŃĸ åĪĴ
æĹłçº¿ çĶµ
èĿĻ èĿł
æĺ¯ æĹ¥æľ¬
æĹ¥ çĽĬ
è´ ¦
åĲį åı«
åĪĨ äº«
è¢« åĪĹä¸º
ç¾İ ä¸½
è° ķ
çº¦ åħĭ
åĲĳ åįĹ
å°± æľī
ç¬¬ä¸Ģ çĻ¾
çļĦä¸Ģ æ¬¡
ç½ĳ åıĭ
æ¨¡ ä»¿
ä¹Ŀ å·ŀ
å©ļ ç¤¼
ç´¯ ç§¯
å¸ĪèĮĥ å¤§åŃ¦
A d
è¿Ļ åľº
å¤© æĸĩåŃ¦
è®© ä»ĸ
1 12
æ° Ľ
ä¹ĭ å¤Ħ
å¥³ ç¥ŀ
æ» ŀ
å¡ŀ æĭľ
çĥŃ éĹ¨
è¯» èĢħ
èĲ¨æĸ¯ å·ŀ
ç§ ī
åħ¶ ä½Ļ
æĸ¹ ç¨ĭå¼ı
è¿ĺ åĮħæĭ¬
åħ¶ä»ĸ çļĦ
éĺ³ åİ¿
åĥ ļ
å®Įæķ´ çļĦ
é» ı
åıĤ è§ģ
æ²Ļ æ¼ł
å¤ı å¨ģ
å¯º éĻ¢
è®¯ æģ¯
å¹¿æ³Ľ çļĦ
Go ogle
ä¸Ģ åı·
æ± ¶
éĵ Ŀ
æķ° åįĥ
åİŁ åŀĭ
é¦ĸ å¼ł
åĶ ĩ
æĸĩåĮĸ éģĹäº§
å¼Ĺ åħ°
è¡Ģ æ¶²
9 1
åħ° å·ŀ
åĿĩ åľ¨
éħį ä¹Ĳ
æ²¿ çĶ¨
ä¼ĳ æģ¯
æ¯« æĹł
æµģåŁŁ éĿ¢ç§¯
. âĢľ
åľ¨ ä½į
äºº æĸĩ
éķ ¶
åı° ä¸ľ
åĲĳ è¥¿
åį³ ä½į
æĿĥ å¨ģ
æĿ° åĩº
åł µ
çłĶç©¶ ä¸Ńå¿ĥ
M I
ä¿ ±
åĬ¨ å·¥
ä¹Ł æ²¡æľī
å±± åı£
è¿Ĳ ç®Ĺ
æĿ¡ çĽ®
è§ģ åĪ°
åĬ© äºİ
çİ¯ ä¿Ŀ
è¡ĮæĶ¿ ä¸Ńå¿ĥ
194 0å¹´
åı¬ éĽĨ
åĨ° å·Ŀ
çļĦä¸» é¢ĺ
å¹» æĥ³
åľ° åŁŁ
æĿ¥ çľĭ
èĩª ç§°
èĭ± è¶ħ
æ°´ ä¸Ĭ
å½± è¯Ħ
ä¹ī åĬ¡
æİ¢ è®¨
of t
æĺİæĺ¾ çļĦ
èĬĤåº¦ ä½¿
åĵ Ń
åħ° åį¡
åī¯ æĢ»ç»Ł
æ¾ İ
ro und
å°¸ ä½ĵ
D A
çļĦ æīĭ
åľ° åĿĢ
å¤ļ ä¸º
åıĤ æķ°
ä¸ĵ åĪ©
éĿĴ æµ·
äºİ19 1
è´¹ å°Ķ
æ¢ħ å°Ķ
çī©çĲĨ åŃ¦
0 8
ç¬¬ 8
åĽŀ åĽ½
åĽ½å®¶ å®īåħ¨
çīĻ é½¿
197 8å¹´
äºĪ ä»¥
åŁºçĿ£ å¾Ĵ
åĲį é¢Ŀ
ç¬¬ 7
éĢł åŀĭ
ç»Ī èº«
ä¸ĥ å¹´
å®£å¸ĥ å°Ĩ
çģµ æĦŁ
( )ãĢģ
t y
åĵ ©
åĲĮ åŃ¦
ä¸ī çº§
ä½ĵ ç§¯
åĪ¶ è£ģ
æĮĩ ä»¤
æ±ī åł¡
ro s
åħħ åĪĨ
ä¾µ çĬ¯
" (
G B
M us
åĲ ĵ
éĵ ħ
æĢ» åı¸ä»¤
æīĵ éĢł
è´Ŀ æł¼
åĩł å¹´
åıĭ è°Ĭ
å¯º åºĻ
åĪł éĻ¤
èĥ ĥ
æĸ° äºº
æĹı çļĦ
çĪ± å¥½
æ¦ ´
II I
ç½ķ è§ģ
ä¸Ń ä¹¦
åŃĲ åħ¬åı¸
ä¹¦ æ³ķ
196 0å¹´
un g
0 6
C ol
ç¬¬ 11
å¤© ä½ĵ
çĭ Ĳ
ä¹ł è¿ĳ
èĢ¶ å°Ķ
193 8å¹´
ä¼į å¾·
æĦıåĳ³ çĿĢ
ä¸º é¦ĸ
çī º
æ³ķ åŃ¦
åĨĽ å§Ķ
æĽ´ æĶ¹
ä¹Ŀ å¹´
æĪĲåĬŁ çļĦ
äºİ18 8
æ¸ħåįİ å¤§åŃ¦
B o
m y
ä¸Ĭ åįĬ
æĸ° è¥¿åħ°
å¹³ å®ī
çº§ è¡ĮæĶ¿
æ¢ Ń
åĵĪ å¾·
åľŁ å£¤
é¡º æ²»
èĪªç«Ļ æ¥¼
å¤ıå¨ģ å¤·
æĪ ļ
çĻ ¸
ç±³ èĩ³
B O
åīį çº¿
èĤ ¾
éŁ³ èĬĤ
åľ£ è¯ŀ
éĺµ èĲ¥
å´ĩ æĭľ
å¤§ è¿ŀ
æķ° ä¸ª
éĺ¿ å§Ĩ
èģĮ è´£
çĶµè§Ĩ èĬĤçĽ®
æĽ¼ èģĶ
196 4å¹´
æ²¿ çº¿
æŁĲ ç§į
èĩĢ é³į
å¤§ æī¹
åĨĽ èĪ°
éĩĮ æĺĤ
éĢł èĪ¹
çĳ ļ
14 5
åŃĺåľ¨ äºİ
åħ¬åħ± äº¤éĢļ
è·¨ è¶Ĭ
æ¢¦ æĥ³
æľī çº¿
æĸ¯ åĽ¾
ä»» åĨħ
éĶ ¥
åıį æĬĹ
on d
ç¼ĸ åħ¥
è½¬ ä¹ĺ
ä¸ĸçķĮ éģĹäº§
çļĦ å¼Ģ
ç«Ļ æĺ¯
åįİ ä¸º
çĶ· ä¸»è§Ĵ
çª ĳ
195 2å¹´
èĭ¥ å¹²
æĪĪ å°Ķ
é£ŀè¡Į åĳĺ
çļĦ ç¤¾ä¼ļ
ä¸ĭ æ¸¸
çŃī çŃī
æ¸¯ åħĥ
ç®¡ åĪ¶
çłĶ åĪ¶
ä¼¯ åĪ©äºļ
æĹĹ ä¸ĭçļĦ
å·¡ æ¼Ķ
è¡¥ ç»Ļ
éŀ Ń
7 æľĪ1æĹ¥
ç«ĭ å§Ķ
è¯Ħ å®¡
é¢ĳ ç¹ģ
åı« åģļ
çļĦ åı¯èĥ½
å®ļ ä½į
èĭ± å¯¸
åħ¸ åŀĭ
çīº çī²
A V
çļĦ åħ¨
åį ¯
è¡Į è½¦
è¿Ļ åº§
æĻ® åıĬ
æĬķ æīĭ
13 6
æĺĨ èĻ«
ä¹łè¿ĳ å¹³
C C
i le
ä¸º é£Ł
å¹³ å®ļ
é«ĺ å±±
é£İ æĻ¯
å®Į ç¾İ
èĲ¥ åħ»
åŁºæľ¬ ä¸Ĭ
åīį æĿ¥
å¾Ĺ åĪĨ
æĹı èĩªæ²»
åŃ£ èĬĤ
æ¹ĸ å¹¿
æį· è¿Ĳ
åŃ¦ åłĤ
ä¸Ĭ å°Ĩ
æĥ ĳ
äº¤ ä»ĺ
en ce
æ´Ľ çī¹
æ´Ľ éĺ³
ent er
ãĢī ãĢģ
è¾½å®ģ çľģ
åı¤èĢģ çļĦ
çķ ´
åĲĪ çĲĨ
ä¹Ĳ åĻ¨
æľºåĻ¨ äºº
i er
p s
åĴĮ ç¤¾ä¼ļ
åħ¶ åľ¨
æ¸ Ĺ
å®¶ å±ŀ
çĶ± æŃ¤
æŃ¤ åĲİ
ç¦ ¹
å½± å±ķ
æıĲ çĲ´
è§ģ äºİ
æķ´ çĲĨ
ä¸ĸçºª çļĦ
is s
éĢĥ ç¦»
æĵħ éķ¿
å°¼æ³Ĭ å°Ķ
S O
éĻ¢ æł¡
åĽ¢ çļĦ
15 00
æĹ¶éĹ´ ä¸º
197 0å¹´
197 5å¹´
è¡¥ åĬ©
æĻĭ åįĩ
åıĳå¸ĥ äºĨ
åĲ¬ åĪ°
èµ¤ çº¬
ç»´åŁº çĻ¾ç§ĳ
M o
ä¸Ģ äºº
è¯¥ çīĩ
é¾Ļ ç§ĳ
ç½ĳ æ°ĳ
è¡ĮæĶ¿ éķ¿å®ĺ
äº¤æĺĵ æīĢ
å±ı ä¸ľ
æĹ¥ è¯Ń
éĺ Ĳ
åĳ¨ æľ«
ä¹Į é²ģ
çİ¯ ç»ķ
æł¼åħ° çī¹
ST AT
I G
l and
åĪ© å¥¥
éģĵ æŃī
å·´ æĸ¯
åĨľ åİĨ
æĻº åĪ©
äºĭå®ŀ ä¸Ĭ
å·¡åĽŀ èµĽ
ç²¤ è¯Ń
å½° åĮĸ
é¢ģå¥ĸ åħ¸ç¤¼
çļĦ ç¬¬ä¸ī
éĺ¿å°Ķ å·´
ä¿ĺ èĻı
Ne w
æ¯Ĺ éĤ»
u de
çļĦ æ¦Ĥå¿µ
ä¸Ń èİ·å¾Ĺ
æĸ¯ å¤§
åİ¿ æ²»
æ¹ Ľ
éĩĳ éĹ¨
æ· Ģ
å¯Ĩ èĭıéĩĮ
è¯º è´Ŀå°Ķ
æĶ» åħ¥
èŃ¦ åĳĺ
éĽ¶ åĶ®
éĽį æŃ£
æĻ® æŀĹ
or ld
åĽ¾ å½¢
çīĪ çļĦ
çģ« çĤ®
è¿½æº¯ åĪ°
0 7
T r
w it
ä¸Ģ èĩ³
äºº ç§°
äºº æ°Ķ
çī ¢
å¯¹ æ¯Ķ
äºļ ç§ĳ
çŁ¥ åİ¿
æīĵ è´¥
æĭħ å½ĵ
èī °
é¥ ²
195 6å¹´
å¹¿å·ŀ å¸Ĥ
å±Ĭåħ¨åĽ½ æĶ¿åįı
æ¨¡çī¹ åĦ¿
0 2
çļĦ è¥¿
åĮ ¿
æĺ¯ å¯¹
å¤§ åĲĮ
æľī å¤ļ
åĩ °
ä»» ä¸Ńåħ±
æ±Ł è¥¿çľģ
ä¿¡ çĶ¨
åįļå£« åŃ¦ä½į
ä½ľæĽ² å®¶
èĴ¸ æ±½
å¤§ å¸Ŀ
è¯¥ åħļ
ä½ĵ éĩį
èİ± æĺĤ
ä»ħ ä»ħ
èµĶ åģ¿
F or
ä¸Ģ éĹ´
ä¸Ń æĹ¬
æİ ·
çī¹ éĽ·
æĸ° åı°å¸ģ
è¿Ľ å±ķ
éħ ¬
éª ¸
å¤į åĪ¶
é£Ł æĢ§
å®« å»·
åĿĲ æłĩä¸º
è¯¢ éĹ®
æĪĺåĪĹ èĪ°
åħ± è¯Ĩ
éĩį ä¿®
çĽ´ è¾ĸ
é¢Ħ å®ļ
èĪªç©º æ¯įèĪ°
åħ¬å¸ĥ ä¸º
è¾ £
å°Ĩ ä»ĸ
åİŁ å®ļ
éª ¤
å±Ģ éĥ¨
çĵ¦ åħ¹
è£ģ å®ļ
ç§ĭ åŃ£
A G
T E
æĪĲ åĪĨ
å¯¹ ä»ĸ
æĽ´ å¤§çļĦ
çĵ £
17 6
å·¦ æ´¾
æĻļ éĹ´
æľīåħ³ çļĦ
æĭĽ åĭŁ
C H
çļĦ èº«ä»½
ä»¥ 2
ä¸į çŁ¥
çľ ī
æ± ķ
æĭī çļĦ
æĢ» ä¹¦è®°
éľ ĸ
å¸¦ æĿ¥çļĦ
è´Ł éĿ¢
å±Ĭåħ¨åĽ½ äººæ°ĳä»£è¡¨å¤§ä¼ļ
æľĢè¿ĳ çļĦ
M a
Ð °
è¿ Ħ
çº Ĥ
æľī ä¸¤
åī ¿
éĩĮ åħĭ
ç«ĭ ä½ĵ
éĢļ è¡Į
ç³» çļĦ
æĶ¯ çĲĥéĺŁ
åĨ³ äºİ
çļĦä¸Ģ é¡¹
å¤į æ´»
çľŁ äºº
193 6å¹´
ä¹ĭåīį çļĦ
åįģäºĮ æľĪ
è¯¸ å¤ļ
æľĢåĪĿ çļĦ
ä¸»æĮģ äºº
åĲīæŀĹ çľģ
æľ¬ è´¨
æŃ£ ç»Ł
åĲī ä»ĸ
çģ« è½¦ç«Ļ
æĪĺäºī çļĦ
æĽ¿ æį¢
ow n
w e
çĶµ è·¯
è¯¥ åħ¬åı¸
æŁ ¬
åŁİ åİ¿
å¨ ¥
äº¤ çĶ±
æĻ® äº¬
å»ºçŃĳ éĿ¢ç§¯
çº½çº¦ å·ŀ
5 000
çī Ł
ä¾ Ħ
æĢ» ç«Ļ
æ²Ļ çī¹
çĶ² æĿ¿
ä¹ł ä¿Ĺ
æĪĺäºī ä¸Ń
éĢļå¸¸ æĺ¯
å¯ ¡
åĲĦ åľ°çļĦ
åĪĿ çº§
åĪĨåĪ« æĺ¯
è½¯ æĿ¡
å¹´è½» çļĦ
E x
W h
n et
çļĦ æľĢé«ĺ
åĲĮ å¿Ĺ
åį³ åı¯
ic al
æģĲ æĥ§
å¹¿æĴŃ åħ¬åı¸
çģ¾ éļ¾
åĽ½ åħ±
å¸¸ ä½ı
ç¦ı çī¹
ç¬¬äºĮ è½®
é¢Ħ éĺ²
æĹ§ éĩĳå±±
åħ¨åĽ½ éĩįçĤ¹
24 å°ıæĹ¶
åĸľ çĪ±
æĭ¯ æķĳ
3 D
B BC
å¼Ģ ä¸ļ
é© °
ä¹Ł åĽłæŃ¤
æ²» å®ī
æŃ£ è§Ħ
å½± ä¸ļ
æŃ¢ äºİ
çļĦ åĽĽ
èµ ¦
ä¸į è¯¦
åħĭ åĬ³
åĩ» ä¸Ń
å·Ŀ åİ¿
çĽĳ ç®¡
é¹ ī
æĹ¶ å¸¸
é² ¶
çĭ ©
åĢĻ è½¦
åĽ½æ°ĳ éĿ©åĳ½
è¡Ģ ç»Ł
è¯Ħè®º å®¶
çļĦ ç»Ŀå¯¹
äºĨ ä¸¤
æ³ķ åĨĽ
æľŁ æľĽ
åĪĹ å®ģ
èº« ä¸Ĭ
æ¸ħ çľŁ
196 6å¹´
å·® è·Ŀ
åĬłåĭĴ æ¯Ķ
çļĦ ç»ıæµİ
å¾· å·Ŀ
å®ī ç½®
å¹³æĸ¹ ç±³
it e
åĪĨ ç»Ħ
åħĭ å°Ķ
éħ °
åıį å°Ħ
çĶµå½± çļĦ
ç¼ĵ æħ¢
åĵº ä¹³
åľ¨ åĮĹ
æ± ģ
åīį æĸ¹
æĪĺ è½¦
åħī åŃ¦
å¾Ī éļ¾
æ·± åĪ»
å¹² é¢Ħ
é©» æīİ
195 4å¹´
è¿ģ å¾Ģ
æ½ľ æ°´
äº« æľī
æĺ¯ æľī
èĥ °
ä»£ åı·
äºļ å½ĵ
ä¹Ł åı¯
è½¦ äººæ¬¡
10 ä¸ª
æ· ³
æł¡ åıĭ
or y
èĭı è¾¾
çĭ¬ èĩª
å£° ä¼ĺ
è¡Ĺ å¤´
æĿĢ äºº
è¿ľ ä¸ľ
æĸ¯éĩĮ åħ°åį¡
S er
äºº çĶŁ
åĬł é¾Ļ
æĮĩ çļĦæĺ¯
æ» ´
æ³ķ å®ļ
æµ· åħ³
åİ¿ æĶ¿åºľ
å¹¿ ä¹ī
äººæ°ĳ æ³ķéĻ¢
å¤į åĲĪ
çİĩ åħĪ
çīĪæľ¬ çļĦ
åīĳ æ¡¥
èħĵ çī¹
% ;
çļĦ å¤ļ
ä¸Ģ èģĮ
ä¸Ń çŃī
åĴĮ ç¾İåĽ½
æĭī å¤ļ
æĢ» ä½ĵ
æĽ¾ ä¸º
ä¸ĩ å¹´
å¨ģ å°Ķæĸ¯
æľĢåĲİ çļĦ
åŃĻ ä¸Ńå±±
æ£Ģ éªĮ
çº½çº¦ å¸Ĥ
p r
åĲ Ĺ
åĨħ çĳŀ
çĶµ ä¿¡
å¢ ħ
æ°´ åĪ©
å°± è¢«
è½¬ æĴŃ
æīĵ è¿Ľ
æĤ Ł
å¹² æī°
æ°ĳæĹı ä¸»ä¹ī
èĳ¬ äºİ
ç½¢ å·¥
è½¬ç§» åĪ°
1 åı·çº¿
å®ļ å¾ĭ
å·´ é©¬
æĹı äºº
ä¼Ĭ å°Ķ
æĶ¾ ç½®
åı°æ¹¾ çľģ
æ¤ Ĵ
è¿ľ å¾ģ
å¤º åĨł
å¹¿æĴŃ çĶµåı°
èµ·æºĲ äºİ
èħĵçī¹ çĥĪ
a f
ä»¥ åħ¶
æĪĲ åĮĸ
æľ¬ å±ŀ
åħĭ åĪ©
æŃ¤ åīį
èµĽ èīĩ
æķ° åĢ¼
éĩį çļĦ
å§Ķ åĨħçĳŀ
åŃ¦æł¡ çļĦ
æľĢåĲİ ä¸Ģæ¬¡
åĳĺå¤ĸ éĥİ
o st
åĲİ åį«
æµ· æ°´
æīĢ å¾Ĺ
ä¸ī ä½į
ä½ĵ åŀĭ
éĤ ¸
è¯´ æĺ¯
ç¥ŀ çĪ¶
èĬ± èİ²
æ¸¸æĪı ä¸Ń
åħ¸ åŀĭçļĦ
ä»ĭ çŁ³
åĭĥ èī®
ä¸Ģ æĸ¹
åĩº æĿ¥çļĦ
æŀ «
ä½ľ è¯į
éĩĮ ç¨ĭ
å§Ķ å¸¸å§Ķ
ç¬¬ä¸Ģ æī¹
æ¸ħ æ°´
çŁŃ çīĩ
çĩ ¥
åĶ±çīĩ åħ¬åı¸
æĭĺ æįķ
çļĦ åħ¶ä»ĸ
å°± ä»»
çģ« åĬĽ
å¯Į å£«
å°ģ éĿ¢
åİĤ åķĨ
åħ¬åĬ¡ åĳĺ
I A
ä¸ĭ æĹ¬
åįĹ å®ĭ
æĶ¿æ²» å±Ģ
ç»ĩ çĶ°
ç¹ģ å¿Ļ
é¹¦ é¹ī
C ar
ä¹ Ĵ
æĪĲ çļĦ
ç½ Ĳ
éĥ½ åı¯ä»¥
éħ ±
éħ µ
è¾ĥ å¤§
ç²¾ èĭ±
ä¾µ çķ¥
å§Ĳ å¦¹
è¯ŀ çĶŁ
åĽļ çĬ¯
è¢« éĢīä¸º
åĮĹ çº¦
æŃ£ æĺ¯
å¾Ī å¤§çļĦ
ç§» æ¤į
èįī åİŁ
å« ¡
ç®Ģåįķ çļĦ
B l
Ã ¡
çļĦ è¯´æ³ķ
ç» ħ
å°¼ æĹ¥
åĲĦ é¡¹
åıĸ åĨ³äºİ
å¥ĸ åĬ±
å§ĵ æ°ı
çī§ å¸Ī
çıĬ çĳļ
æĦ¤ æĢĴ
0 4
åĬ¨ è¯į
æľĢ æľī
è½¦ èº«
ç«ĭ æ³ķéĻ¢
ä¸ĸ çļĦ
èĲ ¤
æ¬¡ æĹ¥
åľº åĲĪ
è¾¾ å°¼
é¦ĸ æĺł
ç¬¬äºĮ åŃ£
è¯Ĺ æŃĮ
åĪĬ çĻ»
åĩ¤ åĩ°
åĢº åĬ¡
ä¸Ĭ ä¸Ģ
çİĭ ä½į
æĽ¾ æĭħä»»
åĪĴ åĪĨ
åĸ Ĭ
é¥ ±
çĽĳ ç¦ģ
åĶĲ ä»£
è¡Ģ ç®¡
å°¼åı¤ æĭī
äºĭ å®ľ
é©¬ åĬĽ
åħ± äº«
æĮĩ æłĩ
ç»Ī ç»ĵ
æĺ¯ä¸Ģ éĥ¨
åĪ¶éĢł åķĨ
çļĦçī¹ å¾ģ
ç¨ĭåº¦ ä¸Ĭ
èĴĭ ä»ĭçŁ³
SA O
è´« åĽ°
åıĳè¨Ģ äºº
çļĦ æľī
æĶ¿ å§Ķ
å¤ļ å¤«
æĶ¹ ç»Ħ
çŃ¾ è¯ģ
a e
o ol
åľ¨ æ³ķåĽ½
æĸ° ä¸Ģ
é«ĺ å³°
æľº åĬ¨
éĻįéĽ¨ éĩı
0 3
C R
S M
çļĦ æłĩåĩĨ
äºĨ åħ¶
äº§ çī©
å·² åľ¨
æĬ¤ çħ§
åĬŁ çİĩ
åįĬ å¾Ħ
æĳ© æīĺ
æįŁ å®³
æµª æ¼«
å¤įæĿĤ çļĦ
c c
è¿Ļ æ®µ
æĢ» æĺ¯
åįİ ä¸ľ
åĭ ī
å®ĥ æĺ¯
å¼¹ åĬ¾
197 3å¹´
åĲ¯ åıĳ
æ¸Ĳ æ¸Ĳ
æĪĳä»¬ çļĦ
ç¾İæľ¯ é¦Ĩ
é«ĺéĽĦ å¸Ĥ
çļĦ è¡¨çİ°
æ³ Į
ä¸į åıĹ
è¶³ ä»¥
æł· æľ¬
åĩł åĨħäºļ
èĪĨ è®º
æĹ¶ è¢«
æ°ĳ åħļ
ä»£ è°¢
åħĥ å¹´
å¥¥ å¾·
å¸¦ èĳĹ
åĭĴ æĸ¯
ä¼Ĺ äºº
il li
çīĽ æ´¥
ä»ĺ è´¹
ç¹ģ èį£
å¼ĺ æ²»
äºº ä½ĵ
åĲİ æīį
éĩĮ éĿ¢
åŁİ éĻħ
è½¬ åŀĭ
åĬŀ æ³ķ
å¡Ķ åŁº
çħ ®
ä¿Ħç½Ĺæĸ¯ èģĶéĤ¦
sp an
è¤ Ĵ
ç¬ ĥ
çº³ æĸ¯
æ¦ľ åįķ
åı¦ä¸Ģ æĸ¹éĿ¢
åĮĸåŃ¦ å¼ı
Î ²
çļĦ åľ°åĮº
å¤§ æŃ£
éĹ µ
ä¸į èī¯
èī² æĥħ
æľĢé«ĺ çĤ¹
äººç±» çļĦ
æĲŃ æ¡£
é¡ºæĹ¶éĴĪ ä¸İ
s c
åĮĹ å®ĭ
å®ī æīĵ
éĥ½ æ²¡æľī
åĩ» éĢĢ
195 5å¹´
éª¨ éª
æŁĲ ä¸ª
äºİ200 5å¹´
åİŁåĽł æĺ¯
çļĦ éĿŀ
å² ĳ
çł į
å¥¥ åı¤
æĶ¯ æĴĳ
æĵ ¢
çļĦåīį èº«
åĴ Ĵ
æĹ¶ ä¼ļ
åĪ¶ å¤ĩ
æĽ¾ ä»£è¡¨
ä¹Į æĸ¯
æī§ æ³ķ
å®« æ®¿
è¶ħçº§ èģĶèµĽ
æ³ķ å°Ķ
æ³ķ è§Ħ
èį «
çĽ´ å±ŀ
åºĶ å½ĵ
çĳ ¶
ä¾¿ æĺ¯
è¯Ĺ äºº
æĸ¹åĲĳ çļĦ
æļĹ ç¤º
åĭĥèī® ç¬¬
u x
çļĦ åıĮ
ä½ľ çī©
çĶµ åİĭ
ç§ĳ çłĶ
çŁ³ åĻ¨
åľ£ æ®¿
æ´ĭ åŁº
ä¸ģ çĽ®
å¾Ĵ åĪĳ
ä¿Ħäº¥ä¿Ħ å·ŀ
9 ä¸ª
B 1900
ä¸ľ é£İ
æµ· çĽĹ
æ¯Ķ 2
æĶ¿åºľ åľ¨
åĲĦ å¤§
å¼ķ å¯¼
éĵ¶ çº¬
çĶµåŃĲ æ¸¸æĪı
çļĦçī¹ æľī
æĸ°å¢ŀ æľ¬åľŁ
G e
çŃ ĭ
åı¤ å±ĭ
æĶ¾ å°Ħ
åĩı å¼±
ä¼ĬåĪ© è¯ºä¼Ĭ
éª¨éª ¼
æĭī å§Ĩ
ç½Ĺ å§Ĩ
åĳ¨ æģ©
éŃ ħ
éĢģ å¾Ģ
åĭĩ å£«
ä¹ ŀ
å¥ ķ
çĶŁ çĲĨ
ãĢĭ (),
åĬł çĥŃ
æŃ¤ ç±»
å¢ ©
åŀ ĥ
18 ä¸ĸçºª
é² ·
å±Ĥ ä¸º
2019 åĨłçĬ¶çĹħæ¯Ĵ
S H
ä¸Ģ åįĬ
äºİ 189
ä¿ ŀ
çī¹ å®ļçļĦ
å¾· åĪ©
çĪ ¸
æıĲ æ¡Ī
åĪĻ è¢«
æ´Ľ ä¼Ĭ
ï¼ İ
å°ĳæķ° æ°ĳæĹı
bo ok
èĤĮ èĤī
æĸ°åĮĹ å¸Ĥ
L a
ç§° åħ¶
ç§° åı·
12 ä¸ª
ä¿¡ å¥ī
å¯Ĩ è¥¿
ç®Ģ åĮĸ
ãĥ ³
æ²ī ç§¯
åİĺ ç±³
æĩ ¿
éĴ» çŁ³
çļĦ éĩĳ
çŁ ¢
193 5å¹´
éħ¸ çĽĲ
åĩºçĶŁ åľ¨
åĲ¦ åĨ³
å¸ĥæĭī æł¼
åįĹæŀģ æĿ¡çº¦
éĢ¢ æĺŁæľŁ
åĮºè®®ä¼ļ éĢīä¸¾
çļĦ åĪĨ
éĥ¨ åī¯
é«ĺ éĵģ
èµ· çĤ¹
la r
al e
æ³½ è¥¿
åĪĳ éĥ¨
èĳ£äºĭ ä¼ļ
åıĤè°ĭ éķ¿
æĺİå°¼ èĭıè¾¾
å¤ļä¼¦ å¤ļ
çļĦ ä¼łç»Ł
å¤§ å°ĨåĨĽ
æĻ ·
åįİ åįĹ
è´Łè´£ äºº
ç»Łæ²» èĢħ
æĻ¶ ä½ĵ
è´· æ¬¾
Q u
çļĦ æ¸¸æĪı
å¤§ åİħ
åĴĮ ä¸Ń
å½ ¬
åħ¬ ç½²
æīĢ è¾ĸ
æľ¨ åĦ¿
è´¢ å¯Į
ä¸ºä¸» é¢ĺ
å¦Ī ç¥ĸ
ç« ĸ
ä¸Ĭ æł¡
ä¸ĸ ä»£
å¸ĥ åĪĹ
ãģ ®
åĲı éĥ¨
ä½Ľç½ĹéĩĮè¾¾ å·ŀ
l l
åľ ¾
å½ Ĺ
ä¸» ç¼ĸ
ä½ĵ çİ°
æĶ¯ çº¿
ç¬¬ä¸Ģ éĥ¨
èİ± åĿŀ
ç©¿ èĳĹ
ãĢīãĢģ ãĢĪ
åŀĥ åľ¾
æ¯ı æ¬¡
èĪ° èīĩ
ä¸Ńå¤® å§Ķåĳĺä¼ļ
ro m
åĨ² ç»³
ç£ ħ
åºĻ å®ĩ
im e
é¥Ń åºĹ
æĸ¯æ´Ľ ä¼Ĳåħĭ
çļĦ ä»£è¡¨
çļĦ å»ºçŃĳ
å¾· åħ°
10 8
éĺ¿ åĪĹ
æµģ äº¡
å¼º è¿«
ä¹Į æĭī
æŀģ éĻĲ
é¢Ħ æľŁ
èľ ¥
åı°åįĹ å¸Ĥ
å®° çĽ¸
åıĹå®³ èĢħ
ä¹¡éķĩ çº§è¡ĮæĶ¿
å¡ŀæĭľ çĸĨ
ä½ľ çļĦ
åħ³ ä¸ľ
éĺ¿ å¸ĥ
åĳ½ åĲįçļĦ
åħ« å¹´
æ³° å°Ķ
ä¾Ŀ æĹ§
éħĴ ç²¾
å§Ĳ å§Ĳ
çĭ® åŃĲ
åĤ¬ åĮĸ
D R
çļĦ åĨħ
ç¬¬ 9
é¢Ĩ è¡Ķ
å¤ª å®Ĺ
æĿĥ çĽĬ
ç¼ĸ åĪ¶
æ³¢ éŁ³
åįļ å°Ķ
å°Ħ åħ¥
æİ¥åıĹ äºĨ
å½ķéŁ³ å®¤
å¤©çĦ¶ æ°Ķ
çī© æµ¦
èµĽ ä¸Ń
æİĴ çĲĥ
éĤ£ ä¸ª
æ¶Ī éĻ¤
æĺ¥ åŃ£
æļ´ åĬ¨
æ·· åĩĿ
æ´ª æŃ¦
å¹³ è¡Į
æĺİ çļĦ
åĪĹ æĸ¯
åĲĦ çº§
196 7å¹´
ä¸»æķĻ åº§åłĤ
ç¨³ å®ļçļĦ
æķı æĦŁ
ç» °
åĽ´ æĶ»
èĩªçĶ± åħļ
as e
æľ Ķ
ä¸º ä¸ŃåĽ½
æ² ¦
çĻ½ ä¿Ħç½Ĺæĸ¯
æİ¨ çĲĨ
çŁŃ ç¯ĩ
èĮ¨ åŁº
çŀ Ħ
åº µ
æ° °
çĶµ å®¹
å¤Ħ éķ¿
å°± ä¸ļ
é²ģ æĸ¯
âĢĿ, âĢľ
åıĳè¡¨ äºĨ
éļĶ å¹´
åĩ»è´¥ äºĨ
2 ä¸ĩ
C A
çļĦ è½¨éģĵ
ç» £
ä¸Ģ åıª
äºº è®¤ä¸º
çº ±
å¤ļ æĸ¯
åįĹ ç«¯
åĪ© çī©æµ¦
ä½¿ åħ¶
æ¼ ³
ä¸ĸçķĮ çļĦ
èİ« å°Ķ
æ¿ ĳ
æ© ĺ
å¼ķèµ· äºĨ
æĿ¥æºĲ äºİ
åŁĶ å¯¨
å¤±åİ» äºĨ
èĦĤ é²¤
B M
åŃ ¢
åħ¬ å¹³
çĶµ æ¢¯
ä¸¤ å¤§
æĽ¾ æľī
å½¢æĪĲ äºĨ
æ²ī æ²¡
çºº ç»ĩ
å¤§ äºİ
æľī äºĨ
å¯ Ŀ
éĺ İ
è¿Ļ ä¸¤ä¸ª
æĸ° åŁİ
æľĢ å¥½çļĦ
çĥ ¦
è¿ŀ åĲĮ
åħĪ åıĳ
è¯» ä¹¦
éĺµ äº¡
éĽħ åĲĦ
åĵ² åŃ¦å®¶
æŁ¬ åŁĶå¯¨
S P
è¿Ļ ç±»
éĹ´ æİ¥
å¤© ç©º
åİ¿ çº§
åł ķ
é² ¨
çīĪ æĿĥ
è¶ħ äºº
æķħ éļľ
æļ´ éľ²
èįĥ æ¹¾
åįĹæŀģæĿ¡çº¦ ä½ĵç³»
çļĦ è¦ģæ±Ĥ
ä½į åĪĹ
è·¯ åĨĽ
å°¼ å¥¥
12 8
ç©º è°ĥ
åı¯ä»¥ çĶ¨
èĪª è¡Į
èĪ¹ åĳĺ
éĽĨä¸Ń åľ¨
ç¿°æŀĹ éĻ¢
ä¸Ģ èīĺ
åİ ķ
åĪĨ å¼Ģ
è¥¿ æ¯Ķ
å°ı å¹³
èĬ ¯
æ²» çĲĨ
èµ· é£ŀ
åĪĻ ä»¥
æĶ¿æ²» éĥ¨
æķħ æĦı
èĬ± è´¹
197 7å¹´
è¿ģ å¾Ļ
ç´§ å¯Ĩ
çļĦ å¯¹
æµ ı
ä¸į åıĬ
åĪĽ ä¸ĭ
åŃ¦éĻ¢ çļĦ
åģľ çķĻ
éĩİ æĪĺ
åĮħåĲ« äºĨ
æ··åĩĿ åľŁ
å® ¦
åįĹ æĺĮ
è¿Ľ åĨĽ
èĬ ½
æķ° çĽ®
åį³ æĹ¶
æľª æĿ¥çļĦ
æ¯ı å°ıæĹ¶
æŀģ å¤§
èĮĥ çķ´
åĪĽå§ĭ äºº
ç»´ èİ±
åĽŀ å¤į
or n
ä¸ĵ æ¡Ī
æľª ç»ı
16 8
at t
ç´¢ å°¼
ä½ľåĵģ çļĦ
ä¼ļ å¯¼èĩ´
å¾· çĶ²
è½¦ æīĭ
èĢħ åľ¨
æº ´
ç©º éĻį
åĩ» èĲ½
ä¼ĺ æĥł
äºĭä»¶ çļĦ
1 ä¸ĩ
é¢ ħ
å¸Ĥ åĨħ
é©¬ å¾·éĩĮ
ç«Ļ åľ¨
ç»Ħ çļĦ
ç¤º èĮĥ
èĻ ŀ
é»Ħ æ²³
éªĮ è¯ģ
èī¯ å¥½çļĦ
èĤ¡ ç¥¨
Ð ¾
å® µ
åĽ½ å¤ĸ
åĲį åı¤å±ĭ
æľ¬ æĿ¥
æ¼Ķ ä¹ł
197 4å¹´
le y
è¯¸ å¦Ĥ
ä¸§ å¤±
è¾© è®º
èħĲ è´¥
2019åĨłçĬ¶çĹħæ¯Ĵ çĹħ
çļĦ åĨĽäºĭ
ä½ ¥
åŃ ľ
åī Į
ä¸İ å¤§
ä»£ æķ°
è¿Ĳ éĢģ
åİŁ æĿ¥çļĦ
æĶ¯ éĺŁ
çļĦä¸Ģ å®¶
æŃ¦ æľ¯
çĪ± æ²Ļ
èĢģ æĿ¿
ä½ł ä»¬
æģĭ çĪ±
æŃĩ å°Ķ
ä»£çłģ ä¸º
åº¦ è¿ĩ
ç«ĭ åĪ»
åĪĽ æĦı
ç¦ı åĨĪ
æ°¸ ä¹Ĳ
ç»į åħ´
æłª å¼ı
çĪ±æ²Ļ å°¼äºļ
D O
ç¾ Į
å·´ éĩĮ
åī§ åĽ¢
17 ä¸ĸçºª
å¹¸ ç¦ı
å§ĶåĨħçĳŀ æĭī
æłªå¼ı ä¼ļç¤¾
çļĦ çİ¯å¢ĥ
æµ ĳ
æľĢ å°ı
ä¸ľ æĹ¥æľ¬
è° ľ
10 6
åı² æĸĻ
çº³ è¥¿
åĻ ª
åĽŃ åĮº
è¾ĥ å°ı
éĩĬ åĩº
éĢĤ å½ĵ
åĪĽä½ľ çļĦ
ç»ĺ åĪ¶
C E
ä¸Ĭ ä»»
åī ĸ
éļ Ļ
èĤ Ĩ
ç¼ ł
æŃ£ å¾·
éĶ ¯
åıį åĩ»
æĹı èĩªæ²»åĮº
åĽ½å®¶ çº§
åĮĹäº¬ å¤§åŃ¦
193 1å¹´
æ¿Ģ è¿Ľ
ä¸ĺ éĻµ
æĢ»éĥ¨ ä½įäºİ
æħķ å®¹
å°¤åħ¶ æĺ¯
éĩįåºĨ å¸Ĥ
ä¸Ģ å¯¹
201 0
æĪĸ åħ¶ä»ĸ
å¿ĥ çļĦ
åĮħæĭ¬ ä»¥ä¸ĭ
æŃ¥ è¡Į
197 1å¹´
ä»ĭ åħ¥
èĨ ¨
åħĭéĩĮ æĸ¯èĴĤ
ä¼´ ä¾£
å¤§å¥ĸ èµĽ
å¸ĸ æľ¨åĦ¿
åľ¨ åĨħ
æ² §
ç¬¬ 12
å¾Ĺ åĲį
èµ· äºĨ
ç¡ Ŀ
å®¢ ä¸²
æİĴ æĶ¾
å¹² çĩ¥
197 0å¹´ä»£
M et
O pen
åĽ½ åľŁ
åĩ ¹
æĸ¹ éĴĪ
çĶ¨ ä»¥
10 4
å§ĭ äºİ
ä¿Ŀ èĤ²
æ· ¹
ä¸ĵ åĳĺ
è¾ĥ é«ĺ
å®¢ è½¦
ä»ħ æ¬¡äºİ
åĵĪå°Ķæ»¨ å¸Ĥ
S m
éĿ¢ ä¸Ĭ
è¯¥ åī§
æĭī å¾·
å¦ ĵ
å¤į ä»ĩ
æ¥ ł
åĳĬ ç¤º
éĵ¶ æ²³
æĦıè¯Ĩ å½¢æĢģ
çļĦ æ¶Īæģ¯
ç» Ĵ
åº Ĳ
ä¹ĭ ä¹±
è¯¥ åľ°åĮº
äºĮ çĶ²
ç¨ ļ
è¯Ń ä¸Ń
æĽ¾ ä¸İ
å¯¿ åĳ½
çĶĺèĤĥ çľģ
M ac
çĶ± åħ¶
åĮĹ éŃı
åİ¿ éķ¿
æīĭ ä¸Ń
éĴ ¥
å®Į åĸĦ
çĽĳ è§Ĩ
çĴ ĭ
åįģä¸Ģ æľĪ
åħ¬ åĪĨ
èµĽ é©¬
å¥ĸ çīĮ
éĻĲ å®ļ
ä¹ħ çļĦ
åįĹéĥ¨ çļĦ
èĨ Ģ
æĹ¥ è®°
éĿ¢ åĮħ
åħĥ é¦ĸ
çīĩ ä¸Ń
çļĦä¸Ģ ä½į
éĥ¨åĪĨ çļĦ
è¿½ åĩ»
é¡¹çĽ® çļĦ
çī©çĲĨ åŃ¦å®¶
è·ĳ éģĵ
åĵĪå°Ķ ç§ĳå¤«
èĲ¨åħĭ æ£®
e v
s k
åħĭ æĭīåħĭ
ãĢĮ ãĢį
ç±³ çī¹
æ· «
è§ģ è¯ģ
èĪ° åıª
åıĳè¡Į äºĨ
è´Ń åħ¥
åĢŁ æŃ¤
çıį çıł
P r
åľ¨ æ¬§æ´²
ä¸º æĹ¥æľ¬
æľī åĪ©
æĮ Ŀ
äºĭ è¿¹
ä¹Ł å°±æĺ¯
è½¦ åŀĭ
æ¬¡ çļĦ
çĽ¸ å¯¹äºİ
èģĮ äººåĳĺ
åĽ¾ æĽ¼
ic o
èģĺ è¯·
æ®ĭçĸ¾ äºº
3 50
ä¸Ģ å¼ł
åĪĨ æķ£
ç¬¬ 13
æĻ °
å¦ Ĩ
åħŃ ä¸ĸ
èĵ ī
æİ¨åĩº äºĨ
é¢ĨåŁŁ çļĦ
èı© èĲ¨
i i
å¼ §
åĴĮ æĸ°
ä¸Ĭ ç©º
è¿Ļ é¦ĸæŃĮ
åħ¨ åı°
æĹł åħ³
åİĨ ç»ı
11 5
æĴŃ æĺł
å¥ĸ ç«ł
èĪª çº¿
ä¸¾è¡Į äºĨ
çĥĪ å£«
21 ä¸ĸçºª
å®ĩ æĸĩ
æĪ´ ç»´æĸ¯
èĦĬ æ¤İ
æµ ´
ä¸į åľ¨
ç© Ĺ
ä¸Ģä¸ª æľĪ
æĢ» åħ±
åŀ «
æĻ® å°Ķ
åıĪ åľ¨
åĮĹéĥ¨ çļĦ
èĢ³ æĽ¼
åĬŀåħ¬ åİħ
äºİ18 7
å®ĥä»¬ çļĦ
æĸ°åĨłèĤºçĤİ ç¡®è¯ĬçĹħä¾ĭ
æ¸ħçľŁ å¯º
3 åĲį
ä¸º ä»ĸ
çī¹ æĢ§
10 ä¸ĩ
åĪĹ é¢ł
æµģ éĢļ
æ´» æĢ§
æ¨ Ł
èĶ ½
ç¼© çŁŃ
å¨ģå°Ķ å£«
ä¹ ĵ
åľ° åĬ¿
åĲį åĪĹ
åĪĨ æŃ§
âĢĿ ;
æľº ç»Ħ
10 9
ç¬¬ä¸Ģ è½®
åį¢ æ£®åł¡
æİ¨åĩº çļĦ
å®īå¾· çĥĪ
æº¶ æ¶²
åı°ä¸Ń å¸Ĥ
. (
D P
æĹ¶ å°ļ
ä¸Ĭ èİ·å¾Ĺ
ä¸İ ç¾İåĽ½
çĵ¦ æĭī
åį° åľ°
åĳĬ çŁ¥
éĻį èĲ½
re t
æĳ© æł¹
æłĳ æľ¨
æ©¡ èĥ¶
? âĢĿ
R o
äºº æīĢ
å» ¿
è¿Ļ éĥ¨
ç§ĳ åĮ»çĶŁ
å¥¥ å¤ļ
åĳ½ è¿Ĳ
çĳ °
è´¹ åŁİ
å§Ķåĳĺä¼ļ å§Ķåĳĺ
å¤ªéĺ³ åħ¬
çĹĽ èĭ¦
âĪ Ĵ
äºº éĥ½
è¥¿ èĴĻ
å¤© æ¡¥
ç¤¾ åĽ¢
å°ĳ éĩı
åĻ¨ å®ĺ
æİ¨ è¿Ł
å© ·
ro w
å½¢å¼ı çļĦ
è½¨éģĵ äº¤éĢļ
å¹¼ åĦ¿
éģµ å¾ª
æŃ¤ äºĭ
éĩĳ æĽ²
åħļ ç±į
æĬ¥ å¤į
çķĻ åŃ¦
éŁ³ä¹Ĳ å½ķå½±å¸¦
è¯Ĩ åŃĹ
il d
çģ¾ å®³
éļĲ èĹı
å°Ĩ äºİ
å¯¼ å¸Ī
åį¡ çī¹
è´¨ çļĦ
16 5
è®¯ åı·
éĢĥ äº¡
ä¿Ĺ ç§°
æĹ¥æ²» æĹ¶æľŁ
é¢Ĩäºĭ é¦Ĩ
ä¸Ģ å¤Ħ
19 18å¹´
åĮĹ æŀģ
åħ¥ çĲĥ
äº¤ å¾Ģ
è¿ĳ ä¼¼
195 7å¹´
195 9å¹´
åį¸ ä»»
è¿Ļé¢Ĺ å°ıè¡ĮæĺŁ
y le
ä¸Ģ åįĥ
æĹ¶ ç©º
æĸ° åŀĭ
æŀĹ èĤ¯
æĽ¾ äºİ
ä¹¦ åºĹ
åķ ¤
èĢģ æĮĿ
äºĨä¸Ģ ç³»åĪĹ
192 8å¹´
æµĵ åº¦
æ²³éģĵ åħ¨éķ¿
è®½ åĪº
A pp
æĭ ¾
ä¸į éľĢè¦ģ
åı¯ çĶ¨
åĽł åŃĲ
201 8
èĢħ åĴĮ
åİĨ ä»£
åĽ¢ éķ¿
å¤§åŃ¦ çĶŁ
åł¡ åŀĴ
193 3å¹´
åºŁ å¼ĥ
è¿Ħ ä»Ĭ
B E
y st
æĪĺ èĪ°
å·¥ éĥ¨
13 8
ä¸ľéĥ¨ æĹ¶åĮº
çģŃ äº¡
AT P
N G
ä¸» äºº
èī ³
å¾· åĭĴ
æĸĩ éĿ©
äºĮ æ°§åĮĸ
åĽĽ äºº
çª Ł
çīĽ æĸ¯
æ¨ª æ»¨
æĩ Ĥ
çļĦ ä¿¡
æµ· åºķ
æ¡ ¨
æĹł éĶ¡
äºĶ ä¸ĸ
åıĪ è¯ĳ
æĺł å°Ħ
ä»¥ 1
åħ¬ æĬķ
æĶ¶ å¤į
16 4
æĤ Ķ
çĨŁ æĤī
éĦĤ åĽ¾æĽ¼
æĭĺ çķĻ
å¤« çī¹
ä¼¦ çĲĨ
åĺ Ľ
æ¨ª è·¨
å¯ ħ
çİ «
çĶŁ åīį
æĢ» ç»ĵ
ç² ĺ
193 0å¹´
äºİ200 4å¹´
éģµ å®Ī
ä¸°å¯Į çļĦ
çļĦ çĽ®æłĩ
åĲİ ä»£
âĢĿ )
äºĮ åı·
ç½Ĺ éĹ¨
å°± åı¯ä»¥
èĲ½ å®ŀ
çĿ¡ çľł
å¹ ¢
ä¸ª åĪ«
æıĲ åĢ¡
00 å¹´
åį¡ æĸ¯èĴĤ
æłĩ ç¤º
çĻ½ äºº
çľŁ çļĦ
ä¼ģ åĪĴ
In st
ä»ĵ åºĵ
çº³ç²¹ å¾·åĽ½
u k
à ¤
åľ¨ ä»ĸçļĦ
æĬ ¬
æĽ Ŀ
ä¸» åĶ±
çŃ Ľ
éĿ¢ 2
æł¼ èİ±
åĢ ª
æĺŁ éĻħ
çľĭ èµ·æĿ¥
å®Ī å¤ĩ
ä¹Ĵ ä¹ĵ
3 0å¹´
ä¸į åı¯èĥ½
å°± å·²ç»ı
è¿ĺ åİŁ
è§Ĵ éĢĲ
åįĩ éĻį
çº¢ åįģåŃĹ
å½±åĵį åĬĽ
è¯Ńè¨Ģ çļĦ
èĮ¨ åħĭ
æĮĩæĮ¥ éĥ¨
åĽ´ç»ķ å¤ªéĺ³åħ¬
ä¸Ģ è·¯
æķ° çłģ
ç§ĳ ç½Ĺ
åħĥ æľĹ
éª Ĥ
æļ ĳ
ç»Ļ ä»ĸ
ç»Ļ äºĭ
åį« åĨķ
çĻ» å½ķ
éģĹ ä½ĵ
é©» å®Ī
æĹĭ å¾ĭ
è¡£ æľį
é«ĺçŃī æķĻèĤ²
æĢ»çĿ£ åºľ
åĽ´ç»ķå¤ªéĺ³åħ¬ è½¬çļĦå°ıè¡ĮæĺŁ
F ace
e ar
è° ı
å·´ çī¹
åıĪ è¢«
ar a
åįļ è§Ī
193 2å¹´
å·® åĪ«
æ¯ĶåĪ© çīĽæĸ¯
éĹ½ åįĹ
åĽ½æ°ĳéĿ©åĳ½ åĨĽ
çļĦç»Ŀå¯¹ æĺŁçŃīä¸º
çļĦ çĥŃ
æĿ ı
æķ ·
æĹ¥ åľ¨
åıĬ åĪ©äºļ
èŃ¦ åĬ¡
åĨĻ æĪĲ
æ°¸ åº·
çŁŃ æľŁ
æ¯ģ çģŃ
ä¸Ģ å¼Ģå§ĭ
ä¸Ń ç«ĭ
äºº æĺ¯
æ°ĳ çĶ¨
åħ¨ æķ°
16 6
13 5
æ¶Ī èĢĹ
M an
i el
t a
ä¸Ń æ¯Ĵ
æľī æĦı
è¥¿ åħĥ
æĻ ¤
çİĭ çļĦ
12 6
èģĮ èĥ½
çŁ³ å¤´
æĬ¤ åį«
æľĢåĲİ ä¸Ģä¸ª
è®¾ç«ĭ çļĦ
äºİ18 6
è¿Ļé¢Ĺå°ıè¡ĮæĺŁ çļĦç»Ŀå¯¹æĺŁçŃīä¸º
2 åı·çº¿
èĢĮ ä¸Ķ
è¢« åĪĹåħ¥
å¯¹ è¯¥
æĸĩ å¸Ŀ
è¦ģ å¡ŀ
å·´ å¡ŀ
åĪ« å¢ħ
å±Ģ å±Ģéķ¿
åķĨ æłĩ
æ¸ħ æĻ°
çľŁ çĽ¸
æ³¨ å°Ħ
196 0å¹´ä»£
æ¯Ĵ åĵģ
æļĹ æĿĢ
çĥ§ æ¯ģ
éĽķ åĪ»
w h
çļĦ å®ĺæĸ¹
åľ¨ åīį
ä¸Ń ä¸ľ
èģĶ éĺŁ
çĥ ¹
å¤« åĭĴ
å¾Ģ æĿ¥
en g
é³ ĥ
å¥ī åĳ½
è¿Ī åħĭ
åĳ¨æģ© æĿ¥
ç» İ
åĴĮ ä¸Ģä¸ª
ä»¥ æĿ¥çļĦ
èĪ ħ
çĶµ ç£ģ
è·¯ ä¸İ
å¸ĥ ç½Ĺ
é©¬ åľº
æĻ® éĩĮ
å¯Ĩ çłģ
äºī è®º
åĲī äºļ
ç¢ ĺ
åĲ« ä¹ī
ç¿» æĸ°
æľī ä¸ī
èĢħ ä¸º
è¿Ĳ è½½
æİ¥ ä¸ĭæĿ¥çļĦ
éĺ¿ å¯Ĩ
äº¤ æĪĺ
ç½ĳ é¡µ
å»¶ è¿Ł
æĵ Ĵ
æĻĭ åįĩä¸º
ä»ª åĻ¨
å£ģ çĶ»
ä¼ļ å°Ĩ
åįİ ä¾¨
æ® ī
å®ŀ ä¸ļ
å¼Ģå§ĭ äºĨ
éĺ³ åħī
æĹ¶éĹ´ åĨħ
ç§» äº¤
196 5å¹´
èįī æ¡Ī
ç«ĭæ³ķ å§Ķåĳĺ
1 18
p l
ä¸Ģ åĳ¨
åĲİ è£Ķ
ä¸İ ä¸ŃåĽ½
è¥¿ ä¼¯åĪ©äºļ
å·² æĪĲä¸º
çīĩ çļĦ
æĶ¾ æĺł
15 8
æ±ī æĹı
å© ī
è®¡åĪĴ çļĦ
195 1å¹´
çİ°ä»£ åĮĸ
é£İæł¼ çļĦ
å¸Ĩ èĪ¹
e c
åĨ ¶
æľī ä¸ĢäºĽ
æĮ «
åħ¥ çĭ±
æ°´ åĩĨ
12 9
èº« é«ĺ
å±ħ äºİ
äºĮåįģ ä¸ĸçºª
ç¼º éĻ·
å¢ĵ èĳ¬
åĪļ æŀľ
å·© åĽº
3 ä¸ĩ
åĮ £
åĽ½ ç±į
å¤§ åŁĶ
ä»ĸ å¯¹
åĮĹ ç¾İæ´²
çº¿ æĺ¯
ç¼ ª
åĢ Ń
16 ä¸ĸçºª
ä¸įåĲĮ äºİ
çľŁ èıĮ
éĢīä¸¾ ä¸Ń
æī© æķ£
æ¾İ æ¹ĸ
æĸ¯å¤§ æŀĹ
ä¸Ģ ç¾¤
è¡ ·
åĵ ĩ
æĸ° çĶŁ
å£ ¶
é©¬ è¾¾
éĢļ æĬ¥
åħļ åĨħ
å¼ł åįķæĽ²
ç¥ŀ çļĦ
æ¸ħ å»·
èµ° å»Ĭ
æľ« ç«¯
è¯¸ èĳĽ
æĤ£ æľī
åĴ¸ ä¸°
æĢ»é¢Ŀ ä¸º
ä¸Ģ è¾Ĩ
åĽ½ åħ¬
æĺ¯ ä¸º
ä¸į ä¸Ģ
å¼Ģ æĻ®
æĪĺ è´¥
æ°´ çļĦ
å·´ æĭ¿
éĩĩ çº³
ç¤¾ä¼ļ çļĦ
å´ Ľ
196 9å¹´
æģ¶ åĬ£
èĢĥèĻĳ åĪ°
æĹħå®¢ éĵģéģĵ
I F
è ł
å¤§ åŃĹ
å¸ĥ å±Ģ
é¦ĸ å±Ĭ
å¤§åŃ¦ æķĻæİĪ
éĻĨ æĪĺéĺŁ
15 5
en n
æīĺ å°Ķ
ä»į æĺ¯
äºİ200 0å¹´
èŀį åħ¥
æ³ī å·ŀ
çĽ¸è¾ĥ äºİ
åħ ĳ
ä¸į åĪ©
ç½ ¹
æĸ¹ å½¢
åı¯ çĶ±
åĪ© çī¹
åĵĪ ä½Ľ
è¿ľ ç¦»
æľįåĬ¡ çļĦ
åħ³ç³» çļĦ
èĤ¯ å¡ĶåŁº
éĺ¿åŁº åĿ¦
) (
e x
ç« Ń
éķ¿ å¤§
å¥³ æŃĮæīĭ
è¿ĺ è¦ģ
åħŃ åįģ
å¥½ èİ±åĿŀ
æ·± åıĹ
çĥŃå¸¦ ä½İæ°Ķåİĭ
O ne
çļ ĸ
å¸ĥ ç½®
å®ŀ ä¹ł
195 3å¹´
å²Ń åįĹ
çºµ éĺŁ
Com p
åĽ½ ä¼ļè®®åĳĺ
å¼Ģ è¾Ł
é« ĵ
æĢ§ è¡Įä¸º
åŁİ åĨħ
å°¼ åŁº
æµģ æĶ¾
èµĦ æ·±
ç¥ŀ åºĻ
ä¹Į å°Ķ
ç¢ Ĺ
åŁĥ å¡ŀ
13 7
ç¥ĸ ç±į
çĽĳ åĪ¶
re e
åģ¶ å°Ķ
æĶ¶è§Ĩ çİĩ
ä¸ĵæ³¨ äºİ
éĥ¨ åĴĮ
éķ °
è¿Ľ çĲĥ
çł Į
ä»İ æŃ¤
ä¼Ĭ ä¸½
éĵģè·¯ å±Ģ
éĵģè·¯ åħ¬åı¸
è§Ĵèī² çļĦ
ä¼łæķĻ å£«
å¡Ķå°¼ å¤§åĮº
O R
ä¸Ģ çĶŁ
æĹ¥ èĢ³æĽ¼
åıĳ çļĦ
æľ¬ æ¬¡
æľĢ åħ·
åīį å¤ķ
çĽ¸ è¿ĳ
èĭ± å±ŀ
åºĶ çĶ¨äºİ
ä¼ł æī¿
è¾ĥ é«ĺçļĦ
å¤± ä¸ļ
æ¦ Ĩ
ç§» éĻ¤
éĵģè·¯ è½¦ç«Ļ
ç¤¼ æĭľ
èĶ ĵ
åīĬ å¼±
æĭ¨ æ¬¾
æł¸éħ¸ æ£Ģæµĭ
B 48
çļĦ éĩį
çļĦ ä¸¤ä¸ª
çļĦ æķ°éĩı
ä¸Ģ è§Ĵ
èĢĮ ä¸įæĺ¯
çĦ ķ
å¤Ħ ç½ļ
al d
æģ© æĸ¯
13 9
å¯¼èĩ´ äºĨ
om e
éģĩ éļ¾
æįŁ åĿı
éĤĵ å°ıå¹³
æ²¼ æ³½
çļĦ ä½¿çĶ¨
å· ¾
å¯ Ĥ
çĶ± ç¾İåĽ½
æµ· æ¹¾
ä¹Ł æĪĲä¸º
ç¥ ĩ
åĪ¶ åĵģ
å¥¹ ä¸İ
èĪª æµ·
éĽĨåĽ¢ æľīéĻĲåħ¬åı¸
æĲ¬ åĪ°
è¯ºæĽ¼ åºķ
äºº äºĭ
åŃ¦ åĳĺ
åħ¶ é¡¿
æ°ĳ åħµ
ä¸ī éĥ¨
201 6
éĤ ¢
è£ ¤
å»¶ å®ī
æİ§åĪ¶ çļĦ
ç¡¬ æ£ĺ
è¿Ī éĺ¿å¯Ĩ
è´© åįĸ
å¥ł å®ļ
æĸĩ çļĦ
é«ĺ åľ°
å½ĵ åīį
æľŁ å¾ĴåĪĳ
æĦ ļ
å¤« çļĦ
æ¢ ĵ
åĩ» æ²ī
æľª è¢«
æŃ» èĢħ
æ¥¼ æ¢¯
æī§ æķĻ
çº½ è¥¿åħ°
æĿ¿ åĿĹ
ä¸Ńéĥ¨ æĹ¶åĮº
1 æĹ¥
äº ı
æĸ¯ å¨ģ
ä¸İ æĹ¥æľ¬
åı¯ åĪĨä¸º
å¾Ĺ åĩº
æĶ¹ çĶ±
è¿ĺ ä¼ļ
åį³ ä¸º
å¼Ł åŃĲ
äºĮåįģ ä¸Ģ
åĮ ¾
åĴĮ 1
åĲĪ èĤ¥
ç¡ Ĵ
an ce
on t
çļĩå®¶ æµ·åĨĽ
ä¾¦ æİ¢
çļĦ å®¶
è¿ Ń
äºİ 2025å¹´
ä¸į åĪĹé¢ł
ä¸ľ æ±ī
éŁ ¶
æİ¥ å¾ħ
æĹł æķĪ
åħļ æ´¾
çĽ´ éĢļ
çĥ ¤
å¸¦ åĪ°
çłĶç©¶ äººåĳĺ
åģļ äºĨ
195 0å¹´ä»£
å®½ åº¦
çĤ® åħµ
å« Ķ
äºİ é¦Ļæ¸¯
å¤§ éĥ¨ä»½
å·ŀ åĴĮ
é¦ĸ éĥ¨
æĿ¡ çº¹
å¿« ä¹Ĳ
çī¹åĪ« è¡ĮæĶ¿åĮº
åıįå¯¹ æ´¾
ä¸Ńåįİæ°ĳåĽ½ æĶ¿åºľ
ä½į åľ¨
è¿ĩ å¾Ģ
æķĻ å¯¼
èĮ ¹
åģļ çļĦ
èĸ ¯
ul t
è´µå·ŀ çľģ
w ith
åı ¹
ä¸Ń ä¹Ł
å» ĵ
å°Ĩ è¯¥
æľį é¥°
åŁĥ å¾·
æī¹ å¤į
å¸ķ æĭī
çŃ¾ ä¸ĭ
è¿ģ åħ¥
åī© ä¸ĭ
çĸ¯ çĭĤ
éĺ¿å°Ķå·´ å°¼äºļ
å½ Ŀ
ä¸İ ä»ĸ
ä½į å±ħ
é©¬ åĪ©
ç¼ ī
å°¼ å°Ķ
åŃĹ ç¬¦
æ¨¡ ç³Ĭ
å»ºç«ĭ çļĦ
åį¡æĸ¯èĴĤ åĪ©äºļ
I s
T H
çļĦ åħī
è¥¿ å¾·
é«ĺ ä¸½
å®ŀ è´¨
èĭı åĨĽ
åħµ éĥ¨
äºİ200 3å¹´
è¿« å®³
éĨ Ľ
æĭ³ åĩ»
ç½¢ åħį
æ¶Īè´¹ èĢħ
3 60
B r
a de
å¼ ¼
ä¸İ åīį
åıĬ æĹ¶
åĮĹ æ´ĭ
åĲĪ éĢĤ
æ¬¡ åŃĲ
åıį å¤į
é£İ éĢŁ
åºĦ åĽŃ
çıł æµ·
å¼ķåıĳ äºĨ
å¯Ħ çĶŁ
åģľè½¦ åľº
å¢ĥå¤ĸ è¾ĵåħ¥
çŀĦ åĩĨ
9 0å¹´ä»£
o od
åĨ ¥
æĹ¶ éĢŁ
ä½¿ èĢħ
è¾¾ åĪ°äºĨ
åįİ çº³
æĶ¹ ä»»
åĲĦ çķĮ
æ¸ħ åĨĽ
çļĩ å®¤
å®ģ å¤ı
å·¡ èĪª
192 4å¹´
ä¿Ŀå®Ī åħļ
æŁ´æ²¹ æľºè½¦
ç»ĳ æŀ¶
éĽ ģ
è¿Ľ é©»
å¤ĸ ç±į
çĽ¸ ä¼ł
éĻ¢ å£«
æ£ ł
åī§ ç»Ħ
æ¯ı ä¸Ģä¸ª
æīĵ åħ¥
å¼Ĺ åĲī
åĩı è½»
å¿ĥçĲĨ åŃ¦
! âĢĿ
. ãĢĮ
åĴĮ å°ı
æľĪ åĪĬ
ç¬¬ 15
è¿Ľ ç¨ĭ
è¡¨ å½°
æİ¥ é©³
ä¿Ŀ åģ¥
å¹¿ å²Ľ
åıĮ åĲĳ
æ³° åĽł
è®¡åĪĴ åľ¨
ä¾µ èļĢ
äºİ18 5
æ¸Ķ ä¸ļ
Lo ve
åħ¬ æŃ£
æ¸ ´
è¢« åĪ¤
éĩĮ å¥ĩ
å¸ĥ æĸ¯
10 1
or g
åĮħæĭ¬ äºĨ
è± ļ
è¾ĥ å°ıçļĦ
çĽŁ åıĭ
çĶŁæ´» çļĦ
æ®¿ è¯ķ
å®¶æĹı çļĦ
åĽ½ç«ĭ åı°æ¹¾
oun d
çľģéģĵ åı°
E X
çļĦ å¥³æĢ§
éĩĮ å¥¥
åĮĹ ä¼Ĳ
201 7
éĶ £
æĺŁ äºĳ
ä¼ł è®°
æ» ĩ
åĵĪ é©¬
ä¼¦ æĸ¯
éĺ² æĬ¤
çļ® å°Ķ
è¤Ĳ èī²
æĥ© ç½ļ
å½Ĺ æĺŁ
M C
o o
çļĦ æĹł
åĽ½ å°ı
åĮĹ åį¡ç½Ĺ
æľĢ æĸ°
çī© ä¸ļ
åŁº å°Ķ
éĽĨ ä¼ļ
åĽ½å®¶ åĴĮ
åĪĽ ä¸ļ
åĽ½éĻħ èµĽ
éĿĴ éĵľ
196 1å¹´
re f
è®² è¯Ŀ
åĲĽå£«åĿ¦ ä¸ģåł¡
I L
W orld
y l
æķ ķ
èĥ ļ
åħĭ ä¼¦
äºļ çĥŃå¸¦
èĪ ¶
å½¢ åĬ¿
åĪĿ å§ĭ
æĬķ å½±
ä¼ļè®® ä¸Ĭ
æĻļ å¹´
ä¼ĳ éĹ²
åĲĮ ä¸º
å°ı é¡¹
ç«Ļ åĨħ
çĬ ģ
é¥ ¿
èĲ½ åĲİ
åĬ¨è½¦ ç»Ħ
åŃ£åĲİ èµĽ
w ard
çļĦ åįķ
çļĦ å¤´
äºº åĿĩ
èµ İ
è¡Į ä½¿
åıĳ éĢģ
æľĢ èĳĹåĲįçļĦ
æł¼ æĸ¯
æİ¥ åĬĽ
çİ¯ èĬĤ
åı³ ä¾§
ç»Ŀ å¤§å¤ļæķ°
193 4å¹´
èľ ¡
å¤ĦçĲĨ åĻ¨
æĻ®ç½Ĺ æĹº
ä¸Ń éĺŁ
äºº å¯¹
æĺ¯ ä½įäºİ
æĪĺ ä¸Ń
åı£ å²¸
éĺ¿ å¡ŀæĭľçĸĨ
11 4
ä¸ĥ ä¸ª
æĺ¾ å¾Ĺ
è¿½ éļı
æĤ¬ æĮĤ
åĸĩ åĺĽ
çİ« çĳ°
çļĦ æ¯įäº²
ä¸Ģ æ¬¾
èµ ļ
ä¼ļ ä»¥
åĲĮ æĹ¥
å±± åĿ¡
æĻ® æ£®
la ss
éħį è§Ĵ
æĢĿ èĢĥ
åºŁ æŃ¢
r ist
ä¸º ä¸Ģä¸ª
ä¸Ģ çŃī
æľ¬ åī§
å¾· è¯Ń
é¦Ļæ¸¯ æĶ¿åºľ
å®£ èªĵ
æĸ½ è¡Į
åįł æ¯Ķ
è½¨ çĶµè½¦
çĻĮ çĹĩ
çļĦ æĬĢæľ¯
éģĵ æķĻ
äºĮ çĻ¾
åİŁ æĸĻ
å¸¸ çĶ¨
åĽŀ æĶ¶
æĪĲä¸º ä¸Ģä¸ª
å¸¦ çĿĢ
é¾Ļ ç±»
åħī æĺİ
å·¦ ä¾§
éĺµ çº¿
èĤ¯ å°¼
æĢĢ åŃķ
çģĮ æľ¨
æ±ŁæĪ· æĹ¶ä»£
b ack
t r
Ä ģ
çļĦ åĲįç§°
åĮ Ģ
19 12å¹´
è¿Ľ ä¿®
æĪĺ æĹ¶
ç¨ ½
éĩĳ åĥı
å¸Ī åĽ¢
çļĦä¸Ģ åĲį
æŃĮ åī§
æİĴ åºı
ç¤¼ éĥ¨
æ³½ è¿ŀ
åĢ¾ æĸľ
èĤĸ åĥı
åįłåľ° éĿ¢ç§¯
åºĩ æĬ¤
æ°ĳ èĪª
éķ¿ èĢģ
å¼Ģ éĻ¤
ç«ĭ å¤§åŃ¦
éĵ Ģ
æ· ĭ
an k
åĽ¾ å°Ķ
çłĶç©¶ çļĦ
è¶³ æĢ»
è¿½ è¸ª
æłĳ æŀĹ
ç½Ĺé©¬ å¤©ä¸»æķĻ
æ¨¡å¼ı äº§
åŀĴ æīĵ
åĳĬç¤º çīĮ
ä» Ĺ
ä¼ļ è®¡
åĩº èµĦ
å¤ļ ä½į
å®ī åİ¿
ä¸¤ é¡¹
è£ Ļ
ä¼ł åħ¥
11 3
è¾¹ å½¢
çĻ¾ è´§
åıĳå¸ĥ çļĦ
æ¿Ģ ç´ł
äº« åıĹ
çŀ ¬
éī´ äºİ
éĻ¨ åĿĳ
be gin
çĽĨ åľ°
åī¥ å¤º
çļĦ éĢŁåº¦
è¯ ł
åĲİ åĭ¤
ç¾ Ł
çī¹ åĴĮ
æ°´ éĿ¢
å°¼ çļĦ
æ¬§ éĺ³
14 8
ç¥¨ ä»·
åı¦ä¸Ģ ä½į
ig h
ä¹Ķæ²» äºļ
è¿ĳå¹´ æĿ¥
ä¼ĬåĪ©è¯ºä¼Ĭ å·ŀ
åĲ ¡
ä¸Ģ åħ±
ä¸Ĭ éĿ¢
ä¹ĭ çĪ¶
æı ½
åĪ¶ æľį
éĩĳ é¢Ŀ
çİĭ åĽ½çļĦ
åĮħ è£ħ
æīĭ çļĦ
é¦Ļæ¸¯ çĶµå½±
æĬ¤ å£«
è¾¹ çĸĨ
17 3
åį°åº¦ æ´ĭ
çº¦ç¿° éĢĬ
æ³ķåħ°è¥¿ å¤§åĮº
å´© æºĥ
âĶĢ âĶĢ
äºĨ åľ¨
ä¹Ł å°Ĩ
åı£ åı·
åħ¨ å¹´
æ¯Ķ å°Ķ
å¸¸ è¢«
å¤ª ç¥ĸ
15 6
è¯Ħ éĢī
éĻį çº§
ç´¢ å§Ĩ
196 2å¹´
åĬ¨çī© çļĦ
çĶŁçī© åŃ¦
é¢Ĺ ç²Ĵ
æ³ķåħ°åħĭ ç¦ı
çĭ© çĮİ
G P
äºİ ç¾İåĽ½
åĴĮ ä¸ŃåĽ½
æĹ¶ 30
ä¸Ĭ å±Ĥ
ç¬ Ľ
æľ¬ åĲį
éĥ½ èĥ½
è£ ¹
ç¿ ¡
æĭħ å¿§
å¸Į çī¹åĭĴ
èĢģ èĻİ
ä¸ĢçĽ´ åľ¨
D C
E d
O n
S N
åĴ Ģ
åħ¬ æ¼Ķ
å·¥ èµĦ
æķ° åŃ¦å®¶
æ²³ åĨħ
åıĺ éĩı
ç¼ĸ æĽ²
åħĪ éĶĭ
å¼ķ åĬĽ
as h
ros oft
ä¼Ĭä¸½ èİİçĻ½
U R
èĩ Ń
åĪĨ åī²
ä¹Ł ç§°
æķĻ ä¹ī
ç»´ æĭī
æ¯ı ä¸Ģ
å¢ŀ èĩ³
å®¾ å¤ķ
å®ª åħµ
åĵĪèĲ¨åħĭ æĸ¯åĿ¦
4 æľĪ1æĹ¥
çļĦ åŁºæľ¬
ä¸Ń æīĢ
åĴĮ é«ĺ
åĳ ¢
å¼Ģ è¡Į
å°ı äºİ
æĢ» ç®¡
èµ· çļĦ
202 2
ä¼ł ä½ĽæķĻ
æĶ¶ èİ·
ä¼Ĺ è®®åĳĺ
for m
ç®Ģ æĺĵ
æĴ¤ åĽŀ
æµģè¡Į éŁ³ä¹Ĳ
å³¡ è°·
æĴĴ åĨ·
æĮĸ æİĺ
çĢ ĳ
å¯ĨèĭıéĩĮ å·ŀ
E E
åĮº è®®åĳĺ
æ¼Ķ åıĺ
æĶ¹ çĶ¨
12 4
å®ĺ åħµ
èĩ´ åĳ½
æŃ¦è£ħ éĥ¨éĺŁ
èĨ¨ èĥĢ
y s
çļĦ èĩª
æĺ¯ æľĢ
åİŁ æľīçļĦ
åŁİ éĹ¨
an a
æĿĳ çļĦ
æĦŁ è°¢
èĢ¶ è·¯
Face book
ä¸Ń æĹ¥
âĢ ĭ
æ² Ľ
åı¯ æ±Ĺ
èĲ Į
åħ³ æĬ¼
æĻ® éĽ·
11 7
ç¦» å¿ĥ
éħį å¥Ĺ
çł´ äº§
éħĴ åĲ§
è¶³å¤Ł çļĦ
æ³½è¿ŀ æĸ¯åŁº
M L
éĿ¢ åīį
èĪ ·
é©¬ åĮ¹
10 æľĪ1æĹ¥
åħļ å§Ķ
èĹ ī
å½±åĵį çļĦ
èģĶçĽŁ çļĦ
è£ģ åĨ³
os e
å±Ĭåħ¨åĽ½ äººå¤§
æĦıåĳ³ èĳĹ
oun t
O V
æĹ¥ æĸĩ
äºĨ è¿Ļä¸Ģ
ä¸İ ä¹ĭ
ä¸į å¦Ĥ
å¢ Ł
åİ¿ éģĵ
å·´ å·´
ç»ĵ è¯Ĩ
å°± èĥ½
in cl
è¯º åħĭ
èµŀ æī¬
è®¾ç«ĭ äºĨ
æıŃ éľ²
. )
o x
èµĽ é©¹
åı° çļĦ
è·¯ å¾·
é¢Ĩ éĺŁ
åĽŀ å®¶
ä¸ĩ å¼ł
æ®µ çļĦ
at a
è®© äºº
ä¸Ńå¤® åĨĽå§Ķ
çªģ è¢Ń
196 3å¹´
æ±Ĺ åĽ½
å½ ª
åħĭ æ´Ľ
å¼Ģ å°ģ
âĢĿ âĢľ
è¿Ľ åĮĸ
è¯¥ å¸Ĥ
çĤ Ĵ
è®® éķ¿
èº« äº¡
ä¸ĵ æłı
å¤´ çļĦ
16 3
éĺ² çº¿
å¤ı å¤©
æ¯ĶèµĽ çļĦ
å¹² æ¶ī
å®ĭ æľĿ
ä»¥ä¸ĭ ä¸º
äºİ200 2å¹´
éĺ¿æĭī æĸ¯
çİĭæľĿ çļĦ
æ³¨æĦı åĪ°
ä¸īè§Ĵ å½¢
æ¸¸åĩ» éĺŁ
åķ¤ éħĴ
åĲ ĭ
ä¸Ĭ æ³ķåħ°è¥¿å¤§åĮº
ä»ĸ è¿ĺ
æ¯ Ļ
å¤ļ å®¶
éŁ §
åıį èĢĮ
çĸ ²
åĲī ç¥¥
ä¸Ńå¤® çĶµè§Ĩåı°
ç®¡çĲĨ çļĦ
èĥĮ éĿ¢
å®ĺæĸ¹ ç½ĳç«Ļ
192 5å¹´
192 9å¹´
æīĢåľ¨ çļĦ
èĢ¶è·¯ æĴĴåĨ·
d er
æĶ¿åºľ åĨĽ
çĻ» è¿Ľå£«
éĺ¶ å±Ĥ
é»İ æĺİ
èĶ ¬
ç§Ł åĢŁ
æĶ¹ç¼ĸ ä¸º
åĬłåĪ©ç¦ı å°¼äºļ
æµı è§Ī
åĴĮ çļĦ
äºĭ çī©
è½¦ ä½ĵ
åħ° å¾·
äº¦ åľ¨
èŃ¦ åį«
ä¸ľéĥ¨ å¤§åĮº
ç¬¬åįģ åĽĽ
äºİ199 8å¹´
åĢ¡ è®®
ä¸º ä½ķ
åĴĮ è¥¿
ä¸į ä½Ĩ
æĭī èĲ¨
æ¹¾ ä»Ķ
æ¸ħ çĲĨ
æĳ Ĭ
éĩĩ è´Ń
éĤ£ å·ŀ
è¡ĮæĶ¿ åĮºåŁŁ
è¶³çĲĥ è¿ĲåĬ¨åĳĺ
åĤ ²
äºİ200 1å¹´
çĪ¶äº² çļĦ
è¯¯ å·®
è¾ħ éŁ³
æĻ®ç½ĹæĹº æĸ¯
1 èĩ³
T T
m o
çļĦ æ³ķå¾ĭ
èģ Ĭ
çī¹ ç§į
åı° å¤§
ç»ĵ çĽŁ
åħļ å§Ķä¹¦è®°
çºª å¾ĭ
é¾ ļ
åĽ½å®¶ è¶³çĲĥéĺŁ
15 9
ä¸ĢçĽ´ æĺ¯
ä¸ºä¸» çļĦ
æĸ ¼
ä¸Ń åľº
åħ¬ çĽĬ
æľ¬ éĥ¨
éĹ´ éļĶ
æĪĺ çļĦ
æĪĺ ä¿ĺ
æĢ» è®¡
ä¹Ĳ åĿĽ
éĴ ¾
æ³° ç±³å°Ķ
åľ°æĸ¹ æĶ¿åºľ
è¿İ æİ¥
æ¡Ĥ æŀĹ
æ°Ķè±¡ å±Ģ
çİ¯å½¢ å±±
æ¦´ å¼¹
éĩ ľ
æĻ ĸ
ä¸ľ è·¯
çķ ¿
å°± åĥı
çļĦä¸Ģ æīĢ
çĻ½ å®«
åľŁ èĳĹ
å·¥ä½ľ èĢħ
æľŁéĹ´ çļĦ
è¿Ľåħ¥ äºĨ
è¯¸ ä¾¯
oc i
ç¡ķå£« åŃ¦ä½į
ç¿¡ ç¿ł
çļĦ ä¸ĭ
åľ¨ å¾·åĽ½
äºİ æĹ¥æľ¬
19 19å¹´
ä¹ĭ å¥³
èĪ ĸ
åľº ä¸Ĭ
æ¯Ķ 0
åħ³ èĬĤ
æİ¥ ä¸ĭæĿ¥
å±ķ åĩº
çĭ ¸
ç¬¬ä¸Ģ åŃ£
å¼º å¤§
çļĩ å¤ª
å½ĵåľ° å±ħæ°ĳ
å¯Į æľī
ou t
å¾ħ éģĩ
ow er
ä¼Ł å¤§çļĦ
å®īå¾· é²ģ
bo x
åľ¨ çº¿
10 7
ä¼ł éĢģ
æĽ´ é«ĺ
æ´¾ å¾Ģ
ç»Ļ åĩº
æĦŁ åıĹ
å¾ģ åı¬
æĵį çºµ
li x
æĸ°çĸĨ ç»´åĲ¾å°Ķ
å®¾å¤ķ æ³ķ
2 åĲį
éĻ ĩ
å¹¶ è¢«
åĲĮ ä¸Ģä¸ª
201 4
é©¬ åħ¶é¡¿
éĢļ åĭ¤
10 3
éĩĳ é©¬
ç³»åĪĹ èµĽ
çİĽ æł¼
åħĦ éķ¿
8 0å¹´ä»£
çļĦ æł¸å¿ĥ
æľī å¾Īå¤ļ
æ³ µ
ä¼ļ è°Ī
åĵ ¨
åı· çłģ
æ´¾ ç³»
çĻ½ éĵ¶
å¡Ķ æĭī
åıĮ éĩį
æľ¨ æĿĲ
å»ºéĢł çļĦ
ç£ģ åľº
æĺ¯ ä»ĸ
å¤§ å¤§
åĴĮ éĺ¿
ä¸į å¹¸
äºĶ çĻ¾
å¤ĩ åıĹ
è¾¹ ä¸º
çĶ² çº§èģĶèµĽ
ä¾¿ åĪ©
ç§ĳåŃ¦ æĬĢæľ¯
æĭľ ä»ģ
å¹ķ åĲİ
æľĿé²ľ åįĬå²Ľ
çļĦåľ° éĵģ
ç¿Į æĹ¥
æ¶¡ è½®
Mic rosoft
4 000
æĢ» åĢ¼
éĩĳ æĸ¯
èİ· é¢ģ
å¥¥ åĪ©
çłĶç©¶ åĳĺ
èĲ¥ éĢł
ä»¥åıĬ ä¸ŃåĽ½å¤§éĻĨçļĦ
è´Ł æĭħ
åĺ İ
æĺ¾ çĦ¶
é¢Ħ èŃ¦
æ¸© åĵ¥
èµŀ æĪĲ
çŃĶ åºĶ
çĭŃ çªĦ
yst em
å¤§ åĨĽ
çĶŁ å¹³
è¥¿ æĹ¥æľ¬
èĢĮ æĿ¥
æľ¬ é±¼
åĪĻ è®¤ä¸º
è¯´ è¯Ŀ
çĸ ¼
è½¬ åħ¥
æ¸ħ æĻ¨
çĶ² ç»Ħ
çĽĳ æµĭ
ç½ª åĲį
é¡¶ çĤ¹
äºĨä¸Ģ åľº
è°ĥæŁ¥ å±Ģ
èĶ ļ
æķ² åĩº
é²Ī å½¢çĽ®
çļĦ éľĢæ±Ĥ
åľ¨ åľ°
æĹ¶ ä¸º
ä¸į æĦ¿
éķ¿ å¾ģ
äºļ çļĦ
èĢħ æĺ¯
åİŁ åĿĢ
åįİ è¯Ń
è®º è¿°
çŁ¥ çļĦ
åĲī æĸ¯
éĩĩ éĽĨ
æ»¡ è´¯
èħ¹ éĥ¨
æĭ¦ æĪª
æ¸©åĵ¥ åįİ
M ed
O r
çļĦ åľŁåľ°
åľ¨ ä¸İ
åŃ¦ æ´¾
è¡Į ç¨ĭ
ä¸į å¤ª
å¯¹ ç«ĭ
å¹³ åĿ¦
201 2
è½¦ éģĵ
æĪĺ åĮº
å±± è°·
èº« è¾¹
ç¦ı åħĭ
æ¡Ī çļĦ
åįĬ çĲĥ
åĲĮæĹ¶ ä¹Ł
å·²ç»ı è¢«
24 0
å®¡ è®®
æĴŃåĩº çļĦ
äºİ199 9å¹´
æĲŃ ä¹ĺ
æĿĨ èıĮ
è¿½æº¯ èĩ³
c m
u al
æķ ĸ
æ² ģ
ç«Ļ åĴĮ
çĽ® å½ķ
çİĭ æľ±
å¥ĸ çļĦ
13 4
æ»¡ æĦı
è¯Ŀ é¢ĺ
ä¾Ŀ æ³ķ
èĶ¡ èĭ±æĸĩ
åİļ çļĦ
çħ¤ çŁ¿
B D
E S
åľ¨ åįĹ
äºļ åĪ©
201 5
å°ı éķĩ
ä»¬ çļĦ
åıĤ è®®
ä¸ĩ åĲ¨
åıª åľ¨
å¯Ĩ æŃĩ
åĲ« éĩı
å±ŀçļĦ æ¤įçī©
å®ļä¹ī ä¸º
çĶµåĬĽ æľºè½¦
! ãĢį
P P
çļĦ ä¸ľ
éĿ¢ æĺ¯
å°ı åŃ©
åĵĪ ä¼Ĭ
æŁĵ èī²
ä¸ĩç¾İåħĥ çļĦ
åµ ©
çĲĨå·¥ å¤§åŃ¦
æĽĿ åħī
1 200
A m
çļĦ èĭ±åĽ½
çļĦ è®¡åĪĴ
åĩº ç§Ł
åıĳ æĶ¾
æµ· æ»©
åĽł çĹħ
ç¼ ®
æīĭ æ³ķ
å²Ľ å¼ı
åıĺ å½¢
åķ ¦
åķ ¸
æ³¢ åĪ©
æŃ¦ åĬŁ
åĵĪ å¸ĥ
å¥ĩ å¹»
èĴĻ å¾·
äºĳ æŀĹ
æĳ© æ³½å°Ķ
äºĨä¸Ģ ä»½
é¤Ĳ é¥®
éħī ç§ĳ
å¯ĨæŃĩ æł¹
çļĦ åįĹ
ä¸º ä¸»è¦ģ
å¤§ çģ«
åŃ¦ çķĮ
çĶŁ æĹ¥
åĲĮ äºĭ
ä¹Ł å¼Ģå§ĭ
è¦ģ ç´ł
åı· ä¸º
å±ŀ çļĦä¸Ģç§į
æ¸¯ åĮº
å¸Ī éķ¿
åĪ« åħĭ
çĬ Ģ
æĶ¶ åĽŀ
æ·± å¤ľ
14 6
åģľ çģ«
ä¸¥ åİī
æłĸæģ¯ æ·±åº¦
åıĸä»£ äºĨ
æĭĵ è·ĭ
éĵ¸ éĢł
çĽĳå¯Ł å¾¡åı²
æ°¨ éħ¸
ç£· éħ¸
è¡ Ļ
åŃ¦ éĩĳ
è¿Ļ ä½į
ç¾İ èģĶ
æ²³ ä¸ľ
ä¼Ĭ ä¸ĩ
åº§ ä½į
äº¦ è¢«
åĮ» èį¯
æııè¿° äºĨ
åĴĮ æŃĮ
åħ³ ç¨İ
ç»´ æĸ°
æ· Ĩ
åĲĦ æľī
æŀĦ å»º
å¾Ī æľī
çº¢ æĹĹ
æĸ¯çī¹ æĭī
ç£ º
åĨ° çĲĥ
åħĭéĩĮ æĸ¯
é¥® æĸĻ
æ°¯ åĮĸ
çļĦ äº²
äºĨ èĩªå·±çļĦ
åĬ¨ çļĦ
æµ· å§Ĩ
çİ° éĩĳ
ä¹Ł èĥ½
åĲĪ éĩĳ
åĮĸ å·¥
èģĶ æĴŃ
an c
ç¬¬ä¸Ģ ä»»
æ´¾ äºº
æĬ¤ çĲĨ
è´Ŀ æĭī
ç´¢ å°Ķ
å¼¹ éģĵ
le t
éĺ» ç¢į
çŁ¿ çī©
AK B48
åľ¨ å½ĵåľ°
ä¸į å¤ļ
å¼Ģ åĪĽ
åīį ä»»
ä½ĵ åĨħ
æĦı ä¸º
äº¦ åı¯
17 4
æ³¨ éĩį
192 7å¹´
åĨ· åį´
ä¿ĿçķĻ äºĨ
æįĲ æ¬¾
æ³¢ç½Ĺ çļĦæµ·
A D
ä¼ļ ä¸İ
ä¸Ĭ æĺ¯
åĩº åħµ
çľ ·
åħ¨ ç¾İ
éĩį æĴŃ
å®ī çŁ³
è¯´ çļĦ
æķ´ æķ°
å³ »
æį¢ åıĸ
é³ ļ
è´¢ ç»ı
æ·· æ·Ĩ
éªļ æī°
u c
å¼ Ĭ
ä¼ļ è§ģ
éĥ¨ ä»¶
åŃĲ åĴĮ
èİ ŀ
éĩį åĬĽ
å®ŀ çĶ¨
ä¼ł æŁĵ
åĽ¾ çīĩ
ç¬¬ä¸Ģ ä»£
å®Į ç»ĵ
æĶ» åħĭ
ic a
å¯Į åħ°
ol og
è¯ĳ ä¸º
åŁºç¡Ģ è®¾æĸ½
éĵ¾ æİ¥
ä¸Ģ å¥Ĺ
åĲİ ä¾¿
è¶ ¾
ä¼ł è¾¾
ä¸ĩ åĲį
æŀľ å®ŀ
å®Ŀ çŁ³
éĢĤ çĶ¨
çºªå¿µ é¦Ĩ
åįķæĽ² æ¦ľ
å¥Ī å°Ķ
å¼ºçĥĪ çļĦ
é©¬åħĭæĢĿ ä¸»ä¹ī
M 1
åĽ½ ä¸Ń
æľĢ å°ĳ
200 8
ç½Ĺ æĿ°
æ® ´
11 ä¸ª
åĬ© æĶ»
17 2
é£ŀ èĪ¹
éŁ³ä¹Ĳ ä¼ļ
æĬĢæľ¯ çļĦ
æłĩåĩĨ çļĦ
åį± å®³
æĸ°å¢ŀ å¢ĥå¤ĸè¾ĵåħ¥
åĨ¬åŃ£ å¥¥æŀĹåĮ¹åħĭè¿ĲåĬ¨ä¼ļ
è´© åĶ®
æ©Ħæ¦Ħ çĲĥ
iver s
ä¹Įé²ģ æľ¨
L ive
o la
åĴĮ è§£
å®¶ åºĦ
è¢« æĿĢ
å°Ĩ æŃ¤
æ¡ ¶
éĹ¨ çļĦ
æµģ åħ¥
åıĳå±ķ åĩº
ä¹ĭä¸Ģ çļĦ
æĿĢ æīĭ
åħ¨åĽ½ äººå¤§
éģĩ åĪ°äºĨ
èģĶéĤ¦ æĶ¿åºľ
åŁ¹ èĤ²
çļĦåľ° ä½į
åľ¨è¿Ļ éĩĮ
éĵ¸ å¸ģ
è´ª æ±¡
1 5å¹´
èĢ »
è° İ
è·¯ çļĦ
èģĮ å·¥
åĵĪ çī¹
æĬ¤ èĪª
çĮ ©
å²ģ ä»¥ä¸ĭ
æīį ä¼ļ
èĪ¹ èĪ¶
çĤ® å¡Ķ
æģ¶ éŃĶ
ak e
çºł çº·
ä¹Ĵä¹ĵ çĲĥ
w w
å¤§ åĬĽ
æ°ĳ æĦı
å¼Ģ éĩĩ
çĶµ æľº
è·¯ è½¨
åĩł ç§į
é¢Ŀ å¤ĸçļĦ
åįģäºĮ å¹´
ri d
èĨ Ľ
æİĮ ç®¡
ä¸º éĤ»
åĽ½ éĵģ
çĶ¨ äºĨ
éĩĮ çº¦
å¸ĥ ä¼¦
å°ı æĹ¶çļĦ
æķ° æ¬¡
éľ ľ
11 6
an e
æĹ¥æľ¬ æĶ¿åºľ
æľĿ éĺ³
çŁ¥ åĲįçļĦ
å¨ģ æĸ¯
ç¾¤ çļĦ
æĹĹ èĪ°
191 4å¹´
æĭīä¸ģ ç¾İæ´²
çħ¤ çĤŃ
ç½ĳçĲĥ åħ¬å¼ĢèµĽ
4 åĲį
I R
m in
çļĦ è¡ĮåĬ¨
å¤§ èĦĳ
åĴĮ æĶ¿æ²»
æĹ¶ æľī
ä¸» æĴŃ
è¥¿ å²¸
åĬ¨ èĦī
å½ĵ æĻļ
ä»İ èĢĮ
å¥³ å£«
12 3
on ly
è§Ĥ å¡ĺ
åħ« ä¸ª
le x
åħ¶ä¸Ń ä¸Ģ
èĤ¡ æĿĥ
æ¼« å¨ģ
191 7å¹´
ç½ļ æ¬¾
æĢİ ä¹Ī
å¯Įåħ° åħĭæŀĹ
çļĦ å¤©
åħ¬ åĽ½
æĸ° åįİ
ä¸ī éĩį
åħ¨ å¢ĥ
æ¸¯ æ¾³
è½¬ æĬķ
ä¹Į åħ¹
æ°ĳä¸» æ´¾
åıĳè¡¨ çļĦ
å®ĩ èĪª
ç¥Ī ç¥·
ä¹Įé²ģæľ¨ é½Ĳ
T R
çļĦ å¿ĥ
ä¸Ń çİ¯
æĺ¯ ä¸Ńåįİäººæ°ĳåħ±åĴĮåĽ½
è¢« æİĪäºĪ
è¢« è¯Ħä¸º
èĩª ä»İ
è¿ĩ ä¸ĸ
éĥ½ å¾¡åı²
åĲī éļĨ
æĻ¯ çĤ¹
æ²ĥ å¤«
å¤º åĽŀ
æ¬£ èµı
èĲ¨å°Ķ çĵ¦
èµĦæľ¬ ä¸»ä¹ī
èĤ¿ çĺ¤
Lin ux
N O
çļĦ åĮºåŁŁ
åĲİ åıĪ
è¿Ļ ä¸¤
åĬł æ²¹
åĨħ åĬ¡
äºĭ åıĳ
çĽ¸ æľº
éķĩ å®Ī
ç¼ĸ ç¨ĭ
ä¸»è¦ģ çĶ±
æ¡Ī ä¾ĭ
ç³»åĪĹ çļĦ
åĤ į
è¯¸ å¡ŀ
è¾© æĬ¤
G r
Ã ¼
çļĦ åŃĺåľ¨
åľ¨ ä¼¦æķ¦
ä¹ĭ åľ°
èĩª æĦ¿
åı¯ æĮģç»Ń
åħ¥ åŃ¦
ä¿Ŀ å®ļ
åĲĦ çľģ
çļĦä¸Ģ åľº
å¼Ĺ èİ±
åĲĪä½ľ çļĦ
åĩºçīĪ çļĦ
è¡¥ åģ¿
ä»¥ä¸ĭ æĺ¯
æª Ĳ
Mus ic
j ect
åĩ ĳ
å¾· åł¡
é«ĺ æ¸©
æŃ¤ ä¸Ģ
çº¦ è®·
åĥ µ
æŃ¥ éª¤
éĵģè·¯ çļĦ
éĥ¡ çļĦ
ä»ĭ äºİ
ur n
è¿Ŀ æ³ķ
é¥² åħ»
å¯Ĩè¥¿ è¥¿æ¯Ķ
ä¼ º
æĹ¥ åĨħ
åįĹ ä¸ĭ
æĸ° åħ´
çĪ ½
åŀĭ æĢģ
åħĪ é©±
èĪª è¿Ĳ
æ¤į è¢«
èī¾ å°Ķ
åįĪ ç§ĳ
èķ ´
æ¶² ä½ĵ
å«ģ ç»Ļ
æīĢéľĢ çļĦ
å·´æĭ¿ é©¬
å¹´ åºķ
ä¸º 2
ä¸ĸ å®Ĺ
åħ¨ æĸ°
è¯Ń æ³ķ
æŃ¦ å£«
æŃ» åİ»
å¸Ĥéķĩ èĮĥåĽ´åĨħ
å½±åĵį äºĨ
å±ĭ èĭĳ
å·¨ æĺŁ
è¯ł éĩĬ
åĪĨ æķ°
ç¾ ŀ
åĨĽ çĶ¨
æĮ ½
è¿Ļ ä¹Ī
æį ŀ
èĤ ª
æł¼ ç½Ĺ
äº¤ äºĴ
æ¢ §
å¸Ī ä»İ
èĩ´ ä½¿
æĪ¿ åľ°äº§
æĪĺäºī æľŁéĹ´
ç¤¼ ä»ª
é¡¶ éĥ¨
åĪ¶éĢł çļĦ
æĹģ è¾¹
èĦĤ èĤª
éĺ¿å§Ĩ æĸ¯çī¹
4 åı·
G ro
I STAT
R ed
f lix
åĽ½ åŃĲ
å¤§ çº²
æ¸ Ŀ
åĲĪ åħ±
åħ¨ æ°ĳ
æ²» æĦĪ
12 2
è¿ĺ åı¯ä»¥
é£İ åĬĽ
åĨ° å²Ľ
è¿ŀç»Ń åī§
éī´ å®ļ
æ·±åľ³ å¸Ĥ
å¼¯ æĽ²
å§¿ æĢģ
èĻĲ å¾ħ
çļĦ æ´»åĬ¨
çļĦ åĨ³å®ļ
åľ¨ å½ĵæĹ¶
ä»¥ 3
çĲ ¦
ä¸Ĭ åľº
åĲĮ æ²»
ä¸ī åįĥ
é©¬ å°¼
å±± å¯º
åħ³ åį¡
ç»ĵ å±Ģ
åħļ éĥ¨
æ¸ħ æľ«
æŃĮ èĪŀ
çĶ· æ¼Ķåĳĺ
éĽ· è¯º
å¢ŀ æı´
åĢĻ è¡¥
çİ© åħ·
éĤ® ä»¶
ir l
çĦ¦ èĻĳ
æĭĵ å±ķ
éĽĩ ä½£
æĤī å°¼
åĨħèĴĻåı¤ èĩªæ²»åĮº
éĺ¿åŁºåĿ¦ å¤§åĮº
çĢĳ å¸ĥ
ISTAT ä»£çłģä¸º
S C
åŃĲ åŃĻ
éĵģ è¾¾å°¼
ç¥ŀ åŃ¦
æ¸ħ æ´ģ
æĹ© å·²
(, )
æľºæŀĦ çļĦ
çĸĳ ä¼¼
th er
æĽ¹ æĵį
åĢ¡ å¯¼
æĸĩèīº å¤įåħ´
Net flix
éħĭ éķ¿
illi am
è½ ¶
ä¸Ĭ æ¼Ķ
ä¹ĭ åĲį
ä¸ĭ å±ŀçļĦ
æĸ° åĮº
ãĢį ()
åįģ ä½Ļ
éĩį åıł
è¾¾ ç§ĳ
æŃ£ å½ĵ
ä¹¦ çļĦ
å¤« æĸ¯åŁº
æ²¡ æĶ¶
æŀĦ æĥ³
èĲ¨ æĳ©
ar i
æĥ³ åĪ°
å®³ æĢķ
ç¿» åĶ±
æ»ĳ åĨ°
çī¹æ®Ĭ çļĦ
åĨħæĶ¿ éĥ¨
: ãĢĬ
H a
è¯ µ
åĴĮ æ°´
æĸ¯ å¾·
çĶŁ æĦı
åĲį ç§°ä¸º
ä¿ ©
è¥¿ è·¯
æ³ķ å¸Ī
äºĮ çŃī
èĤ ½
åħĥ èĢģ
éĴ ŀ
å®Ĺ åº§
èĢĥ éĩı
æ¾ ľ
æĲ ģ
åĪĹè½¦ çļĦ
è¿ģ åĪ°
çīĽ é¡¿
èĿ ´
1æĹ¥ å¹³åĿĩ
L i
Ð ½
æľī åĬ©äºİ
éĽ ı
åĬł ç´¢
æľĢ éķ¿çļĦ
æ¡ ¦
é» Ķ
çº¦ æĿŁ
åħĥ çļĦ
åıį æĶ»
åĨ³ å¿ĥ
èĦ Ĩ
çĻ½ éĩĳ
äº¦ ä¸º
åŁĥ çº³
ç«¯ çļĦ
ä¸»æ¼Ķ çļĦ
æİ© æĬ¤
çķħ éĶĢ
èĿ´ èĿ¶
V ID
ä¸º 5
ä¸Ń åįĪ
å¤§ æ³ķå®ĺ
æ³ ¼
è¥¿ åĮº
å¯¹ å¾ħ
ç¾İ é£Ł
çİ° ä¸º
åħ¨ æĹ¥
åı· åľ¨
äººåı£ çļĦ
æĽ´ å¥½
åıĺ å¼Ĥ
èµ« é²ģ
æ¯ķä¸ļ çĶŁ
æįŁ ä¼¤
192 2å¹´
ç§ĳæĬĢ å¤§åŃ¦
å¦Ī å¦Ī
up er
æĳĨ èĦ±
æ³ķ æĭī
äºļ é©¬
ä¸ī çĻ¾
11 æľĪ1æĹ¥
æ±Ł å¸Ĥ
èİ± çī¹
å¤ı æľĹå¾·
çļĦå¤§ å°ı
è®² åº§
çĶŁçī© åŃ¦å®¶
æĪ´ ç»´
æ´ŀ ç©´
191 1å¹´
æª Ģ
incl ude
G u
J ohn
å ļ
åľ¨ ä¸ŃåĽ½å¤§éĻĨ
åĨ ¤
çī ¡
æľī åĽĽ
æ± ¾
ç±³ åĭĴ
éĴ ī
æĪĲåĳĺ åĽ½
æĳ© æ´Ľ
æŀª ç®¡
äºĨä¸Ģ é¡¹
éĺ¿å°Ķ åıĬåĪ©äºļ
6 å²ģ
çļĦ åĨĽéĺŁ
æĺ¯ è¢«
æĹ¶ æĬ¥
äºĨ å¤§éĩı
è¡Į æĿİ
å¤ļ è¾¾
èİ º
åĨħ å¤ĸ
å°Ĩ è¢«
åħ¨ å¸Ĥ
ç³ Ł
10 2
å°± æŃ¤
æĶ¯ éĥ¨
åı¤ åŁİ
å¾Ī å®¹æĺĵ
åĺ ²
æĪ¿ åŃĲ
å¸ķ åħĭ
æĺ¯ä¸Ģ æ¬¾
ou s
è±ª åįİ
ç»ıåİĨ äºĨ
P ar
p ort
çļĦ æĪĺæĸĹ
æĬ ¹
è¥¿ å°Ķ
èĪ ľ
åı° éĵģ
æīĭ æĮģ
æµģ ç¨ĭ
èĲ¨ è¯¸å¡ŀ
16 7
äºĨä¸Ģ åº§
ç¨İ åĬ¡
åįıåķĨ ä¼ļè®®
e e
åľ¨ 2008å¹´
æŀ ķ
åĪĨ æ³Į
å¤© çİĭ
ä¸ŃåĽ½ ç§ĳåŃ¦éĻ¢
æ¸¯ åı°
å²Ľ å¼ıæľĪåı°
æ¤ °
äºĮåįģ åĽĽ
çļĨ æľī
èľ ĺ
åĪĬ çī©
èĿ ĩ
åıĻ äºĭ
è®¾ç½® çļĦ
å«Į çĸĳ
èĥ° å²Ľ
E D
å¹´ ä»½
æĿ ĸ
å¤§ å±łæĿĢ
åĪĨ çº§
é¦ Ī
åĬł åī§
ä¸ī æĺŁ
æĪĺ ç¥ŀ
å¤ĸ æĺŁ
éĩį åŀĭ
æİ¥ çº³
ä¾ĭ å¤ĸ
æ¬§ ç¾İ
16 9
çĹħ äºº
çľĭ æ³ķ
æķ°æį® åºĵ
æĪĺå½¹ ä¸Ń
åįłé¢Ĩ äºĨ
æľīæķĪ çļĦ
æ´»è·ĥ äºİ
Ã Ń
ä¸º 6
ä¸º ç¾İåĽ½
å¤§ ä¸ľéĥ¨å¤§åĮº
ä»ĸ åĴĮ
ä»ĸ æĪĲä¸º
ä¸į æ¸ħæ¥ļ
åŃĲ ç§ĳ
åĪ© æ¶¦
çŃī åĲĮ
çľģ ä¼ļ
ç§į åĬł
åİŁ å£°
æİ¥ åĪ°
é¦ĸ è½®
å·´ è¾¾
ä¿® çŃĳ
æ´Ľ æĸ¯
åı¯èĥ½ çļĦ
æ½ Ł
éŁ³ä¹Ĳ èĬĤ
æĺ¥ èĬĤ
ç½ª è¡Į
æ°ĳä¸» ä¸»ä¹ī
åĲ¦ å®ļ
éĥĳ å·ŀ
é£ĵé£İ ä¸Ńå¿ĥ
èħ¾ è®¯
ä¸Ģ æľŁ
è¯ Ľ
åĩ ¿
èĢ ¿
çĶ¨ åľ¨
éķ¿ å´İ
ä»£ è¨Ģ
åº¦ åģĩ
åİ¿ åĴĮ
æĶ¹ æĪĲ
èį Ķ
ä¸ĩ ä½Ļ
äºĶ å¤§
åı¤ ç½Ĺé©¬
çļĦä¸Ģ ç³»åĪĹ
ä¼¯ æģ©
æĽ¼ åĵĪ
å³ Ļ
è¿ľ çļĦ
æ²¿ èĳĹ
çģµ é¡¿
æī© åħħ
St ud
192 1å¹´
äºİ199 7å¹´
ç»´åŁĥ çº³
2 30
çļĦ å£°éŁ³
åĪ ĥ
ä¸Ģ æĹ¦
æĺ¯ å°Ĩ
ä¸į åĲĪ
åħ¬ è½¦
åı¯ çĶ¨äºİ
äºļ ç§į
åħ¨ åŀĴæīĵ
æ°´ åĬĽ
è§Ĩ è§Ĵ
çº³ å¾·
èĬĤ çĤ¹
æ¥ ·
åī¯ åı¸ä»¤
14 9
å°ļ æľī
æĽ¿ è¡¥
æĶ¶å½ķ äºĨ
1 äº¿
L L
çļĦ èĢģ
åħ¶ ä¸º
ä¹ĭ æīĢä»¥
åĨĽ æĶ¿
ç¾İ æĭī
èĬ ľ
åŀ Ħ
æĽ´ é«ĺçļĦ
ä¸ĵ å±ŀ
ç¼ĸ æĪĲ
ä¾Ľ çĶµ
éĢŁ çİĩ
åįĬ åĨ³èµĽ
çº¢ å¤ĸ
éĢļå¸¸ ä¼ļ
äºĮåįģ äºĶ
æķĮ å¯¹
èµĦæł¼ èµĽ
å±ı å¹ķ
éķĩåĮºçļĦéĿ¢ç§¯ä¸º 9
æ¤Ń åľĨå½¢
V i
Ð ¸
åľ¨ 2020å¹´
ä¸Ģ åĿĹ
é«ĺ å°Ķå¤«
éĢī ä¸Ń
ç»Ħ ä»¶
å¥¥ å§Ķä¼ļ
æĶ¯ åĩº
è¿ŀ ä¸²
éĿĴ å±±
çĻ» åł¡
éĢłæĪĲ äºĨ
ãģ Ħ
å§ĵ åĲį
192 6å¹´
å½© èĻ¹
çļĦçī¹ æ®Ĭ
èİ² èĬ±
é«ĺçŃī æ³ķéĻ¢
P G
P l
ä¸º 7
èĢ Ĩ
æĭī èĦ±
æĥ ¹
å°¼ ç§ĳ
æĶ¾ å¤§
ä¹¡ éģĵ
é³ Ĺ
ä½© æĸ¯
èµŀ èµı
éĥĬ åĮº
å±¥ è¡Į
åĬłåĭĴæ¯Ķ æµ·
èľĺ èĽĽ
g round
çļĦ å®īåħ¨
çļĦ ç»Łæ²»
æĹ¶ åľ¨
ç«Ļ ä¸º
çĽ® åĩ»
æıĲ éĨĴ
ç»´ çī¹
åıĸ åĲĳ
è½¬ èĢĮ
åħī çļĦ
æ´¾ å¯¹
re d
èı² å°Ķ
éĶ¦ èµĽ
èĨ Ŀ
éĽĮ æĢ§
ä¸ŀ çĽ¸
C L
ä¸Ģ æŀ¶
ä»¥ 0
ä¹ĭ è·¯
ä¹Ł åı¯èĥ½
æĻ® é¡¿
åħ¬åı¸ åľ¨
ä¿¡ æīĺ
é¥ ·
æŀģ åħ¶
ä¸½ ä¸Ŀ
æļ´ éĽ¨
åĨ² éĶĭ
op h
av id
æ¿Ĵ åį±
åĽ½åħ± åĨħæĪĺ
H O
åĲİ å¤ĩ
è§ ħ
ç¬¬ 14
åı¯ å®¹çº³
èµ· èįī
åı· åĴĮ
åĪĻ ä¼ļ
æŃ¦ åĬĽ
æŃ¦ çĶ°
å®Į æ¯ķ
åĽŃ æŀĹ
åįł æľī
åģľ åĬŀ
å¹² æĹ±
éĽĦ æĢ§
ãĤ ¹
ri g
é«ĺéĢŁ éĵģè·¯
çĶµæ°Ķ åĮĸ
æĴŀåĩ» åĿĳ
1 åĲį
n g
çļĦ æĿĥåĪ©
åŃ µ
åĮ ¡
äºº åĬĽ
ä¸į çŁ¥éģĵ
èĭ ·
æĪĺ äºĭ
åĲĳ åīį
ä¸ĵ åĮº
æ¨ Ĭ
ä¸ĸçķĮ åĲĦåľ°
æŃ¦ æĺĮ
åħ· åºĨ
é¡¿ æ¶ħ
is e
åĪĩ æĸŃ
è¥¿éĥ¨ çļĦ
Al l
èĿĻèĿł ä¾ł
æĸ°çĸĨç»´åĲ¾å°Ķ èĩªæ²»åĮº
çļĦ é¦Ļæ¸¯
ä¸Ģ é¦ĸ
äºº éģĵ
è¡Į çľģ
åĪĨ è¾¨
åįİ æ²Ļ
çĿ ¿
åį³ æĺ¯
çłĶç©¶ èĢħ
ç¬¬äºĮ ä»£
èİ± åħĭ
æĶ» éĻ·
å°Ħ çº¿
è¿ª åįĹ
è´¥ ç»Ļ
æĸŃ å±Ĥ
åĨ³å®ļ å°Ĩ
æ¬§æ´² åĽ½å®¶
st yle
ãĤ ĵ
çĶŁéķ¿ åľ¨
çĽ¸äºĴ ä½ľçĶ¨
æ¸Ĺ éĢı
æĳ©æ´Ľ åĵ¥
R NA
çļĦ é¢Ĩå¯¼
åľ¨ éĺ¿
äºº ä¹ĭ
æ² «
ä¿ ¯
ä¸ĭ æ°´
åĬ¨ æľº
é© ¿
èİ ¹
åĮĹ æ¬§
æŃ¤ ä¸¾
è¿ĩ äºĨ
åħ¨ ç¨ĭ
ç½Ĺ å®¾
åŀ ©
å¨ Ħ
åħ´ èµ·
åıĤä¸İ èĢħ
æĸ¹éĿ¢ åĨĽ
èĤ¯ èī²
æĭįæĳĦ çļĦ
åıĺæĪĲ äºĨ
æĹ¢ æľī
å¥¥åħĭ è¥¿
ä¸ª æĢ§
ä¸Ĭ çº¿
ä»ĸ ä¹Ł
æ°ĳ äºĭ
æĸ° æĿĳ
é«ĺ å®Ĺ
äºļ è¿Ĳ
æĢ» ç½²
èİ· åĩĨ
å¥¥ å¸ĥ
å¤« å¦»
å¥ĸ åŃ¦éĩĳ
å¤® è§Ĩ
æħ Į
åį¢ æ¯Ķ
æľįåĬ¡ åĻ¨
et h
èģļ å±ħ
å¤ĸäº¤ å®ĺ
èĴĭ ä¸ŃæŃ£
å·¡åĽŀ æ¼ĶåĶ±ä¼ļ
å¹¿è¥¿ å£®
æĺİå°¼èĭıè¾¾ å·ŀ
æĭīèĦ± ç»´äºļ
n ational
å ¬
çļĦ æİ§åĪ¶
å¥ ¢
æĹ¶ è£ħ
æ² ¾
æµ Ĭ
ä¼ļ å¯¹
è½ ¿
çĶµ æºĲ
æ¯Ķ åĪĨ
åĽŀ æĿ¥
åĪĿ ä¸Ń
å¼º è¡Į
å®Į é¢ľ
éĺ³ æĢ§
åģĩ æĹ¥
éĢĥ èĦ±
çķª èĮĦ
åĪĽéĢł äºĨ
çİ» åĪ©
ç¢İ çīĩ
åį°åľ° å®ī
æĽ¼åĵĪ é¡¿
? ãĢį
b it
Ð µ
ä¸İ æĸ°
å¸Ĥ çº§
æľĢ å¿«
è½¦ åİĤ
ä½¿ åı¸
åıĹ ä½ĵ
åħī å¤į
è¶³ åĪ©
æķħ å±ħ
æ·± æ°´
èį· é©¬
è®¢ è´Ń
èĨ ı
è¿ĩåİ» çļĦ
èĹ¤ åİŁ
åħīç»ª äºĮåįģ
å¹½ é»ĺ
ç° §
éĤª æģ¶
å·´æĭī åľŃ
æķĻç§ĳ æĸĩ
B ar
G ame
l in
ä¸Ģ ç»Ħ
è¡ ŀ
æī ³
åĴ ¬
åĴĮ æĹ¥æľ¬
éĥ¨ ä½į
è¥¿ éĹ¨
éķ¿ æĹ¶éĹ´
åĬł å¯Ĩ
æŃ¤ åľ°
çľģ éķ¿
å¸ĥ è¾¾
æĢ» æķ°
éľ ī
çĭ Ļ
æłĩ çŃ¾
è£ħ æľī
åĵĪ å¯Ĩ
è¾ĥ å¤ļ
è¡Ĺ åºĦ
æī¿ åıĹ
åħħ å½ĵ
æī¾ åĪ°äºĨ
éģ¿ éļ¾
åıĤèµĽ èĢħ
d i
å¤§ çķ¥
éĥ¨ ä½ľåĵģ
åĩº åĵģ
éĩĳ éĴ±
è¯Ń ç³»
åįķ è½¦
äºĶ ä»£
åĪĽ åĪĬ
è½» åŀĭ
æįķ èİ·
æłĸæģ¯ åľ°
å®īè£ħ åľ¨
åĲĲ èķĥ
åı°é£İ èŃ¦æĬ¥
ç§°ä¹ĭ ä¸º
H z
v el
åĲİ åĨį
ä½ľ å®¢
æ³ķ äºº
åĪ© å®ī
æ¼Ķ ç»İ
åĭ ¿
äºĶ åįĥ
ä¿¡ éķ¿
16 2
çª ¦
çħ ½
åŁĥ æĸ¯
æŃĮæĽ² çļĦ
å®ĭ ä»£
çĽ¸ä¼¼ çļĦ
åĪĽåĬŀ äºº
Te am
ç¢° æĴŀ
ç»ıçºª åħ¬åı¸
ä¸Ģ çĤ¹
æĹ¶ æīĢ
è¥¿ æ±ī
åĪ© æ¯Ķäºļ
çŃī ä»·
çŃī äººçļĦ
å®ī è¾¾
èĭ± èģĶéĤ¦
çĽ´ æµģ
æº ¢
çĭ¬ è£ģ
æĸĻ çĲĨ
åŃ¦çĶŁ ä¼ļ
æĢĢ çī¹
ãĤ ¤
C T
åħ ĸ
åľ¨ 2015å¹´
åĲİ ä¸ĸ
åĩº å¢ĥ
åĮº çļĦä¸Ģä¸ª
æ´ ¼
åĪĨ å±Ģ
åĪ° è®¿
éĩį ä¼¤
æ°´ æ³¥
å±ŀ æĢ§
äº§ éĺ¶çº§
éĴ Ļ
èĮ ľ
å®ĺ èģĮ
åĲĦ æĸ¹
èİ·å¾Ĺ çļĦ
å¡ŀ æĸ¯
Ġ åľ¨
Ġ åİĨåı²
Ġ çĶŁå¹³
z h
Ġ S
l t
g t
Ġ C
Ġ P
Ġ M
Ġ B
Ġ åľ°çĲĨ
Ġ A
Ġ D
Ġ F
Ġ H
Ġ äººåı£
åŃ¦ åĲį
a Ġ
s Ġ
Ġ R
Ġ G
Ġ L
Ġ T
Ġ formula
Ġ the
Ġ ä¸İ
Ġ of
Ġ æł¹æį®
Ġ è¯¥
Ġ çļĦ
æĺ¯ ä½įäºİç¾İåĽ½
Ġ K
æĺ¯ æ³ķåĽ½
ä½Ĩ åľ¨
Ġ W
ä½įäºİ è¯¥åĽ½
: )
Ġ å¹´
Ġ æĶ¿æ²»
Ġ N
Ġ çĶ±äºİ
Ġthe Ġ
Ġ V
Ġ J
ä½įäºİ æ³ķåĽ½
Ġ 2
Ġ 2021å¹´
Ġ 2019å¹´
Ġ è½¦ç«Ļ
Ġ E
Ġ 2020å¹´
Ġ 2018å¹´
Ġ è¡ĮæĶ¿
: .
Ġ 1
äººåı£æķ°éĩıä¸º äºº
Ġ s
éĤ®æĶ¿ç¼ĸçłģ ä¸º
Ġ 2017å¹´
å¹¶ äºİ
Ġ d
Ġ 2016å¹´
å¤ıä»¤ æĹ¶
Ġ 3
INSEE å¸Ĥéķĩç¼ĸçłģ
INSEEå¸Ĥéķĩç¼ĸçłģ ä¸º
äºİæĹ¶çļĦ äººåı£æķ°éĩıä¸ºäºº
ç¾İåĽ½äººåı£æĻ®æŁ¥ çļĦæķ°æį®
èĢĮ äººåı£å¯Ĩåº¦ä¸ºæ¯ıå¹³æĸ¹åįĥç±³
æĪĸ æĹ§å¸Ĥéķĩ
è¯¥ çľģä»½
æīĢå±ŀçļĦçľģçº§éĢīåĮº ä¸º
Ġ 2022å¹´
è¯¥çľģä»½ ä¸ºæ³ķåĽ½
y Ġ
Ġ 2014å¹´
Ġ 2015å¹´
Ġ 2013å¹´
Ġ in
o Ġ
èĢĮ æĺ¯
Ġ 2023å¹´
å¹¶ å°Ĩ
Ġ and
: "
åİ¿ äºº
ä¸¾ äºº
Ġ 4
Ġ 2012å¹´
ed Ġ
Ġ O
èĢĮ æ°´åŁŁéĿ¢ç§¯ä¸º
Ġ c
Ġ æľ¬
Ġ è¡ĮæĶ¿åĮºåĪĴ
ä¸º è¾Ĳé³įé±¼çº²
ä½ĵ éķ¿åı¯è¾¾
ing Ġ
Ġ 2024å¹´
åĮĹ èµ·
Ġ ä»İ
Ġ æ¦Ĥ
e Ġ
Ġ 2011å¹´
h ans
Ġ f
Ġ 2010å¹´
h k
Ġ m
Ġ çļĦæĹ¶åĮºä¸º
Ġ äºİæĹ¶çļĦäººåı£æķ°éĩıä¸ºäºº
Ġ æīĢå±ŀçļĦçľģçº§éĢīåĮºä¸º
Ġä¸İ æİ¥å£¤çļĦå¸Ĥéķĩ
ĠçļĦ éĤ®æĶ¿ç¼ĸçłģä¸º
å¹¶ ä»¥
Ġ èĩª
Ġ 6
Ġ åĴĮ
Ġof Ġ
Ġ 5
ä½Ĩ çĶ±äºİ
Ġ å®¶æĹı
: ),
Ġ p
Ġ zh
Ġ St
Ġ 2008å¹´
æĺ¯ä¸Ģ é¢Ĺ
2020å¹´ ç¾İåĽ½äººåı£æĻ®æŁ¥çļĦæķ°æį®
Ġ æĹ©å¹´
Ġ Ch
æĺİæľĿ æĶ¿æ²»äººçī©
Ġ b
ä¸ľ ä¸´
Ġ 2009å¹´
Ġ I
åħ¶ä¸Ń åĮħæĭ¬
Ġ U
Ġ 2025å¹´
Ġ æŃ¤
Ġ å¤§
Ġ ä»ĸ
è©¹å§Ĩ æĸ¯
èĢĮæ°´åŁŁéĿ¢ç§¯ä¸º 0
å¹¶ ä¸İ
Ġ de
Ġ åħ¶ä»ĸ
Ġ æĪªèĩ³
2 äºº
Ġ åī§æĥħ
Ġ 2007å¹´
3 äºº
Ġ æŃ¤å¤ĸ
1 äºº
Ġ 7
Ġ éĺ¿
1 Ġ
Ġ é¦Ļæ¸¯
er Ġ
Ġ èĻ½çĦ¶
ä½Ĩ ä»ĸ
Ġ èĥĮæĻ¯
è¯¥ æĿĳ
ä¸Ģ å°ıæĹ¶
Ġ æį®
Ġ è¿Ļ
åħ¶ä¸Ń çĶ·æĢ§
Ġ å½ĵ
Ġ n
å¹¶ çĶ±
Ġ ä¸ŃåĽ½
Ġ åľ°æĸ¹
è¥¿ æİ¥
Ġ æĺ¯
ä¸Ńåįİäººæ°ĳåħ±åĴĮåĽ½ æĶ¿æ²»äººçī©
Ġ 2006å¹´
Ġ ç¾İåĽ½
æĺ¯ é¦Ļæ¸¯
2 Ġ
ä»ĸ æĽ¾ä»£è¡¨
4 äºº
Ġ 8
an Ġ
Ġ 10
ä»¥ ä¾¿
Ġ 200
åĨħéĻĨ çľģä»½
i Ġ
ä¸» äºĭ
ç½Ĺä¼¯ çī¹
Ġ ç®Ģä»ĭ
Ġ In
Ġ æĸ°
Ġ æĽ¾ç¥ĸ
Ġåľ°æĸ¹ èµĦæĸĻ
Ġ äº¤éĢļ
c n
Ġ åľ£
åįģä¸Ģ å¹´
al Ġ
Ġ ä¸º
ä½įäºİ è¯¥
ä¸º UTC
Ġ æľī
The Ġ
è°ĥå¿« ä¸Ģå°ıæĹ¶
èĢĮ è¯¥åľ°æīĢéĩĩçĶ¨çļĦæĹ¶åĮºä¸º
åį³ UTC
èĢĮè¯¥åľ°æīĢéĩĩçĶ¨çļĦæĹ¶åĮºä¸º UTC
Ġ 2005å¹´
æĺ¯ å¾·åĽ½
åİ¿çŁ¥ åİ¿
ä½Ĩ åĽł
Ġ 190
çľģ æİ¥å£¤
Ġ v
Ġ åħ¶
on Ġ
åį³ åĮĹç¾İ
åįģä¸ī å¹´
5 äºº
7 äºº
Ġ to
Ġ ä¸ªäºº
Ġ çĶ±
Ġ åı°æ¹¾
Ġ 9
Ġ w
Ġ èĢĮ
Ġ X
Ġ ä¸»è¦ģ
æĺ¯ åı°æ¹¾
ä»ĸ æĽ¾
Ġ çĽ®åīį
Ġ å®¶åºŃ
15 7
/ &
ä¸İ æŃ¤
Ġ éĻ¤äºĨ
Ġ æĿİ
Ġ çĦ¶èĢĮ
Ġ æķħäºĭ
6 äºº
is Ġ
Ġ 0
Ġ æĹ¥æľ¬
000 äºº
Ġ ä½¿çĶ¨
Ġ å¯¹
åį¢çĵ¦å°Ķ çľģ
5 ç±³
Ġ é©¬
åįģåĽĽ å¹´
Ġ t
Ġ ä¸Ń
; /
åĲĮæĹ¶ ä¹Łæĺ¯
èĢĮ è¯¥åľ°çļĦ
æĪĲç«ĭ åĲİ
èĩª æŃ¤
Ġæ¦Ĥ è¦ģ
ä»ĸ è®¤ä¸º
(,; )
Ġand Ġ
, )
åįģäºĶ å¹´
9 äºº
es Ġ
Ġ å°½ç®¡
åįĥ ç±³
çº¦çĳŁ å¤«
Ġ ä»¥ä¸ĭ
Ġ åı¦å¤ĸ
8 äºº
Ġ åīį
Ġ 2004å¹´
(; )
ä¸º 1
åĲį ä¸¾äºº
æŁ¥ å°Ķæĸ¯
è¥¿çıŃçīĻ è¯Ń
åĲį è¿Ľå£«
éĥİ ä¸Ń
Ġ éĻĪ
åįģåħŃ å¹´
åİ¿çļĦä¸Ģä¸ª éĿŀå»ºåĪ¶åľ°åĮº
section Ġ
Ġ å¤©
Ġ Re
Ġæł¹æį® 2020å¹´ç¾İåĽ½äººåı£æĻ®æŁ¥çļĦæķ°æį®
æĺ¯ ä¹Įåħĭåħ°
Ġ åħ¶ä¸Ń
Ġ è¯Ħä»·
h ant
Ġ æ¸¸æĪı
åľ¨ éĤ£éĩĮ
ä¸Ń åıĳçİ°
è¿Ļ ä¹Łæĺ¯
en Ġ
æĺ¯ æĦıå¤§åĪ©
ä½Ĩ åħ¶
ç«ĭæĸ¹ ç±³
Ġ g
Ġ Pro
15 2
æĺ¯ è¥¿çıŃçīĻ
Ġ æľĪ
å±ħæ°ĳ çĤ¹
ä½Ļ äºº
æĺ¯ åįĹæŀģæ´²
åī¯ ä½¿
Ġ 2003å¹´
èĢĮè¯¥åľ°çļĦ å¹³åĿĩæµ·æĭĶé«ĺåº¦ä¸º
Ġ ç»ıæµİ
æł¹æį®2010å¹´ ç¾İåĽ½äººåı£æĻ®æŁ¥çļĦæķ°æį®
ä¸İæŃ¤ åĲĮæĹ¶
è¿Ľå£« åĩºèº«
Ġ 12
éĻ¤æŃ¤ ä¹ĭå¤ĸ
Ġ ç¬¬
åĪĿ å¹´
çĶ±äººå·¥å¼ķç§į æł½åŁ¹
ä¸ĭè¾ĸä»¥ä¸ĭ åľ°åĮº
æĺ¯ èĭ±åĽ½
èĳĹ æľī
E Ġ
ä½įäºİè¯¥ çľģ
çĽ®åīį å°ļæľª
èİ·å¾Ĺ ä¸Ģæŀļ
éĿ¢ç§¯ 0
le Ġ
Ġ æľ¬ç«Ļ
åįģä¸ĥ å¹´
Ġ åĪ¶ä½ľ
ç±³çļĦ åľ°åĮº
è¿Ľ èĢĮ
Ġ å¯¹äºİ
Ġ çİĭ
4 Ġ
Ġ ä»¥
Ġ ä¸ºäºĨ
Ġ è¥¿
Ġ h
åİ¿çļĦä¸Ģä¸ªè¡ĮæĶ¿ éķĩåĮº
Ġ ç®Ģ
æīĺé©¬ æĸ¯
3 Ġ
; &
å®ĥ åľ¨
å¹¶ä¸Ķ åľ¨
Ġ 2002å¹´
æĺ¯ä¸Ģ å®¶
Ġ ä½ľä¸º
æĪĸ ç§°
åģľ è¿Ĳ
Ġ En
çĽ®åīįå°ļæľª çĶ±äººå·¥å¼ķç§įæł½åŁ¹
Ġ 11
çº¦ 1
ç©Ĩç½ķé»ĺ å¾·
Ġ å»ºçŃĳ
Ġ for
Ġ 1949å¹´
Ġä¸ªäºº çĶŁæ´»
Ġ 189
è¿Ļ æĹ¶
000 åĲį
ä»ĸ å°Ĩ
çŃī èģĮ
192 3å¹´
æĺ¯ ä¸ĭè¾ĸçļĦä¸Ģä¸ª
å¹¶ è¡¨ç¤º
cod ice
ãĢĬ ãĢĭ(
H R
åĲİ åĽł
åİ»ä¸ĸ åĲİ
Ġ æ³ķåĽ½
Ġ åıĤèĢĥ
çī¹ çĤ¹
ä¹ĭ ä¸Ĭ
éĿ¢ç§¯ 1
æĦıæĢĿ æĺ¯
Ġ åįĹ
æĺ¯ä¸Ģä¸ª ä½įäºİç¾İåĽ½
å¹¶ ä¸º
191 3å¹´
Ġ æĭī
Ġ éĩĳ
Ġ 2001å¹´
è¯¥åľ°çļĦ éĿ¢ç§¯åĴĮäººåı£
çļĨæľª çŁ¥
è¯¥åľ°çļĦéĿ¢ç§¯åĴĮäººåı£ çļĨæľªçŁ¥
è¯¥ åºĦ
Ġ æĹ¥
Ġ 2000å¹´
æľĢç»Ī åľ¨
åĽłæŃ¤ åľ¨
çļĦ åº§æłĩä¸º
å¹¶ èİ·å¾Ĺ
ãĢį )
Ġè½¦ç«Ļ ç»ĵæŀĦ
15 4
èĩ³ æŃ¤
ä½Ĩ ä»į
æ¸ħæľĿ æĶ¿æ²»äººçī©
Ġ aĠ
çĶ± æĿ¥
åįģåħ« å¹´
Ġ æĹ©æľŁ
èĢĮéĹ» åĲį
Ġ 19
ä¹ĭ æĹ¶
åıĬ åĲİ
åı¯ æĺ¯
å·ŀ è´Łè´£ç®¡è¾ĸ
Ġ ç¬¬äºĮ
ä»ĸ ä»¥
å¹¶ æĪĲä¸º
. &
Ġ é»Ħ
æĺ¯ä½įäºİ ä¹Įåħĭåħ°
Ġ æł¹æį®2010å¹´ç¾İåĽ½äººåı£æĻ®æŁ¥çļĦæķ°æį®
ä½Ĩ æľĢç»Ī
ãĢĬ ãĢĭ,
5 åħ¬éĩĮ
èĲ½ è´¥
Ġ Y
æııè¿° ä¸º
æĶ¿æ²» å®¶
Ġ é«ĺ
Ġ ä¸ī
Ġ æ²¿éĿ©
è§Ĩ æĺŁçŃīä¸º
å¹¶ æľī
æł¹æį® 2020å¹´ç¾İåĽ½äººåı£æĻ®æŁ¥çļĦæķ°æį®
çĪĨåıĳ åĲİ
15 3
å¹¶ åĲĳ
ä¸º åı°æ¹¾
Ġ l
Ġ å°ı
ä¸Ń é¥°æ¼Ķ
æģ¶ åĮĸ
èªī ä¸º
æīĢè°ĵ çļĦ
Ġ å¼ł
ä½Ĩ åį´
Ġ Le
æį® è¯´
191 6å¹´
2 ç±³
çİ° å·²
2 ä¾ĭ
Ġ ä¹Įåħĭåħ°
Ġ ä¸ĭ
Ġ å®ĥ
èµ¤ ç»ı
Ġ åĪĨç±»
å·ŀ çļĦä¸Ģä¸ªå¸Ĥéķĩ
ic Ġ
3 ç±³
Ġ 18
ä½įäºİ ä¸Ńåįİäººæ°ĳåħ±åĴĮåĽ½
åıĤèµĽ èµĦæł¼
äºĮåįģ å¹´
åħ¶ ä¸ŃçļĦ
æĺ¯ ä¿Ħç½Ĺæĸ¯
ä½Ĩ æĺ¯åľ¨
ä½Ĩ ä¸į
. "
Ġ ç¬¬ä¸Ģ
çļĦ æľºä¼ļ
ä½įäºİè¯¥åĽ½ è¥¿éĥ¨
Ġ äºīè®®
çİ°æĹ¶ çĶ±
E ST
ç»§ ä½į
ä»ĸ è¯´
æľ« å¹´
Ġ 14
åīį èĢħ
é©» åľ°
Ġ åĪĨå¸ĥ
è¯¥ ç»Ħç»ĩ
åŃ¦å£« åŃ¦ä½į
1 3å¹´
ä¼ļ éĿ¢
åİ¿çļĦ éĿŀå»ºåĪ¶åľ°åĮº
us Ġ
åħ¨åĽ½éĩįçĤ¹ æĸĩçī©ä¿ĿæĬ¤åįķä½į
Ġ åį¡
çļĦ åĲĮæĹ¶
åħ¶ åŃĲ
190 9å¹´
ä½įäºİ éĵ¶
ä½Ĩ æ²¡æľī
191 5å¹´
Ġç®Ģ åİĨ
1 1å¹´
Ġ 20
Ġè½¦ç«Ļ æŀĦéĢł
ä¸º 3
çļĦæ¯ĶèµĽ ä¸Ń
0 åĿĲæłĩä¸º
åħ¶ B1900
ä½įäºİéĵ¶ ç»ı
0åĿĲæłĩä¸º èµ¤ç»ı
, "
Ġ The
å¥¹ æĺ¯
èĢĮ åĲİ
ç»Ń éĽĨ
èī¾ ä¼¦
Ġ 1999å¹´
æĺ¯ åį°åº¦
Ġ Z
Ġ ä¸Ńåįİäººæ°ĳåħ±åĴĮåĽ½
Ġ ç»ıåİĨ
è¯¥ å¹´
Ġ 15
Ġ æĸĩåĮĸ
as Ġ
ä¹¡éķĩçº§è¡ĮæĶ¿ åįķä½į
è¿ĩ åĲİ
5 Ġ
Ġ çĽ¸åħ³
Ġ 16
èĢĮå¾Ĺ åĲį
Ġ è¿Ļä¸ª
éģĵ å¤«
ä¹ĭ æĦı
å±±èĦī çļĦä¸Ģéĥ¨åĪĨ
8 æľĪ1æĹ¥
9 æľĪ1æĹ¥
Ġ çĶµå½±
Ġ ç¤¾ä¼ļ
æį® çĤ¹
åħ¶ çĪ¶
é©¬æģ© çľģ
ç»§æī¿ äºº
çİĽä¸½ äºļ
åįł æĢ»äººåı£
ç»ĦæĪĲ éĥ¨åĪĨ
1 6å¹´
t Ġ
Ġ ç¬¬ä¸ī
Ġ èģĮä¸ļçĶŁæ¶¯
åľ¨ è¿Ļä¸ª
çº¦ 2
åĲİæĿ¥ è¢«
åįĹæŀģæĿ¡çº¦ä½ĵç³» ç®¡çĲĨ
Ġ å®ī
Ġ å¤ĸéĥ¨
ä½Ĩ è¿Ļ
çľģ è´Łè´£ç®¡è¾ĸ
åľ¨æŃ¤ æľŁéĹ´
6 ç±³
æĽ´ åĲį
Ġ ä¸ľ
å¤§ è´¥
ä¸¹å°¼ å°Ķ
ä¸įä¹ħ åĲİ
Ġ èĭ±åĽ½
âĢľ âĢĿ
1900 å¹´
Ġ æķĻèĤ²
å¹¶ å¯¹
éĺµ åľ°
Ġ ä½Ĩ
ç³»ç»Ł ä¸Ń
Ġ è¿ĻäºĽ
Ġ åĽ½éĻħ
Ġ æ°ĳåĽ½
6æľĪ 30æĹ¥
çİ°æĹ¶çĶ± åįĹæŀģæĿ¡çº¦ä½ĵç³»ç®¡çĲĨ
Ġ 1945å¹´
Ġ ä¸Ģ
14 7
çĦ¦ çĤ¹
Ġ Sp
åıĪ æľī
æĺ¯ å½ĵåľ°
6 æľĪ1æĹ¥
Ġ 199
çģ° èī²
çļĦ ä½ľçĶ¨
éĢļè¿ĩ äºĨ
1 4å¹´
Ġ åĮĹ
å¹¶ å¼Ģå§ĭ
ç§ĳ è¿Ľå£«
åłĤ åĮº
Ġ æĽ¾
Ġ Sh
ä½Ĩ ä¹Ł
1 ç±³
ç»¼èīº èĬĤçĽ®
1 å®¶
å¹¶ å°Ĩåħ¶
E DT
Ġ st
Ġ 1998å¹´
åĲİ ä¸įä¹ħ
åĮº è´Łè´£ç®¡è¾ĸ
æĺ¯ä¸ĭè¾ĸçļĦä¸Ģä¸ª ä¹¡éķĩçº§è¡ĮæĶ¿åįķä½į
åĨĻ çļĦ
çĳŀ åħĭ
åİħ éķ¿
Ġ åĪĺ
Ġ åħ³äºİ
å·´å£« è·¯çº¿
è¿Ī åħĭå°Ķ
å±Ĭåħ¨åĽ½æĶ¿åįı å§Ķåĳĺ
çĲĨäºĭ éķ¿
8 ç±³
åįģä¹Ŀ å¹´
Ġ æ¯ĶèµĽ
Ġ éŁ³ä¹Ĳ
202 1
ç¤¾ éķ¿
Ġ ä¸ĢäºĽ
åĲİæĿ¥ åľ¨
1 7å¹´
5 è°ĥå¿«ä¸Ģå°ıæĹ¶
Ġ 1997å¹´
çĶ¨ åľ°
è£Ķç¾İåĽ½ äºº
æĺ¯ä¸Ģé¢Ĺ åĽ´ç»ķå¤ªéĺ³åħ¬è½¬çļĦå°ıè¡ĮæĺŁ
åį³åĮĹç¾İ ä¸ľéĥ¨æĹ¶åĮº
Ġ åĽłä¸º
è¡Ĺ åĮº
Ġ De
åĪ¶çīĩ äºº
Ġ å¦Ĥæŀľ
Ġ è¿Ļé¢Ĺå°ıè¡ĮæĺŁçļĦç»Ŀå¯¹æĺŁçŃīä¸º
åħ¶ä¸Ń æľī
è¯¥ ç«Ļ
Ġ al
Ġ Th
çļĦ æĦıæĢĿ
ä¹ĭ åĨħ
æŃ¤ å¤©ä½ĵ
Ġ 188
æķ° å¹´
ä»¥åıĬ åľ¨
ä¸Ģ è¾¹
3 æľĪ1æĹ¥
Ġ 13
çļĦ è¿ĩç¨ĭ
åıĤ æĶ¿
å¹¶ ç§°
ä¸§ çĶŁ
æľĢç»Ī ä»¥
è®°èĢħ ä¼ļ
æĹ¶ è¡¨ç¤º
åīį èº«ä¸º
æīĢ éķ¿
æŃ£å¼ı æĪĲç«ĭ
Ġ çİ°
Ġ 1994å¹´
æ±¤ å§Ĩ
æ¹¿ åľ°
201 1
åħ¹ çľģ
Ġ æŀĹ
åĩº å±Ģ
è¿Ļ ä½¿å¾Ĺ
å°Ķæĸ¯ åħĭ
Ġ è®¾è®¡
Ġ å½±åĵį
çİĭ åĲİ
èĤī é£ŁæĢ§
Ġof ĠtheĠ
00 å¹³æĸ¹åįĥç±³
Ġ åĽł
åºķå±Ĥ æ°´åŁŁ
æĺ¯ å¤§
ä¸º ä¸Ńå¿ĥ
Ġ æĪĺåĲİ
ä¿ĿæĬ¤ åĮº
Ġ k
Ġ 1991å¹´
çļĦ å®ļä¹ī
Ġ åı¤
Ġ ç½Ĺ
Ġ æ°´
ä¹Ł ç§°ä¸º
åľ¨ æł¡
åĨĽ éķ¿
ä¸īåįģ å¹´
C ST
6 è°ĥå¿«ä¸Ģå°ıæĹ¶
Ġ An
è¿Ļ ä¹Ł
åĨħ æĸ¯
æ²¿æµ· çľģä»½
CD T
åį³åĮĹç¾İ ä¸Ńéĥ¨æĹ¶åĮº
Ġ Ð
Ġ åħ¶åĲİ
åı¸ éķ¿
Ġ th
ä¸º åĲį
åĲĮå¹´ 10æľĪ
Ġ Ar
ä¸º ä¸Ń
æĺ¯ è¯¥
è¯¥ èĪ°
èĳ¡èĲĦçīĻ è¯Ń
ç»Ļäºĭ ä¸Ń
Ġ çī¹å¾ģ
å¥³ äºº
ç®¡ éģĵ
4 ç±³
Ġ 17
Ġ Al
æĽ´ å¤§
èįī åľ°
193 0å¹´ä»£
Ġ é¥°
å¤§ éĹ¨
è¿Ļ æĿ¡
åĲĮå¹´ 12æľĪ
åĮºçļĦ è´Łè´£ç®¡è¾ĸ
å·¨ äºº
çĲ³ å¨ľ
æĸĳ çĤ¹
Ġ e
Ġ å·´
å·ŀ äºº
æĽ´ æľī
è§ģ éĿ¢
Ġ ä¸Ĭ
ä¸Ģ è¯´
æĸĩ ä¸Ń
è§£ ä½ĵ
ä»ĸçļĦ çĪ¶äº²
éĥ¨åī¯ éĥ¨éķ¿
Ġ åıĳå±ķ
Ġ 1995å¹´
5 æľĪ1æĹ¥
çļĦ ä¸Ńå¿ĥ
å¥¥ æīĺ
å±Ģ éĿ¢
å¹² äºĭ
åĩºçīĪ äºĨ
å¾·éĩĮ å¸Į
çļĦ äººåı£
æĺ¯ éŁ©åĽ½
æķħ æŃ¤
åŃĻ åŃĲ
åľ¨ 2010å¹´
ä½Ĩ è¢«
åĪ« åĲį
åİĨåı² å»ºçŃĳ
å®ģ åİ¿
ä¸į è®º
çİ© æ³ķ
ãĢĬ ãĢĭ.
åı¯ ä¾Ľ
è·¯ ä¸Ĭ
æĢ» æķĻåĮº
åĮĹèµ· é¡ºæĹ¶éĴĪä¸İ
) ãĢį
ä¹ĭ åĪĿ
èĬĤ æĹ¥
Ġ 1996å¹´
éĹ» åĲį
C Ġ
çº¦ 3
æĢ» éķ¿
3æľĪ 31æĹ¥
10æľĪ2 5æĹ¥
åľ¨ ä»Ĭ
äºº æŃ»äº¡
ä¹ĭ ç§°
åĲĮ çŁ¥
åŃ£ åĨĽ
åĨį åĬłä¸Ĭ
è§Ĥ æĶ¿
Ġ åĪ°
Ġ æľ¬å±ŀ
ä»ĸ åıĪ
Ġ åıĳè¡Į
Ġ åħ¨
Ġ è¯¥åľ°
æĪĺ æŃ»
190 5å¹´
é«ĺçŃī åŃ¦æł¡
col span
7 ç±³
ä»ĸ äºİ
åĲĮ æľĪ
201 3
Ġ äºĮ
çļĦ è§ĤçĤ¹
ä¸Ģ æĹ¥
å½ĵ åĪĿ
å½ĵ çĦ¶
åıĳçİ°äºĨ æŃ¤å¤©ä½ĵ
Ġ ä½įäºİ
åĨ³èµĽ ä¸Ń
5 ä¸ĩ
Ġ æĺİ
è¯¥ çī©ç§įçļĦ
èģĶèµĽ åĨłåĨĽ
ä¿®æŃ£ æ¡Ī
ä¸º é¦Ļæ¸¯
ä»ĸ æĭħä»»
12 æľĪ1æĹ¥
ç¬¬äºĮ å¤©
äºİ199 5å¹´
Ġ ä¸ĢèĪ¬
çļĦ ä¸įåĲĮ
åįĹ è·¯
å½ĵ å¹´çļĦ
ä½Ĩ åĽłä¸º
å®¡ çĲĨ
Ġ 1993å¹´
ä¼ģä¸ļ å®¶
è¿·ä½ł ä¸ĵè¾ĳ
åı² ç§°
äº¤æµģ éģĵ
å®īä¸ľ å°¼
Ġ ä¼Ĭ
ä½¿ ä»ĸ
äº¬ å¸Ī
190 4å¹´
ä¸º Ġ
ä¸ī å±Ĥ
ä»¥åıĬ åħ¶ä»ĸ
æĬķåħ¥ ä½¿çĶ¨
Ġ äºİ
æ°ĳ ç±į
8æľĪ 31æĹ¥
çĪµ ä½į
. ,
Ġ åĲİæĿ¥
åľ¨ 2013å¹´
å¹¶ æĭħä»»
èĢĮ æŃ»
ä¹Ł è¢«ç§°ä¸º
æ¼Ķ è¯´
èīº åĲį
ä¸į åĬ¨
äºĮ å±Ĥ
åįĬ å¹´
ä½ľåĵģ ä¸Ń
æ¼«çĶ» å®¶
Ġ åĲİ
Ġ å¤ļ
çĲĨæŁ¥ å¾·
ä¸ĭ åİ»
æ°´ ä¸Ń
è®² å¸Ī
åį¡æ´Ľ æĸ¯
çļĦåı¯èĥ½ æĢ§
9 æĹ¶
Ġ æµ·
ä»İ å°ı
äº¤åıī åı£
çļĦ åĬŁèĥ½
ä¸į çŃī
æĹł éľĢ
æĹ¶30 åĪĨ
åľ¨ ä¸ľ
åĮĹ ä¸Ĭ
èµĽ åĨłåĨĽ
æĽ² çº¿
çĶ» ä½ľ
Ġ èĳĹä½ľ
è¯¥ ä¹¦
ä½Ĩ åĲİæĿ¥
å¥¹ æĽ¾ä»£è¡¨
Ġ èĩ³
åľ¨ ä¸Ĭ
ä¹ĭ çĶ¨
ç¬¬ä¸Ģ åĲį
çĶ· äºº
Ġ 1992å¹´
çļĦ ç¾İ
ä¸Ģ ä¹¦
âĢĿ ()
å°± èģĮ
ä»ħ åľ¨
Ġ Se
éĻ¤ éĿŀ
æµ·æĭĶé«ĺåº¦ 2
äºİ199 6å¹´
çĶ± èĭ±åĽ½
åĲĮ æľŁ
èĲ¥ åľ°
100 ç±³
åŁºç¡Ģ ä¸Ĭ
ãĢī ,
12æľĪ2 8æĹ¥
çļĦ åĪ¶ä½ľ
åįĹ åĮº
202 3
ä»£è¡¨ ä½ľ
æĳĦ æĶ¿
ç«¥ å¹´
190 6å¹´
å´Ľ èµ·
Ġ Mar
ä¸īä¸ª æľĪ
Ġ 5æľĪ
å¤Ħ æŃ»
è¿ª æĸ¯
æ£ķ èī²
Ġæ¦Ĥ è¿°
Ġ Windows
åľ¨ 2009å¹´
ä¸Ģ äºĭ
åŃ¦ åİĨ
åıį åĵį
çº½çº¦ æĹ¶æĬ¥
æĭīä¸ģ è¯Ń
äº¤æ±ĩ å¤Ħ
Ġ 187
Ġ Sch
ä¸į æķ¢
ç»ĵæĿŁ æĹ¶
çļĦ å®¶åºŃ
æĺ¯ åħ¶
è¿Ļ éĥ¨çĶµå½±
éĤ£ æĹ¶
èĪŀåı° åī§
8 æĹ¶
Ġ è®¸å¤ļ
åľ¨ 2012å¹´
åĬł éĩĮ
ä¸Ģä¸ª äºº
ĠæĹ©å¹´ çĶŁæ´»
ä¹ĭ äºĭ
âĢĿ ),
åħ¨ ä¹¦
ä¸ŃåĽ½ åĽ½å®¶
åĬŀ åŃ¦
ä»£è¡¨ éĺŁ
éļ¾ åº¦
æĴ¤ åĩº
æĿ¡ä»¶ ä¸ĭ
sectionĠ begin
Ġ å¥¹
Ġ æ²Ļ
ãĢĭ )
åĮĹ è·¯
æĸĩ ä¹¦
ç»Ħ éķ¿
åıĳçĶŁ åĲİ
åİ¿çļĦ åŁİå¸Ĥ
ç¬¬äºĮæ¬¡ä¸ĸçķĮå¤§æĪĺ æľŁéĹ´
6 Ġ
A Ġ
çļĦ åĲįä¹ī
åľ¨ å¯¹
at Ġ
éŁ³ä¹Ĳ å®¶
çļĦ éĤ®æĶ¿ç¼ĸçłģä¸º
ä¸º 4
19 10å¹´
åİĭ åĪ¶
äºİ199 4å¹´
è§£åĨ³ æĸ¹æ¡Ī
Ġ åİŁ
å¤© åĲ¯
åħ¶ä»ĸ äºº
14 4
9æľĪ 30æĹ¥
ä¸įè¿ĩ åľ¨
çļĦåŁºç¡Ģ ä¸Ĭ
çļĦ å¦»åŃĲ
åľ¨ 2018å¹´
ä¸į åºĶ
éħįéŁ³ åĳĺ
Ġ re
åľ¨ åĽ½éĻħ
äº¤ ä¼ļ
190 8å¹´
åĬ¨åĬĽ åŃ¦
3 ä¾ĭ
Ġ æľ¬é±¼
çļĦ èµĦæĸĻ
ä¸Ń éĢĶ
d Ġ
çļĦ åıĺåĮĸ
ä¸º ä»Ģä¹Ī
èµĽ åĲİ
Ġ çĻ½
åľ¨ 2014å¹´
èĩ³ 2
æĹ¥æľ¬ äºº
è¡Ĺéģĵ åĬŀäºĭå¤Ħ
çĲĨå·¥ åŃ¦éĻ¢
çĽ® çļĦåľ°
åıª å¥½
æ°Ķ çĲĥ
sectionĠ end
åľ¨ 2011å¹´
åĪĨ åĮĸ
å¹¶ ä»İ
é©¬ ä¸Ĭ
ä¸»è¦ģ ä¸º
çļĨä¸º éĻĨåľ°
Ġ èĭ¥
Ġ II
çļĦ è¿ĩç¨ĭä¸Ń
ä¸ĭ è¡Į
è¯¥ å¸Ĥéķĩ
ä¸ŃåĽ½ æĶ¿åºľ
éĥ¡ çİĭ
ä¹ĺ è½¦
çĪ¶äº² æĺ¯
æĥ¯ ä¾ĭ
Ġ çİ°ä»£
çĲĨ åŃ¦
ä¸ļ èĢħ
éĢļå¸¸ åľ¨
èģļ ä¼ļ
ä¸Ģå¹´ åĲİ
Ġ å¥¥
çļĦ å»ºè®®
åľ¨ åħ¨çĲĥ
éĿ¢ç§¯ 2
è¶ħ å¸Ĥ
èµ° äºĨ
å¼Ģåıĳ åĮº
, ,
9 ç±³
èĢĮ æľī
äº¦ ä¼ļ
è¯Ħ åĪĨ
å¼ķèµ· çļĦ
çļĦ ä»»åĬ¡
æĢ» åĨ³èµĽ
æĶ¹ è®¾
14 3
ä¹ĭåĲİ åľ¨
2æľĪ2 4æĹ¥
å¹¶ æŃ¢äºİ
âĢľ "
äºİ199 2å¹´
å¸®åĬ© ä¸ĭ
Ġ æ°ĶåĢĻ
Ġ 1988å¹´
çļĦ ç»Ħç»ĩ
ä»ĸ ä»İ
æİ¥ æīĭ
ä¸¤ä¸ª æľĪ
ĠåİĨåı² æ²¿éĿ©
ä¸ĭ è¯ı
èĬĤçĽ® ä¸Ń
éĺħ åħµ
çļĦçī¹æľī æ¤įçī©
Ġ 20ä¸ĸçºª
çļĦ è¯Ńè¨Ģ
åıĳ æĸĩ
æŃ¤ å¤Ħ
è¿ĩ å¤ļ
æĪĺ æľº
æ¥ļ åĽ½
å¸ĪèĮĥ åŃ¦æł¡
å¤ļå¹´ æĿ¥
åĮĸåŃ¦å¼ı ä¸º
Ġ ä¸ĩåİĨ
åİķ æīĢ
åľ¨ åį°åº¦
ä¸į åĲ«
æ±ī äºº
æĺ¯ä¸Ģ æĿ¡
ä¼łç»Ł ä¸Ĭ
190 7å¹´
Ġ æŃ£
Ġ 10æľĪ
ä¸Ģ æĹ¶
åŃ¦ ä¸ļ
å¤© åľ°
éĺ¿ æĸ¯
éĥ¨åĪĨ åľ°åĮº
è¯ĳ ä½ľ
9æľĪ2 8æĹ¥
ä¸ĵç§ĳ åŃ¦æł¡
æĺ¯ä¸Ģé¢Ĺ æģĴæĺŁ
Ġ éļıèĳĹ
çļĦ ç»ĵæŀĦ
æľī 1
æĸ° éĺ¿åŁºåĿ¦å¤§åĮº
åĮĹ åĮº
ä¸ī çŃī
å±± ä¸Ĭ
æį® ç§°
èĳĹ çļĦ
èģĮ æĿĥ
åĽłä¸º å®ĥ
ä¼ĺ åĮĸ
ä¸ĢçĽ´ åĪ°
Ġ r
Ġ åŃ¦æł¡
Ġ æŃ¤ç«Ļ
åħ¶ éĹ´
è¢« èªīä¸º
æ±Ł åİ¿
æ¯ı æľĪ
åı¯ä»¥ ä½¿çĶ¨
å®Ĺ å®¤
åľ¨ 20ä¸ĸçºª
èµĽäºĭ ä¸Ń
å¾·åħĭ èĲ¨æĸ¯å·ŀ
Ġ æĪĸ
Ġ åĲįç§°
Ġ éļıçĿĢ
çļĦ æĸĩç«ł
ä¸º 0
è¢« æĮĩ
éĺ¿ èĲ¨
åıĪ ç§°ä¸º
æķĮ åĨĽ
åĽº ä½ĵ
å¹´è½» äºº
çļĦ ä¸ªäºº
çĶµ ç«Ļ
è¿ĩ æĿ¥
åĮĸ çī©
æ¯Ķ 1
æ³° å±±
åĲĮå¹´ 11æľĪ
æĪĺæĸĹ ä¸Ń
è´¢æĶ¿ éĥ¨
çĪ±å¥½ èĢħ
Ġ Un
åľ¨ è¿ĻäºĽ
å®ī å®ļ
ä¸¤ å±Ĥ
åĳ½ ä¸Ń
åİ» äºĨ
ä»Ĭ å±ŀ
çªĹ åı£
åľ¨ åħ¨åĽ½
éĥ¨ ä¸ĭ
åĩº èī²
åģĩ è¯´
å¢ĵ åľ°
åŃĶ åŃĲ
è¯¥çľģä»½ä¸ºæ³ķåĽ½ åĮĹéĥ¨
åĲİ äºİ
æĸ° ä¼ļ
ä¸¤ åľ°
æİ¥ åı£
æŀĹ ä¸ļ
äºĶ äºº
å¼ł åŃ¦
èĢģ äºº
åįĹåĮĹ æľĿ
å¤ĸåĽ´ èµĽ
Ġ 186
ä¸» æľº
åĪ° æĿ¥
çİĭ å®īçŁ³
åİĨ ç¨ĭ
è¿ĺ æ²¡æľī
æĿİ æ°ı
çĪ¶ åŃĲ
åįļçī© éĻ¢
å¤ĸäº¤ åħ³ç³»
çĽ®æłĩ æĺ¯
çĽ¸å¯¹ è®º
ä¹ĥ èĩ³
å¾·éĩĮ åħĭ
Ġ 1990å¹´
Ġ 1989å¹´
çļĦ çĲĥåĳĺ
å¯¹ æĪĺ
ç±³ æĭī
å¤Ħ å¤Ħéķ¿
ä¾Ľ æ°´
æºª æµģ
ç¡¬ ä»¶
æ£Ģå¯Ł å®ĺ
ç®¡æİ§ ä¸Ńåıĳçİ°
ä¸ºè¾Ĳé³įé±¼çº² é²Īå½¢çĽ®
8 æľĪ15æĹ¥
ä¸º çĥŃå¸¦
åıª ä¼ļ
å¯Ĩ éĽĨ
å¤į åĩº
ä½ı æīĢ
åĩł ä¸ªæľĪ
) )
Ġ Me
æĺ¯ å·´è¥¿
åĪĨ éĺŁ
åĮĹ éĿ¢
å¼ł å®¶
åĪĴ åĪĨä¸º
åįĥ äºº
çĶµå½± éĻ¢
å¾Ī é«ĺ
è¿ª å°Ķ
å¤ļæł· æĢ§
å½ķéŁ³å®¤ ä¸ĵè¾ĳ
çļĦ çĲĨè®º
æĬ¥ åĲį
ä¿Ħ è¯Ń
190 3å¹´
ä¸Ģæ®µ æĹ¶éĹ´
7 0å¹´ä»£
ä¸į å¤Ł
å°Ĩ æĿ¥
202 4
åħĪ è¡Į
è¿ª åħĭ
åºķ éĥ¨
ä¹ĭéĹ´çļĦ åħ³ç³»
Ġ 3æľĪ
çļĦ çĽ¸åħ³
åľ¨ ç¬¬
ä¸Ģ çº¿
åĴĮ é©¬
ç³» æķ°
æĥħ äºº
åĲĮå¹´ 9æľĪ
å¼ĹéĽ· å¾·
% )
Ġ Con
çļĦ æĶ¿çŃĸ
çļĦ çİ°è±¡
åľ¨ 2005å¹´
åĲİ éĿ¢
åı¯ è¡Į
ä¹Ł ä¸İ
ç«Ļ åīį
å¤Ħ åĪĨ
ä»£è¡¨ æĢ§
äºĮåįģ äºĮå¹´
äºİ18 4
çº¿è·¯ åı£
æľ¬å±Ĭ èµĽäºĭ
Ġ åĺīéĿĸ
çļĦ çĲĥéĺŁ
äºº åıĹä¼¤
æĺ¯ çĳŀå£«
æĢ» åħµ
åįķ è¯į
åĨį çĶŁ
14 2
ä½© å°Ķ
æĢª çī©
æŃ£ç¡® çļĦ
åħ·åºĨ ä¸ĭ
R S
çļĦ çĬ¶æĢģ
åĴĮ åľ£
çĶ± ä¸ŃåĽ½
è¯¥ å»ºçŃĳ
é©¬ è·¯
æīĭ ä¸ĭ
éĹ¨ å¤ĸ
åıĺ åĬ¨
åŃĹ ä½ĵ
åı¯ä»¥ è¢«
åį´ è¢«
ç¦»å¼Ģ äºĨ
èĩªåĬ¨ åĮĸ
çļĦ åī¯
åľ¨ 2016å¹´
éĢļ ç§°
åİ¿ å¸Ĥ
éĥ½ è¦ģ
å¯¼ ä½ĵ
or Ġ
åħ« å¼º
äºĭä»¶ ä¸Ń
ãĢī .
å¸ĥé²ģ æĸ¯
æł¹æį®2010å¹´ ç¾İåĽ½äººåı£æĻ®æŁ¥
èĤ¯å¡ĶåŁº å·ŀ
è¯¥çī©ç§įçļĦ æ¨¡å¼ıäº§
çļĦ ç¬¬ä¸Ģä¸ª
åľ¨ åľ£
ä¸Ģ çīĩ
ä¸Ģ æĸ¹éĿ¢
ä¸Ń ä½¿çĶ¨
å¹¶ éĢļè¿ĩ
å¤ļ ç±³
åı· åı¬
éĺ¿ åįľ
è¿ĳ æľŁ
è½¬ è¿Ĳ
æĬµ åĪ¶
5 åı·
åľ¨ æľ¬
å¹³ åİ¿
åĽĽ åĳ¨
ä¸ĸçķĮ å¤§èµĽ
å®ĮæĪĲ åĲİ
æ¯Ĵ æĢ§
ä¸ľåįĹ æİ¥
T wit
Ġ ä¸Ģä¸ª
çļĦ çīĪæľ¬
è¿ĺ å°Ĩ
æ³¢ å¾·
å¼Ĥ æĢ§
æī¬ å·ŀ
ä¸ĩäºº æ¬¡
Ġ èī¾
åĴĮ åįĹ
ä¼ļ åĲĪ
ä»ĸ å·ŀ
éĩĮ å°Ķ
æľĢ éķ¿
æĪĺ çº¿
èĳĹ ç§°
æĶ¿æ²» åįıåķĨä¼ļè®®
åī¯ éĻ¢éķ¿
å°Ħ æīĭ
ä¸Ńå¤® æĶ¿åºľ
50 ç±³
Ġ æııè¿°
çļĦ æľĢå¤§
åľ¨ 2007å¹´
ä»¥ 4
é«ĺ åİĭ
å¼Ģå§ĭ åĲİ
5æľĪ 20æĹ¥
å¤ĸäº¤ éĥ¨éķ¿
ç¼ĵ è§£
çĲ¼ æĸ¯
Ġ åħĥ
Ġ Ser
çļĦ å¼Ģåıĳ
åľ¨ 2017å¹´
ä¹ĭ å®¶
æĿ¥ äºĨ
å¤ļ éĿ¢ä½ĵ
è·¯ éĿ¢
ä½Ĩ æľª
åħ¬éĩĮ å¤Ħ
å¨ģ çī¹
4æľĪ 30æĹ¥
çļĦäºº å£«
æĶ¶å½ķ äºİ
12æľĪ2 5æĹ¥
6æľĪ2 8æĹ¥
å¸¦æĿ¥ äºĨ
åľ¨ æŁĲäºĽ
å¤§ å°Ĩ
åĪĨ éĥ¨
å¼Ģ æĭĵ
åľº é¦Ĩ
ç¾İåĽ½ éĻĨåĨĽ
11 æĹ¶
å¸Ī çĶŁ
æĿİ åħĭ
è¯Ħ çº§
æ´Ľ æŀĹ
åıĳçİ° äºİ
èĴĤ äºļ
åĪº æĿĢ
åıĭå¥½ åŁİå¸Ĥ
åľ¨ 2019å¹´
ä¸Ģ æī¹
åĴĮ åħ¶
åĴĮ æĹłçĹĩçĬ¶æĦŁæŁĵèĢħ
åľ° è¡¨
ä¸į çĶ¨
åħ¬ æīĢ
åĪĨ ä¼ļ
åı¯ æĥľ
åĽł åľ¨
å°ı æıĲçĲ´
éĩĳ éĴŁ
å¸¸ æķ°
çļĦä¸Ģ åĳĺ
ä½ľä¸º ä¸Ģä¸ª
æķħ ä¹¡
al k
æ³° ç½Ĺ
æł¸ ç³ĸ
æĪĴ ä¸¥
åįĵ è¶Ĭ
åĽ½å®¶éĺŁ åıĤåĬł
åĲīéļĨ åĿ¡
Ġ éķ¿
Ġ 1937å¹´
æĺ¯ å¥¥åľ°åĪ©
æ¸ ¤
æ°ĳ çĶŁ
ä¸ī åı·
ç§į ç§į
åħ³ å¿ĥ
é¦ĸ éķ¿
çķĮ éĿ¢
è§ģ çļĦ
çļĦä¸Ģä¸ª åĮº
çĬ¶ çļĦ
é¢Ħ èµĽ
ä¼ĺ å¼Ĥ
10æľĪ 10æĹ¥
éŁ¦ ä¼¯
åı¸ä»¤ åĳĺ
åºĶçĶ¨ ç¨ĭå¼ı
æĬĺ åıł
æŁ´æ²¹ æľº
è°¥ åı·
æĮīå¯Ł åı¸
ä¹Įåħ¹ åĪ«åħĭ
( ãĢģ
2 æľĪ1æĹ¥
Ġ åĵĪ
çļĦ åıįåºĶ
çĶ Ħ
çİ º
çĶŁ ç´ł
å¹¶ è¦ģæ±Ĥ
å¤ļ æĿ¡
å¤ļ çĵ¦
æīĢ ä½¿çĶ¨çļĦ
æİ¥ çĿĢ
åĽĽ ä½į
åıĤ æĪĺ
æĽ¾ å¤ļæ¬¡
ç»ĵ æĻ¶
è¯ģ ä¹¦
å®Ī åĨĽ
æ¸© åĴĮ
ç§Ģ åĲī
ä¸¾åĬŀ äºĨ
ç¨İ æĶ¶
ir st
åı¥ è¯Ŀ
æĸ¯èĴĤ èĬ¬
ç° ¿
ç¦ıå°Ķ æĳ©
ç§ĳç½Ĺ æĭīå¤ļ
èĥ°å²Ľ ç´ł
3 åı·çº¿
çļ Ĥ
çļĦ åĴĮ
æł Ī
åŃ¦ è¯´
ä¸į å½ĵ
å¾· å·ŀ
åħĥ ä»¶
æ¸¯ å²Ľ
ç»ĵ å°¾
ç¬¬åĽĽ æ¬¡
ç¬Ķ åĲį
å¤ıåŃ£ å¥¥è¿Ĳä¼ļ
åİļ åº¦
çŁ³åĻ¨ æĹ¶ä»£
ä½¥ äºĭ
çİĽæł¼ ä¸½
åĵĪå¸ĥ æĸ¯åł¡
å¹´ ä»ħ
è¾ ľ
çĶŁ èĤ²
å¤ļ å¹´çļĦ
åīį æľŁ
åīį åİ»
ç¥ ģ
ä¸¤ èīĺ
æ¯Ķ èµ·
å±ŀ èĤīé£ŁæĢ§
åıĤ åĨĽ
æĦı æĦ¿
ä¸ĩ å¹³æĸ¹ç±³
çĻ» å±±
å½Ĵ è¿ĺ
éº¦ éĩĳ
il la
èİī ä¸Ŀ
èµ¤ éģĵ
Ġ æ¸ħ
åĴĮ ä¸ī
åĩº åħ¥
å¸Ĥ äººæ°ĳæĶ¿åºľ
200 ç±³
åİŁ ä½ľ
åĽĽ åĲį
æĮĩ åįĹ
æº ī
æĻ® åĪ©
æĪı éĻ¢
ä»į æľª
ç¤¼ åłĤ
å¤§è§Ħæ¨¡ çļĦ
ä¸¤å¹´ åĲİ
å¸ĥèİ± æģ©
åĢ¾åĲĳ äºİ
ä¸Ń çļĦä¸Ģä¸ª
æ¸ £
è½¦ è·¯
åİĨ æĹ¶
æ¸¸ çİ©
å¹³æĸ¹ èĭ±éĩĮ
ä¸»è¦ģ ä»¥
èĩ´ æķ¬
æ¸© æļĸ
çĽĳ æİ§
è½» æĿ¾
7æľĪ 7æĹ¥
éĢĥ å¾Ģ
åħ¬å¸ĥ çļĦ
è¡° èĲ½
æĭ¼ éŁ³
, (
Ġ å¤ĸ
Ġ åĶĲ
çļĦ é£İéĻ©
æĺ¯ ä¸ĸçķĮä¸Ĭ
ä¹ĭ æĹħ
å¹¶ æĬĬ
èĢĮ å·²
åħ¨ èº«
åºľ çŁ¥åºľ
ä»İ ä¸Ń
æ¶ ©
éĽĨ æĪĲ
æ¢ Ĺ
æīĵ åĩº
çĮ ¿
åĨĻ äºĨ
æĢ»ç»Ł éĢīä¸¾
å¹¿æĴŃ çĶµè§Ĩ
ä¸īåįģ åĽĽå¹´
åĩ¡ å°Ķ
çİĩä¸º 0
åıĹæ¬¢è¿İ çļĦ
ç¥ŀåľ£ ç½Ĺé©¬å¸ĿåĽ½
èĶ¬ èıľ
ç§įåĬł è¯į
M D
å®¶ éķ¿
èĢĮ åĩº
ä¸ĭ è®®éĻ¢
çº¦ 4
éĺ¿ åĭĴ
åįķ çº¯
å¥¥ å¼Ĺ
è§£ æŀĲ
ç¦» èģĮ
çłĶç©¶ å®¤
ç¦ı åħĭæĸ¯
æ®µ æĹ¶éĹ´
çĶµå½± ä¸Ń
æīĺ åĭĴ
å»¶ æľŁ
çļ® åŁĥå°Ķ
re am
åĲĮå¹´ 8æľĪ
è¯ĳ åĲį
è¹ Ħ
ç«ŀæĬĢ åľº
å½Ĵç±» ä¸º
ç§°åħ¶ ä¸º
ã Ħ
Ġ ä¸ĸçķĮ
Ġ ä¹ĭåĲİ
Ġ ä¿Ħç½Ĺæĸ¯
ä¸Ģ å±Ĥ
ä¸Ń æĸ¹
æĺ¯ éĢļè¿ĩ
æ³ķ è¥¿æĸ¯
éĩĮ å¸Į
ç±» æ¡Īä»¶
åı¯ä»¥ è¿½æº¯åĪ°
æ¸ħ éĻ¤
è¿ŀ éĶģ
ä¿® ç¼®
å© ¿
æĺ¯ä¸Ģ æīĢ
å¾® åĪĨ
11æľĪ 11æĹ¥
ç©Ĩ å°Ķ
HD Ġ
! !
çļĦ é»ĳ
çļĦ ä»·æł¼
ä¹ĭ äºº
å¯¹ æµģ
è¯¥ å¤Ħ
è¯¥ é¡¹çĽ®
ç¦ ½
åı² éĥ½
æĽ´ å¥½çļĦ
ä»¶ äºĭ
ç»Ń çº¦
å¼º å¥¸
è§Ħ å¾ĭ
ä¿Ħ æ¯Ķäºļ
å¾Ī åı¯èĥ½
å»ºçŃĳ ç¾¤
æ°ı çļĦ
å¾ģ æĶ¶
éŁ© æ°ĳåĽ½
é¦ĸæ¬¡ åľ¨
çī¹åĪ« æĺ¯åľ¨
å¥³æĢ§ ä¸º
å¥ī å¤©
äºİ199 1å¹´
æĬ¢ åĬ«
åŁĥå¡ŀ ä¿Ħæ¯Ķäºļ
% ãĢģ
1 çļĦ
6 æĹ¶
7 Ġ
çļĦ äºĭ
ä¸º çķĮ
åĴĮ æĸĩåĮĸ
åĩº åİ»
åĪĨ åıĳ
ä¸ĭ è®¾
å¼Ģ å¾Ģ
æľĢ å¥½
æĸĩ æĸ¯
ç¾İ çļĦ
äºļ ä¼¯
åĽĽ å¼º
åºĶ æĢ¥
åıĺ ä½ĵ
çĻ½ åŀ©
æ³ķåĽ½ çļĦ
çļĦä¸Ģä¸ª åİ¿
æĦŁ åħ´è¶£
åº· å¥Īå°Ķ
åºĦ æĿĳ
è½» è½¨
è°Ī è¯Ŀ
è¿Ļä¸Ģ çĤ¹
å¾Ĺç¥¨ çİĩ
å¥¥åħĭè¥¿ å¡Ķå°¼å¤§åĮº
6 0å¹´ä»£
q ue
çļĦ å±ħæ°ĳ
æ³ Ĺ
ä¸Ĭ è¡Į
éĩĮ å£«
åĬł è£ħ
èµĽ ä¼ļ
æį į
ä¸¤ å®¶
è¿ĳ åį«
ä»ĸä»¬ è®¤ä¸º
å®¢ åľº
æ¦ ķ
ç²¾ éĢī
è¶³çĲĥ åįıä¼ļ
åĪĨåĪ« åľ¨
æķ£ æĸĩ
åĩ¯ çī¹
ä¸ĢèĪ¬ çļĦ
ç»¼åĲĪ æĢ§
åı²èĴĤ èĬ¬
æĳ©æīĺ è½¦
äºļåĪ© æ¡ĳ
å¹¿è¥¿å£® æĹıèĩªæ²»åĮº
5 æĹ¶
8 åħ¬éĩĮ
Ġ Co
çļĦ çºªå½ķ
âĢ »
ä¸İ åĲĮ
ä½į ç´ł
åĬł çļĦ
é¡ ½
ä½Ĩ ä¹Łæľī
èĭ± ä¹Ŀ
éĺ¿ åħĭ
æŀĹ ä¸Ń
çĽ´ çº¿
åķĨ ä¼ļ
ä¿® æĸ¯
å¤± è¯¯
æĻ¯ åĮº
éŁ³ä¹Ĳ åī§
æļĤ æĹł
åŃĶ æ³°
è·¨ æĢ§åĪ«
åĽ° å¢ĥ
çļĦçī¹ æĢ§
å¡ĳ éĢł
æ°¨ åŁº
æĶ¹å»º ä¸º
éĹ¯ åħ¥
é¡¿æ¶ħ èĮ¨åħĭ
0 Ġ
Ġ éĻ¤
çļĦ æĢģåº¦
å¤§ éĥ½ä¼ļ
éĥ Ŀ
åħ¬ åŃĲ
ç¾ ģ
åįİ å·ŀ
å¸¸ çĶ¨çļĦ
æł¡ æĸ¹
çģ« çĦ°
çĶŁäº§ æĢ»åĢ¼
æĭĽ çĶŁ
åĽ° æī°
æĮĳ éĢī
åİŁæľ¬ çļĦ
æłĩå¿Ĺ çĿĢ
å½» æĸ¯çī¹
æĬ½ è±¡
æĬ« éľ²
Ġ èĭı
çļĦ è®°è½½
æĸ° æķĻ
ä¸ľ æŃ£
å¾Ĺ å¥ĸ
è½¦ æ¬¡
ä¸¤ åº¦
å½± éĽĨ
éĩı äº§
åĪ« äºº
æĳ ¸
å¸Į ä¼¯
æĶ» è¯»
èĩªå·± æĺ¯
ä½İ åľ°
é¢Ħ è¨Ģ
ç¥ĸ åĽ½
ç¤¼ çī©
åŃĻ æĿĥ
éªĳ å¸Ī
èŃ¦å¯Ł å±Ģ
è§Ĥå¯Ł åĪ°
å¿½ çķ¥
åıĪåĲį BD
ens is
ä¸»æīĵ æŃĮ
Ġ ç§ĳ
Ġ æ±ī
çļĦ æŃ£
çļĦ æ¼Ķåĩº
åľ¨ éŁ©åĽ½
ä¸Ń åı¶
æľī æĿĥ
æĹ¥ åľĨ
çĶŁ æ®ĸ
å¹³ æĹ¥
ä¸ľ åį°åº¦
ä½¿ é¦Ĩ
ç§ĳ ç»´å¥ĩ
è§Ĩ éĩİ
èĻ Ķ
åľŁ æľ¨
æīį æĺ¯
åĲĪå¹¶ èĢĮæĪĲ
å¡« è¯į
ä½įäºİè¯¥åĽ½ åĮĹéĥ¨
Ġ å½ĵæĹ¶
Ġ 100
èĲ į
åŁº éĥ¨
çº¦ æĹ¦
æĪĸ è®¸
åįİ ä¸Ń
åī¯ æķĻæİĪ
æŀ¶ é£ŀæľº
æĿ¯ åĨłåĨĽ
åºĶçĶ¨ ç¨ĭåºı
ç¨ĭåº¦ çļĦ
åŃ¤ ç«ĭ
éªĳå£« åĽ¢
ä¸ĳ éĹ»
å¼Ĺæĭī åŁº
Ġ æĿ¨
å¤§ åĲį
20 ä¸ª
ä¸į åŃĺåľ¨
æŀ ¯
æ¸ Ń
å¼Ģ æŀª
ä¸ī æĿ¡
æİ¥ ç§į
åĮħ è£¹
ç¼ĸ è¯ĳ
å¤± åĪ©
å¤± æľĽ
ä¾¿ ä¼ļ
åıĳè¡¨ å£°æĺİ
28 0
189 8å¹´
è¿Ļæĺ¯ åĽłä¸º
å¯¹åºĶ çļĦ
æł¼é²ģ åĲīäºļ
- ,
5 åĲį
Ġ çłĶç©¶
Ġ la
Ġ ä»ĸçļĦ
åį ¤
æķĻ åıĭ
çģ ¶
ä»½ åŃĲ
éĻĪ åĪĹ
æĤ ¨
æ£Ģ è®¨
çī§ åľº
å½¼å¾Ĺ åł¡
åį¯ ç§ĳ
èĦĬæ¤İ åĬ¨çī©
ä¸º formula
ãĢĭ ;
èģ ĭ
åħ¥ è¯»
å°Ĩ è¿ĳ
å¤ĸ ä¾§
é¦ĸ åĳ¨
éĶ Į
å°± å¼Ģå§ĭ
åįķ è¡Į
ä¼ł åĩº
æĶ¿æ²» å§Ķåĳĺ
çĽĽ è¡Į
ç¼º å¸Ń
éĵľ éĶ£
èĭĹ æłĹ
9æľĪ2 9æĹ¥
åħļç»Ħ ä¹¦è®°
å¸ĥæĶ¿ ä½¿
3 åħ¬éĩĮ
Ġ ç±³
Ġ ä½ľåĵģ
Ġ äºĭä»¶
Ġ 25
æĺ¯ ä¹Įåħĭåħ°çļĦ
è¢« ä¿ĺ
å¤ļ åªĴä½ĵ
å¾Ĺ å¤ļ
ç§ĳ å¤ļå°Ķ
éĥ½ ç»Ł
æ¸¸ ä¹Ĳ
æĶ¶ çĽĬ
åº§ æ¤ħ
æİ¨ ä¸¾
æĬķ è¯ī
åĬ© æīĭ
çĻ¾ å¼º
ç¤¾ä¼ļ ç§ĳåŃ¦
çķĻ å®Ī
æ°ı æĹı
èĪ¬ çļĦ
å·¡ è§Ĩ
çļĦåľ° ä¸ĭ
4æľĪ2 8æĹ¥
ð« ļ
å¥¥æĸ¯æĽ¼ å¸ĿåĽ½
5 æľĪ15æĹ¥
Ġ You
Ġ 1984å¹´
çļĦ çŁ³
çļĦ æĸĩåĮĸ
ä¸į å¤§
åĪĨ éļĶ
æ³ķ åħ¸
èĢĮ åıĹåĪ°
æĸĩ åĩŃ
æµ· æĪĺ
ä½Ĩ ä»ĸä»¬
å¼ı å»ºçŃĳ
å°± å·²
æĶ¯ éħį
è½¬ åıĺä¸º
åĽ´ æ£ĭ
åħ´ å¥ĭ
è´¹ åĪ©
çľĭ åı°
æĪĲåĳĺ çļĦ
å½Ĵ åħ¥
ro id
éĴŁ æ¥¼
äºİ199 3å¹´
çªĹ æĪ·
çİĩé¢Ĩ çļĦ
ç¯®çĲĥ è¿ĲåĬ¨åĳĺ
å¼ĹæľĹ ä»Ģ
åĬłé¾Ļ çľģ
R ob
Ġ be
ä¸Ń æŃ¢
ç¾ ļ
çī¹ ç½Ĺ
å¼Ģ åĽ½
åĮĹ ç«¯
çĲĥ è¡£
éĤ ¯
å±ŀ åĲį
æ¼Ķ æĬĢ
åĲĳ åħ¬ä¼Ĺ
åıĹ éĤĢ
å¹¿ å¤§
åıĸ æĻ¯
ä¼¯ æĺİ
æĶ» ä¸ĭ
æ²¿ éĢĶ
è´µ çļĦ
ç»§æī¿ äºĨ
æīĵåĩ» çİĩ
æº¶ äºİ
éŃģ åĮĹ
ç¤¾äº¤ åªĴä½ĵ
æĨ ¾
éĺ¿åįľ æĿľ
æĺ¯ ä¸İ
æ³ķ åŃ¦éĻ¢
æīĢ ç¤º
æĦ ī
åİ¿ åĲį
ä¸ĵ çº¿
ç² Ł
ç¬¬äºĮ åĲį
èŃ¦ å¤ĩ
æĿĢ äºĨ
ä¾Ŀ æ¬¡
è§Ĵèī² æī®æ¼Ķ
äº¤éĢļ éĥ¨
çıį å¦®
æ°ĶåĢĻ åıĺåĮĸ
åĪĽç«ĭ äºĨ
éĢĨ è½¬
æİ¢éĻ© éĺŁ
æĺĶ æĹ¥
ä½įäºİè¯¥åĽ½ ä¸ľåįĹéĥ¨
« çĹ
Ġ åĽĽ
Ġ style
åĴĮ åĽ½å®¶
è¿Ļ å¯¹
åĨħ å°Ķ
ç«ĭ éĿ¢
æķĻ å®¤
åħ¨ åĬĽ
éĶ ¤
ä¸ĩ èĭ±éķĳ
å¼Ģå§ĭ è¿Ľè¡Į
èı ĩ
ic t
ç®¡çĲĨ å§Ķåĳĺä¼ļ
åĲİæĿ¥ æĪĲä¸º
it ion
æŀª åĩ»
ç»ĵæĿŁ äºĨ
èģļ åĲĪçī©
ç¼º å°ĳ
éļıåĲİ åľ¨
åĨ¬ å¤©
éĺ´ æĢ§
çļĦåĲĮ åĲį
åĽ½å®ī æ³ķ
; "
E l
åħ Ģ
ä¸Ģ åı°
å¹¶ åĪĹ
å¸Ĥ è®®ä¼ļ
æĻ ĥ
çī© ä»¶
ä¸ĸ ä¿Ĺ
è·¯ ç«Ļ
çº¦ 5
æ°´ æŀľ
å·´ æ¯Ķ
æĹł åĬĽ
äº¦ æĽ¾
åŃĺ æ´»
å±Ĥ éĿ¢
åĩºçİ° äºİ
èĥĮ åıĽ
7æľĪ 20æĹ¥
æķ°éĩı çļĦ
æĬµ å¾¡
èĳ¬ ç¤¼
çŁ¥åĲį åº¦
çĭĻ åĩ»
Ġ è¿Ļç§į
çļĦ æĢ§
ä¸Ń åħ´
ä¸Ń åįĹéĥ¨
çĶŁ æ¯į
è¢« ç§°ä½ľ
éģĵ åħ·
è·¯ æĸ¯
åĪĻ æĺ¯åľ¨
åį¡ è½¦
å¸¦ åĽŀ
è§£ åīĸ
å¡Ķ åħĭ
åįĥ åı¶
ä¾§ éĿ¢
æ¢ħ åĪ©
èĴĤ æĸ¯
ä¸½ çļĦ
æ¦Ĥ è¦ģ
å¹³åı° ä¸Ĭ
æĵįä½ľ ç³»ç»Ł
è®²è¿° äºĨ
æİ¢æµĭ åĻ¨
Ġ åĲĦ
åľ¨ å¤ĸ
åľ¨ ä¸ĢäºĽ
æĺ¯ èĩª
å¹¶ è®¤ä¸º
åħ± çĶ¨
ä½Ĩ è¯¥
é£ ĺ
ç½Ĺ æĽ¼
åºĶ ä»ĺ
in i
ç¼ĸ ä¸º
å¡ŀ çī¹
æĻļ ä¼ļ
éģĩ ä¸Ĭ
å±ŀçļĦ åĬ¨çī©
æłĸæģ¯ äºİ
ç²¾ç¥ŀ çĹħ
ç¯® æĿ¿
æĬķåħ¥ æľįåĬ¡
é©¬åħĭ è¥¿
çļĦéĩįè¦ģ æĢ§
çģĮ æºī
åįĴ äºİ
æ»¡æ´² åĽ½
å°¼æĹ¥ åĪ©äºļ
å±Ĭåħ¨åĽ½äººå¤§ ä»£è¡¨
) ãĢĭ
Ġ ä»¥ä¸ĭä¸º
ä»¥ èĩ´
åĩº åĬ¨
èĢĮ åħ¶
å¯¹ ä¸ŃåĽ½
ä»£ ä»·
æĭī å¤«
å¦ ¾
å¤© æ°´
æ¯Ķ åĪ©äºļ
æ£ µ
éĹ¨ ç¥¨
)ãĢģ (
å±Ĥ æ¬¡
é¢Ħ çķĻ
åħ¼ èģĮ
åĪĽä½ľ äºĨ
çĴ §
åĤ¨ å¤ĩ
ä»·åĢ¼ çļĦ
è´« ç©·
éĻª åĲĮ
å¥ł åŁº
è¯ģåĪ¸ äº¤æĺĵæīĢ
æ¤Ń åľĨ
æľīçº¿ çĶµè§Ĩ
S L
Ã ³
Ġ åĲİç»Ń
çļĦ é£İ
çļĦ å¹³åĿĩ
çļĦ è§Ħå®ļ
åľ¨ åľº
åĴĮ è°Ĳ
åľ° çĭ±
éķ¿ è½´
æĸĩ æ¡£
èĪ µ
åı° åĲİ
è¡¨ åĨ³
åŁİ å·´
æĮĩ åĲĳ
åį³ ä¾¿
æ°Ķ æ°Ľ
å¡Ķ æĸ¯
åºĨ åħ¸
æ²¹ çĶ»
é¡º ä½į
7æľĪ 31æĹ¥
åĪļ åĪļ
è¥¿åĮĹ æİ¥
ç¨³å®ļ æĢ§
å±ķç¤º äºĨ
æĬ½ çŃ¾
éĽĩ åĳĺ
è¥¿èĹı èĩªæ²»åĮº
ç¡« éħ¸
" ãĢģ
åľ° ä¸»
åįĹ æľĿ
åĮĹ èĩ³
æ²» æīĢåľ¨
æ°´ éģĵ
åįİ è£Ķ
çīĩ å°¾
å¨ģ åĬĽ
å½ķ åıĸ
çĭ¬ å®¶
è®© ä»ĸä»¬
åĺī åħ´
æĢ»ç»Ł åºľ
åĨĮ å°ģ
èģĶåĲĪåĽ½ æķĻç§ĳæĸĩ
éĩİçĶŁ åĬ¨çī©
äºĮæ°§åĮĸ ç¢³
Ġin Ġ
1 19
Ġ å¸ĥ
Ġ åį°åº¦
å¤ļ å°ĳ
å½ĵ äºĭ
æ¸¯ åºľ
æ±ī åı£
çĶ° çº³è¥¿
é»ĳ æ´ŀ
çľŁ çĲĨ
å¯Į è£ķ
åį´ åľ¨
é©¬æĿ¥ äºļ
æŀ¢ å¯Ĩ
éĢĢå½¹ åĲİ
åıįæĺł äºĨ
åĽļ ç¦ģ
JR ä¸ľæĹ¥æľ¬
ä¸ºé¦ĸ çļĦ
back ground
äºļé©¬ éĢĬ
Ġ ç»ıè¿ĩ
Ġ æľ¬ä½ľ
Ġ colspan
çļĦ M
çļĦ çĶŁäº§
åľ¨ æµ·
ä¸Ģ å®ļçļĦ
ä¸Ń æĭħä»»
ä¸Ń å±Ĥ
æĺ¯ å½ĵæĹ¶
åĴĮ èĭ±åĽ½
çĲ µ
åħ¨ æĸ°çļĦ
è¿Ĳ è½¬
ç»Ł çŃ¹
éĩĳ çļĦ
åį¡ æĻ®
éĿ¢ç§¯ çº¦ä¸º
ç¦ı æĸ¯
æł¹æį® åľ°
èĢĥ è¯ģ
çľĭ ä½ľ
ou se
å°¾ å·´
æ¦Ĥ çİĩ
åĢŁ çĶ¨
ç¼© å°ı
ä»įçĦ¶ æĺ¯
åĪĨç±» æ³ķ
éĻĦåĬł èµĽ
å¥¥å¼Ĺ æ¶ħ
6 åĲį
Ġ ç»´
åľ¨ é«ĺ
è· ¤
ä¸ī é¡¹
çŃī éĹ®é¢ĺ
ç«ĭ å®ª
è° ħ
åı¸ å¾Ĵ
æĹł ç¼ĺ
æĽ´ å®¹æĺĵ
åı¤ å°Ķ
åķ ¶
å°ĳ æŀĹ
ç¬¬äºĮ å¤§
å®¹ è®¸
åī¯ å¸Ĥéķ¿
éĿĴ åĽ¢
190 2å¹´
å°ıç»Ħ èµĽ
åĽ½éĺ² éĥ¨éķ¿
å®īå¾· å°Ķ
çĸı æķ£
çĮĽ çĥĪ
æ·ĺæ±° èµĽ
åĩ¶ æīĭ
col or
å®¦ å®ĺ
å¹¼åĦ¿ åĽŃ
æĺ¯ä½įäºİç¾İåĽ½ å¯ĨèĭıéĩĮå·ŀ
7 åħ¬éĩĮ
Ġ æ³¨
æĺ¯ çĶ¨
ä¸į æĥ³
æĸ° æĺŁ
å² ļ
é©¬ åĭĴ
ä¸ļ ä¸»
ç«Ļ åĲį
éĺ¿ èĤ¯èī²
éĴ ®
ä¸ĵ é¢ĺ
è½¬ åĮĸä¸º
ä¸»è¦ģ æľī
äº¦ ç§°
è¾ĥ æĹ©
16 ä¸ª
åĿĩ åĮĢ
å®¢ æľº
æ´»åĬ¨ ä¸Ń
åĽłä¸º ä»ĸ
éľį å¤«
å®ĩ å¤ļ
åĲ¬ ä¼Ĺ
åŃ¦èĢħ è®¤ä¸º
ãĢģãĢģ ãĢģãĢģ
äºİ198 5å¹´
æ³¨æĦı çļĦæĺ¯
çĸ¼ çĹĽ
( ãĢĬ
Ġ æīĢæľī
çļĦ è½¦ç«Ļ
çļĦ è°ĥæŁ¥
åľ¨ è¢«
ä¸Ģ åĽ½
åħ¶ æ¬¡
ä¿ ¸
å¹¶ çĶ¨
èĭ Ķ
å£ ¹
ä¸ī èı±
æķĻ æĿĲ
å·¥ åĨľ
è®¾ æ³ķ
éħ ļ
æº ¥
è§£ éĽĩ
çļĦä¸Ģ éĥ¨
åĪĴ ä¸º
å®Ĺ æĹ¨
æīĺ å¤«
éĵģè·¯ çº¿
ä¸´ è¿ĳ
æĿ¾ å±±
è½» å¾®
ç¼º çĤ¹
1 åħ¬éĩĮ
9 æľĪ15æĹ¥
Ġ 9æľĪ
Ġ 1986å¹´
Ġ 1982å¹´
çļĦ å½¢è±¡
åľ¨ ä¹Įåħĭåħ°
åľ¨ 2006å¹´
åĴ ½
å¥ ļ
åĩº èī²çļĦ
åĵ ī
çī¹ åĬ¡
ç«ĭ ä¸º
æ°´ æºĲ
éķĩ çļĦ
ä½įäºİ åı°æ¹¾
è®¤ å®ļä¸º
æĺŁ çĲĥ
å°Ħ ç¨ĭ
6æľĪ 10æĹ¥
ä½© éĩĮ
å¸ĮèħĬ è¯Ń
å¡ĳ æĸĻ
åºŀ å¤§
èĢķ åľ°
åĵºä¹³ åĬ¨çī©
åŃĶæ³° å¤§åĮº
ï ¹
Ġ åĽłæŃ¤
Ġ åħīç»ª
æľī æľŁå¾ĴåĪĳ
æ² Ĥ
æ°ĳ ä¿Ĺ
10 æĹ¶
åĬĽ åĴĮ
çĽ¸ éģĩ
åı¸ éĵİ
ä¸¾ éĩį
æłĩ è¯Ĩ
åĪĿ æ¬¡
å¡Ķ æģ©
15 ä¸ª
æķħ å®«
13 3
13 ä¸ª
æĹħ é¦Ĩ
æķĳ æĬ¤
æľºåľº çļĦ
åĪĨå¸ĥäºİ åįĹç¾İæ´²
ç«ŀäºī å¯¹æīĭ
æĪĲäºº æ¸¸æĪı
å¦¥ åįı
æįį åį«
éŃģåĮĹ åħĭ
" âĢĿ
Ġ åķĨä¸ļ
Ġ è½¨éģĵ
éĿ ¶
ä¸İ æĿİ
ç¬ ł
å¤ļ å¤Ħ
é©¬ èĭ±ä¹Ŀ
èµ· æĭħä»»
ç¾İåĽ½ æĶ¿åºľ
é¦Ļæ¸¯ å¤§åŃ¦
åľŁ åı¸
14 ä¸ª
åħ¼ å®¹
åĿļ åĨ³
æİĮ æİ§
ç³ĸ å°¿
ä»·åĢ¼ è§Ĥ
åĽ½éĺ² åĨĽ
ä¹Łå°±æĺ¯ è¯´
åįļè§Ī ä¼ļ
Ġ èµĽ
Ġ çº¢
Ġ 4æľĪ
Ġ ä¸ĭå±ŀ
Ġ 1950å¹´
çļĦ éŁ³
ä¸Ń åįĹ
è¿Ļ ä»½
åįĹ éŁ©
èĩ³ åħĥ
çŁ £
é©¬ åĵĪ
èİ· éĩĬ
ä¹¦ éĿ¢
åıį æ´¾
çº³ çļĦ
çĶ±äºİ åħ¶
ä¾§ å¼ıæľĪåı°
ç¥ĸ æ¯į
ro p
é¡¶ çº§
11æľĪ 30æĹ¥
æ¦ľ é¦ĸ
ç¾½ çĲĥ
éĽ¶ ä»¶
åĩłä¹İ æ²¡æľī
é«ĺçº§ ä¸ŃåŃ¦
10æľĪ2 8æĹ¥
ä»² è£ģ
Ã ¶
Ñ Ģ
Ġ åĲ´
Ġ ä»¥ä¸ĭæĺ¯
éķ į
âĢĿ ).
å®ī èĳ¬
åıĹ è®¿
æĹ¥æľ¬ å¸ĿåĽ½
äººæ°ĳ åħļ
é±¼ ç§ĳçļĦåħ¶ä¸Ńä¸Ģç§į
åĩł å¤©
çħ§ æĺİ
äºĮåįģ ä¸īå¹´
è½¨ è¿¹
çĸĹ æ³ķ
éĢĥ åĪ°
èĭıèģĶ çļĦ
åį· åħ¥
å¹¼ ç¨ļ
8æľĪ2 4æĹ¥
åīĬ åĩı
çļĦ è¯Ħä»·
åľ¨ 2022å¹´
äºº éĢī
çĽ Ķ
çĶŁ ä¸ĭ
åĪĨ è¡Į
åĪĨ åºĹ
è¥¿ è´¡
è¿Ļ å°±æĺ¯
æĸ° åĩłåĨħäºļ
åĲĪ è®¡
çģ ¿
æŀĹ æĸ¯
åł Ģ
ä¾ĭ è¡Į
åħī ç¦Ħ
æł· å¼ı
æĽ¼ è°·
è½½ å®¢
ç»ıæµİ åıĳå±ķ
æĹħ éķ¿
æĸŃ è£Ĥ
èĥĮ åĲİ
èį¯ åĵģ
éĤ® æĬ¥
ä¸ľéĥ¨ çļĦ
é¡¾ å®¢
æĮģç»Ń åĪ°
åħĭéĩĮ å¤«
åĩºèº« äºİ
å¸ĪèĮĥ åŃ¦éĻ¢
é©¬æĭī æĿ¾
æ·¡æ°´ é±¼
éĵĥ æľ¨
çĽ¸åºĶ çļĦ
æ»¥ çĶ¨
è¯ĨåŃĹ çİĩ
( âĢľ
B R
Ġ èį£èªī
çļĦ èĬĤçĽ®
ä¸Ģ éģĵ
è¡ ¬
èµ ģ
åŃ¦ åĴĮ
åħ¬ å¢ĵ
è¿Ļ æĺ¯ä¸Ģä¸ª
æľº èº«
å·¥ åŃ¦éĻ¢
åĲĪ èµĦ
éĢī é¡¹
åŁº åĩĨ
éĥ½ ä»¥
åİŁ å±ŀ
é¢Ĩ ä¸»
æĻ® æľĹ
å¤ª ä¿Ŀ
å¯Ĩ çļĦ
çĶ° ä¸Ń
ç§» èĩ³
è®¸å¤ļ äºº
åĨłåĨĽ èģĶèµĽ
è¿Ļä¸ª è¯į
äºĮåįģ ä¸Ģå¹´
çĤ® å¼¹
190 1å¹´
æħ¢ æħ¢
å¹´ä»£ ä¸º
te xt
èģĤ ä¼¯
æĺ¯åįĹæŀģæ´² çļĦ
çļĦ äºĮ
çļĦ åħ¬åı¸
ä¸º çºªå¿µ
ä»ĸ è¡¨ç¤º
çĶ¨ åĵģ
å¤ļ éĥ¨
å¼Ģ æĶ¯
æĸ° ä»»
çĶµ èį·
å¤© é¹ħ
æĴ ķ
æ£ º
ç¼ĸ çºĤ
çİĩ åħµ
åī¯ å±Ģéķ¿
éĤ¦ èģĶ
æĪĺäºī çĪĨåıĳ
12æľĪ 8æĹ¥
åĬ³ ä¼¦æĸ¯
åģĩ æľŁ
æİ§åĪ¶ åĻ¨
çļĦäºº ç±»
å¹¼ å¹´
åĲĮæł· çļĦ
å¤ĸåĽ½ äºº
æŀ¢ æľº
éĺ¿å°Ķåįĳæĸ¯ å¤§åĮº
ç»° åı·
P a
g a
Ġ åĲĮå¹´
Ġ ä¸Ńåįİæ°ĳåĽ½
Ġ åľ°åĲį
åľ¨ ä¸Ģæ¬¡
ä¸Ģ ä½ĵ
ä¸Ń äºļ
å¤§ åĴĮ
çĲ ħ
å¹¶ äºİåĲĮå¹´
èĢĮ æĪĲä¸º
åĨĽ ä¸Ń
è¢« çĶ¨äºİ
åįĹ æ´ĭ
ä¸ĸ éĶ¦èµĽ
å¥³ åıĭ
ä¼Ĭ åĭĴ
é¸ ł
ä¸Ńå¤® å§Ķåĳĺ
åŃ¦çĶŁ çļĦ
å®ĮæĪĲ çļĦ
8æľĪ 4æĹ¥
è¿ģ å±ħ
èĪŀ æĽ²
å°½ç®¡ å¦ĤæŃ¤
æĲľ å¯»
è¡° éĢĢ
åıĤè°ĭ éĥ¨
éªļ ä¹±
æĳĶ è·¤
çº¢åįģåŃĹ ä¼ļ
éĵģè¾¾å°¼ åı·
ä½įäºİè¯¥åĽ½ ä¸Ńéĥ¨
Ġ ä¾ĭå¦Ĥ
Ġ çĶŁæĢģ
Ġ 1987å¹´
æľī è¶£
ä¸ľ æ¬§
ä¹Ł ä¸º
è¯¥ åĮº
å¤ĸ æĿ¥
æŃ£ åĢ¼
å¤Ħ åľ¨
å²Ľ åĴĮ
èĤ² æľī
åĲĮæĹ¶ åľ¨
åº· å¤į
æĹħ ç¨ĭ
éĥ¨éĺŁ çļĦ
å¥ĳ çº¦
è½¬ç§» èĩ³
åĲŀ å¹¶
çĹķ è¿¹
åı²éĥ½ åįİ
K P
K i
W TA
t ain
Ġ ä¸įè¿ĩ
Ġ 1946å¹´
Ġ 1983å¹´
çļĦ å¼Łå¼Ł
èĢĮ æĿ¥çļĦ
é«ĺ æ¸ħ
çŃī æĸ¹éĿ¢
ç¥ Ĥ
æľŁ å¾ħ
å±± ç«Ļ
ç§ĳ çī¹
åħ³ è¥¿
åħļ éŃģ
åĿĩ çĶ±
çİĩ éĥ¨
å¾Ī å¥½
çĿĢ éĻĨ
èĪ¹ éķ¿
è¿Ľåħ¥ çĽ´è·¯
èĹı ä¹¦
æĺ¥ å¤©
12æľĪ 30æĹ¥
è´µ å¦ĥ
åľĨ æŁ±
è¯ī æ±Ĥ
é¢Ĺ æģĴæĺŁ
æ±½ æ²¹
åıĸæ¶Ī äºĨ
3æľĪ2 6æĹ¥
åŁºåĽł ç»Ħ
å¾Īå¿« å°±
èĬŃ èķ¾
7 æľĪ15æĹ¥
Ġ Be
Ġ 1985å¹´
ä¸Ģ éĿ¢
ä¸Ń è¶ħ
åŃ¦ çłĶç©¶
æ¯ ĵ
åįĹ ç«Ļ
ä»£ å°Ķ
å»º çļĦ
10 äºº
æıĲ åıĸ
åĪĻ è¡¨ç¤º
äº² å±ŀ
åĲī å£«
å½±åĵį åĬĽçļĦ
è¯· æĦ¿
éĢģ ç»Ļ
æĭį åįĸ
åĪ» æľī
å°ıè¯´ å®¶
åĬª æĸ¯
åĬª å°Ķ
å¿ł è¯ļ
åĢĴ å¡Į
æĸ¯ç§ĳ çī¹
9æľĪ2 5æĹ¥
10æľĪ2 6æĹ¥
è¡ĮæĶ¿ä¸Ńå¿ĥ ä¸º
å¹´ å¹¼
æĬ ¨
å®¶ èĩ£
åĪ° åľº
æĸ° æĪĲç«ĭçļĦ
æµ· é»ĺ
è¿Ľ åº¦
è¦ģ åľ¨
æĢ» éĺŁ
å¡ ¾
æŀĹ åĮº
å¡Ķ åĪ©
èĩ´ ä»ķ
åįĩ èĩ³
è¯º äºļ
è¶Ĭ è¿ĩ
å»¶ èĩ³
é©» åĨĽ
æĿ¾ æ±Ł
5æľĪ 31æĹ¥
æŁĲ ä¸Ģ
æįķ æįī
èİī äºļ
åħ¬å¸ĥ äºĨ
æį· åħĭæĸ¯
éļĭ æľĿ
u ck
é Ĭ
ä¸Ń åŃ¦æł¡
æĺ¯ æĿ¥èĩª
éĢ Ĺ
éĹ °
çĶ¨ æ³ķ
å½ĵ åľº
10 ç±³
éĺ¿ æł¼
å¯¼ æķ°
æľª çŁ¥
æ³¢ å¸Į
éĻ¤ å¤ĸ
èĲ¨ çĵ¦
åıĮ è¾¹
ä»ħ åŃĺ
åģľ æ³Ĭ
èĩªçĶ± å¼ı
ç£ ¡
1æľĪ 31æĹ¥
ç©¿ çĿĢ
å°ıæĹ¶ åĲİ
æĹħæ¸¸ ä¸ļ
æıĴ åħ¥
åĪĩå°Ķ å°¼
æ¸´ æľĽ
only include
Ġ ä¸į
æĺ Ĭ
åľ¨ æİ¥åıĹ
åĴĮ ä»ĸ
æ¸ ¥
éĽ ¯
åĬł åĨķ
å² ±
éĩį åĪĽ
12 æľĪ15æĹ¥
åĲĦ å¼ı
çłĶ è®¨
æ³¢ åĬ¨
åĪĿ éĢī
åįı åĲĮ
åħ« åįģ
æĸ½ æĶ¿
çļĩ å®«
å§Ķåĳĺä¼ļ ä¸»ä»»
åĺ ±
å¼¹ æĢ§
çł´ è£Ĥ
æ°¸ æģĴ
æ²¿ çĿĢ
å¢ŀåĬł åĪ°
åĬ¨çī© åĽŃ
æ·· è¡Ģ
åģ¥ èº«
æĶ¹éĿ© å¼ĢæĶ¾
æĭĴç»Ŀ äºĨ
3æľĪ2 8æĹ¥
çĺ ¦
è®¸åı¯ è¯ģ
çĪª åĵĩ
éĢłèĪ¹ åİĤ
é¢Ĩè¡Ķ ä¸»æ¼Ķ
2019åĨłçĬ¶çĹħæ¯ĴçĹħ çĸ«æĥħ
æį·åħĭæĸ¯ æ´Ľ
+ +
2 æĹ¶
e k
h am
Ġ x
çļ ĵ
æľī ä¸įå°ĳ
åĲİ ä»»
ä¹ĭ åŃĻ
æīĢ çŁ¥
äºĮ æľŁ
æİ¥ è¿ŀ
æīĭ åĨĮ
åį¡ æĸ¯çī¹
åİĭ è¿«
è¶³çĲĥ éĶ¦æłĩèµĽ
åĲ¸ è¡Ģ
2011å¹´ 12æľĪ31æĹ¥
189 5å¹´
åĻ¶ å°Ķ
I ON
çļĦ åĪĹè½¦
çļĦ åĬĽéĩı
âĢ ¢
æĶ¿ äºĭ
è¿Ľ åĩº
çĲĨ ä¼ļ
é©¬ èµĽ
ç§ĳ éķ¿
æ¯Ķ çī¹
æĢ» æķĻç»ĥ
æ°´ æĻ¶
æĽ¾ åıĤä¸İ
éª Ĩ
é£İ äºĳ
åıª å¾Ĺ
åĵĪ æł¹
åĨĻ ä¿¡
ç¡® åĪĩ
åĵ¥ çī¹
äº¿ æ¸¯åħĥ
åħ¶ä¸Ń çĶ·
æĵį æİ§
å¢¨ å°Ķ
è´¯ ç©¿
éĺ¿æĭīä¼¯ è¯Ń
äºİ198 9å¹´
æľīæīĢ ä¸įåĲĮ
åĮħæĭ¬ä»¥ä¸ĭ çī©ç§į
åŀĦ æĸŃ
ä½įäºİè¯¥åĽ½ åįĹéĥ¨
æĬ¨ åĩ»
7 æľĪ16æĹ¥
Ġ çī¹
çļĦ çĭ¬ç«ĭ
çļĦ æĶ»åĩ»
åĪ ¹
å¤§ åľ°
åıĬ é¦Ļæ¸¯
æĸ° æ³½è¥¿
å·¥ äºĭ
é©¬ å£«
èµ· åħµ
çº¦ åįł
åħļ æł¡
çĿ ¦
æĶ¶ ç¼©
ä¸»è¦ģ çĶ¨äºİ
ä¸»è¦ģ åĪĨå¸ĥäºİ
åħŃ çĶ²
æĪı æĽ²
æİ¨ æĸŃ
åĭĴ å§Ĩ
è¯º ç»´å¥ĩ
åįĬ éĥ¨
æī¹ åħ¨åĽ½éĩįçĤ¹æĸĩçī©ä¿ĿæĬ¤åįķä½į
åºĦ ä¸ºéĤ»
å¿ħ çĦ¶
èģĶåĲĪ åı°é£İèŃ¦æĬ¥
100 ä¸ĩ
éĢĥ è·ĳ
è¾Ľ åŁº
å¯» å¸¸
ia Ġ
æĩ ĭ
é©³ åĽŀ
ç½Ĺå§Ĩ å°¼
sĠ of
èģĶåĲĪåı°é£İèŃ¦æĬ¥ ä¸Ńå¿ĥ
6 åħ¬éĩĮ
i y
Ġ äººçī©
ä¸Ń è¡¨ç¤º
æł ħ
ä¸į æĺĵ
æĸ¹ ç´¢
è¥¿ æ¬§
åįĹ éĿ¢
200 9
èĩªå·± åľ¨
è®© å¥¹
èĢģ å¹´
éº¦ åı¯
éĽħ åħĭ
èģļ åĲĪ
ä¼ĳ åħ»
èĥ½å¤Ł åľ¨
å½© èī²
ot t
è¾½ ä¸ľ
æĢª åħ½
éĵº è®¾
S D
Ġ æľ¬çīĩ
çļĦ æľĢåĲİ
ä¸İ ç¤¾ä¼ļ
ä»ĸ å¼Ģå§ĭ
åĬł çī¹
æľĢ åı¤èĢģçļĦ
äºļ å¤ª
é©¬ åı¯
çĲĥ æ¯ĶèµĽ
èĤ ļ
åľ£ åľ°
ä¼¯ åĪ©
èĲ½ åħ¥
è½¦ç«Ļ å¤§æ¥¼
åºķ çĽĺ
çĽĸ å°Ķ
ç»ĵæŀĦ çļĦ
ä»ģ å®Ĺ
ç¼ĺ æķħ
çŁ¿ ä¸ļ
æĹº è§Ĵ
7æľĪ2 8æĹ¥
ä¾¦ æŁ¥
æ±Ŀ æĭī
rit ic
æĸ¯å¨ģ å¤«çī¹
çħ½ åĬ¨
X box
Ġ èİ«
çļĦ èĮĥåĽ´
æĸ §
ä¸Ń è¥¿éĥ¨
åĽ½ èĲ¥
åĲİ äºº
è¥¿ è¥¿éĩĮ
åĮĹ ä¸İ
é«ĺ åĬłç´¢
æµ· åĽł
å¸ĥ æŀĹ
ä¸ļ çķĮ
å®ī çļĦ
çĽ¸ å®¹
éĴ Ŀ
çŁ³ çģ°
åķĨ èĪ¹
åľŁ åºĵ
åĲī åĪ©
çīĻ ä¹°
ç¿¼ é¾Ļ
9æľĪ2 3æĹ¥
äºİ198 8å¹´
8æľĪ2 8æĹ¥
æĸ¯å¡Ķ å¤«
è¿Ĳè½½ çģ«ç®Ń
ç³ĸå°¿ çĹħ
N HK
v i
Ġ èĲ¨
Ġ è´Ŀ
åľ¨ åħ¶ä»ĸ
ä¸Ń åĴĮ
ä»¥ çºªå¿µ
ç¬¬ 16
äºļ å°Ķ
æľº åŀĭ
æķĻ æ´¾
éĥ½ åŁİ
æĹł æĦı
åįķ äºº
åıĳçĶŁ äºİ
el la
çĲĥéĺŁ çļĦ
il ver
åĩ¯ æĸĩ
ä½ł çļĦ
æľīä¸Ģ å®ļ
äº® çļĦ
äºİ199 0å¹´
æĲľ éĽĨ
æ¶Ĥ è£ħ
å¼ĹæĭīåŁº ç±³å°Ķ
4 åı·çº¿
F ran
çļĦ éĥ¨éĺŁ
åľ¨ è¿Ļç§į
å¤§ èĭ±
æľī äººåı£
ä¸ª äººçļĦ
æĽ Ļ
çī¹ å·¥
ä¸ľ èİŀ
åı° è¯Ń
ç¥ º
æĭī åĽ¾
å±± åŁİ
ä½Ĩ å¥¹
ä¸¤ ç«¯
åŁº å±Ĥ
å·´ é¡¿
éĹ¨ ä¸ĭ
æľĿ æĹ¥
ç¥ŀ ç¥ĩ
åħī å¹´
ä¸»è¦ģ åľ¨
ç¬¬äºĮ å±Ĭ
åįĥ å¹´
åĦ¿ å²Ľ
ä¹Ŀ å·´
èĲ½ åľ¨
åĨł åĲį
æ£® çļĦ
ä½İ æ¸©
é©» åįİ
7æľĪ 18æĹ¥
è¾ħ å¯¼
åĨ· æĪĺ
åħĪåĲİ åľ¨
10æľĪ2 3æĹ¥
åıĳçĶµ æľº
æĬ¥éģĵ ç§°
2æľĪ2 8æĹ¥
åºŀ å¤§çļĦ
åĳ¨å¹´ çºªå¿µ
æĭ¼ åĨĻ
æĺİæĺŁ èµĽ
8 Ġ
ä¼ļ æĪĺ
ä¸Ĭ ä¹¦
ä¸į è¢«
åıĳ éħµ
èĥ ¤
ä¹ĭ å£°
å¯¹ ä»ĺ
åı¯ ä½ľä¸º
è° ¬
æ¬¡ åħ¨åĽ½
èĤ ĭ
ç»Ł é¢Ĩ
åĽĽ åĨĽ
åį¡ éĢļ
çĽ´ è¾¾
çĻ» åŁº
ä½ı éĻ¢
is ion
éŁ¦ æĸ¯
5æľĪ 10æĹ¥
éĢīæĭ© äºĨ
èķ ī
éĻ¶ çĵ·
æī§å¯¼ çļĦ
åħĭç½Ĺ åŁĥ
å¸¸åĬ¡ å§Ķåĳĺä¼ļ
åĺīä¹ī åİ¿
n er
Ġ æĪĲç«ĭ
çļĦ æĿĥåĬĽ
åľ¨ è¿Ļä¸Ģ
æľī è¿ĩ
åĴĮ çº¦
éĺ ī
ä¸ī å¤©
âĢĿ (),
çİ° å½¹
è½¦ éĹ¨
è¦ģ ä¹Ī
åĲĳ ä¸Ĭ
åī¯ æł¡éķ¿
ç¤¾ä¼ļ åħļ
ç´¢ çĵ¦
æĪ· å¤ĸ
åģļ åĩºäºĨ
å°½ å¿«
è´§ è½¦
å¹³åĿĩ éĻįéĽ¨éĩı
ç¬Ķ è®°
åİ¿çļĦä¸Ģä¸ª åŁİéķĩ
ä½ıå®ħ åĮº
IS O
å¿½ è§Ĩ
Mar k
æ±ķ å¤´
HR Ġ
Twit ter
åįķè¡Į æľ¬
åħĭç½ĹåŁĥ è¥¿äºļ
" -
w ork
â ħ
Ġ åĳ¨
çļĦ äºĶ
çļĦ æĹ§
è® ³
æĺ¯ ç§ĺé²ģ
äºİ Ġ
å¤§ èµı
éĥ ¸
æĹ¥ æĻ·
åĩº å®¶
ä¸į è®¾
åħĭ åĭĴ
é© ¼
ä¸ľ å²¸
é©¬ åħĭæĸ¯
åħ¨ çľģ
ä¸¤ éĥ¨
10 æľĪ15æĹ¥
æ²³ å·Ŀ
å¤§åŃ¦ åĴĮ
å²Ľ ä¸ĬçļĦ
å±Ģ éĽĨåĽ¢
ä»£è¡¨ çļĦ
åįĬ éķ¿è½´
é±¼ äºļçĽ®
çľĭ æĿ¥
ç«ł èĬĤ
åį¢ åį¡
è¶³çĲĥ çĶ²çº§èģĶèµĽ
å¯¼èĩ´ çļĦ
æĳ© æĵ¦
8æľĪ 10æĹ¥
çĮ® ç»Ļ
æ±ĩ æĬ¥
æľīä¸Ģ æĿ¡
æµ·æĭĶé«ĺåº¦ 1
2001å¹´ æĢ»äººåı£
åįĹäº¬ å¸Ĥ
3æľĪ2 5æĹ¥
å¸ĥé²ģ åħĭ
5æľĪ2 5æĹ¥
èµ¶ åĪ°
æĳĦå½± å¸Ī
å¼¯ éģĵ
å°¼åħĭ æĿ¾
1920å¹´ ä»£
æĤł ä¹ħ
æĮīå¯Ł ä½¿
éĺĲ è¿°
åħĭéĩĮæĸ¯èĴĤ å®ī
Ġin ĠtheĠ
Ġæľ¬å±ŀ åĮħæĭ¬ä»¥ä¸ĭçī©ç§į
2 5å¹´
3 æľĪ15æĹ¥
çļĦ 1
çļĦ åĨłåĨĽ
åĲİ æĪĲä¸º
ä¸į äºĨ
å¦ Ħ
æł¼ çº³
çº³ ç±³
åı¯ä»¥ å¾ĹåĪ°
ä»Ĭ å¤©çļĦ
åħ« è¾¾
çĪ± ä¸½ä¸Ŀ
æŀģ å¤§çļĦ
æĸĩåĮĸ åĴĮ
å·¦ å²¸
æĺ¯ä¸Ģ é¡¹
3æľĪ 18æĹ¥
åĩ¯ æĹĭ
èĥ¡ å®ī
å·¥ä¸ļ åĮº
äºļæ´² è¿ĲåĬ¨ä¼ļ
é¡µ å²©
åľ°éĿ¢ è½¦ç«Ļ
æĮĩå®ļ ä¸º
åħ¬å®ī å±Ģ
èµ«å°Ķ è¾ĽåŁº
åº¶ åĲīå£«
Inter national
å®ĩå¤ļ çĶ°
2 åħ¬éĩĮ
Ġ åĨħ
Ġ å¼Ģåıĳ
åľ¨ å·´é»İ
æĺ¯ åŁºäºİ
å¤§ æķĻåłĤ
ä¼ļ äº§çĶŁ
ä¸į éĶĻ
æ´ ½
çĶ¨ æ°´
åĪ© å°Ķ
è¯¥ éķĩ
ä½ĵ åŃĹ
é©¬ æŀĹ
åĽĽ åĽ½
éħ ª
å°ĳ åį¿
è½¬ è®©
èĲ¥ åĪ©
åĩł æ¬¡
6æľĪ 20æĹ¥
5æľĪ2 8æĹ¥
And roid
æĶ¾å°Ħ æĢ§
Ġ a
Ġ ä»ĸåľ¨
Ġ Ex
çļĦ åı¯
çļĦ ç³»ç»Ł
å¤§ æ¦Ĥ
æľī æľºä¼ļ
ä¼ļ é¦Ĩ
å¹³ æģ¯
ä¸ľ éĿ¢
æīĢ ä½ľ
å¤ĸ ç§ĳ
åħ± éĿĴåĽ¢
ä½Ĩ å®ĥ
åħ¨ æ¸¯
æ¯Ķ æĸ¯
æ°´ æīĭ
è§Ĩ ä½ľ
ä¼ł éĹ»
çĿ ¹
ä¼Ĭ çī¹
æĬķ èº«
åĲī æĭī
åĲī ç±³
çĻ¾ èĢģ
çľŁ ç©º
åį´ æĺ¯
åħ» æ®ĸ
çļĦåľ° çĤ¹
çŃ¹ å»º
æĬĹè®® æ´»åĬ¨
åħ¬åĳĬ çīĮ
åĲĪåĶ± åĽ¢
ä¸īéĥ¨ æĽ²
çİĽæł¼ä¸½ çī¹
1 åº§
A A
Ġ ä¸»
çļĦ èĬ±
çļĦ ä¾ĭåŃĲ
ãĢ ķ
åĽ½ èģĶ
æĺ¯ å¾·åĽ½çļĦ
å¤§ åľ°éľĩ
æľī åĬŁ
éĻ ¡
åıĳ æºĲäºİ
èĢĮ è¿Ļ
è¢« å¹¿æ³Ľ
å»º äº¤
çĶµ æĬ¥
æĢ§ ä¸İ
çº¿ ç´¢
å®ī å¤§çķ¥
æł¼ ä¼¦
å±ŀ ä¸ĭçļĦä¸Ģä¸ª
ä¼ł åĬ¨
ç² ª
å¼ķ è¿°
ä¿® è¡Į
en e
é»Ħ åŁĶ
éĺ² çĸ«
æ·± æµ·
åĩł ä½į
éŁ³ä¹Ĳ åŃ¦éĻ¢
éĢĢ ä¼į
ç¬¬ä¸ī çĶ²
7æľĪ 10æĹ¥
èĥ¡ åĲĮ
éļıåĲİ çļĦ
æī§è¡Į å®ĺ
æ±¤ çİĽ
çŀ »
åĹ ľ
ä¹¡è¯ķ ä¸¾äºº
ht t
æĿĢæŃ» äºĨ
éĤ»è¿ĳ çļĦ
å¿ħè¦ģ çļĦ
éĩİæĪĺ åĨĽ
åħ¶ä¸ŃçĶ·æĢ§ ä¸º
æ³¢å¸Į ç±³äºļ
çĻ¾èĢģ æ±ĩ
æĺ¯ æł¹æį®
æľī è½¨çĶµè½¦
åĲİ ä¸º
ä¹ĭ æĺŁ
è¢« äºº
ãĢį (),
äºĭ é¡¹
200 0å¹´ä»£
åĢ ļ
æĹł ç½ª
åı¯ä»¥ å°Ĩ
çļĦä¸Ģ å¤Ħ
å®¢ è§Ĥ
æīį å¼Ģå§ĭ
å½Ĵ å±ŀ
çŃ¾ åĲį
åĪ» æĦı
éĺ´ å½±
ä¼´ éļı
èĳ¡èĲĦ éħĴ
è¿Ŀ èĥĮ
ç±»åŀĭ ä¸º
6æľĪ2 5æĹ¥
çĺ Ł
çĮĽ èĻİ
æ£Ģå¯Ł éĻ¢
æ£ī èĬ±
é¸¦ çīĩ
åĪĨç»Ħ èµĽ
1 æľĪ15æĹ¥
e p
Ġ åĭĴ
Ġ åĨħå®¹
ãĢ Ķ
åĲ Ł
ä»¥ èĩ³
åĲİ çĶ±
å®¶ åº·
èģ Ĩ
æĸ° é²ľ
åĮĹ å²¸
ç§į ç¾¤
éĩį çĶ³
åįİ å¾·
åĽĽ ç§į
å¯¼ èĪª
æ²³ æ°´
åŃĹ æł·
åı¯ä»¥ æĺ¯
åħī ç¢Ł
åŃĺ æĶ¾
çĪ± åĽł
å®Ī åį«
ç¬¬ä¸ī ä¸ª
12æľĪ 18æĹ¥
éĤ® è½®
åĨĽéĺŁ çļĦ
ç»¿ åħļ
ä¿ĥ æĪĲ
ap p
åĸ· å°Ħ
6å²ģ äººåı£
Ġè¯¥åľ° 2001å¹´æĢ»äººåı£
å¸Įä¼¯ æĿ¥
; )
Ġ 1979å¹´
åľ¨ çº½çº¦
ä¸Ń è·¯
åŃ¦ éĥ¨
ä¹ĭ å¤ĸçļĦ
å®¶ éĩĮ
è¥¿ ä¸´
èĩª åį«
æĸ° å¹²çº¿
å¹³ å£¤
äºļ æĸ¯
éģĵ æł¼æĭīæĸ¯
åĲĪ ä¼Ļ
åĮĸ å¦Ĩ
æķ° æľĪ
æģ ¼
æŃ£ å¦Ĥ
ç»´ å¸Į
éĹ¨ åı£
ä¸ĩ æ¸¯åħĥ
ç¥ŀ æĪ·
ç¥ŀ å¥Ī
çĳ Ľ
åĽ½éĻħ è¶³èģĶ
æ¶Ī åĮĸ
èĥĮ éĥ¨
ç½ª çĬ¯
è´¢ åĽ¢
8æľĪ 5æĹ¥
æķ£ å¸ĥ
6æľĪ 12æĹ¥
æĭľ è®¿
çĤ® åı°
éģĩ è§ģ
éľĩ æĥĬ
éĵģéģĵ åħµ
éĽĨä¸Ń èĲ¥
æµ·å²¸ çº¿
æıŃ ç¤º
ä¼ª éĢł
çĽ´è¾ĸ å¸Ĥ
ä¹Įæĭī åľŃ
2 20
3 æ¬¡
R I
l ine
y pe
Ġ è¢«
Ġ çİ°æĹ¶
çļĦ æĬ¥åĳĬ
åľ¨ 2003å¹´
äºº å¿ĥ
ä¸į ç¡®å®ļ
è¥¿ å°¼
æ± Ĳ
éķ¿ éĢĶ
ä¸ľ èĩ³
ç© ¹
çľģ æĶ¿åºľ
å¸ĥ ä»Ģ
èģĶ ä¼ļ
çº¦ 6
éĩĳ æĹ¥
çİĭ åºľ
åī¯ ä¼ļéķ¿
å£° èªī
åĨĻ çľŁ
æīį è¢«
æ»¡ åĪĨ
ç¬¬ä¸ī åĲį
æĶ¯æĮģ çļĦ
et er
10æľĪ 31æĹ¥
8æľĪ 8æĹ¥
åĽº å®ļçļĦ
è¾Ľ äº¥
çº¸ å¸ģ
è¯Ħè®º åĳĺ
ä¸ªæľĪ çļĦ
æĭĵ æīĳ
æıŃ å¹ķ
C S
c enter
è¯ ¬
æİ Ģ
çĶ± åİŁ
é¦ ¨
åı¯ è¿½æº¯èĩ³
æĸ° å¹´
ä»£ ä¹ĭ
èµĽ éģĵ
ä¸ĸ åĩ¯
çľģ å§Ķ
ç¼ ļ
æł¼ å±Ģ
çİĭ æ°ı
åı² è¯Ĺ
æīĭ æĮĩ
æīĭ ç¨¿
in k
è®° è¿°
æ²¡ èĥ½
åī¯ æĢ»çĲĨ
åı¯èĥ½ æľī
æĦŁ åºĶ
å§Ķåĳĺä¼ļ åī¯ä¸»ä»»
ç®Ģ ç§°ä¸º
è®¿ è°Ī
åĨĽäºĭ è¡ĮåĬ¨
æīİ å°Ķ
æĸĩåŃ¦ å¥ĸ
ç¯ĩ æĸĩç«ł
äºļæ´² çĶµè§Ĩ
æĭĽ æĶ¶
æµ¦ ä¸ľ
9æľĪ2 7æĹ¥
10æľĪ2 4æĹ¥
3æľĪ2 7æĹ¥
åĥ§ ä¾£
åĤį æĻļ
èģĶåĲĪåĽ½æķĻç§ĳæĸĩ ç»Ħç»ĩ
çĪ±åĽł æĸ¯åĿ¦
2 çļĦ
4 50
Ġ ä½Ĩæĺ¯
Ġ 1948å¹´
çļĦ æĦıè§ģ
ç» ¸
åľ¨ ä¸ľäº¬
ä¸İ ä¸Ĭ
æĸ¹ æµİ
äºļ çī¹åħ°
ç§ĳ çĽ®
ä¸¤ éĥ¨åĪĨ
æĢ» åĨłåĨĽ
é¦ĸ æĶ¯
åł °
åĩ» åĩº
ç¦ı å·ŀå¸Ĥ
åĻ¨ åĴĮ
éĽ· å¾·
åħ« è·¯åĨĽ
çĥŃ å°Ķ
æĽ¼ æģ©
çĳŀ å®ī
1æľĪ 20æĹ¥
éĢĥ èµ°
èģĮä¸ļ è¶³çĲĥ
è§Ħæ¨¡ æľĢå¤§çļĦ
è¿¹ è±¡
éģį å¸ĥ
åıĽ åĨĽ
6æľĪ2 4æĹ¥
æ±¡ æ°´
ä¼ĺç§Ģ çļĦ
ä½įäºİæ³ķåĽ½ å¤§ä¸ľéĥ¨å¤§åĮº
Ġå¤ĸéĥ¨ è¿ŀç»ĵ
è½¦è·¯ å£«
è¿Ľåħ¥çĽ´è·¯ åĲİ
4 æľĪ15æĹ¥
a x
Ġ æł¡
Ġ å°ıè¡ĮæĺŁ
å¹´ åĪĿ
æĪ į
ä¸Ń åħ¨
æķ Ľ
è¢ į
èĥ ĸ
åĲĮ è¿Ľå£«åĩºèº«
è¿Ľ äºĨ
æķĻ å£«
ä¸ĸ è¢Ń
åŁİ ä¸Ń
ç»Ł å¸ħ
æµģ æ´¾
æĥħ æĻ¯
çº³ ç¨İ
è§£ è¯»
ç¬¬äºĮ çĻ¾
åı¯èĥ½ åľ¨
éº ¾
åıĮ å±Ĥ
éĻĪ è¿°
çķĻ ä¸ĭçļĦ
æĲ ı
é¡º å¤©åºľ
12æľĪ 20æĹ¥
8æľĪ 6æĹ¥
ãĥ Ī
ç§Ł èµģ
é¤Ĳ é¦Ĩ
åĨħéĥ¨ çļĦ
ç¤¾ä¼ļä¸»ä¹ī åħ±åĴĮåĽ½
ç»ĪçĤ¹ ç«Ļ
åĲįäºº åłĤ
æ¸¤ æµ·
ç į
Ġ åĲĮæĹ¶
çļĦ åı¤
ä¸º ä¾ĭ
åĽ½ æŃĮ
ä»¥ ç¡®ä¿Ŀ
ä¸ª åĽ½å®¶
èĢĮ ä¸İ
æµ· åľ°
æīĢ è¿°
ä¹Ł ä»¥
åħ¥ åľº
å±± å³°
åı¸ åı¸éķ¿
å·´ æŀĹ
åı² ä»¥æĿ¥
å¤ª å¤ļ
çļĦä¸Ģ åĪĩ
ä¸ĸçķĮ åĨłåĨĽ
ar m
ä¼¯ éĩĮ
èĪ° è½½
å¯Ł éĻ¢
æ¥¼ é«ĺ
he l
ç½² éķ¿
et Ġ
11æľĪ 8æĹ¥
un t
ä¹° ä¸ĭ
9æľĪ2 4æĹ¥
8æľĪ2 6æĹ¥
åįģåŃĹ åĨĽ
çŃ¾ç½² äºĨ
æĪĲå¹´ äºº
åŃŁåĬłæĭī åĽ½
èĲ¤ å¹ķ
æ®ĭçĸ¾äºº å¥¥æŀĹåĮ¹åħĭè¿ĲåĬ¨ä¼ļ
Gro up
è¯¥çī©ç§įçļĦæ¨¡å¼ıäº§ åľ°åľ¨
: //
é ĳ
Ġ å°Ĩ
çļĦ Ġ
çļĦ èĩªçĶ±
çļĦ é£İæł¼
äºİ åħ¶
æ¯ ¯
å¹¶ èİ·
æµ· åı£
ä¸ī éĹ´
çĶµ åİĤ
çº¿ è½¦ç«Ļ
æģ ¤
æģ ª
å§ĭ åıĳ
åŃ£ é£İ
æļ ±
en c
åĳĬ ç»Ī
æŃ£å¼ı çļĦ
åĽłä¸º åľ¨
æļ´ é£İ
12æľĪ 12æĹ¥
å¼Ģåıĳ èĢħ
åĮºåŁŁ çļĦ
åĩ¯ å°Ķ
ä½© æĪ´
åĲ¬ è¯´
189 6å¹´
å°ıè¡ĮæĺŁ å¸¦
æĶ¹åıĺ äºĨ
ä¾į ä¸ĭ
11æľĪ2 8æĹ¥
æ·® åįĹ
å§Ķä»» ä¸º
Ġ å¾·åĽ½
Ġ TheĠ
çļĦ æĥ³æ³ķ
20 3
çĽ İ
è¿Ļ å¼łä¸ĵè¾ĳ
åįĹ åįİ
åĮĹ ç«Ļ
ä¸ľ ä¸İ
çİ° æľīçļĦ
ä½Ĩ æľī
ä¸¤ åĳ¨
é¦ĸ èĦĳ
åĽĽ æ¬¡
åħļ åĽ¢
ç±» åĬ¨çī©
an y
åĵĪ å§Ĩ
æİ¨ ç§»
at or
ä½İ åİĭ
æĥ³ åĥı
è¿ľ ç¨ĭ
å¹² éģĵ
éļĨ åºĨ
4æľĪ 18æĹ¥
åĩ¯ å°Ķçī¹
ãĢį( ).
åģ¶ çĦ¶
çģ¯ å¡Ķ
3æľĪ2 9æĹ¥
12æľĪ2 6æĹ¥
è¾¾æĪĲ åįıè®®
ç½Ĺä¼¯ éĢĬ
éĤ¯ éĥ¸
7 åı·
8 åĲį
u la
Ġ 24
Ġ èµĽäºĭ
ä¹ į
åľ¨ è¿ĩåİ»
æĺ¯ ä¸Ń
ä¼ļ åĴĮ
ä¸Ĭ ä¸İ
çĶ± è¯¥
æ°ĳ èĲ¥
åħĭ æľį
åĨħ è®¾æľī
æľŁ éĻĲ
åŁº äºļ
ä¸¾ åĬ¨
çļĦä¸Ģ ä»½
çļĦä¸Ģ éĥ¨ä»½
æľį çĶ¨
å½ķ å¾Ĺ
åĩĨ åĪĻ
ä¼¦ çī¹
è¶Ĭ éĩİ
æ¸© å·ŀ
çĨ ¹
7æľĪ 12æĹ¥
å®¡ è®¯
ub l
è´¯ éĢļ
æĮĳæĪĺ èµĽ
æĤ² åī§
æ¾Ħ æ¸ħ
å½±è¯Ħ äºº
æĻ¤ å£«
7 åĲį
9 åı·
A åŀĭ
F i
Ġ åŁĥ
çļĦ æī¹è¯Ħ
å¹ Į
æ³ »
è¥¿ å¤ªå¹³æ´ĭ
ä¸ĭ éĿ¢
åįĹ å¼Ģ
ä¸¤ äººçļĦ
éĺ¿ å¾·
èĭı æ¢ħ
çĶ· åıĭ
çº¢ è¢ľ
ä¸ĸçºª æľ«
ic s
ç«ł Ġ
åĪ¶ä½ľ äºĨ
å»ºç«ĭ ä¸Ģä¸ª
25 00
12æľĪ 7æĹ¥
è±ª æ£®
æ®ĭ çķĻ
æĺŁæľŁ åħŃ
ä¸įè¶³ ä»¥
æľīæľº åĮĸåĲĪçī©
åħĭæŀĹ é¡¿
çĮľ æµĭ
b le
çļĦ çļĦ
å¤§ ä¸º
åŁ ķ
ä¸Ĭ ä¼ł
åĨĽ ç±į
æĶ¿ æ³ķ
çľģ çļĦä¸Ģä¸ª
çĽ¸ éļĶ
éĥ½ å¯ŁéĻ¢
åı² åŃ¦å®¶
è§Ĩ å¯Ł
å®ĥ ä¸İ
çĻ½ å¤©
åİĨåı² çļĦ
æľį ä»İ
é¦Ĩ éķ¿
å®¹ åĻ¨
æ²Ļ å°Ķ
çĻ¾ åĲĪ
at ch
åĥı ç´ł
æ³° æĻ¤å£«
ä¾¿ å®ľ
å¯Į è±ª
å¸ĮæľĽ èĥ½
å¾Ĳ å·ŀ
å¸ĥé²ģ åħĭæŀĹ
éĺ® ç¦ı
å»¶éķ¿ èĩ³
éĺ´è°ĭ è®º
6 åı·
a ve
çļĦ æľįåĬ¡
ä¸Ģ ä»£
åĴ ª
åĨĽ éĺĢ
éĩĮ å¤«
çĶµ è½¦ç«Ļ
å®ī æĬļ
10 æľĪ17æĹ¥
æł¼ è¾¾
æĶ¹ ä»¥
åĬ¡ å±Ģ
202 5
çĥ Ľ
åŀĭ æŁ´æ²¹æľºè½¦
11 æľĪ15æĹ¥
ç»Ń ä½ľ
å§Ķåĳĺ éķ¿
çĪ± ä¸ģåł¡
ä»ĸçļĦ åĦ¿åŃĲ
ç²¾ åº¦
è¶³çĲĥ è¶ħçº§èģĶèµĽ
el Ġ
åª Ľ
ä¸Ńåįİäººæ°ĳåħ±åĴĮåĽ½ é©»
å°¾ é³į
åĪĳ æ³ķ
åĮ¹ éħį
æĢ¥ æĢ§
æ½ľ åĬĽ
èĽĭçĻ½ éħ¶
