{
  "version": "1.0",
  "truncation": null,
  "padding": null,
  "added_tokens": [
    {
      "id": 0,
      "content": "[UNK]",
      "single_word": false,
      "lstrip": false,
      "rstrip": false,
      "normalized": false,
      "special": true
    },
    {
      "id": 1,
      "content": "[PAD]",
      "single_word": false,
      "lstrip": false,
      "rstrip": false,
      "normalized": false,
      "special": true
    },
    {
      "id": 2,
      "content": "[BOS]",
      "single_word": false,
      "lstrip": false,
      "rstrip": false,
      "normalized": false,
      "special": true
    },
    {
      "id": 3,
      "content": "[EOS]",
      "single_word": false,
      "lstrip": false,
      "rstrip": false,
      "normalized": false,
      "special": true
    }
  ],
  "normalizer": {
    "type": "NFKC"
  },
  "pre_tokenizer": null,
  "post_processor": null,
  "decoder": null,
  "model": {
    "type": "BPE",
    "dropout": null,
    "unk_token": "[UNK]",
    "continuing_subword_prefix": null,
    "end_of_word_suffix": null,
    "fuse_unk": false,
    "byte_fallback": false,
    "ignore_merges": false,
    "vocab": {
      "[UNK]": 0,
      "[PAD]": 1,
      "[BOS]": 2,
      "[EOS]": 3,
      "!": 4,
      "\"": 5,
      "%": 6,
      "'": 7,
      "(": 8,
      ")": 9,
      "*": 10,
      "+": 11,
      ",": 12,
      "-": 13,
      ".": 14,
      "/": 15,
      "0": 16,
      "1": 17,
      "2": 18,
      "3": 19,
      "4": 20,
      "5": 21,
      "6": 22,
      "7": 23,
      "8": 24,
      "9": 25,
      ":": 26,
      ";": 27,
      "<": 28,
      "=": 29,
      ">": 30,
      "?": 31,
      "A": 32,
      "B": 33,
      "C": 34,
      "D": 35,
      "E": 36,
      "F": 37,
      "G": 38,
      "H": 39,
      "I": 40,
      "J": 41,
      "K": 42,
      "L": 43,
      "M": 44,
      "N": 45,
      "O": 46,
      "P": 47,
      "Q": 48,
      "R": 49,
      "S": 50,
      "T": 51,
      "U": 52,
      "V": 53,
      "W": 54,
      "X": 55,
      "Y": 56,
      "Z": 57,
      "[": 58,
      "]": 59,
      "^": 60,
      "_": 61,
      "`": 62,
      "a": 63,
      "b": 64,
      "c": 65,
      "d": 66,
      "e": 67,
      "f": 68,
      "g": 69,
      "h": 70,
      "i": 71,
      "j": 72,
      "k": 73,
      "l": 74,
      "m": 75,
      "n": 76,
      "o": 77,
      "p": 78,
      "q": 79,
      "r": 80,
      "s": 81,
      "t": 82,
      "u": 83,
      "v": 84,
      "w": 85,
      "x": 86,
      "y": 87,
      "z": 88,
      "{": 89,
      "|": 90,
      "}": 91,
      "~": 92,
      "": 93,
      "": 94,
      "": 95,
      "": 96,
      "": 97,
      "¡": 98,
      "¢": 99,
      "£": 100,
      "¤": 101,
      "¥": 102,
      "¦": 103,
      "§": 104,
      "©": 105,
      "¬": 106,
      "­": 107,
      "°": 108,
      "±": 109,
      "·": 110,
      "»": 111,
      "¿": 112,
      "Ó": 113,
      "×": 114,
      "ç": 115,
      "ï": 116,
      "û": 117,
      "Œ": 118,
      "œ": 119,
      "Š": 120,
      "Ÿ": 121,
      "Ž": 122,
      "ž": 123,
      "ƍ": 124,
      "ƒ": 125,
      "ˆ": 126,
      "́": 127,
      "̃": 128,
      "̄": 129,
      "̈": 130,
      "̧": 131,
      "μ": 132,
      "ᄀ": 133,
      "ᄁ": 134,
      "ᄂ": 135,
      "ᄃ": 136,
      "ᄄ": 137,
      "ᄅ": 138,
      "ᄆ": 139,
      "ᄇ": 140,
      "ᄈ": 141,
      "ᄉ": 142,
      "ᄊ": 143,
      "ᄋ": 144,
      "ᄌ": 145,
      "ᄍ": 146,
      "ᄎ": 147,
      "ᄏ": 148,
      "ᄐ": 149,
      "ᄑ": 150,
      "ᄒ": 151,
      "ᄞ": 152,
      "ᄠ": 153,
      "ᄡ": 154,
      "ᄧ": 155,
      "ᄫ": 156,
      "ᄭ": 157,
      "ᄯ": 158,
      "ᄲ": 159,
      "ᄶ": 160,
      "ᅀ": 161,
      "ᅌ": 162,
      "ᅙ": 163,
      "ᅟ": 164,
      "ᅡ": 165,
      "ᅢ": 166,
      "ᅣ": 167,
      "ᅥ": 168,
      "ᅦ": 169,
      "ᅧ": 170,
      "ᅨ": 171,
      "ᅩ": 172,
      "ᅪ": 173,
      "ᅫ": 174,
      "ᅬ": 175,
      "ᅭ": 176,
      "ᅮ": 177,
      "ᅯ": 178,
      "ᅱ": 179,
      "ᅲ": 180,
      "ᅳ": 181,
      "ᅴ": 182,
      "ᅵ": 183,
      "ᆍ": 184,
      "ᆞ": 185,
      "ᆫ": 186,
      "ᆯ": 187,
      "ᆷ": 188,
      "ᆺ": 189,
      "–": 190,
      "—": 191,
      "―": 192,
      "‘": 193,
      "’": 194,
      "‚": 195,
      "“": 196,
      "”": 197,
      "„": 198,
      "†": 199,
      "‡": 200,
      "•": 201,
      "‰": 202,
      "‹": 203,
      "›": 204,
      "※": 205,
      "⁄": 206,
      "€": 207,
      "∞": 208,
      "≡": 209,
      "≪": 210,
      "≫": 211,
      "⊙": 212,
      "─": 213,
      "┌": 214,
      "└": 215,
      "╴": 216,
      "■": 217,
      "□": 218,
      "▧": 219,
      "▲": 220,
      "△": 221,
      "▼": 222,
      "▽": 223,
      "◇": 224,
      "◉": 225,
      "○": 226,
      "◎": 227,
      "●": 228,
      "◯": 229,
      "★": 230,
      "☉": 231,
      "☒": 232,
      "⻏": 233,
      "、": 234,
      "。": 235,
      "々": 236,
      "「": 237,
      "」": 238,
      "『": 239,
      "』": 240,
      "【": 241,
      "】": 242,
      "〓": 243,
      "〔": 244,
      "〕": 245,
      "あ": 246,
      "い": 247,
      "う": 248,
      "え": 249,
      "お": 250,
      "か": 251,
      "が": 252,
      "き": 253,
      "ぎ": 254,
      "く": 255,
      "ぐ": 256,
      "け": 257,
      "げ": 258,
      "こ": 259,
      "さ": 260,
      "ざ": 261,
      "し": 262,
      "じ": 263,
      "す": 264,
      "ず": 265,
      "せ": 266,
      "そ": 267,
      "ぞ": 268,
      "た": 269,
      "だ": 270,
      "ち": 271,
      "つ": 272,
      "づ": 273,
      "て": 274,
      "で": 275,
      "と": 276,
      "ど": 277,
      "な": 278,
      "に": 279,
      "ぬ": 280,
      "ね": 281,
      "の": 282,
      "は": 283,
      "ば": 284,
      "ぱ": 285,
      "ひ": 286,
      "び": 287,
      "ふ": 288,
      "ぶ": 289,
      "へ": 290,
      "べ": 291,
      "ほ": 292,
      "ぼ": 293,
      "ま": 294,
      "み": 295,
      "む": 296,
      "め": 297,
      "も": 298,
      "や": 299,
      "ゆ": 300,
      "よ": 301,
      "ら": 302,
      "り": 303,
      "る": 304,
      "れ": 305,
      "ろ": 306,
      "ゎ": 307,
      "わ": 308,
      "ゐ": 309,
      "を": 310,
      "ん": 311,
      "゙": 312,
      "ゝ": 313,
      "ゞ": 314,
      "ア": 315,
      "イ": 316,
      "ゥ": 317,
      "ウ": 318,
      "エ": 319,
      "オ": 320,
      "カ": 321,
      "ガ": 322,
      "キ": 323,
      "ギ": 324,
      "ク": 325,
      "グ": 326,
      "ケ": 327,
      "ゲ": 328,
      "コ": 329,
      "ゴ": 330,
      "サ": 331,
      "ザ": 332,
      "シ": 333,
      "ジ": 334,
      "ス": 335,
      "ズ": 336,
      "セ": 337,
      "ゼ": 338,
      "ソ": 339,
      "ゾ": 340,
      "タ": 341,
      "ダ": 342,
      "チ": 343,
      "ヂ": 344,
      "ッ": 345,
      "ツ": 346,
      "ヅ": 347,
      "テ": 348,
      "デ": 349,
      "ト": 350,
      "ド": 351,
      "ナ": 352,
      "ニ": 353,
      "ヌ": 354,
      "ネ": 355,
      "ノ": 356,
      "ハ": 357,
      "バ": 358,
      "パ": 359,
      "ヒ": 360,
      "ビ": 361,
      "ピ": 362,
      "フ": 363,
      "ブ": 364,
      "プ": 365,
      "ヘ": 366,
      "ベ": 367,
      "ペ": 368,
      "ホ": 369,
      "ボ": 370,
      "ポ": 371,
      "マ": 372,
      "ミ": 373,
      "ム": 374,
      "メ": 375,
      "モ": 376,
      "ャ": 377,
      "ヤ": 378,
      "ュ": 379,
      "ユ": 380,
      "ヨ": 381,
      "ラ": 382,
      "リ": 383,
      "ル": 384,
      "レ": 385,
      "ロ": 386,
      "ワ": 387,
      "ヰ": 388,
      "ヱ": 389,
      "ヲ": 390,
      "ン": 391,
      "ー": 392,
      "ꊰ": 393,
      "ꊲ": 394,
      "ꊳ": 395,
      "ꊷ": 396,
      "꜐": 397,
      "ꝯ": 398,
      "Ꝼ": 399,
      "꞉": 400,
      "ꞿ": 401,
      "ꮀ": 402,
      "가": 403,
      "각": 404,
      "간": 405,
      "갈": 406,
      "갉": 407,
      "갋": 408,
      "감": 409,
      "갑": 410,
      "값": 411,
      "갓": 412,
      "갔": 413,
      "강": 414,
      "갖": 415,
      "갗": 416,
      "같": 417,
      "갚": 418,
      "갛": 419,
      "개": 420,
      "객": 421,
      "갠": 422,
      "갤": 423,
      "갬": 424,
      "갭": 425,
      "갯": 426,
      "갱": 427,
      "갸": 428,
      "갹": 429,
      "걀": 430,
      "걔": 431,
      "걜": 432,
      "거": 433,
      "걱": 434,
      "걲": 435,
      "건": 436,
      "걷": 437,
      "걸": 438,
      "검": 439,
      "겁": 440,
      "것": 441,
      "겄": 442,
      "겅": 443,
      "겉": 444,
      "겊": 445,
      "게": 446,
      "겐": 447,
      "겔": 448,
      "겜": 449,
      "겝": 450,
      "겟": 451,
      "겠": 452,
      "겡": 453,
      "겨": 454,
      "격": 455,
      "겪": 456,
      "견": 457,
      "결": 458,
      "겸": 459,
      "겹": 460,
      "겻": 461,
      "겼": 462,
      "경": 463,
      "겿": 464,
      "곁": 465,
      "계": 466,
      "곊": 467,
      "곌": 468,
      "곕": 469,
      "곗": 470,
      "고": 471,
      "곡": 472,
      "곤": 473,
      "곧": 474,
      "골": 475,
      "곬": 476,
      "곰": 477,
      "곱": 478,
      "곳": 479,
      "공": 480,
      "곶": 481,
      "곷": 482,
      "곺": 483,
      "곻": 484,
      "과": 485,
      "곽": 486,
      "관": 487,
      "괄": 488,
      "괌": 489,
      "괏": 490,
      "광": 491,
      "괘": 492,
      "괜": 493,
      "괫": 494,
      "괭": 495,
      "괴": 496,
      "괵": 497,
      "괸": 498,
      "괼": 499,
      "굀": 500,
      "굄": 501,
      "굉": 502,
      "교": 503,
      "구": 504,
      "국": 505,
      "군": 506,
      "굳": 507,
      "굴": 508,
      "굵": 509,
      "굶": 510,
      "굷": 511,
      "굻": 512,
      "굼": 513,
      "굽": 514,
      "굿": 515,
      "궀": 516,
      "궁": 517,
      "궂": 518,
      "궆": 519,
      "궈": 520,
      "권": 521,
      "궐": 522,
      "궤": 523,
      "귀": 524,
      "귈": 525,
      "귊": 526,
      "귐": 527,
      "귑": 528,
      "귓": 529,
      "규": 530,
      "균": 531,
      "귤": 532,
      "귯": 533,
      "그": 534,
      "극": 535,
      "근": 536,
      "귿": 537,
      "글": 538,
      "긁": 539,
      "긇": 540,
      "금": 541,
      "급": 542,
      "긋": 543,
      "긍": 544,
      "긑": 545,
      "긔": 546,
      "긘": 547,
      "긜": 548,
      "긧": 549,
      "기": 550,
      "긱": 551,
      "긴": 552,
      "길": 553,
      "긺": 554,
      "김": 555,
      "깁": 556,
      "깃": 557,
      "깅": 558,
      "깊": 559,
      "까": 560,
      "깍": 561,
      "깎": 562,
      "깐": 563,
      "깔": 564,
      "깜": 565,
      "깝": 566,
      "깟": 567,
      "깡": 568,
      "깣": 569,
      "깨": 570,
      "깩": 571,
      "깬": 572,
      "깰": 573,
      "깸": 574,
      "깹": 575,
      "깻": 576,
      "깽": 577,
      "꺄": 578,
      "꺠": 579,
      "꺼": 580,
      "꺽": 581,
      "꺾": 582,
      "껀": 583,
      "껄": 584,
      "껌": 585,
      "껍": 586,
      "껏": 587,
      "껑": 588,
      "께": 589,
      "껜": 590,
      "껠": 591,
      "껨": 592,
      "껩": 593,
      "껬": 594,
      "껴": 595,
      "껼": 596,
      "꼇": 597,
      "꼈": 598,
      "꼐": 599,
      "꼬": 600,
      "꼭": 601,
      "꼰": 602,
      "꼴": 603,
      "꼼": 604,
      "꼽": 605,
      "꼿": 606,
      "꽁": 607,
      "꽂": 608,
      "꽃": 609,
      "꽈": 610,
      "꽉": 611,
      "꽝": 612,
      "꽤": 613,
      "꽬": 614,
      "꽹": 615,
      "꾀": 616,
      "꾜": 617,
      "꾸": 618,
      "꾹": 619,
      "꾼": 620,
      "꾿": 621,
      "꿀": 622,
      "꿇": 623,
      "꿈": 624,
      "꿉": 625,
      "꿋": 626,
      "꿍": 627,
      "꿔": 628,
      "꿩": 629,
      "꿰": 630,
      "뀀": 631,
      "뀌": 632,
      "뀐": 633,
      "뀔": 634,
      "끄": 635,
      "끈": 636,
      "끊": 637,
      "끌": 638,
      "끍": 639,
      "끓": 640,
      "끔": 641,
      "끗": 642,
      "끙": 643,
      "끝": 644,
      "끠": 645,
      "끵": 646,
      "끼": 647,
      "끽": 648,
      "낀": 649,
      "낄": 650,
      "낊": 651,
      "낌": 652,
      "낏": 653,
      "낒": 654,
      "낓": 655,
      "나": 656,
      "낙": 657,
      "난": 658,
      "낞": 659,
      "낟": 660,
      "날": 661,
      "낡": 662,
      "남": 663,
      "납": 664,
      "낫": 665,
      "났": 666,
      "낭": 667,
      "낮": 668,
      "낯": 669,
      "낱": 670,
      "낳": 671,
      "내": 672,
      "낵": 673,
      "낸": 674,
      "낼": 675,
      "냄": 676,
      "냅": 677,
      "냇": 678,
      "냈": 679,
      "냉": 680,
      "냎": 681,
      "냐": 682,
      "냑": 683,
      "냔": 684,
      "냠": 685,
      "냥": 686,
      "너": 687,
      "넉": 688,
      "넋": 689,
      "넌": 690,
      "널": 691,
      "넒": 692,
      "넓": 693,
      "넘": 694,
      "넙": 695,
      "넛": 696,
      "넜": 697,
      "넝": 698,
      "넣": 699,
      "네": 700,
      "넥": 701,
      "넨": 702,
      "넬": 703,
      "넴": 704,
      "넵": 705,
      "넷": 706,
      "넹": 707,
      "넾": 708,
      "녀": 709,
      "녁": 710,
      "년": 711,
      "녈": 712,
      "념": 713,
      "녑": 714,
      "녓": 715,
      "녔": 716,
      "녕": 717,
      "녚": 718,
      "녜": 719,
      "녯": 720,
      "노": 721,
      "녹": 722,
      "논": 723,
      "녾": 724,
      "놀": 725,
      "놈": 726,
      "놉": 727,
      "놋": 728,
      "농": 729,
      "높": 730,
      "놓": 731,
      "놔": 732,
      "놧": 733,
      "놨": 734,
      "뇌": 735,
      "뇨": 736,
      "뇸": 737,
      "뇽": 738,
      "눀": 739,
      "누": 740,
      "눅": 741,
      "눈": 742,
      "눌": 743,
      "눔": 744,
      "눕": 745,
      "눗": 746,
      "눞": 747,
      "눠": 748,
      "뉀": 749,
      "뉘": 750,
      "뉠": 751,
      "뉴": 752,
      "뉵": 753,
      "뉼": 754,
      "늄": 755,
      "늅": 756,
      "늉": 757,
      "늊": 758,
      "늋": 759,
      "늏": 760,
      "느": 761,
      "늑": 762,
      "는": 763,
      "늘": 764,
      "늙": 765,
      "늟": 766,
      "늠": 767,
      "늡": 768,
      "늣": 769,
      "능": 770,
      "늦": 771,
      "늧": 772,
      "늩": 773,
      "늬": 774,
      "늭": 775,
      "늰": 776,
      "늳": 777,
      "늴": 778,
      "닁": 779,
      "니": 780,
      "닉": 781,
      "닊": 782,
      "닌": 783,
      "닐": 784,
      "닑": 785,
      "님": 786,
      "닙": 787,
      "닛": 788,
      "닜": 789,
      "닝": 790,
      "닞": 791,
      "닠": 792,
      "닢": 793,
      "닣": 794,
      "다": 795,
      "닥": 796,
      "닦": 797,
      "단": 798,
      "닫": 799,
      "달": 800,
      "닭": 801,
      "닮": 802,
      "닯": 803,
      "닲": 804,
      "닳": 805,
      "담": 806,
      "답": 807,
      "닷": 808,
      "당": 809,
      "닿": 810,
      "대": 811,
      "댁": 812,
      "댄": 813,
      "댈": 814,
      "댐": 815,
      "댑": 816,
      "댓": 817,
      "댔": 818,
      "댕": 819,
      "댜": 820,
      "댤": 821,
      "댬": 822,
      "댭": 823,
      "댯": 824,
      "댱": 825,
      "덀": 826,
      "덊": 827,
      "더": 828,
      "덕": 829,
      "던": 830,
      "덜": 831,
      "덟": 832,
      "덤": 833,
      "덥": 834,
      "덧": 835,
      "덩": 836,
      "덮": 837,
      "데": 838,
      "덱": 839,
      "덴": 840,
      "델": 841,
      "뎀": 842,
      "뎁": 843,
      "뎃": 844,
      "뎅": 845,
      "뎌": 846,
      "뎍": 847,
      "뎐": 848,
      "뎔": 849,
      "뎗": 850,
      "뎜": 851,
      "뎡": 852,
      "뎨": 853,
      "뎬": 854,
      "도": 855,
      "독": 856,
      "돈": 857,
      "돊": 858,
      "돋": 859,
      "돌": 860,
      "돍": 861,
      "돔": 862,
      "돕": 863,
      "돗": 864,
      "동": 865,
      "돛": 866,
      "돝": 867,
      "돠": 868,
      "돤": 869,
      "돨": 870,
      "돼": 871,
      "됊": 872,
      "됏": 873,
      "됐": 874,
      "되": 875,
      "된": 876,
      "될": 877,
      "됨": 878,
      "됩": 879,
      "됫": 880,
      "됭": 881,
      "됴": 882,
      "둀": 883,
      "둉": 884,
      "두": 885,
      "둑": 886,
      "둔": 887,
      "둘": 888,
      "둙": 889,
      "둟": 890,
      "둠": 891,
      "둡": 892,
      "둣": 893,
      "둥": 894,
      "둼": 895,
      "둿": 896,
      "뒀": 897,
      "뒤": 898,
      "뒬": 899,
      "뒷": 900,
      "뒹": 901,
      "듀": 902,
      "듁": 903,
      "듈": 904,
      "듊": 905,
      "듐": 906,
      "듕": 907,
      "드": 908,
      "득": 909,
      "든": 910,
      "듣": 911,
      "들": 912,
      "듥": 913,
      "듦": 914,
      "듧": 915,
      "듬": 916,
      "듭": 917,
      "듯": 918,
      "등": 919,
      "듸": 920,
      "듹": 921,
      "듼": 922,
      "딀": 923,
      "딈": 924,
      "딉": 925,
      "딋": 926,
      "딍": 927,
      "디": 928,
      "딕": 929,
      "딘": 930,
      "딛": 931,
      "딜": 932,
      "딤": 933,
      "딥": 934,
      "딧": 935,
      "딩": 936,
      "딪": 937,
      "따": 938,
      "딱": 939,
      "딴": 940,
      "딸": 941,
      "딿": 942,
      "땀": 943,
      "땁": 944,
      "땃": 945,
      "땅": 946,
      "땋": 947,
      "때": 948,
      "땍": 949,
      "땐": 950,
      "땔": 951,
      "땜": 952,
      "땡": 953,
      "떄": 954,
      "떙": 955,
      "떠": 956,
      "떡": 957,
      "떤": 958,
      "떨": 959,
      "떰": 960,
      "떳": 961,
      "떴": 962,
      "떵": 963,
      "떻": 964,
      "떼": 965,
      "떽": 966,
      "뗀": 967,
      "뗄": 968,
      "뗌": 969,
      "뗍": 970,
      "뗏": 971,
      "뗑": 972,
      "또": 973,
      "똑": 974,
      "똔": 975,
      "똘": 976,
      "똥": 977,
      "뙈": 978,
      "뙤": 979,
      "뚜": 980,
      "뚝": 981,
      "뚤": 982,
      "뚫": 983,
      "뚯": 984,
      "뚱": 985,
      "뛀": 986,
      "뛰": 987,
      "뛴": 988,
      "뛸": 989,
      "뜀": 990,
      "뜃": 991,
      "뜌": 992,
      "뜨": 993,
      "뜩": 994,
      "뜬": 995,
      "뜯": 996,
      "뜰": 997,
      "뜸": 998,
      "뜻": 999,
      "띀": 1000,
      "띄": 1001,
      "띈": 1002,
      "띊": 1003,
      "띔": 1004,
      "띙": 1005,
      "띠": 1006,
      "띤": 1007,
      "띨": 1008,
      "띳": 1009,
      "라": 1010,
      "락": 1011,
      "란": 1012,
      "랄": 1013,
      "람": 1014,
      "랍": 1015,
      "랏": 1016,
      "랐": 1017,
      "랑": 1018,
      "랗": 1019,
      "래": 1020,
      "랙": 1021,
      "랜": 1022,
      "랠": 1023,
      "램": 1024,
      "랩": 1025,
      "랫": 1026,
      "랬": 1027,
      "랭": 1028,
      "랴": 1029,
      "략": 1030,
      "랸": 1031,
      "랼": 1032,
      "럀": 1033,
      "럄": 1034,
      "럅": 1035,
      "량": 1036,
      "럔": 1037,
      "러": 1038,
      "럭": 1039,
      "런": 1040,
      "럴": 1041,
      "럼": 1042,
      "럽": 1043,
      "럿": 1044,
      "렀": 1045,
      "렁": 1046,
      "렇": 1047,
      "레": 1048,
      "렉": 1049,
      "렌": 1050,
      "렐": 1051,
      "렘": 1052,
      "렙": 1053,
      "렛": 1054,
      "렝": 1055,
      "렡": 1056,
      "렢": 1057,
      "려": 1058,
      "력": 1059,
      "련": 1060,
      "렬": 1061,
      "렴": 1062,
      "렵": 1063,
      "렷": 1064,
      "렸": 1065,
      "령": 1066,
      "례": 1067,
      "롁": 1068,
      "롄": 1069,
      "롊": 1070,
      "롓": 1071,
      "로": 1072,
      "록": 1073,
      "론": 1074,
      "롤": 1075,
      "롬": 1076,
      "롭": 1077,
      "롯": 1078,
      "롰": 1079,
      "롱": 1080,
      "롴": 1081,
      "롸": 1082,
      "롹": 1083,
      "뢰": 1084,
      "뢴": 1085,
      "룊": 1086,
      "료": 1087,
      "룔": 1088,
      "룝": 1089,
      "룡": 1090,
      "루": 1091,
      "룩": 1092,
      "룬": 1093,
      "룰": 1094,
      "룸": 1095,
      "룹": 1096,
      "룻": 1097,
      "룽": 1098,
      "뤀": 1099,
      "뤄": 1100,
      "뤗": 1101,
      "뤠": 1102,
      "뤨": 1103,
      "뤳": 1104,
      "뤼": 1105,
      "륀": 1106,
      "륊": 1107,
      "류": 1108,
      "륙": 1109,
      "륜": 1110,
      "률": 1111,
      "륨": 1112,
      "륭": 1113,
      "르": 1114,
      "륵": 1115,
      "른": 1116,
      "를": 1117,
      "름": 1118,
      "릅": 1119,
      "릇": 1120,
      "릉": 1121,
      "릊": 1122,
      "릎": 1123,
      "릐": 1124,
      "리": 1125,
      "릭": 1126,
      "린": 1127,
      "릴": 1128,
      "림": 1129,
      "립": 1130,
      "릿": 1131,
      "링": 1132,
      "맆": 1133,
      "마": 1134,
      "막": 1135,
      "맊": 1136,
      "만": 1137,
      "맍": 1138,
      "많": 1139,
      "맏": 1140,
      "말": 1141,
      "맑": 1142,
      "맒": 1143,
      "맘": 1144,
      "맙": 1145,
      "맛": 1146,
      "망": 1147,
      "맞": 1148,
      "맟": 1149,
      "맠": 1150,
      "맡": 1151,
      "매": 1152,
      "맥": 1153,
      "맧": 1154,
      "맨": 1155,
      "맬": 1156,
      "맴": 1157,
      "맵": 1158,
      "맷": 1159,
      "맹": 1160,
      "맺": 1161,
      "맻": 1162,
      "먀": 1163,
      "먓": 1164,
      "먜": 1165,
      "머": 1166,
      "먹": 1167,
      "먼": 1168,
      "멀": 1169,
      "멁": 1170,
      "멈": 1171,
      "멊": 1172,
      "멋": 1173,
      "멍": 1174,
      "멎": 1175,
      "메": 1176,
      "멕": 1177,
      "멘": 1178,
      "멜": 1179,
      "멤": 1180,
      "멥": 1181,
      "멧": 1182,
      "멩": 1183,
      "멫": 1184,
      "며": 1185,
      "멱": 1186,
      "면": 1187,
      "멸": 1188,
      "몃": 1189,
      "명": 1190,
      "몇": 1191,
      "몊": 1192,
      "몌": 1193,
      "몟": 1194,
      "모": 1195,
      "목": 1196,
      "몬": 1197,
      "몯": 1198,
      "몰": 1199,
      "몷": 1200,
      "몸": 1201,
      "몹": 1202,
      "못": 1203,
      "몽": 1204,
      "뫁": 1205,
      "뫃": 1206,
      "뫼": 1207,
      "묊": 1208,
      "묏": 1209,
      "묘": 1210,
      "묠": 1211,
      "무": 1212,
      "묵": 1213,
      "묶": 1214,
      "문": 1215,
      "묺": 1216,
      "묻": 1217,
      "물": 1218,
      "묽": 1219,
      "뭄": 1220,
      "뭅": 1221,
      "뭇": 1222,
      "뭉": 1223,
      "뭍": 1224,
      "뭐": 1225,
      "뭔": 1226,
      "뭘": 1227,
      "뭠": 1228,
      "뭣": 1229,
      "뭬": 1230,
      "뮈": 1231,
      "뮤": 1232,
      "뮨": 1233,
      "뮬": 1234,
      "뮷": 1235,
      "므": 1236,
      "믁": 1237,
      "믄": 1238,
      "믈": 1239,
      "믉": 1240,
      "믐": 1241,
      "믑": 1242,
      "믓": 1243,
      "믛": 1244,
      "믜": 1245,
      "미": 1246,
      "믹": 1247,
      "민": 1248,
      "믿": 1249,
      "밀": 1250,
      "밈": 1251,
      "밉": 1252,
      "밋": 1253,
      "밍": 1254,
      "밎": 1255,
      "및": 1256,
      "밑": 1257,
      "바": 1258,
      "박": 1259,
      "밖": 1260,
      "반": 1261,
      "받": 1262,
      "발": 1263,
      "밝": 1264,
      "밟": 1265,
      "밤": 1266,
      "밥": 1267,
      "밧": 1268,
      "밨": 1269,
      "방": 1270,
      "밪": 1271,
      "밫": 1272,
      "밭": 1273,
      "배": 1274,
      "백": 1275,
      "밴": 1276,
      "밸": 1277,
      "뱀": 1278,
      "뱃": 1279,
      "뱅": 1280,
      "뱉": 1281,
      "뱌": 1282,
      "뱍": 1283,
      "뱨": 1284,
      "버": 1285,
      "벅": 1286,
      "번": 1287,
      "벋": 1288,
      "벌": 1289,
      "벍": 1290,
      "벎": 1291,
      "범": 1292,
      "법": 1293,
      "벗": 1294,
      "벘": 1295,
      "벙": 1296,
      "벚": 1297,
      "벛": 1298,
      "베": 1299,
      "벡": 1300,
      "벤": 1301,
      "벨": 1302,
      "벩": 1303,
      "벳": 1304,
      "벵": 1305,
      "벼": 1306,
      "벽": 1307,
      "변": 1308,
      "별": 1309,
      "볊": 1310,
      "볌": 1311,
      "볍": 1312,
      "볏": 1313,
      "병": 1314,
      "볓": 1315,
      "볕": 1316,
      "볘": 1317,
      "볜": 1318,
      "볠": 1319,
      "보": 1320,
      "복": 1321,
      "볶": 1322,
      "본": 1323,
      "볼": 1324,
      "봄": 1325,
      "봅": 1326,
      "봇": 1327,
      "봉": 1328,
      "봐": 1329,
      "봔": 1330,
      "봘": 1331,
      "봣": 1332,
      "봤": 1333,
      "뵈": 1334,
      "뵌": 1335,
      "뵐": 1336,
      "뵘": 1337,
      "뵙": 1338,
      "뵛": 1339,
      "부": 1340,
      "북": 1341,
      "분": 1342,
      "불": 1343,
      "붉": 1344,
      "붊": 1345,
      "붐": 1346,
      "붑": 1347,
      "붓": 1348,
      "붕": 1349,
      "붗": 1350,
      "붙": 1351,
      "붜": 1352,
      "붯": 1353,
      "붸": 1354,
      "뷔": 1355,
      "뷕": 1356,
      "뷘": 1357,
      "뷜": 1358,
      "뷧": 1359,
      "뷰": 1360,
      "뷴": 1361,
      "뷸": 1362,
      "븃": 1363,
      "브": 1364,
      "븍": 1365,
      "븐": 1366,
      "블": 1367,
      "븜": 1368,
      "븝": 1369,
      "븟": 1370,
      "븡": 1371,
      "븨": 1372,
      "븬": 1373,
      "비": 1374,
      "빅": 1375,
      "빈": 1376,
      "빌": 1377,
      "빔": 1378,
      "빕": 1379,
      "빗": 1380,
      "빙": 1381,
      "빚": 1382,
      "빛": 1383,
      "빠": 1384,
      "빡": 1385,
      "빤": 1386,
      "빨": 1387,
      "빩": 1388,
      "빰": 1389,
      "빳": 1390,
      "빵": 1391,
      "빼": 1392,
      "빽": 1393,
      "뺀": 1394,
      "뺄": 1395,
      "뺌": 1396,
      "뺏": 1397,
      "뺑": 1398,
      "뺨": 1399,
      "뺴": 1400,
      "뻐": 1401,
      "뻑": 1402,
      "뻔": 1403,
      "뻗": 1404,
      "뻘": 1405,
      "뻙": 1406,
      "뻠": 1407,
      "뻣": 1408,
      "뻤": 1409,
      "뻥": 1410,
      "뻬": 1411,
      "뻰": 1412,
      "뻴": 1413,
      "뼁": 1414,
      "뼅": 1415,
      "뼈": 1416,
      "뼉": 1417,
      "뼌": 1418,
      "뼛": 1419,
      "뽀": 1420,
      "뽁": 1421,
      "뽄": 1422,
      "뽈": 1423,
      "뽐": 1424,
      "뽑": 1425,
      "뽕": 1426,
      "뾰": 1427,
      "뿌": 1428,
      "뿍": 1429,
      "뿐": 1430,
      "뿔": 1431,
      "뿕": 1432,
      "뿜": 1433,
      "뿡": 1434,
      "쀀": 1435,
      "쀄": 1436,
      "쀼": 1437,
      "쁀": 1438,
      "쁘": 1439,
      "쁙": 1440,
      "쁜": 1441,
      "쁠": 1442,
      "쁨": 1443,
      "쁩": 1444,
      "쁫": 1445,
      "쁴": 1446,
      "삊": 1447,
      "삐": 1448,
      "삑": 1449,
      "삔": 1450,
      "삘": 1451,
      "삣": 1452,
      "삥": 1453,
      "사": 1454,
      "삭": 1455,
      "삯": 1456,
      "산": 1457,
      "살": 1458,
      "삶": 1459,
      "삷": 1460,
      "삺": 1461,
      "삼": 1462,
      "삽": 1463,
      "삿": 1464,
      "샀": 1465,
      "상": 1466,
      "새": 1467,
      "색": 1468,
      "샌": 1469,
      "샐": 1470,
      "샘": 1471,
      "샛": 1472,
      "생": 1473,
      "샤": 1474,
      "샥": 1475,
      "샨": 1476,
      "샬": 1477,
      "샴": 1478,
      "샵": 1479,
      "샷": 1480,
      "샹": 1481,
      "섀": 1482,
      "섊": 1483,
      "서": 1484,
      "석": 1485,
      "섞": 1486,
      "선": 1487,
      "섣": 1488,
      "설": 1489,
      "섧": 1490,
      "섬": 1491,
      "섭": 1492,
      "섯": 1493,
      "섰": 1494,
      "성": 1495,
      "섶": 1496,
      "세": 1497,
      "섹": 1498,
      "센": 1499,
      "셀": 1500,
      "셈": 1501,
      "셉": 1502,
      "셋": 1503,
      "셔": 1504,
      "셕": 1505,
      "션": 1506,
      "셜": 1507,
      "셤": 1508,
      "셥": 1509,
      "셧": 1510,
      "셨": 1511,
      "셩": 1512,
      "셰": 1513,
      "셴": 1514,
      "셸": 1515,
      "솀": 1516,
      "솃": 1517,
      "솊": 1518,
      "소": 1519,
      "속": 1520,
      "손": 1521,
      "솔": 1522,
      "솜": 1523,
      "솝": 1524,
      "솟": 1525,
      "송": 1526,
      "솥": 1527,
      "솨": 1528,
      "솩": 1529,
      "솰": 1530,
      "쇄": 1531,
      "쇠": 1532,
      "쇤": 1533,
      "쇨": 1534,
      "쇰": 1535,
      "쇱": 1536,
      "쇼": 1537,
      "쇽": 1538,
      "숀": 1539,
      "숄": 1540,
      "숏": 1541,
      "숑": 1542,
      "수": 1543,
      "숙": 1544,
      "순": 1545,
      "술": 1546,
      "숣": 1547,
      "숨": 1548,
      "숩": 1549,
      "숫": 1550,
      "숭": 1551,
      "숲": 1552,
      "숼": 1553,
      "쉀": 1554,
      "쉐": 1555,
      "쉑": 1556,
      "쉘": 1557,
      "쉬": 1558,
      "쉰": 1559,
      "쉴": 1560,
      "쉼": 1561,
      "쉽": 1562,
      "쉿": 1563,
      "슄": 1564,
      "슈": 1565,
      "슉": 1566,
      "슊": 1567,
      "슋": 1568,
      "슌": 1569,
      "슐": 1570,
      "슕": 1571,
      "슘": 1572,
      "슙": 1573,
      "슚": 1574,
      "슜": 1575,
      "슝": 1576,
      "슞": 1577,
      "슠": 1578,
      "스": 1579,
      "슥": 1580,
      "슧": 1581,
      "슨": 1582,
      "슪": 1583,
      "슬": 1584,
      "슭": 1585,
      "슯": 1586,
      "슲": 1587,
      "슴": 1588,
      "습": 1589,
      "슷": 1590,
      "승": 1591,
      "싀": 1592,
      "싊": 1593,
      "시": 1594,
      "식": 1595,
      "신": 1596,
      "실": 1597,
      "싫": 1598,
      "심": 1599,
      "십": 1600,
      "싯": 1601,
      "싱": 1602,
      "싳": 1603,
      "싶": 1604,
      "싸": 1605,
      "싹": 1606,
      "싻": 1607,
      "싼": 1608,
      "쌀": 1609,
      "쌈": 1610,
      "쌋": 1611,
      "쌌": 1612,
      "쌍": 1613,
      "쌓": 1614,
      "쌔": 1615,
      "쌕": 1616,
      "쌘": 1617,
      "쌜": 1618,
      "쌧": 1619,
      "쌩": 1620,
      "쌰": 1621,
      "써": 1622,
      "썩": 1623,
      "썬": 1624,
      "썰": 1625,
      "썸": 1626,
      "썹": 1627,
      "썻": 1628,
      "썼": 1629,
      "쎄": 1630,
      "쎅": 1631,
      "쎈": 1632,
      "쎌": 1633,
      "쎔": 1634,
      "쎕": 1635,
      "쎠": 1636,
      "쎡": 1637,
      "쎨": 1638,
      "쎼": 1639,
      "쏘": 1640,
      "쏙": 1641,
      "쏜": 1642,
      "쏟": 1643,
      "쏠": 1644,
      "쏫": 1645,
      "쏭": 1646,
      "쐐": 1647,
      "쐬": 1648,
      "쐰": 1649,
      "쑈": 1650,
      "쑐": 1651,
      "쑤": 1652,
      "쑥": 1653,
      "쑨": 1654,
      "쑬": 1655,
      "쑹": 1656,
      "쒝": 1657,
      "쒼": 1658,
      "쓀": 1659,
      "쓘": 1660,
      "쓰": 1661,
      "쓱": 1662,
      "쓴": 1663,
      "쓸": 1664,
      "씀": 1665,
      "씁": 1666,
      "씃": 1667,
      "씅": 1668,
      "씌": 1669,
      "씔": 1670,
      "씨": 1671,
      "씩": 1672,
      "씬": 1673,
      "씰": 1674,
      "씸": 1675,
      "씹": 1676,
      "씻": 1677,
      "씽": 1678,
      "씿": 1679,
      "앀": 1680,
      "아": 1681,
      "악": 1682,
      "안": 1683,
      "앉": 1684,
      "않": 1685,
      "알": 1686,
      "앍": 1687,
      "앎": 1688,
      "앏": 1689,
      "앓": 1690,
      "암": 1691,
      "압": 1692,
      "앗": 1693,
      "았": 1694,
      "앙": 1695,
      "앝": 1696,
      "앞": 1697,
      "앟": 1698,
      "애": 1699,
      "액": 1700,
      "앤": 1701,
      "앨": 1702,
      "앰": 1703,
      "앱": 1704,
      "앳": 1705,
      "앵": 1706,
      "야": 1707,
      "약": 1708,
      "얀": 1709,
      "얄": 1710,
      "얇": 1711,
      "얊": 1712,
      "얌": 1713,
      "얍": 1714,
      "얏": 1715,
      "얐": 1716,
      "양": 1717,
      "얕": 1718,
      "얗": 1719,
      "얘": 1720,
      "얫": 1721,
      "어": 1722,
      "억": 1723,
      "언": 1724,
      "얹": 1725,
      "얻": 1726,
      "얼": 1727,
      "얽": 1728,
      "엀": 1729,
      "엄": 1730,
      "업": 1731,
      "없": 1732,
      "엇": 1733,
      "었": 1734,
      "엉": 1735,
      "엊": 1736,
      "엌": 1737,
      "엎": 1738,
      "에": 1739,
      "엑": 1740,
      "엔": 1741,
      "엘": 1742,
      "엛": 1743,
      "엠": 1744,
      "엡": 1745,
      "엣": 1746,
      "엥": 1747,
      "엩": 1748,
      "여": 1749,
      "역": 1750,
      "연": 1751,
      "엳": 1752,
      "열": 1753,
      "엷": 1754,
      "염": 1755,
      "엽": 1756,
      "엾": 1757,
      "엿": 1758,
      "였": 1759,
      "영": 1760,
      "옅": 1761,
      "옆": 1762,
      "옇": 1763,
      "예": 1764,
      "옉": 1765,
      "옌": 1766,
      "옐": 1767,
      "옙": 1768,
      "옛": 1769,
      "오": 1770,
      "옥": 1771,
      "온": 1772,
      "올": 1773,
      "옭": 1774,
      "옮": 1775,
      "옯": 1776,
      "옲": 1777,
      "옳": 1778,
      "옴": 1779,
      "옵": 1780,
      "옷": 1781,
      "옹": 1782,
      "와": 1783,
      "왁": 1784,
      "완": 1785,
      "왈": 1786,
      "왓": 1787,
      "왔": 1788,
      "왕": 1789,
      "왜": 1790,
      "왠": 1791,
      "왤": 1792,
      "왱": 1793,
      "외": 1794,
      "왹": 1795,
      "왼": 1796,
      "욀": 1797,
      "욈": 1798,
      "욊": 1799,
      "욋": 1800,
      "요": 1801,
      "욕": 1802,
      "욘": 1803,
      "욜": 1804,
      "욝": 1805,
      "욤": 1806,
      "욧": 1807,
      "용": 1808,
      "우": 1809,
      "욱": 1810,
      "운": 1811,
      "울": 1812,
      "움": 1813,
      "웁": 1814,
      "웃": 1815,
      "웅": 1816,
      "웊": 1817,
      "웋": 1818,
      "워": 1819,
      "웍": 1820,
      "원": 1821,
      "월": 1822,
      "웝": 1823,
      "웟": 1824,
      "웠": 1825,
      "웡": 1826,
      "웨": 1827,
      "웬": 1828,
      "웯": 1829,
      "웰": 1830,
      "웻": 1831,
      "웽": 1832,
      "윀": 1833,
      "위": 1834,
      "윅": 1835,
      "윈": 1836,
      "윊": 1837,
      "윌": 1838,
      "윔": 1839,
      "윗": 1840,
      "윙": 1841,
      "유": 1842,
      "육": 1843,
      "윤": 1844,
      "율": 1845,
      "윰": 1846,
      "융": 1847,
      "으": 1848,
      "윽": 1849,
      "은": 1850,
      "읃": 1851,
      "을": 1852,
      "읆": 1853,
      "읇": 1854,
      "읊": 1855,
      "음": 1856,
      "읍": 1857,
      "읏": 1858,
      "응": 1859,
      "읕": 1860,
      "의": 1861,
      "읜": 1862,
      "읫": 1863,
      "읭": 1864,
      "이": 1865,
      "익": 1866,
      "인": 1867,
      "일": 1868,
      "읽": 1869,
      "잀": 1870,
      "잃": 1871,
      "임": 1872,
      "입": 1873,
      "잇": 1874,
      "있": 1875,
      "잉": 1876,
      "잊": 1877,
      "잍": 1878,
      "잎": 1879,
      "자": 1880,
      "작": 1881,
      "잔": 1882,
      "잖": 1883,
      "잘": 1884,
      "잠": 1885,
      "잡": 1886,
      "잢": 1887,
      "잣": 1888,
      "잤": 1889,
      "장": 1890,
      "잦": 1891,
      "잪": 1892,
      "잫": 1893,
      "재": 1894,
      "잭": 1895,
      "잰": 1896,
      "잴": 1897,
      "잽": 1898,
      "잿": 1899,
      "쟀": 1900,
      "쟁": 1901,
      "쟈": 1902,
      "쟉": 1903,
      "쟌": 1904,
      "쟎": 1905,
      "쟐": 1906,
      "쟓": 1907,
      "쟘": 1908,
      "쟙": 1909,
      "쟛": 1910,
      "쟝": 1911,
      "쟤": 1912,
      "저": 1913,
      "적": 1914,
      "전": 1915,
      "절": 1916,
      "젊": 1917,
      "점": 1918,
      "접": 1919,
      "젓": 1920,
      "젔": 1921,
      "정": 1922,
      "젖": 1923,
      "제": 1924,
      "젝": 1925,
      "젠": 1926,
      "젤": 1927,
      "젬": 1928,
      "젭": 1929,
      "젯": 1930,
      "져": 1931,
      "젹": 1932,
      "젼": 1933,
      "졀": 1934,
      "졂": 1935,
      "졈": 1936,
      "졉": 1937,
      "졋": 1938,
      "졌": 1939,
      "졍": 1940,
      "졔": 1941,
      "졕": 1942,
      "졘": 1943,
      "졜": 1944,
      "졤": 1945,
      "졧": 1946,
      "조": 1947,
      "족": 1948,
      "존": 1949,
      "졸": 1950,
      "좀": 1951,
      "좁": 1952,
      "좃": 1953,
      "종": 1954,
      "좆": 1955,
      "좇": 1956,
      "좋": 1957,
      "좌": 1958,
      "좍": 1959,
      "좔": 1960,
      "좡": 1961,
      "죄": 1962,
      "죠": 1963,
      "죡": 1964,
      "죤": 1965,
      "죨": 1966,
      "죰": 1967,
      "죳": 1968,
      "죵": 1969,
      "죹": 1970,
      "주": 1971,
      "죽": 1972,
      "준": 1973,
      "줄": 1974,
      "줌": 1975,
      "줍": 1976,
      "줏": 1977,
      "중": 1978,
      "줘": 1979,
      "줫": 1980,
      "줬": 1981,
      "줴": 1982,
      "쥀": 1983,
      "쥐": 1984,
      "쥑": 1985,
      "쥔": 1986,
      "쥣": 1987,
      "쥬": 1988,
      "쥭": 1989,
      "쥰": 1990,
      "쥴": 1991,
      "쥼": 1992,
      "즁": 1993,
      "즈": 1994,
      "즉": 1995,
      "즌": 1996,
      "즐": 1997,
      "즘": 1998,
      "즙": 1999,
      "즛": 2000,
      "증": 2001,
      "즤": 2002,
      "지": 2003,
      "직": 2004,
      "진": 2005,
      "질": 2006,
      "짊": 2007,
      "짐": 2008,
      "집": 2009,
      "짓": 2010,
      "징": 2011,
      "짖": 2012,
      "짙": 2013,
      "짚": 2014,
      "짜": 2015,
      "짝": 2016,
      "짠": 2017,
      "짢": 2018,
      "짤": 2019,
      "짧": 2020,
      "짬": 2021,
      "짭": 2022,
      "짯": 2023,
      "짱": 2024,
      "짲": 2025,
      "째": 2026,
      "짹": 2027,
      "짼": 2028,
      "쨀": 2029,
      "쨋": 2030,
      "쨌": 2031,
      "쨍": 2032,
      "쨔": 2033,
      "쨕": 2034,
      "쨘": 2035,
      "쨩": 2036,
      "쨰": 2037,
      "쩃": 2038,
      "쩄": 2039,
      "쩌": 2040,
      "쩍": 2041,
      "쩐": 2042,
      "쩔": 2043,
      "쩗": 2044,
      "쩝": 2045,
      "쩡": 2046,
      "쩨": 2047,
      "쩬": 2048,
      "쪄": 2049,
      "쪅": 2050,
      "쪈": 2051,
      "쪌": 2052,
      "쪠": 2053,
      "쪼": 2054,
      "쪽": 2055,
      "쫀": 2056,
      "쫄": 2057,
      "쫌": 2058,
      "쫏": 2059,
      "쫑": 2060,
      "쫒": 2061,
      "쫓": 2062,
      "쫘": 2063,
      "쫙": 2064,
      "쬬": 2065,
      "쬰": 2066,
      "쭈": 2067,
      "쭉": 2068,
      "쭌": 2069,
      "쭐": 2070,
      "쭘": 2071,
      "쭙": 2072,
      "쭝": 2073,
      "쭤": 2074,
      "쮸": 2075,
      "쯔": 2076,
      "쯕": 2077,
      "쯤": 2078,
      "쯧": 2079,
      "쯩": 2080,
      "찀": 2081,
      "찌": 2082,
      "찍": 2083,
      "찐": 2084,
      "찔": 2085,
      "찜": 2086,
      "찝": 2087,
      "찟": 2088,
      "찡": 2089,
      "찢": 2090,
      "찣": 2091,
      "차": 2092,
      "착": 2093,
      "찬": 2094,
      "찮": 2095,
      "찰": 2096,
      "참": 2097,
      "찹": 2098,
      "찻": 2099,
      "찼": 2100,
      "창": 2101,
      "찾": 2102,
      "찿": 2103,
      "채": 2104,
      "책": 2105,
      "챈": 2106,
      "챌": 2107,
      "챗": 2108,
      "챙": 2109,
      "챠": 2110,
      "챡": 2111,
      "챤": 2112,
      "챦": 2113,
      "챨": 2114,
      "챰": 2115,
      "챳": 2116,
      "챵": 2117,
      "챼": 2118,
      "처": 2119,
      "척": 2120,
      "천": 2121,
      "철": 2122,
      "첨": 2123,
      "첩": 2124,
      "첫": 2125,
      "첬": 2126,
      "청": 2127,
      "체": 2128,
      "첵": 2129,
      "첸": 2130,
      "첼": 2131,
      "쳄": 2132,
      "쳇": 2133,
      "쳎": 2134,
      "쳐": 2135,
      "쳑": 2136,
      "쳔": 2137,
      "쳘": 2138,
      "쳠": 2139,
      "쳡": 2140,
      "쳣": 2141,
      "쳤": 2142,
      "쳥": 2143,
      "쳬": 2144,
      "쳭": 2145,
      "초": 2146,
      "촉": 2147,
      "촌": 2148,
      "촐": 2149,
      "촛": 2150,
      "총": 2151,
      "촤": 2152,
      "촨": 2153,
      "촬": 2154,
      "쵀": 2155,
      "쵐": 2156,
      "최": 2157,
      "쵠": 2158,
      "쵸": 2159,
      "쵹": 2160,
      "쵼": 2161,
      "춀": 2162,
      "춈": 2163,
      "추": 2164,
      "축": 2165,
      "춘": 2166,
      "출": 2167,
      "춤": 2168,
      "춥": 2169,
      "춧": 2170,
      "충": 2171,
      "춰": 2172,
      "췃": 2173,
      "췄": 2174,
      "췌": 2175,
      "취": 2176,
      "췬": 2177,
      "츄": 2178,
      "츅": 2179,
      "츈": 2180,
      "츌": 2181,
      "츔": 2182,
      "츙": 2183,
      "츠": 2184,
      "측": 2185,
      "츤": 2186,
      "츨": 2187,
      "츩": 2188,
      "츰": 2189,
      "츱": 2190,
      "츳": 2191,
      "층": 2192,
      "츼": 2193,
      "치": 2194,
      "칙": 2195,
      "친": 2196,
      "칠": 2197,
      "침": 2198,
      "칩": 2199,
      "칫": 2200,
      "칭": 2201,
      "카": 2202,
      "칵": 2203,
      "칸": 2204,
      "칼": 2205,
      "캄": 2206,
      "캅": 2207,
      "캇": 2208,
      "캉": 2209,
      "캐": 2210,
      "캔": 2211,
      "캠": 2212,
      "캡": 2213,
      "캣": 2214,
      "캥": 2215,
      "캬": 2216,
      "캽": 2217,
      "컁": 2218,
      "커": 2219,
      "컥": 2220,
      "컨": 2221,
      "컬": 2222,
      "컴": 2223,
      "컵": 2224,
      "컷": 2225,
      "컸": 2226,
      "컹": 2227,
      "케": 2228,
      "켄": 2229,
      "켈": 2230,
      "켐": 2231,
      "켑": 2232,
      "켓": 2233,
      "켔": 2234,
      "켕": 2235,
      "켙": 2236,
      "켜": 2237,
      "켠": 2238,
      "켤": 2239,
      "켯": 2240,
      "켰": 2241,
      "켸": 2242,
      "콋": 2243,
      "코": 2244,
      "콕": 2245,
      "콘": 2246,
      "콜": 2247,
      "콤": 2248,
      "콥": 2249,
      "콧": 2250,
      "콩": 2251,
      "콭": 2252,
      "콮": 2253,
      "콰": 2254,
      "콱": 2255,
      "콸": 2256,
      "쾅": 2257,
      "쾌": 2258,
      "쾟": 2259,
      "쾨": 2260,
      "쾩": 2261,
      "쾽": 2262,
      "쿄": 2263,
      "쿅": 2264,
      "쿠": 2265,
      "쿡": 2266,
      "쿤": 2267,
      "쿨": 2268,
      "쿰": 2269,
      "쿵": 2270,
      "퀑": 2271,
      "퀘": 2272,
      "퀜": 2273,
      "퀫": 2274,
      "퀭": 2275,
      "퀴": 2276,
      "퀸": 2277,
      "퀼": 2278,
      "큐": 2279,
      "큘": 2280,
      "크": 2281,
      "큭": 2282,
      "큰": 2283,
      "클": 2284,
      "큼": 2285,
      "큽": 2286,
      "큿": 2287,
      "킁": 2288,
      "킈": 2289,
      "킐": 2290,
      "키": 2291,
      "킥": 2292,
      "킨": 2293,
      "킬": 2294,
      "킴": 2295,
      "킵": 2296,
      "킷": 2297,
      "킹": 2298,
      "타": 2299,
      "탁": 2300,
      "탄": 2301,
      "탈": 2302,
      "탉": 2303,
      "탐": 2304,
      "탑": 2305,
      "탓": 2306,
      "탔": 2307,
      "탕": 2308,
      "태": 2309,
      "택": 2310,
      "탠": 2311,
      "탤": 2312,
      "탬": 2313,
      "탯": 2314,
      "탱": 2315,
      "탸": 2316,
      "탼": 2317,
      "터": 2318,
      "턱": 2319,
      "턴": 2320,
      "털": 2321,
      "텀": 2322,
      "텁": 2323,
      "텃": 2324,
      "텄": 2325,
      "텅": 2326,
      "테": 2327,
      "텍": 2328,
      "텐": 2329,
      "텔": 2330,
      "템": 2331,
      "텝": 2332,
      "텟": 2333,
      "텡": 2334,
      "텨": 2335,
      "텬": 2336,
      "텰": 2337,
      "텸": 2338,
      "텹": 2339,
      "텻": 2340,
      "텽": 2341,
      "톄": 2342,
      "톈": 2343,
      "톔": 2344,
      "토": 2345,
      "톡": 2346,
      "톤": 2347,
      "톨": 2348,
      "톰": 2349,
      "톱": 2350,
      "톳": 2351,
      "통": 2352,
      "퇴": 2353,
      "퇵": 2354,
      "툇": 2355,
      "툊": 2356,
      "툐": 2357,
      "툔": 2358,
      "투": 2359,
      "툭": 2360,
      "툰": 2361,
      "툴": 2362,
      "툼": 2363,
      "퉁": 2364,
      "퉈": 2365,
      "튀": 2366,
      "튂": 2367,
      "튋": 2368,
      "튒": 2369,
      "튕": 2370,
      "튜": 2371,
      "튝": 2372,
      "튞": 2373,
      "튤": 2374,
      "튱": 2375,
      "트": 2376,
      "특": 2377,
      "튼": 2378,
      "튿": 2379,
      "틀": 2380,
      "틈": 2381,
      "틉": 2382,
      "틋": 2383,
      "틍": 2384,
      "틑": 2385,
      "틔": 2386,
      "틕": 2387,
      "틘": 2388,
      "틜": 2389,
      "틤": 2390,
      "틩": 2391,
      "티": 2392,
      "틱": 2393,
      "틴": 2394,
      "틸": 2395,
      "팀": 2396,
      "팁": 2397,
      "팃": 2398,
      "팅": 2399,
      "파": 2400,
      "팍": 2401,
      "팎": 2402,
      "판": 2403,
      "팔": 2404,
      "팜": 2405,
      "팟": 2406,
      "팡": 2407,
      "패": 2408,
      "팩": 2409,
      "팬": 2410,
      "팰": 2411,
      "팻": 2412,
      "팽": 2413,
      "퍅": 2414,
      "퍼": 2415,
      "퍽": 2416,
      "펀": 2417,
      "펄": 2418,
      "펏": 2419,
      "펑": 2420,
      "페": 2421,
      "펙": 2422,
      "펜": 2423,
      "펠": 2424,
      "펭": 2425,
      "펴": 2426,
      "펵": 2427,
      "편": 2428,
      "펼": 2429,
      "폄": 2430,
      "폇": 2431,
      "폈": 2432,
      "평": 2433,
      "폐": 2434,
      "폔": 2435,
      "폥": 2436,
      "포": 2437,
      "폭": 2438,
      "폰": 2439,
      "폴": 2440,
      "폼": 2441,
      "폽": 2442,
      "폿": 2443,
      "퐁": 2444,
      "퐈": 2445,
      "푀": 2446,
      "표": 2447,
      "푸": 2448,
      "푹": 2449,
      "푼": 2450,
      "풀": 2451,
      "풃": 2452,
      "품": 2453,
      "풋": 2454,
      "풍": 2455,
      "풔": 2456,
      "풰": 2457,
      "퓀": 2458,
      "퓌": 2459,
      "퓐": 2460,
      "퓜": 2461,
      "퓨": 2462,
      "프": 2463,
      "픈": 2464,
      "플": 2465,
      "픔": 2466,
      "픕": 2467,
      "픗": 2468,
      "픠": 2469,
      "픤": 2470,
      "픨": 2471,
      "피": 2472,
      "픽": 2473,
      "핀": 2474,
      "필": 2475,
      "핊": 2476,
      "핌": 2477,
      "핍": 2478,
      "핏": 2479,
      "핑": 2480,
      "하": 2481,
      "학": 2482,
      "한": 2483,
      "할": 2484,
      "핥": 2485,
      "함": 2486,
      "합": 2487,
      "핫": 2488,
      "항": 2489,
      "해": 2490,
      "핵": 2491,
      "핸": 2492,
      "핼": 2493,
      "햀": 2494,
      "햄": 2495,
      "햇": 2496,
      "했": 2497,
      "행": 2498,
      "햐": 2499,
      "햣": 2500,
      "향": 2501,
      "햿": 2502,
      "헀": 2503,
      "허": 2504,
      "헉": 2505,
      "헌": 2506,
      "헏": 2507,
      "헐": 2508,
      "험": 2509,
      "헙": 2510,
      "헛": 2511,
      "헜": 2512,
      "헝": 2513,
      "헤": 2514,
      "헥": 2515,
      "헨": 2516,
      "헬": 2517,
      "헮": 2518,
      "헴": 2519,
      "헷": 2520,
      "헹": 2521,
      "혀": 2522,
      "혁": 2523,
      "현": 2524,
      "혈": 2525,
      "혐": 2526,
      "협": 2527,
      "혓": 2528,
      "혔": 2529,
      "형": 2530,
      "혜": 2531,
      "혠": 2532,
      "혤": 2533,
      "혯": 2534,
      "호": 2535,
      "혹": 2536,
      "혼": 2537,
      "홀": 2538,
      "홈": 2539,
      "홉": 2540,
      "홋": 2541,
      "홍": 2542,
      "홑": 2543,
      "화": 2544,
      "확": 2545,
      "환": 2546,
      "활": 2547,
      "홧": 2548,
      "황": 2549,
      "홰": 2550,
      "홱": 2551,
      "횃": 2552,
      "회": 2553,
      "획": 2554,
      "횔": 2555,
      "횜": 2556,
      "횟": 2557,
      "횡": 2558,
      "효": 2559,
      "횹": 2560,
      "후": 2561,
      "훅": 2562,
      "훈": 2563,
      "훊": 2564,
      "훌": 2565,
      "훍": 2566,
      "훔": 2567,
      "훕": 2568,
      "훗": 2569,
      "훙": 2570,
      "훠": 2571,
      "훤": 2572,
      "훨": 2573,
      "훼": 2574,
      "휀": 2575,
      "휄": 2576,
      "휑": 2577,
      "휘": 2578,
      "휙": 2579,
      "휜": 2580,
      "휠": 2581,
      "휨": 2582,
      "휩": 2583,
      "휫": 2584,
      "휭": 2585,
      "휴": 2586,
      "휼": 2587,
      "흄": 2588,
      "흉": 2589,
      "흐": 2590,
      "흑": 2591,
      "흔": 2592,
      "흖": 2593,
      "흘": 2594,
      "흙": 2595,
      "흚": 2596,
      "흠": 2597,
      "흡": 2598,
      "흣": 2599,
      "흥": 2600,
      "흩": 2601,
      "희": 2602,
      "흰": 2603,
      "흼": 2604,
      "흽": 2605,
      "흿": 2606,
      "히": 2607,
      "힉": 2608,
      "힌": 2609,
      "힐": 2610,
      "힘": 2611,
      "힙": 2612,
      "힛": 2613,
      "힝": 2614,
      "": 2615,
      "": 2616,
      "": 2617,
      "": 2618,
      "": 2619,
      "": 2620,
      "": 2621,
      "": 2622,
      "": 2623,
      "": 2624,
      "": 2625,
      "": 2626,
      "": 2627,
      "": 2628,
      "": 2629,
      "": 2630,
      "": 2631,
      "": 2632,
      "": 2633,
      "": 2634,
      "": 2635,
      "": 2636,
      "": 2637,
      "": 2638,
      "": 2639,
      "": 2640,
      "": 2641,
      "": 2642,
      "": 2643,
      "": 2644,
      "": 2645,
      "": 2646,
      "": 2647,
      "": 2648,
      "": 2649,
      "": 2650,
      "": 2651,
      "": 2652,
      "": 2653,
      "": 2654,
      "": 2655,
      "": 2656,
      "": 2657,
      "": 2658,
      "": 2659,
      "": 2660,
      "": 2661,
      "": 2662,
      "": 2663,
      "": 2664,
      "": 2665,
      "": 2666,
      "": 2667,
      "": 2668,
      "": 2669,
      "": 2670,
      "": 2671,
      "": 2672,
      "": 2673,
      "": 2674,
      "": 2675,
      "": 2676,
      "": 2677,
      "": 2678,
      "": 2679,
      "": 2680,
      "": 2681,
      "": 2682,
      "": 2683,
      "": 2684,
      "": 2685,
      "": 2686,
      "": 2687,
      "": 2688,
      "": 2689,
      "": 2690,
      "": 2691,
      "": 2692,
      "": 2693,
      "": 2694,
      "": 2695,
      "": 2696,
      "": 2697,
      "": 2698,
      "": 2699,
      "": 2700,
      "": 2701,
      "": 2702,
      "": 2703,
      "": 2704,
      "": 2705,
      "": 2706,
      "": 2707,
      "": 2708,
      "": 2709,
      "": 2710,
      "": 2711,
      "": 2712,
      "": 2713,
      "": 2714,
      "": 2715,
      "": 2716,
      "": 2717,
      "": 2718,
      "": 2719,
      "": 2720,
      "": 2721,
      "": 2722,
      "": 2723,
      "": 2724,
      "": 2725,
      "": 2726,
      "": 2727,
      "": 2728,
      "": 2729,
      "": 2730,
      "": 2731,
      "": 2732,
      "": 2733,
      "": 2734,
      "": 2735,
      "": 2736,
      "": 2737,
      "": 2738,
      "": 2739,
      "": 2740,
      "": 2741,
      "": 2742,
      "": 2743,
      "": 2744,
      "": 2745,
      "": 2746,
      "": 2747,
      "": 2748,
      "": 2749,
      "": 2750,
      "": 2751,
      "": 2752,
      "": 2753,
      "": 2754,
      "": 2755,
      "": 2756,
      "": 2757,
      "": 2758,
      "": 2759,
      "": 2760,
      "": 2761,
      "": 2762,
      "": 2763,
      "": 2764,
      "": 2765,
      "": 2766,
      "": 2767,
      "": 2768,
      "": 2769,
      "": 2770,
      "": 2771,
      "": 2772,
      "": 2773,
      "": 2774,
      "": 2775,
      "": 2776,
      "": 2777,
      "": 2778,
      "": 2779,
      "": 2780,
      "": 2781,
      "": 2782,
      "": 2783,
      "": 2784,
      "": 2785,
      "": 2786,
      "": 2787,
      "": 2788,
      "": 2789,
      "": 2790,
      "": 2791,
      "": 2792,
      "": 2793,
      "": 2794,
      "": 2795,
      "": 2796,
      "": 2797,
      "": 2798,
      "": 2799,
      "": 2800,
      "": 2801,
      "": 2802,
      "": 2803,
      "": 2804,
      "": 2805,
      "": 2806,
      "": 2807,
      "": 2808,
      "": 2809,
      "": 2810,
      "": 2811,
      "": 2812,
      "": 2813,
      "": 2814,
      "": 2815,
      "": 2816,
      "": 2817,
      "": 2818,
      "": 2819,
      "": 2820,
      "": 2821,
      "": 2822,
      "": 2823,
      "": 2824,
      "": 2825,
      "": 2826,
      "": 2827,
      "": 2828,
      "": 2829,
      "": 2830,
      "": 2831,
      "": 2832,
      "": 2833,
      "": 2834,
      "": 2835,
      "": 2836,
      "": 2837,
      "": 2838,
      "": 2839,
      "": 2840,
      "": 2841,
      "": 2842,
      "": 2843,
      "": 2844,
      "": 2845,
      "": 2846,
      "": 2847,
      "": 2848,
      "": 2849,
      "": 2850,
      "": 2851,
      "": 2852,
      "": 2853,
      "": 2854,
      "": 2855,
      "": 2856,
      "": 2857,
      "": 2858,
      "": 2859,
      "": 2860,
      "": 2861,
      "": 2862,
      "": 2863,
      "": 2864,
      "": 2865,
      "": 2866,
      "": 2867,
      "": 2868,
      "": 2869,
      "": 2870,
      "": 2871,
      "": 2872,
      "": 2873,
      "": 2874,
      "": 2875,
      "": 2876,
      "": 2877,
      "": 2878,
      "": 2879,
      "": 2880,
      "": 2881,
      "": 2882,
      "": 2883,
      "": 2884,
      "": 2885,
      "": 2886,
      "": 2887,
      "": 2888,
      "": 2889,
      "": 2890,
      "": 2891,
      "": 2892,
      "": 2893,
      "": 2894,
      "": 2895,
      "": 2896,
      "": 2897,
      "": 2898,
      "": 2899,
      "": 2900,
      "": 2901,
      "": 2902,
      "": 2903,
      "": 2904,
      "": 2905,
      "": 2906,
      "": 2907,
      "": 2908,
      "": 2909,
      "": 2910,
      "": 2911,
      "": 2912,
      "": 2913,
      "": 2914,
      "": 2915,
      "": 2916,
      "": 2917,
      "": 2918,
      "": 2919,
      "": 2920,
      "": 2921,
      "": 2922,
      "": 2923,
      "": 2924,
      "": 2925,
      "": 2926,
      "": 2927,
      "": 2928,
      "": 2929,
      "": 2930,
      "": 2931,
      "": 2932,
      "": 2933,
      "": 2934,
      "": 2935,
      "": 2936,
      "": 2937,
      "": 2938,
      "": 2939,
      "": 2940,
      "": 2941,
      "": 2942,
      "": 2943,
      "": 2944,
      "": 2945,
      "": 2946,
      "": 2947,
      "": 2948,
      "": 2949,
      "": 2950,
      "": 2951,
      "": 2952,
      "": 2953,
      "": 2954,
      "": 2955,
      "": 2956,
      "": 2957,
      "": 2958,
      "": 2959,
      "": 2960,
      "": 2961,
      "": 2962,
      "": 2963,
      "": 2964,
      "": 2965,
      "": 2966,
      "": 2967,
      "": 2968,
      "": 2969,
      "": 2970,
      "": 2971,
      "": 2972,
      "": 2973,
      "": 2974,
      "": 2975,
      "": 2976,
      "": 2977,
      "": 2978,
      "": 2979,
      "": 2980,
      "": 2981,
      "": 2982,
      "": 2983,
      "": 2984,
      "": 2985,
      "": 2986,
      "": 2987,
      "": 2988,
      "": 2989,
      "": 2990,
      "": 2991,
      "": 2992,
      "": 2993,
      "": 2994,
      "": 2995,
      "": 2996,
      "": 2997,
      "": 2998,
      "": 2999,
      "": 3000,
      "": 3001,
      "": 3002,
      "": 3003,
      "": 3004,
      "": 3005,
      "": 3006,
      "": 3007,
      "": 3008,
      "": 3009,
      "": 3010,
      "": 3011,
      "": 3012,
      "": 3013,
      "": 3014,
      "": 3015,
      "": 3016,
      "": 3017,
      "": 3018,
      "": 3019,
      "": 3020,
      "": 3021,
      "": 3022,
      "": 3023,
      "": 3024,
      "": 3025,
      "": 3026,
      "": 3027,
      "": 3028,
      "�": 3029,
      "𠌃": 3030,
      "𠌮": 3031,
      "𠹭": 3032,
      "𡶄": 3033,
      "𡾋": 3034,
      "𤇥": 3035,
      "𤩐": 3036,
      "𥕕": 3037,
      "𧌑": 3038,
      "𧙖": 3039,
      "𧛸": 3040,
      "𩔷": 3041,
      "𩸽": 3042,
      "𩿪": 3043,
      "다.": 3044,
      "야": 3045,
      "으로": 3046,
      "고": 3047,
      "라.": 3048,
      "하야": 3049,
      "것이": 3050,
      "하고": 3051,
      "00": 3052,
      "": 3053,
      "이라": 3054,
      "하는": 3055,
      "니": 3056,
      "에서": 3057,
      "아니": 3058,
      "다.그": 3059,
      "며": 3060,
      "니다.": 3061,
      "면": 3062,
      "하여": 3063,
      "것은": 3064,
      "..": 3065,
      "에는": 3066,
      "인이": 3067,
      "조선": 3068,
      "에대": 3069,
      "이": 3070,
      "사람": 3071,
      "에게": 3072,
      "우리": 3073,
      "하엿": 3074,
      "이나": 3075,
      "주의": 3076,
      "인의": 3077,
      "이유": 3078,
      "하면": 3079,
      "고로": 3080,
      "가지": 3081,
      "사회": 3082,
      "이다.": 3083,
      "오.": 3084,
      "지": 3085,
      "것을": 3086,
      "자": 3087,
      "시에": 3088,
      "학교": 3089,
      "이니": 3090,
      "일본": 3091,
      "교육": 3092,
      "이상": 3093,
      "얏": 3094,
      "잇는": 3095,
      "국가": 3096,
      "것이다.": 3097,
      "중에": 3098,
      "그러": 3099,
      "": 3100,
      "이오": 3101,
      "자가": 3102,
      "을": 3103,
      "자의": 3104,
      "다.그러": 3105,
      "하게": 3106,
      "나는": 3107,
      "생활": 3108,
      "까지": 3109,
      "자ᅵ": 3110,
      "기": 3111,
      "부터": 3112,
      "생각": 3113,
      "국의": 3114,
      "다가": 3115,
      "라도": 3116,
      "국민": 3117,
      "금일": 3118,
      "요.": 3119,
      "의사": 3120,
      "한다.": 3121,
      "세계": 3122,
      "치못": 3123,
      "하얏": 3124,
      "니": 3125,
      "할수": 3126,
      "0000": 3127,
      "자기": 3128,
      "나": 3129,
      "하며": 3130,
      "문제": 3131,
      "에지": 3132,
      "이라.": 3133,
      "이되": 3134,
      "에셔": 3135,
      "에": 3136,
      "지안": 3137,
      "에재": 3138,
      "하기": 3139,
      "다시": 3140,
      "다고": 3141,
      "에도": 3142,
      "은": 3143,
      "가유": 3144,
      "이러": 3145,
      "지못": 3146,
      "이잇": 3147,
      "운동": 3148,
      "이기": 3149,
      "시대": 3150,
      "에의": 3151,
      "정신": 3152,
      "여하": 3153,
      "필요": 3154,
      "관계": 3155,
      "리고": 3156,
      "정부": 3157,
      "인은": 3158,
      "치아니": 3159,
      "이지": 3160,
      "다는": 3161,
      "이무": 3162,
      "다.이": 3163,
      "적으로": 3164,
      "다.그러나": 3165,
      "되는": 3166,
      "사상": 3167,
      "의의": 3168,
      "하나": 3169,
      "자": 3170,
      "제일": 3171,
      "후에": 3172,
      "리": 3173,
      "로다.": 3174,
      "라고": 3175,
      "리를": 3176,
      "학생": 3177,
      "사를": 3178,
      "지방": 3179,
      "불가": 3180,
      "자유": 3181,
      "일이": 3182,
      "정치": 3183,
      "기를": 3184,
      "차를": 3185,
      "씨가": 3186,
      "자는": 3187,
      "000": 3188,
      "보다": 3189,
      "더라.": 3190,
      "상에": 3191,
      "대로": 3192,
      "이며": 3193,
      "의일": 3194,
      "들은": 3195,
      "스니": 3196,
      "어서": 3197,
      "민족": 3198,
      "을보": 3199,
      "가잇": 3200,
      "야기": 3201,
      "인지": 3202,
      "지": 3203,
      "자를": 3204,
      "으로": 3205,
      "사의": 3206,
      "을가": 3207,
      "을수": 3208,
      "소위": 3209,
      "습니다.": 3210,
      "10": 3211,
      "의기": 3212,
      "엿": 3213,
      "의지": 3214,
      "니와": 3215,
      "이면": 3216,
      "자연": 3217,
      "청년": 3218,
      "일반": 3219,
      "기가": 3220,
      "의대": 3221,
      "지금": 3222,
      "에잇": 3223,
      "하니": 3224,
      "혹은": 3225,
      "이가": 3226,
      "목적": 3227,
      "인민": 3228,
      "씨의": 3229,
      "간에": 3230,
      "대한": 3231,
      "사실": 3232,
      "법률": 3233,
      "아니라": 3234,
      "가.": 3235,
      "시": 3236,
      "연구": 3237,
      "이어": 3238,
      "하지": 3239,
      "홈.": 3240,
      "에대야": 3241,
      "물론": 3242,
      "사가": 3243,
      "로써": 3244,
      "불능": 3245,
      "들의": 3246,
      "가티": 3247,
      "들이": 3248,
      "....": 3249,
      "으로써": 3250,
      "서는": 3251,
      "력을": 3252,
      "경제": 3253,
      "엇다.": 3254,
      "문명": 3255,
      "이부": 3256,
      "리가": 3257,
      "에대한": 3258,
      "노": 3259,
      "인을": 3260,
      "의무": 3261,
      "지를": 3262,
      "과여": 3263,
      "스나": 3264,
      "보고": 3265,
      "에불": 3266,
      "이고": 3267,
      "니라.": 3268,
      "동포": 3269,
      "인도": 3270,
      "그의": 3271,
      "일에": 3272,
      "신문": 3273,
      "가지고": 3274,
      "업는": 3275,
      "에관": 3276,
      "조직": 3277,
      "의원": 3278,
      "들어": 3279,
      "도다.": 3280,
      "기타": 3281,
      "정을": 3282,
      "것도": 3283,
      "엇지": 3284,
      "다.": 3285,
      "의소": 3286,
      "에이": 3287,
      "되": 3288,
      "발달": 3289,
      "되고": 3290,
      "더니": 3291,
      "는데": 3292,
      "본회": 3293,
      "지나": 3294,
      "이다": 3295,
      "의가": 3296,
      "도가": 3297,
      "사업": 3298,
      "유지": 3299,
      "여": 3300,
      "이란": 3301,
      ".": 3302,
      "대신": 3303,
      "경우": 3304,
      "니라.": 3305,
      "선생": 3306,
      "또한": 3307,
      "는그": 3308,
      "인류": 3309,
      "거": 3310,
      "에기": 3311,
      "차": 3312,
      "호아": 3313,
      "수가": 3314,
      "무엇": 3315,
      "이라고": 3316,
      "의미": 3317,
      "제이": 3318,
      "부지": 3319,
      "니까": 3320,
      "하엿다.": 3321,
      "방법": 3322,
      "라는": 3323,
      "지도": 3324,
      "결과": 3325,
      "20": 3326,
      "이여": 3327,
      "단체": 3328,
      "전에": 3329,
      "이는": 3330,
      "모든": 3331,
      "치안": 3332,
      ",,": 3333,
      "국이": 3334,
      "도의": 3335,
      "부득": 3336,
      "년에": 3337,
      "가는": 3338,
      "한것이": 3339,
      "독립": 3340,
      "상을": 3341,
      "상의": 3342,
      "여러": 3343,
      "한다": 3344,
      "때에": 3345,
      "즉": 3346,
      "든지": 3347,
      "이일": 3348,
      "의수": 3349,
      "인가": 3350,
      "도를": 3351,
      "문학": 3352,
      "지가": 3353,
      "섯다.": 3354,
      "의이": 3355,
      "이라도": 3356,
      "경성": 3357,
      "에서는": 3358,
      "...": 3359,
      "명을": 3360,
      "스며": 3361,
      "게되": 3362,
      "야라.": 3363,
      "자로": 3364,
      "던지": 3365,
      "의성": 3366,
      "」「": 3367,
      "내가": 3368,
      "인야": 3369,
      "이요": 3370,
      "물을": 3371,
      "식을": 3372,
      "가튼": 3373,
      "중국": 3374,
      "위하야": 3375,
      "회를": 3376,
      "에유": 3377,
      "이로": 3378,
      "하는것이": 3379,
      "의전": 3380,
      "다": 3381,
      "을지": 3382,
      "상이": 3383,
      "력이": 3384,
      "위야": 3385,
      "시간": 3386,
      "다만": 3387,
      "등의": 3388,
      "지의": 3389,
      "슴니다.": 3390,
      "가장": 3391,
      "완전": 3392,
      "고기": 3393,
      "실로": 3394,
      "자본": 3395,
      "회의": 3396,
      "기에": 3397,
      "하다.": 3398,
      "19": 3399,
      "성을": 3400,
      "만일": 3401,
      "니다.그": 3402,
      "의정": 3403,
      "동일": 3404,
      "그리": 3405,
      "이가": 3406,
      "지아니": 3407,
      "는것이": 3408,
      "동의": 3409,
      "원을": 3410,
      "이업": 3411,
      "이이": 3412,
      "하였": 3413,
      "기관": 3414,
      "전을": 3415,
      "은이": 3416,
      "그러나": 3417,
      "이외": 3418,
      "인생": 3419,
      "지니": 3420,
      "더욱": 3421,
      "제군": 3422,
      "영국": 3423,
      "미국": 3424,
      "이러한": 3425,
      "어느": 3426,
      "연히": 3427,
      "해서": 3428,
      "계급": 3429,
      "차에": 3430,
      "으면": 3431,
      "할것이": 3432,
      "이하": 3433,
      "아모": 3434,
      "만한": 3435,
      "종교": 3436,
      "연이나": 3437,
      "잇다.": 3438,
      "우": 3439,
      "지에": 3440,
      "야": 3441,
      "에대하야": 3442,
      "문화": 3443,
      "장이": 3444,
      "에부": 3445,
      "바": 3446,
      "가되": 3447,
      "마는": 3448,
      "의주": 3449,
      "연즉": 3450,
      "동시에": 3451,
      "보면": 3452,
      "서서": 3453,
      "업시": 3454,
      "가무": 3455,
      "권을": 3456,
      "동양": 3457,
      "이시": 3458,
      "말을": 3459,
      "또는": 3460,
      "할지": 3461,
      "입니다.": 3462,
      "부분": 3463,
      "얼마": 3464,
      "자": 3465,
      "우리는": 3466,
      "노라.": 3467,
      "아국": 3468,
      "기의": 3469,
      "내에": 3470,
      "이라는": 3471,
      "성이": 3472,
      "여차": 3473,
      "그는": 3474,
      "차": 3475,
      "지라.": 3476,
      "원이": 3477,
      "을부": 3478,
      "야이": 3479,
      "내지": 3480,
      "인데": 3481,
      "대의": 3482,
      "현재": 3483,
      "30": 3484,
      "모양": 3485,
      "보통": 3486,
      "도로": 3487,
      "무슨": 3488,
      "에가": 3489,
      "그런": 3490,
      "종의": 3491,
      "사": 3492,
      "정의": 3493,
      "12": 3494,
      "하려": 3495,
      "와여": 3496,
      "드러": 3497,
      "이아니": 3498,
      "전쟁": 3499,
      "다": 3500,
      "문을": 3501,
      "": 3502,
      "수를": 3503,
      "수의": 3504,
      "코져": 3505,
      "다른": 3506,
      "부를": 3507,
      "회사": 3508,
      "마음": 3509,
      "이제": 3510,
      "하겟": 3511,
      "동안": 3512,
      "시": 3513,
      "생산": 3514,
      "리에": 3515,
      "지는": 3516,
      "심을": 3517,
      "으나": 3518,
      "장을": 3519,
      "인으로": 3520,
      "때문": 3521,
      "특히": 3522,
      "의부": 3523,
      "일은": 3524,
      "지어": 3525,
      "상으로": 3526,
      "이를": 3527,
      "이전": 3528,
      "천하": 3529,
      "지않": 3530,
      "까닭": 3531,
      "농업": 3532,
      "엿다.": 3533,
      "XX": 3534,
      "지라.": 3535,
      "결코": 3536,
      "기는": 3537,
      "아의": 3538,
      "은그": 3539,
      "합니다.": 3540,
      "되어": 3541,
      "책임": 3542,
      "자": 3543,
      "리는": 3544,
      "역사": 3545,
      "외국": 3546,
      "지만": 3547,
      "씨": 3548,
      "이야": 3549,
      "로부터": 3550,
      "조합": 3551,
      "일개": 3552,
      "50": 3553,
      "부의": 3554,
      "18": 3555,
      "이불": 3556,
      "대개": 3557,
      "능히": 3558,
      "이아": 3559,
      "로서": 3560,
      "상하": 3561,
      "은기": 3562,
      "방면": 3563,
      "원의": 3564,
      "도덕": 3565,
      "권리": 3566,
      "모르": 3567,
      "활동": 3568,
      "나의": 3569,
      "외에": 3570,
      "용이": 3571,
      "한국": 3572,
      "역시": 3573,
      "이래": 3574,
      "물이": 3575,
      "설립": 3576,
      "일을": 3577,
      "면서": 3578,
      "당시": 3579,
      "가의": 3580,
      "장래": 3581,
      "할것": 3582,
      "자기의": 3583,
      "연이": 3584,
      "제삼": 3585,
      "에달": 3586,
      "화를": 3587,
      "상태": 3588,
      "의를": 3589,
      "지사": 3590,
      "고,": 3591,
      "원은": 3592,
      "인간": 3593,
      "가치": 3594,
      "현금": 3595,
      "아가": 3596,
      "함을": 3597,
      "고로": 3598,
      "이위": 3599,
      "야일": 3600,
      "사람이": 3601,
      "구나": 3602,
      "이리": 3603,
      "행위": 3604,
      "같이": 3605,
      "부가": 3606,
      "하게되": 3607,
      "자에": 3608,
      "사는": 3609,
      "소작": 3610,
      "일.": 3611,
      "우리의": 3612,
      "중의": 3613,
      "": 3614,
      "도유": 3615,
      "혁명": 3616,
      "지지": 3617,
      "예술": 3618,
      "호": 3619,
      "야도": 3620,
      "에불과": 3621,
      "같은": 3622,
      "의유": 3623,
      "없는": 3624,
      "오호": 3625,
      "과학": 3626,
      "을기": 3627,
      "하자": 3628,
      "아한": 3629,
      "제십": 3630,
      "이자": 3631,
      "제국": 3632,
      "공부": 3633,
      "야ᅵ": 3634,
      "함은": 3635,
      "에일": 3636,
      "따라": 3637,
      "에비": 3638,
      "정": 3639,
      "과거": 3640,
      "자신": 3641,
      ",그": 3642,
      "서를": 3643,
      "니차": 3644,
      "과연": 3645,
      "한것": 3646,
      "어떠": 3647,
      "의신": 3648,
      "있는": 3649,
      "사무": 3650,
      "학문": 3651,
      "바": 3652,
      "되": 3653,
      "도다.": 3654,
      "에": 3655,
      "가가": 3656,
      "한번": 3657,
      "등을": 3658,
      "보아": 3659,
      "사로": 3660,
      "씨는": 3661,
      "의식": 3662,
      "경영": 3663,
      "을득": 3664,
      "재산": 3665,
      "컨": 3666,
      "인": 3667,
      "성의": 3668,
      "기로": 3669,
      "가정": 3670,
      "기자": 3671,
      "이라.": 3672,
      "기로": 3673,
      "나라": 3674,
      "사용": 3675,
      "지위": 3676,
      "희망": 3677,
      "국제": 3678,
      "다수": 3679,
      "으로부터": 3680,
      ",이": 3681,
      "을주": 3682,
      "이엇": 3683,
      "일보": 3684,
      "오늘": 3685,
      ".(": 3686,
      "유": 3687,
      "니라.": 3688,
      "물의": 3689,
      "생명": 3690,
      "고우": 3691,
      "11": 3692,
      "을구": 3693,
      "신체": 3694,
      "지구": 3695,
      "진보": 3696,
      "의공": 3697,
      "이만": 3698,
      "얏다": 3699,
      "의제": 3700,
      "의구": 3701,
      "토지": 3702,
      "설명": 3703,
      "사건": 3704,
      "이에": 3705,
      "하시": 3706,
      "지식": 3707,
      "발전": 3708,
      "을시": 3709,
      "요구": 3710,
      "중심": 3711,
      "차로": 3712,
      "특별": 3713,
      "와서": 3714,
      "기도": 3715,
      "진": 3716,
      "리의": 3717,
      "회장": 3718,
      "이것은": 3719,
      "도록": 3720,
      "되야": 3721,
      "하에": 3722,
      "거시": 3723,
      "말하면": 3724,
      "조사": 3725,
      "이의": 3726,
      "항상": 3727,
      "성질": 3728,
      "조선의": 3729,
      "평양": 3730,
      "는지": 3731,
      "행복": 3732,
      "야라": 3733,
      "15": 3734,
      "을발": 3735,
      "국지": 3736,
      "도쿄": 3737,
      "유야": 3738,
      "세를": 3739,
      "으니": 3740,
      "작품": 3741,
      "인격": 3742,
      "한일": 3743,
      "작용": 3744,
      "함이": 3745,
      "해를": 3746,
      "안이": 3747,
      "관찰": 3748,
      "으며": 3749,
      "정이": 3750,
      "경쟁": 3751,
      "독일": 3752,
      "원래": 3753,
      "존재": 3754,
      "여자": 3755,
      "보다도": 3756,
      "국을": 3757,
      "농민": 3758,
      "호상": 3759,
      "국가의": 3760,
      "군의": 3761,
      "우에": 3762,
      "이익": 3763,
      "이사": 3764,
      "한바": 3765,
      "제의": 3766,
      "관념": 3767,
      "야오": 3768,
      "니기": 3769,
      "대": 3770,
      "은일": 3771,
      "하든": 3772,
      "": 3773,
      "공업": 3774,
      "서로": 3775,
      "오는": 3776,
      "사람의": 3777,
      "된다.": 3778,
      "도라": 3779,
      "소리": 3780,
      "지고": 3781,
      "회원": 3782,
      "에의하야": 3783,
      "여사": 3784,
      "마다": 3785,
      "리니": 3786,
      "규칙": 3787,
      "재판": 3788,
      "지로": 3789,
      "아.": 3790,
      "을불": 3791,
      "이미": 3792,
      "도에": 3793,
      "고그": 3794,
      "래서": 3795,
      "이수": 3796,
      "시": 3797,
      "0000000": 3798,
      "1일": 3799,
      "지라.": 3800,
      "▧▧": 3801,
      "이후": 3802,
      "하리": 3803,
      "실행": 3804,
      "실업": 3805,
      "자와": 3806,
      "이개": 3807,
      "사람은": 3808,
      "나니": 3809,
      "사에": 3810,
      "하다": 3811,
      "가결": 3812,
      "럼으로": 3813,
      "극히": 3814,
      "나니": 3815,
      "상당": 3816,
      "인과": 3817,
      "이생": 3818,
      "비록": 3819,
      "노력": 3820,
      "다.그리고": 3821,
      "규정": 3822,
      "행동": 3823,
      "이용": 3824,
      "가를": 3825,
      "중앙": 3826,
      "으로서": 3827,
      "이니": 3828,
      "등은": 3829,
      "하면서": 3830,
      "되여": 3831,
      "이오.": 3832,
      "그것은": 3833,
      "다.그리": 3834,
      "물질": 3835,
      "이해": 3836,
      "하얏다.": 3837,
      "니다": 3838,
      "만히": 3839,
      "종류": 3840,
      "고려": 3841,
      "지기": 3842,
      "오인의": 3843,
      "위원": 3844,
      "회에": 3845,
      "다.그런": 3846,
      "돌아": 3847,
      "이성": 3848,
      "처음": 3849,
      "의자": 3850,
      "조를": 3851,
      "국에": 3852,
      "농촌": 3853,
      "소설": 3854,
      "이와": 3855,
      "야수": 3856,
      "다음": 3857,
      "엇더": 3858,
      "화가": 3859,
      "비를": 3860,
      "군은": 3861,
      "시를": 3862,
      "자ᅵ": 3863,
      "사": 3864,
      "다면": 3865,
      "법을": 3866,
      "": 3867,
      "들을": 3868,
      "생활을": 3869,
      "」의": 3870,
      "얼마나": 3871,
      "아직": 3872,
      "이도": 3873,
      "3년": 3874,
      "이조": 3875,
      "말로": 3876,
      "범위": 3877,
      "사회의": 3878,
      "사지": 3879,
      "차등": 3880,
      "만은": 3881,
      "가서": 3882,
      "부모": 3883,
      "이대": 3884,
      "정한": 3885,
      "삼림": 3886,
      "증가": 3887,
      "하지안": 3888,
      "었다.": 3889,
      "이것이": 3890,
      "학회": 3891,
      "되엇": 3892,
      "대를": 3893,
      "여기": 3894,
      "의고": 3895,
      "적을": 3896,
      "현상": 3897,
      "하는것은": 3898,
      "거나": 3899,
      "사랑": 3900,
      "제도": 3901,
      "지요.": 3902,
      "어떤": 3903,
      "스면": 3904,
      "니까.": 3905,
      "때문에": 3906,
      "다소": 3907,
      "적의": 3908,
      "자ᅵ": 3909,
      "수입": 3910,
      "밧게": 3911,
      "영향": 3912,
      "기": 3913,
      "은행": 3914,
      "인구": 3915,
      "감독": 3916,
      "중요": 3917,
      "되엿": 3918,
      "금에": 3919,
      "제를": 3920,
      "하랴": 3921,
      "계의": 3922,
      "한것은": 3923,
      "가?": 3924,
      "국은": 3925,
      "업다.": 3926,
      "느냐": 3927,
      "자도": 3928,
      "보호": 3929,
      "지리": 3930,
      "시에": 3931,
      "리오.": 3932,
      "대학": 3933,
      "에입": 3934,
      "시작": 3935,
      "거니와": 3936,
      "관을": 3937,
      "에나": 3938,
      "부인": 3939,
      "말이": 3940,
      "으로는": 3941,
      "경을": 3942,
      "소를": 3943,
      "인물": 3944,
      "인즉": 3945,
      "적이": 3946,
      "이러케": 3947,
      "의로": 3948,
      "조의": 3949,
      "단히": 3950,
      "모다": 3951,
      "상업": 3952,
      "소유": 3953,
      "외다.": 3954,
      "40": 3955,
      "로는": 3956,
      "과여히": 3957,
      "시기": 3958,
      "를가": 3959,
      "새로": 3960,
      "소이": 3961,
      "그것이": 3962,
      "제가": 3963,
      ")(": 3964,
      "우는": 3965,
      "정당": 3966,
      "직접": 3967,
      "후": 3968,
      "일대": 3969,
      "이라칭": 3970,
      "만흔": 3971,
      "먼저": 3972,
      "속에": 3973,
      "연설": 3974,
      "식물": 3975,
      "1년": 3976,
      "대저": 3977,
      "체의": 3978,
      "한자": 3979,
      "그리고": 3980,
      "야사": 3981,
      "청원": 3982,
      "등이": 3983,
      "100": 3984,
      "과가티": 3985,
      "진": 3986,
      "동물": 3987,
      "비교": 3988,
      "시의": 3989,
      "적은": 3990,
      "제조": 3991,
      "구주": 3992,
      "금을": 3993,
      "래도": 3994,
      "졸업": 3995,
      "간의": 3996,
      "리오.": 3997,
      "곤란": 3998,
      "지고": 3999,
      "을일": 4000,
      "인에게": 4001,
      "조약": 4002,
      "계속": 4003,
      "지라": 4004,
      "하는것": 4005,
      "동서": 4006,
      "장의": 4007,
      "통상": 4008,
      "신의": 4009,
      "거즉": 4010,
      "누구": 4011,
      "양성": 4012,
      "을위": 4013,
      "일)": 4014,
      "주의를": 4015,
      "유기": 4016,
      "이차": 4017,
      "호아.": 4018,
      "경찰": 4019,
      "정도": 4020,
      "갓치": 4021,
      "조건": 4022,
      "후에": 4023,
      "야니": 4024,
      "월2": 4025,
      "사": 4026,
      "할것이다.": 4027,
      "그때": 4028,
      "노래": 4029,
      "최근": 4030,
      "": 4031,
      "볼수": 4032,
      "하다가": 4033,
      "고로": 4034,
      "얏스니": 4035,
      "가이": 4036,
      "개인": 4037,
      "아동": 4038,
      "임니다.": 4039,
      "기부": 4040,
      "함으로": 4041,
      "수야": 4042,
      "신을": 4043,
      "키난": 4044,
      "대표": 4045,
      "다가": 4046,
      "더니": 4047,
      "세력": 4048,
      "전국": 4049,
      "여하": 4050,
      "』『": 4051,
      "비상": 4052,
      "종사": 4053,
      "브터": 4054,
      "기를": 4055,
      "1,": 4056,
      "적당": 4057,
      "후의": 4058,
      "노동": 4059,
      "면기": 4060,
      "적인": 4061,
      "가기": 4062,
      "발견": 4063,
      "성립": 4064,
      "하여야": 4065,
      "시다.": 4066,
      "할수잇": 4067,
      "지라도": 4068,
      "하는바": 4069,
      "생존": 4070,
      "심이": 4071,
      "위선": 4072,
      "인정": 4073,
      "장은": 4074,
      "노니": 4075,
      "관리": 4076,
      "산을": 4077,
      "17": 4078,
      "가히": 4079,
      "두고": 4080,
      "제사": 4081,
      "구별": 4082,
      "그들의": 4083,
      "도역": 4084,
      "........": 4085,
      "시는": 4086,
      "에속": 4087,
      "하는데": 4088,
      "무를": 4089,
      "16": 4090,
      "동아": 4091,
      "아닌": 4092,
      "어린": 4093,
      "함니다.": 4094,
      "군이": 4095,
      "기독": 4096,
      "에잇는": 4097,
      "표현": 4098,
      "자": 4099,
      "에의야": 4100,
      "고구": 4101,
      "체를": 4102,
      "코자": 4103,
      "내각": 4104,
      "위를": 4105,
      "지회": 4106,
      "하오": 4107,
      "우리가": 4108,
      "그만": 4109,
      "업을": 4110,
      "지소": 4111,
      "태양": 4112,
      "계획": 4113,
      "의연": 4114,
      "은전": 4115,
      "의회": 4116,
      "기위야": 4117,
      "개량": 4118,
      "민중": 4119,
      "처럼": 4120,
      "각각": 4121,
      "근본": 4122,
      "수단": 4123,
      "유명": 4124,
      "나서": 4125,
      "애국": 4126,
      "이소": 4127,
      "하": 4128,
      "": 4129,
      "심히": 4130,
      "건설": 4131,
      "시로": 4132,
      "영웅": 4133,
      "행정": 4134,
      "여러가지": 4135,
      "의게": 4136,
      "자에게": 4137,
      "철학": 4138,
      "아즉": 4139,
      "치고": 4140,
      "할때": 4141,
      "실제": 4142,
      "에취": 4143,
      "만주": 4144,
      "에전": 4145,
      "일의": 4146,
      "종야": 4147,
      "1.": 4148,
      "비로": 4149,
      "와가티": 4150,
      "이약": 4151,
      "남녀": 4152,
      "성공": 4153,
      "중에서": 4154,
      "아무": 4155,
      "계를": 4156,
      "책을": 4157,
      "듯이": 4158,
      "선거": 4159,
      "군주": 4160,
      "형식": 4161,
      "아서": 4162,
      "지야": 4163,
      "천연": 4164,
      "건": 4165,
      "2년": 4166,
      "세기": 4167,
      "발표": 4168,
      "세의": 4169,
      "계약": 4170,
      "그대로": 4171,
      "말슴": 4172,
      "반대": 4173,
      "시가": 4174,
      "고차": 4175,
      "결정": 4176,
      "나마": 4177,
      "그러케": 4178,
      "는다.": 4179,
      "안을": 4180,
      "발생": 4181,
      "여긔": 4182,
      "교수": 4183,
      "월에": 4184,
      "각기": 4185,
      "군을": 4186,
      "의진": 4187,
      "일어": 4188,
      "바": 4189,
      "미를": 4190,
      "이런": 4191,
      "경향": 4192,
      "소년": 4193,
      "해가": 4194,
      "는것": 4195,
      "이것을": 4196,
      "전문": 4197,
      "지주": 4198,
      "14": 4199,
      "과를": 4200,
      "그것을": 4201,
      "농상": 4202,
      "세에": 4203,
      "제한": 4204,
      "부로": 4205,
      "어찌": 4206,
      "13": 4207,
      "부족": 4208,
      "부여": 4209,
      "분을": 4210,
      "이없": 4211,
      "잇고": 4212,
      "부동": 4213,
      "의위": 4214,
      "저히": 4215,
      "작년": 4216,
      "점차": 4217,
      "에있": 4218,
      "의상": 4219,
      "라": 4220,
      "되다.": 4221,
      "과": 4222,
      "고가": 4223,
      "세상": 4224,
      "수업": 4225,
      "일절": 4226,
      "것이": 4227,
      "대가": 4228,
      "에공": 4229,
      "을정": 4230,
      "키불능": 4231,
      "내용": 4232,
      "세가": 4233,
      "어도": 4234,
      "을이": 4235,
      "코저": 4236,
      "매우": 4237,
      "연한": 4238,
      "지라": 4239,
      "라칭": 4240,
      "벌서": 4241,
      "인사": 4242,
      "법은": 4243,
      "더라.": 4244,
      "": 4245,
      "갱히": 4246,
      "거리": 4247,
      "을당": 4248,
      "이역": 4249,
      "형제": 4250,
      "구를": 4251,
      "지면": 4252,
      "에만": 4253,
      "체가": 4254,
      "나무": 4255,
      "반다시": 4256,
      "주장": 4257,
      "학부": 4258,
      "감정": 4259,
      "이태": 4260,
      "천리": 4261,
      "공기": 4262,
      "머니": 4263,
      "명령": 4264,
      "산업": 4265,
      "화의": 4266,
      "금지": 4267,
      "십일": 4268,
      "씨를": 4269,
      "며혹": 4270,
      "목을": 4271,
      "서도": 4272,
      "제공": 4273,
      "별로": 4274,
      "보앗": 4275,
      "하야그": 4276,
      "60": 4277,
      "아는": 4278,
      "이구": 4279,
      "2,": 4280,
      "고잇": 4281,
      "부르": 4282,
      "서기": 4283,
      "언어": 4284,
      "필경": 4285,
      "각종": 4286,
      "해군": 4287,
      "": 4288,
      "이되고": 4289,
      "의야": 4290,
      "력으로": 4291,
      "서양": 4292,
      "요?": 4293,
      "건강": 4294,
      "엇던": 4295,
      "에관": 4296,
      "에이르": 4297,
      "25": 4298,
      "발행": 4299,
      "업고": 4300,
      "준비": 4301,
      "건": 4302,
      "전의": 4303,
      "청국": 4304,
      "슴으로": 4305,
      "제출": 4306,
      "표준": 4307,
      "하고잇": 4308,
      "따라서": 4309,
      "과의": 4310,
      "명이": 4311,
      "사립": 4312,
      "오인이": 4313,
      "가운": 4314,
      "을경": 4315,
      "하던": 4316,
      "에잇서": 4317,
      "20000000": 4318,
      "」(": 4319,
      "만원": 4320,
      "경에": 4321,
      "바라": 4322,
      "국민의": 4323,
      "일인": 4324,
      "하고그": 4325,
      "을득": 4326,
      "명의": 4327,
      "을작": 4328,
      "리오": 4329,
      "현대": 4330,
      "에대": 4331,
      "얏다더라.": 4332,
      "가위": 4333,
      "냐.": 4334,
      "수로": 4335,
      "이안": 4336,
      "자라": 4337,
      "게된": 4338,
      "학을": 4339,
      "히려": 4340,
      "노예": 4341,
      "이한": 4342,
      "교육의": 4343,
      "신라": 4344,
      "기후": 4345,
      "어다.": 4346,
      "을거": 4347,
      "할뿐": 4348,
      "장에": 4349,
      "지라도": 4350,
      "에게는": 4351,
      "기지": 4352,
      "좌우": 4353,
      "아니오": 4354,
      "이유니": 4355,
      "을통": 4356,
      "청구": 4357,
      "금년": 4358,
      "바람": 4359,
      "수지": 4360,
      "이우": 4361,
      "하되": 4362,
      "회복": 4363,
      ")이": 4364,
      "고등": 4365,
      "고사": 4366,
      "반도": 4367,
      "일부": 4368,
      "다.그런데": 4369,
      "(이": 4370,
      "시행": 4371,
      "얼골": 4372,
      "수한": 4373,
      "아마": 4374,
      "치를": 4375,
      "」를": 4376,
      "므로": 4377,
      "조가": 4378,
      "것이니": 4379,
      "있다.": 4380,
      "에재": 4381,
      "나를": 4382,
      "고일": 4383,
      "며우": 4384,
      "에지야": 4385,
      "다니": 4386,
      "이그": 4387,
      "타고": 4388,
      "할만한": 4389,
      "공포": 4390,
      "교통": 4391,
      "인종": 4392,
      "한사람": 4393,
      "다.그럼으로": 4394,
      "목적을": 4395,
      "할지라도": 4396,
      "매일": 4397,
      "실패": 4398,
      "은즉": 4399,
      "한가지": 4400,
      "해결": 4401,
      "당신": 4402,
      "만치": 4403,
      "불과": 4404,
      "한다는": 4405,
      "내부": 4406,
      "파의": 4407,
      "확장": 4408,
      "생활의": 4409,
      "을대": 4410,
      "점점": 4411,
      "주는": 4412,
      "다.그는": 4413,
      "이니라.": 4414,
      "불행": 4415,
      "비가": 4416,
      "소개": 4417,
      "기어": 4418,
      "미가": 4419,
      "각국": 4420,
      "들고": 4421,
      "보는": 4422,
      "언제": 4423,
      "한것을": 4424,
      "전을거즉": 4425,
      "외교": 4426,
      "일종": 4427,
      "처에": 4428,
      "인이라": 4429,
      "해도": 4430,
      ",,,,": 4431,
      "」는": 4432,
      "더러": 4433,
      "보내": 4434,
      "유학생": 4435,
      "이로다.": 4436,
      "한문": 4437,
      "불가불": 4438,
      "을성": 4439,
      "하기를": 4440,
      "정신을": 4441,
      ",000": 4442,
      "개의": 4443,
      "금기": 4444,
      "대에": 4445,
      "례를": 4446,
      "방침": 4447,
      "오인": 4448,
      "일로": 4449,
      "지": 4450,
      "조선인": 4451,
      "가령": 4452,
      "너무": 4453,
      "생을": 4454,
      "읍니다.": 4455,
      "천지": 4456,
      "연후에": 4457,
      "이종": 4458,
      "회가": 4459,
      "말고": 4460,
      "최고": 4461,
      "내외": 4462,
      "서울": 4463,
      "의장": 4464,
      "랴": 4465,
      "자본주의": 4466,
      "농상공부": 4467,
      "성은": 4468,
      "이번": 4469,
      "주권": 4470,
      "학자": 4471,
      "을가진": 4472,
      "경험": 4473,
      "기독교": 4474,
      "강구": 4475,
      "로인": 4476,
      "여": 4477,
      "오인은": 4478,
      "주식": 4479,
      "그러면": 4480,
      "것으로": 4481,
      "선을": 4482,
      "얏": 4483,
      "치안이": 4484,
      "2.": 4485,
      "상은": 4486,
      "평화": 4487,
      "),": 4488,
      "때는": 4489,
      "의도": 4490,
      "인가.": 4491,
      "사회적": 4492,
      "개인의": 4493,
      "의심": 4494,
      "일층": 4495,
      "고를": 4496,
      "라운": 4497,
      "습관": 4498,
      "시험": 4499,
      "오히려": 4500,
      "유일": 4501,
      "정책": 4502,
      "하의": 4503,
      "야왈": 4504,
      "문제를": 4505,
      "하지않": 4506,
      "재판소": 4507,
      "계에": 4508,
      "치는": 4509,
      "환영": 4510,
      "기사": 4511,
      "리아": 4512,
      "월십": 4513,
      "지마는": 4514,
      "지니라.": 4515,
      "음을": 4516,
      "지이": 4517,
      "며기": 4518,
      "교사": 4519,
      "다이": 4520,
      "때에는": 4521,
      "실시": 4522,
      "자치": 4523,
      "이유": 4524,
      "거": 4525,
      "고또": 4526,
      "기초": 4527,
      "임시": 4528,
      "이상의": 4529,
      "건축": 4530,
      "하지못": 4531,
      "다.그리하야": 4532,
      "위생": 4533,
      "이내": 4534,
      "집행": 4535,
      "충분": 4536,
      ".그": 4537,
      "의견": 4538,
      "하로": 4539,
      "이래로": 4540,
      "금은": 4541,
      "기다": 4542,
      "불연": 4543,
      "이거": 4544,
      "정야": 4545,
      "1시": 4546,
      "알고": 4547,
      "종래": 4548,
      "그러한": 4549,
      "기호": 4550,
      "스로": 4551,
      "위지": 4552,
      "을조": 4553,
      "고구려": 4554,
      "」하고": 4555,
      "도잇": 4556,
      "이심": 4557,
      "이엇다.": 4558,
      "정은": 4559,
      "가족": 4560,
      "도그": 4561,
      "동맹": 4562,
      "씨동의": 4563,
      "어야": 4564,
      "영업": 4565,
      "의비": 4566,
      "여러분": 4567,
      "도무": 4568,
      "이비": 4569,
      "전기": 4570,
      ",「": 4571,
      "말은": 4572,
      "분명": 4573,
      "성명": 4574,
      "언론": 4575,
      "인고로": 4576,
      "자지": 4577,
      "의시": 4578,
      "제씨": 4579,
      "00여": 4580,
      "여하히": 4581,
      "도다": 4582,
      "오즉": 4583,
      "확실": 4584,
      "개월": 4585,
      "나타": 4586,
      "니다.그러나": 4587,
      "만큼": 4588,
      "통일": 4589,
      "구가": 4590,
      "소송": 4591,
      "식민": 4592,
      "을사": 4593,
      "크게": 4594,
      "려고": 4595,
      "야오.": 4596,
      "어시": 4597,
      "지상": 4598,
      "지일": 4599,
      "차이": 4600,
      "야자": 4601,
      "이라운": 4602,
      "사회에": 4603,
      "나가": 4604,
      "변천": 4605,
      "야유": 4606,
      "도는": 4607,
      "만족": 4608,
      "무한": 4609,
      "보니": 4610,
      "연합": 4611,
      "야전": 4612,
      "학교를": 4613,
      "어떠한": 4614,
      "되얏": 4615,
      "천만": 4616,
      "10년": 4617,
      "들에게": 4618,
      "산의": 4619,
      "조에": 4620,
      "지내": 4621,
      "하등": 4622,
      "24": 4623,
      "그가": 4624,
      "기계": 4625,
      "대동": 4626,
      "부시": 4627,
      "수십": 4628,
      "의문": 4629,
      "니차": 4630,
      "다.그래서": 4631,
      "시대에": 4632,
      "뒤에": 4633,
      "명예": 4634,
      "을고": 4635,
      "이.": 4636,
      "한것이다.": 4637,
      "오": 4638,
      "인류의": 4639,
      "하였다.": 4640,
      "명칭": 4641,
      "아버": 4642,
      "에위": 4643,
      "일언": 4644,
      "현실": 4645,
      "야부": 4646,
      "이오": 4647,
      "가업": 4648,
      "미완": 4649,
      "수는": 4650,
      "신사": 4651,
      "어니와": 4652,
      "재를": 4653,
      "제로": 4654,
      "헌법": 4655,
      "()": 4656,
      "변화": 4657,
      "이주": 4658,
      "도리": 4659,
      "설을": 4660,
      "이동": 4661,
      "절대": 4662,
      "즉시": 4663,
      "총독": 4664,
      "여성": 4665,
      "의복": 4666,
      "의분": 4667,
      "이라": 4668,
      "겨우": 4669,
      "비행": 4670,
      "에다": 4671,
      "임을": 4672,
      "호를": 4673,
      "여좌": 4674,
      "자강": 4675,
      "얏고": 4676,
      "됨을": 4677,
      "래로": 4678,
      "력은": 4679,
      "속히": 4680,
      "시키": 4681,
      "심으로": 4682,
      "어": 4683,
      "여시": 4684,
      "지부": 4685,
      "척식": 4686,
      "라.": 4687,
      "에지": 4688,
      "」을": 4689,
      "없다.": 4690,
      "영화": 4691,
      "지유": 4692,
      "는": 4693,
      "000000": 4694,
      "방으로": 4695,
      "사.": 4696,
      "수고": 4697,
      "여가": 4698,
      "해주": 4699,
      "회계": 4700,
      "이론": 4701,
      "철도": 4702,
      "한데": 4703,
      "정부의": 4704,
      "공동": 4705,
      "기위": 4706,
      "신이": 4707,
      "영원": 4708,
      "중에도": 4709,
      ")을": 4710,
      "경기": 4711,
      "구미": 4712,
      "병을": 4713,
      "서북": 4714,
      "소.": 4715,
      "위에": 4716,
      "이잇는": 4717,
      "할수업": 4718,
      "이되야": 4719,
      "왕왕": 4720,
      "이있": 4721,
      "일치": 4722,
      "지배": 4723,
      "차가": 4724,
      "한다고": 4725,
      "황제": 4726,
      "하는것이다.": 4727,
      "하지아니": 4728,
      "와여히": 4729,
      "공산": 4730,
      "구의": 4731,
      "료를": 4732,
      "모를": 4733,
      "속)": 4734,
      "수": 4735,
      "어가": 4736,
      "연애": 4737,
      "저서": 4738,
      "전부": 4739,
      "제2": 4740,
      "케고": 4741,
      "던": 4742,
      "방법을": 4743,
      "이가홈.": 4744,
      "그를": 4745,
      "자격": 4746,
      "장려": 4747,
      "에대하여": 4748,
      "명은": 4749,
      "야에": 4750,
      "이엿": 4751,
      "제오": 4752,
      "학과": 4753,
      "에재야": 4754,
      "의성질": 4755,
      "것과": 4756,
      "물은": 4757,
      "직업": 4758,
      "고대": 4759,
      "면에": 4760,
      "무역": 4761,
      "유의": 4762,
      "전혀": 4763,
      "오호라": 4764,
      "기소": 4765,
      "물건": 4766,
      "우주": 4767,
      "장으로": 4768,
      "고금": 4769,
      "기원": 4770,
      "신경": 4771,
      "아를": 4772,
      "오직": 4773,
      "을개": 4774,
      "의결": 4775,
      "호흡": 4776,
      "과여": 4777,
      "대야": 4778,
      "도저히": 4779,
      "보를": 4780,
      "불평": 4781,
      "요,": 4782,
      "회를개": 4783,
      "것입니다.": 4784,
      "소비": 4785,
      "에귀": 4786,
      "위험": 4787,
      "제1": 4788,
      "": 4789,
      "실노": 4790,
      "지라": 4791,
      ")의": 4792,
      "교환": 4793,
      "국유": 4794,
      "나고": 4795,
      "리라": 4796,
      "버리고": 4797,
      "삼.": 4798,
      "이언": 4799,
      "희생": 4800,
      "아니다.": 4801,
      "새로운": 4802,
      "다.그러면": 4803,
      "에잇서서": 4804,
      "거나": 4805,
      "차는": 4806,
      "구조": 4807,
      "내의": 4808,
      "사,": 4809,
      "수백": 4810,
      "타.": 4811,
      "게": 4812,
      "에서도": 4813,
      "고는": 4814,
      "기야": 4815,
      "알수": 4816,
      "을감": 4817,
      "증명": 4818,
      "칙": 4819,
      "아이": 4820,
      "여의": 4821,
      "오래": 4822,
      "케": 4823,
      "소가": 4824,
      "연나": 4825,
      "정에": 4826,
      "지자": 4827,
      "든것이": 4828,
      "리라.": 4829,
      "급기": 4830,
      "남북": 4831,
      "란서": 4832,
      "부유": 4833,
      "씨로": 4834,
      "자,": 4835,
      "재청": 4836,
      "함에": 4837,
      "니까?": 4838,
      "여차": 4839,
      "고지": 4840,
      "리학": 4841,
      "습니다.그": 4842,
      "위의": 4843,
      "융희": 4844,
      "중에는": 4845,
      "지로다.": 4846,
      "하기로": 4847,
      "이외다.": 4848,
      "아모리": 4849,
      "만이": 4850,
      "점을": 4851,
      "지": 4852,
      "참으로": 4853,
      "공황": 4854,
      "금액": 4855,
      "아세": 4856,
      "저녁": 4857,
      "체로": 4858,
      "야곰": 4859,
      "하기위하야": 4860,
      "3.": 4861,
      "다운": 4862,
      "수": 4863,
      "에분": 4864,
      "을도": 4865,
      "지.": 4866,
      "거니와": 4867,
      "70": 4868,
      "가로": 4869,
      "관은": 4870,
      "기유": 4871,
      "당야": 4872,
      "러니": 4873,
      "사와": 4874,
      "이될": 4875,
      "최후": 4876,
      "세계의": 4877,
      "문제가": 4878,
      "갓다.": 4879,
      "고통": 4880,
      "사오": 4881,
      "을방": 4882,
      "6년": 4883,
      "기와": 4884,
      "성과": 4885,
      "아주": 4886,
      "어지": 4887,
      "재아.": 4888,
      "시": 4889,
      "하고잇는": 4890,
      "관계를": 4891,
      "기간": 4892,
      "노서": 4893,
      "대전": 4894,
      "력의": 4895,
      "리니": 4896,
      "소의": 4897,
      "관계가": 4898,
      "에잇어서": 4899,
      "이곳": 4900,
      "지시": 4901,
      "총무": 4902,
      "교육을": 4903,
      "관이": 4904,
      "귀국": 4905,
      "대륙": 4906,
      "수에": 4907,
      "슬것이": 4908,
      "주가": 4909,
      "통령": 4910,
      "협동": 4911,
      "단을": 4912,
      "인민의": 4913,
      "개조": 4914,
      "기한": 4915,
      "닛가": 4916,
      "민의": 4917,
      "사유": 4918,
      "을유": 4919,
      "인,": 4920,
      "시고": 4921,
      "7년": 4922,
      "권의": 4923,
      "다)": 4924,
      "상과": 4925,
      "일즉": 4926,
      "필연": 4927,
      "5년": 4928,
      "러라.": 4929,
      "방에": 4930,
      "케며": 4931,
      "니": 4932,
      "조선인의": 4933,
      "나오": 4934,
      "선전": 4935,
      "아-": 4936,
      "어대": 4937,
      "창조": 4938,
      "통치": 4939,
      "도시": 4940,
      "안에": 4941,
      "임으로": 4942,
      "세계에": 4943,
      "가진": 4944,
      "기고": 4945,
      "기술": 4946,
      "동지": 4947,
      "리로": 4948,
      "물품": 4949,
      "스스로": 4950,
      "주를": 4951,
      "출야": 4952,
      "한성": 4953,
      "지안는": 4954,
      "(일)": 4955,
      "더구나": 4956,
      "많은": 4957,
      "방의": 4958,
      "부근": 4959,
      "학교의": 4960,
      "금일의": 4961,
      "23": 4962,
      "강의": 4963,
      "로를": 4964,
      "면을": 4965,
      "하하": 4966,
      "지며": 4967,
      "하게된": 4968,
      "남의": 4969,
      "서": 4970,
      "주인": 4971,
      "해석": 4972,
      "경우에": 4973,
      "500": 4974,
      "도기": 4975,
      "아름": 4976,
      "연전": 4977,
      "충돌": 4978,
      "피선": 4979,
      "지안코": 4980,
      "정치적": 4981,
      "교의": 4982,
      "사이": 4983,
      "선정": 4984,
      "설치": 4985,
      "에수": 4986,
      "차의": 4987,
      "편집": 4988,
      "협회": 4989,
      "든": 4990,
      "이어니와": 4991,
      "거야": 4992,
      "대부": 4993,
      "슬뿐": 4994,
      "욕망": 4995,
      "학술": 4996,
      "이유야": 4997,
      "가부": 4998,
      "그것": 4999,
      "떠나": 5000,
      "문단": 5001,
      "문예": 5002,
      "사법": 5003,
      "생의": 5004,
      "여지": 5005,
      "연간": 5006,
      "찬성": 5007,
      "시에": 5008,
      "문제로": 5009,
      "물론고": 5010,
      "도업": 5011,
      "떠러": 5012,
      "보급": 5013,
      "분이": 5014,
      "시니": 5015,
      "십이": 5016,
      "유가": 5017,
      "제씨가": 5018,
      "으로인": 5019,
      "비로소": 5020,
      "감각": 5021,
      "건전": 5022,
      "결의": 5023,
      "기대": 5024,
      "당국": 5025,
      "바다": 5026,
      "사야": 5027,
      "산출": 5028,
      "에왈": 5029,
      "여행": 5030,
      "제에": 5031,
      "처녀": 5032,
      "취야": 5033,
      "희랍": 5034,
      "고": 5035,
      "에관한": 5036,
      "구경": 5037,
      "다한다.": 5038,
      "실현": 5039,
      "심의": 5040,
      "아동포": 5041,
      "을상": 5042,
      "임원": 5043,
      "조흔": 5044,
      "총회": 5045,
      "함께": 5046,
      "화학": 5047,
      "할수없": 5048,
      "그들은": 5049,
      "로": 5050,
      "시찰": 5051,
      "하이": 5052,
      "지대": 5053,
      "함.": 5054,
      "합야": 5055,
      "경제적": 5056,
      "4월": 5057,
      "고향": 5058,
      "밖에": 5059,
      "실은": 5060,
      "적용": 5061,
      "종종": 5062,
      "할필요": 5063,
      "함과": 5064,
      "에셔": 5065,
      "에재야": 5066,
      "▧▧▧▧": 5067,
      "관의": 5068,
      "기인": 5069,
      "바로": 5070,
      "보담": 5071,
      "산야": 5072,
      "왕이": 5073,
      "을피": 5074,
      "의「": 5075,
      "에있어서": 5076,
      "28": 5077,
      "나도": 5078,
      "음악": 5079,
      "이름": 5080,
      "하고,": 5081,
      "운동을": 5082,
      "을보고": 5083,
      "가잇다.": 5084,
      "결과로": 5085,
      "가고": 5086,
      "결국": 5087,
      "교과": 5088,
      "복종": 5089,
      "부러": 5090,
      "운운": 5091,
      "케야": 5092,
      "평의원": 5093,
      "사회주의": 5094,
      "미완)": 5095,
      "ᅵ라.": 5096,
      "을제": 5097,
      "전도": 5098,
      "구에": 5099,
      "문자": 5100,
      "스럽": 5101,
      "안이라": 5102,
      "야로다.": 5103,
      "은무": 5104,
      "을가지고": 5105,
      "진야": 5106,
      "필유": 5107,
      "도,": 5108,
      "분의": 5109,
      "우고": 5110,
      "이정": 5111,
      "일조": 5112,
      "여사히": 5113,
      "누구나": 5114,
      "서가": 5115,
      "에무": 5116,
      "이세": 5117,
      "중국의": 5118,
      "사람을": 5119,
      "지금은": 5120,
      "제이십": 5121,
      "아니라": 5122,
      "대답": 5123,
      "머리": 5124,
      "신앙": 5125,
      "입헌": 5126,
      "작가": 5127,
      "제반": 5128,
      "진행": 5129,
      "타인의": 5130,
      "경과": 5131,
      "다-": 5132,
      "도회": 5133,
      "복잡": 5134,
      "부": 5135,
      "숭배": 5136,
      "원칙": 5137,
      "출석": 5138,
      "파리": 5139,
      "문제는": 5140,
      "민족의": 5141,
      "9년": 5142,
      "강제": 5143,
      "결혼": 5144,
      "공자": 5145,
      "본래": 5146,
      "상대": 5147,
      "손을": 5148,
      "우편": 5149,
      "정촌": 5150,
      "기중": 5151,
      "성야": 5152,
      "식의": 5153,
      "자제": 5154,
      "하노": 5155,
      "하야도": 5156,
      "시대의": 5157,
      "엿스니": 5158,
      "공화": 5159,
      "공히": 5160,
      "기만": 5161,
      "는것은": 5162,
      "대중": 5163,
      "배척": 5164,
      "부는": 5165,
      "스러": 5166,
      "은수": 5167,
      "전히": 5168,
      "차저": 5169,
      "이라니": 5170,
      "경우에": 5171,
      "an": 5172,
      "기": 5173,
      "문고": 5174,
      "부에": 5175,
      "신용": 5176,
      "어머니": 5177,
      "을자": 5178,
      "4년": 5179,
      "소리가": 5180,
      "야말로": 5181,
      "어려": 5182,
      "에종사": 5183,
      "유신": 5184,
      "이재": 5185,
      "시": 5186,
      "지어다.": 5187,
      "국가가": 5188,
      "국가를": 5189,
      "리로다.": 5190,
      "on": 5191,
      "공의": 5192,
      "불구": 5193,
      "스트": 5194,
      "신성": 5195,
      "야만": 5196,
      "자동": 5197,
      "파괴": 5198,
      "지라.": 5199,
      "하는것을": 5200,
      "개를": 5201,
      "금전": 5202,
      "나온": 5203,
      "다오": 5204,
      "도못": 5205,
      "만약": 5206,
      "산물": 5207,
      "유리": 5208,
      "한기": 5209,
      "해외": 5210,
      "사회를": 5211,
      "근일": 5212,
      "당의": 5213,
      "들도": 5214,
      "무용": 5215,
      "버리": 5216,
      "할때에": 5217,
      "고의": 5218,
      "공사": 5219,
      "교섭": 5220,
      "능력": 5221,
      "부강": 5222,
      "을향": 5223,
      "재아": 5224,
      "채용": 5225,
      "평균": 5226,
      "하를": 5227,
      "한다면": 5228,
      ")를": 5229,
      "로가": 5230,
      "사진": 5231,
      "수도": 5232,
      "식이": 5233,
      "오배": 5234,
      "요소": 5235,
      "조곰": 5236,
      "조화": 5237,
      "최초": 5238,
      "풍속": 5239,
      "발명": 5240,
      "불국": 5241,
      "여서": 5242,
      "잡지": 5243,
      "금일에": 5244,
      "어떠케": 5245,
      "5월": 5246,
      "가다": 5247,
      "도와": 5248,
      "압헤": 5249,
      "양의": 5250,
      "을요": 5251,
      "잇섯": 5252,
      "폐지": 5253,
      "하라": 5254,
      "가": 5255,
      "(이)": 5256,
      "(속)": 5257,
      "뇨.": 5258,
      "단합": 5259,
      "두가지": 5260,
      "먹고": 5261,
      "유니": 5262,
      "거시": 5263,
      "완전히": 5264,
      "3월": 5265,
      "4,": 5266,
      "그네": 5267,
      "기기": 5268,
      "사자": 5269,
      "시고": 5270,
      "어를": 5271,
      "이진": 5272,
      "일지": 5273,
      "차지": 5274,
      "필요": 5275,
      "완전": 5276,
      "거슨": 5277,
      "고.": 5278,
      "국내": 5279,
      "돈을": 5280,
      "을행": 5281,
      "음니다.": 5282,
      "신": 5283,
      "80": 5284,
      "9월": 5285,
      "가옥": 5286,
      "사리": 5287,
      "사정": 5288,
      "쓰고": 5289,
      "아지": 5290,
      "일신": 5291,
      "으로도": 5292,
      "그런데": 5293,
      "비교적": 5294,
      "베이": 5295,
      "생명을": 5296,
      "지난": 5297,
      "이무": 5298,
      "상하이": 5299,
      "(미완)": 5300,
      "3,": 5301,
      "개혁": 5302,
      "거긔": 5303,
      "다하면": 5304,
      "산은": 5305,
      "십년": 5306,
      "재가": 5307,
      "체육": 5308,
      "간단": 5309,
      "경이": 5310,
      "광무": 5311,
      "다못": 5312,
      "부장": 5313,
      "씨와": 5314,
      "재정": 5315,
      "차기": 5316,
      "하여서": 5317,
      "구라": 5318,
      "드시": 5319,
      "애를": 5320,
      "없이": 5321,
      "일사": 5322,
      "일일": 5323,
      "자고": 5324,
      "호의": 5325,
      "개정": 5326,
      "는대": 5327,
      "듯한": 5328,
      "불란서": 5329,
      "산이": 5330,
      "시인": 5331,
      "역사를": 5332,
      "중지": 5333,
      "천도": 5334,
      "학의": 5335,
      "단순": 5336,
      "될수": 5337,
      "든가": 5338,
      "마치": 5339,
      "사라": 5340,
      "의발": 5341,
      "한후": 5342,
      "소": 5343,
      "될것이": 5344,
      "세월": 5345,
      "우를": 5346,
      "전후": 5347,
      "평등": 5348,
      "모양으로": 5349,
      "겟다.": 5350,
      "소에": 5351,
      "을것이": 5352,
      "자.": 5353,
      "증진": 5354,
      "표시": 5355,
      "일본인": 5356,
      "무엇이": 5357,
      "가결되다.": 5358,
      "구역": 5359,
      "근거": 5360,
      "니다.그러": 5361,
      "당연": 5362,
      "독서": 5363,
      "머리를": 5364,
      "사항": 5365,
      "소리를": 5366,
      "심은": 5367,
      "아조": 5368,
      "일본의": 5369,
      "할수잇는": 5370,
      "기념": 5371,
      "냐?": 5372,
      "누가": 5373,
      "사고": 5374,
      "상품": 5375,
      "압박": 5376,
      "원으로": 5377,
      "윤돈": 5378,
      "음으로": 5379,
      "출입": 5380,
      "할것은": 5381,
      "현상을": 5382,
      "이잇다.": 5383,
      "하나니": 5384,
      "군수": 5385,
      "기때문에": 5386,
      "매년": 5387,
      "성으로": 5388,
      "식으로": 5389,
      "연맹": 5390,
      "영토": 5391,
      "은대": 5392,
      "일종의": 5393,
      "허가": 5394,
      "XXXX": 5395,
      "엇더케": 5396,
      "거의": 5397,
      "락을": 5398,
      "만을": 5399,
      "메이지": 5400,
      "배를": 5401,
      "속에서": 5402,
      "아츰": 5403,
      "수": 5404,
      "하고또": 5405,
      "이잇섯": 5406,
      "에의하면": 5407,
      "동양척식": 5408,
      "드니": 5409,
      "모집": 5410,
      "다.▲": 5411,
      "방면으로": 5412,
      "」이": 5413,
      "개발": 5414,
      "남자": 5415,
      "채권": 5416,
      "까지는": 5417,
      "까지도": 5418,
      "선생님": 5419,
      "5,": 5420,
      "되면": 5421,
      "리적": 5422,
      "미의": 5423,
      "야기": 5424,
      "유치": 5425,
      "유한": 5426,
      "은자": 5427,
      "점령": 5428,
      "제3": 5429,
      "에가서": 5430,
      "까닭에": 5431,
      ")에": 5432,
      "노코": 5433,
      "대통령": 5434,
      "르는": 5435,
      "면으로": 5436,
      "부기": 5437,
      "식히": 5438,
      "언면": 5439,
      "을무": 5440,
      "황금": 5441,
      "10분": 5442,
      "」가": 5443,
      "구제": 5444,
      "복을": 5445,
      "성격": 5446,
      "시지": 5447,
      "의동": 5448,
      "지니": 5449,
      "한편": 5450,
      "혼자": 5451,
      "도": 5452,
      "아니면": 5453,
      "가유니": 5454,
      "게되는": 5455,
      "남으로": 5456,
      "대문": 5457,
      "된것이": 5458,
      "뿐아니라": 5459,
      "쇼와": 5460,
      "응용": 5461,
      "흐로": 5462,
      "나.": 5463,
      "래의": 5464,
      "언을": 5465,
      "영구": 5466,
      "올시다.": 5467,
      "중대": 5468,
      "다.그것은": 5469,
      "들과": 5470,
      "렇게": 5471,
      "문이": 5472,
      "세로": 5473,
      "원에": 5474,
      "을내": 5475,
      "재료": 5476,
      "제씨의": 5477,
      "참고": 5478,
      "태조": 5479,
      "한이": 5480,
      "하여도": 5481,
      "할수업는": 5482,
      "정신적": 5483,
      "8년": 5484,
      "는이": 5485,
      "방향": 5486,
      "십시": 5487,
      "유시": 5488,
      "제정": 5489,
      "형편": 5490,
      "에재": 5491,
      "주의의": 5492,
      "국가": 5493,
      "사업을": 5494,
      "공장": 5495,
      "위가": 5496,
      "잘못": 5497,
      "제륙": 5498,
      "조차": 5499,
      "지원": 5500,
      "고부": 5501,
      "것이": 5502,
      "인이오": 5503,
      "을부득": 5504,
      "무엇을": 5505,
      "공급": 5506,
      "교회": 5507,
      "남편": 5508,
      "더라도": 5509,
      "드는": 5510,
      "병이": 5511,
      "식은": 5512,
      "위로": 5513,
      "유학": 5514,
      "하다고": 5515,
      "한지": 5516,
      "지": 5517,
      "자": 5518,
      "리오": 5519,
      "7월": 5520,
      "○전을거즉": 5521,
      "감사": 5522,
      "거기": 5523,
      "급무": 5524,
      "기회": 5525,
      "법의": 5526,
      "본국": 5527,
      "상상": 5528,
      "엇든": 5529,
      "자금": 5530,
      "장부": 5531,
      "정리": 5532,
      "투쟁": 5533,
      "오늘날": 5534,
      "교를": 5535,
      "동정": 5536,
      "명백": 5537,
      "손으로": 5538,
      "에주": 5539,
      "열심": 5540,
      "것이": 5541,
      "라.고로": 5542,
      "자유를": 5543,
      "다이쇼": 5544,
      "베이징": 5545,
      "가시": 5546,
      "단결": 5547,
      "되며": 5548,
      "민이": 5549,
      "잇서": 5550,
      "적기": 5551,
      "전체": 5552,
      "해야": 5553,
      "이라은": 5554,
      "지못한": 5555,
      "지못하고": 5556,
      "이로": 5557,
      "하자면": 5558,
      "2월": 5559,
      "고무": 5560,
      "기재": 5561,
      "나와": 5562,
      "도모": 5563,
      "려니와": 5564,
      "법칙": 5565,
      "설이": 5566,
      "성에": 5567,
      "을다": 5568,
      "을치": 5569,
      "일편": 5570,
      "전일": 5571,
      "난": 5572,
      "고수": 5573,
      "고이": 5574,
      "가량": 5575,
      "귀족": 5576,
      "여론": 5577,
      "사항": 5578,
      "많이": 5579,
      "매매": 5580,
      "모범": 5581,
      "상고": 5582,
      "시야": 5583,
      "어진": 5584,
      "평의": 5585,
      "이불가": 5586,
      "주식회사": 5587,
      "그대": 5588,
      "그림": 5589,
      "기수": 5590,
      "로의": 5591,
      "배우": 5592,
      "설은": 5593,
      "실을": 5594,
      "에반": 5595,
      "왓다.": 5596,
      "자면": 5597,
      "전항": 5598,
      "정말": 5599,
      "허다": 5600,
      "으로써": 5601,
      "의기초": 5602,
      "청년회": 5603,
      "선생의": 5604,
      "1월": 5605,
      "4000": 5606,
      "경의": 5607,
      "다,": 5608,
      "단의": 5609,
      "자미": 5610,
      "지와": 5611,
      "컨대": 5612,
      "자기가": 5613,
      "운동의": 5614,
      "사립학교": 5615,
      "권력": 5616,
      "근래": 5617,
      "넘우": 5618,
      "년의": 5619,
      "쓰는": 5620,
      "오후": 5621,
      "을받": 5622,
      "인줄": 5623,
      "자-": 5624,
      "편리": 5625,
      ",수": 5626,
      "개선": 5627,
      "고상": 5628,
      "세력을": 5629,
      "십오": 5630,
      "씨재청": 5631,
      "자": 5632,
      "족히": 5633,
      "통과": 5634,
      "인생의": 5635,
      "개벽": 5636,
      "공공": 5637,
      "도": 5638,
      "무의": 5639,
      "법령": 5640,
      "서의": 5641,
      "야며": 5642,
      "유아": 5643,
      "중으로": 5644,
      "자ᅵ": 5645,
      "이상은": 5646,
      "가을": 5647,
      "감히": 5648,
      "개회": 5649,
      "모의": 5650,
      "문의": 5651,
      "완성": 5652,
      "재어": 5653,
      "점은": 5654,
      "처리": 5655,
      "해방": 5656,
      "여차히": 5657,
      "고도": 5658,
      "그려": 5659,
      "등으로": 5660,
      "월보": 5661,
      "조와": 5662,
      "창립": 5663,
      "활발": 5664,
      "나아": 5665,
      "부이": 5666,
      "을진": 5667,
      "인인": 5668,
      "장차": 5669,
      "제칠": 5670,
      "해보": 5671,
      "고사": 5672,
      "00000": 5673,
      "관지": 5674,
      "길을": 5675,
      "석탄": 5676,
      "어시에": 5677,
      "파란": 5678,
      "이되어": 5679,
      "여하,": 5680,
      "류를": 5681,
      "소학교": 5682,
      "수천": 5683,
      "인식": 5684,
      "일,": 5685,
      "전선": 5686,
      "지정": 5687,
      "터": 5688,
      "유명한": 5689,
      "기성": 5690,
      "량의": 5691,
      "법이": 5692,
      "보조": 5693,
      "분은": 5694,
      "여보": 5695,
      "일정": 5696,
      "하에서": 5697,
      "한참": 5698,
      "효과": 5699,
      "국권": 5700,
      "모가": 5701,
      "의발달": 5702,
      "이것": 5703,
      "일가": 5704,
      "태극": 5705,
      "형을": 5706,
      "으로위": 5707,
      "(즉": 5708,
      "er": 5709,
      "권리를": 5710,
      "기억": 5711,
      "라니": 5712,
      "산에": 5713,
      "슴을": 5714,
      "아미": 5715,
      "잇슬": 5716,
      "출판": 5717,
      "하엿다.이": 5718,
      "동안에": 5719,
      "엇더한": 5720,
      "(삼": 5721,
      "가격": 5722,
      "랴.": 5723,
      "마츰": 5724,
      "성적": 5725,
      "일시": 5726,
      "일정": 5727,
      "입학": 5728,
      "총히": 5729,
      "최대": 5730,
      "한마": 5731,
      "이상에": 5732,
      "관계로": 5733,
      "동일": 5734,
      "이아닌": 5735,
      "상태를": 5736,
      "거든": 5737,
      "대회": 5738,
      "반듯이": 5739,
      "변경": 5740,
      "사기": 5741,
      "수양": 5742,
      "있었": 5743,
      "주로": 5744,
      "지우": 5745,
      "야대": 5746,
      "사": 5747,
      "며차": 5748,
      "인민이": 5749,
      "들어가": 5750,
      "금이": 5751,
      "단이": 5752,
      "발휘": 5753,
      "붓터": 5754,
      "비의": 5755,
      "습니까.": 5756,
      "액이": 5757,
      "양호": 5758,
      "인조": 5759,
      "첫재": 5760,
      "출발": 5761,
      "한대": 5762,
      "한시": 5763,
      "을득홈.": 5764,
      "아세아": 5765,
      "각자": 5766,
      "고저": 5767,
      "비용": 5768,
      "세상에": 5769,
      "수와": 5770,
      "열강": 5771,
      "겟": 5772,
      "게되엇": 5773,
      "에이르러": 5774,
      "관으로": 5775,
      "구성": 5776,
      "그곳": 5777,
      "급급": 5778,
      "도안": 5779,
      "배가": 5780,
      "부대": 5781,
      "야아": 5782,
      "위치": 5783,
      "입야": 5784,
      "자이": 5785,
      "지오": 5786,
      "고유": 5787,
      "조선사람": 5788,
      "이러니": 5789,
      "그리하야": 5790,
      "개시": 5791,
      "과정": 5792,
      "무궁": 5793,
      "배양": 5794,
      "부와": 5795,
      "서요.": 5796,
      "짐작": 5797,
      "친구": 5798,
      "토이기": 5799,
      "할바": 5800,
      "훈련": 5801,
      "얏스나": 5802,
      "자를": 5803,
      "에대야": 5804,
      ",동": 5805,
      "고기": 5806,
      "두어": 5807,
      "무지": 5808,
      "슴니다.그": 5809,
      "십삼": 5810,
      "여자의": 5811,
      "원인이": 5812,
      "을하": 5813,
      "자손": 5814,
      "장과": 5815,
      "질을": 5816,
      "하다는": 5817,
      "다고한다.": 5818,
      "시니": 5819,
      "연이": 5820,
      "가사": 5821,
      "권은": 5822,
      "기전": 5823,
      "당시에": 5824,
      "몸을": 5825,
      "왕의": 5826,
      "우승": 5827,
      "하엿다": 5828,
      "26": 5829,
      "27": 5830,
      "8월": 5831,
      "경상": 5832,
      "공을": 5833,
      "더부러": 5834,
      "로자": 5835,
      "무기": 5836,
      "민은": 5837,
      "비밀": 5838,
      "뿐이다.": 5839,
      "신은": 5840,
      "장한": 5841,
      "필요": 5842,
      "하엿든": 5843,
      ")「": 5844,
      "간을": 5845,
      "될것이다.": 5846,
      "무산": 5847,
      "부위": 5848,
      "삼천리": 5849,
      "세지": 5850,
      "의감": 5851,
      "이보": 5852,
      "이야": 5853,
      "정기": 5854,
      "특색": 5855,
      "할가": 5856,
      "다.「": 5857,
      "하여주": 5858,
      "치아니치못": 5859,
      "보통학교": 5860,
      "1000": 5861,
      "」은": 5862,
      "공격": 5863,
      "공이": 5864,
      "국과": 5865,
      "남은": 5866,
      "력과": 5867,
      "를수": 5868,
      "목적으로": 5869,
      "백제": 5870,
      "법국": 5871,
      "부상": 5872,
      "뿐이": 5873,
      "실지": 5874,
      "우가": 5875,
      "일도": 5876,
      "장지": 5877,
      "전제": 5878,
      "젠다오": 5879,
      "하신": 5880,
      "지안이": 5881,
      "하기는": 5882,
      "다시말하면": 5883,
      "모르는": 5884,
      "삼림산야": 5885,
      "300": 5886,
      "금융": 5887,
      "단기": 5888,
      "된다": 5889,
      "리,": 5890,
      "불감": 5891,
      "어더": 5892,
      "영양": 5893,
      "우의": 5894,
      "원인": 5895,
      "음식": 5896,
      "채를": 5897,
      "평안": 5898,
      "에지야": 5899,
      "계가": 5900,
      "라가": 5901,
      "멸망": 5902,
      "무사": 5903,
      "불소": 5904,
      "선히": 5905,
      "아리": 5906,
      "인허": 5907,
      "진화": 5908,
      ".이": 5909,
      "거름": 5910,
      "견고": 5911,
      "결합": 5912,
      "경작": 5913,
      "당히": 5914,
      "만국": 5915,
      "만들": 5916,
      "사원": 5917,
      "실험": 5918,
      "와같이": 5919,
      "유고": 5920,
      "젊은": 5921,
      "조성": 5922,
      "주요": 5923,
      "하는동시에": 5924,
      "교가": 5925,
      "리어": 5926,
      "만의": 5927,
      "신학": 5928,
      "아국의": 5929,
      "역에": 5930,
      "이점": 5931,
      "차호": 5932,
      "하엿스나": 5933,
      "인가?": 5934,
      "의이익": 5935,
      "이가.": 5936,
      "다더라.": 5937,
      "중요한": 5938,
      "시에": 5939,
      "개소": 5940,
      "관에": 5941,
      "보수": 5942,
      "석에": 5943,
      "액을": 5944,
      "와의": 5945,
      "유를": 5946,
      "지중": 5947,
      "천이": 5948,
      "호남": 5949,
      "정신이": 5950,
      "하려는": 5951,
      "OO": 5952,
      "건대": 5953,
      "나이다.": 5954,
      "년이": 5955,
      "랴고": 5956,
      "소식": 5957,
      "이삼": 5958,
      "이": 5959,
      "족의": 5960,
      "지,": 5961,
      "창작": 5962,
      "천의": 5963,
      "타가": 5964,
      "평의회": 5965,
      "행": 5966,
      "하야는": 5967,
      "하는사람": 5968,
      "사상을": 5969,
      "1)": 5970,
      "그들": 5971,
      "네가": 5972,
      "더라": 5973,
      "됩니다.": 5974,
      "만": 5975,
      "생긴": 5976,
      "얼굴": 5977,
      "예산": 5978,
      "은의": 5979,
      "을것이다.": 5980,
      "개성": 5981,
      "개척": 5982,
      "건너": 5983,
      "군과": 5984,
      "그럿": 5985,
      "내여": 5986,
      "면촌": 5987,
      "사)": 5988,
      "외로": 5989,
      "잠간": 5990,
      "재라": 5991,
      "저는": 5992,
      "이잇고": 5993,
      "자연히": 5994,
      "기구": 5995,
      "기능": 5996,
      "기생": 5997,
      "독자": 5998,
      "무고": 5999,
      "문에": 6000,
      "서에": 6001,
      "포함": 6002,
      "하겟다.": 6003,
      "」이라": 6004,
      "간이": 6005,
      "군사": 6006,
      "금강": 6007,
      "기시": 6008,
      "눈물": 6009,
      "면의": 6010,
      "선언": 6011,
      "태를": 6012,
      "풍부": 6013,
      "희라": 6014,
      "이어": 6015,
      "용이히": 6016,
      "금후": 6017,
      "느끼": 6018,
      "덕국": 6019,
      "모도": 6020,
      "수리": 6021,
      "수유": 6022,
      "전진": 6023,
      "토록": 6024,
      "하늘": 6025,
      "화성": 6026,
      "10월": 6027,
      "부득불": 6028,
      "상당": 6029,
      "4.": 6030,
      "6월": 6031,
      "가없": 6032,
      "금의": 6033,
      "내로": 6034,
      "듯고": 6035,
      "양국": 6036,
      "중이": 6037,
      "해의": 6038,
      "7,": 6039,
      "기여": 6040,
      "노국": 6041,
      "두에": 6042,
      "문으로": 6043,
      "서,": 6044,
      "아": 6045,
      "양반": 6046,
      "어리": 6047,
      "일것이다.": 6048,
      "죄악": 6049,
      "집어": 6050,
      "취급": 6051,
      "하엿고": 6052,
      "을요": 6053,
      "의사를": 6054,
      "35": 6055,
      "고한": 6056,
      "나려": 6057,
      "노라": 6058,
      "동을": 6059,
      "모순": 6060,
      "무가": 6061,
      "분발": 6062,
      "상지": 6063,
      "성고": 6064,
      "아!": 6065,
      "연": 6066,
      "일주": 6067,
      "장야": 6068,
      "좀더": 6069,
      "피가": 6070,
      "피의": 6071,
      "학은": 6072,
      "함유": 6073,
      "얏더니": 6074,
      "되는것이": 6075,
      "완전한": 6076,
      "동작": 6077,
      "부자": 6078,
      "오전": 6079,
      "절망": 6080,
      "치야": 6081,
      "금일지": 6082,
      "하기에": 6083,
      "정부": 6084,
      "자연의": 6085,
      "한국한국": 6086,
      "씨재청으로": 6087,
      ",오": 6088,
      "가득": 6089,
      "대사": 6090,
      "비료": 6091,
      "수이": 6092,
      "에소": 6093,
      "유사": 6094,
      "잇게": 6095,
      "자주": 6096,
      "이유고": 6097,
      "192": 6098,
      "--": 6099,
      "국가지": 6100,
      "도없": 6101,
      "말이다.": 6102,
      "미곡": 6103,
      "분지": 6104,
      "산소": 6105,
      "아래": 6106,
      "연락": 6107,
      "인내": 6108,
      "적어도": 6109,
      "죽은": 6110,
      "착수": 6111,
      "편찬": 6112,
      "인이라.": 6113,
      "이되엿": 6114,
      "가유": 6115,
      "관청": 6116,
      "극적": 6117,
      "년을": 6118,
      "는가": 6119,
      "령을": 6120,
      "립야": 6121,
      "문은": 6122,
      "자인": 6123,
      "정지": 6124,
      "한일이": 6125,
      "": 6126,
      "중에셔": 6127,
      "니차": 6128,
      "자유로": 6129,
      "도이": 6130,
      "방을": 6131,
      "비": 6132,
      "윤리": 6133,
      "의라.": 6134,
      "인에": 6135,
      "지오.": 6136,
      "질이": 6137,
      "통계": 6138,
      "하려고": 6139,
      "감을": 6140,
      "그래": 6141,
      "농공": 6142,
      "니차": 6143,
      "미상": 6144,
      "보기": 6145,
      "사나": 6146,
      "산,": 6147,
      "애급": 6148,
      "어차": 6149,
      "여명": 6150,
      "의실": 6151,
      "제팔": 6152,
      "제국의": 6153,
      "주고": 6154,
      "교육은": 6155,
      "잇는것이": 6156,
      "정치가": 6157,
      "에관야": 6158,
      "어시호": 6159,
      "2)": 6160,
      "간다.": 6161,
      "과실": 6162,
      "구로": 6163,
      "근대": 6164,
      "기일": 6165,
      "닛가.": 6166,
      "만리": 6167,
      "만아니라": 6168,
      "미래": 6169,
      "사": 6170,
      "선택": 6171,
      "약간": 6172,
      "에상": 6173,
      "에적": 6174,
      "위대한": 6175,
      "천명": 6176,
      "토를": 6177,
      "투표": 6178,
      "하도": 6179,
      "행야": 6180,
      "회장이": 6181,
      "목적을달": 6182,
      "36": 6183,
      "경계": 6184,
      "군대": 6185,
      "내려": 6186,
      "도서": 6187,
      "면은": 6188,
      "반포": 6189,
      "인상": 6190,
      "진취": 6191,
      "태평양": 6192,
      "학계": 6193,
      "얏더라.": 6194,
      "리라": 6195,
      "제군은": 6196,
      "고만": 6197,
      "말미": 6198,
      "불상": 6199,
      "사장": 6200,
      "소화": 6201,
      "아닐": 6202,
      "여아": 6203,
      "이장": 6204,
      "입법": 6205,
      "중히": 6206,
      "지폐": 6207,
      "형성": 6208,
      "회사의": 6209,
      "하고도": 6210,
      "조선에": 6211,
      "사상이": 6212,
      "거든": 6213,
      ",대": 6214,
      "5일": 6215,
      "in": 6216,
      "강화": 6217,
      "발기": 6218,
      "불고": 6219,
      "은유": 6220,
      "전연": 6221,
      "지마": 6222,
      "야금": 6223,
      "이라고": 6224,
      "사람들은": 6225,
      "의사상": 6226,
      "동일한": 6227,
      "200": 6228,
      "각지": 6229,
      "강연": 6230,
      "매각": 6231,
      "무론": 6232,
      "백림": 6233,
      "불급": 6234,
      "비례": 6235,
      "약을": 6236,
      "윤효": 6237,
      "일방": 6238,
      "태도를": 6239,
      "푸로": 6240,
      "한다.그": 6241,
      "처": 6242,
      "고동": 6243,
      "생활은": 6244,
      "갓흔": 6245,
      "과수": 6246,
      "나아가": 6247,
      "네.": 6248,
      "당한": 6249,
      "론을": 6250,
      "만에": 6251,
      "미지": 6252,
      "민법": 6253,
      "배의": 6254,
      "사조": 6255,
      "소수": 6256,
      "욕을": 6257,
      "원시": 6258,
      "위임": 6259,
      "이천": 6260,
      "차제": 6261,
      "기불능": 6262,
      "이라.고로": 6263,
      "이리오.": 6264,
      ")가": 6265,
      "가상": 6266,
      "그날": 6267,
      "넘어": 6268,
      "도야": 6269,
      "로다": 6270,
      "류의": 6271,
      "리하야": 6272,
      "불무": 6273,
      "생물": 6274,
      "세포": 6275,
      "액은": 6276,
      "에거": 6277,
      "여.": 6278,
      "일변": 6279,
      "정고": 6280,
      "에": 6281,
      "이라위": 6282,
      "세계적": 6283,
      "치아니고": 6284,
      "대신은": 6285,
      "부분림": 6286,
      "중심으로": 6287,
      "과동": 6288,
      "과같이": 6289,
      "금번": 6290,
      "느니": 6291,
      "도적": 6292,
      "목이": 6293,
      "미술": 6294,
      "민주": 6295,
      "서운": 6296,
      "업서": 6297,
      "의본": 6298,
      "자랑": 6299,
      "한사": 6300,
      "할줄": 6301,
      "이유": 6302,
      "할것.": 6303,
      "」와": 6304,
      "각오": 6305,
      "감소": 6306,
      "국으로": 6307,
      "기록": 6308,
      "반야": 6309,
      "불교": 6310,
      "비평": 6311,
      "어보": 6312,
      "영어": 6313,
      "을때": 6314,
      "이왈": 6315,
      "좋은": 6316,
      "체결": 6317,
      "하얏다": 6318,
      "방법은": 6319,
      "3일": 6320,
      "ᅵ니": 6321,
      "」라": 6322,
      "개년": 6323,
      "대소": 6324,
      "량이": 6325,
      "면적": 6326,
      "민중의": 6327,
      "부정": 6328,
      "부진": 6329,
      "수": 6330,
      "아,": 6331,
      "아들": 6332,
      "야소": 6333,
      "역을": 6334,
      "연야": 6335,
      "영미": 6336,
      "이때": 6337,
      "이엿다.": 6338,
      "지말": 6339,
      "통감": 6340,
      "화폐": 6341,
      "효력": 6342,
      "자": 6343,
      "세계를": 6344,
      "시대를": 6345,
      ")은": 6346,
      "동기": 6347,
      "무": 6348,
      "선의": 6349,
      "승인": 6350,
      "일상": 6351,
      "일": 6352,
      "즉": 6353,
      "치안코": 6354,
      "에취야": 6355,
      "29": 6356,
      "곳에": 6357,
      "방지": 6358,
      "사변": 6359,
      "색이": 6360,
      "설비": 6361,
      "시이로": 6362,
      "원,": 6363,
      "을밧": 6364,
      "이행": 6365,
      "일이다.": 6366,
      "자네": 6367,
      "저축": 6368,
      "정보": 6369,
      "제는": 6370,
      "일본일본": 6371,
      "운동은": 6372,
      "여곰": 6373,
      "여야": 6374,
      "193": 6375,
      "에대하야는": 6376,
      "동아일보": 6377,
      "아름다운": 6378,
      "닛코": 6379,
      "단지": 6380,
      "당이": 6381,
      "며,": 6382,
      "비롯": 6383,
      "수,": 6384,
      "에한": 6385,
      "유감": 6386,
      "을말": 6387,
      "의조": 6388,
      "축하": 6389,
      "춘추": 6390,
      "하도록": 6391,
      "회": 6392,
      "나는그": 6393,
      "생각하면": 6394,
      "결과를": 6395,
      "」하는": 6396,
      "각부": 6397,
      "계통": 6398,
      "관적": 6399,
      "됨으로": 6400,
      "명": 6401,
      "무소": 6402,
      "무시": 6403,
      "백만": 6404,
      "삼대": 6405,
      "선진": 6406,
      "예를": 6407,
      "이두": 6408,
      "향하야": 6409,
      "오호라.": 6410,
      ",전": 6411,
      "10000": 6412,
      "」로": 6413,
      "각국의": 6414,
      "대구": 6415,
      "섯다.그": 6416,
      "시사": 6417,
      "신민": 6418,
      "어렵": 6419,
      "에사": 6420,
      "오해": 6421,
      "원과": 6422,
      "음은": 6423,
      "정으로": 6424,
      "지세": 6425,
      "파가": 6426,
      "니즉": 6427,
      "목적은": 6428,
      "결심": 6429,
      "무리": 6430,
      "버서": 6431,
      "부담": 6432,
      "생도": 6433,
      "서반": 6434,
      "에출": 6435,
      "의학": 6436,
      "차별": 6437,
      "헌신": 6438,
      "다는것은": 6439,
      "물론하고": 6440,
      "이후로": 6441,
      "에잇서서는": 6442,
      "오니": 6443,
      "45": 6444,
      "동으로": 6445,
      "량을": 6446,
      "맛나": 6447,
      "백년": 6448,
      "상등": 6449,
      "애가": 6450,
      "에그": 6451,
      "원리": 6452,
      "을위하야": 6453,
      "자야라.": 6454,
      "제야": 6455,
      "조림": 6456,
      "종족": 6457,
      "지인": 6458,
      "지하": 6459,
      "집을": 6460,
      "**": 6461,
      ",유": 6462,
      "21": 6463,
      "개가": 6464,
      "공익": 6465,
      "근세": 6466,
      "기국": 6467,
      "대왕": 6468,
      "러서": 6469,
      "류가": 6470,
      "부사": 6471,
      "부패": 6472,
      "연극": 6473,
      "을생": 6474,
      "이적": 6475,
      "일한": 6476,
      "취지": 6477,
      "코": 6478,
      "타이": 6479,
      "하엿다.그": 6480,
      "문명의": 6481,
      "이야기": 6482,
      "1시에": 6483,
      "「아": 6484,
      "과도": 6485,
      "내는": 6486,
      "도아": 6487,
      "망을": 6488,
      "명사": 6489,
      "명한": 6490,
      "분야": 6491,
      "상환": 6492,
      "시고로": 6493,
      "육군": 6494,
      "이다.그": 6495,
      "일동": 6496,
      "자야": 6497,
      "장에서": 6498,
      "재": 6499,
      "초과": 6500,
      "초에": 6501,
      "치않": 6502,
      "토지가": 6503,
      "파사": 6504,
      "아니고": 6505,
      "일본인의": 6506,
      "게되엿": 6507,
      "제국주의": 6508,
      "스러운": 6509,
      "구비": 6510,
      "국채": 6511,
      "기본": 6512,
      "선량": 6513,
      "수출": 6514,
      "수연이나": 6515,
      "영사": 6516,
      "용야": 6517,
      "원문": 6518,
      "이아니라": 6519,
      "해안": 6520,
      "호가": 6521,
      "지나": 6522,
      "나니라.": 6523,
      "다.이것은": 6524,
      "계급의": 6525,
      "가르": 6526,
      "공고": 6527,
      "는다": 6528,
      "무대": 6529,
      "물에": 6530,
      "반드시": 6531,
      "범죄": 6532,
      "보존": 6533,
      "부형": 6534,
      "비판": 6535,
      "생기": 6536,
      "의경": 6537,
      "의형": 6538,
      "이,": 6539,
      "인듯": 6540,
      "인하야": 6541,
      "하사": 6542,
      "자가": 6543,
      "며유": 6544,
      "사실을": 6545,
      "노서아": 6546,
      "윤효정": 6547,
      ",양": 6548,
      "8일": 6549,
      "거고": 6550,
      "검사": 6551,
      "근히": 6552,
      "로이": 6553,
      "말하자면": 6554,
      "반히": 6555,
      "변호": 6556,
      "성취": 6557,
      "약속": 6558,
      "오,": 6559,
      "은사": 6560,
      "은상": 6561,
      "일단": 6562,
      "자각": 6563,
      "피는": 6564,
      "역사적": 6565,
      "스럽게": 6566,
      "계발": 6567,
      "과가튼": 6568,
      "담보": 6569,
      "리라고": 6570,
      "목하": 6571,
      "심상": 6572,
      "오사": 6573,
      "요새": 6574,
      "운이": 6575,
      "위기": 6576,
      "조정": 6577,
      "치료": 6578,
      "학이": 6579,
      "하고는": 6580,
      "보다더": 6581,
      "가운데": 6582,
      "he": 6583,
      "간섭": 6584,
      "그래도": 6585,
      "내에서": 6586,
      "대하야": 6587,
      "무이": 6588,
      "비아": 6589,
      "석을": 6590,
      "선이": 6591,
      "수기": 6592,
      "아라": 6593,
      "일홈": 6594,
      "지식을": 6595,
      "특별히": 6596,
      "al": 6597,
      "」라는": 6598,
      "내어": 6599,
      "는것을": 6600,
      "당을": 6601,
      "로하야": 6602,
      "무상": 6603,
      "방어": 6604,
      "애란": 6605,
      "연초": 6606,
      "의안": 6607,
      "의한": 6608,
      "이르": 6609,
      "인공": 6610,
      "자전": 6611,
      "작야": 6612,
      "종이": 6613,
      "천재": 6614,
      "화합": 6615,
      "조선일보": 6616,
      "우리들은": 6617,
      "치못고": 6618,
      "부득이": 6619,
      "(삼)": 6620,
      "감정을": 6621,
      "거절": 6622,
      "경은": 6623,
      "고잇는": 6624,
      "공법": 6625,
      "그저": 6626,
      "난징": 6627,
      "냐하면": 6628,
      "도또한": 6629,
      "마": 6630,
      "말(": 6631,
      "매수": 6632,
      "방문": 6633,
      "소,": 6634,
      "술을": 6635,
      "슬것이다.": 6636,
      "앗다.": 6637,
      "어나": 6638,
      "위원은": 6639,
      "을해": 6640,
      "점으로": 6641,
      "집합": 6642,
      "천하지": 6643,
      "하가": 6644,
      "하등의": 6645,
      "햇다.": 6646,
      "확립": 6647,
      "야여": 6648,
      "사회가": 6649,
      "다.그러고": 6650,
      "확실히": 6651,
      "가트": 6652,
      "교장": 6653,
      "보이": 6654,
      "본령": 6655,
      "손에": 6656,
      "유차": 6657,
      "육체": 6658,
      "전이": 6659,
      "좌개": 6660,
      "천을": 6661,
      "토지를": 6662,
      "피를": 6663,
      "회록": 6664,
      "사": 6665,
      "라.차": 6666,
      "하얏스나": 6667,
      "자기를": 6668,
      "지방에": 6669,
      "다.○": 6670,
      "이외에": 6671,
      "」이란": 6672,
      "공통": 6673,
      "남아": 6674,
      "래야": 6675,
      "속으로": 6676,
      "알아": 6677,
      "야아.": 6678,
      "양을": 6679,
      "일세": 6680,
      "제도를": 6681,
      "조로": 6682,
      "타파": 6683,
      "과여히": 6684,
      "고혹": 6685,
      "사람들이": 6686,
      "이지만": 6687,
      "12월": 6688,
      "느냐.": 6689,
      "이태리": 6690,
      "(전": 6691,
      "37": 6692,
      "계산": 6693,
      "권이": 6694,
      "기때문": 6695,
      "되지못": 6696,
      "미유": 6697,
      "민지": 6698,
      "삼아": 6699,
      "수용": 6700,
      "습니다": 6701,
      "씨씨": 6702,
      "어듸": 6703,
      "에처": 6704,
      "영혼": 6705,
      "영국의": 6706,
      "유력": 6707,
      "이경": 6708,
      "이신": 6709,
      "자국": 6710,
      "잠시": 6711,
      "재차": 6712,
      "재야": 6713,
      "시": 6714,
      "것은": 6715,
      "이되여": 6716,
      "치아니면": 6717,
      "을수야": 6718,
      "하지만": 6719,
      "에불외": 6720,
      "선생은": 6721,
      "이아니면": 6722,
      "사.": 6723,
      "(동": 6724,
      "가슴": 6725,
      "거금": 6726,
      "구구": 6727,
      "그럼으로": 6728,
      "기위하야": 6729,
      "눈을": 6730,
      "다』": 6731,
      "시아": 6732,
      "안으로": 6733,
      "업섯": 6734,
      "에진": 6735,
      "유쾌": 6736,
      "을여": 6737,
      "의뢰": 6738,
      "입회": 6739,
      "적도": 6740,
      "중학교": 6741,
      "중대한": 6742,
      "질서": 6743,
      "초목": 6744,
      "태서": 6745,
      "포와": 6746,
      "고도": 6747,
      "하고잇다.": 6748,
      "하얏스니": 6749,
      "하기위": 6750,
      "민족적": 6751,
      "동양척식주식회사": 6752,
      "or": 6753,
      "개화": 6754,
      "과는": 6755,
      "까.": 6756,
      "너는": 6757,
      "모방": 6758,
      "부원": 6759,
      "분투": 6760,
      "성지": 6761,
      "시위": 6762,
      "아님": 6763,
      "약한": 6764,
      "에치": 6765,
      "연령": 6766,
      "유교": 6767,
      "은차": 6768,
      "인천": 6769,
      "젓다.": 6770,
      "추상": 6771,
      "판매": 6772,
      "평생": 6773,
      "우리조선": 6774,
      "이잇서": 6775,
      "정부가": 6776,
      "이부족": 6777,
      "구야": 6778,
      "기,": 6779,
      "대장": 6780,
      "대체": 6781,
      "되겟": 6782,
      "려는": 6783,
      "소로": 6784,
      "소한": 6785,
      "신도": 6786,
      "씨에게": 6787,
      "양이": 6788,
      "어사": 6789,
      "여름": 6790,
      "오게": 6791,
      "의인": 6792,
      "일차": 6793,
      "일환": 6794,
      "지역": 6795,
      "지니": 6796,
      "함경": 6797,
      "호에": 6798,
      "야상": 6799,
      "하고십": 6800,
      "지오": 6801,
      "다고생각": 6802,
      "으면안": 6803,
      "모양이다.": 6804,
      "인간의": 6805,
      "하게되엇": 6806,
      "금상": 6807,
      "다더라.": 6808,
      "동시": 6809,
      "생장": 6810,
      "성,": 6811,
      "소고": 6812,
      "연월": 6813,
      "을취": 6814,
      "음이": 6815,
      "의라": 6816,
      "치가": 6817,
      "특청": 6818,
      "풍이": 6819,
      "지만은": 6820,
      "」라고": 6821,
      "가수": 6822,
      "거행": 6823,
      "눈에": 6824,
      "다수의": 6825,
      "동경": 6826,
      "드리": 6827,
      "딸아서": 6828,
      "렬한": 6829,
      "리와": 6830,
      "박사": 6831,
      "발육": 6832,
      "법규": 6833,
      "분리": 6834,
      "색을": 6835,
      "선은": 6836,
      "약이": 6837,
      "어든": 6838,
      "어주": 6839,
      "에당": 6840,
      "에참": 6841,
      "여학생": 6842,
      "입니다.그": 6843,
      "자세": 6844,
      "자아": 6845,
      "장사": 6846,
      "지명": 6847,
      "집에": 6848,
      "채무": 6849,
      "처를": 6850,
      "탄산": 6851,
      "하드": 6852,
      "자가": 6853,
      "이라야": 6854,
      "것이오": 6855,
      "고찰": 6856,
      "는가.": 6857,
      "니는": 6858,
      "로위": 6859,
      "민간": 6860,
      "부귀": 6861,
      "수수": 6862,
      "야.": 6863,
      "은「": 6864,
      "은고": 6865,
      "저우": 6866,
      "지며": 6867,
      "지여": 6868,
      "충실": 6869,
      "침입": 6870,
      "한인": 6871,
      "행이": 6872,
      "하엿습니다.": 6873,
      "이상을": 6874,
      "갓다": 6875,
      "건을": 6876,
      "날이": 6877,
      "대는": 6878,
      "손해": 6879,
      "와가튼": 6880,
      "을바": 6881,
      "의광": 6882,
      "일체": 6883,
      "자오": 6884,
      "조각": 6885,
      "주에": 6886,
      "지면": 6887,
      "통하야": 6888,
      "판결": 6889,
      "행을": 6890,
      "야써": 6891,
      "하고저": 6892,
      "것은": 6893,
      "얏도다.": 6894,
      "의사업": 6895,
      "할수잇다.": 6896,
      "여하한": 6897,
      "5.": 6898,
      "90": 6899,
      "과대": 6900,
      "단백": 6901,
      "만나": 6902,
      "모른": 6903,
      "불편": 6904,
      "소": 6905,
      "여간": 6906,
      "자긔": 6907,
      "자리": 6908,
      "줄로": 6909,
      "하오.": 6910,
      "학지": 6911,
      "형법": 6912,
      "교육이": 6913,
      "에의한": 6914,
      "다는것을": 6915,
      "법률상": 6916,
      "현재의": 6917,
      "처음으로": 6918,
      "강을": 6919,
      "거를": 6920,
      "공립": 6921,
      "년전": 6922,
      "도지": 6923,
      "도역시": 6924,
      "면이": 6925,
      "선악": 6926,
      "여자는": 6927,
      "올라": 6928,
      "의중": 6929,
      "일정한": 6930,
      "자못": 6931,
      "주지": 6932,
      "파는": 6933,
      "할것을": 6934,
      "획득": 6935,
      "훌륭": 6936,
      "다.(": 6937,
      "인의게": 6938,
      "니차": 6939,
      "의구별": 6940,
      "천도교": 6941,
      ",사": 6942,
      "33": 6943,
      "들엇": 6944,
      "면치못": 6945,
      "밀접": 6946,
      "반항": 6947,
      "부부": 6948,
      "산림": 6949,
      "상황": 6950,
      "세력이": 6951,
      "의오": 6952,
      "임의": 6953,
      "전은": 6954,
      "칙기": 6955,
      "하거나": 6956,
      "형태": 6957,
      "화는": 6958,
      "고자": 6959,
      "하엿스며": 6960,
      "이무면": 6961,
      "의의견": 6962,
      "상당한": 6963,
      "개고": 6964,
      "도차": 6965,
      "동에": 6966,
      "등에": 6967,
      "명야": 6968,
      "부인이": 6969,
      "수상": 6970,
      "시내": 6971,
      "양식": 6972,
      "어요.": 6973,
      "연기": 6974,
      "우기": 6975,
      "을인야": 6976,
      "이노": 6977,
      "인대": 6978,
      "잡고": 6979,
      "저항": 6980,
      "전야": 6981,
      "주,": 6982,
      "출현": 6983,
      "침략": 6984,
      "학자의": 6985,
      "할것도": 6986,
      "야차": 6987,
      "하여금": 6988,
      "학교에": 6989,
      "기": 6990,
      "생각을": 6991,
      "정부에": 6992,
      "에부재": 6993,
      "야ᅵ라.": 6994,
      "에입학": 6995,
      "20000000동포": 6996,
      "48": 6997,
      "es": 6998,
      "간접": 6999,
      "것임니다.": 7000,
      "과그": 7001,
      "급히": 7002,
      "또다시": 7003,
      "로도": 7004,
      "르고": 7005,
      "버린": 7006,
      "서": 7007,
      "선천": 7008,
      "소멸": 7009,
      "수히": 7010,
      "에「": 7011,
      "여자가": 7012,
      "요리": 7013,
      "운명": 7014,
      "원도": 7015,
      "이국": 7016,
      "자녀": 7017,
      "지수": 7018,
      "체조": 7019,
      "타일": 7020,
      "이라더라.": 7021,
      "사람들": 7022,
      "잇는데": 7023,
      "사상의": 7024,
      "엿더라.": 7025,
      "아미리가": 7026,
      "과기": 7027,
      "나리": 7028,
      "동무": 7029,
      "불변": 7030,
      "소재": 7031,
      "에함": 7032,
      "연습": 7033,
      "이「": 7034,
      "이된": 7035,
      "장제": 7036,
      "집야": 7037,
      "출어": 7038,
      "치말": 7039,
      "팽창": 7040,
      "한정": 7041,
      "한다.그러나": 7042,
      "심을": 7043,
      "의무를": 7044,
      "고원": 7045,
      "김명": 7046,
      "됨은": 7047,
      "말도": 7048,
      "목은": 7049,
      "발서": 7050,
      "부식": 7051,
      "소와": 7052,
      "양은": 7053,
      "의관": 7054,
      "이후에": 7055,
      "인력": 7056,
      "중립": 7057,
      "최히": 7058,
      "취미": 7059,
      "편의": 7060,
      "할진": 7061,
      "해서는": 7062,
      "하는자": 7063,
      "나기": 7064,
      "......": 7065,
      "의소유": 7066,
      "비상히": 7067,
      "2000": 7068,
      "간은": 7069,
      "견야": 7070,
      "군벌": 7071,
      "그럴": 7072,
      "낭독": 7073,
      "백여": 7074,
      "신선": 7075,
      "어데": 7076,
      "우려": 7077,
      "우수": 7078,
      "잇다": 7079,
      "적정신": 7080,
      "조금": 7081,
      "중학": 7082,
      "지불": 7083,
      "춘향": 7084,
      "필준": 7085,
      "학원": 7086,
      "향상": 7087,
      "호기": 7088,
      "고대": 7089,
      "하는것도": 7090,
      "아니요": 7091,
      "니고로": 7092,
      "하며,": 7093,
      "자": 7094,
      "협동조합": 7095,
      "(1)": 7096,
      ",기": 7097,
      "10000000": 7098,
      "가만": 7099,
      "단군": 7100,
      "당사": 7101,
      "동야": 7102,
      "둘재": 7103,
      "미국의": 7104,
      "신간": 7105,
      "안은": 7106,
      "여부": 7107,
      "연소": 7108,
      "와사": 7109,
      "우에서": 7110,
      "우주의": 7111,
      "이공": 7112,
      "인것을": 7113,
      "일왈": 7114,
      "일인이": 7115,
      "지며": 7116,
      "직히": 7117,
      "출생": 7118,
      "한즉": 7119,
      "야인": 7120,
      "사람에게": 7121,
      "을보면": 7122,
      "본회의": 7123,
      "구라파": 7124,
      "가에": 7125,
      "것같": 7126,
      "공평": 7127,
      "구체": 7128,
      "극단": 7129,
      "노력을": 7130,
      "딸아": 7131,
      "멀리": 7132,
      "반을": 7133,
      "방해": 7134,
      "분류": 7135,
      "소서": 7136,
      "식산": 7137,
      "엇고": 7138,
      "와서는": 7139,
      "유여": 7140,
      "의필요": 7141,
      "이서": 7142,
      "절대로": 7143,
      "점에": 7144,
      "천에": 7145,
      "청춘": 7146,
      "최후의": 7147,
      "치고": 7148,
      "폐하": 7149,
      "표면": 7150,
      "한개": 7151,
      "것이라": 7152,
      "주의가": 7153,
      "하얏스며": 7154,
      "지못할": 7155,
      "20세기": 7156,
      "적당": 7157,
      "』(": 7158,
      "귀중": 7159,
      "먹는": 7160,
      "병원": 7161,
      "봉건": 7162,
      "아아": 7163,
      "안전": 7164,
      "원료": 7165,
      "을미": 7166,
      "을전": 7167,
      "장,": 7168,
      "재라.": 7169,
      "지심": 7170,
      "진흥": 7171,
      "차라": 7172,
      "철저": 7173,
      "총재": 7174,
      "토론": 7175,
      "하라.": 7176,
      "한그": 7177,
      "화,": 7178,
      "흥미": 7179,
      "이라하야": 7180,
      "이라한다.": 7181,
      "하면그": 7182,
      "에지나": 7183,
      "엿고": 7184,
      "이와가티": 7185,
      "랴면": 7186,
      "1일에": 7187,
      "3분": 7188,
      "가련": 7189,
      "것갓": 7190,
      "구고": 7191,
      "깁히": 7192,
      "동요": 7193,
      "목으로": 7194,
      "보이는": 7195,
      "상차": 7196,
      "액의": 7197,
      "여ᅵ": 7198,
      "연방": 7199,
      "염려": 7200,
      "우유": 7201,
      "자수": 7202,
      "지요": 7203,
      "처분": 7204,
      "체": 7205,
      "포를": 7206,
      "하물": 7207,
      "화로": 7208,
      "": 7209,
      "야무": 7210,
      "을가르": 7211,
      "지금까지": 7212,
      "대신의": 7213,
      "까닭이다.": 7214,
      "3)": 7215,
      "거슬": 7216,
      "광둥": 7217,
      "구름": 7218,
      "기중에": 7219,
      "께서": 7220,
      "도전": 7221,
      "리상": 7222,
      "병에": 7223,
      "보인": 7224,
      "색의": 7225,
      "시하야": 7226,
      "안녕": 7227,
      "안해": 7228,
      "여유": 7229,
      "이연": 7230,
      "인심": 7231,
      "일소": 7232,
      "자위": 7233,
      "재배": 7234,
      "주시": 7235,
      "진술": 7236,
      "차대": 7237,
      "키로": 7238,
      "키위하야": 7239,
      "하난": 7240,
      "한가": 7241,
      "얏다가": 7242,
      "자의게": 7243,
      "정부는": 7244,
      "의대표": 7245,
      "아모것도": 7246,
      "충분히": 7247,
      ",금": 7248,
      "ar": 7249,
      "가있": 7250,
      "고심": 7251,
      "그래서": 7252,
      "만세": 7253,
      "명료": 7254,
      "배상": 7255,
      "보며": 7256,
      "보명": 7257,
      "애는": 7258,
      "을공": 7259,
      "이과": 7260,
      "이저": 7261,
      "이업는": 7262,
      "일다.": 7263,
      "점에서": 7264,
      "주거": 7265,
      "지성": 7266,
      "쾌락": 7267,
      "편을": 7268,
      "폐회": 7269,
      "국가와": 7270,
      "다는것이": 7271,
      "결과가": 7272,
      "부분은": 7273,
      "영원히": 7274,
      "-(": 7275,
      "en": 7276,
      "구려": 7277,
      "나오는": 7278,
      "대략": 7279,
      "대리": 7280,
      "류": 7281,
      "무타": 7282,
      "번식": 7283,
      "불량": 7284,
      "비단": 7285,
      "시장": 7286,
      "어업": 7287,
      "오락": 7288,
      "용의": 7289,
      "일이잇": 7290,
      "입은": 7291,
      "진실": 7292,
      "차와": 7293,
      "하나는": 7294,
      "한산": 7295,
      "형의": 7296,
      "던지": 7297,
      "으로만": 7298,
      "이라면": 7299,
      "우리에게": 7300,
      "을가젓": 7301,
      "자로서": 7302,
      "이리오": 7303,
      "행위를": 7304,
      "38": 7305,
      "』의": 7306,
      "가면": 7307,
      "가와": 7308,
      "고말": 7309,
      "기시작": 7310,
      "다름": 7311,
      "량은": 7312,
      "발을": 7313,
      "보증": 7314,
      "부인의": 7315,
      "사이에": 7316,
      "상에서": 7317,
      "생야": 7318,
      "심사": 7319,
      "에미": 7320,
      "연전에": 7321,
      "장관": 7322,
      "적,": 7323,
      "줄을": 7324,
      "청결": 7325,
      "취중": 7326,
      "태히": 7327,
      "피로": 7328,
      "향야": 7329,
      "후로": 7330,
      "니라.": 7331,
      "고전": 7332,
      "이라": 7333,
      "부터는": 7334,
      "씨가피선": 7335,
      "사실이다.": 7336,
      "과여": 7337,
      "할지니": 7338,
      "(금": 7339,
      "22": 7340,
      "거운": 7341,
      "규모": 7342,
      "노릇": 7343,
      "동이": 7344,
      "등과": 7345,
      "물로": 7346,
      "본능": 7347,
      "부산": 7348,
      "불식": 7349,
      "삼고": 7350,
      "상우": 7351,
      "상호": 7352,
      "쇼군": 7353,
      "슨즉": 7354,
      "안정": 7355,
      "압흐로": 7356,
      "여진": 7357,
      "였다.": 7358,
      "유소": 7359,
      "이인": 7360,
      "이중": 7361,
      "제지": 7362,
      "제": 7363,
      "주민": 7364,
      "총대": 7365,
      "특수": 7366,
      "품을": 7367,
      "학설": 7368,
      "해에": 7369,
      "확정": 7370,
      "하야오": 7371,
      "주의와": 7372,
      "치못": 7373,
      "인민은": 7374,
      "20년": 7375,
      "이여.": 7376,
      "졸업생": 7377,
      "-원문": 7378,
      "거듭": 7379,
      "격을": 7380,
      "공중": 7381,
      "기개": 7382,
      "다지": 7383,
      "단언": 7384,
      "대강": 7385,
      "도": 7386,
      "명확": 7387,
      "목표": 7388,
      "민정": 7389,
      "비는": 7390,
      "신에": 7391,
      "실력": 7392,
      "십팔": 7393,
      "안의": 7394,
      "용해": 7395,
      "유행": 7396,
      "일수": 7397,
      "조)": 7398,
      "조야": 7399,
      "진정": 7400,
      "진실로": 7401,
      "칙령": 7402,
      "통지": 7403,
      "학자가": 7404,
      "함에는": 7405,
      "해산": 7406,
      "고": 7407,
      "학교가": 7408,
      "할수가잇": 7409,
      "법률의": 7410,
      "도로혀": 7411,
      "경야": 7412,
      "금수": 7413,
      "놓고": 7414,
      "맹자": 7415,
      "비참": 7416,
      "세": 7417,
      "소아": 7418,
      "신으로": 7419,
      "십륙": 7420,
      "십여": 7421,
      "암흑": 7422,
      "약기": 7423,
      "유래": 7424,
      "은시": 7425,
      "일생": 7426,
      "자작": 7427,
      "종을": 7428,
      "증거": 7429,
      "지출": 7430,
      "케하는": 7431,
      "터이니": 7432,
      "통을": 7433,
      "파를": 7434,
      "형벌": 7435,
      "으로하야": 7436,
      "하고있": 7437,
      "지오.": 7438,
      "운동이": 7439,
      "여하를": 7440,
      "대신에게": 7441,
      "사무를": 7442,
      "노래를": 7443,
      ",(": 7444,
      ",고": 7445,
      "금영": 7446,
      "기이": 7447,
      "나,": 7448,
      "남궁": 7449,
      "단말": 7450,
      "대범": 7451,
      "되엇다.": 7452,
      "라고": 7453,
      "몹시": 7454,
      "물과": 7455,
      "소지": 7456,
      "신고": 7457,
      "예의": 7458,
      "이날": 7459,
      "주야": 7460,
      "주위": 7461,
      "질문": 7462,
      "징수": 7463,
      "창도": 7464,
      "현상이": 7465,
      "화란": 7466,
      "고지": 7467,
      "이라함은": 7468,
      "주의는": 7469,
      "얏": 7470,
      "할수없는": 7471,
      "이되는": 7472,
      "의의무": 7473,
      "불가능": 7474,
      "홈.제십": 7475,
      "을이르": 7476,
      "」에": 7477,
      "견면": 7478,
      "구는": 7479,
      "국회": 7480,
      "군지": 7481,
      "그로": 7482,
      "내게": 7483,
      "대지": 7484,
      "도": 7485,
      "되엿다.": 7486,
      "드려": 7487,
      "럿다.": 7488,
      "루를": 7489,
      "마한": 7490,
      "북도": 7491,
      "북미": 7492,
      "북방": 7493,
      "생식": 7494,
      "성": 7495,
      "시나": 7496,
      "아동의": 7497,
      "없고": 7498,
      "엇다": 7499,
      "연간에": 7500,
      "옛날": 7501,
      "유익": 7502,
      "이원": 7503,
      "임은": 7504,
      "좌에": 7505,
      "하더니": 7506,
      "한결과": 7507,
      "합하야": 7508,
      "야구": 7509,
      "으로기": 7510,
      "우리들의": 7511,
      "국민이": 7512,
      "문제의": 7513,
      "무엇보다도": 7514,
      "이라는것은": 7515,
      "34": 7516,
      "3000": 7517,
      "과언": 7518,
      "구지": 7519,
      "리지": 7520,
      "부,": 7521,
      "분자": 7522,
      "사범": 7523,
      "외에": 7524,
      "인위": 7525,
      "타락": 7526,
      "일": 7527,
      "인이니": 7528,
      "이니차": 7529,
      "는데그": 7530,
      "인류가": 7531,
      "한다하면": 7532,
      "에유학": 7533,
      "부시": 7534,
      "당시의": 7535,
      "제삼조": 7536,
      ",000여": 7537,
      "불구하고": 7538,
      "화성돈": 7539,
      "7일": 7540,
      "is": 7541,
      "가도": 7542,
      "곳에서": 7543,
      "관습": 7544,
      "기": 7545,
      "넉넉": 7546,
      "눈물을": 7547,
      "는「": 7548,
      "단행": 7549,
      "뒤를": 7550,
      "마를": 7551,
      "말에": 7552,
      "법학": 7553,
      "비도": 7554,
      "석의": 7555,
      "성대": 7556,
      "수다": 7557,
      "신흥": 7558,
      "유희": 7559,
      "입고": 7560,
      "장식": 7561,
      "전술": 7562,
      "제도의": 7563,
      "제씨": 7564,
      "조모": 7565,
      "종로": 7566,
      "종은": 7567,
      "총리": 7568,
      "칠팔": 7569,
      "항의": 7570,
      "흐면": 7571,
      "흡수": 7572,
      "시": 7573,
      "니시": 7574,
      "하엿슴니다.": 7575,
      "이무고": 7576,
      "지방의": 7577,
      "수가업": 7578,
      "단체를": 7579,
      "모든것이": 7580,
      "』하고": 7581,
      "가리": 7582,
      "고이": 7583,
      "관면": 7584,
      "근육": 7585,
      "기정": 7586,
      "나?": 7587,
      "라,": 7588,
      "목에": 7589,
      "미개": 7590,
      "발포": 7591,
      "비난": 7592,
      "비율": 7593,
      "살아": 7594,
      "승야": 7595,
      "시오": 7596,
      "안저": 7597,
      "야니라.": 7598,
      "여피": 7599,
      "익년": 7600,
      "자니": 7601,
      "정체": 7602,
      "하년": 7603,
      "호걸": 7604,
      "회중": 7605,
      "니개": 7606,
      "의의를": 7607,
      "이요,": 7608,
      "11월": 7609,
      "아닌가.": 7610,
      "아무리": 7611,
      ",서": 7612,
      "가일": 7613,
      "각이": 7614,
      "계는": 7615,
      "노라.": 7616,
      "동은": 7617,
      "발간": 7618,
      "백화": 7619,
      "사도": 7620,
      "선조": 7621,
      "소이로": 7622,
      "순환": 7623,
      "위대": 7624,
      "은부": 7625,
      "을가지": 7626,
      "이들": 7627,
      "이민": 7628,
      "일것이": 7629,
      "절히": 7630,
      "정과": 7631,
      "조리": 7632,
      "주택": 7633,
      "창」": 7634,
      "최다": 7635,
      "추측": 7636,
      "하겠": 7637,
      "다.)": 7638,
      "아니며": 7639,
      "얏스며": 7640,
      "생활에": 7641,
      "엿": 7642,
      "단체가": 7643,
      "하랴고": 7644,
      "언제나": 7645,
      ",구": 7646,
      "」이라는": 7647,
      "국문": 7648,
      "도하고": 7649,
      "반대로": 7650,
      "부라": 7651,
      "삼국": 7652,
      "삼사": 7653,
      "상,": 7654,
      "수잇": 7655,
      "용": 7656,
      "위인": 7657,
      "의논": 7658,
      "일진": 7659,
      "자재": 7660,
      "잡아": 7661,
      "장구": 7662,
      "지간": 7663,
      "침해": 7664,
      "토의": 7665,
      "피등": 7666,
      "한고": 7667,
      "해당": 7668,
      "현저": 7669,
      "하엿다.그러나": 7670,
      "이나마": 7671,
      "국민은": 7672,
      "하얏고": 7673,
      "학생이": 7674,
      "하니라.": 7675,
      "방법으로": 7676,
      "20세": 7677,
      "직접으로": 7678,
      "어려운": 7679,
      "400": 7680,
      "가라": 7681,
      "거주": 7682,
      "것인데": 7683,
      "고요": 7684,
      "관할": 7685,
      "기까지": 7686,
      "너머": 7687,
      "다하야": 7688,
      "목의": 7689,
      "불면": 7690,
      "세칙": 7691,
      "스되": 7692,
      "시와": 7693,
      "시절": 7694,
      "신지": 7695,
      "실천": 7696,
      "씨명": 7697,
      "영리": 7698,
      "예방": 7699,
      "은지": 7700,
      "일국": 7701,
      "자나": 7702,
      "전시": 7703,
      "제육": 7704,
      "초를": 7705,
      "케하고": 7706,
      "키는": 7707,
      "태평": 7708,
      "려니와": 7709,
      "수": 7710,
      "디": 7711,
      "하야써": 7712,
      "주의로": 7713,
      "이러라.": 7714,
      "문화의": 7715,
      "을득.": 7716,
      "아직도": 7717,
      "각종의": 7718,
      "개최": 7719,
      "것만": 7720,
      "고에": 7721,
      "뜻을": 7722,
      "로서는": 7723,
      "상무": 7724,
      "세는": 7725,
      "신구": 7726,
      "어의": 7727,
      "예정": 7728,
      "왕래": 7729,
      "을배": 7730,
      "의불": 7731,
      "이파": 7732,
      "인)": 7733,
      "일장": 7734,
      "지에서": 7735,
      "평론": 7736,
      "항해": 7737,
      "화야": 7738,
      "일": 7739,
      "사회는": 7740,
      "가유야": 7741,
      "대신이": 7742,
      "드러가": 7743,
      "이야말로": 7744,
      "행복을": 7745,
      "여기서": 7746,
      "분명히": 7747,
      "회를개고": 7748,
      ",등": 7749,
      "과급": 7750,
      "동북": 7751,
      "미리": 7752,
      "보지": 7753,
      "부수": 7754,
      "불허": 7755,
      "속을": 7756,
      "시설": 7757,
      "에구": 7758,
      "역사상": 7759,
      "유유": 7760,
      "이요.": 7761,
      "인고": 7762,
      "인쇄": 7763,
      "전,": 7764,
      "전투": 7765,
      "초월": 7766,
      "치어": 7767,
      "하거니와": 7768,
      "함)": 7769,
      "며혹은": 7770,
      "교육계": 7771,
      "생각하고": 7772,
      "치못한": 7773,
      "에도착": 7774,
      "모든것을": 7775,
      "지않고": 7776,
      "보아도": 7777,
      "을발견": 7778,
      "비상": 7779,
      "과지": 7780,
      "군에": 7781,
      "규정을": 7782,
      "동화": 7783,
      "두뇌": 7784,
      "를위": 7785,
      "막부": 7786,
      "모아": 7787,
      "변야": 7788,
      "삼종": 7789,
      "순서": 7790,
      "스타": 7791,
      "연출": 7792,
      "용감": 7793,
      "유이": 7794,
      "의명": 7795,
      "이강": 7796,
      "인재": 7797,
      "인사의": 7798,
      "일선": 7799,
      "자자": 7800,
      "적대": 7801,
      "적막": 7802,
      "정거": 7803,
      "차역": 7804,
      "한울": 7805,
      "형님": 7806,
      ")": 7807,
      "생활이": 7808,
      "00000000": 7809,
      "책임을": 7810,
      "어린아": 7811,
      "2,3": 7812,
      "말미암": 7813,
      "○동": 7814,
      "가저": 7815,
      "교훈": 7816,
      "네쓰": 7817,
      "단에": 7818,
      "득야": 7819,
      "또그": 7820,
      "맛당히": 7821,
      "무관": 7822,
      "박영": 7823,
      "설야": 7824,
      "식물의": 7825,
      "원인은": 7826,
      "은정": 7827,
      "의서": 7828,
      "이산": 7829,
      "일제": 7830,
      "자립": 7831,
      "정,": 7832,
      "정확": 7833,
      "처서": 7834,
      "하매": 7835,
      "하월": 7836,
      "했다.": 7837,
      "황태": 7838,
      "공": 7839,
      "거시": 7840,
      "하게되는": 7841,
      "관계": 7842,
      "제일조": 7843,
      "시간을": 7844,
      "30년": 7845,
      "하게되엿": 7846,
      "각성": 7847,
      "경으로": 7848,
      "과부": 7849,
      "기우": 7850,
      "기차": 7851,
      "당지": 7852,
      "되지아니": 7853,
      "라위": 7854,
      "만년": 7855,
      "미안": 7856,
      "부야": 7857,
      "분배": 7858,
      "불문": 7859,
      "비에": 7860,
      "소야": 7861,
      "수없": 7862,
      "식물을": 7863,
      "연장": 7864,
      "의반": 7865,
      "의변": 7866,
      "일전": 7867,
      "자(": 7868,
      "평민": 7869,
      "하자는": 7870,
      "하도다.": 7871,
      "학문을": 7872,
      "아니라": 7873,
      "며": 7874,
      "사상은": 7875,
      "엿": 7876,
      "자연적": 7877,
      "사실이": 7878,
      "제이조": 7879,
      "기로가결": 7880,
      ",신": 7881,
      "at": 7882,
      "」이라고": 7883,
      "고나": 7884,
      "근면": 7885,
      "기상": 7886,
      "다라": 7887,
      "대서": 7888,
      "대성": 7889,
      "듯하다.": 7890,
      "로되": 7891,
      "로만": 7892,
      "명호": 7893,
      "분열": 7894,
      "사양": 7895,
      "삼조": 7896,
      "상공": 7897,
      "심한": 7898,
      "어디": 7899,
      "왕은": 7900,
      "유산": 7901,
      "이출": 7902,
      "이필": 7903,
      "있어서": 7904,
      "장소": 7905,
      "포기": 7906,
      "야위": 7907,
      "하여보": 7908,
      "이오.": 7909,
      "잇는것이다.": 7910,
      "생각한다.": 7911,
      "국민당": 7912,
      "지못하는": 7913,
      "필요한": 7914,
      "와여": 7915,
      "국유삼림산야": 7916,
      "융희2년": 7917,
      "1분": 7918,
      "6,": 7919,
      "가능": 7920,
      "강습": 7921,
      "고전": 7922,
      "니아": 7923,
      "다란": 7924,
      "도한": 7925,
      "매월": 7926,
      "명지": 7927,
      "박게": 7928,
      "배치": 7929,
      "보다는": 7930,
      "분주": 7931,
      "불선": 7932,
      "붓을": 7933,
      "상히": 7934,
      "서력": 7935,
      "석은": 7936,
      "소녀": 7937,
      "수성": 7938,
      "시며": 7939,
      "식과": 7940,
      "역사가": 7941,
      "온다.": 7942,
      "인문": 7943,
      "일우": 7944,
      "잇섯다.": 7945,
      "죄를": 7946,
      "질은": 7947,
      "찬란": 7948,
      "홈은": 7949,
      "활약": 7950,
      "훨신": 7951,
      "흔히": 7952,
      "와": 7953,
      "으로": 7954,
      "에는「": 7955,
      "나연이나": 7956,
      "에재한": 7957,
      "가유고": 7958,
      "가잇서": 7959,
      "의미에서": 7960,
      "를가진": 7961,
      "생존경쟁": 7962,
      "제사조": 7963,
      "간과": 7964,
      "개인이": 7965,
      "그자": 7966,
      "기백": 7967,
      "나에게": 7968,
      "내고": 7969,
      "니,": 7970,
      "다리": 7971,
      "다니": 7972,
      "동방": 7973,
      "되지안": 7974,
      "띄오게": 7975,
      "라은": 7976,
      "모음": 7977,
      "몬져": 7978,
      "발야": 7979,
      "병은": 7980,
      "본위": 7981,
      "불요": 7982,
      "비지": 7983,
      "생": 7984,
      "수업는": 7985,
      "신진": 7986,
      "심야": 7987,
      "아울": 7988,
      "올나": 7989,
      "을마": 7990,
      "을추": 7991,
      "이달": 7992,
      "이문": 7993,
      "이치": 7994,
      "인바": 7995,
      "제작": 7996,
      "중을": 7997,
      "충청": 7998,
      "통곡": 7999,
      "하처": 8000,
      "해지": 8001,
      "니기": 8002,
      "에관사항": 8003,
      "에기인": 8004,
      "게되얏": 8005,
      "장래를": 8006,
      "전문학교": 8007,
      "띄오게네쓰": 8008,
      ",시": 8009,
      "6일": 8010,
      "78": 8011,
      "』를": 8012,
      "각하": 8013,
      "고야": 8014,
      "글세": 8015,
      "녯날": 8016,
      "되었": 8017,
      "로지": 8018,
      "미면": 8019,
      "번역": 8020,
      "부도": 8021,
      "부탁": 8022,
      "부인은": 8023,
      "부회장": 8024,
      "수만": 8025,
      "어로": 8026,
      "에급": 8027,
      "오고": 8028,
      "오조": 8029,
      "용을": 8030,
      "위원을": 8031,
      "의개": 8032,
      "의양": 8033,
      "의우": 8034,
      "전으로": 8035,
      "제도가": 8036,
      "조는": 8037,
      "중화": 8038,
      "지재": 8039,
      "직무": 8040,
      "진지": 8041,
      "차차": 8042,
      "하더": 8043,
      "행사": 8044,
      "오.": 8045,
      "야혹": 8046,
      "으로그": 8047,
      "에는그": 8048,
      "이유를": 8049,
      "이다.이": 8050,
      "얏시니": 8051,
      "생각이": 8052,
      "에비하야": 8053,
      "제륙조": 8054,
      "-원문)": 8055,
      "39": 8056,
      "군에게": 8057,
      "눈이": 8058,
      "망이": 8059,
      "모두": 8060,
      "백이": 8061,
      "수정": 8062,
      "시세": 8063,
      "엇습니다.": 8064,
      "영위": 8065,
      "오리": 8066,
      "외무": 8067,
      "의거": 8068,
      "일월": 8069,
      "전설": 8070,
      "주주": 8071,
      "주야": 8072,
      "직공": 8073,
      "차ᅵ": 8074,
      "태도": 8075,
      "파견": 8076,
      "파라": 8077,
      "한수": 8078,
      "합중국": 8079,
      "해소": 8080,
      "환을": 8081,
      "아니나": 8082,
      "이유면": 8083,
      "할수가": 8084,
      "이아니오": 8085,
      "모르나": 8086,
      "과거의": 8087,
      "................": 8088,
      "총독부": 8089,
      "공산당": 8090,
      "오사카": 8091,
      ")으로": 8092,
      "-그": 8093,
      "」등": 8094,
      "건곤": 8095,
      "결핍": 8096,
      "경시": 8097,
      "고아": 8098,
      "구,": 8099,
      "국인": 8100,
      "기실": 8101,
      "는안": 8102,
      "다」": 8103,
      "대단히": 8104,
      "레타": 8105,
      "말하는": 8106,
      "버렷": 8107,
      "번영": 8108,
      "분수": 8109,
      "산군": 8110,
      "상사": 8111,
      "시고": 8112,
      "여기에": 8113,
      "은동": 8114,
      "이각": 8115,
      "인사가": 8116,
      "일기": 8117,
      "자존": 8118,
      "제거": 8119,
      "주목": 8120,
      "진한": 8121,
      "체는": 8122,
      "판납": 8123,
      "할일": 8124,
      "쟈": 8125,
      "이라며": 8126,
      "정치의": 8127,
      "동포의": 8128,
      "거": 8129,
      "라는것은": 8130,
      "이익을": 8131,
      "여사": 8132,
      "근본적": 8133,
      "(일": 8134,
      "75": 8135,
      "곳은": 8136,
      "깁흔": 8137,
      "노농": 8138,
      "담을": 8139,
      "대고": 8140,
      "라면": 8141,
      "미": 8142,
      "백두": 8143,
      "보도": 8144,
      "부친": 8145,
      "불원": 8146,
      "비극": 8147,
      "상부": 8148,
      "상야": 8149,
      "석,": 8150,
      "세인이": 8151,
      "스사로": 8152,
      "승리를": 8153,
      "시야": 8154,
      "시에는": 8155,
      "연년": 8156,
      "오지": 8157,
      "워서": 8158,
      "원동": 8159,
      "전지": 8160,
      "정도가": 8161,
      "중등": 8162,
      "차오": 8163,
      "차한": 8164,
      "창설": 8165,
      "취를": 8166,
      "케면": 8167,
      "토지의": 8168,
      "피차": 8169,
      "학무": 8170,
      "한말": 8171,
      "회는": 8172,
      "후를": 8173,
      "하는그": 8174,
      "에지고": 8175,
      "관계가유": 8176,
      "가잇고": 8177,
      "을수없": 8178,
      "더욱이": 8179,
      "계급적": 8180,
      "왕왕히": 8181,
      "(사)": 8182,
      "기선": 8183,
      "낫다.": 8184,
      "당초": 8185,
      "대와": 8186,
      "령이": 8187,
      "리": 8188,
      "몽고": 8189,
      "미주": 8190,
      "법으로": 8191,
      "북으로": 8192,
      "산으로": 8193,
      "서와": 8194,
      "세인의": 8195,
      "수확": 8196,
      "수중에": 8197,
      "스리": 8198,
      "와는": 8199,
      "요지": 8200,
      "의병": 8201,
      "의화": 8202,
      "점이": 8203,
      "주소": 8204,
      "착오": 8205,
      "체": 8206,
      "통신": 8207,
      "판단": 8208,
      "표를": 8209,
      "한심": 8210,
      "함으로써": 8211,
      "현하": 8212,
      "형으로": 8213,
      "하엿섯": 8214,
      "이상적": 8215,
      "다.이것이": 8216,
      "동포가": 8217,
      "이란것은": 8218,
      "인가를": 8219,
      "하자오": 8220,
      "하리라": 8221,
      "볼수잇": 8222,
      "씨동의로": 8223,
      "식민지": 8224,
      "하노라.": 8225,
      "마츰내": 8226,
      "5분": 8227,
      "경지": 8228,
      "글을": 8229,
      "금으로": 8230,
      "는바": 8231,
      "당에": 8232,
      "드듸": 8233,
      "든것이다.": 8234,
      "들어서": 8235,
      "등장": 8236,
      "력야": 8237,
      "만타.": 8238,
      "모-": 8239,
      "보국": 8240,
      "분쟁": 8241,
      "사위": 8242,
      "사육": 8243,
      "소득": 8244,
      "에방": 8245,
      "여관": 8246,
      "여인": 8247,
      "요건": 8248,
      "운명을": 8249,
      "이루": 8250,
      "익익": 8251,
      "자양": 8252,
      "전차": 8253,
      "족음": 8254,
      "주일": 8255,
      "진하야": 8256,
      "한양": 8257,
      "함이다.": 8258,
      "합니다.그": 8259,
      "황을": 8260,
      "": 8261,
      "하고로": 8262,
      "하는말": 8263,
      "이니기": 8264,
      "다.그러나그": 8265,
      "정치를": 8266,
      "가잇섯": 8267,
      "바ᅵ": 8268,
      "가되야": 8269,
      "작용을": 8270,
      "에나타": 8271,
      "간단히": 8272,
      "교지": 8273,
      "구하고": 8274,
      "그냥": 8275,
      "기고": 8276,
      "다!": 8277,
      "단편": 8278,
      "두번": 8279,
      "례로": 8280,
      "만강": 8281,
      "무야": 8282,
      "분에": 8283,
      "생은": 8284,
      "서적": 8285,
      "선으로": 8286,
      "수시": 8287,
      "연을": 8288,
      "운반": 8289,
      "운을": 8290,
      "이화": 8291,
      "제구": 8292,
      "추어": 8293,
      "취체": 8294,
      "코-": 8295,
      "파송": 8296,
      "할만": 8297,
      "현세": 8298,
      "혼합": 8299,
      "기": 8300,
      "야신": 8301,
      "에대해서": 8302,
      "을인야": 8303,
      "다.그러므로": 8304,
      "국민적": 8305,
      "을보호": 8306,
      "이가장": 8307,
      "신문사": 8308,
      "자본가": 8309,
      "가되어": 8310,
      "부분을": 8311,
      "자도유": 8312,
      "권리": 8313,
      "과학적": 8314,
      "다.그리하여": 8315,
      "로인하야": 8316,
      "(주": 8317,
      "거개": 8318,
      "공은": 8319,
      "금석": 8320,
      "기외": 8321,
      "길로": 8322,
      "노인": 8323,
      "된것은": 8324,
      "불용": 8325,
      "슬때": 8326,
      "시민": 8327,
      "안이다.": 8328,
      "열국": 8329,
      "우선": 8330,
      "을뿐": 8331,
      "의여": 8332,
      "자비": 8333,
      "자국의": 8334,
      "재능": 8335,
      "전주": 8336,
      "정복": 8337,
      "종종의": 8338,
      "처가": 8339,
      "치만": 8340,
      "학사": 8341,
      "혹유": 8342,
      "힘을": 8343,
      "지": 8344,
      "니라": 8345,
      "조선에서": 8346,
      "그러고": 8347,
      "국민지": 8348,
      "이되엇": 8349,
      "자라.": 8350,
      "청년의": 8351,
      "단체의": 8352,
      "마음을": 8353,
      "면서도": 8354,
      "진": 8355,
      "아버지": 8356,
      "49": 8357,
      "as": 8358,
      "ic": 8359,
      "』는": 8360,
      "게된다.": 8361,
      "광고": 8362,
      "교제": 8363,
      "기미": 8364,
      "기업": 8365,
      "남방": 8366,
      "담임": 8367,
      "돌이어": 8368,
      "레-": 8369,
      "부호": 8370,
      "비유": 8371,
      "수년": 8372,
      "시일": 8373,
      "씨특청": 8374,
      "아방": 8375,
      "여는": 8376,
      "연수": 8377,
      "인칙": 8378,
      "입을": 8379,
      "적합": 8380,
      "접촉": 8381,
      "정히": 8382,
      "존중": 8383,
      "타국": 8384,
      "풍을": 8385,
      "필주": 8386,
      "하인": 8387,
      "형이": 8388,
      "하엿섯다.": 8389,
      "일본은": 8390,
      "이리하야": 8391,
      "야ᅵ라": 8392,
      "자신의": 8393,
      "이와가튼": 8394,
      "연후에야": 8395,
      "각을": 8396,
      "견을": 8397,
      "과가": 8398,
      "광이": 8399,
      "만고": 8400,
      "명년": 8401,
      "백색": 8402,
      "불필": 8403,
      "붉은": 8404,
      "사물": 8405,
      "서기가": 8406,
      "소용": 8407,
      "수요": 8408,
      "승려": 8409,
      "심지어": 8410,
      "안이오": 8411,
      "언이": 8412,
      "옷을": 8413,
      "왈오": 8414,
      "적에": 8415,
      "지상에": 8416,
      "타인": 8417,
      "타협": 8418,
      "포도": 8419,
      "푸른": 8420,
      "회의의": 8421,
      "만": 8422,
      "고신": 8423,
      "소": 8424,
      "조선은": 8425,
      "의사실": 8426,
      "에도달": 8427,
      "사상과": 8428,
      "하지마는": 8429,
      "보아서": 8430,
      "지위를": 8431,
      "상당히": 8432,
      "영향을": 8433,
      "장제스": 8434,
      ",일": 8435,
      "감격": 8436,
      "공지": 8437,
      "과장": 8438,
      "괴로": 8439,
      "국무": 8440,
      "금차": 8441,
      "급기타": 8442,
      "나종": 8443,
      "남도": 8444,
      "단은": 8445,
      "무형": 8446,
      "물어": 8447,
      "병사": 8448,
      "부재": 8449,
      "소요": 8450,
      "스토": 8451,
      "시집": 8452,
      "야를": 8453,
      "양지": 8454,
      "양국의": 8455,
      "외에는": 8456,
      "의방": 8457,
      "인인이": 8458,
      "저작": 8459,
      "전반": 8460,
      "족이": 8461,
      "종일": 8462,
      "준비를": 8463,
      "진을": 8464,
      "책은": 8465,
      "천여": 8466,
      "타의": 8467,
      "태종": 8468,
      "한장": 8469,
      "호위": 8470,
      "흥망": 8471,
      "": 8472,
      "것이외다.": 8473,
      "우리들": 8474,
      "하엿스니": 8475,
      "이유는": 8476,
      "국가에": 8477,
      "자로": 8478,
      "학생의": 8479,
      "노라": 8480,
      "여도": 8481,
      "특별": 8482,
      "작품을": 8483,
      "인격을": 8484,
      "물질적": 8485,
      "불행히": 8486,
      ").": 8487,
      ",장": 8488,
      "66": 8489,
      "it": 8490,
      "간주": 8491,
      "감상": 8492,
      "경주": 8493,
      "고래": 8494,
      "공원": 8495,
      "과상": 8496,
      "과이": 8497,
      "광명": 8498,
      "구락": 8499,
      "구와": 8500,
      "단연": 8501,
      "대원": 8502,
      "됨니다.": 8503,
      "론면": 8504,
      "만들어": 8505,
      "무명": 8506,
      "무서운": 8507,
      "분업": 8508,
      "붙어": 8509,
      "산지": 8510,
      "생애": 8511,
      "소이다.": 8512,
      "수학": 8513,
      "아닙": 8514,
      "안고": 8515,
      "어기": 8516,
      "어떻": 8517,
      "언니": 8518,
      "엇다.그": 8519,
      "원조": 8520,
      "응야": 8521,
      "의영": 8522,
      "이등": 8523,
      "재학": 8524,
      "저장": 8525,
      "전염": 8526,
      "지말고": 8527,
      "진정한": 8528,
      "차시": 8529,
      "차에대야": 8530,
      "출고": 8531,
      "케이": 8532,
      "결과": 8533,
      "야국": 8534,
      "사회": 8535,
      "일본국": 8536,
      "나는이": 8537,
      "금일은": 8538,
      "되는것은": 8539,
      "의의의": 8540,
      ".제십": 8541,
      "인생은": 8542,
      "이제는": 8543,
      "지어다.": 8544,
      "방면에": 8545,
      "활동을": 8546,
      "야ᅵ니": 8547,
      "소리로": 8548,
      "하리라.": 8549,
      "신간회": 8550,
      "○동전을거즉": 8551,
      "(2)": 8552,
      ")와": 8553,
      ",즉": 8554,
      "간조": 8555,
      "관과": 8556,
      "금성": 8557,
      "기회를": 8558,
      "까?": 8559,
      "너의": 8560,
      "니르": 8561,
      "동리": 8562,
      "될것": 8563,
      "들면": 8564,
      "라!": 8565,
      "명일": 8566,
      "문법": 8567,
      "변에": 8568,
      "보가": 8569,
      "불리": 8570,
      "비사": 8571,
      "상항": 8572,
      "생리": 8573,
      "석회": 8574,
      "습니다.그러나": 8575,
      "신비": 8576,
      "신임": 8577,
      "신청": 8578,
      "실례": 8579,
      "언하면": 8580,
      "업슬": 8581,
      "와동": 8582,
      "완비": 8583,
      "우스": 8584,
      "우회": 8585,
      "은다": 8586,
      "장고": 8587,
      "전체의": 8588,
      "접근": 8589,
      "천황": 8590,
      "칠조": 8591,
      "파륜": 8592,
      "한아": 8593,
      "한사람이": 8594,
      "합병": 8595,
      "형용": 8596,
      "확신": 8597,
      "시": 8598,
      "야지": 8599,
      "데": 8600,
      "이라가": 8601,
      "하여곰": 8602,
      "사람으로": 8603,
      "이니까": 8604,
      "중에재": 8605,
      "까지의": 8606,
      "할수는": 8607,
      "에지하야": 8608,
      "에재하야": 8609,
      "정부에셔": 8610,
      "이지요.": 8611,
      "대한대한": 8612,
      "사업에": 8613,
      "한것이라": 8614,
      "이업다.": 8615,
      "문화를": 8616,
      "더러": 8617,
      "개인적": 8618,
      "금기하": 8619,
      "절대적": 8620,
      "가트면": 8621,
      ")로": 8622,
      "32": 8623,
      "감화": 8624,
      "갑오": 8625,
      "거러": 8626,
      "격렬": 8627,
      "경비": 8628,
      "고정": 8629,
      "고고": 8630,
      "교도": 8631,
      "도업고": 8632,
      "드르": 8633,
      "마가": 8634,
      "메리": 8635,
      "문무": 8636,
      "민사": 8637,
      "박은": 8638,
      "본년": 8639,
      "사고": 8640,
      "사면": 8641,
      "산과": 8642,
      "상술": 8643,
      "선수": 8644,
      "소학": 8645,
      "신교": 8646,
      "역사의": 8647,
      "오면": 8648,
      "잇스면": 8649,
      "자난": 8650,
      "전과": 8651,
      "정권": 8652,
      "주저": 8653,
      "죽어": 8654,
      "중추": 8655,
      "진리": 8656,
      "진의": 8657,
      "질병": 8658,
      "청산": 8659,
      "취하야": 8660,
      "측량": 8661,
      "키위야": 8662,
      "풍우": 8663,
      "하구": 8664,
      "한분": 8665,
      "야각": 8666,
      "하야오.": 8667,
      "": 8668,
      "이상으로": 8669,
      "보앗다.": 8670,
      "비율빈": 8671,
      ",부": 8672,
      ",소": 8673,
      "」과": 8674,
      "』이라": 8675,
      "감옥": 8676,
      "개국": 8677,
      "개유": 8678,
      "군으로": 8679,
      "권력을": 8680,
      "기심": 8681,
      "놋코": 8682,
      "대우": 8683,
      "되니": 8684,
      "때로": 8685,
      "면려": 8686,
      "몰으": 8687,
      "반복": 8688,
      "불승": 8689,
      "산천": 8690,
      "상공업": 8691,
      "수구": 8692,
      "알앗": 8693,
      "연래": 8694,
      "외부": 8695,
      "유언": 8696,
      "의결과": 8697,
      "인물을": 8698,
      "자부": 8699,
      "조지": 8700,
      "집중": 8701,
      "커든": 8702,
      "편지": 8703,
      "한강": 8704,
      "화려": 8705,
      "황해": 8706,
      "회원이": 8707,
      "희곡": 8708,
      "히고": 8709,
      "자": 8710,
      "야공": 8711,
      "에서나": 8712,
      "아니니": 8713,
      "할수있": 8714,
      "에의하여": 8715,
      "이무엇": 8716,
      "선생이": 8717,
      "하면서도": 8718,
      "씨재청으로가결되다.": 8719,
      "차라리": 8720,
      ",공": 8721,
      ".「": 8722,
      "4일": 8723,
      "」,「": 8724,
      "강건": 8725,
      "게재": 8726,
      "과과": 8727,
      "금병": 8728,
      "기비": 8729,
      "기인이": 8730,
      "내일": 8731,
      "내에셔": 8732,
      "동학": 8733,
      "때가": 8734,
      "런데": 8735,
      "만회": 8736,
      "먹을": 8737,
      "무비": 8738,
      "민국": 8739,
      "발전을": 8740,
      "방금": 8741,
      "본다.": 8742,
      "상급": 8743,
      "생이": 8744,
      "속이": 8745,
      "안주": 8746,
      "안다.": 8747,
      "양도": 8748,
      "엇섯다.": 8749,
      "오국": 8750,
      "오니": 8751,
      "외의": 8752,
      "요컨대": 8753,
      "의재": 8754,
      "일행": 8755,
      "조아": 8756,
      "진주": 8757,
      "피": 8758,
      "하거": 8759,
      "하위": 8760,
      "학적": 8761,
      "합리": 8762,
      "는": 8763,
      "야소": 8764,
      "야시": 8765,
      "야해": 8766,
      "에게서": 8767,
      "이상이": 8768,
      "자니": 8769,
      "지금도": 8770,
      "사실은": 8771,
      "행동을": 8772,
      "푸로레타": 8773,
      "서반아": 8774,
      "「이": 8775,
      "감이": 8776,
      "개명": 8777,
      "걱정": 8778,
      "격으로": 8779,
      "과,": 8780,
      "국방": 8781,
      "권한": 8782,
      "금부": 8783,
      "기후에": 8784,
      "덕을": 8785,
      "독을": 8786,
      "뛰여": 8787,
      "로": 8788,
      "만장": 8789,
      "명명": 8790,
      "문득": 8791,
      "반동": 8792,
      "보전": 8793,
      "불성": 8794,
      "산보": 8795,
      "상식": 8796,
      "서류": 8797,
      "설혹": 8798,
      "아침": 8799,
      "압록": 8800,
      "야와": 8801,
      "어미": 8802,
      "에감": 8803,
      "에자": 8804,
      "역의": 8805,
      "열을": 8806,
      "영숙": 8807,
      "의세": 8808,
      "인(": 8809,
      "인수": 8810,
      "정도의": 8811,
      "존경": 8812,
      "치며": 8813,
      "컨": 8814,
      "특수한": 8815,
      "한곳": 8816,
      "한자는": 8817,
      "것": 8818,
      "야고": 8819,
      "것이나": 8820,
      "조선을": 8821,
      "자유의": 8822,
      "엿스나": 8823,
      "의수입": 8824,
      "게되엇다.": 8825,
      "재산을": 8826,
      "XXXXXXXX": 8827,
      "": 8828,
      "김명준": 8829,
      "가": 8830,
      "강약": 8831,
      "개기": 8832,
      "거리가": 8833,
      "계로": 8834,
      "교사가": 8835,
      "국경": 8836,
      "농작": 8837,
      "는가?": 8838,
      "단으로": 8839,
      "동인": 8840,
      "령으로": 8841,
      "맛치": 8842,
      "멀니": 8843,
      "몬저": 8844,
      "반듯": 8845,
      "불안": 8846,
      "비컨": 8847,
      "설고": 8848,
      "신야": 8849,
      "알수업": 8850,
      "원산": 8851,
      "유면": 8852,
      "의차": 8853,
      "임금": 8854,
      "절을": 8855,
      "정관": 8856,
      "정상": 8857,
      "제고": 8858,
      "주사": 8859,
      "직을": 8860,
      "치지": 8861,
      "평범": 8862,
      "함대": 8863,
      "합시다.": 8864,
      "해부": 8865,
      "효력을": 8866,
      "흡사": 8867,
      "흥미를": 8868,
      "로": 8869,
      "도유": 8870,
      "것이며": 8871,
      "치못할": 8872,
      "할수가업": 8873,
      "이되얏": 8874,
      "하기도": 8875,
      "엿더니": 8876,
      "법률은": 8877,
      "연구를": 8878,
      "으면서": 8879,
      "189": 8880,
      "모르고": 8881,
      "을주장": 8882,
      "바ᅵ": 8883,
      "으로인하야": 8884,
      ",우": 8885,
      "om": 8886,
      "」에서": 8887,
      "각자의": 8888,
      "게되고": 8889,
      "과갓치": 8890,
      "군주의": 8891,
      "그럼": 8892,
      "근이": 8893,
      "근저": 8894,
      "날마다": 8895,
      "노흔": 8896,
      "단정": 8897,
      "당": 8898,
      "두를": 8899,
      "마의": 8900,
      "만물": 8901,
      "무부": 8902,
      "변을": 8903,
      "부": 8904,
      "삼척": 8905,
      "소": 8906,
      "시조": 8907,
      "시간에": 8908,
      "실히": 8909,
      "심과": 8910,
      "에고": 8911,
      "원년": 8912,
      "원한": 8913,
      "을위야": 8914,
      "이든": 8915,
      "이다.그러나": 8916,
      "인자": 8917,
      "일자": 8918,
      "일척": 8919,
      "주어": 8920,
      "천원": 8921,
      "체와": 8922,
      "파멸": 8923,
      "필왈": 8924,
      "하믈": 8925,
      "한한": 8926,
      "함북": 8927,
      "함유": 8928,
      "현출": 8929,
      "후에는": 8930,
      "슈": 8931,
      "하고말": 8932,
      "이라야": 8933,
      "에게재": 8934,
      "주의자": 8935,
      "이면칙": 8936,
      "제군의": 8937,
      "마음에": 8938,
      "할때에는": 8939,
      "방침을": 8940,
      "에잇어서는": 8941,
      "4000년": 8942,
      "가나": 8943,
      "고리": 8944,
      "고문": 8945,
      "구리": 8946,
      "극동": 8947,
      "길이": 8948,
      "된것": 8949,
      "략)": 8950,
      "롭게": 8951,
      "마즈": 8952,
      "말한": 8953,
      "매거": 8954,
      "몽룡": 8955,
      "보안": 8956,
      "부리": 8957,
      "불각": 8958,
      "뿐만아니라": 8959,
      "새벽": 8960,
      "색채": 8961,
      "섬유": 8962,
      "세와": 8963,
      "쉬운": 8964,
      "습을": 8965,
      "시오.": 8966,
      "신가": 8967,
      "십리": 8968,
      "언지": 8969,
      "올시": 8970,
      "위안": 8971,
      "은소": 8972,
      "이식": 8973,
      "일청": 8974,
      "일국의": 8975,
      "잇서서": 8976,
      "저락": 8977,
      "조석": 8978,
      "좌와여": 8979,
      "지법": 8980,
      "천,": 8981,
      "천군": 8982,
      "친척": 8983,
      "펑톈": 8984,
      "한점": 8985,
      "함도": 8986,
      "협력": 8987,
      "효를": 8988,
      "결과로": 8989,
      "야동": 8990,
      "라.기": 8991,
      "리요.": 8992,
      "의일대": 8993,
      "의일반": 8994,
      "의기관": 8995,
      "법률을": 8996,
      "이여차": 8997,
      "하자.": 8998,
      "을발휘": 8999,
      "여긔서": 9000,
      ",무": 9001,
      "44": 9002,
      "가여": 9003,
      "강이": 9004,
      "교정": 9005,
      "기신": 9006,
      "기하": 9007,
      "남양": 9008,
      "다보": 9009,
      "당신의": 9010,
      "도도": 9011,
      "때의": 9012,
      "떨어": 9013,
      "란을": 9014,
      "무에": 9015,
      "박한": 9016,
      "발발": 9017,
      "변동": 9018,
      "볼때": 9019,
      "산맥": 9020,
      "산인": 9021,
      "성장": 9022,
      "쇠퇴": 9023,
      "수라": 9024,
      "순사": 9025,
      "심각": 9026,
      "아불": 9027,
      "양여": 9028,
      "어머": 9029,
      "에내": 9030,
      "영수": 9031,
      "오이": 9032,
      "유성": 9033,
      "으려": 9034,
      "의선": 9035,
      "이황": 9036,
      "일원": 9037,
      "종시": 9038,
      "집으로": 9039,
      "집에서": 9040,
      "친절": 9041,
      "패를": 9042,
      "행히": 9043,
      "허위": 9044,
      "호는": 9045,
      "매": 9046,
      "듯": 9047,
      "일": 9048,
      "이로다.": 9049,
      "이유다": 9050,
      "10여": 9051,
      "엿다": 9052,
      "보고를": 9053,
      "농민의": 9054,
      "하년하월": 9055,
      "말미암아": 9056,
      ")과": 9057,
      "-트": 9058,
      "간다": 9059,
      "겟슴": 9060,
      "광대": 9061,
      "교원": 9062,
      "귀를": 9063,
      "금진": 9064,
      "다르": 9065,
      "동상": 9066,
      "두려": 9067,
      "럿케": 9068,
      "령의": 9069,
      "본월": 9070,
      "산악": 9071,
      "성현": 9072,
      "소장": 9073,
      "스카": 9074,
      "에신": 9075,
      "에들어": 9076,
      "연상": 9077,
      "요순": 9078,
      "우로": 9079,
      "월급": 9080,
      "은실로": 9081,
      "인물이": 9082,
      "일금": 9083,
      "일회": 9084,
      "자급": 9085,
      "자서": 9086,
      "자야": 9087,
      "작성": 9088,
      "정조": 9089,
      "제주": 9090,
      "종으로": 9091,
      "중간": 9092,
      "지언": 9093,
      "파히": 9094,
      "평가": 9095,
      "폐해": 9096,
      "필야": 9097,
      "학년": 9098,
      "형사": 9099,
      "호도": 9100,
      "호수": 9101,
      "흘러": 9102,
      "야의": 9103,
      "고국": 9104,
      "이니즉": 9105,
      "국가적": 9106,
      "기": 9107,
      "문명국": 9108,
      "경우에는": 9109,
      "제오조": 9110,
      "출석원이": 9111,
      "1000000": 9112,
      "거니": 9113,
      "공작": 9114,
      "광산": 9115,
      "놉흔": 9116,
      "도화": 9117,
      "동정을": 9118,
      "라이": 9119,
      "리종": 9120,
      "막을": 9121,
      "발현": 9122,
      "방관": 9123,
      "보장": 9124,
      "본즉": 9125,
      "사망": 9126,
      "세우": 9127,
      "실": 9128,
      "아해": 9129,
      "안심": 9130,
      "애독": 9131,
      "어구": 9132,
      "에빠": 9133,
      "에선": 9134,
      "에시": 9135,
      "역유": 9136,
      "열패": 9137,
      "예비": 9138,
      "외국의": 9139,
      "외에도": 9140,
      "을포": 9141,
      "의목적": 9142,
      "의방법": 9143,
      "이환": 9144,
      "이필요": 9145,
      "인들": 9146,
      "지국": 9147,
      "참가": 9148,
      "총회에": 9149,
      "치물": 9150,
      "타는": 9151,
      "태리": 9152,
      "터니": 9153,
      "풍경": 9154,
      "하급": 9155,
      "하루": 9156,
      "현대의": 9157,
      "호로": 9158,
      "회고": 9159,
      "흔들": 9160,
      "흥학": 9161,
      "든지": 9162,
      "것은": 9163,
      "야경": 9164,
      "이라하면": 9165,
      "이니라.": 9166,
      "하엿다고": 9167,
      "가지로": 9168,
      "사회와": 9169,
      "일본인이": 9170,
      "잇는것을": 9171,
      "의사가": 9172,
      "이잇스니": 9173,
      "다.이제": 9174,
      "의가치": 9175,
      "가치를": 9176,
      "자강회": 9177,
      "거나우": 9178,
      "▧▧▧▧▧▧▧▧": 9179,
      "각지방": 9180,
      "갓다가": 9181,
      "건의": 9182,
      "걸어": 9183,
      "겟습니다.": 9184,
      "격이": 9185,
      "광업": 9186,
      "남자의": 9187,
      "내선": 9188,
      "녀름": 9189,
      "니다만": 9190,
      "대립": 9191,
      "돌아가": 9192,
      "되기를": 9193,
      "론은": 9194,
      "마라": 9195,
      "마저": 9196,
      "방이": 9197,
      "버려": 9198,
      "상고": 9199,
      "시라": 9200,
      "시면": 9201,
      "실의": 9202,
      "실질": 9203,
      "심의성": 9204,
      "암석": 9205,
      "약부": 9206,
      "양야": 9207,
      "에오": 9208,
      "왓다": 9209,
      "의관계": 9210,
      "있고": 9211,
      "장리": 9212,
      "제왕": 9213,
      "주창": 9214,
      "지경": 9215,
      "지적": 9216,
      "처벌": 9217,
      "초가": 9218,
      "치말고": 9219,
      "친목": 9220,
      "한「": 9221,
      "한것도": 9222,
      "할터": 9223,
      "합니다": 9224,
      "협의": 9225,
      "셧": 9226,
      "야종": 9227,
      "고구": 9228,
      "하고기": 9229,
      "동시에": 9230,
      "다가티": 9231,
      "가유며": 9232,
      "정부를": 9233,
      "리라.": 9234,
      "민족은": 9235,
      "영국영국": 9236,
      "장래의": 9237,
      "구나.": 9238,
      "을통하야": 9239,
      "너무나": 9240,
      "가구": 9241,
      "가난": 9242,
      "강개": 9243,
      "겟지만": 9244,
      "공연히": 9245,
      "군자": 9246,
      "그전": 9247,
      "능력을": 9248,
      "단발": 9249,
      "로-": 9250,
      "마지": 9251,
      "만근": 9252,
      "모험": 9253,
      "미인": 9254,
      "박약": 9255,
      "보상": 9256,
      "부칙": 9257,
      "삼은": 9258,
      "샤-": 9259,
      "수행": 9260,
      "십구": 9261,
      "업다": 9262,
      "여지가": 9263,
      "여아.": 9264,
      "열이": 9265,
      "영조": 9266,
      "옹호": 9267,
      "유통": 9268,
      "은인": 9269,
      "의특": 9270,
      "이발달": 9271,
      "이던지": 9272,
      "일면": 9273,
      "전매": 9274,
      "지속": 9275,
      "참담": 9276,
      "충만": 9277,
      "평북": 9278,
      "허락": 9279,
      "형은": 9280,
      "호호": 9281,
      "홍필주": 9282,
      "더": 9283,
      "지라": 9284,
      "이라하는": 9285,
      "하엿슴": 9286,
      "주의적": 9287,
      "교육지": 9288,
      "기난": 9289,
      "기역": 9290,
      "신문을": 9291,
      "20일": 9292,
      "문학의": 9293,
      "이업시": 9294,
      "이아닐": 9295,
      "하게되엇다.": 9296,
      "소작료": 9297,
      "15년": 9298,
      "일일히": 9299,
      "한마듸": 9300,
      "(기": 9301,
      "(오": 9302,
      "0.": 9303,
      "800": 9304,
      "고서": 9305,
      "규율": 9306,
      "기명": 9307,
      "기장": 9308,
      "기전에": 9309,
      "까운": 9310,
      "남을": 9311,
      "내를": 9312,
      "논술": 9313,
      "다섯": 9314,
      "만사": 9315,
      "모모": 9316,
      "문과": 9317,
      "민을": 9318,
      "분비": 9319,
      "불을": 9320,
      "비애": 9321,
      "상세": 9322,
      "색으로": 9323,
      "스키": 9324,
      "승리": 9325,
      "쓸쓸": 9326,
      "안에서": 9327,
      "야요": 9328,
      "어두": 9329,
      "어오": 9330,
      "역술": 9331,
      "와이": 9332,
      "용서": 9333,
      "원고": 9334,
      "은물론": 9335,
      "이병": 9336,
      "이것도": 9337,
      "잇다가": 9338,
      "자식": 9339,
      "진기": 9340,
      "트로": 9341,
      "학도": 9342,
      "한갓": 9343,
      "한소": 9344,
      "환기": 9345,
      "각": 9346,
      "대": 9347,
      "고인": 9348,
      "조선인이": 9349,
      "이잇슬": 9350,
      "라고생각": 9351,
      "으로인": 9352,
      "엿도다.": 9353,
      "의지식": 9354,
      "청년은": 9355,
      "의무": 9356,
      "이업고": 9357,
      "기관을": 9358,
      "천하에": 9359,
      "지않은": 9360,
      ")는": 9361,
      "46": 9362,
      "6.": 9363,
      "가며": 9364,
      "각금": 9365,
      "감리": 9366,
      "강토": 9367,
      "건물": 9368,
      "게집": 9369,
      "겟지요.": 9370,
      "공부를": 9371,
      "과같": 9372,
      "과다": 9373,
      "권고": 9374,
      "그릇": 9375,
      "금회": 9376,
      "니고": 9377,
      "당연히": 9378,
      "도자": 9379,
      "동래": 9380,
      "리야": 9381,
      "마침": 9382,
      "말한바": 9383,
      "명으로": 9384,
      "못하고": 9385,
      "무어": 9386,
      "문장": 9387,
      "문호": 9388,
      "방랑": 9389,
      "본인이": 9390,
      "부견": 9391,
      "부조": 9392,
      "분해": 9393,
      "비슷": 9394,
      "사일": 9395,
      "상위": 9396,
      "소": 9397,
      "시월": 9398,
      "신랑": 9399,
      "에근": 9400,
      "예가": 9401,
      "원금": 9402,
      "이빈": 9403,
      "일구": 9404,
      "조인": 9405,
      "조": 9406,
      "지중에": 9407,
      "채취": 9408,
      "체포": 9409,
      "추구": 9410,
      "케": 9411,
      "투를": 9412,
      "파와": 9413,
      "필수": 9414,
      "허가를": 9415,
      "화와": 9416,
      "만": 9417,
      "고고": 9418,
      "고소": 9419,
      "경우": 9420,
      "하여그": 9421,
      "인이상": 9422,
      "조선인은": 9423,
      "우리를": 9424,
      "게되엿다.": 9425,
      "다": 9426,
      "신체를": 9427,
      "종류의": 9428,
      "여러가지로": 9429,
      ",미": 9430,
      "55": 9431,
      "9일": 9432,
      "게될": 9433,
      "광수": 9434,
      "군비": 9435,
      "권면": 9436,
      "달은": 9437,
      "대금": 9438,
      "도업는": 9439,
      "라기": 9440,
      "령은": 9441,
      "말할것도": 9442,
      "매입": 9443,
      "무력": 9444,
      "미증": 9445,
      "밤에": 9446,
      "부아": 9447,
      "사인": 9448,
      "서백": 9449,
      "소집": 9450,
      "손님": 9451,
      "시비": 9452,
      "시이": 9453,
      "신미": 9454,
      "신장": 9455,
      "아편": 9456,
      "앞에": 9457,
      "양심": 9458,
      "어늘": 9459,
      "어학": 9460,
      "여주": 9461,
      "열대": 9462,
      "영을": 9463,
      "영인": 9464,
      "예상": 9465,
      "운전": 9466,
      "원지": 9467,
      "위이니": 9468,
      "은우": 9469,
      "이": 9470,
      "일등": 9471,
      "임진": 9472,
      "제재": 9473,
      "조흘": 9474,
      "족을": 9475,
      "지점": 9476,
      "케하야": 9477,
      "파인": 9478,
      "평남": 9479,
      "한우": 9480,
      "향유": 9481,
      "형세": 9482,
      "회보": 9483,
      "회야": 9484,
      "의사상을": 9485,
      "이되며": 9486,
      "제일호": 9487,
      "의미로": 9488,
      "라는것이": 9489,
      "한것이니": 9490,
      "코져면": 9491,
      "회장씨가": 9492,
      "자동차": 9493,
      "조곰도": 9494,
      ",지": 9495,
      "1일은": 9496,
      "2분": 9497,
      "5000": 9498,
      "각학교": 9499,
      "강은": 9500,
      "개에": 9501,
      "거짓": 9502,
      "과사": 9503,
      "광을": 9504,
      "권유": 9505,
      "그것도": 9506,
      "남에게": 9507,
      "도업시": 9508,
      "따러": 9509,
      "로기": 9510,
      "무니": 9511,
      "문지": 9512,
      "문자의": 9513,
      "발아": 9514,
      "밧는": 9515,
      "부흥": 9516,
      "상속": 9517,
      "수가잇": 9518,
      "심신": 9519,
      "얼는": 9520,
      "에정": 9521,
      "연자": 9522,
      "영채": 9523,
      "예언": 9524,
      "용어": 9525,
      "유해": 9526,
      "이단": 9527,
      "이절": 9528,
      "자중": 9529,
      "전신": 9530,
      "지인이": 9531,
      "청진": 9532,
      "최저": 9533,
      "친히": 9534,
      "피아": 9535,
      "하옵": 9536,
      "한야": 9537,
      "혈액": 9538,
      "확대": 9539,
      "하는일": 9540,
      "우리나라": 9541,
      "하게도": 9542,
      "의사랑": 9543,
      "하얏섯": 9544,
      "에재니": 9545,
      "이무": 9546,
      "20여": 9547,
      "코져": 9548,
      "소작인": 9549,
      "현상은": 9550,
      "언제든지": 9551,
      "4,5": 9552,
      "제팔조": 9553,
      "훌륭한": 9554,
      "4)": 9555,
      "8,": 9556,
      "」고": 9557,
      "가락": 9558,
      "간판": 9559,
      "간행": 9560,
      "거지": 9561,
      "고보": 9562,
      "고유": 9563,
      "과기타": 9564,
      "기공": 9565,
      "기리": 9566,
      "늣기": 9567,
      "다년": 9568,
      "달리": 9569,
      "도아니": 9570,
      "돈이": 9571,
      "망각": 9572,
      "문사": 9573,
      "본질": 9574,
      "분기": 9575,
      "분으로": 9576,
      "빈궁": 9577,
      "빼앗": 9578,
      "사단": 9579,
      "상제": 9580,
      "수일": 9581,
      "시국": 9582,
      "실망": 9583,
      "심지": 9584,
      "야,": 9585,
      "양복": 9586,
      "어제": 9587,
      "에임": 9588,
      "에까지": 9589,
      "연고": 9590,
      "엽헤": 9591,
      "오의": 9592,
      "원만": 9593,
      "으키": 9594,
      "이온": 9595,
      "이즉": 9596,
      "이렇게": 9597,
      "적야": 9598,
      "절약": 9599,
      "조고": 9600,
      "중대": 9601,
      "진출": 9602,
      "차로써": 9603,
      "통제": 9604,
      "통행": 9605,
      "평화를": 9606,
      "피등의": 9607,
      "필선": 9608,
      "하러": 9609,
      "한달": 9610,
      "한어": 9611,
      "함과가티": 9612,
      "함부로": 9613,
      "항을": 9614,
      "향을": 9615,
      "혁신": 9616,
      "효과를": 9617,
      "히는": 9618,
      "치": 9619,
      "가.": 9620,
      "하고싶": 9621,
      "할수업시": 9622,
      "할수업다.": 9623,
      "여하간": 9624,
      "가지고잇": 9625,
      "의미를": 9626,
      "종교적": 9627,
      "다음에": 9628,
      "씨동의기를": 9629,
      "십시오.": 9630,
      "(갑": 9631,
      ")등": 9632,
      ",연": 9633,
      "가야": 9634,
      "각국이": 9635,
      "간부": 9636,
      "게하는": 9637,
      "공주": 9638,
      "과밋": 9639,
      "과같은": 9640,
      "굉장": 9641,
      "국왕": 9642,
      "그렇": 9643,
      "그와": 9644,
      "돈은": 9645,
      "동남": 9646,
      "동물의": 9647,
      "립학교": 9648,
      "마루": 9649,
      "만인": 9650,
      "모여": 9651,
      "밀히": 9652,
      "바닥": 9653,
      "방언": 9654,
      "백원": 9655,
      "병으로": 9656,
      "본의": 9657,
      "생": 9658,
      "섭섭": 9659,
      "성쇠": 9660,
      "손실": 9661,
      "수부": 9662,
      "신보": 9663,
      "실고": 9664,
      "악한": 9665,
      "애호": 9666,
      "억지로": 9667,
      "에운": 9668,
      "에노력": 9669,
      "영감": 9670,
      "외인의": 9671,
      "용고": 9672,
      "유전": 9673,
      "유하야": 9674,
      "이극": 9675,
      "이실": 9676,
      "자극": 9677,
      "작정": 9678,
      "저리": 9679,
      "전회": 9680,
      "정운": 9681,
      "제와": 9682,
      "제국이": 9683,
      "주간": 9684,
      "집필": 9685,
      "착취": 9686,
      "천부": 9687,
      "초로": 9688,
      "케니": 9689,
      "태도로": 9690,
      "포로": 9691,
      "피등은": 9692,
      "하군": 9693,
      "하던지": 9694,
      "한층": 9695,
      "회": 9696,
      "후세": 9697,
      "도": 9698,
      "도록": 9699,
      "이라": 9700,
      "이아니오": 9701,
      "자기": 9702,
      "이되": 9703,
      "이러나": 9704,
      "이잇다": 9705,
      "하나님": 9706,
      "의지위": 9707,
      "경제상": 9708,
      "인생을": 9709,
      "마음대로": 9710,
      "한것으로": 9711,
      "느냐?": 9712,
      "100년": 9713,
      ",아": 9714,
      "-「": 9715,
      "거대한": 9716,
      "거칙": 9717,
      "견고": 9718,
      "결론": 9719,
      "공과": 9720,
      "국어": 9721,
      "근년": 9722,
      "근로": 9723,
      "급격": 9724,
      "남어": 9725,
      "넓은": 9726,
      "늙은": 9727,
      "드라도": 9728,
      "라야": 9729,
      "량으로": 9730,
      "려서": 9731,
      "명,": 9732,
      "박사의": 9733,
      "불굴": 9734,
      "상관": 9735,
      "성한": 9736,
      "세종": 9737,
      "습니까?": 9738,
      "시요.": 9739,
      "심다": 9740,
      "심리": 9741,
      "여허": 9742,
      "연의": 9743,
      "열거": 9744,
      "으니까": 9745,
      "의교": 9746,
      "의용": 9747,
      "의최": 9748,
      "이냐": 9749,
      "인제": 9750,
      "작이": 9751,
      "정세": 9752,
      "제": 9753,
      "차삼": 9754,
      "추천": 9755,
      "치의": 9756,
      "케은": 9757,
      "포가": 9758,
      "폭로": 9759,
      "피고": 9760,
      "하더라도": 9761,
      "하건대": 9762,
      "혹왈": 9763,
      "황해도": 9764,
      "져": 9765,
      "야조": 9766,
      "고무": 9767,
      "하야,": 9768,
      "하야서": 9769,
      "니출석원이": 9770,
      "하엿다는": 9771,
      "이유나": 9772,
      "생활과": 9773,
      "치못하고": 9774,
      "하얏는데": 9775,
      "정신은": 9776,
      "정신으로": 9777,
      "치아니": 9778,
      "이지마는": 9779,
      "적으로는": 9780,
      "사상으로": 9781,
      "이외의": 9782,
      "종교를": 9783,
      "일개의": 9784,
      "50전": 9785,
      "장래에": 9786,
      "바ᅵ": 9787,
      "사랑하는": 9788,
      "한가지로": 9789,
      "통치권": 9790,
      "」와「": 9791,
      "타이완": 9792,
      "어떻게": 9793,
      "!!": 9794,
      "56": 9795,
      "ur": 9796,
      "가,": 9797,
      "각처": 9798,
      "강경": 9799,
      "강서": 9800,
      "고고": 9801,
      "관,": 9802,
      "광물": 9803,
      "군도": 9804,
      "권위": 9805,
      "그후": 9806,
      "나파륜": 9807,
      "난다.": 9808,
      "내국": 9809,
      "대부분": 9810,
      "되였": 9811,
      "래를": 9812,
      "몸이": 9813,
      "반사": 9814,
      "법정": 9815,
      "병의": 9816,
      "본보": 9817,
      "사대": 9818,
      "사직": 9819,
      "서방": 9820,
      "서식": 9821,
      "실재": 9822,
      "야로": 9823,
      "약시": 9824,
      "온갓": 9825,
      "요!": 9826,
      "요일": 9827,
      "우연": 9828,
      "우지": 9829,
      "원인을": 9830,
      "음에": 9831,
      "의례": 9832,
      "인기": 9833,
      "자조": 9834,
      "적어": 9835,
      "주와": 9836,
      "주인이": 9837,
      "충동": 9838,
      "칸트": 9839,
      "페이": 9840,
      "편지를": 9841,
      "풍조": 9842,
      "학보": 9843,
      "학식": 9844,
      "한구": 9845,
      "흐르는": 9846,
      "무": 9847,
      "": 9848,
      "거시": 9849,
      "하엿으나": 9850,
      "하면아니": 9851,
      "하얏다.그": 9852,
      "하얏다가": 9853,
      "이되면": 9854,
      "되는것이다.": 9855,
      "정치상": 9856,
      "민족이": 9857,
      "이여좌": 9858,
      "하는것이니": 9859,
      "다니는": 9860,
      "당신은": 9861,
      "영구히": 9862,
      "1만": 9863,
      "가될": 9864,
      "개탄": 9865,
      "공상": 9866,
      "광선": 9867,
      "급야": 9868,
      "기적": 9869,
      "나이": 9870,
      "내하": 9871,
      "대도": 9872,
      "도저": 9873,
      "독재": 9874,
      "두엇": 9875,
      "뒤로": 9876,
      "뒤에는": 9877,
      "때까지": 9878,
      "떠나서": 9879,
      "말하기를": 9880,
      "몰락": 9881,
      "버릴": 9882,
      "법,": 9883,
      "변으로": 9884,
      "복야": 9885,
      "본교": 9886,
      "분립": 9887,
      "불일": 9888,
      "불문고": 9889,
      "비타": 9890,
      "삼,": 9891,
      "상유": 9892,
      "서)": 9893,
      "소문": 9894,
      "수면": 9895,
      "양육": 9896,
      "업섯다.": 9897,
      "에동": 9898,
      "여운": 9899,
      "열어": 9900,
      "영길": 9901,
      "의종": 9902,
      "이금": 9903,
      "이막": 9904,
      "이의가": 9905,
      "인것은": 9906,
      "인사를": 9907,
      "일거": 9908,
      "자)": 9909,
      "자라.": 9910,
      "작고": 9911,
      "전무": 9912,
      "전에는": 9913,
      "조국": 9914,
      "존망": 9915,
      "중은": 9916,
      "특이": 9917,
      "하서": 9918,
      "하일": 9919,
      "하필": 9920,
      "하인이": 9921,
      "한고로": 9922,
      "환희": 9923,
      "흘너": 9924,
      "유": 9925,
      "경우": 9926,
      "으로야곰": 9927,
      "고단": 9928,
      "고시": 9929,
      "고기타": 9930,
      "하야「": 9931,
      "하야기": 9932,
      "학교에서": 9933,
      "하기때문에": 9934,
      "은기": 9935,
      "의지휘": 9936,
      "신문기자": 9937,
      "에관야": 9938,
      "190": 9939,
      "할것이며": 9940,
      "자신이": 9941,
      "범위가": 9942,
      ",,,,,,,,": 9943,
      "금기환": 9944,
      "에위반": 9945,
      "십시요.": 9946,
      ",조": 9947,
      "1세": 9948,
      "150": 9949,
      "』라": 9950,
      "간사": 9951,
      "강장": 9952,
      "게하고": 9953,
      "계도": 9954,
      "구어": 9955,
      "구일": 9956,
      "국장": 9957,
      "남대문": 9958,
      "농가": 9959,
      "는지도": 9960,
      "니기": 9961,
      "다리고": 9962,
      "다대": 9963,
      "대차": 9964,
      "된자ᅵ": 9965,
      "된다고": 9966,
      "라야": 9967,
      "라": 9968,
      "만만": 9969,
      "문란": 9970,
      "문부": 9971,
      "미한": 9972,
      "방위": 9973,
      "보성": 9974,
      "보자": 9975,
      "볼때에": 9976,
      "상류": 9977,
      "선배": 9978,
      "속박": 9979,
      "승낙": 9980,
      "시골": 9981,
      "실한": 9982,
      "씨도": 9983,
      "알지못": 9984,
      "야의": 9985,
      "없어": 9986,
      "예기": 9987,
      "오-": 9988,
      "오든": 9989,
      "온천": 9990,
      "으므로": 9991,
      "의요": 9992,
      "이양": 9993,
      "인동시에": 9994,
      "자살": 9995,
      "작잠": 9996,
      "장수": 9997,
      "적극": 9998,
      "전국의": 9999,
      "제구조": 10000,
      "주임": 10001,
      "진전": 10002,
      "진다.": 10003,
      "책으로": 10004,
      "치마": 10005,
      "쾌활": 10006,
      "학자": 10007,
      "한의": 10008,
      "허무": 10009,
      "화장": 10010,
      "회에서": 10011,
      "후가": 10012,
      "흥분": 10013,
      "등": 10014,
      "니시": 10015,
      "에게대": 10016,
      "이유을": 10017,
      "생활상": 10018,
      "자기네": 10019,
      "하며또": 10020,
      "정신의": 10021,
      "가잇슬": 10022,
      "이어떠": 10023,
      "...』": 10024,
      "이아니고": 10025,
      "하겟습니다.": 10026,
      "아한의": 10027,
      "여긔에": 10028,
      "건전한": 10029,
      "거리를": 10030,
      "결": 10031,
      "계": 10032,
      "고집": 10033,
      "공선": 10034,
      "기민": 10035,
      "노자": 10036,
      "되나": 10037,
      "라」": 10038,
      "람회": 10039,
      "략-원문)": 10040,
      "리며": 10041,
      "리면": 10042,
      "물결": 10043,
      "바든": 10044,
      "배출": 10045,
      "시기를": 10046,
      "씨등": 10047,
      "에안": 10048,
      "에인": 10049,
      "에제": 10050,
      "영흥": 10051,
      "왕야": 10052,
      "우등": 10053,
      "우왈": 10054,
      "유물": 10055,
      "이마": 10056,
      "일지라도": 10057,
      "재로": 10058,
      "저술": 10059,
      "지교": 10060,
      "지급": 10061,
      "지휘": 10062,
      "짓고": 10063,
      "찾어": 10064,
      "품행": 10065,
      "피해": 10066,
      "하실": 10067,
      "하야": 10068,
      "할사": 10069,
      "함양": 10070,
      "합동": 10071,
      "협찬": 10072,
      "호)": 10073,
      "화물": 10074,
      "려": 10075,
      "에불과": 10076,
      "하고서": 10077,
      "인이요": 10078,
      "이유며": 10079,
      "일본이": 10080,
      "한다.이": 10081,
      "치못면": 10082,
      "제일회": 10083,
      "스니까": 10084,
      "일반의": 10085,
      "다.△": 10086,
      "할지라.": 10087,
      "이오": 10088,
      "마음이": 10089,
      "일개인의": 10090,
      "11년": 10091,
      "존재를": 10092,
      "중앙일보": 10093,
      "처음에는": 10094,
      "이약이": 10095,
      "일어나": 10096,
      "단백질": 10097,
      "아불리가": 10098,
      ",백": 10099,
      ",기타": 10100,
      ".)": 10101,
      "700": 10102,
      "가급": 10103,
      "가만히": 10104,
      "거리는": 10105,
      "검은": 10106,
      "고수": 10107,
      "공기가": 10108,
      "과시": 10109,
      "관철": 10110,
      "교사의": 10111,
      "구자": 10112,
      "기진": 10113,
      "낙엽": 10114,
      "남이": 10115,
      "누어": 10116,
      "당은": 10117,
      "동사": 10118,
      "모와": 10119,
      "방은": 10120,
      "보험": 10121,
      "본법": 10122,
      "본부": 10123,
      "부절": 10124,
      "비관": 10125,
      "사설": 10126,
      "사환": 10127,
      "살림": 10128,
      "세요.": 10129,
      "소아의": 10130,
      "수증": 10131,
      "습격": 10132,
      "신기": 10133,
      "야심": 10134,
      "에조": 10135,
      "연대": 10136,
      "연즉": 10137,
      "왕을": 10138,
      "원망": 10139,
      "위국": 10140,
      "의해": 10141,
      "이명": 10142,
      "이선": 10143,
      "이혼": 10144,
      "임업": 10145,
      "잇": 10146,
      "장기": 10147,
      "전개": 10148,
      "점유": 10149,
      "정돈": 10150,
      "제4": 10151,
      "주엇": 10152,
      "죽을": 10153,
      "지약": 10154,
      "차외에": 10155,
      "촌락": 10156,
      "탄생": 10157,
      "팔구": 10158,
      "편입": 10159,
      "필자": 10160,
      "한도": 10161,
      "한때": 10162,
      "한후에": 10163,
      "합자": 10164,
      "해삼": 10165,
      "향락": 10166,
      "혼돈": 10167,
      "황은": 10168,
      "훈민정": 10169,
      "이라든지": 10170,
      "이라는것이": 10171,
      "하는자가": 10172,
      "하는자는": 10173,
      "면셔": 10174,
      "하엿는데": 10175,
      "이상한": 10176,
      "그러냐하면": 10177,
      "을견": 10178,
      "운동과": 10179,
      "민족을": 10180,
      "을보내": 10181,
      "이어든": 10182,
      "독립을": 10183,
      "의전쟁": 10184,
      "하시는": 10185,
      "한일이다.": 10186,
      "아즉도": 10187,
      "에대하여는": 10188,
      "제칠조": 10189,
      "(3)": 10190,
      ",비": 10191,
      "am": 10192,
      "ol": 10193,
      "ᅵ유": 10194,
      "간혹": 10195,
      "강대": 10196,
      "강산": 10197,
      "개차": 10198,
      "거": 10199,
      "고국": 10200,
      "고적": 10201,
      "구축": 10202,
      "극을": 10203,
      "금재": 10204,
      "꿈을": 10205,
      "끄러": 10206,
      "난면": 10207,
      "농산": 10208,
      "느라고": 10209,
      "당국의": 10210,
      "도야": 10211,
      "등지": 10212,
      "란의": 10213,
      "로정": 10214,
      "만유": 10215,
      "만으로": 10216,
      "먹은": 10217,
      "묘사": 10218,
      "무익": 10219,
      "물체": 10220,
      "민영": 10221,
      "백의": 10222,
      "불어": 10223,
      "불인": 10224,
      "사교": 10225,
      "생고": 10226,
      "야말": 10227,
      "에저": 10228,
      "염을": 10229,
      "오라": 10230,
      "완고": 10231,
      "유독": 10232,
      "유수": 10233,
      "의열": 10234,
      "이반": 10235,
      "이학": 10236,
      "일금일": 10237,
      "잇든": 10238,
      "자매": 10239,
      "작고": 10240,
      "종하야": 10241,
      "주재": 10242,
      "줄노": 10243,
      "지간에": 10244,
      "진고": 10245,
      "차부": 10246,
      "천년": 10247,
      "칙필": 10248,
      "탄을": 10249,
      "할새": 10250,
      "할는지": 10251,
      "환경": 10252,
      "회견": 10253,
      "샤": 10254,
      "정": 10255,
      "고혹은": 10256,
      "하야왈": 10257,
      "하는중": 10258,
      "인이나": 10259,
      "가지금": 10260,
      "하얏다.이": 10261,
      "하얏섯다.": 10262,
      "이라.기": 10263,
      "인민을": 10264,
      "사실상": 10265,
      "조직을": 10266,
      "의가장": 10267,
      "까닭으로": 10268,
      "이야.": 10269,
      "할것입니다.": 10270,
      "을발표": 10271,
      "할뿐아니라": 10272,
      "금강산": 10273,
      "자세히": 10274,
      "드듸여": 10275,
      "어머님": 10276,
      ",경": 10277,
      ",안": 10278,
      ",또는": 10279,
      "-드": 10280,
      "강한": 10281,
      "고시": 10282,
      "공리": 10283,
      "공수": 10284,
      "공영": 10285,
      "과반": 10286,
      "구속": 10287,
      "군,": 10288,
      "귀한": 10289,
      "그들이": 10290,
      "금속": 10291,
      "기두": 10292,
      "기분": 10293,
      "냉각": 10294,
      "념을": 10295,
      "단일": 10296,
      "대체로": 10297,
      "도잇고": 10298,
      "독특": 10299,
      "동국": 10300,
      "되기": 10301,
      "라하는": 10302,
      "류와": 10303,
      "만반": 10304,
      "모지": 10305,
      "무식": 10306,
      "발음": 10307,
      "방리": 10308,
      "보유": 10309,
      "분석": 10310,
      "불경": 10311,
      "불완전": 10312,
      "서우": 10313,
      "선박": 10314,
      "소견": 10315,
      "쇠약": 10316,
      "시라.": 10317,
      "식혀": 10318,
      "써서": 10319,
      "아도": 10320,
      "어는": 10321,
      "원수": 10322,
      "유형": 10323,
      "의모": 10324,
      "의풍": 10325,
      "이게": 10326,
      "일미": 10327,
      "일용": 10328,
      "자체": 10329,
      "자들이": 10330,
      "작을": 10331,
      "지미": 10332,
      "지전": 10333,
      "진동": 10334,
      "짓는": 10335,
      "창을": 10336,
      "취득": 10337,
      "쿠사리": 10338,
      "통한": 10339,
      "폭발": 10340,
      "필운": 10341,
      "학업": 10342,
      "으로변": 10343,
      "하야대": 10344,
      "이라고로": 10345,
      "니수": 10346,
      "하엿더니": 10347,
      "국민을": 10348,
      "치못야": 10349,
      "하며그": 10350,
      "이라.차": 10351,
      "시대와": 10352,
      "정신과": 10353,
      "의지를": 10354,
      "하니까": 10355,
      "야라.고로": 10356,
      "에비면": 10357,
      "하지안코": 10358,
      "밧게는": 10359,
      "조약을": 10360,
      "엿니": 10361,
      ",조선": 10362,
      "-가": 10363,
      "600": 10364,
      "99": 10365,
      "가아니": 10366,
      "개연": 10367,
      "겨울": 10368,
      "곳으로": 10369,
      "관세": 10370,
      "금광": 10371,
      "기연": 10372,
      "긴요": 10373,
      "내리": 10374,
      "대학교": 10375,
      "독점": 10376,
      "등등": 10377,
      "로나": 10378,
      "륙조": 10379,
      "른바": 10380,
      "만무": 10381,
      "만하면": 10382,
      "무로": 10383,
      "미신": 10384,
      "밧고": 10385,
      "법과": 10386,
      "베트": 10387,
      "빈약": 10388,
      "사정을": 10389,
      "수선": 10390,
      "스록": 10391,
      "약소": 10392,
      "에걸": 10393,
      "에로": 10394,
      "열국의": 10395,
      "오날": 10396,
      "유용": 10397,
      "은개": 10398,
      "이능": 10399,
      "이모": 10400,
      "이분": 10401,
      "인권": 10402,
      "자선": 10403,
      "작은": 10404,
      "잠을": 10405,
      "적극적": 10406,
      "전구": 10407,
      "정원": 10408,
      "조절": 10409,
      "좌의": 10410,
      "지옥": 10411,
      "추선": 10412,
      "치하고": 10413,
      "토양": 10414,
      "하마": 10415,
      "학구": 10416,
      "한다.그리고": 10417,
      "허허": 10418,
      "홀연": 10419,
      "화": 10420,
      "국": 10421,
      "야장": 10422,
      "하고오": 10423,
      "하여간": 10424,
      "이아니라": 10425,
      "우리는그": 10426,
      "교육에": 10427,
      "다는데": 10428,
      "하나를": 10429,
      "하나이다.": 10430,
      "000여": 10431,
      "소위「": 10432,
      "인류": 10433,
      "의성립": 10434,
      "야이위": 10435,
      "전쟁을": 10436,
      "일개년": 10437,
      "규칙을": 10438,
      "이성립": 10439,
      "하랴는": 10440,
      "것이오.": 10441,
      "도모지": 10442,
      "(차": 10443,
      "1년에": 10444,
      "2일": 10445,
      "65": 10446,
      "○○": 10447,
      "가그": 10448,
      "가자": 10449,
      "각지에": 10450,
      "견지": 10451,
      "경사": 10452,
      "관헌": 10453,
      "기하야": 10454,
      "남산": 10455,
      "냥쭝": 10456,
      "담부": 10457,
      "대단": 10458,
      "더이다.": 10459,
      "도부": 10460,
      "도일": 10461,
      "동원": 10462,
      "드면": 10463,
      "란이": 10464,
      "로,": 10465,
      "마는그": 10466,
      "명고": 10467,
      "목욕": 10468,
      "물산": 10469,
      "밋헤": 10470,
      "병현": 10471,
      "보지못": 10472,
      "본다면": 10473,
      "사사": 10474,
      "상전": 10475,
      "생겻": 10476,
      "생기는": 10477,
      "세상을": 10478,
      "승고": 10479,
      "싸움": 10480,
      "아나": 10481,
      "악마": 10482,
      "양자의": 10483,
      "엄숙": 10484,
      "열한": 10485,
      "오를": 10486,
      "유동": 10487,
      "유위": 10488,
      "은곳": 10489,
      "은어": 10490,
      "이교": 10491,
      "이초": 10492,
      "임이": 10493,
      "자만": 10494,
      "잡지를": 10495,
      "점차로": 10496,
      "지진": 10497,
      "최선": 10498,
      "출래": 10499,
      "출": 10500,
      "피곤": 10501,
      "한무": 10502,
      "한숨": 10503,
      "할가.": 10504,
      "합성": 10505,
      "회로": 10506,
      "야가": 10507,
      "고타": 10508,
      "하여서는": 10509,
      "인이며": 10510,
      "잇는대로": 10511,
      "에도라": 10512,
      "업는것이": 10513,
      "되고말": 10514,
      "본회원": 10515,
      "라는것을": 10516,
      "이업섯": 10517,
      "어느날": 10518,
      "지라.고로": 10519,
      "지라.고로": 10520,
      "바ᅵ라.": 10521,
      "25년": 10522,
      "여좌니": 10523,
      "마즈막": 10524,
      ",호": 10525,
      "가경": 10526,
      "가비": 10527,
      "각의": 10528,
      "강하": 10529,
      "개설": 10530,
      "개칭": 10531,
      "격언": 10532,
      "과야": 10533,
      "관보": 10534,
      "관리의": 10535,
      "기용": 10536,
      "깨닷": 10537,
      "니여": 10538,
      "다려": 10539,
      "대관": 10540,
      "대어": 10541,
      "돈의": 10542,
      "되게": 10543,
      "두루": 10544,
      "득": 10545,
      "때때로": 10546,
      "명부": 10547,
      "문답": 10548,
      "박물": 10549,
      "방편": 10550,
      "번민": 10551,
      "불의": 10552,
      "비등": 10553,
      "산란": 10554,
      "상인": 10555,
      "생도가": 10556,
      "세조": 10557,
      "수신": 10558,
      "시적": 10559,
      "아국이": 10560,
      "에장": 10561,
      "열혈": 10562,
      "의말": 10563,
      "이영": 10564,
      "일점": 10565,
      "일인의": 10566,
      "입면": 10567,
      "자니": 10568,
      "장교": 10569,
      "재래": 10570,
      "저의": 10571,
      "적고": 10572,
      "전장": 10573,
      "정략": 10574,
      "종자": 10575,
      "중간에": 10576,
      "증감": 10577,
      "지력": 10578,
      "지왈": 10579,
      "질서를": 10580,
      "차자": 10581,
      "천은": 10582,
      "칠.": 10583,
      "폐를": 10584,
      "하유": 10585,
      "하칙": 10586,
      "현행": 10587,
      "화하야": 10588,
      "회에셔": 10589,
      "흥학회": 10590,
      "듯": 10591,
      "이라기": 10592,
      "이라던지": 10593,
      "하는대": 10594,
      "하여가지고": 10595,
      "하엿나니": 10596,
      "자즉": 10597,
      "일본인은": 10598,
      "중에": 10599,
      "까지든지": 10600,
      "세계가": 10601,
      "에지기": 10602,
      "가유면": 10603,
      "시대가": 10604,
      "필요를": 10605,
      "필요로인": 10606,
      "정치학": 10607,
      "의무교육": 10608,
      "에불구하고": 10609,
      "부지고": 10610,
      "시간이": 10611,
      "어느때": 10612,
      "가되여": 10613,
      "코져진": 10614,
      "예술적": 10615,
      "사무소": 10616,
      "일보를": 10617,
      "신체가": 10618,
      "성질을": 10619,
      "범위를": 10620,
      "인구가": 10621,
      "하랴면": 10622,
      "14년": 10623,
      "공포다.": 10624,
      "띄오게네쓰.": 10625,
      "4분": 10626,
      "4시": 10627,
      "갑을": 10628,
      "갓고": 10629,
      "거면": 10630,
      "교양": 10631,
      "구분": 10632,
      "금과": 10633,
      "기동": 10634,
      "눈물이": 10635,
      "니라": 10636,
      "다대": 10637,
      "던가": 10638,
      "도수": 10639,
      "두만강": 10640,
      "떠난": 10641,
      "룡산": 10642,
      "만몽": 10643,
      "면목": 10644,
      "몽매": 10645,
      "무정": 10646,
      "문자를": 10647,
      "보관": 10648,
      "보로": 10649,
      "불사": 10650,
      "뿌르": 10651,
      "사ᅵ": 10652,
      "산술": 10653,
      "상반": 10654,
      "상점": 10655,
      "색은": 10656,
      "생겨": 10657,
      "서술": 10658,
      "세간": 10659,
      "순간": 10660,
      "시관": 10661,
      "시켜": 10662,
      "신한": 10663,
      "심리학": 10664,
      "안젓": 10665,
      "애국지": 10666,
      "여전히": 10667,
      "연혁": 10668,
      "오륙": 10669,
      "왕성": 10670,
      "요를": 10671,
      "용은": 10672,
      "원소": 10673,
      "위한": 10674,
      "윤치": 10675,
      "으론": 10676,
      "은것이": 10677,
      "을선": 10678,
      "인「": 10679,
      "인것": 10680,
      "전환": 10681,
      "조종": 10682,
      "주문": 10683,
      "주": 10684,
      "중산": 10685,
      "지": 10686,
      "집단": 10687,
      "차시에": 10688,
      "채로": 10689,
      "초초": 10690,
      "촉진": 10691,
      "케을": 10692,
      "토가": 10693,
      "피부": 10694,
      "현시": 10695,
      "현은": 10696,
      "화에": 10697,
      "회상": 10698,
      "회합": 10699,
      "흐니": 10700,
      "것을": 10701,
      "제에": 10702,
      "야진": 10703,
      "아니라.": 10704,
      "학교": 10705,
      "잇는것은": 10706,
      "이오,": 10707,
      "하얏든": 10708,
      "에도불구하고": 10709,
      "의의식": 10710,
      "기를바": 10711,
      ",,,": 10712,
      "독립의": 10713,
      "하다.(": 10714,
      "동일)": 10715,
      "아모러": 10716,
      "아국은": 10717,
      "에당야": 10718,
      "독일의": 10719,
      "이용하야": 10720,
      "노동자": 10721,
      "교과서": 10722,
      "필요가무": 10723,
      "!』": 10724,
      ",내": 10725,
      "감동": 10726,
      "개항": 10727,
      "건조": 10728,
      "겟슴니다.": 10729,
      "결점": 10730,
      "경무": 10731,
      "고조": 10732,
      "과세": 10733,
      "군함": 10734,
      "근심": 10735,
      "급한": 10736,
      "길에": 10737,
      "나연이나": 10738,
      "두로": 10739,
      "들려": 10740,
      "뛰어": 10741,
      "면칙": 10742,
      "모로": 10743,
      "무도": 10744,
      "미에": 10745,
      "백.": 10746,
      "부설": 10747,
      "불멸": 10748,
      "사령": 10749,
      "사방": 10750,
      "사전": 10751,
      "샹강": 10752,
      "서으로": 10753,
      "석영": 10754,
      "셔": 10755,
      "시구": 10756,
      "악정": 10757,
      "애의": 10758,
      "야가": 10759,
      "에쓰": 10760,
      "연유": 10761,
      "연후": 10762,
      "영광": 10763,
      "온난": 10764,
      "용기": 10765,
      "우혹": 10766,
      "융통": 10767,
      "으리": 10768,
      "의그": 10769,
      "의내": 10770,
      "의참": 10771,
      "의여하": 10772,
      "이매": 10773,
      "인소": 10774,
      "임니다.그": 10775,
      "잇스며": 10776,
      "쟁투": 10777,
      "저명": 10778,
      "전하": 10779,
      "조계": 10780,
      "중량": 10781,
      "지능": 10782,
      "직원": 10783,
      "추지": 10784,
      "출": 10785,
      "특권": 10786,
      "판에": 10787,
      "품은": 10788,
      "함락": 10789,
      "행으로": 10790,
      "혁혁": 10791,
      "인야": 10792,
      "야천": 10793,
      "야차를": 10794,
      "방법": 10795,
      "며우": 10796,
      "가지는": 10797,
      "사회상": 10798,
      "생각하는": 10799,
      "필요로": 10800,
      "자라": 10801,
      "지방은": 10802,
      "인도인도": 10803,
      "본회에셔": 10804,
      "가는것이": 10805,
      "의이해": 10806,
      "지아니하고": 10807,
      "이불무": 10808,
      "돌아오": 10809,
      "다소간": 10810,
      "가운대": 10811,
      "너무도": 10812,
      "건전": 10813,
      "사립학교령": 10814,
      "연월일": 10815,
      "넉넉히": 10816,
      "메리카": 10817,
      ")...": 10818,
      "ro": 10819,
      "us": 10820,
      "객관적": 10821,
      "경복": 10822,
      "국수": 10823,
      "군인": 10824,
      "그들을": 10825,
      "그야말로": 10826,
      "년시대": 10827,
      "대중의": 10828,
      "따러서": 10829,
      "라스": 10830,
      "말하되": 10831,
      "맹렬": 10832,
      "목축": 10833,
      "미는": 10834,
      "민권": 10835,
      "방황": 10836,
      "변이": 10837,
      "부네": 10838,
      "불출": 10839,
      "비야": 10840,
      "비하야": 10841,
      "사찰": 10842,
      "세출": 10843,
      "소련": 10844,
      "속": 10845,
      "쉽게": 10846,
      "어른": 10847,
      "엇다.이": 10848,
      "었읍니다.": 10849,
      "오기": 10850,
      "와같": 10851,
      "완화": 10852,
      "원근": 10853,
      "을견": 10854,
      "음식을": 10855,
      "의산": 10856,
      "이(": 10857,
      "이방": 10858,
      "이엇지": 10859,
      "인다.": 10860,
      "인것이": 10861,
      "임무": 10862,
      "자래": 10863,
      "절한": 10864,
      "정책을": 10865,
      "제기": 10866,
      "제자": 10867,
      "지공": 10868,
      "지광": 10869,
      "지령": 10870,
      "지장": 10871,
      "참말": 10872,
      "처로": 10873,
      "체격": 10874,
      "체재": 10875,
      "출신": 10876,
      "침침": 10877,
      "표방": 10878,
      "합계": 10879,
      "행하는": 10880,
      "사실": 10881,
      "으로정": 10882,
      "이라하며": 10883,
      "것을보고": 10884,
      "생각해": 10885,
      "의사상이": 10886,
      "자와": 10887,
      "인지는": 10888,
      "자연과학": 10889,
      "법률적": 10890,
      "거늘": 10891,
      "지도안": 10892,
      "이일어": 10893,
      "경성의": 10894,
      "회를조직": 10895,
      "동일히": 10896,
      "는것이니": 10897,
      "할것이니": 10898,
      "30여": 10899,
      "도덕적": 10900,
      "제삼십": 10901,
      "하게되얏": 10902,
      "국제법": 10903,
      "종류를": 10904,
      "유명": 10905,
      "십일조": 10906,
      "에위배": 10907,
      "시키는": 10908,
      "일즉이": 10909,
      "우편국": 10910,
      "아울러": 10911,
      "차한에부재": 10912,
      "(하": 10913,
      ",불": 10914,
      ",성": 10915,
      "1억": 10916,
      "el": 10917,
      "경관": 10918,
      "교부": 10919,
      "극렬": 10920,
      "근근": 10921,
      "기근": 10922,
      "깨끗": 10923,
      "날로": 10924,
      "누누": 10925,
      "뉴육": 10926,
      "니다.그러면": 10927,
      "다하고": 10928,
      "대양": 10929,
      "대조": 10930,
      "동산": 10931,
      "들이다.": 10932,
      "따위": 10933,
      "렷다.": 10934,
      "를당": 10935,
      "만코": 10936,
      "모욕": 10937,
      "모혀": 10938,
      "모학교": 10939,
      "무장": 10940,
      "발흥": 10941,
      "밥을": 10942,
      "배설": 10943,
      "본을": 10944,
      "북은": 10945,
      "북청": 10946,
      "분할": 10947,
      "비와": 10948,
      "산하": 10949,
      "살피": 10950,
      "습관을": 10951,
      "실상": 10952,
      "실에": 10953,
      "십수": 10954,
      "아사": 10955,
      "양양": 10956,
      "어인": 10957,
      "언문": 10958,
      "업무": 10959,
      "여!": 10960,
      "연재": 10961,
      "영영": 10962,
      "오르": 10963,
      "오작": 10964,
      "옥균": 10965,
      "옥을": 10966,
      "왈아": 10967,
      "운자": 10968,
      "위주": 10969,
      "의관념": 10970,
      "이승": 10971,
      "이애": 10972,
      "이최": 10973,
      "이취": 10974,
      "임명": 10975,
      "잘알": 10976,
      "장악": 10977,
      "전전": 10978,
      "전화": 10979,
      "좋아": 10980,
      "주군": 10981,
      "지득": 10982,
      "지칙": 10983,
      "차고": 10984,
      "차수": 10985,
      "차이가": 10986,
      "차제로": 10987,
      "체험": 10988,
      "총명": 10989,
      "추고": 10990,
      "푸리": 10991,
      "한듯": 10992,
      "한서": 10993,
      "한을": 10994,
      "한테": 10995,
      "화약": 10996,
      "희라.": 10997,
      "이": 10998,
      "야국가": 10999,
      "고상": 11000,
      "다.그의": 11001,
      "인이기": 11002,
      "이나연이나": 11003,
      "주의에": 11004,
      "주의": 11005,
      "주의": 11006,
      "하게되고": 11007,
      "생각은": 11008,
      "지안는다.": 11009,
      "을수업": 11010,
      "엿다가": 11011,
      "경제의": 11012,
      "문명을": 11013,
      "가지고잇는": 11014,
      "게되면": 11015,
      "이가니라.": 11016,
      "기관의": 11017,
      "모양이": 11018,
      "같은것은": 11019,
      "이용야": 11020,
      "다음에는": 11021,
      "내용은": 11022,
      "을경과": 11023,
      "대동강": 11024,
      "융희3년": 11025,
      "노서아의": 11026,
      "5,6": 11027,
      "주요한": 11028,
[...]
