{
  "version": "1.0",
  "truncation": null,
  "padding": null,
  "added_tokens": [
    {
      "id": 0,
      "content": "[UNK]",
      "single_word": false,
      "lstrip": false,
      "rstrip": false,
      "normalized": false,
      "special": true
    },
    {
      "id": 1,
      "content": "[PAD]",
      "single_word": false,
      "lstrip": false,
      "rstrip": false,
      "normalized": false,
      "special": true
    },
    {
      "id": 2,
      "content": "[BOS]",
      "single_word": false,
      "lstrip": false,
      "rstrip": false,
      "normalized": false,
      "special": true
    },
    {
      "id": 3,
      "content": "[EOS]",
      "single_word": false,
      "lstrip": false,
      "rstrip": false,
      "normalized": false,
      "special": true
    }
  ],
  "normalizer": {
    "type": "NFKC"
  },
  "pre_tokenizer": null,
  "post_processor": null,
  "decoder": null,
  "model": {
    "type": "BPE",
    "dropout": null,
    "unk_token": "[UNK]",
    "continuing_subword_prefix": null,
    "end_of_word_suffix": null,
    "fuse_unk": false,
    "byte_fallback": false,
    "ignore_merges": false,
    "vocab": {
      "[UNK]": 0,
      "[PAD]": 1,
      "[BOS]": 2,
      "[EOS]": 3,
      "!": 4,
      "\"": 5,
      "%": 6,
      "'": 7,
      "(": 8,
      ")": 9,
      "*": 10,
      "+": 11,
      ",": 12,
      "-": 13,
      ".": 14,
      "/": 15,
      "0": 16,
      "1": 17,
      "2": 18,
      "3": 19,
      "4": 20,
      "5": 21,
      "6": 22,
      "7": 23,
      "8": 24,
      "9": 25,
      ":": 26,
      ";": 27,
      "<": 28,
      "=": 29,
      ">": 30,
      "?": 31,
      "A": 32,
      "B": 33,
      "C": 34,
      "D": 35,
      "E": 36,
      "F": 37,
      "G": 38,
      "H": 39,
      "I": 40,
      "J": 41,
      "K": 42,
      "L": 43,
      "M": 44,
      "N": 45,
      "O": 46,
      "P": 47,
      "Q": 48,
      "R": 49,
      "S": 50,
      "T": 51,
      "U": 52,
      "V": 53,
      "W": 54,
      "X": 55,
      "Y": 56,
      "Z": 57,
      "[": 58,
      "]": 59,
      "^": 60,
      "_": 61,
      "`": 62,
      "a": 63,
      "b": 64,
      "c": 65,
      "d": 66,
      "e": 67,
      "f": 68,
      "g": 69,
      "h": 70,
      "i": 71,
      "j": 72,
      "k": 73,
      "l": 74,
      "m": 75,
      "n": 76,
      "o": 77,
      "p": 78,
      "q": 79,
      "r": 80,
      "s": 81,
      "t": 82,
      "u": 83,
      "v": 84,
      "w": 85,
      "x": 86,
      "y": 87,
      "z": 88,
      "{": 89,
      "|": 90,
      "}": 91,
      "~": 92,
      "": 93,
      "": 94,
      "": 95,
      "": 96,
      "": 97,
      "¡": 98,
      "¢": 99,
      "£": 100,
      "¤": 101,
      "¥": 102,
      "¦": 103,
      "§": 104,
      "©": 105,
      "¬": 106,
      "­": 107,
      "°": 108,
      "±": 109,
      "·": 110,
      "»": 111,
      "¿": 112,
      "Ó": 113,
      "×": 114,
      "ç": 115,
      "ï": 116,
      "û": 117,
      "Œ": 118,
      "œ": 119,
      "Š": 120,
      "Ÿ": 121,
      "Ž": 122,
      "ž": 123,
      "ƍ": 124,
      "ƒ": 125,
      "ˆ": 126,
      "́": 127,
      "̃": 128,
      "̄": 129,
      "̈": 130,
      "̧": 131,
      "μ": 132,
      "ᄀ": 133,
      "ᄁ": 134,
      "ᄂ": 135,
      "ᄃ": 136,
      "ᄄ": 137,
      "ᄅ": 138,
      "ᄆ": 139,
      "ᄇ": 140,
      "ᄈ": 141,
      "ᄉ": 142,
      "ᄊ": 143,
      "ᄋ": 144,
      "ᄌ": 145,
      "ᄍ": 146,
      "ᄎ": 147,
      "ᄏ": 148,
      "ᄐ": 149,
      "ᄑ": 150,
      "ᄒ": 151,
      "ᄞ": 152,
      "ᄠ": 153,
      "ᄡ": 154,
      "ᄧ": 155,
      "ᄫ": 156,
      "ᄭ": 157,
      "ᄯ": 158,
      "ᄲ": 159,
      "ᄶ": 160,
      "ᅀ": 161,
      "ᅌ": 162,
      "ᅙ": 163,
      "ᅟ": 164,
      "ᅡ": 165,
      "ᅢ": 166,
      "ᅣ": 167,
      "ᅥ": 168,
      "ᅦ": 169,
      "ᅧ": 170,
      "ᅨ": 171,
      "ᅩ": 172,
      "ᅪ": 173,
      "ᅫ": 174,
      "ᅬ": 175,
      "ᅭ": 176,
      "ᅮ": 177,
      "ᅯ": 178,
      "ᅱ": 179,
      "ᅲ": 180,
      "ᅳ": 181,
      "ᅴ": 182,
      "ᅵ": 183,
      "ᆍ": 184,
      "ᆞ": 185,
      "ᆫ": 186,
      "ᆯ": 187,
      "ᆷ": 188,
      "ᆺ": 189,
      "–": 190,
      "—": 191,
      "―": 192,
      "‘": 193,
      "’": 194,
      "‚": 195,
      "“": 196,
      "”": 197,
      "„": 198,
      "†": 199,
      "‡": 200,
      "•": 201,
      "‰": 202,
      "‹": 203,
      "›": 204,
      "※": 205,
      "⁄": 206,
      "€": 207,
      "∞": 208,
      "≡": 209,
      "≪": 210,
      "≫": 211,
      "⊙": 212,
      "─": 213,
      "┌": 214,
      "└": 215,
      "╴": 216,
      "■": 217,
      "□": 218,
      "▧": 219,
      "▲": 220,
      "△": 221,
      "▼": 222,
      "▽": 223,
      "◇": 224,
      "◉": 225,
      "○": 226,
      "◎": 227,
      "●": 228,
      "◯": 229,
      "★": 230,
      "☉": 231,
      "☒": 232,
      "⻏": 233,
      "、": 234,
      "。": 235,
      "々": 236,
      "〇": 237,
      "「": 238,
      "」": 239,
      "『": 240,
      "』": 241,
      "【": 242,
      "】": 243,
      "〓": 244,
      "〔": 245,
      "〕": 246,
      "あ": 247,
      "い": 248,
      "う": 249,
      "え": 250,
      "お": 251,
      "か": 252,
      "が": 253,
      "き": 254,
      "ぎ": 255,
      "く": 256,
      "ぐ": 257,
      "け": 258,
      "げ": 259,
      "こ": 260,
      "さ": 261,
      "ざ": 262,
      "し": 263,
      "じ": 264,
      "す": 265,
      "ず": 266,
      "せ": 267,
      "そ": 268,
      "ぞ": 269,
      "た": 270,
      "だ": 271,
      "ち": 272,
      "つ": 273,
      "づ": 274,
      "て": 275,
      "で": 276,
      "と": 277,
      "ど": 278,
      "な": 279,
      "に": 280,
      "ぬ": 281,
      "ね": 282,
      "の": 283,
      "は": 284,
      "ば": 285,
      "ぱ": 286,
      "ひ": 287,
      "び": 288,
      "ふ": 289,
      "ぶ": 290,
      "へ": 291,
      "べ": 292,
      "ほ": 293,
      "ぼ": 294,
      "ま": 295,
      "み": 296,
      "む": 297,
      "め": 298,
      "も": 299,
      "や": 300,
      "ゆ": 301,
      "よ": 302,
      "ら": 303,
      "り": 304,
      "る": 305,
      "れ": 306,
      "ろ": 307,
      "ゎ": 308,
      "わ": 309,
      "ゐ": 310,
      "を": 311,
      "ん": 312,
      "゙": 313,
      "ゝ": 314,
      "ゞ": 315,
      "ア": 316,
      "イ": 317,
      "ゥ": 318,
      "ウ": 319,
      "エ": 320,
      "オ": 321,
      "カ": 322,
      "ガ": 323,
      "キ": 324,
      "ギ": 325,
      "ク": 326,
      "グ": 327,
      "ケ": 328,
      "ゲ": 329,
      "コ": 330,
      "ゴ": 331,
      "サ": 332,
      "ザ": 333,
      "シ": 334,
      "ジ": 335,
      "ス": 336,
      "ズ": 337,
      "セ": 338,
      "ゼ": 339,
      "ソ": 340,
      "ゾ": 341,
      "タ": 342,
      "ダ": 343,
      "チ": 344,
      "ヂ": 345,
      "ッ": 346,
      "ツ": 347,
      "ヅ": 348,
      "テ": 349,
      "デ": 350,
      "ト": 351,
      "ド": 352,
      "ナ": 353,
      "ニ": 354,
      "ヌ": 355,
      "ネ": 356,
      "ノ": 357,
      "ハ": 358,
      "バ": 359,
      "パ": 360,
      "ヒ": 361,
      "ビ": 362,
      "ピ": 363,
      "フ": 364,
      "ブ": 365,
      "プ": 366,
      "ヘ": 367,
      "ベ": 368,
      "ペ": 369,
      "ホ": 370,
      "ボ": 371,
      "ポ": 372,
      "マ": 373,
      "ミ": 374,
      "ム": 375,
      "メ": 376,
      "モ": 377,
      "ャ": 378,
      "ヤ": 379,
      "ュ": 380,
      "ユ": 381,
      "ヨ": 382,
      "ラ": 383,
      "リ": 384,
      "ル": 385,
      "レ": 386,
      "ロ": 387,
      "ワ": 388,
      "ヰ": 389,
      "ヱ": 390,
      "ヲ": 391,
      "ン": 392,
      "ー": 393,
      "㐫": 394,
      "㐲": 395,
      "㒵": 396,
      "㕿": 397,
      "㗁": 398,
      "㗇": 399,
      "㝡": 400,
      "㝨": 401,
      "㠊": 402,
      "㠙": 403,
      "㡳": 404,
      "㢠": 405,
      "㤼": 406,
      "㥘": 407,
      "㥬": 408,
      "㧓": 409,
      "㧞": 410,
      "㪅": 411,
      "㪚": 412,
      "㫋": 413,
      "㫌": 414,
      "㬀": 415,
      "㬦": 416,
      "㬰": 417,
      "㭍": 418,
      "㭗": 419,
      "㭦": 420,
      "㭬": 421,
      "㮇": 422,
      "㮽": 423,
      "㳘": 424,
      "㳻": 425,
      "㴐": 426,
      "㴤": 427,
      "㴱": 428,
      "㵎": 429,
      "㵓": 430,
      "㷀": 431,
      "㸈": 432,
      "㽉": 433,
      "㾗": 434,
      "㿂": 435,
      "䀌": 436,
      "䀚": 437,
      "䂨": 438,
      "䄵": 439,
      "䆠": 440,
      "䇺": 441,
      "䇿": 442,
      "䈽": 443,
      "䊸": 444,
      "䊺": 445,
      "䊻": 446,
      "䌙": 447,
      "䌤": 448,
      "䎘": 449,
      "䐉": 450,
      "䓫": 451,
      "䕷": 452,
      "䕺": 453,
      "䖧": 454,
      "䖹": 455,
      "䘐": 456,
      "䙲": 457,
      "䛕": 458,
      "䛖": 459,
      "䜴": 460,
      "䜵": 461,
      "䝱": 462,
      "䟱": 463,
      "䟽": 464,
      "䤘": 465,
      "䥣": 466,
      "䥷": 467,
      "䦧": 468,
      "䦨": 469,
      "䪿": 470,
      "䫻": 471,
      "䬸": 472,
      "䭔": 473,
      "䭾": 474,
      "䮕": 475,
      "䯻": 476,
      "䰇": 477,
      "䱋": 478,
      "䱍": 479,
      "䱗": 480,
      "䱯": 481,
      "䲭": 482,
      "䲴": 483,
      "䳡": 484,
      "䳱": 485,
      "䴹": 486,
      "䵝": 487,
      "䶀": 488,
      "一": 489,
      "丁": 490,
      "七": 491,
      "万": 492,
      "丈": 493,
      "三": 494,
      "上": 495,
      "下": 496,
      "丌": 497,
      "不": 498,
      "丏": 499,
      "丐": 500,
      "丑": 501,
      "且": 502,
      "丕": 503,
      "世": 504,
      "丘": 505,
      "丙": 506,
      "丞": 507,
      "丢": 508,
      "並": 509,
      "丨": 510,
      "个": 511,
      "丫": 512,
      "中": 513,
      "丰": 514,
      "丱": 515,
      "串": 516,
      "丸": 517,
      "丹": 518,
      "主": 519,
      "乂": 520,
      "乃": 521,
      "久": 522,
      "之": 523,
      "乍": 524,
      "乎": 525,
      "乏": 526,
      "乖": 527,
      "乘": 528,
      "乙": 529,
      "九": 530,
      "乞": 531,
      "也": 532,
      "乫": 533,
      "乭": 534,
      "乱": 535,
      "乳": 536,
      "乾": 537,
      "亂": 538,
      "了": 539,
      "予": 540,
      "亊": 541,
      "事": 542,
      "二": 543,
      "亍": 544,
      "于": 545,
      "亐": 546,
      "云": 547,
      "互": 548,
      "五": 549,
      "井": 550,
      "亘": 551,
      "亙": 552,
      "些": 553,
      "亞": 554,
      "亟": 555,
      "亡": 556,
      "亢": 557,
      "交": 558,
      "亥": 559,
      "亦": 560,
      "亨": 561,
      "享": 562,
      "京": 563,
      "亭": 564,
      "亮": 565,
      "亳": 566,
      "亶": 567,
      "亹": 568,
      "人": 569,
      "亻": 570,
      "什": 571,
      "仁": 572,
      "仂": 573,
      "仃": 574,
      "仄": 575,
      "仆": 576,
      "仇": 577,
      "仉": 578,
      "今": 579,
      "介": 580,
      "仍": 581,
      "仔": 582,
      "仕": 583,
      "他": 584,
      "仗": 585,
      "付": 586,
      "仙": 587,
      "仝": 588,
      "仞": 589,
      "仟": 590,
      "代": 591,
      "令": 592,
      "以": 593,
      "仭": 594,
      "仰": 595,
      "仲": 596,
      "仵": 597,
      "件": 598,
      "价": 599,
      "任": 600,
      "份": 601,
      "仿": 602,
      "企": 603,
      "伃": 604,
      "伉": 605,
      "伊": 606,
      "伋": 607,
      "伍": 608,
      "伎": 609,
      "伏": 610,
      "伐": 611,
      "休": 612,
      "伙": 613,
      "伜": 614,
      "伯": 615,
      "估": 616,
      "伴": 617,
      "伶": 618,
      "伷": 619,
      "伸": 620,
      "伹": 621,
      "伺": 622,
      "伻": 623,
      "似": 624,
      "伽": 625,
      "佃": 626,
      "但": 627,
      "佇": 628,
      "佈": 629,
      "位": 630,
      "低": 631,
      "住": 632,
      "佐": 633,
      "佑": 634,
      "体": 635,
      "佔": 636,
      "何": 637,
      "佗": 638,
      "余": 639,
      "佚": 640,
      "佛": 641,
      "作": 642,
      "佝": 643,
      "佞": 644,
      "佟": 645,
      "你": 646,
      "佤": 647,
      "佩": 648,
      "佯": 649,
      "佰": 650,
      "佳": 651,
      "併": 652,
      "佶": 653,
      "佸": 654,
      "佺": 655,
      "佻": 656,
      "佼": 657,
      "佾": 658,
      "使": 659,
      "侂": 660,
      "侃": 661,
      "侄": 662,
      "來": 663,
      "侈": 664,
      "侊": 665,
      "例": 666,
      "侍": 667,
      "侏": 668,
      "侑": 669,
      "侔": 670,
      "侖": 671,
      "侗": 672,
      "侘": 673,
      "供": 674,
      "依": 675,
      "侤": 676,
      "侫": 677,
      "侮": 678,
      "侯": 679,
      "侲": 680,
      "侵": 681,
      "侶": 682,
      "侹": 683,
      "便": 684,
      "俁": 685,
      "係": 686,
      "促": 687,
      "俄": 688,
      "俉": 689,
      "俊": 690,
      "俎": 691,
      "俐": 692,
      "俑": 693,
      "俒": 694,
      "俓": 695,
      "俔": 696,
      "俗": 697,
      "俘": 698,
      "俙": 699,
      "俚": 700,
      "俛": 701,
      "保": 702,
      "俟": 703,
      "俠": 704,
      "信": 705,
      "修": 706,
      "俯": 707,
      "俱": 708,
      "俳": 709,
      "俵": 710,
      "俶": 711,
      "俸": 712,
      "俺": 713,
      "俾": 714,
      "倀": 715,
      "倂": 716,
      "倅": 717,
      "倆": 718,
      "倉": 719,
      "個": 720,
      "倍": 721,
      "倏": 722,
      "倐": 723,
      "們": 724,
      "倒": 725,
      "倔": 726,
      "倖": 727,
      "倘": 728,
      "候": 729,
      "倚": 730,
      "倜": 731,
      "借": 732,
      "倡": 733,
      "倢": 734,
      "倣": 735,
      "値": 736,
      "倥": 737,
      "倦": 738,
      "倧": 739,
      "倨": 740,
      "倩": 741,
      "倪": 742,
      "倫": 743,
      "倬": 744,
      "倭": 745,
      "倸": 746,
      "倻": 747,
      "偃": 748,
      "假": 749,
      "偈": 750,
      "偉": 751,
      "偊": 752,
      "偎": 753,
      "偏": 754,
      "偑": 755,
      "偕": 756,
      "偖": 757,
      "做": 758,
      "停": 759,
      "健": 760,
      "偪": 761,
      "偰": 762,
      "偲": 763,
      "側": 764,
      "偵": 765,
      "偶": 766,
      "偷": 767,
      "偸": 768,
      "傀": 769,
      "傅": 770,
      "傍": 771,
      "傑": 772,
      "傖": 773,
      "傘": 774,
      "備": 775,
      "傚": 776,
      "催": 777,
      "傭": 778,
      "傲": 779,
      "傳": 780,
      "傴": 781,
      "債": 782,
      "傷": 783,
      "傻": 784,
      "傾": 785,
      "僂": 786,
      "僅": 787,
      "僇": 788,
      "僉": 789,
      "僊": 790,
      "働": 791,
      "僎": 792,
      "像": 793,
      "僑": 794,
      "僕": 795,
      "僖": 796,
      "僚": 797,
      "僝": 798,
      "僞": 799,
      "僣": 800,
      "僥": 801,
      "僧": 802,
      "僨": 803,
      "僩": 804,
      "僬": 805,
      "僭": 806,
      "僮": 807,
      "僯": 808,
      "僵": 809,
      "價": 810,
      "僻": 811,
      "僿": 812,
      "儀": 813,
      "儁": 814,
      "儂": 815,
      "億": 816,
      "儆": 817,
      "儇": 818,
      "儈": 819,
      "儉": 820,
      "儐": 821,
      "儒": 822,
      "儓": 823,
      "儔": 824,
      "儕": 825,
      "儘": 826,
      "儞": 827,
      "償": 828,
      "儡": 829,
      "儩": 830,
      "優": 831,
      "儲": 832,
      "儳": 833,
      "儷": 834,
      "儸": 835,
      "儺": 836,
      "儻": 837,
      "儼": 838,
      "兀": 839,
      "允": 840,
      "元": 841,
      "兄": 842,
      "充": 843,
      "兆": 844,
      "兇": 845,
      "先": 846,
      "光": 847,
      "克": 848,
      "兌": 849,
      "免": 850,
      "兎": 851,
      "兒": 852,
      "兕": 853,
      "党": 854,
      "兜": 855,
      "兠": 856,
      "兢": 857,
      "入": 858,
      "兦": 859,
      "內": 860,
      "全": 861,
      "兩": 862,
      "兪": 863,
      "八": 864,
      "公": 865,
      "六": 866,
      "兮": 867,
      "共": 868,
      "兵": 869,
      "其": 870,
      "具": 871,
      "典": 872,
      "兺": 873,
      "兼": 874,
      "冀": 875,
      "内": 876,
      "円": 877,
      "冉": 878,
      "冊": 879,
      "册": 880,
      "再": 881,
      "冐": 882,
      "冑": 883,
      "冒": 884,
      "冕": 885,
      "冗": 886,
      "冝": 887,
      "冠": 888,
      "冡": 889,
      "冢": 890,
      "冤": 891,
      "冥": 892,
      "冪": 893,
      "冬": 894,
      "冰": 895,
      "冱": 896,
      "冲": 897,
      "决": 898,
      "况": 899,
      "冶": 900,
      "冷": 901,
      "冸": 902,
      "冽": 903,
      "冾": 904,
      "凂": 905,
      "凄": 906,
      "凅": 907,
      "准": 908,
      "凈": 909,
      "凉": 910,
      "凊": 911,
      "凋": 912,
      "凌": 913,
      "凍": 914,
      "减": 915,
      "凖": 916,
      "凘": 917,
      "凛": 918,
      "凜": 919,
      "凝": 920,
      "凞": 921,
      "几": 922,
      "凡": 923,
      "凭": 924,
      "凰": 925,
      "凱": 926,
      "凶": 927,
      "凸": 928,
      "凹": 929,
      "出": 930,
      "函": 931,
      "凾": 932,
      "刀": 933,
      "刁": 934,
      "刃": 935,
      "刄": 936,
      "分": 937,
      "切": 938,
      "刈": 939,
      "刊": 940,
      "刋": 941,
      "刎": 942,
      "刑": 943,
      "刓": 944,
      "列": 945,
      "初": 946,
      "删": 947,
      "判": 948,
      "別": 949,
      "刦": 950,
      "刧": 951,
      "利": 952,
      "刪": 953,
      "刮": 954,
      "到": 955,
      "刱": 956,
      "刲": 957,
      "刳": 958,
      "刴": 959,
      "制": 960,
      "刷": 961,
      "券": 962,
      "刹": 963,
      "刺": 964,
      "刻": 965,
      "刼": 966,
      "剃": 967,
      "則": 968,
      "剉": 969,
      "削": 970,
      "剋": 971,
      "剌": 972,
      "前": 973,
      "剏": 974,
      "剔": 975,
      "剖": 976,
      "剗": 977,
      "剙": 978,
      "剚": 979,
      "剛": 980,
      "剜": 981,
      "剝": 982,
      "剞": 983,
      "剡": 984,
      "剦": 985,
      "剩": 986,
      "剪": 987,
      "副": 988,
      "割": 989,
      "剳": 990,
      "剴": 991,
      "創": 992,
      "剸": 993,
      "剽": 994,
      "剿": 995,
      "劂": 996,
      "劃": 997,
      "劇": 998,
      "劈": 999,
      "劉": 1000,
      "劊": 1001,
      "劌": 1002,
      "劍": 1003,
      "劑": 1004,
      "劒": 1005,
      "力": 1006,
      "劜": 1007,
      "功": 1008,
      "加": 1009,
      "劣": 1010,
      "助": 1011,
      "努": 1012,
      "劫": 1013,
      "劬": 1014,
      "劭": 1015,
      "劮": 1016,
      "劯": 1017,
      "効": 1018,
      "劽": 1019,
      "劾": 1020,
      "勁": 1021,
      "勃": 1022,
      "勅": 1023,
      "勇": 1024,
      "勉": 1025,
      "勊": 1026,
      "勍": 1027,
      "勒": 1028,
      "動": 1029,
      "勖": 1030,
      "勗": 1031,
      "勘": 1032,
      "務": 1033,
      "勛": 1034,
      "勝": 1035,
      "勞": 1036,
      "募": 1037,
      "勠": 1038,
      "勢": 1039,
      "勣": 1040,
      "勤": 1041,
      "勦": 1042,
      "勳": 1043,
      "勵": 1044,
      "勸": 1045,
      "勺": 1046,
      "勻": 1047,
      "勾": 1048,
      "勿": 1049,
      "匁": 1050,
      "匂": 1051,
      "匃": 1052,
      "包": 1053,
      "匆": 1054,
      "匇": 1055,
      "匈": 1056,
      "匊": 1057,
      "匋": 1058,
      "匍": 1059,
      "匏": 1060,
      "匐": 1061,
      "匕": 1062,
      "化": 1063,
      "北": 1064,
      "匙": 1065,
      "匝": 1066,
      "匠": 1067,
      "匡": 1068,
      "匣": 1069,
      "匪": 1070,
      "匯": 1071,
      "匱": 1072,
      "匸": 1073,
      "匹": 1074,
      "匼": 1075,
      "匾": 1076,
      "匿": 1077,
      "區": 1078,
      "十": 1079,
      "千": 1080,
      "卄": 1081,
      "卅": 1082,
      "升": 1083,
      "午": 1084,
      "卉": 1085,
      "半": 1086,
      "卌": 1087,
      "卍": 1088,
      "卑": 1089,
      "卒": 1090,
      "卓": 1091,
      "協": 1092,
      "南": 1093,
      "博": 1094,
      "卜": 1095,
      "卞": 1096,
      "占": 1097,
      "卡": 1098,
      "卦": 1099,
      "卨": 1100,
      "卩": 1101,
      "卬": 1102,
      "卮": 1103,
      "卯": 1104,
      "印": 1105,
      "危": 1106,
      "即": 1107,
      "却": 1108,
      "卵": 1109,
      "卷": 1110,
      "卸": 1111,
      "卹": 1112,
      "卻": 1113,
      "卼": 1114,
      "卽": 1115,
      "卿": 1116,
      "厄": 1117,
      "厓": 1118,
      "厖": 1119,
      "厘": 1120,
      "厙": 1121,
      "厚": 1122,
      "厝": 1123,
      "原": 1124,
      "厠": 1125,
      "厥": 1126,
      "厦": 1127,
      "厨": 1128,
      "厩": 1129,
      "厭": 1130,
      "厮": 1131,
      "厲": 1132,
      "去": 1133,
      "參": 1134,
      "叅": 1135,
      "又": 1136,
      "叉": 1137,
      "及": 1138,
      "友": 1139,
      "双": 1140,
      "反": 1141,
      "収": 1142,
      "叔": 1143,
      "取": 1144,
      "受": 1145,
      "叙": 1146,
      "叚": 1147,
      "叛": 1148,
      "叟": 1149,
      "叡": 1150,
      "叢": 1151,
      "口": 1152,
      "古": 1153,
      "句": 1154,
      "另": 1155,
      "叧": 1156,
      "叨": 1157,
      "叩": 1158,
      "只": 1159,
      "叫": 1160,
      "召": 1161,
      "叭": 1162,
      "叮": 1163,
      "可": 1164,
      "台": 1165,
      "叱": 1166,
      "史": 1167,
      "右": 1168,
      "叵": 1169,
      "叶": 1170,
      "号": 1171,
      "司": 1172,
      "叺": 1173,
      "吁": 1174,
      "吃": 1175,
      "各": 1176,
      "合": 1177,
      "吉": 1178,
      "吊": 1179,
      "吋": 1180,
      "同": 1181,
      "名": 1182,
      "后": 1183,
      "吏": 1184,
      "吐": 1185,
      "向": 1186,
      "吒": 1187,
      "吚": 1188,
      "君": 1189,
      "吝": 1190,
      "吞": 1191,
      "吟": 1192,
      "吠": 1193,
      "否": 1194,
      "吩": 1195,
      "含": 1196,
      "吭": 1197,
      "吮": 1198,
      "吰": 1199,
      "吳": 1200,
      "吶": 1201,
      "吸": 1202,
      "吹": 1203,
      "吻": 1204,
      "吼": 1205,
      "吾": 1206,
      "吿": 1207,
      "呀": 1208,
      "呂": 1209,
      "呆": 1210,
      "呇": 1211,
      "呈": 1212,
      "告": 1213,
      "呌": 1214,
      "呎": 1215,
      "呐": 1216,
      "呑": 1217,
      "呢": 1218,
      "呤": 1219,
      "呧": 1220,
      "周": 1221,
      "呪": 1222,
      "呯": 1223,
      "呱": 1224,
      "呲": 1225,
      "味": 1226,
      "呴": 1227,
      "呵": 1228,
      "呶": 1229,
      "呷": 1230,
      "呻": 1231,
      "呼": 1232,
      "命": 1233,
      "呿": 1234,
      "咀": 1235,
      "咄": 1236,
      "咆": 1237,
      "咈": 1238,
      "咋": 1239,
      "和": 1240,
      "咎": 1241,
      "咏": 1242,
      "咐": 1243,
      "咒": 1244,
      "咕": 1245,
      "咜": 1246,
      "咤": 1247,
      "咨": 1248,
      "咫": 1249,
      "咬": 1250,
      "咲": 1251,
      "咳": 1252,
      "咷": 1253,
      "咸": 1254,
      "咻": 1255,
      "咽": 1256,
      "咿": 1257,
      "哀": 1258,
      "品": 1259,
      "哂": 1260,
      "哄": 1261,
      "哇": 1262,
      "哈": 1263,
      "哉": 1264,
      "員": 1265,
      "哢": 1266,
      "哥": 1267,
      "哦": 1268,
      "哨": 1269,
      "哩": 1270,
      "哪": 1271,
      "哭": 1272,
      "哮": 1273,
      "哲": 1274,
      "哳": 1275,
      "哺": 1276,
      "哻": 1277,
      "唆": 1278,
      "唇": 1279,
      "唎": 1280,
      "唏": 1281,
      "唐": 1282,
      "唒": 1283,
      "唔": 1284,
      "唫": 1285,
      "售": 1286,
      "唯": 1287,
      "唱": 1288,
      "唳": 1289,
      "唵": 1290,
      "唸": 1291,
      "唻": 1292,
      "唾": 1293,
      "啁": 1294,
      "啃": 1295,
      "啄": 1296,
      "啅": 1297,
      "商": 1298,
      "啇": 1299,
      "啋": 1300,
      "啎": 1301,
      "問": 1302,
      "啓": 1303,
      "啖": 1304,
      "啗": 1305,
      "啚": 1306,
      "啜": 1307,
      "啞": 1308,
      "啣": 1309,
      "啻": 1310,
      "啼": 1311,
      "啾": 1312,
      "喀": 1313,
      "喁": 1314,
      "喂": 1315,
      "喃": 1316,
      "善": 1317,
      "喆": 1318,
      "喇": 1319,
      "喈": 1320,
      "喉": 1321,
      "喊": 1322,
      "喋": 1323,
      "喑": 1324,
      "喔": 1325,
      "喘": 1326,
      "喙": 1327,
      "喚": 1328,
      "喜": 1329,
      "喝": 1330,
      "喞": 1331,
      "喟": 1332,
      "喢": 1333,
      "喣": 1334,
      "喧": 1335,
      "喨": 1336,
      "喩": 1337,
      "喪": 1338,
      "喫": 1339,
      "喬": 1340,
      "喭": 1341,
      "單": 1342,
      "喰": 1343,
      "嗄": 1344,
      "嗅": 1345,
      "嗇": 1346,
      "嗋": 1347,
      "嗎": 1348,
      "嗒": 1349,
      "嗔": 1350,
      "嗚": 1351,
      "嗜": 1352,
      "嗟": 1353,
      "嗣": 1354,
      "嗤": 1355,
      "嗩": 1356,
      "嗶": 1357,
      "嗷": 1358,
      "嗼": 1359,
      "嗽": 1360,
      "嗾": 1361,
      "嘆": 1362,
      "嘈": 1363,
      "嘉": 1364,
      "嘎": 1365,
      "嘐": 1366,
      "嘓": 1367,
      "嘔": 1368,
      "嘖": 1369,
      "嘗": 1370,
      "嘛": 1371,
      "嘩": 1372,
      "嘬": 1373,
      "嘯": 1374,
      "嘲": 1375,
      "嘴": 1376,
      "嘵": 1377,
      "嘶": 1378,
      "嘹": 1379,
      "嘻": 1380,
      "嘿": 1381,
      "噀": 1382,
      "噇": 1383,
      "噉": 1384,
      "噋": 1385,
      "噌": 1386,
      "噍": 1387,
      "噎": 1388,
      "噓": 1389,
      "噠": 1390,
      "噡": 1391,
      "噤": 1392,
      "器": 1393,
      "噩": 1394,
      "噪": 1395,
      "噫": 1396,
      "噬": 1397,
      "噭": 1398,
      "噱": 1399,
      "噲": 1400,
      "噴": 1401,
      "噶": 1402,
      "噸": 1403,
      "嚀": 1404,
      "嚅": 1405,
      "嚆": 1406,
      "嚇": 1407,
      "嚌": 1408,
      "嚔": 1409,
      "嚗": 1410,
      "嚘": 1411,
      "嚙": 1412,
      "嚝": 1413,
      "嚠": 1414,
      "嚥": 1415,
      "嚬": 1416,
      "嚭": 1417,
      "嚮": 1418,
      "嚴": 1419,
      "嚶": 1420,
      "嚷": 1421,
      "嚼": 1422,
      "嚽": 1423,
      "囀": 1424,
      "囁": 1425,
      "囂": 1426,
      "囃": 1427,
      "囈": 1428,
      "囉": 1429,
      "囊": 1430,
      "囍": 1431,
      "囑": 1432,
      "囓": 1433,
      "囘": 1434,
      "囚": 1435,
      "四": 1436,
      "回": 1437,
      "因": 1438,
      "囤": 1439,
      "囫": 1440,
      "困": 1441,
      "囷": 1442,
      "囹": 1443,
      "固": 1444,
      "囿": 1445,
      "圃": 1446,
      "圄": 1447,
      "圇": 1448,
      "圈": 1449,
      "圉": 1450,
      "圊": 1451,
      "國": 1452,
      "圍": 1453,
      "園": 1454,
      "圓": 1455,
      "圖": 1456,
      "團": 1457,
      "圜": 1458,
      "土": 1459,
      "在": 1460,
      "圭": 1461,
      "圮": 1462,
      "圯": 1463,
      "地": 1464,
      "圴": 1465,
      "圻": 1466,
      "圾": 1467,
      "址": 1468,
      "坂": 1469,
      "均": 1470,
      "坊": 1471,
      "坌": 1472,
      "坎": 1473,
      "坏": 1474,
      "坐": 1475,
      "坑": 1476,
      "坡": 1477,
      "坤": 1478,
      "坦": 1479,
      "坩": 1480,
      "坪": 1481,
      "坫": 1482,
      "坮": 1483,
      "坯": 1484,
      "坰": 1485,
      "坵": 1486,
      "坷": 1487,
      "坼": 1488,
      "垀": 1489,
      "垂": 1490,
      "垈": 1491,
      "型": 1492,
      "垓": 1493,
      "垕": 1494,
      "垜": 1495,
      "垠": 1496,
      "垢": 1497,
      "垣": 1498,
      "垤": 1499,
      "垧": 1500,
      "垵": 1501,
      "埀": 1502,
      "埃": 1503,
      "埄": 1504,
      "埇": 1505,
      "埈": 1506,
      "埉": 1507,
      "埋": 1508,
      "城": 1509,
      "埏": 1510,
      "埒": 1511,
      "埓": 1512,
      "埔": 1513,
      "埕": 1514,
      "埜": 1515,
      "域": 1516,
      "埠": 1517,
      "埦": 1518,
      "埰": 1519,
      "埴": 1520,
      "執": 1521,
      "培": 1522,
      "基": 1523,
      "埼": 1524,
      "堀": 1525,
      "堂": 1526,
      "堅": 1527,
      "堆": 1528,
      "堇": 1529,
      "堈": 1530,
      "堉": 1531,
      "堊": 1532,
      "堙": 1533,
      "堝": 1534,
      "堞": 1535,
      "堠": 1536,
      "堡": 1537,
      "堣": 1538,
      "堤": 1539,
      "堦": 1540,
      "堧": 1541,
      "堪": 1542,
      "堯": 1543,
      "堰": 1544,
      "報": 1545,
      "場": 1546,
      "堵": 1547,
      "堺": 1548,
      "堿": 1549,
      "塀": 1550,
      "塊": 1551,
      "塋": 1552,
      "塌": 1553,
      "塍": 1554,
      "塏": 1555,
      "塑": 1556,
      "塒": 1557,
      "塔": 1558,
      "塗": 1559,
      "塘": 1560,
      "塚": 1561,
      "塜": 1562,
      "塞": 1563,
      "塡": 1564,
      "塢": 1565,
      "塤": 1566,
      "塩": 1567,
      "塲": 1568,
      "塵": 1569,
      "塶": 1570,
      "塹": 1571,
      "塼": 1572,
      "塾": 1573,
      "墀": 1574,
      "境": 1575,
      "墅": 1576,
      "墉": 1577,
      "墊": 1578,
      "墍": 1579,
      "墓": 1580,
      "墜": 1581,
      "增": 1582,
      "墟": 1583,
      "墨": 1584,
      "墩": 1585,
      "墪": 1586,
      "墬": 1587,
      "墮": 1588,
      "墳": 1589,
      "墺": 1590,
      "墻": 1591,
      "墾": 1592,
      "壁": 1593,
      "壅": 1594,
      "壇": 1595,
      "壎": 1596,
      "壑": 1597,
      "壓": 1598,
      "壕": 1599,
      "壘": 1600,
      "壙": 1601,
      "壚": 1602,
      "壜": 1603,
      "壞": 1604,
      "壟": 1605,
      "壤": 1606,
      "壩": 1607,
      "士": 1608,
      "壬": 1609,
      "壯": 1610,
      "壷": 1611,
      "壹": 1612,
      "壺": 1613,
      "壻": 1614,
      "壼": 1615,
      "壽": 1616,
      "夂": 1617,
      "夏": 1618,
      "夐": 1619,
      "夔": 1620,
      "夕": 1621,
      "外": 1622,
      "夙": 1623,
      "多": 1624,
      "夜": 1625,
      "夠": 1626,
      "夢": 1627,
      "夤": 1628,
      "夥": 1629,
      "大": 1630,
      "天": 1631,
      "太": 1632,
      "夫": 1633,
      "夬": 1634,
      "夭": 1635,
      "央": 1636,
      "夯": 1637,
      "失": 1638,
      "夷": 1639,
      "夸": 1640,
      "夾": 1641,
      "奄": 1642,
      "奇": 1643,
      "奈": 1644,
      "奉": 1645,
      "奊": 1646,
      "奎": 1647,
      "奏": 1648,
      "奐": 1649,
      "契": 1650,
      "奔": 1651,
      "奕": 1652,
      "套": 1653,
      "奘": 1654,
      "奚": 1655,
      "奠": 1656,
      "奢": 1657,
      "奧": 1658,
      "奩": 1659,
      "奪": 1660,
      "奫": 1661,
      "奬": 1662,
      "奭": 1663,
      "奮": 1664,
      "女": 1665,
      "奴": 1666,
      "奶": 1667,
      "奷": 1668,
      "奸": 1669,
      "好": 1670,
      "妁": 1671,
      "如": 1672,
      "妃": 1673,
      "妄": 1674,
      "妊": 1675,
      "妌": 1676,
      "妒": 1677,
      "妓": 1678,
      "妖": 1679,
      "妙": 1680,
      "妝": 1681,
      "妣": 1682,
      "妤": 1683,
      "妥": 1684,
      "妨": 1685,
      "妬": 1686,
      "妮": 1687,
      "妹": 1688,
      "妻": 1689,
      "妾": 1690,
      "姆": 1691,
      "姉": 1692,
      "姊": 1693,
      "始": 1694,
      "姍": 1695,
      "姐": 1696,
      "姑": 1697,
      "姒": 1698,
      "姓": 1699,
      "委": 1700,
      "姙": 1701,
      "姚": 1702,
      "姜": 1703,
      "姝": 1704,
      "姤": 1705,
      "姥": 1706,
      "姦": 1707,
      "姨": 1708,
      "姪": 1709,
      "姬": 1710,
      "姮": 1711,
      "姱": 1712,
      "姶": 1713,
      "姸": 1714,
      "姹": 1715,
      "姻": 1716,
      "姿": 1717,
      "威": 1718,
      "娃": 1719,
      "娉": 1720,
      "娑": 1721,
      "娓": 1722,
      "娘": 1723,
      "娚": 1724,
      "娛": 1725,
      "娟": 1726,
      "娠": 1727,
      "娣": 1728,
      "娥": 1729,
      "娩": 1730,
      "娶": 1731,
      "娼": 1732,
      "婁": 1733,
      "婆": 1734,
      "婉": 1735,
      "婕": 1736,
      "婚": 1737,
      "婢": 1738,
      "婣": 1739,
      "婦": 1740,
      "婪": 1741,
      "婬": 1742,
      "婭": 1743,
      "婷": 1744,
      "婺": 1745,
      "婾": 1746,
      "婿": 1747,
      "媒": 1748,
      "媚": 1749,
      "媛": 1750,
      "媢": 1751,
      "媤": 1752,
      "媦": 1753,
      "媧": 1754,
      "媬": 1755,
      "媮": 1756,
      "媱": 1757,
      "媲": 1758,
      "媳": 1759,
      "媵": 1760,
      "媸": 1761,
      "媼": 1762,
      "媽": 1763,
      "媾": 1764,
      "媿": 1765,
      "嫁": 1766,
      "嫄": 1767,
      "嫉": 1768,
      "嫋": 1769,
      "嫌": 1770,
      "嫗": 1771,
      "嫜": 1772,
      "嫠": 1773,
      "嫡": 1774,
      "嫣": 1775,
      "嫦": 1776,
      "嫩": 1777,
      "嫰": 1778,
      "嫵": 1779,
      "嫺": 1780,
      "嫻": 1781,
      "嬀": 1782,
      "嬄": 1783,
      "嬅": 1784,
      "嬉": 1785,
      "嬋": 1786,
      "嬌": 1787,
      "嬖": 1788,
      "嬗": 1789,
      "嬚": 1790,
      "嬥": 1791,
      "嬪": 1792,
      "嬭": 1793,
      "嬰": 1794,
      "嬴": 1795,
      "嬾": 1796,
      "孀": 1797,
      "孃": 1798,
      "孄": 1799,
      "孌": 1800,
      "子": 1801,
      "孑": 1802,
      "孔": 1803,
      "孕": 1804,
      "孖": 1805,
      "字": 1806,
      "存": 1807,
      "孚": 1808,
      "孛": 1809,
      "孜": 1810,
      "孝": 1811,
      "孟": 1812,
      "季": 1813,
      "孤": 1814,
      "孥": 1815,
      "孩": 1816,
      "孫": 1817,
      "孰": 1818,
      "孱": 1819,
      "孳": 1820,
      "孵": 1821,
      "孶": 1822,
      "學": 1823,
      "孺": 1824,
      "孼": 1825,
      "孽": 1826,
      "孿": 1827,
      "宂": 1828,
      "宅": 1829,
      "宇": 1830,
      "守": 1831,
      "安": 1832,
      "宋": 1833,
      "完": 1834,
      "宏": 1835,
      "宓": 1836,
      "宕": 1837,
      "宖": 1838,
      "宗": 1839,
      "官": 1840,
      "宙": 1841,
      "定": 1842,
      "宛": 1843,
      "宜": 1844,
      "客": 1845,
      "宣": 1846,
      "室": 1847,
      "宥": 1848,
      "宦": 1849,
      "宧": 1850,
      "宮": 1851,
      "宰": 1852,
      "害": 1853,
      "宴": 1854,
      "宵": 1855,
      "家": 1856,
      "宷": 1857,
      "宸": 1858,
      "容": 1859,
      "宼": 1860,
      "宿": 1861,
      "寀": 1862,
      "寂": 1863,
      "寃": 1864,
      "寄": 1865,
      "寅": 1866,
      "密": 1867,
      "寇": 1868,
      "富": 1869,
      "寐": 1870,
      "寒": 1871,
      "寓": 1872,
      "寔": 1873,
      "寗": 1874,
      "寘": 1875,
      "寛": 1876,
      "寞": 1877,
      "察": 1878,
      "寡": 1879,
      "寢": 1880,
      "寤": 1881,
      "寥": 1882,
      "實": 1883,
      "寧": 1884,
      "寨": 1885,
      "審": 1886,
      "寫": 1887,
      "寬": 1888,
      "寭": 1889,
      "寮": 1890,
      "寰": 1891,
      "寳": 1892,
      "寵": 1893,
      "寶": 1894,
      "寸": 1895,
      "寺": 1896,
      "封": 1897,
      "射": 1898,
      "將": 1899,
      "專": 1900,
      "尉": 1901,
      "尊": 1902,
      "尋": 1903,
      "對": 1904,
      "導": 1905,
      "小": 1906,
      "少": 1907,
      "尒": 1908,
      "尖": 1909,
      "尙": 1910,
      "尟": 1911,
      "尠": 1912,
      "尢": 1913,
      "尤": 1914,
      "尨": 1915,
      "尫": 1916,
      "就": 1917,
      "尸": 1918,
      "尹": 1919,
      "尺": 1920,
      "尻": 1921,
      "尼": 1922,
      "尾": 1923,
      "尿": 1924,
      "局": 1925,
      "屁": 1926,
      "居": 1927,
      "屆": 1928,
      "屈": 1929,
      "届": 1930,
      "屋": 1931,
      "屍": 1932,
      "屎": 1933,
      "屐": 1934,
      "屑": 1935,
      "展": 1936,
      "屛": 1937,
      "屜": 1938,
      "属": 1939,
      "屠": 1940,
      "屢": 1941,
      "屣": 1942,
      "層": 1943,
      "履": 1944,
      "屧": 1945,
      "屨": 1946,
      "屬": 1947,
      "屭": 1948,
      "屯": 1949,
      "山": 1950,
      "屹": 1951,
      "屺": 1952,
      "岀": 1953,
      "岋": 1954,
      "岌": 1955,
      "岐": 1956,
      "岑": 1957,
      "岒": 1958,
      "岔": 1959,
      "岡": 1960,
      "岢": 1961,
      "岥": 1962,
      "岦": 1963,
      "岨": 1964,
      "岩": 1965,
      "岫": 1966,
      "岬": 1967,
      "岱": 1968,
      "岳": 1969,
      "岵": 1970,
      "岸": 1971,
      "岺": 1972,
      "岾": 1973,
      "峀": 1974,
      "峈": 1975,
      "峋": 1976,
      "峒": 1977,
      "峙": 1978,
      "峠": 1979,
      "峨": 1980,
      "峩": 1981,
      "峭": 1982,
      "峯": 1983,
      "峰": 1984,
      "峴": 1985,
      "島": 1986,
      "峻": 1987,
      "峽": 1988,
      "峿": 1989,
      "崆": 1990,
      "崇": 1991,
      "崍": 1992,
      "崎": 1993,
      "崐": 1994,
      "崑": 1995,
      "崒": 1996,
      "崔": 1997,
      "崕": 1998,
      "崖": 1999,
      "崗": 2000,
      "崙": 2001,
      "崛": 2002,
      "崢": 2003,
      "崧": 2004,
      "崩": 2005,
      "嵂": 2006,
      "嵆": 2007,
      "嵊": 2008,
      "嵋": 2009,
      "嵌": 2010,
      "嵎": 2011,
      "嵐": 2012,
      "嵩": 2013,
      "嵬": 2014,
      "嵯": 2015,
      "嶂": 2016,
      "嶄": 2017,
      "嶇": 2018,
      "嶈": 2019,
      "嶋": 2020,
      "嶙": 2021,
      "嶠": 2022,
      "嶪": 2023,
      "嶫": 2024,
      "嶮": 2025,
      "嶷": 2026,
      "嶸": 2027,
      "嶹": 2028,
      "嶺": 2029,
      "嶼": 2030,
      "嶽": 2031,
      "巀": 2032,
      "巉": 2033,
      "巍": 2034,
      "巒": 2035,
      "巓": 2036,
      "巖": 2037,
      "川": 2038,
      "州": 2039,
      "巡": 2040,
      "巢": 2041,
      "工": 2042,
      "左": 2043,
      "巧": 2044,
      "巨": 2045,
      "巫": 2046,
      "差": 2047,
      "己": 2048,
      "已": 2049,
      "巳": 2050,
      "巴": 2051,
      "巵": 2052,
      "巷": 2053,
      "巽": 2054,
      "巾": 2055,
      "市": 2056,
      "布": 2057,
      "帆": 2058,
      "希": 2059,
      "帑": 2060,
      "帒": 2061,
      "帖": 2062,
      "帘": 2063,
      "帙": 2064,
      "帚": 2065,
      "帛": 2066,
      "帝": 2067,
      "帥": 2068,
      "帨": 2069,
      "師": 2070,
      "席": 2071,
      "帮": 2072,
      "帳": 2073,
      "帶": 2074,
      "帷": 2075,
      "常": 2076,
      "帽": 2077,
      "帿": 2078,
      "幀": 2079,
      "幃": 2080,
      "幄": 2081,
      "幅": 2082,
      "幇": 2083,
      "幌": 2084,
      "幔": 2085,
      "幕": 2086,
      "幗": 2087,
      "幘": 2088,
      "幙": 2089,
      "幛": 2090,
      "幞": 2091,
      "幟": 2092,
      "幡": 2093,
      "幢": 2094,
      "幣": 2095,
      "幫": 2096,
      "幬": 2097,
      "干": 2098,
      "平": 2099,
      "年": 2100,
      "幷": 2101,
      "幸": 2102,
      "幹": 2103,
      "幻": 2104,
      "幼": 2105,
      "幽": 2106,
      "幾": 2107,
      "广": 2108,
      "庄": 2109,
      "庇": 2110,
      "床": 2111,
      "庌": 2112,
      "序": 2113,
      "底": 2114,
      "庖": 2115,
      "店": 2116,
      "庚": 2117,
      "庛": 2118,
      "府": 2119,
      "庠": 2120,
      "庤": 2121,
      "庥": 2122,
      "度": 2123,
      "座": 2124,
      "庫": 2125,
      "庭": 2126,
      "庳": 2127,
      "庵": 2128,
      "庶": 2129,
      "康": 2130,
      "庸": 2131,
      "庾": 2132,
      "廂": 2133,
      "廈": 2134,
      "廉": 2135,
      "廊": 2136,
      "廋": 2137,
      "廏": 2138,
      "廐": 2139,
      "廓": 2140,
      "廕": 2141,
      "廖": 2142,
      "廚": 2143,
      "廛": 2144,
      "廝": 2145,
      "廟": 2146,
      "廠": 2147,
      "廡": 2148,
      "廢": 2149,
      "廣": 2150,
      "廨": 2151,
      "廩": 2152,
      "廪": 2153,
      "廬": 2154,
      "廲": 2155,
      "廳": 2156,
      "廵": 2157,
      "延": 2158,
      "廷": 2159,
      "廸": 2160,
      "建": 2161,
      "廻": 2162,
      "廼": 2163,
      "廿": 2164,
      "弁": 2165,
      "异": 2166,
      "弃": 2167,
      "弄": 2168,
      "弇": 2169,
      "弊": 2170,
      "弋": 2171,
      "式": 2172,
      "弑": 2173,
      "弓": 2174,
      "弔": 2175,
      "引": 2176,
      "弗": 2177,
      "弘": 2178,
      "弛": 2179,
      "弟": 2180,
      "弦": 2181,
      "弧": 2182,
      "弩": 2183,
      "弭": 2184,
      "弱": 2185,
      "張": 2186,
      "強": 2187,
      "弸": 2188,
      "强": 2189,
      "弻": 2190,
      "弼": 2191,
      "彀": 2192,
      "彈": 2193,
      "彊": 2194,
      "彌": 2195,
      "彎": 2196,
      "彗": 2197,
      "彘": 2198,
      "彙": 2199,
      "彛": 2200,
      "彝": 2201,
      "形": 2202,
      "彤": 2203,
      "彥": 2204,
      "彦": 2205,
      "彧": 2206,
      "彩": 2207,
      "彪": 2208,
      "彫": 2209,
      "彬": 2210,
      "彭": 2211,
      "彰": 2212,
      "影": 2213,
      "彳": 2214,
      "彷": 2215,
      "役": 2216,
      "彼": 2217,
      "彿": 2218,
      "往": 2219,
      "征": 2220,
      "徂": 2221,
      "徃": 2222,
      "待": 2223,
      "徇": 2224,
      "很": 2225,
      "徉": 2226,
      "徊": 2227,
      "律": 2228,
      "後": 2229,
      "徐": 2230,
      "徑": 2231,
      "徒": 2232,
      "得": 2233,
      "徘": 2234,
      "徙": 2235,
      "徛": 2236,
      "徜": 2237,
      "從": 2238,
      "徠": 2239,
      "御": 2240,
      "徧": 2241,
      "徨": 2242,
      "復": 2243,
      "循": 2244,
      "微": 2245,
      "徴": 2246,
      "徵": 2247,
      "德": 2248,
      "徹": 2249,
      "徼": 2250,
      "徽": 2251,
      "徾": 2252,
      "心": 2253,
      "必": 2254,
      "忉": 2255,
      "忌": 2256,
      "忍": 2257,
      "忒": 2258,
      "忓": 2259,
      "忖": 2260,
      "志": 2261,
      "忘": 2262,
      "忙": 2263,
      "忝": 2264,
      "忠": 2265,
      "忡": 2266,
      "忤": 2267,
      "忨": 2268,
      "快": 2269,
      "忭": 2270,
      "忮": 2271,
      "忱": 2272,
      "忴": 2273,
      "念": 2274,
      "忸": 2275,
      "忻": 2276,
      "忽": 2277,
      "忿": 2278,
      "怊": 2279,
      "怍": 2280,
      "怎": 2281,
      "怏": 2282,
      "怒": 2283,
      "怔": 2284,
      "怕": 2285,
      "怖": 2286,
      "怙": 2287,
      "怛": 2288,
      "怜": 2289,
      "思": 2290,
      "怠": 2291,
      "怡": 2292,
      "急": 2293,
      "怦": 2294,
      "性": 2295,
      "怨": 2296,
      "怩": 2297,
      "怪": 2298,
      "怫": 2299,
      "怭": 2300,
      "怯": 2301,
      "怱": 2302,
      "怲": 2303,
      "怳": 2304,
      "怵": 2305,
      "恀": 2306,
      "恁": 2307,
      "恃": 2308,
      "恅": 2309,
      "恆": 2310,
      "恊": 2311,
      "恍": 2312,
      "恐": 2313,
      "恒": 2314,
      "恕": 2315,
      "恙": 2316,
      "恚": 2317,
      "恝": 2318,
      "恟": 2319,
      "恠": 2320,
      "恢": 2321,
      "恣": 2322,
      "恤": 2323,
      "恥": 2324,
      "恧": 2325,
      "恨": 2326,
      "恩": 2327,
      "恪": 2328,
      "恫": 2329,
      "恬": 2330,
      "恭": 2331,
      "息": 2332,
      "恰": 2333,
      "悃": 2334,
      "悄": 2335,
      "悅": 2336,
      "悈": 2337,
      "悉": 2338,
      "悌": 2339,
      "悍": 2340,
      "悎": 2341,
      "悒": 2342,
      "悔": 2343,
      "悕": 2344,
      "悖": 2345,
      "悚": 2346,
      "悛": 2347,
      "悝": 2348,
      "悞": 2349,
      "悟": 2350,
      "悠": 2351,
      "患": 2352,
      "悤": 2353,
      "悧": 2354,
      "悰": 2355,
      "悱": 2356,
      "悲": 2357,
      "悳": 2358,
      "悴": 2359,
      "悵": 2360,
      "悶": 2361,
      "悸": 2362,
      "悻": 2363,
      "悼": 2364,
      "悽": 2365,
      "情": 2366,
      "惆": 2367,
      "惇": 2368,
      "惋": 2369,
      "惑": 2370,
      "惓": 2371,
      "惕": 2372,
      "惘": 2373,
      "惙": 2374,
      "惚": 2375,
      "惛": 2376,
      "惜": 2377,
      "惝": 2378,
      "惟": 2379,
      "惠": 2380,
      "惡": 2381,
      "惣": 2382,
      "惥": 2383,
      "惧": 2384,
      "惰": 2385,
      "惱": 2386,
      "想": 2387,
      "惴": 2388,
      "惶": 2389,
      "惸": 2390,
      "惹": 2391,
      "惺": 2392,
      "惻": 2393,
      "愀": 2394,
      "愁": 2395,
      "愆": 2396,
      "愈": 2397,
      "愉": 2398,
      "愍": 2399,
      "愎": 2400,
      "意": 2401,
      "愒": 2402,
      "愓": 2403,
      "愕": 2404,
      "愖": 2405,
      "愚": 2406,
      "愛": 2407,
      "愜": 2408,
      "感": 2409,
      "愧": 2410,
      "愬": 2411,
      "愴": 2412,
      "愷": 2413,
      "愼": 2414,
      "愽": 2415,
      "愾": 2416,
      "愿": 2417,
      "慂": 2418,
      "慄": 2419,
      "慇": 2420,
      "慈": 2421,
      "慊": 2422,
      "態": 2423,
      "慌": 2424,
      "慍": 2425,
      "慓": 2426,
      "慕": 2427,
      "慘": 2428,
      "慙": 2429,
      "慚": 2430,
      "慛": 2431,
      "慝": 2432,
      "慟": 2433,
      "慢": 2434,
      "慣": 2435,
      "慤": 2436,
      "慥": 2437,
      "慧": 2438,
      "慨": 2439,
      "慫": 2440,
      "慬": 2441,
      "慮": 2442,
      "慰": 2443,
      "慱": 2444,
      "慳": 2445,
      "慴": 2446,
      "慵": 2447,
      "慶": 2448,
      "慷": 2449,
      "慹": 2450,
      "慼": 2451,
      "慽": 2452,
      "慾": 2453,
      "慿": 2454,
      "憁": 2455,
      "憂": 2456,
      "憇": 2457,
      "憈": 2458,
      "憊": 2459,
      "憍": 2460,
      "憎": 2461,
      "憐": 2462,
      "憑": 2463,
      "憒": 2464,
      "憔": 2465,
      "憖": 2466,
      "憙": 2467,
      "憚": 2468,
      "憜": 2469,
      "憤": 2470,
      "憧": 2471,
      "憨": 2472,
      "憩": 2473,
      "憫": 2474,
      "憬": 2475,
      "憮": 2476,
      "憲": 2477,
      "憶": 2478,
      "憺": 2479,
      "憾": 2480,
      "懃": 2481,
      "懇": 2482,
      "懈": 2483,
      "應": 2484,
      "懊": 2485,
      "懋": 2486,
      "懍": 2487,
      "懐": 2488,
      "懞": 2489,
      "懟": 2490,
      "懣": 2491,
      "懦": 2492,
      "懮": 2493,
      "懲": 2494,
      "懵": 2495,
      "懶": 2496,
      "懷": 2497,
      "懸": 2498,
      "懹": 2499,
      "懺": 2500,
      "懼": 2501,
      "懽": 2502,
      "懾": 2503,
      "懿": 2504,
      "戀": 2505,
      "戇": 2506,
      "戈": 2507,
      "戊": 2508,
      "戌": 2509,
      "戍": 2510,
      "戎": 2511,
      "成": 2512,
      "我": 2513,
      "戒": 2514,
      "戔": 2515,
      "戕": 2516,
      "或": 2517,
      "戚": 2518,
      "戛": 2519,
      "戞": 2520,
      "戟": 2521,
      "戡": 2522,
      "戢": 2523,
      "截": 2524,
      "戮": 2525,
      "戯": 2526,
      "戰": 2527,
      "戱": 2528,
      "戲": 2529,
      "戴": 2530,
      "戶": 2531,
      "戹": 2532,
      "戻": 2533,
      "戾": 2534,
      "房": 2535,
      "所": 2536,
      "扁": 2537,
      "扃": 2538,
      "扅": 2539,
      "扇": 2540,
      "扈": 2541,
      "扉": 2542,
      "扊": 2543,
      "手": 2544,
      "才": 2545,
      "扎": 2546,
      "扑": 2547,
      "打": 2548,
      "托": 2549,
      "扙": 2550,
      "扛": 2551,
      "扜": 2552,
      "扞": 2553,
      "扢": 2554,
      "扣": 2555,
      "扥": 2556,
      "扨": 2557,
      "扭": 2558,
      "扮": 2559,
      "扯": 2560,
      "扱": 2561,
      "扳": 2562,
      "扶": 2563,
      "批": 2564,
      "扺": 2565,
      "扼": 2566,
      "承": 2567,
      "技": 2568,
      "抃": 2569,
      "抄": 2570,
      "抅": 2571,
      "抆": 2572,
      "抉": 2573,
      "把": 2574,
      "抑": 2575,
      "抒": 2576,
      "抓": 2577,
      "抔": 2578,
      "投": 2579,
      "抖": 2580,
      "抗": 2581,
      "折": 2582,
      "抛": 2583,
      "抜": 2584,
      "披": 2585,
      "抬": 2586,
      "抯": 2587,
      "抱": 2588,
      "抳": 2589,
      "抵": 2590,
      "抹": 2591,
      "抺": 2592,
      "押": 2593,
      "抽": 2594,
      "拂": 2595,
      "担": 2596,
      "拆": 2597,
      "拇": 2598,
      "拈": 2599,
      "拉": 2600,
      "拊": 2601,
      "拌": 2602,
      "拍": 2603,
      "拏": 2604,
      "拑": 2605,
      "拒": 2606,
      "拓": 2607,
      "拔": 2608,
      "拕": 2609,
      "拖": 2610,
      "拗": 2611,
      "拘": 2612,
      "拙": 2613,
      "拚": 2614,
      "招": 2615,
      "拜": 2616,
      "括": 2617,
      "拭": 2618,
      "拮": 2619,
      "拯": 2620,
      "拱": 2621,
      "拳": 2622,
      "拶": 2623,
      "拷": 2624,
      "拾": 2625,
      "拿": 2626,
      "持": 2627,
      "挂": 2628,
      "指": 2629,
      "挈": 2630,
      "按": 2631,
      "挌": 2632,
      "挐": 2633,
      "挑": 2634,
      "挖": 2635,
      "挪": 2636,
      "挫": 2637,
      "振": 2638,
      "挲": 2639,
      "挹": 2640,
      "挺": 2641,
      "挻": 2642,
      "挽": 2643,
      "挾": 2644,
      "挿": 2645,
      "捄": 2646,
      "捆": 2647,
      "捉": 2648,
      "捌": 2649,
      "捍": 2650,
      "捏": 2651,
      "捐": 2652,
      "捒": 2653,
      "捕": 2654,
      "捗": 2655,
      "捧": 2656,
      "捨": 2657,
      "捩": 2658,
      "捫": 2659,
      "据": 2660,
      "捱": 2661,
      "捲": 2662,
      "捴": 2663,
      "捶": 2664,
      "捷": 2665,
      "捺": 2666,
      "捻": 2667,
      "捽": 2668,
      "捿": 2669,
      "掀": 2670,
      "掃": 2671,
      "掇": 2672,
      "授": 2673,
      "掉": 2674,
      "掊": 2675,
      "掌": 2676,
      "掎": 2677,
      "排": 2678,
      "掖": 2679,
      "掘": 2680,
      "掙": 2681,
      "掛": 2682,
      "掠": 2683,
      "採": 2684,
      "探": 2685,
      "掣": 2686,
      "接": 2687,
      "掦": 2688,
      "控": 2689,
      "推": 2690,
      "掩": 2691,
      "措": 2692,
      "掬": 2693,
      "掲": 2694,
      "掾": 2695,
      "揀": 2696,
      "揁": 2697,
      "揄": 2698,
      "揆": 2699,
      "揉": 2700,
      "描": 2701,
      "提": 2702,
      "揑": 2703,
      "揖": 2704,
      "揚": 2705,
      "換": 2706,
      "揜": 2707,
      "揠": 2708,
      "握": 2709,
      "揣": 2710,
      "揩": 2711,
      "揪": 2712,
      "揭": 2713,
      "揮": 2714,
      "援": 2715,
      "揵": 2716,
      "揶": 2717,
      "揷": 2718,
      "搆": 2719,
      "搊": 2720,
      "損": 2721,
      "搏": 2722,
      "搐": 2723,
      "搓": 2724,
      "搔": 2725,
      "搖": 2726,
      "搗": 2727,
      "搜": 2728,
      "搢": 2729,
      "搥": 2730,
      "搦": 2731,
      "搨": 2732,
      "搪": 2733,
      "搬": 2734,
      "搭": 2735,
      "搰": 2736,
      "搴": 2737,
      "搶": 2738,
      "携": 2739,
      "搾": 2740,
      "摑": 2741,
      "摒": 2742,
      "摘": 2743,
      "摚": 2744,
      "摞": 2745,
      "摟": 2746,
      "摠": 2747,
      "摧": 2748,
      "摩": 2749,
      "摭": 2750,
      "摯": 2751,
      "摳": 2752,
      "摴": 2753,
      "摶": 2754,
      "摸": 2755,
      "摹": 2756,
      "摺": 2757,
      "摻": 2758,
      "撈": 2759,
      "撐": 2760,
      "撑": 2761,
      "撒": 2762,
      "撓": 2763,
      "撕": 2764,
      "撖": 2765,
      "撗": 2766,
      "撙": 2767,
      "撚": 2768,
      "撝": 2769,
      "撞": 2770,
      "撤": 2771,
      "撥": 2772,
      "撦": 2773,
      "撨": 2774,
      "撩": 2775,
      "撫": 2776,
      "播": 2777,
      "撮": 2778,
      "撰": 2779,
      "撲": 2780,
      "撻": 2781,
      "撼": 2782,
      "撽": 2783,
      "撾": 2784,
      "撿": 2785,
      "擀": 2786,
      "擁": 2787,
      "擂": 2788,
      "擄": 2789,
      "擅": 2790,
      "擇": 2791,
      "擈": 2792,
      "擊": 2793,
      "擋": 2794,
      "操": 2795,
      "擎": 2796,
      "擒": 2797,
      "擔": 2798,
      "擗": 2799,
      "擘": 2800,
      "據": 2801,
      "擠": 2802,
      "擡": 2803,
      "擢": 2804,
      "擣": 2805,
      "擥": 2806,
      "擦": 2807,
      "擧": 2808,
      "擩": 2809,
      "擬": 2810,
      "擭": 2811,
      "擯": 2812,
      "擱": 2813,
      "擲": 2814,
      "擴": 2815,
      "擺": 2816,
      "擻": 2817,
      "擾": 2818,
      "擿": 2819,
      "攀": 2820,
      "攃": 2821,
      "攄": 2822,
      "攏": 2823,
      "攔": 2824,
      "攖": 2825,
      "攘": 2826,
      "攙": 2827,
      "攛": 2828,
      "攝": 2829,
      "攢": 2830,
      "攣": 2831,
      "攤": 2832,
      "攧": 2833,
      "攪": 2834,
      "攫": 2835,
      "攬": 2836,
      "支": 2837,
      "攲": 2838,
      "攴": 2839,
      "收": 2840,
      "攷": 2841,
      "攸": 2842,
      "改": 2843,
      "攺": 2844,
      "攻": 2845,
      "放": 2846,
      "政": 2847,
      "故": 2848,
      "效": 2849,
      "敊": 2850,
      "敍": 2851,
      "敎": 2852,
      "敏": 2853,
      "救": 2854,
      "敕": 2855,
      "敖": 2856,
      "敗": 2857,
      "教": 2858,
      "敝": 2859,
      "敞": 2860,
      "敢": 2861,
      "散": 2862,
      "敦": 2863,
      "敬": 2864,
      "敭": 2865,
      "敲": 2866,
      "整": 2867,
      "敵": 2868,
      "敷": 2869,
      "數": 2870,
      "斁": 2871,
      "斂": 2872,
      "斃": 2873,
      "斅": 2874,
      "斆": 2875,
      "文": 2876,
      "斌": 2877,
      "斐": 2878,
      "斑": 2879,
      "斕": 2880,
      "斗": 2881,
      "料": 2882,
      "斛": 2883,
      "斜": 2884,
      "斟": 2885,
      "斡": 2886,
      "斤": 2887,
      "斥": 2888,
      "斧": 2889,
      "斨": 2890,
      "斫": 2891,
      "斬": 2892,
      "斮": 2893,
      "斯": 2894,
      "新": 2895,
      "斲": 2896,
      "斵": 2897,
      "斷": 2898,
      "方": 2899,
      "於": 2900,
      "施": 2901,
      "旁": 2902,
      "旂": 2903,
      "旃": 2904,
      "旄": 2905,
      "旅": 2906,
      "旆": 2907,
      "旊": 2908,
      "旋": 2909,
      "旌": 2910,
      "族": 2911,
      "旒": 2912,
      "旗": 2913,
      "旟": 2914,
      "无": 2915,
      "旡": 2916,
      "旣": 2917,
      "日": 2918,
      "旦": 2919,
      "旨": 2920,
      "早": 2921,
      "旬": 2922,
      "旭": 2923,
      "旰": 2924,
      "旱": 2925,
      "旲": 2926,
      "旴": 2927,
      "时": 2928,
      "旹": 2929,
      "旺": 2930,
      "旻": 2931,
      "旽": 2932,
      "旿": 2933,
      "昂": 2934,
      "昃": 2935,
      "昆": 2936,
      "昇": 2937,
      "昉": 2938,
      "昊": 2939,
      "昌": 2940,
      "明": 2941,
      "昏": 2942,
      "昑": 2943,
      "易": 2944,
      "昔": 2945,
      "昕": 2946,
      "昜": 2947,
      "昞": 2948,
      "星": 2949,
      "映": 2950,
      "春": 2951,
      "昧": 2952,
      "昨": 2953,
      "昩": 2954,
      "昭": 2955,
      "是": 2956,
      "昱": 2957,
      "昴": 2958,
      "昵": 2959,
      "昶": 2960,
      "昷": 2961,
      "昹": 2962,
      "昺": 2963,
      "昻": 2964,
      "時": 2965,
      "晃": 2966,
      "晅": 2967,
      "晉": 2968,
      "晋": 2969,
      "晌": 2970,
      "晏": 2971,
      "晒": 2972,
      "晙": 2973,
      "晚": 2974,
      "晝": 2975,
      "晞": 2976,
      "晟": 2977,
      "晡": 2978,
      "晢": 2979,
      "晣": 2980,
      "晤": 2981,
      "晥": 2982,
      "晦": 2983,
      "晧": 2984,
      "晨": 2985,
      "晩": 2986,
      "晬": 2987,
      "普": 2988,
      "景": 2989,
      "晰": 2990,
      "晳": 2991,
      "晴": 2992,
      "晶": 2993,
      "晷": 2994,
      "智": 2995,
      "晿": 2996,
      "暄": 2997,
      "暆": 2998,
      "暇": 2999,
      "暈": 3000,
      "暉": 3001,
      "暋": 3002,
      "暍": 3003,
      "暎": 3004,
      "暏": 3005,
      "暑": 3006,
      "暖": 3007,
      "暗": 3008,
      "暘": 3009,
      "暝": 3010,
      "暢": 3011,
      "暪": 3012,
      "暫": 3013,
      "暮": 3014,
      "暴": 3015,
      "暵": 3016,
      "暸": 3017,
      "暹": 3018,
      "暻": 3019,
      "暾": 3020,
      "曀": 3021,
      "曁": 3022,
      "曄": 3023,
      "曆": 3024,
      "曇": 3025,
      "曉": 3026,
      "曖": 3027,
      "曙": 3028,
      "曚": 3029,
      "曛": 3030,
      "曜": 3031,
      "曝": 3032,
      "曠": 3033,
      "曢": 3034,
      "曦": 3035,
      "曩": 3036,
      "曬": 3037,
      "曭": 3038,
      "曯": 3039,
      "曰": 3040,
      "曲": 3041,
      "曳": 3042,
      "更": 3043,
      "曷": 3044,
      "書": 3045,
      "曹": 3046,
      "曺": 3047,
      "曼": 3048,
      "曾": 3049,
      "替": 3050,
      "最": 3051,
      "會": 3052,
      "月": 3053,
      "有": 3054,
      "朋": 3055,
      "服": 3056,
      "朒": 3057,
      "朔": 3058,
      "朕": 3059,
      "朗": 3060,
      "望": 3061,
      "朝": 3062,
      "朞": 3063,
      "期": 3064,
      "朣": 3065,
      "朦": 3066,
      "朧": 3067,
      "木": 3068,
      "未": 3069,
      "末": 3070,
      "本": 3071,
      "札": 3072,
      "朮": 3073,
      "朱": 3074,
      "朴": 3075,
      "朵": 3076,
      "朶": 3077,
      "机": 3078,
      "朽": 3079,
      "朿": 3080,
      "杆": 3081,
      "杇": 3082,
      "杈": 3083,
      "杉": 3084,
      "杋": 3085,
      "杌": 3086,
      "李": 3087,
      "杏": 3088,
      "材": 3089,
      "村": 3090,
      "杓": 3091,
      "杖": 3092,
      "杙": 3093,
      "杜": 3094,
      "杞": 3095,
      "束": 3096,
      "杠": 3097,
      "条": 3098,
      "杤": 3099,
      "杪": 3100,
      "杫": 3101,
      "杭": 3102,
      "杮": 3103,
      "杯": 3104,
      "杰": 3105,
      "東": 3106,
      "杳": 3107,
      "杵": 3108,
      "杶": 3109,
      "杷": 3110,
      "杻": 3111,
      "杼": 3112,
      "松": 3113,
      "板": 3114,
      "枇": 3115,
      "枉": 3116,
      "枋": 3117,
      "枌": 3118,
      "析": 3119,
      "枒": 3120,
      "枓": 3121,
      "枕": 3122,
      "林": 3123,
      "枘": 3124,
      "枚": 3125,
      "果": 3126,
      "枝": 3127,
      "枯": 3128,
      "枰": 3129,
      "枲": 3130,
      "枳": 3131,
      "枵": 3132,
      "架": 3133,
      "枷": 3134,
      "枸": 3135,
      "枺": 3136,
      "柁": 3137,
      "柄": 3138,
      "柏": 3139,
      "某": 3140,
      "柑": 3141,
      "柒": 3142,
      "染": 3143,
      "柔": 3144,
      "柘": 3145,
      "柚": 3146,
      "柝": 3147,
      "柞": 3148,
      "柟": 3149,
      "柢": 3150,
      "柩": 3151,
      "柬": 3152,
      "柯": 3153,
      "柰": 3154,
      "柱": 3155,
      "柳": 3156,
      "柴": 3157,
      "柵": 3158,
      "柶": 3159,
      "柹": 3160,
      "査": 3161,
      "柿": 3162,
      "栃": 3163,
      "栅": 3164,
      "栓": 3165,
      "栖": 3166,
      "栗": 3167,
      "栞": 3168,
      "校": 3169,
      "栢": 3170,
      "栩": 3171,
      "株": 3172,
      "栫": 3173,
      "栱": 3174,
      "栲": 3175,
      "核": 3176,
      "根": 3177,
      "格": 3178,
      "栽": 3179,
      "桀": 3180,
      "桁": 3181,
      "桂": 3182,
      "桃": 3183,
      "桅": 3184,
      "案": 3185,
      "桌": 3186,
      "桎": 3187,
      "桐": 3188,
      "桑": 3189,
      "桓": 3190,
      "桔": 3191,
      "桭": 3192,
      "桮": 3193,
      "桲": 3194,
      "桴": 3195,
      "桶": 3196,
      "桷": 3197,
      "桹": 3198,
      "桿": 3199,
      "梁": 3200,
      "梃": 3201,
      "梅": 3202,
      "梌": 3203,
      "梏": 3204,
      "梓": 3205,
      "梔": 3206,
      "梗": 3207,
      "條": 3208,
      "梟": 3209,
      "梡": 3210,
      "梢": 3211,
      "梣": 3212,
      "梧": 3213,
      "梨": 3214,
      "梭": 3215,
      "梯": 3216,
      "械": 3217,
      "梱": 3218,
      "梳": 3219,
      "梵": 3220,
      "梶": 3221,
      "棄": 3222,
      "棅": 3223,
      "棉": 3224,
      "棊": 3225,
      "棋": 3226,
      "棍": 3227,
      "棑": 3228,
      "棒": 3229,
      "棕": 3230,
      "棗": 3231,
      "棘": 3232,
      "棙": 3233,
      "棚": 3234,
      "棜": 3235,
      "棟": 3236,
      "棠": 3237,
      "棧": 3238,
      "棨": 3239,
      "棬": 3240,
      "森": 3241,
      "棲": 3242,
      "棹": 3243,
      "棺": 3244,
      "椀": 3245,
      "椅": 3246,
      "椌": 3247,
      "植": 3248,
      "椎": 3249,
      "椏": 3250,
      "椐": 3251,
      "椒": 3252,
      "椰": 3253,
      "椳": 3254,
      "椵": 3255,
      "椶": 3256,
      "椹": 3257,
      "椻": 3258,
      "椽": 3259,
      "椿": 3260,
      "楂": 3261,
      "楅": 3262,
      "楉": 3263,
      "楊": 3264,
      "楓": 3265,
      "楔": 3266,
      "楕": 3267,
      "楗": 3268,
      "楙": 3269,
      "楚": 3270,
      "楛": 3271,
      "楝": 3272,
      "楞": 3273,
      "楠": 3274,
      "楡": 3275,
      "楢": 3276,
      "楣": 3277,
      "楥": 3278,
      "楦": 3279,
      "楨": 3280,
      "楩": 3281,
      "楫": 3282,
      "業": 3283,
      "楮": 3284,
      "楯": 3285,
      "極": 3286,
      "楷": 3287,
      "楸": 3288,
      "楹": 3289,
      "榁": 3290,
      "榊": 3291,
      "榎": 3292,
      "榔": 3293,
      "榕": 3294,
      "榛": 3295,
      "榜": 3296,
      "榟": 3297,
      "榦": 3298,
      "榧": 3299,
      "榨": 3300,
      "榫": 3301,
      "榭": 3302,
      "榮": 3303,
      "榱": 3304,
      "榲": 3305,
      "榴": 3306,
      "榷": 3307,
      "榻": 3308,
      "榼": 3309,
      "槀": 3310,
      "槁": 3311,
      "槃": 3312,
      "槄": 3313,
      "槇": 3314,
      "槊": 3315,
      "構": 3316,
      "槌": 3317,
      "槍": 3318,
      "槎": 3319,
      "槐": 3320,
      "槓": 3321,
      "槖": 3322,
      "様": 3323,
      "槥": 3324,
      "槧": 3325,
      "槨": 3326,
      "槩": 3327,
      "槪": 3328,
      "槲": 3329,
      "槳": 3330,
      "槶": 3331,
      "槻": 3332,
      "槽": 3333,
      "槿": 3334,
      "樂": 3335,
      "樅": 3336,
      "樆": 3337,
      "樊": 3338,
      "樋": 3339,
      "樍": 3340,
      "樑": 3341,
      "樓": 3342,
      "樗": 3343,
      "標": 3344,
      "樞": 3345,
      "樟": 3346,
      "模": 3347,
      "樣": 3348,
      "樫": 3349,
      "樵": 3350,
      "樸": 3351,
      "樹": 3352,
      "樺": 3353,
      "樻": 3354,
      "樽": 3355,
      "樾": 3356,
      "橄": 3357,
      "橇": 3358,
      "橈": 3359,
      "橊": 3360,
      "橋": 3361,
      "橐": 3362,
      "橘": 3363,
      "橙": 3364,
      "機": 3365,
      "橡": 3366,
      "橢": 3367,
      "橧": 3368,
      "橫": 3369,
      "橰": 3370,
      "橽": 3371,
      "橿": 3372,
      "檀": 3373,
      "檃": 3374,
      "檄": 3375,
      "檉": 3376,
      "檍": 3377,
      "檎": 3378,
      "檜": 3379,
      "檝": 3380,
      "檞": 3381,
      "檟": 3382,
      "檡": 3383,
      "檢": 3384,
      "檣": 3385,
      "檮": 3386,
      "檳": 3387,
      "檻": 3388,
      "櫂": 3389,
      "櫃": 3390,
      "櫊": 3391,
      "櫓": 3392,
      "櫚": 3393,
      "櫛": 3394,
      "櫝": 3395,
      "櫞": 3396,
      "櫟": 3397,
      "櫧": 3398,
      "櫨": 3399,
      "櫪": 3400,
      "櫬": 3401,
      "櫲": 3402,
      "櫶": 3403,
      "櫸": 3404,
      "櫺": 3405,
      "櫻": 3406,
      "櫽": 3407,
      "欃": 3408,
      "欄": 3409,
      "欅": 3410,
      "權": 3411,
      "欌": 3412,
      "欑": 3413,
      "欒": 3414,
      "欕": 3415,
      "欖": 3416,
      "欛": 3417,
      "欝": 3418,
      "欞": 3419,
      "欠": 3420,
      "次": 3421,
      "欣": 3422,
      "欫": 3423,
      "欲": 3424,
      "欵": 3425,
      "欶": 3426,
      "欷": 3427,
      "欸": 3428,
      "欹": 3429,
      "欺": 3430,
      "欽": 3431,
      "款": 3432,
      "歃": 3433,
      "歆": 3434,
      "歇": 3435,
      "歉": 3436,
      "歌": 3437,
      "歎": 3438,
      "歐": 3439,
      "歔": 3440,
      "歛": 3441,
      "歟": 3442,
      "歠": 3443,
      "歡": 3444,
      "止": 3445,
      "正": 3446,
      "此": 3447,
      "步": 3448,
      "武": 3449,
      "歧": 3450,
      "歪": 3451,
      "歲": 3452,
      "歷": 3453,
      "歸": 3454,
      "歹": 3455,
      "死": 3456,
      "歿": 3457,
      "殂": 3458,
      "殃": 3459,
      "殄": 3460,
      "殆": 3461,
      "殉": 3462,
      "殊": 3463,
      "殖": 3464,
      "殘": 3465,
      "殛": 3466,
      "殞": 3467,
      "殤": 3468,
      "殨": 3469,
      "殪": 3470,
      "殫": 3471,
      "殭": 3472,
      "殮": 3473,
      "殯": 3474,
      "殱": 3475,
      "殲": 3476,
      "殳": 3477,
      "段": 3478,
      "殷": 3479,
      "殺": 3480,
      "殻": 3481,
      "殼": 3482,
      "殿": 3483,
      "毀": 3484,
      "毁": 3485,
      "毅": 3486,
      "毆": 3487,
      "毋": 3488,
      "毌": 3489,
      "母": 3490,
      "每": 3491,
      "毒": 3492,
      "毓": 3493,
      "比": 3494,
      "毖": 3495,
      "毗": 3496,
      "毘": 3497,
      "毛": 3498,
      "毦": 3499,
      "毫": 3500,
      "毬": 3501,
      "毳": 3502,
      "毹": 3503,
      "毿": 3504,
      "氄": 3505,
      "氅": 3506,
      "氈": 3507,
      "氍": 3508,
      "氏": 3509,
      "氐": 3510,
      "民": 3511,
      "氓": 3512,
      "氛": 3513,
      "氣": 3514,
      "氤": 3515,
      "氳": 3516,
      "水": 3517,
      "氷": 3518,
      "永": 3519,
      "氾": 3520,
      "汀": 3521,
      "汁": 3522,
      "求": 3523,
      "汉": 3524,
      "汎": 3525,
      "汐": 3526,
      "汔": 3527,
      "汕": 3528,
      "汗": 3529,
      "汙": 3530,
      "汚": 3531,
      "汛": 3532,
      "汝": 3533,
      "汞": 3534,
      "江": 3535,
      "池": 3536,
      "汧": 3537,
      "汨": 3538,
      "汩": 3539,
      "汪": 3540,
      "汰": 3541,
      "汲": 3542,
      "汴": 3543,
      "汶": 3544,
      "決": 3545,
      "汽": 3546,
      "汾": 3547,
      "沁": 3548,
      "沂": 3549,
      "沃": 3550,
      "沅": 3551,
      "沆": 3552,
      "沇": 3553,
      "沈": 3554,
      "沉": 3555,
      "沌": 3556,
      "沍": 3557,
      "沏": 3558,
      "沐": 3559,
      "沒": 3560,
      "沓": 3561,
      "沔": 3562,
      "沖": 3563,
      "沗": 3564,
      "沘": 3565,
      "沙": 3566,
      "沚": 3567,
      "沛": 3568,
      "沠": 3569,
      "沫": 3570,
      "沬": 3571,
      "沭": 3572,
      "沮": 3573,
      "沱": 3574,
      "河": 3575,
      "沴": 3576,
      "沸": 3577,
      "油": 3578,
      "治": 3579,
      "沼": 3580,
      "沽": 3581,
      "沾": 3582,
      "沿": 3583,
      "況": 3584,
      "泂": 3585,
      "泃": 3586,
      "泄": 3587,
      "泆": 3588,
      "泉": 3589,
      "泊": 3590,
      "泌": 3591,
      "泐": 3592,
      "泒": 3593,
      "泓": 3594,
      "泔": 3595,
      "法": 3596,
      "泗": 3597,
      "泚": 3598,
      "泛": 3599,
      "泠": 3600,
      "泡": 3601,
      "波": 3602,
      "泣": 3603,
      "泥": 3604,
      "注": 3605,
      "泩": 3606,
      "泪": 3607,
      "泫": 3608,
      "泮": 3609,
      "泯": 3610,
      "泰": 3611,
      "泱": 3612,
      "泳": 3613,
      "洉": 3614,
      "洋": 3615,
      "洌": 3616,
      "洎": 3617,
      "洏": 3618,
      "洑": 3619,
      "洒": 3620,
      "洗": 3621,
      "洙": 3622,
      "洛": 3623,
      "洞": 3624,
      "津": 3625,
      "洧": 3626,
      "洩": 3627,
      "洪": 3628,
      "洫": 3629,
      "洮": 3630,
      "洲": 3631,
      "洳": 3632,
      "洵": 3633,
      "洶": 3634,
      "洸": 3635,
      "洹": 3636,
      "活": 3637,
      "洽": 3638,
      "派": 3639,
      "流": 3640,
      "浊": 3641,
      "浙": 3642,
      "浚": 3643,
      "浡": 3644,
      "浣": 3645,
      "浥": 3646,
      "浦": 3647,
      "浩": 3648,
      "浪": 3649,
      "浬": 3650,
      "浮": 3651,
      "浯": 3652,
      "浴": 3653,
      "海": 3654,
      "浸": 3655,
      "浹": 3656,
      "浼": 3657,
      "浿": 3658,
      "涅": 3659,
      "涇": 3660,
      "消": 3661,
      "涉": 3662,
      "涊": 3663,
      "涌": 3664,
      "涎": 3665,
      "涓": 3666,
      "涕": 3667,
      "涖": 3668,
      "涘": 3669,
      "涙": 3670,
      "涥": 3671,
      "涬": 3672,
      "涮": 3673,
      "涯": 3674,
      "液": 3675,
      "涵": 3676,
      "涸": 3677,
      "涼": 3678,
      "涿": 3679,
      "淀": 3680,
      "淃": 3681,
      "淄": 3682,
      "淅": 3683,
      "淆": 3684,
      "淇": 3685,
      "淊": 3686,
      "淋": 3687,
      "淍": 3688,
      "淑": 3689,
      "淒": 3690,
      "淖": 3691,
      "淘": 3692,
      "淙": 3693,
      "淚": 3694,
      "淞": 3695,
      "淡": 3696,
      "淤": 3697,
      "淨": 3698,
      "淩": 3699,
      "淪": 3700,
      "淫": 3701,
      "淬": 3702,
      "淮": 3703,
      "深": 3704,
      "淲": 3705,
      "淳": 3706,
      "淵": 3707,
      "混": 3708,
      "淸": 3709,
      "淹": 3710,
      "淺": 3711,
      "添": 3712,
      "淼": 3713,
      "渙": 3714,
      "渚": 3715,
      "減": 3716,
      "渝": 3717,
      "渟": 3718,
      "渠": 3719,
      "渡": 3720,
      "渣": 3721,
      "渤": 3722,
      "渥": 3723,
      "渦": 3724,
      "温": 3725,
      "渫": 3726,
      "測": 3727,
      "渭": 3728,
      "港": 3729,
      "渰": 3730,
      "渴": 3731,
      "渶": 3732,
      "游": 3733,
      "渺": 3734,
      "渻": 3735,
      "渼": 3736,
      "渽": 3737,
      "渾": 3738,
      "湃": 3739,
      "湊": 3740,
      "湍": 3741,
      "湏": 3742,
      "湓": 3743,
      "湔": 3744,
      "湖": 3745,
      "湘": 3746,
      "湛": 3747,
      "湜": 3748,
      "湟": 3749,
      "湥": 3750,
      "湧": 3751,
      "湫": 3752,
      "湮": 3753,
      "湯": 3754,
      "湲": 3755,
      "湳": 3756,
      "湺": 3757,
      "溎": 3758,
      "源": 3759,
      "準": 3760,
      "溘": 3761,
      "溜": 3762,
      "溝": 3763,
      "溟": 3764,
      "溢": 3765,
      "溥": 3766,
      "溧": 3767,
      "溪": 3768,
      "溫": 3769,
      "溯": 3770,
      "溱": 3771,
      "溲": 3772,
      "溶": 3773,
      "溷": 3774,
      "溺": 3775,
      "溽": 3776,
      "滀": 3777,
      "滁": 3778,
      "滂": 3779,
      "滄": 3780,
      "滅": 3781,
      "滉": 3782,
      "滊": 3783,
      "滋": 3784,
      "滌": 3785,
      "滎": 3786,
      "滑": 3787,
      "滓": 3788,
      "滔": 3789,
      "滕": 3790,
      "滖": 3791,
      "滙": 3792,
      "滫": 3793,
      "滬": 3794,
      "滯": 3795,
      "滲": 3796,
      "滴": 3797,
      "滷": 3798,
      "滸": 3799,
      "滹": 3800,
      "滾": 3801,
      "滿": 3802,
      "漁": 3803,
      "漂": 3804,
      "漆": 3805,
      "漉": 3806,
      "漏": 3807,
      "漑": 3808,
      "漓": 3809,
      "演": 3810,
      "漕": 3811,
      "漚": 3812,
      "漠": 3813,
      "漢": 3814,
      "漣": 3815,
      "漩": 3816,
      "漪": 3817,
      "漫": 3818,
      "漬": 3819,
      "漱": 3820,
      "漲": 3821,
      "漳": 3822,
      "漶": 3823,
      "漸": 3824,
      "漾": 3825,
      "漿": 3826,
      "潁": 3827,
      "潏": 3828,
      "潑": 3829,
      "潔": 3830,
      "潘": 3831,
      "潚": 3832,
      "潛": 3833,
      "潜": 3834,
      "潟": 3835,
      "潢": 3836,
      "潤": 3837,
      "潦": 3838,
      "潨": 3839,
      "潭": 3840,
      "潮": 3841,
      "潯": 3842,
      "潰": 3843,
      "潺": 3844,
      "潼": 3845,
      "澀": 3846,
      "澁": 3847,
      "澄": 3848,
      "澆": 3849,
      "澈": 3850,
      "澋": 3851,
      "澌": 3852,
      "澍": 3853,
      "澎": 3854,
      "澐": 3855,
      "澔": 3856,
      "澖": 3857,
      "澗": 3858,
      "澘": 3859,
      "澠": 3860,
      "澡": 3861,
      "澣": 3862,
      "澤": 3863,
      "澦": 3864,
      "澨": 3865,
      "澮": 3866,
      "澱": 3867,
      "澳": 3868,
      "澹": 3869,
      "澾": 3870,
      "激": 3871,
      "濁": 3872,
      "濂": 3873,
      "濃": 3874,
      "濆": 3875,
      "濇": 3876,
      "濈": 3877,
      "濊": 3878,
      "濔": 3879,
      "濕": 3880,
      "濘": 3881,
      "濚": 3882,
      "濛": 3883,
      "濟": 3884,
      "濠": 3885,
      "濡": 3886,
      "濤": 3887,
      "濩": 3888,
      "濫": 3889,
      "濬": 3890,
      "濮": 3891,
      "濯": 3892,
      "濱": 3893,
      "濳": 3894,
      "濵": 3895,
      "濶": 3896,
      "濺": 3897,
      "濾": 3898,
      "瀁": 3899,
      "瀅": 3900,
      "瀆": 3901,
      "瀇": 3902,
      "瀉": 3903,
      "瀋": 3904,
      "瀍": 3905,
      "瀏": 3906,
      "瀑": 3907,
      "瀕": 3908,
      "瀗": 3909,
      "瀘": 3910,
      "瀚": 3911,
      "瀛": 3912,
      "瀜": 3913,
      "瀝": 3914,
      "瀟": 3915,
      "瀠": 3916,
      "瀡": 3917,
      "瀣": 3918,
      "瀦": 3919,
      "瀧": 3920,
      "瀨": 3921,
      "瀰": 3922,
      "瀲": 3923,
      "瀷": 3924,
      "瀹": 3925,
      "瀾": 3926,
      "灌": 3927,
      "灑": 3928,
      "灒": 3929,
      "灔": 3930,
      "灕": 3931,
      "灘": 3932,
      "灜": 3933,
      "灝": 3934,
      "灞": 3935,
      "灣": 3936,
      "火": 3937,
      "灯": 3938,
      "灰": 3939,
      "灸": 3940,
      "灼": 3941,
      "災": 3942,
      "灾": 3943,
      "炊": 3944,
      "炎": 3945,
      "炒": 3946,
      "炕": 3947,
      "炙": 3948,
      "炤": 3949,
      "炫": 3950,
      "炬": 3951,
      "炭": 3952,
      "炮": 3953,
      "炯": 3954,
      "炳": 3955,
      "炷": 3956,
      "炸": 3957,
      "点": 3958,
      "烈": 3959,
      "烏": 3960,
      "烓": 3961,
      "烔": 3962,
      "烘": 3963,
      "烙": 3964,
      "烜": 3965,
      "烝": 3966,
      "烟": 3967,
      "烥": 3968,
      "烱": 3969,
      "烹": 3970,
      "烺": 3971,
      "烽": 3972,
      "焂": 3973,
      "焇": 3974,
      "焉": 3975,
      "焙": 3976,
      "焚": 3977,
      "焜": 3978,
      "無": 3979,
      "焦": 3980,
      "焬": 3981,
      "焰": 3982,
      "焱": 3983,
      "然": 3984,
      "煆": 3985,
      "煇": 3986,
      "煉": 3987,
      "煊": 3988,
      "煌": 3989,
      "煎": 3990,
      "煑": 3991,
      "煒": 3992,
      "煖": 3993,
      "煙": 3994,
      "煜": 3995,
      "煞": 3996,
      "煢": 3997,
      "煤": 3998,
      "煥": 3999,
      "煦": 4000,
      "照": 4001,
      "煨": 4002,
      "煩": 4003,
      "煬": 4004,
      "煮": 4005,
      "煸": 4006,
      "煽": 4007,
      "熄": 4008,
      "熇": 4009,
      "熈": 4010,
      "熊": 4011,
      "熏": 4012,
      "熒": 4013,
      "熓": 4014,
      "熔": 4015,
      "熖": 4016,
      "熙": 4017,
      "熟": 4018,
      "熢": 4019,
      "熤": 4020,
      "熨": 4021,
      "熬": 4022,
      "熱": 4023,
      "熳": 4024,
      "熹": 4025,
      "熺": 4026,
      "熾": 4027,
      "熿": 4028,
      "燁": 4029,
      "燃": 4030,
      "燄": 4031,
      "燈": 4032,
      "燉": 4033,
      "燋": 4034,
      "燎": 4035,
      "燐": 4036,
      "燒": 4037,
      "燔": 4038,
      "燕": 4039,
      "燖": 4040,
      "營": 4041,
      "燠": 4042,
      "燥": 4043,
      "燦": 4044,
      "燧": 4045,
      "燬": 4046,
      "燭": 4047,
      "燮": 4048,
      "燹": 4049,
      "燻": 4050,
      "燼": 4051,
      "燾": 4052,
      "燿": 4053,
      "爀": 4054,
      "爆": 4055,
      "爇": 4056,
      "爈": 4057,
      "爍": 4058,
      "爐": 4059,
      "爕": 4060,
      "爚": 4061,
      "爛": 4062,
      "爝": 4063,
      "爨": 4064,
      "爪": 4065,
      "爬": 4066,
      "爭": 4067,
      "爰": 4068,
      "爲": 4069,
      "爵": 4070,
      "父": 4071,
      "爹": 4072,
      "爺": 4073,
      "爻": 4074,
      "爼": 4075,
      "爽": 4076,
      "爾": 4077,
      "牀": 4078,
      "牃": 4079,
      "牅": 4080,
      "牆": 4081,
      "片": 4082,
      "版": 4083,
      "牋": 4084,
      "牌": 4085,
      "牒": 4086,
      "牕": 4087,
      "牖": 4088,
      "牗": 4089,
      "牘": 4090,
      "牙": 4091,
      "牛": 4092,
      "牝": 4093,
      "牟": 4094,
      "牡": 4095,
      "牢": 4096,
      "牧": 4097,
      "物": 4098,
      "牲": 4099,
      "牴": 4100,
      "特": 4101,
      "牻": 4102,
      "牽": 4103,
      "牾": 4104,
      "犀": 4105,
      "犁": 4106,
      "犂": 4107,
      "犄": 4108,
      "犇": 4109,
      "犒": 4110,
      "犖": 4111,
      "犛": 4112,
      "犟": 4113,
      "犠": 4114,
      "犢": 4115,
      "犤": 4116,
      "犥": 4117,
      "犧": 4118,
      "犬": 4119,
      "犯": 4120,
      "犴": 4121,
      "犾": 4122,
      "狀": 4123,
      "狂": 4124,
      "狃": 4125,
      "狄": 4126,
      "狉": 4127,
      "狊": 4128,
      "狍": 4129,
      "狎": 4130,
      "狐": 4131,
      "狒": 4132,
      "狗": 4133,
      "狙": 4134,
      "狠": 4135,
      "狡": 4136,
      "狥": 4137,
      "狨": 4138,
      "狩": 4139,
      "狴": 4140,
      "狷": 4141,
      "狸": 4142,
      "狹": 4143,
      "狻": 4144,
      "狼": 4145,
      "狽": 4146,
      "猉": 4147,
      "猊": 4148,
      "猎": 4149,
      "猖": 4150,
      "猗": 4151,
      "猙": 4152,
      "猛": 4153,
      "猜": 4154,
      "猝": 4155,
      "猥": 4156,
      "猩": 4157,
      "猪": 4158,
      "猫": 4159,
      "献": 4160,
      "猯": 4161,
      "猰": 4162,
      "猱": 4163,
      "猴": 4164,
      "猶": 4165,
      "猷": 4166,
      "猾": 4167,
      "猿": 4168,
      "獄": 4169,
      "獅": 4170,
      "獈": 4171,
      "獉": 4172,
      "獊": 4173,
      "獍": 4174,
      "獎": 4175,
      "獐": 4176,
      "獒": 4177,
      "獗": 4178,
      "獘": 4179,
      "獜": 4180,
      "獝": 4181,
      "獞": 4182,
      "獧": 4183,
      "獨": 4184,
      "獩": 4185,
      "獪": 4186,
      "獮": 4187,
      "獯": 4188,
      "獰": 4189,
      "獲": 4190,
      "獵": 4191,
      "獸": 4192,
      "獺": 4193,
      "獻": 4194,
      "獾": 4195,
      "玄": 4196,
      "玆": 4197,
      "率": 4198,
      "玉": 4199,
      "王": 4200,
      "玕": 4201,
      "玖": 4202,
      "玞": 4203,
      "玟": 4204,
      "玠": 4205,
      "玦": 4206,
      "玧": 4207,
      "玨": 4208,
      "玩": 4209,
      "玭": 4210,
      "玲": 4211,
      "玳": 4212,
      "玷": 4213,
      "玹": 4214,
      "玻": 4215,
      "珀": 4216,
      "珈": 4217,
      "珉": 4218,
      "珊": 4219,
      "珌": 4220,
      "珍": 4221,
      "珏": 4222,
      "珖": 4223,
      "珘": 4224,
      "珙": 4225,
      "珠": 4226,
      "珣": 4227,
      "珥": 4228,
      "珦": 4229,
      "珩": 4230,
      "珪": 4231,
      "班": 4232,
      "珮": 4233,
      "珯": 4234,
      "珹": 4235,
      "珽": 4236,
      "現": 4237,
      "琀": 4238,
      "琂": 4239,
      "球": 4240,
      "琅": 4241,
      "理": 4242,
      "琇": 4243,
      "琉": 4244,
      "琓": 4245,
      "琚": 4246,
      "琛": 4247,
      "琡": 4248,
      "琢": 4249,
      "琤": 4250,
      "琥": 4251,
      "琦": 4252,
      "琨": 4253,
      "琩": 4254,
      "琪": 4255,
      "琫": 4256,
      "琬": 4257,
      "琮": 4258,
      "琯": 4259,
      "琰": 4260,
      "琲": 4261,
      "琳": 4262,
      "琴": 4263,
      "琵": 4264,
      "琶": 4265,
      "琸": 4266,
      "琹": 4267,
      "琺": 4268,
      "琿": 4269,
      "瑀": 4270,
      "瑁": 4271,
      "瑄": 4272,
      "瑋": 4273,
      "瑑": 4274,
      "瑕": 4275,
      "瑗": 4276,
      "瑘": 4277,
      "瑙": 4278,
      "瑚": 4279,
      "瑛": 4280,
      "瑜": 4281,
      "瑞": 4282,
      "瑟": 4283,
      "瑠": 4284,
      "瑢": 4285,
      "瑣": 4286,
      "瑤": 4287,
      "瑥": 4288,
      "瑧": 4289,
      "瑨": 4290,
      "瑩": 4291,
      "瑪": 4292,
      "瑬": 4293,
      "瑯": 4294,
      "瑰": 4295,
      "瑱": 4296,
      "瑴": 4297,
      "瑾": 4298,
      "璀": 4299,
      "璁": 4300,
      "璂": 4301,
      "璃": 4302,
      "璄": 4303,
      "璆": 4304,
      "璇": 4305,
      "璉": 4306,
      "璋": 4307,
      "璔": 4308,
      "璘": 4309,
      "璜": 4310,
      "璞": 4311,
      "璟": 4312,
      "璡": 4313,
      "璣": 4314,
      "璧": 4315,
      "璨": 4316,
      "環": 4317,
      "璵": 4318,
      "璹": 4319,
      "璽": 4320,
      "璿": 4321,
      "瓈": 4322,
      "瓊": 4323,
      "瓏": 4324,
      "瓘": 4325,
      "瓚": 4326,
      "瓛": 4327,
      "瓜": 4328,
      "瓠": 4329,
      "瓢": 4330,
      "瓣": 4331,
      "瓤": 4332,
      "瓦": 4333,
      "瓩": 4334,
      "瓮": 4335,
      "瓶": 4336,
      "甁": 4337,
      "甃": 4338,
      "甄": 4339,
      "甊": 4340,
      "甌": 4341,
      "甍": 4342,
      "甑": 4343,
      "甓": 4344,
      "甕": 4345,
      "甘": 4346,
      "甚": 4347,
      "甛": 4348,
      "甜": 4349,
      "甞": 4350,
      "生": 4351,
      "產": 4352,
      "産": 4353,
      "甥": 4354,
      "甦": 4355,
      "用": 4356,
      "甫": 4357,
      "甬": 4358,
      "甯": 4359,
      "田": 4360,
      "由": 4361,
      "甲": 4362,
      "申": 4363,
      "男": 4364,
      "甸": 4365,
      "町": 4366,
      "甿": 4367,
      "畀": 4368,
      "畈": 4369,
      "畊": 4370,
      "畋": 4371,
      "界": 4372,
      "畎": 4373,
      "畏": 4374,
      "畑": 4375,
      "畓": 4376,
      "畔": 4377,
      "留": 4378,
      "畛": 4379,
      "畜": 4380,
      "畝": 4381,
      "畢": 4382,
      "略": 4383,
      "畦": 4384,
      "畧": 4385,
      "番": 4386,
      "畫": 4387,
      "畬": 4388,
      "畯": 4389,
      "異": 4390,
      "畵": 4391,
      "當": 4392,
      "畸": 4393,
      "畿": 4394,
      "疆": 4395,
      "疇": 4396,
      "疊": 4397,
      "疋": 4398,
      "疎": 4399,
      "疏": 4400,
      "疑": 4401,
      "疔": 4402,
      "疚": 4403,
      "疢": 4404,
      "疣": 4405,
      "疥": 4406,
      "疪": 4407,
      "疫": 4408,
      "疰": 4409,
      "疱": 4410,
      "疲": 4411,
      "疳": 4412,
      "疴": 4413,
      "疵": 4414,
      "疹": 4415,
      "疼": 4416,
      "疽": 4417,
      "疾": 4418,
      "痀": 4419,
      "痂": 4420,
      "病": 4421,
      "症": 4422,
      "痍": 4423,
      "痒": 4424,
      "痔": 4425,
      "痕": 4426,
      "痘": 4427,
      "痙": 4428,
      "痛": 4429,
      "痞": 4430,
      "痟": 4431,
      "痢": 4432,
      "痣": 4433,
      "痬": 4434,
      "痰": 4435,
      "痲": 4436,
      "痳": 4437,
      "痴": 4438,
      "痵": 4439,
      "痺": 4440,
      "痼": 4441,
      "痾": 4442,
      "痿": 4443,
      "瘁": 4444,
      "瘇": 4445,
      "瘉": 4446,
      "瘋": 4447,
      "瘌": 4448,
      "瘍": 4449,
      "瘏": 4450,
      "瘐": 4451,
      "瘓": 4452,
      "瘖": 4453,
      "瘙": 4454,
      "瘝": 4455,
      "瘞": 4456,
      "瘟": 4457,
      "瘠": 4458,
      "瘡": 4459,
      "瘢": 4460,
      "瘤": 4461,
      "瘦": 4462,
      "瘧": 4463,
      "瘰": 4464,
      "瘳": 4465,
      "瘴": 4466,
      "瘵": 4467,
      "瘻": 4468,
      "瘼": 4469,
      "療": 4470,
      "癃": 4471,
      "癅": 4472,
      "癆": 4473,
      "癈": 4474,
      "癉": 4475,
      "癌": 4476,
      "癎": 4477,
      "癒": 4478,
      "癕": 4479,
      "癖": 4480,
      "癘": 4481,
      "癡": 4482,
      "癢": 4483,
      "癥": 4484,
      "癧": 4485,
      "癩": 4486,
      "癬": 4487,
      "癮": 4488,
      "癰": 4489,
      "癱": 4490,
      "癲": 4491,
      "癸": 4492,
      "登": 4493,
      "發": 4494,
      "白": 4495,
      "百": 4496,
      "皀": 4497,
      "皁": 4498,
      "皂": 4499,
      "皃": 4500,
      "的": 4501,
      "皆": 4502,
      "皇": 4503,
      "皈": 4504,
      "皊": 4505,
      "皎": 4506,
      "皐": 4507,
      "皓": 4508,
      "皖": 4509,
      "皚": 4510,
      "皝": 4511,
      "皞": 4512,
      "皤": 4513,
      "皥": 4514,
      "皦": 4515,
      "皮": 4516,
      "皴": 4517,
      "皷": 4518,
      "皺": 4519,
      "皿": 4520,
      "盂": 4521,
      "盃": 4522,
      "盆": 4523,
      "盈": 4524,
      "益": 4525,
      "盍": 4526,
      "盎": 4527,
      "盒": 4528,
      "盖": 4529,
      "盛": 4530,
      "盜": 4531,
      "盞": 4532,
      "盟": 4533,
      "盡": 4534,
      "監": 4535,
      "盤": 4536,
      "盥": 4537,
      "盧": 4538,
      "盪": 4539,
      "盬": 4540,
      "目": 4541,
      "盰": 4542,
      "盱": 4543,
      "盲": 4544,
      "直": 4545,
      "相": 4546,
      "盻": 4547,
      "盼": 4548,
      "盾": 4549,
      "省": 4550,
      "眄": 4551,
      "眅": 4552,
      "眇": 4553,
      "眈": 4554,
      "眉": 4555,
      "看": 4556,
      "眚": 4557,
      "眛": 4558,
      "眜": 4559,
      "眞": 4560,
      "眠": 4561,
      "眡": 4562,
      "眤": 4563,
      "眥": 4564,
      "眦": 4565,
      "眨": 4566,
      "眩": 4567,
      "眯": 4568,
      "眶": 4569,
      "眷": 4570,
      "眸": 4571,
      "眺": 4572,
      "眼": 4573,
      "着": 4574,
      "睃": 4575,
      "睚": 4576,
      "睛": 4577,
      "睜": 4578,
      "睟": 4579,
      "睠": 4580,
      "睡": 4581,
      "睢": 4582,
      "督": 4583,
      "睥": 4584,
      "睦": 4585,
      "睨": 4586,
      "睪": 4587,
      "睫": 4588,
      "睬": 4589,
      "睱": 4590,
      "睹": 4591,
      "睽": 4592,
      "睾": 4593,
      "睿": 4594,
      "瞀": 4595,
      "瞋": 4596,
      "瞍": 4597,
      "瞎": 4598,
      "瞑": 4599,
      "瞙": 4600,
      "瞞": 4601,
      "瞠": 4602,
      "瞢": 4603,
      "瞥": 4604,
      "瞪": 4605,
      "瞬": 4606,
      "瞭": 4607,
      "瞰": 4608,
      "瞳": 4609,
      "瞶": 4610,
      "瞹": 4611,
      "瞻": 4612,
      "瞼": 4613,
      "瞽": 4614,
      "瞿": 4615,
      "矇": 4616,
      "矑": 4617,
      "矒": 4618,
      "矓": 4619,
      "矗": 4620,
      "矛": 4621,
      "矜": 4622,
      "矟": 4623,
      "矢": 4624,
      "矣": 4625,
      "知": 4626,
      "矧": 4627,
      "矩": 4628,
      "短": 4629,
      "矮": 4630,
      "矯": 4631,
      "矰": 4632,
      "石": 4633,
      "矻": 4634,
      "矼": 4635,
      "砂": 4636,
      "砊": 4637,
      "砌": 4638,
      "砍": 4639,
      "砒": 4640,
      "砟": 4641,
      "砠": 4642,
      "砢": 4643,
      "砥": 4644,
      "砦": 4645,
      "砧": 4646,
      "砬": 4647,
      "砭": 4648,
      "砮": 4649,
      "砲": 4650,
      "破": 4651,
      "砶": 4652,
      "硅": 4653,
      "硇": 4654,
      "硏": 4655,
      "硜": 4656,
      "硝": 4657,
      "硤": 4658,
      "硨": 4659,
      "硫": 4660,
      "硬": 4661,
      "确": 4662,
      "硯": 4663,
      "硼": 4664,
      "碁": 4665,
      "碇": 4666,
      "碌": 4667,
      "碍": 4668,
      "碎": 4669,
      "碑": 4670,
      "碓": 4671,
      "碗": 4672,
      "碟": 4673,
      "碣": 4674,
      "碧": 4675,
      "碨": 4676,
      "碩": 4677,
      "碰": 4678,
      "確": 4679,
      "碼": 4680,
      "碾": 4681,
      "磁": 4682,
      "磅": 4683,
      "磈": 4684,
      "磊": 4685,
      "磋": 4686,
      "磏": 4687,
      "磐": 4688,
      "磑": 4689,
      "磔": 4690,
      "磗": 4691,
      "磚": 4692,
      "磠": 4693,
      "磧": 4694,
      "磨": 4695,
      "磬": 4696,
      "磯": 4697,
      "磴": 4698,
      "磵": 4699,
      "磷": 4700,
      "磺": 4701,
      "磻": 4702,
      "磽": 4703,
      "磾": 4704,
      "礁": 4705,
      "礆": 4706,
      "礎": 4707,
      "礒": 4708,
      "礙": 4709,
      "礟": 4710,
      "礡": 4711,
      "礦": 4712,
      "礧": 4713,
      "礩": 4714,
      "礪": 4715,
      "礫": 4716,
      "礬": 4717,
      "礭": 4718,
      "礮": 4719,
      "礱": 4720,
      "礴": 4721,
      "礶": 4722,
      "示": 4723,
      "社": 4724,
      "祀": 4725,
      "祁": 4726,
      "祇": 4727,
      "祈": 4728,
      "祉": 4729,
      "祏": 4730,
      "祐": 4731,
      "祓": 4732,
      "祔": 4733,
      "祕": 4734,
      "祖": 4735,
      "祗": 4736,
      "祚": 4737,
      "祛": 4738,
      "祜": 4739,
      "祝": 4740,
      "神": 4741,
      "祟": 4742,
      "祠": 4743,
      "祥": 4744,
      "票": 4745,
      "祭": 4746,
      "祲": 4747,
      "祺": 4748,
      "祼": 4749,
      "祿": 4750,
      "禀": 4751,
      "禁": 4752,
      "禆": 4753,
      "禊": 4754,
      "禍": 4755,
      "禎": 4756,
      "福": 4757,
      "禑": 4758,
      "禙": 4759,
      "禛": 4760,
      "禝": 4761,
      "禠": 4762,
      "禦": 4763,
      "禧": 4764,
      "禨": 4765,
      "禩": 4766,
      "禪": 4767,
      "禮": 4768,
      "禰": 4769,
      "禱": 4770,
      "禳": 4771,
      "禹": 4772,
      "禺": 4773,
      "离": 4774,
      "禽": 4775,
      "禾": 4776,
      "禿": 4777,
      "秀": 4778,
      "私": 4779,
      "秃": 4780,
      "秈": 4781,
      "秉": 4782,
      "秊": 4783,
      "秋": 4784,
      "秏": 4785,
      "科": 4786,
      "秒": 4787,
      "秕": 4788,
      "秖": 4789,
      "秘": 4790,
      "租": 4791,
      "秣": 4792,
      "秤": 4793,
      "秦": 4794,
      "秧": 4795,
      "秩": 4796,
      "秪": 4797,
      "秫": 4798,
      "秬": 4799,
      "秭": 4800,
      "移": 4801,
      "稀": 4802,
      "稂": 4803,
      "稃": 4804,
      "稅": 4805,
      "稈": 4806,
      "稊": 4807,
      "程": 4808,
      "稍": 4809,
      "稑": 4810,
      "稔": 4811,
      "稗": 4812,
      "稙": 4813,
      "稚": 4814,
      "稜": 4815,
      "稟": 4816,
      "稠": 4817,
      "稣": 4818,
      "稧": 4819,
      "稭": 4820,
      "種": 4821,
      "稱": 4822,
      "稷": 4823,
      "稺": 4824,
      "稻": 4825,
      "稼": 4826,
      "稽": 4827,
      "稿": 4828,
      "穀": 4829,
      "穆": 4830,
      "穉": 4831,
      "穌": 4832,
      "積": 4833,
      "穎": 4834,
      "穏": 4835,
      "穖": 4836,
      "穗": 4837,
      "穠": 4838,
      "穡": 4839,
      "穢": 4840,
      "穩": 4841,
      "穪": 4842,
      "穫": 4843,
      "穭": 4844,
      "穰": 4845,
      "穴": 4846,
      "究": 4847,
      "穹": 4848,
      "空": 4849,
      "穽": 4850,
      "穾": 4851,
      "穿": 4852,
      "突": 4853,
      "窃": 4854,
      "窄": 4855,
      "窅": 4856,
      "窆": 4857,
      "窈": 4858,
      "窒": 4859,
      "窓": 4860,
      "窕": 4861,
      "窖": 4862,
      "窘": 4863,
      "窟": 4864,
      "窠": 4865,
      "窣": 4866,
      "窧": 4867,
      "窩": 4868,
      "窪": 4869,
      "窬": 4870,
      "窮": 4871,
      "窯": 4872,
      "窳": 4873,
      "窶": 4874,
      "窹": 4875,
      "窺": 4876,
      "窾": 4877,
      "窿": 4878,
      "竄": 4879,
      "竅": 4880,
      "竆": 4881,
      "竇": 4882,
      "竈": 4883,
      "竊": 4884,
      "立": 4885,
      "竗": 4886,
      "站": 4887,
      "竚": 4888,
      "竝": 4889,
      "竟": 4890,
      "章": 4891,
      "竢": 4892,
      "竣": 4893,
      "童": 4894,
      "竦": 4895,
      "竪": 4896,
      "竭": 4897,
      "端": 4898,
      "競": 4899,
      "竸": 4900,
      "竹": 4901,
      "竺": 4902,
      "竽": 4903,
      "竿": 4904,
      "笆": 4905,
      "笈": 4906,
      "笊": 4907,
      "笏": 4908,
      "笑": 4909,
      "笔": 4910,
      "笙": 4911,
      "笛": 4912,
      "笞": 4913,
      "笟": 4914,
      "笠": 4915,
      "笥": 4916,
      "符": 4917,
      "笨": 4918,
      "笫": 4919,
      "第": 4920,
      "笭": 4921,
      "笱": 4922,
      "笳": 4923,
      "笹": 4924,
      "笻": 4925,
      "筆": 4926,
      "筇": 4927,
      "等": 4928,
      "筋": 4929,
      "筍": 4930,
      "筏": 4931,
      "筐": 4932,
      "筑": 4933,
      "筒": 4934,
      "筓": 4935,
      "答": 4936,
      "策": 4937,
      "筠": 4938,
      "筩": 4939,
      "筬": 4940,
      "筭": 4941,
      "筮": 4942,
      "筯": 4943,
      "筵": 4944,
      "箇": 4945,
      "箋": 4946,
      "箏": 4947,
      "箒": 4948,
      "箔": 4949,
      "箕": 4950,
      "算": 4951,
      "箚": 4952,
      "箝": 4953,
      "箠": 4954,
      "管": 4955,
      "箧": 4956,
      "箭": 4957,
      "箱": 4958,
      "箴": 4959,
      "箵": 4960,
      "箸": 4961,
      "節": 4962,
      "篁": 4963,
      "範": 4964,
      "篆": 4965,
      "篇": 4966,
      "篈": 4967,
      "築": 4968,
      "篋": 4969,
      "篏": 4970,
      "篙": 4971,
      "篚": 4972,
      "篝": 4973,
      "篠": 4974,
      "篤": 4975,
      "篦": 4976,
      "篩": 4977,
      "篷": 4978,
      "簀": 4979,
      "簇": 4980,
      "簍": 4981,
      "簑": 4982,
      "簒": 4983,
      "簕": 4984,
      "簛": 4985,
      "簞": 4986,
      "簟": 4987,
      "簠": 4988,
      "簡": 4989,
      "簣": 4990,
      "簧": 4991,
      "簪": 4992,
      "簫": 4993,
      "簮": 4994,
      "簷": 4995,
      "簸": 4996,
      "簽": 4997,
      "簾": 4998,
      "簿": 4999,
      "籃": 5000,
      "籌": 5001,
      "籍": 5002,
      "籐": 5003,
      "籒": 5004,
      "籕": 5005,
      "籖": 5006,
      "籙": 5007,
      "籜": 5008,
      "籝": 5009,
      "籞": 5010,
      "籟": 5011,
      "籠": 5012,
      "籤": 5013,
      "籥": 5014,
      "籩": 5015,
      "籬": 5016,
      "籮": 5017,
      "籯": 5018,
      "籰": 5019,
      "籲": 5020,
      "米": 5021,
      "籾": 5022,
      "粁": 5023,
      "粃": 5024,
      "粉": 5025,
      "粒": 5026,
      "粕": 5027,
      "粗": 5028,
      "粘": 5029,
      "粟": 5030,
      "粤": 5031,
      "粥": 5032,
      "粧": 5033,
      "粮": 5034,
      "粱": 5035,
      "粲": 5036,
      "粳": 5037,
      "粵": 5038,
      "粹": 5039,
      "精": 5040,
      "糀": 5041,
      "糅": 5042,
      "糈": 5043,
      "糊": 5044,
      "糎": 5045,
      "糓": 5046,
      "糕": 5047,
      "糖": 5048,
      "糗": 5049,
      "糙": 5050,
      "糜": 5051,
      "糝": 5052,
      "糞": 5053,
      "糟": 5054,
      "糠": 5055,
      "糢": 5056,
      "糧": 5057,
      "糯": 5058,
      "糲": 5059,
      "糴": 5060,
      "糶": 5061,
      "糸": 5062,
      "糺": 5063,
      "系": 5064,
      "糾": 5065,
      "紀": 5066,
      "紂": 5067,
      "約": 5068,
      "紅": 5069,
      "紆": 5070,
      "紇": 5071,
      "紈": 5072,
      "紉": 5073,
      "紊": 5074,
      "紋": 5075,
      "納": 5076,
      "紏": 5077,
      "紐": 5078,
      "紓": 5079,
      "純": 5080,
      "紕": 5081,
      "紗": 5082,
      "紘": 5083,
      "紙": 5084,
      "級": 5085,
      "紛": 5086,
      "紜": 5087,
      "素": 5088,
      "紡": 5089,
      "索": 5090,
      "紫": 5091,
      "紬": 5092,
      "紮": 5093,
      "累": 5094,
      "細": 5095,
      "紱": 5096,
      "紳": 5097,
      "紵": 5098,
      "紹": 5099,
      "紺": 5100,
      "紾": 5101,
      "紿": 5102,
      "絀": 5103,
      "終": 5104,
      "絃": 5105,
      "組": 5106,
      "絅": 5107,
      "絆": 5108,
      "絇": 5109,
      "絈": 5110,
      "絏": 5111,
      "結": 5112,
      "絕": 5113,
      "絛": 5114,
      "絜": 5115,
      "絞": 5116,
      "絡": 5117,
      "絢": 5118,
      "給": 5119,
      "絨": 5120,
      "絪": 5121,
      "絮": 5122,
      "絰": 5123,
      "統": 5124,
      "絲": 5125,
      "絳": 5126,
      "絶": 5127,
      "絹": 5128,
      "絺": 5129,
      "綃": 5130,
      "綆": 5131,
      "綌": 5132,
      "綏": 5133,
      "經": 5134,
      "綘": 5135,
      "綜": 5136,
      "綠": 5137,
      "綢": 5138,
      "綣": 5139,
      "綦": 5140,
      "綫": 5141,
      "綬": 5142,
      "維": 5143,
      "綮": 5144,
      "綯": 5145,
      "綰": 5146,
      "綱": 5147,
      "網": 5148,
      "綳": 5149,
      "綴": 5150,
      "綵": 5151,
      "綸": 5152,
      "綺": 5153,
      "綻": 5154,
      "綽": 5155,
      "綾": 5156,
      "綿": 5157,
      "緇": 5158,
      "緊": 5159,
      "緋": 5160,
      "緌": 5161,
      "総": 5162,
      "緖": 5163,
      "緘": 5164,
      "線": 5165,
      "緜": 5166,
      "緝": 5167,
      "緞": 5168,
      "締": 5169,
      "緡": 5170,
      "緣": 5171,
      "緦": 5172,
      "編": 5173,
      "緩": 5174,
      "緫": 5175,
      "緬": 5176,
      "緯": 5177,
      "緲": 5178,
      "練": 5179,
      "緶": 5180,
      "緹": 5181,
      "緻": 5182,
      "縀": 5183,
      "縇": 5184,
      "縈": 5185,
      "縉": 5186,
      "縊": 5187,
      "縋": 5188,
      "縏": 5189,
      "縑": 5190,
      "縕": 5191,
      "縘": 5192,
      "縛": 5193,
      "縝": 5194,
      "縞": 5195,
      "縟": 5196,
      "縡": 5197,
      "縣": 5198,
      "縧": 5199,
      "縫": 5200,
      "縮": 5201,
      "縯": 5202,
      "縱": 5203,
      "縲": 5204,
      "縳": 5205,
      "縵": 5206,
      "縶": 5207,
      "縷": 5208,
      "縹": 5209,
      "縺": 5210,
      "縻": 5211,
      "總": 5212,
      "績": 5213,
      "繁": 5214,
      "繃": 5215,
      "繄": 5216,
      "繅": 5217,
      "繆": 5218,
      "繊": 5219,
      "繋": 5220,
      "繐": 5221,
      "繒": 5222,
      "織": 5223,
      "繕": 5224,
      "繖": 5225,
      "繙": 5226,
      "繚": 5227,
      "繞": 5228,
      "繡": 5229,
      "繢": 5230,
      "繩": 5231,
      "繪": 5232,
      "繫": 5233,
      "繭": 5234,
      "繰": 5235,
      "繳": 5236,
      "繹": 5237,
      "繻": 5238,
      "繼": 5239,
      "繽": 5240,
      "繾": 5241,
      "纂": 5242,
      "纈": 5243,
      "纊": 5244,
      "續": 5245,
      "纍": 5246,
      "纎": 5247,
      "纏": 5248,
      "纒": 5249,
      "纓": 5250,
      "纔": 5251,
      "纕": 5252,
      "纖": 5253,
      "纘": 5254,
      "纚": 5255,
      "纛": 5256,
      "纜": 5257,
      "缶": 5258,
      "缸": 5259,
      "缺": 5260,
      "罄": 5261,
      "罅": 5262,
      "罇": 5263,
      "罌": 5264,
      "罍": 5265,
      "罐": 5266,
      "罔": 5267,
      "罕": 5268,
      "罘": 5269,
      "罝": 5270,
      "罟": 5271,
      "罨": 5272,
      "罩": 5273,
      "罪": 5274,
      "罫": 5275,
      "置": 5276,
      "罰": 5277,
      "署": 5278,
      "罵": 5279,
      "罷": 5280,
      "罹": 5281,
      "羀": 5282,
      "羅": 5283,
      "羆": 5284,
      "羇": 5285,
      "羈": 5286,
      "羊": 5287,
      "羌": 5288,
      "美": 5289,
      "羔": 5290,
      "羖": 5291,
      "羗": 5292,
      "羚": 5293,
      "羞": 5294,
      "羡": 5295,
      "羣": 5296,
      "群": 5297,
      "羨": 5298,
      "義": 5299,
      "羯": 5300,
      "羲": 5301,
      "羶": 5302,
      "羸": 5303,
      "羹": 5304,
      "羽": 5305,
      "羿": 5306,
      "翁": 5307,
      "翅": 5308,
      "翊": 5309,
      "翌": 5310,
      "翎": 5311,
      "翏": 5312,
      "習": 5313,
      "翔": 5314,
      "翕": 5315,
      "翖": 5316,
      "翟": 5317,
      "翠": 5318,
      "翡": 5319,
      "翦": 5320,
      "翩": 5321,
      "翫": 5322,
      "翬": 5323,
      "翮": 5324,
      "翰": 5325,
      "翲": 5326,
      "翳": 5327,
      "翶": 5328,
      "翹": 5329,
      "翻": 5330,
      "翼": 5331,
      "翿": 5332,
      "耀": 5333,
      "老": 5334,
      "考": 5335,
      "耄": 5336,
      "者": 5337,
      "耆": 5338,
      "耈": 5339,
      "耉": 5340,
      "耊": 5341,
      "耋": 5342,
      "而": 5343,
      "耎": 5344,
      "耐": 5345,
      "耑": 5346,
      "耒": 5347,
      "耔": 5348,
      "耕": 5349,
      "耗": 5350,
      "耘": 5351,
      "耙": 5352,
      "耜": 5353,
      "耟": 5354,
      "耡": 5355,
      "耦": 5356,
      "耨": 5357,
      "耬": 5358,
      "耭": 5359,
      "耰": 5360,
      "耳": 5361,
      "耶": 5362,
      "耻": 5363,
      "耽": 5364,
      "耿": 5365,
      "聃": 5366,
      "聆": 5367,
      "聊": 5368,
      "聒": 5369,
      "聖": 5370,
      "聘": 5371,
      "聚": 5372,
      "聞": 5373,
      "聦": 5374,
      "聨": 5375,
      "聯": 5376,
      "聰": 5377,
      "聱": 5378,
      "聲": 5379,
      "聳": 5380,
      "聵": 5381,
      "職": 5382,
      "聽": 5383,
      "聾": 5384,
      "聿": 5385,
      "肄": 5386,
      "肅": 5387,
      "肆": 5388,
      "肇": 5389,
      "肉": 5390,
      "肋": 5391,
      "肌": 5392,
      "肓": 5393,
      "肖": 5394,
      "肘": 5395,
      "肚": 5396,
      "肛": 5397,
      "肝": 5398,
      "股": 5399,
      "肢": 5400,
      "肥": 5401,
      "肧": 5402,
      "肩": 5403,
      "肪": 5404,
      "肭": 5405,
      "肯": 5406,
      "肱": 5407,
      "育": 5408,
      "肴": 5409,
      "肺": 5410,
      "胃": 5411,
      "胄": 5412,
      "胆": 5413,
      "胊": 5414,
      "背": 5415,
      "胎": 5416,
      "胖": 5417,
      "胘": 5418,
      "胚": 5419,
      "胛": 5420,
      "胝": 5421,
      "胞": 5422,
      "胠": 5423,
      "胡": 5424,
      "胤": 5425,
      "胥": 5426,
      "胯": 5427,
      "胰": 5428,
      "胱": 5429,
      "胴": 5430,
      "胷": 5431,
      "胸": 5432,
      "胺": 5433,
      "胻": 5434,
      "胼": 5435,
      "能": 5436,
      "胾": 5437,
      "脂": 5438,
      "脅": 5439,
      "脆": 5440,
      "脇": 5441,
      "脈": 5442,
      "脉": 5443,
      "脊": 5444,
      "脗": 5445,
      "脘": 5446,
      "脚": 5447,
      "脛": 5448,
      "脞": 5449,
      "脣": 5450,
      "脩": 5451,
      "脫": 5452,
      "脬": 5453,
      "脯": 5454,
      "脰": 5455,
      "脹": 5456,
      "脾": 5457,
      "腆": 5458,
      "腊": 5459,
      "腋": 5460,
      "腎": 5461,
      "腐": 5462,
      "腑": 5463,
      "腓": 5464,
      "腔": 5465,
      "腕": 5466,
      "腠": 5467,
      "腥": 5468,
      "腦": 5469,
      "腫": 5470,
      "腮": 5471,
      "腰": 5472,
      "腱": 5473,
      "腴": 5474,
      "腶": 5475,
      "腸": 5476,
      "腹": 5477,
      "腺": 5478,
      "腼": 5479,
      "腽": 5480,
      "腿": 5481,
      "膀": 5482,
      "膂": 5483,
      "膃": 5484,
      "膄": 5485,
      "膈": 5486,
      "膊": 5487,
      "膋": 5488,
      "膏": 5489,
      "膓": 5490,
      "膕": 5491,
      "膘": 5492,
      "膚": 5493,
      "膛": 5494,
      "膜": 5495,
      "膝": 5496,
      "膞": 5497,
      "膠": 5498,
      "膣": 5499,
      "膨": 5500,
      "膩": 5501,
      "膳": 5502,
      "膸": 5503,
      "膺": 5504,
      "膻": 5505,
      "膽": 5506,
      "膾": 5507,
      "膿": 5508,
      "臀": 5509,
      "臂": 5510,
      "臃": 5511,
      "臆": 5512,
      "臉": 5513,
      "臊": 5514,
      "臍": 5515,
      "臏": 5516,
      "臘": 5517,
      "臙": 5518,
      "臚": 5519,
      "臟": 5520,
      "臠": 5521,
      "臣": 5522,
      "臥": 5523,
      "臧": 5524,
      "臨": 5525,
      "自": 5526,
      "臬": 5527,
      "臭": 5528,
      "臯": 5529,
      "臲": 5530,
      "至": 5531,
      "致": 5532,
      "臺": 5533,
      "臻": 5534,
      "臼": 5535,
      "臾": 5536,
      "舁": 5537,
      "舂": 5538,
      "舃": 5539,
      "舅": 5540,
      "與": 5541,
      "興": 5542,
      "舉": 5543,
      "舊": 5544,
      "舋": 5545,
      "舌": 5546,
      "舍": 5547,
      "舐": 5548,
      "舒": 5549,
      "舖": 5550,
      "舘": 5551,
      "舛": 5552,
      "舜": 5553,
      "舞": 5554,
      "舟": 5555,
      "舡": 5556,
      "航": 5557,
      "舫": 5558,
      "般": 5559,
      "舳": 5560,
      "舵": 5561,
      "舶": 5562,
      "舷": 5563,
      "船": 5564,
      "艀": 5565,
      "艅": 5566,
      "艇": 5567,
      "艗": 5568,
      "艘": 5569,
      "艙": 5570,
      "艟": 5571,
      "艤": 5572,
      "艦": 5573,
      "艨": 5574,
      "艫": 5575,
      "艮": 5576,
      "良": 5577,
      "艱": 5578,
      "色": 5579,
      "艴": 5580,
      "艶": 5581,
      "艷": 5582,
      "艸": 5583,
      "艼": 5584,
      "艾": 5585,
      "芇": 5586,
      "芊": 5587,
      "芋": 5588,
      "芍": 5589,
      "芎": 5590,
      "芑": 5591,
      "芒": 5592,
      "芙": 5593,
      "芚": 5594,
      "芝": 5595,
      "芟": 5596,
      "芣": 5597,
      "芤": 5598,
      "芥": 5599,
      "芦": 5600,
      "芨": 5601,
      "芩": 5602,
      "芪": 5603,
      "芫": 5604,
      "芬": 5605,
      "芭": 5606,
      "芮": 5607,
      "芯": 5608,
      "芰": 5609,
      "花": 5610,
      "芳": 5611,
      "芷": 5612,
      "芸": 5613,
      "芹": 5614,
      "芻": 5615,
      "芼": 5616,
      "芽": 5617,
      "芾": 5618,
      "芿": 5619,
      "苐": 5620,
      "苑": 5621,
      "苒": 5622,
      "苓": 5623,
      "苔": 5624,
      "苗": 5625,
      "苙": 5626,
      "苛": 5627,
      "苜": 5628,
      "苞": 5629,
      "苟": 5630,
      "苡": 5631,
      "苣": 5632,
      "若": 5633,
      "苦": 5634,
      "苧": 5635,
      "苫": 5636,
      "英": 5637,
      "苴": 5638,
      "苵": 5639,
      "苶": 5640,
      "苹": 5641,
      "苺": 5642,
      "苽": 5643,
      "苾": 5644,
      "茀": 5645,
      "茁": 5646,
      "茂": 5647,
      "范": 5648,
      "茄": 5649,
      "茅": 5650,
      "茆": 5651,
      "茇": 5652,
      "茗": 5653,
      "茜": 5654,
      "茢": 5655,
      "茨": 5656,
      "茫": 5657,
      "茯": 5658,
      "茱": 5659,
      "茲": 5660,
      "茵": 5661,
      "茶": 5662,
      "茸": 5663,
      "茹": 5664,
      "荀": 5665,
      "荃": 5666,
      "荄": 5667,
      "荅": 5668,
      "荆": 5669,
      "荇": 5670,
      "草": 5671,
      "荊": 5672,
      "荏": 5673,
      "荐": 5674,
      "荑": 5675,
      "荒": 5676,
      "荔": 5677,
      "荗": 5678,
      "荳": 5679,
      "荴": 5680,
      "荷": 5681,
      "荺": 5682,
      "荻": 5683,
      "荼": 5684,
      "荽": 5685,
      "莅": 5686,
      "莊": 5687,
      "莎": 5688,
      "莒": 5689,
      "莓": 5690,
      "莔": 5691,
      "莖": 5692,
      "莘": 5693,
      "莚": 5694,
      "莞": 5695,
      "莠": 5696,
      "莢": 5697,
      "莣": 5698,
      "莧": 5699,
      "莨": 5700,
      "莩": 5701,
      "莪": 5702,
      "莫": 5703,
      "莽": 5704,
      "莾": 5705,
      "菀": 5706,
      "菁": 5707,
      "菅": 5708,
      "菉": 5709,
      "菊": 5710,
      "菌": 5711,
      "菑": 5712,
      "菓": 5713,
      "菔": 5714,
      "菖": 5715,
      "菘": 5716,
      "菜": 5717,
      "菟": 5718,
      "菩": 5719,
      "菫": 5720,
      "華": 5721,
      "菰": 5722,
      "菱": 5723,
      "菲": 5724,
      "菴": 5725,
      "菸": 5726,
      "菹": 5727,
      "菽": 5728,
      "萃": 5729,
      "萄": 5730,
      "萆": 5731,
      "萇": 5732,
      "萊": 5733,
      "萋": 5734,
      "萌": 5735,
      "萍": 5736,
      "萎": 5737,
      "萓": 5738,
      "萠": 5739,
      "萩": 5740,
      "萬": 5741,
      "萱": 5742,
      "萵": 5743,
      "萹": 5744,
      "萻": 5745,
      "萼": 5746,
      "落": 5747,
      "葆": 5748,
      "葉": 5749,
      "葍": 5750,
      "葒": 5751,
      "著": 5752,
      "葛": 5753,
      "葡": 5754,
      "董": 5755,
      "葦": 5756,
      "葩": 5757,
      "葫": 5758,
      "葬": 5759,
      "葭": 5760,
      "葯": 5761,
      "葱": 5762,
      "葳": 5763,
      "葵": 5764,
      "葷": 5765,
      "葺": 5766,
      "蒂": 5767,
      "蒐": 5768,
      "蒔": 5769,
      "蒙": 5770,
      "蒜": 5771,
      "蒟": 5772,
      "蒡": 5773,
      "蒪": 5774,
      "蒭": 5775,
      "蒯": 5776,
      "蒲": 5777,
      "蒸": 5778,
      "蒹": 5779,
      "蒻": 5780,
      "蒼": 5781,
      "蒿": 5782,
      "蓀": 5783,
      "蓁": 5784,
      "蓂": 5785,
      "蓄": 5786,
      "蓆": 5787,
      "蓉": 5788,
      "蓊": 5789,
      "蓋": 5790,
      "蓍": 5791,
      "蓏": 5792,
      "蓐": 5793,
      "蓓": 5794,
      "蓖": 5795,
      "蓗": 5796,
      "蓬": 5797,
      "蓮": 5798,
      "蓯": 5799,
      "蓰": 5800,
      "蓴": 5801,
      "蓼": 5802,
      "蓽": 5803,
      "蓿": 5804,
      "蔀": 5805,
      "蔑": 5806,
      "蔓": 5807,
      "蔔": 5808,
      "蔕": 5809,
      "蔗": 5810,
      "蔘": 5811,
      "蔚": 5812,
      "蔞": 5813,
      "蔟": 5814,
      "蔡": 5815,
      "蔣": 5816,
      "蔥": 5817,
      "蔦": 5818,
      "蔫": 5819,
      "蔬": 5820,
      "蔭": 5821,
      "蔯": 5822,
      "蔴": 5823,
      "蔽": 5824,
      "蔿": 5825,
      "蕀": 5826,
      "蕁": 5827,
      "蕂": 5828,
      "蕃": 5829,
      "蕆": 5830,
      "蕇": 5831,
      "蕈": 5832,
      "蕉": 5833,
      "蕊": 5834,
      "蕎": 5835,
      "蕓": 5836,
      "蕕": 5837,
      "蕖": 5838,
      "蕘": 5839,
      "蕙": 5840,
      "蕚": 5841,
      "蕞": 5842,
      "蕢": 5843,
      "蕣": 5844,
      "蕤": 5845,
      "蕨": 5846,
      "蕩": 5847,
      "蕪": 5848,
      "蕫": 5849,
      "蕭": 5850,
      "蕯": 5851,
      "蕷": 5852,
      "蕾": 5853,
      "薀": 5854,
      "薄": 5855,
      "薇": 5856,
      "薈": 5857,
      "薉": 5858,
      "薊": 5859,
      "薏": 5860,
      "薑": 5861,
      "薔": 5862,
      "薙": 5863,
      "薛": 5864,
      "薜": 5865,
      "薟": 5866,
      "薤": 5867,
      "薥": 5868,
      "薦": 5869,
      "薨": 5870,
      "薩": 5871,
      "薪": 5872,
      "薯": 5873,
      "薰": 5874,
      "薷": 5875,
      "薹": 5876,
      "薺": 5877,
      "薾": 5878,
      "藁": 5879,
      "藉": 5880,
      "藋": 5881,
      "藍": 5882,
      "藎": 5883,
      "藏": 5884,
      "藐": 5885,
      "藕": 5886,
      "藖": 5887,
      "藘": 5888,
      "藜": 5889,
      "藝": 5890,
      "藤": 5891,
      "藥": 5892,
      "藩": 5893,
      "藪": 5894,
      "藭": 5895,
      "藷": 5896,
      "藹": 5897,
      "藺": 5898,
      "藻": 5899,
      "藿": 5900,
      "蘀": 5901,
      "蘂": 5902,
      "蘆": 5903,
      "蘇": 5904,
      "蘊": 5905,
      "蘋": 5906,
      "蘖": 5907,
      "蘗": 5908,
      "蘘": 5909,
      "蘚": 5910,
      "蘢": 5911,
      "蘧": 5912,
      "蘭": 5913,
      "蘯": 5914,
      "蘸": 5915,
      "蘺": 5916,
      "蘼": 5917,
      "蘿": 5918,
      "虀": 5919,
      "虁": 5920,
      "虎": 5921,
      "虐": 5922,
      "虔": 5923,
      "處": 5924,
      "虗": 5925,
      "虛": 5926,
      "虜": 5927,
      "虞": 5928,
      "號": 5929,
      "虧": 5930,
      "虫": 5931,
      "虯": 5932,
      "虱": 5933,
      "虹": 5934,
      "虺": 5935,
      "虻": 5936,
      "蚇": 5937,
      "蚊": 5938,
      "蚋": 5939,
      "蚌": 5940,
      "蚍": 5941,
      "蚏": 5942,
      "蚓": 5943,
      "蚕": 5944,
      "蚜": 5945,
      "蚣": 5946,
      "蚤": 5947,
      "蚨": 5948,
      "蚩": 5949,
      "蚪": 5950,
      "蚯": 5951,
      "蚱": 5952,
      "蚷": 5953,
      "蚺": 5954,
      "蚻": 5955,
      "蚿": 5956,
      "蛀": 5957,
      "蛄": 5958,
      "蛅": 5959,
      "蛆": 5960,
      "蛇": 5961,
      "蛉": 5962,
      "蛋": 5963,
      "蛔": 5964,
      "蛙": 5965,
      "蛛": 5966,
      "蛟": 5967,
      "蛢": 5968,
      "蛤": 5969,
      "蛩": 5970,
      "蛭": 5971,
      "蛸": 5972,
      "蛹": 5973,
      "蛺": 5974,
      "蛻": 5975,
      "蛾": 5976,
      "蜀": 5977,
      "蜂": 5978,
      "蜃": 5979,
      "蜆": 5980,
      "蜈": 5981,
      "蜉": 5982,
      "蜊": 5983,
      "蜋": 5984,
      "蜍": 5985,
      "蜑": 5986,
      "蜒": 5987,
      "蜓": 5988,
      "蜘": 5989,
      "蜙": 5990,
      "蜚": 5991,
      "蜜": 5992,
      "蜞": 5993,
      "蜣": 5994,
      "蜥": 5995,
      "蜩": 5996,
      "蜮": 5997,
      "蜴": 5998,
      "蜻": 5999,
      "蜾": 6000,
      "蜿": 6001,
      "蝌": 6002,
      "蝎": 6003,
      "蝕": 6004,
      "蝗": 6005,
      "蝘": 6006,
      "蝙": 6007,
      "蝟": 6008,
      "蝠": 6009,
      "蝡": 6010,
      "蝣": 6011,
      "蝥": 6012,
      "蝦": 6013,
      "蝨": 6014,
      "蝮": 6015,
      "蝱": 6016,
      "蝴": 6017,
      "蝶": 6018,
      "蝸": 6019,
      "螂": 6020,
      "螃": 6021,
      "螅": 6022,
      "螈": 6023,
      "融": 6024,
      "螖": 6025,
      "螗": 6026,
      "螞": 6027,
      "螟": 6028,
      "螢": 6029,
      "螣": 6030,
      "螫": 6031,
      "螬": 6032,
      "螭": 6033,
      "螳": 6034,
      "螺": 6035,
      "螻": 6036,
      "螽": 6037,
      "蟀": 6038,
      "蟄": 6039,
      "蟆": 6040,
      "蟊": 6041,
      "蟋": 6042,
      "蟒": 6043,
      "蟓": 6044,
      "蟖": 6045,
      "蟘": 6046,
      "蟛": 6047,
      "蟠": 6048,
      "蟣": 6049,
      "蟥": 6050,
      "蟪": 6051,
      "蟬": 6052,
      "蟲": 6053,
      "蟴": 6054,
      "蟶": 6055,
      "蟹": 6056,
      "蟻": 6057,
      "蟾": 6058,
      "蠁": 6059,
      "蠃": 6060,
      "蠅": 6061,
      "蠆": 6062,
      "蠉": 6063,
      "蠊": 6064,
      "蠋": 6065,
      "蠐": 6066,
      "蠑": 6067,
      "蠓": 6068,
      "蠕": 6069,
      "蠖": 6070,
      "蠛": 6071,
      "蠟": 6072,
      "蠡": 6073,
      "蠢": 6074,
      "蠣": 6075,
      "蠧": 6076,
      "蠪": 6077,
      "蠭": 6078,
      "蠰": 6079,
      "蠱": 6080,
      "蠲": 6081,
      "蠶": 6082,
      "蠹": 6083,
      "蠻": 6084,
      "蠼": 6085,
      "血": 6086,
      "衄": 6087,
      "衆": 6088,
      "衊": 6089,
      "衋": 6090,
      "行": 6091,
      "衍": 6092,
      "衒": 6093,
      "術": 6094,
      "街": 6095,
      "衙": 6096,
      "衛": 6097,
      "衝": 6098,
      "衞": 6099,
      "衡": 6100,
      "衢": 6101,
      "衣": 6102,
      "表": 6103,
      "衫": 6104,
      "衰": 6105,
      "衱": 6106,
      "衲": 6107,
      "衷": 6108,
      "衹": 6109,
      "衽": 6110,
      "衾": 6111,
      "衿": 6112,
      "袁": 6113,
      "袂": 6114,
      "袄": 6115,
      "袈": 6116,
      "袋": 6117,
      "袍": 6118,
      "袒": 6119,
      "袖": 6120,
      "袗": 6121,
      "袚": 6122,
      "袛": 6123,
      "袞": 6124,
      "袤": 6125,
      "袪": 6126,
      "被": 6127,
      "袱": 6128,
      "袴": 6129,
      "袵": 6130,
      "袷": 6131,
      "袽": 6132,
      "裁": 6133,
      "裂": 6134,
      "裊": 6135,
      "裏": 6136,
      "裒": 6137,
      "裔": 6138,
      "裕": 6139,
      "裘": 6140,
      "裙": 6141,
      "補": 6142,
      "裝": 6143,
      "裟": 6144,
      "裡": 6145,
      "裨": 6146,
      "裳": 6147,
      "裴": 6148,
      "裵": 6149,
      "裸": 6150,
      "裹": 6151,
      "製": 6152,
      "裾": 6153,
      "褁": 6154,
      "複": 6155,
      "褊": 6156,
      "褌": 6157,
      "褎": 6158,
      "褐": 6159,
      "褒": 6160,
      "褓": 6161,
      "褔": 6162,
      "褙": 6163,
      "褚": 6164,
      "褠": 6165,
      "褢": 6166,
      "褥": 6167,
      "褪": 6168,
      "褫": 6169,
      "褰": 6170,
      "褶": 6171,
      "褸": 6172,
      "褺": 6173,
      "褻": 6174,
      "襁": 6175,
      "襃": 6176,
      "襄": 6177,
      "襍": 6178,
      "襖": 6179,
      "襞": 6180,
      "襟": 6181,
      "襤": 6182,
      "襦": 6183,
      "襪": 6184,
      "襯": 6185,
      "襲": 6186,
      "西": 6187,
      "要": 6188,
      "覃": 6189,
      "覆": 6190,
      "覇": 6191,
      "覈": 6192,
      "覉": 6193,
      "覊": 6194,
      "見": 6195,
      "規": 6196,
      "覑": 6197,
      "覓": 6198,
      "覔": 6199,
      "視": 6200,
      "覗": 6201,
      "覘": 6202,
      "覡": 6203,
      "覦": 6204,
      "覧": 6205,
      "覩": 6206,
      "親": 6207,
      "覬": 6208,
      "覯": 6209,
      "覰": 6210,
      "覲": 6211,
      "覶": 6212,
      "覷": 6213,
      "覺": 6214,
      "覼": 6215,
      "覽": 6216,
      "覿": 6217,
      "觀": 6218,
      "角": 6219,
      "觖": 6220,
      "觗": 6221,
      "觚": 6222,
      "觝": 6223,
      "解": 6224,
      "觥": 6225,
      "觧": 6226,
      "觫": 6227,
      "觳": 6228,
      "觴": 6229,
      "觸": 6230,
      "言": 6231,
      "訂": 6232,
      "訃": 6233,
      "訇": 6234,
      "計": 6235,
      "訊": 6236,
      "訌": 6237,
      "討": 6238,
      "訐": 6239,
      "訒": 6240,
      "訓": 6241,
      "訔": 6242,
      "訕": 6243,
      "訖": 6244,
      "託": 6245,
      "記": 6246,
      "訛": 6247,
      "訝": 6248,
      "訟": 6249,
      "訢": 6250,
      "訣": 6251,
      "訥": 6252,
      "訪": 6253,
      "設": 6254,
      "許": 6255,
      "訴": 6256,
      "訶": 6257,
      "診": 6258,
      "註": 6259,
      "証": 6260,
      "訽": 6261,
      "訾": 6262,
      "訿": 6263,
      "詁": 6264,
      "詆": 6265,
      "詈": 6266,
      "詎": 6267,
      "詐": 6268,
      "詑": 6269,
      "詔": 6270,
      "評": 6271,
      "詗": 6272,
      "詘": 6273,
      "詛": 6274,
      "詞": 6275,
      "詠": 6276,
      "詡": 6277,
      "詢": 6278,
      "詣": 6279,
      "詤": 6280,
      "試": 6281,
      "詩": 6282,
      "詬": 6283,
      "詭": 6284,
      "詮": 6285,
      "詰": 6286,
      "話": 6287,
      "該": 6288,
      "詳": 6289,
      "詵": 6290,
      "詷": 6291,
      "詹": 6292,
      "詼": 6293,
      "誅": 6294,
      "誇": 6295,
      "誌": 6296,
      "認": 6297,
      "誑": 6298,
      "誓": 6299,
      "誔": 6300,
      "誕": 6301,
      "誘": 6302,
      "誚": 6303,
      "語": 6304,
      "誠": 6305,
      "誡": 6306,
      "誣": 6307,
      "誤": 6308,
      "誥": 6309,
      "誦": 6310,
      "誨": 6311,
      "說": 6312,
      "誰": 6313,
      "課": 6314,
      "誶": 6315,
      "誹": 6316,
      "誼": 6317,
      "誾": 6318,
      "調": 6319,
      "諂": 6320,
      "諄": 6321,
      "談": 6322,
      "諉": 6323,
      "請": 6324,
      "諍": 6325,
      "諏": 6326,
      "諒": 6327,
      "論": 6328,
      "諗": 6329,
      "諛": 6330,
      "諜": 6331,
      "諝": 6332,
      "諟": 6333,
      "諠": 6334,
      "諡": 6335,
      "諤": 6336,
      "諦": 6337,
      "諧": 6338,
      "諫": 6339,
      "諭": 6340,
      "諮": 6341,
      "諱": 6342,
      "諲": 6343,
      "諳": 6344,
      "諴": 6345,
      "諶": 6346,
      "諷": 6347,
      "諸": 6348,
      "諺": 6349,
      "諼": 6350,
      "諾": 6351,
      "謀": 6352,
      "謁": 6353,
      "謂": 6354,
      "謄": 6355,
      "謇": 6356,
      "謊": 6357,
      "謎": 6358,
      "謏": 6359,
      "謐": 6360,
      "謔": 6361,
      "謖": 6362,
      "謗": 6363,
      "謙": 6364,
      "謚": 6365,
      "講": 6366,
      "謝": 6367,
      "謟": 6368,
      "謠": 6369,
      "謨": 6370,
      "謪": 6371,
      "謫": 6372,
      "謬": 6373,
      "謭": 6374,
      "謳": 6375,
      "謵": 6376,
      "謷": 6377,
      "謹": 6378,
      "謾": 6379,
      "譁": 6380,
      "證": 6381,
      "譊": 6382,
      "譌": 6383,
      "譎": 6384,
      "譏": 6385,
      "譔": 6386,
      "譖": 6387,
      "識": 6388,
      "譙": 6389,
      "譚": 6390,
      "譜": 6391,
      "譟": 6392,
      "警": 6393,
      "譧": 6394,
      "譫": 6395,
      "譬": 6396,
      "譯": 6397,
      "議": 6398,
      "譴": 6399,
      "護": 6400,
      "譽": 6401,
      "譾": 6402,
      "讀": 6403,
      "讃": 6404,
      "讉": 6405,
      "變": 6406,
      "讌": 6407,
      "讎": 6408,
      "讏": 6409,
      "讐": 6410,
      "讒": 6411,
      "讓": 6412,
      "讖": 6413,
      "讚": 6414,
      "讜": 6415,
      "谷": 6416,
      "谺": 6417,
      "谽": 6418,
      "谿": 6419,
      "豁": 6420,
      "豆": 6421,
      "豇": 6422,
      "豈": 6423,
      "豉": 6424,
      "豊": 6425,
      "豋": 6426,
      "豌": 6427,
      "豎": 6428,
      "豐": 6429,
      "豔": 6430,
      "豕": 6431,
      "豚": 6432,
      "象": 6433,
      "豢": 6434,
      "豨": 6435,
      "豪": 6436,
      "豫": 6437,
      "豬": 6438,
      "豭": 6439,
      "豳": 6440,
      "豸": 6441,
      "豹": 6442,
      "豺": 6443,
      "豻": 6444,
      "豼": 6445,
      "貂": 6446,
      "貃": 6447,
      "貅": 6448,
      "貉": 6449,
      "貊": 6450,
      "貌": 6451,
      "貓": 6452,
      "貔": 6453,
      "貘": 6454,
      "貙": 6455,
      "貝": 6456,
      "貞": 6457,
      "負": 6458,
      "財": 6459,
      "貢": 6460,
      "貧": 6461,
      "貨": 6462,
      "販": 6463,
      "貪": 6464,
      "貫": 6465,
      "責": 6466,
      "貯": 6467,
      "貰": 6468,
      "貲": 6469,
      "貳": 6470,
      "貴": 6471,
      "貶": 6472,
      "買": 6473,
      "貸": 6474,
      "貺": 6475,
      "費": 6476,
      "貼": 6477,
      "貽": 6478,
      "貿": 6479,
      "賀": 6480,
      "賁": 6481,
      "賂": 6482,
      "賃": 6483,
      "賄": 6484,
      "資": 6485,
      "賈": 6486,
      "賊": 6487,
      "賑": 6488,
      "賒": 6489,
      "賓": 6490,
      "賙": 6491,
      "賚": 6492,
      "賛": 6493,
      "賜": 6494,
      "賞": 6495,
      "賠": 6496,
      "賡": 6497,
      "賢": 6498,
      "賣": 6499,
      "賤": 6500,
      "賦": 6501,
      "質": 6502,
      "賬": 6503,
      "賭": 6504,
      "賴": 6505,
      "賷": 6506,
      "賺": 6507,
      "賻": 6508,
      "購": 6509,
      "賽": 6510,
      "賾": 6511,
      "贄": 6512,
      "贅": 6513,
      "贈": 6514,
      "贊": 6515,
      "贋": 6516,
      "贍": 6517,
      "贏": 6518,
      "贐": 6519,
      "贓": 6520,
      "贔": 6521,
      "贖": 6522,
      "贗": 6523,
      "贘": 6524,
      "赤": 6525,
      "赦": 6526,
      "赧": 6527,
      "赫": 6528,
      "赭": 6529,
      "走": 6530,
      "赳": 6531,
      "赴": 6532,
      "赶": 6533,
      "起": 6534,
      "趁": 6535,
      "趂": 6536,
      "趄": 6537,
      "超": 6538,
      "越": 6539,
      "趍": 6540,
      "趐": 6541,
      "趑": 6542,
      "趕": 6543,
      "趙": 6544,
      "趣": 6545,
      "趦": 6546,
      "趨": 6547,
      "趲": 6548,
      "足": 6549,
      "趺": 6550,
      "趾": 6551,
      "跂": 6552,
      "跋": 6553,
      "跌": 6554,
      "跎": 6555,
      "跑": 6556,
      "跕": 6557,
      "跖": 6558,
      "跗": 6559,
      "跙": 6560,
      "跚": 6561,
      "跛": 6562,
      "距": 6563,
      "跟": 6564,
      "跡": 6565,
      "跣": 6566,
      "跤": 6567,
      "跧": 6568,
      "跨": 6569,
      "跪": 6570,
      "跫": 6571,
      "跬": 6572,
      "路": 6573,
      "跲": 6574,
      "跳": 6575,
      "跼": 6576,
      "跽": 6577,
      "踄": 6578,
      "踈": 6579,
      "踉": 6580,
      "踊": 6581,
      "踏": 6582,
      "踐": 6583,
      "踒": 6584,
      "踓": 6585,
      "踔": 6586,
      "踕": 6587,
      "踘": 6588,
      "踞": 6589,
      "踟": 6590,
      "踢": 6591,
      "踣": 6592,
      "踦": 6593,
      "踪": 6594,
      "踭": 6595,
      "踰": 6596,
      "踴": 6597,
      "踵": 6598,
      "踶": 6599,
      "踸": 6600,
      "踼": 6601,
      "踽": 6602,
      "蹂": 6603,
      "蹄": 6604,
      "蹇": 6605,
      "蹈": 6606,
      "蹉": 6607,
      "蹊": 6608,
      "蹋": 6609,
      "蹌": 6610,
      "蹐": 6611,
      "蹕": 6612,
      "蹙": 6613,
      "蹝": 6614,
      "蹟": 6615,
      "蹠": 6616,
      "蹣": 6617,
      "蹤": 6618,
      "蹬": 6619,
      "蹭": 6620,
      "蹯": 6621,
      "蹰": 6622,
      "蹲": 6623,
      "蹴": 6624,
      "蹶": 6625,
      "蹺": 6626,
      "蹻": 6627,
      "蹼": 6628,
      "躁": 6629,
      "躄": 6630,
      "躅": 6631,
      "躇": 6632,
      "躊": 6633,
      "躋": 6634,
      "躍": 6635,
      "躐": 6636,
      "躑": 6637,
      "躓": 6638,
      "躕": 6639,
      "躙": 6640,
      "躝": 6641,
      "躡": 6642,
      "躥": 6643,
      "躩": 6644,
      "躪": 6645,
      "身": 6646,
      "躬": 6647,
      "躱": 6648,
      "躳": 6649,
      "躶": 6650,
      "軀": 6651,
      "軆": 6652,
      "車": 6653,
      "軋": 6654,
      "軌": 6655,
      "軍": 6656,
      "軏": 6657,
      "軒": 6658,
      "軓": 6659,
      "軔": 6660,
      "軛": 6661,
      "軟": 6662,
      "軫": 6663,
      "軰": 6664,
      "軱": 6665,
      "軶": 6666,
      "軸": 6667,
      "軹": 6668,
      "軺": 6669,
      "軻": 6670,
      "軼": 6671,
      "軾": 6672,
      "輂": 6673,
      "較": 6674,
      "輅": 6675,
      "載": 6676,
      "輊": 6677,
      "輒": 6678,
      "輓": 6679,
      "輔": 6680,
      "輕": 6681,
      "輘": 6682,
      "輙": 6683,
      "輛": 6684,
      "輜": 6685,
      "輝": 6686,
      "輟": 6687,
      "輦": 6688,
      "輩": 6689,
      "輪": 6690,
      "輭": 6691,
      "輯": 6692,
      "輳": 6693,
      "輶": 6694,
      "輸": 6695,
      "輻": 6696,
      "輾": 6697,
      "輿": 6698,
      "轂": 6699,
      "轄": 6700,
      "轅": 6701,
      "轆": 6702,
      "轇": 6703,
      "轉": 6704,
      "轍": 6705,
      "轎": 6706,
      "轗": 6707,
      "轝": 6708,
      "轟": 6709,
      "轡": 6710,
      "轢": 6711,
      "轤": 6712,
      "辛": 6713,
      "辜": 6714,
      "辞": 6715,
      "辟": 6716,
      "辢": 6717,
      "辣": 6718,
      "辦": 6719,
      "辨": 6720,
      "辭": 6721,
      "辮": 6722,
      "辯": 6723,
      "辰": 6724,
      "辱": 6725,
      "農": 6726,
      "辻": 6727,
      "込": 6728,
      "迀": 6729,
      "迂": 6730,
      "迃": 6731,
      "迄": 6732,
      "迅": 6733,
      "迍": 6734,
      "迎": 6735,
      "近": 6736,
      "迓": 6737,
      "返": 6738,
      "迢": 6739,
      "迤": 6740,
      "迥": 6741,
      "迦": 6742,
      "迨": 6743,
      "迩": 6744,
      "迪": 6745,
      "迫": 6746,
      "迭": 6747,
      "迯": 6748,
      "述": 6749,
      "迲": 6750,
      "迴": 6751,
      "迷": 6752,
      "迸": 6753,
      "迹": 6754,
      "迺": 6755,
      "追": 6756,
      "退": 6757,
      "送": 6758,
      "适": 6759,
      "逃": 6760,
      "逄": 6761,
      "逅": 6762,
      "逆": 6763,
      "逈": 6764,
      "逋": 6765,
      "逍": 6766,
      "透": 6767,
      "逐": 6768,
      "逑": 6769,
      "途": 6770,
      "逕": 6771,
      "逖": 6772,
      "逗": 6773,
      "這": 6774,
      "通": 6775,
      "逝": 6776,
      "逞": 6777,
      "速": 6778,
      "造": 6779,
      "逡": 6780,
      "逢": 6781,
      "連": 6782,
      "逭": 6783,
      "逮": 6784,
      "週": 6785,
      "進": 6786,
      "逴": 6787,
      "逵": 6788,
      "逶": 6789,
      "逸": 6790,
      "逼": 6791,
      "逾": 6792,
      "遁": 6793,
      "遂": 6794,
      "遄": 6795,
      "遇": 6796,
      "遉": 6797,
      "遊": 6798,
      "運": 6799,
      "遍": 6800,
      "過": 6801,
      "遏": 6802,
      "遐": 6803,
      "遑": 6804,
      "遒": 6805,
      "道": 6806,
      "達": 6807,
      "違": 6808,
      "遘": 6809,
      "遙": 6810,
      "遛": 6811,
      "遜": 6812,
      "遝": 6813,
      "遞": 6814,
      "遠": 6815,
      "遡": 6816,
      "遣": 6817,
      "遨": 6818,
      "適": 6819,
      "遭": 6820,
      "遮": 6821,
      "遯": 6822,
      "遲": 6823,
      "遵": 6824,
      "遶": 6825,
      "遷": 6826,
      "選": 6827,
      "遺": 6828,
      "遼": 6829,
      "遽": 6830,
      "避": 6831,
      "邀": 6832,
      "邁": 6833,
      "邂": 6834,
      "邃": 6835,
      "還": 6836,
      "邅": 6837,
      "邇": 6838,
      "邈": 6839,
      "邊": 6840,
      "邏": 6841,
      "邑": 6842,
      "邕": 6843,
      "邙": 6844,
      "邛": 6845,
      "邜": 6846,
      "邢": 6847,
      "那": 6848,
      "邦": 6849,
      "邨": 6850,
      "邪": 6851,
      "邯": 6852,
      "邰": 6853,
      "邱": 6854,
      "邵": 6855,
      "邸": 6856,
      "郁": 6857,
      "郃": 6858,
      "郅": 6859,
      "郊": 6860,
      "郍": 6861,
      "郎": 6862,
      "郛": 6863,
      "郞": 6864,
      "郡": 6865,
      "郢": 6866,
      "郤": 6867,
      "部": 6868,
      "郭": 6869,
      "郯": 6870,
      "郵": 6871,
      "都": 6872,
      "鄒": 6873,
      "鄕": 6874,
      "鄙": 6875,
      "鄚": 6876,
      "鄢": 6877,
      "鄧": 6878,
      "鄭": 6879,
      "鄰": 6880,
      "鄲": 6881,
      "酀": 6882,
      "酆": 6883,
      "酈": 6884,
      "酉": 6885,
      "酊": 6886,
      "酋": 6887,
      "酌": 6888,
      "配": 6889,
      "酎": 6890,
      "酏": 6891,
      "酒": 6892,
      "酖": 6893,
      "酗": 6894,
      "酢": 6895,
      "酣": 6896,
      "酧": 6897,
      "酩": 6898,
      "酪": 6899,
      "酬": 6900,
      "酲": 6901,
      "酵": 6902,
      "酷": 6903,
      "酸": 6904,
      "酹": 6905,
      "酻": 6906,
      "醃": 6907,
      "醅": 6908,
      "醆": 6909,
      "醇": 6910,
      "醉": 6911,
      "醋": 6912,
      "醍": 6913,
      "醎": 6914,
      "醐": 6915,
      "醒": 6916,
      "醜": 6917,
      "醞": 6918,
      "醢": 6919,
      "醪": 6920,
      "醫": 6921,
      "醬": 6922,
      "醮": 6923,
      "醯": 6924,
      "醱": 6925,
      "醲": 6926,
      "醴": 6927,
      "醵": 6928,
      "醺": 6929,
      "釀": 6930,
      "釁": 6931,
      "釃": 6932,
      "釆": 6933,
      "采": 6934,
      "釉": 6935,
      "釋": 6936,
      "里": 6937,
      "重": 6938,
      "野": 6939,
      "量": 6940,
      "釐": 6941,
      "金": 6942,
      "釗": 6943,
      "釘": 6944,
      "釜": 6945,
      "針": 6946,
      "釣": 6947,
      "釦": 6948,
      "釰": 6949,
      "釵": 6950,
      "釼": 6951,
      "鈄": 6952,
      "鈆": 6953,
      "鈇": 6954,
      "鈍": 6955,
      "鈎": 6956,
      "鈐": 6957,
      "鈑": 6958,
      "鈒": 6959,
      "鈔": 6960,
      "鈞": 6961,
      "鈴": 6962,
      "鈸": 6963,
      "鈺": 6964,
      "鈿": 6965,
      "鉄": 6966,
      "鉅": 6967,
      "鉈": 6968,
      "鉉": 6969,
      "鉋": 6970,
      "鉏": 6971,
      "鉗": 6972,
      "鉛": 6973,
      "鉞": 6974,
      "鉢": 6975,
      "鉤": 6976,
      "鉦": 6977,
      "鉾": 6978,
      "銀": 6979,
      "銁": 6980,
      "銃": 6981,
      "銅": 6982,
      "銇": 6983,
      "銑": 6984,
      "銓": 6985,
      "銕": 6986,
      "銖": 6987,
      "銘": 6988,
      "銛": 6989,
      "銜": 6990,
      "銲": 6991,
      "銳": 6992,
      "銶": 6993,
      "銷": 6994,
      "銹": 6995,
      "鋀": 6996,
      "鋃": 6997,
      "鋄": 6998,
      "鋈": 6999,
      "鋎": 7000,
      "鋏": 7001,
      "鋑": 7002,
      "鋒": 7003,
      "鋤": 7004,
      "鋩": 7005,
      "鋪": 7006,
      "鋸": 7007,
      "鋼": 7008,
      "錄": 7009,
      "錆": 7010,
      "錐": 7011,
      "錕": 7012,
      "錘": 7013,
      "錙": 7014,
      "錚": 7015,
      "錟": 7016,
      "錠": 7017,
      "錡": 7018,
      "錢": 7019,
      "錤": 7020,
      "錦": 7021,
      "錨": 7022,
      "錩": 7023,
      "錫": 7024,
      "錬": 7025,
      "錮": 7026,
      "錯": 7027,
      "錻": 7028,
      "鍂": 7029,
      "鍊": 7030,
      "鍋": 7031,
      "鍍": 7032,
      "鍔": 7033,
      "鍚": 7034,
      "鍛": 7035,
      "鍜": 7036,
      "鍤": 7037,
      "鍪": 7038,
      "鍫": 7039,
      "鍬": 7040,
      "鍮": 7041,
      "鍰": 7042,
      "鍳": 7043,
      "鍵": 7044,
      "鍼": 7045,
      "鍾": 7046,
      "鎁": 7047,
      "鎈": 7048,
      "鎌": 7049,
      "鎔": 7050,
      "鎖": 7051,
      "鎗": 7052,
      "鎚": 7053,
      "鎛": 7054,
      "鎡": 7055,
      "鎣": 7056,
      "鎧": 7057,
      "鎩": 7058,
      "鎬": 7059,
      "鎭": 7060,
      "鎰": 7061,
      "鎻": 7062,
      "鎾": 7063,
      "鏁": 7064,
      "鏄": 7065,
      "鏌": 7066,
      "鏑": 7067,
      "鏖": 7068,
      "鏗": 7069,
      "鏘": 7070,
      "鏜": 7071,
      "鏝": 7072,
      "鏞": 7073,
      "鏟": 7074,
      "鏡": 7075,
      "鏤": 7076,
      "鏦": 7077,
      "鏽": 7078,
      "鐃": 7079,
      "鐄": 7080,
      "鐍": 7081,
      "鐘": 7082,
      "鐙": 7083,
      "鐫": 7084,
      "鐮": 7085,
      "鐳": 7086,
      "鐵": 7087,
      "鐸": 7088,
      "鐺": 7089,
      "鑄": 7090,
      "鑅": 7091,
      "鑊": 7092,
      "鑑": 7093,
      "鑒": 7094,
      "鑛": 7095,
      "鑞": 7096,
      "鑠": 7097,
      "鑢": 7098,
      "鑰": 7099,
      "鑲": 7100,
      "鑼": 7101,
      "鑽": 7102,
      "鑾": 7103,
      "鑿": 7104,
      "钁": 7105,
      "長": 7106,
      "門": 7107,
      "閂": 7108,
      "閃": 7109,
      "閈": 7110,
      "閉": 7111,
      "閊": 7112,
      "開": 7113,
      "閎": 7114,
      "閏": 7115,
      "閑": 7116,
      "閒": 7117,
      "間": 7118,
      "閔": 7119,
      "閘": 7120,
      "閙": 7121,
      "閟": 7122,
      "閣": 7123,
      "閤": 7124,
      "閥": 7125,
      "閧": 7126,
      "閨": 7127,
      "閩": 7128,
      "閪": 7129,
      "閫": 7130,
      "閬": 7131,
      "閭": 7132,
      "閱": 7133,
      "閴": 7134,
      "閹": 7135,
      "閻": 7136,
      "閼": 7137,
      "閽": 7138,
      "閾": 7139,
      "闀": 7140,
      "闃": 7141,
      "闇": 7142,
      "闈": 7143,
      "闉": 7144,
      "闊": 7145,
      "闋": 7146,
      "闌": 7147,
      "闍": 7148,
      "闐": 7149,
      "闑": 7150,
      "闒": 7151,
      "闓": 7152,
      "闔": 7153,
      "闕": 7154,
      "闖": 7155,
      "關": 7156,
      "闠": 7157,
      "闡": 7158,
      "闢": 7159,
      "闤": 7160,
      "闥": 7161,
      "闧": 7162,
      "阀": 7163,
      "阜": 7164,
      "阡": 7165,
      "阧": 7166,
      "阨": 7167,
      "阪": 7168,
      "阮": 7169,
      "阱": 7170,
      "防": 7171,
      "阻": 7172,
      "阽": 7173,
      "阿": 7174,
      "陀": 7175,
      "陁": 7176,
      "陂": 7177,
      "陃": 7178,
      "附": 7179,
      "陋": 7180,
      "陌": 7181,
      "降": 7182,
      "限": 7183,
      "陔": 7184,
      "陛": 7185,
      "陜": 7186,
      "陝": 7187,
      "陞": 7188,
      "陟": 7189,
      "院": 7190,
      "陣": 7191,
      "除": 7192,
      "陪": 7193,
      "陬": 7194,
      "陰": 7195,
      "陲": 7196,
      "陳": 7197,
      "陴": 7198,
      "陵": 7199,
      "陶": 7200,
      "陷": 7201,
      "陸": 7202,
      "陽": 7203,
      "陿": 7204,
      "隄": 7205,
      "隅": 7206,
      "隆": 7207,
      "隈": 7208,
      "隉": 7209,
      "隊": 7210,
      "隋": 7211,
      "隍": 7212,
      "階": 7213,
      "隔": 7214,
      "隕": 7215,
      "隘": 7216,
      "隙": 7217,
      "際": 7218,
      "障": 7219,
      "隠": 7220,
      "隣": 7221,
      "隧": 7222,
      "隨": 7223,
      "隩": 7224,
      "險": 7225,
      "隬": 7226,
      "隮": 7227,
      "隰": 7228,
      "隱": 7229,
      "隲": 7230,
      "隳": 7231,
      "隴": 7232,
      "隷": 7233,
      "隸": 7234,
      "隹": 7235,
      "隻": 7236,
      "雀": 7237,
      "雁": 7238,
      "雄": 7239,
      "雅": 7240,
      "集": 7241,
      "雇": 7242,
      "雉": 7243,
      "雋": 7244,
      "雌": 7245,
      "雍": 7246,
      "雎": 7247,
      "雕": 7248,
      "雖": 7249,
      "雙": 7250,
      "雛": 7251,
      "雜": 7252,
      "雞": 7253,
      "離": 7254,
      "難": 7255,
      "雨": 7256,
      "雩": 7257,
      "雪": 7258,
      "雰": 7259,
      "雱": 7260,
      "雲": 7261,
      "零": 7262,
      "雷": 7263,
      "雹": 7264,
      "電": 7265,
      "雿": 7266,
      "需": 7267,
      "霄": 7268,
      "霅": 7269,
      "霆": 7270,
      "震": 7271,
      "霈": 7272,
      "霍": 7273,
      "霎": 7274,
      "霏": 7275,
      "霑": 7276,
      "霓": 7277,
      "霖": 7278,
      "霜": 7279,
      "霞": 7280,
      "霧": 7281,
      "霪": 7282,
      "霰": 7283,
      "露": 7284,
      "霸": 7285,
      "霹": 7286,
      "霽": 7287,
      "霾": 7288,
      "靂": 7289,
      "靄": 7290,
      "靆": 7291,
      "靈": 7292,
      "靉": 7293,
      "靑": 7294,
      "靖": 7295,
      "靚": 7296,
      "靛": 7297,
      "靜": 7298,
      "非": 7299,
      "靠": 7300,
      "靡": 7301,
      "面": 7302,
      "靦": 7303,
      "靨": 7304,
      "革": 7305,
      "靭": 7306,
      "靱": 7307,
      "靳": 7308,
      "靴": 7309,
      "靶": 7310,
      "靷": 7311,
      "靺": 7312,
      "靼": 7313,
      "鞄": 7314,
      "鞅": 7315,
      "鞋": 7316,
      "鞍": 7317,
      "鞏": 7318,
      "鞓": 7319,
      "鞕": 7320,
      "鞘": 7321,
      "鞠": 7322,
      "鞣": 7323,
      "鞦": 7324,
      "鞨": 7325,
      "鞫": 7326,
      "鞭": 7327,
      "鞮": 7328,
      "鞱": 7329,
      "鞴": 7330,
      "鞿": 7331,
      "韁": 7332,
      "韃": 7333,
      "韆": 7334,
      "韉": 7335,
      "韋": 7336,
      "韌": 7337,
      "韓": 7338,
      "韙": 7339,
      "韜": 7340,
      "韝": 7341,
      "韞": 7342,
      "韭": 7343,
      "韮": 7344,
      "音": 7345,
      "韵": 7346,
      "韶": 7347,
      "韺": 7348,
      "韻": 7349,
      "響": 7350,
      "頀": 7351,
      "頁": 7352,
      "頂": 7353,
      "頃": 7354,
      "項": 7355,
      "順": 7356,
      "須": 7357,
      "頉": 7358,
      "頊": 7359,
      "頋": 7360,
      "頌": 7361,
      "頎": 7362,
      "頏": 7363,
      "預": 7364,
      "頑": 7365,
      "頒": 7366,
      "頓": 7367,
      "頔": 7368,
      "頗": 7369,
      "領": 7370,
      "頞": 7371,
      "頡": 7372,
      "頣": 7373,
      "頤": 7374,
      "頥": 7375,
      "頦": 7376,
      "頫": 7377,
      "頭": 7378,
      "頮": 7379,
      "頰": 7380,
      "頳": 7381,
      "頷": 7382,
      "頸": 7383,
      "頹": 7384,
      "頺": 7385,
      "頻": 7386,
      "頽": 7387,
      "顆": 7388,
      "顋": 7389,
      "題": 7390,
      "額": 7391,
      "顎": 7392,
      "顏": 7393,
      "顒": 7394,
      "顓": 7395,
      "顔": 7396,
      "顖": 7397,
      "顗": 7398,
      "願": 7399,
      "顙": 7400,
      "顚": 7401,
      "類": 7402,
      "顥": 7403,
      "顧": 7404,
      "顫": 7405,
      "顬": 7406,
      "顯": 7407,
      "顰": 7408,
      "顱": 7409,
      "顳": 7410,
      "顴": 7411,
      "風": 7412,
      "颯": 7413,
      "颱": 7414,
      "颶": 7415,
      "颷": 7416,
      "颺": 7417,
      "颻": 7418,
      "颼": 7419,
      "飃": 7420,
      "飄": 7421,
      "飇": 7422,
      "飈": 7423,
      "飛": 7424,
      "飜": 7425,
      "食": 7426,
      "飡": 7427,
      "飢": 7428,
      "飣": 7429,
      "飥": 7430,
      "飩": 7431,
      "飪": 7432,
      "飫": 7433,
      "飭": 7434,
      "飮": 7435,
      "飯": 7436,
      "飱": 7437,
      "飴": 7438,
      "飼": 7439,
      "飽": 7440,
      "飾": 7441,
      "餂": 7442,
      "餅": 7443,
      "餇": 7444,
      "餈": 7445,
      "餉": 7446,
      "養": 7447,
      "餌": 7448,
      "餐": 7449,
      "餒": 7450,
      "餓": 7451,
      "餔": 7452,
      "餕": 7453,
      "餖": 7454,
      "餘": 7455,
      "餙": 7456,
      "餛": 7457,
      "餞": 7458,
      "餠": 7459,
      "餧": 7460,
      "館": 7461,
      "餮": 7462,
      "餲": 7463,
      "餺": 7464,
      "餻": 7465,
      "餼": 7466,
      "餽": 7467,
      "餾": 7468,
      "饀": 7469,
      "饅": 7470,
      "饉": 7471,
      "饋": 7472,
      "饌": 7473,
      "饍": 7474,
      "饐": 7475,
      "饑": 7476,
      "饒": 7477,
      "饔": 7478,
      "饕": 7479,
      "饗": 7480,
      "饘": 7481,
      "饜": 7482,
      "饞": 7483,
      "馊": 7484,
      "首": 7485,
      "馗": 7486,
      "馘": 7487,
      "香": 7488,
      "馣": 7489,
      "馥": 7490,
      "馧": 7491,
      "馨": 7492,
      "馬": 7493,
      "馭": 7494,
      "馮": 7495,
      "馯": 7496,
      "馱": 7497,
      "馳": 7498,
      "馴": 7499,
      "馹": 7500,
      "馽": 7501,
      "駁": 7502,
      "駄": 7503,
      "駈": 7504,
      "駉": 7505,
      "駏": 7506,
      "駐": 7507,
      "駑": 7508,
      "駒": 7509,
      "駔": 7510,
      "駕": 7511,
      "駘": 7512,
      "駙": 7513,
      "駛": 7514,
      "駝": 7515,
      "駞": 7516,
      "駟": 7517,
      "駢": 7518,
      "駥": 7519,
      "駭": 7520,
      "駱": 7521,
      "駸": 7522,
      "駿": 7523,
      "騁": 7524,
      "騂": 7525,
      "騃": 7526,
      "騅": 7527,
      "騈": 7528,
      "騎": 7529,
      "騏": 7530,
      "騖": 7531,
      "騙": 7532,
      "騝": 7533,
      "騤": 7534,
      "騫": 7535,
      "騭": 7536,
      "騮": 7537,
      "騰": 7538,
      "騶": 7539,
      "騷": 7540,
      "騾": 7541,
      "驀": 7542,
      "驁": 7543,
      "驂": 7544,
      "驄": 7545,
      "驅": 7546,
      "驆": 7547,
      "驇": 7548,
      "驍": 7549,
      "驒": 7550,
      "驕": 7551,
      "驗": 7552,
      "驚": 7553,
      "驛": 7554,
      "驟": 7555,
      "驢": 7556,
      "驤": 7557,
      "驥": 7558,
      "驩": 7559,
      "驪": 7560,
      "骨": 7561,
      "骪": 7562,
      "骳": 7563,
      "骶": 7564,
      "骸": 7565,
      "骼": 7566,
      "髀": 7567,
      "髏": 7568,
      "髑": 7569,
      "髓": 7570,
      "體": 7571,
      "高": 7572,
      "髠": 7573,
      "髡": 7574,
      "髢": 7575,
      "髣": 7576,
      "髥": 7577,
      "髦": 7578,
      "髧": 7579,
      "髪": 7580,
      "髫": 7581,
      "髬": 7582,
      "髮": 7583,
      "髯": 7584,
      "髴": 7585,
      "髷": 7586,
      "髹": 7587,
      "髺": 7588,
      "髻": 7589,
      "髼": 7590,
      "髿": 7591,
      "鬂": 7592,
      "鬆": 7593,
      "鬉": 7594,
      "鬍": 7595,
      "鬐": 7596,
      "鬖": 7597,
      "鬚": 7598,
      "鬛": 7599,
      "鬜": 7600,
      "鬟": 7601,
      "鬢": 7602,
      "鬣": 7603,
      "鬧": 7604,
      "鬨": 7605,
      "鬩": 7606,
      "鬪": 7607,
      "鬮": 7608,
      "鬱": 7609,
      "鬲": 7610,
      "鬻": 7611,
      "鬼": 7612,
      "魁": 7613,
      "魂": 7614,
      "魃": 7615,
      "魄": 7616,
      "魅": 7617,
      "魉": 7618,
      "魋": 7619,
      "魍": 7620,
      "魎": 7621,
      "魏": 7622,
      "魑": 7623,
      "魔": 7624,
      "魘": 7625,
      "魚": 7626,
      "魦": 7627,
      "魫": 7628,
      "魯": 7629,
      "魴": 7630,
      "魶": 7631,
      "鮅": 7632,
      "鮎": 7633,
      "鮐": 7634,
      "鮑": 7635,
      "鮒": 7636,
      "鮝": 7637,
      "鮞": 7638,
      "鮧": 7639,
      "鮪": 7640,
      "鮫": 7641,
      "鮭": 7642,
      "鮮": 7643,
      "鮸": 7644,
      "鯀": 7645,
      "鯉": 7646,
      "鯊": 7647,
      "鯔": 7648,
      "鯖": 7649,
      "鯛": 7650,
      "鯟": 7651,
      "鯢": 7652,
      "鯤": 7653,
      "鯨": 7654,
      "鯫": 7655,
      "鯽": 7656,
      "鯿": 7657,
      "鰆": 7658,
      "鰈": 7659,
      "鰌": 7660,
      "鰍": 7661,
      "鰐": 7662,
      "鰒": 7663,
      "鰓": 7664,
      "鰕": 7665,
      "鰛": 7666,
      "鰣": 7667,
      "鰤": 7668,
      "鰥": 7669,
      "鰭": 7670,
      "鰮": 7671,
      "鰯": 7672,
      "鰲": 7673,
      "鰷": 7674,
      "鰹": 7675,
      "鰺": 7676,
      "鰻": 7677,
      "鰾": 7678,
      "鱁": 7679,
      "鱈": 7680,
      "鱉": 7681,
      "鱒": 7682,
      "鱓": 7683,
      "鱖": 7684,
      "鱗": 7685,
      "鱘": 7686,
      "鱝": 7687,
      "鱧": 7688,
      "鱭": 7689,
      "鱷": 7690,
      "鱸": 7691,
      "鱺": 7692,
      "鱻": 7693,
      "鳥": 7694,
      "鳦": 7695,
      "鳧": 7696,
      "鳩": 7697,
      "鳰": 7698,
      "鳳": 7699,
      "鳴": 7700,
      "鳶": 7701,
      "鴆": 7702,
      "鴈": 7703,
      "鴉": 7704,
      "鴛": 7705,
      "鴞": 7706,
      "鴟": 7707,
      "鴡": 7708,
      "鴣": 7709,
      "鴦": 7710,
      "鴨": 7711,
      "鴫": 7712,
      "鴻": 7713,
      "鴽": 7714,
      "鴿": 7715,
      "鵂": 7716,
      "鵄": 7717,
      "鵑": 7718,
      "鵜": 7719,
      "鵝": 7720,
      "鵠": 7721,
      "鵡": 7722,
      "鵩": 7723,
      "鵬": 7724,
      "鵰": 7725,
      "鵲": 7726,
      "鵷": 7727,
      "鶉": 7728,
      "鶊": 7729,
      "鶘": 7730,
      "鶡": 7731,
      "鶩": 7732,
      "鶬": 7733,
      "鶯": 7734,
      "鶴": 7735,
      "鶹": 7736,
      "鶺": 7737,
      "鶻": 7738,
      "鶿": 7739,
      "鷀": 7740,
      "鷁": 7741,
      "鷃": 7742,
      "鷄": 7743,
      "鷗": 7744,
      "鷙": 7745,
      "鷞": 7746,
      "鷥": 7747,
      "鷦": 7748,
      "鷩": 7749,
      "鷫": 7750,
      "鷯": 7751,
      "鷰": 7752,
      "鷲": 7753,
      "鷳": 7754,
      "鷴": 7755,
      "鷸": 7756,
      "鷹": 7757,
      "鷺": 7758,
      "鷽": 7759,
      "鸇": 7760,
      "鸕": 7761,
      "鸚": 7762,
      "鸝": 7763,
      "鸞": 7764,
      "鹀": 7765,
      "鹵": 7766,
      "鹹": 7767,
      "鹻": 7768,
      "鹼": 7769,
      "鹽": 7770,
      "鹿": 7771,
      "麁": 7772,
      "麈": 7773,
      "麋": 7774,
      "麑": 7775,
      "麒": 7776,
      "麓": 7777,
      "麕": 7778,
      "麗": 7779,
      "麝": 7780,
      "麞": 7781,
      "麟": 7782,
      "麤": 7783,
      "麥": 7784,
      "麩": 7785,
      "麪": 7786,
      "麭": 7787,
      "麴": 7788,
      "麵": 7789,
      "麷": 7790,
      "麻": 7791,
      "麼": 7792,
      "麽": 7793,
      "麾": 7794,
      "麿": 7795,
      "黃": 7796,
      "黌": 7797,
      "黍": 7798,
      "黎": 7799,
      "黏": 7800,
      "黑": 7801,
      "黔": 7802,
      "默": 7803,
      "黙": 7804,
      "黛": 7805,
      "黜": 7806,
      "點": 7807,
      "黠": 7808,
      "黨": 7809,
      "黮": 7810,
      "黯": 7811,
      "黴": 7812,
      "黶": 7813,
      "黷": 7814,
      "黹": 7815,
      "黻": 7816,
      "黼": 7817,
      "黽": 7818,
      "黿": 7819,
      "鼇": 7820,
      "鼈": 7821,
      "鼉": 7822,
      "鼎": 7823,
      "鼐": 7824,
      "鼓": 7825,
      "鼕": 7826,
      "鼙": 7827,
      "鼠": 7828,
      "鼬": 7829,
      "鼯": 7830,
      "鼴": 7831,
      "鼻": 7832,
      "鼾": 7833,
      "齁": 7834,
      "齊": 7835,
      "齋": 7836,
      "齌": 7837,
      "齎": 7838,
      "齏": 7839,
      "齒": 7840,
      "齔": 7841,
      "齕": 7842,
      "齗": 7843,
      "齙": 7844,
      "齟": 7845,
      "齠": 7846,
      "齡": 7847,
      "齣": 7848,
      "齦": 7849,
      "齧": 7850,
      "齪": 7851,
      "齬": 7852,
      "齵": 7853,
      "齶": 7854,
      "齷": 7855,
      "龍": 7856,
      "龐": 7857,
      "龔": 7858,
      "龕": 7859,
      "龜": 7860,
      "龢": 7861,
      "龥": 7862,
      "ꊰ": 7863,
      "ꊲ": 7864,
      "ꊳ": 7865,
      "ꊷ": 7866,
      "꜐": 7867,
      "ꝯ": 7868,
      "Ꝼ": 7869,
      "꞉": 7870,
      "ꞿ": 7871,
      "ꮀ": 7872,
      "가": 7873,
      "각": 7874,
      "간": 7875,
      "갈": 7876,
      "갉": 7877,
      "갋": 7878,
      "감": 7879,
      "갑": 7880,
      "값": 7881,
      "갓": 7882,
      "갔": 7883,
      "강": 7884,
      "갖": 7885,
      "갗": 7886,
      "같": 7887,
      "갚": 7888,
      "갛": 7889,
      "개": 7890,
      "객": 7891,
      "갠": 7892,
      "갤": 7893,
      "갬": 7894,
      "갭": 7895,
      "갯": 7896,
      "갱": 7897,
      "갸": 7898,
      "갹": 7899,
      "걀": 7900,
      "걔": 7901,
      "걜": 7902,
      "거": 7903,
      "걱": 7904,
      "걲": 7905,
      "건": 7906,
      "걷": 7907,
      "걸": 7908,
      "검": 7909,
      "겁": 7910,
      "것": 7911,
      "겄": 7912,
      "겅": 7913,
      "겉": 7914,
      "겊": 7915,
      "게": 7916,
      "겐": 7917,
      "겔": 7918,
      "겜": 7919,
      "겝": 7920,
      "겟": 7921,
      "겠": 7922,
      "겡": 7923,
      "겨": 7924,
      "격": 7925,
      "겪": 7926,
      "견": 7927,
      "결": 7928,
      "겸": 7929,
      "겹": 7930,
      "겻": 7931,
      "겼": 7932,
      "경": 7933,
      "겿": 7934,
      "곁": 7935,
      "계": 7936,
      "곊": 7937,
      "곌": 7938,
      "곕": 7939,
      "곗": 7940,
      "고": 7941,
      "곡": 7942,
      "곤": 7943,
      "곧": 7944,
      "골": 7945,
      "곬": 7946,
      "곰": 7947,
      "곱": 7948,
      "곳": 7949,
      "공": 7950,
      "곶": 7951,
      "곷": 7952,
      "곺": 7953,
      "곻": 7954,
      "과": 7955,
      "곽": 7956,
      "관": 7957,
      "괄": 7958,
      "괌": 7959,
      "괏": 7960,
      "광": 7961,
      "괘": 7962,
      "괜": 7963,
      "괫": 7964,
      "괭": 7965,
      "괴": 7966,
      "괸": 7967,
      "괼": 7968,
      "굀": 7969,
      "굄": 7970,
      "굉": 7971,
      "교": 7972,
      "구": 7973,
      "국": 7974,
      "군": 7975,
      "굳": 7976,
      "굴": 7977,
      "굵": 7978,
      "굶": 7979,
      "굷": 7980,
      "굻": 7981,
      "굼": 7982,
      "굽": 7983,
      "굿": 7984,
      "궀": 7985,
      "궁": 7986,
      "궂": 7987,
      "궆": 7988,
      "궈": 7989,
      "권": 7990,
      "궐": 7991,
      "궤": 7992,
      "귀": 7993,
      "귈": 7994,
      "귊": 7995,
      "귐": 7996,
      "귑": 7997,
      "귓": 7998,
      "규": 7999,
      "균": 8000,
      "귤": 8001,
      "귯": 8002,
      "그": 8003,
      "극": 8004,
      "근": 8005,
      "귿": 8006,
      "글": 8007,
      "긁": 8008,
      "긇": 8009,
      "금": 8010,
      "급": 8011,
      "긋": 8012,
      "긍": 8013,
      "긑": 8014,
      "긔": 8015,
      "긘": 8016,
      "긜": 8017,
      "긧": 8018,
      "기": 8019,
      "긱": 8020,
      "긴": 8021,
      "길": 8022,
      "긺": 8023,
      "김": 8024,
      "깁": 8025,
      "깃": 8026,
      "깅": 8027,
      "깊": 8028,
      "까": 8029,
      "깍": 8030,
      "깎": 8031,
      "깐": 8032,
      "깔": 8033,
      "깜": 8034,
      "깝": 8035,
      "깟": 8036,
      "깡": 8037,
      "깣": 8038,
      "깨": 8039,
      "깩": 8040,
      "깬": 8041,
      "깰": 8042,
      "깸": 8043,
      "깹": 8044,
      "깻": 8045,
      "깽": 8046,
      "꺄": 8047,
      "꺠": 8048,
      "꺼": 8049,
      "꺽": 8050,
      "꺾": 8051,
      "껀": 8052,
      "껄": 8053,
      "껌": 8054,
      "껍": 8055,
      "껏": 8056,
      "껑": 8057,
      "께": 8058,
      "껜": 8059,
      "껠": 8060,
      "껨": 8061,
      "껩": 8062,
      "껬": 8063,
      "껴": 8064,
      "껼": 8065,
      "꼇": 8066,
      "꼈": 8067,
      "꼐": 8068,
      "꼬": 8069,
      "꼭": 8070,
      "꼰": 8071,
      "꼴": 8072,
      "꼼": 8073,
      "꼽": 8074,
      "꼿": 8075,
      "꽁": 8076,
      "꽂": 8077,
      "꽃": 8078,
      "꽈": 8079,
      "꽉": 8080,
      "꽝": 8081,
      "꽤": 8082,
      "꽬": 8083,
      "꽹": 8084,
      "꾀": 8085,
      "꾜": 8086,
      "꾸": 8087,
      "꾹": 8088,
      "꾼": 8089,
      "꾿": 8090,
      "꿀": 8091,
      "꿇": 8092,
      "꿈": 8093,
      "꿉": 8094,
      "꿋": 8095,
      "꿍": 8096,
      "꿔": 8097,
      "꿩": 8098,
      "꿰": 8099,
      "뀀": 8100,
      "뀌": 8101,
      "뀐": 8102,
      "뀔": 8103,
      "끄": 8104,
      "끈": 8105,
      "끊": 8106,
      "끌": 8107,
      "끍": 8108,
      "끓": 8109,
      "끔": 8110,
      "끗": 8111,
      "끙": 8112,
      "끝": 8113,
      "끠": 8114,
      "끵": 8115,
      "끼": 8116,
      "끽": 8117,
      "낀": 8118,
      "낄": 8119,
      "낊": 8120,
      "낌": 8121,
      "낏": 8122,
      "낒": 8123,
      "낓": 8124,
      "나": 8125,
      "낙": 8126,
      "난": 8127,
      "낞": 8128,
      "낟": 8129,
      "날": 8130,
      "낡": 8131,
      "남": 8132,
      "납": 8133,
      "낫": 8134,
      "났": 8135,
      "낭": 8136,
      "낮": 8137,
      "낯": 8138,
      "낱": 8139,
      "낳": 8140,
      "내": 8141,
      "낵": 8142,
      "낸": 8143,
      "낼": 8144,
      "냄": 8145,
      "냅": 8146,
      "냇": 8147,
      "냈": 8148,
      "냉": 8149,
      "냎": 8150,
      "냐": 8151,
      "냑": 8152,
      "냔": 8153,
      "냠": 8154,
      "냥": 8155,
      "너": 8156,
      "넉": 8157,
      "넋": 8158,
      "넌": 8159,
      "널": 8160,
      "넒": 8161,
      "넓": 8162,
      "넘": 8163,
      "넙": 8164,
      "넛": 8165,
      "넜": 8166,
      "넝": 8167,
      "넣": 8168,
      "네": 8169,
      "넥": 8170,
      "넨": 8171,
      "넬": 8172,
      "넴": 8173,
      "넵": 8174,
      "넷": 8175,
      "넹": 8176,
      "넾": 8177,
      "녀": 8178,
      "녁": 8179,
      "년": 8180,
      "녈": 8181,
      "념": 8182,
      "녑": 8183,
      "녓": 8184,
      "녔": 8185,
      "녕": 8186,
      "녚": 8187,
      "녜": 8188,
      "녯": 8189,
      "노": 8190,
      "녹": 8191,
      "논": 8192,
      "녾": 8193,
      "놀": 8194,
      "놈": 8195,
      "놉": 8196,
      "놋": 8197,
      "농": 8198,
      "높": 8199,
      "놓": 8200,
      "놔": 8201,
      "놧": 8202,
      "놨": 8203,
      "뇌": 8204,
      "뇨": 8205,
      "뇸": 8206,
      "뇽": 8207,
      "눀": 8208,
      "누": 8209,
      "눅": 8210,
      "눈": 8211,
      "눌": 8212,
      "눔": 8213,
      "눕": 8214,
      "눗": 8215,
      "눞": 8216,
      "눠": 8217,
      "뉀": 8218,
      "뉘": 8219,
      "뉠": 8220,
      "뉴": 8221,
      "뉵": 8222,
      "뉼": 8223,
      "늄": 8224,
      "늅": 8225,
      "늉": 8226,
      "늊": 8227,
      "늋": 8228,
      "늏": 8229,
      "느": 8230,
      "늑": 8231,
      "는": 8232,
      "늘": 8233,
      "늙": 8234,
      "늟": 8235,
      "늠": 8236,
      "늡": 8237,
      "늣": 8238,
      "능": 8239,
      "늦": 8240,
      "늧": 8241,
      "늩": 8242,
      "늬": 8243,
      "늭": 8244,
      "늰": 8245,
      "늳": 8246,
      "늴": 8247,
      "닁": 8248,
      "니": 8249,
      "닉": 8250,
      "닊": 8251,
      "닌": 8252,
      "닐": 8253,
      "닑": 8254,
      "님": 8255,
      "닙": 8256,
      "닛": 8257,
      "닜": 8258,
      "닝": 8259,
      "닞": 8260,
      "닠": 8261,
      "닢": 8262,
      "닣": 8263,
      "다": 8264,
      "닥": 8265,
      "닦": 8266,
      "단": 8267,
      "닫": 8268,
      "달": 8269,
      "닭": 8270,
      "닮": 8271,
      "닯": 8272,
      "닲": 8273,
      "닳": 8274,
      "담": 8275,
      "답": 8276,
      "닷": 8277,
      "당": 8278,
      "닿": 8279,
      "대": 8280,
      "댁": 8281,
      "댄": 8282,
      "댈": 8283,
      "댐": 8284,
      "댑": 8285,
      "댓": 8286,
      "댔": 8287,
      "댕": 8288,
      "댜": 8289,
      "댤": 8290,
      "댬": 8291,
      "댭": 8292,
      "댯": 8293,
      "댱": 8294,
      "덀": 8295,
      "덊": 8296,
      "더": 8297,
      "덕": 8298,
      "던": 8299,
      "덜": 8300,
      "덟": 8301,
      "덤": 8302,
      "덥": 8303,
      "덧": 8304,
      "덩": 8305,
      "덮": 8306,
      "데": 8307,
      "덱": 8308,
      "덴": 8309,
      "델": 8310,
      "뎀": 8311,
      "뎁": 8312,
      "뎃": 8313,
      "뎅": 8314,
      "뎌": 8315,
      "뎍": 8316,
      "뎐": 8317,
      "뎔": 8318,
      "뎗": 8319,
      "뎜": 8320,
      "뎡": 8321,
      "뎨": 8322,
      "도": 8323,
      "독": 8324,
      "돈": 8325,
      "돊": 8326,
      "돋": 8327,
      "돌": 8328,
      "돍": 8329,
      "돔": 8330,
      "돕": 8331,
      "돗": 8332,
      "동": 8333,
      "돛": 8334,
      "돝": 8335,
      "돠": 8336,
      "돨": 8337,
      "돼": 8338,
      "됊": 8339,
      "됏": 8340,
      "됐": 8341,
      "되": 8342,
      "된": 8343,
      "될": 8344,
      "됨": 8345,
      "됩": 8346,
      "됫": 8347,
      "됭": 8348,
      "됴": 8349,
      "둀": 8350,
      "둉": 8351,
      "두": 8352,
      "둑": 8353,
      "둔": 8354,
      "둘": 8355,
      "둙": 8356,
      "둟": 8357,
      "둠": 8358,
      "둡": 8359,
      "둣": 8360,
      "둥": 8361,
      "둼": 8362,
      "둿": 8363,
      "뒀": 8364,
      "뒤": 8365,
      "뒬": 8366,
      "뒷": 8367,
      "뒹": 8368,
      "듀": 8369,
      "듁": 8370,
      "듈": 8371,
      "듊": 8372,
      "듐": 8373,
      "듕": 8374,
      "드": 8375,
      "득": 8376,
      "든": 8377,
      "듣": 8378,
      "들": 8379,
      "듥": 8380,
      "듦": 8381,
      "듧": 8382,
      "듬": 8383,
      "듭": 8384,
      "듯": 8385,
      "등": 8386,
      "듸": 8387,
      "듹": 8388,
      "듼": 8389,
      "딀": 8390,
      "딈": 8391,
      "딉": 8392,
      "딋": 8393,
      "딍": 8394,
      "디": 8395,
      "딕": 8396,
      "딘": 8397,
      "딛": 8398,
      "딜": 8399,
      "딤": 8400,
      "딥": 8401,
      "딧": 8402,
      "딩": 8403,
      "딪": 8404,
      "따": 8405,
      "딱": 8406,
      "딴": 8407,
      "딸": 8408,
      "딿": 8409,
      "땀": 8410,
      "땁": 8411,
      "땃": 8412,
      "땅": 8413,
      "땋": 8414,
      "때": 8415,
      "땍": 8416,
      "땐": 8417,
      "땔": 8418,
      "땜": 8419,
      "땡": 8420,
      "떄": 8421,
      "떙": 8422,
      "떠": 8423,
      "떡": 8424,
      "떤": 8425,
      "떨": 8426,
      "떰": 8427,
      "떳": 8428,
      "떴": 8429,
      "떵": 8430,
      "떻": 8431,
      "떼": 8432,
      "떽": 8433,
      "뗀": 8434,
      "뗄": 8435,
      "뗌": 8436,
      "뗍": 8437,
      "뗏": 8438,
      "뗑": 8439,
      "또": 8440,
      "똑": 8441,
      "똔": 8442,
      "똘": 8443,
      "똥": 8444,
      "뙈": 8445,
      "뙤": 8446,
      "뚜": 8447,
      "뚝": 8448,
      "뚤": 8449,
      "뚫": 8450,
      "뚯": 8451,
      "뚱": 8452,
      "뛀": 8453,
      "뛰": 8454,
      "뛴": 8455,
      "뛸": 8456,
      "뜀": 8457,
      "뜃": 8458,
      "뜌": 8459,
      "뜨": 8460,
      "뜩": 8461,
      "뜬": 8462,
      "뜯": 8463,
      "뜰": 8464,
      "뜸": 8465,
      "뜻": 8466,
      "띀": 8467,
      "띄": 8468,
      "띈": 8469,
      "띊": 8470,
      "띔": 8471,
      "띙": 8472,
      "띠": 8473,
      "띤": 8474,
      "띨": 8475,
      "띳": 8476,
      "라": 8477,
      "락": 8478,
      "란": 8479,
      "랄": 8480,
      "람": 8481,
      "랍": 8482,
      "랏": 8483,
      "랐": 8484,
      "랑": 8485,
      "랗": 8486,
      "래": 8487,
      "랙": 8488,
      "랜": 8489,
      "랠": 8490,
      "램": 8491,
      "랩": 8492,
      "랫": 8493,
      "랬": 8494,
      "랭": 8495,
      "랴": 8496,
      "략": 8497,
      "랸": 8498,
      "랼": 8499,
      "럀": 8500,
      "럄": 8501,
      "럅": 8502,
      "량": 8503,
      "럔": 8504,
      "러": 8505,
      "럭": 8506,
      "런": 8507,
      "럴": 8508,
      "럼": 8509,
      "럽": 8510,
      "럿": 8511,
      "렀": 8512,
      "렁": 8513,
      "렇": 8514,
      "레": 8515,
      "렉": 8516,
      "렌": 8517,
      "렐": 8518,
      "렘": 8519,
      "렙": 8520,
      "렛": 8521,
      "렝": 8522,
      "렡": 8523,
      "렢": 8524,
      "려": 8525,
      "력": 8526,
      "련": 8527,
      "렬": 8528,
      "렴": 8529,
      "렵": 8530,
      "렷": 8531,
      "렸": 8532,
      "령": 8533,
      "례": 8534,
      "롁": 8535,
      "롄": 8536,
      "롊": 8537,
      "롓": 8538,
      "로": 8539,
      "록": 8540,
      "론": 8541,
      "롤": 8542,
      "롬": 8543,
      "롭": 8544,
      "롯": 8545,
      "롰": 8546,
      "롱": 8547,
      "롴": 8548,
      "롸": 8549,
      "롹": 8550,
      "뢰": 8551,
      "뢴": 8552,
      "룊": 8553,
      "료": 8554,
      "룔": 8555,
      "룝": 8556,
      "룡": 8557,
      "루": 8558,
      "룩": 8559,
      "룬": 8560,
      "룰": 8561,
      "룸": 8562,
      "룹": 8563,
      "룻": 8564,
      "룽": 8565,
      "뤀": 8566,
      "뤄": 8567,
      "뤗": 8568,
      "뤠": 8569,
      "뤨": 8570,
      "뤳": 8571,
      "뤼": 8572,
      "륀": 8573,
      "륊": 8574,
      "류": 8575,
      "륙": 8576,
      "륜": 8577,
      "률": 8578,
      "륨": 8579,
      "륭": 8580,
      "르": 8581,
      "륵": 8582,
      "른": 8583,
      "를": 8584,
      "름": 8585,
      "릅": 8586,
      "릇": 8587,
      "릉": 8588,
      "릊": 8589,
      "릎": 8590,
      "릐": 8591,
      "리": 8592,
      "릭": 8593,
      "린": 8594,
      "릴": 8595,
      "림": 8596,
      "립": 8597,
      "릿": 8598,
      "링": 8599,
      "맆": 8600,
      "마": 8601,
      "막": 8602,
      "맊": 8603,
      "만": 8604,
      "맍": 8605,
      "많": 8606,
      "맏": 8607,
      "말": 8608,
      "맑": 8609,
      "맒": 8610,
      "맘": 8611,
      "맙": 8612,
      "맛": 8613,
      "망": 8614,
      "맞": 8615,
      "맟": 8616,
      "맠": 8617,
      "맡": 8618,
      "매": 8619,
      "맥": 8620,
      "맧": 8621,
      "맨": 8622,
      "맬": 8623,
      "맴": 8624,
      "맵": 8625,
      "맷": 8626,
      "맹": 8627,
      "맺": 8628,
      "맻": 8629,
      "먀": 8630,
      "먓": 8631,
      "먜": 8632,
      "머": 8633,
      "먹": 8634,
      "먼": 8635,
      "멀": 8636,
      "멁": 8637,
      "멈": 8638,
      "멊": 8639,
      "멋": 8640,
      "멍": 8641,
      "멎": 8642,
      "메": 8643,
      "멕": 8644,
      "멘": 8645,
      "멜": 8646,
      "멤": 8647,
      "멥": 8648,
      "멧": 8649,
      "멩": 8650,
      "멫": 8651,
      "며": 8652,
      "멱": 8653,
      "면": 8654,
      "멸": 8655,
      "몃": 8656,
      "명": 8657,
      "몇": 8658,
      "몊": 8659,
      "몌": 8660,
      "몟": 8661,
      "모": 8662,
      "목": 8663,
      "몬": 8664,
      "몯": 8665,
      "몰": 8666,
      "몷": 8667,
      "몸": 8668,
      "몹": 8669,
      "못": 8670,
      "몽": 8671,
      "뫁": 8672,
      "뫃": 8673,
      "뫼": 8674,
      "묊": 8675,
      "묏": 8676,
      "묘": 8677,
      "묠": 8678,
      "무": 8679,
      "묵": 8680,
      "묶": 8681,
      "문": 8682,
      "묺": 8683,
      "묻": 8684,
      "물": 8685,
      "묽": 8686,
      "뭄": 8687,
      "뭅": 8688,
      "뭇": 8689,
      "뭉": 8690,
      "뭍": 8691,
      "뭐": 8692,
      "뭔": 8693,
      "뭘": 8694,
      "뭠": 8695,
      "뭣": 8696,
      "뭬": 8697,
      "뮈": 8698,
      "뮤": 8699,
      "뮨": 8700,
      "뮬": 8701,
      "뮷": 8702,
      "므": 8703,
      "믁": 8704,
      "믄": 8705,
      "믈": 8706,
      "믉": 8707,
      "믐": 8708,
      "믑": 8709,
      "믓": 8710,
      "믛": 8711,
      "믜": 8712,
      "미": 8713,
      "믹": 8714,
      "민": 8715,
      "믿": 8716,
      "밀": 8717,
      "밈": 8718,
      "밉": 8719,
      "밋": 8720,
      "밍": 8721,
      "밎": 8722,
      "및": 8723,
      "밑": 8724,
      "바": 8725,
      "박": 8726,
      "밖": 8727,
      "반": 8728,
      "받": 8729,
      "발": 8730,
      "밝": 8731,
      "밟": 8732,
      "밤": 8733,
      "밥": 8734,
      "밧": 8735,
      "밨": 8736,
      "방": 8737,
      "밪": 8738,
      "밫": 8739,
      "밭": 8740,
      "배": 8741,
      "백": 8742,
      "밴": 8743,
      "밸": 8744,
      "뱀": 8745,
      "뱃": 8746,
      "뱅": 8747,
      "뱉": 8748,
      "뱌": 8749,
      "뱍": 8750,
      "뱨": 8751,
      "버": 8752,
      "벅": 8753,
      "번": 8754,
      "벋": 8755,
      "벌": 8756,
      "벍": 8757,
      "벎": 8758,
      "범": 8759,
      "법": 8760,
      "벗": 8761,
      "벘": 8762,
      "벙": 8763,
      "벚": 8764,
      "벛": 8765,
      "베": 8766,
      "벡": 8767,
      "벤": 8768,
      "벨": 8769,
      "벩": 8770,
      "벳": 8771,
      "벵": 8772,
      "벼": 8773,
      "벽": 8774,
      "변": 8775,
      "별": 8776,
      "볊": 8777,
      "볌": 8778,
      "볍": 8779,
      "볏": 8780,
      "병": 8781,
      "볓": 8782,
      "볕": 8783,
      "볘": 8784,
      "볠": 8785,
      "보": 8786,
      "복": 8787,
      "볶": 8788,
      "본": 8789,
      "볼": 8790,
      "봄": 8791,
      "봅": 8792,
      "봇": 8793,
      "봉": 8794,
      "봐": 8795,
      "봔": 8796,
      "봘": 8797,
      "봣": 8798,
      "봤": 8799,
      "뵈": 8800,
      "뵌": 8801,
      "뵐": 8802,
      "뵘": 8803,
      "뵙": 8804,
      "뵛": 8805,
      "부": 8806,
      "북": 8807,
      "분": 8808,
      "불": 8809,
      "붉": 8810,
      "붊": 8811,
      "붐": 8812,
      "붑": 8813,
      "붓": 8814,
      "붕": 8815,
      "붗": 8816,
      "붙": 8817,
      "붜": 8818,
      "붯": 8819,
      "붸": 8820,
      "뷔": 8821,
      "뷕": 8822,
      "뷘": 8823,
      "뷜": 8824,
      "뷧": 8825,
      "뷰": 8826,
      "뷴": 8827,
      "뷸": 8828,
      "븃": 8829,
      "브": 8830,
      "븍": 8831,
      "븐": 8832,
      "블": 8833,
      "븜": 8834,
      "븝": 8835,
      "븟": 8836,
      "븡": 8837,
      "븨": 8838,
      "븬": 8839,
      "비": 8840,
      "빅": 8841,
      "빈": 8842,
      "빌": 8843,
      "빔": 8844,
      "빕": 8845,
      "빗": 8846,
      "빙": 8847,
      "빚": 8848,
      "빛": 8849,
      "빠": 8850,
      "빡": 8851,
      "빤": 8852,
      "빨": 8853,
      "빩": 8854,
      "빰": 8855,
      "빳": 8856,
      "빵": 8857,
      "빼": 8858,
      "빽": 8859,
      "뺀": 8860,
      "뺄": 8861,
      "뺌": 8862,
      "뺏": 8863,
      "뺑": 8864,
      "뺨": 8865,
      "뺴": 8866,
      "뻐": 8867,
      "뻑": 8868,
      "뻔": 8869,
      "뻗": 8870,
      "뻘": 8871,
      "뻙": 8872,
      "뻠": 8873,
      "뻣": 8874,
      "뻤": 8875,
      "뻥": 8876,
      "뻬": 8877,
      "뻰": 8878,
      "뻴": 8879,
      "뼁": 8880,
      "뼅": 8881,
      "뼈": 8882,
      "뼉": 8883,
      "뼌": 8884,
      "뼛": 8885,
      "뽀": 8886,
      "뽁": 8887,
      "뽄": 8888,
      "뽈": 8889,
      "뽐": 8890,
      "뽑": 8891,
      "뽕": 8892,
      "뾰": 8893,
      "뿌": 8894,
      "뿍": 8895,
      "뿐": 8896,
      "뿔": 8897,
      "뿕": 8898,
      "뿜": 8899,
      "뿡": 8900,
      "쀀": 8901,
      "쀄": 8902,
      "쀼": 8903,
      "쁀": 8904,
      "쁘": 8905,
      "쁙": 8906,
      "쁜": 8907,
      "쁠": 8908,
      "쁨": 8909,
      "쁩": 8910,
      "쁫": 8911,
      "쁴": 8912,
      "삊": 8913,
      "삐": 8914,
      "삑": 8915,
      "삔": 8916,
      "삘": 8917,
      "삣": 8918,
      "삥": 8919,
      "사": 8920,
      "삭": 8921,
      "삯": 8922,
      "산": 8923,
      "살": 8924,
      "삶": 8925,
      "삷": 8926,
      "삺": 8927,
      "삼": 8928,
      "삽": 8929,
      "삿": 8930,
      "샀": 8931,
      "상": 8932,
      "새": 8933,
      "색": 8934,
      "샌": 8935,
      "샐": 8936,
      "샘": 8937,
      "샛": 8938,
      "생": 8939,
      "샤": 8940,
      "샥": 8941,
      "샨": 8942,
      "샬": 8943,
      "샴": 8944,
      "샵": 8945,
      "샷": 8946,
      "샹": 8947,
      "섀": 8948,
      "섊": 8949,
      "서": 8950,
      "석": 8951,
      "섞": 8952,
      "선": 8953,
      "섣": 8954,
      "설": 8955,
      "섧": 8956,
      "섬": 8957,
      "섭": 8958,
      "섯": 8959,
      "섰": 8960,
      "성": 8961,
      "섶": 8962,
      "세": 8963,
      "섹": 8964,
      "센": 8965,
      "셀": 8966,
      "셈": 8967,
      "셉": 8968,
      "셋": 8969,
      "셔": 8970,
      "셕": 8971,
      "션": 8972,
      "셜": 8973,
      "셤": 8974,
      "셥": 8975,
      "셧": 8976,
      "셨": 8977,
      "셩": 8978,
      "셰": 8979,
      "셴": 8980,
      "셸": 8981,
      "솀": 8982,
      "솃": 8983,
      "솊": 8984,
      "소": 8985,
      "속": 8986,
      "손": 8987,
      "솔": 8988,
      "솜": 8989,
      "솝": 8990,
      "솟": 8991,
      "송": 8992,
      "솥": 8993,
      "솨": 8994,
      "솩": 8995,
      "솰": 8996,
      "쇄": 8997,
      "쇠": 8998,
      "쇤": 8999,
      "쇨": 9000,
      "쇰": 9001,
      "쇱": 9002,
      "쇼": 9003,
      "쇽": 9004,
      "숀": 9005,
      "숄": 9006,
      "숏": 9007,
      "숑": 9008,
      "수": 9009,
      "숙": 9010,
      "순": 9011,
      "술": 9012,
      "숣": 9013,
      "숨": 9014,
      "숩": 9015,
      "숫": 9016,
      "숭": 9017,
      "숲": 9018,
      "숼": 9019,
      "쉀": 9020,
      "쉐": 9021,
      "쉑": 9022,
      "쉘": 9023,
      "쉬": 9024,
      "쉰": 9025,
      "쉴": 9026,
      "쉼": 9027,
      "쉽": 9028,
      "쉿": 9029,
      "슄": 9030,
      "슈": 9031,
      "슉": 9032,
      "슊": 9033,
      "슋": 9034,
      "슌": 9035,
      "슐": 9036,
      "슕": 9037,
      "슘": 9038,
      "슙": 9039,
      "슚": 9040,
      "슜": 9041,
      "슝": 9042,
      "슞": 9043,
      "슠": 9044,
      "스": 9045,
      "슥": 9046,
      "슧": 9047,
      "슨": 9048,
      "슪": 9049,
      "슬": 9050,
      "슭": 9051,
      "슯": 9052,
      "슲": 9053,
      "슴": 9054,
      "습": 9055,
      "슷": 9056,
      "승": 9057,
      "싀": 9058,
      "싊": 9059,
      "시": 9060,
      "식": 9061,
      "신": 9062,
      "실": 9063,
      "싫": 9064,
      "심": 9065,
      "십": 9066,
      "싯": 9067,
      "싱": 9068,
      "싳": 9069,
      "싶": 9070,
      "싸": 9071,
      "싹": 9072,
      "싻": 9073,
      "싼": 9074,
      "쌀": 9075,
      "쌈": 9076,
      "쌋": 9077,
      "쌌": 9078,
      "쌍": 9079,
      "쌓": 9080,
      "쌔": 9081,
      "쌕": 9082,
      "쌘": 9083,
      "쌜": 9084,
      "쌧": 9085,
      "쌩": 9086,
      "쌰": 9087,
      "써": 9088,
      "썩": 9089,
      "썬": 9090,
      "썰": 9091,
      "썸": 9092,
      "썹": 9093,
      "썻": 9094,
      "썼": 9095,
      "쎄": 9096,
      "쎅": 9097,
      "쎈": 9098,
      "쎌": 9099,
      "쎔": 9100,
      "쎕": 9101,
      "쎠": 9102,
      "쎡": 9103,
      "쎨": 9104,
      "쎼": 9105,
      "쏘": 9106,
      "쏙": 9107,
      "쏜": 9108,
      "쏟": 9109,
      "쏠": 9110,
      "쏫": 9111,
      "쏭": 9112,
      "쐐": 9113,
      "쐬": 9114,
      "쐰": 9115,
      "쑈": 9116,
      "쑐": 9117,
      "쑤": 9118,
      "쑥": 9119,
      "쑬": 9120,
      "쒝": 9121,
      "쒼": 9122,
      "쓀": 9123,
      "쓘": 9124,
      "쓰": 9125,
      "쓱": 9126,
      "쓴": 9127,
      "쓸": 9128,
      "씀": 9129,
      "씁": 9130,
      "씃": 9131,
      "씅": 9132,
      "씌": 9133,
      "씔": 9134,
      "씨": 9135,
      "씩": 9136,
      "씬": 9137,
      "씰": 9138,
      "씸": 9139,
      "씹": 9140,
      "씻": 9141,
      "씽": 9142,
      "씿": 9143,
      "앀": 9144,
      "아": 9145,
      "악": 9146,
      "안": 9147,
      "앉": 9148,
      "않": 9149,
      "알": 9150,
      "앍": 9151,
      "앎": 9152,
      "앏": 9153,
      "앓": 9154,
      "암": 9155,
      "압": 9156,
      "앗": 9157,
      "았": 9158,
      "앙": 9159,
      "앝": 9160,
      "앞": 9161,
      "앟": 9162,
      "애": 9163,
      "액": 9164,
      "앤": 9165,
      "앨": 9166,
      "앰": 9167,
      "앱": 9168,
      "앳": 9169,
      "앵": 9170,
      "야": 9171,
      "약": 9172,
      "얀": 9173,
      "얄": 9174,
      "얇": 9175,
      "얊": 9176,
      "얌": 9177,
      "얍": 9178,
      "얏": 9179,
      "얐": 9180,
      "양": 9181,
      "얕": 9182,
      "얗": 9183,
      "얘": 9184,
      "얫": 9185,
      "어": 9186,
      "억": 9187,
      "언": 9188,
      "얹": 9189,
      "얻": 9190,
      "얼": 9191,
      "얽": 9192,
      "엀": 9193,
      "엄": 9194,
      "업": 9195,
      "없": 9196,
      "엇": 9197,
      "었": 9198,
      "엉": 9199,
      "엊": 9200,
      "엌": 9201,
      "엎": 9202,
      "에": 9203,
      "엑": 9204,
      "엔": 9205,
      "엘": 9206,
      "엛": 9207,
      "엠": 9208,
      "엡": 9209,
      "엣": 9210,
      "엥": 9211,
      "엩": 9212,
      "여": 9213,
      "역": 9214,
      "연": 9215,
      "엳": 9216,
      "열": 9217,
      "엷": 9218,
      "염": 9219,
      "엽": 9220,
      "엾": 9221,
      "엿": 9222,
      "였": 9223,
      "영": 9224,
      "옅": 9225,
      "옆": 9226,
      "옇": 9227,
      "예": 9228,
      "옉": 9229,
      "옌": 9230,
      "옐": 9231,
      "옙": 9232,
      "옛": 9233,
      "오": 9234,
      "옥": 9235,
      "온": 9236,
      "올": 9237,
      "옭": 9238,
      "옮": 9239,
      "옯": 9240,
      "옲": 9241,
      "옳": 9242,
      "옴": 9243,
      "옵": 9244,
      "옷": 9245,
      "옹": 9246,
      "와": 9247,
      "왁": 9248,
      "완": 9249,
      "왈": 9250,
      "왓": 9251,
      "왔": 9252,
      "왕": 9253,
      "왜": 9254,
      "왠": 9255,
      "왤": 9256,
      "왱": 9257,
      "외": 9258,
      "왹": 9259,
      "왼": 9260,
      "욀": 9261,
      "욈": 9262,
      "욊": 9263,
      "욋": 9264,
      "요": 9265,
      "욕": 9266,
      "욘": 9267,
      "욜": 9268,
      "욝": 9269,
      "욤": 9270,
      "욧": 9271,
      "용": 9272,
      "우": 9273,
      "욱": 9274,
      "운": 9275,
      "울": 9276,
      "움": 9277,
      "웁": 9278,
      "웃": 9279,
      "웅": 9280,
      "웊": 9281,
      "웋": 9282,
      "워": 9283,
      "웍": 9284,
      "원": 9285,
      "월": 9286,
      "웝": 9287,
      "웟": 9288,
      "웠": 9289,
      "웡": 9290,
      "웨": 9291,
      "웬": 9292,
      "웯": 9293,
      "웰": 9294,
      "웻": 9295,
      "웽": 9296,
      "윀": 9297,
      "위": 9298,
      "윅": 9299,
      "윈": 9300,
      "윊": 9301,
      "윌": 9302,
      "윔": 9303,
      "윗": 9304,
      "윙": 9305,
      "유": 9306,
      "육": 9307,
      "윤": 9308,
      "율": 9309,
      "윰": 9310,
      "융": 9311,
      "으": 9312,
      "윽": 9313,
      "은": 9314,
      "읃": 9315,
      "을": 9316,
      "읆": 9317,
      "읇": 9318,
      "읊": 9319,
      "음": 9320,
      "읍": 9321,
      "읏": 9322,
      "응": 9323,
      "읕": 9324,
      "의": 9325,
      "읜": 9326,
      "읫": 9327,
      "읭": 9328,
      "이": 9329,
      "익": 9330,
      "인": 9331,
      "일": 9332,
      "읽": 9333,
      "잀": 9334,
      "잃": 9335,
      "임": 9336,
      "입": 9337,
      "잇": 9338,
      "있": 9339,
      "잉": 9340,
      "잊": 9341,
      "잍": 9342,
      "잎": 9343,
      "자": 9344,
      "작": 9345,
      "잔": 9346,
      "잖": 9347,
      "잘": 9348,
      "잠": 9349,
      "잡": 9350,
      "잢": 9351,
      "잣": 9352,
      "잤": 9353,
      "장": 9354,
      "잦": 9355,
      "잪": 9356,
      "잫": 9357,
      "재": 9358,
      "잭": 9359,
      "잰": 9360,
      "잴": 9361,
      "잽": 9362,
      "잿": 9363,
      "쟀": 9364,
      "쟁": 9365,
      "쟈": 9366,
      "쟉": 9367,
      "쟌": 9368,
      "쟎": 9369,
      "쟐": 9370,
      "쟓": 9371,
      "쟘": 9372,
      "쟙": 9373,
      "쟛": 9374,
      "쟝": 9375,
      "쟤": 9376,
      "저": 9377,
      "적": 9378,
      "전": 9379,
      "절": 9380,
      "젊": 9381,
      "점": 9382,
      "접": 9383,
      "젓": 9384,
      "젔": 9385,
      "정": 9386,
      "젖": 9387,
      "제": 9388,
      "젝": 9389,
      "젠": 9390,
      "젤": 9391,
      "젬": 9392,
      "젭": 9393,
      "젯": 9394,
      "져": 9395,
      "젹": 9396,
      "젼": 9397,
      "졀": 9398,
      "졂": 9399,
      "졈": 9400,
      "졉": 9401,
      "졋": 9402,
      "졌": 9403,
      "졍": 9404,
      "졔": 9405,
      "졕": 9406,
      "졘": 9407,
      "졜": 9408,
      "졤": 9409,
      "졧": 9410,
      "조": 9411,
      "족": 9412,
      "존": 9413,
      "졸": 9414,
      "좀": 9415,
      "좁": 9416,
      "좃": 9417,
      "종": 9418,
      "좆": 9419,
      "좇": 9420,
      "좋": 9421,
      "좌": 9422,
      "좍": 9423,
      "좔": 9424,
      "죄": 9425,
      "죠": 9426,
      "죡": 9427,
      "죤": 9428,
      "죨": 9429,
      "죰": 9430,
      "죳": 9431,
      "죵": 9432,
      "죹": 9433,
      "주": 9434,
      "죽": 9435,
      "준": 9436,
      "줄": 9437,
      "줌": 9438,
      "줍": 9439,
      "줏": 9440,
      "중": 9441,
      "줘": 9442,
      "줫": 9443,
      "줬": 9444,
      "줴": 9445,
      "쥀": 9446,
      "쥐": 9447,
      "쥑": 9448,
      "쥔": 9449,
      "쥣": 9450,
      "쥬": 9451,
      "쥭": 9452,
      "쥰": 9453,
      "쥴": 9454,
      "쥼": 9455,
      "즁": 9456,
      "즈": 9457,
      "즉": 9458,
      "즌": 9459,
      "즐": 9460,
      "즘": 9461,
      "즙": 9462,
      "즛": 9463,
      "증": 9464,
      "즤": 9465,
      "지": 9466,
      "직": 9467,
      "진": 9468,
      "질": 9469,
      "짊": 9470,
      "짐": 9471,
      "집": 9472,
      "짓": 9473,
      "징": 9474,
      "짖": 9475,
      "짙": 9476,
      "짚": 9477,
      "짜": 9478,
      "짝": 9479,
      "짠": 9480,
      "짢": 9481,
      "짤": 9482,
      "짧": 9483,
      "짬": 9484,
      "짭": 9485,
      "짯": 9486,
      "짱": 9487,
      "짲": 9488,
      "째": 9489,
      "짹": 9490,
      "짼": 9491,
      "쨀": 9492,
      "쨋": 9493,
      "쨌": 9494,
      "쨍": 9495,
      "쨔": 9496,
      "쨕": 9497,
      "쨘": 9498,
      "쨩": 9499,
      "쨰": 9500,
      "쩃": 9501,
      "쩄": 9502,
      "쩌": 9503,
      "쩍": 9504,
      "쩐": 9505,
      "쩔": 9506,
      "쩗": 9507,
      "쩝": 9508,
      "쩡": 9509,
      "쩨": 9510,
      "쩬": 9511,
      "쪄": 9512,
      "쪅": 9513,
      "쪈": 9514,
      "쪌": 9515,
      "쪠": 9516,
      "쪼": 9517,
      "쪽": 9518,
      "쫀": 9519,
      "쫄": 9520,
      "쫌": 9521,
      "쫏": 9522,
      "쫑": 9523,
      "쫒": 9524,
      "쫓": 9525,
      "쫘": 9526,
      "쫙": 9527,
      "쬬": 9528,
      "쬰": 9529,
      "쭈": 9530,
      "쭉": 9531,
      "쭌": 9532,
      "쭐": 9533,
      "쭘": 9534,
      "쭙": 9535,
      "쭝": 9536,
      "쮸": 9537,
      "쯔": 9538,
      "쯕": 9539,
      "쯤": 9540,
      "쯧": 9541,
      "쯩": 9542,
      "찀": 9543,
      "찌": 9544,
      "찍": 9545,
      "찐": 9546,
      "찔": 9547,
      "찜": 9548,
      "찝": 9549,
      "찟": 9550,
      "찡": 9551,
      "찢": 9552,
      "찣": 9553,
      "차": 9554,
      "착": 9555,
      "찬": 9556,
      "찮": 9557,
      "찰": 9558,
      "참": 9559,
      "찹": 9560,
      "찻": 9561,
      "찼": 9562,
      "창": 9563,
      "찾": 9564,
      "찿": 9565,
      "채": 9566,
      "책": 9567,
      "챈": 9568,
      "챌": 9569,
      "챗": 9570,
      "챙": 9571,
      "챠": 9572,
      "챡": 9573,
      "챤": 9574,
      "챦": 9575,
      "챨": 9576,
      "챰": 9577,
      "챳": 9578,
      "챵": 9579,
      "챼": 9580,
      "처": 9581,
      "척": 9582,
      "천": 9583,
      "철": 9584,
      "첨": 9585,
      "첩": 9586,
      "첫": 9587,
      "첬": 9588,
      "청": 9589,
      "체": 9590,
      "첵": 9591,
      "첸": 9592,
      "첼": 9593,
      "쳄": 9594,
      "쳇": 9595,
      "쳎": 9596,
      "쳐": 9597,
      "쳑": 9598,
      "쳔": 9599,
      "쳘": 9600,
      "쳠": 9601,
      "쳡": 9602,
      "쳣": 9603,
      "쳤": 9604,
      "쳥": 9605,
      "쳬": 9606,
      "쳭": 9607,
      "초": 9608,
      "촉": 9609,
      "촌": 9610,
      "촐": 9611,
      "촛": 9612,
      "총": 9613,
      "촤": 9614,
      "촬": 9615,
      "쵀": 9616,
      "쵐": 9617,
      "최": 9618,
      "쵠": 9619,
      "쵸": 9620,
      "쵹": 9621,
      "쵼": 9622,
      "춀": 9623,
      "춈": 9624,
      "추": 9625,
      "축": 9626,
      "춘": 9627,
      "출": 9628,
      "춤": 9629,
      "춥": 9630,
      "춧": 9631,
      "충": 9632,
      "춰": 9633,
      "췃": 9634,
      "췄": 9635,
      "췌": 9636,
      "취": 9637,
      "췬": 9638,
      "츄": 9639,
      "츅": 9640,
      "츈": 9641,
      "츌": 9642,
      "츔": 9643,
      "츙": 9644,
      "츠": 9645,
      "측": 9646,
      "츤": 9647,
      "츨": 9648,
      "츩": 9649,
      "츰": 9650,
      "츱": 9651,
      "츳": 9652,
      "층": 9653,
      "츼": 9654,
      "치": 9655,
      "칙": 9656,
      "친": 9657,
      "칠": 9658,
      "침": 9659,
      "칩": 9660,
      "칫": 9661,
      "칭": 9662,
      "카": 9663,
      "칵": 9664,
      "칸": 9665,
      "칼": 9666,
      "캄": 9667,
      "캅": 9668,
      "캇": 9669,
      "캉": 9670,
      "캐": 9671,
      "캔": 9672,
      "캠": 9673,
      "캡": 9674,
      "캣": 9675,
      "캥": 9676,
      "캬": 9677,
      "캽": 9678,
      "컁": 9679,
      "커": 9680,
      "컥": 9681,
      "컨": 9682,
      "컬": 9683,
      "컴": 9684,
      "컵": 9685,
      "컷": 9686,
      "컸": 9687,
      "컹": 9688,
      "케": 9689,
      "켄": 9690,
      "켈": 9691,
      "켐": 9692,
      "켑": 9693,
      "켓": 9694,
      "켔": 9695,
      "켕": 9696,
      "켙": 9697,
      "켜": 9698,
      "켠": 9699,
      "켤": 9700,
      "켯": 9701,
      "켰": 9702,
      "켸": 9703,
      "콋": 9704,
      "코": 9705,
      "콕": 9706,
      "콘": 9707,
      "콜": 9708,
      "콤": 9709,
      "콥": 9710,
      "콧": 9711,
      "콩": 9712,
      "콭": 9713,
      "콮": 9714,
      "콰": 9715,
      "콱": 9716,
      "콸": 9717,
      "쾅": 9718,
      "쾌": 9719,
      "쾟": 9720,
      "쾨": 9721,
      "쾩": 9722,
      "쾽": 9723,
      "쿄": 9724,
      "쿅": 9725,
      "쿠": 9726,
      "쿡": 9727,
      "쿤": 9728,
      "쿨": 9729,
      "쿰": 9730,
      "쿵": 9731,
      "퀑": 9732,
      "퀘": 9733,
      "퀜": 9734,
      "퀫": 9735,
      "퀭": 9736,
      "퀴": 9737,
      "퀸": 9738,
      "퀼": 9739,
      "큐": 9740,
      "큘": 9741,
      "크": 9742,
      "큭": 9743,
      "큰": 9744,
      "클": 9745,
      "큼": 9746,
      "큽": 9747,
      "큿": 9748,
      "킁": 9749,
      "킈": 9750,
      "킐": 9751,
      "키": 9752,
      "킥": 9753,
      "킨": 9754,
      "킬": 9755,
      "킴": 9756,
      "킵": 9757,
      "킷": 9758,
      "킹": 9759,
      "타": 9760,
      "탁": 9761,
      "탄": 9762,
      "탈": 9763,
      "탉": 9764,
      "탐": 9765,
      "탑": 9766,
      "탓": 9767,
      "탔": 9768,
      "탕": 9769,
      "태": 9770,
      "택": 9771,
      "탠": 9772,
      "탤": 9773,
      "탬": 9774,
      "탯": 9775,
      "탱": 9776,
      "탸": 9777,
      "탼": 9778,
      "터": 9779,
      "턱": 9780,
      "턴": 9781,
      "털": 9782,
      "텀": 9783,
      "텁": 9784,
      "텃": 9785,
      "텄": 9786,
      "텅": 9787,
      "테": 9788,
      "텍": 9789,
      "텐": 9790,
      "텔": 9791,
      "템": 9792,
      "텝": 9793,
      "텟": 9794,
      "텡": 9795,
      "텨": 9796,
      "텬": 9797,
      "텰": 9798,
      "텸": 9799,
      "텹": 9800,
      "텻": 9801,
      "텽": 9802,
      "톄": 9803,
      "톔": 9804,
      "토": 9805,
      "톡": 9806,
      "톤": 9807,
      "톨": 9808,
      "톰": 9809,
      "톱": 9810,
      "톳": 9811,
      "통": 9812,
      "퇴": 9813,
      "퇵": 9814,
      "툇": 9815,
      "툊": 9816,
      "툐": 9817,
      "툔": 9818,
      "투": 9819,
      "툭": 9820,
      "툰": 9821,
      "툴": 9822,
      "툼": 9823,
      "퉁": 9824,
      "퉈": 9825,
      "튀": 9826,
      "튂": 9827,
      "튋": 9828,
      "튒": 9829,
      "튕": 9830,
      "튜": 9831,
      "튝": 9832,
      "튞": 9833,
      "튤": 9834,
      "튱": 9835,
      "트": 9836,
      "특": 9837,
      "튼": 9838,
      "튿": 9839,
      "틀": 9840,
      "틈": 9841,
      "틉": 9842,
      "틋": 9843,
      "틍": 9844,
      "틑": 9845,
      "틔": 9846,
      "틕": 9847,
      "틘": 9848,
      "틜": 9849,
      "틤": 9850,
      "틩": 9851,
      "티": 9852,
      "틱": 9853,
      "틴": 9854,
      "틸": 9855,
      "팀": 9856,
      "팁": 9857,
      "팃": 9858,
      "팅": 9859,
      "파": 9860,
      "팍": 9861,
      "팎": 9862,
      "판": 9863,
      "팔": 9864,
      "팜": 9865,
      "팟": 9866,
      "팡": 9867,
      "패": 9868,
      "팩": 9869,
      "팬": 9870,
      "팰": 9871,
      "팻": 9872,
      "팽": 9873,
      "퍼": 9874,
      "퍽": 9875,
      "펀": 9876,
      "펄": 9877,
      "펏": 9878,
      "펑": 9879,
      "페": 9880,
      "펙": 9881,
      "펜": 9882,
      "펠": 9883,
      "펭": 9884,
      "펴": 9885,
      "펵": 9886,
      "편": 9887,
      "펼": 9888,
      "폄": 9889,
      "폇": 9890,
      "폈": 9891,
      "평": 9892,
      "폐": 9893,
      "폔": 9894,
      "폥": 9895,
      "포": 9896,
      "폭": 9897,
      "폰": 9898,
      "폴": 9899,
      "폼": 9900,
      "폽": 9901,
      "폿": 9902,
      "퐁": 9903,
      "퐈": 9904,
      "푀": 9905,
      "표": 9906,
      "푸": 9907,
      "푹": 9908,
      "푼": 9909,
      "풀": 9910,
      "풃": 9911,
      "품": 9912,
      "풋": 9913,
      "풍": 9914,
      "풔": 9915,
      "풰": 9916,
      "퓀": 9917,
      "퓌": 9918,
      "퓐": 9919,
      "퓜": 9920,
      "퓨": 9921,
      "프": 9922,
      "픈": 9923,
      "플": 9924,
      "픔": 9925,
      "픕": 9926,
      "픗": 9927,
      "픠": 9928,
      "픤": 9929,
      "픨": 9930,
      "피": 9931,
      "픽": 9932,
      "핀": 9933,
      "필": 9934,
      "핊": 9935,
      "핌": 9936,
      "핍": 9937,
      "핏": 9938,
      "핑": 9939,
      "하": 9940,
      "학": 9941,
      "한": 9942,
      "할": 9943,
      "핥": 9944,
      "함": 9945,
      "합": 9946,
      "핫": 9947,
      "항": 9948,
      "해": 9949,
      "핵": 9950,
      "핸": 9951,
      "핼": 9952,
      "햀": 9953,
      "햄": 9954,
      "햇": 9955,
      "했": 9956,
      "행": 9957,
      "햐": 9958,
      "햣": 9959,
      "향": 9960,
      "햿": 9961,
      "헀": 9962,
      "허": 9963,
      "헉": 9964,
      "헌": 9965,
      "헏": 9966,
      "헐": 9967,
      "험": 9968,
      "헙": 9969,
      "헛": 9970,
      "헜": 9971,
      "헝": 9972,
      "헤": 9973,
      "헥": 9974,
      "헨": 9975,
      "헬": 9976,
      "헮": 9977,
      "헴": 9978,
      "헷": 9979,
      "헹": 9980,
      "혀": 9981,
      "혁": 9982,
      "현": 9983,
      "혈": 9984,
      "혐": 9985,
      "협": 9986,
      "혓": 9987,
      "혔": 9988,
      "형": 9989,
      "혜": 9990,
      "혠": 9991,
      "혤": 9992,
      "혯": 9993,
      "호": 9994,
      "혹": 9995,
      "혼": 9996,
      "홀": 9997,
      "홈": 9998,
      "홉": 9999,
      "홋": 10000,
      "홍": 10001,
      "홑": 10002,
      "화": 10003,
      "확": 10004,
      "환": 10005,
      "활": 10006,
      "홧": 10007,
      "황": 10008,
      "홰": 10009,
      "홱": 10010,
      "횃": 10011,
      "회": 10012,
      "획": 10013,
      "횔": 10014,
      "횜": 10015,
      "횟": 10016,
      "횡": 10017,
      "효": 10018,
      "횹": 10019,
      "후": 10020,
      "훅": 10021,
      "훈": 10022,
      "훊": 10023,
      "훌": 10024,
      "훍": 10025,
      "훔": 10026,
      "훕": 10027,
      "훗": 10028,
      "훠": 10029,
      "훤": 10030,
      "훨": 10031,
      "훼": 10032,
      "휀": 10033,
      "휄": 10034,
      "휑": 10035,
      "휘": 10036,
      "휙": 10037,
      "휜": 10038,
      "휠": 10039,
      "휨": 10040,
      "휩": 10041,
      "휫": 10042,
      "휭": 10043,
      "휴": 10044,
      "휼": 10045,
      "흄": 10046,
      "흉": 10047,
      "흐": 10048,
      "흑": 10049,
      "흔": 10050,
      "흖": 10051,
      "흘": 10052,
      "흙": 10053,
      "흚": 10054,
      "흠": 10055,
      "흡": 10056,
      "흣": 10057,
      "흥": 10058,
      "흩": 10059,
      "희": 10060,
      "흰": 10061,
      "흼": 10062,
      "흽": 10063,
      "흿": 10064,
      "히": 10065,
      "힉": 10066,
      "힌": 10067,
      "힐": 10068,
      "힘": 10069,
      "힙": 10070,
      "힛": 10071,
      "힝": 10072,
      "": 10073,
      "": 10074,
      "": 10075,
      "": 10076,
      "": 10077,
      "": 10078,
      "": 10079,
      "": 10080,
      "": 10081,
      "": 10082,
      "": 10083,
      "": 10084,
      "": 10085,
      "": 10086,
      "": 10087,
      "": 10088,
      "": 10089,
      "": 10090,
      "": 10091,
      "": 10092,
      "": 10093,
      "": 10094,
      "": 10095,
      "": 10096,
      "": 10097,
      "": 10098,
      "": 10099,
      "": 10100,
      "": 10101,
      "": 10102,
      "": 10103,
      "": 10104,
      "": 10105,
      "": 10106,
      "": 10107,
      "": 10108,
      "": 10109,
      "": 10110,
      "": 10111,
      "": 10112,
      "": 10113,
      "": 10114,
      "": 10115,
      "": 10116,
      "": 10117,
      "": 10118,
      "": 10119,
      "": 10120,
      "": 10121,
      "": 10122,
      "": 10123,
      "": 10124,
      "": 10125,
      "": 10126,
      "": 10127,
      "": 10128,
      "": 10129,
      "": 10130,
      "": 10131,
      "": 10132,
      "": 10133,
      "": 10134,
      "": 10135,
      "": 10136,
      "": 10137,
      "": 10138,
      "": 10139,
      "": 10140,
      "": 10141,
      "": 10142,
      "": 10143,
      "": 10144,
      "": 10145,
      "": 10146,
      "": 10147,
      "": 10148,
      "": 10149,
      "": 10150,
      "": 10151,
      "": 10152,
      "": 10153,
      "": 10154,
      "": 10155,
      "": 10156,
      "": 10157,
      "": 10158,
      "": 10159,
      "": 10160,
      "": 10161,
      "": 10162,
      "": 10163,
      "": 10164,
      "": 10165,
      "": 10166,
      "": 10167,
      "": 10168,
      "": 10169,
      "": 10170,
      "": 10171,
      "": 10172,
      "": 10173,
      "": 10174,
      "": 10175,
      "": 10176,
      "": 10177,
      "": 10178,
      "": 10179,
      "": 10180,
      "": 10181,
      "": 10182,
      "": 10183,
      "": 10184,
      "": 10185,
      "": 10186,
      "": 10187,
      "": 10188,
      "": 10189,
      "": 10190,
      "": 10191,
      "": 10192,
      "": 10193,
      "": 10194,
      "": 10195,
      "": 10196,
      "": 10197,
      "": 10198,
      "": 10199,
      "": 10200,
      "": 10201,
      "": 10202,
      "": 10203,
      "": 10204,
      "": 10205,
      "": 10206,
      "": 10207,
      "": 10208,
      "": 10209,
      "": 10210,
      "": 10211,
      "": 10212,
      "": 10213,
      "": 10214,
      "": 10215,
      "": 10216,
      "": 10217,
      "": 10218,
      "": 10219,
      "": 10220,
      "": 10221,
      "": 10222,
      "": 10223,
      "": 10224,
      "": 10225,
      "": 10226,
      "": 10227,
      "": 10228,
      "": 10229,
      "": 10230,
      "": 10231,
      "": 10232,
      "": 10233,
      "": 10234,
      "": 10235,
      "": 10236,
      "": 10237,
      "": 10238,
      "": 10239,
      "": 10240,
      "": 10241,
      "": 10242,
      "": 10243,
      "": 10244,
      "": 10245,
      "": 10246,
      "": 10247,
      "": 10248,
      "": 10249,
      "": 10250,
      "": 10251,
      "": 10252,
      "": 10253,
      "": 10254,
      "": 10255,
      "": 10256,
      "": 10257,
      "": 10258,
      "": 10259,
      "": 10260,
      "": 10261,
      "": 10262,
      "": 10263,
      "": 10264,
      "": 10265,
      "": 10266,
      "": 10267,
      "": 10268,
      "": 10269,
      "": 10270,
      "": 10271,
      "": 10272,
      "": 10273,
      "": 10274,
      "": 10275,
      "": 10276,
      "": 10277,
      "": 10278,
      "": 10279,
      "": 10280,
      "": 10281,
      "": 10282,
      "": 10283,
      "": 10284,
      "": 10285,
      "": 10286,
      "": 10287,
      "": 10288,
      "": 10289,
      "": 10290,
      "": 10291,
      "": 10292,
      "": 10293,
      "": 10294,
      "": 10295,
      "": 10296,
      "": 10297,
      "": 10298,
      "": 10299,
      "": 10300,
      "": 10301,
      "": 10302,
      "": 10303,
      "": 10304,
      "": 10305,
      "": 10306,
      "": 10307,
      "": 10308,
      "": 10309,
      "": 10310,
      "": 10311,
      "": 10312,
      "": 10313,
      "": 10314,
      "": 10315,
      "": 10316,
      "": 10317,
      "": 10318,
      "": 10319,
      "": 10320,
      "": 10321,
      "": 10322,
      "": 10323,
      "": 10324,
      "": 10325,
      "": 10326,
      "": 10327,
      "": 10328,
      "": 10329,
      "": 10330,
      "": 10331,
      "": 10332,
      "": 10333,
      "": 10334,
      "": 10335,
      "": 10336,
      "": 10337,
      "": 10338,
      "": 10339,
      "": 10340,
      "": 10341,
      "": 10342,
      "": 10343,
      "": 10344,
      "": 10345,
      "": 10346,
      "": 10347,
      "": 10348,
      "": 10349,
      "": 10350,
      "": 10351,
      "": 10352,
      "": 10353,
      "": 10354,
      "": 10355,
      "": 10356,
      "": 10357,
      "": 10358,
      "": 10359,
      "": 10360,
      "": 10361,
      "": 10362,
      "": 10363,
      "": 10364,
      "": 10365,
      "": 10366,
      "": 10367,
      "": 10368,
      "": 10369,
      "": 10370,
      "": 10371,
      "": 10372,
      "": 10373,
      "": 10374,
      "": 10375,
      "": 10376,
      "": 10377,
      "": 10378,
      "": 10379,
      "": 10380,
      "": 10381,
      "": 10382,
      "": 10383,
      "": 10384,
      "": 10385,
      "": 10386,
      "": 10387,
      "": 10388,
      "": 10389,
      "": 10390,
      "": 10391,
      "": 10392,
      "": 10393,
      "": 10394,
      "": 10395,
      "": 10396,
      "": 10397,
      "": 10398,
      "": 10399,
      "": 10400,
      "": 10401,
      "": 10402,
      "": 10403,
      "": 10404,
      "": 10405,
      "": 10406,
      "": 10407,
      "": 10408,
      "": 10409,
      "": 10410,
      "": 10411,
      "": 10412,
      "": 10413,
      "": 10414,
      "": 10415,
      "": 10416,
      "": 10417,
      "": 10418,
      "": 10419,
      "": 10420,
      "": 10421,
      "": 10422,
      "": 10423,
      "": 10424,
      "": 10425,
      "": 10426,
      "": 10427,
      "": 10428,
      "": 10429,
      "": 10430,
      "": 10431,
      "": 10432,
      "": 10433,
      "": 10434,
      "": 10435,
      "": 10436,
      "": 10437,
      "": 10438,
      "": 10439,
      "": 10440,
      "": 10441,
      "": 10442,
      "": 10443,
      "": 10444,
      "": 10445,
      "": 10446,
      "": 10447,
      "": 10448,
      "": 10449,
      "": 10450,
      "": 10451,
      "": 10452,
      "": 10453,
      "": 10454,
      "": 10455,
      "": 10456,
      "": 10457,
      "": 10458,
      "": 10459,
      "": 10460,
      "": 10461,
      "": 10462,
      "": 10463,
      "": 10464,
      "": 10465,
      "": 10466,
      "": 10467,
      "": 10468,
      "": 10469,
      "": 10470,
      "": 10471,
      "": 10472,
      "": 10473,
      "": 10474,
      "": 10475,
      "": 10476,
      "": 10477,
      "": 10478,
      "": 10479,
      "": 10480,
      "": 10481,
      "": 10482,
      "": 10483,
      "": 10484,
      "": 10485,
      "": 10486,
      "�": 10487,
      "𠌃": 10488,
      "𠌮": 10489,
      "𠹭": 10490,
      "𡶄": 10491,
      "𡾋": 10492,
      "𤇥": 10493,
      "𤩐": 10494,
      "𥕕": 10495,
      "𧌑": 10496,
      "𧙖": 10497,
      "𧛸": 10498,
      "𩔷": 10499,
      "𩸽": 10500,
      "𩿪": 10501,
      "다.": 10502,
      "야": 10503,
      "으로": 10504,
      "고": 10505,
      "라.": 10506,
      "하야": 10507,
      "것이": 10508,
      "하고": 10509,
      "": 10510,
      "이라": 10511,
      "하는": 10512,
      "니": 10513,
      "아니": 10514,
      "에서": 10515,
      "다.그": 10516,
      "며": 10517,
      "니다.": 10518,
      "면": 10519,
      "것은": 10520,
      "..": 10521,
      "에는": 10522,
      "하여": 10523,
      "이": 10524,
      "사람": 10525,
      "우리": 10526,
      "에게": 10527,
      "하엿": 10528,
      "이나": 10529,
      "하면": 10530,
      "이다.": 10531,
      "朝鮮": 10532,
      "人이": 10533,
      "지": 10534,
      "오.": 10535,
      "故로": 10536,
      "것을": 10537,
      "人의": 10538,
      "이니": 10539,
      "가지": 10540,
      "얏": 10541,
      "잇는": 10542,
      "者": 10543,
      "敎育": 10544,
      "것이다.": 10545,
      "그러": 10546,
      "日本": 10547,
      "": 10548,
      "國家": 10549,
      "이有": 10550,
      "學校": 10551,
      "社會": 10552,
      "을": 10553,
      "다.그러": 10554,
      "나는": 10555,
      "하게": 10556,
      "에": 10557,
      "이오": 10558,
      "까지": 10559,
      "에對": 10560,
      "者ᅵ": 10561,
      "기": 10562,
      "부터": 10563,
      "생각": 10564,
      "다가": 10565,
      "요.": 10566,
      "한다.": 10567,
      "에셔": 10568,
      "치못": 10569,
      "라도": 10570,
      "하얏": 10571,
      "니": 10572,
      "할수": 10573,
      "이되": 10574,
      "나": 10575,
      "하며": 10576,
      "에在": 10577,
      "國民": 10578,
      "지안": 10579,
      "今日": 10580,
      "다시": 10581,
      "다고": 10582,
      "은": 10583,
      "이잇": 10584,
      "이러": 10585,
      "時에": 10586,
      "이라.": 10587,
      "지못": 10588,
      "國의": 10589,
      "가有": 10590,
      "中에": 10591,
      "主義": 10592,
      "하기": 10593,
      "世界": 10594,
      "리고": 10595,
      "치아니": 10596,
      "다는": 10597,
      "에도": 10598,
      "다.그러나": 10599,
      "에대": 10600,
      "者": 10601,
      "되는": 10602,
      "하나": 10603,
      "로다.": 10604,
      "如何": 10605,
      "生活": 10606,
      "리": 10607,
      "不可": 10608,
      "에至": 10609,
      "라고": 10610,
      "이며": 10611,
      "보다": 10612,
      "더라.": 10613,
      "00": 10614,
      "가잇": 10615,
      "다.이": 10616,
      "二十": 10617,
      "들은": 10618,
      "스니": 10619,
      "어서": 10620,
      "으로": 10621,
      "精神": 10622,
      "政府": 10623,
      "습니다.": 10624,
      "此를": 10625,
      "에잇": 10626,
      "에不": 10627,
      "엿": 10628,
      "時代": 10629,
      "氏가": 10630,
      "後에": 10631,
      "思想": 10632,
      "人은": 10633,
      "니와": 10634,
      "以上": 10635,
      "者의": 10636,
      "들의": 10637,
      "들이": 10638,
      "하니": 10639,
      "關係": 10640,
      "第一": 10641,
      "아니라": 10642,
      "에對야": 10643,
      "가티": 10644,
      "이면": 10645,
      "가.": 10646,
      "必要": 10647,
      "로써": 10648,
      "홈.": 10649,
      "自己": 10650,
      "目的": 10651,
      "이無": 10652,
      "는그": 10653,
      "으로써": 10654,
      "대로": 10655,
      "政治": 10656,
      "가되": 10657,
      "法律": 10658,
      "運動": 10659,
      "....": 10660,
      "不能": 10661,
      "엇다.": 10662,
      "人民": 10663,
      "지라.": 10664,
      "노": 10665,
      "니라.": 10666,
      "上에": 10667,
      "學生": 10668,
      "스나": 10669,
      "氏의": 10670,
      "問題": 10671,
      "自由": 10672,
      "가지고": 10673,
      "다.": 10674,
      "그의": 10675,
      "업는": 10676,
      "者가": 10677,
      "과如": 10678,
      "도다.": 10679,
      "들어": 10680,
      "地方": 10681,
      "엇지": 10682,
      "것도": 10683,
      "무엇": 10684,
      "야其": 10685,
      "는데": 10686,
      "되": 10687,
      "文明": 10688,
      "間에": 10689,
      "本會": 10690,
      "同胞": 10691,
      "더니": 10692,
      "지아니": 10693,
      "靑年": 10694,
      "을不": 10695,
      "서는": 10696,
      "여": 10697,
      "自然": 10698,
      "이란": 10699,
      "이어": 10700,
      ".": 10701,
      "니라.": 10702,
      "의一": 10703,
      "또한": 10704,
      "거": 10705,
      "하엿다.": 10706,
      "所謂": 10707,
      "니까": 10708,
      "때에": 10709,
      "지금": 10710,
      "이라고": 10711,
      "라는": 10712,
      "民族": 10713,
      "여러": 10714,
      "한것이": 10715,
      "가튼": 10716,
      "硏究": 10717,
      "此": 10718,
      "게되": 10719,
      "모든": 10720,
      "소리": 10721,
      "乎아": 10722,
      "一般": 10723,
      "든지": 10724,
      "을보": 10725,
      ",,": 10726,
      "한다": 10727,
      "지않": 10728,
      "즉": 10729,
      "일이": 10730,
      "치안": 10731,
      "事業": 10732,
      "力을": 10733,
      "가장": 10734,
      "문제": 10735,
      "10": 10736,
      "는것이": 10737,
      "섯다.": 10738,
      "이라도": 10739,
      "던지": 10740,
      "...": 10741,
      "時": 10742,
      "에서는": 10743,
      "이不": 10744,
      "스며": 10745,
      "也라.": 10746,
      "가無": 10747,
      "」「": 10748,
      "人類": 10749,
      "생활": 10750,
      "지만": 10751,
      "經濟": 10752,
      "日에": 10753,
      "大臣": 10754,
      "發達": 10755,
      "다": 10756,
      "이는": 10757,
      "조선": 10758,
      "사회": 10759,
      "에依": 10760,
      "을가": 10761,
      "獨立": 10762,
      "하는것이": 10763,
      "다만": 10764,
      "이업": 10765,
      "組織": 10766,
      "하다.": 10767,
      "슴니다.": 10768,
      "其他": 10769,
      "者": 10770,
      "이요": 10771,
      "되고": 10772,
      "에의": 10773,
      "人을": 10774,
      "내가": 10775,
      "주의": 10776,
      "的으로": 10777,
      "니다.그": 10778,
      "三十": 10779,
      "義務": 10780,
      "方法": 10781,
      "이고": 10782,
      "年에": 10783,
      "그리": 10784,
      "이可": 10785,
      "가는": 10786,
      "에關": 10787,
      "하였": 10788,
      "國이": 10789,
      "境遇": 10790,
      "그러나": 10791,
      "지니": 10792,
      "더욱": 10793,
      "어느": 10794,
      "이러한": 10795,
      "不得": 10796,
      "에대한": 10797,
      "기를": 10798,
      "爲야": 10799,
      "으면": 10800,
      "할것이": 10801,
      "는이": 10802,
      "然이나": 10803,
      "야": 10804,
      "或은": 10805,
      "權利": 10806,
      "아모": 10807,
      "해서": 10808,
      "歷史": 10809,
      "英國": 10810,
      "무슨": 10811,
      "京城": 10812,
      "如此": 10813,
      "의大": 10814,
      "바": 10815,
      "會社": 10816,
      "시": 10817,
      "因야": 10818,
      "잇다.": 10819,
      "事實": 10820,
      "團體": 10821,
      "諸君": 10822,
      "이아니": 10823,
      "로부터": 10824,
      "나의": 10825,
      "업시": 10826,
      "이상": 10827,
      "얼마": 10828,
      "입니다.": 10829,
      "然則": 10830,
      "보면": 10831,
      "로서": 10832,
      "第二": 10833,
      "노라.": 10834,
      "力이": 10835,
      "다른": 10836,
      "우리의": 10837,
      "所以": 10838,
      "等의": 10839,
      "또는": 10840,
      "先生": 10841,
      "고其": 10842,
      "지라.": 10843,
      "19": 10844,
      "天下": 10845,
      "사람이": 10846,
      "인데": 10847,
      "하려": 10848,
      "은그": 10849,
      "又": 10850,
      "內에": 10851,
      "이라는": 10852,
      "土地": 10853,
      "할지": 10854,
      "말을": 10855,
      "에이": 10856,
      "結果": 10857,
      "드러": 10858,
      "": 10859,
      "만한": 10860,
      "코져": 10861,
      "그는": 10862,
      "마는": 10863,
      "하겟": 10864,
      "此": 10865,
      "그런": 10866,
      "보고": 10867,
      "마음": 10868,
      "다": 10869,
      "勞働": 10870,
      "支那": 10871,
      "가서": 10872,
      "와如": 10873,
      "으나": 10874,
      "같이": 10875,
      "때문": 10876,
      "가업": 10877,
      "운동": 10878,
      "엿다.": 10879,
      "적으로": 10880,
      "勿論": 10881,
      "委員": 10882,
      "中國": 10883,
      "까닭": 10884,
      "에": 10885,
      "新聞": 10886,
      "會를": 10887,
      "XX": 10888,
      "지라.": 10889,
      "은이": 10890,
      "十二": 10891,
      "동안": 10892,
      "합니다.": 10893,
      "宗敎": 10894,
      "지는": 10895,
      "事": 10896,
      "者": 10897,
      "우리는": 10898,
      "리를": 10899,
      "完全": 10900,
      "이다": 10901,
      "會員": 10902,
      "氏": 10903,
      "者는": 10904,
      "야一": 10905,
      "外에": 10906,
      "이야": 10907,
      "不知": 10908,
      "此에": 10909,
      "모르": 10910,
      "人生": 10911,
      "외다.": 10912,
      "서서": 10913,
      "자기": 10914,
      "인가": 10915,
      "하게되": 10916,
      "사실": 10917,
      "物을": 10918,
      "모양": 10919,
      "할것": 10920,
      "國家의": 10921,
      "我國": 10922,
      "會長": 10923,
      "지라": 10924,
      "사람의": 10925,
      "性質": 10926,
      "機關": 10927,
      "함이": 10928,
      "면서": 10929,
      "자는": 10930,
      ",그": 10931,
      "千萬": 10932,
      "文學": 10933,
      "人之": 10934,
      "韓國": 10935,
      "然히": 10936,
      "물론": 10937,
      "學問": 10938,
      "印度": 10939,
      "의게": 10940,
      "": 10941,
      "구나": 10942,
      "制度": 10943,
      "多數": 10944,
      "資本": 10945,
      "같은": 10946,
      "호": 10947,
      "되어": 10948,
      "이리": 10949,
      "東洋": 10950,
      "故로": 10951,
      "種의": 10952,
      "也ᅵ": 10953,
      "物의": 10954,
      "따라": 10955,
      "으로부터": 10956,
      "」의": 10957,
      "한것": 10958,
      "同一": 10959,
      "設立": 10960,
      "大韓": 10961,
      "이를": 10962,
      "없는": 10963,
      "이제": 10964,
      "이엇": 10965,
      "지도": 10966,
      "어떠": 10967,
      "自己의": 10968,
      "道德": 10969,
      "도다.": 10970,
      "注意": 10971,
      "權을": 10972,
      "普通": 10973,
      "함은": 10974,
      "一.": 10975,
      "말이": 10976,
      "바": 10977,
      "한번": 10978,
      "東京": 10979,
      "能히": 10980,
      "我韓": 10981,
      "農業": 10982,
      "지요.": 10983,
      "있는": 10984,
      "을得": 10985,
      "컨": 10986,
      "되": 10987,
      "인": 10988,
      "니此": 10989,
      "기로": 10990,
      "女子": 10991,
      "部分": 10992,
      "外國": 10993,
      "만일": 10994,
      "이라.": 10995,
      "보아": 10996,
      "이가": 10997,
      ".(": 10998,
      "五十": 10999,
      "고,": 11000,
      "利益": 11001,
      "이에": 11002,
      "오늘": 11003,
      "시에": 11004,
      "니라.": 11005,
      "얏다": 11006,
      "可決": 11007,
      "也오": 11008,
      "기는": 11009,
      "나라": 11010,
      "혹은": 11011,
      "責任": 11012,
      "야以": 11013,
      "生命": 11014,
      "文化": 11015,
      "이것은": 11016,
      "人으로": 11017,
      "者를": 11018,
      "인지": 11019,
      "有": 11020,
      "기에": 11021,
      "이오.": 11022,
      "事": 11023,
      "보다도": 11024,
      "함을": 11025,
      "地에": 11026,
      "米國": 11027,
      "國之": 11028,
      "報告": 11029,
      "돌아": 11030,
      "第三": 11031,
      "아닌": 11032,
      "위하야": 11033,
      "진": 11034,
      "에나": 11035,
      "도亦": 11036,
      "말하면": 11037,
      "도록": 11038,
      "也라": 11039,
      "行爲": 11040,
      "空氣": 11041,
      "第十": 11042,
      "에一": 11043,
      "現今": 11044,
      "이여": 11045,
      "와서": 11046,
      "으니": 11047,
      "지나": 11048,
      "으며": 11049,
      "하든": 11050,
      "한바": 11051,
      "필요": 11052,
      "": 11053,
      "活動": 11054,
      "거시": 11055,
      "戰爭": 11056,
      "마다": 11057,
      "자의": 11058,
      "互相": 11059,
      "된다.": 11060,
      "사람은": 11061,
      "고그": 11062,
      "20": 11063,
      "家의": 11064,
      "將來": 11065,
      "야도": 11066,
      "하다": 11067,
      "리니": 11068,
      "세계": 11069,
      "事務": 11070,
      "래서": 11071,
      "리는": 11072,
      "一個": 11073,
      "들을": 11074,
      "사랑": 11075,
      "國民의": 11076,
      "도有": 11077,
      "이로": 11078,
      "時": 11079,
      "아.": 11080,
      "으로서": 11081,
      "▧▧": 11082,
      "原因": 11083,
      "階級": 11084,
      "評議": 11085,
      "아직": 11086,
      "이一": 11087,
      "에대하야": 11088,
      "을發": 11089,
      "자가": 11090,
      "나니": 11091,
      "事를": 11092,
      "定": 11093,
      "만히": 11094,
      "럼으로": 11095,
      "前에": 11096,
      "大": 11097,
      "나니": 11098,
      "비록": 11099,
      "時間": 11100,
      "되야": 11101,
      "다.그리고": 11102,
      "인의": 11103,
      "下에": 11104,
      "今에": 11105,
      "": 11106,
      "財産": 11107,
      "오는": 11108,
      "지를": 11109,
      "이니": 11110,
      "때문에": 11111,
      "作用": 11112,
      "하얏다.": 11113,
      "로는": 11114,
      "하면서": 11115,
      "朝鮮의": 11116,
      "請願": 11117,
      "進步": 11118,
      "에잇는": 11119,
      "다.그리": 11120,
      "上의": 11121,
      "吾人의": 11122,
      "身體": 11123,
      "그것은": 11124,
      "學會": 11125,
      "에達": 11126,
      "와가티": 11127,
      "來로": 11128,
      "다.그런": 11129,
      "法을": 11130,
      "規則": 11131,
      "신문": 11132,
      "國을": 11133,
      "안이": 11134,
      "처음": 11135,
      "으로는": 11136,
      "狀態": 11137,
      "競爭": 11138,
      "엇더": 11139,
      "決코": 11140,
      "裁判": 11141,
      "다음": 11142,
      "이것이": 11143,
      "者ᅵ": 11144,
      "生産": 11145,
      "를不": 11146,
      "의所": 11147,
      "학교": 11148,
      "獨逸": 11149,
      "니다": 11150,
      "保護": 11151,
      "嗚呼": 11152,
      "얼마나": 11153,
      "四十": 11154,
      "민족": 11155,
      "하지안": 11156,
      "관계": 11157,
      "는지": 11158,
      "고又": 11159,
      "다면": 11160,
      "이그": 11161,
      "만흔": 11162,
      "었다.": 11163,
      "商工": 11164,
      "實로": 11165,
      "학생": 11166,
      "되여": 11167,
      "을수": 11168,
      "중에": 11169,
      "니其": 11170,
      "에不過": 11171,
      "會의": 11172,
      "觀察": 11173,
      "일을": 11174,
      "希望": 11175,
      "하랴": 11176,
      "科學": 11177,
      "程度": 11178,
      "維持": 11179,
      "하는것은": 11180,
      "物이": 11181,
      "어떤": 11182,
      "니까.": 11183,
      "一日": 11184,
      "리오.": 11185,
      "스면": 11186,
      "하자": 11187,
      "國에": 11188,
      "를가": 11189,
      "볼수": 11190,
      "한것은": 11191,
      "者ᅵ": 11192,
      "社會의": 11193,
      "12": 11194,
      "거나": 11195,
      "밧게": 11196,
      "此等": 11197,
      "人格": 11198,
      "을지": 11199,
      "藝術": 11200,
      "모다": 11201,
      "森林": 11202,
      "의미": 11203,
      "가?": 11204,
      "시대": 11205,
      "組合": 11206,
      "느냐": 11207,
      "動議": 11208,
      "業을": 11209,
      "리오.": 11210,
      "하시": 11211,
      "說明": 11212,
      "말로": 11213,
      "거니와": 11214,
      "은其": 11215,
      "使用": 11216,
      "理想": 11217,
      "우에": 11218,
      "이러케": 11219,
      "고로": 11220,
      ")(": 11221,
      "되엇": 11222,
      "區別": 11223,
      "國際": 11224,
      "과如히": 11225,
      ")의": 11226,
      "時": 11227,
      "새로": 11228,
      "은一": 11229,
      "가아니": 11230,
      "革命": 11231,
      "家庭": 11232,
      "特別": 11233,
      "規定": 11234,
      "觀念": 11235,
      "먼저": 11236,
      "如斯": 11237,
      "되엿": 11238,
      "과가티": 11239,
      "等이": 11240,
      "도라": 11241,
      "同時에": 11242,
      "가不": 11243,
      "心을": 11244,
      "을受": 11245,
      "이없": 11246,
      "도잇": 11247,
      "진": 11248,
      "그리고": 11249,
      "래도": 11250,
      "會議": 11251,
      "18": 11252,
      "세상": 11253,
      "成立": 11254,
      "을據": 11255,
      "을得": 11256,
      "인즉": 11257,
      "如何": 11258,
      "發展": 11259,
      "經營": 11260,
      "1,": 11261,
      "듯이": 11262,
      "하는것": 11263,
      "000": 11264,
      "幸福": 11265,
      "君主": 11266,
      "後에": 11267,
      "地位": 11268,
      "會에": 11269,
      "하리": 11270,
      "우리가": 11271,
      "에對한": 11272,
      "可히": 11273,
      "大抵": 11274,
      "의意": 11275,
      "그것이": 11276,
      "누구": 11277,
      "東西": 11278,
      "方面": 11279,
      "갓치": 11280,
      "乎아.": 11281,
      "於是": 11282,
      "하다가": 11283,
      "할것이다.": 11284,
      "也니": 11285,
      "種類": 11286,
      "실로": 11287,
      "에있": 11288,
      "부르": 11289,
      "그들의": 11290,
      "가치": 11291,
      "아즉": 11292,
      "": 11293,
      "거리": 11294,
      "十五": 11295,
      "存在": 11296,
      "敎師": 11297,
      "임니다.": 11298,
      "정신": 11299,
      "얏스니": 11300,
      "感情": 11301,
      "監督": 11302,
      "노래": 11303,
      "속에": 11304,
      "어다.": 11305,
      "을作": 11306,
      "키難": 11307,
      "더니": 11308,
      "上海": 11309,
      "物質": 11310,
      "知識": 11311,
      "에依야": 11312,
      "』『": 11313,
      "이라稱": 11314,
      "實行": 11315,
      "한일": 11316,
      "地球": 11317,
      "高麗": 11318,
      "브터": 11319,
      "시간": 11320,
      "에入": 11321,
      "작품": 11322,
      "爲하야": 11323,
      "範圍": 11324,
      "行政": 11325,
      "할수잇": 11326,
      "시작": 11327,
      "시다.": 11328,
      "지라도": 11329,
      "하는바": 11330,
      "歐洲": 11331,
      "지마는": 11332,
      "노니": 11333,
      "當": 11334,
      "을이": 11335,
      "等을": 11336,
      "그때": 11337,
      "기를": 11338,
      "調査": 11339,
      "後": 11340,
      "함으로": 11341,
      "........": 11342,
      "하는데": 11343,
      "間의": 11344,
      "일본": 11345,
      "코자": 11346,
      "함니다.": 11347,
      "敎育의": 11348,
      "中央": 11349,
      "者로": 11350,
      "萬一": 11351,
      "대한": 11352,
      "者": 11353,
      "여러가지": 11354,
      "다가": 11355,
      "기爲야": 11356,
      "1.": 11357,
      "兒童": 11358,
      "國은": 11359,
      "現在": 11360,
      "두고": 11361,
      "당신": 11362,
      "만은": 11363,
      "일반": 11364,
      "하여야": 11365,
      "價値": 11366,
      "特히": 11367,
      "어린": 11368,
      "製造": 11369,
      "전에": 11370,
      "처럼": 11371,
      "大學": 11372,
      "氣가": 11373,
      "역시": 11374,
      "故로": 11375,
      "東亞": 11376,
      "도업": 11377,
      "": 11378,
      "하야그": 11379,
      "心이": 11380,
      "이런": 11381,
      "30": 11382,
      "支會": 11383,
      "여기": 11384,
      "을주": 11385,
      "15": 11386,
      "實業": 11387,
      "선생": 11388,
      "치고": 11389,
      "에게는": 11390,
      "基礎": 11391,
      "子의": 11392,
      "條約": 11393,
      "는것": 11394,
      "三千": 11395,
      "而不": 11396,
      "人士": 11397,
      "商業": 11398,
      "사상": 11399,
      "서로": 11400,
      "私立": 11401,
      "銀行": 11402,
      "我의": 11403,
      "을가지고": 11404,
      "건": 11405,
      "기로": 11406,
      "되다.": 11407,
      "현재": 11408,
      "에在": 11409,
      "兄弟": 11410,
      "演說": 11411,
      "百年": 11412,
      "는다.": 11413,
      "여긔": 11414,
      "을바": 11415,
      "말슴": 11416,
      "可以": 11417,
      "그러케": 11418,
      "이것을": 11419,
      ")을": 11420,
      "增加": 11421,
      "從야": 11422,
      "氏는": 11423,
      "할때": 11424,
      "世紀": 11425,
      "有志": 11426,
      "알수": 11427,
      "敎授": 11428,
      "지고": 11429,
      "等은": 11430,
      "문학": 11431,
      "나서": 11432,
      "바": 11433,
      "지": 11434,
      "면其": 11435,
      "基督": 11436,
      "平壤": 11437,
      "어찌": 11438,
      "가없": 11439,
      "의不": 11440,
      "愛國": 11441,
      "現象": 11442,
      "事件": 11443,
      "일어": 11444,
      "과": 11445,
      "以下": 11446,
      "六十": 11447,
      "그만": 11448,
      "동시에": 11449,
      "라": 11450,
      "卒業": 11451,
      "아무": 11452,
      "改良": 11453,
      "由야": 11454,
      "體의": 11455,
      "사를": 11456,
      "것이": 11457,
      "工業": 11458,
      "書를": 11459,
      "也오.": 11460,
      "코저": 11461,
      "其": 11462,
      "理由": 11463,
      "벌서": 11464,
      "소작": 11465,
      "恒常": 11466,
      "라稱": 11467,
      "키不能": 11468,
      "더라.": 11469,
      "": 11470,
      "個人": 11471,
      "動物": 11472,
      "容易": 11473,
      "智識": 11474,
      "然而": 11475,
      "生存": 11476,
      "이있": 11477,
      "고一": 11478,
      "帝國": 11479,
      "更히": 11480,
      "父母": 11481,
      "고잇": 11482,
      "자를": 11483,
      "이로다.": 11484,
      "지방": 11485,
      "하고그": 11486,
      "경제": 11487,
      "界의": 11488,
      "특히": 11489,
      "고또": 11490,
      "반다시": 11491,
      "(一": 11492,
      "利用": 11493,
      "文字": 11494,
      "意味": 11495,
      "머니": 11496,
      "의「": 11497,
      "乃至": 11498,
      "電을據": 11499,
      ")이": 11500,
      "보앗": 11501,
      "에關": 11502,
      "百萬": 11503,
      "通常": 11504,
      "太陽": 11505,
      "宇宙": 11506,
      "行動": 11507,
      "며或": 11508,
      "2,": 11509,
      "上으로": 11510,
      "淸國": 11511,
      "當時": 11512,
      "英雄": 11513,
      "인이": 11514,
      "에잇서": 11515,
      "에이르": 11516,
      "매우": 11517,
      "所有": 11518,
      "나무": 11519,
      "": 11520,
      "50": 11521,
      "主張": 11522,
      "代表": 11523,
      "官吏": 11524,
      "農商工": 11525,
      "에曰": 11526,
      "十一": 11527,
      "하고잇": 11528,
      "養成": 11529,
      "당시": 11530,
      "요?": 11531,
      "하던": 11532,
      "學의": 11533,
      "따라서": 11534,
      "滿洲": 11535,
      "만치": 11536,
      "을經": 11537,
      "이多": 11538,
      "이되고": 11539,
      "건": 11540,
      "결과": 11541,
      "계급": 11542,
      "도로": 11543,
      "性을": 11544,
      "가운": 11545,
      "뿐이": 11546,
      "슴으로": 11547,
      "할수업": 11548,
      "各其": 11549,
      "法은": 11550,
      "노동": 11551,
      "人民의": 11552,
      "),": 11553,
      "二千萬": 11554,
      "學을": 11555,
      "警察": 11556,
      "엇던": 11557,
      "子弟": 11558,
      "爲先": 11559,
      "도그": 11560,
      "力으로": 11561,
      "에對": 11562,
      "處에": 11563,
      "사는": 11564,
      "에至야": 11565,
      "정치": 11566,
      "에의하야": 11567,
      "半島": 11568,
      "矣라.": 11569,
      "하": 11570,
      "任員": 11571,
      "十年": 11572,
      "漸次": 11573,
      "」(": 11574,
      "少年": 11575,
      "눈물": 11576,
      "을成": 11577,
      "이와": 11578,
      "玆에": 11579,
      "非常": 11580,
      "을一": 11581,
      "이잇는": 11582,
      "얏다더라.": 11583,
      "影響": 11584,
      "要求": 11585,
      "과의": 11586,
[...]
