#version: 0.2
n g
h Ã
Ã ł
Ä ģ
Ã ¬
Ã ¡
Ä «
Ã ¨
Ç İ
Ġ Ġ
Ã ©
Ã Ń
s hÃ
Ã ¹
Ã¡ n
z h
Ç Ĳ
Å į
j i
d e
Ãł n
Ä ĵ
z hÃ
s h
Ä Ľ
Ã ³
Ç Ķ
x i
Ã ²
Ã º
Äģ n
ĠĠ Ġ
Ãł i
Å «
Åį ng
Ç Ĵ
ã Ģ
shÃ ¬
h u
Ã¨ i
g u
i Ã¡n
hÃ ©
Ãł o
Äģ ng
ÃŃ ng
y u
Çİ n
c h
n iÃ¡n
y Ä«
Çİ ng
Ã© n
ÇĴ u
Ã¬ ng
w Ã¨i
Çİ o
z Ãłi
ãĢ ģ
j Ä«
Äĵ ng
zh Åįng
x Ä«
b Ã¹
j Ã¬
Ãł ng
l i
zhÃ ¨
shÃ Ń
d Ã¬
gu Ã³
y Ãº
r Ã©n
Ã² ng
c hÃ
Äģ o
d u
c hÃ©
y ÇĲ
l Ã¬
Ã¡ ng
y Ã¬
u Ã²
Ã¡ i
zhÃ ¬
chÃ© ng
Ã© i
x u
g Åįng
j ÃŃ
² u
ÄĽ i
i Ãłn
Äĵ n
Ã³ ng
yu Ã¨
y ÇĴu
yu Ã¡n
d Ãł
q i
Åį u
l ÇĲ
2 0
Ã³ u
Äģ i
xi Ãłn
ji Äģ
s Ä«
Å« n
x ÃŃng
y ÇĶ
Ã¨ n
ÇĴ ng
ÃŃ n
t Äģ
r Ã¬
zh Ä«
hÃ ²u
Çİ i
g Ã¨
zhÃ ł
Ã© ng
l e
w Ã©i
hu Ã¬
d Ãło
1 9
b i
shÃ ł
q Ä«
q ÃŃ
shÃ ¨
s u
zhÃ¨ ng
m ÃŃng
ji Ãłn
xu Ã©
ch Å«
y Ã¹
ÄĽ ng
z uÃ²
sh Äĵng
du Ã¬
y Ã³u
q Å«
shÃł ng
ÄĽ n
d Ã©
l Ã¹
b Ã¨i
chÃ ¡
t i
sh ÇĲ
zhÃł n
zh ÇĶ
Äĵ i
q u
j Ã¹
xÄ« n
j Å«n
zh u
ÄĽ r
Ã¡ o
shÃ ¹
u Ã¬
r Ã¨n
f Äģ
w Ã¹
b Ã¬ng
k Ã¨
Ã© r
d Ãłi
y ÃŃ
jÃ¬ n
z Ã¬
yÄ« n
f Ã¹
f Äģng
jÄ« ng
n Ã¡n
hu Ãł
x Ã¬
zh Åįu
p ÃŃng
Ã² u
xi Ãł
l Ã¡i
y Ã²ng
sh u
gu Äģn
t Ã³ng
ãĢ ĭ
ãĢ Ĭ
f Çİ
zhÃ ¹
m ÄĽi
hÃ ¡
Â ·
ji Äģn
j ÇĲ
hu Ã²
d Ã¹
c hu
b ÄĽn
xi Äģng
zhÃ Ń
d Ã²ng
xi Ãłng
m ÃŃn
ji Äģng
f Äĵn
sh ÇĴu
qu Ã¡n
w Ã©n
y Ã¡n
hÃ ł
su ÇĴ
ji Ãło
q iÃ¡n
d iÃłn
t Ã¨
d i
du Åį
Ãº n
z uÃ¬
k Äģi
t u
ji Ã©
l iÃ¡n
zh ÇĲ
k ÄĽ
d Ãłn
m Ã¹
y Ã¨
f Ãº
m Çİ
y ÄĽ
d Åįng
qi Ãº
b ÄĽi
ãĢ Į
ãĢ į
g Äģo
y Ãł
q ÇĲ
ji Äĵ
m iÃłn
h Çİi
zh Çİng
sh Ä«
jÄ« n
c ÇĲ
l u
n Ã¨i
t ÇĲ
s Ãłi
s Äģn
t Ã¡i
g Ã©
x Ã¬ng
gu Ã²
r Ã¹
20 1
d ÄĽng
y Ãło
j u
ch Äĵ
c Ã¬
w ÇĶ
g Äģi
d Ã¬ng
chÃ¡ ng
bi Çİo
l Äģ
g Ã²ng
ji Ã¨
shÃ ²u
d Çİo
sh Äģn
ch Çİng
s Ã¬
b ÇĲ
z Ã©
t ÃŃ
k Äĵ
d Äģng
n Ã©ng
Ã¨ r
w Ãłi
d Äģn
x Ã¹
z i
k ÇĴu
xi Çİo
z ÇĶ
b Äģ
ju Ã©
l ÃŃn
li Ãº
sh ÄĽng
yÄ« ng
k u
l Ã¡n
lu Ã³
t Åįng
20 0
Ä« ng
² ng
m ÇĲ
zhÃ ²ng
e n
zh ÄĽ
sh ÇĶ
ti Äģn
zhÃ¨ n
Ç ļ
q Ã¬
zh ÇĴng
li Ã¨
ch Äĵng
sh Å«
yu Ãłn
b Çİo
t Ãłi
f ÇĶ
f Äĵng
g ÇĶ
qÄ« ng
sh Äĵn
w Ã¡ng
yÃ¹ n
gu Çİn
f Äĵi
ji Ã¹
li Çİng
c Ã©ng
m Ã©i
1 0
f Ã¨n
hÃł o
³ ng
y Çİn
w ÄĽi
z ÇĴng
xu Çİn
xi Ãło
d Ã¡
n Ãł
li Ãłng
b Åį
z Ãº
j Ã¬ng
b Ãło
n ÃŃ
w Ãº
t ÇĴng
hu Ã¡
ji Äģo
yu Äĵ
yÇĲ ng
b iÃłn
xÄ« ng
s Ã¹
shu ÇĲ
y Ã¡ng
hÃ ¹
m en
b Äģo
g Äĵ
b Ã³
c Äģn
c Ã³ng
di Çİn
b Ã¬
r Ãº
b Ãłn
bi Äģn
w Çİng
q ÇĶ
m i
ch Çİn
s Ã¨
z Ä«
chu Ã¡n
0 0
shÃ¨ ng
r Ã¡n
t Ãº
zh Äģng
p ÇĶ
g Çİi
g Çİng
n Çļ
l Ã¬ng
l uÃ²
y Ã²u
t Ã³u
c Ã¨
l Ç
chÃ Ń
1 8
lÇ ľ
qi Äģn
shÃ ©
l ÃŃ
d Åįu
p ÇĲ
1 2
zh Äĵng
n i
k uÃ²
sh Äģ
d Çİng
f Çİn
g Ã²u
l Ã¨i
x ÃŃ
jÇĲ ng
tu Ã¡n
w Äĵi
xi Äĵ
lÇĲ ng
l Ã³ng
gu Ä«
xi Äģn
r Ã³ng
hu Ã¡ng
xi Çİng
b Äģn
ji ÇĶ
y Ã¬ng
m Ã©n
sh Äģng
shÃ© n
20 2
b Çİn
k Çİ
m ÇĶ
jÇĲ n
f Å«
j ÇĶ
m Ã³
gu Çİng
c ÃŃ
shu Åį
q ÃŃng
zh Çİn
hÃ¡ i
zhu Äģng
m Ã²
c Ã¡i
d Ãº
1 1
pÇĲ n
t ÃŃng
chÃ¡ o
y ÃŃng
ti Ã¡o
ji Çİn
t Ã¡ng
hu ÃŃ
du Ãłn
chÃ© n
g Äĵn
m Ã¬
w Ãłn
p Ã¡i
w Äģn
z Ãło
hÃ¡ ng
w Ã¡n
bi Äģo
g Ã¹
l Ãºn
19 9
xi Ã©
ji Çİng
hÃł n
j Ãº
f Ãłn
f Ã¡ng
hu Ã³
hÃ¡ n
p i
k Åįng
o r
ti ÄĽ
m Ã©ng
bi Ã©
w Å«
ji ÄĽ
zhu Äģn
yÇĲ n
x Å«
zh Äĵn
d ÇĲ
e r
chÃ º
hÃ º
ji Ãł
b Ä«ng
m Ã¬ng
l ÃŃng
hÃ ³ng
qÄ« n
z ÇĲ
lÃ¹ n
xÃ¬ n
chÃ ¹
ch ÇĶ
s Å«
a n
xi Å«
z Åįng
1 5
qu Ã¨
xi Äģo
zhÃł o
qi Ã¡ng
q Ã¹
c Å«n
chÃ ³ng
p iÃłn
ji Å«
f Ãłng
su ÃŃ
sh Åįu
gÃ¨ ng
â Ģ
gu Äģng
Ã¨ ng
j Å«
o n
ji Çİ
chu Ãłng
d ÃŃ
1 6
zhu Çİn
gu ÇĴ
xÃ¹ n
m Ãłn
p Ãłi
f Ã¨i
p Ã¨i
19 8
d Çİ
tu Åį
l a
xu Äģn
b Ã¡i
zh Å«
d Å«
t ÇĶ
di Ãło
xi Ã¡
li Ã¹
1 7
su Ã¬
hu Ä«
t Ä«ng
qi ÄĽ
t Çİ
qi Ã¡o
h Äģ
g Çİn
z Äĵng
xi Çİn
m Ãłi
hu Ã¡n
x ÇĶ
w Çİ
tu Ä«
w Ã¨n
ch Äģo
t iÃ¡n
b Çİi
c Çİi
li Ã¡ng
y Ã¡
s Ãł
a r
b Ãłi
c Ãºn
ji Çİo
sh Çİo
y Ãłn
zhu Ãłng
hu ÇĴ
l Ã©i
1 4
z u
ji Ãłng
chu Äģn
yÃ¬ n
z Çİo
chÃ ł
y ÇĴng
s ÇĲ
d Äĵng
3 0
zhÇĶ n
l Ã¨
x Ãºn
n uÃ²
k Ã¹
hu Ãłn
s Ã²ng
g Ãło
l ÇĶ
1 3
19 4
b Äģng
l Çļ
p Ä«
y Ãłng
h ÄĽn
q Ãºn
zh ÄĽng
gu Ãłn
p Ã²
g Äģng
w ÇĴ
19 7
hu Äģ
l Äĵi
h Çİo
t Ã¡o
ku Ãłng
hÃ ¨
i n
dÃ¹ n
n Ã³ng
g ÄĽi
s Äģi
shu Äģng
li Ãłn
ku Ãłi
d Ä«
b Ä«
p Ãłn
xi ÄĽ
19 5
k Çİo
g Ãłi
h Äĵi
w Ãłng
li Ãło
r Ã¨
g e
zu ÇĴ
k Ã²ng
19 6
y Äģng
chÃł ng
y ÃŃn
³ u
r Ã©ng
s Äĵn
b Äĵi
l Ãº
pi Ãło
y Äģ
2 5
bÄ« n
âĢ Ķ
r Ãłng
ch Åįng
l Ã³u
b ÇĶ
l Çİo
zhÃ º
jÃ¹ n
y Çİng
r uÃ¬
y Äģo
xi Ã¡n
xi Ã¨
n iÃłn
f or
y Åįu
t Ã¡n
k Äģng
p ÃŃ
hÃ© ng
yÃº n
x ÇĲ
k Ãłn
n ÃŃng
li Ã¡o
shÃł o
b Ãº
2 4
qÇĲ ng
ch ÇĲ
m u
d Ã²u
mi Çİn
y Åįng
t Çİn
w Çİn
h Å«
f Äģn
a l
t Å«
g Äģn
su Ãłn
d Ä«ng
yu Çİn
w Äĵn
t uÃ¬
zh e
2 1
s t
xi Ã¹
b Çİ
m Çİn
19 3
2 3
mu la
k Ãłng
for mula
2 8
t h
m Ã¡o
r uÃ²
pi Äģn
chÃ ¨
m Ãło
l Çİng
q ÃŃn
b Ã¡
n Ã¡
z Ãłn
gu ÇĲ
gu Ã¬
o u
p ÃŃn
w Ã²
xi Ã³ng
shÃł n
r e
2 2
xi Åįng
m e
su Ä«
Ã ¼
2 6
sh ÄĽn
q Ã¬ng
mi Ã¡o
f Çİng
5 0
20 20
2 7
l Ã¡ng
r u
qi Å«
s Åįng
Ã¼ Ã¨
d Ãłng
g Äĵng
qi Äģng
r i
f Ã¡
z Äģo
f Ã¨ng
zhÃł ng
ï ¼
hÃ¡ o
d Å«n
z ÇĴu
hÃł i
qi Ã¨
2 9
t Ãłn
p Ãło
p Ãł
shÃ¹ n
p Ã©ng
xu Ã¡n
201 0
n ÇĲ
00 0
dÇĲ ng
ni ÇĶ
z Çİi
zh Äģo
zhu Ä«
l Ã¼Ã¨
ch Å«n
20 19
h Å«n
k ÇĴng
du Äģn
shÃ¨ n
xi Ã¡ng
du Çİn
g Ãłn
t e
r o
de Ġ
Ġ deĠ
shÃ¬ Ġ
Ġ shÃ¬Ġ
Ġ niÃ¡n
ĠniÃ¡n Ġ
wÃ¨i Ġ
zÃłi Ġ
Ġ wÃ¨iĠ
Ġ zÃłiĠ
hÃ© Ġ
Ġ hÃ©Ġ
zhÅįng Ġ
bÃ¹ Ġ
dÃ¬ Ġ
shÃŃ Ġ
guÃ³ Ġ
yÃº Ġ
rÃ©n Ġ
Ġ bÃ¹Ġ
yÄ« Ġ
Ġ zhÅįngĠ
lÃ¬ Ġ
zhÃ¬ Ġ
gÅįng Ġ
Ġ shÃŃĠ
yuÃ¨ Ġ
jÃŃ Ġ
chÃ©ng Ġ
yÃ¬ Ġ
yÇĴu Ġ
Ġ dÃ¬Ġ
Ġ yuÃ¨Ġ
Ġ yÃºĠ
Ġ rÃ©nĠ
Ġ zhÃ¬Ġ
dÃł Ġ
Ġ jÃŃĠ
yuÃ¡n Ġ
Ġ yÇĴuĠ
jÃ¬ Ġ
Ġ guÃ³Ġ
Ġ lÃ¬Ġ
Ġ gÅįngĠ
Ġ yÃ¬Ġ
Ġ yÇĲ
Ġ chÃ©ngĠ
jiÄģ Ġ
sÄ« Ġ
yÇĶ Ġ
Ġ xiÃłn
Ġ rÃ¬
Ġ yÄ«Ġ
Ġ xÃŃng
Ġ tÄģ
lÇĲ Ġ
jÄ« Ġ
Ġ dÃło
hÃ²u Ġ
wÃ©i Ġ
Ġ zhÄ«
Ġ dÃłĠ
Ġ yuÃ¡nĠ
xÄ« Ġ
ĠrÃ¬ Ġ
Ġ gÃ¨
ĠyÇĲ Ġ
xuÃ© Ġ
huÃ¬ Ġ
le Ġ
zuÃ² Ġ
Ġ yÇĶĠ
ĠdÃło Ġ
mÃŃng Ġ
Ġ jÃ¬Ġ
bÃ¨i Ġ
ĠxÃŃng Ġ
shÄĵng Ġ
Ġ jiÃłn
Ġ chÅ«
Ġ qÃŃ
Ġ sÄ«Ġ
Ġ dÃ©
zhÃ¨ng Ġ
ĠxiÃłn Ġ
Ġ hÃ²uĠ
Ġ jÄ«Ġ
duÃ¬ Ġ
shÃłng Ġ
qÅ« Ġ
shÇĲ Ġ
Ġ ÄĽr
Ġ jiÄģĠ
yÃ³u Ġ
ĠtÄģ Ġ
Ġ xÄ«Ġ
Ġ lÇĲĠ
Ġ Ã©r
zhÃłn Ġ
Ġ jÅ«n
Ġ bÃ¬ng
ĠzhÄ« Ġ
ĠgÃ¨ Ġ
zhÇĶ Ġ
rÃ¨n Ġ
fÃ¹ Ġ
zÃ¬ Ġ
wÃ¹ Ġ
xÄ«n Ġ
dÃłi Ġ
Äģn Ġ
jÃ¹ Ġ
pÃŃng Ġ
ĠchÅ« Ġ
Ġ kÃ¨
Ġ zhÅįu
xiÄģng Ġ
shÃ¹ Ġ
Ġ huÃ¬Ġ
nÃ¡n Ġ
Ġ shÃ¨
Ġ bÃ¨iĠ
Ġ mÃŃngĠ
xiÃł Ġ
guÄģn Ġ
ĠÄĽr Ġ
ĠdÃ© Ġ
lÃ¹ Ġ
yÃ¹ Ġ
huÃł Ġ
ĠjiÃłn Ġ
jÄ«ng Ġ
yÃ¡n Ġ
fÄģng Ġ
Ġ yÄ«n
kÄģi Ġ
jiÄģn Ġ
jiÃło Ġ
fÄģ Ġ
yÃ²ng Ġ
Ġ dÃłn
ĠÃ©r Ġ
zhÃ¹ Ġ
lÃ¡i Ġ
mÃŃn Ġ
shÇĴu Ġ
zhÃ¨ Ġ
xiÃłng Ġ
wÃ©n Ġ
ĠjÅ«n Ġ
xÃ¬ Ġ
qiÃ¡n Ġ
bÄĽn Ġ
tÃ¨ Ġ
Ġ wÃ©iĠ
zhÃŃ Ġ
fÇİ Ġ
qÄ« Ġ
jiÃ© Ġ
liÃ¡n Ġ
ĠbÃ¬ng Ġ
dÃ²ng Ġ
diÃłn Ġ
ĠqÃŃ Ġ
ĠkÃ¨ Ġ
dÅįng Ġ
mÃ¹ Ġ
Ġ jÃ¬n
Ġ duÃ¬Ġ
Ġ huÃ²
fÄĵn Ġ
tÃ¡i Ġ
Ġ zhÃłnĠ
zhÇİng Ġ
dÃ¹ Ġ
jiÄģng Ġ
Ġ qiÃº
gÄģo Ġ
yÃ¨ Ġ
bÄĽi Ġ
suÇĴ Ġ
shÄ« Ġ
ĠzhÅįu Ġ
Ġ pÃŃngĠ
Ġ leĠ
duÅį Ġ
jiÄĵ Ġ
gÃ© Ġ
Äģ Ġ
Ġ shÃłngĠ
jÄ«n Ġ
fÃº Ġ
Ġ zhÃ¨ngĠ
Ġ zuÃ²Ġ
Ġ yÃ³uĠ
kÇĴu Ġ
guÃ² Ġ
zhÇĲ Ġ
hÇİi Ġ
Ġ tÃ³ng
Ġ fÃ¹Ġ
Ġ rÃ¨nĠ
mÇİ Ġ
rÃ¹ Ġ
tÅįng Ġ
zuÃ¬ Ġ
Ãłn Ġ
quÃ¡n Ġ
cÇĲ Ġ
xÃ¬ng Ġ
Ġ xuÃ©Ġ
Ġ shÄĵngĠ
wÃłi Ġ
nÃ¨i Ġ
lÄģ Ġ
tÇĲ Ġ
juÃ© Ġ
kÄĽ Ġ
qÇĲ Ġ
shÄģn Ġ
tiÄģn Ġ
dÄĽng Ġ
chÇİng Ġ
zhÃ¨n Ġ
wÇĶ Ġ
chÃ¡ng Ġ
zi Ġ
yÃło Ġ
bÇĲ Ġ
Çİn Ġ
bÇİo Ġ
gÄģi Ġ
Ãło Ġ
mÇĲ Ġ
yÃł Ġ
miÃłn Ġ
cÃ¬ Ġ
ĠyÄ«n Ġ
n Ġ
shÃ²u Ġ
yÄĽ Ġ
jiÃ¨ Ġ
zhÃ²ng Ġ
yÃŃ Ġ
ĠshÃ¨ Ġ
fÄĵng Ġ
zhÇĴng Ġ
Ġ jÃ¹Ġ
liÃº Ġ
chÄĵ Ġ
yÃ¹n Ġ
Ġ zhÃ¨Ġ
lÃŃn Ġ
bÄģo Ġ
Ġ c
sÃłi Ġ
yÃŃ ĠgÃ¨Ġ
dÃ¬ng Ġ
shÄĵn Ġ
shÄĽng Ġ
luÃ³ Ġ
Ġ dÃłiĠ
ĠdÃłn Ġ
qÃ¬ Ġ
sÄģn Ġ
mÄĽi ĠguÃ³Ġ
nÃ©ng Ġ
xiÇİo Ġ
zÃ© Ġ
zhÄĽ Ġ
liÃ¨ Ġ
shÅ« Ġ
xuÇİn Ġ
sÃ¬ Ġ
qÄ«ng Ġ
ĠqiÃº Ġ
yuÃłn Ġ
jÃ¬ng Ġ
bÄģ Ġ
Ãłi Ġ
kÄĵ Ġ
wÃ¡ng Ġ
tÃłi Ġ
lÃ¡n Ġ
bÃło Ġ
Çİo Ġ
yÇĲng Ġ
zÇĴng Ġ
bÃ¬ Ġ
fÇĶ Ġ
ĠhuÃ² Ġ
dÇİo Ġ
gÇĶ Ġ
1 ĠniÃ¡nĠ
yÄ«ng Ġ
Ġ xÄ«nĠ
fÃ¨n Ġ
gÄĵ Ġ
5 ĠniÃ¡nĠ
1 Ġ
nÃŃ Ġ
xiÃło Ġ
Ġ xiÃłĠ
yuÄĵ Ġ
jiÄģo Ġ
2 ĠniÃ¡nĠ
Ã¨r Ġ
Ġ zÃ¬Ġ
4 ĠniÃ¡nĠ
zÄ« Ġ
shuÇĲ Ġ
hÃło Ġ
pÇĶ Ġ
8 ĠniÃ¡nĠ
dÄģn Ġ
nÃł Ġ
3 ĠniÃ¡nĠ
Ã© Ġ
biÇİo Ġ
liÃłng Ġ
Ġ mÇĲĠ
tÃ³u Ġ
chÄĵng Ġ
guÇİn Ġ
chuÃ¡n Ġ
sÃ¹ Ġ
wÃº Ġ
Ġ m
6 ĠniÃ¡nĠ
xÄ«ng Ġ
nÇļ Ġ
bÅį Ġ
rÃº Ġ
bÃ³ Ġ
yÇİn Ġ
tÃŃ Ġ
2 Ġ
fÄĵi Ġ
sÃ¨ Ġ
ĠzhÅįngĠ guÃ³Ġ
mÄĽi Ġ
dÃ¡ Ġ
ĠjÃ¬n Ġ
Ġ dÄģng
ĠwÃ¨iĠ yÃºĠ
Ġ zhÃ¹Ġ
cÃ©ng Ġ
chÇİn Ġ
7 ĠniÃ¡nĠ
wÇİng Ġ
biÃłn Ġ
tÃº Ġ
guÄ« Ġ
Ġ p
Ġ xiÄģngĠ
Ġ rÃ¡n
biÄģn Ġ
zhÄģng Ġ
yÃ¡ng Ġ
diÇİn Ġ
Ġ yÃ¹Ġ
gÇİi Ġ
cÃ³ng Ġ
huÃ¡ Ġ
jiÃ¹ Ġ
shÄģ Ġ
zÇĶ Ġ
shÃ¨ng Ġ
bÄģoĠ kuÃ²
jiÇİn Ġ
gÇİng Ġ
shÇĶ Ġ
lÇľ Ġ
zÃº Ġ
bÃłn Ġ
qÃŃng Ġ
jÇĲng Ġ
liÇİng Ġ
tÇĴng Ġ
gÃ²ng Ġ
Ġ bÄĽnĠ
shÄģng Ġ
hÃ¹ Ġ
lÃŃ Ġ
jÃ¬n Ġ
Ġ lÃ¹Ġ
tÃ³ng Ġ
luÃ² Ġ
0 ĠniÃ¡nĠ
xÃ¹ Ġ
chÃŃ Ġ
9 ĠniÃ¡nĠ
Ġ nÃ¡nĠ
5 Ġ
mÃ©i Ġ
bÄģn Ġ
guÇİng Ġ
3 Ġ
lÃ³ng Ġ
cÃ¨ Ġ
jÇĲn Ġ
chÅ« Ġ
shÃ©n Ġ
zhÄĵng Ġ
ĠtÄģĠ men
zhÄ« Ġ
lÇĲng Ġ
mÃ¬ Ġ
wÄĵi Ġ
yÃ²u Ġ
fÇİn Ġ
Ġ gÄģiĠ
tÃŃng Ġ
xÃŃ Ġ
chÃ¡ Ġ
kÇİ Ġ
huÃ³ Ġ
Ġ t
cÃ¡i Ġ
xiÇİng Ġ
shuÅį Ġ
mÃ©n Ġ
Äģi Ġ
cÃŃ Ġ
qÇĶ Ġ
jiÇİng Ġ
wÄĽi Ġ
mÇĶ Ġ
tuÃ¡n Ġ
lÃ¨i Ġ
t Ġ
Ã¨ Ġ
ĠgÅįngĠ lÇĲĠ
chÃ¡o Ġ
yÃ¡nĠ jiÅ«
jiÃłn Ġ
Ġ 200
Ġ l
yÃ¬ng Ġ
tÃ¡ng Ġ
pÇĲn Ġ
qÃŃ Ġ
xiÄĵ Ġ
chÃ©n Ġ
ĠyÇĲ ĠjÃŃĠ
jiÃł Ġ
yÇĲn Ġ
4 Ġ
Ġ duÅįĠ
shÇĲĠ yÃ²ngĠ
hÃ¡ng Ġ
Ġ zhÇĶĠ
Ġ s
rÃ³ng Ġ
pÃ¡i Ġ
jiÇĶ Ġ
yÇĲ Ġ
fÅ« Ġ
gÃ²u Ġ
lÃºn Ġ
Ġ yÃ³u
tÃ¡iĠ wÄģn
lÃ¬ng Ġ
ĠdeĠ dÃ¬Ġ
Äģng Ġ
dÇİng Ġ
kÄĽ ĠyÇĲĠ
huÃ¡ng Ġ
duÃłn Ġ
xÅ« Ġ
kÃ¨ Ġ
0 Ġ
xiÄģn Ġ
biÄģo Ġ
e ĠĠĠ
tiÃ¡o Ġ
ĠdeĠ yÄ«Ġ
kÄģiĠ shÇĲĠ
yÃŃng Ġ
xiÃłn Ġ
bÇİn Ġ
qiÄģn Ġ
ĠchÃ©ngĠ wÃ©iĠ
mÃ©i ĠyÇĴuĠ
Ġ 201
mÃ³ Ġ
hÃłn Ġ
Åįu Ġ
hÃ³ng Ġ
wÄĽi ĠyuÃ¡nĠ
xiÄģo Ġ
6 Ġ
lÃŃng Ġ
sÅ« Ġ
kÅįng Ġ
jÃº Ġ
ĠtÃ³ng Ġ
huÃŃ Ġ
mÃ©ng Ġ
yÄ«n Ġ
s Ġ
zhuÄģng Ġ
xÃŃng Ġ
cÅ«n Ġ
fÃ¡ng Ġ
rÃ©nĠ kÇĴuĠ
jiÄĽ Ġ
ĠqÃŃ ĠzhÅįngĠ
huÃ² Ġ
bÄģoĠkuÃ² Ġ
zhÇİn Ġ
ĠgÅįngĠ sÄ«Ġ
cÄģn Ġ
Ã¡ng Ġ
Äģo Ġ
ĠdeĠ shÃ¬Ġ
ĠĠĠ zÃłiĠ
dÅįu Ġ
Ãº Ġ
qiÃ¡ng Ġ
Ã³ Ġ
zhÃło Ġ
zhÃ¨ng ĠzhÃ¬Ġ
yÃŃ ĠgÃ¨
dÃº Ġ
Ã¡o Ġ
cÇİi Ġ
ĠĠĠ 201
fÇİ ĠguÃ³Ġ
bÄ«ng Ġ
mÃ² Ġ
ĠdÃłĠ xuÃ©Ġ
ĠshÃ¬Ġ yÄ«Ġ
xÃ¬n Ġ
ĠtÄģ ĠdeĠ
Å«n Ġ
qÄ«n Ġ
hÃ¡i Ġ
lÃ¹n Ġ
zÇĲ Ġ
chÃ¹ Ġ
zhÄĵn Ġ
wÃłn Ġ
wÃ¨n Ġ
Ġ gÄģoĠ
mÃłn Ġ
shÃ¨ Ġ
fÃłn Ġ
guÄģng Ġ
biÇİo ĠshÃ¬Ġ
jÅ« Ġ
xÃ¹n Ġ
zhÅįng ĠdeĠ
Åį Ġ
zhuÄģn Ġ
quÃ¨ Ġ
wÃ¡n Ġ
diÃło Ġ
zÅįng Ġ
zhuÇİn Ġ
diÃłn ĠshÃ¬Ġ
bÃ¡i Ġ
dÇİ Ġ
hÃº Ġ
ĠshÃ¬Ġ wÃ¨iĠ
yÃ¬n Ġ
fÃ¨i Ġ
shÃ¬ ĠdeĠ
mÃ¬ng Ġ
jÇĶ Ġ
8 Ġ
piÃłn Ġ
hÃ¡n Ġ
tuÅį Ġ
ÄĽn Ġ
Ãł Ġ
7 Ġ
gÃ¹ Ġ
zÃło Ġ
dÄģng Ġ
xiÅ« Ġ
s ĠĠĠ
ĠbÃ¹Ġ fÃ¨nĠ
ĠrÃ©nĠ kÇĴuĠ
guÇĴ Ġ
xiÃ© Ġ
tÄģ Ġ
ĠhÃ©Ġ guÃ³Ġ
zhÅįngĠ guÃ³Ġ
10 ĠyuÃ¨Ġ
Ġ ã
12 ĠyuÃ¨Ġ
7 ĠyuÃ¨Ġ
Äĵ Ġ
Ġ dÅįngĠ
9 ĠyuÃ¨Ġ
Ġ mÃ¹Ġ
wÅ« Ġ
miÃłn ĠjÄ«Ġ
ĠrÃ©nĠ mÃŃnĠ
8 ĠyuÃ¨Ġ
xÃºn Ġ
Ġ zuÃ¬
ĠdÃ¬Ġ qÅ«Ġ
huÃ¡n Ġ
Ã²u Ġ
dÃŃ Ġ
3 ĠyuÃ¨Ġ
zhÅ« Ġ
jiÇİ Ġ
1 ĠyuÃ¨Ġ
Ġ 19
dÅ« Ġ
xiÃ¡ Ġ
Ġ jÄ«nĠ
tÄ«ng Ġ
e Ġ
Ġ yÄĽĠ
5 ĠyuÃ¨Ġ
zhÅįu Ġ
dÇĲ Ġ
dÃło Ġ
yÄ«ng ĠguÃ³Ġ
ÇĴu Ġ
zhuÃłng Ġ
Ġ cÇĲĠ
Çİng Ġ
zhÃ¨ng ĠshÃ¬Ġ
Ġ jiÄģngĠ
6 ĠyuÃ¨Ġ
huÇĴ Ġ
chÃ³ng Ġ
yÃ¡nĠjiÅ« Ġ
shÅįu Ġ
gÃ¨ng Ġ
jÅ«n Ġ
chÃ©ng ĠshÃ¬Ġ
4 ĠyuÃ¨Ġ
ĠguÃ³Ġ jiÄģĠ
tiÃ¡n Ġ
fÃłng Ġ
yÇĴng Ġ
ĠĠĠ dÃ¬Ġ
biÃ© Ġ
shÇĶ ĠyÃºĠ
ĠpÃŃngĠ fÄģng
jÇĲ Ġ
gÇİn Ġ
Ġ tÃ¨Ġ
ĠdÃ¬Ġ yÄ«Ġ
qÃºn Ġ
pÃ² Ġ
qÃ¹ Ġ
jiÃłng Ġ
a Ġ
ÇĶ Ġ
gÄĵn Ġ
11 ĠyuÃ¨Ġ
ng Ġ
nÃ³ng Ġ
ĠshÃ¬Ġ jÃ¬Ġ
ĠpÃŃngĠfÄģng ĠgÅįngĠlÇĲĠ
shuÄģng Ġ
ĠtÃ³ng ĠshÃŃĠ
tiÄĽ Ġ
dÄģn ĠrÃ¨nĠ
huÄ« Ġ
Ã¡n Ġ
pÃłi Ġ
liÃ¡ng Ġ
Ġ C
shÇİo Ġ
tÃ¡o Ġ
jiÇİo Ġ
tÇİ Ġ
ÄĽr Ġ
bÇİi Ġ
Ġ rÃºĠ
9 Ġ
Ãłng Ġ
Å« Ġ
Ġ yÄĽ
diÃłnĠ yÇĲngĠ
ÃŃ Ġ
tÃ¡iĠwÄģn Ġ
sÇĲ Ġ
Ä« Ġ
chÇĶ Ġ
qiÃ¡o Ġ
Äĵn Ġ
Ġ g
ĠdeĠ shÃŃĠ
gÃło Ġ
chÃº Ġ
Ġ S
Ġ zhÃ¨
Ġ k
yÃŃn Ġ
gÄĵn ĠjÃ¹Ġ
pÃłn Ġ
lÃ¬Ġ shÇĲĠ
Ġ fÄĵnĠ
chÄģo Ġ
bÃłi Ġ
Ġ 18
yÃłn Ġ
ĠĠĠ S
ĠshÃ¬Ġ zhÃ¨nĠ
cÄģn ĠjiÄģĠ
yÃ¹nĠ dÃ²ng
gÄģng Ġ
chÄĵ ĠzhÃłnĠ
guÃ³ ĠdeĠ
qÄ«Ġ jiÄģnĠ
zhÃ¨ngĠ fÇĶĠ
ĠyÄ«n ĠwÃ¨iĠ
ĠrÃ¬Ġ bÄĽnĠ
ĠpÃŃngĠ fÄģngĠ
lÃ¬ ĠdeĠ
gÃłi Ġ
hÄĵi Ġ
ĠniÃ¡n ĠdeĠ
bÃ¬ng Ġ
chuÄģn Ġ
sÃ²ng Ġ
huÃłn Ġ
wÇĴ Ġ
wÇİ Ġ
zhÇĶn Ġ
gÃ²ng ĠhÃ©ĠguÃ³Ġ
yÃ¡ Ġ
ĠxiÃłn ĠdeĠ
lÃ©i Ġ
fÄģ ĠxiÃłnĠ
hÄģ Ġ
formula Ġ
Çİi Ġ
qÅ« ĠdeĠ
tÃŃ ĠgÅįngĠ
i Ġ
jÃ¬n ĠxÃŃngĠ
qiÄĽ Ġ
hÄĽn Ġ
2 ĠyuÃ¨Ġ
huÄģ Ġ
tÅįngĠ guÃ²Ġ
suÃŃ Ġ
jÄ«ng ĠjÃ¬Ġ
ĠĠĠ 200
chuÃłng Ġ
lÄĵi Ġ
dÄĵng Ġ
ĠzhÅįngĠ yÄģng
kÇİo Ġ
ĠtÄģĠmen Ġ
ĠguÃ³Ġ jÃ¬Ġ
shÃłng ĠdeĠ
Ġ 199
Ġ A
wÄĽiĠyuÃ¡nĠ huÃ¬Ġ
ĠyÃ³u ĠyÃºĠ
Ġ bÄĽiĠ
liÃłn Ġ
nuÃ² Ġ
ĠshÃ¬Ġ jiÃ¨Ġ
chÄĵng ĠwÃ©iĠ
Ġ jÄ«ngĠ
ĠyÄ«nĠ cÇĲĠ
Ġ qiÃ¡nĠ
Ġ tiÄģnĠ
kuÃłi Ġ
d ĠĠĠ
mÃŃng ĠwÃ¨iĠ
zuÇĴ Ġ
ĠshÃ¬Ġ zÃłiĠ
ĠjÃ¬n ĠxÃŃngĠ
zhÇĶ ĠyÃ¬Ġ
chÅįng Ġ
xiÄģngĠ gÇİngĠ
tÇĶ Ġ
sÃł Ġ
ĠzhÄ« ĠhÃ²uĠ
piÃło Ġ
Ġ hÇİiĠ
1 ĠrÃ¬Ġ
ĠrÃ¡n Ġ
shÃŃ ĠdeĠ
Ġ 3
mÃłi Ġ
xÃ¬Ġ tÇĴngĠ
ĠĠĠ 202
liÃło Ġ
dÃ© Ġ
lÇĶ Ġ
00 Ġ
quÃ¡n ĠguÃ³Ġ
lÃº Ġ
xuÄģn Ġ
qiÃº Ġ
ĠxÃŃng ĠdeĠ
rÃ©n ĠdeĠ
kuÃłng Ġ
suÇĴ ĠyÇĴuĠ
hÃ©ng Ġ
rÃ¬ Ġ
xÇĶ Ġ
Ġ mÇİĠ
men Ġ
pÃ¨i Ġ
guÇİn ĠlÇĲĠ
ĠgÅįngĠ zuÃ²Ġ
ĠzhÄ« ĠyÄ«Ġ
Ġ jiÃ©Ġ
Ġ M
sÄĵn Ġ
suÃ¬ Ġ
yÃłng Ġ
dÃł ĠdeĠ
zÄĵng Ġ
tuÄ« Ġ
bÇĶ Ġ
liÃ¹ Ġ
ĠdÄģng Ġ
ĠzhÅįngĠ xÄ«nĠ
xuÄģn ĠbÃ¹Ġ
zÇİo Ġ
pÄ« Ġ
wÃłng Ġ
chÇĲ Ġ
dÄ« Ġ
chÃłng Ġ
zÇĶ ĠzhÄ«Ġ
Ġ h
bÃ¹ ĠdeĠ
Ġ 4
ĠĠĠ C
hÃ¨ Ġ
Ġ zuÃ¬Ġ
yÇİng Ġ
yÇĲngĠ xiÇİngĠ
ĠtÄģ ĠzÃłiĠ
Ã©r Ġ
qiÄģn ĠmÇĲĠ
sÄģi Ġ
ĠĠĠ shÄĵngĠ
dÃ¹n Ġ
ĠhuÃ² ĠdÃ©Ġ
2020 ĠniÃ¡nĠ
luÃ³ ĠsÄ«Ġ
Ġ n
Ġ bÄģoĠkuÃ²Ġ
chÃ©ng ĠdeĠ
uÃ² Ġ
xiÃ¡n Ġ
ĠshÃ¬Ġ jiÃ¨
kÄĽĠ nÃ©ng
niÃłn Ġ
Ġ shÇĲĠ
C Ġ
qÃŃ ĠtÄģĠ
yÅįu Ġ
Ġ ÄģĠ
Ã¨ng Ġ
Ġ zh
Ġ f
ĠchÃ©ngĠ lÃ¬Ġ
le ĠyÄ«Ġ
bÄģng Ġ
huÃ³Ġ dÃ²ngĠ
bÄĵi Ġ
t ĠĠĠ
lÃ¨ Ġ
Ġ 198
ĠrÃ¨nĠ wÃ©iĠ
pÃŃ Ġ
lÇİo Ġ
hÇİo Ġ
wÃ©nĠ huÃłĠ
jÃ¹n Ġ
Ġ gÄģi
yÄģ Ġ
³u Ġ
fÄģĠ zhÇİnĠ
kÄĵ ĠxuÃ©Ġ
liÃ¡o Ġ
huÃ² ĠdÃ©Ġ
Ġ dÄĽngĠ
gÃ¨ Ġ
ĠpÃŃngĠfÄģngĠ qiÄģnĠmÇĲĠ
ĠzuÃ²Ġ wÃ©iĠ
kÃ¹ Ġ
huÃ¡ ĠrÃ©nĠmÃŃnĠ
tÃ¡n Ġ
rÃ¬ ĠbÄĽnĠ
Ġ shÇĴuĠ
Ġ T
huÃ¬ ĠyÃ¬Ġ
Ã©i Ġ
Ã¬ Ġ
jiÄģn ĠdeĠ
tiÄĽ ĠlÃ¹Ġ
miÇİn Ġ
nÃŃng Ġ
ĠdeĠ rÃ©nĠ
bÇĲĠ sÃłiĠ
ruÃ¬ Ġ
lÃ³u Ġ
yÃ²ng ĠyÃºĠ
zhÄĽng Ġ
Ġ 202
ĠshÃŃĠ jiÄģnĠ
2010 ĠniÃ¡nĠ
rÃ¡n Ġ
ĠdeĠ gÅįngĠ
xiÇİn Ġ
a ĠĠĠ
miÃ¡o Ġ
rÃ¨ Ġ
Ġ I
z Ã¡
A Ġ
miÃłnĠ jÄ«
y Çİ
mÃŃn ĠguÃ³Ġ
zhÇĶĠ yÃłoĠ
wÅ« ĠkÃ¨Ġ
ge Ġ
Ġ B
yuÇİn Ġ
gÃ²ng ĠyÇĴuĠ
ĠĠĠ lÃ¬ĠshÇĲĠ
dÃ²u Ġ
Ġ fÃºĠ
wÃ¨nĠ tÃŃĠ
ĠĠĠshÄĵngĠ pÃŃngĠ
huÃ¡ĠrÃ©nĠmÃŃnĠ gÃ²ngĠhÃ©ĠguÃ³Ġ
fÄģng ĠshÃ¬Ġ
fÄģĠ shÄĵngĠ
cÃºn Ġ
Ã©ng Ġ
chÃ ¬
y ĠĠĠ
a m
Ġ 5
guÃłn ĠjÅ«nĠ
ĠdÃ¬Ġ Ã¨rĠ
dÃłiĠ biÇİoĠ
Ġ qÄ«ngĠ
kÄĽĠ nÃ©ngĠ
dÃ¬ ĠdeĠ
10 Ġ
dÇİo ĠzhÃ¬Ġ
guÄģnĠ xÃ¬Ġ
zhÃ ©
Ġ wÃºĠ
y Ġ
cÄģn ĠyÃ¹Ġ
fÄĵn ĠbÃ¹Ġ
Ġ P
ĠgÅįngĠ chÃ©ngĠ
wÃ¡n ĠchÃ©ngĠ
dÄģn ĠwÃ¨iĠ
yÄ« ĠwÃ¨iĠ
ĠbÃ¹Ġ fÃ¨n
Ġ yÃ²uĠ
Ġ mÄĽi
Ġ 15
gÄģn Ġ
zhÃ¬ ĠdeĠ
gÄĽi Ġ
ĠyÃºĠ 201
ĠchÃ©ngĠ yuÃ¡nĠ
Ġ b
ĠdeĠ chÃ©ngĠ
d Ġ
Ġ 194
zhÃłng Ġ
Äĵng Ġ
jiÃłoĠ yÃ¹Ġ
piÄģn Ġ
2019 ĠniÃ¡nĠ
ĠĠĠ M
yuÃ¡n ĠdeĠ
o Ġ
yÅįng ĠyÇĴuĠ
lÇļ Ġ
cÃºn ĠzÃłiĠ
Ã¨r ĠshÃŃĠ
Ġ 6
bÄĽi ĠbÃ¹Ġ
liÃ¡n ĠhÃ©Ġ
yÃºn Ġ
Ġ zhÃŃ
hÃ²u ĠdeĠ
yÃ³u ĠyÃºĠ
shÃło Ġ
ĠshÃ¬Ġ zhÅįngĠ
bÄ«n Ġ
uÃ¬ Ġ
guÃ³Ġ jiÄģĠ
niÇĶ Ġ
fÄģ ĠxÃŃngĠ
Ġ cÃ³ngĠ
yÃ¬ ĠdeĠ
shÄĽn Ġ
jÃ¹ ĠyÇĴuĠ
duÃ¬ ĠyÃºĠ
zhÃ¨ngĠ fÇĶ
xiÃ¹ Ġ
dÄ«ng Ġ
ĠjiÃłnĠ zhÃ¹Ġ
kÄģng Ġ
ĠbÃ¬ng ĠzÃłiĠ
ĠdÃłoĠ leĠ
Ġ D
xuÃ¡n Ġ
guÃ¬ Ġ
xÄ«n ĠdeĠ
sÄ« ĠdeĠ
xiÃ¨ Ġ
hu Ã¡i
yÃ¹nĠ dÃ²ngĠ
zÃ¬Ġ jÇĲ
Ã©Ġ luÃ³ĠsÄ«Ġ
xÃŃng ĠzhÃ¨ngĠ
yÃ¬nĠ dÃ¹Ġ
tÅ« Ġ
fÃºĠ wÃ¹Ġ
wÇİn Ġ
xÇĶ ĠduÅįĠ
ĠdÃłn ĠshÃ¬Ġ
rÃ¨n ĠhÃ©Ġ
chÃ¨ Ġ
mÇİn Ġ
xiÄĽ Ġ
shÄĵng ĠyÃºĠ
Ġ miÃłnĠjÄ«Ġ
qÇĲng Ġ
zhÇĶĠ yÃło
rÃłng Ġ
liÇİng ĠgÃ¨Ġ
Ġ suÇĴ
ĠrÃ©nĠkÇĴuĠ mÃ¬Ġ
ĠzhÅįngĠyÄģng Ġ
bÇİoĠ hÃ¹Ġ
Ġ jÇĲnĠ
s i
wÄĵn Ġ
ĠdeĠ yÃŃĠgÃ¨Ġ
nÃ¡n ĠbÃ¹Ġ
jÇĶ ĠxÃŃngĠ
Ġ 16
Ġ xiÃłngĠ
zhuÄģn ĠjÃŃĠ
miÃłnĠjÄ« ĠwÃ¨iĠ
Ġ lÃ¬ngĠ
Ġ mÄĽiĠguÃ³Ġ
hÅ« Ġ
ruÃ² Ġ
lÃ¡i ĠdeĠ
ĠzhÃ¨ngĠ fÇĶĠ
juÃ©Ġ dÃ¬ngĠ
fÄģn Ġ
ĠdÄģng ĠshÃŃĠ
ĠtÃ³ng ĠniÃ¡nĠ
e l
dÃº ĠlÃ¬Ġ
ĠchÅ« ĠdeĠ
xÇĲ Ġ
kÄģiĠ shÇĲ
ĠlÃ¬Ġ shÇĲĠ
mÃ¡o Ġ
Ġ 195
Ġ zÇĴngĠ
gÄĵng Ġ
suÃłn Ġ
ĠshÃ¨ ĠjÃ¬Ġ
Ġ shÇĲ
hÃłi Ġ
mÃŃng ĠdeĠ
qÃŃn Ġ
a c
kÃłn Ġ
Ġ luÃ³Ġ
Ġ liÃ¡nĠ
ĠshÃ¬ĠwÃ¨iĠ yÃºĠ
jiÃ¹ ĠshÃ¬Ġ
ĠyÇĴuĠ yÄ«Ġ
shÃ¹Ġ jÃ¹Ġ
Ġ liÃºĠ
fÄģngĠ miÃłnĠ
tÃłn Ġ
Ġg tĠ
zhÃŃĠ wÃ¹Ġ
ĠqÃŃ ĠtÄģĠ
Ġ zhÇĲ
Ġ bÄģĠ
shÃłn Ġ
ĠxÃŃngĠ zhÃ¨ngĠ
Ġ 197
fÇİng Ġ
shÃ²u ĠdÃłoĠ
ti on
rÃ¨nĠ wÃ©iĠ
ĠĠĠ A
o l
tuÃ¬ Ġ
Ġ 7
Ġ yÄ«ngĠ
Ġ cÇĲ
xiÄģngĠ gÇİng
ĠshÃ¬Ġ dÃ¬Ġ
shÃ¨ ĠhuÃ¬Ġ
Ġl tĠ
yÃ¬ ĠwÃ¨iĠ
gÃ¹ ĠshÃ¬Ġ
fÃ¨ng Ġ
ĠxiÃłn ĠzÃłiĠ
duÇİn Ġ
qÅ« ĠwÃ¨iĠ
qiÄģng Ġ
fÄģĠ zhÇİn
k ÄģnĠ
zhe Ġ
T Ġ
lÇİng Ġ
wÄģn Ġ
ĠshÃ¬Ġ shÃ¬Ġ
shÇĲĠ yÃ²ng
ĠzuÃ¬ ĠzhÅįngĠ
su ÄģnĠ
ÄĽ Ġ
liÃ¨Ġ chÄĵĠ
y Ã¡oĠ
nÃ¨i ĠdeĠ
dÃłn Ġ
r Ġ
ĠlÃ¬Ġ rÃºĠ
Ġ E
shÇĶ ĠdeĠ
ÇĲ Ġ
xiÇİo ĠshÃŃĠ
zÃº ĠqiÃºĠ
lÃ¡ng Ġ
xÅ«Ġ yÃłoĠ
sÅįng Ġ
ĠyÃºĠ 200
kÃ²ng Ġ
huÃł ĠdeĠ
ĠbÃ¹Ġ tÃ³ng
pÃło Ġ
Ġ mÄĽiĠ
zuÃ²Ġ wÃ©iĠ
rÃ©n ĠshÃ¬Ġ
lÃ¡iĠ zÃ¬Ġ
Ġ 8
diÃłnĠ yÇĲng
ĠĠĠ P
zuÃ² ĠdeĠ
zÄĵng ĠjiÄģĠ
tÇİn Ġ
ĠjÃ¬Ġ huÃłĠ
mÃŃnĠ zhÇĶĠ
ÄĽng Ġ
ĠshÃŃĠ qÄ«Ġ
mÃło Ġ
xiÃ³ng Ġ
Ġ zhÇĲĠ
kÃ²ng ĠzhÃ¬Ġ
zuÃ²Ġ pÇĲnĠ
yÄ«n ĠyuÃ¨Ġ
xiÃ¡ng Ġ
ĠshÃ¬Ġ jiÃłnĠ
ĠjiÃłn ĠdeĠ
Ġ suÄ«
zhuÄ« Ġ
ĠrÃ¡n ĠÃ©rĠ
xuÃ©Ġ yuÃłnĠ
ĠyÇĲĠ jÄ«ngĠ
Ġ H
Ġ tÅįngĠ
ĠzÃłiĠ dÃ¬Ġ
rÃ©nĠ mÃŃnĠ
ĠrÃ©nĠ yuÃ¡nĠ
ĠhÃ©Ġ zuÃ²Ġ
zÇİi Ġ
tÄģ ĠdeĠ
S Ġ
bÇİ Ġ
zÇĶ ĠchÃ©ngĠ
Ġ cÃ©ngĠ
chÄģoĠ guÃ²Ġ
Ġ 17
xÃ¬Ġ tÇĴng
zÇĴngĠ tÇĴngĠ
Äģ ĠÄĽrĠ
ĠyÄ«n ĠyuÃ¨Ġ
Ġ wÇĶĠ
zhÃ ¡
Ġ zhÄģngĠ
ku ÇİnĠ
huÃ¬ ĠdeĠ
er Ġ
jÃ¬ ĠdeĠ
ĠjiÃłn ĠyÃºĠ
y Ã©Ġ
Ġ shÇĶĠyÃºĠ
Ġ sÄģnĠ
ĠwÃ¨iĠ leĠ
qiÅ« Ġ
Ġ L
ĠhÃ²uĠ lÃ¡iĠ
Ġ quÃ¡nĠ
yÃº ĠshÃ¬Ġ
Ġ 196
ĠlÃ¬Ġ yÃłĠ
ĠchÃ©ngĠ gÅįngĠ
Ġ ÄģnĠ
fÄģ ĠbÃ¹Ġ
ÇĶ nĠ
ĠzhÃ¨Ġ xiÄĵĠ
dÃłĠ lÃ¬Ġ
yÄģo ĠqiÃºĠ
tÃŃ ĠchÅ«Ġ
Ġ 000
Ġ R
ĠyÃ¬Ġ yuÃ¡nĠ
dÄģng ĠshÃŃĠ
ĠshÃ¨ ĠyÇĴuĠ
Ġ 9
ĠĠĠ B
jiÃ©Ġ mÃ¹Ġ
yÃ¹nĠdÃ²ng ĠyuÃ¡nĠ
hÃ¡n ĠguÃ³Ġ
bÃ¹ ĠzÃłiĠ
yÇĴu ĠdeĠ
nÃŃĠ yÃł
zÃło ĠchÃ©ngĠ
Åįu ĠzhÅįuĠ
cÇİiĠ yÃ²ngĠ
xiÇİo ĠxÃŃngĠ
xÃ¬Ġ liÃ¨Ġ
ĠgÅįngĠ yuÃ¡nĠ
D Ġ
zÃłn Ġ
jiÄģ ĠdeĠ
xÃ¬ng ĠdeĠ
ĠyÄ«nĠ cÇĲ
shÄĵng ĠdeĠ
Ġ yÃ²u
ĠdeĠ yÃŃĠgÃ¨
Ã³u Ġ
ĠrÃ¬ ĠzÃłiĠ
rÃ©nĠ wÃ¹Ġ
ĠcÇĲĠ wÃłiĠ
ĠĠĠ T
gÃ²ngĠ chÇİnĠ
Ġ 1
m Ġ
Ġzh Ġ
nÇĲ Ġ
dÇĲng Ġ
Ġã ĥ
20 Ġ
r a
chÅ«n Ġ
Ġ N
ĠshÃ¬Ġ hÃ©Ġ
ku ÄģnĠ
lÃ¼Ã¨ Ġ
ĠĠĠ deĠ
Ġ jiÇİnĠ
mÇİ ĠwÃ¨iĠ
yÄĽ ĠshÃ¬Ġ
o f
Ġ G
xuÃ©Ġ jiÄģĠ
ĠdeĠ bÃ¹Ġ
xu Ã¨Ġ
yÃ³uĠ xÃ¬Ġ
sÄģn ĠniÃ¡nĠ
Ġ cÃ©ng
ĠĠĠ 199
fÃłn ĠwÃ©iĠ
ĠĠĠ 19
shÃ¨ ĠjÃ¬Ġ
kÄģiĠ fÄģĠ
ĠbÃ¹Ġ tÃ³ngĠ
bÇĲĠ sÃłi
qÇĶ ĠdÃ©Ġ
Ġ jiÄģng
Ġ wÇĴĠ
qÃ¬ng Ġ
ĠdeĠ jÄ«Ġ
dÃłng Ġ
Ġ gÄĵnĠjÃ¹Ġ
i l
Ġ lÃ¬ng
ĠxÃŃng ĠchÃ©ngĠ
ĠĠĠdÃ¬Ġ lÇĲĠ
Ġ 0
zÃ¬ ĠzhÃ¬Ġ
chÇİn ĠshÄĵngĠ
Ġ suÃŃ
dÅ«n Ġ
ĠdeĠ jÃ¬Ġ
juÃ©Ġ sÃ¨Ġ
shÅ« ĠjÃ¬Ġ
ï¼ į
dÅįu ĠshÃ¬Ġ
ĠĠĠ shÃ¬Ġ
yÄ« ĠniÃ¡nĠ
ÇĴng Ġ
Ġ 193
chÃ³ng ĠxÄ«nĠ
xiÅįng Ġ
Ġ F
ch ÄģĠ
lÇĲ ĠdeĠ
bÃº ĠshÃ¬Ġ
ĠshÃ¨ ĠhuÃ¬Ġ
zhÃ²ngĠ yÃło
ĠsÄ«Ġ tÃ¨Ġ
ĠzhÅįngĠ huÃ¡Ġ
Ġ jiÃ¹Ġ
guÄģn ĠyÃºĠ
qÅ«Ġ yÃ¹Ġ
sÃłi ĠshÃ¬Ġ
gÄĵĠ qÇĶĠ
jiÄģoĠ tÅįngĠ
kÇĴng Ġ
Ġ cÃ³ng
wÃ² Ġ
dÃłĠ xuÃ©Ġ
ĠyÃ³uĠ xÃ¬Ġ
pÃŃn Ġ
jÃŃ ĠdeĠ
chÃº ĠleĠ
ĠchÅ« ĠxiÃłnĠ
Ã¡ Ġ
duÄģn Ġ
Ġ 1Ġ
ĠzhÃ¬Ġ zuÃ²Ġ
qiÃ¡nĠ wÇİngĠ
Ġ guÄģnĠ
ĠdÃłĠ xuÃ©
pÃŃng ĠjÅ«nĠ
k Ġ
ĠdÃ© ĠguÃ³Ġ
xiÇİn ĠshÃ¬Ġ
zÇĴu Ġ
Ġ yÃ¡nĠ
Ã¨r ĠniÃ¡nĠ
ĠzhÅįngĠ huÃ¡ĠrÃ©nĠmÃŃnĠgÃ²ngĠhÃ©ĠguÃ³Ġ
qu ÄĵĠ
hÃ²u ĠzÃłiĠ
dÄģng ĠdÃ¬Ġ
12 Ġ
zhÃŃĠ yÃ¨Ġ
Ġ xiÇİoĠ
xiÃł ĠdeĠ
o w
yÇİn ĠyuÃ¡nĠ
ĠkÃ¨ ĠsÄ«Ġ
dÃ© ĠguÃ³Ġ
guÇİnĠ xiÃ¡Ġ
xuÇİnĠ jÇĶĠ
pÃ©ng Ġ
wÃ©i ĠyÄ«Ġ
guÃ³Ġ jÃ¬Ġ
duÃ¬ ĠdeĠ
pÃł Ġ
bÃ³Ġ wÃ¹Ġ
qi ÇİnĠ
ĠjiÃłn ĠlÃ¬Ġ
Ġ 10
30 Ġ
ĠdÃ¬Ġ guÃ³Ġ
xiÃłngĠ mÃ¹Ġ
fÇİn ĠduÃ¬Ġ
qÄ« ĠdeĠ
qiÃ¨ Ġ
wÃ¹ ĠdeĠ
zhÇĶĠ xÃŃĠ
hu ÄģnĠ
ĠxiÄģngĠ gÇİngĠ
yÄ«n ĠwÃ¨iĠ
qÃ¹ ĠshÃ¬Ġ
Ġ 14
yÄ« ĠbÃ¹ĠfÃ¨nĠ
dÃ²ngĠ wÃ¹Ġ
bÃ¡ ĠgÄģoĠ
Ġã ģ
ni ÃºĠ
hÅ«n Ġ
ĠdÃłiĠ biÇİoĠ
shÃŃ ĠniÃ¡nĠ
zuÃ¬ ĠzhÅįngĠ
Ġ liÇİng
yÄ« ĠbÃ¹Ġ
o ĠĠĠ
dÃ¹ ĠwÃ¨iĠ
ru ÇİnĠ
jiÄĵĠ shÃ²uĠ
fÃ¡ Ġ
zhÃ¨ngĠzhÃ¬Ġ rÃ©nĠwÃ¹Ġ
nÃŃĠ yÃłĠ
mi ÃłoĠ
Ġ J
hÃ¡i ĠyÇĴuĠ
dÃłiĠ biÇİo
Ġã Ĥ
ĠĠĠ rÃ©nĠkÇĴuĠ
tÇĲĠ yÃ¹Ġ
l ÄĽi
jiÃłoĠ shÃ²uĠ
yÇİ Ġ
kuÃ² Ġ
0ĠniÃ¡nĠ dÃłiĠ
Ġ wÃ¡ngĠ
su ÅįĠ
ĠtÄģ ĠshÃ¬Ġ
ĠbÃ¹Ġ duÃ¬Ġ
ĠxÃŃng ĠshÃ¬Ġ
Ġ shÃ²uĠ
kÃłng Ġ
Ġ liÇİngĠ
dÃ¬ng ĠdeĠ
ĠdÄģng ĠdÃ¬Ġ
chÃ¬ Ġ
ĠyÄĽ ĠshÃ¬Ġ
jiÄĵĠ r
du Ã³Ġ
bÄģ ĠshÃ¬Ġ
r ÇİnĠ
z Å«nĠ
xuÃ©Ġ xiÃłoĠ
Ġ mÇİ
zhÇĶĠ jiÃłoĠ
huÃ¡i Ġ
zhÄģo Ġ
ĠdeĠ yuÃ¡nĠ
zhÃ²ngĠ yÃłoĠ
ĠĠĠ L
jiÃ©Ġ gÃ²uĠ
Ġ suÇĴĠ
diÃłoĠ chÃ¡Ġ
Ġ kÄĽĠ
ĠzhÄ«Ġ jiÄģnĠ
Ġ gÃ©Ġ
t a
Ġ bÃ¬Ġ
biÄģnĠ mÇİĠwÃ¨iĠ
dÃłi ĠdeĠ
liÃ¡nĠ mÃ©ngĠ
ni ÇİoĠ
ĠxuÃ©Ġ mÃŃngĠ
ĠyÃºĠ 202
ĠrÃ¬ ĠzhÃ¬Ġ
gÇİi ĠwÃ©iĠ
zÇĶ ĠzhÄ«
nÇļĠ zÇĲĠ
w ÄĽnĠ
zÄ«Ġ liÃłoĠ
ĠzÃłiĠ 200
zhu ÃłnĠ
jiÃłoĠ yÃ¹
guÃłn Ġ
fÄĵn ĠwÃ©iĠ
wÃºĠ fÇİĠ
Ġ bÇĲĠ
hÇİi ĠjÅ«nĠ
ĠjÅ«n ĠshÃ¬Ġ
gÅįng ĠshÃ¬Ġ
ĠrÃ©nĠkÇĴuĠmÃ¬Ġ dÃ¹Ġ
guÇĲ Ġ
fÃ¹Ġ zÃ©Ġ
chÇĶ ĠlÇĲĠ
ãĢ ī
ãĢ Ī
Ġ sÃ¬Ġ
shÃ¹ ĠdeĠ
ĠzhÃ¨ngĠ fÇĶ
zuÃ¬Ġ gÄģoĠ
fÄģngĠ fÇİĠ
f Ã³Ġ
Ġ 2Ġ
wÅ«ĠkÃ¨Ġ lÃ¡nĠ
ĠdeĠ dÃłĠ
ĠrÃ¬Ġ bÄĽn
di Ã©Ġ
ĠĠĠ R
yÄģo Ġ
ĠdeĠ yÃ¬Ġ
Ġ chÃ©nĠ
ĠyÇĴuĠ xiÃłn
c u
11 Ġ
ĠĠĠ yÇĶĠ
ĠgÃ¨ ĠrÃ©nĠ
ĠjÃ¬Ġ shÃ¹Ġ
chÃº nĠ
yÇĲngĠ xiÇİng
jÅ«Ġ mÃŃnĠ
zhÇĶĠ rÃ¨nĠ
zÃ¬Ġ yÃ³uĠ
qÃŃ ĠzhÅįngĠ
ĠshÃ¬Ġ yÃ³uĠ
fÄĵiĠ chÃ¡ngĠ
xuÃ©Ġ shÄĵngĠ
lÃ¹ ĠdeĠ
nÃ¡nĠ ziĠ
liÃ¡nĠ sÃłiĠ
sÄģn ĠshÃŃĠ
fÇİnĠ yÃ¬ngĠ
Ġ Ð
biÄģoĠ zhÇĶnĠ
ĠzÃłiĠ 201
shÃ¹Ġ liÃłng
zhÃŃĠ jiÄĵĠ
ĠzhÄ«Ġ chÃŃĠ
xiÃ© ĠhuÃ¬Ġ
Ġ qÄ«Ġ
kÄĽ ĠyÇĲ
Ġ jiÃ©
Ġ chÃ¡ngĠ
shÃ¨n ĠzhÃ¬Ġ
wÃ©nĠ xuÃ©Ġ
fÄĵnĠbÃ¹Ġ yÃºĠ
bÇĲ ĠlÃ¬Ġ
wÃ©nĠ huÃł
tÇĴng ĠzhÃ¬Ġ
chuÃłng ĠzuÃ²Ġ
p Ġ
s ÇĶnĠ
ĠĠĠ bÄĽnĠ
dÅįng ĠbÃ¹Ġ
ĠdeĠyÃŃĠgÃ¨ ĠshÃ¬ĠzhÃ¨nĠ
e t
ĠdÃ¬Ġ sÄģnĠ
gÄģi ĠguÃ³Ġ
ĠgÅįngĠ sÄ«
P Ġ
qÃŃngĠ kuÃłngĠ
sÃ¬ ĠniÃ¡nĠ
z ÃłngĠ
yuÄĵĠ hÃłnĠ
wÃ©nĠ wÃ¹Ġ
ĠfÃ¹Ġ zÃ©Ġ
Ġ 2
ĠĠĠ G
ĠdÃ¬Ġ shÃŃĠ
Ġ fÃº
Ãłn ĠdeĠ
ĠĠĠ xÃŃngĠzhÃ¨ngĠ
shÄĵngĠ huÃ³Ġ
ĠbÃ¹Ġ guÃ²Ġ
y ÄģnĠ
ÄģnĠ quÃ¡nĠ
huÃ¬ ĠzÃłiĠ
zhÅįng ĠshÃ¬Ġ
quÃ¡n ĠlÃ¬Ġ
c uÃ²Ġ
Ġc Ã¹
nÇļĠ xÃ¬ngĠ
ĠdÃło ĠdeĠ
Ġ suÃŃĠ
nÃ©ng ĠlÃ¬Ġ
gÅįng ĠbÃ¹Ġ
nÃ¨iĠ rÃ³ngĠ
ĠĠĠ D
ĠshÃ¬Ġ yÃŃĠgÃ¨Ġ
Ġ gÇĶĠ
Ġ lÃ¡iĠ
o m
xÄ« ĠbÃ¹Ġ
ĠbÃ¬ng ĠyÃºĠ
Ġ shÄ«Ġ
ĠjÃ¬nĠ rÃ¹Ġ
dÃ²ngĠ huÃłĠ
lÃ¹ ĠxiÃłnĠ
bÄĽiĠ jÄ«ngĠ
p Äģi
chÃ©ngĠ lÃ¬Ġ
Ġ jiÄĵĠ
ĠzhÅįngĠ xuÃ©Ġ
qÃŃngĠ kuÃłng
Ġ K
miÃłn ĠdeĠ
shu ÃłiĠ
yÃ¬ ĠshÃ¬Ġ
ĠĠĠ formulaĠ
ĠÄĽr ĠsÄ«Ġ
b ÇİngĠ
jÇĲnĠ biÄģoĠ
mÃ©iĠ tÇĲĠ
i c
th eĠĠĠ
Ġ fÇİĠ
yÇĴu ĠshÃŃĠ
Ġ shÄģnĠ
ĠyÃ¬Ġ huÃ¬Ġ
Ġ bÇİoĠ
guÇİngĠ dÅįngĠ
Ġ shÄĵnĠ
zÃ¬ĠjÇĲ ĠdeĠ
mÇĲ nĠ
Ġ huÃ¡ngĠ
Ġ kÇİĠ
âĢ ĵ
Ġ ÃłoĠ
bÇĲ ngĠ
ĠĠĠ jiÄģĠ
jiÃłn ĠzhÃ¹Ġ
yÃł ĠzhÅįuĠ
shÃ¹n Ġ
Ġ pÇĶĠ
a t
lu ÃłnĠ
ĠĠĠ H
ch ÄģngĠ
dÇİo ĠdeĠ
ĠguÃ³Ġ mÃŃnĠ
Åįng Ġ
ni Ã¨Ġ
l Ã¡oĠ
nÃ¡ ĠdÃłĠ
Ġ d
tÃłi ĠpÃŃngĠ
mÄĽi ĠyuÃ¡nĠ
f Ã¡nĠ
ĠĠĠ 198
quÃ¡n ĠbÃ¹Ġ
dÃ¬ ĠwÃ¨iĠ
zhÇĲ ĠyÇĴuĠ
bÃ¡ĠgÄģoĠ dÃ¹Ġ
dÃ¡ ĠdÃłoĠ
hÃ¡o Ġ
lÇĲ ĠshÃ¬Ġ
zhÃº ĠjiÃłnĠ
ĠzhÃ¨ ĠshÃ¬Ġ
ĠbÃ¬ngĠ qiÄĽĠ
bÇİn ĠbÄĽnĠ
Ġ gÇİiĠ
qÄ«ng ĠniÃ¡nĠ
ĠsuÇĴ ĠyÇĲĠ
xÇĶĠ duÅį
ĠxuÃ©Ġ xiÃłoĠ
p Ã©iĠ
zhÄĽ ĠdeĠ
hu ÇĲĠ
ĠxÄ«Ġ yÃłĠ
shÇĴuĠ cÃ¬Ġ
mi Ã¨Ġ
chÃ ³uĠ
ĠbÃ¬ngĠ qiÄĽ
xu ÄĽĠ
wÅ«ĠkÃ¨Ġ lÃ¡n
jiÄģng ĠjÅ«nĠ
g Å«Ġ
lÄģ ĠsÄ«Ġ
yÄ« ĠshÃ¬Ġ
ĠĠĠ gÄĵnĠjÃ¹Ġ
ĠchÃ©ngĠ wÃ©i
zhÇĲ ĠchÅ«Ġ
dÄģnĠ qÅ«Ġ
rÃ¬Ġ bÄĽn
mÃ³ ĠshÃ¬Ġ
tÇĲ ngĠ
t ÇİoĠ
hÃ¹ nĠ
ĠyÃ¬Ġ shÃ¹Ġ
ĠtÄģĠmen ĠdeĠ
hÃ¡ngĠ kÅįngĠ
I Ġ
ĠjÃ¬Ġ lÃ¹Ġ
zhÃŃ ĠxÃŃngĠ
tÅįngĠ guÃ²
ĠzhÅįu ĠdeĠ
âĢ ¦
zhÃ ²u
wÇĶ ĠniÃ¡nĠ
zhÃł Ġ
ĠĠĠ 18
on Ġ
zhÃ¨ ĠyÄ«Ġ
ĠqÃŃ ĠshÃ¬Ġ
ĠzhÃ¨Ġ geĠ
Ġ fÄĵngĠ
dÄĽng ĠrÃ©nĠ
Ġ lÃŃnĠ
yÇĶ nĠ
z ÄģiĠ
Ġ tÃłiĠ
k ÄĽnĠ
Ġ W
zÃ© ĠshÃ¬Ġ
jÃ¬nĠ rÃ¹Ġ
ĠzhÇĶĠ yÃłoĠ
n ÇİoĠ
tÃ³ng ĠshÃŃĠ
28 ĠrÃ¬Ġ
rÃ©nĠkÇĴuĠ pÇĶĠ
me Ġ
gÃ©Ġ lÃ¡nĠ
ĠqÃŃ ĠyÃºĠ
mÃŃnĠ zÃºĠ
gÄģi ĠdÃ¬Ġ
ĠqiÃº ĠduÃ¬Ġ
Ġ hÃłoĠ
zhÃłnĠ zhÄĵngĠ
yÇİn ĠchÅ«Ġ
b ÃłĠ
huÃ³Ġ dÃ²ng
rÃ¨nĠ wÃ©i
Ġ yÃºĠshÃ¬Ġ
Ġ zÇĴng
zhÃ© Ġ
ĠzhÄ«Ġ jiÄģnĠdeĠ
ĠgÅįngĠ kÄģiĠ
ĠĠĠ F
t Ã²uĠ
nÃ¡ Ġ
U T
ĠlÃ¬Ġ yÃł
. .
xiÃł ĠjÃ¬Ġ
lÃ¨ ĠbÃ¹Ġ
Ġ Ãło
Ġ ÃłiĠ
zhÃ¨Ġ xiÄĵĠ
jÃ¬ngĠ nÃ¨iĠ
Ġ zÃ©Ġ
ĠdÄģng ĠzhÅįngĠ
tÇĲ ĠdeĠ
e c
Ġ 13
chÄĵĠ zhÃłn
gÃ²ng ĠtÃ³ngĠ
s ÅįuĠ
tuÄ« ĠchÅ«Ġ
zhÃº Ġ
jiÃ©Ġ shÃ¹Ġ
Ġ lÄģĠ
ĠshÃ¬Ġ wÃ¹Ġ
Ġ nÃłĠ
huÃ¡nĠ jÃ¬ngĠ
lÃŃĠ kÄģiĠ
Ġ xÄ«n
sh uÃ¬Ġ
ĠlÃ¬ngĠ wÃłiĠ
ĠĠĠ I
lÃŃnĠ pÇĲ
Ġ zhÇİngĠ
shÄģngĠ yÃ¨Ġ
chuÃ¡nĠ tÇĴngĠ
yuÃ¡n ĠniÃ¡nĠ
ĠĠĠ niÃ¡n
qÇĲĠ yÃ¨Ġ
Ġ kÄģiĠ
Ġ jiÄģnĠ
15 ĠrÃ¬Ġ
yÃŃnĠ hÃ¡ngĠ
fÄĵn ĠzhÅįngĠ
guÄģn ĠdeĠ
jÅ«n ĠshÃ¬Ġ
Ġ 5Ġ
shÃ º
jiÄĵ ĠdÃłoĠ
ĠĠĠ 194
quÃ¡n ĠqiÃºĠ
xiÄģngĠ guÄģnĠ
Ġ sÅ«Ġ
jÄ« ĠdeĠ
qiÃ¡n ĠdeĠ
zÃ¬Ġ jÇĲĠ
xuÇİnĠ zÃ©Ġ
liÃłng ĠdeĠ
ĠzhÇĶĠ yÃło
Ġ kÄĽĠyÇĲĠ
gÄģo ĠdeĠ
4 0
sÃłi ĠjÃ¬Ġ
bÃ³ ĠshÃ¬Ġ
fÄĵnĠ biÃ©
dÃ¹ ĠdeĠ
p ÃºĠ
ĠwÃ¨iĠ rÃ©nĠ
Ġ bÄģ
Ġ shÃ¨ngĠ
wÃ¡nĠ quÃ¡nĠ
Ġ Ã¨rĠ
ĠwÃ¨iĠ zhÃ¬Ġ
mÃ¬ng ĠmÃŃngĠ
ĠdÃ¬Ġ Ã¨r
s Å«nĠ
tuÃ¡nĠ tÇĲĠ
bÄĽiĠ jÄ«ng
dÄĽng ĠdÃ¬Ġ
ĠgÅįngĠ lÃ¹Ġ
hÃ ³uĠ
R Ġ
rÃ¨ ĠdÃłiĠ
bÃłoĠ gÃłoĠ
zuÃ¬ ĠhÃ²uĠ
chÃ©ng ĠzhÅįngĠ
Ġ bÄģoĠkuÃ²
ĠshÃŃĠ jÃ¬Ġ
yÃ¹nĠdÃ²ng ĠhuÃ¬Ġ
rÃ©n ĠzÃłiĠ
ĠdÃłĠ lÃ¬Ġ
zuÃ¬ ĠjiÄģĠ
sÄģn ĠgÃ¨Ġ
ĠdÃłn ĠzÃłiĠ
21 Ġ
bÅį ĠchÅ«Ġ
Ġ shÄģĠ
ĠĠĠ jÃ¹Ġ
xuÃ© ĠwÃ¨iĠ
lÇĲngĠ dÇİoĠ
zÅįngĠ jiÃłoĠ
tÇĶ ĠdÃ¬Ġ
ĠdÃ© ĠdÃłoĠ
ĠshÃ¬ĠyÄ«Ġ zhÇĴngĠ
xÃ¬ ĠdeĠ
E Ġ
Ġ hÃ³ngĠ
25 ĠrÃ¬Ġ
Ġ200 1ĠniÃ¡nĠ
du Ã³
ĠdÃ¬Ġ fÄģngĠ
guÇĲ ĠdÃłoĠ
ĠwÃ¨iĠ dÃ¬Ġ
ĠmÃ¹Ġ qiÃ¡nĠ
ju ÇİnĠ
V Ġ
jÄ«ng ĠlÃ¬Ġ
ĠzhÄ«Ġ qiÃ¡nĠ
shÄĽng ĠdeĠyÃŃĠgÃ¨ĠshÃ¬ĠzhÃ¨nĠ
Ã²ng Ġ
ĠjÅ«n ĠdeĠ
o o
ĠjÄ«Ġ gÃ²uĠ
ĠshÃ¬ĠwÃ¨iĠyÃºĠ mÄĽiĠguÃ³Ġ
ĠzhÅįngĠhuÃ¡Ġ mÃŃnĠguÃ³Ġ
wÃ¨i ĠdeĠ
Ġ kÄĵĠ
sÇĲĠ wÃ¡ngĠ
ĠgÃ¨ ĠyuÃ¨Ġ
d ÇĴng
ÃłoĠ lÃŃnĠpÇĲ
q iÃłn
ĠzÃłiĠ yÄ«Ġ
Ã¹ Ġ
30 ĠrÃ¬Ġ
Ġ jÄ«n
an Ġ
dÄģnĠ rÃ¨n
z Ãłng
ĠdeĠ hÃ©Ġ
sh ÄģoĠ
Ġ bÅįĠ
ĠhÇİiĠ bÃ¡ĠgÄģoĠdÃ¹Ġ
ĠyÄ«Ġ xiÄĵĠ
ch ÄģiĠ
ĠyÇĴuĠ guÄģnĠ
Ġ diÃłnĠ
20 ĠrÃ¬Ġ
ĠxÃŃngĠ dÃ²ngĠ
t er
shuÇĲĠ yÃ¹Ġ
ĠĠĠ wÃ¨iĠ
biÃłnĠ huÃłĠ
shÃłng ĠwÃ¨iĠ
hu ÃłiĠ
zh Çİo
Ġ zhÃŃĠ
Ġ 3Ġ
zhÄ« ĠyÄ«Ġ
ĠshÃŃĠ dÃłiĠ
jÃŃ ĠzhÅįngĠ
di ÄģoĠ
ĠjÃŃĠ tuÃ¡nĠ
ĠjÃ¬Ġ xÃ¹Ġ
UT CĠ
zhÄ«Ġ chÃŃĠ
gÃłn Ġ
gÃ²ng ĠhÃ©Ġ
gÃ©Ġ mÃ¬ngĠ
gÄĵĠ shÇĴuĠ
t Ã¬Ġ
zhÃ¨Ġ geĠ
jÄ« ĠyÃºĠ
chÇĶ ĠyÃºĠ
z Å«Ġ
ĠhÃ²uĠ lÃ¡i
ĠbÃ¹Ġ zhÇİngĠ
guÃ² ĠchÃ©ngĠ
zh ÇİoĠ
yÃ²ng ĠdeĠ
tÃ¡iĠ bÄĽi
10 ĠrÃ¬Ġ
xiÇİoĠ shuÅįĠ
kÅįngĠ jiÄģnĠ
xÄ«nĠ wÃ©nĠ
B Ġ
ĠyÃºĠ 199
ĠĠĠ gÄģiĠ
bÃº ĠhuÃ¬Ġ
ÄģĠ lÄģĠ
nÃ¨i ĠbÃ¹Ġ
Ġ jiÃłoĠ
Ġ hÃ¡iĠ
ĠÃ©r ĠzÃłiĠ
ĠjÃŃĠ tuÃ¡n
ĠyÃ¬Ġ zhÃŃĠ
wÃ¹Ġ zhÇĴngĠ
gÄĵnĠ jÃ¹
jiÄĽĠ fÃłng
a s
pÄ« ĠpÃŃngĠ
ĠzhÅįu ĠshÃ¬Ġ
dÃ¬Ġ qÅ«Ġ
luÃ³Ġ mÇİĠ
yÃ¨ ĠyÃºĠ
Ġ yÃŃĠ
rÃ©ng Ġ
ĠjiÄģĠ rÃ¹Ġ
ĠhÃ©Ġ nÃ¡nĠ
guÄ«Ġ dÃ¬ngĠ
ĠzhÃŃ ĠdÃłoĠ
k ÇİiĠ
ĠyÇĴuĠxiÃłn ĠgÅįngĠsÄ«Ġ
gu ÅįĠ
wÃ¡n ĠjiÄģĠ
shÃłngĠ hÇİiĠ
jÄ«ngĠ guÃ²Ġ
r ÇĶĠ
ĠshÃ¬Ġ shÃŃĠ
chÃ©ngĠ wÃ©iĠ
xÄ«Ġ bÄģnĠ
ÃłoĠlÃŃnĠpÇĲ ĠkÃ¨Ġ
zÄ«Ġ gÃ©Ġ
26 ĠrÃ¬Ġ
xÃ¬Ġ liÃ¨
dÃłĠ lÃ¹Ġ
ĠĠĠ c
di ÄģnĠ
g Å«
ĠdÃłĠ huÃ¬Ġ
24 ĠrÃ¬Ġ
Ġ O
duÅį ĠdeĠ
zÃłi ĠdeĠ
zÃ¡ ĠzhÃ¬Ġ
yÄ«ng ĠyÇĶĠ
lÃ¹ ĠdÃ¬Ġ
hÃ© ĠdeĠ
hÃ¡o ĠmÇĲĠ
ĠyÇĶĠ yÃ¡nĠ
qÃŃ ĠtÄģ
fÄģng ĠdeĠ
ĠzhÃ¨Ġ zhÇĴngĠ
ĠĠĠ W
Ġ 12
jiÃ©Ġ guÇĴĠ
hÃ²u ĠyÄ«Ġ
k ÃłoĠ
Ġ 6Ġ
ĠĠĠ yÄ«Ġ
Ġ nÃ¡n
ĠchÃ©ngĠ qÅ«Ġ
Ġ fÄģĠ
e s
Ġ fÄĵiĠ
sÃ¨ ĠdeĠ
fÇİĠ lÇľĠ
z Ã²uĠ
Ġ hÃłnĠ
yÄ« ĠdeĠ
chuÃ¡nĠ tÇĴng
f ÇĴuĠ
ĠshÃ¬Ġ fÇİĠguÃ³Ġ
Ġ tÃ¡iĠwÄģnĠ
m ÇĴuĠ
18 ĠrÃ¬Ġ
xuÇİnĠ jÇĶ
c ÇİoĠ
ĠwÃ¨iĠyÃºĠ gÄģiĠguÃ³Ġ
ĠlÇĲĠ sÄ«Ġ
6 0
zhuÄģnĠ yÃ¨Ġ
Ġ suÃ¬
Ġ yÃ¡ngĠ
zhÃłn ĠdeĠ
wÃ¹ ĠlÇĲĠ
zhÇĲ ĠshÃ¬Ġ
shÃ¹ ĠwÃ¨iĠ
ĠbÃ¹ĠtÃ³ng ĠdeĠ
ku ÃŃĠ
biÇİo ĠxiÃłnĠ
chÃ ³u
ĠyÃ¬Ġ bÄģnĠ
ĠshÃ¬ĠjiÃ¨ ĠdÃłĠ
shÄĽng ĠjÃŃĠ
miÃ¡oĠ shÃ¹Ġ
shÇĲ ĠdeĠ
ĠĠĠ E
guÄģn ĠyuÃ¡nĠ
tÄģĠ men
Ġm Ã¨i
fÇİĠ yuÃłnĠ
wÃº ĠxiÃłnĠ
Ġ yÄ«ngĠguÃ³Ġ
wÃ¨nĠ tÃŃ
zhÇĲĠ huÄ«Ġ
ĠguÃ³Ġ jiÄģ
yÄĽ ĠyÇĴuĠ
yÃŃng ĠdÃ©Ġ
bÄģoĠ hÃ¡nĠ
bÃ³ĠwÃ¹Ġ guÇİnĠ
jiÄģng ĠqÃŃĠ
tÃ³ng ĠniÃ¡nĠ
ĠgÅįngĠ jÄ«Ġ
zhÃ¨ng ĠzÃłiĠ
cÃ¨ ĠshÃ¬Ġ
Ġ gÃ¹Ġ
chÇİng ĠdeĠ
0ĠniÃ¡nĠ dÃłi
ĠwÃ¨iĠ zhÅįngĠ
bÃ¹ ĠhÃ©Ġ
Ġ yÇĲnĠ
ĠlÃ¬Ġ yÃ²ngĠ
Ġ dÃł
50 Ġ
fÄĵi ĠjÄ«Ġ
ĠzÃ¬Ġ jÇĲ
zhÄĵng ĠyÃ¬Ġ
16 ĠrÃ¬Ġ
27 ĠrÃ¬Ġ
Ġ tÇĲĠ
ĠzuÃ¬ ĠhÃ²uĠ
x Å«nĠ
ĠdÃ¬Ġ qÅ«
21 ĠrÃ¬Ġ
ĠsuÃŃ ĠhÃ²uĠ
yÃ¬ ĠshÃŃĠ
17 ĠrÃ¬Ġ
zÄģo ĠdÃłoĠ
12 ĠrÃ¬Ġ
dÅįngĠ nÃ¡nĠ
8 ĠrÃ¬Ġ
Ġ 4Ġ
dÃ¬ng ĠyÃ¬Ġ
liÃ¹ ĠniÃ¡nĠ
ĠdÃłĠ qÅ«Ġ
l Ġ
ĠzhÅįngĠ xÄ«n
zÅįng ĠhÃ©Ġ
ĠbÃ¨iĠ chÄĵngĠwÃ©iĠ
Ġ rÃº
Ġ wÄĵiĠ
ĠzhÃłnĠ zhÄĵngĠ
Ġ chÃºĠ
ĠshÃ¬Ġ yÃ¬Ġ
xuÃ© ĠdeĠ
ĠxiÃłn ĠshÃŃĠ
h eĠĠĠ
jÃŃ ĠwÃ¨iĠ
Ġ sÄģn
23 ĠrÃ¬Ġ
huÃ¡ng ĠdÃ¬Ġ
zuÃ¬Ġ dÃłĠdeĠ
20 ĠniÃ¡nĠ
Ġ hÃºĠ
ĠshÃ¬Ġ jiÃłn
i t
Ġ fÄĵnĠbÃ¹ĠyÃºĠ
ĠbÃ¬ng ĠbÃ¹Ġ
qu ÄģnĠ
11 ĠrÃ¬Ġ
Åįu ĠzhÅįu
ĠshÄĵngĠ huÃ³Ġ
kÃ¹ nĠ
fÄģngĠ xiÃłngĠ
duÅįĠ shÃ¹Ġ
Ã©Ġ luÃ³Ġ
l ÃłĠ
shÄĵngĠ yÃ¡Ġ
liÃ¡nĠ mÃ©ng
ĠsuÄ« ĠrÃ¡n
ĠĠĠ N
chÅ« ĠxiÃłnĠ
ĠzhÅįngĠ gÃ²ng
7 ĠrÃ¬Ġ
zhu Ã³Ġ
fÄĵn ĠxÄ«Ġ
ĠzhÃ¨Ġ xiÄĵ
22 ĠrÃ¬Ġ
tÅįngĠ chÃ¡ngĠ
29 ĠrÃ¬Ġ
xiÃłng ĠdeĠ
ĠĠĠ yÃºĠ
ĠjiÄģĠ p
ĠdeĠ zuÃ²Ġ
hÃ¡i ĠshÃ¬Ġ
ĠĠĠ cÇĲĠ
9 ĠrÃ¬Ġ
n ÃłiĠ
dÅįngĠ bÄĽiĠ
lÃ¬ng ĠyÄ«Ġ
dÃ¬ng ĠwÃ¨iĠ
Ġ nÃ¨iĠ
wÃłn ĠrÃ©nĠ
zÃ¡ Ġ
xÅ«Ġ yÃło
ĠĠĠ zhÃ¨ngĠzhÃ¬Ġ
tÇĴng ĠjÃ¬Ġ
xÃ¬n ĠxÄ«Ġ
yÃłng ĠdeĠ
ĠxiÃłn ĠzhÃ¬Ġ
liÃ¡nĠ bÄģngĠ
19 ĠrÃ¬Ġ
gÅįng ĠdeĠ
Ġc ÇİoĠ
Ġ Ãłi
5 ĠrÃ¬Ġ
qiÃº ĠduÃ¬Ġ
chÃ¡ ĠdeĠ
14 ĠrÃ¬Ġ
qi Ã³ng
guÄ«Ġ mÃ³Ġ
chÃ¡ng ĠshÃ¬Ġ
m ÃŃĠ
ru Çİn
mÄĽiĠguÃ³Ġ rÃ©nĠkÇĴuĠpÇĶĠ
3 ĠrÃ¬Ġ
10 0
zÇĶ ĠhÃ©Ġ
ĠyÃºĠ 18
30 ĠniÃ¡nĠ
hÇİiĠ bÃ¡
ĠhuÃ² ĠdÃ©
Ġc Ã¡ngĠ
lÃŃn ĠshÃŃĠ
E E
niÇĶĠ yuÄĵ
wÃ¨i ĠshÃ¬Ġ
yÃ¹ ĠdeĠ
jÄ« ĠdÃ¬Ġ
yÅįng Ġ
Ġ kÄĽ
bÄģng ĠzhÃ¹Ġ
ĠdeĠshÃ¬Ġ zhÃ¨nĠ
6 ĠrÃ¬Ġ
jÇĶĠ bÃłn
ĠzhÅįngĠ bÃ¹Ġ
2 ĠrÃ¬Ġ
Ġp Ã©iĠ
ĠĠĠ zhÅįngĠ
ĠyÃºĠ 19
ĠyÃ¬Ġ dÃłĠlÃ¬Ġ
sÃ¬ ĠshÃŃĠ
guÄģnĠ fÄģngĠ
ĠshÃ¨ ĠlÃ¬Ġ
gÃ¨ ĠrÃ©nĠ
4 ĠrÃ¬Ġ
Ġ19 0
shÃ¨ ĠyÇĴuĠ
3 1ĠrÃ¬Ġ
nÃ©ngĠ gÃ²uĠ
ĠĠĠ zhÃ¨Ġ
ĠdeĠ zhÅįngĠ
shÄĵnĠ fÃ¨nĠ
yuÃ¡n ĠhÃ©Ġ
ĠdÃ¬Ġ qÅ«ĠdeĠ
suÇĴĠ shÇĶĠdeĠ
ĠrÃ©nĠ kÇĴu
ĠyÃ¬Ġ bÄģn
tiÄĽĠ lÃ¹
a u
Ġ mÃ©iĠ
liÃ¨Ġ chÄĵ
o c
zÇİoĠ qÄ«Ġ
ĠqÃŃ ĠtÄģ
n u
Ġ yuÄĵĠ
ĠĠĠ 197
Ġ wÃłiĠ
g ÅįuĠ
n ÃłnĠ
zÃº ĠqiÃº
Ġ201 1ĠniÃ¡nĠ
13 ĠrÃ¬Ġ
xiÅįng ĠdÃ¬Ġ
jiÃ©Ġ shÃ¹
N S
ĠshÃ¬Ġ chÇİngĠ
ĠxuÃ©Ġ shÄĵngĠ
mÃ¹ ĠdÃ¬Ġ
liÃ¡nĠ sÃłi
huÄ« ĠfÃ¹Ġ
yuÃ¡n ĠyÃºĠ
shÃ¨n Ġ
ĠĠĠ 195
qÇĶ ĠdÃłiĠ
sÅ«Ġ liÃ¡nĠ
Ġ bÃ¡iĠ
shÄĵng ĠzÃłiĠ
ĠxuÃ©Ġ yuÃłnĠ
ĠĠĠ yÃ³uĠyÃºĠ
jÇĶĠ bÃłnĠ
qÃŃngĠkuÃłng ĠxiÃłĠ
yÃŃ ĠbÃ¹Ġ
gÃ©Ġ mÃ¬ng
ĠgÅįngĠ chÇĲĠ
xiÃ© ĠyÃ¬Ġ
juÃ©Ġ sÃłi
Ġ lÃºĠ
Ġ gÄĵĠ
kÄĵ ĠjÃ¬Ġ
huÃ¡ng ĠjiÄģĠ
fÄģ ĠxiÃłn
bÃ¬Ġ yÃ¨Ġ
Ġ dÇİoĠzhÃ¬Ġ
ĠshÃ¬Ġ zhÇİngĠ
Ġ sh
zhÄĽng ĠgÃ¨Ġ
rÃ©n ĠhÃ©Ġ
t Ã©ngĠ
r ÃłoĠ
8 0
v i
Ġ tÃ¡ngĠ
chÄģo ĠjÃŃĠ
mÃło ĠyÃ¬Ġ
wÃ©nĠwÃ¹Ġ bÇİoĠhÃ¹Ġ
mi Ãło
yuÃ¨ ĠdeĠ
zhÇİng ĠdeĠ
juÃ©Ġ sÃłiĠ
ĠzhÃ¨ ĠyÄ«Ġ
Ġ bÃ³Ġ
xÃŃ ĠjÄ«Ġ
Ġ zhÅ«Ġ
zh ÄģĠ
ĠdÃ¬Ġ lÃ¬Ġ
lÃ¬ ĠhÃ©Ġ
l ÃłiĠ
xuÃ©Ġ yuÃłn
Ġ wÇĴ
tÃºĠ shÅ«Ġ
qÅ«Ġ huÃłĠ
xiÄģn ĠhÃ²uĠ
hÃ¡ngĠ kÅįng
o p
tÇĴng ĠyÄ«Ġ
ĠxÄ«Ġ nÃ¡nĠ
yÄģo ĠqiÃº
jiÃ© ĠhÃ©Ġ
Ġm Ã³uĠ
jiÄĵĠ duÃłnĠ
Ġ nÇļĠ
ĠyÇĲĠ jÄ«ng
liÃº ĠxÃŃngĠ
Ġ gÃ²ngĠ
Ġ shuÄģngĠ
M Ġ
fÇİnĠ yÃ¬ng
Ġb rĠ
xiÃ© ĠzhÃ¹Ġ
cÃ¬ ĠshÃ¬ĠjiÃ¨ĠdÃłĠ
yÃ¡nĠ zhÃ²ngĠ
zhÃłn ĠhÃ²uĠ
ĠrÃºĠ guÇĴĠ
shÃłng ĠshÃ¬Ġ
xÃ¹nĠ liÃłnĠ
Ġ hÄĵiĠ
ĠfÄĵnĠ biÃ©
Ġ huÃ¡Ġ
Ġ jÇĲngĠ
Ġ mÃ³Ġ
guÇİngĠ bÅįĠ
Ġ hÄģ
ĠÄĽrĠ shÄĽngĠ
yÇĶ ĠdeĠ
rÃ©nĠkÇĴuĠ shÃ¹ĠliÃłng
kÄģiĠ fÄģ
ĠhÃ©Ġ yÄ«Ġ
qi ÇİngĠ
zÃ¬ ĠxÃŃngĠ
Ġ jiÃ¹
ĠbÃ¹Ġ nÃ©ngĠ
fÄģĠ biÇİo
gÃ²ngĠchÇİnĠ dÇİngĠ
hÃ¹ n
qÄ« ĠniÃ¡nĠ
Ġ dÄģnĠ
shÃło ĠniÃ¡nĠ
ĠyÇĲĠ lÃ¡iĠ
ĠxÄ«Ġ bÄģnĠ
zÃ¬Ġ rÃ¡nĠ
huÃłĠ xuÃ©Ġ
Ġ Äģ
ĠzÃłiĠ cÃ¬Ġ
ĠĠĠ 196
ĠtÄģĠ cÃ©ng
Ġ U
Ġ wÃº
hÃło ĠxiÃłnĠ
zhÃ¹ ĠzÃłiĠ
huÃł ĠhÃ©Ġ
Ġ quÃ¡n
juÃ©Ġ dÃ¬ng
chÃ¡oĠ xiÄģnĠ
i r
guÃ³ ĠhÃ©Ġ
xÃ¬Ġ bÄģoĠ
dÇİoĠ yÇİnĠ
Ġ shuÇĲĠ
Ġs Å«nĠ
shu ÄģiĠ
ĠyÇĲĠ xiÃłĠ
tÃ¨ ĠdeĠ
Ġ200 9ĠniÃ¡nĠ
7 0
Ġc uÃ²Ġ
xiÃłĠ xiÃ¡
chÃŃĠ xÃ¹Ġ
Ġ mÇĶĠ
tiÃ¡o ĠjiÃłnĠ
ĠxiÄģngĠ gÇİng
pÃŃn ĠdÃłoĠ
ĠgÅįngĠ zuÃ²
Ġ 2010ĠniÃ¡nĠ
yÃ¨ ĠdeĠ
jiÄģo ĠyÃ¬Ġ
yÇİnĠ chÃłng
an dĠĠĠ
w Ġ
ĠshÃ¬Ġ zhÅįngĠguÃ³Ġ
zuÃ¬ ĠdÃłĠ
qiÃº ĠyuÃ¡nĠ
bÃło ĠdÃłoĠ
ĠrÃ©nĠkÇĴuĠmÃ¬Ġ dÃ¹ĠwÃ¨iĠ
ĠshÃ¬Ġ lÃ¬Ġ
Ġ mÃ©iĠyÇĴuĠ
ĠĠĠ bÃ¹Ġ
yÃ³uĠ zhÃ¨ngĠ
jiÃłn ĠlÃ¬Ġ
ĠzuÃ²Ġ pÇĲnĠ
yÃ¬ngĠ yÃ²ngĠ
wÃłi ĠdeĠ
zÄ« ĠyuÃ¡nĠ
sÄģi ĠÄĽrĠ
zh ÄģnĠ
ĠqÃŃ ĠhÃ²uĠ
gÇİiĠ gÃ©Ġ
b Ãłng
Ġ wÃ©nĠ
kÄĽĠ dÃ¡Ġ
m a
mÃ² ĠxÄ«Ġ
Ġ qiÄĽĠ
ĠyÄ«Ġ yuÃłnĠ
fÄģĠ biÇİoĠ
fÄĵngĠ gÃ©Ġ
zhuÃłngĠ tÃłiĠ
ĠbÃ¬ng ĠwÃ¨iĠ
ĠĠĠ theĠĠĠ
huÃŃ ĠdÃłoĠ
sÃ¹Ġ dÃ¹Ġ
3 5
lÃ¹ ĠjÅ«nĠ
qÃ¬ ĠhÃ²uĠ
ĠwÃ¨iĠyÃºĠ fÇİĠguÃ³Ġ
mÃ¬Ġ shÅ«Ġ
ĠzhÅįngĠ gÃ²ngĠ
Ġ hÄģĠ
ĠgÅįngĠ yÃ¨Ġ
Ġ yÃ²ngĠ
diÃłnĠshÃ¬Ġ jÃ¹Ġ
ĠĠĠ K
zhÃ¹ ĠdeĠ
fÃ¨n ĠwÃ¨iĠ
jiÄĵĠr Çİng
wÇİng ĠzhÃłnĠ
k Å«nĠ
gÅįngĠ sÄ«Ġ
ĠzÃłiĠ zhÃ¨Ġ
mÃ¹Ġ biÄģoĠ
ĠdeĠdÃ¬Ġ yÄ«Ġ
tÃ³uĠ zÄ«Ġ
ku Çİn
ĠjiÇİnĠ chÄĵngĠ
hÃº ĠnÃ¡nĠ
ĠyÄ«Ġ sÄ«Ġ
ku ÃłĠ
zhÃłn ĠyÃ¬Ġ
wÃ©nĠwÃ¹ĠbÇİoĠhÃ¹Ġ dÄģnĠwÃ¨iĠ
yÃł ĠlÃ¬Ġ
ĠwÃ¨iĠ yÄ«Ġ
shÇĴuĠ cÃ¬
t Ãºn
20 ĠshÃ¬ĠjÃ¬Ġ
chÇİnĠ pÇĲnĠ
xiÇİo ĠxuÃ©Ġ
15 Ġ
zuÇĴĠ yÃ²uĠ
zÄģo Ġ
shÃ¨ng ĠlÃ¬Ġ
Ġ shÇĶĠ
Ġc ÃłiĠ
zhÃ¨nĠ qÅ«Ġ
ĠjiÃłn ĠshÃ¨Ġ
wÃ©n ĠmÃŃngĠ
ĠdeĠ fÃ¹Ġ
Ġc u
shÄĽngĠ fÃ¨nĠ
mÃ¹Ġ qiÃ¡nĠ
r Ã²uĠ
yÃŃ ĠzhÃ¬Ġ
jiÃło ĠhuÃ¬Ġ
zhÇİnĠ kÄģiĠ
yÃ¬nĠ dÃ¹
shÃŃĠ qÄ«Ġ
y Ã©
tÃ¨Ġ biÃ©Ġ
dÅįngĠ jÄ«ngĠ
tÃ¨Ġ zhÄĵngĠ
ĠÃ©r ĠshÃ¬Ġ
bÇĲĠ jiÃłoĠ
gÄģo ĠjÃŃĠ
zhÇĶn ĠbÃ¨iĠ
ĠdÃłiĠ biÇİo
bÃ¬Ġ xÅ«Ġ
n ÇĶ
kÄĵ ĠdeĠ
xuÇİnĠ shÇĴuĠ
ĠrÃ©nĠ wÃ¹Ġ
guÃ²Ġ chÃ©ngĠzhÅįngĠ
Ġ bÄĽn
hÇİo ĠdeĠ
shÃłngĠ hÇİi
Ġ yÃłoĠ
zhÃ²ngĠyÃło ĠdeĠ
Ġ fÇİĠguÃ³Ġ
diÃłnĠ ziĠ
jiÄģoĠ tÅįng
wÇİngĠ luÃ²Ġ
yÃ¨Ġ wÃ¹Ġ
gÃ²ngĠyÇĴuĠ rÃ©nĠkÇĴuĠ
ĠxiÃłnĠ dÃłiĠ
ĠyÄ«Ġ mÃŃngĠ
cÄģnĠ sÃłiĠ
xiÇİoĠxÃŃngĠ xÄ«ngĠ
b ÃłngĠ
ĠchÃ©ngĠ jÃ¬Ġ
ĠxÄ«Ġ bÄĽiĠ
kÄģiĠ fÃłngĠ
ĠhÃ©Ġ dÃ¬Ġ
x ÃºĠ
ĠjÄ«Ġ chÇİngĠ
zi ĠdeĠ
h a
Ġ qÇĲĠ
n Çİo
biÃłn ĠchÃ©ngĠ
qiÃ¡o ĠzhÃ¬Ġ
bÃłoĠ fÄģĠ
diÃłnĠshÃ¬Ġ tÃ¡iĠ
Ġh an
shÄģnĠ dÅįngĠ
jiÄĽ ĠshÃ¬Ġ
guÃ³Ġ mÃŃnĠ
ĠyÃ¬Ġ qÇĲĠ
10 0Ġ
Ġ qiÄĽ
lÃ¨iĠ sÃ¬
i g
Ġ dÃ¹Ġ
zhÃ¬Ġ zuÃ²Ġ
kÇİ ĠÄĽrĠ
xÃŃng ĠshÃ¬Ġ
dÅįu ĠyÇĴuĠ
shÄĵngĠ chÇİnĠ
zhÄ« ĠhÃ²uĠ
duÅį ĠgÃ¨Ġ
huÃ¬ ĠhÃ©Ġ
mÄĽi ĠpÃŃngĠfÄģngĠgÅįngĠlÇĲĠ
zhÃłn ĠshÃ¬Ġ
ĠĠĠ202 1ĠniÃ¡nĠ
qu ÃłnĠ
rÃ¹ ĠleĠ
ĠxiÃłĠ lÃ¬ng
rÃº ĠxiÃłĠ
ĠgÅįngĠ fÄĵnĠ
ĠshÃ¨ ĠzhÃ¬Ġ
ĠyÄ«Ġ yÃłngĠ
ĠsÄ«Ġ jÄ«Ġ
lÃ¡iĠ zÃ¬
O Ġ
zhÄĵn ĠduÃ¬Ġ
lÇĲngĠ dÇİo
jiÃ¹ ĠshÃ¬ĠzhÃ¨nĠ
4 8
f ÄĽi
Ġ mÃ²Ġ
ĠshÃŃĠ jiÄģn
Ġ V
gÄģo ĠzhÅįngĠ
ĠcÇĲ ĠhÃ²uĠ
ĠzÃłiĠ zhÅįngĠ
Ġ mÃŃng
wÃ¡ng ĠguÃ³Ġ
zÇİo ĠniÃ¡nĠ
wÃłiĠ jiÄģo
ĠĠĠ 2019ĠniÃ¡nĠ
Ã¨r ĠshÃ¬Ġ
X Ġ
Ġ shÃ¨nĠzhÃ¬Ġ
guÄ«Ġ huÃłĠ
s ÄģngĠ
Ġ mÃŃnĠ
3 6
ĠrÃ¡n ĠhÃ²uĠ
N Ġ
ch Äģ
lÃ¨iĠ sÃ¬Ġ
ÇĴ Ġ
Ġm ÃŃĠ
yuÃ¡n ĠshÃ¬Ġ
ĠlÃ¬Ġ shÇĶĠyÃºĠ
ĠyÃ¬Ġ zhÃŃ
zhÃ¹ ĠmÃŃngĠ
yÃºn ĠnÃ¡nĠ
zhÃ¡ iĠ
huÃ² ĠdÃ©
hÄĽn ĠduÅįĠ
ĠÄĽr ĠdeĠ
liÃ¡nĠ jiÄĵĠ
jiÄĽĠ juÃ©Ġ
ĠzhÃ¬Ġ zÃłoĠ
mÇİĠ lÃ¡i
ĠĠĠ 2020ĠniÃ¡nĠ
jÇĲnĠbiÄģoĠ sÃłiĠ
o v
ĠĠĠ gÅįngĠ
ĠdeĠ mÃŃngĠ
zhÃ²ng ĠdeĠ
Ġ wÇĶ
ĠsuÄ« ĠrÃ¡nĠ
ĠyÃ¬Ġ zhÃ¬Ġ
ju ÄģnĠ
zÇĴng ĠlÇĲĠ
ĠdeĠyÄ«Ġ zhÇĴngĠ
F Ġ
ĠĠĠ dÃłĠ
n Ã¨Ġ
zhÇĶĠ tÃŃĠ
Ġp ÃºĠ
x Ġ
shÄģn ĠxÄ«Ġ
rÃ©nĠkÇĴuĠshÃ¹ĠliÃłng ĠwÃ¨iĠrÃ©nĠ
Ġ w
jÃ¹ ĠjÃŃĠ
u n
jÃŃ ĠhÃ©Ġ
jiÄĵĠrÇİng ĠdeĠshÃ¬ĠzhÃ¨nĠ
ĠI NS
o s
ĠjiÃłn ĠzhÃ¬Ġ
Ġ yÃ¨Ġ
lÇļ ĠyÃ³uĠ
ĠshÃłngĠ hÇİiĠ
zhÃł iĠ
liÃ¡nĠ bÄģng
fÄģngĠ ÃłnĠ
fÄģĠ dÃ²ngĠ
Ġ chÃºĠleĠ
nÇļ ĠÃ©rĠ
ti ÃłoĠ
t ÄģnĠ
Ġs ÃłnĠ
Ġ gÃ¹
lÃ¹ ĠyÃ¬Ġ
fÄģ ĠshÃ¨Ġ
zÇĴngĠ tÇĴng
Ġ yÃŃĠgÃ¨Ġ
jÃŃ ĠshÃ¬Ġ
Ġ cÃ¬
ĠxÃŃngĠ wÃ©iĠ
sÄ« ĠhÃ©Ġ
Ġ mÃłi
4 0Ġ
ruÃ¬ ĠshÃ¬Ġ
nÃ³ngĠ yÃ¨Ġ
Ġ sÃ¬
Ġ bÃłoĠ
ĠxÄ«Ġ yÃł
ĠĠĠ201 8ĠniÃ¡nĠ
25 Ġ
juÃ© ĠdeĠ
gÃ© ĠdeĠ
Ġ cÃ¡iĠ
ĠdÃłĠ liÃłngĠ
Ġ z
wÃ¹ ĠzhÃ¬Ġ
Ġ shÃ©nĠ
Ġ200 8ĠniÃ¡nĠ
ĠjÃ¬n ĠshÃ¬Ġ
bÄģoĠ hÃ¡n
ĠdeĠshÃŃĠ hÃ²uĠ
Ġ tÃ¡iĠ
i s
shÇĲĠyÃ²ng ĠdeĠ
ÃłoĠlÃŃnĠpÇĲĠkÃ¨Ġ yÃ¹nĠdÃ²ngĠhuÃ¬Ġ
luÃ³Ġ mÇİ
duÃ¬ ĠzÃłiĠ
gÇİnĠ rÇİnĠ
Ġ fÃ¹
ĠzhÃ¬Ġ jÄ«nĠ
sÄ« ĠrÃ©nĠ
ch Äģng
24 Ġ
Ġ jiÇİĠ
jÃ¬n ĠdeĠ
chu ÃŃĠ
fÄĵi ĠxÃŃngĠ
Ġ201 3ĠniÃ¡nĠ
chu ÄģngĠ
ĠzhÄ«Ġ wÃłiĠ
k Ãło
kÄĽĠnÃ©ng ĠshÃ¬Ġ
biÇİoĠ yÇİnĠ
t ÃłoĠ
chÃ¹ ĠdeĠ
xuÇİn ĠwÃ¨iĠ
tÅįngĠ chÃ¡ng
sh ÇİngĠ
ĠĠĠ J
yÃŃ ĠshÃ¬Ġ
tÇĶ ĠÄĽr
ĠlÃ¬Ġ sÄ«Ġ
jiÃłĠ zhÃŃĠ
ĠshÃ¨Ġ shÄ«Ġ
bÃ³Ġ tÃ¨Ġ
ĠzhÃ¬Ġ 202
qÃ¬ ĠdeĠ
chuÃłng ĠlÃ¬Ġ
ĠzÃłiĠ cÇĲĠ
Ġ dÄģnĠrÃ¨nĠ
ĠgÅįngĠ nÃ©ngĠ
l ÃłngĠ
ĠzÇĴngĠ miÃłnĠjÄ«Ġ
Ġ yÃłĠ
ĠĠĠ O
ĠdÃ© ĠlÇĲĠ
p Ã¡ngĠ
Ġ duÃ¬ĠyÃºĠ
fÄĵnĠ lÃ¨iĠ
guÇİngĠ chÇİngĠ
jiÇĶ ĠniÃ¡nĠ
liÃ¡n ĠhÃ©ĠguÃ³Ġ
jÃŃ ĠshÃŃĠ
rÃ©ng ĠrÃ¡nĠ
ĠyÇĴuĠ rÃ©nĠ
gÄĵngĠ mÃŃngĠwÃ¨iĠ
ĠÃ©rĠ qiÄĽĠ
zhÃ¬ ĠshÃ¬Ġ
Ġ zÃ©
xiÃło ĠlÃ¬Ġ
ĠINS EE
ĠdeĠ lÃ¬Ġ
ĠgÄģiĠ shÄĽngĠ
ĠdeĠ yÄ«ĠbÃ¹ĠfÃ¨nĠ
a tion
bÄģ ĠniÃ¡nĠ
ĠrÃ©nĠkÇĴuĠmÃ¬ĠdÃ¹Ġ mÄĽiĠpÃŃngĠfÄģngĠgÅįngĠlÇĲĠ
ĠrÃ©nĠkÇĴuĠmÃ¬ĠdÃ¹ĠwÃ¨iĠ mÄĽi
ĠxiÃłĠlÃ¬ng ĠshÃŃĠ
yÃ³uĠzhÃ¨ngĠ biÄģnĠmÇİĠwÃ¨iĠ
Çİn ĠxÄ«Ġ
zÇĶ ĠfÃ¹Ġ
chÃ¡ĠdeĠ shÃ¹ĠjÃ¹Ġ
Ġ biÃłnĠ
shÃŃ ĠshÃ¬Ġ
cÃ³ng ĠshÃ¬Ġ
ĠshÃ¬ĠzhÃ¨nĠ biÄģnĠmÇİĠwÃ¨iĠ
ĠINSEE ĠshÃ¬ĠzhÃ¨nĠbiÄģnĠmÇİĠwÃ¨iĠ
2 ĠrÃ©nĠ
Ġ shÃ¹Ġ
mÃ² ĠsÄ«Ġ
tiÄģnĠ wÃ©nĠ
ãĢ İ
ĠzhÃ¨Ġ ge
ĠguÃ³Ġ wÃ¡ngĠ
Ġ201 6ĠniÃ¡nĠ
xuÇİnĠ qÅ«ĠwÃ¨iĠ
ĠĠĠ bÃ¨iĠ
ãĢ ı
pÃ¡i ĠmÃŃngĠ
k ÄĵngĠ
dÃł ĠbÃ¹ĠfÃ¨n
dÃ²ng ĠlÃ¬Ġ
yÄ«Ġ zhÇĴngĠ
ĠshÃ¨ ĠdeĠ
shÃŃĠdeĠ rÃ©nĠkÇĴuĠshÃ¹ĠliÃłngĠwÃ¨iĠrÃ©nĠ
gÃłiĠ niÃłnĠ
yÄ«ngĠ chÇĲĠ
Äģn ĠdeĠ
yÃ¹nĠ yÃŃngĠ
mÄĽiĠguÃ³ĠrÃ©nĠkÇĴuĠpÇĶĠ chÃ¡ĠdeĠshÃ¹ĠjÃ¹Ġ
ĠĠĠ 193
Ġ201 8ĠniÃ¡nĠ
jiÄģ ĠlÃ¬Ġ
ĠÃ©r ĠrÃ©nĠkÇĴuĠmÃ¬ĠdÃ¹ĠwÃ¨iĠmÄĽi
chÄĵĠ liÃłngĠ
ĠĠĠ201 7ĠniÃ¡nĠ
ĠdÄģngĠdÃ¬Ġ gÃ²ngĠyÇĴuĠrÃ©nĠkÇĴuĠ
ĠzÃłiĠ 199
ĠbÃ¹Ġ guÃ²
16 Ġ
zÃº ĠdeĠ
ĠjÇĲnĠ guÇİnĠ
Ġ 2019ĠniÃ¡nĠ
hÃ© ĠshÃ¬Ġ
gÃ©Ġ lÃ¡n
lÇĲng ĠyÃ¹Ġ
ĠhuÃ²Ġ jiÃ¹ĠshÃ¬ĠzhÃ¨nĠ
fÃº ĠjiÃłnĠ
shÄĽngĠjÃŃĠ xuÇİnĠqÅ«ĠwÃ¨iĠ
suÇĴĠshÇĶĠdeĠ shÄĽngĠjÃŃĠxuÇİnĠqÅ«ĠwÃ¨iĠ
d ÄģĠ
ĠĠĠ lÃ¬Ġ
jÄ« ĠjÃŃĠ
xÄ« ĠdeĠ
ĠchÅ«Ġ bÇİnĠ
ĠtÃ¨Ġ biÃ©
Ã©rĠ ziĠ
xÄ«ng ĠdeĠ
jÇĲngĠ chÃ¡Ġ
mÃłnĠ huÃłĠ
qÇĲĠ lÃ¡iĠ
tiÃ¡oĠ yuÄĵĠ
b Çİng
xuÇİn ĠrÃ©nĠ
ĠÄĽr ĠdÃ©Ġ
ĠjÅ«n ĠzÃłiĠ
biÄģoĠ zhÇĶn
t Ã¬
shÄĽng ĠhÃ©Ġ
xu ÄĵĠ
ĠchÅ«Ġ bÇİn
fÃ¨nĠwÃ¨iĠ fÇİĠguÃ³Ġ
ĠgÄģiĠshÄĽngĠ fÃ¨nĠwÃ¨iĠfÇİĠguÃ³Ġ
Ãło ĠdÃłĠlÃ¬Ġ
ĠyÃºĠ 198
mÇĲ ĠÄĽrĠ
ĠbÃ¹Ġ jiÇĶĠ
ĠzhÄ« ĠxiÃłnĠ
Ġ quÃ¨Ġ
tiÄĽ ĠdÃłoĠ
zuÃ¬Ġ hÃ²uĠyÄ«Ġ
ĠniÃ¡nĠ jiÄģnĠ
Ãłi ĠÄĽrĠ
guÇİng ĠzhÅįuĠ
ĠjÅ«nĠ duÃ¬Ġ
zh ÄĽnĠ
ĠwÃ¨iĠ shÃŃĠ
3 8
Ġ duÅį
qÃºnĠ dÇİoĠ
Ġ201 4ĠniÃ¡nĠ
Ġ gÃ¨ngĠ
pÃ¡iĠ mÃŃng
bÄĽn ĠdeĠ
dÅįng ĠxÄ«Ġ
3 7
ĠdÃ¬Ġ sÃ¬Ġ
lÃ¡i ĠyuÃ¡nĠ
9 0
ĠtÄģĠ bÃ¨iĠ
sh uÃ²
shÃ¨ ĠlÃ¬Ġ
xÄ«ng ĠjiÃłnĠ
ĠdÃ¬Ġ sÄģn
jiÄĵĠ shÃ²u
tÃ²uĠ guÃ²Ġ
a p
ĠrÃ¬ ĠdeĠ
ĠĠĠ201 6ĠniÃ¡nĠ
dÃ¬Ġ yÄ«Ġ
pÄģi ĠshÃ¨Ġ
Ġ chÄĵngĠ
mÄĽi ĠzhÅįuĠ
ĠchÅ«Ġ shÄĵngĠyÃºĠ
wÄĽi ĠhuÃ¬Ġ
Ãło ĠsÄ«Ġ
xÄ«n ĠjiÄģĠp
rÃ©ng ĠrÃ¡n
ĠĠĠ202 2ĠniÃ¡nĠ
Ġ biÄģnĠ
wÃº ĠrÃ©nĠ
h ÅįngĠ
Ġ 11
zhÃłnĠ zhÄĵng
Ġ201 5ĠniÃ¡nĠ
Ġ201 2ĠniÃ¡nĠ
zhÇĶĠ juÃ©Ġ
ĠyÃ³uĠ xÃ¬
ĠhÃ©Ġ bÃ¬ng
ĠzhÃ¬Ġ yÃºĠ
Ġt Ã²uĠ
mÇĶ ĠsÄ«Ġ
ĠrÃ©nĠ gÅįngĠ
Ġ jiÇĶĠ
yÃ¹n ĠxÃŃngĠ
ĠshÃ¬Ġ bÃ¹Ġ
nÃ¡n ĠjÃŃĠ
cÇİiĠ yÃ²ng
p Ã¡nĠ
gÃ²u Ġm
ĠmÃŃngĠ chÃ¡oĠ
ĠbÃ¹Ġ mÃŃngĠ
jiÄģĠ rÃ¹Ġ
yÃ¡nĠjiÅ«Ġ suÇĴĠ
li ÇİoĠ
mÃ©ngĠ gÇĶĠ
zuÃ²Ġ pÇĲn
ĠxiÃłnĠ lÃ¹Ġ
yÇĲ ĠjÃŃĠ
ĠhÃ©Ġ pÃŃngĠ
L Ġ
chÃ¡ nĠ
pÃ²Ġ huÃłiĠ
ĠzÃ¬Ġ jÇĲĠ
huÃł ĠshÃŃĠ
tÃ¨Ġ biÃ©
ĠjÃ¬n ĠdeĠ
shuÅįĠ fÇİĠ
xuÃ©Ġ xiÃło
z Äģi
1 ĠrÃ©nĠ
wÇĶ ĠshÃŃĠ
yÄģng Ġ
ĠjÄ«Ġ bÄĽnĠ
Ġ chÃ³ngĠ
mi ÇİoĠ
ĠrÃ¨nĠ wÃ©i
guÇİngĠ fÃłnĠ
f ÇĴu
h ÇĶĠ
Ġ zhÃłoĠ
tÃ³uĠ piÃłoĠ
mÃ³ ĠxÃŃngĠ
hu ÇİnĠ
ĠbÃ¹Ġ mÃ©nĠ
n e
ĠkÃ¨ ĠdeĠ
m Ã¨ngĠ
Ġl Ã¡oĠ
ĠdeĠdÃ¬Ġ fÄģngĠ
xÄ« ĠzÃłiĠ
jÃ¬Ġ shÃ¹Ġ
ĠjiÃłn ĠyÃ¬Ġ
ĠtÄģ ĠyÇĶĠ
yÃ¹nĠ shÅ«Ġ
ĠzÃłiĠ yÃ¬Ġ
mÄĽi ĠniÃ¡nĠ
ĠzÃłiĠ zhÅįngĠguÃ³Ġ
Ġ yÃ¬ĠwÃ¨iĠ
xuÃ© ĠshÃ¬Ġ
ĠjÃ¹Ġ lÃ¨ĠbÃ¹Ġ
rÃ¨nĠwÃ©i ĠshÃ¬Ġ
xuÄģnĠ chuÃ¡nĠ
ĠgÃ¨ ĠdÃ¬Ġ
liÃ¨ ĠwÃ¨iĠ
bÃłnĠ gÅįngĠshÃ¬Ġ
tÃ³ng ĠyÄ«Ġ
k Çİi
ĠĠĠ p
wÃłi ĠguÃ³Ġ
chÃł Ġ
Ġ 10ĠyuÃ¨Ġ
shÃłng ĠyÇĴuĠ
ĠzÇĴng ĠrÃ©nĠkÇĴuĠ
yuÃ¡n ĠwÃ¨iĠ
xuÃ©Ġ xÃŃĠ
4 5
Ġ200 7ĠniÃ¡nĠ
3 ĠrÃ©nĠ
Ġ zhÃ¨ngĠshÃ¬Ġ
ĠdeĠ xÄ«nĠ
tÃ³uĠ rÃ¹Ġ
gÅįngĠ zuÃ²Ġ
tÃłiĠ yÃ¡ngĠ
mÇİ ĠlÃ¬Ġ
nÃŃ ĠsÄ«Ġ
13 Ġ
jiÃ©Ġ gÃ²u
yÇİngĠ huÃłĠ
ĠyÄ«Ġ xiÄĵ
4 ĠrÃ©nĠ
lÃºnĠ dÅ«n
chÄĵng ĠwÃ¨iĠ
xiÄģo ĠxÄ«Ġ
ĠxiÃłn ĠrÃ©nĠ
hÇİi ĠjÅ«n
shÄ« ĠdeĠ
biÄģo ĠzhÃ¬Ġ
Ġ qÄ«ng
Ã©n Ġ
zhÃ¬ ĠwÃ¨iĠ
zhÃŃ ĠdeĠ
l Ãł
dÇİng ĠdeĠ
Çİ Ġ
xu ÄĽ
tÄģĠ menĠ
fÄģngĠ miÃłn
Ġ zhÄĵnĠ
yÃ³uĠ xÃ¬
fÃ¹ĠzÃ©Ġ guÇİnĠxiÃ¡Ġ
zhÃ¨ng ĠdeĠ
fÄĵn ĠzhÄ«Ġ
u b
jiÃ¨Ġ quÃ¡nĠguÃ³Ġ
ĠjÃ¹Ġ lÃŃĠ
ti ÄĵĠ
nÃ¡nĠ xÃ¬ngĠ
Ġ chÃ©n
f ÄĽnĠ
Ġ200 5ĠniÃ¡nĠ
Ġ jiÇİngĠ
zhÃ© ĠxuÃ©Ġ
c Ã¹
ĠwÃ©iĠ zhÇĶĠ
c Ã¡ngĠ
sÃ¬Ġ chuÄģnĠ
Ġ zhÃ²ngĠ
Ġ biÇİoĠshÃ¬Ġ
Ġ hÃ¡nĠ
ĠjÃ¬Ġ huÃł
ĠjÃ¬Ġ niÃłnĠ
Ġ lÃ³ngĠ
Ġ201 7ĠniÃ¡nĠ
Ġ yÇĴngĠ
ĠdÃłoĠ lÃ¹Ġ
ĠĠĠ201 4ĠniÃ¡nĠ
huÃ¡nĠ jÃ¬ng
m Ã¨i
bÇĲ ĠdÃ©Ġ
Ġc Ã¡ng
fÄĵnĠ biÃ©Ġ
ĠĠĠ201 5ĠniÃ¡nĠ
shÄĵngĠ wÃ¹Ġ
Ġ Î
chÃŃĠ xÃ¹
Ġ202 1ĠniÃ¡nĠ
zÃłi ĠshÃ¬Ġ
shÃ¹Ġ liÃłngĠ
gÃ²u ĠchÃ©ngĠ
Ġ shÅ«Ġ
h i
ÃłoĠ yÃ¹nĠ
chÃ¡oĠ xiÄģn
bÃ¹ ĠwÃ¨iĠ
ĠshÃ¬Ġ mÄĽiĠguÃ³Ġ
hu ÇĲ
n Ä«Ġ
ĠzÃłiĠ 19
pÃ©ng ĠyÇĴuĠ
qiÃłn Ġ
ĠzhÄ«Ġ chÃŃ
ĠĠĠ yÇĲĠ
liÃ¨ ĠdeĠ
ĠjÃŃĠ qÃŃĠ
ĠbÃ¨iĠ ÄĽrĠ
kÃłng ĠyÃ¬Ġ
Ġ sÃ²ngĠ
iÃ¡n Ġ
yuÄĵ ĠwÃ¨iĠ
ĠgÅįngĠ gÃ²ngĠ
xuÇİnĠ zÃ©
tÃłi ĠguÃ³Ġ
Çİo ĠzhÃłnĠ
ĠzÃłiĠ bÃ¹Ġ
w ÅįĠ
ĠĠĠ yÇĴuĠ
qÄ«Ġ jiÄģn
jiÄĵ ĠwÃ¨iĠ
xuÇİnĠ qÅ«Ġ
huÃ¬ ĠyÇĴuĠ
shÅįuĠ rÃ¹Ġ
n Ã¬Ġ
yÇİn ĠdeĠ
xiÃłoĠ zhÇİngĠ
yÃ¬ ĠhÃ©Ġ
wÃ©n ĠjiÃłnĠ
ĠĠĠ201 3ĠniÃ¡nĠ
k ÇİnĠ
Ġ wÃłnĠ
xiÄģngĠ duÃ¬Ġ
U Ġ
Äģo ĠzuÃ²Ġ
c ÃłiĠ
u r
Ġ qÃ¬Ġ
Ġ xiÄģnĠ
rÃ³ng ĠyÃ¬Ġ
gu ÄģĠ
di Ã©
biÄģo ĠwÃ¨iĠ
cÄģnĠ yÃ¹
zhÃ¨ngĠ cÃ¨Ġ
ĠĠĠ of
ĠzÃłiĠ mÄĽiĠguÃ³Ġ
yÇĶĠ yÃ¡nĠ
lÃ¡iĠ shuÅįĠ
Ġ jÃ¬ngĠ
ĠĠĠ chÄĵĠzhÃłnĠ
jiÃłoĠ tÃ¡ngĠ
jiÄĵĠr ÇİngĠ
biÄģn ĠjÃŃĠ
tu Ã³Ġ
jiÃ©Ġ mÃ¹
yÃŃnĠ hÃ¡ng
ĠĠĠ shÃŃĠ
Ġ gÃ¨ng
sÄ« ĠdÃ¬Ġ
gÇİiĠ biÃłnĠ
Ġ xiÄģoĠ
jÅ«n ĠduÃ¬Ġ
ku Ãł
wÇĶĠ qÃ¬Ġ
jiÄĽĠfÃłng ĠjÅ«nĠ
a d
ĠĠĠ b
ti ÇİoĠzhÃłnĠ
tÇĲ ng
ĠzhÃ¬Ġ dÃ¹Ġ
ĠyuÃ¡nĠ zhÃ¹Ġ
ĠchÅ«Ġ leĠ
ĠhuÃ² ĠshÃ¬Ġ
tÃ³ng ĠdeĠ
quÃ¡n ĠdeĠ
gÄĵĠ qÇĶ
ĠyÄ«Ġ zhÇĴngĠ
shÃ²u ĠyÇĶĠ
ĠzhÅįngĠ yÇĴuĠ
a g
Ġ kÄģiĠshÇĲĠ
Ġ dÇİĠ
Ġ wÅ«Ġ
ĠĠĠ V
gÇİn ĠdÃłoĠ
ĠyÇĲĠ shÃłngĠ
Ġ zhÄģng
Ġ 2020ĠniÃ¡nĠ
ÃłoĠ yÃ¹n
ĠyÃ²uĠ chÄĵngĠ
ĠzhÃłnĠ zhÄĵng
tiÄģnĠ zhÇĶĠjiÃłoĠ
Ġl ÄĽi
ch Ä«Ġ
ĠdÃ¬Ġ xiÃłĠ
Ãłn ĠjiÃłnĠ
ĠshÃ¬Ġ yÃŃĠgÃ¨
ĠshÄĵngĠ wÃ¹Ġ
xÄ«ĠbÄģnĠ yÃ¡Ġ
Ġ rÃłng
pÃ¨i ĠhÃ©Ġ
wÄĽnĠ dÃ¬ngĠ
ĠĠĠ tÄģ
f Ã¡n
ĠĠĠ hÃ©Ġ
Ġ rÃ¨n
jiÄģ ĠrÃ©nĠ
Ġ yÇĶ
l ÄĽngĠ
hÃło ĠwÃ¨iĠ
gÄģo ĠyÃºĠ
zhÃ¨Ġ zhÇĴngĠ
jÃ¬ ĠzhÅįngĠ
tÃŃ ĠmÃŃngĠ
dÃ¡ ĠchÃ©ngĠ
xiÇİo ĠdeĠ
cÃ¨ ĠdeĠ
jiÇİnĠ jiÃ¨Ġ
c ÄģoĠ
Ġ hÃ²u
shÄĵnĠ fÃ¨n
tÃŃngĠ zhÇĲĠ
shÃŃ ĠzÃłiĠ
dÃ¬ ĠshÃ¬Ġ
ĠÃ©rĠ qiÄĽ
m Ã³uĠ
wÃłn ĠlÃ¬Ġ
duÃ³ ĠdeĠ
biÇİo ĠmÃŃngĠ
ĠzhÅįngĠguÃ³Ġ rÃ©nĠmÃŃnĠ
Ġ fÄĵi
pÃºĠ tÃ¡oĠ
juÃ©Ġ sÃ¨
zÃło ĠdeĠ
ĠjÄ«Ġ bÃłiĠ
ĠĠĠ202 3ĠniÃ¡nĠ
Â °
Ġ200 6ĠniÃ¡nĠ
chÅįngĠ tÅ«Ġ
ĠÃ©rĠrÃ©nĠkÇĴuĠmÃ¬ĠdÃ¹ĠwÃ¨iĠmÄĽi ĠpÃŃngĠfÄģngĠqiÄģnĠmÇĲĠ
4 6
bÃłnĠ dÇİoĠ
zhÃ¨ng ĠshÃŃĠ
22 Ġ
ĠwÃ¨iĠ fÃº
s ÃºĠ
in d
ĠdÃ¬Ġ tiÄĽĠ
qiÃ¡nĠ wÇİng
cÃ©ngĠ jÄ«ngĠ
lÃ¨i ĠdeĠ
ï ½
Ġ dÃŃĠ
i ng
in Ġ
ĠniÃ¡nĠ dÃ¹Ġ
ĠjiÄģĠ nÃ¡ĠdÃłĠ
ĠzÃłiĠ dÃłĠ
ĠpÃŃngĠfÄģngĠ mÇĲĠ
Ġ gÇĶ
ĠĠĠ yuÃ¡nĠ
zÃ¬ĠzhÃ¬Ġ qÅ«Ġ
p Ã¬
g ÇİoĠ
Ġ 8ĠyuÃ¨Ġ
lÄģ ĠkÃ¨Ġ
liÃ¡nĠ xÃ¹Ġ
duÅįĠ cÃ¬Ġ
hÃ¹n ĠhÃ©Ġ
ĠdeĠ guÄģnĠ
xiÇİoĠ zÇĶĠ
jÇĶ ĠrÃ©nĠ
jiÇİnĠ chÃ¡Ġ
ĠĠĠ zÃ¬Ġ
zuÃ¬Ġ zÇİo
tuÃ¡n ĠduÃ¬Ġ
pÃŃngĠ jiÃłĠ
gÃ²ng ĠtÃ³ng
xÄ«n ĠlÇĲĠ
14 Ġ
yÇĲngĠ piÃłnĠ
mÃ©iĠ tÇĲ
kÄĽĠnÃ©ng ĠhuÃ¬Ġ
shÄĵngĠ chÇİn
bÇİoĠ hÃ¹
c ÄģngĠ
12 ĠniÃ¡nĠ
yÄģ ĠlÃ¬Ġ
jÄ«ngĠ yÃŃngĠ
bÇĲĠ yÃłĠ
ĠshÃ¬Ġ tÃºĠ
jÃ¬ ĠwÃ¨iĠ
ĠÃ©r ĠbÃ¨iĠ
jÃ¬Ġ huÃłĠ
ĠjÃ¬Ġ chÃ©ngĠ
gÃ²ng ĠxiÃłnĠ
cÃ©ng ĠzÃłiĠ
l ÇİnĠ
Ġ guÄģngĠ
ĠshÃŃĠ shÄ«Ġ
Ġ luÃ²Ġ
d ÄģoĠ
Ġ liÃº
Ġ hÃ¡iĠyÇĴuĠ
zh ÄĽn
Äģn ĠdÃ©Ġ
lÃ¬ ĠbÃ¹Ġ
Ġ tÃ¡iĠwÄģn
23 Ġ
fÃºĠ wÃ¹
jiÇİnĠ shÇİoĠ
201 6ĠniÃ¡nĠ
chÇİnĠ yÃ¨Ġ
dÃł ĠbÃ¹ĠfÃ¨nĠ
xiÄģngĠ tÃ³ngĠ
xÃŃngĠ dÃ²ngĠ
fÄģn ĠyÃ¬Ġ
s ÃłnĠ
ĠhÃ©Ġ liÃºĠ
9 ĠrÃ©nĠ
ĠchÅ«Ġ rÃ¨nĠ
ĠwÃ©iĠ ÄĽrĠ
guÄ«Ġ mÃ³
202 2ĠniÃ¡nĠ
jÃ¬Ġ niÃłnĠ
am pĠ
5 ĠrÃ©nĠ
K Ġ
a b
shÇĴu ĠdeĠ
jiÄģĠ nÃ¡ĠdÃłĠ
bÇĲĠsÃłi ĠzhÅįngĠ
fÃº ĠhÃ©Ġ
Ġ shÇĲĠyÃ²ngĠ
zhÇĲĠ huÄ«
shÇİoĠ shÃ¹Ġ
chÃ³ng ĠjiÃłnĠ
ĠjiÃłnĠ zhÃ¹
lÃºnĠ dÅ«nĠ
Ġ lÃ¡nĠ
Ġ tÅįngĠguÃ²Ġ
bÃłn ĠshÃ¬Ġ
n ÇĶĠ
w ÄģĠ
ĠĠĠ 3
sÄ« ĠzÃłiĠ
h ÇİnĠ
v er
dÃ²ng ĠdeĠ
Y ou
Ġ suÇĴĠyÇĴuĠ
xÃŃng ĠwÃ©iĠ
kÅįng ĠjÅ«nĠ
bÃłn ĠgÅįngĠ
ĠwÃ¨iĠ nÃ©ngĠ
ĠshÃŃĠ fÄĵnĠ
m Ã¨ng
a k
shÄĵn ĠdeĠ
ĠzhÃ¬Ġ zuÃ²
ĠhÃ©Ġ bÄĽiĠ
ĠzÃ¬Ġ yÃ³uĠ
cu Ä«Ġ
00 ĠniÃ¡nĠ
Åįu ĠyuÃ¡nĠ
ĠxiÃłn ĠwÃ¨iĠ
4 7
ou n
Ġ tÃºĠ
A T
gÅįngĠ yuÃ¡nĠ
wÄĽiĠyuÃ¡nĠ huÃ¬
zhÅįng ĠzÃłiĠ
ĠyÃ¬Ġ yÇĴuĠ
r Ã²u
ĠĠĠ s
xiÃłn ĠdÃłiĠ
18 Ġ
ĠyÇĲĠ sÃ¨Ġ
fÃ¨nĠ zÇĲĠ
Ġ zÃ¬
ĠshÃ¬ĠyÄ«Ġ mÃŃngĠ
yÃ¬ng ĠdeĠ
ĠxÄ«Ġ wÃłngĠ
guÃ²Ġ qÃ¹Ġ
wÄĵi ĠÄĽrĠ
yÃ²ngĠ lÃ¡iĠ
zhÇİn ĠshÃ¬Ġ
ĠjÃ¬Ġ xÃ¹
mÃ¬ngĠ mÃŃngĠwÃ¨iĠ
ĠgÅįngĠ sÄ«ĠdeĠ
Ġ fÇİnĠ
dÃ²ng ĠjÄ«Ġ
dÇİ ĠjÄ«Ġ
ĠyÄ«Ġ cÃ¬Ġ
xiÃłngĠ mÃ¹
ĠdeĠdÃ¬Ġ qÅ«Ġ
ĠyÃ²u ĠmÃŃngĠ
ĠsÄ«Ġ lÃ¬ng
xÃºnĠ huÃŃĠ
gÄģoĠ sÃ¹
xiÃłĠ wÇĶĠ
qÇĲĠ yÃ²ngĠ
k ÄģĠ
f Ã©ngĠ
ĠlÃ¬Ġ rÃº
Ġp ÅįĠ
Ġ nÃŃĠ
Ġc ÄģngĠ
bÃ¹ ĠshÃ¬Ġ
shÇĴu ĠwÃ¨iĠ
Ġ qiÄģnĠ
wÃłiĠ jiÄģoĠ
jiÄĵ ĠjÃ¬nĠ
ĠshÃ¨Ġ qÅ«Ġ
rÃ¨nĠ wÃ¹Ġ
lÃ¹ĠdÃ¬Ġ miÃłnĠjÄ«ĠwÃ¨iĠ
ĠshÃŃĠ yÃłn
ĠdeĠ shÇĴuĠ
shuÇĲĠyÃ¹Ġ miÃłnĠjÄ«ĠwÃ¨iĠ
Ġ bÄĽi
Ġ18 9
sh uÃ¬
liÇİng ĠgÃ¨
lÃ¨i ĠxÃŃngĠ
ĠguÃ³Ġ lÃ¬Ġ
tÇĲĠ xÃ¬Ġ
Ġ ÃłnĠ
ĠshÃ¬Ġ yÇĲĠ
Ġ qÅ«Ġ
ĠshÃŃĠ zÃ¬Ġ
hÇİiĠ yÃ¹Ġ
mÃ¹ ĠsÄ«Ġ
yÄ«ngĠ gÃ©ĠlÃ¡nĠ
diÃłn ĠlÃ¬Ġ
fÇİĠ lÇľ
Ġ lÃŃn
ĠliÇİng ĠrÃ©nĠ
jÇĶ ĠxÃŃngĠdeĠ
ĠzÃłiĠ yÃºĠ
ĠtÇĲĠ zhÇİngĠ
jiÃ©ĠshÃ¹ ĠhÃ²uĠ
zhÃ¹Ġ zuÃ²Ġ
nÃ©ngĠ gÃ²u
ĠshÇĲ ĠdeĠ
ĠdÃłĠ shÇĲĠ
shÄĵngĠ huÃ³
ï½ ŀ
l Ã¡o
xuÃ©Ġ zhÄĽĠ
zuÃ²Ġ jiÄģĠ
chÃ¡ngĠ qÄ«Ġ
guÃ³ ĠzÃłiĠ
ĠshÃ¨ ĠbÃ¨iĠ
zhÃ¹ ĠyÃ¬Ġ
Ġ duÃ¬
guÄģnĠ zhÃ²ngĠ
Ġ ampĠ
Ġm Ã¨ngĠ
dÃ© ĠdÃłoĠ
Ġ huÃłĠ
Ġ yÃ¹
zhÃ¬ ĠhÃ©Ġ
xiÃłng ĠshÃ¬Ġ
ĠdÄģngĠzhÅįngĠ lÃ¹ĠdÃ¬ĠmiÃłnĠjÄ«ĠwÃ¨iĠ
zhu Ã³
ĠÃ©rĠ shuÇĲĠyÃ¹ĠmiÃłnĠjÄ«ĠwÃ¨iĠ
ĠĠĠ201 2ĠniÃ¡nĠ
Ġ fÃłnĠ
ĠcÃ³ng ĠÃ©rĠ
jiÃłoĠ qÅ«Ġ
zÇĶĠ chÃ©ngĠdeĠ
qÇĶĠ xiÄģoĠ
wÄĵiĠ liÃ¡nĠ
Ġ 21Ġ
lÃ¬ngĠ wÃłiĠ
ĠsÄ«Ġ lÃ¬ngĠ
shuÇĲ ĠpÃŃngĠ
ĠlÃ¬Ġ jÃŃĠ
Ãłi ĠdeĠ
ĠzhÄ« ĠshÃŃĠ
ĠĠĠ xÄ«Ġ
fÄĵngĠ bÃłoĠ
ĠT heĠĠĠ
6 0Ġ
jÃŃ ĠzÃłiĠ
x Ãº
ĠlÃ¬Ġ fÇİĠ
ĠchÃ©ngĠlÃ¬Ġ yÃºĠ
Ġ 9ĠyuÃ¨Ġ
lÇļ ĠkÃ¨Ġ
3 3
ĠzhÇĲ ĠyÇĴuĠ
kuÃłiĠ sÃ¹Ġ
pÄ«Ġ zhÇĶnĠ
G Ġ
Ġ rÃłngĠ
liÃ¡nĠ xÃ¬Ġ
bÃ¬Ġ xÅ«
hÃło ĠdeĠ
ĠdÃłĠ chÃ©nĠ
diÇİn ĠdeĠ
diÃłnĠ tÃ¡iĠ
ĠĠĠxÃŃngĠzhÃ¨ngĠ qÅ«ĠhuÃłĠ
ĠjiÄģĠ shÃłngĠ
xÃ¬nĠ hÃłoĠ
mÃŃn ĠdeĠ
ĠdÃ© ĠdeĠ
cÄģnĠ jiÄģ
yuÃłnĠ zhÇİngĠ
jÇĲ ĠyÇĶĠ
ĠyÇĲĠ hÃ²uĠ
dÃłi ĠyÇĴuĠ
ĠjÅ«n ĠwÃ¨iĠ
rÃ¨nĠ mÃ¬ng
Äĵng ĠlÃ¬Ġ
wÄĽiĠ shÅ«ĠjÃ¬Ġ
Ġ Ã¨r
nÃ¨iĠ rÃ³ng
zÇĴngĠ dÅ«Ġ
chu ÃłnĠ
c eĠ
rÃº ĠhÃ©Ġ
shÃ²uĠ shÄģngĠ
dÇİo ĠyÇĶĠ
zhÃ¨Ġ ge
bÇİoĠ chÃŃĠ
Ġ dÅįuĠ
ĠyÃ¬Ġ rÃ©nĠ
suÃŃ ĠhÃ²uĠ
fÃ³Ġ jiÃłoĠ
ĠyuÃ¡nĠ yÄ«nĠ
e sĠ
ĠwÃ¨iĠfÃº ĠqÃŃĠyÃºĠ
gu ÃłĠ
ĠĠĠ gÃłiĠ
g Ġ
ĠzhÃŃ ĠzhÃ¬Ġ
cÃ¬ĠshÃ¬ĠjiÃ¨ĠdÃłĠ zhÃłnĠ
Ġ 7ĠyuÃ¨Ġ
Äģi ĠjÃŃĠ
18 ĠniÃ¡nĠ
hu ÄģngĠ
yÃł ĠdeĠ
xÃ¬ng ĠzhÃ¬Ġ
ĠjÄ«Ġ dÅ«Ġ
yÇİnĠchÃłng ĠhuÃ¬Ġ
fÄģ ĠchÅ«Ġ
ĠzhÃ¨Ġ jiÄģngĠ
Ġ202 2ĠniÃ¡nĠ
Ġ fÃ¨iĠ
ĠshÃ¬Ġ yÄ«ĠwÃ¨iĠ
ĠxÄ«nĠ wÃ©nĠ
Ġ bÃ¨i
tuÃ¬ ĠyÃ¬Ġ
Ġ dÄĽng
xÄ«Ġ yÃ¡ngĠ
ĠshÃ¬Ġ qÅ«Ġ
jiÄģ ĠhÃ©Ġ
Ġ zhuÄģnĠ
jÄ« ĠzhÃ¬Ġ
bÃ¬Ġ yÃ¨ĠyÃºĠ
zhÃ¹Ġ mÃŃngĠdeĠ
ĠjiÃłn ĠchÃ©ngĠ
ã ĥ
Ġ xÃ¬ngĠ
z Ã²u
Ġ dÅįng
wÃ¨iĠ zhÃ¬Ġ
ĠmÃŃngĠ chÄĵngĠ
rÃ¹Ġ kÇĴuĠ
pÇĶĠ tÅįngĠ
Ġ formulaĠ
ĠĠĠ yÃ¬Ġ
10 ĠniÃ¡nĠ
ĠtÇĲĠzhÇİngĠ kÄĽĠdÃ¡Ġ
hÃ¡iĠ ziĠ
fÅ« ĠrÃ©nĠ
chÄģ ĠyÃ¬Ġ
zhuÄģn ĠjiÄģĠ
b Ãł
ĠdeĠyÄ«Ġ zuÃ²Ġ
ĠfÃ¹Ġ jÃ¬nĠ
fÄģĠ diÃłnĠ
Ġ xÄ«
Ġl ÇİnĠ
Ġ 12ĠyuÃ¨Ġ
ĠrÃºĠ guÇĴ
Ġ mÃŃnĠguÃ³Ġ
dÇĲĠ dÃ¡Ġ
Ġ shÄģngĠ
wÃ©nĠ zhÄģngĠ
wÇİngĠ lÃ¹Ġ
Ġ bÅį
Ġ tÃ³uĠ
zhÃ¬ ĠzÃłiĠ
l o
fÇİ ĠdeĠ
ĠbÃ¹Ġ lÇĲĠ
ĠyÇĲĠ xiÃł
xiÄģngĠ dÄģngĠ
cÅ«nĠ zhuÄģngĠ
ĠkÃ¨ ĠlÇĲĠ
rÃ¹Ġ qÄ«nĠ
Ġ 11ĠyuÃ¨Ġ
yÇĶ ĠzhÅįngĠ
zhÃłn ĠzhÅįngĠ
lÃ¡i ĠdÃłoĠ
yÄĽ ĠzÃłiĠ
ĠxuÃ©Ġ xiÃło
yÃ¡nĠ gÃ©Ġ
6 ĠrÃ©nĠ
chÃ¡ i
en Ġ
ĠzhÄ« ĠzhÅįngĠ
ĠĠĠ202 4ĠniÃ¡nĠ
ĠjiÃłnĠ duÃ¬Ġ
zhÃ¨Ġ xiÄĵ
Ġ pÃŃng
Ġ wÃ¡ng
zhÃŃ ĠwÃ¨iĠ
wÃłn ĠyuÃ¡nĠ
25 ĠniÃ¡nĠ
ĠshÃŃĠ rÃ¨nĠ
fÄģĠ shÄĵng
tÃ³ng ĠyÃ¬Ġ
ĠyÄ«Ġ shÄĵngĠ
gu ÃłiĠ
sÃ¬ ĠgÃ¨Ġ
al Ġ
guÇİngĠ bÅį
ĠÄĽr ĠhÃ©Ġ
dÇİo ĠshÃ¬Ġ
hÄģ ĠÄĽrĠ
qÃ¬Ġ chÄĵĠ
tÃłiĠpÃŃngĠ yÃ¡ngĠ
yÃ¬ ĠzÃłiĠ
ĠjÄ«Ġ gÃ²u
tÃŃĠ gÄģoĠ
8 ĠrÃ©nĠ
chÃ©ngĠ gÅįngĠ
ĠyÃ¬Ġ shÃ¹
mÃŃngĠ chÄĵngĠ
xiÄģoĠ shÃ²uĠ
ch ÅįuĠ
mÃŃng ĠshÃ¬Ġ
gÃ²ngĠchÇİnĠ dÇİng
chÅ«Ġ bÇİnĠ
201 2ĠniÃ¡nĠ
le ĠdÃłĠ
ĠdÃ© ĠyÇĲĠ
ĠshÄĵngĠ chÇİnĠ
r ÇİoĠ
shÄĵng ĠwÃ¨iĠ
ĠdeĠshÃŃĠ qÅ«ĠwÃ¨iĠ
28 ĠniÃ¡nĠ
xÄ«ngĠ qÄ«Ġ
ĠdeĠ qiÃ¡nĠ
ĠrÃ©nĠ lÃ¨iĠ
ĠzhÃ¨ngĠ cÃ¨Ġ
gÃ¨ng ĠjiÄģĠ
Ġ ruÃ²Ġ
xiÇİoĠ shuÅį
shÃ© Ġ
200 8ĠniÃ¡nĠ
Ġ hÃ¡i
ind ow
jÃºĠ zhÇİngĠ
ĠdeĠshÃŃĠ jiÄģnĠ
y Ã¡o
ĠĠĠ zhÃ¬Ġ
ĠshÃ¬Ġ yÇĴuĠ
yuÃ¨Ġ tÃ¡iĠ
ĠyÃºĠ 197
ĠÄĽrĠ tÃ¨Ġ
jiÃłoĠ wÃ©iĠ
zhÃ¨Ġ jiÄģngĠ
duÅį ĠniÃ¡nĠ
zhÇĲ ĠzÃłiĠ
guÇİng ĠxÄ«Ġ
quÃ¨Ġ dÃ¬ngĠ
e dĠĠĠ
qÄ«Ġ zÇĲĠ
mÃ©ngĠ gÇĶ
kuÃ² ĠdÃłĠ
ĠshÃłngĠ hÇİi
5 5
yÇĶ ĠhÃ©Ġ
zhÃ¹ ĠyÃºĠ
dÄĵng ĠlÃ¹Ġ
ĠshÃŃĠ xiÃłnĠ
jiÃ©Ġ hÅ«nĠ
Ġhan sĠ
yÃ¬ ĠzhÅįngĠ
ni Ãº
rÃ³ng ĠyÃ¹Ġ
Ġt wĠ
ĠwÃ¨iĠ shÄĵngĠ
guÄģnĠ zhÃ¹Ġ
c Ã¡nĠ
zhÃ²ng ĠdÃłĠ
dÃ²ngĠ zuÃ²Ġ
Äģi ĠÄĽrĠ
r an
chÃº n
yuÃ¨ ĠshÃŃĠ
Ġ yÃ¬nĠdÃ¹Ġ
yÃ¨ ĠhÃ²uĠ
chÃ¨Ġ xiÄģoĠ
ĠjÇĲnĠ guÇİn
ĠbÃ¬ngĠ mÃ©iĠyÇĴuĠ
bi ÇİnĠ
zuÃ¬ ĠchÅ«Ġ
ĠpÃŃngĠ tÃ¡iĠ
ĠĠĠniÃ¡n Ġ
shÃ¹Ġ xuÃ©Ġ
jÃ¬n ĠxÃŃng
chÅ«Ġ bÇİn
ĠĠĠdeĠ shÃŃĠ
bÄģ ĠxÄ«Ġ
zhÇĶĠ chÃŃĠ
yÃŃĠ dÃ²ngĠ
Ġ quÃ¨
cÄģnĠ kÇİoĠ
lÃŃn ĠdeĠ
wÇİn ĠshÃłngĠ
ĠbÃ¹Ġ kÄĽĠ
wÃ¹Ġ zhÇĴng
yuÃłn ĠdeĠ
yÃłĠlÃ¬Ġ shÄģn
ĠsÄ«Ġ tÇİnĠ
shÄ«Ġ fÃłn
ĠshÃ¬Ġ yÇİnĠ
ĠhuÃ²Ġ zhÄĽĠ
ĠguÃ³Ġ wÃ¹Ġ
r Çİn
Ġ sÃłĠ
ĠzhÄ« ĠyuÃ¡nĠ
shÃ¹Ġ zÃ¬Ġ
wÃ©nĠ zÃ¬Ġ
Ġ ÄģĠÄĽrĠ
ï¼ ı
ĠgÅįngĠ yÃ¨
ĠjiÄģĠ tÃŃngĠ
fÃ¹ ĠdeĠ
xÅ« ĠqiÃºĠ
fÇİnĠ huÃŃĠ
e b
Ġ mÃłiĠ
yÄĽ ĠbÃ¨iĠ
mÃŃng ĠyÃ¬Ġ
xuÃ© ĠhÃ©Ġ
ĠjÄ«Ġ hÅ«Ġ
dÇĴng ĠshÃ¬Ġ
biÇİo ĠxiÃłn
Ġc uÃ¬Ġ
rÃºĠ cÇĲĠ
fÄģĠxiÃłnĠ leĠ
17 Ġ
kÃłn ĠdÃłoĠ
mÇĶĠ qÄ«nĠ
sÅ«Ġ liÃ¡n
Ġ chÃ¡ng
19 ĠniÃ¡nĠ
202 1ĠniÃ¡nĠ
hÃ©ngĠ xÄ«ngĠ
ĠcÇĲ ĠshÃŃĠ
24 ĠniÃ¡nĠ
hÃº nĠ
ĠbÃ¬ng ĠyÇĲĠ
tÃ¡iĠ bÄĽiĠ
gÇİiĠ biÄģn
zhÃłn ĠdÃ¬Ġ
xiÅįngĠ yÃ¡
ĠzÃłiĠ 18
huÃ¡Ġ mÃŃnĠguÃ³Ġ
ĠmÃ¹Ġ qiÃ¡n
n Çİi
ĠĠĠ suÇĴĠshÇĶĠdeĠshÄĽngĠjÃŃĠxuÇİnĠqÅ«ĠwÃ¨iĠ
zÇĴng ĠbÃ¹Ġ
or Ġ
ĠĠĠdeĠ yÃ³uĠzhÃ¨ngĠbiÄģnĠmÇİĠwÃ¨iĠ
ĠĠĠyÇĶĠ jiÄĵĠrÇİngĠdeĠshÃ¬ĠzhÃ¨nĠ
ĠĠĠyÃºĠ shÃŃĠdeĠrÃ©nĠkÇĴuĠshÃ¹ĠliÃłngĠwÃ¨iĠrÃ©nĠ
ĠĠĠdeĠshÃŃĠ qÅ«ĠwÃ¨iĠ
ĠĠĠ t
zhuÄģng ĠzhÃ¬Ġ
shuÃ² ĠshÃ¬Ġ
Ġ 6ĠyuÃ¨Ġ
ti c
ĠrÃ©nĠ menĠ
7 ĠrÃ©nĠ
Ġ Ñ
bÄģĠ lÃŃĠ
jÃ¬ ĠhÃ©Ġ
ĠxuÃ©Ġ xÃŃĠ
Ġ kuÄģnĠ
tÃº ĠzhÅįngĠ
e m
ĠzhÄ«Ġ mÃŃngĠ
ĠĠĠ 2010ĠniÃ¡nĠ
wÃ©i ĠdeĠ
ĠsÄ«Ġ lÄģĠ
zÃ¬Ġ dÃ²ngĠ
ĠzuÃ²Ġ yÃ²ngĠ
shÃŃ ĠwÃ¨iĠ
tÃ¡i ĠdeĠ
Ġ zÇĶĠ
fÃ¹Ġ qÄ«nĠ
guÇİnĠ lÇĲ
fÄģ ĠdeĠ
z Ã¨ngĠ
ĠcÃ©ng ĠrÃ¨nĠ
jÃ¬n ĠshÃ¬Ġ
kÄģiĠ fÃłng
mÃŃnĠ zhÃ²ngĠ
chu Ã¡ngĠ
ĠyÄ«Ġ dÃłiĠ
ĠjÄ«ngĠ guÃ²Ġ
hÃ ³u
ĠĠĠ zh
ĠchÅ« ĠxiÃłnĠzÃłiĠ
Ġ gÇİi
ĠĠĠ jÄ«Ġ
li ÇĶĠ
ĠrÃ©nĠ shÃ¹Ġ
zÄ«Ġ xÃ¹nĠ
xiÅįngĠyÃ¡ ĠlÃ¬Ġ
Ġ qiÃ¡ngĠ
ĠdÃłn ĠtÄģĠ
ĠdÃ¬Ġ qiÃºĠ
7 5
Ġt ÇİoĠ
jiÇİngĠ xiÃłngĠ
201 8ĠniÃ¡nĠ
suÄ« ĠrÃ¡nĠ
tÃŃ ĠshÄĵngĠ
fÄĵi ĠjiÃłnĠzhÃ¬Ġ
14 ĠniÃ¡nĠ
chÃłngĠ piÃłnĠ
niÇĶĠ yuÄĵĠ
sh ÇİnĠ
mÇĲ n
Ġh kĠ
xÃ¬Ġ jÃ¹Ġ
Ġp Äģi
jiÃło ĠdeĠ
ĠgÃ¨Ġ zhÇĴngĠ
Ġ 5ĠyuÃ¨Ġ
ĠbÃ¬ng ĠlÃ¬Ġ
tuÄ«Ġ dÃ²ngĠ
ĠchÃ©ngĠwÃ©iĠ leĠ
zhuÃłngĠ kuÃłngĠ
e a
Ġ yÇİnĠ
ĠhÃ©Ġ bÃ¬ngĠ
ĠyÃ¬Ġ yuÃłnĠ
ĠjÃ¬Ġ zÇİiĠ
Ġp Ã¡nĠ
ĠĠĠ201 1ĠniÃ¡nĠ
xÃ¹nĠ sÃ¹Ġ
fÄģ ĠxÃŃng
ĠjÃŃĠ qÃŃ
gÄģoĠ dÃ¹Ġ
tÃ¨ ĠlÇĲĠ
kÃłng ĠrÃ¬Ġ
ĠwÃ¨iĠ hÃ©Ġ
lu Ãłn
ĠhÃ©Ġ xÄ«nĠ
jÄ«ngĠ shÃ©nĠ
wÄĵiĠ xiÃ©Ġ
xu Ã¨
rÃ¹ nĠ
shÅįu ĠlÃ¹Ġ
guÃ²Ġ qÃ¹
wÃ¡ng ĠdeĠ
27 ĠniÃ¡nĠ
Ġ lÃŃngĠ
lÃ¡n ĠkÃ¨Ġ
ĠshÃ¬Ġ zhÇĲĠ
y ÄĵĠ
cÃ¡i ĠzhÃ¨ngĠ
suÃ¬ ĠdÃłoĠ
ĠcÃ¹ nĠ
zhÃ²u Ġ
ĠniÃ¡nĠ qÄ«ng
sÃł ĠkÃ¨Ġ
21 ĠniÃ¡nĠ
liÇİng ĠrÃ©nĠ
ĠzhÄ«Ġ hÃ²u
Ġ chÄĵĠ
lÃ¹ ĠjÅ«n
jÃ¬n ĠgÅįngĠ
3 4
qÇĲ ĠyÃ¬Ġ
Ġ pÃŃĠ
jÃ¹ ĠdeĠ
ĠtÅįngĠ chÃ¡ngĠ
lÇľ ĠwÃ¨iĠ
201 4ĠniÃ¡nĠ
o t
le ĠtÄģĠ
ĠshÃ¬Ġ jÃŃĠ
zÄĵngĠ zhÇİngĠ
ĠĠĠ zhÅįngĠguÃ³Ġ
de r
jÄ«ngĠ chÃ¡ngĠ
fÄĵiĠjiÃłnĠzhÃ¬Ġ dÃ¬ĠqÅ«Ġ
sÃłi ĠdeĠ
xÃ¬ĠtÇĴng ĠdeĠ
jiÄģng ĠxÄ«Ġ
Ãło ĠdÃ¬ĠlÃ¬Ġ
shÇĴuĠ dÅ«Ġ
b er
dÅįu ĠhuÃ¬Ġ
ĠyÄĽ ĠyÇĴuĠ
zh Äģ
zhÃ ³uĠ
Ġ cÃŃĠ
zhÃ²ngĠ diÇİnĠ
zhÃłnĠ dÃ²u
Ġ kÄĵ
tÃłiĠ yÃ¡ng
Ġ jÇĲn
Ġ chÄĵĠzhÃłnĠ
hÇİi ĠdÃłoĠ
liÇİng ĠniÃ¡nĠ
ĠshÃ¬Ġ rÃ©nĠ
ĠwÃ©iĠ qÃŃĠ
yÃŃngĠ yÃ¹nĠ
d ÇĶĠ
jiÃ© ĠkÃ¨Ġ
Ġ guÄ«Ġ
qu ÇİnĠ
15 ĠniÃ¡nĠ
ĠdÃłĠ lÃ³uĠ
shÄģnĠ mÃłi
diÃłoĠ chÃ¡
Ġ chuÃ¡nĠ
ĠhÃ©Ġ zhÅįngĠ
00Ġ wÃłnĠ
ĠxÄ«ĠbÄģnĠ yÃ¡
lÇĲngĠdÇİo ĠrÃ©nĠ
Ġ Ã©ĠluÃ³ĠsÄ«Ġ
mÃŃnĠ zÃº
shÃłngĠ shÅ«Ġ
chÃ¨ nĠ
yÇĲnĠ fÄģĠ
ĠzhÅįngĠguÃ³Ġ gÃ²ngĠchÇİnĠdÇİngĠ
ĠyÄ«n ĠÃ©rĠ
ĠyÃºĠ 194
zhÃłnĠ dÃ²uĠ
guÇİngĠ gÃłoĠ
xÃ¹nĠ liÃłn
cÄģnĠjiÄģĠ leĠ
pÇĲ Ġ
ĠbÃ¹Ġ duÃłnĠ
ĠdeĠchÃ©ngĠ yuÃ¡nĠ
Ġ dÃ¡Ġ
19 0
zhÇĶĠ chÃŃ
xÃ¬Ġ bÄģo
yÄ«n ĠshÃ¬Ġ
Ġ zhÅ«
Ġ lÇľĠ
Ġ huÄģĠ
ĠjÃ¬nĠ rÃ¹
tÃºĠshÅ«Ġ guÇİnĠ
Ġ 00Ġ
ĠhÃ©Ġ chÃ©ngĠ
chÃłngĠ piÃłn
A S
ĠĠĠ U
zhÃŃ ĠdÃłoĠ
nÃł ĠlÇĲĠ
yuÃ¨ ĠzÃłiĠ
huÃł ĠwÃ¨iĠ
29 ĠniÃ¡nĠ
Ġ qiÃ¡n
Ġ zÃłoĠchÃ©ngĠ
jÃ¹Ġ lÃŃĠ
yÃ²ngĠ hÃ¹Ġ
Ġ 4ĠyuÃ¨Ġ
fÃ¹Ġ jÃ¬nĠ
nu Ã³Ġ
3 9
zhÃ ³u
shÄĵn ĠwÃ¨iĠ
jÅ« ĠzhÃ¹Ġ
xiÃłoĠ guÇĴĠ
mÄĽiĠ shÃ¹Ġ
ĠC Ġ
xiÃłĠjÃ¬Ġ ÃłoĠlÃŃnĠpÇĲĠkÃ¨ĠyÃ¹nĠdÃ²ngĠhuÃ¬Ġ
ĠzhÃ¨ngĠ zhuÃłngĠ
Ġ200 4ĠniÃ¡nĠ
jiÃ¨ ĠdeĠ
suÄ« ĠrÃ¡n
chÇİnĠ pÇĲn
Ġ18 8
p ÄģnĠ
shÃŃĠ jiÄģnĠ
jiÄģngĠ sÅ«Ġ
chÇİnĠ shÄĵngĠdeĠ
ku Ã¡ngĠ
22 ĠniÃ¡nĠ
ĠĠĠzh Ġ
Ġ quÃ¡nĠguÃ³Ġ
shuÅį ĠmÃŃngĠ
ĠshÄĵngĠ huÃ³
wÇĶĠ zhuÄģngĠ
yÄ«ngĠ wÃ©nĠ
ĠjiÄģĠ rÃ¹
shÄĵnĠ qÇĲngĠ
p Åį
jiÃłoĠ liÃłnĠ
ĠlÇĲĠ lÃ¹nĠ
ĠzhÄ«Ġ xiÃłĠ
ĠhuÃ²ĠdÃ©Ġ leĠ
lÃ¡n ĠqiÃºĠ
ĠzÃłiĠ jiÄģĠ
ĠzuÃ²Ġ pÇĲn
ĠĠĠjiÄģĠ zÃºĠ
ÃłoĠyÃ¹n ĠhuÃ¬Ġ
zhÅįu ĠdeĠ
yÅįu ĠshÃ¬Ġ
ĠgÅįngĠ rÃ©nĠ
xiÇİn ĠdeĠ
jiÃłoĠ shÄ«Ġ
wÃ¡ngĠ chÃ¡o
ĠzhÅįngĠ wÃ©nĠ
sÃ¹ ĠdeĠ
jÃ¬ ĠshÃŃĠ
huÃ¡ ĠrÃ©nĠ
ĠdÃłĠ duÅįĠ
Ġ ruÃ²
hÃ¡nĠ shÃ¹Ġ
fÇİngĠ wÃ¨nĠ
a i
de ĠĠĠ
lÃ¬ ĠshÃ¬Ġ
11 ĠniÃ¡nĠ
tiÃ¡oĠ zhÄĽngĠ
201 5ĠniÃ¡nĠ
xuÃ©Ġ shÃ¹Ġ
pÇĲnĠ pÃ¡iĠ
Ġ xÇĶĠduÅįĠ
t Ã²u
Ġ huÃ¡ng
mÇİ ĠsÄ«Ġ
jÃ¬nĠ rÃ¹
Ġ wÇİngĠ
Ġ tuÅįĠ
ĠyuÃ¨Ġ nÃ¡nĠ
yÄģoĠ qÇĲngĠ
Ġ biÃłn
Ġ yÇĴuĠshÃŃĠ
jÄ«n ĠdeĠ
ĠshÃ¬Ġ zhÃ¨n
yÇĶnĠ xÇĶĠ
bÃłoĠ dÇİoĠ
Ġl Çİn
quÃ¨Ġ zhÄĽn
sh ÄĽĠ
qÇĶ ĠdÃ©
dÃ¬ng ĠleĠ
6 5
Ġ 10Ġ
qi ÃłĠ
ĠshÃ¬ĠwÃ¨iĠ leĠ
ĠmÃ¨i Ġ
e p
sh ÇİnĠxÄ«Ġ
ĠdÃłnĠ yÃ³uĠyÃºĠ
ĠyuÃ¨Ġ tÃ¡iĠ
t Ã©ng
xÃŃ ĠwÃ¨iĠ
ĠjÃŃĠ lÃ¬Ġ
jiÄģ ĠzhÅįngĠ
ĠdÃłĠ xÃŃngĠ
zhÅįng ĠwÃ¨iĠ
yÇĴu ĠbÃ¹Ġ
ĠjÃ¬Ġ suÃłn
p ÄģiĠ
jiÃłn ĠshÃ¨Ġ
wÇĶĠ tÃ¡iĠ
liÇİngĠ zhÇĴngĠ
Ġ xiÇİng
zhÄĵn ĠshÃŃĠ
huÃŃĠ yÃ¬ngĠ
13 ĠniÃ¡nĠ
zhÅįngĠ huÃ¡ĠrÃ©nĠmÃŃnĠgÃ²ngĠhÃ©ĠguÃ³Ġ
4 9
yÃ¬n ĠdÃ¬Ġ
qÅ«Ġ yÃ¹
yÃŃĠ chÇİnĠ
e st
ÃłoĠ mÃ©nĠ
shÅ« ĠdeĠ
ĠdÃ¬Ġ wÇĶĠ
yÃŃĠ mÃŃnĠ
fÄĵiĠ lÇľĠ
Ġs ÄģngĠ
u m
ĠdeĠgÅįngĠ zuÃ²Ġ
2020ĠniÃ¡nĠ mÄĽiĠguÃ³ĠrÃ©nĠkÇĴuĠpÇĶĠchÃ¡ĠdeĠshÃ¹ĠjÃ¹Ġ
Ġ ÅįuĠ
jÇĶ ĠxÃŃng
201 7ĠniÃ¡nĠ
fÃ¡ng ĠyÃ¹Ġ
jiÃłoĠ xuÃ©Ġ
Ġk ÇİiĠ
b o
qÃ¬Ġ xiÃłngĠ
t ou
ĠzhÅįu ĠniÃ¡nĠ
liÃ¨Ġ biÇİoĠ
Ġ rÃ¹Ġ
shÃ©nĠ jÄ«ngĠ
duÅį ĠrÃ©nĠ
23 ĠniÃ¡nĠ
guÄģnĠ xÃ¬
ĠrÃ¨nĠ wÃ¹Ġ
mÃ¬ngĠ lÃ¬ngĠ
Ġf Ã©ngĠ
- -
jÄ«Ġ chÇİngĠ
bÃ¡iĠ sÃ¨Ġ
chuÃłngĠ bÃłn
a y
201 1ĠniÃ¡nĠ
yÇĲĠ lÃ¡iĠ
dÄĽng ĠwÃ¨iĠ
le ĠtÄģĠdeĠ
huÃ¬ ĠyuÃ¡nĠ
ni Çİo
wÇİ ĠÄĽrĠ
jÃ¬Ġ lÃ¹Ġ
ĠjÄ«Ġ guÄģnĠ
fÇİĠ ÃłnĠ
quÃ¡nĠ miÃłnĠ
dÅ« ĠshÃ¬Ġ
leĠ yÃŃĠgÃ¨Ġ
1ĠyuÃ¨Ġ 1ĠrÃ¬Ġ
ĠrÃ¬Ġ jÅ«nĠ
zhÃ¡ Ġ
t Ä«Ġ
kÃ¨ ĠlÇĲĠ
ĠshÃŃĠ yÄ«Ġ
duÃłn ĠdeĠ
ĠrÃ©nĠ lÃ¨i
gÄģoĠ dÄĽngĠ
shÃº Ġ
yÃ¡n ĠdeĠ
yÃŃng ĠdeĠ
17 ĠniÃ¡nĠ
ĠhÃ©Ġ xÄ«Ġ
huÃł ĠjiÄģĠ
dÅįng ĠjÃ¬Ġ
jiÄĵ ĠjÃŃĠ
zÃ© ĠwÃ¨iĠ
ĠshÃŃĠ qÄ«
ĠĠĠ zÇİoĠniÃ¡nĠ
zÇĶ ĠjiÃłnĠ
yÃŃĠ zhÇĲĠ
n ÇİiĠ
jÄ«ng ĠlÇĲĠ
huÄģ ĠyuÃ¡nĠ
a li
e g
yuÄĵ ĠyÇĴuĠ
miÃłn ĠduÃ¬Ġ
e sĠĠĠ
shÄĵng ĠjÃŃĠ
mÄĽiĠ guÃ³ĠdeĠ
ĠwÇĴĠ menĠ
Ġ tÃŃĠ
xiÃł ĠyÄ«Ġ
mÇĲ ĠdeĠ
ĠzhÃ¬Ġ shÃŃĠ
ĠzÃłiĠ xÄ«Ġ
ĠlÃ¬Ġ shÇĲ
nÇļĠ zÇĲ
ĠshÃ¨ ĠjÃŃĠ
xÇĲĠ huÄģnĠ
a me
yÃ¬ ĠniÃ¡nĠ
ĠzhÃ¬Ġ lÃ¬Ġ
Ġ zuÇĴĠ
lÇĲngĠ tÇĶĠ
Ġ shÃ¨ng
yuÃ¡n ĠjÃŃĠ
zÄ«Ġ jÄ«nĠ
ĠsuÇĴ ĠyÇĲ
z Ã²ngĠ
Ġ ÄģiĠ
ĠhÃ©Ġ lÃ¡nĠ
bÇİoĠ chÃŃ
wÃ¡nĠ quÃ¡n
b oĠ
ĠshÃŃĠ Ã¨rĠ
jiÇĶĠ diÃłnĠ
Ġ 3ĠyuÃ¨Ġ
chÄĵng ĠzuÃ²Ġ
ĠshÃ¬Ġ dÃłĠ
ĠmÃŃngĠchÃ¡oĠ zhÃ¨ngĠzhÃ¬ĠrÃ©nĠwÃ¹Ġ
zhÃ¨ngĠ mÃŃngĠ
yÃ²ngĠ zuÃ²Ġ
Ġ202 3ĠniÃ¡nĠ
m ÇĴu
ĠjÃ¬Ġ zhÄĽĠ
ĠmÄĽi ĠniÃ¡nĠ
wÃ©n ĠxiÃłnĠ
ĠrÃ©nĠ mÃŃn
lÄĽi Ġ
Ġ kÄģng
ĠĠĠ xÄ«nĠ
yuÃ¡n ĠzÃłiĠ
ĠyuÃ¡nĠ mÃŃngĠ
o g
200 9ĠniÃ¡nĠ
ĠzhÅįngĠ yÃºĠ
ĠzhÃ¬Ġ liÃ¡oĠ
ĠjÄ«Ġ chÄĵĠ
ĠĠĠ tÄģĠ
26 ĠniÃ¡nĠ
guÄ«Ġ zÃ©Ġ
cÃ¡iĠ liÃłoĠ
sÇĶnĠ shÄ«Ġ
s p
lÇĲĠ lÃ¹nĠ
dÃ²ngĠ wÃ¹
t ÄģngĠ
dÃł ĠdÃ¬Ġ
ĠxiÃłn ĠhÃ©Ġ
bÇİoĠ liÃºĠ
Ġ qÄ«
ĠĠĠ yÃ³uĠ
e v
ĠyÃ¬Ġ yÃ¬Ġ
Ġ shÃ²u
ĠĠĠ hÃ²uĠ
ĠguÃ³Ġ huÃ¬Ġ
ĠgÅįngĠ huÃ¬Ġ
nÃ¨iĠ lÃ¹Ġ
Ġ200 2ĠniÃ¡nĠ
nÃ¡nĠ jÄ«ngĠ
ĠjÃ¬n ĠxÃŃng
Ġc uÃ¬
m ÃŃ
202 3ĠniÃ¡nĠ
xiÃłĠ lÃ¬ng
biÇİoĠ miÃłnĠ
Ġ yÃ¡ng
ĠĠĠ jiÃ©
ĠgÅįngĠ chÇİngĠ
ĠyuÃ¡nĠ gÅįngĠ
ĠshÃ¬ĠyÄ«Ġ zhÇĴng
ĠdÃ¬ĠyÄ«Ġ cÃ¬Ġ
Ġ xiÃłoĠ
ju ÃłnĠ
lÇļ ĠxÃŃngĠ
I N
a te
6 8
qÇĲĠ yÃ¨
g ÇĴngĠ
wÄĵi ĠjÄ«Ġ
an d
ĠyÃºĠ 196
ĠchÃ©ngĠ xiÃłnĠ
ĠnÃ¡n ĠzhÃ¬Ġ
ĠhÃ©Ġ gÅįngĠ
ĠĠĠ200 8ĠniÃ¡nĠ
en t
tÃłi ĠrÃ©nĠ
ĠyÃ¬Ġ fÄģngĠmiÃłnĠ
19 Ġ
zhÄ«Ġ jiÄģnĠ
Ġ hÃ¡nĠguÃ³Ġ
bÃ¨i ĠshÃ¬ĠwÃ¨iĠ
wÃ©n ĠyÃ¬Ġ
tÃŃ ĠdÃłoĠ
xiÄģngĠ guÄģn
Ġ bÇĲ
ĠshÃ¬Ġ hÃ²uĠ
cÃ©ngĠ jÄ«ng
a v
Ġ fÄģngĠ
tiÄģn ĠdeĠ
ĠbÃ¹Ġ mÃ©n
ĠniÃ¡n ĠshÃ¬ĠjiÃ¨Ġ
diÃłnĠ nÇİoĠ
kÄĽĠyÇĲ ĠzÃłiĠ
gÃ© ĠwÃ¨iĠ
dÅįngĠ nÃ¡nĠbÃ¹Ġ
Ġ xÄ«ngĠ
dÃł ĠwÃ¨iĠ
kÅįng ĠzhÅįngĠ
ĠguÃ³Ġ fÃ¡ng
jÄ«nĠ shÇĶĠ
Ġ lÃŃĠ
zhÃ¹ ĠlÇĲĠ
16 ĠniÃ¡nĠ
kÇĴng ĠbÃ¹Ġ
zuÃ²Ġ yÃ²ngĠ
dÃłi ĠlÇĲĠ
tÅįng ĠdÃłoĠ
Ġc Ã¡oĠ
qÃŃĠzhÅįngĠ yÄ«ĠzhÇĴngĠ
m Ã¡ngĠ
Ġ mÃłnĠ
zuÃ² ĠwÃ¨iĠ
suÇĴ ĠzÃłiĠ
liÃº ĠzÃłiĠ
3 1
Ġ zhÃ¨ng
shÇĴu ĠjÄ«Ġ
lÃ¬ ĠwÃ¨iĠ
shÅ« ĠjÃŃĠ
ĠÃ©r ĠchÃ©ngĠ
ĠĠĠ in
yÇĴu ĠzÃłiĠ
201 3ĠniÃ¡nĠ
gÃ¹Ġ wÃ¨nĠ
Ġ000 Ġ
Ġ zhÅįngĠdeĠ
sh Çİng
jÃ¬ng ĠdeĠ
yÇĲnĠ qÇĲĠ
4 4
yÇĲ ĠxiÃłĠ
yÇĲngĠ piÃłn
bÅįĠ lÃ¡n
jÃ¬nĠ yÃŃĠbÃ¹Ġ
50 ĠniÃ¡nĠ
dÃłĠ lÃ¹ĠdeĠ
ĠxÄ«Ġ wÃłng
chÃ©ng ĠniÃ¡nĠ
ku ÃŃ
yÇİn ĠyÃ¬Ġ
Ġ zhÃ¨nĠ
qi Çİn
men ĠdeĠ
e w
Ġ lÇĲ
zhÇĶ ĠdeĠ
jÄ« ĠhÃ©Ġ
huÃ¬ ĠshÃ¬Ġ
ku ÄģngĠ
tÃ¨Ġ shÅ«Ġ
tÅįngĠ chÄĵĠ
c i
Ġ jiÄģoĠ
ĠzÃłiĠ 198
ĠjiÃ© ĠzhÃ¬Ġ
tÇİoĠ lÃ¹nĠ
jiÄģng ĠhuÃ¬Ġ
ĠzuÃ²Ġ wÃ©i
Ġ 7Ġ
ĠyÇĴuĠ jÄ«Ġ
Ġ2001ĠniÃ¡nĠ rÃ©nĠkÇĴuĠ
zhÄģo ĠhÃ©Ġ
wÃºĠ fÇİ
ĠxiÄģngĠ guÄģnĠ
Ġt Ã©ngĠ
zhÃłoĠ kÄģiĠ
dÃło ĠlÃ¹Ġ
ĠdÃłoĠ dÃ¡Ġ
ĠfÃ¹Ġ zÃ©
chÃ¡ng ĠdeĠ
yÇĲnĠ qÇĲ
ĠzÃ¬ĠjÇĲ ĠdeĠ
ĠbÄĽiĠ qÇĲĠ
sÇĲ ĠhÃ²uĠ
ĠtÄģĠ yÄĽĠ
wÃ¡ngĠ chÃ¡oĠ
I n
sh Äģo
ĠshÃ¬Ġ wÄĵiĠ
S TĠ
sÄ« ĠlÃ¬Ġ
ĠyÃºĠ lÃ¨Ġ
ĠzhÅįngĠguÃ³Ġ dÃłĠlÃ¹Ġ
yÃłĠlÃ¬ĠshÄģn ĠdÃłĠ
ĠyÇĲĠ bÃ¨iĠ
Ġ Ã©Ġ
Ġcu Ä«Ġ
Ġ yÄ«ngĠyÇĶĠ
zhÃŃĠ mÃŃn
jÅ«Ġ mÃŃn
zhÇĶ ĠlÃ¬Ġ
ĠpÃŃngĠ miÃłnĠ
m Ã¡Ġ
Ġ hÃ³ng
nÃŃ ĠkÃ¨Ġ
dÃ¬Ġ Ã¨rĠ
ĠtÄģ ĠwÃ¨iĠ
Ġ à
jÃ¹Ġ lÃ¨ĠbÃ¹Ġ
chÄĵ ĠdeĠ
ĠzhÄ«Ġ jiÄģn
Ġ200 0ĠniÃ¡nĠ
ĠxiÃłnĠdeĠ yÃŃĠgÃ¨Ġ
p er
202 4ĠniÃ¡nĠ
ĠbÃ¹Ġ bÃ¹Ġ
ĠzÃłiĠ wÃ¨iĠ
jÄ«nĠ pÃ¡iĠ
Ġf Ã¡nĠ
n eĠ
yÃ¹n ĠzuÃ²Ġ
lÇľĠ shÄ«Ġ
guÇİngĠ fÃłn
ĠĠĠ202 5ĠniÃ¡nĠ
Ġ wÃ¹Ġ
jiÄģo ĠhuÃ¬Ġ
ĠÃ©rĠ yÃ¡nĠ
yÃłoĠ wÃ¹Ġ
1 ĠĠĠ
zhu ÅįĠ
shÇĴu ĠgÃ¨Ġ
tuÃ¬ ĠchÅ«Ġ
ĠxiÃłnĠdeĠ yÃŃĠgÃ¨
Ġ xuÄģnĠbÃ¹Ġ
cÃ¬Ġ shÇĲĠ
bÅįĠ lÃ¡nĠ
a ng
su Åį
ĠsÄ«Ġ tÃ¨
ĠkÃ¨ ĠchÃ©ngĠ
wÇĴĠ menĠ
Ġ lÃ¡iĠzÃ¬Ġ
jÇĲ ĠgÃ¨Ġ
ĠyÇĴuĠ yÃ¬Ġ
yÄĽ ĠhuÃ¬Ġ
jÄ«n ĠhuÃ¬Ġ
fÄĵi ĠzhÅįuĠ
A R
biÃłn ĠdÃ©Ġ
ĠshÃŃĠ yÃłnĠ
ĠĠĠ200 9ĠniÃ¡nĠ
f Ã©i
dÅįngĠ bÄĽiĠbÃ¹Ġ
Ġ 0Ġ
ĠĠĠ xiÃłĠ
Ġ200 3ĠniÃ¡nĠ
ĠxÄ«Ġ sÄ«Ġ
Ġ lÃ©iĠ
fÃº ĠyÃ¬Ġ
dÄģngĠ shÃŃĠdeĠ
chu Ã¡ng
mÃ¹Ġ biÄģo
bÅįĠ fÃłngĠ
ĠÃ©rĠshuÇĲĠyÃ¹ĠmiÃłnĠjÄ«ĠwÃ¨iĠ 0
ãĥ »
H Ġ
Ã Ĺ
ĠguÃ³Ġ jiÄģĠdeĠ
ÃłoĠdÃłĠlÃ¬Ġ yÃłĠ
jÃ¹ ĠhÃ©Ġ
ĠshÃ¬Ġ jiÄģĠ
ĠshÃ¬Ġ yÇĶĠ
zÃ¬Ġ yÃ³u
gÃ²uĠ zÃłoĠ
zhuÄģngĠ jiÇİĠ
bÄĽn ĠdÃ¬Ġ
yÃł ĠzhÅįu
ĠzhÄ« ĠwÃ¨iĠ
ĠbÃ¬ngĠ jiÄģngĠ
k Äĵng
xiÃło ĠdeĠ
Ġ 30Ġ
ĠhÃ©Ġ qÃŃĠtÄģĠ
Ġ chÄĵngĠwÃ©iĠ
biÄģn ĠjÃ¹Ġ
jÃ¹Ġ juÃ©Ġ
ĠchÃ©ngĠ rÃ¨nĠ
suÃ¬ ĠshÃŃĠ
ĠchÃ©ngĠ xÃ¹Ġ
f ÄĽn
ĠbÃ¹Ġ dÃ©
gÄģoĠ sÃ¹Ġ
shÄ«Ġ bÃłiĠ
Ġ qiÃ¡oĠ
fÃ¹Ġ qÄ«n
ĠjiÃłnĠ zÃłoĠ
bÄģĠ lÃŃ
huÃ²ĠdÃ©Ġ leĠ
huÄģnĠ yÃŃngĠ
f f
zhuÄģng ĠshÃ¬Ġ
yÇİnĠ chÃłngĠ
ĠjÃ¬nĠxÃŃngĠ leĠ
Ġ fÇİn
qi ÄĵĠ
Ġ r
3 2
Ġt Ãºn
Ġ jiÃ¨Ġ
ĠyÃºĠ 195
guÄģnĠ bÃ¬Ġ
ĠfÃ¹Ġ qÄ«nĠ
ĠjiÃ©Ġ guÇĴĠ
cÄģn ĠmÃ³uĠ
ĠÃ©rĠ gÄģiĠdÃ¬Ġ
fÇİĠ yuÃłn
ĠqiÃº ĠyuÃ¡nĠ
c Çİo
Ġ chÃ¬Ġ
ĠĠĠ chÃ©ngĠ
jiÃłn ĠyÃ¬Ġ
xiÄģn ĠshÄĵngĠ
ĠbÃ¹Ġ lÄģĠ
bÃ³ĠwÃ¹Ġ guÇİn
ĠĠĠ w
ĠdeĠ jiÄģĠ
yÃ¬Ġ dÃłĠlÃ¬Ġ
ĠzhÃłnĠ dÃ²uĠ
mÃ¡oĠ zÃ©Ġ
6 4
sÃł ĠsÄ«Ġ
ĠyÄ«Ġ jÃŃĠ
ĠbÃ¬ng ĠyÇĶĠ
mÃ²ĠxÄ«Ġ gÄĵĠ
Ġ hÄĽnĠ
ĠdÃłĠ lÃ¹Ġ
gÇĶĠ fÃ¨n
biÇİoĠ dÃ¡
ĠwÃ¨iĠ yÇĴuĠ
jiÄģĠ rÃ¹
ĠwÃ¨iĠ lÃ¡iĠ
ĠzhÄ« ĠdeĠ
Ġ guÄģnĠyÃºĠ
ĠxiÃłn ĠyÃºĠ
ĠzhÅįngĠgÃ²ng ĠzhÅįngĠyÄģngĠ
e d
jiÃ©Ġ guÇĴ
Ġ dÃºĠ
luÃ³ ĠdÃ¬Ġ
jÇĲn ĠjÃŃĠ
qÇĲng ĠqiÃºĠ
hÃ³ngĠ sÃ¨Ġ
Ġ liÃ¡ngĠ
quÃ¨ ĠrÃ¨nĠ
shÅįu ĠshÃ¬Ġ
jÃ¬Ġ xÃ¹Ġ
jÇĲngĠ fÄģngĠ
ĠĠĠ cÃ³ngĠ
ĠjiÄģĠ zÃºĠ
ĠfÃ¹Ġ qÄ«n
sÃł ĠÄĽrĠ
ĠjÃ¬n ĠgÅįngĠ
ĠjÃ¬nĠ yÃŃĠbÃ¹Ġ
zhu Ã¬Ġ
200 7ĠniÃ¡nĠ
Ġ bÇİiĠ
kÇİoĠ lÇľ
o h
Ġ nÃł
3 5Ġ
tÇİn ĠkÃ¨Ġ
Ġ guÇİngĠ
chÇİng ĠhÃ©Ġ
ĠyÃ¬Ġ mÄĽiĠyuÃ¡nĠ
huÇĴĠ shÄģnĠ
u s
ĠsÄ«Ġ kÃ¨Ġ
shÄĵnĠ tÇĲĠ
m Ã¡
Ġ chÃ¡
mÇĶĠ qÄ«n
gÅ« ĠjÃ¬Ġ
biÄģn ĠdeĠ
huÇĴ ĠjiÃłnĠ
hÇİiĠ ÃłnĠ
tÃłiĠpÃŃngĠ yÃ¡ng
ĠjÃ¬Ġ shÃ¹
Ġs ÇĶnĠ
ruÃ¬Ġ diÇİnĠ
bÇĲĠlÃ¬Ġ shÃŃĠ
s Åįu
ĠdeĠ zhÃ¬Ġ
zhÇİo ĠdÃłoĠ
â Ķ
juÃ© ĠduÃ¬Ġ
gÃ¨ng ĠduÅįĠ
ĠshÃ¬Ġ rÃ¬ĠbÄĽnĠ
ĠyuÃ¨Ġ tuÃ¡nĠ
ĠyÇĲ ĠyÇĴuĠ
guÇİngĠdÅįngĠ shÄĽngĠ
sh ÄĽ
ĠzhÃ¬Ġ chÃ©ngĠ
shÃłngĠ wÇĶĠ
ĠchÅ«Ġ shÄĵngĠ
zhÇĴngĠ zÃºĠ
ĠtÃ¨ĠbiÃ© ĠshÃ¬Ġ
Ġ cÃ¬Ġ
yÃº ĠzÃłiĠ
ĠshÃ¬Ġ zhÃ¨ngĠ
mÃŃnĠ jiÄģnĠ
Ġ chÃ¡oĠ
nÃ¨i ĠyÇĴuĠ
200 0ĠniÃ¡nĠ
wÃ¡n ĠgÅįngĠ
ÄģnĠ pÃ¡iĠ
mÃŃnĠzhÇĶĠ dÇİngĠ
ĠdÃłĠ yuÄĵĠ
ĠyuÃ¡nĠ bÄĽnĠ
S T
jÄ«Ġ chÇĶĠ
hÃºĠ bÄĽiĠ
sÄĵnĠ lÃŃnĠ
nÃ¡n ĠyÇĲĠ
ĠzhÄ«Ġ ziĠ
ÄģnĠ nÃłĠ
xÄ«ĠbÄģnĠ yÃ¡
zhÄĽ ĠzÃłiĠ
ĠdÃłĠ dÃłoĠ
yÃ²ngĠ tÃºĠ
tÃ¡iĠ fÄĵngĠ
yÇĲnĠ qÃŃngĠ
dÃłiĠbiÇİo ĠdÃłĠhuÃ¬Ġ
ĠqÄ«Ġ xÄ«ĠzÃłiĠ
ĠbÃ¨iĠ rÃ¨nĠwÃ©iĠshÃ¬Ġ
Ã¨r ĠyuÃ¨Ġ
ĠpÃºĠ tÃ¡oĠ
Ġ nÇļĠxÃ¬ngĠ
tÃ¨Ġ sÃ¨Ġ
fÃłngĠ qÃ¬Ġ
ĠC h
lÃ¬ ĠzÃłiĠ
xÃŃĠ xÃ¬ng
Ġ mÃ²
mÄĽi ĠgÃ¨Ġ
qÃŃngĠ bÃłoĠ
dÄĵng ĠshÃłngĠ
ĠxiÃłnĠ chÇİngĠ
wÃłi ĠbÃ¹Ġ
tiÄģnĠ jÄ«nĠ
Ã©ĠluÃ³Ġ sÄ«
Ġ guÄģn
Ġ mÃ©ngĠ
2 ĠĠĠ
d Äģ
xiÃło ĠyuÃ¡nĠ
zhÃ¨ngĠ dÇİngĠ
yÃ¡nĠ shÄĵn
hu Ãłi
ĠtÄģĠmen ĠzÃłiĠ
Ġ yÅįngĠyÇĴuĠ
ĠdeĠ zhÇĶĠ
ĠshÃ¬Ġ yÃ¨Ġ
tÃºn Ġ
ï¼ ħ
tiÄģnĠ jÄ«n
ĠyÇĴuĠ xiÃłnĠ
ĠyuÃ¡nĠ sÃ¹Ġ
ĠrÃ¬Ġ jÅ«n
Ġ18 7
n Ãłi
ĠdÃłĠ duÅįĠshÃ¹Ġ
suÃ¬ ĠdeĠ
zuÃ²Ġ zhÃłnĠ
mÇİĠlÃ¡i ĠxÄ«ĠyÃłĠ
lÃŃ ĠmÇĲĠ
zhuÄģng ĠbÃ¨iĠ
kÇİoĠ lÇľĠ
nÇĶ ĠlÃ¬Ġ
suÇĴ ĠdeĠ
5 8
xÃ¬ngĠ qÃ¹Ġ
Ġc Çİo
jiÄģoĠ liÃºĠ
zhÃłngĠ ÃłiĠ
tÇĶĠÄĽr ĠqÃŃĠ
Ġ xiÅ«Ġ
âĶ Ģ
ĠĠĠ zÄĵngĠ
chÇİng ĠdÃ¬Ġ
lÃ³ngĠ jiÄģngĠ
shu ÄģĠ
qiÄģn ĠzhÃ¬Ġ
ÄģnĠ zhuÄģng
wÇİngĠ luÃ²
lÇĲngĠ xiÃ¹Ġ
Ġ fÃ¨i
ĠjÃŃĠ bÄĽiĠ
ÄģnĠ quÃ¡n
ĠchÅ«Ġ lÃ¡iĠ
Ġ wÄĽiĠ
ĠbÃ¹Ġ jiÇĶ
zhÃłnĠ lÇĲngĠ
ĠzÃłiĠ qÃŃĠ
ĠzhÄ« ĠdÃłoĠ
bÃłn ĠlÇĲĠ
ĠbÃ¹Ġ zÃºĠ
Ġm Ã³u
s Ãłn
Ġ gÇİngĠ
shÃłng ĠdÃ¬Ġ
lÇĲng ĠshÃ¬Ġ
ĠdeĠ shÄĵngĠ
ĠjiÃ©Ġ mÃ¹Ġ
lÇĲ ĠgÅįngĠ
ĠjÄ«Ġ bÃłi
1 ĠlÃ¬Ġ
Ġ lÇİoĠ
chÃ¡ng ĠjiÃłnĠdeĠ
dÇİo ĠdÃłnĠ
gÄĵĠ lÃºnĠ
mÃ¬Ġ mÃ¬Ġ
ĠqÄ«ngĠ chÃ¡oĠ
Ġ hÃ¨Ġ
wÃ¨i ĠĠĠ
3 ĠgÃ¨Ġ
guÃ¬ ĠzhÅįuĠ
chuÃ¡nĠ shuÅįĠ
nÃ³ngĠ yÃ¨
c eĠĠĠ
ĠyÃ¬Ġ yuÃłn
mÃŃngĠ zÃ¬Ġ
zhÃŃĠ dÇİoĠ
fÇİĠ guÄģnĠ
Ġp Ã¡ngĠ
Ġ jÄ«ngĠjÃ¬Ġ
mÃŃng ĠzhÃ¬Ġ
ĠhÃ©Ġ shÃŃĠ
ĠchÃ©ngĠ dÃ¹Ġ
jÃ¬nĠxÃŃngĠ leĠ
ĠĠĠI n
Ġ zhÅįngĠshÃ¬Ġ
nÃ©ng ĠzÃłiĠ
huÃ¡Ġ shÃ¨ngĠ
shÃ²u ĠdÃło
xiÅ« ĠzhÃ¨ngĠ
bÇĲĠ yÃł
Ġ fÃ¡ngĠ
rÃ¨n ĠshÃŃĠ
xÇĲ ĠjÃ¹Ġ
ĠgÅįngĠ zhÇĶĠ
xÃŃĠxÃ¬ng ĠbÃ¹ĠmÃŃngĠ
c Ġ
d Ã¨ngĠ
bÇĲ ng
h Çİn
diÃłnĠ zi
rÃ¨nĠmÃ¬ng ĠwÃ¨iĠ
ĠchÅ«Ġ qÄ«Ġ
quÃ¡nĠ zhÇİngĠ
qiÃ³ng Ġ
4 5Ġ
Ġ 8Ġ
200 6ĠniÃ¡nĠ
a sĠĠĠ
shÄĵng ĠchÃ©ngĠ
zhÇĶ ĠshÃ¬Ġ
ĠyÇĴuĠ xiÄĵĠ
ĠsÄ«Ġ tÇİn
ĠĠĠ mÄĽiĠguÃ³Ġ
ch ÇĴuĠ
biÃłn ĠwÃ¨iĠ
Ġ18 6
shÃ¨ ĠzhÃ¬Ġ
tÃ¡iĠbÄĽi ĠshÃ¬Ġ
ĠshÄĵngĠhuÃ³Ġ xÃŃĠxÃ¬ngĠbÃ¹ĠmÃŃngĠ
ĠĠĠ xiÃłn
tÃŃ ĠchÅ«
jÄ«ngĠ yÃłnĠ
Ġ xiÃłng
dÃ¬ ĠzÃłiĠ
ni Ã¨
ĠtÄģĠ hÃ¡iĠ
bÃłoĠ fÄģ
miÇİnĠ diÄģnĠ
Ġ pÃ¨i
Ġ zhuÇİnĠ
ĠbÃ¹Ġ luÃ²Ġ
ĠyÃ¬Ġ qÇĲ
Ġ jÃ¹ĠyÇĴuĠ
hÄĽn ĠdÃłĠ
ĠjÃ¬Ġ suÃłnĠ
Ġt ÄģngĠ
piÃłoĠ fÃ¡ngĠ
c ÄģoĠzuÃ²Ġ
ĠhÃ©Ġ hÃ©Ġ
zhÃ¬ ĠzhÅįngĠ
pÃŃngĠ lÃ¹nĠ
Ġ gÄģnĠ
jÃ¬ ĠshÃ¬Ġ
sÃłi ĠzhÅįngĠ
k Ã²uĠ
ĠĠĠC h
Ġ huÃŃĠ
huÃłĠhÃ©Ġ wÃ¹Ġ
p Ã¡ng
sÄģn ĠshÃ¬Ġ
ĠÃ©rĠ bÃºĠshÃ¬Ġ
hÇİiĠ wÃłiĠ
Ġ cÄģnĠjiÄģĠ
ĠshÃŃĠ dÃłi
zhÃŃĠ jiÄĵ
dÄģngĠ xuÇİnĠ
tÃŃĠgÅįngĠ leĠ
t uÃ²Ġ
li ÇİnĠ
bÃło ĠlÃ¬Ġ
ĠcÃ¬ ĠniÃ¡nĠ
i m
Ġ yuÄĵĠhÃłnĠ
mÃŃng ĠrÃ©nĠ
ĠzÃłiĠ cÇĲ
ĠyÄ«Ġ xuÃ©Ġ
shÃłngĠ yÃ¬ngĠ
zhÇĶĠ yÃ¬ĠdeĠ
shÅ«Ġ rÃ¹Ġ
zÄ«Ġ chÇİnĠ
s ÄģĠ
9 9
v eĠĠĠ
ĠwÃ¨iĠ xÄ«ngĠ
ĠĠĠ200 7ĠniÃ¡nĠ
jiÄģĠlÃ¬Ġ fÃºĠ
ĠĠĠ lÇĲĠ
mÇİ ĠlÇĲĠ
ĠzÃłiĠ nÃ¨iĠdeĠ
ĠyÇĴuĠ yÃŃĠgÃ¨Ġ
Ġ chÇĶĠyÃºĠ
qu Äĵ
zhu Ãłn
c o
zhÃ¬ ĠbÃ¹Ġ
ĠxiÃłnĠ xiÃłngĠ
tÃłiĠ ziĠ
Ġ gÃ²ng
fÇİ ĠyÇĶĠ
ĠyÄĽĠ jiÃ¹ĠshÃ¬Ġ
ĠĠĠ andĠĠĠ
bÄ«n ĠhÇİiĠ
ĠzÃłiĠ dÃ¹Ġ
ĠÃ©r ĠbÃ¹Ġ
tÃ³uĠ zÄ«
yuÃłn ĠshÃ¬Ġ
jiÃłĠ gÃ©Ġ
ĠĠĠcÇĲĠ wÃłiĠ
chuÃłng ĠjiÃłnĠ
tuÄ« ĠjÃ¬nĠ
shÃ¹n ĠlÃ¬Ġ
zuÃ¬Ġ gÄģo
ĠdÅįngĠ nÃ¡nĠ
ĠĠĠ qÃŃĠ
jiÄĽ ĠsÃłnĠ
lÃ©i ĠsÄ«Ġ
shÃ©nĠ meĠ
zÃ© ĠrÃ¨nĠ
ĠshÃ¬Ġ fÇĴuĠ
ruÇİn ĠjiÃłnĠ
ĠyÃ³u ĠqÃŃĠshÃ¬Ġ
xÃºnĠ yÃ¡ng
Ġ gÄĵnĠjÃ¹
ĠxÃŃngĠ zhÃ¨ng
Ġm ÇĴuĠ
wÇİng ĠqiÃºĠ
guÄģnĠ diÇİnĠ
k Å«n
Ġ jÄ«ng
zhÃ¨ngĠ jÃ¹Ġ
lÃ¹nĠ wÃ©nĠ
l Ãłi
gÃ¨Ġ zhÇĴngĠ
Ġ liÃ¨Ġ
18 9
ĠdÃłĠ shÃł
fÄģngĠ miÃłnĠdeĠ
ĠhÃ©Ġ bÃ¹Ġ
ĠshÄĵngĠ zhÇİng
Ġ gÃ²ngĠyÇĴuĠ
yÃº ĠdeĠ
yÄ«ngĠ gÄģiĠ
yÃ¬ngĠ yÃ²ng
jiÃło ĠshÃ¬Ġ
yÄ«ng ĠlÇĲĠ
biÇİoĠ dÃ¡Ġ
pÃ¡iĠmÃŃng ĠdÃ¬Ġ
Ġ bÃ³
qi ÇİoĠ
bÇİnĠ bÄĽn
8 0Ġ
Ġ gÄģo
yÃ¡ng ĠshÃ¬Ġ
gÃ²uĠm ÇİiĠ
A M
Ġ cÄģnĠ
dÃł ĠzhÃ¬Ġ
rÃ©nĠ dÃłĠ
ĠĠĠ f
pÃłi ĠdeĠ
ar i
ĠdÃ© ĠÄĽrĠ
ĠhÃ²uĠ xuÇİnĠrÃ©nĠ
Ġ gÃ©
quÄĵĠ fÃ¡Ġ
ĠĠĠ ÄģĠ
6 7
Ġ 20
zhÃ¨ ĠlÇĲĠ
ĠrÃ¬Ġ bÃłoĠ
jiÃ¹Ġ dÃº
ĠA Ġ
fÃłnĠwÃ©iĠ nÃ¨iĠ
p ÅįĠ
ĠzhÃłnĠ dÃ²u
ĠshÄĵngĠ chÇİn
lÇĲng ĠdÃ¬Ġ
bÃº Ġ
ĠyÃºĠ rÃ©nĠ
ĠĠĠ qiÃ¡nĠ
ĠhÃ©Ġ dÃłĠ
hÇİiĠ xiÃ¡Ġ
ĠĠĠjÃ¹Ġ qÃŃngĠ
xiÄģng ĠshÃ¬ĠdÃ¬Ġ
Ġ xiÃł
bÃłoĠ gÃło
tion Ġ
xÃŃng ĠchÃ©ngĠ
fÄģ ĠxÃŃngĠdeĠ
pÇĶĠ biÃłnĠ
ĠshÇĲ ĠjiÃłnĠyÃºĠ
fÄĵng ĠwÃ¨iĠ
xiÄģngĠ dÄģng
Ġ sÄģiĠ
ĠĠĠ xiÃłnĠ
Ġ yÃŃnĠ
ĠxÄ«Ġ lÃłĠ
dÃºĠ lÃ¬ĠdeĠ
Ġ tiÄģn
ĠtÄģ ĠhÃ©Ġ
ĠlÇĲĠ lÃ¹n
ĠzhÄ«Ġ fÃ¹Ġ
ac k
gÄģoĠsÃ¹ ĠgÅįngĠlÃ¹Ġ
Ã© ĠguÃ³Ġ
yu ÄģnĠ
ĠdeĠ fÄģngĠshÃ¬Ġ
hÃ¨ ĠÄĽrĠ
Ġm Ã¨ng
Ġ202 4ĠniÃ¡nĠ
Ġ suÃ¬Ġ
ĠshÃ¬Ġ gÃ¹Ġ
chÅ«Ġ shÄĵngĠyÃºĠ
la y
ĠzhÅįngĠ bÃ¨iĠ
ÄģnĠ huÄ«Ġ
jÃ¹ ĠdÃłĠ
bÃ¡ Ġ
wÄĵnĠ dÃ¹Ġ
jÃ¬Ġ chÃ©ngĠ
ĠdÃ©Ġ huÃ¡Ġ
Ġ gÄģngĠ
mÇİ ĠÄĽrĠ
ĠzhÃ¬Ġ shÇİoĠ
ĠyÄ«Ġ xiÇİoĠshÃŃĠ
fÄģngĠ yÃ¡nĠ
pÃ¡iĠ hÃ¡ngĠ
jÇĲngĠ chÃ¡
n ĠshÃŃĠ
ã ģ
nÃ¨iĠ gÃ©Ġ
jiÃ¨Ġ shÃłoĠ
yÃŃĠ dÃ¹Ġ
ĠdÃłĠ xÄ«ĠyÃ¡ngĠ
Ġ bÄģnĠ
jiÃ© ĠdeĠ
juÃ© ĠyÃ¬Ġ
ĠqÃŃ ĠzÃłiĠ
dÇİng ĠyuÃ¡nĠ
ĠyÇĴuĠ xiÃłoĠ
ĠzuÃ²Ġ jiÄģĠ
yÃŃĠ dÃ¬ngĠ
chÅ«Ġ shÄĵnĠ
ĠzuÃ¬Ġ gÄģoĠ
s Å«n
qÅ« ĠyÃ¬ĠhuÃ¬Ġ
lÃ¹ĠyÃ¬Ġ sÄ«Ġ
cÃ¬ ĠdeĠ
huÃłn ĠchÃ©ngĠ
ĠdÃłĠ fÃºĠ
cÇİiĠ qÇĶĠ
a st
ĠĠĠ 4
xiÃłn ĠzhÃ¬Ġ
zuÃ² ĠshÃ¬Ġ
zhÃ²ngĠ duÅįĠ
yÄ«ngĠ xiÃ³ngĠ
ĠdÅįngĠ lÃŃnĠ
liÇİng ĠmÃŃngĠ
xÇĲ ngĠ
ĠxiÃłn ĠshÃ¬Ġ
ĠbÄĽiĠ jÄ«ngĠ
ar Ġ
ĠchÅ«Ġ zhÃłnĠ
ĠĠĠdÃ¬Ġ fÄģngĠ
Ġ xuÄģnĠ
Ġ pÃ¨iĠ
bÄĽn ĠrÃ©nĠ
kÇİ ĠsÄ«Ġ
ĠbÃ¬ng ĠbÃ¨iĠ
rÃ¹Ġ xuÇİnĠ
qÅ« ĠhÃ©Ġ
tÃ³uĠ xiÃ¡ngĠ
ĠzhÅįngĠhuÃ¡ĠrÃ©nĠmÃŃnĠgÃ²ngĠhÃ©ĠguÃ³Ġ zhÃ¨ngĠzhÃ¬ĠrÃ©nĠwÃ¹Ġ
Ġ sÅ«
shÃ¨Ġ qÅ«Ġ
ĠtÃ²uĠ guÃ²Ġ
ĠĠĠ m
zu ÇĲĠ
diÃłnĠ huÃłĠ
zuÃ¬Ġ duÅįĠ
tÃ¡nĠ pÃłnĠ
fÇİngĠ wÃ¨n
ĠlÃ¬ng ĠyÄ«Ġ
Ġ hÃłn
ĠĠĠ mÃŃngĠ
hÃ¡n ĠyÇĴuĠ
nÃ¡nĠ bÄĽiĠ
zhÄ«Ġ chÃŃ
jiÇĶĠ lÃ³ngĠ
jiÃłngĠ dÄ«Ġ
kÄĵĠdeĠ qÃŃĠzhÅįngĠyÄ«ĠzhÇĴngĠ
ĠgÅįngĠ yÃ¬Ġ
ĠbÃ¬ngĠ fÄĵiĠ
zhÇĴngĠ ziĠ
diÇİn ĠlÇĲĠ
dÃłng ĠtiÄģnĠ
chÃ©ngĠ yuÃ¡nĠ
Ġ qÇĲ
Ġ tÇİĠ
yÃł ĠjÅ«nĠ
ĠqÃŃĠzhÅįngĠ yÄ«Ġ
zhÃ¨ng ĠbÃ¹Ġ
kÇĴu ĠwÃ¨iĠ
guÃ²Ġ dÃ¹Ġ
qÇĲĠ dÃ²ngĠ
zhÄ«Ġ qiÃ¡nĠ
mÃ¬ĠshÅ«Ġ zhÇİngĠ
wÃº ĠzhÃ¨ngĠzhuÃłngĠ
ĠzÃłiĠ cÃ¬
jÄ«Ġ dÅ«Ġ
ĠbÃ¬ngĠ dÃº
7 0Ġ
shÄģn ĠshÃ¬Ġ
tiÃ¡o ĠlÃ¬Ġ
ĠyÇĲĠ jÃŃ
xiÄģngĠ sÃ¬Ġ
W indow
ĠxiÃłnĠ rÃ¨nĠ
suÇĴĠ chÃ¹ĠdeĠ
i d
xiÄĽ ĠdÃłoĠ
ĠyÄ«Ġ tÃ³ngĠ
hÄĵiĠ sÃ¨Ġ
o d
Ġ 30
lÃ¹ ĠzhÃ¬Ġ
shÃ¹ ĠyÇĶĠ
ĠxÃŃng ĠwÃ¨iĠ
yÇĶnĠ xÇĶ
xÄ«ngĠ dÄĽngĠwÃ¨iĠ
tuÃ¡n ĠdeĠ
ĠgÅįngĠ mÃŃnĠ
ĠyÇĶĠ mÃ¡o
liÃºĠ xiÃłĠ
mÇĴuĠ xiÄĵĠ
9 0Ġ
bÇİn ĠdeĠ
mÃ¹Ġ qiÃ¡n
jiÄĵĠ chÃ¹Ġ
shÃ¨Ġ shÄ«Ġ
zhÄĽngĠ tÇĲĠ
xÄ«nĠjiÄģĠp ÅįĠ
Ġ zÇĶĠfÃ¹Ġ
huÃ¡ng ĠhÃ²uĠ
gÄĽi ĠleĠ
ĠjÄ«Ġ jÄ«nĠ
fÄģĠ shÃ²uĠ
tuÃ¬Ġ xiÅ«Ġ
4 8Ġ
lÇĶ ĠsÄ«Ġ
Ġp ÄģnĠ
p h
u l
chÃŃ ĠyÇĴuĠ
ĠshÃ¬Ġ yÃºĠ
ĠtÃ³ng ĠyÃ¬Ġ
bÇİoĠ shÇĴuĠ
kÄģiĠshÇĲ ĠzÃłiĠ
Ġ Ã
duÅį ĠwÃ¨iĠ
jÄ«ngĠ chÃ¡ng
fÃłnĠ zuÃ¬Ġ
2 ĠgÃ¨Ġ
dÅįu ĠzÃłiĠ
lÃ³ng ĠdeĠ
ĠgÅįngĠ jÃ¹Ġ
suÃŃ ĠzhÃ¹Ġ
gÃ¨ng ĠwÃ©iĠ
gÅįngĠ chÃ©ngĠ
Ġ199 8ĠniÃ¡nĠ
xiÃłĠxiÃ¡ ĠdeĠyÃŃĠgÃ¨Ġ
Ġ yÃ²ngĠyÃºĠ
O S
gÇĶ ĠdÃłiĠ
ĠmÃŃngĠ dÄģnĠ
zhÃ¨nĠ qÅ«ĠdeĠ
gÇİiĠ mÃŃngĠwÃ¨iĠ
lÃ¡i ĠyuÃ¨Ġ
nÃŃ ĠÄĽrĠ
nÃ©ngĠ liÃłngĠ
sÇĲĠ wÃ¡ng
ĠdeĠchÃ©ngĠ jÃ¬Ġ
Ġ194 9ĠniÃ¡nĠ
k Å«Ġ
Ġ pÃŃngĠjÅ«nĠ
ĠĠĠ qÃŃĠtÄģĠ
nÃ¡n ĠdeĠ
ĠÃ©rĠ gÄģiĠ
biÇİoĠ yÇİn
k ÄĽn
Ġ qÄ«ĠjiÄģnĠ
tiÃ¡oĠ zhÄĽng
bÄĽiĠjÄ«ng ĠshÃ¬Ġ
i k
n Ã¨
ĠĠĠ jÃŃĠ
200 4ĠniÃ¡nĠ
fÄĵngĠ xiÇİnĠ
tÅ«Ġ pÃ²Ġ
bÃ³ĠshÃ¬Ġ xuÃ©ĠwÃ¨iĠ
yuÃ¨ ĠzhÅįngĠ
shÄģn ĠjÄ«Ġ
200 1ĠniÃ¡nĠ
jiÃłoĠ tÃ¡ng
yÃ³u ĠjÄ«Ġ
ĠdeĠ xÃŃngĠ
nÇļĠ xÃ¬ng
guÃ¬Ġ zÃºĠ
Ġ shÄĵngĠyÃºĠ
zh ÄģiĠ
zÇİoĠ qÄ«
Ġ zhÃło
ĠdÃ© ĠyÇĶĠ
ĠqÃŃĠ hÃ²u
ĠrÃ©nĠmÃŃnĠ zhÃ¨ngĠfÇĶĠ
wÃºĠzhÃ¨ngĠzhuÃłngĠ gÇİnĠrÇİnĠ
Ã¡i Ġ
ni Ã¡ngĠ
ĠhÃ©Ġ pÃłnĠ
shÅįuĠ gÃ²uĠ
ÄĵnĠ shÄĽngĠ
ĠyÄ«Ġ zuÃ²Ġ
ĠxiÇİng ĠniÃ¡nĠ
xuÃ©Ġ huÃ¬Ġ
liÃ¡nĠ xÃ¹
chÃ¡ngĠ wÄĽiĠ
huÃ³ ĠyuÃ¨Ġ
chÃ¡ngĠ wÃ¹Ġ
hÃ¹Ġ liÃ¡nĠ
quÃ¨ĠzhÄĽn ĠbÃ¬ngĠlÃ¬Ġ
shÃ²u ĠdeĠ
ÄģnĠ nÃł
zhÇĶĠyÃło ĠdeĠ
yÇĲĠ jÄ«ngĠ
dÄģn ĠdeĠ
ĠbÃ¹Ġ sÄ«Ġ
suÇĴĠ yÇĴuĠdeĠ
bÃłoĠ zhÃłĠ
gÃłiĠ niÃłn
kÃ¨ ĠchÃ©ngĠ
lÃ¬ng ĠrÃ©nĠ
shÅįu ĠjÃŃĠ
fÃ¹Ġ zÃ©
ĠmÄĽi ĠgÃ¨Ġ
Ġ hÇİi
ĠbÃ¹Ġ lÃ¬Ġ
guÄģnĠ chÃ¡Ġ
tÃŃ ĠjÃŃĠ
ĠshÃ¬Ġ mÃŃnĠ
ĠwÃ¨iĠyÃºĠ zhÅįngĠguÃ³Ġ
sÄģiĠÄĽrĠ wÃ©iĠ
5 ĠmÇĲĠ
c Ã¡oĠ
Ġ yÃ¡n
du ÇĴ
huÃ¬ ĠzhÅįngĠ
rÃ¨n ĠwÃ¨iĠ
xiÄĽ ĠdeĠ
wÃ©iĠ ÄĽrĠ
dÃ¬ngĠ jÅ«Ġ
ĠbÇĲĠ rÃºĠ
kÃ¹nĠ nÃ¡nĠ
28 Ġ
ĠdeĠdÃ¬Ġ Ã¨rĠ
ĠtÅįngĠ chÃ¡ng
ĠshÃ¬Ġ xÄ«Ġ
ĠjÃŃĠ rÃ©nĠ
ĠlÃ¬Ġ fÇİ
zhÇĶĠ yÇİnĠ
g h
n Ãº
ĠchÃ©ngĠ rÃ©nĠ
zÃºĠqiÃºĠ yÃ¹nĠdÃ²ngĠyuÃ¡nĠ
Ġ chuÃłngĠ
xÃ¬nĠ yÇİngĠ
ĠtÃ³ngĠshÃŃĠ gÄģiĠdÃ¬Ġ
Ġ199 9ĠniÃ¡nĠ
Ġ hÃ©ngĠ
ĠjÄ«Ġ sÄ«Ġ
biÄģnĠ jiÃ¨Ġ
wÃ¡nĠ zhÄĽng
Ġ tiÃ¡nĠ
shÄĽng ĠdeĠ
bÄĵi ĠsÄ«Ġ
jiÄĽĠ fÃłngĠ
I I
huÃ¬ ĠzhÃ¬Ġ
ĠrÃ¬ ĠyÃºĠ
qiÃ¡ngĠ liÃ¨Ġ
zhuÄ«Ġ sÃ¹
dÄģng ĠniÃ¡nĠ
200 5ĠniÃ¡nĠ
ĠjÄ«Ġ chÇİng
Ġk Çİi
ĠhÃ²uĠ zhÄĽĠ
ĠbÃ¬ngĠ dÃºĠ
nÃ¨iĠlÃ¹Ġ shÄĽngĠfÃ¨nĠ
kÄĵĠxuÃ©Ġ jiÄģĠ
tÃº ĠxÃŃngĠ
zhÇĶĠ jiÃło
n ĠdeĠ
Ġ bÃłnĠ
zhÃº ĠbÃ¹Ġ
ĠdÃ¬Ġ sÃ¬
w Ã¡Ġ
ĠjÃŃĠ dÃ¬Ġ
ĠkÃ¨ ĠxÄ«Ġ
g ÇĴuĠ
shÄģn ĠdeĠ
ĠbÃ¹Ġ shÇİoĠ
jiÇİnĠ shÇİo
h ÄĵngĠlÃ¬Ġ
Ġ huÇĴĠ
Ġ nÇĲĠ
suÃŃ ĠjÃŃĠ
fÄģngĠ fÇİ
zuÃ¬Ġ gÄģoĠdeĠ
yÃłĠ mÄĽiĠ
liÃ¡nĠhÃ©Ġ huÃ¬Ġ
xÅ«nĠ zhÄģngĠ
Ġ zhuÄģngĠ
Ġ Ã¨rĠshÃŃĠ
dÄģng ĠzhÅįngĠ
chÄģo ĠyuÃ¨Ġ
sÄģnĠ jiÇİo
liÃ¡oĠ nÃŃngĠ
5 7
Ġ Z
Ã©r ĠtÃ³ngĠ
zuÃ²Ġ chÅ«Ġ
pÃŃngĠ tÃ¡iĠ
shÄģnĠ qÅ«Ġ
ĠxÄ«ĠbÄģnĠ yÃ¡Ġ
Ġ jÃ¹
hÇİi ĠpÃŃngĠmiÃłnĠ
cÃ©ng ĠwÃ¨iĠ
ĠzÃłiĠ 197
ĠshÃŃĠ qÄ«ĠdeĠ
ĠguÃ³Ġ nÃ¨iĠ
xiÃłngĠ zhÄĵngĠ
xiÃłĠlÃ¬ng ĠshÃŃĠjiÄģnĠ
ĠĠĠ 1Ġ
bÃ¨i ĠdeĠ
bÃº ĠdÃłoĠ
zhÇĲĠ nÃ©ngĠ
yÃŃĠ dÃ¬ng
ĠzhÃ¨Ġ zhÇĴng
fÄĵiĠ chÃ¡ng
shuÄģngĠ fÄģngĠ
6 6
ĠdÃ©Ġ zhÇĶĠ
fÄģĠ qÇĲĠ
zhuÇİnĠ xiÃłngĠ
huÄ«Ġ fÃ¹
guÃ² ĠdeĠ
ĠyuÃ¡nĠ xÃŃngĠ
shÄ«Ġ qÃ¹
wÇĶĠ zhuÄģng
Ġt ÃłoĠ
z Ã²ng
Ġ jiÇĶ
shÅ« ĠzhÅįngĠ
ĠjÄ«Ġ huÃ¬Ġ
tÃŃ ĠyÃ¬Ġ
zÃ¬Ġ rÃ¡n
tÃ¡iĠ nÃ¡n
jÃ¬ngĠnÃ¨iĠ gÃ²ngĠyÇĴuĠ
I C
f Ã©nĠ
Ġ xÃºnĠ
ĠlÃ¬Ġ liÃłngĠ
nÃŃĠyÃł ĠzhÅįuĠ
3 2Ġ
xÃ¹ ĠlÃ¬ĠyÃłĠ
ĠĠĠbÃ¨iĠ jÇĲngĠ
Ġ yÄģoĠqiÃºĠ
ĠyÄ«Ġ lÃ¬Ġ
ĠzÃłiĠ shÃŃĠ
ĠgÅįngĠ zhÃ²ngĠ
zhÄģngĠ zhuÄģnĠjÃŃĠ
A C
Ġ wÃ²
mi Ã¨
ĠhÃ©Ġ yuÄĵĠ
ĠÃ©rĠ ziĠ
ĠĠĠ200 6ĠniÃ¡nĠ
cuÃ²Ġ shÄ«Ġ
f Ã©ng
pÄ«Ġ zhÇĶn
Ġ hÃło
xiÃłn ĠdeĠ
pÃŃng ĠwÃ¨iĠ
qÄ«n ĠzÃ¬Ġ
ĠyÇĲĠ wÃ©iĠ
duÅįĠ zhÇĴngĠ
yÄ«ngĠ gÃ©ĠlÃ¡n
Ġs ÅįuĠ
jiÄģ ĠyÃ¬Ġ
lÃ¡n ĠdeĠ
zhÇĲĠ dÇİoĠ
Ġ wÃ¡nĠjiÄģĠ
zÃ¬ ĠdeĠ
huÃ¬ĠyÃ¬Ġ yuÃ¡nĠ
fÃº ĠdeĠ
guÄģnĠ chÃ¡
ĠxuÃ©Ġ yuÃłn
shÄĵnĠ dÃ¹Ġ
ĠzuÃ¬ ĠchÅ«Ġ
yÄģoĠ qÇĲng
ĠĠĠdÃ¬ĠfÄģngĠ zÄ«ĠliÃłoĠ
D TĠ
m ÄĽngĠ
ĠyÇĴuĠ suÇĴĠ
gÃ²u ĠdeĠ
nÃ¡ ĠxiÃłĠ
ĠchÅ«Ġ kÇĴuĠ
ĠĠĠ jiÇİnĠjiÃ¨Ġ
luÃ³ ĠlÇĲĠ
dÄ« ĠyÃºĠ
ĠhÃ²uĠ bÃ¨iĠ
nÃ¡nĠ jÄ«ng
ĠtÄģĠcÃ©ng ĠdÃłiĠbiÇİoĠ
lÃ¡i ĠyÄ«nĠ
ĠxuÃ©Ġ jiÄģĠ
Ġc ÄģoĠ
m ÄģĠ
Ġ yuÄĵ
du Ã²
nÃ©ng ĠyuÃ¡nĠ
fÄģĠ shÄĵngĠzÃłiĠ
gÇİiĠ biÃłn
ĠdÅįngĠ bÄĽiĠ
dÃŃ ĠshÃ¬Ġ
ĠshÃ¬Ġ yÄ«nĠwÃ¨iĠ
ĠdÃ¬Ġ lÇĲĠ
ĠxiÃłnĠ fÇİĠ
dÃł ĠbÃ¹Ġ
lÇĲ ĠhÃ©Ġ
tÃ¡i ĠzhÅįngĠ
ĠshÃŃĠ xÃŃngĠ
ĠchÃ©ngĠ zhÃ¨nĠ
cÃ¨Ġ liÃ¡ngĠ
jiÃłĠ shÇĲĠ
ĠshÃŃĠjÃ¬Ġ shÃłngĠ
ĠshÄĵngĠ yÃ¡Ġ
dÃŃ ĠrÃ©nĠ
Ġ xiÇİo
shÄģng ĠrÃ©nĠ
ĠyÇĲĠ xÄ«Ġ
ĠxÄ«Ġ jiÄĵĠ
ÄģnĠ pÃ¡i
ĠĠĠ 17
pÃłi ĠchÅ«Ġ
zhÃ¹Ġ zhÃ¡iĠ
dÄĽngĠ dÄĽngĠ
Ġn u
ĠzhÅįngĠguÃ³ĠrÃ©nĠmÃŃnĠ jiÄĽĠfÃłngĠjÅ«nĠ
jiÄģng ĠzÃłiĠ
ĠzhÃ¨ngĠ mÃŃngĠ
E R
quÃ¨ ĠdeĠ
la Ġ
lÄģĠ dÄ«ng
Äģn ĠshÃ¬Ġ
tÃŃ ĠchÅ«ĠdeĠ
xuÇİn ĠzhÅįngĠ
00 ĠmÇĲĠ
gÃłn ĠbÃ¹Ġ
suÇĴĠ cÇİiĠyÃ²ng
Ġk ÄĽnĠ
ĠdÃłĠxuÃ© ĠdeĠ
hÇİiĠbÃ¡ ĠwÃ¨iĠ
mÄĽi ĠzhÅįu
ĠdÃ¬Ġ yÃŃĠgÃ¨Ġ
ĠyÃ¬Ġ qÃŃngĠ
kÄģiĠ tÅįngĠ
Ġ xiÃ©Ġ
kÄģi ĠshÃ¨Ġ
biÄģo ĠbÄĽnĠ
zÃłn ĠshÃŃĠ
ĠdÃ¬Ġ qÄ«Ġ
ĠlÃ¬Ġ yÃ¬Ġ
chÄģiĠ chÃºĠ
ĠdeĠshÃ¬Ġ jiÃ¨Ġ
N B
f Ã©iĠ
xiÅ«Ġ gÇİiĠ
nÃ³ngĠ mÃŃnĠ
tÃ¡oĠ tÃłiĠ
z Ġ
ĠzhÅįngĠ guÃ³ĠdeĠ
jÄ«Ġ gÃ²uĠ
yÃ¡nĠ sÃ¨Ġ
chuÃ¡nĠ bÅįĠ
suÇĴ ĠzÃłiĠdÃ¬Ġ
ĠdÃ© ĠmÃŃngĠ
T V
Ġ tÃŃĠgÅįngĠ
shuÇĲ ĠlÃ¬Ġ
tÃłiĠ dÃ¹Ġ
tÃ³uĠ piÃło
Ġ shÇĶ
Ġ xiÇİngĠ
le ĠzÃłiĠ
fÄģ ĠmÃŃngĠ
ĠqÃŃ ĠwÃ¨iĠ
wÃ©n ĠdeĠ
zhÅįngĠ yÄģngĠ
chÇİngĠ suÇĴĠ
wÃ¡ng ĠshÃ¬Ġ
wÅ« ĠsÄ«Ġ
zÄ«Ġ bÄĽnĠ
ÄģĠlÄģĠ bÃ³
7 8
juÃ© ĠshÃ¬Ġ
rÃ³ng ĠhÃ©Ġ
ĠrÃ¡n ĠÃ©r
qi ÃłoĠ
jiÃ¹ ĠhuÃ¬Ġ
xiÅ« ĠjiÃłnĠ
zhÃŃĠ zhÃ¨ngĠ
jÇĶĠbÃłn ĠdeĠ
mÃ²ĠxÄ«Ġ gÄĵ
bÃłnĠshÃ¬Ġ chÃ¹Ġ
5 3
Ġ 25
Ġ diÃłnĠyÇĲngĠ
shu Ãłi
jÃ¬ng ĠjÃ¬Ġ
Ġ qÇĶĠ
ĠĠĠ 2Ġ
diÃłn ĠjÄ«Ġ
Ġm ÃŃ
xiÄģoĠ fÃ¨iĠ
Ġ liÃ¹Ġ
jiÃ¹Ġ dÃºĠ
shÄģngĠ yÃ¨
Ġ kÇĴngĠ
qÄ« ĠwÃ¨iĠ
Ġ yÄ«ng
pÃ¨i ĠzhÃ¬Ġ
gÅįngĠ gÃ²ngĠ
zhÇİngĠ dÃ¡Ġ
gÃ©Ġ lÄģĠ
jÃ¬ngĠ xuÇİnĠ
5 6
Ġ huÃ¡
Ġ xÃ¬Ġ
qÅ« ĠshÃ¬Ġ
wÃ©iĠ sÄ«Ġ
gu Åį
huÃł ĠzhÅįngĠ
00 ĠrÃ©nĠ
fÃ¹Ġ zhÇĶĠrÃ¨nĠ
Ġk ÄģnĠ
shÄģnĠ fÄĵngĠ
diÃłoĠ kuÃłi
t or
ĠyÇĶĠ qÃŃĠtÄģĠ
jÄ«ngĠ shÃ©n
qiÃ¡ngĠ diÃłoĠ
zhÃŃĠyÃ¨Ġ shÄĵngĠyÃ¡Ġ
Ġ dÇİoĠ
shÇĴu ĠzhÅįngĠ
lu ÇİnĠ
zÃło ĠleĠ
26 Ġ
ĠwÃ¨iĠ UTCĠ
Ġc nĠ
Ġm Ã¡ngĠ
n a
zhÄĽ ĠshÃ¬Ġ
chÃ©ng ĠhÃ©Ġ
qiÃº ĠjÃ¬Ġ
ĠrÃ©nĠ men
jÄ«nĠ rÃ³ngĠ
zÇĶĠzhÄ« ĠdeĠ
shuÃłiĠ lÇĲng
Ġ Äģi
biÄģnĠ hÃłoĠ
diÃłoĠkuÃłi ĠyÄ«ĠxiÇİoĠshÃŃĠ
Ġ jiÃ¹ĠshÃ¬Ġ
liÃ¹ ĠshÃŃĠ
ĠdÃłĠ jiÇİngĠ
zhÃŃĠ mÃŃnĠ
Ġs Å«n
ĠbÄĽiĠ jÄ«ng
kÄĵĠxuÃ©Ġ yuÃłnĠ
dÃ¡ ĠÄĽrĠ
ĠjÃŃĠ UTCĠ
shÃ¨ĠyÇĴuĠ xiÃłĠlÃ¬ngĠshÃŃĠjiÄģnĠ
ĠdeĠshÃŃĠqÅ«ĠwÃ¨iĠ UTCĠ
ĠÃ©rĠgÄģiĠdÃ¬Ġ suÇĴĠcÇİiĠyÃ²ng
ĠtÃ³ngĠshÃŃĠgÄģiĠdÃ¬Ġ shÃ¨ĠyÇĴuĠxiÃłĠlÃ¬ngĠshÃŃĠjiÄģnĠ
ĠÃ©rĠgÄģiĠdÃ¬ĠsuÇĴĠcÇİiĠyÃ²ng ĠdeĠshÃŃĠqÅ«ĠwÃ¨iĠUTCĠ
Ġ lÃ¹
zhÇİn ĠlÇİnĠ
ri c
ĠyÄ«ĠsÄ«Ġ lÃ¡nĠ
Ġ Ã¨Ġ
Ġ pÃ²Ġ
yuÃ¡nĠ zhÃ¹Ġ
ĠgÄģiĠ cÅ«nĠ
zhÇĶĠ zhÄģngĠ
ĠyÄ«nĠ sÃ¹Ġ
zhÄ«Ġ jiÄģnĠdeĠ
mÇİ ĠkÃ¨Ġ
tÇĲ ĠzhÃ¬Ġ
zhÃº ĠjiÃłn
Ġc Ã¡nĠ
ĠlÃ¬ĠshÇĲĠ shÃłngĠ
ĠlÃ¬ng ĠyÇĴuĠ
gÄģoĠyÃºĠ hÇİiĠpÃŃngĠmiÃłnĠ
A N
tÅ« ĠrÃ¡nĠ
xÃ¬ngĠ biÃ©Ġ
4 ĠgÃ¨Ġ
i sĠĠĠ
Ġ pÃł
ĠĠĠ jiÄģoĠtÅįngĠ
xÃ¬ng ĠwÃ¨iĠ
hÃ¹ ĠxiÄģngĠ
ĠbÃ¹Ġ duÃ¬
ĠgÅįngĠ juÃ©Ġ
diÃłnĠ qÃ¬Ġ
zÄ«Ġ liÃło
wÃłnĠ mÄĽiĠyuÃ¡nĠ
ĠxÄ«Ġ lÃ¡nĠ
yÃŃĠ dÃłiĠ
ĠtÃ³ngĠ yÃłng
tÄģĠmen ĠdeĠ
ĠĠĠ duÃ¬Ġ
shÃłng ĠxiÃłnĠ
zhÃŃĠ wÃ¹
suÇĴĠchÃ¹ĠdeĠ hÇİiĠbÃ¡ĠwÃ¨iĠ
suÇĴĠchÃ¹ĠdeĠhÇİiĠbÃ¡ĠwÃ¨iĠ gÄģoĠyÃºĠhÇİiĠpÃŃngĠmiÃłnĠ
ĠbÃ¹Ġ jÃŃĠ
ĠzhÅįngĠ shÄģnĠ
ĠshÃŃĠ wÃ¹Ġ
ĠqÃŃĠ xiÃłĠ
qiÄģnĠ shÇĶĠ
Ġ kÄģngĠ
zhÃ²ng ĠshÃ¬Ġ
z Å«n
shÇĲ ĠjiÃłnĠyÃºĠ
rÃ¨n ĠdeĠ
dÅįngĠ fÄģngĠ
bÃ¬Ġ yÃ¨ĠhÃ²uĠ
gÇİiĠ zÃłoĠ
4 3
n d
diÃłnĠ chÄĵĠ
xiÃłoĠ qÅ«Ġ
zhÃ¹ ĠyÇĴuĠ
al l
r ÇĶ
r ÄĽnĠ
ĠĠĠ qÃŃ
ĠĠĠ qÄ«ngĠ
fÄģ ĠxiÃłnĠdeĠ
kÄĽ ĠzÃłiĠ
ĠzhÄ« ĠyÃ¬Ġ
ĠqÃŃ ĠshÃŃĠ
tÃ¨Ġ dÃ¬ngĠ
ĠĠĠ19 0
w ÄĵngĠ
nÃ¨i ĠdÃ¬Ġ
Ã¨r ĠjÃŃĠ
.. .
ig h
zhÃŃĠmÃŃn ĠdÃ¬Ġ
Ġ wÄĵi
fÄģ ĠshÃ¨
gÃ© ĠshÃ¬Ġ
shÇĴuĠ xiÃłngĠ
ĠzhÇĶĠ xÃŃĠ
o b
luÃ² ĠchÃ©ngĠ
shÃŃĠ qÅ«Ġ
bÇİoĠ liÃº
Ġm Ã¡ng
ĠĠĠ gÄģi
jiÃłn ĠchÃ©ngĠ
pÃŃng ĠyuÃ¡nĠ
dÄĽng ĠjÃŃĠ
gÄĵng ĠxÄ«nĠ
yÃ¹nĠ yÃ²ngĠ
ĠjiÃ©Ġ guÇĴ
ĠĠĠ mÇİĠ
hÃ²u ĠwÃ¨iĠ
gÇĶ nĠ
ĠbÃ¹Ġ nÃ©ng
ĠyÄ«Ġ jiÄģĠ
yÃ¹nĠ shÅ«
Ġ tÇĶĠ
ĠlÃ¬Ġ rÃ¨nĠ
ĠwÃ¨iĠyÃºĠ gÄģiĠ
ĠĠĠ rÃ¡n
Ġ mÃ©i
Ġ shuÅįĠ
Ġ wÇİĠ
ĠbÃ¹Ġ jÇĲnĠ
pÃŃngĠ lÃ¹n
xiÃ¡Ġ qÅ«Ġ
ĠĠĠ bÄĽn
bÄģo ĠwÃ©iĠ
hÇİiĠ yÃ¡ngĠ
Ġ guÅįĠ
xuÃ© ĠyuÃ¡nĠ
ĠÃ©rĠ tÃ³ngĠ
Ġ199 7ĠniÃ¡nĠ
Ġ zhuÇİn
Ãło ĠzhÅįuĠ
ĠzÃ¬Ġ rÃ¡nĠ
dÄģngĠ dÃ¬ĠdeĠ
xÄ«nĠjiÄģĠp Åį
n Ã¨n
shÄ«Ġ qÃ¹Ġ
zhÃ¨nĠqÅ«ĠdeĠ miÃłnĠjÄ«ĠwÃ¨iĠ
ĠĠĠ yÄ«nĠ
yÃ¡nĠ hÇİiĠ
ĠsuÃŃ ĠzhÃ¹Ġ
5 9
Ġ wÃ¡nĠ
jÃ¬n ĠbÃ¹Ġ
liÇİng ĠwÃ¨iĠ
fÅ«Ġ kÇİĠ
Ġh ÇĶĠ
d ÇİnĠ
k ÇĶĠ
Ġ chÃ¡Ġ
bÅį ĠsÄ«Ġ
jÃº ĠdeĠ
ĠxuÃ©Ġ zhÄĽĠ
ĠxÃŃngĠzhÃ¨ngĠ qÅ«Ġ
jiÃłoĠyÃ¹ ĠbÃ¹Ġ
liÇİngĠ cÃ¬Ġ
xÃ¬nĠ yÇİng
duÃ¬ ĠqÃŃĠ
Ã¨r ĠrÃ©nĠ
ĠtÄģ ĠyÇĲĠ
ĠyuÃ¡nĠ zÃ¬Ġ
jÃ¬ngĠ zhÄĵngĠ
am Ġ
1 ĠgÃ¨Ġ
ĠzuÃ²Ġ chÅ«Ġ
rÃºĠ guÇĴĠ
lÃ¬ngĠ yÃŃĠgÃ¨Ġ
6 9
ĠduÃ¬Ġ shÇĴuĠ
fÇİnĠ huÃŃ
t oĠĠĠ
Ġ Y
Ġ miÃłnĠ
jiÄģ ĠyÇĲĠ
zuÃ¬ ĠchÅ«
biÄģn ĠyuÃ¡nĠ
ĠzhÅįuĠ cÃ¬ĠshÇĲĠ
quÃ¡n ĠqiÃº
qÃ¬Ġ chÄĵ
xiÄģoĠ shÄ«Ġ
Ġ 9Ġ
jÃ¬ ĠyÇĴuĠ
suÇĴ ĠwÃ¨iĠ
miÃłn ĠshÃłngĠ
ĠzÃłiĠ 196
ĠdÃ¬Ġ qiÃº
Ġc Ãłi
cÃ¡iĠ nÃ©ngĠ
zÃłoĠ chÃ©ngĠdeĠ
ĠdeĠbÃ¹Ġ fÃ¨nĠ
Ġ rÃ³ngĠ
cÃ¬ ĠyÃºĠ
liÇİng ĠguÃ³Ġ
ĠyÄ«Ġ jÃ¹Ġ
ĠxÄ«Ġ lÃł
ĠlÇĲĠ xÄ«Ġ
chÃ¡ngĠ dÃ¹Ġ
tiÃ¡nĠ jÃ¬ngĠ
xuÄģnĠ chuÃ¡n
dÇĴng ĠshÃ¬ĠzhÇİngĠ
r Ãło
Ġ yÃŃngĠ
yÃ¬Ġ shÃ¹Ġ
T ub
chu Ä«Ġ
shÄ« ĠgÅįngĠ
xiÄģngĠ guÄģnĠdeĠ
ĠdeĠ yÇĲngĠxiÇİngĠ
chÃ³ngĠ qÃ¬ng
Ġ199 4ĠniÃ¡nĠ
jÃ¹n ĠgÅįngĠ
hÅ«n ĠyÄ«nĠ
ĠdÃ© ĠzhÄ«Ġ
ĠjÄ«Ġ jÄ«nĠhuÃ¬Ġ
jiÄĵĠ duÃłn
lÃŃĠ kÄģi
xiÃłoĠlÃ¬Ġ yÃºĠ
I S
guÃ³Ġ jiÄģ
quÄĵĠ fÃ¡
ÄģĠlÄģĠ bÃ³Ġ
3 1Ġ
Ġ 12Ġ
su Äģn
pÃŃng ĠdeĠ
duÃ¬Ġ zhÇİngĠ
ĠlÇĲĠ yÃłĠ
kÇİĠ luÃ³Ġ
tÇĲĠyÃ¹Ġ chÇİngĠ
A P
Ġ tÃ¡oĠ
zhÃłn ĠshÃŃĠ
xÄ«n ĠchÃ©ngĠ
Ġ199 2ĠniÃ¡nĠ
wÄĽiĠyuÃ¡nĠhuÃ¬Ġ wÄĽiĠyuÃ¡nĠ
ĠjiÃ© ĠkÃ¨Ġ
ÃłiĠÄĽrĠ lÃ¡nĠ
ĠdÃ¬Ġ liÃ¹Ġ
ĠÄĽrĠ duÅįĠ
Ġ rÃ©ng
guÄģn ĠjiÃłnĠ
ĠdeĠ xÄ«Ġ
ĠjÃŃĠ dÃłĠ
ĠyÃ¬Ġ yÃºĠ
bÃ¨iĠ jÇĲngĠ
Ġ 2ĠyuÃ¨Ġ
jÃ¬Ġ niÃłn
shÅ«Ġ yuÃłnĠ
fÃ¨nĠ zÇĲ
jiÃłngĠ lÇĲngĠ
7 9
f Ġ
s s
ĠwÃ¨iĠ dÃłĠ
k uÃ¬Ġ
p Çİo
ĠĠĠ shÃ¨ngĠ
diÇİn ĠshÃ¬Ġ
27 Ġ
ĠzhÃ¬Ġ liÃłngĠ
jÅ«Ġ zhÃ¹ĠzÃłiĠ
Ġzh ÄģnĠ
ĠyÃºĠ201 6ĠniÃ¡nĠ
jiÃło ĠdÃłĠ
sÄģn ĠmÃŃngĠ
pÃ¨i ĠyÄ«nĠ
ĠmÇİĠ lÃ¡i
c Äģng
ĠshÃŃĠ duÃłnĠ
ĠqÃŃ ĠdeĠ
ĠsÄ«Ġ kÃ¨
jiÃ©Ġ dÃ¹Ġ
8 8
zhÃ¨ ĠshÃ¬Ġ
gÄģoĠ xiÃ³ng
m iÃ¡nĠ
ĠyÃºĠ lÃ¨
tiÄģnĠ tÇĲĠ
ĠĠĠ200 5ĠniÃ¡nĠ
chuÃ¡nĠtÇĴng ĠdeĠ
zÄģi ĠpÃ©iĠ
pÃ¬ nĠ
bÃłn ĠdeĠ
tuÄ« ĠchÅ«
ĠzhÃ¬Ġ zuÃ²ĠdeĠ
dÅįngĠ bÄĽi
bÅįĠ lÃŃĠ
fÃ¨iĠ chÃºĠ
b aĠ
ĠĠĠ nÃ¡nĠ
ĠĠĠ jÇĲnĠ
zÃ¬ ĠwÃ¨iĠ
ĠxiÃłn ĠyÇĲĠ
p Ã©i
Ġ fÃ¨ngĠ
ĠjiÃłn ĠshÃ¨
Ġ pÃłĠ
ch Ġ
zhÃ¨n ĠdeĠ
ĠqÃŃĠzhÅįngĠ bÄģoĠkuÃ²Ġ
Ġ199 6ĠniÃ¡nĠ
l an
p Ã¡n
shÃ¹ ĠshÃŃĠ
huÃ¬Ġ zhÇİngĠ
ĠdÄģngĠ shÃŃĠdeĠ
s iĠ
bÅį ĠshÃ¬Ġ
fÄģĠ dÃ²ngĠjÄ«Ġ
fÃ¹ ĠhÃ©Ġ
liÃ¡n ĠdeĠ
lÄģ ĠjÄ«Ġ
tÃŃngĠ chÄĵĠ
quÃ¡n ĠxiÃłnĠ
xiÅ« ĠfÃ¹Ġ
ĠdÃ¬Ġ diÇİnĠ
ĠbÃ¬ngĠ yÃ³uĠ
chÃ¡ iĠ
ĠdÃ© ĠsÄ«Ġ
ĠwÃ©iĠ ÄĽr
ÃłoĠ mÃ©n
cÅ«nĠ luÃ²Ġ
ĠĠĠdÃ¬Ġ Ã¨rĠ
ĠyÃºĠ201 5ĠniÃ¡nĠ
zÃºĠqiÃº ĠjÃ¹ĠlÃ¨ĠbÃ¹Ġ
fÃº ĠlÃ¬Ġ
qÇĲ ĠyuÃ¡nĠ
nÃ¨i ĠzhÃłnĠ
ĠguÃ³ĠwÃ¹Ġ yuÃłnĠ
k Ã©Ġ
Ġ lÇĶĠ
lÇĲ ĠchÃ©ngĠ
shÄ« ĠrÃ©nĠ
fÄģĠ qÇĲ
tÃ¨Ġ xÃ¬ngĠ
mÇİnĠ zÃºĠ
ĠbÃ¹ĠbÃ¹Ġ zhÇİngĠ
bÃ¬ng ĠbÃ¹Ġ
di Äģo
ĠdÃłĠ lÃ³u
Ġ zhÃ¨ngĠzhÃ¬Ġ
ĠdÃ¬Ġ dÃłiĠ
ĠzhÃ¬Ġ dÃ¬Ġ
dÃłĠ lÃ¹
q ÃºĠ
Ġ chÄĵng
xÄ« ĠhÃ©Ġ
ĠjÃ¹Ġ lÃŃ
zhu ÃłnĠdeĠ
wÄĽi ĠfÃ¹Ġ
Ġp Ã¬
ĠyÃ¹Ġ shÇĲĠ
ĠyÃºĠ202 1ĠniÃ¡nĠ
e ar
ĠyÇĲĠ wÃłiĠ
jiÄģnĠ dÅ«Ġ
ĠwÃ©iĠ sÄ«Ġ
tuÃ¡nĠ tÇĲ
Ġl ÃłiĠ
sÃ¬ ĠdeĠ
dÅįu ĠbÃ¨iĠ
mÇĶ ĠdeĠ
fÅ« ĠdeĠ
jiÄģoĠ liÃº
ĠshÃ¬Ġ dÃ©ĠguÃ³Ġ
ĠyÇĶĠ yÃ¡n
shÇĲĠ shÃłngĠ
zÃ¬Ġ mÇĶĠ
wÃºĠzhÃ¨ngĠzhuÃłngĠgÇİnĠrÇİnĠ zhÄĽĠ
ti Äĵ
xÃ¬ng ĠhÃ©Ġ
lÃ¡ng ĠzhÅįngĠ
ĠshÃ¬Ġ gÅįngĠ
ĠbÃ¹Ġ bÄ«ngĠ
ĠxÃŃngĠ mÃ¹Ġ
ĠjÃ¹Ġ juÃ©Ġ
pÃłiĠ qiÇİnĠ
Ġ luÃ³
Ġ xiÃ¨
Ġ 11Ġ
bÇİi ĠniÃ¡nĠ
luÃ²Ġ fÃ¡
You Tub
hÃło ĠxiÃłn
ou r
ĠĠĠ de
xÄ« ĠdÃ¬Ġ
ĠshÃ¬Ġ yÄ«ĠbÃ¹Ġ
ĠchÃ©ngĠ kÃ¨Ġ
ĠyÇĶĠ yÄ«Ġ
qÄ«Ġ zÇĲ
ĠzhÅįuĠ fÇĶĠ
cÇİiĠ qÇĶ
Ġ199 3ĠniÃ¡nĠ
ĠhÃ©Ġ dÃłoĠ
ĠyÃºĠ201 2ĠniÃ¡nĠ
ĠyÃºĠ201 8ĠniÃ¡nĠ
xiÄĽ ĠzuÃ²Ġ
hÄĽnĠ kuÃłiĠ
Ġ 24
ĠwÃ¨iĠyÃºĠ mÄĽiĠguÃ³Ġ
Ġ nuÃ²Ġ
wÃ¹ ĠshÃ¬Ġ
jiÄģnĠ rÃ¨nĠ
ĠfÃ¹Ġ jÃ¬n
diÃłnĠshÃ¬Ġ tÃ¡i
miÇİnĠ fÃ¨iĠ
bÃłng ĠqiÃºĠ
jiÄģnĠ yÃ¹Ġ
Ġ dÄģn
liÃłng ĠwÃ¨iĠ
jiÇİ ĠdÃ¬Ġ
zÇĴu ĠxiÃłngĠ
ĠlÇĲĠ kÃ¨Ġ
lÃŃngĠ chÃ©nĠ
g Çİo
ĠĠĠ 5
zÅįng ĠyÃ¬Ġ
ĠzÃłiĠ hÃ©Ġ
ĠyÄ«Ġ yuÃłn
ÇĴuĠ xiÃłngĠ
3 3Ġ
O N
o ng
Ġ 20Ġ
hÃ²u ĠyÃ¬Ġ
nÃł ĠdeĠ
zuÃ²Ġ wÃ©i
ĠĠĠ gÃ¨ĠrÃ©nĠ
zÇĴng ĠrÃ©nĠkÇĴuĠ
yÃ¬nĠ nÃŃĠ
qÄ« ĠshÃŃĠ
kÇİo ĠshÃ¬Ġ
sÅ«Ġ gÃ©ĠlÃ¡nĠ
n Ã¬
Ġ zhÄĵngĠ
ĠwÃ©iĠ chÃŃ
liÃ¡nĠ jiÄĵ
zhÇĶĠyÃ¬Ġ zhÄĽĠ
ĠyÃºĠ201 4ĠniÃ¡nĠ
p p
kÅįngĠ qÃ¬Ġ
wÃºĠxiÃłnĠ diÃłnĠshÃ¬Ġ
ĠsÄ«ĠlÃ¬ng ĠbÃ¹Ġ
wÇĶ ĠshÃ¬Ġ
guÇİngĠ chÇİng
Ġ194 5ĠniÃ¡nĠ
guÃ³ ĠshÃ¬Ġ
gÇĶ ĠlÃ¬Ġ
ĠjÄ«Ġ chÇĶ
c Ã¡n
shÇĲ ĠrÃ©nĠ
jiÃ¹ ĠyuÃ¡nĠ
jÄ«ngĠ diÇİnĠ
zhÄģnĠ mÇĶĠsÄ«Ġ
c Ã¡ng
ar k
7 7
zÃ© ĠzÃłiĠ
tiÄģn ĠhÃ²uĠ
te Ġ
ĠwÃ¨iĠfÃºĠqÃŃĠyÃºĠ gÄģngĠ
Ġ tÃ¡ng
Ġ yÃºnĠ
chÄĵ ĠduÃ¬Ġ
bÃ¬ ĠdeĠ
mÃłi ĠkÃ¨Ġ
bÃ¨iĠ chÄĵngĠwÃ©iĠ
shÄģnĠ mÃłiĠ
gu Ãł
hÃ¹ ĠbÃ¹Ġ
wÇİ ĠÄĽrĠshÄĽngĠ
ĠyuÃ¡nĠ bÄĽn
ĠchÅ« ĠdÃłoĠ
b ÃŃĠ
shÅįu ĠdÃłoĠ
re Ġ
ĠshÃ¬Ġ huÃ¬Ġ
guÇİnĠlÇĲĠ jÃºĠ
Ġ fÄģĠxiÃłnĠ
Ġ zÃ¡ĠzhÃ¬Ġ
huÃŃ ĠyÃ¬Ġ
ĠgÅįngĠ lÇĲĠdeĠ
ĠÄĽr ĠshÃ¬Ġ
dÅįngĠ jÄ«ng
ĠzuÃ²Ġ zhÃłnĠ
shÃłoĠ nÇļĠ
hÅįngĠ zhÃł
guÇİn ĠzhÃ¬Ġ
ĠmÃŃng ĠzhÃ¬Ġ
yÃ¡n ĠrÃ©nĠ
xiÇİn ĠzhÃ¹Ġ
guÃ³Ġ wÃ¹Ġ
ĠxiÃłn ĠchÃ©ngĠ
yÇĲnĠ yÃ²ngĠ
xÃºnĠ zhÇİoĠ
wÃłngĠ yuÇİnĠ
jÄ« ĠzÃłiĠ
guÃ² ĠleĠ
wÃ©iĠ zhÇĶĠ
ĠyÃºĠ201 7ĠniÃ¡nĠ
ĠshÃŃĠyÃłn ĠshÃ¬Ġ
dÃ¹ ĠhÃ©Ġ
xiÅ« ĠdÃłoĠ
ĠdÃ¬Ġ tiÄĽ
ĠdÃłĠ gÅįngĠ
el l
9 5
l ÄĽng
gÇİiĠ shÃłnĠ
Ġ kÇİ
zhu ÄģĠ
ĠjÃŃĠ shÇĲĠ
luÃ²Ġ shÄģnĠjÄ«Ġ
jiÇİoĠ dÃ¹Ġ
Ġ lÇļĠ
ĠĠĠ rÃ©nĠ
Ãło ĠÄĽrĠ
ĠdÃ¬Ġ fÄģng
chÄĵĠ xiÄģngĠ
Ġ xiÄģn
Ġ liÃ¡nĠhÃ©Ġ
ĠdÃ¬Ġ tÃºĠ
ĠyÃºĠ 193
Ġ yÃ²ng
Ġ 23
202 5ĠniÃ¡nĠ
zuÇĴ ĠyÃ¬Ġ
ĠniÃ¡n ĠĠĠ
ĠchÃ©ngĠ bÄĽnĠ
zhÇĶĠ tÃŃ
ĠÃ©rĠ fÄĵiĠ
ĠzuÃ¬ ĠjiÄģĠ
Ġ yÃ¬ĠshÃ¬Ġ
Ġ xÃºĠ
dÃ¬ ĠhÃ©Ġ
jiÄģĠ tÃŃngĠ
ĠxÃŃngĠ dÃ²ng
l Çİn
shÃ¨ ĠbÃ¨iĠ
ĠwÃ¨iĠ yuÃ¡nĠ
gÃ©Ġ lÃŃĠ
mÃ¹ ĠdeĠ
zÇĶ ĠdeĠ
yuÃłn ĠyÃ¬Ġ
ĠyuÃ¨Ġ duÃ¬Ġ
ĠyÃ¬Ġ jiÃłnĠ
kÅįngĠ jiÄģn
zhÃ¨ngĠfÇĶ ĠdeĠ
s ÇİnĠ
t Ä«
Ġ yÃŃĠgÃ¨
ĠĠĠ dÄģngĠ
bi Çİn
ĠjÅ«nĠ qÅ«Ġ
jÇĲngĠ gÃłoĠ
ĠĠĠ chÅ«Ġ
yÃº ĠhÃ©Ġ
shÄģn ĠxiÃłnĠ
cÃ©ng ĠdeĠ
jiÇĶ ĠdeĠ
ĠxiÃłn ĠjÃŃĠ
Ġ dÃłi
Ġ suÅįĠ
shÃłng ĠbÃ¹Ġ
S ta
dÇİo ĠshÃłngĠ
fÃłng ĠzÃłiĠ
ĠkÃ¨ ĠÄĽrĠ
cÃŃĠ zhÃŃĠ
wÃłiĠjiÄģo ĠbÃ¹Ġ
mÃ²ĠsÄ«Ġ kÄĵĠ
ĠĠĠ sÄ«Ġ
cÇĲ ĠtÃ³ngĠshÃŃĠ
gÃ²uĠm Çİi
u Ġ
Ġ bÇİ
kÄģi ĠgÅįngĠ
tÅįng ĠzhÄ«Ġ
bÃ¬Ġ miÇİn
7 6
Ġ gÄĵ
yÃ¡n ĠzhÃ¬Ġ
liÃºĠ yÃ¹Ġ
liÃ¨Ġ rÃ¹Ġ
ĠfÃº ĠjiÃłnĠ
Ġ xiÃ¡nĠ
th Ġ
ĠĠĠ zhÃ¨ngĠ
18 8
huÃłnĠ zhÄĽĠ
Ġ kÃ¹Ġ
jÇĲn ĠyÇĴuĠ
shÇĴuĠ dÅ«
cÄģnĠ xuÇİnĠ
Ã©ĠluÃ³Ġ sÄ«ĠdeĠ
r Ã³uĠ
kÇĴu ĠdeĠ
ĠzhÄ« ĠshÃ¬Ġ
fÃ¹Ġ jÃ¬n
9 8
y p
Ġ zhÄģoĠhÃ©Ġ
Ġ nÃ©ngĠ
qÄ«nĠ wÃ¡ngĠ
chuÃłngĠ zuÃ²ĠdeĠ
ĠyÃºĠ201 3ĠniÃ¡nĠ
ĠwÇĴĠ men
ĠshÄģnĠ dÅįngĠ
zhÄĵng ĠyuÃ¨Ġ
cÃŃ ĠdeĠ
jÄ«Ġ chÇĶ
chÃ¹Ġ zhÇİngĠ
shuÄģngĠ dÇİĠ
Ġ199 5ĠniÃ¡nĠ
s ÃłngĠ
Ġ cÄģnĠyÃ¹Ġ
cÃ³ng ĠwÃ¨iĠ
qiÃ¡ng ĠzhÃ¬Ġ
lÇĲĠ lÃ¹n
ÄģnĠ zhuÄģngĠ
guÄģnĠ fÄģng
dÃ²ngĠ huÃł
ĠyÃºĠ202 2ĠniÃ¡nĠ
g ÄģĠ
bÃ¬Ġ miÇİnĠ
ĠluÃ³Ġ mÇİĠ
tÃŃĠchÅ«Ġ leĠ
Ġ 29
xuÃ© ĠzhÅįngĠ
fÄĵng ĠfÃ¹Ġ
ĠgÃ¨ ĠguÃ³Ġ
chÅįngĠ tÅ«
Ġ hÃ¹Ġ
fÃ¹ ĠshÃ¬Ġ
shÄģn ĠdÃ¬Ġ
ĠzÃłiĠ 194
ĠdÃ©Ġ lÄģĠ
00Ġ mÇĲ
ĠB Ġ
ĠĠĠ bÄģĠ
sÄ« ĠshÃ¬Ġ
shÃ¨ng ĠchÅ«Ġ
ÄģĠ gÄĵnĠ
yÇĲnĠ rÃ¹Ġ
zhÃłoĠ piÄģnĠ
yÇĲng ĠshÃ¬Ġ
cÇİiĠ fÇİng
ĠĠĠ gÃ¹ĠshÃ¬Ġ
ĠsÄ«Ġ mÇİĠ
Ġp Åį
mÇİĠlÃ¡i ĠxÄ«ĠyÃł
Ġ liÃ¹
Ġ bÇİĠ
ĠĠĠ 10
ĠjÄ«Ġ hÅ«
zhÇİngĠ guÄģnĠ
ĠyÄ«ngĠ wÃ©nĠ
bÃ³Ġ lÃŃnĠ
xiÃł ĠzÃłiĠ
pÄ« nĠ
fÄģĠ shÄĵngĠdeĠ
huÃ¡ngĠ sÃ¨Ġ
bÃ¹ĠdeĠ cÅ«nĠzhuÄģngĠ
ĠĠĠyÇĲĠ xiÃł
zÃłn ĠzhÃ¹Ġ
ĠyÇĴuĠ xiÄĵ
zÅįngĠ jiÃło
5 4
Ġ xÅ«Ġ
xiÄģng ĠshÃ¬Ġ
guÇİn ĠdeĠ
ĠyÃºĠ 2019ĠniÃ¡nĠ
qiÃ¡ngĠ dÃ¹Ġ
shÅįuĠ lÃ¹
Ġ198 5ĠniÃ¡nĠ
ĠĠĠ 16
ĠyuÃ¨Ġ lÃ¡iĠyuÃ¨Ġ
a h
n Ã¹Ġ
Ġ 00
jiÄģ ĠzÃłiĠ
sÅ« ĠwÃ©iĠ
jiÃłng ĠyÇĶĠ
hÇİiĠ Ãłn
ĠfÃ¹Ġ jÃ¬nĠdeĠ
ĠdÃłnĠ bÃ¡iĠ
gÇĶĠ lÇİo
xiÇİoĠxÃŃngĠ xÄ«ng
duÅį ĠmÃŃngĠ
qiÃ¡ng ĠdeĠ
ĠyÃºĠ 2020ĠniÃ¡nĠ
ĠchÃ©ngĠ xiÃłn
ĠrÃ©nĠ dÃłĠ
ĠzhÄ« ĠdÃ¬Ġ
tÃłiĠ kÅįngĠ
tÃŃngĠ kÃłoĠ
pÄģi ĠshÃ¨
Ġ jiÇİ
guÃłn ĠjÅ«n
ĠshÃŃĠ hÃ²uĠ
yuÃ¨Ġ nÃ¡nĠ
ĠgÅįngĠ yÃ¬ngĠ
ĠzhÄ« ĠjiÄģĠ
ĠkÃ¨ ĠhÃ©Ġ
ĠbÃ¨iĠ pÃ²Ġ
Ġs ÃºĠ
Ġ202 5ĠniÃ¡nĠ
lÃ¡oĠ dÃ²ngĠ
3 8Ġ
ĠgÃ¨Ġ zhÇĴng
Ġ199 0ĠniÃ¡nĠ
ec tion
p ÄĵnĠ
Ġ Q
zÇİo ĠshÃłngĠ
ĠbÃ¹Ġ mÇİnĠ
zhÃłnĠ tÃ¡iĠ
Ġ xiÃ¨Ġ
fÄĵi ĠxÃŃng
tÃ³ngĠ xÃ¬ngĠ
ĠfÃ¹ĠzÃ©Ġ guÇİnĠxiÃ¡Ġ
3 6Ġ
Ġ ì
sÄģn ĠdÃłĠ
hÅ« ĠyÃ¹Ġ
ĠxÄ«Ġ ÄĽrĠ
pÇĶĠ biÃłn
huÃŃĠ guÄ«Ġ
xuÇİnĠjÇĶ ĠzhÅįngĠ
m an
liÃ¨ ĠchÅ«Ġ
ĠyÄ«Ġ zhÃŃĠ
dÄ«Ġ qÃ¬Ġ
Ġ bÄ«ngĠ
tu ÇĴ
dÃ¹n ĠdeĠ
s Ãº
Ãłn ĠshÃ¬Ġ
biÄģn ĠwÃ¨iĠ
mÃ² ĠÄĽrĠ
jÃ¬Ġ suÃłn
ĠxiÃłnĠ shÃłngĠ
xiÃłĠ lÃ¡iĠ
a ni
ĠĠĠ wÃ©iĠ
lÄģ ĠdeĠ
lÄģ ĠdÃ©Ġ
guÇİng ĠzhÅįu
yÃŃnĠ pÃ¡iĠ
shÄģnĠdÅįngĠ shÄĽngĠ
t o
shÅ« ĠchÅ«Ġ
ĠyÃ³u ĠjÄ«Ġ
liÇİoĠ jiÄĽĠ
Ġ juÃ©ĠdÃ¬ngĠ
Ġ wÃłnĠlÃ¬Ġ
mÃŃngĠ dÄģnĠ
xiÃłĠ jiÃłngĠ
duÃ¬ ĠyuÃ¡nĠ
bÇİo ĠdeĠ
gÇĶĠ lÄģĠ
ĠÃ©rĠgÄģiĠ dÃ¬ĠdeĠ
qiÃ¡n ĠhÃ²uĠ
guÃ³Ġ wÃ¡ngĠ
tiÄģnĠ rÃ¡nĠ
Ġ tiÄĽĠ
shÃ¬ ĠĠĠ
lÃ¡n ĠxÄ«Ġ
zhÃ¬Ġ 199
ĠshÃŃĠ xiÃłn
xiÄģngĠ tÃ³ngĠdeĠ
zhÇĲĠ kÃ²ngĠ
jiÃłnĠ zhÃ¹
om p
e tĠ
s Äģng
sÄģn ĠrÃ©nĠ
bÃ³Ġ juÃ©Ġ
zÇİoĠ qÄ«ĠdeĠ
Ġ dÃ¬ngĠ
shÃŃ ĠhÃ©Ġ
ĠjÃ¬Ġ lÃ¹
ĠjÃ¬Ġ yÃ¬Ġ
jÃ¹Ġ qÃŃngĠ
ĠchÅ«Ġ yÇİnĠ
xiÄģngĠ bÇĲĠ
liÃ¡nĠ rÃ¨nĠ
jÃ¬ngĠ nÃ¨i
wÇĴĠ men
Ġ199 1ĠniÃ¡nĠ
mÃŃnĠzhÇĶĠ dÇİng
qiÃº ĠhuÃ¬Ġ
bÃłn ĠniÃ¡nĠ
ĠjÃŃĠ bÃ¬ngĠ
ĠkÃ¨ ĠlÃ¬Ġ
mÄĽiĠ yuÃ¡nĠdeĠ
ĠyÇĲĠsÃ¨Ġ liÃ¨Ġ
200 2ĠniÃ¡nĠ
ĠjiÄģĠ lÄģĠ
diÃłnĠ nÇİo
fÄĵnĠ pÃ¨iĠ
shÃ²uĠ quÃ¡nĠ
sÄĵnĠ lÃŃn
a tĠĠĠ
e x
i ch
zhÄ« ĠshÃŃĠ
shÃ© ngĠ
zÄģo ĠyÃ¹Ġ
ĠhÃ©Ġ gÇĶĠ
cÃ¡iĠ liÃło
p ÇİoĠ
tÃ¨ ĠlÃ¬Ġ
duÅį ĠgÃ¨
ĠchÃ©ngĠ leĠ
ĠyÇĲĠ qiÃ¡nĠ
xÄ«ngĠ qÄ«
7 4
Ġ gÄĵnĠ
tÃº ĠdeĠ
ĠshÃŃĠ bÃłoĠ
bÄĽiĠ fÄģngĠ
Ġs Ãłn
yÇĶ nĠshÃŃĠ
ĠwÃ¨iĠ nÃ©ng
tÃ¨Ġ lÄģĠ
ĠduÃ¬Ġ cÇĲĠ
jiÄĵĠ rÃ¨nĠ
a yĠ
sÄģn ĠgÃ¨
mÇİĠ lÄģĠ
ĠĠĠgÃłiĠ yÃłoĠ
a w
l Ã²uĠ
Ġ chuÄģnĠ
Ġ yÃ¡oĠ
200 3ĠniÃ¡nĠ
shÇĴuĠ bÅįĠ
B S
fÄĵn ĠdeĠ
ĠyÇĶĠ qÃŃĠ
duÅįĠ cÃ¬
shÃ©nĠ me
ĠĠĠ fÃ¹Ġ
ĠyÄ«Ġ liÃ¡oĠ
pÇĶĠ chÃ¡Ġ
ĠyÃºĠ202 3ĠniÃ¡nĠ
Ġd Ã¨ngĠ
tÇİ ĠÄĽrĠ
yÃ¡nĠjiÅ« ĠshÄĵngĠ
Ġ195 0ĠniÃ¡nĠ
9 6
h ÇĶ
wÇİng ĠshÃłngĠ
ĠxiÃłn ĠyÇĴuĠ
qÄ«ngĠ shÃłoĠniÃ¡nĠ
lÇĲngĠ dÇİoĠdeĠ
cÄģnĠ shÃ¹Ġ
tÃ¨ ĠÄĽrĠ
pi ÄģoĠ
ĠjiÄģĠ tÃŃng
qÃ¬Ġ xuÃ¡nĠ
shÃ¨Ġ huÃ¬
Ġ198 8ĠniÃ¡nĠ
Ġ15 Ġ
ĠĠĠzÄĵngĠ zÇĶĠ
yÃ³u ĠxÃŃngĠ
hÇİo ĠpÃŃngĠ
ĠzhÅįngĠ jiÄģnĠ
e le
Ġ juÃ©Ġ
qÃŃng ĠdeĠ
nÃ¡nĠ zi
chÇİngĠ bÇĲĠsÃłiĠ
fÃ¡ngĠ wÅ«Ġ
wÃ¡nĠ zhÄĽngĠ
shÄĵngĠ yÃ¡
ĠbÃ¨iĠ ÄĽr
ĠzhÇĶĠ yÇİnĠ
Ġ yÃŃ
Äģn ĠrÃ©nĠ
ch Ä«
tÃ³ng ĠmÃŃngĠ
tÃ¨ ĠyÇĴuĠ
ĠwÃ¨iĠ zÃłiĠ
ĠxÃŃng ĠbÃ¹Ġ
ĠyuÃ¡nĠ yÄ«n
fÃ¹Ġ jÃ¬nĠdeĠ
tÃ¨Ġ zhÄĵng
shÄģĠ sÇĲĠ
B C
Ġ chuÃłng
Ġ kÇİoĠ
mÃ¬ ĠdeĠ
pÃ¨i ĠbÃ¨iĠ
ĠgÅįngĠ nÃ©ng
2 ĠmÇĲĠ
Ġ shÄģ
wÃ©n ĠzhÅįngĠ
dÃ¡ ĠzhÅįuĠ
ĠwÃ©iĠ rÃłoĠ
Ġc Ã¡o
qÄ«ngĠ chÃ¡oĠ
gÇİiĠ zhÃ¬ĠwÃ¨iĠ
ĠĠĠdÃ¬Ġ yÄ«Ġ
8 5
s ÄĵngĠ
Ġ lÃ¡i
Ġ bÇİo
hÃ© ĠzÃłiĠ
gÇİng ĠyuÃ¡nĠ
bÇİoĠ luÃ³Ġ
fÃ¨iĠ yÃ¡nĠ
Ġ fÇİ
Ġ shÇĴu
xÄ«n ĠshÃ¬Ġ
cÃºn ĠdeĠ
cÄģnĠ tÄ«ngĠ
zhÇĲ ĠdeĠ
dÄĽng ĠdeĠ
lÇľĠ sÃ¨Ġ
C O
fÃº ĠlÇĲĠ
wÇĶ ĠgÃ¨Ġ
tÃłi ĠdeĠ
piÃłn ĠdeĠ
ĠzÃłiĠ xÄ«nĠ
fÄģngĠ mÇĲĠ
xÃ¬ngĠ nÃ©ngĠ
yÇĲngĠ xiÃłngĠ
fÃ¨iĠ yÃ²ngĠ
l y
Ġ bÃ¡i
Ġ sÃ¹Ġ
Ġ qÄ«nĠ
xÃ¹ ĠlÃ¬ĠyÃł
xÃŃngĠ tÃłiĠ
zÃłnĠ tÃŃngĠ
W Ġ
ĠzhÃ¬Ġ yÃŃĠ
dÃłĠ qÅ«Ġ
liÃ¡nĠ jiÃ©Ġ
ĠzhÃ¨Ġ yÃłngĠ
shÄĽngĠ jiÄĵĠrÇİngĠ
Ġl Ã¡o
Ġ xuÇİnĠ
Ġ guÇİngĠdÅįngĠ
sÃ¬ ĠshÃ¬Ġ
xÄ«Ġ nÃ¡nĠ
ĠjÃ¬nĠ zhÇĲĠ
zhÃ¡ i
shÄĵn ĠshÃ¬Ġ
zhuÄģnĠ yÃ¨
gÃ¹Ġ dÃ¬ngĠ
ĠwÃºĠ fÇİĠ
sÄģn ĠjÃŃĠ
zhÄĽ ĠhÃ©Ġ
ĠbÃ¹Ġ shÇİo
ĠdÃ¬Ġ 1Ġ
tuÄ«Ġ guÇİngĠ
zuÃ¬ ĠwÃ¨iĠ
ĠsÄ«Ġ tÇİĠ
jÃ¬ngĠ zhÄĵng
chÅ«Ġ qÄ«Ġ
7ĠyuÃ¨Ġ 1ĠrÃ¬Ġ
wÅ«Ġ rÇİnĠ
Ġh ÅįngĠ
t Ã²ng
Ġ xiÄģnĠhÃ²uĠ
shÄĵnĠ qÇĲng
zhÃł ĠdÃłnĠ
mÇİ ĠkÃ¨ĠsÄ«Ġ
ĠĠĠ jÄ«nĠ
zhÄĽ ĠhuÃ¬Ġ
wÃ¡ng ĠwÃ¨iĠ
ĠsÄ«Ġ kÄĵĠ
ĠshÃ¬ĠyÄ«Ġ kÄĵĠ
ĠquÃ¡nĠ zhÇİngĠ
ĠzÃłiĠyÃ¬Ġ qÇĲĠ
Ġ shÃ©n
huÃŃ ĠguÃ³Ġ
zhÃŃĠ shÄĵngĠ
xiÄģoĠ liÃłngĠ
chuÃłngĠ zÃłoĠ
xÃ¬ĠliÃ¨ ĠdeĠ
Ġ tÃłi
Ġ hÃº
jiÄģng ĠtÄģĠ
ĠshÃŃĠ xÃ¬ngĠ
ĠdÃ¬Ġ zhÃ¨nĠ
xÄ«nĠ wÃ©n
tÃ¨Ġ diÇİnĠ
zhÇİngĠ zÇĲĠ
ĠshÃ¨ĠhuÃ¬Ġ zhÇĶĠyÃ¬Ġ
ĠmÃłi ĠkÃ¨Ġ
Ġ zhÃ²ng
fÄĵn ĠchÃ©ngĠ
yÃ¬ng ĠjÃŃĠ
gÄģoĠ dÃ¡Ġ
Ġ18 5
tÇİoĠ lÃ¹n
lÄģ ĠhÃ©Ġ
luÃ² ĠsÄ«Ġ
ĠbÃ¹Ġ lÃ¡iĠ
ĠjÃŃĠ hÃ²uĠ
ĠgÅįngĠ qÇĲngĠ
fÃºĠ luÃ³ĠlÇĲĠ
wÇĶĠ qÃ¬
ĠshÃ¬ĠjiÃ¨Ġ bÄĵiĠ
Ġf ÇĴuĠ
chÇİnĠshÄĵngĠ leĠ
d ÇĴngĠ
ĠĠĠ 3Ġ
lÇľ ĠdeĠ
fÃ¡ng ĠwÃ¨iĠ
ĠshÃ¨ ĠyÃºĠ
ĠshÄĵngĠ mÃŃngĠ
ĠguÃ³ĠjiÄģĠ duÃ¬Ġ
tiÄĽĠlÃ¹Ġ chÄĵĠzhÃłnĠ
i v
o li
xi ÄģĠ
guÄģnĠ cÃ¨Ġ
gÃ¨ngĠ duÅįĠdeĠ
ĠshuÄģngĠ fÄģngĠ
3 7Ġ
Ġ shÄĽnĠ
sh uÃ²Ġ
lÇĲ ĠbÃ¹Ġ
tuÄ« ĠjiÃłnĠ
ĠzÃłiĠ tÄģĠdeĠ
ĠlÃ¬Ġ shÃŃĠ
ĠgÅįngĠ gÃ²ng
h e
n Ä«
lÃ¨i ĠxÃŃngĠdeĠ
ĠtÄģĠ cÃ©ngĠ
suÇĴĠ shÇĶ
Ġp Ã¡n
qÇĶĠ xiÄģo
ĠjiÄģngĠ sÅ«Ġ
jÃŃ ĠbÃ¹Ġ
quÃ¡n ĠshÃ¬Ġ
ĠniÃ¡nĠ lÃŃngĠ
ĠshÃ¬ĠzhÅįngĠ huÃ¡ĠrÃ©nĠmÃŃnĠgÃ²ngĠhÃ©ĠguÃ³Ġ
yÇĲngĠxiÇİng ĠlÃ¬Ġ
Ġ Ï
chÅįng ĠjÄ«Ġ
jÄ«ngĠ jÃ¬
ĠxÄ«nĠ zÄĵngĠ
xiÃ©Ġ dÃ¬ngĠ
cÇĲ ĠshÃŃĠ
ĠdÃ¬Ġ zhÃ¬Ġ
wÃ©nĠ huÃłĠdeĠ
ĠĠĠjiÄģĠ tÃŃngĠ
ĠwÄĵiĠ liÃ¡nĠ
h ÄĵngĠ
Ãłn ĠzhÅįngĠ
bÃ¬ng ĠwÃ¨iĠ
Ġf Ã¡n
Ġ198 9ĠniÃ¡nĠ
Ġ wÃłi
sÃ¬ ĠdÃłĠ
zÇĴng ĠhuÃ¬Ġ
nÃł ĠdÃ©Ġ
bÄģn ĠdeĠ
ĠlÃ¬Ġ shÇĶĠ
zhÇĶĠ xÃŃ
ĠpÃŃngĠ lÃ¹nĠ
yÄ«ngĠ gÄģi
3 00
b Ġ
ĠyÄ«Ġ rÃ©nĠ
ĠjiÄģĠ zÃº
mÄĽiĠguÃ³Ġ rÃ©nĠ
Ġs ection
ĠdeĠzuÃ²Ġ biÄģoĠwÃ¨iĠ
Ġ X
Ġ yÇĴng
shÄĵng ĠzhÃ¬Ġ
ĠdÃło ĠhÃ©Ġ
ĠjÃ¬Ġ zÇİi
yÃ¡nĠ zhÃ²ngĠdeĠ
fÄģngĠ xiÃłng
mÃ¹Ġ nÃŃĠ
xuÃ© ĠbÃ¹Ġ
yÃŃ ĠdÃłoĠ
ĠyÃºĠ lÃ¨iĠ
ĠtÃ³ngĠ pÃ¡iĠ
lÃ¨iĠsÃ¬ ĠdeĠ
3 4Ġ
liÃº ĠdeĠ
xuÇİn ĠchÅ«Ġ
hÃ¡i ĠzÃłiĠ
zhÃŃĠ yÃ¨
nÃ³ngĠ cÅ«nĠ
ĠfÄĵnĠ biÃ©Ġ
ruÃ¬Ġ diÇİn
z Ã¨ng
Ġ hÃºĠnÃ¡nĠ
mÄĽi ĠjÅ«nĠ
al ĠĠĠ
ĠniÃ¡nĠ qÄ«ngĠ
dÃłiĠ lÃ¡iĠ
yÄĽĠ kÄĽĠyÇĲĠ
n Ã¼Ã¨
Ġ chÅįngĠ
ĠshÃ¬Ġ jÃ¬ĠdeĠ
ĠdÃło ĠyÄ«Ġ
yÃ¹nĠdÃ²ng ĠdeĠ
ĠcÃ©ngĠ rÃ¨n
m er
yÃ¬ ĠbÃ¹Ġ
chÄĵĠ liÃłng
ĠzÃ¬Ġ yÃ³u
jiÇİnĠ cÃ¨Ġ
ĠtÃ³ngĠ yÃłngĠ
Ġ198 3ĠniÃ¡nĠ
ĠzhÇĲ ĠzÃłiĠ
Ġ chÃº
Ġ 28
ĠĠĠ shÇĲĠyÃ²ngĠ
ĠshÃŃĠ zhÃ¬Ġ
qiÄģnĠ yuÄĵĠ
ĠzuÃ¬ ĠdÃłĠ
Ġ kÃ¹
hÇİi ĠshÃłngĠ
bÄģ ĠÄĽrĠ
ĠshÃ¬Ġ fÇĴu
guÃ³Ġ huÃ¬Ġ
duÃ¬Ġ shÇĴuĠ
ĠtÄģĠ rÃ¨nĠwÃ©iĠ
ĠyÃºĠ201 1ĠniÃ¡nĠ
Ġ dÃ²ngĠ
Ġ xÇĶĠduÅį
jiÄģ ĠgÅįngĠ
fÃ¹ ĠjiÄģĠ
sÇĲ ĠxÃŃngĠ
qÃ¬ng ĠzhÃ¹Ġ
ĠyÇĴuĠ dÃłĠ
ĠjiÃłnĠ kÄģngĠ
sÃ¨Ġ fÅ«Ġ
kuÃ²Ġ zhÇİn
ĠyÃºĠ202 4ĠniÃ¡nĠ
ĠĠĠgÄĵnĠjÃ¹Ġ 2020ĠniÃ¡nĠmÄĽiĠguÃ³ĠrÃ©nĠkÇĴuĠpÇĶĠchÃ¡ĠdeĠshÃ¹ĠjÃ¹Ġ
Ġ 50
guÃ³Ġ lÃ¬Ġ
ĠS Ġ
zÄĵngĠjiÄģĠ leĠ
e tĠĠĠ
â Ĩ
guÃ² ĠyÃºĠ
wÇĶ ĠyuÃ¨Ġ
jiÇİngĠ shÃ¹Ġ
shÃłngĠhÇİi ĠshÃ¬Ġ
Ġ xÄ«ng
Äģ ĠÄĽr
li ÇĶ
huÃŃ ĠhÃ©Ġ
rÃ©ng ĠzÃłiĠ
ĠyÄ«Ġ zhÃ¬Ġ
ĠchÅ«Ġ fÄģĠ
yÃłĠ mÃ¹Ġ
bÄģnĠ jiÇİngĠ
ĠI n
xiÄģng ĠjÃ¬Ġ
dÄģn ĠyuÃ¡nĠ
qiÃ¨ ĠÄĽrĠ
ĠyÇĴuĠ zhÃ¹Ġ
zhÃ¨ngĠ xiÃ©Ġ
ĠbÃ¬ngĠ rÃ¹Ġ
n ÃºĠ
xÄ«n ĠrÃ©nĠ
ĠdÃłĠ qiÃ¡oĠ
zhÃłnĠ lÇĲng
zhÃłoĠ kÄģi
Ġ dÇİngĠ
shÃłng ĠyÄ«Ġ
xÃ¬ng ĠshÃ¬Ġ
bÄĽnĠ tÇĶĠ
qÃºnĠ dÇİo
dÄĵngĠ chÃ¡ngĠ
ĠyÇĲ ĠzÃłiĠ
ĠyÇĲ ĠzhÃ¬Ġ
ĠyÄ«Ġ cÃŃĠ
hÇİiĠ bÃ¡ĠgÄģoĠ
yÅįuĠ xiÃ¹
ĠdeĠjÃ¬Ġ lÃ¹Ġ
cÄģnĠmÃ³uĠ zhÇİngĠ
5 00Ġ
w ÄĽn
ĠbÃ¹Ġ yÄ«Ġ
ĠlÃ¬Ġ ziĠ
ĠdÃłĠ dÃło
lÃ¹Ġ zhÃłnĠ
gÇİiĠ gÃ©
f Ã©n
Ġ cÃ¨Ġ
Ġ kÄĽĠnÃ©ngĠ
ĠĠĠ 2
ĠjÃŃĠ xÃŃngĠzhÃ¨ngĠ
zÇĶĠ zhÇĲĠ
8 7
Ġ zhÄĵn
jiÄģoĠ chÄģĠ
Ġ000 ĠrÃ©nĠ
15 0
ĠshÃ¬Ġ yÃ³u
xÄ«Ġ bÄĽiĠ
Ġ mÃ©nĠ
ĠĠĠ 0
yÃło ĠdeĠ
yÃ¡ng ĠxiÃłnĠ
duÃ¬Ġ wÇĶĠ
Ġm ÄĽngĠ
xÃºnĠ huÃ¡nĠ
cÃºnĠ zÃłiĠdeĠ
tÇĶĠÄĽr ĠqÃŃ
r Ã³u
ĠĠĠ dÃłn
hÃ© ĠwÃ¨iĠ
wÃ¹ ĠhÃ©Ġ
jÇĲ ĠniÃ¡nĠ
kÅįng ĠjÅ«n
zhuÃłng ĠjÄ«Ġ
bÇİoĠ cÃºnĠ
Ġn Çİi
nÃ¡nĠjÃŃĠ zhÅįuĠdeĠ
i f
shÄĽng ĠdÃłoĠ
ĠzÃłiĠ tÄģĠ
shÄ«Ġ bÃłi
Ġc Äģng
c uÃ¬Ġ
u t
fÄĵi ĠzhÅįu
ĠyÃºĠ dÃ¬Ġ
ĠyÃ³uĠ cÇĲĠ
gÇĶĠfÃ¨n ĠyÇĴuĠxiÃłnĠgÅįngĠsÄ«Ġ
m ÇİiĠ
Ġ lÃŃ
Ġ mÃ¬Ġ
zhÃŃ ĠzhÃ¬Ġ
ĠkÃ¨Ġ yÃ¹nĠ
Ġ198 4ĠniÃ¡nĠ
Ġhan tĠ
ĠĠĠrÃ¡n ĠÃ©rĠ
l ÃłnĠ
chuÃ¡n ĠzhÄ«Ġ
ĠzÃłiĠ bÄĽiĠ
ĠzhÄ«Ġ zhÃłnĠ
tÇĲĠ yÃ¹
Ġl ÄĽngĠ
ĠsÃ¬Ġ chuÄģnĠ
Ġ Äģn
Ġ mÃ³
ĠĠĠ 6
diÃłn ĠdeĠ
chÃ¡ng ĠjiÃłnĠ
ĠxiÃłn ĠzhÄ«ĠxiÃłnĠ
jiÃłoĠ shÃ²u
fÄģĠshÄĵngĠ leĠ
shÇĶĠdeĠ zhÃŃĠwÃ¹Ġ
9 7
ĠzÃłiĠ gÄģiĠ
shÇĴuĠ xÃŃĠ
xiÃłoĠ yÃ¬ngĠ
Ġ chÇĶĠ
xÄ« ĠshÃ¬Ġ
mÃ¬ ĠsÄ«Ġ
ĠzhÄ«Ġ liÃºĠ
zhÇĲĠ dÃ¬ngĠ
fÃłngĠ qÃ¬
ĠĠĠ200 4ĠniÃ¡nĠ
n Ã¡ngĠ
Ġ bÄģoĠhÃ¡nĠ
ĠbÃ¹Ġ ÄĽrĠ
ĠyÇĴuĠ guÄģn
zÇĴngĠ cÃ¡iĠ
zhÃłngĠ fÅ«Ġ
d Äģo
Ġ cÇİiĠyÃ²ngĠ
jiÄģn ĠshÃ¬Ġ
ĠzÃłiĠ yÇĶĠ
ĠtÄģĠ duÃ¬Ġ
fÄĵnĠbiÃ© ĠwÃ¨iĠ
m iÃ¡n
Ġ luÃ²
bÄĽn ĠxiÃłnĠ
tÃ³u ĠbÃ¹Ġ
18 7
bÃ¹Ġ fÃ¨nĠ
jiÄĵĠ shÅįuĠ
zhÅįuĠ biÄģnĠ
jiÃłngĠ dÄ«
shuÃłiĠ lÇĲngĠ
s ÄģoĠ
xu ÃłnĠ
huÃ¬ ĠyÇĲĠ
sÇĲ ĠyÃºĠ
qiÄģnĠ dÃ¬ngĠ
ĠshÃ¬ĠyÃ¬Ġ dÃłĠlÃ¬Ġ
4 6Ġ
w ar
Ã© ĠwÃ¨iĠ
hÄĵi ĠrÃ©nĠ
jÄ«Ġ bÄĽnĠ
ĠjiÃłn ĠshÃ¬Ġ
nÃ¡nĠ fÄģngĠ
kÄĵĠ huÃ¬
pÃłnĠ luÃłnĠ
ĠÄģĠ lÄģĠ
Ġ qÃŃnĠ
shÄģng ĠdeĠ
huÃ¡n ĠxÃŃngĠ
ĠniÃ¡n ĠniÃ¡nĠ
ĠdÃ© ĠdÃłoĠleĠ
dÇĲĠ kÃłngĠ
huÃ¡iĠ yÃŃĠ
yÃ¡n ĠshÃŃĠ
biÃ© ĠdeĠ
yÄ«Ġ xiÄĵĠ
ĠgÅįngĠ lÃ¹
ĠlÃ¬ngĠ wÃłi
nÃ¡Ġ pÃ²Ġ
luÃ³ ĠdÃ©Ġ
zhÄĽng ĠgÃ¨
xÄ«Ġ bÄĽiĠbÃ¹Ġ
ĠshÃ¨Ġ jÃ¬ĠdeĠ
ĠshÃ¬ĠyÄ«Ġ zuÃ²Ġ
xiÃłĠxiÃ¡ ĠyÇĲĠxiÃł
ĠĠĠ 3ĠyuÃ¨Ġ
kÄģiĠ zhÇİnĠ
yÃŃĠ chÇİn
hÃ¡ngĠ tiÄģnĠ
Ġ ruÇİnĠ
ĠĠĠ 12
zhÇİng ĠdÃłĠ
mÃ©n ĠdeĠ
ĠjÃŃĠ lÃŃnĠ
zhÃ¹ ĠdÃ¬Ġ
yÄĽ ĠbÃ¹Ġ
gÃ© ĠÄĽrĠ
chuÃ¡nĠ mÃ©iĠ
yÄ« ĠbÃ¹ĠfÃ¨n
18 6
ĠxÃŃngĠ shÇĲĠ
cÄģnĠyÃ¹Ġ leĠ
Ġ xÃ¬nĠ
zhÄĽ ĠwÃ¨iĠ
ĠlÃ¬Ġ yÃ²ng
xÄ«Ġ nÃ¡nĠbÃ¹Ġ
fÇİĠ tÃŃngĠ
jÃ¬ngĠ sÃłiĠ
Ġ sÃłiĠ
du Ä«Ġ
zhÃłn ĠwÃ¨iĠyÃºĠ
bÄģĠ lÄģĠ
mÃ¹ĠsÄ«Ġ lÃŃnĠ
hÇİiĠbÃ¡ĠgÄģoĠ dÃ¹ĠwÃ¨iĠ
zhÃŃ ĠyuÃ¡nĠ
yÃ¡nĠ zhÃ²ng
mÇİĠ tÃ³uĠ
tÅįngĠ xÃ¹nĠ
ĠshÄĵngĠzhÇİng ĠyÃºĠ
i st
Ġ Ã©
Ġ lÃ©i
Ġ xÃ¹Ġ
xÃºn ĠqiÃºĠ
nuÃ² ĠyÄ«Ġ
ĠshÃ¬Ġ bÄ«ngĠ
yÃ³uĠ tÃłiĠrÃ©nĠ
ĠzhÅįngĠguÃ³Ġ guÃ³ĠmÃŃnĠ
Ġp ÄģiĠ
oc k
a mi
tÄģ ĠzÃłiĠ
zhÃŃ ĠlÃ¬Ġ
dÄģn ĠyÄ«Ġ
ĠbÃ¹Ġ dÃŃĠ
ĠxiÃłnĠ jÄ«nĠ
Ġ huÃłnĠ
ĠqiÃº ĠhuÃ¬Ġ
shÄĽngĠ wÄĽiĠ
guÄģngĠ xÃ¹Ġ
zhuÄģnĠ mÃ©nĠ
ĠdeĠchÃ©ngĠ zhÃ¨nĠ
k Çİn
Äģ ĠlÇĲĠ
lÄģ ĠÄĽrĠ
ĠdÃ¬Ġ miÃłnĠ
luÃ³Ġ bÃ³ĠtÃ¨Ġ
yÇĲnĠ zhÇĴngĠ
kuÃłiĠ sÃ¹
bÃº ĠyÃłoĠ
ĠhÃ©Ġ lÇĲĠ
xuÃ©Ġ xÃŃ
ĠxÃŃngĠ xiÃłngĠ
yÃŃngĠ yÃ¨Ġ
ĠwÃ¨iĠfÃºĠqÃŃĠyÃºĠ gÄģng
Ġ sÃ²ng
Ġ chÄĵĠzhÃłn
ĠdÅįngĠ jÄ«ngĠ
bÄģngĠ zhÃ¹
mÃ²ĠsÄ«Ġ kÄĵ
g r
t Ãło
ĠĠĠ 5ĠyuÃ¨Ġ
tu Ã³
ĠdeĠ zhÇĶĠyÃłoĠ
ĠguÃ³Ġ mÃŃn
ĠxÄ«Ġ ÄģnĠ
jiÇİnĠ dÄģnĠ
wÄĽiĠfÃ¹Ġ shÅ«ĠjÃ¬Ġ
cÃ¬ ĠwÃ¨iĠ
gÄĵ ĠjÃ¹Ġ
sÄ«Ġ lÃ¡nĠ
ĠxiÄģngĠ dÄģng
yÃ³u ĠqÃŃĠ
wÇĶ ĠdÃ¬Ġ
ĠwÃ¨iĠ cÇĲĠ
ĠdÃłĠ liÃłng
biÄģnĠ hÃłoĠwÃ¨iĠ
lÃŃĠ ziĠ
Ġt Ä«Ġ
xÃºnĠyÃ¡ng ĠjiÃłnĠ
rÃ³ngĠ nÃłĠ
ĠqÃŃĠzhÅįngĠ nÃ¡nĠxÃ¬ngĠ
ĠyÃºĠ200 9ĠniÃ¡nĠ
ĠsuÃŃĠ zhe
Ġ nÇĲ
Äģn ĠxiÃłnĠ
cÃ©ngĠ shuÇĲĠyÃ¹Ġ
wÄĵiĠ xiÇİnĠ
zhuÃłnĠdeĠ xiÇİoĠxÃŃngĠxÄ«ngĠ
Ġ dÄ«ngĠ
ĠĠĠ pÃŃngĠjiÃłĠ
wÃ¹ ĠyuÃ¡nĠ
fÃº ĠdÃ©Ġ
ĠhÃ©Ġ jÃŃĠ
ĠkÃ¨Ġ lÃ¡iĠ
jiÄģoĠ huÃłnĠ
A O
Ġ wÅ«ĠkÃ¨ĠlÃ¡nĠ
zhÇİng ĠwÃ¨iĠ
nÃł ĠcuÃ¬
liÃ¡ng ĠshÃŃĠ
ĠzhÃ¨Ġ shÇĴuĠ
Ġ18 4
Ġ198 6ĠniÃ¡nĠ
Ġ re
Ġ diÃłnĠshÃ¬Ġ
Ġ huÃ¡nĠ
yÇĶ ĠshÃ¬Ġ
yÃ³u ĠrÃ©nĠgÅįngĠ
ĠhÃ²uĠ qÄ«Ġ
fÇĶĠ zhÃ¹Ġ
ĠxÄ«nĠ zÄĵng
guÄ«Ġ fÃłnĠ
ĠjiÃłnĠlÃ¬Ġ leĠ
4 2
Ġ hÃ¡n
tuÄ« ĠchÅ«ĠdeĠ
wÃ©iĠ zhÇĲĠ
ĠshÃ¨ ĠjÄ«Ġ
ĠwÃ©iĠ chÃŃĠ
ĠshÃ¨Ġ huÃ¬
shÄģĠ hÃłiĠ
fÄĽi Ġ
a la
juÃ© ĠleĠ
ĠdeĠ huÃłĠ
ĠshÃŃĠ yÃ²ngĠ
9 3
B CĠ
Ãłi ĠguÃ³Ġ
qÇĲ ĠleĠ
cÃ¬ ĠdÃłĠ
zhÅįngĠ xÄ«nĠ
ĠgÅįngĠ chÇĲ
ĠjiÃłn ĠwÃ¨iĠ
ĠqiÃºĠ chÇİngĠ
ĠĠĠ chÃºĠleĠ
qi Çİo
shÃ¹ ĠshÃ¬Ġ
miÃłnĠ lÃŃnĠ
tÃºĠ xiÃłngĠ
qÃºnĠ tÇĲĠ
ĠĠĠ 8
zhÄģng ĠdeĠ
luÃ² ĠdeĠ
ĠzÃłiĠ rÃ¬ĠbÄĽnĠ
cÄģnĠ sÃłi
Ġg Å«Ġ
ĠgÅįngĠchÃ©ngĠ shÄ«Ġ
shÃłoĠ jiÃłngĠ
gÃ¨ ĠdÃ¬Ġ
gÇİn ĠlÇİn
shÃ¹n ĠshÃŃĠ
ĠshÃ¬Ġ nÃ¨iĠ
ĠyÃºĠ 2010ĠniÃ¡nĠ
zÇĴngĠ jiÄģnĠ
gÇİiĠ biÄģnĠ
ĠrÃ©nĠmÃŃnĠ bÃ¬Ġ
dÅ«Ġ dÅ«Ġ
lÇİoĠ shÄ«Ġ
Ġ pÇĶ
Ġ qiÅ«Ġ
Ġ niÃºĠ
zhÄ« ĠyuÃ¡nĠ
zhu Åį
gÄĵ ĠdeĠ
fÃºĠ hÃłoĠ
Ġt Ã©ng
Ġt Ã¬Ġ
ĠdÃ¬ĠÃ¨rĠ cÃ¬Ġ
Ġ195 8ĠniÃ¡nĠ
4 2Ġ
ĠĠĠ jÄ«ngĠjÃ¬Ġ
ĠjÃŃĠ shÇĲ
fÇİĠ lÃ¡nĠ
ĠjÃ¬n ĠniÃ¡nĠ
rÃ¹Ġ qÄ«n
gÇİngĠ kÇĴuĠ
ĠzÃłiĠdÃ¬Ġ Ã¨rĠ
il l
pÃŃngĠjÅ«nĠ hÇİiĠbÃ¡ĠgÄģoĠdÃ¹ĠwÃ¨iĠ
duÃ¬ ĠhÃ©Ġ
yÃ¹n ĠhÃ©Ġ
zÃº ĠqiÃºĠduÃ¬Ġ
nÃŃ ĠxÄ«ĠyÃłĠ
gÅįngĠ kÄģiĠ
nÃłĠ xiÄĵĠ
chuÃłngĠ bÃłnĠ
mÃ©ng ĠjÅ«nĠ
ĠÄĽr ĠdÃ©
jiÃ©ĠdÃ¹Ġ shÇĲĠ
ĠkÃ¨Ġ lÄģĠ
ĠÃ©rĠgÄģiĠdÃ¬ĠdeĠ pÃŃngĠjÅ«nĠhÇİiĠbÃ¡ĠgÄģoĠdÃ¹ĠwÃ¨iĠ
L E
fÄĵn ĠzhÄ«ĠyÄ«Ġ
ĠyÇĴuĠ lÃ¬Ġ
bÃłnĠ yÇİnĠ
gÃłoĠ sÃ¹Ġ
fÄĵng ĠdeĠ
ĠxÄ«Ġ yÇĲnĠ
ĠdeĠdÃ¬Ġ Ã¨r
dÄģngĠ jÃºĠ
2010ĠniÃ¡nĠ mÄĽiĠguÃ³ĠrÃ©nĠkÇĴuĠpÇĶĠchÃ¡ĠdeĠshÃ¹ĠjÃ¹Ġ
liÇİoĠ jiÄĽ
hÇİnĠ mÃ²
chÅ« ĠdÃłoĠ
yÇİn ĠchÅ«
yÃ¬ng ĠduÃ¬Ġ
fÄĵnĠ qÅ«Ġ
mÇĲĠ yÃłĠ
fÄĵiĠ fÇİĠ
Ġ194 6ĠniÃ¡nĠ
yÇĲnĠzhÇĴngĠ zÄģiĠpÃ©iĠ
t erĠ
Ġ yÃ¨
Ġ yÅįuĠ
Ġ zhÄĽngĠ
zh ÄĵĠ
jÄ« ĠshÃ¬Ġ
tu ÇĴĠ
biÄģn ĠchÃ©ngĠ
ĠwÃ¨iĠ mÃŃngĠ
ĠyÄ«Ġ tiÃ¡oĠ
ĠjÄ«Ġ yÄ«nĠ
qÃŃngĠ xÃ¹Ġ
shÄĽnĠ chÃ¡Ġ
ĠliÃºĠ yÃ¹Ġ
pÃŃnĠ lÇľĠ
7 5Ġ
Ġ hÃ¨
ĠĠĠ yuÃ¨Ġ
le ĠĠĠ
chÅ« ĠrÃ¨nĠ
zÃ© ĠyÇĴuĠ
Ġn ÇİiĠ
kÇİĠluÃ³Ġ lÃ¡iĠ
Ġ guÃ²Ġ
yuÃ¡n ĠdÃ¬Ġ
shÄĵn ĠshÃłngĠ
ĠxÄ«Ġ xÄ«Ġ
ĠzhÄ«Ġ qiÃ¡n
o ni
Ġ yÃºnĠnÃ¡nĠ
ĠĠĠ tiÄģnĠ
jiÃło ĠyÃºĠ
sÃ¬ ĠmÃŃngĠ
zÃº ĠyÇĲĠ
jÄ«Ġ bÇİiĠ
ĠqiÃº ĠdeĠ
zhÇİnĠ kÄģi
fÄģĠzhÇİn ĠdeĠ
yÃ³uĠrÃ©nĠgÅįngĠ yÇĲnĠzhÇĴngĠzÄģiĠpÃ©iĠ
lÃ¬ ĠzhÅįngĠ
qÃŃng ĠxÃŃngĠ
zhÃ¹Ġ cÃ¨Ġ
ĠdeĠyÄ«Ġ xiÄĵĠ
jÅ«ĠmÃŃnĠ diÇİnĠ
ĠyÇĲĠsÃ¨Ġ liÃ¨
kÄĵĠhuÃ¬ ĠshÃ¬ĠdÃ¬Ġ
ĠĠĠ 1
shuÅį ĠshÃ¬Ġ
dÄģnĠ dÇİĠ
leĠyÄ«Ġ xiÄĵĠ
rÃ¨ĠdÃłiĠ fÄĵngĠbÃłoĠ
Ġ liÇİngĠgÃ¨Ġ
jÃ¬ ĠjÃŃĠ
ĠzhÅįngĠ zuÃ¬Ġ
ĠsÄ«Ġ xiÇİngĠ
ĠzhÄ«Ġ fÇĶĠ
ĠwÃ©iĠ yÃłĠ
ĠdÄģng ĠniÃ¡nĠ
diÃłnĠyÇĲng ĠdeĠ
wÃ¨nĠtÃŃ ĠdeĠ
5 ĠgÃ¨Ġ
s ÇİoĠ
yÃ¹ ĠjÃ¬Ġ
dÃ²ng ĠgÅįngĠ
bÄ«ng ĠbÃ¹Ġ
lÇĶ ĠkÃ¨Ġ
ĠyÇĲĠ shÃłngĠdeĠ
ĠyÇĶĠ cÇĲĠtÃ³ngĠshÃŃĠ
ĠchÅ«Ġ xÃŃĠ
duÅįĠ yÃłngĠ
1Ġ hÃłoĠ
ĠhÃłnĠ zÃºĠ
jiÃ¨ ĠshÃŃĠ
mi Çİo
chÇİngĠ jÇĲngĠ
zÇĶĠ chÃ©ng
zhÃ¨ ĠbÃ¹Ġ
yÇĶ ĠyÇĲĠ
hÃ²u ĠyÃºĠ
ĠzhÃ¬Ġ shÇİo
ĠyÄ«Ġ zhÄ«Ġ
jiÃ¨Ġ shÃło
kÄĵĠ fÅ«
d ÇĴuĠ
yÇĲ ĠhÃ²uĠ
yÇİn ĠshÄĵngĠ
dÄĵng ĠjÃ¬Ġ
dÃłĠ shÇĲĠ
fÄĵnĠ lÃ¨i
ĠzhÅįngĠguÃ³Ġ dÃłĠlÃ¹ĠdeĠ
cÃ¡iĠ chÇİnĠ
yÇĴngĠ jiÇĶĠ
zhÇĲĠhuÄ«Ġ guÄģnĠ
ĠĠĠjiÃ© ĠzhÃ¬Ġ202
xiÃłĠxiÃ¡ĠyÇĲĠxiÃł ĠdÃ¬ĠqÅ«Ġ
gÃ© ĠlÃ¬Ġ
ĠbÃ¹Ġ jiÄģĠ
tÃ²uĠ guÃ²
ch ÇĴngĠ
zhÃłn ĠzhÃ¬Ġ
cÃ©ng ĠshÃ¬Ġ
ĠzhÃ¬Ġ zÃło
zhÃ¨ngĠ quÃ¡nĠ
fÄĵnĠ lÃŃĠ
shÃ²uĠ hÃłiĠ
zÄ«Ġ zhÃ¹Ġ
12ĠyuÃ¨Ġ 31ĠrÃ¬Ġ
zhÇĶĠchÃŃ ĠrÃ©nĠ
Ġ xÇĶĠ
ĠĠĠ jÃ¬Ġ
di Äģn
Ġ10 0
shÄ« ĠdÃ¬Ġ
jÇĲng ĠwÃ¨iĠ
bÃ¡i ĠzhÃ¬Ġ
chuÃ¡nĠ bÅį
gÄģnĠ sÃ¹Ġ
ĠjÃ¬nĠshÃ¬Ġ chÅ«ĠshÄĵnĠ
p Ã¹
Ġ mÇİn
Ġ xÅ«ĠyÃłoĠ
zÃº ĠrÃ©nĠ
ĠxiÃłnĠ rÃ¹Ġ
ĠqÃŃĠzhÅįngĠ nÃ¡nĠ
lÃ¡iĠzÃ¬ ĠyÃºĠ
mÃ¡oĠzÃ©Ġ dÅįngĠ
Ġ mÇĲ
Ġ pÃŃ
ĠĠĠ 10ĠyuÃ¨Ġ
xiÃłng ĠxÄ«Ġ
mÇİ ĠdeĠ
chÃ¡o ĠdeĠ
lÇĶ ĠshÃ¬Ġ
ĠbÃ¹Ġ biÃłnĠ
fÇİĠ lÃ¬ngĠ
zÄ«Ġ shÄĽngĠ
gÇİnĠ juÃ©Ġ
wÃºĠrÃ©nĠ jÄ«Ġ
ĠĠĠ bÄĽiĠ
ĠdÃ¬Ġ sÄ«Ġ
jÄ«ngĠ guÃ²
zÇĲĠ nÇļĠ
pÃłnĠ juÃ©Ġ
Ġãĥ ¼
zhÃłn ĠjÃ¬Ġ
bÇİo ĠzhÃ¨ngĠ
fÄĵi ĠlÃ¬Ġ
yÄ«ngĠ guÃ³ĠdeĠ
biÄģnĠ jÃ¬ngĠ
cÃ¡iĠ wÃ¹Ġ
shÇĲĠyÃ²ngĠ leĠ
jÃºĠ jÃºĠzhÇİngĠ
gÃ²ngĠchÇİnĠ zhÇĶĠyÃ¬Ġ
ĠgÅįngĠkÄģiĠ sÃłiĠ
zÃ¬ĠxÃŃngĠ chÄĵĠ
â Ī
Ġ 26
Ġ jÇĲĠ
Ġ tuÄ«Ġ
qÅ«Ġ fÄĵnĠ
shÇĴuĠ fÇĶĠ
Ġ198 2ĠniÃ¡nĠ
n eĠĠĠ
qÇĶ ĠjiÄģĠ
miÃ¡o ĠhuÃ¬Ġ
ĠzhÄ« ĠjÃ¬Ġ
ĠbÃ¨iĠ qÃŃĠ
bÃłoĠ zhÇĲĠ
gÇİiĠ shÃłn
wÃ¡nĠchÃ©ngĠ leĠ
6 ĠgÃ¨Ġ
zi ĠhÃ©Ġ
hÄĽnĠ duÅį
ĠshÃ¬ĠzhÅįngĠ xÄ«nĠ
ĠĠĠ k
ĠĠĠ lÃ¬ngĠwÃłiĠ
yÇĲn ĠshÃŃĠ
ĠshÃ¬Ġ yÃłnĠ
ĠshÃ¬Ġ wÅ«ĠkÃ¨ĠlÃ¡n
ĠbÃ¹Ġ zhÃ¬Ġ
sÄ«Ġ xiÇİngĠ
ĠyÄ«Ġ mÃ©iĠ
Ġm Ã¡Ġ
ÄģiĠ nÃłĠ
ĠgÅįngĠzuÃ² ĠshÃ¬Ġ
huÃ¡ĠshÃ¨ngĠ dÃ¹n
ĠĠĠ st
chÅ« ĠshÄĵngĠ
Ã¨r ĠzhÃłnĠ
ĠdeĠ gÃ¹ĠshÃ¬Ġ
ĠdÃłĠ zhÃ²ngĠ
ĠtÃ³ng ĠyÄ«Ġ
ÃłnĠ zhÃłoĠ
Ġ198 7ĠniÃ¡nĠ
ĠhÃ©ĠbÃ¬ng ĠwÃ¨iĠ
shuÃ²ĠshÃ¬Ġ xuÃ©ĠwÃ¨iĠ
f ÃłĠ
ĠdÃłĠ xÃŃng
shÄĵnĠ zhÃ¨n
ĠÃło ĠdÃłĠlÃ¬Ġ
6 3
s e
Ġ 27
qÃºn ĠdeĠ
ĠjÅ«n ĠdÃ¬Ġ
ĠqiÃ¡nĠ wÇİngĠ
Ġ xÃ¬ĠliÃ¨Ġ
gu Äģ
fÄģng ĠchÃ©ngĠ
jÇĲ ĠhÃ©Ġ
ĠdÃłĠ jiÄģĠ
c k
zhÇİngĠ yuÄĵĠ
dÃłngĠ ÃłnĠ
I IĠ
Ġ dÅįu
zhÄ« ĠmÃŃngĠ
huÃ² ĠshÃ¬Ġ
wÃłi ĠwÃ©iĠ
dÃ¡ ĠdeĠ
zhÄĽng ĠhÃ©Ġ
guÃ³Ġ nÃ¨iĠ
ĠjiÃłn ĠhÃ©Ġ
ĠzÃ¬Ġ dÃ²ngĠ
Ġf Ã³Ġ
ĠyÃºĠ19 0
tÃ¬ ĠdÃłiĠ
C h
c Ãłi
k Äģn
Ġ ÅįuĠzhÅįuĠ
luÃ³ ĠjÃŃĠ
ĠgÅįngĠ zhÃłnĠ
ĠdÃłn ĠyÄ«nĠ
jÄ« ĠbÃ¹Ġ
fÃº ĠÄĽrĠ
bÅį ĠÄĽrĠ
lÃŃng ĠdeĠ
ĠzÃłiĠ 195
ĠdÃ¬Ġ guÃ³ĠdeĠ
jÃ¹Ġ fÄĵngĠ
sÄģnĠ cÃ¬Ġ
bÄģĠ fÃ¡
ĠzhÃ¨ ĠbÃ¹Ġ
ĠsÅ«Ġ liÃ¡nĠ
b Äĵng
cÇĲ ĠzhÄ«ĠwÃłiĠ
ĠyÇĲĠ nÃ¡nĠ
ĠxÃŃngĠ chÃ©ngĠdeĠ
jiÃłoĠ zuÃ²Ġ
Ġp ÇİoĠ
ĠpÄģi ĠshÃ¨Ġ
Ġ chÃ¡oĠxiÄģnĠ
liÃ¨ ĠshÃ¬Ġ
jiÄĵĠ chÃ¹
tiÄģnĠ huÃ¡ngĠ
chÄĵngĠ hÃłoĠ
xiÃłnĠ fÇİĠ
zÄĵngĠ qiÃ¡ngĠ
ĠchÅ«ĠxiÃłnĠ leĠ
ĠdeĠmÃŃngĠ zÃ¬Ġ
b Ã¡oĠ
Ġ cÃ¡i
ĠĠĠ v
zhÃłn ĠwÃ¨iĠ
199 9ĠniÃ¡nĠ
th er
ĠdÃłĠ shÄ«Ġ
ĠjÄ«Ġ chÇĶĠ
zÃºĠ xiÃ©Ġ
xiÃł ĠdeĠyÃŃĠgÃ¨Ġ
shÃ¨ng ĠdÃ¬Ġ
zuÃ²Ġ chÅ«
jÇĲngĠ guÄģnĠ
dÄģngĠ xuÇİn
ĠĠĠ200 3ĠniÃ¡nĠ
Ġ197 8ĠniÃ¡nĠ
jÇĲnĠbiÄģoĠ sÃłi
ĠĠĠ 6Ġ
gÃ²ng ĠshÃŃĠ
ĠdÃło ĠbÃ¹Ġ
miÃłnĠ tÇĲĠ
shÃ©nĠ huÃłĠ
bÃ¬ngĠ mÃ©iĠyÇĴuĠ
ĠlÃ¬ng ĠyÃ¬ĠfÄģngĠmiÃłnĠ
Ġ wÃ©nĠhuÃłĠ
kÃ¹ n
ĠyuÃ¡nĠ shÇĲĠ
qÅ«Ġ jiÄģnĠ
lÇĲngĠ yÃ¹
zhuÃłngĠ kuÃłng
yÃ¡nĠjiÅ«Ġ yuÃłnĠ
mÃ¹ ĠzhÃ¬Ġ
shÄĵngĠ mÃŃngĠ
zhÃ²ngĠ zhÃŃĠ
Ġ4 0
ĠyÃºĠ200 8ĠniÃ¡nĠ
â Ħ
hÃ²u ĠshÃ¬Ġ
qu Äģn
wÃłn ĠniÃ¡nĠ
nuÃ² ĠsÄ«Ġ
ĠhÃ©Ġ suÄģnĠ
hÃ²uĠ lÃ¡iĠ
ĠsÄ«Ġ kÇİĠ
pÃŃngĠ mÃŃnĠ
shÇĴuĠ duÃłnĠ
shÄģngĠ diÃłnĠ
zhÅ«Ġ lÃ³ng
miÃ¡oĠ shÃ¹
âĨ Ĵ
ĠshÄĵngĠzhÇİngĠyÃºĠ hÇİiĠbÃ¡
gÄģo ĠyuÃ¡nĠ
chuÃłng ĠxÄ«nĠ
ĠyuÃ¨Ġ tÃ¡i
dÃ²uĠ zhÄĵngĠ
cuÃ²Ġ wÃ¹Ġ
t ÄģoĠ
bÅį ĠchÅ«
ĠzÃłiĠ yÄ«ngĠguÃ³Ġ
ÄģnĠ dÅįngĠ
hÃ¡ngĠ yÃ¨Ġ
fÃ¡ngĠ zhÇĲĠ
Ġ198 0ĠniÃ¡nĠ
n Ã¹
Ġ shÃłnĠ
Äģ ĠjÄ«Ġ
tÃ¡o ĠyuÃ¡nĠ
zhÇĶĠ chÇİngĠ
yÃ¡nĠ shÄĵnĠ
mÃ¬ngĠ lÃ¬ng
ĠdÃ¬ĠyÄ«Ġ cÃ¬
ĠĠĠS t
Ġ194 8ĠniÃ¡nĠ
Ġ niÇĶĠyuÄĵ
ĠwÃ¨iĠ yÃ³uĠ
ĠyuÃ¡nĠ zÃ©Ġ
ĠjÃ¬Ġ niÃłn
rÃ¹Ġ xuÇİn
guÇİngĠ gÃło
kÃło ĠjÃ¬nĠ
wÃ¹ĠzhÇĴng ĠdeĠ
tÃ²u ĠlÃ¹Ġ
g Åįu
jiÄĵ ĠjÃ¬n
rÃ¹ ĠdeĠ
ĠbÃ¹Ġ dÃ©Ġ
ĠmÃ¹ĠqiÃ¡nĠ shÃłngĠwÃ¨iĠ
tiÄģn ĠjiÄģĠ
diÇİn ĠwÃ¨iĠ
tÅ« ĠchÅ«Ġ
ĠhÃ©Ġ fÇİĠ
ĠzhÅįngĠ shÅ«Ġ
ĠshÃŃĠ dÃłiĠdeĠ
guÄģnĠ fÃ¨iĠyÃ¡nĠ
chÃ¡ngĠ qÄ«
qÃ¬Ġ tÇĲĠ
qÃŃngĠ jiÃ©Ġ
cÃ¡iĠ pÃłnĠ
tuÃ¡nĠ zhÇİngĠ
dÅįng ĠxiÃłnĠ
ĠyÃ¬Ġ mÃŃngĠ
ĠzhÃ¨Ġ cÃ¬Ġ
shuÇĲĠ kÃ¹Ġ
ĠxiÃłnĠdeĠyÃŃĠgÃ¨Ġ fÄĵiĠjiÃłnĠzhÃ¬ĠdÃ¬ĠqÅ«Ġ
lÃ¡i ĠsÄ«Ġ
ĠyÇĲ ĠshÃ¬Ġ
fÃºĠ huÃłĠ
ĠrÃ¨nĠ mÃ¬ng
Ġl ÃłngĠ
sÄģiĠ nÃłĠ
ĠbÃ¬Ġ yÃ¨ĠyÃºĠ
a le
jiÄģng ĠshÃ¬Ġ
nÃŃ ĠdeĠ
hÃ³ng ĠjÅ«nĠ
ĠhÃ©Ġ tÄģĠdeĠ
J Ġ
N A
lÃ¹Ġ xÃ¹Ġ
ĠshÃłngĠ shÅ«Ġ
ĠzuÃ²Ġ chÅ«
tÅįngĠ xÃ¬nĠ
Ġ sÃł
Ġ fÄģĠxÃŃngĠ
199 6ĠniÃ¡nĠ
hÇİo ĠyÇĴuĠ
ĠyÇĶĠ dÃłĠ
mÇİĠ lÃ¡iĠ
cÃ¨Ġ lÃ¼Ã¨Ġ
xiÇİngĠ fÇİĠ
xiÅ«Ġ gÇİi
kÇİoĠ gÇĶĠ
chÃ³u ĠbÃ¨iĠ
yÃ¹ ĠdÃłoĠ
on ĠĠĠ
ĠzhÅįngĠ fÄģĠxiÃłnĠ
ĠzhÄ«Ġ chÃ¹Ġ
Ġ19 20ĠniÃ¡nĠ
pÃ²Ġ huÃłi
1 ĠniÃ¡nĠdeĠ
a in
hu ÇİngĠ
ju Çİn
chÃ¡ngĠ jiÄģngĠ
Ġc o
ĠzhÇĲ ĠshÃ¬Ġ
zuÃ¬ĠzÇİo ĠdeĠ
fÃº ĠzhÅįuĠ
miÃłn ĠshÃ¬Ġ
ĠwÃ¨iĠ bÃ¨iĠ
ĠdÃło ĠshÃ¬Ġ
chÄĵngĠ wÃ©i
ÃłoĠsÄ«Ġ kÇİĠ
chÄĵng ĠzhÄ«ĠwÃ¨iĠ
hÃ¡ng ĠxiÃłnĠ
ĠwÃ¨iĠ qÃŃĠ
ĠxÃŃngĠzhÃ¨ngĠ zhÃ¨nĠqÅ«Ġ
fÄĵiĠlÇľĠ bÄ«n
fÄĽn ĠsÄ«Ġ
5 ĠgÅįngĠlÇĲĠ
m Ã¡ng
shÇĲ ĠzhÅįngĠ
ro s
ĠjÄ«Ġ xiÃ¨Ġ
chÇİnĠ yÃ¨
Ġg ÅįuĠ
niÇİoĠ lÃ¨iĠ
Ġ xiÃ¡Ġ
ĠshÃ¬Ġ nÃ¡nĠjÃŃĠzhÅįuĠdeĠ
ĠzhÃ¬Ġ dÃ¬ngĠ
ĠlÃ¬Ġ kÃ¨Ġ
dÃ²ngĠ chÄĵĠ
ĠzuÃ²Ġ biÄģoĠwÃ¨iĠ
shÃ¨ĠhuÃ¬Ġ zhÇĶĠyÃ¬Ġ
6 5Ġ
b ÄĵnĠ
âĢ §
lÃ¬Ġ yÃ²ngĠ
ĠgÅįngĠ jÄ«nĠ
bÄĽnĠ shÄĵnĠ
ĠtÃ³ng ĠrÃ¬Ġ
6 4Ġ
N AĠ
ĠĠĠ suÃŃĠ
zhÃłn ĠguÃ³Ġ
zhÇĲ ĠyÃºĠ
pÇĲn ĠzhÃ¬Ġ
ĠyÃ¬Ġ diÇİnĠ
qÇĲĠ sÃ¹Ġ
dÄĽngĠ zhÃŃĠ
I T
Ġ lÃº
Ġ xiÃ³ngĠ
ĠĠĠ Ã©r
ĠĠĠ zhÇĶĠyÃłoĠ
du ÇĴĠ
huÃ¬ ĠjÃŃĠ
qÇĲ ĠdeĠ
gÄĵ ĠÄĽrĠ
huÇĴĠ bÃłnĠ
yÃŃngĠdÃ©Ġ leĠ
Ġ bÃło
Ãłn ĠshÃŃĠ
zuÃ² ĠzhÅįngĠ
duÃ¬ ĠtÄģĠ
bÄĽi ĠshÃ¬Ġ
wÇĶ ĠmÃŃngĠ
jiÅ« Ġ
bÄ«n ĠshÃ¬Ġ
ĠpÃŃngĠ lÃ¹n
zÅ«Ġ jiÃ¨Ġ
1 20
i th
chÇİng ĠshÃłngĠ
kuÃ² ĠzhÄģngĠ
ĠgÅįngĠ zuÃ²ĠdeĠ
wÃ©iĠ ÄĽr
ĠchÅ« ĠxiÃłn
lÃ¹Ġ shÃłngĠ
tÃŃĠ gÅįngĠdeĠ
jÄ«ngĠjÃ¬Ġ xuÃ©Ġ
1 ĠmÃŃngĠ
Ġ mÃŃn
Ġ gÇİiĠwÃ©iĠ
ĠchÅ«Ġ rÃ¹ĠkÇĴuĠ
ĠyÃ³uĠ yÇĴngĠ
nÇļĠ yÇİnĠyuÃ¡nĠ
lÇĲngĠ xiÄģnĠ
ĠshÃ¬ĠdÃ¬Ġ yÄ«Ġ
ĠfÄĵnĠbiÃ© ĠshÃ¬Ġ
. &
ĠĠĠ zhÃ¹Ġ
Ãłi ĠdÃ©ĠhuÃ¡Ġ
zhÅįng ĠshÃ¬ĠjÃ¬Ġ
duÃ¬ ĠyÇĴuĠ
dÃ²ng ĠyuÃ¡nĠ
shÄ« ĠhÃ©Ġ
tÃłi ĠhÃ²uĠ
bÄģn ĠbÃ¹Ġ
hÃ²uĠ xuÇİnĠrÃ©nĠ
ÃłiĠ qÃŃngĠ
ĠD Ġ
rÃ©nĠmÃŃnĠ dÃłiĠbiÇİoĠdÃłĠhuÃ¬Ġ
Ġ bÄģoĠ
ĠĠĠ 15
ĠĠĠ zhÃłnĠ
ĠdÃłn ĠbÃ¹Ġ
Ġm ÇİiĠ
ĠtÅįngĠ guÃ²
jiÄģngĠsÅ«Ġ shÄĽngĠ
fÃ¹ ĠzhÃ¬Ġ
jÄ«ng ĠdeĠ
yÇĲn ĠlÃ¬Ġ
dÇĲ ĠzhÃ¬Ġ
ĠshÃ¬Ġ xiÄģngĠgÇİngĠ
zuÃ¬Ġ zÇİoĠ
zÃºĠ zÃ¬ĠzhÃ¬Ġ
ĠĠĠT heĠĠĠ
5 2
jÃ¬ ĠzÃłiĠ
199 8ĠniÃ¡nĠ
jiÇİng ĠdeĠ
ĠmÃŃngĠ zÃ¬Ġ
yÃŃĠ zhÇĲ
ĠzhÃ¨Ġ yÃłngĠdeĠ
bÄģnĠ fÄģĠ
chÃ³ngĠ xÄ«n
ĠA l
u sĠ
Ġ shÃ¨nĠ
rÃ©n ĠwÃ¨iĠ
fÄĵn ĠwÃ¨iĠ
ĠzÃłiĠ jÄ«Ġ
ĠchÅ«Ġ shÄĵnĠ
pÇĲnĠ pÃ¡i
ĠbÃ¹ĠdÃ© ĠbÃ¹Ġ
xÄ« ĠyuÃ¡nĠ
hÃłn ĠyÇĶĠ
sÅ« ĠlÇĲĠ
ĠdÃ¬Ġ 2Ġ
duÃ¬Ġ wÃłiĠ
ĠjiÄģĠ mÃ©ngĠ
Ġm ÄģoĠ
Ġt Ã²ngĠ
chÃ¨Ġ dÇĲĠ
ĠyÃºĠ200 7ĠniÃ¡nĠ
lÃ¨iĠsÃ¬ ĠyÃºĠ
ĠjÄ«ĠdÅ«Ġ jiÃłoĠ
p Å«Ġ
Ġ i
Ġ chÅ«nĠ
dÃł ĠhÃ©Ġ
lÃ¹ ĠyÇĶĠ
chÄĵ ĠdÃłoĠ
hÃłn ĠzÃ¬Ġ
zÄģo ĠshÃ²uĠ
ĠxiÃłnĠ dÃłi
duÃ¬Ġ xiÃłngĠ
ĠjiÄģĠ jÃ¬ngĠ
ĠyÄ«n ĠdeĠ
zhÃŃĠ bÅįĠ
bÄģnĠ cÃ¬Ġ
s onĠ
yuÃ¡n ĠzhÅįngĠ
jiÄĵ ĠshÃ¬Ġ
tÇĲ ĠxÃŃngĠ
gÇĶ n
hÃ¡ng ĠzhÅįuĠ
ĠzÃłiĠ gÅįngĠ
ĠchÃ©ngĠ shÃ¬ĠdeĠ
shÄĵngĠ mÃ¬ngĠ
bÇİnĠ bÄĽnĠdeĠ
xiÃ©Ġ tiÃ¡o
hÃłiĠ Ã©
Ġ197 9ĠniÃ¡nĠ
ĠjiÄģng ĠqÃŃĠ
gÃ²ngĠhÃ©Ġ guÃ³ĠdeĠ
ĠĠĠ duÃ¬ĠyÃºĠ
fÃ¹ ĠyÇĴuĠ
rÃ©ng ĠyÇĴuĠ
lÇİng ĠdÃ©Ġ
ĠyÃ¬Ġ jÃŃĠ
yÃ¡nĠ chÃ¡ng
ĠwÃ©iĠ zhÇĲĠ
yÃ¡nĠjiÅ« ĠyuÃ¡nĠ
gÃ¨ngĠ duÅį
xiÃłn ĠshÃŃĠ
jÄ«n ĠrÃ¬Ġ
ĠzÃłiĠ nÃ¡nĠ
ĠchÃ©ngĠ xÃ¹
shÇĴuĠ shÃ¹Ġ
miÃłnĠjÄ« ĠhÃ©Ġ
Ġ hÇİoĠ
kÄĵ ĠÄĽrĠ
qÃ¬ ĠhÃ©Ġ
pÃ¡i ĠdÃ©ĠzhÇĶĠ
rÃłng ĠtÄģĠ
ĠdeĠ zhÃ¨ngĠ
xuÃ©Ġ shÄĵng
jiÃłnĠ zÃłoĠ
ĠdÄģngĠ xuÇİn
ol Ġ
de n
bÄ«ng ĠlÃ¬Ġ
bÃłi ĠzhÃłnĠ
000 Ġ
ĠjiÃłn ĠyÇĴuĠ
guÄ«ĠmÃ³ ĠdeĠ
ĠĠĠ 4Ġ
mÃ¹ ĠshÃ¬Ġ
tÃ³u ĠdeĠ
zhÃ²ngĠ diÇİn
Ġ zhuÄģnĠjÃŃĠ
ti ÄģoĠ
wÇİng ĠdeĠ
ĠhÃ©Ġ lÃ¡n
ĠzhÃ¨Ġ yÄĽĠshÃ¬Ġ
kÄĵĠ fÅ«Ġ
dÇİoĠ yÇİn
8 9
Ġ sÄģnĠshÃŃĠ
liÃ¨Ġ rÃ¹
ĠgÄģiĠ dÃ¬ĠdeĠ
ĠgÅįngĠyuÃ¡nĠ qiÃ¡nĠ
ĠdÃ¬ĠshÃŃĠ yÄ«Ġ
Ġ chÃ©ngĠshÃ¬Ġ
yÇĲ ĠshÃłngĠ
nÃ¡n ĠsÄ«ĠlÄģĠ
shÃ¹Ġ mÃ¹Ġ
jiÃłoĠ kÄĵĠ
mÃŃnĠ jÃ¬nĠ
wÇĶĠ hÃłn
ĠqiÃºĠ yÃ¹nĠdÃ²ngĠyuÃ¡nĠ
1Ġ mÇĲĠ
lÇĲngĠ xiÃ¹
quÃ¨Ġ dÃ¬ng
ruÇİnĠ tÇĲĠ
ĠfÄĵnĠbiÃ© ĠwÃ¨iĠ
ĠmÃ¹ĠqiÃ¡nĠshÃłngĠwÃ¨iĠ yÃ³uĠrÃ©nĠgÅįngĠyÇĲnĠzhÇĴngĠzÄģiĠpÃ©iĠ
m Ã³u
mÄĽi ĠrÃ¬Ġ
huÃ¡ ĠdÃłĠxuÃ©Ġ
dÃ¬ngĠ qÄ«Ġ
biÄģnĠ mÇİĠ
gÇİiĠ wÃ©i
xÃ¹Ġ shÃ¹Ġ
wÃ¹ĠlÇĲĠ xuÃ©Ġ
yÄĵĠ sÅ«
ĠĠĠ 4ĠyuÃ¨Ġ
di ceĠ
ĠhuÃ¬Ġ bÃ¨iĠ
shÄĵnĠ zhÃ¨nĠ
Ġp Ã©i
qiÄģnĠ shÇĶ
zuÃ¬Ġ duÅįĠdeĠ
fÄĵngĠ gÃ©
zuÇĴĠ yÃ²u
qiÃºĠ duÃ¬
ĠxÄ«ĠbÄģnĠyÃ¡ ĠyÇĶĠ
q Ãº
Ġ yÃ¡nĠjiÅ«Ġ
yuÃ¡n ĠshÃŃĠ
duÅį ĠÄĽrĠ
lÃŃn ĠsÄ«Ġ
shÄĵngĠ tÃłiĠ
oo g
Ġ wÃ©i
zhÃł i
jiÄģn ĠzhÃ¬Ġ
ĠjÃŃĠ yÄ«Ġ
jÃ¹Ġ dÃłĠdeĠ
tiÄģnĠ tÃ¡ngĠ
Ġm Çİi
shÄģngĠ wÃ¡ngĠ
d Ã¨ng
t ÅįuĠ
x Å«n
shÇĴu ĠbÃ¹Ġ
wÃ² ĠÄĽrĠ
ĠzÃłiĠ yuÃ¡nĠ
zhÅįngĠ bÃ¹Ġ
wÄĽiĠyuÃ¡nĠ huÃ¬ĠdeĠ
huÃ³ĠdÃ²ng ĠdeĠ
ĠzhÃ¬ĠzuÃ² ĠrÃ©nĠ
xiÃłĠxiÃ¡ĠdeĠyÃŃĠgÃ¨Ġ xiÄģngĠ
Ġ shÃ¹n
fÇİ ĠshÃ¬Ġ
gÃłn ĠxiÃłnĠ
shÃłngĠ shÃ¹Ġ
dÃłiĠ bÇĶĠ
jÃ¹Ġ lÃŃ
tÃ¨Ġ qÅ«Ġ
ĠzhÅįngĠguÃ³Ġ gÃ²ngĠchÇİnĠdÇİng
huÃ¡ngĠ jÄ«n
yÅįuĠ xiÃ¹Ġ
ĠzhÇĲ ĠchÅ«Ġ
ĠĠĠ194 9ĠniÃ¡nĠ
oh n
p Ã³Ġ
s ti
Ġ bÇİi
ĠwÃ¨iĠ zhÅįngĠguÃ³Ġ
ĠbÃ¹Ġ ÄĽr
ĠyÃºĠ tÃ³ngĠniÃ¡nĠ
ĠxÄ«Ġ zÃłngĠ
fÄĵnĠ lÃ¡nĠ
w ÄģngĠ
Ġ 1ĠyuÃ¨Ġ
Ġ shÃ²uĠdÃłoĠ
ĠĠĠ dÅįngĠ
tÃ¨ ĠjÃŃĠ
dÅįng ĠdeĠ
ĠmÃŃngĠ chÄĵng
kÄģiĠ mÃ¹Ġ
tÃ¡iĠwÄģn ĠdeĠ
jiÃ¹ĠdÃº ĠyÃºĠ
ĠĠĠgÃ¨ĠrÃ©nĠ shÄĵngĠhuÃ³Ġ
e li
Ġ bÃłiĠ
jÃ¬n ĠjÃŃĠ
jiÇİ ĠjÄ«Ġ
ĠdÃłĠ yuÄĵ
qiÃ¡nĠ tÇĲngĠ
tÃ¡iĠ bÃ¬Ġ
kÇİĠ lÄģĠ
ĠzhÇĶĠ chÃŃĠ
Ġ193 8ĠniÃ¡nĠ
ĠjÃ¬ĠsuÃłn ĠjÄ«Ġ
I P
Ġ cÄģn
bÃ¨i ĠshÃ¬Ġ
kÇİĠluÃ³ĠlÃ¡iĠ nÃł
5 00
shÃ¹ ĠhÃ©Ġ
rÃ¹ ĠwÃ©iĠ
zi ĠgÅįngĠsÄ«Ġ
qÃ¬ ĠrÃ©nĠ
xiÃ© ĠdÃłiĠ
hÃº ĠpÅįĠ
zhuÇİn ĠwÃ©iĠ
ĠdeĠ lÇĲĠ
xiÄģngĠ hÃ¹Ġ
jÄ«ngĠ yÃ³uĠ
guÄ«Ġ huÃł
Ġg Å«
miÃ¡oĠ shÃ¹ĠwÃ¨iĠ
tÃłnĠ suÇĴĠ
ĠxÄ«n ĠjiÄģĠp
ĠkÄģng ĠxÄ«Ġ
D V
qÃŃ ĠshÃ¬Ġ
xiÅ« ĠsÄ«Ġ
ĠdeĠjÄ«Ġ huÃ¬Ġ
k i
ĠĠĠ fÃºĠ
shÇĲ ĠdÃ¬Ġ
tÃ¨ ĠhÃ©Ġ
199 2ĠniÃ¡nĠ
ĠchÃ©ngĠ bÇİoĠ
ĠkÃ¨ ĠlÇĲĠsÄ«Ġ
yÃŃĠ mÃŃn
dÇĲĠ dÃ¡
dÄĵngĠ lÃ¹
ĠyÇĴuĠyÄ«Ġ xiÄĵĠ
nuÃ³Ġ wÄĵi
Ġà ¸
âĦ ĥ
3 ĠmÇĲĠ
Ġ diÃłnĠyÇĲng
nÃł ĠsÄ«Ġ
ĠhÃ©Ġ tÃ³ngĠ
ĠgÅįngĠ kÄģi
Ġm Ã¡
shÄģngĠ pÇĲnĠ
ĠĠĠ200 2ĠniÃ¡nĠ
Ġ194 7ĠniÃ¡nĠ
ĠguÃ³ĠmÃŃnĠ dÇİngĠ
Ġ nÃŃngĠ
sÄģn ĠwÃ¨iĠ
fÅ« ĠfÃ¹Ġ
29 Ġ
ĠguÃ³Ġ gÅįngĠ
mÃŃnĠ zhÇĶ
wÃ©nĠ zhÄģng
jiÇİngĠ zuÃ¬ĠjiÄģĠ
ĠĠĠP ro
lay Sta
B SĠ
c Ã¡o
ng ĠĠĠ
ĠĠĠ xiÄģngĠgÇİngĠ
hÃ¡ng ĠzhÃłnĠ
zhuÃłng ĠbÃ¬ngĠdÃº
ĠzhÅįngĠ zhÇĲĠ
ĠgÃ¨ ĠdÃłĠ
jÃ¬ngĠ nÃ¨iĠdeĠ
pÄ«Ġ pÃŃng
kÄģiĠfÄģ ĠdeĠ
Ġ shÃłng
ĠtÄģĠ hÃ¡i
hÇİiĠ yÃ¡ng
fÃłnĠ wÃ©i
xiÃ©Ġ shÄģngĠ
ĠdÄģngĠ xuÇİnĠ
kuÃ²Ġ zhÇİnĠ
Ġ jiÃłoĠyÃ¹Ġ
mÇİ ĠshÃ¬Ġ
ĠchÃ©ngĠ wÃ©iĠyÄ«Ġ
xÄ«Ġ yÃ¡ng
liÃłngĠ zÇĲĠ
Ġp Çİo
dÃºĠ tÃ¨ĠdeĠ
gÄĵĠlÃºnĠ bÇĲĠyÃłĠ
o st
bÄģĠ nÃ¨n
jiÃłnĠ kÄģngĠ
8 6
Ġ cÃŃ
Ġ tÃŃngĠ
Ã¨ ĠÄĽrĠ
ĠĠĠ lÄģĠ
ĠĠĠ zhÃ¬ĠzuÃ²Ġ
wÃº ĠÄĽrĠ
ĠbÃ¹Ġ zhÃ¨ngĠ
ĠhÄģ ĠÄĽrĠ
jÃ¹ ĠzhÅįngĠ
nÃ¡n ĠrÃ©nĠ
cÇĲ ĠshÃ¬Ġ
198 8ĠniÃ¡nĠ
ĠyÄ«Ġ chÃ¡ngĠ
cÃ¨Ġ liÃ¡ng
hÃłnĠ lÃŃnĠ
ĠyÃºĠ200 6ĠniÃ¡nĠ
wÃ©nĠhuÃł ĠdÃłĠ
i re
Ġ pÃ©ngĠ
shÅ« ĠshÃ¬Ġ
ĠjiÃłnĠ zÃło
ĠqÃŃĠ bÄ«ngĠ
jÃ¬nĠ zhÇĲĠ
xiÃłnĠ xiÃłngĠ
ĠtÃ³ngĠshÃŃĠ yÄĽĠ
fÄĵiĠlÇľĠ bÄ«nĠ
ĠmÇİĠlÃ¡i ĠxÄ«ĠyÃłĠ
xiÇİng ĠdeĠ
ĠrÃ¬Ġ qÄ«Ġ
ĠjiÄģĠ rÃ¹ĠleĠ
yÃ¬nĠ xiÃłngĠ
mÇĴuĠ xiÄĵ
Ġ pÃ¡iĠ
Ġ wÇİnĠ
ĠĠĠ 8ĠyuÃ¨Ġ
ĠĠĠ suÄ«ĠrÃ¡nĠ
fÃº ĠshÃ¨Ġ
ĠdÃ¬Ġ bÄģĠ
ĠbÃ¬ngĠ jiÄģng
gÄģoĠ dÄĽng
zÇĴngĠ jÄ«ngĠlÇĲĠ
ĠzuÃ¬ ĠchÅ«
Ġsh ÇİnĠxÄ«Ġ
Ġ pÃłiĠ
Ġ rÃ¨Ġ
Ġ mÃ¡oĠ
Ġ fÇİnĠduÃ¬Ġ
wÃ¡ng ĠhÃ²uĠ
ĠguÃ³Ġ yÇĶĠ
nÃ¨iĠ mÃ©ngĠgÇĶĠ
Ġm ÇĴu
quÃ¨Ġ bÇİoĠ
qÃºnĠ zhÃ²ngĠ
s eĠ
Ġ sÅįngĠ
duÅį ĠbÃ¹Ġ
jiÃ¹ ĠyÇĴuĠ
zhuÃłng ĠdeĠ
chuÄģn ĠyuÃ¨Ġ
dÃłĠ xuÃ©
ĠyÃ¬Ġ si
yÃ³uĠ tÃłiĠ
ĠhuÃ¬Ġ shÃłngĠ
lÃ¡nĠ sÃ¨Ġ
gÄĵĠ cÃŃĠ
e di
pÇĲn ĠdeĠ
ĠshÃ¬Ġ nÃ¡nĠ
ĠrÃ¬ ĠyÃ¬Ġ
zhÃ¨Ġ zhÇĴng
ĠbÃ¬ngĠ biÇİoĠshÃ¬Ġ
ĠzhÃłnĠ lÇĲngĠ
fÃ¡ngĠ kÅįngĠ
zhÃłoĠ piÄģn
5 5Ġ
Ġ dÄģnĠrÃ¨n
gÃ© ĠsÄ«Ġ
ĠnÃ¡nĠ bÄĽiĠ
ĠhÃ©ĠliÃºĠ yÃ¹Ġ
Ġ yuÇİnĠ
Ġ gÃ¹ĠshÃ¬Ġ
fÃ¹ ĠyÇĶĠ
ĠyuÃ¡nĠ yÇĴuĠ
ĠmÃŃngĠ xÄ«ngĠ
ĠxiÄģngĠ duÃ¬Ġ
jiÄĵĠwÃ¨iĠ zhÄ«Ġ
ĠshÃ¬ĠyÃŃĠgÃ¨ ĠwÃ¨iĠyÃºĠmÄĽiĠguÃ³Ġ
miÃłnĠjÄ«ĠhÃ©Ġ rÃ©nĠkÇĴuĠ
Ġ Ø
Ġ yÄģoĠqiÃº
chÃ©ng ĠshÃŃĠ
qi ÄģoĠ
qÅ« ĠjÃŃĠ
yÃŃ ĠjÃ¬Ġ
fÄģng ĠwÃ¨iĠ
ĠzhÅįu ĠrÃ©nĠ
Ġ198 1ĠniÃ¡nĠ
l Ãłng
Ġ wÅ«
ĠĠĠ kÃ¨Ġ
bÇĲ ĠÄĽrĠ
dÄģn ĠxÄ«nĠ
yÄ«ng ĠjÅ«nĠ
shÃłngĠ xiÃłĠ
ĠtÄģĠ jiÄģngĠ
ĠzhÄ«Ġ chÄĵngĠ
ĠfÃ¹Ġ gÃłiĠ
wÇĶĠ dÇİoĠ
shÄĵnĠ wÃ¡ngĠ
chuÃłngĠ shÇĲĠrÃ©nĠ
ation Ġ
chÃ¡ ĠlÇĲĠ
zhÄĵn ĠdeĠ
ĠyÄ«Ġ tiÄģnĠ
ĠchÅ«Ġ rÃ¨n
Ġm iÃ¡nĠ
nÇļĠ hÃ¡iĠ
ĠqÃŃĠzhÅįngĠ yÇĴuĠ
hÃ¨Ġ sÃ¨Ġ
hÃ¡ngĠkÅįng ĠgÅįngĠsÄ«Ġ
ĠgÄģiĠdÃ¬ĠdeĠ miÃłnĠjÄ«ĠhÃ©ĠrÃ©nĠkÇĴuĠ
ĠgÄģiĠdÃ¬ĠdeĠmiÃłnĠjÄ«ĠhÃ©ĠrÃ©nĠkÇĴuĠ jiÄĵĠwÃ¨iĠzhÄ«Ġ
4 4Ġ
yuÃ¨ ĠhÃ©Ġ
xiÄģng ĠdeĠ
cÃ¬ ĠjÄ«Ġ
ĠyÃ¬Ġ wÃłiĠ
tÃ³ngĠ yÃłng
zhuÄģngĠ jiÇİ
Ġ193 7ĠniÃ¡nĠ
ĠzhÃ¬ĠlÃ¬Ġ yÃºĠ
2 ĠniÃ¡nĠdeĠ
3 9Ġ
Ġ rÃ¨nĠhÃ©Ġ
Ġ zhÃłnĠdÃ¬Ġ
ĠĠĠ mÃ¹ĠqiÃ¡nĠ
duÅį ĠyuÃ¡nĠ
bÅį ĠlÃ¬Ġ
in c
ĠzhÃ¬Ġ liÃ¡o
xÄ«Ġ wÃłngĠ
jÄ«ngĠ yÃŃng
ĠnÃ¡nĠ ziĠ
lÇĲngĠ yÃ¹ĠdeĠ
jÅ« ĠyÃºĠ
kÄĵĠ xuÃ©
cÃ¡iĠ zhÃ¨ng
tuÃ¡nĠ jiÃ©Ġ
ĠqiÃ¡nĠ lÃ³ngĠ
Ġ15 7
Ġ ziĠ
ĠjÃŃĠ yÇĲĠ
ĠgÃ¨Ġ zÃ¬Ġ
ĠchÅ«Ġ shÃ²uĠ
ĠjÃ¬n ĠjÃŃĠ
ĠpÃŃngĠ jiÃłĠ
Ġp Ã¡ng
huÃ¬ĠyÃ¬Ġ shÃłngĠ
cÃºnĠzÃłiĠ yÃºĠ
ĠĠĠ hÃ©
diÇİn ĠxÃŃngĠdeĠ
biÄģo ĠjÃ¬Ġ
gÄĽi ĠtÄģĠ
ĠzhÅįngĠ duÃ¬Ġ
ĠdÃ© ĠlÃ¬Ġ
bÇİoĠ zhÃłngĠ
ĠguÃ³ĠmÃŃnĠ zhÃ¨ngĠfÇĶĠ
5 ĠniÃ¡nĠdeĠ
tÄ«ng ĠdeĠ
zhÅįngĠ yÄģng
guÄģnĠ cÃ¨
ĠjÅ«nĠ guÄģnĠ
ĠkÃ¨Ġ luÃ³Ġ
Ġm iÃ¡n
bÇĶĠ chÅįngĠ
ĠdeĠyuÃ¡nĠ yÄ«nĠ
ĠĠĠwÃ¨iĠ leĠ
4 0ĠniÃ¡nĠ
r ÇİngĠ
xÃ¬ ĠjÅ«nĠ
lu Ã¡nĠ
tÃ¡ng ĠdeĠ
guÃ³Ġ fÃ¡ng
fÄģĠ yÃ¡nĠrÃ©nĠ
gÄģoĠ jiÃłĠ
jÃ¬ngĠ tÃ³uĠ
chÇİnĠ shÄĵng
chuÃłngĠ zuÃ²
ĠsuÃŃĠ zheĠ
ĠĠĠ 7ĠyuÃ¨Ġ
ĠĠĠ 9ĠyuÃ¨Ġ
ĠĠĠ qÃŃĠzhÅįngĠ
pÃŃng ĠjÅ«n
ĠshÃ¬Ġ yuÃ¡nĠ
ĠyÇĲĠ 1Ġ
yÃ¡nĠ chÃ¡ngĠ
bÇİiĠ wÃłnĠ
hÄĵiĠ lÃ³ngĠjiÄģngĠ
ĠdeĠjÃ¬Ġ huÃłĠ
t sĠ
Ġ shÃłoĠ
ĠĠĠ i
xÃ¹ ĠjÃŃĠ
jiÇİn ĠlÃ¬Ġ
ĠjÃŃĠ ÄĽrĠ
yÃ¡nĠ lÃ¹nĠ
nÃłĠ rÃ¹Ġ
wÇİngĠ wÇİngĠ
chÃ¡oĠ tÃŃngĠ
mÃ©ngĠ tÃ¨Ġ
Ġ195 6ĠniÃ¡nĠ
fÃºĠjiÃłnĠ shÄĽngĠ
a vi
Ġ fÇĶĠ
Ġ zhÄģoĠ
ĠyÄ«Ġ tÃ³ng
tÃŃngĠ yÃ¹nĠ
hÃ¡ngĠ bÄģnĠ
fÃ¡ngĠ jiÄģnĠ
Ġ lÇĲngĠ
hu Çİn
duÃłn ĠshÃŃĠjiÄģnĠ
ĠhÃ©Ġ lÃ¬Ġ
19 ĠshÃ¬ĠjÃ¬Ġ
qiÄģn ĠrÃ©nĠ
diÃło ĠyÃºĠ
ĠshÃ¬Ġ gÃ¨Ġ
ĠshÃŃĠ jiÄģnĠdeĠ
ĠxÄ«Ġ lÇĲĠ
ĠfÃºĠ wÃ¹Ġ
il li
p en
shÃ¹ ĠrÃ©nĠ
sÄģn ĠyuÃ¨Ġ
shÅįu ĠcÃ¡ngĠ
ĠniÃ¡nĠ dÃłiĠ
tiÄģnĠ qÃ¬Ġ
bÇİoĠ cÃºn
jÃ¬ngĠ wÃłiĠ
liÃłngĠ xiÃłngĠ
Ġ19 Ġ
3 5ĠniÃ¡nĠ
Ġ nÃ¨i
tu ÇĲĠ
fÃ¹Ġ zhÇĶĠxÃŃĠ
ĠguÃ³ĠmÃŃnĠ dÇİng
r y
Ġ kÇĴuĠ
qi Äģo
sÄģnĠ zhÇĴngĠ
wÃ¡ngĠ zÇĲĠ
dÇİĠ suÃłnĠ
ĠĠĠchÄĵĠzhÃłnĠ jiÃ©ĠgÃ²uĠ
c uÃ²
ĠĠĠ cÄģnĠkÇİoĠ
yÄ«ng ĠcÃ¹nĠ
yÇĴuĠ guÄģnĠ
jÃ¬Ġ xÃ¹
fÄģĠ bÃ¹ĠdeĠ
ĠÃ©rĠ lÃ¡iĠ
bÅįĠ fÃłng
ĠshÃ¬ĠjiÃ¨ ĠdeĠ
xÇĲĠ hu
suÃłnĠ fÇİĠ
ĠsuÃ¬ ĠdeĠ
z Å«
ĠĠĠ 7
jiÄģ ĠshÃ¬Ġ
xÄ«Ġ yÃłĠ
ĠwÃ©iĠ qÃŃ
bÇİoĠ zhÃłng
tÃ³uĠ xiÃ¡nĠ
xÄ«ngĠ xÃ¬Ġ
ĠchÃ©ngĠlÃ¬Ġ leĠ
ÄģĠÄĽrĠ bÄģĠ
nÃŃĠyÃł ĠdeĠ
qÃ¹ĠshÃ¬Ġ hÃ²uĠ
3 00Ġ
yÃ¹ ĠbÃ¨iĠ
chÃ³ng ĠfÃ¹Ġ
tuÄ« ĠxÃŃngĠ
ĠdeĠdÃ¬Ġ yÃŃĠgÃ¨Ġ
chÃ¨Ġ tuÃ¬Ġ
tÇĲĠyÃ¹Ġ guÇİnĠ
ĠmÇİ ĠlÃ¬Ġ
p ÇĴ
Ġ diÃłoĠ
shÃ©n ĠdeĠ
zhÇİn ĠxiÃłnĠ
sÃ²ng ĠdÃłoĠ
duÄģn ĠdeĠ
ĠyÇĶĠ zhÃ²u
ĠzhÅįu ĠwÃ©iĠ
ĠyÄ«n ĠyuÃ¡nĠ
ĠxuÃ©Ġ xÃŃ
zhuÄģnĠ mÃ©n
shÅįuĠ gÃ²u
ÃłoĠdÃłĠlÃ¬Ġ yÃł
pÃºĠtÃ¡oĠ yÃ¡Ġ
zhÃ¨ĠjiÄģngĠ shÄĽngĠ
h Ġ
Ġ zhÇĶ
zhÅįng ĠhÃ©Ġ
zhÃłn ĠhÃ©Ġ
liÃ¨ ĠsÄ«Ġ
dÅ« ĠhuÃ¬Ġ
ĠzÃłiĠ xiÃłnĠ
fÄģĠ huÄ«
qiÃ¡ngĠ dÃłĠdeĠ
mÇİnĠ zÃº
zhuÃłnĠ xiÄĽĠ
T VĠ
ĠĠĠ 6ĠyuÃ¨Ġ
gu Ãłi
qi Çİng
zhÄĽ ĠrÃ¨nĠwÃ©iĠ
ĠguÃ³Ġ wÃ¡ng
ĠyÄ«n ĠqÃŃĠ
xiÇİoĠ zÇĶ
Ã©Ġ hÃłiĠÃ©
guÃ³ĠjiÄģĠ duÃ¬Ġ
ĠguÄģnĠ fÄģngĠ
o y
Ġ chÄģo
chÃ©ng ĠzÃłiĠ
zhÄ« ĠdÃłoĠ
qiÃ¡n ĠzÃłiĠ
di Ġ
wÇİn ĠniÃ¡nĠ
re s
ĠdÃło ĠzhÅįngĠ
ĠyÇĲĠ lÃ¡i
ĠchÅ« ĠyÄ«Ġ
bÄģĠ lÃ¨
sÃ¨Ġ cÇİiĠ
tÃłnĠ cÃ¨Ġ
9 4
a ch
bÃ¹ ĠwÃ¨iĠyÃºĠ
jÃ¬n ĠxÃŃngĠdeĠ
ĠdÃ¬Ġ zhÅįngĠ
zhÃ¨Ġ yÃłngĠdeĠ
wÃłiĠ guÄģnĠ
zÃ¡ ĠdeĠ
Ġ195 5ĠniÃ¡nĠ
ĠpÃºĠtÃ¡oĠ yÃ¡
wÃ¡nĠzhÄĽng ĠdeĠ
t t
ĠĠĠ gÄģoĠ
di ÄĵĠ
mÇİ ĠlÃ¬ĠyÃłĠ
zhÄĵn ĠzhÃ¨ngĠ
ĠzÃłiĠ qÃŃ
tÅįngĠ xÃ¹n
tÅįngĠ wÇİngĠ
liÃºĠ liÃłngĠ
bÃłoĠ zhÃł
guÄ«Ġ zÃ©
pÃºĠtÃ¡oĠ yÃ¡
Ġ gÇİnĠ
qÄ« ĠshÃ¬Ġ
bÄĽn ĠbÃ¹Ġ
bÇİo ĠwÃ¨iĠ
shuÇĲ ĠhÃ©Ġ
dÅįu ĠbÃ¹Ġ
or l
dÃłĠ liÃłngĠ
ĠdÃłĠ sÃłiĠ
ĠjiÄģĠ sÄ«Ġ
ĠshÄĵngĠ chÄĵngĠ
lÄģĠ tÃ¨Ġ
pÇĶĠ tÅįng
hÃ¹Ġ dÃ²ngĠ
cÅ«nĠ mÃŃnĠ
d ÇĶ
xu Äĵ
chÅ« ĠzhÃłnĠ
fÃ¹ ĠbÃ¹ĠzhÇİngĠ
bÄģ ĠshÃŃĠ
ku Äģn
bÅį ĠchÅ«ĠdeĠ
ĠyuÃ¨Ġ tuÃ¡n
ĠÄĽr ĠyÇĶĠ
qiÃ¡nĠ jÃ¬nĠ
tÇİĠ nÃŃ
ĠĠĠ200 1ĠniÃ¡nĠ
7 ĠniÃ¡nĠdeĠ
P ro
² Ġ
Ġ ÄģnĠdÃ©Ġ
rÃ¨n ĠyÃ¬Ġ
shÄĽng ĠzhÃ¨ngĠfÇĶĠ
wÇİng ĠqiÃº
kuÃ² ĠjiÃłnĠ
199 7ĠniÃ¡nĠ
yÄ«Ġ lÃ¬Ġ
ĠjÃŃĠ sÄ«Ġ
ĠbÃ¬ng ĠyÇĴuĠ
diÃłnĠ zÇĲ
fÄĵnĠ liÃ¨Ġ
tÃłnĠ xiÇİn
p or
Ġ lÇļ
Ġ 22
chÃ©ngĠ jÃ¬Ġ
gÃłoĠ sÃ¹
Ġh ÄĵngĠlÃ¬Ġ
Ġ qÇĲngĠ
ĠĠĠ gÄĵnĠjÃ¹
xiÃło ĠshÃ¨Ġ
ĠrÃ¬Ġ hÃ²uĠ
gÇİiĠ chÄĵngĠ
zÃºĠ qÃºnĠ
bÃłnĠ yÇİn
kÅįngĠ xÃŃĠ
ĠM Ġ
nÃłnĠ mÃŃnĠ
yÃ¹n ĠxÃŃng
ĠguÃ³Ġ jÅ«nĠ
ĠrÃ¬Ġ yÇĶĠ
ĠqÃŃ ĠtÄģĠdeĠ
chÃ¡ngĠ wÄĽiĠhuÃ¬Ġ
shÅįuĠ fÃ¨iĠ
ĠguÃ³ĠjÃ¬Ġ jÄ«ĠchÇİngĠ
el Ġ
laySta tion
ĠĠĠ rÃ¬ĠbÄĽnĠ
ĠĠĠ jiÃłnĠzhÃ¹Ġ
hÃ²u ĠbÃ¹ĠjiÇĶĠ
dÄ« ĠdeĠ
ĠbÃ¹Ġ jÇĲn
shÄĵngĠ yÄ«nĠ
fÇİĠ guÃ³ĠdeĠ
bÃłnĠ dÇİo
Ġs Äģng
ĠĠĠ200 0ĠniÃ¡nĠ
guÇİngĠfÃłn ĠdeĠ
k ÇĶ
Ġ nÃ³ngĠ
ĠĠĠ xiÄģngĠ
dÃ¬ng ĠlÇĲĠ
194 5ĠniÃ¡nĠ
xiÄĽ ĠleĠ
ĠjÃŃĠ jiÄģngĠ
ĠÄĽr ĠzÃłiĠ
zhÇĲĠ shÃ¹Ġ
zhuÇİnĠ yÃŃĠ
ĠĠĠgÄĵnĠjÃ¹Ġ 2010ĠniÃ¡nĠmÄĽiĠguÃ³ĠrÃ©nĠkÇĴuĠpÇĶĠchÃ¡ĠdeĠshÃ¹ĠjÃ¹Ġ
ĠĠĠ18 9
C DĠ
l ÇĴngĠ
Ġ lÇİo
ĠhÃ©Ġ dÅįngĠ
xÄ«Ġ lÃłĠ
ĠmÃŃngĠ xiÇİnĠ
ĠyÄĽĠ kÄĽĠyÇĲĠ
nuÃ³Ġ wÄĵiĠ
3 ĠmÃŃngĠ
a ti
Ġ dÃŃ
Ġ tÇİ
Ġ yÃ¬ĠniÃ¡nĠ
ĠĠĠ cÇĲ
juÃ© ĠyÃºĠ
liÃº ĠxuÃ©Ġ
ĠchÅ« ĠxiÃłnĠdeĠ
ĠjÃ¬n ĠleĠ
xÃ¹Ġ liÃ¨Ġ
Ġt Ã²ng
Ġs ÄģĠ
qiÃ¡oĠ liÃ¡ngĠ
nuÃ²Ġ mÃłnĠ
Ġ15 8
m aĠ
Ġ xuÃ¡nĠ
lu Çİn
zhÇĶĠ bÃłnĠ
rÃ©nĠkÇĴuĠpÇĶĠ chÃ¡Ġ
xuÃ©ĠshÃ¬Ġ xuÃ©ĠwÃ¨iĠ
t Ã²ngĠ
Ġ nĠ
xiÃło ĠyÇĴuĠ
sÃ¹ ĠshÃ¨Ġ
lÇ ĺ
ĠxiÃłn ĠyÇĶĠ
ĠdÃłĠ guÄ«ĠmÃ³Ġ
ĠnÃ¡nĠ jÄ«ngĠ
yÃ¬nĠ shuÄģĠ
ĠhÃ©ĠnÃ¡nĠ shÄĽngĠ
hÇİnĠmÃ² ĠdÃ©Ġ
p Ã¹Ġ
Ġ biÇİoĠ
zhÃłn ĠzÃłiĠ
gÇİi ĠmÃŃngĠ
dÇİng ĠjÃŃĠ
kÄģng ĠxÄ«Ġ
ĠxiÃłnĠ zÃłiĠdeĠ
qÅ«Ġ zhÃº
ĠkÃ¨Ġ sÃłĠsÄ«Ġ
shÃ²uĠ sÇĶnĠ
shuÇĲĠ shÄĵnĠ
kÃ¨Ġ yÃ¹nĠ
zhÇĶĠyÃło ĠshÃ¬Ġ
mÃłoĠ xiÇİnĠ
zÃłng ĠyÃºĠ
2 ĠmÃŃngĠ
Ġ yÄ«ĠwÃ¨iĠ
le ĠdÃ¬Ġ
xÄ«n ĠxÃŃngĠ
mÄĽi ĠdeĠ
jiÇİng ĠzhÅįngĠ
xÇĲ ng
rÃ©nĠ mÃŃn
ĠdÃłn ĠqÃŃĠ
tÃ¨Ġ lÇİngĠ
bÃłnĠ fÇİĠ
tiÃ¡oĠ wÃ©nĠ
ĠtÃ³ngĠshÃŃĠ yÄĽĠshÃ¬Ġ
dÃłiĠbiÇİoĠ tuÃ¡nĠ
Ġ guÇİnĠ
19 00
qiÃ¡n ĠxiÃłnĠ
sÄģn ĠbÃ¹Ġ
sÃ¬ ĠyuÃ¨Ġ
zhÄĵn ĠyÇĶĠ
yÃ¬Ġ bÇİiĠ
ĠtÄģ ĠchÃ©ngĠwÃ©iĠ
ĠtÄģĠ shuÅįĠ
ĠzhÅįu ĠhÃ©Ġ
shÅįuĠ rÃ¹
pÃłnĠ chÇĶĠ
Ġ ch
Ġ lÃ¡n
Ġ gÅįngĠbÃ¹Ġ
ĠĠĠ fÇİĠguÃ³Ġ
fÃº ĠshÃ¬Ġ
zÇĴng ĠzhÃłnĠ
cÃŃ ĠhuÃ¬Ġ
15 0Ġ
jiÇİ ĠshÃ¨Ġ
ĠzhÄ« ĠbÃ¹Ġ
ĠdÃłĠ chÃ©ngĠ
ĠyÇĲĠ 2Ġ
ĠxuÃ©Ġ huÃ¬Ġ
yÃŃĠ dÃ¹
yÇİnĠ zÃ²uĠ
lÇĲĠshÃ¬Ġ huÃ¬Ġ
tÃºĠshÅ«Ġ guÇİn
4 ĠĠĠ
Ġ dÅįuĠshÃ¬Ġ
jÃº ĠshÃ¬Ġ
ĠshÃ¬Ġ zhÃ¨ngĠfÇĶĠ
ĠshÃŃĠ yuÃ¨Ġ
bÃ¨iĠ ÄĽrĠ
ĠsÄ«Ġ fÇİĠ
rÃ¨nĠ zhÃŃĠ
sÃłiĠ chÄĵĠ
qÇĶĠdÃ©Ġ leĠ
rÃ©nĠdÃłĠ dÃłiĠbiÇİoĠ
0 ĠrÃ©nĠ
M A
Ġ qiÅ«
Ġ chÇİngĠ
nÃł ĠhÃ©Ġ
chuÃ¡n ĠqÃŃĠ
mÃ¬ngĠ mÃŃngĠdeĠ
chuÃŃĠ zhÃŃĠ
ĠguÄģn ĠzhÃ¬Ġ
wÃ©i ĠrÃ©nĠ
er i
liÃ¹ ĠgÃ¨Ġ
zhÃ¨ngĠ chÃ¡ngĠ
lÃ¹Ġ kÇĴuĠ
suÇĴĠ xÅ«
rÃºĠ guÇĴ
cu Ä«
4 3Ġ
Ġ gÃłiĠ
Ġ dÄĵngĠ
Ġ wÃ²Ġ
Äģ ĠkÃ¨Ġ
yÇĲng ĠdÃłiĠ
cÅ«n ĠdeĠ
shÅįu ĠcÃ¡ng
dÃłng ĠzuÃ²Ġ
ĠlÃ¬Ġ shÇĶ
fÄģngĠ chÃ©ngĠshÃ¬Ġ
jÄ«nĠ rÃ³ng
Ġt ÄģiĠ
ĠshÃ¬ĠshÃ¬Ġ jiÃ¨
luÃ³ĠmÇİ ĠdÃ¬ĠguÃ³Ġ
ĠxiÃłnĠdeĠyÃŃĠgÃ¨ ĠxÃŃngĠzhÃ¨ngĠzhÃ¨nĠqÅ«Ġ
H D
a yĠĠĠ
hÃ¹ ĠshÃ¬Ġ
shuÅį ĠdeĠ
zÇĴngĠ miÃłnĠjÄ«Ġ
bÅįĠ luÃ³Ġ
mÃ¬Ġ dÃ¹Ġ
fÇİnĠ duÃ¬
ĠĠĠ tÃ¡iĠwÄģnĠ
zhÃłn ĠyÇĴuĠ
chÄĵ ĠrÃ©nĠ
biÃłn ĠshÃ¬Ġ
shuÇĲ ĠdeĠ
ĠzhÄ«Ġ hÃ²uĠzÃłiĠ
jiÃłoĠ gÄģoĠ
fÃºĠ lÃ©i
ĠrÃ¨nĠ zhÃŃĠ
fÃłnĠ zuÃ¬
Ġk Å«nĠ
ĠrÃ¬ĠbÄĽn ĠdeĠ
juÃ©ĠsÃłi ĠzhÅįngĠ
shÄģnĠxÄ«Ġ shÄĽngĠ
e i
Ġ wÃ¡nĠchÃ©ngĠ
ĠĠĠ yÃ¡nĠgÃ©Ġ
ĠĠĠ yÇĲĠxiÃłĠ
jiÄģoĠ jiÃ¨Ġ
ĠxiÄģngĠ tÃ³ngĠ
shÄģngĠ chÇİngĠ
yÄ«nĠ sÃ¹Ġ
qiÃ¡ngĠ diÃło
ĠR Ġ
cÃ¹ ĠjÃ¬nĠ
fÃº ĠyÄ«nĠ
tÇĲ ĠjÄ«Ġ
xÄ«ng ĠjiÃłn
zÇĲ ĠdÃłnĠ
miÇİn ĠyÃ¬Ġ
ĠshÃ¬Ġ zhÇĲ
ĠxiÃłn ĠzhÅįngĠ
jÃ¹Ġ bÄĽnĠ
ĠbÃ¨iĠ jÇĲngĠ
wÄĽiĠyuÃ¡nĠhuÃ¬Ġ zhÇĶĠxÃŃĠ
ĠshÇĴuĠ cÃ¬Ġ
ĠliÃºĠyÃ¹Ġ miÃłnĠjÄ«Ġ
6 ĠmÇĲĠ
n o
Ġ mÃ¹
Ġ fÄĵng
Ġ xiÅįngĠ
Ġ jÄ«ĠyÃºĠ
chÃ¡ ĠÄĽrĠsÄ«Ġ
Ã©r ĠtÃ³ng
chuÃ¡n ĠdÃ¬Ġ
ĠxÃŃng ĠhÃ©Ġ
rÃ¨nĠ mÃ¬ngĠ
bÇİoĠ jiÄģ
2Ġ hÃłoĠ
ĠP Ġ
tuÃ¬Ġ xiÅ«
ĠgÄĵnĠjÃ¹Ġ 2020ĠniÃ¡nĠmÄĽiĠguÃ³ĠrÃ©nĠkÇĴuĠpÇĶĠchÃ¡ĠdeĠshÃ¹ĠjÃ¹Ġ
hÃ¹ĠliÃ¡nĠ wÇİngĠ
O R
Ġ dÃ¡
Ġ huÄģ
Ġ cÇİiĠ
Ãłn ĠlÃ¬Ġ
chÃ¡o ĠshÃŃĠ
ĠzhÃ¨ngĠ quÃ¡nĠ
T A
c ÇİnĠ
Ġ zÇĶ
Ġ xiÅįng
jÃ¬n ĠniÃ¡nĠ
199 4ĠniÃ¡nĠ
tÃºĠ shÄģĠ
zhÄĵngĠ qÇĶĠ
fÃ¡nĠ zhÃŃĠ
8 ĠgÃ¨Ġ
Ġ dÄĵng
Ġ yÃłnĠ
zhÇİng ĠhÃ©Ġ
jiÄģo ĠdeĠ
shÄģ ĠdeĠ
nÇļĠ zhÇĶĠjuÃ©Ġ
qiÇİnĠ zÃ©Ġ
hÃ¡ngĠkÅįngĠ mÇĶ
yÃ¡nĠshÄĵn ĠzhÃ¬Ġ
dÄ«ĠqÃ¬Ġ yÄģĠ
gÄģo ĠdÃ¬Ġ
dÃłng ĠdeĠ
jÄ«nĠ shÄģnĠ
biÄģnĠ jiÃ¨
jiÇİnĠ cÃ¨
xiÃ¡ngĠ xÃ¬Ġ
ĠrÃ©nĠkÇĴu ĠdeĠ
f i
ĠĠĠ chÃ©nĠ
jÇĲng ĠyuÃ¡nĠ
ĠzhÅįngĠ qÄ«Ġ
ĠdÃłn ĠdeĠ
ĠjÅ«nĠ tuÃ¡nĠ
yÇİnĠ jiÇİngĠ
ĠzhÇĶĠ chÃŃ
huÃŃĠ guÄ«
gÇĶĠlÇİo ĠdeĠ
3 ĠniÃ¡nĠdeĠ
yÇĴu ĠhÃ©Ġ
jiÃ¹ ĠbÃ¨iĠ
cÃ©ng ĠbÃ¨iĠ
ĠyÇĴuĠ liÇİngĠ
ĠchÃ©ngĠ lÃ¬ĠdeĠ
ĠdÃłĠ fÅ«Ġ
ĠzhÄ«Ġ shÃłngĠ
guÄģnĠ kÃłnĠ
shÃ²uĠ huÄģnĠ
luÃ³Ġ lÄģĠ
guÄ«Ġ lÃ¨i
mÃ³Ġ tÃ¨
shÄĽnĠ pÃłnĠ
nÃº ĠlÃ¬Ġ
2 ĠlÃ¬Ġ
5 1
w it
Ġ wÄĵn
Ġ guÃ¬Ġ
kÄģi ĠshÃ¨
biÃłn ĠdeĠ
gÄĵn ĠbÄĽnĠ
yÃŃĠ cÃ¬ĠshÃ¬ĠjiÃ¨ĠdÃłĠzhÃłnĠ
guÄ«Ġ dÃ¬ng
dÃ©Ġ guÃ³ĠdeĠ
ĠyÄ«ngĠ chÇĲĠ
duÇİnĠ zÃłn
hÅįngĠ zhÃłĠ
Window sĠĠĠ
4 1
t Äģi
wÇĶ ĠdÃ©Ġ
bÃ¹Ġ tÃ³ngĠ
liÃ¡nĠ luÃ²Ġ
wÄĵiĠ xiÃ©
t yĠĠĠ
Ġ kÄĽĠnÃ©ng
Ġ zhuÄ«Ġ
ti ÇİoĠ
gÃ© ĠlÇĲĠ
chÄĵng ĠshÃ¬Ġ
199 1ĠniÃ¡nĠ
gÃ¨ng ĠshÃ¬Ġ
yÄ«Ġ yuÃłnĠ
ĠshÃŃĠ yÃ³uĠ
lÇĲĠ lÃ¡nĠ
yÃ³uĠ yÇĴngĠ
fÄĵnĠ lÃŃ
gÇİiĠ zÃło
chÃ¨Ġ xiÄģo
ĠlÃ¬ĠshÇĲĠ xuÃ©ĠjiÄģĠ
ÄģĠÄĽrĠ bÄĵiĠsÄ«Ġ
ĠzhÇĶĠyÃło ĠshÃ¬Ġ
ĠĠĠ xiÄģngĠgÇİng
jiÄĵ ĠdeĠ
jiÃ¨ ĠyÃ³uĠ
gÇĶ ĠjÃ¬Ġ
nÇļ ĠrÃ©nĠ
ĠyÄ«Ġ zhÇĴng
ĠgÃ¨ ĠbÃ¹Ġ
ĠduÃ¬Ġ wÇĶĠ
yÇĲĠ sÃ¨Ġ
Ġcu Ä«
24Ġ xiÇİoĠshÃŃĠ
ĠguÄģngĠ xÃ¹Ġ
Ġ quÃ¡nĠqiÃºĠ
ĠĠĠ Y
ĠĠĠ liÃºĠ
ĠzhÅįu ĠlÃ¬Ġ
ĠduÃ¬Ġ wÃłiĠ
fÄĵnĠ pÃ¨i
sÃłĠ lÄģĠ
ĠgÅįngĠ gÃłoĠ
ĠjÃ¬n ĠÃ©rĠ
xuÇİnĠ qÅ«
si c
Ġ195 2ĠniÃ¡nĠ
fÄģĠbÃ¹Ġ leĠ
ĠjiÄģng ĠxÄ«Ġ
ĠyÃ¬ĠshÃ¹ ĠjiÄģĠ
luÃ² ĠzÃłiĠ
luÃ² ĠkÃ¨Ġ
xuÃ©Ġ xÃ¬Ġ
zhÇĴngĠ lÃ¨iĠ
chÄģoĠ guÃ²
Ġ18 Ġ
ĠhÇİiĠ bÃ¡
ĠzuÃ¬Ġ hÃ²u
ĠjiÃ© ĠzhÃ¬Ġ202
ĠkÄĽ ĠshÃ¬Ġ
zhÃ²ngĠdiÇİnĠ wÃ©nĠwÃ¹ĠbÇİoĠhÃ¹ĠdÄģnĠwÃ¨iĠ
jiÄģĠlÃ¬ĠfÃºĠ nÃŃĠyÃłĠzhÅįuĠ
zhÃŃĠshÄĵngĠ jÄ«Ġ
5 2Ġ
8 4
gÇĶ ĠdeĠ
biÄģn ĠzhÃ¬Ġ
zhuÇİn ĠchÃ©ngĠ
ĠwÃ¨iĠ wÃ¨iĠ
zhÃ¬Ġ zuÃ²
zhÃłnĠ lÃ¼Ã¨Ġ
qÃŃngĠ bÃło
zhuÇİnĠ huÃłnĠ
ĠfÄĵnĠ bÃ¹ĠzÃłiĠ
lÃ¡i ĠkÃ¨Ġ
yÃł ĠsÄ«Ġ
ĠyuÃ¡nĠ ziĠ
xÄ«nĠ jiÄģngĠ
zÄ«Ġ xÃºnĠ
tÃ³uĠ shÇĴuĠ
mÃ³Ġ fÇİĠ
Ġ zÇİo
shÃ ¡
jÃº ĠbÃ¹Ġ
zhÃ¬Ġ dÃ¹Ġ
ĠshÃŃĠ lÃ¬Ġ
ĠyÃ¬Ġ dÃłĠ
ĠxÄ«Ġ fÄģngĠ
ĠshÃ¨Ġ yÇĲngĠ
Ġt Ã²u
ĠmiÃłnĠjÄ«Ġ 0
ĠlÄĽi ĠjÃ¬Ġ
dÃŃĠshÃ¬Ġ nÃŃĠ
U S
ĠzhÅįngĠ xÄ«nĠdeĠ
jÃ¬Ġ zÇİiĠ
ĠjÄ«Ġ xiÃ¨
ĠzhÄ«Ġ hÃ²uĠdeĠ
ĠshÃ¬ĠyÄ«Ġ kÄĵ
ĠbÃ¬ngĠqiÄĽ ĠzÃłiĠ
fÇĴu ĠrÃ¨nĠ
O M
e e
Ġ luÃ³ĠsÄ«Ġ
guÇİng ĠzhÅįuĠshÃ¬Ġ
huÃŃ ĠjiÄģĠ
198 0ĠniÃ¡nĠ
ĠshÃ¬Ġ xÄ«ĠbÄģnĠyÃ¡Ġ
ĠhÃ©Ġ jÃ¬Ġ
ĠbÃ¹Ġ shÃŃĠ
ĠshÃŃĠ kÃ¨Ġ
ĠxÃŃngĠ rÃ³ng
jiÃłoĠ liÃłn
yÃŃĠ dÃ¬ngĠdeĠ
jiÄģoĠ gÄĽiĠ
sÅ«Ġ dÄģnĠ
chÃ©ngĠlÃ¬Ġ hÃ²uĠ
ĠcuÃ²Ġ shÄ«Ġ
1 10
t Çİo
t ÄģiĠ
Äģ ĠsÄ«Ġ
chÃ¡ng ĠbÃ¨iĠ
gÃ²ng ĠjÃ¬Ġ
ĠshÃ¬Ġ xÄ«ngĠdÄĽngĠwÃ¨iĠ
ĠyÇĲĠ bÄĽiĠ
ĠtÄģĠ yÄĽ
zhÇĲĠ kÃ²ng
Ġc ÄģoĠzuÃ²Ġ
pÇĶĠ luÃ³Ġ
Ġm ÄģĠ
diÃłnĠyÇĲngĠ jiÃ©Ġ
tÇİnĠ dÄ«ngĠ
gÃ²ngĠhÃ©Ġ dÇİngĠ
ĠniÃ¡nĠqÄ«ng ĠdeĠ
sh i
zÃ© ĠbÃ¨iĠ
hÃ¹ ĠwÃ¨iĠ
zhuÄģn ĠlÃ¬Ġ
fÄģngĠ xiÃłngĠdeĠ
gÇĶĠ diÇİnĠ
mÄĽiĠ tiÄģnĠ
yÃ¡nĠjiÅ« ĠzhÅįngĠxÄ«nĠ
ĠnÃłĠ me
9 2
o k
jiÄģn ĠwÃ¨iĠ
duÅį ĠlÃ¬ĠyÃłĠ
kÄĽ ĠjiÃłnĠ
shÄ« ĠjÃŃĠ
ĠshÃ¬Ġ duÃ¬Ġ
ĠjÃŃĠ xiÃłnĠ
bÄĽiĠ bÃ¹ĠdeĠ
wÄĽiĠ tuÅįĠ
jiÃłĠ gÃ²uĠ
tiÃ¡oĠ kuÇİnĠ
ĠÐ °
g i
dÃł ĠyÃºĠ
jiÃ¹ ĠzÃłiĠ
lÃºn ĠsÄ«Ġ
qÄ«ngĠ chÇĶĠ
jiÇİnĠ dÄģnĠdeĠ
ĠdÃł ĠbÃ¹ĠfÃ¨n
8 ĠniÃ¡nĠdeĠ
ĠzÃłiĠ xiÄģngĠgÇİngĠ
ÃłnĠ zhÃło
fÇİĠlÃ¡nĠ xÄ«
6 1
n ĠĠĠ
Ġ wÄĵnĠ
Ġ bÃ¹ĠzÃłiĠ
kuÃłi ĠdeĠ
ĠdeĠ xiÇİoĠ
ĠyÃ³uĠ xÃ¬ĠdeĠ
fÄĵngĠ gÃ©ĠdeĠ
gÄĵĠ gÄĵĠ
huÃ¡ngĠ jÄ«nĠ
gÃ¨Ġ zhÇĴng
5 8Ġ
u sĠĠĠ
Äģ ĠbÃ¹Ġ
mÃŃng ĠhÃ©Ġ
qÇĶ ĠzÃ¬Ġ
wÇĶĠ hÃłnĠ
nÃŃĠ ÃłoĠ
shÇĲĠyÃ²ngĠ zhÄĽĠ
E C
l Çİ
Ġ bÇĲĠsÃłiĠ
zhÄ« ĠjiÄģĠ
gÃło ĠshÃ¬Ġ
ĠbÃ¬ng ĠshÃ¬Ġ
mÃŃnĠ zhÃ²ng
ÄģĠ fÃ¹Ġ
nÃ¨iĠ ruÃ¬Ġ
ĠzÃ¬Ġ mÇĶĠ
ĠcÃ©ngĠ jÄ«ngĠ
ĠshÃ¬ĠshÃŃĠ shÃłngĠ
sÄģiĠÄĽrĠwÃ©iĠ yÃłĠ
ĠĠĠ dÃło
kÃ¨ ĠsÄ«Ġ
bÄģ ĠbÃ¹Ġ
tÃŃng ĠdeĠ
tÃ¡n ĠhÃ©Ġ
ĠjÅ«n ĠyÇĴuĠ
fÃ¹Ġ shÇĲĠ
zhÇĶnĠ bÃ¨i
lÃ¡o ĠgÅįngĠ
I DĠ
ĠĠĠ X
gÅįng ĠhÃ©Ġ
dÄĽng ĠyÃºĠ
ĠxÃŃng ĠrÃ©nĠ
ĠxiÃłnĠ mÃŃngĠ
wÃ¹Ġ pÇĲnĠ
dÄģnĠ mÃłi
chÇİnĠ wÃ¹Ġ
mÃ©iĠyÇĴuĠ rÃ¨nĠhÃ©Ġ
rÃ¬ĠbÄĽn ĠdeĠ
mÄĽiĠguÃ³ĠrÃ©nĠkÇĴuĠpÇĶĠ chÃ¡Ġ
3 7ĠniÃ¡nĠ
nÃ¡n ĠshÃ¬Ġ
chu ÃŃ
suÇĴ ĠyÇĲĠ
yÄĽ ĠshÄĵngĠ
rÃ¹ ĠqiÃºĠ
wÇİng ĠyÇĴuĠ
17 9
ĠshÃ¬Ġ yÄ«ngĠguÃ³Ġ
ĠyÃºĠ shÃŃĠdeĠrÃ©nĠkÇĴuĠshÃ¹ĠliÃłngĠwÃ¨iĠrÃ©nĠ
jÄ«Ġ guÄģnĠ
zuÃ²Ġ zhÄĽĠ
qÅ«Ġ nÃ¨iĠ
zhÇĶĠ quÃ¡nĠ
fÇİĠ lÃ¡nĠkÃ¨Ġ
ĠzhÅįuĠ kÄģnĠ
ĠtÃ³ng ĠzhÃ¬Ġ
tÃłiĠ shÇĴuĠ
yÄ«ngĠ xiÃ³ng
ĠdÅįngĠ bÄĽi
qiÃºĠ chÇİngĠ
Ġ197 0ĠniÃ¡nĠ
ĠlÃºĠ wÇİĠÄĽrĠshÄĽngĠ
ĠjÇĲngĠ fÄģngĠ
N H
t yĠ
Ġ ruÃ¬Ġ
ĠrÃ¬ ĠhÃ©Ġ
ĠtÄģ ĠrÃ©nĠ
jÄ«nĠ shÇĶ
Ã¨rĠ shÃŃĠniÃ¡nĠ
shuÇĲĠ liÃłngĠ
kÄĽĠnÃ©ngĠ xÃ¬ngĠ
mÃ¡oĠ dÃ¹nĠ
z Ã©iĠ
jiÄģng ĠjÅ«n
lÃŃn ĠjÃ¬nĠ
men tĠ
qÇĶ ĠdeĠ
jiÃłoĠ zÅįngĠ
zhÃ¨nĠ rÃ³ngĠ
qÇĶĠ mÃ¹Ġ
ĠshÃ¬ĠjiÃ¨ ĠshÃłngĠ
sÃ¬ĠchuÄģnĠ shÄĽngĠ
t sĠĠĠ
wÃ¹ ĠyÇĶĠ
lÃ¹n ĠdeĠ
chuÄģn ĠxiÃłnĠ
ĠdÃłĠ qiÃ¡o
ĠzhÅįuĠ qÄ«Ġ
Ġ194 1ĠniÃ¡nĠ
7 3
Ġ qÃŃn
lÃ¹ ĠshÃ¬Ġ
200 Ġ
pÇĶ ĠjÃŃĠ
ĠshÃ¬Ġ jÃ¬ĠzhÅįngĠ
ĠshÃŃĠ dÃłĠ
ĠshÃŃĠ pÇĲnĠ
zhÇĶĠ dÃ²ngĠ
tÃºĠ ÃłnĠ
ĠwÃ¨iĠyÃºĠgÄģiĠguÃ³Ġ xÄ«ĠbÃ¹Ġ
bÄģoĠhÃ¡n ĠleĠ
Ġ zÃº
Ġ jiÄĽĠ
199 5ĠniÃ¡nĠ
zhÄĵn ĠrÃ©nĠ
ar dĠĠĠ
huÃłn ĠwÃ¨iĠ
yÇĶĠ mÃ¡o
jiÄĵĠ xiÃłĠ
zhÄĵngĠ fÃºĠ
Ġf Ã©ng
chÃ¬ ĠjÄ«ngĠ
shÃ¹nĠ xÃ¹Ġ
ĠyuÃ¡nĠzhÃ¹Ġ mÃŃnĠ
tou Ġ
4 7Ġ
p Ãº
Ġ chÃ³ngĠxÄ«nĠ
Ġ kÇİĠÄĽrĠ
cÄģn ĠyÃ¬ĠyuÃ¡nĠ
rÃ©ng ĠwÃ¨iĠ
bÇĶ ĠzhÃ¹Ġ
xÃ¬Ġ jiÃ©Ġ
hÇİiĠ nÃ¡nĠ
ĠtÃ¨Ġ biÃ©Ġ
bÇĶĠ rÇĶĠ
Ġ yÇĲn
ch o
zhÅįng ĠdeĠyÄ«Ġ
yuÃ¡n ĠbÃ¹Ġ
piÃłnĠ duÃłnĠ
liÃ¡nĠmÃ©ng ĠdeĠ
bÅį ĠdeĠ
hÃ¹ ĠdeĠ
chÃ¨ n
ĠlÃ¬Ġ tÃ¡oĠ
bÃ¨iĠ jÇĲng
ĠdÃ©Ġ wÃ©iĠ
ĠxiÃłĠ leĠ
chÄĵngĠ hÅ«Ġ
bÃ¬ngĠ rÃ¹Ġ
jiÃ¨ĠquÃ¡nĠguÃ³Ġ zhÃ¨ngĠxiÃ©Ġ
w Äĵng
Ġ shÅ«
ĠĠĠ Ã¨rĠ
ni ÃłoĠ
jiÇİ ĠjÃŃĠ
pÃŃn ĠdÃło
shÃŃĠ dÃłiĠ
ĠtÄģ ĠyÃºĠ
guÄģnĠ xÃ¬ĠdeĠ
kÄģiĠ tÅįng
liÃ¡nĠ luÃ²
ĠqiÃºĠ duÃ¬
yÃŃngĠ yÃ¹n
xuÄģnĠ yÃ¡nĠ
ĠT Ġ
bÃłoĠfÄģ ĠhÃ²uĠ
qu Ãłn
huÃł ĠshÃ¬Ġ
fÄĵi ĠdÃłnĠ
dÃº ĠdeĠ
hÄģ ĠlÇĲĠ
ĠxÃŃngĠ rÃ³ngĠ
xiÃłĠ lÃ¬ngĠ
gÃ©Ġ lÄģĠsÄ«Ġ
xiÃ©Ġ tiÃ¡oĠ
Ġ195 4ĠniÃ¡nĠ
ĠyÃºĠ200 5ĠniÃ¡nĠ
ĠyÇĴuĠxiÃłn ĠgÅįngĠsÄ«
qÃŃĠzhÅįngĠ yÄ«Ġ
wÃłngĠyuÇİnĠ jÃ¬ngĠ
ĠĠĠ 14
ĠĠĠ hÃ³ngĠ
ĠĠĠ yÃ³uĠxÃ¬Ġ
xÄ«n ĠjiÃłnĠ
shÃ¹ ĠjiÄģĠ
shu ÃŃĠ
zhÇĶĠ dÇİoĠ
shÄĵnĠ tÇĲ
diÃłnĠshÃ¬Ġ dÃ²ngĠhuÃłĠ
huÇĴĠ chÄĵĠzhÃłnĠ
nÃ³ngĠ chÇİngĠ
ĠchÃºĠ cÇĲĠzhÄ«ĠwÃłiĠ
chÄĵ ĠxÃŃngĠ
ĠshÃ¬Ġ bÃ¨iĠ
ĠwÃ¨iĠ lÃ¬Ġ
ĠzÃłiĠ qiÃ¡nĠ
ĠbÃ¨iĠ rÃ¨nĠmÃ¬ngĠwÃ¨iĠ
4ĠyuÃ¨Ġ 1ĠrÃ¬Ġ
Ġ197 5ĠniÃ¡nĠ
ĠH R
bÇĲĠsÃłi ĠdeĠ
ĠyÃºĠ202 5ĠniÃ¡nĠ
pÃ¡iĠhÃ¡ngĠ bÇİng
u mĠ
Ġ jÇĲ
piÃłn ĠzhÅįngĠ
hÃ¨ nĠ
ĠzÃłiĠ fÇİĠguÃ³Ġ
ĠdÃłĠ xiÇİoĠ
yÃ¡nĠ fÄģĠ
ĠjÄ«nĠ shÇĶĠ
xuÄģnĠ chÄĵngĠ
ĠĠĠjÇĲnĠ guÇİnĠ
s on
Ġ ë
shuÇĲ ĠdÃłoĠ
hÅ« ĠxÄ«Ġ
bÃ¬Ġ yÃłoĠ
hÄĽnĠ dÃłĠdeĠ
ĠtiÄģnĠ jÄ«nĠ
D S
w Äģ
zÃ© ĠyÃ³uĠ
huÇĴ ĠlÃ¬Ġ
ĠdÃło ĠshÃŃĠ
ĠdÃłĠ lÇĲĠ
ĠyÇĲĠ biÃłnĠ
ĠjiÃłn ĠzÃłiĠ
pÇĶĠ lÄģĠ
ĠfÃºĠ lÇİngĠ
kuÃł ĠyuÃ¨Ġ
ĠchÃ¬Ġ wÄĽiĠ
o me
± Ġ
Ġ fÄģ
Ġ tÄ«ngĠ
ĠĠĠ jiÇİnĠlÃ¬Ġ
ti Ãło
fÃ¨n ĠdeĠ
shÄģ ĠrÃ©nĠ
yÃ¬Ġ mÃŃngĠ
jÄ«Ġ chÄĵĠ
shÄĽngĠ zhÇİngĠ
mÄĽiĠ xiÇİoĠshÃŃĠ
lÇĲngĠ tÇĶ
chuÃłngĠ zÃło
Ġ16 Ġ
ĠfÄĵiĠ lÇľĠ
ĠxiÃłnĠshÃŃĠ yÃ³uĠ
4 1Ġ
mÃ² ĠniÃ¡nĠ
wÇĴ ĠdeĠ
tÅ« ĠjÄ«Ġ
wÄĵn ĠdÃłiĠ
ĠjÃŃĠ wÃ©iĠ
ĠyÇĲ ĠbÃ¹Ġ
ĠxÃŃngĠ tÃłiĠ
wÃ¹Ġ tÇĲĠ
ĠhuÃ²Ġ zhÄĽ
ĠdeĠdÃ¬Ġ sÄģnĠ
wÃºĠxiÃłnĠ diÃłnĠ
shÄĵng ĠyuÃ¡nĠ
jiÃ© ĠshÃŃĠ
shÃ¨ng ĠdÃłnĠ
198 4ĠniÃ¡nĠ
ĠjÃŃĠ bÃ¬ng
ĠyÄ«Ġ lÇİng
ĠchÅ«Ġ chÇİngĠ
ĠyÃ³uĠ tÃłiĠ
nÃŃĠ sÅ«Ġ
tiÃ¡oĠ jiÃ©Ġ
huÇĴĠ chÄĵĠ
Ġ18 0
nuÃ²Ġ fÅ«Ġ
Ġ6 0
ĠjiÃłnĠzhÃ¹Ġ wÃ¹Ġ
Ġ193 9ĠniÃ¡nĠ
ĠyÃ¹ ĠjÃ¬Ġ
a th
Ġ guÄģng
hÇİi ĠdeĠ
jÃ¹n ĠdeĠ
ĠshÃ¬Ġ Ã©ĠluÃ³ĠsÄ«Ġ
ĠzhÅįngĠ jiÃłngĠ
ĠdÃłĠ bÇİnĠ
ĠyÇĶĠ xÄ«Ġ
ĠdÃ© ĠjÅ«nĠ
kÄģiĠ zhÇİn
ĠbÃ¬ngĠ fÄĵi
jiÇİngĠ jÄ«nĠ
xÇĶĠ kÄĽĠ
Ġ194 4ĠniÃ¡nĠ
zhÇĶĠtÃŃĠ qÅ«Ġ
4 ĠniÃ¡nĠdeĠ
5 4Ġ
8 ĠmÇĲĠ
ĠĠĠ kÇİĠ
suÇĴ ĠshÃ¬Ġ
xÃ¹ ĠdeĠ
chÃ³ng ĠjiÃłn
ĠhÃ©Ġ shÃłngĠ
ĠguÃ³Ġ ÄģnĠ
duÅįĠ zhÇĴng
lÃ³ngĠ shÄĽngĠ
Ġt Ä«
xÃ¹nĠ sÃ¹
tuÅįĠ lÃŃĠ
zhÅįngĠguÃ³Ġ dÃłĠlÃ¹Ġ
ĠmÄĽi ĠzhÅįuĠ
sp anĠ
ĠĠĠ jÄ«ngĠlÃ¬Ġ
zÃło ĠxÃŃngĠ
la s
liÃ¹ ĠmÃŃngĠ
bÇİ ĠtÄģĠ
ĠjÃŃĠ gÅįngĠ
shÃ²uĠ huÄģnĠyÃŃngĠ
yÃŃĠ bÃłnĠ
ĠzhÃ¨Ġ zuÃ²Ġ
pÃ¡iĠ liÃ¨Ġ
jÇĶĠ zhÃ¨nĠ
Ġ19 30ĠniÃ¡nĠ
ĠS AO
ĠĠĠA l
ĠE Ġ
5 1Ġ
E N
jÃ¬ ĠzhÃ¬Ġ
xÃŃng ĠdeĠ
zhÃŃ ĠxÃŃng
nÃł ĠÄĽrĠ
shÃ¨ng ĠdeĠ
ĠdÃ¬Ġ yÄ«ĠwÃ¨iĠ
ĠguÃ³Ġ yÇĴuĠ
yÃŃnĠ jÄ«ngĠ
chÅįngĠ mÇİnĠ
Ġ194 0ĠniÃ¡nĠ
o sĠ
ĠĠĠ lÃŃnĠ
huÃ¬Ġ shÃłngĠ
ĠqÃŃĠ B
gÃ¨ngĠ dÃłĠdeĠ
si sĠ
Ġ17 Ġ
ĠlÃ¬ĠfÇİ ĠhuÃ¬Ġ
3 8ĠniÃ¡nĠ
4 00
7 ĠgÃ¨Ġ
lÃºn ĠdeĠ
mÃłn ĠdeĠ
jiÃłoĠ dÄ«Ġ
xiÃłoĠ lÇľĠ
biÄģnĠ zÇĶĠ
tÃ³ngĠ yÃłngĠ
K B
Ġ tÃŃĠchÅ«Ġ
zuÃ¬ ĠyÇĴuĠ
juÃ© ĠwÃ¨iĠ
ni Ãło
ĠjÃŃĠ qÃŃĠtÄģĠ
qiÃ¡nĠ lÃ¡iĠ
gÄĵnĠ suÃŃĠ
ĠzhÃ¨ ĠshÃŃĠ
ĠtiÄģnĠ jÄ«n
shÄ«ĠfÃłn ĠdÃłĠxuÃ©Ġ
biÇİoĠxiÃłn ĠchÅ«Ġ
ĠjÃŃĠxÃŃngĠzhÃ¨ngĠ dÄģnĠwÃ¨iĠ
g ÄĽn
ĠĠĠ sÄģnĠ
fÄģng ĠxÃŃngĠ
zhuÄģng ĠwÃ¨iĠ
ĠyÄ«Ġ qiÃ¨Ġ
yÃ³uĠ xÃ¬ĠdeĠ
diÃłnĠ chÃŃĠ
ĠduÃ¬Ġ xiÃłngĠ
zhÅįuĠ biÄģn
rÃ©nĠmÃŃnĠ zhÃ¨ngĠfÇĶĠ
Ġ196 0ĠniÃ¡nĠ
cÇİiĠyÃ²ngĠ leĠ
ĠyÃŃnĠ wÄĽiĠ
0 ĠzuÃ²ĠbiÄģoĠwÃ¨iĠ
Ġ huÃ¡iĠ
duÃ¬ ĠdÃ¬Ġ
xiÃłng ĠjÄ«Ġ
2019 ĠguÄģnĠ
ĠjÃŃĠ tÇĲĠ
ĠchÃ©ngĠ yÄ«Ġ
wÃ©iĠ yÄ«ĠdeĠ
jiÄģnĠ chÃ¡
ĠdÃłn ĠshÃ¬ĠzÃłiĠ
jiÄģngĠ hÃ¹
cÃ¬Ġ shÃ¹Ġ
ĠdÃłnĠ zuÃ¬ĠzhÅįngĠ
dÄģnĠ dÃºĠ
ĠwÃ¨iĠyÃºĠ yÃŃnĠjÄ«ngĠ
Ġ13 Ġ
ĠqÃŃĠB 1900
0ĠzuÃ²ĠbiÄģoĠwÃ¨iĠ chÃ¬ĠjÄ«ngĠ
A L
ĠĠĠ shÃłngĠ
ĠĠĠ 11ĠyuÃ¨Ġ
fÄĵn ĠqÃŃĠ
liÃ¡n ĠjÅ«nĠ
lÄģ ĠwÃ©iĠ
bÃ³ ĠÄĽrĠ
ï¼ İ
ĠzÃłiĠ bÃ¨iĠ
ĠÃ©r ĠhÃ²uĠ
ĠchÅ«Ġ xÃŃ
yÃ¹nĠ yÃŃng
jiÇİnĠ chÃ¡
zhÄĵnĠ zhÃ¨ngĠdeĠ
ĠjiÃłnĠzhÃ¹Ġ miÃłnĠjÄ«Ġ
kÃ²ngĠ zhÃ¬ĠdeĠ
O SĠ
V i
m Çİi
Ġ liÃ¡ng
Ġ kÄĵĠxuÃ©Ġ
ĠĠĠ fÄĵnĠbÃ¹Ġ
zi ĠshÃ¬Ġ
jiÄģo ĠzhÃłnĠ
zhÅįngĠ huÃ¡ĠmÃŃnĠguÃ³Ġ
ĠrÃ©nĠ duÃ¬Ġ
ĠdÃłoĠ dÃ¡
ĠsÄ«Ġ zhÃŃĠ
jiÇĶĠ lÃ³ng
Ġãĥ ³
ĠqÄ«ngĠchÃ¡oĠ zhÃ¨ngĠzhÃ¬ĠrÃ©nĠwÃ¹Ġ
r en
hÃło ĠhÃ©Ġ
xiÄģn ĠwÃ©iĠ
sÇĲ ĠleĠ
ĠjÃŃĠ biÃ©Ġ
hÃ²uĠ qÄ«Ġ
zÃ¬Ġ wÇĴĠ
zhÇĲĠ dÃ¬ng
zuÃ¬Ġ zhÃ²ngĠyÃłoĠdeĠ
qÄ«ngĠ xiÃłngĠ
ÅįuĠ mÃ©ngĠ
mÃ¨i Ġ
Ġ huÃ¡i
dÇİo ĠhÃ©Ġ
bÄģ ĠsÄ«Ġ
lÃ¹n ĠshÃ¬Ġ
xiÄĽ ĠwÃ¨iĠ
suÇĴĠ wÃ¨iĠdeĠ
quÃ¡nĠ tÇĲĠ
ĠshÄĵngĠ tÃłiĠ
juÃ©Ġ sÃ¨ĠdeĠ
tÃŃĠ qiÃ¡nĠ
xiÄģoĠ fÃ¡ngĠ
gÇİnĠ rÇİn
ĠÄģnĠ huÄ«Ġ
jiÄĽĠfÃłng ĠjÅ«n
ĠĠĠchÄĵĠzhÃłnĠ gÃ²uĠzÃłoĠ
luÃ²ĠfÃ¡ ĠkÃ¨Ġ
a di
zh ÇİiĠ
ĠĠĠ chÃºĠ
18 0
ni ÃłngĠ
zu ÄģnĠ
ĠzhÅįngĠ yÄ«Ġ
ĠdÃłĠ jiÄĵĠ
ĠdÃ© ĠdÃło
zhÇĶĠ dÇİĠ
jiÃłoĠ dÃłĠdeĠ
ĠshÃłngĠ leĠ
dÃ¬ngĠ yÃ¬ĠwÃ¨iĠ
jÇĲnĠ zhÄģngĠ
A l
h er
Ġ kuÃłiĠ
Ġ wÅ«ĠkÃ¨ĠlÃ¡n
ĠĠĠ pÃŃngĠ
ĠĠĠ 5Ġ
kÃłng ĠzhÃłnĠ
ĠshÃ¬Ġ tÃ¡iĠwÄģnĠ
ĠshÃŃĠ rÃ¨n
ĠrÃ©nĠ zhÃ¬Ġ
jiÄģnĠ chÃŃĠ
fÃºĠ zhuÄģngĠ
sÃłiĠ guÃłnĠjÅ«nĠ
dÄģnĠ mÃłiĠ
Ġ194 2ĠniÃ¡nĠ
Ġ196 6ĠniÃ¡nĠ
mÃ¹ĠsÄ«Ġ lÃŃn
7 2
r aĠ
yÃł ĠhÃ©Ġ
nÃ¨i ĠsÄ«Ġ
huÃ¡ ĠdeĠ
198 9ĠniÃ¡nĠ
ĠjÃŃĠ chÃ©ngĠ
wÃ©iĠ chÃŃ
ĠdÃłĠ chÃ©n
huÃłĠ miÃłnĠ
ĠyÄ«n ĠÃ©r
fÇİĠ lÃ¡nĠxÄ«Ġ
gÄĵĠ shÇĴu
pÇĲnĠ zhÇĴngĠ
cÄģnĠ guÄģnĠ
Ġk ÇİnĠ
ĠhÃºĠ bÄĽiĠ
ĠĠĠt oĠĠĠ
ĠÃłoĠdÃłĠlÃ¬Ġ yÃłĠ
2019ĠguÄģnĠ zhuÃłngĠbÃ¬ngĠdÃº
Ġ zÄ«Ġ
Ġ tÃ¡nĠ
Ġ zhÄĽngĠgÃ¨Ġ
tÃ³ng ĠwÃ¨iĠ
ĠyÃºĠ lÃ©iĠ
ĠyÇĲĠ dÅįngĠ
qiÃ¡nĠ shÄĵnĠ
diÃłnĠ liÃºĠ
jiÄģngĠ nÃ¡nĠ
ĠrÃ¨nĠ mÃ¬ngĠ
ĠxuÃ©Ġ shÃ¹Ġ
zhÃ²ngĠ liÃłngĠ
mÃ¬Ġ qiÃ¨
shÃ¹nĠshÃŃĠ zhÄĵnĠyÇĶĠ
4 ĠmÇĲĠ
Ġ zÄĵngĠ
huÃł ĠyÇĶĠ
199 0ĠniÃ¡nĠ
fÃ¹Ġ mÇĶĠ
fÄģngĠ biÃłnĠ
tiÄģnĠ wÃ©nĠxuÃ©Ġ
liÃ¡ngĠ hÇİoĠ
tiÄĵĠ mÃ¹
kÄģĠ fÄĵiĠ
ĠĠĠ xiÇİoĠ
ĠĠĠ guÃ³ĠjÃ¬Ġ
lÃ¡i ĠshÃ¬Ġ
yÃ²u ĠyÃ¬Ġ
jiÃł ĠdeĠ
ĠrÃ©nĠ quÃ¡nĠ
ĠyÄ«Ġ shÃŃĠ
ĠdÃłĠ duÃ¬Ġ
shÄĵngĠ gÃ©ĠwÃ¨iĠ
ÃłiĠ hÃłoĠ
sÃ¹Ġ sÃ²ngĠ
6 2
ĠĠĠ tÄģĠdeĠ
fÄģng ĠzÃłiĠ
yÃ²ng ĠzÃłiĠ
zhÃ¨n ĠjÃŃĠxÃŃngĠzhÃ¨ngĠdÄģnĠwÃ¨iĠ
yÃŃn ĠhÃ©Ġ
ĠxiÃłnĠ zhÇİngĠ
xiÇİngĠ yÃłoĠ
Ġl Ã²uĠ
chÃ³ngĠ fÇİnĠ
Ġ197 6ĠniÃ¡nĠ
ĠyÄ«nĠcÇĲ ĠzÃłiĠ
Ġ193 5ĠniÃ¡nĠ
ĠguÃ³ĠfÃ¡ng ĠbÃ¹Ġ
wÃ¹ ĠbÃ¹Ġ
xiÃłng ĠwÃ¨iĠ
jiÇİng ĠlÃ¬Ġ
ĠshÃ¬Ġ lÃ¡ngĠ
ĠyÃ¬Ġ xÃŃĠ
shÇĴuĠ xiÄģnĠ
rÃ³ngĠ liÃłngĠ
kÃłnĠ fÇİĠ
rÃ¨ĠdÃłiĠ qÃ¬ĠxuÃ¡nĠ
kÃłngĠrÃ¬Ġ zhÃłnĠzhÄĵngĠ
YouTub eĠ
shÃ²u ĠdÃłoĠleĠ
suÃŃ ĠjÄ«Ġ
zÃ¬Ġ shÄģĠ
ĠdÃłiĠ lÃ¡iĠ
ĠzuÃ¬Ġ zÇİo
ĠsuÃ¬ ĠshÃŃĠ
ĠrÃ©nĠkÇĴu ĠwÃ¨iĠ
s eĠĠĠ
Ġ wÄĵiĠÄĽrĠ
ĠĠĠ gÇĶĠ
mÃ² ĠdeĠ
st Ġ
qÅ«Ġ zhÃºĠjiÃłnĠ
ĠshÃłngĠ yÃ¬ngĠ
sÃ¬Ġ hÅ«
ÃłiĠÄĽrĠ lÃ¡n
ĠĠĠ Ã©rĠ
xÃ¹n ĠxÄ«Ġ
ĠzhÅįngĠ duÃłnĠ
ĠshÃŃĠ sÄģnĠ
ĠshÃŃĠ bÄģĠ
ĠzhÃ¬Ġ yuÃ¡nĠ
wÃ©iĠ chÃŃĠ
huÃłĠ guÄ«Ġ
tÇĲĠ cÄģoĠ
ĠzhÃ¨ngĠfÇĶ ĠdeĠ
hÃ¹nĠ nÃŃngĠ
3 000
w Ã¡
Ġ shÄ«
quÃ¡n ĠyÃ¬Ġ
bÄģ ĠjÄ«ĠsÄ«Ġ
ĠzÃłiĠ chÃ©ngĠ
ĠyÇĲĠ cÇĲĠ
zhÇĶĠ liÃºĠ
zhÃ¹Ġ shÇĴuĠ
liÃ¡nĠ zÇİiĠ
ĠyÃ³uĠ zhÃ¨ngĠ
shÄģngĠ hÃłiĠ
chÃ³ngĠ qÃ¬ngĠ
Ġ196 8ĠniÃ¡nĠ
shÄģnĠmÃłi ĠdeĠyÄ«ĠbÃ¹ĠfÃ¨nĠ
ĠĠĠ zuÃ²ĠwÃ©iĠ
wÃ©i ĠgÅįngĠ
fÄĵi ĠdeĠ
zhÇİn ĠlÇİn
ĠshÃ¬Ġ pÃŃnĠ
ĠhÃ©Ġ yÃ¬Ġ
ĠchÃ©ngĠ dÅ«Ġ
ĠzhÅįuĠ zhÇİngĠ
qÃŃngĠ gÇİnĠ
jiÇİngĠ pÃ¡iĠ
Ã¨Ġ huÃłĠ
qÃºnĠ dÇİoĠdeĠ
Ġ15 6
xiÄģngĠgÇİng ĠdeĠ
ĠJ Ġ
5 ĠĠĠ
5 6Ġ
l yĠĠĠ
Ġ qiÄģn
Ġ tÃłiĠguÃ³Ġ
Ġ guÇİngĠxÄ«Ġ
jÃ¬ ĠbÃ¹Ġ
liÇİng ĠzuÃ²Ġ
cÃ©ng ĠrÃ¨nĠ
biÄģn ĠxÃŃngĠ
jÄ«Ġ huÃ¬Ġ
qÅ«Ġ biÃ©Ġ
3Ġ hÃłoĠ
jÇĲĠ nÃ¨iĠ
Ġ16 4
Ġ17 9
Ġ14 Ġ
ĠĠĠ luÃ³Ġ
yÇĶ ĠdÃ¬Ġ
xÃ¬ng ĠmÃŃngĠ
fÄĵnĠ xiÃłoĠ
ĠzhÅįuĠ fÃ¹ĠzÃ©ĠguÇİnĠxiÃ¡Ġ
miÃłnĠ xiÃłngĠ
tiÃ¡oĠyuÄĵĠ tÇĲĠxÃ¬Ġ
3 6ĠniÃ¡nĠ
ĠĠĠ wÃ¡ngĠ
ĠzhÅįngĠ shÄģn
ĠjÃŃĠ huÃ¬Ġ
ĠyÄ«Ġ rÃ¡nĠ
ĠyÇĶĠ wÃ©nĠ
ĠzuÃ²Ġ zhÄĽĠ
wÃłiĠ lÃ¡ngĠ
zhÃ¨nĠ yÄģĠ
xuÇİnĠ mÃŃnĠ
Ġm aĠ
pÄ«Ġ pÃłnĠ
sÃ¬ ĠwÃ¨iĠ
xiÇİng ĠyÇĴuĠ
quÃ¨ ĠshÃŃĠ
ar d
ĠrÃ©nĠ yÇĶĠ
E S
Ġ sÃ¨Ġ
Ġ jiÇİoĠ
Äģn ĠzhÃ¬Ġ
hÃ²u ĠtÄģĠ
yÃ³uĠ jÃº
Ġc uÃ²
ĠdeĠshÃŃĠ jiÄģn
kÇİoĠ chÃ¡Ġ
tiÄģnĠwÃ©nĠ tÃ¡iĠ
Ġ wÃ©n
Ġ yÇİ
kÄĵ ĠlÃ¬Ġ
shÄĵn ĠyÃºĠ
mÃ©i ĠtÃ³ngĠpÃ¡iĠ
yÃłn ĠdeĠ
ĠzÃłiĠ 193
ĠjiÃłnĠ kÄģng
qiÃ¡nĠ fÄĵngĠ
tÅįngĠ yÃ²ngĠ
mÃ³Ġ nÇĲĠ
ĠdÃł ĠbÃ¹ĠfÃ¨nĠ
nu ÇİnĠ
nÃ¡nĠjÃŃĠ tiÃ¡oĠyuÄĵĠtÇĲĠxÃ¬Ġ
3 4ĠniÃ¡nĠ
p ÄĵngĠ
Ġ fÃłn
tÄ«ng ĠdÃłoĠ
ĠzÃłiĠ yÇĴuĠ
wÃ©iĠ yÄĽĠ
ĠjiÄģĠ lÇĲĠ
bÇİoĠ xiÇİnĠ
sÃ¹Ġ dÃ¹
Ġt ÄģnĠ
ĠzhÇĶĠ rÃ¨nĠ
Ġn ÃłiĠ
ĠpÃŃng ĠchÃ©ngĠ
ĠgÄģiĠcÅ«nĠ shÇĲĠjiÃłnĠyÃºĠ
3 3ĠniÃ¡nĠ
p Ã©n
yÃº ĠwÃ¨iĠ
zhÃ¨ng ĠyÃ¬Ġ
tÃ¨ ĠshÃ¬Ġ
luÃ² ĠyÄ«Ġ
qÃ¹ ĠdeĠ
197 2ĠniÃ¡nĠ
nÃ¡nĠ bÃ¹ĠdeĠ
ĠjÃ¹Ġ qÃŃngĠ
shÄģĠ bÃ¡iĠ
shÃ¨ngĠ mÇĶĠ
ĠyÃ³u ĠqÃŃĠ
dÄģngĠ xuÇİnĠwÃ¨iĠ
xiÃ©Ġ huÃ¬
quÃ¡nĠguÃ³Ġ zhÃ²ngĠdiÇİnĠwÃ©nĠwÃ¹ĠbÇİoĠhÃ¹ĠdÄģnĠwÃ¨iĠ
rÃ¨Ġ dÃłi
ĠxÃŃngĠchÃ©ngĠ leĠ
qÃŃĠzhÅįngĠ yÃŃĠgÃ¨Ġ
ĠÃłi ĠÄĽrĠ
xiÃłĠxiÃ¡ĠdeĠyÃŃĠgÃ¨ĠxiÄģngĠ zhÃ¨nĠjÃŃĠxÃŃngĠzhÃ¨ngĠdÄģnĠwÃ¨iĠ
4 ĠmÃŃngĠ
8 9ĠniÃ¡nĠ
Ġ sÇĲĠ
zhÃ¨n ĠdÃ¬Ġ
18 5
lÃŃ ĠshÃ¬Ġ
or k
ĠzÃłiĠ nÃ¨iĠ
dÃłiĠ mÇİĠ
ĠdÃ©Ġ luÃ³Ġ
nÃłĠ xiÄĵ
bÅįĠ tÃ¨Ġ
ĠshÇĲĠ yÃ²ng
e y
Ġ wÇİ
Ãłi ĠlÃ¬Ġ
yÄĽ ĠzhÃłnĠ
zÃ© ĠyÇĲĠ
on t
tÇİ ĠjÄ«Ġ
gÅįngĠ mÃŃnĠ
ĠchÃ©ngĠ gÅįngĠdeĠ
ĠkÃ¨ ĠyÇĶĠ
tÇĲĠ yÃłnĠ
Ġ195 9ĠniÃ¡nĠ
ĠmÇĶĠ qÄ«n
Ġ kÅįngĠ
Ġ gÄĵngĠ
Ġ sÃ¬ĠshÃŃĠ
cÃ©ng ĠyÇĴuĠ
nÃ³ng ĠlÃ¬Ġ
ĠzÃłiĠ shÃłngĠ
ĠchÃ©ngĠ fÃ¨nĠ
ĠrÃ¬ ĠyÇĲĠ
ĠjiÃłn ĠdÃłoĠ
lÃ¡iĠ kÃłnĠ
ĠwÃ©iĠ wÃºĠÄĽrĠ
liÇİngĠ ÃłnĠ
huÃŃĠ dÃ¡Ġ
kuÄģngĠ jiÃłĠ
6 2Ġ
a ngĠ
199 3ĠniÃ¡nĠ
hÅ«n ĠyÄ«n
ĠshÃŃĠ Ã¨rĠniÃ¡nĠ
chÃ©ngĠ rÃ¨nĠ
ĠyuÃ¨Ġ yÇĶĠ
ĠjÄ«Ġ fÄĵnĠ
yuÄĵĠ 1
xÃŃĠ guÃłnĠ
mÃ²Ġ qÄ«Ġ
Ġ195 3ĠniÃ¡nĠ
ĠliÃ¡nĠ jiÄĵĠ
ĠsÄ«ĠlÃ¬ng ĠyuÃ¡nĠ
U ni
cÃŃ ĠjÄ«Ġ
fÃ¡ng ĠxiÃłnĠ
ĠbÃ¬ngĠ bÃºĠshÃ¬Ġ
duÅįĠ shÃ¹
xÃŃĠ jÄ«
yÄ«nĠ cÇĲĠ
ĠA n
ĠzÇĴngĠ tÇĴngĠ
xiÇİoĠxÃŃngĠ xÄ«ngĠdeĠ
mÃŃnĠzÃºĠ zhÇĶĠyÃ¬Ġ
fÄģĠbiÇİo ĠdeĠ
nÃ¡nĠjÃŃĠtiÃ¡oĠyuÄĵĠtÇĲĠxÃ¬Ġ guÇİnĠlÇĲĠ
h Äĵng
o mi
ĠĠĠ suÄ«ĠrÃ¡n
ĠĠĠ zhÃŃĠyÃ¨ĠshÄĵngĠyÃ¡Ġ
le ĠzhÅįngĠguÃ³Ġ
wÃ¹ ĠzhÅįngĠ
hÇİi ĠshÃ¬Ġ
shuÇĲ ĠshÃłngĠ
sÃł ĠkÃ¨ĠsÄ«Ġ
shÃŃĠ yÄ«Ġ
ĠxÃŃngĠ hÃłoĠ
fÇİĠ xuÃ©Ġ
xÃ¬ngĠ biÃ©
yÇİnĠ huÃłĠ
ĠxiÄģngĠ dÄģngĠ
Ġt ou
yÃŃĠgÃ¨ ĠyuÃ¨Ġ
diÃłnĠshÃ¬Ġ jiÃ©ĠmÃ¹Ġ
lÃ©iĠ dÃ¡Ġ
Ġ15 9
duÇİnĠ zÃłnĠ
7 ĠmÇĲĠ
s k
shÄĽng ĠfÃ¹ĠzÃ©ĠguÇİnĠxiÃ¡Ġ
ĠshÃŃĠ tÇĲĠ
ĠyuÃ¡nĠ yÄ«nĠshÃ¬Ġ
zhÃ¨ngĠ cÃ¨
shÇĴuĠ lÇĲngĠ
ĠfÃ¹Ġ zhÇĶĠxÃŃĠ
Ġp Ã¹
jiÃ¹Ġ zhÇĲĠ
tÃ³ngĠ mÃ©ng
gÃ¹Ġ dÃ¬ng
huÇĴĠ zÄģiĠ
shÃłoĠ nÇļ
miÃ¨Ġ juÃ©Ġ
ĠjÃŃĠbÄĽiĠ mÄĽiĠ
gÄĽn ĠdÃ¬Ġ
4 9Ġ
6 ĠniÃ¡nĠdeĠ
f ÄĽngĠ
ĠĠĠ en
rÃ¬ ĠjÅ«nĠ
duÃ¬ ĠzhÅįngĠ
jiÃ© ĠchÅ«Ġ
fÄĵi ĠÄĽrĠdÃ©Ġ
jiÇİn ĠyÃ¬Ġ
ĠzhÄ« ĠlÇĲĠ
qÄ«Ġ jiÄģnĠdeĠ
ĠhuÃ²Ġ chÄĵngĠ
wÇİngĠ wÇİng
zhÃ¨ngĠzhÃ¬Ġ jiÄģĠ
ĠF Ġ
wÃ©iĠyÄ«Ġ yÄ«Ġ
ĠbÃ¬Ġ xÅ«Ġ
Ġ lÃ¨iĠ
ĠĠĠ wÃłiĠbÃ¹Ġ
du Ä«
bÄ«ng ĠdeĠ
ĠshÃ¬Ġ chÅ«Ġ
ĠyÄ«Ġ shÄ«Ġ
ĠdÃłĠ qÃ¬Ġ
ĠyÇĶĠ qÃŃ
xiÃłngĠ bÄĽiĠ
hÇİiĠ bÃ¡ĠgÄģoĠdÃ¹Ġ
ĠdÃłnĠ yÄĽĠ
ĠcÇĲĠ cÃ¬Ġ
Ġzh ÄģĠ
Ġ197 2ĠniÃ¡nĠ
h ÄĵĠ
s Äĵng
zÄĵng ĠshÃ¨Ġ
ĠgÅįngĠ ÄģnĠ
ĠgÅįngĠ dÇİĠ
liÃºĠ dÃ²ngĠ
sÃłiĠ tÇĲngĠ
xuÇİnĠ xiÃ¹
tÃŃngĠ zhÇĲ
yÃ¡nĠjiÅ« ĠdeĠ
ĠdeĠgÅįngĠ nÃ©ngĠ
Ġ194 3ĠniÃ¡nĠ
ĠyÇĲnĠ fÄģĠ
3 1ĠniÃ¡nĠ
7 2Ġ
m ÄģoĠ
Ġ 21
ĠĠĠ wÃºĠ
yÇĶ ĠyÃ¬Ġ
shÄĵng ĠhÃ©Ġ
cÃ¬ ĠshÃ¬Ġ
gÇİi ĠjÃ¬nĠ
ĠdÃ¬Ġ chÇİnĠ
ĠxiÃłnĠ xÃ¬ngĠ
jiÄģnĠ chÃ¡Ġ
bÄĽnĠ kÄĵĠ
diÃłnĠ chÄĵ
tÃ¡ngĠ qÅ«Ġ
ĠtÃ³ngĠ xÃ¬ngĠ
ĠĠĠ199 9ĠniÃ¡nĠ
ĠĠĠzhÅįngĠ huÃ¡ĠrÃ©nĠmÃŃnĠgÃ²ngĠhÃ©ĠguÃ³Ġ
cÄģnĠsÃłiĠ zÄ«ĠgÃ©Ġ
yÃłĠmÄĽiĠ nÃŃĠyÃłĠ
ĠĠĠ jiÃ©Ġ
bÄĽi ĠjÃŃĠ
liÃº ĠqiÃºĠ
200 0
rÃ©nĠ kÇĴuĠwÃ¨iĠ
ĠbÃ¹Ġ lÇĶĠ
jÃ¬Ġ huÃł
ĠchÃ©ngĠ jiÃ¹Ġ
ĠyuÃ¡nĠ lÇĲĠ
jÃ¹Ġ yuÃłnĠ
guÄģnĠ liÃ¡nĠ
lÃ¹Ġ yÇĲngĠdÃłiĠ
ĠzhÃ¨Ġ yÃłng
dÇİoĠ shÄ«Ġ
pÇĶĠ lÇĶĠshÃ¬Ġ
ĠxiÄģngĠ bÇĲĠ
ĠrÃ©nĠmÃŃnĠ zhÃ¨ngĠfÇĶ
ĠgÃ¨ĠyuÃ¨Ġ hÃ²uĠ
3 9ĠniÃ¡nĠ
ku Ä«Ġ
xÃ¬n ĠrÃ¨nĠ
ĠguÃ³Ġ dÃłoĠ
qÅ«Ġ dÃ²ngĠ
guÄģnĠ guÄģngĠ
cÃŃĠ diÇİnĠ
1 ĠjiÄģĠ
c Å«Ġ
y st
Ġ yÃło
Ġ chÄģoĠ
fÄĵn ĠjÃŃĠ
yÃ¨ ĠhÃ©Ġ
ĠyÇĴuĠ mÃŃngĠ
ĠchÅ« ĠyÃºĠ
nÃ¨iĠ gÃ©
ĠwÃ¨iĠyÃºĠ zhÅįngĠhuÃ¡ĠrÃ©nĠmÃŃnĠgÃ²ngĠhÃ©ĠguÃ³Ġ
ĠdeĠjÃ¬Ġ shÃ¹Ġ
wÄĽnĠ dÃ¬ngĠdeĠ
tÃłiĠyÃ¡ng ĠgÅįngĠ
xiÅ«ĠdÃłoĠ yuÃłnĠ
A r
r ou
ĠĠĠ 9
ch Äģi
xiÄģn ĠdeĠ
ĠwÃ¨iĠ jÃŃĠ
ĠtÄģ ĠyÇĴuĠ
ĠgÃ¨Ġ lÃ¨iĠ
yÃ¹Ġ cÃ¨Ġ
jiÃłoĠ tÃºĠ
fÄĵnĠ bÃ¹ĠzÃłiĠ
jiÄĵĠ tÃ¬Ġ
lÄģĠ dÄ«ngĠ
bÇİnĠ quÃ¡nĠ
jÅ«Ġ liÃºĠ
dÅ«Ġ chÃ¡Ġ
pÃłiĠ qiÇİn
Ġ jiÄĵĠwÃ¨iĠ
Çİn ĠdeĠ
jiÃłn ĠshÃ¨
bÄĽi ĠdeĠ
bÄģ ĠlÇĲĠ
bÇİo ĠhÃ©Ġ
shuÇĲ ĠzhÅįngĠ
ĠlÃ¬Ġ ÃłoĠ
ĠduÃ¬Ġ fÄģngĠ
ĠxiÄģngĠ sÃ¬Ġ
shÄģngĠ wÃ¹Ġ
shÃ©nĠ shÃ¨ngĠ
yÃ¬nĠ nÃŃ
ĠjiÃ©Ġ shÃ¹Ġ
Ġ197 7ĠniÃ¡nĠ
ent erĠ
Ġ li
Ġ bÄ«nĠ
cÄģn ĠmÃ³u
chuÃ¡n ĠdeĠ
er v
tuÄ« ĠlÇĲĠ
yÃ¬Ġ huÃ¬Ġ
ĠtÄģ ĠbÃ¹Ġ
xÄ«Ġ wÃłng
yÃ¡nĠ ÃłnĠ
yÃ¨Ġ jiÄģnĠ
suÇĴĠ shÇĶĠ
tuÄ«ĠchÅ«Ġ leĠ
Ġ zhÃłnĠhÃ²uĠ
pÃŃng ĠrÃ©nĠ
sÃ¬ ĠrÃ©nĠ
luÃ² ĠshÃŃĠ
bÃ¡i ĠrÃ©nĠ
ĠchÅ« ĠniÃ¡nĠ
ĠxÄ«Ġ tÃ¨Ġ
fÄģĠ juÃ©Ġ
ĠzhÃ¨ngĠ chÃ¡ngĠ
yÃ²uĠ chÄĵngĠ
ĠyÃ³u ĠqÃŃ
ĠxÃŃngĠzhÃ¨ngĠ yuÃłnĠ
liÃ¡nĠsÃłi ĠdeĠ
fÄģĠbiÇİo ĠleĠ
p Å«
z ÄĽnĠ
ĠĠĠ mÃŃnĠguÃ³Ġ
hu Äģng
xÄ« ĠxiÃłnĠ
hÅ«n ĠlÇĲĠ
ĠshÃ¬Ġ zhÃ¬Ġ
ĠdÃłĠ liÃ¡nĠmÃ©ngĠ
ĠhÃ²uĠ zhÄĽ
fÃ¹Ġ xÄ«ngĠ
ĠchÅ«Ġ lÃ¡iĠdeĠ
tÃ¨Ġ shÅ«
sÅ«Ġ gÃ©ĠlÃ¡n
I V
Ġ wÄĽi
Ġ qiÃ¡oĠzhÃ¬Ġ
ĠĠĠ wÇĶĠ
dÃłi ĠdÃłoĠ
piÃłn ĠrÃ©nĠ
huÃ¡n ĠqiÃºĠ
ĠxÃŃngĠ shÃ¬ĠdeĠ
rÃ¹Ġ jÃ¬ngĠ
fÄĵngĠ fÃ¹ĠdeĠ
yÇİnĠ zÃ²u
zhuÄģnĠ yÃ²ngĠ
ĠyÄĽ ĠbÃ¹Ġ
ĠhuÃ¡Ġ shÃ¨ngĠ
3 2ĠniÃ¡nĠ
Y Ġ
huÃ¬ ĠwÃ¨iĠ
tÃŃng ĠzhÃłnĠ
ĠzÃłiĠ nÃłĠ
ĠchÃ©ngĠ zuÃ²Ġ
jÄ«Ġ bÃłiĠ
fÃ¹Ġ zÃ¡Ġ
jÇĲngĠ diÇİnĠ
tÃ³ngĠ mÃ©ngĠ
zhÄĵnĠ chÃ¡Ġ
lÃ¬ĠshÇĲĠ shÃłngĠ
xiÇİoĠshÃŃĠ hÃ²uĠ
Ġ196 4ĠniÃ¡nĠ
ĠxiÃłnĠshÃŃĠyÃ³uĠ nÃ¡nĠjÃŃĠtiÃ¡oĠyuÄĵĠtÇĲĠxÃ¬ĠguÇİnĠlÇĲĠ
t Å«n
ĠĠĠ chÄĵĠzhÃłn
dÇĲng ĠjÃŃĠ
ĠhÃ©Ġ yuÃ¡nĠ
ĠyÇĶĠ zhÄ«Ġ
miÃłnĠ 2
ĠdÃłiĠ mÇİĠwÃ¨iĠ
tÃ³uĠ xiÃ¡ng
ĠzhÇĶĠ tÃŃĠ
ĠyÃºĠ200 4ĠniÃ¡nĠ
Ġ193 6ĠniÃ¡nĠ
hÃ¹nĠ luÃłnĠ
0ĠniÃ¡nĠdÃłi ĠchÅ«Ġ
w Åį
zÃ© ĠxÄ«Ġ
hÃło ĠshÃ¬Ġ
ĠdeĠ gÇĶĠ
ĠdÃ¬Ġ jiÇĶĠ
ĠzhÃ¬Ġ dÃ¹
xuÃ©Ġ kÄĵĠ
yÃŃĠ miÃłnĠ
fÄĵngĠ suÇĴĠ
tÇĴngĠzhÃ¬Ġ zhÄĽĠ
ĠĠĠ194 5ĠniÃ¡nĠ
Ġnu Ã³Ġ
Ġ kÄģiĠshÇĲ
ĠĠĠ zhÄģngĠ
ĠĠĠ huÃ²Ġ
ĠĠĠ yÄ«nĠyuÃ¨Ġ
qÄ« ĠyuÃ¨Ġ
tÃ¨ ĠrÃ©nĠ
jiÇİng ĠxuÃ©Ġ
shÃŃĠ qÄ«
gÅįngĠ jÄ«Ġ
ĠdÃ¬Ġ shÃłngĠ
ĠdÃ¬Ġ 3Ġ
ĠyÄ«Ġ ÄĽrĠ
ĠjÄ«Ġ bÄĽn
jiÄĵĠ guÇİnĠ
ĠzhÃ¨ngĠ cÃ¨
tÃŃĠ gÄģo
yÇĲĠ jÄ«ng
10ĠyuÃ¨Ġ 1ĠrÃ¬Ġ
guÃ¬Ġ zÃº
Ġ195 1ĠniÃ¡nĠ
ation al
guÄģnĠfÃ¨iĠyÃ¡nĠ quÃ¨ĠzhÄĽnĠbÃ¬ngĠlÃ¬Ġ
U N
Ġ bÄģngĠzhÃ¹Ġ
jiÄģo ĠyÃ³uĠ
gÃ¨ng ĠgÄģoĠ
mÃłn ĠdÃ¬ĠguÃ³Ġ
zhÄĽng ĠlÇĲĠ
chÇĲ ĠcÃ¹nĠ
shÄ«Ġ tÇĲĠ
jÇĲngĠ qÅ«Ġ
lÃŃĠ bÄģĠnÃ¨n
zÃłoĠ chuÃ¡nĠ
ĠzÃłiĠdÃ¬Ġ yÄ«Ġ
Ġ10 0Ġ
ruÇİnĠ tiÃ¡oĠ
oo k
ĠĠĠzhÃ¨Ġ kÄĵĠ
a z
Ġ mÃ¡o
Ġ chÄģoĠguÃ²Ġ
ĠĠĠ 13
rÃ¬ ĠzhÃ¬Ġ
huÃŃ ĠdÃło
bÄĵi ĠdeĠ
zhuÄ« ĠqiÃºĠ
rÃ©nĠ yuÃ¡nĠ
ĠyÇĴuĠ guÄģnĠdeĠ
ĠgÅįngĠ chÇİng
zÃ¬Ġ shÄĵnĠ
lÃ¹Ġ duÃłnĠ
huÃłĠ rÃ¹Ġ
bÃ³Ġ lÄģĠ
biÃłnĠ huÃłnĠ
Ġ8 0
ĠzÃłiĠ200 8ĠniÃ¡nĠ
âĪ Ĵ
dÃłi ĠwÃ¨iĠ
yuÇİn ĠdeĠ
ĠshÃ¬Ġ chÃ©ngĠ
ĠzÃłiĠ tÄģ
nÃ¡nĠ mÄĽiĠzhÅįuĠ
tÃ¨Ġ dÃ¬ng
dÃ¹Ġ guÃ²Ġ
qÇĲĠ yuÃ¡nĠyÃºĠ
zÇĴngĠ shÅ«ĠjÃ¬Ġ
lÃ¹nĠ tÃ¡nĠ
shÃ¨Ġ yÇĲngĠ
chuÄģnĠ guÃ²Ġ
5 3Ġ
shÄĽng ĠhuÃ¬Ġ
tÅįng ĠxÃŃngĠ
lÃ¨ ĠyuÃ¡nĠ
kÃ¹ ĠÄĽrĠ
ĠshÃ¬Ġ xiÃłĠxiÃ¡ĠdeĠyÃŃĠgÃ¨ĠxiÄģngĠzhÃ¨nĠjÃŃĠxÃŃngĠzhÃ¨ngĠdÄģnĠwÃ¨iĠ
ĠdÃ¬Ġ yÃ¹Ġ
ĠrÃ©nĠ lÃ¬Ġ
jÃ¬Ġ shÃ¹
ĠyÇĲĠ biÃłn
dÅįngĠ qÅ«Ġ
zuÃ¬Ġ dÄ«Ġ
bÃ³Ġ gÃ©Ġ
ol spanĠ
ĠÐ ¾
ĠdÃłĠshÃł Ġ
L i
P S
Ġ liÃłnĠ
ĠĠĠ d
ĠĠĠ for
ĠĠĠ shÄģĠ
ĠĠĠ fÄĵnĠlÃ¨iĠ
jÃŃ ĠzhÅįngĠxuÃ©Ġ
duÅį ĠsÄ«Ġ
jÄ«n ĠsÄ«Ġ
jiÃłng ĠjÃŃĠ
ĠjÃ¬Ġ huÃłĠdeĠ
ĠjÅ«n ĠrÃ©nĠ
shÃ¹Ġ jÃ¹
ĠpÃŃngĠ jiÃ¨Ġ
ĠxiÃłĠ lÃ¡iĠ
fÃ¡ngĠ wÅ«
ĠdeĠshÃ¬Ġ jiÃ¨
xiÅ«Ġ dÃ¬ngĠ
ĠU Ġ
ĠsÃºĠ chÄĵngĠ
Ġ tiÃ¡n
Ġ zÇĶĠzhÄ«Ġ
Ġ fÄģnĠ
ĠĠĠ Ð
yÇĶ ĠwÃ¨iĠ
jiÃłn ĠdeĠ
xiÃłng ĠyÃºĠ
luÃ² ĠyÃºĠ
fÇİn ĠjÄ«Ġ
xiÄĵ ĠÄĽrĠ
rÃ³ng ĠdeĠ
qiÅ« ĠjÃ¬Ġ
ĠzÃłiĠ lÃ¬Ġ
ĠgÃ¨ ĠguÃ³ĠjiÄģĠ
pÃŃngĠ hÃ©ngĠ
ĠÃ©rĠ tÃ³ng
ĠqÃŃĠ xiÃłĠdeĠ
ĠdÃłnĠ mÃ©iĠyÇĴuĠ
shÅ«Ġ niÇĶĠ
chuÃ¡nĠ shuÅį
Ġk ÇĶĠ
pÃ©iĠ xÃ¹nĠ
E T
Ġ dÄ«Ġ
qi Ãł
kÄĵ ĠjÃ¬nĠshÃ¬Ġ
10 00Ġ
ĠdeĠ zhÄ«ĠchÃŃĠ
ĠgÅįngĠ jiÄģoĠ
jÃ¹Ġ fÄĵng
ĠbÃ¨iĠ bÇĶĠ
Ġ197 3ĠniÃ¡nĠ
oc i
ĠxiÄģngĠdÄģng ĠyÃºĠ
Ġ nÃŃ
shÇĲ ĠyÃºĠ
shÃ¹ ĠniÃ¡nĠ
mÃŃn ĠyÃ¬Ġ
cÇĲ ĠdÃ¬Ġ
qiÄģn ĠmÃŃngĠ
198 6ĠniÃ¡nĠ
gÅįngĠ yÃ¨Ġ
ĠxÄ«Ġ yÇĲn
yÃ¹Ġ suÃłnĠ
huÃ¡Ġ xuÄĽĠ
mÃ¬Ġ sÅ«ĠlÇĲĠ
ĠyÄ«nĠwÃ¨iĠ tÄģĠ
zhÇĶnĠ quÃ¨Ġ
fÃ³Ġ jiÃło
ĠzÃłiĠ201 2ĠniÃ¡nĠ
ĠhÄĵiĠ lÃ³ngĠjiÄģngĠ
yÃ© ĠÄĽrĠ
zhÇĲĠhuÄ« ĠbÃ¹Ġ
ĠhÃ©ĠdÃłoĠ quÃ¡nĠzhÇİngĠ
ĠĠĠ aĠĠĠ
ĠĠĠ zhÄĵngĠyÃ¬Ġ
li c
chu ÇİngĠ
xuÄģn ĠshÃ¬Ġ
liÃ¹ ĠshÃ¬Ġ
ĠgÅįngĠ shÃ¨Ġ
fÄĵngĠ bÃło
luÃ²Ġ tÃ¨Ġ
tiÃ¡oĠ mÃ¹Ġ
ĠI ST
dÅįngĠbÃ¹Ġ shÃŃĠqÅ«Ġ
ĠĠĠjiÃ© ĠzhÃ¬Ġ
guÃ³ĠwÃ¹Ġ yuÃłnĠ
k mĠ
Ġ jiÄĵ
yÇĶ ĠzhÅįngĠguÃ³Ġ
jiÄģng ĠyÃºĠ
zuÃ¬ ĠchÅ«ĠdeĠ
cÄģn ĠyÃ¬ĠyuÃłnĠ
hÃłn ĠguÃ³Ġ
tuÅį ĠÄĽrĠ
ĠdÃło ĠjÃŃĠ
xÄ«Ġ zÃłngĠ
qÅ«Ġ fÃ¹ĠzÃ©ĠguÇİnĠxiÃ¡Ġ
yÃ¹Ġ wÃ©iĠ
xiÃłngĠ dÅįngĠ
dÃ²ngĠ wÃ¹ĠdeĠ
bÄĽiĠ hÇİiĠdÃłoĠ
duÅįĠ xiÃłngĠ
o la
r yĠĠĠ
Ġ yÄģnĠ
rÃ¨n ĠzhÄ«Ġ
kÃ¨ ĠlÇĲĠsÄ«Ġ
zÇĴng ĠsÄ«ĠlÃ¬ngĠ
cÄģn ĠyÃ¬Ġ
guÇİng ĠyÃ¬Ġ
tÅ« ĠrÃ¡n
ĠhÃ©Ġ jÄ«Ġ
dÃ¬Ġ guÃ³Ġ
dÃłĠ xÃŃngĠ
ĠchÃ©ngĠ zhÇİngĠ
nÇļĠ wÃ¡ngĠ
dÅįuĠ mÃ©iĠyÇĴuĠ
zhuÃłngĠ tÃłi
gÄģngĠ qÃŃnĠ
Ġ197 4ĠniÃ¡nĠ
ĠH Ġ
lÄģĠsÄ«Ġ jiÄģĠ
shÄĵngĠchÇİn ĠdeĠ
lÃŃn ĠzhÅįngĠ
jiÇĶ ĠshÃŃĠ
zhuÄģng ĠdeĠ
shÄĵngĠ chÄĵngĠ
ĠqÃŃ ĠzhÃ¬Ġ
qiÃ¡nĠ tÇĲng
diÃłnĠ tÃ¡i
Ġc Ã¡n
bÄģoĠkuÃ² ĠyÇĲĠxiÃłĠ
lÇľĠ huÃłĠ
mÃ¬Ġ qiÃ¨Ġ
hÄĽnĠ shÇİoĠ
ĠxiÃłngĠ mÃ¹Ġ
ĠE STĠ
ĠdeĠjÄ«Ġ chÇĶ
gÅįngĠyuÃ¡nĠ qiÃ¡nĠ
niÃº ĠsÄ«Ġ
zhuÄ«ĠsÃ¹ ĠdÃłoĠ
t Äģng
Ġ dÃ²uĠ
fÃº ĠjÃŃĠ
chÅ«n ĠjÃ¬Ġ
dÅįngĠ cÃ¨Ġ
xiÇİoĠ jiÄĽĠ
tÃ³uĠ rÃ¹
zhÄģngĠ dÄģnĠqÅ«Ġ
liÇİngĠ cÃ¨Ġ
ĠshÃ¬ĠyÄ«Ġ zuÃ²
ÄģiĠnÃłĠ shÄĽngĠ
Ġ rÃ³ng
xÄ« ĠyÃºĠ
yÃŃ ĠdeĠ
tÃ¨ ĠgÅįngĠ
an n
guÄģng ĠdeĠ
ĠxiÃłĠ wÇĶĠ
tÃºĠ jÃ¬ngĠ
ĠM ar
xÃ¬ĠtÇĴng ĠzhÅįngĠ
8 8Ġ
I R
Ġ shÄĽngĠ
Ġ biÄģoĠ
ĠĠĠ quÃ¡nĠ
Ãło ĠkÃ¨Ġ
duÃ¬ ĠlÃ¬Ġ
zhÇĲ ĠchÅ«
ĠzÃłiĠ dÄģngĠshÃŃĠ
ĠyÇĴuĠ xÇĶĠduÅįĠ
zhÃłnĠ lÃ¼Ã¨
guÄģnĠ zhÃ¨ngĠ
zÇĴngĠ lÇĲngĠshÃ¬Ġ
tÃŃĠ cÃ¡iĠ
dÅįuĠ kÄĽĠyÇĲĠ
zhÅįngĠguÃ³Ġ dÃłĠlÃ¹ĠdeĠ
tÃ¡nĠ pÃłn
Ġb ÇİngĠ
shÅįuĠshÃ¬Ġ lÇľĠ
o de
Ġ yÃº
Ġ zÅįngĠ
Ġ guÇİnĠlÇĲĠ
dÄģng ĠrÃ¬Ġ
Ä«ng Ġp
ĠhÃ©Ġ zhÃ¬Ġ
ĠbÃ¹Ġ duÃłn
jÃ¹Ġ tÇĲĠ
bÄĽnĠ zhÃłnĠ
kÄĽĠ yÃ²ngĠ
yÄ«ngĠ bÃłngĠ
shÃ¨ngĠ jÄ«ngĠ
qiÄģnĠ yÇĲnĠ
ĠshÃ¬ĠyÄ«ĠkÄĵ ĠwÃ©iĠrÃłoĠ
Ġ hÄĵi
Ġ fÄĵnĠwÃ©iĠ
lÇĲ ĠshÃŃĠ
lÇĲ ĠrÃ©nĠ
shÃ¨ ĠjÃŃĠ
lÃ¹ ĠhÃ©Ġ
di Å«Ġ
shÄĽng ĠlÃ¬Ġ
yÃŃng ĠlÃ¬Ġ
zhÃŃĠ jÃ¬ngĠ
Ġ15 0
Ġ9 0
ĠyÃ²u ĠyÃ¬Ġ
tiÄģnĠwÃ©nĠ xuÃ©ĠjiÄģĠ
juÃ©ĠduÃ¬Ġ xÄ«ngĠdÄĽngĠwÃ¨iĠ
jiÃ¨ĠquÃ¡nĠguÃ³ĠzhÃ¨ngĠxiÃ©Ġ wÄĽiĠyuÃ¡nĠ
chuÃ¡n ĠyuÃ¡nĠ
zhÇİn ĠchÅ«Ġ
biÄģo ĠshÃ¬Ġ
yÅįu ĠhuÃ¬Ġ
ĠxÃŃngĠ xÄ«ngĠ
shÇĴuĠ rÃ¨nĠ
jiÃ©Ġ lÃ¹nĠ
ĠbÃ¬ngĠ huÃ²ĠdÃ©Ġ
ĠleĠ yÃŃĠgÃ¨Ġ
zhÇĴngĠ zÃº
Ġt Ã¬
8 2
8 0ĠniÃ¡nĠ
dÃ© ĠyÃ¬ĠzhÃ¬Ġ
liÇİng ĠdÃłĠ
shÃ© ng
ĠzhÅįngĠ yuÃ¡nĠ
yÇĴuĠ yÃ¬Ġ
pÃŃngĠ gÅ«Ġ
ĠbÃ¨iĠ rÃ¨nĠwÃ©iĠ
guÄģnĠ zhÃ²ng
ĠS t
kÄĽĠnÃ©ng ĠdeĠ
wÄģnĠ qÅ«Ġ
ĠE DTĠ
Ġ5Ġ diÃłoĠkuÃłiĠyÄ«ĠxiÇİoĠshÃŃĠ
ĠjÃŃĠbÄĽiĠmÄĽiĠ dÅįngĠbÃ¹ĠshÃŃĠqÅ«Ġ
tÃłiĠyÃ¡ngĠgÅįngĠ zhuÃłnĠdeĠxiÇİoĠxÃŃngĠxÄ«ngĠ
ĠshÃ¬ĠyÄ«ĠkÄĵĠwÃ©iĠrÃłoĠ tÃłiĠyÃ¡ngĠgÅįngĠzhuÃłnĠdeĠxiÇİoĠxÃŃngĠxÄ«ngĠ
c ÅįngĠ
p Ã¬Ġ
r Çİo
Ġ chÃ¡oĠxiÄģn
Äĵn ĠsÄ«Ġ
hÃ¡n ĠyÃ¬Ġ
ĠzÃłiĠ rÃ©nĠ
jÄ«ngĠ dÅ«Ġ
xiÃłngĠ nÃ¡nĠ
xiÃłngĠ liÃłngĠ
yÃŃĠ dÃ²ng
ĠbÄĽnĠ tÇĶĠ
xiÇİoĠxÃŃngĠxÄ«ngĠdeĠ juÃ©ĠduÃ¬ĠxÄ«ngĠdÄĽngĠwÃ¨iĠ
ĠĠĠ wÃ©nĠhuÃłĠ
zhÇĴng ĠdeĠ
liÃłng ĠjÃŃĠ
lÇĲng ĠduÃ¬Ġ
zhuÄģn ĠyuÃ¡nĠ
ĠshÃ¬Ġ yÇĲ
ĠhÃ©Ġ yÇĶĠ
ĠchÃ©ngĠ nuÃ²Ġ
ĠyÄ«Ġ rÃ¡n
ĠzhÄ« ĠchÅ«Ġ
qÄ«Ġ kÄģnĠ
fÃºĠ wÃ¹ĠdeĠ
shÄģnĠ hÃºĠ
bÇİoĠ ÄģnĠ
sÄģnĠ jiÇİoĠ
Ġs ÇİoĠ
ĠmÄĽi ĠyuÃ¡nĠ
ac eb
Ġ197 1ĠniÃ¡nĠ
3 ĠĠĠ
r in
Ġ shÅįuĠ
ĠĠĠ dÃłoĠ
tÃ¨ ĠzÃłiĠ
yÃ¹n ĠzÃłiĠ
198 7ĠniÃ¡nĠ
hÃ©Ġ liÃºĠ
ĠzhÅįngĠ lÃ¬Ġ
ĠlÃ¬Ġ xuÃ©Ġ
xiÄģngĠ xÃ¬nĠ
zhÃ¨nĠ wÃ¡ngĠ
shÄĵnĠ rÃ¹Ġ
ĠzÃ¬Ġ rÃ¡n
zÃºĠ liÃ¡nĠ
ĠzhÃŃ ĠlÃ¬Ġ
ĠĠĠzhÃ¨ĠkÄĵĠ xiÇİoĠxÃŃngĠxÄ«ngĠdeĠjuÃ©ĠduÃ¬ĠxÄ«ngĠdÄĽngĠwÃ¨iĠ
Ġ zÃłi
Ġ yÇİngĠ
ĠĠĠ guÃ³Ġ
guÃ² ĠhÃ²uĠ
wÃłn ĠpÃŃngĠfÄģngĠmÇĲĠ
ĠshÃ¬Ġ xiÃłĠ
xÄ«Ġ lÃł
liÃºĠ chuÃ¡nĠ
ĠdeĠyÄ«Ġ xiÃłngĠ
zhuÄģnĠ jÃŃĠdeĠ
ĠtÃ³ngĠniÃ¡nĠ 12ĠyuÃ¨Ġ
ĠĠĠ199 8ĠniÃ¡nĠ
bÇĲĠlÃ¬Ġ niÃºĠsÄ«Ġ
miÃło ĠyÇĶĠ
nÃ¨Ġ shÄĽngĠ
Ġ zÃºĠ
Ġ chÃŃĠ
shÃ¹ ĠgÃ¨Ġ
ĠshÃ¬Ġ xÄ«nĠ
ĠyÄ«Ġ xiÃłngĠ
ĠbÃ¨iĠ jÇĲng
ĠzuÃ²Ġ qÇĶĠ
Ġm Ã¡nĠ
Ġn Ã¬Ġ
duÇİnĠ piÄģnĠ
s Ãłng
ĠĠĠ guÄģnĠyÃºĠ
xÄ«n ĠyÄ«Ġ
lÃ¡i ĠÄĽrĠ
qiÃ¡n ĠxÄ«Ġ
wÄĵi ĠlÃ¬Ġ
lÄĵi ĠsÄ«Ġ
qÄ«ngĠ zhÄĵnĠ
kÄĵĠ huÃłnĠ
qÇĶĠ juÃ©ĠyÃºĠ
ĠdeĠyÄ«Ġ tiÃ¡oĠ
qiÃ¡ngĠ huÃłĠ
dÇİĠ suÃłn
Ġ16 0
ĠdeĠyÃ¬Ġ siĠ
oun dĠ
zÇĶĠchÃ©ng ĠbÃ¹ĠfÃ¨nĠ
Ġ zÃłnĠ
Ġ xiÇİnĠshÃ¬Ġ
ĠĠĠ gÃ¨Ġ
bÄĽn ĠzhÃ¬Ġ
00 ĠpÃŃngĠfÄģngĠqiÄģnĠmÇĲĠ
pÄ« n
ĠchÅ« ĠbÃ¹Ġ
fÄģngĠ Ãłn
cÇĲĠ tiÄģnĠtÇĲĠ
chÃ¡ngĠ ÄģnĠ
zÄ«Ġ xÃ¹n
mÃ³Ġ tuÅįĠ
ĠshÃ¬ĠwÃ¹Ġ suÇĴĠ
Ġ zhuÃ³Ġ
ĠĠĠ zÇİoĠqÄ«Ġ
chÃ¡ ĠdÃ©Ġ
nÃ¡n ĠxÄ«Ġ
tÃ³ng ĠzhÃ¬Ġ
kÄĵ ĠyÄ«ĠshÄĵngĠ
zÅįng ĠdeĠ
xiÃ¡ ĠdeĠ
shÇİo ĠdeĠ
mÇİn ĠyÃ¬Ġ
ĠzÃłiĠ duÃ¬Ġ
shÃłngĠ yÃ¬ngĠdeĠ
zhÇĶĠ juÃ©
shÄ«Ġ zhÇİngĠ
gÃ©Ġ lÃ©iĠ
zuÃ¬Ġ hÃ²uĠdeĠ
bÄ«ngĠ tuÃ¡nĠ
Ġ196 9ĠniÃ¡nĠ
chuÃłngĠbÃłn ĠrÃ©nĠ
a f
Ġ zÇĶĠchÃ©ngĠ
ĠĠĠ huÃ¡ngĠ
xiÃł ĠshÃ¬Ġ
yÃ²ng ĠdÃ¬Ġ
cÃ¡i ĠdeĠ
or i
ĠrÃ¬ ĠshÃŃĠ
ĠyuÃ¡nĠ lÃ¡iĠ
jÃ¹Ġ bÃ¨iĠ
lÃ¹Ġ yÄ«nĠshÃ¬Ġ
ĠdÃłn ĠbÃ¨iĠ
ĠbÃ¬ngĠ wÃºĠ
zÇĴngĠ jÃºĠ
eĠĠĠ S
shÃ¨Ġ jiÄģoĠ
6 0ĠniÃ¡nĠ
Z Ġ
b Ã¨n
l Ä«Ġ
ã Ĥ
Ġ mÃŃngĠwÃ¨iĠ
Ġ zÃ©ĠshÃ¬Ġ
duÃ¬ ĠshÃ¬Ġ
shÃ¨ng ĠyÃºĠ
nÇļ ĠÃ©r
gÄĵng ĠmÃŃngĠ
ĠyÇĲĠ wÃłiĠdeĠ
ĠxÄ«Ġ cÃ¨Ġ
shÅ«Ġ xiÄĽĠ
zÇĴngĠ Ã©ĠwÃ¨iĠ
Ã¨rĠ bÇİiĠ
dÃ¡Ġ nÃŃĠ
zhuÇİnĠ yÃŃĠdÃłoĠ
gÄĵĠlÃºnĠ bÇĲĠyÃł
fÄĵiĠxÃŃng ĠyuÃ¡nĠ
r ac
Ġ v
Ġ biÃ©Ġ
Ġ dÃºĠlÃ¬Ġ
Ġ liÃ¨ĠchÄĵĠ
fÃ¹ ĠyÃºĠ
bÄĽn ĠdÃ¬ĠqÅ«Ġ
shÄ« ĠshÃ¬Ġ
zi ĠlÇĲĠ
fÇĶ ĠzhÄ«ĠfÇĶĠ
nÃŃ ĠxÄ«ĠyÃł
suÃŃ ĠzhÄ«Ġ
ĠyÄ«Ġ yÃłng
ĠjiÄģĠ qiÃ¡ngĠ
ĠtÄģĠmen ĠshÃ¬Ġ
hÃ©ngĠ xÄ«ng
dÃłnĠ shuÇĲĠ
ĠjiÇİnĠ chÄĵng
Ġ193 3ĠniÃ¡nĠ
ĠyÃºĠ18 9
8 3ĠniÃ¡nĠ
C A
e f
Ġ yÇĴu
fÇİ ĠÄĽrĠ
wÃ©n ĠsÄ«Ġ
tu r
197 6ĠniÃ¡nĠ
in u
ĠdÃłĠ duÅį
ĠdÃ© ĠhÃ©Ġ
kÄĽĠyÇĲĠ tÅįngĠguÃ²Ġ
bÇİiĠ xÃ¬ngĠ
duÇİnĠ piÃłnĠ
ĠjÃŃĠtuÃ¡n ĠjÅ«nĠ
NB AĠ
Ġ shÄģnĠxÄ«Ġ
Ġ guÃ¬ĠzhÅįuĠ
ĠĠĠ xÃŃngĠ
chÃ©ng ĠwÃ¨iĠ
mÄĽi ĠlÃ¬Ġ
bÄģ ĠmÃŃngĠ
lÃºn ĠlÇĲĠ
ĠniÃ¡n ĠshÃ¬Ġ
yÃ²ngĠ leĠ
ĠqÃŃĠ zhÅįngĠdeĠ
qÄ«ngĠ dÇİoĠ
Ġp Ã³Ġ
Ġs Ġ
ĠdeĠyÄ«Ġ cÃ¬Ġ
ĠdÄģngĠ dÃ¬ĠdeĠ
am p
Ġ195 7ĠniÃ¡nĠ
Ġ xĠ
Ġ 22Ġ
ĠĠĠ yÄ«nĠwÃ¨iĠ
qÅ« ĠzhÅįngĠ
pÃł ĠÄĽrĠ
dÃłiĠ lÇĲng
ĠfÃ¹Ġ mÇĶĠ
chÇĶĠ juÃ©Ġ
ĠA r
ĠyÃºĠ200 0ĠniÃ¡nĠ
jiÄģoĠyÃ¬Ġ suÇĴĠ
chÃ¡i ĠyÃ³uĠ
guÇİngĠbÅį ĠgÅįngĠsÄ«Ġ
jiÃłngĠyÇĶĠ liÃłngĠ
Ġ qÇĶĠdÃ©Ġ
xÃŃng ĠrÃ©nĠ
mÄĽi ĠzhÅįngĠbÃ¹Ġ
tÃ¨ ĠsÄ«Ġ
chÄĵng ĠdeĠ
ĠyÇĴuĠ xiÃło
ĠyuÃ¡nĠ qÅ«Ġ
ĠjiÃłn ĠzhÅįngĠ
ĠqÃŃ ĠyÇĶĠ
guÇİnĠ kÃ²ng
zhÄĵngĠ duÃ³Ġ
ĠzhÇĶĠ zhÄģngĠ
zhÇĶnĠ juÃ©ĠsÃłi
tuÄ«Ġ guÇİng
ĠÃłoĠ mÃ©nĠ
lÇĲĠshÃ¬Ġ zhÇİngĠ
jiÃ¨ĠquÃ¡nĠguÃ³Ġ rÃ©nĠmÃŃnĠdÃłiĠbiÇİoĠdÃłĠhuÃ¬Ġ
Ġ nuÃ²
Ġ xÇĲĠ
Ġ kÄģiĠfÄģĠ
ĠĠĠ rÃ¬Ġ
shuÇĲ ĠyÃºĠ
dÇİng ĠbÃ¹Ġ
ĠwÃ¨iĠ guÃ³Ġ
ĠzhÅįngĠ wÃ©n
ĠzhÄ«Ġ qiÃ¡nĠdeĠ
fÃ¹Ġ nÇļĠ
tiÄģnĠ shÇĲĠ
ĠdeĠgÅįngĠ sÄ«Ġ
Ġ196 5ĠniÃ¡nĠ
ĠN Ġ
ĠdeĠjÄ«Ġ chÇĶĠ
ĠdeĠzuÃ²Ġ yÃ²ngĠ
chÃłngĠpiÃłn ĠgÅįngĠsÄ«Ġ
Ġ 23Ġ
pÃŃng ĠxiÃłnĠ
tÇĲ ĠxiÃłnĠ
qÄ«ng ĠdÃłiĠ
ĠhÃ©Ġ jÄ«nĠ
ĠhÃ©Ġ chÃłngĠ
ĠyÃ¬Ġ mÄĽiĠguÃ³ĠrÃ©nĠ
chÇİnĠ liÃłngĠ
lÃ³ngĠ kÄĵĠ
zhuÇİnĠ biÃłnĠ
sĠĠĠ of
Ġ bÇĶĠ
Ġ dÇİoĠyÇİnĠ
ĠĠĠ yÃ¹Ġ
sÄ« ĠdÃ¬ĠlÃ¬Ġ
jÅ«n ĠzhÇĶĠ
bÄģ ĠyuÃ¨Ġ
mÇĶ ĠsÄ«ĠtÃ¨Ġ
hÄģ ĠlÃ¬Ġ
qÃ¬ng ĠxiÃłĠ
ĠgÃ¨ ĠgÃ¨Ġ
zhÃ¨Ġ shÇĴuĠ
gÄģoĠ xiÃłoĠ
gÃ©Ġ lÃŃnĠ
ĠbÄĽnĠ zhÃłnĠ
ĠnÃ¡nĠ xÃ¬ngĠ
ĠdeĠyÄ«Ġ jiÄģĠ
dÇĲĠ cÃ©ngĠshuÇĲĠyÃ¹Ġ
ĠG Ġ
ĠcÃ©ng ĠzÃłiĠ
ĠsÄģn ĠyuÃ¨Ġ
Ä«ngĠp Äģng
Ġ duÃłnĠ
Ġ gÃ²ngĠtÃ³ngĠ
Ġ XĠ
ni Ã¡ng
wÄĵi ĠdeĠ
ĠshÃ¬Ġ chÇİng
ĠjÅ«n ĠyÇĲĠ
rÃ¨nĠ zhÃ¨ngĠ
jiÄĽĠ juÃ©
ĠcÇĲĠ wÃłi
Ġn Ãłi
ĠĠĠ199 7ĠniÃ¡nĠ
chÄģĠ jÃ¹Ġ
ĠdÃ¬ĠshÃŃĠ sÄģnĠ
ĠÄģĠÄĽrĠ bÄĵiĠsÄ«Ġ
6 1Ġ
I D
Ġ qÃ¹Ġ
yuÃ¡n ĠrÃ©nĠmÃŃnĠbÃ¬Ġ
jiÃłn ĠduÃ¬Ġ
hÃº n
te dĠĠĠ
ĠwÃ¨iĠ duÃ¬Ġ
ĠyÇĲĠ jÃŃĠzÃłiĠ
ĠzhÅįu ĠdeĠyÃŃĠgÃ¨ĠshÃ¬ĠzhÃ¨nĠ
dÃ²ngĠ tÃłiĠ
ĠzÃ¬Ġ cÇĲĠ
Ġp Å«Ġ
Ġs ÇİnĠ
xÃ¹nĠ hÃłoĠ
zhuÄģnĠ qÅ«Ġ
Ġ19 27ĠniÃ¡nĠ
yÃ¡nĠjiÅ«Ġ suÇĴ
ĠzhÅįngĠyÄģng ĠjÅ«nĠ
zhÃ²ngĠyÃłoĠ xÃ¬ngĠ
ĠzÃłiĠ200 9ĠniÃ¡nĠ
mÃ³uĠ shÄģĠ
tÃŃngĠchÄĵĠ chÇİngĠ
g ÇĴng
y Äģn
Ġ dÄ«ng
jÄ« ĠshÃŃĠ
huÃ¬ ĠyÃºĠ
zhÄģng ĠshÃ¬Ġ
198 5ĠniÃ¡nĠ
ĠshÃ¬Ġ yÃ¬nĠdÃ¹Ġ
bÃ¹Ġ fÃ¨n
yÃ³uĠ kÃ¨Ġ
zhÃłnĠ shÃ¹Ġ
ĠbÃ¬ng ĠchÃ©ngĠwÃ©iĠ
dÅįngĠ yÃłĠ
tÃ¡iĠ zhÅįngĠshÃ¬Ġ
suÇĴĠ zÃłiĠdeĠ
rÃ¹Ġ kÇĴu
chuÃ¡nĠ mÃ©i
ĠxiÄģngĠ guÄģnĠdeĠ
liÇİngĠ tiÃ¡oĠ
huÃ²Ġ zhÄĽĠ
ĠdeĠshÃ¬Ġ qÃŃngĠ
liÃ¡ngĠ hÇİoĠdeĠ
yÇĲngĠxiÇİng ĠdeĠ
ĠshÃłngĠhÇİi ĠshÃ¬Ġ
ĠtÃºn ĠqÃŃĠ
Ġ zhÃ¹
Ġ zÇİoĠ
ÇĶ n
zhÇİng ĠjÃŃĠ
mÇĲ ĠÄĽr
fÅ« ĠsÄ«Ġ
30 ĠfÄĵnĠ
ĠxÄ«Ġ fÇİĠ
jÄ«nĠ xiÃłngĠ
yÄĽĠ mÃ©iĠyÇĴuĠ
tÃłiĠ kÅįng
yuÄĵĠ sÃ¨ĠfÅ«Ġ
Ġm Ġ
ĠtÃ¨Ġ liÃ¨Ġ
ĠsuÃŃ ĠjÃŃĠ
ĠJ RĠ
yÃ¬nĠdÃ¬Ġ ÄģnĠnÃł
n Ãłn
Ġ dÃ¹
Ġ xiÅįngĠyÃ¡ĠlÃ¬Ġ
liÃ¹ ĠyuÃ¨Ġ
zu ÃłnĠshÃŃĠ
xiÃ¨ ĠÄĽrĠ
ĠwÃ¨iĠ mÄĽiĠguÃ³Ġ
ĠshÃŃĠ yÄ«ĠniÃ¡nĠ
ĠyÃ¬Ġ bÃ¨iĠ
wÃ¹Ġ zÄ«Ġ
tÅįngĠ xÃ¬n
dÄĽngĠ dÃłiĠ
liÃ¡nĠsÃłiĠ guÃłnĠjÅ«nĠ
ĠzÃłiĠ201 4ĠniÃ¡nĠ
ĠshÃ¬ĠjiÃłn ĠdeĠ
ĠtÄģĠcÃ©ng ĠdÃłiĠbiÇİo
hÃºĠbÄĽiĠ shÄĽngĠ
S S
o i
Ġ yÃ¹nĠ
zhÃŃ ĠyÃºĠ
tÃŃ ĠwÃ¨iĠ
ku Ä«
liÃ¡ng ĠdeĠ
ĠwÃ¨iĠ sÄ«Ġ
ĠwÃ¨iĠ xÄ«nĠ
liÇİngĠ zhÇĴng
xÃºnĠ fÇĶĠ
huÇĴĠ pÃłoĠ
rÃ¡nĠ liÃłoĠ
ĠzhÃŃ ĠxÃŃngĠ
ĠcÃ³ngĠ cÇĲĠ
ic k
jÃ¬ĠsuÃłn ĠjÄ«Ġ
c or
zuÃ² ĠzÃłiĠ
10 00
xuÇİn ĠdeĠ
zu ÇĲ
zhuÄ« ĠjÄ«Ġ
ĠdÃ¬Ġ 2
ĠkÃ¨ ĠjiÄģĠ
fÄģĠ huÄ«Ġ
tÃ¨Ġ dÃ¬ngĠdeĠ
ĠzuÃ²Ġ yÃ¨Ġ
Ġz Ã¨ngĠ
rÃ²u ĠshÃŃĠxÃ¬ngĠ
ĠyÇĲĠjÃŃ ĠzhÅįngĠguÃ³ĠdÃłĠlÃ¹ĠdeĠ
mÄĽiĠzhÅįngĠbÃ¹Ġ shÃŃĠqÅ«Ġ
8 5Ġ
M P
Ġ zÅ«nĠ
ĠĠĠ jiÃłnĠ
zhÅįng ĠniÃ¡nĠ
le ĠbÃ¹Ġ
mÃŃng ĠyÃºĠ
mÃŃng ĠchÃ©ngĠ
zhÃłn ĠlÃ¬Ġ
yÃło ĠzÃłiĠ
zÃ© ĠÄĽrĠshÄĽngĠ
dÄģng ĠdÃłiĠ
an ĠĠĠ
quÃ¨ ĠlÃ¬Ġ
qÃ¹ ĠleĠ
hÄģ ĠdÃ©Ġ
ĠdÃło ĠtÄģĠ
ĠyuÃ¡nĠ zÃ¬
ĠÄĽr ĠbÃ¨iĠ
nÃ¡nĠ fÄĵiĠ
ĠÃ©rĠ wÃ©nĠmÃŃngĠ
lÃ¡iĠ yuÃ¡nĠyÃºĠ
cÃ¡iĠ nÃ©ng
xiÄģoĠ shÃ²u
zhÃłngĠ fÅ«
ĠyÃºĠ200 3ĠniÃ¡nĠ
Ġd ÇĴng
ĠlÄĽi Ġ
a ge
wÄĽi ĠdeĠ
qiÃ¡ng ĠdÃłĠ
huÃ¡n ĠyuÃ¡nĠ
196 0ĠniÃ¡nĠ
lÃ¬Ġ shÇĲ
fÄģĠ dÃ²ng
bÄĽnĠ tÇĶ
zhÃŃĠ bÃłng
tiÄģnĠ xiÃłĠ
ĠjÃ¹Ġ bÄĽnĠ
ĠjÃ¹Ġ tÇĲĠ
wÃ¡ngĠ guÃ³ĠdeĠ
wÇİngĠ lÃ¡iĠ
zÇĶĠ xiÄģnĠ
ÅįuĠ mÃ©ng
ĠshÃ¬ĠyÄ«Ġ jiÄģĠ
guÄģngĠ pÇĶĠ
tuÅįĠ mÇİĠsÄ«Ġ
ĠC STĠ
ĠC DTĠ
Ġ196 1ĠniÃ¡nĠ
Ġ6Ġ diÃłoĠkuÃłiĠyÄ«ĠxiÇİoĠshÃŃĠ
ĠjÃŃĠbÄĽiĠ mÄĽiĠzhÅįngĠbÃ¹ĠshÃŃĠqÅ«Ġ
hÅįngĠzhÃł ĠjÄ«Ġ
9 ĠniÃ¡nĠdeĠ
p ÄģoĠ
Ġ qÇĶ
Ġ ruÃ¬ĠshÃ¬Ġ
zh Äģi
jiÃło ĠyÇĴuĠ
ĠshÃ¬Ġ zuÃ¬Ġ
ĠzhÃ¨ngĠ jÃ¹Ġ
tiÄģnĠ huÃ¡ng
xuÇİnĠ shÇĴu
ĠqiÃºĠ bÇĲĠsÃłiĠ
nÃłĠ yÃłngĠ
shÄģĠ tiÃ¡nĠ
Ġl ÃłnĠ
yÃ¬nĠ dÃ¹ĠdeĠ
zÄĵngĠ qiÃ¡ng
yÅįuĠ xiÄģnĠ
dÃłnĠ bÃ¡iĠ
Ġ193 1ĠniÃ¡nĠ
ow Ġ
ĠlÃ¡iĠ zÃ¬
jÄ«ĠdÅ«Ġ jiÃłoĠ
6 6Ġ
Ġ gÄģn
Ġ liÃ¡nĠhÃ©ĠguÃ³Ġ
19 20ĠniÃ¡nĠ
19 30ĠniÃ¡nĠ
qÄ« ĠzhÃ¬Ġ
shÄĵng ĠbÃ¹Ġ
xiÃłng ĠhÃ©Ġ
yÄ«ng ĠÃ©rĠ
mÃ©i ĠÄĽrĠ
huÃłn ĠyÇĴuĠ
chÃ©ngĠ wÃ©i
shÄĵngĠ rÃ¨nĠ
huÃłĠ fÄĵnĠ
zhÃ¨Ġ yÃłngĠ
zhÃŃĠ dÇİoĠdeĠ
ĠjÃ¬n ĠxÃŃngĠdeĠ
suÇĴĠ zhÇİngĠ
ĠshÃłngĠ shÃ¹Ġ
xÃ¬ngĠ gÃ©Ġ
ĠL Ġ
Ġ196 2ĠniÃ¡nĠ
ĠzÃłiĠ201 3ĠniÃ¡nĠ
ĠdÃł ĠzhÃ¬Ġ
zhÃ©ĠxuÃ©Ġ jiÄģĠ
Ġ xÃŃĠ
Ġ huÄ«Ġ
suÇĴ ĠbÃ¹Ġ
jiÄģo ĠfÃ¹Ġ
luÃ² ĠhÃ²uĠ
pÃ¨i ĠyuÃ¨Ġ
ĠdÃ¬Ġ mÃŃngĠ
jÄ«Ġ chÇİng
zhÇĶĠ tÇĲĠ
yÃ¡nĠ xÃ¹
ĠshÄĵngĠ mÃ¬ngĠ
ĠshÃ¨Ġ shÄ«
ĠxiÃłĠ lÃ¬ngĠ
6ĠniÃ¡nĠ 1ĠyuÃ¨Ġ
luÃ²Ġ bÃłiĠ
wÄĽiĠ nÃ¨iĠruÃ¬Ġ
zhÃ¨ngĠzhÃ¬Ġ jÃºĠ
ĠĠĠ199 1ĠniÃ¡nĠ
ĠzÃłiĠ201 1ĠniÃ¡nĠ
jiÄĵĠshÃ²u ĠleĠ
6 7Ġ
ĠĠĠ yÄ«ngĠguÃ³Ġ
shÃŃ ĠshÃ¬ĠjÃ¬Ġ
shÃł Ġ
shÄĵng ĠrÃ¬Ġ
chu Äģng
liÃº ĠshÃ¬Ġ
bÃło ĠfÃ¹Ġ
ĠshÃŃĠ bÃ¨iĠ
zhÇĲĠ nÃ©ng
bÃ³Ġ gÄĽnĠdÃ¬Ġ
ĠqÃŃĠzhÅįngĠ bÄģoĠkuÃ²
Ġ7 0
ĠĠĠL i
yÃ¡nĠhÇİiĠ shÄĽngĠfÃ¨nĠ
6 8Ġ
7 1
t uÃ²
Ġ rÃ©ngĠ
ĠĠĠ mÃ¹Ġ
ĠĠĠ mÄĽiĠ
ĠĠĠ gÄģiĠdÃ¬Ġ
qÇĲ ĠshÃ¬Ġ
jÄ«n ĠrÃ¬
pÇĶ ĠdeĠ
dÃŃ ĠsÄ«Ġ
lÄĵi ĠdeĠ
ĠwÃ¨iĠ jÄ«ngĠ
ĠgÅįngĠ diÃłnĠ
ĠsÄ«Ġ dÃłĠ
ĠjiÄģĠ lÄģ
fÄĵnĠ zÇĶĠ
ĠzhÅįuĠ biÄģnĠ
guÇİnĠ lÇĲĠdeĠ
lÃŃngĠ gÇİnĠ
xÃ¬nĠ tÃºĠ
zhÇĶĠjiÃłoĠ liÃłnĠ
zhÃłiĠ wÃ¹Ġ
ĠqÄ« ĠxÄ«Ġ
ÄģnĠhuÄ«Ġ shÄĽngĠ
yÃłĠmÄĽiĠ nÃŃĠyÃł
ĠhÅįngĠ zhÃł
8 6Ġ
e dĠ
Ġ Ù
Ġ te
mÇİ ĠqÃŃĠ
jiÇİo ĠdeĠ
ĠshÃ¬Ġ yÃŃĠ
yÃ¬Ġ qÇĲĠ
ĠrÃ©nĠ bÃ¨iĠ
ĠgÅįngĠ lÃ¬Ġ
ĠyÄ«Ġ lÃ¹Ġ
ĠÄĽr ĠxÄ«Ġ
sÃ¬Ġ chuÄģn
ĠxiÄģngĠ guÄģn
guÇİngĠ dÅįng
yÃ¡nĠjiÅ« ĠrÃ©nĠyuÃ¡nĠ
chÃ©nĠ mÃ²Ġ
ĠĠĠ199 4ĠniÃ¡nĠ
diÄģoĠ xiÃłngĠ
juÄģnĠ zÃ¨ngĠ
mÃ¬ng ĠdeĠ
hÄĽn ĠnÃ¡nĠ
hÃ¡o ĠwÃºĠ
ĠzÃłiĠ jÄ«nĠ
ĠhÃ©Ġ kÇĴuĠ
fÄĵnĠ lÃ¡n
tÅįngĠ chÃ¡ngĠshÃ¬Ġ
luÃ³Ġ xuÃ¡nĠ
ĠhuÃ²Ġ wÃ¹Ġ
xiÇİngĠ yÃ¬ngĠ
Ġ19 28ĠniÃ¡nĠ
zhÇĶĠjiÃłoĠ zuÃ²Ġ
gÃ²ngĠhÃ©Ġ dÇİng
du c
qiÃ¡n ĠwÃ¨iĠ
sÄģn ĠguÃ³Ġ
18 4
gÄĽi ĠshÃ¬ĠzhÅįngĠ
ĠdÃ¬Ġ Ã¨rĠshÃŃĠ
ĠjÃŃĠ kÄĽĠ
ĠyÄ«Ġ liÃ¡o
Ġp Å«
qÅ«ĠdeĠ fÃ¹ĠzÃ©ĠguÇİnĠxiÃ¡Ġ
8 3
lÄģ ĠkÃ¨
men tĠĠĠ
pÇĶ ĠÄĽrĠ
gÃ¨ng ĠdÃłĠ
kÃłn ĠjiÃłnĠ
ĠyÇĲ ĠzhÄ«Ġ
jÄ«Ġ hÅ«Ġ
wÃ©iĠ jÄ«ĠbÇİiĠ
ĠqÃŃĠ fÃ¹Ġ
ĠzhÃłnĠ tÃ¡iĠ
tÃŃĠ ÃłnĠ
tiÄĽĠ lÃ¹ĠdeĠ
zhÄĽngĠ tÇĲ
si on
xiÃłngĠmÃ¹ ĠdeĠ
r Ã¡oĠ
t Äģn
ĠĠĠ tÃ¨ĠzhÄĵngĠ
tu re
chÄĵ ĠshÃ¬Ġ
xiÇİo ĠyÃºĠ
dÃº ĠzÃ¬Ġ
er n
194 9ĠniÃ¡nĠ
dÃ¬Ġ fÄģngĠ
ĠrÃ©nĠ shÄĵngĠ
mÄĽiĠguÃ³Ġ zÇĴngĠtÇĴngĠ
fÄģĠxÃŃngĠ leĠ
wÇİnĠ jiÄģnĠ
ĠÄģ ĠlÇĲĠ
8 1
Ġ chÄģoĠjÃŃĠ
ĠĠĠ tÃ³ngĠniÃ¡nĠ
mÃŃng ĠzhÅįngĠ
qÅ« ĠxiÃłnĠ
wÃ©n ĠjÃŃĠ
bÅį ĠyÄ«nĠ
diÇİn ĠxÃŃngĠ
cÃ¨ ĠwÃ¨iĠ
qiÄģn ĠzhÃ¨ngĠ
bÄģn ĠdÃłoĠ
zhuÇİn ĠhuÃ¬Ġ
pÄ« ĠfÃ¹Ġ
ĠshÃŃĠ jiÃłnĠ
yÇĶĠ yÃ¡n
tÃ¨Ġ sÃ¨
bÄĽiĠ mÄĽiĠ
rÃ¹Ġ yÃ¹Ġ
quÃ¡nĠ shÃ¹Ġ
fÄĵngĠ xiÇİn
bÃ³Ġ lÃŃn
jiÇİnĠ chÄĵngĠ
ĠrÃ¡nĠ hÃ²uĠzÃłiĠ
yÄģĠ suÅįĠ
ĠI Ġ
ĠpÃ¬ nĠ
G B
Ġ juÃ©
ĠĠĠ tÃ¡ngĠ
yÃ¬ ĠdeĠshÃ¬Ġ
le ĠyuÃ¡nĠ
tÃ³ng ĠxuÃ©Ġ
gÇĶ ĠchÃ©ngĠ
nÃł ĠxÄ«Ġ
huÃ¡ng ĠshÃ¬Ġ
fÅ« ĠsÄ«ĠjÄ«Ġ
ĠyÃºĠ yÄ«Ġ
ĠzhÃ¬Ġ jÄ«n
ĠyÇĴuĠ leĠ
tiÄģnĠ zhÇĶĠjiÃło
Ġc Å«Ġ
jiÄģoĠ gÄĽi
Ġl Ãłi
yÃ¬ngĠ yÃ²ngĠyÃºĠ
ĠduÅįĠ cÃ¬Ġ
hÃ¡ngĠ tiÄģn
dÃºĠ zhÄĽĠ
tÄ«ngĠ zhÇİngĠ
kuÃłngĠ wÃ¹Ġ
Ġ196 7ĠniÃ¡nĠ
wÃ¹ĠlÇĲĠ xuÃ©ĠjiÄģĠ
ÄģĠgÄĵnĠ tÃŃngĠ
shÄĽngĠdÃłoĠ tÃ¡iĠ
1 ĠrÃ¬
u d
ĠĠĠ kÄĵĠ
guÃ² ĠyÄ«Ġ
lÇļ ĠyÃ³u
ĠdÃłĠ zhÃ¨ngĠ
ĠchÅ«Ġ sÃłiĠ
ĠbÃ¨iĠ kÃ¨Ġ
jiÃłoĠ shÇİoĠ
gÃ©Ġ luÃ³Ġ
ĠdÄģng ĠrÃ¬Ġ
biÃłnĠ huÃł
wÄĵiĠ bÃ³Ġ
huÃ³Ġ xÃ¬ngĠ
jÅ«nĠ guÄģnĠ
ÄĵnĠ lÃ¡iĠ
ĠyÄ«nĠwÃ¨iĠ tÄģ
ĠbÃ¹ĠfÃ¨n ĠdeĠ
ĠzÃłiĠ201 5ĠniÃ¡nĠ
hÃºĠnÃ¡nĠ shÄĽngĠ
chÃ¡i ĠyÃ³uĠjÄ«Ġ
5 8ĠniÃ¡nĠ
5 7Ġ
Ġ zÄĵngĠjiÄģĠ
Ġ shÃŃĠniÃ¡nĠ
jÄ« ĠlÃ¬Ġ
bÇİo ĠshÃŃĠ
gÇĶ ĠsÄ«Ġ
cÃ³ng ĠzhÅįngĠ
198 2ĠniÃ¡nĠ
ro p
ĠchÃ©ngĠ dÄģnĠ
ĠyÄ«Ġ kÄģiĠshÇĲĠ
ĠshÃ¨ ĠzÃłiĠ
yÃ¹Ġ gÃłoĠ
ĠdÃłn ĠwÃ¨iĠ
yÃŃĠ qÃ¬Ġ
xÃ¬nĠ yÃ²ngĠ
pÃŃĠ fÅ«Ġ
wÇİnĠ qÄ«Ġ
ĠqÄ«Ġ jiÄģn
5 000
m anĠ
Ġ hÅ«Ġ
sh ÄģiĠ
zuÃ² ĠyÇĲĠ
wÇĶ ĠdeĠ
cÃ©ng ĠyÇĶĠ
gÃło ĠzhÄ«Ġ
ĠshÃ¬Ġ fÃłngĠ
ĠshÃ¬Ġ yÃ²ngĠyÃºĠ
ĠyÇĶĠ yuÃ¡nĠ
ĠÃ©r ĠyuÃ¡nĠ
zhÃ¨Ġ cÃ¬Ġ
ĠyÃ³uĠ tÃłiĠrÃ©nĠ
yÇİnĠ jÄ«ngĠ
huÃłnĠ xiÇİngĠ
cÃºnĠ chÇĶĠ
ĠguÃ³ĠjiÄģ ĠgÅįngĠyuÃ¡nĠ
lÇļĠkÃ¨Ġ tiÄĽĠdÃłoĠ
a de
v eĠ
Ġ gÄĽiĠ
ĠĠĠ jiÃłoĠyÃ¹Ġ
jiÃ¨ ĠxiÃłnĠ
liÃº ĠchÃ©ngĠ
ĠdÃ¬Ġ xÃŃngĠ
ĠlÃ¬Ġ yÃºĠ
ĠjÃ¬Ġ hÃ²uĠ
1Ġ hÃło
xÃºnĠ zhÇİo
ĠshÇĲĠ mÃ¬ĠsÄ«Ġ
diÄģoĠ sÃ¹Ġ
ĠlÃ¡oĠ dÃ²ngĠ
Ġ yÃ¬nĠdÃ¹
ĠĠĠ 12ĠyuÃ¨Ġ
yuÄĵ ĠdeĠ
qÇĶ ĠleĠ
zhÅ« ĠshÃ¬ĠhuÃ¬Ġ
zÄĵng ĠzhÃ¬Ġ
jÃ¬Ġ zhÄĽĠ
ĠsÄ«Ġ fÇİ
ĠjiÄģĠ sÃ¹Ġ
ĠÃ©r ĠyÇĲĠ
rÃ¨nĠ kÄĽĠ
fÃ¹Ġ gÃłiĠ
ĠjiÃłnĠ duÃ¬
ĠjÅ«nĠ zhÇĶĠ
ĠzhÃłnĠ lÇĲng
biÄģnĠ qÅ«Ġ
fÃłngĠ sÃ²ngĠ
ĠÃło ĠsÄ«Ġ
ĠmÇĶĠ qÄ«nĠ
ĠdeĠfÃ¹Ġ qÄ«nĠ
5 ĠmÃŃngĠ
r Çİng
Ġ lÄĵiĠ
guÃ³ ĠwÃ¨iĠ
jiÇĶ ĠyuÃ¨Ġ
er ĠĠĠ
ĠshÃŃĠ liÃ¹ĠniÃ¡nĠ
ĠdÃłĠ zhÃłnĠ
ĠchÅ«Ġ kÇĴu
tiÄģnĠ zhÇĶĠ
chÃ¡ngĠ guÄ«Ġ
shuÇĲĠ kÃ¹
ĠxiÃłnĠdeĠ fÄĵiĠjiÃłnĠzhÃ¬ĠdÃ¬ĠqÅ«Ġ
jÇĶĠxÃŃngĠ leĠ
ĠzÃłiĠ201 8ĠniÃ¡nĠ
pÅį ĠÄĽrĠ
Ġ bÃºĠshÃ¬Ġ
Ġ hÃ²uĠzÃłiĠ
Ġ yÇİĠ
ĠĠĠ pÇĶĠ
jÃ¬n ĠdÃłiĠ
hÃ¡ng ĠxÃŃngĠ
yÇĲn ĠjÃ¬nĠ
er sĠ
xÄ«nĠ qÅ«Ġ
qÄ«Ġ xÄ«ĠdÃ¬Ġ
jiÃ©Ġ hÅ«n
gÄģoĠ shÄģnĠ
zuÃ¬Ġ hÇİoĠdeĠ
xÇĶĠ kÄĽ
ĠshÃ¬ĠwÃ¨iĠyÃºĠ wÅ«ĠkÃ¨ĠlÃ¡nĠ
Ġ193 4ĠniÃ¡nĠ
kÇĴngĠ lÃ³ngĠ
ĠzÃłiĠ201 6ĠniÃ¡nĠ
ter n
M V
b ÄĵngĠ
t on
Ġ zÇĲĠ
jiÄģ ĠjÃŃĠ
mÃŃng ĠzÃłiĠ
gÄģo ĠÄĽrĠ
cÇĲ ĠzhÃłnĠ
hÃłn ĠdeĠ
ar dĠ
ĠzhÃ¬Ġ cÇĲĠ
ĠlÃ¬Ġ chÇİngĠ
ĠdÃłĠ dÃłĠ
zhÇĶĠ chÇİng
quÃ¡nĠ wÄĵiĠ
miÃłnĠ qiÃ¡nĠ
lÃŃĠ hÅ«nĠ
ĠgÄģiĠ zhuÄģngĠ
jiÃłĠ shÇĲ
yÃŃĠgÃ¨ ĠrÃ©nĠ
hÄģĠ lÄģĠ
jiÄģĠrÃ¹ ĠzhÅįngĠguÃ³ĠgÃ²ngĠchÇİnĠdÇİngĠ
bÄģnĠjiÇİngĠ diÇİnĠlÇĲĠ
wÃ©nĠhuÃłĠdÃłĠ gÃ©ĠmÃ¬ngĠ
5 9Ġ
Ġ zhuÄģn
Ġ lÇĶ
Ġ zuÇĴ
Ġ zÃłoĠ
Ġ yÄ«ĠniÃ¡nĠ
Ġ zhÄĵnĠduÃ¬Ġ
ĠĠĠ jÃ¬nĠ
shÅįu ĠfÃ¹Ġ
ĠshÃ¬Ġ cÃ³ngĠ
ĠshÃŃĠ shÄ«
ĠyÇĴuĠ liÇİngĠgÃ¨Ġ
ĠguÃ³Ġ nÃ¨i
ĠyÃ¬Ġ bÇİiĠ
ĠyÄ«Ġ lÇİngĠ
shÇĴuĠ dÃ¹Ġ
ĠjÅ«nĠ duÃ¬
tÃ¡iĠ nÃ¡nĠ
ĠzhÃ¨Ġ xiÃłngĠ
Ġt Ãło
ĠzÃłiĠ200 7ĠniÃ¡nĠ
qÅ«ĠyÃ¬ĠhuÃ¬Ġ xuÇİnĠjÇĶĠ
8 8ĠniÃ¡nĠ
Ġ pÃ©ng
xÄ«n ĠjÄ«Ġ
fÄĵn ĠzhÃ¬Ġ
zuÃ¬ ĠjÃ¬nĠdeĠ
kÄģi ĠyuÃ¡nĠ
ku Ã¡ng
shÃ©n ĠshÃ¨Ġ
pÃłi ĠrÃ©nĠ
ĠjÃŃĠ zhÅįngĠzÃłiĠ
fÄģĠ shÄĵngĠyÃºĠ
ĠwÃ©iĠ qÄ«Ġ
ĠshÃłngĠ zhÃ¨nĠ
fÅ«Ġ lÄĵiĠ
dÇİĠ kÄģiĠ
xiÃ©Ġ zhÃ¹
kÇİoĠ gÇĶ
Ġw ÄģngĠ
ÄģĠjÄ«Ġ tÇİn
5 6ĠniÃ¡nĠ
7 7Ġ
Ġ xiÃ©ĠzhÃ¹Ġ
Ġ xÃº
yÇĶ ĠrÃ©nĠ
shÄĵng ĠyÃ¬Ġ
wÇĶ ĠgÅįngĠ
cÃ©ng ĠyÃºĠ
yÃ¡ng ĠzhÅįuĠ
ĠjiÃłn ĠguÃ³Ġ
ĠxÄ«Ġ ÄĽr
ĠqÃŃĠ ziĠ
bÃ¬Ġ lÇĶ
ĠjÇĲnĠ cÃ¬ĠyÃºĠ
ĠzÃłiĠ201 7ĠniÃ¡nĠ
pÃ©iĠ xÃ¹n
S M
e mĠ
huÃł ĠgÅįngĠ
Ã¨r ĠmÃŃngĠ
200 0Ġ
pÇĶ ĠlÇĲĠ
hÄĽn ĠyÇĴuĠ
rÃ¨nĠ qÄ«Ġ
qÄ«Ġ tÃºĠxÃŃngĠ
ĠshÃ¨Ġ xiÃ¡nĠ
Ġm ÇİoĠ
guÃ³ĠdeĠ tÃ¨ĠyÇĴuĠ
Ġ196 3ĠniÃ¡nĠ
A G
D R
a sĠ
l Ã©ngĠ
ĠĠĠ shuÇĲĠ
dÃ© ĠyÇĲĠ
yÃ²u ĠzÃłiĠ
shÄģ ĠshÃ¬Ġ
ĠbÃ¹Ġ zhÄ«Ġ
lÃ¬Ġ liÃłngĠ
xuÃ©Ġ zhÄĽ
wÃ©nĠ bÄĽnĠ
nÇļĠ shÃ©nĠ
fÃ¡ngĠ shÇĴuĠ
ĠdeĠshÃ¬Ġ jiÃłnĠ
xuÃ¡nĠ zhuÇİnĠ
ĠtÃ³ngĠniÃ¡nĠ 10ĠyuÃ¨Ġ
Ġ193 2ĠniÃ¡nĠ
ĠchÃ¡ngĠ qÄ«Ġ
ic ros
fÃ¡n ĠmÃ¡ng
chÅ«ĠbÇİn ĠdeĠ
7 5ĠniÃ¡nĠ
t Äģo
Ġ tÃ¡i
Ġ jÅ«Ġ
Ġ mÇĲnĠ
ĠĠĠ h
ch i
shÃłng ĠjÃŃĠ
shuÇĲ ĠyuÃ¡nĠ
fÃłng ĠshÃ¨Ġ
ĠgÃ¨Ġ dÃ¬ĠdeĠ
xiÄģngĠ xÃ¬n
zhÃ¹Ġ mÃŃng
lÃ¡iĠ wÇİngĠ
nÃ³ngĠ cÅ«n
Ġb ÃłngĠ
ĠhuÃ²ĠdÃ© ĠdÃ¬Ġ
ĠzhÃłnĠdÃ²u ĠjÄ«Ġ
ĠyÇĶĠmÃ¡o ĠqiÃº
ĠfÇĴuĠ zÃ©Ġ
shÃ¡ oĠ
m p
Ġ lÃŃng
hÃ²u ĠyÇĲĠ
guÄģn ĠhÃ©Ġ
diÃłn ĠyuÃ¡nĠ
duÅį ĠjiÄģĠ
rÃ¹ n
shÄĽng ĠrÃ©nĠmÃŃnĠzhÃ¨ngĠfÇĶĠ
fÃ¨i ĠÄĽrĠ
ar t
ĠshÃ¬Ġ yÃ²ngĠ
dÃłĠ huÃ¬Ġ
ĠzhÄ«Ġ duÃ¬Ġ
kÄģiĠ yÃ¨Ġ
Ġb ÃłĠ
shÄ«ĠqÃ¹ ĠleĠ
r on
Ġ xiÇİoĠshÃŃĠ
Ġ bÇĲĠdÃ©Ġ
ĠĠĠ re
ĠĠĠ ÄģnĠ
yÇĶ ĠjÃŃĠ
le sĠĠĠ
zhÅįu ĠwÃ©iĠ
wÃłn ĠmÃŃngĠ
fÃłng ĠzhÃ¬Ġ
ĠzÃłiĠ nÃłĠlÇĲĠ
ĠdÃłoĠ fÅ«Ġ
guÄģnĠ diÇİn
shÃ²uĠ mÃ¬ngĠ
ĠmÇİĠ lÄģĠ
pÃ¨iĠ juÃ©Ġ
Ġn ÇĶ
liÃ¨ĠchÄĵ ĠdeĠ
c t
Ġ 20ĠshÃ¬ĠjÃ¬Ġ
chÅ« ĠxiÃłnĠzÃłiĠ
kÃ¨ ĠdeĠ
shÄ« ĠxÃŃngĠ
zhÃ²ng ĠrÃ©nĠ
chÇİn ĠdeĠ
xiÄĽ ĠchÃ©ngĠ
ĠdeĠ xÃŃngĠshÃ¬Ġ
ĠchÃ©ngĠ rÃ¨n
ĠdÃ© ĠyÃ¬ĠzhÃ¬Ġ
ĠhuÃ¬Ġ dÇİoĠzhÃ¬Ġ
kÇĴuĠ hÃłoĠ
yÃŃĠ chuÃ¡nĠ
Ġc ÇİnĠ
chuÃ¡nĠ shÅ«Ġ
ĠĠĠ199 5ĠniÃ¡nĠ
lÄĽi ĠjÃ¬Ġ
6 3Ġ
Ġ bÇĲngĠ
jÄ« ĠxÃŃngĠ
yÃ¡ng ĠdeĠ
guÄģng ĠxuÃ©Ġ
sÄĵn ĠdeĠ
ĠshÃŃĠ xÃŃng
ĠjiÄģĠ ÄĽrĠ
xiÃłĠ xÃºnĠ
diÃłnĠ lÃ¹Ġ
ĠtÃ³ng ĠwÃ¨iĠ
yÃłĠ kÄĵĠ
jiÇĶĠ diÃłn
jiÄĽĠ chÃºĠ
huÃ²Ġ bÃ¬Ġ
ĠĠĠS h
fÄĵnĠbiÃ© ĠshÃ¬Ġ
fÄģĠxiÃłnĠleĠ cÇĲĠtiÄģnĠtÇĲĠ
fÇİĠlÃ¡nĠxÄ« ĠdÃłĠqÅ«Ġ
Ġ tÇĴngĠ
Ġ huÃ¬ĠyÃ¬Ġ
Ġ xuÄĵĠ
guÄģn ĠzhÃ¬Ġ
16 0
ĠyuÃ¨Ġ nÃ¡n
ĠbÄĽnĠ piÃłn
Ġl ÃłĠ
zhÃłoĠ gÃ¹Ġ
shÃ¨Ġ jÃ¬ĠdeĠ
ĠdeĠgÅįngĠ jÄ«Ġ
ĠyÃºĠ200 2ĠniÃ¡nĠ
ĠjiÇİngĠ shÃ¹Ġ
zÅįngĠyÃ¬Ġ jiÃ©ĠmÃ¹Ġ
sÅ«ĠwÃ©iĠ Äģi
jÃ¬ngĠwÃłiĠ shÅ«ĠrÃ¹Ġ
g nĠ
bÃ¨i ĠyÄ«Ġ
yÃ²u ĠbÃ¨iĠ
197 9ĠniÃ¡nĠ
ĠwÃ¨iĠ chÃ©ngĠ
ĠzÃłiĠ dÄģngĠdÃ¬Ġ
ĠlÇĲĠ ÃłoĠ
yÄ«ngĠ wÇĶĠ
Ġt Äģi
mÃłnĠ huÃł
pÃłnĠ duÃłnĠ
ĠgÄģi ĠdÃ¬Ġ
ĠyÃ²uĠ chÄĵng
wÄĽnĠ dÃ¬ng
icros of
ĠĠĠ shÇĲĠ
dÅįng ĠrÃ¬ĠbÄĽnĠ
lÇľ ĠbÃ¹Ġ
yÃŃng ĠdÃ©
chÃ©n ĠjÄ«Ġ
âĢ ĭ
ĠhÃ©Ġ jiÄģĠ
ĠjÃŃĠ ÄĽr
ĠÃ©r ĠdÃ©ĠmÃŃngĠ
sÃ¬Ġ hÅ«Ġ
gÇĶĠ dÅįngĠ
xiÃłoĠ guÇĴ
jiÄģoĠ qÅ«Ġ
ĠjÄ«ngĠ chÃ¡ngĠ
yÃ©Ġ lÃ¹Ġ
ĠshÃŃĠjiÄģn ĠwÃ¨iĠ
huÃ³ĠyuÃ¨Ġ yÃºĠ
tÇİĠnÃŃ ĠdÃłĠqÅ«Ġ
5 7ĠniÃ¡nĠ
N et
r yĠ
Ġ dÇĲĠ
Ġ yÃŃngĠdÃ©Ġ
sh ÄĵĠ
le ĠdÃ¬ĠyÄ«Ġ
zhÇĶ ĠrÃ©nĠ
zhÃ²ng ĠyÃ¬ĠyuÃłnĠ
ĠzÃłiĠ hÃ²uĠ
ĠxÄ«Ġ bÄĽiĠbÃ¹Ġ
ĠwÃ©iĠ fÇİnĠ
jiÄĵĠ tÃ³uĠ
cÇĲĠ cÃ¬Ġ
ĠshÄĵngĠ rÃ¨nĠ
wÃłiĠ jiÃ¨Ġ
ĠzhÃ¨Ġ shÇĲĠdeĠ
Ġt uÃ²Ġ
huÇĴĠ xÄ«ngĠ
xuÄģnĠ gÃłoĠ
wÄĵnĠ quÃ¡nĠ
gÅįuĠ tÅįngĠ
ĠĠĠ ÃłiĠ
ĠĠĠ shÃ¨ĠjÃ¬Ġ
zhÃ¨ng ĠsÄ«Ġ
xiÃ¡ ĠshÃ¬Ġ
bÇİi ĠrÃ©nĠ
dÄ«ng ĠmÃ¹Ġ
ĠdeĠ hÃ²uĠ
ĠdeĠ gÄģoĠ
ĠshÃ¬Ġ pÃŃn
ĠhÃ©Ġ shuÇĲĠ
ĠchÃ©ngĠ xiÃłngĠ
ĠyÄ«Ġ qiÃ¨
ĠyÇĶĠ xÄ«nĠ
ĠzhÄ«Ġ lÃ¹Ġ
ĠmÃŃngĠ quÃ¨Ġ
mÃ¹Ġ shÄ«Ġ
hÇİiĠ guÄģnĠ
Ã©Ġ wÃłiĠ
jiÇİnĠ dÄģn
jiÇİnĠ huÃłĠ
qiÃ¡ngĠ liÃ¨ĠdeĠ
ĠyÃºĠ200 1ĠniÃ¡nĠ
xuÃ¨Ġ yÃ¨Ġ
tÅįngĠguÃ² ĠleĠ
xÃºnĠhuÃŃĠ sÃłiĠ
ĠbÄĽiĠqÇĲĠ shÃ¹nĠshÃŃĠzhÄĵnĠyÇĶĠ
c Åįng
Ġ sÃłi
Ġ hÇİiĠjÅ«nĠ
xuÃ© ĠjÃŃĠ
dÃ© ĠzhÄ«Ġ
tÃ³ng ĠshÃ¬Ġ
wÇĶ ĠlÃ¬Ġ
zu ÇİnĠ
ĠdeĠ qÃŃngĠkuÃłngĠxiÃłĠ
zhÃ¬Ġ zÃłoĠ
shÄĵngĠ wÃ¹
yÃ¹Ġ shÇĲĠ
jÄ«nĠ pÃ¡i
shÄģnĠ dÇĲngĠ
Ġp Ã¹Ġ
8 5ĠniÃ¡nĠ
9 ĠshÃŃĠ
T e
U R
y n
lu Ã¡n
cÄģn ĠzhÃ¨ngĠ
tuÄ« ĠjÃ¬n
ĠshÃŃĠ yÇĴuĠ
ĠxÃŃng ĠzhÅįngĠ
jÄ«ngĠ tÇĲĠ
Ã¨rĠ yÇİngĠhuÃłĠ
jÇĲĠ zhuÄ«Ġ
Ġk Ã²uĠ
yÃ¡Ġ chÇĲĠ
ĠĠĠE n
bÄģĠfÃ¡ ĠlÃ¬ĠyÃł
Ġ ÇĴu
Ġ lÃ³ng
zuÃ¬ ĠxÃŃngĠ
ĠyÃ¬Ġ miÃ¡oĠ
ĠchÅ«Ġ zÃ¬Ġ
shÃ¹Ġ zhÃŃĠ
jiÃ¨Ġ sÃłiĠshÃ¬Ġ
zÇĴngĠ dÅ«
yÇİnĠ huÃł
huÃ²Ġ yÃ¹nĠ
kÄĽĠyÇĲ ĠshÃ¬Ġ
yÃ©ĠlÃ¹Ġ sÄģĠ
g en
m Ã¡nĠ
Ġ nÃ¨iĠrÃ³ngĠ
le ĠshÃŃĠ
wÃ©i ĠlÃ¬Ġ
gÇİi ĠzhÃ¬Ġ
gÄģn ĠyÃ¹Ġ
ĠgÄģoĠ xiÃ³ng
zÄģiĠ nÃłnĠ
7 6Ġ
8 ĠshÃŃĠ
9 ĠmÇĲĠ
p Äĵng
p ac
Ġ chÃºnĠ
sh Ġ
kÄģi ĠxÃŃngĠ
zhÃ²ng ĠyÃ¬ĠyuÃłn
zhÃ¨n ĠxiÃłnĠ
liÇİng ĠbÃ¹Ġ
yÇİn ĠleĠ
yÃłn ĠzhÃ¨ngĠ
ĠshÃ¨ ĠxiÃłnĠ
ĠjÃ¬n ĠpÃŃngĠ
ĠzhÃłnĠ jÃ¹Ġ
kÇĴuĠ jÃ¬ngĠ
zhÃ²ngĠ shÄģngĠ
chÅ«Ġ kÇĴuĠ
fÄģĠdiÃłnĠ chÇİngĠ
pÃ¡iĠhÃ¡ngĠ bÇİngĠ
ĠyÃ¬Ġsi ĠshÃ¬Ġ
7 0ĠniÃ¡nĠ
f Ãł
t en
tÃ³ng ĠbÃ¹Ġ
jiÄģng ĠwÃ©iĠwÃºĠÄĽrĠ
fÇİn ĠshÃ¨Ġ
hÃº ĠdeĠ
kuÃłi ĠjÃ¬Ġ
yÄģ ĠzhÃ¬Ġ
ĠbÃ¹Ġ lÃ¡nĠ
ĠjÃŃĠ jÃ¹Ġ
shÃłngĠ fÇİĠlÃ¡nĠxÄ«ĠdÃłĠqÅ«Ġ
ĠbÃ¬ngĠ duÃ¬Ġ
zhÇĲĠ zÃ©Ġ
quÃ¨Ġ zhÄĽnĠ
ĠwÇĴ ĠdeĠ
biÄģoĠzhÇĶn ĠdeĠ
ĠĠĠb eg
Ġ bÄĵiĠ
fÃ¹ ĠchÅ«Ġ
fÇĶ ĠdeĠ
liÃłng ĠhÃ©Ġ
ĠzÃłiĠ xiÃłĠ
ĠshÃŃĠ qÃ¬
ĠxÄ«Ġ nÃ¡nĠbÃ¹Ġ
zhÇĶĠ guÇİnĠ
xiÄģngĠ hÃ¹
ĠjiÃłnĠ lÃ¬ĠdeĠ
jiÄĵĠ shÅįu
zÄĵngĠ jiÄģ
chÃ¨Ġ lÃŃĠ
ol og
dÃłnĠ bÃ¡iĠzhÃ¬Ġ
duÃ³Ġ qÇĶĠ
ĠĠĠwÃ¨iĠ yÃºĠ
9 9Ġ
m Ã¡i
t ÃłĠ
Ġ zhÃº
Ã© ĠdeĠ
ĠĠĠ yÇĲngĠxiÇİngĠ
zhu Ã¬
wÃº ĠyÃ¬Ġ
dÃ¬Ġ Ã¨r
zhÃ¬Ġ liÃ¡oĠ
jÃ¬Ġ suÃłnĠ
ĠjÃ¬Ġ shÃ¹ĠdeĠ
jiÄģnĠ chÃŃ
jiÃłoĠ xiÇİoĠ
ĠdÃłn ĠyÄ«nĠwÃ¨iĠ
zÇĶĠ zhÇĲ
chÇĶĠlÇĲĠ qÃ¬Ġ
ĠgÅįngĠzuÃ² ĠrÃ©nĠyuÃ¡nĠ
ĠchÅ«ĠbÇİn ĠshÃ¨Ġ
gÄĵĠqÇĶ ĠdeĠ
Ãło ĠdÃ¬Ġ
yÃ¡n ĠxiÃłnĠ
nÃ¨i ĠshÃ¨ĠyÇĴuĠ
xÃ¹ ĠshÃ¬Ġ
tÃº ĠÄĽrĠ
gÃ¹ ĠyÃ¬Ġ
ĠshÃŃĠ yÃ¬Ġ
gÇĶĠ diÇİn
ĠnÃ¡nĠ jÄ«ng
dÄģngĠ jÃº
ĠĠĠA r
xuÃ¨Ġ tÇĴngĠ
ĠgÃ©Ġ lÃ¡nĠ
ĠyÇĲnĠ qÇĲĠ
xuÃ©ĠyuÃłn ĠdeĠ
yuÃ¨ĠzhÅįngĠ xÃºnĠ
1 30
6 5ĠniÃ¡nĠ
E M
c ÄģiĠ
xÄ«n ĠhÃ©Ġ
tÃŃ ĠshÃ¬Ġ
yÃ¹n ĠhuÃ¬Ġ
kÇİ ĠdeĠ
zhÄĵn ĠjÅ«nĠ
ĠjÃ¬Ġ gÅįngĠ
lÃ¡iĠ wÃ¹Ġ
zÃºĠ zÃ¬ĠzhÃ¬ĠqÅ«Ġ
mÃ³Ġ nÇĲ
ĠgÄģi ĠgÅįngĠsÄ«Ġ
miÇİnĠ fÃ¨i
ĠdeĠmÃŃngĠ chÄĵngĠ
7 1ĠniÃ¡nĠ
Ġ kÃłnĠ
yÃ²ng ĠyÇĲĠ
bÇĲ ĠdeĠ
zÃ© ĠÄĽrĠ
qÃ¬ ĠshÃ¬Ġ
on eĠĠĠ
bÄ«n ĠxÄ«ĠfÇİĠ
lÃ³u ĠdeĠ
ĠjÃŃĠ yÃºĠ
ĠyÇĶĠ yÃ¡nĠdeĠ
zhÃŃĠ zÃ©Ġ
bÄĽiĠ cÃ¨Ġ
lÄģĠ fÅ«Ġ
ĠdÃłnĠ shuÇĲĠ
Ġ000 ĠmÃŃngĠ
ĠbÄĽn ĠmÃŃngĠ
bÄĵng Ġk
9 ĠgÃ¨Ġ
Ġ dÃłngĠ
Ġ zhÃŃĠjiÄĵĠ
Ġ zhÃ¹ĠyÇĴuĠ
yuÃ¡n ĠzhÃ¬Ġ
nÃł ĠcuÃ¬Ġ
biÃ© ĠmÃŃngĠ
xÅ« ĠqiÃº
ĠshÃŃĠ biÇİoĠshÃ¬Ġ
ĠguÃ³Ġ jÃ¬
ĠyÄ«Ġ cÃ¬
ĠtÄģ ĠyÃ¬Ġ
ĠyÇĲĠ qÃŃĠ
ĠxÄ«Ġ bÄĽi
jÄ«ngĠ fÃ¨iĠ
ĠÃ©rĠ zhÃ¨Ġ
mÃŃnĠ zhÃ¨ngĠ
tÃŃĠ jiÄģoĠ
wÄĵiĠ nÃŃĠsÄ«Ġ
ĠgÄģiĠ wÃ¹ĠzhÇĴngĠdeĠ
gÄĵnĠ suÃŃ
ĠzÃłiĠ200 5ĠniÃ¡nĠ
mÃ³ĠshÃ¬Ġ chÇİnĠ
wÃ¡ngĠchÃ¡o ĠdeĠ
hÃ¡ngĠkÅįngĠmÇĶ ĠjiÃłnĠ
k Å«
chÃ ²u
yÃ¹ ĠzhÅįngĠ
ĠhÃ©Ġ rÃ©nĠ
chÃ©ngĠ dÃ¹Ġ
ĠgÅįngĠ shÄģngĠ
fÃºĠ tÃ¨Ġ
ĠgÄģiĠ piÃłn
liÃłnĠ xÃŃĠ
chÃ¨Ġ tuÃ¬
dÅįngĠbÃ¹Ġ dÃłĠqÅ«Ġ
1 20Ġ
P h
f li
Ġ xiÄģng
yÇĶ ĠzÃłiĠ
bÃ¨i ĠbÃ¹Ġ
jÇĲ ĠgÃ¨
jiÄģng ĠbÃ¨iĠ
or d
ĠshÃ¬Ġ wÅ«ĠkÃ¨ĠlÃ¡nĠ
mÃŃngĠ xiÇİnĠ
xÄ«nĠ zÄĵng
tÃ¨Ġ shÅ«ĠdeĠ
ĠdeĠyÄ«Ġ tiÃ¡o
hÃ³ngĠ shuÇĲĠ
P C
y leĠ
Ġ lÄģ
Ġ yÅįng
Ġ hÃ¡ngĠ
wÇĶ ĠwÃ¨iĠ
qÃ¬ ĠzhÅįngĠ
zÇĴng ĠshÃ¬Ġ
diÃło ĠrÃ¨nĠ
qÇĲng ĠqiÃº
jiÄģĠ zÃºĠ
shÄĵngĠ zhÇİngĠ
dÃłiĠ lÃ¡iĠdeĠ
ĠkÃ¨ ĠrÃ©nĠ
luÃ³Ġ mÃ©nĠ
jiÇĶĠ bÄģĠ
wÃ¡nĠ chÃ©ngĠdeĠ
dÇİĠ pÃ²Ġ
chÃ³ngĠ zÇĶĠ
ĠyÄĽ ĠbÃ¨iĠ
ĠcÃ©ngĠ jÄ«ng
ĠĠĠ199 3ĠniÃ¡nĠ
8 2Ġ
8 7ĠniÃ¡nĠ
A D
P layStation
Ġ sÄģi
zhÃ¹ ĠshÃ¬Ġ
zÇĶ ĠwÃ¨iĠ
qiÄģn ĠxiÃłĠ
yÃ¬Ġ yuÃ¡nĠ
ĠchÃ©ngĠ jÃŃĠ
ĠyÄ«Ġ wÃłnĠ
ĠzhÄ« ĠhÃ©Ġ
duÃ¬Ġ kÃłngĠ
fÄģĠ yÃ¹Ġ
jÄ«nĠ qÇĶĠ
kÄĽĠ qiÃ¡nĠwÇİngĠ
Ġ19 12ĠniÃ¡nĠ
bÃł ĠgÅįngĠ
luÃ³ĠdÃ¬Ġ yÃłĠ
liÃ¡oĠnÃŃngĠ shÄĽngĠ
O V
Ġ Ãłn
Ġ shÄĵn
yÃ³u ĠdeĠ
fÇİ ĠzhÅįngĠ
jiÄĵ ĠlÃ¬Ġ
gÃ© ĠhÃ©Ġ
liÃº ĠyÃ¬Ġ
tÃłi ĠyuÃ¡nĠ
biÃłn ĠlÃ¬Ġ
shÄĽn ĠlÇĲĠ
ĠyÄ«Ġ duÃłnĠ
mÃŃngĠ nÃŃĠsÅ«Ġ
ĠjiÄģĠ qiÃ¡ng
ĠtÄģĠ biÇİoĠshÃ¬Ġ
zhÃŃĠ lÃ¹
bÇİoĠ xiÇİn
ĠzhÃ¨Ġ chÇİngĠ
qÄ«ngĠ chÅ«nĠ
gÄĵĠ chÃłng
wÅ«Ġ lÇĶĠ
ĠĠĠof ĠĠĠtheĠĠĠ
ĠbÃ¹ĠjiÇĶ ĠhÃ²uĠ
ĠwÃ¨iĠyÃºĠgÄģiĠ shÄĽngĠ
a dĠ
n Ã²ngĠ
xÃ¬ng ĠyÇĶĠ
shÄģn ĠhÃ©Ġ
jiÃ¹ ĠyÇĲĠ
rÃ©ng ĠshÃ¬Ġ
ĠzhÅįngĠ jÃŃĠ
zhÃ¬Ġ jÄ«nĠ
ĠshÃŃĠ wÇĶĠniÃ¡nĠ
ĠyÇĴuĠ zhÃ¹ĠyÃºĠ
ĠguÃ³Ġ jÃŃĠ
ĠguÃ³Ġ gÃ²ngĠ
ĠguÃ³Ġ fÃ¡ngĠ
ĠÄĽr ĠdÃ¬Ġ
ĠjÅ«n ĠbÃ¨iĠ
kÄģiĠ bÃłnĠ
jiÄģnĠ dÅ«
fÃºĠ lÇİngĠ
dÃŃĠ yÃłĠ
ĠtiÄģnĠ wÃ©nĠ
ĠzhÅįngĠgÃ²ng ĠzhÅįngĠyÄģng
fÄģĠxiÃłn ĠyÃºĠ
Ġ lÃºnĠ
Ġ nÃ¨iĠbÃ¹Ġ
Ġ 25Ġ
shÃ¨ ĠyÃºĠ
dÃ²ng ĠshÃ¬Ġ
lÃ¡n ĠzhÅįuĠ
tÃłi ĠjÃŃĠ
bÃłn ĠbÃ¹Ġ
ĠwÃ¨iĠ tÄģĠ
wÃ©iĠ kÃ¨Ġ
ĠjÅ«n ĠjÃŃĠ
Ġp ÇĴ
qÇĶĠ dÃłi
yÇĲnĠ qÃŃng
ĠshÇĲ ĠqÃŃĠ
ĠĠĠ199 6ĠniÃ¡nĠ
cÃ¡n ĠjÃŃĠrÃ©nĠ
yÇĶnĠshÃŃĠ kÄĵngĠ
bÃłiĠzhÃłnĠ tÃŃng
e or
Ġ nÃŃng
Ġ bÄģoĠhÃ¡n
yÃ¹ ĠhÃ©Ġ
duÃ¬ ĠtÄģĠdeĠ
jiÇĶ ĠmÃŃngĠ
196 8ĠniÃ¡nĠ
ĠzÃłiĠ tÃ¡iĠwÄģnĠ
dÃłĠ yuÄĵĠ
ĠyÇĲ ĠchÃ©ngĠwÃ©iĠ
diÃłnĠ dÃ²ngĠ
ĠzhÃ¨ngĠ quÃłnĠ
tÇĲĠ xÃ¬
bÄģĠ hÃ¨Ġ
luÃ²Ġ shÄģnĠ
Ġ19 29ĠniÃ¡nĠ
ĠzuÃ¬Ġ hÃ²uĠyÄ«Ġ
ĠshÃ¬ĠshÃ¬Ġ jiÃ¨Ġ
dÅįngĠjÄ«ngĠ dÅ«Ġ
huÃ¡ĠshÃ¨ngĠ dÃ¹nĠ
sÄģnĠjiÇİo ĠxÃŃngĠ
ĠĠĠen dĠ
Ġ á
kÄĽ ĠyÃ³uĠ
lu ÇĴ
guÃ² ĠshÃ¬Ġ
shÃ©n ĠfÃ¹Ġ
fÃłn ĠdeĠ
mÃ©ng ĠdÃ©Ġ
xiÅ« ĠshÃ¬Ġ
gÃło ĠzhÅįngĠ
ĠguÃ³Ġ zhÅįngĠ
jÃ¹Ġ chÇİngĠ
nÃ¡nĠ zhÇĶĠjuÃ©Ġ
qÇĲĠ tÃºĠ
qÃ¬Ġ guÄģnĠ
zÃºĠ gÃ²uĠdeĠ
qiÄģnĠ wÇİngĠ
nÃ³ngĠ dÃ¹Ġ
tuÄ«Ġ cÃ¨Ġ
tÅ«Ġ pÃ²
suÄģnĠ yÃ¡nĠ
ĠbÄģ ĠyuÃ¨Ġ
ĠdÃłĠshÇĲĠ guÇİnĠ
6 2ĠniÃ¡nĠ
8 7Ġ
9 1
m ÄĽng
p o
Ġ mÃŃnĠzhÇĶĠ
ĠĠĠ 2ĠyuÃ¨Ġ
yÃ¹ ĠshÃ¬Ġ
quÃ¡n ĠjÄ«Ġ
yÃ¨ ĠzhÅįngĠ
tÇĲ ĠhÃ©Ġ
bÄģ ĠkÃ¨Ġ
ĠzÃłiĠ jÃŃĠ
ĠrÃ¬Ġ ÄĽrĠ
fÄģĠ yÃ¡nĠ
shÇĴuĠ gÄĵĠqÇĶĠ
ĠtÃ³ng ĠyuÃ¨Ġ
chÄĵĠ shÇĴuĠ
guÄ«Ġ gÃ©Ġ
lÇĲngĠ xiÃ¡n
yÄ«nĠ cÇĲ
zhuÇİnĠ bÅįĠ
huÇĲ ĠleĠ
ĠhuÃłĠ xuÃ©
liÃ¡nĠxÃ¹ ĠjÃ¹Ġ
sÃłng ĠshÄĵngĠ
8 1Ġ
Q u
qÅ« ĠyÃ¬ĠyuÃ¡nĠ
fÇİ ĠzhÃ¬Ġ
shÇĴu ĠÄĽrĠ
jiÃ¹ ĠrÃ¨nĠ
jiÄĽ ĠsÃłn
an c
zhÅ« ĠduÅįĠ
kÃłn ĠdÃło
ĠzÃłiĠ yÃŃĠgÃ¨Ġ
yuÃ¡nĠ yÄ«nĠ
ĠyÃ¬Ġ qÃŃng
ĠzhÄ«Ġ qiÃºĠduÃ¬Ġ
xÄ«nĠ zÄĵngĠ
xiÄģngĠ liÃ¡nĠ
ĠdÃ©Ġ lÃ¡nĠ
bÇĲĠ 2Ġ
yÇĲĠ qiÃ¡nĠ
suÃŃĠ zhe
Ġ190 9ĠniÃ¡nĠ
inc lu
7 8Ġ
S t
v en
yÃ¹ ĠwÃ¨iĠ
wÇĶ ĠdÃłĠ
lÃŃn ĠjÃ¬nĠdeĠ
197 8ĠniÃ¡nĠ
lÃº ĠxÃŃngĠmÃ¹Ġ
ĠhÃ©Ġ pÃŃng
yÄ«Ġ mÃŃngĠ
yÃ¬Ġ bÄģnĠ
ĠyÇĴuĠ hÇİoĠ
ĠxÃŃngĠ zÇĴuĠ
kÄģiĠ qÇĲĠ
jiÃłoĠ duÅįĠ
cÃŃĠ shÃłn
biÄģoĠ tÃŃĠ
kÄģiĠshÇĲĠ leĠ
cÇİiĠ fÇİngĠ
mÃ¬ngĠ yÃ¹nĠ
ĠdeĠchÃ©ngĠ gÅįngĠ
6 4ĠniÃ¡nĠ
9 5Ġ
Ġ xiÃ³ng
le ĠyÇĲĠ
dÃło ĠdÃ©Ġ
198 3ĠniÃ¡nĠ
ĠjÄ«Ġ zhÃ²ngĠ
juÃ©Ġ cÃ¨Ġ
liÃ¨Ġ diÄģnĠ
ÃłiĠ shÄģĠ
zÃºĠ xiÃ©
kÇİĠ sÄ«ĠdÃ¬ĠlÃ¬Ġ
xiÄģnĠ qiÃ¡nĠ
ĠĠĠS ta
shÄĽnĠ yÃ¡ngĠ
bÄģĠshÃ¬Ġ lÃ¹ĠxiÃłnĠ
ĠwÇĶ ĠyuÃ¨Ġ
cuÄ«Ġ huÇĲĠ
ĠĠĠgÃłiĠ shÃ¹Ġ
guÃ²ĠqÃ¹ ĠdeĠ
7 9ĠniÃ¡nĠ
7 4Ġ
U C
Ġ qÇĶĠdÃłiĠ
duÃ¬ ĠchÃ©ngĠyuÃ¡nĠ
shÃłng ĠyÇĶĠ
duÅį ĠlÃ¬ĠyÃł
ĠjÃŃĠ yÇĶĠ
ĠqÃŃ ĠyÃ¬Ġ
ĠkÃ¨ ĠshÃ¬Ġ
ĠdÃ©Ġ fÄĵnĠ
jÄ«ngĠ yÄ«ngĠ
jiÃłoĠ gÄģoĠdeĠ
gÃ©Ġ lÄĵiĠ
zuÃ¬Ġ xÄ«nĠ
bÇİoĠ yÃ¹Ġ
xÃŃĠ sÃºĠ
dÃºĠ shÅ«Ġ
ĠmÄĽi ĠrÃ¬Ġ
zhÃŃĠyÃ¨Ġ shÄĵngĠyÃ¡
liÃ¡nĠsÃłi ĠqiÃºĠduÃ¬Ġ
guÇİngĠbÅįĠ diÃłnĠtÃ¡iĠ
fÃ¹ĠzÃ© ĠrÃ©nĠ
ĠĠĠbeg inĠ
8 4ĠniÃ¡nĠ
Ġ zhÇİnĠ
Ġ hÃ¡iĠshÃ¬Ġ
dÃ¹ ĠshÃ¬Ġ
zhÃŃ ĠrÃ©nĠyuÃ¡nĠ
wÃ©n ĠdÃ¬Ġ
tÃ¨ ĠyÇĶĠ
chuÃłng ĠyÃ¬Ġ
gÄĽi ĠchÅ«Ġ
ro w
ĠrÃ¬ ĠyuÃ¡nĠ
ĠdÃłoĠ dÃ©Ġ
shÇĲĠ zhÄĽĠ
ĠkÃ¨ ĠzÃłiĠ
mÃ¹Ġ dÃ¬ĠshÃ¬Ġ
xÃ¬ngĠ cÃºnĠ
chÃ¡ngĠ shÄģĠ
ĠhuÃ²Ġ yÃ¹nĠ
jiÄģoĠ huÃłn
shÃ©nĠ mÃ¬Ġ
zhÃ¨ngĠshÃ¬Ġ chÃ©ngĠlÃ¬Ġ
11ĠyuÃ¨Ġ 1ĠrÃ¬Ġ
lÃ¨Ġ bÇĲĠ
ĠbÃ¹ĠtÃ³ng ĠyÃºĠ
Ġsection ĠĠĠbeginĠ
3 ĠgÅįngĠlÇĲĠ
7 6ĠniÃ¡nĠ
Ġ fÅ«Ġ
Ġ qiÇİnĠ
Ġ yÃłĠzhÅįuĠ
ĠĠĠ lÃ¬ng
yÇĴu ĠbÃ¹ĠtÃ³ngĠ
fÃ¹ ĠbÃ¹Ġ
shÇĴu ĠshÃ¬Ġ
liÃ¡n ĠxiÃłnĠ
guÇİn ĠdÃłoĠ
tuÅį ĠkÃ¨Ġ
197 0ĠniÃ¡nĠ
guÃ¬ ĠdeĠ
ĠshÃŃĠ sÄģnĠniÃ¡nĠ
ĠgÅįngĠ Äģn
ĠtÄģĠ yÄĽĠshÃ¬Ġ
ĠmÃŃngĠ lÃ¹Ġ
chÇİngĠ jÇĲng
cÃ¬Ġ ziĠ
sÃ¬Ġ yuÃłnĠ
ĠdeĠbÃ¹Ġ fÃ¨n
hÃ¹nĠ xi
sÄ«ĠdÃ¬Ġ ÄģnĠ
ĠÃ¨r ĠrÃ©nĠ
j ec
Ġ bÃ³ĠshÃ¬Ġ
Ġ dÅįngĠxÄ«Ġ
fÇİ ĠrÃ©nĠ
hÇİi ĠjÅ«nĠdeĠ
dÇİ ĠjÃ¬nĠ
ĠchÃ©ngĠ guÇĴĠ
sÄ«Ġ tÃ¨Ġ
ĠdÃłoĠ lÃ¹
yÃ¡nĠ lÃ¹n
ĠqiÃº ĠjÃ¬Ġ
bÇĲĠ cÇĲĠ
qÄ«ngĠ hÇİiĠ
ĠdÅįngĠ fÄģngĠ
gÇİnĠ qÃŃngĠ
Ġzh ÇİoĠ
yÃ¡oĠ gÇĶn
ĠĠĠbÄĽnĠ shÇĶĠ
dÅįngĠnÃ¡nĠ yÃłĠ
ĠsÃ¬ ĠyuÃ¨Ġ
ĠniÃ¡nĠshÃ¬ĠjiÃ¨Ġ bÄĵiĠ
ĠĠĠqÃŃ ĠhÃ²uĠ
jiÄĵĠxiÃłĠ lÃ¡iĠdeĠ
ĠdÃłiĠmÇİĠwÃ¨iĠ 0
shÃłng ĠzÃłiĠ
dÃłi ĠÄĽrĠ
shÃ©n ĠxuÃ©Ġ
zÇİi ĠxiÃłngĠ
kÇĴng ĠjÃ¹Ġ
ĠwÃ¨iĠ zhÄ«Ġ
ĠjÃ¬Ġ sÃ¬Ġ
ĠjiÃłn ĠjiÃłnĠ
ĠhÃ²uĠ fÄģngĠ
ĠÄĽr ĠkÃ¨Ġ
lÃ¹Ġ xÃ¹
yÃŃĠ jÅ«Ġ
sÄģnĠ shÃŃĠniÃ¡nĠ
jiÇİnĠ pÇĶĠ
zÃºĠ gÃ²uĠ
jÇĲngĠ bÃłoĠ
cÃ¨Ġ huÃłĠ
eĠĠĠ M
piÃłoĠ fÃ¡ng
bÇİoĠhÃ¹Ġ qÅ«Ġ
ĠdeĠjÄ«Ġ bÄĽnĠ
ĠhÃ©ĠbÄĽiĠ shÄĽngĠ
xÃºnĠhuÃŃĠ yÇİnĠchÃłngĠhuÃ¬Ġ
5 3ĠniÃ¡nĠ
B DĠ
I G
gu Çİ
yÃº ĠniÃ¡nĠ
gÃ¨ ĠgÃ¨Ġ
le n
196 4ĠniÃ¡nĠ
ĠshÃŃĠ huÃ¬Ġ
ĠyÃ¬Ġ zuÃ²Ġ
ĠchÃ©ngĠ zhÃ¨n
shÃłngĠ shÄĵngĠ
jÃ¹Ġ diÇİnĠ
ĠdÃłn ĠzhÃ¨Ġ
diÃłnĠ rÃ³ngĠ
ĠrÃ¨nĠ qÄ«Ġ
ĠhuÃ²Ġ shÃ¨ngĠ
jiÄģoĠ diÇİnĠ
kÃ²ngĠ gÇĶ
mÃłoĠ xiÇİn
nÇĲĠ zhuÄģnĠjÃŃĠ
ĠhÃ²uĠlÃ¡i ĠbÃ¨iĠ
ĠqÄ« ĠyuÃ¨Ġ
ĠyÃ²ng ĠyÇĲĠ
7 7ĠniÃ¡nĠ
p Ã¨ngĠ
Ġ jÇĲng
Ġ sÄģnĠniÃ¡nĠ
Ġ juÃ©ĠdÃ¬ng
shÃłng ĠyÇĲĠ
mÃ¹ ĠzhÅįngĠ
gÄģi ĠniÃ¡nĠ
luÃ³ ĠdeĠ
liÃ¨ ĠjiÃłnĠ
hÃło ĠzÃłiĠ
shÃ©n ĠqÃŃĠ
ro m
ĠwÃ¨iĠ bÃ¹Ġ
ĠhÃ©Ġ mÄĽiĠguÃ³Ġ
dÃłĠ chÃ©nĠ
nÇļĠ gÄĵĠshÇĴuĠ
cÃ¨Ġ lÃ¼Ã¨
ĠdeĠyÄ«Ġ xiÄĵ
Ġk ÄĵngĠ
ĠĠĠ199 2ĠniÃ¡nĠ
kÄĽnĠ dÃ¬ngĠ
kÄĽnĠ tÇİĠjÄ«Ġ
ĠsÄģn ĠguÃ³Ġ
suÇĴĠxÅ« ĠdeĠ
1 ĠzhÃ¬Ġ
Ġ pÃłnĠ
Ġ hÃ³uĠ
Ġ gÃłnĠ
ji Ã¡Ġ
ĠĠĠ 7Ġ
le rĠ
tu ÇĲ
dÇİo ĠxiÃłnĠ
lÃŃn ĠshÃ¬Ġ
guÃłn ĠmÃ¹Ġ
ĠbÃ¹Ġ bÄ«ng
ĠlÃ¬Ġ chÃ©ngĠ
ĠxÃŃng ĠyÃºĠ
xiÃłĠ tiÄģnĠ
ĠjÅ«nĠ zhÇİngĠ
chuÃ¡nĠ jiÃłoĠshÃ¬Ġ
ĠshÇĴuĠ xiÄģnĠ
dÇİoĠzhÃ¬Ġ leĠ
tÅ«Ġ juÃ©Ġ
yÃ©Ġ fÅ«Ġ
mÄĽiĠshÃ¹Ġ guÇİnĠ
nÃ¡ĠpÃ²Ġ lÃºnĠ
gÃłoĠshÃ¬Ġ pÃ¡iĠ
s ch
Ġ guÇĲ
Ġ ruÃ¬ĠdiÇİnĠ
lÃ¡n ĠdÃ©Ġ
xÃŃ ĠjÃ¬nĠpÃŃngĠ
huÃ¡ng ĠhÃ©Ġ
yÄ«Ġ xiÄĵ
ĠyÄ«Ġ gÃ²ngĠ
yÃ²ngĠ hÃ¹
chÃ¡ngĠ zhÃ¹
jiÃ¨Ġ miÃłnĠ
xÄ«ngĠ qÇĲĠ
8ĠyuÃ¨Ġ 1ĠrÃ¬Ġ
ĠyÄĽĠ chÄĵngĠ
tuÄ«Ġ fÄģnĠ
tiÄĽĠlÃ¹ ĠgÅįngĠsÄ«Ġ
Ġ yÃ¬ngĠ
Ġ yuÃ¡nĠwÃ¨iĠ
bÃ¨i ĠrÃ©nĠ
liÃº ĠxÃŃngĠdeĠ
qiÄģn ĠniÃ¡nĠ
yÃŃng ĠdÃ¬Ġ
gÇİn ĠdeĠ
cÃºn ĠyÃºĠ
ĠyÄ«Ġ cÃŃ
ĠxÃŃngĠ wÃ©i
yuÃłnĠ xiÃłoĠ
bÄģoĠkuÃ² ĠleĠ
wÄĵiĠ yÃŃĠ
eĠĠĠ C
ĠdÃłĠxuÃ©Ġ jiÃłoĠshÃ²uĠ
miÇİnĠ diÄģn
tÃ³uĠrÃ¹Ġ shÇĲĠyÃ²ngĠ
dÄģ ĠzÃłiĠ
zhuÃłn ĠjÃ¬Ġ
hÃłnĠlÃŃnĠ yuÃłnĠ
a tĠ
Ġ jiÃłngĠ
Åįu ĠzhÅįuĠdeĠ
zhÃłn ĠjiÃłnĠ
pÃŃng ĠjÃŃĠ
yÃłng ĠbÄĽnĠ
ĠdÃ¬Ġ 4Ġ
ĠyÄ«Ġ duÃ¬Ġ
ĠyÄ«Ġ hÃłoĠ
ĠchÅ«Ġ shÄĵngĠzÃłiĠ
jÄ«ngĠ diÇİn
zÃ©Ġ rÃ¨n
ĠxÄ«nĠ jiÄģngĠ
nÃŃĠ gÇĶĠlÄģĠ
zÄ«Ġ jÄ«n
zhÄĵngĠ qÃ¬Ġ
qiÄģnĠ rÃ¹Ġ
dÃºĠ tÃ¨Ġ
chÇĶĠ lÇĲ
pÄģi ĠshÃ¨ĠdeĠ
zhÃłnĠzhÄĵng ĠzhÅįngĠ
yÃ³uĠxÃ¬ ĠzhÅįngĠ
xiÄģngĠdÄģng ĠyÃºĠ
c on
ĠĠĠ cÃ³ng
ĠĠĠ 1ĠyuÃ¨Ġ
mÇİ ĠdÃ¬Ġ
yÃ³uĠ lÃ¡iĠ
shÄ«Ġ zÅįngĠ
ĠyÃ³uĠ kÃ¨Ġ
yÃłĠ tÃ¨Ġ
ĠshÃ¨Ġ dÃ¬ngĠ
cÃ¡iĠ dÃ¬ngĠ
cÄģnĠ kÇİo
ĠK Ġ
ĠsuÅįĠ xiÄĽĠ
Ġsection ĠĠĠendĠ
B M
n ÇİĠ
r am
s ĠdeĠ
Ġ jiÄģn
Ġ tÃ¡o
Ġ quÃ¡nĠbÃ¹Ġ
ĠĠĠ zhÃ¹ĠzuÃ²Ġ
sÄ« ĠjÃŃĠ
dÃ© ĠkÃ¨ĠsÃłĠsÄ«Ġ
xiÃłng ĠtÄģĠ
tÃ¡i ĠjÃŃĠ
xiÇİo ĠpÃŃngĠ
mÃ¬ ĠxÄ«ĠxÄ«Ġ
ĠyÇĲ ĠgÅįngĠ
ĠsÄ«Ġ dÃ¹nĠ
ĠjÅ«n ĠgÅįngĠ
shÇĴuĠ fÇİĠ
ĠwÃ©iĠ yÄ«ĠdeĠ
kÄĽĠ fÄĵnĠwÃ©iĠ
cÃ¬Ġ liÃ¨ĠchÄĵĠ
yÃ¹nĠ suÃłnĠ
wÇİngĠ mÃŃnĠ
ĠzhÃ¨ ĠlÇĲĠ
Ã©rĠ zi
ĠyÇĴuĠyÄ«Ġ xiÄĵ
zÅ«Ġ jiÃ¨
ĠhuÃ²ĠdÃ© ĠyÄ«ĠmÃ©iĠ
ĠĠĠ Z
ĠĠĠ dÃłiĠ
qiÃ¡n ĠyÄ«Ġ
yuÄĵ ĠkÃ¨Ġ
yÃ¡ng ĠjÄ«Ġ
chuÄģn ĠzhÃ¹Ġ
rÃłng ĠrÃ©nĠ
ĠshÃ¬Ġ qÃŃĠ
ĠwÃ¨iĠ gÄģiĠ
chÃ©ngĠ zhÃ¨nĠ
ĠdÃłĠ liÃłngĠdeĠ
ĠyuÃ¡nĠ sÃ¹
fÃ¹Ġ xÄ«ng
ĠzhÅįu ĠguÃ³Ġ
kÄģiĠ bÅįĠ
ĠÃ©rĠ fÄĵi
ĠxiÃłĠ xiÃ¡Ġ
tÃºĠ jÄ«ngĠ
zhuÄģnĠ kÄĵĠxuÃ©Ġ
ĠrÃºĠ cÇĲĠ
hÄĽnĠ kuÃłi
ĠliÇİng ĠguÃ³Ġ
biÃłnĠchÃ©ngĠ leĠ
zhuÄ«ĠsÃ¹ ĠzhÃ¬Ġ
ĠxÄ«nĠjiÄģĠp ÅįĠ
diÃłnĠzÇĲ ĠyÃ³uĠxÃ¬Ġ
6 8ĠniÃ¡nĠ
jÅ«n ĠrÃ©nĠ
fÄģ ĠyÄ«nĠ
huÃł ĠchÃ©ngĠ
10 ĠgÃ¨Ġ
zhuÄģng ĠyÇĴuĠ
jiÃł ĠrÃ¬Ġ
197 5ĠniÃ¡nĠ
ruÃ¬ ĠkÃ¨Ġ
ĠshÃŃĠ biÃ©Ġ
ĠyÃ¬Ġ tÃŃĠ
sÄ«Ġ fÇİĠ
jÃ¹Ġ juÃ©
ĠjiÃłnĠ leĠ
zhÇİngĠ wÃ²
ĠzhÃ¨ngĠ dÇİngĠ
Ã¨Ġ tÃºĠ
ĠduÅįĠ shÃ¹Ġ
dÇİngĠ wÄĽiĠ
xÃŃngĠ xiÃłngĠ
ĠyÃºĠ199 8ĠniÃ¡nĠ
ĠzÃłiĠcÇĲĠ qÄ«ĠjiÄģnĠ
7 8ĠniÃ¡nĠ
7 3Ġ
A I
G oog
Ġ tÇĶ
Ġ shuÄģng
Ġ qiÇİngĠ
ch ÇİoĠ
xiÃłn ĠzÃłiĠ
zhÃ²ng ĠyÃ¬ĠyuÃ¡nĠ
nÇļ ĠshÃ¬Ġ
mÇĶ ĠshÃ¬Ġ
on eĠ
25 0Ġ
ĠbÃ¹Ġ gÅįngĠ
ĠyuÃ¨Ġ qÃ¬Ġ
duÃ¬Ġ fÄģngĠ
ĠjiÃłnĠ zhÃ¨ngĠ
fÄĵnĠ fÄĵnĠ
xiÄģoĠ miÃ¨Ġ
ĠrÃ©nĠkÇĴuĠ pÇĶĠchÃ¡Ġ
Ġk Ãło
ĠshÇĴuĠ cÃ¬
el lĠ
oo kĠ
Ġsh ÇİnĠ
ĠzÃłiĠzhÅįngĠguÃ³Ġ dÃłĠlÃ¹Ġ
ĠdÃłĠduÅįĠ shÃ¹
mÃ¡oĠzÃ©Ġ dÅįng
sÅ«ĠwÃ©iĠ ÄģiĠ
ĠjiÄĵĠwÃ¨iĠ lÃ¹ĠdÃ¬Ġ
g ÇĴu
g ÄĽngĠ
Ġ jiÄĵĠshÃ²uĠ
ĠĠĠ jiÄģngĠ
ĠĠĠ zhÃłnĠhÃ²uĠ
yÃ¹ ĠyÇĴuĠ
jÄ«n ĠzhÅįngĠ
sÃłi ĠshÃ¬ĠzhÅįngĠ
dÇİo ĠdÃłn
mÇĶ ĠyÇĶĠ
shÃ¹n ĠtiÄģnĠ
ĠlÃ¬Ġ jÄ«ngĠ
ĠsÄ«Ġ xiÇİng
zÃ¬Ġ zhÇĶĠ
guÄģnĠ yÄ«nĠ
ĠyÄ«n ĠhÃ©Ġ
jiÃłoĠ xiÇİoĠdeĠ
wÃ©nĠ shÅ«Ġ
bÄĽiĠ lÃ¹Ġ
hÇİiĠ wÃłi
xuÇİnĠ piÃłoĠ
liÃłngĠ zÇĲ
jiÃ¹Ġ kÄĽĠyÇĲĠ
jÇĲngĠ bÃło
Ġ19 24ĠniÃ¡nĠ
suÃŃĠ zhÃ¹
ĠdÄģngĠ jÃºĠ
rÃ¨Ġ mÃ©nĠ
ĠtÃ³ngĠniÃ¡nĠ 9ĠyuÃ¨Ġ
zÃºĠqiÃºĠ liÃ¡nĠsÃłiĠ
ta in
ĠsuÃŃĠ hÃ²u
ĠdiÃłnĠ ziĠ
C R
p Äĵn
t Åįu
Ġ aĠ
yÇĴu ĠshÃ¬Ġ
shÃłng ĠhÃ©Ġ
chÃ¡ n
jÃ¬n ĠchÃ©ngĠ
zhÇİng ĠlÇĲĠ
zÄ« ĠdeĠ
la r
wÃ² ĠsÄ«Ġ
ĠzÃłiĠ bÄĽiĠjÄ«ngĠ
zhÇĶĠ zhÄģng
lÃ¹Ġ yÇĲngĠ
fÄĵnĠ shÃ¹Ġ
kÄĽĠ yÃ²ngĠyÃºĠ
xiÇİoĠ xiÃłngĠ
kÄģnĠ wÃ¹Ġ
Ġ14 9
yÃºnĠnÃ¡nĠ shÄĽngĠ
cÃ¹ ĠjÃ¬n
shÇİnĠxÄ«Ġ shÄĽngĠ
lÇĲĠgÅįngĠ dÃłĠxuÃ©Ġ
ĠshÃ¬ĠshÃ¬ĠjiÃ¨ ĠshÃłngĠ
nÃ¡n ĠzhÃ¬Ġ
lÃ¡i ĠdÃ©Ġ
jiÃło ĠyÃ¬Ġ
cÇĲ ĠyÄ«Ġ
zhÇĴng ĠjiÄģĠ
qiÄģn ĠshÃ¬Ġ
hÃ³ng ĠshÃŃĠzÃ¬Ġ
ĠwÃ¨iĠ rÃ¨ĠdÃłiĠ
ĠhÃ©Ġ mÇİĠ
ĠzhÅįngĠ shÃŃĠ
ĠzhÅįngĠ yÃ¬Ġ
lÃ¬Ġ ziĠ
ĠyÃ¬Ġ chÃ©ngĠ
liÃ¡nĠ bÅįĠ
jiÄĵĠ qÅ«Ġ
nÃ©ngĠ lÃ¬ĠdeĠ
lÇľĠ shÄ«
shÃ©nĠ jÄ«ng
xiÄģnĠ fÄģĠ
jÃºĠ miÃłnĠ
Ġf ÄĽi
ĠdÃ¬ĠshÃŃĠ Ã¨rĠ
5 5ĠniÃ¡nĠ
yÇĴu ĠbÃ¹ĠtÃ³ngĠdeĠ
pÃŃng ĠxÄ«Ġ
tÃłi ĠÄĽrĠ
te l
ĠwÃ©iĠ kÃ¨Ġ
gÄģoĠ fÄĵngĠ
zÄ«Ġ biÃ©
shÄģĠ hÃłi
ĠĠĠlÃ¬ĠshÇĲĠ yÃ¡nĠgÃ©Ġ
fÄģĠshÄĵngĠ hÃ²uĠ
ĠzhÇĲĠ yÃłoĠ
ĠdÃł ĠwÃ¨iĠ
mÃ³ĠtÃ¨ ĠÃ©rĠ
T E
Ġ bÃłi
shÇĲ ĠsÄ«Ġ
jÃ¹ ĠrÃ©nĠ
jiÃ© ĠzhÃ¬Ġ
fÃº ĠkÃ¨Ġ
dÃ¡ ĠhÃ©Ġ
jiÇĶ ĠzhÅįuĠ
ĠniÃ¡nĠ lÃŃng
ĠyÄ«Ġ xuÃ©ĠyuÃłnĠ
ĠduÃ¬Ġ yÃ¬ngĠ
fÄĵnĠ liÃ¨
ĠshÃ¨Ġ bÃ¨i
pÃ¡iĠ fÃłngĠ
hÃ¡nĠ gÃłiĠ
wÇĴĠ menĠdeĠ
ĠshÃ¬ĠjiÃ¨ ĠgÃ¨ĠdÃ¬Ġ
ĠbÇİoĠ luÃ³Ġ
ĠlÃ¬ĠfÇİĠ wÄĽiĠyuÃ¡nĠ
ĠIST AT
4 00Ġ
G C
Ġ tÃ¡n
ĠĠĠ duÅįĠ
shÃ¨ ĠjÄ«Ġ
jiÃłn ĠyÃºĠ
xiÄģng ĠdÃłoĠ
xiÃłng ĠyÇĶĠ
wÇĶ ĠrÃ©nĠ
ku ÄģĠ
shÄģ ĠleĠ
huÃŃ ĠfÃ¹Ġ
ĠdeĠ jÃŃĠ
ĠzÃłiĠ 2010ĠniÃ¡nĠ
ĠbÃ¹Ġ zÃº
ĠshÃŃĠ zÃ¬
dÃłĠ dÅįngĠbÃ¹ĠdÃłĠqÅ«Ġ
ĠyÄ«Ġ lÃłiĠ
ĠdÃłĠ yÇĶĠ
ĠhÃ²uĠ lÃ¡iĠdeĠ
ĠjÄ«Ġ qÃ¬ĠrÃ©nĠ
xÄ«nĠ shÄĵngĠ
ĠbÃ¬ngĠ jiÄģngĠqÃŃĠ
qÇĲĠ fÄģĠ
chÄĵngĠ hÅ«
ĠhÃ©ĠguÃ³Ġ jiÄģĠ
aĠĠĠ M
Ġ xÄ«nĠdeĠ
Ġ kÄĽĠnÃ©ngĠshÃ¬Ġ
lÇĲ ĠyÇĴuĠ
fÇİ ĠhÃ©Ġ
kÄĽ ĠxÃŃngĠ
shÄ« ĠlÃ¬Ġ
cÃ¬ ĠrÃ¬Ġ
dÅįu ĠyÇĲĠ
shÄĽn ĠyÃ¬Ġ
ĠdeĠ yÇĴuĠ
ĠdeĠ shuÅįĠfÇİĠ
ĠyuÃ¨Ġ qiÃºĠ
ĠlÃ¬Ġ ÄģnĠ
ĠyÄ«Ġ xÃ¬ĠliÃ¨Ġ
ĠtÄģĠ cÃ³ngĠ
dÅįngĠ bÃ¹ĠdeĠ
ĠzhÅįuĠ biÄģn
zhÇĲĠ biÄģoĠ
ĠjÃ¹Ġ chÇİngĠ
liÃºĠ lÃłngĠ
biÄģnĠ jÃ¬ng
biÄģnĠ fÃºĠ
ĠyÄĽĠ mÃ©iĠyÇĴuĠ
niÇĶĠyuÄĵ ĠshÃ¬Ġ
Ġ in
Ġ zÇİoĠniÃ¡nĠ
jiÄģ ĠshÃŃĠ
huÃ¬ ĠchÃ©ngĠyuÃ¡nĠ
zhÃ²ng ĠxÃŃngĠ
huÃ¡ ĠyÇĶĠ
xiÅ« ĠxÄ«Ġ
ĠzÃłiĠ bÄģĠ
ĠbÃ¹Ġ luÃ²
jÃ¬Ġ hÃ²uĠ
yÃ¡nĠ hÇİi
ĠshÃłngĠ shÄĵngĠ
fÃłnĠ diÃłnĠ
ĠyÄĽ ĠzÃłiĠ
chÅįngĠ fÃ¨nĠ
sÄģiĠ bÃłi
kÄĵĠjÃ¬Ġ dÃłĠxuÃ©Ġ
jiÄģĠlÃ¬ĠfÃºĠ nÃŃĠyÃł
4 2ĠniÃ¡nĠ
e mi
i de
Ġ shÃ¹
Ġ chÃ¹Ġ
Ġ piÃłnĠ
Ãłi ĠhÃ©Ġ
bÇİo ĠshÃ¬Ġ
al lĠ
dÃ¬Ġ sÄģnĠ
ĠshÃŃĠ shÃŃĠ
ĠyÇĶĠ lÇĲĠ
ĠzhÄ«Ġ nÇļĠ
xiÃłngĠ qiÃ¡nĠ
yÃ¨Ġ wÃ¹
lÃŃnĠ nÃłĠ
xÇĲĠ ÃłiĠ
huÇİnĠ mÃłnĠ
xÄ«nĠlÇĲĠ xuÃ©Ġ
ĠshÃ¬ĠyÄ«ĠkÄĵĠ hÃ©ngĠxÄ«ngĠ
Ġ guÇİngĠzhÅįuĠ
qu Çİn
tÇĲ ĠzhÅįngĠ
wÃłi ĠxÃŃngĠ
194 4ĠniÃ¡nĠ
194 8ĠniÃ¡nĠ
fÇİng ĠzhÄ«Ġ
ĠjÄ«Ġ qÃ¬Ġ
ĠjÅ«nĠ tuÃ¡n
cÃ¬Ġ quÃ¡nĠguÃ³Ġ
liÇİngĠ cÃ¨
Ġ5 00
shÄĽnĠ chÃ¡
pÃ©iĠ yÇİng
6 00
7 9Ġ
Ġ zhÄģo
Ġ fÄģĠbÃ¹Ġ
Ġ ÅįuĠzhÅįu
Ġ qiÃ³ng
Ġ chÃ¨ĠxiÄģoĠ
ĠĠĠ zuÃ²Ġ
ĠĠĠ qÃ¬ĠhÃ²uĠ
huÃł ĠxiÃłnĠ
bÃłi ĠdeĠ
195 0ĠniÃ¡nĠ
ĠyuÃ¨Ġ dÃºĠ
ĠgÅįngĠ guÃ³Ġ
ĠyuÃ¡nĠ xÃŃng
xÄ«Ġ fÄģngĠ
zhÃ¹Ġ fÃ¡ngĠ
shÇĴuĠ qiÄģngĠ
ĠkÃ¨Ġ lÇĶĠ
ĠfÃ¹Ġ nÇļĠ
gÃ²uĠ wÃ¹Ġ
shÃ¨Ġ dÃ¬ngĠ
6ĠyuÃ¨Ġ 30ĠrÃ¬Ġ
sÃłĠ zhÅ«Ġ
ĠzuÃ¬Ġ zhÅįngĠzÃłiĠ
fÄģnĠ chuÃ¡nĠ
diÃłnĠyÇĲng ĠzhÅįngĠ
ĠdÃ¬ĠÃ¨r ĠgÃ¨Ġ
6 9ĠniÃ¡nĠ
8 4Ġ
C D
s c
Ġ zhÄĵngĠyuÃ¨Ġ
pÃŃng ĠxÃŃngĠ
lÃŃn ĠjÃ¬n
dÅįu ĠyÃ¹ĠshÇĲĠ
dÇİng ĠzÃłiĠ
guÄ« ĠdeĠ
ruÃ² ĠdeĠ
zÃłn ĠchÃ©ngĠ
zÄģo ĠdÃło
ĠbÃ¹Ġ lÇİngĠ
shÄĵngĠ xiÃłoĠ
shÇĴuĠ hÃ¹Ġ
fÄĵngĠ miÃłnĠ
ĠjÃ¹Ġ fÄĵngĠ
sÃ¨Ġ qÃŃngĠ
pÃ¡iĠ hÃ¡ng
tiÃ¡nĠ xÃ¬nĠ
ĠtÃ¨Ġ lÇİngĠ
ĠrÃºĠ jÄ«nĠ
jiÃłnĠzhÃ¹Ġ wÃ¹Ġ
luÃ³ĠmÇİĠ nÃŃĠyÃłĠ
ĠÃ¨r ĠyuÃ¨Ġ
zhÃłnĠdÃ²u ĠjÄ«Ġ
ĠpÃºĠtÃ¡oĠyÃ¡ ĠyÇĶĠ
ĠqÄ«ĠxÄ«Ġ shÄĵnĠdÃ¹Ġ
x ĠĠĠ
Ġ shuÅį
zhÃ¨ng ĠhÃ©Ġ
shÇĲ ĠqÃŃĠ
xÄ«n ĠxÄ«ĠlÃ¡nĠ
dÃłi ĠshÃŃĠ
zhÃ²ng ĠzhÃ¬Ġ
diÇİn ĠwÃ¨iĠyÃºĠ
tiÄĽ ĠdÃło
lÇĶ ĠjÃŃĠ
ĠshÃŃĠ sÃ¬ĠniÃ¡nĠ
ĠrÃ©nĠ bÃ¹Ġ
ĠgÅįngĠ yuÄĵĠ
lÃ¡iĠ leĠ
juÃ©Ġ xÄ«nĠ
liÇİngĠ zhÄĽĠ
quÃ¨Ġ bÇİo
shÇİoĠ liÃłngĠ
ĠÃło ĠdÃ¬ĠlÃ¬Ġ
miÃ¡oĠshÃ¹Ġ leĠ
00ĠmÇĲ ĠdeĠdÃ¬ĠqÅ«Ġ
C P
ĠĠĠ wÃłnĠlÃ¬Ġ
dÃł ĠshÃ¬Ġ
shÄĵng ĠdÃłoĠ
jÇĲ ĠnÃ¡nĠ
gÃ¹ ĠdeĠ
dÄĵng ĠjÄ«Ġ
ĠzÃłiĠ yuÃ¨Ġ
ĠbÃ¹Ġ yÇĶĠ
ĠdÃ¬Ġ chÇĶĠ
ĠjÃ¬Ġ zhÄĽĠhuÃ¬Ġ
jiÃ©Ġ zÃ²uĠ
ĠtÃ³ng ĠbÃ¹Ġ
zÇĴngĠ jiÃłoĠqÅ«Ġ
bÄģnĠ diÇİnĠ
xiÄĵĠ gÄĵn
9ĠyuÃ¨Ġ 1ĠrÃ¬Ġ
Ġ19 14ĠniÃ¡nĠ
leĠyÄ«Ġ xiÄĵ
ĠdÃ¬ĠÃ¨rĠ cÃ¬
ĠtÃ³ngĠniÃ¡nĠ 11ĠyuÃ¨Ġ
duÃ³Ġ guÃłnĠ
7 ĠgÅįngĠlÇĲĠ
c c
Ġ yÄģĠ
lÃ¬ nĠ
shÇĴu ĠbÃ¨iĠ
yÃ¡n ĠhÃ©Ġ
jiÃ¨ ĠyÃºĠ
mÃ©n ĠshÃ¬Ġ
sÇĲ ĠdeĠ
ĠhÃ©Ġ zhÅįngĠguÃ³Ġ
ĠgÅįngĠ bÃ¹ĠdeĠ
ĠxiÃłn ĠlÃ¬Ġ
ĠbÃ¬ngĠ xiÃłngĠ
ĠrÃ¨nĠ zhÃ¨ngĠ
Ġc Åįng
fÄĵiĠ jÄ«
zÃºĠ zÇĴngĠ
kÄĽĠyÇĲĠ yÃ²ngĠ
lÃ¹nĠ shÃ¹Ġ
ĠzhÃŃ ĠdÃło
ĠzÃłiĠ200 6ĠniÃ¡nĠ
ali gnĠ
ĠxÃŃngĠzhÃ¨ng ĠzhÅįngĠxÄ«n
5 4ĠniÃ¡nĠ
6 1ĠniÃ¡nĠ
7 2ĠniÃ¡nĠ
8 ĠgÅįngĠlÇĲĠ
Ġ wÃłngĠ
le ĠtÄģ
zuÃ² ĠyÇĴuĠ
zhÃ¹ ĠgÅįngĠ
suÇĴ ĠzhÃ¬Ġ
12 ĠgÃ¨Ġ
mÃ©ng ĠyÇĴuĠ
qÄ«n ĠshÃŃĠ
14 0
yÇĴng ĠshÃ¬Ġ
pÃŃn ĠfÃ¡nĠ
ĠdeĠ wÃ¨iĠ
ĠgÅįngĠ jÄ«n
ĠyuÃ¡nĠ lÃ¡iĠdeĠ
ĠdÃ© ĠyÃ¬Ġ
pÃŃngĠ miÃłnĠ
yÃ¡nĠ sÃ¨
gÃ©Ġ lÃŃ
yÇĲngĠ zhÇİnĠ
lÃŃngĠ shÃ²uĠ
Ġ19 26ĠniÃ¡nĠ
niÃ¨Ġ cÃŃ
ĠgÄģiĠshÄĽngĠfÃ¨nĠwÃ¨iĠfÇİĠguÃ³Ġ bÄĽiĠbÃ¹Ġ
guÃ³ĠdeĠtÃ¨ĠyÇĴuĠ zhÃŃĠwÃ¹Ġ
4 7ĠniÃ¡nĠ
5 2ĠniÃ¡nĠ
I M
Ġ hÃ¹
Ġ zhÇĶnĠbÃ¨iĠ
ĠĠĠ dÄģng
wÃłi ĠjÃŃĠ
shÄĽng ĠzhÃ¨ngĠ
tiÃ¡o ĠjiÃłn
194 1ĠniÃ¡nĠ
ĠbÃ¹Ġ dÃłĠ
ĠdÃłoĠ guÄģngĠ
ĠÃ©r ĠyÇĴuĠ
fÄģĠ dÃ¡Ġ
mÃ¬Ġ mÃ¬
xÃºnĠ yÇİnĠ
ĠshÃ¬ĠjÃ¬Ġ chÅ«Ġ
Ġg ÄģĠ
ĠjiÄĵĠ zhÃ¹Ġ
ĠĠĠ198 8ĠniÃ¡nĠ
ĠfÄĵi ĠlÃ¬Ġ
sÄģiĠÄĽrĠwÃ©iĠ yÃł
illi am
8 6ĠniÃ¡nĠ
b e
zhÃłn ĠjÃŃĠ
zhÇĲ ĠwÃ¨iĠ
qÇĲ ĠchÅ«Ġ
gÄģi ĠdÃ¬ĠqÅ«Ġ
biÃłn ĠxÃŃngĠ
nuÃ² ĠbÃ¨iĠÄĽrĠ
ĠshÃ¬Ġ tÃº
ĠshÃ¬Ġ rÃ¬ĠbÄĽn
ĠdÃ¬Ġ 1
ĠyÇĲĠ 3Ġ
tÇĲĠ nÃ¨iĠ
biÃłnĠ gÄĵng
zhuÄģnĠ zhÃ¹ĠyÃºĠ
xÃºnĠ luÃ³Ġ
ĠjiÇĶ ĠyuÃ¨Ġ
xÇĲĠhu Äģn
jÇĲĠnÃ¨iĠ yÃłĠ
8 1ĠniÃ¡nĠ
S O
a dĠĠĠ
c uÃ¬
Ġ qiÃ¡o
ĠĠĠ shÃ¨ĠhuÃ¬Ġ
Ã©r ĠchÃ©ngĠ
qÄ«ng ĠxÄ«Ġ
mÃ©i ĠlÃ¬Ġ
bÃło ĠdeĠ
195 8ĠniÃ¡nĠ
wÃ©iĠ hÃ¹Ġ
ĠjÄ«Ġ dÃ²ngĠ
ĠduÃ¬Ġ kÃłngĠ
fÇİnĠ kÃłngĠ
zhÄĵnĠ duÃ¬
ĠdÅįngĠ lÃŃn
Ġ19 18ĠniÃ¡nĠ
rÇİnĠ sÃ¨Ġ
ĠyÃłĠ mÄĽiĠ
guÇİnĠkÃ²ng ĠzhÅįngĠfÄģĠxiÃłnĠ
4 1ĠniÃ¡nĠ
S h
Ġ zhÇİng
Ġ bÇİnĠ
Ġ miÃłoĠ
yÇĴu ĠbÃ¹ĠfÃ¨nĠ
le ĠdeĠ
qÅ« ĠyÃ¬Ġ
jiÄĵ ĠyÇĴuĠ
cÃ¬ ĠniÃ¡nĠ
bÃ³ ĠkÃ¨Ġ
fÇİn ĠgÅįngĠ
shÄģng ĠhuÃ¬Ġ
qÃŃng ĠrÃ©nĠ
ĠwÃ¨iĠ gÅįngĠ
ĠshÃ¨Ġ dÃ¬ng
dÃ¬ngĠ lÇľĠ
zhÄĵngĠ lÃ¹nĠ
ĠÐ ½
jiÃ©ĠshÃ¹ ĠshÃŃĠ
yÇĲnĠqÇĲ ĠdeĠ
6 ĠmÃŃngĠ
Ġ y
Ġ yÃł
Ġ lÃ¨i
Ġ kÇİo
Ġ yuÃłnĠ
Ġ zÅįngĠjiÃłoĠ
ĠĠĠ gÃ¨
ĠĠĠ huÃ²
xuÃ© ĠlÃ¬Ġ
mÃŃn ĠshÃ¬Ġ
sÅ« ĠzhÅįuĠ
zhÃło ĠjÃŃĠ
ĠdÃłĠ jiÄģngĠjÅ«nĠ
ĠlÇĲĠ xuÃ©Ġ
dÃłiĠ lÇĲngĠ
diÃłnĠ xÃ¬nĠ
zhÇĲĠ lÃ¬ngĠ
ĠshÄĵngĠ chÄĵng
shÄģnĠ chÃºĠ
ĠjÃ¹Ġ lÃ¨Ġ
Ġm ÄĽng
ĠbÄĽnĠ tÇĶ
xiÃłnĠ chÇİngĠ
hÃ¡iĠ zi
zhÄĵnĠ chÃ¡
zhuÇİnĠ huÃłn
Ġ19 13ĠniÃ¡nĠ
ĠmÇİĠ dÄ«ngĠ
mÇĲnĠ gÇİnĠ
ĠjÃŃĠtuÃ¡n ĠyÇĴuĠxiÃłnĠgÅįngĠsÄ«Ġ
ĠO Ġ
ĠyÇĶĠmÃ¡o ĠqiÃºĠ
Ãło ĠlÃ¬Ġ
lÃ¬ ĠniÃ¡nĠ
jiÄģng ĠxiÃłnĠ
zhÇĲ ĠdeĠshÃ¬Ġ
mÇİ ĠdÃ©ĠlÇĲĠ
jiÄĽ ĠdeĠ
ĠwÃ¨iĠ jÄ«ĠchÇĶĠ
ĠbÃ¹Ġ shÇĶĠ
ĠshÃŃĠ chÃ¡ngĠ
ĠrÃ©nĠ shÃ¹
ĠrÃ©nĠ lÃ¨iĠdeĠ
ĠxÃŃng ĠzhÃ¬Ġ
ĠdÃłĠ zÃ¬Ġ
ĠjiÄģĠ mÃ©ng
bÄĽnĠ shÅ«Ġ
wÃłiĠ jiÃ¨
shÄģnĠ lÃ¹Ġ
jiÇİnĠ yÃłnĠ
lÃºĠ wÇİĠ
dÇĴngĠshÃ¬Ġ huÃ¬Ġ
shÅįuĠlÃ¹Ġ leĠ
sÃłngĠ shÄ«Ġ
qiÄģo ĠchÅ«Ġ
2019ĠguÄģnĠzhuÃłngĠbÃ¬ngĠdÃº ĠbÃ¬ng
5 9ĠniÃ¡nĠ
a j
Ġ lÃ¨Ġ
ĠĠĠ jÄ«ngĠ
zuÃ² ĠhÃ©Ġ
zhÃłn ĠjÄ«Ġ
quÃ¡n ĠchÃ©ngĠ
jiÄĵ ĠdÃło
dÄĽng ĠzhÃłnĠ
xÃŃ ĠdeĠ
ĠshÃ¬Ġ dÄģngĠdÃ¬Ġ
ĠyuÃ¡nĠ shuÃłiĠ
ĠxÄ«Ġ dÃ©Ġ
ĠpÃŃngĠ gÅ«Ġ
mÇİĠ chÇİngĠ
qÇĲĠ huÃłĠ
qÄ«ngĠ chÃ¡o
tÃłiĠ lÃ¡ngĠ
mÄĽiĠ guÃ³ĠhÃ©Ġ
lÃŃngĠ mÃ¹Ġ
ĠdÄĽngĠ dÄĽngĠ
2010ĠniÃ¡nĠ mÄĽiĠguÃ³ĠrÃ©nĠkÇĴuĠpÇĶĠchÃ¡Ġ
ĠshÃ¨ĠjÃ¬Ġ shÄ«Ġ
ĠdeĠbÃ¹Ġ tÃ³ngĠ
ĠguÃ³ĠjiÄģ ĠjÃŃĠ
ĠwÃ¨iĠzhÅįngĠ xÄ«nĠ
yÄĵĠ sÅ«Ġ
ĠshÄĵngĠhuÃ³ ĠzÃłiĠ
ĠmÃŃn ĠjÃŃĠ
ĠgÅ« ĠjÃ¬Ġ
jiÄģnĠchÃ¡ ĠyÃ¹ĠshÇĲĠ
e u
yÃ¡n ĠshÃ¬Ġ
mÃ¹ ĠhÃ²uĠ
nÇļ ĠdeĠ
gÃ¹ n
gÃ¹ nĠ
jiÇİng ĠzuÃ²Ġ
2010 Ġ
ĠyÃºĠ zhÅįngĠ
ĠyÃ¬Ġ lÃ¬Ġ
ĠzhÄ« ĠyÃºĠ
shÇĲĠ guÇİnĠ
guÄģnĠ bÃ¬
ĠjiÃłnĠ zÃłoĠdeĠ
zhÃ¨Ġ yÃłng
ĠbÃ¬ngĠ kÄģiĠshÇĲĠ
bÄĽiĠ pÃŃngĠ
suÇĴĠ ÄĵnĠ
gÃ©Ġ lÇĶĠ
liÃ¨Ġ biÇİo
ĠshÃ¬ĠjiÃ¨Ġ bÄĵi
ĠgÅįngĠzuÃ²Ġ zhÄĽĠ
wÃ©nĠhuÃłĠ yÃŃĠchÇİnĠ
ĠbÃ¬Ġ yÃ¨ĠhÃ²uĠ
ĠgÄĵĠ qÇĶ
yÅįuĠxiÃ¹ ĠdeĠ
shÃ²uĠhuÄģnĠ yÃŃngĠdeĠ
4 3ĠniÃ¡nĠ
p Ã¡
Ġ Ã¨
chÃ¡ ĠsÄ«Ġ
xiÃł ĠxÃŃngĠ
tu di
yÃ¹n ĠdeĠ
ĠshÃ¬Ġ jiÄģngĠ
ÄģnĠ fÇĶĠ
bÄĽiĠ kÇİĠluÃ³ĠlÃ¡iĠnÃł
suÇĴĠ mÇĶĠ
kÄĽĠ kÃłoĠ
ĠjÃ¹Ġ qÃ¬ngĠxiÃłĠ
qÄ«ngĠ huÃ¡ĠdÃłĠxuÃ©Ġ
bÅįĠ luÃ³ĠdÃ¬Ġ
ĠzhÅįngĠguÃ³Ġ guÃ³ĠjiÄģĠ
Ġt Çİo
xÃ¬nĠ hÃło
huÃ¡nĠ bÇİoĠ
ĠS h
hÃ¡oĠ mÇĲ
ĠnÃłĠ meĠ
guÇĲĠdÃłoĠ jiÄģoĠtÅįngĠ
ĠdeĠlÃ¬Ġ shÇĲ
mÃ¨i ĠmÃ¨i
ĠwÃ¨iĠfÃºĠqÃŃĠyÃºĠgÄģngĠ lÃºĠxÃŃngĠmÃ¹Ġ
i ngĠ
Ġ xiÄģo
Ġ qÃŃngĠ
Ġ xiÃłngĠshÃ¬Ġ
nÃ¡n ĠdÃłoĠ
lÄģ ĠlÃ¬Ġ
biÃłn ĠdÃ©
ĠzÃłiĠ dÅįngĠ
ĠbÃ¹Ġ xiÃ¡ngĠ
ĠzhÃ¬Ġ piÃłnĠ
hÃ²uĠ lÃ¡i
ĠjÄ«Ġ guÄģn
ĠjÄ«Ġ qiÄģngĠ
ĠbÃ¨iĠ pÃłnĠ
huÃłĠ xuÃ©
shuÇĲĠ zhÇĶnĠ
jiÇĶĠ jÄ«ngĠ
Ã©rĠ yÃ¡nĠ
ĠkÄĵ ĠÄĽrĠ
kÇİoĠlÇľ ĠdÃłoĠ
5 1ĠniÃ¡nĠ
w ÃłĠ
Ġ fÇĶ
Ġ zhÃºĠ
Ġ tÃ¡iĠbÄĽi
ĠĠĠ th
le ĠdÃłĠliÃłngĠ
xiÃłng ĠqÃŃĠ
quÃ¡n ĠhÃ©Ġ
yÇĲng ĠjÃŃĠ
hÃ¡i ĠhuÃ¬Ġ
sÄģi ĠsÄ«Ġ
ĠshÃ¬Ġ hÃ¡nĠguÃ³Ġ
ĠbÃ¹Ġ yÃ¬Ġ
ĠyÃ¬Ġ chÃ¡ngĠ
jiÄģĠ qiÃ¡ngĠ
yÃ¡nĠ fÄģ
qiÃ¡nĠ lÃ³ngĠ
ĠfÃ¹Ġ zÃ¡Ġ
yÃłĠ zhÇĴngĠ
sÃłiĠ shÃ¬ĠdeĠ
yÃ¡ngĠ xÃ¬ngĠ
zhÄĵngĠ qÇĶ
Ġ5 00Ġ
2 ĠgÅįngĠlÇĲĠ
I F
b u
Ġ shuÇĲ
huÃ¬ ĠchÃ©ngĠ
tÃ¨ ĠzhÃ¬Ġ
gÄģo ĠjiÄģĠ
shÄģn ĠshÃłngĠ
dÄģn ĠrÃ©nĠ
bÃłn ĠxuÃ©Ġ
gÃłi ĠleĠ
gÃłn ĠshÃ¬Ġ
ĠzÃłiĠ kÃ¨Ġ
zhÅįngĠ xuÃ©Ġ
ĠdÃłĠ jÅ«nĠ
ĠqÃŃ ĠdÃ¬Ġ
zhÃ¨ngĠ wÃ¹Ġ
nÃ¡nĠ hÇİiĠ
gÄģoĠ cÃ©ngĠ
hÇİiĠ dÇĲĠ
wÇĶĠ kÄĵĠ
ĠdÃłnĠ rÃ©ng
mÃ©iĠ tÇĲĠdeĠ
ĠdeĠyÄ«Ġ zhÇĴng
huÃ²Ġ shÃ¨ngĠ
dÇİĠ pÃ²
suÃŃĠ zheĠ
ĠĠĠM o
ĠĠĠ199 0ĠniÃ¡nĠ
ĠãĤ ĵ
zÅ«nĠ zhÃ²ngĠ
ĠfÄģĠ biÇİoĠ
huÃ¡nĠxÃŃngĠ shÄģnĠ
nÃ¡nĠsÄ«ĠlÄģĠ fÅ«Ġ
Ġ zhÃ¨n
gÅįng ĠwÃ¨iĠ
zuÃ¬ ĠmÃŃngĠ
bÃ³ ĠdeĠ
sÃ¨ ĠhuÃ²Ġ
zÅįng ĠzuÃ²Ġ
ĠdÃłĠ mÃŃngĠ
ĠmÃŃngĠ chÃ¡o
zhÃŃĠ wÃ¹ĠdeĠ
ĠzhÃ¨Ġ yÄĽĠ
jiÄģoĠ wÇİngĠ
lÃŃngĠ hÃºnĠ
cÄģnĠ yÇİnĠ
ĠdeĠshÃ¬Ġ lÃ¬Ġ
qÅ«ĠdeĠ yÃŃĠgÃ¨Ġ
wÄĵnĠ gÄĵĠ
mÃŃnĠzhÇĶĠ zhÇĶĠyÃ¬Ġ
chÃ©ngĠlÃ¬Ġ yÃºĠ
Ġd Ã¨ng
shÃ²uĠhÃłiĠ zhÄĽĠ
ĠgÄģiĠwÃ¹ĠzhÇĴngĠdeĠ mÃ³ĠshÃ¬ĠchÇİnĠ
liÃ¡n ĠsÄ«Ġ
sÃ¬ ĠgÃ¨
guÃłn ĠjÅ«nĠdeĠ
ĠyÃºĠ jiÄģĠ
ĠyÃºĠ 9ĠyuÃ¨Ġ
ĠyuÃ¡nĠ dÃ¬ng
qÅ«Ġ yÃ¹ĠdeĠ
ĠzhÄ«Ġ yÄ«ĠdeĠ
fÄģngĠ zhÄĵnĠ
mÄĽiĠguÃ³Ġ guÃ³ĠjiÄģĠ
Ã©Ġ wÃłiĠdeĠ
wÇİngĠ fÇİnĠ
kÅįngĠ tiÃ¡oĠ
ĠyÄĽ ĠhuÃ¬Ġ
ĠR o
h Åįng
Ġ fÄĵn
ji ÇĴngĠ
lÃŃn ĠxiÃłnĠ
zhÃ²ng ĠlÃ¬Ġ
dÃ¡ ĠdÃłoĠleĠ
chuÃ¡n ĠchÃ©ngĠ
in eĠ
2020 Ġ
2019 Ġ
ĠzhÅįngĠ xuÃ©
ĠshÃŃĠ shÃłngĠ
hÃ²uĠ bÃ¨iĠ
ĠbÃ¨iĠ rÃ¨nĠwÃ©i
ĠmÃŃngĠ dÄģn
dÇİoĠ zhÃ¬ĠdeĠ
guÄģngĠ xÃ¹
ĠdÃ¬ĠÃ¨rĠ cÃ¬ĠshÃ¬ĠjiÃ¨ĠdÃłĠzhÃłnĠ
ĠĠĠbÄĽn ĠyÃºĠ
A TĠ
v erĠ
Ġ iĠ
Ġ miÃ¡oĠ
ĠĠĠ 20
ĠĠĠ 11
sÄ« ĠyÇĴuĠ
hÃ²u ĠchÃ©ngĠwÃ©iĠ
liÃº ĠdÃłnĠ
qÄ«ng ĠdeĠ
cÃ¡i ĠhuÃ¬Ġ
xÃ¹n ĠdeĠ
tÇİn ĠkÃ¨
dÇĲng ĠbÃ¹Ġ
ĠzhÃłnĠ yÃ¬ĠzhÅįngĠ
ĠzuÃ²Ġ leĠ
5Ġ wÃłnĠ
fÇİnĠ xiÇİngĠ
Ġt ÅįuĠ
jiÃłĠ zhÃŃĠdeĠ
Ġ19 25ĠniÃ¡nĠ
6ĠyuÃ¨Ġ 1ĠrÃ¬Ġ
tiÄĽĠlÃ¹Ġ jÃºĠ
hÇİiĠjÅ«nĠ lÃ¹ĠzhÃłnĠ
miÃ¨Ġ wÃ¡ngĠ
ĠbÄģ ĠxÄ«Ġ
ĠzhÃłnĠzhÄĵng ĠzhÅįngĠ
diÃłnĠqÃ¬Ġ huÃłĠ
ĠzhÅįngĠguÃ³ĠguÃ³ĠmÃŃnĠ dÇİngĠ
Ġ liÃ¡oĠ
ĠĠĠ zhÃ¨ĠgeĠ
qÄ« ĠgÃ¨Ġ
lÃ¹ ĠdÃ©Ġ
zhu Äģ
zhÃŃ ĠbÃ¨iĠ
bÃ³ ĠlÃ¬ĠyÃłĠ
ĠjÃ¬Ġ rÃ¨nĠ
zhÃ¨ngĠ biÃłnĠ
shÃłngĠ sÃ¹Ġ
yÃ¡nĠ xÃ¹Ġ
jiÄĵĠ shÃłngĠ
mÇİĠ dÄ«ngĠ
nÃ¨iĠ bÃ¹ĠdeĠ
ĠdÃłnĠ yÃłoĠ
bÃłoĠ dÃ²ngĠ
bÃ³Ġ luÃ³Ġ
ĠzhÅįngĠguÃ³Ġ dÃłĠlÃ¹
luÃ²Ġ fÅ«Ġ
lÃ¬ngĠ wÃłi
jiÇİĠ zÇĶĠ
ĠĠĠC on
leĠyÄ«Ġ zhÇĴngĠ
fÄģnĠ qi
dÃłiĠbiÇİo ĠdÃłĠ
ĠwÃ¨iĠdÃ¬Ġ yÄ«Ġ
bÃ¬ĠyÃ¨Ġ shÄĵngĠ
guÇİngĠbÅįĠ diÃłnĠshÃ¬Ġ
bÃłnĠshÃ¬Ġ chÃ¹
pÇİo ĠdÃłoĠ
p Äģn
ĠĠĠ g
ĠĠĠ fÄģĠxÃŃngĠ
lu ÇĴĠ
huÃ¡ ĠwÃ¨iĠ
jiÃłng ĠzhÃ¬Ġ
kÃ¹ ĠdeĠ
ĠdÃ¬Ġ 5Ġ
ĠzhÃłnĠ lÃ¼Ã¨Ġ
mÇİĠ ÄĵnĠshÄĽngĠ
ĠshÃ¨Ġ lÃ¬ĠdeĠ
mÃ¬Ġ mÇİĠ
xÃºnĠ hÃ¡ngĠ
Ġ19 11ĠniÃ¡nĠ
chÇĶĠ cÃºnĠ
dÃ²uĠ zhÄĵng
ĠliÃ¡nĠ xÃ¹Ġ
pÃłoĠ bÄ«ngĠ
ĠzhÇĲĠ nÃ©ngĠ
sÅįuĠ suÇĴĠ
ĠbiÄģnĠ hÃłoĠ
a ĠĠĠS
y ĠĠĠS
Ġ gÃłi
Ġ yÇİnĠyuÃ¡nĠ
Ġ juÇİnĠ
le sĠ
zhÅįu ĠniÃ¡nĠ
zhÃŃ ĠgÅįngĠ
lÃºn ĠduÅįĠ
cÇİi ĠjÃŃĠ
ĠhÃ©Ġ zuÃ²ĠdeĠ
shÃŃĠ yuÃ¨Ġ
shÃŃĠ qÄ«ĠdeĠ
ĠzhÃ¬Ġ huÃ¬Ġ
ĠyÇĴuĠ zheĠ
ĠxÄ«Ġ shÅįuĠ
fÃ¹Ġ shÇĶ
jÄ«ngĠ lÃŃngĠ
wÄĽiĠ tuÅį
ĠdeĠdÃ¬Ġ tiÄĽĠ
bÄ«ngĠ chuÄģnĠ
ĠshÃ¬ĠjÃ¬Ġ mÃ²Ġ
kÄĵĠxuÃ©Ġ yuÃłn
shÃ¹ĠliÃłng ĠdeĠ
yÅįngĠ yÇĴuĠdeĠ
nÃłĠcuÃ¬ ĠdÃ©ĠguÃ³Ġ
k Ã²u
Ġ gÄĽi
Ġ xÃ¬ĠtÇĴngĠ
Ã© ĠjÅ«nĠ
hÃ© nĠ
zhÄ« ĠxiÃłĠ
qÃŃ ĠtÄģĠdeĠ
zhÃłn ĠyÇĶĠ
quÃ¡n ĠshÃ¬ĠjiÃ¨Ġ
shuÇĲ ĠxiÃłnĠ
mÃłi ĠkÃ¨ĠÄĽrĠ
chÃłng ĠyÃ¬Ġ
ĠwÃ¨iĠ 2
jiÄģĠ mÃ©ngĠ
ĠyÄ«Ġ yÄ«Ġ
ĠÃ©r ĠwÃ¨iĠ
chÃ¡ngĠ chÃ¡ngĠ
zÇĴngĠ guÇİnĠ
ĠxÄ«nĠ wÃ©n
liÇİngĠ cÃ¬
liÇİngĠ cÃ©ngĠ
xiÃłnĠ dÃłi
3ĠyuÃ¨Ġ 1ĠrÃ¬Ġ
kÇİoĠ rÃ¹Ġ
dÃ¹nĠ niÃ¨ĠcÃŃ
ĠT h
pÃ©iĠ chÃ¡ngĠ
ĠgÃ²ng ĠjÃ¬Ġ
ĠgÃ© ĠniÃ¡nĠ
5 ĠshÃŃĠ
Ġ zhÇĴngĠ
Ġ jiÃłoĠyÃ¹
Ġ xuÄĽĠ
li Çİn
fÃ¹ ĠwÃ¨iĠ
lÃ³ng ĠshÃ¬Ġ
lÇİo ĠrÃ©nĠ
lÇİo ĠhuÃ¬Ġ
qiÄģng ĠjÄ«Ġ
ĠzhÅįngĠ huÃ¡
ĠyÃ¬Ġ zhÇİngĠ
ĠhÃ²uĠ yÄ«nĠ
duÃ¬Ġ yÃ¬ngĠ
jÄ«ngĠ yÃłn
shÇĴuĠ xiÄģn
ĠqÃŃĠ bÄ«ng
ĠkÃ¨Ġ lÃºnĠ
zuÃ¬Ġ xiÇİoĠ
tÃłiĠ luÃ³Ġ
jÅ«Ġ bÇĶĠ
Ġk ÄģĠ
ĠliÃ¡nĠ mÃ©ngĠ
ĠÐ ¸
ĠzhÅįngĠshÃ¬Ġ yÇİnĠ
shuÃłiĠlÇĲng ĠdeĠ
8 9Ġ
Ġ kÃ²ngĠzhÃ¬Ġ
Ġ gÄĵĠqÇĶĠ
Ġ guÄ«ĠdÃ¬ngĠ
wÄĵi ĠÄĽrĠsÄ«Ġ
zÅįng ĠshÃ¬Ġ
lÃ¬Ġ yÃ¬Ġ
ĠyuÃ¨Ġ kÄģnĠ
ĠdÃłĠ xuÇİnĠ
ĠqÃŃ ĠrÃ©nĠ
bÄĽnĠ shÄĵn
ĠshÃłngĠ wÇĶĠ
wÃºĠ guÄģnĠ
biÃłnĠ gÄĵngĠ
biÄģnĠ rÃ¹Ġ
ĠbÄĽnĠ shÄĵnĠ
xÅ«Ġ nÇĲĠ
ĠĠĠ198 9ĠniÃ¡nĠ
ĠyÃºĠ199 7ĠniÃ¡nĠ
Ġco mĠ
3 ĠlÃ¬Ġ
D NAĠ
Ãłi ĠlÃ¬ĠsÄ«Ġ
yÇĶ ĠbÃ¹Ġ
tÃ¡i ĠyÇĶĠ
zÃ© ĠrÃ¨nĠwÃ©iĠ
ĠzhÃ¬Ġ lÇĲĠ
ĠyÇĶĠ qiÃ¡nĠ
ĠxÄ«Ġ lÃ¡n
lÃ¹Ġ yÄ«nĠ
mÃŃnĠ dÇİngĠ
jÄ«nĠ tiÄģnĠ
quÃ¡nĠ xÄ«nĠ
ĠzÃ¬Ġ shÄģĠ
ĠxiÄģngĠ fÇİnĠ
zÇĶĠ zhÇİngĠ
wÄĵiĠ fÅ«Ġ
ĠgÄģoĠ sÃ¹
zhuÄģnĠ ÃłnĠ
ĠjiÃ©Ġ hÅ«nĠ
4 8ĠniÃ¡nĠ
u per
Ġ ÄĵnĠ
yÄ« ĠzÃłiĠ
mÄĽi ĠrÃ©nĠ
zuÃ¬ ĠjÃ¬nĠ
ĠniÃ¡n ĠĠĠ201
ĠdÃ¬Ġ liÃ¹
ĠjÃŃĠ zhÃ¬Ġ
ĠxÃŃngĠ chÄĵĠ
xiÃłĠ lÇİngĠdÃ©Ġ
mÃ¹Ġ hÇİnĠmÃ²ĠdÃ©Ġ
ĠhuÃ² ĠÄĽrĠ
suÇĴĠ xiÃ¡
zuÃ¬Ġ zhÃ¹ĠmÃŃngĠdeĠ
ĠxuÃ©Ġ shÄĵng
sÄģnĠ cÃ©ngĠ
zÇĴngĠ tÇĲĠ
gÇĶĠ dÃłi
mÃłnĠ huÃłĠjiÄģĠ
Ġ19 22ĠniÃ¡nĠ
ĠdeĠrÃ©nĠ wÃ¹Ġ
gÄĵngĠ gÇİiĠ
gÄĵngĠ huÃłnĠ
ĠÐ µ
ĠshÇĶĠ rÃ²uĠshÃŃĠxÃ¬ngĠ
ĠliÃ¹ ĠyuÃ¨Ġ
mÃ¹ĠnÃŃĠ hÄĵiĠ
Ġ wÇİng
Ġ xÃ¬n
Ġ xuÃ¨Ġ
zuÃ² ĠchÃ©ngĠ
bÄĽn ĠshÃ¬Ġ
quÃ¡n ĠniÃ¡nĠ
tÃŃ ĠdeĠ
zÇĶ ĠchÃ©ngĠyuÃ¡nĠ
zhÄģng ĠjiÄģĠ
pÇĶ ĠlÃ¬Ġ
ĠjÃŃĠ yÇĴuĠ
ĠjiÄģĠ jÃ¹Ġ
zuÃ¬Ġ duÅį
bÄģĠ dÃ¡Ġ
tuÃ¡nĠ duÃ¬
Ġl ÄĽng
quÃ¨Ġ rÃ¨n
kuÃ²Ġ zhÄģng
huÃ³ĠdÃ²ng ĠzhÅįngĠ
ĠĠĠ193 7ĠniÃ¡nĠ
ĠchÃ¡oĠ tÃŃngĠ
yÄ«ĠlÃ¬Ġ nuÃ²ĠyÄ«Ġ
R o
Ġ guÇĲĠ
Ġ fÄĵiĠchÃ¡ngĠ
zh Çİi
ĠĠĠ miÃ¡oĠshÃ¹Ġ
yÇĶ ĠshÃŃĠ
xÃ¬ng ĠdÃ¬Ġ
yÄ«ng ĠshÃ¬Ġ
zhÇİn ĠxiÃłn
zhuÄģng ĠyuÃ¡nĠ
198 1ĠniÃ¡nĠ
zÇĴu ĠleĠ
tÃłn ĠtÇİoĠ
ĠdeĠ guÄģnĠxÃ¬Ġ
mÃŃngĠ chÃ¡oĠ
ĠxiÃłnĠ rÃ¨n
ĠjiÄģĠ zÃºĠdeĠ
ĠtÄģĠ kÄĽĠyÇĲĠ
ĠjÅ«n ĠhÃ©Ġ
ĠhuÃ¬Ġ huÃłĠ
xiÃłngĠ zhÄĵng
fÄĵnĠ wÃ©i
fÄĵnĠ kÄģiĠ
jiÃ¨Ġ rÃ¹Ġ
ĠzhÃ¨Ġ yÃ¬ĠwÃ¨iĠ
Ġc ÅįngĠ
ĠdÃłiĠ wÃ©iĠ
jiÇİngĠ shÄ«Ġ
lÃ¨iĠ biÃ©Ġ
lÃ¨iĠ ÃłnĠjiÃłnĠ
xiÄģnĠ qÅ«Ġ
xÃŃngĠ dÃ²ng
Ġg ÇĴngĠ
ĠqiÃ¡nĠ lÃ³ng
Ġ3 9
ĠjiÃłnĠzhÃ¹Ġ shÄ«Ġ
ĠxÃŃngĠzhÃ¨ngĠ zhÇİngĠguÄģnĠ
ol orĠ
ĠdeĠbÃ¹Ġ duÃ¬Ġ
ĠcÃ¹ n
shuÃłiĠ xiÄģnĠ
ĠguÃ³ĠmÃŃnĠ zhÃ¨ngĠfÇĶ
ĠtÃłiĠ yÃ¡ngĠ
yÃłĠlÃ¬Ġ sÄģngĠ
boĠ dÃ¹Ġ
ĠhuÃłĠxuÃ© ĠshÃ¬ĠwÃ¨iĠ
1 ĠyÃ¬Ġ
6 9Ġ
E D
i ni
ĠĠĠ bÃ¡iĠ
fÃ¹ ĠyuÃ¡nĠ
fÄģng ĠjÃ¬Ġ
pÃŃng ĠshÃ¬Ġ
duÅį ĠniÃ¡nĠdeĠ
shÃ²u ĠleĠ
zÃłiĠ wÃ¨iĠ
ĠzÃłiĠ jiÃłnĠ
chÃ©ngĠ lÃ¬ĠdeĠ
yÃ¬Ġ yÃ¬Ġ
shÃłngĠ zhÃ¨nĠ
ĠbÃ¨iĠ jÄ«Ġ
guÄģnĠ qi
yÃ¹Ġ qÄ«Ġ
fÃ¨iĠ qÃ¬Ġ
ĠyÃºĠ199 9ĠniÃ¡nĠ
niÇĶĠyuÄĵ ĠzhÅįuĠ
miÃło ĠdeĠ
liÃºĠxÃŃngĠ yÄ«nĠyuÃ¨Ġ
ĠxiÃłnĠlÃ¹Ġ kÇĴuĠ
7 4ĠniÃ¡nĠ
T T
u st
ĠĠĠ yÄ«ngĠ
ĠĠĠ 20ĠshÃ¬ĠjÃ¬Ġ
le r
quÃ¡n ĠzhÅįuĠ
ar yĠĠĠ
195 2ĠniÃ¡nĠ
ĠwÃ¨iĠ xÄ«ng
ĠgÅįngĠ zhÃ²ng
zuÃ²Ġ qÇĶĠjiÄģĠ
shÄĵngĠ zhÇİng
ĠjiÄģĠ shÃłng
jiÄģnĠ jÃ¬nĠ
dÅįngĠ lÃ¹Ġ
ĠhuÃ²Ġ bÃ¬Ġ
zhÄ«Ġ hÃ²uĠdeĠ
tiÃ¡oĠ yuÄĵ
zhuÄģngĠ cÅ«nĠ
Ġ3 5Ġ
tiÃ¡oĠjiÃłnĠ xiÃłĠ
hÃ¡ngĠzhÃłnĠ lÃ³uĠ
Ã©ĠhÃłiĠÃ© ĠzhÅįuĠ
Ġ qÃºnĠ
ĠĠĠ xiÃłoĠ
yu Äģn
mÃŃng ĠchÃ©ngĠyuÃ¡nĠ
pÇĶ ĠsÄ«Ġ
mÇĶ ĠhÃ©Ġ
fÃ¡ng ĠdeĠ
chÇĶ ĠguÃ³Ġ
ĠdeĠ wÃ¨iĠzhÃ¬Ġ
ĠzhÅįngĠ jiÃ©Ġ
ĠguÃ³Ġ jÅ«n
huÃ¬Ġ huÃłĠ
ĠyÇĶĠ zhÃ²uĠ
zhÃ¨ngĠ dÇİng
jiÄģnĠ guÇİnĠ
zuÃ¬Ġ jÃ¹Ġ
shÇĶĠ xÃ¬ngĠ
jÇĲnĠ cÃ¬ĠyÃºĠ
huÃŃĠ yÃ¬ng
zhÅįuĠ qÄ«Ġ
ĠjiÃ©Ġ gÃ²uĠ
zÄģiĠ hÃłiĠ
fÇĴuĠ juÃ©Ġ
lÃ¬ngĠyÄ«Ġ zhÇĴngĠ
lÇľĠwÃ¨iĠ 0
shÅįuĠlÃ¹ ĠyÃºĠ
zhÅ«ĠlÃ³ng ĠcÇİoĠ
DV DĠ
6 ĠĠĠ
E n
H E
Ġ kuÃŃĠ
Ġ huÃ¡ngĠdÃ¬Ġ
Ġ huÄ«ĠfÃ¹Ġ
Ġ huÃ¡ngĠjiÄģĠ
Ġ liÇĶĠ
qÄ« ĠmÃŃngĠ
yÄ«n ĠmÃ³uĠ
wÃ©n ĠjiÃłn
miÃłn ĠwÃ¨iĠ
nÃ©ng ĠdeĠ
xiÃło ĠzhÅįngĠ
pÃ¡i ĠqiÃºĠ
an t
ar eĠĠĠ
lÇİng ĠxÄ«ĠsÄ«Ġ
ĠshÃ¬Ġ xiÄģngĠgÇİng
jÃ¬Ġ lÃ¹
ĠyÄ«Ġ shÇĴuĠ
ĠlÇĲĠ chÃ¡Ġ
ĠxiÃłĠ jiÃłngĠ
Ġk ÇĶ
sÄģiĠ Ã©Ġ
aĠĠĠ P
ĠzhÇĲ ĠdeĠshÃ¬Ġ
ĠJ ohn
6 6ĠniÃ¡nĠ
F aceb
Ġ wÃłn
de rĠ
zhÃłn ĠxiÃłnĠ
bÇĲ ĠsÄ«Ġ
rÃ³ng ĠhuÃ²Ġ
jiÄĽ Ġp
ĠjÃŃĠ tÄģĠ
ĠxiÃłn ĠyÃ¬Ġ
mÃŃngĠ chÄĵng
ĠxÄ«Ġ lÃŃnĠ
zhÃłnĠ jÃ¹Ġ
rÃ¨nĠ jiÃłoĠ
ĠbÃ¨iĠ xuÇİnĠwÃ¨iĠ
kÄģiĠ pÇĶĠ
jÄ«nĠ gÄģngĠ
fÃºĠ lÇĶĠ
ĠdÃłiĠ lÇĲngĠ
chÄĵngĠ zÃłn
liÇİngĠ xiÃłngĠ
dÇĲĠ kÃłng
lÃºĠ sÄĵnĠ
ĠchÃ©ngĠyuÃ¡nĠ guÃ³Ġ
jÄ«ngĠlÃ¬Ġ leĠ
ĠshÃ¬ĠwÄĵiĠ zhÄĽĠ
nd ro
4 4ĠniÃ¡nĠ
6 ĠgÅįngĠlÇĲĠ
z ÅįuĠ
Ġ shÃłn
Ġ qiÄģngĠ
Ġ biÄģoĠzhÇĶnĠ
ĠĠĠ xiÄģngĠguÄģnĠ
gÅįng ĠzhÅįngĠ
fÇİ ĠjÅ«nĠ
bÇİo ĠjiÃłnĠ
dÇĲ ĠbÃ¹Ġ
wÇİ ĠÄĽr
rÃ©nĠ lÃ¨i
ĠchÃ©ngĠ dÃ¹ĠdeĠ
jÄ«Ġ gÃ²u
ĠyÇĶĠ zhÄ«
zhÃłnĠ chÇİngĠ
ĠzhÄ«Ġ yÃ²ngĠ
ĠchÅ«Ġ jÃºĠ
guÄģnĠ zhÃ¹
huÃłĠ tÃŃĠ
ĠwÃ©iĠ hÃ¹Ġ
fÇİĠ guÄ«Ġ
zhÃ¨nĠ yÃŃngĠ
ĠjÃ¹Ġ bÃ¨iĠ
sÃłiĠ jÅ«Ġ
biÃłnĠ lÃ¹nĠ
ĠrÃ¡n ĠÃ©rĠzÃłiĠ
jiÄĽĠ jiÄĽĠ
chÃ¹Ġ chÃ¹ĠzhÇİngĠ
Ġ19 21ĠniÃ¡nĠ
ĠdeĠshÃŃĠ jÃ¬Ġ
ĠãĤ ¹
ĠzÃłiĠ200 4ĠniÃ¡nĠ
mÃ¹ĠdÃ¬Ġ dÃ¬Ġ
ĠyÃ¬ĠzhÃŃ ĠzÃłiĠ
quÄĵ ĠxiÃłnĠ
xiÃ©ĠshÄģngĠ huÃ¬ĠyÃ¬Ġ
2 ĠshÃŃĠ
k uÃ¬
s Çİn
Ġ huÃ¡n
Ġ hÄĽnĠduÅįĠ
Ġ mÃ©ngĠgÇĶ
lÃ¹ ĠsÄ«Ġ
ti n
jiÄģng ĠqÃŃ
yÃ¡n ĠlÃ¬Ġ
nÃ¨i ĠhÃ©Ġ
Ã¨r ĠgÃ¨Ġ
ni c
qiÃ¡ng ĠxÃŃngĠ
gÃ¨ng ĠyÇĴuĠ
âĢ »
guÃłn ĠlÃ¬Ġ
ĠdeĠ shÃ¨ĠjÃ¬Ġ
ĠbÃ¹Ġ shÃ²uĠ
ĠrÃ©nĠ jÃŃĠ
xiÄģngĠ tÃ³ng
gÃ©Ġ lÃ¡iĠ
bÄģĠ sÄģiĠ
chuÃ¡nĠ jiÃłoĠ
mÄĽiĠ lÄģĠ
yÇĲnĠ fÄģ
lÇİoĠ bÇİnĠ
kÄģiĠshÇĲ ĠhÃ²uĠ
lÄĽi ĠjÄ«Ġ
kÄĽnĠ sÃ¨
zuÃ¬ĠhÃ²uĠ yÃŃĠgÃ¨Ġ
ĠhÄģ ĠlÃ¬Ġ
zhÄĽnĠ duÃłn
ĠĠĠhÃ²uĠ lÃ¡iĠ
fÃºĠluÃ³ĠlÇĲĠ dÃ¡ĠzhÅįuĠ
t Ã¹Ġ
v e
ĠĠĠ yÃ¡ngĠ
chÅ« ĠxiÃłnĠdeĠ
qÅ« ĠyÇĶĠ
fÃº ĠdÃłĠxuÃ©Ġ
sÃ²ng ĠzhÃ¬Ġ
25 0
ĠdeĠ Ã©rĠziĠ
ĠhÃ©Ġ M
ĠbÃ¹Ġ xiÃłĠ
ĠyuÃ¡nĠ yÇĴuĠdeĠ
ĠxiÃłnĠ dÃ¬ngĠ
ĠlÇĲĠ jiÄģĠ
rÃ¨nĠ tiÄģnĠtÃ¡ngĠ
diÃłnĠ cÃŃĠ
gÇĶĠ bÄģĠ
bÅįĠ kuÇİnĠ
Ġ19 19ĠniÃ¡nĠ
gÄģnĠ rÇİoĠ
bÄĽiĠjÄ«ng ĠdÃłĠxuÃ©Ġ
ÅįuĠzhÅįu ĠguÃ³ĠjiÄģĠ
lÃ¬ĠhÃ©Ġ wÃºĠzhÃ¨ngĠzhuÃłngĠgÇİnĠrÇİnĠzhÄĽĠ
zhÄĽnĠ duÃłnĠ
ĠshÃŃĠyÄ«Ġ yuÃ¨Ġ
yÇĲnĠqÇĲ ĠleĠ
ĠgÄģnĠ sÃ¹Ġ
shuÃłi ĠjÅ«nĠ
m on
Ġ on
Ġ miÇİnĠdiÄģnĠ
yÄ« ĠniÃ¡nĠdeĠ
chu Ãłn
duÅį ĠlÃ¬Ġ
zÃ© ĠhuÃ¬Ġ
wÄģn ĠdÃłoĠ
hÄĽn ĠgÄģoĠ
rÃ©nĠ kÇĴu
xÄ«Ġ lÇĲĠ
zhÇĶĠ yÃ¬ĠhÃ©Ġ
xÄ«nĠ ÄģĠjÄ«ĠtÇİn
mÃŃnĠ jiÄģn
ĠwÃ©iĠ xiÅ«Ġ
ĠdÃłnĠ bÃ¡i
xuÇİnĠ bÃ¡
qiÄģnĠ mÇĲ
xÃ¬nĠ fÃ¨ng
gÃ¹Ġ wÃ¨n
ĠyÃ²uĠmÃŃngĠ BDĠ
4 6ĠniÃ¡nĠ
4 ĠgÅįngĠlÇĲĠ
Ġ xÇĶ
Ġ dÇĲngĠ
Ã©r ĠbÃ¨iĠ
suÇĴ ĠbÃ¹ĠtÃ³ngĠ
ju Äģn
11 ĠshÃŃĠ
197 1ĠniÃ¡nĠ
197 4ĠniÃ¡nĠ
ĠdÃ© ĠshÃ¬Ġ
nÃ¡nĠ yÇİnĠyuÃ¡nĠ
gÄģoĠ xiÃ³ngĠ
yÃ¨Ġ tÇĲĠ
ÃłnĠ chÃ¡Ġ
ĠzhÃ¨Ġ cÃ¬
gÇĶĠ fÃ¨nĠ
yÃ¬ngĠ bÃ¬Ġ
zhuÄģngĠ bÃ¨i
qÄ«nĠ wÃ¡ng
chÃ³ngĠ xiÅ«Ġ
mÃłiĠ ÄģĠ
bÇĶĠ jÇĲĠ
zhÄĽngĠ shÃ¹Ġ
yÇİĠ diÇİnĠ
jiÄĵĠdÃłoĠ bÃłnĠshÃ¬ĠchÃ¹Ġ
ĠbÅįĠ lÃ¡nĠ
ĠwÃ¨iĠyÃºĠgÄģiĠguÃ³Ġ bÄĽiĠbÃ¹Ġ
gr oundĠ
icrosof tĠĠĠ
7 1Ġ
7 3ĠniÃ¡nĠ
R e
k Äģ
Ġ guÄ«
ĠĠĠ tÃ¡iĠwÄģn
Ãło ĠdÃ©Ġ
li n
hÃ²u ĠjÃŃĠ
le ĠshÃ¬Ġ
wÃ©i ĠjÃŃĠ
shÇĶ ĠdeĠyÄ«ĠzhÇĴngĠ
qiÄģn ĠdÃłoĠ
mÃ¬ ĠjÃŃĠ
shÃŃĠ jÃ¬Ġ
rÃ©nĠ lÃ¨iĠ
ĠgÃ¨ ĠyÇĴuĠ
mÃŃngĠ quÃ¨Ġ
xÄ«nĠ zhÃº
zhÃ¹Ġ rÃ¹Ġ
hÇİiĠ xiÃ¡
zhÄ«Ġ wÃłiĠ
Ġ19 23ĠniÃ¡nĠ
Ġf Ã©i
ĠãĤ ¤
ĠfÃº ĠlÇĲĠ
ĠsuÃŃĠ zhÃ¹
ĠkÃ¨ĠxÄ«Ġ tÇİĠnÃŃĠdÃłĠqÅ«Ġ
p sĠ
Ġ gÄĵngĠmÃŃngĠwÃ¨iĠ
ĠĠĠ sÃ¬Ġ
Ãło ĠbÃ¹Ġ
qÅ« ĠwÃ¨iĠyÃºĠ
jiÄģng ĠdeĠ
nÇļ ĠyÇĴuĠ
mÃ¬ ĠÄĽrĠ
chÄģo ĠshÃ¬Ġ
lÃ¡ng ĠdeĠ
yÇĴuĠ xiÃłnĠ
ĠlÃ¬Ġ wÄĽiĠ
ĠchÃ©ngĠ qiÃ¡ngĠ
lÇĲĠ yÃ³uĠ
ĠyuÃ¡nĠ shÄĵngĠ
shÄĵngĠ yÃ¹Ġ
ĠsÄ«Ġ lÇĲĠlÃ¡nĠ
shÇĴuĠ yÃ¬ngĠ
wÇĶĠ shÃ¹Ġ
ĠyÄ«nĠ sÃ¹
ĠzhÃ¨Ġ liÇİngĠgÃ¨Ġ
shÅ«Ġ niÇĶ
dÃ¡Ġ kÄĵ
ĠzhÃ¹Ġ mÃŃngĠdeĠ
jiÇİngĠ zhÄģngĠ
4Ġ hÃłoĠ
mÃłnĠ hÄģĠ
fÃłnĠ chÃ³uĠ
biÃ©Ġ shÃ¹Ġ
ĠfÄĵnĠ lÃ¡nĠ
xuÄģnĠ chÄĵng
rÃ¨ĠdÃłiĠ dÄ«ĠqÃ¬ĠyÄģĠ
ĠzhÃŃĠ jÃ¬ngĠ
jiÃ©ĠmÃ¹ ĠzhÅįngĠ
zhÅ«ĠlÃ³ng ĠcÇİo
g Ã¡
Ġ Åįu
Ġ st
ĠĠĠ yÇĲ
ĠĠĠ wÅ«ĠkÃ¨ĠlÃ¡nĠ
le ĠhÃ©Ġ
duÃ¬ ĠzhÃ¬Ġ
yÄ«n ĠdeĠ
fÄĵn ĠduÃ¬Ġ
biÃłn ĠhÃ²uĠ
lÇľ ĠdÃ¬Ġ
rÃ³ng ĠyÃºĠ
194 0ĠniÃ¡nĠ
wÃłng ĠdeĠ
ĠbÃ¹Ġ chÃ©ngĠ
zuÃ²Ġ yÃ²ng
ĠyÇĶĠ mÄĽiĠguÃ³Ġ
ĠwÃ©iĠ lÃ¡iĠ
ĠqÃŃĠ xiÃł
yuÄĵĠ hÃłn
dÄģnĠ dÄģngĠ
hÃ¡iĠ bÄģoĠkuÃ²Ġ
zhÄĵnĠ xiÃłngĠ
ĠcÇĲĠ qiÃ¡nĠ
wÇİĠ shÄĽngĠ
liÃłnĠ ÃłiĠ
Ġ4 5Ġ
ĠluÃ³Ġ bÃ³Ġ
ol le
ĠÄģnĠ dÅįngĠ
kÅ«n ĠmÃŃngĠ
c Ã¹Ġ
p Ä«ngĠpÄģng
Ġ cÅ«nĠ
hÃ© n
qÃŃ ĠxiÃłĠ
gÃ²ng ĠzhÅįngĠyÄģngĠ
ĠbÃ¹Ġ bÃ¨iĠ
qiÃ¡nĠ fÄģngĠ
gÃ©Ġ lÄĵi
Ġc ÄģĠ
cÃŃĠ qÃ¹Ġ
ĠshÃ¬ĠzhÃ¨nĠ fÃłnĠwÃ©iĠnÃ¨iĠ
ĠdeĠyÃ¬Ġ shÃ¹Ġ
ĠshÄĵnĠ dÃ¹Ġ
ĠhÃ²uĠlÃ¡i ĠzÃłiĠ
ĠÃłi ĠdÃ©ĠhuÃ¡Ġ
jiÄģoĠhuÃ¬Ġ chÃ¹Ġ
ĠmÇĴuĠ xiÄĵĠ
zÄ«ĠbÄĽnĠ zhÇĶĠyÃ¬Ġ
4 000
y c
Ġ bÃ¬
Ġ diÇİnĠ
Ġ niÇĶĠ
Ġ bÇĲĠsÃłi
Äģn ĠdÃłĠ
ĠĠĠ ÃłoĠ
ĠĠĠ bÇĲĠsÃłiĠ
ĠĠĠ zhÃ¨ĠxiÄĵĠ
lÇĲ ĠzhÃ¬Ġ
hÃ²u ĠgÅįngĠ
shÇĲ ĠtÄģĠ
zhÇĶ ĠjÄ«Ġ
jÃ¬n ĠqiÃºĠ
tÃ¡i ĠshÃ¬Ġ
196 6ĠniÃ¡nĠ
ĠshÃŃĠ yÃºĠ
ĠshÃŃĠ qÄ«ĠniÃ¡nĠ
ĠchÃ©ngĠ kÃ¨
ĠchÃ©ngĠ shÃº
ĠtÄģĠ dÄģnĠrÃ¨nĠ
shÃ¹Ġ xuÃ©ĠjiÄģĠ
shÇĴuĠ xÃŃ
zuÃ¬Ġ zhÇİngĠdeĠ
bÄģĠ xÄ«
bÄģĠ mÇİ
jÇĲngĠ wÃ¹Ġ
yÃ¡nĠjiÅ« ĠzhÅįngĠ
jiÃłĠ zhÃŃ
qiÄģnĠ xÇĲ
ĠgÄģoĠ dÄĽngĠ
wÃ¡nĠ fÇİĠ
ĠshÃ¬ĠzhÅįngĠ xÄ«n
ĠtÃ³ngĠniÃ¡nĠ 8ĠyuÃ¨Ġ
ĠbÇĲĠ rÃº
wÃłnĠrÃ©nĠ cÃ¬Ġ
ĠzhÃ¬ĠzÃłoĠ shÄģngĠ
pÃ¬ n
zhÃłnĠdÃ²u ĠzhÅįngĠ
tÃ¡iĠnÃ¡n ĠshÃ¬Ġ
hÃ¹nĠnÃŃngĠ tÇĶĠ
inclu deĠ
b Ã¨ngĠ
Ġ jÇĶ
Ġ huÃ³ĠdÃ²ngĠ
xiÃłn ĠlÃ¹Ġ
miÃłn ĠyÇĴuĠ
dÄĽng ĠshÃ¬Ġ
zÇĶ ĠjiÃłn
hÃłn ĠrÃ©nĠ
yÄ«Ġ yÃłngĠ
ĠshÃŃĠ sÃ¬Ġ
ĠrÃ¬ ĠshÃ¬Ġ
ĠyÄ«Ġ zhÃłoĠ
ĠgÃ¨ ĠxiÃłnĠ
ĠtÄģĠ yÃ²uĠ
ĠdÃ©Ġ piÃłoĠ
ĠkÃ¨Ġ lÃŃnĠ
duÅįĠ dÃ¡Ġ
cÃŃĠ xÃ¬ngĠ
yÃ¡nĠjiÅ« ĠshÃ¬Ġ
huÃ²Ġ wÃ¹Ġ
huÃ¡nĠ rÃłoĠ
huÃłnĠ zhÄĽ
ĠshÇĲĠ chÄĵngĠ
ĠshÃ¬ĠshÃ¬Ġ zhÇİngĠ
suÅįĠ xiÄĽĠ
ĠxÄ« ĠyuÃ¡nĠ
jiÃłoĠkÄĵĠ wÃ©nĠ
8 2ĠniÃ¡nĠ
O C
m b
fÄĵn ĠhuÃ¬Ġ
kÄģi ĠguÃ³Ġ
dÇĲ ĠdeĠ
sÄģi ĠÄĽr
zhÃ¬Ġ shÇİoĠ
ĠyÄ«Ġ fÃºĠ
ĠyÄ«Ġ kÃłoĠ
ĠgÃ¨ ĠchÅ«ĠrÃ¹ĠkÇĴuĠ
duÃ¬Ġ huÃłĠ
ĠbÃ¨iĠ sÄ«Ġ
zhÃŃĠ jiÃłoĠ
ĠshÃłngĠ xiÃłĠ
zhÇĲĠ dÇİo
bÄģĠ hÃ¨
nÇļĠ xÃ¬ngĠdeĠ
zÇĶĠ shÅ«ĠjÃ¬Ġ
cÃ¡iĠ zhÃ¨ngĠbÃ¹Ġ
jiÇİĠ bÇİnĠ
tÃłnĠ xiÇİnĠ
ĠzÃłiĠyÄ«Ġ cÃ¬Ġ
ĠyÄ«ĠsÄ«Ġ lÃ¡n
ĠtÇİoĠ lÃ¹nĠ
dÅįngĠjÃ¬Ġ ÃłoĠlÃŃnĠpÇĲĠkÃ¨ĠyÃ¹nĠdÃ²ngĠhuÃ¬Ġ
mÃŃng ĠyÇĶĠ
mÄĽi ĠshÃŃĠ
jÃ¬ng ĠwÃ¨iĠ
biÃ© ĠrÃ©nĠ
ĠniÃ¡nĠ dÃ¹
ĠzÃłiĠ xiÄģngĠgÇİng
ĠgÅįngĠ bÃ¹
ĠgÅįngĠ yÃ¹Ġ
lÃ¹Ġ duÃłn
ĠjÅ«nĠ qÅ«
kÄĵĠ tÃ¨Ġ
ĠzhÃ¹Ġ zuÃ²Ġ
wÄĽiĠ dÃłĠdeĠ
dÇİĠ bÃłiĠ
hÃ¡nĠ shÃ¹
ĠguÃ³ĠjiÄģĠ ÄģnĠquÃ¡nĠ
hÄģĠ sÃłĠkÃ¨ĠsÄ«Ġ
tuÄ«Ġ dÃ²ng
Ġb ack
yÇĲngĠxiÇİng ĠleĠ
wÅ«ĠkÃ¨ĠlÃ¡n ĠdeĠ
ĠwÃ¨iĠyÃºĠgÄģiĠguÃ³Ġ dÅįngĠnÃ¡nĠbÃ¹Ġ
ĠtÃ¨ĠbiÃ© ĠshÃ¬ĠzÃłiĠ
ĠjÄ«ĠbÃłi ĠleĠ
ĠdeĠjÄ«ĠchÇĶ ĠshÃłngĠ
mÃ¬ĠxÄ«ĠxÄ«Ġ bÇĲ
8 3Ġ
F or
Ġ jÃŃ
Ġ fÃ¨ng
Ġ guÇĴĠ
Ġ shÃ¹nĠ
lÇĲ ĠjÃŃĠ
guÄģn ĠjiÃłn
bÅį ĠxÄ«Ġ
fÃ¨i ĠchÃ©ngĠ
195 4ĠniÃ¡nĠ
xiÃ¨ ĠrÃ¨nĠ
ĠshÃŃĠ bÄģĠniÃ¡nĠ
ĠzhÃ¬Ġ shÇĲĠ
ĠzhÃ¬Ġ ÄģnĠ
ĠyÄ«Ġ jiÇİoĠ
fÄĵnĠ xÄ«
ÃłnĠ chÃ¡ĠsÄ«Ġ
2Ġ hÃło
Ġs ÃłngĠ
gÃ²uĠ chÃ©ngĠdeĠ
xÃºnĠ huÃ¡n
shuÄģngĠ fÄģng
jiÃłoĠyÃ¹ ĠdeĠ
ĠfÄģĠ biÇİo
ĠtÃ¡iĠ bÄĽiĠ
xuÃ©ĠxiÃło ĠdeĠ
ĠÃłnĠ zhÃłoĠ
pÃŃngĠlÃ¹n ĠjiÄģĠ
lÃ¹ĠyÄ«nĠshÃ¬Ġ zhuÄģnĠjÃŃĠ
e an
Ġ dÃ¬ng
ĠĠĠ yuÃ¨
ĠĠĠ suÇĴĠ
Ãło ĠdeĠ
shÇĴu ĠgÃ¨
wÃ©n ĠhÃ©Ġ
suÇĴ ĠzhÄ«Ġ
wÃ¡ng ĠgÅįngĠ
jiÃ¹ ĠdeĠ
nÃŃ ĠjÄ«Ġ
yÃ¡ng ĠrÃ©nĠ
lÇľ ĠhÃ©Ġ
suÃ¬ ĠrÃ©nĠkÇĴuĠ
yuÇİn ĠdÅįngĠ
ĠdeĠ guÇĲĠdÃłoĠ
ĠbÃ¹Ġ lÇĶĠkÃ¨Ġ
ĠshÃ¨ ĠshÃ¬Ġ
jiÃłoĠ huÃ¬ĠdeĠ
zhÃŃĠ tÅįngĠ
ĠkÃ¨Ġ hÃ¹Ġ
shÄ«Ġ gÄĵĠ
bÅįĠ yÃ¬ngĠ
gÃ¨ngĠ gÄģoĠdeĠ
ĠxiÃłnĠdeĠ chÃ©ngĠshÃ¬Ġ
kÄĽĠnÃ©ng ĠzÃłiĠ
si onĠ
zÄ«ĠgÃ©Ġ sÃłiĠ
lÃ¡nĠqiÃºĠ yÃ¹nĠdÃ²ngĠyuÃ¡nĠ
tiÄģnĠjÄ«n ĠshÃ¬Ġ
ĠkÇĴngĠ tÃłi
ĠĠĠst yleĠ
m o
Ġ liÃ¡n
Ġ bÃłoĠdÃłoĠ
ĠĠĠ mÇĲĠ
ĠĠĠ fÄĵiĠ
ĠĠĠ shÃ¨Ġ
zhÃ¨ng ĠrÃ©nĠ
jÄ«ng ĠchÃ©ngĠ
nÃ¡n ĠyÇĶĠ
mÃ¹ ĠhÃ©Ġ
fÃº ĠsÄ«Ġ
wÄĽi ĠrÃ¨nĠ
gÃ²u ĠjiÃłnĠ
bÄģng ĠdeĠ
liÃło ĠlÇĲĠ
nÃŃng ĠxiÃłnĠ
chÅ«n ĠjiÃ©Ġ
gÅįngĠ zuÃ²
ĠxiÃłnĠ lÃ¹
ĠhÃ²uĠ xÃ¹Ġ
nÃ¡nĠ cÃ¨Ġ
shÄģnĠ kÇĴuĠ
fÄĵngĠ bÃ¬Ġ
shÅ«Ġ fÇİĠ
sÃ¬Ġ miÃłoĠ
yÇİnĠ xÃŃĠ
ĠxiÄģngĠ jiÃłoĠyÃºĠ
gÇİiĠ zhuÄģngĠ
gÃ²ngĠ xiÇİngĠ
hÃ¹Ġ zhÃłoĠ
jÃ¬nĠ zhÇİnĠ
Ġt ÃłĠ
ĠpÃŃngĠfÄģngĠ yÄ«ngĠlÇĲĠ
yÃ¡oĠ gÇĶnĠ
pÃ©iĠ yÇİngĠ
zÃ²ng ĠduÃ¬Ġ
ĠniÇĶĠyuÄĵ ĠshÃŃĠbÃłoĠ
ĠzhÅįngĠyÄģngĠjÅ«nĠ wÄĽiĠ
6 7ĠniÃ¡nĠ
b Äĵn
t Å«nĠ
x tĠ
Ġ lÃ¹ĠyÃ¬Ġ
sÄ« ĠwÃ¨iĠ
huÃł ĠjÃ¬Ġ
tÇĲ ĠwÃ¨iĠ
bÄģ ĠgÃ¨Ġ
dÇİng ĠzhÅįngĠyÄģngĠ
wÄĵi ĠÄĽrĠshÃ¬Ġ
jiÄĽ ĠmÃ¨iĠ
bÃ¡i ĠgÅįngĠ
nÇĲ ĠdeĠ
ĠshÃ¬Ġ dÃłiĠ
jiÄģĠ tÃŃng
wÃ©iĠ qÄ«Ġ
guÄģnĠ zhÃŃĠ
liÃ¡nĠ xÃ¬
tÇĲĠ zhÃ²ngĠ
xiÇİoĠ tÃŃĠ
wÃ¡ngĠ zÇĲ
bÃ¬Ġ huÃłĠ
shÃ¨ngĠ diÃłnĠ
shÇĶĠ wÃ¹ĠzhÇĴngĠ
luÃ²Ġ yÃ¡ngĠ
yÇĲnĠ rÃ¹
5ĠyuÃ¨Ġ 1ĠrÃ¬Ġ
ĠĠĠM ar
ĠliÃ¡nĠ bÄģngĠ
ĠxÃŃngĠzhÃ¨ngĠ qÅ«ĠhuÃłĠ
qÃ¬ngĠ zhÃ¹
wÃ©nĠhuÃł ĠhÃ©Ġ
ĠyÃ¬ĠzhÃŃ ĠshÃ¬Ġ
gÇİiĠbiÄģn ĠwÃ¨iĠ
n Çİ
Ġ xÇĲ
Ġ hÃ¡oĠ
ĠĠĠ dÃ©Ġ
ĠĠĠ dÄģngĠshÃŃĠ
xÄ« ĠdÃłoĠ
shÄ« ĠzÃłiĠ
xÄ«ng ĠrÃ©nĠ
men t
shÃ¨ng ĠxiÃłĠ
zÇĲ ĠmÃ¨i
195 6ĠniÃ¡nĠ
ĠbÃ¹Ġ xÃŃngĠ
ĠrÃ©nĠ qÃºnĠ
ĠÃ©r ĠyÇĶĠ
shÇĴuĠ pÄ«Ġ
nÃ¨iĠ zhÃ¨ngĠbÃ¹Ġ
qÇĲĠ diÇİnĠ
qÃ¬Ġ xuÃ¡n
gÃ²ngĠ fÃ¨ngĠ
mÃ¬Ġ xiÄĵĠgÄĵn
dÃºĠ xÃ¬ngĠ
shÇĶĠdeĠ dÃ²ngĠwÃ¹Ġ
chÃ¡i ĠyÃ³u
fÃ©i ĠtÃ¨ĠliÃ¨Ġ
ÄģĠgÄĵnĠ tÃŃng
bÄģĠlÃ¨ ĠsÄ«ĠtÇİn
ĠgÄģiĠwÃ¹ĠzhÇĴngĠdeĠmÃ³ĠshÃ¬ĠchÇİnĠ dÃ¬ĠzÃłiĠ
S P
T heĠĠĠ
f ĠĠĠ
Ġ shÄģoĠ
Ġ zÇİoĠqÄ«Ġ
ĠĠĠ 1ĠĠĠ
jiÃłn ĠguÃ³Ġ
chÅ« ĠxiÃłn
liÃ¨ ĠdÃ¬Ġ
wÃº ĠshÃ¬Ġ
yÃłn ĠshÃ¬Ġ
194 2ĠniÃ¡nĠ
wÃłng ĠsÄ«Ġ
zÃłn ĠwÃºĠ
ri p
ĠzÃłiĠ dÃ¹
ĠbÃ¹Ġ luÃ³Ġ
ĠbÃ¹Ġ lÃ©iĠ
ĠshÃŃĠ Ã¨rĠyuÃ¨Ġ
pÃŃngĠ jiÃ¨Ġ
ĠzhÅįu ĠzhÄ«Ġ
nÃ¡nĠ xÃ¬ng
suÇĴĠ zuÃ²ĠdeĠ
guÃ²Ġ lÃ¡iĠ
zuÃ¬Ġ dÄ«
yÃŃĠ lÃ¡n
wÃºĠ xÅ«Ġ
zÃºĠ qÃºn
gÃ²uĠ rÃ¹Ġ
tuÅįĠ lÃŃ
tuÄ«Ġ fÄģn
kÄģiĠshÇĲ ĠdeĠ
ĠzÃłiĠ200 3ĠniÃ¡nĠ
ĠĠĠ198 4ĠniÃ¡nĠ
bÄģngĠzhÃ¹Ġ xiÃłĠ
mÃ¹ĠnÃŃĠ hÄĵi
- .
Ġ nÃ©ng
Ġ yÇİn
Ġ xÅ«
Ġ 24Ġ
yÇĴu ĠwÃ¨iĠ
zhÃ¹ ĠshÃ¨Ġ
mÇİ ĠdÃ©Ġ
tÃ¡i ĠhÃ©Ġ
tÅįng ĠdeĠ
bÃło ĠyÇĶĠ
cÄģn ĠyÃ¬ĠyuÃłn
wÇİ ĠsÄ«Ġ
mÇİn ĠzhÅįuĠ
dÃ¬Ġ shÃŃĠ
ĠjÃŃĠ xÃ¬ngĠ
jÃ¹Ġ luÃ²Ġ
guÄģnĠ kÃłn
jiÃ©Ġ yÃ¹nĠ
diÃłnĠ zhÃłnĠ
yÃłĠ mÇİĠ
sÄģnĠ fÄĵnĠzhÄ«Ġ
liÃ¨Ġ nÃŃngĠ
Ġm Äģo
zhÃ¨ngĠzhÃ¬Ġ xiÃ©ĠshÄģngĠhuÃ¬ĠyÃ¬Ġ
shÃ¨Ġ huÃ¬ĠdeĠ
xÃŃngĠzhÃ¨ngĠ qÅ«Ġ
tÅ«Ġ juÃ©
kuÄģnĠ dÃ¹Ġ
ĠgÃ©Ġ lÃ©iĠ
diÄģoĠ sÃ¹
zuÃ¬ĠhÃ²uĠyÄ«Ġ cÃ¬Ġ
n ÃłoĠ
Ġ zÄĵng
Ãło ĠzhÅįu
Ã¡i ĠzhÃ¨ngĠ
wÃ¹ ĠjÃŃĠ
fÃ¹ ĠlÇĲĠ
zhÃŃ ĠxiÃłnĠ
dÄģn ĠshÃ¬Ġ
tÃłi ĠhÃ©Ġ
cÃ¡i ĠfÃ¹Ġ
qiÄģng ĠdeĠ
ĠyÃºĠ 17
fÇİĠ Ãłn
ĠshÃłngĠ sÃ¹Ġ
ĠrÃ¨nĠ jiÃłoĠ
yÃŃĠ dÇİoĠ
ĠxiÄģngĠ xÃ¬nĠ
pÃ¡iĠ chÃº
yÇĲngĠxiÇİngĠ lÃ¬ĠdeĠ
ĠĠĠA n
xiÅįngĠ zhÇİngĠ
lÄĽi ĠdÇİĠ
ĠĠĠc olspanĠ
mÃ¹ĠbiÄģo ĠshÃ¬Ġ
fÄĵiĠlÃ¬Ġ pÇĶĠ
A ĠdeĠ
o x
Ġ tuÅį
Ġ VĠ
Ġ pÃ¨iĠhÃ©Ġ
yÄ« ĠhÃ©Ġ
xÄ« ĠrÃ¬ĠbÄĽnĠ
lÇĲ ĠzÃłiĠ
duÃ¬ ĠzhÅįngĠguÃ³Ġ
bÃ¨i ĠlÃ¬Ġ
dÃłi ĠzÃłiĠ
chÃłng ĠdeĠ
ĠzhÃ¬Ġ xÃ¹Ġ
ĠdÃłĠ tÄ«ngĠ
ĠyuÃ¡nĠ xiÄģnĠ
nÃ¡nĠ hÃ¡iĠ
jiÄĵĠ tÃ¬
fÃºĠ niÃ¨Ġ
zuÃ¬Ġ hÃ²u
zÇĴngĠ zhÇİngĠ
yÄ«ngĠ chÄģoĠ
bÅįĠ lÃŃ
kÅįngĠ xÃŃ
xÃŃngĠ zhÃ¨ng
wÇİĠ lÄģĠ
dÄĵngĠ chÃ¡ng
ĠzuÃ¬ĠzhÅįngĠ yÃºĠ
lÃŃĠkÄģiĠ leĠ
yÃ¬ĠshÃŃĠ dÃło
cÄģnĠsÃłiĠ zhÄĽĠ
wÃłiĠguÃ³Ġ rÃ©nĠ
I L
T O
Ġ liÃ¡o
lÇĲ ĠwÃ¨iĠ
mÃŃng ĠdÃ¬Ġ
shÃ¹ ĠlÃ¬Ġ
yÃ¨ ĠshÃ¬Ġ
huÃ¡ ĠyÃ¬Ġ
cÃ¡i ĠshÃ¬Ġ
tÃ¡ng ĠdÃłiĠ
quÃ¨ ĠshÃ¬Ġ
ri tic
ĠlÃ¬Ġ xÄ«Ġ
ĠrÃ¬ ĠjÃŃĠ
ĠrÃ¬Ġ jÃ¬Ġ
ĠyÇĶĠ duÅįĠ
bÃ¨iĠ pÃ²Ġ
duÃ¬Ġ bÇĲĠ
ĠxÄ«Ġ fÄģng
pÃŃngĠ dÄĽngĠ
yÃŃĠ bÃ¹ĠdeĠ
xiÃłoĠ xiÃłngĠ
12ĠyuÃ¨Ġ 28ĠrÃ¬Ġ
tÃ¡oĠ lÃŃĠ
ĠjÄ«ngĠ guÃ²
ĠshÃ¬ĠdÃ¬Ġ Ã¨rĠ
ĠmÇİ ĠkÃ¨Ġ
qÃŃngĠkuÃłngĠ xiÃł
ĠshÃ¬ĠwÃ¨iĠyÃºĠmÄĽiĠguÃ³Ġ mÃ¬ĠsÅ«ĠlÇĲĠ
fÄĽi ĠcuÃ¬Ġ
mÃ¨i ĠmÃ¨iĠ
9 6Ġ
¡ Ġ
Ġ chÃ¬
Ġ yÇĴuĠdeĠ
jÃ¹ ĠshÃ¬Ġ
xiÃłng ĠzÃłiĠ
qiÃ¡n ĠlÃ¬Ġ
duÅį ĠyÃºĠ
pÃ¡i ĠdeĠ
193 9ĠniÃ¡nĠ
yÄ«Ġ jÃŃĠ
lÇĲĠ sÄ«Ġ
ĠdÃło ĠwÃ¨iĠ
mÃŃngĠ yÃ¹Ġ
xuÇİnĠ xiÃ¹Ġ
biÄģnĠ jiÄģngĠ
bÃłnĠ chÇİngĠ
jiÃłnĠ zÃło
qÄ«nĠ lÃ¼Ã¨Ġ
jÅ«nĠ duÃ¬
Ġg ÇĴuĠ
Ġk ÄĽn
leĠyÄ«Ġ zuÃ²Ġ
chuÃ¡nĠtÇĴng ĠshÃłngĠ
dÄģĠ pÃ¨iĠ
jiÃ¨ĠquÃ¡nĠguÃ³Ġ rÃ©nĠdÃłĠdÃłiĠbiÇİoĠ
qÇĲĠyÃ¨ ĠjiÄģĠ
gÇİnĠlÇİn ĠqiÃºĠ
ĠfÄĵiĠlÇľĠ bÄ«nĠ
kÇİĠsÄ«ĠdÃ¬ĠlÃ¬Ġ yÃłĠ
b yĠĠĠ
Ġ guÃ²ĠqÃ¹Ġ
dÃłi ĠhÃ©Ġ
yÄĽ ĠwÃ¨iĠ
gÇĶ ĠxÄ«ĠlÃłĠ
zhuÄģng ĠzÃłiĠ
194 3ĠniÃ¡nĠ
pÃło ĠjÄ«Ġ
ĠdeĠ zuÃ²ĠpÇĲnĠ
ĠdeĠ yÄ«nĠyuÃ¨Ġ
ĠshÃ¬Ġ qiÃ¡nĠ
ĠbÃ¹Ġ fÃ¹ĠbÃ¹ĠzhÇİngĠ
ĠyuÃ¡nĠ yÃ¬Ġ
ĠsÄ«Ġ tÇİ
yÃ¹Ġ nÃłnĠ
ĠjÅ«nĠ xiÃ¡nĠ
diÃłnĠ yÄģĠ
yÃ¨Ġ zhÄĽĠ
jiÄĵĠ cÃ©ngĠ
ĠzhÃ¹Ġ cÃ¨Ġ
bÃłnĠ jÃ¬ngĠ
kÅįngĠ jiÃłngĠ
gÃ¹Ġ zhÃłngĠ
Ġ19 17ĠniÃ¡nĠ
bÇĶĠ chÅįng
huÃ¡ĠrÃ©nĠmÃŃnĠ gÃ²ngĠhÃ©Ġ
shÄĽnĠ pÃłn
ĠlÃ¬ngĠ yÃŃĠgÃ¨Ġ
ĠcÇĲ ĠzhÃłnĠ
il Ġ
ĠliÇİng ĠniÃ¡nĠ
tÇĲĠyÃ¹Ġ chÇİng
fÃ¡nĠ rÃ³ngĠ
ĠyÇĲĠjÄ«ng ĠbÃ¨iĠ
yÃ¬ngĠyÃ²ngĠ chÃ©ngĠshÃ¬Ġ
tÃ³ngĠxÃ¬ngĠ liÃłnĠ
ĠdÃ¬ĠzhÅįngĠ hÇİiĠ
Ġ jiÇİng
Ġ zhÄĽng
Ġ biÄģoĠzhÃ¬Ġ
ĠĠĠ zhÇĲĠ
hÇİi ĠzhÃłnĠ
10 ĠrÃ©nĠ
bÇĶ ĠshÃŃĠ
ĠzhÃ¬Ġ dÃłĠ
ĠchÅ« ĠwÃ¨iĠ
ĠÄĽr ĠjiÄģĠ
ĠtÄģĠ kÄģiĠshÇĲĠ
zhÃ¨Ġ zuÃ²Ġ
dÅįngĠ fÄĵngĠ
tiÄģnĠ qiÃ¡oĠ
yÃłoĠ sÃłiĠ
bÃ¬Ġ yÃ¨
Ã¨rĠ hÃłoĠ
tÃ³ngĠ pÃ¡iĠ
dÇİngĠ wÄĽiĠshÅ«ĠjÃ¬Ġ
xiÃ©Ġ huÃ¬ĠdeĠ
Ġh Äĵng
dÇĲngĠ diÇİnĠ
yÃ¬ĠshÃŃĠ dÃłoĠ
ĠĠĠzhÅįngĠ huÃ¡ĠmÃŃnĠguÃ³Ġ
ĠzhÄ«ĠjiÄģĠ gÄĵĠ
ĠfÃºĠlÇİngĠ shÃ©nĠ
p ro
t onĠ
y Å«Ġ
ï ¹
Ġ chuÃłngĠlÃ¬Ġ
yÇĶ ĠĠĠ
su ÇĲĠ
shÄģn ĠjÃŃĠ
qÃ¬ ĠjÄ«Ġ
fÄĵng ĠlÃ¬Ġ
gÇİi ĠyÃ³uĠ
mÃ³ ĠdeĠ
an k
ĠshÃ¬Ġ xiÃłnĠ
yuÃ¡nĠ sÃ¹Ġ
ĠguÃ³Ġ huÃ¬ĠyÃ¬ĠyuÃ¡nĠ
ĠgÅįngĠ wÃ¹ĠyuÃ¡nĠ
jÄ«Ġ xiÃ¨Ġ
ĠyuÃ¡nĠ xiÄģn
ĠxÃŃngĠ zhuÃłngĠ
ĠdÃ© ĠchÅ«Ġ
ĠhÃ²uĠ yÃ²uĠ
ĠbÃ¨iĠ gÃ©Ġ
guÄģnĠ jiÃ©Ġ
tÃłiĠ lÄĵiĠ
Ġp ÄĵngĠ
ĠdeĠyÄ«Ġ zuÃ²
ĠjÄ«nĠ tiÄģnĠ
huÄ«Ġ sÃ¨Ġ
gÃłiĠ yÃłoĠ
sÃ²ngĠ wÇİngĠ
ÃłoĠlÃŃnĠpÇĲĠkÃ¨Ġ yÃ¹nĠdÃ²ngĠ
ĠĠĠ195 0ĠniÃ¡nĠ
xÄ«nĠchÃ©ngĠ lÃ¬ĠdeĠ
Ġback groundĠ
6 3ĠniÃ¡nĠ
J RĠ
d a
Ġ chuÃłngĠzuÃ²Ġ
Ġ mÃ¬ngĠmÃŃngĠ
ĠĠĠ cÃ©ngĠ
ĠĠĠ rÃºĠguÇĴĠ
jiÃ© ĠrÃ¬Ġ
kÄĽ ĠgÅįngĠ
mÃ¹ ĠjÄ«Ġ
tÃ¡i ĠhÃ²uĠ
lÃŃn ĠhÃ©Ġ
gÇĶ ĠjÃŃĠ
cÄģn ĠjÅ«nĠ
sÃ¨ ĠhÃ©Ġ
chuÃ¡n ĠdÃłoĠ
gÇİng ĠdeĠ
jiÃł ĠwÃ¨iĠ
ĠdeĠ guÃ³ĠjÃ¬Ġ
ĠbÃ¹Ġ jiÃłnĠ
jÃŃĠ tuÃ¡nĠ
ĠrÃ©nĠ yÃ¬Ġ
suÇĴĠ shÇĲĠyÃ²ngĠdeĠ
fÃºĠ lÄģĠ
yuÄĵĠ 3
ĠtÃ³ngĠ shÃŃĠzÃłiĠ
ĠyÄ«nĠwÃ¨iĠ zÃłiĠ
Ġ4 0Ġ
ĠtÅįngĠ chÃ¡ngĠshÃ¬Ġ
zÃłoĠchÃ©ngĠ leĠ
ĠcÃ³ng ĠshÃ¬Ġ
50Ġ wÃłnĠ
ĠzÃłiĠjiÄģĠ shÃłngĠ
jiÄģoĠliÃº ĠdÃłoĠ
chÄĵĠrÃ©nĠ cÃ¬Ġ
8 ĠĠĠ
8 ĠmÃŃngĠ
F C
Ġ gÄģoĠzhÅįngĠ
yÃ¹ ĠmÃŃngĠ
yÃł ĠÄĽrĠ
zÇĲ ĠmÃ¨iĠ
193 6ĠniÃ¡nĠ
pÃło ĠdeĠ
ĠshÃ¬Ġ jÃ¬
bÃ¹Ġ duÃ¬Ġ
yuÃ¡nĠ wÃłiĠlÃ¡ngĠ
sÄ«Ġ xiÇİng
ĠdÃłoĠ qiÃłnĠ
zhÃłnĠ tÄ«ngĠ
fÇİĠ tÃŃng
ĠzhÃłnĠ shÃ¨ngĠ
qÇĲĠ fÄĵiĠ
dÃ¬ngĠ jÅ«
luÃ³Ġ fÅ«
shÄģĠ tÃ¨Ġ
shÇĶĠ shÇĶĠ
ĠqÃŃĠzhÅįngĠ yÃŃĠgÃ¨Ġ
zhÄĵnĠ zhÅ«Ġ
sĠĠĠ S
chÃ³ngĠ bÃłiĠ
ĠdeĠshÃŃĠ dÃłiĠ
guÇİnĠlÇĲĠ jÃº
ĠbÃ¬Ġ xÅ«
ĠyÃ²ngĠ lÃ¡iĠ
ĠrÃ¨nĠwÃ©i ĠshÃ¬Ġ
G P
M S
Ġ jÇĶĠ
Ġ kÄĽĠyÇĲ
Ġ lÃŃnĠshÃŃĠ
di ng
shÄĵn ĠkÃ¨Ġ
sÃ¹ ĠwÃ¨iĠ
cÃŃ ĠyÇĶĠ
jiÄĽ ĠxÄ«Ġ
dÅ«n ĠdeĠ
ĠyÄ«Ġ shÅ«Ġ
ĠyÇĶĠ tÄģ
shÄĵngĠ mÃ¬ng
ĠchÅ« ĠshÃ¬Ġ
ĠdÃłiĠ lÇĲng
gÇĶĠ gÃ©Ġ
tÃºĠ shÄģ
shÄģngĠ hÃłi
ĠnÃ¡nĠ fÄģngĠ
huÃŃĠ lÃ¡iĠ
zhÅįngĠdeĠ yÃŃĠgÃ¨Ġ
pÄ«Ġ quÃ¡nĠguÃ³ĠzhÃ²ngĠdiÇİnĠwÃ©nĠwÃ¹ĠbÇİoĠhÃ¹ĠdÄģnĠwÃ¨iĠ
Ġn ÇİoĠ
fÃ¡Ġ kuÇİnĠ
ĠdeĠdÃłĠ xÃŃngĠ
ĠgÇİiĠ biÄģn
zhÃłnĠzhÄĵng ĠdeĠ
ĠzhÄģnĠ mÇĶĠsÄ«Ġ
zhÇĶĠjiÃłoĠzuÃ²Ġ tÃ¡ngĠ
ĠkÇĴngĠtÃłi ĠdÃłĠqÅ«Ġ
7 ĠĠĠ
9 8Ġ
l ÇĴng
Ġ fÄģĠzhÇİn
Ġ qÄ«ngĠniÃ¡nĠ
Ġ duÃ³ĠdeĠ
ĠĠĠ hÇİiĠ
ĠĠĠ ÃłnĠ
ju Ãłn
zhÄģo ĠmÃ¹Ġ
ĠzÃłiĠ jÃ¹Ġ
ĠyÃ¬Ġ rÃ¬Ġ
ĠjÃ¬Ġ jiÃ©Ġ
rÃ¨nĠ nÃ¨iĠ
yÃ¹Ġ suÃłn
ĠrÃ¨nĠ nÃ¨iĠ
quÃ¡nĠ miÃłn
chÃ¡ngĠ chÅ«n
liÃºĠ lÇİnĠ
ĠdÃłiĠ bÇĶĠ
kÅįngĠ jiÄģnĠdeĠ
shuÄģngĠ xiÃłngĠ
piÃłoĠ jiÃłĠ
jÃ¹nĠ wÃ¡ngĠ
chÄģĠ biÃ©Ġ
ĠzÃłiĠ200 0ĠniÃ¡nĠ
ĠmÃŃnĠ jÃ¬nĠ
ĠrÃ¨n ĠzhÅįngĠgÃ²ngĠ
wÃłiĠjiÄģoĠ guÄģnĠxÃ¬Ġ
xiÅ«ĠzhÃ¨ngĠ ÃłnĠ
4 5ĠniÃ¡nĠ
5 ĠzhÃ¬Ġ
o ngĠ
p Ã©nĠ
Ġ chÇİnĠ
zhÃłn ĠshÃŃĠqÄ«Ġ
shÃ¹ ĠzhÄ«Ġ
kÄģi ĠdeĠ
liÃ¡n ĠsÄ«ĠjÄ«Ġ
mÇİ ĠshÃłngĠ
sÃłi ĠshÃłngĠ
wÇĶ ĠjÃŃĠ
wÄĵi ĠsÄ«Ġ
194 6ĠniÃ¡nĠ
dÄ« ĠdÃ¬Ġ
yÇİng ĠhÃ©Ġ
ĠshÃ¬Ġ juÃ©Ġ
ĠbÃ¹Ġ lÇİng
ĠshÃŃĠ jiÄģĠ
ĠdÃ¬Ġ di
ĠdÃ¬Ġ zhÇĲĠ
ĠzhÃ¬Ġ suÇĴĠzÃłiĠ
zhÃ¨Ġ xiÃłngĠ
wÃ©nĠ zÃ¬
zhÃŃĠ quÃ¡nĠ
yÃŃĠ chÃºĠ
bÃłoĠ dÇİo
bÃ¬Ġ yÃło
biÃłnĠ huÃłĠdeĠ
yÇĲĠ lÃ¡i
ĠtÃ³ngĠ mÃ©ng
cÄģnĠ tÄ«ng
hÄĽnĠ shÇİo
chÅįngĠ mÇİn
ĠdeĠrÃ©nĠ kÇĴuĠwÃ¨iĠ
wÃ¡nĠchÃ©ngĠ hÃ²uĠ
ĠL i
jiÄģoĠtÅįng ĠbÃ¹Ġ
ver si
ĠpÄģi ĠshÃ¨
gÄģoĠdÄĽng ĠxuÃ©ĠxiÃłoĠ
fÃºĠlÃ©i ĠdÃ©Ġ
sÃłĠzhÅ«Ġ sÄģi
B AĠ
g ÄĽĠ
z Ã©i
Ġ chÃ¡o
Ġ dÃ²ngĠhuÃłĠ
Ġ nÃ©ngĠgÃ²uĠ
chÃ¡ng ĠniÃ¡nĠ
luÃ³ ĠyÄ«Ġ
pÃ¨i ĠsÄ«Ġ
wÄĵn ĠhÃ©Ġ
ĠwÃ¨iĠ jÅ«nĠ
ĠhÃ©Ġ hÃ²uĠ
ĠzhÅįngĠ wÇĶĠ
jÃ¬Ġ yÃ¬Ġ
ĠjÅ«n ĠjiÃłnĠ
ĠbÃ¨iĠ shÄģĠ
liÃ¡nĠ tÃ³ngĠ
quÃ¡nĠ lÃ¬ĠdeĠ
qÄ«ngĠ chÇĶ
yuÄĵĠ 2
ĠdeĠshÃ¬Ġ wÃ¹Ġ
fÃ¨iĠ chÃº
hÃ¡nĠ liÃłngĠ
sĠĠĠ C
Ġn ÃºĠ
dÃłiĠbiÇİoĠ tuÃ¡n
xuÃ¡nĠ lÇľĠ
yÃ¬nĠdÃ¹Ġ jiÃłoĠ
pÃłoĠ tÇİĠ
zhuÄ«Ġ suÃŃĠ
ĠmÇİ ĠÄĽrĠ
tÅįngĠguÃ² ĠdeĠ
u p
Ġ xiÅ«
Ġ qÇĲng
ĠĠĠ guÇĲĠdÃłoĠ
hÃ²u ĠzhÃ¬Ġ
yÃ³u ĠhÃ©Ġ
shÇĴu ĠzhÄ«Ġ
zhÇİng ĠshÃŃĠjiÄģnĠ
wÇĶ ĠrÃ¬Ġ
gÄģi ĠshÃ¬Ġ
rÃº ĠtÃ³ngĠ
yÃ²u ĠyÇĴuĠ
zhuÇİn ĠrÃ¨nĠ
197 7ĠniÃ¡nĠ
chÃ¨ ĠchÅ«Ġ
ĠchÃ©ngĠ yuÃ¡nĠdeĠ
ĠrÃ¬ ĠĠĠ
ĠzhÄ« ĠrÃ©nĠ
zhÃ¨ngĠ wÄĽiĠ
duÃ¬Ġ cÇĲĠ
shÃłngĠ jiÃłngĠ
shÃ¹Ġ zÃ¬
jÄ«ngĠ shÄ«Ġ
ĠkÃ¨Ġ lÃ©iĠ
ĠjÃ¬n ĠchÃ©ngĠ
fÄĵnĠ jiÄĽĠ
zuÃ¬Ġ dÃł
ĠshÄĵngĠ yÄ«nĠ
bÃ³Ġ lÇİn
ĠchÃ©ngĠwÃ©iĠ yÃŃĠgÃ¨Ġ
hÃ¡iĠ mÃ©iĠyÇĴuĠ
chÇĶĠ sÇĲĠ
ĠliÃ¡nĠ bÄģng
juÃ©ĠsÃ¨Ġ bÃłnĠyÇİn
ĠguÃ³ĠmÃŃnĠ gÃ©ĠmÃ¬ng
ĠqÃŃĠtÄģ ĠrÃ©nĠ
6 ĠshÃŃĠ
b ÃŃ
Ġ tÃ³u
Ġ kÇĴng
Ġ miÃłnĠduÃ¬Ġ
ĠĠĠ zhÇĶĠ
Äģi ĠdÃ©Ġ
xÄ«n ĠniÃ¡nĠ
sÄģn ĠhÃ©Ġ
qÃ¬ ĠzhÃ¬Ġ
qÃ¬ ĠyÃ³uĠ
qÄ«ng ĠlÇĲĠ
lÃŃng ĠshÃŃĠ
ĠwÃ¨iĠ rÃ¬ĠbÄĽnĠ
ĠyÇĲĠ cÇĲ
ÄģnĠ dÇİĠ
ĠchÅ«Ġ shÇĲĠ
fÄģĠ diÃłnĠjÄ«Ġ
ĠÃ©rĠ sÇĲĠ
shÇĴuĠ qiÃºĠ
ĠzuÃ²Ġ yÃ²ng
xiÇİoĠ zhÃ¨nĠ
hÃ¡iĠ yÃłoĠ
liÃłnĠ jiÄĵĠ
nÃŃngĠ bÅįĠ
dÃłnĠ yÃłoĠ
ĠdeĠjÃ¬Ġ zÇİiĠ
ĠÄĽrĠsÄ«Ġ kÃ¨Ġ
ĠwÃ¨iĠyÃºĠgÄģiĠguÃ³Ġ zhÅįngĠbÃ¹Ġ
jiÃ©ĠgÃ²u ĠdeĠ
gÇİiĠbiÄģn ĠzÃ¬Ġ
yÃ¬nĠdÃ¬Ġ ÄģnĠrÃ©nĠ
chÃ³ngĠqÃ¬ng ĠshÃ¬Ġ
1 ĠgÅįngĠlÇĲĠ
u sic
Ġ xiÃ¹Ġ
Ġ pÄ«ĠpÃŃngĠ
yÇĴu ĠzhÅįngĠ
fÇİ ĠlÃ¬Ġ
zhÇĲ ĠhuÃ¬Ġ
gÄĵ ĠsÄ«Ġ
fÇİn ĠfÃ¹Ġ
kÃ¹ ĠsÄ«Ġ
wÄĵn Ġnu
tuÃ¬ ĠchÅ«
ĠyÃºĠ 8ĠyuÃ¨Ġ
ĠyÄ«Ġ lÃłi
ĠdÃłĠ xiÇİo
zuÃ²Ġ biÄģoĠ
wÃ¹Ġ yÃ¨Ġ
xiÄģngĠ cÅ«nĠ
jiÃ©Ġ jÃºĠ
ĠbÃ¬ngĠ zhÇĲĠyÃºĠ
jiÄĵĠ bÃ³Ġ
chÇİngĠ shÄģngĠ
cÃ¬Ġ huÃ¬ĠyÃ¬Ġ
lÃŃnĠ qÅ«Ġ
zÇĴngĠ jiÃ©Ġ
chuÃ¡nĠ fÃ³ĠjiÃłoĠ
Ġp ÄĵnĠ
gÇİiĠ liÃ¡ngĠ
shÄģĠ shÇĴuĠ
ĠgÄģiĠ dÇİng
shuÅįĠ fÃºĠ
ĠĠĠdÃ¬Ġ mÃŃngĠ
bÃ¬ngĠ fÄĵiĠ
Ġ2 ĠĠĠ
9 2Ġ
G D
ĠĠĠ huÃ¬Ġ
shÄĵng ĠshÃŃĠ
qÅ« ĠzhÄ«ĠyÄ«Ġ
ÄĽr ĠsÄ«Ġ
zhÄĽ ĠzhÄ«ĠyÄ«Ġ
pÃłi ĠchÅ«
rÃ¨ ĠhÃ©Ġ
ĠniÃ¡n ĠshÃ¬ĠjiÃ¨
ĠzÃłiĠ ÄģĠ
yÃ¬Ġ jiÃłnĠ
duÃ¬Ġ kÃłng
xiÃłĠ shuÇĲĠ
zhÃŃĠ nÃ©ngĠ
cÇĲĠ qiÃ¡nĠ
zhÃ¨nĠ yÄģ
yÃŃĠ jÅ«
zÄ«Ġ gÃ©
tÃŃngĠ liÃºĠ
xÅ«Ġ nÇĲ
ĠluÃ³Ġ nÃ¨Ġ
zÅ«nĠ shÇĴuĠ
ĠÃło ĠzhÅįuĠ
dÃ²ngĠlÃ¬Ġ xuÃ©Ġ
tÃ¡iĠfÄĵngĠ jÇĲngĠbÃło
hÃ¹nĠxi Ã¡oĠ
A n
Ġ yÃłĠlÃ¬ĠshÄģnĠdÃłĠ
Ãło ĠkÃ¨ĠxÄ«ĠtÇİĠnÃŃĠdÃłĠqÅ«Ġ
fÃ¹ ĠzÃłiĠ
bÄ«ng ĠduÃ¬Ġ
ĠzhÅįngĠ chÇİngĠ
ĠyÃºĠ 10ĠyuÃ¨Ġ
ĠgÅįngĠ zhÇĶ
xÄ«nĠ tÃ¡iĠbÃ¬Ġ
zhÃ¨Ġ chÇİngĠ
liÃ¡nĠ suÇĴĠ
ĠbÃ¬ngĠ dÄģnĠrÃ¨nĠ
ĠqÃŃĠ jiÄģnĠ
jiÄĵĠ duÃłnĠdeĠ
tÃŃĠ jiÄģo
wÇİngĠ yÃ¨Ġ
mÃ©iĠ yÇĴuĠzÃłiĠ
Ġl Ã²u
ĠgÄģoĠ dÃ¹Ġ
gÄģngĠ qÃŃn
xuÄģnĠbÃ¹Ġ jiÄģngĠ
leĠyÄ«Ġ chÃ¡ngĠ
Ġãģ Ħ
huÇĲĠ miÃ¨Ġ
ĠshÃ¬ĠyÃ¬Ġ yuÃ¡nĠ
ĠtÃ¡ngĠ chÃ¡oĠ
ir st
ĠpÃŃng ĠjÅ«n
tÃ²u ĠmÃŃngĠ
mÃŃnĠjÃ¬nĠ dÇİngĠ
zhÅ«ĠshÃ¬ĠhuÃ¬Ġ shÃ¨Ġ
Ġon ly
6 00Ġ
T S
T wit
k Ã©
Ġ tÃº
Ġ yÃ©Ġ
Ġ huÃłĠxuÃ©Ġ
yÃ³u ĠshÃ¬Ġ
wÃ©n ĠshÃ¬Ġ
sÃłi ĠhÃ©Ġ
sÃłi ĠhuÃ¬Ġ
shÄģn ĠchÃ©ngĠ
zÇĴng ĠrÃ©nĠkÇĴuĠdeĠ
wÃłn ĠdeĠ
197 3ĠniÃ¡nĠ
50 ĠmÇĲĠ
ĠdeĠ zhÃ¹Ġ
ĠzÃłiĠ guÃ³Ġ
ĠbÃ¹Ġ lÃºnĠ
ĠbÃ¹Ġ qiÄģngĠ
ĠbÃ¹Ġ duÃ¬ĠdeĠ
ĠyÃ¬Ġ kÄĽĠ
ĠyÇĲ ĠshÃŃĠ
ĠdÃłn ĠdÃłoĠ
dÅįngĠ hÇİiĠ
bÄĽiĠ shÃłngĠ
hÇİiĠ tÄģnĠ
mÇİĠ nÃŃĠ
rÃ¹Ġ xuÃ©Ġ
huÃ¡Ġ nÃ¡nĠ
bÃłnĠ lÇļĠ
5Ġ hÃłoĠ
Ġs Äģ
ĠdeĠyÄ«Ġ yuÃ¡nĠ
8Ġ hÃłoĠ
wÅ«Ġ dÇĲngĠ
yÇĴngĠ yuÇİnĠ
ĠdeĠshÃŃĠ wÃ¹Ġ
xiÃłĠjÃ¬Ġ ÃłoĠyÃ¹nĠhuÃ¬Ġ
huÃ¡nĠjÃ¬ng ĠzhÅįngĠ
ĠÑ Ģ
yÇĴuĠbÃ¹Ġ shÇİoĠ
ĠyÄ«ĠlÃ¬Ġ shÄģĠbÃ¡iĠ
Ġonly includeĠ
7 ĠmÃŃngĠ
e k
m Äģo
Ġ duÇİnĠ
rÃ¨n ĠhÃ²uĠ
liÃº ĠqiÃº
tiÄģn ĠdÃ¬Ġ
yuÃłn ĠhÃ©Ġ
gÇİi ĠchÃ©ngĠ
tÃ³u ĠyÃºĠ
196 5ĠniÃ¡nĠ
ĠwÃ¨iĠ fÃ¹Ġ
ĠzÃłiĠ 2020ĠniÃ¡nĠ
yÃºĠ lÃ¨Ġ
ĠlÃ¬Ġ xiÃłnĠ
ĠgÃ¨ ĠshÃ¬Ġ
ĠgÃ¨ ĠjÃŃĠ
huÃłĠ fÄĵnĠwÃ¨iĠ
fÇĶĠ bÃłiĠ
dÄģnĠ dÃº
ĠzhÃ¹Ġ zhÃ¡iĠ
Ã¨Ġ liÃ¨Ġ
hÃ¡nĠ mÃŃnĠguÃ³Ġ
wÄĽiĠyuÃ¡nĠhuÃ¬Ġ zhÇĶĠrÃ¨nĠ
ĠnÇļĠ xÃ¬ngĠwÃ¨iĠ
ĠyÃ¬ĠzhÃŃ ĠdÃłoĠ
ĠhÄģĠÄĽrĠ bÄ«nĠshÃ¬Ġ
tÃłnĠxiÇİn ĠduÃ¬Ġ
ĠhÅįngĠzhÃł ĠjÄ«Ġ
+ +
y l
Ġ guÃłnĠ
Ġ rÇĶĠ
yÇĶ ĠgÅįngĠ
qÃŃ ĠzhÃ¬Ġ
chu Ä«
bÄģ ĠdeĠ
fÃłng ĠdeĠ
gÄĵng ĠdÃ¬Ġ
ĠchÃ©ngĠ nuÃ²
mÃŃngĠ xiÇİnĠdeĠ
nÃ¡nĠ nÇļĠ
jÄ«ngĠ quÃ¨Ġ
mÃ¹Ġ fÇĶĠ
mÇİĠ lÃ¹Ġ
chÃ¡ngĠ jiÄģng
ziĠ kÄĵĠ
Ġc Äģo
xÃŃĠ guÃłn
6Ġ hÃłoĠ
mÃ¬ngĠ zhÃ²ngĠ
pÃłiĠ xÃ¬Ġ
2ĠyuÃ¨Ġ 24ĠrÃ¬Ġ
ruÃ¬Ġ shÃ¬ĠdeĠ
ĠgÅįngĠsÄ« ĠhÃ©Ġ
zhÄ«ĠchÃŃĠ zhÄĽĠ
gÄĵnĠjÃ¹ ĠdÃ¬Ġ
yÃ¬ĠshÃŃĠ xÃŃngĠtÃłiĠ
ĠchÅ«ĠbÇİn ĠleĠ
wÃłiĠjiÄģoĠ guÄģnĠ
ĠqÇĲ ĠchÅ«Ġ
xiÄģoĠfÃ¨iĠ zhÄĽĠ
ĠxÄ«nĠzÄĵngĠ jÃ¬ngĠwÃłiĠshÅ«ĠrÃ¹Ġ
nÃ¡ĠpÃ²Ġ lÃºn
bÇİoĠjiÄģ ĠlÃ¬ĠyÃł
T AĠ
Ġ yÅįngĠ
jÄ« ĠwÃ¨iĠ
le ĠzhÅįngĠ
xÄ«n ĠyÃ¬Ġ
fÇİ ĠhuÃ¬Ġ
jÇĲ ĠwÃ¨iĠ
fÄĵi ĠÄĽrĠ
dÃ¡ ĠlÃ¬Ġ
kuÃ² ĠjiÃłn
mÃ³ ĠÄĽrĠ
cÃ¡i ĠbÃ¨iĠ
âĢ ¢
guÄģng ĠniÃ¡nĠ
gÇİn ĠjÅ«nĠ
ĠyÇĴuĠ gÅįngĠ
ĠjiÄģĠ nÃ¡Ġ
guÄģnĠ shÇİng
shÃ²uĠ piÃłoĠ
dÄģnĠ chÄĵĠ
cÃ©ngĠ dÄģnĠrÃ¨nĠ
zhÄĵngĠ yÃ¬ĠdeĠ
ĠdeĠdÃ¬Ġ di
xiÄģoĠ fÃ¡ng
jÅ«Ġ zhÃ¹
zhuÄģnĠ yÃ²ng
fÃłngĠ yÃ¬ngĠ
ĠC ar
tÇĶĠ rÇİngĠ
ĠgÄĵnĠjÃ¹Ġ 2010ĠniÃ¡nĠmÄĽiĠguÃ³ĠrÃ©nĠkÇĴuĠpÇĶĠchÃ¡Ġ
ĠĠĠ198 5ĠniÃ¡nĠ
ĠĠĠ198 2ĠniÃ¡nĠ
ĠwÃ¨iĠyÃºĠgÄģiĠguÃ³Ġ nÃ¡nĠbÃ¹Ġ
ĠĠĠyÇĲĠxiÃł ĠwÃ¨iĠ
C E
I A
n Ã²ng
u ni
Ġ xiÃ¡ng
Ġ yÃ¹nĠdÃ²ngĠ
Ġ bÃºĠhuÃ¬Ġ
Ġ zÃ¡Ġ
nÃ¡n ĠdÃłĠxuÃ©Ġ
mÄĽi ĠyÄ«Ġ
chÄĵ ĠshÃłngĠ
196 7ĠniÃ¡nĠ
ĠzÃłiĠ gÄģoĠ
zhÃ¬Ġ liÃłngĠ
yÃ¬Ġ zhÃŃĠ
ĠyÇĶĠ yÄ«nĠ
ĠxÄ«Ġ yÇĶĠ
ĠxÄ«Ġ bÃ¹ĠdeĠ
ĠlÇĲĠ yÃł
dÃ²ngĠ cÃŃĠ
ĠleĠ duÃ¬Ġ
biÇİoĠ miÃłn
huÃ¡Ġ bÄ«ngĠ
gÇİngĠ kÇĴu
ĠhÃ©ĠguÃ³Ġ jÃ¬Ġ
yĠĠĠ of
ĠyÄ«nĠyuÃ¨Ġ huÃ¬Ġ
ĠshÃ¬ĠjiÃłn ĠzhÅįngĠ
Ġ2011ĠniÃ¡nĠ 12ĠyuÃ¨Ġ31ĠrÃ¬Ġ
lÃłngĠ mÃłnĠ
ĠdÃ©ĠlÇĲĠ kÃ¨Ġ
mÃ¨ng ĠjiÄģĠlÄģĠ
co diceĠ
zhuÄģngĠwÃ¨iĠ lÃŃnĠ
2 ĠpÃŃngĠfÄģngĠgÅįngĠlÇĲĠ
R O
Ġ mÃ©ng
Ġ hÇİo
Ġ cÃºnĠzÃłiĠ
tÃ¨ ĠshÃ¨Ġ
bÄĽi ĠwÃ¨iĠ
liÃ¨ ĠrÃ©nĠ
10 ĠshÃŃĠ
bÄģn ĠjÄ«Ġ
mÃ³ ĠsÄ«Ġ
chÃ©n ĠshÃ¬Ġ
tÇİ ĠlÃ¬Ġ
nuÃ² ĠkÃ¨Ġ
ĠrÃ©nĠ wÃ©iĠ
lÃ¡iĠ shuÅį
ĠhuÃ² ĠqÃŃĠtÄģĠ
ĠtÃ³ng ĠzhÄ«Ġ
mÇĲĠ lÃ¡nĠ
yÇĲngĠ yÃ¨Ġ
fÃ¨nĠ nÃ¹Ġ
dÄģnĠ nÃŃĠÄĽrĠ
wÃºĠ xiÃłoĠ
ĠzhÅįngĠguÃ³Ġ gÅįngĠ
jiÇİnĠ ruÃ²Ġ
chÅ«Ġ xÃŃĠ
kÄĽĠyÇĲĠ bÃ¨iĠ
qiÄģnĠ xÇĲĠ
xiÄģoĠ hÃłoĠ
fÃ¡ngĠ ziĠ
bÄ«ngĠ tuÃ¡n
gÃ¹Ġ shÃ¬ĠdeĠ
zhÇĶnĠ juÃ©ĠsÃłiĠ
ĠdeĠyÃ¬Ġ jiÃłnĠ
ÄģĠÄĽr ĠjÃŃĠlÃ¬Ġ
m Ã¡iĠ
Ġ fÄģĠzhÇİnĠ
Äģn ĠshÃŃĠ
hu Çİng
gÅįng ĠzÃłiĠ
lÃ¹ ĠxiÃłn
ti ng
guÄģn ĠyÇĶĠ
hÇİi ĠdÃ¬Ġ
zÇĴng ĠduÃ¬Ġ
dÃº ĠjiÄģĠ
ĠhÃ©Ġ yÇĲĠ
ĠjÃŃĠ jiÃ©Ġ
jÄ«Ġ bÃłi
ĠjÃ¬Ġ nÃ©ngĠ
ĠjÃ¬Ġ jÅ«nĠ
ĠjiÃłn ĠzhÄ«Ġ
ĠxÄ«Ġ nÃŃĠ
ĠbÃ¨iĠ yÃ¹ĠwÃ©iĠ
ĠjiÃłnĠ zhÃ¹ĠdeĠ
ĠqÃŃĠ shÇĴuĠ
ĠzhÃłnĠ chÇİngĠ
ĠzhÃłnĠ bÇĲĠ
zhÇİngĠ wÃ²Ġ
yÃŃĠ cÃ¬ĠshÃ¬ĠjiÃ¨ĠdÃłĠ
zhÄ«Ġ liÃºĠ
tÃŃngĠ huÇĴĠ
jiÇİngĠ huÃłĠ
Ġl Ã©ngĠ
qiÄģnĠ yÃŃĠ
sÇĲĠ qÃ¹Ġ
10Ġ wÃłnĠ
zhÃłngĠ hÃłoĠ
xuÃ¨Ġ guÇİnĠ
ĠdeĠzhÅįngĠ xÄ«nĠ
ĠshÃŃĠzÃ¬Ġ lÇľĠ
sÅ«ĠliÃ¡n ĠdeĠ
ĠqiÃ¡ngĠ diÃłoĠ
dÃ²ngĠchÄĵĠ zÇĶĠ
bÄģoĠkuÃ²ĠyÇĲĠxiÃłĠ wÃ¹ĠzhÇĴngĠ
C T
ĠĠĠ lÃ³ngĠ
ĠĠĠ hÄģĠ
hÃ²u ĠbÃ¹Ġ
zhÄģng ĠchÃ©ngĠ
ĠshÃ¬Ġ tÃ¡iĠwÄģn
hÃ©Ġ zuÃ²Ġ
ĠhÃ©Ġ sÄ«Ġ
ĠlÃ¬Ġ zhÄ«Ġ
ĠdÃłĠ xÄ«ĠyÃ¡ng
bÃ¨iĠ bÇĶĠ
ĠxÃŃngĠ diÃłnĠlÃ¬Ġ
xiÃłĠ shÇĶ
jiÄĵĠ dÃłiĠ
bÃ¬Ġ hÃ¹Ġ
gÇİiĠ yÃ²ngĠ
shÄģĠ mÃ²Ġ
zhÄ«Ġ jiÄģn
Ġt Ã¹Ġ
yÃŃngĠ yÇİngĠ
mÃ³Ġ fÇİngĠ
ĠqÄ«ngĠ chÃ¡o
zÃºĠqiÃºĠ jiÇİĠjÃŃĠ
kÃ²ngĠ gÇĶĠ
sÄģnĠshÃŃĠ sÃ¬ĠniÃ¡nĠ
zhÅįngĠshÃ¬Ġ yÇİnĠ
au l
dÃłĠbÃ¹ĠfÃ¨n ĠdeĠ
dÄģ ĠchÃ©ngĠ
dÃ¡ĠkÄĵ ĠtÄģĠ
5 ĠpÃŃngĠfÄģngĠgÅįngĠlÇĲĠ
C H
Ġ wÇĶĠniÃ¡nĠ
ĠĠĠ fÄĵngĠ
hÃ²u ĠrÃ©nĠ
shÄĵng ĠshÃ¬Ġ
en d
biÄģn ĠyÃ¬Ġ
gÇİi ĠjiÃłnĠ
bÇİn ĠhÃ©Ġ
liÃłn ĠdeĠ
195 5ĠniÃ¡nĠ
ĠdeĠ wÃ¨nĠtÃŃĠ
lÃ¬Ġ chÇİngĠ
ĠyÃºĠ dÃłĠ
ĠtÄģĠ huÃ¬Ġ
ĠÃ©r ĠchÅ«Ġ
ĠshÃ¨ ĠwÃ¨iĠ
mÃŃnĠ yÃ²ngĠ
bÄĽiĠ fÄģng
mÇĲĠ yÃł
ĠyÄ«nĠ ziĠ
zÇĴngĠ gÃ²ngĠ
Ã¨rĠ shÃ¬ĠdeĠ
tÃ¡ngĠ chÃ¡oĠ
liÃłnĠ xÃŃ
ĠrÃ¬ĠbÄĽn ĠrÃ©nĠ
ĠĠĠ198 6ĠniÃ¡nĠ
ĠwÃłiĠ jiÄģo
dÇİoĠshÃ¬Ġ yuÃ¨ĠtÃ¡iĠ
chÃ©ngĠniÃ¡nĠ rÃ©nĠ
ĠpÃºĠtÃ¡oĠ yÃ¡Ġ
ĠyÄ«ĠsÄ«ĠlÃ¡nĠ jiÃłoĠ
zhÇĶĠtÃŃ ĠdeĠ
Ġ xiÃło
Ġ huÇĴ
Äģ ĠlÃ¬Ġ
ĠĠĠ diÃłnĠyÇĲngĠ
Äĵn ĠdeĠ
wÃ©i ĠshÃ¬Ġ
bÇĲ ĠjÃ¬Ġ
nÇļ ĠshÄĵngĠ
pÃłi ĠduÃ¬Ġ
dÇİ ĠchÅ«Ġ
ĠzÃłiĠ bÄĽnĠ
ĠyÇĲĠ wÃłi
ĠlÇĲĠ jiÄĽĠ
lÃ¹Ġ jÃ¬ngĠ
cÇĲĠ lÃ¨iĠ
bÇĲĠ jiÃło
yÃŃĠ tÇĲĠ
qÄ«ngĠ chÃ©nĠ
lÃ³ngĠ lÃ¨iĠ
Ġt Äģng
fÃ¨iĠ zhÇĲĠ
chÇĶĠ fÃ¡Ġ
ĠjÄ«ngĠ chÃ¡ng
0ĠniÃ¡nĠdÃłiĠ mÃ²Ġ
ĠdeĠhÃ©Ġ xÄ«nĠ
rÃ©ngĠrÃ¡n ĠshÃ¬Ġ
ĠdeĠguÄģnĠ diÇİnĠ
indow sĠĠĠ
jiÄģngĠxÄ«Ġ shÄĽngĠ
bÅįĠshÃ¬Ġ dÃ¹nĠ
tiÄģnĠrÃ¡nĠ qÃ¬Ġ
pÃ©n ĠdÃ¬Ġ
ĠhÄĵiĠlÃ³ngĠjiÄģngĠ shÄĽngĠ
qÄ«ngĠzhÄĵnĠ sÃ¬Ġ
yÃłĠlÃ¬ĠsÄģngĠ nÃł
t aĠ
Ġ tÅįng
Ġ bÄģngĠ
Ġ hÃ¨ĠÄĽrĠ
qÅ« ĠyÄ«Ġ
dÃ© ĠjÅ«nĠ
lÃ¹ ĠzhÅįngĠ
ti Ġ
pÃŃng ĠhÃ©Ġ
sÄģn ĠrÃ¬Ġ
zÃ© ĠshÃ¬ĠzÃłiĠ
biÃłn ĠyÃ¬Ġ
12 ĠrÃ©nĠ
wÇİn ĠhuÃ¬Ġ
ĠdÃ¬Ġ 3
ĠlÃ¬Ġ wÃ¹Ġ
ĠyÄ«Ġ liÃłngĠ
ĠlÇĲĠ miÃłnĠ
ÄģnĠ nÄ«Ġ
jiÃłoĠ xuÃ©
xÃ¬Ġ shÃ¹Ġ
ĠjÃ¬n ĠjÅ«nĠ
shÄģnĠ gÇĶĠ
dÄĽngĠ rÃ©nĠdeĠ
qÃ¬Ġ wÄĵnĠ
yÇĲngĠ pÃŃngĠrÃ©nĠ
1Ġ wÃłnĠ
jiÃ¹Ġ zhÃŃĠ
jÇĲnĠ jÇĲn
huÃ¡ngĠ pÇĶĠ
xiÄģoĠ liÃłng
qiÃ¡ngĠ liÃ¨
12ĠyuÃ¨Ġ 1ĠrÃ¬Ġ
ĠĠĠdÃ¬Ġ sÄģnĠ
ĠtiÄģnĠ zhÇĶĠjiÃłoĠ
ĠyÇĴuĠyÄ«Ġ zuÃ²Ġ
ĠĠĠshÃ¬Ġ jiÃ¨Ġ
ĠcÃ³ng ĠÃ©r
ĠĠĠ198 3ĠniÃ¡nĠ
ĠĠĠ198 7ĠniÃ¡nĠ
ĠyÃºĠ199 5ĠniÃ¡nĠ
ĠĠĠyÄ«Ġ xiÄĵĠ
kÅ«nĠ chÃ³ngĠ
ÄģnĠdÃ©Ġ liÃ¨Ġ
M o
Ġ xiÇİn
Ġ jiÃłĠ
Ġ jÃºĠ
Ġ xÃ¬ĠliÃ¨
ĠĠĠ zhÃ¨
xÄ« ĠrÃ¬Ġ
tÃ³ng ĠrÃ¬Ġ
bÇİn ĠshÃłngĠ
bÄ«ng ĠhÃ©Ġ
zÇİo ĠyÇĲĠ
yuÇİn ĠchÃ©ngĠ
ĠbÃ¹Ġ lÃ©i
ĠlÃ¬Ġ fÄģngĠ
ĠyÄ«Ġ shÃ¬ĠdeĠ
shÃ¹Ġ mÇİĠ
zhÃ¹Ġ zhÃ¡i
zhÇİngĠ guÄģn
ÃłoĠ duÅįĠ
ĠzhÃ¨Ġ lÃ¨iĠ
lÃŃnĠ shÄĽngĠ
jiÄģoĠ xiÇİng
biÃłnĠ liÃłngĠ
bÃ¡iĠ jÄ«nĠ
7Ġ hÃłoĠ
gÃ¨ngĠ hÇİoĠdeĠ
chÇĶĠ fÃ¨nĠ
Ġh ÄĵngĠ
ĠwÃ¨iĠdÃ¬Ġ xiÃłĠ
es s
ĠfÄĵnĠbÃ¹ĠyÃºĠ nÃ¡nĠmÄĽiĠzhÅįuĠ
ĠguÃ³ĠwÃ¹Ġ yuÃłn
ĠwÃ¨iĠyÃºĠgÄģiĠ shÄĽng
zhÇĴngĠjiÄģĠ cÃŃĠ
4 9ĠniÃ¡nĠ
8 ĠpÃŃngĠfÄģngĠgÅįngĠlÇĲĠ
a ĠĠĠC
e la
â ħ
ĠĠĠ yÃ¡nĠ
chÅ« ĠdeĠ
yÄĽ ĠyÇĲĠ
yÄĽ ĠchÃ©ngĠwÃ©iĠ
shÄģn ĠzhÃłnĠ
wÃłi ĠdÃ¬Ġ
tuÃ¡n ĠyuÃ¡nĠ
guÇĴ ĠshÃŃĠ
ĠzÃłiĠ zhÃ¨ĠlÇĲĠ
ĠshÃŃĠ bÃ¹Ġ
ĠlÃ¬Ġ rÃ¨n
ĠlÃ¬Ġ zhÃ¬Ġ
ĠlÃ¬Ġ yuÃ¡nĠ
ĠduÃ¬Ġ zhÃ¨nĠ
biÃłnĠ huÃłn
biÃłnĠ dÃ²ngĠ
kÃ¨Ġ lÃ¡iĠ
ĠdÃłĠxuÃ©Ġ shÄĵngĠ
hÃºĠ guÇİngĠ
3ĠyuÃ¨Ġ 31ĠrÃ¬Ġ
pÃ²Ġ chÇİnĠ
wÄĽiĠyuÃ¡nĠhuÃ¬Ġ fÃ¹ĠzhÇĶĠrÃ¨nĠ
suÃ¬Ġ piÃłnĠ
xÃ¬ĠliÃ¨Ġ sÃłiĠ
zuÃ²ĠpÇĲn ĠdeĠ
dÇİĠjÄ«Ġ lÇľĠ
ĠĠĠzÇİoĠniÃ¡nĠ shÄĵngĠhuÃ³Ġ
S te
o lu
Ġ de
Ġ chuÃ¡n
Ġ xÅ«ĠyÃło
ĠĠĠ rÃ¬
yÃ²ng ĠyÇĶĠ
gÄģi ĠgÅįngĠsÄ«Ġ
diÇİn ĠzhÃłnĠ
tÃº ĠshÃłngĠ
kÅįng ĠdeĠ
chÃ¹ ĠzÃłiĠ
tÇİ ĠdeĠ
sÃ²ng ĠdeĠ
wÃ¨iĠ lÃ¡iĠ
ĠzhÅįngĠ yÇĲĠ
ĠzhÃ¬Ġ piÃłnĠrÃ©nĠ
jÄ«Ġ xiÃ¨
ĠjiÄģĠ ÄĽr
rÃ¨nĠ tÃ³ngĠ
ÄģnĠ suÄģnĠ
zhÇİngĠ zhÃ³u
mÇİĠ tÃ³u
chÃ¡ngĠ yÃ²ngĠ
shÄģngĠ biÄģoĠ
pÃ¡iĠ xÃ¹Ġ
qÄ«nĠ fÃłnĠ
Ġ19 16ĠniÃ¡nĠ
Ġh ÇĶ
gÃ¨Ġ lÃ¨i
ĠĠĠshÃ¬Ġ jiÃłnĠ
zhÃłnĠzhÄĵngĠ qÄ«ĠjiÄģnĠ
ĠjÄ«ĠbÄĽnĠ shÃłngĠ
kÃ¨ĠlÇĲĠ mÇĲĠyÃłĠ
00ĠmÇĲ ĠzhÃ¬Ġ
ĠĠĠbÄĽnĠshÇĶĠ bÄģoĠkuÃ²ĠyÇĲĠxiÃłĠwÃ¹ĠzhÇĴngĠ
C C
Ġ sÅįng
Ġ mÇİnĠ
Ġ nÃ¡nĠbÃ¹Ġ
ĠĠĠ AĠ
ĠĠĠ rÃ©nĠwÃ¹Ġ
ĠĠĠ guÄģngĠxÃ¹Ġ
jÄ«ng ĠwÃ¨iĠ
tÃ¡i ĠdÃłĠ
chÄĵ ĠzÃłiĠ
bÃło ĠmÃŃngĠ
jiÅ« ĠfÄĵnĠ
zÇİo ĠzÃłiĠ
zhÃ¬Ġ 19
ĠrÃ©nĠ cÃ¡iĠ
ĠdÃło ĠzÃłiĠ
wÃ©iĠ yÃłĠ
ĠgÃ¨Ġ tÇĲĠ
shÃ¹Ġ bÇİiĠ
guÄģnĠ niÃłnĠ
ĠdÃłn ĠyÇĴuĠ
diÃłnĠ tÄ«Ġ
ĠzhÃłnĠ duÃ¬Ġ
ĠzuÃ²Ġ wÃ©iĠyÄ«Ġ
xÃ¬ngĠ zhÃ¬ĠdeĠ
ĠshÄĵngĠ yÃ¡
nÃ¨iĠ wÃłiĠ
shÄģnĠ dÅįng
liÃºĠ jÄ«ngĠ
Ġl ÃłoĠ
dÇİngĠ pÃłiĠ
dÅįuĠ nÃ©ngĠ
gÇİnĠ shÃ²uĠ
gÄģngĠ tiÄĽ
ĠP ro
ĠzuÃ¬ĠzhÅįngĠ yÇĲĠ
ĠbÃ¬ngĠyÃºĠ tÃ³ngĠniÃ¡nĠ
ĠbÄĽn ĠyÃºĠ
ĠĠĠgÅįngĠ yuÃ¡nĠ
ĠzÃłiĠ19 0
jÃ¹ĠfÄĵng ĠzhÅįngĠxÄ«nĠ
ĠISTAT ĠdÃłiĠmÇİĠwÃ¨iĠ0
chÃ¡iĠyÃ³u ĠjÄ«ĠchÄĵĠ
A V
Ġ shÄģngĠyÃ¨Ġ
qÇĲ nĠ
tÇĲ ĠshÃ¬Ġ
10 ĠmÇĲĠ
bÅį ĠjÃŃĠ
tÃ¡ng ĠhÃ©Ġ
dÇĲ ĠyÃ¹Ġ
yÃłng ĠshÃ¬Ġ
liÃło ĠdeĠ
yÄģng ĠshÃ¬Ġ
niÇĶ ĠxÄ«ĠlÃ¡nĠ
hÅ«n ĠhÃ²uĠ
ĠdeĠ jÃ¹Ġ
hÃ©Ġ yuÄĵĠ
jÃ¬Ġ zÇİi
ĠyÄ«Ġ zhÄ«
ĠyÇĲĠ 0Ġ
ĠÃ©r ĠqÃŃĠ
pÃŃngĠ gÅ«
xiÃłĠ xiÃ¡Ġ
huÃłĠ wÃ¹Ġ
ĠzhÃ¨ngĠ wÃ¹Ġ
liÃºĠ chuÃ¡n
kÄĵĠ luÃ³ĠlÄģĠ
fÃ¡ngĠ hÃ¹Ġ
zhuÄģnĠ shÇĶĠ
chuÃłngĠ lÃ¬ĠdeĠ
nuÃ²Ġ fÅ«
ĠdeĠgÅįngĠ gÃ²ngĠ
zhuÃłnĠ xiÄĽ
shuÃ¬Ġ wÃ¹Ġ
ruÇİn ĠjiÃłn
juÄģnĠ kuÇİnĠ
ĠjÇĲnĠguÇİnĠ rÃºĠcÇĲĠ
ĠtÃ²uĠ guÃ²
sÄ«ĠdÃ¬Ġ fÄĵnĠ
hÇİn ĠjiÃłnĠ
bÃºĠ huÃ¬ĠzÃłiĠ
dÃŃĠshÃ¬Ġ nÃŃ
gÄģnĠsÃ¹Ġ shÄĽngĠ
guÄ«ĠlÃ¨i ĠwÃ¨iĠ
6 ĠpÃŃngĠfÄģngĠgÅįngĠlÇĲĠ
K i
b a
r ÄĽn
Ġ sÃłiĠshÃ¬Ġ
ãĢ ķ
xÄ«n ĠshÃ¬ĠzhÃ¨nĠ
xiÃłng ĠzhÅįngĠ
hÃ¹ ĠlÇĲĠ
mi n
xiÄģn ĠshÃ¬Ġ
xÃºn ĠqiÃº
mÃŃngĠ cÃŃĠ
xiÄģngĠ sÃ¬ĠdeĠ
shÃ¹Ġ jÃŃĠshÃ¬Ġ
