{
  "version": "1.0",
  "truncation": null,
  "padding": null,
  "added_tokens": [],
  "normalizer": null,
  "pre_tokenizer": {
    "type": "Sequence",
    "pretokenizers": [
      {
        "type": "Split",
        "pattern": {
          "Regex": "[^\\p{L}\\p{N}\\s]+|[\\r\\n]+"
        },
        "behavior": "Isolated",
        "invert": false
      },
      {
        "type": "ByteLevel",
        "add_prefix_space": false,
        "trim_offsets": true,
        "use_regex": false
      }
    ]
  },
  "post_processor": null,
  "decoder": null,
  "model": {
    "type": "BPE",
    "dropout": null,
    "unk_token": null,
    "continuing_subword_prefix": null,
    "end_of_word_suffix": null,
    "fuse_unk": false,
    "byte_fallback": false,
    "ignore_merges": false,
    "vocab": {
      "!": 0,
      "\"": 1,
      "#": 2,
      "$": 3,
      "%": 4,
      "&": 5,
      "'": 6,
      "(": 7,
      ")": 8,
      "*": 9,
      "+": 10,
      ",": 11,
      "-": 12,
      ".": 13,
      "/": 14,
      "0": 15,
      "1": 16,
      "2": 17,
      "3": 18,
      "4": 19,
      "5": 20,
      "6": 21,
      "7": 22,
      "8": 23,
      "9": 24,
      ":": 25,
      ";": 26,
      "=": 27,
      "?": 28,
      "@": 29,
      "A": 30,
      "B": 31,
      "C": 32,
      "D": 33,
      "E": 34,
      "F": 35,
      "G": 36,
      "H": 37,
      "I": 38,
      "J": 39,
      "K": 40,
      "L": 41,
      "M": 42,
      "N": 43,
      "O": 44,
      "P": 45,
      "Q": 46,
      "R": 47,
      "S": 48,
      "T": 49,
      "U": 50,
      "V": 51,
      "W": 52,
      "X": 53,
      "Y": 54,
      "Z": 55,
      "[": 56,
      "\\": 57,
      "]": 58,
      "^": 59,
      "_": 60,
      "`": 61,
      "a": 62,
      "b": 63,
      "c": 64,
      "d": 65,
      "e": 66,
      "f": 67,
      "g": 68,
      "h": 69,
      "i": 70,
      "j": 71,
      "k": 72,
      "l": 73,
      "m": 74,
      "n": 75,
      "o": 76,
      "p": 77,
      "q": 78,
      "r": 79,
      "s": 80,
      "t": 81,
      "u": 82,
      "v": 83,
      "w": 84,
      "x": 85,
      "y": 86,
      "z": 87,
      "|": 88,
      "~": 89,
      "¡": 90,
      "¢": 91,
      "£": 92,
      "¤": 93,
      "¥": 94,
      "¦": 95,
      "§": 96,
      "¨": 97,
      "©": 98,
      "ª": 99,
      "«": 100,
      "¬": 101,
      "®": 102,
      "¯": 103,
      "°": 104,
      "±": 105,
      "²": 106,
      "³": 107,
      "´": 108,
      "µ": 109,
      "¶": 110,
      "·": 111,
      "¸": 112,
      "¹": 113,
      "º": 114,
      "»": 115,
      "¼": 116,
      "½": 117,
      "¾": 118,
      "¿": 119,
      "Â": 120,
      "Ã": 121,
      "Ä": 122,
      "Å": 123,
      "Æ": 124,
      "Ç": 125,
      "È": 126,
      "É": 127,
      "Ê": 128,
      "Ë": 129,
      "Ì": 130,
      "Í": 131,
      "Î": 132,
      "Ï": 133,
      "Ð": 134,
      "Ñ": 135,
      "Ò": 136,
      "Ó": 137,
      "Ô": 138,
      "Õ": 139,
      "Ö": 140,
      "×": 141,
      "Ø": 142,
      "Ù": 143,
      "Ú": 144,
      "Û": 145,
      "Ü": 146,
      "Þ": 147,
      "ß": 148,
      "à": 149,
      "á": 150,
      "â": 151,
      "ã": 152,
      "ä": 153,
      "ê": 154,
      "ë": 155,
      "ì": 156,
      "í": 157,
      "î": 158,
      "ï": 159,
      "ð": 160,
      "ñ": 161,
      "Ċ": 162,
      "Ġ": 163,
      "ġ": 164,
      "Ģ": 165,
      "ģ": 166,
      "Ĥ": 167,
      "ĥ": 168,
      "Ħ": 169,
      "ħ": 170,
      "Ĩ": 171,
      "ĩ": 172,
      "Ī": 173,
      "ī": 174,
      "Ĭ": 175,
      "ĭ": 176,
      "Į": 177,
      "į": 178,
      "İ": 179,
      "ı": 180,
      "Ĳ": 181,
      "ĳ": 182,
      "Ĵ": 183,
      "ĵ": 184,
      "Ķ": 185,
      "ķ": 186,
      "ĸ": 187,
      "Ĺ": 188,
      "ĺ": 189,
      "Ļ": 190,
      "ļ": 191,
      "Ľ": 192,
      "ľ": 193,
      "Ŀ": 194,
      "ŀ": 195,
      "Ł": 196,
      "ł": 197,
      "Ń": 198,
      "ng": 199,
      "hÃ": 200,
      "Ãł": 201,
      "Äģ": 202,
      "Ã¬": 203,
      "Ã¡": 204,
      "Ä«": 205,
      "Ã¨": 206,
      "Çİ": 207,
      "ĠĠ": 208,
      "Ã©": 209,
      "ÃŃ": 210,
      "shÃ": 211,
      "Ã¹": 212,
      "Ã¡n": 213,
      "zh": 214,
      "ÇĲ": 215,
      "Åį": 216,
      "ji": 217,
      "de": 218,
      "Ãłn": 219,
      "Äĵ": 220,
      "zhÃ": 221,
      "sh": 222,
      "ÄĽ": 223,
      "Ã³": 224,
      "ÇĶ": 225,
      "xi": 226,
      "Ã²": 227,
      "Ãº": 228,
      "Äģn": 229,
      "ĠĠĠ": 230,
      "Ãłi": 231,
      "Å«": 232,
      "Åįng": 233,
      "ÇĴ": 234,
      "ãĢ": 235,
      "shÃ¬": 236,
      "hu": 237,
      "Ã¨i": 238,
      "gu": 239,
      "iÃ¡n": 240,
      "hÃ©": 241,
      "Ãło": 242,
      "Äģng": 243,
      "ÃŃng": 244,
      "yu": 245,
      "Çİn": 246,
      "ch": 247,
      "niÃ¡n": 248,
      "yÄ«": 249,
      "Çİng": 250,
      "Ã©n": 251,
      "ÇĴu": 252,
      "Ã¬ng": 253,
      "wÃ¨i": 254,
      "Çİo": 255,
      "zÃłi": 256,
      "ãĢģ": 257,
      "jÄ«": 258,
      "Äĵng": 259,
      "zhÅįng": 260,
      "xÄ«": 261,
      "bÃ¹": 262,
      "jÃ¬": 263,
      "Ãłng": 264,
      "li": 265,
      "zhÃ¨": 266,
      "shÃŃ": 267,
      "dÃ¬": 268,
      "guÃ³": 269,
      "yÃº": 270,
      "rÃ©n": 271,
      "Ã²ng": 272,
      "chÃ": 273,
      "Äģo": 274,
      "du": 275,
      "chÃ©": 276,
      "yÇĲ": 277,
      "lÃ¬": 278,
      "Ã¡ng": 279,
      "yÃ¬": 280,
      "uÃ²": 281,
      "Ã¡i": 282,
      "zhÃ¬": 283,
      "chÃ©ng": 284,
      "Ã©i": 285,
      "xu": 286,
      "gÅįng": 287,
      "jÃŃ": 288,
      "²u": 289,
      "ÄĽi": 290,
      "iÃłn": 291,
      "Äĵn": 292,
      "Ã³ng": 293,
      "yuÃ¨": 294,
      "yÇĴu": 295,
      "yuÃ¡n": 296,
      "dÃł": 297,
      "qi": 298,
      "Åįu": 299,
      "lÇĲ": 300,
      "20": 301,
      "Ã³u": 302,
      "Äģi": 303,
      "xiÃłn": 304,
      "jiÄģ": 305,
      "sÄ«": 306,
      "Å«n": 307,
      "xÃŃng": 308,
      "yÇĶ": 309,
      "Ã¨n": 310,
      "ÇĴng": 311,
      "ÃŃn": 312,
      "tÄģ": 313,
      "rÃ¬": 314,
      "zhÄ«": 315,
      "hÃ²u": 316,
      "Çİi": 317,
      "gÃ¨": 318,
      "zhÃł": 319,
      "Ã©ng": 320,
      "le": 321,
      "wÃ©i": 322,
      "huÃ¬": 323,
      "dÃło": 324,
      "19": 325,
      "bi": 326,
      "shÃł": 327,
      "qÄ«": 328,
      "qÃŃ": 329,
      "shÃ¨": 330,
      "su": 331,
      "zhÃ¨ng": 332,
      "mÃŃng": 333,
      "jiÃłn": 334,
      "xuÃ©": 335,
      "chÅ«": 336,
      "yÃ¹": 337,
      "ÄĽng": 338,
      "zuÃ²": 339,
      "shÄĵng": 340,
      "duÃ¬": 341,
      "yÃ³u": 342,
      "qÅ«": 343,
      "shÃłng": 344,
      "ÄĽn": 345,
      "dÃ©": 346,
      "lÃ¹": 347,
      "bÃ¨i": 348,
      "chÃ¡": 349,
      "ti": 350,
      "shÇĲ": 351,
      "zhÃłn": 352,
      "zhÇĶ": 353,
      "Äĵi": 354,
      "qu": 355,
      "jÃ¹": 356,
      "xÄ«n": 357,
      "jÅ«n": 358,
      "zhu": 359,
      "ÄĽr": 360,
      "Ã¡o": 361,
      "shÃ¹": 362,
      "uÃ¬": 363,
      "rÃ¨n": 364,
      "fÄģ": 365,
      "wÃ¹": 366,
      "bÃ¬ng": 367,
      "kÃ¨": 368,
      "Ã©r": 369,
      "dÃłi": 370,
      "yÃŃ": 371,
      "jÃ¬n": 372,
      "zÃ¬": 373,
      "yÄ«n": 374,
      "fÃ¹": 375,
      "fÄģng": 376,
      "jÄ«ng": 377,
      "nÃ¡n": 378,
      "huÃł": 379,
      "xÃ¬": 380,
      "zhÅįu": 381,
      "pÃŃng": 382,
      "Ã²u": 383,
      "xiÃł": 384,
      "lÃ¡i": 385,
      "yÃ²ng": 386,
      "shu": 387,
      "guÄģn": 388,
      "tÃ³ng": 389,
      "ãĢĭ": 390,
      "ãĢĬ": 391,
      "fÇİ": 392,
      "zhÃ¹": 393,
      "mÄĽi": 394,
      "hÃ¡": 395,
      "Â·": 396,
      "jiÄģn": 397,
      "jÇĲ": 398,
      "huÃ²": 399,
      "dÃ¹": 400,
      "chu": 401,
      "bÄĽn": 402,
      "xiÄģng": 403,
      "zhÃŃ": 404,
      "dÃ²ng": 405,
      "xiÃłng": 406,
      "mÃŃn": 407,
      "jiÄģng": 408,
      "fÄĵn": 409,
      "shÇĴu": 410,
      "quÃ¡n": 411,
      "wÃ©n": 412,
      "yÃ¡n": 413,
      "hÃł": 414,
      "suÇĴ": 415,
      "jiÃło": 416,
      "qiÃ¡n": 417,
      "diÃłn": 418,
      "tÃ¨": 419,
      "di": 420,
      "duÅį": 421,
      "Ãºn": 422,
      "zuÃ¬": 423,
      "kÄģi": 424,
      "tu": 425,
      "jiÃ©": 426,
      "liÃ¡n": 427,
      "zhÇĲ": 428,
      "kÄĽ": 429,
      "dÃłn": 430,
      "mÃ¹": 431,
      "yÃ¨": 432,
      "fÃº": 433,
      "mÇİ": 434,
      "yÄĽ": 435,
      "dÅįng": 436,
      "qiÃº": 437,
      "bÄĽi": 438,
      "ãĢĮ": 439,
      "ãĢį": 440,
      "gÄģo": 441,
      "yÃł": 442,
      "qÇĲ": 443,
      "jiÄĵ": 444,
      "miÃłn": 445,
      "hÇİi": 446,
      "zhÇİng": 447,
      "shÄ«": 448,
      "jÄ«n": 449,
      "cÇĲ": 450,
      "lu": 451,
      "nÃ¨i": 452,
      "tÇĲ": 453,
      "sÃłi": 454,
      "sÄģn": 455,
      "tÃ¡i": 456,
      "gÃ©": 457,
      "xÃ¬ng": 458,
      "guÃ²": 459,
      "rÃ¹": 460,
      "201": 461,
      "dÄĽng": 462,
      "yÃło": 463,
      "ju": 464,
      "chÄĵ": 465,
      "cÃ¬": 466,
      "wÇĶ": 467,
      "gÄģi": 468,
      "dÃ¬ng": 469,
      "chÃ¡ng": 470,
      "biÇİo": 471,
      "lÄģ": 472,
      "gÃ²ng": 473,
      "jiÃ¨": 474,
      "shÃ²u": 475,
      "dÇİo": 476,
      "shÄģn": 477,
      "chÇİng": 478,
      "sÃ¬": 479,
      "bÇĲ": 480,
      "zÃ©": 481,
      "tÃŃ": 482,
      "kÄĵ": 483,
      "dÄģng": 484,
      "nÃ©ng": 485,
      "Ã¨r": 486,
      "wÃłi": 487,
      "dÄģn": 488,
      "xÃ¹": 489,
      "zi": 490,
      "kÇĴu": 491,
      "xiÇİo": 492,
      "zÇĶ": 493,
      "bÄģ": 494,
      "juÃ©": 495,
      "lÃŃn": 496,
      "liÃº": 497,
      "shÄĽng": 498,
      "yÄ«ng": 499,
      "ku": 500,
      "lÃ¡n": 501,
      "luÃ³": 502,
      "tÅįng": 503,
      "200": 504,
      "Ä«ng": 505,
      "²ng": 506,
      "mÇĲ": 507,
      "zhÃ²ng": 508,
      "en": 509,
      "zhÄĽ": 510,
      "shÇĶ": 511,
      "tiÄģn": 512,
      "zhÃ¨n": 513,
      "Çļ": 514,
      "qÃ¬": 515,
      "zhÇĴng": 516,
      "liÃ¨": 517,
      "chÄĵng": 518,
      "shÅ«": 519,
      "yuÃłn": 520,
      "bÇİo": 521,
      "tÃłi": 522,
      "fÇĶ": 523,
      "fÄĵng": 524,
      "gÇĶ": 525,
      "qÄ«ng": 526,
      "shÄĵn": 527,
      "wÃ¡ng": 528,
      "yÃ¹n": 529,
      "guÇİn": 530,
      "fÄĵi": 531,
      "jiÃ¹": 532,
      "liÇİng": 533,
      "cÃ©ng": 534,
      "mÃ©i": 535,
      "10": 536,
      "fÃ¨n": 537,
      "hÃło": 538,
      "³ng": 539,
      "yÇİn": 540,
      "wÄĽi": 541,
      "zÇĴng": 542,
      "xuÇİn": 543,
      "xiÃło": 544,
      "dÃ¡": 545,
      "nÃł": 546,
      "liÃłng": 547,
      "bÅį": 548,
      "zÃº": 549,
      "jÃ¬ng": 550,
      "bÃło": 551,
      "nÃŃ": 552,
      "wÃº": 553,
      "tÇĴng": 554,
      "huÃ¡": 555,
      "jiÄģo": 556,
      "yuÄĵ": 557,
      "yÇĲng": 558,
      "biÃłn": 559,
      "xÄ«ng": 560,
      "sÃ¹": 561,
      "shuÇĲ": 562,
      "yÃ¡ng": 563,
      "hÃ¹": 564,
      "men": 565,
      "bÄģo": 566,
      "gÄĵ": 567,
      "bÃ³": 568,
      "cÄģn": 569,
      "cÃ³ng": 570,
      "diÇİn": 571,
      "bÃ¬": 572,
      "rÃº": 573,
      "bÃłn": 574,
      "biÄģn": 575,
      "wÇİng": 576,
      "qÇĶ": 577,
      "mi": 578,
      "chÇİn": 579,
      "sÃ¨": 580,
      "zÄ«": 581,
      "chuÃ¡n": 582,
      "00": 583,
      "shÃ¨ng": 584,
      "rÃ¡n": 585,
      "tÃº": 586,
      "zhÄģng": 587,
      "pÇĶ": 588,
      "gÇİi": 589,
      "gÇİng": 590,
      "nÇļ": 591,
      "lÃ¬ng": 592,
      "luÃ²": 593,
      "yÃ²u": 594,
      "tÃ³u": 595,
      "cÃ¨": 596,
      "lÇ": 597,
      "chÃŃ": 598,
      "18": 599,
      "lÇľ": 600,
      "qiÄģn": 601,
      "shÃ©": 602,
      "lÃŃ": 603,
      "dÅįu": 604,
      "pÇĲ": 605,
      "12": 606,
      "zhÄĵng": 607,
      "ni": 608,
      "kuÃ²": 609,
      "shÄģ": 610,
      "dÇİng": 611,
      "fÇİn": 612,
      "gÃ²u": 613,
      "lÃ¨i": 614,
      "xÃŃ": 615,
      "jÇĲng": 616,
      "tuÃ¡n": 617,
      "wÄĵi": 618,
      "xiÄĵ": 619,
      "lÇĲng": 620,
      "lÃ³ng": 621,
      "guÄ«": 622,
      "xiÄģn": 623,
      "rÃ³ng": 624,
      "huÃ¡ng": 625,
      "xiÇİng": 626,
      "bÄģn": 627,
      "jiÇĶ": 628,
      "yÃ¬ng": 629,
      "mÃ©n": 630,
      "shÄģng": 631,
      "shÃ©n": 632,
      "202": 633,
      "bÇİn": 634,
      "kÇİ": 635,
      "mÇĶ": 636,
      "jÇĲn": 637,
      "fÅ«": 638,
      "jÇĶ": 639,
      "mÃ³": 640,
      "guÇİng": 641,
      "cÃŃ": 642,
      "shuÅį": 643,
      "qÃŃng": 644,
      "zhÇİn": 645,
      "hÃ¡i": 646,
      "zhuÄģng": 647,
      "mÃ²": 648,
      "cÃ¡i": 649,
      "dÃº": 650,
      "11": 651,
      "pÇĲn": 652,
      "tÃŃng": 653,
      "chÃ¡o": 654,
      "yÃŃng": 655,
      "tiÃ¡o": 656,
      "jiÇİn": 657,
      "tÃ¡ng": 658,
      "huÃŃ": 659,
      "duÃłn": 660,
      "chÃ©n": 661,
      "gÄĵn": 662,
      "mÃ¬": 663,
      "wÃłn": 664,
      "pÃ¡i": 665,
      "wÄģn": 666,
      "zÃło": 667,
      "hÃ¡ng": 668,
      "wÃ¡n": 669,
      "biÄģo": 670,
      "gÃ¹": 671,
      "lÃºn": 672,
      "199": 673,
      "xiÃ©": 674,
      "jiÇİng": 675,
      "hÃłn": 676,
      "jÃº": 677,
      "fÃłn": 678,
      "fÃ¡ng": 679,
      "huÃ³": 680,
      "hÃ¡n": 681,
      "pi": 682,
      "kÅįng": 683,
      "or": 684,
      "tiÄĽ": 685,
      "mÃ©ng": 686,
      "biÃ©": 687,
      "wÅ«": 688,
      "jiÄĽ": 689,
      "zhuÄģn": 690,
      "yÇĲn": 691,
      "xÅ«": 692,
      "zhÄĵn": 693,
      "dÇĲ": 694,
      "er": 695,
      "chÃº": 696,
      "hÃº": 697,
      "jiÃł": 698,
      "bÄ«ng": 699,
      "mÃ¬ng": 700,
      "lÃŃng": 701,
      "hÃ³ng": 702,
      "qÄ«n": 703,
      "zÇĲ": 704,
      "lÃ¹n": 705,
      "xÃ¬n": 706,
      "chÃ¹": 707,
      "chÇĶ": 708,
      "sÅ«": 709,
      "an": 710,
      "xiÅ«": 711,
      "zÅįng": 712,
      "15": 713,
      "quÃ¨": 714,
      "xiÄģo": 715,
      "zhÃło": 716,
      "qiÃ¡ng": 717,
      "qÃ¹": 718,
      "cÅ«n": 719,
      "chÃ³ng": 720,
      "piÃłn": 721,
      "jiÅ«": 722,
      "fÃłng": 723,
      "suÃŃ": 724,
      "shÅįu": 725,
      "gÃ¨ng": 726,
      "âĢ": 727,
      "guÄģng": 728,
      "Ã¨ng": 729,
      "jÅ«": 730,
      "on": 731,
      "jiÇİ": 732,
      "chuÃłng": 733,
      "dÃŃ": 734,
      "16": 735,
      "zhuÇİn": 736,
      "guÇĴ": 737,
      "xÃ¹n": 738,
      "mÃłn": 739,
      "pÃłi": 740,
      "fÃ¨i": 741,
      "pÃ¨i": 742,
      "198": 743,
      "dÇİ": 744,
      "tuÅį": 745,
      "la": 746,
      "xuÄģn": 747,
      "bÃ¡i": 748,
      "zhÅ«": 749,
      "dÅ«": 750,
      "tÇĶ": 751,
      "diÃło": 752,
      "xiÃ¡": 753,
      "liÃ¹": 754,
      "17": 755,
      "suÃ¬": 756,
      "huÄ«": 757,
      "tÄ«ng": 758,
      "qiÄĽ": 759,
      "tÇİ": 760,
      "qiÃ¡o": 761,
      "hÄģ": 762,
      "gÇİn": 763,
      "zÄĵng": 764,
      "xiÇİn": 765,
      "mÃłi": 766,
      "huÃ¡n": 767,
      "xÇĶ": 768,
      "wÇİ": 769,
      "tuÄ«": 770,
      "wÃ¨n": 771,
      "chÄģo": 772,
      "tiÃ¡n": 773,
      "bÇİi": 774,
      "cÇİi": 775,
      "liÃ¡ng": 776,
      "yÃ¡": 777,
      "sÃł": 778,
      "ar": 779,
      "bÃłi": 780,
      "cÃºn": 781,
      "jiÇİo": 782,
      "shÇİo": 783,
      "yÃłn": 784,
      "zhuÃłng": 785,
      "huÇĴ": 786,
      "lÃ©i": 787,
      "14": 788,
      "zu": 789,
      "jiÃłng": 790,
      "chuÄģn": 791,
      "yÃ¬n": 792,
      "zÇİo": 793,
      "chÃł": 794,
      "yÇĴng": 795,
      "sÇĲ": 796,
      "dÄĵng": 797,
      "30": 798,
      "zhÇĶn": 799,
      "lÃ¨": 800,
      "xÃºn": 801,
      "nuÃ²": 802,
      "kÃ¹": 803,
      "huÃłn": 804,
      "sÃ²ng": 805,
      "gÃło": 806,
      "lÇĶ": 807,
      "13": 808,
      "194": 809,
      "bÄģng": 810,
      "lÇļ": 811,
      "pÄ«": 812,
      "yÃłng": 813,
      "hÄĽn": 814,
      "qÃºn": 815,
      "zhÄĽng": 816,
      "guÃłn": 817,
      "pÃ²": 818,
      "gÄģng": 819,
      "wÇĴ": 820,
      "197": 821,
      "huÄģ": 822,
      "lÄĵi": 823,
      "hÇİo": 824,
      "tÃ¡o": 825,
      "kuÃłng": 826,
      "hÃ¨": 827,
      "in": 828,
      "dÃ¹n": 829,
      "nÃ³ng": 830,
      "gÄĽi": 831,
      "sÄģi": 832,
      "shuÄģng": 833,
      "liÃłn": 834,
      "kuÃłi": 835,
      "dÄ«": 836,
      "bÄ«": 837,
      "pÃłn": 838,
      "xiÄĽ": 839,
      "195": 840,
      "kÇİo": 841,
      "gÃłi": 842,
      "hÄĵi": 843,
      "wÃłng": 844,
      "liÃło": 845,
      "rÃ¨": 846,
      "ge": 847,
      "zuÇĴ": 848,
      "kÃ²ng": 849,
      "196": 850,
      "yÄģng": 851,
      "chÃłng": 852,
      "yÃŃn": 853,
      "³u": 854,
      "rÃ©ng": 855,
      "sÄĵn": 856,
      "bÄĵi": 857,
      "lÃº": 858,
      "piÃło": 859,
      "yÄģ": 860,
      "25": 861,
      "bÄ«n": 862,
      "âĢĶ": 863,
      "rÃłng": 864,
      "chÅįng": 865,
      "lÃ³u": 866,
      "bÇĶ": 867,
      "lÇİo": 868,
      "zhÃº": 869,
      "jÃ¹n": 870,
      "yÇİng": 871,
      "ruÃ¬": 872,
      "yÄģo": 873,
      "xiÃ¡n": 874,
      "xiÃ¨": 875,
      "niÃłn": 876,
      "for": 877,
      "yÅįu": 878,
      "tÃ¡n": 879,
      "kÄģng": 880,
      "pÃŃ": 881,
      "hÃ©ng": 882,
      "yÃºn": 883,
      "xÇĲ": 884,
      "kÃłn": 885,
      "nÃŃng": 886,
      "liÃ¡o": 887,
      "shÃło": 888,
      "bÃº": 889,
      "24": 890,
      "qÇĲng": 891,
      "chÇĲ": 892,
      "mu": 893,
      "dÃ²u": 894,
      "miÇİn": 895,
      "yÅįng": 896,
      "tÇİn": 897,
      "wÇİn": 898,
      "hÅ«": 899,
      "fÄģn": 900,
      "al": 901,
      "tÅ«": 902,
      "gÄģn": 903,
      "suÃłn": 904,
      "dÄ«ng": 905,
      "yuÇİn": 906,
      "wÄĵn": 907,
      "tuÃ¬": 908,
      "zhe": 909,
      "21": 910,
      "st": 911,
      "xiÃ¹": 912,
      "bÇİ": 913,
      "mÇİn": 914,
      "193": 915,
      "23": 916,
      "mula": 917,
      "kÃłng": 918,
      "formula": 919,
      "28": 920,
      "th": 921,
      "mÃ¡o": 922,
      "ruÃ²": 923,
      "piÄģn": 924,
      "chÃ¨": 925,
      "mÃło": 926,
      "lÇİng": 927,
      "qÃŃn": 928,
      "bÃ¡": 929,
      "nÃ¡": 930,
      "zÃłn": 931,
      "guÇĲ": 932,
      "guÃ¬": 933,
      "ou": 934,
      "pÃŃn": 935,
      "wÃ²": 936,
      "xiÃ³ng": 937,
      "shÃłn": 938,
      "re": 939,
      "22": 940,
      "xiÅįng": 941,
      "me": 942,
      "suÄ«": 943,
      "Ã¼": 944,
      "26": 945,
      "shÄĽn": 946,
      "qÃ¬ng": 947,
      "miÃ¡o": 948,
      "fÇİng": 949,
      "50": 950,
      "2020": 951,
      "27": 952,
      "lÃ¡ng": 953,
      "ru": 954,
      "qiÅ«": 955,
      "sÅįng": 956,
      "Ã¼Ã¨": 957,
      "dÃłng": 958,
      "gÄĵng": 959,
      "qiÄģng": 960,
      "ri": 961,
      "fÃ¡": 962,
      "zÄģo": 963,
      "fÃ¨ng": 964,
      "zhÃłng": 965,
      "ï¼": 966,
      "hÃ¡o": 967,
      "dÅ«n": 968,
      "zÇĴu": 969,
      "hÃłi": 970,
      "qiÃ¨": 971,
      "29": 972,
      "tÃłn": 973,
      "pÃło": 974,
      "pÃł": 975,
      "shÃ¹n": 976,
      "pÃ©ng": 977,
      "xuÃ¡n": 978,
      "2010": 979,
      "nÇĲ": 980,
      "000": 981,
      "dÇĲng": 982,
      "niÇĶ": 983,
      "zÇİi": 984,
      "zhÄģo": 985,
      "zhuÄ«": 986,
      "lÃ¼Ã¨": 987,
      "chÅ«n": 988,
      "2019": 989,
      "hÅ«n": 990,
      "kÇĴng": 991,
      "duÄģn": 992,
      "shÃ¨n": 993,
      "xiÃ¡ng": 994,
      "duÇİn": 995,
      "gÃłn": 996,
      "te": 997,
      "ro": 998,
      "deĠ": 999,
      "ĠdeĠ": 1000,
      "shÃ¬Ġ": 1001,
      "ĠshÃ¬Ġ": 1002,
      "ĠniÃ¡n": 1003,
      "ĠniÃ¡nĠ": 1004,
      "wÃ¨iĠ": 1005,
      "zÃłiĠ": 1006,
      "ĠwÃ¨iĠ": 1007,
      "ĠzÃłiĠ": 1008,
      "hÃ©Ġ": 1009,
      "ĠhÃ©Ġ": 1010,
      "zhÅįngĠ": 1011,
      "bÃ¹Ġ": 1012,
      "dÃ¬Ġ": 1013,
      "shÃŃĠ": 1014,
      "guÃ³Ġ": 1015,
      "yÃºĠ": 1016,
      "rÃ©nĠ": 1017,
      "ĠbÃ¹Ġ": 1018,
      "yÄ«Ġ": 1019,
      "ĠzhÅįngĠ": 1020,
      "lÃ¬Ġ": 1021,
      "zhÃ¬Ġ": 1022,
      "gÅįngĠ": 1023,
      "ĠshÃŃĠ": 1024,
      "yuÃ¨Ġ": 1025,
      "jÃŃĠ": 1026,
      "chÃ©ngĠ": 1027,
      "yÃ¬Ġ": 1028,
      "yÇĴuĠ": 1029,
      "ĠdÃ¬Ġ": 1030,
      "ĠyuÃ¨Ġ": 1031,
      "ĠyÃºĠ": 1032,
      "ĠrÃ©nĠ": 1033,
      "ĠzhÃ¬Ġ": 1034,
      "dÃłĠ": 1035,
      "ĠjÃŃĠ": 1036,
      "yuÃ¡nĠ": 1037,
      "ĠyÇĴuĠ": 1038,
      "jÃ¬Ġ": 1039,
      "ĠguÃ³Ġ": 1040,
      "ĠlÃ¬Ġ": 1041,
      "ĠgÅįngĠ": 1042,
      "ĠyÃ¬Ġ": 1043,
      "ĠyÇĲ": 1044,
      "ĠchÃ©ngĠ": 1045,
      "jiÄģĠ": 1046,
      "sÄ«Ġ": 1047,
      "yÇĶĠ": 1048,
      "ĠxiÃłn": 1049,
      "ĠrÃ¬": 1050,
      "ĠyÄ«Ġ": 1051,
      "ĠxÃŃng": 1052,
      "ĠtÄģ": 1053,
      "lÇĲĠ": 1054,
      "jÄ«Ġ": 1055,
      "ĠdÃło": 1056,
      "hÃ²uĠ": 1057,
      "wÃ©iĠ": 1058,
      "ĠzhÄ«": 1059,
      "ĠdÃłĠ": 1060,
      "ĠyuÃ¡nĠ": 1061,
      "xÄ«Ġ": 1062,
      "ĠrÃ¬Ġ": 1063,
      "ĠgÃ¨": 1064,
      "ĠyÇĲĠ": 1065,
      "xuÃ©Ġ": 1066,
      "huÃ¬Ġ": 1067,
      "leĠ": 1068,
      "zuÃ²Ġ": 1069,
      "ĠyÇĶĠ": 1070,
      "ĠdÃłoĠ": 1071,
      "mÃŃngĠ": 1072,
      "ĠjÃ¬Ġ": 1073,
      "bÃ¨iĠ": 1074,
      "ĠxÃŃngĠ": 1075,
      "shÄĵngĠ": 1076,
      "ĠjiÃłn": 1077,
      "ĠchÅ«": 1078,
      "ĠqÃŃ": 1079,
      "ĠsÄ«Ġ": 1080,
      "ĠdÃ©": 1081,
      "zhÃ¨ngĠ": 1082,
      "ĠxiÃłnĠ": 1083,
      "ĠhÃ²uĠ": 1084,
      "ĠjÄ«Ġ": 1085,
      "duÃ¬Ġ": 1086,
      "shÃłngĠ": 1087,
      "qÅ«Ġ": 1088,
      "shÇĲĠ": 1089,
      "ĠÄĽr": 1090,
      "ĠjiÄģĠ": 1091,
      "yÃ³uĠ": 1092,
      "ĠtÄģĠ": 1093,
      "ĠxÄ«Ġ": 1094,
      "ĠlÇĲĠ": 1095,
      "ĠÃ©r": 1096,
      "zhÃłnĠ": 1097,
      "ĠjÅ«n": 1098,
      "ĠbÃ¬ng": 1099,
      "ĠzhÄ«Ġ": 1100,
      "ĠgÃ¨Ġ": 1101,
      "zhÇĶĠ": 1102,
      "rÃ¨nĠ": 1103,
      "fÃ¹Ġ": 1104,
      "zÃ¬Ġ": 1105,
      "wÃ¹Ġ": 1106,
      "xÄ«nĠ": 1107,
      "dÃłiĠ": 1108,
      "ÄģnĠ": 1109,
      "jÃ¹Ġ": 1110,
      "pÃŃngĠ": 1111,
      "ĠchÅ«Ġ": 1112,
      "ĠkÃ¨": 1113,
      "ĠzhÅįu": 1114,
      "xiÄģngĠ": 1115,
      "shÃ¹Ġ": 1116,
      "ĠhuÃ¬Ġ": 1117,
      "nÃ¡nĠ": 1118,
      "ĠshÃ¨": 1119,
      "ĠbÃ¨iĠ": 1120,
      "ĠmÃŃngĠ": 1121,
      "xiÃłĠ": 1122,
      "guÄģnĠ": 1123,
      "ĠÄĽrĠ": 1124,
      "ĠdÃ©Ġ": 1125,
      "lÃ¹Ġ": 1126,
      "yÃ¹Ġ": 1127,
      "huÃłĠ": 1128,
      "ĠjiÃłnĠ": 1129,
      "jÄ«ngĠ": 1130,
      "yÃ¡nĠ": 1131,
      "fÄģngĠ": 1132,
      "ĠyÄ«n": 1133,
      "kÄģiĠ": 1134,
      "jiÄģnĠ": 1135,
      "jiÃłoĠ": 1136,
      "fÄģĠ": 1137,
      "yÃ²ngĠ": 1138,
      "ĠdÃłn": 1139,
      "ĠÃ©rĠ": 1140,
      "zhÃ¹Ġ": 1141,
      "lÃ¡iĠ": 1142,
      "mÃŃnĠ": 1143,
      "shÇĴuĠ": 1144,
      "zhÃ¨Ġ": 1145,
      "xiÃłngĠ": 1146,
      "wÃ©nĠ": 1147,
      "ĠjÅ«nĠ": 1148,
      "xÃ¬Ġ": 1149,
      "qiÃ¡nĠ": 1150,
      "bÄĽnĠ": 1151,
      "tÃ¨Ġ": 1152,
      "ĠwÃ©iĠ": 1153,
      "zhÃŃĠ": 1154,
      "fÇİĠ": 1155,
      "qÄ«Ġ": 1156,
      "jiÃ©Ġ": 1157,
      "liÃ¡nĠ": 1158,
      "ĠbÃ¬ngĠ": 1159,
      "dÃ²ngĠ": 1160,
      "diÃłnĠ": 1161,
      "ĠqÃŃĠ": 1162,
      "ĠkÃ¨Ġ": 1163,
      "dÅįngĠ": 1164,
      "mÃ¹Ġ": 1165,
      "ĠjÃ¬n": 1166,
      "ĠduÃ¬Ġ": 1167,
      "ĠhuÃ²": 1168,
      "fÄĵnĠ": 1169,
      "tÃ¡iĠ": 1170,
      "ĠzhÃłnĠ": 1171,
      "zhÇİngĠ": 1172,
      "dÃ¹Ġ": 1173,
      "jiÄģngĠ": 1174,
      "ĠqiÃº": 1175,
      "gÄģoĠ": 1176,
      "yÃ¨Ġ": 1177,
      "bÄĽiĠ": 1178,
      "suÇĴĠ": 1179,
      "shÄ«Ġ": 1180,
      "ĠzhÅįuĠ": 1181,
      "ĠpÃŃngĠ": 1182,
      "ĠleĠ": 1183,
      "duÅįĠ": 1184,
      "jiÄĵĠ": 1185,
      "gÃ©Ġ": 1186,
      "ÄģĠ": 1187,
      "ĠshÃłngĠ": 1188,
      "jÄ«nĠ": 1189,
      "fÃºĠ": 1190,
      "ĠzhÃ¨ngĠ": 1191,
      "ĠzuÃ²Ġ": 1192,
      "ĠyÃ³uĠ": 1193,
      "kÇĴuĠ": 1194,
      "guÃ²Ġ": 1195,
      "zhÇĲĠ": 1196,
      "hÇİiĠ": 1197,
      "ĠtÃ³ng": 1198,
      "ĠfÃ¹Ġ": 1199,
      "ĠrÃ¨nĠ": 1200,
      "mÇİĠ": 1201,
      "rÃ¹Ġ": 1202,
      "tÅįngĠ": 1203,
      "zuÃ¬Ġ": 1204,
      "ÃłnĠ": 1205,
      "quÃ¡nĠ": 1206,
      "cÇĲĠ": 1207,
      "xÃ¬ngĠ": 1208,
      "ĠxuÃ©Ġ": 1209,
      "ĠshÄĵngĠ": 1210,
      "wÃłiĠ": 1211,
      "nÃ¨iĠ": 1212,
      "lÄģĠ": 1213,
      "tÇĲĠ": 1214,
      "juÃ©Ġ": 1215,
      "kÄĽĠ": 1216,
      "qÇĲĠ": 1217,
      "shÄģnĠ": 1218,
      "tiÄģnĠ": 1219,
      "dÄĽngĠ": 1220,
      "chÇİngĠ": 1221,
      "zhÃ¨nĠ": 1222,
      "wÇĶĠ": 1223,
      "chÃ¡ngĠ": 1224,
      "ziĠ": 1225,
      "yÃłoĠ": 1226,
      "bÇĲĠ": 1227,
      "ÇİnĠ": 1228,
      "bÇİoĠ": 1229,
      "gÄģiĠ": 1230,
      "ÃłoĠ": 1231,
      "mÇĲĠ": 1232,
      "yÃłĠ": 1233,
      "miÃłnĠ": 1234,
      "cÃ¬Ġ": 1235,
      "ĠyÄ«nĠ": 1236,
      "nĠ": 1237,
      "shÃ²uĠ": 1238,
      "yÄĽĠ": 1239,
      "jiÃ¨Ġ": 1240,
      "zhÃ²ngĠ": 1241,
      "yÃŃĠ": 1242,
      "ĠshÃ¨Ġ": 1243,
      "fÄĵngĠ": 1244,
      "zhÇĴngĠ": 1245,
      "ĠjÃ¹Ġ": 1246,
      "liÃºĠ": 1247,
      "chÄĵĠ": 1248,
      "yÃ¹nĠ": 1249,
      "ĠzhÃ¨Ġ": 1250,
      "lÃŃnĠ": 1251,
      "bÄģoĠ": 1252,
      "Ġc": 1253,
      "sÃłiĠ": 1254,
      "yÃŃĠgÃ¨Ġ": 1255,
      "dÃ¬ngĠ": 1256,
      "shÄĵnĠ": 1257,
      "shÄĽngĠ": 1258,
      "luÃ³Ġ": 1259,
      "ĠdÃłiĠ": 1260,
      "ĠdÃłnĠ": 1261,
      "qÃ¬Ġ": 1262,
      "sÄģnĠ": 1263,
      "mÄĽiĠguÃ³Ġ": 1264,
      "nÃ©ngĠ": 1265,
      "xiÇİoĠ": 1266,
      "zÃ©Ġ": 1267,
      "zhÄĽĠ": 1268,
      "liÃ¨Ġ": 1269,
      "shÅ«Ġ": 1270,
      "xuÇİnĠ": 1271,
      "sÃ¬Ġ": 1272,
      "qÄ«ngĠ": 1273,
      "ĠqiÃºĠ": 1274,
      "yuÃłnĠ": 1275,
      "jÃ¬ngĠ": 1276,
      "bÄģĠ": 1277,
      "ÃłiĠ": 1278,
      "kÄĵĠ": 1279,
      "wÃ¡ngĠ": 1280,
      "tÃłiĠ": 1281,
      "lÃ¡nĠ": 1282,
      "bÃłoĠ": 1283,
      "ÇİoĠ": 1284,
      "yÇĲngĠ": 1285,
      "zÇĴngĠ": 1286,
      "bÃ¬Ġ": 1287,
      "fÇĶĠ": 1288,
      "ĠhuÃ²Ġ": 1289,
      "dÇİoĠ": 1290,
      "gÇĶĠ": 1291,
      "1ĠniÃ¡nĠ": 1292,
      "yÄ«ngĠ": 1293,
      "ĠxÄ«nĠ": 1294,
      "fÃ¨nĠ": 1295,
      "gÄĵĠ": 1296,
      "5ĠniÃ¡nĠ": 1297,
      "1Ġ": 1298,
      "nÃŃĠ": 1299,
      "xiÃłoĠ": 1300,
      "ĠxiÃłĠ": 1301,
      "yuÄĵĠ": 1302,
      "jiÄģoĠ": 1303,
      "2ĠniÃ¡nĠ": 1304,
      "Ã¨rĠ": 1305,
      "ĠzÃ¬Ġ": 1306,
      "4ĠniÃ¡nĠ": 1307,
      "zÄ«Ġ": 1308,
      "shuÇĲĠ": 1309,
      "hÃłoĠ": 1310,
      "pÇĶĠ": 1311,
      "8ĠniÃ¡nĠ": 1312,
      "dÄģnĠ": 1313,
      "nÃłĠ": 1314,
      "3ĠniÃ¡nĠ": 1315,
      "Ã©Ġ": 1316,
      "biÇİoĠ": 1317,
      "liÃłngĠ": 1318,
      "ĠmÇĲĠ": 1319,
      "tÃ³uĠ": 1320,
      "chÄĵngĠ": 1321,
      "guÇİnĠ": 1322,
      "chuÃ¡nĠ": 1323,
      "sÃ¹Ġ": 1324,
      "wÃºĠ": 1325,
      "Ġm": 1326,
      "6ĠniÃ¡nĠ": 1327,
      "xÄ«ngĠ": 1328,
      "nÇļĠ": 1329,
      "bÅįĠ": 1330,
      "rÃºĠ": 1331,
      "bÃ³Ġ": 1332,
      "yÇİnĠ": 1333,
      "tÃŃĠ": 1334,
      "2Ġ": 1335,
      "fÄĵiĠ": 1336,
      "sÃ¨Ġ": 1337,
      "ĠzhÅįngĠguÃ³Ġ": 1338,
      "mÄĽiĠ": 1339,
      "dÃ¡Ġ": 1340,
      "ĠjÃ¬nĠ": 1341,
      "ĠdÄģng": 1342,
      "ĠwÃ¨iĠyÃºĠ": 1343,
      "ĠzhÃ¹Ġ": 1344,
      "cÃ©ngĠ": 1345,
      "chÇİnĠ": 1346,
      "7ĠniÃ¡nĠ": 1347,
      "wÇİngĠ": 1348,
      "biÃłnĠ": 1349,
      "tÃºĠ": 1350,
      "guÄ«Ġ": 1351,
      "Ġp": 1352,
      "ĠxiÄģngĠ": 1353,
      "ĠrÃ¡n": 1354,
      "biÄģnĠ": 1355,
      "zhÄģngĠ": 1356,
      "yÃ¡ngĠ": 1357,
      "diÇİnĠ": 1358,
      "ĠyÃ¹Ġ": 1359,
      "gÇİiĠ": 1360,
      "cÃ³ngĠ": 1361,
      "huÃ¡Ġ": 1362,
      "jiÃ¹Ġ": 1363,
      "shÄģĠ": 1364,
      "zÇĶĠ": 1365,
      "shÃ¨ngĠ": 1366,
      "bÄģoĠkuÃ²": 1367,
      "jiÇİnĠ": 1368,
      "gÇİngĠ": 1369,
      "shÇĶĠ": 1370,
      "lÇľĠ": 1371,
      "zÃºĠ": 1372,
      "bÃłnĠ": 1373,
      "qÃŃngĠ": 1374,
      "jÇĲngĠ": 1375,
      "liÇİngĠ": 1376,
      "tÇĴngĠ": 1377,
      "gÃ²ngĠ": 1378,
      "ĠbÄĽnĠ": 1379,
      "shÄģngĠ": 1380,
      "hÃ¹Ġ": 1381,
      "lÃŃĠ": 1382,
      "jÃ¬nĠ": 1383,
      "ĠlÃ¹Ġ": 1384,
      "tÃ³ngĠ": 1385,
      "luÃ²Ġ": 1386,
      "0ĠniÃ¡nĠ": 1387,
      "xÃ¹Ġ": 1388,
      "chÃŃĠ": 1389,
      "9ĠniÃ¡nĠ": 1390,
      "ĠnÃ¡nĠ": 1391,
      "5Ġ": 1392,
      "mÃ©iĠ": 1393,
      "bÄģnĠ": 1394,
      "guÇİngĠ": 1395,
      "3Ġ": 1396,
      "lÃ³ngĠ": 1397,
      "cÃ¨Ġ": 1398,
      "jÇĲnĠ": 1399,
      "chÅ«Ġ": 1400,
      "shÃ©nĠ": 1401,
      "zhÄĵngĠ": 1402,
      "ĠtÄģĠmen": 1403,
      "zhÄ«Ġ": 1404,
      "lÇĲngĠ": 1405,
      "mÃ¬Ġ": 1406,
      "wÄĵiĠ": 1407,
      "yÃ²uĠ": 1408,
      "fÇİnĠ": 1409,
      "ĠgÄģiĠ": 1410,
      "tÃŃngĠ": 1411,
      "xÃŃĠ": 1412,
      "chÃ¡Ġ": 1413,
      "kÇİĠ": 1414,
      "huÃ³Ġ": 1415,
      "Ġt": 1416,
      "cÃ¡iĠ": 1417,
      "xiÇİngĠ": 1418,
      "shuÅįĠ": 1419,
      "mÃ©nĠ": 1420,
      "ÄģiĠ": 1421,
      "cÃŃĠ": 1422,
      "qÇĶĠ": 1423,
      "jiÇİngĠ": 1424,
      "wÄĽiĠ": 1425,
      "mÇĶĠ": 1426,
      "tuÃ¡nĠ": 1427,
      "lÃ¨iĠ": 1428,
      "tĠ": 1429,
      "Ã¨Ġ": 1430,
      "ĠgÅįngĠlÇĲĠ": 1431,
      "chÃ¡oĠ": 1432,
      "yÃ¡nĠjiÅ«": 1433,
      "jiÃłnĠ": 1434,
      "Ġ200": 1435,
      "Ġl": 1436,
      "yÃ¬ngĠ": 1437,
      "tÃ¡ngĠ": 1438,
      "pÇĲnĠ": 1439,
      "qÃŃĠ": 1440,
      "xiÄĵĠ": 1441,
      "chÃ©nĠ": 1442,
      "ĠyÇĲĠjÃŃĠ": 1443,
      "jiÃłĠ": 1444,
      "yÇĲnĠ": 1445,
      "4Ġ": 1446,
      "ĠduÅįĠ": 1447,
      "shÇĲĠyÃ²ngĠ": 1448,
      "hÃ¡ngĠ": 1449,
      "ĠzhÇĶĠ": 1450,
      "Ġs": 1451,
      "rÃ³ngĠ": 1452,
      "pÃ¡iĠ": 1453,
      "jiÇĶĠ": 1454,
      "yÇĲĠ": 1455,
      "fÅ«Ġ": 1456,
      "gÃ²uĠ": 1457,
      "lÃºnĠ": 1458,
      "ĠyÃ³u": 1459,
      "tÃ¡iĠwÄģn": 1460,
      "lÃ¬ngĠ": 1461,
      "ĠdeĠdÃ¬Ġ": 1462,
      "ÄģngĠ": 1463,
      "dÇİngĠ": 1464,
      "kÄĽĠyÇĲĠ": 1465,
      "huÃ¡ngĠ": 1466,
      "duÃłnĠ": 1467,
      "xÅ«Ġ": 1468,
      "kÃ¨Ġ": 1469,
      "0Ġ": 1470,
      "xiÄģnĠ": 1471,
      "biÄģoĠ": 1472,
      "eĠĠĠ": 1473,
      "tiÃ¡oĠ": 1474,
      "ĠdeĠyÄ«Ġ": 1475,
      "kÄģiĠshÇĲĠ": 1476,
      "yÃŃngĠ": 1477,
      "xiÃłnĠ": 1478,
      "bÇİnĠ": 1479,
      "qiÄģnĠ": 1480,
      "ĠchÃ©ngĠwÃ©iĠ": 1481,
      "mÃ©iĠyÇĴuĠ": 1482,
      "Ġ201": 1483,
      "mÃ³Ġ": 1484,
      "hÃłnĠ": 1485,
      "ÅįuĠ": 1486,
      "hÃ³ngĠ": 1487,
      "wÄĽiĠyuÃ¡nĠ": 1488,
      "xiÄģoĠ": 1489,
      "6Ġ": 1490,
      "lÃŃngĠ": 1491,
      "sÅ«Ġ": 1492,
      "kÅįngĠ": 1493,
      "jÃºĠ": 1494,
      "ĠtÃ³ngĠ": 1495,
      "huÃŃĠ": 1496,
      "mÃ©ngĠ": 1497,
      "yÄ«nĠ": 1498,
      "sĠ": 1499,
      "zhuÄģngĠ": 1500,
      "xÃŃngĠ": 1501,
      "cÅ«nĠ": 1502,
      "fÃ¡ngĠ": 1503,
      "rÃ©nĠkÇĴuĠ": 1504,
      "jiÄĽĠ": 1505,
      "ĠqÃŃĠzhÅįngĠ": 1506,
      "huÃ²Ġ": 1507,
      "bÄģoĠkuÃ²Ġ": 1508,
      "zhÇİnĠ": 1509,
      "ĠgÅįngĠsÄ«Ġ": 1510,
      "cÄģnĠ": 1511,
      "Ã¡ngĠ": 1512,
      "ÄģoĠ": 1513,
      "ĠdeĠshÃ¬Ġ": 1514,
      "ĠĠĠzÃłiĠ": 1515,
      "dÅįuĠ": 1516,
      "ÃºĠ": 1517,
      "qiÃ¡ngĠ": 1518,
      "Ã³Ġ": 1519,
      "zhÃłoĠ": 1520,
      "zhÃ¨ngĠzhÃ¬Ġ": 1521,
      "yÃŃĠgÃ¨": 1522,
      "dÃºĠ": 1523,
      "Ã¡oĠ": 1524,
      "cÇİiĠ": 1525,
      "ĠĠĠ201": 1526,
      "fÇİĠguÃ³Ġ": 1527,
      "bÄ«ngĠ": 1528,
      "mÃ²Ġ": 1529,
      "ĠdÃłĠxuÃ©Ġ": 1530,
      "ĠshÃ¬ĠyÄ«Ġ": 1531,
      "xÃ¬nĠ": 1532,
      "ĠtÄģĠdeĠ": 1533,
      "Å«nĠ": 1534,
      "qÄ«nĠ": 1535,
      "hÃ¡iĠ": 1536,
      "lÃ¹nĠ": 1537,
      "zÇĲĠ": 1538,
      "chÃ¹Ġ": 1539,
      "zhÄĵnĠ": 1540,
      "wÃłnĠ": 1541,
      "wÃ¨nĠ": 1542,
      "ĠgÄģoĠ": 1543,
      "mÃłnĠ": 1544,
      "shÃ¨Ġ": 1545,
      "fÃłnĠ": 1546,
      "guÄģngĠ": 1547,
      "biÇİoĠshÃ¬Ġ": 1548,
      "jÅ«Ġ": 1549,
      "xÃ¹nĠ": 1550,
      "zhÅįngĠdeĠ": 1551,
      "ÅįĠ": 1552,
      "zhuÄģnĠ": 1553,
      "quÃ¨Ġ": 1554,
      "wÃ¡nĠ": 1555,
      "diÃłoĠ": 1556,
      "zÅįngĠ": 1557,
      "zhuÇİnĠ": 1558,
      "diÃłnĠshÃ¬Ġ": 1559,
      "bÃ¡iĠ": 1560,
      "dÇİĠ": 1561,
      "hÃºĠ": 1562,
      "ĠshÃ¬ĠwÃ¨iĠ": 1563,
      "yÃ¬nĠ": 1564,
      "fÃ¨iĠ": 1565,
      "shÃ¬ĠdeĠ": 1566,
      "mÃ¬ngĠ": 1567,
      "jÇĶĠ": 1568,
      "8Ġ": 1569,
      "piÃłnĠ": 1570,
      "hÃ¡nĠ": 1571,
      "tuÅįĠ": 1572,
      "ÄĽnĠ": 1573,
      "ÃłĠ": 1574,
      "7Ġ": 1575,
      "gÃ¹Ġ": 1576,
      "zÃłoĠ": 1577,
      "dÄģngĠ": 1578,
      "xiÅ«Ġ": 1579,
      "sĠĠĠ": 1580,
      "ĠbÃ¹ĠfÃ¨nĠ": 1581,
      "ĠrÃ©nĠkÇĴuĠ": 1582,
      "guÇĴĠ": 1583,
      "xiÃ©Ġ": 1584,
      "tÄģĠ": 1585,
      "ĠhÃ©ĠguÃ³Ġ": 1586,
      "zhÅįngĠguÃ³Ġ": 1587,
      "10ĠyuÃ¨Ġ": 1588,
      "Ġã": 1589,
      "12ĠyuÃ¨Ġ": 1590,
      "7ĠyuÃ¨Ġ": 1591,
      "ÄĵĠ": 1592,
      "ĠdÅįngĠ": 1593,
      "9ĠyuÃ¨Ġ": 1594,
      "ĠmÃ¹Ġ": 1595,
      "wÅ«Ġ": 1596,
      "miÃłnĠjÄ«Ġ": 1597,
      "ĠrÃ©nĠmÃŃnĠ": 1598,
      "8ĠyuÃ¨Ġ": 1599,
      "xÃºnĠ": 1600,
      "ĠzuÃ¬": 1601,
      "ĠdÃ¬ĠqÅ«Ġ": 1602,
      "huÃ¡nĠ": 1603,
      "Ã²uĠ": 1604,
      "dÃŃĠ": 1605,
      "3ĠyuÃ¨Ġ": 1606,
      "zhÅ«Ġ": 1607,
      "jiÇİĠ": 1608,
      "1ĠyuÃ¨Ġ": 1609,
      "Ġ19": 1610,
      "dÅ«Ġ": 1611,
      "xiÃ¡Ġ": 1612,
      "ĠjÄ«nĠ": 1613,
      "tÄ«ngĠ": 1614,
      "eĠ": 1615,
      "ĠyÄĽĠ": 1616,
      "5ĠyuÃ¨Ġ": 1617,
      "zhÅįuĠ": 1618,
      "dÇĲĠ": 1619,
      "dÃłoĠ": 1620,
      "yÄ«ngĠguÃ³Ġ": 1621,
      "ÇĴuĠ": 1622,
      "zhuÃłngĠ": 1623,
      "ĠcÇĲĠ": 1624,
      "ÇİngĠ": 1625,
      "zhÃ¨ngĠshÃ¬Ġ": 1626,
      "ĠjiÄģngĠ": 1627,
      "6ĠyuÃ¨Ġ": 1628,
      "huÇĴĠ": 1629,
      "chÃ³ngĠ": 1630,
      "yÃ¡nĠjiÅ«Ġ": 1631,
      "shÅįuĠ": 1632,
      "gÃ¨ngĠ": 1633,
      "jÅ«nĠ": 1634,
      "chÃ©ngĠshÃ¬Ġ": 1635,
      "4ĠyuÃ¨Ġ": 1636,
      "ĠguÃ³ĠjiÄģĠ": 1637,
      "tiÃ¡nĠ": 1638,
      "fÃłngĠ": 1639,
      "yÇĴngĠ": 1640,
      "ĠĠĠdÃ¬Ġ": 1641,
      "biÃ©Ġ": 1642,
      "shÇĶĠyÃºĠ": 1643,
      "ĠpÃŃngĠfÄģng": 1644,
      "jÇĲĠ": 1645,
      "gÇİnĠ": 1646,
      "ĠtÃ¨Ġ": 1647,
      "ĠdÃ¬ĠyÄ«Ġ": 1648,
      "qÃºnĠ": 1649,
      "pÃ²Ġ": 1650,
      "qÃ¹Ġ": 1651,
      "jiÃłngĠ": 1652,
      "aĠ": 1653,
      "ÇĶĠ": 1654,
      "gÄĵnĠ": 1655,
      "11ĠyuÃ¨Ġ": 1656,
      "ngĠ": 1657,
      "nÃ³ngĠ": 1658,
      "ĠshÃ¬ĠjÃ¬Ġ": 1659,
      "ĠpÃŃngĠfÄģngĠgÅįngĠlÇĲĠ": 1660,
      "shuÄģngĠ": 1661,
      "ĠtÃ³ngĠshÃŃĠ": 1662,
      "tiÄĽĠ": 1663,
      "dÄģnĠrÃ¨nĠ": 1664,
      "huÄ«Ġ": 1665,
      "Ã¡nĠ": 1666,
      "pÃłiĠ": 1667,
      "liÃ¡ngĠ": 1668,
      "ĠC": 1669,
      "shÇİoĠ": 1670,
      "tÃ¡oĠ": 1671,
      "jiÇİoĠ": 1672,
      "tÇİĠ": 1673,
      "ÄĽrĠ": 1674,
      "bÇİiĠ": 1675,
      "ĠrÃºĠ": 1676,
      "9Ġ": 1677,
      "ÃłngĠ": 1678,
      "Å«Ġ": 1679,
      "ĠyÄĽ": 1680,
      "diÃłnĠyÇĲngĠ": 1681,
      "ÃŃĠ": 1682,
      "tÃ¡iĠwÄģnĠ": 1683,
      "sÇĲĠ": 1684,
      "Ä«Ġ": 1685,
      "chÇĶĠ": 1686,
      "qiÃ¡oĠ": 1687,
      "ÄĵnĠ": 1688,
      "Ġg": 1689,
      "ĠdeĠshÃŃĠ": 1690,
      "gÃłoĠ": 1691,
      "chÃºĠ": 1692,
      "ĠS": 1693,
      "ĠzhÃ¨": 1694,
      "Ġk": 1695,
      "yÃŃnĠ": 1696,
      "gÄĵnĠjÃ¹Ġ": 1697,
      "pÃłnĠ": 1698,
      "lÃ¬ĠshÇĲĠ": 1699,
      "ĠfÄĵnĠ": 1700,
      "chÄģoĠ": 1701,
      "bÃłiĠ": 1702,
      "Ġ18": 1703,
      "yÃłnĠ": 1704,
      "ĠĠĠS": 1705,
      "ĠshÃ¬ĠzhÃ¨nĠ": 1706,
      "cÄģnĠjiÄģĠ": 1707,
      "yÃ¹nĠdÃ²ng": 1708,
      "gÄģngĠ": 1709,
      "chÄĵĠzhÃłnĠ": 1710,
      "guÃ³ĠdeĠ": 1711,
      "qÄ«ĠjiÄģnĠ": 1712,
      "zhÃ¨ngĠfÇĶĠ": 1713,
      "ĠyÄ«nĠwÃ¨iĠ": 1714,
      "ĠrÃ¬ĠbÄĽnĠ": 1715,
      "ĠpÃŃngĠfÄģngĠ": 1716,
      "lÃ¬ĠdeĠ": 1717,
      "gÃłiĠ": 1718,
      "hÄĵiĠ": 1719,
      "ĠniÃ¡nĠdeĠ": 1720,
      "bÃ¬ngĠ": 1721,
      "chuÄģnĠ": 1722,
      "sÃ²ngĠ": 1723,
      "huÃłnĠ": 1724,
      "wÇĴĠ": 1725,
      "wÇİĠ": 1726,
      "zhÇĶnĠ": 1727,
      "gÃ²ngĠhÃ©ĠguÃ³Ġ": 1728,
      "yÃ¡Ġ": 1729,
      "ĠxiÃłnĠdeĠ": 1730,
      "lÃ©iĠ": 1731,
      "fÄģĠxiÃłnĠ": 1732,
      "hÄģĠ": 1733,
      "formulaĠ": 1734,
      "ÇİiĠ": 1735,
      "qÅ«ĠdeĠ": 1736,
      "tÃŃĠgÅįngĠ": 1737,
      "iĠ": 1738,
      "jÃ¬nĠxÃŃngĠ": 1739,
      "qiÄĽĠ": 1740,
      "hÄĽnĠ": 1741,
      "2ĠyuÃ¨Ġ": 1742,
      "huÄģĠ": 1743,
      "tÅįngĠguÃ²Ġ": 1744,
      "suÃŃĠ": 1745,
      "jÄ«ngĠjÃ¬Ġ": 1746,
      "ĠĠĠ200": 1747,
      "chuÃłngĠ": 1748,
      "lÄĵiĠ": 1749,
      "dÄĵngĠ": 1750,
      "ĠzhÅįngĠyÄģng": 1751,
      "kÇİoĠ": 1752,
      "ĠtÄģĠmenĠ": 1753,
      "ĠguÃ³ĠjÃ¬Ġ": 1754,
      "shÃłngĠdeĠ": 1755,
      "Ġ199": 1756,
      "ĠA": 1757,
      "wÄĽiĠyuÃ¡nĠhuÃ¬Ġ": 1758,
      "ĠyÃ³uĠyÃºĠ": 1759,
      "ĠbÄĽiĠ": 1760,
      "liÃłnĠ": 1761,
      "nuÃ²Ġ": 1762,
      "ĠshÃ¬ĠjiÃ¨Ġ": 1763,
      "chÄĵngĠwÃ©iĠ": 1764,
      "ĠjÄ«ngĠ": 1765,
      "ĠyÄ«nĠcÇĲĠ": 1766,
      "ĠqiÃ¡nĠ": 1767,
      "ĠtiÄģnĠ": 1768,
      "kuÃłiĠ": 1769,
      "dĠĠĠ": 1770,
      "mÃŃngĠwÃ¨iĠ": 1771,
      "zuÇĴĠ": 1772,
      "ĠshÃ¬ĠzÃłiĠ": 1773,
      "ĠjÃ¬nĠxÃŃngĠ": 1774,
      "zhÇĶĠyÃ¬Ġ": 1775,
      "chÅįngĠ": 1776,
      "xiÄģngĠgÇİngĠ": 1777,
      "tÇĶĠ": 1778,
      "sÃłĠ": 1779,
      "ĠzhÄ«ĠhÃ²uĠ": 1780,
      "piÃłoĠ": 1781,
      "ĠhÇİiĠ": 1782,
      "1ĠrÃ¬Ġ": 1783,
      "ĠrÃ¡nĠ": 1784,
      "shÃŃĠdeĠ": 1785,
      "Ġ3": 1786,
      "mÃłiĠ": 1787,
      "xÃ¬ĠtÇĴngĠ": 1788,
      "ĠĠĠ202": 1789,
      "liÃłoĠ": 1790,
      "dÃ©Ġ": 1791,
      "lÇĶĠ": 1792,
      "00Ġ": 1793,
      "quÃ¡nĠguÃ³Ġ": 1794,
      "lÃºĠ": 1795,
      "xuÄģnĠ": 1796,
      "qiÃºĠ": 1797,
      "ĠxÃŃngĠdeĠ": 1798,
      "rÃ©nĠdeĠ": 1799,
      "kuÃłngĠ": 1800,
      "suÇĴĠyÇĴuĠ": 1801,
      "hÃ©ngĠ": 1802,
      "rÃ¬Ġ": 1803,
      "xÇĶĠ": 1804,
      "ĠmÇİĠ": 1805,
      "menĠ": 1806,
      "pÃ¨iĠ": 1807,
      "guÇİnĠlÇĲĠ": 1808,
      "ĠgÅįngĠzuÃ²Ġ": 1809,
      "ĠzhÄ«ĠyÄ«Ġ": 1810,
      "ĠjiÃ©Ġ": 1811,
      "ĠM": 1812,
      "sÄĵnĠ": 1813,
      "suÃ¬Ġ": 1814,
      "yÃłngĠ": 1815,
      "dÃłĠdeĠ": 1816,
      "zÄĵngĠ": 1817,
      "tuÄ«Ġ": 1818,
      "bÇĶĠ": 1819,
      "liÃ¹Ġ": 1820,
      "ĠdÄģngĠ": 1821,
      "ĠzhÅįngĠxÄ«nĠ": 1822,
      "xuÄģnĠbÃ¹Ġ": 1823,
      "zÇİoĠ": 1824,
      "pÄ«Ġ": 1825,
      "wÃłngĠ": 1826,
      "chÇĲĠ": 1827,
      "dÄ«Ġ": 1828,
      "chÃłngĠ": 1829,
      "zÇĶĠzhÄ«Ġ": 1830,
      "Ġh": 1831,
      "bÃ¹ĠdeĠ": 1832,
      "Ġ4": 1833,
      "ĠĠĠC": 1834,
      "hÃ¨Ġ": 1835,
      "ĠzuÃ¬Ġ": 1836,
      "yÇİngĠ": 1837,
      "yÇĲngĠxiÇİngĠ": 1838,
      "ĠtÄģĠzÃłiĠ": 1839,
      "Ã©rĠ": 1840,
      "qiÄģnĠmÇĲĠ": 1841,
      "sÄģiĠ": 1842,
      "ĠĠĠshÄĵngĠ": 1843,
      "dÃ¹nĠ": 1844,
      "ĠhuÃ²ĠdÃ©Ġ": 1845,
      "2020ĠniÃ¡nĠ": 1846,
      "luÃ³ĠsÄ«Ġ": 1847,
      "Ġn": 1848,
      "ĠbÄģoĠkuÃ²Ġ": 1849,
      "chÃ©ngĠdeĠ": 1850,
      "uÃ²Ġ": 1851,
      "xiÃ¡nĠ": 1852,
      "ĠshÃ¬ĠjiÃ¨": 1853,
      "kÄĽĠnÃ©ng": 1854,
      "niÃłnĠ": 1855,
      "ĠshÇĲĠ": 1856,
      "CĠ": 1857,
      "qÃŃĠtÄģĠ": 1858,
      "yÅįuĠ": 1859,
      "ĠÄģĠ": 1860,
      "Ã¨ngĠ": 1861,
      "Ġzh": 1862,
      "Ġf": 1863,
      "ĠchÃ©ngĠlÃ¬Ġ": 1864,
      "leĠyÄ«Ġ": 1865,
      "bÄģngĠ": 1866,
      "huÃ³ĠdÃ²ngĠ": 1867,
      "bÄĵiĠ": 1868,
      "tĠĠĠ": 1869,
      "lÃ¨Ġ": 1870,
      "Ġ198": 1871,
      "ĠrÃ¨nĠwÃ©iĠ": 1872,
      "pÃŃĠ": 1873,
      "lÇİoĠ": 1874,
      "hÇİoĠ": 1875,
      "wÃ©nĠhuÃłĠ": 1876,
      "jÃ¹nĠ": 1877,
      "ĠgÄģi": 1878,
      "yÄģĠ": 1879,
      "³uĠ": 1880,
      "fÄģĠzhÇİnĠ": 1881,
      "kÄĵĠxuÃ©Ġ": 1882,
      "liÃ¡oĠ": 1883,
      "huÃ²ĠdÃ©Ġ": 1884,
      "ĠdÄĽngĠ": 1885,
      "gÃ¨Ġ": 1886,
      "ĠpÃŃngĠfÄģngĠqiÄģnĠmÇĲĠ": 1887,
      "ĠzuÃ²ĠwÃ©iĠ": 1888,
      "kÃ¹Ġ": 1889,
      "huÃ¡ĠrÃ©nĠmÃŃnĠ": 1890,
      "tÃ¡nĠ": 1891,
      "rÃ¬ĠbÄĽnĠ": 1892,
      "ĠshÇĴuĠ": 1893,
      "ĠT": 1894,
      "huÃ¬ĠyÃ¬Ġ": 1895,
      "Ã©iĠ": 1896,
      "Ã¬Ġ": 1897,
      "jiÄģnĠdeĠ": 1898,
      "tiÄĽĠlÃ¹Ġ": 1899,
      "miÇİnĠ": 1900,
      "nÃŃngĠ": 1901,
      "ĠdeĠrÃ©nĠ": 1902,
      "bÇĲĠsÃłiĠ": 1903,
      "ruÃ¬Ġ": 1904,
      "lÃ³uĠ": 1905,
      "yÃ²ngĠyÃºĠ": 1906,
      "zhÄĽngĠ": 1907,
      "Ġ202": 1908,
      "ĠshÃŃĠjiÄģnĠ": 1909,
      "2010ĠniÃ¡nĠ": 1910,
      "rÃ¡nĠ": 1911,
      "ĠdeĠgÅįngĠ": 1912,
      "xiÇİnĠ": 1913,
      "aĠĠĠ": 1914,
      "miÃ¡oĠ": 1915,
      "rÃ¨Ġ": 1916,
      "ĠI": 1917,
      "zÃ¡": 1918,
      "AĠ": 1919,
      "miÃłnĠjÄ«": 1920,
      "yÇİ": 1921,
      "mÃŃnĠguÃ³Ġ": 1922,
      "zhÇĶĠyÃłoĠ": 1923,
      "wÅ«ĠkÃ¨Ġ": 1924,
      "geĠ": 1925,
      "ĠB": 1926,
      "yuÇİnĠ": 1927,
      "gÃ²ngĠyÇĴuĠ": 1928,
      "ĠĠĠlÃ¬ĠshÇĲĠ": 1929,
      "dÃ²uĠ": 1930,
      "ĠfÃºĠ": 1931,
      "wÃ¨nĠtÃŃĠ": 1932,
      "ĠĠĠshÄĵngĠpÃŃngĠ": 1933,
      "huÃ¡ĠrÃ©nĠmÃŃnĠgÃ²ngĠhÃ©ĠguÃ³Ġ": 1934,
      "fÄģngĠshÃ¬Ġ": 1935,
      "fÄģĠshÄĵngĠ": 1936,
      "cÃºnĠ": 1937,
      "Ã©ngĠ": 1938,
      "chÃ¬": 1939,
      "yĠĠĠ": 1940,
      "am": 1941,
      "Ġ5": 1942,
      "guÃłnĠjÅ«nĠ": 1943,
      "ĠdÃ¬ĠÃ¨rĠ": 1944,
      "dÃłiĠbiÇİoĠ": 1945,
      "ĠqÄ«ngĠ": 1946,
      "kÄĽĠnÃ©ngĠ": 1947,
      "dÃ¬ĠdeĠ": 1948,
      "10Ġ": 1949,
      "dÇİoĠzhÃ¬Ġ": 1950,
      "guÄģnĠxÃ¬Ġ": 1951,
      "zhÃ©": 1952,
      "ĠwÃºĠ": 1953,
      "yĠ": 1954,
      "cÄģnĠyÃ¹Ġ": 1955,
      "fÄĵnĠbÃ¹Ġ": 1956,
      "ĠP": 1957,
      "ĠgÅįngĠchÃ©ngĠ": 1958,
      "wÃ¡nĠchÃ©ngĠ": 1959,
      "dÄģnĠwÃ¨iĠ": 1960,
      "yÄ«ĠwÃ¨iĠ": 1961,
      "ĠbÃ¹ĠfÃ¨n": 1962,
      "ĠyÃ²uĠ": 1963,
      "ĠmÄĽi": 1964,
      "Ġ15": 1965,
      "gÄģnĠ": 1966,
      "zhÃ¬ĠdeĠ": 1967,
      "gÄĽiĠ": 1968,
      "ĠyÃºĠ201": 1969,
      "ĠchÃ©ngĠyuÃ¡nĠ": 1970,
      "Ġb": 1971,
      "ĠdeĠchÃ©ngĠ": 1972,
      "dĠ": 1973,
      "Ġ194": 1974,
      "zhÃłngĠ": 1975,
      "ÄĵngĠ": 1976,
      "jiÃłoĠyÃ¹Ġ": 1977,
      "piÄģnĠ": 1978,
      "2019ĠniÃ¡nĠ": 1979,
      "ĠĠĠM": 1980,
      "yuÃ¡nĠdeĠ": 1981,
      "oĠ": 1982,
      "yÅįngĠyÇĴuĠ": 1983,
      "lÇļĠ": 1984,
      "cÃºnĠzÃłiĠ": 1985,
      "Ã¨rĠshÃŃĠ": 1986,
      "Ġ6": 1987,
      "bÄĽiĠbÃ¹Ġ": 1988,
      "liÃ¡nĠhÃ©Ġ": 1989,
      "yÃºnĠ": 1990,
      "ĠzhÃŃ": 1991,
      "hÃ²uĠdeĠ": 1992,
      "yÃ³uĠyÃºĠ": 1993,
      "shÃłoĠ": 1994,
      "ĠshÃ¬ĠzhÅįngĠ": 1995,
      "bÄ«nĠ": 1996,
      "uÃ¬Ġ": 1997,
      "guÃ³ĠjiÄģĠ": 1998,
      "niÇĶĠ": 1999,
      "fÄģĠxÃŃngĠ": 2000,
      "ĠcÃ³ngĠ": 2001,
      "yÃ¬ĠdeĠ": 2002,
      "shÄĽnĠ": 2003,
      "jÃ¹ĠyÇĴuĠ": 2004,
      "duÃ¬ĠyÃºĠ": 2005,
      "zhÃ¨ngĠfÇĶ": 2006,
      "xiÃ¹Ġ": 2007,
      "dÄ«ngĠ": 2008,
      "ĠjiÃłnĠzhÃ¹Ġ": 2009,
      "kÄģngĠ": 2010,
      "ĠbÃ¬ngĠzÃłiĠ": 2011,
      "ĠdÃłoĠleĠ": 2012,
      "ĠD": 2013,
      "xuÃ¡nĠ": 2014,
      "guÃ¬Ġ": 2015,
      "xÄ«nĠdeĠ": 2016,
      "sÄ«ĠdeĠ": 2017,
      "xiÃ¨Ġ": 2018,
      "huÃ¡i": 2019,
      "yÃ¹nĠdÃ²ngĠ": 2020,
      "zÃ¬ĠjÇĲ": 2021,
      "Ã©ĠluÃ³ĠsÄ«Ġ": 2022,
      "xÃŃngĠzhÃ¨ngĠ": 2023,
      "yÃ¬nĠdÃ¹Ġ": 2024,
      "tÅ«Ġ": 2025,
      "fÃºĠwÃ¹Ġ": 2026,
      "wÇİnĠ": 2027,
      "xÇĶĠduÅįĠ": 2028,
      "ĠdÃłnĠshÃ¬Ġ": 2029,
      "rÃ¨nĠhÃ©Ġ": 2030,
      "chÃ¨Ġ": 2031,
      "mÇİnĠ": 2032,
      "xiÄĽĠ": 2033,
      "shÄĵngĠyÃºĠ": 2034,
      "ĠmiÃłnĠjÄ«Ġ": 2035,
      "qÇĲngĠ": 2036,
      "zhÇĶĠyÃło": 2037,
      "rÃłngĠ": 2038,
      "liÇİngĠgÃ¨Ġ": 2039,
      "ĠsuÇĴ": 2040,
      "ĠrÃ©nĠkÇĴuĠmÃ¬Ġ": 2041,
      "ĠzhÅįngĠyÄģngĠ": 2042,
      "bÇİoĠhÃ¹Ġ": 2043,
      "ĠjÇĲnĠ": 2044,
      "si": 2045,
      "wÄĵnĠ": 2046,
      "ĠdeĠyÃŃĠgÃ¨Ġ": 2047,
      "nÃ¡nĠbÃ¹Ġ": 2048,
      "jÇĶĠxÃŃngĠ": 2049,
      "Ġ16": 2050,
      "ĠxiÃłngĠ": 2051,
      "zhuÄģnĠjÃŃĠ": 2052,
      "miÃłnĠjÄ«ĠwÃ¨iĠ": 2053,
      "ĠlÃ¬ngĠ": 2054,
      "ĠmÄĽiĠguÃ³Ġ": 2055,
      "hÅ«Ġ": 2056,
      "ruÃ²Ġ": 2057,
      "lÃ¡iĠdeĠ": 2058,
      "ĠzhÃ¨ngĠfÇĶĠ": 2059,
      "juÃ©ĠdÃ¬ngĠ": 2060,
      "fÄģnĠ": 2061,
      "ĠdÄģngĠshÃŃĠ": 2062,
      "ĠtÃ³ngĠniÃ¡nĠ": 2063,
      "el": 2064,
      "dÃºĠlÃ¬Ġ": 2065,
      "ĠchÅ«ĠdeĠ": 2066,
      "xÇĲĠ": 2067,
      "kÄģiĠshÇĲ": 2068,
      "ĠlÃ¬ĠshÇĲĠ": 2069,
      "mÃ¡oĠ": 2070,
      "Ġ195": 2071,
      "ĠzÇĴngĠ": 2072,
      "gÄĵngĠ": 2073,
      "suÃłnĠ": 2074,
      "ĠshÃ¨ĠjÃ¬Ġ": 2075,
      "ĠshÇĲ": 2076,
      "hÃłiĠ": 2077,
      "mÃŃngĠdeĠ": 2078,
      "qÃŃnĠ": 2079,
      "ac": 2080,
      "kÃłnĠ": 2081,
      "ĠluÃ³Ġ": 2082,
      "ĠliÃ¡nĠ": 2083,
      "ĠshÃ¬ĠwÃ¨iĠyÃºĠ": 2084,
      "jiÃ¹ĠshÃ¬Ġ": 2085,
      "ĠyÇĴuĠyÄ«Ġ": 2086,
      "shÃ¹ĠjÃ¹Ġ": 2087,
      "ĠliÃºĠ": 2088,
      "fÄģngĠmiÃłnĠ": 2089,
      "tÃłnĠ": 2090,
      "ĠgtĠ": 2091,
      "zhÃŃĠwÃ¹Ġ": 2092,
      "ĠqÃŃĠtÄģĠ": 2093,
      "ĠzhÇĲ": 2094,
      "ĠbÄģĠ": 2095,
      "shÃłnĠ": 2096,
      "ĠxÃŃngĠzhÃ¨ngĠ": 2097,
      "Ġ197": 2098,
      "fÇİngĠ": 2099,
      "shÃ²uĠdÃłoĠ": 2100,
      "tion": 2101,
      "rÃ¨nĠwÃ©iĠ": 2102,
      "ĠĠĠA": 2103,
      "ol": 2104,
      "tuÃ¬Ġ": 2105,
      "Ġ7": 2106,
      "ĠyÄ«ngĠ": 2107,
      "ĠcÇĲ": 2108,
      "xiÄģngĠgÇİng": 2109,
      "ĠshÃ¬ĠdÃ¬Ġ": 2110,
      "shÃ¨ĠhuÃ¬Ġ": 2111,
      "ĠltĠ": 2112,
      "yÃ¬ĠwÃ¨iĠ": 2113,
      "gÃ¹ĠshÃ¬Ġ": 2114,
      "fÃ¨ngĠ": 2115,
      "ĠxiÃłnĠzÃłiĠ": 2116,
      "duÇİnĠ": 2117,
      "qÅ«ĠwÃ¨iĠ": 2118,
      "qiÄģngĠ": 2119,
      "fÄģĠzhÇİn": 2120,
      "kÄģnĠ": 2121,
      "zheĠ": 2122,
      "TĠ": 2123,
      "lÇİngĠ": 2124,
      "wÄģnĠ": 2125,
      "ĠshÃ¬ĠshÃ¬Ġ": 2126,
      "shÇĲĠyÃ²ng": 2127,
      "ĠzuÃ¬ĠzhÅįngĠ": 2128,
      "suÄģnĠ": 2129,
      "ÄĽĠ": 2130,
      "liÃ¨ĠchÄĵĠ": 2131,
      "yÃ¡oĠ": 2132,
      "nÃ¨iĠdeĠ": 2133,
      "dÃłnĠ": 2134,
      "rĠ": 2135,
      "ĠlÃ¬ĠrÃºĠ": 2136,
      "ĠE": 2137,
      "shÇĶĠdeĠ": 2138,
      "ÇĲĠ": 2139,
      "xiÇİoĠshÃŃĠ": 2140,
      "zÃºĠqiÃºĠ": 2141,
      "lÃ¡ngĠ": 2142,
      "xÅ«ĠyÃłoĠ": 2143,
      "sÅįngĠ": 2144,
      "ĠyÃºĠ200": 2145,
      "kÃ²ngĠ": 2146,
      "huÃłĠdeĠ": 2147,
      "ĠbÃ¹ĠtÃ³ng": 2148,
      "pÃłoĠ": 2149,
      "ĠmÄĽiĠ": 2150,
      "zuÃ²ĠwÃ©iĠ": 2151,
      "rÃ©nĠshÃ¬Ġ": 2152,
      "lÃ¡iĠzÃ¬Ġ": 2153,
      "Ġ8": 2154,
      "diÃłnĠyÇĲng": 2155,
      "ĠĠĠP": 2156,
      "zuÃ²ĠdeĠ": 2157,
      "zÄĵngĠjiÄģĠ": 2158,
      "tÇİnĠ": 2159,
      "ĠjÃ¬ĠhuÃłĠ": 2160,
      "mÃŃnĠzhÇĶĠ": 2161,
      "ÄĽngĠ": 2162,
      "ĠshÃŃĠqÄ«Ġ": 2163,
      "mÃłoĠ": 2164,
      "xiÃ³ngĠ": 2165,
      "ĠzhÇĲĠ": 2166,
      "kÃ²ngĠzhÃ¬Ġ": 2167,
      "zuÃ²ĠpÇĲnĠ": 2168,
      "yÄ«nĠyuÃ¨Ġ": 2169,
      "xiÃ¡ngĠ": 2170,
      "ĠshÃ¬ĠjiÃłnĠ": 2171,
      "ĠjiÃłnĠdeĠ": 2172,
      "ĠsuÄ«": 2173,
      "zhuÄ«Ġ": 2174,
      "ĠrÃ¡nĠÃ©rĠ": 2175,
      "xuÃ©ĠyuÃłnĠ": 2176,
      "ĠyÇĲĠjÄ«ngĠ": 2177,
      "ĠH": 2178,
      "ĠtÅįngĠ": 2179,
      "ĠzÃłiĠdÃ¬Ġ": 2180,
      "rÃ©nĠmÃŃnĠ": 2181,
      "ĠrÃ©nĠyuÃ¡nĠ": 2182,
      "ĠhÃ©ĠzuÃ²Ġ": 2183,
      "zÇİiĠ": 2184,
      "tÄģĠdeĠ": 2185,
      "SĠ": 2186,
      "bÇİĠ": 2187,
      "zÇĶĠchÃ©ngĠ": 2188,
      "ĠcÃ©ngĠ": 2189,
      "chÄģoĠguÃ²Ġ": 2190,
      "Ġ17": 2191,
      "xÃ¬ĠtÇĴng": 2192,
      "zÇĴngĠtÇĴngĠ": 2193,
      "ÄģĠÄĽrĠ": 2194,
      "ĠyÄ«nĠyuÃ¨Ġ": 2195,
      "ĠwÇĶĠ": 2196,
      "zhÃ¡": 2197,
      "ĠzhÄģngĠ": 2198,
      "kuÇİnĠ": 2199,
      "huÃ¬ĠdeĠ": 2200,
      "erĠ": 2201,
      "jÃ¬ĠdeĠ": 2202,
      "ĠjiÃłnĠyÃºĠ": 2203,
      "yÃ©Ġ": 2204,
      "ĠshÇĶĠyÃºĠ": 2205,
      "ĠsÄģnĠ": 2206,
      "ĠwÃ¨iĠleĠ": 2207,
      "qiÅ«Ġ": 2208,
      "ĠL": 2209,
      "ĠhÃ²uĠlÃ¡iĠ": 2210,
      "ĠquÃ¡nĠ": 2211,
      "yÃºĠshÃ¬Ġ": 2212,
      "Ġ196": 2213,
      "ĠlÃ¬ĠyÃłĠ": 2214,
      "ĠchÃ©ngĠgÅįngĠ": 2215,
      "ĠÄģnĠ": 2216,
      "fÄģĠbÃ¹Ġ": 2217,
      "ÇĶnĠ": 2218,
      "ĠzhÃ¨ĠxiÄĵĠ": 2219,
      "dÃłĠlÃ¬Ġ": 2220,
      "yÄģoĠqiÃºĠ": 2221,
      "tÃŃĠchÅ«Ġ": 2222,
      "Ġ000": 2223,
      "ĠR": 2224,
      "ĠyÃ¬ĠyuÃ¡nĠ": 2225,
      "dÄģngĠshÃŃĠ": 2226,
      "ĠshÃ¨ĠyÇĴuĠ": 2227,
      "Ġ9": 2228,
      "ĠĠĠB": 2229,
      "jiÃ©ĠmÃ¹Ġ": 2230,
      "yÃ¹nĠdÃ²ngĠyuÃ¡nĠ": 2231,
      "hÃ¡nĠguÃ³Ġ": 2232,
      "bÃ¹ĠzÃłiĠ": 2233,
      "yÇĴuĠdeĠ": 2234,
      "nÃŃĠyÃł": 2235,
      "zÃłoĠchÃ©ngĠ": 2236,
      "ÅįuĠzhÅįuĠ": 2237,
      "cÇİiĠyÃ²ngĠ": 2238,
      "xiÇİoĠxÃŃngĠ": 2239,
      "xÃ¬ĠliÃ¨Ġ": 2240,
      "ĠgÅįngĠyuÃ¡nĠ": 2241,
      "DĠ": 2242,
      "zÃłnĠ": 2243,
      "jiÄģĠdeĠ": 2244,
      "xÃ¬ngĠdeĠ": 2245,
      "ĠyÄ«nĠcÇĲ": 2246,
      "shÄĵngĠdeĠ": 2247,
      "ĠyÃ²u": 2248,
      "ĠdeĠyÃŃĠgÃ¨": 2249,
      "Ã³uĠ": 2250,
      "ĠrÃ¬ĠzÃłiĠ": 2251,
      "rÃ©nĠwÃ¹Ġ": 2252,
      "ĠcÇĲĠwÃłiĠ": 2253,
      "ĠĠĠT": 2254,
      "gÃ²ngĠchÇİnĠ": 2255,
      "Ġ1": 2256,
      "mĠ": 2257,
      "ĠzhĠ": 2258,
      "nÇĲĠ": 2259,
      "dÇĲngĠ": 2260,
      "Ġãĥ": 2261,
      "20Ġ": 2262,
      "ra": 2263,
      "chÅ«nĠ": 2264,
      "ĠN": 2265,
      "ĠshÃ¬ĠhÃ©Ġ": 2266,
      "kuÄģnĠ": 2267,
      "lÃ¼Ã¨Ġ": 2268,
      "ĠĠĠdeĠ": 2269,
      "ĠjiÇİnĠ": 2270,
      "mÇİĠwÃ¨iĠ": 2271,
      "yÄĽĠshÃ¬Ġ": 2272,
      "of": 2273,
      "ĠG": 2274,
      "xuÃ©ĠjiÄģĠ": 2275,
      "ĠdeĠbÃ¹Ġ": 2276,
      "xuÃ¨Ġ": 2277,
      "yÃ³uĠxÃ¬Ġ": 2278,
      "sÄģnĠniÃ¡nĠ": 2279,
      "ĠcÃ©ng": 2280,
      "ĠĠĠ199": 2281,
      "fÃłnĠwÃ©iĠ": 2282,
      "ĠĠĠ19": 2283,
      "shÃ¨ĠjÃ¬Ġ": 2284,
      "kÄģiĠfÄģĠ": 2285,
      "ĠbÃ¹ĠtÃ³ngĠ": 2286,
      "bÇĲĠsÃłi": 2287,
      "qÇĶĠdÃ©Ġ": 2288,
      "ĠjiÄģng": 2289,
      "ĠwÇĴĠ": 2290,
      "qÃ¬ngĠ": 2291,
      "ĠdeĠjÄ«Ġ": 2292,
      "dÃłngĠ": 2293,
      "ĠgÄĵnĠjÃ¹Ġ": 2294,
      "il": 2295,
      "ĠlÃ¬ng": 2296,
      "ĠxÃŃngĠchÃ©ngĠ": 2297,
      "ĠĠĠdÃ¬ĠlÇĲĠ": 2298,
      "Ġ0": 2299,
      "zÃ¬ĠzhÃ¬Ġ": 2300,
      "chÇİnĠshÄĵngĠ": 2301,
      "ĠsuÃŃ": 2302,
      "dÅ«nĠ": 2303,
      "ĠdeĠjÃ¬Ġ": 2304,
      "juÃ©ĠsÃ¨Ġ": 2305,
      "shÅ«ĠjÃ¬Ġ": 2306,
      "ï¼į": 2307,
      "dÅįuĠshÃ¬Ġ": 2308,
      "ĠĠĠshÃ¬Ġ": 2309,
      "yÄ«ĠniÃ¡nĠ": 2310,
      "ÇĴngĠ": 2311,
      "Ġ193": 2312,
      "chÃ³ngĠxÄ«nĠ": 2313,
      "xiÅįngĠ": 2314,
      "ĠF": 2315,
      "chÄģĠ": 2316,
      "lÇĲĠdeĠ": 2317,
      "bÃºĠshÃ¬Ġ": 2318,
      "ĠshÃ¨ĠhuÃ¬Ġ": 2319,
      "zhÃ²ngĠyÃło": 2320,
      "ĠsÄ«ĠtÃ¨Ġ": 2321,
      "ĠzhÅįngĠhuÃ¡Ġ": 2322,
      "ĠjiÃ¹Ġ": 2323,
      "guÄģnĠyÃºĠ": 2324,
      "qÅ«ĠyÃ¹Ġ": 2325,
      "sÃłiĠshÃ¬Ġ": 2326,
      "gÄĵĠqÇĶĠ": 2327,
      "jiÄģoĠtÅįngĠ": 2328,
      "kÇĴngĠ": 2329,
      "ĠcÃ³ng": 2330,
      "wÃ²Ġ": 2331,
      "dÃłĠxuÃ©Ġ": 2332,
      "ĠyÃ³uĠxÃ¬Ġ": 2333,
      "pÃŃnĠ": 2334,
      "jÃŃĠdeĠ": 2335,
      "chÃºĠleĠ": 2336,
      "ĠchÅ«ĠxiÃłnĠ": 2337,
      "Ã¡Ġ": 2338,
      "duÄģnĠ": 2339,
      "Ġ1Ġ": 2340,
      "ĠzhÃ¬ĠzuÃ²Ġ": 2341,
      "qiÃ¡nĠwÇİngĠ": 2342,
      "ĠguÄģnĠ": 2343,
      "ĠdÃłĠxuÃ©": 2344,
      "pÃŃngĠjÅ«nĠ": 2345,
      "kĠ": 2346,
      "ĠdÃ©ĠguÃ³Ġ": 2347,
      "xiÇİnĠshÃ¬Ġ": 2348,
      "zÇĴuĠ": 2349,
      "ĠyÃ¡nĠ": 2350,
      "Ã¨rĠniÃ¡nĠ": 2351,
      "ĠzhÅįngĠhuÃ¡ĠrÃ©nĠmÃŃnĠgÃ²ngĠhÃ©ĠguÃ³Ġ": 2352,
      "quÄĵĠ": 2353,
      "hÃ²uĠzÃłiĠ": 2354,
      "dÄģngĠdÃ¬Ġ": 2355,
      "12Ġ": 2356,
      "zhÃŃĠyÃ¨Ġ": 2357,
      "ĠxiÇİoĠ": 2358,
      "xiÃłĠdeĠ": 2359,
      "ow": 2360,
      "yÇİnĠyuÃ¡nĠ": 2361,
      "ĠkÃ¨ĠsÄ«Ġ": 2362,
      "dÃ©ĠguÃ³Ġ": 2363,
      "guÇİnĠxiÃ¡Ġ": 2364,
      "xuÇİnĠjÇĶĠ": 2365,
      "pÃ©ngĠ": 2366,
      "wÃ©iĠyÄ«Ġ": 2367,
      "guÃ³ĠjÃ¬Ġ": 2368,
      "duÃ¬ĠdeĠ": 2369,
      "pÃłĠ": 2370,
      "bÃ³ĠwÃ¹Ġ": 2371,
      "qiÇİnĠ": 2372,
      "ĠjiÃłnĠlÃ¬Ġ": 2373,
      "Ġ10": 2374,
      "30Ġ": 2375,
      "ĠdÃ¬ĠguÃ³Ġ": 2376,
      "xiÃłngĠmÃ¹Ġ": 2377,
      "fÇİnĠduÃ¬Ġ": 2378,
      "qÄ«ĠdeĠ": 2379,
      "qiÃ¨Ġ": 2380,
      "wÃ¹ĠdeĠ": 2381,
      "zhÇĶĠxÃŃĠ": 2382,
      "huÄģnĠ": 2383,
      "ĠxiÄģngĠgÇİngĠ": 2384,
      "yÄ«nĠwÃ¨iĠ": 2385,
      "qÃ¹ĠshÃ¬Ġ": 2386,
      "Ġ14": 2387,
      "yÄ«ĠbÃ¹ĠfÃ¨nĠ": 2388,
      "dÃ²ngĠwÃ¹Ġ": 2389,
      "bÃ¡ĠgÄģoĠ": 2390,
      "Ġãģ": 2391,
      "niÃºĠ": 2392,
      "hÅ«nĠ": 2393,
      "ĠdÃłiĠbiÇİoĠ": 2394,
      "shÃŃĠniÃ¡nĠ": 2395,
      "zuÃ¬ĠzhÅįngĠ": 2396,
      "ĠliÇİng": 2397,
      "yÄ«ĠbÃ¹Ġ": 2398,
      "oĠĠĠ": 2399,
      "dÃ¹ĠwÃ¨iĠ": 2400,
      "ruÇİnĠ": 2401,
      "jiÄĵĠshÃ²uĠ": 2402,
      "fÃ¡Ġ": 2403,
      "zhÃ¨ngĠzhÃ¬ĠrÃ©nĠwÃ¹Ġ": 2404,
      "nÃŃĠyÃłĠ": 2405,
      "miÃłoĠ": 2406,
      "ĠJ": 2407,
      "hÃ¡iĠyÇĴuĠ": 2408,
      "dÃłiĠbiÇİo": 2409,
      "ĠãĤ": 2410,
      "ĠĠĠrÃ©nĠkÇĴuĠ": 2411,
      "tÇĲĠyÃ¹Ġ": 2412,
      "lÄĽi": 2413,
      "jiÃłoĠshÃ²uĠ": 2414,
      "yÇİĠ": 2415,
      "kuÃ²Ġ": 2416,
      "0ĠniÃ¡nĠdÃłiĠ": 2417,
      "ĠwÃ¡ngĠ": 2418,
      "suÅįĠ": 2419,
      "ĠtÄģĠshÃ¬Ġ": 2420,
      "ĠbÃ¹ĠduÃ¬Ġ": 2421,
      "ĠxÃŃngĠshÃ¬Ġ": 2422,
      "ĠshÃ²uĠ": 2423,
      "kÃłngĠ": 2424,
      "ĠliÇİngĠ": 2425,
      "dÃ¬ngĠdeĠ": 2426,
      "ĠdÄģngĠdÃ¬Ġ": 2427,
      "chÃ¬Ġ": 2428,
      "ĠyÄĽĠshÃ¬Ġ": 2429,
      "jiÄĵĠr": 2430,
      "duÃ³Ġ": 2431,
      "bÄģĠshÃ¬Ġ": 2432,
      "rÇİnĠ": 2433,
      "zÅ«nĠ": 2434,
      "xuÃ©ĠxiÃłoĠ": 2435,
      "ĠmÇİ": 2436,
      "zhÇĶĠjiÃłoĠ": 2437,
      "huÃ¡iĠ": 2438,
      "zhÄģoĠ": 2439,
      "ĠdeĠyuÃ¡nĠ": 2440,
      "zhÃ²ngĠyÃłoĠ": 2441,
      "ĠĠĠL": 2442,
      "jiÃ©ĠgÃ²uĠ": 2443,
      "ĠsuÇĴĠ": 2444,
      "diÃłoĠchÃ¡Ġ": 2445,
      "ĠkÄĽĠ": 2446,
      "ĠzhÄ«ĠjiÄģnĠ": 2447,
      "ĠgÃ©Ġ": 2448,
      "ta": 2449,
      "ĠbÃ¬Ġ": 2450,
      "biÄģnĠmÇİĠwÃ¨iĠ": 2451,
      "dÃłiĠdeĠ": 2452,
      "liÃ¡nĠmÃ©ngĠ": 2453,
      "niÇİoĠ": 2454,
      "ĠxuÃ©ĠmÃŃngĠ": 2455,
      "ĠyÃºĠ202": 2456,
      "ĠrÃ¬ĠzhÃ¬Ġ": 2457,
      "gÇİiĠwÃ©iĠ": 2458,
      "zÇĶĠzhÄ«": 2459,
      "nÇļĠzÇĲĠ": 2460,
      "wÄĽnĠ": 2461,
      "zÄ«ĠliÃłoĠ": 2462,
      "ĠzÃłiĠ200": 2463,
      "zhuÃłnĠ": 2464,
      "jiÃłoĠyÃ¹": 2465,
      "guÃłnĠ": 2466,
      "fÄĵnĠwÃ©iĠ": 2467,
      "wÃºĠfÇİĠ": 2468,
      "ĠbÇĲĠ": 2469,
      "hÇİiĠjÅ«nĠ": 2470,
      "ĠjÅ«nĠshÃ¬Ġ": 2471,
      "gÅįngĠshÃ¬Ġ": 2472,
      "ĠrÃ©nĠkÇĴuĠmÃ¬ĠdÃ¹Ġ": 2473,
      "guÇĲĠ": 2474,
      "fÃ¹ĠzÃ©Ġ": 2475,
      "chÇĶĠlÇĲĠ": 2476,
      "ãĢī": 2477,
      "ãĢĪ": 2478,
      "ĠsÃ¬Ġ": 2479,
      "shÃ¹ĠdeĠ": 2480,
      "ĠzhÃ¨ngĠfÇĶ": 2481,
      "zuÃ¬ĠgÄģoĠ": 2482,
      "fÄģngĠfÇİĠ": 2483,
      "fÃ³Ġ": 2484,
      "Ġ2Ġ": 2485,
      "wÅ«ĠkÃ¨ĠlÃ¡nĠ": 2486,
      "ĠdeĠdÃłĠ": 2487,
      "ĠrÃ¬ĠbÄĽn": 2488,
      "diÃ©Ġ": 2489,
      "ĠĠĠR": 2490,
      "yÄģoĠ": 2491,
      "ĠdeĠyÃ¬Ġ": 2492,
      "ĠchÃ©nĠ": 2493,
      "ĠyÇĴuĠxiÃłn": 2494,
      "cu": 2495,
      "11Ġ": 2496,
      "ĠĠĠyÇĶĠ": 2497,
      "ĠgÃ¨ĠrÃ©nĠ": 2498,
      "ĠjÃ¬ĠshÃ¹Ġ": 2499,
      "chÃºnĠ": 2500,
      "yÇĲngĠxiÇİng": 2501,
      "jÅ«ĠmÃŃnĠ": 2502,
      "zhÇĶĠrÃ¨nĠ": 2503,
      "zÃ¬ĠyÃ³uĠ": 2504,
      "qÃŃĠzhÅįngĠ": 2505,
      "ĠshÃ¬ĠyÃ³uĠ": 2506,
      "fÄĵiĠchÃ¡ngĠ": 2507,
      "xuÃ©ĠshÄĵngĠ": 2508,
      "lÃ¹ĠdeĠ": 2509,
      "nÃ¡nĠziĠ": 2510,
      "liÃ¡nĠsÃłiĠ": 2511,
      "sÄģnĠshÃŃĠ": 2512,
      "fÇİnĠyÃ¬ngĠ": 2513,
      "ĠÐ": 2514,
      "biÄģoĠzhÇĶnĠ": 2515,
      "ĠzÃłiĠ201": 2516,
      "shÃ¹ĠliÃłng": 2517,
      "zhÃŃĠjiÄĵĠ": 2518,
      "ĠzhÄ«ĠchÃŃĠ": 2519,
      "xiÃ©ĠhuÃ¬Ġ": 2520,
      "ĠqÄ«Ġ": 2521,
      "kÄĽĠyÇĲ": 2522,
      "ĠjiÃ©": 2523,
      "ĠchÃ¡ngĠ": 2524,
      "shÃ¨nĠzhÃ¬Ġ": 2525,
      "wÃ©nĠxuÃ©Ġ": 2526,
      "fÄĵnĠbÃ¹ĠyÃºĠ": 2527,
      "bÇĲĠlÃ¬Ġ": 2528,
      "wÃ©nĠhuÃł": 2529,
      "tÇĴngĠzhÃ¬Ġ": 2530,
      "chuÃłngĠzuÃ²Ġ": 2531,
      "pĠ": 2532,
      "sÇĶnĠ": 2533,
      "ĠĠĠbÄĽnĠ": 2534,
      "dÅįngĠbÃ¹Ġ": 2535,
      "ĠdeĠyÃŃĠgÃ¨ĠshÃ¬ĠzhÃ¨nĠ": 2536,
      "et": 2537,
      "ĠdÃ¬ĠsÄģnĠ": 2538,
      "gÄģiĠguÃ³Ġ": 2539,
      "ĠgÅįngĠsÄ«": 2540,
      "PĠ": 2541,
      "qÃŃngĠkuÃłngĠ": 2542,
      "sÃ¬ĠniÃ¡nĠ": 2543,
      "zÃłngĠ": 2544,
      "yuÄĵĠhÃłnĠ": 2545,
      "wÃ©nĠwÃ¹Ġ": 2546,
      "ĠfÃ¹ĠzÃ©Ġ": 2547,
      "Ġ2": 2548,
      "ĠĠĠG": 2549,
      "ĠdÃ¬ĠshÃŃĠ": 2550,
      "ĠfÃº": 2551,
      "ÃłnĠdeĠ": 2552,
      "ĠĠĠxÃŃngĠzhÃ¨ngĠ": 2553,
      "shÄĵngĠhuÃ³Ġ": 2554,
      "ĠbÃ¹ĠguÃ²Ġ": 2555,
      "yÄģnĠ": 2556,
      "ÄģnĠquÃ¡nĠ": 2557,
      "huÃ¬ĠzÃłiĠ": 2558,
      "zhÅįngĠshÃ¬Ġ": 2559,
      "quÃ¡nĠlÃ¬Ġ": 2560,
      "cuÃ²Ġ": 2561,
      "ĠcÃ¹": 2562,
      "nÇļĠxÃ¬ngĠ": 2563,
      "ĠdÃłoĠdeĠ": 2564,
      "ĠsuÃŃĠ": 2565,
      "nÃ©ngĠlÃ¬Ġ": 2566,
      "gÅįngĠbÃ¹Ġ": 2567,
      "nÃ¨iĠrÃ³ngĠ": 2568,
      "ĠĠĠD": 2569,
      "ĠshÃ¬ĠyÃŃĠgÃ¨Ġ": 2570,
      "ĠgÇĶĠ": 2571,
      "ĠlÃ¡iĠ": 2572,
      "om": 2573,
      "xÄ«ĠbÃ¹Ġ": 2574,
      "ĠbÃ¬ngĠyÃºĠ": 2575,
      "ĠshÄ«Ġ": 2576,
      "ĠjÃ¬nĠrÃ¹Ġ": 2577,
      "dÃ²ngĠhuÃłĠ": 2578,
      "lÃ¹ĠxiÃłnĠ": 2579,
      "bÄĽiĠjÄ«ngĠ": 2580,
      "pÄģi": 2581,
      "chÃ©ngĠlÃ¬Ġ": 2582,
      "ĠjiÄĵĠ": 2583,
      "ĠzhÅįngĠxuÃ©Ġ": 2584,
      "qÃŃngĠkuÃłng": 2585,
      "ĠK": 2586,
      "miÃłnĠdeĠ": 2587,
      "shuÃłiĠ": 2588,
      "yÃ¬ĠshÃ¬Ġ": 2589,
      "ĠĠĠformulaĠ": 2590,
      "ĠÄĽrĠsÄ«Ġ": 2591,
      "bÇİngĠ": 2592,
      "jÇĲnĠbiÄģoĠ": 2593,
      "mÃ©iĠtÇĲĠ": 2594,
      "ic": 2595,
      "theĠĠĠ": 2596,
      "ĠfÇİĠ": 2597,
      "yÇĴuĠshÃŃĠ": 2598,
      "ĠshÄģnĠ": 2599,
      "ĠyÃ¬ĠhuÃ¬Ġ": 2600,
      "ĠbÇİoĠ": 2601,
      "guÇİngĠdÅįngĠ": 2602,
      "ĠshÄĵnĠ": 2603,
      "zÃ¬ĠjÇĲĠdeĠ": 2604,
      "mÇĲnĠ": 2605,
      "ĠhuÃ¡ngĠ": 2606,
      "ĠkÇİĠ": 2607,
      "âĢĵ": 2608,
      "ĠÃłoĠ": 2609,
      "bÇĲngĠ": 2610,
      "ĠĠĠjiÄģĠ": 2611,
      "jiÃłnĠzhÃ¹Ġ": 2612,
      "yÃłĠzhÅįuĠ": 2613,
      "shÃ¹nĠ": 2614,
      "ĠpÇĶĠ": 2615,
      "at": 2616,
      "luÃłnĠ": 2617,
      "ĠĠĠH": 2618,
      "chÄģngĠ": 2619,
      "dÇİoĠdeĠ": 2620,
      "ĠguÃ³ĠmÃŃnĠ": 2621,
      "ÅįngĠ": 2622,
      "niÃ¨Ġ": 2623,
      "lÃ¡oĠ": 2624,
      "nÃ¡ĠdÃłĠ": 2625,
      "Ġd": 2626,
      "tÃłiĠpÃŃngĠ": 2627,
      "mÄĽiĠyuÃ¡nĠ": 2628,
      "fÃ¡nĠ": 2629,
      "ĠĠĠ198": 2630,
      "quÃ¡nĠbÃ¹Ġ": 2631,
      "dÃ¬ĠwÃ¨iĠ": 2632,
      "zhÇĲĠyÇĴuĠ": 2633,
      "bÃ¡ĠgÄģoĠdÃ¹Ġ": 2634,
      "dÃ¡ĠdÃłoĠ": 2635,
      "hÃ¡oĠ": 2636,
      "lÇĲĠshÃ¬Ġ": 2637,
      "zhÃºĠjiÃłnĠ": 2638,
      "ĠzhÃ¨ĠshÃ¬Ġ": 2639,
      "ĠbÃ¬ngĠqiÄĽĠ": 2640,
      "bÇİnĠbÄĽnĠ": 2641,
      "ĠgÇİiĠ": 2642,
      "qÄ«ngĠniÃ¡nĠ": 2643,
      "ĠsuÇĴĠyÇĲĠ": 2644,
      "xÇĶĠduÅį": 2645,
      "ĠxuÃ©ĠxiÃłoĠ": 2646,
      "pÃ©iĠ": 2647,
      "zhÄĽĠdeĠ": 2648,
      "huÇĲĠ": 2649,
      "ĠxÄ«ĠyÃłĠ": 2650,
      "shÇĴuĠcÃ¬Ġ": 2651,
      "miÃ¨Ġ": 2652,
      "chÃ³uĠ": 2653,
      "ĠbÃ¬ngĠqiÄĽ": 2654,
      "xuÄĽĠ": 2655,
      "wÅ«ĠkÃ¨ĠlÃ¡n": 2656,
      "jiÄģngĠjÅ«nĠ": 2657,
      "gÅ«Ġ": 2658,
      "lÄģĠsÄ«Ġ": 2659,
      "yÄ«ĠshÃ¬Ġ": 2660,
      "ĠĠĠgÄĵnĠjÃ¹Ġ": 2661,
      "ĠchÃ©ngĠwÃ©i": 2662,
      "zhÇĲĠchÅ«Ġ": 2663,
      "dÄģnĠqÅ«Ġ": 2664,
      "rÃ¬ĠbÄĽn": 2665,
      "mÃ³ĠshÃ¬Ġ": 2666,
      "tÇĲngĠ": 2667,
      "tÇİoĠ": 2668,
      "hÃ¹nĠ": 2669,
      "ĠyÃ¬ĠshÃ¹Ġ": 2670,
      "ĠtÄģĠmenĠdeĠ": 2671,
      "hÃ¡ngĠkÅįngĠ": 2672,
      "IĠ": 2673,
      "ĠjÃ¬ĠlÃ¹Ġ": 2674,
      "zhÃŃĠxÃŃngĠ": 2675,
      "tÅįngĠguÃ²": 2676,
      "ĠzhÅįuĠdeĠ": 2677,
      "âĢ¦": 2678,
      "zhÃ²u": 2679,
      "wÇĶĠniÃ¡nĠ": 2680,
      "zhÃłĠ": 2681,
      "ĠĠĠ18": 2682,
      "onĠ": 2683,
      "zhÃ¨ĠyÄ«Ġ": 2684,
      "ĠqÃŃĠshÃ¬Ġ": 2685,
      "ĠzhÃ¨ĠgeĠ": 2686,
      "ĠfÄĵngĠ": 2687,
      "dÄĽngĠrÃ©nĠ": 2688,
      "ĠlÃŃnĠ": 2689,
      "yÇĶnĠ": 2690,
      "zÄģiĠ": 2691,
      "ĠtÃłiĠ": 2692,
      "kÄĽnĠ": 2693,
      "ĠW": 2694,
      "zÃ©ĠshÃ¬Ġ": 2695,
      "jÃ¬nĠrÃ¹Ġ": 2696,
      "ĠzhÇĶĠyÃłoĠ": 2697,
      "nÇİoĠ": 2698,
      "tÃ³ngĠshÃŃĠ": 2699,
      "28ĠrÃ¬Ġ": 2700,
      "rÃ©nĠkÇĴuĠpÇĶĠ": 2701,
      "meĠ": 2702,
      "gÃ©ĠlÃ¡nĠ": 2703,
      "ĠqÃŃĠyÃºĠ": 2704,
      "mÃŃnĠzÃºĠ": 2705,
      "gÄģiĠdÃ¬Ġ": 2706,
      "ĠqiÃºĠduÃ¬Ġ": 2707,
      "ĠhÃłoĠ": 2708,
      "zhÃłnĠzhÄĵngĠ": 2709,
      "yÇİnĠchÅ«Ġ": 2710,
      "bÃłĠ": 2711,
      "huÃ³ĠdÃ²ng": 2712,
      "rÃ¨nĠwÃ©i": 2713,
      "ĠyÃºĠshÃ¬Ġ": 2714,
      "ĠzÇĴng": 2715,
      "zhÃ©Ġ": 2716,
      "ĠzhÄ«ĠjiÄģnĠdeĠ": 2717,
      "ĠgÅįngĠkÄģiĠ": 2718,
      "ĠĠĠF": 2719,
      "tÃ²uĠ": 2720,
      "nÃ¡Ġ": 2721,
      "UT": 2722,
      "ĠlÃ¬ĠyÃł": 2723,
      "..": 2724,
      "xiÃłĠjÃ¬Ġ": 2725,
      "lÃ¨ĠbÃ¹Ġ": 2726,
      "ĠÃło": 2727,
      "ĠÃłiĠ": 2728,
      "zhÃ¨ĠxiÄĵĠ": 2729,
      "jÃ¬ngĠnÃ¨iĠ": 2730,
      "ĠzÃ©Ġ": 2731,
      "ĠdÄģngĠzhÅįngĠ": 2732,
      "tÇĲĠdeĠ": 2733,
      "ec": 2734,
      "Ġ13": 2735,
      "chÄĵĠzhÃłn": 2736,
      "gÃ²ngĠtÃ³ngĠ": 2737,
      "sÅįuĠ": 2738,
      "tuÄ«ĠchÅ«Ġ": 2739,
      "zhÃºĠ": 2740,
      "jiÃ©ĠshÃ¹Ġ": 2741,
      "ĠlÄģĠ": 2742,
      "ĠshÃ¬ĠwÃ¹Ġ": 2743,
      "ĠnÃłĠ": 2744,
      "huÃ¡nĠjÃ¬ngĠ": 2745,
      "lÃŃĠkÄģiĠ": 2746,
      "ĠxÄ«n": 2747,
      "shuÃ¬Ġ": 2748,
      "ĠlÃ¬ngĠwÃłiĠ": 2749,
      "ĠĠĠI": 2750,
      "lÃŃnĠpÇĲ": 2751,
      "ĠzhÇİngĠ": 2752,
      "shÄģngĠyÃ¨Ġ": 2753,
      "chuÃ¡nĠtÇĴngĠ": 2754,
      "yuÃ¡nĠniÃ¡nĠ": 2755,
      "ĠĠĠniÃ¡n": 2756,
      "qÇĲĠyÃ¨Ġ": 2757,
      "ĠkÄģiĠ": 2758,
      "ĠjiÄģnĠ": 2759,
      "15ĠrÃ¬Ġ": 2760,
      "yÃŃnĠhÃ¡ngĠ": 2761,
      "fÄĵnĠzhÅįngĠ": 2762,
      "guÄģnĠdeĠ": 2763,
      "jÅ«nĠshÃ¬Ġ": 2764,
      "Ġ5Ġ": 2765,
      "shÃº": 2766,
      "jiÄĵĠdÃłoĠ": 2767,
      "ĠĠĠ194": 2768,
      "quÃ¡nĠqiÃºĠ": 2769,
      "xiÄģngĠguÄģnĠ": 2770,
      "ĠsÅ«Ġ": 2771,
      "jÄ«ĠdeĠ": 2772,
      "qiÃ¡nĠdeĠ": 2773,
      "zÃ¬ĠjÇĲĠ": 2774,
      "xuÇİnĠzÃ©Ġ": 2775,
      "liÃłngĠdeĠ": 2776,
      "ĠzhÇĶĠyÃło": 2777,
      "ĠkÄĽĠyÇĲĠ": 2778,
      "gÄģoĠdeĠ": 2779,
      "40": 2780,
      "sÃłiĠjÃ¬Ġ": 2781,
      "bÃ³ĠshÃ¬Ġ": 2782,
      "fÄĵnĠbiÃ©": 2783,
      "dÃ¹ĠdeĠ": 2784,
      "pÃºĠ": 2785,
      "ĠwÃ¨iĠrÃ©nĠ": 2786,
      "ĠbÄģ": 2787,
      "ĠshÃ¨ngĠ": 2788,
      "wÃ¡nĠquÃ¡nĠ": 2789,
      "ĠÃ¨rĠ": 2790,
      "ĠwÃ¨iĠzhÃ¬Ġ": 2791,
      "mÃ¬ngĠmÃŃngĠ": 2792,
      "ĠdÃ¬ĠÃ¨r": 2793,
      "sÅ«nĠ": 2794,
      "tuÃ¡nĠtÇĲĠ": 2795,
      "bÄĽiĠjÄ«ng": 2796,
      "dÄĽngĠdÃ¬Ġ": 2797,
      "ĠgÅįngĠlÃ¹Ġ": 2798,
      "hÃ³uĠ": 2799,
      "RĠ": 2800,
      "rÃ¨ĠdÃłiĠ": 2801,
      "bÃłoĠgÃłoĠ": 2802,
      "zuÃ¬ĠhÃ²uĠ": 2803,
      "chÃ©ngĠzhÅįngĠ": 2804,
      "ĠbÄģoĠkuÃ²": 2805,
      "ĠshÃŃĠjÃ¬Ġ": 2806,
      "yÃ¹nĠdÃ²ngĠhuÃ¬Ġ": 2807,
      "rÃ©nĠzÃłiĠ": 2808,
      "ĠdÃłĠlÃ¬Ġ": 2809,
      "zuÃ¬ĠjiÄģĠ": 2810,
      "sÄģnĠgÃ¨Ġ": 2811,
      "ĠdÃłnĠzÃłiĠ": 2812,
      "21Ġ": 2813,
      "bÅįĠchÅ«Ġ": 2814,
      "ĠshÄģĠ": 2815,
      "ĠĠĠjÃ¹Ġ": 2816,
      "xuÃ©ĠwÃ¨iĠ": 2817,
      "lÇĲngĠdÇİoĠ": 2818,
      "zÅįngĠjiÃłoĠ": 2819,
      "tÇĶĠdÃ¬Ġ": 2820,
      "ĠdÃ©ĠdÃłoĠ": 2821,
      "ĠshÃ¬ĠyÄ«ĠzhÇĴngĠ": 2822,
      "xÃ¬ĠdeĠ": 2823,
      "EĠ": 2824,
      "ĠhÃ³ngĠ": 2825,
      "25ĠrÃ¬Ġ": 2826,
      "Ġ2001ĠniÃ¡nĠ": 2827,
      "duÃ³": 2828,
      "ĠdÃ¬ĠfÄģngĠ": 2829,
      "guÇĲĠdÃłoĠ": 2830,
      "ĠwÃ¨iĠdÃ¬Ġ": 2831,
      "ĠmÃ¹ĠqiÃ¡nĠ": 2832,
      "juÇİnĠ": 2833,
      "VĠ": 2834,
      "jÄ«ngĠlÃ¬Ġ": 2835,
      "ĠzhÄ«ĠqiÃ¡nĠ": 2836,
      "shÄĽngĠdeĠyÃŃĠgÃ¨ĠshÃ¬ĠzhÃ¨nĠ": 2837,
      "Ã²ngĠ": 2838,
      "ĠjÅ«nĠdeĠ": 2839,
      "oo": 2840,
      "ĠjÄ«ĠgÃ²uĠ": 2841,
      "ĠshÃ¬ĠwÃ¨iĠyÃºĠmÄĽiĠguÃ³Ġ": 2842,
      "ĠzhÅįngĠhuÃ¡ĠmÃŃnĠguÃ³Ġ": 2843,
      "wÃ¨iĠdeĠ": 2844,
      "ĠkÄĵĠ": 2845,
      "sÇĲĠwÃ¡ngĠ": 2846,
      "ĠgÃ¨ĠyuÃ¨Ġ": 2847,
      "dÇĴng": 2848,
      "ÃłoĠlÃŃnĠpÇĲ": 2849,
      "qiÃłn": 2850,
      "ĠzÃłiĠyÄ«Ġ": 2851,
      "Ã¹Ġ": 2852,
      "30ĠrÃ¬Ġ": 2853,
      "ĠjÄ«n": 2854,
      "anĠ": 2855,
      "dÄģnĠrÃ¨n": 2856,
      "zÃłng": 2857,
      "ĠdeĠhÃ©Ġ": 2858,
      "shÄģoĠ": 2859,
      "ĠbÅįĠ": 2860,
      "ĠhÇİiĠbÃ¡ĠgÄģoĠdÃ¹Ġ": 2861,
      "ĠyÄ«ĠxiÄĵĠ": 2862,
      "chÄģiĠ": 2863,
      "ĠyÇĴuĠguÄģnĠ": 2864,
      "ĠdiÃłnĠ": 2865,
      "20ĠrÃ¬Ġ": 2866,
      "ĠxÃŃngĠdÃ²ngĠ": 2867,
      "ter": 2868,
      "shuÇĲĠyÃ¹Ġ": 2869,
      "ĠĠĠwÃ¨iĠ": 2870,
      "biÃłnĠhuÃłĠ": 2871,
      "shÃłngĠwÃ¨iĠ": 2872,
      "huÃłiĠ": 2873,
      "zhÇİo": 2874,
      "ĠzhÃŃĠ": 2875,
      "Ġ3Ġ": 2876,
      "zhÄ«ĠyÄ«Ġ": 2877,
      "ĠshÃŃĠdÃłiĠ": 2878,
      "jÃŃĠzhÅįngĠ": 2879,
      "diÄģoĠ": 2880,
      "ĠjÃŃĠtuÃ¡nĠ": 2881,
      "ĠjÃ¬ĠxÃ¹Ġ": 2882,
      "UTCĠ": 2883,
      "zhÄ«ĠchÃŃĠ": 2884,
      "gÃłnĠ": 2885,
      "gÃ²ngĠhÃ©Ġ": 2886,
      "gÃ©ĠmÃ¬ngĠ": 2887,
      "gÄĵĠshÇĴuĠ": 2888,
      "tÃ¬Ġ": 2889,
      "zhÃ¨ĠgeĠ": 2890,
      "jÄ«ĠyÃºĠ": 2891,
      "chÇĶĠyÃºĠ": 2892,
      "zÅ«Ġ": 2893,
      "ĠhÃ²uĠlÃ¡i": 2894,
      "ĠbÃ¹ĠzhÇİngĠ": 2895,
      "guÃ²ĠchÃ©ngĠ": 2896,
      "zhÇİoĠ": 2897,
      "yÃ²ngĠdeĠ": 2898,
      "tÃ¡iĠbÄĽi": 2899,
      "10ĠrÃ¬Ġ": 2900,
      "xiÇİoĠshuÅįĠ": 2901,
      "kÅįngĠjiÄģnĠ": 2902,
      "xÄ«nĠwÃ©nĠ": 2903,
      "BĠ": 2904,
      "ĠyÃºĠ199": 2905,
      "ĠĠĠgÄģiĠ": 2906,
      "bÃºĠhuÃ¬Ġ": 2907,
      "ÄģĠlÄģĠ": 2908,
      "nÃ¨iĠbÃ¹Ġ": 2909,
      "ĠjiÃłoĠ": 2910,
      "ĠhÃ¡iĠ": 2911,
      "ĠÃ©rĠzÃłiĠ": 2912,
      "ĠjÃŃĠtuÃ¡n": 2913,
      "ĠyÃ¬ĠzhÃŃĠ": 2914,
      "wÃ¹ĠzhÇĴngĠ": 2915,
      "gÄĵnĠjÃ¹": 2916,
      "jiÄĽĠfÃłng": 2917,
      "as": 2918,
      "pÄ«ĠpÃŃngĠ": 2919,
      "ĠzhÅįuĠshÃ¬Ġ": 2920,
      "dÃ¬ĠqÅ«Ġ": 2921,
      "luÃ³ĠmÇİĠ": 2922,
      "yÃ¨ĠyÃºĠ": 2923,
      "ĠyÃŃĠ": 2924,
      "rÃ©ngĠ": 2925,
      "ĠjiÄģĠrÃ¹Ġ": 2926,
      "ĠhÃ©ĠnÃ¡nĠ": 2927,
      "guÄ«ĠdÃ¬ngĠ": 2928,
      "ĠzhÃŃĠdÃłoĠ": 2929,
      "kÇİiĠ": 2930,
      "ĠyÇĴuĠxiÃłnĠgÅįngĠsÄ«Ġ": 2931,
      "guÅįĠ": 2932,
      "wÃ¡nĠjiÄģĠ": 2933,
      "shÃłngĠhÇİiĠ": 2934,
      "jÄ«ngĠguÃ²Ġ": 2935,
      "rÇĶĠ": 2936,
      "ĠshÃ¬ĠshÃŃĠ": 2937,
      "chÃ©ngĠwÃ©iĠ": 2938,
      "xÄ«ĠbÄģnĠ": 2939,
      "ÃłoĠlÃŃnĠpÇĲĠkÃ¨Ġ": 2940,
      "zÄ«ĠgÃ©Ġ": 2941,
      "26ĠrÃ¬Ġ": 2942,
      "xÃ¬ĠliÃ¨": 2943,
      "dÃłĠlÃ¹Ġ": 2944,
      "ĠĠĠc": 2945,
      "diÄģnĠ": 2946,
      "gÅ«": 2947,
      "ĠdÃłĠhuÃ¬Ġ": 2948,
      "24ĠrÃ¬Ġ": 2949,
      "ĠO": 2950,
      "duÅįĠdeĠ": 2951,
      "zÃłiĠdeĠ": 2952,
      "zÃ¡ĠzhÃ¬Ġ": 2953,
      "yÄ«ngĠyÇĶĠ": 2954,
      "lÃ¹ĠdÃ¬Ġ": 2955,
      "hÃ©ĠdeĠ": 2956,
      "hÃ¡oĠmÇĲĠ": 2957,
      "ĠyÇĶĠyÃ¡nĠ": 2958,
      "qÃŃĠtÄģ": 2959,
      "fÄģngĠdeĠ": 2960,
      "ĠzhÃ¨ĠzhÇĴngĠ": 2961,
      "ĠĠĠW": 2962,
      "Ġ12": 2963,
      "jiÃ©ĠguÇĴĠ": 2964,
      "hÃ²uĠyÄ«Ġ": 2965,
      "kÃłoĠ": 2966,
      "Ġ6Ġ": 2967,
      "ĠĠĠyÄ«Ġ": 2968,
      "ĠnÃ¡n": 2969,
      "ĠchÃ©ngĠqÅ«Ġ": 2970,
      "ĠfÄģĠ": 2971,
      "es": 2972,
      "ĠfÄĵiĠ": 2973,
      "sÃ¨ĠdeĠ": 2974,
      "fÇİĠlÇľĠ": 2975,
      "zÃ²uĠ": 2976,
      "ĠhÃłnĠ": 2977,
      "yÄ«ĠdeĠ": 2978,
      "chuÃ¡nĠtÇĴng": 2979,
      "fÇĴuĠ": 2980,
      "ĠshÃ¬ĠfÇİĠguÃ³Ġ": 2981,
      "ĠtÃ¡iĠwÄģnĠ": 2982,
      "mÇĴuĠ": 2983,
      "18ĠrÃ¬Ġ": 2984,
      "xuÇİnĠjÇĶ": 2985,
      "cÇİoĠ": 2986,
      "ĠwÃ¨iĠyÃºĠgÄģiĠguÃ³Ġ": 2987,
      "ĠlÇĲĠsÄ«Ġ": 2988,
      "60": 2989,
      "zhuÄģnĠyÃ¨Ġ": 2990,
      "ĠsuÃ¬": 2991,
      "ĠyÃ¡ngĠ": 2992,
      "zhÃłnĠdeĠ": 2993,
      "wÃ¹ĠlÇĲĠ": 2994,
      "zhÇĲĠshÃ¬Ġ": 2995,
      "shÃ¹ĠwÃ¨iĠ": 2996,
      "ĠbÃ¹ĠtÃ³ngĠdeĠ": 2997,
      "kuÃŃĠ": 2998,
      "biÇİoĠxiÃłnĠ": 2999,
      "chÃ³u": 3000,
      "ĠyÃ¬ĠbÄģnĠ": 3001,
      "ĠshÃ¬ĠjiÃ¨ĠdÃłĠ": 3002,
      "shÄĽngĠjÃŃĠ": 3003,
      "miÃ¡oĠshÃ¹Ġ": 3004,
      "shÇĲĠdeĠ": 3005,
      "ĠĠĠE": 3006,
      "guÄģnĠyuÃ¡nĠ": 3007,
      "tÄģĠmen": 3008,
      "ĠmÃ¨i": 3009,
      "fÇİĠyuÃłnĠ": 3010,
      "wÃºĠxiÃłnĠ": 3011,
      "ĠyÄ«ngĠguÃ³Ġ": 3012,
      "wÃ¨nĠtÃŃ": 3013,
      "zhÇĲĠhuÄ«Ġ": 3014,
      "ĠguÃ³ĠjiÄģ": 3015,
      "yÄĽĠyÇĴuĠ": 3016,
      "yÃŃngĠdÃ©Ġ": 3017,
      "bÄģoĠhÃ¡nĠ": 3018,
      "bÃ³ĠwÃ¹ĠguÇİnĠ": 3019,
      "jiÄģngĠqÃŃĠ": 3020,
      "tÃ³ngĠniÃ¡nĠ": 3021,
      "ĠgÅįngĠjÄ«Ġ": 3022,
      "zhÃ¨ngĠzÃłiĠ": 3023,
      "cÃ¨ĠshÃ¬Ġ": 3024,
      "ĠgÃ¹Ġ": 3025,
      "chÇİngĠdeĠ": 3026,
      "0ĠniÃ¡nĠdÃłi": 3027,
      "ĠwÃ¨iĠzhÅįngĠ": 3028,
      "bÃ¹ĠhÃ©Ġ": 3029,
      "ĠyÇĲnĠ": 3030,
      "ĠlÃ¬ĠyÃ²ngĠ": 3031,
      "ĠdÃł": 3032,
      "50Ġ": 3033,
      "fÄĵiĠjÄ«Ġ": 3034,
      "ĠzÃ¬ĠjÇĲ": 3035,
      "zhÄĵngĠyÃ¬Ġ": 3036,
      "16ĠrÃ¬Ġ": 3037,
      "27ĠrÃ¬Ġ": 3038,
      "ĠtÇĲĠ": 3039,
      "ĠzuÃ¬ĠhÃ²uĠ": 3040,
      "xÅ«nĠ": 3041,
      "ĠdÃ¬ĠqÅ«": 3042,
      "21ĠrÃ¬Ġ": 3043,
      "ĠsuÃŃĠhÃ²uĠ": 3044,
      "yÃ¬ĠshÃŃĠ": 3045,
      "17ĠrÃ¬Ġ": 3046,
      "zÄģoĠdÃłoĠ": 3047,
      "12ĠrÃ¬Ġ": 3048,
      "dÅįngĠnÃ¡nĠ": 3049,
      "8ĠrÃ¬Ġ": 3050,
      "Ġ4Ġ": 3051,
      "dÃ¬ngĠyÃ¬Ġ": 3052,
      "liÃ¹ĠniÃ¡nĠ": 3053,
      "ĠdÃłĠqÅ«Ġ": 3054,
      "lĠ": 3055,
      "ĠzhÅįngĠxÄ«n": 3056,
      "zÅįngĠhÃ©Ġ": 3057,
      "ĠbÃ¨iĠchÄĵngĠwÃ©iĠ": 3058,
      "ĠrÃº": 3059,
      "ĠwÄĵiĠ": 3060,
      "ĠzhÃłnĠzhÄĵngĠ": 3061,
      "ĠchÃºĠ": 3062,
      "ĠshÃ¬ĠyÃ¬Ġ": 3063,
      "xuÃ©ĠdeĠ": 3064,
      "ĠxiÃłnĠshÃŃĠ": 3065,
      "heĠĠĠ": 3066,
      "jÃŃĠwÃ¨iĠ": 3067,
      "ĠsÄģn": 3068,
      "23ĠrÃ¬Ġ": 3069,
      "huÃ¡ngĠdÃ¬Ġ": 3070,
      "zuÃ¬ĠdÃłĠdeĠ": 3071,
      "20ĠniÃ¡nĠ": 3072,
      "ĠhÃºĠ": 3073,
      "ĠshÃ¬ĠjiÃłn": 3074,
      "it": 3075,
      "ĠfÄĵnĠbÃ¹ĠyÃºĠ": 3076,
      "ĠbÃ¬ngĠbÃ¹Ġ": 3077,
      "quÄģnĠ": 3078,
      "11ĠrÃ¬Ġ": 3079,
      "ÅįuĠzhÅįu": 3080,
      "ĠshÄĵngĠhuÃ³Ġ": 3081,
      "kÃ¹nĠ": 3082,
      "fÄģngĠxiÃłngĠ": 3083,
      "duÅįĠshÃ¹Ġ": 3084,
      "Ã©ĠluÃ³Ġ": 3085,
      "lÃłĠ": 3086,
      "shÄĵngĠyÃ¡Ġ": 3087,
      "liÃ¡nĠmÃ©ng": 3088,
      "ĠsuÄ«ĠrÃ¡n": 3089,
      "ĠĠĠN": 3090,
      "chÅ«ĠxiÃłnĠ": 3091,
      "ĠzhÅįngĠgÃ²ng": 3092,
      "7ĠrÃ¬Ġ": 3093,
      "zhuÃ³Ġ": 3094,
      "fÄĵnĠxÄ«Ġ": 3095,
      "ĠzhÃ¨ĠxiÄĵ": 3096,
      "22ĠrÃ¬Ġ": 3097,
      "tÅįngĠchÃ¡ngĠ": 3098,
      "29ĠrÃ¬Ġ": 3099,
      "xiÃłngĠdeĠ": 3100,
      "ĠĠĠyÃºĠ": 3101,
      "ĠjiÄģĠp": 3102,
      "ĠdeĠzuÃ²Ġ": 3103,
      "hÃ¡iĠshÃ¬Ġ": 3104,
      "ĠĠĠcÇĲĠ": 3105,
      "9ĠrÃ¬Ġ": 3106,
      "nÃłiĠ": 3107,
      "dÅįngĠbÄĽiĠ": 3108,
      "lÃ¬ngĠyÄ«Ġ": 3109,
      "dÃ¬ngĠwÃ¨iĠ": 3110,
      "ĠnÃ¨iĠ": 3111,
      "wÃłnĠrÃ©nĠ": 3112,
      "zÃ¡Ġ": 3113,
      "xÅ«ĠyÃło": 3114,
      "ĠĠĠzhÃ¨ngĠzhÃ¬Ġ": 3115,
      "tÇĴngĠjÃ¬Ġ": 3116,
      "xÃ¬nĠxÄ«Ġ": 3117,
      "yÃłngĠdeĠ": 3118,
      "ĠxiÃłnĠzhÃ¬Ġ": 3119,
      "liÃ¡nĠbÄģngĠ": 3120,
      "19ĠrÃ¬Ġ": 3121,
      "gÅįngĠdeĠ": 3122,
      "ĠcÇİoĠ": 3123,
      "ĠÃłi": 3124,
      "5ĠrÃ¬Ġ": 3125,
      "qiÃºĠduÃ¬Ġ": 3126,
      "chÃ¡ĠdeĠ": 3127,
      "14ĠrÃ¬Ġ": 3128,
      "qiÃ³ng": 3129,
      "guÄ«ĠmÃ³Ġ": 3130,
      "chÃ¡ngĠshÃ¬Ġ": 3131,
      "mÃŃĠ": 3132,
      "ruÇİn": 3133,
      "mÄĽiĠguÃ³ĠrÃ©nĠkÇĴuĠpÇĶĠ": 3134,
      "3ĠrÃ¬Ġ": 3135,
      "100": 3136,
      "zÇĶĠhÃ©Ġ": 3137,
      "ĠyÃºĠ18": 3138,
      "30ĠniÃ¡nĠ": 3139,
      "hÇİiĠbÃ¡": 3140,
      "ĠhuÃ²ĠdÃ©": 3141,
      "ĠcÃ¡ngĠ": 3142,
      "lÃŃnĠshÃŃĠ": 3143,
      "EE": 3144,
      "niÇĶĠyuÄĵ": 3145,
      "wÃ¨iĠshÃ¬Ġ": 3146,
      "yÃ¹ĠdeĠ": 3147,
      "jÄ«ĠdÃ¬Ġ": 3148,
      "yÅįngĠ": 3149,
      "ĠkÄĽ": 3150,
      "bÄģngĠzhÃ¹Ġ": 3151,
      "ĠdeĠshÃ¬ĠzhÃ¨nĠ": 3152,
      "6ĠrÃ¬Ġ": 3153,
      "jÇĶĠbÃłn": 3154,
      "ĠzhÅįngĠbÃ¹Ġ": 3155,
      "2ĠrÃ¬Ġ": 3156,
      "ĠpÃ©iĠ": 3157,
      "ĠĠĠzhÅįngĠ": 3158,
      "ĠyÃºĠ19": 3159,
      "ĠyÃ¬ĠdÃłĠlÃ¬Ġ": 3160,
      "sÃ¬ĠshÃŃĠ": 3161,
      "guÄģnĠfÄģngĠ": 3162,
      "ĠshÃ¨ĠlÃ¬Ġ": 3163,
      "gÃ¨ĠrÃ©nĠ": 3164,
      "4ĠrÃ¬Ġ": 3165,
      "Ġ190": 3166,
      "shÃ¨ĠyÇĴuĠ": 3167,
      "31ĠrÃ¬Ġ": 3168,
      "nÃ©ngĠgÃ²uĠ": 3169,
      "ĠĠĠzhÃ¨Ġ": 3170,
      "ĠdeĠzhÅįngĠ": 3171,
      "shÄĵnĠfÃ¨nĠ": 3172,
      "yuÃ¡nĠhÃ©Ġ": 3173,
      "ĠdÃ¬ĠqÅ«ĠdeĠ": 3174,
      "suÇĴĠshÇĶĠdeĠ": 3175,
      "ĠrÃ©nĠkÇĴu": 3176,
      "ĠyÃ¬ĠbÄģn": 3177,
      "tiÄĽĠlÃ¹": 3178,
      "au": 3179,
      "ĠmÃ©iĠ": 3180,
      "liÃ¨ĠchÄĵ": 3181,
      "oc": 3182,
      "zÇİoĠqÄ«Ġ": 3183,
      "ĠqÃŃĠtÄģ": 3184,
      "nu": 3185,
      "ĠyuÄĵĠ": 3186,
      "ĠĠĠ197": 3187,
      "ĠwÃłiĠ": 3188,
      "gÅįuĠ": 3189,
      "nÃłnĠ": 3190,
      "zÃºĠqiÃº": 3191,
      "Ġ2011ĠniÃ¡nĠ": 3192,
      "13ĠrÃ¬Ġ": 3193,
      "xiÅįngĠdÃ¬Ġ": 3194,
      "jiÃ©ĠshÃ¹": 3195,
      "NS": 3196,
      "ĠshÃ¬ĠchÇİngĠ": 3197,
      "ĠxuÃ©ĠshÄĵngĠ": 3198,
      "mÃ¹ĠdÃ¬Ġ": 3199,
      "liÃ¡nĠsÃłi": 3200,
      "huÄ«ĠfÃ¹Ġ": 3201,
      "yuÃ¡nĠyÃºĠ": 3202,
      "shÃ¨nĠ": 3203,
      "ĠĠĠ195": 3204,
      "qÇĶĠdÃłiĠ": 3205,
      "sÅ«ĠliÃ¡nĠ": 3206,
      "ĠbÃ¡iĠ": 3207,
      "shÄĵngĠzÃłiĠ": 3208,
      "ĠxuÃ©ĠyuÃłnĠ": 3209,
      "ĠĠĠyÃ³uĠyÃºĠ": 3210,
      "jÇĶĠbÃłnĠ": 3211,
      "qÃŃngĠkuÃłngĠxiÃłĠ": 3212,
      "yÃŃĠbÃ¹Ġ": 3213,
      "gÃ©ĠmÃ¬ng": 3214,
      "ĠgÅįngĠchÇĲĠ": 3215,
      "xiÃ©ĠyÃ¬Ġ": 3216,
      "juÃ©ĠsÃłi": 3217,
      "ĠlÃºĠ": 3218,
      "ĠgÄĵĠ": 3219,
      "kÄĵĠjÃ¬Ġ": 3220,
      "huÃ¡ngĠjiÄģĠ": 3221,
      "fÄģĠxiÃłn": 3222,
      "bÃ¬ĠyÃ¨Ġ": 3223,
      "ĠdÇİoĠzhÃ¬Ġ": 3224,
      "ĠshÃ¬ĠzhÇİngĠ": 3225,
      "Ġsh": 3226,
      "zhÄĽngĠgÃ¨Ġ": 3227,
      "rÃ©nĠhÃ©Ġ": 3228,
      "tÃ©ngĠ": 3229,
      "rÃłoĠ": 3230,
      "80": 3231,
      "vi": 3232,
      "ĠtÃ¡ngĠ": 3233,
      "chÄģoĠjÃŃĠ": 3234,
      "mÃłoĠyÃ¬Ġ": 3235,
      "wÃ©nĠwÃ¹ĠbÇİoĠhÃ¹Ġ": 3236,
      "miÃło": 3237,
      "yuÃ¨ĠdeĠ": 3238,
      "zhÇİngĠdeĠ": 3239,
      "juÃ©ĠsÃłiĠ": 3240,
      "ĠzhÃ¨ĠyÄ«Ġ": 3241,
      "ĠbÃ³Ġ": 3242,
      "xÃŃĠjÄ«Ġ": 3243,
      "ĠzhÅ«Ġ": 3244,
      "zhÄģĠ": 3245,
      "ĠdÃ¬ĠlÃ¬Ġ": 3246,
      "lÃ¬ĠhÃ©Ġ": 3247,
      "lÃłiĠ": 3248,
      "xuÃ©ĠyuÃłn": 3249,
      "ĠwÇĴ": 3250,
      "tÃºĠshÅ«Ġ": 3251,
      "qÅ«ĠhuÃłĠ": 3252,
      "xiÄģnĠhÃ²uĠ": 3253,
      "hÃ¡ngĠkÅįng": 3254,
      "op": 3255,
      "tÇĴngĠyÄ«Ġ": 3256,
      "ĠxÄ«ĠnÃ¡nĠ": 3257,
      "yÄģoĠqiÃº": 3258,
      "jiÃ©ĠhÃ©Ġ": 3259,
      "ĠmÃ³uĠ": 3260,
      "jiÄĵĠduÃłnĠ": 3261,
      "ĠnÇļĠ": 3262,
      "ĠyÇĲĠjÄ«ng": 3263,
      "liÃºĠxÃŃngĠ": 3264,
      "ĠgÃ²ngĠ": 3265,
      "ĠshuÄģngĠ": 3266,
      "MĠ": 3267,
      "fÇİnĠyÃ¬ng": 3268,
      "ĠbrĠ": 3269,
      "xiÃ©ĠzhÃ¹Ġ": 3270,
      "cÃ¬ĠshÃ¬ĠjiÃ¨ĠdÃłĠ": 3271,
      "yÃ¡nĠzhÃ²ngĠ": 3272,
      "zhÃłnĠhÃ²uĠ": 3273,
      "ĠrÃºĠguÇĴĠ": 3274,
      "shÃłngĠshÃ¬Ġ": 3275,
      "xÃ¹nĠliÃłnĠ": 3276,
      "ĠhÄĵiĠ": 3277,
      "ĠfÄĵnĠbiÃ©": 3278,
      "ĠhuÃ¡Ġ": 3279,
      "ĠjÇĲngĠ": 3280,
      "ĠmÃ³Ġ": 3281,
      "guÇİngĠbÅįĠ": 3282,
      "ĠhÄģ": 3283,
      "ĠÄĽrĠshÄĽngĠ": 3284,
      "yÇĶĠdeĠ": 3285,
      "rÃ©nĠkÇĴuĠshÃ¹ĠliÃłng": 3286,
      "kÄģiĠfÄģ": 3287,
      "ĠhÃ©ĠyÄ«Ġ": 3288,
      "qiÇİngĠ": 3289,
      "zÃ¬ĠxÃŃngĠ": 3290,
      "ĠjiÃ¹": 3291,
      "ĠbÃ¹ĠnÃ©ngĠ": 3292,
      "fÄģĠbiÇİo": 3293,
      "gÃ²ngĠchÇİnĠdÇİngĠ": 3294,
      "hÃ¹n": 3295,
      "qÄ«ĠniÃ¡nĠ": 3296,
      "ĠdÄģnĠ": 3297,
      "shÃłoĠniÃ¡nĠ": 3298,
      "ĠyÇĲĠlÃ¡iĠ": 3299,
      "ĠxÄ«ĠbÄģnĠ": 3300,
      "zÃ¬ĠrÃ¡nĠ": 3301,
      "huÃłĠxuÃ©Ġ": 3302,
      "ĠÄģ": 3303,
      "ĠzÃłiĠcÃ¬Ġ": 3304,
      "ĠĠĠ196": 3305,
      "ĠtÄģĠcÃ©ng": 3306,
      "ĠU": 3307,
      "ĠwÃº": 3308,
      "hÃłoĠxiÃłnĠ": 3309,
      "zhÃ¹ĠzÃłiĠ": 3310,
      "huÃłĠhÃ©Ġ": 3311,
      "ĠquÃ¡n": 3312,
      "juÃ©ĠdÃ¬ng": 3313,
      "chÃ¡oĠxiÄģnĠ": 3314,
      "ir": 3315,
      "guÃ³ĠhÃ©Ġ": 3316,
      "xÃ¬ĠbÄģoĠ": 3317,
      "dÇİoĠyÇİnĠ": 3318,
      "ĠshuÇĲĠ": 3319,
      "ĠsÅ«nĠ": 3320,
      "shuÄģiĠ": 3321,
      "ĠyÇĲĠxiÃłĠ": 3322,
      "tÃ¨ĠdeĠ": 3323,
      "Ġ2009ĠniÃ¡nĠ": 3324,
      "70": 3325,
      "ĠcuÃ²Ġ": 3326,
      "xiÃłĠxiÃ¡": 3327,
      "chÃŃĠxÃ¹Ġ": 3328,
      "ĠmÇĶĠ": 3329,
      "tiÃ¡oĠjiÃłnĠ": 3330,
      "ĠxiÄģngĠgÇİng": 3331,
      "pÃŃnĠdÃłoĠ": 3332,
      "ĠgÅįngĠzuÃ²": 3333,
      "Ġ2010ĠniÃ¡nĠ": 3334,
      "yÃ¨ĠdeĠ": 3335,
      "jiÄģoĠyÃ¬Ġ": 3336,
      "yÇİnĠchÃłng": 3337,
      "andĠĠĠ": 3338,
      "wĠ": 3339,
      "ĠshÃ¬ĠzhÅįngĠguÃ³Ġ": 3340,
      "zuÃ¬ĠdÃłĠ": 3341,
      "qiÃºĠyuÃ¡nĠ": 3342,
      "bÃłoĠdÃłoĠ": 3343,
      "ĠrÃ©nĠkÇĴuĠmÃ¬ĠdÃ¹ĠwÃ¨iĠ": 3344,
      "ĠshÃ¬ĠlÃ¬Ġ": 3345,
      "ĠmÃ©iĠyÇĴuĠ": 3346,
      "ĠĠĠbÃ¹Ġ": 3347,
      "yÃ³uĠzhÃ¨ngĠ": 3348,
      "jiÃłnĠlÃ¬Ġ": 3349,
      "ĠzuÃ²ĠpÇĲnĠ": 3350,
      "yÃ¬ngĠyÃ²ngĠ": 3351,
      "wÃłiĠdeĠ": 3352,
      "zÄ«ĠyuÃ¡nĠ": 3353,
      "sÄģiĠÄĽrĠ": 3354,
      "zhÄģnĠ": 3355,
      "ĠqÃŃĠhÃ²uĠ": 3356,
      "gÇİiĠgÃ©Ġ": 3357,
      "bÃłng": 3358,
      "ĠwÃ©nĠ": 3359,
      "kÄĽĠdÃ¡Ġ": 3360,
      "ma": 3361,
      "mÃ²ĠxÄ«Ġ": 3362,
      "ĠqiÄĽĠ": 3363,
      "ĠyÄ«ĠyuÃłnĠ": 3364,
      "fÄģĠbiÇİoĠ": 3365,
      "fÄĵngĠgÃ©Ġ": 3366,
      "zhuÃłngĠtÃłiĠ": 3367,
      "ĠbÃ¬ngĠwÃ¨iĠ": 3368,
      "ĠĠĠtheĠĠĠ": 3369,
      "huÃŃĠdÃłoĠ": 3370,
      "sÃ¹ĠdÃ¹Ġ": 3371,
      "35": 3372,
      "lÃ¹ĠjÅ«nĠ": 3373,
      "qÃ¬ĠhÃ²uĠ": 3374,
      "ĠwÃ¨iĠyÃºĠfÇİĠguÃ³Ġ": 3375,
      "mÃ¬ĠshÅ«Ġ": 3376,
      "ĠzhÅįngĠgÃ²ngĠ": 3377,
      "ĠhÄģĠ": 3378,
      "ĠgÅįngĠyÃ¨Ġ": 3379,
      "ĠyÃ²ngĠ": 3380,
      "diÃłnĠshÃ¬ĠjÃ¹Ġ": 3381,
      "ĠĠĠK": 3382,
      "zhÃ¹ĠdeĠ": 3383,
      "fÃ¨nĠwÃ¨iĠ": 3384,
      "jiÄĵĠrÇİng": 3385,
      "wÇİngĠzhÃłnĠ": 3386,
      "kÅ«nĠ": 3387,
      "gÅįngĠsÄ«Ġ": 3388,
      "ĠzÃłiĠzhÃ¨Ġ": 3389,
      "mÃ¹ĠbiÄģoĠ": 3390,
      "ĠdeĠdÃ¬ĠyÄ«Ġ": 3391,
      "tÃ³uĠzÄ«Ġ": 3392,
      "kuÇİn": 3393,
      "ĠjiÇİnĠchÄĵngĠ": 3394,
      "hÃºĠnÃ¡nĠ": 3395,
      "ĠyÄ«ĠsÄ«Ġ": 3396,
      "kuÃłĠ": 3397,
      "zhÃłnĠyÃ¬Ġ": 3398,
      "wÃ©nĠwÃ¹ĠbÇİoĠhÃ¹ĠdÄģnĠwÃ¨iĠ": 3399,
      "yÃłĠlÃ¬Ġ": 3400,
      "ĠwÃ¨iĠyÄ«Ġ": 3401,
      "shÇĴuĠcÃ¬": 3402,
      "tÃºn": 3403,
      "20ĠshÃ¬ĠjÃ¬Ġ": 3404,
      "chÇİnĠpÇĲnĠ": 3405,
      "xiÇİoĠxuÃ©Ġ": 3406,
      "15Ġ": 3407,
      "zuÇĴĠyÃ²uĠ": 3408,
      "zÄģoĠ": 3409,
      "shÃ¨ngĠlÃ¬Ġ": 3410,
      "ĠshÇĶĠ": 3411,
      "ĠcÃłiĠ": 3412,
      "zhÃ¨nĠqÅ«Ġ": 3413,
      "ĠjiÃłnĠshÃ¨Ġ": 3414,
      "wÃ©nĠmÃŃngĠ": 3415,
      "ĠdeĠfÃ¹Ġ": 3416,
      "Ġcu": 3417,
      "shÄĽngĠfÃ¨nĠ": 3418,
      "mÃ¹ĠqiÃ¡nĠ": 3419,
      "rÃ²uĠ": 3420,
      "yÃŃĠzhÃ¬Ġ": 3421,
      "jiÃłoĠhuÃ¬Ġ": 3422,
      "zhÇİnĠkÄģiĠ": 3423,
      "yÃ¬nĠdÃ¹": 3424,
      "shÃŃĠqÄ«Ġ": 3425,
      "yÃ©": 3426,
      "tÃ¨ĠbiÃ©Ġ": 3427,
      "dÅįngĠjÄ«ngĠ": 3428,
      "tÃ¨ĠzhÄĵngĠ": 3429,
      "ĠÃ©rĠshÃ¬Ġ": 3430,
      "bÇĲĠjiÃłoĠ": 3431,
      "gÄģoĠjÃŃĠ": 3432,
      "zhÇĶnĠbÃ¨iĠ": 3433,
      "ĠdÃłiĠbiÇİo": 3434,
      "bÃ¬ĠxÅ«Ġ": 3435,
      "nÇĶ": 3436,
      "kÄĵĠdeĠ": 3437,
      "xuÇİnĠshÇĴuĠ": 3438,
      "ĠrÃ©nĠwÃ¹Ġ": 3439,
      "guÃ²ĠchÃ©ngĠzhÅįngĠ": 3440,
      "ĠbÄĽn": 3441,
      "hÇİoĠdeĠ": 3442,
      "shÃłngĠhÇİi": 3443,
      "ĠyÃłoĠ": 3444,
      "zhÃ²ngĠyÃłoĠdeĠ": 3445,
      "ĠfÇİĠguÃ³Ġ": 3446,
      "diÃłnĠziĠ": 3447,
      "jiÄģoĠtÅįng": 3448,
      "wÇİngĠluÃ²Ġ": 3449,
      "yÃ¨ĠwÃ¹Ġ": 3450,
      "gÃ²ngĠyÇĴuĠrÃ©nĠkÇĴuĠ": 3451,
      "ĠxiÃłnĠdÃłiĠ": 3452,
      "ĠyÄ«ĠmÃŃngĠ": 3453,
      "cÄģnĠsÃłiĠ": 3454,
      "xiÇİoĠxÃŃngĠxÄ«ngĠ": 3455,
      "bÃłngĠ": 3456,
      "ĠchÃ©ngĠjÃ¬Ġ": 3457,
      "ĠxÄ«ĠbÄĽiĠ": 3458,
      "kÄģiĠfÃłngĠ": 3459,
      "ĠhÃ©ĠdÃ¬Ġ": 3460,
      "xÃºĠ": 3461,
      "ĠjÄ«ĠchÇİngĠ": 3462,
      "ziĠdeĠ": 3463,
      "ha": 3464,
      "ĠqÇĲĠ": 3465,
      "nÇİo": 3466,
      "biÃłnĠchÃ©ngĠ": 3467,
      "qiÃ¡oĠzhÃ¬Ġ": 3468,
      "bÃłoĠfÄģĠ": 3469,
      "diÃłnĠshÃ¬ĠtÃ¡iĠ": 3470,
      "Ġhan": 3471,
      "shÄģnĠdÅįngĠ": 3472,
      "jiÄĽĠshÃ¬Ġ": 3473,
      "guÃ³ĠmÃŃnĠ": 3474,
      "ĠyÃ¬ĠqÇĲĠ": 3475,
      "100Ġ": 3476,
      "ĠqiÄĽ": 3477,
      "lÃ¨iĠsÃ¬": 3478,
      "ig": 3479,
      "ĠdÃ¹Ġ": 3480,
      "zhÃ¬ĠzuÃ²Ġ": 3481,
      "kÇİĠÄĽrĠ": 3482,
      "xÃŃngĠshÃ¬Ġ": 3483,
      "dÅįuĠyÇĴuĠ": 3484,
      "shÄĵngĠchÇİnĠ": 3485,
      "zhÄ«ĠhÃ²uĠ": 3486,
      "duÅįĠgÃ¨Ġ": 3487,
      "huÃ¬ĠhÃ©Ġ": 3488,
      "mÄĽiĠpÃŃngĠfÄģngĠgÅįngĠlÇĲĠ": 3489,
      "zhÃłnĠshÃ¬Ġ": 3490,
      "ĠĠĠ2021ĠniÃ¡nĠ": 3491,
      "quÃłnĠ": 3492,
      "rÃ¹ĠleĠ": 3493,
      "ĠxiÃłĠlÃ¬ng": 3494,
      "rÃºĠxiÃłĠ": 3495,
      "ĠgÅįngĠfÄĵnĠ": 3496,
      "ĠshÃ¨ĠzhÃ¬Ġ": 3497,
      "ĠyÄ«ĠyÃłngĠ": 3498,
      "ĠsÄ«ĠjÄ«Ġ": 3499,
      "lÃ¡iĠzÃ¬": 3500,
      "OĠ": 3501,
      "zhÄĵnĠduÃ¬Ġ": 3502,
      "lÇĲngĠdÇİo": 3503,
      "jiÃ¹ĠshÃ¬ĠzhÃ¨nĠ": 3504,
      "48": 3505,
      "fÄĽi": 3506,
      "ĠmÃ²Ġ": 3507,
      "ĠshÃŃĠjiÄģn": 3508,
      "ĠV": 3509,
      "gÄģoĠzhÅįngĠ": 3510,
      "ĠcÇĲĠhÃ²uĠ": 3511,
      "ĠzÃłiĠzhÅįngĠ": 3512,
      "ĠmÃŃng": 3513,
      "wÃ¡ngĠguÃ³Ġ": 3514,
      "zÇİoĠniÃ¡nĠ": 3515,
      "wÃłiĠjiÄģo": 3516,
      "ĠĠĠ2019ĠniÃ¡nĠ": 3517,
      "Ã¨rĠshÃ¬Ġ": 3518,
      "XĠ": 3519,
      "ĠshÃ¨nĠzhÃ¬Ġ": 3520,
      "guÄ«ĠhuÃłĠ": 3521,
      "sÄģngĠ": 3522,
      "ĠmÃŃnĠ": 3523,
      "36": 3524,
      "ĠrÃ¡nĠhÃ²uĠ": 3525,
      "NĠ": 3526,
      "chÄģ": 3527,
      "lÃ¨iĠsÃ¬Ġ": 3528,
      "ÇĴĠ": 3529,
      "ĠmÃŃĠ": 3530,
      "yuÃ¡nĠshÃ¬Ġ": 3531,
      "ĠlÃ¬ĠshÇĶĠyÃºĠ": 3532,
      "ĠyÃ¬ĠzhÃŃ": 3533,
      "zhÃ¹ĠmÃŃngĠ": 3534,
      "yÃºnĠnÃ¡nĠ": 3535,
      "zhÃ¡iĠ": 3536,
      "huÃ²ĠdÃ©": 3537,
      "hÄĽnĠduÅįĠ": 3538,
      "ĠÄĽrĠdeĠ": 3539,
      "liÃ¡nĠjiÄĵĠ": 3540,
      "jiÄĽĠjuÃ©Ġ": 3541,
      "ĠzhÃ¬ĠzÃłoĠ": 3542,
      "mÇİĠlÃ¡i": 3543,
      "ĠĠĠ2020ĠniÃ¡nĠ": 3544,
      "jÇĲnĠbiÄģoĠsÃłiĠ": 3545,
      "ov": 3546,
      "ĠĠĠgÅįngĠ": 3547,
      "ĠdeĠmÃŃngĠ": 3548,
      "zhÃ²ngĠdeĠ": 3549,
      "ĠwÇĶ": 3550,
      "ĠsuÄ«ĠrÃ¡nĠ": 3551,
      "ĠyÃ¬ĠzhÃ¬Ġ": 3552,
      "juÄģnĠ": 3553,
      "zÇĴngĠlÇĲĠ": 3554,
      "ĠdeĠyÄ«ĠzhÇĴngĠ": 3555,
      "FĠ": 3556,
      "ĠĠĠdÃłĠ": 3557,
      "nÃ¨Ġ": 3558,
      "zhÇĶĠtÃŃĠ": 3559,
      "ĠpÃºĠ": 3560,
      "xĠ": 3561,
      "shÄģnĠxÄ«Ġ": 3562,
      "rÃ©nĠkÇĴuĠshÃ¹ĠliÃłngĠwÃ¨iĠrÃ©nĠ": 3563,
      "Ġw": 3564,
      "jÃ¹ĠjÃŃĠ": 3565,
      "un": 3566,
      "jÃŃĠhÃ©Ġ": 3567,
      "jiÄĵĠrÇİngĠdeĠshÃ¬ĠzhÃ¨nĠ": 3568,
      "ĠINS": 3569,
      "os": 3570,
      "ĠjiÃłnĠzhÃ¬Ġ": 3571,
      "ĠyÃ¨Ġ": 3572,
      "lÇļĠyÃ³uĠ": 3573,
      "ĠshÃłngĠhÇİiĠ": 3574,
      "zhÃłiĠ": 3575,
      "liÃ¡nĠbÄģng": 3576,
      "fÄģngĠÃłnĠ": 3577,
      "fÄģĠdÃ²ngĠ": 3578,
      "ĠchÃºĠleĠ": 3579,
      "nÇļĠÃ©rĠ": 3580,
      "tiÃłoĠ": 3581,
      "tÄģnĠ": 3582,
      "ĠsÃłnĠ": 3583,
      "ĠgÃ¹": 3584,
      "lÃ¹ĠyÃ¬Ġ": 3585,
      "fÄģĠshÃ¨Ġ": 3586,
      "zÇĴngĠtÇĴng": 3587,
      "ĠyÃŃĠgÃ¨Ġ": 3588,
      "jÃŃĠshÃ¬Ġ": 3589,
      "ĠcÃ¬": 3590,
      "ĠxÃŃngĠwÃ©iĠ": 3591,
      "sÄ«ĠhÃ©Ġ": 3592,
      "ĠmÃłi": 3593,
      "40Ġ": 3594,
      "ruÃ¬ĠshÃ¬Ġ": 3595,
      "nÃ³ngĠyÃ¨Ġ": 3596,
      "ĠsÃ¬": 3597,
      "ĠbÃłoĠ": 3598,
      "ĠxÄ«ĠyÃł": 3599,
      "ĠĠĠ2018ĠniÃ¡nĠ": 3600,
      "25Ġ": 3601,
      "juÃ©ĠdeĠ": 3602,
      "gÃ©ĠdeĠ": 3603,
      "ĠcÃ¡iĠ": 3604,
      "ĠdÃłĠliÃłngĠ": 3605,
      "Ġz": 3606,
      "wÃ¹ĠzhÃ¬Ġ": 3607,
      "ĠshÃ©nĠ": 3608,
      "Ġ2008ĠniÃ¡nĠ": 3609,
      "ĠjÃ¬nĠshÃ¬Ġ": 3610,
      "bÄģoĠhÃ¡n": 3611,
      "ĠdeĠshÃŃĠhÃ²uĠ": 3612,
      "ĠtÃ¡iĠ": 3613,
      "is": 3614,
      "shÇĲĠyÃ²ngĠdeĠ": 3615,
      "ÃłoĠlÃŃnĠpÇĲĠkÃ¨ĠyÃ¹nĠdÃ²ngĠhuÃ¬Ġ": 3616,
      "luÃ³ĠmÇİ": 3617,
      "duÃ¬ĠzÃłiĠ": 3618,
      "gÇİnĠrÇİnĠ": 3619,
      "ĠfÃ¹": 3620,
      "ĠzhÃ¬ĠjÄ«nĠ": 3621,
      "sÄ«ĠrÃ©nĠ": 3622,
      "chÄģng": 3623,
      "24Ġ": 3624,
      "ĠjiÇİĠ": 3625,
      "jÃ¬nĠdeĠ": 3626,
      "chuÃŃĠ": 3627,
      "fÄĵiĠxÃŃngĠ": 3628,
      "Ġ2013ĠniÃ¡nĠ": 3629,
      "chuÄģngĠ": 3630,
      "ĠzhÄ«ĠwÃłiĠ": 3631,
      "kÃło": 3632,
      "kÄĽĠnÃ©ngĠshÃ¬Ġ": 3633,
      "biÇİoĠyÇİnĠ": 3634,
      "tÃłoĠ": 3635,
      "chÃ¹ĠdeĠ": 3636,
      "xuÇİnĠwÃ¨iĠ": 3637,
      "tÅįngĠchÃ¡ng": 3638,
      "shÇİngĠ": 3639,
      "ĠĠĠJ": 3640,
      "yÃŃĠshÃ¬Ġ": 3641,
      "tÇĶĠÄĽr": 3642,
      "ĠlÃ¬ĠsÄ«Ġ": 3643,
      "jiÃłĠzhÃŃĠ": 3644,
      "ĠshÃ¨ĠshÄ«Ġ": 3645,
      "bÃ³ĠtÃ¨Ġ": 3646,
      "ĠzhÃ¬Ġ202": 3647,
      "qÃ¬ĠdeĠ": 3648,
      "chuÃłngĠlÃ¬Ġ": 3649,
      "ĠzÃłiĠcÇĲĠ": 3650,
      "ĠdÄģnĠrÃ¨nĠ": 3651,
      "ĠgÅįngĠnÃ©ngĠ": 3652,
      "lÃłngĠ": 3653,
      "ĠzÇĴngĠmiÃłnĠjÄ«Ġ": 3654,
      "ĠyÃłĠ": 3655,
      "ĠĠĠO": 3656,
      "ĠdÃ©ĠlÇĲĠ": 3657,
      "pÃ¡ngĠ": 3658,
      "ĠduÃ¬ĠyÃºĠ": 3659,
      "fÄĵnĠlÃ¨iĠ": 3660,
      "guÇİngĠchÇİngĠ": 3661,
      "jiÇĶĠniÃ¡nĠ": 3662,
      "liÃ¡nĠhÃ©ĠguÃ³Ġ": 3663,
      "jÃŃĠshÃŃĠ": 3664,
      "rÃ©ngĠrÃ¡nĠ": 3665,
      "ĠyÇĴuĠrÃ©nĠ": 3666,
      "gÄĵngĠmÃŃngĠwÃ¨iĠ": 3667,
      "ĠÃ©rĠqiÄĽĠ": 3668,
      "zhÃ¬ĠshÃ¬Ġ": 3669,
      "ĠzÃ©": 3670,
      "xiÃłoĠlÃ¬Ġ": 3671,
      "ĠINSEE": 3672,
      "ĠdeĠlÃ¬Ġ": 3673,
      "ĠgÄģiĠshÄĽngĠ": 3674,
      "ĠdeĠyÄ«ĠbÃ¹ĠfÃ¨nĠ": 3675,
      "ation": 3676,
      "bÄģĠniÃ¡nĠ": 3677,
      "ĠrÃ©nĠkÇĴuĠmÃ¬ĠdÃ¹ĠmÄĽiĠpÃŃngĠfÄģngĠgÅįngĠlÇĲĠ": 3678,
      "ĠrÃ©nĠkÇĴuĠmÃ¬ĠdÃ¹ĠwÃ¨iĠmÄĽi": 3679,
      "ĠxiÃłĠlÃ¬ngĠshÃŃĠ": 3680,
      "yÃ³uĠzhÃ¨ngĠbiÄģnĠmÇİĠwÃ¨iĠ": 3681,
      "ÇİnĠxÄ«Ġ": 3682,
      "zÇĶĠfÃ¹Ġ": 3683,
      "chÃ¡ĠdeĠshÃ¹ĠjÃ¹Ġ": 3684,
      "ĠbiÃłnĠ": 3685,
      "shÃŃĠshÃ¬Ġ": 3686,
      "cÃ³ngĠshÃ¬Ġ": 3687,
      "ĠshÃ¬ĠzhÃ¨nĠbiÄģnĠmÇİĠwÃ¨iĠ": 3688,
      "ĠINSEEĠshÃ¬ĠzhÃ¨nĠbiÄģnĠmÇİĠwÃ¨iĠ": 3689,
      "2ĠrÃ©nĠ": 3690,
      "ĠshÃ¹Ġ": 3691,
      "mÃ²ĠsÄ«Ġ": 3692,
      "tiÄģnĠwÃ©nĠ": 3693,
      "ãĢİ": 3694,
      "ĠzhÃ¨Ġge": 3695,
      "ĠguÃ³ĠwÃ¡ngĠ": 3696,
      "Ġ2016ĠniÃ¡nĠ": 3697,
      "xuÇİnĠqÅ«ĠwÃ¨iĠ": 3698,
      "ĠĠĠbÃ¨iĠ": 3699,
      "ãĢı": 3700,
      "pÃ¡iĠmÃŃngĠ": 3701,
      "kÄĵngĠ": 3702,
      "dÃłĠbÃ¹ĠfÃ¨n": 3703,
      "dÃ²ngĠlÃ¬Ġ": 3704,
      "yÄ«ĠzhÇĴngĠ": 3705,
      "ĠshÃ¨ĠdeĠ": 3706,
      "shÃŃĠdeĠrÃ©nĠkÇĴuĠshÃ¹ĠliÃłngĠwÃ¨iĠrÃ©nĠ": 3707,
      "gÃłiĠniÃłnĠ": 3708,
      "yÄ«ngĠchÇĲĠ": 3709,
      "ÄģnĠdeĠ": 3710,
      "yÃ¹nĠyÃŃngĠ": 3711,
      "mÄĽiĠguÃ³ĠrÃ©nĠkÇĴuĠpÇĶĠchÃ¡ĠdeĠshÃ¹ĠjÃ¹Ġ": 3712,
      "ĠĠĠ193": 3713,
      "Ġ2018ĠniÃ¡nĠ": 3714,
      "jiÄģĠlÃ¬Ġ": 3715,
      "ĠÃ©rĠrÃ©nĠkÇĴuĠmÃ¬ĠdÃ¹ĠwÃ¨iĠmÄĽi": 3716,
      "chÄĵĠliÃłngĠ": 3717,
      "ĠĠĠ2017ĠniÃ¡nĠ": 3718,
      "ĠdÄģngĠdÃ¬ĠgÃ²ngĠyÇĴuĠrÃ©nĠkÇĴuĠ": 3719,
      "ĠzÃłiĠ199": 3720,
      "ĠbÃ¹ĠguÃ²": 3721,
      "16Ġ": 3722,
      "zÃºĠdeĠ": 3723,
      "ĠjÇĲnĠguÇİnĠ": 3724,
      "Ġ2019ĠniÃ¡nĠ": 3725,
      "hÃ©ĠshÃ¬Ġ": 3726,
      "gÃ©ĠlÃ¡n": 3727,
      "lÇĲngĠyÃ¹Ġ": 3728,
      "ĠhuÃ²ĠjiÃ¹ĠshÃ¬ĠzhÃ¨nĠ": 3729,
      "fÃºĠjiÃłnĠ": 3730,
      "shÄĽngĠjÃŃĠxuÇİnĠqÅ«ĠwÃ¨iĠ": 3731,
      "suÇĴĠshÇĶĠdeĠshÄĽngĠjÃŃĠxuÇİnĠqÅ«ĠwÃ¨iĠ": 3732,
      "dÄģĠ": 3733,
      "ĠĠĠlÃ¬Ġ": 3734,
      "jÄ«ĠjÃŃĠ": 3735,
      "xÄ«ĠdeĠ": 3736,
      "ĠchÅ«ĠbÇİnĠ": 3737,
      "ĠtÃ¨ĠbiÃ©": 3738,
      "Ã©rĠziĠ": 3739,
      "xÄ«ngĠdeĠ": 3740,
      "jÇĲngĠchÃ¡Ġ": 3741,
      "mÃłnĠhuÃłĠ": 3742,
      "qÇĲĠlÃ¡iĠ": 3743,
      "tiÃ¡oĠyuÄĵĠ": 3744,
      "bÇİng": 3745,
      "xuÇİnĠrÃ©nĠ": 3746,
      "ĠÄĽrĠdÃ©Ġ": 3747,
      "ĠjÅ«nĠzÃłiĠ": 3748,
      "biÄģoĠzhÇĶn": 3749,
      "tÃ¬": 3750,
      "shÄĽngĠhÃ©Ġ": 3751,
      "xuÄĵĠ": 3752,
      "ĠchÅ«ĠbÇİn": 3753,
      "fÃ¨nĠwÃ¨iĠfÇİĠguÃ³Ġ": 3754,
      "ĠgÄģiĠshÄĽngĠfÃ¨nĠwÃ¨iĠfÇİĠguÃ³Ġ": 3755,
      "ÃłoĠdÃłĠlÃ¬Ġ": 3756,
      "ĠyÃºĠ198": 3757,
      "mÇĲĠÄĽrĠ": 3758,
      "ĠbÃ¹ĠjiÇĶĠ": 3759,
      "ĠzhÄ«ĠxiÃłnĠ": 3760,
      "ĠquÃ¨Ġ": 3761,
      "tiÄĽĠdÃłoĠ": 3762,
      "zuÃ¬ĠhÃ²uĠyÄ«Ġ": 3763,
      "ĠniÃ¡nĠjiÄģnĠ": 3764,
      "ÃłiĠÄĽrĠ": 3765,
      "guÇİngĠzhÅįuĠ": 3766,
      "ĠjÅ«nĠduÃ¬Ġ": 3767,
      "zhÄĽnĠ": 3768,
      "ĠwÃ¨iĠshÃŃĠ": 3769,
      "38": 3770,
      "ĠduÅį": 3771,
      "qÃºnĠdÇİoĠ": 3772,
      "Ġ2014ĠniÃ¡nĠ": 3773,
      "ĠgÃ¨ngĠ": 3774,
      "pÃ¡iĠmÃŃng": 3775,
      "bÄĽnĠdeĠ": 3776,
      "dÅįngĠxÄ«Ġ": 3777,
      "37": 3778,
      "ĠdÃ¬ĠsÃ¬Ġ": 3779,
      "lÃ¡iĠyuÃ¡nĠ": 3780,
      "90": 3781,
      "ĠtÄģĠbÃ¨iĠ": 3782,
      "shuÃ²": 3783,
      "shÃ¨ĠlÃ¬Ġ": 3784,
      "xÄ«ngĠjiÃłnĠ": 3785,
      "ĠdÃ¬ĠsÄģn": 3786,
      "jiÄĵĠshÃ²u": 3787,
      "tÃ²uĠguÃ²Ġ": 3788,
      "ap": 3789,
      "ĠrÃ¬ĠdeĠ": 3790,
      "ĠĠĠ2016ĠniÃ¡nĠ": 3791,
      "dÃ¬ĠyÄ«Ġ": 3792,
      "pÄģiĠshÃ¨Ġ": 3793,
      "ĠchÄĵngĠ": 3794,
      "mÄĽiĠzhÅįuĠ": 3795,
      "ĠchÅ«ĠshÄĵngĠyÃºĠ": 3796,
      "wÄĽiĠhuÃ¬Ġ": 3797,
      "ÃłoĠsÄ«Ġ": 3798,
      "xÄ«nĠjiÄģĠp": 3799,
      "rÃ©ngĠrÃ¡n": 3800,
      "ĠĠĠ2022ĠniÃ¡nĠ": 3801,
      "ĠbiÄģnĠ": 3802,
      "wÃºĠrÃ©nĠ": 3803,
      "hÅįngĠ": 3804,
      "Ġ11": 3805,
      "zhÃłnĠzhÄĵng": 3806,
      "Ġ2015ĠniÃ¡nĠ": 3807,
      "Ġ2012ĠniÃ¡nĠ": 3808,
      "zhÇĶĠjuÃ©Ġ": 3809,
      "ĠyÃ³uĠxÃ¬": 3810,
      "ĠhÃ©ĠbÃ¬ng": 3811,
      "ĠzhÃ¬ĠyÃºĠ": 3812,
      "ĠtÃ²uĠ": 3813,
      "mÇĶĠsÄ«Ġ": 3814,
      "ĠrÃ©nĠgÅįngĠ": 3815,
      "ĠjiÇĶĠ": 3816,
      "yÃ¹nĠxÃŃngĠ": 3817,
      "ĠshÃ¬ĠbÃ¹Ġ": 3818,
      "nÃ¡nĠjÃŃĠ": 3819,
      "cÇİiĠyÃ²ng": 3820,
      "pÃ¡nĠ": 3821,
      "gÃ²uĠm": 3822,
      "ĠmÃŃngĠchÃ¡oĠ": 3823,
      "ĠbÃ¹ĠmÃŃngĠ": 3824,
      "jiÄģĠrÃ¹Ġ": 3825,
      "yÃ¡nĠjiÅ«ĠsuÇĴĠ": 3826,
      "liÇİoĠ": 3827,
      "mÃ©ngĠgÇĶĠ": 3828,
      "zuÃ²ĠpÇĲn": 3829,
      "ĠxiÃłnĠlÃ¹Ġ": 3830,
      "yÇĲĠjÃŃĠ": 3831,
      "ĠhÃ©ĠpÃŃngĠ": 3832,
      "LĠ": 3833,
      "chÃ¡nĠ": 3834,
      "pÃ²ĠhuÃłiĠ": 3835,
      "ĠzÃ¬ĠjÇĲĠ": 3836,
      "huÃłĠshÃŃĠ": 3837,
      "tÃ¨ĠbiÃ©": 3838,
      "ĠjÃ¬nĠdeĠ": 3839,
      "shuÅįĠfÇİĠ": 3840,
      "xuÃ©ĠxiÃło": 3841,
      "zÄģi": 3842,
      "1ĠrÃ©nĠ": 3843,
      "wÇĶĠshÃŃĠ": 3844,
      "yÄģngĠ": 3845,
      "ĠjÄ«ĠbÄĽnĠ": 3846,
      "ĠchÃ³ngĠ": 3847,
      "miÇİoĠ": 3848,
      "ĠrÃ¨nĠwÃ©i": 3849,
      "guÇİngĠfÃłnĠ": 3850,
      "fÇĴu": 3851,
      "hÇĶĠ": 3852,
      "ĠzhÃłoĠ": 3853,
      "tÃ³uĠpiÃłoĠ": 3854,
      "mÃ³ĠxÃŃngĠ": 3855,
      "huÇİnĠ": 3856,
      "ĠbÃ¹ĠmÃ©nĠ": 3857,
      "ne": 3858,
      "ĠkÃ¨ĠdeĠ": 3859,
      "mÃ¨ngĠ": 3860,
      "ĠlÃ¡oĠ": 3861,
      "ĠdeĠdÃ¬ĠfÄģngĠ": 3862,
      "xÄ«ĠzÃłiĠ": 3863,
      "jÃ¬ĠshÃ¹Ġ": 3864,
      "ĠjiÃłnĠyÃ¬Ġ": 3865,
      "ĠtÄģĠyÇĶĠ": 3866,
      "yÃ¹nĠshÅ«Ġ": 3867,
      "ĠzÃłiĠyÃ¬Ġ": 3868,
      "mÄĽiĠniÃ¡nĠ": 3869,
      "ĠzÃłiĠzhÅįngĠguÃ³Ġ": 3870,
      "ĠyÃ¬ĠwÃ¨iĠ": 3871,
      "xuÃ©ĠshÃ¬Ġ": 3872,
      "ĠjÃ¹ĠlÃ¨ĠbÃ¹Ġ": 3873,
      "rÃ¨nĠwÃ©iĠshÃ¬Ġ": 3874,
      "xuÄģnĠchuÃ¡nĠ": 3875,
      "ĠgÃ¨ĠdÃ¬Ġ": 3876,
      "liÃ¨ĠwÃ¨iĠ": 3877,
      "bÃłnĠgÅįngĠshÃ¬Ġ": 3878,
      "tÃ³ngĠyÄ«Ġ": 3879,
      "kÇİi": 3880,
      "ĠĠĠp": 3881,
      "wÃłiĠguÃ³Ġ": 3882,
      "chÃłĠ": 3883,
      "Ġ10ĠyuÃ¨Ġ": 3884,
      "shÃłngĠyÇĴuĠ": 3885,
      "ĠzÇĴngĠrÃ©nĠkÇĴuĠ": 3886,
      "yuÃ¡nĠwÃ¨iĠ": 3887,
      "xuÃ©ĠxÃŃĠ": 3888,
      "45": 3889,
      "Ġ2007ĠniÃ¡nĠ": 3890,
      "3ĠrÃ©nĠ": 3891,
      "ĠzhÃ¨ngĠshÃ¬Ġ": 3892,
      "ĠdeĠxÄ«nĠ": 3893,
      "tÃ³uĠrÃ¹Ġ": 3894,
      "gÅįngĠzuÃ²Ġ": 3895,
      "tÃłiĠyÃ¡ngĠ": 3896,
      "mÇİĠlÃ¬Ġ": 3897,
      "nÃŃĠsÄ«Ġ": 3898,
      "13Ġ": 3899,
      "jiÃ©ĠgÃ²u": 3900,
      "yÇİngĠhuÃłĠ": 3901,
      "ĠyÄ«ĠxiÄĵ": 3902,
      "4ĠrÃ©nĠ": 3903,
      "lÃºnĠdÅ«n": 3904,
      "chÄĵngĠwÃ¨iĠ": 3905,
      "xiÄģoĠxÄ«Ġ": 3906,
      "ĠxiÃłnĠrÃ©nĠ": 3907,
      "hÇİiĠjÅ«n": 3908,
      "shÄ«ĠdeĠ": 3909,
      "biÄģoĠzhÃ¬Ġ": 3910,
      "ĠqÄ«ng": 3911,
      "Ã©nĠ": 3912,
      "zhÃ¬ĠwÃ¨iĠ": 3913,
      "zhÃŃĠdeĠ": 3914,
      "lÃł": 3915,
      "dÇİngĠdeĠ": 3916,
      "ÇİĠ": 3917,
      "xuÄĽ": 3918,
      "tÄģĠmenĠ": 3919,
      "fÄģngĠmiÃłn": 3920,
      "ĠzhÄĵnĠ": 3921,
      "yÃ³uĠxÃ¬": 3922,
      "fÃ¹ĠzÃ©ĠguÇİnĠxiÃ¡Ġ": 3923,
      "zhÃ¨ngĠdeĠ": 3924,
      "fÄĵnĠzhÄ«Ġ": 3925,
      "ub": 3926,
      "jiÃ¨ĠquÃ¡nĠguÃ³Ġ": 3927,
      "ĠjÃ¹ĠlÃŃĠ": 3928,
      "tiÄĵĠ": 3929,
      "nÃ¡nĠxÃ¬ngĠ": 3930,
      "ĠchÃ©n": 3931,
      "fÄĽnĠ": 3932,
      "Ġ2005ĠniÃ¡nĠ": 3933,
      "ĠjiÇİngĠ": 3934,
      "zhÃ©ĠxuÃ©Ġ": 3935,
      "cÃ¹": 3936,
      "ĠwÃ©iĠzhÇĶĠ": 3937,
      "cÃ¡ngĠ": 3938,
      "sÃ¬ĠchuÄģnĠ": 3939,
      "ĠzhÃ²ngĠ": 3940,
      "ĠbiÇİoĠshÃ¬Ġ": 3941,
      "ĠhÃ¡nĠ": 3942,
      "ĠjÃ¬ĠhuÃł": 3943,
      "ĠjÃ¬ĠniÃłnĠ": 3944,
      "ĠlÃ³ngĠ": 3945,
      "Ġ2017ĠniÃ¡nĠ": 3946,
      "ĠyÇĴngĠ": 3947,
      "ĠdÃłoĠlÃ¹Ġ": 3948,
      "ĠĠĠ2014ĠniÃ¡nĠ": 3949,
      "huÃ¡nĠjÃ¬ng": 3950,
      "mÃ¨i": 3951,
      "bÇĲĠdÃ©Ġ": 3952,
      "ĠcÃ¡ng": 3953,
      "fÄĵnĠbiÃ©Ġ": 3954,
      "ĠĠĠ2015ĠniÃ¡nĠ": 3955,
      "shÄĵngĠwÃ¹Ġ": 3956,
      "ĠÎ": 3957,
      "chÃŃĠxÃ¹": 3958,
      "Ġ2021ĠniÃ¡nĠ": 3959,
      "zÃłiĠshÃ¬Ġ": 3960,
      "shÃ¹ĠliÃłngĠ": 3961,
      "gÃ²uĠchÃ©ngĠ": 3962,
      "ĠshÅ«Ġ": 3963,
      "hi": 3964,
      "ÃłoĠyÃ¹nĠ": 3965,
      "chÃ¡oĠxiÄģn": 3966,
      "bÃ¹ĠwÃ¨iĠ": 3967,
      "ĠshÃ¬ĠmÄĽiĠguÃ³Ġ": 3968,
      "huÇĲ": 3969,
      "nÄ«Ġ": 3970,
      "ĠzÃłiĠ19": 3971,
      "pÃ©ngĠyÇĴuĠ": 3972,
      "qiÃłnĠ": 3973,
      "ĠzhÄ«ĠchÃŃ": 3974,
      "ĠĠĠyÇĲĠ": 3975,
      "liÃ¨ĠdeĠ": 3976,
      "ĠjÃŃĠqÃŃĠ": 3977,
      "ĠbÃ¨iĠÄĽrĠ": 3978,
      "kÃłngĠyÃ¬Ġ": 3979,
      "ĠsÃ²ngĠ": 3980,
      "iÃ¡nĠ": 3981,
      "yuÄĵĠwÃ¨iĠ": 3982,
      "ĠgÅįngĠgÃ²ngĠ": 3983,
      "xuÇİnĠzÃ©": 3984,
      "tÃłiĠguÃ³Ġ": 3985,
      "ÇİoĠzhÃłnĠ": 3986,
      "ĠzÃłiĠbÃ¹Ġ": 3987,
      "wÅįĠ": 3988,
      "ĠĠĠyÇĴuĠ": 3989,
      "qÄ«ĠjiÄģn": 3990,
      "jiÄĵĠwÃ¨iĠ": 3991,
      "xuÇİnĠqÅ«Ġ": 3992,
      "huÃ¬ĠyÇĴuĠ": 3993,
      "shÅįuĠrÃ¹Ġ": 3994,
      "nÃ¬Ġ": 3995,
      "yÇİnĠdeĠ": 3996,
      "xiÃłoĠzhÇİngĠ": 3997,
      "yÃ¬ĠhÃ©Ġ": 3998,
      "wÃ©nĠjiÃłnĠ": 3999,
      "ĠĠĠ2013ĠniÃ¡nĠ": 4000,
      "kÇİnĠ": 4001,
      "ĠwÃłnĠ": 4002,
      "xiÄģngĠduÃ¬Ġ": 4003,
      "UĠ": 4004,
      "ÄģoĠzuÃ²Ġ": 4005,
      "cÃłiĠ": 4006,
      "ur": 4007,
      "ĠqÃ¬Ġ": 4008,
      "ĠxiÄģnĠ": 4009,
      "rÃ³ngĠyÃ¬Ġ": 4010,
      "guÄģĠ": 4011,
      "diÃ©": 4012,
      "biÄģoĠwÃ¨iĠ": 4013,
      "cÄģnĠyÃ¹": 4014,
      "zhÃ¨ngĠcÃ¨Ġ": 4015,
      "ĠĠĠof": 4016,
      "ĠzÃłiĠmÄĽiĠguÃ³Ġ": 4017,
      "yÇĶĠyÃ¡nĠ": 4018,
      "lÃ¡iĠshuÅįĠ": 4019,
      "ĠjÃ¬ngĠ": 4020,
      "ĠĠĠchÄĵĠzhÃłnĠ": 4021,
      "jiÃłoĠtÃ¡ngĠ": 4022,
      "jiÄĵĠrÇİngĠ": 4023,
      "biÄģnĠjÃŃĠ": 4024,
      "tuÃ³Ġ": 4025,
      "jiÃ©ĠmÃ¹": 4026,
      "yÃŃnĠhÃ¡ng": 4027,
      "ĠĠĠshÃŃĠ": 4028,
      "ĠgÃ¨ng": 4029,
      "sÄ«ĠdÃ¬Ġ": 4030,
      "gÇİiĠbiÃłnĠ": 4031,
      "ĠxiÄģoĠ": 4032,
      "jÅ«nĠduÃ¬Ġ": 4033,
      "kuÃł": 4034,
      "wÇĶĠqÃ¬Ġ": 4035,
      "jiÄĽĠfÃłngĠjÅ«nĠ": 4036,
      "ad": 4037,
      "ĠĠĠb": 4038,
      "tiÇİoĠzhÃłnĠ": 4039,
      "tÇĲng": 4040,
      "ĠzhÃ¬ĠdÃ¹Ġ": 4041,
      "ĠyuÃ¡nĠzhÃ¹Ġ": 4042,
      "ĠchÅ«ĠleĠ": 4043,
      "ĠhuÃ²ĠshÃ¬Ġ": 4044,
      "tÃ³ngĠdeĠ": 4045,
      "quÃ¡nĠdeĠ": 4046,
      "gÄĵĠqÇĶ": 4047,
      "ĠyÄ«ĠzhÇĴngĠ": 4048,
      "shÃ²uĠyÇĶĠ": 4049,
      "ĠzhÅįngĠyÇĴuĠ": 4050,
      "ag": 4051,
      "ĠkÄģiĠshÇĲĠ": 4052,
      "ĠdÇİĠ": 4053,
      "ĠwÅ«Ġ": 4054,
      "ĠĠĠV": 4055,
      "gÇİnĠdÃłoĠ": 4056,
      "ĠyÇĲĠshÃłngĠ": 4057,
      "ĠzhÄģng": 4058,
      "Ġ2020ĠniÃ¡nĠ": 4059,
      "ÃłoĠyÃ¹n": 4060,
      "ĠyÃ²uĠchÄĵngĠ": 4061,
      "ĠzhÃłnĠzhÄĵng": 4062,
      "tiÄģnĠzhÇĶĠjiÃłoĠ": 4063,
      "ĠlÄĽi": 4064,
      "chÄ«Ġ": 4065,
      "ĠdÃ¬ĠxiÃłĠ": 4066,
      "ÃłnĠjiÃłnĠ": 4067,
      "ĠshÃ¬ĠyÃŃĠgÃ¨": 4068,
      "ĠshÄĵngĠwÃ¹Ġ": 4069,
      "xÄ«ĠbÄģnĠyÃ¡Ġ": 4070,
      "ĠrÃłng": 4071,
      "pÃ¨iĠhÃ©Ġ": 4072,
      "wÄĽnĠdÃ¬ngĠ": 4073,
      "ĠĠĠtÄģ": 4074,
      "fÃ¡n": 4075,
      "ĠĠĠhÃ©Ġ": 4076,
      "ĠrÃ¨n": 4077,
      "jiÄģĠrÃ©nĠ": 4078,
      "ĠyÇĶ": 4079,
      "lÄĽngĠ": 4080,
      "hÃłoĠwÃ¨iĠ": 4081,
      "gÄģoĠyÃºĠ": 4082,
      "zhÃ¨ĠzhÇĴngĠ": 4083,
      "jÃ¬ĠzhÅįngĠ": 4084,
      "tÃŃĠmÃŃngĠ": 4085,
      "dÃ¡ĠchÃ©ngĠ": 4086,
      "xiÇİoĠdeĠ": 4087,
      "cÃ¨ĠdeĠ": 4088,
      "jiÇİnĠjiÃ¨Ġ": 4089,
      "cÄģoĠ": 4090,
      "ĠhÃ²u": 4091,
      "shÄĵnĠfÃ¨n": 4092,
      "tÃŃngĠzhÇĲĠ": 4093,
      "shÃŃĠzÃłiĠ": 4094,
      "dÃ¬ĠshÃ¬Ġ": 4095,
      "ĠÃ©rĠqiÄĽ": 4096,
      "mÃ³uĠ": 4097,
      "wÃłnĠlÃ¬Ġ": 4098,
      "duÃ³ĠdeĠ": 4099,
      "biÇİoĠmÃŃngĠ": 4100,
      "ĠzhÅįngĠguÃ³ĠrÃ©nĠmÃŃnĠ": 4101,
      "ĠfÄĵi": 4102,
      "pÃºĠtÃ¡oĠ": 4103,
      "juÃ©ĠsÃ¨": 4104,
      "zÃłoĠdeĠ": 4105,
      "ĠjÄ«ĠbÃłiĠ": 4106,
      "ĠĠĠ2023ĠniÃ¡nĠ": 4107,
      "Â°": 4108,
      "Ġ2006ĠniÃ¡nĠ": 4109,
      "chÅįngĠtÅ«Ġ": 4110,
      "ĠÃ©rĠrÃ©nĠkÇĴuĠmÃ¬ĠdÃ¹ĠwÃ¨iĠmÄĽiĠpÃŃngĠfÄģngĠqiÄģnĠmÇĲĠ": 4111,
      "46": 4112,
      "bÃłnĠdÇİoĠ": 4113,
      "zhÃ¨ngĠshÃŃĠ": 4114,
      "22Ġ": 4115,
      "ĠwÃ¨iĠfÃº": 4116,
      "sÃºĠ": 4117,
      "ind": 4118,
      "ĠdÃ¬ĠtiÄĽĠ": 4119,
      "qiÃ¡nĠwÇİng": 4120,
      "cÃ©ngĠjÄ«ngĠ": 4121,
      "lÃ¨iĠdeĠ": 4122,
      "ï½": 4123,
      "ĠdÃŃĠ": 4124,
      "ing": 4125,
      "inĠ": 4126,
      "ĠniÃ¡nĠdÃ¹Ġ": 4127,
      "ĠjiÄģĠnÃ¡ĠdÃłĠ": 4128,
      "ĠzÃłiĠdÃłĠ": 4129,
      "ĠpÃŃngĠfÄģngĠmÇĲĠ": 4130,
      "ĠgÇĶ": 4131,
      "ĠĠĠyuÃ¡nĠ": 4132,
      "zÃ¬ĠzhÃ¬ĠqÅ«Ġ": 4133,
      "pÃ¬": 4134,
      "gÇİoĠ": 4135,
      "Ġ8ĠyuÃ¨Ġ": 4136,
      "lÄģĠkÃ¨Ġ": 4137,
      "liÃ¡nĠxÃ¹Ġ": 4138,
      "duÅįĠcÃ¬Ġ": 4139,
      "hÃ¹nĠhÃ©Ġ": 4140,
      "ĠdeĠguÄģnĠ": 4141,
      "xiÇİoĠzÇĶĠ": 4142,
      "jÇĶĠrÃ©nĠ": 4143,
      "jiÇİnĠchÃ¡Ġ": 4144,
      "ĠĠĠzÃ¬Ġ": 4145,
      "zuÃ¬ĠzÇİo": 4146,
      "tuÃ¡nĠduÃ¬Ġ": 4147,
      "pÃŃngĠjiÃłĠ": 4148,
      "gÃ²ngĠtÃ³ng": 4149,
      "xÄ«nĠlÇĲĠ": 4150,
      "14Ġ": 4151,
      "yÇĲngĠpiÃłnĠ": 4152,
      "mÃ©iĠtÇĲ": 4153,
      "kÄĽĠnÃ©ngĠhuÃ¬Ġ": 4154,
      "shÄĵngĠchÇİn": 4155,
      "bÇİoĠhÃ¹": 4156,
      "cÄģngĠ": 4157,
      "12ĠniÃ¡nĠ": 4158,
      "yÄģĠlÃ¬Ġ": 4159,
      "jÄ«ngĠyÃŃngĠ": 4160,
      "bÇĲĠyÃłĠ": 4161,
      "ĠshÃ¬ĠtÃºĠ": 4162,
      "jÃ¬ĠwÃ¨iĠ": 4163,
      "ĠÃ©rĠbÃ¨iĠ": 4164,
      "jÃ¬ĠhuÃłĠ": 4165,
      "ĠjÃ¬ĠchÃ©ngĠ": 4166,
      "gÃ²ngĠxiÃłnĠ": 4167,
      "cÃ©ngĠzÃłiĠ": 4168,
      "lÇİnĠ": 4169,
      "ĠguÄģngĠ": 4170,
      "ĠshÃŃĠshÄ«Ġ": 4171,
      "ĠluÃ²Ġ": 4172,
      "dÄģoĠ": 4173,
      "ĠliÃº": 4174,
      "ĠhÃ¡iĠyÇĴuĠ": 4175,
      "zhÄĽn": 4176,
      "ÄģnĠdÃ©Ġ": 4177,
      "lÃ¬ĠbÃ¹Ġ": 4178,
      "ĠtÃ¡iĠwÄģn": 4179,
      "23Ġ": 4180,
      "fÃºĠwÃ¹": 4181,
      "jiÇİnĠshÇİoĠ": 4182,
      "2016ĠniÃ¡nĠ": 4183,
      "chÇİnĠyÃ¨Ġ": 4184,
      "dÃłĠbÃ¹ĠfÃ¨nĠ": 4185,
      "xiÄģngĠtÃ³ngĠ": 4186,
      "xÃŃngĠdÃ²ngĠ": 4187,
      "fÄģnĠyÃ¬Ġ": 4188,
      "sÃłnĠ": 4189,
      "ĠhÃ©ĠliÃºĠ": 4190,
      "9ĠrÃ©nĠ": 4191,
      "ĠchÅ«ĠrÃ¨nĠ": 4192,
      "ĠwÃ©iĠÄĽrĠ": 4193,
      "guÄ«ĠmÃ³": 4194,
      "2022ĠniÃ¡nĠ": 4195,
      "jÃ¬ĠniÃłnĠ": 4196,
      "ampĠ": 4197,
      "5ĠrÃ©nĠ": 4198,
      "KĠ": 4199,
      "ab": 4200,
      "shÇĴuĠdeĠ": 4201,
      "jiÄģĠnÃ¡ĠdÃłĠ": 4202,
      "bÇĲĠsÃłiĠzhÅįngĠ": 4203,
      "fÃºĠhÃ©Ġ": 4204,
      "ĠshÇĲĠyÃ²ngĠ": 4205,
      "zhÇĲĠhuÄ«": 4206,
      "shÇİoĠshÃ¹Ġ": 4207,
      "chÃ³ngĠjiÃłnĠ": 4208,
      "ĠjiÃłnĠzhÃ¹": 4209,
      "lÃºnĠdÅ«nĠ": 4210,
      "ĠlÃ¡nĠ": 4211,
      "ĠtÅįngĠguÃ²Ġ": 4212,
      "bÃłnĠshÃ¬Ġ": 4213,
      "nÇĶĠ": 4214,
      "wÄģĠ": 4215,
      "ĠĠĠ3": 4216,
      "sÄ«ĠzÃłiĠ": 4217,
      "hÇİnĠ": 4218,
      "ver": 4219,
      "dÃ²ngĠdeĠ": 4220,
      "You": 4221,
      "ĠsuÇĴĠyÇĴuĠ": 4222,
      "xÃŃngĠwÃ©iĠ": 4223,
      "kÅįngĠjÅ«nĠ": 4224,
      "bÃłnĠgÅįngĠ": 4225,
      "ĠwÃ¨iĠnÃ©ngĠ": 4226,
      "ĠshÃŃĠfÄĵnĠ": 4227,
      "mÃ¨ng": 4228,
      "ak": 4229,
      "shÄĵnĠdeĠ": 4230,
      "ĠzhÃ¬ĠzuÃ²": 4231,
      "ĠhÃ©ĠbÄĽiĠ": 4232,
      "ĠzÃ¬ĠyÃ³uĠ": 4233,
      "cuÄ«Ġ": 4234,
      "00ĠniÃ¡nĠ": 4235,
      "ÅįuĠyuÃ¡nĠ": 4236,
      "ĠxiÃłnĠwÃ¨iĠ": 4237,
      "47": 4238,
      "oun": 4239,
      "ĠtÃºĠ": 4240,
      "AT": 4241,
      "gÅįngĠyuÃ¡nĠ": 4242,
      "wÄĽiĠyuÃ¡nĠhuÃ¬": 4243,
      "zhÅįngĠzÃłiĠ": 4244,
      "ĠyÃ¬ĠyÇĴuĠ": 4245,
      "rÃ²u": 4246,
      "ĠĠĠs": 4247,
      "xiÃłnĠdÃłiĠ": 4248,
      "18Ġ": 4249,
      "ĠyÇĲĠsÃ¨Ġ": 4250,
      "fÃ¨nĠzÇĲĠ": 4251,
      "ĠzÃ¬": 4252,
      "ĠshÃ¬ĠyÄ«ĠmÃŃngĠ": 4253,
      "yÃ¬ngĠdeĠ": 4254,
      "ĠxÄ«ĠwÃłngĠ": 4255,
      "guÃ²ĠqÃ¹Ġ": 4256,
      "wÄĵiĠÄĽrĠ": 4257,
      "yÃ²ngĠlÃ¡iĠ": 4258,
      "zhÇİnĠshÃ¬Ġ": 4259,
      "ĠjÃ¬ĠxÃ¹": 4260,
      "mÃ¬ngĠmÃŃngĠwÃ¨iĠ": 4261,
      "ĠgÅįngĠsÄ«ĠdeĠ": 4262,
      "ĠfÇİnĠ": 4263,
      "dÃ²ngĠjÄ«Ġ": 4264,
      "dÇİĠjÄ«Ġ": 4265,
      "ĠyÄ«ĠcÃ¬Ġ": 4266,
      "xiÃłngĠmÃ¹": 4267,
      "ĠdeĠdÃ¬ĠqÅ«Ġ": 4268,
      "ĠyÃ²uĠmÃŃngĠ": 4269,
      "ĠsÄ«ĠlÃ¬ng": 4270,
      "xÃºnĠhuÃŃĠ": 4271,
      "gÄģoĠsÃ¹": 4272,
      "xiÃłĠwÇĶĠ": 4273,
      "qÇĲĠyÃ²ngĠ": 4274,
      "kÄģĠ": 4275,
      "fÃ©ngĠ": 4276,
      "ĠlÃ¬ĠrÃº": 4277,
      "ĠpÅįĠ": 4278,
      "ĠnÃŃĠ": 4279,
      "ĠcÄģngĠ": 4280,
      "bÃ¹ĠshÃ¬Ġ": 4281,
      "shÇĴuĠwÃ¨iĠ": 4282,
      "ĠqiÄģnĠ": 4283,
      "wÃłiĠjiÄģoĠ": 4284,
      "jiÄĵĠjÃ¬nĠ": 4285,
      "ĠshÃ¨ĠqÅ«Ġ": 4286,
      "rÃ¨nĠwÃ¹Ġ": 4287,
      "lÃ¹ĠdÃ¬ĠmiÃłnĠjÄ«ĠwÃ¨iĠ": 4288,
      "ĠshÃŃĠyÃłn": 4289,
      "ĠdeĠshÇĴuĠ": 4290,
      "shuÇĲĠyÃ¹ĠmiÃłnĠjÄ«ĠwÃ¨iĠ": 4291,
      "ĠbÄĽi": 4292,
      "Ġ189": 4293,
      "shuÃ¬": 4294,
      "liÇİngĠgÃ¨": 4295,
      "lÃ¨iĠxÃŃngĠ": 4296,
      "ĠguÃ³ĠlÃ¬Ġ": 4297,
      "tÇĲĠxÃ¬Ġ": 4298,
      "ĠÃłnĠ": 4299,
      "ĠshÃ¬ĠyÇĲĠ": 4300,
      "ĠqÅ«Ġ": 4301,
      "ĠshÃŃĠzÃ¬Ġ": 4302,
      "hÇİiĠyÃ¹Ġ": 4303,
      "mÃ¹ĠsÄ«Ġ": 4304,
      "yÄ«ngĠgÃ©ĠlÃ¡nĠ": 4305,
      "diÃłnĠlÃ¬Ġ": 4306,
      "fÇİĠlÇľ": 4307,
      "ĠlÃŃn": 4308,
      "ĠliÇİngĠrÃ©nĠ": 4309,
      "jÇĶĠxÃŃngĠdeĠ": 4310,
      "ĠzÃłiĠyÃºĠ": 4311,
      "ĠtÇĲĠzhÇİngĠ": 4312,
      "jiÃ©ĠshÃ¹ĠhÃ²uĠ": 4313,
      "zhÃ¹ĠzuÃ²Ġ": 4314,
      "nÃ©ngĠgÃ²u": 4315,
      "ĠshÇĲĠdeĠ": 4316,
      "ĠdÃłĠshÇĲĠ": 4317,
      "shÄĵngĠhuÃ³": 4318,
      "ï½ŀ": 4319,
      "lÃ¡o": 4320,
      "xuÃ©ĠzhÄĽĠ": 4321,
      "zuÃ²ĠjiÄģĠ": 4322,
      "chÃ¡ngĠqÄ«Ġ": 4323,
      "guÃ³ĠzÃłiĠ": 4324,
      "ĠshÃ¨ĠbÃ¨iĠ": 4325,
      "zhÃ¹ĠyÃ¬Ġ": 4326,
      "ĠduÃ¬": 4327,
      "guÄģnĠzhÃ²ngĠ": 4328,
      "ĠampĠ": 4329,
      "ĠmÃ¨ngĠ": 4330,
      "dÃ©ĠdÃłoĠ": 4331,
      "ĠhuÃłĠ": 4332,
      "ĠyÃ¹": 4333,
      "zhÃ¬ĠhÃ©Ġ": 4334,
      "xiÃłngĠshÃ¬Ġ": 4335,
      "ĠdÄģngĠzhÅįngĠlÃ¹ĠdÃ¬ĠmiÃłnĠjÄ«ĠwÃ¨iĠ": 4336,
      "zhuÃ³": 4337,
      "ĠÃ©rĠshuÇĲĠyÃ¹ĠmiÃłnĠjÄ«ĠwÃ¨iĠ": 4338,
      "ĠĠĠ2012ĠniÃ¡nĠ": 4339,
      "ĠfÃłnĠ": 4340,
      "ĠcÃ³ngĠÃ©rĠ": 4341,
      "jiÃłoĠqÅ«Ġ": 4342,
      "zÇĶĠchÃ©ngĠdeĠ": 4343,
      "qÇĶĠxiÄģoĠ": 4344,
      "wÄĵiĠliÃ¡nĠ": 4345,
      "Ġ21Ġ": 4346,
      "lÃ¬ngĠwÃłiĠ": 4347,
      "ĠsÄ«ĠlÃ¬ngĠ": 4348,
      "shuÇĲĠpÃŃngĠ": 4349,
      "ĠlÃ¬ĠjÃŃĠ": 4350,
      "ÃłiĠdeĠ": 4351,
      "ĠzhÄ«ĠshÃŃĠ": 4352,
      "ĠĠĠxÄ«Ġ": 4353,
      "fÄĵngĠbÃłoĠ": 4354,
      "ĠTheĠĠĠ": 4355,
      "60Ġ": 4356,
      "jÃŃĠzÃłiĠ": 4357,
      "xÃº": 4358,
      "ĠlÃ¬ĠfÇİĠ": 4359,
      "ĠchÃ©ngĠlÃ¬ĠyÃºĠ": 4360,
      "Ġ9ĠyuÃ¨Ġ": 4361,
      "lÇļĠkÃ¨Ġ": 4362,
      "33": 4363,
      "ĠzhÇĲĠyÇĴuĠ": 4364,
      "kuÃłiĠsÃ¹Ġ": 4365,
      "pÄ«ĠzhÇĶnĠ": 4366,
      "GĠ": 4367,
      "ĠrÃłngĠ": 4368,
      "liÃ¡nĠxÃ¬Ġ": 4369,
      "bÃ¬ĠxÅ«": 4370,
      "hÃłoĠdeĠ": 4371,
      "ĠdÃłĠchÃ©nĠ": 4372,
      "diÇİnĠdeĠ": 4373,
      "diÃłnĠtÃ¡iĠ": 4374,
      "ĠĠĠxÃŃngĠzhÃ¨ngĠqÅ«ĠhuÃłĠ": 4375,
      "ĠjiÄģĠshÃłngĠ": 4376,
      "xÃ¬nĠhÃłoĠ": 4377,
      "mÃŃnĠdeĠ": 4378,
      "ĠdÃ©ĠdeĠ": 4379,
      "cÄģnĠjiÄģ": 4380,
      "yuÃłnĠzhÇİngĠ": 4381,
      "jÇĲĠyÇĶĠ": 4382,
      "ĠyÇĲĠhÃ²uĠ": 4383,
      "dÃłiĠyÇĴuĠ": 4384,
      "ĠjÅ«nĠwÃ¨iĠ": 4385,
      "rÃ¨nĠmÃ¬ng": 4386,
      "ÄĵngĠlÃ¬Ġ": 4387,
      "wÄĽiĠshÅ«ĠjÃ¬Ġ": 4388,
      "ĠÃ¨r": 4389,
      "nÃ¨iĠrÃ³ng": 4390,
      "zÇĴngĠdÅ«Ġ": 4391,
      "chuÃłnĠ": 4392,
      "ceĠ": 4393,
      "rÃºĠhÃ©Ġ": 4394,
      "shÃ²uĠshÄģngĠ": 4395,
      "dÇİoĠyÇĶĠ": 4396,
      "zhÃ¨Ġge": 4397,
      "bÇİoĠchÃŃĠ": 4398,
      "ĠdÅįuĠ": 4399,
      "ĠyÃ¬ĠrÃ©nĠ": 4400,
      "suÃŃĠhÃ²uĠ": 4401,
      "fÃ³ĠjiÃłoĠ": 4402,
      "ĠyuÃ¡nĠyÄ«nĠ": 4403,
      "esĠ": 4404,
      "ĠwÃ¨iĠfÃºĠqÃŃĠyÃºĠ": 4405,
      "guÃłĠ": 4406,
      "ĠĠĠgÃłiĠ": 4407,
      "gĠ": 4408,
      "ĠzhÃŃĠzhÃ¬Ġ": 4409,
      "cÃ¬ĠshÃ¬ĠjiÃ¨ĠdÃłĠzhÃłnĠ": 4410,
      "Ġ7ĠyuÃ¨Ġ": 4411,
      "ÄģiĠjÃŃĠ": 4412,
      "18ĠniÃ¡nĠ": 4413,
      "huÄģngĠ": 4414,
      "yÃłĠdeĠ": 4415,
      "xÃ¬ngĠzhÃ¬Ġ": 4416,
      "ĠjÄ«ĠdÅ«Ġ": 4417,
      "yÇİnĠchÃłngĠhuÃ¬Ġ": 4418,
      "fÄģĠchÅ«Ġ": 4419,
      "ĠzhÃ¨ĠjiÄģngĠ": 4420,
      "Ġ2022ĠniÃ¡nĠ": 4421,
      "ĠfÃ¨iĠ": 4422,
      "ĠshÃ¬ĠyÄ«ĠwÃ¨iĠ": 4423,
      "ĠxÄ«nĠwÃ©nĠ": 4424,
      "ĠbÃ¨i": 4425,
      "tuÃ¬ĠyÃ¬Ġ": 4426,
      "ĠdÄĽng": 4427,
      "xÄ«ĠyÃ¡ngĠ": 4428,
      "ĠshÃ¬ĠqÅ«Ġ": 4429,
      "jiÄģĠhÃ©Ġ": 4430,
      "ĠzhuÄģnĠ": 4431,
      "jÄ«ĠzhÃ¬Ġ": 4432,
      "bÃ¬ĠyÃ¨ĠyÃºĠ": 4433,
      "zhÃ¹ĠmÃŃngĠdeĠ": 4434,
      "ĠjiÃłnĠchÃ©ngĠ": 4435,
      "ãĥ": 4436,
      "ĠxÃ¬ngĠ": 4437,
      "zÃ²u": 4438,
      "ĠdÅįng": 4439,
      "wÃ¨iĠzhÃ¬Ġ": 4440,
      "ĠmÃŃngĠchÄĵngĠ": 4441,
      "rÃ¹ĠkÇĴuĠ": 4442,
      "pÇĶĠtÅįngĠ": 4443,
      "ĠformulaĠ": 4444,
      "ĠĠĠyÃ¬Ġ": 4445,
      "10ĠniÃ¡nĠ": 4446,
      "ĠtÇĲĠzhÇİngĠkÄĽĠdÃ¡Ġ": 4447,
      "hÃ¡iĠziĠ": 4448,
      "fÅ«ĠrÃ©nĠ": 4449,
      "chÄģĠyÃ¬Ġ": 4450,
      "zhuÄģnĠjiÄģĠ": 4451,
      "bÃł": 4452,
      "ĠdeĠyÄ«ĠzuÃ²Ġ": 4453,
      "ĠfÃ¹ĠjÃ¬nĠ": 4454,
      "fÄģĠdiÃłnĠ": 4455,
      "ĠxÄ«": 4456,
      "ĠlÇİnĠ": 4457,
      "Ġ12ĠyuÃ¨Ġ": 4458,
      "ĠrÃºĠguÇĴ": 4459,
      "ĠmÃŃnĠguÃ³Ġ": 4460,
      "dÇĲĠdÃ¡Ġ": 4461,
      "ĠshÄģngĠ": 4462,
      "wÃ©nĠzhÄģngĠ": 4463,
      "wÇİngĠlÃ¹Ġ": 4464,
      "ĠbÅį": 4465,
      "ĠtÃ³uĠ": 4466,
      "zhÃ¬ĠzÃłiĠ": 4467,
      "lo": 4468,
      "fÇİĠdeĠ": 4469,
      "ĠbÃ¹ĠlÇĲĠ": 4470,
      "ĠyÇĲĠxiÃł": 4471,
      "xiÄģngĠdÄģngĠ": 4472,
      "cÅ«nĠzhuÄģngĠ": 4473,
      "ĠkÃ¨ĠlÇĲĠ": 4474,
      "rÃ¹ĠqÄ«nĠ": 4475,
      "Ġ11ĠyuÃ¨Ġ": 4476,
      "yÇĶĠzhÅįngĠ": 4477,
      "zhÃłnĠzhÅįngĠ": 4478,
      "lÃ¡iĠdÃłoĠ": 4479,
      "yÄĽĠzÃłiĠ": 4480,
      "ĠxuÃ©ĠxiÃło": 4481,
      "yÃ¡nĠgÃ©Ġ": 4482,
      "6ĠrÃ©nĠ": 4483,
      "chÃ¡i": 4484,
      "enĠ": 4485,
      "ĠzhÄ«ĠzhÅįngĠ": 4486,
      "ĠĠĠ2024ĠniÃ¡nĠ": 4487,
      "ĠjiÃłnĠduÃ¬Ġ": 4488,
      "zhÃ¨ĠxiÄĵ": 4489,
      "ĠpÃŃng": 4490,
      "ĠwÃ¡ng": 4491,
      "zhÃŃĠwÃ¨iĠ": 4492,
      "wÃłnĠyuÃ¡nĠ": 4493,
      "25ĠniÃ¡nĠ": 4494,
      "ĠshÃŃĠrÃ¨nĠ": 4495,
      "fÄģĠshÄĵng": 4496,
      "tÃ³ngĠyÃ¬Ġ": 4497,
      "ĠyÄ«ĠshÄĵngĠ": 4498,
      "guÃłiĠ": 4499,
      "sÃ¬ĠgÃ¨Ġ": 4500,
      "alĠ": 4501,
      "guÇİngĠbÅį": 4502,
      "ĠÄĽrĠhÃ©Ġ": 4503,
      "dÇİoĠshÃ¬Ġ": 4504,
      "hÄģĠÄĽrĠ": 4505,
      "qÃ¬ĠchÄĵĠ": 4506,
      "tÃłiĠpÃŃngĠyÃ¡ngĠ": 4507,
      "yÃ¬ĠzÃłiĠ": 4508,
      "ĠjÄ«ĠgÃ²u": 4509,
      "tÃŃĠgÄģoĠ": 4510,
      "8ĠrÃ©nĠ": 4511,
      "chÃ©ngĠgÅįngĠ": 4512,
      "ĠyÃ¬ĠshÃ¹": 4513,
      "mÃŃngĠchÄĵngĠ": 4514,
      "xiÄģoĠshÃ²uĠ": 4515,
      "chÅįuĠ": 4516,
      "mÃŃngĠshÃ¬Ġ": 4517,
      "gÃ²ngĠchÇİnĠdÇİng": 4518,
      "chÅ«ĠbÇİnĠ": 4519,
      "2012ĠniÃ¡nĠ": 4520,
      "leĠdÃłĠ": 4521,
      "ĠdÃ©ĠyÇĲĠ": 4522,
      "ĠshÄĵngĠchÇİnĠ": 4523,
      "rÇİoĠ": 4524,
      "shÄĵngĠwÃ¨iĠ": 4525,
      "ĠdeĠshÃŃĠqÅ«ĠwÃ¨iĠ": 4526,
      "28ĠniÃ¡nĠ": 4527,
      "xÄ«ngĠqÄ«Ġ": 4528,
      "ĠdeĠqiÃ¡nĠ": 4529,
      "ĠrÃ©nĠlÃ¨iĠ": 4530,
      "ĠzhÃ¨ngĠcÃ¨Ġ": 4531,
      "gÃ¨ngĠjiÄģĠ": 4532,
      "ĠruÃ²Ġ": 4533,
      "xiÇİoĠshuÅį": 4534,
      "shÃ©Ġ": 4535,
      "2008ĠniÃ¡nĠ": 4536,
      "ĠhÃ¡i": 4537,
      "indow": 4538,
      "jÃºĠzhÇİngĠ": 4539,
      "ĠdeĠshÃŃĠjiÄģnĠ": 4540,
      "yÃ¡o": 4541,
      "ĠĠĠzhÃ¬Ġ": 4542,
      "ĠshÃ¬ĠyÇĴuĠ": 4543,
      "yuÃ¨ĠtÃ¡iĠ": 4544,
      "ĠyÃºĠ197": 4545,
      "ĠÄĽrĠtÃ¨Ġ": 4546,
      "jiÃłoĠwÃ©iĠ": 4547,
      "zhÃ¨ĠjiÄģngĠ": 4548,
      "duÅįĠniÃ¡nĠ": 4549,
      "zhÇĲĠzÃłiĠ": 4550,
      "guÇİngĠxÄ«Ġ": 4551,
      "quÃ¨ĠdÃ¬ngĠ": 4552,
      "edĠĠĠ": 4553,
      "qÄ«ĠzÇĲĠ": 4554,
      "mÃ©ngĠgÇĶ": 4555,
      "kuÃ²ĠdÃłĠ": 4556,
      "ĠshÃłngĠhÇİi": 4557,
      "55": 4558,
      "yÇĶĠhÃ©Ġ": 4559,
      "zhÃ¹ĠyÃºĠ": 4560,
      "dÄĵngĠlÃ¹Ġ": 4561,
      "ĠshÃŃĠxiÃłnĠ": 4562,
      "jiÃ©ĠhÅ«nĠ": 4563,
      "ĠhansĠ": 4564,
      "yÃ¬ĠzhÅįngĠ": 4565,
      "niÃº": 4566,
      "rÃ³ngĠyÃ¹Ġ": 4567,
      "ĠtwĠ": 4568,
      "ĠwÃ¨iĠshÄĵngĠ": 4569,
      "guÄģnĠzhÃ¹Ġ": 4570,
      "cÃ¡nĠ": 4571,
      "zhÃ²ngĠdÃłĠ": 4572,
      "dÃ²ngĠzuÃ²Ġ": 4573,
      "ÄģiĠÄĽrĠ": 4574,
      "ran": 4575,
      "chÃºn": 4576,
      "yuÃ¨ĠshÃŃĠ": 4577,
      "ĠyÃ¬nĠdÃ¹Ġ": 4578,
      "yÃ¨ĠhÃ²uĠ": 4579,
      "chÃ¨ĠxiÄģoĠ": 4580,
      "ĠjÇĲnĠguÇİn": 4581,
      "ĠbÃ¬ngĠmÃ©iĠyÇĴuĠ": 4582,
      "biÇİnĠ": 4583,
      "zuÃ¬ĠchÅ«Ġ": 4584,
      "ĠpÃŃngĠtÃ¡iĠ": 4585,
      "ĠĠĠniÃ¡nĠ": 4586,
      "shÃ¹ĠxuÃ©Ġ": 4587,
      "jÃ¬nĠxÃŃng": 4588,
      "chÅ«ĠbÇİn": 4589,
      "ĠĠĠdeĠshÃŃĠ": 4590,
      "bÄģĠxÄ«Ġ": 4591,
      "zhÇĶĠchÃŃĠ": 4592,
      "yÃŃĠdÃ²ngĠ": 4593,
      "ĠquÃ¨": 4594,
      "cÄģnĠkÇİoĠ": 4595,
      "lÃŃnĠdeĠ": 4596,
      "wÇİnĠshÃłngĠ": 4597,
      "ĠbÃ¹ĠkÄĽĠ": 4598,
      "wÃ¹ĠzhÇĴng": 4599,
      "yuÃłnĠdeĠ": 4600,
      "yÃłĠlÃ¬ĠshÄģn": 4601,
      "ĠsÄ«ĠtÇİnĠ": 4602,
      "shÄ«ĠfÃłn": 4603,
      "ĠshÃ¬ĠyÇİnĠ": 4604,
      "ĠhuÃ²ĠzhÄĽĠ": 4605,
      "ĠguÃ³ĠwÃ¹Ġ": 4606,
      "rÇİn": 4607,
      "ĠsÃłĠ": 4608,
      "ĠzhÄ«ĠyuÃ¡nĠ": 4609,
      "shÃ¹ĠzÃ¬Ġ": 4610,
      "wÃ©nĠzÃ¬Ġ": 4611,
      "ĠÄģĠÄĽrĠ": 4612,
      "ï¼ı": 4613,
      "ĠgÅįngĠyÃ¨": 4614,
      "ĠjiÄģĠtÃŃngĠ": 4615,
      "fÃ¹ĠdeĠ": 4616,
      "xÅ«ĠqiÃºĠ": 4617,
      "fÇİnĠhuÃŃĠ": 4618,
      "eb": 4619,
      "ĠmÃłiĠ": 4620,
      "yÄĽĠbÃ¨iĠ": 4621,
      "mÃŃngĠyÃ¬Ġ": 4622,
      "xuÃ©ĠhÃ©Ġ": 4623,
      "ĠjÄ«ĠhÅ«Ġ": 4624,
      "dÇĴngĠshÃ¬Ġ": 4625,
      "biÇİoĠxiÃłn": 4626,
      "ĠcuÃ¬Ġ": 4627,
      "rÃºĠcÇĲĠ": 4628,
      "fÄģĠxiÃłnĠleĠ": 4629,
      "17Ġ": 4630,
      "kÃłnĠdÃłoĠ": 4631,
      "mÇĶĠqÄ«nĠ": 4632,
      "sÅ«ĠliÃ¡n": 4633,
      "ĠchÃ¡ng": 4634,
      "19ĠniÃ¡nĠ": 4635,
      "2021ĠniÃ¡nĠ": 4636,
      "hÃ©ngĠxÄ«ngĠ": 4637,
      "ĠcÇĲĠshÃŃĠ": 4638,
      "24ĠniÃ¡nĠ": 4639,
      "hÃºnĠ": 4640,
      "ĠbÃ¬ngĠyÇĲĠ": 4641,
      "tÃ¡iĠbÄĽiĠ": 4642,
      "gÇİiĠbiÄģn": 4643,
      "zhÃłnĠdÃ¬Ġ": 4644,
      "xiÅįngĠyÃ¡": 4645,
      "ĠzÃłiĠ18": 4646,
      "huÃ¡ĠmÃŃnĠguÃ³Ġ": 4647,
      "ĠmÃ¹ĠqiÃ¡n": 4648,
      "nÇİi": 4649,
      "ĠĠĠsuÇĴĠshÇĶĠdeĠshÄĽngĠjÃŃĠxuÇİnĠqÅ«ĠwÃ¨iĠ": 4650,
      "zÇĴngĠbÃ¹Ġ": 4651,
      "orĠ": 4652,
      "ĠĠĠdeĠyÃ³uĠzhÃ¨ngĠbiÄģnĠmÇİĠwÃ¨iĠ": 4653,
      "ĠĠĠyÇĶĠjiÄĵĠrÇİngĠdeĠshÃ¬ĠzhÃ¨nĠ": 4654,
      "ĠĠĠyÃºĠshÃŃĠdeĠrÃ©nĠkÇĴuĠshÃ¹ĠliÃłngĠwÃ¨iĠrÃ©nĠ": 4655,
      "ĠĠĠdeĠshÃŃĠqÅ«ĠwÃ¨iĠ": 4656,
      "ĠĠĠt": 4657,
      "zhuÄģngĠzhÃ¬Ġ": 4658,
      "shuÃ²ĠshÃ¬Ġ": 4659,
      "Ġ6ĠyuÃ¨Ġ": 4660,
      "tic": 4661,
      "ĠrÃ©nĠmenĠ": 4662,
      "7ĠrÃ©nĠ": 4663,
      "ĠÑ": 4664,
      "bÄģĠlÃŃĠ": 4665,
      "jÃ¬ĠhÃ©Ġ": 4666,
      "ĠxuÃ©ĠxÃŃĠ": 4667,
      "ĠkuÄģnĠ": 4668,
      "tÃºĠzhÅįngĠ": 4669,
      "em": 4670,
      "ĠzhÄ«ĠmÃŃngĠ": 4671,
      "ĠĠĠ2010ĠniÃ¡nĠ": 4672,
      "wÃ©iĠdeĠ": 4673,
      "ĠsÄ«ĠlÄģĠ": 4674,
      "zÃ¬ĠdÃ²ngĠ": 4675,
      "ĠzuÃ²ĠyÃ²ngĠ": 4676,
      "shÃŃĠwÃ¨iĠ": 4677,
      "tÃ¡iĠdeĠ": 4678,
      "ĠzÇĶĠ": 4679,
      "fÃ¹ĠqÄ«nĠ": 4680,
      "guÇİnĠlÇĲ": 4681,
      "fÄģĠdeĠ": 4682,
      "zÃ¨ngĠ": 4683,
      "ĠcÃ©ngĠrÃ¨nĠ": 4684,
      "jÃ¬nĠshÃ¬Ġ": 4685,
      "kÄģiĠfÃłng": 4686,
      "mÃŃnĠzhÃ²ngĠ": 4687,
      "chuÃ¡ngĠ": 4688,
      "ĠyÄ«ĠdÃłiĠ": 4689,
      "ĠjÄ«ngĠguÃ²Ġ": 4690,
      "hÃ³u": 4691,
      "ĠĠĠzh": 4692,
      "ĠchÅ«ĠxiÃłnĠzÃłiĠ": 4693,
      "ĠgÇİi": 4694,
      "ĠĠĠjÄ«Ġ": 4695,
      "liÇĶĠ": 4696,
      "ĠrÃ©nĠshÃ¹Ġ": 4697,
      "zÄ«ĠxÃ¹nĠ": 4698,
      "xiÅįngĠyÃ¡ĠlÃ¬Ġ": 4699,
      "ĠqiÃ¡ngĠ": 4700,
      "ĠdÃłnĠtÄģĠ": 4701,
      "ĠdÃ¬ĠqiÃºĠ": 4702,
      "75": 4703,
      "ĠtÇİoĠ": 4704,
      "jiÇİngĠxiÃłngĠ": 4705,
      "2018ĠniÃ¡nĠ": 4706,
      "suÄ«ĠrÃ¡nĠ": 4707,
      "tÃŃĠshÄĵngĠ": 4708,
      "fÄĵiĠjiÃłnĠzhÃ¬Ġ": 4709,
      "14ĠniÃ¡nĠ": 4710,
      "chÃłngĠpiÃłnĠ": 4711,
      "niÇĶĠyuÄĵĠ": 4712,
      "shÇİnĠ": 4713,
      "mÇĲn": 4714,
      "ĠhkĠ": 4715,
      "xÃ¬ĠjÃ¹Ġ": 4716,
      "ĠpÄģi": 4717,
      "jiÃłoĠdeĠ": 4718,
      "ĠgÃ¨ĠzhÇĴngĠ": 4719,
      "Ġ5ĠyuÃ¨Ġ": 4720,
      "ĠbÃ¬ngĠlÃ¬Ġ": 4721,
      "tuÄ«ĠdÃ²ngĠ": 4722,
      "ĠchÃ©ngĠwÃ©iĠleĠ": 4723,
      "zhuÃłngĠkuÃłngĠ": 4724,
      "ea": 4725,
      "ĠyÇİnĠ": 4726,
      "ĠhÃ©ĠbÃ¬ngĠ": 4727,
      "ĠyÃ¬ĠyuÃłnĠ": 4728,
      "ĠjÃ¬ĠzÇİiĠ": 4729,
      "ĠpÃ¡nĠ": 4730,
      "ĠĠĠ2011ĠniÃ¡nĠ": 4731,
      "xÃ¹nĠsÃ¹Ġ": 4732,
      "fÄģĠxÃŃng": 4733,
      "ĠjÃŃĠqÃŃ": 4734,
      "gÄģoĠdÃ¹Ġ": 4735,
      "tÃ¨ĠlÇĲĠ": 4736,
      "kÃłngĠrÃ¬Ġ": 4737,
      "ĠwÃ¨iĠhÃ©Ġ": 4738,
      "luÃłn": 4739,
      "ĠhÃ©ĠxÄ«nĠ": 4740,
      "jÄ«ngĠshÃ©nĠ": 4741,
      "wÄĵiĠxiÃ©Ġ": 4742,
      "xuÃ¨": 4743,
      "rÃ¹nĠ": 4744,
      "shÅįuĠlÃ¹Ġ": 4745,
      "guÃ²ĠqÃ¹": 4746,
      "wÃ¡ngĠdeĠ": 4747,
      "27ĠniÃ¡nĠ": 4748,
      "ĠlÃŃngĠ": 4749,
      "lÃ¡nĠkÃ¨Ġ": 4750,
      "ĠshÃ¬ĠzhÇĲĠ": 4751,
      "yÄĵĠ": 4752,
      "cÃ¡iĠzhÃ¨ngĠ": 4753,
      "suÃ¬ĠdÃłoĠ": 4754,
      "ĠcÃ¹nĠ": 4755,
      "zhÃ²uĠ": 4756,
      "ĠniÃ¡nĠqÄ«ng": 4757,
      "sÃłĠkÃ¨Ġ": 4758,
      "21ĠniÃ¡nĠ": 4759,
      "liÇİngĠrÃ©nĠ": 4760,
      "ĠzhÄ«ĠhÃ²u": 4761,
      "ĠchÄĵĠ": 4762,
      "lÃ¹ĠjÅ«n": 4763,
      "jÃ¬nĠgÅįngĠ": 4764,
      "34": 4765,
      "qÇĲĠyÃ¬Ġ": 4766,
      "ĠpÃŃĠ": 4767,
      "jÃ¹ĠdeĠ": 4768,
      "ĠtÅįngĠchÃ¡ngĠ": 4769,
      "lÇľĠwÃ¨iĠ": 4770,
      "2014ĠniÃ¡nĠ": 4771,
      "ot": 4772,
      "leĠtÄģĠ": 4773,
      "ĠshÃ¬ĠjÃŃĠ": 4774,
      "zÄĵngĠzhÇİngĠ": 4775,
      "ĠĠĠzhÅįngĠguÃ³Ġ": 4776,
      "der": 4777,
      "jÄ«ngĠchÃ¡ngĠ": 4778,
      "fÄĵiĠjiÃłnĠzhÃ¬ĠdÃ¬ĠqÅ«Ġ": 4779,
      "sÃłiĠdeĠ": 4780,
      "xÃ¬ĠtÇĴngĠdeĠ": 4781,
      "jiÄģngĠxÄ«Ġ": 4782,
      "ÃłoĠdÃ¬ĠlÃ¬Ġ": 4783,
      "shÇĴuĠdÅ«Ġ": 4784,
      "ber": 4785,
      "dÅįuĠhuÃ¬Ġ": 4786,
      "ĠyÄĽĠyÇĴuĠ": 4787,
      "zhÄģ": 4788,
      "zhÃ³uĠ": 4789,
      "ĠcÃŃĠ": 4790,
      "zhÃ²ngĠdiÇİnĠ": 4791,
      "zhÃłnĠdÃ²u": 4792,
      "ĠkÄĵ": 4793,
      "tÃłiĠyÃ¡ng": 4794,
      "ĠjÇĲn": 4795,
      "ĠchÄĵĠzhÃłnĠ": 4796,
      "hÇİiĠdÃłoĠ": 4797,
      "liÇİngĠniÃ¡nĠ": 4798,
      "ĠshÃ¬ĠrÃ©nĠ": 4799,
      "ĠwÃ©iĠqÃŃĠ": 4800,
      "yÃŃngĠyÃ¹nĠ": 4801,
      "dÇĶĠ": 4802,
      "jiÃ©ĠkÃ¨Ġ": 4803,
      "ĠguÄ«Ġ": 4804,
      "quÇİnĠ": 4805,
      "15ĠniÃ¡nĠ": 4806,
      "ĠdÃłĠlÃ³uĠ": 4807,
      "shÄģnĠmÃłi": 4808,
      "diÃłoĠchÃ¡": 4809,
      "ĠchuÃ¡nĠ": 4810,
      "ĠhÃ©ĠzhÅįngĠ": 4811,
      "00ĠwÃłnĠ": 4812,
      "ĠxÄ«ĠbÄģnĠyÃ¡": 4813,
      "lÇĲngĠdÇİoĠrÃ©nĠ": 4814,
      "ĠÃ©ĠluÃ³ĠsÄ«Ġ": 4815,
      "mÃŃnĠzÃº": 4816,
      "shÃłngĠshÅ«Ġ": 4817,
      "chÃ¨nĠ": 4818,
      "yÇĲnĠfÄģĠ": 4819,
      "ĠzhÅįngĠguÃ³ĠgÃ²ngĠchÇİnĠdÇİngĠ": 4820,
      "ĠyÄ«nĠÃ©rĠ": 4821,
      "ĠyÃºĠ194": 4822,
      "zhÃłnĠdÃ²uĠ": 4823,
      "guÇİngĠgÃłoĠ": 4824,
      "xÃ¹nĠliÃłn": 4825,
      "cÄģnĠjiÄģĠleĠ": 4826,
      "pÇĲĠ": 4827,
      "ĠbÃ¹ĠduÃłnĠ": 4828,
      "ĠdeĠchÃ©ngĠyuÃ¡nĠ": 4829,
      "ĠdÃ¡Ġ": 4830,
      "190": 4831,
      "zhÇĶĠchÃŃ": 4832,
      "xÃ¬ĠbÄģo": 4833,
      "yÄ«nĠshÃ¬Ġ": 4834,
      "ĠzhÅ«": 4835,
      "ĠlÇľĠ": 4836,
      "ĠhuÄģĠ": 4837,
      "ĠjÃ¬nĠrÃ¹": 4838,
      "tÃºĠshÅ«ĠguÇİnĠ": 4839,
      "Ġ00Ġ": 4840,
      "ĠhÃ©ĠchÃ©ngĠ": 4841,
      "chÃłngĠpiÃłn": 4842,
      "AS": 4843,
      "ĠĠĠU": 4844,
      "zhÃŃĠdÃłoĠ": 4845,
      "nÃłĠlÇĲĠ": 4846,
      "yuÃ¨ĠzÃłiĠ": 4847,
      "huÃłĠwÃ¨iĠ": 4848,
      "29ĠniÃ¡nĠ": 4849,
      "ĠqiÃ¡n": 4850,
      "ĠzÃłoĠchÃ©ngĠ": 4851,
      "jÃ¹ĠlÃŃĠ": 4852,
      "yÃ²ngĠhÃ¹Ġ": 4853,
      "Ġ4ĠyuÃ¨Ġ": 4854,
      "fÃ¹ĠjÃ¬nĠ": 4855,
      "nuÃ³Ġ": 4856,
      "39": 4857,
      "zhÃ³u": 4858,
      "shÄĵnĠwÃ¨iĠ": 4859,
      "jÅ«ĠzhÃ¹Ġ": 4860,
      "xiÃłoĠguÇĴĠ": 4861,
      "mÄĽiĠshÃ¹Ġ": 4862,
      "ĠCĠ": 4863,
      "xiÃłĠjÃ¬ĠÃłoĠlÃŃnĠpÇĲĠkÃ¨ĠyÃ¹nĠdÃ²ngĠhuÃ¬Ġ": 4864,
      "ĠzhÃ¨ngĠzhuÃłngĠ": 4865,
      "Ġ2004ĠniÃ¡nĠ": 4866,
      "jiÃ¨ĠdeĠ": 4867,
      "suÄ«ĠrÃ¡n": 4868,
      "chÇİnĠpÇĲn": 4869,
      "Ġ188": 4870,
      "pÄģnĠ": 4871,
      "shÃŃĠjiÄģnĠ": 4872,
      "jiÄģngĠsÅ«Ġ": 4873,
      "chÇİnĠshÄĵngĠdeĠ": 4874,
      "kuÃ¡ngĠ": 4875,
      "22ĠniÃ¡nĠ": 4876,
      "ĠĠĠzhĠ": 4877,
      "ĠquÃ¡nĠguÃ³Ġ": 4878,
      "shuÅįĠmÃŃngĠ": 4879,
      "ĠshÄĵngĠhuÃ³": 4880,
      "wÇĶĠzhuÄģngĠ": 4881,
      "yÄ«ngĠwÃ©nĠ": 4882,
      "ĠjiÄģĠrÃ¹": 4883,
      "shÄĵnĠqÇĲngĠ": 4884,
      "pÅį": 4885,
      "jiÃłoĠliÃłnĠ": 4886,
      "ĠlÇĲĠlÃ¹nĠ": 4887,
      "ĠzhÄ«ĠxiÃłĠ": 4888,
      "ĠhuÃ²ĠdÃ©ĠleĠ": 4889,
      "lÃ¡nĠqiÃºĠ": 4890,
      "ĠzÃłiĠjiÄģĠ": 4891,
      "ĠzuÃ²ĠpÇĲn": 4892,
      "ĠĠĠjiÄģĠzÃºĠ": 4893,
      "ÃłoĠyÃ¹nĠhuÃ¬Ġ": 4894,
      "zhÅįuĠdeĠ": 4895,
      "yÅįuĠshÃ¬Ġ": 4896,
      "ĠgÅįngĠrÃ©nĠ": 4897,
      "xiÇİnĠdeĠ": 4898,
      "jiÃłoĠshÄ«Ġ": 4899,
      "wÃ¡ngĠchÃ¡o": 4900,
      "ĠzhÅįngĠwÃ©nĠ": 4901,
      "sÃ¹ĠdeĠ": 4902,
      "jÃ¬ĠshÃŃĠ": 4903,
      "huÃ¡ĠrÃ©nĠ": 4904,
      "ĠdÃłĠduÅįĠ": 4905,
      "ĠruÃ²": 4906,
      "hÃ¡nĠshÃ¹Ġ": 4907,
      "fÇİngĠwÃ¨nĠ": 4908,
      "ai": 4909,
      "deĠĠĠ": 4910,
      "lÃ¬ĠshÃ¬Ġ": 4911,
      "11ĠniÃ¡nĠ": 4912,
      "tiÃ¡oĠzhÄĽngĠ": 4913,
      "2015ĠniÃ¡nĠ": 4914,
      "xuÃ©ĠshÃ¹Ġ": 4915,
      "pÇĲnĠpÃ¡iĠ": 4916,
      "ĠxÇĶĠduÅįĠ": 4917,
      "tÃ²u": 4918,
      "ĠhuÃ¡ng": 4919,
      "mÇİĠsÄ«Ġ": 4920,
      "jÃ¬nĠrÃ¹": 4921,
      "ĠwÇİngĠ": 4922,
      "ĠtuÅįĠ": 4923,
      "ĠyuÃ¨ĠnÃ¡nĠ": 4924,
      "yÄģoĠqÇĲngĠ": 4925,
      "ĠbiÃłn": 4926,
      "ĠyÇĴuĠshÃŃĠ": 4927,
      "jÄ«nĠdeĠ": 4928,
      "ĠshÃ¬ĠzhÃ¨n": 4929,
      "yÇĶnĠxÇĶĠ": 4930,
      "bÃłoĠdÇİoĠ": 4931,
      "ĠlÇİn": 4932,
      "quÃ¨ĠzhÄĽn": 4933,
      "shÄĽĠ": 4934,
      "qÇĶĠdÃ©": 4935,
      "dÃ¬ngĠleĠ": 4936,
      "65": 4937,
      "Ġ10Ġ": 4938,
      "qiÃłĠ": 4939,
      "ĠshÃ¬ĠwÃ¨iĠleĠ": 4940,
      "ĠmÃ¨iĠ": 4941,
      "ep": 4942,
      "shÇİnĠxÄ«Ġ": 4943,
      "ĠdÃłnĠyÃ³uĠyÃºĠ": 4944,
      "ĠyuÃ¨ĠtÃ¡iĠ": 4945,
      "tÃ©ng": 4946,
      "xÃŃĠwÃ¨iĠ": 4947,
      "ĠjÃŃĠlÃ¬Ġ": 4948,
      "jiÄģĠzhÅįngĠ": 4949,
      "ĠdÃłĠxÃŃngĠ": 4950,
      "zhÅįngĠwÃ¨iĠ": 4951,
      "yÇĴuĠbÃ¹Ġ": 4952,
      "ĠjÃ¬ĠsuÃłn": 4953,
      "pÄģiĠ": 4954,
      "jiÃłnĠshÃ¨Ġ": 4955,
      "wÇĶĠtÃ¡iĠ": 4956,
      "liÇİngĠzhÇĴngĠ": 4957,
      "ĠxiÇİng": 4958,
      "zhÄĵnĠshÃŃĠ": 4959,
      "huÃŃĠyÃ¬ngĠ": 4960,
      "13ĠniÃ¡nĠ": 4961,
      "zhÅįngĠhuÃ¡ĠrÃ©nĠmÃŃnĠgÃ²ngĠhÃ©ĠguÃ³Ġ": 4962,
      "49": 4963,
      "yÃ¬nĠdÃ¬Ġ": 4964,
      "qÅ«ĠyÃ¹": 4965,
      "yÃŃĠchÇİnĠ": 4966,
      "est": 4967,
      "ÃłoĠmÃ©nĠ": 4968,
      "shÅ«ĠdeĠ": 4969,
      "ĠdÃ¬ĠwÇĶĠ": 4970,
      "yÃŃĠmÃŃnĠ": 4971,
      "fÄĵiĠlÇľĠ": 4972,
      "ĠsÄģngĠ": 4973,
      "um": 4974,
      "ĠdeĠgÅįngĠzuÃ²Ġ": 4975,
      "2020ĠniÃ¡nĠmÄĽiĠguÃ³ĠrÃ©nĠkÇĴuĠpÇĶĠchÃ¡ĠdeĠshÃ¹ĠjÃ¹Ġ": 4976,
      "ĠÅįuĠ": 4977,
      "jÇĶĠxÃŃng": 4978,
      "2017ĠniÃ¡nĠ": 4979,
      "fÃ¡ngĠyÃ¹Ġ": 4980,
      "jiÃłoĠxuÃ©Ġ": 4981,
      "ĠkÇİiĠ": 4982,
      "bo": 4983,
      "qÃ¬ĠxiÃłngĠ": 4984,
      "tou": 4985,
      "ĠzhÅįuĠniÃ¡nĠ": 4986,
      "liÃ¨ĠbiÇİoĠ": 4987,
      "ĠrÃ¹Ġ": 4988,
      "shÃ©nĠjÄ«ngĠ": 4989,
      "duÅįĠrÃ©nĠ": 4990,
      "23ĠniÃ¡nĠ": 4991,
      "guÄģnĠxÃ¬": 4992,
      "ĠrÃ¨nĠwÃ¹Ġ": 4993,
      "mÃ¬ngĠlÃ¬ngĠ": 4994,
      "ĠfÃ©ngĠ": 4995,
      "--": 4996,
      "jÄ«ĠchÇİngĠ": 4997,
      "bÃ¡iĠsÃ¨Ġ": 4998,
      "chuÃłngĠbÃłn": 4999,
      "ay": 5000,
      "2011ĠniÃ¡nĠ": 5001,
      "yÇĲĠlÃ¡iĠ": 5002,
      "dÄĽngĠwÃ¨iĠ": 5003,
      "leĠtÄģĠdeĠ": 5004,
      "huÃ¬ĠyuÃ¡nĠ": 5005,
      "niÇİo": 5006,
      "wÇİĠÄĽrĠ": 5007,
      "jÃ¬ĠlÃ¹Ġ": 5008,
      "ĠjÄ«ĠguÄģnĠ": 5009,
      "fÇİĠÃłnĠ": 5010,
      "quÃ¡nĠmiÃłnĠ": 5011,
      "dÅ«ĠshÃ¬Ġ": 5012,
      "leĠyÃŃĠgÃ¨Ġ": 5013,
      "1ĠyuÃ¨Ġ1ĠrÃ¬Ġ": 5014,
      "ĠrÃ¬ĠjÅ«nĠ": 5015,
      "zhÃ¡Ġ": 5016,
      "tÄ«Ġ": 5017,
      "kÃ¨ĠlÇĲĠ": 5018,
      "ĠshÃŃĠyÄ«Ġ": 5019,
      "duÃłnĠdeĠ": 5020,
      "ĠrÃ©nĠlÃ¨i": 5021,
      "gÄģoĠdÄĽngĠ": 5022,
      "shÃºĠ": 5023,
      "yÃ¡nĠdeĠ": 5024,
      "yÃŃngĠdeĠ": 5025,
      "17ĠniÃ¡nĠ": 5026,
      "ĠhÃ©ĠxÄ«Ġ": 5027,
      "huÃłĠjiÄģĠ": 5028,
      "dÅįngĠjÃ¬Ġ": 5029,
      "jiÄĵĠjÃŃĠ": 5030,
      "zÃ©ĠwÃ¨iĠ": 5031,
      "ĠshÃŃĠqÄ«": 5032,
      "ĠĠĠzÇİoĠniÃ¡nĠ": 5033,
      "zÇĶĠjiÃłnĠ": 5034,
      "yÃŃĠzhÇĲĠ": 5035,
      "nÇİiĠ": 5036,
      "jÄ«ngĠlÇĲĠ": 5037,
      "huÄģĠyuÃ¡nĠ": 5038,
      "ali": 5039,
      "eg": 5040,
      "yuÄĵĠyÇĴuĠ": 5041,
      "miÃłnĠduÃ¬Ġ": 5042,
      "esĠĠĠ": 5043,
      "shÄĵngĠjÃŃĠ": 5044,
      "mÄĽiĠguÃ³ĠdeĠ": 5045,
      "ĠwÇĴĠmenĠ": 5046,
      "ĠtÃŃĠ": 5047,
      "xiÃłĠyÄ«Ġ": 5048,
      "mÇĲĠdeĠ": 5049,
      "ĠzhÃ¬ĠshÃŃĠ": 5050,
      "ĠzÃłiĠxÄ«Ġ": 5051,
      "ĠlÃ¬ĠshÇĲ": 5052,
      "nÇļĠzÇĲ": 5053,
      "ĠshÃ¨ĠjÃŃĠ": 5054,
      "xÇĲĠhuÄģnĠ": 5055,
      "ame": 5056,
      "yÃ¬ĠniÃ¡nĠ": 5057,
      "ĠzhÃ¬ĠlÃ¬Ġ": 5058,
      "ĠzuÇĴĠ": 5059,
      "lÇĲngĠtÇĶĠ": 5060,
      "ĠshÃ¨ng": 5061,
      "yuÃ¡nĠjÃŃĠ": 5062,
      "zÄ«ĠjÄ«nĠ": 5063,
      "ĠsuÇĴĠyÇĲ": 5064,
      "zÃ²ngĠ": 5065,
      "ĠÄģiĠ": 5066,
      "ĠhÃ©ĠlÃ¡nĠ": 5067,
      "bÇİoĠchÃŃ": 5068,
      "wÃ¡nĠquÃ¡n": 5069,
      "boĠ": 5070,
      "ĠshÃŃĠÃ¨rĠ": 5071,
      "jiÇĶĠdiÃłnĠ": 5072,
      "Ġ3ĠyuÃ¨Ġ": 5073,
      "chÄĵngĠzuÃ²Ġ": 5074,
      "ĠshÃ¬ĠdÃłĠ": 5075,
      "ĠmÃŃngĠchÃ¡oĠzhÃ¨ngĠzhÃ¬ĠrÃ©nĠwÃ¹Ġ": 5076,
      "zhÃ¨ngĠmÃŃngĠ": 5077,
      "yÃ²ngĠzuÃ²Ġ": 5078,
      "Ġ2023ĠniÃ¡nĠ": 5079,
      "mÇĴu": 5080,
      "ĠjÃ¬ĠzhÄĽĠ": 5081,
      "ĠmÄĽiĠniÃ¡nĠ": 5082,
      "wÃ©nĠxiÃłnĠ": 5083,
      "ĠrÃ©nĠmÃŃn": 5084,
      "lÄĽiĠ": 5085,
      "ĠkÄģng": 5086,
      "ĠĠĠxÄ«nĠ": 5087,
      "yuÃ¡nĠzÃłiĠ": 5088,
      "ĠyuÃ¡nĠmÃŃngĠ": 5089,
      "og": 5090,
      "2009ĠniÃ¡nĠ": 5091,
      "ĠzhÅįngĠyÃºĠ": 5092,
      "ĠzhÃ¬ĠliÃ¡oĠ": 5093,
      "ĠjÄ«ĠchÄĵĠ": 5094,
      "ĠĠĠtÄģĠ": 5095,
      "26ĠniÃ¡nĠ": 5096,
      "guÄ«ĠzÃ©Ġ": 5097,
      "cÃ¡iĠliÃłoĠ": 5098,
      "sÇĶnĠshÄ«Ġ": 5099,
      "sp": 5100,
      "lÇĲĠlÃ¹nĠ": 5101,
      "dÃ²ngĠwÃ¹": 5102,
      "tÄģngĠ": 5103,
      "dÃłĠdÃ¬Ġ": 5104,
      "ĠxiÃłnĠhÃ©Ġ": 5105,
      "bÇİoĠliÃºĠ": 5106,
      "ĠqÄ«": 5107,
      "ĠĠĠyÃ³uĠ": 5108,
      "ev": 5109,
      "ĠyÃ¬ĠyÃ¬Ġ": 5110,
      "ĠshÃ²u": 5111,
      "ĠĠĠhÃ²uĠ": 5112,
      "ĠguÃ³ĠhuÃ¬Ġ": 5113,
      "ĠgÅįngĠhuÃ¬Ġ": 5114,
      "nÃ¨iĠlÃ¹Ġ": 5115,
      "Ġ2002ĠniÃ¡nĠ": 5116,
      "nÃ¡nĠjÄ«ngĠ": 5117,
      "ĠjÃ¬nĠxÃŃng": 5118,
      "ĠcuÃ¬": 5119,
      "mÃŃ": 5120,
      "2023ĠniÃ¡nĠ": 5121,
      "xiÃłĠlÃ¬ng": 5122,
      "biÇİoĠmiÃłnĠ": 5123,
      "ĠyÃ¡ng": 5124,
      "ĠĠĠjiÃ©": 5125,
      "ĠgÅįngĠchÇİngĠ": 5126,
      "ĠyuÃ¡nĠgÅįngĠ": 5127,
      "ĠshÃ¬ĠyÄ«ĠzhÇĴng": 5128,
      "ĠdÃ¬ĠyÄ«ĠcÃ¬Ġ": 5129,
      "ĠxiÃłoĠ": 5130,
      "juÃłnĠ": 5131,
      "lÇļĠxÃŃngĠ": 5132,
      "IN": 5133,
      "ate": 5134,
      "68": 5135,
      "qÇĲĠyÃ¨": 5136,
      "gÇĴngĠ": 5137,
      "wÄĵiĠjÄ«Ġ": 5138,
      "and": 5139,
      "ĠyÃºĠ196": 5140,
      "ĠchÃ©ngĠxiÃłnĠ": 5141,
      "ĠnÃ¡nĠzhÃ¬Ġ": 5142,
      "ĠhÃ©ĠgÅįngĠ": 5143,
      "ĠĠĠ2008ĠniÃ¡nĠ": 5144,
      "ent": 5145,
      "tÃłiĠrÃ©nĠ": 5146,
      "ĠyÃ¬ĠfÄģngĠmiÃłnĠ": 5147,
      "19Ġ": 5148,
      "zhÄ«ĠjiÄģnĠ": 5149,
      "ĠhÃ¡nĠguÃ³Ġ": 5150,
      "bÃ¨iĠshÃ¬ĠwÃ¨iĠ": 5151,
      "wÃ©nĠyÃ¬Ġ": 5152,
      "tÃŃĠdÃłoĠ": 5153,
      "xiÄģngĠguÄģn": 5154,
      "ĠbÇĲ": 5155,
      "ĠshÃ¬ĠhÃ²uĠ": 5156,
      "cÃ©ngĠjÄ«ng": 5157,
      "av": 5158,
      "ĠfÄģngĠ": 5159,
      "tiÄģnĠdeĠ": 5160,
      "ĠbÃ¹ĠmÃ©n": 5161,
      "ĠniÃ¡nĠshÃ¬ĠjiÃ¨Ġ": 5162,
      "diÃłnĠnÇİoĠ": 5163,
      "kÄĽĠyÇĲĠzÃłiĠ": 5164,
      "gÃ©ĠwÃ¨iĠ": 5165,
      "dÅįngĠnÃ¡nĠbÃ¹Ġ": 5166,
      "ĠxÄ«ngĠ": 5167,
      "dÃłĠwÃ¨iĠ": 5168,
      "kÅįngĠzhÅįngĠ": 5169,
      "ĠguÃ³ĠfÃ¡ng": 5170,
      "jÄ«nĠshÇĶĠ": 5171,
      "ĠlÃŃĠ": 5172,
      "zhÃ¹ĠlÇĲĠ": 5173,
      "16ĠniÃ¡nĠ": 5174,
      "kÇĴngĠbÃ¹Ġ": 5175,
      "zuÃ²ĠyÃ²ngĠ": 5176,
      "dÃłiĠlÇĲĠ": 5177,
      "tÅįngĠdÃłoĠ": 5178,
      "ĠcÃ¡oĠ": 5179,
      "qÃŃĠzhÅįngĠyÄ«ĠzhÇĴngĠ": 5180,
      "mÃ¡ngĠ": 5181,
      "ĠmÃłnĠ": 5182,
      "zuÃ²ĠwÃ¨iĠ": 5183,
      "suÇĴĠzÃłiĠ": 5184,
      "liÃºĠzÃłiĠ": 5185,
      "31": 5186,
      "ĠzhÃ¨ng": 5187,
      "shÇĴuĠjÄ«Ġ": 5188,
      "lÃ¬ĠwÃ¨iĠ": 5189,
      "shÅ«ĠjÃŃĠ": 5190,
      "ĠÃ©rĠchÃ©ngĠ": 5191,
      "ĠĠĠin": 5192,
      "yÇĴuĠzÃłiĠ": 5193,
      "2013ĠniÃ¡nĠ": 5194,
      "gÃ¹ĠwÃ¨nĠ": 5195,
      "Ġ000Ġ": 5196,
      "ĠzhÅįngĠdeĠ": 5197,
      "shÇİng": 5198,
      "jÃ¬ngĠdeĠ": 5199,
      "yÇĲnĠqÇĲĠ": 5200,
      "44": 5201,
      "yÇĲĠxiÃłĠ": 5202,
      "yÇĲngĠpiÃłn": 5203,
      "bÅįĠlÃ¡n": 5204,
      "jÃ¬nĠyÃŃĠbÃ¹Ġ": 5205,
      "50ĠniÃ¡nĠ": 5206,
      "dÃłĠlÃ¹ĠdeĠ": 5207,
      "ĠxÄ«ĠwÃłng": 5208,
      "chÃ©ngĠniÃ¡nĠ": 5209,
      "kuÃŃ": 5210,
      "yÇİnĠyÃ¬Ġ": 5211,
      "ĠzhÃ¨nĠ": 5212,
      "qiÇİn": 5213,
      "menĠdeĠ": 5214,
      "ew": 5215,
      "ĠlÇĲ": 5216,
      "zhÇĶĠdeĠ": 5217,
      "jÄ«ĠhÃ©Ġ": 5218,
      "huÃ¬ĠshÃ¬Ġ": 5219,
      "kuÄģngĠ": 5220,
      "tÃ¨ĠshÅ«Ġ": 5221,
      "tÅįngĠchÄĵĠ": 5222,
      "ci": 5223,
      "ĠjiÄģoĠ": 5224,
      "ĠzÃłiĠ198": 5225,
      "ĠjiÃ©ĠzhÃ¬Ġ": 5226,
      "tÇİoĠlÃ¹nĠ": 5227,
      "jiÄģngĠhuÃ¬Ġ": 5228,
      "ĠzuÃ²ĠwÃ©i": 5229,
      "Ġ7Ġ": 5230,
      "ĠyÇĴuĠjÄ«Ġ": 5231,
      "Ġ2001ĠniÃ¡nĠrÃ©nĠkÇĴuĠ": 5232,
      "zhÄģoĠhÃ©Ġ": 5233,
      "wÃºĠfÇİ": 5234,
      "ĠxiÄģngĠguÄģnĠ": 5235,
      "ĠtÃ©ngĠ": 5236,
      "zhÃłoĠkÄģiĠ": 5237,
      "dÃłoĠlÃ¹Ġ": 5238,
      "ĠdÃłoĠdÃ¡Ġ": 5239,
      "ĠfÃ¹ĠzÃ©": 5240,
      "chÃ¡ngĠdeĠ": 5241,
      "yÇĲnĠqÇĲ": 5242,
      "ĠzÃ¬ĠjÇĲĠdeĠ": 5243,
      "ĠbÄĽiĠqÇĲĠ": 5244,
      "sÇĲĠhÃ²uĠ": 5245,
      "ĠtÄģĠyÄĽĠ": 5246,
      "wÃ¡ngĠchÃ¡oĠ": 5247,
      "In": 5248,
      "shÄģo": 5249,
      "ĠshÃ¬ĠwÄĵiĠ": 5250,
      "STĠ": 5251,
      "sÄ«ĠlÃ¬Ġ": 5252,
      "ĠyÃºĠlÃ¨Ġ": 5253,
      "ĠzhÅįngĠguÃ³ĠdÃłĠlÃ¹Ġ": 5254,
      "yÃłĠlÃ¬ĠshÄģnĠdÃłĠ": 5255,
      "ĠyÇĲĠbÃ¨iĠ": 5256,
      "ĠÃ©Ġ": 5257,
      "ĠcuÄ«Ġ": 5258,
      "ĠyÄ«ngĠyÇĶĠ": 5259,
      "zhÃŃĠmÃŃn": 5260,
      "jÅ«ĠmÃŃn": 5261,
      "zhÇĶĠlÃ¬Ġ": 5262,
      "ĠpÃŃngĠmiÃłnĠ": 5263,
      "mÃ¡Ġ": 5264,
      "ĠhÃ³ng": 5265,
      "nÃŃĠkÃ¨Ġ": 5266,
      "dÃ¬ĠÃ¨rĠ": 5267,
      "ĠtÄģĠwÃ¨iĠ": 5268,
      "Ġà": 5269,
      "jÃ¹ĠlÃ¨ĠbÃ¹Ġ": 5270,
      "chÄĵĠdeĠ": 5271,
      "ĠzhÄ«ĠjiÄģn": 5272,
      "Ġ2000ĠniÃ¡nĠ": 5273,
      "ĠxiÃłnĠdeĠyÃŃĠgÃ¨Ġ": 5274,
      "per": 5275,
      "2024ĠniÃ¡nĠ": 5276,
      "ĠbÃ¹ĠbÃ¹Ġ": 5277,
      "ĠzÃłiĠwÃ¨iĠ": 5278,
      "jÄ«nĠpÃ¡iĠ": 5279,
      "ĠfÃ¡nĠ": 5280,
      "neĠ": 5281,
      "yÃ¹nĠzuÃ²Ġ": 5282,
      "lÇľĠshÄ«Ġ": 5283,
      "guÇİngĠfÃłn": 5284,
      "ĠĠĠ2025ĠniÃ¡nĠ": 5285,
      "ĠwÃ¹Ġ": 5286,
      "jiÄģoĠhuÃ¬Ġ": 5287,
      "ĠÃ©rĠyÃ¡nĠ": 5288,
      "yÃłoĠwÃ¹Ġ": 5289,
      "1ĠĠĠ": 5290,
      "zhuÅįĠ": 5291,
      "shÇĴuĠgÃ¨Ġ": 5292,
      "tuÃ¬ĠchÅ«Ġ": 5293,
      "ĠxiÃłnĠdeĠyÃŃĠgÃ¨": 5294,
      "ĠxuÄģnĠbÃ¹Ġ": 5295,
      "cÃ¬ĠshÇĲĠ": 5296,
      "bÅįĠlÃ¡nĠ": 5297,
      "ang": 5298,
      "suÅį": 5299,
      "ĠsÄ«ĠtÃ¨": 5300,
      "ĠkÃ¨ĠchÃ©ngĠ": 5301,
      "wÇĴĠmenĠ": 5302,
      "ĠlÃ¡iĠzÃ¬Ġ": 5303,
      "jÇĲĠgÃ¨Ġ": 5304,
      "ĠyÇĴuĠyÃ¬Ġ": 5305,
      "yÄĽĠhuÃ¬Ġ": 5306,
      "jÄ«nĠhuÃ¬Ġ": 5307,
      "fÄĵiĠzhÅįuĠ": 5308,
      "AR": 5309,
      "biÃłnĠdÃ©Ġ": 5310,
      "ĠshÃŃĠyÃłnĠ": 5311,
      "ĠĠĠ2009ĠniÃ¡nĠ": 5312,
      "fÃ©i": 5313,
      "dÅįngĠbÄĽiĠbÃ¹Ġ": 5314,
      "Ġ0Ġ": 5315,
      "ĠĠĠxiÃłĠ": 5316,
      "Ġ2003ĠniÃ¡nĠ": 5317,
      "ĠxÄ«ĠsÄ«Ġ": 5318,
      "ĠlÃ©iĠ": 5319,
      "fÃºĠyÃ¬Ġ": 5320,
      "dÄģngĠshÃŃĠdeĠ": 5321,
      "chuÃ¡ng": 5322,
      "mÃ¹ĠbiÄģo": 5323,
      "bÅįĠfÃłngĠ": 5324,
      "ĠÃ©rĠshuÇĲĠyÃ¹ĠmiÃłnĠjÄ«ĠwÃ¨iĠ0": 5325,
      "ãĥ»": 5326,
      "HĠ": 5327,
      "ÃĹ": 5328,
      "ĠguÃ³ĠjiÄģĠdeĠ": 5329,
      "ÃłoĠdÃłĠlÃ¬ĠyÃłĠ": 5330,
      "jÃ¹ĠhÃ©Ġ": 5331,
      "ĠshÃ¬ĠjiÄģĠ": 5332,
      "ĠshÃ¬ĠyÇĶĠ": 5333,
      "zÃ¬ĠyÃ³u": 5334,
      "gÃ²uĠzÃłoĠ": 5335,
      "zhuÄģngĠjiÇİĠ": 5336,
      "bÄĽnĠdÃ¬Ġ": 5337,
      "yÃłĠzhÅįu": 5338,
      "ĠzhÄ«ĠwÃ¨iĠ": 5339,
      "ĠbÃ¬ngĠjiÄģngĠ": 5340,
      "kÄĵng": 5341,
      "xiÃłoĠdeĠ": 5342,
      "Ġ30Ġ": 5343,
      "ĠhÃ©ĠqÃŃĠtÄģĠ": 5344,
      "ĠchÄĵngĠwÃ©iĠ": 5345,
      "biÄģnĠjÃ¹Ġ": 5346,
      "jÃ¹ĠjuÃ©Ġ": 5347,
      "ĠchÃ©ngĠrÃ¨nĠ": 5348,
      "suÃ¬ĠshÃŃĠ": 5349,
      "ĠchÃ©ngĠxÃ¹Ġ": 5350,
      "fÄĽn": 5351,
      "ĠbÃ¹ĠdÃ©": 5352,
      "gÄģoĠsÃ¹Ġ": 5353,
      "shÄ«ĠbÃłiĠ": 5354,
      "ĠqiÃ¡oĠ": 5355,
      "fÃ¹ĠqÄ«n": 5356,
      "ĠjiÃłnĠzÃłoĠ": 5357,
      "bÄģĠlÃŃ": 5358,
      "huÃ²ĠdÃ©ĠleĠ": 5359,
      "huÄģnĠyÃŃngĠ": 5360,
      "ff": 5361,
      "zhuÄģngĠshÃ¬Ġ": 5362,
      "yÇİnĠchÃłngĠ": 5363,
      "ĠjÃ¬nĠxÃŃngĠleĠ": 5364,
      "ĠfÇİn": 5365,
      "qiÄĵĠ": 5366,
      "Ġr": 5367,
      "32": 5368,
      "ĠtÃºn": 5369,
      "ĠjiÃ¨Ġ": 5370,
      "ĠyÃºĠ195": 5371,
      "guÄģnĠbÃ¬Ġ": 5372,
      "ĠfÃ¹ĠqÄ«nĠ": 5373,
      "ĠjiÃ©ĠguÇĴĠ": 5374,
      "cÄģnĠmÃ³uĠ": 5375,
      "ĠÃ©rĠgÄģiĠdÃ¬Ġ": 5376,
      "fÇİĠyuÃłn": 5377,
      "ĠqiÃºĠyuÃ¡nĠ": 5378,
      "cÇİo": 5379,
      "ĠchÃ¬Ġ": 5380,
      "ĠĠĠchÃ©ngĠ": 5381,
      "jiÃłnĠyÃ¬Ġ": 5382,
      "xiÄģnĠshÄĵngĠ": 5383,
      "ĠbÃ¹ĠlÄģĠ": 5384,
      "bÃ³ĠwÃ¹ĠguÇİn": 5385,
      "ĠĠĠw": 5386,
      "ĠdeĠjiÄģĠ": 5387,
      "yÃ¬ĠdÃłĠlÃ¬Ġ": 5388,
      "ĠzhÃłnĠdÃ²uĠ": 5389,
      "mÃ¡oĠzÃ©Ġ": 5390,
      "64": 5391,
      "sÃłĠsÄ«Ġ": 5392,
      "ĠyÄ«ĠjÃŃĠ": 5393,
      "ĠbÃ¬ngĠyÇĶĠ": 5394,
      "mÃ²ĠxÄ«ĠgÄĵĠ": 5395,
      "ĠhÄĽnĠ": 5396,
      "ĠdÃłĠlÃ¹Ġ": 5397,
      "gÇĶĠfÃ¨n": 5398,
      "biÇİoĠdÃ¡": 5399,
      "ĠwÃ¨iĠyÇĴuĠ": 5400,
      "jiÄģĠrÃ¹": 5401,
      "ĠwÃ¨iĠlÃ¡iĠ": 5402,
      "ĠzhÄ«ĠdeĠ": 5403,
      "ĠguÄģnĠyÃºĠ": 5404,
      "ĠxiÃłnĠyÃºĠ": 5405,
      "ĠzhÅįngĠgÃ²ngĠzhÅįngĠyÄģngĠ": 5406,
      "ed": 5407,
      "jiÃ©ĠguÇĴ": 5408,
      "ĠdÃºĠ": 5409,
      "luÃ³ĠdÃ¬Ġ": 5410,
      "jÇĲnĠjÃŃĠ": 5411,
      "qÇĲngĠqiÃºĠ": 5412,
      "hÃ³ngĠsÃ¨Ġ": 5413,
      "ĠliÃ¡ngĠ": 5414,
      "quÃ¨ĠrÃ¨nĠ": 5415,
      "shÅįuĠshÃ¬Ġ": 5416,
      "jÃ¬ĠxÃ¹Ġ": 5417,
      "jÇĲngĠfÄģngĠ": 5418,
      "ĠĠĠcÃ³ngĠ": 5419,
      "ĠjiÄģĠzÃºĠ": 5420,
      "ĠfÃ¹ĠqÄ«n": 5421,
      "sÃłĠÄĽrĠ": 5422,
      "ĠjÃ¬nĠgÅįngĠ": 5423,
      "ĠjÃ¬nĠyÃŃĠbÃ¹Ġ": 5424,
      "zhuÃ¬Ġ": 5425,
      "2007ĠniÃ¡nĠ": 5426,
      "ĠbÇİiĠ": 5427,
      "kÇİoĠlÇľ": 5428,
      "oh": 5429,
      "ĠnÃł": 5430,
      "35Ġ": 5431,
      "tÇİnĠkÃ¨Ġ": 5432,
      "ĠguÇİngĠ": 5433,
      "chÇİngĠhÃ©Ġ": 5434,
      "ĠyÃ¬ĠmÄĽiĠyuÃ¡nĠ": 5435,
      "huÇĴĠshÄģnĠ": 5436,
      "us": 5437,
      "ĠsÄ«ĠkÃ¨Ġ": 5438,
      "shÄĵnĠtÇĲĠ": 5439,
      "mÃ¡": 5440,
      "ĠchÃ¡": 5441,
      "mÇĶĠqÄ«n": 5442,
      "gÅ«ĠjÃ¬Ġ": 5443,
      "biÄģnĠdeĠ": 5444,
      "huÇĴĠjiÃłnĠ": 5445,
      "hÇİiĠÃłnĠ": 5446,
      "tÃłiĠpÃŃngĠyÃ¡ng": 5447,
      "ĠjÃ¬ĠshÃ¹": 5448,
      "ĠsÇĶnĠ": 5449,
      "ruÃ¬ĠdiÇİnĠ": 5450,
      "bÇĲĠlÃ¬ĠshÃŃĠ": 5451,
      "sÅįu": 5452,
      "ĠdeĠzhÃ¬Ġ": 5453,
      "zhÇİoĠdÃłoĠ": 5454,
      "âĶ": 5455,
      "juÃ©ĠduÃ¬Ġ": 5456,
      "gÃ¨ngĠduÅįĠ": 5457,
      "ĠshÃ¬ĠrÃ¬ĠbÄĽnĠ": 5458,
      "ĠyuÃ¨ĠtuÃ¡nĠ": 5459,
      "ĠyÇĲĠyÇĴuĠ": 5460,
      "guÇİngĠdÅįngĠshÄĽngĠ": 5461,
      "shÄĽ": 5462,
      "ĠzhÃ¬ĠchÃ©ngĠ": 5463,
      "shÃłngĠwÇĶĠ": 5464,
      "ĠchÅ«ĠshÄĵngĠ": 5465,
      "zhÇĴngĠzÃºĠ": 5466,
      "ĠtÃ¨ĠbiÃ©ĠshÃ¬Ġ": 5467,
      "ĠcÃ¬Ġ": 5468,
      "yÃºĠzÃłiĠ": 5469,
      "ĠshÃ¬ĠzhÃ¨ngĠ": 5470,
      "mÃŃnĠjiÄģnĠ": 5471,
      "ĠchÃ¡oĠ": 5472,
      "nÃ¨iĠyÇĴuĠ": 5473,
      "2000ĠniÃ¡nĠ": 5474,
      "wÃ¡nĠgÅįngĠ": 5475,
      "ÄģnĠpÃ¡iĠ": 5476,
      "mÃŃnĠzhÇĶĠdÇİngĠ": 5477,
      "ĠdÃłĠyuÄĵĠ": 5478,
      "ĠyuÃ¡nĠbÄĽnĠ": 5479,
      "ST": 5480,
      "jÄ«ĠchÇĶĠ": 5481,
      "hÃºĠbÄĽiĠ": 5482,
      "sÄĵnĠlÃŃnĠ": 5483,
      "nÃ¡nĠyÇĲĠ": 5484,
      "ĠzhÄ«ĠziĠ": 5485,
      "ÄģnĠnÃłĠ": 5486,
      "xÄ«ĠbÄģnĠyÃ¡": 5487,
      "zhÄĽĠzÃłiĠ": 5488,
      "ĠdÃłĠdÃłoĠ": 5489,
      "yÃ²ngĠtÃºĠ": 5490,
      "tÃ¡iĠfÄĵngĠ": 5491,
      "yÇĲnĠqÃŃngĠ": 5492,
      "dÃłiĠbiÇİoĠdÃłĠhuÃ¬Ġ": 5493,
      "ĠqÄ«ĠxÄ«ĠzÃłiĠ": 5494,
      "ĠbÃ¨iĠrÃ¨nĠwÃ©iĠshÃ¬Ġ": 5495,
      "Ã¨rĠyuÃ¨Ġ": 5496,
      "ĠpÃºĠtÃ¡oĠ": 5497,
      "ĠnÇļĠxÃ¬ngĠ": 5498,
      "tÃ¨ĠsÃ¨Ġ": 5499,
      "fÃłngĠqÃ¬Ġ": 5500,
      "ĠCh": 5501,
      "lÃ¬ĠzÃłiĠ": 5502,
      "xÃŃĠxÃ¬ng": 5503,
      "ĠmÃ²": 5504,
      "mÄĽiĠgÃ¨Ġ": 5505,
      "qÃŃngĠbÃłoĠ": 5506,
      "dÄĵngĠshÃłngĠ": 5507,
      "ĠxiÃłnĠchÇİngĠ": 5508,
      "wÃłiĠbÃ¹Ġ": 5509,
      "tiÄģnĠjÄ«nĠ": 5510,
      "Ã©ĠluÃ³ĠsÄ«": 5511,
      "ĠguÄģn": 5512,
      "ĠmÃ©ngĠ": 5513,
      "2ĠĠĠ": 5514,
      "dÄģ": 5515,
      "xiÃłoĠyuÃ¡nĠ": 5516,
      "zhÃ¨ngĠdÇİngĠ": 5517,
      "yÃ¡nĠshÄĵn": 5518,
      "huÃłi": 5519,
      "ĠtÄģĠmenĠzÃłiĠ": 5520,
      "ĠyÅįngĠyÇĴuĠ": 5521,
      "ĠdeĠzhÇĶĠ": 5522,
      "ĠshÃ¬ĠyÃ¨Ġ": 5523,
      "tÃºnĠ": 5524,
      "ï¼ħ": 5525,
      "tiÄģnĠjÄ«n": 5526,
      "ĠyÇĴuĠxiÃłnĠ": 5527,
      "ĠyuÃ¡nĠsÃ¹Ġ": 5528,
      "ĠrÃ¬ĠjÅ«n": 5529,
      "Ġ187": 5530,
      "nÃłi": 5531,
      "ĠdÃłĠduÅįĠshÃ¹Ġ": 5532,
      "suÃ¬ĠdeĠ": 5533,
      "zuÃ²ĠzhÃłnĠ": 5534,
      "mÇİĠlÃ¡iĠxÄ«ĠyÃłĠ": 5535,
      "lÃŃĠmÇĲĠ": 5536,
      "zhuÄģngĠbÃ¨iĠ": 5537,
      "kÇİoĠlÇľĠ": 5538,
      "nÇĶĠlÃ¬Ġ": 5539,
      "suÇĴĠdeĠ": 5540,
      "58": 5541,
      "xÃ¬ngĠqÃ¹Ġ": 5542,
      "ĠcÇİo": 5543,
      "jiÄģoĠliÃºĠ": 5544,
      "zhÃłngĠÃłiĠ": 5545,
      "tÇĶĠÄĽrĠqÃŃĠ": 5546,
      "ĠxiÅ«Ġ": 5547,
      "âĶĢ": 5548,
      "ĠĠĠzÄĵngĠ": 5549,
      "chÇİngĠdÃ¬Ġ": 5550,
      "lÃ³ngĠjiÄģngĠ": 5551,
      "shuÄģĠ": 5552,
      "qiÄģnĠzhÃ¬Ġ": 5553,
      "ÄģnĠzhuÄģng": 5554,
      "wÇİngĠluÃ²": 5555,
      "lÇĲngĠxiÃ¹Ġ": 5556,
      "ĠfÃ¨i": 5557,
      "ĠjÃŃĠbÄĽiĠ": 5558,
      "ÄģnĠquÃ¡n": 5559,
      "ĠchÅ«ĠlÃ¡iĠ": 5560,
      "ĠwÄĽiĠ": 5561,
      "ĠbÃ¹ĠjiÇĶ": 5562,
      "zhÃłnĠlÇĲngĠ": 5563,
      "ĠzÃłiĠqÃŃĠ": 5564,
      "ĠzhÄ«ĠdÃłoĠ": 5565,
      "bÃłnĠlÇĲĠ": 5566,
      "ĠbÃ¹ĠzÃºĠ": 5567,
      "ĠmÃ³u": 5568,
      "sÃłn": 5569,
      "ĠgÇİngĠ": 5570,
      "shÃłngĠdÃ¬Ġ": 5571,
      "lÇĲngĠshÃ¬Ġ": 5572,
      "ĠdeĠshÄĵngĠ": 5573,
      "ĠjiÃ©ĠmÃ¹Ġ": 5574,
      "lÇĲĠgÅįngĠ": 5575,
      "ĠjÄ«ĠbÃłi": 5576,
      "1ĠlÃ¬Ġ": 5577,
      "ĠlÇİoĠ": 5578,
      "chÃ¡ngĠjiÃłnĠdeĠ": 5579,
      "dÇİoĠdÃłnĠ": 5580,
      "gÄĵĠlÃºnĠ": 5581,
      "mÃ¬ĠmÃ¬Ġ": 5582,
      "ĠqÄ«ngĠchÃ¡oĠ": 5583,
      "ĠhÃ¨Ġ": 5584,
      "wÃ¨iĠĠĠ": 5585,
      "3ĠgÃ¨Ġ": 5586,
      "guÃ¬ĠzhÅįuĠ": 5587,
      "chuÃ¡nĠshuÅįĠ": 5588,
      "nÃ³ngĠyÃ¨": 5589,
      "ceĠĠĠ": 5590,
      "ĠyÃ¬ĠyuÃłn": 5591,
      "mÃŃngĠzÃ¬Ġ": 5592,
      "zhÃŃĠdÇİoĠ": 5593,
      "fÇİĠguÄģnĠ": 5594,
      "ĠpÃ¡ngĠ": 5595,
      "ĠjÄ«ngĠjÃ¬Ġ": 5596,
      "mÃŃngĠzhÃ¬Ġ": 5597,
      "ĠhÃ©ĠshÃŃĠ": 5598,
      "ĠchÃ©ngĠdÃ¹Ġ": 5599,
      "jÃ¬nĠxÃŃngĠleĠ": 5600,
      "ĠĠĠIn": 5601,
      "ĠzhÅįngĠshÃ¬Ġ": 5602,
      "nÃ©ngĠzÃłiĠ": 5603,
      "huÃ¡ĠshÃ¨ngĠ": 5604,
      "shÃ²uĠdÃło": 5605,
      "xiÅ«ĠzhÃ¨ngĠ": 5606,
      "bÇĲĠyÃł": 5607,
      "ĠfÃ¡ngĠ": 5608,
      "rÃ¨nĠshÃŃĠ": 5609,
      "xÇĲĠjÃ¹Ġ": 5610,
      "ĠgÅįngĠzhÇĶĠ": 5611,
      "xÃŃĠxÃ¬ngĠbÃ¹ĠmÃŃngĠ": 5612,
      "cĠ": 5613,
      "dÃ¨ngĠ": 5614,
      "bÇĲng": 5615,
      "hÇİn": 5616,
      "diÃłnĠzi": 5617,
      "rÃ¨nĠmÃ¬ngĠwÃ¨iĠ": 5618,
      "ĠchÅ«ĠqÄ«Ġ": 5619,
      "quÃ¡nĠzhÇİngĠ": 5620,
      "qiÃ³ngĠ": 5621,
      "45Ġ": 5622,
      "Ġ8Ġ": 5623,
      "2006ĠniÃ¡nĠ": 5624,
      "asĠĠĠ": 5625,
      "shÄĵngĠchÃ©ngĠ": 5626,
      "zhÇĶĠshÃ¬Ġ": 5627,
      "ĠyÇĴuĠxiÄĵĠ": 5628,
      "ĠsÄ«ĠtÇİn": 5629,
      "ĠĠĠmÄĽiĠguÃ³Ġ": 5630,
      "chÇĴuĠ": 5631,
      "biÃłnĠwÃ¨iĠ": 5632,
      "Ġ186": 5633,
      "shÃ¨ĠzhÃ¬Ġ": 5634,
      "tÃ¡iĠbÄĽiĠshÃ¬Ġ": 5635,
      "ĠshÄĵngĠhuÃ³ĠxÃŃĠxÃ¬ngĠbÃ¹ĠmÃŃngĠ": 5636,
      "ĠĠĠxiÃłn": 5637,
      "tÃŃĠchÅ«": 5638,
      "jÄ«ngĠyÃłnĠ": 5639,
      "ĠxiÃłng": 5640,
      "dÃ¬ĠzÃłiĠ": 5641,
      "niÃ¨": 5642,
      "ĠtÄģĠhÃ¡iĠ": 5643,
      "bÃłoĠfÄģ": 5644,
      "miÇİnĠdiÄģnĠ": 5645,
      "ĠpÃ¨i": 5646,
      "ĠzhuÇİnĠ": 5647,
      "ĠbÃ¹ĠluÃ²Ġ": 5648,
      "ĠyÃ¬ĠqÇĲ": 5649,
      "ĠjÃ¹ĠyÇĴuĠ": 5650,
      "hÄĽnĠdÃłĠ": 5651,
      "ĠjÃ¬ĠsuÃłnĠ": 5652,
      "ĠtÄģngĠ": 5653,
      "piÃłoĠfÃ¡ngĠ": 5654,
      "cÄģoĠzuÃ²Ġ": 5655,
      "ĠhÃ©ĠhÃ©Ġ": 5656,
      "zhÃ¬ĠzhÅįngĠ": 5657,
      "pÃŃngĠlÃ¹nĠ": 5658,
      "ĠgÄģnĠ": 5659,
      "jÃ¬ĠshÃ¬Ġ": 5660,
      "sÃłiĠzhÅįngĠ": 5661,
      "kÃ²uĠ": 5662,
      "ĠĠĠCh": 5663,
      "ĠhuÃŃĠ": 5664,
      "huÃłĠhÃ©ĠwÃ¹Ġ": 5665,
      "pÃ¡ng": 5666,
      "sÄģnĠshÃ¬Ġ": 5667,
      "ĠÃ©rĠbÃºĠshÃ¬Ġ": 5668,
      "hÇİiĠwÃłiĠ": 5669,
      "ĠcÄģnĠjiÄģĠ": 5670,
      "ĠshÃŃĠdÃłi": 5671,
      "zhÃŃĠjiÄĵ": 5672,
      "dÄģngĠxuÇİnĠ": 5673,
      "tÃŃĠgÅįngĠleĠ": 5674,
      "tuÃ²Ġ": 5675,
      "liÇİnĠ": 5676,
      "bÃłoĠlÃ¬Ġ": 5677,
      "ĠcÃ¬ĠniÃ¡nĠ": 5678,
      "im": 5679,
      "ĠyuÄĵĠhÃłnĠ": 5680,
      "mÃŃngĠrÃ©nĠ": 5681,
      "ĠzÃłiĠcÇĲ": 5682,
      "ĠyÄ«ĠxuÃ©Ġ": 5683,
      "shÃłngĠyÃ¬ngĠ": 5684,
      "zhÇĶĠyÃ¬ĠdeĠ": 5685,
      "shÅ«ĠrÃ¹Ġ": 5686,
      "zÄ«ĠchÇİnĠ": 5687,
      "sÄģĠ": 5688,
      "99": 5689,
      "veĠĠĠ": 5690,
      "ĠwÃ¨iĠxÄ«ngĠ": 5691,
      "ĠĠĠ2007ĠniÃ¡nĠ": 5692,
      "jiÄģĠlÃ¬ĠfÃºĠ": 5693,
      "ĠĠĠlÇĲĠ": 5694,
      "mÇİĠlÇĲĠ": 5695,
      "ĠzÃłiĠnÃ¨iĠdeĠ": 5696,
      "ĠyÇĴuĠyÃŃĠgÃ¨Ġ": 5697,
      "ĠchÇĶĠyÃºĠ": 5698,
      "quÄĵ": 5699,
      "zhuÃłn": 5700,
      "co": 5701,
      "zhÃ¬ĠbÃ¹Ġ": 5702,
      "ĠxiÃłnĠxiÃłngĠ": 5703,
      "tÃłiĠziĠ": 5704,
      "ĠgÃ²ng": 5705,
      "fÇİĠyÇĶĠ": 5706,
      "ĠyÄĽĠjiÃ¹ĠshÃ¬Ġ": 5707,
      "ĠĠĠandĠĠĠ": 5708,
      "bÄ«nĠhÇİiĠ": 5709,
      "ĠzÃłiĠdÃ¹Ġ": 5710,
      "ĠÃ©rĠbÃ¹Ġ": 5711,
      "tÃ³uĠzÄ«": 5712,
      "yuÃłnĠshÃ¬Ġ": 5713,
      "jiÃłĠgÃ©Ġ": 5714,
      "ĠĠĠcÇĲĠwÃłiĠ": 5715,
      "chuÃłngĠjiÃłnĠ": 5716,
      "tuÄ«ĠjÃ¬nĠ": 5717,
      "shÃ¹nĠlÃ¬Ġ": 5718,
      "zuÃ¬ĠgÄģo": 5719,
      "ĠdÅįngĠnÃ¡nĠ": 5720,
      "ĠĠĠqÃŃĠ": 5721,
      "jiÄĽĠsÃłnĠ": 5722,
      "lÃ©iĠsÄ«Ġ": 5723,
      "shÃ©nĠmeĠ": 5724,
      "zÃ©ĠrÃ¨nĠ": 5725,
      "ĠshÃ¬ĠfÇĴuĠ": 5726,
      "ruÇİnĠjiÃłnĠ": 5727,
      "ĠyÃ³uĠqÃŃĠshÃ¬Ġ": 5728,
      "xÃºnĠyÃ¡ng": 5729,
      "ĠgÄĵnĠjÃ¹": 5730,
      "ĠxÃŃngĠzhÃ¨ng": 5731,
      "ĠmÇĴuĠ": 5732,
      "wÇİngĠqiÃºĠ": 5733,
      "guÄģnĠdiÇİnĠ": 5734,
      "kÅ«n": 5735,
      "ĠjÄ«ng": 5736,
      "zhÃ¨ngĠjÃ¹Ġ": 5737,
      "lÃ¹nĠwÃ©nĠ": 5738,
      "lÃłi": 5739,
      "gÃ¨ĠzhÇĴngĠ": 5740,
      "ĠliÃ¨Ġ": 5741,
      "189": 5742,
      "ĠdÃłĠshÃł": 5743,
      "fÄģngĠmiÃłnĠdeĠ": 5744,
      "ĠhÃ©ĠbÃ¹Ġ": 5745,
      "ĠshÄĵngĠzhÇİng": 5746,
      "ĠgÃ²ngĠyÇĴuĠ": 5747,
      "yÃºĠdeĠ": 5748,
      "yÄ«ngĠgÄģiĠ": 5749,
      "yÃ¬ngĠyÃ²ng": 5750,
      "jiÃłoĠshÃ¬Ġ": 5751,
      "yÄ«ngĠlÇĲĠ": 5752,
      "biÇİoĠdÃ¡Ġ": 5753,
      "pÃ¡iĠmÃŃngĠdÃ¬Ġ": 5754,
      "ĠbÃ³": 5755,
      "qiÇİoĠ": 5756,
      "bÇİnĠbÄĽn": 5757,
      "80Ġ": 5758,
      "ĠgÄģo": 5759,
      "yÃ¡ngĠshÃ¬Ġ": 5760,
      "gÃ²uĠmÇİiĠ": 5761,
      "AM": 5762,
      "ĠcÄģnĠ": 5763,
      "dÃłĠzhÃ¬Ġ": 5764,
      "rÃ©nĠdÃłĠ": 5765,
      "ĠĠĠf": 5766,
      "pÃłiĠdeĠ": 5767,
      "ari": 5768,
      "ĠdÃ©ĠÄĽrĠ": 5769,
      "ĠhÃ²uĠxuÇİnĠrÃ©nĠ": 5770,
      "ĠgÃ©": 5771,
      "quÄĵĠfÃ¡Ġ": 5772,
      "ĠĠĠÄģĠ": 5773,
      "67": 5774,
      "Ġ20": 5775,
      "zhÃ¨ĠlÇĲĠ": 5776,
      "ĠrÃ¬ĠbÃłoĠ": 5777,
      "jiÃ¹ĠdÃº": 5778,
      "ĠAĠ": 5779,
      "fÃłnĠwÃ©iĠnÃ¨iĠ": 5780,
      "pÅįĠ": 5781,
      "ĠzhÃłnĠdÃ²u": 5782,
      "ĠshÄĵngĠchÇİn": 5783,
      "lÇĲngĠdÃ¬Ġ": 5784,
      "bÃºĠ": 5785,
      "ĠyÃºĠrÃ©nĠ": 5786,
      "ĠĠĠqiÃ¡nĠ": 5787,
      "ĠhÃ©ĠdÃłĠ": 5788,
      "hÇİiĠxiÃ¡Ġ": 5789,
      "ĠĠĠjÃ¹ĠqÃŃngĠ": 5790,
      "xiÄģngĠshÃ¬ĠdÃ¬Ġ": 5791,
      "ĠxiÃł": 5792,
      "bÃłoĠgÃło": 5793,
      "tionĠ": 5794,
      "xÃŃngĠchÃ©ngĠ": 5795,
      "fÄģĠxÃŃngĠdeĠ": 5796,
      "pÇĶĠbiÃłnĠ": 5797,
      "ĠshÇĲĠjiÃłnĠyÃºĠ": 5798,
      "fÄĵngĠwÃ¨iĠ": 5799,
      "xiÄģngĠdÄģng": 5800,
      "ĠsÄģiĠ": 5801,
      "ĠĠĠxiÃłnĠ": 5802,
      "ĠyÃŃnĠ": 5803,
      "ĠxÄ«ĠlÃłĠ": 5804,
      "dÃºĠlÃ¬ĠdeĠ": 5805,
      "ĠtiÄģn": 5806,
      "ĠtÄģĠhÃ©Ġ": 5807,
      "ĠlÇĲĠlÃ¹n": 5808,
      "ĠzhÄ«ĠfÃ¹Ġ": 5809,
      "ack": 5810,
      "gÄģoĠsÃ¹ĠgÅįngĠlÃ¹Ġ": 5811,
      "Ã©ĠguÃ³Ġ": 5812,
      "yuÄģnĠ": 5813,
      "ĠdeĠfÄģngĠshÃ¬Ġ": 5814,
      "hÃ¨ĠÄĽrĠ": 5815,
      "ĠmÃ¨ng": 5816,
      "Ġ2024ĠniÃ¡nĠ": 5817,
      "ĠsuÃ¬Ġ": 5818,
      "ĠshÃ¬ĠgÃ¹Ġ": 5819,
      "chÅ«ĠshÄĵngĠyÃºĠ": 5820,
      "lay": 5821,
      "ĠzhÅįngĠbÃ¨iĠ": 5822,
      "ÄģnĠhuÄ«Ġ": 5823,
      "jÃ¹ĠdÃłĠ": 5824,
      "bÃ¡Ġ": 5825,
      "wÄĵnĠdÃ¹Ġ": 5826,
      "jÃ¬ĠchÃ©ngĠ": 5827,
      "ĠdÃ©ĠhuÃ¡Ġ": 5828,
      "ĠgÄģngĠ": 5829,
      "mÇİĠÄĽrĠ": 5830,
      "ĠzhÃ¬ĠshÇİoĠ": 5831,
      "ĠyÄ«ĠxiÇİoĠshÃŃĠ": 5832,
      "fÄģngĠyÃ¡nĠ": 5833,
      "pÃ¡iĠhÃ¡ngĠ": 5834,
      "jÇĲngĠchÃ¡": 5835,
      "nĠshÃŃĠ": 5836,
      "ãģ": 5837,
      "nÃ¨iĠgÃ©Ġ": 5838,
      "jiÃ¨ĠshÃłoĠ": 5839,
      "yÃŃĠdÃ¹Ġ": 5840,
      "ĠdÃłĠxÄ«ĠyÃ¡ngĠ": 5841,
      "ĠbÄģnĠ": 5842,
      "jiÃ©ĠdeĠ": 5843,
      "juÃ©ĠyÃ¬Ġ": 5844,
      "ĠqÃŃĠzÃłiĠ": 5845,
      "dÇİngĠyuÃ¡nĠ": 5846,
      "ĠyÇĴuĠxiÃłoĠ": 5847,
      "ĠzuÃ²ĠjiÄģĠ": 5848,
      "yÃŃĠdÃ¬ngĠ": 5849,
      "chÅ«ĠshÄĵnĠ": 5850,
      "ĠzuÃ¬ĠgÄģoĠ": 5851,
      "sÅ«n": 5852,
      "qÅ«ĠyÃ¬ĠhuÃ¬Ġ": 5853,
      "lÃ¹ĠyÃ¬ĠsÄ«Ġ": 5854,
      "cÃ¬ĠdeĠ": 5855,
      "huÃłnĠchÃ©ngĠ": 5856,
      "ĠdÃłĠfÃºĠ": 5857,
      "cÇİiĠqÇĶĠ": 5858,
      "ast": 5859,
      "ĠĠĠ4": 5860,
      "xiÃłnĠzhÃ¬Ġ": 5861,
      "zuÃ²ĠshÃ¬Ġ": 5862,
      "zhÃ²ngĠduÅįĠ": 5863,
      "yÄ«ngĠxiÃ³ngĠ": 5864,
      "ĠdÅįngĠlÃŃnĠ": 5865,
      "liÇİngĠmÃŃngĠ": 5866,
      "xÇĲngĠ": 5867,
      "ĠxiÃłnĠshÃ¬Ġ": 5868,
      "ĠbÄĽiĠjÄ«ngĠ": 5869,
      "arĠ": 5870,
      "ĠchÅ«ĠzhÃłnĠ": 5871,
      "ĠĠĠdÃ¬ĠfÄģngĠ": 5872,
      "ĠxuÄģnĠ": 5873,
      "ĠpÃ¨iĠ": 5874,
      "bÄĽnĠrÃ©nĠ": 5875,
      "kÇİĠsÄ«Ġ": 5876,
      "ĠbÃ¬ngĠbÃ¨iĠ": 5877,
      "rÃ¹ĠxuÇİnĠ": 5878,
      "qÅ«ĠhÃ©Ġ": 5879,
      "tÃ³uĠxiÃ¡ngĠ": 5880,
      "ĠzhÅįngĠhuÃ¡ĠrÃ©nĠmÃŃnĠgÃ²ngĠhÃ©ĠguÃ³ĠzhÃ¨ngĠzhÃ¬ĠrÃ©nĠwÃ¹Ġ": 5881,
      "ĠsÅ«": 5882,
      "shÃ¨ĠqÅ«Ġ": 5883,
      "ĠtÃ²uĠguÃ²Ġ": 5884,
      "ĠĠĠm": 5885,
      "zuÇĲĠ": 5886,
      "diÃłnĠhuÃłĠ": 5887,
      "zuÃ¬ĠduÅįĠ": 5888,
      "tÃ¡nĠpÃłnĠ": 5889,
      "fÇİngĠwÃ¨n": 5890,
      "ĠlÃ¬ngĠyÄ«Ġ": 5891,
      "ĠhÃłn": 5892,
      "ĠĠĠmÃŃngĠ": 5893,
      "hÃ¡nĠyÇĴuĠ": 5894,
      "nÃ¡nĠbÄĽiĠ": 5895,
      "zhÄ«ĠchÃŃ": 5896,
      "jiÇĶĠlÃ³ngĠ": 5897,
      "jiÃłngĠdÄ«Ġ": 5898,
      "kÄĵĠdeĠqÃŃĠzhÅįngĠyÄ«ĠzhÇĴngĠ": 5899,
      "ĠgÅįngĠyÃ¬Ġ": 5900,
      "ĠbÃ¬ngĠfÄĵiĠ": 5901,
      "zhÇĴngĠziĠ": 5902,
      "diÇİnĠlÇĲĠ": 5903,
      "dÃłngĠtiÄģnĠ": 5904,
      "chÃ©ngĠyuÃ¡nĠ": 5905,
      "ĠqÇĲ": 5906,
      "ĠtÇİĠ": 5907,
      "yÃłĠjÅ«nĠ": 5908,
      "ĠqÃŃĠzhÅįngĠyÄ«Ġ": 5909,
      "zhÃ¨ngĠbÃ¹Ġ": 5910,
      "kÇĴuĠwÃ¨iĠ": 5911,
      "guÃ²ĠdÃ¹Ġ": 5912,
      "qÇĲĠdÃ²ngĠ": 5913,
      "zhÄ«ĠqiÃ¡nĠ": 5914,
      "mÃ¬ĠshÅ«ĠzhÇİngĠ": 5915,
      "wÃºĠzhÃ¨ngĠzhuÃłngĠ": 5916,
      "ĠzÃłiĠcÃ¬": 5917,
      "jÄ«ĠdÅ«Ġ": 5918,
      "ĠbÃ¬ngĠdÃº": 5919,
      "70Ġ": 5920,
      "shÄģnĠshÃ¬Ġ": 5921,
      "tiÃ¡oĠlÃ¬Ġ": 5922,
      "ĠyÇĲĠjÃŃ": 5923,
      "xiÄģngĠsÃ¬Ġ": 5924,
      "Window": 5925,
      "ĠxiÃłnĠrÃ¨nĠ": 5926,
      "suÇĴĠchÃ¹ĠdeĠ": 5927,
      "id": 5928,
      "xiÄĽĠdÃłoĠ": 5929,
      "ĠyÄ«ĠtÃ³ngĠ": 5930,
      "hÄĵiĠsÃ¨Ġ": 5931,
      "od": 5932,
      "Ġ30": 5933,
      "lÃ¹ĠzhÃ¬Ġ": 5934,
      "shÃ¹ĠyÇĶĠ": 5935,
      "ĠxÃŃngĠwÃ¨iĠ": 5936,
      "yÇĶnĠxÇĶ": 5937,
      "xÄ«ngĠdÄĽngĠwÃ¨iĠ": 5938,
      "tuÃ¡nĠdeĠ": 5939,
      "ĠgÅįngĠmÃŃnĠ": 5940,
      "ĠyÇĶĠmÃ¡o": 5941,
      "liÃºĠxiÃłĠ": 5942,
      "mÇĴuĠxiÄĵĠ": 5943,
      "90Ġ": 5944,
      "bÇİnĠdeĠ": 5945,
      "mÃ¹ĠqiÃ¡n": 5946,
      "jiÄĵĠchÃ¹Ġ": 5947,
      "shÃ¨ĠshÄ«Ġ": 5948,
      "zhÄĽngĠtÇĲĠ": 5949,
      "xÄ«nĠjiÄģĠpÅįĠ": 5950,
      "ĠzÇĶĠfÃ¹Ġ": 5951,
      "huÃ¡ngĠhÃ²uĠ": 5952,
      "gÄĽiĠleĠ": 5953,
      "ĠjÄ«ĠjÄ«nĠ": 5954,
      "fÄģĠshÃ²uĠ": 5955,
      "tuÃ¬ĠxiÅ«Ġ": 5956,
      "48Ġ": 5957,
      "lÇĶĠsÄ«Ġ": 5958,
      "ĠpÄģnĠ": 5959,
      "ph": 5960,
      "ul": 5961,
      "chÃŃĠyÇĴuĠ": 5962,
      "ĠshÃ¬ĠyÃºĠ": 5963,
      "ĠtÃ³ngĠyÃ¬Ġ": 5964,
      "bÇİoĠshÇĴuĠ": 5965,
      "kÄģiĠshÇĲĠzÃłiĠ": 5966,
      "ĠÃ": 5967,
      "duÅįĠwÃ¨iĠ": 5968,
      "jÄ«ngĠchÃ¡ng": 5969,
      "fÃłnĠzuÃ¬Ġ": 5970,
      "2ĠgÃ¨Ġ": 5971,
      "dÅįuĠzÃłiĠ": 5972,
      "lÃ³ngĠdeĠ": 5973,
      "ĠgÅįngĠjÃ¹Ġ": 5974,
      "suÃŃĠzhÃ¹Ġ": 5975,
      "gÃ¨ngĠwÃ©iĠ": 5976,
      "gÅįngĠchÃ©ngĠ": 5977,
      "Ġ1998ĠniÃ¡nĠ": 5978,
      "xiÃłĠxiÃ¡ĠdeĠyÃŃĠgÃ¨Ġ": 5979,
      "ĠyÃ²ngĠyÃºĠ": 5980,
      "OS": 5981,
      "gÇĶĠdÃłiĠ": 5982,
      "ĠmÃŃngĠdÄģnĠ": 5983,
      "zhÃ¨nĠqÅ«ĠdeĠ": 5984,
      "gÇİiĠmÃŃngĠwÃ¨iĠ": 5985,
      "lÃ¡iĠyuÃ¨Ġ": 5986,
      "nÃŃĠÄĽrĠ": 5987,
      "nÃ©ngĠliÃłngĠ": 5988,
      "sÇĲĠwÃ¡ng": 5989,
      "ĠdeĠchÃ©ngĠjÃ¬Ġ": 5990,
      "Ġ1949ĠniÃ¡nĠ": 5991,
      "kÅ«Ġ": 5992,
      "ĠpÃŃngĠjÅ«nĠ": 5993,
      "ĠĠĠqÃŃĠtÄģĠ": 5994,
      "nÃ¡nĠdeĠ": 5995,
      "ĠÃ©rĠgÄģiĠ": 5996,
      "biÇİoĠyÇİn": 5997,
      "kÄĽn": 5998,
      "ĠqÄ«ĠjiÄģnĠ": 5999,
      "tiÃ¡oĠzhÄĽng": 6000,
      "bÄĽiĠjÄ«ngĠshÃ¬Ġ": 6001,
      "ik": 6002,
      "nÃ¨": 6003,
      "ĠĠĠjÃŃĠ": 6004,
      "2004ĠniÃ¡nĠ": 6005,
      "fÄĵngĠxiÇİnĠ": 6006,
      "tÅ«ĠpÃ²Ġ": 6007,
      "bÃ³ĠshÃ¬ĠxuÃ©ĠwÃ¨iĠ": 6008,
      "yuÃ¨ĠzhÅįngĠ": 6009,
      "shÄģnĠjÄ«Ġ": 6010,
      "2001ĠniÃ¡nĠ": 6011,
      "jiÃłoĠtÃ¡ng": 6012,
      "yÃ³uĠjÄ«Ġ": 6013,
      "ĠdeĠxÃŃngĠ": 6014,
      "nÇļĠxÃ¬ng": 6015,
      "guÃ¬ĠzÃºĠ": 6016,
      "ĠshÄĵngĠyÃºĠ": 6017,
      "zhÄģiĠ": 6018,
      "zÇİoĠqÄ«": 6019,
      "ĠzhÃło": 6020,
      "ĠdÃ©ĠyÇĶĠ": 6021,
      "ĠqÃŃĠhÃ²u": 6022,
      "ĠrÃ©nĠmÃŃnĠzhÃ¨ngĠfÇĶĠ": 6023,
      "wÃºĠzhÃ¨ngĠzhuÃłngĠgÇİnĠrÇİnĠ": 6024,
      "Ã¡iĠ": 6025,
      "niÃ¡ngĠ": 6026,
      "ĠhÃ©ĠpÃłnĠ": 6027,
      "shÅįuĠgÃ²uĠ": 6028,
      "ÄĵnĠshÄĽngĠ": 6029,
      "ĠyÄ«ĠzuÃ²Ġ": 6030,
      "ĠxiÇİngĠniÃ¡nĠ": 6031,
      "xuÃ©ĠhuÃ¬Ġ": 6032,
      "liÃ¡nĠxÃ¹": 6033,
      "chÃ¡ngĠwÄĽiĠ": 6034,
      "huÃ³ĠyuÃ¨Ġ": 6035,
      "chÃ¡ngĠwÃ¹Ġ": 6036,
      "hÃ¹ĠliÃ¡nĠ": 6037,
      "quÃ¨ĠzhÄĽnĠbÃ¬ngĠlÃ¬Ġ": 6038,
      "shÃ²uĠdeĠ": 6039,
      "ÄģnĠnÃł": 6040,
      "zhÇĶĠyÃłoĠdeĠ": 6041,
      "yÇĲĠjÄ«ngĠ": 6042,
      "dÄģnĠdeĠ": 6043,
      "ĠbÃ¹ĠsÄ«Ġ": 6044,
      "suÇĴĠyÇĴuĠdeĠ": 6045,
      "bÃłoĠzhÃłĠ": 6046,
      "gÃłiĠniÃłn": 6047,
      "kÃ¨ĠchÃ©ngĠ": 6048,
      "lÃ¬ngĠrÃ©nĠ": 6049,
      "shÅįuĠjÃŃĠ": 6050,
      "fÃ¹ĠzÃ©": 6051,
      "ĠmÄĽiĠgÃ¨Ġ": 6052,
      "ĠhÇİi": 6053,
      "ĠbÃ¹ĠlÃ¬Ġ": 6054,
      "guÄģnĠchÃ¡Ġ": 6055,
      "tÃŃĠjÃŃĠ": 6056,
      "ĠshÃ¬ĠmÃŃnĠ": 6057,
      "ĠwÃ¨iĠyÃºĠzhÅįngĠguÃ³Ġ": 6058,
      "sÄģiĠÄĽrĠwÃ©iĠ": 6059,
      "5ĠmÇĲĠ": 6060,
      "cÃ¡oĠ": 6061,
      "ĠyÃ¡n": 6062,
      "duÇĴ": 6063,
      "huÃ¬ĠzhÅįngĠ": 6064,
      "rÃ¨nĠwÃ¨iĠ": 6065,
      "xiÄĽĠdeĠ": 6066,
      "wÃ©iĠÄĽrĠ": 6067,
      "dÃ¬ngĠjÅ«Ġ": 6068,
      "ĠbÇĲĠrÃºĠ": 6069,
      "kÃ¹nĠnÃ¡nĠ": 6070,
      "28Ġ": 6071,
      "ĠdeĠdÃ¬ĠÃ¨rĠ": 6072,
      "ĠtÅįngĠchÃ¡ng": 6073,
      "ĠshÃ¬ĠxÄ«Ġ": 6074,
      "ĠjÃŃĠrÃ©nĠ": 6075,
      "ĠlÃ¬ĠfÇİ": 6076,
      "zhÇĶĠyÇİnĠ": 6077,
      "gh": 6078,
      "nÃº": 6079,
      "ĠchÃ©ngĠrÃ©nĠ": 6080,
      "zÃºĠqiÃºĠyÃ¹nĠdÃ²ngĠyuÃ¡nĠ": 6081,
      "ĠchuÃłngĠ": 6082,
      "xÃ¬nĠyÇİngĠ": 6083,
      "ĠtÃ³ngĠshÃŃĠgÄģiĠdÃ¬Ġ": 6084,
      "Ġ1999ĠniÃ¡nĠ": 6085,
      "ĠhÃ©ngĠ": 6086,
      "ĠjÄ«ĠsÄ«Ġ": 6087,
      "biÄģnĠjiÃ¨Ġ": 6088,
      "wÃ¡nĠzhÄĽng": 6089,
      "ĠtiÃ¡nĠ": 6090,
      "shÄĽngĠdeĠ": 6091,
      "bÄĵiĠsÄ«Ġ": 6092,
      "jiÄĽĠfÃłngĠ": 6093,
      "II": 6094,
      "huÃ¬ĠzhÃ¬Ġ": 6095,
      "ĠrÃ¬ĠyÃºĠ": 6096,
      "qiÃ¡ngĠliÃ¨Ġ": 6097,
      "zhuÄ«ĠsÃ¹": 6098,
      "dÄģngĠniÃ¡nĠ": 6099,
      "2005ĠniÃ¡nĠ": 6100,
      "ĠjÄ«ĠchÇİng": 6101,
      "ĠkÇİi": 6102,
      "ĠhÃ²uĠzhÄĽĠ": 6103,
      "ĠbÃ¬ngĠdÃºĠ": 6104,
      "nÃ¨iĠlÃ¹ĠshÄĽngĠfÃ¨nĠ": 6105,
      "kÄĵĠxuÃ©ĠjiÄģĠ": 6106,
      "tÃºĠxÃŃngĠ": 6107,
      "zhÇĶĠjiÃło": 6108,
      "nĠdeĠ": 6109,
      "ĠbÃłnĠ": 6110,
      "zhÃºĠbÃ¹Ġ": 6111,
      "ĠdÃ¬ĠsÃ¬": 6112,
      "wÃ¡Ġ": 6113,
      "ĠjÃŃĠdÃ¬Ġ": 6114,
      "ĠkÃ¨ĠxÄ«Ġ": 6115,
      "gÇĴuĠ": 6116,
      "shÄģnĠdeĠ": 6117,
      "ĠbÃ¹ĠshÇİoĠ": 6118,
      "jiÇİnĠshÇİo": 6119,
      "hÄĵngĠlÃ¬Ġ": 6120,
      "ĠhuÇĴĠ": 6121,
      "ĠnÇĲĠ": 6122,
      "suÃŃĠjÃŃĠ": 6123,
      "fÄģngĠfÇİ": 6124,
      "zuÃ¬ĠgÄģoĠdeĠ": 6125,
      "yÃłĠmÄĽiĠ": 6126,
      "liÃ¡nĠhÃ©ĠhuÃ¬Ġ": 6127,
      "xÅ«nĠzhÄģngĠ": 6128,
      "ĠzhuÄģngĠ": 6129,
      "ĠÃ¨rĠshÃŃĠ": 6130,
      "dÄģngĠzhÅįngĠ": 6131,
      "chÄģoĠyuÃ¨Ġ": 6132,
      "sÄģnĠjiÇİo": 6133,
      "liÃ¡oĠnÃŃngĠ": 6134,
      "57": 6135,
      "ĠZ": 6136,
      "Ã©rĠtÃ³ngĠ": 6137,
      "zuÃ²ĠchÅ«Ġ": 6138,
      "pÃŃngĠtÃ¡iĠ": 6139,
      "shÄģnĠqÅ«Ġ": 6140,
      "ĠxÄ«ĠbÄģnĠyÃ¡Ġ": 6141,
      "ĠjÃ¹": 6142,
      "hÇİiĠpÃŃngĠmiÃłnĠ": 6143,
      "cÃ©ngĠwÃ¨iĠ": 6144,
      "ĠzÃłiĠ197": 6145,
      "ĠshÃŃĠqÄ«ĠdeĠ": 6146,
      "ĠguÃ³ĠnÃ¨iĠ": 6147,
      "xiÃłngĠzhÄĵngĠ": 6148,
      "xiÃłĠlÃ¬ngĠshÃŃĠjiÄģnĠ": 6149,
      "ĠĠĠ1Ġ": 6150,
      "bÃ¨iĠdeĠ": 6151,
      "bÃºĠdÃłoĠ": 6152,
      "zhÇĲĠnÃ©ngĠ": 6153,
      "yÃŃĠdÃ¬ng": 6154,
      "ĠzhÃ¨ĠzhÇĴng": 6155,
      "fÄĵiĠchÃ¡ng": 6156,
      "shuÄģngĠfÄģngĠ": 6157,
      "66": 6158,
      "ĠdÃ©ĠzhÇĶĠ": 6159,
      "fÄģĠqÇĲĠ": 6160,
      "zhuÇİnĠxiÃłngĠ": 6161,
      "huÄ«ĠfÃ¹": 6162,
      "guÃ²ĠdeĠ": 6163,
      "ĠyuÃ¡nĠxÃŃngĠ": 6164,
      "shÄ«ĠqÃ¹": 6165,
      "wÇĶĠzhuÄģng": 6166,
      "ĠtÃłoĠ": 6167,
      "zÃ²ng": 6168,
      "ĠjiÇĶ": 6169,
      "shÅ«ĠzhÅįngĠ": 6170,
      "ĠjÄ«ĠhuÃ¬Ġ": 6171,
      "tÃŃĠyÃ¬Ġ": 6172,
      "zÃ¬ĠrÃ¡n": 6173,
      "tÃ¡iĠnÃ¡n": 6174,
      "jÃ¬ngĠnÃ¨iĠgÃ²ngĠyÇĴuĠ": 6175,
      "IC": 6176,
      "fÃ©nĠ": 6177,
      "ĠxÃºnĠ": 6178,
      "ĠlÃ¬ĠliÃłngĠ": 6179,
      "nÃŃĠyÃłĠzhÅįuĠ": 6180,
      "32Ġ": 6181,
      "xÃ¹ĠlÃ¬ĠyÃłĠ": 6182,
      "ĠĠĠbÃ¨iĠjÇĲngĠ": 6183,
      "ĠyÄģoĠqiÃºĠ": 6184,
      "ĠyÄ«ĠlÃ¬Ġ": 6185,
      "ĠzÃłiĠshÃŃĠ": 6186,
      "ĠgÅįngĠzhÃ²ngĠ": 6187,
      "zhÄģngĠzhuÄģnĠjÃŃĠ": 6188,
      "AC": 6189,
      "ĠwÃ²": 6190,
      "miÃ¨": 6191,
      "ĠhÃ©ĠyuÄĵĠ": 6192,
      "ĠÃ©rĠziĠ": 6193,
      "ĠĠĠ2006ĠniÃ¡nĠ": 6194,
      "cuÃ²ĠshÄ«Ġ": 6195,
      "fÃ©ng": 6196,
      "pÄ«ĠzhÇĶn": 6197,
      "ĠhÃło": 6198,
      "xiÃłnĠdeĠ": 6199,
      "pÃŃngĠwÃ¨iĠ": 6200,
      "qÄ«nĠzÃ¬Ġ": 6201,
      "ĠyÇĲĠwÃ©iĠ": 6202,
      "duÅįĠzhÇĴngĠ": 6203,
      "yÄ«ngĠgÃ©ĠlÃ¡n": 6204,
      "ĠsÅįuĠ": 6205,
      "jiÄģĠyÃ¬Ġ": 6206,
      "lÃ¡nĠdeĠ": 6207,
      "zhÇĲĠdÇİoĠ": 6208,
      "ĠwÃ¡nĠjiÄģĠ": 6209,
      "zÃ¬ĠdeĠ": 6210,
      "huÃ¬ĠyÃ¬ĠyuÃ¡nĠ": 6211,
      "fÃºĠdeĠ": 6212,
      "guÄģnĠchÃ¡": 6213,
      "ĠxuÃ©ĠyuÃłn": 6214,
      "shÄĵnĠdÃ¹Ġ": 6215,
      "ĠzuÃ¬ĠchÅ«Ġ": 6216,
      "yÄģoĠqÇĲng": 6217,
      "ĠĠĠdÃ¬ĠfÄģngĠzÄ«ĠliÃłoĠ": 6218,
      "DTĠ": 6219,
      "mÄĽngĠ": 6220,
      "ĠyÇĴuĠsuÇĴĠ": 6221,
      "gÃ²uĠdeĠ": 6222,
      "nÃ¡ĠxiÃłĠ": 6223,
      "ĠchÅ«ĠkÇĴuĠ": 6224,
      "ĠĠĠjiÇİnĠjiÃ¨Ġ": 6225,
      "luÃ³ĠlÇĲĠ": 6226,
      "dÄ«ĠyÃºĠ": 6227,
      "ĠhÃ²uĠbÃ¨iĠ": 6228,
      "nÃ¡nĠjÄ«ng": 6229,
      "ĠtÄģĠcÃ©ngĠdÃłiĠbiÇİoĠ": 6230,
      "lÃ¡iĠyÄ«nĠ": 6231,
      "ĠxuÃ©ĠjiÄģĠ": 6232,
      "ĠcÄģoĠ": 6233,
      "mÄģĠ": 6234,
      "ĠyuÄĵ": 6235,
      "duÃ²": 6236,
      "nÃ©ngĠyuÃ¡nĠ": 6237,
      "fÄģĠshÄĵngĠzÃłiĠ": 6238,
      "gÇİiĠbiÃłn": 6239,
      "ĠdÅįngĠbÄĽiĠ": 6240,
      "dÃŃĠshÃ¬Ġ": 6241,
      "ĠshÃ¬ĠyÄ«nĠwÃ¨iĠ": 6242,
      "ĠdÃ¬ĠlÇĲĠ": 6243,
      "ĠxiÃłnĠfÇİĠ": 6244,
      "dÃłĠbÃ¹Ġ": 6245,
      "lÇĲĠhÃ©Ġ": 6246,
      "tÃ¡iĠzhÅįngĠ": 6247,
      "ĠshÃŃĠxÃŃngĠ": 6248,
      "ĠchÃ©ngĠzhÃ¨nĠ": 6249,
      "cÃ¨ĠliÃ¡ngĠ": 6250,
      "jiÃłĠshÇĲĠ": 6251,
      "ĠshÃŃĠjÃ¬ĠshÃłngĠ": 6252,
      "ĠshÄĵngĠyÃ¡Ġ": 6253,
      "dÃŃĠrÃ©nĠ": 6254,
      "ĠxiÇİo": 6255,
      "shÄģngĠrÃ©nĠ": 6256,
      "ĠyÇĲĠxÄ«Ġ": 6257,
      "ĠxÄ«ĠjiÄĵĠ": 6258,
      "ÄģnĠpÃ¡i": 6259,
      "ĠĠĠ17": 6260,
      "pÃłiĠchÅ«Ġ": 6261,
      "zhÃ¹ĠzhÃ¡iĠ": 6262,
      "dÄĽngĠdÄĽngĠ": 6263,
      "Ġnu": 6264,
      "ĠzhÅįngĠguÃ³ĠrÃ©nĠmÃŃnĠjiÄĽĠfÃłngĠjÅ«nĠ": 6265,
      "jiÄģngĠzÃłiĠ": 6266,
      "ĠzhÃ¨ngĠmÃŃngĠ": 6267,
      "ER": 6268,
      "quÃ¨ĠdeĠ": 6269,
      "laĠ": 6270,
      "lÄģĠdÄ«ng": 6271,
      "ÄģnĠshÃ¬Ġ": 6272,
      "tÃŃĠchÅ«ĠdeĠ": 6273,
      "xuÇİnĠzhÅįngĠ": 6274,
      "00ĠmÇĲĠ": 6275,
      "gÃłnĠbÃ¹Ġ": 6276,
      "suÇĴĠcÇİiĠyÃ²ng": 6277,
      "ĠkÄĽnĠ": 6278,
      "ĠdÃłĠxuÃ©ĠdeĠ": 6279,
      "hÇİiĠbÃ¡ĠwÃ¨iĠ": 6280,
      "mÄĽiĠzhÅįu": 6281,
      "ĠdÃ¬ĠyÃŃĠgÃ¨Ġ": 6282,
      "ĠyÃ¬ĠqÃŃngĠ": 6283,
      "kÄģiĠtÅįngĠ": 6284,
      "ĠxiÃ©Ġ": 6285,
      "kÄģiĠshÃ¨Ġ": 6286,
      "biÄģoĠbÄĽnĠ": 6287,
      "zÃłnĠshÃŃĠ": 6288,
      "ĠdÃ¬ĠqÄ«Ġ": 6289,
      "ĠlÃ¬ĠyÃ¬Ġ": 6290,
      "chÄģiĠchÃºĠ": 6291,
      "ĠdeĠshÃ¬ĠjiÃ¨Ġ": 6292,
      "NB": 6293,
      "fÃ©iĠ": 6294,
      "xiÅ«ĠgÇİiĠ": 6295,
      "nÃ³ngĠmÃŃnĠ": 6296,
      "tÃ¡oĠtÃłiĠ": 6297,
      "zĠ": 6298,
      "ĠzhÅįngĠguÃ³ĠdeĠ": 6299,
      "jÄ«ĠgÃ²uĠ": 6300,
      "yÃ¡nĠsÃ¨Ġ": 6301,
      "chuÃ¡nĠbÅįĠ": 6302,
      "suÇĴĠzÃłiĠdÃ¬Ġ": 6303,
      "ĠdÃ©ĠmÃŃngĠ": 6304,
      "TV": 6305,
      "ĠtÃŃĠgÅįngĠ": 6306,
      "shuÇĲĠlÃ¬Ġ": 6307,
      "tÃłiĠdÃ¹Ġ": 6308,
      "tÃ³uĠpiÃło": 6309,
      "ĠshÇĶ": 6310,
      "ĠxiÇİngĠ": 6311,
      "leĠzÃłiĠ": 6312,
      "fÄģĠmÃŃngĠ": 6313,
      "ĠqÃŃĠwÃ¨iĠ": 6314,
      "wÃ©nĠdeĠ": 6315,
      "zhÅįngĠyÄģngĠ": 6316,
      "chÇİngĠsuÇĴĠ": 6317,
      "wÃ¡ngĠshÃ¬Ġ": 6318,
      "wÅ«ĠsÄ«Ġ": 6319,
      "zÄ«ĠbÄĽnĠ": 6320,
      "ÄģĠlÄģĠbÃ³": 6321,
      "78": 6322,
      "juÃ©ĠshÃ¬Ġ": 6323,
      "rÃ³ngĠhÃ©Ġ": 6324,
      "ĠrÃ¡nĠÃ©r": 6325,
      "qiÃłoĠ": 6326,
      "jiÃ¹ĠhuÃ¬Ġ": 6327,
      "xiÅ«ĠjiÃłnĠ": 6328,
      "zhÃŃĠzhÃ¨ngĠ": 6329,
      "jÇĶĠbÃłnĠdeĠ": 6330,
      "mÃ²ĠxÄ«ĠgÄĵ": 6331,
      "bÃłnĠshÃ¬ĠchÃ¹Ġ": 6332,
      "53": 6333,
      "Ġ25": 6334,
      "ĠdiÃłnĠyÇĲngĠ": 6335,
      "shuÃłi": 6336,
      "jÃ¬ngĠjÃ¬Ġ": 6337,
      "ĠqÇĶĠ": 6338,
      "ĠĠĠ2Ġ": 6339,
      "diÃłnĠjÄ«Ġ": 6340,
      "ĠmÃŃ": 6341,
      "xiÄģoĠfÃ¨iĠ": 6342,
      "ĠliÃ¹Ġ": 6343,
      "jiÃ¹ĠdÃºĠ": 6344,
      "shÄģngĠyÃ¨": 6345,
      "ĠkÇĴngĠ": 6346,
      "qÄ«ĠwÃ¨iĠ": 6347,
      "ĠyÄ«ng": 6348,
      "pÃ¨iĠzhÃ¬Ġ": 6349,
      "gÅįngĠgÃ²ngĠ": 6350,
      "zhÇİngĠdÃ¡Ġ": 6351,
      "gÃ©ĠlÄģĠ": 6352,
      "jÃ¬ngĠxuÇİnĠ": 6353,
      "56": 6354,
      "ĠhuÃ¡": 6355,
      "ĠxÃ¬Ġ": 6356,
      "qÅ«ĠshÃ¬Ġ": 6357,
      "wÃ©iĠsÄ«Ġ": 6358,
      "guÅį": 6359,
      "huÃłĠzhÅįngĠ": 6360,
      "00ĠrÃ©nĠ": 6361,
      "fÃ¹ĠzhÇĶĠrÃ¨nĠ": 6362,
      "ĠkÄģnĠ": 6363,
      "shÄģnĠfÄĵngĠ": 6364,
      "diÃłoĠkuÃłi": 6365,
      "tor": 6366,
      "ĠyÇĶĠqÃŃĠtÄģĠ": 6367,
      "jÄ«ngĠshÃ©n": 6368,
      "qiÃ¡ngĠdiÃłoĠ": 6369,
      "zhÃŃĠyÃ¨ĠshÄĵngĠyÃ¡Ġ": 6370,
      "ĠdÇİoĠ": 6371,
      "shÇĴuĠzhÅįngĠ": 6372,
      "luÇİnĠ": 6373,
      "zÃłoĠleĠ": 6374,
      "26Ġ": 6375,
      "ĠwÃ¨iĠUTCĠ": 6376,
      "ĠcnĠ": 6377,
      "ĠmÃ¡ngĠ": 6378,
      "na": 6379,
      "zhÄĽĠshÃ¬Ġ": 6380,
      "chÃ©ngĠhÃ©Ġ": 6381,
      "qiÃºĠjÃ¬Ġ": 6382,
      "ĠrÃ©nĠmen": 6383,
      "jÄ«nĠrÃ³ngĠ": 6384,
      "zÇĶĠzhÄ«ĠdeĠ": 6385,
      "shuÃłiĠlÇĲng": 6386,
      "ĠÄģi": 6387,
      "biÄģnĠhÃłoĠ": 6388,
      "diÃłoĠkuÃłiĠyÄ«ĠxiÇİoĠshÃŃĠ": 6389,
      "ĠjiÃ¹ĠshÃ¬Ġ": 6390,
      "liÃ¹ĠshÃŃĠ": 6391,
      "ĠdÃłĠjiÇİngĠ": 6392,
      "zhÃŃĠmÃŃnĠ": 6393,
      "ĠsÅ«n": 6394,
      "ĠbÄĽiĠjÄ«ng": 6395,
      "kÄĵĠxuÃ©ĠyuÃłnĠ": 6396,
      "dÃ¡ĠÄĽrĠ": 6397,
      "ĠjÃŃĠUTCĠ": 6398,
      "shÃ¨ĠyÇĴuĠxiÃłĠlÃ¬ngĠshÃŃĠjiÄģnĠ": 6399,
      "ĠdeĠshÃŃĠqÅ«ĠwÃ¨iĠUTCĠ": 6400,
      "ĠÃ©rĠgÄģiĠdÃ¬ĠsuÇĴĠcÇİiĠyÃ²ng": 6401,
      "ĠtÃ³ngĠshÃŃĠgÄģiĠdÃ¬ĠshÃ¨ĠyÇĴuĠxiÃłĠlÃ¬ngĠshÃŃĠjiÄģnĠ": 6402,
      "ĠÃ©rĠgÄģiĠdÃ¬ĠsuÇĴĠcÇİiĠyÃ²ngĠdeĠshÃŃĠqÅ«ĠwÃ¨iĠUTCĠ": 6403,
      "ĠlÃ¹": 6404,
      "zhÇİnĠlÇİnĠ": 6405,
      "ric": 6406,
      "ĠyÄ«ĠsÄ«ĠlÃ¡nĠ": 6407,
      "ĠÃ¨Ġ": 6408,
      "ĠpÃ²Ġ": 6409,
      "yuÃ¡nĠzhÃ¹Ġ": 6410,
      "ĠgÄģiĠcÅ«nĠ": 6411,
      "zhÇĶĠzhÄģngĠ": 6412,
      "ĠyÄ«nĠsÃ¹Ġ": 6413,
      "zhÄ«ĠjiÄģnĠdeĠ": 6414,
      "mÇİĠkÃ¨Ġ": 6415,
      "tÇĲĠzhÃ¬Ġ": 6416,
      "zhÃºĠjiÃłn": 6417,
      "ĠcÃ¡nĠ": 6418,
      "ĠlÃ¬ĠshÇĲĠshÃłngĠ": 6419,
      "ĠlÃ¬ngĠyÇĴuĠ": 6420,
      "gÄģoĠyÃºĠhÇİiĠpÃŃngĠmiÃłnĠ": 6421,
      "AN": 6422,
      "tÅ«ĠrÃ¡nĠ": 6423,
      "xÃ¬ngĠbiÃ©Ġ": 6424,
      "4ĠgÃ¨Ġ": 6425,
      "isĠĠĠ": 6426,
      "ĠpÃł": 6427,
      "ĠĠĠjiÄģoĠtÅįngĠ": 6428,
      "xÃ¬ngĠwÃ¨iĠ": 6429,
      "hÃ¹ĠxiÄģngĠ": 6430,
      "ĠbÃ¹ĠduÃ¬": 6431,
      "ĠgÅįngĠjuÃ©Ġ": 6432,
      "diÃłnĠqÃ¬Ġ": 6433,
      "zÄ«ĠliÃło": 6434,
      "wÃłnĠmÄĽiĠyuÃ¡nĠ": 6435,
      "ĠxÄ«ĠlÃ¡nĠ": 6436,
      "yÃŃĠdÃłiĠ": 6437,
      "ĠtÃ³ngĠyÃłng": 6438,
      "tÄģĠmenĠdeĠ": 6439,
      "ĠĠĠduÃ¬Ġ": 6440,
      "shÃłngĠxiÃłnĠ": 6441,
      "zhÃŃĠwÃ¹": 6442,
      "suÇĴĠchÃ¹ĠdeĠhÇİiĠbÃ¡ĠwÃ¨iĠ": 6443,
      "suÇĴĠchÃ¹ĠdeĠhÇİiĠbÃ¡ĠwÃ¨iĠgÄģoĠyÃºĠhÇİiĠpÃŃngĠmiÃłnĠ": 6444,
      "ĠbÃ¹ĠjÃŃĠ": 6445,
      "ĠzhÅįngĠshÄģnĠ": 6446,
      "ĠshÃŃĠwÃ¹Ġ": 6447,
      "ĠqÃŃĠxiÃłĠ": 6448,
      "qiÄģnĠshÇĶĠ": 6449,
      "ĠkÄģngĠ": 6450,
      "zhÃ²ngĠshÃ¬Ġ": 6451,
      "zÅ«n": 6452,
      "shÇĲĠjiÃłnĠyÃºĠ": 6453,
      "rÃ¨nĠdeĠ": 6454,
      "dÅįngĠfÄģngĠ": 6455,
      "bÃ¬ĠyÃ¨ĠhÃ²uĠ": 6456,
      "gÇİiĠzÃłoĠ": 6457,
      "43": 6458,
      "nd": 6459,
      "diÃłnĠchÄĵĠ": 6460,
      "xiÃłoĠqÅ«Ġ": 6461,
      "zhÃ¹ĠyÇĴuĠ": 6462,
      "all": 6463,
      "rÇĶ": 6464,
      "rÄĽnĠ": 6465,
      "ĠĠĠqÃŃ": 6466,
      "ĠĠĠqÄ«ngĠ": 6467,
      "fÄģĠxiÃłnĠdeĠ": 6468,
      "kÄĽĠzÃłiĠ": 6469,
      "ĠzhÄ«ĠyÃ¬Ġ": 6470,
      "ĠqÃŃĠshÃŃĠ": 6471,
      "tÃ¨ĠdÃ¬ngĠ": 6472,
      "ĠĠĠ190": 6473,
      "wÄĵngĠ": 6474,
      "nÃ¨iĠdÃ¬Ġ": 6475,
      "Ã¨rĠjÃŃĠ": 6476,
      "...": 6477,
      "igh": 6478,
      "zhÃŃĠmÃŃnĠdÃ¬Ġ": 6479,
      "ĠwÄĵi": 6480,
      "fÄģĠshÃ¨": 6481,
      "gÃ©ĠshÃ¬Ġ": 6482,
      "shÇĴuĠxiÃłngĠ": 6483,
      "ĠzhÇĶĠxÃŃĠ": 6484,
      "ob": 6485,
      "luÃ²ĠchÃ©ngĠ": 6486,
      "shÃŃĠqÅ«Ġ": 6487,
      "bÇİoĠliÃº": 6488,
      "ĠmÃ¡ng": 6489,
      "ĠĠĠgÄģi": 6490,
      "jiÃłnĠchÃ©ngĠ": 6491,
      "pÃŃngĠyuÃ¡nĠ": 6492,
      "dÄĽngĠjÃŃĠ": 6493,
      "gÄĵngĠxÄ«nĠ": 6494,
      "yÃ¹nĠyÃ²ngĠ": 6495,
      "ĠjiÃ©ĠguÇĴ": 6496,
      "ĠĠĠmÇİĠ": 6497,
      "hÃ²uĠwÃ¨iĠ": 6498,
      "gÇĶnĠ": 6499,
      "ĠbÃ¹ĠnÃ©ng": 6500,
      "ĠyÄ«ĠjiÄģĠ": 6501,
      "yÃ¹nĠshÅ«": 6502,
      "ĠtÇĶĠ": 6503,
      "ĠlÃ¬ĠrÃ¨nĠ": 6504,
      "ĠwÃ¨iĠyÃºĠgÄģiĠ": 6505,
      "ĠĠĠrÃ¡n": 6506,
      "ĠmÃ©i": 6507,
      "ĠshuÅįĠ": 6508,
      "ĠwÇİĠ": 6509,
      "ĠbÃ¹ĠjÇĲnĠ": 6510,
      "pÃŃngĠlÃ¹n": 6511,
      "xiÃ¡ĠqÅ«Ġ": 6512,
      "ĠĠĠbÄĽn": 6513,
      "bÄģoĠwÃ©iĠ": 6514,
      "hÇİiĠyÃ¡ngĠ": 6515,
      "ĠguÅįĠ": 6516,
      "xuÃ©ĠyuÃ¡nĠ": 6517,
      "ĠÃ©rĠtÃ³ngĠ": 6518,
      "Ġ1997ĠniÃ¡nĠ": 6519,
      "ĠzhuÇİn": 6520,
      "ÃłoĠzhÅįuĠ": 6521,
      "ĠzÃ¬ĠrÃ¡nĠ": 6522,
      "dÄģngĠdÃ¬ĠdeĠ": 6523,
      "xÄ«nĠjiÄģĠpÅį": 6524,
      "nÃ¨n": 6525,
      "shÄ«ĠqÃ¹Ġ": 6526,
      "zhÃ¨nĠqÅ«ĠdeĠmiÃłnĠjÄ«ĠwÃ¨iĠ": 6527,
      "ĠĠĠyÄ«nĠ": 6528,
      "yÃ¡nĠhÇİiĠ": 6529,
      "ĠsuÃŃĠzhÃ¹Ġ": 6530,
      "59": 6531,
      "ĠwÃ¡nĠ": 6532,
      "jÃ¬nĠbÃ¹Ġ": 6533,
      "liÇİngĠwÃ¨iĠ": 6534,
      "fÅ«ĠkÇİĠ": 6535,
      "ĠhÇĶĠ": 6536,
      "dÇİnĠ": 6537,
      "kÇĶĠ": 6538,
      "ĠchÃ¡Ġ": 6539,
      "bÅįĠsÄ«Ġ": 6540,
      "jÃºĠdeĠ": 6541,
      "ĠxuÃ©ĠzhÄĽĠ": 6542,
      "ĠxÃŃngĠzhÃ¨ngĠqÅ«Ġ": 6543,
      "jiÃłoĠyÃ¹ĠbÃ¹Ġ": 6544,
      "liÇİngĠcÃ¬Ġ": 6545,
      "xÃ¬nĠyÇİng": 6546,
      "duÃ¬ĠqÃŃĠ": 6547,
      "Ã¨rĠrÃ©nĠ": 6548,
      "ĠtÄģĠyÇĲĠ": 6549,
      "ĠyuÃ¡nĠzÃ¬Ġ": 6550,
      "jÃ¬ngĠzhÄĵngĠ": 6551,
      "amĠ": 6552,
      "1ĠgÃ¨Ġ": 6553,
      "ĠzuÃ²ĠchÅ«Ġ": 6554,
      "rÃºĠguÇĴĠ": 6555,
      "lÃ¬ngĠyÃŃĠgÃ¨Ġ": 6556,
      "69": 6557,
      "ĠduÃ¬ĠshÇĴuĠ": 6558,
      "fÇİnĠhuÃŃ": 6559,
      "toĠĠĠ": 6560,
      "ĠY": 6561,
      "ĠmiÃłnĠ": 6562,
      "jiÄģĠyÇĲĠ": 6563,
      "zuÃ¬ĠchÅ«": 6564,
      "biÄģnĠyuÃ¡nĠ": 6565,
      "ĠzhÅįuĠcÃ¬ĠshÇĲĠ": 6566,
      "quÃ¡nĠqiÃº": 6567,
      "qÃ¬ĠchÄĵ": 6568,
      "xiÄģoĠshÄ«Ġ": 6569,
      "Ġ9Ġ": 6570,
      "jÃ¬ĠyÇĴuĠ": 6571,
      "suÇĴĠwÃ¨iĠ": 6572,
      "miÃłnĠshÃłngĠ": 6573,
      "ĠzÃłiĠ196": 6574,
      "ĠdÃ¬ĠqiÃº": 6575,
      "ĠcÃłi": 6576,
      "cÃ¡iĠnÃ©ngĠ": 6577,
      "zÃłoĠchÃ©ngĠdeĠ": 6578,
      "ĠdeĠbÃ¹ĠfÃ¨nĠ": 6579,
      "ĠrÃ³ngĠ": 6580,
      "cÃ¬ĠyÃºĠ": 6581,
      "liÇİngĠguÃ³Ġ": 6582,
      "ĠyÄ«ĠjÃ¹Ġ": 6583,
      "ĠxÄ«ĠlÃł": 6584,
      "ĠlÇĲĠxÄ«Ġ": 6585,
      "chÃ¡ngĠdÃ¹Ġ": 6586,
      "tiÃ¡nĠjÃ¬ngĠ": 6587,
      "xuÄģnĠchuÃ¡n": 6588,
      "dÇĴngĠshÃ¬ĠzhÇİngĠ": 6589,
      "rÃło": 6590,
      "ĠyÃŃngĠ": 6591,
      "yÃ¬ĠshÃ¹Ġ": 6592,
      "Tub": 6593,
      "chuÄ«Ġ": 6594,
      "shÄ«ĠgÅįngĠ": 6595,
      "xiÄģngĠguÄģnĠdeĠ": 6596,
      "ĠdeĠyÇĲngĠxiÇİngĠ": 6597,
      "chÃ³ngĠqÃ¬ng": 6598,
      "Ġ1994ĠniÃ¡nĠ": 6599,
      "jÃ¹nĠgÅįngĠ": 6600,
      "hÅ«nĠyÄ«nĠ": 6601,
      "ĠdÃ©ĠzhÄ«Ġ": 6602,
      "ĠjÄ«ĠjÄ«nĠhuÃ¬Ġ": 6603,
      "jiÄĵĠduÃłn": 6604,
      "lÃŃĠkÄģi": 6605,
      "xiÃłoĠlÃ¬ĠyÃºĠ": 6606,
      "IS": 6607,
      "guÃ³ĠjiÄģ": 6608,
      "quÄĵĠfÃ¡": 6609,
      "ÄģĠlÄģĠbÃ³Ġ": 6610,
      "31Ġ": 6611,
      "Ġ12Ġ": 6612,
      "suÄģn": 6613,
      "pÃŃngĠdeĠ": 6614,
      "duÃ¬ĠzhÇİngĠ": 6615,
      "ĠlÇĲĠyÃłĠ": 6616,
      "kÇİĠluÃ³Ġ": 6617,
      "tÇĲĠyÃ¹ĠchÇİngĠ": 6618,
      "AP": 6619,
      "ĠtÃ¡oĠ": 6620,
      "zhÃłnĠshÃŃĠ": 6621,
      "xÄ«nĠchÃ©ngĠ": 6622,
      "Ġ1992ĠniÃ¡nĠ": 6623,
      "wÄĽiĠyuÃ¡nĠhuÃ¬ĠwÄĽiĠyuÃ¡nĠ": 6624,
      "ĠjiÃ©ĠkÃ¨Ġ": 6625,
      "ÃłiĠÄĽrĠlÃ¡nĠ": 6626,
      "ĠdÃ¬ĠliÃ¹Ġ": 6627,
      "ĠÄĽrĠduÅįĠ": 6628,
      "ĠrÃ©ng": 6629,
      "guÄģnĠjiÃłnĠ": 6630,
      "ĠdeĠxÄ«Ġ": 6631,
      "ĠjÃŃĠdÃłĠ": 6632,
      "ĠyÃ¬ĠyÃºĠ": 6633,
      "bÃ¨iĠjÇĲngĠ": 6634,
      "Ġ2ĠyuÃ¨Ġ": 6635,
      "jÃ¬ĠniÃłn": 6636,
      "shÅ«ĠyuÃłnĠ": 6637,
      "fÃ¨nĠzÇĲ": 6638,
      "jiÃłngĠlÇĲngĠ": 6639,
      "79": 6640,
      "fĠ": 6641,
      "ss": 6642,
      "ĠwÃ¨iĠdÃłĠ": 6643,
      "kuÃ¬Ġ": 6644,
      "pÇİo": 6645,
      "ĠĠĠshÃ¨ngĠ": 6646,
      "diÇİnĠshÃ¬Ġ": 6647,
      "27Ġ": 6648,
      "ĠzhÃ¬ĠliÃłngĠ": 6649,
      "jÅ«ĠzhÃ¹ĠzÃłiĠ": 6650,
      "ĠzhÄģnĠ": 6651,
      "ĠyÃºĠ2016ĠniÃ¡nĠ": 6652,
      "jiÃłoĠdÃłĠ": 6653,
      "sÄģnĠmÃŃngĠ": 6654,
      "pÃ¨iĠyÄ«nĠ": 6655,
      "ĠmÇİĠlÃ¡i": 6656,
      "cÄģng": 6657,
      "ĠshÃŃĠduÃłnĠ": 6658,
      "ĠqÃŃĠdeĠ": 6659,
      "ĠsÄ«ĠkÃ¨": 6660,
      "jiÃ©ĠdÃ¹Ġ": 6661,
      "88": 6662,
      "zhÃ¨ĠshÃ¬Ġ": 6663,
      "gÄģoĠxiÃ³ng": 6664,
      "miÃ¡nĠ": 6665,
      "ĠyÃºĠlÃ¨": 6666,
      "tiÄģnĠtÇĲĠ": 6667,
      "ĠĠĠ2005ĠniÃ¡nĠ": 6668,
      "chuÃ¡nĠtÇĴngĠdeĠ": 6669,
      "zÄģiĠpÃ©iĠ": 6670,
      "pÃ¬nĠ": 6671,
      "bÃłnĠdeĠ": 6672,
      "tuÄ«ĠchÅ«": 6673,
      "ĠzhÃ¬ĠzuÃ²ĠdeĠ": 6674,
      "dÅįngĠbÄĽi": 6675,
      "bÅįĠlÃŃĠ": 6676,
      "fÃ¨iĠchÃºĠ": 6677,
      "baĠ": 6678,
      "ĠĠĠnÃ¡nĠ": 6679,
      "ĠĠĠjÇĲnĠ": 6680,
      "zÃ¬ĠwÃ¨iĠ": 6681,
      "ĠxiÃłnĠyÇĲĠ": 6682,
      "pÃ©i": 6683,
      "ĠfÃ¨ngĠ": 6684,
      "ĠjiÃłnĠshÃ¨": 6685,
      "ĠpÃłĠ": 6686,
      "chĠ": 6687,
      "zhÃ¨nĠdeĠ": 6688,
      "ĠqÃŃĠzhÅįngĠbÄģoĠkuÃ²Ġ": 6689,
      "Ġ1996ĠniÃ¡nĠ": 6690,
      "lan": 6691,
      "pÃ¡n": 6692,
      "shÃ¹ĠshÃŃĠ": 6693,
      "huÃ¬ĠzhÇİngĠ": 6694,
      "ĠdÄģngĠshÃŃĠdeĠ": 6695,
      "siĠ": 6696,
      "bÅįĠshÃ¬Ġ": 6697,
      "fÄģĠdÃ²ngĠjÄ«Ġ": 6698,
      "fÃ¹ĠhÃ©Ġ": 6699,
      "liÃ¡nĠdeĠ": 6700,
      "lÄģĠjÄ«Ġ": 6701,
      "tÃŃngĠchÄĵĠ": 6702,
      "quÃ¡nĠxiÃłnĠ": 6703,
      "xiÅ«ĠfÃ¹Ġ": 6704,
      "ĠdÃ¬ĠdiÇİnĠ": 6705,
      "ĠbÃ¬ngĠyÃ³uĠ": 6706,
      "chÃ¡iĠ": 6707,
      "ĠdÃ©ĠsÄ«Ġ": 6708,
      "ĠwÃ©iĠÄĽr": 6709,
      "ÃłoĠmÃ©n": 6710,
      "cÅ«nĠluÃ²Ġ": 6711,
      "ĠĠĠdÃ¬ĠÃ¨rĠ": 6712,
      "ĠyÃºĠ2015ĠniÃ¡nĠ": 6713,
      "zÃºĠqiÃºĠjÃ¹ĠlÃ¨ĠbÃ¹Ġ": 6714,
      "fÃºĠlÃ¬Ġ": 6715,
      "qÇĲĠyuÃ¡nĠ": 6716,
      "nÃ¨iĠzhÃłnĠ": 6717,
      "ĠguÃ³ĠwÃ¹ĠyuÃłnĠ": 6718,
      "kÃ©Ġ": 6719,
      "ĠlÇĶĠ": 6720,
      "lÇĲĠchÃ©ngĠ": 6721,
      "shÄ«ĠrÃ©nĠ": 6722,
      "fÄģĠqÇĲ": 6723,
      "tÃ¨ĠxÃ¬ngĠ": 6724,
      "mÇİnĠzÃºĠ": 6725,
      "ĠbÃ¹ĠbÃ¹ĠzhÇİngĠ": 6726,
      "bÃ¬ngĠbÃ¹Ġ": 6727,
      "diÄģo": 6728,
      "ĠdÃłĠlÃ³u": 6729,
      "ĠzhÃ¨ngĠzhÃ¬Ġ": 6730,
      "ĠdÃ¬ĠdÃłiĠ": 6731,
      "ĠzhÃ¬ĠdÃ¬Ġ": 6732,
      "dÃłĠlÃ¹": 6733,
      "qÃºĠ": 6734,
      "ĠchÄĵng": 6735,
      "xÄ«ĠhÃ©Ġ": 6736,
      "ĠjÃ¹ĠlÃŃ": 6737,
      "zhuÃłnĠdeĠ": 6738,
      "wÄĽiĠfÃ¹Ġ": 6739,
      "ĠpÃ¬": 6740,
      "ĠyÃ¹ĠshÇĲĠ": 6741,
      "ĠyÃºĠ2021ĠniÃ¡nĠ": 6742,
      "ear": 6743,
      "ĠyÇĲĠwÃłiĠ": 6744,
      "jiÄģnĠdÅ«Ġ": 6745,
      "ĠwÃ©iĠsÄ«Ġ": 6746,
      "tuÃ¡nĠtÇĲ": 6747,
      "ĠlÃłiĠ": 6748,
      "sÃ¬ĠdeĠ": 6749,
      "dÅįuĠbÃ¨iĠ": 6750,
      "mÇĶĠdeĠ": 6751,
      "fÅ«ĠdeĠ": 6752,
      "jiÄģoĠliÃº": 6753,
      "ĠshÃ¬ĠdÃ©ĠguÃ³Ġ": 6754,
      "ĠyÇĶĠyÃ¡n": 6755,
      "shÇĲĠshÃłngĠ": 6756,
      "zÃ¬ĠmÇĶĠ": 6757,
      "wÃºĠzhÃ¨ngĠzhuÃłngĠgÇİnĠrÇİnĠzhÄĽĠ": 6758,
      "tiÄĵ": 6759,
      "xÃ¬ngĠhÃ©Ġ": 6760,
      "lÃ¡ngĠzhÅįngĠ": 6761,
      "ĠshÃ¬ĠgÅįngĠ": 6762,
      "ĠbÃ¹ĠbÄ«ngĠ": 6763,
      "ĠxÃŃngĠmÃ¹Ġ": 6764,
      "ĠjÃ¹ĠjuÃ©Ġ": 6765,
      "pÃłiĠqiÇİnĠ": 6766,
      "ĠluÃ³": 6767,
      "ĠxiÃ¨": 6768,
      "Ġ11Ġ": 6769,
      "bÇİiĠniÃ¡nĠ": 6770,
      "luÃ²ĠfÃ¡": 6771,
      "YouTub": 6772,
      "hÃłoĠxiÃłn": 6773,
      "our": 6774,
      "ĠĠĠde": 6775,
      "xÄ«ĠdÃ¬Ġ": 6776,
      "ĠshÃ¬ĠyÄ«ĠbÃ¹Ġ": 6777,
      "ĠchÃ©ngĠkÃ¨Ġ": 6778,
      "ĠyÇĶĠyÄ«Ġ": 6779,
      "qÄ«ĠzÇĲ": 6780,
      "ĠzhÅįuĠfÇĶĠ": 6781,
      "cÇİiĠqÇĶ": 6782,
      "Ġ1993ĠniÃ¡nĠ": 6783,
      "ĠhÃ©ĠdÃłoĠ": 6784,
      "ĠyÃºĠ2012ĠniÃ¡nĠ": 6785,
      "ĠyÃºĠ2018ĠniÃ¡nĠ": 6786,
      "xiÄĽĠzuÃ²Ġ": 6787,
      "hÄĽnĠkuÃłiĠ": 6788,
      "Ġ24": 6789,
      "ĠwÃ¨iĠyÃºĠmÄĽiĠguÃ³Ġ": 6790,
      "ĠnuÃ²Ġ": 6791,
      "wÃ¹ĠshÃ¬Ġ": 6792,
      "jiÄģnĠrÃ¨nĠ": 6793,
      "ĠfÃ¹ĠjÃ¬n": 6794,
      "diÃłnĠshÃ¬ĠtÃ¡i": 6795,
      "miÇİnĠfÃ¨iĠ": 6796,
      "bÃłngĠqiÃºĠ": 6797,
      "jiÄģnĠyÃ¹Ġ": 6798,
      "ĠdÄģn": 6799,
      "liÃłngĠwÃ¨iĠ": 6800,
      "jiÇİĠdÃ¬Ġ": 6801,
      "zÇĴuĠxiÃłngĠ": 6802,
      "ĠlÇĲĠkÃ¨Ġ": 6803,
      "lÃŃngĠchÃ©nĠ": 6804,
      "gÇİo": 6805,
      "ĠĠĠ5": 6806,
      "zÅįngĠyÃ¬Ġ": 6807,
      "ĠzÃłiĠhÃ©Ġ": 6808,
      "ĠyÄ«ĠyuÃłn": 6809,
      "ÇĴuĠxiÃłngĠ": 6810,
      "33Ġ": 6811,
      "ON": 6812,
      "ong": 6813,
      "Ġ20Ġ": 6814,
      "hÃ²uĠyÃ¬Ġ": 6815,
      "nÃłĠdeĠ": 6816,
      "zuÃ²ĠwÃ©i": 6817,
      "ĠĠĠgÃ¨ĠrÃ©nĠ": 6818,
      "zÇĴngĠrÃ©nĠkÇĴuĠ": 6819,
      "yÃ¬nĠnÃŃĠ": 6820,
      "qÄ«ĠshÃŃĠ": 6821,
      "kÇİoĠshÃ¬Ġ": 6822,
      "sÅ«ĠgÃ©ĠlÃ¡nĠ": 6823,
      "nÃ¬": 6824,
      "ĠzhÄĵngĠ": 6825,
      "ĠwÃ©iĠchÃŃ": 6826,
      "liÃ¡nĠjiÄĵ": 6827,
      "zhÇĶĠyÃ¬ĠzhÄĽĠ": 6828,
      "ĠyÃºĠ2014ĠniÃ¡nĠ": 6829,
      "pp": 6830,
      "kÅįngĠqÃ¬Ġ": 6831,
      "wÃºĠxiÃłnĠdiÃłnĠshÃ¬Ġ": 6832,
      "ĠsÄ«ĠlÃ¬ngĠbÃ¹Ġ": 6833,
      "wÇĶĠshÃ¬Ġ": 6834,
      "guÇİngĠchÇİng": 6835,
      "Ġ1945ĠniÃ¡nĠ": 6836,
      "guÃ³ĠshÃ¬Ġ": 6837,
      "gÇĶĠlÃ¬Ġ": 6838,
      "ĠjÄ«ĠchÇĶ": 6839,
      "cÃ¡n": 6840,
      "shÇĲĠrÃ©nĠ": 6841,
      "jiÃ¹ĠyuÃ¡nĠ": 6842,
      "jÄ«ngĠdiÇİnĠ": 6843,
      "zhÄģnĠmÇĶĠsÄ«Ġ": 6844,
      "cÃ¡ng": 6845,
      "ark": 6846,
      "77": 6847,
      "zÃ©ĠzÃłiĠ": 6848,
      "tiÄģnĠhÃ²uĠ": 6849,
      "teĠ": 6850,
      "ĠwÃ¨iĠfÃºĠqÃŃĠyÃºĠgÄģngĠ": 6851,
      "ĠtÃ¡ng": 6852,
      "ĠyÃºnĠ": 6853,
      "chÄĵĠduÃ¬Ġ": 6854,
      "bÃ¬ĠdeĠ": 6855,
      "mÃłiĠkÃ¨Ġ": 6856,
      "bÃ¨iĠchÄĵngĠwÃ©iĠ": 6857,
      "shÄģnĠmÃłiĠ": 6858,
      "guÃł": 6859,
      "hÃ¹ĠbÃ¹Ġ": 6860,
      "wÇİĠÄĽrĠshÄĽngĠ": 6861,
      "ĠyuÃ¡nĠbÄĽn": 6862,
      "ĠchÅ«ĠdÃłoĠ": 6863,
      "bÃŃĠ": 6864,
      "shÅįuĠdÃłoĠ": 6865,
      "reĠ": 6866,
      "ĠshÃ¬ĠhuÃ¬Ġ": 6867,
      "guÇİnĠlÇĲĠjÃºĠ": 6868,
      "ĠfÄģĠxiÃłnĠ": 6869,
      "ĠzÃ¡ĠzhÃ¬Ġ": 6870,
      "huÃŃĠyÃ¬Ġ": 6871,
      "ĠgÅįngĠlÇĲĠdeĠ": 6872,
      "ĠÄĽrĠshÃ¬Ġ": 6873,
      "dÅįngĠjÄ«ng": 6874,
      "ĠzuÃ²ĠzhÃłnĠ": 6875,
      "shÃłoĠnÇļĠ": 6876,
      "hÅįngĠzhÃł": 6877,
      "guÇİnĠzhÃ¬Ġ": 6878,
      "ĠmÃŃngĠzhÃ¬Ġ": 6879,
      "yÃ¡nĠrÃ©nĠ": 6880,
      "xiÇİnĠzhÃ¹Ġ": 6881,
      "guÃ³ĠwÃ¹Ġ": 6882,
      "ĠxiÃłnĠchÃ©ngĠ": 6883,
      "yÇĲnĠyÃ²ngĠ": 6884,
      "xÃºnĠzhÇİoĠ": 6885,
      "wÃłngĠyuÇİnĠ": 6886,
      "jÄ«ĠzÃłiĠ": 6887,
      "guÃ²ĠleĠ": 6888,
      "wÃ©iĠzhÇĶĠ": 6889,
      "ĠyÃºĠ2017ĠniÃ¡nĠ": 6890,
      "ĠshÃŃĠyÃłnĠshÃ¬Ġ": 6891,
      "dÃ¹ĠhÃ©Ġ": 6892,
      "xiÅ«ĠdÃłoĠ": 6893,
      "ĠdÃ¬ĠtiÄĽ": 6894,
      "ĠdÃłĠgÅįngĠ": 6895,
      "ell": 6896,
      "95": 6897,
      "lÄĽng": 6898,
      "gÇİiĠshÃłnĠ": 6899,
      "ĠkÇİ": 6900,
      "zhuÄģĠ": 6901,
      "ĠjÃŃĠshÇĲĠ": 6902,
      "luÃ²ĠshÄģnĠjÄ«Ġ": 6903,
      "jiÇİoĠdÃ¹Ġ": 6904,
      "ĠlÇļĠ": 6905,
      "ĠĠĠrÃ©nĠ": 6906,
      "ÃłoĠÄĽrĠ": 6907,
      "ĠdÃ¬ĠfÄģng": 6908,
      "chÄĵĠxiÄģngĠ": 6909,
      "ĠxiÄģn": 6910,
      "ĠliÃ¡nĠhÃ©Ġ": 6911,
      "ĠdÃ¬ĠtÃºĠ": 6912,
      "ĠyÃºĠ193": 6913,
      "ĠyÃ²ng": 6914,
      "Ġ23": 6915,
      "2025ĠniÃ¡nĠ": 6916,
      "zuÇĴĠyÃ¬Ġ": 6917,
      "ĠniÃ¡nĠĠĠ": 6918,
      "ĠchÃ©ngĠbÄĽnĠ": 6919,
      "zhÇĶĠtÃŃ": 6920,
      "ĠÃ©rĠfÄĵiĠ": 6921,
      "ĠzuÃ¬ĠjiÄģĠ": 6922,
      "ĠyÃ¬ĠshÃ¬Ġ": 6923,
      "ĠxÃºĠ": 6924,
      "dÃ¬ĠhÃ©Ġ": 6925,
      "jiÄģĠtÃŃngĠ": 6926,
      "ĠxÃŃngĠdÃ²ng": 6927,
      "lÇİn": 6928,
      "shÃ¨ĠbÃ¨iĠ": 6929,
      "ĠwÃ¨iĠyuÃ¡nĠ": 6930,
      "gÃ©ĠlÃŃĠ": 6931,
      "mÃ¹ĠdeĠ": 6932,
      "zÇĶĠdeĠ": 6933,
      "yuÃłnĠyÃ¬Ġ": 6934,
      "ĠyuÃ¨ĠduÃ¬Ġ": 6935,
      "ĠyÃ¬ĠjiÃłnĠ": 6936,
      "kÅįngĠjiÄģn": 6937,
      "zhÃ¨ngĠfÇĶĠdeĠ": 6938,
      "sÇİnĠ": 6939,
      "tÄ«": 6940,
      "ĠyÃŃĠgÃ¨": 6941,
      "ĠĠĠdÄģngĠ": 6942,
      "biÇİn": 6943,
      "ĠjÅ«nĠqÅ«Ġ": 6944,
      "jÇĲngĠgÃłoĠ": 6945,
      "ĠĠĠchÅ«Ġ": 6946,
      "yÃºĠhÃ©Ġ": 6947,
      "shÄģnĠxiÃłnĠ": 6948,
      "cÃ©ngĠdeĠ": 6949,
      "jiÇĶĠdeĠ": 6950,
      "ĠxiÃłnĠjÃŃĠ": 6951,
      "ĠdÃłi": 6952,
      "ĠsuÅįĠ": 6953,
      "shÃłngĠbÃ¹Ġ": 6954,
      "Sta": 6955,
      "dÇİoĠshÃłngĠ": 6956,
      "fÃłngĠzÃłiĠ": 6957,
      "ĠkÃ¨ĠÄĽrĠ": 6958,
      "cÃŃĠzhÃŃĠ": 6959,
      "wÃłiĠjiÄģoĠbÃ¹Ġ": 6960,
      "mÃ²ĠsÄ«ĠkÄĵĠ": 6961,
      "ĠĠĠsÄ«Ġ": 6962,
      "cÇĲĠtÃ³ngĠshÃŃĠ": 6963,
      "gÃ²uĠmÇİi": 6964,
      "uĠ": 6965,
      "ĠbÇİ": 6966,
      "kÄģiĠgÅįngĠ": 6967,
      "tÅįngĠzhÄ«Ġ": 6968,
      "bÃ¬ĠmiÇİn": 6969,
      "76": 6970,
      "ĠgÄĵ": 6971,
      "yÃ¡nĠzhÃ¬Ġ": 6972,
      "liÃºĠyÃ¹Ġ": 6973,
      "liÃ¨ĠrÃ¹Ġ": 6974,
      "ĠfÃºĠjiÃłnĠ": 6975,
      "ĠxiÃ¡nĠ": 6976,
      "thĠ": 6977,
      "ĠĠĠzhÃ¨ngĠ": 6978,
      "188": 6979,
      "huÃłnĠzhÄĽĠ": 6980,
      "ĠkÃ¹Ġ": 6981,
      "jÇĲnĠyÇĴuĠ": 6982,
      "shÇĴuĠdÅ«": 6983,
      "cÄģnĠxuÇİnĠ": 6984,
      "Ã©ĠluÃ³ĠsÄ«ĠdeĠ": 6985,
      "rÃ³uĠ": 6986,
      "kÇĴuĠdeĠ": 6987,
      "ĠzhÄ«ĠshÃ¬Ġ": 6988,
      "fÃ¹ĠjÃ¬n": 6989,
      "98": 6990,
      "yp": 6991,
      "ĠzhÄģoĠhÃ©Ġ": 6992,
      "ĠnÃ©ngĠ": 6993,
      "qÄ«nĠwÃ¡ngĠ": 6994,
      "chuÃłngĠzuÃ²ĠdeĠ": 6995,
      "ĠyÃºĠ2013ĠniÃ¡nĠ": 6996,
      "ĠwÇĴĠmen": 6997,
      "ĠshÄģnĠdÅįngĠ": 6998,
      "zhÄĵngĠyuÃ¨Ġ": 6999,
      "cÃŃĠdeĠ": 7000,
      "jÄ«ĠchÇĶ": 7001,
      "chÃ¹ĠzhÇİngĠ": 7002,
      "shuÄģngĠdÇİĠ": 7003,
      "Ġ1995ĠniÃ¡nĠ": 7004,
      "sÃłngĠ": 7005,
      "ĠcÄģnĠyÃ¹Ġ": 7006,
      "cÃ³ngĠwÃ¨iĠ": 7007,
      "qiÃ¡ngĠzhÃ¬Ġ": 7008,
      "lÇĲĠlÃ¹n": 7009,
      "ÄģnĠzhuÄģngĠ": 7010,
      "guÄģnĠfÄģng": 7011,
      "dÃ²ngĠhuÃł": 7012,
      "ĠyÃºĠ2022ĠniÃ¡nĠ": 7013,
      "gÄģĠ": 7014,
      "bÃ¬ĠmiÇİnĠ": 7015,
      "ĠluÃ³ĠmÇİĠ": 7016,
      "tÃŃĠchÅ«ĠleĠ": 7017,
      "Ġ29": 7018,
      "xuÃ©ĠzhÅįngĠ": 7019,
      "fÄĵngĠfÃ¹Ġ": 7020,
      "ĠgÃ¨ĠguÃ³Ġ": 7021,
      "chÅįngĠtÅ«": 7022,
      "ĠhÃ¹Ġ": 7023,
      "fÃ¹ĠshÃ¬Ġ": 7024,
      "shÄģnĠdÃ¬Ġ": 7025,
      "ĠzÃłiĠ194": 7026,
      "ĠdÃ©ĠlÄģĠ": 7027,
      "00ĠmÇĲ": 7028,
      "ĠBĠ": 7029,
      "ĠĠĠbÄģĠ": 7030,
      "sÄ«ĠshÃ¬Ġ": 7031,
      "shÃ¨ngĠchÅ«Ġ": 7032,
      "ÄģĠgÄĵnĠ": 7033,
      "yÇĲnĠrÃ¹Ġ": 7034,
      "zhÃłoĠpiÄģnĠ": 7035,
      "yÇĲngĠshÃ¬Ġ": 7036,
      "cÇİiĠfÇİng": 7037,
      "ĠĠĠgÃ¹ĠshÃ¬Ġ": 7038,
      "ĠsÄ«ĠmÇİĠ": 7039,
      "ĠpÅį": 7040,
      "mÇİĠlÃ¡iĠxÄ«ĠyÃł": 7041,
      "ĠliÃ¹": 7042,
      "ĠbÇİĠ": 7043,
      "ĠĠĠ10": 7044,
      "ĠjÄ«ĠhÅ«": 7045,
      "zhÇİngĠguÄģnĠ": 7046,
      "ĠyÄ«ngĠwÃ©nĠ": 7047,
      "bÃ³ĠlÃŃnĠ": 7048,
      "xiÃłĠzÃłiĠ": 7049,
      "pÄ«nĠ": 7050,
      "fÄģĠshÄĵngĠdeĠ": 7051,
      "huÃ¡ngĠsÃ¨Ġ": 7052,
      "bÃ¹ĠdeĠcÅ«nĠzhuÄģngĠ": 7053,
      "ĠĠĠyÇĲĠxiÃł": 7054,
      "zÃłnĠzhÃ¹Ġ": 7055,
      "ĠyÇĴuĠxiÄĵ": 7056,
      "zÅįngĠjiÃło": 7057,
      "54": 7058,
      "ĠxÅ«Ġ": 7059,
      "xiÄģngĠshÃ¬Ġ": 7060,
      "guÇİnĠdeĠ": 7061,
      "ĠyÃºĠ2019ĠniÃ¡nĠ": 7062,
      "qiÃ¡ngĠdÃ¹Ġ": 7063,
      "shÅįuĠlÃ¹": 7064,
      "Ġ1985ĠniÃ¡nĠ": 7065,
      "ĠĠĠ16": 7066,
      "ĠyuÃ¨ĠlÃ¡iĠyuÃ¨Ġ": 7067,
      "ah": 7068,
      "nÃ¹Ġ": 7069,
      "Ġ00": 7070,
      "jiÄģĠzÃłiĠ": 7071,
      "sÅ«ĠwÃ©iĠ": 7072,
      "jiÃłngĠyÇĶĠ": 7073,
      "hÇİiĠÃłn": 7074,
      "ĠfÃ¹ĠjÃ¬nĠdeĠ": 7075,
      "ĠdÃłnĠbÃ¡iĠ": 7076,
      "gÇĶĠlÇİo": 7077,
      "xiÇİoĠxÃŃngĠxÄ«ng": 7078,
      "duÅįĠmÃŃngĠ": 7079,
      "qiÃ¡ngĠdeĠ": 7080,
      "ĠyÃºĠ2020ĠniÃ¡nĠ": 7081,
      "ĠchÃ©ngĠxiÃłn": 7082,
      "ĠrÃ©nĠdÃłĠ": 7083,
      "ĠzhÄ«ĠdÃ¬Ġ": 7084,
      "tÃłiĠkÅįngĠ": 7085,
      "tÃŃngĠkÃłoĠ": 7086,
      "pÄģiĠshÃ¨": 7087,
      "ĠjiÇİ": 7088,
      "guÃłnĠjÅ«n": 7089,
      "ĠshÃŃĠhÃ²uĠ": 7090,
      "yuÃ¨ĠnÃ¡nĠ": 7091,
      "ĠgÅįngĠyÃ¬ngĠ": 7092,
      "ĠzhÄ«ĠjiÄģĠ": 7093,
      "ĠkÃ¨ĠhÃ©Ġ": 7094,
      "ĠbÃ¨iĠpÃ²Ġ": 7095,
      "ĠsÃºĠ": 7096,
      "Ġ2025ĠniÃ¡nĠ": 7097,
      "lÃ¡oĠdÃ²ngĠ": 7098,
      "38Ġ": 7099,
      "ĠgÃ¨ĠzhÇĴng": 7100,
      "Ġ1990ĠniÃ¡nĠ": 7101,
      "ection": 7102,
      "pÄĵnĠ": 7103,
      "ĠQ": 7104,
      "zÇİoĠshÃłngĠ": 7105,
      "ĠbÃ¹ĠmÇİnĠ": 7106,
      "zhÃłnĠtÃ¡iĠ": 7107,
      "ĠxiÃ¨Ġ": 7108,
      "fÄĵiĠxÃŃng": 7109,
      "tÃ³ngĠxÃ¬ngĠ": 7110,
      "ĠfÃ¹ĠzÃ©ĠguÇİnĠxiÃ¡Ġ": 7111,
      "36Ġ": 7112,
      "Ġì": 7113,
      "sÄģnĠdÃłĠ": 7114,
      "hÅ«ĠyÃ¹Ġ": 7115,
      "ĠxÄ«ĠÄĽrĠ": 7116,
      "pÇĶĠbiÃłn": 7117,
      "huÃŃĠguÄ«Ġ": 7118,
      "xuÇİnĠjÇĶĠzhÅįngĠ": 7119,
      "man": 7120,
      "liÃ¨ĠchÅ«Ġ": 7121,
      "ĠyÄ«ĠzhÃŃĠ": 7122,
      "dÄ«ĠqÃ¬Ġ": 7123,
      "ĠbÄ«ngĠ": 7124,
      "tuÇĴ": 7125,
      "dÃ¹nĠdeĠ": 7126,
      "sÃº": 7127,
      "ÃłnĠshÃ¬Ġ": 7128,
      "biÄģnĠwÃ¨iĠ": 7129,
      "mÃ²ĠÄĽrĠ": 7130,
      "jÃ¬ĠsuÃłn": 7131,
      "ĠxiÃłnĠshÃłngĠ": 7132,
      "xiÃłĠlÃ¡iĠ": 7133,
      "ani": 7134,
      "ĠĠĠwÃ©iĠ": 7135,
      "lÄģĠdeĠ": 7136,
      "lÄģĠdÃ©Ġ": 7137,
      "guÇİngĠzhÅįu": 7138,
      "yÃŃnĠpÃ¡iĠ": 7139,
      "shÄģnĠdÅįngĠshÄĽngĠ": 7140,
      "to": 7141,
      "shÅ«ĠchÅ«Ġ": 7142,
      "ĠyÃ³uĠjÄ«Ġ": 7143,
      "liÇİoĠjiÄĽĠ": 7144,
      "ĠjuÃ©ĠdÃ¬ngĠ": 7145,
      "ĠwÃłnĠlÃ¬Ġ": 7146,
      "mÃŃngĠdÄģnĠ": 7147,
      "xiÃłĠjiÃłngĠ": 7148,
      "duÃ¬ĠyuÃ¡nĠ": 7149,
      "bÇİoĠdeĠ": 7150,
      "gÇĶĠlÄģĠ": 7151,
      "ĠÃ©rĠgÄģiĠdÃ¬ĠdeĠ": 7152,
      "qiÃ¡nĠhÃ²uĠ": 7153,
      "guÃ³ĠwÃ¡ngĠ": 7154,
      "tiÄģnĠrÃ¡nĠ": 7155,
      "ĠtiÄĽĠ": 7156,
      "shÃ¬ĠĠĠ": 7157,
      "lÃ¡nĠxÄ«Ġ": 7158,
      "zhÃ¬Ġ199": 7159,
      "ĠshÃŃĠxiÃłn": 7160,
      "xiÄģngĠtÃ³ngĠdeĠ": 7161,
      "zhÇĲĠkÃ²ngĠ": 7162,
      "jiÃłnĠzhÃ¹": 7163,
      "omp": 7164,
      "etĠ": 7165,
      "sÄģng": 7166,
      "sÄģnĠrÃ©nĠ": 7167,
      "bÃ³ĠjuÃ©Ġ": 7168,
      "zÇİoĠqÄ«ĠdeĠ": 7169,
      "ĠdÃ¬ngĠ": 7170,
      "shÃŃĠhÃ©Ġ": 7171,
      "ĠjÃ¬ĠlÃ¹": 7172,
      "ĠjÃ¬ĠyÃ¬Ġ": 7173,
      "jÃ¹ĠqÃŃngĠ": 7174,
      "ĠchÅ«ĠyÇİnĠ": 7175,
      "xiÄģngĠbÇĲĠ": 7176,
      "liÃ¡nĠrÃ¨nĠ": 7177,
      "jÃ¬ngĠnÃ¨i": 7178,
      "wÇĴĠmen": 7179,
      "Ġ1991ĠniÃ¡nĠ": 7180,
      "mÃŃnĠzhÇĶĠdÇİng": 7181,
      "qiÃºĠhuÃ¬Ġ": 7182,
      "bÃłnĠniÃ¡nĠ": 7183,
      "ĠjÃŃĠbÃ¬ngĠ": 7184,
      "ĠkÃ¨ĠlÃ¬Ġ": 7185,
      "mÄĽiĠyuÃ¡nĠdeĠ": 7186,
      "ĠyÇĲĠsÃ¨ĠliÃ¨Ġ": 7187,
      "2002ĠniÃ¡nĠ": 7188,
      "ĠjiÄģĠlÄģĠ": 7189,
      "diÃłnĠnÇİo": 7190,
      "fÄĵnĠpÃ¨iĠ": 7191,
      "shÃ²uĠquÃ¡nĠ": 7192,
      "sÄĵnĠlÃŃn": 7193,
      "atĠĠĠ": 7194,
      "ex": 7195,
      "ich": 7196,
      "zhÄ«ĠshÃŃĠ": 7197,
      "shÃ©ngĠ": 7198,
      "zÄģoĠyÃ¹Ġ": 7199,
      "ĠhÃ©ĠgÇĶĠ": 7200,
      "cÃ¡iĠliÃło": 7201,
      "pÇİoĠ": 7202,
      "tÃ¨ĠlÃ¬Ġ": 7203,
      "duÅįĠgÃ¨": 7204,
      "ĠchÃ©ngĠleĠ": 7205,
      "ĠyÇĲĠqiÃ¡nĠ": 7206,
      "xÄ«ngĠqÄ«": 7207,
      "74": 7208,
      "ĠgÄĵnĠ": 7209,
      "tÃºĠdeĠ": 7210,
      "ĠshÃŃĠbÃłoĠ": 7211,
      "bÄĽiĠfÄģngĠ": 7212,
      "ĠsÃłn": 7213,
      "yÇĶnĠshÃŃĠ": 7214,
      "ĠwÃ¨iĠnÃ©ng": 7215,
      "tÃ¨ĠlÄģĠ": 7216,
      "ĠduÃ¬ĠcÇĲĠ": 7217,
      "jiÄĵĠrÃ¨nĠ": 7218,
      "ayĠ": 7219,
      "sÄģnĠgÃ¨": 7220,
      "mÇİĠlÄģĠ": 7221,
      "ĠĠĠgÃłiĠyÃłoĠ": 7222,
      "aw": 7223,
      "lÃ²uĠ": 7224,
      "ĠchuÄģnĠ": 7225,
      "ĠyÃ¡oĠ": 7226,
      "2003ĠniÃ¡nĠ": 7227,
      "shÇĴuĠbÅįĠ": 7228,
      "BS": 7229,
      "fÄĵnĠdeĠ": 7230,
      "ĠyÇĶĠqÃŃĠ": 7231,
      "duÅįĠcÃ¬": 7232,
      "shÃ©nĠme": 7233,
      "ĠĠĠfÃ¹Ġ": 7234,
      "ĠyÄ«ĠliÃ¡oĠ": 7235,
      "pÇĶĠchÃ¡Ġ": 7236,
      "ĠyÃºĠ2023ĠniÃ¡nĠ": 7237,
      "ĠdÃ¨ngĠ": 7238,
      "tÇİĠÄĽrĠ": 7239,
      "yÃ¡nĠjiÅ«ĠshÄĵngĠ": 7240,
      "Ġ1950ĠniÃ¡nĠ": 7241,
      "96": 7242,
      "hÇĶ": 7243,
      "wÇİngĠshÃłngĠ": 7244,
      "ĠxiÃłnĠyÇĴuĠ": 7245,
      "qÄ«ngĠshÃłoĠniÃ¡nĠ": 7246,
      "lÇĲngĠdÇİoĠdeĠ": 7247,
      "cÄģnĠshÃ¹Ġ": 7248,
      "tÃ¨ĠÄĽrĠ": 7249,
      "piÄģoĠ": 7250,
      "ĠjiÄģĠtÃŃng": 7251,
      "qÃ¬ĠxuÃ¡nĠ": 7252,
      "shÃ¨ĠhuÃ¬": 7253,
      "Ġ1988ĠniÃ¡nĠ": 7254,
      "Ġ15Ġ": 7255,
      "ĠĠĠzÄĵngĠzÇĶĠ": 7256,
      "yÃ³uĠxÃŃngĠ": 7257,
      "hÇİoĠpÃŃngĠ": 7258,
      "ĠzhÅįngĠjiÄģnĠ": 7259,
      "ele": 7260,
      "ĠjuÃ©Ġ": 7261,
      "qÃŃngĠdeĠ": 7262,
      "nÃ¡nĠzi": 7263,
      "chÇİngĠbÇĲĠsÃłiĠ": 7264,
      "fÃ¡ngĠwÅ«Ġ": 7265,
      "wÃ¡nĠzhÄĽngĠ": 7266,
      "shÄĵngĠyÃ¡": 7267,
      "ĠbÃ¨iĠÄĽr": 7268,
      "ĠzhÇĶĠyÇİnĠ": 7269,
      "ĠyÃŃ": 7270,
      "ÄģnĠrÃ©nĠ": 7271,
      "chÄ«": 7272,
      "tÃ³ngĠmÃŃngĠ": 7273,
      "tÃ¨ĠyÇĴuĠ": 7274,
      "ĠwÃ¨iĠzÃłiĠ": 7275,
      "ĠxÃŃngĠbÃ¹Ġ": 7276,
      "ĠyuÃ¡nĠyÄ«n": 7277,
      "fÃ¹ĠjÃ¬nĠdeĠ": 7278,
      "tÃ¨ĠzhÄĵng": 7279,
      "shÄģĠsÇĲĠ": 7280,
      "BC": 7281,
      "ĠchuÃłng": 7282,
      "ĠkÇİoĠ": 7283,
      "mÃ¬ĠdeĠ": 7284,
      "pÃ¨iĠbÃ¨iĠ": 7285,
      "ĠgÅįngĠnÃ©ng": 7286,
      "2ĠmÇĲĠ": 7287,
      "ĠshÄģ": 7288,
      "wÃ©nĠzhÅįngĠ": 7289,
      "dÃ¡ĠzhÅįuĠ": 7290,
      "ĠwÃ©iĠrÃłoĠ": 7291,
      "ĠcÃ¡o": 7292,
      "qÄ«ngĠchÃ¡oĠ": 7293,
      "gÇİiĠzhÃ¬ĠwÃ¨iĠ": 7294,
      "ĠĠĠdÃ¬ĠyÄ«Ġ": 7295,
      "85": 7296,
      "sÄĵngĠ": 7297,
      "ĠlÃ¡i": 7298,
      "ĠbÇİo": 7299,
      "hÃ©ĠzÃłiĠ": 7300,
      "gÇİngĠyuÃ¡nĠ": 7301,
      "bÇİoĠluÃ³Ġ": 7302,
      "fÃ¨iĠyÃ¡nĠ": 7303,
      "ĠfÇİ": 7304,
      "ĠshÇĴu": 7305,
      "xÄ«nĠshÃ¬Ġ": 7306,
      "cÃºnĠdeĠ": 7307,
      "cÄģnĠtÄ«ngĠ": 7308,
      "zhÇĲĠdeĠ": 7309,
      "dÄĽngĠdeĠ": 7310,
      "lÇľĠsÃ¨Ġ": 7311,
      "CO": 7312,
      "fÃºĠlÇĲĠ": 7313,
      "wÇĶĠgÃ¨Ġ": 7314,
      "tÃłiĠdeĠ": 7315,
      "piÃłnĠdeĠ": 7316,
      "ĠzÃłiĠxÄ«nĠ": 7317,
      "fÄģngĠmÇĲĠ": 7318,
      "xÃ¬ngĠnÃ©ngĠ": 7319,
      "yÇĲngĠxiÃłngĠ": 7320,
      "fÃ¨iĠyÃ²ngĠ": 7321,
      "ly": 7322,
      "ĠbÃ¡i": 7323,
      "ĠsÃ¹Ġ": 7324,
      "ĠqÄ«nĠ": 7325,
      "xÃ¹ĠlÃ¬ĠyÃł": 7326,
      "xÃŃngĠtÃłiĠ": 7327,
      "zÃłnĠtÃŃngĠ": 7328,
      "WĠ": 7329,
      "ĠzhÃ¬ĠyÃŃĠ": 7330,
      "dÃłĠqÅ«Ġ": 7331,
      "liÃ¡nĠjiÃ©Ġ": 7332,
      "ĠzhÃ¨ĠyÃłngĠ": 7333,
      "shÄĽngĠjiÄĵĠrÇİngĠ": 7334,
      "ĠlÃ¡o": 7335,
      "ĠxuÇİnĠ": 7336,
      "ĠguÇİngĠdÅįngĠ": 7337,
      "sÃ¬ĠshÃ¬Ġ": 7338,
      "xÄ«ĠnÃ¡nĠ": 7339,
      "ĠjÃ¬nĠzhÇĲĠ": 7340,
      "zhÃ¡i": 7341,
      "shÄĵnĠshÃ¬Ġ": 7342,
      "zhuÄģnĠyÃ¨": 7343,
      "gÃ¹ĠdÃ¬ngĠ": 7344,
      "ĠwÃºĠfÇİĠ": 7345,
      "sÄģnĠjÃŃĠ": 7346,
      "zhÄĽĠhÃ©Ġ": 7347,
      "ĠbÃ¹ĠshÇİo": 7348,
      "ĠdÃ¬Ġ1Ġ": 7349,
      "tuÄ«ĠguÇİngĠ": 7350,
      "zuÃ¬ĠwÃ¨iĠ": 7351,
      "ĠsÄ«ĠtÇİĠ": 7352,
      "jÃ¬ngĠzhÄĵng": 7353,
      "chÅ«ĠqÄ«Ġ": 7354,
      "7ĠyuÃ¨Ġ1ĠrÃ¬Ġ": 7355,
      "wÅ«ĠrÇİnĠ": 7356,
      "ĠhÅįngĠ": 7357,
      "tÃ²ng": 7358,
      "ĠxiÄģnĠhÃ²uĠ": 7359,
      "shÄĵnĠqÇĲng": 7360,
      "zhÃłĠdÃłnĠ": 7361,
      "mÇİĠkÃ¨ĠsÄ«Ġ": 7362,
      "ĠĠĠjÄ«nĠ": 7363,
      "zhÄĽĠhuÃ¬Ġ": 7364,
      "wÃ¡ngĠwÃ¨iĠ": 7365,
      "ĠsÄ«ĠkÄĵĠ": 7366,
      "ĠshÃ¬ĠyÄ«ĠkÄĵĠ": 7367,
      "ĠquÃ¡nĠzhÇİngĠ": 7368,
      "ĠzÃłiĠyÃ¬ĠqÇĲĠ": 7369,
      "ĠshÃ©n": 7370,
      "huÃŃĠguÃ³Ġ": 7371,
      "zhÃŃĠshÄĵngĠ": 7372,
      "xiÄģoĠliÃłngĠ": 7373,
      "chuÃłngĠzÃłoĠ": 7374,
      "xÃ¬ĠliÃ¨ĠdeĠ": 7375,
      "ĠtÃłi": 7376,
      "ĠhÃº": 7377,
      "jiÄģngĠtÄģĠ": 7378,
      "ĠshÃŃĠxÃ¬ngĠ": 7379,
      "ĠdÃ¬ĠzhÃ¨nĠ": 7380,
      "xÄ«nĠwÃ©n": 7381,
      "tÃ¨ĠdiÇİnĠ": 7382,
      "zhÇİngĠzÇĲĠ": 7383,
      "ĠshÃ¨ĠhuÃ¬ĠzhÇĶĠyÃ¬Ġ": 7384,
      "ĠmÃłiĠkÃ¨Ġ": 7385,
      "ĠzhÃ²ng": 7386,
      "fÄĵnĠchÃ©ngĠ": 7387,
      "yÃ¬ngĠjÃŃĠ": 7388,
      "gÄģoĠdÃ¡Ġ": 7389,
      "Ġ185": 7390,
      "tÇİoĠlÃ¹n": 7391,
      "lÄģĠhÃ©Ġ": 7392,
      "luÃ²ĠsÄ«Ġ": 7393,
      "ĠbÃ¹ĠlÃ¡iĠ": 7394,
      "ĠjÃŃĠhÃ²uĠ": 7395,
      "ĠgÅįngĠqÇĲngĠ": 7396,
      "fÃºĠluÃ³ĠlÇĲĠ": 7397,
      "wÇĶĠqÃ¬": 7398,
      "ĠshÃ¬ĠjiÃ¨ĠbÄĵiĠ": 7399,
      "ĠfÇĴuĠ": 7400,
      "chÇİnĠshÄĵngĠleĠ": 7401,
      "dÇĴngĠ": 7402,
      "ĠĠĠ3Ġ": 7403,
      "lÇľĠdeĠ": 7404,
      "fÃ¡ngĠwÃ¨iĠ": 7405,
      "ĠshÃ¨ĠyÃºĠ": 7406,
      "ĠshÄĵngĠmÃŃngĠ": 7407,
      "ĠguÃ³ĠjiÄģĠduÃ¬Ġ": 7408,
      "tiÄĽĠlÃ¹ĠchÄĵĠzhÃłnĠ": 7409,
      "iv": 7410,
      "oli": 7411,
      "xiÄģĠ": 7412,
      "guÄģnĠcÃ¨Ġ": 7413,
      "gÃ¨ngĠduÅįĠdeĠ": 7414,
      "ĠshuÄģngĠfÄģngĠ": 7415,
      "37Ġ": 7416,
      "ĠshÄĽnĠ": 7417,
      "shuÃ²Ġ": 7418,
      "lÇĲĠbÃ¹Ġ": 7419,
      "tuÄ«ĠjiÃłnĠ": 7420,
      "ĠzÃłiĠtÄģĠdeĠ": 7421,
      "ĠlÃ¬ĠshÃŃĠ": 7422,
      "ĠgÅįngĠgÃ²ng": 7423,
      "he": 7424,
      "nÄ«": 7425,
      "lÃ¨iĠxÃŃngĠdeĠ": 7426,
      "ĠtÄģĠcÃ©ngĠ": 7427,
      "suÇĴĠshÇĶ": 7428,
      "ĠpÃ¡n": 7429,
      "qÇĶĠxiÄģo": 7430,
      "ĠjiÄģngĠsÅ«Ġ": 7431,
      "jÃŃĠbÃ¹Ġ": 7432,
      "quÃ¡nĠshÃ¬Ġ": 7433,
      "ĠniÃ¡nĠlÃŃngĠ": 7434,
      "ĠshÃ¬ĠzhÅįngĠhuÃ¡ĠrÃ©nĠmÃŃnĠgÃ²ngĠhÃ©ĠguÃ³Ġ": 7435,
      "yÇĲngĠxiÇİngĠlÃ¬Ġ": 7436,
      "ĠÏ": 7437,
      "chÅįngĠjÄ«Ġ": 7438,
      "jÄ«ngĠjÃ¬": 7439,
      "ĠxÄ«nĠzÄĵngĠ": 7440,
      "xiÃ©ĠdÃ¬ngĠ": 7441,
      "cÇĲĠshÃŃĠ": 7442,
      "ĠdÃ¬ĠzhÃ¬Ġ": 7443,
      "wÃ©nĠhuÃłĠdeĠ": 7444,
      "ĠĠĠjiÄģĠtÃŃngĠ": 7445,
      "ĠwÄĵiĠliÃ¡nĠ": 7446,
      "hÄĵngĠ": 7447,
      "ÃłnĠzhÅįngĠ": 7448,
      "bÃ¬ngĠwÃ¨iĠ": 7449,
      "ĠfÃ¡n": 7450,
      "Ġ1989ĠniÃ¡nĠ": 7451,
      "ĠwÃłi": 7452,
      "sÃ¬ĠdÃłĠ": 7453,
      "zÇĴngĠhuÃ¬Ġ": 7454,
      "nÃłĠdÃ©Ġ": 7455,
      "bÄģnĠdeĠ": 7456,
      "ĠlÃ¬ĠshÇĶĠ": 7457,
      "zhÇĶĠxÃŃ": 7458,
      "ĠpÃŃngĠlÃ¹nĠ": 7459,
      "yÄ«ngĠgÄģi": 7460,
      "300": 7461,
      "bĠ": 7462,
      "ĠyÄ«ĠrÃ©nĠ": 7463,
      "ĠjiÄģĠzÃº": 7464,
      "mÄĽiĠguÃ³ĠrÃ©nĠ": 7465,
      "Ġsection": 7466,
      "ĠdeĠzuÃ²ĠbiÄģoĠwÃ¨iĠ": 7467,
      "ĠX": 7468,
      "ĠyÇĴng": 7469,
      "shÄĵngĠzhÃ¬Ġ": 7470,
      "ĠdÃłoĠhÃ©Ġ": 7471,
      "ĠjÃ¬ĠzÇİi": 7472,
      "yÃ¡nĠzhÃ²ngĠdeĠ": 7473,
      "fÄģngĠxiÃłng": 7474,
      "mÃ¹ĠnÃŃĠ": 7475,
      "xuÃ©ĠbÃ¹Ġ": 7476,
      "yÃŃĠdÃłoĠ": 7477,
      "ĠyÃºĠlÃ¨iĠ": 7478,
      "ĠtÃ³ngĠpÃ¡iĠ": 7479,
      "lÃ¨iĠsÃ¬ĠdeĠ": 7480,
      "34Ġ": 7481,
      "liÃºĠdeĠ": 7482,
      "xuÇİnĠchÅ«Ġ": 7483,
      "hÃ¡iĠzÃłiĠ": 7484,
      "zhÃŃĠyÃ¨": 7485,
      "nÃ³ngĠcÅ«nĠ": 7486,
      "ĠfÄĵnĠbiÃ©Ġ": 7487,
      "ruÃ¬ĠdiÇİn": 7488,
      "zÃ¨ng": 7489,
      "ĠhÃºĠnÃ¡nĠ": 7490,
      "mÄĽiĠjÅ«nĠ": 7491,
      "alĠĠĠ": 7492,
      "ĠniÃ¡nĠqÄ«ngĠ": 7493,
      "dÃłiĠlÃ¡iĠ": 7494,
      "yÄĽĠkÄĽĠyÇĲĠ": 7495,
      "nÃ¼Ã¨": 7496,
      "ĠchÅįngĠ": 7497,
      "ĠshÃ¬ĠjÃ¬ĠdeĠ": 7498,
      "ĠdÃłoĠyÄ«Ġ": 7499,
      "yÃ¹nĠdÃ²ngĠdeĠ": 7500,
      "ĠcÃ©ngĠrÃ¨n": 7501,
      "mer": 7502,
      "yÃ¬ĠbÃ¹Ġ": 7503,
      "chÄĵĠliÃłng": 7504,
      "ĠzÃ¬ĠyÃ³u": 7505,
      "jiÇİnĠcÃ¨Ġ": 7506,
      "ĠtÃ³ngĠyÃłngĠ": 7507,
      "Ġ1983ĠniÃ¡nĠ": 7508,
      "ĠzhÇĲĠzÃłiĠ": 7509,
      "ĠchÃº": 7510,
      "Ġ28": 7511,
      "ĠĠĠshÇĲĠyÃ²ngĠ": 7512,
      "ĠshÃŃĠzhÃ¬Ġ": 7513,
      "qiÄģnĠyuÄĵĠ": 7514,
      "ĠzuÃ¬ĠdÃłĠ": 7515,
      "ĠkÃ¹": 7516,
      "hÇİiĠshÃłngĠ": 7517,
      "bÄģĠÄĽrĠ": 7518,
      "ĠshÃ¬ĠfÇĴu": 7519,
      "guÃ³ĠhuÃ¬Ġ": 7520,
      "duÃ¬ĠshÇĴuĠ": 7521,
      "ĠtÄģĠrÃ¨nĠwÃ©iĠ": 7522,
      "ĠyÃºĠ2011ĠniÃ¡nĠ": 7523,
      "ĠdÃ²ngĠ": 7524,
      "ĠxÇĶĠduÅį": 7525,
      "jiÄģĠgÅįngĠ": 7526,
      "fÃ¹ĠjiÄģĠ": 7527,
      "sÇĲĠxÃŃngĠ": 7528,
      "qÃ¬ngĠzhÃ¹Ġ": 7529,
      "ĠyÇĴuĠdÃłĠ": 7530,
      "ĠjiÃłnĠkÄģngĠ": 7531,
      "sÃ¨ĠfÅ«Ġ": 7532,
      "kuÃ²ĠzhÇİn": 7533,
      "ĠyÃºĠ2024ĠniÃ¡nĠ": 7534,
      "ĠĠĠgÄĵnĠjÃ¹Ġ2020ĠniÃ¡nĠmÄĽiĠguÃ³ĠrÃ©nĠkÇĴuĠpÇĶĠchÃ¡ĠdeĠshÃ¹ĠjÃ¹Ġ": 7535,
      "Ġ50": 7536,
      "guÃ³ĠlÃ¬Ġ": 7537,
      "ĠSĠ": 7538,
      "zÄĵngĠjiÄģĠleĠ": 7539,
      "etĠĠĠ": 7540,
      "âĨ": 7541,
      "guÃ²ĠyÃºĠ": 7542,
      "wÇĶĠyuÃ¨Ġ": 7543,
      "jiÇİngĠshÃ¹Ġ": 7544,
      "shÃłngĠhÇİiĠshÃ¬Ġ": 7545,
      "ĠxÄ«ng": 7546,
      "ÄģĠÄĽr": 7547,
      "liÇĶ": 7548,
      "huÃŃĠhÃ©Ġ": 7549,
      "rÃ©ngĠzÃłiĠ": 7550,
      "ĠyÄ«ĠzhÃ¬Ġ": 7551,
      "ĠchÅ«ĠfÄģĠ": 7552,
      "yÃłĠmÃ¹Ġ": 7553,
      "bÄģnĠjiÇİngĠ": 7554,
      "ĠIn": 7555,
      "xiÄģngĠjÃ¬Ġ": 7556,
      "dÄģnĠyuÃ¡nĠ": 7557,
      "qiÃ¨ĠÄĽrĠ": 7558,
      "ĠyÇĴuĠzhÃ¹Ġ": 7559,
      "zhÃ¨ngĠxiÃ©Ġ": 7560,
      "ĠbÃ¬ngĠrÃ¹Ġ": 7561,
      "nÃºĠ": 7562,
      "xÄ«nĠrÃ©nĠ": 7563,
      "ĠdÃłĠqiÃ¡oĠ": 7564,
      "zhÃłnĠlÇĲng": 7565,
      "zhÃłoĠkÄģi": 7566,
      "ĠdÇİngĠ": 7567,
      "shÃłngĠyÄ«Ġ": 7568,
      "xÃ¬ngĠshÃ¬Ġ": 7569,
      "bÄĽnĠtÇĶĠ": 7570,
      "qÃºnĠdÇİo": 7571,
      "dÄĵngĠchÃ¡ngĠ": 7572,
      "ĠyÇĲĠzÃłiĠ": 7573,
      "ĠyÇĲĠzhÃ¬Ġ": 7574,
      "ĠyÄ«ĠcÃŃĠ": 7575,
      "hÇİiĠbÃ¡ĠgÄģoĠ": 7576,
      "yÅįuĠxiÃ¹": 7577,
      "ĠdeĠjÃ¬ĠlÃ¹Ġ": 7578,
      "cÄģnĠmÃ³uĠzhÇİngĠ": 7579,
      "500Ġ": 7580,
      "wÄĽn": 7581,
      "ĠbÃ¹ĠyÄ«Ġ": 7582,
      "ĠlÃ¬ĠziĠ": 7583,
      "ĠdÃłĠdÃło": 7584,
      "lÃ¹ĠzhÃłnĠ": 7585,
      "gÇİiĠgÃ©": 7586,
      "fÃ©n": 7587,
      "ĠcÃ¨Ġ": 7588,
      "ĠkÄĽĠnÃ©ngĠ": 7589,
      "ĠĠĠ2": 7590,
      "ĠjÃŃĠxÃŃngĠzhÃ¨ngĠ": 7591,
      "zÇĶĠzhÇĲĠ": 7592,
      "87": 7593,
      "ĠzhÄĵn": 7594,
      "jiÄģoĠchÄģĠ": 7595,
      "Ġ000ĠrÃ©nĠ": 7596,
      "150": 7597,
      "ĠshÃ¬ĠyÃ³u": 7598,
      "xÄ«ĠbÄĽiĠ": 7599,
      "ĠmÃ©nĠ": 7600,
      "ĠĠĠ0": 7601,
      "yÃłoĠdeĠ": 7602,
      "yÃ¡ngĠxiÃłnĠ": 7603,
      "duÃ¬ĠwÇĶĠ": 7604,
      "ĠmÄĽngĠ": 7605,
      "xÃºnĠhuÃ¡nĠ": 7606,
      "cÃºnĠzÃłiĠdeĠ": 7607,
      "tÇĶĠÄĽrĠqÃŃ": 7608,
      "rÃ³u": 7609,
      "ĠĠĠdÃłn": 7610,
      "hÃ©ĠwÃ¨iĠ": 7611,
      "wÃ¹ĠhÃ©Ġ": 7612,
      "jÇĲĠniÃ¡nĠ": 7613,
      "kÅįngĠjÅ«n": 7614,
      "zhuÃłngĠjÄ«Ġ": 7615,
      "bÇİoĠcÃºnĠ": 7616,
      "ĠnÇİi": 7617,
      "nÃ¡nĠjÃŃĠzhÅįuĠdeĠ": 7618,
      "if": 7619,
      "shÄĽngĠdÃłoĠ": 7620,
      "ĠzÃłiĠtÄģĠ": 7621,
      "shÄ«ĠbÃłi": 7622,
      "ĠcÄģng": 7623,
      "cuÃ¬Ġ": 7624,
      "ut": 7625,
      "fÄĵiĠzhÅįu": 7626,
      "ĠyÃºĠdÃ¬Ġ": 7627,
      "ĠyÃ³uĠcÇĲĠ": 7628,
      "gÇĶĠfÃ¨nĠyÇĴuĠxiÃłnĠgÅįngĠsÄ«Ġ": 7629,
      "mÇİiĠ": 7630,
      "ĠlÃŃ": 7631,
      "ĠmÃ¬Ġ": 7632,
      "zhÃŃĠzhÃ¬Ġ": 7633,
      "ĠkÃ¨ĠyÃ¹nĠ": 7634,
      "Ġ1984ĠniÃ¡nĠ": 7635,
      "ĠhantĠ": 7636,
      "ĠĠĠrÃ¡nĠÃ©rĠ": 7637,
      "lÃłnĠ": 7638,
      "chuÃ¡nĠzhÄ«Ġ": 7639,
      "ĠzÃłiĠbÄĽiĠ": 7640,
      "ĠzhÄ«ĠzhÃłnĠ": 7641,
      "tÇĲĠyÃ¹": 7642,
      "ĠlÄĽngĠ": 7643,
      "ĠsÃ¬ĠchuÄģnĠ": 7644,
      "ĠÄģn": 7645,
      "ĠmÃ³": 7646,
      "ĠĠĠ6": 7647,
      "diÃłnĠdeĠ": 7648,
      "chÃ¡ngĠjiÃłnĠ": 7649,
      "ĠxiÃłnĠzhÄ«ĠxiÃłnĠ": 7650,
      "jiÃłoĠshÃ²u": 7651,
      "fÄģĠshÄĵngĠleĠ": 7652,
      "shÇĶĠdeĠzhÃŃĠwÃ¹Ġ": 7653,
      "97": 7654,
      "ĠzÃłiĠgÄģiĠ": 7655,
      "shÇĴuĠxÃŃĠ": 7656,
      "xiÃłoĠyÃ¬ngĠ": 7657,
      "ĠchÇĶĠ": 7658,
      "xÄ«ĠshÃ¬Ġ": 7659,
      "mÃ¬ĠsÄ«Ġ": 7660,
      "ĠzhÄ«ĠliÃºĠ": 7661,
      "zhÇĲĠdÃ¬ngĠ": 7662,
      "fÃłngĠqÃ¬": 7663,
      "ĠĠĠ2004ĠniÃ¡nĠ": 7664,
      "nÃ¡ngĠ": 7665,
      "ĠbÄģoĠhÃ¡nĠ": 7666,
      "ĠbÃ¹ĠÄĽrĠ": 7667,
      "ĠyÇĴuĠguÄģn": 7668,
      "zÇĴngĠcÃ¡iĠ": 7669,
      "zhÃłngĠfÅ«Ġ": 7670,
      "dÄģo": 7671,
      "ĠcÇİiĠyÃ²ngĠ": 7672,
      "jiÄģnĠshÃ¬Ġ": 7673,
      "ĠzÃłiĠyÇĶĠ": 7674,
      "ĠtÄģĠduÃ¬Ġ": 7675,
      "fÄĵnĠbiÃ©ĠwÃ¨iĠ": 7676,
      "miÃ¡n": 7677,
      "ĠluÃ²": 7678,
      "bÄĽnĠxiÃłnĠ": 7679,
      "tÃ³uĠbÃ¹Ġ": 7680,
      "187": 7681,
      "bÃ¹ĠfÃ¨nĠ": 7682,
      "jiÄĵĠshÅįuĠ": 7683,
      "zhÅįuĠbiÄģnĠ": 7684,
      "jiÃłngĠdÄ«": 7685,
      "shuÃłiĠlÇĲngĠ": 7686,
      "sÄģoĠ": 7687,
      "xuÃłnĠ": 7688,
      "huÃ¬ĠyÇĲĠ": 7689,
      "sÇĲĠyÃºĠ": 7690,
      "qiÄģnĠdÃ¬ngĠ": 7691,
      "ĠshÃ¬ĠyÃ¬ĠdÃłĠlÃ¬Ġ": 7692,
      "46Ġ": 7693,
      "war": 7694,
      "Ã©ĠwÃ¨iĠ": 7695,
      "hÄĵiĠrÃ©nĠ": 7696,
      "jÄ«ĠbÄĽnĠ": 7697,
      "ĠjiÃłnĠshÃ¬Ġ": 7698,
      "nÃ¡nĠfÄģngĠ": 7699,
      "kÄĵĠhuÃ¬": 7700,
      "pÃłnĠluÃłnĠ": 7701,
      "ĠÄģĠlÄģĠ": 7702,
      "ĠqÃŃnĠ": 7703,
      "shÄģngĠdeĠ": 7704,
      "huÃ¡nĠxÃŃngĠ": 7705,
      "ĠniÃ¡nĠniÃ¡nĠ": 7706,
      "ĠdÃ©ĠdÃłoĠleĠ": 7707,
      "dÇĲĠkÃłngĠ": 7708,
      "huÃ¡iĠyÃŃĠ": 7709,
      "yÃ¡nĠshÃŃĠ": 7710,
      "biÃ©ĠdeĠ": 7711,
      "yÄ«ĠxiÄĵĠ": 7712,
      "ĠgÅįngĠlÃ¹": 7713,
      "ĠlÃ¬ngĠwÃłi": 7714,
      "nÃ¡ĠpÃ²Ġ": 7715,
      "luÃ³ĠdÃ©Ġ": 7716,
      "zhÄĽngĠgÃ¨": 7717,
      "xÄ«ĠbÄĽiĠbÃ¹Ġ": 7718,
      "ĠshÃ¨ĠjÃ¬ĠdeĠ": 7719,
      "ĠshÃ¬ĠyÄ«ĠzuÃ²Ġ": 7720,
      "xiÃłĠxiÃ¡ĠyÇĲĠxiÃł": 7721,
      "ĠĠĠ3ĠyuÃ¨Ġ": 7722,
      "kÄģiĠzhÇİnĠ": 7723,
      "yÃŃĠchÇİn": 7724,
      "hÃ¡ngĠtiÄģnĠ": 7725,
      "ĠruÇİnĠ": 7726,
      "ĠĠĠ12": 7727,
      "zhÇİngĠdÃłĠ": 7728,
      "mÃ©nĠdeĠ": 7729,
      "ĠjÃŃĠlÃŃnĠ": 7730,
      "zhÃ¹ĠdÃ¬Ġ": 7731,
      "yÄĽĠbÃ¹Ġ": 7732,
      "gÃ©ĠÄĽrĠ": 7733,
      "chuÃ¡nĠmÃ©iĠ": 7734,
      "yÄ«ĠbÃ¹ĠfÃ¨n": 7735,
      "186": 7736,
      "ĠxÃŃngĠshÇĲĠ": 7737,
      "cÄģnĠyÃ¹ĠleĠ": 7738,
      "ĠxÃ¬nĠ": 7739,
      "zhÄĽĠwÃ¨iĠ": 7740,
      "ĠlÃ¬ĠyÃ²ng": 7741,
      "xÄ«ĠnÃ¡nĠbÃ¹Ġ": 7742,
      "fÇİĠtÃŃngĠ": 7743,
      "jÃ¬ngĠsÃłiĠ": 7744,
      "ĠsÃłiĠ": 7745,
      "duÄ«Ġ": 7746,
      "zhÃłnĠwÃ¨iĠyÃºĠ": 7747,
      "bÄģĠlÄģĠ": 7748,
      "mÃ¹ĠsÄ«ĠlÃŃnĠ": 7749,
      "hÇİiĠbÃ¡ĠgÄģoĠdÃ¹ĠwÃ¨iĠ": 7750,
      "zhÃŃĠyuÃ¡nĠ": 7751,
      "yÃ¡nĠzhÃ²ng": 7752,
      "mÇİĠtÃ³uĠ": 7753,
      "tÅįngĠxÃ¹nĠ": 7754,
      "ĠshÄĵngĠzhÇİngĠyÃºĠ": 7755,
      "ist": 7756,
      "ĠÃ©": 7757,
      "ĠlÃ©i": 7758,
      "ĠxÃ¹Ġ": 7759,
      "xÃºnĠqiÃºĠ": 7760,
      "nuÃ²ĠyÄ«Ġ": 7761,
      "ĠshÃ¬ĠbÄ«ngĠ": 7762,
      "yÃ³uĠtÃłiĠrÃ©nĠ": 7763,
      "ĠzhÅįngĠguÃ³ĠguÃ³ĠmÃŃnĠ": 7764,
      "ĠpÄģiĠ": 7765,
      "ock": 7766,
      "ami": 7767,
      "tÄģĠzÃłiĠ": 7768,
      "zhÃŃĠlÃ¬Ġ": 7769,
      "dÄģnĠyÄ«Ġ": 7770,
      "ĠbÃ¹ĠdÃŃĠ": 7771,
      "ĠxiÃłnĠjÄ«nĠ": 7772,
      "ĠhuÃłnĠ": 7773,
      "ĠqiÃºĠhuÃ¬Ġ": 7774,
      "shÄĽngĠwÄĽiĠ": 7775,
      "guÄģngĠxÃ¹Ġ": 7776,
      "zhuÄģnĠmÃ©nĠ": 7777,
      "ĠdeĠchÃ©ngĠzhÃ¨nĠ": 7778,
      "kÇİn": 7779,
      "ÄģĠlÇĲĠ": 7780,
      "lÄģĠÄĽrĠ": 7781,
      "ĠdÃ¬ĠmiÃłnĠ": 7782,
      "luÃ³ĠbÃ³ĠtÃ¨Ġ": 7783,
      "yÇĲnĠzhÇĴngĠ": 7784,
      "kuÃłiĠsÃ¹": 7785,
      "bÃºĠyÃłoĠ": 7786,
      "ĠhÃ©ĠlÇĲĠ": 7787,
      "xuÃ©ĠxÃŃ": 7788,
      "ĠxÃŃngĠxiÃłngĠ": 7789,
      "yÃŃngĠyÃ¨Ġ": 7790,
      "ĠwÃ¨iĠfÃºĠqÃŃĠyÃºĠgÄģng": 7791,
      "ĠsÃ²ng": 7792,
      "ĠchÄĵĠzhÃłn": 7793,
      "ĠdÅįngĠjÄ«ngĠ": 7794,
      "bÄģngĠzhÃ¹": 7795,
      "mÃ²ĠsÄ«ĠkÄĵ": 7796,
      "gr": 7797,
      "tÃło": 7798,
      "ĠĠĠ5ĠyuÃ¨Ġ": 7799,
      "tuÃ³": 7800,
      "ĠdeĠzhÇĶĠyÃłoĠ": 7801,
      "ĠguÃ³ĠmÃŃn": 7802,
      "ĠxÄ«ĠÄģnĠ": 7803,
      "jiÇİnĠdÄģnĠ": 7804,
      "wÄĽiĠfÃ¹ĠshÅ«ĠjÃ¬Ġ": 7805,
      "cÃ¬ĠwÃ¨iĠ": 7806,
      "gÄĵĠjÃ¹Ġ": 7807,
      "sÄ«ĠlÃ¡nĠ": 7808,
      "ĠxiÄģngĠdÄģng": 7809,
      "yÃ³uĠqÃŃĠ": 7810,
      "wÇĶĠdÃ¬Ġ": 7811,
      "ĠwÃ¨iĠcÇĲĠ": 7812,
      "ĠdÃłĠliÃłng": 7813,
      "biÄģnĠhÃłoĠwÃ¨iĠ": 7814,
      "lÃŃĠziĠ": 7815,
      "ĠtÄ«Ġ": 7816,
      "xÃºnĠyÃ¡ngĠjiÃłnĠ": 7817,
      "rÃ³ngĠnÃłĠ": 7818,
      "ĠqÃŃĠzhÅįngĠnÃ¡nĠxÃ¬ngĠ": 7819,
      "ĠyÃºĠ2009ĠniÃ¡nĠ": 7820,
      "ĠsuÃŃĠzhe": 7821,
      "ĠnÇĲ": 7822,
      "ÄģnĠxiÃłnĠ": 7823,
      "cÃ©ngĠshuÇĲĠyÃ¹Ġ": 7824,
      "wÄĵiĠxiÇİnĠ": 7825,
      "zhuÃłnĠdeĠxiÇİoĠxÃŃngĠxÄ«ngĠ": 7826,
      "ĠdÄ«ngĠ": 7827,
      "ĠĠĠpÃŃngĠjiÃłĠ": 7828,
      "wÃ¹ĠyuÃ¡nĠ": 7829,
      "fÃºĠdÃ©Ġ": 7830,
      "ĠhÃ©ĠjÃŃĠ": 7831,
      "ĠkÃ¨ĠlÃ¡iĠ": 7832,
      "jiÄģoĠhuÃłnĠ": 7833,
      "AO": 7834,
      "ĠwÅ«ĠkÃ¨ĠlÃ¡nĠ": 7835,
      "zhÇİngĠwÃ¨iĠ": 7836,
      "nÃłĠcuÃ¬": 7837,
      "liÃ¡ngĠshÃŃĠ": 7838,
      "ĠzhÃ¨ĠshÇĴuĠ": 7839,
      "Ġ184": 7840,
      "Ġ1986ĠniÃ¡nĠ": 7841,
      "Ġre": 7842,
      "ĠdiÃłnĠshÃ¬Ġ": 7843,
      "ĠhuÃ¡nĠ": 7844,
      "yÇĶĠshÃ¬Ġ": 7845,
      "yÃ³uĠrÃ©nĠgÅįngĠ": 7846,
      "ĠhÃ²uĠqÄ«Ġ": 7847,
      "fÇĶĠzhÃ¹Ġ": 7848,
      "ĠxÄ«nĠzÄĵng": 7849,
      "guÄ«ĠfÃłnĠ": 7850,
      "ĠjiÃłnĠlÃ¬ĠleĠ": 7851,
      "42": 7852,
      "ĠhÃ¡n": 7853,
      "tuÄ«ĠchÅ«ĠdeĠ": 7854,
      "wÃ©iĠzhÇĲĠ": 7855,
      "ĠshÃ¨ĠjÄ«Ġ": 7856,
      "ĠwÃ©iĠchÃŃĠ": 7857,
      "ĠshÃ¨ĠhuÃ¬": 7858,
      "shÄģĠhÃłiĠ": 7859,
      "fÄĽiĠ": 7860,
      "ala": 7861,
      "juÃ©ĠleĠ": 7862,
      "ĠdeĠhuÃłĠ": 7863,
      "ĠshÃŃĠyÃ²ngĠ": 7864,
      "93": 7865,
      "BCĠ": 7866,
      "ÃłiĠguÃ³Ġ": 7867,
      "qÇĲĠleĠ": 7868,
      "cÃ¬ĠdÃłĠ": 7869,
      "zhÅįngĠxÄ«nĠ": 7870,
      "ĠgÅįngĠchÇĲ": 7871,
      "ĠjiÃłnĠwÃ¨iĠ": 7872,
      "ĠqiÃºĠchÇİngĠ": 7873,
      "ĠĠĠchÃºĠleĠ": 7874,
      "qiÇİo": 7875,
      "shÃ¹ĠshÃ¬Ġ": 7876,
      "miÃłnĠlÃŃnĠ": 7877,
      "tÃºĠxiÃłngĠ": 7878,
      "qÃºnĠtÇĲĠ": 7879,
      "ĠĠĠ8": 7880,
      "zhÄģngĠdeĠ": 7881,
      "luÃ²ĠdeĠ": 7882,
      "ĠzÃłiĠrÃ¬ĠbÄĽnĠ": 7883,
      "cÄģnĠsÃłi": 7884,
      "ĠgÅ«Ġ": 7885,
      "ĠgÅįngĠchÃ©ngĠshÄ«Ġ": 7886,
      "shÃłoĠjiÃłngĠ": 7887,
      "gÃ¨ĠdÃ¬Ġ": 7888,
      "gÇİnĠlÇİn": 7889,
      "shÃ¹nĠshÃŃĠ": 7890,
      "ĠshÃ¬ĠnÃ¨iĠ": 7891,
      "ĠyÃºĠ2010ĠniÃ¡nĠ": 7892,
      "zÇĴngĠjiÄģnĠ": 7893,
      "gÇİiĠbiÄģnĠ": 7894,
      "ĠrÃ©nĠmÃŃnĠbÃ¬Ġ": 7895,
      "dÅ«ĠdÅ«Ġ": 7896,
      "lÇİoĠshÄ«Ġ": 7897,
      "ĠpÇĶ": 7898,
      "ĠqiÅ«Ġ": 7899,
      "ĠniÃºĠ": 7900,
      "zhÄ«ĠyuÃ¡nĠ": 7901,
      "zhuÅį": 7902,
      "gÄĵĠdeĠ": 7903,
      "fÃºĠhÃłoĠ": 7904,
      "ĠtÃ©ng": 7905,
      "ĠtÃ¬Ġ": 7906,
      "ĠdÃ¬ĠÃ¨rĠcÃ¬Ġ": 7907,
      "Ġ1958ĠniÃ¡nĠ": 7908,
      "42Ġ": 7909,
      "ĠĠĠjÄ«ngĠjÃ¬Ġ": 7910,
      "ĠjÃŃĠshÇĲ": 7911,
      "fÇİĠlÃ¡nĠ": 7912,
      "ĠjÃ¬nĠniÃ¡nĠ": 7913,
      "rÃ¹ĠqÄ«n": 7914,
      "gÇİngĠkÇĴuĠ": 7915,
      "ĠzÃłiĠdÃ¬ĠÃ¨rĠ": 7916,
      "ill": 7917,
      "pÃŃngĠjÅ«nĠhÇİiĠbÃ¡ĠgÄģoĠdÃ¹ĠwÃ¨iĠ": 7918,
      "duÃ¬ĠhÃ©Ġ": 7919,
      "yÃ¹nĠhÃ©Ġ": 7920,
      "zÃºĠqiÃºĠduÃ¬Ġ": 7921,
      "nÃŃĠxÄ«ĠyÃłĠ": 7922,
      "gÅįngĠkÄģiĠ": 7923,
      "nÃłĠxiÄĵĠ": 7924,
      "chuÃłngĠbÃłnĠ": 7925,
      "mÃ©ngĠjÅ«nĠ": 7926,
      "ĠÄĽrĠdÃ©": 7927,
      "jiÃ©ĠdÃ¹ĠshÇĲĠ": 7928,
      "ĠkÃ¨ĠlÄģĠ": 7929,
      "ĠÃ©rĠgÄģiĠdÃ¬ĠdeĠpÃŃngĠjÅ«nĠhÇİiĠbÃ¡ĠgÄģoĠdÃ¹ĠwÃ¨iĠ": 7930,
      "LE": 7931,
      "fÄĵnĠzhÄ«ĠyÄ«Ġ": 7932,
      "ĠyÇĴuĠlÃ¬Ġ": 7933,
      "bÃłnĠyÇİnĠ": 7934,
      "gÃłoĠsÃ¹Ġ": 7935,
      "fÄĵngĠdeĠ": 7936,
      "ĠxÄ«ĠyÇĲnĠ": 7937,
      "ĠdeĠdÃ¬ĠÃ¨r": 7938,
      "dÄģngĠjÃºĠ": 7939,
      "2010ĠniÃ¡nĠmÄĽiĠguÃ³ĠrÃ©nĠkÇĴuĠpÇĶĠchÃ¡ĠdeĠshÃ¹ĠjÃ¹Ġ": 7940,
      "liÇİoĠjiÄĽ": 7941,
      "hÇİnĠmÃ²": 7942,
      "chÅ«ĠdÃłoĠ": 7943,
      "yÇİnĠchÅ«": 7944,
      "yÃ¬ngĠduÃ¬Ġ": 7945,
      "fÄĵnĠqÅ«Ġ": 7946,
      "mÇĲĠyÃłĠ": 7947,
      "fÄĵiĠfÇİĠ": 7948,
      "Ġ1946ĠniÃ¡nĠ": 7949,
      "yÇĲnĠzhÇĴngĠzÄģiĠpÃ©iĠ": 7950,
      "terĠ": 7951,
      "ĠyÃ¨": 7952,
      "ĠyÅįuĠ": 7953,
      "ĠzhÄĽngĠ": 7954,
      "zhÄĵĠ": 7955,
      "jÄ«ĠshÃ¬Ġ": 7956,
      "tuÇĴĠ": 7957,
      "biÄģnĠchÃ©ngĠ": 7958,
      "ĠwÃ¨iĠmÃŃngĠ": 7959,
      "ĠyÄ«ĠtiÃ¡oĠ": 7960,
      "ĠjÄ«ĠyÄ«nĠ": 7961,
      "qÃŃngĠxÃ¹Ġ": 7962,
      "shÄĽnĠchÃ¡Ġ": 7963,
      "ĠliÃºĠyÃ¹Ġ": 7964,
      "pÃŃnĠlÇľĠ": 7965,
      "75Ġ": 7966,
      "ĠhÃ¨": 7967,
      "ĠĠĠyuÃ¨Ġ": 7968,
      "leĠĠĠ": 7969,
      "chÅ«ĠrÃ¨nĠ": 7970,
      "zÃ©ĠyÇĴuĠ": 7971,
      "ĠnÇİiĠ": 7972,
      "kÇİĠluÃ³ĠlÃ¡iĠ": 7973,
      "ĠguÃ²Ġ": 7974,
      "yuÃ¡nĠdÃ¬Ġ": 7975,
      "shÄĵnĠshÃłngĠ": 7976,
      "ĠxÄ«ĠxÄ«Ġ": 7977,
      "ĠzhÄ«ĠqiÃ¡n": 7978,
      "oni": 7979,
      "ĠyÃºnĠnÃ¡nĠ": 7980,
      "ĠĠĠtiÄģnĠ": 7981,
      "jiÃłoĠyÃºĠ": 7982,
      "sÃ¬ĠmÃŃngĠ": 7983,
      "zÃºĠyÇĲĠ": 7984,
      "jÄ«ĠbÇİiĠ": 7985,
      "ĠqiÃºĠdeĠ": 7986,
      "zhÇİnĠkÄģi": 7987,
      "fÄģĠzhÇİnĠdeĠ": 7988,
      "yÃ³uĠrÃ©nĠgÅįngĠyÇĲnĠzhÇĴngĠzÄģiĠpÃ©iĠ": 7989,
      "lÃ¬ĠzhÅįngĠ": 7990,
      "qÃŃngĠxÃŃngĠ": 7991,
      "zhÃ¹ĠcÃ¨Ġ": 7992,
      "ĠdeĠyÄ«ĠxiÄĵĠ": 7993,
      "jÅ«ĠmÃŃnĠdiÇİnĠ": 7994,
      "ĠyÇĲĠsÃ¨ĠliÃ¨": 7995,
      "kÄĵĠhuÃ¬ĠshÃ¬ĠdÃ¬Ġ": 7996,
      "ĠĠĠ1": 7997,
      "shuÅįĠshÃ¬Ġ": 7998,
      "dÄģnĠdÇİĠ": 7999,
      "leĠyÄ«ĠxiÄĵĠ": 8000,
      "rÃ¨ĠdÃłiĠfÄĵngĠbÃłoĠ": 8001,
      "ĠliÇİngĠgÃ¨Ġ": 8002,
      "jÃ¬ĠjÃŃĠ": 8003,
      "ĠzhÅįngĠzuÃ¬Ġ": 8004,
      "ĠsÄ«ĠxiÇİngĠ": 8005,
      "ĠzhÄ«ĠfÇĶĠ": 8006,
      "ĠwÃ©iĠyÃłĠ": 8007,
      "ĠdÄģngĠniÃ¡nĠ": 8008,
      "diÃłnĠyÇĲngĠdeĠ": 8009,
      "wÃ¨nĠtÃŃĠdeĠ": 8010,
      "5ĠgÃ¨Ġ": 8011,
      "sÇİoĠ": 8012,
      "yÃ¹ĠjÃ¬Ġ": 8013,
      "dÃ²ngĠgÅįngĠ": 8014,
      "bÄ«ngĠbÃ¹Ġ": 8015,
      "lÇĶĠkÃ¨Ġ": 8016,
      "ĠyÇĲĠshÃłngĠdeĠ": 8017,
      "ĠyÇĶĠcÇĲĠtÃ³ngĠshÃŃĠ": 8018,
      "ĠchÅ«ĠxÃŃĠ": 8019,
      "duÅįĠyÃłngĠ": 8020,
      "1ĠhÃłoĠ": 8021,
      "ĠhÃłnĠzÃºĠ": 8022,
      "jiÃ¨ĠshÃŃĠ": 8023,
      "miÇİo": 8024,
      "chÇİngĠjÇĲngĠ": 8025,
      "zÇĶĠchÃ©ng": 8026,
      "zhÃ¨ĠbÃ¹Ġ": 8027,
      "yÇĶĠyÇĲĠ": 8028,
      "hÃ²uĠyÃºĠ": 8029,
      "ĠzhÃ¬ĠshÇİo": 8030,
      "ĠyÄ«ĠzhÄ«Ġ": 8031,
      "jiÃ¨ĠshÃło": 8032,
      "kÄĵĠfÅ«": 8033,
      "dÇĴuĠ": 8034,
      "yÇĲĠhÃ²uĠ": 8035,
      "yÇİnĠshÄĵngĠ": 8036,
      "dÄĵngĠjÃ¬Ġ": 8037,
      "dÃłĠshÇĲĠ": 8038,
      "fÄĵnĠlÃ¨i": 8039,
      "ĠzhÅįngĠguÃ³ĠdÃłĠlÃ¹ĠdeĠ": 8040,
      "cÃ¡iĠchÇİnĠ": 8041,
      "yÇĴngĠjiÇĶĠ": 8042,
      "zhÇĲĠhuÄ«ĠguÄģnĠ": 8043,
      "ĠĠĠjiÃ©ĠzhÃ¬Ġ202": 8044,
      "xiÃłĠxiÃ¡ĠyÇĲĠxiÃłĠdÃ¬ĠqÅ«Ġ": 8045,
      "gÃ©ĠlÃ¬Ġ": 8046,
      "ĠbÃ¹ĠjiÄģĠ": 8047,
      "tÃ²uĠguÃ²": 8048,
      "chÇĴngĠ": 8049,
      "zhÃłnĠzhÃ¬Ġ": 8050,
      "cÃ©ngĠshÃ¬Ġ": 8051,
      "ĠzhÃ¬ĠzÃło": 8052,
      "zhÃ¨ngĠquÃ¡nĠ": 8053,
      "fÄĵnĠlÃŃĠ": 8054,
      "shÃ²uĠhÃłiĠ": 8055,
      "zÄ«ĠzhÃ¹Ġ": 8056,
      "12ĠyuÃ¨Ġ31ĠrÃ¬Ġ": 8057,
      "zhÇĶĠchÃŃĠrÃ©nĠ": 8058,
      "ĠxÇĶĠ": 8059,
      "ĠĠĠjÃ¬Ġ": 8060,
      "diÄģn": 8061,
      "Ġ100": 8062,
      "shÄ«ĠdÃ¬Ġ": 8063,
      "jÇĲngĠwÃ¨iĠ": 8064,
      "bÃ¡iĠzhÃ¬Ġ": 8065,
      "chuÃ¡nĠbÅį": 8066,
      "gÄģnĠsÃ¹Ġ": 8067,
      "ĠjÃ¬nĠshÃ¬ĠchÅ«ĠshÄĵnĠ": 8068,
      "pÃ¹": 8069,
      "ĠmÇİn": 8070,
      "ĠxÅ«ĠyÃłoĠ": 8071,
      "zÃºĠrÃ©nĠ": 8072,
      "ĠxiÃłnĠrÃ¹Ġ": 8073,
      "ĠqÃŃĠzhÅįngĠnÃ¡nĠ": 8074,
      "lÃ¡iĠzÃ¬ĠyÃºĠ": 8075,
      "mÃ¡oĠzÃ©ĠdÅįngĠ": 8076,
      "ĠmÇĲ": 8077,
      "ĠpÃŃ": 8078,
      "ĠĠĠ10ĠyuÃ¨Ġ": 8079,
      "xiÃłngĠxÄ«Ġ": 8080,
      "mÇİĠdeĠ": 8081,
      "chÃ¡oĠdeĠ": 8082,
      "lÇĶĠshÃ¬Ġ": 8083,
      "ĠbÃ¹ĠbiÃłnĠ": 8084,
      "fÇİĠlÃ¬ngĠ": 8085,
      "zÄ«ĠshÄĽngĠ": 8086,
      "gÇİnĠjuÃ©Ġ": 8087,
      "wÃºĠrÃ©nĠjÄ«Ġ": 8088,
      "ĠĠĠbÄĽiĠ": 8089,
      "ĠdÃ¬ĠsÄ«Ġ": 8090,
      "jÄ«ngĠguÃ²": 8091,
      "zÇĲĠnÇļĠ": 8092,
      "pÃłnĠjuÃ©Ġ": 8093,
      "Ġãĥ¼": 8094,
      "zhÃłnĠjÃ¬Ġ": 8095,
      "bÇİoĠzhÃ¨ngĠ": 8096,
      "fÄĵiĠlÃ¬Ġ": 8097,
      "yÄ«ngĠguÃ³ĠdeĠ": 8098,
      "biÄģnĠjÃ¬ngĠ": 8099,
      "cÃ¡iĠwÃ¹Ġ": 8100,
      "shÇĲĠyÃ²ngĠleĠ": 8101,
      "jÃºĠjÃºĠzhÇİngĠ": 8102,
      "gÃ²ngĠchÇİnĠzhÇĶĠyÃ¬Ġ": 8103,
      "ĠgÅįngĠkÄģiĠsÃłiĠ": 8104,
      "zÃ¬ĠxÃŃngĠchÄĵĠ": 8105,
      "âĪ": 8106,
      "Ġ26": 8107,
      "ĠjÇĲĠ": 8108,
      "ĠtuÄ«Ġ": 8109,
      "qÅ«ĠfÄĵnĠ": 8110,
      "shÇĴuĠfÇĶĠ": 8111,
      "Ġ1982ĠniÃ¡nĠ": 8112,
      "neĠĠĠ": 8113,
      "qÇĶĠjiÄģĠ": 8114,
      "miÃ¡oĠhuÃ¬Ġ": 8115,
      "ĠzhÄ«ĠjÃ¬Ġ": 8116,
      "ĠbÃ¨iĠqÃŃĠ": 8117,
      "bÃłoĠzhÇĲĠ": 8118,
      "gÇİiĠshÃłn": 8119,
      "wÃ¡nĠchÃ©ngĠleĠ": 8120,
      "6ĠgÃ¨Ġ": 8121,
      "ziĠhÃ©Ġ": 8122,
      "hÄĽnĠduÅį": 8123,
      "ĠshÃ¬ĠzhÅįngĠxÄ«nĠ": 8124,
      "ĠĠĠk": 8125,
      "ĠĠĠlÃ¬ngĠwÃłiĠ": 8126,
      "yÇĲnĠshÃŃĠ": 8127,
      "ĠshÃ¬ĠyÃłnĠ": 8128,
      "ĠshÃ¬ĠwÅ«ĠkÃ¨ĠlÃ¡n": 8129,
      "ĠbÃ¹ĠzhÃ¬Ġ": 8130,
      "sÄ«ĠxiÇİngĠ": 8131,
      "ĠyÄ«ĠmÃ©iĠ": 8132,
      "ĠmÃ¡Ġ": 8133,
      "ÄģiĠnÃłĠ": 8134,
      "ĠgÅįngĠzuÃ²ĠshÃ¬Ġ": 8135,
      "huÃ¡ĠshÃ¨ngĠdÃ¹n": 8136,
      "ĠĠĠst": 8137,
      "chÅ«ĠshÄĵngĠ": 8138,
      "Ã¨rĠzhÃłnĠ": 8139,
      "ĠdeĠgÃ¹ĠshÃ¬Ġ": 8140,
      "ĠdÃłĠzhÃ²ngĠ": 8141,
      "ĠtÃ³ngĠyÄ«Ġ": 8142,
      "ÃłnĠzhÃłoĠ": 8143,
      "Ġ1987ĠniÃ¡nĠ": 8144,
      "ĠhÃ©ĠbÃ¬ngĠwÃ¨iĠ": 8145,
      "shuÃ²ĠshÃ¬ĠxuÃ©ĠwÃ¨iĠ": 8146,
      "fÃłĠ": 8147,
      "ĠdÃłĠxÃŃng": 8148,
      "shÄĵnĠzhÃ¨n": 8149,
      "ĠÃłoĠdÃłĠlÃ¬Ġ": 8150,
      "63": 8151,
      "se": 8152,
      "Ġ27": 8153,
      "qÃºnĠdeĠ": 8154,
      "ĠjÅ«nĠdÃ¬Ġ": 8155,
      "ĠqiÃ¡nĠwÇİngĠ": 8156,
      "ĠxÃ¬ĠliÃ¨Ġ": 8157,
      "guÄģ": 8158,
      "fÄģngĠchÃ©ngĠ": 8159,
      "jÇĲĠhÃ©Ġ": 8160,
      "ĠdÃłĠjiÄģĠ": 8161,
      "ck": 8162,
      "zhÇİngĠyuÄĵĠ": 8163,
      "dÃłngĠÃłnĠ": 8164,
      "IIĠ": 8165,
      "ĠdÅįu": 8166,
      "zhÄ«ĠmÃŃngĠ": 8167,
      "huÃ²ĠshÃ¬Ġ": 8168,
      "wÃłiĠwÃ©iĠ": 8169,
      "dÃ¡ĠdeĠ": 8170,
      "zhÄĽngĠhÃ©Ġ": 8171,
      "guÃ³ĠnÃ¨iĠ": 8172,
      "ĠjiÃłnĠhÃ©Ġ": 8173,
      "ĠzÃ¬ĠdÃ²ngĠ": 8174,
      "ĠfÃ³Ġ": 8175,
      "ĠyÃºĠ190": 8176,
      "tÃ¬ĠdÃłiĠ": 8177,
      "Ch": 8178,
      "cÃłi": 8179,
      "kÄģn": 8180,
      "ĠÅįuĠzhÅįuĠ": 8181,
      "luÃ³ĠjÃŃĠ": 8182,
      "ĠgÅįngĠzhÃłnĠ": 8183,
      "ĠdÃłnĠyÄ«nĠ": 8184,
      "jÄ«ĠbÃ¹Ġ": 8185,
      "fÃºĠÄĽrĠ": 8186,
      "bÅįĠÄĽrĠ": 8187,
      "lÃŃngĠdeĠ": 8188,
      "ĠzÃłiĠ195": 8189,
      "ĠdÃ¬ĠguÃ³ĠdeĠ": 8190,
      "jÃ¹ĠfÄĵngĠ": 8191,
      "sÄģnĠcÃ¬Ġ": 8192,
      "bÄģĠfÃ¡": 8193,
      "ĠzhÃ¨ĠbÃ¹Ġ": 8194,
      "ĠsÅ«ĠliÃ¡nĠ": 8195,
      "bÄĵng": 8196,
      "cÇĲĠzhÄ«ĠwÃłiĠ": 8197,
      "ĠyÇĲĠnÃ¡nĠ": 8198,
      "ĠxÃŃngĠchÃ©ngĠdeĠ": 8199,
      "jiÃłoĠzuÃ²Ġ": 8200,
      "ĠpÇİoĠ": 8201,
      "ĠpÄģiĠshÃ¨Ġ": 8202,
      "ĠchÃ¡oĠxiÄģnĠ": 8203,
      "liÃ¨ĠshÃ¬Ġ": 8204,
      "jiÄĵĠchÃ¹": 8205,
      "tiÄģnĠhuÃ¡ngĠ": 8206,
      "chÄĵngĠhÃłoĠ": 8207,
      "xiÃłnĠfÇİĠ": 8208,
      "zÄĵngĠqiÃ¡ngĠ": 8209,
      "ĠchÅ«ĠxiÃłnĠleĠ": 8210,
      "ĠdeĠmÃŃngĠzÃ¬Ġ": 8211,
      "bÃ¡oĠ": 8212,
      "ĠcÃ¡i": 8213,
      "ĠĠĠv": 8214,
      "zhÃłnĠwÃ¨iĠ": 8215,
      "1999ĠniÃ¡nĠ": 8216,
      "ther": 8217,
      "ĠdÃłĠshÄ«Ġ": 8218,
      "ĠjÄ«ĠchÇĶĠ": 8219,
      "zÃºĠxiÃ©Ġ": 8220,
      "xiÃłĠdeĠyÃŃĠgÃ¨Ġ": 8221,
      "shÃ¨ngĠdÃ¬Ġ": 8222,
      "zuÃ²ĠchÅ«": 8223,
      "jÇĲngĠguÄģnĠ": 8224,
      "dÄģngĠxuÇİn": 8225,
      "ĠĠĠ2003ĠniÃ¡nĠ": 8226,
      "Ġ1978ĠniÃ¡nĠ": 8227,
      "jÇĲnĠbiÄģoĠsÃłi": 8228,
      "ĠĠĠ6Ġ": 8229,
      "gÃ²ngĠshÃŃĠ": 8230,
      "ĠdÃłoĠbÃ¹Ġ": 8231,
      "miÃłnĠtÇĲĠ": 8232,
      "shÃ©nĠhuÃłĠ": 8233,
      "bÃ¬ngĠmÃ©iĠyÇĴuĠ": 8234,
      "ĠlÃ¬ngĠyÃ¬ĠfÄģngĠmiÃłnĠ": 8235,
      "ĠwÃ©nĠhuÃłĠ": 8236,
      "kÃ¹n": 8237,
      "ĠyuÃ¡nĠshÇĲĠ": 8238,
      "qÅ«ĠjiÄģnĠ": 8239,
      "lÇĲngĠyÃ¹": 8240,
      "zhuÃłngĠkuÃłng": 8241,
      "yÃ¡nĠjiÅ«ĠyuÃłnĠ": 8242,
      "mÃ¹ĠzhÃ¬Ġ": 8243,
      "shÄĵngĠmÃŃngĠ": 8244,
      "zhÃ²ngĠzhÃŃĠ": 8245,
      "Ġ40": 8246,
      "ĠyÃºĠ2008ĠniÃ¡nĠ": 8247,
      "âĦ": 8248,
      "hÃ²uĠshÃ¬Ġ": 8249,
      "quÄģn": 8250,
      "wÃłnĠniÃ¡nĠ": 8251,
      "nuÃ²ĠsÄ«Ġ": 8252,
      "ĠhÃ©ĠsuÄģnĠ": 8253,
      "hÃ²uĠlÃ¡iĠ": 8254,
      "ĠsÄ«ĠkÇİĠ": 8255,
      "pÃŃngĠmÃŃnĠ": 8256,
      "shÇĴuĠduÃłnĠ": 8257,
      "shÄģngĠdiÃłnĠ": 8258,
      "zhÅ«ĠlÃ³ng": 8259,
      "miÃ¡oĠshÃ¹": 8260,
      "âĨĴ": 8261,
      "ĠshÄĵngĠzhÇİngĠyÃºĠhÇİiĠbÃ¡": 8262,
      "gÄģoĠyuÃ¡nĠ": 8263,
      "chuÃłngĠxÄ«nĠ": 8264,
      "ĠyuÃ¨ĠtÃ¡i": 8265,
      "dÃ²uĠzhÄĵngĠ": 8266,
      "cuÃ²ĠwÃ¹Ġ": 8267,
      "tÄģoĠ": 8268,
      "bÅįĠchÅ«": 8269,
      "ĠzÃłiĠyÄ«ngĠguÃ³Ġ": 8270,
      "ÄģnĠdÅįngĠ": 8271,
      "hÃ¡ngĠyÃ¨Ġ": 8272,
      "fÃ¡ngĠzhÇĲĠ": 8273,
      "Ġ1980ĠniÃ¡nĠ": 8274,
      "nÃ¹": 8275,
      "ĠshÃłnĠ": 8276,
      "ÄģĠjÄ«Ġ": 8277,
      "tÃ¡oĠyuÃ¡nĠ": 8278,
      "zhÇĶĠchÇİngĠ": 8279,
      "yÃ¡nĠshÄĵnĠ": 8280,
      "mÃ¬ngĠlÃ¬ng": 8281,
      "ĠdÃ¬ĠyÄ«ĠcÃ¬": 8282,
      "ĠĠĠSt": 8283,
      "Ġ1948ĠniÃ¡nĠ": 8284,
      "ĠniÇĶĠyuÄĵ": 8285,
      "ĠwÃ¨iĠyÃ³uĠ": 8286,
      "ĠyuÃ¡nĠzÃ©Ġ": 8287,
[...]
